{"!":0,"\"":1,"#":2,"$":3,"%":4,"&":5,"'":6,"(":7,")":8,"*":9,"+":10,",":11,"-":12,".":13,"/":14,"0":15,"1":16,"2":17,"3":18,"4":19,"5":20,"6":21,"7":22,"8":23,"9":24,":":25,";":26,"=":27,"?":28,"@":29,"A":30,"B":31,"C":32,"D":33,"E":34,"F":35,"G":36,"H":37,"I":38,"J":39,"K":40,"L":41,"M":42,"N":43,"O":44,"P":45,"Q":46,"R":47,"S":48,"T":49,"U":50,"V":51,"W":52,"X":53,"Y":54,"Z":55,"[":56,"\\":57,"]":58,"^":59,"_":60,"`":61,"a":62,"b":63,"c":64,"d":65,"e":66,"f":67,"g":68,"h":69,"i":70,"j":71,"k":72,"l":73,"m":74,"n":75,"o":76,"p":77,"q":78,"r":79,"s":80,"t":81,"u":82,"v":83,"w":84,"x":85,"y":86,"z":87,"|":88,"~":89,"¡":90,"¢":91,"£":92,"¤":93,"¥":94,"¦":95,"§":96,"¨":97,"©":98,"ª":99,"«":100,"¬":101,"®":102,"¯":103,"°":104,"±":105,"²":106,"³":107,"´":108,"µ":109,"¶":110,"·":111,"¸":112,"¹":113,"º":114,"»":115,"¼":116,"½":117,"¾":118,"¿":119,"Â":120,"Ã":121,"Ä":122,"Å":123,"Æ":124,"Ç":125,"È":126,"É":127,"Ê":128,"Ë":129,"Ì":130,"Í":131,"Î":132,"Ï":133,"Ð":134,"Ñ":135,"Ò":136,"Ó":137,"Ô":138,"Õ":139,"Ö":140,"×":141,"Ø":142,"Ù":143,"Ú":144,"Û":145,"Ü":146,"Þ":147,"ß":148,"à":149,"á":150,"â":151,"ã":152,"ä":153,"å":154,"æ":155,"ç":156,"è":157,"é":158,"ê":159,"ë":160,"ì":161,"í":162,"î":163,"ï":164,"ð":165,"ñ":166,"Ċ":167,"Ġ":168,"ġ":169,"Ģ":170,"ģ":171,"Ĥ":172,"ĥ":173,"Ħ":174,"ħ":175,"Ĩ":176,"ĩ":177,"Ī":178,"ī":179,"Ĭ":180,"ĭ":181,"Į":182,"į":183,"İ":184,"ı":185,"Ĳ":186,"ĳ":187,"Ĵ":188,"ĵ":189,"Ķ":190,"ķ":191,"ĸ":192,"Ĺ":193,"ĺ":194,"Ļ":195,"ļ":196,"Ľ":197,"ľ":198,"Ŀ":199,"ŀ":200,"Ł":201,"ł":202,"Ń":203,"ä¸":204,"äº":205,"çļ":206,"çļĦ":207,"åħ":208,"åı":209,"æľ":210,"ãĢ":211,"å¹":212,"ä»":213,"å¤":214,"åľ":215,"åĲ":216,"åĪ":217,"åĽ":218,"å®":219,"å¹´":220,"ä½":221,"æĹ":222,"çĶ":223,"åį":224,"æĸ":225,"è¿":226,"å°":227,"æĺ":228,"ä¹":229,"ç»":230,"ãĢģ":231,"åľ¨":232,"ä¸º":233,"åĬ":234,"æĪ":235,"ä¼":236,"ä¸Ģ":237,"åŃ":238,"åĮ":239,"å¸":240,"è¯":241,"è®":242,"ä¸Ń":243,"åĨ":244,"åĽ½":245,"äºº":246,"æĺ¯":247,"åº":248,"æĿ":249,"å¼":250,"å·":251,"äºİ":252,"å¾":253,"éĩ":254,"çī":255,"ç§":256,"è¡":257,"çº":258,"å¤§":259,"æī":260,"éĢ":261,"æľī":262,"å±":263,"æĶ":264,"åĩ":265,"åĴ":266,"åĴĮ":267,"20":268,"æŃ":269,"éĥ":270,"èµ":271,"èĢ":272,"æķ":273,"å½":274,"åİ":275,"æľĪ":276,"å¯":277,"æ°":278,"éĻ":279,"æĭ":280,"æĹ¥":281,"çĽ":282,"èĩ":283,"æ³":284,"å¥":285,"æł":286,"çİ":287,"19":288,"éĺ":289,"ä»¥":290,"åĲİ":291,"æĹ¶":292,"âĢ":293,"åĳ":294,"äºĨ":295,"åľ°":296,"æ²":297,"ç«":298,"æµ":299,"ä¼ļ":300,"åŃ¦":301,"è§":302,"æĢ":303,"è¾":304,"è´":305,"æĪĲ":306,"éĹ":307,"è½":308,"éĿ":309,"åŁ":310,"ä¸ª":311,"çĲ":312,"ä¸Ĭ":313,"éĥ¨":314,"åī":315,"æĸ¯":316,"éķ":317,"ä¸İ":318,"è¡Į":319,"ä»ĸ":320,"åĩº":321,"ä¸į":322,"æ¯":323,"åĮº":324,"æ´":325,"æŀ":326,"æĬ":327,"æİ":328,"åħ¬":329,"ç¬":330,"åħ¶":331,"åıĳ":332,"æ¸":333,"ç½":334,"ä½ľ":335,"çĶŁ":336,"æĽ":337,"å°Ķ":338,"åĲį":339,"ä¿":340,"ä¸»":341,"åĪĨ":342,"è¢":343,"çŃ":344,"èĥ":345,"ä¹ĭ":346,"éģ":347,"æĸ¹":348,"ç¬¬":349,"çĶ¨":350,"å®¶":351,"å§":352,"ãĢĭ":353,"ãĢĬ":354,"è¥":355,"å¹¶":356,"ç¾":357,"è¥¿":358,"æ³ķ":359,"åĪ°":360,"å¿":361,"èĢĮ":362,"Â·":363,"æ¬":364,"é¢":365,"åĨĽ":366,"å»":367,"åıĬ":368,"è¢«":369,"ä¾":370,"æĶ¿":371,"ä½į":372,"ç±":373,"çĶ±":374,"æĮ":375,"æľ¬":376,"çľ":377,"æ±":378,"æ°ĳ":379,"è·":380,"éĽ":381,"é¦":382,"ä¸ĭ":383,"å¸Ĥ":384,"åĵ":385,"å¯¹":386,"åĲĮ":387,"èģ":388,"èĭ":389,"åħĭ":390,"åĬ¨":391,"æĿ¥":392,"çī¹":393,"éķ¿":394,"è¿Ļ":395,"å¤ļ":396,"ä»»":397,"èĩª":398,"å¼Ģ":399,"éĩĮ":400,"åĳĺ":401,"åįĹ":402,"é©":403,"åŃĲ":404,"åı¯":405,"æĸ°":406,"å¹³":407,"èī":408,"åĿ":409,"èİ":410,"åĬł":411,"å¾·":412,"åĮĹ":413,"ãĢĮ":414,"ãĢį":415,"æľĢ":416,"æĸĩ":417,"å£":418,"åĪ©":419,"æĻ":420,"ç¾İ":421,"é«":422,"åīį":423,"ä¸ľ":424,"ä»£":425,"é«ĺ":426,"äºļ":427,"éĿ¢":428,"æµ·":429,"æīĢ":430,"¦ģ":431,"å¾Ĺ":432,"èĩ³":433,"ç¤":434,"å»º":435,"èĪ":436,"éĹ´":437,"æŃ¤":438,"åĨħ":439,"åĽł":440,"äºĭ":441,"âĢľ":442,"ä¸ī":443,"âĢĿ":444,"çİ°":445,"è¿Ľ":446,"çĶµ":447,"),":448,"ä¹Ł":449,"çī©":450,"è¿ĩ":451,"èµĽ":452,"201":453,"çŃī":454,"åı°":455,"åº¦":456,"è½¦":457,"åħ¥":458,"è¯¥":459,"ç»ı":460,"å½ĵ":461,"éģĵ":462,"ç¥":463,"è¦ģ":464,"ç«ĭ":465,"æĪĺ":466,"å°Ĩ":467,"çĲĨ":468,"ç©":469,"è¡¨":470,"ä½ĵ":471,"çŁ":472,"çķ":473,"æĭī":474,"é¡":475,"å¦":476,"è°":477,"å²":478,"æľº":479,"æķĻ":480,"æľŁ":481,"ä¸ĸ":482,"èĲ":483,"éļ":484,"æı":485,"å·¥":486,"åĪ¶":487,"ç®":488,"èĥ½":489,"äºĮ":490,"å¤ĸ":491,"åĲĪ":492,"æį":493,"è·¯":494,"å®ļ":495,"åı£":496,"çľģ":497,"å¸ĥ":498,"æ¬¡":499,"æĦ":500,"é©¬":501,"è®¾":502,"åħ±":503,"æĢ§":504,"éĺŁ":505,"åľº":506,"éĢļ":507,"ä¸ļ":508,"å±±":509,"å°ı":510,"200":511,"çĲĥ":512,"ä½Ĩ":513,"èĬ":514,"ä½¿":515,"éĵ":516,"è¶":517,"åįģ":518,"ä¸Ģä¸ª":519,"èĢħ":520,"å·ŀ":521,"åĮĸ":522,"åħ¨":523,"æĥ":524,"ç³":525,"æķ°":526,"ç§į":527,"é£":528,"ç§°":529,"å¤©":530,"èĤ":531,"ç½Ĺ":532,"ç§ĳ":533,"çł":534,"æŁ":535,"çº¿":536,"çĻ":537,"å¼ı":538,"ç±³":539,"ç«Ļ":540,"éĩį":541,"å®ī":542,"éŁ":543,"èģĶ":544,"æģ":545,"çĤ":546,"ä¸¤":547,"éĤ":548,"ç³»":549,"æ¯Ķ":550,"æ¼":551,"ç¼":552,"10":553,"çĪ":554,"æ¡":555,"ç¦":556,"ç¨":557,"å¢":558,"æĢ»":559,"éĢī":560,"è¿Ĳ":561,"åĬĽ":562,"åİ¿":563,"åħ°":564,"å£«":565,"çĽ¸":566,"éĻ¢":567,"æ¹":568,"åŁº":569,"åħ³":570,"ä¸ŃåĽ½":571,"éĥ½":572,"æ²»":573,"åİŁ":574,"è¾¾":575,"åŁİ":576,"ç»Ł":577,"åģ":578,"æł¼":579,"èµ·":580,"ç»Ħ":581,"æŃ£":582,"æĺİ":583,"é»":584,"çº¦":585,"åı·":586,"èĭ±":587,"æ°´":588,"å½±":589,"å°¼":590,"æĪĸ":591,"å±ŀ":592,"åºľ":593,"å¡":594,"æİ¥":595,"åı¸":596,"è®¡":597,"éĩĳ":598,"çĽ®":599,"é¦ĸ":600,"çİĭ":601,"è®®":602,"æıĲ":603,"åįİ":604,"çĦ":605,"ä»¬":606,"éĺ¿":607,"åĽĽ":608,"ä»İ":609,"åĪĹ":610,"åħĥ":611,"çģ":612,"æ¼Ķ":613,"å·´":614,"ç¾İåĽ½":615,"èĳ":616,"00":617,"å¦Ĥ":618,"äº§":619,"è¯Ń":620,"åĢ":621,"éħ":622,"åıĤ":623,"åı²":624,"éĩı":625,"åŀ":626,"æĶ¹":627,"å¸¸":628,"å¥³":629,"æ®":630,"æ¶":631,"éķĩ":632,"åĲĳ":633,"è£":634,"èį":635,"åĬ¡":636,"æŀĹ":637,"18":638,"åĮħ":639,"æ¸¯":640,"å¨":641,").":642,"æĽ¾":643,"æĹł":644,"èİ·":645,"äººåı£":646,"çĦ¶":647,"äº¤":648,"åĶ":649,"å®ŀ":650,"å¿ĥ":651,"éĶ":652,"åıĹ":653,"éľ":654,"12":655,"ä½įäºİ":656,"ç»´":657,"æĦı":658,"åİĨ":659,"ç»ĵ":660,"èī²":661,"çķĮ":662,"çº§":663,"ä¹Ĳ":664,"æīĭ":665,"å§ĭ":666,"ä¿Ŀ":667,"å§Ķ":668,"åĪĻ":669,"ä¹ī":670,"æĴ":671,"å¤Ħ":672,"åħļ":673,"è§Ĩ":674,"ä¹¦":675,"ç´":676,"åĽ¢":677,"0å¹´":678,"ç®¡":679,"å½¢":680,"ç¨ĭ":681,"æ£":682,"å¯¼":683,"åĭ":684,"1å¹´":685,"è®¤":686,"æį®":687,"ç±»":688,"æ²³":689,"å°±":690,"åį¡":691,"éĹ¨":692,"æ·":693,"æĮĩ":694,"æľĪ2":695,"çĽ´":696,"202":697,"5å¹´":698,"åįķ":699,"éĴ":700,"çĥ":701,"è¯´":702,"éŁ³":703,"äºĽ":704,"å¹¿":705,"åŀĭ":706,"å·²":707,"åºĶ":708,"4å¹´":709,"æĺŁ":710,"éĽĨ":711,"ç¤º":712,"å¥¥":713,"æµģ":714,"é¢Ĩ":715,"ç¤¾":716,"åł":717,"ä¼ł":718,"æº":719,"æĮģ":720,"é²":721,"åĵģ":722,"çĤ¹":723,"èº":724,"æł¡":725,"æĽ´":726,"2å¹´":727,"å±ķ":728,"å¤«":729,"3å¹´":730,"er":731,"çĭ":732,"åĽŀ":733,"èĮ":734,"ä¸¾":735,"æĻ®":736,"11":737,"æ¸¸":738,"ä¸ĩ":739,"ç§¯":740,"8å¹´":741,"èº«":742,"6å¹´":743,"æ¢":744,"ç©º":745,"åıį":746,"éª":747,"èµĦ":748,"æĶ¿åºľ":749,"æĥħ":750,"å®ĺ":751,"ç¡":752,"çºª":753,"äºĶ":754,"æ´»":755,"è¿ĺ":756,"é¾":757,"åĩ»":758,"an":759,"æĶ¯":760,"é¦Ļ":761,"æłĩ":762,"æĬ¥":763,"æ»":764,"or":765,"å¸Ī":766,"åĲĦ":767,"æ¹¾":768,"éĵģ":769,"åĪ«":770,"7å¹´":771,"èĴ":772,"éĢł":773,"å¤§åŃ¦":774,"çº³":775,"èĻ":776,"åıĸ":777,"ä½¿çĶ¨":778,"çĬ":779,"åı¤":780,"å²Ľ":781,"çĸ":782,"æĪĲä¸º":783,"å¤ª":784,"æĹ¥æľ¬":785,"in":786,"åī§":787,"å±Ģ":788,"åħ¬åı¸":789,"åıĺ":790,"æĭ¬":791,"çı":792,"æľ¯":793,"åŃĹ":794,"åķ":795,"å¥¹":796,"çĿ":797,"æĹı":798,"ä¸ĵ":799,"åĳ½":800,"åĮħæĭ¬":801,"åľ°åĮº":802,"éĿŀ":803,"å¸¦":804,"èĳĹ":805,"åĽ½å®¶":806,"å¼ł":807,"è®º":808,"è¿ĳ":809,"åį³":810,"å¼Ģå§ĭ":811,"çłĶ":812,"æľĿ":813,"æ±Ł":814,"åĨ³":815,"ä¿¡":816,"è§£":817,"æ´²":818,"æĽ²":819,"èĬĤ":820,"çĹ":821,"ç¥ŀ":822,"é£İ":823,"on":824,"çīĩ":825,"å°ĳ":826,"èģĮ":827,"ä»¶":828,"ç²":829,"è¿Ľè¡Į":830,"ä¼Ĭ":831,"åĽ¾":832,"èĦ":833,"æľª":834,"çĵ":835,"è®°":836,"åıª":837,"ç¿":838,"å¹³æĸ¹":839,"å®ĥ":840,"æľĪ1":841,"æł¹":842,"æĿĥ":843,"æ²¡":844,"çŁ³":845,"éĻħ":846,"ç¬¬ä¸Ģ":847,"èĭı":848,"æ¯ı":849,"ç¼ĸ":850,"è§Ĵ":851,"è½¬":852,"åı¯ä»¥":853,"æĶ¾":854,"æ³¢":855,"æ¨":856,"äº¬":857,"ä¾ĭ":858,"199":859,"æĶ¶":860,"æĿ¡":861,"çļĦä¸Ģ":862,"åĪĴ":863,"è°ĥ":864,"é¾Ļ":865,"åħ¬éĩĮ":866,"é¦Ļæ¸¯":867,"åĳ¨":868,"åħī":869,"åķĨ":870,"åĪĽ":871,"æ¸ħ":872,"è¿ŀ":873,"åĪĿ":874,"9å¹´":875,"æ°Ķ":876,"æŃĮ":877,"ç¦»":878,"æĿĳ":879,"åĸ":880,"æĳ":881,"çīĪ":882,"éĻĨ":883,"éĥ¨åĪĨ":884,"ç©¶":885,"åĻ":886,"å¾Ģ":887,"äººæ°ĳ":888,"å¤´":889,"èİ·å¾Ĺ":890,"è±":891,"åŃ£":892,"çŁ¥":893,"ä¸ĸçķĮ":894,"åıĪ":895,"éĿ¢ç§¯":896,"åħĪ":897,"çłĶç©¶":898,"åİ»":899,"å¯Ĩ":900,"æŀĦ":901,"åŁŁ":902,"æ´¾":903,"ä»¤":904,"æīĵ":905,"ç»Ń":906,"æŀľ":907,"åĬŀ":908,"å¼º":909,"éļı":910,"æŁ¥":911,"å¨ģ":912,"ä¸»è¦ģ":913,"çĻ½":914,"åĨį":915,"åħµ":916,"äºī":917,"åº§":918,"æŃ¦":919,"ä»ĸä»¬":920,"ç¦ı":921,"å¤į":922,"è§Ĥ":923,"èĤ²":924,"è£ħ":925,"åİĨåı²":926,"å®Į":927,"åħŃ":928,"la":929,"åĻ¨":930,"è®¤ä¸º":931,"å¼ķ":932,"é¡¹":933,"æ®µ":934,"æļ":935,"é¢ĺ":936,"è¶³":937,"åı°æ¹¾":938,"åĵĪ":939,"æ²¡æľī":940,"ä¸Ķ":941,"æĿİ":942,"çĳ":943,"å¡Ķ":944,"æľį":945,"éĻ¤":946,"å±ħ":947,"å®£":948,"æ¬§":949,"15":950,"æĪı":951,"ç½ĳ":952,"æĴŃ":953,"ç»Ī":954,"è§Ħ":955,"æĭħ":956,"åįı":957,"èĲ¥":958,"äº¦":959,"è®¸":960,"æİ¨":961,"èı":962,"çĵ¦":963,"åľ£":964,"ä»½":965,"å§Ķåĳĺ":966,"å¥ĸ":967,"åľŁ":968,"æ¡Ī":969,"ç½®":970,"å½ķ":971,"ä¿®":972,"è´¨":973,"è¨":974,"äº²":975,"èĲ¨":976,"è¨Ģ":977,"çĶ·":978,"åĦ":979,"ar":980,"æºĲ":981,"ç¬¬äºĮ":982,"åŃĺ":983,"å¸Ŀ":984,"ä»£è¡¨":985,"éĹ®":986,"åĭĴ":987,"ä»Ĭ":988,"è¯Ħ":989,"åĽŃ":990,"æ¥":991,"en":992,"åħ·":993,"ç»Ļ":994,"æĬ¤":995,"ä¾Ľ":996,"éĽ·":997,"è¿ĲåĬ¨":998,"é¦Ĩ":999,"æŃ»":1000,"æĬķ":1001,"åħ«":1002,"çĪ±":1003,"æĶ¿æ²»":1004,"çĶ±äºİ":1005,"æ³ķåĽ½":1006,"éĢŁ":1007,"åħ¶ä»ĸ":1008,"åįĥ":1009,"åĩĨ":1010,"å®Ĺ":1011,"åį°":1012,"å¢ŀ":1013,"è¾ĥ":1014,"è¶ħ":1015,"ä¼¯":1016,"å¢ĥ":1017,"æ´Ľ":1018,"å¸Į":1019,"æ±Ĥ":1020,"åĬŁ":1021,"è§ģ":1022,"çĶµå½±":1023,"çĶ»":1024,"çļĦä¸Ģä¸ª":1025,"æ±ī":1026,"16":1027,"èĩ´":1028,"(),":1029,"åĿĩ":1030,"åįĩ":1031,"å¤ĩ":1032,"åı¦":1033,"è¯º":1034,"åĬ©":1035,"åį«":1036,"å·¥ä½ľ":1037,"åįļ":1038,"çĮ":1039,"çİĩ":1040,"èİ±":1041,"éĺ³":1042,"åĦ¿":1043,"è¾¹":1044,"ä¼Ĺ":1045,"å¥½":1046,"èĹ":1047,"é¥":1048,"åĥ":1049,"å®¢":1050,"å®¹":1051,"èĪª":1052,"ä¼¦":1053,"åĳĬ":1054,"198":1055,"æĹ©":1056,"æ¨¡":1057,"çª":1058,"ä¹Į":1059,"åĲī":1060,"è¯ķ":1061,"ä¿Ħ":1062,"ä½ľä¸º":1063,"ä»¥åıĬ":1064,"æİĴ":1065,"åī¯":1066,"èīº":1067,"æł·":1068,"æµİ":1069,"å¾Ī":1070,"çģ«":1071,"çİ¯":1072,"æķħ":1073,"å¡ŀ":1074,"æĪĳ":1075,"æĶ»":1076,"åĽ½éĻħ":1077,"é»Ħ":1078,"çĶ°":1079,"ç¾¤":1080,"å·±":1081,"èĬ±":1082,"åı¯èĥ½":1083,"æ¯į":1084,"ä¹Ŀ":1085,"çĪ¶":1086,"æĸ½":1087,"åĵį":1088,"çıŃ":1089,"èħ":1090,"åĽ´":1091,"ä¸Ńå¿ĥ":1092,"è¡¨ç¤º":1093,"17":1094,"æĬĢ":1095,"æķ´":1096,"é²ģ":1097,"æ²Ļ":1098,"ç»§":1099,"åĮ»":1100,"æĭħä»»":1101,"30":1102,"å¤±":1103,"å¸Ĥéķĩ":1104,"çŃĳ":1105,"èĲ½":1106,"çĹħ":1107,"ä¸Ńåįİ":1108,"åħ´":1109,"è¯ģ":1110,"ç»ĩ":1111,")ãĢģ":1112,"ç³»ç»Ł":1113,"æ¦":1114,"è´£":1115,"ä¹¡":1116,"å¿Ĺ":1117,"å¸Ń":1118,"éĩĩ":1119,"éĺ²":1120,"èĪ°":1121,"å®¤":1122,"èŃ":1123,"å±Ĥ":1124,"æīĺ":1125,"ä¸ŃçļĦ":1126,"éĿĴ":1127,"çĽŁ":1128,"ä¸ĥ":1129,"æĦŁ":1130,"èŃ¦":1131,"éľĢ":1132,"çĻ»":1133,"åĨł":1134,"æĹ¶éĹ´":1135,"çĭ¬":1136,"èĭ±åĽ½":1137,"è´Ł":1138,"åįĬ":1139,"éº":1140,"æ¹ĸ":1141,"æ¸¸æĪı":1142,"éĢļè¿ĩ":1143,"å£°":1144,"çĶµè§Ĩ":1145,"å§Ĩ":1146,"éĤ£":1147,"çĻ¾":1148,"éħį":1149,"ç¢":1150,"èĩªå·±":1151,"åıĮ":1152,"è½¦ç«Ļ":1153,"éĻĪ":1154,"æł¹æį®":1155,"al":1156,"åłĤ":1157,"é»ĳ":1158,"åıĳçİ°":1159,"æĺĵ":1160,"çĥŃ":1161,"çļĩ":1162,"åĨĻ":1163,"å½ĵæĹ¶":1164,"è¡ĮæĶ¿":1165,"(,":1166,"ç¡®":1167,"çº¢":1168,"çĬ¶":1169,"é£ŀ":1170,"åıĳå±ķ":1171,"æĪĲç«ĭ":1172,"æģ©":1173,"ä½ķ":1174,"å¤ı":1175,"æľŁéĹ´":1176,"æ·±":1177,"ä»į":1178,"èĢĥ":1179,"æŀģ":1180,"ä½ı":1181,"åįł":1182,"çħ":1183,"é±":1184,"åħ±åĴĮ":1185,"æ£®":1186,"è¡Ĺ":1187,"14":1188,"è¶Ĭ":1189,"éĻĲ":1190,"å¤®":1191,"å°Ħ":1192,"é¸":1193,"é±¼":1194,"çĶ²":1195,"åĲĮæĹ¶":1196,"æŃ¥":1197,"at":1198,"è®¾è®¡":1199,"ç¤¾ä¼ļ":1200,"âĢĶ":1201,"é£Ł":1202,"è®©":1203,"å»ºçŃĳ":1204,"äºİ19":1205,"åĥı":1206,"åŁĥ":1207,"è±¡":1208,"ä¹ĭä¸Ģ":1209,"æĽ¼":1210,"æĿĢ":1211,"å¯Ł":1212,"è´¹":1213,"èĮĥ":1214,"å±Ĭ":1215,"æİ§":1216,"æī¹":1217,"ç¥¨":1218,"ä»ħ":1219,"æ½":1220,"è´Ŀ":1221,"æĻ¯":1222,"ç»Ħç»ĩ":1223,"æĸĻ":1224,"æĤ":1225,"åŃ¦éĻ¢":1226,"å¥ĩ":1227,"es":1228,"ä¸įåĲĮ":1229,"æ´ĭ":1230,"å²ģ":1231,"åıĤåĬł":1232,"æµĭ":1233,"çķĻ":1234,"èĢģ":1235,"ä¸Ńå¤®":1236,"å§Ķåĳĺä¼ļ":1237,"è¿ª":1238,"åĨľ":1239,"æ¥¼":1240,"æĸĩåĮĸ":1241,"ä½İ":1242,"æŃ¢":1243,"ä¸ĸçºª":1244,"å·Ŀ":1245,"å½±åĵį":1246,"æ¯ĶèµĽ":1247,"èĥľ":1248,"éĿ©":1249,"è¯į":1250,"åĵ¥":1251,"ç§°ä¸º":1252,"å¾ĭ":1253,"çīĮ":1254,"é¡¿":1255,"æĥ³":1256,"å±ŀäºİ":1257,"æİĪ":1258,"for":1259,"æķĪ":1260,"13":1261,"åĺ":1262,"æ³°":1263,"è¾ĸ":1264,"ä¾¿":1265,"å¹³æĸ¹åħ¬éĩĮ":1266,"æ¤":1267,"æľ¨":1268,"éĻį":1269,"åĩł":1270,"ç§»":1271,"è¿°":1272,"çľŁ":1273,"ic":1274,"æħ":1275,"åģľ":1276,"æīį":1277,"æ°ı":1278,"éĵ¶":1279,"æ¡¥":1280,"()":1281,"èĴĻ":1282,"æĪ¿":1283,"å¿µ":1284,"æĺ¾":1285,"éŁ³ä¹Ĳ":1286,"æī¿":1287,"æĢģ":1288,"çĿĢ":1289,"è´¥":1290,"âĢĿ.":1291,"å©":1292,"ç´¢":1293,"æ¾":1294,"åħ±åĴĮåĽ½":1295,"åºķ":1296,"åº·":1297,"åºĵ":1298,"é¢Ħ":1299,"ä¸»ä¹ī":1300,"éŃ":1301,"mu":1302,"åŃ¦æł¡":1303,"å¾ģ":1304,"ç´ł":1305,"æ´»åĬ¨":1306,"çīĻ":1307,"è¾ĳ":1308,"çľĭ":1309,"å¼¹":1310,"åĶ±":1311,"åħ¸":1312,"ä½ľåĵģ":1313,"æŃ£å¼ı":1314,"æ¶Ī":1315,"æıĲä¾Ľ":1316,"åĪ©äºļ":1317,"ç®Ģ":1318,"è®¡åĪĴ":1319,"åĩºçİ°":1320,"ç½Ĺæĸ¯":1321,"è½½":1322,"ä¹ł":1323,"ä»ĸçļĦ":1324,"æīĢæľī":1325,"æģ¯":1326,"ä»·":1327,"å³":1328,"ä¹ĭéĹ´":1329,"éĻĦ":1330,"ç»ıæµİ":1331,"ç®¡çĲĨ":1332,"åıĳçĶŁ":1333,"æľĢç»Ī":1334,"éĵģè·¯":1335,"çłģ":1336,"ãĢį.":1337,"çĳŀ":1338,"æī§":1339,"æĹ¶æľŁ":1340,"è¿ľ":1341,"is":1342,"åĿ¦":1343,"æĪ·":1344,"ä¸Ģç§į":1345,"å¹²":1346,"åıĭ":1347,"åŁİå¸Ĥ":1348,"åĨµ":1349,"ç®Ĺ":1350,"ä¾§":1351,"æķĻèĤ²":1352,"ç¥ĸ":1353,"éĢĢ":1354,"éŁ©":1355,"å®Ī":1356,"æ»¡":1357,"åĲİæĿ¥":1358,"äºĳ":1359,"æ³¨":1360,"èĪ¹":1361,"mula":1362,"å½ĵåľ°":1363,"è¯·":1364,"è¯Ŀ":1365,"æ¸©":1366,"éĤ¦":1367,"formula":1368,"åĢĻ":1369,"ä½Ļ":1370,"ä½Ľ":1371,"æĲ":1372,"æĬĬ":1373,"ç«ł":1374,"ä¸ģ":1375,"ç²¾":1376,"it":1377,"æĬĹ":1378,"å®ģ":1379,"çĽĳ":1380,"197":1381,"åĪ¶ä½ľ":1382,"åł¡":1383,"194":1384,"20å¹´":1385,"æľĽ":1386,"am":1387,"æĹ§":1388,"è´Łè´£":1389,"å¾·åĽ½":1390,"å·¦":1391,"æĪĲåĳĺ":1392,"ä¸ĬçļĦ":1393,"æĭ¿":1394,"éĹ®é¢ĺ":1395,"æľĹ":1396,"éªĮ":1397,"he":1398,"åĬ¿":1399,"è¿Ľåħ¥":1400,"æĢĿ":1401,"ä¸´":1402,"è®¸å¤ļ":1403,"åĪĺ":1404,"å´":1405,"çªģ":1406,"é¹":1407,"çł´":1408,"å¿«":1409,"å®«":1410,"æĹħ":1411,"ä¾Ŀ":1412,"åİĭ":1413,"åºĦ":1414,"ç¬¬ä¸ī":1415,"åĲįä¸º":1416,"èİ«":1417,"æľĢåĲİ":1418,"ä¼¼":1419,"æĪĺäºī":1420,"å¯Į":1421,"ä¸ĢäºĽ":1422,"æ¢ħ":1423,"çĿ£":1424,"åĢ¼":1425,"åģļ":1426,"åħ¨åĽ½":1427,"æĶ¯æĮģ":1428,"å°ģ":1429,"èĹı":1430,"æ°¸":1431,"åĲ«":1432,"å»¶":1433,"æĸĹ":1434,"èĴĤ":1435,"50":1436,"æĭĶ":1437,"çĶŁæ´»":1438,"åĽłä¸º":1439,"åİħ":1440,"ä¹ĭåĲİ":1441,"åį¢":1442,"äººçļĦ":1443,"çħ§":1444,"äº¡":1445,"æľįåĬ¡":1446,"å¼Ĺ":1447,"éļ¾":1448,"le":1449,"åİĤ":1450,"ç»Ĩ":1451,"æ¾³":1452,"åĪ¤":1453,"æĵ":1454,"æł¸":1455,"æŀ¶":1456,"ä¸¹":1457,"å¤§çļĦ":1458,"éģĹ":1459,"ä¼¤":1460,"å°¼äºļ":1461,"å®£å¸ĥ":1462,"çļ®":1463,"èĻ½":1464,"å½Ĵ":1465,"åį°åº¦":1466,"åı³":1467,"ä¿Ħç½Ĺæĸ¯":1468,"å·²ç»ı":1469,"è¯Ĩ":1470,"åºĨ":1471,"åıĤä¸İ":1472,"åľ°æĸ¹":1473,"ä¸¾è¡Į":1474,"æĸŃ":1475,"åħ³ç³»":1476,"åıĳè¡Į":1477,"éĹ»":1478,"196":1479,"çĨ":1480,"è½®":1481,"é½":1482,"åı¶":1483,"ä¸½":1484,"æĿ°":1485,"åºĹ":1486,"æĸ¹éĿ¢":1487,"ç¤¼":1488,"åĶĲ":1489,"åĨ³å®ļ":1490,"å·¥ç¨ĭ":1491,"ï¼":1492,"éĩįè¦ģ":1493,"èĽ":1494,"è¶³çĲĥ":1495,"ro":1496,"åĮĹäº¬":1497,"åĪĩ":1498,"ä¸¤ä¸ª":1499,"ä¼ĺ":1500,"çŃĸ":1501,"ä¸¥":1502,"ä¸Ĭæµ·":1503,"åºŃ":1504,"èµ°":1505,"ãĢį,":1506,"å¿ħ":1507,"è¯»":1508,"æĭ¥":1509,"ç»Ŀ":1510,"éģŃ":1511,"0å¹´ä»£":1512,"å°ļ":1513,"èģĶåĲĪ":1514,"äººçī©":1515,"å¼Ĥ":1516,"re":1517,"åĺī":1518,"éĥ¡":1519,"äºĭä»¶":1520,"ç»ĥ":1521,"æį¢":1522,"åĮĹéĥ¨":1523,"åĨłåĨĽ":1524,"é©»":1525,"å½¹":1526,"èµ«":1527,"åŃ¦å®¶":1528,"èĬĤçĽ®":1529,"æ¤į":1530,"å²¸":1531,"éº¦":1532,"éĩİ":1533,"åŃ¦çĶŁ":1534,"å¼Ł":1535,"ä¼ļè®®":1536,"195":1537,"æ²¹":1538,"äººæ°ĳåħ±åĴĮåĽ½":1539,"æĬĢæľ¯":1540,"éĢĲ":1541,"åĶ®":1542,"èĥĮ":1543,"æ¯ķ":1544,"æĿ¾":1545,"åĪ°äºĨ":1546,"åĬłåħ¥":1547,"é³":1548,"å¯º":1549,"000":1550,"èī¾":1551,"èĵ":1552,"åį´":1553,"ä¿ĿæĬ¤":1554,"el":1555,"åĪĹè½¦":1556,"ä¹ħ":1557,"æĢ»ç»Ł":1558,"æ¬§æ´²":1559,"ç½²":1560,"2019":1561,"èı²":1562,"éļĨ":1563,"è®¾æľī":1564,"æĻļ":1565,"é¼":1566,"å¹³æĸ¹åįĥ":1567,"èĪ¬":1568,"st":1569,"åª":1570,"åĪĨåĪ«":1571,"æĿ¥èĩª":1572,"ç«¯":1573,"2020å¹´":1574,"çĽ®åīį":1575,"ç¯":1576,"æĺ¥":1577,"çŁŃ":1578,"éĢģ":1579,"åħ¹":1580,"åĪĨå¸ĥ":1581,"åħĭåħ°":1582,"éľĢè¦ģ":1583,"ç³»åĪĹ":1584,"ä¹ĺ":1585,"ä½³":1586,"å°½":1587,"æĿŁ":1588,"å®Ŀ":1589,"å®ĮæĪĲ":1590,"ä¸Ńåįİäººæ°ĳåħ±åĴĮåĽ½":1591,"éĢļå¸¸":1592,"é¡º":1593,"æ°ĳåĽ½":1594,"ä»Ģ":1595,"åĲĮå¹´":1596,"æ²¿":1597,"æľ«":1598,"æĹĹ":1599,"å»ºç«ĭ":1600,"åĲ¯":1601,"èįī":1602,"åįĹéĥ¨":1603,"åºı":1604,"åŃĺåľ¨":1605,"éĺ¶":1606,"éĺµ":1607,"èį¯":1608,"å¯¼èĩ´":1609,"èĢ¶":1610,"éĽĦ":1611,"éħĴ":1612,"æļ´":1613,"æĸ¯çī¹":1614,"æ¯Ľ":1615,"æĪĲåĬŁ":1616,"ion":1617,"æ³½":1618,"åħ¼":1619,"é¢ĳ":1620,"äºİ201":1621,"åħ±æľī":1622,"åĨ²":1623,"è½»":1624,"è¦ģæ±Ĥ":1625,"æĳĦ":1626,"çĭ¬ç«ĭ":1627,"è·Ŀ":1628,"çĦ¶èĢĮ":1629,"25":1630,"ç»ĦæĪĲ":1631,"ä¾ĭå¦Ĥ":1632,"æĳ©":1633,"è¿ĻäºĽ":1634,"æľĢé«ĺ":1635,"éĶĢ":1636,"æ¬¾":1637,"è¿Ļä¸ª":1638,"è¾ĵ":1639,"åįķä½į":1640,"èĻ½çĦ¶":1641,"æµ·æĭĶ":1642,"12æľĪ":1643,"å¼Ģåıĳ":1644,"æĭ¥æľī":1645,"å¸ķ":1646,"èĩªçĶ±":1647,"ãĢĭ(":1648,"ãĢĭãĢģ":1649,"çģµ":1650,"åŃĻ":1651,"ä¸ĵè¾ĳ":1652,"æĺ¯åľ¨":1653,"çŃ¾":1654,"åªĴ":1655,"çĽ¸åħ³":1656,"ä¹Įåħĭåħ°":1657,"ç±į":1658,"å©ļ":1659,"çİĽ":1660,"æĥħåĨµ":1661,"çĶ¨äºİ":1662,"ç½ª":1663,"193":1664,"é¡»":1665,"èīºæľ¯":1666,"æĺ¯ä¸Ģ":1667,"æĿĤ":1668,"äººåĳĺ":1669,"çº½":1670,"é¥°":1671,"æ£Ģ":1672,"éĽħ":1673,"et":1674,"é¡¶":1675,"çĲĥéĺŁ":1676,"âĢĿ,":1677,"éĢīä¸¾":1678,"å¯Ĩåº¦":1679,"æĿ¨":1680,"èģĶçĽŁ":1681,"éĩĩçĶ¨":1682,"æŀª":1683,"il":1684,"åĤ":1685,"æıĲåĩº":1686,"24":1687,"ä»ĭ":1688,"äºĨä¸Ģ":1689,"åīįå¾Ģ":1690,"åĬ³":1691,"ç§Ģ":1692,"åħį":1693,"ou":1694,"7æľĪ":1695,"çķ¥":1696,"åıĹåĪ°":1697,"æ²ĥ":1698,"å·®":1699,"æĭį":1700,"éĢı":1701,"è¿½":1702,"å®³":1703,"äº¿":1704,"æ¿":1705,"ãĢĭ,":1706,"å·¡":1707,"ol":1708,"æĸ¹å¼ı":1709,"9æľĪ":1710,"çĽĸ":1711,"åĩı":1712,"èĭ¥":1713,"è§Ĵèī²":1714,"è´¢":1715,"ä¸ºäºĨ":1716,"10æľĪ":1717,"éĴŁ":1718,"è¢Ń":1719,"8æľĪ":1720,"è¿ģ":1721,"éĩĬ":1722,"åĽ½æ°ĳ":1723,"äºĮåįģ":1724,"æĿ¿":1725,"èī¯":1726,"ac":1727,"å°¾":1728,"åĲ´":1729,"å¤§éĻĨ":1730,"è®Ń":1731,"èŀ":1732,"åħ·æľī":1733,"èį£":1734,"æĿ¯":1735,"åĲĪä½ľ":1736,"3æľĪ":1737,"è°·":1738,"çĪĨ":1739,"åħ¶ä¸Ń":1740,"Ġ201":1741,"eĠ":1742,"Ġåľ¨":1743,"åĽłæŃ¤":1744,"ĠS":1745,"Ġ200":1746,"5æĹ¥":1747,"sĠ":1748,"dĠ":1749,"ä¹Łæĺ¯":1750,"Ġ202":1751,"6æĹ¥":1752,"7æĹ¥":1753,"4æĹ¥":1754,"3æĹ¥":1755,"5æľĪ":1756,"ĠC":1757,"6æľĪ":1758,"1æľĪ":1759,"ĠçĶŁ":1760,"4æľĪ":1761,"11æľĪ":1762,"å¹³æĸ¹åįĥç±³":1763,"ĠM":1764,"æľĪ1æĹ¥":1765,"ĠåİĨåı²":1766,"çļĦäºº":1767,"ĠçĶŁå¹³":1768,"å¹¶ä¸Ķ":1769,"ä»ĸåľ¨":1770,"aĠ":1771,"8æĹ¥":1772,"2019å¹´":1773,"ãĢĭ.":1774,"192":1775,"ĠA":1776,"éħ¸":1777,"äº¤éĢļ":1778,"æķ£":1779,"æı´":1780,"çļĦå¤§":1781,"æłĳ":1782,"æŃĮæĽ²":1783,"è¿Ļä¸Ģ":1784,"åĩºçīĪ":1785,"éĽĨåĽ¢":1786,"èģĶèµĽ":1787,"äº§çĶŁ":1788,"ç£":1789,"æĺł":1790,"è¿Ļç§į":1791,"2æľĪ":1792,"é¦ĸæ¬¡":1793,"å®ĭ":1794,"ä¼ģ":1795,"è¯ĳ":1796,"è´Ń":1797,"äºĪ":1798,"æķ°æį®":1799,"åĸĦ":1800,"±ä¹Ĳ":1801,"å¾®":1802,"é»İ":1803,"å¹¶åľ¨":1804,"æ´¥":1805,"1æĹ¥":1806,"èĤ¡":1807,"å°º":1808,"è¡¥":1809,"çī¹åĪ«":1810,"æ¯ķä¸ļ":1811,"lt":1812,"è®¿":1813,"å±ĭ":1814,"ç»§ç»Ń":1815,"æŃ¤å¤ĸ":1816,"å®¡":1817,"è´µ":1818,"äºĴ":1819,"è¡Ģ":1820,"é«ĺåº¦":1821,"é¡¹çĽ®":1822,"ç»ĵæĿŁ":1823,"æĻĭ":1824,"è½¨":1825,"yĠ":1826,"çĥĪ":1827,"ä½Ĩæĺ¯":1828,"äºİ200":1829,"ä¸ªäºº":1830,"åģĩ":1831,"è®¯":1832,"éŁ¦":1833,"ãĥ":1834,"åľ°çĲĨ":1835,"ãĢĭãĢģãĢĬ":1836,"åħ»":1837,"éĻ©":1838,"ç»ĵæŀĦ":1839,"èĩ£":1840,"çĶŁäº§":1841,"ä¸ĢèĪ¬":1842,"zh":1843,"å¸ĿåĽ½":1844,"é¢Ŀ":1845,"æıı":1846,"ä»¥ä¸ĭ":1847,"æī©":1848,"æĺ¯ä¸Ģä¸ª":1849,"éĥ¨éĺŁ":1850,"è¥¿äºļ":1851,"è¯Ńè¨Ģ":1852,"æķĳ":1853,"äººåı£å¯Ĩåº¦":1854,"æ¯Ĵ":1855,"æİ§åĪ¶":1856,"é²ľ":1857,"å¯¹äºİ":1858,"åĸľ":1859,"ç§ĳåŃ¦":1860,"æİ¥åıĹ":1861,"å½¢æĪĲ":1862,"ç«ŀ":1863,"åıĸå¾Ĺ":1864,"ä»»ä½ķ":1865,"æĹ¶ä»£":1866,"æµ·åĨĽ":1867,"è¡ĮåĬ¨":1868,"ä¸»å¸Ń":1869,"åĮºåŁŁ":1870,"æĮ¥":1871,"å³°":1872,"éĿ¢ç§¯ä¸º":1873,"æķħäºĭ":1874,"å¤º":1875,"æĿľ":1876,"æ°ĳä¸»":1877,"èĪŀ":1878,"æ¦Ĥ":1879,"9æĹ¥":1880,"éĶ¦":1881,"è¯Ĺ":1882,"åĩºçĶŁ":1883,"æĹłæ³ķ":1884,"è®²":1885,"éĢĤ":1886,"éĢĶ":1887,"æĭľ":1888,"ä¸°":1889,"æľºæŀĦ":1890,"çİ©":1891,"çĶļ":1892,"å¢ŀåĬł":1893,"40":1894,"éĢłæĪĲ":1895,"gt":1896,"çļĦæĺ¯":1897,"åĮºçļĦ":1898,"æľ±":1899,"å¸ģ":1900,"çĸĹ":1901,"é½Ĳ":1902,"æ¢ģ":1903,"èį·":1904,"è¾Ĩ":1905,"éĻĦè¿ĳ":1906,"ä¸»æķĻ":1907,"è¶ħè¿ĩ":1908,"ç§ĺ":1909,"å»·":1910,"21":1911,"é¢Ĩå¯¼":1912,"æĮī":1913,"ä¼łç»Ł":1914,"ç»ĵæŀľ":1915,"ç½Ĺé©¬":1916,"å¾Ħ":1917,"ä¸įè¿ĩ":1918,"çĩ":1919,"å®¾":1920,"éļ¶":1921,"ç¦ģ":1922,"æĴ¤":1923,"ä¸Ńåħ±":1924,"åĿĢ":1925,"æĿĲ":1926,"åįĪ":1927,"è´§":1928,"å°ıæĹ¶":1929,"23":1930,"åĩ¯":1931,"æľīä¸Ģ":1932,"åĬ¨çī©":1933,"æ¸Ĳ":1934,"100":1935,"çĬ¯":1936,"çļĦæĹ¶":1937,"èĥ¡":1938,"éļıåĲİ":1939,"åı¦å¤ĸ":1940,"åĨĽäºĭ":1941,"æĺ¯ä½įäºİ":1942,"ç«¥":1943,"ĠP":1944,"æķ¦":1945,"èĪªç©º":1946,"åľĨ":1947,"ä½©":1948,"çĽĬ":1949,"ä»ª":1950,"å¤Ł":1951,"æłĩåĩĨ":1952,"om":1953,"åıĳå¸ĥ":1954,"èģļ":1955,"è°¢":1956,"ing":1957,"æĸ°éĹ»":1958,"éª¨":1959,"æ··":1960,"çĮ®":1961,"åĨħçļĦ":1962,"çĽĽ":1963,"è¿Ķ":1964,"ä»ģ":1965,"éĥİ":1966,"ä¸ĢçĽ´":1967,"60":1968,"éĺ¿å°Ķ":1969,"çīĽ":1970,"çļĨ":1971,"æķ°éĩı":1972,"æŁĲ":1973,"è®¨":1974,"ç¿°":1975,"åĪĳ":1976,"ç©Ĩ":1977,"çĤ¸":1978,"æįķ":1979,"ch":1980,"å¨ľ":1981,"éĿ©åĳ½":1982,"èĮĥåĽ´":1983,"å¤§åĪ©":1984,"å¸®":1985,"åªĴä½ĵ":1986,"22":1987,"éĻ¤äºĨ":1988,"å®½":1989,"å¾ĹåĪ°":1990,"æľºåľº":1991,"tĠ":1992,"å°±æĺ¯":1993,"å¥³æĢ§":1994,"èĮ¨":1995,"å®īåħ¨":1996,"è°ĥæŁ¥":1997,"è¿ĩç¨ĭ":1998,"è§ī":1999,"æİ¢":2000,"ä¹ĭåīį":2001,"æł¼åħ°":2002,"ç»ıè¿ĩ":2003,"çĤ®":2004,"æĻº":2005,"åºĻ":2006,"åĨħå®¹":2007,"åħ¬åĽŃ":2008,"çĪ¶äº²":2009,"å¹ķ":2010,"æĪª":2011,"åĲ¦":2012,"éģĩ":2013,"å¤ľ":2014,":âĢľ":2015,"(,),":2016,"éŁ©åĽ½":2017,"çĶ·åŃĲ":2018,"ä¹Ķ":2019,"åįģäºĮ":2020,"éľį":2021,"èµŀ":2022,"åħħ":2023,"èĶ":2024,"æĭ©":2025,"è½¯":2026,"éĩįæĸ°":2027,"å¥³åŃĲ":2028,"åĪ»":2029,"æīĢä»¥":2030,"éľ²":2031,"èµĽäºĭ":2032,"æĽ¿":2033,"ä¼ĳ":2034,"å°¤":2035,"ç§ģ":2036,"åıªæľī":2037,"åĪº":2038,"ä½įç½®":2039,"å¹³åĿĩ":2040,"2010å¹´":2041,"èĩªå·±çļĦ":2042,"èĸ":2043,"å«":2044,"çİī":2045,"è¿ĲåĬ¨åĳĺ":2046,"æŁĵ":2047,"çºªå¿µ":2048,"å±ħæ°ĳ":2049,"æĿ¥çļĦ":2050,"å¦Ĥæŀľ":2051,"é¸Ł":2052,"åĪĽä½ľ":2053,"åıĳè¡¨":2054,"åºŁ":2055,"ç¼º":2056,"éĿł":2057,"ä¸Ŀ":2058,"ãģ":2059,"æľīåħ³":2060,"éĴĪ":2061,"æķĮ":2062,"åĢŁ":2063,"æĺĮ":2064,"çİ°ä»£":2065,"è®¾ç«ĭ":2066,"ĠB":2067,"ç»©":2068,"è¯ī":2069,"æºª":2070,"æľīéĻĲ":2071,"æĬµ":2072,"éĤ®":2073,"è¡Įä¸º":2074,"èģĶéĤ¦":2075,"ĠT":2076,"åĲĽ":2077,".âĢĿ":2078,"å·¨":2079,"èľ":2080,"åĲ¸":2081,"å®ĩ":2082,"å±ŀçļĦ":2083,"è¥¿çıŃ":2084,"è·Ł":2085,"çĪµ":2086,"ä¹±":2087,"èĵĿ":2088,"è¥¿çıŃçīĻ":2089,"éªĳ":2090,"å¾¡":2091,"å®ª":2092,"çľ¼":2093,"è®®ä¼ļ":2094,"åıįå¯¹":2095,"æ¼Ķåĳĺ":2096,"æ¤įçī©":2097,"åĮºä¸º":2098,"åĿ¡":2099,"æ®¿":2100,"åħ±äº§":2101,"æķĻæİĪ":2102,"æįŁ":2103,"å¾Ĵ":2104,"éĽª":2105,"å·¥ä¸ļ":2106,"åĽº":2107,"æ°ĳæĹı":2108,"è¯¸":2109,"ä¾µ":2110,"åĪĬ":2111,"çīĪæľ¬":2112,"åĮ¹":2113,"åĲįçļĦ":2114,"ç¬¬åĽĽ":2115,"éĢĥ":2116,"åħ¬è·¯":2117,"çĽ´æİ¥":2118,"çİ°åľ¨":2119,"éļĶ":2120,"èª":2121,"åħĭæĸ¯":2122,"å»ºè®¾":2123,"èģĮä¸ļ":2124,"æī¾":2125,"çİ¯å¢ĥ":2126,"è°ĭ":2127,"æĺ¯çĶ±":2128,"ä¸¾åĬŀ":2129,"èĦĳ":2130,"æ¶¯":2131,"ä¸ŃåŃ¦":2132,"ä¹İ":2133,"éĢīæĭ©":2134,"åĨĽéĺŁ":2135,"çĹĩ":2136,"åĩºçļĦ":2137,"éĿŀå¸¸":2138,"ç¿»":2139,"æ¬¢":2140,"èĭıèģĶ":2141,"åıįåºĶ":2142,"ç¼ĸçłģ":2143,"ä½ł":2144,"çĶ³":2145,"åħ¬å¼Ģ":2146,"ä½ĵèĤ²":2147,"å£¤":2148,"éĥĳ":2149,"åĲįç§°":2150,"è¯¥åľ°":2151,"å²©":2152,"æ¦ľ":2153,"è£ģ":2154,"èµĦæĸĻ":2155,"åħ±åĲĮ":2156,"ä¸īå¹´":2157,"æ±ĩ":2158,"éĵ¶è¡Į":2159,"Ġt":2160,"å½¢å¼ı":2161,"åĨ³èµĽ":2162,"ç©¿":2163,"æĪĺæĸĹ":2164,"åı¦ä¸Ģ":2165,"è¿Ļæĺ¯":2166,"è¡ĮæĺŁ":2167,"åħĦ":2168,"åı¬":2169,"åĨ°":2170,"æĺ¾ç¤º":2171,"éĤ»":2172,"æ¼«":2173,"åįıä¼ļ":2174,"æĢ¥":2175,"æ¿Ģ":2176,"è·Ŀç¦»":2177,"of":2178,"190":2179,"å¥ī":2180,"æĸ¹æ³ķ":2181,"å¤§éĩı":2182,"ç»ľ":2183,"æĶ¹ä¸º":2184,"éķľ":2185,"æĪĪ":2186,"Ġ199":2187,"åŁ¹":2188,"un":2189,"åĶ¯":2190,"Ġåľ°çĲĨ":2191,"è¯¾":2192,"å°ıè¯´":2193,"ç¬¦":2194,"èĥŀ":2195,"åĪ©çĶ¨":2196,"æĹ¶çļĦ":2197,"å¤ļæķ°":2198,"ä¸Ģèµ·":2199,"åĲ¬":2200,"ä¹Łæľī":2201,"éĥ¨éķ¿":2202,"æ¯ģ":2203,"è®®åĳĺ":2204,"èĬ¬":2205,"è¿«":2206,"ç¾İåħĥ":2207,"ä¹¦è®°":2208,"ä¼ģä¸ļ":2209,"è®¢":2210,"è°Ī":2211,"æĸ°çļĦ":2212,"åĳ¼":2213,"é»ĺ":2214,"åĮħåĲ«":2215,"èĩªæ²»":2216,"å¾ħ":2217,"æ³ķå¾ĭ":2218,"éĽ¨":2219,"éĨ":2220,"ç®¡è¾ĸ":2221,"æĮĩæĮ¥":2222,"åĳĪ":2223,"èĤ¯":2224,"å°Ķæĸ¯":2225,"åģ¥":2226,"å®Įåħ¨":2227,"å¹¶ä¸į":2228,"ä¸»ä»»":2229,"æĢĢ":2230,"èĢ³":2231,"åĪĨä¸º":2232,"åı°åĮĹ":2233,"ä¸Ńåįİæ°ĳåĽ½":2234,"Ġæľ¬":2235,"ï¼į":2236,"çĸĳ":2237,"æ³Ľ":2238,"å®¶åºŃ":2239,"èµµ":2240,"åĿļ":2241,"è¿ĺæľī":2242,"ä¸ľåĮĹ":2243,"æ³ķéĻ¢":2244,"çĽ´åĪ°":2245,"äººç±»":2246,"å¤ĦçĲĨ":2247,"èİī":2248,"éĻµ":2249,"æĦ¿":2250,"âĢĶâĢĶ":2251,"ãĤ":2252,"28":2253,"æĵį":2254,"æĹĭ":2255,"æĪĳä»¬":2256,"å®¶æĹı":2257,"èĩªçĦ¶":2258,"çĶŁæ¶¯":2259,"as":2260,"å§ĵ":2261,"éĥ½æĺ¯":2262,"åŃ¦ä¹ł":2263,"åĨįæ¬¡":2264,"ri":2265,"æ¶ī":2266,"çĶµåŃĲ":2267,"æŀļ":2268,"2021å¹´":2269,"é¢Ĺ":2270,"æĶ¿çŃĸ":2271,"åħ³äºİ":2272,"çĶŁçī©":2273,"æĪ´":2274,"æ¯«":2275,"åŃ©":2276,"èĦ±":2277,"åĲİçļĦ":2278,"æĢ§çļĦ":2279,"åĬ¨çĶ»":2280,"æī§è¡Į":2281,"27":2282,"çĶļèĩ³":2283,"æĮĩåĩº":2284,"çĲĨè®º":2285,"è¡¨çİ°":2286,"èŀį":2287,":ãĢĮ":2288,"å°ĨåĨĽ":2289,"å¿ħé¡»":2290,"ä¸Ģå¹´":2291,"åĮ»éĻ¢":2292,"å®ĥä»¬":2293,"heĠ":2294,"2022å¹´":2295,"æļĤ":2296,"åŁºç¡":2297,"åį±":2298,"ç»¿":2299,"ä»¥æĿ¥":2300,"å¦»":2301,"ç§ĭ":2302,"çĽĺ":2303,"ä¸ľéĥ¨":2304,"æľĢä½³":2305,"æģĴ":2306,"å°½ç®¡":2307,"å¢ĥåĨħ":2308,"èĪį":2309,"ow":2310,"æīİ":2311,"æľĢåĪĿ":2312,"åĿĲ":2313,"èĿ":2314,"é¡¾":2315,"æĸĩåŃ¦":2316,"åŁºç¡Ģ":2317,"åį·":2318,"æ¨ª":2319,"å½ĵä¸Ń":2320,"ç¾½":2321,"æŁı":2322,"ä¸ŃåĽ½å¤§éĻĨ":2323,"ä¹Ī":2324,"ä¸ºä¸»":2325,"åĬª":2326,"å®ĺæĸ¹":2327,"ç¿¼":2328,"ç´§":2329,"åįļçī©":2330,"èīĩ":2331,"åķĨä¸ļ":2332,"ç¯ĩ":2333,"çľģä»½":2334,"è¾Ľ":2335,"æĶ»åĩ»":2336,"æ»¨":2337,"æĦıå¤§åĪ©":2338,"è´¡":2339,"åħ¬åħ±":2340,"å¥ı":2341,"ä¹°":2342,"çī©ç§į":2343,"æŃ»äº¡":2344,"ur":2345,"35":2346,"æ¡ĳ":2347,"éĴ±":2348,"æĬ¥åĳĬ":2349,"ç±»ä¼¼":2350,"åĿı":2351,"2001å¹´":2352,"æĻ®æŁ¥":2353,"éŃĶ":2354,"ç¼©":2355,"æľĿé²ľ":2356,"æĶ¿æ²»äººçī©":2357,"æ´ª":2358,"ãĢį(":2359,"è¯¥åĽ½":2360,"å¸Ĥåľº":2361,"æĹ©æľŁ":2362,"èĥ½åĬĽ":2363,"¤Ĳ":2364,"æ½ľ":2365,"ad":2366,"80":2367,"å®ŀéĻħ":2368,"26":2369,"äºļæ´²":2370,"èĨ":2371,"æııè¿°":2372,"å¢ĵ":2373,"è¯¯":2374,"2011å¹´":2375,"ä¸ĭçļĦ":2376,"è§Ħæ¨¡":2377,"ä¹ĭéĹ´çļĦ":2378,"çº¦ç¿°":2379,"åĽ¢ä½ĵ":2380,"åĬłæĭ¿":2381,"åħ¶åĲİ":2382,"éģ¿":2383,"å¿ł":2384,"åŃ¦åĲį":2385,"åħ¨çĲĥ":2386,"ç»į":2387,"æ®ĸ":2388,"åİ»ä¸ĸ":2389,"æĭįæĳĦ":2390,"å¤§ä¼ļ":2391,"æłĸ":2392,"æµ·æĭĶé«ĺåº¦":2393,"çģŃ":2394,"è¥¿éĥ¨":2395,"å¤ĸäº¤":2396,",ãĢĬ":2397,"Ġäººåı£":2398,"ter":2399,"å¹¿ä¸ľ":2400,"çļĦåľ°":2401,"éľĩ":2402,"æµĻ":2403,"åĪ¶éĢł":2404,"éĵľ":2405,"èĥ½å¤Ł":2406,"ä¸¥éĩį":2407,"å»ī":2408,"ç¦»å¼Ģ":2409,"ĠL":2410,"ç«¹":2411,"çĸ«":2412,"åŁºæľ¬":2413,"å®ĹæķĻ":2414,"æģ¶":2415,"æ±½":2416,"å®ľ":2417,"è¿·":2418,"ä¼į":2419,"çºªå½ķ":2420,"é³į":2421,"ä½ľçĶ¨":2422,"è¿¹":2423,"ig":2424,"éĹŃ":2425,"å¥Ĺ":2426,"æĮģç»Ń":2427,"us":2428,"äºİ18":2429,"æİ¨åĩº":2430,"åĿĹ":2431,"åģı":2432,"äºİæĺ¯":2433,"ä»ĺ":2434,"è®¡ç®Ĺ":2435,"è·¯çº¿":2436,"2009å¹´":2437,"æī¬":2438,"ç¼ĸçłģä¸º":2439,"åħ±äº§åħļ":2440,"äºĭåĬ¡":2441,"åŃĶ":2442,"ç©ºéĹ´":2443,"çļĦä¸Ģä¸ªå¸Ĥéķĩ":2444,"èµĸ":2445,"è¡£":2446,"æĺ¯ä¸Ģç§į":2447,"è¿İ":2448,"2016å¹´":2449,"å¥¹çļĦ":2450,"æ³ī":2451,"åĪļ":2452,"çļĦä¸»":2453,"è¾ħ":2454,"å¸ĮæľĽ":2455,"ä»»åĬ¡":2456,"ä¸įæĺ¯":2457,"çĽ®æłĩ":2458,"æŀĲ":2459,"èĦī":2460,"æ±ł":2461,"2008å¹´":2462,"ç»Łæ²»":2463,"Ġæł¹æį®":2464,"ä¸īä¸ª":2465,"æĸ¯åĿ¦":2466,"æİ¥å£¤":2467,"èªī":2468,"ä¼°":2469,"70":2470,"ĠR":2471,"æĸ¹åĲĳ":2472,"æ¸¡":2473,"æģĲ":2474,"ç¼ĺ":2475,"æĸĩçī©":2476,"29":2477,"ä¸ĢåĲį":2478,"ç¬¬åįģ":2479,"ä¸ľåįĹ":2480,"åĬŁèĥ½":2481,"äºİ199":2482,"èĳ£":2483,"æ¼Ķåĩº":2484,"éļľ":2485,"å¼ĥ":2486,"åįķæĽ²":2487,"éĺ¿æĭī":2488,"ĠD":2489,"ãĢī":2490,"ãĢĪ":2491,"åĬłæĭ¿å¤§":2492,"çº½çº¦":2493,"å¢¨":2494,"éĶ¦æłĩ":2495,"æĭĽ":2496,"äº«":2497,"è·¨":2498,"è®¾æĸ½":2499,"æľĪåı°":2500,"èµ¤":2501,"å¯»":2502,"å®ļçļĦ":2503,"èµĽåŃ£":2504,"èħĬ":2505,"åīĳ":2506,"éĢıè¿ĩ":2507,"çĶĺ":2508,"è¢«ç§°ä¸º":2509,"äºķ":2510,"ä¿±ä¹Ĳ":2511,"éĶ¡":2512,"éŃı":2513,"çĲĥåĳĺ":2514,"éĢĬ":2515,"éĺ»":2516,"ä»įçĦ¶":2517,"åįļçī©é¦Ĩ":2518,"åıĺåĮĸ":2519,"åĪĨå¸ĥäºİ":2520,"ä¿±ä¹Ĳéĥ¨":2521,"æĽ¾ç»ı":2522,"æĥł":2523,"è´¸":2524,"2012å¹´":2525,"è§£æĶ¾":2526,"çĳŁ":2527,"åĽ½çİĭ":2528,"é¢ģ":2529,"åħ¬å¸ĥ":2530,"ä¸Ģæ¬¡":2531,"å·´å£«":2532,"åĲĪå¹¶":2533,"å¼ĢæĶ¾":2534,"å¹¿æĴŃ":2535,"åĨ¬":2536,"ç»ĺ":2537,"Ġè¯¥":2538,"å°Ĩåħ¶":2539,"åħĭéĩĮ":2540,"å¤§åĮº":2541,"äº®":2542,"2018å¹´":2543,"èĤī":2544,"ĠG":2545,"è¾¾åĪ°":2546,"ä¸įèĥ½":2547,"èĢĮä¸Ķ":2548,"å®ŀéªĮ":2549,"èµ¢":2550,"åĶ¯ä¸Ģ":2551,"åİŁåĽł":2552,"æİĴåĲį":2553,"åĽĽå¹´":2554,".ãĢį":2555,"è¸":2556,"2023å¹´":2557,"éĢĲæ¸Ĳ":2558,"2014å¹´":2559,"æį·":2560,"èıĮ":2561,"åıĳåĬ¨":2562,"çĥŃå¸¦":2563,"çº²":2564,"åĦ¿åŃĲ":2565,"ç»¼":2566,"é©¬æĿ¥":2567,"äººåı£æĻ®æŁ¥":2568,"åĵ²":2569,"å½ĵéĢī":2570,"çŁ¿":2571,"45":2572,"è¿ŀæİ¥":2573,"ec":2574,"æ¨¡å¼ı":2575,"id":2576,"å¾Ĳ":2577,"è¡ĮæĶ¿åĮº":2578,"191":2579,"ç¹":2580,"è¾ŀ":2581,"åľ¨æŃ¤":2582,"ç¬¬ä¸Ģæ¬¡":2583,"ä¸ľäº¬":2584,"åı·çº¿":2585,"çģ¾":2586,"èĴĻåı¤":2587,"ä¸»æĮģ":2588,"å®ļä¹ī":2589,"è¿ĲåĬ¨ä¼ļ":2590,"æĴŃåĩº":2591,"æľīéĻĲåħ¬åı¸":2592,"çĽ¸å½ĵ":2593,"éĺ´":2594,"èĽĭ":2595,"åĲĦç§į":2596,"2015å¹´":2597,"è®Ńç»ĥ":2598,"2013å¹´":2599,"æ´ŀ":2600,"ç¨³":2601,"ç»Ĩèĥŀ":2602,"æ½®":2603,"èĢħçļĦ":2604,"åĩ»è´¥":2605,"å¦ĩ":2606,"å¤ªå¹³":2607,"çĽ¸åĲĮ":2608,"åıĻ":2609,"æ¼ĶåĶ±":2610,"Ġä¸İ":2611,"é£İæł¼":2612,"çĬ¹":2613,"å¤ªéĺ³":2614,"å¦¹":2615,"ç¹ģ":2616,"IN":2617,"æ°§":2618,"éģĵè·¯":2619,"48":2620,"ä½Ĳ":2621,"æĪĲç»©":2622,"æľĪ28æĹ¥":2623,"æļĹ":2624,"(,)":2625,"æŃĮæīĭ":2626,"æİĮ":2627,"æĭĴ":2628,"å¥¥è¿Ĳ":2629,"è§Ħå®ļ":2630,"ä½¿å¾Ĺ":2631,"æ»ĳ":2632,"æľĪ15æĹ¥":2633,"th":2634,"åı¸ä»¤":2635,"æģ¢":2636,"çİ©å®¶":2637,"ä¸ĵä¸ļ":2638,"Ġformula":2639,"éĺ¶æ®µ":2640,"ĠH":2641,"éĴ¢":2642,"TC":2643,"äººå£«":2644,"90":2645,"è¥¿åįĹ":2646,"åĢĴ":2647,"ä¸įåĲĮçļĦ":2648,"åĨ·":2649,"ir":2650,"åĨĮ":2651,"ä¸Ģæł·":2652,"å°Ķçľģ":2653,"æī¹è¯Ħ":2654,"20æĹ¥":2655,"çŃīäºº":2656,"è¥¿åĮĹ":2657,"èĻİ":2658,"çĲ´":2659,"ç§Ł":2660,"å¹´çļĦ":2661,"å»ºéĢł":2662,"è®¾ç½®":2663,"äº§åĵģ":2664,"ä¼Ĳ":2665,"âĢĵ":2666,"2017å¹´":2667,"åĬŀåħ¬":2668,"è½¨éģĵ":2669,"æĺĤ":2670,"ç¨İ":2671,"10æĹ¥":2672,"é©±":2673,"ä¿Ĺ":2674,"30æĹ¥":2675,"å¾½":2676,"ä¸ºäºº":2677,"çıł":2678,"ä»ĸä»¬çļĦ":2679,"éº»":2680,"èīĺ":2681,"å¥Ī":2682,"éĶĻ":2683,"ç¡¬":2684,"åĿĳ":2685,"èĥĮæĻ¯":2686,"od":2687,"åľĪ":2688,"Ġ198":2689,"éĿĴå¹´":2690,"å¹¼":2691,"åĳ³":2692,"çĶº":2693,"çĪĨåıĳ":2694,"å½¼":2695,"æµĻæ±Ł":2696,"33":2697,"åĪĨéĴŁ":2698,"å°ıè¡ĮæĺŁ":2699,"æĤ£":2700,"çļĦä¸Ģéĥ¨åĪĨ":2701,"ĠçļĦ":2702,"éĺģ":2703,"èĳ¡":2704,"å¤§æĪĺ":2705,"å¢Ļ":2706,"å½©":2707,"ä¼¦æķ¦":2708,"ä¹Ļ":2709,"åŃ¦èĢħ":2710,"æµ¦":2711,"æģ¢å¤į":2712,"åľŁåľ°":2713,"åºĶçĶ¨":2714,"å¸ĮèħĬ":2715,"ä¸īåįģ":2716,"æĶ¹éĿ©":2717,"åįĸ":2718,"æ¯įäº²":2719,"è§¦":2720,"ä¸įä¼ļ":2721,"èº«ä»½":2722,"çº¸":2723,"å¯¿":2724,"um":2725,"éĥ¨éĹ¨":2726,"èŃ¦å¯Ł":2727,"ç¬Ķ":2728,"å±±ä¸ľ":2729,"2007å¹´":2730,"è±ª":2731,"åĽ°":2732,"æ®ĭ":2733,"2024å¹´":2734,"é£ŀæľº":2735,"im":2736,"åĪ¶åº¦":2737,"%,":2738,"åīĤ":2739,"èİİ":2740,"èķ":2741,"ĠF":2742,"ä¿ĥ":2743,"ä¸ĭè¾ĸ":2744,"æľĪ25æĹ¥":2745,"åĳ½åĲį":2746,"è¯Ħè®º":2747,"æĭīæĸ¯":2748,"è¿Ľå£«":2749,"ç²ī":2750,"han":2751,"æľĢå¤§":2752,"âĢ¦":2753,"æĬķèµĦ":2754,"èĦļ":2755,"éĢĿ":2756,"é«ĺéĢŁ":2757,"å¤§éĥ¨åĪĨ":2758,"ç½ĳç»ľ":2759,"çļĦæĸ°":2760,"å¤ıåŃ£":2761,"Ġ18":2762,"è£Ĥ":2763,"os":2764,"è¿Ļæł·":2765,"è®°è½½":2766,"æ¡£":2767,"ĠI":2768,"æ¥ļ":2769,"æµª":2770,"èµı":2771,"æ¢¦":2772,"å¯¼æ¼Ķ":2773,"ä½Ĩåľ¨":2774,"æ²ī":2775,"èµĦæł¼":2776,"18æĹ¥":2777,"ä¸įä¹ħ":2778,"éĽ¶":2779,"ä¸¤äºº":2780,"å¤©æ´¥":2781,"å¹¿å·ŀ":2782,"ag":2783,"æĺŃ":2784,"äº¨":2785,"äºĶå¹´":2786,"çļĦçī¹":2787,"åĮĸåŃ¦":2788,"ãĢįãĢģ":2789,"æŁ±":2790,"æĭŁ":2791,"å¾Īå¤ļ":2792,"åģ¶":2793,"ed":2794,"åĨĪ":2795,"å°Ĭ":2796,"çĶµè§Ĩåı°":2797,"36":2798,"å¸®åĬ©":2799,"åįļå£«":2800,"è´Ŀå°Ķ":2801,"éĤĢ":2802,"çĽĲ":2803,"å¼±":2804,"è®·":2805,"çĸĨ":2806,"åı«":2807,"âĢĿ(":2808,"éĻ·":2809,"çŃīåľ°":2810,"ç¬¬äºĶ":2811,"æ¯«ç±³":2812,"åħ¨éĥ¨":2813,"åĪĨåŃĲ":2814,"å´ĩ":2815,"ent":2816,"æģĭ":2817,"ç»´å°Ķ":2818,"ä»Ļ":2819,"æ¶ħ":2820,"çĭ±":2821,"çĴ":2822,"è¯Ĭ":2823,"ation":2824,"ç¾¤å²Ľ":2825,"éĿĻ":2826,"å¥¥æŀĹ":2827,"ä»»åĳ½":2828,"èĭ±è¯Ń":2829,"éĻĨåĨĽ":2830,"åĨľä¸ļ":2831,"æĿĤå¿Ĺ":2832,"æ±Ĺ":2833,"ç»ķ":2834,"åŁºçĿ£":2835,"åĲįåŃĹ":2836,"é¤Ĳ":2837,"12æĹ¥":2838,"2005å¹´":2839,"2006å¹´":2840,"åħ¬å°º":2841,"æķ´ä¸ª":2842,"è£Ķ":2843,"åĲķ":2844,"iv":2845,"ç®Ģç§°":2846,"çĶ·æĢ§":2847,"ç«ĭæ³ķ":2848,"æ¶²":2849,"èļ":2850,"å¤ļæ¬¡":2851,"ç¥Ń":2852,"38":2853,"é¢ĨåŁŁ":2854,"æŃ¤åĲİ":2855,"èµ¢å¾Ĺ":2856,",âĢľ":2857,"å»ºè®®":2858,"Ġ194":2859,"ä½ľå®¶":2860,"é¼ĵ":2861,"ç¬¬äºĮæ¬¡":2862,"ä¾¯":2863,"è¡Ĺéģĵ":2864,"..":2865,"åħĥå¹´":2866,"æ©":2867,"è¿ŀç»Ń":2868,"åľ°ä¸ĭ":2869,"11æĹ¥":2870,"19æĹ¥":2871,"åĪĨæŀĲ":2872,"è¡¨æ¼Ķ":2873,"çĸ¾":2874,"ä¼´":2875,"åŁİåĮº":2876,"ä¼Ł":2877,"åįĹäº¬":2878,"éĶ¦æłĩèµĽ":2879,"åĲĮæł·":2880,"èĻĳ":2881,"å¹¿åľº":2882,"å¥¥æŀĹåĮ¹":2883,"37":2884,"500":2885,"æĢ»äººåı£":2886,"ç»ıå¸¸":2887,"åħĪåĲİ":2888,"ä¸ĺ":2889,"åĽĽå·Ŀ":2890,"ä¸Ńéĥ¨":2891,"åıĳå°Ħ":2892,"çĦ¶åĲİ":2893,"äºīè®®":2894,"åĩ¤":2895,"åľ°åĮºçļĦ":2896,"é¢ĳéģĵ":2897,"æľĪ24æĹ¥":2898,"å¹ħ":2899,"é¢ľ":2900,"éĥŃ":2901,"å¡ŀå°Ķ":2902,"em":2903,"å¼ķèµ·":2904,"è§Ĩä¸º":2905,"å¤ļçļĦ":2906,"åĪĻæĺ¯":2907,"åıĬåħ¶":2908,"ä¼Ĭæĸ¯":2909,"æľĪ26æĹ¥":2910,"æĭĨ":2911,"åľ°çĲĥ":2912,"çī§":2913,"ç¤¾åĮº":2914,"éĢŁåº¦":2915,"æĪªèĩ³":2916,"è®°å½ķ":2917,"è®¾å¤ĩ":2918,"é©¶":2919,"æ¯ıå¹´":2920,"ç¦ıå»º":2921,"æĲŃ":2922,"åĩºä»»":2923,"ä¿ĿæĮģ":2924,"æĿ¡ä»¶":2925,"æ°´åŁŁ":2926,"ç»ª":2927,"æľĪ16æĹ¥":2928,"è§ĦåĪĴ":2929,"æĹ¥åĨĽ":2930,"å¤§çº¦":2931,"æŁ¯":2932,"%.":2933,"æ²³åįĹ":2934,"åıĤèµĽ":2935,"ä¿¡æģ¯":2936,"Ġå¹´":2937,"éģŃåĪ°":2938,"å¹³åı°":2939,"æľĪ17æĹ¥":2940,"å±ħä½ı":2941,"å¤ıä»¤":2942,"æĺ¯ä½įäºİç¾İåĽ½":2943,"çī©çĲĨ":2944,"é£ŀè¡Į":2945,"UTC":2946,"äººä»¬":2947,"çļĦä¸»è¦ģ":2948,"åĤ¨":2949,"ç»Łè®¡":2950,"è¢Ńåĩ»":2951,"åĨħéĥ¨":2952,"çĽ¸å¯¹":2953,"å¹¿æ³Ľ":2954,"èĻ«":2955,"æķĻåłĤ":2956,"å®ĺåĳĺ":2957,"è¿ĩåİ»":2958,"2æĹ¥":2959,"è¶ĬåįĹ":2960,"ä¸ĢæŃ¥":2961,"46":2962,"èĩ³ä»Ĭ":2963,"æĭĴç»Ŀ":2964,"æĪĺå½¹":2965,"èĶ¡":2966,"æĸ¯ç§ĳ":2967,"oĠ":2968,"æ£Ĵ":2969,"å¤ļä¸ª":2970,"èĭ±æĸĩ":2971,"è´¸æĺĵ":2972,"åħģ":2973,"è§Ī":2974,"æłĸæģ¯":2975,"å¥¥æŀĹåĮ¹åħĭ":2976,"èĲĦ":2977,"æĺ¯æ³ķåĽ½":2978,"æ¯Ķäºļ":2979,"èĳ¡èĲĦ":2980,"å¹¸":2981,"æĺİæľĿ":2982,"ç³ĸ":2983,"åŃ¦ä½į":2984,"åĦ¿ç«¥":2985,"æµģè¡Į":2986,"br":2987,"æľĢæĹ©":2988,"åĩ½":2989,"ç§¦":2990,"æ·¡":2991,"åıĸä»£":2992,"æĹģ":2993,"æ¼«çĶ»":2994,"é¥°æ¼Ķ":2995,"éĻ¶":2996,"è¿Ŀ":2997,"ç¾İæ´²":2998,"æľĪ27æĹ¥":2999,"æľªèĥ½":3000,"æ³¢åħ°":3001,"æ±¤":3002,"ç»ıåİĨ":3003,"ç¢ĳ":3004,"åĩłä¹İ":3005,"æĮĳ":3006,"å·´é»İ":3007,"æ¦Ĥå¿µ":3008,"èĻļ":3009,"éŀ":3010,"å®ŀçİ°":3011,"æľĪ21æĹ¥":3012,"æĮ¯":3013,"31æĹ¥":3014,"ä»¥ä¸Ĭ":3015,"ç½ĳç«Ļ":3016,"ot":3017,"æľĢå¤§çļĦ":3018,"å¤Ħäºİ":3019,"å·¦åı³":3020,"äºĮå¹´":3021,"é¾Ħ":3022,"æľĪ2æĹ¥":3023,"æĪĸèĢħ":3024,"æľĪ22æĹ¥":3025,"è®°èĢħ":3026,"å°Ķå¾·":3027,"\")":3028,"å®ŀæĸ½":3029,"åįıåĬ©":3030,".ãĢĬ":3031,"å®¿":3032,"åĴĮå¹³":3033,"éķ¿çļĦ":3034,"åĩıå°ĳ":3035,"æĶ¹åıĺ":3036,"èİ·å¾ĹäºĨ":3037,"æľĪ23æĹ¥":3038,"è·ĳ":3039,"ä¾į":3040,"è¿Ī":3041,"æ®Ĭ":3042,"è½¦è¾Ĩ":3043,"èĳ¬":3044,"ä¼¸":3045,"æĽ¾ä»»":3046,"å±ķå¼Ģ":3047,"éķ¿æľŁ":3048,"åľ°éĵģ":3049,"åŀĭçļĦ":3050,"çĨĻ":3051,"åĪĨç±»":3052,"çļĩå¸Ŀ":3053,"æľĪ14æĹ¥":3054,"è¿Ĳè¾ĵ":3055,"è¢«è®¤ä¸º":3056,"æĺĨ":3057,"ç§ĳæĬĢ":3058,"æľĪ29æĹ¥":3059,"èĭ±æł¼åħ°":3060,"å½±çīĩ":3061,"ap":3062,"çļĦç¬¬":3063,"op":3064,"åĩºçĶŁäºİ":3065,"ä¹ĥ":3066,"çº¿çļĦ":3067,"èĮ¶":3068,"çĬ¶æĢģ":3069,"åİ¿çļĦ":3070,"çļĦæĹ¶åĮºä¸º":3071,"æ¯Ķè¾ĥ":3072,"æĽ¾åľ¨":3073,"éģį":3074,"æľīçļĦ":3075,"ST":3076,"75":3077,"åįłé¢Ĩ":3078,"ç»ıèĲ¥":3079,"åī§æĥħ":3080,"å¹¶äºİ":3081,"æ¾³éĹ¨":3082,"æĬķç¥¨":3083,"ç»§æī¿":3084,"å®ħ":3085,"ĠE":3086,"ä½ľæĪĺ":3087,"çĥ§":3088,"æ²»çĸĹ":3089,"åĽ½çļĦ":3090,"æŃ¦åĻ¨":3091,"æľĪ13æĹ¥":3092,"éĻĲåĪ¶":3093,"ä¸ļåĬ¡":3094,"åŁºäºİ":3095,"èį·åħ°":3096,"çŃ¹":3097,"è§£åĨ³":3098,"çº¯":3099,"å¤©ä¸»æķĻ":3100,"çĩĥ":3101,"32":3102,"èĪ°éĺŁ":3103,"å¨ģå»ī":3104,"è½°":3105,"ä¼ļåľ¨":3106,"å¦®":3107,"ä¸ªæľĪ":3108,"ä½ĵçļĦ":3109,"éĶ®":3110,"å®£ä¼ł":3111,"çº¿è·¯":3112,"34":3113,"åĭĭ":3114,"çıį":3115,"çģ¯":3116,"åİ¦":3117,"åĩĨå¤ĩ":3118,"çļĦæĥħåĨµ":3119,"çļĦæķ°æį®":3120,"ç´¯":3121,"éĽķ":3122,"å²Ń":3123,"åĿĽ":3124,"èµĦæºĲ":3125,"ub":3126,"è¾½":3127,"éļĲ":3128,"æĬĺ":3129,"çļĦå½±åĵį":3130,"åĭĩ":3131,"åĩºäºĨ":3132,"è¡¡":3133,"æĸ¯çļĦ":3134,"ĠW":3135,"ä½įäºİè¯¥åĽ½":3136,"SE":3137,"èĢĮåľ¨":3138,"åįģå¹´":3139,"æĸ¹æ¡Ī":3140,"èıľ":3141,"ç»Łä¸Ģ":3142,":)":3143,"æĿ¥æºĲ":3144,"è¯Ħä»·":3145,"çĤİ":3146,"è¯ķåĽ¾":3147,"é½¿":3148,"æ¸ħæľĿ":3149,"åĲĦåľ°":3150,"çĶµè§Ĩåī§":3151,"å³¡":3152,"æ±½è½¦":3153,"åİŁæľ¬":3154,"ä¹ĭå¤ĸ":3155,"éĵģéģĵ":3156,"æ¾³å¤§":3157,"åħ´å»º":3158,"åŃŁ":3159,"åħĦå¼Ł":3160,"åıĪç§°":3161,"éĢīæīĭ":3162,"189":3163,"çł´åĿı":3164,"éģ£":3165,"ãĢįãĢģãĢĮ":3166,"é©¬æĿ¥è¥¿äºļ":3167,"åįıè®®":3168,"ç£ģ":3169,"æīĢåľ¨":3170,"èĲ§":3171,"éĤ®æĶ¿":3172,"çĲ³":3173,"åĽŀåĪ°":3174,"è½´":3175,"St":3176,"55":3177,"æķ¬":3178,"39":3179,"éļıèĳĹ":3180,"åĶ±çīĩ":3181,"è¿Ľä¸ĢæŃ¥":3182,"å£ģ":3183,"åĪĿæľŁ":3184,"è¿Ĳè¡Į":3185,"li":3186,"é¥®":3187,"æĽ¹":3188,"å¤§æ¥¼":3189,"è¦":3190,"æĶ¹ç¼ĸ":3191,"çĬ¹å¤ª":3192,"æħĪ":3193,"å¤§å¤ļæķ°":3194,"ç®Ń":3195,"è¿ĽæĶ»":3196,"åŁºåľ°":3197,"èĩªåĬ¨":3198,"oc":3199,"å¹»":3200,"è¡Ķ":3201,"æķĻä¼ļ":3202,"å¨±ä¹Ĳ":3203,"ä¸Ńæĸĩ":3204,"2004å¹´":3205,"ç²¾ç¥ŀ":3206,"æķı":3207,"å°ıåŃ¦":3208,"åħŃå¹´":3209,"ä¸ºæ¯ı":3210,"èµł":3211,"ç»´æĮģ":3212,"éĴĪå¯¹":3213,"è¿ĺæĺ¯":3214,"è§Ĥä¼Ĺ":3215,"æ¢°":3216,"åŁºéĩĳ":3217,"è´¤":3218,"æ²Ī":3219,"åıĽ":3220,"éĿ¢çļĦ":3221,"è¿Ľè¡ĮäºĨ":3222,"åŁİéķĩ":3223,"æľºè½¦":3224,"ç»ĦåĲĪ":3225,"ä»Ķ":3226,"ä¸»è§Ĵ":3227,"2000å¹´":3228,"æĢ»éĿ¢ç§¯":3229,"è¿ĲèĲ¥":3230,"è´¾":3231,"çļĦåīį":3232,"äººåı£æķ°éĩı":3233,"è¾Ĳ":3234,"éĶĭ":3235,"ç¯®":3236,"ä¸ĩäºº":3237,"å·ŀçļĦ":3238,"çľģçº§":3239,"å§Ĳ":3240,"æŃ£åľ¨":3241,"åĬłä¸Ĭ":3242,"æĬ¥éģĵ":3243,"çī¹å¾ģ":3244,"çº¹":3245,"å¤ªå¹³æ´ĭ":3246,"éĥ¨ä»½":3247,"èĹ¤":3248,"çģ°":3249,"äº¤æĺĵ":3250,"éĽĨä¸Ń":3251,"ä¸įå°ĳ":3252,"ç©ºåĨĽ":3253,"ç»¼åĲĪ":3254,"åĨ¯":3255,"è´Łè´£ç®¡è¾ĸ":3256,"åıĮæĸ¹":3257,"ä¸Ģä½į":3258,"éĤĵ":3259,"éĻķ":3260,"ĠN":3261,"æ¯ıä¸ª":3262,"æ¾³å¤§åĪ©äºļ":3263,"ĠæĶ¿æ²»":3264,"èµ´":3265,"éĻĨåľ°":3266,"åľ¨ç¾İåĽ½":3267,"ç¡®å®ļ":3268,"çŃĶ":3269,"æĺ¯åĲ¦":3270,"è§£éĩĬ":3271,"ĠçĶ±äºİ":3272,"ç¾İåĽ½äººåı£æĻ®æŁ¥":3273,"è¯ģæĺİ":3274,"æĺ¯ä¸ŃåĽ½":3275,"åĽ¾ä¹¦":3276,"å¤§åŀĭ":3277,"ä»·åĢ¼":3278,"47":3279,"è¿ĶåĽŀ":3280,"èĳ£äºĭ":3281,"æīĢå±ŀçļĦ":3282,"è¦Ĩ":3283,"åĲįåįķ":3284,"åİļ":3285,"æĦŁæŁĵ":3286,"åĪĢ":3287,"ç¨ĭåº¦":3288,"éĩįè¦ģçļĦ":3289,"äºĳåįĹ":3290,"ä»°":3291,"ä»İäºĭ":3292,"2025å¹´":3293,",ãĢĮ":3294,"çľģçļĦä¸Ģä¸ªå¸Ĥéķĩ":3295,"æ³³":3296,"è°±":3297,"æ¹ĸåįĹ":3298,"åĽ½ä¼ļ":3299,"æ³ķåħ°":3300,"æľīæĹ¶":3301,"çļĩå®¶":3302,"æ²³æµģ":3303,"çĥŁ":3304,"åĢį":3305,"äºİ198":3306,"å°ıç»Ħ":3307,"å®ĥçļĦ":3308,"çİĭæľĿ":3309,"ä¸»æ¼Ķ":3310,"åħĥç´ł":3311,"å¾·éĩĮ":3312,"é©¬åħĭ":3313,"å¼ķåıĳ":3314,"å¥³åĦ¿":3315,"åĩŃ":3316,"ä¿ĿçķĻ":3317,"çºµ":3318,"æľºä¼ļ":3319,"ä¸´æĹ¶":3320,"æĢ»çĲĨ":3321,"æĹħæ¸¸":3322,"éķĩåĮº":3323,"æľĭ":3324,"é¦ĸéĥ½":3325,"å¸¸è§ģ":3326,"è¶ħçº§":3327,"é¬":3328,"è´¢æĶ¿":3329,"èĴĭ":3330,"çĶŁäºİ":3331,"æ²Ł":3332,"åħ¬åħĥ":3333,"åĩºèº«":3334,"çķª":3335,"å¤§èĩ£":3336,"åĬłåĿ¡":3337,"å¤©æĸĩ":3338,"æī¹åĩĨ":3339,"é«ĺçº§":3340,"åĨ²çªģ":3341,"åĽ½éĺ²":3342,"ç½ķ":3343,"ra":3344,"ç±³å°Ķ":3345,"è®¨è®º":3346,"å°ĸ":3347,"åĬĽéĩı":3348,"Ġ197":3349,"20ä¸ĸçºª":3350,"ä¸įåĨį":3351,"å¦»åŃĲ":3352,"åĲĮæĦı":3353,"ä½ĽæķĻ":3354,"çĳŀå£«":3355,"ãĢĬãĢĭ":3356,"åĽ½æ°ĳåħļ":3357,"ä¸»é¢ĺ":3358,"åĽ½åĨħ":3359,"çłĶç©¶æīĢ":3360,"åı¥":3361,"äºĨä¸Ģä¸ª":3362,"éĿĸ":3363,"æľºåħ³":3364,"è¶£":3365,"åį¡å°Ķ":3366,"é©¾":3367,"æľīæķĪ":3368,"ä¸įæĸŃ":3369,"æ¡ĥ":3370,"è®®éĻ¢":3371,"ç»ĵåĲĪ":3372,"çļĦä¸Ģç§į":3373,"åĩ¡":3374,"åĬĽçļĦ":3375,"å¥½çļĦ":3376,"äº§ä¸ļ":3377,"å·ŀå¸Ĥ":3378,"æľīäºĽ":3379,"è¾ī":3380,"äºĮä¸ĸ":3381,"è·³":3382,"æĸĩçī©ä¿ĿæĬ¤":3383,"65":3384,"æŁ´":3385,"è¿ħ":3386,"æĸ°åĬłåĿ¡":3387,"åİ¿çļĦä¸Ģä¸ª":3388,"æŃ¦è£ħ":3389,"Ġ195":3390,"æĹº":3391,"åĽ½ç«ĭ":3392,"æĺ¯æĮĩ":3393,"æĻ®éĢļ":3394,"ä¸Ĭæĺł":3395,"å¹´è½»":3396,"ç¼ĵ":3397,"çĨŁ":3398,"å¤§ä½¿":3399,"ç§ĺä¹¦":3400,"å»ºæĪĲ":3401,"åŁĶ":3402,"æ°ĶåĢĻ":3403,"ãĢģãĢģ":3404,"æİª":3405,"éĢīåĮº":3406,"è§£æĶ¾åĨĽ":3407,"æĸ¯åŁº":3408,"ç¥¥":3409,"ä¸įåı¯":3410,"éģĤ":3411,"æĺŁæľŁ":3412,"300":3413,"æ§":3414,"æĶ¶åħ¥":3415,"åıĸæ¶Ī":3416,"ç¼ĸåı·":3417,"æ½ĺ":3418,"äººæķ°":3419,"64":3420,"ä¸ĸçķĮå¤§æĪĺ":3421,"æĸĩä»¶":3422,"åı¯è¾¾":3423,"å¨ģå°Ķ":3424,"æĬķåħ¥":3425,"å¿«éĢŁ":3426,"æī¿è®¤":3427,"äººåľ¨":3428,"è¥¿æ´ĭ":3429,"ä¸ŃåĽ½äººæ°ĳ":3430,"è¥¿çľģ":3431,"èĳĹåĲį":3432,"ä¸ŃåĽ½åħ±äº§åħļ":3433,"èŃ¦æĸ¹":3434,"å·´è¥¿":3435,"éĿŀæ´²":3436,"å°ĳå¹´":3437,"æĢ»éĥ¨":3438,"ç»´äºļ":3439,"æł¸å¿ĥ":3440,"(\"":3441,"èĩ³å°ĳ":3442,"é¹¿":3443,"å¿Ĩ":3444,"ä¸Ģä¸ĸ":3445,"éļıçĿĢ":3446,"æĸĩçī©ä¿ĿæĬ¤åįķä½į":3447,"è©":3448,"ä»ĵ":3449,"æĿ¡çº¦":3450,"ä»¥èī²":3451,"åĭ¤":3452,"é£İæļ´":3453,"åĽ½åĬ¡":3454,"ä½¿çĶ¨çļĦ":3455,"ä¹ı":3456,"ç¬¬ä¸Ģä¸ª":3457,"èĭĹ":3458,"èĥľåĪ©":3459,"æĸ¯åħĭ":3460,"31":3461,"å¥¥æĸ¯":3462,"å¦Ĥä¸ĭ":3463,"èĳĹä½ľ":3464,"åŃĿ":3465,"åİĦ":3466,"ç¼ħ":3467,"ä¸ĥå¹´":3468,"åĪĽç«ĭ":3469,"ä»¥èī²åĪĹ":3470,"æ³Ĭ":3471,"Ġ196":3472,"åĮĸçļĦ":3473,"éĩįå»º":3474,"ä»¥åĲİ":3475,"49":3476,"è©¹":3477,"ç§Ĵ":3478,"å¥¥æŀĹåĮ¹åħĭè¿ĲåĬ¨ä¼ļ":3479,"è®¿éĹ®":3480,"æĹ¶ä»»":3481,"ç¬¬åħŃ":3482,"åĽ¢éĺŁ":3483,"æľªæĿ¥":3484,"è´¯":3485,"çĮİ":3486,"ov":3487,"çĹħæ¯Ĵ":3488,"edĠ":3489,"åħ¬æ°ĳ":3490,"æ°ĳä¼Ĺ":3491,"çļĦçłĶç©¶":3492,"çļĦå¸Ĥéķĩ":3493,"åįĬå²Ľ":3494,"éĥ½ä¼ļ":3495,"Ġ1":3496,"æ±Łèĭı":3497,"og":3498,"and":3499,"èİ²":3500,"æĶ¶å½ķ":3501,"æħķ":3502,"åħģè®¸":3503,"æĴĴ":3504,"å®ªæ³ķ":3505,"è¯´æ³ķ":3506,"çŀ":3507,"æµĭè¯ķ":3508,"èĳĽ":3509,"è°ĥæķ´":3510,"andĠ":3511,"æĻ¨":3512,"å§Ķä¼ļ":3513,"ä¼ı":3514,"ç¨ĭåºı":3515,"çĵľ":3516,"å°ĶçļĦ":3517,"æĭīåħĭ":3518,"ä¹ĲåĽ¢":3519,"åĢ¾":3520,"2003å¹´":3521,"æµ·å²¸":3522,"ut":3523,"çİĭåĽ½":3524,"èĽĭçĻ½":3525,"ç»ĵå©ļ":3526,"éļ¶å±ŀäºİ":3527,"æĻ¶":3528,"çĶµèĦĳ":3529,"åģľæŃ¢":3530,"åħ¬åĪĨ":3531,"ä½įäºİæ³ķåĽ½":3532,"æ¢¯":3533,"çĶ¨æĿ¥":3534,"é«ĺçŃī":3535,"åį¢çĵ¦":3536,"æ¨¡åŀĭ":3537,"åĵĪå°Ķ":3538,"éĥ½æľī":3539,"æħ¢":3540,"amp":3541,"éĺ¿æĭīä¼¯":3542,"èī²çļĦ":3543,"èĥģ":3544,"æİ¥è¿ĳ":3545,"èĢĥèĻĳ":3546,"è¡ĮæĶ¿åĮºåĪĴ":3547,"ä¸ĭåįĪ":3548,"å±±èĦī":3549,"çĲĥåľº":3550,"è´º":3551,"çĶ¨çļĦ":3552,"æ®ĸæ°ĳ":3553,"åĩĮ":3554,"å°±è¯»":3555,"æĢĿæĥ³":3556,"è¿ĩç¨ĭä¸Ń":3557,"çĶµåı°":3558,"å°¤åħ¶":3559,"åľ¨è¿Ļ":3560,"èĹ©":3561,"æĪĺåĲİ":3562,"åĳ¨è¾¹":3563,"ĠK":3564,"æĸ°å¢ŀ":3565,"éĤĢè¯·":3566,"æµ®":3567,"åĮ»çĸĹ":3568,"åľ°ä½į":3569,"çĽ´èĩ³":3570,"åħ³æ³¨":3571,"å¹´åº¦":3572,"ç´«":3573,"ak":3574,"II":3575,"çİ°æĹ¶":3576,"Ġc":3577,"2002å¹´":3578,"ç¡ķ":3579,"é¬¼":3580,"çĶ³è¯·":3581,"ä¸Ģå¸¦":3582,"æĥĬ":3583,"èħ¹":3584,"ä¸įæĺİ":3585,"ä¼¯çī¹":3586,"Ġ2":3587,"è§Ĥå¯Ł":3588,"ay":3589,"åĿİ":3590,"éĩįçĤ¹":3591,"èµ·æĿ¥":3592,"ç¥ĸçĪ¶":3593,"æĶ¿åħļ":3594,"åĨįåº¦":3595,"åįģåĪĨ":3596,"Ġ2021å¹´":3597,"çĽ¸ä¼¼":3598,"è¯¾ç¨ĭ":3599,"44":3600,"å¡ĳ":3601,"åŃ©åŃĲ":3602,"èĬĿ":3603,"188":3604,"av":3605,"ä¹Ķæ²»":3606,"åĮĪ":3607,"Ġ2019å¹´":3608,"æĢª":3609,"ä¿Ĭ":3610,"åĲĪçī©":3611,"è¡¨è¾¾":3612,"é«ĺä¸Ń":3613,"åħ±æľīäººåı£":3614,"Ġè½¦ç«Ļ":3615,"åħ¥ä¾µ":3616,"å£«åħµ":3617,"ä»²":3618,"å®īæİĴ":3619,"æĴ°":3620,"åĲ¨":3621,"æĿ¥è¯´":3622,"èĭ¦":3623,"æ¯ķä¸ļäºİ":3624,"ab":3625,"åĬ±":3626,"ç½ļ":3627,"åĪ°è¾¾":3628,"åŃ¦æľ¯":3629,"äººæ°ĳæĶ¿åºľ":3630,"çļĦå°ı":3631,"å¹¶æ²¡æľī":3632,"å¥´":3633,"åĽłèĢĮ":3634,"æĶ¯æı´":3635,"ç§»åĬ¨":3636,"çļĦæĹ¶åĢĻ":3637,"æĺ¯ç¾İåĽ½":3638,"ind":3639,"æ³¥":3640,"æĴŀ":3641,"AT":3642,"éĶĢåĶ®":3643,"å±¿":3644,"åĢĻéĢī":3645,"Ġ193":3646,"æĿī":3647,"è·¯æĺĵ":3648,"çĽĹ":3649,"å¤ĸçļĦ":3650,"çĽ®çļĦ":3651,"Ġ3":3652,"Ġè¿Ļ":3653,"ç¦Ħ":3654,"æĹłçº¿":3655,"ä¸ºæ³ķåĽ½":3656,"è¯¦":3657,"ä¸§":3658,"ä¼Ĭæĸ¯åħ°":3659,"åĹ":3660,"è¥¿åĵ¥":3661,"åºĶè¯¥":3662,"âĢĿãĢģ":3663,"çĨĬ":3664,"æĹ©å¹´":3665,"Ġè¡ĮæĶ¿":3666,"æŃ¤æĹ¶":3667,"æĹ¨":3668,"å¸Ĥéķ¿":3669,"çİ°è±¡":3670,"ç¢į":3671,"åıªæĺ¯":3672,"åīįçļĦ":3673,"å¦ĤæŃ¤":3674,"çī¹çļĦ":3675,"Ġ2020å¹´":3676,"éģĹåĿĢ":3677,"çĹĽ":3678,"ä»ĸæĽ¾":3679,"å¹¶æľª":3680,"58":3681,"çĶ¨æĪ·":3682,"åıĺæĪĲ":3683,"ç²Ĵ":3684,"åľ°åĪ©":3685,"çĮª":3686,"å¹´éĹ´":3687,"éĩĳå±ŀ":3688,"æĹ§å¸Ĥéķĩ":3689,"ç±»åŀĭ":3690,"æĬµè¾¾":3691,"å¸ĤåĮº":3692,"ä»İèĢĮ":3693,"æĿĲæĸĻ":3694,"éī":3695,"æĪĸæĺ¯":3696,"çļĦé¦ĸ":3697,"æĺİæĺ¾":3698,"ä¹³":3699,"æĢ»çĿ£":3700,"èĩªæ²»åĮº":3701,"è´¨éĩı":3702,"Ġ2018å¹´":3703,"éĺħ":3704,"æıĲåįĩ":3705,"é«ĺçļĦ":3706,"å°¼æĸ¯":3707,"çĦ¦":3708,"æŀĦæĪĲ":3709,"å°ĳæķ°":3710,"åįģåħ«":3711,"èģĮåĬ¡":3712,"åºĬ":3713,"è·ĥ":3714,"çĩķ":3715,"å®īè£ħ":3716,"äºİ197":3717,"æŁ³":3718,"åį«æĺŁ":3719,"ç¬¬ä¸ĥ":3720,"å½Ń":3721,"ä¿¡åı·":3722,"åı¯èĥ½æĺ¯":3723,"æ±¡":3724,"äººåı£å¯Ĩåº¦ä¸ºæ¯ı":3725,"æĸ¹çļĦ":3726,"éĢĿä¸ĸ":3727,"68":3728,"å·¥åİĤ":3729,"æŁĲäºĽ":3730,"åĪĹä¸º":3731,"æ¯ĶåĪ©":3732,"å±ı":3733,"çī©è´¨":3734,"æ¡Ĥ":3735,"éĦ":3736,"ãĢģ(":3737,"èĪĴ":3738,"ä½ĵç³»":3739,"æģĴæĺŁ":3740,"ç¨³å®ļ":3741,"æĬļ":3742,"åĴ¸":3743,"å¯¹æīĭ":3744,"èĢĮæĺ¯":3745,"é¡µ":3746,"å¡ĺ":3747,"å¤±åİ»":3748,":.":3749,"Ġd":3750,"ä»ªå¼ı":3751,"åĿĬ":3752,"å¥¥åľ°åĪ©":3753,"éī´":3754,"SEE":3755,"åĩ½æķ°":3756,"åĩºåı£":3757,"çĶ¸":3758,"ç§ĳçļĦ":3759,"åĪĽåĬŀ":3760,"æİī":3761,"éĶģ":3762,"å¢¨è¥¿åĵ¥":3763,"äººåı£æķ°éĩıä¸ºäºº":3764,"ä¸ľè¥¿":3765,"å»ºåĪ¶":3766,"åĲĥ":3767,"æľĭåıĭ":3768,"çĶŁéķ¿":3769,"è°ĵ":3770,"æĲľ":3771,"åĲĮä¸Ģ":3772,"ä¸įè¶³":3773,"æĵįä½ľ":3774,"æİ¥å£¤çļĦå¸Ĥéķĩ":3775,"è¯ļ":3776,"æĸĩç«ł":3777,"æĸĳ":3778,"INSEE":3779,"äºĭä¸ļ":3780,"æĦıè¯Ĩ":3781,"æĻ®éģį":3782,"æ¯ıå¹³æĸ¹åħ¬éĩĮ":3783,"ä¸įå¾Ĺ":3784,"åľ¨199":3785,"æ°§åĮĸ":3786,"çº¬":3787,"çĺ":3788,"ç§»æ°ĳ":3789,"In":3790,"ĠO":3791,"ç¿»è¯ĳ":3792,"ä¸Ģåº¦":3793,"æĹłäºº":3794,"å¨ģèĥģ":3795,"åĬ¨åĬĽ":3796,"åıªèĥ½":3797,"èĤĥ":3798,"å§ĭå»º":3799,"å°ļæľª":3800,"éĤ®æĶ¿ç¼ĸçłģä¸º":3801,"åĬŀåħ¬å®¤":3802,"æł¡éķ¿":3803,"å°Ķçī¹":3804,"ä¸ĢåĲĮ":3805,"çİ°åľº":3806,"å¹¿åĳĬ":3807,"èº«ä½ĵ":3808,"åħ¥åı£":3809,"(;":3810,"æ¡Īä»¶":3811,"è¯ŀ":3812,"åŀĴ":3813,"æĹ¢":3814,"æĮĤ":3815,"æľºæ¢°":3816,"Ġ2017å¹´":3817,"èĥ¶":3818,"åĮĹç¾İ":3819,"éļ§":3820,"å¹³éĿ¢":3821,"ä¸¤ç§į":3822,"çĬ¶åĨµ":3823,"æ¶Īæģ¯":3824,"ä¹Łåľ¨":3825,"éĺŁçļĦ":3826,"éģĹäº§":3827,"åı¬å¼Ģ":3828,"è§ĤçĤ¹":3829,"å¾Ĺä»¥":3830,"å¤ĦçļĦ":3831,"äº¤æµģ":3832,"å¾ª":3833,"è¡¨æĺİ":3834,"æĦıä¹ī":3835,"æĿĥåĬĽ":3836,"æ°ĳä¸»åħļ":3837,"èĩªè¡Į":3838,"æĽ´åĲįä¸º":3839,"ä¸ºä¸Ģ":3840,"åįĹåĮĹ":3841,"ĠJ":3842,"å¼ĺ":3843,"çľĭåĪ°":3844,"åİ¿äºº":3845,"åĭĥ":3846,"çŁ¥éģĵ":3847,"æĮĳæĪĺ":3848,"æķ°åŃĹ":3849,"èģĶç³»":3850,"èģĶåĲĪåĽ½":3851,"çķĶ":3852,"åĽ¾ä¹¦é¦Ĩ":3853,"æħ§":3854,"ç¦ģæŃ¢":3855,"æıĲé«ĺ":3856,"åħ¥éĢī":3857,"å§Ĩæĸ¯":3858,"ä»ĸæĺ¯":3859,"åĵģçīĮ":3860,"æłĩå¿Ĺ":3861,"åģ¥åº·":3862,"æĭĵ":3863,"å²³":3864,"åĪĽéĢł":3865,"æ¬§åħĥ":3866,"å±¯":3867,"ä¼ļçļĦ":3868,"èĳ¡èĲĦçīĻ":3869,"ç¥Ŀ":3870,"Ġ2016å¹´":3871,"42":3872,"è¢ĸ":3873,"å¸ĥæĭī":3874,"åıĳçĶµ":3875,"æķĪåĬĽ":3876,"å¤ıä»¤æĹ¶":3877,"åľŁèĢ³":3878,"ä¹¾":3879,"çº·":3880,"éĩĮçļĦ":3881,"å¤§éģĵ":3882,"æ£®æŀĹ":3883,"æľīäºº":3884,"æĪĴ":3885,"ä¹Ŀå¹´":3886,"åıĳèµ·":3887,"äººåı£å¯Ĩåº¦æ¯ıå¹³æĸ¹åħ¬éĩĮ":3888,"åŃĹæ¯į":3889,"æįĲ":3890,"åľŁèĢ³åħ¶":3891,"æ°¢":3892,"ç®±":3893,"æ°´å¹³":3894,"å¤±è´¥":3895,"åŃĲçļĦ":3896,"å¸Ĥéķĩç¼ĸçłģä¸º":3897,"INSEEå¸Ĥéķĩç¼ĸçłģä¸º":3898,"å½ĵæĹ¶çļĦ":3899,"Ġs":3900,"ãĢİ":3901,"ud":3902,"å¹³æĸ¹ç±³":3903,"åİĨåı²ä¸Ĭ":3904,"ãĢı":3905,"å¹¶éĿŀ":3906,"åħ½":3907,"çĳŀåħ¸":3908,"åįĳ":3909,"äºİæĹ¶çļĦ":3910,"åĮ»åŃ¦":3911,"äºİæĹ¶çļĦäººåı£æķ°éĩıä¸ºäºº":3912,"æ£ĭ":3913,"éĢīåĮºä¸º":3914,"ç¾İåĽ½äººåı£æĻ®æŁ¥çļĦæķ°æį®":3915,"äººåı£å¯Ĩåº¦ä¸ºæ¯ıå¹³æĸ¹åįĥç±³":3916,"æĻĵ":3917,"èĢĮäººåı£å¯Ĩåº¦ä¸ºæ¯ıå¹³æĸ¹åįĥç±³":3918,"å½ĵåľ°åħ±æľīäººåı£":3919,"æ²³åĮĹ":3920,"åľ³":3921,"åį¿":3922,"æµħ":3923,"çī¹æ®Ĭ":3924,"è¯¥çľģä»½":3925,"æĪĸæĹ§å¸Ĥéķĩ":3926,"å»¶ä¼¸":3927,"å¼ºè°ĥ":3928,"éħĴåºĹ":3929,"çļĦæĸ¹å¼ı":3930,"çľģçº§éĢīåĮºä¸º":3931,"æīĢå±ŀçļĦçľģçº§éĢīåĮºä¸º":3932,"å¸ĥé²ģ":3933,"åį«çĶŁ":3934,"ãĢĭ()":3935,"æľ¬åľŁ":3936,"Ġ2022å¹´":3937,"ç¼ĸè¾ĳ":3938,"æĺ¯ä¸ĢåĲį":3939,"çļĦåİŁ":3940,"è¯¥çľģä»½ä¸ºæ³ķåĽ½":3941,"èĢĮè¯¥åľ°":3942,"åĲİèĢħ":3943,"å¥ĸé¡¹":3944,"ä¸Ńå±±":3945,"187":3946,"æķĻåĮº":3947,"åĳ½ä»¤":3948,"éľĢæ±Ĥ":3949,"äººå¤§":3950,"éģ¿åħį":3951,"æĬ¥å¯¼":3952,"Ch":3953,"åıĹä¼¤":3954,"èĲ¥è¿Ĳ":3955,"ä¼°è®¡":3956,"è½°çĤ¸":3957,"ç¼ºä¹ı":3958,"è¿ħéĢŁ":3959,"æĹ¦":3960,"æıĲåĲį":3961,"åħ¶ä½Ļ":3962,"æµ·åŁŁ":3963,"ç¬¬1":3964,"äºİ194":3965,"æī°":3966,"åĽĽä¸ª":3967,"èĳĹåĲįçļĦ":3968,"æĲ¬":3969,"å¸ĤçļĦ":3970,"æ³¨æĦı":3971,"æ¬¢è¿İ":3972,"çĶŁåĳ½":3973,"å¿ĥçĲĨ":3974,"éļ§éģĵ":3975,"æĶ¿æĿĥ":3976,"éĥĬ":3977,"åī©":3978,"ĠtheĠ":3979,"è¾¾æĪĲ":3980,"åĲ¸å¼ķ":3981,"çĹĩçĬ¶":3982,"å®īå¾·":3983,"ia":3984,"tion":3985,"æıĴ":3986,"ĠSt":3987,"é²į":3988,"åĸĢ":3989,"éĩĳçīĮ":3990,"è§ĦåĪĻ":3991,"ä»ĭç»į":3992,"ä¹ĺå®¢":3993,"å¤§è¥¿æ´ĭ":3994,"æĸ¯å¡Ķ":3995,"å¤ĸåĽ½":3996,"éĩĳèŀį":3997,"æķĻç»ĥ":3998,"æĿĨ":3999,"æĴ¤éĶĢ":4000,"çİ»":4001,"ä¾¦":4002,"æĪĲä¸ºäºĨ":4003,"éľ¸":4004,"ä¸²":4005,"äººåĴĮ":4006,"åı¯èĥ½ä¼ļ":4007,"è´ŀ":4008,"éĥ¨èĲ½":4009,"å´İ":4010,"Ġ2014å¹´":4011,"çļĦç¬¬ä¸Ģ":4012,"ä¸»å¼ł":4013,"æķ°åŃ¦":4014,"SA":4015,"å¹¶å°Ĩ":4016,"èĢĮè¢«":4017,"éĵ¾":4018,"æĦŁåĪ°":4019,"67":4020,"åħ¬ä¼Ĺ":4021,"æ¬²":4022,"å½¼å¾Ĺ":4023,"400":4024,"èĥİ":4025,"ä¹Łè¢«":4026,"äºĭå®ŀ":4027,"å°Ķåħ°":4028,"æķĻå¸Ī":4029,"ä»¿":4030,"éĩĩåıĸ":4031,"ä½ĵéķ¿":4032,"ev":4033,"åħ¨éķ¿":4034,"Ġ2015å¹´":4035,"99":4036,"æµĵ":4037,"ers":4038,"æİ¨åĬ¨":4039,"è¹":4040,"ä¹ĭä¸ĭ":4041,"åľ¨åħ¶":4042,"ä¼łè¯´":4043,"èµĦè®¯":4044,"è´Ńä¹°":4045,"ä¿¡ä»°":4046,"150":4047,"æī§å¯¼":4048,"æŀ¢":4049,"çĲĨäºĭ":4050,"é¼ł":4051,"ä¸Ńåħ±ä¸Ńå¤®":4052,"æľ¬èº«":4053,"çļĦä¸Ģåº§":4054,"è¯¢":4055,"ä¼Ļ":4056,"ç¥ŀç»ı":4057,"å½»":4058,"èĽĩ":4059,"åįĵ":4060,"æĸ¯èĴĤ":4061,"æĶ¾å¼ĥ":4062,"åıĪåĲį":4063,"æķĻåŃ¦":4064,"æľĢåĲİä¸Ģ":4065,"\",":4066,"æĴŃæĶ¾":4067,"äº¦æľī":4068,"éĩįåºĨ":4069,"åįģåŃĹ":4070,"âĢĿãĢģâĢľ":4071,"æ³ķæ¡Ī":4072,"ç¨ĭå¼ı":4073,"æĽ´å¤ļ":4074,"Ġ2013å¹´":4075,"åıĤèĢĥ":4076,"è¥¿æĸ¹":4077,"è´¡çĮ®":4078,"æĭ³":4079,"ç½ĳè·¯":4080,"åįĹæŀģ":4081,"186":4082,"æīĵåĩ»":4083,"åľ°çļĦ":4084,"åĩºæĪĺ":4085,"äºİ196":4086,"å£®":4087,"èĭ±éĽĦ":4088,"å®¹æĺĵ":4089,"ç¬ĳ":4090,"åİĺ":4091,"åĨĽçļĦ":4092,"æ³°åĽ½":4093,"ç§¯æŀģ":4094,"æĵİ":4095,"å½ĵå±Ģ":4096,"æĬĹè®®":4097,"æĺ¯ä¸Ģä½į":4098,"åĸľæ¬¢":4099,"åĽ½åĬ¡éĻ¢":4100,"æıŃ":4101,"æĺ¯æĹ¥æľ¬":4102,"åī²":4103,"çİ°ä»»":4104,"äºĭæķħ":4105,"ä¹Ŀé¾Ļ":4106,"å¤ºå¾Ĺ":4107,"ĠæŃ¤":4108,"çīł":4109,"åħ¨éĿ¢":4110,"äºİ195":4111,"è¯ģæį®":4112,"åĲ¯çĶ¨":4113,"æĢ§è´¨":4114,"æİ¥è§¦":4115,"äºŃ":4116,"éĺŁä¼į":4117,"æ´Ĺ":4118,"åįľ":4119,"è£ħçĶ²":4120,"æī®":4121,"åħ¶å®ĥ":4122,"ä¹Łä¼ļ":4123,"å°Ŀ":4124,"ç»ĵæĿŁåĲİ":4125,"åįģä¸Ģ":4126,"èµĲ":4127,"çŁ¥è¯Ĩ":4128,"å±Ĭåħ¨åĽ½":4129,"çļĦéĩįè¦ģ":4130,"èĤº":4131,"åĲİæľŁ":4132,"å¼ºçĥĪ":4133,"ist":4134,"æ¹ĸåĮĹ":4135,"å¤ļç§į":4136,"çªĹ":4137,"Ġ4":4138,"èĬ³":4139,"æĮª":4140,"å®īå¾½":4141,"å¦Ĥä½ķ":4142,"å±ķç¤º":4143,");":4144,"èĢĮæĪĲ":4145,"çĸı":4146,"ul":4147,"å¤įæĿĤ":4148,"æ¶īåıĬ":4149,"ĠV":4150,"åŃ¦ä¼ļ":4151,"æ¼ĶåĶ±ä¼ļ":4152,"ä¸ĸçķĮæĿ¯":4153,"çł²":4154,"ä¸ĩåħĥ":4155,"çŁ¥åİ¿":4156,"å®Įæķ´":4157,"çļĦæµ·":4158,"èı²å¾ĭ":4159,"åĴĮåħ¶ä»ĸ":4160,"éĩĮäºļ":4161,"èı²å¾ĭå®¾":4162,"æĿŃ":4163,"çĻ½èī²":4164,"ç»´å¥ĩ":4165,"ç¾½æ¯Ľ":4166,"çİĦ":4167,"ç¬¬2":4168,"ä¸ĩç¾İåħĥ":4169,"Ġb":4170,"åħ¬ä¸»":4171,"çĪ±å°Ķåħ°":4172,"è´«":4173,"åĩºçİ°åľ¨":4174,"èį¯çī©":4175,"æĬ¢":4176,"éĩĮæĸ¯":4177,"ç¾İæľ¯":4178,"åħīç»ª":4179,"78":4180,"59":4181,"æĸĩçĮ®":4182,"æĿĳåºĦ":4183,"æĦıè§ģ":4184,"çļĦåľ°æĸ¹":4185,"è±Ĩ":4186,"eg":4187,"éĢĴ":4188,"2äºº":4189,"éĵº":4190,"æ°ĳéĹ´":4191,"ä»Ģä¹Ī":4192,"æ¸Ķ":4193,"å¼ķæĵİ":4194,"éĢĨ":4195,"åĨħéĺģ":4196,"åŁĥåıĬ":4197,"å¸Ĥæ°ĳ":4198,"è¿Ļæ¬¡":4199,"å£³":4200,"æĿĥåĪ©":4201,"åĪĽå»º":4202,"æĹħå®¢":4203,"å«Į":4204,"åĢĻéĢīäºº":4205,"è´´":4206,"é«ĺéĽĦ":4207,"56":4208,"3äºº":4209,"æ¹¿":4210,"æĬ½":4211,"çĬ¬":4212,"å®¢è¿Ĳ":4213,"çĪ¶æ¯į":4214,"é¢ĨåľŁ":4215,"èĲ¨åħĭ":4216,"ç®Ģåįķ":4217,"å¾ĭå¸Ī":4218,"å°ıçļĦ":4219,"æº¶":4220,"çº¢èī²":4221,"æĿ°åħĭ":4222,"äººå·¥":4223,"æİĪäºĪ":4224,"æİªæĸ½":4225,"Ġof":4226,"æĭīä¸ģ":4227,"Ġ2023å¹´":4228,"Ġå¤§":4229,"éĽĩ":4230,"è¡¨éĿ¢":4231,"å®ļä¸º":4232,"çĮ«":4233,"éĻ¢éķ¿":4234,"ç®Ģä»ĭ":4235,"å¦ĥ":4236,"ä¹¾éļĨ":4237,"ob":4238,"èŀº":4239,"èĤ¡ä»½":4240,"NA":4241,"æķĪæŀľ":4242,"çŃ¾ç½²":4243,"åĩºéģĵ":4244,"èģĺ":4245,"è±¡å¾ģ":4246,"å¯Ħ":4247,"ç²®":4248,"åıĳåĶ®":4249,"èį£èªī":4250,"æĦıä¸º":4251,"æĭīå¤«":4252,"1äºº":4253,"å°ī":4254,"éĻįä½İ":4255,"å£°ç§°":4256,"é£ĵ":4257,"æ·±åľ³":4258,"æĤ¬":4259,"å½¢è±¡":4260,"åľ°éľĩ":4261,"åħĭç½Ĺ":4262,"äºļåİĨ":4263,"ç¡®è®¤":4264,"ç¡®è¯Ĭ":4265,"åĽłç´ł":4266,"Ġ6":4267,"ä¸ľåĮĹéĥ¨":4268,"å·§":4269,"æĿ¥åĪ°":4270,"ç¢³":4271,"æĮīçħ§":4272,"çĬ¯ç½ª":4273,"é£ĵé£İ":4274,"çĽ¾":4275,"12å¹´":4276,"çĪĨçĤ¸":4277,"åıĶ":4278,"è¿Ł":4279,"éķ¿åº¦":4280,"ä¹Łåı¯ä»¥":4281,"åĮ»çĶŁ":4282,"é¢Ĩè¢ĸ":4283,"ç«ŀäºī":4284,"åľ°çĤ¹":4285,"è¢ģ":4286,"ä½ľèĢħ":4287,"çħ¤":4288,"ok":4289,"å°Ĩä¼ļ":4290,"ä¼łæĴŃ":4291,"å·®å¼Ĥ":4292,"è¢«è®¤ä¸ºæĺ¯":4293,"ang":4294,"ç¨¿":4295,"å®ı":4296,"æ´ģ":4297,"æĽ´åĬł":4298,"ä¸ĵéĹ¨":4299,"ä¸Ī":4300,"æĸľ":4301,"æĸĩåŃĹ":4302,"ä¼ĬæľĹ":4303,"åıĻåĪ©äºļ":4304,"åıĳåĩº":4305,"ä¸įæ»¡":4306,"å®ŀéĻħä¸Ĭ":4307,"ä¸ĵå®¶":4308,"çļĦé«ĺ":4309,"ç¾Ĭ":4310,"åİĭåĬĽ":4311,"åı¤ä»£":4312,"ä¸¾è¡ĮçļĦ":4313,"88":4314,"æ°Ķè±¡":4315,"ä¸Ļ":4316,"å¯¹æŃ¤":4317,"å·¥åħ·":4318,"ä¹¡è¯ķ":4319,"èµĦéĩĳ":4320,"TV":4321,"Â°":4322,"åı°åįĹ":4323,"åŁºçĿ£æķĻ":4324,"æĪıåī§":4325,"çīµ":4326,"æ¯ĶèµĽä¸Ń":4327,"èĨľ":4328,"èµ·æºĲ":4329,"èħ¾":4330,"57":4331,"=\"":4332,"æĬ¼":4333,"å°¸":4334,"å°ļä¹¦":4335,"æ²³çķĶ":4336,"æįŁå¤±":4337,":\"":4338,"ï½":4339,"åĨĴ":4340,"é«ĺäºİ":4341,"å¤ļå¹´":4342,"å¡«":4343,"ç»ĻäºĪ":4344,"æľīä¸Ģä¸ª":4345,"è¾¹çķĮ":4346,"é³įé±¼":4347,"ä¸ľæĸ¹":4348,"å¸ĪèĮĥ":4349,"çĸ¾çĹħ":4350,"tw":4351,"è¾©":4352,"åĿ¦åħĭ":4353,"çĽ¸æ¯Ķ":4354,"ç»ıéªĮ":4355,"è¡į":4356,"æĺ¯ä»¥":4357,"çĹħä¾ĭ":4358,"å¥ĳ":4359,"è£ķ":4360,"éĴ¦":4361,"æľīæīĢ":4362,"çĲĥä¼ļ":4363,"ä½ľæĽ²":4364,"ä¸¾äºº":4365,"äº¨åĪ©":4366,"ä»ĳ":4367,"åľ¨æĹ¥æľ¬":4368,"ä¸Ģå®ļ":4369,"è¡°":4370,"å§»":4371,"æłĩä¸º":4372,"1998å¹´":4373,"åĩºå¸Ń":4374,"æ°Ł":4375,"ç½¢":4376,"åĪĹè¡¨":4377,"è¸ª":4378,"éĢĢå½¹":4379,"éĿ¢å¯¹":4380,"å·¡åĽŀ":4381,"ä¸įä»ħ":4382,"å½ĵå¹´":4383,"é¸¡":4384,"æĺİæ²»":4385,"çº¦ä¸º":4386,"æĶ¹åĸĦ":4387,"æĢ§åĪ«":4388,"çĻ»éĻĨ":4389,"çļĦä½ľåĵģ":4390,"è¥¿èĹı":4391,"çļĦä¸ī":4392,"èĮĤ":4393,"ä½ıå®ħ":4394,"å²ģçļĦ":4395,"è²":4396,"çĲī":4397,"ä¹ĭä¸Ń":4398,"ä¸¤å¹´":4399,"æĶ¹éĢł":4400,"åı¸æ³ķ":4401,"An":4402,"å¹¶åħ¥":4403,"åĪĹåħ¥":4404,"åĽŀåºĶ":4405,"åħĭèİ±":4406,"ç«Ļåı°":4407,"å®Ļ":4408,"çİĩé¢Ĩ":4409,"éĤ£éĩĮ":4410,"è´µæĹı":4411,"66":4412,"èĪŀåı°":4413,"è½¬ç§»":4414,"åĪ¶çļĦ":4415,"1999å¹´":4416,"ep":4417,"ç±³çļĦ":4418,"ç¤¾ä¼ļä¸»ä¹ī":4419,"å¦Ī":4420,"å®ŀè¡Į":4421,"å£°æĺİ":4422,"åĨ¬åŃ£":4423,"åľ°éĿ¢":4424,"ç²¹":4425,"CD":4426,"ç§įæĹı":4427,"èĭ±å°º":4428,"çĶµè½¦":4429,"æ¾³æ´²":4430,"èĤ¥":4431,"åŁºåĽł":4432,"åıĤè°ĭ":4433,"åĸ·":4434,"åħ³éĹŃ":4435,"åĳ½åĲįä¸º":4436,"èįĴ":4437,"æµģåŁŁ":4438,"åĥ§":4439,"æµ·æ´ĭ":4440,"æĪĲæľ¬":4441,"You":4442,"åıĤåĬłäºĨ":4443,"è£ħç½®":4444,"ä¸Ģå®¶":4445,"å¥¹åľ¨":4446,"æĩ":4447,"éģµ":4448,"çĭĦ":4449,"Ġ2012å¹´":4450,"54":4451,"ç¤ºå¨ģ":4452,"è¯ŃçļĦ":4453,"å½¢æĢģ":4454,"çĸ«æĥħ":4455,"æµ©":4456,"æīįèĥ½":4457,"åıĺå¾Ĺ":4458,"å²ģæĹ¶":4459,"ç¡ķå£«":4460,"èĬ¬åħ°":4461,"åľ¨ä¸ŃåĽ½":4462,"é¸¿":4463,"å´Ķ":4464,"çİĽä¸½":4465,"åħ¬åı¸çļĦ":4466,"åĳ¨å¹´":4467,"ç¬¦åĲĪ":4468,"é©±éĢĲ":4469,"æĦıæĢĿ":4470,"åį³ä½¿":4471,"é«ĺéĢŁåħ¬è·¯":4472,"æľºåĻ¨":4473,"æµĭéĩı":4474,"æµ·å¤ĸ":4475,"é³įé±¼çº²":4476,"çļĦåĽ½å®¶":4477,"æŃ£å¸¸":4478,"å¸ħ":4479,"éĢļè½¦":4480,"èİ«æĸ¯ç§ĳ":4481,"æĸ°çĸĨ":4482,"å±Ģéķ¿":4483,"å²Ĺ":4484,"è¾ĥä¸º":4485,"BC":4486,"æĥħæĬ¥":4487,"åı¦ä¸Ģä¸ª":4488,"é¥Ń":4489,"é¡¾éĹ®":4490,"å¯¹è±¡":4491,"å¼Ģè®¾":4492,"çĶµåĬĽ":4493,"èĭıæł¼åħ°":4494,"å¼¥":4495,"éħįåĲĪ":4496,"æ··åĲĪ":4497,"é£Łçī©":4498,"éĻĦè¿ĳçļĦ":4499,"æĢĴ":4500,"åĩºæĿ¥":4501,"ä¿®æĶ¹":4502,"æ¶µ":4503,"å§Ķä¹¦è®°":4504,"æĶ¶è´Ń":4505,"æĻļä¸Ĭ":4506,"åı°åĮĹå¸Ĥ":4507,"Ġèĩª":4508,"åĵ²åŃ¦":4509,"ä¿ĺ":4510,"å¾Īå¿«":4511,"æķ´ä½ĵ":4512,"è¾Ĳé³įé±¼çº²":4513,"èĢĹ":4514,"çģ«ç®Ń":4515,"å¹¶ä»¥":4516,"åĩłä¸ª":4517,"éĻĨåľ°éĿ¢ç§¯ä¸º":4518,"çŁ¥åĲį":4519,"åĪĨéħį":4520,"æ°´åŁŁéĿ¢ç§¯ä¸º":4521,"3ä¸ª":4522,"æ¬£":4523,"10å¹´":4524,"æ¶¦":4525,"åıĳçİ°äºĨ":4526,"æī©å¤§":4527,"up":4528,"åŃ¤":4529,"éħįéŁ³":4530,"èĢĢ":4531,"å·¥äºº":4532,"å¼ĢéĢļ":4533,"åĮĪçīĻ":4534,"52":4535,"æŃĩ":4536,"æ¯Ķä¾ĭ":4537,"çŁ¶":4538,"çĭĤ":4539,"æ³ķå®ĺ":4540,"ä¸Ģåº§":4541,"ä¸ľåįĹéĥ¨":4542,"äº¿åħĥ":4543,"all":4544,"èµ¶":4545,"å¹¿ä¸ľçľģ":4546,"åĽĽåįģ":4547,"å¯¼å¼¹":4548,"æĮªå¨ģ":4549,"åĮĪçīĻåĪ©":4550,"ä¹ĭåŃĲ":4551,"èĢĮè¨Ģ":4552,"çļĦåİĨåı²":4553,"åĤħ":4554,"uc":4555,"åľ¨è¯¥":4556,"ä¸ĢæĿ¡":4557,"eb":4558,"å¢ŀéķ¿":4559,"ç¥Ģ":4560,"æĥ¯":4561,"è£ħå¤ĩ":4562,"çĭ®":4563,"çļĦæĹ¶éĹ´":4564,"éĻĢ":4565,"åº·çĨĻ":4566,"å¯¸":4567,"çľģåĴĮ":4568,"ç¿Į":4569,"ï½ŀ":4570,"ä»»èģĮ":4571,"è¯·æ±Ĥ":4572,"åĲĮçĽŁ":4573,"åŁĥå°Ķ":4574,"æıĲåĪ°":4575,"ew":4576,"æµ·å³¡":4577,"æģĲæĢ":4578,"ik":4579,"ha":4580,"çĶ¨ä½ľ":4581,"åĬ¨ä½ľ":4582,"åŀĤ":4583,"æĪĺçķ¥":4584,"ç¥¨æĪ¿":4585,"å½ĵä¸ŃéĻĨåľ°éĿ¢ç§¯ä¸º":4586,"èĢĮæ°´åŁŁéĿ¢ç§¯ä¸º":4587,"ç§ĺå¯Ĩ":4588,"éĥ¨çļĦ":4589,"å¤ªåŃĲ":4590,"èĦĤ":4591,"98":4592,"å¤·":4593,"åİ¢":4594,"ä¸ĭéĻį":4595,"æŁĶ":4596,"ç§ģäºº":4597,"Ġp":4598,"çĶŁçļĦ":4599,"ç²¤":4600,"äºļåİĨå±±":4601,"ä¸ĭæĿ¥":4602,"18å¹´":4603,"æŃ¦æ±ī":4604,"æĤī":4605,"Ġm":4606,"å¸ĥå°Ķ":4607,"ç¼ħçĶ¸":4608,"åįİçĽĽ":4609,"çĭĹ":4610,"éĢĢä¼ĳ":4611,"ip":4612,"est":4613,"éĹ´çļĦ":4614,"èµ·ä¹ī":4615,"åĩºæ¼Ķ":4616,"å§ļ":4617,"åĽŀå½Ĵ":4618,"æ»ļ":4619,"æŃ¥åħµ":4620,"è¦ĨçĽĸ":4621,";-":4622,"åħ«å¹´":4623,"76":4624,"Ġè¡ĮæĶ¿åĮºåĪĴ":4625,"çļĦä¸Ń":4626,"ä¸ĬåįĪ":4627,"è¯´æĺİ":4628,"ç¼ĸåī§":4629,"ç¢İ":4630,"éĢ¢":4631,"è§Ĥæµĭ":4632,"ä¸ŃåĽ½äººæ°ĳè§£æĶ¾åĨĽ":4633,"æľĢè¿ĳ":4634,"éĩįå¤§":4635,"çĮĽ":4636,"åĬ³åĬ¨":4637,"æī¾åĪ°":4638,"ä¸ºè¾Ĳé³įé±¼çº²":4639,"OS":4640,"ä½ĵéķ¿åı¯è¾¾":4641,"æ·±åº¦":4642,"çģĮ":4643,"æİ¨è¿Ľ":4644,"åįİçĽĽé¡¿":4645,"è¢«è¿«":4646,"é¢Ħè®¡":4647,"å½°":4648,"èĬĴ":4649,"åĲĪçº¦":4650,"åĬŀäºĭ":4651,"åħ´è¶£":4652,"å¥¥è¿Ĳä¼ļ":4653,"æĳĩ":4654,"åĪ¸":4655,"ç»Ħå»º":4656,"çľŁæŃ£":4657,"53":4658,"ç¬¬åħ«":4659,"ç»ıåħ¸":4660,"é©¬å°Ķ":4661,"è¯ķéªĮ":4662,"åºŀ":4663,"åĳ¨åĽ´":4664,"çļĦéĹ®é¢ĺ":4665,"é£İéĻ©":4666,"æºĲèĩª":4667,"å°Ŀè¯ķ":4668,"ĠU":4669,"ç¾İåĨĽ":4670,"ä¿ĿåŃĺ":4671,"ä¸ºæŃ¢":4672,"åĬłçĽŁ":4673,"å¼ķåħ¥":4674,"æĬķéĻį":4675,"éĺ²å¾¡":4676,"å¾¡åı²":4677,"ell":4678,"æłĸæģ¯åľ¨":4679,"å¹¿è¥¿":4680,"æ»©":4681,"èĬ±åĽŃ":4682,"æĿĢæŃ»":4683,"if":4684,"ç¬¼":4685,"å»Ĭ":4686,"åľ°åĽ¾":4687,"åĮĹèµ·":4688,"ä¼ª":4689,"åĳİ":4690,"Ġ2024å¹´":4691,"ä¸Ńæľī":4692,"åģ·":4693,"å²Ľå±¿":4694,"åĬ¿åĬĽ":4695,"âĢ¦âĢ¦":4696,"éĺª":4697,"åĮĹäº¬å¸Ĥ":4698,"æľ¬ç«Ļ":4699,"èįĲ":4700,"éļıåį³":4701,"ĠæĽ¾":4702,"å¥İ":4703,"è´£ä»»":4704,"Ġä»İ":4705,"ä»£è¡¨å¤§ä¼ļ":4706,"å¤§è§Ħæ¨¡":4707,"éĢ»":4708,"ä¸İåħ¶ä»ĸ":4709,"èĤĸ":4710,"å£°éŁ³":4711,"().":4712,"1997å¹´":4713,"çļĦæĥħåĨµä¸ĭ":4714,"ä»¥åīį":4715,"éħ¶":4716,"æĹĹä¸ĭ":4717,"å¸¦æĿ¥":4718,"è®ºæĸĩ":4719,"çĶ¨éĢĶ":4720,"çĶŁæĢģ":4721,"åĽ½å®¶éĺŁ":4722,"1992å¹´":4723,"1996å¹´":4724,"çıĬ":4725,"ä¾ł":4726,"BA":4727,"å¯¹å¤ĸ":4728,"æ¸©åº¦":4729,"è®²è¿°":4730,"åĲ¾":4731,"77":4732,"äº¿ç¾İåħĥ":4733,"çħ§çīĩ":4734,"æŀĿ":4735,"è¿Ĳä½ľ":4736,"ç»ĦæĪĲçļĦ":4737,"ä¿ĥè¿Ľ":4738,"ä»£çłģ":4739,"å¯¹åºĶ":4740,"43":4741,"çļĦæĶ¯æĮģ":4742,"ä¼ĺåĬ¿":4743,"è½¯ä»¶":4744,"å¾ĹçŁ¥":4745,"è§£æķ£":4746,"æľĢå¤ļ":4747,"æ¹ĺ":4748,"ç¿ģ":4749,"ä¸¤æ¬¡":4750,"æĮĩå¯¼":4751,"å¤«äºº":4752,"è°ĪåĪ¤":4753,"çĴĥ":4754,"èµĭ":4755,"éļľç¢į":4756,"ex":4757,"Ġ19":4758,"åĲįä¹ī":4759,"å¨ĥ":4760,"åĵ¥ä¼¦":4761,"å¤ıåŃ£å¥¥æŀĹåĮ¹åħĭè¿ĲåĬ¨ä¼ļ":4762,"å¹´é¾Ħ":4763,"åįģä¸ī":4764,"æŀĦéĢł":4765,"ä¿®å»º":4766,"éĺĶ":4767,"ç»ıçĲĨ":4768,"èĥ¸":4769,"åľ¨å¤§":4770,"å¼¦":4771,"åı°ä¸Ń":4772,"æģĲæĢĸ":4773,"Ġ192":4774,"éŃĤ":4775,"éļ¾ä»¥":4776,"çļĦå·¥ä½ľ":4777,"åįµ":4778,"æłı":4779,"å°ıåŀĭ":4780,"æĮĩæİ§":4781,"ä¸ĩåİĨ":4782,"ä»ĩ":4783,"äºĨè§£":4784,"Ġæ¦Ĥ":4785,"Ġ5":4786,"ä»ĸè¿ĺ":4787,"åİĨä»»":4788,"åĲĲ":4789,"è¢«è§Ĩä¸º":4790,"ä¸Ĭæµ·å¸Ĥ":4791,"art":4792,"æľ´":4793,"è¥¿åįĹéĥ¨":4794,"é©¬æĭī":4795,"æ¯ķä¸ļåĲİ":4796,"é©¾é©¶":4797,"çļĦå±±":4798,"éĤ£äºĽ":4799,"hans":4800,"åĲı":4801,"ä¸īè§Ĵ":4802,"åıł":4803,"æ·ĺ":4804,"1945å¹´":4805,"hk":4806,"çļĦå¤ĸ":4807,"çļĦåıĳå±ķ":4808,"åħĭæĭī":4809,"éĤ¨":4810,"æ³¨åĨĮ":4811,"å©ļå§»":4812,"Ġ2011å¹´":4813,"41":4814,"å®ĩå®Ļ":4815,"indow":4816,"æī®æ¼Ķ":4817,"è¥¿å®ī":4818,"çŃīçŃī":4819,"ç½ĳçĲĥ":4820,"å±ł":4821,"åĮĸçŁ³":4822,"æĳĦå½±":4823,"19å¹´":4824,"ç¡«":4825,"åĬłå¼º":4826,"æ¬¡å¹´":4827,"éĩıçļĦ":4828,"èħĲ":4829,"éĶĻè¯¯":4830,"æĲº":4831,"å¹´ä»£":4832,"åĨĽåĮº":4833,"èĪ±":4834,"åı°é£İ":4835,"ard":4836,"1988å¹´":4837,"æ·¡æ°´":4838,"95":4839,"å½¦":4840,"å®¶äºº":4841,"å¤ªç©º":4842,"æŁıæŀĹ":4843,"é¢ľèī²":4844,"åľ¨é¦Ļæ¸¯":4845,"åįģåħŃ":4846,"èĦĬ":4847,"æľįå½¹":4848,"åĲĪæĪĲ":4849,"éĻĨç»Ń":4850,"éĢ®":4851,"è²Į":4852,"å®¶çļĦ":4853,"åĺ´":4854,"AR":4855,"1994å¹´":4856,"é¹°":4857,"ä»ĸè¢«":4858,"éĢĢåĩº":4859,"åįĹéĿŀ":4860,"BS":4861,"åĬłåĪ©":4862,"éĢļéģĵ":4863,"Ġ2010å¹´":4864,"æĶ¿åįı":4865,"åįĹæĸ¹":4866,"æŃ§":4867,"éļ¶å±ŀ":4868,"äºİ193":4869,"åİŁä½ı":4870,"æĹ¬":4871,"è¥¿åĮĹéĥ¨":4872,"å¸¦æľī":4873,"ç¨į":4874,"æĶ¿åºľçļĦ":4875,"æ±Łè¥¿":4876,"Ġ10":4877,"åıī":4878,"åħĭçļĦ":4879,"1949å¹´":4880,"ill":4881,"çĲĥåŃ£":4882,"ç³»ç»ŁçļĦ":4883,"ä»·æł¼":4884,"éĩĬæĶ¾":4885,"ä¹ĲéĺŁ":4886,"ï¼ı":4887,"å®ļå±ħ":4888,"AM":4889,"å¤§èµĽ":4890,"åĳĪçİ°":4891,"ä¸Ģèĩ´":4892,"çĽ¸ä¿¡":4893,"ant":4894,"ä½ľåĩº":4895,"ç¬¬3":4896,"qu":4897,"çļĦæķħäºĭ":4898,"é¦ĸåħĪ":4899,"å¨ĺ":4900,"ä¿Ŀç½Ĺ":4901,"åĪĨåĪ«ä¸º":4902,"åĪ·":4903,"ç¿ł":4904,"åħ¼ä»»":4905,"éĹ½":4906,"æģ°":4907,"æİĴè¡Į":4908,"ĠçļĦæĹ¶åĮºä¸º":4909,"ĠäºİæĹ¶çļĦäººåı£æķ°éĩıä¸ºäºº":4910,"ĠæīĢå±ŀçļĦçľģçº§éĢīåĮºä¸º":4911,"æīĢå±ŀ":4912,"éº¦åħĭ":4913,"éĺ¶çº§":4914,"Ġä¸İæİ¥å£¤çļĦå¸Ĥéķĩ":4915,"ĠçļĦéĤ®æĶ¿ç¼ĸçłģä¸º":4916,"ä¸¤åĲį":4917,"èĿ¶":4918,"79":4919,"æ¸¸æ³³":4920,"ä»»åĳ½ä¸º":4921,"4äºº":4922,"æĬĹæĹ¥":4923,"æı¡":4924,"çĽ¸äºĴ":4925,"åħ³éĶ®":4926,"ç«ĭåį³":4927,"éĢļè®¯":4928,"ç¯®çĲĥ":4929,"èĸĦ":4930,"åĮĹæµ·":4931,"éªĳå£«":4932,"èĩªèº«":4933,"åĿª":4934,"æ¯Ķå¦Ĥ":4935,"æ·»":4936,"éªĳåħµ":4937,"åį±æľº":4938,"å©Ĩ":4939,"æĸ¯æŀĹ":4940,"éĽĢ":4941,"å¸¦é¢Ĩ":4942,"éĵŃ":4943,"åİŁåŃĲ":4944,"ä¸°å¯Į":4945,"1æľĪ1æĹ¥":4946,"å¿§":4947,"è¶ĭ":4948,"ä¼ĺç§Ģ":4949,"éĨĴ":4950,"ç¬¬äºĮæ¬¡ä¸ĸçķĮå¤§æĪĺ":4951,"å·«":4952,"å¤§èĩ´":4953,"æ·®":4954,"å±ķè§Ī":4955,"æĹ¶æľŁçļĦ":4956,"æĸ¹è¨Ģ":4957,"å¯¹æĬĹ":4958,"éĢīä¸º":4959,"è®¡ç®Ĺæľº":4960,"åĨħéĻĨ":4961,"ä¾ĽåºĶ":4962,"çľŁå®ŀ":4963,"è¯ı":4964,"éĿŀå»ºåĪ¶":4965,"æĦıå¿Ĺ":4966,"é¸£":4967,"ç¾½æ¯ĽçĲĥ":4968,"èīºäºº":4969,"é»ĳèī²":4970,"è¾ĵåħ¥":4971,"ä¼Ĺå¤ļ":4972,"éĺŁéķ¿":4973,"69":4974,"ä»ĸä¸İ":4975,"åĮĹæĸ¹":4976,"åĽºå®ļ":4977,"ä¸Ĭè¿°":4978,"CO":4979,"æİĺ":4980,"åħĪçĶŁ":4981,"åħ·ä½ĵ":4982,"åį°å°¼":4983,"ä¸Ģçº§":4984,"ä»£çĲĨ":4985,"å·ŀåºľ":4986,"æľĿå»·":4987,"éĺ®":4988,"æ´¾éģ£":4989,"åµ":4990,"ain":4991,"1989å¹´":4992,"å¾Ģå¾Ģ":4993,"æ£Ģæµĭ":4994,"å§¬":4995,"éĥ½å¸Ĥ":4996,"å¯»æī¾":4997,"é»Ħéĩĳ":4998,"é¢Ĩå¯¼äºº":4999,"éĿŀå»ºåĪ¶åľ°åĮº":5000,"185":5001,"ä»£è¡¨åĽ¢":5002,"çªģçł´":5003,"é¼»":5004,"Ġä»¥ä¸ĭ":5005,"ä½ĨçĶ±äºİ":5006,"çī¹èī²":5007,"åįģäºĶ":5008,"çģ«å±±":5009,"åįĹèĩ³":5010,"çĽĳçĿ£":5011,"åĹ£":5012,"å¼Ģå±ķ":5013,"æĦĪ":5014,"æ³¢æĸ¯":5015,"æĿīçŁ¶":5016,"å·²è¢«":5017,"æĽ´ä¸º":5018,"ä¾ĭåŃĲ":5019,"æ´ĽæĿīçŁ¶":5020,"62":5021,"æ°¯":5022,"çĻ»ä¸Ĭ":5023,"çĶµè¯Ŀ":5024,"å½ĵå¤©":5025,"ä¸¤åĽ½":5026,"æĸ¤":5027,"æĹ¥æĬ¥":5028,"1000":5029,"å±±è¥¿":5030,"åĦĴ":5031,"åħĨ":5032,"èĭĳ":5033,"çªģçĦ¶":5034,"Ġ8":5035,"å®ŀéªĮå®¤":5036,"ä¸º2":5037,"èĮµ":5038,"ä¾Ŀæį®":5039,"åģ¿":5040,"Ġå®¶æĹı":5041,"åľºçļĦ":5042,"å°¼äºļå·ŀ":5043,"çĽ¸åħ³çļĦ":5044,"åħ¬çĪµ":5045,"åĽ½å®¶çļĦ":5046,"æĳĨ":5047,"ä¸¹éº¦":5048,"åįĴ":5049,"è¡ĮçļĦ":5050,"æ±ª":5051,"ä¸īä¸ĸ":5052,"çī¹å®ļ":5053,"1993å¹´":5054,"åĲĽä¸»":5055,"å¯¨":5056,"åĨĽå®ĺ":5057,"åĳĺå·¥":5058,":),":5059,"ä¸º1":5060,"å¤§å¤ļ":5061,"1995å¹´":5062,"å°ĳå¥³":5063,"å¦ĩå¥³":5064,"600":5065,"å°±ä¼ļ":5066,"ä¸»è¦ģçļĦ":5067,"æ²¿æµ·":5068,"æĺİç¡®":5069,"æĪ¿å±ĭ":5070,"éĢ®æįķ":5071,"4ä¸ª":5072,"åı²ä¸Ĭ":5073,"1991å¹´":5074,"è½¬åĲĳ":5075,"æī©å±ķ":5076,"å¤ķ":5077,"å¤§æ¡¥":5078,"ä¾¨":5079,"å°¼åħĭ":5080,"èµĦäº§":5081,"ong":5082,"èĦı":5083,"ĠåĴĮ":5084,"éĻ¨":5085,"å®ĥæĺ¯":5086,"çļĦåĲĮ":5087,"æľºåĪ¶":5088,"éĵľçīĮ":5089,"è¯ģå®ŀ":5090,"ä¸İåħ¶":5091,"æŃ¤æ¬¡":5092,"åĪ¶å®ļ":5093,"ç»Ŀå¯¹":5094,"åĬĿ":5095,"å¤§å¥ĸ":5096,"åĩĢ":5097,"Ġéĺ¿":5098,"ä¸Ľ":5099,"è¾°":5100,"51":5101,"180":5102,"æ£ĢæŁ¥":5103,"å¤§åİ¦":5104,"ç§ĳå¤«":5105,"ä¸Ģæ®µ":5106,"äºļç¾İ":5107,"åĮĸåĲĪçī©":5108,"ç²Ĺ":5109,"åĲ¯åĬ¨":5110,"Ã©":5111,"æ³ķåħ°è¥¿":5112,"åĪĨç¦»":5113,"è§Ĩé¢ĳ":5114,"çļĦçĶµå½±":5115,"éĵ¸":5116,"çī¹åĪ«æĺ¯":5117,"åľ¨äºİ":5118,"åī§æľ¬":5119,"ç´§æĢ¥":5120,"è¯Ħä¼°":5121,"åĿĩä¸º":5122,"Ġzh":5123,"åĨľæ°ĳ":5124,"åĵ¥ä¼¦æ¯Ķäºļ":5125,"åĬłæĭī":5126,"æ¶Ĥ":5127,"ä¸ĳ":5128,"sp":5129,"end":5130,"ä¸»è¦ģæĺ¯":5131,"ä¿Ŀå®Ī":5132,"ä¹łæĢ§":5133,"èĲ¨æĸ¯":5134,"åī§éĻ¢":5135,"åºŁéĻ¤":5136,"åĬ«":5137,"åŁºéĩĳä¼ļ":5138,"2ä¸ª":5139,"1990å¹´":5140,"1985å¹´":5141,"ä¸Ĭæľī":5142,"çŁ©":5143,"åľºæ¯ĶèµĽ":5144,"åĢ¡":5145,"ä¹ĭæĪĺ":5146,"æī«":5147,"è´©":5148,"èĢĮéĿŀ":5149,"æ±°":5150,"è´¨çĸĳ":5151,"çŃ¾è®¢":5152,"ä¸Ńè¢«":5153,"çİ°ä»Ĭ":5154,"æ±Ģ":5155,"åİŁåĪĻ":5156,"åĨĽåĽ¢":5157,"å½¢å®¹":5158,"Al":5159,"éĻķè¥¿":5160,"ä¸ĭä»¤":5161,"éĦĤ":5162,"å¼¯":5163,"åŃ¦å£«":5164,"ç±³äºļ":5165,"åĬªåĬĽ":5166,"åħ¶ä¸ŃåĮħæĭ¬":5167,"ç»ĻäºĨ":5168,"ä¼ļéķ¿":5169,"ç»´æĬ¤":5170,"å¸Ńä½į":5171,"çīłä»¬":5172,"ast":5173,"æĭĺ":5174,"éĽĮ":5175,"çŃīä¸º":5176,"åįĩçº§":5177,"é©³":5178,"æĮĩå®ļ":5179,"æ½Ń":5180,"é¾Ł":5181,"æıĲä¾ĽäºĨ":5182,"éĺ»æŃ¢":5183,"åı·çļĦ":5184,"èĥ½éĩı":5185,"åŁİåł¡":5186,"èģĮä¸ļçĶŁæ¶¯":5187,"åįİäºº":5188,"ä¿Ŀéļľ":5189,"åĭĭç«ł":5190,"æłĩæľ¬":5191,"ç©Ĩæĸ¯æŀĹ":5192,"åĽ°éļ¾":5193,"è¿Ļæł·çļĦ":5194,"æŃ»åĲİ":5195,"çļĩåĲİ":5196,"ç§ĳåŃ¦éĻ¢":5197,"æ¶Į":5198,"1984å¹´":5199,"æĥħåĨµä¸ĭ":5200,"äºļç¾İå°¼äºļ":5201,"æĹ¶æ®µ":5202,"æĺ¯ä¸Ģé¢Ĺ":5203,"Ġ2008å¹´":5204,"åħ¶ä¸Ńä¸Ģç§į":5205,"Ġ7":5206,"åĲİç»Ń":5207,"åłª":5208,"ç£¨":5209,"é¦ĸä¸ª":5210,"ç§įåŃĲ":5211,"çłĸ":5212,"èĲ¨å°Ķ":5213,"èĵ¬":5214,"éĨĩ":5215,"å¯Ĵ":5216,"åĪ©çĽĬ":5217,"äºĮäºº":5218,"é©¬éĩĮ":5219,"çķĻä¸ĭ":5220,"äº¦æĺ¯":5221,"æ»¡è¶³":5222,"2020å¹´ç¾İåĽ½äººåı£æĻ®æŁ¥çļĦæķ°æį®":5223,"å¥¥å°Ķ":5224,"åĺīéĿĸ":5225,"å¿½":5226,"æĥŁ":5227,"åĢº":5228,"å¤§åŃ¦çļĦ":5229,"æīĭæľº":5230,"åĬ©çĲĨ":5231,"å»¶éķ¿":5232,"ä¹Łä¸į":5233,"åıĤéĢī":5234,"æķ¢":5235,"æľ¬åľ°":5236,"ĠæĹ©å¹´":5237,"ä¸»åĬŀ":5238,"åĬłå·ŀ":5239,"å¾·çļĦ":5240,"æĶ¶è§Ĩ":5241,"åĪºåı²":5242,"å°¹":5243,"å¼ĹæľĹ":5244,"ä¸ŃéĹ´":5245,"çļĦä¸¤":5246,"åħ¬å®ī":5247,"åĳ¨æľŁ":5248,"èĮĥåĽ´åĨħ":5249,"ä»¥å¤ĸ":5250,"åįģåĽĽ":5251,"æ¶Īè´¹":5252,"igh":5253,"å¥Ķ":5254,"åĭŁ":5255,"æ°ĶæĹĭ":5256,"Ġin":5257,"çļĦåħ³ç³»":5258,"ä¸ŃæľŁ":5259,"æĬĳ":5260,"è®¾å®ļ":5261,"ç»´æĸ¯":5262,"æº¯":5263,"æĽ´æĸ°":5264,"ä¸ĸçķĮä¸Ĭ":5265,"1ä¸ª":5266,"åľ¨åĨħçļĦ":5267,"å¤§å¹ħ":5268,"å¤įåħ´":5269,"éĹª":5270,"å¹¶ä¸İ":5271,"ä»¤äºº":5272,"åĬŀäºĭå¤Ħ":5273,"èº«ä¸º":5274,"çº³ç²¹":5275,"æ´»è·ĥ":5276,"ä¿®æŃ£":5277,"éĤ»è¿ĳ":5278,"æĺİæľĿæĶ¿æ²»äººçī©":5279,"ä¸ľä¸´":5280,"ç©ºæ°Ķ":5281,"åıįæĺł":5282,"é¢ĩ":5283,"åİŁåĲį":5284,"å½¢çĽ®":5285,"é¤Ĳåİħ":5286,"åı¦æľī":5287,"èĩ³äºİ":5288,"æī¶":5289,"ä¸Ĭä¸ĭ":5290,"åĳĬè¯ī":5291,"AC":5292,"ç¢Ł":5293,"æļ´åĬĽ":5294,"--":5295,"lay":5296,"æĻĭçº§":5297,"ess":5298,"ack":5299,"1986å¹´":5300,"Ġ2009å¹´":5301,"85":5302,"åįıè°ĥ":5303,"çİ»çĴĥ":5304,"å½ķéŁ³":5305,"æĤ²":5306,"ä¸įåĪ°":5307,"èŁ":5308,"çİ°å®ŀ":5309,"ä¼łåªĴ":5310,"ç¿ħ":5311,"çĽĳçĭ±":5312,"00å¹´":5313,"åħļçļĦ":5314,"å½ĵåľ°çļĦ":5315,"æĭ¼":5316,"æĭĸ":5317,"åĩºåıĳ":5318,"åĪ©æĸ¯":5319,"ä¼ļä¸Ĭ":5320,"å¾·å°Ķ":5321,"æİ¥æĶ¶":5322,"ä¹¦éĻ¢":5323,"åħ¸ç¤¼":5324,"èķ¾":5325,"æ·ĺæ±°":5326,"æĹ¥æľŁ":5327,"ä»Ĭå¤©":5328,"éĢ¼":5329,"æ¸ħåįİ":5330,"åİŁå§ĭ":5331,"åįģäºĮå¹´":5332,"åįĩä»»":5333,"éĵ¶çīĮ":5334,"é£Łåĵģ":5335,"19ä¸ĸçºª":5336,"æĸ¯é¡¿":5337,"èģĮä½į":5338,"æĸĲ":5339,"å¯ĵ":5340,"åıĳæĺİ":5341,"åº¦çļĦ":5342,"ç«ĭæĸ¹":5343,"ran":5344,"ä»ĸä¹Ł":5345,"å¸ĥèİ±":5346,"æĤ£èĢħ":5347,"æĹ¥æ²»":5348,"æĳ§":5349,"ian":5350,"å·¢":5351,"äº§çĶŁçļĦ":5352,"ç¡®è¯ĬçĹħä¾ĭ":5353,"åħįè´¹":5354,"åİŁä½ıæ°ĳ":5355,"ED":5356,"ç¨»":5357,"é±¼ç±»":5358,"äºļåİĨå±±å¤§":5359,"å·²æľī":5360,"æİ¨å¹¿":5361,"æı´åĬ©":5362,"è¿ĳå¹´":5363,"åĨľæĿĳ":5364,"åľ¨ä¸Ģ":5365,"äº²çİĭ":5366,"çļĦè®¾è®¡":5367,"è¥¿åħ°":5368,"æ°´åºĵ":5369,"ç»´åŁĥ":5370,"èĢĥåı¤":5371,"åī¯ä¸»ä»»":5372,"Ġå½ĵ":5373,"æľīæľº":5374,"å¼łä¸ĵè¾ĳ":5375,"åľ¨ä¸Ń":5376,"åĿĿ":5377,"ç¥ł":5378,"çĻĮ":5379,"ç«ŀéĢī":5380,"1980å¹´":5381,"åī¯ä¸»å¸Ń":5382,"æĺ¾èĳĹ":5383,"çĶŁæĪĲ":5384,"åı¸é©¬":5385,"ç»³":5386,"æīĢè°ĵ":5387,"çĲ¼":5388,"å¿į":5389,"å¹³åİŁ":5390,"å¤©çļĩ":5391,"æĶ¹åĲįä¸º":5392,"åħ¬åħĥåīį":5393,"ä¾ĿçĦ¶":5394,"åĸľåī§":5395,"63":5396,"æłĭ":5397,"è£ħé¥°":5398,"æĺŃåĴĮ":5399,"çĶ±æŃ¤":5400,"çĲĨè§£":5401,"åıĳåĬ¨æľº":5402,"120":5403,"ç§°ä½ľ":5404,"è½¬æį¢":5405,"é¾Ļæ±Ł":5406,"179":5407,"æīĢæľīçļĦ":5408,"åį±éĻ©":5409,"æĺ¯å¾·åĽ½":5410,"ç»Īäºİ":5411,"åľŃ":5412,"ä¸Ģè¯į":5413,"å±±åĮº":5414,"éĤ£ä¹Ī":5415,"æ¸¸è¡Į":5416,"Ġ2025å¹´":5417,"éĿłè¿ĳ":5418,"å¿Ļ":5419,"ç©ºä¸Ń":5420,"é¹¤":5421,"87":5422,"å®Įå·¥":5423,"è´§å¸ģ":5424,"ä¿®å¤į":5425,"éļĶç¦»":5426,"åĩĿ":5427,"åľ°å¸¦":5428,"ä¸Īå¤«":5429,"æł¡åĽŃ":5430,"ç¡®ä¿Ŀ":5431,"ä½ĵèĤ²åľº":5432,"2001å¹´äººåı£":5433,"çļĦæĪĲåĳĺ":5434,"è¿ĽæŃ¥":5435,"èĥ½æºĲ":5436,"éĩĩè®¿":5437,"è¿ĲçĶ¨":5438,"äºĶæľĪ":5439,"æīĵç®Ĺ":5440,"æ½ľèīĩ":5441,"çĿ¡":5442,"å¢ŀå¼º":5443,"æľ¬çīĩ":5444,"å¾·åįİ":5445,"Window":5446,"çŁĽ":5447,"èĴ¸":5448,"1983å¹´":5449,"184":5450,"æ¯ĶåĪ©æĹ¶":5451,"ä¼ļåĳĺ":5452,"åį¡ç½Ĺ":5453,"çłģå¤´":5454,"ä¹īå¤§åĪ©":5455,"é²¤":5456,"æĴ°åĨĻ":5457,"å¯¹æĸ¹":5458,"èĻ¹":5459,"å¾ĹåĲį":5460,"éĢļä¿¡":5461,"æĭ¿ä¸ĭ":5462,"ER":5463,"æł½":5464,"æĸ¯æĭīå¤«":5465,"æī§æĶ¿":5466,"éĢĤåĲĪ":5467,"æĭĨéĻ¤":5468,"å§Ĭ":5469,"æ³ķçļĦ":5470,"æĸ¯æīĺ":5471,"èĴĻçī¹":5472,"å»ºç«ĭäºĨ":5473,"è©¹å§Ĩæĸ¯":5474,"IS":5475,"usĠ":5476,"åĲģ":5477,"Ġç¾İåĽ½":5478,"èµĦæľ¬":5479,"çŁ³æ²¹":5480,"å±±ä¸ľçľģ":5481,"å¤§ä¼Ĺ":5482,"èĢĲ":5483,"æ³¢ç½Ĺ":5484,"æ´¾åĩº":5485,"åĨħæĪĺ":5486,"åĪĻä¸º":5487,"ä¹¦ç±į":5488,"åĬŀçĲĨ":5489,"1987å¹´":5490,"ä¹Łå°±æĺ¯":5491,"æĮĩç¤º":5492,"72":5493,"åĽ´ç»ķ":5494,"åīĬ":5495,"å¸Ĥä¸Ńå¿ĥ":5496,"å¼ıçļĦ":5497,"ç¿Ķ":5498,"IC":5499,"ä½Ľç½Ĺ":5500,"è´µå·ŀ":5501,"AP":5502,"Ġæĸ°":5503,"è®¤è¯Ĩ":5504,"çķĻåľ¨":5505,"èĢĮä¸įæĺ¯":5506,"å»ºçŃĳçī©":5507,"åį¢çĵ¦å°Ķçľģ":5508,"æ³¡":5509,"æĪĲå¹´":5510,"æ³ķåºŃ":5511,"å¤©çĦ¶":5512,"åİĺç±³":5513,"åĩºåħ¥åı£":5514,"ric":5515,"æĺ¯ä¸Ģåº§":5516,"èĸĽ":5517,"61":5518,"å¸¸è§ģçļĦ":5519,"æİĪæĿĥ":5520,"åľĨå½¢":5521,"é¦ĸçĽ¸":5522,"æĶ¹åĪ¶":5523,"ç®¡çĲĨå±Ģ":5524,"Ġåħ¶ä»ĸ":5525,"äº¥":5526,"åłĨ":5527,"è¾¹å¢ĥ":5528,"æĿĢå®³":5529,"ç»¿èī²":5530,"Ġç¬¬":5531,"çļĦæ°´":5532,"ä¸Ģæŀļ":5533,"èĩªæĿĢ":5534,"å°Ĩåľ¨":5535,"éĶĢéĩı":5536,"æĶ¶éĽĨ":5537,"ãĥ»":5538,"èĢĮæ°´åŁŁéĿ¢ç§¯ä¸º0":5539,"ÃĹ":5540,"éĹ¸":5541,"æĦıåĳ³":5542,"çĽĨ":5543,"æĺİæĺŁ":5544,"åĲĦèĩª":5545,"åĲĦç±»":5546,"è¾½å®ģ":5547,"89":5548,"ä»¥åįĹ":5549,"åĪĨæĶ¯":5550,"æĢģåº¦":5551,"æľĢä½İ":5552,"160":5553,"å¤§éĢī":5554,"è®°å¿Ĩ":5555,"åĿļæĮģ":5556,"ä¸ŃåĽ½çļĦ":5557,"åĲīæŀĹ":5558,"åĪĨè£Ĥ":5559,"åĲĮæĢ§":5560,"æł¼æĭī":5561,"çĬ¹å¤ªäºº":5562,"éķ¿å®ĺ":5563,"å¤«åį¡":5564,"æĸĭ":5565,"èŃ¦åĳĬ":5566,"ä»ĬæĹ¥":5567,"1ä¾ĭ":5568,"è¾¾å°Ķ":5569,"ä¸ĭè¾ĸçļĦä¸Ģä¸ª":5570,"æĬĵ":5571,"æ±Ŀ":5572,"èģĶåĲĪä¼ļ":5573,"åĽ½æ°ĳæĶ¿åºľ":5574,"å®¶ä¸Ń":5575,"èĥº":5576,"å¹³æ°ĳ":5577,"æŁ´æ²¹":5578,"6äºº":5579,"æĹ¨åľ¨":5580,"èĪŁ":5581,"ç§ĳåŃ¦å®¶":5582,"è¿ŀä»»":5583,"çİĩä¸º":5584,"æµĻæ±Łçľģ":5585,"ĠIn":5586,"å¼Łå¼Ł":5587,"çļĦåĲİ":5588,"å¹¶è¢«":5589,"ort":5590,"å¿ħè¦ģ":5591,"åĪĨåĪ«æĺ¯":5592,"ä¸ŀ":5593,"çŃīçº§":5594,"æłª":5595,"åı¯ä»¥åľ¨":5596,"Ġw":5597,"å±Ī":5598,"ä»¥ä¸º":5599,"å¥¹ä»¬":5600,"çļĦäºĭ":5601,"æĶ¯æµģ":5602,"Ġé¦Ļæ¸¯":5603,"åī§éĽĨ":5604,"ens":5605,"æĹħè¡Į":5606,"æĺ¯é¦Ļæ¸¯":5607,"âĢĻ":5608,"åħĭæŀĹ":5609,"è¿Ļé¦ĸ":5610,"äº²èĩª":5611,"æ¯Ľæ³½":5612,"ç¤ģ":5613,"èİ±èĮµ":5614,"1982å¹´":5615,"æ»¨æµ·":5616,"æĬ±":5617,"äº¤æį¢":5618,"æĭ¨":5619,"é»Ħèī²":5620,"éĴ»":5621,"è§ĦèĮĥ":5622,"æĸ¯æ´Ľ":5623,"å´©":5624,"æĪĲç«ĭçļĦ":5625,"Ġä»ĸ":5626,"ĠæĪªèĩ³":5627,"å¹½":5628,"æ¶Īå¤±":5629,"å®°":5630,"é»ĳé¾Ļæ±Ł":5631,"800":5632,"çłĤ":5633,"å°¤åħ¶æĺ¯":5634,"èĪªå¤©":5635,"åįłåľ°":5636,"ä¸ºæŃ¤":5637,"Ġ9":5638,"ä¸Ĭå¸Ĥ":5639,"å·¥ç¨ĭå¸Ī":5640,"è¿Ŀåıį":5641,"åĳ¼åĲģ":5642,"æĳ§æ¯ģ":5643,"çº§åĪ«":5644,"æĦŁæŁĵèĢħ":5645,"1920å¹´":5646,"æĦıå¤ĸ":5647,"ç§įæ¤į":5648,"âĶ":5649,"çĭ¼":5650,"æĶ¶èĹı":5651,"çŃ¾çº¦":5652,"è¿¦":5653,"åľ¨197":5654,"å¤ļå°Ķ":5655,"æ¬§çĽŁ":5656,"åı¸ä»¤éĥ¨":5657,"man":5658,"Ġåī§æĥħ":5659,"æºĲäºİ":5660,"éķ¿åŃĲ":5661,"åįĩä¸º":5662,"æĺ¯ä¸Ģéĥ¨":5663,"Ġ2007å¹´":5664,"æª":5665,"åŃ¦çļĦ":5666,"èĭ±åĨĽ":5667,"åį¡æĭī":5668,"åĲīå°Ķ":5669,"5äºº":5670,"å°¼è¥¿äºļ":5671,"éĻª":5672,"è½¦åİ¢":5673,"è¯¥æĿĳ":5674,"æł¡åĮº":5675,"æ³¢å°Ķ":5676,"å¾·æĭī":5677,"å©´":5678,"ä»¥åĮĹ":5679,"ne":5680,"èĢĮä¸į":5681,"æ¸¯åı£":5682,"å¾Īå¤§":5683,"æ¦Ħ":5684,"ä»»æľŁ":5685,"å¦Ļ":5686,"å®īå¨ľ":5687,"1950å¹´":5688,"æ¯Ľæ³½ä¸ľ":5689,"åħ¶å®ŀ":5690,"æŃĮè¯į":5691,"io":5692,"è¿ĻéĩĮ":5693,"èĦ¸":5694,"å¾ªçİ¯":5695,"åį¸":5696,"å°Ħåĩ»":5697,"å¯¹åħ¶":5698,"å¾ĹåĪ°äºĨ":5699,"ç§ĺä¹¦éķ¿":5700,"ID":5701,"ĠæŃ¤å¤ĸ":5702,"æĬ«":5703,"åı¤åħ¸":5704,"èµ°åĲĳ":5705,"çī¹éĩĮ":5706,"äºļåĨĽ":5707,"æİ¥æĽ¿":5708,"æ¼Ķå¥ı":5709,"èĳ£äºĭéķ¿":5710,"çļĦåĦ¿åŃĲ":5711,"JR":5712,"ber":5713,"ä¼½":5714,"é©¬æĸ¯":5715,"æĢ§èĥ½":5716,"2000":5717,"åľºæīĢ":5718,"çĭŃ":5719,"ï¼ħ":5720,"é¡ºåĪ©":5721,"å¤§å°ı":5722,"åĴĸ":5723,"å®¡æŁ¥":5724,"åĮºè®®ä¼ļ":5725,"éĺ²æŃ¢":5726,"çĶŁæ´»ä¹łæĢ§":5727,"ĠandĠ":5728,"ç¦ħ":5729,"é¦ĸåºľ":5730,"å¼ºåº¦":5731,"asĠ":5732,"åĽļ":5733,"é¦ĸä½į":5734,"ine":5735,"ä¸»ä¹īèĢħ":5736,"å¯®":5737,"æĪĲéķ¿":5738,"è¢ĭ":5739,"å·ŀåĪºåı²":5740,"ç¥ŀè¯Ŀ":5741,"å¤§åį«":5742,"å«ģ":5743,"74":5744,"ç«ĭåľº":5745,"äºĮæĪĺ":5746,"ä»ķ":5747,"éĥ¨çĶµå½±":5748,"ç´¯è®¡":5749,"âĶĢ":5750,"æĭ±":5751,"å¸ĤæĶ¿åºľ":5752,"7äºº":5753,"çī¹æĭī":5754,"éĢĶä¸Ń":5755,"è·Łéļı":5756,"å®Ľ":5757,"éĽį":5758,"å¾Ĺä¸»":5759,"é¢Ĩäºĭ":5760,"åķĨåĵģ":5761,"oun":5762,"çļĦéĥ¨åĪĨ":5763,"åįģä¹Ŀ":5764,"åŁ¹è®Ń":5765,"æıĲåıĬ":5766,"AN":5767,"æķ°ä½į":5768,"ä¸¤èĢħ":5769,"(,;":5770,"ç¼©åĨĻ":5771,"ON":5772,"çĤī":5773,"åıĹæ¬¢è¿İ":5774,"åĲĦåĽ½":5775,"æł¹å»·":5776,"ä¸»åľº":5777,"é¦ĸæĴŃ":5778,"ä½Ĩä»ĸ":5779,"é¦ĸå¸Ń":5780,"ĠCh":5781,"å¸ĥéĩĮ":5782,"æ±Łèĭıçľģ":5783,"æĪĲäºº":5784,"èĤĮ":5785,"åģľéĿł":5786,"åĲ¹":5787,"å°¼å°Ķ":5788,"çļĦå¥³":5789,"ä½¿åħ¶":5790,"ä¸ºåħ¶":5791,"çĤ¹çļĦ":5792,"1Ġ":5793,"çļĦéŁ³ä¹Ĳ":5794,"éĿ¢ä¸´":5795,"éĻ·åħ¥":5796,"éķ¿æ±Ł":5797,"æ´¾çļĦ":5798,"çĶŁæ´»ä¹łæĢ§ä¸įæĺİ":5799,"è¾Ł":5800,"å¾·è¯Ń":5801,"é¼İ":5802,"å¾·åĨĽ":5803,"è¾¨":5804,"éŁµ":5805,"åĩºçīĪç¤¾":5806,"èĢķ":5807,"æľĪçĲĥ":5808,"å°Ĩé¢Ĩ":5809,"ç¦»åŃĲ":5810,"ä¸Ĭåįĩ":5811,"æ£ĺ":5812,"ç½Ĺé©¬å°¼äºļ":5813,"æĥ¨":5814,"çļĦç¬¬äºĮ":5815,"ä¸Ģå°ıæĹ¶":5816,"èµ«å°Ķ":5817,"ä¸Ģåľº":5818,"åŁĭ":5819,"éķ¿è¾¾":5820,"è¢«æįķ":5821,"èĭ¯":5822,"çĶĺèĤĥ":5823,"ce":5824,"our":5825,"çĶ«":5826,"åľºæĻ¯":5827,"ç°":5828,"çļĦä¸ĢäºĽ":5829,"å·´å°Ķ":5830,"æī¿è¯º":5831,"ä¼¼ä¹İ":5832,"çĤ¸å¼¹":5833,"2Ġ":5834,"éģ¥":5835,")ãĢģãĢĬ":5836,"éĽ¾":5837,"å¤©ä½ĵ":5838,"åħļåĳĺ":5839,"çłĶåıĳ":5840,"éĽ·æĸ¯":5841,"ä»ħæľī":5842,"åĲĦä¸ª":5843,"\".":5844,"ĠèĻ½çĦ¶":5845,"çļĦè§Ĵèī²":5846,"é¢Ĩåľ°":5847,"æ¯ıæĹ¥":5848,"æĿ¡ä¾ĭ":5849,"æĺ¯ä¹Įåħĭåħ°":5850,"åħ¬æĸ¤":5851,"åīįåĲİ":5852,"å¸Ĳ":5853,"æķ°çļĦ":5854,"èĢĥè¯ķ":5855,"å¤ĸäº¤éĥ¨":5856,"éħįå¤ĩ":5857,"åľ¨åı°æ¹¾":5858,"è¾¹ç¼ĺ":5859,"åĬłåĪ©ç¦ı":5860,"éģĵå¾·":5861,"è¹Ī":5862,"éħ·":5863,"çĪ±æĥħ":5864,"ä¼ļè®®åĳĺ":5865,"ä¸¤ä¾§":5866,"æ¡Ĩ":5867,"å¸¸åĬ¡":5868,"æĶ¯ä»ĺ":5869,"äººæ°ĳå¸ģ":5870,"èıĬ":5871,"ark":5872,"æ²¿éĿ©":5873,"æĬµæĬĹ":5874,"å¹¶çĶ±":5875,"æĸĩæĺİ":5876,"ç§¯åĪĨ":5877,"åĩºçİ°äºĨ":5878,"1åı·":5879,"ĠèĥĮæĻ¯":5880,"ä¸ĢåĪĩ":5881,"åľ°è´¨":5882,"æľ¬äºº":5883,"åįģæľĪ":5884,"åĮħåĽ´":5885,"çĽĳå¯Ł":5886,"åħ¬å¼ĢèµĽ":5887,"çļĦå¹³åĿĩ":5888,"å¤¹":5889,"æĪĲäºĨ":5890,"å¤ļäºº":5891,"åı¦ä¸Ģæĸ¹éĿ¢":5892,"è¥¿ä¾§":5893,"å¹³è¡¡":5894,"ç¦ıå·ŀ":5895,"äºİ192":5896,"æĢĢçĸĳ":5897,"ä¸ŃåĽ½å¤§éĻĨçļĦ":5898,"åĮºåĨħ":5899,"äºīåıĸ":5900,"è¾ŀèģĮ":5901,"çĶŁåŃĺ":5902,"å¼Ģå¹ķ":5903,"è¨Ģè®º":5904,"æ¸¸æĪıçļĦ":5905,"åľ¨èĭ±åĽ½":5906,"èĥĨ":5907,"çļĦä½įç½®":5908,"åı¯è§ģ":5909,"åĿĤ":5910,"èĤł":5911,"éĥ½åľ¨":5912,"ä¼¯çĪµ":5913,"è¤":5914,"å¼ıæľĪåı°":5915,"æĮģæľī":5916,"å·¡æ´ĭ":5917,"Ġä¸ŃåĽ½":5918,"åŃķ":5919,"æīĭæľ¯":5920,"åºĨç¥Ŀ":5921,"çĲīçĲĥ":5922,"è®¾äºİ":5923,"æī£":5924,"å·¥ä½ľå®¤":5925,"åĲ«æľī":5926,"æ±¡æŁĵ":5927,"åıĳæĮ¥":5928,"æīĢéĩĩçĶ¨":5929,"èĭ±éĩĮ":5930,"å¥ĭ":5931,"éĺ¿æł¹å»·":5932,"æĬ¥çº¸":5933,"æ²ª":5934,"æ£Ģå¯Ł":5935,"è¤Ĳ":5936,"æīģ":5937,"åıĳè¨Ģ":5938,"éĺ¿éĩĮ":5939,"çŃĸçķ¥":5940,"åĤ¬":5941,"é¼ĵåĬ±":5942,"åľ°åĲį":5943,"178":5944,"èĥľåĩº":5945,"çŁŃæļĤ":5946,"éļĭ":5947,"çıĢ":5948,"åħ¶ä¸Ńä¸Ģ":5949,"çº¿ä¸Ĭ":5950,"è¶³å¤Ł":5951,"é¢ĳçİĩ":5952,"é¡·":5953,"ç«ĻçļĦ":5954,"æıĲè®®":5955,"æİ¨èįĲ":5956,"çĪ±å¾·åįİ":5957,"èīºæľ¯å®¶":5958,"Ġ12":5959,"åĲ§":5960,"ice":5961,"æ®ĸæ°ĳåľ°":5962,"TheĠ":5963,"Ġæį®":5964,"è¥Ħ":5965,"åĪĻåľ¨":5966,"è°Ń":5967,"åıĺä¸º":5968,"é¢ģåıĳ":5969,"åĩĮæĻ¨":5970,"è¯±":5971,"ç¬¦åı·":5972,"éĹ²":5973,"åĩºåĶ®":5974,"ä¸ľä¾§":5975,"è¾¾å·ŀ":5976,"å¤§èģĶçĽŁ":5977,"åįķçĭ¬":5978,"çĻ»åľº":5979,"èĵĿèī²":5980,"æĮĸ":5981,"åħ¶ä¸ŃçĶ·æĢ§":5982,"sh":5983,"Ġåľ°æĸ¹":5984,"çº¤":5985,"æĪĲå°±":5986,"ä¸īæľĪ":5987,"éĢıéľ²":5988,"oh":5989,"åĩī":5990,"åľºåľ°":5991,"åĶĲæľĿ":5992,"æĪĺå£«":5993,"æµ·å¹³éĿ¢":5994,"åľ¨196":5995,"ä½įäºİä¸ŃåĽ½":5996,"ä¿ĦåĽ½":5997,"éĻĦå±ŀ":5998,"éĢĤåºĶ":5999,"å¢ĥåĨħåħ±æľī":6000,"äºļçĽ®":6001,"è½¦éĺŁ":6002,"çĽ´å¾Ħ":6003,"åĻ¨çļĦ":6004,"åĨĻä½ľ":6005,"èµŀåĬ©":6006,"Ġæľī":6007,"å¼ĹéĩĮ":6008,"è¿½æº¯":6009,"é¢ģå¥ĸ":6010,"åĩŃåĢŁ":6011,"å°Ķå¤«":6012,"éĿĴå²Ľ":6013,"è¥¿æİ¥":6014,"é¢Ī":6015,"åĪ¶çīĩ":6016,"æīĢå¤ĦçļĦ":6017,"æł¼ä¸º":6018,"åı²å¯Ĩ":6019,"1958å¹´":6020,"æĽ¿ä»£":6021,"ç¬¬ä¹Ŀ":6022,"èģĶç»ľ":6023,"æ²³çļĦ":6024,"èº«åĪĨ":6025,"çĵ¦å°Ķ":6026,"èĸª":6027,"æĺ¯åĽłä¸º":6028,"äººåı£ä¸º":6029,"é¹ħ":6030,"äºİ2016å¹´":6031,"æ°¨":6032,"åħ¬äº¤":6033,"æŃ£éĿ¢":6034,"ä»ĸä»¬åľ¨":6035,"92":6036,"ff":6037,"åĽĽæľĪ":6038,"åĢ¾åĲĳ":6039,"86":6040,"åĲŀ":6041,"æĿĳèĲ½":6042,"çļĦå½¢å¼ı":6043,"ä¸¤ä½į":6044,"æĻ®é²ģ":6045,"èħĶ":6046,"æ£ķ":6047,"æľªæľī":6048,"ä¸Ńåįİäººæ°ĳåħ±åĴĮåĽ½æĶ¿æ²»äººçī©":6049,"çļĦæĸ¹æ³ķ":6050,"æĹłçĹĩçĬ¶":6051,"éĽĨåĲĪ":6052,"1948å¹´":6053,"åįļå£«åŃ¦ä½į":6054,"æĽ°":6055,"æ±īæĹı":6056,"æ²³åįĹçľģ":6057,"çļĦæĢ»":6058,"æ¸¸åĩ»":6059,"è¶³åįı":6060,"å®£ç§°":6061,"æĸ¥":6062,"å¥¶":6063,"å½ĵæĹ¥":6064,"æŃ£ç¡®":6065,"\"),":6066,"93":6067,"åľ¨ä»ĸ":6068,"åĬ²":6069,"å¿ĺ":6070,"ç§ĳå°Ķ":6071,"å·¡æ´ĭèĪ°":6072,"åľ¨æĸ°":6073,"é«ĺè¾¾":6074,"å¤©åĲİ":6075,"é¢Ħç®Ĺ":6076,"åĲ¸æĶ¶":6077,"éķ¿æ²Ļ":6078,"Ġ2006å¹´":6079,"æī©å¼ł":6080,"ç«ŀèµĽ":6081,"å½ĵéĢīä¸º":6082,"åĨķ":6083,"åĽ½åĨĽ":6084,"åı¤èĢģ":6085,"éºŁ":6086,"000äºº":6087,"73":6088,"æµ·æĭĶä¸º":6089,"ç§ĳçļĦåħ¶ä¸Ńä¸Ģç§į":6090,"åĽĬ":6091,"æĹ¶åĢĻ":6092,"æ³ķè¯Ń":6093,"è¶³çĲĥéĺŁ":6094,"æĸĩèīº":6095,"åī§åľº":6096,"æ¯ıå¤©":6097,"åŁ¹åħ»":6098,"çĲª":6099,"åħ¬åĳĬ":6100,"è¥¿éĩĮ":6101,"æĪĳçļĦ":6102,"åĲ»":6103,"èĪŀè¹Ī":6104,"Ġ0":6105,"éĴĵ":6106,"å·²çŁ¥":6107,"åĨ³è®®":6108,"å¹²éĥ¨":6109,"èľľ":6110,"æľºçļĦ":6111,"æ°Ķåİĭ":6112,"ç¢§":6113,"Ġåľ£":6114,"æģ©çľģ":6115,"éĿŀæ³ķ":6116,"è±«":6117,"ç¢±":6118,"éŃģ":6119,"ith":6120,"ä¸¥æł¼":6121,"éģŃéģĩ":6122,"æķĪåºĶ":6123,"ly":6124,"å®´":6125,"èĪ¹åıª":6126,"äºĴçĽ¸":6127,"è¿Ļé¡¹":6128,"å®īä¸ľ":6129,"ai":6130,"çĶµæ°Ķ":6131,"æĹłè®º":6132,"åĪ¶ä½ľçļĦ":6133,"äº«å¹´":6134,"è¶³çĲĥè¿ĲåĬ¨åĳĺ":6135,"éĢĲæŃ¥":6136,"é¸Łç±»":6137,"åīª":6138,"åĪĽå§ĭ":6139,"æİł":6140,"åĲĪæ³ķ":6141,"æ¼ı":6142,"å¸ĤæĶ¿":6143,"åĲĮæĹ¥":6144,"ç¾İåĽ½çļĦ":6145,"è¶ħè¶Ĭ":6146,"è®¾è®¡çļĦ":6147,"åĪĨåĮº":6148,"å§ľ":6149,"è§Ĩè§ī":6150,"å¤§å¸Ī":6151,"èĢģå¸Ī":6152,"è¶³çĲĥä¿±ä¹Ĳéĥ¨":6153,"åģ¶åĥı":6154,"å§ĭå»ºäºİ":6155,"æĪĲéĥ½":6156,"ç©·":6157,"å¤ĸéĥ¨":6158,"The":6159,"åĬłéĢŁ":6160,"å½¢çĬ¶":6161,"åıĳçĶŁåľ¨":6162,"å®¡åĪ¤":6163,"Un":6164,"å½ķå½±":6165,"åıĮæīĵ":6166,"Ġä¸Ń":6167,"å¤§éĺª":6168,"åĽłåħ¶":6169,"æ£ī":6170,"æļ¨":6171,"é¢Ħæµĭ":6172,"æııç»ĺ":6173,"æł½åŁ¹":6174,"æĿ¥è¶Ĭ":6175,"çĽ´éļ¶":6176,"åĴ¨":6177,"äºİ2015å¹´":6178,"1946å¹´":6179,"ä»İæŃ¤":6180,"ç¾¤ä½ĵ":6181,"ä¸»ä¹īçļĦ":6182,"æıĲåĩºäºĨ":6183,"æķĳæı´":6184,"åħħæ»¡":6185,"åĵĪå°Ķæ»¨":6186,"åĪł":6187,"æĹ¶åĮº":6188,"çº¦æľī":6189,"éĶĲ":6190,"æ¸¸å®¢":6191,"åĪĽæĸ°":6192,"æļĸ":6193,"èĭıä¸¹":6194,"ä»ĸæĽ¾ä»£è¡¨":6195,"è·µ":6196,"ä¸īäºº":6197,"æİ¥ä»»":6198,"æºĥ":6199,"æĵħ":6200,"åģĩè®¾":6201,"å¤ıä»¤æĹ¶éĹ´":6202,"çĲĨå·¥":6203,"æģŃ":6204,"éĤª":6205,"å¯»æ±Ĥ":6206,"éĥ¨ç½²":6207,"æĶ¶åĪ°":6208,"æ¨¡æĭŁ":6209,"è¶ĬæĿ¥è¶Ĭ":6210,"æĸĹäºī":6211,"Ġf":6212,"Ġæĺ¯":6213,"æĸ©":6214,"æ¯ħ":6215,"æļĤåģľ":6216,"ç¦ıå»ºçľģ":6217,"å½±åĥı":6218,"èĮħ":6219,"åĽĽå·Ŀçľģ":6220,"âĢĿ)":6221,"èģĶç½ĳ":6222,"åĬłåħ¥äºĨ":6223,"ç§°åĳ¼":6224,"1981å¹´":6225,"éĺ¿å°Ķåįĳ":6226,"Ġä¸ĭ":6227,"çļĦç¾İåĽ½":6228,"å¸½":6229,"æĺ¯ä¸º":6230,"çĲĨæĥ³":6231,"éħįç½®":6232,"è¿ģèĩ³":6233,"å¼Ģå§ĭåľ¨":6234,"çļĦåĲįåŃĹ":6235,"ç¨Ģ":6236,"è§Ĵåº¦":6237,"åĽ½éĻħæľºåľº":6238,"1979å¹´":6239,"ç§©":6240,"183":6241,"æĹıç¾¤":6242,"åĽ¾åĥı":6243,"ube":6244,"ä»¥ä¾¿":6245,"è¾ĵåĩº":6246,"æīĢåľ¨åľ°":6247,"82":6248,"è¡Įä¸ļ":6249,"å·¥èīº":6250,"æīĭæ®µ":6251,"èªĵ":6252,"æļĤæĹ¶":6253,"çļĦåİŁåĽł":6254,"åĩ¶":6255,"å»ĸ":6256,"å±łæĿĢ":6257,"ä¸ľæµ·":6258,"çĽ´æĴŃ":6259,"æĺŁçŃīä¸º":6260,"ä¼ĬåĪ©":6261,"ä¾Ŀèµĸ":6262,"äºİ2014å¹´":6263,"èģļéĽĨ":6264,"åĲİè¢«":6265,"åģľè½¦":6266,"æĹłçĹĩçĬ¶æĦŁæŁĵèĢħ":6267,"éĺ¿å°Ķåįĳæĸ¯":6268,"å¸¸å§Ķ":6269,"ä½İäºİ":6270,"IP":6271,"ry":6272,"æĢķ":6273,"äºİ190":6274,"ç»Ħç»ĩçļĦ":6275,"ç¼´":6276,"ä¸¾åĬŀçļĦ":6277,"ç¹ģæ®ĸ":6278,"è·¯æĺĵæĸ¯":6279,"èĤºçĤİ":6280,"com":6281,"åľ¨ä¸Ģèµ·":6282,"æĸ¯åį¡":6283,"åĪ¶ä½ľäºº":6284,"éĹ»åĲį":6285,"ç«Ł":6286,"æķĻå®Ĺ":6287,"äºĮæľĪ":6288,"èĤ¤":6289,"åħ±åĴĮåħļ":6290,"å¸ĸ":6291,"ç½Ĺä¼¯çī¹":6292,"ä¸ŃæľĢ":6293,"åľ¨åĮĹäº¬":6294,"åĲĮæĹ¶è¯¥åľ°":6295,"96":6296,"ãĢĭãĢĬ":6297,"ä¾£":6298,"å·¨å¤§":6299,"åĪ¶æĪĲ":6300,"ah":6301,"åħĭå°Ķ":6302,"ç»´å¤ļ":6303,"èĲ½æĪĲ":6304,"éŀĭ":6305,"ä¼ļæľī":6306,"ont":6307,"äºİ2012å¹´":6308,"5ä¸ª":6309,"5ç±³":6310,"8äºº":6311,"çļĦè¯Ŀ":6312,"åŃ¦ç§ĳ":6313,"å®¤åĨħ":6314,"åĨħéĻĨçľģä»½":6315,"æ¼ł":6316,"çº¢åĨĽ":6317,"äºİ2018å¹´":6318,"ä¿ĿéĻ©":6319,"èĴ²":6320,"çĶ°å¾Ħ":6321,"æľªçŁ¥":6322,"çļĦæĥħ":6323,"å¯ĨåĪĩ":6324,"è´¹çĶ¨":6325,"å°¿":6326,"è®¤åı¯":6327,"æ¶Īéĺ²":6328,"ver":6329,"å¤©åłĤ":6330,"éĺ²ç©º":6331,"è¾ħåĬ©":6332,"Ġä¸º":6333,"è½©":6334,"ä¸»äºĭ":6335,"èĭ±åĳİ":6336,"äº¤ç»Ļ":6337,"äºĶä¸ª":6338,"çłĶç©¶éĻ¢":6339,"è§Ĥçľĭ":6340,"1978å¹´":6341,"éĤ±":6342,"æīĵçł´":6343,"æ¡¥æ¢ģ":6344,"||":6345,"ä¸ĢèģĮ":6346,"ç½Ĺå¾·":6347,"ç¨£":6348,"è®¤è¯ģ":6349,"çĭ¬ç«ĭçļĦ":6350,"èĩªæĪĳ":6351,"è·¯æ®µ":6352,"æľĢé«ĺçļĦ":6353,"åĨĴéĻ©":6354,"éĥ¨éĥ¨éķ¿":6355,"çĲĨçĶ±":6356,"å§Ķæīĺ":6357,"åķĨåºĹ":6358,"çĶ»å®¶":6359,"å«©":6360,"iaĠ":6361,"ä¼ļè¯ķ":6362,"çī¹åĮº":6363,"äºİ2017å¹´":6364,"æ£ĴçĲĥ":6365,"âĢĺ":6366,"æĪĺéĺŁ":6367,"èĢ¶ç¨£":6368,"å¡ŀå°Ķç»´äºļ":6369,"å¥ł":6370,"äººæĿĥ":6371,"å·´æĭī":6372,"éĩıåŃĲ":6373,"åī¯ä¹¦è®°":6374,"èģļèĲ½":6375,"å¤©æ°Ķ":6376,"èµĦåĬ©":6377,"èĬĤåº¦":6378,"ç¬¬4":6379,"æ¼ĶåĮĸ":6380,"æĶ¹è¿Ľ":6381,"å¼ĹéĽ·":6382,"åıĳè¡ĮçļĦ":6383,"Ġç®Ģä»ĭ":6384,"ä»¥ä¸ĬçļĦ":6385,"æĶ¹ç§°":6386,"è¯Ħä¸º":6387,"é£ŁçĶ¨":6388,"æĴ¤éĢĢ":6389,"å¤©æĸĩåı°":6390,"æľ¬ä½ľ":6391,"åĬłåĵ¥":6392,"æī©å»º":6393,"å½±è§Ĩ":6394,"çĽ¸åĲĮçļĦ":6395,"æłĹ":6396,"åħ¶ä¸Ńä¸Ģä¸ª":6397,"çļĨä¸º":6398,"èĬĿåĬłåĵ¥":6399,"ç©´":6400,"éĢļçŁ¥":6401,"åİŁåħĪ":6402,"é©¬ä¸ģ":6403,"çĤ¼":6404,"åº§æłĩä¸º":6405,"æ´Ľåħĭ":6406,"çĻ¾ä¸ĩ":6407,"è´§è¿Ĳ":6408,"è½°çĤ¸æľº":6409,"ĠæĽ¾ç¥ĸ":6410,"AS":6411,"ä»¥æŃ¤":6412,"ä¸įæķĮ":6413,"ä½įäºİè¯¥":6414,"Ġåľ°æĸ¹èµĦæĸĻ":6415,"çļĦæĹ¥":6416,"äººæ°ĳä»£è¡¨å¤§ä¼ļ":6417,"æ¤İ":6418,"äºİ2013å¹´":6419,"å¤§å¤«":6420,"èĭ¹":6421,"å±ķçİ°":6422,"çļĦæĿĳåºĦ":6423,"çº³åħ¥":6424,"è®¸åı¯":6425,"ç»¥":6426,"çľł":6427,"çī¹æľĹ":6428,"æĸ¹éĿ¢çļĦ":6429,"è´§çī©":6430,"çİĭåŃĲ":6431,"åıªè¦ģ":6432,"é¸Ń":6433,"ä¸ºæĸ°":6434,"æĹ¶æĬ¥":6435,"ä¸ĭä¸Ģ":6436,"è¿Ļåº§":6437,"ä¼Ĺè®®éĻ¢":6438,"èħ¿":6439,"æ¶µçĽĸ":6440,"Ġäº¤éĢļ":6441,"æĪĺæĸĹæľº":6442,"æł¼å°Ķ":6443,"éľŀ":6444,"Ġn":6445,"çº¦çĳŁ":6446,"åį³å°Ĩ":6447,"ç¬¬ä¸Ģä½į":6448,"åħ«æľĪ":6449,"æĥ³è¦ģ":6450,"äºİ2019å¹´":6451,"æŃ»åĪĳ":6452,"è´¢äº§":6453,"Ar":6454,"und":6455,"éªļ":6456,"cn":6457,"å··":6458,"æľīè®¸å¤ļ":6459,"ä¸įè¦ģ":6460,"ä¸ĥæľĪ":6461,"åıĽä¹±":6462,"ä¸Ĭéĺµ":6463,"æľ¬çº¿":6464,"åĨħèĴĻåı¤":6465,"åģļåĩº":6466,"ç«ŀæĬĢ":6467,"ug":6468,"ç§°åı·":6469,"äºĶåįģ":6470,"1941å¹´":6471,"ä¸¸":6472,"äºİ2020å¹´":6473,"æĸ¹ä¾¿":6474,"å¨ħ":6475,"èħº":6476,"è½¯ä½ĵ":6477,"ss":6478,"å¤ļåĲį":6479,"æľįè£ħ":6480,"éģŃåıĹ":6481,"97":6482,"è¿Ľåħļ":6483,"ä¹¦ä¸Ń":6484,"åįķåħĥ":6485,"èħĵ":6486,"åĮºéĹ´":6487,"åĲĮæĹ¶ä¹Ł":6488,",),":6489,"æ¶Ľ":6490,"è¿Ľè¡ĮçļĦ":6491,"æŁ¥çĲĨ":6492,"å·¦ç¿¼":6493,"å¤§ä½¿é¦Ĩ":6494,"éĩįéĩı":6495,"åĽŀå¿Ĩ":6496,"æĭīçī¹":6497,"èį¡":6498,"ock":6499,"ä¸ľäºļ":6500,"è°Ĭ":6501,"éĩĳå±±":6502,"è£ģåĪ¤":6503,"åĮºåĪĨ":6504,"èµ·åĪĿ":6505,"å¨¶":6506,"çĽ´åįĩ":6507,"ç¤¾ç¾¤":6508,"åĮĹæµ·éģĵ":6509,"è°ĥå¿«":6510,"1944å¹´":6511,"æ²³è°·":6512,"åĨĻéģĵ":6513,"ä¼łç»ŁçļĦ":6514,"æ¶īå«Į":6515,"9äºº":6516,"ä¹ĭä¸º":6517,"èĲ¥ä¸ļ":6518,"åį«éĺŁ":6519,"é±¼éĽ·":6520,"åĪĨå¸ĥåľ¨":6521,"Ġåħ¶":6522,"è®¼":6523,"è¯¥çīĩ":6524,"éĺ³å¸Ĥ":6525,"æķĮäºº":6526,"çļĦæĶ¿æ²»":6527,"æŃ¤ç«Ļ":6528,"ç©ºè¢Ń":6529,"åįıå®ļ":6530,"162":6531,"ä¸ºUTC":6532,"è¾Ĳå°Ħ":6533,"æĺ¯åı°æ¹¾":6534,"ä»¥ä¸ľ":6535,"çī¹å°Ķ":6536,"éĵĥ":6537,"åł¤":6538,"å¾ģæľį":6539,"èŀįåĲĪ":6540,"æ³ķä»¤":6541,"ä½ĨåĽł":6542,"æł¼éĽ·":6543,"éĿĴå°ĳå¹´":6544,"åĺīä¹ī":6545,"æ¯Ĺ":6546,"æĬĦ":6547,"æİ©":6548,"åıĤæķ°":6549,"è¿ŀè½½":6550,"åĻ¶":6551,"çļĦä¸į":6552,"åıĤè®®éĻ¢":6553,"æ¯ıåĳ¨":6554,"æĪĺæľ¯":6555,"è½¬çļĦ":6556,"ç§įç±»":6557,"éĩįè§Ĩ":6558,"):":6559,"ceĠ":6560,"è¥¿æĸ¯":6561,"é¢ĨåħĪ":6562,"ç»ĪçĤ¹":6563,"ç£·":6564,"è§īå¾Ĺ":6565,"Ġ2005å¹´":6566,"æ³ķåħ°åħĭ":6567,"èĪĮ":6568,"å¦Ĥä»Ĭ":6569,"æħ°":6570,"è°ĥå¿«ä¸Ģå°ıæĹ¶":6571,"çĢ":6572,"éĥģ":6573,"åı¯åľ¨":6574,"177":6575,"å§Ķåĳĺä¼ļå§Ķåĳĺ":6576,"æ¿Ĵ":6577,"ä¾įéĥİ":6578,"èĩĤ":6579,"æĪĲçĨŁ":6580,"å¸ĥæľĹ":6581,"ç¤¾äº¤":6582,"åį³UTC":6583,"è®¾æľīå¤ıä»¤æĹ¶éĹ´":6584,"çļĦæĹ¶åĮºä¸ºUTC":6585,"èĢĮè¯¥åľ°æīĢéĩĩçĶ¨":6586,"åĲĮæĹ¶è¯¥åľ°è®¾æľīå¤ıä»¤æĹ¶éĹ´":6587,"èĢĮè¯¥åľ°æīĢéĩĩçĶ¨çļĦæĹ¶åĮºä¸ºUTC":6588,"æ¼Ķè®²":6589,"åį¡æĸ¯":6590,"åįķä¸Ģ":6591,"è¿Ļåľº":6592,"éķĩåĮºçļĦ":6593,"äº¤æ±ĩ":6594,"ä½¿çĶ¨äºĨ":6595,"æ»¡æ´²":6596,"å»¶ç»Ń":6597,"84":6598,"ä»£çļĦ":6599,"éĢļå¾Ģ":6600,"åŁİçļĦ":6601,"çĥ¯":6602,"çĪµå£«":6603,"å·¥ä¼ļ":6604,"ä»İæľª":6605,"åŀĭåı·":6606,"MV":6607,"è´·":6608,"æĦŁè§ī":6609,"1972å¹´":6610,"ç²īä¸Ŀ":6611,"é«ĺäºİæµ·å¹³éĿ¢":6612,"110":6613,"ure":6614,"æĢ»çĽĳ":6615,"æį·åħĭ":6616,"Go":6617,"15å¹´":6618,"7æľĪ1æĹ¥":6619,"æĮ¡":6620,"è¯¥åħ¬åı¸":6621,"ä½Ļäºº":6622,"æİĴè¡Įæ¦ľ":6623,"ä¼ļè¢«":6624,"åİ¿çŁ¥åİ¿":6625,"çĽ¸å½ĵäºİ":6626,"æīĢå¤ĦçļĦæµ·æĭĶä¸º":6627,"æīĢå¤ĦçļĦæµ·æĭĶä¸ºé«ĺäºİæµ·å¹³éĿ¢":6628,"her":6629,"ä¸Ģç³»åĪĹ":6630,"ä¹ĭå¤Ħ":6631,"éĥ½è¢«":6632,"æŃ£æľĪ":6633,"è¡¥åħħ":6634,"Ġ190":6635,"çļĦæľĢ":6636,"åº¶":6637,"æľīèĳĹ":6638,"çİ²":6639,"åŃĲå¥³":6640,"æķĻèĤ²éĥ¨":6641,"éªĹ":6642,"ä¼¤äº¡":6643,"å®īå¾½çľģ":6644,"å¸Ĩ":6645,"ä¸»å¯¼":6646,"æĸ°åĨł":6647,"IT":6648,"å¤§éĿ©åĳ½":6649,"èģª":6650,"æĦ¤":6651,"ä¿Ŀè¯ģ":6652,"æĻ®ç½Ĺ":6653,"åıĤä¸İäºĨ":6654,"æĹłäººæľº":6655,"å¼ĵ":6656,"åľ°å½¢":6657,"çİ°åŃĺ":6658,"åķĨäºº":6659,"ox":6660,"Ġåı°æ¹¾":6661,"æ°¸ä¹ħ":6662,"700":6663,"æĪĺåľº":6664,"åĲĪåĲĮ":6665,"æł¼éĩĮ":6666,"é²¸":6667,"æĹ©ä¸Ĭ":6668,"1976å¹´":6669,"è¯¦ç»Ĩ":6670,"ç»´å¤ļåĪ©äºļ":6671,"èįĨ":6672,"äºİ2010å¹´":6673,"èĦ±ç¦»":6674,"ç»ĺçĶ»":6675,"æµ·ä¸Ĭ":6676,"åħ·å¤ĩ":6677,"å¾Īå°ĳ":6678,"äºĴåĬ¨":6679,"çİ°åľ¨çļĦ":6680,"81":6681,"aw":6682,"å·ŀéķ¿":6683,"å°¼åı¤":6684,"å²Ľä¸Ĭ":6685,"çĵ¶":6686,"å¡Ķå°Ķ":6687,"çĻ»è®°":6688,"1956å¹´":6689,"éĿ¢ä½ĵ":6690,"æ¡Į":6691,"ä¼łæķĻ":6692,"åį³åĮĹç¾İ":6693,"æĮĩæĮ¥å®ĺ":6694,"æĺ¯ä¿Ħç½Ĺæĸ¯":6695,"äºİ2021å¹´":6696,"ç¥¯":6697,"è·¯åı£":6698,"å²ĽçļĦ":6699,"äº¬éĥ½":6700,"è¯ºå¤«":6701,"æ¾Ħ":6702,"æ©Ħ":6703,"éħ®":6704,"èİ·èĥľ":6705,"åºıåĪĹ":6706,"èĤ¡ä»½æľīéĻĲåħ¬åı¸":6707,"94":6708,"åľ°äºļ":6709,"åįģä¸ĥ":6710,"éĽĨä½ĵ":6711,"æ¸ł":6712,"æ²³éģĵ":6713,"æĽ´å¤ļçļĦ":6714,"æİ¢éĻ©":6715,"éķĩåĮºçļĦéĿ¢ç§¯ä¸º":6716,"äº©":6717,"åį³ä½į":6718,".âĢľ":6719,"ä½ľä¸ļ":6720,"æĸ½å·¥":6721,"140":6722,"åºĩ":6723,"ä»¥è¥¿":6724,"åĲİåľ¨":6725,"åĪĨä¹ĭä¸Ģ":6726,"æµģä¼ł":6727,"ç¿Įå¹´":6728,"äºĨä»ĸ":6729,"æĢ»è£ģ":6730,"éĢīåĩº":6731,"åĪĩå°Ķ":6732,"èļĢ":6733,"ä¼Ĭæĸ¯åħ°æķĻ":6734,"çļĦåıį":6735,"çļĦç¥ŀ":6736,"ä¼ŀ":6737,"å§¿":6738,"èĩªç§°":6739,"åĽĽä¸ĸ":6740,"è¾ĸåĮº":6741,"1937å¹´":6742,"æķĪåĬĽäºİ":6743,".(":6744,"å§ĳ":6745,"å¤ļæł·":6746,"å¾·æĦıå¿Ĺ":6747,"éĤĳ":6748,"å¤Ħéķ¿":6749,"158":6750,"164":6751,"åįĹæŀģæ´²":6752,"æĨ":6753,"åĽ½éģĵ":6754,"åħ¬é¡·":6755,"ä¸»åĬ¨":6756,"èĬŃ":6757,"æ©Ħæ¦Ħ":6758,"6ä¸ª":6759,"çļĦè¡Įä¸º":6760,"ç»ĳ":6761,"è¡Įäºº":6762,"èĩ´åĬĽ":6763,"çģŃç»Ŀ":6764,"ä½Ľç½ĹéĩĮ":6765,"ç»´åŁº":6766,"æĿŃå·ŀ":6767,"ĠæĹ¥æľ¬":6768,"çļĦæŃĮæĽ²":6769,"çļĦåŁºç¡Ģ":6770,"ä»Ĩ":6771,"åºļ":6772,"æ³Ħ":6773,"ä»ĸä¸º":6774,"åĨħåľ°":6775,"æ»ķ":6776,"éŃĶæ³ķ":6777,"äºĮçº§":6778,"æ¤ħ":6779,"äºĴèģĶç½ĳ":6780,"MA":6781,"ä¹Łæ²¡æľī":6782,"æĶ¹å»º":6783,"83":6784,"oy":6785,"å®¹çº³":6786,"ä¸»æĮģäºº":6787,"sec":6788,"æľĢä¸º":6789,"ç»ıçĶ±":6790,"å·´åĭĴ":6791,"1952å¹´":6792,"ä¸ľåįĹäºļ":6793,"åľ¨ä½į":6794,"æ±īåŃĹ":6795,"km":6796,"ç¥Ī":6797,"éĢļçĶ¨":6798,"çĽ¸åıį":6799,"çıŃæ¬¡":6800,"ie":6801,"çĪ·":6802,"å°ĳå°Ĩ":6803,"åĩºåľº":6804,"æĶ¿åıĺ":6805,"æ°Ķä½ĵ":6806,"1938å¹´":6807,"éĥ¨å°ļä¹¦":6808,"è¢«åĳĬ":6809,"æ²¿å²¸":6810,"ign":6811,"ä¸İæŃ¤":6812,"1947å¹´":6813,"çĸ«èĭĹ":6814,"å±±è¥¿çľģ":6815,"åħŃæľĪ":6816,"ç¾¤ä¼Ĺ":6817,"åŃ¦ç³»":6818,"ç½©":6819,"åķĨåľº":6820,"157":6821,"ĠçĶ±":6822,"çļĦéĿ¢ç§¯":6823,"æĺ¯ä¸ª":6824,"ä»¥1":6825,"åĬłå°Ķ":6826,"åį«è§Ĩ":6827,"æ¡£æ¡Ī":6828,"çļĦæīĢæľī":6829,"çļĦç»ĵæŀľ":6830,"æ¼Ķèīº":6831,"1955å¹´":6832,"èĭ¹æŀľ":6833,"ook":6834,"å¹¶æĹł":6835,"æ¸¯åħĥ":6836,"åķ¡":6837,"åĬ£":6838,"æĭħå¿ĥ":6839,"æĶ»åįł":6840,"çº§èģĶèµĽ":6841,"æħİ":6842,"Ġä¸ªäºº":6843,"ãĢĭ(\"":6844,"ib":6845,"éĢ¸":6846,"å¸ĥéĽ·":6847,"å®ŀä½ĵ":6848,"è¿ŀç»ĵ":6849,"äºİ2011å¹´":6850,"son":6851,"ram":6852,"å±±åİ¿":6853,"æĥ§":6854,"æ¸ħæ¥ļ":6855,"é¹ı":6856,"æİ¢ç´¢":6857,"yp":6858,"éķĩåİĭ":6859,"æĻ®é²ģå£«":6860,"ð«":6861,"éķĳ":6862,"éķ¿çº¦":6863,"1980å¹´ä»£":6864,"æł¸éħ¸":6865,"æŀ¶æŀĦ":6866,"è´ª":6867,"çŁ®":6868,"çĥ·":6869,"å¼ķçĶ¨":6870,"åĢ¼å¾Ĺ":6871,"åĪ¤åĨ³":6872,"çļĦçĶµ":6873,"æ°ĳè¿Ľåħļ":6874,"åįķæīĵ":6875,"æĺ¯ä¸Ģä¸ªä½įäºİ":6876,"èľĤ":6877,"ç¬¬5":6878,"163":6879,"é³ŀ":6880,"ä¸Ńå°Ĩ":6881,"çİ°ä¸º":6882,"HD":6883,"ç»´åħĭ":6884,"PS":6885,"æīĳ":6886,"åĲįäºº":6887,"åĨĽäºº":6888,"æľŁçļĦ":6889,"æĢ»ä¼ļ":6890,"å¥³çİĭ":6891,"æ¨±":6892,"çļĦä¸ĢæĿ¡":6893,"ç¦ıå¾·":6894,"è¡ĮæĶ¿éĻ¢":6895,"æĪĲç«ĭäºĨ":6896,"éĴ¢çĲ´":6897,"...":6898,"Ġä¸»è¦ģ":6899,"è´¼":6900,"åħ±è®¡":6901,"æł¼æŀĹ":6902,"æĶ¾åľ¨":6903,"äºİ2022å¹´":6904,"å¹³çŃī":6905,"åĪ©çļĦ":6906,"è°´":6907,"çº³å·ŀ":6908,"è¸ı":6909,"å½»åºķ":6910,"åĮĹä¾§":6911,"å¤©çļĦ":6912,"å®ŀè·µ":6913,"å»ºçŃĳå¸Ī":6914,"æıĲåĩºçļĦ":6915,"åı²å¯Ĩæĸ¯":6916,"éĢ¾":6917,"åİŁä¸º":6918,"æĺŁç³»":6919,"ä¿®éģĵ":6920,"ä¿ĦåĨĽ":6921,"ä¹¡éķĩ":6922,"ire":6923,"éĩįè¿Ķ":6924,"ä¿®è®¢":6925,"å±ĤçļĦ":6926,"1968å¹´":6927,"2åı·":6928,"ä¸ĭäºĨ":6929,"å¤«å¦ĩ":6930,"ä¹ĿæľĪ":6931,"æ²³åĮĹçľģ":6932,"ust":6933,"Ġå¯¹":6934,"ä¸»åĬĽ":6935,"åĪĨæł¡":6936,"æ±ŁæĪ·":6937,"å¸Įå°Ķ":6938,"åĬ³å·¥":6939,"åĵª":6940,"è¿ªå£«":6941,"çļĦåŁİå¸Ĥ":6942,"åħ¶ä¸º":6943,"çŃĴ":6944,"æĸ°å»º":6945,"æ¡ĥåĽŃ":6946,"YouT":6947,"Ġè¥¿":6948,"åľ°ä¸Ń":6949,"è¡Įèµ°":6950,"æµ·åįĹ":6951,"è¯¥åħļ":6952,"ç»´ä¿®":6953,"çªĦ":6954,"èµĶ":6955,"åįĹä¾§":6956,"æł¼é²ģ":6957,"åĪĹåĩº":6958,"1939å¹´":6959,"Ġé©¬":6960,"çĶ»éĿ¢":6961,"æķ´åĲĪ":6962,"éĻ¨çŁ³":6963,"å¤´è¡Ķ":6964,"äº§çĶŁäºĨ":6965,"äºĭå®ŀä¸Ĭ":6966,"ĠçĽ®åīį":6967,"æķ²":6968,"èĤ¢":6969,"å¼ķè¿Ľ":6970,"Ġå®¶åºŃ":6971,"åıĹå®³":6972,"å½ķåĪ¶":6973,"å¥½è¯Ħ":6974,"1940å¹´":6975,"çºł":6976,"æĬĽ":6977,"å½ĵä»£":6978,"èĹ»":6979,"ä¼¤å®³":6980,"çĲĨæŁ¥":6981,"å§Ķä»»":6982,"è¯ģåĪ¸":6983,"ct":6984,"è¿ªå£«å°¼":6985,"/&":6986,"ä¸Ģéĥ¨":6987,"ä¸ĬäºĨ":6988,"è¾ĥä½İ":6989,"ä»įåľ¨":6990,"åĲĬ":6991,"è°¥":6992,"å¤©ä¸ĭ":6993,"1960å¹´":6994,"1954å¹´":6995,"åĨĢ":6996,"äºİ2023å¹´":6997,"çļĦè¯´æ³ķ":6998,"æŃ¤åīį":6999,"èµ·è¯ī":7000,"è®®å¸Ń":7001,"1942å¹´":7002,"èĩªè¡Įè½¦":7003,"åĿŁ":7004,"ä¼Ĭæĭīåħĭ":7005,"çĽŁåĨĽ":7006,"åĩ¸":7007,"åĮºåĪ«":7008,"ä¸»æĿĥ":7009,"éģ®":7010,"ä½¿çĶ¨èĢħ":7011,"çĻ¾å¹´":7012,"åįłæį®":7013,"æĥ©":7014,"å®ĺèĩ³":7015,"åĶ¯ä¸ĢçļĦ":7016,"ost":7017,"ĠéĻ¤äºĨ":7018,"ãĢģãĢĬ":7019,"Pro":7020,"åľ¨åĮĹ":7021,"å¤ļé¡¹":7022,"ä»»æķĻ":7023,"å»ºäºİ":7024,"71":7025,"ä¹ŁæĽ¾":7026,"çĽ®çļĦæĺ¯":7027,"åĸĩ":7028,"åİĨåı²åŃ¦å®¶":7029,"Sp":7030,"åĲİæĸ¹":7031,"æĴŀåĩ»":7032,"se":7033,"ä¸Ģé¡¹":7034,"å°ģä¸º":7035,"è¯Ĺäºº":7036,"çļĦæĹ¥æľ¬":7037,"æŃī":7038,"è¯ºæĽ¼":7039,"æĥ³æ³ķ":7040,"æľĽè¿ľ":7041,"Ġåīį":7042,"ĠæĿİ":7043,"ĠçĦ¶èĢĮ":7044,"Ġæķħäºĭ":7045,"æĪĺåĪĹ":7046,"è®¤åĲĮ":7047,"èĥĮé³į":7048,"ç¬¬ä¸Ģæ¬¡ä¸ĸçķĮå¤§æĪĺ":7049,"çĩĥæĸĻ":7050,"ge":7051,"iz":7052,"è¢«ä»»åĳ½ä¸º":7053,"èĩ³2":7054,"æĹłçº¿çĶµè§Ĩ":7055,"çĶľ":7056,"èµ£":7057,"åĪ°çļĦ":7058,"åĪĻæľī":7059,"æŃ¦å¸Ŀ":7060,"1943å¹´":7061,"æľµ":7062,"æĶ»æīĵ":7063,"1975å¹´":7064,"ĠèĢĮ":7065,"å±¥":7066,"åĲĮåĲį":7067,"æłĩè®°":7068,"çĶ·å¥³":7069,"å®ĮæĪĲäºĨ":7070,"æ¬¡äºİ":7071,"æĥħç»ª":7072,"é£ŁæĢ§":7073,"1970å¹´":7074,"æĲºå¸¦":7075,"åħ¬åĬ¡":7076,"é¢ł":7077,"èĭıç»´åŁĥ":7078,"è®®é¢ĺ":7079,"æĤł":7080,"äºİ2009å¹´":7081,"å¢ŀåĬłäºĨ":7082,"ç»µ":7083,"æĹ¥åĲİ":7084,"åŁİå¢Ļ":7085,"äº¤çķĮ":7086,"ich":7087,"èĽĭçĻ½è´¨":7088,"åİ¥":7089,"ä¸Ĭè¯ī":7090,"æĸ¯åł¡":7091,"äº¤åıī":7092,"æ¨¡çī¹":7093,"å¡ŀçº³":7094,"è°´è´£":7095,"åľ¨æ³ķåĽ½":7096,"æ¸Ĭ":7097,"éĻ¤æŃ¤":7098,"åį°ç¬¬":7099,"æĦ¿æĦı":7100,"èµĽçļĦ":7101,"å®ļæľŁ":7102,"èĬĻ":7103,"æ¢¨":7104,"è¿ĺåľ¨":7105,"ç»ıæµİåŃ¦":7106,"SS":7107,"åħĪè¿Ľ":7108,"156":7109,"159":7110,"æ¹ĸæ³Ĭ":7111,"ä¸ĭè¾ĸä»¥ä¸ĭ":7112,"çŁĽçĽ¾":7113,"åį§":7114,"çī©åĵģ":7115,"è¯¥æł¡":7116,"çī¹æľĹæĻ®":7117,"æĺ¯ä¸Ńåįİäººæ°ĳåħ±åĴĮåĽ½":7118,"éĤµ":7119,"éĵģè·¯è½¦ç«Ļ":7120,"æĻºæħ§":7121,"å²©çŁ³":7122,"ç½Ĺå¤«":7123,"åĽ¢ç»ĵ":7124,"åºĶå¯¹":7125,"éĺ³åİ¿":7126,"è°ĭæĿĢ":7127,"ä¸ŃåĽ½åĽ½æ°ĳåħļ":7128,"12æľĪ31æĹ¥":7129,"ä¼Ļä¼´":7130,"çĽ´åįĩæľº":7131,"å¼Ģå·¥":7132,"åĿł":7133,"çĤŃ":7134,"è¿ĳä»£":7135,"åī¥":7136,"ä»£æĽ¿":7137,"è¿ĩçļĦ":7138,"éģĵåħī":7139,"æ²ĻçĶ°":7140,"æľĢæĹ©çļĦ":7141,"çĶŁéķ¿äºİ":7142,"Ġä½¿çĶ¨":7143,"äººæ¬¡":7144,"æĶ¶è´¹":7145,"ç«ĭæ³ķä¼ļ":7146,"ies":7147,"æĶ¹åĪ¶ä¸º":7148,"éĥ½çĿ£":7149,"æıĲäº¤":7150,"å¸¸å¸¸":7151,"æ¸ħä»£":7152,"éĢīä¸¾ä¸Ń":7153,"å¦¹å¦¹":7154,"æľĽè¿ľéķľ":7155,"az":7156,"å¤§éĺŁ":7157,"çº¿æĢ§":7158,"ä»įæľī":7159,"ä¸º0":7160,"å¥¸":7161,"éĩĮåħĭ":7162,"çĲĨå¿µ":7163,"çķħ":7164,"æĽ´æį¢":7165,"æĹ¥æľ¬çļĦ":7166,"æĤ¦":7167,"åıĳçĶŁäºĨ":7168,"èı²åĪ©":7169,"å·¨å¤§çļĦ":7170,"å¼ĢåĬŀ":7171,"çľģçļĦ":7172,"çº³å¾·":7173,"ä¸ĵçĶ¨":7174,"åĵĪåĪ©":7175,"ä¹ĭåĲİçļĦ":7176,"éļ¾æ°ĳ":7177,"é¢ģå¸ĥ":7178,"æŀ¢çº½":7179,"éĢ»è¾ĳ":7180,"åį°ç¬¬å®ī":7181,"æĮĩæķ°":7182,"æĹ¶ä»£çļĦ":7183,"ä¸ªä½ĵ":7184,"æĶ¹åĲį":7185,"æ´Ľæĸ¯":7186,"éĻįéĽ¨":7187,"Sh":7188,"æĹ±":7189,"æ±ŁåįĹ":7190,"æĺ¯ä¸ºäºĨ":7191,"ä¸»ç®¡":7192,"åĽĽå¤§":7193,"SM":7194,"çļĦåľ°åĮº":7195,"æĶ¿åĬ¡":7196,"å¯¹éĺµ":7197,"æīĢéľĢ":7198,"çĪ±åĽ½":7199,"ä»¥2":7200,"èµĽä¸Ń":7201,"åħ¨ä½ĵ":7202,"è¯ŃéŁ³":7203,"èģĮåĳĺ":7204,"å¼ºåĪ¶":7205,"Ġthe":7206,"æ©¡":7207,"ial":7208,"åĲįè¯į":7209,"VD":7210,"è¡Įé©¶":7211,"æİĴåĪĹ":7212,"æµİåįĹ":7213,"(;),":7214,"èĤ©":7215,"ear":7216,"mer":7217,"è½¬ä¸º":7218,"åįıåķĨ":7219,"ä¹łæĥ¯":7220,"å´ĸ":7221,"åıĤè°ĭéķ¿":7222,"ä¸ºåŁºç¡Ģ":7223,"å¯¹ç§°":7224,"çİ°æľī":7225,"è°ģ":7226,"å¤ĸè§Ĥ":7227,"éĢīç§Ģ":7228,"1964å¹´":7229,"è¿·ä½ł":7230,"å°ĺ":7231,"æĹ¥å¸¸":7232,"ä¸īåĽ½":7233,"æĥľ":7234,"æł¼åĭĴ":7235,"ä¹¦åĨĻ":7236,"ç½Ĺé©¬å¸ĿåĽ½":7237,"åĪĳäºĭ":7238,"èĸĩ":7239,"ä¸įå¾Ĺä¸į":7240,"åĲĪåĶ±":7241,"æĢ§åĴĮ":7242,"æİ¥èĳĹ":7243,"æł¹æľ¬":7244,"å¤´éĥ¨":7245,"å¥ĸéĩĳ":7246,"åį°åĪ·":7247,"è¥¿çıŃçīĻè¯Ń":7248,"åĴ¨è¯¢":7249,"ä¸Ńåıĳçİ°":7250,"ç«ĭéĻ¶":7251,"çī²":7252,"æģ¨":7253,";/":7254,"äºĨä»ĸçļĦ":7255,"ä½įçļĦ":7256,"ãĢĮãĢį":7257,"èµĽè½¦":7258,"æ¢µ":7259,"è½¬ä¼ļ":7260,"å¡Ķå°¼":7261,"èĬĤåº¦ä½¿":7262,"å¯¹è¯Ŀ":7263,"è°į":7264,"èħ°":7265,"Ġv":7266,"ä¸¤å²¸":7267,"çĪª":7268,"åĽ¾æ¡Ī":7269,"ä¼ĲåĪ©äºļ":7270,"è°Ĳ":7271,"ord":7272,"åĩĨç¡®":7273,"åĨłçĬ¶":7274,"è®©ä»ĸ":7275,"130":7276,"åĵĢ":7277,"èĩªæŃ¤":7278,"æŃ¤äºĭ":7279,"é¦ĸåº¦":7280,"é¢ĺæĿĲ":7281,"ä½ıæĪ¿":7282,"çĽĪ":7283,"çĶ¨ä»¥":7284,"ç«ĻæĪ¿":7285,"ç»¼èīº":7286,"ala":7287,"æĢ¡":7288,"è§Ĥåħī":7289,"çģ«è½¦":7290,"åľ¨è¥¿":7291,"ä»ĸè®¤ä¸º":7292,"é«ĺåİŁ":7293,"å¼¹èį¯":7294,"æĻºèĥ½":7295,"éķľå¤´":7296,"çĥŃå¸¦é£İæļ´":7297,"åŃŁåĬłæĭī":7298,"æ¹ĸåįĹçľģ":7299,"éĵİ":7300,"èĻı":7301,"æĪĲç«ĭåĲİ":7302,"æİ¢æµĭ":7303,"å½ķå½±å¸¦":7304,"ey":7305,"èĩĢ":7306,"äºĨè®¸å¤ļ":7307,"ä¸Ĭå¸Ŀ":7308,"åĬ¨è½¦":7309,"è°¦":7310,"èī²å½©":7311,"é¾ĻçļĦ":7312,"äºİ2008å¹´":7313,"é©¬åħĭæĢĿ":7314,"ä¸Ģå¤©":7315,"çĽ¸åºĶ":7316,"çļĦåĨħå®¹":7317,"äººä¸º":7318,"ç«£":7319,"ä½ĵåĪ¶":7320,"ç»´ä¹Ł":7321,"ç»§ä»»":7322,"åıĭå¥½":7323,"ç«ĭéĻ¶å®Ľ":7324,"æĪĲæŀľ":7325,"ä½ĵéªĮ":7326,"çĿĽ":7327,"çĻ¾ç§ĳ":7328,"è¡įçĶŁ":7329,"å¼Ħ":7330,"ç§ĳä¼ļè¯ķ":7331,"170":7332,"åĲĮæĹ¶ä¹Łæĺ¯":7333,"åĨľåľº":7334,"è¯ĨåĪ«":7335,"çºªå½ķçīĩ":7336,"æĳĩæ»ļ":7337,"ä¸»æīĵ":7338,"çĳľ":7339,"åįĩæł¼ä¸º":7340,"ç¢°":7341,"1936å¹´":7342,"æİĮæı¡":7343,"åĴĸåķ¡":7344,"Ġ11":7345,"åİŁæĿ¥":7346,"æĽ¾æĺ¯":7347,"æ·ĳ":7348,"æ±īè¯Ń":7349,"éĿĴæĺ¥":7350,"æŃ¥æŀª":7351,"çŃ¹å¤ĩ":7352,"Ġå¤©":7353,"æ²¼":7354,"åīįè¿Ľ":7355,"èĤĿ":7356,"çŁ¥åºľ":7357,"åįĥç±³":7358,"æĻ¯è§Ĥ":7359,"çº¦çĳŁå¤«":7360,"æĺ¯ä¸į":7361,"ç¼Ŀ":7362,"au":7363,"Ġç¬¬ä¸Ģ":7364,"æľŃ":7365,"è¿Ļç±»":7366,"ç±³åħ°":7367,"åĪ¤å¤Ħ":7368,"èļģ":7369,"æ¹ĸåĮĹçľģ":7370,"å¤¸":7371,"ç¼ĸåı·ä¸º":7372,"èĪĨ":7373,"2026å¹´":7374,"Ġæ¦Ĥè¦ģ":7375,"çļĦåľ£":7376,"åľ°äº§":7377,"è´¬":7378,"åħ¨çº¿":7379,"çłĶç©¶çĶŁ":7380,"åĲ¦è®¤":7381,"åľ¨éĤ£éĩĮ":7382,"åľ°ä¸Ĭ":7383,"ä¸»æµģ":7384,"åĬłåĪ©äºļ":7385,"é©±éĢĲèĪ°":7386,"(,;)":7387,"çī¹åħ°":7388,"åĨħæĶ¿":7389,"è¯¥å¸Ĥ":7390,"æİ¥ç®¡":7391,"182":7392,"å®¹éĩı":7393,"èĪªçıŃ":7394,"åįĬå¹´":7395,"åĵ¥åĵ¥":7396,"1966å¹´":7397,"åĽ½éĺ²éĥ¨":7398,"çŁ©éĺµ":7399,",)":7400,"çľģéģĵ":7401,"åħĥæľĿ":7402,"èĿł":7403,"å¥¥æĸ¯åį¡":7404,"æľ¬å±Ĭ":7405,"çĽ¸ç»§":7406,"åħµåĽ¢":7407,"æ³°åĭĴ":7408,"é¢Ħå¤ĩ":7409,"ç®Ĺæ³ķ":7410,"å®ł":7411,"å¼ĢåĲ¯":7412,"PC":7413,"æĪĺèĥľ":7414,"æĳĶ":7415,"ä¸ºä¸ŃåĽ½":7416,"æµĨ":7417,"è¢«åıĳçİ°":7418,"ç¥Ĳ":7419,"æĶ¹è£ħ":7420,"Ġç¬¬äºĮ":7421,"ect":7422,"éĻķè¥¿çľģ":7423,"per":7424,"Ġå°½ç®¡":7425,"ä¹ĭéĻħ":7426,"çģ«çģ¾":7427,"æĪ¿éĹ´":7428,"å±ħä½ıåľ¨":7429,"250":7430,"åĲįè¿Ľå£«":7431,"çī©ä½ĵ":7432,"çļĦæ¦Ĥå¿µ":7433,"ä¸Ģäºº":7434,"ä¸ĢæĶ¯":7435,"à¸":7436,"æ¼Ĩ":7437,"æİ¨ç¿»":7438,"å¿ĹæĦ¿":7439,"çĻ¾å§ĵ":7440,"æĺ¯ä»İ":7441,"æĪĲåĪĨ":7442,"é¢ĸ":7443,"èĭ±éķĳ":7444,"åĽŀåĽ½":7445,"å®¢æĪ·":7446,"æĹ§åĿĢ":7447,"äºİ2007å¹´":7448,"çĮľ":7449,"éĢłæĪĲçļĦ":7450,"åŀĤçĽ´":7451,"åįĹæµ·":7452,"åĽłåºĶ":7453,"åĭĺ":7454,"æ²³æµģåŁŁ":7455,"Ġåı¦å¤ĸ":7456,"çļĦä¸ŃåĽ½":7457,"åħĶ":7458,"æĸ°åĮĹ":7459,"æĸ°ç«¹":7460,"çĶµæ±ł":7461,"åħ¥åĽ´":7462,"å·´ä¼ĲåĪ©äºļ":7463,"æł¡èĪį":7464,"åģļæ³ķ":7465,"ä¼ģåĽ¾":7466,"ç¥Ńç¥Ģ":7467,"äºİæŃ¤":7468,"å¿Į":7469,"éĿ¢åĲĳ":7470,"éĢīæ°ĳ":7471,"äºİåĲĮå¹´":7472,"æľ¬ç§ĳ":7473,"è·Į":7474,"ç§°ä¹ĭä¸º":7475,"ä¿Ŀå®ī":7476,"éĩįå¤į":7477,"è¾ĥå¤§":7478,"ä¹Įæĸ¯":7479,"è´Łè´£äºº":7480,"èĽĽ":7481,"1959å¹´":7482,"è¿ģç§»":7483,"ä¼Ĳåħĭ":7484,"è¾Ī":7485,"åıĺæį¢":7486,"Ġ2004å¹´":7487,"ç§©åºı":7488,"ET":7489,"Ġæ¸¸æĪı":7490,"çļĦåŃ¦çĶŁ":7491,"åĲĮæŃ¥":7492,"ä¸īç§į":7493,"è¿«ä½¿":7494,"ç¬¬åįģä¸ī":7495,"éĺħè¯»":7496,"æ°®":7497,"æĹ©åľ¨":7498,"å°ºå¯¸":7499,"å¤§éĩıçļĦ":7500,"ä¸ºè¾Ĳé³įé±¼çº²é²":7501,"å¤§è¡Ĺ":7502,"çī¹æĢ§":7503,"å±±çļĦ":7504,"çļĦéķ¿":7505,"ä¸Ńé¥°æ¼Ķ":7506,"åĲįä¸¾äºº":7507,"(;)":7508,"EC":7509,"çī©çļĦ":7510,"èı²å°Ķå¾·":7511,"cl":7512,"ä»ĸåĴĮ":7513,"åıĳæİĺ":7514,"èĢĮæĿ¥":7515,"å±±å¸Ĥ":7516,"åĵĪéĩĮ":7517,"ä½ıåľ¨":7518,"éĥİä¸Ń":7519,"hant":7520,"åİ¦éĹ¨":7521,"åĮĸä¸º":7522,"ç¼ĸç»Ħ":7523,"åİī":7524,"åħ¬ä¼ļ":7525,"ä»ĸå¯¹":7526,"åĿŀ":7527,"æŁ¥å°Ķæĸ¯":7528,"æħķå°¼":7529,"ä½ĳ":7530,"åĮł":7531,"å¸ĥåħ°":7532,"æĽ´æĺ¯":7533,"å¹²çº¿":7534,"éģĹä¼ł":7535,"é©±åĬ¨":7536,"èµ¢å¾ĹäºĨ":7537,"äºİ2024å¹´":7538,"èĤĩ":7539,"çľ¼çĿĽ":7540,"çĺ¤":7541,"æĬĳåĪ¶":7542,"91":7543,"çļĦéĺ¿":7544,"å¤§åħ¬":7545,"ä¸»ä½ĵ":7546,"çī¹çĤ¹":7547,"å·´èµ«":7548,"åĵģè´¨":7549,"çĹħéĢĿ":7550,"æĪĺäºīæľŁéĹ´":7551,"æŃ§è§Ĩ":7552,"\"(":7553,"ä¸ºæľŁ":7554,"å¤§å®¶":7555,"æ¡Ĳ":7556,"æıĲåīį":7557,"æµģéĩı":7558,"ern":7559,"èľĢ":7560,"æµ¸":7561,"æĮº":7562,"åįĹæĸ¯æĭīå¤«":7563,"ä¸¤æĿ¡":7564,"èŃ¦æĬ¥":7565,"äºĭåĬ¡æīĢ":7566,"ä¸ľäº¬éĥ½":7567,"section":7568,"åİŁçĲĨ":7569,"åķĨåĬ¡":7570,"ç©¿è¿ĩ":7571,"èµĮ":7572,"ä»»åĨħ":7573,"é©¹":7574,"æĥħèĬĤ":7575,"åĩĨåĨ³èµĽ":7576,"çķĮçļĦ":7577,"åı¤å·´":7578,"æĹ¥è¯Ń":7579,"ä¹Łåı¯":7580,"å®ŀåĬĽ":7581,"åİ¿çļĦä¸Ģä¸ªéĿŀå»ºåĪ¶åľ°åĮº":7582,"è¤Ĳèī²":7583,"æħķå°¼é»ĳ":7584,"ĠéĻĪ":7585,"æĪĬ":7586,"å®¶ä¹¡":7587,"çĵ·":7588,"èİ±æĸ¯":7589,"åĩłä½ķ":7590,"æĪĺäºīä¸Ń":7591,"éĽķå¡ĳ":7592,"åĨłçĬ¶çĹħæ¯Ĵ":7593,"æľ¬ä¹¦":7594,"æ´Ľå¤«":7595,"ity":7596,"1974å¹´":7597,"ä¾Ŀçħ§":7598,"æĿ¥èĩªäºİ":7599,"ç±»ä¼¼çļĦ":7600,"çīµå¼ķ":7601,"ç»´ä¹Łçº³":7602,"te":7603,"Ġ191":7604,"èº«ä¸Ĭ":7605,"åĲİæĿ¥çļĦ":7606,".)":7607,"åįĹç¾İæ´²":7608,"äºĭåĲİ":7609,"å¢ŀè®¾":7610,"ä»ħæ¬¡äºİ":7611,"ç«£å·¥":7612,"Ġ16":7613,"åıĬåħ¶ä»ĸ":7614,"ç»ıçºª":7615,"éĻ¢å£«":7616,"çªģåĩº":7617,"1953å¹´":7618,"ĠåĮĹ":7619,"æķĪçİĩ":7620,"ä¸¥éĩįçļĦ":7621,"ä¿Ĺç§°":7622,"æ»¤":7623,"æ»ĭ":7624,"åĪĴå½Ĵ":7625,"å¹ķåºľ":7626,"ä¸ºçĶ±":7627,"æŁĦ":7628,"èģĶåĨĽ":7629,"æľ¯è¯Ń":7630,"Mar":7631,"ä½įäºİä¸Ńåįİäººæ°ĳåħ±åĴĮåĽ½":7632,"èĮĦ":7633,"æĿĳæ°ĳ":7634,"åĮ»åŃ¦éĻ¢":7635,"æ·»åĬł":7636,"IV":7637,"å¤§çĲĨ":7638,"åĨħæľī":7639,"çľģæİ¥å£¤":7640,"çĶ²åŁº":7641,"ç»ĥä¹ł":7642,"En":7643,"å°Ķé¡¿":7644,"èĬ¦":7645,"çº¦1":7646,"çĸ¯":7647,"åľ£ç»ı":7648,"ç»ĨèıĮ":7649,"æīŃ":7650,"ä¸Ĭæĸ¹":7651,"éħ¯":7652,"éģĩåĪ°":7653,"ä¿®éģĵéĻ¢":7654,"MS":7655,"ef":7656,"è¾¹çļĦ":7657,"æ¿ĢçĥĪ":7658,"çļĦä¸»é¢ĺ":7659,"çļĦåĽ½éĻħ":7660,"çļĦæĪĲç»©":7661,"å¤§æ°Ķ":7662,"åīįèº«":7663,"ç§°èµŀ":7664,"åŁİåİ¿":7665,"å¦ĤåĲĮ":7666,"ä¿ĿåĬłåĪ©äºļ":7667,"æĮĩè´£":7668,"åĽŀåĲĪ":7669,"èĢĥå¯Ł":7670,"éĢĶç»ı":7671,"èĻļæĭŁ":7672,"çļĦçĪ¶äº²":7673,"entĠ":7674,"eĠC":7675,"Ġæł¹æį®2020å¹´ç¾İåĽ½äººåı£æĻ®æŁ¥çļĦæķ°æį®":7676,"çļĦçĶŁæ´»":7677,"ç¾İåĽ½äºº":7678,"èİ·å¥ĸ":7679,"äºīå¤º":7680,"åįģäºĮæľĪ":7681,"âĨ":7682,"æĶ»åĬ¿":7683,"æī¿æĭħ":7684,"çļ®èĤ¤":7685,"Ġst":7686,"å¤ļåħĥ":7687,"æ£į":7688,"åŃ£åĲİ":7689,"ä½ľæĽ²å®¶":7690,"14å¹´":7691,"åĪĨæĪĲ":7692,"æĸ¹ç¨ĭ":7693,"ä½Ĩåħ¶":7694,"è¶ģ":7695,"åĽ¢éķ¿":7696,"æ£±":7697,"å°±åľ¨":7698,"æľ«æľŁ":7699,"é¢Ĩå¯¼çļĦ":7700,"8ä¸ª":7701,"AL":7702,"éĺŁåĳĺ":7703,"åĲĳåĮĹ":7704,"èİ·åıĸ":7705,"çĽ´è·¯":7706,"ä¹¡æĿĳ":7707,"1973å¹´":7708,"é¡ºåºı":7709,"è¸¢":7710,"ĠX":7711,"æĻ´":7712,"åħĥéŁ³":7713,"Ġè¯Ħä»·":7714,"1935å¹´":7715,"åħ¬åħ±äº¤éĢļ":7716,"å¸ľ":7717,"åı¸èģĮ":7718,"æ»¥":7719,"é»ĳäºº":7720,"åľ°ä¸Ńæµ·":7721,"åıĹæįŁ":7722,"è±¹":7723,"è¡ĮæĶ¿ä¸Ńå¿ĥ":7724,"1957å¹´":7725,"NBA":7726,"åĿ¤":7727,"æĢ»ç«Ļ":7728,"å£«é¡¿":7729,"å±Ģå±Ģéķ¿":7730,"åĳ¨åĪĬ":7731,"æİ¨åĩºçļĦ":7732,"èĲ¨æĭī":7733,"ç¥¸":7734,"å¥³åŃ©":7735,"1977å¹´":7736,"åĩºèµĽ":7737,"å¥³ä¸»è§Ĵ":7738,"155":7739,"é¥¶":7740,"åĩłå¹´":7741,"å®ģæ³¢":7742,"EN":7743,"æĺ¯æĦıå¤§åĪ©":7744,"åįģä¸Ģå¹´":7745,"åĵģç§į":7746,"ç¥ĸåħĪ":7747,"æĲŀ":7748,"éĺ´è°ĭ":7749,"äºĳåįĹçľģ":7750,"å¤ªåĲİ":7751,"æĿ¡æ¬¾":7752,"152":7753,"çĮ´":7754,"è´Ŀåħĭ":7755,"åĩºçİ°çļĦ":7756,"å©´åĦ¿":7757,"è¿Ļä¹Łæĺ¯":7758,"æ··ä¹±":7759,"å±ŀçļĦæ¤įçī©":7760,"æ§½":7761,"Play":7762,"å·´åŁº":7763,"åĵĪæĭī":7764,"éĽ·è¾¾":7765,"åĬłåĪ©ç¦ıå°¼äºļå·ŀ":7766,"Ġåħ¶ä¸Ń":7767,"å¦¥":7768,"ä¿¡å¾Ĵ":7769,"æŃ»äºİ":7770,"ä½ĵèĤ²é¦Ĩ":7771,"äº®çĽ¸":7772,"å¯ĩ":7773,"å±±åľ°":7774,"çĶ·åŃ©":7775,"theĠ":7776,"åľ¨ä¸Ĭæµ·":7777,"æľĢå¤ļçļĦ":7778,"èĲĿ":7779,"æİ¨æµĭ":7780,"æ¤Ń":7781,"ç»ĨèĬĤ":7782,"äºİ2006å¹´":7783,"Te":7784,"che":7785,"çļĦéĿ¢ç§¯ä¸º":7786,"åĬłä»¥":7787,"æķ°åįģ":7788,"éĩįç»Ħ":7789,"åĽ½å®¶åħ¬åĽŃ":7790,"æİ¨è¡Į":7791,"å·´åĭĴæĸ¯åĿ¦":7792,"åıĸèĩª":7793,"è®ºåĿĽ":7794,"æĳ©å°Ķ":7795,"è¿Ļé¦ĸæŃĮ":7796,"æ¡Ĩæŀ¶":7797,"ä¸ľåĮº":7798,"çĽ¸è¿ŀ":7799,"å¤ľéĹ´":7800,"è¯īè®¼":7801,"åĳ¼åĲ¸":7802,"é¥®é£Ł":7803,"ç¤ºå¨ģèĢħ":7804,"é»ĳé¾Ļæ±Łçľģ":7805,"ix":7806,"å¾Ļ":7807,"çĤ³":7808,"æĻ®æĭī":7809,"éĢģåĪ°":7810,"éĢĶå¾Ħ":7811,"ll":7812,"å·©":7813,"åĪĨè§£":7814,"æ°´éĩı":7815,"åı¯ä»¥éĢļè¿ĩ":7816,"å¼ķç§į":7817,"é¥¼":7818,"éĻĦåĬł":7819,"å¯Įæ±Ĺ":7820,"YouTube":7821,"çļĦåŁİéķĩ":7822,"æ¬ł":7823,"int":7824,"1971å¹´":7825,"æĸ°åĨłèĤºçĤİ":7826,"çļĦä¸ĸçķĮ":7827,"æŃĮåĶ±":7828,"ç§»å±ħ":7829,"æĭ¿çł´":7830,"è¿½æ±Ĥ":7831,"å±ĭé¡¶":7832,"å°±è¯»äºİ":7833,"èĩ´åĬĽäºİ":7834,"è®½":7835,"æĺ¯è¥¿çıŃçīĻ":7836,"ä»ĸäºº":7837,"æľºæŀª":7838,"çĽ¸éĤ»":7839,"ç¬¬åįģä¸Ģ":7840,"æĿ°åħĭéĢĬ":7841,"HK":7842,"æĺ¯èĭ±åĽ½":7843,"æľīçĿĢ":7844,"ç¾İåĽ½æĢ»ç»Ł":7845,"éĽĨåĽ¢åĨĽ":7846,"è¯ĬæĸŃ":7847,"ç«ĭæĸ¹ç±³":7848,"æĭ¿çł´ä»ĳ":7849,".ãĢĮ":7850,"é«ĺæŀ¶":7851,"çİ¯å½¢":7852,"æī¹åĪ¤":7853,"1951å¹´":7854,"èĪªç©ºåħ¬åı¸":7855,"æ£ļ":7856,"æµģåĬ¨":7857,"æ»ĳéĽª":7858,"ä¸Ńå¼ı":7859,"ä¸īå¤§":7860,"çī©èµĦ":7861,"å¦ĸ":7862,"å¤ĸåĽ´":7863,"æĢ»ç»ıçĲĨ":7864,"åĬĽåŃ¦":7865,"ç»ĪæŃ¢":7866,"æħĪåĸĦ":7867,"13å¹´":7868,"Th":7869,"Ġä¸Ģ":7870,"æīĩ":7871,"ä¸īçĶ²":7872,"è°£":7873,"æ¡ĵ":7874,"åºķå±Ĥ":7875,"å´ĩç¥¯":7876,"åĨ»":7877,"åı¸æľº":7878,"èĳµ":7879,"å§ĭç»Ī":7880,"æłĩé¢ĺ":7881,"åħ¬éĩĮçļĦ":7882,"åħµåĬĽ":7883,"æ²Īéĺ³":7884,"åĩºèĩª":7885,"åħ¶åľ¨":7886,"è¿ĩæ¸¡":7887,"ç¦§":7888,"åĪĻçĶ±":7889,"éĴ©":7890,"å¾·åħĭ":7891,"å®ļçĲĨ":7892,"å±±é¡¶":7893,"ä¸Ńå¿ĥçļĦ":7894,"4æľĪ1æĹ¥":7895,"ä¸Ńä¸ĸçºª":7896,"ä¸ĭæĸ¹":7897,"çĪ¬":7898,"è£´":7899,"åľ£æ¯į":7900,"è¿ĲåĬ¨çļĦ":7901,"ç§ĺé²ģ":7902,"å±ħæ°ĳçĤ¹":7903,"ç²ĴåŃĲ":7904,"æĸĮ":7905,"æŁľ":7906,"åħĥå¸ħ":7907,"å§Ķåī¯ä¹¦è®°":7908,"æ²³åı£":7909,"çģ«è½¦ç«Ļ":7910,"é³Ħ":7911,"åħ¥å¢ĥ":7912,"èĤ¿":7913,"æ¼Ĥ":7914,"å·¥ä½ľçļĦ":7915,"175":7916,"è°¢å°Ķ":7917,"å½¼æŃ¤":7918,"ĠæľĪ":7919,"å·¥åķĨ":7920,"æ¯Ķå°Ķ":7921,"æĴĳ":7922,"æ·±åħ¥":7923,"ç¬¬ä¸īæ¬¡":7924,"000åĲį":7925,"éŁ¦å°Ķ":7926,"åħ¬å¯ĵ":7927,"çĲĥè¿·":7928,"ç»ĵè®º":7929,"åĥıæĺ¯":7930,"ç¡ķå£«åŃ¦ä½į":7931,"å±¡":7932,"è¾±":7933,"æ¬¡æĹ¥":7934,"æīĭä¸Ń":7935,"å±ĢçļĦ":7936,"çīĪçļĦ":7937,"éĨī":7938,"EP":7939,"åİĮ":7940,"äºĨå¯¹":7941,"çĦļ":7942,"çİ¯çĲĥ":7943,"èĵĦ":7944,"è¯ĳä¸º":7945,"è¯¥åī§":7946,"èĭıéĩĮ":7947,"ç¦ıéŁ³":7948,"çªĥ":7949,"æĵ¦":7950,"æĹ©æľŁçļĦ":7951,"ris":7952,"çļĦèĥ½åĬĽ":7953,"åľ¨ä»ĸçļĦ":7954,"çŃīå¾ħ":7955,"æł¼å¼ı":7956,"1990å¹´ä»£":7957,"çªģåİ¥":7958,"å¼Ĺæĭī":7959,"ä¼ĺåħĪ":7960,"å¤©æ´¥å¸Ĥ":7961,"èģĤ":7962,"åĮĹéŁ©":7963,"çİĭä½į":7964,"åį°è±¡":7965,"åį°åº¦æķĻ":7966,"omp":7967,"æ©Ļ":7968,"è½¬çļĦå°ıè¡ĮæĺŁ":7969,"ue":7970,"çĶ±äººå·¥":7971,"è¶³çĲĥèģĶèµĽ":7972,"å®ĥä»¬çļĦ":7973,"çļĦå¥³åĦ¿":7974,"æĺ¯åįĹæŀģæ´²":7975,"åįģä¸īå¹´":7976,"æĽ²çĽ®":7977,"é¢ĦåĳĬ":7978,"æĹŃ":7979,"åıĳéŁ³":7980,"åĬłåĭĴ":7981,"ä¸īæ¬¡":7982,"èģĮæ£Ĵ":7983,"ç¦ıåĪ©":7984,"ä½İæ°Ķåİĭ":7985,"ç¿°æŀĹ":7986,"è¿ĩäºİ":7987,"ç³ķ":7988,"å¾®è½¯":7989,"çĥŃå¸¦æ°ĶæĹĭ":7990,"iveĠ":7991,"çĲĨäºĭä¼ļ":7992,"BL":7993,"ä¸ºé¦ĸ":7994,"çº§çļĦ":7995,"èĳĹæľī":7996,"ç¬¼èįī":7997,"æł¼æĭīæĸ¯":7998,"è¯ºä¼Ĭ":7999,"åĪºæ¿Ģ":8000,"çĮªç¬¼èįī":8001,"åİĿ":8002,"è´¿":8003,"åı²èĴĤ":8004,"çĪ±çļĦ":8005,"åī¯ä½¿":8006,"åıĳçĶŁçļĦ":8007,"åµĮ":8008,"åľ¨ä¸Ģä¸ª":8009,"åİ¿åŁİ":8010,"ç±»åŀĭçļĦ":8011,"åıĸå¾ĹäºĨ":8012,"åħħåĪĨ":8013,"éĻ¤æŃ¤ä¹ĭå¤ĸ":8014,"çºº":8015,"æľīåı¯èĥ½":8016,"1900":8017,"çīĩæ®µ":8018,"å¼ºåĮĸ":8019,"éĢĤçĶ¨äºİ":8020,"åħ±äº§ä¸»ä¹ī":8021,"å¾·æĸ¯":8022,"çĶµåĬ¨":8023,"è¯¥åľ°åĮº":8024,"ç¼Ķ":8025,"åĭ¾":8026,"èº²":8027,"ä¸ģåł¡":8028,"ç½ķé»ĺ":8029,"åħĭç½Ĺåľ°äºļ":8030,"å°¸ä½ĵ":8031,"åĴĮå¤§":8032,"åĲįèªī":8033,"ä¸ĭè½½":8034,"è¿Ļä¸¤ä¸ª":8035,"å¥½åıĭ":8036,"é¥¥":8037,"rit":8038,"ä¸ĢçĻ¾":8039,"å»ºåĽ½":8040,"åıĤè§Ĥ":8041,"æ¯ıæ¬¡":8042,"çļĦå¹³åĿĩæµ·æĭĶé«ĺåº¦":8043,"åĲİåıĪ":8044,"çİĭå®¤":8045,"å¥³æ¼Ķåĳĺ":8046,"é£ŀå¼¹":8047,"TA":8048,"æİ§èĤ¡":8049,"åģļä¸º":8050,"åħ¹çľģ":8051,"Ġ2003å¹´":8052,"ãĥ¼":8053,"åıĻè¿°":8054,"èĢĮè¯¥åľ°çļĦå¹³åĿĩæµ·æĭĶé«ĺåº¦":8055,"å·´åŁºæĸ¯åĿ¦":8056,"å¼ķç§įæł½åŁ¹":8057,"05":8058,"åı°å¸ģ":8059,"å¸¸å§Ķä¼ļ":8060,"èº«äº¡":8061,"è®¾è®¡å¸Ī":8062,"1967å¹´":8063,"å¼Ĥå¸¸":8064,"è´¢åĬ¡":8065,"å½¢æĪĲçļĦ":8066,"Ġç»ıæµİ":8067,"æĺı":8068,"è¿Ľåı£":8069,"éĿ¢ç§¯1":8070,"2010å¹´ç¾İåĽ½äººåı£æĻ®æŁ¥çļĦæķ°æį®":8071,"åĢŁçĶ±":8072,"ä¸İæŃ¤åĲĮæĹ¶":8073,"éķ¿å®ī":8074,"ä»»å¤©åłĤ":8075,"æĽ¾ä¸º":8076,"çĭ¬çī¹çļĦ":8077,"éģĹè¿¹":8078,"rom":8079,"Ph":8080,"çļĦæ¸¸æĪı":8081,"è¿Ļæ®µ":8082,"è£¸":8083,"èĪªçº¿":8084,"çģ«æĺŁ":8085,"ä¹ĺåĿĲ":8086,"è¿Ľå£«åĩºèº«":8087,"Î±":8088,"ãĢį;":8089,"æĿĥçļĦ":8090,"åĸī":8091,"å®£åĳĬ":8092,"ä¿Ħäº¥":8093,"1965å¹´":8094,"ä¿Ħäº¥ä¿Ħ":8095,"å»ºæľī":8096,"ç§ĳå¹»":8097,"çº³å°Ķ":8098,"ç¥ŀåľ£":8099,"çħ§é¡¾":8100,"æĸ¯éĩĮ":8101,"åĲĮåŃ¦":8102,"éģĵçļĦ":8103,"å¤©ä½¿":8104,"10æľĪ1æĹ¥":8105,"å½¢çļĦ":8106,"ç¬¬ä¸Ģå±Ĭ":8107,"è½¬ä»»":8108,"åĪĿå¹´":8109,"çĶŁäº§çļĦ":8110,"çĶ±äººå·¥å¼ķç§įæł½åŁ¹":8111,"tt":8112,"æķ°çĻ¾":8113,"ç¼ĸåĨĻ":8114,"éĤ£æł·":8115,"å¥´éļ¶":8116,"åľ¨åĨħ":8117,"è¿Ĳæ²³":8118,"æīĭæŀª":8119,"å®£è¨Ģ":8120,"16å¹´":8121,"Mic":8122,"ä¸º3":8123,"ach":8124,"pp":8125,"äººç§°":8126,"ä¸Ĭæ¸¸":8127,"åŃĲå¼¹":8128,"åŁºè¾ħ":8129,"åİŁåĪĽ":8130,"ond":8131,"çĶµè§ĨåĬ¨çĶ»":8132,"çļĦå¤§åŀĭ":8133,"ä¸ĭè¾ĸä»¥ä¸ĭåľ°åĮº":8134,"å·´å¡ŀå°Ķ":8135,"èįĥ":8136,"èĻĲ":8137,"åįģä¸ĢæľĪ":8138,"\").":8139,"åİ¨":8140,"æĸ°äºº":8141,"æ¶¡":8142,"åĪĴåĪĨ":8143,"åĮ»å¸Ī":8144,"çºªå¿µç¢ĳ":8145,"ä¸Ńä¹¦":8146,"ä»¥å¾Ģ":8147,"ä¹ĭåĲį":8148,"åīįçº¿":8149,"æĹłéĻĲ":8150,"ç½ĳä¸Ĭ":8151,"æĭ¦":8152,"çķľ":8153,"åı·ä¸º":8154,"æµģç»ı":8155,"è°ĥèĬĤ":8156,"é²ģæĸ¯":8157,"1969å¹´":8158,"æĿ¥å¾Ģ":8159,"å°¼å¥¥":8160,"éĩĳåĪļ":8161,"å½¢æĪĲäºĨ":8162,"èĤ¯å®ļ":8163,"è¿Ļéĥ¨":8164,"æĸĩæľ¬":8165,"æĢ»é¢Ŀ":8166,"å¸¸è§Ħ":8167,"ä¼Ĭå°Ķ":8168,"è¯ºæĸ¯":8169,"è¯ŀçĶŁ":8170,"åı£å¾Ħ":8171,"åĽŀçŃĶ":8172,"èİ·å¾Ĺä¸Ģæŀļ":8173,"ardĠ":8174,"äºİ189":8175,"æĶ¹ç¼ĸèĩª":8176,"Ġæĭī":8177,"åĮºåĴĮ":8178,"åŁºéļĨ":8179,"ore":8180,"éĺµå®¹":8181,"æ®ĭçĸ¾":8182,"å¹¸åŃĺ":8183,"å¥¥æĸ¯æĽ¼":8184,"åĽ½è¯Ń":8185,"éĺ¿å¯Įæ±Ĺ":8186,"è®¤å®ļ":8187,"æŀģç«¯":8188,"åŃĺåľ¨çļĦ":8189,"åĲĮæĢ§æģĭ":8190,"çĽ²":8191,"ä»¥å¤ĸçļĦ":8192,"ä¸įåıĺ":8193,"éķ¿å¤§":8194,"ç»´åĲ¾":8195,"èĭıå·ŀ":8196,"éĿ¢ç§¯0":8197,"ä¾Ľå¥ī":8198,"èĢ¶å¤«":8199,"1933å¹´":8200,"éĩĩçĶ¨äºĨ":8201,"æĮīå¯Ł":8202,"ç©Ĩç½ķé»ĺ":8203,"åĴĮä»ĸçļĦ":8204,"æĮ¤":8205,"åħ³èģĶ":8206,"åĲĳåįĹ":8207,"ç®¡åĪ¶":8208,"è®¤çŁ¥":8209,"è¿ĺåĮħæĭ¬":8210,"åĬŀæ³ķ":8211,"168":8212,"åī¯éĥ¨éķ¿":8213,"åĪ¤æĸŃ":8214,"ç´§å¼ł":8215,"ä½įäºİè¯¥çľģ":8216,"11å¹´":8217,"âĪ":8218,"æĶĢ":8219,"å¾ĹåĪĨ":8220,"ä¸īåĲį":8221,"ä¹ŁåĽłæŃ¤":8222,"å°±æľī":8223,"åĸ»":8224,"è¯įæ±ĩ":8225,"çĽ®åīįå°ļæľª":8226,"å²Ĳ":8227,"çĹķ":8228,"æ°Ķæ¸©":8229,"æ²ĥå°Ķ":8230,"ç©¿è¶Ĭ":8231,"ç»´åĲ¾å°Ķ":8232,"17å¹´":8233,"DVD":8234,"äºĨä¸ĢäºĽ":8235,"æįī":8236,"é»Ľ":8237,"ç¾İåĽ½åĽ½å®¶":8238,"éħĭ":8239,"åħļç»Ħ":8240,"åī©ä½Ļ":8241,"å¤ĸçķĮ":8242,"å¿ĥèĦı":8243,"éªı":8244,"176":8245,"ç²®é£Ł":8246,"æ¬º":8247,"ä¸ĭæĿ¥çļĦ":8248,"å·´å¸ĥ":8249,"éħ¿":8250,"æĬķæīĭ":8251,"çĶµè§ĨèĬĤçĽ®":8252,"æľĹå¾·":8253,"çĩĥçĥ§":8254,"çĶµæµģ":8255,"1930å¹´":8256,"å®¿èĪį":8257,"ohn":8258,"4Ġ":8259,"7ä¸ª":8260,"DS":8261,"åŁł":8262,"åĬłå·¥":8263,"æ¬¡æķ°":8264,"åİŁæľī":8265,"éĹ®é¢ĺçļĦ":8266,"æį¢ä¹ĺ":8267,"OR":8268,"ç¬¬6":8269,"é¢Ĥ":8270,"åĵĪå¾·":8271,"çªģåĩ»":8272,"åĨ²åĩ»":8273,"åĩºäºİ":8274,"çĶŁæķĪ":8275,"åŃĲåħ¬åı¸":8276,"æĪĺè½¦":8277,"ç«Ļåİħ":8278,"ç¾İåĽ½æµ·åĨĽ":8279,"åıĳçİ°çļĦ":8280,"çĶŁæ´»åľ¨":8281,"çļĦå¤§éĥ¨åĪĨ":8282,"åħĭéĩĮæĸ¯":8283,"æľºåĻ¨äºº":8284,"åı¯åīįå¾Ģ":8285,"æĹıäºº":8286,"ç¥ŀç§ĺ":8287,"æ²¡æľīä»»ä½ķ":8288,"è¾ĥé«ĺ":8289,"æĬĹæĪĺ":8290,"ä¸´åºĬ":8291,"æģĲé¾Ļ":8292,"åĪĽå§ĭäºº":8293,"Ġé«ĺ":8294,"ä¸Ģéĥ¨åĪĨ":8295,"ç³Ĭ":8296,"å¹¶ä¸Ķåľ¨":8297,"çī©ç§įçļĦ":8298,"æĸ°çķĮ":8299,"å¾Ĺç¥¨":8300,"éĢļè¡Į":8301,"åħ°å·ŀ":8302,"éħī":8303,"ç±»çļĦ":8304,"åıįèĢĮ":8305,"å¥ĸçīĮ":8306,"æĹĹå¸ľ":8307,"çļĦå±±å³°":8308,"MP":8309,"åĨĽåľ¨":8310,"å¡Į":8311,"åıĹåĪ°äºĨ":8312,"æĦıåĽ¾":8313,"èĬĤå¥ı":8314,"åħŃä¸ª":8315,"åŃĺåĤ¨":8316,"1931å¹´":8317,"å¤ºåıĸ":8318,"ç±»ä¼¼äºİ":8319,"30å¹´":8320,"les":8321,"å¼Ģä¸ļ":8322,"æĺİå°¼":8323,"å¤ªéĥİ":8324,"å®ĥåľ¨":8325,"å®ĪæĬ¤":8326,"æĪĪå°Ķ":8327,"ment":8328,"åĽ½æľī":8329,"å¹¶ä¸º":8330,"è¢«åĪĹä¸º":8331,"è¾ĥå°ĳ":8332,"çĶµå½±èĬĤ":8333,"æ°¸è¿ľ":8334,"çĶŁéķ¿äºİæµ·æĭĶ":8335,"æ³ª":8336,"æŃ¤ä¸¾":8337,"éĢļå¸¸æĺ¯":8338,"è°¨":8339,"åįģå¤§":8340,"æŃ£ä¹ī":8341,"ä¼łå¥ĩ":8342,"èĻ¾":8343,"åıĳå±ķçļĦ":8344,"å§Ķåĳĺä¼ļä¸»å¸Ń":8345,"è¿ªäºļ":8346,"æĹĭè½¬":8347,"åĿĲèĲ½":8348,"çī©çĲĨåŃ¦":8349,"æĺĶ":8350,"æľīä¸¤ä¸ª":8351,"åĬ¨åĳĺ":8352,"åŀ¦":8353,"å¥¹æĽ¾":8354,"è¶³èģĶ":8355,"æīĺé©¬æĸ¯":8356,"åĲĪå¹¶ä¸º":8357,"ä¸ŃæĸŃ":8358,"ç¬¬äºĮä¸ª":8359,"ph":8360,"âĦ":8361,"ĠåįĹ":8362,"æĹ¶éĴĪ":8363,"è¿ĽèĢĮ":8364,"ç¡®å®ŀ":8365,"âĨĴ":8366,"åħ¬çº¦":8367,"åħ¥çĲĥ":8368,"åħ¨ä¸ĸçķĮ":8369,"åħīè°±":8370,"æııåĨĻ":8371,"éľįå°Ķ":8372,"ç±³çļĦåľ°åĮº":8373,"Ġçİĭ":8374,"çļĦé©¬":8375,"æĪĮ":8376,"æķĻç§ĳ":8377,"å·´åħĭ":8378,"ä¿Ŀåį«":8379,"åĩ»ä¸Ń":8380,"166":8381,"éĻĲäºİ":8382,"æ¶ĪçģŃ":8383,"èĻļæŀĦ":8384,"US":8385,"ãĢĭ(),":8386,"æĸ°è¥¿åħ°":8387,"æĢ§æł¼":8388,"é¦ĸé¢Ĩ":8389,"äº§éĩı":8390,"çĳĻ":8391,"åĿĩæľī":8392,"åĿĲæłĩä¸º":8393,"CP":8394,"ĠåĪ¶ä½ľ":8395,"ä»¥åħ¶":8396,"ä¸ĭå±ŀ":8397,"ä¹ĲåĻ¨":8398,"å¢ĥå¤ĸ":8399,"æĬĢèĥ½":8400,"æ¸©å¸¦":8401,"åĺīåºĨ":8402,"åĩºçīĪçļĦ":8403,"åħĭæĸ¯åĿ¦":8404,"ä¼įå¾·":8405,"å¤§æī¹":8406,"ä¿¡ä»»":8407,"165":8408,"145":8409,"åį°åº¦å°¼è¥¿äºļ":8410,"å¸ķå°Ķ":8411,"åıĳçĶµåİĤ":8412,"3åı·":8413,"yn":8414,"Ġå¯¹äºİ":8415,"åīįèĢħ":8416,"éĢīä¸Ń":8417,"åĲĳä¸ľ":8418,"çļĦåľ°ä½į":8419,"éĴ¢éĵģ":8420,"æĢ¨":8421,"çº¿åĴĮ":8422,"èµ·çĤ¹":8423,"å®¢å®¶":8424,"åı¯èĥ½æĢ§":8425,"1962å¹´":8426,"çº¤ç»´":8427,"Ġç®Ģ":8428,"è·ĭ":8429,"çī¹åĭĴ":8430,"å¤ļä¸º":8431,"è¿ĩåº¦":8432,"æĢ»å±Ģ":8433,"org":8434,"çªĿ":8435,"æĶ¯æĮģèĢħ":8436,"çģµéŃĤ":8437,"éĢıæĺİ":8438,"å¤§è¿ŀ":8439,"åĴĮäººåı£":8440,"éķ¿æĺ¥":8441,"åįİåĮĹ":8442,"å¸ĿåĽ½çļĦ":8443,"01":8444,"äºĮæ¬¡":8445,"ork":8446,"æĤ¼":8447,"æĻļæľŁ":8448,"åĽ½æĹĹ":8449,"ä»ĸå°Ĩ":8450,"åĲįå½ķ":8451,"å¥¥åħĭ":8452,"çº³æĸ¯":8453,"è§£éĻ¤":8454,"èı±":8455,"è¡ĮæĶ¿éķĩåĮº":8456,"ç¡®ç«ĭ":8457,"ä¸ŃæŃ£":8458,"è¿Ļä¸¤":8459,"æ¸¯éĵģ":8460,"åĸĿ":8461,"å¾Ģè¿Ķ":8462,"ĠSp":8463,"Ġéĩĳ":8464,"æĺ¯å¯¹":8465,"ä½Ĩä¸į":8466,"éĢīç¥¨":8467,"éĶħ":8468,"åħĭéĩĮç±³äºļ":8469,"æ²ŁéĢļ":8470,"éĹ¹":8471,"åĶ¤":8472,"éļıä¹ĭ":8473,"æıĲä¾ĽçļĦ":8474,"è¾ŀåİ»":8475,"æĲŃè½½":8476,"é£ŀè¡Įåĳĺ":8477,"ĠæĹ¥":8478,"Ġä¸ºäºĨ":8479,"éĺľ":8480,"å·¥åħļ":8481,"æ¸¸æĪıä¸Ń":8482,"é»ĳæļĹ":8483,"é¸¦":8484,"çļĦéģĵè·¯":8485,"åĽ½å®ī":8486,"å®ļä½į":8487,"åįģäºĶå¹´":8488,"æ¢ħå°Ķ":8489,"åİ¿çļĦä¸Ģä¸ªè¡ĮæĶ¿éķĩåĮº":8490,"UN":8491,"Ġä»¥":8492,"çļĦå¼Ģ":8493,"çĽĴ":8494,"ä¹ĭåľ°":8495,"å¸ĥæĶ¿":8496,"çĽ¸è¾ĥ":8497,"æ³¢çī¹":8498,"æīĵå¼Ģ":8499,"ä¹Įæĭī":8500,";&":8501,"AK":8502,"âĢ§":8503,"ç«ĭå¤§åŃ¦":8504,"ros":8505,"Ġæľ¬ç«Ļ":8506,"HR":8507,"å°§":8508,"ä¸ĭçļĦä¸Ģä¸ª":8509,"å£«åĿ¦":8510,"äº§çī©":8511,"åĲĳéĩı":8512,"æĶ¾éĢģ":8513,"åĵįåºĶ":8514,"1932å¹´":8515,"ee":8516,"Ġ13":8517,"åĮª":8518,"æľīä¸¤":8519,"åıĬåĲİ":8520,"äºĭåıĺ":8521,"æµģæµª":8522,"åħĪåīį":8523,"èĲ¨æĸ¯å·ŀ":8524,"åľ°å¤Ħ":8525,"äºĭæĥħ":8526,"æĺİä»£":8527,"äº§åľ°":8528,"ç¥ŀç¤¾":8529,"ame":8530,"èī¯å¥½":8531,"1928å¹´":8532,"ç§ŁçķĮ":8533,"åĪ©å¥¥":8534,"ä¹¦æ³ķ":8535,"ĠAn":8536,"åıĳå¸ĥäºĨ":8537,"æįĲèµł":8538,"äººå¤§ä»£è¡¨":8539,"å¸ĪèĮĥå¤§åŃ¦":8540,"OM":8541,"deĠ":8542,"125":8543,"åį³åı¯":8544,"æ¯įèĪ°":8545,"è¯»ä¹¦":8546,"ä¼ļè®®ä¸Ĭ":8547,"å·¡éĢ»":8548,"çļĦè®¡åĪĴ":8549,"åĮĹå¹³":8550,"éĹ´è°į":8551,"çĥĤ":8552,"åºĵå°Ķ":8553,"Ġ2002å¹´":8554,"ä¸»æķĻç»ĥ":8555,"èķĥ":8556,"å°Ĭéĩį":8557,"Station":8558,"çļĦåº§æłĩä¸º":8559,"æ°ĳæĶ¿":8560,"æľĢéĩįè¦ģçļĦ":8561,"åİŁåŀĭ":8562,"åĲĳè¥¿":8563,"çłĶç©¶ä¸Ńå¿ĥ":8564,"1961å¹´":8565,"æĺ¯ä¸Ģå®¶":8566,"FC":8567,"äººæīį":8568,"å¼ºçļĦ":8569,"ick":8570,"å¼ĢåıĳçļĦ":8571,"æĺĨæĺİ":8572,"æ§Ł":8573,"Ġ20":8574,"å¤§åĲĮ":8575,"æĢİ":8576,"ç¼Ģ":8577,"éĥ½ä¸į":8578,"åİŁå®ļ":8579,"æĪĸç§°":8580,"æ®·":8581,"èĮİ":8582,"çłĶç©¶åĳĺ":8583,"å¼ºå¤§çļĦ":8584,"ç²¾çģµ":8585,"åĤ¨åŃĺ":8586,"å»¶ä¼¸èĩ³":8587,"Ġä¸ī":8588,"çļĦæ¯ĶèµĽ":8589,"å¤§åŃĹ":8590,"çŃīèģĮ":8591,"ä¼¯æł¼":8592,"èĽĻ":8593,"å°¼åı¤æĭī":8594,"ax":8595,"Ġä½ľä¸º":8596,"çļĦä»£è¡¨":8597,"çļĦåĲįç§°":8598,"åĬ¾":8599,"ä¸ĬéĿ¢":8600,"ä»ĸè¯´":8601,"æ³ķåŃ¦":8602,"æŃ¤ç±»":8603,"çŃīäºİ":8604,"æĺ¥ç§ĭ":8605,"æ³½å°Ķçľģ":8606,"çº·çº·":8607,"è¯Ī":8608,"åħ¬ç¤¾":8609,"åĬ¨æĢģ":8610,"ä¹Ŀå·ŀ":8611,"éĺ²å®Ī":8612,"å·Ŀåİ¿":8613,"åģľè¿Ĳ":8614,"å§ĵæ°ı":8615,"idĠ":8616,"åıĳè¾¾":8617,"æĽ¾è¢«":8618,"ç®¡æİ§":8619,"å¼łåįķæĽ²":8620,"äºİ2005å¹´":8621,"åĲĽå£«åĿ¦":8622,"äººç¾¤":8623,"éĴł":8624,"èı©":8625,"å°ģéĹŃ":8626,"çŃīçļĦ":8627,"å¥ĸæľĢä½³":8628,"å¢ĥåĨħçļĦ":8629,"åı¦ä¸Ģç§į":8630,"æĪ·éĥ¨":8631,"å¾®åįļ":8632,"tern":8633,"ier":8634,"éĹ¯":8635,"è¿ĻæĹ¶":8636,"åįģåĽĽå¹´":8637,"è½¬åıĺ":8638,"èĽ®":8639,"AI":8640,"åĳĺå¤ĸ":8641,"åıĤè®®åĳĺ":8642,"æĿĢäºº":8643,"æĻ¯çĤ¹":8644,"å°ģéĶģ":8645,"ä½£":8646,"åħ¬å¼ı":8647,"åħĭéĽ·":8648,"åĬłæĸ¯":8649,"åħ¶ä»ĸçļĦ":8650,"æ´»åĬ¨çļĦ":8651,"æ³¨åħ¥":8652,"ational":8653,"è¿ĽçĲĥ":8654,"éĺŁåľ¨":8655,"æ³¢å£«é¡¿":8656,"çľĭè§ģ":8657,"æŃĩå°Ķ":8658,"//":8659,"çĲĨåŃ¦":8660,"åŀ£":8661,"æĶ¹èī¯":8662,"éĢłåŀĭ":8663,"ä¸ĵç§ĳ":8664,"ä¸ĵæ³¨":8665,"éĩİçĶŁ":8666,"ä¸»é¢ĺæĽ²":8667,"å±¯éĹ¨":8668,"ç¦¾":8669,"çĦ°":8670,"åıĤæ¼Ķ":8671,"è°ĥä»»":8672,"æŀģä¸º":8673,"çĽ®åīįå°ļæľªçĶ±äººå·¥å¼ķç§įæł½åŁ¹":8674,"Ġg":8675,"Ġå»ºçŃĳ":8676,"åĪĨäº«":8677,"ä»»æĦı":8678,"èī®":8679,"æľŁåĪĬ":8680,"ç½Ĺè®·":8681,"éĺ¿åŁº":8682,"å¯¼å¸Ī":8683,"çľŁæŃ£çļĦ":8684,"åīįæĿ¥":8685,"é«ĺå±Ĥ":8686,"ç»ıè´¹":8687,"åįģåħŃå¹´":8688,"å°¼æ³Ĭ":8689,"åİĭç¼©":8690,"å·¡æĬļ":8691,"éŀį":8692,"åıĳè¨Ģäºº":8693,")(":8694,"éĺĢ":8695,"é«ĺæł¡":8696,"ä½ĵæĵį":8697,"éĺ¿å§Ĩ":8698,"æĺŁçļĦ":8699,"ç²¾ç¡®":8700,"åı³ç¿¼":8701,"éĺµäº¡":8702,"èĭį":8703,"éļıæľº":8704,"è¯»èĢħ":8705,"éĽħåħ¸":8706,"ĠPro":8707,"å®ľåħ°":8708,"äºİ188":8709,"Ġ1949å¹´":8710,"Ġä¸ªäººçĶŁæ´»":8711,"oo":8712,"è®¾åľ¨":8713,"æ¶¨":8714,"çķĻåŃ¦":8715,"èĤ¡ä¸ľ":8716,"çļĦæľī":8717,"åīįéĶĭ":8718,"å°Ĩä»ĸ":8719,"è·¯å¾Ħ":8720,"é¦ĸå°Ķ":8721,"åı¤å¸ĮèħĬ":8722,"çİĩåĨĽ":8723,"1963å¹´":8724,"åħįçĸ«":8725,"è¶ĭåĬ¿":8726,"ç©Ĩç½ķé»ĺå¾·":8727,"CN":8728,"çļĦç»ıæµİ":8729,"ä¸ŃåİŁ":8730,"çķı":8731,"åĪĿæŃ¥":8732,"æĴŃåĩºçļĦ":8733,"è´Ńçī©":8734,"æ´ªæ°´":8735,"ç»Łæ²»èĢħ":8736,"å¤©æĸĩåŃ¦å®¶":8737,"çº¦åħĭ":8738,"æıĲæ¡Ī":8739,"æĮĩçļĦæĺ¯":8740,"åĬłåħ¥ä¸ŃåĽ½åħ±äº§åħļ":8741,"ES":8742,"äººä¸İ":8743,"äººæĸĩ":8744,"æĺ¯ä¸ĭè¾ĸçļĦä¸Ģä¸ª":8745,"æĹ¶åĪ»":8746,"å°ıå§Ĳ":8747,"æ°´ä¸Ĭ":8748,"æĦŁæĥħ":8749,"æ²¿çĶ¨":8750,"åĽłæŃ¤åľ¨":8751,"éĤ®å±Ģ":8752,"å§Ĭå¦¹":8753,"ä¸Ģå¼Ģå§ĭ":8754,"åıĳèĤ²":8755,"ãĢĬãĢĭ(":8756,"æľ¬æ¬¡":8757,"åı¯éĿł":8758,"ç¼Ĩ":8759,"æ°´æ·±":8760,"å·´æĸ¯":8761,"æĥħæĦŁ":8762,"å±ĢåĬ¿":8763,"æĬĢå·§":8764,"èĢĥåħ¥":8765,"èį£èİ·":8766,"è®¨ä¼Ĳ":8767,"æĪªæŃ¢":8768,"è¡¨çİ°åĩº":8769,"res":8770,"çļĦç¤¾ä¼ļ":8771,"èĥĢ":8772,"å½ĵä½ľ":8773,"éĢīæĭĶ":8774,"åĸĻ":8775,"è®¤ä¸ºæĺ¯":8776,"ä»ħä»ħ":8777,"å½Ĵç±»":8778,"æĻļéĹ´":8779,"æĭľåįł":8780,"ä¸Ģåı·":8781,"ä¼ļç¤¾":8782,"å¹¶è¡¨ç¤º":8783,"éĿ¢ä¸Ĭ":8784,"é¦ĸæī¹":8785,"ç¦»å©ļ":8786,"åĶ®ç¥¨":8787,"odice":8788,"mm":8789,"ä¸ļä½Ļ":8790,"éĤ¹":8791,"äº¤æĪĺ":8792,"å¤ĦåĨ³":8793,"çļĦä¸Ģæ¬¡":8794,"çħĮ":8795,"æľĢç»Īåľ¨":8796,"èµĭäºĪ":8797,"3Ġ":8798,"çļĦåĪĨ":8799,"åĴı":8800,"å®īå¦®":8801,"åº§åłĤ":8802,"å®¢è½¦":8803,"èŀºæĹĭ":8804,"æĶ¿åįıå§Ķåĳĺ":8805,"éĻ¨çŁ³åĿĳ":8806,"âĦĥ":8807,"åĩºåľŁ":8808,"ä¹ĭä¸Ĭ":8809,"å¤ļä¼¦":8810,"ä½ĵéĩį":8811,"ç¼¸":8812,"åİ¿éķ¿":8813,"åĨ³çŃĸ":8814,"åĽŃåĮº":8815,"ames":8816,"åİ»ä¸ĸåĲİ":8817,"çļĦèº«ä»½":8818,"ä¸įçŁ¥":8819,"ä¸įä½³":8820,"åĨĽæĸ¹":8821,"å¤©åºľ":8822,"æ¬¡åĪĹè½¦":8823,"å¤ªå®Ī":8824,"154":8825,"ä¼¦æĸ¯":8826,"å½±åĵįåĬĽ":8827,"1934å¹´":8828,"çī§å¸Ī":8829,"éĽķåĥı":8830,"æĦıæĢĿæĺ¯":8831,"EST":8832,"çļĦä¸Ĭ":8833,"åŃļ":8834,"åĲİåĽł":8835,"è§ĤéŁ³":8836,"å¤±è¸ª":8837,"æ£®åł¡":8838,"çĨĶ":8839,"åĺīå®¾":8840,"åĲ¦åĪĻ":8841,"åıĳè¡¨äºĨ":8842,"çļĦæ´»åĬ¨":8843,"åľ¨å½ĵæĹ¶":8844,"æĪĺç»©":8845,"å·¥ä½ľäººåĳĺ":8846,"1929å¹´":8847,"èİİçĻ½":8848,"äºĨè¯¥":8849,"çĶµè·¯":8850,"å·´å«©":8851,"ç¦ıå°Ķ":8852,"enter":8853,"éĩĬåĩº":8854,"æ½ľåľ¨":8855,"ä¿ĥä½¿":8856,"æ°ŁåĮĸ":8857,"çļĦåħ¨":8858,"åľ¨ä¸İ":8859,"è§Ħæł¼":8860,"èĭ±åĽ½çļĦ":8861,"çĥŃéĹ¨":8862,"æĬĹæĹ¥æĪĺäºī":8863,"è¢ľ":8864,"å¹¶æľī":8865,"ä¹ĲåĽŃ":8866,"éĴ§":8867,"æĶ¯çº¿":8868,"é¹¦":8869,"æľĢé«ĺæ³ķéĻ¢":8870,"èŁ¹":8871,"Ġæ³ķåĽ½":8872,"ä¸ºåı°æ¹¾":8873,"ä¸ĸçķĮåĲĦåľ°":8874,"å¨ģå°¼æĸ¯":8875,"149":8876,"æľĢé«ĺçĤ¹":8877,"ogle":8878,"ĠåıĤèĢĥ":8879,"åľ¨æ¬§æ´²":8880,"æĭ¯":8881,"èĩªä¸»":8882,"éĽĨç»ĵ":8883,"ä¼łéĢĴ":8884,"è§ģäºİ":8885,"èĪªç«Ļ":8886,"ä¾¦å¯Ł":8887,"èı²åĪ©æĻ®":8888,"èĢĮè¯¥åľ°çļĦå¹³åĿĩæµ·æĭĶé«ĺåº¦ä¸º":8889,"3ç±³":8890,"5åħ¬éĩĮ":8891,"çļĦä¼łç»Ł":8892,"é¢Į":8893,"ä½ĵç§¯":8894,"é¦ĸæŃĮæĽ²":8895,"é»İå·´å«©":8896,"æ¸ħåįİå¤§åŃ¦":8897,"æŃ¤åľ°":8898,"åı¤è¿¹":8899,"ç½®äºİ":8900,"èŃ¦åĳĺ":8901,"æĲľç´¢":8902,"äººå¤§å¸¸å§Ķä¼ļ":8903,"DNA":8904,"çļĦç¬¬ä¸ī":8905,"åı¯æĺ¯":8906,"æĪĺåĽ½":8907,"æį®è¯´":8908,"å¤ªåİŁ":8909,"çłĶåĪ¶":8910,"è§Ĥèµı":8911,"æ¸©æ³ī":8912,"äºĮåįģå¹´":8913,"é¢Ŀå¤ĸ":8914,"æĴ¤ç¦»":8915,"å®Įæķ´çļĦ":8916,"ç²¤è¯Ń":8917,"2ç±³":8918,"åĵº":8919,"ä½Ĩä»į":8920,"ç±»åĪ«":8921,"ç¡ħ":8922,"ç¡¬å¸ģ":8923,"ä»¥3":8924,"å£¬":8925,"éĺŁåıĭ":8926,"äº¤åĵį":8927,"éĽĨä¼ļ":8928,"è§Ĥå¿µ":8929,"éºĵ":8930,"1927å¹´":8931,"æĲŃéħį":8932,"ium":8933,"to":8934,"æĪİ":8935,"è¯¥åºĦ":8936,"é©¬åĬĽ":8937,"æİĴéĻ¤":8938,"æ²¿çº¿":8939,"æĪĲåĬŁçļĦ":8940,"æĺ¯ä¸Ģä¸ªä½įäºİç¾İåĽ½":8941,"åº¸":8942,"å¹³æĪĲ":8943,"ç¥·":8944,"é¦ĸä»»":8945,"æĹĹä¸ĭçļĦ":8946,"Ġ2001å¹´":8947,"1924å¹´":8948,"åı¬éĽĨ":8949,"1912å¹´":8950,"æĢ»åħ±":8951,"æĽ¾æĭħä»»":8952,"å°±åı¯ä»¥":8953,"ä¸ĩå¹´":8954,"è¾ĥå¤§çļĦ":8955,"è¯¥åľ°çļĦéĿ¢ç§¯":8956,"WindowsĠ":8957,"éĴĵé±¼":8958,"ð¬":8959,"æŃ¼":8960,"åĨħäºļ":8961,"æķĻå¾Ĵ":8962,"ä¼łè¾ĵ":8963,"æĳĺ":8964,"çļĨæľªçŁ¥":8965,"èĿĻ":8966,"æııè¿°ä¸º":8967,"å·¡åĽŀèµĽ":8968,"åĴĮäººåı£çļĨæľªçŁ¥":8969,"è¯¥åľ°çļĦéĿ¢ç§¯åĴĮäººåı£çļĨæľªçŁ¥":8970,"æľ¬åľ°åĮº":8971,"ä¹Łç§°":8972,"æ´Ľçī¹":8973,"æĭľåįłåºŃ":8974,"ä¸¢":8975,"ç¬¬10":8976,"å°±ä»»":8977,"åĭĴæĸ¯":8978,"æĶ¿æ²»å®¶":8979,"æĸĩåĮĸå¤§éĿ©åĳ½":8980,"ä¾ĿéĿł":8981,"é¡ºæĹ¶éĴĪ":8982,"æĦıè¯ĨåĪ°":8983,"Windows":8984,"çļĦæ²³æµģ":8985,"åĨ¢":8986,"åĳ½åĲįçļĦ":8987,"åĪĴåħ¥":8988,"æĿ°åĩº":8989,"çŃĸåĪĴ":8990,"èĿĻèĿł":8991,"è´¦":8992,"åĩºæĿ¥çļĦ":8993,"å¼ĢæĴŃ":8994,"ç¾İä¸½":8995,"è¿ĽåĨĽ":8996,"è°ķ":8997,"åĪ¶åĵģ":8998,"å±±åı£":8999,"ç½ĳåıĭ":9000,"æ¨¡ä»¿":9001,"éĺ²åį«":9002,"å©ļç¤¼":9003,"ç´¯ç§¯":9004,"æĹłçº¿çĶµ":9005,"åĲįåı«":9006,"æľ¬æĿ¥":9007,"åĲĪçĲĨ":9008,"ç«Ļèĩ³":9009,"è¯Ħè®ºå®¶":9010,"è¾½å®ģçľģ":9011,"()ãĢģ":9012,"æ°Ľ":9013,"æĹ¥çĽĬ":9014,"æ»ŀ":9015,"å¡ŀæĭľ":9016,"çļĦåħ¶ä»ĸ":9017,"ç§ī":9018,"æĸ¹ç¨ĭå¼ı":9019,"é«ĺå±±":9020,"ç½Ĺä¼¯":9021,"åĥļ":9022,"Ġ2000å¹´":9023,"åħ¬åĬ¡åĳĺ":9024,"iĠ":9025,"åĪĨä¹ĭ":9026,"æŃ£æĺ¯":9027,"é»ı":9028,"åĽĽäºº":9029,"åıĤè§ģ":9030,"orl":9031,"æ²Ļæ¼ł":9032,"å¤ıå¨ģ":9033,"å¯ºéĻ¢":9034,"è®¯æģ¯":9035,"ool":9036,"Ġåħ¨":9037,"æĪĲçļĦ":9038,"æ±¶":9039,"æĪĺä¸Ń":9040,"éĵĿ":9041,"åĶĩ":9042,"åıįæĬĹ":9043,"é¦Ļæ¸¯çļĦ":9044,"æĸĩåĮĸéģĹäº§":9045,"å¼Ĺåħ°":9046,"èĢ¶å°Ķ":9047,"è¡Ģæ¶²":9048,"åŁºæľ¬ä¸Ĭ":9049,"900":9050,"å¾·ç½Ĺ":9051,"ãĢį)":9052,"ä½ĵåŀĭ":9053,"æĮĩä»¤":9054,"çĻ½ä¿Ħç½Ĺæĸ¯":9055,"éħįä¹Ĳ":9056,"ä¼ĳæģ¯":9057,"æ¯«æĹł":9058,"çº½çº¦å¸Ĥ":9059,"CC":9060,"éķ¶":9061,"åįİä¸º":9062,"æĿĥå¨ģ":9063,"ç¼ĸåĪ¶":9064,"åħ´èµ·":9065,"çľŁäºº":9066,"åĮħåĲ«äºĨ":9067,"äº¤æĺĵæīĢ":9068,"Ġä¸ľ":9069,"çļĦçĽ®æłĩ":9070,"è¡Įè½¦":9071,"ä¹ĭæĹ¶":9072,"å¹¶èİ·å¾Ĺ":9073,"åłµ":9074,"ç¬¬ä¸ĢçĻ¾":9075,"äºĪä»¥":9076,"çļĦå¯¹":9077,"ä¸įåıĹ":9078,"ä¿±":9079,"åĬ¨å·¥":9080,"è¿Ĳç®Ĺ":9081,"è¯Ńä¸Ń":9082,"ä¹īåĬ¡":9083,"åĬ©äºİ":9084,"çİ¯ä¿Ŀ":9085,"çģŃäº¡":9086,"å¹»æĥ³":9087,"Ġè½¦ç«Ļç»ĵæŀĦ":9088,"AD":9089,"çļĦæīĭ":9090,"åĴĮç¾İåĽ½":9091,"èĩ³æŃ¤":9092,"åı°ä¸ľ":9093,"èĥ½åľ¨":9094,"æķ°åįĥ":9095,"æĢ»æĺ¯":9096,"èĭ±è¶ħ":9097,"å½±è¯Ħ":9098,"å¥³ç¥ŀ":9099,"æĿ¡çĽ®":9100,"æĹ¶éĹ´çļĦ":9101,"æİ¢è®¨":9102,"éļĶå¹´":9103,"Ġ17":9104,"çļĦè¥¿":9105,"çļĦå»ºçŃĳ":9106,"åĵŃ":9107,"åħ°åį¡":9108,"è¯´æľį":9109,"åĳ¨æľ«":9110,"è§ģåĪ°":9111,"åī¯æĢ»ç»Ł":9112,"æ¾İ":9113,"åħ¸åŀĭçļĦ":9114,"24å°ıæĹ¶":9115,"åıĹå®³èĢħ":9116,"AV":9117,"çļĦåĲĮæĹ¶":9118,"çİ°å·²":9119,"ä½ĵçİ°":9120,"æĭīå¾·":9121,"å¸ĥå±Ģ":9122,"è¯ŃåĴĮ":9123,"åĽ½å®¶å®īåħ¨":9124,"æķ´çĲĨ":9125,"éĿĴæµ·":9126,"è´¹å°Ķ":9127,"æł¼åħ°çī¹":9128,"çīĪæľ¬çļĦ":9129,"è·ĳéģĵ":9130,"PlayStation":9131,"ĠæĹ©æľŁ":9132,"åľ°åĿĢ":9133,"çĶ±æĿ¥":9134,"ä¸ĭæ¸¸":9135,"éĩĮéĿ¢":9136,"éĽĨçļĦ":9137,"ä¸ĵåĪ©":9138,"æīĵè´¥":9139,"å§Ķåĳĺä¼ļçļĦ":9140,"çīĻé½¿":9141,"åĨ°å·Ŀ":9142,"å®ļä¹īä¸º":9143,"åŁºçĿ£å¾Ĵ":9144,"æ¸ħæľĿæĶ¿æ²»äººçī©":9145,"åįģåħ«å¹´":9146,"ä¸Ģä»½":9147,"æľºåĬ¨":9148,"å¸Īéķ¿":9149,"ç»Īèº«":9150,"çģµæĦŁ":9151,"ç¾İæľ¯é¦Ĩ":9152,"ight":9153,"Ġh":9154,"ç¬¬åįģäºĮ":9155,"åĵ©":9156,"æĿ¥çľĭ":9157,"åĪ¶è£ģ":9158,"è¿ĳå¹³":9159,"æ±īåł¡":9160,"çľĭæ³ķ":9161,"éĿ©åĳ½åĨĽ":9162,"ä¾µçĬ¯":9163,"åĲĵ":9164,"åľ¨åīį":9165,"å¹¶æĪĲä¸º":9166,"éĵħ":9167,"æīĵéĢł":9168,"è´Ŀæł¼":9169,"ish":9170,"åıĭè°Ĭ":9171,"å¯ºåºĻ":9172,"åĪĽä½ľçļĦ":9173,"åĪłéĻ¤":9174,"ä»ĸä»¥":9175,"èĥĥ":9176,"ä¸īçº§":9177,"å¤©æĸĩåŃ¦":9178,"åıĺæĽ´":9179,"çĪ±å¥½":9180,"æ¦´":9181,"112":9182,"Ġé»Ħ":9183,"ä¸ºå¤§":9184,"ä¸ºè¯¥":9185,"æ¬¡åŃĲ":9186,"åĽ¾å½¢":9187,"æŃĮåī§":9188,"åŁİå¸ĤçļĦ":9189,"å®£å¸ĥå°Ĩ":9190,"èĭ¥å¹²":9191,"ung":9192,"åľ°åŁŁ":9193,"åĲįé¢Ŀ":9194,"ç¬¬8":9195,"èĢĮéĹ»åĲį":9196,"çĭĲ":9197,"çŁŃçīĩ":9198,"å¹¶ä¸įæĺ¯":9199,"åĿĲæłĩ":9200,"æĦıåĳ³çĿĢ":9201,"åģľè½¦åľº":9202,"ĠæŃ£":9203,"çļĦåľŁåľ°":9204,"çīº":9205,"åĨĽå§Ķ":9206,"æĢ»åı¸ä»¤":9207,"åĪĻä»¥":9208,"åĿĩåľ¨":9209,"è¡ĮæĶ¿åįķä½į":9210,"åĨ³èµĽä¸Ń":9211,"çļĦå¤ļ":9212,"ä¸ºé£Ł":9213,"ä¸ĢæĹ¦":9214,"å¹³å®ī":9215,"æ¢Ń":9216,"å¼Ģå§ĭäºĨ":9217,"åľŁå£¤":9218,"é¡ºæ²»":9219,"æį·è¿Ĳ":9220,"èĪªç«Ļæ¥¼":9221,"å¤ıå¨ģå¤·":9222,"Ġå°ı":9223,"æĪļ":9224,"çĻ¸":9225,"å°±åĥı":9226,"éŁ³èĬĤ":9227,"æ´»æĢ§":9228,"ä¸ĵåĳĺ":9229,"ãĢīãĢģ":9230,"ç½ķè§ģ":9231,"åĲīæŀĹçľģ":9232,"Net":9233,"çļĦéĿŀ":9234,"çļĦæľºä¼ļ":9235,"èĤ¾":9236,"ä¾¿æĺ¯":9237,"éĺµèĲ¥":9238,"å´ĩæĭľ":9239,"ç¿ĮæĹ¥":9240,"06":9241,"çļĦåĨĽäºĭ":9242,"ç¬¬7":9243,"æ±Łè¥¿çľģ":9244,"æĽ¼èģĶ":9245,"ä¹łè¿ĳå¹³":9246,"æĻļå¹´":9247,"åŃĺåľ¨äºİ":9248,"èĩĢé³į":9249,".&":9250,"åĨĽèĪ°":9251,"éĩĮæĺĤ":9252,"å·ŀè´Łè´£ç®¡è¾ĸ":9253,"éĢłèĪ¹":9254,"çĳļ":9255,"èĲ½åĲİ":9256,"æĺ¯ä½įäºİä¹Įåħĭåħ°":9257,"çº½çº¦å·ŀ":9258,"è·¨è¶Ĭ":9259,"æ¢¦æĥ³":9260,"09":9261,"Ġåį¡":9262,"éĥ½åı¯ä»¥":9263,"éĶ¥":9264,"ç¼ĸåħ¥":9265,"è½¬ä¹ĺ":9266,"èĲ½è´¥":9267,"æĻ¶ä½ĵ":9268,"éĩįçĤ¹æĸĩçī©ä¿ĿæĬ¤åįķä½į":9269,"uk":9270,"éĩĳéĹ¨":9271,"çĶ·ä¸»è§Ĵ":9272,"çªĳ":9273,"çģ«åĬĽ":9274,"äº«æľī":9275,"ula":9276,"åĲįç§°ä¸º":9277,"åĳ¨æģ©":9278,"ä¸ĸçķĮéģĹäº§":9279,"ä¼¯åĪ©äºļ":9280,"èĪªè¡Į":9281,"å·¡æ¼Ķ":9282,"è¡¥ç»Ļ":9283,"æŁĲç§į":9284,"Ġæł¹æį®2010å¹´ç¾İåĽ½äººåı£æĻ®æŁ¥çļĦæķ°æį®":9285,"éŀŃ":9286,"IST":9287,"åĴĮç¤¾ä¼ļ":9288,"æľ¬è´¨":9289,"ç«ĭå§Ķ":9290,"ä½ĨæľĢç»Ī":9291,"è¯Ħå®¡":9292,"é¢ĳç¹ģ":9293,"6ç±³":9294,"ãĢĬãĢĭ,":9295,"èĭ±å¯¸":9296,"åı«åģļ":9297,"çīºçī²":9298,"Sc":9299,"ile":9300,"ieĠ":9301,"sk":9302,"åį¯":9303,"è¡ĮæĶ¿éķ¿å®ĺ":9304,"å¹¿å·ŀå¸Ĥ":9305,"ive":9306,"æĺĨèĻ«":9307,"ola":9308,"ä¸ŃçŃī":9309,"æ³ķåĨĽ":9310,"å¹³å®ļ":9311,"æ°´åĪ©":9312,"å®Įç¾İ":9313,"èĲ¥åħ»":9314,"åŃ¦åłĤ":9315,"æķ°ä¸ª":9316,"æĶ¹ç»Ħ":9317,"åŃ£èĬĤ":9318,"æ¹ĸå¹¿":9319,"åľ¨è¿ĻéĩĮ":9320,"pen":9321,"1918å¹´":9322,"æĸ¯åľ¨":9323,"è¢«æĿĢ":9324,"ä¸Ģä¸ªæľĪ":9325,"æĥĳ":9326,"äº¤ä»ĺ":9327,"å½°åĮĸ":9328,"ä¸įä½Ĩ":9329,"æľ¬åĲį":9330,"éĩĮå¥¥":9331,"ç«ĭä½ĵ":9332,"çķ´":9333,"åį³ä¸º":9334,"èģĮè´£":9335,"å¾ĢæĿ¥":9336,"åı°æ¹¾çļĦ":9337,"1970å¹´ä»£":9338,"å¹¿æ³ĽçļĦ":9339,"ĠEn":9340,"å°¼æ³Ĭå°Ķ":9341,"ayĠ":9342,"çļĦè¡¨çİ°":9343,"ä¸Ģè·¯":9344,"æ¸Ĺ":9345,"å®¶å±ŀ":9346,"æĪĺè´¥":9347,"ç¦¹":9348,"å½±å±ķ":9349,"æıĲçĲ´":9350,"é£İæĻ¯":9351,"åħīåŃ¦":9352,"åıĪåľ¨":9353,"æĹ§éĩĳå±±":9354,"éĢĥç¦»":9355,"åĲ¬åĪ°":9356,"çĪĨåıĳåĲİ":9357,"æĶ¶è§Ĩçİĩ":9358,"ä¸īä½į":9359,"é©¬æģ©çľģ":9360,"çĲĥè¿ĲåĬ¨åĳĺ":9361,"éĻ¢æł¡":9362,"é¾Ļç§ĳ":9363,"ä¸ĸçºªçļĦ":9364,"è¡¥åĬ©":9365,"èµ¤çº¬":9366,"ä¸Ģåħ±":9367,"127":9368,"å¥¹ä¸İ":9369,"å¸¦æĿ¥çļĦ":9370,"ç½ĳæ°ĳ":9371,"æĸĩåĮĸçļĦ":9372,"æľĢåĲİä¸Ģæ¬¡":9373,"å±ıä¸ľ":9374,"æĵħéķ¿":9375,"3åĲį":9376,"Ġ14":9377,"éĺĲ":9378,"è¿Ļä½į":9379,"æĢ»ä½ĵ":9380,"äº¦ä¸º":9381,"çİ¯ç»ķ":9382,"æľīçº¿":9383,"æĸ¯åĴĮ":9384,"å¹¶åĲĳ":9385,"å°±è¢«":9386,"ann":9387,"å¤ıå¤©":9388,"åĨľåİĨ":9389,"ç´¢æģ©":9390,"é¢ģå¥ĸåħ¸ç¤¼":9391,"ç»´åŁºçĻ¾ç§ĳ":9392,"ä¸»äºº":9393,"ä»»ä¸Ńåħ±":9394,"è¿Ľå±ķ":9395,"å¯ĨèĭıéĩĮ":9396,"çĻ½äºº":9397,"è¯ºè´Ŀå°Ķ":9398,"éĺ¿å°Ķå·´":9399,"ä¹ĭåīįçļĦ":9400,"ä¿ĺèĻı":9401,"æ¯ĹéĤ»":9402,"ä¸Ĭå°Ĩ":9403,"æĸ°åı°å¸ģ":9404,"æ¹Ľ":9405,"è®®éķ¿":9406,"æ·Ģ":9407,"æĶ»åħ¥":9408,"æĻºåĪ©":9409,"éĽ¶åĶ®":9410,"èĳ£äºĭä¼ļ":9411,"éĽįæŃ£":9412,"IA":9413,"Ġæ²¿éĿ©":9414,"å¤§å¸Ŀ":9415,"åĴĮ1":9416,"åħ¶åŃĲ":9417,"å·ŀçļĦä¸Ģä¸ªå¸Ĥéķĩ":9418,"åİ¿æ²»":9419,"å¸¸ä½ı":9420,"æĻ®æŀĹ":9421,"è½¬åŀĭ":9422,"ç¦ıçī¹":9423,"çģ«çĤ®":9424,"è´ŁéĿ¢":9425,"åĢĻè½¦":9426,"ass":9427,"æīĢè°ĵçļĦ":9428,"è¿½æº¯åĪ°":9429,"ä¸Ģèĩ³":9430,"æĺ¯æľī":9431,"çī¢":9432,"åħ¶ä¸ŃçļĦ":9433,"ç¬¬11":9434,"åĲĮå¿Ĺ":9435,"äºļç§ĳ":9436,"æĽ´æĶ¹":9437,"æĽ´å¤§çļĦ":9438,"ä¿¡çĶ¨":9439,"æĭħå½ĵ":9440,"æī§æ³ķ":9441,"ä¹ĺè½¦":9442,"çĭ®åŃĲ":9443,"GB":9444,"æĸ°åŁİ":9445,"èī°":9446,"æĢ»ä¹¦è®°":9447,"è§ĨæĺŁçŃīä¸º":9448,"é¥²":9449,"ä¹Įé²ģ":9450,"æł¹æį®2020å¹´ç¾İåĽ½äººåı£æĻ®æŁ¥çļĦæķ°æį®":9451,"ath":9452,"äºİ2004å¹´":9453,"ç«ĭæ³ķå§Ķåĳĺ":9454,"æĺİæĺ¾çļĦ":9455,"é«ĺéĽĦå¸Ĥ":9456,"æ¨¡çī¹åĦ¿":9457,"2ä¾ĭ":9458,"CH":9459,"ĠY":9460,"çļĦæľĢé«ĺ":9461,"åĮ¿":9462,"ä¸ŃæĹ¬":9463,"åĩ°":9464,"ä¸ĭåįĬ":9465,"åħ±è¯Ĩ":9466,"æĻĭåįĩ":9467,"èĴ¸æ±½":9468,"%;":9469,"Lin":9470,"105":9471,"æĻ®åıĬ":9472,"èİ±æĺĤ":9473,"30åĪĨ":9474,"æľĢåĲİçļĦ":9475,"æĪĺäºīçļĦ":9476,"1914å¹´":9477,"åĭĩå£«":9478,"èµĶåģ¿":9479,"08":9480,"äºİ2025å¹´":9481,"æľīäºĨ":9482,"æľīå¤ļ":9483,"æİ·":9484,"å¾·åĪ©":9485,"è½¦éģĵ":9486,"éħ¬":9487,"éª¸":9488,"å±Ģéĥ¨":9489,"åı°æ¹¾çľģ":9490,"153":9491,"å®«å»·":9492,"ç§ģç«ĭ":9493,"è¯¢éĹ®":9494,"æĪĺåĪĹèĪ°":9495,"wit":9496,"æĺ¯æľĢ":9497,"çī¹éĽ·":9498,"éĩįä¿®":9499,"çīĪæĿĥ":9500,"åľ£è¯ŀ":9501,"é¢Ħå®ļ":9502,"èĪªç©ºæ¯įèĪ°":9503,"own":9504,"èªīä¸º":9505,"æĹ¥æ²»æĹ¶æľŁ":9506,"çļĦåĮºåŁŁ":9507,"äººçĶŁ":9508,"è¾£":9509,"éª¤":9510,"æĶ¯çĲĥéĺŁ":9511,"ĠSh":9512,"BBC":9513,"ĠaĠ":9514,"çļĦæłĩåĩĨ":9515,"åĪĨç»Ħ":9516,"å½±ä¸ļ":9517,"çĽ´è¾ĸ":9518,"çĵ£":9519,"å·¦æ´¾":9520,"å°ģéĿ¢":9521,"åıĳè¡ĮäºĨ":9522,"è¯¸å¤ļ":9523,"æĭĽåĭŁ":9524,"åħ¬å¸ĥä¸º":9525,"å¤§å°ĨåĨĽ":9526,"æĸ¯å¤§":9527,"çľī":9528,"æ±ķ":9529,"æµ·åħ³":9530,"éģĵæŃī":9531,"éľĸ":9532,"ä¼Ĺäºº":9533,"åĶ±çīĩåħ¬åı¸":9534,"å±Ĭåħ¨åĽ½äººæ°ĳä»£è¡¨å¤§ä¼ļ":9535,"af":9536,"Ð°":9537,"è¿Ħ":9538,"çºĤ":9539,"å¤§åŁĶ":9540,"åī¿":9541,"ä½ľçī©":9542,"è¢«éĢīä¸º":9543,"ert":9544,"çļĦä¸Ģé¡¹":9545,"å¤įæ´»":9546,"çĽĳåĪ¶":9547,"æĭīçļĦ":9548,"åī§ä¸Ń":9549,"æ¡Īä¾ĭ":9550,"æĽ¿æį¢":9551,"æģ¶åĮĸ":9552,"Ġ189":9553,"è¿ĳå¹´æĿ¥":9554,"02":9555,"çļĦè¦ģæ±Ĥ":9556,"ä¸Ģæĸ¹":9557,"çľģéķ¿":9558,"æŁ¬":9559,"å¨¥":9560,"äº¤çĶ±":9561,"å·²åľ¨":9562,"æĻ®äº¬":9563,"åĨ³äºİ":9564,"çĭ¬çī¹":9565,"èĪ¹åĳĺ":9566,"å¹¿æĴŃåħ¬åı¸":9567,"åĬłåĭĴæ¯Ķ":9568,"äººæ°Ķ":9569,"çīŁ":9570,"ä¾Ħ":9571,"ä¸¤åº§":9572,"çĶ²æĿ¿":9573,"ä¹łä¿Ĺ":9574,"Ġå¼ł":9575,"çļĦåĽĽ":9576,"å¯¡":9577,"ä¸Ĭä»»":9578,"åĽłåŃĲ":9579,"ç½Ĺå§Ĩ":9580,"åĪĿçº§":9581,"æ²Ļçī¹":9582,"æļ´åĬ¨":9583,"è½¯æĿ¡":9584,"çģ¾éļ¾":9585,"07":9586,"Ġä¹Įåħĭåħ°":9587,"çļĦåŃĺåľ¨":9588,"ä¸įè¯¦":9589,"æĭīå¤ļ":9590,"ä½Ĩåį´":9591,"å±ķåĩº":9592,"å¼ŁåŃĲ":9593,"è£ģå®ļ":9594,"æģĲæĥ§":9595,"ç¨ĭåº¦ä¸Ĭ":9596,"æµģåŁŁéĿ¢ç§¯":9597,"æľĢè¿ĳçļĦ":9598,"åı¤èĢģçļĦ":9599,"å¾·å·Ŀ":9600,"æ¯ıå°ıæĹ¶":9601,"é¢Ħéĺ²":9602,"èĪĨè®º":9603,"æĭ¯æķĳ":9604,"çļĦåıĮ":9605,"åĽ½ä¼ļè®®åĳĺ":9606,"æ³ķå°Ķ":9607,"é©°":9608,"æ²»å®ī":9609,"att":9610,"æŃ¢äºİ":9611,"è¾©è®º":9612,"èµ¦":9613,"æĹ¥è®°":9614,"åħĭåĬ³":9615,"å®īç½®":9616,"åį¡çī¹":9617,"åıįå°Ħ":9618,"åĲĦé¡¹":9619,"äºīè®º":9620,"çĽĳç®¡":9621,"é¹ī":9622,"åĸľçĪ±":9623,"çļĦéĩĳ":9624,"çļĦç»Ŀå¯¹":9625,"åĽ½åħ±":9626,"éĺ¿å¸ĥ":9627,"çĭ©":9628,"è½¬æĴŃ":9629,"136":9630,"è¡Ģç»Ł":9631,"è®¯åı·":9632,"çĶµåŃĲæ¸¸æĪı":9633,"æİ¨åĩºäºĨ":9634,"æĹ¶å¸¸":9635,"åĬłé¾Ļ":9636,"åīįæĸ¹":9637,"æľŁæľĽ":9638,"åĪĹå®ģ":9639,"æ¸ħçľŁ":9640,"åĬŁçİĩ":9641,"å·®è·Ŀ":9642,"é«ĺå³°":9643,"æŃ£è§Ħ":9644,"çŁ³åĻ¨":9645,"èĮ¨åħĭ":9646,"col":9647,"åįĹå®ĭ":9648,"æµ·æ°´":9649,"éħ°":9650,"æ¯ıä¸Ģ":9651,"ç§ĭåŃ£":9652,"èµ¤ç»ı":9653,"ç¼ĵæħ¢":9654,"Google":9655,"åĵºä¹³":9656,"3000":9657,"ä¹ĭå¥³":9658,"æ±ģ":9659,"å¤ļå¤«":9660,"è¯¥ç»Ħç»ĩ":9661,"ç³»çļĦ":9662,"éĥ½æ²¡æľī":9663,"åĮħæĭ¬äºĨ":9664,"å¾Īéļ¾":9665,"æ·±åĪ»":9666,"æŀģå¤§":9667,"å¹²é¢Ħ":9668,"é©»æīİ":9669,"è¿ģå¾Ģ":9670,"æİ¥åıĹäºĨ":9671,"æ½ľæ°´":9672,"ĠåĪĨç±»":9673,"ä½ľçļĦ":9674,"èĥ°":9675,"å¹³è¡Į":9676,"äºļå½ĵ":9677,"æ·³":9678,"æĹıèĩªæ²»":9679,"çĭ¬èĩª":9680,"å£°ä¼ĺ":9681,"è¡Ĺå¤´":9682,"è¿ľä¸ľ":9683,"å¹´è½»çļĦ":9684,"åı°åįĹå¸Ĥ":9685,"æĸ¯éĩĮåħ°åį¡":9686,"IG":9687,"ĠåĽ½éĻħ":9688,"æľīåĪ©":9689,"æĸ¯åĽ¾":9690,"æĸ¹å½¢":9691,"éĩĮç¨ĭ":9692,"åĮĹçº¦":9693,"è½¦æīĭ":9694,"è½¦åŀĭ":9695,"ä¸ĸçļĦ":9696,"æł¡åıĭ":9697,"æ»´":9698,"æ´Ľéĺ³":9699,"é©»åľ°":9700,"æľĢåĪĿçļĦ":9701,"åıĤèµĽèµĦæł¼":9702,"çļĦåīįèº«":9703,"Ġå®ĥ":9704,"åĴĮä¸Ń":9705,"åİ¿æĶ¿åºľ":9706,"æ²»çĲĨ":9707,"å¹¿ä¹ī":9708,"äººæ°ĳæ³ķéĻ¢":9709,"å¨ģå°Ķæĸ¯":9710,"å¤įåĲĪ":9711,"çİĩåħĪ":9712,"ä»ªåĻ¨":9713,"åīĳæ¡¥":9714,"èµ·æºĲäºİ":9715,"èħĵçī¹":9716,"åĲİåį«":9717,"æ³ķå®ļ":9718,"å®ļå¾ĭ":9719,"æĶ¹çĶ±":9720,"æĶ¯éĺŁ":9721,"ä¸ĵæ¡Ī":9722,"åĻ¨å®ĺ":9723,"åŃĻä¸Ńå±±":9724,"æ£ĢéªĮ":9725,"å¤ĦçĲĨåĻ¨":9726,"åĲĹ":9727,"æĪĲåĮĸ":9728,"åħĭåĪ©":9729,"åĨħçĳŀ":9730,"çĶµä¿¡":9731,"åħ±äº«":9732,"å¢ħ":9733,"æĽ¾æľī":9734,"åĽ¢çļĦ":9735,"åĲĦå¤§":9736,"æīĵè¿Ľ":9737,"é»Ħæ²³":9738,"æĤŁ":9739,"é¢ĦæľŁ":9740,"å¹²æī°":9741,"èĳ¬äºİ":9742,"ç½¢å·¥":9743,"And":9744,"è½¬ç§»åĪ°":9745,"ä¿Ħäº¥ä¿Ħå·ŀ":9746,"CR":9747,"lo":9748,"å¤§æŃ£":9749,"åįĹæĺĮ":9750,"å·´é©¬":9751,"å¤§åŃ¦æķĻæİĪ":9752,"æĶ¾ç½®":9753,"æ¤Ĵ":9754,"è¿ľå¾ģ":9755,"ç³»åĪĹçļĦ":9756,"å¤ºåĨł":9757,"æĪĳä»¬çļĦ":9758,"å¹¿æĴŃçĶµåı°":9759,"çļĦçī¹å¾ģ":9760,"ä½Ľç½ĹéĩĮè¾¾å·ŀ":9761,"èħĵçī¹çĥĪ":9762,"toĠ":9763,"å¤§åİħ":9764,"ä¸Ĭçº¿":9765,"è¢«æĮĩ":9766,"åħĭé²ģ":9767,"èµĽèīĩ":9768,"æķ°åĢ¼":9769,"å§ĶåĨħçĳŀ":9770,"åĳ½è¿Ĳ":9771,"æĹ¶éĹ´ä¸º":9772,"åħ¸åŀĭ":9773,"ç®ĢåĮĸ":9774,"çĽĨåľ°":9775,"åĳĺå¤ĸéĥİ":9776,"ä½Ĩæĺ¯åľ¨":9777,"ä½¿èĢħ":9778,"åįģä¸ĥå¹´":9779,"å®īåİ¿":9780,"éĤ¸":9781,"èĬ±èİ²":9782,"å¯Įå£«":9783,"ä»ĭçŁ³":9784,"åĭĥèī®":9785,"å¤ļä¼¦å¤ļ":9786,"æŀ«":9787,"ä½ľè¯į":9788,"æīĢå¾Ĺ":9789,"çº¦2":9790,"å°¼æĹ¥":9791,"åį³æĹ¶":9792,"æ¸ħæ°´":9793,"çĩ¥":9794,"æĭĺæįķ":9795,".\"":9796,"Ġfor":9797,"ä¸ĭæĹ¬":9798,"æĸ°ä¸Ģ":9799,"ä¸ľè·¯":9800,"å§Ķå¸¸å§Ķ":9801,"åİĤåķĨ":9802,"èįīæ¡Ī":9803,"äºİ2000å¹´":9804,"IL":9805,"ä¸įèī¯":9806,"æĢ»è®¡":9807,"ç¥ŀçĪ¶":9808,"ç»ĩçĶ°":9809,"ç¹ģå¿Ļ":9810,"ä½įäºİè¯¥åĽ½è¥¿éĥ¨":9811,"æµĵåº¦":9812,"é¹¦é¹ī":9813,"ä¹Ĵ":9814,"ç½Ĳ":9815,"äºĮå±Ĥ":9816,"éħ±":9817,"éħµ":9818,"åĽŀå®¶":9819,"ç²¾èĭ±":9820,"ä¾µçķ¥":9821,"å§Ĳå¦¹":9822,"èħĲè´¥":9823,"åĽļçĬ¯":9824,"Ġäºīè®®":9825,"çļĦåĨħ":9826,"è½¬èĢĮ":9827,"åĲīä»ĸ":9828,"å¾Īå¤§çļĦ":9829,"ç§»æ¤į":9830,"æľ«å¹´":9831,"èįīåİŁ":9832,"å«¡":9833,"åĪĬçĻ»":9834,"åı¸ä»¤åĳĺ":9835,"çİ°æĹ¶çĶ±":9836,"æĸ°åĮĹå¸Ĥ":9837,"Ã¡":9838,"ç»ħ":9839,"ä¼ļéĿ¢":9840,"åįĹç«¯":9841,"è½¦çļĦ":9842,"å½ĵæĻļ":9843,"åľºåĲĪ":9844,"å°±ä¸ļ":9845,"æĮĩæłĩ":9846,"å¥ĸåĬ±":9847,"ç»§ä½į":9848,"çıĬçĳļ":9849,"æĦ¤æĢĴ":9850,"03":9851,"1919å¹´":9852,"åĬ¨è¯į":9853,"ç«ĭæ³ķéĻ¢":9854,"èĲ¤":9855,"ineĠ":9856,"æķħæĦı":9857,"ä¸ĸçºªåĪĿ":9858,"äºİ2003å¹´":9859,"è¯ĹæŃĮ":9860,"åĩ¤åĩ°":9861,"åĢºåĬ¡":9862,"éĻįéĽ¨éĩı":9863,"è½¦èº«":9864,"åıĸåĨ³äºİ":9865,"åĸĬ":9866,"æĶ¿æ²»å±Ģ":9867,"é¥±":9868,"çĽĳç¦ģ":9869,"è¡Ģç®¡":9870,"ç®ĢåįķçļĦ":9871,"04":9872,"1åĲį":9873,"ĠéŁ³ä¹Ĳ":9874,"ĠåĪĨå¸ĥ":9875,"ä»ĸæĪĲä¸º":9876,"åħ¬å¹³":9877,"åıĳçļĦ":9878,"åĮĹéŃı":9879,"éĩįçļĦ":9880,"ç»Īç»ĵ":9881,"åĪ¶éĢłåķĨ":9882,"åİŁåĽłæĺ¯":9883,"èĴĭä»ĭçŁ³":9884,"è´«åĽ°":9885,"åĲıéĥ¨":9886,"ux":9887,"æĶ¿å§Ķ":9888,"åĬłçĥŃ":9889,"ä¹Łåı¯èĥ½":9890,"æķ°ä¸º":9891,"åİŁæĿ¥çļĦ":9892,"ä½įäºİéĵ¶":9893,"çŃ¾è¯ģ":9894,"illi":9895,"æĮĩæĮ¥éĥ¨":9896,"çļĦç¬¬ä¸Ģä¸ª":9897,"tor":9898,"å¯¹ä»ĸ":9899,"åı£åı·":9900,"æĪĸåħ¶ä»ĸ":9901,"åĪĻè¢«":9902,"æµģäº¡":9903,"ateĠ":9904,"åĶĲä»£":9905,"SAO":9906,"åį¸ä»»":9907,"æ³ķè§Ħ":9908,"æľĢæľī":9909,"æµ·çĽĹ":9910,"æľºç»Ħ":9911,"æĬ¤çħ§":9912,"åįĬå¾Ħ":9913,"æĳ©æīĺ":9914,"æįŁå®³":9915,"æ°ĳæĹıä¸»ä¹ī":9916,"æµªæ¼«":9917,"åŃ¦å£«åŃ¦ä½į":9918,"SO":9919,"äººä½ĵ":9920,"åŃ¦åĳĺ":9921,"è¯¥å¹´":9922,"é¦ĸæĺł":9923,"åĭī":9924,"ina":9925,"å¼¹åĬ¾":9926,"æ¸Ĳæ¸Ĳ":9927,"åĪĳéĥ¨":9928,"å¤§å¥ĸèµĽ":9929,"8ç±³":9930,"ä¸ºæĹ¥æľ¬":9931,"æĹ¥çļĦ":9932,"æ³Į":9933,"ä¸Ĭä¸Ģ":9934,"æ°ĳåħļ":9935,"å¯¹æ¯Ķ":9936,"åħĭæĭīåħĭ":9937,"å¤ļæĸ¯":9938,"çº§è¡ĮæĶ¿åįķä½į":9939,"åĩłåĨħäºļ":9940,"1926å¹´":9941,"çļĦçī¹æľī":9942,"åĤ¬åĮĸ":9943,"çļĦæ¶Īæģ¯":9944,"åľ¨å½ĵåľ°":9945,"åľ¨ä¸ŃåĽ½å¤§éĻĨ":9946,"ä¼ļå¯¼èĩ´":9947,"ä»£è°¢":9948,"10ä¸ª":9949,"è¶ħäºº":9950,"çīĽæ´¥":9951,"ç»ĺåĪ¶":9952,"ç¹ģèį£":9953,"å¼ĺæ²»":9954,"Le":9955,"æĽ¾äºİ":9956,"å¡ĶåŁº":9957,"å·¥ä½ľèĢħ":9958,"çħ®":9959,"ical":9960,"åŃ¦æł¡çļĦ":9961,"åİ¿çļĦéĿŀå»ºåĪ¶åľ°åĮº":9962,"é¢Ĩäºĭé¦Ĩ":9963,"è¤Ĵ":9964,"ä¸İå¤§":9965,"ç¬ĥ":9966,"ä¸ĭåĪĹ":9967,"å®īæīĵ":9968,"å¸¦èĳĹ":9969,"å»ºçŃĳéĿ¢ç§¯":9970,"1925å¹´":9971,"æ¦ľåįķ":9972,"ç¯ĩå°ıè¯´":9973,"åĮĸåŃ¦å¼ı":9974,"å¤±åİ»äºĨ":9975,"span":9976,"Î²":9977,"æĺ¯åį°åº¦":9978,"éĹµ":9979,"ä¹Łèĥ½":9980,"åŁİéĻħ":9981,"åįİä¸ľ":9982,"æł·æľ¬":9983,"åłĤåĮº":9984,"åħ¨åĽ½éĩįçĤ¹æĸĩçī©ä¿ĿæĬ¤åįķä½į":9985,"å¯¼èĩ´äºĨ":9986,"ä»ĺè´¹":9987,"æĲŃæ¡£":9988,"ç»§æī¿äºº":9989,"åŃ£åĲİèµĽ":9990,"é¡ºæĹ¶éĴĪä¸İ":9991,"Qu":9992,"åĩ»éĢĢ":9993,"æĶ¿æ²»éĥ¨":9994,"éª¨éª":9995,"4ç±³":9996,"å²ĳ":9997,"åĪ¶å¤ĩ":9998,"çłį":9999,"èī²æĥħ":10000,"å¥¥åı¤":10001,"æĶ¯æĴĳ":10002,"æİ¨çĲĨ":10003,"æĵ¢":10004,"äºİ2002å¹´":10005,"åĴĴ":10006,"ä»£æķ°":10007,"éģĵå¤«":10008,"åĲĦçº§":10009,"äº¦åı¯":10010,"å®«æ®¿":10011,"åıĳå¸ĥçļĦ":10012,"æľīåħ³çļĦ":10013,"1909å¹´":10014,"è¶ħçº§èģĶèµĽ":10015,"ck":10016,"çĲĥæ¯ĶèµĽ":10017,"ä½Ĩæ²¡æľī":10018,"æŃ£ç»Ł":10019,"èį«":10020,"åºĶå½ĵ":10021,"orn":10022,"çº³çľģ":10023,"åĽ½å®¶è¶³çĲĥéĺŁ":10024,"one":10025,"åı¯ä»¥çĶ¨":10026,"çĳ¶":10027,"çĶµå½±çļĦ":10028,"åĶĲçº³":10029,"æŁĲä¸ª":10030,"æļĹç¤º":10031,"åĭĥèī®ç¬¬":10032,"ma":10033,"åĽ½å¤ĸ":10034,"èĢĮåĲİ":10035,"ä¸ľæĹ¥æľ¬":10036,"ç§ĳçłĶ":10037,"éĺ¿åĪĹ":10038,"çĽ´å±ŀ":10039,"erĠ":10040,"æĹıçļĦ":10041,"éĺ²çº¿":10042,"æ´ĭåŁº":10043,"ä¸ģçĽ®":10044,"æĺ¯ä¸Ģæ¬¾":10045,"å¾ĴåĪĳ":10046,"äºİ187":10047,"ç¨³å®ļçļĦ":10048,"æĪĺå½¹ä¸Ń":10049,"Ġç®ĢåİĨ":10050,"B1900":10051,"çī¹å®ļçļĦ":10052,"âĢĿ;":10053,"è¯¥ç«Ļ":10054,"åĪĹæĸ¯":10055,"æĶ¿åºľåľ¨":10056,"å¥¹æĺ¯":10057,"å¼ķå¯¼":10058,"enn":10059,"172":10060,"éĵ¶çº¬":10061,"1922å¹´":10062,"æĸ°å¢ŀæľ¬åľŁ":10063,"Ġè½¦ç«ĻæŀĦéĢł":10064,"çŃĭ":10065,"é«ĺéĵģ":10066,"è·¯åĨĽ":10067,"åı¤å±ĭ":10068,"ç¬¬ä¸Ģæī¹":10069,"æĶ¾å°Ħ":10070,"åĩıå¼±":10071,"çĶŁçī©åŃ¦":10072,"ä¼ĬåĪ©è¯ºä¼Ĭ":10073,"éª¨éª¼":10074,"Ġç»ıåİĨ":10075,"çļĦä½¿çĶ¨":10076,"åħ¬ç«ĭ":10077,"çĶµåİĭ":10078,"éŃħ":10079,"éģĹä½ĵ":10080,"éĢģå¾Ģ":10081,"æĿ¥æºĲäºİ":10082,"åĳ¨æģ©æĿ¥":10083,"0åĿĲæłĩä¸º":10084,"ä¹ŀ":10085,"å¥ķ":10086,"åħ¶B1900":10087,"è¿Ľç¨ĭ":10088,"æĭīå§Ĩ":10089,"å¢©":10090,"åŀĥ":10091,"å¥¥å¾·":10092,"é²·":10093,"æĹıèĩªæ²»åĮº":10094,"1500":10095,"è¿ªæĸ¯":10096,"2019åĨłçĬ¶çĹħæ¯Ĵ":10097,"ä½įäºİéĵ¶ç»ı":10098,"0åĿĲæłĩä¸ºèµ¤ç»ı":10099,",\"":10100,"IR":10101,"Re":10102,"ä¿ŀ":10103,"é«ĺåľ°":10104,"çĪ¸":10105,"å¥¥å¤ļ":10106,"146":10107,"ï¼İ":10108,"å°ĳæķ°æ°ĳæĹı":10109,"èĤĮèĤī":10110,"5ä¸ĩ":10111,"ton":10112,"ä¸ĢåįĬ":10113,"çĶ±åħ¶":10114,"è¿ĩåĲİ":10115,"é¢ĨéĺŁ":10116,"æĽ´é«ĺ":10117,"ä¿¡å¥ī":10118,"å¯Ĩè¥¿":10119,"old":10120,"ãĥ³":10121,"æ²īç§¯":10122,"åįĹæŀģæĿ¡çº¦":10123,"æĩ¿":10124,"éĴ»çŁ³":10125,"æĺ¯å¤§":10126,"çŁ¢":10127,"éħ¸çĽĲ":10128,"åĲ¦åĨ³":10129,"éĢĥäº¡":10130,"å¸ĥæĭīæł¼":10131,"å¤įæĿĤçļĦ":10132,"éĢ¢æĺŁæľŁ":10133,"å½ķéŁ³å®¤":10134,"æĺİå°¼èĭı":10135,"ç»ŃéĽĨ":10136,"éĤ£ä¸ª":10137,"æ³½è¥¿":10138,"çİ°ä»£åĮĸ":10139,"ä¸įä¹ħåĲİ":10140,"1ç±³":10141,"TE":10142,"codice":10143,"Ġå·´":10144,"ä¸Ĭæł¡":10145,"æĻ·":10146,"åįİåįĹ":10147,"11æľĪ1æĹ¥":10148,"åį³æĺ¯":10149,"èī¾ä¼¦":10150,"Ġ1999å¹´":10151,"åĩ»è´¥äºĨ":10152,"è´·æ¬¾":10153,"yst":10154,"å½¬":10155,"åħ¬ç½²":10156,"åı¯çĶ¨":10157,"æīĢè¾ĸ":10158,"è¯´æĺ¯":10159,"æľ¨åĦ¿":10160,"è´¢å¯Į":10161,"ä¸ºä¸»é¢ĺ":10162,"1911å¹´":10163,"æĢ»éĥ¨ä½įäºİ":10164,"å¦Īç¥ĸ":10165,"ii":10166,"ç«ĸ":10167,"ä¸ĸä»£":10168,"æľªç»ı":10169,"æľªæĿ¥çļĦ":10170,"èĤ¡æĿĥ":10171,"ãģ®":10172,"çĶĺèĤĥçľģ":10173,"Ġä¸Ńåįİäººæ°ĳåħ±åĴĮåĽ½":10174,"çļĦå¥³æĢ§":10175,"åľ¾":10176,"åľ¨å¾·åĽ½":10177,"å½Ĺ":10178,"åħ¶çĪ¶":10179,"åĮĹå®ĭ":10180,"ãĢį()":10181,"æ¯Ķ2":10182,"æĶ¹ä»»":10183,"èİ±åĿŀ":10184,"ate":10185,"çĥĪå£«":10186,"ãĢīãĢģãĢĪ":10187,"åŀĥåľ¾":10188,"BD":10189,"John":10190,"çļĦä½ľçĶ¨":10191,"ä¸ľé£İ":10192,"æĽ¾ä¸İ":10193,"èĪ°èīĩ":10194,"åĨ²ç»³":10195,"ç£ħ":10196,"åºĻå®ĩ":10197,"é¥ŃåºĹ":10198,"AG":10199,"BM":10200,"ĠæĸĩåĮĸ":10201,"åįĹä¸ĭ":10202,"å¾·åħ°":10203,"å¼ºè¿«":10204,"æŀģéĻĲ":10205,"èľ¥":10206,"ç©¿èĳĹ":10207,"éĩįåºĨå¸Ĥ":10208,"æĸ¯æ´Ľä¼Ĳåħĭ":10209,"å®°çĽ¸":10210,"å¡ŀæĭľçĸĨ":10211,"1åı·çº¿":10212,"2åĲį":10213,"3D":10214,"å¸ĤåĨħ":10215,"å¸ĥåĪĹ":10216,"é©¬è¾¾":10217,"åİ¿çº§":10218,"ç»ĵå±Ģ":10219,"è¿ĺè¦ģ":10220,"æ´Ľä¼Ĭ":10221,"ä¾ĿæĹ§":10222,"ä¸¾è¡ĮäºĨ":10223,"éħĴç²¾":10224,"1921å¹´":10225,"å§Ĳå§Ĳ":10226,"ä¹¡éķĩçº§è¡ĮæĶ¿åįķä½į":10227,"åĲİæīį":10228,"ä¹ĭæĦı":10229,"åħ³ä¸ľ":10230,"é¢Ĩè¡Ķ":10231,"å¤ªå®Ĺ":10232,"æĿĥçĽĬ":10233,"æ³¢éŁ³":10234,"ç¬¬äºĮè½®":10235,"è´¹åŁİ":10236,"èĩªçĶ±åħļ":10237,"æ³īå·ŀ":10238,"åı°ä¸Ńå¸Ĥ":10239,"å¤©çĦ¶æ°Ķ":10240,"Fac":10241,"ron":10242,"ä¸ĢçĶŁ":10243,"åĴĮæĸ°":10244,"åı¯åĪĨä¸º":10245,"çī©æµ¦":10246,"é©¬å¾·éĩĮ":10247,"çļĦä¸Ģä½į":10248,"æ¶ĪéĻ¤":10249,"èİ«å°Ķ":10250,"æĺ¥åŃ£":10251,"æ··åĩĿ":10252,"è®¾ç«ĭçļĦ":10253,"æ´ªæŃ¦":10254,"æĸ¹åĲĳçļĦ":10255,"å¼ķèµ·äºĨ":10256,"Cl":10257,"å¤§éĥ¨ä»½":10258,"ä¸ĵåĮº":10259,"ä¸»æķĻåº§åłĤ":10260,"æķıæĦŁ":10261,"å¿ĥçĲĨåŃ¦":10262,"ç»°":10263,"èĢĮå¾ĹåĲį":10264,"109":10265,"æł¼æĸ¯":10266,"12ä¸ª":10267,"åĽ´æĶ»":10268,"çİĽä¸½äºļ":10269,"æľĶ":10270,"å¤§äºİ":10271,"æ²¦":10272,"ä¸įåıĬ":10273,"å°ıå¹³":10274,"å¤§åŃ¦çĶŁ":10275,"æ¯ıä¸Ģä¸ª":10276,"è¾ĥå°ı":10277,"æķħéļľ":10278,"ç»ĦæĪĲéĥ¨åĪĨ":10279,"èĮ¨åŁº":10280,"çŀĦ":10281,"å±±èĦīçļĦä¸Ģéĥ¨åĪĨ":10282,"8æľĪ1æĹ¥":10283,"9æľĪ1æĹ¥":10284,"Ġç¤¾ä¼ļ":10285,"Ġè¿Ļä¸ª":10286,"ĠçĽ¸åħ³":10287,"çļĦM":10288,"åľ¨è¿Ļä¸ª":10289,"åºµ":10290,"å¤§è´¥":10291,"åĴĮä¸Ģä¸ª":10292,"æ°°":10293,"ä¸»ç¼ĸ":10294,"åĪĨæķ£":10295,"éĿ¢åīį":10296,"108":10297,"èµ·äºĨ":10298,"167":10299,"å°Ħåħ¥":10300,"âĢĿ,âĢľ":10301,"è½¨éģĵäº¤éĢļ":10302,"çº³ç²¹å¾·åĽ½":10303,"æĸ°åĨłèĤºçĤİç¡®è¯ĬçĹħä¾ĭ":10304,"ĠçĶµå½±":10305,"ç»£":10306,"çº±":10307,"æ¼³":10308,"æį®çĤ¹":10309,"åıªåľ¨":10310,"æŃ¥è¡Į":10311,"æ¿ĳ":10312,"åĽ½æ°ĳéĿ©åĳ½åĨĽ":10313,"æ©ĺ":10314,"è¿ŀç»Ńåī§":10315,"åŁĶå¯¨":10316,"èĦĤé²¤":10317,"Ad":10318,"DR":10319,"ä¸Ģè§Ĵ":10320,"åŃ¢":10321,"çĶµå®¹":10322,"çĶµæ¢¯":10323,"åĪĽæĦı":10324,"åº§ä½į":10325,"æ²īæ²¡":10326,"æłĸæģ¯åľ°":10327,"ä¼łæķĻå£«":10328,"çººç»ĩ":10329,"å¯Ŀ":10330,"éĺİ":10331,"æĹ¶ä¼ļ":10332,"åı¯çĶ±":10333,"æľĢå°ı":10334,"åĪ©çī©æµ¦":10335,"éĹ´æİ¥":10336,"æĭīå°Ķ":10337,"çĥ¦":10338,"173":10339,"148":10340,"éĽħåĲĦ":10341,"åĵ²åŃ¦å®¶":10342,"æŁ¬åŁĶå¯¨":10343,"åĪĨå¼Ģ":10344,"åłķ":10345,"é²¨":10346,"è¶³ä»¥":10347,"ç´¢å°¼":10348,"æļ´éľ²":10349,"èī¯å¥½çļĦ":10350,"äººç±»çļĦ":10351,"çİ¯å½¢å±±":10352,"èįĥæ¹¾":10353,"åįĹæŀģæĿ¡çº¦ä½ĵç³»":10354,"4åĲį":10355,"ä¸İä¸ŃåĽ½":10356,"ä¸įå¦Ĥ":10357,"ä¹ŁæĪĲä¸º":10358,"ä¸¤å¤§":10359,"éĩĳæĽ²":10360,"ç©ºè°ĥ":10361,"åĪĽä¸ĭ":10362,"è¿ŀåĲĮ":10363,"æĹ¶éĹ´åĨħ":10364,"åģľçķĻ":10365,"éĩİæĪĺ":10366,"åĲ¯åıĳ":10367,"äºİ1998å¹´":10368,"ç¿°æŀĹéĻ¢":10369,"åİķ":10370,"ç¬¬9":10371,"ä½įåĪĹ":10372,"æľĢå¥½çļĦ":10373,"èĬ¯":10374,"åħ¨åı°":10375,"åĮħæĭ¬ä»¥ä¸ĭ":10376,"èĬ±è´¹":10377,"ä½ľåĵģçļĦ":10378,"è¿ģå¾Ļ":10379,"ç´§å¯Ĩ":10380,"NC":10381,"çļĦè¡ĮåĬ¨":10382,"åľ¨åįĹ":10383,"æĹ¶è¢«":10384,"æµı":10385,"è¾¾å°¼":10386,"èµ·é£ŀ":10387,"æĺİçļĦ":10388,"éŁ³ä¹Ĳä¼ļ":10389,"1923å¹´":10390,"æ··åĩĿåľŁ":10391,"å®¦":10392,"ä¸įåľ¨":10393,"å¹¶å¯¹":10394,"å¹¶ç§°":10395,"äºĭä¸Ń":10396,"è·¯å¾·":10397,"èĬ½":10398,"æķ°çĽ®":10399,"åħļç±į":10400,"çļĦä¸Ģå®¶":10401,"ä¸ĸçķĮçļĦ":10402,"åľ£æ®¿":10403,"åįłæĢ»äººåı£":10404,"èĮĥçķ´":10405,"åĲİæĿ¥è¢«":10406,"äºİ2001å¹´":10407,"é¢Ĺå°ıè¡ĮæĺŁ":10408,"1913å¹´":10409,"åĵĪå°Ķæ»¨å¸Ĥ":10410,"Ġå®ī":10411,"çļĦçİ¯å¢ĥ":10412,"ä¸İç¾İåĽ½":10413,"ä¹ĭè·¯":10414,"å¾·çĶ²":10415,"ç»´èİ±":10416,"åĽŀå¤į":10417,"ç©ºéĻį":10418,"çº³è¥¿":10419,"ç¬¬ä¸Ģéĥ¨":10420,"åŃ¦éĻ¢çļĦ":10421,"çľŁçļĦ":10422,"ĠAr":10423,"æļĹæĿĢ":10424,"æ±ĹåĽ½":10425,"ext":10426,"çļĦèĢģ":10427,"ä¸Ńåľº":10428,"åĽ½åľŁ":10429,"æº´":10430,"åĮĹäº¬å¤§åŃ¦":10431,"ä¼ĺæĥł":10432,"Ġç¬¬ä¸ī":10433,"é¢ħ":10434,"ç¤ºèĮĥ":10435,"èĻŀ":10436,"iss":10437,"éªĮè¯ģ":10438,"eĠM":10439,"èĤ¡ç¥¨":10440,"Ð¾":10441,"ĠèģĮä¸ļçĶŁæ¶¯":10442,"å®µ":10443,"ä¸ºä»ĸ":10444,"ä¸įéľĢè¦ģ":10445,"äºĮæ°§åĮĸ":10446,"å¤©ç©º":10447,"è¿ĲéĢģ":10448,"æ¼Ķä¹ł":10449,"åĳĬçŁ¥":10450,"è¯¸å¦Ĥ":10451,"ä¸§å¤±":10452,"å§ĶåĨħçĳŀæĭī":10453,"2019åĨłçĬ¶çĹħæ¯ĴçĹħ":10454,"Ġ15":10455,"ä½¥":10456,"åŃľ":10457,"åīĮ":10458,"æĸĩçļĦ":10459,"äºĭå®ľ":10460,"äºĮçĶ²":10461,"å§ĭäºİ":10462,"åıįåĩ»":10463,"æĥħå½¢":10464,"æŃ¦æľ¯":10465,"çĪ±æ²Ļ":10466,"ä½łä»¬":10467,"åįĹæŀģæĿ¡çº¦ä½ĵç³»ç®¡çĲĨ":10468,"Ġå¤ĸéĥ¨":10469,"âĢľâĢĿ":10470,"ç«ĭåĪ»":10471,"çīĩä¸Ń":10472,"ç¦ıåĨĪ":10473,"åįļå°Ķ":10474,"æ°¸ä¹Ĳ":10475,"1950å¹´ä»£":10476,"ç»įåħ´":10477,"çĦ¦çĤ¹":10478,"æłªå¼ı":10479,"çĪ±æ²Ļå°¼äºļ":10480,"DC":10481,"åĲįåı¤å±ĭ":10482,"ç¾Į":10483,"æĽ´åĲį":10484,"erv":10485,"åĩ»èĲ½":10486,"åĩºçĶŁåľ¨":10487,"æģĭçĪ±":10488,"å¹¸ç¦ı":10489,"æłªå¼ıä¼ļç¤¾":10490,"æµĳ":10491,"æĸ°çĶŁ":10492,"è°ľ":10493,"é©¬åľº":10494,"åħ¨æķ°":10495,"åı²æĸĻ":10496,"å°±å·²ç»ı":10497,"æĻ®å°Ķ":10498,"åĻª":10499,"åĵĪèĲ¨":10500,"æĸ½è¡Į":10501,"147":10502,"éĻįçº§":10503,"èĴĻå¾·":10504,"åħ¶ä¸Ńæľī":10505,"ä¸īè§Ĵå½¢":10506,"æ®ĭçĸ¾äºº":10507,"UR":10508,"åīĸ":10509,"éļĻ":10510,"èĤĨ":10511,"ç¼ł":10512,"éĶ¯":10513,"äºĭä»¶çļĦ":10514,"éĢĤå½ĵ":10515,"ä¸ĺéĻµ":10516,"æħķå®¹":10517,"åĮºè®®ä¼ļéĢīä¸¾":10518,"äººè®¤ä¸º":10519,"æĺ¯å½ĵåľ°":10520,"éĩįä¼¤":10521,"æĢ»ç»ĵ":10522,"åŁİéĹ¨":10523,"å·´éĩĮ":10524,"åĽ½å®¶çº§":10525,"ç»Ļä»ĸ":10526,"ç³»ç»Łä¸Ń":10527,"ä»ĭåħ¥":10528,"èĨ¨":10529,"åħĭéĩĮæĸ¯èĴĤ":10530,"ä¼´ä¾£":10531,"éĽĨä¸Ńåľ¨":10532,"å¸ĸæľ¨åĦ¿":10533,"æ²§":10534,"çĶ±ç¾İåĽ½":10535,"åĲĮæ²»":10536,"128":10537,"ç¡Ŀ":10538,"è¿ĺä¼ļ":10539,"åħŃä¸ĸ":10540,"å®¢ä¸²":10541,"æİĴæĶ¾":10542,"å¹²çĩ¥":10543,"ityĠ":10544,"ä¸¹å°¼å°Ķ":10545,"rop":10546,"éĺµçº¿":10547,"ç½ªåĲį":10548,"æ¿Ģè¿Ľ":10549,"å¨ģå°Ķå£«":10550,"åĩ¹":10551,"ä¸Ĭå±Ĥ":10552,"åİŁåĿĢ":10553,"åŁİåĨħ":10554,"æīĭæ³ķ":10555,"ä¿ĿèĤ²":10556,"æ·¹":10557,"éĢļè¿ĩäºĨ":10558,"éĺµåľ°":10559,"ç£ģåľº":10560,"èĲ¨åħĭæ£®":10561,"BO":10562,"Ġç½Ĺ":10563,"Ġèĭ±åĽ½":10564,"ĠæķĻèĤ²":10565,"æĸ¹éĴĪ":10566,"å¦ĵ":10567,"å¤įä»ĩ":10568,"æ¥ł":10569,"åįĥäºº":10570,"åĳĬç¤º":10571,"æĪ´ç»´æĸ¯":10572,"æĦıè¯Ĩå½¢æĢģ":10573,"ç»Ĵ":10574,"åºĲ":10575,"ä¹ĭä¹±":10576,"æµ·åºķ":10577,"ä½Ĩè¿Ļ":10578,"åħ¨å¹´":10579,"ç¨ļ":10580,"åıĪæľī":10581,"äºİ186":10582,"å¯¿åĳ½":10583,"çļĦæ¯ĶèµĽä¸Ń":10584,"å·¥éĥ¨":10585,"æĹłéĶ¡":10586,"éĴ¥":10587,"åħĪåıĳ":10588,"å®ĮåĸĦ":10589,"169":10590,"çĽĳè§Ĩ":10591,"ingĠ":10592,"1917å¹´":10593,"çĴĭ":10594,"ä¸Ĭç©º":10595,"ä¸įå¤ļ":10596,"åħ¨å¢ĥ":10597,"å¼ºå¤§":10598,"174":10599,"åĨĻçļĦ":10600,"å»ºç«ĭçļĦ":10601,"èĨĢ":10602,"æĤłä¹ħ":10603,"IM":10604,"Ġè¿ĻäºĽ":10605,"ä¸ĢæĹ¥":10606,"åĮĹç¾İæ´²":10607,"éĿ¢2":10608,"èµĽåĨłåĨĽ":10609,"åħĥé¦ĸ":10610,"è®©äºº":10611,"åŁĥå¾·":10612,"éĵ¶æ²³":10613,"è¿½åĩ»":10614,"ĠSch":10615,"çī©çĲĨåŃ¦å®¶":10616,"åĵĪå°Ķç§ĳå¤«":10617,"Ġæ°ĳåĽ½":10618,"åĽ½ç±į":10619,"ä¸įåĪ©":10620,"è¥¿æ¯Ķ":10621,"äºĮåı·":10622,"å®ļäºĨ":10623,"æĢ§è¡Įä¸º":10624,"æĹłåħ³":10625,"å¿ĥçļĦ":10626,"æ·«":10627,"äºĶä¸ĸ":10628,"è§ģè¯ģ":10629,"6æľĪ30æĹ¥":10630,"è´Ńåħ¥":10631,"Ġ1945å¹´":10632,"çıįçıł":10633,"çºµéĺŁ":10634,"çİ°æĹ¶çĶ±åįĹæŀģæĿ¡çº¦ä½ĵç³»ç®¡çĲĨ":10635,"?âĢĿ":10636,"DA":10637,"Ed":10638,"ä¸Ģåıª":10639,"äºİé¦Ļæ¸¯":10640,"æĮĿ":10641,"ç§ĳè¿Ľå£«":10642,"çĽ¸å¯¹äºİ":10643,"èģĮäººåĳĺ":10644,"åĽ¾æĽ¼":10645,"çŁ³å¤´":10646,"éħįè§Ĵ":10647,"é¡¹çĽ®çļĦ":10648,"å§ĵåĲį":10649,"ide":10650,"èģĺè¯·":10651,"æĻ°":10652,"éĿ¢åĮħ":10653,"æĪĺæĹ¶":10654,"å¦Ĩ":10655,"ä½Ĩä¹Ł":10656,"æŃ»èĢħ":10657,"èĵī":10658,"åĢŁæŃ¤":10659,"åİĦå°Ķ":10660,"èı©èĲ¨":10661,"çļĦéĩį":10662,"çļĦäººåı£":10663,"çļĦè½¨éģĵ":10664,"å¼§":10665,"ä¼ļä»¥":10666,"åĮĹæŀģ":10667,"è¿ĩäºĨ":10668,"é¦ĸå¼ł":10669,"æŀĹèĤ¯":10670,"åİĨç»ı":10671,"æĴŃæĺł":10672,"å¥ĸç«ł":10673,"å®ĩæĸĩ":10674,"èĦĬæ¤İ":10675,"æµ´":10676,"å¹¶å¼Ģå§ĭ":10677,"ç©Ĺ":10678,"æ°´éĿ¢":10679,"åŀ«":10680,"è´¨çļĦ":10681,"ç½ªè¡Į":10682,"èĢ³æĽ¼":10683,"åĬŀåħ¬åİħ":10684,"æ¸ħçľŁå¯º":10685,"6æľĪ1æĹ¥":10686,"80å¹´ä»£":10687,"Ġåı¤":10688,"å¼Ģè¾Ł":10689,"åĪĹé¢ł":10690,"æ¨Ł":10691,"æŃ»åİ»":10692,"åįĹéĥ¨çļĦ":10693,"èĶ½":10694,"ç¼©çŁŃ":10695,"çģ°èī²":10696,"5Ġ":10697,"ä¹ĵ":10698,"ä¸Ģåĳ¨":10699,"ä¸įåı¯èĥ½":10700,"è¯´çļĦ":10701,"æµģéĢļ":10702,"çĵ¦æĭī":10703,"è¾¹å½¢":10704,"åį¢æ£®åł¡":10705,"å®īå¾·çĥĪ":10706,"æº¶æ¶²":10707,"1å®¶":10708,"Ġæ°´":10709,"ç¤¾åĽ¢":10710,"åį°åľ°":10711,"åĲİæĿ¥åľ¨":10712,"row":10713,"æĳ©æł¹":10714,"æłĳæľ¨":10715,"é¢ĨåŁŁçļĦ":10716,"é«ĺçŃīæķĻèĤ²":10717,"æ©¡èĥ¶":10718,"çļĦè¿ĩç¨ĭ":10719,"ä¸ĢæīĢ":10720,"ä¸Ģç¾¤":10721,"ä¸İæĹ¥æľ¬":10722,"è¥¿å¾·":10723,"å»¿":10724,"æľ¬åī§":10725,"ç½ĹéĹ¨":10726,"ç§ĳåĮ»çĶŁ":10727,"èģĶéĺŁ":10728,"çº¦3":10729,"å°ĳéĩı":10730,"çĳ°":10731,"è¡ĮæĶ¿åĮºåŁŁ":10732,"å¤ªéĺ³åħ¬":10733,"çĹĽèĭ¦":10734,"æ¶Īè´¹èĢħ":10735,"âĪĴ":10736,"çļĦå®ĺæĸ¹":10737,"å¹´åºķ":10738,"åľ°åĬ¿":10739,"ä¸»åĶ±":10740,"ä¹Łå°Ĩ":10741,"è¯¥ä¹¦":10742,"å¤©æ¡¥":10743,"è¿ĺåİŁ":10744,"å¤įåĪ¶":10745,"æİ¨è¿Ł":10746,"å©·":10747,"æľĢåĲİä¸Ģä¸ª":10748,"eĠof":10749,"å¹¼åĦ¿":10750,"è£Ķç¾İåĽ½äºº":10751,"éģµå¾ª":10752,"ç»¼èīºèĬĤçĽ®":10753,"9ä¸ª":10754,"ä¸ĢéĹ´":10755,"æľ¬éĥ¨":10756,"å®ĺèģĮ":10757,"æĬ¥å¤į":10758,"è¯ĨåŃĹ":10759,"åĮĹéĥ¨çļĦ":10760,"æ¯Ĵåĵģ":10761,"å®½åº¦":10762,"åıĳè¡¨çļĦ":10763,"çģ¾å®³":10764,"éļĲèĹı":10765,"ebook":10766,"de":10767,"yle":10768,"ä¸ºç¾İåĽ½":10769,"å¤§å¤§":10770,"åĲįåĪĹ":10771,"å¹¶å°Ĩåħ¶":10772,"è¥¿è·¯":10773,"åıĪè¢«":10774,"7ç±³":10775,"ä¸ŃæīĢ":10776,"ä¸Ĭåľº":10777,"ä¸İä»ĸ":10778,"åĮºè´Łè´£ç®¡è¾ĸ":10779,"åħ¬åĽ½":10780,"æĸ°åŀĭ":10781,"åĪ©å®ī":10782,"é«ĺä¸½":10783,"è¿ĳä¼¼":10784,"å½¢å¼ıçļĦ":10785,"ATP":10786,"ude":10787,"æ²³éģĵåħ¨éķ¿":10788,"IF":10789,"ä¸Ńä¸ľ":10790,"äº¤å¾Ģ":10791,"å°±èĥ½":10792,"æĪĲä¸ºä¸Ģä¸ª":10793,"åķ¤":10794,"æģ©æĸ¯":10795,"éĵģè·¯åħ¬åı¸":10796,"eĠB":10797,"Ġ1998å¹´":10798,"è®½åĪº":10799,"118":10800,"90å¹´ä»£":10801,"çļĦä¸¤ä¸ª":10802,"æľīä¸ī":10803,"æĭ¾":10804,"åĲİä¸įä¹ħ":10805,"æĹ¶å°ļ":10806,"åĪĨæŃ§":10807,"çľģè´Łè´£ç®¡è¾ĸ":10808,"åİĨä»£":10809,"åħµéĥ¨":10810,"ç¬¬äºĮåŃ£":10811,"åł¡åŀĴ":10812,"åºŁå¼ĥ":10813,"æĺ¯ä¸ĭè¾ĸçļĦä¸Ģä¸ªä¹¡éķĩçº§è¡ĮæĶ¿åįķä½į":10814,"è¿Ħä»Ĭ":10815,"çļĦæĹł":10816,"å¤§åĨĽ":10817,"è¥¿èĴĻ":10818,"æĪĺèĪ°":10819,"ä¸ĸçºªæľ«":10820,"æľĢç»Īä»¥":10821,"çīĽæĸ¯":10822,"ä¸ľéĥ¨æĹ¶åĮº":10823,"III":10824,"Ġä½Ĩ":10825,"ä¸Ģè¾Ĩ":10826,"ä¸Ĭèİ·å¾Ĺ":10827,"è¢«åĪĹåħ¥":10828,"èī³":10829,"æĸĩéĿ©":10830,"æĶ¹çĶ¨":10831,"çªŁ":10832,"çĳŀåħĭ":10833,"åİħéķ¿":10834,"æ¨ªæ»¨":10835,"æĩĤ":10836,"åĬ¨è½¦ç»Ħ":10837,"çļĦçĥŃ":10838,"æľīæĦı":10839,"æľīä¸ĢäºĽ":10840,"åĲĮä¸º":10841,"å¼Ģè¡Į":10842,"æ¡¨":10843,"åĪĻè®¤ä¸º":10844,"ä¹¦åºĹ":10845,"éĻĲå®ļ":10846,"1960å¹´ä»£":10847,"æĺłå°Ħ":10848,"åĪĽåĬŀäºº":10849,"ĠåĪĺ":10850,"Ġåħ³äºİ":10851,"ä¸İåīį":10852,"åħ¬æĬķ":10853,"å¼ĢæĻ®":10854,"èĩ³3":10855,"èµĽé©¬":10856,"æĶ¶å¤į":10857,"éĻĨæĪĺéĺŁ":10858,"æĤĶ":10859,"éĻįèĲ½":10860,"å·´å£«è·¯çº¿":10861,"çĨŁæĤī":10862,"éĦĤåĽ¾æĽ¼":10863,"çĶŁåīį":10864,"è¥¿ä¼¯åĪ©äºļ":10865,"å½ĵåīį":10866,"åıĪè¯ĳ":10867,"are":10868,"åĺĽ":10869,"æ¨ªè·¨":10870,"è¿Īåħĭå°Ķ":10871,"å±Ĭåħ¨åĽ½æĶ¿åįıå§Ķåĳĺ":10872,"æĭĺçķĻ":10873,"Ġæ¯ĶèµĽ":10874,"å¯ħ":10875,"çİ«":10876,"åĲİä»£":10877,"çĶ¨åľ°":10878,"è¢«åĪ¤":10879,"å¾Ĺåĩº":10880,"åİŁæľīçļĦ":10881,"åį¡æĸ¯èĴĤ":10882,"ç²ĺ":10883,"ç¼ĸæĽ²":10884,"æĪ¿åŃĲ":10885,"çĲĨäºĭéķ¿":10886,"éģµå®Ī":10887,"EDT":10888,"ISTAT":10889,"5000":10890,"çļĦåįķ":10891,"ä¼ļå°Ĩ":10892,"ä¸ªåĪ«":10893,"å±±åĿ¡":10894,"ç¤¾éķ¿":10895,"èĲ½å®ŀ":10896,"çī¹åĪ«è¡ĮæĶ¿åĮº":10897,"çĿ¡çľł":10898,"çļĦå®ļä¹ī":10899,"çļĦæĦıæĢĿ":10900,"å¹¢":10901,"ä¸º4":10902,"æĹ¶ç©º":10903,"æ°ĳçĶ¨":10904,"å¸ĥæĸ¯":10905,"æıĲåĢ¡":10906,"åĽŀæĿ¥":10907,"ä¸ĩåĲį":10908,"æłĩç¤º":10909,"åī§ç»Ħ":10910,"åĽ¾å°Ķ":10911,"æ¸ħåĨĽ":10912,"ä¼ģåĪĴ":10913,"äºİ1999å¹´":10914,"å»ºéĢłçļĦ":10915,"ä»ĵåºĵ":10916,"åį¢çĵ¦å°Ķ":10917,"æĺ¯ä¸Ģé¢ĹåĽ´ç»ķ":10918,"à¤":10919,"ä¸ºä½ķ":10920,"ä¸ĬåįĬ":10921,"æĬ¬":10922,"æĽĿ":10923,"çŃĽ":10924,"å°Ĩäºİ":10925,"104":10926,"åĢª":10927,"æĺŁéĻħ":10928,"åĽ¾çīĩ":10929,"ä»¥åıĬåľ¨":10930,"çľĭèµ·æĿ¥":10931,"å®Īå¤ĩ":10932,"Ġè¿Ļé¢Ĺå°ıè¡ĮæĺŁ":10933,"åĪ¶çīĩäºº":10934,"ä¹Ĵä¹ĵ":10935,"the":10936,"Ġä¸ĢäºĽ":10937,"çļĦéĢŁåº¦":10938,"ä¸Ńæ¯Ĵ":10939,"ä¸İä¹ĭ":10940,"åıĬæĹ¶":10941,"çľģä¼ļ":10942,"éĢļæĬ¥":10943,"æł¼èİ±":10944,"å±ŀæĢ§":10945,"è§ĴéĢĲ":10946,"çº¢åįģåŃĹ":10947,"è¡ĹåĮº":10948,"æĻĭåįĩä¸º":10949,"5è°ĥå¿«ä¸Ģå°ıæĹ¶":10950,"çļĦä¿¡":10951,"ä¸Ńèİ·å¾Ĺ":10952,"äººäºĭ":10953,"ç¬¬12":10954,"æķ°å¹´":10955,"æķ°çłģ":10956,"ç§ĳç½Ĺ":10957,"ç«Ļåľ¨":10958,"åħĥæľĹ":10959,"æĻ®éĩĮ":10960,"éªĤ":10961,"æļĳ":10962,"åį«åĨķ":10963,"çĻ»å½ķ":10964,"é©»å®Ī":10965,"Ġ1997å¹´":10966,"æĹĭå¾ĭ":10967,"äºİ185":10968,"è¡£æľį":10969,"æĢ»çĿ£åºľ":10970,"åį³åĮĹç¾İä¸ľéĥ¨æĹ¶åĮº":10971,"å¤ªéĺ³åħ¬è½¬çļĦå°ıè¡ĮæĺŁ":10972,"æĺ¯ä¸Ģé¢ĹåĽ´ç»ķå¤ªéĺ³åħ¬è½¬çļĦå°ıè¡ĮæĺŁ":10973,"ĠåĽłä¸º":10974,"çļĦç¾İ":10975,"ä¸ŃéĺŁ":10976,"åĴĮéĺ¿":10977,"è°ı":10978,"é©¬åĪ©":10979,"åįļè§Ī":10980,"æīĺå°Ķ":10981,"å·®åĪ«":10982,"æ¯ĶåĪ©çīĽæĸ¯":10983,"éĹ½åįĹ":10984,"con":10985,"Ġk":10986,"æĿı":10987,"æķ·":10988,"ä¸įä¸Ģ":10989,"çĶŁæĹ¥":10990,"åıĬåĪ©äºļ":10991,"è¦ģå¡ŀ":10992,"èº«é«ĺ":10993,"ä¸»è¦ģçĶ±":10994,"èŃ¦åĬ¡":10995,"èĢģæĮĿ":10996,"åģļäºĨ":10997,"æ°¸åº·":10998,"çŁŃæľŁ":10999,"æ¯ģçģŃ":11000,"Ġå¦Ĥæŀľ":11001,"çļĦå®¶":11002,"å®ŀä¸ļ":11003,"æ¶ĪèĢĹ":11004,"éĵģè·¯å±Ģ":11005,"Ġè¿Ļé¢Ĺå°ıè¡ĮæĺŁçļĦç»Ŀå¯¹":11006,"iel":11007,"ĠZ":11008,"ç¬¬13":11009,"æĻ¤":11010,"éĥ½èĥ½":11011,"åĲīäºļ":11012,"é¡¶çĤ¹":11013,"æ¸Ķä¸ļ":11014,"æĸ¯å¤§æŀĹ":11015,"Ġl":11016,"ĠÐ":11017,"ä¸ºä¸Ńå¿ĥ":11018,"åĽ½ä¸Ń":11019,"ä¹ĭåĨħ":11020,"æĸĩå¸Ŀ":11021,"æµ·æ¹¾":11022,"ä¸ŃåĽ½ç§ĳåŃ¦éĻ¢":11023,"åĪ«å¢ħ":11024,"æ¸ħæĻ°":11025,"çľŁçĽ¸":11026,"æ³¨å°Ħ":11027,"æ¶²ä½ĵ":11028,"çĥ§æ¯ģ":11029,"éĽķåĪ»":11030,"è´µå·ŀçľģ":11031,"EE":11032,"ae":11033,"çļĦåħī":11034,"ä¸Ģå¯¹":11035,"å¤§éĹ¨":11036,"äºļç§į":11037,"æŃ¤å¤©ä½ĵ":11038,"å·´çī¹":11039,"çĥ¹":11040,"åıĺå½¢":11041,"èĪ°åıª":11042,"é³ĥ":11043,"å¥īåĳ½":11044,"egin":11045,"ç»İ":11046,"æĺ¯è¯¥":11047,"ä»¥æĿ¥çļĦ":11048,"äºĨä¸¤":11049,"åĬ¨æľº":11050,"èĪħ":11051,"æİ¥ä¸ĭæĿ¥çļĦ":11052,"çİĭçļĦ":11053,"å¤«åĭĴ":11054,"åıįå¤į":11055,"å¯Ĩçłģ":11056,"åĵĪèĲ¨åħĭ":11057,"æĬ¤åį«":11058,"ç¢ĺ":11059,"åĲ«ä¹ī":11060,"ç¿»æĸ°":11061,"çļĦä¸Ńå¿ĥ":11062,"åľ¨éĺ¿":11063,"æľīåĬ©äºİ":11064,"ä¸įåĪĹé¢ł":11065,"ä¸ľæ±ī":11066,"å¸ĥç½Ĺ":11067,"è¿Ĳè½½":11068,"éĺ¿å¯Ĩ":11069,"æľªè¢«":11070,"åķĨæłĩ":11071,"ç½ĳé¡µ":11072,"äº¦åľ¨":11073,"å¤±ä¸ļ":11074,"ä¸įåĲĮäºİ":11075,"å»¶è¿Ł":11076,"æĵĴ":11077,"éĺ¶å±Ĥ":11078,"å£ģçĶ»":11079,"ä¸°å¯ĮçļĦ":11080,"pt":11081,"çļĦä¸įåĲĮ":11082,"çļĦåŁºæľ¬":11083,"ä¸ºä¸Ń":11084,"è¡Įçľģ":11085,"åĪ©çī¹":11086,"ä¸īå±Ĥ":11087,"åįİä¾¨":11088,"åıĤæĶ¿":11089,"å¸¸è¢«":11090,"æ®ī":11091,"è¾ĥå¤ļ":11092,"éĺ³åħī":11093,"ç§»äº¤":11094,"è®°èĢħä¼ļ":11095,"TO":11096,"çļĦæķ°éĩı":11097,"ä¸Ģå±Ĥ":11098,"åĽ½åħ¬":11099,"ä¸ĭæ°´":11100,"ä¸īéĥ¨":11101,"çĽ¸æľº":11102,"èģĮèĥ½":11103,"æĶ¾æĺł":11104,"138":11105,"å©ī":11106,"ä¸§çĶŁ":11107,"æ¹¿åľ°":11108,"å¸ĨèĪ¹":11109,"DP":11110,"ĠåĽł":11111,"Ġçİ°":11112,"çļĦæĬĢæľ¯":11113,"ä¸Ģå¼ł":11114,"ä¸Ģè¾¹":11115,"åĨ¶":11116,"æĮ«":11117,"æŃ¤ä¸Ģ":11118,"è¿ĩä¸ĸ":11119,"åħ¥çĭ±":11120,"106":11121,"ä¸ĩå¹³æĸ¹ç±³":11122,"æŃ£å¼ıæĪĲç«ĭ":11123,"åĲĮå¹´12æľĪ":11124,"ç¼ºéĻ·":11125,"è®¾ç«ĭäºĨ":11126,"å¢ĵèĳ¬":11127,"å¤ĸäº¤å®ĺ":11128,"åĪļæŀľ":11129,"æĤ£æľī":11130,"è¿Ŀæ³ķ":11131,"å·©åĽº":11132,"Ľèµ·":11133,"åĮ£":11134,"æĹ¶è¡¨ç¤º":11135,"æ°ĳåħµ":11136,"æīĢéķ¿":11137,"ç¼ª":11138,"æ°´åĩĨ":11139,"åĢŃ":11140,"129":11141,"åıĺéĩı":11142,"çľŁèıĮ":11143,"æī©æķ£":11144,"Ġ1994å¹´":11145,"è¯ºæĽ¼åºķ":11146,"çĽ¸è¾ĥäºİ":11147,"æ¾İæ¹ĸ":11148,"sc":11149,"çļĦå¤´":11150,"è¡·":11151,"åĴĮçļĦ":11152,"åĴĮå°ı":11153,"åĲİè£Ķ":11154,"åĵĩ":11155,"å£¶":11156,"å·ŀäºº":11157,"åħļåĨħ":11158,"åĪĽä¸ļ":11159,"æ¸ħå»·":11160,"èµ°å»Ĭ":11161,"åĲĮå¹´10æľĪ":11162,"æľ«ç«¯":11163,"è¯¸èĳĽ":11164,"äºİ1997å¹´":11165,"åĴ¸ä¸°":11166,"Am":11167,"NG":11168,"åĩºå±Ģ":11169,"è¿ĻæĿ¡":11170,"åĮĹæ´ĭ":11171,"æĸĩä¸Ń":11172,"åĪĻä¼ļ":11173,"éĩĩçº³":11174,"æģ¶åĬ£":11175,"æĹħå®¢éĵģéģĵ":11176,"2åı·çº¿":11177,"èł":11178,"ĠæŀĹ":11179,"Ġå½±åĵį":11180,"ä¸ĢçŃī":11181,"è¡Įä½¿":11182,"è¿Ļä½¿å¾Ĺ":11183,"åīįèº«ä¸º":11184,"è¯¥èĪ°":11185,"è·¯ç«Ļ":11186,"åŁºå°Ķ":11187,"çİĭåĲİ":11188,"00å¹³æĸ¹åįĥç±³":11189,"æĽ´å¤§":11190,"éĺ³æĢ§":11191,"çĹħäºº":11192,"çĻ»è¿Ľå£«":11193,"ĠAl":11194,"å°Ķæĸ¯åħĭ":11195,"èŀįåħ¥":11196,"èĢĥèĻĳåĪ°":11197,"ä¸ĵæ³¨äºİ":11198,"3æľĪ1æĹ¥":11199,"New":11200,"åħĳ":11201,"åĲİä¸ĸ":11202,"ç½¹":11203,"ä»£åı·":11204,"åĵĪä½Ľ":11205,"139":11206,"è¿ľç¦»":11207,"ç¥ĸç±į":11208,"ä¸¹å°¼":11209,"èĤ¯å¡ĶåŁº":11210,"èĤīé£ŁæĢ§":11211,"æ±¤å§Ĩ":11212,"éĥĬåĮº":11213,"9æĹ¶":11214,"Ġè®¾è®¡":11215,"ç«Ń":11216,"å¾·åĭĴ":11217,"å¥³äºº":11218,"å®ŀä¹ł":11219,"èĭıåĨĽ":11220,"çĶ·æ¼Ķåĳĺ":11221,"å¥½èİ±åĿŀ":11222,"éĤ£å·ŀ":11223,"æ·±åıĹ":11224,"çŃ¾ä¸ĭ":11225,"çĥŃå¸¦ä½İæ°Ķåİĭ":11226,"1916å¹´":11227,"ä¿®æŃ£æ¡Ī":11228,"éĺ¿åŁºåĿ¦":11229,"çļĸ":11230,"åĮºè®®åĳĺ":11231,"åĨĽéķ¿":11232,"ä¹Łç§°ä¸º":11233,"å¸ĥç½®":11234,"é¦ĸå±Ĭ":11235,"126":11236,"è¾ĥé«ĺçļĦ":11237,"çļĩå®¤":11238,"è®¡åĪĴçļĦ":11239,"åľ¨æŃ¤æľŁéĹ´":11240,"é£İæł¼çļĦ":11241,"å²ŃåįĹ":11242,"éĤĵå°ıå¹³":11243,"åºķå±Ĥæ°´åŁŁ":11244,"On":11245,"ä¸Ģåįĥ":11246,"ä¸Ńç«ĭ":11247,"é«ĵ":11248,"çī©ä¸ļ":11249,"è½¦ä½ĵ":11250,"æµģæĶ¾":11251,"èµĦæ·±":11252,"å±ħäºİ":11253,"ç¢Ĺ":11254,"ä»įæĺ¯":11255,"æĿĢæīĭ":11256,"åģ¶å°Ķ":11257,"å¡Ķå°¼å¤§åĮº":11258,"å¸ĥæĶ¿ä½¿":11259,"8æĹ¶":11260,"CST":11261,"Ge":11262,"ä¸Ģèīĺ":11263,"2020":11264,"éķ°":11265,"æĸ°æĿĳ":11266,"åĨħæĸ¯":11267,"èĢħåĴĮ":11268,"çłĮ":11269,"å°¼åŁº":11270,"éĩĳé¢Ŀ":11271,"ä¼Ĭä¸½":11272,"ä¹Įå°Ķ":11273,"ä¸Ńå¤®å§Ķåĳĺä¼ļ":11274,"æľįåĬ¡çļĦ":11275,"ä¿ĿæĬ¤åĮº":11276,"åĩºçīĪäºĨ":11277,"å·¨äºº":11278,"å¼ķåıĳäºĨ":11279,"Met":11280,"ĠæĪĺåĲİ":11281,"çļĦæ³ķå¾ĭ":11282,"åľ¨æł¡":11283,"åīįå¤ķ":11284,"è¿Ľé©»":11285,"æĪĺåĮº":11286,"çĽ¸è¿ĳ":11287,"èĭ±å±ŀ":11288,"å·²æĪĲä¸º":11289,"åºĶçĶ¨äºİ":11290,"ä¼łæī¿":11291,"æĶ¯éĥ¨":11292,"ç¥ŀåºĻ":11293,"æ¦Ĩ":11294,"ç§»éĻ¤":11295,"åį°åº¦æ´ĭ":11296,"ç¤¼æĭľ":11297,"èĶĵ":11298,"åħĦéķ¿":11299,"èħ¹éĥ¨":11300,"åīĬå¼±":11301,"æĭ¨æ¬¾":11302,"æł¸éħ¸æ£Ģæµĭ":11303,"B48":11304,"For":11305,"æľĢåħ·":11306,"çĦķ":11307,"è¯Ńæ³ķ":11308,"å¤Ħç½ļ":11309,"éģĩéļ¾":11310,"æįŁåĿı":11311,"Ġ1991å¹´":11312,"æ²¼æ³½":11313,"çļĦæ¯įäº²":11314,"åľ¨2008å¹´":11315,"å·¾":11316,"å¯Ĥ":11317,"è¥¿æĹ¥æľ¬":11318,"æĸ°åįİ":11319,"æľĢæĸ°":11320,"èĩ³1":11321,"ç¥ĩ":11322,"å¥³æŃĮæīĭ":11323,"éĽĨåĽ¢æľīéĻĲåħ¬åı¸":11324,"çŁ¿çī©":11325,"æĲ¬åĪ°":11326,"çļĦæł¸å¿ĥ":11327,"åħ¶é¡¿":11328,"è¥¿åĮº":11329,"éĤ¢":11330,"å·´å¡ŀ":11331,"å¸¸çĶ¨":11332,"è£¤":11333,"åŃĹç¬¦":11334,"èĪªæµ·":11335,"å¹ķåĲİ":11336,"ç¡¬æ£ĺ":11337,"è¿Īéĺ¿å¯Ĩ":11338,"å·¡åĽŀæ¼ĶåĶ±ä¼ļ":11339,"è´©åįĸ":11340,"å¼ĢåĪĽ":11341,"è¿ĽåĮĸ":11342,"æľŁå¾ĴåĪĳ":11343,"æĦļ":11344,"æ¢ĵ":11345,"åĩ»æ²ī":11346,"ä¼Ĺè®®åĳĺ":11347,"åŁĥå¡ŀ":11348,"æ¥¼æ¢¯":11349,"æī§æķĻ":11350,"å»¶å®ī":11351,"çº½è¥¿åħ°":11352,"æĿ¿åĿĹ":11353,"eĠS":11354,"çĤ®åħµ":11355,"ash":11356,"ä¸īåįģå¹´":11357,"ä¸Ńéĥ¨æĹ¶åĮº":11358,"EM":11359,"oth":11360,"äºı":11361,"æİ¥åĬĽ":11362,"åĲĦçķĮ":11363,"å¸ķæĭī":11364,"æłĳæŀĹ":11365,"èµĦæł¼èµĽ":11366,"æ¸¸åĩ»éĺŁ":11367,"6è°ĥå¿«ä¸Ģå°ıæĹ¶":11368,"rist":11369,"çļĦè§ĤçĤ¹":11370,"åĮ¾":11371,"éĩĮå¥ĩ":11372,"åĲĪèĤ¥":11373,"ä¸ĩå¼ł":11374,"ç¡Ĵ":11375,"æĬ¤å£«":11376,"è¯Ńè¨ĢçļĦ":11377,"çļĩå®¶æµ·åĨĽ":11378,"ä¾¦æİ¢":11379,"CDT":11380,"æ²¿æµ·çľģä»½":11381,"åį³åĮĹç¾İä¸Ńéĥ¨æĹ¶åĮº":11382,"AA":11383,"Ġåħ¶åĲİ":11384,"è¿Ń":11385,"å¯¹è¯¥":11386,"å°Ĩè¯¥":11387,"ä½ĵåĨħ":11388,"éŁ¶":11389,"æİ¥å¾ħ":11390,"åı¸éķ¿":11391,"çĽ´éĢļ":11392,"çĥ¤":11393,"åĲĦçľģ":11394,"å¸¦åĪ°":11395,"é¦Ļæ¸¯çĶµå½±":11396,"çłĶç©¶äººåĳĺ":11397,"eng":11398,"æ³°å°Ķ":11399,"å´Ľèµ·":11400,"ç¤¼éĥ¨":11401,"èī¾å°Ķ":11402,"ç³»åĪĹèµĽ":11403,"å«Ķ":11404,"åıįå¯¹æ´¾":11405,"åľ¨2010å¹´":11406,"è¿Ļä¹Ł":11407,"å¤ļä½į":11408,"æľĢèĳĹåĲįçļĦ":11409,"æĿ¡çº¹":11410,"å¿«ä¹Ĳ":11411,"æ¯ķä¸ļçĶŁ":11412,"ä¿Ŀå®Īåħļ":11413,"ä¼ĬåĪ©è¯ºä¼Ĭå·ŀ":11414,"åĴĮè§£":11415,"åĮĹåį¡ç½Ĺ":11416,"è¿ĩå¾Ģ":11417,"ä¼łè®°":11418,"èĮ¹":11419,"ä»ĸçļĦçĪ¶äº²":11420,"èįīåľ°":11421,"åŃĻåŃĲ":11422,"èĸ¯":11423,"rig":11424,"å¯ĦçĶŁ":11425,"åı¹":11426,"ä¸ºåĲį":11427,"å»ĵ":11428,"å¤ļå®¶":11429,"åĮĹä¼Ĳ":11430,"æķĻå¯¼":11431,"å¤ĸç±į":11432,"å°ıéķĩ":11433,"å·´æĭ¿":11434,"ç¬¬ä¸Ģè½®":11435,"æľįé¥°":11436,"ç»Ļäºĭä¸Ń":11437,"æī¹å¤į":11438,"æ»¡æĦı":11439,"è¿ģåħ¥":11440,"éĢłæĪĲäºĨ":11441,"åĪĬçī©":11442,"ä¸Ńåįİæ°ĳåĽ½æĶ¿åºľ":11443,"èĳ¡èĲĦçīĻè¯Ń":11444,"çĸ¯çĭĤ":11445,"éĺ¿å°Ķå·´å°¼äºļ":11446,"SP":11447,"ps":11448,"Ġçī¹å¾ģ":11449,"ä¸ºä¸Ģä¸ª":11450,"å½Ŀ":11451,"ä½įå±ħ":11452,"æĸ°åĮº":11453,"ç¼ī":11454,"ç®¡éģĵ":11455,"å¤«çī¹":11456,"æ¨¡ç³Ĭ":11457,"åĨĻæĪĲ":11458,"æĸ¯å¨ģ":11459,"åīįä»»":11460,"åı°çļĦ":11461,"è¾¾åĪ°äºĨ":11462,"æŃ£å¾·":11463,"åħļæ´¾":11464,"æĽ´æľī":11465,"115":11466,"è§ģéĿ¢":11467,"åįĩéĻį":11468,"ç¤¾ä¼ļçļĦ":11469,"å®ģåİ¿":11470,"çļ®å°Ķ":11471,"éĨĽ":11472,"åī©ä¸ĭ":11473,"æĭ³åĩ»":11474,"ç½¢åħį":11475,"350":11476,"rin":11477,"å¼¼":11478,"æĹ¥èĢ³æĽ¼":11479,"å¼ĢéĻ¤":11480,"åĲĪéĢĤ":11481,"æĹłæķĪ":11482,"117":11483,"é£İéĢŁ":11484,"åįłæ¯Ķ":11485,"ä¹ĭä¸ĢçļĦ":11486,"åħ³ç³»çļĦ":11487,"çıłæµ·":11488,"å¢ĥå¤ĸè¾ĵåħ¥":11489,"çŀĦåĩĨ":11490,"Com":11491,"ML":11492,"åĨ¥":11493,"åĴĮä¸ŃåĽ½":11494,"ç«ĻåĨħ":11495,"å°¼çļĦ":11496,"åįİçº³":11497,"ä½ľåĵģä¸Ń":11498,"å®ģå¤ı":11499,"å·¡èĪª":11500,"åģĩæĹ¥":11501,"åĮºçļĦè´Łè´£ç®¡è¾ĸ":11502,"ĠTheĠ":11503,"è¿«å®³":11504,"åıĤèµĽèĢħ":11505,"çĲ³å¨ľ":11506,"æĸĳçĤ¹":11507,"æŁ´æ²¹æľºè½¦":11508,"çĶµæ°ĶåĮĸ":11509,"ç»ĳæŀ¶":11510,"!âĢĿ":11511,"yl":11512,"åĴĮé«ĺ":11513,"éĽģ":11514,"äºĮçĻ¾":11515,"çĽ¸ä¼ł":11516,"ç»ĦçļĦ":11517,"ç»´æĭī":11518,"æ£ł":11519,"å¹¿å²Ľ":11520,"åĨ³å¿ĥ":11521,"åħīæĺİ":11522,"æīĵåħ¥":11523,"åĲīæĸ¯":11524,"å¼ĹåĲī":11525,"åĩıè½»":11526,"æĪĺæĸĹä¸Ń":11527,"çĲĨå·¥å¤§åŃ¦":11528,":ãĢĬ":11529,"Ġé¥°":11530,"æĹ¶éĢŁ":11531,"äºĨåħ¶":11532,"åı¯å®¹çº³":11533,"è¡¨å½°":11534,"æİ¥é©³":11535,"æ¸¯åĮº":11536,"å®ŀè´¨":11537,"ä¿Ŀåģ¥":11538,"èĬĤæĹ¥":11539,"è¾ĥå°ıçļĦ":11540,"137":11541,"æ³°åĽł":11542,"100ç±³":11543,"ä¾µèļĢ":11544,"éī´äºİ":11545,"Ġä¸Ĭ":11546,"ĠåİŁ":11547,"Ġåıĳå±ķ":11548,"åľ¨ä»Ĭ":11549,"åĩºèµĦ":11550,"åħ¬æŃ£":11551,"æ¸´":11552,"æ¬¡çļĦ":11553,"ä¸Ģä¸ªäºº":11554,"101":11555,"æĻ®æ£®":11556,"è¿ĺåı¯ä»¥":11557,"è§£ä½ĵ":11558,"ä¾ĭå¤ĸ":11559,"è±ļ":11560,"çĽŁåıĭ":11561,"ä¸ĥä¸ª":11562,"å¹²äºĭ":11563,"2010å¹´ç¾İåĽ½äººåı£æĻ®æŁ¥":11564,"æ®¿è¯ķ":11565,"åĽ½ç«ĭåı°æ¹¾":11566,"çľģéģĵåı°":11567,"å¯ĨèĭıéĩĮå·ŀ":11568,"ean":11569,"Ġre":11570,"åľ¨ä¼¦æķ¦":11571,"ä¸Ģè¯´":11572,"æĺ¯å°Ĩ":11573,"æĺ¯éŁ©åĽ½":11574,"æľĪåĪĬ":11575,"ä¹ĭåĪĿ":11576,"åħĭä¼¦":11577,"éĩĳæĸ¯":11578,"éĶ£":11579,"æ²³åĨħ":11580,"æĺŁäºĳ":11581,"ä¸ĩåĲ¨":11582,"æ»ĩ":11583,"éĺ²æĬ¤":11584,"åıĮåĲĳ":11585,"Ġ1995å¹´":11586,"æĥ©ç½ļ":11587,"å½ĹæĺŁ":11588,"åį¡æĸ¯èĴĤåĪ©äºļ":11589,"Ġè¿Ļé¢Ĺå°ıè¡ĮæĺŁçļĦç»Ŀå¯¹æĺŁçŃīä¸º":11590,"5æľĪ1æĹ¥":11591,"Pa":11592,"eat":11593,"çļĦå¿ĥ":11594,"æĺ¯ä»ĸ":11595,"éķ¿èĢģ":11596,"åħ¥åŃ¦":11597,"å¥¥æīĺ":11598,"åĽ½å®¶åĴĮ":11599,"è®ºè¿°":11600,"æ´¾ç³»":11601,"éĿĴéĵľ":11602,"è®²è¯Ŀ":11603,"çºªå¿µé¦Ĩ":11604,"åĲĽå£«åĿ¦ä¸ģåł¡":11605,"Ġal":11606,"åĽ½å°ı":11607,"åĴĮè¥¿":11608,"æķķ":11609,"ä¼ļè®¡":11610,"è¡Įç¨ĭ":11611,"åĩºåħµ":11612,"èĥļ":11613,"äºļçĥŃå¸¦":11614,"èĪ¶":11615,"åľºä¸Ĭ":11616,"å°ıé¡¹":11617,"åħ°å¾·":11618,"çİĭå®ī":11619,"å±ĢéĿ¢":11620,"ç¥ŀåŃ¦":11621,"å¼ķåĬĽ":11622,"ç»Ļåĩº":11623,"æĬķå½±":11624,"èĢģæĿ¿":11625,"åºĦåĽŃ":11626,"round":11627,"ä¼ĳéĹ²":11628,"å¾·éĩĮå¸Į":11629,"MC":11630,"åľ¨ä¸ľ":11631,"1910å¹´":11632,"æİ¥ä¸ĭæĿ¥":11633,"çĬģ":11634,"æ¸ħçĲĨ":11635,"é¥¿":11636,"éĢĤçĶ¨":11637,"ivers":11638,"æĶ¹ç¼ĸä¸º":11639,"å¤§ä¸ľéĥ¨":11640,"æľīå¾Īå¤ļ":11641,"èµİ":11642,"åıĳéĢģ":11643,"è·¯ä¸Ĭ":11644,"å½¢åĬ¿":11645,"åĪ«åĲį":11646,"åİĨåı²å»ºçŃĳ":11647,"çİ¯èĬĤ":11648,"ley":11649,"åı³ä¾§":11650,"ç»Ŀå¤§å¤ļæķ°":11651,"èľ¡":11652,"æįŁä¼¤":11653,"æĻ®ç½ĹæĹº":11654,"çļĦä¸ĭ":11655,"ä¸įè®º":11656,"ä¸įæĦ¿":11657,"è¢«è¯Ħä¸º":11658,"åĲĮäºĭ":11659,"æīĢçŁ¥":11660,"åı£å²¸":11661,"æĢ»ç®¡":11662,"æµģç¨ĭ":11663,"åī§åĽ¢":11664,"æķħæŃ¤":11665,"æĺ¾å¾Ĺ":11666,"èĥĮéĿ¢":11667,"è¿½éļı":11668,"çİ©æ³ķ":11669,"æĤ¬æĮĤ":11670,"åĸĩåĺĽ":11671,"çİ«çĳ°":11672,"OV":11673,"èµļ":11674,"éĥ¨ä½į":11675,"éĥ¨åī¯éĥ¨éķ¿":11676,"ãĢĬãĢĭ.":11677,"åı¯ä¾Ľ":11678,"æĢ»æķĻåĮº":11679,"ç¥ŀçļĦ":11680,"çļĦä¸ĢåĲį":11681,"åĪĿå§ĭ":11682,"æĢĿèĢĥ":11683,"åºŁæŃ¢":11684,"åĮĹèµ·é¡ºæĹ¶éĴĪä¸İ":11685,")ãĢį":11686,"Car":11687,"TS":11688,"eam":11689,"Ġè¯¥åľ°":11690,"è¿Ľä¿®":11691,"éģĵæķĻ":11692,"å®ĺåħµ":11693,"é¾Ļç±»":11694,"é¦Ļæ¸¯æĶ¿åºľ":11695,"éĥ¨åĪĨçļĦ":11696,"å®£èªĵ":11697,"ace":11698,"è½¨çĶµè½¦":11699,"æİ§åĪ¶çļĦ":11700,"ä¹Ķæ²»äºļ":11701,"çĻĮçĹĩ":11702,"ä¸ĢçĤ¹":11703,"äºİç¾İåĽ½":11704,"åĲİåĭ¤":11705,"ä¹ĭç§°":11706,"è¥¿åħĥ":11707,"åĲĮçŁ¥":11708,"200ç±³":11709,"ä½Ĩè¢«":11710,"åĽŀæĶ¶":11711,"113":11712,"å¸¦çĿĢ":11713,"å·¦ä¾§":11714,"è¿Ľåħ¥äºĨ":11715,"é¡¶éĥ¨":11716,"å®ªåħµ":11717,"åı¦ä¸Ģä½į":11718,"Ġ1996å¹´":11719,"æĢĢåŃķ":11720,"çģĮæľ¨":11721,"æ±ŁæĪ·æĹ¶ä»£":11722,"Äģ":11723,"çļĦåĪ¶ä½ľ":11724,"åĮĢ":11725,"ç«Ļä½įäºİ":11726,"ç¨½":11727,"æĶ¿åºľåĨĽ":11728,"åĨįåĬłä¸Ĭ":11729,"è¶³æĢ»":11730,"æİĴåºı":11731,"ç´¢å§Ĩ":11732,"åıĤä¸İèĢħ":11733,"æ³½è¿ŀ":11734,"äº«åıĹ":11735,"åĢ¾æĸľ":11736,"ç¢İçīĩ":11737,"èĤĸåĥı":11738,"åºĩæĬ¤":11739,"åĳĬç¤ºçīĮ":11740,"çĶ¨äºĨ":11741,"æ°ĳèĪª":11742,"éĵĢ":11743,"æĢ»éķ¿":11744,"éĩĳåĥı":11745,"æ·ĭ":11746,"æł·çļĦ":11747,"å½ĵåľ°å±ħæ°ĳ":11748,"è¿½è¸ª":11749,"3æľĪ31æĹ¥":11750,"ç½Ĺé©¬å¤©ä¸»æķĻ":11751,"1915å¹´":11752,"åŀĴæīĵ":11753,"ĠåĪ°":11754,"ä»Ĺ":11755,"åĪĨåī²":11756,"ä¹ĭçĪ¶":11757,"çĶµæľº":11758,"é©¬åĮ¹":11759,"é©¬åħ¶é¡¿":11760,"è£Ļ":11761,"ä¼łåħ¥":11762,"114":11763,"èĬĤçĤ¹":11764,"åŃ£åĨĽ":11765,"è§ĤæĶ¿":11766,"çĻ¾è´§":11767,"éĢļå¸¸ä¼ļ":11768,"æ¿Ģç´ł":11769,"åŁºç¡Ģè®¾æĸ½":11770,"æııè¿°äºĨ":11771,"æ¨¡å¼ıäº§åľ°":11772,"çŀ¬":11773,"éĻ¨åĿĳ":11774,"çļĦäºĭæĥħ":11775,"åī¥å¤º":11776,"ä¸Ģå¤Ħ":11777,"è¯ł":11778,"ä»ĸäºİ":11779,"ä»ĸåıĪ":11780,"ç¾Ł":11781,"åįĹè·¯":11782,"äºĮçŃī":11783,"ç«Ļæĺ¯":11784,"åı·åĴĮ":11785,"åĮħè£ħ":11786,"èİ·é¢ģ":11787,"æ¬§éĺ³":11788,"ç¥¨ä»·":11789,"è®¡åĪĴåľ¨":11790,"åĲ«éĩı":11791,"çĶŁæ´»çļĦ":11792,"240":11793,"Ġæľ¬å±ŀ":11794,"Ġåıĳè¡Į":11795,"Ġåħīç»ª":11796,"çļĦåĬŁèĥ½":11797,"åĲ¡":11798,"åľ¨é«ĺ":11799,"äººéĥ½":11800,"éĥ¨ä»¶":11801,"éķ¿å¾ģ":11802,"æı½":11803,"åĪ¶æľį":11804,"åħļéĥ¨":11805,"ç¦»å¿ĥ":11806,"åħĪéĶĭ":11807,"è¾¹çĸĨ":11808,"åįĬçĲĥ":11809,"è§Ĵèī²çļĦ":11810,"çº¦ç¿°éĢĬ":11811,"æ³ķåħ°è¥¿å¤§åĮº":11812,"å´©æºĥ":11813,"âĶĢâĶĢ":11814,"aur":11815,"Ġä½įäºİ":11816,"ä¸Ģä¹¦":11817,"ä¸ŃæĹ¥":11818,"ä¸Ńä¹Ł":11819,"ä¸Ĭæ³ķåħ°è¥¿å¤§åĮº":11820,"è¥¿å°Ķ":11821,"å¼Ģå°ģ":11822,"çĶµç£ģ":11823,"å°ıäºİ":11824,"åİ¿éģĵ":11825,"åİŁæĸĻ":11826,"å¤ªç¥ĸ":11827,"æĹ¥æľ¬æĶ¿åºľ":11828,"æĢĢçī¹":11829,"é¢Ĺç²Ĵ":11830,"æ³ķåħ°åħĭç¦ı":11831,"çĭ©çĮİ":11832,"cc":11833,"ç¬Ľ":11834,"åı¯æ±Ĺ":11835,"èĢħä¸º":11836,"è£¹":11837,"ç¿¡":11838,"æĭħå¿§":11839,"ari":11840,"å¸Įçī¹åĭĴ":11841,"1905å¹´":11842,"age":11843,"é«ĺçŃīåŃ¦æł¡":11844,"çļĦèĭ±åĽ½":11845,"åĴĢ":11846,"ä¸ªæĢ§":11847,"åħ¬æ¼Ķ":11848,"åĲĮæľĪ":11849,"åı¯çĶ¨äºİ":11850,"å½ĵåĪĿ":11851,"æĪĺæŃ»":11852,"å·¥èµĦ":11853,"æķ°åŃ¦å®¶":11854,"çİĭåĽ½çļĦ":11855,"åĵĪçī¹":11856,"æŁĵèī²":11857,"è¶³å¤ŁçļĦ":11858,"rosof":11859,"ä¼Ĭä¸½èİİçĻ½":11860,"TT":11861,"lin":11862,"pro":11863,"çļĦä¸ľ":11864,"èĩŃ":11865,"1900å¹´":11866,"è¥¿éĹ¨":11867,"æķĻä¹ī":11868,"æķ´æķ°":11869,"135":11870,"æīįä¼ļ":11871,"æĪĲåĳĺåĽ½":11872,"å®¾å¤ķ":11873,"æīĵåĩ»çİĩ":11874,"ĠäºĮ":11875,"çļĦåĨ³å®ļ":11876,"åľ¨çº¿":11877,"æĺ¯åħ¶":11878,"åĳ¢":11879,"ä¸įçŃī":11880,"å½ĵçĦ¶":11881,"å±±è°·":11882,"è¿Ĳä¼ļ":11883,"ä¼łä½ĽæķĻ":11884,"æĶ¶èİ·":11885,"çĻ½éĵ¶":11886,"ç¬¬äºĮå¤©":11887,"ä¸½ä¸Ŀ":11888,"é»İæĺİ":11889,"å³¡è°·":11890,"æĴĴåĨ·":11891,"åıĳçİ°äºĨæŃ¤å¤©ä½ĵ":11892,"æĮĸæİĺ":11893,"çĢĳ":11894,"åĵĪèĲ¨åħĭæĸ¯åĿ¦":11895,"LE":11896,"ä¸ºé¦Ļæ¸¯":11897,"äºİæĹ¥æľ¬":11898,"åħ¬è½¦":11899,"èĩ´åĳ½":11900,"èĢ¶è·¯":11901,"æµģè¡ĮéŁ³ä¹Ĳ":11902,"æŃ¦è£ħéĥ¨éĺŁ":11903,"æ¡ĤæŀĹ":11904,"éĺ¿å§Ĩæĸ¯çī¹":11905,"èĨ¨èĥĢ":11906,"Ġæĺİ":11907,"Ġä¼Ĭ":11908,"çļĦäº²":11909,"ä¸įå¹¸":11910,"çĶŁæĦı":11911,"107":11912,"åı·åľ¨":11913,"æĦŁè°¢":11914,"ett":11915,"èģĶèµĽåĨłåĨĽ":11916,"ç§ĳæĬĢå¤§åŃ¦":11917,"CE":11918,"Wh":11919,"å¤§åĬĽ":11920,"æľī1":11921,"âĢĭ":11922,"æ²Ľ":11923,"è¯¥çī©ç§įçļĦ":11924,"èĲĮ":11925,"åı²ç§°":11926,"12æľĪ1æĹ¥":11927,"æĻ®éĽ·":11928,"å¤´çļĦ":11929,"åı¯èĥ½çļĦ":11930,"éħįå¥Ĺ":11931,"çĶ²ç»Ħ":11932,"è´Ŀæĭī":11933,"çł´äº§":11934,"éħĴåĲ§":11935,"æĴ¤åĽŀ":11936,"äºİ1995å¹´":11937,"æĻ®ç½ĹæĹºæĸ¯":11938,"æ³½è¿ŀæĸ¯åŁº":11939,"HE":11940,"ien":11941,"Ġæ¸ħ":11942,"Ġä¸ĢèĪ¬":11943,"ä¼ļè§ģ":11944,"ä»ĸæĭħä»»":11945,"èĪ·":11946,"å½ĵå¹´çļĦ":11947,"ä½ĨåĽłä¸º":11948,"åħ³æĬ¼":11949,"é¦ĸéĥ¨":11950,"å¸ĪåĽ¢":11951,"èĹī":11952,"å®¡çĲĨ":11953,"åĬ¨çī©çļĦ":11954,"ä¸ĢçĽ´åľ¨":11955,"èģĶéĤ¦æĶ¿åºľ":11956,"çĪµä½į":11957,"è£ģåĨ³":11958,"Ġ1993å¹´":11959,"ä¸ºä¸»çļĦ":11960,"ek":11961,"åľ¨2013å¹´":11962,"è¿Ļéĥ¨çĶµå½±":11963,"åįĹåĮº":11964,"å¢Ł":11965,"ç»ĵè¯Ĩ":11966,"åħļå§Ķ":11967,"çĻ½å®«":11968,"144":11969,"ç®Ģæĺĵ":11970,"èµŀæī¬":11971,"ä¼ģä¸ļå®¶":11972,"æıŃéľ²":11973,"è¿·ä½łä¸ĵè¾ĳ":11974,"Ġæµ·":11975,"çļĦèĩª":11976,"çļĦéľĢæ±Ĥ":11977,"å¤§çģ«":11978,"ä¸įå¤ª":11979,"åĪĨæķ°":11980,"æ³ķå¸Ī":11981,"èµĽé©¹":11982,"äºĶçĻ¾":11983,"ank":11984,"è½¬åħ¥":11985,"æ®µçļĦ":11986,"ä¸Ńå¤®åĨĽå§Ķ":11987,"çªģè¢Ń":11988,"åıĸä»£äºĨ":11989,"æ³¨æĦıåĪ°":11990,"åľ¨ä¸Ĭ":11991,"åľ¨ç¬¬":11992,"å½ª":11993,"å·ŀåĴĮ":11994,"çĤĴ":11995,"æ°´ä¸Ń":11996,"éĺ¿å¡ŀæĭľçĸĨ":11997,"ä¸ĵæłı":11998,"å¥ĸçļĦ":11999,"å¹²æ¶ī":12000,"å®ĭæľĿ":12001,"éĺ¿æĭīæĸ¯":12002,"äº¤æµģéģĵ":12003,"æ°Ķè±¡å±Ģ":12004,"åķ¤éħĴ":12005,"Ġend":12006,"åĲĭ":12007,"æĹ¥æĸĩ":12008,"æ¯Ļ":12009,"æĪĺäºĭ":12010,"ä½¿ä»ĸ":12011,"éŁ§":12012,"ä»İå°ı":12013,"çĸ²":12014,"äº¬å¸Ī":12015,"è¯ºåħĭ":12016,"åĲīç¥¥":12017,"ä¸Ńå¤®çĶµè§Ĩåı°":12018,"åľ°æĸ¹æĶ¿åºľ":12019,"ref":12020,"1904å¹´":12021,"èĢ¶è·¯æĴĴåĨ·":12022,"Br":12023,"der":12024,"ä¸ºä¸»è¦ģ":12025,"è¿Ļä¹Ī":12026,"æľĢå°ĳ":12027,"åı°å¤§":12028,"æ¯Ķ0":12029,"çĶ·äºº":12030,"ä»¥åıĬåħ¶ä»ĸ":12031,"å½±åĵįçļĦ":12032,"è°ĥæŁ¥å±Ģ":12033,"èĶ¬":12034,"ower":12035,"ç§ŁåĢŁ":12036,"æĬķåħ¥ä½¿çĶ¨":12037,"æĦıåĳ³èĳĹ":12038,"æµıè§Ī":12039,"co":12040,"çļĦå¦»åŃĲ":12041,"åľ¨åĽ½éĻħ":12042,"æ°ĳç±į":12043,"åĮĹéĿ¢":12044,"ä¹Łå¼Ģå§ĭ":12045,"é©¬å°¼":12046,"æĢ»åĢ¼":12047,"çĽ®çļĦåľ°":12048,"æ¼Ķè¯´":12049,"æĹ¥æľ¬äºº":12050,"æ´¾äºº":12051,"èĢģèĻİ":12052,"8æľĪ31æĹ¥":12053,"ç¬¬åįģåĽĽ":12054,"æ¼«çĶ»å®¶":12055,"åĢ¡è®®":12056,"!ãĢį":12057,"Dav":12058,"åħ¨å¸Ĥ":12059,"æ¹¾ä»Ķ":12060,"æĳĬ":12061,"çłĶç©¶çļĦ":12062,"éĩĩè´Ń":12063,"æ³°ç±³å°Ķ":12064,"å¯Įæľī":12065,"åĤ²":12066,"åĲĪä½ľçļĦ":12067,"è¯¯å·®":12068,"è¾ħéŁ³":12069,"æĶ¶å½ķäºĨ":12070,".,":12071,"Ġäºİ":12072,"ä¸Ģæĸ¹éĿ¢":12073,"å¹¶æĭħä»»":12074,"æ³ķäºº":12075,"èģĬ":12076,"ä¹Łè¢«ç§°ä¸º":12077,"æķ°æ¬¡":12078,"ç»ĵçĽŁ":12079,"åħļå§Ķä¹¦è®°":12080,"çºªå¾ĭ":12081,"é¾ļ":12082,"æĶ¯åĩº":12083,"æĽ²çº¿":12084,"çļĦä¸ĢæīĢ":12085,"èīºåĲį":12086,"ä¾¿åĪ©":12087,"ç®¡çĲĨçļĦ":12088,"è¿Ļä¸ĢçĤ¹":12089,"ä¿ĿçķĻäºĨ":12090,"æĸ¼":12091,"åħ¬çĽĬ":12092,"èĢĮæŃ»":12093,"è¢«æİĪäºĪ":12094,"æĸĩä¹¦":12095,"åĽłçĹħ":12096,"æĪĺä¿ĺ":12097,"æ°´çļĦ":12098,"æ¼Ķåıĺ":12099,"ä¹ĲåĿĽ":12100,"éĴ¾":12101,"éĿ¢ç§¯2":12102,"å®¶æĹıçļĦ":12103,"å®ĺæĸ¹ç½ĳç«Ļ":12104,"è¿İæİ¥":12105,"å®īä¸ľå°¼":12106,"æ¦´å¼¹":12107,"Ġå¥¥":12108,"éĩľ":12109,"åĩºç§Ł":12110,"çī¹ç§į":12111,"åĮĹè·¯":12112,"æĻĸ":12113,"çķ¿":12114,"103":12115,"åı·çłģ":12116,"äºĳæŀĹ":12117,"èı²å°Ķ":12118,"äºĨä¸Ģåľº":12119,"è¯¸ä¾¯":12120,"çļĦåľ°éĵģ":12121,"oci":12122,"çĲĨæŁ¥å¾·":12123,"ç¿¡ç¿ł":12124,"ĠåĲİæĿ¥":12125,"çļĦå®¶åºŃ":12126,"ä¸ĭåİ»":12127,"æĸ°åħ´":12128,"èĪĸ":12129,"éĹ´éļĶ":12130,"åĮĸçī©":12131,"éĩĳé©¬":12132,"çĭ¸":12133,"èº«è¾¹":12134,"åľŁèĳĹ":12135,"éĩĩéĽĨ":12136,"è®²å¸Ī":12137,"å¾ħéģĩ":12138,"æµ·æĭĶé«ĺåº¦2":12139,"ä¼Łå¤§çļĦ":12140,"Īå½¢çĽ®":12141,"åľ¨åį°åº¦":12142,"äººåĿĩ":12143,"åĴĮæŃĮ":12144,"ä¼ļè°Ī":12145,"å¤©çİĭ":12146,"ç½ĹæĿ°":12147,"åħ³èĬĤ":12148,"å¥³å£«":12149,"ä¼łéĢģ":12150,"æ´¾å¾Ģ":12151,"æĦŁåıĹ":12152,"å¾ģåı¬":12153,"å¸ķåħĭ":12154,"æĵįçºµ":12155,"lix":12156,"çİĭæľĿçļĦ":12157,"Ġbegin":12158,"æĸ°çĸĨç»´åĲ¾å°Ķ":12159,"äº¤åıīåı£":12160,"å®¾å¤ķæ³ķ":12161,"EX":12162,"ult":12163,"åľ¨åľ°":12164,"åľ¨2020å¹´":12165,"ä¸Ńä»¥":12166,"éĻĩ":12167,"éķ¿æĹ¶éĹ´":12168,"éĢļåĭ¤":12169,"åħ¨ä¹¦":12170,"åįİè¯Ń":12171,"æĹłéľĢ":12172,"ç´¢å°Ķ":12173,"ä¸ĢçĽ´æĺ¯":12174,"ç¬¬äºĮæ¬¡ä¸ĸçķĮå¤§æĪĺæľŁéĹ´":12175,"ĠåĲİ":12176,"åľ¨å¯¹":12177,"äººæĺ¯":12178,"æ³µ":12179,"ä¹ĭçĶ¨":12180,"åĵ¨":12181,"åĮĹä¸Ĭ":12182,"çĶ»ä½ľ":12183,"èİ±çī¹":12184,"ä»¥åıĬä¸ŃåĽ½å¤§éĻĨçļĦ":12185,"æľ¨æĿĲ":12186,"çİĽæł¼":12187,"äºĨä¸Ģç³»åĪĹ":12188,"ĠII":12189,"éħĭéķ¿":12190,"TR":12191,"land":12192,"ĠèĳĹä½ľ":12193,"çļĦèµĦæĸĻ":12194,"çļĦåĲįä¹ī":12195,"åŃ¦æ´¾":12196,"ä¹ĭäºĭ":12197,"åĲĮæľŁ":12198,"ä¸¤é¡¹":12199,"åı¤åŁİ":12200,"åĪĿä¸Ń":12201,"äº¦è¢«":12202,"å¤ĩåıĹ":12203,"èĢĥéĩı":12204,"çĶ²çº§èģĶèµĽ":12205,"æĸĻçĲĨ":12206,"ç§ĳåŃ¦æĬĢæľ¯":12207,"æĭľä»ģ":12208,"ä½©æĸ¯":12209,"æľĿé²ľåįĬå²Ľ":12210,"å®īå¾·é²ģ":12211,"æķ²åĩº":12212,"åĨħæĶ¿éĥ¨":12213,"æ¶¡è½®":12214,"å¥¹æĽ¾ä»£è¡¨":12215,"back":12216,"ren":12217,"çļĦæľº":12218,"çļĦå£°éŁ³":12219,"åľ¨2009å¹´":12220,"åħ¨ç¨ĭ":12221,"äº¤ä¼ļ":12222,"å¡Ķæĭī":12223,"èĲ¥éĢł":12224,"è´Łæĭħ":12225,"åĺİ":12226,"æĺ¾çĦ¶":12227,"é¢ĦèŃ¦":12228,"æ¸©åĵ¥":12229,"Ġth":12230,"ĠtoĠ":12231,"åĨ°å²Ľ":12232,"çŃĶåºĶ":12233,"çĭŃçªĦ":12234,"ystem":12235,"6Ġ":12236,"Ġå¤ļ":12237,"çļĦåıĺåĮĸ":12238,"ä»¥0":12239,"æµ·æ»©":12240,"ä½ĨåĲİæĿ¥":12241,"å°±æŃ¤":12242,"çĤ¹æĺ¯":12243,"çĸ¼":12244,"å¤ªæŀģ":12245,"ç¬¬ä¸ĢåĲį":12246,"çĽĳæµĭ":12247,"æĸ¯çī¹æĭī":12248,"èµŀæĪĲ":12249,"èĶļ":12250,"éĥĳå·ŀ":12251,"ç½ĳçĲĥåħ¬å¼ĢèµĽ":12252,"çļĦå»ºè®®":12253,"åħĭæ´Ľ":12254,"âĢĿ()":12255,"æĪĺçļĦ":12256,"ç½Ĺå®¾":12257,"18ä¸ĸçºª":12258,"å°±èģĮ":12259,"åĲĦæľī":12260,"è½¬æĬķ":12261,"èĲ¥åľ°":12262,"éĢŁçİĩ":12263,"èĪªè¿Ĳ":12264,"éĤ£æĹ¶":12265,"æ»¡è´¯":12266,"Ġ1992å¹´":12267,"åŁºç¡Ģä¸Ĭ":12268,"åĪ¶éĢłçļĦ":12269,"Ġ188":12270,"èĶ¡èĭ±æĸĩ":12271,"å¼¯æĽ²":12272,"ç»ıçºªåħ¬åı¸":12273,"æĭ¦æĪª":12274,"æ¸©åĵ¥åįİ":12275,"App":12276,"PP":12277,"ve":12278,"çļĦæĿĥåĪ©":12279,"åľ¨2012å¹´":12280,"æµ·å§Ĩ":12281,"å·´å·´":12282,"å®ŀçĶ¨":12283,"éĻ¤éĿŀ":12284,"ä¾Ŀæ³ķ":12285,"å®¡è®®":12286,"äºİ1996å¹´":12287,"æĲŃä¹ĺ":12288,"æĿĨèıĮ":12289,"ount":12290,"4åı·":12291,"ĠåĵĪ":12292,"æķĸ":12293,"æ²ģ":12294,"çĽ®å½ķ":12295,"çİĭæľ±":12296,"åħ¶ä»ĸäºº":12297,"èŃ¦åį«":12298,"åıĮéĩį":12299,"çº¢æĹĹ":12300,"å°Ħçº¿":12301,"olog":12302,"è´¢ç»ı":12303,"ç»ĵæĿŁæĹ¶":12304,"ĠTh":12305,"æĭįæĳĦçļĦ":12306,"ãĢī,":12307,"å¥Īå°Ķ":12308,"çħ¤çŁ¿":12309,"çĽ¸äºĴä½ľçĶ¨":12310,"IU":12311,"çļĦéĤ®æĶ¿ç¼ĸçłģä¸º":12312,"åĴĮæ°´":12313,"ä¸Ĭæ¼Ķ":12314,"ä¸įåĬ¨":12315,"åĬłåī§":12316,"ä¸ŃåĽ½åĽ½å®¶":12317,"å¯ĨæŃĩ":12318,"æĬ¤çĲĨ":12319,"åĨ³å®ļå°Ĩ":12320,"æĳĦæĶ¿":12321,"sĠof":12322,"ç«¥å¹´":12323,"1906å¹´":12324,"urn":12325,"able":12326,"çĶµåĬĽæľºè½¦":12327,"è¿½æº¯èĩ³":12328,"Bl":12329,"Ġèĩ³":12330,"çļĦåı¯":12331,"åıĳæĶ¾":12332,"èĩªæĦ¿":12333,"å¹³åĿ¦":12334,"2018":12335,"æĭīèĲ¨":12336,"éĩįåĬĽ":12337,"å®īè¾¾":12338,"æ¯ĶåĪĨ":12339,"åį¡æ´Ľæĸ¯":12340,"ç¦ıåħĭ":12341,"ä¸īä¸ªæľĪ":12342,"åİļçļĦ":12343,"åµ©":12344,"æĽĿåħī":12345,"Vi":12346,"Ġ5æľĪ":12347,"çļĦåįĹ":12348,"åľ¨2018å¹´":12349,"ä¸Ģäºĭ":12350,"çĶ±èĭ±åĽ½":12351,"çİ°éĩĳ":12352,"è¦ģç´ł":12353,"ç¼®":12354,"10æľĪ25æĹ¥":12355,"å¤ĦæŃ»":12356,"å²Ľå¼ı":12357,"åķ¦":12358,"åķ¸":12359,"æŃ¦åĬŁ":12360,"å¾Īæľī":12361,"å¥ĩå¹»":12362,"äºĨä¸Ģä»½":12363,"é¤Ĳé¥®":12364,"æĭīä¸ģè¯Ń":12365,"Ġæ¦Ĥè¿°":12366,"æ£ķèī²":12367,"å¯ĨæŃĩæł¹":12368,"çļĦç»ĵæŀĦ":12369,"çļĦå®īåħ¨":12370,"ä¸Ģæŀ¶":12371,"åĴĮé©¬":12372,"åŃ¦åİĨ":12373,"ä¸įæķ¢":12374,"åĲĮä¸Ģä¸ª":12375,"çī¹ç½Ĺ":12376,"åĨħå¤ĸ":12377,"åįģä¹Ŀå¹´":12378,"æĢ»æķ°":12379,"å±ŀçļĦä¸Ģç§į":12380,"å¥¥åĪ©":12381,"åıįåĵį":12382,"çĬĢ":12383,"åģľçģ«":12384,"éļ¾åº¦":12385,"å·²ç»ıè¢«":12386,"ä¸¥åİī":12387,"æ²ĥå¤«":12388,"çº½çº¦æĹ¶æĬ¥":12389,"æłĸæģ¯æ·±åº¦":12390,"åıĺæĪĲäºĨ":12391,"æĭĵè·ĭ":12392,"ä¸ĩç¾İåħĥçļĦ":12393,"éĵ¸éĢł":12394,"çĽĳå¯Łå¾¡åı²":12395,"æ°¨éħ¸":12396,"ç£·éħ¸":12397,"Facebook":12398,"box":12399,"lic":12400,"åľ¨2014å¹´":12401,"è¡Ļ":12402,"å¤§æ³ķå®ĺ":12403,"åŃ¦éĩĳ":12404,"åĪĨçº§":12405,"æ±Łå¸Ĥ":12406,"lat":12407,"åĮ»èį¯":12408,"æ·±å¤ľ":12409,"åĩłç§į":12410,"å¼¹éģĵ":12411,"æľįåĬ¡åĻ¨":12412,"æİĴåĲįç¬¬":12413,"äº¤æ±ĩå¤Ħ":12414,"å¤§ä¸ľéĥ¨å¤§åĮº":12415,"360":12416,"åľ¨2011å¹´":12417,"éĥ¨ä½ľåĵģ":12418,"ä¸İæĸ°":12419,"æ°ĳæĦı":12420,"å¯¹ç«ĭ":12421,"ä¸īéĩį":12422,"âĢĿâĢľ":12423,"èģĶæĴŃ":12424,"åħ³ç¨İ":12425,"æ·Ĩ":12426,"ç¼ĸç¨ĭ":12427,"æ¸ħæĻ¨":12428,"æŀĦå»º":12429,"ä»£è¡¨ä½ľ":12430,"åıĳçĶŁåĲİ":12431,"ç£º":12432,"çĪ¶äº²çļĦ":12433,"é¥®æĸĻ":12434,"éħīç§ĳ":12435,"Ex":12436,"NH":12437,"Ġè®¸å¤ļ":12438,"åľ¨2015å¹´":12439,"ä¸º5":12440,"ä½įåľ¨":12441,"åĬłéĩĮ":12442,"åĲĪéĩĳ":12443,"èİ·åĩĨ":12444,"æĶ¶åĽŀ":12445,"çŁ¥åĲįçļĦ":12446,"å²ģä»¥ä¸ĭ":12447,"éĤ®ä»¶":12448,"é¢ĹæģĴæĺŁ":12449,"éĺ»ç¢į":12450,"èĪŀåı°åī§":12451,"ĠæĹ©å¹´çĶŁæ´»":12452,"duc":12453,"Ġç±³":12454,"çļĦå¤©":12455,"æĺ¯è¢«":12456,"éķ¿å´İ":12457,"æŃ¤å¤Ħ":12458,"âĢĿ),":12459,"ç«ĻåĴĮ":12460,"åıĤè®®":12461,"åĬŀåŃ¦":12462,"æŃ¦å£«":12463,"äº¦ä¼ļ":12464,"ä»ħåľ¨":12465,"æ³¨éĩį":12466,"è¯Ŀé¢ĺ":12467,"ä¼łç»Łä¸Ĭ":12468,"æĴ¤åĩº":12469,"åĨ·åį´":12470,"æĿ¡ä»¶ä¸ĭ":12471,"æľīæķĪçļĦ":12472,"æįĲæ¬¾":12473,"ä»£çłģä¸º0":12474,"æ³¢ç½ĹçļĦæµ·":12475,"sectionĠbegin":12476,"Ġæ²Ļ":12477,"çļĦåĨĽéĺŁ":12478,"çļĦè¿ĩç¨ĭä¸Ń":12479,"ãĢĭ)":12480,"çľ·":12481,"åĮĸå·¥":12482,"ç»Ħéķ¿":12483,"ç»´æĸ°":12484,"è§Ĩè§Ĵ":12485,"ç¬¬ä¸Ģä»»":12486,"å³»":12487,"æį¢åıĸ":12488,"é³ļ":12489,"é¢Ŀå¤ĸçļĦ":12490,"æ··æ·Ĩ":12491,"ä¸Ģå¹´åĲİ":12492,"åıĻäºĭ":12493,"åİ¿çļĦåŁİå¸Ĥ":12494,"éªļæī°":12495,"ele":12496,"ä¸ĢæľŁ":12497,"å¼Ĭ":12498,"è¥¿å²¸":12499,"å¼Ģéĩĩ":12500,"èİŀ":12501,"èµĽåĲİ":12502,"ä¸ļèĢħ":12503,"ç»Ħä»¶":12504,"åĽĽåĲį":12505,"è¯´è¯Ŀ":12506,"ä¼łæŁĵ":12507,"116":12508,"å®Įç»ĵ":12509,"å¢ŀèĩ³":12510,"æĶ»åħĭ":12511,"form":12512,"éŁ³ä¹Ĳå®¶":12513,"åİĭåĪ¶":12514,"å¯Įåħ°":12515,"æĸŃå±Ĥ":12516,"illa":12517,"éĵ¾æİ¥":12518,"åĨħèĴĻåı¤èĩªæ²»åĮº":12519,"otĠ":12520,"çļĦç»Ħç»ĩ":12521,"åŃ¦çķĮ":12522,"2016":12523,"è¶¾":12524,"éĩįæĴŃ":12525,"ä¼łè¾¾":12526,"incl":12527,"ä¿¡éķ¿":12528,"æŀľå®ŀ":12529,"ä»£è¡¨éĺŁ":12530,"éĥ¡çļĦ":12531,"äºĮåįģä¸ĸçºª":12532,"äºİ1994å¹´":12533,"åįķæĽ²æ¦ľ":12534,"è§£åĨ³æĸ¹æ¡Ī":12535,"1çļĦ":12536,"çļĦçĲĥåĳĺ":12537,"åĽ½åŃĲ":12538,"çī¹åĴĮ":12539,"è¯¥å¸Ĥéķĩ":12540,"å¤©åĲ¯":12541,"æ®´":12542,"124":12543,"12æľĪ28æĹ¥":12544,"æ²³ä¸ľ":12545,"å¨ģæĸ¯":12546,"è¯ĦåĪĨ":12547,"åĬ©æĶ»":12548,"é£ŀèĪ¹":12549,"å®ĿçŁ³":12550,"9æľĪ30æĹ¥":12551,"åį±å®³":12552,"æĸ°å¢ŀå¢ĥå¤ĸè¾ĵåħ¥":12553,"åĨ¬åŃ£å¥¥æŀĹåĮ¹åħĭè¿ĲåĬ¨ä¼ļ":12554,"è´©åĶ®":12555,"ä¹Įé²ģæľ¨":12556,"ĠçĻ½":12557,"ä¸Ńçİ¯":12558,"ä¸ŃéĢĶ":12559,"æĹ¶æľī":12560,"éĥ¨ä¸ĭ":12561,"åĪĨå±Ģ":12562,"å®¶åºĦ":12563,"åĬłæ²¹":12564,"æ¡¶":12565,"æµģåħ¥":12566,"äºĶäºº":12567,"é£İåĬĽ":12568,"æ³¢åĪ©":12569,"å½±åĵįäºĨ":12570,"åģļçļĦ":12571,"ä¿Ħç½Ĺæĸ¯çļĦ":12572,"éģĩåĪ°äºĨ":12573,"åŁ¹èĤ²":12574,"èĤ¯å°¼":12575,"éħįéŁ³åĳĺ":12576,"éĵ¸å¸ģ":12577,"è´ªæ±¡":12578,"å¤§èĦĳ":12579,"èĢ»":12580,"ä¸įåºĶ":12581,"è°İ":12582,"åıĹä½ĵ":12583,"122":12584,"ä¼Ĭä¸ĩ":12585,"çļĦä¸Ģåľº":12586,"æĬ¤èĪª":12587,"çĮ©":12588,"ä¼¦çĲĨ":12589,"143":12590,"èĪ¹èĪ¶":12591,"50ç±³":12592,"çĤ®å¡Ķ":12593,"1908å¹´":12594,"æģ¶éŃĶ":12595,"åįłé¢ĨäºĨ":12596,"åĬ¨åĬĽåŃ¦":12597,"åĪĽéĢłäºĨ":12598,"çļĦåŁºç¡Ģä¸Ĭ":12599,"çºłçº·":12600,"çļĦè¯Ńè¨Ģ":12601,"ç¾İèģĶ":12602,"è·¯è½¨":12603,"anc":12604,"è¾¹ä¸º":12605,"èµ°äºĨ":12606,"act":12607,"ä¸įè¿ĩåľ¨":12608,"Ġæľ¬é±¼":12609,"èĨĽ":12610,"usic":12611,"æİĮç®¡":12612,"åįłåľ°éĿ¢ç§¯":12613,"çĲĨå·¥åŃ¦éĻ¢":12614,"ryĠ":12615,"çļĦæİ§åĪ¶":12616,"åľ¨åħ¨çĲĥ":12617,"ä¸ºéĤ»":12618,"åĽ½éĵģ":12619,"å¤ļè¾¾":12620,"åĨħåĬ¡":12621,"éĥ½å¾¡åı²":12622,"æİ¥æīĭ":12623,"éľľ":12624,"oreĠ":12625,"åĵĪå¸ĥ":12626,"æ±īäºº":12627,"æĹĹèĪ°":12628,"æĭīä¸ģç¾İæ´²":12629,"çħ¤çĤŃ":12630,"æĤīå°¼":12631,"3ä¾ĭ":12632,"çļĦä»»åĬ¡":12633,"éĥ¨åĴĮ":12634,"å¸ĥä¼¦":12635,"å°ıåŃ©":12636,"ons":12637,"èģĮå·¥":12638,"ä¸»è¦ģä¸º":12639,"æŃ¦åĬĽ":12640,"è§Ĥå¡ĺ":12641,"1930å¹´ä»£":12642,"ä»ĭäºİ":12643,"æ¼«å¨ģ":12644,"è¡ĹéģĵåĬŀäºĭå¤Ħ":12645,"ç½ļæ¬¾":12646,"çī¹æ®ĬçļĦ":12647,"é©¬åħĭæĢĿä¸»ä¹ī":12648,"æĢİä¹Ī":12649,"å¯Įåħ°åħĭæŀĹ":12650,"9ç±³":12651,"ä¸ºä»Ģä¹Ī":12652,"ä¸»æĴŃ":12653,"åĬ¨èĦī":12654,"éĩĮçº¦":12655,"å°Ĩè¢«":12656,"é©¬æģ©":12657,"ä¸ŃåĽ½æĶ¿åºľ":12658,"éĺ¿æĸ¯":12659,"åĲĳåīį":12660,"æ¸¯æ¾³":12661,"åıªå¥½":12662,"çłĶç©¶èĢħ":12663,"ä¹Įåħ¹":12664,"lex":12665,"åŃ¦çĶŁä¼ļ":12666,"æ°ĳä¸»æ´¾":12667,"èģļä¼ļ":12668,"å®ĩèĪª":12669,"èµĦæľ¬ä¸»ä¹ī":12670,"ç¥Īç¥·":12671,"sectionĠend":12672,"ä¹Įé²ģæľ¨é½Ĳ":12673,"çļĦä¸ªäºº":12674,"å¹¶ä»İ":12675,"æľĢéķ¿çļĦ":12676,"é©¬ä¸Ĭ":12677,"11ä¸ª":12678,"åĲīéļĨ":12679,"éĥ¡çİĭ":12680,"å¼ĢåıĳåĮº":12681,"èģĶçĽŁçļĦ":12682,"æ¬£èµı":12683,"éĽĮæĢ§":12684,"èĲ¨å°Ķçĵ¦":12685,"çļĨä¸ºéĻĨåľ°":12686,"èĤ¿çĺ¤":12687,"Ġèĭ¥":12688,"æĹ¶ä¸º":12689,"çĶŁå¹³":12690,"åĪĨåĮĸ":12691,"ä¸ĭè¡Į":12692,"å¯¹å¾ħ":12693,"102":12694,"æĶ¹æĪĲ":12695,"éķĩå®Ī":12696,"ini":12697,"æľĿéĺ³":12698,"æŃ¥éª¤":12699,"ä¹ĭåĲİåľ¨":12700,"åĲĮå¹´11æľĪ":12701,"åĤį":12702,"æłĩåĩĨçļĦ":12703,"çĪ¶äº²æĺ¯":12704,"è¯¸å¡ŀ":12705,"è¾©æĬ¤":12706,"æĥ¯ä¾ĭ":12707,"Ã¼":12708,"Ġçİ°ä»£":12709,"çļĦæŃ£":12710,"ä¸īæĺŁ":12711,"ä¸¤åľ°":12712,"ä¿Ŀå®ļ":12713,"åŀĭæĢģ":12714,"æ°ĶçĲĥ":12715,"åħĪé©±":12716,"å¸ĤéķĩèĮĥåĽ´åĨħ":12717,"è¡¥åģ¿":12718,"å¤ºåĽŀ":12719,"æīĢåľ¨çļĦ":12720,"ä¸»æ¼ĶçļĦ":12721,"æªĲ":12722,"åĩĳ":12723,"åĨĽçĶ¨":12724,"è¢«èªīä¸º":12725,"åĮĹç«¯":12726,"çº¦è®·":12727,"æĽ´å¥½":12728,"åıĺåĬ¨":12729,"è¶ħå¸Ĥ":12730,"åĥµ":12731,"é«ĺéĢŁéĵģè·¯":12732,"æ·±åľ³å¸Ĥ":12733,"é¥²åħ»":12734,"å¯Ĩè¥¿è¥¿æ¯Ķ":12735,",,":12736,"ä¼º":12737,"åĩºåĵģ":12738,"èĢĮæľī":12739,"å¾·åł¡":12740,"äºļçļĦ":12741,"äºļåĪ©":12742,"çĪ½":12743,"çº¦æĿŁ":12744,"æĶ¹è®¾":12745,"åħ«ä¸ª":12746,"æ¤įè¢«":12747,"èķ´":12748,"å¹´è½»äºº":12749,"å¤§çº²":12750,"ä¸īçĻ¾":12751,"æĪĺæľº":12752,"ä¸ĸå®Ĺ":12753,"11æĹ¶":12754,"åıįæĶ»":12755,"åıªæľīä¸Ģ":12756,"çº¢å¤ĸ":12757,"åıĳå±ķåĩº":12758,"å°ļæľī":12759,"olspan":12760,"å±ĭèĭĳ":12761,"åįĪç§ĳ":12762,"è¯łéĩĬ":12763,"çļĦçĽ¸åħ³":12764,"çļĦåı¯èĥ½æĢ§":12765,"åľ¨åħ¨åĽ½":12766,"åıĳæĸĩ":12767,"å¹¶æŃ¢äºİ":12768,"ç¾ŀ":12769,"æĮ½":12770,"âĢľ\"":12771,"æįŀ":12772,"é©¬è·¯":12773,"åħ¨ç¾İ":12774,"èĤª":12775,"äº¤äºĴ":12776,"2021":12777,"æ¢§":12778,"å¸Īä»İ":12779,"æĶ¾å¤§":12780,"çĻ½éĩĳ":12781,"ary":12782,"æĪ¿åľ°äº§":12783,"éŁ³ä¹Ĳå½ķå½±å¸¦":12784,"ç¤¼ä»ª":12785,"éĢļå¸¸åľ¨":12786,"å·¨æĺŁ":12787,"äºİ1992å¹´":12788,"çļĦçī¹æ®Ĭ":12789,"å¸®åĬ©ä¸ĭ":12790,"èĦĤèĤª":12791,"flix":12792,"Ġæ°ĶåĢĻ":12793,"ä»ĸä»İ":12794,"æ¸Ŀ":12795,"äºĭåıĳ":12796,"åĲĪåħ±":12797,"æ²»æĦĪ":12798,"é¦ĸæŃĮ":12799,"æį®ç§°":12800,"èİ·å¾ĹçļĦ":12801,"ä¸¤ä¸ªæľĪ":12802,"ĠåİĨåı²æ²¿éĿ©":12803,"Ġ1988å¹´":12804,"å§¿æĢģ":12805,"èĻĲå¾ħ":12806,"éĺ¿åŁºåĿ¦å¤§åĮº":12807,"aj":12808,"çļĦæĸĩç«ł":12809,"çĲ¦":12810,"ä¸ĭè¯ı":12811,"æľĢéķ¿":12812,"æīĢä½¿çĶ¨çļĦ":12813,"å±±å¯º":12814,"åħ³åį¡":12815,"areĠ":12816,"å¢ŀæı´":12817,"åĢĻè¡¥":12818,"èĬĤçĽ®ä¸Ń":12819,"åĲĮå¹´9æľĪ":12820,"äºĮåįģäºĮå¹´":12821,"çļĦå¤§å°ı":12822,"çİ©åħ·":12823,"è®¾ç½®çļĦ":12824,"ç»ıåİĨäºĨ":12825,"éĺħåħµ":12826,"çĦ¦èĻĳ":12827,"æĭĵå±ķ":12828,"éĽĩä½£":12829,"illiam":12830,"çļĦçī¹æľīæ¤įçī©":12831,"åĮĸåŃ¦å¼ıä¸º":12832,"çĢĳå¸ĥ":12833,"æĸ°çĸĨç»´åĲ¾å°Ķèĩªæ²»åĮº":12834,"Ġ20ä¸ĸçºª":12835,"ä¸ĢæĹ¶":12836,"äºļæĸ¯":12837,"è¿ĩå¤ļ":12838,"2017":12839,"ç±³åĵĪ":12840,"éĩįåıł":12841,"æł¼ç½Ĺ":12842,"äºĶä»£":12843,"éĵģè¾¾å°¼":12844,"åıªä¼ļ":12845,"æŃĮèĪŀ":12846,"è¯ĦéĢī":12847,"çĸĳä¼¼":12848,"æ¥ļåĽ½":12849,"æĹģè¾¹":12850,"æĽ¹æĵį":12851,"å¤ļå¹´æĿ¥":12852,"å¸ĪèĮĥåŃ¦æł¡":12853,"åĢ¡å¯¼":12854,"æĸĩèīºå¤įåħ´":12855,"åįıåķĨä¼ļè®®":12856,"BE":12857,"GP":12858,"ual":12859,"ww":12860,"Ġä¸ĩåİĨ":12861,"åľ¨20ä¸ĸçºª":12862,"è½¶":12863,"åĨĽæĶ¿":12864,"åĮĹåĮº":12865,"ä¸īçŃī":12866,"åįķè½¦":12867,"æ²¡æĶ¶":12868,"éĥ¨åĪĨåľ°åĮº":12869,"æŀĦæĥ³":12870,"èĲ¨æĳ©":12871,"17ä¸ĸçºª":12872,"éĽĦæĢ§":12873,"å®³æĢķ":12874,"ç¿»åĶ±":12875,"æ»ĳåĨ°":12876,"å¼ķèµ·çļĦ":12877,"çĪ±å¥½èĢħ":12878,"æĺİå°¼èĭıè¾¾å·ŀ":12879,"åİķæīĢ":12880,"6å²ģ":12881,"è¯µ":12882,"ä¸ŃåįĪ":12883,"ä»¥4":12884,"åĲİéĿ¢":12885,"ä¸įåĲ«":12886,"åħ¶éĹ´":12887,"ä¿©":12888,"åĪĨæ³Į":12889,"å¤©åľ°":12890,"èĤ½":12891,"çº¦4":12892,"åħĥèĢģ":12893,"éĴŀ":12894,"æ±Łåİ¿":12895,"å®Ĺåº§":12896,"æĹ©å·²":12897,"æ¾ľ":12898,"æĲģ":12899,"æĺ¯ä¸ĢæĿ¡":12900,"è¿ģåĪ°":12901,"1æĹ¥å¹³åĿĩ":12902,"çīĽé¡¿":12903,"çļĨæľī":12904,"1907å¹´":12905,"èĿ´":12906,"éī´å®ļ":12907,"6æĹ¶":12908,"Mac":12909,"Ġ10æľĪ":12910,"æĹ¥åĨħ":12911,"ä¸įçŁ¥éģĵ":12912,"éĽı":12913,"åįĹéĿ¢":12914,"åĬłç´¢":12915,"çĶµç«Ļ":12916,"2012":12917,"åħ¨æĹ¥":12918,"æ¡¦":12919,"è¾¾ç§ĳ":12920,"é»Ķ":12921,"æīĭçļĦ":12922,"èģĮæĿĥ":12923,"èĦĨ":12924,"å¯ĨéĽĨ":12925,"èĩ´ä½¿":12926,"èĢģäºº":12927,"æĥ³åĪ°":12928,"è¯ĳä½ľ":12929,"æĺ¯ä¸Ģé¢ĹæģĴæĺŁ":12930,"æİ©æĬ¤":12931,"ä½Ľç½ĹéĩĮè¾¾":12932,"çķħéĶĢ":12933,"ä¸ĵç§ĳåŃ¦æł¡":12934,"èĿ´èĿ¶":12935,"ĠéļıèĳĹ":12936,"æ³¼":12937,"åŃ¦ä¸ļ":12938,"æ³ķæĭī":12939,"æĸ°éĺ¿åŁºåĿ¦å¤§åĮº":12940,"åĮĹæ¬§":12941,"å±±ä¸Ĭ":12942,"ä¸¤å±Ĥ":12943,"æĢ»åĨ³èµĽ":12944,"åıĺå¼Ĥ":12945,"èĳĹçļĦ":12946,"å¾·åĽ½çļĦ":12947,"ä¼ĺåĮĸ":12948,"ä¸ĢçĽ´åĪ°":12949,"èµĽäºĭä¸Ń":12950,"å¢ĵåľ°":12951,"ç¦»å¼ĢäºĨ":12952,"åįģå¹´ä»£":12953,"å¦Īå¦Ī":12954,"æĳĨèĦ±":12955,"?ãĢį":12956,"SC":12957,"ĠåĲĦ":12958,"Ġå¥¹":12959,"ĠåŃ¦æł¡":12960,"çļĦçĲĥéĺŁ":12961,"åľ¨è¿ĻäºĽ":12962,"åĴĮæĹ¥æľ¬":12963,"é«ĺå°Ķå¤«":12964,"è¯Ńç³»":12965,"æ¯ıæľĪ":12966,"åı¯ä»¥ä½¿çĶ¨":12967,"å®Ĺå®¤":12968,"éĿĴå±±":12969,"å¤ıæľĹå¾·":12970,"ator":12971,"èµ«é²ģ":12972,"æĬĢæľ¯çļĦ":12973,"è®²åº§":12974,"æ´ŀç©´":12975,"æªĢ":12976,"å«ģç»Ļ":12977,"å±¥è¡Į":12978,"æīĢéľĢçļĦ":12979,"åļ":12980,"åĨ¤":12981,"çī¡":12982,"åĲİå¤ĩ":12983,"æ±¾":12984,"äºĭè¿¹":12985,"åº¦è¿ĩ":12986,"éĺ¿èĲ¨":12987,"æ¸¯åı°":12988,"éĴī":12989,"æĽ´é«ĺçļĦ":12990,"éĽ·è¯º":12991,"èİ±åħĭ":12992,"åĽ½éĻħèµĽ":12993,"åĽłä¸ºå®ĥ":12994,"æĳ©æ´Ľ":12995,"æŀªç®¡":12996,"äºĨä¸Ģé¡¹":12997,"éĺ¿å°ĶåıĬåĪ©äºļ":12998,"uper":12999,"å¾·åħĭèĲ¨æĸ¯å·ŀ":13000,"å·´æĭ¿é©¬":13001,"RO":13002,"bo":13003,"ĠåĲįç§°":13004,"ĠéļıçĿĢ":13005,"çļĦçĬ¶æĢģ":13006,"äººéģĵ":13007,"å¯¹æĪĺ":13008,"èİº":13009,"é«ĺå®Ĺ":13010,"äºļé©¬":13011,"è½¦äººæ¬¡":13012,"ç³Ł":13013,"åıĪç§°ä¸º":13014,"åİ»äºĨ":13015,"å¾Īå®¹æĺĵ":13016,"è¯ģä¹¦":13017,"ä¹¡éģĵ":13018,"åĺ²":13019,"æķĮåĨĽ":13020,"åĽºä½ĵ":13021,"åŃĶåŃĲ":13022,"è±ªåįİ":13023,"ys":13024,"çļĦé¦Ļæ¸¯":13025,"è¡ĮæĿİ":13026,"æĬ¹":13027,"èĩªä»İ":13028,"èĪľ":13029,"åı°éĵģ":13030,"åħ¨æ°ĳ":13031,"çº¿æĺ¯":13032,"ç³»æķ°":13033,"æ°´åĬĽ":13034,"åħĥçļĦ":13035,"æīĭæĮģ":13036,"èĲ¨è¯¸å¡ŀ":13037,"äºĨä¸Ģåº§":13038,"çĶŁçī©åŃ¦å®¶":13039,"ç¨İåĬ¡":13040,"è´¢æĶ¿éĥ¨":13041,"5æĹ¶":13042,"LL":13043,"MO":13044,"çļĦåī¯":13045,"çļĦé¢Ĩå¯¼":13046,"çļĦçĲĨè®º":13047,"æŀķ":13048,"ä¹ĭæīĢä»¥":13049,"æĸ°ä¼ļ":13050,"æľĢå¿«":13051,"è¿ĩæĿ¥":13052,"å²Ľå¼ıæľĪåı°":13053,"åĳ½ä¸Ń":13054,"ç¬¬ä¸ĢåŃ£":13055,"ä»Ĭå±ŀ":13056,"æ³°å±±":13057,"æ¤°":13058,"èľĺ":13059,"èĿĩ":13060,"çªĹåı£":13061,"å«Įçĸĳ":13062,"èĥ°å²Ľ":13063,"Ð½":13064,"çļĦé»ĳ":13065,"çļĦçİ°è±¡":13066,"æĿĸ":13067,"ä¸Ĭæĺ¯":13068,"åĩºèī²":13069,"åĪĨè¾¨":13070,"é¦Ī":13071,"åŃĲç§ĳ":13072,"æĪĺç¥ŀ":13073,"å¤ĸæĺŁ":13074,"éĩįåŀĭ":13075,"å®īå®ļ":13076,"æİ¥çº³":13077,"æŀĹä¸ļ":13078,"å¤ĦåĪĨ":13079,"æ¸ħæ´ģ":13080,"æ¬§ç¾İ":13081,"çĪ¶åŃĲ":13082,"å»ºçŃĳç¾¤":13083,"åģĩè¯´":13084,"è¯¥çľģä»½ä¸ºæ³ķåĽ½åĮĹéĥ¨":13085,"æ´»è·ĥäºİ":13086,"åĬłåĪ©ç¦ıå°¼äºļ":13087,"åĬłåĭĴæ¯Ķæµ·":13088,"ÃŃ":13089,"çļĦçīĪæľ¬":13090,"åľ¨åľ£":13091,"åľ¨2005å¹´":13092,"åĲİäºİ":13093,"åĪ°æĿ¥":13094,"åĪ©æ¶¦":13095,"ä»£è¨Ģ":13096,"èĩ³4":13097,"çĶµæºĲ":13098,"åº¦åģĩ":13099,"æİ¥åı£":13100,"éĩĳéĴ±":13101,"å¼łåŃ¦":13102,"ä¿®çŃĳ":13103,"ä¼¯æģ©":13104,"æ½Ł":13105,"æ¯ĶèµĽçļĦ":13106,"è¿ľçļĦ":13107,"æĺ¥èĬĤ":13108,"æķ°æį®åºĵ":13109,"åįĹåĮĹæľĿ":13110,"é£ĵé£İä¸Ńå¿ĥ":13111,"èħ¾è®¯":13112,"AKB48":13113,"è¯Ľ":13114,"åĩ¿":13115,"èĢ¿":13116,"çŃīäººçļĦ":13117,"ç§įåĬł":13118,"é¦ĸè½®":13119,"å·´è¾¾":13120,"å·´åĵĪ":13121,"èįĶ":13122,"åİĨç¨ĭ":13123,"è¿ĺæ²¡æľī":13124,"çļĦä¸Ģç³»åĪĹ":13125,"æĿİæ°ı":13126,"ä¾Ľæ°´":13127,"134":13128,"å³Ļ":13129,"åĲĮå¹´8æľĪ":13130,"çģµé¡¿":13131,"æī©åħħ":13132,"æ°ĳä¸»ä¸»ä¹ī":13133,"åįļçī©éĻ¢":13134,"å¤ĸäº¤åħ³ç³»":13135,"çĽ¸å¯¹è®º":13136,"ä¹ĥèĩ³":13137,"å¼ºçĥĪçļĦ":13138,"çİĭå®īçŁ³":13139,"åĪĥ":13140,"åľ¨2016å¹´":13141,"å¤§å±łæĿĢ":13142,"ä¸įåĲĪ":13143,"ä¸»æľº":13144,"åŃĲåĴĮ":13145,"åı¯æĮģç»Ń":13146,"æİ¥åĪ°":13147,"äººåı£çļĦ":13148,"å¤Ħå¤Ħéķ¿":13149,"ä¸ĵå±ŀ":13150,"å¤įåĩº":13151,"åĽŃæŀĹ":13152,"æ¥·":13153,"å¾Īé«ĺ":13154,"å¡ŀæĸ¯":13155,"éŁ³ä¹ĲèĬĤ":13156,"æ²¿èĳĹ":13157,"æĽ¿è¡¥":13158,"æºªæµģ":13159,"Ġ1990å¹´":13160,"rid":13161,"æĪ´ç»´":13162,"ç¡¬ä»¶":13163,"Ġ1989å¹´":13164,"æ£Ģå¯Łå®ĺ":13165,"ä¸ºè¾Ĳé³įé±¼çº²é²Īå½¢çĽ®":13166,"ç®¡æİ§ä¸Ńåıĳçİ°":13167,"70å¹´ä»£":13168,"8æľĪ15æĹ¥":13169,"lyĠ":13170,"ueĠ":13171,"åľ¨æľ¬":13172,"ä¸ºçĥŃå¸¦":13173,"æĺ¯å·´è¥¿":13174,"åĴĮåľ£":13175,"åĪĨéĺŁ":13176,"ç¾İæĭī":13177,"èĬľ":13178,"ç§ĳå¤ļ":13179,"åĽĽä½į":13180,"åŀĦ":13181,"ç»´çī¹":13182,"å¥¥å§Ķä¼ļ":13183,"ä½ıæīĢ":13184,"æĽ¼åĵĪ":13185,"åĩłä¸ªæľĪ":13186,"å®ĮæĪĲåĲİ":13187,"æķĮå¯¹":13188,"å¾·éĩĮåħĭ":13189,"æ¤ŃåľĨå½¢":13190,"))":13191,"åľ¨ä¹Įåħĭåħ°":13192,"äºĨèĩªå·±çļĦ":13193,"çĶŁçĲĨ":13194,"å¼łå®¶":13195,"åĪĴåĪĨä¸º":13196,"è¿ŀä¸²":13197,"æĿĳçļĦ":13198,"ä¾ĽçĶµ":13199,"æ´ĽæŀĹ":13200,"çĻ»åł¡":13201,"è¿ªå°Ķ":13202,"æ¸©åĴĮ":13203,"æ¬§æ´²åĽ½å®¶":13204,"ãģĦ":13205,"å½©èĻ¹":13206,"èİ²èĬ±":13207,"é«ĺçŃīæ³ķéĻ¢":13208,"æĹ¢æľī":13209,"å¤ļæł·æĢ§":13210,"å¤ĸåĽ´èµĽ":13211,"Netflix":13212,"å½ķéŁ³å®¤ä¸ĵè¾ĳ":13213,"çļĦæĶ¿çŃĸ":13214,"çļĦæľĢå¤§":13215,"äººå¯¹":13216,"èĢĨ":13217,"ä¸įæ¸ħæ¥ļ":13218,"æ°ĳäºĭ":13219,"2010":13220,"åħ¨æĸ°":13221,"æĥ¹":13222,"10æĹ¶":13223,"å¤«æĸ¯åŁº":13224,"äºĶå¤§":13225,"æĬ¥åĲį":13226,"oneĠ":13227,"æ¡ĪçļĦ":13228,"ä¿Ħè¯Ń":13229,"åºĨä¸ĭ":13230,"é³Ĺ":13231,"äºĮåįģä¸Ģå¹´":13232,"æŃĮæĽ²çļĦ":13233,"èµŀèµı":13234,"1903å¹´":13235,"å±ıå¹ķ":13236,"ĠdeĠ":13237,"èľĺèĽĽ":13238,"5åı·":13239,"HO":13240,"ä¹ĭå®¶":13241,"çŃīåĲĮ":13242,"å°ĨæĿ¥":13243,"çĽ®åĩ»":13244,"æıĲéĨĴ":13245,"åıĸåĲĳ":13246,"åħĪè¡Į":13247,"æ´¾å¯¹":13248,"è¿ªåħĭ":13249,"åºķéĥ¨":13250,"éĵģè·¯çļĦ":13251,"èĨĿ":13252,"ä¹ĭéĹ´çļĦåħ³ç³»":13253,"ä¸Ģæ®µæĹ¶éĹ´":13254,"ä¸ŀçĽ¸":13255,"å¼ĹéĽ·å¾·":13256,"El":13257,"Ġ3æľĪ":13258,"çļĦç»Łæ²»":13259,"åľ¨2007å¹´":13260,"äººè¢«":13261,"çĶ¨åľ¨":13262,"æĻ®é¡¿":13263,"çĶµå½±éĻ¢":13264,"é¥·":13265,"æŀģåħ¶":13266,"esĠ":13267,"åĪĹè½¦çļĦ":13268,"æļ´éĽ¨":13269,"åĨ²éĶĭ":13270,"æ¿Ĵåį±":13271,"%)":13272,"Rob":13273,"äººåĬĽ":13274,"äººæŃ»äº¡":13275,"æĺ¯çĳŀå£«":13276,"è§ħ":13277,"ä¸įå¤Ł":13278,"è·¯ä¸İ":13279,"ç«Ļåīį":13280,"10ä¸ĩ":13281,"èµ·èįī":13282,"æ°´æ³¥":13283,"ä»¬çļĦ":13284,"çīĩçļĦ":13285,"æŃ¦çĶ°":13286,"è£ħæľī":13287,"å®Įæ¯ķ":13288,"142":13289,"åģľåĬŀ":13290,"å¹²æĹ±":13291,"ãĤ¹":13292,"äºİ184":13293,"irl":13294,"çº¿è·¯åı£":13295,"ä¸¤å¹´åĲİ":13296,"æĴŀåĩ»åĿĳ":13297,"ĠåĺīéĿĸ":13298,"åľ¨éŁ©åĽ½":13299,"ä¸Ģçº¿":13300,"åŃµ":13301,"åĮ¡":13302,"èĭ·":13303,"ä¹Łä¸İ":13304,"åħ¨åŀĴæīĵ":13305,"æĢ»åħµ":13306,"åİ¿å¸Ĥ":13307,"å°¼ç§ĳ":13308,"ä¿¡æīĺ":13309,"æ¨Ĭ":13310,"åĨįçĶŁ":13311,"æŃ¦æĺĮ":13312,"åħ·åºĨä¸ĭ":13313,"é¡¿æ¶ħ":13314,"roup":13315,"åĪĩæĸŃ":13316,"ä½©å°Ķ":13317,"èĤ¯èī²":13318,"æĢªçī©":13319,"å¸¦æĿ¥äºĨ":13320,"èĿĻèĿłä¾ł":13321,"2æľĪ24æĹ¥":13322,"Fran":13323,"adĠ":13324,"me":13325,"rap":13326,"åľ¨2017å¹´":13327,"åĪ°è®¿":13328,"å¤ļç±³":13329,"å¹³åİ¿":13330,"åĬłå¯Ĩ":13331,"éĢļç§°":13332,"åįİæ²Ļ":13333,"æīĭä¸ĭ":13334,"éĹ¨å¤ĸ":13335,"åŃĹä½ĵ":13336,"çĿ¿":13337,"æĶ»éĻ·":13338,"åįĬåĨ³èµĽ":13339,"äºĭä»¶ä¸Ń":13340,"åį´è¢«":13341,"ãĤĵ":13342,"èĩªåĬ¨åĮĸ":13343,"æ°¯åĮĸ":13344,"æ¸ĹéĢı":13345,"ä¹Įåħ¹åĪ«":13346,"æĳ©æ´Ľåĵ¥":13347,"RS":13348,"Ġä¿Ħç½Ĺæĸ¯":13349,"ĠåĶĲ":13350,"ä¸Ģå¥Ĺ":13351,"æĺ¯éĢļè¿ĩ":13352,"æ²«":13353,"åĩºå¢ĥ":13354,"ä¿¯":13355,"é©¿":13356,"èİ¹":13357,"å¸ĥè¾¾":13358,"æĢ»ç½²":13359,"éĥ½è¦ģ":13360,"éĺ¿åįľ":13361,"åŀ©":13362,"å¨Ħ":13363,"å¯¼ä½ĵ":13364,"é²¶":13365,"åı¯ä»¥è¢«":13366,"åħ«å¼º":13367,"ä¾¿ä¼ļ":13368,"åį¢æ¯Ķ":13369,"21ä¸ĸçºª":13370,"åĬªæĸ¯":13371,"ãĢī.":13372,"å¸ĥé²ģæĸ¯":13373,"å¥¥åħĭè¥¿":13374,"è¯¥çī©ç§įçļĦæ¨¡å¼ıäº§åľ°":13375,"Twit":13376,"ĠæĪĸ":13377,"å¹´ä»½":13378,"åĴĮåħ¶":13379,"å¹¶éĢļè¿ĩ":13380,"æ¯Ķ1":13381,"åı·åı¬":13382,"åĽĽåĳ¨":13383,"2022":13384,"åįķè¯į":13385,"å¤«å¦»":13386,"è¿ĳæľŁ":13387,"è½¬è¿Ĳ":13388,"åħīçļĦ":13389,"å¥ĸåŃ¦éĩĳ":13390,"åĨĻäºĨ":13391,"å¤®è§Ĩ":13392,"åŁĥæĸ¯":13393,"æħĮ":13394,"å¼Ĺèİ±":13395,"ĠMar":13396,"èģļå±ħ":13397,"åĪĽä½ľäºĨ":13398,"æĬµåĪ¶":13399,"èĦ±ç»´äºļ":13400,"èĴĭä¸ŃæŃ£":13401,"å¹¿è¥¿å£®":13402,"æķĻç§ĳæĸĩ":13403,"èĤ¯å¡ĶåŁºå·ŀ":13404,"8åħ¬éĩĮ":13405,"ood":13406,"å¬":13407,"Ġä¸Ģä¸ª":13408,"çļĦå±ħæ°ĳ":13409,"åľ¨2019å¹´":13410,"ä¸Ńä½¿çĶ¨":13411,"å¥¢":13412,"æĹ¶è£ħ":13413,"æ²¾":13414,"æµĬ":13415,"è½¿":13416,"åĪĨä¼ļ":13417,"çĶ±ä¸ŃåĽ½":13418,"åŃĲåŃĻ":13419,"åįģä½Ļ":13420,"èĢħåľ¨":13421,"ç±³åĭĴ":13422,"è¿ĺå°Ĩ":13423,"ä¸ĸçķĮå¤§èµĽ":13424,"å¼ºè¡Į":13425,"å®Įé¢ľ":13426,"æİĴçĲĥ":13427,"åī¯éĻ¢éķ¿":13428,"åįłæľī":13429,"æ¯ĴæĢ§":13430,"éĢĥèĦ±":13431,"ä¸ľåįĹæİ¥":13432,"çķªèĮĦ":13433,"çİ»åĪ©":13434,"åį°åľ°å®ī":13435,"æĽ¼åĵĪé¡¿":13436,"Co":13437,"çļĦå¼Ģåıĳ":13438,"ä¸ĢåĿĹ":13439,"ç¬¬15":13440,"ä¸ĭå±ŀçļĦ":13441,"å¸Ĥçº§":13442,"éĩĮå°Ķ":13443,"2014":13444,"è½¦åİĤ":13445,"åħ³å¿ĥ":13446,"çĽ´æµģ":13447,"èĳĹç§°":13448,"æ³¢å¾·":13449,"è¶³åĪ©":13450,"æķħå±ħ":13451,"æ·±æ°´":13452,"å°Ħæīĭ":13453,"ä¸Ńå¤®æĶ¿åºľ":13454,"å¼ĤæĢ§":13455,"èį·é©¬":13456,"è®¢è´Ń":13457,"èĨı":13458,"æī¬å·ŀ":13459,"ä¸ĩäººæ¬¡":13460,"èĹ¤åİŁ":13461,"å¹½é»ĺ":13462,"ç°§":13463,"å·´æĭīåľŃ":13464,"Ð¸":13465,"Ġèī¾":13466,"çļĦåıįåºĶ":13467,"çļĦçºªå½ķ":13468,"ä¸Ģçīĩ":13469,"è¡ŀ":13470,"å¤§çķ¥":13471,"æī³":13472,"åĴ¬":13473,"ä»ĸå·ŀ":13474,"æĪĺçº¿":13475,"æŃ£å½ĵ":13476,"éľī":13477,"çĭĻ":13478,"æłĩçŃ¾":13479,"å¼Ģå§ĭåĲİ":13480,"åħīå¤į":13481,"æĶ¿æ²»åįıåķĨä¼ļè®®":13482,"è¡ĹåºĦ":13483,"æī¿åıĹ":13484,"ild":13485,"çļĦäººå£«":13486,"åħħå½ĵ":13487,"æī¾åĪ°äºĨ":13488,"éģ¿éļ¾":13489,"çĲ¼æĸ¯":13490,"éĤªæģ¶":13491,"9æľĪ28æĹ¥":13492,"Open":13493,"Ġæııè¿°":13494,"åľ¨æŁĲäºĽ":13495,"åĴĮæĶ¿æ²»":13496,"ç¾İåĽ½éĻĨåĨĽ":13497,"123":13498,"ç¬¬ä¸Ģä»£":13499,"ç¼ĸæĪĲ":13500,"åĪĽåĪĬ":13501,"ä»£è¡¨æĢ§":13502,"5æľĪ20æĹ¥":13503,"å¾®åĪĨ":13504,"æįķèİ·":13505,"å¤ĸäº¤éĥ¨éķ¿":13506,"ç¼ĵè§£":13507,"åĲĲèķĥ":13508,"åı°é£İèŃ¦æĬ¥":13509,"Ġåħĥ":13510,"ä¼ļåĲĪ":13511,"ä½ľå®¢":13512,"åĪĨéĥ¨":13513,"å¤ļéĿ¢ä½ĵ":13514,"åĽłåľ¨":13515,"çŃīä»·":13516,"è·¯éĿ¢":13517,"æ¼Ķç»İ":13518,"å¸¸æķ°":13519,"åĭ¿":13520,"å¨ģçī¹":13521,"çª¦":13522,"çħ½":13523,"è¿ªåįĹ":13524,"è½»åŀĭ":13525,"4æľĪ30æĹ¥":13526,"æĶ¶å½ķäºİ":13527,"ç¢°æĴŀ":13528,"çļĦåĴĮ":13529,"å¤§å°Ĩ":13530,"äºĨåľ¨":13531,"å¤ļæĿ¡":13532,"åĪ©æ¯Ķäºļ":13533,"ä¸īåı·":13534,"å°ĨæŃ¤":13535,"åľºé¦Ĩ":13536,"èĭ±èģĶéĤ¦":13537,"åıĤæĪĺ":13538,"çķĮéĿ¢":13539,"æº¢":13540,"å¸ĪçĶŁ":13541,"æĿİåħĭ":13542,"è¯Ħçº§":13543,"çĭ¬è£ģ":13544,"åıĳçİ°äºİ":13545,"åĪĨåĪ«åľ¨":13546,"åĪºæĿĢ":13547,"ĠThe":13548,"ãĤ¤":13549,"åıĭå¥½åŁİå¸Ĥ":13550,"Microsof":13551,"Ðµ":13552,"çļĦé£İéĻ©":13553,"åħĸ":13554,"åĴĮæĹłçĹĩçĬ¶æĦŁæŁĵèĢħ":13555,"ä¼ļä¸İ":13556,"ä¸įçĶ¨":13557,"æ´¼":13558,"åħ¬æīĢ":13559,"æ°ĳçĶŁ":13560,"å¤ļçĵ¦":13561,"å¼Ģæĭĵ":13562,"åı¯æĥľ":13563,"è¯¥å¤Ħ":13564,"äº§éĺ¶çº§":13565,"éĹ¨çļĦ":13566,"éĴĻ":13567,"èĮľ":13568,"çļĦä¸Ģåĳĺ":13569,"ä½ľä¸ºä¸Ģä¸ª":13570,"æķħä¹¡":13571,"æ³°ç½Ĺ":13572,"æł¸ç³ĸ":13573,"æĳ©æ³½å°Ķçľģ":13574,"eth":13575,"æĪĴä¸¥":13576,"åįĵè¶Ĭ":13577,"åĽ½å®¶éĺŁåıĤåĬł":13578,"æŁ´æ²¹æľº":13579,"åĲīéļĨåĿ¡":13580,"DO":13581,"oon":13582,"Ġéķ¿":13583,"æĺ¯å¥¥åľ°åĪ©":13584,"åľ°è¡¨":13585,"æ¸¤":13586,"æ³ķè¥¿æĸ¯":13587,"æĿ¥äºĨ":13588,"å°ıæıĲçĲ´":13589,"ä½Ĩæľª":13590,"ç§įç§į":13591,"éĩĳéĴŁ":13592,"å¤«çļĦ":13593,"çļĦä¸Ģä¸ªåĮº":13594,"alk":13595,"ä¼ĺå¼Ĥ":13596,"10æľĪ10æĹ¥":13597,"éŁ¦ä¼¯":13598,"ä¸¾åĬŀäºĨ":13599,"åºĶçĶ¨ç¨ĭå¼ı":13600,"Ġ187":13601,"è¿ĩåİ»çļĦ":13602,"æĬĺåıł":13603,"Ġ1937å¹´":13604,"çĶŁéķ¿åľ¨":13605,"è°¥åı·":13606,"æĮīå¯Łåı¸":13607,"(ãĢģ":13608,"2æľĪ1æĹ¥":13609,"çĶĦ":13610,"äººæīĢ":13611,"çİº":13612,"çĶŁç´ł":13613,"å¹¶è¦ģæ±Ĥ":13614,"å¾·å·ŀ":13615,"æ¯Ķèµ·":13616,"ç»ĵæĻ¶":13617,"äº¦æĽ¾":13618,"ica":13619,"å®ĪåĨĽ":13620,"ç§ĢåĲī":13621,"å®ĭä»£":13622,"æľºæŀĦçļĦ":13623,"èµ¤éģĵ":13624,"irst":13625,"ç¨İæĶ¶":13626,"åİļåº¦":13627,"åı¥è¯Ŀ":13628,"æĸ¯èĴĤèĬ¬":13629,"ç°¿":13630,"ç¦ıå°Ķæĳ©":13631,"çŁ³åĻ¨æĹ¶ä»£":13632,"ç§ĳç½Ĺæĭīå¤ļ":13633,"èĥ°å²Ľç´ł":13634,"çļĤ":13635,"çļĦä»·æł¼":13636,"ä¸Ģç»Ħ":13637,"æłĪ":13638,"ä¸įå½ĵ":13639,"åīįæľŁ":13640,"åİŁä½ľ":13641,"å±ŀçī©ç§į":13642,"æİ¥çĿĢ":13643,"åħĥä»¶":13644,"æ¸¯å²Ľ":13645,"ç»ĵå°¾":13646,"inal":13647,"çĬ¶çļĦ":13648,"ç¬¬åĽĽæ¬¡":13649,"ç¬ĶåĲį":13650,"å¤ıåŃ£å¥¥è¿Ĳä¼ļ":13651,"çĽ¸ä¼¼çļĦ":13652,"ä½¥äºĭ":13653,"çİĽæł¼ä¸½":13654,"NO":13655,"VID":13656,"ground":13657,"ä¸Ģæī¹":13658,"è¾ľ":13659,"ä¸īæĿ¡":13660,"2015":13661,"è¯¥å»ºçŃĳ":13662,"ç¥ģ":13663,"ä¸¤èīĺ":13664,"åİ¿åĴĮ":13665,"å±ŀèĤīé£ŁæĢ§":13666,"åĽĽç§į":13667,"åıĤåĨĽ":13668,"æĦıæĦ¿":13669,"16ä¸ĸçºª":13670,"çĻ»å±±":13671,"è´¥ç»Ļ":13672,"å½Ĵè¿ĺ":13673,"éº¦éĩĳ":13674,"èİīä¸Ŀ":13675,"å®īè£ħåľ¨":13676,"ĠUn":13677,"60å¹´ä»£":13678,"å¹´ä»ħ":13679,"åŃ¦è¯´":13680,"åĩºåħ¥":13681,"å¤ļå¹´çļĦ":13682,"åīįåİ»":13683,"åİĨæĹ¶":13684,"æĮĩåįĹ":13685,"æºī":13686,"æĻ®åĪ©":13687,"æĪıéĻ¢":13688,"ç¤¼åłĤ":13689,"å¸ĥèİ±æģ©":13690,"PG":13691,"Ġå¤ĸ":13692,"ä¸ºçķĮ":13693,"ä¸ŃçļĦä¸Ģä¸ª":13694,"æ¸£":13695,"è½¦è·¯":13696,"è¯¥é¡¹çĽ®":13697,"åħ¨èº«":13698,"æ¸¸çİ©":13699,"å¹³æĸ¹èĭ±éĩĮ":13700,"ä¸»è¦ģä»¥":13701,"las":13702,"èĩ´æķ¬":13703,"æ¸©æļĸ":13704,"çĽĳæİ§":13705,"è½»æĿ¾":13706,"7æľĪ7æĹ¥":13707,"aceĠ":13708,"å¥³æĢ§ä¸º":13709,"éĢĥå¾Ģ":13710,"è¡°èĲ½":13711,"æĭ¼éŁ³":13712,"ensis":13713,"åĢ¾åĲĳäºİ":13714,"æŃ£ç¡®çļĦ":13715,"include":13716,",(":13717,"çļĦæĢ§":13718,"çļĦæĸĩåĮĸ":13719,"æĺ¯ä¸İ":13720,"ä¹ĭæĹħ":13721,"å¹¶æĬĬ":13722,"èĢĮå·²":13723,"è¢«ä¿ĺ":13724,"ç¾İé£Ł":13725,"åºľçŁ¥åºľ":13726,"éĺ¿åĭĴ":13727,"ä»İä¸Ń":13728,"æ¶©":13729,"æ¢Ĺ":13730,"æīĵåĩº":13731,"åįĥå¹´":13732,"çĮ¿":13733,"é¢ĦèµĽ":13734,"çļ®åŁĥå°Ķ":13735,"å¹¿æĴŃçĶµè§Ĩ":13736,"ä¸īåįģåĽĽå¹´":13737,"åĩ¡å°Ķ":13738,"çİĩä¸º0":13739,"ç¥ŀåľ£ç½Ĺé©¬å¸ĿåĽ½":13740,"å½Ĵç±»ä¸º":13741,"èĶ¬èıľ":13742,"Ġ25":13743,"çļĦæĢģåº¦":13744,"æĺ¯ä¸ĸçķĮä¸Ĭ":13745,"çĶŁèĤ²":13746,"è¥¿æ±ī":13747,"é¦ĸéķ¿":13748,"åįķçº¯":13749,"éĽĨæĪĲ":13750,"å¥¥å¼Ĺ":13751,"è§£æŀĲ":13752,"ç¦»èģĮ":13753,"çłĶç©¶å®¤":13754,"ç¦ıåħĭæĸ¯":13755,"ä¿®æĸ¯":13756,"å®¢åľº":13757,"å¾Īåı¯èĥ½":13758,"æīĺåĭĴ":13759,"æ°ıçļĦ":13760,"å»¶æľŁ":13761,"ream":13762,"è¯ĳåĲį":13763,"è¹Ħ":13764,"å¤§è§Ħæ¨¡çļĦ":13765,"ç§įåĬłè¯į":13766,"3åħ¬éĩĮ":13767,"lan":13768,"ãĦ":13769,"Ġä¹ĭåĲİ":13770,"ä¸Ńæĸ¹":13771,"ä¹ĭäºº":13772,"éĩĮå¸Į":13773,"æĸĩæĸ¯":13774,"ç±»æ¡Īä»¶":13775,"ä»¶äºĭ":13776,"åı¯ä»¥è¿½æº¯åĪ°":13777,"æ¸ħéĻ¤":13778,"è¿ŀéĶģ":13779,"ä¿®ç¼®":13780,"çļĦä¸Ģä¸ªåİ¿":13781,"å©¿":13782,"æĺ¯ä¸ĢæīĢ":13783,"11æľĪ11æĹ¥":13784,"ç»ĵæĿŁäºĨ":13785,"ç©Ĩå°Ķ":13786,"ä¸ºäººçŁ¥":13787,"ç«ŀæĬĢåľº":13788,"å¾Ĺç¥¨çİĩ":13789,"Linux":13790,"!!":13791,"He":13792,"ĠéĻ¤":13793,"å¤§éĥ½ä¼ļ":13794,"åĴĮæĸĩåĮĸ":13795,"ä¸Ĭè¡Į":13796,"åĩºåĬ¨":13797,"å®¶éķ¿":13798,"ä¸ĭè®®éĻ¢":13799,"å¸Ĥäººæ°ĳæĶ¿åºľ":13800,"èµĽä¼ļ":13801,"ç¦½":13802,"åĽĽå¼º":13803,"åı²éĥ½":13804,"æĽ´å¥½çļĦ":13805,"ä¸ĩèĭ±éķĳ":13806,"ç»Ńçº¦":13807,"å¼ºå¥¸":13808,"è§Ħå¾ĭ":13809,"çĶµå½±ä¸Ń":13810,"ä¿Ħæ¯Ķäºļ":13811,"ç¾¤çļĦ":13812,"å¾ģæĶ¶":13813,"éŁ©æ°ĳåĽ½":13814,"çī¹åĪ«æĺ¯åľ¨":13815,"å¥īå¤©":13816,"äºİ1991å¹´":13817,"åħ¬å¸ĥçļĦ":13818,"æĬ¢åĬ«":13819,"åĽ½åħ±åĨħæĪĺ":13820,"æĳ©æīĺè½¦":13821,"åŁĥå¡ŀä¿Ħæ¯Ķäºļ":13822,"%ãĢģ":13823,"ke":13824,"çļĦæ¼Ķåĩº":13825,"åĩºåİ»":13826,"åĪĨåıĳ":13827,"ä¸ĭè®¾":13828,"å¼Ģå¾Ģ":13829,"å¹³æĹ¥":13830,"äºļä¼¯":13831,"ä¸¤å®¶":13832,"åºĶæĢ¥":13833,"åıĺä½ĵ":13834,"çĻ½åŀ©":13835,"æĦŁåħ´è¶£":13836,"éŁ³ä¹Ĳåī§":13837,"åº·å¥Īå°Ķ":13838,"åºĦæĿĳ":13839,"è½»è½¨":13840,"eter":13841,"äºĮåįģä¸īå¹´":13842,"è°Īè¯Ŀ":13843,"ç»§æī¿äºĨ":13844,"åıĹæ¬¢è¿İçļĦ":13845,"å¥¥åħĭè¥¿å¡Ķå°¼å¤§åĮº":13846,"RNA":13847,"Ġèĭı":13848,"çļĦçŁ³":13849,"çļĦè®°è½½":13850,"æ³Ĺ":13851,"å¯¹æµģ":13852,"éĩĮå£«":13853,"åĬłè£ħ":13854,"æįį":13855,"è¿ĳåį«":13856,"ä»ĸä»¬è®¤ä¸º":13857,"è§ģçļĦ":13858,"æ¦ķ":13859,"æľŁéĹ´çļĦ":13860,"ç²¾éĢī":13861,"è¶³çĲĥåįıä¼ļ":13862,"280":13863,"çĽ®æłĩæĺ¯":13864,"ç»¼åĲĪæĢ§":13865,"åı²èĴĤèĬ¬":13866,"äºļåĪ©æ¡ĳ":13867,"å¹¿è¥¿å£®æĹıèĩªæ²»åĮº":13868,"åĲİåĨį":13869,"âĢ»":13870,"ä½įç´ł":13871,"æĸ°æķĻ":13872,"æľĢå¥½":13873,"é«ĺåİĭ":13874,"å¾Ĺå¥ĸ":13875,"æĭīèĦ±ç»´äºļ":13876,"é¡½":13877,"ä½Ĩä¹Łæľī":13878,"ç±³æĭī":13879,"èĭ±ä¹Ŀ":13880,"éĺ¿åħĭ":13881,"æŀĹä¸Ń":13882,"çĽ´çº¿":13883,"åķĨä¼ļ":13884,"å¤±è¯¯":13885,"æĻ¯åĮº":13886,"ç¤¼çī©":13887,"æķ£æĸĩ":13888,"ä¸ĢèĪ¬çļĦ":13889,"æļĤæĹł":13890,"åŃĶæ³°":13891,"è·¨æĢ§åĪ«":13892,"åĽ°å¢ĥ":13893,"app":13894,"è§Ĥå¯ŁåĪ°":13895,"å¡ĳéĢł":13896,"æ°¨åŁº":13897,"ä¸»æīĵæŃĮ":13898,"éĹ¯åħ¥":13899,"é¡¿æ¶ħèĮ¨åħĭ":13900,"3åı·çº¿":13901,"5åĲį":13902,"çļĦé£İ":13903,"éĥĿ":13904,"ä¸İåĲĮ":13905,"åħ¬åŃĲ":13906,"ç¾ģ":13907,"èĢĮåĩº":13908,"åįİå·ŀ":13909,"å¸¸çĶ¨çļĦ":13910,"æ®µæĹ¶éĹ´":13911,"çģ«çĦ°":13912,"ä½İåľ°":13913,"ite":13914,"æĢ»ç»ŁéĢīä¸¾":13915,"æĭĽçĶŁ":13916,"ode":13917,"åĽ°æī°":13918,"æĮĳéĢī":13919,"æłĩå¿ĹçĿĢ":13920,"å½»æĸ¯çī¹":13921,"æĬ½è±¡":13922,"æĬ«éľ²":13923,"230":13924,"è½¦æ¬¡":13925,"ä¸¤åº¦":13926,"å½±éĽĨ":13927,"éĩıäº§":13928,"12æľĪ25æĹ¥":13929,"å¥¥å¸ĥ":13930,"æł¡æĸ¹":13931,"åĪ«äºº":13932,"æĳ¸":13933,"ara":13934,"å¸Įä¼¯":13935,"åī¯æķĻæİĪ":13936,"æĶ»è¯»":13937,"ä»įæľª":13938,"é¢Ħè¨Ģ":13939,"ç¥ĸåĽ½":13940,"ç¥ĸæ¯į":13941,"é¦ĸæ¬¡åľ¨":13942,"éªĳå¸Ī":13943,"èŃ¦å¯Łå±Ģ":13944,"åĪĽç«ĭäºĨ":13945,"è©¹å§Ĩ":13946,"åıĪåĲįBD":13947,"å¿½çķ¥":13948,"æĺĶæĹ¥":13949,"M1":13950,"ä¸įåŃĺåľ¨":13951,"ç¾İçļĦ":13952,"ä¸ľæŃ£":13953,"ä½¿é¦Ĩ":13954,"ç§ĳç»´å¥ĩ":13955,"åįİä¸Ń":13956,"è§Ĩéĩİ":13957,"æĥħäºº":13958,"èĻĶ":13959,"æ¸ħæľ«":13960,"åľŁæľ¨":13961,"isĠ":13962,"åŃĻæĿĥ":13963,"åĩ¯çī¹":13964,"åĲĪå¹¶èĢĮæĪĲ":13965,"æĭĴç»ĿäºĨ":13966,"ä½įäºİè¯¥åĽ½åĮĹéĥ¨":13967,"å¡«è¯į":13968,"éªĳå£«åĽ¢":13969,"åĵĪå¸ĥæĸ¯åł¡":13970,"6æľĪ28æĹ¥":13971,"CS":13972,"bit":13973,"Ġå½ĵæĹ¶":13974,"åľ¨å¤ĸ":13975,"ä¸ºformula":13976,"æľīæĿĥ":13977,"ä¸ľåį°åº¦":13978,"èĲį":13979,"åŁºéĥ¨":13980,"çº¦æĹ¦":13981,"æĪĸè®¸":13982,"èĴĤæĸ¯":13983,"æŀ¶é£ŀæľº":13984,"æĿ¯åĨłåĨĽ":13985,"çĶŁäº§æĢ»åĢ¼":13986,"åºĶçĶ¨ç¨ĭåºı":13987,"çļĦçī¹æĢ§":13988,"åŃ¤ç«ĭ":13989,"ä¸ĳéĹ»":13990,"å¼ĹæĭīåŁº":13991,"2æĹ¶":13992,"8Ġ":13993,"net":13994,"Ġæ±ī":13995,"Ġä»ĸçļĦ":13996,"ä¸Ńåı¶":13997,"å¤§åĲį":13998,"20ä¸ª":13999,"æŀ¯":14000,"æ¸Ń":14001,"å¼Ģæŀª":14002,"äºĭçī©":14003,"æİ¥ç§į":14004,"åĮħè£¹":14005,"åı¤ç½Ĺé©¬":14006,"ç¼ĸè¯ĳ":14007,"å¤±åĪ©":14008,"å¤±æľĽ":14009,"æ°ıæĹı":14010,"ella":14011,"åıĳè¡¨å£°æĺİ":14012,"è¿Ļæĺ¯åĽłä¸º":14013,"çī§åľº":14014,"æł¼é²ģåĲīäºļ":14015,"èĦĬæ¤İåĬ¨çī©":14016,"-,":14017,"7åħ¬éĩĮ":14018,"ĠçłĶç©¶":14019,"ĠæĿ¨":14020,"åį¤":14021,"åĴĮåįĹ":14022,"åĴĮä¸ī":14023,"åĬłçļĦ":14024,"æķĻåıĭ":14025,"çģ¶":14026,"åįķè¡Į":14027,"ä»½åŃĲ":14028,"èĩªå·±æĺ¯":14029,"éĻĪåĪĹ":14030,"ata":14031,"æĤ¨":14032,"æ£Ģè®¨":14033,"éĶ¦èµĽ":14034,"éļıåĲİåľ¨":14035,"è¥¿éĥ¨çļĦ":14036,"åĨ¬å¤©":14037,"åİŁæľ¬çļĦ":14038,"å½¼å¾Ĺåł¡":14039,"å¯¹åºĶçļĦ":14040,"Ġä»¥ä¸ĭä¸º":14041,"å¥¥æĸ¯æĽ¼å¸ĿåĽ½":14042,"åį¯ç§ĳ":14043,"Ġç§ĳ":14044,"æĹ¥åľĨ":14045,"ãĢĭ;":14046,"èģĭ":14047,"è¿Ļä»½":14048,"å¾Ĺå¤ļ":14049,"åħ¥è¯»":14050,"ç«ĭéĿ¢":14051,"éĶĮ":14052,"å°±å¼Ģå§ĭ":14053,"ä¼łåĩº":14054,"è¿ĺæľīä¸Ģ":14055,"æĶ¿æ²»å§Ķåĳĺ":14056,"æīįæĺ¯":14057,"æĪĲåĳĺçļĦ":14058,"str":14059,"çĽĽè¡Į":14060,"ç¼ºå¸Ń":14061,"éĵľéĶ£":14062,"èĭĹæłĹ":14063,"æĶ¹å»ºä¸º":14064,"åħļç»Ħä¹¦è®°":14065,"BR":14066,"lor":14067,"Ġäºĭä»¶":14068,"ä¸ºĠ":14069,"ä¸įå¤§":14070,"è¿Ļå¯¹":14071,"é«ĺæ¸©":14072,"æµ·æĪĺ":14073,"å°Ĩè¿ĳ":14074,"å±±ç«Ļ":14075,"å¼ıå»ºçŃĳ":14076,"éĥ½ç»Ł":14077,"é¦ĸåĳ¨":14078,"æĽ¾å¤ļæ¬¡":14079,"æ¸¸ä¹Ĳ":14080,"æĶ¶çĽĬ":14081,"åº§æ¤ħ":14082,"æĬķè¯ī":14083,"æ³ķåĽ½çļĦ":14084,"åĬ©æīĭ":14085,"å¡ŀçī¹":14086,"çĻ¾å¼º":14087,"ç¤¾ä¼ļç§ĳåŃ¦":14088,"çķĻå®Ī":14089,"å·¡è§Ĩ":14090,"ð«ļ":14091,"ç§ĳå¤ļå°Ķçľģ":14092,"5æľĪ15æĹ¥":14093,"CL":14094,"ner":14095,"æ³ķåħ¸":14096,"èĢĮåħ¶":14097,"èĢĮåıĹåĪ°":14098,"è¢«ç§°ä½ľ":14099,"å¤ļåªĴä½ĵ":14100,"æĸĩåĩŃ":14101,"ä½Ĩä»ĸä»¬":14102,"ä¸¤ç«¯":14103,"å°±å·²":14104,"åį¡æ´Ľ":14105,"æĶ¯éħį":14106,"ä¸»è¦ģæľī":14107,"åĽ´æ£ĭ":14108,"åħ´å¥ĭ":14109,"è´¹åĪ©":14110,"çľĭåı°":14111,"å½Ĵåħ¥":14112,"éĴŁæ¥¼":14113,"çļĦåľ°ä¸ĭ":14114,"äºİ1993å¹´":14115,"Ġ1984å¹´":14116,"çªĹæĪ·":14117,"ç¯®çĲĥè¿ĲåĬ¨åĳĺ":14118,"å¼ĹæľĹä»Ģ":14119,"åĬłé¾Ļçľģ":14120,"éĺ¿åįľæĿľ":14121,"Ġä½ľåĵģ":14122,"çļĦéĥ¨éĺŁ":14123,"ä¸ŃæŃ¢":14124,"å¤§åľ°":14125,"åĪĨéļĶ":14126,"ç¾ļ":14127,"å¼ĢåĽ½":14128,"æīĢç¤º":14129,"2011":14130,"çĲĥè¡£":14131,"éĤ¯":14132,"å±ŀåĲį":14133,"æ¼ĶæĬĢ":14134,"åĲĳåħ¬ä¼Ĺ":14135,"åıĹéĤĢ":14136,"å¹¿å¤§":14137,"åıĸæĻ¯":14138,"ins":14139,"ä¸ĵçº¿":14140,"æİ¨ä¸¾":14141,"ä¼¯æĺİ":14142,"estĠ":14143,"ä¾§éĿ¢":14144,"æĸ¹éĿ¢åĨĽ":14145,"èĪ¬çļĦ":14146,"æ²¿éĢĶ":14147,"æĵįä½ľç³»ç»Ł":14148,"å±ķç¤ºäºĨ":14149,"éĢĨè½¬":14150,"æº¶äºİ":14151,"éŃģåĮĹ":14152,"ç¤¾äº¤åªĴä½ĵ":14153,"æĨ¾":14154,"1åħ¬éĩĮ":14155,"di":14156,"æĺ¯èĩª":14157,"æĸ¯å¾·":14158,"æ³ķåŃ¦éĻ¢":14159,"å¸Ĥè®®ä¼ļ":14160,"æĦī":14161,"åħ¨åĬĽ":14162,"åİ¿åĲį":14163,"çº¦5":14164,"ç²Ł":14165,"ç¬¬äºĮåĲį":14166,"æĶ»ä¸ĭ":14167,"å±ĤéĿ¢":14168,"èŃ¦å¤ĩ":14169,"ä¾Ŀæ¬¡":14170,"è§Ĵèī²æī®æ¼Ķ":14171,"çıįå¦®":14172,"ä½įäºİè¯¥åĽ½ä¸ľåįĹéĥ¨":14173,"ç¨ĭåº¦çļĦ":14174,"æ°ĶåĢĻåıĺåĮĸ":14175,"è®²è¿°äºĨ":14176,"åıįæĺłäºĨ":14177,"æİ¢éĻ©éĺŁ":14178,"æĮīå¯Łä½¿":14179,"2ä¸ĩ":14180,"Jo":14181,"ress":14182,"«çĹ":14183,"æĺ¯çĶ¨":14184,"åĴĮåĽ½å®¶":14185,"å¹¶åĪĹ":14186,"åĨħå°Ķ":14187,"æķĻå®¤":14188,"è·¯æĸ¯":14189,"æ°´æŀľ":14190,"éĶ¤":14191,"å¼Ģå§ĭè¿Ľè¡Į":14192,"è½¬åıĺä¸º":14193,"å¡Ķåħĭ":14194,"èıĩ":14195,"å±Ĥæ¬¡":14196,"æĿĢäºĨ":14197,"ç®¡çĲĨå§Ķåĳĺä¼ļ":14198,"åĲİæĿ¥æĪĲä¸º":14199,"ition":14200,"æ³½å°Ķ":14201,"æŀªåĩ»":14202,"äº¤éĢļéĥ¨":14203,"èģļåĲĪçī©":14204,"ç¼ºå°ĳ":14205,"éĺ´æĢ§":14206,"åĽ½å®īæ³ķ":14207,";\"":14208,"çļĦçĶŁäº§":14209,"åħĢ":14210,"åľ¨æµ·":14211,"åľ¨åľº":14212,"åľ¨ä¸ĢäºĽ":14213,"ä¸ŃåįĹéĥ¨":14214,"äºĨå¤§éĩı":14215,"å¯¹ä¸ŃåĽ½":14216,"æĻĥ":14217,"çī©ä»¶":14218,"ä¸ĸä¿Ĺ":14219,"å¤ĸä¾§":14220,"åįİè£Ķ":14221,"å·´æ¯Ķ":14222,"æĹłåĬĽ":14223,"åĵĪå¯Ĩ":14224,"å¡Ķæĸ¯":14225,"arm":14226,"åŃĺæ´»":14227,"åĩºçİ°äºİ":14228,"ä¸½çļĦ":14229,"èĥĮåıĽ":14230,"7æľĪ20æĹ¥":14231,"è´µçļĦ":14232,"æĬµå¾¡":14233,"èĳ¬ç¤¼":14234,"çŁ¥åĲįåº¦":14235,"çĭĻåĩ»":14236,"ler":14237,"Ġä¸ĸçķĮ":14238,"Ġè¿Ļç§į":14239,"çļĦè§Ħå®ļ":14240,"ä¸ľéĿ¢":14241,"éģĵåħ·":14242,"åĪĻæĺ¯åľ¨":14243,"åį¡è½¦":14244,"å¸¦åĽŀ":14245,"è§£åīĸ":14246,"åħŃåįģ":14247,"åįĥåı¶":14248,"æ¢ħåĪ©":14249,"æĻļä¼ļ":14250,"æ¦Ĥè¦ģ":14251,"å¹³åı°ä¸Ĭ":14252,"åįĴäºİ":14253,"æİ¢æµĭåĻ¨":14254,"GN":14255,"ail":14256,"ä¸Ńåħ´":14257,"äººåıĹä¼¤":14258,"è¡ĮæĢ§":14259,"çĶŁæ¯į":14260,"çĶŁæ®ĸ":14261,"å¹¶è®¤ä¸º":14262,"åħ±çĶ¨":14263,"é£ĺ":14264,"ç½ĹæĽ¼":14265,"åºĶä»ĺ":14266,"only":14267,"äº¦ç§°":14268,"æł¹æį®åľ°":14269,"å±ŀçļĦåĬ¨çī©":14270,"ase":14271,"æłĸæģ¯äºİ":14272,"ç²¾ç¥ŀçĹħ":14273,"ç¯®æĿ¿":14274,"é©¬åħĭè¥¿":14275,"æĬķåħ¥æľįåĬ¡":14276,"å±Ĭåħ¨åĽ½äººå¤§ä»£è¡¨":14277,"çģĮæºī":14278,"å¥łåŁº":14279,"æ»¡æ´²åĽ½":14280,"Ġstyle":14281,"éĩİçĶŁåĬ¨çī©":14282,"å°¼æĹ¥åĪ©äºļ":14283,")ãĢĭ":14284,"rad":14285,"çļĦè½¦ç«Ļ":14286,"åľ¨2006å¹´":14287,"ä»¥èĩ´":14288,"æĹ¶æīĢ":14289,"åĬ¨çļĦ":14290,"ä»£ä»·":14291,"å¦¾":14292,"å¤©æ°´":14293,"æ¯ĶåĪ©äºļ":14294,"æ£µ":14295,"åį¡æĻ®":14296,"éĹ¨ç¥¨":14297,")ãĢģ(":14298,"é¢ĦçķĻ":14299,"é¡ºä½į":14300,"åħ¼èģĮ":14301,"æķ°éĩıçļĦ":14302,"éģĩä¸Ĭ":14303,"çĴ§":14304,"åĤ¨å¤ĩ":14305,"è´«ç©·":14306,"éĻªåĲĮ":14307,"è¯ģåĪ¸äº¤æĺĵæīĢ":14308,"æ¤ŃåľĨ":14309,"Hz":14310,"Or":14311,"SL":14312,"Ã³":14313,"ĠåĲİç»Ń":14314,"çļĦèĬĤçĽ®":14315,"çļĦè°ĥæŁ¥":14316,"çļĦè¯Ħä»·":14317,"çļĦæĿĳèĲ½":14318,"ä¸Ģåı°":14319,"æĺ¯å½ĵæĹ¶":14320,"åĴĮè°Ĳ":14321,"ä¼ļå¯¹":14322,"éķ¿è½´":14323,"å¤ļéĥ¨":14324,"æĸĩæ¡£":14325,"èĪµ":14326,"åı°åĲİ":14327,"è¡¨åĨ³":14328,"åŁİå·´":14329,"æĮĩåĲĳ":14330,"æ°Ķæ°Ľ":14331,"åºĨåħ¸":14332,"æ²¹çĶ»":14333,"7æľĪ31æĹ¥":14334,"ç¼ºçĤ¹":14335,"åĪļåĪļ":14336,"è¥¿åĮĹæİ¥":14337,"ç¨³å®ļæĢ§":14338,"æĬ½çŃ¾":14339,"éĽĩåĳĺ":14340,"è¥¿èĹıèĩªæ²»åĮº":14341,"ç¡«éħ¸":14342,"orld":14343,"\"ãĢģ":14344,"Ro":14345,"ng":14346,"ä¸ªåĽ½å®¶":14347,"åįĹç«Ļ":14348,"åĮĹèĩ³":14349,"ä½Ĩè¯¥":14350,"æ²»æīĢåľ¨":14351,"åĲĦæĸ¹":14352,"çīĩå°¾":14353,"ç¼ĸä¸º":14354,"å¨ģåĬĽ":14355,"å½ķåıĸ":14356,"ç¬¬äºĮä»£":14357,"çĭ¬å®¶":14358,"è®©ä»ĸä»¬":14359,"åĺīåħ´":14360,"æĢ»ç»Łåºľ":14361,"æ¦Ĥçİĩ":14362,"åĨĮå°ģ":14363,"èģĶåĲĪåĽ½æķĻç§ĳæĸĩ":14364,"éĢĢå½¹åĲİ":14365,"ä¸ºé¦ĸçļĦ":14366,"äºĮæ°§åĮĸç¢³":14367,"Ġå¸ĥ":14368,"ä¸Ģé¢Ĺ":14369,"ä¸Ģå®ļçļĦ":14370,"ä¸Ńå±Ĥ":14371,"åĴĮèĭ±åĽ½":14372,"åľ°çĭ±":14373,"å½ĵäºĭ":14374,"ç§°åħ¶ä¸º":14375,"æ¸¯åºľ":14376,"ç¦ıæĸ¯":14377,"æ±īåı£":14378,"çĶ°çº³è¥¿":14379,"çľŁçĲĨ":14380,"å¯Įè£ķ":14381,"åį´åľ¨":14382,"åĬ³ä¼¦æĸ¯":14383,"é©¬æĿ¥äºļ":14384,"Ġ186":14385,"ott":14386,"ä»·åĢ¼çļĦ":14387,
[...]
