{
  "!": 0,
  "\"": 1,
  "#": 2,
  "$": 3,
  "%": 4,
  "&": 5,
  "'": 6,
  "(": 7,
  ")": 8,
  "*": 9,
  "+": 10,
  ",": 11,
  "-": 12,
  ".": 13,
  "/": 14,
  "0": 15,
  "1": 16,
  "2": 17,
  "3": 18,
  "4": 19,
  "5": 20,
  "6": 21,
  "7": 22,
  "8": 23,
  "9": 24,
  ":": 25,
  ";": 26,
  "=": 27,
  "?": 28,
  "@": 29,
  "A": 30,
  "B": 31,
  "C": 32,
  "D": 33,
  "E": 34,
  "F": 35,
  "G": 36,
  "H": 37,
  "I": 38,
  "J": 39,
  "K": 40,
  "L": 41,
  "M": 42,
  "N": 43,
  "O": 44,
  "P": 45,
  "Q": 46,
  "R": 47,
  "S": 48,
  "T": 49,
  "U": 50,
  "V": 51,
  "W": 52,
  "X": 53,
  "Y": 54,
  "Z": 55,
  "[": 56,
  "\\": 57,
  "]": 58,
  "^": 59,
  "_": 60,
  "`": 61,
  "a": 62,
  "b": 63,
  "c": 64,
  "d": 65,
  "e": 66,
  "f": 67,
  "g": 68,
  "h": 69,
  "i": 70,
  "j": 71,
  "k": 72,
  "l": 73,
  "m": 74,
  "n": 75,
  "o": 76,
  "p": 77,
  "q": 78,
  "r": 79,
  "s": 80,
  "t": 81,
  "u": 82,
  "v": 83,
  "w": 84,
  "x": 85,
  "y": 86,
  "z": 87,
  "|": 88,
  "~": 89,
  "\n": 162,
  " ": 163,
  "": 164,
  "�": 174,
  "ng": 199,
  "i4": 200,
  "an": 201,
  "sh": 202,
  "zh": 203,
  "ng1": 204,
  "ji": 205,
  "u4": 206,
  "ng2": 207,
  "  ": 208,
  "i2": 209,
  "ao": 210,
  "xi": 211,
  "ng4": 212,
  "an2": 213,
  "i3": 214,
  "i1": 215,
  "de": 216,
  "u3": 217,
  "an4": 218,
  "e4": 219,
  "en": 220,
  "ch": 221,
  "uo": 222,
  "u2": 223,
  "ng3": 224,
  "an1": 225,
  "e2": 226,
  "ai4": 227,
  "u1": 228,
  "   ": 229,
  "ong1": 230,
  "a1": 231,
  "shi4": 233,
  "ei4": 234,
  "ao4": 235,
  "ian2": 236,
  "a4": 237,
  "yu": 238,
  "ang1": 239,
  "yo": 240,
  "an3": 241,
  "n1": 242,
  "hu": 243,
  "ang4": 244,
  "nian2": 245,
  "en2": 246,
  "li": 247,
  "ang3": 248,
  "eng2": 249,
  "uo4": 250,
  "uo2": 251,
  "wei4": 252,
  "mi": 253,
  "ao3": 254,
  "zai4": 255,
  "、": 256,
  "bi": 257,
  "qi": 258,
  "ang2": 259,
  "e1": 260,
  "he2": 261,
  "yi": 262,
  "eng1": 263,
  "zhong1": 264,
  "er": 265,
  "bu4": 266,
  "ou4": 267,
  "a3": 268,
  "e3": 269,
  "n4": 270,
  "shi2": 271,
  "di4": 272,
  "guo2": 273,
  "ai2": 274,
  "ui4": 275,
  "ren2": 276,
  "ao1": 277,
  "xu": 278,
  "yi1": 279,
  "n2": 280,
  "ong2": 281,
  "yu2": 282,
  "gu": 283,
  "li4": 284,
  "zhi4": 285,
  "di": 286,
  "we": 287,
  "en4": 288,
  "cheng2": 289,
  "ong4": 290,
  "yi4": 291,
  "gong1": 292,
  "ji2": 293,
  "eng4": 294,
  "en1": 295,
  "yue4": 296,
  "you3": 297,
  "yuan2": 298,
  "da4": 299,
  "a2": 300,
  "le": 301,
  "ji4": 302,
  "20": 303,
  "yi3": 304,
  "ju": 305,
  "ai1": 306,
  "pi": 307,
  "xian4": 308,
  "ou1": 309,
  "jia1": 310,
  "si1": 311,
  "xing2": 312,
  "ei3": 313,
  "ti": 314,
  "yu3": 315,
  "ji1": 316,
  "ta1": 317,
  "ri4": 318,
  "zhi1": 319,
  "hou4": 320,
  "li3": 321,
  "ou3": 322,
  "ai3": 323,
  "wei2": 324,
  "hui4": 325,
  "dao4": 326,
  "19": 327,
  "ong3": 328,
  "qi2": 329,
  "uan2": 330,
  "zheng4": 331,
  "ming2": 332,
  "xi1": 333,
  "ao2": 334,
  "jian4": 335,
  "xue2": 336,
  "chu1": 337,
  "ge4": 338,
  "zuo4": 339,
  "uo1": 340,
  "sheng1": 341,
  "dui4": 342,
  "you2": 343,
  "uo3": 344,
  "qu1": 345,
  "shang4": 346,
  "en3": 347,
  "de2": 348,
  "bei4": 349,
  "shi3": 350,
  "zhu": 351,
  "zhan4": 352,
  "n3": 353,
  "xin1": 354,
  "jun1": 355,
  "er3": 356,
  "she4": 357,
  "ren4": 358,
  "fa1": 359,
  "wu4": 360,
  "bing4": 361,
  "ke4": 362,
  "er2": 363,
  "lu4": 364,
  "dai4": 365,
  "zhu3": 366,
  "yi2": 367,
  "shu4": 368,
  "ju4": 369,
  "jin4": 370,
  "zi4": 371,
  "yin1": 372,
  "fu4": 373,
  "fang1": 374,
  "jing1": 375,
  "nan2": 376,
  "hua4": 377,
  "zhou1": 378,
  "ping2": 379,
  "xia4": 380,
  "lai2": 381,
  "yong4": 382,
  "guan1": 383,
  "tong2": 384,
  "yu4": 385,
  "》": 386,
  "《": 387,
  "fa3": 388,
  "zhu4": 389,
  "mei3": 390,
  "·": 391,
  "jian1": 392,
  "bo": 393,
  "huo4": 394,
  "ben3": 395,
  "xiang1": 396,
  "zhi2": 397,
  "dong4": 398,
  "xiang4": 399,
  "min2": 400,
  "zhe4": 401,
  "jiang1": 402,
  "qi1": 403,
  "fen1": 404,
  "shou3": 405,
  "quan2": 406,
  "wen2": 407,
  "yan2": 408,
  "suo3": 409,
  "jiao4": 410,
  "qian2": 411,
  "dian4": 412,
  "te4": 413,
  "duo1": 414,
  "zui4": 415,
  "kai1": 416,
  "jie2": 417,
  "lian2": 418,
  "zhi3": 419,
  "xi4": 420,
  "ke3": 421,
  "eng3": 422,
  "ei1": 423,
  "dan4": 424,
  "mu4": 425,
  "ye4": 426,
  "du4": 427,
  "fu2": 428,
  "shu": 429,
  "ma3": 430,
  "ye3": 431,
  "dong1": 432,
  "qiu2": 433,
  "bei3": 434,
  "「": 435,
  "」": 436,
  "gao1": 437,
  "ya4": 438,
  "ou2": 439,
  "du": 440,
  "jie1": 441,
  "un2": 442,
  "mian4": 443,
  "hai3": 444,
  "zhang3": 445,
  "shi1": 446,
  "jin1": 447,
  "ci3": 448,
  "nei4": 449,
  "sai4": 450,
  "san1": 451,
  "tai2": 452,
  "ge2": 453,
  "xing4": 454,
  "guo4": 455,
  "201": 456,
  "deng3": 457,
  "yao4": 458,
  "che1": 459,
  "ci4": 460,
  "su": 461,
  "mo": 462,
  "ru4": 463,
  "wu3": 464,
  "gai1": 465,
  "ku": 466,
  "ding4": 467,
  "chang2": 468,
  "biao3": 469,
  "la1": 470,
  "ti3": 471,
  "gong4": 472,
  "jie4": 473,
  "shou4": 474,
  "dao3": 475,
  "shan1": 476,
  "chang3": 477,
  "si4": 478,
  "lv": 479,
  "ze2": 480,
  "ti2": 481,
  "ke1": 482,
  "dang1": 483,
  "neng2": 484,
  "er4": 485,
  "wai4": 486,
  "ei2": 487,
  "chu": 488,
  "dan1": 489,
  "qi3": 490,
  "zi": 491,
  "kou3": 492,
  "xiao3": 493,
  "zu3": 494,
  "ba1": 495,
  "jue2": 496,
  "lin2": 497,
  "liu2": 498,
  "ni": 499,
  "sheng3": 500,
  "ying1": 501,
  "lan2": 502,
  "bi3": 503,
  "luo2": 504,
  "tong1": 505,
  "200": 506,
  "zhong4": 507,
  "zhe3": 508,
  "shu3": 509,
  "tian1": 510,
  "zhen4": 511,
  "zhong3": 512,
  "lie4": 513,
  "qi4": 514,
  "cheng1": 515,
  "shu1": 516,
  "yuan4": 517,
  "bao3": 518,
  "tai4": 519,
  "fu3": 520,
  "feng1": 521,
  "mi3": 522,
  "qing1": 523,
  "shen1": 524,
  "wang2": 525,
  "yun4": 526,
  "guan3": 527,
  "fei1": 528,
  "jiu4": 529,
  "gu3": 530,
  "liang3": 531,
  "ceng2": 532,
  "mei2": 533,
  "10": 534,
  "fen4": 535,
  "hao4": 536,
  "yan3": 537,
  "wei3": 538,
  "zong3": 539,
  "xuan3": 540,
  "xiao4": 541,
  "da2": 542,
  "na4": 543,
  "liang4": 544,
  "bo1": 545,
  "zu2": 546,
  "jing4": 547,
  "bao4": 548,
  "ni2": 549,
  "wu2": 550,
  "tong3": 551,
  "hua2": 552,
  "jiao1": 553,
  "yue1": 554,
  "ying3": 555,
  "bian4": 556,
  "xing1": 557,
  "su4": 558,
  "shui3": 559,
  "yang2": 560,
  "men": 561,
  "bao1": 562,
  "ge1": 563,
  "bo2": 564,
  "can1": 565,
  "cong2": 566,
  "dian3": 567,
  "ru2": 568,
  "ban4": 569,
  "bi4": 570,
  "bian1": 571,
  "wang3": 572,
  "qu3": 573,
  "chan3": 574,
  "se4": 575,
  "zi1": 576,
  "qu": 577,
  "00": 578,
  "chuan2": 579,
  "nv": 580,
  "sheng4": 581,
  "ran2": 582,
  "tu2": 583,
  "zhang1": 584,
  "xu4": 585,
  "pu3": 586,
  "gai3": 587,
  "gang3": 588,
  "nv3": 589,
  "ling4": 590,
  "luo4": 591,
  "you4": 592,
  "tou2": 593,
  "hu4": 594,
  "cha2": 595,
  "ce4": 596,
  "chi2": 597,
  "18": 598,
  "lv4": 599,
  "qian1": 600,
  "li2": 601,
  "dou1": 602,
  "12": 603,
  "zheng1": 604,
  "kuo4": 605,
  "sha1": 606,
  "lu": 607,
  "dang3": 608,
  "fan3": 609,
  "gou4": 610,
  "lei4": 611,
  "xi2": 612,
  "jing3": 613,
  "tuan2": 614,
  "wei1": 615,
  "xie1": 616,
  "ling3": 617,
  "long2": 618,
  "gui1": 619,
  "xian1": 620,
  "rong2": 621,
  "huang2": 622,
  "xiang3": 623,
  "ban1": 624,
  "jiu3": 625,
  "ying4": 626,
  "men2": 627,
  "shang1": 628,
  "shen2": 629,
  "202": 630,
  "ban3": 631,
  "ka3": 632,
  "cu": 633,
  "mu3": 634,
  "jin3": 635,
  "fu1": 636,
  "ju3": 637,
  "mo2": 638,
  "guang3": 639,
  "ci2": 640,
  "shuo1": 641,
  "qing2": 642,
  "zhan3": 643,
  "hai2": 644,
  "zhuang1": 645,
  "mo4": 646,
  "cai2": 647,
  "ji3": 648,
  "du2": 649,
  "11": 650,
  "pin3": 651,
  "ting2": 652,
  "chao2": 653,
  "ying2": 654,
  "wo": 655,
  "tiao2": 656,
  "po": 657,
  "jian3": 658,
  "tang2": 659,
  "hui2": 660,
  "duan4": 661,
  "chen2": 662,
  "gen1": 663,
  "mi4": 664,
  "wan4": 665,
  "pai2": 666,
  "wan1": 667,
  "zao4": 668,
  "hang2": 669,
  "wan2": 670,
  "biao1": 671,
  "lun2": 672,
  "199": 673,
  "xie2": 674,
  "jiang3": 675,
  "han4": 676,
  "ju2": 677,
  "fan4": 678,
  "fang2": 679,
  "huo2": 680,
  "gu4": 681,
  "han2": 682,
  "kong1": 683,
  "tie3": 684,
  "meng2": 685,
  "bie2": 686,
  "wu1": 687,
  "jie3": 688,
  "zhuan1": 689,
  "yin3": 690,
  "xu1": 691,
  "zhen1": 692,
  "jia4": 693,
  "bing1": 694,
  "ming4": 695,
  "ling2": 696,
  "hong2": 697,
  "qin1": 698,
  "zi3": 699,
  "lun4": 700,
  "tu": 701,
  "or": 702,
  "xin4": 703,
  "chu4": 704,
  "su1": 705,
  "xiu1": 706,
  "chu3": 707,
  "zong1": 708,
  "15": 709,
  "hu2": 710,
  "que4": 711,
  "xiao1": 712,
  "zhao4": 713,
  "qiang2": 714,
  "qu4": 715,
  "cun1": 716,
  "chong2": 717,
  "pian4": 718,
  "jiu1": 719,
  "fang4": 720,
  "sui2": 721,
  "shou1": 722,
  "geng4": 723,
  "guang1": 725,
  "ju1": 726,
  "jia3": 727,
  "chuang4": 728,
  "di2": 729,
  "zhuan3": 730,
  "16": 731,
  "guo3": 732,
  "xun4": 733,
  "man4": 734,
  "pai4": 735,
  "fei4": 736,
  "pei4": 737,
  "198": 738,
  "da3": 739,
  "tuo1": 740,
  "xuan1": 741,
  "chu2": 742,
  "bai2": 743,
  "la": 744,
  "on": 745,
  "zhu1": 746,
  "du1": 747,
  "tu3": 748,
  "diao4": 749,
  "xia2": 750,
  "liu4": 751,
  "17": 752,
  "sui4": 753,
  "hui1": 754,
  "ting1": 755,
  "qie3": 756,
  "ta3": 757,
  "qiao2": 758,
  "ha1": 759,
  "gan3": 760,
  "zeng1": 761,
  "xian3": 762,
  "mai4": 763,
  "huan2": 764,
  "xu3": 765,
  "wa3": 766,
  "tui1": 767,
  "wen4": 768,
  "chao1": 769,
  "tian2": 770,
  "bai3": 771,
  "cai3": 772,
  "liang2": 773,
  "ya2": 774,
  "sa4": 775,
  "ar": 776,
  "bai4": 777,
  "cun2": 778,
  "jiao3": 779,
  "shao3": 780,
  "yan4": 781,
  "zhuang4": 782,
  "di3": 783,
  "huo3": 784,
  "lei2": 785,
  "14": 786,
  "jiang4": 787,
  "chuan1": 788,
  "yin4": 789,
  "zao3": 790,
  "yong3": 791,
  "si3": 792,
  "deng1": 793,
  "30": 794,
  "zhun3": 795,
  "le4": 796,
  "xun2": 797,
  "nuo4": 798,
  "huan4": 799,
  "song4": 800,
  "gao4": 801,
  "lu3": 802,
  "13": 803,
  "194": 804,
  "bang1": 805,
  "lv3": 806,
  "yang4": 807,
  "hen3": 808,
  "qun2": 809,
  "zheng3": 810,
  "guan4": 811,
  "po4": 812,
  "gang1": 813,
  "wo3": 814,
  "197": 815,
  "hua1": 816,
  "lei1": 817,
  "hao3": 818,
  "tao2": 819,
  "kuang4": 820,
  "pi1": 821,
  "dun4": 822,
  "nong2": 823,
  "gei3": 824,
  "sai1": 825,
  "shuang1": 826,
  "lian4": 827,
  "kuai4": 828,
  "in": 829,
  "di1": 830,
  "pan4": 831,
  "xie3": 832,
  "195": 833,
  "kao3": 834,
  "gai4": 835,
  "he4": 836,
  "hei1": 837,
  "wang4": 838,
  "liao4": 839,
  "re4": 840,
  "ge": 841,
  "zuo3": 842,
  "kong4": 843,
  "196": 844,
  "yang1": 845,
  "chang4": 846,
  "yin2": 847,
  "reng2": 848,
  "sen1": 849,
  "bei1": 850,
  "lu2": 851,
  "piao4": 852,
  "ya1": 853,
  "ku4": 854,
  "25": 855,
  "bin1": 856,
  "—": 857,
  "rang4": 858,
  "chong1": 859,
  "lou2": 860,
  "bu3": 861,
  "lao3": 862,
  "zhu2": 863,
  "jun4": 864,
  "yang3": 865,
  "rui4": 866,
  "yao1": 867,
  "xian2": 868,
  "xie4": 869,
  "nian4": 870,
  "for": 871,
  "you1": 872,
  "tan2": 873,
  "kang1": 874,
  "pi2": 875,
  "heng2": 876,
  "yun2": 877,
  "kan4": 878,
  "ning2": 879,
  "liao2": 880,
  "shao4": 881,
  "bu2": 882,
  "qing3": 883,
  "chi3": 884,
  "24": 885,
  "mu": 886,
  "dou4": 887,
  "mian3": 888,
  "yong1": 889,
  "tan3": 890,
  "wan3": 891,
  "hu1": 892,
  "ru": 893,
  "fan1": 894,
  "al": 895,
  "tu1": 896,
  "gan1": 897,
  "suan4": 898,
  "ding1": 899,
  "yuan3": 900,
  "wen1": 901,
  "tui4": 902,
  "zhe": 903,
  "st": 904,
  "21": 905,
  "xiu4": 906,
  "ba3": 907,
  "man3": 908,
  "193": 909,
  "23": 910,
  "mula": 911,
  "kang4": 912,
  "formula": 913,
  "28": 914,
  "th": 915,
  "mao2": 916,
  "ruo4": 917,
  "pian1": 918,
  "mao4": 919,
  "lang3": 920,
  "qin2": 921,
  "ba2": 922,
  "na2": 923,
  "zan4": 924,
  "xi3": 925,
  "gui3": 926,
  "gui4": 927,
  "re": 928,
  "pin2": 929,
  "wo4": 930,
  "xiong2": 931,
  "shan4": 932,
  "22": 933,
  "xiong1": 934,
  "me": 935,
  "sui1": 936,
  "26": 937,
  "shen3": 938,
  "qing4": 939,
  "miao2": 940,
  "fang3": 941,
  "50": 942,
  "2020": 943,
  "27": 944,
  "lang2": 945,
  "ou": 946,
  "qiu1": 947,
  "song1": 948,
  "ri": 949,
  "dang4": 950,
  "geng1": 951,
  "qiang1": 952,
  "fa2": 953,
  "zao1": 954,
  "feng4": 955,
  "zhang4": 956,
  "hao2": 958,
  "dun1": 959,
  "zou3": 960,
  "hai4": 961,
  "qie4": 962,
  "29": 963,
  "tan4": 964,
  "zu": 965,
  "pao4": 966,
  "pa4": 967,
  "shun4": 968,
  "peng2": 969,
  "xuan2": 970,
  "2010": 971,
  "ni3": 972,
  "000": 973,
  "ding3": 974,
  "niu3": 975,
  "zai3": 976,
  "zhao1": 977,
  "zhui1": 978,
  "lve4": 979,
  "chun1": 980,
  "2019": 981,
  "hun1": 982,
  "kong3": 983,
  "che4": 984,
  "duan1": 985,
  "shen4": 986,
  "xiang2": 987,
  "duan3": 988,
  "gan4": 989,
  "ro": 990,
  "te": 991,
  "kan1": 992,
  "lao2": 993,
  "cao3": 994,
  "2016": 995,
  "si": 996,
  "gu1": 997,
  "pei2": 998,
  "kuan3": 999,
  "za2": 1000,
  "2018": 1001,
  "sun1": 1002,
  "ye2": 1003,
  "ya3": 1004,
  "ra": 1005,
  "po1": 1006,
  "2021": 1007,
  "zha4": 1008,
  "chi4": 1009,
  "duo2": 1010,
  "2014": 1011,
  "fan2": 1012,
  "2011": 1013,
  "2015": 1014,
  "cuo4": 1015,
  "2017": 1016,
  "zhe2": 1017,
  "yao2": 1018,
  "pai1": 1019,
  "tou4": 1020,
  "cang2": 1021,
  "2012": 1022,
  "40": 1023,
  "kai3": 1024,
  "2013": 1025,
  "2022": 1026,
  "mi2": 1027,
  "ruan3": 1028,
  "suan1": 1029,
  "cha1": 1030,
  "zang4": 1031,
  "miao4": 1032,
  "lt": 1033,
  "2009": 1034,
  "zhao3": 1035,
  "2008": 1036,
  "huai2": 1037,
  "ce": 1039,
  "60": 1040,
  "xue4": 1041,
  "chou2": 1042,
  "se": 1043,
  "bang3": 1044,
  "am": 1045,
  "meng4": 1046,
  "100": 1047,
  "ti4": 1048,
  "pu2": 1049,
  "nao3": 1050,
  "2023": 1051,
  "zhuan4": 1052,
  "gt": 1053,
  "lei3": 1054,
  "190": 1055,
  "31": 1056,
  "cai4": 1057,
  "san4": 1058,
  "mou2": 1059,
  "tion": 1060,
  "hun4": 1061,
  "kuan1": 1062,
  "2007": 1063,
  "ta": 1064,
  "niu2": 1065,
  "mou3": 1066,
  "tao3": 1067,
  "die2": 1068,
  "2001": 1069,
  "teng2": 1070,
  "sou1": 1071,
  "ken3": 1072,
  "qian3": 1073,
  "chang1": 1074,
  "ran3": 1075,
  "que1": 1076,
  "fou3": 1077,
  "sun3": 1078,
  "fo": 1079,
  "ba4": 1080,
  "2000": 1081,
  "80": 1082,
  "kao4": 1083,
  "suo1": 1084,
  "2006": 1085,
  "niao3": 1086,
  "pi3": 1087,
  "chun2": 1088,
  "2024": 1089,
  "lan3": 1090,
  "zai1": 1092,
  "co": 1093,
  "xue3": 1094,
  "hui3": 1095,
  "el": 1096,
  "ma": 1097,
  "luan4": 1098,
  "ting3": 1099,
  "2005": 1100,
  "zun1": 1101,
  "bang4": 1102,
  "la4": 1103,
  "huan1": 1104,
  "rang3": 1105,
  "shui4": 1106,
  "min3": 1107,
  "35": 1108,
  "lai4": 1109,
  "cang1": 1110,
  "70": 1111,
  "fo2": 1112,
  "pan2": 1113,
  "nai4": 1114,
  "wen3": 1115,
  "ne": 1116,
  "cao1": 1117,
  "of": 1118,
  "sang1": 1119,
  "pang2": 1120,
  "90": 1121,
  "bing3": 1122,
  "－": 1123,
  "ter": 1124,
  "zha1": 1125,
  "shuai4": 1127,
  "nie4": 1128,
  "hou2": 1129,
  "mei4": 1130,
  "shao1": 1131,
  "nu3": 1132,
  "dong3": 1133,
  "il": 1134,
  "feng2": 1135,
  "mie4": 1136,
  "yun3": 1137,
  "zou4": 1138,
  "mai3": 1139,
  "huai4": 1140,
  "2004": 1141,
  "45": 1142,
  "lo": 1143,
  "yan1": 1144,
  "the": 1145,
  "he": 1146,
  "48": 1147,
  "zhuo2": 1148,
  "at": 1149,
  "and": 1150,
  "tao4": 1151,
  "nai3": 1152,
  "kun1": 1153,
  "2025": 1154,
  "zhen3": 1155,
  "ck": 1156,
  "ru3": 1157,
  "kua4": 1158,
  "kui2": 1159,
  "〉": 1160,
  "〈": 1161,
  "gou1": 1162,
  "36": 1163,
  "et": 1164,
  "cui1": 1165,
  "es": 1166,
  "38": 1167,
  "cu4": 1168,
  "shan3": 1169,
  "rou4": 1170,
  "diao1": 1171,
  "2003": 1172,
  "hu3": 1173,
  "guo1": 1174,
  "37": 1175,
  "cui4": 1176,
  "xu2": 1177,
  "is": 1178,
  "mang2": 1179,
  "juan3": 1180,
  "to": 1181,
  "can2": 1182,
  "dian1": 1183,
  "zhan1": 1184,
  "cao2": 1185,
  "189": 1186,
  "IN": 1187,
  "2002": 1188,
  "keng1": 1189,
  "TC": 1190,
  "ma2": 1191,
  "34": 1192,
  "leng3": 1193,
  "as": 1194,
  "zu1": 1195,
  "cha4": 1196,
  "75": 1197,
  "–": 1198,
  "ow": 1199,
  "su2": 1200,
  "quan1": 1201,
  "da1": 1202,
  "chai1": 1203,
  "lang4": 1204,
  "kun4": 1205,
  "46": 1206,
  "tun2": 1207,
  "fen3": 1208,
  "1990": 1209,
  "…": 1210,
  "ol": 1211,
  "ve": 1212,
  "zhou4": 1213,
  "shang3": 1214,
  "rao4": 1215,
  "heng1": 1216,
  "ti1": 1217,
  "xun1": 1218,
  "39": 1219,
  "ne4": 1220,
  "..": 1221,
  "nan4": 1222,
  "pan1": 1223,
  "65": 1224,
  "hong1": 1225,
  "shu2": 1226,
  "tan1": 1227,
  "tang1": 1228,
  "kan3": 1229,
  "Ma": 1230,
  "ni4": 1231,
  "Ch": 1232,
  "32": 1233,
  "it": 1234,
  "ST": 1235,
  "han3": 1236,
  "47": 1237,
  "UTC": 1238,
  "qian4": 1239,
  "1999": 1240,
  "1998": 1241,
  "In": 1242,
  "1980": 1243,
  "188": 1244,
  "500": 1245,
  "33": 1246,
  "64": 1247,
  "qiang3": 1248,
  "she2": 1249,
  "shuo4": 1250,
  "pao3": 1251,
  "be": 1252,
  "ka1": 1253,
  "zhai2": 1254,
  "SE": 1255,
  "55": 1256,
  "quan4": 1257,
  "ni1": 1258,
  "deng4": 1259,
  "1997": 1260,
  "The": 1261,
  "Co": 1262,
  "mian2": 1263,
  "49": 1264,
  "gao3": 1265,
  "II": 1266,
  "68": 1267,
  "han": 1268,
  "she3": 1269,
  "zeng4": 1270,
  "zhou2": 1271,
  "zhai4": 1272,
  "Re": 1273,
  "1996": 1274,
  "44": 1275,
  "na": 1276,
  "tie1": 1277,
  "dao1": 1278,
  "ad": 1279,
  "br": 1280,
  "1994": 1281,
  "fei2": 1282,
  "zong4": 1283,
  "ir": 1284,
  "qiong2": 1285,
  "tiao4": 1286,
  "chuang2": 1287,
  "nd": 1288,
  "1992": 1289,
  "chui2": 1290,
  "juan1": 1291,
  "ci": 1292,
  "chai2": 1293,
  "miao3": 1294,
  "ba": 1295,
  "gua1": 1296,
  "xue1": 1297,
  "tong4": 1298,
  "1995": 1299,
  "fei3": 1300,
  "chi1": 1301,
  "meng3": 1302,
  "wo1": 1303,
  "67": 1304,
  "shuai1": 1305,
  "tuo2": 1306,
  "chuang1": 1307,
  "huan3": 1308,
  "vi": 1309,
  "1991": 1310,
  "1970": 1311,
  "58": 1312,
  "1950": 1313,
  "gua4": 1314,
  "chan2": 1315,
  "ca": 1316,
  "300": 1317,
  "wa1": 1318,
  "1993": 1319,
  "187": 1320,
  "1949": 1321,
  "ay": 1322,
  "pe": 1323,
  "sa1": 1324,
  "tiao3": 1325,
  "zha2": 1326,
  "AT": 1327,
  "1960": 1328,
  "bian3": 1329,
  "42": 1330,
  "1945": 1331,
  "ver": 1332,
  "us": 1333,
  "guai4": 1334,
  "ku3": 1335,
  "nu2": 1336,
  "1988": 1337,
  "du3": 1338,
  "oo": 1339,
  "1989": 1340,
  "ig": 1341,
  "pu4": 1342,
  "69": 1343,
  "liu3": 1344,
  "ing": 1345,
  "ur": 1346,
  "ss": 1347,
  "gong3": 1348,
  "SEE": 1349,
  "tuo4": 1350,
  "ct": 1351,
  "liao3": 1352,
  "INSEE": 1353,
  "59": 1354,
  "sha4": 1355,
  "tai1": 1356,
  "43": 1357,
  "66": 1358,
  "chuan4": 1359,
  "amp": 1360,
  "chen4": 1361,
  "57": 1362,
  "1985": 1363,
  "huang1": 1364,
  "Ro": 1365,
  "99": 1366,
  "SA": 1367,
  "『": 1368,
  "cun4": 1369,
  "』": 1370,
  "1984": 1371,
  "hun2": 1372,
  "41": 1373,
  "um": 1374,
  "pu1": 1375,
  "kou4": 1376,
  "ph": 1377,
  "88": 1378,
  "fen2": 1379,
  "1986": 1380,
  "rao3": 1381,
  "St": 1382,
  "au": 1383,
  "id": 1384,
  "run4": 1385,
  "TV": 1386,
  "150": 1387,
  "zhuo1": 1388,
  "ind": 1389,
  "400": 1390,
  "san3": 1391,
  "1987": 1392,
  "78": 1393,
  "56": 1394,
  "1982": 1395,
  "ard": 1396,
  "Li": 1397,
  "nuo2": 1398,
  "Me": 1399,
  "1983": 1400,
  "De": 1401,
  "NA": 1402,
  "gun3": 1403,
  "ma1": 1404,
  "tou": 1405,
  "pin4": 1406,
  "un": 1407,
  "CD": 1408,
  "chou1": 1409,
  "ber": 1410,
  "gou3": 1411,
  "quan3": 1412,
  "77": 1413,
  "Mi": 1414,
  "zhai1": 1415,
  "qia4": 1416,
  "per": 1417,
  "mao1": 1418,
  "qiao3": 1419,
  "Mar": 1420,
  "ku1": 1421,
  "kuang2": 1422,
  "ed": 1423,
  "ang": 1424,
  "rou2": 1425,
  "98": 1426,
  "der": 1427,
  "lou4": 1428,
  "OS": 1429,
  "°": 1430,
  "kui4": 1431,
  "sang4": 1432,
  "ly": 1434,
  "180": 1435,
  "BC": 1436,
  "54": 1437,
  "61": 1438,
  "Al": 1439,
  "1979": 1440,
  "1920": 1441,
  "ty": 1442,
  "79": 1443,
  "pen1": 1444,
  "seng1": 1445,
  "tw": 1446,
  "52": 1447,
  "You": 1448,
  "1978": 1449,
  "nu4": 1450,
  "62": 1451,
  "weng1": 1452,
  "ye1": 1453,
  "duo3": 1454,
  "Le": 1455,
  "53": 1456,
  "xing3": 1457,
  "juan4": 1458,
  "～": 1459,
  "BA": 1460,
  "ts": 1461,
  "ak": 1462,
  "1946": 1463,
  "CO": 1464,
  "Mo": 1465,
  "ction": 1466,
  "51": 1467,
  "1958": 1468,
  "Sh": 1469,
  "1981": 1470,
  "Vi": 1471,
  "man": 1472,
  "1972": 1473,
  "1948": 1474,
  "zhui4": 1475,
  "cong1": 1476,
  "tou1": 1477,
  "AM": 1478,
  "63": 1479,
  "AR": 1480,
  "Jo": 1481,
  "1941": 1482,
  "Wind": 1483,
  "wa2": 1484,
  "BS": 1485,
  "lian3": 1486,
  "1930": 1487,
  "Pro": 1488,
  "luan3": 1489,
  "ows": 1490,
  "kuang1": 1491,
  "ke2": 1492,
  "qu2": 1493,
  "tuo3": 1494,
  "76": 1495,
  "hans": 1496,
  "1940": 1497,
  "pi4": 1498,
  "1937": 1499,
  "1976": 1500,
  "zui3": 1501,
  "1944": 1502,
  "89": 1503,
  "1975": 1504,
  "ry": 1505,
  "／": 1506,
  "1968": 1507,
  "niang2": 1508,
  "po2": 1509,
  "shua1": 1510,
  "hk": 1511,
  "con": 1512,
  "ran": 1513,
  "Te": 1514,
  "yuan1": 1515,
  "tao1": 1516,
  "wang1": 1517,
  "1000": 1518,
  "Windows": 1519,
  "95": 1520,
  "pa": 1521,
  "Ne": 1522,
  "no": 1523,
  "bi2": 1524,
  "sao3": 1525,
  "87": 1526,
  "da": 1527,
  "1966": 1528,
  "85": 1529,
  "fa4": 1530,
  "peng1": 1531,
  "600": 1532,
  "ga1": 1533,
  "lan4": 1534,
  "120": 1535,
  "1947": 1536,
  "Ar": 1537,
  "Sta": 1538,
  "1956": 1539,
  "AC": 1540,
  "1964": 1541,
  "dan3": 1542,
  "cu1": 1543,
  "1942": 1544,
  "é": 1545,
  "1955": 1546,
  "Se": 1547,
  "Ra": 1548,
  "chou3": 1549,
  "1952": 1550,
  "1939": 1551,
  "1938": 1552,
  "72": 1553,
  "IS": 1554,
  "va": 1555,
  "74": 1556,
  "Ga": 1557,
  "ga": 1558,
  "ht": 1559,
  "nu": 1560,
  "lay": 1561,
  "ren3": 1562,
  "1973": 1563,
  "1974": 1564,
  "1954": 1565,
  "fi": 1566,
  "qie1": 1567,
  "ED": 1568,
  "1900": 1569,
  "--": 1570,
  "Ja": 1571,
  "AP": 1572,
  "1943": 1573,
  "bi1": 1574,
  "Tu": 1575,
  "ke": 1576,
  "os": 1577,
  "1977": 1578,
  "Be": 1579,
  "1971": 1580,
  "pin1": 1581,
  "man2": 1582,
  "op": 1583,
  "po3": 1584,
  "ent": 1585,
  "1967": 1586,
  "sheng2": 1587,
  "ment": 1588,
  "mp": 1589,
  "IC": 1590,
  "800": 1591,
  "La": 1592,
  "ER": 1593,
  "ia": 1594,
  "86": 1595,
  "1959": 1596,
  "beng1": 1597,
  "Sa": 1598,
  "1965": 1599,
  "son": 1600,
  "JR": 1601,
  "1969": 1602,
  "dui1": 1603,
  "Lo": 1604,
  "pen2": 1605,
  "ine": 1606,
  "So": 1607,
  "・": 1608,
  "×": 1609,
  "qiao4": 1610,
  "chui1": 1611,
  "ID": 1612,
  "qiao1": 1613,
  "Su": 1614,
  "1936": 1615,
  "97": 1616,
  "160": 1617,
  "ben1": 1618,
  "zhua1": 1619,
  "Da": 1620,
  "Fa": 1621,
  "1953": 1622,
  "1962": 1623,
  "MA": 1624,
  "do": 1625,
  "1961": 1626,
  "tic": 1627,
  "long3": 1628,
  "1935": 1630,
  "ta4": 1631,
  "rou": 1632,
  "mai2": 1633,
  "96": 1634,
  "ON": 1635,
  "Di": 1636,
  "％": 1637,
  "1951": 1638,
  "1957": 1639,
  "1963": 1640,
  "Ca": 1641,
  "ha": 1642,
  "─": 1643,
  "ok": 1644,
  "84": 1645,
  "2026": 1646,
  "can3": 1647,
  "ore": 1648,
  "82": 1649,
  "Na": 1650,
  "hi": 1651,
  "bu": 1652,
  "73": 1653,
  "94": 1654,
  "tun1": 1655,
  "92": 1656,
  "pp": 1657,
  "IP": 1658,
  "AN": 1659,
  "Bo": 1660,
  "sta": 1661,
  "mer": 1662,
  "1933": 1663,
  "one": 1664,
  "Mu": 1665,
  "1931": 1666,
  "nang2": 1667,
  "les": 1668,
  "niao4": 1669,
  "71": 1670,
  "bao2": 1671,
  "ho": 1672,
  "nuan3": 1673,
  "gi": 1674,
  "An": 1675,
  "leng2": 1676,
  "pa2": 1677,
  "Pa": 1678,
  "93": 1679,
  "so": 1680,
  "83": 1681,
  "all": 1682,
  "We": 1683,
  "dou3": 1684,
  "81": 1685,
  "1918": 1686,
  "HD": 1687,
  "Si": 1688,
  "sao1": 1689,
  "wi": 1690,
  "Uni": 1691,
  "1928": 1692,
  "luan2": 1693,
  "1932": 1694,
  "nen4": 1695,
  "ll": 1696,
  "ara": 1697,
  "int": 1698,
  "Ba": 1699,
  "MV": 1700,
  "SS": 1701,
  "110": 1702,
  "1912": 1703,
  "IT": 1704,
  "ki": 1705,
  "1929": 1706,
  "tui3": 1707,
  "duo4": 1708,
  "1927": 1709,
  "com": 1710,
  "tu4": 1711,
  "1934": 1712,
  "are": 1713,
  "700": 1714,
  "ga2": 1715,
  "cn": 1716,
  "ali": 1717,
  "91": 1718,
  "che": 1719,
  "ted": 1720,
  "ster": 1721,
  "ff": 1722,
  "by": 1723,
  "huang3": 1724,
  "col": 1725,
  "ill": 1726,
  "ot": 1727,
  "250": 1728,
  "sa": 1729,
  "art": 1730,
  "zei2": 1731,
  "1924": 1732,
  "Ri": 1733,
  "...": 1734,
  "1919": 1735,
  "kui1": 1736,
  "xuan4": 1737,
  "130": 1738,
  "piao1": 1739,
  "1925": 1740,
  "PS": 1741,
  "pao1": 1742,
  "xia1": 1743,
  "140": 1744,
  "Play": 1745,
  "SM": 1746,
  "PC": 1747,
  "mes": 1748,
  "1914": 1749,
  "ste": 1750,
  "zhai3": 1751,
  "km": 1752,
  "He": 1753,
  "DV": 1754,
  "pan": 1755,
  "zhe1": 1756,
  "YouTu": 1757,
  "he1": 1758,
  "end": 1759,
  "Ha": 1760,
  "Fi": 1761,
  "ana": 1762,
  "die1": 1763,
  "ble": 1764,
  "Con": 1765,
  "Wi": 1766,
  "la3": 1767,
  "AS": 1768,
  "1911": 1769,
  "Bu": 1770,
  "ka": 1771,
  "shi": 1772,
  "od": 1773,
  "gra": 1774,
  "nve4": 1775,
  "ld": 1776,
  "1926": 1777,
  "Ge": 1778,
  "Ti": 1779,
  "den": 1780,
  "our": 1781,
  "1922": 1782,
  "na3": 1783,
  "de ": 1784,
  " de ": 1785,
  "shi4 ": 1786,
  " shi4 ": 1787,
  " nian2": 1788,
  " nian2 ": 1789,
  "wei4 ": 1790,
  "zai4 ": 1791,
  " wei4 ": 1792,
  " zai4 ": 1793,
  "he2 ": 1794,
  " he2 ": 1795,
  "zhong1 ": 1796,
  "bu4 ": 1797,
  "di4 ": 1798,
  "shi2 ": 1799,
  "guo2 ": 1800,
  "yu2 ": 1801,
  "ren2 ": 1802,
  " bu4 ": 1803,
  "yi1 ": 1804,
  " zhong1 ": 1805,
  "li4 ": 1806,
  "zhi4 ": 1807,
  "gong1 ": 1808,
  " shi2 ": 1809,
  "yue4 ": 1810,
  "ji2 ": 1811,
  "cheng2 ": 1812,
  "yi4 ": 1813,
  "you3 ": 1814,
  " di4 ": 1815,
  " yue4 ": 1816,
  " yu2 ": 1817,
  " ren2 ": 1818,
  " zhi4 ": 1819,
  "da4 ": 1820,
  " ji2 ": 1821,
  "yuan2 ": 1822,
  " you3 ": 1823,
  "ji4 ": 1824,
  " guo2 ": 1825,
  " li4 ": 1826,
  " gong1 ": 1827,
  " yi4 ": 1828,
  " yi3": 1829,
  " cheng2 ": 1830,
  "jia1 ": 1831,
  "si1 ": 1832,
  "yu3 ": 1833,
  " xian4": 1834,
  " ri4": 1835,
  " yi1 ": 1836,
  " xing2": 1837,
  " ta1": 1838,
  "li3 ": 1839,
  "ji1 ": 1840,
  " dao4": 1841,
  "hou4 ": 1842,
  "wei2 ": 1843,
  " zhi1": 1844,
  " da4 ": 1845,
  " yuan2 ": 1846,
  "xi1 ": 1847,
  " ri4 ": 1848,
  " ge4": 1849,
  " yi3 ": 1850,
  "xue2 ": 1851,
  "hui4 ": 1852,
  "le ": 1853,
  "zuo4 ": 1854,
  " yu3 ": 1855,
  " dao4 ": 1856,
  "ming2 ": 1857,
  " ji4 ": 1858,
  "bei4 ": 1859,
  " xing2 ": 1860,
  "sheng1 ": 1861,
  " jian4": 1862,
  " chu1": 1863,
  " qi2": 1864,
  " si1 ": 1865,
  " de2": 1866,
  "zheng4 ": 1867,
  " xian4 ": 1868,
  " hou4 ": 1869,
  " ji1 ": 1870,
  "dui4 ": 1871,
  "shang4 ": 1872,
  "qu1 ": 1873,
  "shi3 ": 1874,
  " er3": 1875,
  " jia1 ": 1876,
  "you2 ": 1877,
  " ta1 ": 1878,
  " xi1 ": 1879,
  " li3 ": 1880,
  " er2": 1881,
  "zhan4 ": 1882,
  " jun1": 1883,
  " bing4": 1884,
  " zhi1 ": 1885,
  " ge4 ": 1886,
  "zhu3 ": 1887,
  "ren4 ": 1888,
  "fu4 ": 1889,
  "zi4 ": 1890,
  "wu4 ": 1891,
  "xin1 ": 1892,
  "dai4 ": 1893,
  "ju4 ": 1894,
  "ping2 ": 1895,
  " chu1 ": 1896,
  " ke4": 1897,
  " zhou1": 1898,
  "xiang1 ": 1899,
  " hui4 ": 1900,
  "shu4 ": 1901,
  "nan2 ": 1902,
  " she4": 1903,
  " bei4 ": 1904,
  " ming2 ": 1905,
  "xia4 ": 1906,
  "guan1 ": 1907,
  " er3 ": 1908,
  " de2 ": 1909,
  "lu4 ": 1910,
  "yu4 ": 1911,
  "hua4 ": 1912,
  " jian4 ": 1913,
  "jing1 ": 1914,
  "yan2 ": 1915,
  "fang1 ": 1916,
  " yin1": 1917,
  "kai1 ": 1918,
  "jian1 ": 1919,
  "jiao4 ": 1920,
  "fa1 ": 1921,
  "yong4 ": 1922,
  " dan4": 1923,
  " er2 ": 1924,
  "zhu4 ": 1925,
  "lai2 ": 1926,
  "min2 ": 1927,
  "shou3 ": 1928,
  "zhe4 ": 1929,
  "xiang4 ": 1930,
  "wen2 ": 1931,
  " jun1 ": 1932,
  "xi4 ": 1933,
  "qian2 ": 1934,
  "ben3 ": 1935,
  "te4 ": 1936,
  " wei2 ": 1937,
  "zhi2 ": 1938,
  "fa3 ": 1939,
  "qi1 ": 1940,
  "jie2 ": 1941,
  "lian2 ": 1942,
  " bing4 ": 1943,
  "dong4 ": 1944,
  "dian4 ": 1945,
  " qi2 ": 1946,
  " ke4 ": 1947,
  "dong1 ": 1948,
  "mu4 ": 1949,
  " jin4": 1950,
  " dui4 ": 1951,
  " huo4": 1952,
  " zhan4 ": 1953,
  "fen1 ": 1954,
  "tai2 ": 1955,
  "zhang3 ": 1956,
  "du4 ": 1957,
  "jiang1 ": 1958,
  " qiu2": 1959,
  " ping2 ": 1960,
  "gao1 ": 1961,
  "ye4 ": 1962,
  "suo3 ": 1963,
  "bei3 ": 1964,
  " zhou1 ": 1965,
  "shi1 ": 1966,
  " le ": 1967,
  "duo1 ": 1968,
  "jie1 ": 1969,
  "ge2 ": 1970,
  " shang4 ": 1971,
  "jin1 ": 1972,
  " zheng4 ": 1973,
  "fu2 ": 1974,
  " zuo4 ": 1975,
  " you2 ": 1976,
  " fu4 ": 1977,
  "kou3 ": 1978,
  "guo4 ": 1979,
  "zhi3 ": 1980,
  " tong2": 1981,
  "hai3 ": 1982,
  " ren4 ": 1983,
  " quan2": 1984,
  "ma3 ": 1985,
  "tong1 ": 1986,
  "ru4 ": 1987,
  "zui4 ": 1988,
  " sheng1 ": 1989,
  " xue2 ": 1990,
  "ci3 ": 1991,
  "xing4 ": 1992,
  "wai4 ": 1993,
  "nei4 ": 1994,
  "la1 ": 1995,
  "ti3 ": 1996,
  "jue2 ": 1997,
  "ke3 ": 1998,
  "qi3 ": 1999,
  "shan1 ": 2000,
  "tian1 ": 2001,
  "chang3 ": 2002,
  "deng3 ": 2003,
  "zhen4 ": 2004,
  "wu3 ": 2005,
  "chang2 ": 2006,
  "zi ": 2007,
  "yao4 ": 2008,
  "bi3 ": 2009,
  " ju4 ": 2010,
  "bao3 ": 2011,
  "mi3 ": 2012,
  "ya4 ": 2013,
  " ye3": 2014,
  "gai1 ": 2015,
  " yin1 ": 2016,
  " dai4 ": 2017,
  "mian4 ": 2018,
  "zhong4 ": 2019,
  " she4 ": 2020,
  "feng1 ": 2021,
  " zhe4 ": 2022,
  "zhong3 ": 2023,
  "ci4 ": 2024,
  "yun4 ": 2025,
  "yi2 ": 2026,
  "liu2 ": 2027,
  "che1 ": 2028,
  "shou4 ": 2029,
  "lin2 ": 2030,
  "bao1 ": 2031,
  "yi2 ge4 ": 2032,
  "sai4 ": 2033,
  "jie4 ": 2034,
  "ding4 ": 2035,
  "shen1 ": 2036,
  "sheng3 ": 2037,
  "luo2 ": 2038,
  "mei3 guo2 ": 2039,
  "san1 ": 2040,
  "qi4 ": 2041,
  "xiao3 ": 2042,
  " dan4 ": 2043,
  "neng2 ": 2044,
  "shu1 ": 2045,
  "ze2 ": 2046,
  "lie4 ": 2047,
  "xuan3 ": 2048,
  "si4 ": 2049,
  "qing1 ": 2050,
  "zhe3 ": 2051,
  " qiu2 ": 2052,
  "jing4 ": 2053,
  "yuan4 ": 2054,
  "ba1 ": 2055,
  "an1 ": 2056,
  "wang2 ": 2057,
  "ke1 ": 2058,
  "tai4 ": 2059,
  "lan2 ": 2060,
  "bao4 ": 2061,
  "zong3 ": 2062,
  "ying3 ": 2063,
  " huo4 ": 2064,
  "bi4 ": 2065,
  "fu3 ": 2066,
  "dao3 ": 2067,
  " xin1 ": 2068,
  "gu3 ": 2069,
  "ying1 ": 2070,
  " hao4": 2071,
  " xia4 ": 2072,
  " zi4 ": 2073,
  "ge1 ": 2074,
  "fen4 ": 2075,
  "xiao4 ": 2076,
  "yue1 ": 2077,
  "ni2 ": 2078,
  "jiao1 ": 2079,
  "na4 ": 2080,
  " yu4 ": 2081,
  " mi3 ": 2082,
  "zi1 ": 2083,
  "er4 ": 2084,
  " xiang1 ": 2085,
  "pu3 ": 2086,
  "dan1 ": 2087,
  " zhu4 ": 2088,
  "biao3 ": 2089,
  "guan3 ": 2090,
  "tou2 ": 2091,
  "liang4 ": 2092,
  "chuan2 ": 2093,
  " lu4 ": 2094,
  "su4 ": 2095,
  "wu2 ": 2096,
  " dang1": 2097,
  "bo1 ": 2098,
  "ru2 ": 2099,
  "yan3 ": 2100,
  "nv3 ": 2101,
  "bo2 ": 2102,
  " zhong1 guo2 ": 2103,
  "xing1 ": 2104,
  "ti2 ": 2105,
  "fei1 ": 2106,
  "da2 ": 2107,
  "se4 ": 2108,
  "cheng1 ": 2109,
  "mei3 ": 2110,
  " wei4 yu2 ": 2111,
  " jin4 ": 2112,
  "ceng2 ": 2113,
  "chan3 ": 2114,
  " nan2 ": 2115,
  "shui3 ": 2116,
  "tu2 ": 2117,
  "bian4 ": 2118,
  "gui1 ": 2119,
  " ran2": 2120,
  "a1 ": 2121,
  "yang2 ": 2122,
  "zhang1 ": 2123,
  "gai3 ": 2124,
  "dian3 ": 2125,
  "cong2 ": 2126,
  "jiu4 ": 2127,
  " ben3 ": 2128,
  " quan2 ": 2129,
  "sha1 ": 2130,
  "bao1 kuo4": 2131,
  "wang3 ": 2132,
  "jian3 ": 2133,
  "sheng4 ": 2134,
  "zu3 ": 2135,
  "shu3 ": 2136,
  "gang3 ": 2137,
  "hua2 ": 2138,
  "lv4 ": 2139,
  "an4 ": 2140,
  "qing2 ": 2141,
  "jing3 ": 2142,
  "liang3 ": 2143,
  "zu2 ": 2144,
  "ban4 ": 2145,
  "tong3 ": 2146,
  "gong4 ": 2147,
  "shang1 ": 2148,
  "ao4 ": 2149,
  "li2 ": 2150,
  "hu4 ": 2151,
  "1 ": 2152,
  "tong2 ": 2153,
  "bian1 ": 2154,
  "jin4 ": 2155,
  "long2 ": 2156,
  "luo4 ": 2157,
  "xu4 ": 2158,
  "chi2 ": 2159,
  "mei2 ": 2160,
  "jin3 ": 2161,
  "ban1 ": 2162,
  "guang3 ": 2163,
  "chu1 ": 2164,
  "ce4 ": 2165,
  "mi4 ": 2166,
  "shen2 ": 2167,
  " ta1 men": 2168,
  "zheng1 ": 2169,
  "zhi1 ": 2170,
  "ling3 ": 2171,
  "you4 ": 2172,
  "fan3 ": 2173,
  "wei1 ": 2174,
  " zhu3 ": 2175,
  "huo2 ": 2176,
  "xi2 ": 2177,
  "ting2 ": 2178,
  "ka3 ": 2179,
  "cha2 ": 2180,
  " gai1 ": 2181,
  " xiang4 ": 2182,
  "cai2 ": 2183,
  "2 ": 2184,
  "gou4 ": 2185,
  "shuo1 ": 2186,
  "men2 ": 2187,
  "ci2 ": 2188,
  "xiang3 ": 2189,
  "mu3 ": 2190,
  "lei4 ": 2191,
  "wei3 ": 2192,
  "qu3 ": 2193,
  " gong1 li3 ": 2194,
  "yan2 jiu1": 2195,
  " duo1 ": 2196,
  "tuan2 ": 2197,
  "yin3 ": 2198,
  "jian4 ": 2199,
  " ye3 ": 2200,
  "chao2 ": 2201,
  "ying4 ": 2202,
  "chen2 ": 2203,
  "tang2 ": 2204,
  "xie1 ": 2205,
  "qi2 ": 2206,
  "pin3 ": 2207,
  " yi3 ji2 ": 2208,
  "jia4 ": 2209,
  "shi3 yong4 ": 2210,
  "jie3 ": 2211,
  "hang2 ": 2212,
  "yi3 ": 2213,
  "lun2 ": 2214,
  "rong2 ": 2215,
  "jiang3 ": 2216,
  " you2": 2217,
  "pai2 ": 2218,
  "fu1 ": 2219,
  "jiu3 ": 2220,
  "ling4 ": 2221,
  "tai2 wan1": 2222,
  " hao4 ": 2223,
  " wan4": 2224,
  " de di4 ": 2225,
  "xu1 ": 2226,
  "ke3 yi3 ": 2227,
  "huang2 ": 2228,
  "xian1 ": 2229,
  "duan4 ": 2230,
  "ke4 ": 2231,
  "dang3 ": 2232,
  "mo2 ": 2233,
  "can1 ": 2234,
  "ying2 ": 2235,
  "tiao2 ": 2236,
  "biao1 ": 2237,
  " de yi1 ": 2238,
  "e2 ": 2239,
  "kai1 shi3 ": 2240,
  "quan2 ": 2241,
  "zhan3 ": 2242,
  " cheng2 wei2 ": 2243,
  "ye3 ": 2244,
  "hong2 ": 2245,
  "mei2 you3 ": 2246,
  "han4 ": 2247,
  "yin1 ": 2248,
  "wei3 yuan2 ": 2249,
  "qian1 ": 2250,
  "ban3 ": 2251,
  "xian4 ": 2252,
  "ling2 ": 2253,
  "xiao1 ": 2254,
  " tong2 ": 2255,
  "hui2 ": 2256,
  "su1 ": 2257,
  "fang2 ": 2258,
  "meng2 ": 2259,
  "zhuang1 ": 2260,
  "kong1 ": 2261,
  "ju2 ": 2262,
  "cun1 ": 2263,
  "bao1 kuo4 ": 2264,
  "ren2 kou3 ": 2265,
  " qi2 zhong1 ": 2266,
  " gong1 si1 ": 2267,
  "huo4 ": 2268,
  "zi3 ": 2269,
  "xing2 ": 2270,
  "dou1 ": 2271,
  " de shi4 ": 2272,
  "   zai4 ": 2273,
  "qiang2 ": 2274,
  "zhao4 ": 2275,
  "du2 ": 2276,
  "zheng4 zhi4 ": 2277,
  "3 ": 2278,
  "yi2 ge4": 2279,
  "mo4 ": 2280,
  "bing1 ": 2281,
  "cai3 ": 2282,
  "fa3 guo2 ": 2283,
  " gao1 ": 2284,
  " da4 xue2 ": 2285,
  " shi4 yi1 ": 2286,
  "hai2 ": 2287,
  "hu2 ": 2288,
  "chu4 ": 2289,
  " ta1 de ": 2290,
  "qin1 ": 2291,
  "lun4 ": 2292,
  " fen1 ": 2293,
  "fan4 ": 2294,
  "zhen1 ": 2295,
  "guang1 ": 2296,
  "wen4 ": 2297,
  "man4 ": 2298,
  "ai4 ": 2299,
  "she4 ": 2300,
  " jie2 ": 2301,
  "biao3 shi4 ": 2302,
  "zhong1 de ": 2303,
  "ju1 ": 2304,
  " jiao4 ": 2305,
  "zhuan1 ": 2306,
  "diao4 ": 2307,
  "bai2 ": 2308,
  "da3 ": 2309,
  "que4 ": 2310,
  "dian4 shi4 ": 2311,
  " dong1 ": 2312,
  "fei4 ": 2313,
  " shi4 wei4 ": 2314,
  " du4 ": 2315,
  " mu4 ": 2316,
  "han2 ": 2317,
  "shi4 de ": 2318,
  " te4 ": 2319,
  "xun4 ": 2320,
  " jin1 ": 2321,
  "pian4 ": 2322,
  "ming4 ": 2323,
  "ju3 ": 2324,
  "tuo1 ": 2325,
  " jiang1 ": 2326,
  "gu4 ": 2327,
  " ren2 kou3 ": 2328,
  "xiu1 ": 2329,
  " bu4 fen4 ": 2330,
  "xie2 ": 2331,
  "zao4 ": 2332,
  " he2 guo2 ": 2333,
  "zhong1 guo2 ": 2334,
  "guo3 ": 2335,
  "10 yue4 ": 2336,
  "shou1 ": 2337,
  " zui4": 2338,
  "xin4 ": 2339,
  "12 yue4 ": 2340,
  "7 yue4 ": 2341,
  "5 ": 2342,
  "9 yue4 ": 2343,
  "zhuan3 ": 2344,
  "ta1 ": 2345,
  "dang1 ": 2346,
  "wu1 ": 2347,
  "mian4 ji1 ": 2348,
  " ren2 min2 ": 2349,
  "8 yue4 ": 2350,
  "xun2 ": 2351,
  " di4 qu1 ": 2352,
  "3 yue4 ": 2353,
  "4 ": 2354,
  " guo4 ": 2355,
  " shi1 ": 2356,
  "1 yue4 ": 2357,
  " jing1 ": 2358,
  "di2 ": 2359,
  "gan3 ": 2360,
  "huan2 ": 2361,
  "jia3 ": 2362,
  "xia2 ": 2363,
  "5 yue4 ": 2364,
  " suo3 ": 2365,
  "ying1 guo2 ": 2366,
  "dao4 ": 2367,
  " ci3 ": 2368,
  "di3 ": 2369,
  " shou3 ": 2370,
  "zhu1 ": 2371,
  "ting1 ": 2372,
  "zheng4 shi4 ": 2373,
  "chong2 ": 2374,
  "huo3 ": 2375,
  "zhou1 ": 2376,
  "6 yue4 ": 2377,
  "zhuang4 ": 2378,
  "cheng2 shi4 ": 2379,
  "4 yue4 ": 2380,
  " guo2 jia1 ": 2381,
  "tian2 ": 2382,
  "geng4 ": 2383,
  "   di4 ": 2384,
  "fang4 ": 2385,
  "yong3 ": 2386,
  "shu3 yu2 ": 2387,
  " ping2 fang1": 2388,
  "po4 ": 2389,
  "jun1 ": 2390,
  " di4 yi1 ": 2391,
  " qian2 ": 2392,
  "11 yue4 ": 2393,
  "qun2 ": 2394,
  "qu4 ": 2395,
  "jiang4 ": 2396,
  "tao2 ": 2397,
  " shi4 ji4 ": 2398,
  " ping2 fang1 gong1 li3 ": 2399,
  " tong2 shi2 ": 2400,
  "dan1 ren4 ": 2401,
  "gen1 ": 2402,
  " ru2 ": 2403,
  " ma3 ": 2404,
  "ji3 ": 2405,
  " deng3 ": 2406,
  "bie2 ": 2407,
  "pai4 ": 2408,
  "du1 ": 2409,
  "liang2 ": 2410,
  "shao3 ": 2411,
  "hui1 ": 2412,
  "tie3 ": 2413,
  "nong2 ": 2414,
  " nian2 1 yue4 ": 2415,
  "ta3 ": 2416,
  "dian4 ying3 ": 2417,
  "zong1 ": 2418,
  "chu3 ": 2419,
  " qi1 ": 2420,
  " zhe4": 2421,
  "si3 ": 2422,
  "er3 ": 2423,
  " tian1 ": 2424,
  " de shi2 ": 2425,
  "shuang1 ": 2426,
  "qiao2 ": 2427,
  "tai2 wan1 ": 2428,
  " sui4": 2429,
  "gen1 ju4 ": 2430,
  "li4 shi3 ": 2431,
  "chu2 ": 2432,
  " shi4 zhen4 ": 2433,
  "gao4 ": 2434,
  "bai4 ": 2435,
  "can1 jia1 ": 2436,
  "yun4 dong4": 2437,
  "s ": 2438,
  "gang1 ": 2439,
  "che1 zhan4 ": 2440,
  "guo2 de ": 2441,
  "jiao3 ": 2442,
  " yin1 wei4 ": 2443,
  " ri4 ben3 ": 2444,
  " ping2 fang1 ": 2445,
  "li4 de ": 2446,
  " nian2 de ": 2447,
  "gai4 ": 2448,
  "pan4 ": 2449,
  " wen2 ": 2450,
  " hai3 ": 2451,
  "zheng4 fu3 ": 2452,
  "bing4 ": 2453,
  "zhun3 ": 2454,
  " nian2 12 yue4 ": 2455,
  "wa3 ": 2456,
  "yan4 ": 2457,
  "6 ": 2458,
  "wo3 ": 2459,
  "gong4 he2 guo2 ": 2460,
  " xian4 de ": 2461,
  " fu2 ": 2462,
  "ya2 ": 2463,
  "yin2 ": 2464,
  "fa1 xian4 ": 2465,
  "formula ": 2466,
  "chuang4 ": 2467,
  "hei1 ": 2468,
  "huan4 ": 2469,
  "qu1 de ": 2470,
  "song4 ": 2471,
  "ha1 ": 2472,
  "hen3 ": 2473,
  "ti2 gong1 ": 2474,
  "jin4 xing2 ": 2475,
  " suo3": 2476,
  " bei3 ": 2477,
  "lei2 ": 2478,
  "2 yue4 ": 2479,
  "jing1 ji4 ": 2480,
  "tong1 guo4 ": 2481,
  " nian2 3 yue4 ": 2482,
  "sui2 ": 2483,
  "chuan1 ": 2484,
  " wan4 ": 2485,
  "qie3 ": 2486,
  " zhong1 yang1": 2487,
  " guo2 ji4 ": 2488,
  "hua1 ": 2489,
  "shang4 de ": 2490,
  " you2 yu2 ": 2491,
  "lei1 ": 2492,
  " you4 ": 2493,
  "wei3 yuan2 hui4 ": 2494,
  "kao3 ": 2495,
  " nian2 7 yue4 ": 2496,
  "wan2 ": 2497,
  "cheng1 wei2 ": 2498,
  " nian2 10 yue4 ": 2499,
  "bai3 ": 2500,
  "deng1 ": 2501,
  " shi4 jie4 ": 2502,
  " yin1 ci3 ": 2503,
  "ming2 wei4 ": 2504,
  " jin4 xing2 ": 2505,
  "nuo4 ": 2506,
  " shi4 zai4 ": 2507,
  " ran2 ": 2508,
  "chong1 ": 2509,
  "zhu3 yi4 ": 2510,
  " nian2 9 yue4 ": 2511,
  " ta1 men ": 2512,
  "kuai4 ": 2513,
  "yan2 jiu1 ": 2514,
  "tu3 ": 2515,
  " zhi1 hou4 ": 2516,
  "qiu2 ": 2517,
  "mai4 ": 2518,
  "shi2 de ": 2519,
  "lian4 ": 2520,
  "hao4 ": 2521,
  " nian2 5 yue4 ": 2522,
  "sa4 ": 2523,
  "lu2 ": 2524,
  "xi4 tong3 ": 2525,
  "pei4 ": 2526,
  " zui4 ": 2527,
  "lu3 ": 2528,
  " nian2 4 yue4 ": 2529,
  "chi3 ": 2530,
  "liao4 ": 2531,
  " dang1 ": 2532,
  " nian2 8 yue4 ": 2533,
  " nian2 6 yue4 ": 2534,
  " lian2 ": 2535,
  " ying1 ": 2536,
  " xing2 de ": 2537,
  "zeng1 ": 2538,
  "ren2 de ": 2539,
  "xuan1 ": 2540,
  "xiang1 gang3 ": 2541,
  " shi3 ": 2542,
  "qi1 jian1 ": 2543,
  "en1 ": 2544,
  "de2 ": 2545,
  "kuang4 ": 2546,
  "guan3 li3 ": 2547,
  " gong1 zuo4 ": 2548,
  "piao4 ": 2549,
  " zhi1 yi1 ": 2550,
  "xu3 ": 2551,
  "di1 ": 2552,
  "heng2 ": 2553,
  "da4 de ": 2554,
  "bu3 ": 2555,
  "yang4 ": 2556,
  "sen1 ": 2557,
  " zhong1 xin1 ": 2558,
  "xuan1 bu4 ": 2559,
  "tui1 ": 2560,
  " nian2 11 yue4 ": 2561,
  "zu3 zhi1 ": 2562,
  "ri4 ": 2563,
  "wang4 ": 2564,
  "bu4 de ": 2565,
  "pi2 ": 2566,
  "men ": 2567,
  "chang4 ": 2568,
  " bao1 kuo4 ": 2569,
  "ying3 xiang3 ": 2570,
  "yang3 ": 2571,
  " ta1 zai4 ": 2572,
  "qian1 mi3 ": 2573,
  "sai1 ": 2574,
  "er2 ": 2575,
  "   sheng1 ": 2576,
  " huo4 de2 ": 2577,
  "pi1 ": 2578,
  " shi4 jie4": 2579,
  "luo2 si1 ": 2580,
  "he4 ": 2581,
  "ke3 neng2": 2582,
  "cheng2 de ": 2583,
  " gai1": 2584,
  " qing1 ": 2585,
  "nian4 ": 2586,
  "dun4 ": 2587,
  "xian2 ": 2588,
  "s   ": 2589,
  " mei3": 2590,
  "lou2 ": 2591,
  "qi2 ta1 ": 2592,
  " nian2 2 yue4 ": 2593,
  "bang1 ": 2594,
  " cheng2 li4 ": 2595,
  " C": 2596,
  "le yi1 ": 2597,
  "huo2 dong4 ": 2598,
  " ren4 wei2 ": 2599,
  "liu4 ": 2600,
  " lai2 ": 2601,
  "you1 ": 2602,
  " bi3 ": 2603,
  " shu4 ": 2604,
  "ke1 xue2 ": 2605,
  "fa1 zhan3 ": 2606,
  " fen1": 2607,
  "huo4 de2 ": 2608,
  "jun4 ": 2609,
  " zuo4 wei2 ": 2610,
  " luo2 ": 2611,
  "ya1 ": 2612,
  " ping2 fang1 qian1 mi3 ": 2613,
  " a1 ": 2614,
  "hua2 ren2 min2 ": 2615,
  "ri4 ben3 ": 2616,
  " wu2 ": 2617,
  "bei1 ": 2618,
  "lao3 ": 2619,
  "hui4 yi4 ": 2620,
  "re4 ": 2621,
  " zhi2": 2622,
  "ku4 ": 2623,
  "tan2 ": 2624,
  "jian1 de ": 2625,
  "tie3 lu4 ": 2626,
  " liu2 ": 2627,
  " de ren2 ": 2628,
  "yong4 yu2 ": 2629,
  "liao2 ": 2630,
  "ning2 ": 2631,
  " shi2 jian1 ": 2632,
  " de gong1 ": 2633,
  "ge4 ": 2634,
  " shan1 ": 2635,
  "mian3 ": 2636,
  "mian4 ji1": 2637,
  "yin4 ": 2638,
  "rui4 ": 2639,
  "min2 guo2 ": 2640,
  "wu1 ke4 ": 2641,
  "ou1 ": 2642,
  "xian3 ": 2643,
  " yan2 ": 2644,
  "le4 ": 2645,
  "7 ": 2646,
  "zuo3 ": 2647,
  " A": 2648,
  "gong4 you3 ": 2649,
  "   li4 shi3 ": 2650,
  "hao3 ": 2651,
  "ai1 ": 2652,
  " zhang1 ": 2653,
  "   sheng1 ping2 ": 2654,
  "hua2 ren2 min2 gong4 he2 guo2 ": 2655,
  "fang1 shi4 ": 2656,
  "fa1 sheng1 ": 2657,
  "gan1 ": 2658,
  " cong2 ": 2659,
  "dou4 ": 2660,
  "wen4 ti2 ": 2661,
  " zhi2 ": 2662,
  "guan4 jun1 ": 2663,
  "zhu3 yao4 ": 2664,
  "ran2 ": 2665,
  "di4 de ": 2666,
  " di4 er4 ": 2667,
  "dao3 zhi4 ": 2668,
  "guan1 xi4 ": 2669,
  "cun2 ": 2670,
  "kang1 ": 2671,
  "can1 yu4 ": 2672,
  "yuan3 ": 2673,
  "   S": 2674,
  " bu4 fen4": 2675,
  "zheng3 ": 2676,
  " gong1 cheng2 ": 2677,
  "wan2 cheng2 ": 2678,
  "dan1 wei4 ": 2679,
  "ke3 neng2 ": 2680,
  " xiao3 ": 2681,
  "yi1 wei4 ": 2682,
  " jin3 ": 2683,
  " wu3 ": 2684,
  " zhi3 ": 2685,
  "1 ri4 ": 2686,
  "xie4 ": 2687,
  "ge ": 2688,
  "suo3 you3 ": 2689,
  "zhi4 de ": 2690,
  " ze2 ": 2691,
  "wen2 hua4 ": 2692,
  " zong3 ": 2693,
  " cheng2 yuan2 ": 2694,
  " de cheng2 ": 2695,
  "8 ": 2696,
  "lv3 ": 2697,
  "gei3 ": 2698,
  " 18": 2699,
  "yuan2 de ": 2700,
  "yong1 you3 ": 2701,
  "cun2 zai4 ": 2702,
  "er4 shi2 ": 2703,
  " tong1 ": 2704,
  "bei3 bu4 ": 2705,
  " ba1 ": 2706,
  "lian2 he2 ": 2707,
  "hou4 de ": 2708,
  "niu3 ": 2709,
  " shi4 zhong1 ": 2710,
  "zheng4 fu3": 2711,
  "you2 yu2 ": 2712,
  "guo2 jia1 ": 2713,
  "dui4 yu2 ": 2714,
  " nian2 zhi4 ": 2715,
  "fa1 xing2 ": 2716,
  "yi4 de ": 2717,
  "ju4 you3 ": 2718,
  " jian4 zhu4 ": 2719,
  "bi3 sai4 ": 2720,
  " bing4 zai4 ": 2721,
  " dao4 le ": 2722,
  " zhi3": 2723,
  "xin1 de ": 2724,
  "si1 de ": 2725,
  "shen3 ": 2726,
  "yun2 ": 2727,
  "zi4 ji3": 2728,
  "yun4 dong4 ": 2729,
  "xing2 zheng4 ": 2730,
  "yin4 du4 ": 2731,
  "e2 luo2 si1 ": 2732,
  " 15": 2733,
  "bin1 ": 2734,
  " mian4 ji1 ": 2735,
  "dai4 biao3 ": 2736,
  "shao4 ": 2737,
  " mei3 guo2 ": 2738,
  "xu3 duo1 ": 2739,
  " ling4 ": 2740,
  " dan4 shi4 ": 2741,
  "ren4 he2 ": 2742,
  "sheng1 yu2 ": 2743,
  "tu1 ": 2744,
  "gui4 ": 2745,
  " nian2 dai4 ": 2746,
  "ding1 ": 2747,
  " S": 2748,
  "liang3 ge4 ": 2749,
  "che4 ": 2750,
  " jian3 ": 2751,
  "bao3 hu4 ": 2752,
  " ren2 kou3 mi4 ": 2753,
  "xiu4 ": 2754,
  " shi3": 2755,
  "man3 ": 2756,
  "zh ": 2757,
  "e4 ": 2758,
  "xuan2 ": 2759,
  " dang1 shi2 ": 2760,
  "zhang4 ": 2761,
  " de yi2 ge4 ": 2762,
  "nan2 bu4 ": 2763,
  "ju3 xing2 ": 2764,
  "zhuan1 ji2 ": 2765,
  "mian4 ji1 wei4 ": 2766,
  " dian4 ": 2767,
  "lai2 de ": 2768,
  " 0": 2769,
  " xi4 ": 2770,
  "fan1 ": 2771,
  "zao3 ": 2772,
  " guan1 ": 2773,
  " zheng4 fu3 ": 2774,
  "fu2 wu4 ": 2775,
  "du2 li4 ": 2776,
  "jue2 ding4 ": 2777,
  " chu1 de ": 2778,
  "zhu3 yao4": 2779,
  "ruo4 ": 2780,
  "xie3 ": 2781,
  "kai1 shi3": 2782,
  " li4 shi3 ": 2783,
  "   C": 2784,
  "qing3 ": 2785,
  " ceng2 ": 2786,
  " she4 ji4 ": 2787,
  " san1 ": 2788,
  " wang2 ": 2789,
  "ming2 de ": 2790,
  " mei3 ": 2791,
  "hai4 ": 2792,
  "rang4 ": 2793,
  " shi4 wei4 yu2 ": 2794,
  "jiu4 shi4 ": 2795,
  " you3 yi1 ": 2796,
  "geng1 ": 2797,
  " P": 2798,
  "gt ": 2799,
  " B": 2800,
  " ci3": 2801,
  " gt ": 2802,
  "xi3 ": 2803,
  "   P": 2804,
  " jiang1": 2805,
  " qi2 ta1 ": 2806,
  "tan4 ": 2807,
  " xing2 zheng4 ": 2808,
  " fa3 ": 2809,
  "pei2 ": 2810,
  "jiao4 yu4 ": 2811,
  "   A": 2812,
  " 16": 2813,
  "shou4 dao4 ": 2814,
  "lt ": 2815,
  " feng1 ": 2816,
  "ren4 wei2 ": 2817,
  "fang3 ": 2818,
  " shi4 di4 ": 2819,
  "fa1 zhan3": 2820,
  "wan3 ": 2821,
  "kan1 ": 2822,
  "she4 hui4 ": 2823,
  " lt ": 2824,
  "shan4 ": 2825,
  "yi4 wei4 ": 2826,
  "gu4 shi4 ": 2827,
  "pian1 ": 2828,
  "fang1 mian4 ": 2829,
  " xian4 zai4 ": 2830,
  "qu1 wei4 ": 2831,
  " zui4 zhong1 ": 2832,
  " jie1 ": 2833,
  " bi4 ": 2834,
  "qin2 ": 2835,
  " zhong1 yang1 ": 2836,
  " shi4 shi4 ": 2837,
  "tui4 ": 2838,
  "pao4 ": 2839,
  "nei4 de ": 2840,
  " jiu4 ": 2841,
  "9 ": 2842,
  "shu3 de ": 2843,
  "zhe ": 2844,
  "xiang1 gang3": 2845,
  "xiao3 shi2 ": 2846,
  "dan4 ": 2847,
  " li4 ru2 ": 2848,
  "zu2 qiu2 ": 2849,
  "shu4 ju4 ": 2850,
  " bu4 tong2": 2851,
  "lie4 che1 ": 2852,
  "xu1 yao4 ": 2853,
  "hua4 de ": 2854,
  "zhi2 wu4 ": 2855,
  "qiang1 ": 2856,
  " sui1": 2857,
  "ren2 shi4 ": 2858,
  "shi3 yong4": 2859,
  "zuo4 de ": 2860,
  "zeng1 jia1 ": 2861,
  " ji4 hua4 ": 2862,
  "min2 zhu3 ": 2863,
  " shi2 qi1 ": 2864,
  "zuo4 wei2 ": 2865,
  " qu1 ": 2866,
  " gu3 ": 2867,
  "kong4 zhi4 ": 2868,
  " ye3 shi4 ": 2869,
  "duan3 ": 2870,
  "tan3 ": 2871,
  " jian4 de ": 2872,
  " dong4 ": 2873,
  "yin1 yue4 ": 2874,
  " ran2 er2 ": 2875,
  " 17": 2876,
  " yi3 jing1 ": 2877,
  "lang2 ": 2878,
  " shu3 yu2 ": 2879,
  " he2 zuo4 ": 2880,
  " zai4 di4 ": 2881,
  "ren2 min2 ": 2882,
  " shi4 jian4 ": 2883,
  " ren2 yuan2 ": 2884,
  " an1 ": 2885,
  "ta1 de ": 2886,
  " you4": 2887,
  " jian4 yu2 ": 2888,
  "xue2 yuan4 ": 2889,
  "zu3 cheng2 ": 2890,
  " ceng2": 2891,
  "chao1 guo4 ": 2892,
  "zuo4 pin3 ": 2893,
  " yin1 yue4 ": 2894,
  " ma3": 2895,
  " ge2 ": 2896,
  "mao4 ": 2897,
  " quan2 guo2 ": 2898,
  "xiong2 ": 2899,
  " ke1 ": 2900,
  "zai3 ": 2901,
  "hu1 ": 2902,
  "hui4 de ": 2903,
  "ji4 de ": 2904,
  "zong3 tong3 ": 2905,
  " si4 ": 2906,
  " zhe4 xie1 ": 2907,
  "suan4 ": 2908,
  " wei4 le ": 2909,
  " hou4 lai2 ": 2910,
  "10 ": 2911,
  "t ": 2912,
  "yu2 shi4 ": 2913,
  " pu3 ": 2914,
  " zhang3 ": 2915,
  " shou4 ": 2916,
  " cheng2 gong1 ": 2917,
  "fa1 bu4 ": 2918,
  " tai4 ": 2919,
  "da4 li4 ": 2920,
  "ti2 chu1 ": 2921,
  " T": 2922,
  " li4 ya4 ": 2923,
  " 000": 2924,
  " yi4 yuan2 ": 2925,
  " she4 you3 ": 2926,
  " yin1 ci3": 2927,
  "yun4 dong4 yuan2 ": 2928,
  "yao1 qiu2 ": 2929,
  "han2 guo2 ": 2930,
  "bu4 zai4 ": 2931,
  "ni2 ya4": 2932,
  "you3 de ": 2933,
  "pin2 ": 2934,
  " M": 2935,
  "   de ": 2936,
  "pu2 ": 2937,
  "zao4 cheng2 ": 2938,
  " D": 2939,
  "ou1 zhou1 ": 2940,
  "cai3 yong4 ": 2941,
  "xiao3 xing2 ": 2942,
  "qiu1 ": 2943,
  " gong1 yuan2 ": 2944,
  " E": 2945,
  "jia1 de ": 2946,
  "xing4 de ": 2947,
  "sheng1 de ": 2948,
  " de yi2 ge4": 2949,
  " ri4 zai4 ": 2950,
  "dang1 shi2 ": 2951,
  "kong4 ": 2952,
  "ren2 wu4 ": 2953,
  "feng4 ": 2954,
  " ci3 wai4 ": 2955,
  " wo3 ": 2956,
  "gong4 chan3 ": 2957,
  " sui2": 2958,
  " la1 ": 2959,
  " zh ": 2960,
  " cong2": 2962,
  "kan4 ": 2963,
  "ba3 ": 2964,
  "wan1 ": 2965,
  " shi4 he2 ": 2966,
  "2010 nian2 ": 2967,
  " ling4": 2968,
  " sha1 ": 2969,
  "ma3 wei4 ": 2970,
  " de bu4 ": 2971,
  "xue2 jia1 ": 2972,
  "you2 xi4 ": 2973,
  " nv3 ": 2974,
  "song1 ": 2975,
  " ti3 ": 2976,
  "fan4 wei2 ": 2977,
  " bu4 tong2 ": 2978,
  " gen1 ju4 ": 2979,
  "kai1 fa1 ": 2980,
  "she4 ji4 ": 2981,
  "mao2 ": 2982,
  "san1 nian2 ": 2983,
  "qu3 de2 ": 2984,
  "chao1 ": 2985,
  "dun1 ": 2986,
  " de ji1 ": 2987,
  " ke3 ": 2988,
  "   B": 2989,
  "sai4 shi4 ": 2990,
  " 1": 2991,
  "xiong1 ": 2992,
  " xing2 cheng2 ": 2993,
  "   di4 li3 ": 2994,
  "   shi4 ": 2995,
  "a1 er3 ": 2996,
  "zi4 zhi4 ": 2997,
  "chan3 sheng1 ": 2998,
  "yao2 ": 2999,
  " wu4 ": 3000,
  "ding3 ": 3001,
  " de ji4 ": 3002,
  "jie2 mu4 ": 3003,
  "wen1 ": 3004,
  "shu1 ji4 ": 3005,
  " sui4 ": 3006,
  " bing4 yu2 ": 3007,
  "ni3 ": 3008,
  "dou1 shi4 ": 3009,
  "chong2 xin1 ": 3010,
  "xi4 tong3": 3011,
  "lve4 ": 3012,
  "zan4 ": 3013,
  " she4 hui4 ": 3014,
  " yi2 ": 3015,
  "zhong4 yao4": 3016,
  "li3 de ": 3017,
  "bu2 shi4 ": 3018,
  "chun1 ": 3019,
  " dai4 biao3 ": 3020,
  "yi1 nian2 ": 3021,
  " xiang1 gang3 ": 3022,
  "dian4 ying3": 3023,
  " si1 te4 ": 3024,
  " liang3 ": 3025,
  "guan1 yu2 ": 3026,
  "zhui1 ": 3027,
  "dang4 ": 3028,
  "a ": 3029,
  "jue2 se4 ": 3030,
  " H": 3031,
  " na4 ": 3032,
  " fu2": 3033,
  "jiao1 tong1 ": 3034,
  "lang3 ": 3035,
  " you2 xi4 ": 3036,
  "da4 xue2 ": 3037,
  "ji2 de ": 3038,
  "mi2 ": 3039,
  "ge1 qu3 ": 3040,
  "chu2 le ": 3041,
  " chu1 xian4 ": 3042,
  "2020 nian2 ": 3043,
  "tao3 ": 3044,
  " jie2": 3045,
  " zhi4 zuo4 ": 3046,
  " da4 xue2": 3047,
  "ping2 jun1 ": 3048,
  " de2 guo2 ": 3049,
  "y ": 3050,
  "xian3 shi4 ": 3051,
  "   T": 3052,
  " chen2 ": 3053,
  "hua2 min2 guo2 ": 3054,
  " nian2 zai4 ": 3055,
  " shen1 ": 3056,
  " zhong1 hua2 ren2 min2 gong4 he2 guo2 ": 3057,
  "kong3 ": 3058,
  "hou4 zai4 ": 3059,
  "kuo4 ": 3060,
  "miao2 ": 3061,
  " nian2 dai4": 3062,
  "er4 nian2 ": 3063,
  " liang3": 3064,
  "xia4 de ": 3065,
  "yan3 yuan2 ": 3066,
  "A ": 3067,
  " ke4 si1 ": 3068,
  " jian1 ": 3069,
  "de2 guo2 ": 3070,
  "xiang2 ": 3071,
  " 1 ": 3072,
  "wei2 yi1 ": 3073,
  "qing4 ": 3074,
  "cao3 ": 3075,
  "dang1 di4 ": 3076,
  "guo2 ji4 ": 3077,
  "dui4 de ": 3078,
  " bao3 ": 3079,
  "bo2 wu4 ": 3080,
  " jian4 li4 ": 3081,
  "hun1 ": 3082,
  " di4 guo2 ": 3083,
  "   G": 3084,
  " bu4 yu2 ": 3085,
  "   M": 3086,
  " fei1 ": 3087,
  "fan3 dui4 ": 3088,
  "qi1 de ": 3089,
  "duan1 ": 3090,
  "wu4 de ": 3091,
  "zou3 ": 3092,
  "xue4 ": 3093,
  "yin1 wei4 ": 3094,
  "qu1 yu4 ": 3095,
  " 2": 3096,
  "qu4 shi4 ": 3097,
  "yi1 bu4 fen4 ": 3098,
  "ba2 gao1 ": 3099,
  "wo4 ": 3100,
  "que1 ": 3101,
  " G": 3102,
  "2001 nian2 ": 3103,
  "guan3 xia2 ": 3104,
  " chang2 ": 3105,
  "du4 wei4 ": 3106,
  "zheng4 zhi4 ren2 wu4 ": 3107,
  "ni2 ya4 ": 3108,
  "peng2 ": 3109,
  "hai2 you3 ": 3110,
  "   ren2 kou3 ": 3111,
  " ka3 ": 3112,
  " dang1 di4 ": 3113,
  "zui4 zhong1 ": 3114,
  " yue1 ": 3117,
  " ta1 shi4 ": 3118,
  " bu4 dui4 ": 3119,
  "lai2 zi4 ": 3120,
  "kuan3 ": 3121,
  "bi3 sai4": 3122,
  " xing2 shi4 ": 3123,
  "chi4 ": 3124,
  "zhi2 ye4 ": 3125,
  "qian2 wang3 ": 3126,
  " dan1 ": 3127,
  "ding4 de ": 3128,
  " wei1 ": 3129,
  "quan2 guo2 ": 3130,
  " 3": 3131,
  "ba1 shi4 ": 3132,
  "   H": 3133,
  "yi1 bu4 ": 3134,
  " de yuan2 ": 3135,
  " zheng4 fu3": 3136,
  "zhong4 yao4 ": 3137,
  "diao4 cha2 ": 3138,
  " 19": 3139,
  " zhi1 jian1 ": 3140,
  " lin2 ": 3141,
  " chu2 ": 3142,
  "bian1 ma3 wei4 ": 3143,
  " fa1 ": 3144,
  " nian2 jian1 ": 3145,
  " huang2 ": 3146,
  " xue2 ming2 ": 3147,
  " 14": 3148,
  "xue2 xiao4 ": 3149,
  " F": 3150,
  "zhao1 ": 3151,
  "zhu3 xi2 ": 3152,
  "xuan3 ju3 ": 3153,
  "   F": 3154,
  " ri4 zhi4 ": 3155,
  "gai3 wei2 ": 3156,
  "zu3 zhi1": 3157,
  "m ": 3158,
  "zhu3 jiao4 ": 3159,
  " nei4 ": 3160,
  "zi1 liao4 ": 3161,
  "fa2 ": 3162,
  "hai3 jun1 ": 3163,
  "gong1 shi4 ": 3164,
  " jun1 shi4 ": 3165,
  " de da4 ": 3166,
  "sun1 ": 3167,
  " ren2 kou3 mi4 du4 ": 3168,
  "chu3 li3 ": 3169,
  "zai1 ": 3170,
  " de yi4 ": 3171,
  " jing4 ": 3172,
  "fang1 fa3 ": 3173,
  "kang4 ": 3174,
  "fu4 ze2 ": 3175,
  " duo1": 3176,
  " ri4 ben3": 3177,
  "wu1 ke4 lan2 ": 3178,
  "   yu3 ": 3179,
  "guan4 ": 3180,
  "shu4 de ": 3181,
  " you3 xian4": 3182,
  "dai4 biao3": 3183,
  " bo1 ": 3184,
  " ge4 ren2 ": 3185,
  "wu2 fa3 ": 3186,
  "ying3 xiang3": 3187,
  " ji4 shu4 ": 3188,
  " san1": 3189,
  " shi4 you2 ": 3190,
  "jie1 rang3": 3191,
  "zui4 gao1 ": 3192,
  "ju1 min2 ": 3193,
  "pa4 ": 3194,
  " sheng4 ": 3195,
  "   E": 3196,
  "qie4 ": 3197,
  "xi4 lie4 ": 3198,
  "qi2 zhong1 ": 3199,
  " hua4 ": 3200,
  "lu4 de ": 3201,
  " mei2 ": 3203,
  " jie4 ": 3204,
  "xue2 sheng1 ": 3205,
  " 2 ": 3206,
  " 12": 3207,
  " zhi1 chi2 ": 3208,
  " N": 3209,
  "zi4 you2 ": 3210,
  "wen3 ": 3211,
  "biao1 zhun3 ": 3212,
  " hong2 ": 3213,
  "xie2 hui4 ": 3214,
  "shu4 liang4": 3215,
  "an1 quan2 ": 3216,
  "fan3 ying4 ": 3217,
  "ke3 yi3": 3218,
  "ken3 ": 3219,
  "hui4 zai4 ": 3220,
  "yao1 ": 3221,
  "ye2 ": 3222,
  " gai3 ": 3223,
  "shen4 zhi4 ": 3224,
  "bi3 li4 ": 3225,
  "tong3 zhi4 ": 3226,
  "lian2 meng2 ": 3227,
  "chuang4 zuo4 ": 3228,
  "zhu3 ren4 ": 3229,
  "kai3 ": 3230,
  " sui2 ": 3231,
  "   ben3 ": 3232,
  " kai1 ": 3233,
  "dong1 bu4 ": 3234,
  " de yi2 ge4 shi4 zhen4 ": 3235,
  " shi4 yi2 ge4 ": 3236,
  " xin1": 3237,
  " gong1 si1": 3238,
  " ze2": 3239,
  " nan2": 3240,
  "gai1 guo2 ": 3241,
  " fu4 ze2 ": 3242,
  "fan2 ": 3243,
  "ya3 ": 3244,
  " di4 san1 ": 3245,
  "ti3 yu4 ": 3246,
  " di4 shi2 ": 3247,
  "   xing2 zheng4 ": 3248,
  "jie2 gou4 ": 3249,
  " su1 ": 3250,
  " bu4 guo4 ": 3251,
  " dao4 de ": 3252,
  " qi3 ": 3253,
  "shi2 nian2 ": 3254,
  "qing2 kuang4 ": 3255,
  "neng2 li4 ": 3256,
  "niu2 ": 3257,
  "nan2 zi ": 3258,
  "e ": 3259,
  "mou3 ": 3260,
  "y   ": 3261,
  "zhong1 shi4 ": 3262,
  "qing2 kuang4": 3263,
  "si4 nian2 ": 3264,
  "suo1 ": 3265,
  "xi1 bu4 ": 3266,
  "gong1 bu4 ": 3267,
  "sheng1 huo2 ": 3268,
  "jie1 shou4 ": 3269,
  " K": 3270,
  " ge1 ": 3271,
  "nv3 zi3 ": 3272,
  " shui3 ": 3273,
  "lu4 xian4 ": 3274,
  " ao4": 3275,
  "cheng2 li4 ": 3276,
  " zhong1 xue2 ": 3277,
  "   formula ": 3278,
  " �": 3279,
  "mian4 de ": 3280,
  "gu1 ": 3281,
  "huan1 ": 3282,
  "wan4 ": 3283,
  " jin4 ru4 ": 3284,
  "yi4 shi4 ": 3285,
  " er3 si1 ": 3286,
  "lian2 sai4 ": 3287,
  "bei3 jing1 ": 3288,
  " zhu3 yao4 ": 3289,
  " ba1": 3290,
  "you3 shi2 ": 3291,
  " yang2 ": 3292,
  " ao4 ": 3293,
  " yi4 hui4 ": 3294,
  "guang3 dong1 ": 3295,
  " ming2": 3296,
  " ke3 yi3 ": 3297,
  "duo2 ": 3298,
  "hao2 ": 3299,
  "   jia1 ": 3300,
  "lao2 ": 3301,
  "jian4 zhu4 ": 3302,
  "ya4 zhou1 ": 3303,
  "dao3 de ": 3304,
  " guo2 min2 ": 3305,
  "ye3 shi4 ": 3306,
  "na2 da4 ": 3307,
  "   the": 3308,
  "dong4 wu4 ": 3309,
  "tai4 ping2 ": 3310,
  " suo3 yi3 ": 3311,
  " tai2 ": 3312,
  "di4 wei4 ": 3313,
  " zhe4 shi4 ": 3314,
  "ba2 gao1 du4 ": 3315,
  "da2 dao4 ": 3316,
  "zi4 ji3 de ": 3317,
  "li3 shi4 ": 3318,
  "zhu2 jian4 ": 3319,
  " bing4 qie3": 3320,
  "zhuan4 ": 3321,
  "dai4 de ": 3322,
  "   D": 3323,
  "ban3 ben3 ": 3324,
  "gui3 ": 3325,
  "xiang4 mu4 ": 3326,
  "ran3 ": 3327,
  "xu3 duo1": 3328,
  "zhe3 de ": 3329,
  "jiao4 shou4 ": 3330,
  "2008 nian2 ": 3331,
  " xue2 xiao4 ": 3332,
  "fei1 chang2 ": 3333,
  "wu1 ke4 lan2": 3334,
  "2009 nian2 ": 3335,
  " xi1 ya4 ": 3336,
  " da4": 3337,
  "qing1 nian2 ": 3338,
  " hai2 ": 3339,
  " bing4 qie3 ": 3340,
  " er4 ": 3341,
  " zong3": 3342,
  " zhu3 yao4": 3343,
  "la1 si1 ": 3344,
  "   gen1 ju4 ": 3345,
  "yi1 shi4 ": 3346,
  "sui4 ": 3347,
  " cheng2 wei2": 3348,
  "ri4 ben3": 3349,
  " hu2 ": 3350,
  "mo2 shi4 ": 3351,
  " 4": 3352,
  "zhe2 ": 3353,
  "niao3 ": 3354,
  "wen2 wu4 ": 3355,
  " ta1 men de ": 3356,
  " yi4 shu4 ": 3357,
  "zhi3 you3 ": 3358,
  "cha1 ": 3359,
  " ji4 lu4 ": 3360,
  " mu3 ": 3361,
  " zhou1 de ": 3362,
  " ai4 ": 3363,
  "hang2 kong1 ": 3364,
  " yu2 shi4 ": 3365,
  "wen2 xue2 ": 3366,
  "fen1 wei2 ": 3367,
  " bo2 ": 3368,
  " qi2 shi4 ": 3369,
  " qi2 yu2 ": 3370,
  "tong1 guo4": 3371,
  "suan1 ": 3372,
  " min2 ": 3373,
  "zhi3 chu1 ": 3374,
  "deng3 ren2 ": 3375,
  " 10": 3376,
  "hui3 ": 3377,
  "28 ri4 ": 3378,
  "shuai4 ": 3379,
  "cuo4 ": 3380,
  "cang2 ": 3381,
  "ren2 kou3 pu3 ": 3382,
  "zhi2 xing2 ": 3383,
  "tong2 shi2 ": 3384,
  "hun4 ": 3385,
  " L": 3386,
  "zhi2 jie1 ": 3387,
  " qiu2 dui4 ": 3388,
  "zha4 ": 3389,
  " li4 ya4": 3390,
  "yan3 chu1 ": 3391,
  "jin3 biao1 ": 3392,
  " jin1": 3393,
  "gai1 di4 ": 3394,
  "n ": 3395,
  " 13": 3396,
  "ge2 lan2 ": 3397,
  "2016 nian2 ": 3398,
  "T ": 3399,
  "zhe4 yi1 ": 3400,
  "huo2 dong4": 3401,
  "ren4 wei2": 3402,
  "jin4 ru4 ": 3403,
  " zhi1 jian1 de ": 3404,
  " gong1 kai1 ": 3405,
  " dang1 zhong1 ": 3406,
  "gong4 tong2 ": 3407,
  " I": 3408,
  "xia4 ji4 ": 3409,
  " dan4 zai4 ": 3410,
  " 5": 3411,
  "zhan4 zheng1 ": 3412,
  "wu3 nian2 ": 3413,
  "jiang1 jun1 ": 3414,
  "chou2 ": 3415,
  "mei2 ti3 ": 3416,
  "le4 bu4 ": 3417,
  " yong4 ": 3418,
  "ti3 de ": 3419,
  "che1 zhan4": 3420,
  "tui1 chu1 ": 3421,
  "jiao4 yu4": 3422,
  "yun3 ": 3423,
  "zhe4 xie1 ": 3424,
  " shi4 wu4 ": 3425,
  "meng4 ": 3426,
  "die2 ": 3427,
  "po1 ": 3428,
  "miao4 ": 3429,
  "li2 kai1 ": 3430,
  "ti4 ": 3431,
  " ling4 wai4 ": 3432,
  "huan2 jing4 ": 3433,
  " 6": 3434,
  "2012 nian2 ": 3435,
  "zhu2 ": 3436,
  "teng2 ": 3437,
  "lin2 pi3": 3438,
  " di4 er4": 3439,
  "shang1 ye4 ": 3440,
  "2011 nian2 ": 3441,
  "chuan2 tong3 ": 3442,
  "   nian2": 3443,
  "15 ri4 ": 3444,
  "dan1 qu1 ": 3445,
  "guan1 de ": 3446,
  "san1 shi2 ": 3447,
  "jun1 shi4 ": 3448,
  "liang4 de ": 3449,
  " ci4 ": 3450,
  "jie1 dao4 ": 3451,
  "san4 ": 3452,
  "ji1 de ": 3453,
  "qian2 de ": 3454,
  " zhe4 ge ": 3455,
  "ren2 zai4 ": 3456,
  "nei4 rong2 ": 3457,
  "dong4 hua4 ": 3458,
  "zang4 ": 3459,
  "sai4 ji4 ": 3460,
  " yin3 ": 3461,
  "gao1 de ": 3462,
  "bo2 shi4 ": 3463,
  "du4 de ": 3464,
  " wei4 ren2 ": 3465,
  "me ": 3466,
  "yin2 hang2 ": 3467,
  "xuan3 ju3": 3468,
  " wei4 zhi4 ": 3469,
  "cheng2 zhong1 ": 3470,
  "ming4 ming2 ": 3471,
  "deng3 di4 ": 3472,
  " gong1 lu4 ": 3473,
  "re4 dai4 ": 3474,
  "sun3 ": 3475,
  " gu4 ": 3476,
  "bei3 jing1": 3477,
  "a   ": 3478,
  " shi2 ji4 ": 3479,
  "yun4 dong4 hui4 ": 3480,
  "xuan3 ze2 ": 3481,
  " da4 li4 ": 3482,
  " er2 zai4 ": 3483,
  "yuan2 nian2 ": 3484,
  "bao4 gao4 ": 3485,
  " de he2 ": 3486,
  " mu4 qian2 ": 3487,
  "bo1 chu1 ": 3488,
  "zui4 jia1 ": 3489,
  " wu2": 3490,
  "C ": 3491,
  "   ju4 ": 3492,
  "zong1 jiao4 ": 3493,
  " han4 ": 3494,
  "xue2 wei4 ": 3495,
  "tu3 di4 ": 3496,
  " de2 dao4 ": 3497,
  "P ": 3498,
  "bang3 ": 3499,
  "zui4 hou4 ": 3500,
  "wen2 hua4": 3501,
  "tuan2 ti3 ": 3502,
  "25 ri4 ": 3503,
  " 5 ": 3504,
  " di4 fang1 ": 3505,
  "gui3 dao4 ": 3506,
  "luan4 ": 3507,
  " wei4 di4 ": 3508,
  "jing1 li4 ": 3509,
  "xi4 de ": 3510,
  " zhi1 qian2 ": 3511,
  "sheng3 de yi2 ge4 shi4 zhen4 ": 3512,
  "fen1 bie2": 3513,
  " shi4 yi1 zhong3 ": 3514,
  " zhan4": 3515,
  " shi4 wei4 yu2 mei3 guo2 ": 3516,
  "ji2 zhong1 ": 3517,
  " 9": 3518,
  " ge4 yue4 ": 3519,
  " jun1 de ": 3520,
  "si3 wang2 ": 3521,
  "xiang1 guan1 ": 3522,
  "t   ": 3523,
  "shou3 ci4 ": 3524,
  " ye4 ": 3525,
  "30 ri4 ": 3526,
  " qi4 ": 3527,
  " bao1 kuo4": 3528,
  " ji1 gou4 ": 3529,
  "wei4 de ": 3530,
  " mo2 ": 3531,
  "ao4 lin2 pi3": 3532,
  " xing4 ": 3533,
  "ling3 dao3 ": 3534,
  " you3 guan1 ": 3535,
  " hai3 ba2 gao1 du4 ": 3536,
  " yi1 xie1 ": 3537,
  " tong2 nian2 ": 3538,
  "huai2 ": 3539,
  "2014 nian2 ": 3540,
  " mi3": 3541,
  "yong4 de ": 3542,
  "   wei4 ": 3543,
  "20 ri4 ": 3544,
  "mei3 yuan2 ": 3545,
  " xing2 dong4 ": 3546,
  " zai4 yi1 ": 3547,
  "ji1 yu2 ": 3548,
  "xue3 ": 3549,
  " zhong1 hua2 min2 guo2 ": 3550,
  "shui3 yu4 ": 3551,
  " jue2 ": 3552,
  "11 ": 3553,
  "bian4 hua4 ": 3554,
  "shang4 wei4 ": 3555,
  " ji2 tuan2": 3556,
  " zhong4 ": 3557,
  "2018 nian2 ": 3558,
  " ji4 xu4 ": 3559,
  "zhi1 yi1 ": 3560,
  " shi2 dai4 ": 3561,
  "chu3 yu2 ": 3562,
  "S ": 3563,
  "UTC ": 3564,
  "gong4 he2 ": 3565,
  "jie2 shu4 ": 3566,
  " bu4 zhang3 ": 3567,
  "zi4 ji3 ": 3568,
  "2019 nian2 ": 3569,
  " zi4 ji3": 3570,
  "zhi1 chi2 ": 3571,
  "2005 nian2 ": 3572,
  "guo4 cheng2 ": 3573,
  " hou4 lai2": 3574,
  "shun4 ": 3575,
  " bai2 ": 3576,
  "10 ri4 ": 3577,
  "min2 zu2 ": 3578,
  " wai4 ": 3579,
  "2015 nian2 ": 3580,
  "kong1 jian1 ": 3581,
  " 8": 3582,
  "er ": 3583,
  "shui4 ": 3584,
  "bu2 hui4 ": 3585,
  "ye4 yu2 ": 3586,
  " ru2": 3587,
  "tou4 guo4 ": 3588,
  "nei4 bu4 ": 3589,
  "mei4 ": 3590,
  "2013 nian2 ": 3591,
  "jie3 fang4": 3592,
  "xin1 wen2 ": 3593,
  " zhi2 dao4 ": 3594,
  "fen1 bu4 ": 3595,
  " yi4 zhi2 ": 3596,
  " 7": 3597,
  " si4": 3598,
  "gen1 ju4": 3599,
  " R": 3600,
  " zhou1 shi4 ": 3601,
  "pi1 ping2 ": 3602,
  " ji2 tuan2 ": 3603,
  "2007 nian2 ": 3604,
  " cheng1 ": 3605,
  "di4 qu1 ": 3606,
  " zi ": 3607,
  "   zhe4 ": 3608,
  " he2 nan2 ": 3609,
  "ta1 men": 3610,
  " shi4 shi2 ": 3611,
  " you3 xian4 gong1 si1 ": 3612,
  " jiu4": 3613,
  "ge2 ming4 ": 3614,
  "D ": 3615,
  "wan2 jia1 ": 3616,
  "gui1 ding4 ": 3617,
  "   of": 3618,
  "20 ": 3619,
  " ai4": 3620,
  " jing3 ": 3621,
  " jia1 ru4 ": 3622,
  " shu3 ": 3623,
  "wan2 quan2 ": 3624,
  " shen2 ": 3625,
  "cheng2 wei2 ": 3626,
  "xi1 ban1 ": 3627,
  "zi1 ge2 ": 3628,
  "26 ri4 ": 3629,
  "da4 lu4 ": 3630,
  " tang2 ": 3631,
  "   gai1 ": 3632,
  "2017 nian2 ": 3633,
  "ao4 lin2 pi3 ke4 ": 3634,
  " 3 ": 3635,
  " da4 hui4 ": 3636,
  "24 ri4 ": 3637,
  "zai4 de ": 3638,
  "za2 zhi4 ": 3639,
  " zhe4 zhong3 ": 3640,
  "ying1 yu3 ": 3641,
  "pu2 tao2 ": 3642,
  "lu4 di4 ": 3643,
  "he2 de ": 3644,
  "shang4 hai3 ": 3645,
  "hao2 mi3 ": 3646,
  " yu3 yan2 ": 3647,
  "qi3 ye4 ": 3648,
  " ying1 guo2 ": 3649,
  "   yi1 ": 3650,
  "qi2 ta1": 3651,
  "   K": 3652,
  "fang1 de ": 3653,
  "hou4 yi1 ": 3654,
  "luo2 ma3 ": 3655,
  " mo4 ": 3656,
  "wen4 ti2": 3657,
  "san1 ge4 ": 3658,
  "   W": 3659,
  " cheng2 qu1 ": 3660,
  " ke3": 3661,
  "se4 de ": 3662,
  "2006 nian2 ": 3663,
  "chuan2 tong3": 3664,
  " shi4 fa3 guo2 ": 3665,
  "yi1 de ": 3666,
  "18 ri4 ": 3667,
  "wu4 zhong3 ": 3668,
  " wei4 yu2 gai1 guo2 ": 3669,
  " li3 si1 ": 3670,
  "jing4 nei4 ": 3671,
  " bu4 tong2 de ": 3672,
  " ha1 ": 3673,
  " tai2 wan1 ": 3674,
  "wu4 li3 ": 3675,
  " mo4": 3676,
  "duo1 de ": 3677,
  "shu4 wei4 ": 3678,
  " dai4 biao3": 3679,
  "biao3 xian4 ": 3680,
  " shi4 jie4 da4 ": 3681,
  " tou2 ": 3682,
  "sheng3 ji2 ": 3683,
  "fa3 lv4 ": 3684,
  "miao2 shu4 ": 3685,
  "jing1 guo4 ": 3686,
  "guan1 yuan2 ": 3687,
  "gan4 ": 3688,
  " lu2 ": 3689,
  "chang1 ": 3690,
  " yao4 ": 3691,
  " zui4 hou4 ": 3692,
  "21 ": 3693,
  " yi4 ban1 ": 3694,
  "ba4 ": 3695,
  "po4 huai4": 3696,
  " guo2 jia1": 3697,
  " a1": 3698,
  "ying2 de2 ": 3699,
  "kuan1 ": 3700,
  "cai4 ": 3701,
  " sui2 hou4 ": 3702,
  "zheng4 zai4 ": 3703,
  "bao1 han2 ": 3704,
  "   L": 3705,
  " shi4 jian4": 3706,
  "bo2 wu4 guan3 ": 3707,
  " O": 3708,
  " gong1 ji1 ": 3709,
  "shen4 ": 3710,
  "ce4 shi4 ": 3711,
  "chang3 de ": 3712,
  "ze2 shi4 ": 3713,
  " wei4 zhong1 ": 3714,
  " li4 yong4 ": 3715,
  "bu4 he2 ": 3716,
  "na2 ": 3717,
  "30 ": 3718,
  "nie4 ": 3719,
  "fei1 ji1 ": 3720,
  " fen1 bu4 yu2 ": 3721,
  "shi3 de ": 3722,
  "zhuan1 ye4 ": 3723,
  "zheng1 yi4 ": 3724,
  "27 ri4 ": 3725,
  "chun2 ": 3726,
  "fa3 yuan4 ": 3727,
  "16 ri4 ": 3728,
  " chao2 ": 3729,
  " 2001 nian2 ": 3730,
  " di4 qu1": 3731,
  "21 ri4 ": 3732,
  "yi4 shi2 ": 3733,
  "yong1 ": 3734,
  "17 ri4 ": 3735,
  "zao1 dao4 ": 3736,
  " shi4 yi4 ": 3737,
  " sheng1 huo2 ": 3738,
  "12 ri4 ": 3739,
  "B ": 3740,
  " bei4 cheng1 wei2 ": 3741,
  "ding4 yi4 ": 3742,
  " zhong1 xin1": 3743,
  "8 ri4 ": 3744,
  " da4 qu1 ": 3745,
  " sui1 ran2": 3746,
  "zong1 he2 ": 3747,
  " zhan4 zheng1 ": 3748,
  " W": 3749,
  "xue2 de ": 3750,
  " xian4 shi2 ": 3751,
  " zhong1 gong4": 3752,
  "ji2 wei4 ": 3753,
  "23 ri4 ": 3754,
  "2021 nian2 ": 3755,
  "huang2 di4 ": 3756,
  " de zuo4 ": 3757,
  "zhi3 shi4 ": 3758,
  "a1 la1 ": 3759,
  "2022 nian2 ": 3760,
  "11 ri4 ": 3761,
  "sou1 ": 3762,
  "ou1 zhou1": 3763,
  "jiang1 qi2 ": 3764,
  " bing4 bu4 ": 3765,
  "yuan2 yu2 ": 3766,
  " zhu1 ": 3767,
  "fang1 xiang4 ": 3768,
  "zhan4 de ": 3769,
  "liu4 nian2 ": 3770,
  "e2 luo2 ": 3771,
  "chu1 xian4 ": 3772,
  "quan2 li4 ": 3773,
  "   yu2 ": 3774,
  " chong2 ": 3775,
  "gui1 mo2 ": 3776,
  "22 ri4 ": 3777,
  "lie4 che1": 3778,
  "7 ri4 ": 3779,
  "29 ri4 ": 3780,
  "lie4 de ": 3781,
  "zui4 da4 de ": 3782,
  "duo1 shu4 ": 3783,
  "xiang4 de ": 3784,
  "nao3 ": 3785,
  "xu1 yao4": 3786,
  "hai2 shi4 ": 3787,
  "yu4 de ": 3788,
  "neng2 gou4 ": 3789,
  "yue1 han4 ": 3790,
  "   ci3 ": 3791,
  " zhe4 xie1": 3792,
  "9 ri4 ": 3793,
  "ding4 wei4 ": 3794,
  " long2 ": 3795,
  "tong3 ji4 ": 3796,
  " xiang1 gang3": 3797,
  "E ": 3798,
  "19 ri4 ": 3799,
  "sang1 ": 3800,
  "   zheng4 zhi4 ": 3801,
  " zai4 zhe4 ": 3802,
  "xin4 xi1 ": 3803,
  "lian2 meng2": 3804,
  " ci4": 3805,
  "yang4 de ": 3806,
  " xian4 zhi4 ": 3807,
  "gong1 de ": 3808,
  "ju3 ban4": 3809,
  "qiu2 dui4 ": 3810,
  "hong1 ": 3811,
  "cha2 de ": 3812,
  "14 ri4 ": 3813,
  "ling4 yi1 ": 3814,
  "chang2 shi4 ": 3815,
  "5 ri4 ": 3816,
  "mei3 guo2 ren2 kou3 pu3 ": 3817,
  "niu3 yue1": 3818,
  "zu3 he2 ": 3819,
  " huo4 de2": 3820,
  "3 ri4 ": 3821,
  "lin2 shi2 ": 3822,
  "31 ri4 ": 3823,
  " zhong1 bu4 ": 3824,
  "wei4 shi4 ": 3825,
  "dong3 shi4 ": 3826,
  " fen1 bie2": 3827,
  "ji1 di4 ": 3828,
  "ge1 shou3 ": 3829,
  "dong1 nan2 ": 3830,
  "   zhong1 ": 3831,
  "hai3 ba2": 3832,
  " lu4": 3833,
  "bang1 zhu4 ": 3834,
  " de shi4 zhen4 ": 3835,
  "6 ri4 ": 3836,
  "bing3 ": 3837,
  " 4 ": 3838,
  "mou2 ": 3839,
  "pai1 she4 ": 3840,
  " yi4 da4 li4 ": 3841,
  "2000 nian2 ": 3842,
  " she4 li4 ": 3843,
  "2 ri4 ": 3844,
  " yi4 ban1": 3845,
  " ren2 kou3": 3846,
  "ge4 ren2 ": 3847,
  "   the   ": 3848,
  " 190": 3849,
  " gong4 ": 3850,
  "she4 you3 ": 3851,
  " de zhong1 ": 3852,
  "4 ri4 ": 3853,
  " liu2": 3854,
  " hua2 ": 3855,
  " ru4 ": 3856,
  "sheng1 ya2 ": 3857,
  "yuan2 he2 ": 3858,
  "2004 nian2 ": 3859,
  " di4 qu1 de ": 3860,
  " xue2 sheng1 ": 3861,
  " dao3 zhi4 ": 3862,
  " bao4 ": 3863,
  "tie3 lu4": 3864,
  "zu2 qiu2": 3865,
  "zao3 qi1 ": 3866,
  " qi2 ta1": 3867,
  "feng2 ": 3868,
  "cang1 ": 3869,
  "0 ": 3870,
  "13 ri4 ": 3871,
  "xiong1 di4 ": 3872,
  "sheng1 zai4 ": 3873,
  "dong1 bei3 ": 3874,
  "12 ": 3875,
  "tong1 chang2 ": 3876,
  "mu4 di4 ": 3877,
  "hui1 fu4 ": 3878,
  "ruan3 ": 3879,
  " shi4 chang3 ": 3880,
  " xue2 yuan4 ": 3881,
  " zhe4 yi1 ": 3882,
  "shao1 ": 3883,
  " wo3": 3884,
  "al   ": 3885,
  "shen1 fen4 ": 3886,
  "   you2 yu2 ": 3887,
  "qu3 dai4 ": 3888,
  "ge2 ming4": 3889,
  "zhi3 hui1 ": 3890,
  "lian2 bang1 ": 3891,
  "qing2 kuang4 xia4 ": 3892,
  "yi2 bu4 ": 3893,
  "su1 lian2 ": 3894,
  "xie2 yi4 ": 3895,
  "huang2 jia1 ": 3896,
  "ke1 ji4 ": 3897,
  "fa1 xian4": 3898,
  "d ": 3899,
  "pan2 ": 3900,
  "pang2 ": 3901,
  "zheng3 ge4 ": 3902,
  "zhan1 ": 3903,
  " mei2 you3 ": 3904,
  " bian4 ": 3905,
  "ren2 he2 ": 3906,
  " gong1 chi3 ": 3907,
  "yao1 qiu2": 3908,
  "yan1 ": 3909,
  "chao1 ji2 ": 3910,
  "mao4 yi4 ": 3911,
  "yue4 de ": 3912,
  "zhang3 de ": 3913,
  "xue2 yuan4": 3914,
  "fan3 ying4": 3915,
  "ju3 ban4 ": 3916,
  "cui1 ": 3917,
  "hang2 kong1": 3918,
  "d   ": 3919,
  "xi2 ji1 ": 3920,
  " ye3 you3 ": 3921,
  "hua4 he2 ": 3922,
  "guan1 fang1 ": 3923,
  "xiao3 shuo1 ": 3924,
  " fu4": 3925,
  " di4 li4 ": 3926,
  "3 nian2 ": 3927,
  "I ": 3928,
  "li4 he2 ": 3929,
  "nv3 xing4 ": 3930,
  " xi1 nan2 ": 3931,
  "tu2 shu1 ": 3932,
  "za2 ": 3933,
  "4 nian2 ": 3934,
  "xian1 hou4 ": 3935,
  "bi4 ye4 ": 3936,
  "tong3 yi1 ": 3937,
  " ha1": 3938,
  "hou2 ": 3939,
  "sai4 de ": 3940,
  " gu4": 3941,
  " br": 3942,
  "zun1 ": 3943,
  " yi3 jing1": 3944,
  " hei1 ": 3945,
  "lan3 ": 3946,
  " br ": 3947,
  "xie2 zhu4 ": 3948,
  " wei1": 3949,
  "ci4 shi4 jie4 da4 ": 3950,
  " shu1 ": 3951,
  " 6 ": 3952,
  " dong1": 3953,
  " ru2 guo3 ": 3954,
  "shang4 shi4 ": 3955,
  "qu1 hua4 ": 3956,
  " que4 ": 3957,
  "fen1 xi1 ": 3958,
  "yu3 de ": 3959,
  "ting3 ": 3960,
  " er3 sheng3 ": 3961,
  "ren2 kou3 shu4 liang4": 3962,
  "wen2 wu4 bao3 hu4 ": 3963,
  " he2 yi1 ": 3964,
  " bu4 neng2 ": 3965,
  "zi4 xing2 ": 3966,
  "jie1 duan4 ": 3967,
  "wu2 xian4 ": 3968,
  "guang3 bo1 ": 3969,
  " qie3 ": 3970,
  " yi3 lai2 ": 3971,
  " xi1 ban1 ": 3972,
  " zu3 ": 3973,
  "dan1 ren4": 3974,
  " ben3": 3975,
  " shuang1 ": 3976,
  "   O": 3977,
  " ta1 ceng2": 3978,
  "chi2 xu4 ": 3979,
  "tai2 bei3": 3980,
  "5 nian2 ": 3981,
  "gong4 chan3 dang3 ": 3982,
  " wu3": 3983,
  "guo2 he2 ": 3984,
  "on ": 3985,
  " J": 3986,
  " yi3 xia4 ": 3987,
  "fa1 biao3": 3988,
  "qi1 nian2 ": 3989,
  "te4 de ": 3990,
  "reng2 ": 3991,
  "dao3 yan3 ": 3992,
  "6 nian2 ": 3993,
  "hou4 yu2 ": 3994,
  "yan3 chang4": 3995,
  "zhu4 zai4 ": 3996,
  "xia4 xia2": 3997,
  "tiao2 jian4 ": 3998,
  " man4 ": 3999,
  "pin2 dao4 ": 4000,
  " gong1 zuo4": 4001,
  "ye4 de ": 4002,
  "jiao1 yi4 ": 4003,
  " cai2 ": 4004,
  "   N": 4005,
  " zai4 ci4 ": 4006,
  "i ": 4007,
  "shao4 nian2 ": 4008,
  " p": 4009,
  "jie2 shu4": 4010,
  " shi4 zhong1 guo2 ": 4011,
  "lai4 ": 4012,
  "hu3 ": 4013,
  "bao4 dao4 ": 4014,
  " ren2 kou3 mi4 du4 wei4 ": 4015,
  "qiu2 yuan2 ": 4016,
  " shi4 li4 ": 4017,
  " qie3": 4018,
  "   bu4 ": 4019,
  "jue2 sai4 ": 4020,
  "ying4 yong4 ": 4021,
  "wai4 de ": 4022,
  "you2 zheng4 ": 4023,
  "jian4 li4 ": 4024,
  "zao1 ": 4025,
  "9 nian2 ": 4026,
  "zi1 yuan2 ": 4027,
  "sai1 er3 ": 4028,
  " zhang1": 4029,
  " jiu3 ": 4030,
  " qi2 hou4 ": 4031,
  " ya4 ": 4032,
  "zui4 da4 ": 4033,
  "cao1 ": 4034,
  " bing4 wei4 ": 4035,
  "hui2 dao4 ": 4036,
  "su4 du4 ": 4037,
  "qi4 hou4 ": 4038,
  "ke3 da2 ": 4039,
  " xi1": 4040,
  " wei4 yu2 fa3 guo2 ": 4041,
  "gai3 ge2 ": 4042,
  "mi4 shu1 ": 4043,
  " yi1 yuan4 ": 4044,
  "dian4 shi4 ju4 ": 4045,
  "zhuang4 tai4 ": 4046,
  " luo4 ": 4047,
  "zhu4 de ": 4048,
  "fen4 wei4 ": 4049,
  "   R": 4050,
  " gong1 ye4 ": 4051,
  "wang3 zhan4 ": 4052,
  "gong1 si1 ": 4053,
  "kai1 fa1": 4054,
  "jie2 guo3 ": 4055,
  "suo3 shu3 de ": 4056,
  " qian1 ": 4057,
  " de di4 yi1 ": 4058,
  "hu2 nan2 ": 4059,
  " yi1 si1 ": 4060,
  "ya4 li4 ": 4061,
  " wei4 yi1 ": 4062,
  "shou3 ci4": 4063,
  "zou4 ": 4064,
  "shang4 hai3": 4065,
  " zhe4 ge": 4066,
  "20 shi4 ji4 ": 4067,
  "jie2 he2 ": 4068,
  " jie3 ": 4069,
  " zuo4 pin3 ": 4070,
  " mai4": 4071,
  " zhao4 ": 4072,
  "zuo3 you4 ": 4073,
  "xiao3 xue2 ": 4074,
  "sheng4 li4 ": 4075,
  " zhong1 gong4 ": 4076,
  "U ": 4077,
  " hao4 xian4 ": 4078,
  "zhen4 qu1 ": 4079,
  "2 nian2 ": 4080,
  " de fu4 ": 4081,
  "wen2 ming2 ": 4082,
  " jian3 cheng1 ": 4083,
  "yi2 zhi4 ": 4084,
  "jiao4 hui4 ": 4085,
  "sheng3 fen4 ": 4086,
  "zhan3 kai1 ": 4087,
  "yin4 du4": 4088,
  "shi2 qi1 ": 4089,
  " suo3 you3 ": 4090,
  "ling3 dao3": 4091,
  " fa3 guo2 ": 4092,
  "mu4 biao1 ": 4093,
  " er2 shi4 ": 4094,
  "gao1 ji2 ": 4095,
  "zhun3 bei4 ": 4096,
  "fa1 biao3 ": 4097,
  "wang3 luo4 ": 4098,
  " jian4 she4 ": 4099,
  "xun4 lian4 ": 4100,
  "ke1 de ": 4101,
  " ren2 wu4 ": 4102,
  "xuan3 shou3 ": 4103,
  "jiao1 tong1": 4104,
  "hao3 de ": 4105,
  "zi4 ran2 ": 4106,
  "zhong4 yao4 de ": 4107,
  "dong1 jing1 ": 4108,
  "chan3 pin3 ": 4109,
  "gong4 you3 ren2 kou3 ": 4110,
  " xian4 dai4 ": 4111,
  " yi1 ming2 ": 4112,
  " xi1 bei3 ": 4113,
  "o ": 4114,
  "feng1 ge2 ": 4115,
  " fei1": 4116,
  " cheng2 ji4 ": 4117,
  "lei3 ": 4118,
  " he2 di4 ": 4119,
  "yan2 zhong4 ": 4120,
  "xiao3 xing2 xing1 ": 4121,
  "e   ": 4122,
  " jia3 ": 4123,
  "zi de ": 4124,
  "liu2 xing2 ": 4125,
  "mu4 qian2 ": 4126,
  "wen2 wu4 bao3 hu4 dan1 wei4 ": 4127,
  "juan3 ": 4128,
  " ji1 chang3 ": 4129,
  "bian4 cheng2 ": 4130,
  "7 nian2 ": 4131,
  "qiao2 zhi4 ": 4132,
  "mie4 ": 4133,
  "lei4 si4": 4134,
  "1 nian2 ": 4135,
  "dian4 shi4 tai2 ": 4136,
  "jie3 shi4 ": 4137,
  "8 nian2 ": 4138,
  "guo2 min2 ": 4139,
  " yi4 qi3 ": 4140,
  " wu1 ": 4141,
  "kai1 fang4 ": 4142,
  " lan2 ": 4143,
  " yong3 ": 4144,
  " mai4 ": 4145,
  " xia4 ling4": 4146,
  "ka3 er3 ": 4147,
  "2003 nian2 ": 4148,
  " shen4 zhi4 ": 4149,
  "xing2 shi4 ": 4150,
  "dou1 you3 ": 4151,
  "2002 nian2 ": 4152,
  " yi2 ge4 ": 4153,
  "zhi1 hou4 ": 4154,
  "hui4 he2 ": 4155,
  "mei3 ping2 fang1 gong1 li3 ": 4156,
  "ru4 le ": 4157,
  " yi1 yang4 ": 4158,
  " chu2 le ": 4159,
  " gong1 fen1 ": 4160,
  " she4 zhi4 ": 4161,
  "te4 zheng1 ": 4162,
  "can1 sai4 ": 4163,
  " si1 ji1 ": 4164,
  "ru2 xia4 ": 4165,
  "zhen1 dui4 ": 4166,
  "jiu4 shi4 zhen4 ": 4167,
  " shi4 fou3": 4168,
  " dan1 ren4 ": 4169,
  " shi2 jian1": 4170,
  "zhe4 ge ": 4171,
  " guang1 ": 4172,
  "gao1 zhong1 ": 4173,
  " ci3 hou4 ": 4174,
  " zai4 zhong1 ": 4175,
  "bi4 xu1 ": 4176,
  "wang2 guo2 ": 4177,
  "bi3 jiao4 ": 4178,
  " 00": 4179,
  "er4 shi4 ": 4180,
  "wai4 jiao1": 4181,
  "gui1 hua4 ": 4182,
  "diao1 ": 4183,
  " yi4 zhi4 ": 4184,
  "lei4 si4 ": 4185,
  "bang4 ": 4186,
  "shan1 dong1 ": 4187,
  " ran2 hou4 ": 4188,
  " yi4 zhi2": 4189,
  " li4 shu3 yu2 ": 4190,
  " sui1 ran2 ": 4191,
  "yuan2 shi4 ": 4192,
  "dui4 zai4 ": 4193,
  "zhu4 ming2 ": 4194,
  "yun2 nan2 ": 4195,
  " jia4 ": 4196,
  "hen3 duo1 ": 4197,
  " er3 de ": 4198,
  "huo4 de2": 4199,
  "sheng1 chan3 ": 4200,
  " yu3": 4201,
  "zhan4 yi4 ": 4202,
  "   gong1 ": 4203,
  "dian4 zi ": 4204,
  " bei3": 4205,
  " 11": 4206,
  "zhong4 de ": 4207,
  " jian4 zhi4 ": 4208,
  "   da4 ": 4209,
  "xin1 jia1 ": 4210,
  "lai2 zi4": 4211,
  "zhi4 zuo4 ": 4212,
  "shan1 xi1 ": 4213,
  "ren2 kou3 shu4 liang4 wei4 ren2 ": 4214,
  "ju4 ji2 ": 4215,
  " de yi1 zhong3 ": 4216,
  " gu3": 4217,
  " de ming2 ": 4218,
  "ji2 he2 ": 4219,
  " xi1 ya4": 4220,
  "tao4 ": 4221,
  "lv3 you2 ": 4222,
  " zhi4 zao4 ": 4223,
  " shang1 ": 4224,
  " xing2 wei2 ": 4225,
  "ma3 lai2": 4226,
  "bao4 fa1 ": 4227,
  "nv3 er2 ": 4228,
  " ren4": 4229,
  " INSEE": 4230,
  "de   ": 4231,
  "zong3 li3 ": 4232,
  "quan2 qiu2 ": 4233,
  "si1 he2 ": 4234,
  " de zhu3 ": 4235,
  " shang4 hai3 ": 4236,
  "sai4 zhong1 ": 4237,
  "fa1 she4 ": 4238,
  "rui4 shi4 ": 4239,
  " che1 ": 4240,
  "bao1 han2": 4241,
  "nong2 ye4 ": 4242,
  " tu2 ": 4243,
  " deng3": 4244,
  "ye4 wu4 ": 4245,
  "tou2 zi1 ": 4246,
  "lu4 jun1 ": 4247,
  " dui4 yu2 ": 4248,
  "wu4 zhi4 ": 4249,
  "jue2 de ": 4250,
  "nai4 ": 4251,
  "ao2 ": 4252,
  "te4 bie2 ": 4253,
  " zu3": 4254,
  " jin4 shi4 ": 4255,
  " de shi2 hou4 ": 4256,
  "ao4 lin2 pi3 ke4 yun4 dong4 hui4 ": 4257,
  "ge2 de ": 4258,
  " zhi4 jin1 ": 4259,
  "fang1 an4 ": 4260,
  " biao3 shi4 ": 4261,
  "si1 ren2 ": 4262,
  "hua4 xue2 ": 4263,
  " te4 bie2": 4264,
  " da4 liang4 ": 4265,
  "ji2 shi4 ": 4266,
  "min3 ": 4267,
  "ke3 neng2 shi4 ": 4268,
  "lian2 jie1 ": 4269,
  "jin4 de ": 4270,
  " zhi1 wai4 ": 4271,
  "fa1 dong4 ": 4272,
  "si4 shi2 ": 4273,
  "cao2 ": 4274,
  " V": 4275,
  " ni2 ": 4276,
  "xuan3 wei4 ": 4277,
  "qian3 ": 4278,
  "cha4 ": 4279,
  " she4 shi1 ": 4280,
  "chu4 de ": 4281,
  "tu3 er3": 4282,
  " li4 si1 ": 4283,
  "bo2 te4 ": 4284,
  " zong3 mian4 ji1 ": 4285,
  "luo2 ma3": 4286,
  "chuang4 li4 ": 4287,
  " de li4 ": 4288,
  " de2 li3 ": 4289,
  "x ": 4290,
  "guang3 chang3 ": 4291,
  "lian2 he2 guo2 ": 4292,
  "ji2 shi2 ": 4293,
  "geng1 ming2 wei4 ": 4294,
  "zao3 nian2 ": 4295,
  "2023 nian2 ": 4296,
  "xiao4 li4 ": 4297,
  "qi4 de ": 4298,
  "jue2 ding4": 4299,
  "biao3 yan3 ": 4300,
  "X ": 4301,
  "yi2 shi4 ": 4302,
  "reng2 ran2 ": 4303,
  " jun1 zai4 ": 4304,
  "fang1 mian4": 4305,
  " gai1 sheng3 ": 4306,
  " geng4 ": 4307,
  "zong3 tong3": 4308,
  "zhi4 shi4 ": 4309,
  "da1 ": 4310,
  " gong1 neng2 ": 4311,
  " ren2 kou3 mi4 du4 mei3 ping2 fang1 gong1 li3 ": 4312,
  " ren2 kou3 mi4 du4 wei4 mei3": 4313,
  " xia4 ling4 shi2 ": 4314,
  "you2 zheng4 bian1 ma3 wei4 ": 4315,
  "cha2 de shu4 ju4 ": 4316,
  " ju4 le4 bu4 ": 4317,
  " shi4 zhen4 bian1 ma3 wei4 ": 4318,
  " INSEE shi4 zhen4 bian1 ma3 wei4 ": 4319,
  " xian1 ": 4320,
  " zhen1 ": 4321,
  "   bei4 ": 4322,
  "biao1 zhun3": 4323,
  " she4 de ": 4324,
  "xuan3 qu1 wei4 ": 4325,
  "jiu3 nian2 ": 4326,
  " zai4 ci3 ": 4327,
  " bu4 guo4": 4328,
  "pai2 ming2 ": 4329,
  " guo2 wang2 ": 4330,
  "dong4 li4 ": 4331,
  "shi2 de ren2 kou3 shu4 liang4 wei4 ren2 ": 4332,
  "jie1 rang3 de shi4 zhen4 ": 4333,
  "mei3 guo2 ren2 kou3 pu3 cha2 de shu4 ju4 ": 4334,
  "cong2 shi4 ": 4335,
  "jia1 li4 ": 4336,
  " er2 ren2 kou3 mi4 du4 wei4 mei3": 4337,
  "ge2 lan2": 4338,
  " dang1 di4 gong4 you3 ren2 kou3 ": 4339,
  "fen1 lei4 ": 4340,
  "jie3 jue2 ": 4341,
  "shi3 yong4 de ": 4342,
  "zu2 de ": 4343,
  " fen1 zhong1 ": 4344,
  "gou1 ": 4345,
  "da4 bu4 fen4": 4346,
  "yi1 zhong3 ": 4347,
  "F ": 4348,
  "l ": 4349,
  "ling3 yu4 ": 4350,
  " huo4 jiu4 shi4 zhen4 ": 4351,
  "he2 shi4 ": 4352,
  "   li4 ": 4353,
  " chu1 ban3 ": 4354,
  "yun4 ying2 ": 4355,
  "sheng3 ji2 xuan3 qu1 wei4 ": 4356,
  "ji1 ji2 ": 4357,
  " de yi1 bu4 fen4 ": 4358,
  "shi2 shi4 ": 4359,
  " nian2 du4 ": 4360,
  "er2 zi ": 4361,
  "zuo4 pin3": 4362,
  " xiang4": 4363,
  " zheng4 shi4 ": 4364,
  "xuan3 ren2 ": 4365,
  "gai4 nian4 ": 4366,
  "xing1 de ": 4367,
  " er3 de2 ": 4368,
  "sheng3 he2 ": 4369,
  "jie1 shou4": 4370,
  "tiao2 yue1 ": 4371,
  " jin3 guan3 ": 4372,
  "fen4 wei4 fa3 guo2 ": 4373,
  " gai1 sheng3 fen4 wei4 fa3 guo2 ": 4374,
  " chu1 ban3": 4375,
  " zhi1 xian4 ": 4376,
  "tie3 dao4 ": 4377,
  "lian2 bang1": 4378,
  " di4 san1": 4379,
  " er2 qie3 ": 4380,
  " jun1 dui4 ": 4381,
  " song4 ": 4382,
  "guang3 zhou1 ": 4383,
  " bu4 jiu3 ": 4384,
  "ao4 da4 li4 ": 4385,
  "   18": 4386,
  " wei4 shi2 ": 4387,
  " xi1 la4": 4388,
  "fu2 jian4 ": 4389,
  " qing1": 4390,
  " he2 bing4": 4391,
  " han2 ": 4392,
  "ba1 nian2 ": 4393,
  "zhan4 zheng1": 4394,
  " you3 ren2 ": 4395,
  "pai2 ming2": 4396,
  "zhan4 shi4 ": 4397,
  "jin3 biao1 sai4 ": 4398,
  "zui4 hou4 yi1 ": 4399,
  "jing3 cha2 ": 4400,
  "qun2 dao3 ": 4401,
  "lai2 yuan2 ": 4402,
  "te4 bie2": 4403,
  " ta1 bei4 ": 4404,
  " jiang3 ": 4405,
  "xing1 jian4 ": 4406,
  " xiao1 ": 4407,
  "lun2 dun1": 4408,
  " dui4": 4409,
  " wan4 ren2 ": 4410,
  " chu1 sheng1 yu2 ": 4411,
  "she4 li4 ": 4412,
  "reng2 ran2": 4413,
  "di4 yi1 ": 4414,
  " ri4 de ": 4415,
  " ruo4 ": 4416,
  "ben3 de ": 4417,
  "wei3 hui4 ": 4418,
  " you2 xi4": 4419,
  " kai1 shi3 ": 4420,
  " ren2 gong1 ": 4421,
  "xue2 xiao4": 4422,
  "shan3 xi1 ": 4423,
  "tong1 chang2": 4424,
  "tian1 wen2 ": 4425,
  " yi4 wei4 ": 4426,
  " zhi4 yu2 ": 4427,
  "lie4 wei4 ": 4428,
  "ceng2 zai4 ": 4429,
  " bu4 ming2 ": 4430,
  "mu3 si1 ": 4431,
  " ming2 chao2 ": 4432,
  "yun4 xing2 ": 4433,
  "mei3 zhou1 ": 4434,
  " geng4": 4435,
  "cai3 yong4": 4436,
  " di4 si4 ": 4437,
  "ang2 ": 4438,
  "ao4 si1 ": 4439,
  "yan2 jiu1 suo3 ": 4440,
  "rou4 ": 4441,
  "guang3 fan4 ": 4442,
  " xian4 lu4 ": 4443,
  "ce ": 4444,
  "meng2 gu3 ": 4445,
  " shi4 bu4 ": 4446,
  "yi3 ji2 ": 4447,
  " he2 ping2 ": 4448,
  "hua4 shi2 ": 4449,
  "jia1 ru4 ": 4450,
  "   ta1": 4451,
  "zhan4 hou4 ": 4452,
  "nan2 ji2 ": 4453,
  "shuo1 fa3 ": 4454,
  "gan3 ran3 ": 4455,
  " di2 ": 4456,
  "xi1 zai4 ": 4457,
  " rang4": 4458,
  " jin4 de ": 4459,
  " ren4 wei2": 4460,
  " ji1 ben3 ": 4461,
  " ju4 li2 ": 4462,
  " fei4 ": 4463,
  "mo2 xing2 ": 4464,
  " jiao1 ": 4465,
  "guo4 cheng2 zhong1 ": 4466,
  " de di4 fang1 ": 4467,
  "wu2 ren2 ": 4468,
  " de xin1 ": 4469,
  "ji4 shu4 ": 4470,
  " jian4 yi4 ": 4471,
  " ta1 yu3 ": 4472,
  "yun4 shu1 ": 4473,
  "gou4 mai3": 4474,
  " fan4 ": 4475,
  "wan2 quan2": 4476,
  "wu3 shi2 ": 4477,
  " ke4 de ": 4478,
  "ren4 wei2 shi4 ": 4479,
  " zai4 yi4 ": 4480,
  " ge4 di4 ": 4481,
  " da2 ": 4482,
  "ban4 gong1 shi4 ": 4483,
  " 10 yue4 ": 4484,
  "tong2 yi1 ": 4485,
  "duo1 ge4 ": 4486,
  "wai4 guo2 ": 4487,
  " zong3 ren2 kou3 ": 4488,
  "xue2 shi4 ": 4489,
  "jia4 zhi2 ": 4490,
  "shang4 you3 ": 4491,
  "yuan2 wei4 ": 4492,
  "ng ": 4493,
  " c": 4494,
  " can1 ": 4495,
  "fei1 xing2 ": 4496,
  "gong1 zuo4 ": 4497,
  " zi4 ji3 ": 4498,
  "ni2 si1 ": 4499,
  " zai4 zhong1 guo2 ": 4500,
  "xue2 xi2 ": 4501,
  "zhao3 ": 4502,
  "yang3 hua4 ": 4503,
  " shou4": 4504,
  " chen2": 4505,
  "quan1 ": 4506,
  " ai1": 4508,
  "qi3 lai2 ": 4509,
  "xuan1 chuan2 ": 4510,
  "mo4 xi1 ": 4511,
  " yi1 xie1": 4512,
  "xuan3 ze2": 4513,
  "cheng1 wei4 ": 4514,
  "xiao1 xi1 ": 4515,
  " xian4 ren2 ": 4516,
  " de guan1 ": 4517,
  "hai3 jun1": 4518,
  "biao1 zhi4 ": 4519,
  " bu4 men2 ": 4520,
  "zhi4 wei4 ": 4521,
  " nian2 hou4 ": 4522,
  "you2 xi4": 4523,
  "ma2 ": 4524,
  "huan2 jing4": 4525,
  "fu4 ze2 guan3 xia2 ": 4526,
  " wei2 zhu3 ": 4527,
  " shi3 yong4 ": 4528,
  "jie4 quan2 guo2 ": 4529,
  "xi4 bao1 ": 4530,
  " xing1 ": 4531,
  "gou4 cheng2 ": 4532,
  "che1 liang4 ": 4533,
  "shi1 de ": 4534,
  "zhe2 xue2 ": 4535,
  "an4 de ": 4536,
  "   yi3 ": 4537,
  "1999 nian2 ": 4538,
  "keng1 ": 4539,
  " ji4 hua4": 4540,
  "si1 zai4 ": 4541,
  "zheng4 de ": 4542,
  "an1 quan2": 4543,
  "dang3 de ": 4544,
  " ke1": 4545,
  " lin2": 4546,
  "bi3 de2 ": 4547,
  " dao4 lu4 ": 4548,
  "chao2 xian1 ": 4549,
  "yin2 hang2": 4550,
  "xi1 de ": 4551,
  " shi4 mei3 guo2 ": 4552,
  " shi4 tu2 ": 4553,
  " an4 ": 4554,
  "zhong1 zai4 ": 4555,
  " ji4 nian4 ": 4556,
  "zhu3 jue2 ": 4557,
  "k ": 4558,
  "si4 chuan1 ": 4559,
  "bu4 wei4 ": 4560,
  " ji2 qi2 ": 4561,
  "peng2 you3 ": 4562,
  " er4": 4563,
  " hua1 ": 4564,
  "chi2 xu4": 4565,
  "ai4 er3 ": 4566,
  "24 ": 4567,
  " gong1 gong4 ": 4568,
  " zhi1 chi2": 4569,
  "kang4 yi4 ": 4570,
  "L ": 4571,
  "   you3 ": 4572,
  "yue1 wei4 ": 4573,
  "tai4 guo2 ": 4574,
  " er2 qie3": 4575,
  "   V": 4576,
  "jie1 wei4 ": 4577,
  "xuan3 qu1 ": 4578,
  " ying1 chi3 ": 4579,
  "shi2 zai4 ": 4580,
  "yi4 he2 ": 4581,
  "hui4 you3 ": 4582,
  "sheng1 wu4 ": 4583,
  "xiao4 zhang3 ": 4584,
  "wen2 jian4 ": 4585,
  " bei4 er3 ": 4586,
  "ge1 qu3": 4587,
  " fan3 ": 4588,
  "shou1 ru4 ": 4589,
  " jie2 zhi4 ": 4590,
  " tai2 wan1": 4591,
  "man4 hua4 ": 4592,
  " da3 ": 4593,
  "biao1 wei4 ": 4594,
  " jie4": 4595,
  "fo2 jiao4 ": 4596,
  "rong2 yi4 ": 4597,
  "   he2 ": 4598,
  " dou1 ": 4599,
  "   shi2 ": 4600,
  "ao4 yun4": 4601,
  "suo3 shu3 de sheng3 ji2 xuan3 qu1 wei4 ": 4602,
  "   che1 zhan4 ": 4603,
  " sheng1 wu4 ": 4604,
  "yan3 de ": 4605,
  "bian1 ji2 ": 4606,
  "qian4 ": 4607,
  " zhan4 zheng1": 4608,
  "si1 di4 ": 4609,
  "ye3 you3 ": 4610,
  "qian2 wang3": 4611,
  " ruo4": 4612,
  "yu3 yan2 ": 4613,
  "zheng4 ce4 ": 4614,
  "ji4 zhong1 ": 4615,
  "mi3 er3 ": 4616,
  "jun1 dui4 ": 4617,
  " qiang2 ": 4618,
  "jie3 fang4 jun1 ": 4619,
  "O ": 4620,
  "tiao3 zhan4 ": 4621,
  " yuan2 zhu4 ": 4622,
  " chu1 le ": 4623,
  "ao4 yun4 ": 4624,
  " zhi4 du4 ": 4625,
  "1998 nian2 ": 4626,
  " you4 cheng1 ": 4627,
  "gao1 yu2 ": 4628,
  " shi4 yi2 ge4": 4629,
  " huo4 shi4 ": 4630,
  "g ": 4631,
  "gan3 dao4 ": 4632,
  "nan2 xing4 ": 4633,
  " yi3 shang4 ": 4634,
  "ma3 li4 ": 4635,
  "gai3 bian4 ": 4636,
  "kun1 ": 4637,
  "tou2 ru4 ": 4638,
  " chang3 ": 4639,
  "   2021": 4640,
  " di4 xia4 ": 4641,
  "fo2 ": 4642,
  "jie1 rang3 ": 4643,
  "pei4 he2 ": 4644,
  "zhi3 hui1": 4645,
  "jia1 ren2 ": 4646,
  "wen3 ding4 ": 4647,
  "zha1 ": 4648,
  "M ": 4649,
  " zhong1 you3 ": 4650,
  " zai4 bu4 ": 4651,
  "ti2 ming2 ": 4652,
  "da2 cheng2 ": 4653,
  "2024 nian2 ": 4654,
  " yi1 zhong3 ": 4655,
  "ru3 ": 4656,
  "ne4 ": 4657,
  "mo4 si1 ": 4658,
  "fen1 zhi1 ": 4659,
  "zai4 shi4 ": 4660,
  "tong2 de ": 4661,
  "jian3 jie4 ": 4662,
  "shen1 fen4": 4663,
  " yu4": 4664,
  "tian1 zhu3 jiao4 ": 4665,
  " zhong1 guo2 ren2 min2 ": 4666,
  "biao3 ming2 ": 4667,
  "duo2 de ": 4668,
  "ting2 zhi3 ": 4669,
  " que4": 4670,
  "an ": 4671,
  " yan3 ": 4672,
  " er2 ren2 kou3 mi4 du4 wei4 mei3 ping2 fang1 qian1 mi3 ": 4673,
  "xiao3 de ": 4674,
  " zi4": 4675,
  "zheng4 shi2 ": 4676,
  "ce4 de ": 4677,
  "zao4 de ": 4678,
  " wei4 fu2": 4679,
  " hai2 you3 ": 4680,
  "juan1 ": 4681,
  "que4 zhen3": 4682,
  " tong1 guo4 ": 4683,
  "   2020": 4684,
  " ji1 bai4 ": 4685,
  " nian2 chu1 ": 4686,
  "ban4 dao3 ": 4687,
  "guo2 zai4 ": 4688,
  "wu3 qi4 ": 4689,
  "ta1 men ": 4690,
  "   yuan2 ": 4691,
  " jia1 na2 da4 ": 4692,
  " ping2 fang1 mi3 ": 4693,
  "zi4 zhi4 qu1 ": 4694,
  " 8 yue4 ": 4695,
  "in ": 4696,
  "la1 ke4 ": 4697,
  "lei4 de ": 4698,
  "hun4 he2 ": 4699,
  " zi4 you2 ": 4700,
  "   zi4 ": 4701,
  " zai4 mei3 guo2 ": 4702,
  " shi2 yan4": 4703,
  " ti2 ": 4704,
  "ju3 ren2 ": 4705,
  "zui4 zao3": 4706,
  "tuan2 dui4 ": 4707,
  "di4 shi4 ": 4708,
  "ke3 neng2 hui4 ": 4709,
  " pi2 ": 4710,
  "ya1 li4 ": 4711,
  "R ": 4712,
  "quan2 bu4 ": 4713,
  " su1": 4714,
  "ji4 wei4 ": 4715,
  " er2 bei4 ": 4716,
  "ji4 hua4 ": 4717,
  " ji4 cheng2 ": 4718,
  "gong4 xian4 ": 4719,
  "xi1 ban1 ya2 ": 4720,
  " U": 4721,
  " shi2 shi1 ": 4722,
  "jie2 mu4": 4723,
  " li2 ": 4724,
  " jie2 guo3 ": 4725,
  " The": 4726,
  "ng   ": 4727,
  " di4 tie3 ": 4728,
  " bo1": 4729,
  "sheng1 chan3": 4730,
  "lai2 shuo1 ": 4731,
  "zhe4 zhong3 ": 4732,
  "p ": 4733,
  "li4 bu4 ": 4734,
  "chan3 ye4 ": 4735,
  " wang2": 4736,
  "xing2 dong4 ": 4737,
  "fan1 yi4 ": 4738,
  " qi1 jian1 ": 4739,
  " chu1 ren4 ": 4740,
  " ping2": 4741,
  "shao3 shu4 ": 4742,
  "cao1 zuo4 ": 4743,
  "jian3 cha2 ": 4744,
  "ban4 shi4 ": 4745,
  "jia1 na2 da4 ": 4746,
  "ying3 pian4 ": 4747,
  "chong1 tu1 ": 4748,
  " zai4 da4 ": 4749,
  " ta1 yu2 ": 4750,
  "bao3 hu4": 4751,
  "ji4 nian4 ": 4752,
  " zhuan1 ": 4753,
  "an4 jian4 ": 4754,
  "fen1 bie2 ": 4755,
  "ceng2 jing1 ": 4756,
  "chong2 jian4 ": 4757,
  "shou3 de ": 4758,
  "amp ": 4759,
  " jian4 zhu4": 4760,
  "r ": 4761,
  " mu4": 4762,
  " shi4 yi3 ": 4763,
  "xin1 li3 ": 4764,
  "xing2 wei2 ": 4765,
  " bei4": 4766,
  "gong4 tong2": 4767,
  "nan4 ": 4768,
  " shi2 fen1 ": 4769,
  " an1": 4770,
  "dong4 de ": 4771,
  "kong1 jun1 ": 4772,
  "ban4 gong1 ": 4773,
  " zhi3 you3 ": 4774,
  " shi3 de ": 4775,
  "da4 bu4 fen4 ": 4776,
  " xian4 wei4 ": 4777,
  "qi1 jian1": 4778,
  "yang1 ": 4779,
  " zhi4 zuo4": 4780,
  "jie2 gou4": 4781,
  "lian2 sai4": 4782,
  "lian2 xu4 ": 4783,
  "jue2 se4": 4784,
  " yi4 you3 ": 4785,
  " li4 ru2": 4786,
  "ji2 zai4 ": 4787,
  "shen1 de ": 4788,
  " he2 bei3 ": 4789,
  " wei4 neng2 ": 4790,
  "xiang1 dui4 ": 4791,
  "mei2 ti3": 4792,
  "zhu3 ti2 ": 4793,
  "jian3 shao3 ": 4794,
  " men2 ": 4795,
  "ou1 yuan2 ": 4796,
  " he2 liu2 ": 4797,
  "gong1 yuan2 ": 4798,
  "xiao3 zu3 ": 4799,
  "tou4 ": 4800,
  " you4 ming2 ": 4801,
  "tong4 ": 4802,
  " yi3 se4 ": 4803,
  "fen4 zi3 ": 4804,
  "xian4 dai4 ": 4805,
  " shi4 yi1 ming2 ": 4806,
  " ti3 zhang3 ": 4807,
  "   2019": 4808,
  " xi1 wang4 ": 4809,
  "ying4 de ": 4810,
  "wei3 yuan2 hui4": 4811,
  "zhe4 ge": 4812,
  "ming4 ming2 wei4 ": 4813,
  " gong1 si1 de ": 4814,
  " liang3 ren2 ": 4815,
  " bian1 ": 4816,
  "yi4 zai4 ": 4817,
  "dong4 ji1 ": 4818,
  "da3 ji1 ": 4819,
  " de di4 qu1 ": 4820,
  "zhan3 shi4 ": 4821,
  "zhuo2 ": 4822,
  " hai2": 4823,
  " zhi2 zhi4 ": 4824,
  " hu4 ": 4825,
  " she4 qu1 ": 4826,
  " ji4 xu4": 4827,
  "gui1 mo2": 4828,
  "shou3 wei4 ": 4829,
  "xun2 hui2 ": 4830,
  " si1 ling4": 4831,
  "shu4 liang4 ": 4832,
  "xia4 wu3 ": 4833,
  " chuan2 ": 4834,
  "1996 nian2 ": 4835,
  "yong4 lai2 ": 4836,
  "lu4 di4 mian4 ji1 wei4 ": 4837,
  "shui3 yu4 mian4 ji1 wei4 ": 4838,
  " li4 ji2 ": 4839,
  "qi3 yong4 ": 4840,
  "lei4 xing2 ": 4841,
  "ren4 wu4 ": 4842,
  " guo2 li4 ": 4843,
  " shi2 zi4 ": 4844,
  " yi1 ci4 ": 4845,
  "duo1 ci4 ": 4846,
  "en ": 4847,
  "ping2 jia4 ": 4848,
  "bu4 shi4 ": 4849,
  " 2009 nian2 ": 4850,
  " fu4 jin4 ": 4851,
  "fu2 he2 ": 4852,
  "ju3 xing2 de ": 4853,
  " de shou3 ": 4854,
  "   2018": 4855,
  "wai4 jiao1 ": 4856,
  "ti3 xi4 ": 4857,
  " zhe4 jiang1 ": 4858,
  "n   ": 4859,
  " ling2 ": 4860,
  "1997 nian2 ": 4861,
  " da4 shi3 ": 4862,
  "liang3 ge4": 4863,
  "zuo4 jia1 ": 4864,
  " she4 bei4 ": 4865,
  "mei3 nian2 ": 4866,
  " zhen4 ": 4867,
  " li4 fa3 ": 4868,
  "an   ": 4869,
  "zhu4 yi4 ": 4870,
  " amp ": 4871,
  "dian4 li4 ": 4872,
  "de2 dao4 ": 4873,
  "kui2 ": 4874,
  " si1 ling4 ": 4875,
  " cong2 er2 ": 4876,
  "kao4 ": 4877,
  "jiao4 tang2 ": 4878,
  "fa3 lv4": 4879,
  " dang1 zhong1 lu4 di4 mian4 ji1 wei4 ": 4880,
  "zhi4 he2 ": 4881,
  "zhi2 de ": 4882,
  " er2 shui3 yu4 mian4 ji1 wei4 ": 4883,
  "qu3 xiao1 ": 4884,
  "jie2 zhi4 ": 4885,
  "sheng1 huo2": 4886,
  "fu2 wu4": 4887,
  "xue2 zhe3 ": 4888,
  "   2022": 4889,
  "   xi1 ": 4890,
  "hai3 yu4 ": 4891,
  "shui3 ping2 ": 4892,
  "dian1 ": 4893,
  "nei4 rong2": 4894,
  "ying1 ge2 lan2 ": 4895,
  " zhi1 shi2 ": 4896,
  "zhu4 zuo4 ": 4897,
  " lie4 ": 4898,
  " 9 yue4 ": 4899,
  " da4 chen2 ": 4900,
  " cheng2 li4 yu2 ": 4901,
  "   gai4 ": 4902,
  "tuo4 ": 4903,
  "lun2 dun1 ": 4904,
  "lv3 ke4 ": 4905,
  "zhi4 zai4 ": 4906,
  "jie1 jin4 ": 4907,
  "chang2 qi1 ": 4908,
  " xin1 wen2 ": 4909,
  " wei2 er3 ": 4910,
  "gao1 su4": 4911,
  "ling4 wai4 ": 4912,
  "tai4 yang2 ": 4913,
  "   xing2 zheng4 qu1 hua4 ": 4914,
  "ren4 ming4": 4915,
  " jia1 shang4 ": 4916,
  "bi3 sai4 zhong1 ": 4917,
  "guo1 ": 4918,
  "yuan4 zhang3 ": 4919,
  "dian3 de ": 4920,
  "ji3 yu3 ": 4921,
  "xi1 yang2 ": 4922,
  " yi3 hou4 ": 4923,
  " bian4": 4924,
  " jun1 wei4 ": 4925,
  "min2 de ": 4926,
  "shuo4 shi4 ": 4927,
  "c ": 4928,
  " de2 de ": 4929,
  "wei1 lian2 ": 4930,
  "wei3 shu1 ji4 ": 4931,
  " yi4 ren2 ": 4932,
  "jia1 he2 ": 4933,
  "1992 nian2 ": 4934,
  " xiao4 ": 4935,
  "dao3 yu3 ": 4936,
  "pi1 zhun3 ": 4937,
  "dai4 you3 ": 4938,
  "heng1 li4 ": 4939,
  " guang3 ": 4940,
  " shi4 yi1 wei4 ": 4941,
  " xue2 xiao4": 4942,
  "can1 yu4": 4943,
  " wei4 fu2 qi2 yu2 ": 4944,
  " 7 yue4 ": 4945,
  "ci4 shi4 jie4 da4 zhan4 ": 4946,
  " shi4 qu1 ": 4947,
  "fa1 chu1 ": 4948,
  "quan4 ": 4949,
  "xing4 zhi4 ": 4950,
  "yan3 chang4 hui4 ": 4951,
  " yuan2 yin1 ": 4952,
  "tao3 lun4 ": 4953,
  " formula ": 4954,
  "tui4 yi4 ": 4955,
  "feng1 bao4 ": 4956,
  "bi3 ya4 ": 4957,
  "ji1 zhi4 ": 4958,
  "xin4 hao4 ": 4959,
  "ya4 de ": 4960,
  "neng2 gou4": 4961,
  "   yi4 ": 4962,
  "shou4 shang1 ": 4963,
  " jian4 cheng2 ": 4964,
  "lian2 xi4 ": 4965,
  " meng2 ": 4966,
  "wei4 zhi4 ": 4967,
  "K ": 4968,
  "   2017": 4969,
  "bao3 chi2 ": 4970,
  "bi4 xu1": 4971,
  " ru2 guo3": 4972,
  "ru2 he2 ": 4973,
  " ti3 zhang3 ke3 da2 ": 4974,
  " hui2 ": 4975,
  "zhuan1 jia1 ": 4976,
  " er3 te4 ": 4977,
  "fu1 ren2 ": 4978,
  "jiang3 xiang4 ": 4979,
  "cha1 yi4 ": 4980,
  " tuo1 ": 4981,
  "wo1 ": 4982,
  " ji1 gou4": 4983,
  "shou4 yu3 ": 4984,
  " zai4 yu2 ": 4985,
  " de yi1 zuo4 ": 4986,
  " jing1 guo4 ": 4987,
  " tong1 chang2 ": 4988,
  " 2010 nian2 ": 4989,
  "wang3 lu4 ": 4990,
  "jing1 ying2 ": 4991,
  " 12 yue4 ": 4992,
  " min2 guo2 ": 4993,
  "tan1 ": 4994,
  "gong4 chan3 dang3": 4995,
  "dian4 tai2 ": 4996,
  " ci2 ": 4997,
  "dong1 xi1 ": 4998,
  " ke4 li3 ": 4999,
  " sheng1 chan3 ": 5000,
  " bu4 li3 ": 5001,
  " 21 ": 5002,
  " yi3 xia4": 5003,
  "sui2 hou4 ": 5004,
  "cun1 zhuang1 ": 5005,
  " 11 yue4 ": 5006,
  "lai2 dao4 ": 5007,
  " zhi1 zhong1 ": 5008,
  "xi4 lie4": 5009,
  "bi4 ye4 yu2 ": 5010,
  "xun4 lian4": 5011,
  "cuo4 shi1 ": 5012,
  "fa3 de ": 5013,
  "15 ": 5014,
  " yi4 shu4": 5015,
  "zong3 du1 ": 5016,
  "50 ": 5017,
  "zhu4 ming2 de ": 5018,
  " shi4 you3 ": 5019,
  "lang4 ": 5020,
  " jian4 dui4 ": 5021,
  "kuai4 su4 ": 5022,
  "zhu4 yu2 ": 5023,
  " chang2": 5024,
  "1994 nian2 ": 5025,
  " shi2 ren4 ": 5026,
  " yi1 sheng1 ": 5027,
  "gu1 ji4 ": 5028,
  "hai2 zi ": 5029,
  " er3 he2 ": 5030,
  "tai4 ping2 yang2 ": 5031,
  "yan2 ge2 ": 5032,
  " zhu1": 5033,
  "   2016": 5034,
  "tong2 yi4 ": 5035,
  "le da4 ": 5036,
  "sheng1 wei4 ": 5037,
  "she2 ": 5038,
  "dao3 shi4 ": 5039,
  "cheng2 gong1 ": 5040,
  "si4 ge4 ": 5041,
  "fa1 dian4 ": 5042,
  " jie2 mu4 ": 5043,
  " rang4 ": 5044,
  " shang4 hai3": 5045,
  "zhan4 zhong1 ": 5046,
  " de qian2 ": 5047,
  " ren2 lei4 ": 5048,
  "jie2 shu4 hou4 ": 5049,
  " gui1 ": 5050,
  " de2 yi3 ": 5051,
  "pu3 tong1 ": 5052,
  " de shi2 qu1 wei4 ": 5053,
  "   J": 5054,
  "yu3 zhong1 ": 5055,
  " zheng4 ce4 ": 5056,
  " ming2 cheng1 ": 5057,
  "che4 xiao1 ": 5058,
  " huo3 ": 5059,
  "shang3 ": 5060,
  "tou2 piao4 ": 5061,
  " tw": 5062,
  "   zhi4 ": 5063,
  "di3 da2 ": 5064,
  " yin4 du4 ": 5065,
  " jin3 guan3": 5066,
  "zhai2 ": 5067,
  "ju2 zhang3 ": 5068,
  " de shi2 jian1 ": 5069,
  "geng4 jia1 ": 5070,
  "miao3 ": 5071,
  "fan3 hui2 ": 5072,
  "1995 nian2 ": 5073,
  "zhe4 xie1": 5074,
  " wei4 sheng1 ": 5075,
  "zu3 cheng2 de ": 5076,
  " sheng4": 5077,
  "yue4 tai2 ": 5078,
  " ping2 tai2 ": 5079,
  "guang3 xi1 ": 5080,
  "fei3 ": 5081,
  "ha1 er3 ": 5082,
  "hans ": 5083,
  "kuo4 da4 ": 5084,
  " hans ": 5085,
  "yi4 zhong1 ": 5086,
  "deng1 lu4 ": 5087,
  " yang2": 5088,
  "rong2 yu4 ": 5089,
  " tw ": 5090,
  "yue4 shi2 ": 5091,
  "fa1 de ": 5092,
  "zhong4 da4 ": 5093,
  " fang1 ": 5094,
  "lu4 yi4 ": 5095,
  "que4 ding4 ": 5096,
  " qi1": 5097,
  " qian2": 5098,
  "   I": 5099,
  "zhi3 zai4 ": 5100,
  "al ": 5101,
  " shi4 yan3 ": 5102,
  " gai3": 5103,
  "ye4 hou4 ": 5104,
  "25 ": 5105,
  " bu4 ke3 ": 5106,
  " bing4 mei2 you3 ": 5107,
  " sa4 ": 5108,
  " ci3 shi2 ": 5109,
  "   de shi2 ": 5110,
  "jin4 xing2": 5111,
  "qi4 che1 ": 5112,
  " s": 5113,
  " wang3 ": 5114,
  " a1 er3 ": 5115,
  " xue2 xi2 ": 5116,
  " cheng1": 5117,
  "wan3 shang4 ": 5118,
  "jiao4 qu1 ": 5119,
  "xiao1 shou4 ": 5120,
  " mu4 qian2": 5121,
  "ming2 cheng1 ": 5122,
  "gai3 bian1": 5123,
  "ya4 li4 shan1": 5124,
  " 189": 5125,
  "wu4 zhong3": 5126,
  "guan1 zhong4 ": 5127,
  " guo2 wu4 ": 5128,
  " zhi1 yuan2 ": 5129,
  "yuan4 de ": 5130,
  " zhong1 de ": 5131,
  "   2023": 5132,
  "ba1 xi1 ": 5133,
  " gong1 ye4": 5134,
  "ru4 kou3 ": 5135,
  "ba1 li2 ": 5136,
  " huo4 zhe3 ": 5137,
  "xiang1 tong2 ": 5138,
  "ban3 de ": 5139,
  "   2014": 5140,
  "xue2 he2 ": 5141,
  "sun3 shi1 ": 5142,
  "biao3 xian4": 5143,
  "nai3 ": 5144,
  " shi2 xian4 ": 5145,
  "xi1 la4": 5146,
  "guan1 zhu4 ": 5147,
  "fa1 xian4 le ": 5148,
  "kan4 dao4 ": 5149,
  "qi1 zi3 ": 5150,
  " ceng2 ren4 ": 5151,
  "po4 huai4 ": 5152,
  " lv4 ": 5153,
  "qiang3 ": 5154,
  "and   ": 5155,
  " bing4 yi3 ": 5156,
  "pan1 ": 5158,
  "xiong1 ya2": 5159,
  " 6 yue4 ": 5160,
  "   suo3 shu3 de sheng3 ji2 xuan3 qu1 wei4 ": 5161,
  "   de you2 zheng4 bian1 ma3 wei4 ": 5162,
  "   yu3 jie1 rang3 de shi4 zhen4 ": 5163,
  "   yu2 shi2 de ren2 kou3 shu4 liang4 wei4 ren2 ": 5164,
  "   de shi2 qu1 wei4 ": 5165,
  "zhuang1 zhi4 ": 5166,
  "zhi2 wei4 ": 5167,
  "22 ": 5168,
  " 2011": 5169,
  "ji4 he2 ": 5170,
  "kai1 fang4": 5171,
  " zuo4 yong4 ": 5172,
  " quan2 zhang3 ": 5173,
  "tu2 zhong1 ": 5174,
  "su1 lian2": 5175,
  " xia4": 5176,
  "can2 ": 5177,
  "xu1 qiu2 ": 5178,
  "lin2 de ": 5179,
  " zhi1 ming2 ": 5180,
  "le   ": 5181,
  " si1 la1 ": 5182,
  "shi2 wei4 ": 5183,
  "heng2 xing1 ": 5184,
  "mu3 qin1 ": 5185,
  "tui1 dong4 ": 5186,
  "wei2 de ": 5187,
  " shi4 zhang3 ": 5188,
  " quan2 bu4 ": 5189,
  "   ji1 ": 5190,
  "ru4 qin1 ": 5191,
  " chuang4 ": 5192,
  "tai2 bei3 ": 5193,
  "guan3 li3": 5194,
  " 2019": 5195,
  "fu4 de ": 5196,
  " jia1 ting2 ": 5197,
  "ru2 ci3 ": 5198,
  " hk": 5199,
  "yi2 dong4 ": 5200,
  "yu3 he2 ": 5201,
  " yi1 dai4 ": 5202,
  "jin4 shi4 ": 5203,
  " chu1 xian4 zai4 ": 5204,
  "fu4 qin1 ": 5205,
  "zhe4 jiang1 ": 5206,
  " nian2 qing1": 5207,
  "xiong1 ya2 li4 ": 5208,
  "   2015": 5209,
  "mu4 si1 ": 5210,
  "1991 nian2 ": 5211,
  " ren2 shu4 ": 5212,
  " dan4 ta1 ": 5213,
  " xi1 ban1 ya2": 5214,
  "min2 zu2": 5215,
  "guang3 bo1": 5216,
  "zui4 chu1 ": 5217,
  "tai2 de ": 5218,
  "16 ": 5219,
  " di4 qiu2 ": 5220,
  " shi4 zhi3 ": 5221,
  " xiang3": 5222,
  "ti2 sheng1 ": 5223,
  "fei1 jian4 zhi4 ": 5224,
  " gan1 ": 5225,
  "G ": 5226,
  " che1 zhan4 ": 5227,
  " 5 yue4 ": 5228,
  "shu4 xue2 ": 5229,
  "xun4 su4 ": 5230,
  " hk ": 5231,
  " si1 tan3 ": 5232,
  " duan4 ": 5233,
  " wei4 he2 ": 5234,
  " bing4 li4 ": 5235,
  " cheng2 wei2 le ": 5236,
  "   2013": 5237,
  " jin3": 5238,
  "niu3 yue1 ": 5239,
  "fa1 xing2": 5240,
  "zong3 bu4 ": 5241,
  " jin4 ru4": 5242,
  "te4 li3 ": 5243,
  "kang4 ri4 ": 5244,
  " he2 xin1 ": 5245,
  " ge4 zhong3 ": 5246,
  " jing1": 5247,
  "gao3 ": 5248,
  "ming2 yi4 ": 5249,
  " ji2 qi2": 5250,
  "fa1 sheng1": 5251,
  "shou1 lu4 ": 5252,
  " shi4 ren2 ": 5253,
  "jiao4 de ": 5254,
  "mang2 ": 5255,
  "lan2 ke4 ": 5256,
  "cai2 zheng4 ": 5257,
  "chang4 pian4 ": 5258,
  "   nian2 ": 5259,
  " zuo4 pin3": 5260,
  "sa4 ke4 ": 5261,
  " ji4 zai3 ": 5262,
  " zhong1 wen2 ": 5263,
  "jue2 sai4": 5264,
  "jin4 gong1 ": 5265,
  " shi4 ji2 ": 5266,
  "qi3 yi4 ": 5267,
  "can1 yi4 ": 5268,
  "23 ": 5269,
  "   in": 5270,
  "can1 kao3 ": 5271,
  "zhuang4 kuang4 ": 5272,
  " mian4 ": 5273,
  " xian4 yu2 ": 5274,
  " zao4 cheng2 ": 5275,
  "lv4 wei4 ": 5276,
  "   zhong1 guo2 ": 5277,
  "le ta1 ": 5278,
  "zeng1 zhang3 ": 5279,
  "gao1 du4 ": 5280,
  "chan3 pin3": 5281,
  "fei1 jian4 zhi4 di4 qu1 ": 5282,
  "N ": 5283,
  "13 ": 5284,
  "zhan4 dou4 ": 5285,
  " zhuan3 ": 5286,
  "dou1 hui4 ": 5287,
  "sui1 ran2 ": 5288,
  " he2 bing4 ": 5289,
  " ji4 suan4": 5290,
  " sheng1 huo2": 5291,
  "wang2 de ": 5292,
  "zhong4 dian3 ": 5293,
  " e2 luo2 si1 ": 5294,
  "diao4 cha2": 5295,
  "chai1 ": 5296,
  " da4 lou2 ": 5297,
  "hai3 dao4 ": 5298,
  "chang4 pian4": 5299,
  " ren2 men ": 5300,
  " huang2": 5301,
  "wei1 xie2 ": 5302,
  "ao4 di4 li4 ": 5303,
  " he2 zhong1 ": 5304,
  "shang4 shu1 ": 5305,
  " wei2 qi2 ": 5306,
  "ling3 dao3 ren2 ": 5307,
  "kan3 ": 5308,
  "jing1 shen2 ": 5309,
  " xiang1 guan1 ": 5310,
  "jia1 zhong1 ": 5311,
  "liang3 ren2 ": 5312,
  " yin1 er2 ": 5313,
  "yue4 zai4 ": 5314,
  " bu4 duan4 ": 5315,
  "can1 jia1 le ": 5316,
  "hua4 wei4 ": 5317,
  "jiang1 xi1 ": 5318,
  "ying2 yun4 ": 5319,
  " de cheng2 yuan2 ": 5320,
  "jie2 ke4 ": 5321,
  "tu2 shu1 guan3 ": 5322,
  " he2 cheng2 ": 5323,
  "zhu3 chi2 ": 5324,
  " zhong1 guo2 gong4 chan3 dang3 ": 5325,
  " hou4": 5326,
  "ju4 de ": 5327,
  "na4 li3 ": 5328,
  " 4 yue4 ": 5329,
  "min2 zhong4 ": 5330,
  "on   ": 5331,
  "1988 nian2 ": 5332,
  "jin4 ru4": 5333,
  "zi4 dong4 ": 5334,
  "mou3 xie1 ": 5335,
  "shen1 wei4 ": 5336,
  "ju1 zhu4 ": 5337,
  "xia4 ji4 ao4 lin2 pi3 ke4 yun4 dong4 hui4 ": 5338,
  "yin1 shi4 ": 5339,
  "dao1 ": 5340,
  "zhan4 dou4": 5341,
  "tion ": 5342,
  "shi2 jian1 ": 5343,
  " hua2": 5344,
  "chan3 sheng1 de ": 5345,
  " zai4 jia1 ": 5346,
  " you3 shi2 ": 5347,
  "   zh ": 5348,
  "shuo1 ming2 ": 5349,
  "yin3 fa1 ": 5350,
  " zheng4 zhuang4 ": 5351,
  "jiang1 su1 ": 5352,
  " 20": 5353,
  " dao3 ": 5354,
  "1993 nian2 ": 5355,
  " huo4 de2 le ": 5356,
  " fang2 ": 5357,
  " zhi1 xia4 ": 5358,
  " shi4 wei1 ": 5359,
  "xiao3 shuo1": 5360,
  " xiao3": 5361,
  " qiao2 ": 5362,
  " xu3 duo1 ": 5363,
  " wei3 ": 5364,
  "   jia1 zu2 ": 5365,
  " zuo3 ": 5366,
  " shi4 zhen4": 5367,
  " gong1 ren2 ": 5368,
  "ding4 le ": 5369,
  "or ": 5370,
  "you1 shi4 ": 5371,
  "lan2 qiu2 ": 5372,
  " da4 duo1 ": 5373,
  "zhou1 de ": 5374,
  "ji4 shi2 ": 5375,
  " xiang4 mu4 ": 5376,
  "xian3 de ": 5377,
  "zi1 xun4 ": 5378,
  "ao4 yun4 hui4 ": 5379,
  "cui4 ": 5380,
  "su4 de ": 5381,
  " da4 xing2 ": 5382,
  " xuan1 bu4 ": 5383,
  " tian1": 5384,
  " 2018": 5385,
  " yue4 nan2 ": 5386,
  "chuang1 ": 5387,
  "xiang4 mu4": 5388,
  " ji2 li4 ": 5389,
  " zhong1 hua2 ": 5390,
  "xiang1 dang1 ": 5391,
  "   19": 5392,
  "qu3 de2": 5393,
  "yuan2 zai4 ": 5394,
  " bu4 men2": 5395,
  "jie2 hun1 ": 5396,
  " lai2 zi4 ": 5397,
  " dan4 you2 yu2 ": 5398,
  "fang3 wen4 ": 5399,
  "zhi2 dao4 ": 5400,
  "sui1 ran2": 5401,
  " li3 lun4 ": 5402,
  "jiao4 wei2 ": 5403,
  " shi4 wei4 le ": 5404,
  "pin3 pai2 ": 5405,
  "xi2 wei4 ": 5406,
  " di4 wu3 ": 5407,
  "can1 jia1": 5408,
  " yue4 tai2 ": 5409,
  "zhong1 wei4 ": 5410,
  " du2 ": 5411,
  "zhen1 shi2 ": 5412,
  "zhong1 hua2 ren2 min2 gong4 he2 guo2 ": 5413,
  "you3 bu4 ": 5414,
  "yin4 di4 ": 5415,
  "zhou4 ": 5416,
  "mei3 shu4 ": 5417,
  " C ": 5418,
  "xue2 shu4 ": 5419,
  " pei4 ": 5420,
  "xing1 qi1 ": 5421,
  "ming4 ling4 ": 5422,
  " ou1 ": 5423,
  " de gong1 zuo4 ": 5424,
  "2020 nian2 mei3 guo2 ren2 kou3 pu3 cha2 de shu4 ju4 ": 5425,
  "jian4 she4 ": 5426,
  "ju3 xing2": 5427,
  "wu3 zhuang1 ": 5428,
  " lao3 ": 5429,
  "fang2 yu4 ": 5430,
  " ren4 wu4 ": 5431,
  "tiao2 zheng3 ": 5432,
  "b ": 5433,
  "   2025": 5434,
  "yi2 chan3 ": 5435,
  "bao4 dao3 ": 5436,
  "ao4 men2 ": 5437,
  " shi2 yi1 ": 5438,
  "ti1 ": 5439,
  "ti2 gao1 ": 5440,
  "yun3 xu3 ": 5441,
  " jia1 ru4": 5442,
  " zhi1 hou4": 5443,
  "han2 shu4 ": 5444,
  "1990 nian2 ": 5445,
  "fei1 lv4 ": 5446,
  "wa3 er3 ": 5447,
  "yi3 lai2 ": 5448,
  "le ta1 de ": 5449,
  "hui4 yuan2 ": 5450,
  " shi2 qi1": 5451,
  "ji4 lu4 ": 5452,
  " ji1 guan1 ": 5453,
  "du1 shi4 ": 5454,
  "le yi2 ge4 ": 5455,
  "yi2 min2 ": 5456,
  "hua4 jia1 ": 5457,
  "ji1 chang3 ": 5458,
  "shu1 de ": 5459,
  "ju4 li2 ": 5460,
  "shu4 zi4 ": 5461,
  " fu4 ze2": 5462,
  "yong4 hu4 ": 5463,
  " shi4 yi1 zhong3": 5464,
  "jin1 de ": 5465,
  " ren2 lei4": 5466,
  " zheng4": 5467,
  " zhou1 nian2 ": 5468,
  "hong1 zha4": 5469,
  " zi4 ji3 de ": 5470,
  "er   ": 5471,
  "jie1 ji2 ": 5472,
  "duan4 de ": 5473,
  "du1 jiao4 ": 5474,
  "li4 shi4 ": 5475,
  "ke4 li3 ": 5476,
  "   2024": 5477,
  "yan2 de ": 5478,
  "su2 ": 5479,
  "ying2 de ": 5480,
  "hua1 yuan2 ": 5481,
  "shan1 mai4": 5482,
  " zhuang1 ": 5483,
  "sheng1 ji2 ": 5484,
  "yue1 you3 ": 5485,
  " shi4 da4 ": 5486,
  "wen2 zi4 ": 5487,
  "chu1 ban3 ": 5488,
  "mian4 dui4 ": 5489,
  "yao1 qing3 ": 5490,
  " 2011 nian2 ": 5491,
  "dong1 ji4 ": 5492,
  " hong2": 5493,
  "deng3 wei4 ": 5494,
  "zi1 jin1 ": 5495,
  " liang2 ": 5496,
  " li4 shi3": 5497,
  "wu3 tai2 ": 5498,
  "xiao4 guo3 ": 5499,
  " yu2 18": 5500,
  " she4 ji2 ": 5501,
  " sui4 de ": 5502,
  " wen2": 5503,
  " xu2": 5504,
  " zhi4 shi2 ": 5505,
  " zhi4 li4 ": 5506,
  "gao1 deng3 ": 5507,
  " 2016": 5508,
  " ding4 ": 5509,
  " suo3 yi3": 5510,
  " cheng1 wei2 ": 5511,
  "yuan2 ji2 ": 5512,
  " ren2 min2": 5513,
  " he2 lan2 ": 5514,
  " 2005 nian2 ": 5515,
  "dong4 zuo4 ": 5516,
  "shen1 qing3 ": 5517,
  " xian4 he2 ": 5518,
  " bian1": 5519,
  " 3 yue4 ": 5520,
  "o   ": 5521,
  " zhuan3": 5522,
  "mei3 guo2 de ": 5523,
  "liang3 zhong3 ": 5524,
  " 2008 nian2 ": 5525,
  "jiao4 lian4 ": 5526,
  " ming2 chao2 zheng4 zhi4 ren2 wu4 ": 5527,
  " jiu3": 5528,
  "   zao3 nian2 ": 5529,
  " ri4 jun1 ": 5530,
  "xia4 ling4": 5531,
  " wan4 mei3 yuan2 ": 5532,
  " han2 guo2 ": 5533,
  "   xin1 ": 5534,
  "ling3 tu3 ": 5535,
  "ba2 ": 5536,
  " yuan2 ming2 ": 5537,
  "nu3 li4 ": 5538,
  "zheng4 ming2 ": 5539,
  "   hou4 ": 5540,
  "lie4 biao3 ": 5541,
  "lu4 jun1": 5542,
  " zhong1 yu2 ": 5543,
  "zuo4 yong4 ": 5544,
  "jing1 chang2 ": 5545,
  " xie2 ": 5546,
  "qu1 yu4": 5547,
  " zhao1": 5548,
  "you3 zai4 ": 5549,
  " yi4 yi4 ": 5550,
  "ying3 pian4": 5551,
  "2 ren2 ": 5552,
  " yuan2 gong1 ": 5553,
  " jin4 xing2": 5554,
  " nan2 zhi4 ": 5555,
  "   you2 ": 5556,
  " guo2 hui4 ": 5557,
  " gong1 hui4 ": 5558,
  "guan1 xi4": 5559,
  " shang4": 5560,
  " ju4": 5561,
  "ST ": 5562,
  " ji4 zhe3 ": 5563,
  "hui2 ying4 ": 5564,
  "li3 lun4 ": 5565,
  "yong4 zuo4 ": 5566,
  "nei4 lu4 ": 5567,
  "zhao3 dao4 ": 5568,
  "1984 nian2 ": 5569,
  "wang2 chao2": 5570,
  "jing1 li3 ": 5571,
  "lv3 xing2 ": 5572,
  "shen2 jing1 ": 5573,
  " shi4 hou4 ": 5574,
  "jiu3 dian4 ": 5575,
  " gong1 chang3 ": 5576,
  "fu4 jin4 ": 5577,
  "yu2 zai4 ": 5578,
  " chi4 ": 5579,
  "gui1 ze2 ": 5580,
  "tai4 ren2 ": 5581,
  " he2 gong1 ": 5582,
  "bao3 chi2": 5583,
  "qi4 xiang4 ": 5584,
  "ke3 yi3 zai4 ": 5585,
  "V ": 5586,
  "sui4 dao4 ": 5587,
  "zhi1 jian1 ": 5588,
  "ti2 dao4 ": 5589,
  " Ch": 5590,
  " xiu1 ": 5591,
  " cheng2 xian4 ": 5592,
  " nian2 1 yue4 1 ri4 ": 5593,
  " li3": 5594,
  " shi1": 5595,
  " ji1 che1 ": 5596,
  " wo3 men ": 5597,
  " shi2 er4 ": 5598,
  "ai1 ji2 ": 5599,
  "1989 nian2 ": 5600,
  " jue2": 5601,
  " bo2": 5602,
  "ge2 wei4 ": 5603,
  "shou3 ji1 ": 5604,
  " guo2 fang2": 5605,
  "kong1 zhong1 ": 5606,
  " nian2 shi4 jie4 ": 5607,
  "shou3 du1 ": 5608,
  " luo2": 5609,
  "zhu4 li3 ": 5610,
  "bei4 shi4 wei4 ": 5611,
  "tong1 dao4 ": 5612,
  "kong3 bu4 ": 5613,
  "qi2 zhong1 yi1 zhong3 ": 5614,
  " tian2 ": 5615,
  "zuo4 wei4 ": 5616,
  "14 ": 5617,
  " de zhi4 ": 5618,
  " pei4": 5619,
  "   p": 5620,
  "li4 wei4 ": 5621,
  "shu1 ji2 ": 5622,
  " er2 cheng2 ": 5623,
  " bi3": 5624,
  "ji1 he2 ": 5625,
  " 188": 5626,
  "dong1 nan2 bu4 ": 5627,
  " ying1": 5628,
  "yi3 xia4 ": 5629,
  "xin1 jia1 po1": 5630,
  "yan3 yi4 ": 5631,
  " xi1 wang4": 5632,
  "da4 lu4 de ": 5633,
  "qi3 ye4": 5634,
  " fan3": 5635,
  " zuo4 wei2": 5636,
  "gu4 wen4 ": 5637,
  "dai4 li3 ": 5638,
  " de jia1 ": 5639,
  "jin1 shu3 ": 5640,
  "jin4 yi2 bu4 ": 5641,
  "fen1 zhong1 ": 5642,
  "10 nian2 ": 5643,
  " hen3 ": 5644,
  "lao2 dong4 ": 5645,
  "zhu3 chi2": 5646,
  "jiao4 xue2 ": 5647,
  "biao3 mian4 ": 5648,
  " lei2 ": 5649,
  " ying1 yu3 ": 5650,
  " 30": 5651,
  " s   ": 5652,
  "meng3 ": 5653,
  "cai2 liao4 ": 5654,
  "ni1 ": 5655,
  " xuan3 ": 5656,
  "   3": 5657,
  " he2 xi1 ": 5658,
  " bu4 bu4 ": 5659,
  " he2 shi2 ": 5660,
  " you3 ji1 ": 5661,
  "chao2 xian1": 5662,
  " 2001 nian2 ren2 kou3 ": 5663,
  "3 ren2 ": 5664,
  " guan1": 5665,
  "dao4 lu4 ": 5666,
  "hua2 ren2 ": 5667,
  " zai4 wei4 ": 5668,
  "wo3 men": 5669,
  " bei3 qi3 ": 5670,
  "bao3 liu2 ": 5671,
  "jing4 de ": 5672,
  "si3 hou4 ": 5673,
  "bo1 lan2": 5674,
  "tong1 che1 ": 5675,
  "si1 li4 ": 5676,
  " zhong1 guo2 da4 lu4 ": 5677,
  "bai2 se4 ": 5678,
  "ya4 li4 shan1 da4 ": 5679,
  " zhong3 ": 5680,
  "hui4 shi4 ": 5681,
  " yi3 bei4 ": 5682,
  " tu3 ": 5683,
  "ne ": 5684,
  "ju1 min2": 5685,
  "zhu3 li4 ": 5687,
  " ping2 mian4 ": 5688,
  "ni2 ke4 ": 5689,
  " ta1 wei4 ": 5690,
  "yin3 qi3 ": 5691,
  " wan4 yuan2 ": 5692,
  " 2021": 5693,
  "zhu3 de ": 5694,
  " zhi1 jian1": 5695,
  "yin3 qi3": 5696,
  "m   ": 5697,
  " si1 te4": 5698,
  "fa3 an4 ": 5699,
  "zhao4 kai1 ": 5700,
  "nv3 zi3": 5701,
  " xian4 de yi2 ge4 ": 5702,
  " dao4 da2 ": 5703,
  " nv3 xing4 ": 5704,
  "zhai4 ": 5705,
  " dong1 nan2 ": 5706,
  "yun4 zuo4 ": 5707,
  "   of   ": 5708,
  "yi2 zhi3 ": 5709,
  "wei4   ": 5710,
  "jiao1 hui4 ": 5711,
  "   2012": 5712,
  "shou3 ge4 ": 5713,
  "jie4 de ": 5714,
  "tui4 chu1 ": 5715,
  "di4 er4 ": 5716,
  " er2 yan2 ": 5717,
  " xian4 de yi2 ge4": 5718,
  " bei4 ren4 wei2 shi4 ": 5719,
  "ceng2 jing1": 5720,
  "li4 zai4 ": 5721,
  "zha2 ": 5722,
  " ji1 hu1": 5723,
  " ke4 cheng2 ": 5724,
  "wen2 zhang1 ": 5725,
  "ji3 ge4 ": 5726,
  " shi4 jia1 ": 5727,
  " you3 yi4 ": 5728,
  "te4 shu1 ": 5729,
  " xi1 si1 ": 5730,
  "xiang1 guan1": 5731,
  "shi1 fan4": 5732,
  " fu4 qin1 ": 5733,
  "wu2 fa3": 5734,
  "can1 mou2": 5735,
  "jin1 hui4 ": 5736,
  "1985 nian2 ": 5737,
  "jiao4 shi1 ": 5738,
  "   xia4 ": 5739,
  "fei1 zhou1 ": 5740,
  "lv4 shi1 ": 5741,
  "leng3 ": 5742,
  " shi4 yu3 ": 5743,
  "xi1 ban1 ya2": 5744,
  "da4 wei4 ": 5745,
  "wei1 ji1 ": 5746,
  " yi1 ji2 ": 5747,
  "chang2 de ": 5748,
  " bu4 de2": 5749,
  " ta1 men zai4 ": 5750,
  " yi4 fang1 mian4 ": 5751,
  "fa3 yuan4": 5752,
  " er2 shui3 yu4 mian4 ji1 wei4 0": 5753,
  " feng2 ": 5754,
  " guo2 jia1 de ": 5755,
  "zhe3 zai4 ": 5756,
  " he2 qi2 ta1 ": 5757,
  "xi4 tong3 de ": 5758,
  "duo1 nian2 ": 5759,
  "ya4 zhou1": 5760,
  "che1 de ": 5761,
  "jin1 pai2 ": 5762,
  " zhi1 wei4 ": 5763,
  " bing4 jiang1 ": 5764,
  " zhu3 xi2 ": 5765,
  "kang1 xi1 ": 5766,
  "yao4 wu4 ": 5767,
  "1 ren2 ": 5768,
  "wen2 xian4 ": 5769,
  " cheng2 xu4 ": 5770,
  " 00 ": 5771,
  "ze2 wei4 ": 5772,
  "bian4 de2 ": 5773,
  "biao3 da2": 5774,
  " mei3 nian2 ": 5775,
  "da4 di4 ": 5776,
  " cheng2 ren4 ": 5777,
  "zhi2 min2": 5778,
  "guo4 qu4 ": 5779,
  "pu2 tao2 ya2": 5780,
  " ban1 ": 5781,
  " qu3 ": 5782,
  "huan1 ying2 ": 5783,
  " gang3 ": 5784,
  " ju4 you3 ": 5785,
  " zhi4 liao2 ": 5786,
  " si1 ke4 ": 5787,
  " jin4 xing2 le ": 5788,
  "   cheng2 ": 5789,
  "mu4 biao1": 5790,
  "fu2 yi4 ": 5791,
  "zhuang1 shi4 ": 5792,
  "ter ": 5793,
  "dong1 bei3 bu4 ": 5794,
  "gou4 zao4 ": 5795,
  "huo4 de2 le ": 5796,
  "bo2 wu4 guan3": 5797,
  "ao4 da4 li4 ya4 ": 5798,
  " hai3": 5799,
  "ben3 di4 ": 5800,
  "jiang1 hui4 ": 5801,
  " qiu2 yuan2 ": 5802,
  " fei4": 5803,
  " 100": 5804,
  " guan1 yu2 ": 5805,
  " er2 gai1 di4 ": 5806,
  "xian1 sheng1 ": 5807,
  " bu4 la1 ": 5808,
  " yu2 le4 ": 5809,
  "bo1 lan2 ": 5810,
  " li2": 5811,
  "1949 nian2 ": 5812,
  "jia1 ru4": 5813,
  "fang4 qi4 ": 5814,
  "jian4 yi4 ": 5815,
  " 2015": 5816,
  " wei4 you3 ": 5817,
  "yi4 da4 li4 ": 5818,
  "   U": 5819,
  "dang1 shi2 de ": 5820,
  " qi1 xi1 zai4 ": 5821,
  "mao2 ze2 ": 5822,
  "liang3 nian2 ": 5823,
  "xiao4 de ": 5824,
  "sa4 si1 ": 5825,
  " bing4 yu3 ": 5826,
  " da4 lu4 ": 5827,
  "guang3 gao4 ": 5828,
  " bai3 ": 5829,
  " zhu4": 5830,
  " wei4 lai2 ": 5831,
  " ban4 ": 5832,
  " yong1 you3 ": 5833,
  " 2007 nian2 ": 5834,
  "cheng1 zuo4 ": 5835,
  "fu4 qin1": 5836,
  "zi4 you2": 5837,
  " jian4 zao4 ": 5838,
  "liu2 zai4 ": 5839,
  "shou1 shi4 ": 5840,
  " de zheng4 ": 5841,
  " jin4 yi2 bu4 ": 5842,
  "   cong2 ": 5843,
  "nan2 jing1 ": 5844,
  " jin4 gong1 ": 5845,
  "sa4 er3 ": 5846,
  "luo2 di4 ": 5847,
  " shi4 zheng4 ": 5848,
  " fu4 qin1": 5849,
  "tian1 de ": 5850,
  "jin3 ji2 ": 5851,
  "xi4 ju4 ": 5852,
  " hao4 wei4 ": 5853,
  "es ": 5854,
  "ji4 xu4 ": 5855,
  " ji4 shu4": 5856,
  "tan3 ke4 ": 5857,
  "4 ren2 ": 5858,
  " ge2": 5859,
  " bing1 ": 5860,
  " ren2 men": 5861,
  " ri4 jun1": 5862,
  " qi3": 5863,
  " yi4 mei3 yuan2 ": 5864,
  "ci4 shi3 ": 5865,
  " 2013": 5866,
  " zai4 ci3": 5867,
  " te4 bie2 shi4 ": 5868,
  "que4 ren4 ": 5869,
  "huo3 jian4 ": 5870,
  " jia1 zu2 ": 5871,
  "piao4 fang2 ": 5872,
  "qing3 qiu2 ": 5873,
  " de sheng1 ": 5874,
  "jing3 fang1 ": 5875,
  "kao3 lv4": 5876,
  "bi3 li4 shi2 ": 5877,
  "1986 nian2 ": 5878,
  " shi4 ri4 ben3 ": 5879,
  " si1 tan3": 5880,
  "tai4 ping2 yang2": 5881,
  "zhan1 mu3 si1 ": 5882,
  " jie2 guo3": 5883,
  " 2014": 5884,
  "pai1 ": 5885,
  " chu1 sheng1 ": 5886,
  "di4 zai4 ": 5887,
  " yi3 you3 ": 5888,
  "tou2 piao4": 5889,
  "bian1 de ": 5890,
  "shang4 wu3 ": 5891,
  "ba1 li2": 5892,
  "wang2 chao2 ": 5893,
  " wo3 men": 5894,
  "nei4 you3 ": 5895,
  "wan2 gong1 ": 5896,
  " zhi4 cheng2 ": 5897,
  "guang3 dong1 sheng3 ": 5898,
  "   jie2 zhi4 ": 5899,
  " xi4 lie4 ": 5900,
  " gao1": 5901,
  "pai1 she4": 5902,
  " yuan2 ben3 ": 5903,
  "cheng2 nian2 ": 5904,
  "fen3 ": 5905,
  "chi1 ": 5906,
  "chang3 he2 ": 5907,
  "18 ": 5908,
  " qi2 zai4 ": 5909,
  " zhi1 zi ": 5910,
  "shen1 ti3 ": 5911,
  "meng2 gu3": 5912,
  " da4 yue1 ": 5913,
  " zhan4 dou4 ": 5914,
  " zhi1 de ": 5915,
  "gu3 fen4": 5916,
  "yan3 chang4 ": 5917,
  "xi2 xing4": 5918,
  "geng4 duo1 ": 5919,
  "guan1 bi4 ": 5920,
  "hu2 bei3 ": 5921,
  " yue1 han4 ": 5922,
  "deng1 shang4 ": 5923,
  " xian4 chang3 ": 5924,
  "   zeng1 ": 5925,
  "suo3 zai4 ": 5926,
  "min2 jian1 ": 5927,
  "qing2 bao4 ": 5928,
  "guang3 fan4": 5929,
  "mu3 qin1": 5930,
  "5 ren2 ": 5931,
  " deng4": 5932,
  " he4 ": 5933,
  "wai4 bu4 ": 5934,
  "zhong4 yi4 ": 5935,
  "mi4 mi4 ": 5936,
  " ying1 wen2 ": 5937,
  " h": 5938,
  " ti2 gong1 ": 5939,
  "xiao4 yuan2 ": 5940,
  " shi4 ye4 ": 5941,
  " zai4 qi2 ": 5942,
  "   2": 5943,
  "kao3 lv4 ": 5944,
  "e2 luo2 si1": 5945,
  "te4 se4 ": 5946,
  " jing1 ji4 ": 5947,
  " ai1 ": 5948,
  " you3 xian4 ": 5949,
  "sen1 lin2 ": 5950,
  "ma3 si1 ": 5951,
  " 2020": 5952,
  "wu4 yuan2 ": 5953,
  "an1 pai2 ": 5954,
  "xia4 yi1 ": 5955,
  "mei3 ge4 ": 5956,
  " quan2 qiu2 ": 5957,
  "er4 yue4 ": 5958,
  " da4 duo1 shu4 ": 5959,
  " bu4 jiu3": 5960,
  "zhuang1 bei4 ": 5961,
  "huan3 ": 5962,
  " da4 dao4 ": 5963,
  " 10 ": 5964,
  "neng2 zai4 ": 5965,
  " ji1 bai4": 5966,
  "tu3 er3 qi2 ": 5967,
  " wo4": 5968,
  "qian1 zhi4 ": 5969,
  "zeng4 ": 5970,
  " di4 yi1 ci4 ": 5971,
  " zui4 gao1 ": 5972,
  "chang3 di4 ": 5973,
  "min2 zhu3 dang3 ": 5974,
  "nan2 yi3 ": 5975,
  "xing4 qu4 ": 5976,
  "cun4 ": 5977,
  " shi2 yan4 ": 5978,
  "zuo4 zhan4 ": 5979,
  " ji2 bei3 ": 5980,
  " chu1 lai2 ": 5981,
  "tai2 feng1 ": 5982,
  "tian1 jin1 ": 5983,
  " can1 jia1 ": 5984,
  " 2017": 5985,
  "ban4 li3 ": 5986,
  " nian2   ": 5987,
  " zhi1 dao4 ": 5988,
  "tian1 jin1": 5989,
  " xun2 ": 5990,
  "long2 jiang1 ": 5991,
  " zhong1 shi4 ": 5992,
  "ling3 shi4 ": 5993,
  " bu4 zu2 ": 5994,
  "yong4 tu2 ": 5995,
  "li3 gong1 ": 5996,
  " tong1 chang2": 5997,
  "H ": 5998,
  " yuan2 su4 ": 5999,
  " gang1 ": 6000,
  "wei1 er3 ": 6001,
  "nong2 ye4": 6002,
  " qing1 chao2 ": 6003,
  "ai1 er3 ": 6004,
  " kang1 ": 6005,
  "chang2 jian4 de ": 6006,
  " cheng2 du4 ": 6007,
  "zhan4 ling3 ": 6008,
  "jin4 xing2 le ": 6009,
  " shi3 jian4 yu2 ": 6010,
  " lv3 ": 6011,
  "   ming2 ": 6012,
  "dao3 dan4 ": 6013,
  "xiu1 zheng4 ": 6014,
  "ma ": 6015,
  " yue4 tuan2 ": 6016,
  "zu3 jian4 ": 6017,
  "gui4 zhou1 ": 6018,
  " ta1 hai2 ": 6019,
  "fen1 bu4 yu2 ": 6020,
  "to   ": 6021,
  "ma3 lai2 xi1 ya4 ": 6022,
  "   xian4": 6023,
  "xi3 ju4 ": 6024,
  " gong1 zhu3 ": 6025,
  "zhang4 ai4 ": 6026,
  "xi2 xing4 bu4 ming2 ": 6027,
  " shi2 dai4": 6028,
  " f": 6029,
  " yan2": 6030,
  "xiang4 shi4 ": 6031,
  " chu1 qi1 ": 6032,
  " zhan4 dou4": 6033,
  " wen2 hua4 ": 6034,
  "te ": 6035,
  "hua2 sheng4 ": 6036,
  "sheng1 cheng2 ": 6037,
  "1987 nian2 ": 6038,
  " you3 xie1 ": 6039,
  "jiao1 liu2 ": 6040,
  "ren4 ming4 wei4 ": 6041,
  " sheng1 chan3": 6042,
  " yi4 qi3": 6043,
  "fa3 guan1 ": 6044,
  " ye3 jiu4 shi4 ": 6045,
  " shou1 ": 6046,
  "   ta1 ": 6047,
  " de fang1 shi4 ": 6048,
  " he2 he2 ": 6049,
  " sheng1 huo2 xi2 xing4 bu4 ming2 ": 6050,
  "she4 zhi4 ": 6051,
  "shou4 dao4": 6052,
  "ti2 chu1": 6053,
  "40 ": 6054,
  " heng2 ": 6055,
  "ji1 chu3 ": 6056,
  " ta1 ye3 ": 6057,
  " chu3 yu2 ": 6058,
  "hen3 da4 ": 6059,
  " tao2 ": 6060,
  "zhi4 zhong1 ": 6061,
  "tong2 nian2 ": 6062,
  "bao4 fa1": 6063,
  "zhu3 shi4 ": 6064,
  "1980 nian2 ": 6065,
  "ju4 jue2 ": 6066,
  " wan4 li4 ": 6067,
  "   mei3 guo2 ": 6068,
  "17 ": 6069,
  "se ": 6070,
  "ku3 ": 6071,
  "chuan2 shuo1 ": 6072,
  "chuang4 ban4": 6073,
  " gen1 ju4": 6074,
  "ling3 xiu4 ": 6075,
  "hua4 he2 wu4 ": 6076,
  " gong4": 6077,
  " yin2 ": 6078,
  " er2 bu2 shi4 ": 6079,
  "an1 zhuang1": 6080,
  " A ": 6081,
  " rui4 ": 6082,
  "ren4 shi2 ": 6083,
  "qiong2 ": 6084,
  "1982 nian2 ": 6085,
  "la1 ding1": 6086,
  "bao4 li4 ": 6087,
  "an1 na4 ": 6088,
  " yi1 xue2 ": 6089,
  " luo4": 6090,
  "zhi4 bu4 ": 6091,
  "wen2 yi4 ": 6092,
  "jia1 li4 fu2 ": 6093,
  " zhao4": 6094,
  " gong4 you3 ": 6095,
  "shu2 ": 6096,
  " you3 yi2 ge4 ": 6097,
  " xian4 xiang4 ": 6098,
  "shang4 ying4 ": 6099,
  " xuan1 ": 6100,
  "fa3 yu3 ": 6101,
  " zai4 nei4 de ": 6102,
  "c   ": 6103,
  "gao1 su4 ": 6104,
  "   li3 ": 6105,
  " zai4 du4 ": 6106,
  " er2 bu4 ": 6107,
  " pa4": 6108,
  "ji4 shi4 ": 6109,
  "yuan4 shi4 ": 6110,
  " wei4 xing1 ": 6111,
  "yan2 shen1": 6112,
  "hai3 an4 ": 6113,
  "chuang4 jian4 ": 6114,
  "bin1 hai3 ": 6115,
  "shun4 li4 ": 6116,
  " li3 lun4": 6117,
  " dong1 bei3 ": 6118,
  "wo3 men ": 6119,
  "   ci3 wai4 ": 6120,
  " 2013 nian2 ": 6121,
  " ka3": 6122,
  " han4": 6123,
  "lei2 si1 ": 6124,
  "ruan3 jian4 ": 6125,
  " sheng1 zhang3": 6126,
  "shu1 ru4 ": 6127,
  " you2 qi2 shi4 ": 6128,
  "tui1 jin4 ": 6129,
  " he2 bu4 ": 6130,
  "zi1 chan3 ": 6131,
  "nv3 xing4": 6132,
  "lun4 wen2 ": 6133,
  " xing2 zheng4": 6134,
  "wang3 luo4": 6135,
  "wang3 qiu2 ": 6136,
  "hai3 wai4 ": 6137,
  "zui4 gao1": 6138,
  "ping2 lun4 ": 6139,
  " bu4 luo4 ": 6140,
  " da4 sha4": 6141,
  " na4": 6142,
  "é ": 6143,
  "zhu3 yi4 de ": 6144,
  "bao4 gao4": 6145,
  " 2010": 6146,
  "1983 nian2 ": 6147,
  "ying4 yong4": 6148,
  "cai3 qu3 ": 6149,
  " 2012": 6150,
  "jiao4 shi4 ": 6151,
  "bian4 wei4 ": 6152,
  "15 nian2 ": 6153,
  "zu1 ": 6154,
  "ban3 ben3": 6155,
  "pai2 ming2 di4 ": 6156,
  " sai1 ": 6157,
  " 2006 nian2 ": 6158,
  "ju4 he2 ": 6159,
  " shu3": 6160,
  " wa3 ": 6161,
  "yu2 de ": 6162,
  "ze2 ren4 ": 6163,
  "fang1 mian4 de ": 6164,
  "tou2 zi1": 6165,
  "bo1 fang4 ": 6166,
  " bei3 jing1 ": 6167,
  "   qi2 ": 6168,
  "san1 shi4 ": 6169,
  " zai4 xi1 ": 6170,
  "ren2 da4 ": 6171,
  " de2 er3 ": 6172,
  " hou4 xuan3 ren2 ": 6173,
  "dian4 nao3": 6174,
  " ta3 ": 6175,
  "ma3 li3 ": 6176,
  "ge4 zhong3 ": 6177,
  "yin3 qing2 ": 6178,
  "1945 nian2 ": 6179,
  " shi4 min2 ": 6180,
  " he2 da4 ": 6181,
  "dian4 zi": 6182,
  " Ma": 6183,
  "ling3 di4 ": 6184,
  "21 nian2 ": 6185,
  " zai4 ci4": 6186,
  "fan4 wei2 nei4 ": 6187,
  "rao3 ": 6188,
  "   ju4 qing2 ": 6189,
  "   qian2 ": 6190,
  "xiang1 shi4 di4 ": 6191,
  "zhe4 li3 ": 6192,
  "13 nian2 ": 6193,
  " yu2 ren2 ": 6194,
  "zheng4 dang3 ": 6195,
  " ri4 bao4 ": 6196,
  " ling4 yi1 ": 6197,
  "xing2 cheng2 ": 6198,
  "fa1 xing2 de ": 6199,
  " ji1 hu1 ": 6200,
  "zhi2 jie1": 6201,
  " liang4 ": 6202,
  "feng1 wei4 ": 6203,
  "pai4 de ": 6204,
  "ce   ": 6205,
  " shi4 gu4 ": 6206,
  " zhi4 shao3 ": 6207,
  "xi4 bao1": 6208,
  "biao3 da2 ": 6209,
  "yuan4 yi4 ": 6210,
  " ta1 he2 ": 6211,
  "ju4 le4 bu4 ": 6212,
  "du2 li4 de ": 6213,
  "e2 guo2 ": 6214,
  " zhi1 fu4 ": 6215,
  "jiu3 long2 ": 6216,
  "dang1 xuan3 ": 6217,
  "he4 er3 ": 6218,
  "mian2 ": 6219,
  "zi4 ran2": 6220,
  " 30 ": 6221,
  " you3 xiao4 ": 6222,
  "   chu1 ": 6223,
  "   xian4 ": 6224,
  "bu2 ": 6225,
  "wen1 du4 ": 6226,
  "ji4 cheng2 ": 6227,
  "yun3 xu3": 6228,
  " yi1 xiao3 shi2 ": 6229,
  "huo3 shan1 ": 6230,
  " da4 xi1 yang2 ": 6231,
  "guo4 qu4": 6232,
  "pai2 hang2 ": 6233,
  "an1 de2 ": 6234,
  " dong1 lin2 ": 6235,
  "jiu4 du2": 6236,
  "jing3 cha2": 6237,
  "zhi1 chi2": 6238,
  "fang3 wen4": 6239,
  " yong4 yu2 ": 6240,
  "ming2 zi4 ": 6241,
  " zuo4 jia1 ": 6242,
  " lai2": 6243,
  " rong2 ": 6244,
  "dang3 yuan2 ": 6245,
  "xi3 huan1": 6246,
  "qu1 yi4 hui4 ": 6247,
  " da4 fu2 ": 6248,
  " de2 hua2 ": 6249,
  " 2012 nian2 ": 6250,
  "huan4 cheng2 ": 6251,
  "fang1 yan2 ": 6252,
  "biao3 yan3": 6253,
  "xian4 zhi4 ": 6254,
  "dou1 zai4 ": 6255,
  " di4 yi2 ge4 ": 6256,
  "st   ": 6257,
  "1 li4 ": 6258,
  " yu3 mao2": 6259,
  " chu1 zhan4 ": 6260,
  "bi3 ya4": 6261,
  "   di4 fang1 ": 6262,
  " bing4 bei4 ": 6263,
  " kong3 ": 6264,
  "qu1 he2 ": 6265,
  " yi1 tong2 ": 6266,
  "xun2 yang2": 6267,
  " zhong1 hua2 ren2 min2 gong4 he2 guo2 zheng4 zhi4 ren2 wu4 ": 6268,
  " shi4 yu2 ": 6269,
  "xiang1 dang1": 6270,
  "jing1 yan4 ": 6271,
  "tiao2 zheng3": 6272,
  " ying2 ": 6273,
  "pu3 bian4 ": 6274,
  " 7 ": 6275,
  " zhong1 bei4 ": 6276,
  "guan1 dian3 ": 6277,
  "jiang4 di1 ": 6278,
  "ke1 de qi2 zhong1 yi1 zhong3 ": 6279,
  "23 nian2 ": 6280,
  " gong1 yi4 ": 6281,
  " 0 ": 6282,
  " sheng1 yu2 ": 6283,
  "liang3 ming2 ": 6284,
  "han2 you3 ": 6285,
  "zhong4 duo1 ": 6286,
  "da4 zhi4 ": 6287,
  "dian3 li3 ": 6288,
  " shi4 gong1 ": 6289,
  "she3 ": 6290,
  " bing4 du2": 6291,
  "ya4 jun1 ": 6292,
  "cheng2 yuan2 ": 6293,
  " qi2 zhong1 yi1 ": 6294,
  "she4 qu1 ": 6295,
  " sai4 ji4 ": 6296,
  "kou3 wei4 ": 6297,
  " xian4 shi4 ": 6298,
  " ji4 suan4 ": 6299,
  "zhi1 qian2 ": 6300,
  "mi4 shu1 zhang3 ": 6301,
  " di4 si4": 6302,
  " sai4 ": 6303,
  "zuo4 shi4 ": 6304,
  "tiao2 li4 ": 6305,
  "nei4 ge2 ": 6306,
  "yi2 du4 ": 6307,
  "shu4 yu3 ": 6308,
  "wu2 zheng4 zhuang4 ": 6309,
  " xian4 ren4 ": 6310,
  "tu1 po4 ": 6311,
  " jiu4 shi4 ": 6312,
  "xie3 dao4 ": 6313,
  "dang4 tian1 ": 6314,
  " zu3 fu4 ": 6315,
  "gua4 ": 6316,
  " xing2 wei4 ": 6317,
  " ping2 jun1 ": 6318,
  " gong1 min2 ": 6319,
  "xing1 deng3 wei4 ": 6320,
  " tong2 yi4 ": 6321,
  "hong2 se4 ": 6322,
  " shuo1 ": 6323,
  "zheng4 bu4 ": 6324,
  "shan1 shi4 ": 6325,
  "wan2 zheng3": 6326,
  " bi3 sai4 ": 6327,
  "kai1 shi3 zai4 ": 6328,
  "7 ren2 ": 6329,
  "tuan2 de ": 6330,
  "gei3 le ": 6331,
  " ji1 jin1 ": 6332,
  "si3 wang2": 6333,
  "zheng3 ti3 ": 6334,
  " neng2 ": 6335,
  " cha2 ": 6336,
  "yi4 nian2 ": 6337,
  "ben3 ren2 ": 6338,
  "jue2 dui4 ": 6339,
  "lu3 si1 ": 6340,
  " liu4": 6341,
  " 500": 6342,
  " quan2 li4 ": 6343,
  "yi2 ding4 ": 6344,
  "ying1 wen2 ": 6345,
  "dai4 biao3 da4 hui4 ": 6346,
  "6 ren2 ": 6347,
  " reng2": 6348,
  " hao2 mi3 ": 6349,
  "   ji2 ": 6350,
  "chi2 you3 ": 6351,
  " shi4 bing1 ": 6352,
  "gai4 nian4": 6353,
  "huang2 hou4 ": 6354,
  " gong1 ju4 ": 6355,
  "she4 shi1 ": 6356,
  " zui4 chu1 ": 6357,
  "   2011": 6358,
  " sun1": 6359,
  "yang2 shi4 ": 6360,
  " zhe4 zhong3": 6361,
  "xia4 xia2 de yi2 ge4 ": 6362,
  "zhong3 zu2 ": 6363,
  "   a1 ": 6364,
  "zhi2 dao3 ": 6365,
  "ni2 er3 ": 6366,
  " de cheng2 ji4 ": 6367,
  "lai2 yue4 ": 6368,
  " ji2 ren2 ": 6369,
  "qi3 dong4 ": 6370,
  " sui4 shi2 ": 6371,
  "bao3 shou3 ": 6372,
  "tou2 xiang2 ": 6373,
  "gui4 zu2 ": 6374,
  " da2": 6375,
  "yue4 zhong1 ": 6376,
  "zhen4 qu1 de ": 6377,
  "zao3 qi1": 6378,
  "bo2 shi4 xue2 wei4 ": 6379,
  " xin4 ": 6380,
  "   1": 6381,
  "   qi2 ta1 ": 6382,
  "shan1 ji1 ": 6383,
  "kui4 ": 6384,
  " dian4 ying3 ": 6385,
  " wei2 er3": 6386,
  "jie4 shao4 ": 6387,
  " mei3 ge4 ": 6388,
  "yao1 qing3": 6389,
  "   2010": 6390,
  "gu3 dai4 ": 6391,
  "zhen3 ": 6392,
  "tang1 ": 6393,
  " ming2 dan1 ": 6394,
  "ming2 ren2 ": 6395,
  " de2 yu3 ": 6396,
  "shen2 me ": 6397,
  " yi1 zuo4 ": 6398,
  " yi3 ji2": 6399,
  " er2 gai1 ": 6400,
  "hei1 se4 ": 6401,
  " ren2 min2 zheng4 fu3 ": 6402,
  "en1 sheng3 ": 6403,
  "tou4 guo4": 6404,
  "3 ge4 ": 6405,
  " xiang3 nian2 ": 6406,
  "wu2 zheng4 zhuang4 gan3 ran3 ": 6407,
  "19 ": 6408,
  "sui2 zhu4 ": 6409,
  "sa1 ": 6410,
  "mu4 qian2": 6411,
  "huo2 yue4 ": 6412,
  "chang2 wu4 ": 6413,
  "chang2 wei3 ": 6414,
  "gai3 ming2 wei4 ": 6415,
  "que4 zhen3 bing4 li4 ": 6416,
  "ming2 zhi4 ": 6417,
  " ri4 yu2 ": 6418,
  "chu1 shen1 ": 6419,
  " fan1 ": 6420,
  "   In": 6421,
  "tun2 ": 6422,
  "dian4 hua4 ": 6423,
  "gao1 su4 gong1 lu4 ": 6424,
  " 2022": 6425,
  " bu4 si1 ": 6426,
  " ji1 si1 ": 6427,
  "tai4 zi ": 6428,
  "geng4 wei2 ": 6429,
  " bi3 ru2 ": 6430,
  "   gai1": 6431,
  "ke4 cheng2 ": 6432,
  "kun4 nan2 ": 6433,
  " bu4 li4 ": 6434,
  "ru4 xuan3 ": 6435,
  "zui4 duo1 ": 6436,
  "que1 fa2": 6437,
  "dan1 de ": 6438,
  "long2 de ": 6439,
  "yi3 jing1 ": 6440,
  " er4 shi2 ": 6441,
  "ti2 ji2 ": 6442,
  " wei4 yu2 zhong1 guo2 ": 6443,
  "sai1 er3 wei2 ": 6444,
  "hui4 zhong1 ": 6445,
  "shou1 ji2 ": 6446,
  " li4 fa3": 6447,
  "xue2 hui4 ": 6448,
  " bing4 fei1 ": 6449,
  "hai3 xia2 ": 6450,
  "z ": 6451,
  "gou4 de ": 6452,
  "gong1 cheng2 ": 6453,
  " xi1 jie1 ": 6454,
  "ge1 lun2 ": 6455,
  " ji1 chang3": 6456,
  "ju4 da4 ": 6457,
  "duo1 ren2 ": 6458,
  " cheng2 ren2 ": 6459,
  "fu4 ze2": 6460,
  "an1 na4": 6461,
  "zu2 qiu2 yun4 dong4 yuan2 ": 6462,
  "xie3 de ": 6463,
  "zuo4 chu1 ": 6464,
  "zhui1 su4": 6465,
  " xiang3 ": 6466,
  " 2014 nian2 ": 6467,
  "1979 nian2 ": 6468,
  " tong2 shi2 gai1 di4 ": 6469,
  " yong4": 6470,
  " kuan1": 6471,
  "1972 nian2 ": 6472,
  "bei1 si1 ": 6473,
  " ye3 zai4 ": 6474,
  "fan4 zui4 ": 6475,
  "sheng3 de ": 6476,
  "ling4 ren2 ": 6477,
  "ar ": 6478,
  "   1 ": 6479,
  "hui4 zhi4 ": 6480,
  " de2 zhu3 ": 6481,
  "tao3 lun4": 6482,
  " ji2 di4 ": 6483,
  "nei4 lu4 sheng3 fen4 ": 6484,
  "1978 nian2 ": 6485,
  "an1 hui1 ": 6486,
  "ke1 xue2 jia1 ": 6487,
  " Z": 6488,
  "tu2 xing2 ": 6489,
  "pi1 zhun3": 6490,
  " yue1": 6491,
  " se": 6492,
  "jiang1 zai4 ": 6493,
  " bing4 du2 ": 6494,
  "ci4 de ": 6495,
  "tiao4 ": 6496,
  "yi2 ding4": 6497,
  "zhu2 bu4 ": 6498,
  " de di4 er4 ": 6499,
  "shou4 de ": 6500,
  "shan1 de ": 6501,
  " shi4 yin1 wei4 ": 6502,
  " ke4 xi1 ": 6503,
  "jie2 guo3": 6504,
  "qiang2 lie4 ": 6505,
  "ti2 gong1 le ": 6506,
  "lian2 he2 hui4 ": 6507,
  "chao1 yue4 ": 6508,
  "tai2 nan2": 6509,
  "jian3 shao3": 6510,
  " yao1 qiu2 ": 6511,
  "di1 yu2 ": 6512,
  " po4 ": 6513,
  "le zai4 ": 6514,
  "pai4 qian3": 6515,
  "xia4 ling4 shi2 jian1 ": 6516,
  "hai3 ping2 mian4 ": 6517,
  "bu2 dao4 ": 6518,
  " shi2 qi1 de ": 6519,
  " yuan2 xing2 ": 6520,
  "jia4 ge2 ": 6521,
  "ye3 zai4 ": 6522,
  " ji1 hui4 ": 6523,
  " xue2 yuan4": 6524,
  "hui1 fu4": 6525,
  "guo4 de ": 6526,
  "ya4 mei3 ": 6527,
  "bian1 jie4 ": 6528,
  " wan2 jia1 ": 6529,
  "tou1 ": 6530,
  " guo2 nei4 ": 6531,
  "dong3 shi4 zhang3 ": 6532,
  "fang1 fa3": 6533,
  "ti2 yi4 ": 6534,
  "shu1 zhong1 ": 6535,
  "xun1 zhang1 ": 6536,
  "shi1 bai4 ": 6537,
  " jiao4 yu4 ": 6538,
  "zhu3 yao4 de ": 6539,
  "zhu3 jiao4": 6540,
  " hao4 de ": 6541,
  "ni2 ya4 zhou1 ": 6542,
  " hou4 bei4 ": 6543,
  "guan1 cha2 ": 6544,
  " xue2 jia1 ": 6545,
  "liu2 xia4 ": 6546,
  "shuang1 fang1 ": 6547,
  "   bei4 jing3 ": 6548,
  "er2 tong2 ": 6549,
  "1976 nian2 ": 6550,
  " yi1 li4 ": 6551,
  "jia1 yi4 ": 6552,
  " bu4 dui4": 6553,
  " yi3 wei2 ": 6554,
  "8 ren2 ": 6555,
  "w ": 6556,
  "lian2 xu4": 6557,
  "zhuang1 jia3 ": 6558,
  "xian4 de ": 6559,
  "qin1 zi4 ": 6560,
  " er2 zi ": 6561,
  "bei3 jing1 shi4 ": 6562,
  " 1950": 6563,
  " you3 suo3 ": 6564,
  "tion   ": 6565,
  " zai4 shi2 ": 6566,
  "zui4 gao1 de ": 6567,
  "hui4 yi4 yuan2 ": 6568,
  "san1 jiao3": 6569,
  "   di4 fang1 zi1 liao4 ": 6570,
  "ou3 ": 6571,
  "fei1 chang2": 6572,
  "ren4 wei4 ": 6573,
  "ma3 er3 ": 6574,
  "lan2 de ": 6575,
  "na2 xia4 ": 6576,
  "ping2 tai2 ": 6577,
  "   jian3 jie4 ": 6578,
  "duo1 wei4 ": 6579,
  "zu3 fu4 ": 6580,
  " he2 yue1 ": 6581,
  "1958 nian2 ": 6582,
  "   17": 6583,
  "bei4 de ": 6584,
  " li4 liang4 ": 6585,
  " chu1 kou3 ": 6586,
  "gai3 bian4": 6587,
  " ta1 ceng2 dai4 biao3 ": 6588,
  "bian3 ": 6589,
  " di4 li3 ": 6590,
  "nan2 bei3 ": 6591,
  "ping2 wei4 ": 6592,
  "neng2 yuan2 ": 6593,
  "la ": 6594,
  "pi3 ": 6595,
  " di4 qi1 ": 6596,
  " xian4 fa3 ": 6597,
  " hou4 zhe3 ": 6598,
  "zi4 de ": 6599,
  "tai2 zhong1 ": 6600,
  "di2 shi4 ": 6601,
  " zheng4 ming2 ": 6602,
  " shi2 ji4 shang4 ": 6603,
  " cheng2 zhen4 ": 6604,
  " mei3 yuan2 ": 6605,
  "que1 fa2 ": 6606,
  " 2015 nian2 ": 6607,
  "xuan3 zhong1 ": 6608,
  "di2 ren2 ": 6609,
  " li4 yi4 ": 6610,
  " 28": 6611,
  "li3 he2 ": 6612,
  "sui2 ji2 ": 6613,
  "liao3 ": 6614,
  "pai4 chu1 ": 6615,
  " zhong1 guo2 ren2 min2 jie3 fang4 jun1 ": 6616,
  "duo1 zhong3 ": 6617,
  "ying1 gai1 ": 6618,
  "tan2 pan4 ": 6619,
  "liao2 ning2 ": 6620,
  " bu4 shao3 ": 6621,
  " si1 ta3 ": 6622,
  "mian3 dian1": 6623,
  "ti2 chu1 de ": 6624,
  "ying1 ge2 lan2": 6625,
  "tui4 xiu1 ": 6626,
  " da4 xue2 de ": 6627,
  "hai3 ba2 wei4 ": 6628,
  " mei2": 6629,
  "gan4 bu4 ": 6630,
  "lei3 ji4 ": 6631,
  " shi2 xing2 ": 6632,
  "dang1 zhong1 ": 6633,
  "jue2 yi4 ": 6634,
  "xu4 li4 ya4 ": 6635,
  "shang1 ren2 ": 6636,
  "biao1 ben3 ": 6637,
  "fa1 sheng1 zai4 ": 6638,
  "suo3 cai3 yong4": 6639,
  "zhi3 dao3 ": 6640,
  " n": 6641,
  "hua4 zhong1 ": 6642,
  "mei3 zhou1": 6643,
  "zan4 shi2 ": 6644,
  " ju4 jue2 ": 6645,
  " ba3": 6646,
  " fu4 jin4": 6647,
  " zhong1 gong4 zhong1 yang1 ": 6648,
  "ceng2 wei4 ": 6649,
  " yi4 qing2 ": 6650,
  "nong2 min2 ": 6651,
  "ci4 yu2 ": 6652,
  "zhuan3 xiang4 ": 6653,
  "chan2 ": 6654,
  "fa1 shou4 ": 6655,
  "   yin1 ": 6656,
  "yi2 dai4 ": 6657,
  " de2 ming2 ": 6658,
  "xiu1 gai3 ": 6659,
  "shui3 li4 ": 6660,
  "rong2 he2 ": 6661,
  " zhong1 guo2 de ": 6662,
  "fa1 ming2 ": 6663,
  " qi2 wei4 ": 6664,
  "zhi3 neng2 ": 6665,
  "zi1 liao4": 6666,
  " ming2 zhi4 ": 6667,
  " gong1 zhong4 ": 6668,
  "zhu3 yan3 ": 6669,
  "zhong3 zi ": 6670,
  "17 nian2 ": 6671,
  "zi1 ben3 ": 6672,
  "a1 la1 bo2": 6673,
  "xiang1 si4 ": 6674,
  "guan1 cha2": 6675,
  "jie1 chu4 ": 6676,
  " bei3 jing1": 6677,
  "kai1 she4 ": 6678,
  "xiu1 jian4 ": 6679,
  "2025 nian2 ": 6680,
  "jing4 ji4 ": 6681,
  " de shi4 jie4 ": 6682,
  " 2016 nian2 ": 6683,
  "nu3 ": 6684,
  "kai1 tong1 ": 6685,
  "fa1 qi3 ": 6686,
  "wu3 zhuang1": 6687,
  "bao4 zha4 ": 6688,
  "jie3 san4 ": 6689,
  " cn": 6690,
  "dian4 ji1 ": 6691,
  "st ": 6692,
  "chai1 chu2 ": 6693,
  "an1 pai2": 6694,
  "ju3 ban4 de ": 6695,
  "shen1 du4 ": 6696,
  "zhang1 zhuan1 ji2 ": 6697,
  "qu1 shi4 ": 6698,
  "wei2 si1 ": 6699,
  "tuan2 ti3": 6700,
  "ji1 gou4 ": 6701,
  "fu4 zhu3 ren4 ": 6702,
  "zu3 zhi1 de ": 6703,
  " cha2": 6704,
  "ze2 zai4 ": 6705,
  "bian1 ju4 ": 6706,
  "feng1 xian3 ": 6707,
  "diao4 kuai4": 6708,
  " 187": 6709,
  "cheng2 he2 ": 6710,
  "is   ": 6711,
  " yu3 qi2 ta1 ": 6712,
  "neng2 liang4 ": 6713,
  " su4 ": 6714,
  "   qi2": 6715,
  "jie2 de ": 6716,
  "zao4 le ": 6717,
  " wei4 UTC ": 6718,
  " bu4 ji2 ": 6719,
  " zhong1 shan1 ": 6720,
  "shuai4 ling3": 6721,
  "ban4 shi4 chu4 ": 6722,
  " cn ": 6723,
  "shou3 zhong1 ": 6724,
  "pei4 zhi4 ": 6725,
  "qiu2 ji4 ": 6726,
  "ying1 xiong2 ": 6727,
  " xi1 ban1 ya2 ": 6728,
  "   dui4 ": 6729,
  "you2 ji1 ": 6730,
  "luo2 li3 ": 6731,
  "jiao4 tang2": 6732,
  "ge2 la1 ": 6733,
  "jiu4 du2 ": 6734,
  "shang1 ye4": 6735,
  "xiao1 fei4 ": 6736,
  "diao4 kuai4 yi1 xiao3 shi2 ": 6737,
  "kun4 ": 6738,
  " de ying3 xiang3 ": 6739,
  "qiang2 diao4 ": 6740,
  " tang2": 6741,
  " ji2 UTC ": 6742,
  "ke1 xue2 yuan4 ": 6743,
  "she4 you3 xia4 ling4 shi2 jian1 ": 6744,
  " de shi2 qu1 wei4 UTC ": 6745,
  " er2 gai1 di4 suo3 cai3 yong4": 6746,
  " tong2 shi2 gai1 di4 she4 you3 xia4 ling4 shi2 jian1 ": 6747,
  " er2 gai1 di4 suo3 cai3 yong4 de shi2 qu1 wei4 UTC ": 6748,
  "hou4 wei4 ": 6749,
  "bao3 liu2": 6750,
  " tong2 yang4": 6751,
  "xin4 yang3 ": 6752,
  "ta1 men de ": 6753,
  "shuai1 ": 6754,
  " da4 jiang3 ": 6755,
  " ling4 you3 ": 6756,
  " yi1 si1 lan2 ": 6757,
  " ge1": 6758,
  "yuan2 zhu4 ": 6759,
  "tai4 du4 ": 6760,
  "chuan2 bo1 ": 6761,
  " gai1 cun1 ": 6762,
  "   2 ": 6763,
  "suo3 zai4 di4 ": 6764,
  "que4 de ": 6765,
  "zhi1 jian1 de ": 6766,
  " ce4 ": 6767,
  "   jiao1 tong1 ": 6768,
  "fa1 she4": 6769,
  " shi2 wu4 ": 6770,
  "ding4 ju1 ": 6771,
  " li4 shi3 shang4 ": 6772,
  "gao1 yu2 hai3 ping2 mian4 ": 6773,
  " ni3 ": 6774,
  "xing4 wei4 ": 6775,
  " wei4 fu2 qi2 yu2 gang1 ": 6776,
  "5 mi3 ": 6777,
  "zhu2 jian4": 6778,
  " bu4 neng2": 6779,
  " gong1 jue2 ": 6780,
  " er3 duo1 ": 6781,
  " ma3 lai2": 6782,
  "wu4 he2 ": 6783,
  "hu4 xiang1 ": 6784,
  "   qing1 ": 6785,
  " qi2 xia4 ": 6786,
  "chu4 de hai3 ba2 wei4 ": 6787,
  "chu4 de hai3 ba2 wei4 gao1 yu2 hai3 ping2 mian4 ": 6788,
  " wei4 da4 ": 6789,
  " yin1 su4 ": 6790,
  " jia3": 6791,
  "ti3 zhi4 ": 6792,
  " yu2 le4": 6793,
  "chang3 suo3 ": 6794,
  "jing4 xuan3 ": 6795,
  " lu3 ": 6796,
  "wu4 shi4 ": 6797,
  "qia4 ": 6798,
  " zhi1 yi4 ": 6799,
  "gao1 xiong2": 6800,
  "kuang2 ": 6801,
  " he2 pan4 ": 6802,
  " bu4 jin3 ": 6803,
  " yi3 xi1 ": 6804,
  "   190": 6805,
  "fa1 xian4 de ": 6806,
  "zhong4 shi4 ": 6807,
  "ction   ": 6808,
  " qi2 shi2 ": 6809,
  " sui2 zhu4 ": 6810,
  " 8 ": 6811,
  "nan2 jing1": 6812,
  "zhang3 da2 ": 6813,
  "yun4 shu1": 6814,
  " dan1": 6815,
  " 2008": 6816,
  " 2017 nian2 ": 6817,
  "shi4   ": 6818,
  "lu4 zhi4 ": 6819,
  "shu4 shi2 ": 6820,
  "nei4 di4 ": 6821,
  "bian1 hao4 ": 6822,
  "shi2 qu1 ": 6823,
  "chong2 qing4": 6824,
  "jian4 cheng2 ": 6825,
  "geng1 xin1 ": 6826,
  " yi1 jia1 ": 6827,
  " xi1 lan2 ": 6828,
  "yun4 yong4 ": 6829,
  " zi4 ran2 ": 6830,
  " zheng1 ": 6831,
  "   ma3 ": 6832,
  "bi4 ye4 hou4 ": 6833,
  " 24": 6834,
  " zheng4 zhi4 ": 6835,
  "   ran2": 6836,
  "er4 ji2 ": 6837,
  " li4 ren4 ": 6838,
  "wei2 er3 ": 6839,
  "zhi2 zheng4 ": 6840,
  "dian4 qi4 ": 6841,
  "shan1 feng1 ": 6842,
  "xiao4 qu1 ": 6843,
  " wei4 yu2 gai1 ": 6844,
  "16 nian2 ": 6845,
  "60 ": 6846,
  " chu2": 6847,
  "zhe3 shi4 ": 6848,
  "wang2 shi4 ": 6849,
  "ve ": 6850,
  " wan2 ": 6851,
  "jiu4 hui4 ": 6852,
  "xia2 qu1 ": 6853,
  "xuan1 chuan2": 6854,
  "   ben3": 6855,
  "bao1 wei2 ": 6856,
  "bang4 qiu2 ": 6857,
  " zuo4 chu1 ": 6858,
  " xie4 ": 6859,
  "xue2 yuan2 ": 6860,
  "cuo4 wu4 ": 6861,
  " di4 qiu2": 6862,
  "jin1 rong2 ": 6863,
  " yu4 shi3 ": 6864,
  " xu1 ": 6865,
  "hou4 yi4 ": 6866,
  "dong1 fang1 ": 6867,
  "bei3 shi4 ": 6868,
  "jing1 chang2": 6869,
  " ran2 er2": 6870,
  " ci4 nian2 ": 6871,
  "ve   ": 6872,
  " jie2 ke4 ": 6873,
  "hui4 yu2 ": 6874,
  "te   ": 6875,
  " si1 ke1 ": 6876,
  " dui4 shou3 ": 6877,
  " xing2 zheng4 qu1 ": 6878,
  "zhen4 qu1 de mian4 ji1 wei4 ": 6879,
  "9 ren2 ": 6880,
  " hu2": 6881,
  "ming2 shi4 ": 6882,
  " zhou1 ci4 shi3 ": 6883,
  " sheng1 ya2 ": 6884,
  " huan4 ": 6885,
  "jia1 yi3 ": 6886,
  "fu2 de ": 6887,
  "ju2 de ": 6888,
  "ke3 zai4 ": 6889,
  "ma3 ke4 ": 6890,
  " ta1 yi3 ": 6891,
  " yuan2 zi4 ": 6892,
  "zao4 cheng2 de ": 6893,
  " Y": 6894,
  " li3 xi1 ": 6895,
  "zhi2 min2 ": 6896,
  "ping2 lun4": 6897,
  "fu1 ka3 ": 6898,
  " dang1 shi2 de ": 6899,
  "f ": 6900,
  " yi2": 6901,
  "ao4 zhou1 ": 6902,
  " nian2 lai2 ": 6903,
  " yi1 ju4 ": 6904,
  "qian1 shu3 ": 6905,
  "ji4 you3 ": 6906,
  "shi3 jian4 yu2 ": 6907,
  "ren4 de ": 6908,
  "ye3 bei4 ": 6909,
  "mian4 shang4 ": 6910,
  "gong1 gong4 ": 6911,
  " si1 ke4": 6912,
  " er2 tong2 ": 6913,
  " 2018 nian2 ": 6914,
  " xue2 zhe3 ": 6915,
  " dai4": 6916,
  "deng3 ji2 ": 6917,
  "pao3 ": 6918,
  "1968 nian2 ": 6919,
  " jian4 she4": 6920,
  " wei2 rao4": 6921,
  " ye3 bei4 ": 6922,
  " qi2 zhong1 bao1 kuo4 ": 6923,
  "jia1 zai4 ": 6924,
  " 2009": 6925,
  "ban4 de ": 6926,
  "tu1 ran2 ": 6927,
  "hai3 yang2 ": 6928,
  "qi4 che1": 6929,
  "chu1 ban3": 6930,
  "lai2 yin1 ": 6931,
  "ge2 shi4 ": 6932,
  "ji1 zai4 ": 6933,
  "jun4 gong1 ": 6934,
  " de2 zhi1 ": 6935,
  " ji1 jin1 hui4 ": 6936,
  "xiao1 shi1 ": 6937,
  "xiao4 li4 yu2 ": 6938,
  " 2019 nian2 ": 6939,
  "ji4 nian4": 6940,
  "ru2 guo3 ": 6941,
  "ling4 yi2 ge4 ": 6942,
  "tian2 jing4 ": 6943,
  "tao2 tai4 ": 6944,
  " fu2 wu4 ": 6945,
  " dian4 shi4 ": 6946,
  "ch ": 6947,
  " wei4 dui4 ": 6948,
  " ji2 da4 ": 6949,
  "yan2 hai3 ": 6950,
  "dang1 di4 de ": 6951,
  "jiang4 ling3 ": 6952,
  "19 shi4 ji4 ": 6953,
  "ping2 yuan2 ": 6954,
  "er4 ren2 ": 6955,
  "wei3 yuan2 hui4 wei3 yuan2 ": 6956,
  " li3 ya4 ": 6957,
  " 2 yue4 ": 6958,
  "   jin3 ": 6959,
  "dui4 qi2 ": 6960,
  "re ": 6961,
  "bei4 jing3 ": 6962,
  "ka3 luo2 ": 6963,
  " qin1 ": 6964,
  " lian2 he2 ": 6965,
  "jin4 bu4 ": 6966,
  "liang3 guo2 ": 6967,
  "te4 ding4 ": 6968,
  "fen4 zi3": 6969,
  "da4 bu4 ": 6970,
  "ding4 yu2 ": 6971,
  " qi2 de ": 6972,
  " de bu4 fen4 ": 6973,
  "zhi2 min2 di4 ": 6974,
  " 26": 6975,
  "   sheng4 ": 6976,
  "gai3 zao4 ": 6977,
  " bai3": 6978,
  "ao1 ": 6979,
  "jiao4 da4 ": 6980,
  " zhi4 zuo4 de ": 6981,
  " ji1 du1 ": 6982,
  "chuan2 tong3 de ": 6983,
  " 2023": 6984,
  "guan1 jian4 ": 6985,
  "sheng1 ya2": 6986,
  " bu4 bu4 zhang3 ": 6987,
  " gan3 ": 6988,
  " yun2 ": 6989,
  "en   ": 6990,
  "jing1 shen2": 6991,
  "li2 kai1": 6992,
  " qian2 wang3 ": 6993,
  " e4 ": 6994,
  "dian3 shi4 ": 6995,
  "1970 nian2 ": 6996,
  "yi4 shu4 ": 6997,
  "shu1 yuan4 ": 6998,
  "quan2 mian4 ": 6999,
  "shou1 gou4 ": 7000,
  "mo4 xi1 ge1 ": 7001,
  "zhen4 de ": 7002,
  "tui1 chu1": 7003,
  "guo2 jia1": 7004,
  " di4 tie3": 7005,
  " xian4 yi3 ": 7006,
  " ji1 chu3": 7007,
  " ju4 li2": 7008,
  " xian2 ": 7009,
  "san1 ming2 ": 7010,
  "gou3 ": 7011,
  " luo2 ma3 ": 7012,
  " xian1": 7013,
  " 23": 7014,
  "wen2 de ": 7015,
  " shi2 duan4 ": 7016,
  "jie1 duan4": 7017,
  "liang3 ci4 ": 7018,
  "cai2 neng2 ": 7019,
  "ai4 er3 lan2 ": 7020,
  "hun1 yin1 ": 7021,
  "tou ": 7022,
  "da4 lu4": 7023,
  " yi4 yu2 ": 7024,
  " shan1 dong1 ": 7025,
  "a1 la1 bo2 ": 7026,
  " sha1": 7027,
  "mu4 de ": 7028,
  "liang3 wei4 ": 7029,
  "jing4 zheng1 ": 7030,
  "bo1 si1 ": 7031,
  "hui4 zhang3 ": 7032,
  "man3 zu2 ": 7033,
  " dian4 ying3": 7034,
  "qi1 wei4 ": 7035,
  "pei4 yin1 ": 7036,
  " di4 dian3 ": 7037,
  " ting2 ": 7038,
  "   nan2 ": 7039,
  "xin1 cheng2 ": 7040,
  "1981 nian2 ": 7041,
  "zheng4 ju4 ": 7042,
  "hu4 lian2 ": 7043,
  "lian2 de ": 7044,
  "xiu1 fu4 ": 7045,
  " bing4 you2 ": 7046,
  " you2 ji1 ": 7047,
  " fa1 xian4 ": 7048,
  "la1 ji1 ": 7049,
  "kao4 jin4 ": 7050,
  "1956 nian2 ": 7051,
  " di4 dai4 ": 7052,
  " li4 shi2 ": 7053,
  "jie3 fang4 ": 7054,
  " wu2 fa3 ": 7055,
  "nei4 zhan4 ": 7056,
  "bo1 shi4 ": 7057,
  " wei2 chi2": 7058,
  "zai1 pei2 ": 7059,
  " shou3": 7060,
  " chong1 ": 7061,
  "dui4 zhang3 ": 7062,
  "fa1 qi3": 7063,
  "ju1 zhu4 zai4 ": 7064,
  "l   ": 7065,
  "zhe4 shi4 ": 7066,
  "zao3 zai4 ": 7067,
  "dian4 nao3 ": 7068,
  " z": 7069,
  "bing4 bu4 ": 7070,
  "shou3 xiang4 ": 7071,
  "shan1 qu1 ": 7072,
  "jiao1 liu2": 7073,
  "zu2 qiu2 ju4 le4 bu4 ": 7074,
  " bai4 ": 7075,
  "li3 cheng2 ": 7076,
  "tai4 yang2": 7077,
  " guo2 wu4 yuan4 ": 7078,
  " liu4 ": 7079,
  "wei3 fu4 ": 7080,
  "qi3 yuan2 ": 7081,
  " shi4 de2 guo2 ": 7082,
  "yan2 se4 ": 7083,
  "cun1 luo4 ": 7084,
  "fu1 de ": 7085,
  "ji1 chu3": 7086,
  " da4 lou2": 7087,
  "xiang4 zheng1 ": 7088,
  " wei2 si1 ": 7089,
  "tian1 ti3 ": 7090,
  "dou1 bei4 ": 7091,
  "1960 nian2 ": 7092,
  " bu4 bing1 ": 7093,
  " yu3 yan2": 7094,
  "   di4 er4 ": 7095,
  " 2004 nian2 ": 7096,
  "liu4 shi2 ": 7097,
  " zhi4 liang4 ": 7098,
  " zhou1 fu3 ": 7099,
  "lang2 zhong1 ": 7100,
  " yi1 yuan4": 7101,
  " xing2 mu4 ": 7102,
  "chang2 du4 ": 7103,
  "xing4 he2 ": 7104,
  "1920 nian2 ": 7105,
  " yi3 wai4 ": 7106,
  "luo4 fa2": 7107,
  "juan4 ": 7108,
  " zhi4 di4 ": 7109,
  " yu3 yi1 ": 7110,
  "shi1 qu4": 7111,
  "wu2 zheng4 zhuang4 gan3 ran3 zhe3 ": 7112,
  " xing1": 7113,
  "zui4 chu1": 7114,
  "liang4 wei4 ": 7115,
  "mu3 de ": 7116,
  " de2 si1 ": 7117,
  " 2020 nian2 ": 7118,
  "1964 nian2 ": 7119,
  "xie3 zuo4 ": 7120,
  "meng4 jia1 ": 7121,
  "fu4 he2 ": 7122,
  "te4 xing4 ": 7123,
  " wei4 yu2 mei3 guo2 ": 7124,
  "jia3 di4 ": 7125,
  "ao4 men2": 7126,
  " zui4 jia1 ": 7127,
  "2 ge4 ": 7128,
  "zhi2 ye4 sheng1 ya2 ": 7129,
  " ding1 ": 7130,
  "suo3 de ": 7131,
  "fu2 li4 ": 7132,
  " xian4 ji2 ": 7133,
  "suo3 wei4 ": 7134,
  "jue2 shi4 ": 7135,
  "zhuan4 de ": 7136,
  "   2008": 7137,
  "zong1 yi4 ": 7138,
  "zi4 mu3 ": 7139,
  "ling2 chen2 ": 7140,
  " bao3": 7141,
  "tou4 lu4 ": 7142,
  "chuang2 ": 7143,
  "dong1 bei3": 7144,
  " yi4 shi4 ": 7145,
  "ping2 de ": 7146,
  "1948 nian2 ": 7147,
  "ou3 xiang4 ": 7148,
  "kao3 shi4 ": 7149,
  " fu2 jian4 ": 7150,
  " yi2 ge4": 7151,
  " gen1 ": 7152,
  " za2 zhi4 ": 7153,
  "   ge4 ren2 ": 7154,
  "zong3 ren2 kou3 ": 7155,
  " di4 fang1": 7156,
  " xian4 cheng2 ": 7157,
  " li3 ke4 ": 7158,
  " de2 la1 ": 7159,
  "kong1 qi4 ": 7160,
  " nuo4 ": 7161,
  "xi1 he2 ": 7162,
  "na4 de ": 7163,
  "zuo4 wei2": 7164,
  "zhu3 zhang1 ": 7165,
  "xi1 nan2 ": 7166,
  " 50": 7167,
  "hui2 yi4 ": 7168,
  "fen2 ": 7169,
  "1975 nian2 ": 7170,
  " yi3 zai4 ": 7171,
  " ye3 ke3 yi3 ": 7172,
  "pu2 tao2 ya2 ": 7173,
  " can1 yu4 ": 7174,
  " zuo4 zhan4 ": 7175,
  "xun2 zhao3": 7176,
  "qi1 shi2 ": 7177,
  "zou3 xiang4 ": 7178,
  "1952 nian2 ": 7179,
  "nan2 de ": 7180,
  " cheng2 ke4 ": 7181,
  "su1 ge2 lan2 ": 7182,
  " tai4": 7183,
  "   10": 7184,
  "   ren2 ": 7185,
  "che1 dui4 ": 7186,
  " er3 shi4 ": 7187,
  "hu4 bu4 ": 7188,
  " di4 tu2 ": 7189,
  " yuan2 ben3": 7190,
  " chu1 dao4 ": 7191,
  "yin4 ni2 ": 7192,
  " 2007": 7193,
  " 35": 7194,
  " sun1 ": 7195,
  " 2021 nian2 ": 7196,
  "wu3 shi4 ": 7197,
  "gu3 li4 ": 7198,
  "shou1 dao4 ": 7199,
  "wa3 er3 sheng3 ": 7200,
  "shi3 shang4 ": 7201,
  "shou3 du1": 7202,
  "xin4 yang3": 7203,
  " ku4 ": 7204,
  "guo4 le ": 7205,
  "guan3 zhi4 ": 7206,
  "luo4 cheng2 ": 7207,
  " gong1 li3 de ": 7208,
  "zhu3 yi4 zhe3 ": 7209,
  "4 ge4 ": 7210,
  " wei4 yuan2 ": 7211,
  " yi3 yu2 ": 7212,
  "guo4 du4 ": 7213,
  "guang3 chang3": 7214,
  "yan2 ren2 ": 7215,
  "xian3 zhu4 ": 7216,
  "guo2 wu4 ": 7217,
  " shi2 yan4 shi4 ": 7218,
  " si1 ling4 bu4 ": 7219,
  "shi3 ren2 ": 7220,
  "jiang1 yu2 ": 7221,
  "du4 he2 ": 7222,
  "bi4 de ": 7223,
  "mai4 ke4 ": 7224,
  "ba ": 7225,
  " di4 liu4 ": 7226,
  "zhuan1 ye4": 7227,
  "wang4 yuan3 ": 7228,
  "xi1 di4 ": 7229,
  "shang4 xian4 ": 7230,
  "si4 de ": 7231,
  "xiu1 dao4 ": 7232,
  "si ": 7233,
  " da4 gong1 ": 7234,
  "ge2 li2 ": 7235,
  " fu4 jin4 de ": 7236,
  "bei4 cheng1 wei2 ": 7237,
  "shao4 nv3 ": 7238,
  "yan2 zhi4 ": 7239,
  "dong1 jing1": 7240,
  "yu2 he2 ": 7241,
  "xiang1 guan1 de ": 7242,
  "deng3 deng3 ": 7243,
  "fan3 hui2": 7244,
  "   yue4 ": 7245,
  "di4 he2 ": 7246,
  "fang4 zai4 ": 7247,
  " ji2 shi3 ": 7248,
  "jian1 yu4 ": 7249,
  "mian3 fei4 ": 7250,
  "jiao3 du4 ": 7251,
  "zuo3 yi4 ": 7252,
  " cheng2 ben3 ": 7253,
  "wei2 zhu3 ": 7254,
  " zhen1": 7255,
  "th ": 7256,
  " xing2 dong4": 7257,
  "cai3 qu3": 7258,
  "guan3 li3 ju2 ": 7259,
  "tai2 bei3 shi4 ": 7260,
  " 29": 7261,
  " dang3 ": 7262,
  "   dang1 ": 7263,
  " yue4 dui4 ": 7264,
  " jun1 qu1 ": 7265,
  "bi4 mian3": 7266,
  "kong1 jian1": 7267,
  "xing2 tai4 ": 7268,
  "ao4 er3 ": 7269,
  "she4 bei4 ": 7270,
  "xiang1 shi4 ": 7271,
  "ka3 si1 ": 7272,
  "cai3 fang3": 7273,
  "fei4 chu2 ": 7274,
  "shan1 xian4 ": 7275,
  " er2 fei1 ": 7276,
  "luo4 shan1 ji1 ": 7277,
  "jia4 shi3 ": 7278,
  " 25": 7279,
  "xi1 bei3 ": 7280,
  "hen3 kuai4 ": 7281,
  "zheng4 fu3 de ": 7282,
  "shang4 di4 ": 7283,
  "dao3 shang4 ": 7284,
  "huai4 ": 7285,
  " zai4 he2 ": 7286,
  " ke4 er3 ": 7287,
  " she4 yu2 ": 7288,
  "gai3 shan4 ": 7289,
  " 27": 7290,
  "ci3 tong2 shi2 ": 7291,
  " shen2": 7292,
  " 2002 nian2 ": 7293,
  "   2009": 7294,
  "kai1 gong1 ": 7295,
  "tong1 zhi1 ": 7296,
  "li3 lun4": 7297,
  "bo1 li2 ": 7298,
  " kai3 ": 7299,
  "ci2 zhi2 ": 7300,
  " cai4": 7301,
  " feng4 ": 7302,
  "jiu4 yuan2 ": 7303,
  "wa2 ": 7304,
  "   si1 ": 7305,
  "ci2 de ": 7306,
  "hun2 ": 7307,
  " di4 yi1 ci4": 7308,
  " pu3": 7309,
  " xie4": 7310,
  "   zheng4 ": 7311,
  "he2 zai4 ": 7312,
  "ye3 hui4 ": 7313,
  " zhi1 shi4 ": 7314,
  "hai3 an4": 7315,
  "e2 luo2 si1 de ": 7316,
  "   c": 7317,
  "   Ch": 7318,
  "kou3 de ": 7319,
  " yi4 jian4 ": 7320,
  " yong3": 7321,
  " wei4 zai4 ": 7322,
  "shen2 me": 7323,
  " suo1 ": 7324,
  "   Re": 7325,
  " diao4 ": 7326,
  "zheng1 yue4 ": 7327,
  "ti4 dai4 ": 7328,
  " ren2 da4 ": 7329,
  "ji4 suan4": 7330,
  "chu4 zhang3 ": 7331,
  "chong1 tu1": 7332,
  " xiao3 shi2 ": 7333,
  "jiu3 de ": 7334,
  "jin3 you3 ": 7335,
  "qiang2 zhi4 ": 7336,
  " shi2 xian4": 7337,
  "jian1 du1 ": 7338,
  "yin3 yong4 ": 7339,
  " se4 ": 7340,
  "   Ma": 7341,
  "ying3 shi4 ": 7342,
  "ti2 chu1 le ": 7343,
  "wai4 jiao1 bu4 ": 7344,
  "eng4 ": 7345,
  "xue2 zhong1 ": 7346,
  "qiang2 de ": 7347,
  " ge4 guo2 ": 7348,
  "min2 zhu3 dang3": 7349,
  " jue2 ding4 ": 7350,
  "shan1 di4 ": 7351,
  "1966 nian2 ": 7352,
  " mi4 ": 7353,
  "   ba1 ": 7354,
  "feng1 fu4 ": 7355,
  "xi3 huan1 ": 7356,
  "h ": 7357,
  " ban3 ": 7358,
  "si1 shi4 ": 7359,
  "nuo2 wei1": 7360,
  "1937 nian2 ": 7361,
  " zhu3 yan3 ": 7362,
  " kai3": 7363,
  "   gu4 shi4 ": 7364,
  " si1 ma3 ": 7365,
  " hao4 xian4": 7366,
  "ceng2 yu2 ": 7367,
  " ge4 zhong3": 7368,
  "zhang3 guan1 ": 7369,
  "zong1 jiao4": 7370,
  "xiao3 xing2 xing1": 7371,
  " e2 ": 7372,
  "tian1 hou4 ": 7373,
  " shi2 hou4 ": 7374,
  "mo4 xi1 ge1": 7375,
  "1974 nian2 ": 7376,
  " you3 xie1": 7377,
  "pu3 bian4": 7378,
  " fen1 bie2 ": 7379,
  "bu4 de cun1 zhuang1 ": 7380,
  "   yi3 xia4": 7381,
  "guan3 de ": 7382,
  "li2 mi3 ": 7383,
  "zan4 zhu4 ": 7384,
  "fa1 dong4 ji1 ": 7385,
  "ce4 liang2 ": 7386,
  "yin4 shua1": 7387,
  "   Co": 7388,
  "cu4 jin4 ": 7389,
  " yue4 lai2 yue4 ": 7390,
  "liu2 yu4 ": 7391,
  "lie4 ru4 ": 7392,
  " kou3 ": 7393,
  "kou4 ": 7394,
  "gu3 lao3": 7395,
  "a1 gen1 ": 7396,
  "ma3 lai2 xi1 ya4": 7397,
  "   wei2 ": 7398,
  "ta1 zai4 ": 7399,
  "jiang4 yu3 ": 7400,
  "liao3 jie3 ": 7401,
  "jia1 ting2 ": 7402,
  "che1 xiang1 ": 7403,
  " fa3": 7404,
  " lei2": 7405,
  "   f": 7406,
  "fu4 shi4 ": 7407,
  "lie4 chu1 ": 7408,
  " de ju4 ": 7409,
  " cheng2 xian4": 7410,
  " zhi1 di4 ": 7411,
  "jing1 dian3 ": 7412,
  " dan4 bai2 ": 7413,
  "ting2 che1 ": 7414,
  " pa4 ": 7415,
  "ying1 li3 ": 7416,
  "yun3 shi2 ": 7417,
  "1946 nian2 ": 7418,
  " xian4 shang4 ": 7419,
  "can1 xuan3 ": 7420,
  "qiang2 du4 ": 7421,
  "su1 wei2 ": 7422,
  "guan4 jun1": 7423,
  " bu4 shao3": 7424,
  " zhi1 jia1 ": 7425,
  "chuang4 zuo4 de ": 7426,
  " tiao2 ": 7427,
  " chuan1 ": 7428,
  "   fu4 ": 7429,
  " ke4 he2 ": 7430,
  "bi4 mian3 ": 7431,
  " Q": 7432,
  "shui2": 7433,
  "tong2 xing4 ": 7434,
  "zao3 shang4 ": 7435,
  "ni4 ": 7436,
  "1955 nian2 ": 7437,
  "zhu3 ti2": 7438,
  " xiang1 dang1": 7439,
  "sen1 lin2": 7440,
  " fu4 ze2 guan3 xia2 ": 7441,
  "la1 de ": 7443,
  "ming2 dan1 ": 7444,
  "zhan4 tai2 ": 7445,
  "cai2 liao4": 7446,
  "guo2 shi4 ": 7447,
  "hu1 yu4 ": 7448,
  " gong1 ying4 ": 7449,
  "jian1 ren4 ": 7450,
  "bo2 lin2 ": 7451,
  "dian4 shi4 tai2": 7452,
  "xuan3 ju3 zhong1 ": 7453,
  "xia4 zai4 ": 7454,
  " yi1 zhi2 ": 7455,
  "guan1 fang1": 7456,
  "suo3 you3 de ": 7457,
  "jing3 gao4 ": 7458,
  "jian4 zhu4": 7459,
  "di1 qi4 ": 7460,
  "   zeng1 zu3 ": 7461,
  " kao3 ": 7462,
  "hai2 zai4 ": 7463,
  "1954 nian2 ": 7464,
  "nan2 zi": 7465,
  "ti3 yu4 chang3 ": 7466,
  "guang3 zhou1": 7467,
  "sao1 ": 7468,
  "lian2 jie1": 7469,
  "a3 ": 7470,
  "la1 de2 ": 7471,
  "shu1 chu1 ": 7472,
  " gong1 neng2": 7473,
  "yin3 ru4 ": 7474,
  "zhao4 pian1 ": 7475,
  "lan2 xi1 ": 7476,
  "dun4 de ": 7477,
  " bu4 man3 ": 7478,
  " qiu2 de ": 7479,
  "yin2 pai2 ": 7480,
  "yao2 gun3": 7481,
  " m": 7482,
  " t": 7483,
  "ceng2 de ": 7484,
  " er2 gai1 di4 de ": 7485,
  "nuo2 wei1 ": 7486,
  "guo2 wang2 ": 7487,
  " yu3 qi2 ": 7488,
  "qi1 zi3": 7489,
  "an1 zhuang1 ": 7490,
  " xu4 ": 7491,
  "xu4 li4 ya4": 7492,
  "shen1 qing3": 7493,
  "zao3 qi1 de ": 7494,
  "   4": 7495,
  "shi2 he2 ": 7496,
  "tu2 de ": 7497,
  "mou3 xie1": 7498,
  "fei1 xing2": 7499,
  " ji4 lu4": 7500,
  " chu1 yan3 ": 7501,
  " ni3": 7502,
  "zhi1 shi2 ": 7503,
  "zhan4 di4 ": 7504,
  "qiu2 hui4 ": 7505,
  " bei4 er3": 7506,
  " 000 ": 7507,
  "zhan4 shi2 ": 7508,
  "zao1 yu4 ": 7509,
  " wei4 neng2": 7510,
  "xia4 lai2 ": 7511,
  " zu2": 7512,
  " he2 gu3 ": 7513,
  " cheng2 le ": 7514,
  " yi3 qian2 ": 7515,
  " ji4 yi4 ": 7516,
  " ke4 li4 ": 7517,
  "fa1 sheng1 de ": 7518,
  "shi1 qu4 ": 7519,
  "gu3 la1 ": 7520,
  " shun4": 7521,
  "qian2 hou4 ": 7522,
  "zu3 de ": 7523,
  "bian1 yuan2 ": 7524,
  "mo4 er3 ": 7525,
  "zhong1 yang1 ": 7526,
  " jia1 ting2": 7527,
  " xiang1 tong2 ": 7528,
  "xing1 qi1": 7529,
  "you1 xiu4": 7530,
  " yi3 se4 lie4 ": 7531,
  "dui4 yuan2 ": 7532,
  "te4 li4 ": 7533,
  " shi2 bao4 ": 7534,
  "shan1 dong1 sheng3 ": 7535,
  " zhao1 he2 ": 7536,
  " zu2 ": 7537,
  "chong3": 7538,
  " dui4 ci3 ": 7539,
  "   gai4 yao4 ": 7540,
  " 2006": 7541,
  "san1 da4 ": 7542,
  "mi3 de ": 7543,
  "niang2 ": 7544,
  "tai4 kong1 ": 7545,
  " zi4 you2": 7546,
  "bao3 de ": 7547,
  " jun1 di4 ": 7548,
  " sheng1 ming2 ": 7549,
  " zhi3 zai4 ": 7550,
  " qing3 ": 7551,
  " 2000 nian2 ": 7552,
  "zha4 dan4 ": 7553,
  " Re": 7554,
  "wang3 shang4 ": 7555,
  "ta3 er3 ": 7556,
  " di4 zhen4 ": 7557,
  "xia4 jiang4 ": 7558,
  "ling3 dao3 de ": 7559,
  "yan2 jiu1 sheng1 ": 7560,
  "hui2 gui1 ": 7561,
  "1 ge4 ": 7562,
  "te4 er3 ": 7563,
  "zhai1 ": 7564,
  " xian4 you3 ": 7565,
  " yuan2 yin1": 7566,
  " jie1": 7567,
  "wu1 si1 ": 7568,
  "hao3 ping2 ": 7569,
  " de zhu3 yao4 ": 7570,
  " zhong1 jian1 ": 7571,
  "pu3 cha2 ": 7572,
  "hen4": 7573,
  " ye4": 7574,
  " nian2 qing1 ": 7575,
  "duo1 ci4": 7576,
  " fou3": 7577,
  " wai4": 7578,
  "tong2 ming2 ": 7579,
  "te4 you3 ": 7580,
  "bian1 wei4 ": 7581,
  " ji2 bing4 ": 7582,
  "bo2 jue2 ": 7583,
  " wei1 lian2 ": 7584,
  "30 nian2 ": 7585,
  " xing2 bu4 ": 7586,
  "qin1 wang2 ": 7587,
  "kuai4 su4": 7588,
  "zan4 ting2 ": 7589,
  "shi1 gong1 ": 7590,
  "dang1 nian2 ": 7591,
  "cun2 de ": 7592,
  " guang3 dong1 ": 7593,
  "qing2 de ": 7594,
  " shi4 yi1 bu4 ": 7595,
  " xin1 zeng1 ": 7596,
  "gai3 zhi4 wei4 ": 7597,
  "   di4 yi1 ": 7598,
  "gang3 yuan2 ": 7599,
  "fei4 yan2 ": 7600,
  " 40": 7601,
  " guan3 ": 7602,
  " xian1 hou4 ": 7603,
  "fen3 si1 ": 7604,
  "zhi3 kong4 ": 7605,
  " cai2": 7606,
  "mi4 de ": 7607,
  "xun1 ": 7608,
  "che1 liang4": 7609,
  " song4": 7610,
  "shen1 shi4 ": 7611,
  "da2 zhou1 ": 7612,
  "pei4 bei4 ": 7613,
  "ying3 xiang4 ": 7614,
  " shou3 ci4 ": 7615,
  "u ": 7616,
  "zhui4 ": 7617,
  "fang1 mi3 ": 7618,
  " B ": 7619,
  " X": 7620,
  "san1 ren2 ": 7621,
  "san1 ge4": 7622,
  "100 ": 7623,
  " de hua4 ": 7624,
  "da4 qu1 ": 7625,
  "sheng3 jie1 rang3 ": 7626,
  " zi4 dong4 ": 7627,
  " re": 7628,
  " Jo": 7629,
  "   0": 7630,
  "zhe3 he2 ": 7631,
  "beng1 ": 7632,
  "te4 zheng1": 7633,
  "can1 shu4 ": 7634,
  " zui4 da4 ": 7635,
  "rui4 dian3 ": 7636,
  " 45": 7637,
  "wu3 ge4 ": 7638,
  " zhe4 yang4 ": 7639,
  " jin4 zhi3 ": 7640,
  "tui1 guang3 ": 7641,
  " mai4 ke4 ": 7642,
  "lu4 yi4 si1 ": 7643,
  " mo2": 7644,
  " bu4 yi1 ": 7645,
  " ping2 lun4 ": 7646,
  "jing4 nei4 gong4 you3 ": 7647,
  "   jin1 ": 7648,
  "si4 shi4 ": 7649,
  "tai4 de ": 7650,
  "1947 nian2 ": 7651,
  "zhan3 lan3 ": 7652,
  "you2 xing2 ": 7653,
  "sheng4 chu1 ": 7654,
  "YouTube": 7655,
  " she4 hui4 zhu3 yi4 ": 7656,
  "zhe3 hui4 ": 7657,
  "huang1 ": 7658,
  " shi4 yi1 ke1 ": 7659,
  " jie2 shu4 ": 7660,
  " shuang1 fang1 ": 7661,
  " zai4 yi4 qi3 ": 7662,
  "   16": 7663,
  "la1 he2 ": 7664,
  "hui2 guo2 ": 7665,
  " bu4 lai2 ": 7666,
  " shi2 xing4 ": 7667,
  " ji4 zai3": 7668,
  "xin1 wen2": 7669,
  "bao3 luo2 ": 7670,
  "jing4 zheng1": 7671,
  "lv4 se4 ": 7672,
  " 200": 7673,
  " ji2 hou4 ": 7674,
  " xi1 er3 ": 7675,
  " jiang1 su1 ": 7676,
  "wu2 xian4 dian4 shi4 ": 7677,
  " guo1": 7678,
  " shan4 ": 7679,
  " cai3 yong4 ": 7680,
  "20 nian2 ": 7681,
  "50 nian2 ": 7682,
  " zai4 18": 7683,
  " di4 zhi4 ": 7684,
  " zhi4 yi2 ": 7685,
  "fei4 yong4 ": 7686,
  "   2019 nian2 ": 7687,
  "ying4 ji2 ": 7688,
  " bei4 po4 ": 7689,
  "du4 shi3 ": 7690,
  "chan3 sheng1 le ": 7691,
  "ma3 ke4 si1 ": 7692,
  "1973 nian2 ": 7693,
  " guo2 jia1 dui4 ": 7694,
  "tie3 lu4 che1 zhan4 ": 7695,
  " dong4 wu4 ": 7696,
  " hu2 nan2 ": 7698,
  "ku1 ": 7699,
  " gong1 qing3 ": 7700,
  " jia1 zu2": 7701,
  "chuang4 zao4 ": 7702,
  "wang2 wei4 ": 7703,
  "tui1 jian4 ": 7704,
  "1971 nian2 ": 7705,
  "lian2 ren4 ": 7706,
  "bei3 fang1 ": 7707,
  "ying1 chi3 ": 7708,
  "san1 ji2 ": 7709,
  "lei4 xing2 de ": 7710,
  " nian2 ling2 ": 7711,
  " ta1 ceng2 ": 7712,
  "zhang3 zi3 ": 7713,
  " gong1 gong4": 7714,
  " da4 dao4": 7715,
  "fu2 luo2 li3 ": 7716,
  "nong2 cun1 ": 7717,
  " shi4 zhong1 hua2 ren2 min2 gong4 he2 guo2 ": 7718,
  " ceng2 ren4": 7719,
  "ying3 xiang3 li4 ": 7720,
  " de zuo4 biao1 wei4 ": 7721,
  " ba3 ": 7722,
  "chong1 ji1 ": 7723,
  " shi4 hui4 ": 7724,
  "fang2 wu1 ": 7725,
  "qun2 dao3": 7726,
  "k   ": 7727,
  " 2022 nian2 ": 7728,
  " zai4 xin1 ": 7729,
  "te4 dian3 ": 7730,
  "tian1 ran2 ": 7731,
  "qing1 chao2 ": 7732,
  "chu1 qi1 ": 7733,
  "gu4 ding4 ": 7734,
  "   jia1 ting2 ": 7735,
  " xi2 ": 7736,
  "lv4 de ": 7737,
  "si3 yu2 ": 7738,
  " zai4 ta1 de ": 7739,
  "fu4 jin4": 7740,
  "she4 hui4": 7741,
  " ke3 neng2 ": 7742,
  "ji2 bu4 ": 7743,
  "sheng1 zhi4 ": 7744,
  "cong2 wei4 ": 7745,
  "fang1 xiang4": 7746,
  "te4 la1 ": 7747,
  "jing4 nei4": 7748,
  "geng4 duo1 de ": 7749,
  "xin1 shi4 ": 7750,
  "1977 nian2 ": 7751,
  " yi1 ren2 ": 7752,
  " dao4 he2 ": 7753,
  "gao1 da2 ": 7754,
  " Co": 7755,
  " chu3 ": 7756,
  " shen3 ": 7757,
  " shi2 zhi4 ": 7758,
  " dao4 yi1 ": 7759,
  "qi4 xuan2 ": 7760,
  " section   ": 7761,
  " mao2 ": 7762,
  " xu3 duo1": 7763,
  "ban1 de ": 7764,
  "qu3 xiao1": 7765,
  " nai3": 7766,
  "xuan3 chu1 ": 7767,
  " In": 7768,
  "   shi3 yong4 ": 7769,
  "yi2 dao4 ": 7770,
  "shou4 quan2 ": 7771,
  "zhou2 ": 7772,
  "zhong1 yang1": 7773,
  "sheng1 ji1 ": 7774,
  "guan1 ce4 ": 7775,
  " ye3 bu4 ": 7776,
  "qing1 shao4 nian2 ": 7777,
  "wan2 zheng3 ": 7778,
  " shi4 ji4 de ": 7779,
  " you3 da4 ": 7780,
  " fu3 ": 7781,
  "jia1 gong1 ": 7782,
  "deng3 de ": 7783,
  "luo4 si1 ": 7784,
  " shi4 you2": 7785,
  "fu4 jin4 de ": 7786,
  "mei3 guo2 ren2 ": 7787,
  "zhang4 fu1 ": 7788,
  "xue2 bu4 ": 7789,
  "tie1 ": 7790,
  " you3 zhu4 ": 7791,
  " qiu1 ": 7792,
  "yi4 bu4 ": 7793,
  "shi3 yu2 ": 7794,
  "pu4 ": 7795,
  "guo2 hui4 ": 7796,
  "xi1 bei3 bu4 ": 7797,
  " ta1 ren4 wei2 ": 7798,
  "mu4 ni2 ": 7799,
  " tong2 pai2 ": 7800,
  " zhi3 shi4 ": 7801,
  "kuo4 zhan3": 7802,
  "si3 xing2 ": 7803,
  "qing4 zhu4 ": 7804,
  "zhan4 ling3": 7805,
  "lian2 jie2 ": 7806,
  " tong2 yang4 ": 7807,
  "   gen1 ju4 2020 nian2 mei3 guo2 ren2 kou3 pu3 cha2 de shu4 ju4 ": 7808,
  "ai4 de ": 7809,
  "bing4 wei4 ": 7810,
  "zui4 wei4 ": 7811,
  "hai3 shang4 ": 7812,
  "reng2 zai4 ": 7813,
  "guo2 li4 ": 7814,
  "fen1 pei4 ": 7815,
  "huang2 se4 ": 7816,
  "xiao1 liang4 ": 7817,
  "zhuan1 men2 ": 7818,
  "zeng1 jia1 le ": 7819,
  " 2024": 7821,
  "guo4 yu2 ": 7822,
  " zai4 ta1 ": 7823,
  "shang4 hai3 shi4 ": 7824,
  " shui3": 7826,
  "gun4": 7827,
  "quan2 de ": 7828,
  "si4 da4 ": 7829,
  "zong3 hui4 ": 7830,
  "hui2 he2 ": 7831,
  "pian4 de ": 7832,
  "lao3 shi1 ": 7833,
  "zong4 ": 7834,
  " yi1 zhi4 ": 7835,
  " chu1 fa1 ": 7836,
  "se4 fu1 ": 7837,
  "xie2 ding4 ": 7838,
  "xiang1 ji4 ": 7839,
  "qie4 er3 ": 7840,
  "jing1 ji4": 7841,
  "ban1 jiang3 ": 7842,
  "   s": 7843,
  "fang2 wei4 ": 7844,
  " S ": 7845,
  " 9 ": 7846,
  " 2003 nian2 ": 7847,
  " li4 shu3 ": 7848,
  " bing4 ru4 ": 7849,
  "deng1 chang2 ": 7850,
  "lei4 si4 de ": 7851,
  " tie3 ": 7852,
  "xing4 shi4 ": 7853,
  "dui4 shou3 ": 7854,
  " de ji4 lu4 ": 7855,
  " ji2 xing2 zheng4 ": 7856,
  " li4 zi ": 7857,
  " ye3 hui4 ": 7858,
  "can1 sai4": 7859,
  " yi3 zhi4 ": 7860,
  "lai2 zi4 yu2 ": 7861,
  " SA": 7862,
  "fu2 li3 ": 7863,
  "dan1 yuan2 ": 7864,
  "ck ": 7865,
  "zhuo1 ": 7866,
  "zhi2 ye4": 7867,
  "jiang3 shu4 ": 7868,
  "zhao4 kai1": 7869,
  " a1 la1 ": 7870,
  " 000 ren2 ": 7871,
  " han": 7872,
  " bao1 han2 ": 7873,
  "ma1 ": 7874,
  "yi1 xie1 ": 7875,
  "hai3 ba2 gao1 ": 7876,
  "shuang1 da3 ": 7877,
  " fa1 xing2 ": 7878,
  "   w": 7879,
  "fu4 jia1 ": 7880,
  "qi4 he2 ": 7881,
  "xing4 neng2 ": 7882,
  "cun2 zai4 de ": 7883,
  "zhuang4 ji1 ": 7884,
  " jian4 kang1 ": 7885,
  "na4 cui4": 7886,
  " xiang1 dui4 ": 7887,
  "geng3": 7888,
  " ku4": 7889,
  "he2 wei4 ": 7890,
  "sheng3 dao4 ": 7891,
  "lao2 gong1 ": 7892,
  "xi1 nan2 bu4 ": 7893,
  " ke4 yun4 ": 7894,
  "ma3 la1 ": 7895,
  "gai3 ge2": 7896,
  "nan2 ji2 zhou1 de ": 7897,
  " an4": 7898,
  "   de": 7899,
  "wa1 ": 7900,
  "shou3 bo1 ": 7901,
  "ying1 gai1": 7902,
  "mei3 jun1 ": 7903,
  "ba1 er3 ": 7904,
  "chuang4 xin1 ": 7905,
  "tuo2 ": 7906,
  " you3 guan1": 7907,
  "zheng4 xie2 ": 7908,
  " ta1 dui4 ": 7909,
  "shan1 mai4 ": 7910,
  " si4 chuan1 ": 7911,
  "hong1 zha4 ji1 ": 7912,
  "   ran2 er2 ": 7913,
  " hant ": 7914,
  "chang2 jian4 ": 7915,
  "chuan2 zhi1 ": 7916,
  " zhi1 zhan4 ": 7917,
  " xiao3 shuo1 ": 7918,
  " bai2": 7919,
  "yi1 bu4 fen4": 7920,
  "dian4 de ": 7921,
  "fei1 zhou1": 7922,
  "1962 nian2 ": 7923,
  " xian4 zhi1 xian4 ": 7924,
  "sha1 si3 ": 7925,
  "fa1 sheng1 le ": 7926,
  "shu3 de zhi2 wu4 ": 7927,
  " e2": 7928,
  "   dan4": 7929,
  "zhi2 zhi4 ": 7930,
  "yao4 de ": 7931,
  "II ": 7932,
  "quan3 ": 7933,
  "lou4 ": 7934,
  "yan2 zhong4 de ": 7935,
  " ling4 wai4": 7936,
  "li3 bu4 ": 7937,
  "mi4 si1 ": 7938,
  "qiao3 ": 7939,
  " jian4 shi4 ": 7940,
  "suo3 shu3": 7941,
  "yun4 dong4 de ": 7942,
  "mao3": 7943,
  "xi1 shi4 ": 7944,
  "tou2 bu4 ": 7945,
  "dui4 wu3 ": 7946,
  " you2 ci3 ": 7947,
  "zu3 zhi3 ": 7948,
  " dong1 jing1 ": 7949,
  "fang4 qi4": 7950,
  "jian1 shi4 ": 7951,
  "na4 de2 ": 7952,
  "nu4 ": 7953,
  " che1 zhan4": 7954,
  "jiang1 ta1 ": 7955,
  " de gu4 shi4 ": 7956,
  "jiang4 di1": 7957,
  " shi4 yi4 da4 li4 ": 7958,
  "luo3": 7959,
  "hui4 yi3 ": 7960,
  "can1 ting1 ": 7961,
  " sa4": 7962,
  " 60": 7963,
  "hei1 ren2 ": 7964,
  "ji1 ben3 ": 7965,
  " zhi1 liu2 ": 7966,
  "zhu3 xi2": 7967,
  "shuai4 ling3 ": 7968,
  "tu3 er3 qi2": 7969,
  "   The": 7970,
  "hui4 shi4 di4 ": 7971,
  "huan2 xing2 ": 7972,
  " zai4 yu3 ": 7973,
  " gong1 lu4": 7974,
  " de2 dao4 le ": 7975,
  " she4 ji4 de ": 7976,
  "bu4 fen4 ": 7977,
  "bang1 zhu4": 7978,
  "na2 po4 ": 7979,
  "W ": 7980,
  "   2007": 7981,
  "shang4 bu4 ": 7982,
  "zheng3 ge4": 7983,
  "xiang1 bi3 ": 7984,
  " shi4 yi1 zuo4 ": 7985,
  "zhou1 bian1 ": 7986,
  "xia4 xia2 yi3 xia4": 7987,
  " Ro": 7988,
  "   3 yue4 ": 7989,
  " xian4 jin1 ": 7990,
  "hang2 tian1 ": 7991,
  " shi4 jie4 bei1 ": 7992,
  "yan2 shi2 ": 7993,
  "zhang3 da4 ": 7994,
  "luo2 de2 ": 7995,
  " da4 liang4": 7996,
  "qian1 yue1 ": 7997,
  "zi4 wei4 ": 7998,
  " li4 yong4": 7999,
  "yi2 chan3": 8000,
  "ge2 er3 ": 8001,
  " xing2 shi3 ": 8002,
  "v ": 8003,
  " ji3 ": 8004,
  "xin1 ren2 ": 8005,
  "zong3 cai2 ": 8006,
  "chuan2 mei2 ": 8007,
  " ma3 li4 ": 8008,
  "zhi3 de ": 8009,
  "por": 8010,
  " nan2 zi ": 8011,
  "chu1 sheng1 yu2 ": 8012,
  " sheng1 zhang3 yu2 ": 8013,
  "ci3 shi2 ": 8014,
  " gong1 chi3": 8015,
  " qiu2 hui4 ": 8016,
  "hai3 ba2 gao1 du4 wei4 ": 8017,
  "   2018 nian2 ": 8018,
  "ben3 xian4 ": 8019,
  "zhe3 wei4 ": 8020,
  "nuo4 yi1 ": 8021,
  "cong1 ": 8022,
  " ji2 lin2 ": 8023,
  "xiang1 tong2 de ": 8024,
  " zhong1 guo2 guo2 min2 ": 8025,
  " di4 1 ": 8026,
  "ya4 mu4 ": 8027,
  " zhe4 shou3 ": 8028,
  "guang1 xu4 ": 8029,
  "can1 yu4 le ": 8030,
  " zhong4": 8031,
  "ji4 zai4 ": 8032,
  "wu3 yue4 ": 8033,
  "dan1 yi1 ": 8034,
  "bie2 de ": 8035,
  "1939 nian2 ": 8036,
  " he2 li3 ": 8037,
  "you2 tai4 ren2 ": 8038,
  " de cheng2 zhen4 ": 8039,
  "   12": 8040,
  "la1 er3 ": 8041,
  "xun2 qiu2 ": 8042,
  "1938 nian2 ": 8043,
  " bu4 er3 ": 8044,
  " xing2 xiang4 ": 8045,
  " wei2 chi2 ": 8046,
  "yin3 zhong3 ": 8047,
  " qin2 ": 8048,
  "e2 wei4 ": 8049,
  "bu2 yao4 ": 8050,
  "ay ": 8051,
  " r": 8052,
  " xu1 yao4 ": 8053,
  "shang1 de ": 8054,
  "1965 nian2 ": 8055,
  " bu4 di2 ": 8056,
  " yu2 lei4 ": 8057,
  "mei3 yuan2 de ": 8058,
  "ying2 ye4 ": 8059,
  " guan1 fang1 ": 8060,
  "   5 yue4 ": 8061,
  "1936 nian2 ": 8062,
  " zai4 gai1 ": 8063,
  " guo2 min2": 8064,
  " jiang1 qi2 ": 8065,
  "wei3 fu4 shu1 ji4 ": 8066,
  "cro": 8067,
  " dou1": 8068,
  "wu3 di4 ": 8069,
  "1959 nian2 ": 8070,
  "si1 lan2 ": 8071,
  " ke4 la1 ": 8072,
  "jie1 ren4 ": 8073,
  "zhi2 yuan2 ": 8074,
  " yi1 liao2 ": 8075,
  "ti3 yu4": 8076,
  "xiao4 ying4 ": 8077,
  "qian1 ding4 ": 8078,
  " jiao4 yu4": 8079,
  " huan2 ": 8080,
  "1967 nian2 ": 8081,
  " yi1 ci2 ": 8082,
  " qi2 zhong1 nan2 xing4 ": 8083,
  "di3 kang4 ": 8084,
  " liu2 yu4 ": 8085,
  " bao4": 8086,
  " Mar": 8087,
  " ling3 ": 8088,
  "yun4 he2 ": 8089,
  "ge1 de ": 8090,
  "huai2 yi2 ": 8091,
  " wei4 ci3 ": 8092,
  " di4 mian4 ": 8093,
  "zhi3 ding4 ": 8094,
  "ceng2 shui3 yu4 ": 8095,
  "rong2 na4 ": 8096,
  "gu3 fen4 you3 xian4 gong1 si1 ": 8097,
  "zhuan4 de xiao3 xing2 xing1 ": 8098,
  " hou4 qi1 ": 8099,
  " ke4 lai2 ": 8100,
  "jing4 sai4 ": 8101,
  "   ping2 jia4 ": 8102,
  "you2 qi2 ": 8103,
  "ge1 ju4 ": 8104,
  "liang2 shi2 ": 8105,
  "1935 nian2 ": 8106,
  " shi4 nei4 ": 8107,
  "yue4 nan2 ": 8108,
  " de di4 er4": 8109,
  "mo4 si1 ke1 ": 8110,
  " liang3 ge4 ": 8111,
  "you2 ren2 gong1 ": 8112,
  "zhang3 wei4 ": 8113,
  " shi4 xi1 ": 8114,
  " yi1 zhi1 ": 8115,
  " she4 ji1 ": 8116,
  "ba1 la1 ": 8117,
  "gan3 lan3": 8118,
  " jian4 li4 le ": 8119,
  " wu1 ke4 lan2 ": 8120,
  "chao2 de ": 8121,
  "tui1 chu1 de ": 8122,
  "ruan3 ti3 ": 8123,
  "   chu2 le ": 8124,
  "jiao4 yu2 ": 8125,
  "yang2 xian4 ": 8126,
  "men2 de ": 8127,
  " shi2 yong4 ": 8128,
  " su2": 8129,
  "zhong1 xin1 ": 8130,
  "shu4 shi4 ": 8131,
  " jian4 wei4 ": 8132,
  " chao2 xian1 ": 8133,
  " qian1": 8134,
  " er3 de2": 8135,
  "shuo4 shi4 xue2 wei4 ": 8136,
  "bian1 hao4 wei4 ": 8137,
  "wei2 zhi3 ": 8138,
  "li2 zi ": 8139,
  "hua2 sheng4 dun4": 8140,
  "zhi1 yuan2 ": 8141,
  "ge4 di4 ": 8142,
  " he2 ji2 ": 8143,
  " zhi4 zao4": 8144,
  " yi1 tiao2 ": 8145,
  "kai1 zhan3 ": 8146,
  "fa3 ting2 ": 8147,
  " qiu2 chang3 ": 8148,
  "qun2 ti3 ": 8149,
  "le yi1 xie1 ": 8150,
  " gong1 cheng2 shi1 ": 8151,
  " tui1 ": 8152,
  " 11 ": 8153,
  "a1 er3": 8154,
  "wu4 zhong1 ": 8155,
  "meng2 jun1 ": 8156,
  "bai3 nian2 ": 8157,
  "luo2 bo2 te4 ": 8158,
  "zong3 jian1 ": 8159,
  " jie2 gou4 ": 8160,
  " zai4 di4 er4 ": 8161,
  "ping2 jun1 hai3 ba2 gao1 du4 wei4 ": 8162,
  "   jing1 ji4 ": 8163,
  "zhi2 li4 ": 8164,
  " wei4 ming2 ": 8165,
  " wei4 yu2 zhong1 hua2 ren2 min2 gong4 he2 guo2 ": 8166,
  " ren2 min2 bi4 ": 8167,
  "du1 du1 ": 8168,
  "yang2 gong1 ": 8169,
  "ban4 nian2 ": 8170,
  " xi1 yin3 ": 8171,
  "ben3 tu3 ": 8172,
  "chuan2 bo1": 8173,
  "jian3 dan1 ": 8174,
  "zhuang1 jia3": 8175,
  " han2": 8176,
  "12 nian2 ": 8177,
  "gong1 kai1 ": 8178,
  " you3 li4 ": 8179,
  " ta1 ye3": 8180,
  "mian4 lin2 ": 8181,
  "huan4 zhe3 ": 8182,
  " tong1 guo4": 8183,
  " er2 gai1 di4 de ping2 jun1 hai3 ba2 gao1 du4 wei4 ": 8184,
  " you1 ": 8185,
  "chuo4": 8186,
  "   tian1 ": 8187,
  "shi1 ren2 ": 8188,
  "qi3 le ": 8189,
  "feng1 de ": 8190,
  "zu2 qiu2 dui4 ": 8191,
  "ni2 xi1 ya4 ": 8192,
  "cu4 jin4": 8193,
  "han3 mo4": 8194,
  " zai4 ri4 ben3 ": 8195,
  "lu4 zhan4 ": 8196,
  "jie1 shou1 ": 8197,
  "xun2 huan2 ": 8198,
  " sui2 zhe": 8199,
  "li4 zhong1 ": 8200,
  "la4 ": 8201,
  "1953 nian2 ": 8202,
  "tu2 xiang4 ": 8203,
  "2010 nian2 mei3 guo2 ren2 kou3 pu3 cha2 de shu4 ju4 ": 8204,
  " man3": 8205,
  "   and   ": 8206,
  "ji1 shi4 ": 8207,
  "chu1 dao4 ": 8208,
  "bo ": 8209,
  "yan3 chu1": 8210,
  "ying4 dui4 ": 8211,
  " zhi1 qian2": 8212,
  "fa3 lan2 ": 8213,
  "yin3 zhong3 zai1 pei2 ": 8214,
  " yun2 nan2 ": 8215,
  " da4 qiao2 ": 8216,
  "gui1 fan4 ": 8217,
  "shen3 cha2 ": 8218,
  " xi4 tong3": 8219,
  "fei1 lv4 bin1": 8220,
  " qing3": 8221,
  "chu1 ren4 ": 8222,
  "shuo1 shi4 ": 8223,
  " ji2 shi3": 8224,
  "dong4 hua4": 8225,
  "suo3 chu4 de hai3 ba2 wei4 gao1 yu2 hai3 ping2 mian4 ": 8226,
  "sheng3 wei3 ": 8227,
  " xin1 zeng1": 8228,
  "ka3 luo2 lai2 ": 8229,
  "yuan2 di4 ": 8230,
  "shen1 shang4 ": 8231,
  "1963 nian2 ": 8232,
  " zai4 bei3 ": 8233,
  " xi1 xi1 ": 8234,
  "ru4 qin1": 8235,
  "hen3 duo1": 8236,
  "lie4 shi4 ": 8237,
  "km ": 8238,
  "ji1 bai3 ": 8239,
  "wei2 er3": 8240,
  "xue2 xi2": 8241,
  " ji1 yin1 ": 8242,
  "zhang3 yue1 ": 8243,
  "tong1 xun4 ": 8244,
  "na4 xie1 ": 8245,
  "gang3 kou3 ": 8246,
  "zhan3 kai1": 8247,
  "yong3 jiu3 ": 8248,
  "fen1 bie2 wei4 ": 8249,
  "you2 ren2 gong1 yin3 zhong3 zai1 pei2 ": 8250,
  " lv3": 8251,
  "qing2 xing2 ": 8252,
  "1941 nian2 ": 8253,
  "qing2 xu4 ": 8254,
  "ce4 liang2": 8255,
  "re4 dai4 feng1 bao4 ": 8256,
  " he4": 8257,
  "ci4 wei4 ": 8258,
  "zheng3 he2 ": 8259,
  "han3 ": 8260,
  "ju1 min2 dian3 ": 8261,
  "   2017 nian2 ": 8262,
  "ji4 ji2 ": 8263,
  "gong3 ": 8264,
  " zhi1 fu3 ": 8265,
  " she4 hui4": 8266,
  " han4 zu2 ": 8267,
  "yu3 shi4 ": 8268,
  "dong4 gong1 ": 8269,
  "lu3 ke4 ": 8270,
  " bu4 jia1 ": 8271,
  " yi3 shang4 de ": 8272,
  " yu3 ci3 tong2 shi2 ": 8273,
  "mi3 ya4 ": 8274,
  " zhu3 chi2 ": 8275,
  " bao1 ": 8276,
  " xu3 ": 8277,
  "si4 ming2 ": 8278,
  "bing1 bu4 ": 8279,
  "tai1 ": 8280,
  "jie4 shao4": 8281,
  " de yi1 xie1 ": 8282,
  "di3 da2": 8283,
  " su1 lian2 ": 8284,
  "liao3 jie3": 8285,
  " i": 8286,
  " ou1 zhou1 ": 8287,
  "dui4 he2 ": 8288,
  "yu4 ji4 ": 8289,
  " si1 ka3 ": 8290,
  "shou3 xi2 ": 8291,
  "zu3 cheng2": 8292,
  "gao4 su4 ": 8293,
  "fa1 zhan3 de ": 8294,
  "NBA": 8295,
  " lei4 ": 8296,
  "yi3 hou4 ": 8297,
  "zhi3 yu2 ": 8298,
  "ge2 li4 ": 8299,
  "deng1 ji4 ": 8300,
  "1969 nian2 ": 8301,
  "ju4 qing2 ": 8302,
  " wei2 ya4 ": 8303,
  " zhong1 guo2 da4 lu4 de ": 8304,
  "chuang4 ban4 ": 8305,
  " zhi3 chu1 ": 8306,
  "xia4 xia2 yi3 xia4 di4 qu1 ": 8307,
  " wan2 cheng2 ": 8308,
  "   2016 nian2 ": 8309,
  "chu1 sheng1 ": 8310,
  "liu2 de ": 8311,
  "yan3 sheng1 ": 8312,
  "00 ": 8313,
  " zhi4 liao2": 8314,
  "da4 shi3 ": 8315,
  " xi1 an1 ": 8316,
  "zi1 zhu4 ": 8317,
  "fei1 fa3 ": 8318,
  "5 ge4 ": 8319,
  "bai2 zhi4 ": 8320,
  "guai4 ": 8321,
  " jiao4 shou4 ": 8322,
  "zhuang4 kuang4": 8323,
  " bi4 ye4 yu2 ": 8324,
  "xun2 yang2 jian4 ": 8325,
  "fen1 zhi1 yi1 ": 8326,
  "wen2 hua4 de ": 8327,
  " ao4 da4 li4 ": 8328,
  "xin1 jia1 po1 ": 8329,
  " cheng2 shi4 ": 8330,
  "   ji4 ": 8331,
  "kong1 jun1": 8332,
  "shun4 shi2 ": 8333,
  " bu4 bian4 ": 8334,
  " chu1 xi2 ": 8335,
  "wei1 xian3 ": 8336,
  " zhe4 bu4 ": 8337,
  " nian2 7 yue4 1 ri4 ": 8338,
  "wen4 ti2 de ": 8339,
  " jin4 shi4 chu1 shen1 ": 8340,
  "ta ": 8341,
  " zhi4 shao3": 8342,
  " xian4 ru4 ": 8343,
  "nan2 fang1 ": 8344,
  " bei4 qi2 ": 8345,
  " qi2 zhong1 nan2 ": 8346,
  "mao2 ze2 dong1 ": 8347,
  " deng1 ": 8348,
  "   10 yue4 ": 8349,
  "zi he2 ": 8350,
  "da2 er3 ": 8351,
  "lu3 shi4 ": 8352,
  " bu4 zhi4 ": 8353,
  " di4 si1 ": 8354,
  "zi1 sheng3 ": 8355,
  "pin2 lv4 ": 8356,
  "x   ": 8357,
  " tang1": 8358,
  " pai4 ": 8359,
  " shen4 ": 8360,
  "1957 nian2 ": 8361,
  " zhong1 zui4 ": 8362,
  " ji4 nian4": 8363,
  "pan4 jue2 ": 8364,
  " 15 ": 8365,
  "gong4 chan3 zhu3 yi4 ": 8366,
  " ー": 8367,
  " yi3 se4 lie4": 8368,
  " gai4 ": 8369,
  "duo1 ge4": 8370,
  "qu3 jia1 ": 8371,
  "yan2 zhong4": 8372,
  "ju2 ju2 zhang3 ": 8373,
  "   bei3 ": 8375,
  "fan2 zhi2 ": 8376,
  "zhu3 chang3 ": 8377,
  "gan1 su4 ": 8378,
  "zi4 xing2 che1 ": 8379,
  " 2005": 8380,
  "miao2 hui4 ": 8381,
  " yi1 mei2 ": 8382,
  "fen1 lei4": 8383,
  " ping2 jia4 ": 8384,
  "duo1 yang4 ": 8385,
  " nan2 bei3 ": 8386,
  "shao4 jiang4 ": 8387,
  "fei1 li4 ": 8388,
  " si1 xiang3 ": 8389,
  "gai3 shan4": 8390,
  "an4 zhao4 ": 8391,
  "dang1 ju2 ": 8392,
  " shi4 zhong1 xin1 ": 8393,
  " dan1 ren4": 8394,
  "   ling4 wai4 ": 8395,
  "hou4 shi4 ": 8396,
  "zhu4 di4 ": 8397,
  "yin3 shi2 ": 8398,
  " shi4 wu1 ke4 lan2": 8399,
  "ai1 na4 ": 8400,
  " gong1 zuo4 shi4 ": 8401,
  "can1 mou2 zhang3 ": 8402,
  "xiang4 xi1 ": 8403,
  "er4 zhan4 ": 8404,
  "niang4": 8405,
  "bao3 zheng4 ": 8406,
  "xue1 ": 8407,
  " cheng2 shi4 de ": 8408,
  " zhi1 ji4 ": 8409,
  " da4 jia1 ": 8410,
  " ming2 cheng1": 8411,
  " tong2 yi1 ": 8412,
  "jiao1 huan4 ": 8413,
  " he2 bing4 wei4 ": 8414,
  " 80": 8415,
  "yu3 yi3 ": 8416,
  "ze2 you3 ": 8417,
  "ling2 de ": 8418,
  "us ": 8419,
  "liu3 ": 8420,
  "ke1 fu1": 8421,
  "dang1 xuan3": 8422,
  " gong1 kai1 sai4 ": 8423,
  "hong1 zha4 ": 8424,
  "sui4 shi2 ": 8425,
  "chuan4 ": 8426,
  "ru4 xuan3": 8427,
  " zheng3 ": 8428,
  " 1998 nian2 ": 8429,
  "   zhu4 ": 8430,
  "zhe4 bu4 ": 8431,
  "ji3 he2 ": 8432,
  " yu2 di4 ": 8433,
  "shang1 wang2 ": 8434,
  "bian1 jing4 ": 8435,
  "wu2 ren2 ji1 ": 8436,
  "   2006": 8437,
  "ci4 da4 ": 8438,
  "wan4 ren2 ": 8439,
  "shen1 zhen4": 8440,
  "guang3 gao4": 8441,
  "R   ": 8442,
  " zhuan1 ji2 ": 8443,
  "1961 nian2 ": 8444,
  " di4 guo2 de ": 8445,
  " jian4 he2 ": 8446,
  "bao3 cun2 ": 8447,
  "bao4 zhi3 ": 8448,
  "gai3 bian1 ": 8449,
  "zeng1 qiang2 ": 8450,
  "O   ": 8451,
  " ma": 8452,
  "qun2 de ": 8453,
  " zai4 ji1 ": 8454,
  " fen1 bie2 wei4 ": 8455,
  " pai2 ": 8456,
  "ji1 bu4 ": 8457,
  "zhi1 ming2 ": 8458,
  "ru4 de ": 8459,
  "guo2 nei4 ": 8460,
  " gong1 zhan4 ": 8461,
  " yi3 nan2 ": 8462,
  "xian4 fa3 ": 8463,
  "zi3 nv3 ": 8464,
  "chui2 ": 8465,
  " xing2 cheng2 de ": 8466,
  "qu1 fen1 ": 8467,
  "ba1 fa2": 8468,
  "ban4 yan3 ": 8469,
  "   3 ": 8470,
  "en3 ": 8471,
  "ci3 zhi1 wai4 ": 8472,
  "wai4 wei2 ": 8473,
  "luo4 de ": 8474,
  "si1 xiang3 ": 8475,
  " da4 shi1 ": 8476,
  "fa3 ling4 ": 8477,
  " chu1 xian4 le ": 8478,
  "miao2 shu4": 8479,
  " de ming2 zi4 ": 8480,
  " guang1": 8481,
  "he2   ": 8482,
  " dan4 yin1 ": 8483,
  "shou4 hai4 ": 8484,
  "sha1 hai4 ": 8485,
  "zhi3 hui1 guan1 ": 8486,
  "sti": 8487,
  "xia4 de yi2 ge4 ": 8488,
  "huo4 shi4 ": 8489,
  " da4 zhong4 ": 8490,
  "ying1 guo2 de ": 8491,
  " 20 ": 8492,
  "wen2 zhong1 ": 8493,
  "ceng2 shi4 ": 8494,
  "bo1 er3 ": 8495,
  " yue4 tai2": 8496,
  " nan2 jing1 ": 8497,
  "cai2 wu4 ": 8498,
  "bing4 mei2 you3 ": 8499,
  "jiao4 yu4 bu4 ": 8500,
  "gong4 shi2 ": 8501,
  " wei4 you2 ": 8502,
  "mian4 ti3 ": 8503,
  "yan2 jiu1 yuan4 ": 8504,
  " yuan2 shi3 ": 8505,
  "jing3 guan1 ": 8506,
  "6 ge4 ": 8507,
  " xia2 ": 8509,
  "nuo4 si1 ": 8510,
  "1980 nian2 dai4 ": 8511,
  "1944 nian2 ": 8512,
  "ma3 tou2 ": 8513,
  "shi3 yong4 le ": 8514,
  "→": 8515,
  " sheng1 zhang3 yu2 hai3 ba2": 8516,
  "nong4": 8517,
  "cheng1 hao4 ": 8518,
  " de xiao3 ": 8519,
  " zai4 ying1 guo2 ": 8520,
  "zhan3 lan3": 8521,
  " fen1 bie2 shi4 ": 8522,
  "gao1 yuan2 ": 8523,
  "sheng4 di4 ": 8524,
  "fei2 ": 8525,
  " dao4 shi4 ": 8526,
  " da4 xing2": 8527,
  "jing1 ying2": 8528,
  " wu1": 8529,
  " niu3 yue1": 8530,
  "tao2 yuan2 ": 8531,
  "hou4 lai2 ": 8532,
  "pan4 luan4 ": 8533,
  "ma3 de ": 8534,
  "dian3 wei4 ": 8535,
  "heng1 ": 8536,
  " wei4 bei4 ": 8537,
  " yi4 si": 8538,
  " shang4 shu1 ": 8539,
  " zhe4 yang4 de ": 8540,
  "hang2 ye4 ": 8541,
  " xin1 jia1 ": 8542,
  " Al": 8543,
  " re4 ": 8544,
  " chun1 ": 8545,
  "ai4 guo2 ": 8546,
  "qing2 jie2 ": 8547,
  " mu4 qian2 shang4 wei4 ": 8548,
  " 2000": 8549,
  "tu1 chu1 ": 8550,
  "31 ": 8551,
  " he2 fa3 ": 8552,
  " dao4 bu4 ": 8553,
  "ping2 min2 ": 8554,
  "guan1 fei4 yan2 ": 8555,
  " ping2 lun4": 8556,
  "tuan2 zhang3 ": 8557,
  "shang4 yi1 ": 8558,
  "luo2 ji2 ": 8559,
  " yi4 ming2 ": 8560,
  " yi3 shi4 ": 8561,
  " mi3 de di4 qu1 ": 8562,
  " xian4 de yi2 ge4 fei1 jian4 zhi4 di4 qu1 ": 8563,
  "tian1 jia1 ": 8564,
  " yi4 ji2 ": 8565,
  "jiao4 shou4": 8566,
  " zuo4 chu1": 8567,
  "tian1 huang2 ": 8568,
  "fang2 zhi3 ": 8569,
  "dou4 zheng1 ": 8570,
  "wu4 zhong3 de ": 8571,
  " bu3 ": 8572,
  " gai3 wei2 ": 8573,
  "hong2 jun1 ": 8574,
  " er3 zai4 ": 8575,
  "jing1 guo4": 8576,
  " yan4 ": 8577,
  "ka1 fei1 ": 8578,
  " he2 ta1 de ": 8579,
  " yu3 da4 ": 8580,
  " ren4 ming4": 8581,
  "sai1 na4 ": 8582,
  " pei2 ": 8583,
  "lai2 si1 ": 8584,
  "hao3 you3 ": 8585,
  "1940 nian2 ": 8586,
  "zuo4 chu1": 8587,
  "chang2 qi1": 8588,
  "ling3 yu4": 8589,
  " zhong1 gong4 zhong1 yang1": 8590,
  "mian4 shi4 ": 8591,
  "chou2 bei4 ": 8592,
  "xiang3 fa3 ": 8593,
  "yuan2 zhong1 ": 8594,
  " yuan2 ze2 ": 8595,
  " zhi1 chu4 ": 8596,
  "dong1 ni2 ": 8597,
  "shang1 dian4 ": 8598,
  "pin3 pai2": 8599,
  "ming4 ling4": 8600,
  "gan3 ran3": 8601,
  "   2021 nian2 ": 8602,
  "ni2 de ": 8603,
  "dai4 lai2 ": 8604,
  " dang1 xuan3": 8605,
  " ning2 ": 8606,
  " 1999 nian2 ": 8607,
  "fu2 er3 ": 8608,
  "hang2 xian4 ": 8609,
  " ji1 du1 jiao4 ": 8610,
  " tong2 ri4 ": 8611,
  " xing2 zheng4 zhen4 qu1 ": 8612,
  " min2": 8613,
  "   X": 8614,
  " de li3 ": 8615,
  " de xi1 ": 8616,
  " shi4 nan2 ji2 zhou1 de ": 8617,
  "xiu1 gai3": 8618,
  " n ": 8619,
  "   sui2 ": 8620,
  " wei4 qi2 ": 8621,
  " he2 dao4": 8622,
  "li4 yong4 ": 8623,
  " shi2 dai4 de ": 8624,
  "shi1 bai4": 8625,
  " zuo4 biao1 wei4 ": 8626,
  "xing4 bie2 ": 8627,
  "chang2 jiang1 ": 8628,
  " wei2": 8629,
  "ding4 zai4 ": 8630,
  "‧": 8631,
  " bu4 de2 ": 8632,
  "fu2 hao4 ": 8633,
  "qi4 ti3 ": 8634,
  "chan3 ye4": 8635,
  " di4 er4 ci4 ": 8636,
  "ao4 si1 ka3 ": 8637,
  "   er2": 8638,
  "hui4 ji2 ": 8639,
  "zuo4 zhong1 ": 8640,
  "pin3 zhi4 ": 8641,
  "bin1 shi4 ": 8642,
  "1951 nian2 ": 8643,
  " gong1 jin1 ": 8644,
  "cheng1 wei2": 8645,
  " tun2": 8646,
  " yao2 ": 8647,
  "   zhu3 yao4 ": 8648,
  "ge1 er3 ": 8649,
  "chang3 jing3 ": 8650,
  " zui4 chu1": 8651,
  "she4 hui4 zhu3 yi4 ": 8652,
  "dang4 an4 ": 8653,
  "ying2 de2 le ": 8654,
  " 1990": 8655,
  " gong1 zuo4 de ": 8656,
  " yu3 zhou4": 8657,
  " zhe4 ci4 ": 8658,
  " nian2 12 yue4 31 ri4 ": 8659,
  "   zhan4 ": 8660,
  "zhan4 zhi4 ": 8661,
  "zhan4 ji4 ": 8662,
  "yu4 dao4 ": 8663,
  "jie1 jin4": 8664,
  "wu3 ming2 ": 8665,
  "chang3 shang4 ": 8666,
  "di3 zhi4 ": 8667,
  " san1 shi2 ": 8668,
  "niao3 lei4 ": 8669,
  "dong1 xian4 ": 8670,
  " bu4 er3": 8671,
  " zhi4 ding4 ": 8672,
  "wu3 qi4": 8673,
  "jing1 ji4 xue2 ": 8674,
  "lei4 si4 yu2 ": 8675,
  ".&": 8676,
  "zhong1 shi4 ji4 ": 8677,
  "dong4 yuan2 ": 8678,
  "fen1 cheng2 ": 8679,
  "kuo4 zhang1 ": 8680,
  "nan4 min2 ": 8681,
  "run4 ": 8682,
  " ming2 zi4 ": 8683,
  "jie1 chu4": 8684,
  "lie4 ru4": 8685,
  "ren2 min2 dai4 biao3 da4 hui4 ": 8686,
  " ji1 xie4 ": 8687,
  "ju4 feng1 ": 8688,
  "yan2 jiu1 suo3": 8689,
  "jiang1 su1 sheng3 ": 8690,
  " niu2 ": 8691,
  "   dui4 yu2 ": 8692,
  "fu2 de2 ": 8693,
  "yin3 li4 ": 8694,
  " xian4 dai4": 8695,
  "zhong4 zhi2 ": 8696,
  "jiang3 de ": 8697,
  "codi": 8698,
  "nu2 ": 8699,
  "1930 nian2 ": 8700,
  " ta1 shuo1 ": 8701,
  "5 gong1 li3 ": 8702,
  " chao1": 8703,
  " zhong1 shu1 ": 8704,
  "hou4 xuan3 ren2 ": 8705,
  "yan2 shen1 ": 8706,
  " dan4 bu4 ": 8707,
  " wei2 zhi3 ": 8708,
  "zhu1 long2 ": 8709,
  "mu4 si1 lin2 ": 8710,
  " 36": 8711,
  " 1 yue4 ": 8712,
  "   ke4 ": 8713,
  "fang1 cheng2 ": 8714,
  "che1 dao4 ": 8715,
  "su1 li3 ": 8716,
  "chen4 ": 8717,
  "sheng1 ming2 ": 8718,
  "deng3 zhi2 ": 8719,
  "ban1 fa1 ": 8720,
  "geng4 duo1": 8721,
  "hai4 e2": 8722,
  "hen2": 8723,
  " xiong1 ": 8724,
  "zu1 jie4 ": 8725,
  "32 ": 8726,
  "nd ": 8727,
  " jia1 jing4 ": 8728,
  "zhu4 ce4 ": 8729,
  " you2 yong3 ": 8730,
  " ceng2 zai4 ": 8731,
  "ren2 wei4 ": 8732,
  "dui4 you3 ": 8733,
  "ti3 xing2 ": 8734,
  "ye1 su1": 8735,
  " ji1 chu3 ": 8736,
  " chu1 shen1 ": 8737,
  "fen1 qu1 ": 8738,
  "bao3 cun2": 8739,
  "ling3 xiu4": 8740,
  "gong4 he2 guo2 de ": 8741,
  " wei4 fu2 qi2 yu2 gang1": 8742,
  " xiong2 ": 8743,
  "shi3 zhong1 ": 8744,
  "cheng1 zhi1 wei4 ": 8745,
  "lang3 de2 ": 8746,
  "90 nian2 ": 8747,
  " chu1 ru4 kou3 ": 8748,
  "tong1 xin4 ": 8749,
  "yan2 jiu1 yuan2 ": 8750,
  "xie2 tiao2": 8751,
  "huo3 ban4 ": 8752,
  " shi4 di4 yi1 ": 8753,
  " bing4 qie3 zai4 ": 8754,
  "jin3 biao1 sai4": 8755,
  " JR": 8756,
  " shou4 dao4 ": 8757,
  "ai4 de2 hua2 ": 8758,
  "xian4 shi2 ": 8759,
  "chuang3": 8760,
  "ban1 bu4 ": 8761,
  "hang2 zhou1 ": 8762,
  "jiao4 zuo4 ": 8763,
  "nv3 yan3 yuan2 ": 8764,
  "kao3 gu3 ": 8765,
  "mian4 ji1 he2 ": 8766,
  "zui4 zao3 de ": 8767,
  "gui1 mo2 de ": 8768,
  " 22": 8769,
  "pai2 de2 zhu3 ": 8770,
  "bing1 li4 ": 8771,
  "1931 nian2 ": 8772,
  " jia1 meng2 ": 8773,
  "ma3 lai2 ": 8774,
  "che4 di3 ": 8775,
  " pian4 ": 8776,
  "xi1 yuan2 ": 8777,
  "quan2 xian4 ": 8778,
  "qi3 de ": 8779,
  "bai4 zhan4 ": 8780,
  "reng2 you3 ": 8781,
  " cheng2 xu4": 8782,
  " jian4 you3 ": 8783,
  "shou3 duan4 ": 8784,
  "fen1 li2 ": 8785,
  "cheng2 zai4 ": 8786,
  "quan2 qiu2": 8787,
  "zu2 ren2 ": 8788,
  " zhong1 fa1 xian4 ": 8789,
  "shou3 fu3 ": 8790,
  "zu2 xie2 ": 8791,
  "zao1 shou4 ": 8792,
  " zhong1 guo2 gong4 chan3 dang3": 8793,
  " a": 8794,
  "   2015 nian2 ": 8795,
  "jiang1 shi4 ": 8796,
  "jiao1 cha1 ": 8797,
  " gai1 di4 de ": 8798,
  " gong1 yuan2 qian2 ": 8799,
  " di4 shi2 yi1 ": 8800,
  "   fu2 ": 8801,
  "yi3 shang4 ": 8802,
  "han4 yu3 ": 8803,
  "gua1 ": 8804,
  "mao1 ": 8805,
  "1933 nian2 ": 8806,
  " wei4 zhong1 guo2 ": 8807,
  " he2 lan2": 8808,
  " qiu2 yun4 dong4 yuan2 ": 8809,
  "ti2 gong1 de ": 8810,
  "ai4 qing2 ": 8811,
  "mian3 dian1 ": 8812,
  "tui4 xiu1": 8813,
  " ling4 yi4 fang1 mian4 ": 8814,
  " bu4 de2 bu4 ": 8815,
  " mu4 qian2 shang4 wei4 you2 ren2 gong1 yin3 zhong3 zai1 pei2 ": 8816,
  "jian1 zhi4 ": 8817,
  "hua2 da4 xue2 ": 8818,
  "cai2 chan3 ": 8819,
  " tai4 yang2 ": 8820,
  "wu4 li3 xue2 ": 8821,
  "an4 zhong1 ": 8822,
  "   4 yue4 ": 8823,
  "fen1 wei4 ": 8824,
  "tou2 de ": 8825,
  "1928 nian2 ": 8826,
  " zhe4 ye3 shi4 ": 8827,
  "gan3 jue2 ": 8828,
  "di ": 8829,
  "da2 de ": 8830,
  "wang3 de ": 8831,
  "han4 zi4 ": 8832,
  "mou2 sha1 ": 8833,
  " zai4 gong1 ": 8834,
  " jian4 zao4": 8835,
  " yin1 de ": 8836,
  "bao4 zha4": 8837,
  "dao3 yan3": 8838,
  " xi1 ban1 ya2 yu3 ": 8839,
  " nei4": 8840,
  "yuan2 shi2 ": 8841,
  "jin1 ri4 ": 8842,
  "lin2 si1 ": 8843,
  "rang4 ta1 ": 8844,
  "am ": 8845,
  "xue2 sheng1": 8846,
  " fen1 wei2 ": 8847,
  "ka3 luo2 lai2 na4": 8848,
  " qiu1": 8849,
  "fa3 shi4 ": 8850,
  "1942 nian2 ": 8851,
  " ji2 yi1 ": 8852,
  " chu1 yi1 ": 8853,
  " Mi": 8854,
  "fu4 you3 ": 8855,
  "te4 he2 ": 8856,
  "tai4 hou4 ": 8857,
  "zhong1 bu4 ": 8858,
  " da4 yue1": 8859,
  "sheng1 tai4 ": 8860,
  "wei3 yuan2 hui4 de ": 8861,
  "qian1 shu3": 8862,
  " wen2 hua4": 8863,
  " dang1 xuan3 ": 8864,
  " zhi4 zuo4 ren2 ": 8865,
  "xia4 xia2 de yi2 ge4 xiang1 ": 8866,
  " kong1 ": 8867,
  " tou4 guo4 ": 8868,
  "nan2 si1 la1 ": 8869,
  "gan4 xian4 ": 8870,
  " shi4 nan2 ": 8871,
  "yan2 chang2": 8872,
  "shui3 ku4 ": 8873,
  "zu2 zi4 zhi4 ": 8874,
  "bian1 ma3 ": 8875,
  "xu4 shu4 ": 8876,
  " wen1": 8877,
  "cho": 8878,
  "zi gong1 si1 ": 8879,
  " yue4 tuan2": 8880,
  " yi4 dian3 ": 8881,
  "dui4 wai4 ": 8882,
  "qi3 su4 ": 8883,
  "zhong4 dian3": 8884,
  " D ": 8885,
  " 34": 8886,
  "ji4 yu2 ": 8887,
  "te4 ji2 ": 8888,
  "bian1 cheng2 ": 8889,
  "in   ": 8890,
  "1943 nian2 ": 8891,
  " shi4 xiang1 gang3 ": 8892,
  "shen1 zhen4 ": 8893,
  " ma3 lai2 xi1 ya4 ": 8894,
  " 2025": 8895,
  " ren4 he2 ": 8896,
  "mu4 shi4 ": 8897,
  "New": 8898,
  " zai4 nan2 ": 8899,
  " he2 tong2 ": 8900,
  "shang4 shu4 ": 8901,
  " hui4 bei4 ": 8902,
  "wu3 han4": 8903,
  "ding4 qi1 ": 8904,
  "gai3 wei2": 8905,
  "   ge4 ren2 sheng1 huo2 ": 8906,
  " w": 8907,
  " kang1 xi1 ": 8908,
  "   7 yue4 ": 8909,
  "jin4 ji2 ": 8910,
  "fu4 zhi4 ": 8911,
  " shi4 ge4 ": 8912,
  "san1 ci4 ": 8913,
  "bo1 fang4": 8914,
  "ce4 lve4 ": 8915,
  " ji4 suan4 ji1 ": 8916,
  "feng3": 8917,
  " zhu3": 8918,
  " yao1 qiu2": 8919,
  "zhan4 wei4 ": 8920,
  "ru4 wei2 ": 8921,
  "qi4 ren2 ": 8922,
  "xie2 dai4 ": 8923,
  "wo4 er3 ": 8924,
  "tan4 suo3 ": 8925,
  "dui4 xiang4 ": 8926,
  "miao2 shu4 wei4 ": 8927,
  " ha1 er3 ": 8928,
  "codice ": 8930,
  " CD": 8931,
  " fan3 dui4 ": 8932,
  "chao3": 8933,
  "shu4 he2 ": 8934,
  "mei3 ri4 ": 8935,
  "shou3 bu4 ": 8936,
  "shi1 he2 ": 8937,
  "xiu1 si1 ": 8938,
  "sao3 ": 8939,
  "cu1 ": 8940,
  "xi4 lie4 de ": 8941,
  "tai2 bi4 ": 8942,
  "ban1 ci4 ": 8943,
  " de ji1 hui4 ": 8944,
  "jiong3": 8945,
  "   dong1 ": 8946,
  "zhuan3 wei2 ": 8947,
  " yuan2 you3 ": 8948,
  " ge4 da4 ": 8949,
  " ke4 li3 si1 ": 8950,
  "dong4 che1 ": 8951,
  "zhu3 chi2 ren2 ": 8952,
  "℃": 8953,
  "2 mi3 ": 8954,
  "   2020 nian2 ": 8955,
  "jue2 le ": 8956,
  "ren3 ": 8957,
  "ben1 ": 8958,
  " bu4 zheng4 ": 8959,
  " guo2 gong1 ": 8960,
  " li4 ke4 ": 8961,
  " gong1 kai1": 8962,
  "lu4 shang4 ": 8963,
  "min2 jin4 ": 8964,
  "gui1 hua4": 8965,
  " sui2 zhe ": 8966,
  "mo4 si1 ke1": 8967,
  "an1 ren2 ": 8968,
  "   zhi4 zuo4 ": 8969,
  "fu1 fu4 ": 8970,
  "ari": 8971,
  "zhuang4 bing4 du2": 8972,
  "as   ": 8973,
  "PlaySta": 8974,
  " cheng2 bao3 ": 8975,
  "qi2 shi4 ": 8976,
  "bei4 shi4 ": 8977,
  "na4 si1 ": 8978,
  "hang2 zhan4 ": 8979,
  "oun": 8980,
  "jian4 zao4 ": 8981,
  "tai2 wan1 de ": 8982,
  "pi1 ping2": 8983,
  "J ": 8984,
  "jing1 de ": 8985,
  " di4 2 ": 8986,
  "zheng4 quan2 ": 8987,
  "qu1 jian1 ": 8988,
  "zuo3 you4": 8989,
  "   xiang1 gang3 ": 8990,
  " nian2 nian2 ": 8991,
  " cheng2 wei2 yi1 ": 8992,
  " ge4 zi4 ": 8993,
  "yi2 min2": 8994,
  " xiang1 dang1 ": 8995,
  " you3 yi1 xie1 ": 8996,
  "kuo4 zhan3 ": 8997,
  "jiu4 du2 yu2 ": 8998,
  " fa1": 8999,
  "dong1 de ": 9000,
  "ke1 er3 ": 9001,
  "oog": 9002,
  " zhong1 zhi3 ": 9003,
  "kai1 mu4 ": 9004,
  "ba1 nen4": 9005,
  "du2 te4 de ": 9006,
  "fan4 wei2": 9007,
  " guo2 min2 dang3 ": 9008,
  " b": 9009,
  " e": 9010,
  " gu4 shi4 ": 9011,
  "   la1 ": 9012,
  "   2014 nian2 ": 9013,
  "xian4 xiang4 ": 9014,
  "wu2 er3 ": 9015,
  "ji3 nian2 ": 9016,
  " di4 2": 9017,
  "min2 zhu3": 9018,
  "zhe4 zhong3": 9019,
  " zhan4 ling3 ": 9020,
  "tian1 tang2 ": 9021,
  "jiang3 zui4 jia1 ": 9022,
  "qiu2 dui4": 9023,
  " biao3 ": 9024,
  " hui4 shang4 ": 9025,
  "feng1 ge2": 9026,
  "tong2 yang4": 9027,
  "huo2 dong4 de ": 9028,
  "3000": 9029,
  "   2010 nian2 ": 9030,
  "jiu1 ": 9031,
  "yin4 xiang4 ": 9032,
  " ming2 xing1 ": 9033,
  "dian4 che1 ": 9034,
  "fu3 zhu4 ": 9035,
  "xie2 shang1 ": 9036,
  " qian2 long2 ": 9037,
  "cui1 hui3": 9038,
  " ta3": 9039,
  " jiao3 ": 9040,
  " shan3 xi1 ": 9041,
  "   15": 9042,
  "   6 ": 9043,
  "shu1 shi4 ": 9044,
  " zai4 yuan2 ": 9045,
  " ri4 qi1 ": 9046,
  "nei4 meng2 gu3 ": 9047,
  "zhao4 pian1": 9048,
  " ci2": 9049,
  " pi2": 9050,
  " 38": 9051,
  "   8 yue4 ": 9052,
  "th   ": 9053,
  " di4 ba1 ": 9054,
  " ji2 yi3 ": 9055,
  " guo2 yu3 ": 9056,
  " qi2 bing1 ": 9057,
  "ling3 xian1 ": 9058,
  "cai1 ": 9059,
  " 55": 9060,
  "   sui1 ran2 ": 9061,
  "pin3 de ": 9062,
  "1912 nian2 ": 9063,
  " zhou1 ren2 ": 9064,
  "chuan1 yue4 ": 9065,
  "xi1 wang4 ": 9066,
  "sheng1 ming4 ": 9067,
  "jin4 zhi3 ": 9068,
  " 75": 9069,
  " lao2 ": 9070,
  "e4 er3 ": 9071,
  "lu4 yu3 ": 9072,
  "da4 xue2": 9073,
  " ri4 yi4 ": 9074,
  "you2 tai4 ": 9075,
  "te4 qu1 ": 9076,
  " bing4 biao3 shi4 ": 9077,
  "zui4 duo1 de ": 9078,
  "chang3 bi3 sai4 ": 9079,
  " te4 bie2 ": 9080,
  " di2": 9081,
  "jiao4 ke1 ": 9082,
  " he2 liu2 yu4 ": 9083,
  " cai3 ": 9084,
  "cheng2 shi2 ": 9085,
  "ge2 si1 ": 9086,
  " shi4 yuan2 ": 9087,
  "ju4 da4 de ": 9088,
  "bao3 zhang4": 9089,
  "ban4 yan3": 9090,
  "jie1 wei4 zhi1 ": 9091,
  " shi4 yi2 ge4 wei4 yu2 mei3 guo2 ": 9092,
  "mian4 ji1 he2 ren2 kou3 ": 9093,
  " hua1": 9095,
  " 90": 9096,
  "fang1 wei4 ": 9097,
  "ci3 shi4 ": 9098,
  "ju1 yu2 ": 9099,
  "du3 ": 9100,
  "1929 nian2 ": 9101,
  " ta1 jiang1 ": 9102,
  "zong3 jing1 li3 ": 9103,
  "ka3 la1 ": 9104,
  " tong2 shi2 ye3 ": 9105,
  "he4 se4 ": 9106,
  "xiang1 de ": 9107,
  "duo1 ming2 ": 9108,
  "bo1 chu1": 9109,
  "jia3 ji1 ": 9110,
  "shang4 xia4 ": 9111,
  "fen1 lan2 ": 9112,
  "huang2 jin1": 9113,
  "f   ": 9114,
  " feng1": 9115,
  " lu2": 9116,
  "   mu4 qian2 ": 9117,
  "wang2 hou4 ": 9118,
  "bo1 li4 ": 9119,
  "nu2 li4 ": 9120,
  "1927 nian2 ": 9121,
  " chu1 ren4": 9122,
  " jun1 guan1 ": 9123,
  " qi2 zhong1 you3 ": 9124,
  "mi2 ni3 ": 9125,
  "hang2 kong1 gong1 si1 ": 9126,
  " gai1 di4 de mian4 ji1 he2 ren2 kou3 ": 9127,
  " gai1 di4 de mian4 ji1 he2 ren2 kou3 jie1 wei4 zhi1 ": 9128,
  "diu1": 9129,
  "yue4 he2 ": 9130,
  "qu1 ji2 ": 9131,
  "zhu4 zhai2": 9132,
  "jian4 kang1 ": 9133,
  "han4 lin2 ": 9134,
  "ban3 ben3 de ": 9135,
  " zhi4 li4 yu2 ": 9136,
  " cai4 ": 9137,
  "yi2 ji4 ": 9138,
  "zhang1 de ": 9139,
  "dai4 bu3 ": 9140,
  "gao1 deng3": 9141,
  " Le": 9142,
  "fu4 yu3 ": 9143,
  "dan1 xin1 ": 9144,
  "zu2 yi3 ": 9145,
  " shi2 yue4 ": 9146,
  " yi1 tian1 ": 9147,
  "dan1 da3 ": 9148,
  "shang1 pin3 ": 9149,
  "tuan2 jie2 ": 9150,
  " yin1 ci3 zai4 ": 9151,
  "ying1 jun1 ": 9152,
  "bi3 er3 ": 9153,
  "jiu4 you3 ": 9154,
  "xiang3 de ": 9155,
  "chai2 ": 9156,
  "guo2 fang2": 9157,
  " chu1 xian4": 9158,
  " jia1 ru4 le ": 9159,
  "hui4 yi4 shang4 ": 9160,
  "cun2 zai4 yu2 ": 9161,
  "dian3 xing2 de ": 9162,
  "tang2 de ": 9163,
  "biao1 ji4 ": 9164,
  " yi1 chang2 ": 9165,
  " de2 li4 ": 9166,
  " dai4 lai2 ": 9167,
  " huai2": 9168,
  " yan2 jiu1 ": 9169,
  "   2013 nian2 ": 9170,
  "e1 ": 9171,
  "ju4 zhong1 ": 9172,
  "san1 wei4 ": 9173,
  "ting1 de ": 9174,
  "zhuang4 de ": 9175,
  "1932 nian2 ": 9176,
  "ji4 xu4": 9177,
  " ke4 luo2 ": 9178,
  " jin4 ji2 ": 9179,
  "gao1 jia4 ": 9180,
  "yi2 zhi3": 9181,
  "que4 bao3 ": 9182,
  "chuang4 shi3 ren2 ": 9183,
  "   wei4 le ": 9184,
  " 2004": 9185,
  " yuan3 ": 9186,
  "an1 shi4 ": 9187,
  "   2012 nian2 ": 9188,
  "a1 ji1 ": 9189,
  "xi4 jun1 ": 9190,
  "mu4 zhi4 ": 9191,
  "fu2 she4 ": 9192,
  " yi4 wai4 ": 9193,
  " da4 gui1 mo2 ": 9194,
  "chan3 sheng1": 9195,
  " zhu3 chi2": 9196,
  "rui4 dian3": 9197,
  "   9 yue4 ": 9198,
  "cha2 li3 ": 9199,
  "80 nian2 ": 9200,
  " de ji4 hua4 ": 9201,
  " guo2 min2 dang3": 9202,
  "jia2": 9203,
  "   qi2 zhong1 ": 9204,
  "jian3 li4 ": 9205,
  "gei3 ta1 ": 9206,
  "zuan3": 9207,
  "jue2 sai4 zhong1 ": 9208,
  "meng2 te4 ": 9209,
  " guo2 min2 zheng4 fu3 ": 9210,
  " zhu3 yao4 shi4 ": 9211,
  "wa4": 9212,
  "ping2 jun1": 9213,
  " shi2 jian1 de ": 9214,
  "lu4 xu4 ": 9215,
  "hei1 long2 jiang1 ": 9216,
  "zhong1 he2 ": 9217,
  "jia1 shi4 ": 9218,
  "shi1 di4 ": 9219,
  "duan4 shi2 jian1 ": 9220,
  " yi3 1 ": 9221,
  " xi1 li3 ": 9222,
  "fa1 hui1": 9223,
  "fa1 yan2 ren2 ": 9224,
  " wei2 qi2": 9225,
  " zhu3 ren4 ": 9226,
  "ting2 yun4 ": 9227,
  "C   ": 9228,
  " 70": 9229,
  "ani": 9230,
  "qian2 zai4 ": 9231,
  "diao4 yu2 ": 9232,
  "illi": 9233,
  " chu1 shou4 ": 9234,
  "duan3 zan4": 9235,
  " nong2 ": 9236,
  " shao4 ": 9237,
  "fu2 zhou1 ": 9238,
  "guan1 ce4": 9239,
  "ta3 ni2": 9240,
  " shi3 yong4": 9241,
  " zhan4 di4 ": 9242,
  " dou1 shi4 ": 9243,
  " 1997 nian2 ": 9244,
  "shu4 ren2 ": 9245,
  "xu4 ji2 ": 9246,
  "chuan1 guo4 ": 9247,
  "fu4 zhu3 xi2 ": 9248,
  " zhou1 wei2 ": 9249,
  " fen1 bu4 zai4 ": 9250,
  " ceng2 jing1 ": 9251,
  " na4 me": 9252,
  " de yuan2 yin1 ": 9253,
  " ken3 ": 9254,
  "shi3 di4 ": 9255,
  "wu4 yu3 ": 9256,
  "ci4 ji1 ": 9257,
  "jue2 yu2 ": 9258,
  " he2 li4 ": 9259,
  " guo2 wang2": 9260,
  " zhi1 cheng1 ": 9261,
  " dan4 qi2 ": 9262,
  " xue2 xi2": 9263,
  "ling3 yu4 de ": 9264,
  "que4 ding4": 9265,
  "qun2 zhong4 ": 9266,
  "chuang4 zuo4": 9267,
  " shi4 jie4 de ": 9268,
  " zong3 tong3 ": 9269,
  "tan4 xian3": 9270,
  "ni2 ya4 de ": 9271,
  "   che1 zhan4 jie2 gou4 ": 9272,
  " gong1 bu4 ": 9273,
  " meng4 ": 9274,
  "xing2 xiang4 ": 9275,
  "suan4 fa3 ": 9276,
  "son ": 9277,
  "1934 nian2 ": 9278,
  "shu4 mu4 ": 9279,
  " er2 lai2 ": 9280,
  "zhi2 bo1 ": 9281,
  " fu4 gai4 ": 9282,
  "gao4 su4": 9283,
  " nian2 dai4 chu1 ": 9284,
  "ao4 da4 li4 ya4": 9285,
  "   can1 kao3 ": 9286,
  "you3 guan1 ": 9287,
  "zui4 zao3 ": 9288,
  " dang1 nian2 ": 9289,
  " cheng2 li4 le ": 9290,
  "qu4 shi4 hou4 ": 9291,
  "6 mi3 ": 9292,
  "li1": 9293,
  " hu4": 9294,
  " ke3 neng2": 9295,
  "yu4 bei4 ": 9296,
  "shen2 de ": 9297,
  "chong2 fu4 ": 9298,
  "tui1 xing2 ": 9299,
  "1924 nian2 ": 9300,
  " dao4 zhong1 ": 9301,
  "hai3 yang2": 9302,
  " de di4 yi2 ge4 ": 9303,
  "5   ": 9304,
  "an4 shi4 ": 9305,
  "zhan3 xian4 ": 9306,
  "duo3 ": 9307,
  " shi4 bei4 ": 9308,
  " yin1 yuan2 ": 9309,
  " yin1 qi2 ": 9310,
  "zhu4 zhai2 ": 9311,
  "fu2 hua4 ": 9312,
  "jing4 nei4 de ": 9313,
  "ge1 ci2 ": 9314,
  " li": 9315,
  " qin2": 9316,
  " 46": 9317,
  "an4 shi2 ": 9318,
  "ai3 ": 9319,
  "lie4 si1 ": 9320,
  "du1 hui4 ": 9321,
  "song4 dao4 ": 9322,
  " ji2 er3 ": 9323,
  "xi1 ya4 ": 9324,
  "wu3 dao3 ": 9325,
  "jing4 wai4 ": 9326,
  "mi4 qie4": 9327,
  "e2 hai4 e2": 9328,
  " lu4 yi4 ": 9329,
  "pai2 hang2 bang3": 9330,
  "   6 yue4 ": 9331,
  "zhe3 ren4 wei2 ": 9332,
  "33 ": 9333,
  " da4 qiao2": 9334,
  "fang2 jian1 ": 9335,
  "guo2 jia1 dui4 ": 9336,
  "zhe4 jiang1 sheng3 ": 9337,
  "zhi1 dao4 ": 9338,
  "duo1 yuan2 ": 9339,
  "ss ": 9340,
  " yi3 lai2": 9341,
  "shen1 wang2 ": 9342,
  "fan3 dui4": 9343,
  "tan4 ce4 ": 9344,
  " deng1": 9345,
  "duan1 de ": 9346,
  " di4 zhong1 ": 9347,
  " ta1 hai2": 9348,
  "jing1 you2 ": 9349,
  "25 nian2 ": 9351,
  " yi1 tong2": 9352,
  " ri4 hou4 ": 9353,
  " sheng1 cheng1 ": 9354,
  "gui1 ze2": 9355,
  "cai2 zheng4": 9356,
  " lian2 jie1 ": 9357,
  "man3 zu2": 9358,
  " 150": 9359,
  "jin4 xing2 de ": 9360,
  " er3 yu3 ": 9361,
  "cun1 min2 ": 9362,
  "pen": 9363,
  "hou4 bu4 jiu3 ": 9364,
  "chu1 zhan4 ": 9365,
  "fu4 bu4 zhang3 ": 9366,
  " li4 shu3": 9367,
  " xing2 yu2 ": 9368,
  "la1 te4 ": 9369,
  "ba1 le4": 9370,
  "tou2 xian2 ": 9371,
  "qiang2 da4 de ": 9372,
  "shou1 lu4": 9373,
  " yi1 wei4 ": 9374,
  "   2011 nian2 ": 9375,
  "zhan4 zai4 ": 9376,
  "fen1 de ": 9377,
  "wang3 qiu2": 9378,
  "kuo4 jian4 ": 9379,
  "cheng2 ji4 ": 9380,
  " ji2 si1 ": 9381,
  " jia1 si1 ": 9382,
  " bing4 you3 ": 9383,
  " 12 ": 9384,
  " ya3": 9385,
  "kua4 ": 9386,
  "yi1 li4 ": 9387,
  "ke1 fu1 ": 9388,
  "3 mi3 ": 9389,
  "   gen1 ju4": 9390,
  "a1 li3 ": 9391,
  "yu2   ": 9392,
  "qi1 shi4 ": 9393,
  " he2 dong1 ": 9394,
  " ri4 yu3 ": 9395,
  "zhan4 lve4 ": 9396,
  "zhi2 wu4": 9397,
  " xue2 hui4 ": 9398,
  "wan2 cheng2 le ": 9399,
  "wan2 zheng3 de ": 9400,
  " ji1 yu2 ": 9401,
  "   ci3": 9402,
  "shuo1 de ": 9403,
  "wor": 9404,
  "zhen1 zheng4 ": 9405,
  " qi2 ta1 de ": 9406,
  "chang2 wei3 hui4 ": 9407,
  "ban4 dao3": 9408,
  "hang2 ban1 ": 9409,
  "fang2 kong1 ": 9410,
  " peng2 ": 9411,
  "   xiang1 ": 9412,
  "   ri4 ben3 ": 9413,
  "   jian4 zhu4 ": 9414,
  "di1 de ": 9415,
  "za2 de ": 9416,
  " zhong1 dui4 ": 9417,
  "da4 liang4 ": 9418,
  "EN": 9419,
  " si3 ": 9420,
  "ding4 li3 ": 9421,
  "xiao4 she4 ": 9422,
  "xie3 le ": 9423,
  "et ": 9424,
  " ji2 jiang1 ": 9425,
  " da4 sai4 ": 9426,
  "pu3 tong1": 9427,
  " guo2 ji4 ji1 chang3 ": 9428,
  "you1 xiu4 ": 9429,
  "   gen1 ju4 2010 nian2 mei3 guo2 ren2 kou3 pu3 cha2 de shu4 ju4 ": 9430,
  " 2003": 9431,
  " 180": 9432,
  " xuan2 ": 9433,
  "ba1 shi2 ": 9434,
  "sheng3 zheng4 fu3 ": 9435,
  "bao3 wei4 ": 9436,
  "dou1 bu4 ": 9437,
  " zai4 xian4 ": 9438,
  "san1 zhong3 ": 9439,
  "xiao3 zu3": 9440,
  "hu4 dong4 ": 9441,
  "chong2 xin1": 9442,
  "che4 tui4 ": 9443,
  " M ": 9444,
  " guan1 zhi4 ": 9445,
  "ch   ": 9446,
  "ren4 yi4 ": 9447,
  "xiang2 xi4 ": 9448,
  "chui2 zhi2 ": 9449,
  " chu1 xian4 de ": 9450,
  "ke1 xue2": 9451,
  "da3 suan4 ": 9452,
  "nuo4 man4 ": 9453,
  " P ": 9454,
  "   gao1 ": 9455,
  "pan ": 9456,
  " yi1 zhong3": 9457,
  " xing2 he2 ": 9458,
  "xue2 shi4 xue2 wei4 ": 9459,
  " g": 9460,
  " wan3 ": 9461,
  "   st": 9462,
  "a1 fu4 ": 9463,
  "bu4 wei4 yu2 ": 9464,
  "xiao4 you3 ": 9465,
  "26 ": 9466,
  "zang4 yu2 ": 9467,
  "ts ": 9468,
  " he2 ji1 ": 9469,
  " yi1 lang3": 9470,
  " he2 nan2 sheng3 ": 9471,
  "han3 mo4 de2 ": 9472,
  " zeng1 ": 9473,
  "qian1 ren2 ": 9474,
  "dang3 ji2 ": 9475,
  "bai3 wan4 ": 9476,
  "28 ": 9477,
  " xian4 yu3 ": 9478,
  " xian4 zai4 de ": 9479,
  "xiang1 hu4 ": 9480,
  "yan2 chang2 ": 9481,
  " ke4 sa4 si1 ": 9482,
  "chao2 ting2 ": 9483,
  "2   ": 9484,
  "hou4 ta1 ": 9485,
  "jiang3 zhong1 ": 9486,
  "ren2 min2": 9487,
  "fa1 bu4 de ": 9488,
  "jie2 du4 shi3 ": 9489,
  "zi1 xun4": 9490,
  "wu1 ran3": 9491,
  " shou3 ci4": 9492,
  "tan2 pan4": 9493,
  " ruan3": 9494,
  " gui4 ": 9495,
  "zhen1 yu3 ": 9496,
  " shi4 dui4 ": 9497,
  " ta1 cheng2 wei2 ": 9498,
  " zhou1 he2 ": 9499,
  "tian1 qi4 ": 9500,
  "ban4 fa3 ": 9501,
  " zhao1 ": 9502,
  "   fa3 guo2 ": 9503,
  "ben3 bu4 ": 9504,
  "liu2 xue2 ": 9505,
  "gai3 ming2 ": 9506,
  "27 ": 9507,
  "STAT": 9508,
  " da4 cheng2 ": 9509,
  " ren4 zhi2 ": 9510,
  "bao3 zhang4 ": 9511,
  "na4 ru4 ": 9512,
  " quan2 mian4 ": 9513,
  "pan4 chu3 ": 9514,
  " shi4 shi4 jie4": 9515,
  "mao4 xian3 ": 9516,
  "li3 shi4 hui4 ": 9517,
  " ren2 kou3 de ": 9518,
  "tu2 shu1 guan3": 9519,
  "1 hao4 ": 9520,
  "er2 tong2": 9521,
  "zong3 zhan4 ": 9522,
  "su4 she4 ": 9523,
  "chuan2 qi2 ": 9524,
  "qu4 de ": 9525,
  "fou3 ren4 ": 9526,
  "lian3 ": 9527,
  " shi4 zheng4 fu3 ": 9528,
  " nian2 qian2 ": 9529,
  " zai4 qi2": 9530,
  " bu4 jin3": 9531,
  " si1 fa3 ": 9532,
  "min2 zhong4": 9533,
  " bing4 jiang1": 9534,
  "ke4 yun4 ": 9535,
  "zhuan3 yi2 ": 9536,
  "qu3 de2 le ": 9537,
  " lan2": 9538,
  "qian2 xian4 ": 9539,
  "can1 yi4 yuan2 ": 9540,
  "ci2 hui4 ": 9541,
  "xing3 ": 9542,
  " zhi1 bu4 ": 9543,
  "ren4 zhi2 ": 9544,
  "wai4 guan1 ": 9545,
  "ming4 ming2 de ": 9546,
  "ren2 da4 dai4 biao3 ": 9547,
  "liu4 ge4 ": 9548,
  " yi3 2 ": 9549,
  "wang3 wang3 ": 9550,
  "bian1 jie4": 9551,
  "hu2 po1 ": 9552,
  "deng1 lu4": 9553,
  " jiang1 xi1 ": 9554,
  " com": 9555,
  " 1992 nian2 ": 9556,
  "   chen2 ": 9557,
  "wei2 ren2 ": 9558,
  "duo1 bu4 ": 9559,
  "san1 yue4 ": 9560,
  "dang4 zuo4 ": 9561,
  "fang1 cheng2 shi4 ": 9562,
  "liang4 xiang4 ": 9563,
  " ri4 ben3 de ": 9564,
  "luo2 ma3 di4 guo2 ": 9565,
  " xian4 de yi2 ge4 xing2 zheng4 zhen4 qu1 ": 9566,
  "ying3 dai4 ": 9567,
  "jia3 she4 ": 9568,
  " shi4 yan4 ": 9569,
  " wei4 wei4 ": 9570,
  "fa3 guo2 de ": 9571,
  " xiang1 si4 ": 9572,
  "dan1 mai4": 9573,
  "yan3 zou4": 9574,
  "mi4 du4 ": 9575,
  "hui2 gui1": 9576,
  "ren2 kou3 pu3 cha2 ": 9577,
  "che1 ren2 ": 9578,
  "bo1 chu1 de ": 9579,
  "zhen1 de ": 9580,
  "80 ": 9581,
  " zhi1 hou4 zai4 ": 9582,
  "ru2 guo3": 9583,
  "xing1 xi4 ": 9584,
  "shan1 xi1 sheng3 ": 9585,
  " chuang4": 9586,
  " 37": 9587,
  " 2023 nian2 ": 9588,
  " 1994 nian2 ": 9589,
  "   yan2 ge2 ": 9590,
  "mian3 yi4 ": 9591,
  "ka1 ": 9592,
  " jian4 zai4 ": 9593,
  " bei4 jing3 ": 9594,
  "zhe4 yang4 de ": 9595,
  " quan2 de ": 9596,
  " tong2 shi2 ye3 shi4 ": 9597,
  " qi1 jian1": 9598,
  " da4 bu4 fen4": 9599,
  "   2008 nian2 ": 9600,
  "   yi3 xia4 ": 9601,
  "ti3 ji1 ": 9602,
  "na4 he2 ": 9603,
  " shi4 zhi3": 9604,
  "gai3 cheng1 ": 9605,
  " dong1 bei3": 9606,
  "wei3 yuan2 hui4 zhu3 xi2 ": 9607,
  "guang3 fan4 de ": 9608,
  " liu2 yu4 mian4 ji1 ": 9609,
  " qu3": 9610,
  "chuan2 di4 ": 9611,
  "cun1 de ": 9612,
  " xian4 zhong1 ": 9613,
  " da4 fu1 ": 9614,
  " dan4 de ": 9615,
  " lian2 meng2 ": 9616,
  " gen1 ju4 2020 nian2 mei3 guo2 ren2 kou3 pu3 cha2 de shu4 ju4 ": 9617,
  "kai1 fa1 de ": 9618,
  " feng2": 9619,
  " wang1": 9620,
  "you3 he2 ": 9621,
  "li2 shi4 ": 9622,
  "chao2 shi2 ": 9623,
  "ju2 shi4 ": 9624,
  "tao1 ": 9625,
  "zong3 mian4 ji1 ": 9626,
  "gai3 zao4": 9627,
  "wit": 9628,
  " heng1 li4 ": 9629,
  "xin1 xing2 ": 9630,
  "kai1 she4": 9631,
  "chang2 bei4 ": 9632,
  "zi3 dan4 ": 9633,
  "dang4 de ": 9634,
  "xue2 xi4 ": 9635,
  "shou1 cang2": 9636,
  " an1 de2 ": 9637,
  " 400": 9638,
  "le di4 ": 9639,
  "48 ": 9640,
  "is ": 9641,
  "kuang1 ": 9642,
  " cheng2 li4 de ": 9643,
  "xi1 yang2": 9644,
  " bing4 fei1": 9645,
  " zi4 mu3 ": 9646,
  " bi4 xu1 ": 9647,
  "hang2 kong1 mu3": 9648,
  " 39": 9649,
  "ge2 li3 ": 9650,
  "18 nian2 ": 9651,
  "jing3 yuan2 ": 9652,
  "qian3 ze2 ": 9653,
  "um ": 9654,
  " zai4 bei4 ": 9655,
  "bu4 tong2 ": 9656,
  "yi4 bai3 ": 9657,
  "dian4 zi3": 9658,
  "xu4 lie4 ": 9659,
  "fei1 lv4 bin1 ": 9660,
  " sheng1": 9661,
  " shuang1": 9662,
  " 21": 9663,
  "   tong2": 9664,
  "   tai2 wan1 ": 9665,
  "zhang3 he2 ": 9666,
  "jiao1 de ": 9667,
  "cha2 er3 si1 ": 9668,
  "wan3 nian2 ": 9669,
  "60 nian2 ": 9670,
  " shi2 you2 ": 9671,
  " ji1 xie4": 9672,
  "yi2 du4": 9673,
  "sai4 che1 ": 9674,
  "jiao1 jie4 ": 9675,
  "shang1 chang3 ": 9676,
  "fu2 shi4 ": 9677,
  " xi1 fang1 ": 9678,
  " qi2 hou4 yu2 ": 9679,
  "ting2 kao4": 9680,
  "dian4 ying3 de ": 9681,
  " qi4": 9682,
  " 300": 9683,
  " 1996 nian2 ": 9684,
  "   189": 9685,
  "xing1 jian4": 9686,
  "gen1 ben3 ": 9687,
  "pao3 dao4 ": 9688,
  " zhong1 qi1 ": 9689,
  " shi2 li4 ": 9690,
  "zheng4 chang2 ": 9691,
  " zhi1 shang4 ": 9692,
  "bao3 jia1": 9693,
  "yi2 ci4 shi4 jie4 da4 zhan4 ": 9694,
  "qiang2 diao4": 9695,
  "de2 guo2 de ": 9696,
  "bu3 chong1 ": 9697,
  "fu2 jian4 sheng3 ": 9698,
  " ji3": 9699,
  " St": 9700,
  " De": 9701,
  " luo2 si1 ": 9702,
  "   xiang1 gang3": 9703,
  "40 nian2 ": 9704,
  " shi2 ke4 ": 9705,
  " ge4 bu4 ": 9706,
  "fen1 pei4": 9707,
  "fen1 lie4 ": 9708,
  "cri": 9709,
  " ting1 ": 9710,
  "hao4 de ": 9711,
  " you3 liang3 ": 9712,
  "li3 lan2 ": 9713,
  " zhou1 li4 ": 9714,
  "shou3 shu4 ": 9715,
  " dui4 wai4 ": 9716,
  "jin1 rong2": 9717,
  "shou4 huan1 ": 9718,
  "wang2 zi3 ": 9719,
  "gui1 lei4": 9720,
  " li4 shi3 xue2 jia1 ": 9721,
  " yi4 shu4 jia1 ": 9722,
  "san1 bu4 ": 9723,
  "si4 yue4 ": 9724,
  "or   ": 9725,
  "35 ": 9726,
  " dui4 wu3 ": 9727,
  "jin1 shan1 ": 9728,
  " xiang1 bi3 ": 9729,
  "yan3 jiang3 ": 9730,
  "nv3 hai2 ": 9731,
  "qing2 bao4": 9732,
  "yin1 su4 ": 9733,
  " mi3 zhi4 ": 9734,
  " guang1 xu4 ": 9735,
  "   8": 9736,
  "1925 nian2 ": 9737,
  "yan2 lun4 ": 9738,
  "wei1 xie2": 9739,
  "a1 er3 bei1 si1 ": 9740,
  "cui1 hui3 ": 9741,
  "24 xiao3 shi2 ": 9742,
  "fo2 jiao4": 9743,
  "   liu2 ": 9744,
  "sha1 de ": 9745,
  " he2 shang4 ": 9746,
  "sheng1 yin1 ": 9747,
  "zhi2 sheng1 ji1 ": 9748,
  " jin4 er2 ": 9749,
  "luo2 la1 ": 9750,
  "fan4 zui4": 9751,
  "qiao2 liang2 ": 9752,
  "sa4 la1 ": 9753,
  " mian4 ji1 0": 9754,
  "fa1 bu4 le ": 9755,
  "gu3 lao3 de ": 9756,
  " chong2 xin1 ": 9757,
  "chi": 9758,
  "eri": 9759,
  "gao1 di4 ": 9760,
  "gu3 ji4 ": 9761,
  "nv3 ren2 ": 9762,
  "me   ": 9763,
  "shui3 shen1 ": 9764,
  "yi3 se4 ": 9765,
  " jin1 shu3 ": 9766,
  "ge4 zhong3": 9767,
  "chao1 guo4": 9768,
  "zhong4 dian3 wen2 wu4 bao3 hu4 dan1 wei4 ": 9769,
  "jia1 li4 fu2 ni2 ya4 zhou1 ": 9770,
  "di1 qi4 ya1 ": 9771,
  "1 ming2 ": 9772,
  "ping1": 9773,
  "19 nian2 ": 9774,
  "dui4 ta1 ": 9775,
  "ID ": 9776,
  " shi4 xi1 ban1 ya2 ": 9777,
  " he2 ji4 ": 9778,
  " bu4 shi2 ": 9779,
  " shi2 da4 ": 9780,
  "ren4 ming4 ": 9781,
  "jing4 tou2 ": 9782,
  "lai2 ke4 ": 9783,
  "te4 zai4 ": 9784,
  "fu2 yin1 ": 9785,
  "ya4 si1 ": 9786,
  " guo2 shi2 ": 9787,
  " yuan2 zi ": 9788,
  "xin1 jiang1 ": 9789,
  "qian2 jin4 ": 9790,
  " she4 ying3 ": 9791,
  "tu2 sha1 ": 9792,
  "kong1 xi2 ": 9793,
  "tan3 ding1 ": 9794,
  " ke3 shi4 ": 9795,
  " yao4": 9796,
  " hao3 ": 9797,
  "ju2 bu4 ": 9798,
  "14 nian2 ": 9799,
  "shuo4 ": 9800,
  " yi4 da4 ": 9801,
  " jun1 tuan2 ": 9802,
  "nv3 zhu3 jue2 ": 9803,
  "shou1 ru4": 9804,
  " R ": 9805,
  " jing3 fang1 ": 9806,
  "E   ": 9807,
  "gen3": 9808,
  "luo4 ke4 ": 9809,
  "hui2 jia1 ": 9810,
  " gong1 gao4 ": 9811,
  " zhi1 hou4 de ": 9812,
  "mo2 te4": 9813,
  " shi4 yi1 ke1": 9814,
  " kuan1 ": 9815,
  "guang3 zhou1 shi4 ": 9816,
  "70 nian2 ": 9817,
  "seng1 ": 9818,
  "fu2 lei2": 9819,
  "zi1 xun2 ": 9820,
  "cheng2 li4 hou4 ": 9821,
  " bu4 zai4 ": 9822,
  "1970 nian2 dai4 ": 9823,
  " shi4 xing1 deng3 wei4 ": 9824,
  "da4 yu2 ": 9825,
  "zhuan3 cheng2 ": 9826,
  "yi1 yuan4 ": 9827,
  " yi3 bei3 ": 9828,
  " xian4 ming2 ": 9829,
  " ming2 xian3 ": 9830,
  "xuan3 qu1": 9831,
  "ying1 xiong2": 9832,
  "yan2 jiu1 zhong1 xin1 ": 9833,
  " а": 9834,
  "di2 shi4 ni2 ": 9835,
  "zhuan1 li4 ": 9836,
  " ren2 dui4 ": 9837,
  " guo2 jun1 ": 9838,
  " xia4 le ": 9839,
  "pu3 luo2 ": 9840,
  "zhuan1 men2": 9841,
  "pei2 xun4 ": 9842,
  " nian2 qing1 de ": 9843,
  " du4": 9844,
  " dou4 ": 9845,
  "jie1 de ": 9846,
  "wu3 de2 ": 9847,
  "gong4 ji4 ": 9848,
  "jiu4 zai4 ": 9849,
  "shui3 de ": 9850,
  "00 nian2 ": 9851,
  "luo4 zai4 ": 9852,
  "lun2 si1 ": 9853,
  "shen2 hua4 ": 9854,
  "dian4 ying3 jie2 ": 9855,
  "3 ming2 ": 9856,
  " kuai4 ": 9857,
  "   2005": 9858,
  "jiu4 bei4 ": 9859,
  "zhi4 du4 ": 9860,
  "yu3 mao2": 9861,
  " zheng4 quan2 ": 9862,
  "yi2 ding4 de ": 9863,
  "lan2 se4 ": 9864,
  "fa3 lan2 xi1": 9865,
  " ED": 9866,
  " yun4 ": 9867,
  "duo1 li4 ya4 ": 9868,
  "bian4 shi4 ": 9869,
  "ting2 de ": 9870,
  "kuai4 de ": 9871,
  "mai3 ": 9872,
  " shi4 ying1 guo2 ": 9873,
  " ji2 bing4": 9874,
  "qu1 zhu2": 9875,
  "fang1 xiang4 de ": 9876,
  " tian1 jin1 ": 9877,
  "5000": 9878,
  "gong1 he2 ": 9879,
  "nan2 ren2 ": 9880,
  "fei2 te4 ": 9881,
  "ti3 yu4 guan3 ": 9882,
  "1   ": 9883,
  "8 ge4 ": 9884,
  "zhi1 jia1 ": 9885,
  "gu3 de ": 9886,
  "gao4 shi4 ": 9887,
  " xing2 rong2": 9888,
  "ben3 shen1 ": 9889,
  "nei4 rui4 ": 9890,
  "tou2 shou3 ": 9891,
  "mo2 fa3 ": 9892,
  "ying2 yun4": 9893,
  "zhuan3 huan4": 9894,
  " shi4 shi2 shang4 ": 9895,
  " zi3 ": 9896,
  "da4 he2 ": 9897,
  "shui3 he2 ": 9898,
  "zhi4 zuo4": 9899,
  " ji2 xian4 ": 9900,
  " ri4 he2 ": 9901,
  " jun1 you3 ": 9902,
  "fu4 shi3 ": 9903,
  " zhou1 qi1 ": 9904,
  " you2 xi4 de ": 9905,
  "zhi3 kong4": 9906,
  "qing1 chu3 ": 9907,
  "zhun3 bei4": 9908,
  " 1949 nian2 ": 9909,
  "nang2 ": 9910,
  " shi2 pin3 ": 9911,
  " bing4 shi4 ": 9912,
  " tong2 zhi4 ": 9913,
  "chan3 wu4 ": 9914,
  "an4 zhao4": 9915,
  "ri4 ben3 de ": 9916,
  " xiong1": 9917,
  " 2002": 9918,
  " chu4 ": 9919,
  "wang3 you3 ": 9920,
  " wei4 li4 ": 9921,
  " yu2 2021": 9922,
  "liu2 liang4 ": 9923,
  "zheng1 qu3 ": 9924,
  "zhuan3 huan4 ": 9925,
  "mei3 guo2 ren2 kou3 pu3 cha2 ": 9926,
  " The   ": 9927,
  "sai1 er3 wei2 ya4 ": 9928,
  "   dao4 ": 9929,
  "zhan4 he2 ": 9930,
  "ke4 si1 ": 9931,
  "ru4 qiu2 ": 9932,
  "bian4 de ": 9933,
  "dan3 ": 9934,
  " xing2 ren2 ": 9935,
  "liang4 zi3 ": 9936,
  " wei4 yu2 yin2": 9937,
  "su1 dan1 ": 9938,
  "ke3 neng2 xing4 ": 9939,
  "zhuan4 xie3 ": 9940,
  "shun4 xu4 ": 9941,
  " lu2 wa3 er3 sheng3 ": 9942,
  "si4 chuan1 sheng3 ": 9943,
  " peng2": 9945,
  " wo4 ": 9946,
  "zai4   ": 9947,
  "ing ": 9948,
  "ji4 zai3 ": 9949,
  " xing2 rong2 ": 9950,
  " bei4 ren4 ming4 wei4 ": 9951,
  " zhu3 ti2 ": 9952,
  "qiu2 chang3 ": 9953,
  " shi4 jie4 shang4 ": 9954,
  " mei3 zhou1 ": 9955,
  "gou4 mai3 ": 9956,
  "fang1 zai4 ": 9957,
  "chuan1 xian4 ": 9958,
  "at   ": 9959,
  " yu2 shi2 de ren2 kou3 shu4 liang4 wei4 ren2 ": 9960,
  "bei4 jing3": 9961,
  "sai4 guan4 jun1 ": 9962,
  "gu3 dian3 ": 9963,
[...]
