{
  "!": 0,
  "\"": 1,
  "#": 2,
  "$": 3,
  "%": 4,
  "&": 5,
  "'": 6,
  "(": 7,
  ")": 8,
  "*": 9,
  "+": 10,
  ",": 11,
  "-": 12,
  ".": 13,
  "/": 14,
  "0": 15,
  "1": 16,
  "2": 17,
  "3": 18,
  "4": 19,
  "5": 20,
  "6": 21,
  "7": 22,
  "8": 23,
  "9": 24,
  ":": 25,
  ";": 26,
  "=": 27,
  "?": 28,
  "@": 29,
  "A": 30,
  "B": 31,
  "C": 32,
  "D": 33,
  "E": 34,
  "F": 35,
  "G": 36,
  "H": 37,
  "I": 38,
  "J": 39,
  "K": 40,
  "L": 41,
  "M": 42,
  "N": 43,
  "O": 44,
  "P": 45,
  "Q": 46,
  "R": 47,
  "S": 48,
  "T": 49,
  "U": 50,
  "V": 51,
  "W": 52,
  "X": 53,
  "Y": 54,
  "Z": 55,
  "[": 56,
  "\\": 57,
  "]": 58,
  "^": 59,
  "_": 60,
  "`": 61,
  "a": 62,
  "b": 63,
  "c": 64,
  "d": 65,
  "e": 66,
  "f": 67,
  "g": 68,
  "h": 69,
  "i": 70,
  "j": 71,
  "k": 72,
  "l": 73,
  "m": 74,
  "n": 75,
  "o": 76,
  "p": 77,
  "q": 78,
  "r": 79,
  "s": 80,
  "t": 81,
  "u": 82,
  "v": 83,
  "w": 84,
  "x": 85,
  "y": 86,
  "z": 87,
  "|": 88,
  "~": 89,
  "\n": 162,
  " ": 163,
  "": 164,
  "�": 165,
  "ng": 199,
  "h�": 200,
  "à": 201,
  "ā": 202,
  "ì": 203,
  "á": 204,
  "ī": 205,
  "è": 206,
  "ǎ": 207,
  "  ": 208,
  "é": 209,
  "í": 210,
  "sh�": 211,
  "ù": 212,
  "án": 213,
  "zh": 214,
  "ǐ": 215,
  "ō": 216,
  "ji": 217,
  "de": 218,
  "àn": 219,
  "ē": 220,
  "zh�": 221,
  "sh": 222,
  "ě": 223,
  "ó": 224,
  "ǔ": 225,
  "xi": 226,
  "ò": 227,
  "ú": 228,
  "ān": 229,
  "   ": 230,
  "ài": 231,
  "ū": 232,
  "ōng": 233,
  "ǒ": 234,
  "shì": 236,
  "hu": 237,
  "èi": 238,
  "gu": 239,
  "ián": 240,
  "hé": 241,
  "ào": 242,
  "āng": 243,
  "íng": 244,
  "yu": 245,
  "ǎn": 246,
  "ch": 247,
  "nián": 248,
  "yī": 249,
  "ǎng": 250,
  "én": 251,
  "ǒu": 252,
  "ìng": 253,
  "wèi": 254,
  "ǎo": 255,
  "zài": 256,
  "、": 257,
  "jī": 258,
  "ēng": 259,
  "zhōng": 260,
  "xī": 261,
  "bù": 262,
  "jì": 263,
  "àng": 264,
  "li": 265,
  "zhè": 266,
  "shí": 267,
  "dì": 268,
  "guó": 269,
  "yú": 270,
  "rén": 271,
  "òng": 272,
  "ch�": 273,
  "āo": 274,
  "du": 275,
  "ché": 276,
  "yǐ": 277,
  "lì": 278,
  "áng": 279,
  "yì": 280,
  "uò": 281,
  "ái": 282,
  "zhì": 283,
  "chéng": 284,
  "éi": 285,
  "xu": 286,
  "gōng": 287,
  "jí": 288,
  "ěi": 290,
  "iàn": 291,
  "ēn": 292,
  "óng": 293,
  "yuè": 294,
  "yǒu": 295,
  "yuán": 296,
  "dà": 297,
  "qi": 298,
  "ōu": 299,
  "lǐ": 300,
  "20": 301,
  "óu": 302,
  "āi": 303,
  "xiàn": 304,
  "jiā": 305,
  "sī": 306,
  "ūn": 307,
  "xíng": 308,
  "yǔ": 309,
  "èn": 310,
  "ǒng": 311,
  "ín": 312,
  "tā": 313,
  "rì": 314,
  "zhī": 315,
  "hòu": 316,
  "ǎi": 317,
  "gè": 318,
  "zhà": 319,
  "éng": 320,
  "le": 321,
  "wéi": 322,
  "huì": 323,
  "dào": 324,
  "19": 325,
  "bi": 326,
  "shà": 327,
  "qī": 328,
  "qí": 329,
  "shè": 330,
  "su": 331,
  "zhèng": 332,
  "míng": 333,
  "jiàn": 334,
  "xué": 335,
  "chū": 336,
  "yù": 337,
  "ěng": 338,
  "zuò": 339,
  "shēng": 340,
  "duì": 341,
  "yóu": 342,
  "qū": 343,
  "shàng": 344,
  "ěn": 345,
  "dé": 346,
  "lù": 347,
  "bèi": 348,
  "chá": 349,
  "ti": 350,
  "shǐ": 351,
  "zhàn": 352,
  "zhǔ": 353,
  "ēi": 354,
  "qu": 355,
  "jù": 356,
  "xīn": 357,
  "jūn": 358,
  "zhu": 359,
  "ěr": 360,
  "áo": 361,
  "shù": 362,
  "uì": 363,
  "rèn": 364,
  "fā": 365,
  "wù": 366,
  "bìng": 367,
  "kè": 368,
  "ér": 369,
  "dài": 370,
  "yí": 371,
  "jìn": 372,
  "zì": 373,
  "yīn": 374,
  "fù": 375,
  "fāng": 376,
  "jīng": 377,
  "nán": 378,
  "huà": 379,
  "xì": 380,
  "zhōu": 381,
  "píng": 382,
  "òu": 383,
  "xià": 384,
  "lái": 385,
  "yòng": 386,
  "shu": 387,
  "guān": 388,
  "tóng": 389,
  "》": 390,
  "《": 391,
  "fǎ": 392,
  "zhù": 393,
  "měi": 394,
  "há": 395,
  "·": 396,
  "jiān": 397,
  "jǐ": 398,
  "huò": 399,
  "dù": 400,
  "chu": 401,
  "běn": 402,
  "xiāng": 403,
  "zhí": 404,
  "dòng": 405,
  "xiàng": 406,
  "mín": 407,
  "jiāng": 408,
  "fēn": 409,
  "shǒu": 410,
  "quán": 411,
  "wén": 412,
  "yán": 413,
  "hà": 414,
  "suǒ": 415,
  "jiào": 416,
  "qián": 417,
  "diàn": 418,
  "tè": 419,
  "di": 420,
  "duō": 421,
  "ún": 422,
  "zuì": 423,
  "kāi": 424,
  "tu": 425,
  "jié": 426,
  "lián": 427,
  "zhǐ": 428,
  "kě": 429,
  "dàn": 430,
  "mù": 431,
  "yè": 432,
  "fú": 433,
  "mǎ": 434,
  "yě": 435,
  "dōng": 436,
  "qiú": 437,
  "běi": 438,
  "「": 439,
  "」": 440,
  "gāo": 441,
  "yà": 442,
  "qǐ": 443,
  "jiē": 444,
  "miàn": 445,
  "hǎi": 446,
  "zhǎng": 447,
  "shī": 448,
  "jīn": 449,
  "cǐ": 450,
  "lu": 451,
  "nèi": 452,
  "tǐ": 453,
  "sài": 454,
  "sān": 455,
  "tái": 456,
  "gé": 457,
  "xìng": 458,
  "guò": 459,
  "rù": 460,
  "201": 461,
  "děng": 462,
  "yào": 463,
  "ju": 464,
  "chē": 465,
  "cì": 466,
  "wǔ": 467,
  "gāi": 468,
  "dìng": 469,
  "cháng": 470,
  "biǎo": 471,
  "lā": 472,
  "gòng": 473,
  "jiè": 474,
  "shòu": 475,
  "dǎo": 476,
  "shān": 477,
  "chǎng": 478,
  "sì": 479,
  "bǐ": 480,
  "zé": 481,
  "tí": 482,
  "kē": 483,
  "dāng": 484,
  "néng": 485,
  "èr": 486,
  "wài": 487,
  "dān": 488,
  "xù": 489,
  "zi": 490,
  "kǒu": 491,
  "xiǎo": 492,
  "zǔ": 493,
  "bā": 494,
  "jué": 495,
  "lín": 496,
  "liú": 497,
  "shěng": 498,
  "yīng": 499,
  "ku": 500,
  "lán": 501,
  "luó": 502,
  "tōng": 503,
  "200": 504,
  "īng": 505,
  "mǐ": 507,
  "zhòng": 508,
  "en": 509,
  "zhě": 510,
  "shǔ": 511,
  "tiān": 512,
  "zhèn": 513,
  "ǚ": 514,
  "qì": 515,
  "zhǒng": 516,
  "liè": 517,
  "chēng": 518,
  "shū": 519,
  "yuàn": 520,
  "bǎo": 521,
  "tài": 522,
  "fǔ": 523,
  "fēng": 524,
  "gǔ": 525,
  "qīng": 526,
  "shēn": 527,
  "wáng": 528,
  "yùn": 529,
  "guǎn": 530,
  "fēi": 531,
  "jiù": 532,
  "liǎng": 533,
  "céng": 534,
  "méi": 535,
  "10": 536,
  "fèn": 537,
  "hào": 538,
  "�ng": 539,
  "yǎn": 540,
  "wěi": 541,
  "zǒng": 542,
  "xuǎn": 543,
  "xiào": 544,
  "dá": 545,
  "nà": 546,
  "liàng": 547,
  "bō": 548,
  "zú": 549,
  "jìng": 550,
  "bào": 551,
  "ní": 552,
  "wú": 553,
  "tǒng": 554,
  "huá": 555,
  "jiāo": 556,
  "yuē": 557,
  "yǐng": 558,
  "biàn": 559,
  "xīng": 560,
  "sù": 561,
  "shuǐ": 562,
  "yáng": 563,
  "hù": 564,
  "men": 565,
  "bāo": 566,
  "gē": 567,
  "bó": 568,
  "cān": 569,
  "cóng": 570,
  "diǎn": 571,
  "bì": 572,
  "rú": 573,
  "bàn": 574,
  "biān": 575,
  "wǎng": 576,
  "qǔ": 577,
  "mi": 578,
  "chǎn": 579,
  "sè": 580,
  "zī": 581,
  "chuán": 582,
  "00": 583,
  "shèng": 584,
  "rán": 585,
  "tú": 586,
  "zhāng": 587,
  "pǔ": 588,
  "gǎi": 589,
  "gǎng": 590,
  "nǚ": 591,
  "lìng": 592,
  "luò": 593,
  "yòu": 594,
  "tóu": 595,
  "cè": 596,
  "l�": 597,
  "chí": 598,
  "18": 599,
  "lǜ": 600,
  "qiān": 601,
  "shé": 602,
  "lí": 603,
  "dōu": 604,
  "pǐ": 605,
  "12": 606,
  "zhēng": 607,
  "ni": 608,
  "kuò": 609,
  "shā": 610,
  "dǎng": 611,
  "fǎn": 612,
  "gòu": 613,
  "lèi": 614,
  "xí": 615,
  "jǐng": 616,
  "tuán": 617,
  "wēi": 618,
  "xiē": 619,
  "lǐng": 620,
  "lóng": 621,
  "guī": 622,
  "xiān": 623,
  "róng": 624,
  "huáng": 625,
  "xiǎng": 626,
  "bān": 627,
  "jiǔ": 628,
  "yìng": 629,
  "mén": 630,
  "shāng": 631,
  "shén": 632,
  "202": 633,
  "bǎn": 634,
  "kǎ": 635,
  "mǔ": 636,
  "jǐn": 637,
  "fū": 638,
  "jǔ": 639,
  "mó": 640,
  "guǎng": 641,
  "cí": 642,
  "shuō": 643,
  "qíng": 644,
  "zhǎn": 645,
  "hái": 646,
  "zhuāng": 647,
  "mò": 648,
  "cái": 649,
  "dú": 650,
  "11": 651,
  "pǐn": 652,
  "tíng": 653,
  "cháo": 654,
  "yíng": 655,
  "tiáo": 656,
  "jiǎn": 657,
  "táng": 658,
  "huí": 659,
  "duàn": 660,
  "chén": 661,
  "gēn": 662,
  "mì": 663,
  "wàn": 664,
  "pái": 665,
  "wān": 666,
  "zào": 667,
  "háng": 668,
  "wán": 669,
  "biāo": 670,
  "gù": 671,
  "lún": 672,
  "199": 673,
  "xié": 674,
  "jiǎng": 675,
  "hàn": 676,
  "jú": 677,
  "fàn": 678,
  "fáng": 679,
  "huó": 680,
  "hán": 681,
  "pi": 682,
  "kōng": 683,
  "or": 684,
  "tiě": 685,
  "méng": 686,
  "bié": 687,
  "wū": 688,
  "jiě": 689,
  "zhuān": 690,
  "yǐn": 691,
  "xū": 692,
  "zhēn": 693,
  "dǐ": 694,
  "er": 695,
  "chú": 696,
  "hú": 697,
  "jià": 698,
  "bīng": 699,
  "mìng": 700,
  "líng": 701,
  "hóng": 702,
  "qīn": 703,
  "zǐ": 704,
  "lùn": 705,
  "xìn": 706,
  "chù": 707,
  "chǔ": 708,
  "sū": 709,
  "an": 710,
  "xiū": 711,
  "zōng": 712,
  "15": 713,
  "què": 714,
  "xiāo": 715,
  "zhào": 716,
  "qiáng": 717,
  "qù": 718,
  "cūn": 719,
  "chóng": 720,
  "piàn": 721,
  "jiū": 722,
  "fàng": 723,
  "suí": 724,
  "shōu": 725,
  "gèng": 726,
  "guāng": 728,
  "èng": 729,
  "jū": 730,
  "on": 731,
  "jiǎ": 732,
  "chuàng": 733,
  "dí": 734,
  "16": 735,
  "zhuǎn": 736,
  "guǒ": 737,
  "xùn": 738,
  "màn": 739,
  "pài": 740,
  "fèi": 741,
  "pèi": 742,
  "198": 743,
  "dǎ": 744,
  "tuō": 745,
  "la": 746,
  "xuān": 747,
  "bái": 748,
  "zhū": 749,
  "dū": 750,
  "tǔ": 751,
  "diào": 752,
  "xiá": 753,
  "liù": 754,
  "17": 755,
  "suì": 756,
  "huī": 757,
  "tīng": 758,
  "qiě": 759,
  "tǎ": 760,
  "qiáo": 761,
  "hā": 762,
  "gǎn": 763,
  "zēng": 764,
  "xiǎn": 765,
  "mài": 766,
  "huán": 767,
  "xǔ": 768,
  "wǎ": 769,
  "tuī": 770,
  "wèn": 771,
  "chāo": 772,
  "tián": 773,
  "bǎi": 774,
  "cǎi": 775,
  "liáng": 776,
  "yá": 777,
  "sà": 778,
  "ar": 779,
  "bài": 780,
  "cún": 781,
  "jiǎo": 782,
  "shǎo": 783,
  "yàn": 784,
  "zhuàng": 785,
  "huǒ": 786,
  "léi": 787,
  "14": 788,
  "zu": 789,
  "jiàng": 790,
  "chuān": 791,
  "yìn": 792,
  "zǎo": 793,
  "chà": 794,
  "yǒng": 795,
  "sǐ": 796,
  "dēng": 797,
  "30": 798,
  "zhǔn": 799,
  "lè": 800,
  "xún": 801,
  "nuò": 802,
  "kù": 803,
  "huàn": 804,
  "sòng": 805,
  "gào": 806,
  "lǔ": 807,
  "13": 808,
  "194": 809,
  "bāng": 810,
  "lǚ": 811,
  "pī": 812,
  "yàng": 813,
  "hěn": 814,
  "qún": 815,
  "zhěng": 816,
  "guàn": 817,
  "pò": 818,
  "gāng": 819,
  "wǒ": 820,
  "197": 821,
  "huā": 822,
  "lēi": 823,
  "hǎo": 824,
  "táo": 825,
  "kuàng": 826,
  "hè": 827,
  "in": 828,
  "dùn": 829,
  "nóng": 830,
  "gěi": 831,
  "sāi": 832,
  "shuāng": 833,
  "liàn": 834,
  "kuài": 835,
  "dī": 836,
  "bī": 837,
  "pàn": 838,
  "xiě": 839,
  "195": 840,
  "kǎo": 841,
  "gài": 842,
  "hēi": 843,
  "wàng": 844,
  "liào": 845,
  "rè": 846,
  "ge": 847,
  "zuǒ": 848,
  "kòng": 849,
  "196": 850,
  "yāng": 851,
  "chàng": 852,
  "yín": 853,
  "�u": 854,
  "réng": 855,
  "sēn": 856,
  "bēi": 857,
  "lú": 858,
  "piào": 859,
  "yā": 860,
  "25": 861,
  "bīn": 862,
  "—": 863,
  "ràng": 864,
  "chōng": 865,
  "lóu": 866,
  "bǔ": 867,
  "lǎo": 868,
  "zhú": 869,
  "jùn": 870,
  "yǎng": 871,
  "ruì": 872,
  "yāo": 873,
  "xián": 874,
  "xiè": 875,
  "niàn": 876,
  "for": 877,
  "yōu": 878,
  "tán": 879,
  "kāng": 880,
  "pí": 881,
  "héng": 882,
  "yún": 883,
  "xǐ": 884,
  "kàn": 885,
  "níng": 886,
  "liáo": 887,
  "shào": 888,
  "bú": 889,
  "24": 890,
  "qǐng": 891,
  "chǐ": 892,
  "mu": 893,
  "dòu": 894,
  "miǎn": 895,
  "yōng": 896,
  "tǎn": 897,
  "wǎn": 898,
  "hū": 899,
  "fān": 900,
  "al": 901,
  "tū": 902,
  "gān": 903,
  "suàn": 904,
  "dīng": 905,
  "yuǎn": 906,
  "wēn": 907,
  "tuì": 908,
  "zhe": 909,
  "21": 910,
  "st": 911,
  "xiù": 912,
  "bǎ": 913,
  "mǎn": 914,
  "193": 915,
  "23": 916,
  "mula": 917,
  "kàng": 918,
  "formula": 919,
  "28": 920,
  "th": 921,
  "máo": 922,
  "ruò": 923,
  "piān": 924,
  "chè": 925,
  "mào": 926,
  "lǎng": 927,
  "qín": 928,
  "bá": 929,
  "ná": 930,
  "zàn": 931,
  "guǐ": 932,
  "guì": 933,
  "ou": 934,
  "pín": 935,
  "wò": 936,
  "xióng": 937,
  "shàn": 938,
  "re": 939,
  "22": 940,
  "xiōng": 941,
  "me": 942,
  "suī": 943,
  "ü": 944,
  "26": 945,
  "shěn": 946,
  "qìng": 947,
  "miáo": 948,
  "fǎng": 949,
  "50": 950,
  "2020": 951,
  "27": 952,
  "láng": 953,
  "ru": 954,
  "qiū": 955,
  "sōng": 956,
  "üè": 957,
  "dàng": 958,
  "gēng": 959,
  "qiāng": 960,
  "ri": 961,
  "fá": 962,
  "zāo": 963,
  "fèng": 964,
  "zhàng": 965,
  "háo": 967,
  "dūn": 968,
  "zǒu": 969,
  "hài": 970,
  "qiè": 971,
  "29": 972,
  "tàn": 973,
  "pào": 974,
  "pà": 975,
  "shùn": 976,
  "péng": 977,
  "xuán": 978,
  "2010": 979,
  "nǐ": 980,
  "000": 981,
  "dǐng": 982,
  "niǔ": 983,
  "zǎi": 984,
  "zhāo": 985,
  "zhuī": 986,
  "lüè": 987,
  "chūn": 988,
  "2019": 989,
  "hūn": 990,
  "kǒng": 991,
  "duān": 992,
  "shèn": 993,
  "xiáng": 994,
  "duǎn": 995,
  "gàn": 996,
  "te": 997,
  "ro": 998,
  "kān": 999,
  "láo": 1000,
  "cǎo": 1001,
  "2016": 1002,
  "si": 1003,
  "gū": 1004,
  "péi": 1005,
  "2018": 1006,
  "kuǎn": 1007,
  "zá": 1008,
  "sūn": 1009,
  "yé": 1010,
  "yǎ": 1011,
  "pō": 1012,
  "2021": 1013,
  "ra": 1014,
  "chì": 1015,
  "duó": 1016,
  "2014": 1017,
  "fán": 1018,
  "2011": 1019,
  "2015": 1020,
  "cuò": 1021,
  "2017": 1022,
  "zhé": 1023,
  "yáo": 1024,
  "pāi": 1025,
  "tòu": 1026,
  "cáng": 1027,
  "2012": 1028,
  "40": 1029,
  "kǎi": 1030,
  "2013": 1031,
  "2022": 1032,
  "mí": 1033,
  "ruǎn": 1034,
  "suān": 1035,
  "chā": 1036,
  "zàng": 1037,
  "miào": 1038,
  "lt": 1039,
  "2009": 1040,
  "zhǎo": 1041,
  "2008": 1042,
  "huái": 1043,
  "ce": 1045,
  "60": 1046,
  "am": 1047,
  "cu": 1048,
  "xuè": 1049,
  "chóu": 1050,
  "se": 1051,
  "bǎng": 1052,
  "mèng": 1053,
  "100": 1054,
  "tì": 1055,
  "pú": 1056,
  "nǎo": 1057,
  "2023": 1058,
  "zhuàn": 1059,
  "gt": 1060,
  "lěi": 1061,
  "190": 1062,
  "31": 1063,
  "cài": 1064,
  "cù": 1065,
  "sàn": 1066,
  "móu": 1067,
  "tion": 1068,
  "ta": 1069,
  "hùn": 1070,
  "ǔn": 1071,
  "kuān": 1072,
  "2007": 1073,
  "niú": 1074,
  "mǒu": 1075,
  "tǎo": 1076,
  "dié": 1077,
  "2001": 1078,
  "ol": 1079,
  "téng": 1080,
  "sōu": 1081,
  "kěn": 1082,
  "qiǎn": 1083,
  "chāng": 1084,
  "rǎn": 1085,
  "quē": 1086,
  "fǒu": 1087,
  "sǔn": 1088,
  "el": 1089,
  "bà": 1090,
  "2000": 1091,
  "80": 1092,
  "kào": 1093,
  "suō": 1094,
  "2006": 1095,
  "niǎo": 1096,
  "chún": 1097,
  "ma": 1098,
  "2024": 1099,
  "lǎn": 1100,
  "zāi": 1102,
  "zhá": 1103,
  "xuě": 1104,
  "huǐ": 1105,
  "luàn": 1106,
  "tǐng": 1107,
  "2005": 1108,
  "zūn": 1109,
  "bàng": 1110,
  "là": 1111,
  "huān": 1112,
  "rǎng": 1113,
  "shuì": 1114,
  "mǐn": 1115,
  "35": 1116,
  "lài": 1117,
  "cāng": 1118,
  "70": 1119,
  "fó": 1120,
  "pán": 1121,
  "of": 1122,
  "nài": 1123,
  "wěn": 1124,
  "et": 1125,
  "cāo": 1126,
  "sāng": 1127,
  "páng": 1128,
  "90": 1129,
  "bǐng": 1130,
  "－": 1131,
  "zhā": 1132,
  "shuài": 1134,
  "niè": 1135,
  "es": 1136,
  "hóu": 1137,
  "mèi": 1138,
  "shāo": 1139,
  "nǔ": 1140,
  "dǒng": 1141,
  "il": 1142,
  "at": 1143,
  "ow": 1144,
  "féng": 1145,
  "miè": 1146,
  "yǔn": 1147,
  "zòu": 1148,
  "mǎi": 1149,
  "huài": 1150,
  "2004": 1151,
  "45": 1152,
  "yān": 1153,
  "co": 1154,
  "48": 1155,
  "the": 1156,
  "zhuó": 1157,
  "and": 1158,
  "ter": 1159,
  "he": 1160,
  "tào": 1161,
  "nǎi": 1162,
  "kūn": 1163,
  "2025": 1164,
  "zhěn": 1165,
  "ck": 1166,
  "rǔ": 1167,
  "kuà": 1168,
  "kuí": 1169,
  "〉": 1170,
  "〈": 1171,
  "gōu": 1172,
  "36": 1173,
  "cuī": 1174,
  "38": 1175,
  "shǎn": 1176,
  "ròu": 1177,
  "diāo": 1178,
  "2003": 1179,
  "hǔ": 1180,
  "guō": 1181,
  "37": 1182,
  "cuì": 1183,
  "ne": 1184,
  "xú": 1185,
  "máng": 1186,
  "juǎn": 1187,
  "cán": 1188,
  "diān": 1189,
  "zhān": 1190,
  "cáo": 1191,
  "189": 1192,
  "IN": 1193,
  "2002": 1194,
  "is": 1195,
  "bo": 1196,
  "kēng": 1197,
  "TC": 1198,
  "ve": 1199,
  "34": 1200,
  "má": 1201,
  "lěng": 1202,
  "as": 1203,
  "zū": 1204,
  "75": 1205,
  "–": 1206,
  "sú": 1207,
  "quān": 1208,
  "dā": 1209,
  "to": 1210,
  "chāi": 1211,
  "nu": 1212,
  "làng": 1213,
  "kùn": 1214,
  "46": 1215,
  "tún": 1216,
  "fěn": 1217,
  "1990": 1218,
  "…": 1219,
  "zhòu": 1220,
  "shǎng": 1221,
  "rào": 1222,
  "hēng": 1223,
  "tī": 1224,
  "xūn": 1225,
  "39": 1226,
  "nè": 1227,
  "..": 1228,
  "pì": 1229,
  "nàn": 1230,
  "pān": 1231,
  "65": 1232,
  "hōng": 1233,
  "shú": 1234,
  "tān": 1235,
  "Ch": 1236,
  "tāng": 1237,
  "kǎn": 1238,
  "Ma": 1239,
  "nì": 1240,
  "32": 1241,
  "In": 1242,
  "ST": 1243,
  "47": 1244,
  "hǎn": 1245,
  "it": 1246,
  "UTC": 1247,
  "qiàn": 1248,
  "1999": 1249,
  "1998": 1250,
  "1980": 1251,
  "188": 1252,
  "500": 1253,
  "33": 1254,
  "64": 1255,
  "qiǎng": 1256,
  "shuò": 1257,
  "pǎo": 1258,
  "lo": 1259,
  "be": 1260,
  "kā": 1261,
  "zhái": 1262,
  "SE": 1263,
  "55": 1264,
  "quàn": 1265,
  "nī": 1266,
  "dèng": 1267,
  "1997": 1268,
  "The": 1269,
  "mián": 1270,
  "49": 1271,
  "gǎo": 1272,
  "II": 1273,
  "68": 1274,
  "Co": 1275,
  "vi": 1276,
  "shě": 1277,
  "zèng": 1278,
  "Re": 1279,
  "han": 1280,
  "zhóu": 1281,
  "zhài": 1282,
  "44": 1283,
  "1996": 1284,
  "na": 1285,
  "tiē": 1286,
  "dāo": 1287,
  "ad": 1288,
  "br": 1289,
  "1994": 1290,
  "ver": 1291,
  "féi": 1292,
  "zòng": 1293,
  "qióng": 1294,
  "ci": 1295,
  "tiào": 1296,
  "chuáng": 1297,
  "1992": 1298,
  "ba": 1299,
  "chuí": 1300,
  "juān": 1301,
  "chái": 1302,
  "miǎo": 1303,
  "guā": 1304,
  "xuē": 1305,
  "tòng": 1306,
  "1995": 1307,
  "fěi": 1308,
  "chī": 1309,
  "oo": 1310,
  "měng": 1311,
  "wō": 1312,
  "67": 1313,
  "ir": 1314,
  "shuāi": 1315,
  "tuó": 1316,
  "chuāng": 1317,
  "huǎn": 1318,
  "1991": 1319,
  "1970": 1320,
  "58": 1321,
  "ay": 1322,
  "1950": 1323,
  "ca": 1324,
  "nd": 1325,
  "guà": 1326,
  "chán": 1327,
  "300": 1328,
  "wā": 1329,
  "1993": 1330,
  "187": 1331,
  "1949": 1332,
  "pe": 1333,
  "sā": 1334,
  "tiǎo": 1335,
  "AT": 1336,
  "1960": 1337,
  "biǎn": 1338,
  "42": 1339,
  "1945": 1340,
  "ing": 1341,
  "guài": 1342,
  "au": 1343,
  "kǔ": 1344,
  "nú": 1345,
  "1988": 1346,
  "dǔ": 1347,
  "1989": 1348,
  "ig": 1349,
  "pù": 1350,
  "69": 1351,
  "liǔ": 1352,
  "gǒng": 1353,
  "SEE": 1354,
  "tuò": 1355,
  "amp": 1356,
  "ct": 1357,
  "liǎo": 1358,
  "INSEE": 1359,
  "59": 1360,
  "tāi": 1361,
  "43": 1362,
  "66": 1363,
  "chuàn": 1364,
  "op": 1365,
  "chèn": 1366,
  "os": 1367,
  "57": 1368,
  "1985": 1369,
  "huāng": 1370,
  "99": 1371,
  "SA": 1372,
  "『": 1373,
  "cùn": 1374,
  "』": 1375,
  "1984": 1376,
  "hún": 1377,
  "41": 1378,
  "pū": 1379,
  "ly": 1380,
  "us": 1381,
  "kòu": 1382,
  "fén": 1383,
  "88": 1384,
  "1986": 1385,
  "rǎo": 1386,
  "mp": 1387,
  "St": 1388,
  "id": 1389,
  "rùn": 1390,
  "TV": 1391,
  "150": 1392,
  "zhuō": 1393,
  "ind": 1394,
  "400": 1395,
  "sǎn": 1396,
  "1987": 1397,
  "78": 1398,
  "un": 1399,
  "ed": 1400,
  "ha": 1401,
  "1982": 1402,
  "56": 1403,
  "Li": 1404,
  "ur": 1405,
  "ard": 1406,
  "nuó": 1407,
  "1983": 1408,
  "NA": 1409,
  "gǔn": 1410,
  "Ro": 1411,
  "De": 1412,
  "ss": 1413,
  "mā": 1414,
  "tou": 1415,
  "pìn": 1416,
  "CD": 1417,
  "chōu": 1418,
  "ber": 1419,
  "gǒu": 1420,
  "quǎn": 1421,
  "Mi": 1422,
  "77": 1423,
  "zhāi": 1424,
  "Me": 1425,
  "qià": 1426,
  "māo": 1427,
  "qiǎo": 1428,
  "Mar": 1429,
  "tw": 1430,
  "kū": 1431,
  "kuáng": 1432,
  "róu": 1433,
  "der": 1434,
  "79": 1435,
  "lòu": 1436,
  "OS": 1437,
  "°": 1438,
  "kuì": 1439,
  "sàng": 1440,
  "Al": 1442,
  "180": 1443,
  "ty": 1444,
  "BC": 1445,
  "54": 1446,
  "1979": 1447,
  "61": 1448,
  "1920": 1449,
  "ang": 1450,
  "pēn": 1451,
  "98": 1452,
  "sēng": 1453,
  "52": 1454,
  "You": 1455,
  "ap": 1456,
  "1978": 1457,
  "nù": 1458,
  "wēng": 1459,
  "62": 1460,
  "yē": 1461,
  "duǒ": 1462,
  "Le": 1463,
  "53": 1464,
  "xǐng": 1465,
  "juàn": 1466,
  "～": 1467,
  "BA": 1468,
  "ke": 1469,
  "1946": 1470,
  "ts": 1471,
  "CO": 1472,
  "mo": 1473,
  "ction": 1474,
  "51": 1475,
  "1958": 1476,
  "1981": 1477,
  "Vi": 1478,
  "1972": 1479,
  "1948": 1480,
  "zhuì": 1481,
  "cōng": 1482,
  "tōu": 1483,
  "AM": 1484,
  "hi": 1485,
  "63": 1486,
  "man": 1487,
  "ows": 1488,
  "AR": 1489,
  "ry": 1490,
  "1941": 1491,
  "Wind": 1492,
  "BS": 1493,
  "wá": 1494,
  "liǎn": 1495,
  "1930": 1496,
  "Mo": 1497,
  "Pro": 1498,
  "luǎn": 1499,
  "kuāng": 1500,
  "qú": 1501,
  "tuǒ": 1502,
  "ké": 1503,
  "76": 1504,
  "hans": 1505,
  "va": 1506,
  "1940": 1507,
  "1937": 1508,
  "con": 1509,
  "1976": 1510,
  "zuǐ": 1511,
  "1944": 1512,
  "Jo": 1513,
  "89": 1514,
  "1975": 1515,
  "um": 1516,
  "／": 1517,
  "Te": 1518,
  "1968": 1519,
  "niáng": 1520,
  "pó": 1521,
  "shuā": 1522,
  "hk": 1523,
  "yuān": 1524,
  "tāo": 1525,
  "per": 1526,
  "wāng": 1527,
  "ga": 1528,
  "1000": 1529,
  "ran": 1530,
  "Windows": 1531,
  "95": 1532,
  "Ne": 1533,
  "bí": 1534,
  "sǎo": 1535,
  "da": 1536,
  "87": 1537,
  "1966": 1538,
  "85": 1539,
  "fà": 1540,
  "pēng": 1541,
  "600": 1542,
  "làn": 1543,
  "Se": 1544,
  "Sta": 1545,
  "sp": 1546,
  "120": 1547,
  "1947": 1548,
  "Ga": 1549,
  "Ar": 1550,
  "ot": 1551,
  "gā": 1552,
  "1956": 1553,
  "AC": 1554,
  "1964": 1555,
  "dǎn": 1556,
  "cū": 1557,
  "1942": 1558,
  "1955": 1559,
  "chǒu": 1560,
  "lay": 1561,
  "1952": 1562,
  "1939": 1563,
  "IS": 1564,
  "1938": 1565,
  "72": 1566,
  "74": 1567,
  "ht": 1568,
  "rěn": 1569,
  "1973": 1570,
  "ace": 1571,
  "fi": 1572,
  "1974": 1573,
  "1954": 1574,
  "qiē": 1575,
  "ED": 1576,
  "1900": 1577,
  "--": 1578,
  "Be": 1579,
  "AP": 1580,
  "ore": 1581,
  "1943": 1582,
  "1977": 1583,
  "Da": 1584,
  "1971": 1585,
  "pīn": 1586,
  "pǒ": 1587,
  "mán": 1588,
  "1967": 1589,
  "shéng": 1590,
  "ment": 1591,
  "IC": 1592,
  "800": 1593,
  "ER": 1594,
  "La": 1595,
  "86": 1596,
  "1959": 1597,
  "bēng": 1598,
  "son": 1599,
  "1965": 1600,
  "JR": 1601,
  "1969": 1602,
  "Ra": 1603,
  "duī": 1604,
  "Di": 1605,
  "ok": 1606,
  "pén": 1607,
  "・": 1608,
  "×": 1609,
  "qiào": 1610,
  "chuī": 1611,
  "ID": 1612,
  "qiāo": 1613,
  "Su": 1614,
  "ine": 1615,
  "1936": 1616,
  "160": 1617,
  "97": 1618,
  "bēn": 1619,
  "zhuā": 1620,
  "ent": 1621,
  "1953": 1622,
  "Sa": 1623,
  "1962": 1624,
  "MA": 1625,
  "Tu": 1626,
  "tic": 1627,
  "1961": 1628,
  "lǒng": 1629,
  "ation": 1630,
  "1935": 1632,
  "tà": 1633,
  "mái": 1634,
  "Sh": 1635,
  "96": 1636,
  "ON": 1637,
  "ak": 1638,
  "％": 1639,
  "1951": 1640,
  "1957": 1641,
  "1963": 1642,
  "Lo": 1643,
  "─": 1644,
  "one": 1645,
  "rou": 1646,
  "84": 1647,
  "Ja": 1648,
  "2026": 1649,
  "do": 1650,
  "cǎn": 1651,
  "82": 1652,
  "gi": 1653,
  "bu": 1654,
  "mer": 1655,
  "73": 1656,
  "po": 1657,
  "94": 1658,
  "tūn": 1659,
  "92": 1660,
  "So": 1661,
  "AN": 1662,
  "IP": 1663,
  "An": 1664,
  "ho": 1665,
  "ali": 1666,
  "1933": 1667,
  "Mu": 1668,
  "1931": 1669,
  "náng": 1670,
  "niào": 1671,
  "les": 1672,
  "71": 1673,
  "báo": 1674,
  "nuǎn": 1675,
  "léng": 1676,
  "pá": 1677,
  "83": 1678,
  "93": 1679,
  "ai": 1680,
  "We": 1681,
  "81": 1682,
  "dǒu": 1683,
  "1918": 1684,
  "sta": 1685,
  "HD": 1686,
  "Bo": 1687,
  "sāo": 1688,
  "Uni": 1689,
  "1928": 1690,
  "luán": 1691,
  "ki": 1692,
  "1932": 1693,
  "wi": 1694,
  "nèn": 1695,
  "col": 1696,
  "int": 1697,
  "MV": 1698,
  "SS": 1699,
  "our": 1700,
  "110": 1701,
  "tù": 1702,
  "IT": 1703,
  "1912": 1704,
  "all": 1705,
  "1929": 1706,
  "tuǐ": 1707,
  "duò": 1708,
  "1927": 1709,
  "cn": 1710,
  "1934": 1711,
  "are": 1712,
  "Pa": 1713,
  "700": 1714,
  "gá": 1715,
  "che": 1716,
  "by": 1717,
  "ted": 1718,
  "ster": 1719,
  "huǎng": 1720,
  "Si": 1721,
  "250": 1722,
  "ff": 1723,
  "91": 1724,
  "mm": 1725,
  "Par": 1726,
  "zéi": 1727,
  "Ri": 1728,
  "1924": 1729,
  "pp": 1730,
  "ph": 1731,
  "...": 1732,
  "1919": 1733,
  "kuī": 1734,
  "He": 1735,
  "so": 1736,
  "xuàn": 1737,
  "130": 1738,
  "piāo": 1739,
  "no": 1740,
  "1925": 1741,
  "PS": 1742,
  "Play": 1743,
  "pāo": 1744,
  "140": 1745,
  "xiā": 1746,
  "Bu": 1747,
  "Ca": 1748,
  "SM": 1749,
  "Con": 1750,
  "Sp": 1751,
  "PC": 1752,
  "1914": 1753,
  "ble": 1754,
  "ste": 1755,
  "zhǎi": 1756,
  "km": 1757,
  "DV": 1758,
  "zhē": 1759,
  "En": 1760,
  "mes": 1761,
  "YouTu": 1762,
  "com": 1763,
  "Ba": 1764,
  "hē": 1765,
  "Fi": 1766,
  "Ti": 1767,
  "diē": 1768,
  "ell": 1769,
  "gra": 1770,
  "lǎ": 1771,
  "AS": 1772,
  "ia": 1773,
  "1911": 1774,
  "Wi": 1775,
  "shi": 1776,
  "end": 1777,
  "ill": 1778,
  "nüè": 1779,
  "ana": 1780,
  "ara": 1781,
  "Ge": 1782,
  "1926": 1783,
  "den": 1784,
  "1922": 1785,
  "Na": 1786,
  "nǎ": 1787,
  "sion": 1788,
  "hèn": 1789,
  "1917": 1790,
  "ET": 1791,
  "NBA": 1792,
  "IV": 1793,
  "shuí": 1794,
  "cāi": 1795,
  "ráo": 1796,
  "EN": 1797,
  "1923": 1798,
  "art": 1799,
  "1921": 1800,
  "fe": 1801,
  "pèng": 1802,
  "sa": 1803,
  "ka": 1804,
  "kuā": 1805,
  "Goo": 1806,
  "ther": 1807,
  "chǒng": 1808,
  "To": 1809,
  "170": 1810,
  "EC": 1812,
  "ld": 1813,
  "mǎo": 1814,
  "nòng": 1815,
  "AL": 1816,
  "Ha": 1817,
  "MS": 1818,
  "section": 1819,
  "Ni": 1820,
  "YouTube": 1821,
  "EP": 1822,
  "hn": 1823,
  "BL": 1824,
  "1913": 1825,
  "tiāo": 1826,
  "Ju": 1827,
  "HK": 1828,
  "ler": 1829,
  "hant": 1831,
  "gùn": 1832,
  "1909": 1833,
  "gin": 1834,
  "Inter": 1835,
  "cro": 1836,
  "Ste": 1837,
  "MP": 1838,
  "AI": 1839,
  "Ho": 1840,
  "gěng": 1841,
  "Wor": 1842,
  "nào": 1843,
  "Po": 1844,
  "fěng": 1845,
  "Do": 1846,
  "luǒ": 1847,
  "US": 1848,
  "ant": 1849,
  "go": 1850,
  "ya": 1851,
  "DVD": 1852,
  "ort": 1853,
  "zōu": 1854,
  "ris": 1855,
  "3000": 1856,
  "Pi": 1857,
  "cā": 1858,
  "Car": 1859,
  "1910": 1860,
  "RO": 1861,
  "DS": 1862,
  "Th": 1863,
  "112": 1864,
  "AK": 1865,
  "My": 1866,
  "pen": 1867,
  "RE": 1868,
  "pro": 1869,
  "ven": 1870,
  "1916": 1871,
  "Station": 1872,
  "ー": 1873,
  "chuò": 1874,
  "Net": 1875,
  "α": 1876,
  "Ki": 1877,
  "Sch": 1878,
  "olo": 1879,
  "No": 1880,
  "ari": 1881,
  "ture": 1882,
  "gn": 1883,
  "Lin": 1884,
  "CP": 1885,
  "UN": 1886,
  "gle": 1887,
  "ers": 1889,
  "hén": 1890,
  "1915": 1891,
  "oun": 1892,
  "niàng": 1893,
  "1905": 1894,
  "FC": 1895,
  "my": 1896,
  "Lu": 1897,
  "ll": 1898,
  "Wil": 1899,
  "CN": 1900,
  "→": 1902,
  "1901": 1903,
  "Fa": 1904,
  "Au": 1905,
  "ting": 1906,
  "New": 1907,
  "DNA": 1908,
  "Ex": 1909,
  "‧": 1910,
  "ary": 1911,
  "900": 1912,
  "Ph": 1913,
  "sic": 1914,
  "HR": 1915,
  "dice": 1916,
  "sis": 1917,
  ".&": 1918,
  "CH": 1919,
  "zěn": 1920,
  "TA": 1921,
  "dia": 1922,
  "Qu": 1923,
  "TO": 1924,
  "1906": 1925,
  "len": 1926,
  "1904": 1927,
  "chuǎng": 1928,
  "AV": 1929,
  "For": 1930,
  "gěn": 1931,
  "John": 1932,
  "we": 1933,
  "ere": 1934,
  "And": 1935,
  "MO": 1936,
  "ding": 1937,
  "codice": 1938,
  "chǎo": 1939,
  "jiǒng": 1940,
  "℃": 1941,
  "Ta": 1942,
  "pa": 1943,
  "ps": 1944,
  "PlayStation": 1945,
  "fu": 1946,
  "ko": 1947,
  "wà": 1948,
  "bèng": 1949,
  "05": 1950,
  "CC": 1951,
  "ton": 1952,
  "vo": 1953,
  "eri": 1954,
  "diū": 1955,
  "1907": 1956,
  "1908": 1957,
  "Google": 1958,
  "AG": 1959,
  "EST": 1960,
  "MI": 1961,
  "zuàn": 1962,
  "SO": 1963,
  "ory": 1964,
  "tes": 1965,
  "LE": 1966,
  "Gu": 1967,
  "jiá": 1968,
  "zuǎn": 1969,
  "cy": 1970,
  "lī": 1971,
  "chi": 1972,
  "ley": 1973,
  "BO": 1974,
  "enter": 1975,
  "BBC": 1976,
  "AD": 1977,
  "IG": 1978,
  "cal": 1979,
  "III": 1980,
  "Cu": 1981,
  "cri": 1982,
  "oft": 1983,
  "1500": 1984,
  "Ru": 1985,
  "lin": 1986,
  "5000": 1987,
  "ori": 1988,
  "zuān": 1989,
  "pu": 1990,
  "Go": 1991,
  "IST": 1992,
  "shē": 1993,
  "lǘ": 1994,
  "Fe": 1995,
  "Col": 1996,
  "wor": 1997,
  "Sy": 1998,
  "Ka": 1999,
  "ME": 2000,
  "tive": 2001,
  "CR": 2002,
  "gen": 2003,
  "3D": 2004,
  "wit": 2005,
  "round": 2006,
  "IA": 2007,
  "guǎ": 2008,
  "105": 2009,
  "je": 2010,
  "ron": 2011,
  "mà": 2012,
  "а": 2013,
  "101": 2014,
  "1903": 2015,
  "GB": 2016,
  "pīng": 2017,
  "cha": 2018,
  "shá": 2019,
  "lan": 2020,
  "09": 2021,
  "TE": 2022,
  "ree": 2023,
  "Ad": 2024,
  "Hu": 2025,
  "càn": 2026,
  "cén": 2027,
  "1902": 2028,
  "BD": 2029,
  "NC": 2030,
  "land": 2031,
  "can": 2032,
  "ze": 2033,
  "own": 2034,
  "ess": 2035,
  "pāng": 2036,
  "xt": 2037,
  "350": 2038,
  "wa": 2039,
  "ina": 2040,
  "SAO": 2041,
  "sháo": 2042,
  "DC": 2043,
  "net": 2044,
  "span": 2045,
  "des": 2046,
  "β": 2047,
  "ght": 2048,
  "lìn": 2049,
  "ence": 2050,
  "B1900": 2051,
  "inc": 2052,
  "book": 2053,
  "del": 2054,
  "ES": 2055,
  "BM": 2056,
  "．": 2057,
  "dy": 2058,
  "ン": 2059,
  "Hi": 2060,
  "1898": 2061,
  "06": 2062,
  "118": 2063,
  "Pe": 2064,
  "ms": 2065,
  "の": 2066,
  "lá": 2067,
  "pt": 2068,
  "qǐn": 2069,
  "tel": 2070,
  "360": 2071,
  "DR": 2072,
  "mon": 2073,
  "01": 2074,
  "DA": 2075,
  "gh": 2076,
  "Open": 2077,
  "1895": 2078,
  "lào": 2079,
  "yle": 2080,
  "125": 2081,
  "mú": 2082,
  "lar": 2083,
  "bèn": 2084,
  "HO": 2085,
  "Ko": 2086,
  "MC": 2087,
  "ance": 2088,
  "ATP": 2089,
  "Micro": 2090,
  "о": 2091,
  "108": 2092,
  "gy": 2093,
  "NG": 2094,
  "pōu": 2095,
  "igh": 2096,
  "sy": 2097,
  "cor": 2098,
  "tt": 2099,
  "dio": 2100,
  "Ke": 2101,
  "qié": 2102,
  "za": 2103,
  "App": 2104,
  "Pu": 2105,
  "ning": 2106,
  "gram": 2107,
  "IF": 2108,
  "Fran": 2109,
  "ft": 2110,
  "res": 2111,
  "Com": 2112,
  "tin": 2113,
  "−": 2114,
  "07": 2115,
  "08": 2116,
  "230": 2117,
  "Face": 2118,
  "104": 2119,
  "Du": 2120,
  "ref": 2121,
  "One": 2122,
  "World": 2123,
  "old": 2124,
  "Ser": 2125,
  "soft": 2126,
  "EDT": 2127,
  "ISTAT": 2128,
  "Mon": 2129,
  "Stu": 2130,
  "shāi": 2131,
  "sǒng": 2132,
  "NO": 2134,
  "ner": 2135,
  "1896": 2136,
  "Cor": 2137,
  "LL": 2138,
  "Bi": 2139,
  "ger": 2140,
  "lus": 2141,
  "109": 2142,
  "DP": 2143,
  "yū": 2144,
  "las": 2145,
  "AA": 2146,
  "fli": 2147,
  "Comp": 2148,
  "rea": 2149,
  "gě": 2150,
  "RI": 2151,
  "vel": 2152,
  "ren": 2153,
  "line": 2154,
  "RT": 2155,
  "suǐ": 2156,
  "SP": 2157,
  "xiáo": 2158,
  "qiǎ": 2159,
  "EX": 2160,
  "rě": 2161,
  "Bar": 2162,
  "Bri": 2163,
  "ling": 2164,
  "bert": 2165,
  "B48": 2166,
  "106": 2167,
  "1890": 2168,
  "ctor": 2169,
  "CST": 2170,
  "San": 2171,
  "ML": 2172,
  "CDT": 2173,
  "Love": 2174,
  "ity": 2175,
  "mar": 2176,
  "zāng": 2177,
  "row": 2178,
  "DO": 2179,
  "with": 2180,
  "HE": 2181,
  "fa": 2182,
  "Per": 2183,
  "pēi": 2184,
  "ward": 2185,
  "Har": 2186,
  "Man": 2187,
  "ds": 2188,
  "tional": 2189,
  "tain": 2190,
  "ja": 2191,
  "04": 2192,
  "4000": 2193,
  "115": 2194,
  "cuàn": 2195,
  "1200": 2196,
  "ky": 2197,
  "ux": 2198,
  "ound": 2199,
  "ight": 2200,
  "M1": 2201,
  "03": 2202,
  "GP": 2203,
  "páo": 2204,
  "CE": 2205,
  "back": 2206,
  "1889": 2207,
  "begin": 2208,
  "Je": 2209,
  "1899": 2210,
  "ool": 2211,
  "colspan": 2212,
  "1871": 2213,
  "ring": 2214,
  "Ed": 2215,
  "RS": 2216,
  "ower": 2217,
  "mic": 2218,
  "Facebook": 2219,
  "lude": 2220,
  "Willi": 2221,
  "Microsoft": 2222,
  "​": 2223,
  "240": 2224,
  "tur": 2225,
  "Mac": 2226,
  "1600": 2227,
  "LO": 2228,
  "Live": 2229,
  "BE": 2230,
  "cket": 2231,
  "102": 2232,
  "cc": 2233,
  "ker": 2234,
  "box": 2235,
  "TT": 2236,
  "1897": 2237,
  "Gi": 2238,
  "NH": 2239,
  "EE": 2240,
  "chòu": 2241,
  "Pre": 2242,
  "Tri": 2243,
  "117": 2244,
  "On": 2245,
  "PP": 2246,
  "qìn": 2247,
  "ks": 2248,
  "Is": 2249,
  "SC": 2250,
  "02": 2251,
  "van": 2252,
  "cm": 2253,
  "shuǎng": 2254,
  "style": 2255,
  "mb": 2256,
  "103": 2257,
  "AKB48": 2258,
  "MD": 2259,
  "yǎo": 2260,
  "107": 2261,
  "Gra": 2262,
  "bli": 2263,
  "Music": 2264,
  "Gre": 2265,
  "ood": 2266,
  "còu": 2267,
  "Linux": 2268,
  "include": 2269,
  "Dis": 2270,
  "Or": 2271,
  "Tra": 2272,
  "Pri": 2273,
  "tǎng": 2274,
  "ww": 2275,
  "Nor": 2276,
  "pha": 2277,
  "min": 2278,
  "Ori": 2279,
  "ye": 2280,
  "only": 2281,
  "450": 2282,
  "VID": 2283,
  "tus": 2284,
  "127": 2285,
  "mas": 2286,
  "tra": 2287,
  "Davi": 2288,
  "que": 2289,
  "ane": 2290,
  "128": 2291,
  "align": 2292,
  "lāo": 2293,
  "lis": 2294,
  "ous": 2295,
  "Game": 2296,
  "flix": 2297,
  "CL": 2298,
  "ora": 2299,
  "Netflix": 2300,
  "El": 2301,
  "1894": 2302,
  "220": 2303,
  "rin": 2304,
  "Ber": 2305,
  "н": 2306,
  "ser": 2307,
  "William": 2308,
  "IL": 2309,
  "Vo": 2310,
  "SH": 2311,
  "sti": 2312,
  "rom": 2313,
  "Twit": 2314,
  "1880": 2315,
  "Red": 2316,
  "yi": 2317,
  "RNA": 2318,
  "záo": 2319,
  "136": 2320,
  "PG": 2321,
  "Fu": 2322,
  "и": 2323,
  "ero": 2324,
  "い": 2325,
  "TR": 2326,
  "stra": 2327,
  "Team": 2328,
  "1800": 2329,
  "Wa": 2330,
  "ス": 2331,
  "Univer": 2332,
  "ground": 2333,
  "tor": 2334,
  "1885": 2335,
  "nge": 2336,
  "liǎ": 2337,
  "114": 2338,
  "ano": 2339,
  "ん": 2340,
  "pián": 2341,
  "rus": 2342,
  "Hz": 2343,
  "Ty": 2344,
  "Char": 2345,
  "color": 2346,
  "116": 2347,
  "280": 2348,
  "name": 2349,
  "Star": 2350,
  "Eu": 2351,
  "Gen": 2352,
  "UR": 2353,
  "hy": 2354,
  "е": 2355,
  "113": 2356,
  "era": 2357,
  "lla": 2358,
  "1886": 2359,
  "sing": 2360,
  "イ": 2361,
  "TS": 2362,
  "ten": 2363,
  "School": 2364,
  "PO": 2365,
  "mǎng": 2366,
  "lass": 2367,
  "1893": 2368,
  "irl": 2369,
  "Bla": 2370,
  "Mc": 2371,
  "ex": 2372,
  "nic": 2373,
  "out": 2374,
  "111": 2375,
  "Mark": 2376,
  "SL": 2377,
  "irst": 2378,
  "cial": 2380,
  "Super": 2381,
  "Don": 2382,
  "ac": 2383,
  "Wal": 2384,
  "ject": 2385,
  "lex": 2386,
  "mǒ": 2387,
  "ans": 2388,
  "※": 2389,
  "tri": 2390,
  "lia": 2391,
  "ie": 2392,
  "mō": 2393,
  "135": 2394,
  "David": 2395,
  "260": 2396,
  "1860": 2397,
  "national": 2398,
  "Geor": 2399,
  "Mor": 2400,
  "ys": 2401,
  "nín": 2402,
  "gue": 2403,
  "tle": 2404,
  "any": 2405,
  "Pet": 2406,
  "WTA": 2407,
  "way": 2408,
  "roup": 2409,
  "HC": 2410,
  "Mat": 2411,
  "nis": 2412,
  "ces": 2413,
  "UA": 2414,
  "Un": 2415,
  "was": 2416,
  "ouse": 2417,
  "ham": 2418,
  "1888": 2419,
  "Ac": 2420,
  "text": 2421,
  "SD": 2422,
  "-.": 2423,
  "cation": 2424,
  "Bra": 2425,
  "ony": 2426,
  "roid": 2427,
  "background": 2428,
  "yūn": 2429,
  "dǎi": 2430,
  "ream": 2431,
  "Show": 2432,
  "129": 2433,
  "GO": 2434,
  "om": 2435,
  "chēn": 2436,
  "1870": 2437,
  "stri": 2438,
  "GN": 2439,
  "Che": 2441,
  "nia": 2442,
  "1887": 2443,
  "bur": 2444,
  "don": 2445,
  "pri": 2446,
  "shuān": 2447,
  "1868": 2448,
  "6000": 2449,
  "cle": 2450,
  "ö": 2451,
  "р": 2452,
  "1883": 2453,
  "Cy": 2454,
  "NF": 2455,
  "VA": 2456,
  "lub": 2457,
  "meri": 2458,
  "Ku": 2459,
  "ank": 2460,
  "Meta": 2461,
  "320": 2462,
  "Ab": 2463,
  "Xbox": 2464,
  "CS": 2465,
  "NHK": 2466,
  "AF": 2467,
  "DD": 2468,
  "Twitter": 2469,
  "KP": 2470,
  "ny": 2471,
  "onlyinclude": 2472,
  "Tho": 2473,
  "ens": 2474,
  "piáo": 2475,
  "++": 2476,
  "bit": 2477,
  "tàng": 2478,
  "1864": 2479,
  "•": 2480,
  "ION": 2481,
  "1884": 2482,
  "119": 2483,
  "RC": 2484,
  "UE": 2485,
  "tis": 2486,
  "122": 2487,
  "Cl": 2488,
  "2500": 2489,
  "1892": 2490,
  "210": 2491,
  "A1": 2492,
  "ong": 2493,
  "ins": 2494,
  "Wh": 2495,
  "center": 2496,
  "let": 2497,
  "miù": 2498,
  "155": 2499,
  "Sou": 2500,
  "ISO": 2501,
  "145": 2503,
  "1891": 2504,
  "650": 2505,
  "pre": 2506,
  "Android": 2507,
  "Girl": 2508,
  "sel": 2509,
  "NS": 2510,
  "car": 2511,
  "vil": 2512,
  "〕": 2513,
  "sil": 2514,
  "OR": 2515,
  "yo": 2516,
  "As": 2517,
  "〔": 2518,
  "1850": 2519,
  "ona": 2520,
  "cuō": 2521,
  "htt": 2522,
  "red": 2523,
  "low": 2524,
  "xy": 2525,
  "ensis": 2526,
  "International": 2527,
  "Day": 2528,
  "cer": 2529,
  "mī": 2530,
  "1867": 2531,
  "stem": 2532,
  "IM": 2533,
  "pàng": 2534,
  "ト": 2535,
  "All": 2536,
  "Nation": 2537,
  "sed": 2538,
  "1879": 2539,
  "mber": 2540,
  "James": 2541,
  "Enter": 2542,
  "War": 2543,
  "ffi": 2544,
  "380": 2545,
  "AB": 2546,
  "UP": 2547,
  "dis": 2548,
  "1876": 2549,
  "Coun": 2550,
  "Ver": 2551,
  "Universi": 2552,
  "im": 2553,
  "vin": 2554,
  "George": 2555,
  "Her": 2556,
  "1875": 2557,
  "1861": 2558,
  "270": 2559,
  "Dra": 2560,
  "td": 2561,
  "lie": 2562,
  "sia": 2563,
  "eld": 2564,
  "Air": 2565,
  "Group": 2566,
  "IR": 2567,
  "cho": 2568,
  "time": 2569,
  "126": 2570,
  "ama": 2571,
  "NT": 2572,
  "Pau": 2573,
  "lor": 2574,
  "inter": 2575,
  "Ani": 2576,
  "Spe": 2577,
  "Games": 2578,
  "NGC": 2579,
  "Hy": 2580,
  "stru": 2581,
  "ル": 2582,
  "1873": 2583,
  "Hol": 2584,
  "MG": 2585,
  "123": 2586,
  "ラ": 2587,
  "Eng": 2588,
  "PV": 2589,
  "Ben": 2590,
  "HT": 2591,
  "val": 2592,
  "Colle": 2593,
  "day": 2594,
  "MB": 2595,
  "168": 2596,
  "COVID": 2597,
  "critic": 2598,
  "Club": 2599,
  "FM": 2600,
  "Hen": 2601,
  "lue": 2602,
  "1865": 2603,
  "ild": 2604,
  "AO": 2605,
  "PL": 2606,
  "that": 2607,
  "ass": 2608,
  "Ameri": 2609,
  "DE": 2610,
  "121": 2611,
  "Center": 2612,
  "ut": 2613,
  "cus": 2614,
  "Blo": 2615,
  "175": 2616,
  "う": 2617,
  "Web": 2618,
  "H2": 2619,
  "YP": 2620,
  "from": 2621,
  "ä": 2622,
  "1400": 2623,
  "Ali": 2624,
  "od": 2625,
  "MAX": 2626,
  "work": 2627,
  "par": 2628,
  "138": 2629,
  "228": 2630,
  "TP": 2631,
  "fer": 2632,
  "1848": 2633,
  "chàn": 2634,
  "ast": 2635,
  "ald": 2636,
  "ney": 2637,
  "liū": 2638,
  "1862": 2639,
  "330": 2640,
  "dge": 2641,
  "pěng": 2642,
  "124": 2643,
  "ア": 2644,
  "1881": 2645,
  "1882": 2646,
  "737": 2647,
  "age": 2648,
  "Can": 2649,
  "1878": 2650,
  "550": 2651,
  "Sha": 2652,
  "guǎi": 2653,
  "ruǐ": 2654,
  "1872": 2655,
  "Ele": 2656,
  "LC": 2657,
  "bìn": 2658,
  "INK": 2659,
  "Metacritic": 2660,
  "Oricon": 2661,
  "bor": 2662,
  "náo": 2663,
  "156": 2664,
  "MTV": 2665,
  "UC": 2666,
  "bri": 2667,
  "165": 2668,
  "comp": 2669,
  "Boo": 2670,
  "LED": 2671,
  "fo": 2672,
  "1840": 2673,
  "niǎn": 2674,
  "IVE": 2675,
  "High": 2676,
  "Spi": 2677,
  "core": 2678,
  "dāi": 2679,
  "wan": 2680,
  "750": 2681,
  "It": 2682,
  "ns": 2683,
  "tro": 2684,
  "shài": 2685,
  "ッ": 2686,
  "ology": 2687,
  "ming": 2688,
  "1300": 2689,
  "し": 2690,
  "137": 2691,
  "stagram": 2692,
  "7000": 2693,
  "Bro": 2694,
  "DOS": 2695,
  "SQ": 2696,
  "UB": 2697,
  "229": 2698,
  "IU": 2699,
  "cre": 2700,
  "zo": 2701,
  "Chu": 2702,
  "GDP": 2703,
  "King": 2704,
  "OK": 2705,
  "с": 2706,
  "ena": 2707,
  "Lea": 2708,
  "She": 2709,
  "rand": 2710,
  "152": 2711,
  "als": 2712,
  "Stre": 2713,
  "TVB": 2714,
  "Micha": 2715,
  "Va": 2716,
  "lip": 2717,
  "159": 2718,
  "1877": 2719,
  "Robert": 2720,
  "type": 2721,
  "Sur": 2722,
  "kuǐ": 2724,
  "1866": 2725,
  "rist": 2726,
  "Chi": 2727,
  "Chris": 2728,
  "Pat": 2729,
  "iOS": 2730,
  "л": 2731,
  "oly": 2732,
  "Produ": 2733,
  "SK": 2734,
  "1869": 2735,
  "′": 2736,
  "silver": 2737,
  "THE": 2738,
  "Up": 2739,
  "Ce": 2740,
  "DM": 2741,
  "gar": 2742,
  "her": 2743,
  "sen": 2744,
  "xiǔ": 2745,
  "Fri": 2746,
  "NET": 2747,
  "Pla": 2748,
  "к": 2749,
  "she": 2750,
  "139": 2751,
  "Instagram": 2752,
  "Phone": 2753,
  "BI": 2754,
  "star": 2755,
  "BLAC": 2756,
  "Type": 2757,
  "Big": 2758,
  "por": 2759,
  "в": 2760,
  "DJ": 2761,
  "rēng": 2762,
  "iss": 2763,
  "Apple": 2764,
  "CG": 2765,
  "Hel": 2766,
  "WE": 2767,
  "ew": 2768,
  "ray": 2769,
  "ク": 2770,
  "code": 2771,
  "Michael": 2772,
  "At": 2773,
  "DF": 2774,
  "ark": 2776,
  "alk": 2777,
  "1100": 2778,
  "158": 2779,
  "ons": 2780,
  "ator": 2781,
  "Tech": 2782,
  "Paul": 2783,
  "225": 2784,
  "305": 2785,
  "133": 2786,
  "INE": 2787,
  "cia": 2788,
  "RA": 2789,
  "sǎ": 2790,
  "リ": 2791,
  "Award": 2792,
  "HI": 2793,
  "YO": 2794,
  "132": 2795,
  "Steam": 2796,
  "205": 2797,
  "1863": 2798,
  "Park": 2799,
  "National": 2800,
  "Bill": 2801,
  "Ye": 2802,
  "tainment": 2803,
  "215": 2804,
  "Ci": 2805,
  "bra": 2806,
  "sto": 2807,
  "new": 2808,
  "University": 2809,
  "FO": 2810,
  "ral": 2811,
  "Media": 2812,
  "CA": 2813,
  "F1": 2814,
  "KBS": 2815,
  "Val": 2816,
  "148": 2817,
  "131": 2818,
  "Lou": 2819,
  "Smi": 2820,
  "166": 2821,
  "arch": 2822,
  "1874": 2823,
  "sso": 2824,
  "EF": 2825,
  "Mer": 2826,
  "XX": 2827,
  "bal": 2828,
  "kg": 2829,
  "now": 2830,
  "1858": 2831,
  "Fin": 2832,
  "Kar": 2833,
  "Tran": 2834,
  "gon": 2835,
  "ves": 2836,
  "147": 2837,
  "space": 2838,
  "Black": 2839,
  "Ter": 2840,
  "ach": 2841,
  "gan": 2842,
  "Peter": 2843,
  "Gar": 2844,
  "deo": 2845,
  "256": 2846,
  "か": 2847,
  "GA": 2848,
  "IE": 2849,
  "M2": 2850,
  "kǔn": 2851,
  "1830": 2852,
  "Rich": 2853,
  "CBS": 2854,
  "UT": 2855,
  "1851": 2856,
  "Lee": 2857,
  "BN": 2858,
  "UI": 2859,
  "192": 2860,
  "zer": 2861,
  "μ": 2862,
  "ada": 2863,
  "8000": 2864,
  "chě": 2865,
  "Jack": 2866,
  "Entertainment": 2867,
  "310": 2868,
  "Jap": 2869,
  "Win": 2870,
  "lǐn": 2871,
  "bin": 2872,
  "mini": 2873,
  "143": 2874,
  "set": 2875,
  "City": 2876,
  "Mk": 2877,
  "gàng": 2878,
  "1855": 2879,
  "rie": 2880,
  "ater": 2881,
  "Intel": 2882,
  "Power": 2883,
  "EM": 2884,
  "IX": 2885,
  "Sam": 2886,
  "hǎ": 2887,
  "Space": 2888,
  "RAM": 2889,
  "185": 2891,
  "1859": 2892,
  "zuó": 2893,
  "STAR": 2894,
  "ship": 2895,
  "Charles": 2896,
  "bel": 2897,
  "py": 2898,
  "134": 2899,
  "Dire": 2900,
  "Ang": 2901,
  "ABC": 2902,
  "Fla": 2903,
  "ene": 2904,
  "1854": 2905,
  "146": 2906,
  "301": 2907,
  "enti": 2908,
  "1700": 2909,
  "Viu": 2910,
  "Java": 2911,
  "370": 2912,
  "if": 2913,
  "1857": 2914,
  "Free": 2915,
  "GM": 2916,
  "Py": 2917,
  "Tai": 2918,
  "whi": 2919,
  "stro": 2920,
  "vs": 2921,
  "ا": 2922,
  "ann": 2923,
  "290": 2924,
  "な": 2925,
  "Life": 2926,
  "︰": 2927,
  "Er": 2928,
  "Pan": 2929,
  "Ve": 2930,
  "γ": 2931,
  "214": 2932,
  "420": 2933,
  "Dream": 2934,
  "Ya": 2935,
  "т": 2936,
  "Recor": 2937,
  "Alpha": 2938,
  "Company": 2939,
  "stitu": 2940,
  "ek": 2941,
  "fang": 2942,
  "face": 2943,
  "ο": 2944,
  "〜": 2945,
  "mis": 2946,
  "1856": 2947,
  "1853": 2948,
  "Project": 2949,
  "Am": 2950,
  "House": 2951,
  "Pop": 2952,
  "first": 2953,
  "dium": 2954,
  "た": 2955,
  "ety": 2956,
  "Time": 2957,
  "Thomas": 2958,
  "Cal": 2959,
  "Min": 2960,
  "ae": 2961,
  "ox": 2962,
  "von": 2963,
  "vis": 2964,
  "144": 2965,
  "Saint": 2966,
  "FA": 2967,
  "Ken": 2968,
  "OVA": 2969,
  "Cent": 2970,
  "Tru": 2971,
  "VO": 2972,
  "bò": 2973,
  "A2": 2974,
  "IO": 2975,
  "167": 2976,
  "Street": 2977,
  "3A": 2978,
  "HS": 2979,
  "SBS": 2980,
  "shǎ": 2981,
  "bili": 2982,
  "kuǎ": 2983,
  "1841": 2984,
  "very": 2985,
  "Alex": 2986,
  "Bat": 2987,
  "LP": 2988,
  "Lau": 2989,
  "Tor": 2990,
  "din": 2991,
  "ric": 2992,
  "340": 2993,
  "PM": 2994,
  "Por": 2995,
  "Shi": 2996,
  "chuǎn": 2997,
  "mat": 2998,
  "mation": 2999,
  "BLACKP": 3000,
  "Met": 3001,
  "ple": 3002,
  "zā": 3003,
  "208": 3004,
  "1815": 3005,
  "178": 3006,
  "CPU": 3007,
  "BLACKPINK": 3008,
  "223": 3009,
  "Bur": 3010,
  "cis": 3011,
  "mèn": 3012,
  "Soci": 3013,
  "Studio": 3014,
  "Euro": 3015,
  "850": 3016,
  "LGB": 3017,
  "Sing": 3018,
  "pla": 3019,
  "cher": 3020,
  "zuō": 3021,
  "ses": 3022,
  "Rock": 3023,
  "www": 3024,
  "IBM": 3025,
  "spe": 3026,
  "SF": 3027,
  "207": 3028,
  "die": 3029,
  "play": 3030,
  "sg": 3031,
  "nie": 3032,
  "171": 3033,
  "235": 3034,
  "tation": 3035,
  "と": 3036,
  "ま": 3037,
  "Dig": 3038,
  "Fer": 3039,
  "LIVE": 3040,
  "Mr": 3041,
  "PE": 3042,
  "SU": 3043,
  "VE": 3044,
  "Yu": 3045,
  "nìng": 3046,
  "203": 3047,
  "B2": 3048,
  "Whi": 3049,
  "not": 3050,
  "Art": 3051,
  "SQL": 3052,
  "Pad": 3053,
  "1846": 3054,
  "164": 3055,
  "ford": 3056,
  "oot": 3057,
  "College": 3058,
  "bre": 3059,
  "cra": 3060,
  "157": 3061,
  "vice": 3062,
  "berg": 3063,
  "publi": 3064,
  "BR": 3065,
  "LT": 3066,
  "NE": 3067,
  "lit": 3068,
  "141": 3069,
  "ICE": 3070,
  "B1": 3071,
  "Cro": 3072,
  "Cap": 3073,
  "Sun": 3074,
  "ond": 3075,
  "176": 3076,
  "thy": 3077,
  "ING": 3078,
  "board": 3079,
  "Inc": 3080,
  "Tele": 3081,
  "American": 3082,
  "Asso": 3083,
  "LS": 3084,
  "hān": 3085,
  "you": 3086,
  "²": 3087,
  "1812": 3088,
  "1845": 3089,
  "1844": 3090,
  "sign": 3091,
  "Road": 3092,
  "Girls": 3093,
  "self": 3094,
  "Ze": 3095,
  "sch": 3096,
  "mit": 3097,
  "231": 3098,
  "Offi": 3099,
  "cture": 3100,
  "class": 3101,
  "HF": 3102,
  "Ltd": 3103,
  "M3": 3104,
  "Mil": 3105,
  "Ros": 3106,
  "り": 3107,
  "witch": 3108,
  "LGBT": 3109,
  "Ag": 3110,
  "ball": 3111,
  "209": 3112,
  "cess": 3113,
  "き": 3114,
  "off": 3115,
  "NASA": 3116,
  "GNU": 3117,
  "LA": 3118,
  "wāi": 3119,
  "ded": 3120,
  "Jose": 3121,
  "Smith": 3122,
  "Cla": 3123,
  "Ger": 3124,
  "PA": 3125,
  "Pra": 3126,
  "ampi": 3127,
  "IUCN": 3128,
  "216": 3129,
  "PN": 3130,
  "κ": 3131,
  "1849": 3132,
  "153": 3133,
  "temp": 3134,
  "ved": 3135,
  "Good": 3136,
  "CT": 3137,
  "Fil": 3138,
  "NBC": 3139,
  "Tour": 3140,
  "wh": 3141,
  "zhǒu": 3142,
  "sha": 3143,
  "204": 3144,
  "238": 3145,
  "aurus": 3146,
  "Production": 3147,
  "BB": 3148,
  "Cra": 3149,
  "Gal": 3150,
  "Hall": 3151,
  "Sci": 3152,
  "nal": 3153,
  "oi": 3154,
  "yn": 3155,
  "vision": 3156,
  "Video": 3157,
  "Gala": 3158,
  "GT": 3159,
  "O2": 3160,
  "lē": 3161,
  "pm": 3162,
  "ue": 3163,
  "σ": 3164,
  "mited": 3165,
  "orts": 3166,
  "ino": 3167,
  "tions": 3168,
  "Eli": 3169,
  "PR": 3170,
  "Sky": 3171,
  "tal": 3172,
  "206": 3173,
  "lea": 3174,
  "qui": 3175,
  "mac": 3176,
  "460": 3177,
  "ab": 3178,
  "mal": 3179,
  "win": 3180,
  "1814": 3181,
  "org": 3182,
  "218": 3183,
  "ani": 3184,
  "fra": 3185,
  "eries": 3186,
  "Richard": 3187,
  "SI": 3188,
  "lti": 3189,
  "war": 3190,
  "chǔn": 3191,
  "rich": 3192,
  "ange": 3193,
  "IGN": 3194,
  "Act": 3195,
  "LD": 3196,
  "pic": 3198,
  "Boy": 3199,
  "Far": 3200,
  "Tur": 3201,
  "WS": 3202,
  "π": 3203,
  "def": 3204,
  "1847": 3205,
  "154": 3206,
  "turn": 3207,
  "580": 3208,
  "Ama": 3209,
  "FF": 3210,
  "bun": 3211,
  "ep": 3212,
  "fri": 3213,
  "led": 3214,
  "1843": 3215,
  "mann": 3216,
  "Best": 3217,
  "phy": 3218,
  "System": 3219,
  "ptr": 3220,
  "430": 3221,
  "Mas": 3222,
  "MBC": 3223,
  "Plan": 3224,
  "zz": 3225,
  "177": 3226,
  "401": 3227,
  "chem": 3228,
  "410": 3229,
  "Bel": 3230,
  "Sal": 3231,
  "シ": 3232,
  "NFL": 3233,
  "ViuTV": 3234,
  "Switch": 3235,
  "Wo": 3236,
  "king": 3237,
  "163": 3238,
  "AMD": 3239,
  "API": 3240,
  "West": 3241,
  "Japan": 3242,
  "ICO": 3243,
  "bar": 3244,
  "bus": 3245,
  "up": 3246,
  "ments": 3247,
  "1852": 3248,
  "162": 3249,
  "thon": 3250,
  "esti": 3251,
  "Christ": 3252,
  "cript": 3253,
  "VII": 3254,
  "1820": 3255,
  "orn": 3256,
  "get": 3257,
  "this": 3258,
  "く": 3259,
  "Max": 3260,
  "Fre": 3261,
  "Prin": 3262,
  "cil": 3263,
  "142": 3264,
  "234": 3265,
  "ria": 3266,
  "Roy": 3267,
  "VR": 3268,
  "172": 3269,
  "お": 3270,
  "さ": 3271,
  "Records": 3272,
  "640": 3273,
  "Dan": 3274,
  "Squ": 3275,
  "Vir": 3276,
  "wood": 3277,
  "169": 3278,
  "3500": 3279,
  "Limited": 3280,
  "Core": 3281,
  "KC": 3282,
  "T1": 3283,
  "gs": 3284,
  "phi": 3285,
  "±": 3286,
  "1839": 3287,
  "ars": 3288,
  "232": 3289,
  "data": 3290,
  "480": 3291,
  "CM": 3292,
  "cī": 3293,
  "179": 3294,
  "thi": 3295,
  "de ": 3296,
  " de ": 3297,
  "shì ": 3298,
  " shì ": 3299,
  " nián": 3300,
  " nián ": 3301,
  "wèi ": 3302,
  "zài ": 3303,
  " wèi ": 3304,
  " zài ": 3305,
  "hé ": 3306,
  " hé ": 3307,
  "zhōng ": 3308,
  "bù ": 3309,
  "dì ": 3310,
  "shí ": 3311,
  "guó ": 3312,
  "yú ": 3313,
  "rén ": 3314,
  " bù ": 3315,
  "yī ": 3316,
  " zhōng ": 3317,
  "lì ": 3318,
  "zhì ": 3319,
  "gōng ": 3320,
  " shí ": 3321,
  "yuè ": 3322,
  "jí ": 3323,
  "chéng ": 3324,
  "yì ": 3325,
  "yǒu ": 3326,
  " dì ": 3327,
  " yuè ": 3328,
  " yú ": 3329,
  " rén ": 3330,
  " zhì ": 3331,
  "dà ": 3332,
  " jí ": 3333,
  "yuán ": 3334,
  " yǒu ": 3335,
  "jì ": 3336,
  " guó ": 3337,
  " lì ": 3338,
  " gōng ": 3339,
  " yì ": 3340,
  " yǐ": 3341,
  " chéng ": 3342,
  "jiā ": 3343,
  "sī ": 3344,
  "yǔ ": 3345,
  " xiàn": 3346,
  " rì": 3347,
  " yī ": 3348,
  " xíng": 3349,
  " tā": 3350,
  "lǐ ": 3351,
  "jī ": 3352,
  " dào": 3353,
  "hòu ": 3354,
  "wéi ": 3355,
  " zhī": 3356,
  " dà ": 3357,
  " yuán ": 3358,
  "xī ": 3359,
  " rì ": 3360,
  " gè": 3361,
  " yǐ ": 3362,
  "xué ": 3363,
  "huì ": 3364,
  "le ": 3365,
  "zuò ": 3366,
  " yǔ ": 3367,
  " dào ": 3368,
  "míng ": 3369,
  " jì ": 3370,
  "bèi ": 3371,
  " xíng ": 3372,
  "shēng ": 3373,
  " jiàn": 3374,
  " chū": 3375,
  " qí": 3376,
  " sī ": 3377,
  " dé": 3378,
  "zhèng ": 3379,
  " xiàn ": 3380,
  " hòu ": 3381,
  " jī ": 3382,
  "duì ": 3383,
  "shàng ": 3384,
  "qū ": 3385,
  "shǐ ": 3386,
  " ěr": 3387,
  " jiā ": 3388,
  "yóu ": 3389,
  " tā ": 3390,
  " xī ": 3391,
  " lǐ ": 3392,
  " ér": 3393,
  "zhàn ": 3394,
  " jūn": 3395,
  " bìng": 3396,
  " zhī ": 3397,
  " gè ": 3398,
  "zhǔ ": 3399,
  "rèn ": 3400,
  "fù ": 3401,
  "zì ": 3402,
  "wù ": 3403,
  "xīn ": 3404,
  "dài ": 3405,
  "jù ": 3406,
  "píng ": 3407,
  " chū ": 3408,
  " kè": 3409,
  " zhōu": 3410,
  "xiāng ": 3411,
  " huì ": 3412,
  "shù ": 3413,
  "nán ": 3414,
  " shè": 3415,
  " bèi ": 3416,
  " míng ": 3417,
  "xià ": 3418,
  "guān ": 3419,
  " ěr ": 3420,
  " dé ": 3421,
  "lù ": 3422,
  "yù ": 3423,
  "huà ": 3424,
  " jiàn ": 3425,
  "jīng ": 3426,
  "yán ": 3427,
  "fāng ": 3428,
  " yīn": 3429,
  "kāi ": 3430,
  "jiān ": 3431,
  "jiào ": 3432,
  "fā ": 3433,
  "yòng ": 3434,
  " dàn": 3435,
  " ér ": 3436,
  "zhù ": 3437,
  "lái ": 3438,
  "mín ": 3439,
  "shǒu ": 3440,
  "zhè ": 3441,
  "xiàng ": 3442,
  "wén ": 3443,
  " jūn ": 3444,
  "xì ": 3445,
  "qián ": 3446,
  "běn ": 3447,
  "tè ": 3448,
  " wéi ": 3449,
  "zhí ": 3450,
  "fǎ ": 3451,
  "qī ": 3452,
  "jié ": 3453,
  "lián ": 3454,
  " bìng ": 3455,
  "dòng ": 3456,
  "diàn ": 3457,
  " qí ": 3458,
  " kè ": 3459,
  "dōng ": 3460,
  "mù ": 3461,
  " jìn": 3462,
  " duì ": 3463,
  " huò": 3464,
  " zhàn ": 3465,
  "fēn ": 3466,
  "tái ": 3467,
  "zhǎng ": 3468,
  "dù ": 3469,
  "jiāng ": 3470,
  " qiú": 3471,
  " píng ": 3472,
  "gāo ": 3473,
  "yè ": 3474,
  "suǒ ": 3475,
  "běi ": 3476,
  " zhōu ": 3477,
  "shī ": 3478,
  " le ": 3479,
  "duō ": 3480,
  "jiē ": 3481,
  "gé ": 3482,
  " shàng ": 3483,
  "jīn ": 3484,
  " zhèng ": 3485,
  "fú ": 3486,
  " zuò ": 3487,
  " yóu ": 3488,
  " fù ": 3489,
  "kǒu ": 3490,
  "guò ": 3491,
  "zhǐ ": 3492,
  " tóng": 3493,
  "hǎi ": 3494,
  " rèn ": 3495,
  " quán": 3496,
  "mǎ ": 3497,
  "tōng ": 3498,
  "rù ": 3499,
  "zuì ": 3500,
  " shēng ": 3501,
  " xué ": 3502,
  "cǐ ": 3503,
  "xìng ": 3504,
  "wài ": 3505,
  "nèi ": 3506,
  "lā ": 3507,
  "tǐ ": 3508,
  "jué ": 3509,
  "kě ": 3510,
  "qǐ ": 3511,
  "shān ": 3512,
  "tiān ": 3513,
  "chǎng ": 3514,
  "děng ": 3515,
  "zhèn ": 3516,
  "wǔ ": 3517,
  "cháng ": 3518,
  "zi ": 3519,
  "yào ": 3520,
  "bǐ ": 3521,
  " jù ": 3522,
  "bǎo ": 3523,
  "mǐ ": 3524,
  "yà ": 3525,
  " yě": 3526,
  "gāi ": 3527,
  " yīn ": 3528,
  " dài ": 3529,
  "miàn ": 3530,
  "zhòng ": 3531,
  " shè ": 3532,
  "fēng ": 3533,
  " zhè ": 3534,
  "zhǒng ": 3535,
  "cì ": 3536,
  "yùn ": 3537,
  "yí ": 3538,
  "liú ": 3539,
  "chē ": 3540,
  "shòu ": 3541,
  "lín ": 3542,
  "bāo ": 3543,
  "yí gè ": 3544,
  "sài ": 3545,
  "jiè ": 3546,
  "dìng ": 3547,
  "shēn ": 3548,
  "shěng ": 3549,
  "luó ": 3550,
  "měi guó ": 3551,
  "sān ": 3552,
  "qì ": 3553,
  "xiǎo ": 3554,
  " dàn ": 3555,
  "néng ": 3556,
  "shū ": 3557,
  "zé ": 3558,
  "liè ": 3559,
  "xuǎn ": 3560,
  "sì ": 3561,
  "qīng ": 3562,
  "zhě ": 3563,
  " qiú ": 3564,
  "jìng ": 3565,
  "yuàn ": 3566,
  "bā ": 3567,
  "wáng ": 3568,
  "kē ": 3569,
  "tài ": 3570,
  "lán ": 3571,
  "bào ": 3572,
  "ān ": 3573,
  "zǒng ": 3574,
  "yǐng ": 3575,
  " huò ": 3576,
  "bì ": 3577,
  "fǔ ": 3578,
  "dǎo ": 3579,
  " xīn ": 3580,
  "gǔ ": 3581,
  "yīng ": 3582,
  " hào": 3583,
  " xià ": 3584,
  " zì ": 3585,
  "gē ": 3586,
  "fèn ": 3587,
  "xiào ": 3588,
  "yuē ": 3589,
  "ní ": 3590,
  "jiāo ": 3591,
  "nà ": 3592,
  " yù ": 3593,
  " mǐ ": 3594,
  "zī ": 3595,
  "èr ": 3596,
  " xiāng ": 3597,
  "pǔ ": 3598,
  "dān ": 3599,
  " zhù ": 3600,
  "biǎo ": 3601,
  "guǎn ": 3602,
  "tóu ": 3603,
  "liàng ": 3604,
  "chuán ": 3605,
  " lù ": 3606,
  "sù ": 3607,
  "wú ": 3608,
  " dāng": 3609,
  "bō ": 3610,
  "rú ": 3611,
  "yǎn ": 3612,
  "nǚ ": 3613,
  "bó ": 3614,
  " zhōng guó ": 3615,
  "xīng ": 3616,
  "tí ": 3617,
  "fēi ": 3618,
  "dá ": 3619,
  "sè ": 3620,
  "chēng ": 3621,
  "měi ": 3622,
  " wèi yú ": 3623,
  " jìn ": 3624,
  "céng ": 3625,
  "chǎn ": 3626,
  " nán ": 3627,
  "shuǐ ": 3628,
  "tú ": 3629,
  "biàn ": 3630,
  "guī ": 3631,
  " rán": 3632,
  "ā ": 3633,
  "yáng ": 3634,
  "zhāng ": 3635,
  "gǎi ": 3636,
  "diǎn ": 3637,
  "cóng ": 3638,
  "jiù ": 3639,
  " běn ": 3640,
  " quán ": 3641,
  "shā ": 3642,
  "bāo kuò": 3643,
  "wǎng ": 3644,
  "jiǎn ": 3645,
  "shèng ": 3646,
  "zǔ ": 3647,
  "shǔ ": 3648,
  "gǎng ": 3649,
  "huá ": 3650,
  "lǜ ": 3651,
  "qíng ": 3652,
  "jǐng ": 3653,
  "liǎng ": 3654,
  "zú ": 3655,
  "bàn ": 3656,
  "tǒng ": 3657,
  "gòng ": 3658,
  "shāng ": 3659,
  "lí ": 3660,
  "hù ": 3661,
  "tóng ": 3662,
  "biān ": 3663,
  "jìn ": 3664,
  "àn ": 3665,
  "lóng ": 3666,
  "luò ": 3667,
  "xù ": 3668,
  "chí ": 3669,
  "ào ": 3670,
  "méi ": 3671,
  "jǐn ": 3672,
  "bān ": 3673,
  "guǎng ": 3674,
  "chū ": 3675,
  "cè ": 3676,
  "mì ": 3677,
  "shén ": 3678,
  " tā men": 3679,
  "zhēng ": 3680,
  "zhī ": 3681,
  "lǐng ": 3682,
  "yòu ": 3683,
  "fǎn ": 3684,
  "wēi ": 3685,
  " zhǔ ": 3686,
  " xiàng ": 3687,
  "huó ": 3688,
  "xí ": 3689,
  "tíng ": 3690,
  "kǎ ": 3691,
  "chá ": 3692,
  " gāi ": 3693,
  "cái ": 3694,
  "1 ": 3695,
  "gòu ": 3696,
  "shuō ": 3697,
  "mén ": 3698,
  "cí ": 3699,
  "xiǎng ": 3700,
  "mǔ ": 3701,
  "lèi ": 3702,
  "wěi ": 3703,
  "qǔ ": 3704,
  " gōng lǐ ": 3705,
  "yán jiū": 3706,
  " duō ": 3707,
  "tuán ": 3708,
  "yǐn ": 3709,
  "jiàn ": 3710,
  " yě ": 3711,
  "cháo ": 3712,
  "yìng ": 3713,
  "chén ": 3714,
  "táng ": 3715,
  "xiē ": 3716,
  "qí ": 3717,
  "pǐn ": 3718,
  " yǐ jí ": 3719,
  "jià ": 3720,
  "shǐ yòng ": 3721,
  "jiě ": 3722,
  " wàn": 3723,
  "háng ": 3724,
  "yǐ ": 3725,
  "lún ": 3726,
  "róng ": 3727,
  " yóu": 3728,
  "jiǎng ": 3729,
  "pái ": 3730,
  "fū ": 3731,
  "jiǔ ": 3732,
  "é ": 3733,
  "lìng ": 3734,
  "tái wān": 3735,
  " hào ": 3736,
  " de dì ": 3737,
  "xū ": 3738,
  "kě yǐ ": 3739,
  "2 ": 3740,
  "huáng ": 3741,
  "xiān ": 3742,
  "duàn ": 3743,
  "kè ": 3744,
  "dǎng ": 3745,
  "mó ": 3746,
  "cān ": 3747,
  "yíng ": 3748,
  "tiáo ": 3749,
  "biāo ": 3750,
  " de yī ": 3751,
  "kāi shǐ ": 3752,
  "quán ": 3753,
  "zhǎn ": 3754,
  " chéng wéi ": 3755,
  "yě ": 3756,
  "hóng ": 3757,
  "méi yǒu ": 3758,
  "hàn ": 3759,
  "yīn ": 3760,
  "wěi yuán ": 3761,
  "qiān ": 3762,
  "bǎn ": 3763,
  "xiàn ": 3764,
  "líng ": 3765,
  "xiāo ": 3766,
  " tóng ": 3767,
  "huí ": 3768,
  "sū ": 3769,
  "fáng ": 3770,
  "méng ": 3771,
  "zhuāng ": 3772,
  "kōng ": 3773,
  "jú ": 3774,
  "cūn ": 3775,
  "bāo kuò ": 3776,
  "rén kǒu ": 3777,
  " qí zhōng ": 3778,
  " gōng sī ": 3779,
  "huò ": 3780,
  "zǐ ": 3781,
  "xíng ": 3782,
  "dōu ": 3783,
  " de shì ": 3784,
  "   zài ": 3785,
  "qiáng ": 3786,
  "zhào ": 3787,
  "dú ": 3788,
  "zhèng zhì ": 3789,
  "yí gè": 3790,
  "mò ": 3791,
  " fēn ": 3792,
  "cǎi ": 3793,
  "bīng ": 3794,
  "fǎ guó ": 3795,
  " gāo ": 3796,
  " dà xué ": 3797,
  " shì yī ": 3798,
  "hái ": 3799,
  " tā de ": 3800,
  "hú ": 3801,
  "chù ": 3802,
  "qīn ": 3803,
  "lùn ": 3804,
  "fàn ": 3805,
  "zhēn ": 3806,
  "guāng ": 3807,
  "wèn ": 3808,
  "màn ": 3809,
  " jié ": 3810,
  "shè ": 3811,
  "biǎo shì ": 3812,
  "ài ": 3813,
  "zhōng de ": 3814,
  "jū ": 3815,
  " jiào ": 3816,
  "zhuān ": 3817,
  "diào ": 3818,
  "bái ": 3819,
  "dǎ ": 3820,
  "què ": 3821,
  "diàn shì ": 3822,
  " dōng ": 3823,
  " dù ": 3824,
  "fèi ": 3825,
  " shì wèi ": 3826,
  " mù ": 3827,
  "hán ": 3828,
  "shì de ": 3829,
  "3 ": 3830,
  " tè ": 3831,
  "xùn ": 3832,
  " jīn ": 3833,
  "piàn ": 3834,
  "mìng ": 3835,
  "jǔ ": 3836,
  " jiāng ": 3837,
  "tuō ": 3838,
  "gù ": 3839,
  " rén kǒu ": 3840,
  "xiū ": 3841,
  " bù fèn ": 3842,
  "xié ": 3843,
  "zào ": 3844,
  " hé guó ": 3845,
  "zhōng guó ": 3846,
  "guǒ ": 3847,
  "10 yuè ": 3848,
  "shōu ": 3849,
  " zuì": 3850,
  "xìn ": 3851,
  "12 yuè ": 3852,
  "7 yuè ": 3853,
  "9 yuè ": 3854,
  "zhuǎn ": 3855,
  " shī ": 3856,
  "tā ": 3857,
  "dāng ": 3858,
  "miàn jī ": 3859,
  " rén mín ": 3860,
  "8 yuè ": 3861,
  "xún ": 3862,
  " dì qū ": 3863,
  "wū ": 3864,
  "3 yuè ": 3865,
  " guò ": 3866,
  "1 yuè ": 3867,
  " suǒ ": 3868,
  " jīng ": 3869,
  " shǒu ": 3870,
  "gǎn ": 3871,
  "huán ": 3872,
  "dí ": 3873,
  "xiá ": 3874,
  "jiǎ ": 3875,
  "5 yuè ": 3876,
  "yīng guó ": 3877,
  " cǐ ": 3878,
  "dào ": 3879,
  "dǐ ": 3880,
  "zhū ": 3881,
  "tīng ": 3882,
  "zhèng shì ": 3883,
  "chóng ": 3884,
  "huǒ ": 3885,
  "zhōu ": 3886,
  "6 yuè ": 3887,
  "zhuàng ": 3888,
  "chéng shì ": 3889,
  "4 yuè ": 3890,
  " guó jiā ": 3891,
  "tián ": 3892,
  "gèng ": 3893,
  "   dì ": 3894,
  "fàng ": 3895,
  "yǒng ": 3896,
  "shǔ yú ": 3897,
  " píng fāng": 3898,
  "pò ": 3899,
  "jūn ": 3900,
  " dì yī ": 3901,
  " qián ": 3902,
  "11 yuè ": 3903,
  "qún ": 3904,
  "qù ": 3905,
  "jiàng ": 3906,
  "táo ": 3907,
  " shì jì ": 3908,
  " píng fāng gōng lǐ ": 3909,
  " tóng shí ": 3910,
  "4 ": 3911,
  "dān rèn ": 3912,
  " mǎ ": 3913,
  " děng ": 3914,
  " rú ": 3915,
  "gēn ": 3916,
  "jǐ ": 3917,
  "bié ": 3918,
  "pài ": 3919,
  "dū ": 3920,
  "liáng ": 3921,
  "5 ": 3922,
  "shǎo ": 3923,
  "huī ": 3924,
  "tiě ": 3925,
  "nóng ": 3926,
  " nián 1 yuè ": 3927,
  "tǎ ": 3928,
  "diàn yǐng ": 3929,
  "zōng ": 3930,
  "chǔ ": 3931,
  " qī ": 3932,
  " tiān ": 3933,
  " zhè": 3934,
  "sǐ ": 3935,
  "ěr ": 3936,
  " de shí ": 3937,
  "shuāng ": 3938,
  "qiáo ": 3939,
  "tái wān ": 3940,
  " suì": 3941,
  "gēn jù ": 3942,
  "lì shǐ ": 3943,
  "chú ": 3944,
  " shì zhèn ": 3945,
  "gào ": 3946,
  "bài ": 3947,
  "cān jiā ": 3948,
  "yùn dòng": 3949,
  "gāng ": 3950,
  "chē zhàn ": 3951,
  "guó de ": 3952,
  "jiǎo ": 3953,
  " yīn wèi ": 3954,
  " rì běn ": 3955,
  " píng fāng ": 3956,
  "lì de ": 3957,
  " nián de ": 3958,
  "gài ": 3959,
  "pàn ": 3960,
  " wén ": 3961,
  " hǎi ": 3962,
  "zhèng fǔ ": 3963,
  "bìng ": 3964,
  "zhǔn ": 3965,
  " nián 12 yuè ": 3966,
  "wǎ ": 3967,
  "yàn ": 3968,
  "wǒ ": 3969,
  " fú ": 3970,
  "gòng hé guó ": 3971,
  " xiàn de ": 3972,
  "yá ": 3973,
  "yín ": 3974,
  " wàn ": 3975,
  "fā xiàn ": 3976,
  "formula ": 3977,
  "chuàng ": 3978,
  "hēi ": 3979,
  "huàn ": 3980,
  "qū de ": 3981,
  "sòng ": 3982,
  "hā ": 3983,
  "hěn ": 3984,
  " suǒ": 3985,
  "tí gōng ": 3986,
  "jìn xíng ": 3987,
  " běi ": 3988,
  "léi ": 3989,
  "2 yuè ": 3990,
  "jīng jì ": 3991,
  "tōng guò ": 3992,
  " nián 3 yuè ": 3993,
  "suí ": 3994,
  "chuān ": 3995,
  "qiě ": 3996,
  " zhōng yāng": 3997,
  " guó jì ": 3998,
  "huā ": 3999,
  "shàng de ": 4000,
  " yóu yú ": 4001,
  " yòu ": 4002,
  "lēi ": 4003,
  "wěi yuán huì ": 4004,
  "kǎo ": 4005,
  " nián 7 yuè ": 4006,
  "wán ": 4007,
  "chēng wéi ": 4008,
  " nián 10 yuè ": 4009,
  "bǎi ": 4010,
  "dēng ": 4011,
  " shì jiè ": 4012,
  " yīn cǐ ": 4013,
  "míng wèi ": 4014,
  " jìn xíng ": 4015,
  "nuò ": 4016,
  " shì zài ": 4017,
  " rán ": 4018,
  "chōng ": 4019,
  "zhǔ yì ": 4020,
  " nián 9 yuè ": 4021,
  " tā men ": 4022,
  "kuài ": 4023,
  "yán jiū ": 4024,
  "tǔ ": 4025,
  " zhī hòu ": 4026,
  "qiú ": 4027,
  " yīng ": 4028,
  "mài ": 4029,
  "shí de ": 4030,
  "liàn ": 4031,
  "hào ": 4032,
  " nián 5 yuè ": 4033,
  "sà ": 4034,
  "lú ": 4035,
  "xì tǒng ": 4036,
  " zuì ": 4037,
  " lián ": 4038,
  "pèi ": 4039,
  "lǔ ": 4040,
  " nián 4 yuè ": 4041,
  "chǐ ": 4042,
  "liào ": 4043,
  " dāng ": 4044,
  " nián 8 yuè ": 4045,
  " nián 6 yuè ": 4046,
  " xíng de ": 4047,
  "zēng ": 4048,
  "rén de ": 4049,
  " shǐ ": 4050,
  "xiāng gǎng ": 4051,
  "xuān ": 4052,
  "qī jiān ": 4053,
  "dé ": 4054,
  "kuàng ": 4055,
  "guǎn lǐ ": 4056,
  " gōng zuò ": 4057,
  "piào ": 4058,
  " zhī yī ": 4059,
  "xǔ ": 4060,
  "6 ": 4061,
  "ēn ": 4062,
  "dī ": 4063,
  "héng ": 4064,
  "dà de ": 4065,
  "bǔ ": 4066,
  "yàng ": 4067,
  "sēn ": 4068,
  " zhōng xīn ": 4069,
  "xuān bù ": 4070,
  "tuī ": 4071,
  " nián 11 yuè ": 4072,
  "zǔ zhī ": 4073,
  "rì ": 4074,
  "wàng ": 4075,
  "bù de ": 4076,
  "pí ": 4077,
  "men ": 4078,
  " bāo kuò ": 4079,
  "chàng ": 4080,
  "yǐng xiǎng ": 4081,
  "yǎng ": 4082,
  " tā zài ": 4083,
  "qiān mǐ ": 4084,
  "sāi ": 4085,
  "ér ": 4086,
  "   shēng ": 4087,
  " huò dé ": 4088,
  "pī ": 4089,
  " shì jiè": 4090,
  "luó sī ": 4091,
  "hè ": 4092,
  "kě néng": 4093,
  "chéng de ": 4094,
  " gāi": 4095,
  " qīng ": 4096,
  "niàn ": 4097,
  "dùn ": 4098,
  " měi": 4099,
  "xián ": 4100,
  " ā ": 4101,
  "lóu ": 4102,
  "qí tā ": 4103,
  " nián 2 yuè ": 4104,
  " chéng lì ": 4105,
  "le yī ": 4106,
  "bāng ": 4107,
  "huó dòng ": 4108,
  " rèn wéi ": 4109,
  " lái ": 4110,
  "liù ": 4111,
  "yōu ": 4112,
  " bǐ ": 4113,
  " shù ": 4114,
  " fēn": 4115,
  "kē xué ": 4116,
  "fā zhǎn ": 4117,
  "huò dé ": 4118,
  "jùn ": 4119,
  " luó ": 4120,
  " zuò wéi ": 4121,
  "yā ": 4122,
  " píng fāng qiān mǐ ": 4123,
  "huá rén mín ": 4124,
  " wú ": 4125,
  "rì běn ": 4126,
  "bēi ": 4127,
  "lǎo ": 4128,
  "huì yì ": 4129,
  "rè ": 4130,
  " zhí": 4131,
  "kù ": 4132,
  "tán ": 4133,
  "jiān de ": 4134,
  "tiě lù ": 4135,
  " liú ": 4136,
  " de rén ": 4137,
  "yòng yú ": 4138,
  "liáo ": 4139,
  "níng ": 4140,
  " shí jiān ": 4141,
  " de gōng ": 4142,
  "gè ": 4143,
  " shān ": 4144,
  " zhāng ": 4145,
  "miǎn ": 4146,
  " yán ": 4147,
  "miàn jī": 4148,
  "mín guó ": 4149,
  "ruì ": 4150,
  "wū kè ": 4151,
  "yìn ": 4152,
  "xiǎn ": 4153,
  "lè ": 4154,
  "zuǒ ": 4155,
  "gòng yǒu ": 4156,
  "   lì shǐ ": 4157,
  "hǎo ": 4158,
  "   shēng píng ": 4159,
  "huá rén mín gòng hé guó ": 4160,
  "fāng shì ": 4161,
  "fā shēng ": 4162,
  "gān ": 4163,
  " cóng ": 4164,
  " zhí ": 4165,
  "dòu ": 4166,
  "wèn tí ": 4167,
  "guàn jūn ": 4168,
  "zhǔ yào ": 4169,
  "rán ": 4170,
  "dì de ": 4171,
  " dì èr ": 4172,
  "dǎo zhì ": 4173,
  " xiǎo ": 4174,
  "guān xì ": 4175,
  "cún ": 4176,
  "kāng ": 4177,
  "cān yù ": 4178,
  "yuǎn ": 4179,
  " jǐn ": 4180,
  " bù fèn": 4181,
  "zhěng ": 4182,
  " gōng chéng ": 4183,
  "wán chéng ": 4184,
  "dān wèi ": 4185,
  "kě néng ": 4186,
  " wǔ ": 4187,
  " zhǐ ": 4188,
  "yī wèi ": 4189,
  " zé ": 4190,
  "1 rì ": 4191,
  "xiè ": 4192,
  "suǒ yǒu ": 4193,
  " zǒng ": 4194,
  "zhì de ": 4195,
  "wén huà ": 4196,
  " chéng yuán ": 4197,
  " de chéng ": 4198,
  "gěi ": 4199,
  "lǚ ": 4200,
  " bā ": 4201,
  "yuán de ": 4202,
  " tōng ": 4203,
  "yōng yǒu ": 4204,
  "cún zài ": 4205,
  "èr shí ": 4206,
  "běi bù ": 4207,
  "lián hé ": 4208,
  "hòu de ": 4209,
  "niǔ ": 4210,
  " shì zhōng ": 4211,
  "zhèng fǔ": 4212,
  "yóu yú ": 4213,
  "guó jiā ": 4214,
  "duì yú ": 4215,
  " nián zhì ": 4216,
  "fā xíng ": 4217,
  "yì de ": 4218,
  "jù yǒu ": 4219,
  "ge ": 4220,
  " jiàn zhù ": 4221,
  " zhǐ": 4222,
  "bǐ sài ": 4223,
  " bìng zài ": 4224,
  " dào le ": 4225,
  "ōu ": 4226,
  "è ": 4227,
  "xīn de ": 4228,
  "sī de ": 4229,
  "shěn ": 4230,
  "yún ": 4231,
  "zì jǐ": 4232,
  "yùn dòng ": 4233,
  "xíng zhèng ": 4234,
  "yìn dù ": 4235,
  "é luó sī ": 4236,
  "bīn ": 4237,
  " miàn jī ": 4238,
  " xì ": 4239,
  "dài biǎo ": 4240,
  "shào ": 4241,
  " měi guó ": 4242,
  " lìng ": 4243,
  "xǔ duō ": 4244,
  " dàn shì ": 4245,
  "rèn hé ": 4246,
  "shēng yú ": 4247,
  "tū ": 4248,
  "guì ": 4249,
  "mǎn ": 4250,
  " nián dài ": 4251,
  " jiǎn ": 4252,
  "dīng ": 4253,
  "liǎng gè ": 4254,
  "chè ": 4255,
  "bǎo hù ": 4256,
  " rén kǒu mì ": 4257,
  " shǐ": 4258,
  "zh ": 4259,
  "xiù ": 4260,
  "xuán ": 4261,
  " dāng shí ": 4262,
  "zhàng ": 4263,
  " de yí gè ": 4264,
  "nán bù ": 4265,
  "jǔ xíng ": 4266,
  "zhuān jí ": 4267,
  "miàn jī wèi ": 4268,
  " diàn ": 4269,
  "lái de ": 4270,
  " guān ": 4271,
  "fān ": 4272,
  "zǎo ": 4273,
  " zhèng fǔ ": 4274,
  " céng ": 4275,
  "dú lì ": 4276,
  "fú wù ": 4277,
  "jué dìng ": 4278,
  "xiě ": 4279,
  " chū de ": 4280,
  "ruò ": 4281,
  "zhǔ yào": 4282,
  "7 ": 4283,
  "kāi shǐ": 4284,
  " lì shǐ ": 4285,
  "qǐng ": 4286,
  " sān ": 4287,
  " shè jì ": 4288,
  " wáng ": 4289,
  " měi ": 4290,
  " 15": 4291,
  "míng de ": 4292,
  "hài ": 4293,
  "ràng ": 4294,
  " shì wèi yú ": 4295,
  "jiù shì ": 4296,
  " yǒu yī ": 4297,
  "āi ": 4298,
  "gēng ": 4299,
  " jiāng": 4300,
  "gt ": 4301,
  " cǐ": 4302,
  " gt ": 4303,
  "xǐ ": 4304,
  "tàn ": 4305,
  " qí tā ": 4306,
  " fǎ ": 4307,
  " xíng zhèng ": 4308,
  "péi ": 4309,
  "jiào yù ": 4310,
  "shòu dào ": 4311,
  "lt ": 4312,
  " fēng ": 4313,
  "rèn wéi ": 4314,
  "fǎng ": 4315,
  "kān ": 4316,
  "wǎn ": 4317,
  " shì dì ": 4318,
  "fā zhǎn": 4319,
  " jiē ": 4320,
  "shè huì ": 4321,
  " lt ": 4322,
  "yì wèi ": 4323,
  "gù shì ": 4324,
  "shàn ": 4325,
  "piān ": 4326,
  "fāng miàn ": 4327,
  " xiàn zài ": 4328,
  "8 ": 4329,
  "qū wèi ": 4330,
  " zuì zhōng ": 4331,
  " bì ": 4332,
  "qín ": 4333,
  " zhōng yāng ": 4334,
  "pào ": 4335,
  " shì shì ": 4336,
  "tuì ": 4337,
  "zhe ": 4338,
  "nèi de ": 4339,
  " jiù ": 4340,
  "shǔ de ": 4341,
  "xiāng gǎng": 4342,
  "xiǎo shí ": 4343,
  "dàn ": 4344,
  " lì rú ": 4345,
  "zú qiú ": 4346,
  " qū ": 4347,
  "shù jù ": 4348,
  " bù tóng": 4349,
  "liè chē ": 4350,
  "xū yào ": 4351,
  "huà de ": 4352,
  "zhí wù ": 4353,
  " suī": 4354,
  "rén shì ": 4355,
  "qiāng ": 4356,
  "zuò de ": 4357,
  " dòng ": 4358,
  "shǐ yòng": 4359,
  "zēng jiā ": 4360,
  " jì huà ": 4361,
  "mín zhǔ ": 4362,
  " shí qī ": 4363,
  "zuò wéi ": 4364,
  " gǔ ": 4365,
  "kòng zhì ": 4366,
  " yě shì ": 4367,
  "duǎn ": 4368,
  "tǎn ": 4369,
  " jiàn de ": 4370,
  "yīn yuè ": 4371,
  " céng": 4372,
  " rán ér ": 4373,
  " 16": 4374,
  " ān ": 4375,
  " yǐ jīng ": 4376,
  " shǔ yú ": 4377,
  "láng ": 4378,
  " hé zuò ": 4379,
  " zài dì ": 4380,
  "rén mín ": 4381,
  " shì jiàn ": 4382,
  " rén yuán ": 4383,
  " yòu": 4384,
  "tā de ": 4385,
  " jiàn yú ": 4386,
  "xué yuàn ": 4387,
  "zǔ chéng ": 4388,
  "chāo guò ": 4389,
  " mǎ": 4390,
  " gé ": 4391,
  "zuò pǐn ": 4392,
  " yīn yuè ": 4393,
  " kē ": 4394,
  "mào ": 4395,
  " quán guó ": 4396,
  "xióng ": 4397,
  "zǎi ": 4398,
  "hū ": 4399,
  "huì de ": 4400,
  "jì de ": 4401,
  " sì ": 4402,
  "zǒng tǒng ": 4403,
  "suàn ": 4404,
  " zhè xiē ": 4405,
  " wèi le ": 4406,
  " hòu lái ": 4407,
  "yú shì ": 4408,
  " pǔ ": 4409,
  " shòu ": 4410,
  " zhǎng ": 4411,
  " tài ": 4412,
  " chéng gōng ": 4413,
  "fā bù ": 4414,
  "dà lì ": 4415,
  "tí chū ": 4416,
  " lì yà ": 4417,
  " 000": 4418,
  " yì yuán ": 4419,
  " shè yǒu ": 4420,
  "   de ": 4421,
  " yīn cǐ": 4422,
  "yùn dòng yuán ": 4423,
  "yāo qiú ": 4424,
  "hán guó ": 4425,
  "bù zài ": 4426,
  "ní yà": 4427,
  "pín ": 4428,
  "yǒu de ": 4429,
  "pú ": 4430,
  "zào chéng ": 4431,
  "ōu zhōu ": 4432,
  "qiū ": 4433,
  "cǎi yòng ": 4434,
  "xiǎo xíng ": 4435,
  " gōng yuán ": 4436,
  "jiā de ": 4437,
  "xìng de ": 4438,
  "shēng de ": 4439,
  "bǎ ": 4440,
  "s ": 4441,
  " de yí gè": 4442,
  " rì zài ": 4443,
  "dāng shí ": 4444,
  "kòng ": 4445,
  "rén wù ": 4446,
  "fèng ": 4447,
  " cǐ wài ": 4448,
  " suí": 4449,
  "gòng chǎn ": 4450,
  " lā ": 4451,
  "kàn ": 4452,
  " zh ": 4453,
  " cóng": 4454,
  " wǒ ": 4455,
  "10 ": 4456,
  " shā ": 4457,
  " shì hé ": 4458,
  "wān ": 4459,
  " lìng": 4460,
  "2010 nián ": 4461,
  " gēn jù ": 4462,
  " de bù ": 4463,
  "mǎ wèi ": 4464,
  " tǐ ": 4465,
  "xué jiā ": 4466,
  "yóu xì ": 4467,
  " nǚ ": 4468,
  "sōng ": 4469,
  "fàn wéi ": 4470,
  " bù tóng ": 4471,
  "dūn ": 4472,
  "kāi fā ": 4473,
  "shè jì ": 4474,
  "máo ": 4475,
  "chāo ": 4476,
  "sān nián ": 4477,
  " kě ": 4478,
  "qǔ dé ": 4479,
  " de jī ": 4480,
  "sài shì ": 4481,
  "   shì ": 4482,
  "xiōng ": 4483,
  " xíng chéng ": 4484,
  "   dì lǐ ": 4485,
  " suì ": 4486,
  "zì zhì ": 4487,
  " yí ": 4488,
  "chǎn shēng ": 4489,
  " wù ": 4490,
  "wēn ": 4491,
  "ā ěr ": 4492,
  "yáo ": 4493,
  "dǐng ": 4494,
  " de jì ": 4495,
  "shū jì ": 4496,
  " 17": 4497,
  "jié mù ": 4498,
  " bìng yú ": 4499,
  "nǐ ": 4500,
  "dōu shì ": 4501,
  "chóng xīn ": 4502,
  " liǎng ": 4503,
  "zàn ": 4504,
  "lüè ": 4505,
  "chūn ": 4506,
  " shè huì ": 4507,
  "xì tǒng": 4508,
  "zhòng yào": 4509,
  "lǐ de ": 4510,
  "bú shì ": 4511,
  " dài biǎo ": 4512,
  "yī nián ": 4513,
  " xiāng gǎng ": 4514,
  " sī tè ": 4515,
  "diàn yǐng": 4516,
  "zhuī ": 4517,
  "guān yú ": 4518,
  "dàng ": 4519,
  " nà ": 4520,
  "jué sè ": 4521,
  " fú": 4522,
  "jiāo tōng ": 4523,
  "lǎng ": 4524,
  " yóu xì ": 4525,
  "dà xué ": 4526,
  "9 ": 4527,
  "jí de ": 4528,
  "mí ": 4529,
  " 0": 4530,
  "gē qǔ ": 4531,
  "chú le ": 4532,
  " chū xiàn ": 4533,
  "tǎo ": 4534,
  "2020 nián ": 4535,
  " jié": 4536,
  " C": 4537,
  " zhì zuò ": 4538,
  " dà xué": 4539,
  "píng jūn ": 4540,
  " dé guó ": 4541,
  "xiǎn shì ": 4542,
  " chén ": 4543,
  " jiān ": 4544,
  "huá mín guó ": 4545,
  " shēn ": 4546,
  " nián zài ": 4547,
  " zhōng huá rén mín gòng hé guó ": 4548,
  "kuò ": 4549,
  "kǒng ": 4550,
  "hòu zài ": 4551,
  "miáo ": 4552,
  " nián dài": 4553,
  " liǎng": 4554,
  "èr nián ": 4555,
  "xià de ": 4556,
  "yǎn yuán ": 4557,
  " kè sī ": 4558,
  "dé guó ": 4559,
  "xiáng ": 4560,
  "qìng ": 4561,
  "wéi yī ": 4562,
  "cǎo ": 4563,
  " bǎo ": 4564,
  "dāng dì ": 4565,
  "guó jì ": 4566,
  "duì de ": 4567,
  " 1 ": 4568,
  "bó wù ": 4569,
  "hūn ": 4570,
  " jiàn lì ": 4571,
  " fēi ": 4572,
  " dì guó ": 4573,
  " bù yú ": 4574,
  "fǎn duì ": 4575,
  "qī de ": 4576,
  "zǒu ": 4577,
  "duān ": 4578,
  "wù de ": 4579,
  "xuè ": 4580,
  "yīn wèi ": 4581,
  " A": 4582,
  "qū yù ": 4583,
  "qù shì ": 4584,
  "yī bù fèn ": 4585,
  "bá gāo ": 4586,
  "wò ": 4587,
  "kuǎn ": 4588,
  " cháng ": 4589,
  "quē ": 4590,
  "2001 nián ": 4591,
  "guǎn xiá ": 4592,
  "dù wèi ": 4593,
  "zhèng zhì rén wù ": 4594,
  "péng ": 4595,
  "ní yà ": 4596,
  " kǎ ": 4597,
  "hái yǒu ": 4598,
  "   rén kǒu ": 4599,
  " dāng dì ": 4600,
  "zuì zhōng ": 4601,
  " tā shì ": 4602,
  "chì ": 4603,
  " bù duì ": 4604,
  "lái zì ": 4605,
  " dān ": 4606,
  " 1": 4607,
  " yuē ": 4608,
  " xíng shì ": 4609,
  "bǐ sài": 4610,
  "qián wǎng ": 4611,
  " fā ": 4612,
  "zhí yè ": 4613,
  " wēi ": 4614,
  "dìng de ": 4615,
  "quán guó ": 4616,
  "bā shì ": 4617,
  "yī bù ": 4618,
  " de yuán ": 4619,
  " zhèng fǔ": 4620,
  " chú ": 4621,
  "zhòng yào ": 4622,
  "diào chá ": 4623,
  " lín ": 4624,
  " zhī jiān ": 4625,
  "biān mǎ wèi ": 4626,
  " huáng ": 4627,
  " nián jiān ": 4628,
  " xué míng ": 4629,
  "s   ": 4630,
  "xué xiào ": 4631,
  "zhāo ": 4632,
  "zhǔ xí ": 4633,
  "xuǎn jǔ ": 4634,
  " rì zhì ": 4635,
  "gǎi wéi ": 4636,
  "zǔ zhī": 4637,
  " nèi ": 4638,
  "zhǔ jiào ": 4639,
  "fá ": 4640,
  "zī liào ": 4641,
  " jìng ": 4642,
  "hǎi jūn ": 4643,
  "gōng shì ": 4644,
  " jūn shì ": 4645,
  " de dà ": 4646,
  " rén kǒu mì dù ": 4647,
  "chǔ lǐ ": 4648,
  "kàng ": 4649,
  "sūn ": 4650,
  "zāi ": 4651,
  " de yì ": 4652,
  "fāng fǎ ": 4653,
  "fù zé ": 4654,
  " duō": 4655,
  " rì běn": 4656,
  "wū kè lán ": 4657,
  "   yǔ ": 4658,
  "guàn ": 4659,
  " bō ": 4660,
  "shù de ": 4661,
  " yǒu xiàn": 4662,
  "dài biǎo": 4663,
  " méi ": 4664,
  " gè rén ": 4665,
  " sān": 4666,
  " shèng ": 4667,
  "wú fǎ ": 4668,
  "yǐng xiǎng": 4669,
  " jì shù ": 4670,
  " shì yóu ": 4671,
  " huà ": 4672,
  "jiē rǎng": 4673,
  "jū mín ": 4674,
  "zuì gāo ": 4675,
  " jiè ": 4676,
  " kāi ": 4677,
  " gǎi ": 4678,
  "pà ": 4679,
  "qí zhōng ": 4680,
  "lù de ": 4681,
  " hóng ": 4682,
  "xué shēng ": 4683,
  "xì liè ": 4684,
  " zhī chí ": 4685,
  " zé": 4686,
  "zì yóu ": 4687,
  "wěn ": 4688,
  "biāo zhǔn ": 4689,
  "qiè ": 4690,
  "xié huì ": 4691,
  "shù liàng": 4692,
  "ān quán ": 4693,
  "fǎn yìng ": 4694,
  "kě yǐ": 4695,
  "huì zài ": 4696,
  " 2 ": 4697,
  "yāo ": 4698,
  "kěn ": 4699,
  "shèn zhì ": 4700,
  "yé ": 4701,
  "bǐ lì ": 4702,
  "tǒng zhì ": 4703,
  "chuàng zuò ": 4704,
  "zhǔ rèn ": 4705,
  " suí ": 4706,
  " qǐ ": 4707,
  "   běn ": 4708,
  " xīn": 4709,
  "dōng bù ": 4710,
  " de yí gè shì zhèn ": 4711,
  "lián méng ": 4712,
  " shì yí gè ": 4713,
  " nán": 4714,
  " gōng sī": 4715,
  "gāi guó ": 4716,
  "kǎi ": 4717,
  " fù zé ": 4718,
  "fán ": 4719,
  "yǎ ": 4720,
  " dì sān ": 4721,
  " dì shí ": 4722,
  "   xíng zhèng ": 4723,
  " sū ": 4724,
  "tǐ yù ": 4725,
  " bù guò ": 4726,
  "jié gòu ": 4727,
  "niú ": 4728,
  " 2": 4729,
  " dào de ": 4730,
  "shí nián ": 4731,
  "qíng kuàng ": 4732,
  "néng lì ": 4733,
  "mǒu ": 4734,
  "nán zi ": 4735,
  "zhōng shì ": 4736,
  " shuǐ ": 4737,
  "qíng kuàng": 4738,
  "sì nián ": 4739,
  " S": 4740,
  " míng": 4741,
  " gē ": 4742,
  "xī bù ": 4743,
  "gōng bù ": 4744,
  "háo ": 4745,
  "shēng huó ": 4746,
  "jiē shòu ": 4747,
  "of   ": 4748,
  " yáng ": 4749,
  "nǚ zǐ ": 4750,
  " ào": 4751,
  "lù xiàn ": 4752,
  "suō ": 4753,
  "chéng lì ": 4754,
  " zhōng xué ": 4755,
  "   formula ": 4756,
  "huān ": 4757,
  "gū ": 4758,
  " 14": 4759,
  "miàn de ": 4760,
  " jìn rù ": 4761,
  "yì shì ": 4762,
  " ěr sī ": 4763,
  " zhǔ yào ": 4764,
  "běi jīng ": 4765,
  "lián sài ": 4766,
  " kě yǐ ": 4767,
  "the   ": 4768,
  " bā": 4769,
  "yǒu shí ": 4770,
  " yì huì ": 4771,
  "guǎng dōng ": 4772,
  "duó ": 4773,
  " ào ": 4774,
  "   jiā ": 4775,
  "láo ": 4776,
  "jiàn zhù ": 4777,
  "yà zhōu ": 4778,
  " tái ": 4779,
  " cì ": 4780,
  "dǎo de ": 4781,
  " guó mín ": 4782,
  "yě shì ": 4783,
  "ná dà ": 4784,
  "dòng wù ": 4785,
  "tài píng ": 4786,
  " suǒ yǐ ": 4787,
  "dì wèi ": 4788,
  "rǎn ": 4789,
  " zhè shì ": 4790,
  "bá gāo dù ": 4791,
  "dá dào ": 4792,
  "zì jǐ de ": 4793,
  "lǐ shì ": 4794,
  "zhú jiàn ": 4795,
  "guǐ ": 4796,
  "zhuàn ": 4797,
  " bìng qiě": 4798,
  "dài de ": 4799,
  "bǎn běn ": 4800,
  "xǔ duō": 4801,
  "zhě de ": 4802,
  "jiào shòu ": 4803,
  " hái ": 4804,
  " èr ": 4805,
  "2008 nián ": 4806,
  "xiàng mù ": 4807,
  " xué xiào ": 4808,
  " hú ": 4809,
  " dà": 4810,
  "wū kè lán": 4811,
  "fēi cháng ": 4812,
  "2009 nián ": 4813,
  " xī yà ": 4814,
  "qīng nián ": 4815,
  " zǒng": 4816,
  " mǔ ": 4817,
  " bìng qiě ": 4818,
  " zhǔ yào": 4819,
  "lā sī ": 4820,
  "   gēn jù ": 4821,
  "yī shì ": 4822,
  " chéng wéi": 4823,
  "rì běn": 4824,
  "mó shì ": 4825,
  "zhé ": 4826,
  "niǎo ": 4827,
  "wén wù ": 4828,
  " tā men de ": 4829,
  " yì shù ": 4830,
  "zhǐ yǒu ": 4831,
  "chā ": 4832,
  " jì lù ": 4833,
  "   of   ": 4834,
  " zhōu de ": 4835,
  " ài ": 4836,
  " mín ": 4837,
  "háng kōng ": 4838,
  " yú shì ": 4839,
  " bó ": 4840,
  "wén xué ": 4841,
  "fēn wéi ": 4842,
  "suān ": 4843,
  " qí shì ": 4844,
  " qí yú ": 4845,
  "suì ": 4846,
  "děng rén ": 4847,
  "huǐ ": 4848,
  "tōng guò": 4849,
  "zhǐ chū ": 4850,
  "cáng ": 4851,
  "B ": 4852,
  " 3": 4853,
  "28 rì ": 4854,
  "shuài ": 4855,
  " yòng ": 4856,
  "rén kǒu pǔ ": 4857,
  "cuò ": 4858,
  "zhí xíng ": 4859,
  "tóng shí ": 4860,
  " jīn": 4861,
  " qiú duì ": 4862,
  "zhà ": 4863,
  " lì yà": 4864,
  "zhí jiē ": 4865,
  "yǎn chū ": 4866,
  "jǐn biāo ": 4867,
  "gāi dì ": 4868,
  "gé lán ": 4869,
  "2016 nián ": 4870,
  "huó dòng": 4871,
  "zhè yī ": 4872,
  "rèn wéi": 4873,
  "jìn rù ": 4874,
  " zhī jiān de ": 4875,
  " gōng kāi ": 4876,
  " dāng zhōng ": 4877,
  "hùn ": 4878,
  "gòng tóng ": 4879,
  "xià jì ": 4880,
  " dàn zài ": 4881,
  "zhàn zhēng ": 4882,
  "wǔ nián ": 4883,
  "chóu ": 4884,
  "jiāng jūn ": 4885,
  "lè bù ": 4886,
  "méi tǐ ": 4887,
  " wú": 4888,
  "tǐ de ": 4889,
  "chē zhàn": 4890,
  "mèng ": 4891,
  "tuī chū ": 4892,
  "jiào yù": 4893,
  "dié ": 4894,
  "yǔn ": 4895,
  "zhè xiē ": 4896,
  "pō ": 4897,
  "tì ": 4898,
  " shì wù ": 4899,
  "miào ": 4900,
  "lí kāi ": 4901,
  " lìng wài ": 4902,
  "huán jìng ": 4903,
  "zhú ": 4904,
  "téng ": 4905,
  "wàn ": 4906,
  "2012 nián ": 4907,
  "   S": 4908,
  "lín pǐ": 4909,
  " dì èr": 4910,
  "shāng yè ": 4911,
  "2011 nián ": 4912,
  "chuán tǒng ": 4913,
  "   nián": 4914,
  "15 rì ": 4915,
  " yǐn ": 4916,
  "guān de ": 4917,
  "kuān ": 4918,
  "sān shí ": 4919,
  "jūn shì ": 4920,
  "dān qū ": 4921,
  "liàng de ": 4922,
  "jiē dào ": 4923,
  "sàn ": 4924,
  "jī de ": 4925,
  "qián de ": 4926,
  "rén zài ": 4927,
  "nèi róng ": 4928,
  " zhè ge ": 4929,
  "zàng ": 4930,
  "sài jì ": 4931,
  "gāo de ": 4932,
  "dòng huà ": 4933,
  "bó shì ": 4934,
  "dù de ": 4935,
  " wèi rén ": 4936,
  "12 ": 4937,
  "yín háng ": 4938,
  "xuǎn jǔ": 4939,
  " wèi zhì ": 4940,
  "chéng zhōng ": 4941,
  "mìng míng ": 4942,
  "sǔn ": 4943,
  " gù ": 4944,
  "děng dì ": 4945,
  " gōng lù ": 4946,
  "rè dài ": 4947,
  "běi jīng": 4948,
  "bǎng ": 4949,
  " shí jì ": 4950,
  "yùn dòng huì ": 4951,
  "xuǎn zé ": 4952,
  " D": 4953,
  " dà lì ": 4954,
  " ér zài ": 4955,
  " hàn ": 4956,
  "yuán nián ": 4957,
  "bào gào ": 4958,
  " mù qián ": 4959,
  " de hé ": 4960,
  "bō chū ": 4961,
  "zuì jiā ": 4962,
  "   jù ": 4963,
  "zōng jiào ": 4964,
  "xué wèi ": 4965,
  "tǔ dì ": 4966,
  " dé dào ": 4967,
  "de   ": 4968,
  "zuì hòu ": 4969,
  "wén huà": 4970,
  "tuán tǐ ": 4971,
  "25 rì ": 4972,
  " yè ": 4973,
  " dì fāng ": 4974,
  "guǐ dào ": 4975,
  "luàn ": 4976,
  " wèi dì ": 4977,
  "jīng lì ": 4978,
  "xì de ": 4979,
  " zhàn": 4980,
  " zhī qián ": 4981,
  "shěng de yí gè shì zhèn ": 4982,
  " mó ": 4983,
  " shì yī zhǒng ": 4984,
  " shì wèi yú měi guó ": 4985,
  "A ": 4986,
  "jí zhōng ": 4987,
  " gè yuè ": 4988,
  " xìng ": 4989,
  " 5 ": 4990,
  " jūn de ": 4991,
  " mǐ": 4992,
  "sǐ wáng ": 4993,
  "xiāng guān ": 4994,
  " qì ": 4995,
  " 5": 4996,
  " bāo kuò": 4997,
  "30 rì ": 4998,
  "fēn bié": 4999,
  " jī gòu ": 5000,
  "wèi de ": 5001,
  "shǒu cì ": 5002,
  "ào lín pǐ": 5003,
  "lǐng dǎo ": 5004,
  " yǒu guān ": 5005,
  " hǎi bá gāo dù ": 5006,
  " yī xiē ": 5007,
  " tóng nián ": 5008,
  " jué ": 5009,
  "2014 nián ": 5010,
  "yòng de ": 5011,
  "huái ": 5012,
  "   wèi ": 5013,
  "měi yuán ": 5014,
  "20 rì ": 5015,
  " xíng dòng ": 5016,
  " zhòng ": 5017,
  "xuě ": 5018,
  " zài yī ": 5019,
  " 6": 5020,
  "jī yú ": 5021,
  " zhōng huá mín guó ": 5022,
  "shuǐ yù ": 5023,
  "11 ": 5024,
  "biàn huà ": 5025,
  "10 rì ": 5026,
  "shàng wèi ": 5027,
  " jí tuán": 5028,
  "2018 nián ": 5029,
  " jì xù ": 5030,
  "zhī yī ": 5031,
  " shí dài ": 5032,
  "chǔ yú ": 5033,
  "UTC ": 5034,
  "gòng hé ": 5035,
  " bù zhǎng ": 5036,
  "zì jǐ ": 5037,
  " wài ": 5038,
  "jié shù ": 5039,
  " bái ": 5040,
  "2019 nián ": 5041,
  " zi ": 5042,
  " zì jǐ": 5043,
  "zhī chí ": 5044,
  "2005 nián ": 5045,
  "guò chéng ": 5046,
  " hòu lái": 5047,
  " 4": 5048,
  "mín zú ": 5049,
  "2015 nián ": 5050,
  "shùn ": 5051,
  "kōng jiān ": 5052,
  "shuì ": 5053,
  "bú huì ": 5054,
  "mèi ": 5055,
  "yè yú ": 5056,
  " rú": 5057,
  " 18": 5058,
  " chēng ": 5059,
  "tòu guò ": 5060,
  "nèi bù ": 5061,
  "2013 nián ": 5062,
  " sì": 5063,
  "jiě fàng": 5064,
  " zhí dào ": 5065,
  " yì zhí ": 5066,
  " jǐng ": 5067,
  "xīn wén ": 5068,
  "fēn bù ": 5069,
  "gēn jù": 5070,
  " zhōu shì ": 5071,
  " ài": 5072,
  "pī píng ": 5073,
  " jí tuán ": 5074,
  "2007 nián ": 5075,
  " jiù": 5076,
  "dì qū ": 5077,
  " shǔ ": 5078,
  "   zhè ": 5079,
  " hé nán ": 5080,
  "tā men": 5081,
  " shì shí ": 5082,
  " yǒu xiàn gōng sī ": 5083,
  "wán jiā ": 5084,
  "guī dìng ": 5085,
  " shén ": 5086,
  "gé mìng ": 5087,
  " jiā rù ": 5088,
  "wán quán ": 5089,
  "chéng wéi ": 5090,
  " táng ": 5091,
  "xī bān ": 5092,
  "zī gé ": 5093,
  "26 rì ": 5094,
  "dà lù ": 5095,
  "ào lín pǐ kè ": 5096,
  "   gāi ": 5097,
  "2017 nián ": 5098,
  " T": 5099,
  " dà huì ": 5100,
  "24 rì ": 5101,
  " mò ": 5102,
  "zài de ": 5103,
  "zá zhì ": 5104,
  " zhè zhǒng ": 5105,
  "yīng yǔ ": 5106,
  "pú táo ": 5107,
  "   yī ": 5108,
  "lù dì ": 5109,
  " yīng guó ": 5110,
  "hé de ": 5111,
  "shàng hǎi ": 5112,
  "háo mǐ ": 5113,
  " yǔ yán ": 5114,
  "qǐ yè ": 5115,
  "qí tā": 5116,
  "fāng de ": 5117,
  " 8": 5118,
  " kě": 5119,
  "hòu yī ": 5120,
  "luó mǎ ": 5121,
  " tóu ": 5122,
  "wèn tí": 5123,
  " 3 ": 5124,
  "sān gè ": 5125,
  " chéng qū ": 5126,
  "sè de ": 5127,
  "2006 nián ": 5128,
  "chuán tǒng": 5129,
  " shì fǎ guó ": 5130,
  "yī de ": 5131,
  "18 rì ": 5132,
  "wù zhǒng ": 5133,
  " yào ": 5134,
  " E": 5135,
  " wèi yú gāi guó ": 5136,
  " hā ": 5137,
  " lǐ sī ": 5138,
  " tái wān ": 5139,
  " P": 5140,
  "jìng nèi ": 5141,
  " bù tóng de ": 5142,
  " 9": 5143,
  " mò": 5144,
  "wù lǐ ": 5145,
  "duō de ": 5146,
  "shù wèi ": 5147,
  " dài biǎo": 5148,
  "biǎo xiàn ": 5149,
  " shì jiè dà ": 5150,
  "shěng jí ": 5151,
  "fǎ lǜ ": 5152,
  "miáo shù ": 5153,
  " ā": 5154,
  "gàn ": 5155,
  "guān yuán ": 5156,
  "jīng guò ": 5157,
  " lú ": 5158,
  "bà ": 5159,
  "chāng ": 5160,
  " 7": 5161,
  " yì bān ": 5162,
  " zuì hòu ": 5163,
  "pò huài": 5164,
  " guó jiā": 5165,
  "yíng dé ": 5166,
  "cài ": 5167,
  " suí hòu ": 5168,
  "12 rì ": 5169,
  "zhèng zài ": 5170,
  "bāo hán ": 5171,
  " shì jiàn": 5172,
  "bó wù guǎn ": 5173,
  " gōng jī ": 5174,
  "21 ": 5175,
  "shèn ": 5176,
  "cè shì ": 5177,
  "chǎng de ": 5178,
  "ná ": 5179,
  " wèi zhōng ": 5180,
  " lì yòng ": 5181,
  "bù hé ": 5182,
  " cháo ": 5183,
  "zé shì ": 5184,
  "chún ": 5185,
  "niè ": 5186,
  "fēi jī ": 5187,
  " fēn bù yú ": 5188,
  " M": 5189,
  "zhuān yè ": 5190,
  "zhēng yì ": 5191,
  "27 rì ": 5192,
  "shǐ de ": 5193,
  "16 rì ": 5194,
  "fǎ yuàn ": 5195,
  " 2001 nián ": 5196,
  " dì qū": 5197,
  "21 rì ": 5198,
  "yì shí ": 5199,
  "yōng ": 5200,
  "17 rì ": 5201,
  "zāo dào ": 5202,
  " shì yì ": 5203,
  " shēng huó ": 5204,
  " chóng ": 5205,
  " bèi chēng wéi ": 5206,
  "dìng yì ": 5207,
  " zhōng xīn": 5208,
  " suī rán": 5209,
  " dà qū ": 5210,
  "sōu ": 5211,
  "zōng hé ": 5212,
  " zhàn zhēng ": 5213,
  "8 rì ": 5214,
  "xué de ": 5215,
  " xiàn shí ": 5216,
  " zhōng gòng": 5217,
  "19 rì ": 5218,
  "jí wèi ": 5219,
  " é ": 5220,
  "   C": 5221,
  "23 rì ": 5222,
  "2021 nián ": 5223,
  " 13": 5224,
  "huáng dì ": 5225,
  " de zuò ": 5226,
  " zhū ": 5227,
  "zhǐ shì ": 5228,
  "2022 nián ": 5229,
  "11 rì ": 5230,
  "ōu zhōu": 5231,
  "jiāng qí ": 5232,
  "ā lā ": 5233,
  " bìng bù ": 5234,
  "yuán yú ": 5235,
  "fāng xiàng ": 5236,
  "zhàn de ": 5237,
  "liù nián ": 5238,
  " cì": 5239,
  " F": 5240,
  "   yú ": 5241,
  "chū xiàn ": 5242,
  "liè chē": 5243,
  "quán lì ": 5244,
  "nǎo ": 5245,
  "guī mó ": 5246,
  "22 rì ": 5247,
  "29 rì ": 5248,
  "7 rì ": 5249,
  "liè de ": 5250,
  "zuì dà de ": 5251,
  "me ": 5252,
  "duō shù ": 5253,
  "xiàng de ": 5254,
  "20 ": 5255,
  "xū yào": 5256,
  "hái shì ": 5257,
  " lóng ": 5258,
  "yù de ": 5259,
  "néng gòu ": 5260,
  "yuē hàn ": 5261,
  " zhè xiē": 5262,
  "   cǐ ": 5263,
  "dìng wèi ": 5264,
  "tǒng jì ": 5265,
  " xiāng gǎng": 5266,
  "9 rì ": 5267,
  "   zhèng zhì ": 5268,
  " zài zhè ": 5269,
  "xìn xī ": 5270,
  "sāng ": 5271,
  "yàng de ": 5272,
  " xiàn zhì ": 5273,
  "gōng de ": 5274,
  "jǔ bàn": 5275,
  " lù": 5276,
  "lián méng": 5277,
  " fēn bié": 5278,
  "qiú duì ": 5279,
  "hōng ": 5280,
  " zhāng": 5281,
  "chá de ": 5282,
  "14 rì ": 5283,
  "lìng yī ": 5284,
  "cháng shì ": 5285,
  "měi guó rén kǒu pǔ ": 5286,
  "   the   ": 5287,
  "niǔ yuē": 5288,
  "5 rì ": 5289,
  "zǔ hé ": 5290,
  " huò dé": 5291,
  "lín shí ": 5292,
  "3 rì ": 5293,
  "31 rì ": 5294,
  " zhōng bù ": 5295,
  "wèi shì ": 5296,
  "dǒng shì ": 5297,
  "jī dì ": 5298,
  "gē shǒu ": 5299,
  "dōng nán ": 5300,
  "hǎi bá": 5301,
  " bào ": 5302,
  "   zhōng ": 5303,
  "bāng zhù ": 5304,
  " de shì zhèn ": 5305,
  " rù ": 5306,
  " huá ": 5307,
  "6 rì ": 5308,
  "pāi shè ": 5309,
  " gòng ": 5310,
  " liú": 5311,
  "móu ": 5312,
  " yì dà lì ": 5313,
  "2000 nián ": 5314,
  " shè lì ": 5315,
  "2 rì ": 5316,
  " yì bān": 5317,
  " rén kǒu": 5318,
  "gè rén ": 5319,
  "shè yǒu ": 5320,
  " de zhōng ": 5321,
  "4 rì ": 5322,
  " 4 ": 5324,
  "bǐng ": 5325,
  "shēng yá ": 5326,
  " G": 5327,
  "yuán hé ": 5328,
  "m ": 5329,
  "2004 nián ": 5330,
  " dì qū de ": 5331,
  " xué shēng ": 5332,
  " dǎo zhì ": 5333,
  "tiě lù": 5334,
  "zú qiú": 5335,
  "zǎo qī ": 5336,
  "féng ": 5337,
  " qí tā": 5338,
  "cāng ": 5339,
  "13 rì ": 5340,
  "xiōng dì ": 5341,
  "shēng zài ": 5342,
  "dōng běi ": 5343,
  "ruǎn ": 5344,
  "mù dì ": 5345,
  "tōng cháng ": 5346,
  "huī fù ": 5347,
  " zhè yī ": 5349,
  " wǒ": 5350,
  " shì chǎng ": 5351,
  " xué yuàn ": 5352,
  "shāo ": 5353,
  "pán ": 5354,
  " biàn ": 5355,
  "shēn fèn ": 5356,
  "   yóu yú ": 5357,
  "qǔ dài ": 5358,
  "gé mìng": 5359,
  "zhǐ huī ": 5360,
  " méi yǒu ": 5361,
  "qíng kuàng xià ": 5362,
  " B": 5363,
  "sū lián ": 5364,
  "yí bù ": 5365,
  "xié yì ": 5366,
  "huáng jiā ": 5367,
  "kē jì ": 5368,
  "fā xiàn": 5369,
  "páng ": 5370,
  "zhěng gè ": 5371,
  "zhān ": 5372,
  "rén hé ": 5373,
  " gōng chǐ ": 5374,
  "lián bāng ": 5375,
  " hēi ": 5376,
  "yāo qiú": 5377,
  "yān ": 5378,
  " fù": 5379,
  "chāo jí ": 5380,
  "mào yì ": 5381,
  "yuè de ": 5382,
  "zhǎng de ": 5383,
  "xué yuàn": 5384,
  "fǎn yìng": 5385,
  "jǔ bàn ": 5386,
  "háng kōng": 5387,
  "cuī ": 5388,
  "xí jī ": 5389,
  " yě yǒu ": 5390,
  "huà hé ": 5391,
  "xiǎo shuō ": 5392,
  " dì lì ": 5393,
  " shū ": 5394,
  "lì hé ": 5395,
  "30 ": 5396,
  "nǚ xìng ": 5397,
  " xī nán ": 5398,
  "tú shū ": 5399,
  "guān fāng ": 5400,
  "xiān hòu ": 5401,
  "bì yè ": 5402,
  "tǒng yī ": 5403,
  "   A": 5404,
  "zá ": 5405,
  "tǐng ": 5406,
  " hā": 5407,
  " gù": 5408,
  "br ": 5409,
  "   B": 5410,
  " màn ": 5411,
  "sài de ": 5412,
  "hóu ": 5413,
  "zūn ": 5414,
  " shuāng ": 5415,
  " yǐ jīng": 5416,
  " què ": 5417,
  " wēi": 5418,
  " dōng": 5419,
  " br ": 5420,
  "xié zhù ": 5421,
  "lǎn ": 5422,
  "a ": 5423,
  "cì shì jiè dà ": 5424,
  " rú guǒ ": 5425,
  "shàng shì ": 5426,
  "qū huà ": 5427,
  "fēn xī ": 5428,
  " K": 5429,
  "yǔ de ": 5430,
  " ěr shěng ": 5431,
  "rén kǒu shù liàng": 5432,
  "wén wù bǎo hù ": 5433,
  " hé yī ": 5434,
  "a   ": 5435,
  " bù néng ": 5436,
  "zì xíng ": 5437,
  " 6 ": 5438,
  " běn": 5439,
  "jiē duàn ": 5440,
  "guǎng bō ": 5441,
  " qiě ": 5442,
  " yǐ lái ": 5443,
  " xī bān ": 5444,
  " zǔ ": 5445,
  " cái ": 5446,
  "dān rèn": 5447,
  " tā céng": 5448,
  "chí xù ": 5449,
  "tái běi": 5450,
  " wǔ": 5451,
  "wú xiàn ": 5452,
  "gòng chǎn dǎng ": 5453,
  "guó hé ": 5454,
  " 12": 5455,
  " yǐ xià ": 5456,
  "qī nián ": 5457,
  "tè de ": 5458,
  "dǎo yǎn ": 5459,
  "The   ": 5460,
  "hòu yú ": 5461,
  "réng ": 5462,
  "yǎn chàng": 5463,
  "zhù zài ": 5464,
  "fā biǎo": 5465,
  "xià xiá": 5466,
  "tiáo jiàn ": 5467,
  "pín dào ": 5468,
  " gōng zuò": 5469,
  "yè de ": 5470,
  "jiāo yì ": 5471,
  "hǔ ": 5472,
  " zài cì ": 5473,
  "lài ": 5474,
  " qiān ": 5475,
  " jiǔ ": 5476,
  "shào nián ": 5477,
  "jié shù": 5478,
  " shì zhōng guó ": 5479,
  "bào dào ": 5480,
  " rén kǒu mì dù wèi ": 5481,
  "qiú yuán ": 5482,
  " shì lì ": 5483,
  " qiě": 5484,
  "   bù ": 5485,
  "zāo ": 5486,
  "jué sài ": 5487,
  "yìng yòng ": 5488,
  "wài de ": 5489,
  "yóu zhèng ": 5490,
  "jiàn lì ": 5491,
  " yà ": 5492,
  "zī yuán ": 5493,
  "sāi ěr ": 5494,
  " qí hòu ": 5495,
  " xī": 5496,
  "zuì dà ": 5497,
  " bìng wèi ": 5498,
  " L": 5499,
  "huí dào ": 5500,
  "cāo ": 5501,
  "sù dù ": 5502,
  "qì hòu ": 5503,
  "kě dá ": 5504,
  " luò ": 5505,
  " wèi yú fǎ guó ": 5506,
  " zhào ": 5507,
  "gǎi gé ": 5508,
  "mì shū ": 5509,
  " yī yuàn ": 5510,
  "diàn shì jù ": 5511,
  "zhuàng tài ": 5512,
  "zhù de ": 5513,
  "fèn wèi ": 5514,
  " H": 5515,
  " 10": 5516,
  " gōng yè ": 5517,
  "wǎng zhàn ": 5518,
  " R": 5519,
  " jiě ": 5520,
  "gōng sī ": 5521,
  " lán ": 5522,
  "jié guǒ ": 5523,
  "suǒ shǔ de ": 5524,
  " de dì yī ": 5525,
  "hú nán ": 5526,
  " yī sī ": 5527,
  " mài": 5528,
  " zhè ge": 5529,
  "yà lì ": 5530,
  " wèi yī ": 5531,
  "shàng hǎi": 5532,
  "20 shì jì ": 5533,
  " zuò pǐn ": 5534,
  "zuǒ yòu ": 5535,
  "xiǎo xué ": 5536,
  "jié hé ": 5537,
  "shèng lì ": 5538,
  " zhōng gòng ": 5539,
  "shǒu cì": 5540,
  " jià ": 5541,
  " hào xiàn ": 5542,
  "zhèn qū ": 5543,
  " de fù ": 5544,
  "wén míng ": 5545,
  " jiǎn chēng ": 5546,
  "kāi fā": 5547,
  " suǒ yǒu ": 5548,
  "yí zhì ": 5549,
  "jiào huì ": 5550,
  "shěng fèn ": 5551,
  "zhǎn kāi ": 5552,
  "yìn dù": 5553,
  "shí qī ": 5554,
  " fǎ guó ": 5555,
  "lǐng dǎo": 5556,
  "mù biāo ": 5557,
  " ér shì ": 5558,
  "gāo jí ": 5559,
  "zhǔn bèi ": 5560,
  "wǎng luò ": 5561,
  " fēi": 5562,
  " jiàn shè ": 5563,
  "xùn liàn ": 5564,
  "kē de ": 5565,
  " rén wù ": 5566,
  "fā biǎo ": 5567,
  "xuǎn shǒu ": 5568,
  "jiāo tōng": 5569,
  "hǎo de ": 5570,
  "zì rán ": 5571,
  "zhòng yào de ": 5572,
  "dōng jīng ": 5573,
  "chǎn pǐn ": 5574,
  "gòng yǒu rén kǒu ": 5575,
  " jiǎ ": 5576,
  " xiàn dài ": 5577,
  " yī míng ": 5578,
  " xī běi ": 5579,
  "juǎn ": 5580,
  "fēng gé ": 5581,
  " chéng jì ": 5582,
  "lěi ": 5583,
  " hé dì ": 5584,
  "zòu ": 5585,
  "xiǎo xíng xīng ": 5586,
  "yán zhòng ": 5587,
  "zi de ": 5588,
  "mù qián ": 5589,
  "liú xíng ": 5590,
  "wén wù bǎo hù dān wèi ": 5591,
  " jī chǎng ": 5592,
  "miè ": 5593,
  "biàn chéng ": 5594,
  "qiáo zhì ": 5595,
  " guāng ": 5596,
  " dān rèn ": 5597,
  "lèi sì": 5598,
  "diàn shì tái ": 5599,
  "jiě shì ": 5600,
  "guó mín ": 5601,
  " yì qǐ ": 5602,
  " yǒng ": 5603,
  " mài ": 5604,
  "kāi fàng ": 5605,
  " shèn zhì ": 5606,
  " xià lìng": 5607,
  " yí gè ": 5608,
  "kǎ ěr ": 5609,
  "2003 nián ": 5610,
  "xíng shì ": 5611,
  "dōu yǒu ": 5612,
  "2002 nián ": 5613,
  " chú le ": 5614,
  "   F": 5615,
  "zhī hòu ": 5616,
  "huì hé ": 5617,
  "měi píng fāng gōng lǐ ": 5618,
  "rù le ": 5619,
  " yī yàng ": 5620,
  " gōng fēn ": 5621,
  " shè zhì ": 5622,
  "tè zhēng ": 5623,
  "cān sài ": 5624,
  " sī jī ": 5625,
  " wū ": 5626,
  "rú xià ": 5627,
  "zhēn duì ": 5628,
  " děng": 5629,
  "jiù shì zhèn ": 5630,
  " shì fǒu": 5631,
  " shí jiān": 5632,
  "bàng ": 5633,
  "zhè ge ": 5634,
  "gāo zhōng ": 5635,
  " cǐ hòu ": 5636,
  "bì xū ": 5637,
  " zài zhōng ": 5638,
  "wáng guó ": 5639,
  "bǐ jiào ": 5640,
  " 00": 5641,
  "èr shì ": 5642,
  "wài jiāo": 5643,
  "diāo ": 5644,
  "guī huà ": 5645,
  " chē ": 5646,
  " yì zhì ": 5647,
  " yǔ": 5648,
  "lèi sì ": 5649,
  " biǎo shì ": 5650,
  "shān dōng ": 5651,
  " rán hòu ": 5652,
  " suī rán ": 5653,
  " yì zhí": 5654,
  " lì shǔ yú ": 5655,
  "yuán shì ": 5656,
  "duì zài ": 5657,
  "zhù míng ": 5658,
  "yún nán ": 5659,
  "hěn duō ": 5660,
  " ěr de ": 5661,
  "huò dé": 5662,
  "shēng chǎn ": 5663,
  " shāng ": 5664,
  "   gōng ": 5665,
  "zhàn yì ": 5666,
  " běi": 5667,
  "zhòng de ": 5668,
  "diàn zi ": 5669,
  "   dà ": 5670,
  " jiàn zhì ": 5671,
  "xīn jiā ": 5672,
  " tú ": 5673,
  "lái zì": 5674,
  "   P": 5675,
  "zhì zuò ": 5676,
  "shān xī ": 5677,
  "rén kǒu shù liàng wèi rén ": 5678,
  " gǔ": 5679,
  "jù jí ": 5680,
  " de yī zhǒng ": 5681,
  " de míng ": 5682,
  "jí hé ": 5683,
  "é luó ": 5684,
  "U ": 5685,
  " xī yà": 5686,
  "lǚ yóu ": 5687,
  "tào ": 5688,
  " zhì zào ": 5689,
  " xíng wéi ": 5690,
  "mǎ lái": 5691,
  " rèn": 5692,
  "bào fā ": 5693,
  " O": 5694,
  "nǚ ér ": 5695,
  " INSEE": 5696,
  " zǔ": 5697,
  "zǒng lǐ ": 5698,
  "quán qiú ": 5699,
  "sī hé ": 5700,
  " de zhǔ ": 5701,
  " duì yú ": 5702,
  "sài zhōng ": 5703,
  " shàng hǎi ": 5704,
  "fā shè ": 5705,
  "ruì shì ": 5706,
  "bāo hán": 5707,
  "nóng yè ": 5708,
  "yè wù ": 5709,
  "lù jūn ": 5710,
  "tóu zī ": 5711,
  "wù zhì ": 5712,
  "jué de ": 5713,
  " N": 5714,
  "nài ": 5715,
  "tè bié ": 5716,
  " jìn shì ": 5717,
  " de shí hòu ": 5718,
  "ào lín pǐ kè yùn dòng huì ": 5719,
  "gé de ": 5720,
  " zhì jīn ": 5721,
  "fāng àn ": 5722,
  "sī rén ": 5723,
  "huà xué ": 5724,
  " tè bié": 5725,
  "chà ": 5726,
  " dà liàng ": 5727,
  "jí shì ": 5728,
  "   M": 5729,
  " ní ": 5730,
  "mǐn ": 5731,
  "kě néng shì ": 5732,
  " nián dù ": 5733,
  " I": 5734,
  "jìn de ": 5735,
  " zhī wài ": 5736,
  "sì shí ": 5737,
  " gèng ": 5738,
  "fā dòng ": 5739,
  "lián jiē ": 5740,
  "cáo ": 5741,
  "qiǎn ": 5742,
  "xuǎn wèi ": 5743,
  " shè shī ": 5744,
  " wàn rén ": 5745,
  " zhèng shì ": 5746,
  "chù de ": 5747,
  "tǔ ěr": 5748,
  " lì sī ": 5749,
  "bó tè ": 5750,
  " zǒng miàn jī ": 5751,
  "luó mǎ": 5752,
  "chuàng lì ": 5753,
  " de lì ": 5754,
  " nián hòu ": 5755,
  " dé lǐ ": 5756,
  "guǎng chǎng ": 5757,
  "lián hé guó ": 5758,
  "jí shí ": 5759,
  "gēng míng wèi ": 5760,
  "zǎo nián ": 5761,
  "xiào lì ": 5762,
  "qì de ": 5763,
  "biǎo yǎn ": 5764,
  "yí shì ": 5765,
  "réng rán ": 5766,
  " jūn zài ": 5767,
  "fāng miàn": 5768,
  "jué dìng": 5769,
  " zhēn ": 5770,
  " gāi shěng ": 5771,
  "dā ": 5772,
  "zhì shì ": 5773,
  " gōng néng ": 5774,
  "zǒng tǒng": 5775,
  " rén kǒu mì dù měi píng fāng gōng lǐ ": 5776,
  " xiān ": 5777,
  " rén kǒu mì dù wèi měi": 5778,
  " xià lìng shí ": 5779,
  "yóu zhèng biān mǎ wèi ": 5780,
  "chá de shù jù ": 5781,
  " jù lè bù ": 5782,
  " fēn zhōng ": 5783,
  "0 ": 5784,
  "   bèi ": 5785,
  " xiàng": 5786,
  " hán ": 5787,
  "al   ": 5788,
  " shì zhèn biān mǎ wèi ": 5789,
  " INSEE shì zhèn biān mǎ wèi ": 5790,
  "biāo zhǔn": 5791,
  " shè de ": 5792,
  "xuǎn qū wèi ": 5793,
  " zài cǐ ": 5794,
  " bù guò": 5795,
  "pái míng ": 5796,
  " guó wáng ": 5797,
  "dòng lì ": 5798,
  " xiāo ": 5799,
  "shí de rén kǒu shù liàng wèi rén ": 5800,
  "2023 nián ": 5801,
  "jiē rǎng de shì zhèn ": 5802,
  "měi guó rén kǒu pǔ chá de shù jù ": 5803,
  "jiā lì ": 5804,
  "cóng shì ": 5805,
  " ér rén kǒu mì dù wèi měi": 5806,
  "gé lán": 5807,
  " dāng dì gòng yǒu rén kǒu ": 5808,
  "fēn lèi ": 5809,
  "jiě jué ": 5810,
  " qīng": 5811,
  "zú de ": 5812,
  "lián bāng": 5813,
  "an   ": 5814,
  "dà bù fèn": 5815,
  "yī zhǒng ": 5816,
  "shǐ yòng de ": 5817,
  "lǐng yù ": 5818,
  " huò jiù shì zhèn ": 5819,
  "hé shì ": 5820,
  "   lì ": 5821,
  " chū bǎn ": 5822,
  " jiǎng ": 5823,
  "yùn yíng ": 5824,
  "shěng jí xuǎn qū wèi ": 5825,
  "jī jí ": 5826,
  " de yī bù fèn ": 5827,
  "shí shì ": 5828,
  "gōu ": 5829,
  "ér zi ": 5830,
  "jiǔ nián ": 5831,
  "zuò pǐn": 5832,
  " kāi shǐ ": 5833,
  "xuǎn rén ": 5834,
  "gài niàn ": 5835,
  "xīng de ": 5836,
  " ěr dé ": 5837,
  "shěng hé ": 5838,
  " jǐn guǎn ": 5839,
  "jiē shòu": 5840,
  "tiáo yuē ": 5841,
  "fèn wèi fǎ guó ": 5842,
  " gāi shěng fèn wèi fǎ guó ": 5843,
  " chū bǎn": 5844,
  " zhī xiàn ": 5845,
  "tiě dào ": 5846,
  " dì sān": 5847,
  " sòng ": 5848,
  " nián chū ": 5849,
  " ér qiě ": 5850,
  " jūn duì ": 5851,
  "guǎng zhōu ": 5852,
  " bù jiǔ ": 5853,
  "ào dà lì ": 5854,
  " wèi shí ": 5855,
  " xī là": 5856,
  "fú jiàn ": 5857,
  " yīng chǐ ": 5858,
  " duì": 5859,
  "   G": 5860,
  " hé bìng": 5861,
  "zhàn zhēng": 5862,
  " yǒu rén ": 5863,
  "pái míng": 5864,
  "zhàn shì ": 5865,
  "jǐn biāo sài ": 5866,
  "zuì hòu yī ": 5867,
  "qún dǎo ": 5868,
  "lái yuán ": 5869,
  "tè bié": 5870,
  " tā bèi ": 5871,
  "jǐng chá ": 5872,
  "xīng jiàn ": 5873,
  " chū shēng yú ": 5874,
  " ruò ": 5875,
  "bā nián ": 5876,
  "shè lì ": 5877,
  "réng rán": 5878,
  "dì yī ": 5879,
  " rì de ": 5880,
  " gèng": 5881,
  " yì wèi ": 5882,
  "lún dūn": 5883,
  "běn de ": 5884,
  "wěi huì ": 5885,
  " yóu xì": 5886,
  " rén gōng ": 5888,
  "xué xiào": 5889,
  "shǎn xī ": 5890,
  " zhì yú ": 5891,
  "liè wèi ": 5892,
  " bù míng ": 5893,
  "tōng cháng": 5894,
  "mǔ sī ": 5895,
  " míng cháo ": 5896,
  "yùn xíng ": 5897,
  "céng zài ": 5898,
  " jiāo ": 5899,
  "měi zhōu ": 5900,
  "tiān wén ": 5901,
  "cǎi yòng": 5902,
  " dì sì ": 5903,
  " fàn ": 5904,
  "yán jiū suǒ ": 5905,
  "guǎng fàn ": 5906,
  "ào sī ": 5907,
  "áng ": 5908,
  " xiàn lù ": 5909,
  "méng gǔ ": 5910,
  "gǎn rǎn ": 5911,
  "ròu ": 5912,
  " shì bù ": 5913,
  "yǐ jí ": 5914,
  " hé píng ": 5915,
  "   tā": 5916,
  "huà shí ": 5917,
  " shǐ yòng ": 5918,
  "zhàn hòu ": 5919,
  "jiā rù ": 5920,
  " J": 5921,
  "nán jí ": 5922,
  "shuō fǎ ": 5923,
  " ràng": 5924,
  "xī zài ": 5925,
  " jìn de ": 5926,
  " rèn wéi": 5927,
  " jī běn ": 5928,
  " fèi ": 5929,
  " jù lí ": 5930,
  "t ": 5931,
  " dí ": 5932,
  "mó xíng ": 5933,
  " cān ": 5934,
  "   T": 5935,
  "guò chéng zhōng ": 5936,
  " de dì fāng ": 5937,
  " de xīn ": 5938,
  "jì shù ": 5939,
  " dá ": 5940,
  " jiàn yì ": 5941,
  " tā yǔ ": 5942,
  "yùn shū ": 5943,
  "gòu mǎi": 5944,
  " shòu": 5945,
  "wán quán": 5946,
  "wǔ shí ": 5947,
  " kè de ": 5948,
  "rèn wéi shì ": 5949,
  " chén": 5950,
  " zài yì ": 5951,
  " gè dì ": 5952,
  "duō gè ": 5953,
  "bàn gōng shì ": 5954,
  " 10 yuè ": 5955,
  "tóng yī ": 5956,
  "wài guó ": 5957,
  " zǒng rén kǒu ": 5958,
  "xué shì ": 5959,
  "shàng yǒu ": 5960,
  "yuán wèi ": 5961,
  "jià zhí ": 5962,
  "zhǎo ": 5963,
  "gōng zuò ": 5964,
  " zì jǐ ": 5965,
  "ní sī ": 5966,
  " zài zhōng guó ": 5967,
  " āi": 5968,
  "quān ": 5969,
  " xīng ": 5970,
  "and   ": 5971,
  "xué xí ": 5972,
  "yǎng huà ": 5973,
  "fēi xíng ": 5974,
  " jiè": 5975,
  "xuān chuán ": 5976,
  "mò xī ": 5977,
  " yī xiē": 5978,
  "xuǎn zé": 5979,
  "chēng wèi ": 5980,
  "xiāo xī ": 5981,
  " xiàn rén ": 5982,
  " de guān ": 5983,
  " chǎng ": 5984,
  "hǎi jūn": 5985,
  "biāo zhì ": 5986,
  " bù mén ": 5987,
  "   K": 5988,
  "zhì wèi ": 5989,
  "qǐ lái ": 5990,
  " kē": 5991,
  "yóu xì": 5992,
  "   H": 5993,
  "huán jìng": 5994,
  "má ": 5995,
  "fù zé guǎn xiá ": 5996,
  " wéi zhǔ ": 5997,
  "   yǐ ": 5998,
  "gòu chéng ": 5999,
  "shī de ": 6000,
  "xì bāo ": 6001,
  "chē liàng ": 6002,
  "zhé xué ": 6003,
  " àn ": 6004,
  "kēng ": 6005,
  " jì huà": 6006,
  " dǎ ": 6007,
  "sī zài ": 6008,
  " lín": 6009,
  "zhèng de ": 6010,
  "dǎng de ": 6011,
  "ān quán": 6012,
  "bǐ dé ": 6013,
  " dào lù ": 6014,
  "jiè quán guó ": 6015,
  "cháo xiān ": 6016,
  "yín háng": 6017,
  " huā ": 6018,
  " èr": 6019,
  " dōu ": 6020,
  "xī de ": 6021,
  "   R": 6022,
  " shì měi guó ": 6023,
  " shì tú ": 6024,
  "zhōng zài ": 6025,
  " jì niàn ": 6026,
  "zhǔ jué ": 6027,
  "àn de ": 6028,
  "sì chuān ": 6029,
  "bù wèi ": 6030,
  " jí qí ": 6031,
  "péng yǒu ": 6032,
  "1999 nián ": 6033,
  "chí xù": 6034,
  " fǎn ": 6035,
  "   yǒu ": 6036,
  "ài ěr ": 6037,
  " gōng gòng ": 6038,
  " zhī chí": 6039,
  "   hé ": 6040,
  "kàng yì ": 6041,
  "yuē wèi ": 6042,
  "tài guó ": 6043,
  " ér qiě": 6044,
  "jiē wèi ": 6045,
  "xuǎn qū ": 6046,
  " tái wān": 6047,
  "shí zài ": 6048,
  "yì hé ": 6049,
  "huì yǒu ": 6050,
  "shēng wù ": 6051,
  "xiào zhǎng ": 6052,
  "wén jiàn ": 6053,
  " bèi ěr ": 6054,
  "gē qǔ": 6055,
  "shōu rù ": 6056,
  " jié zhì ": 6057,
  "biāo wèi ": 6058,
  "n ": 6059,
  "fó jiào ": 6060,
  "róng yì ": 6061,
  "ào yùn": 6062,
  "   shí ": 6063,
  "   chē zhàn ": 6064,
  " shēng wù ": 6065,
  "suǒ shǔ de shěng jí xuǎn qū wèi ": 6066,
  " qiáng ": 6067,
  "yǎn de ": 6068,
  "biān jí ": 6069,
  "qiàn ": 6070,
  " zhàn zhēng": 6071,
  "sī dì ": 6072,
  "yě yǒu ": 6073,
  "zhèng cè ": 6074,
  "qián wǎng": 6075,
  "jì zhōng ": 6076,
  "mǐ ěr ": 6077,
  "yǔ yán ": 6078,
  " ruò": 6079,
  "jūn duì ": 6080,
  "jiě fàng jūn ": 6081,
  "ào yùn ": 6082,
  " yòu chēng ": 6083,
  "tiǎo zhàn ": 6084,
  " yuán zhù ": 6085,
  " chū le ": 6086,
  " zhì dù ": 6087,
  " yù": 6088,
  "   in": 6089,
  "24 ": 6090,
  " yǎn ": 6091,
  "gāo yú ": 6092,
  "wú rén ": 6093,
  " shì yí gè": 6094,
  " huò shì ": 6095,
  " tí ": 6096,
  "gǎn dào ": 6097,
  "nán xìng ": 6098,
  " yǐ shàng ": 6099,
  "màn huà ": 6100,
  " tōng guò ": 6101,
  "gǎi biàn ": 6102,
  "   2021": 6103,
  "mǎ lì ": 6104,
  " dì xià ": 6105,
  " què": 6106,
  "fó ": 6107,
  "jiē rǎng ": 6108,
  "pèi hé ": 6109,
  " zì": 6110,
  "kūn ": 6111,
  "tóu rù ": 6112,
  "jiā rén ": 6113,
  "wěn dìng ": 6114,
  "1998 nián ": 6115,
  "zhǐ huī": 6116,
  " zhōng yǒu ": 6117,
  " zài bù ": 6118,
  "tí míng ": 6119,
  "dá chéng ": 6120,
  " yī zhǒng ": 6121,
  "rǔ ": 6122,
  "mò sī ": 6123,
  "nè ": 6124,
  "fēn zhī ": 6125,
  "   E": 6126,
  "zài shì ": 6127,
  "tóng de ": 6128,
  "zhā ": 6129,
  "jiǎn jiè ": 6130,
  " hù ": 6131,
  "shēn fèn": 6132,
  "tiān zhǔ jiào ": 6133,
  " zhōng guó rén mín ": 6134,
  "biǎo míng ": 6135,
  "duó de ": 6136,
  "tíng zhǐ ": 6137,
  " hái yǒu ": 6138,
  "   D": 6139,
  " ér rén kǒu mì dù wèi měi píng fāng qiān mǐ ": 6140,
  " píng": 6141,
  "xiǎo de ": 6142,
  "zhèng shí ": 6143,
  "cè de ": 6144,
  "zào de ": 6145,
  " wèi fú": 6146,
  " zhuān ": 6147,
  " lí ": 6148,
  "juān ": 6149,
  "què zhěn": 6150,
  "2024 nián ": 6151,
  "   2020": 6152,
  " jī bài ": 6153,
  "bàn dǎo ": 6154,
  " pí ": 6155,
  "   yuán ": 6156,
  "guó zài ": 6157,
  "wǔ qì ": 6158,
  "tā men ": 6159,
  " bō": 6160,
  " jiā ná dà ": 6161,
  " píng fāng mǐ ": 6162,
  "zì zhì qū ": 6163,
  " 8 yuè ": 6164,
  "lā kè ": 6165,
  "lèi de ": 6166,
  "   zì ": 6167,
  "19 ": 6168,
  "hùn hé ": 6169,
  " zì yóu ": 6170,
  " zài měi guó ": 6171,
  " shí yàn": 6172,
  "zuì zǎo": 6173,
  " biān ": 6174,
  "jǔ rén ": 6175,
  "tuán duì ": 6176,
  "dì shì ": 6177,
  "kě néng huì ": 6178,
  "yā lì ": 6179,
  "quán bù ": 6180,
  " sū": 6181,
  "jì wèi ": 6182,
  " ér bèi ": 6183,
  " jì chéng ": 6184,
  "gòng xiàn ": 6185,
  "jì huà ": 6186,
  "xī bān yá ": 6187,
  " shí shī ": 6188,
  "jié mù": 6189,
  " jié guǒ ": 6190,
  " dì tiě ": 6191,
  "X ": 6192,
  "shēng chǎn": 6193,
  "lái shuō ": 6194,
  "lì bù ": 6195,
  "zhè zhǒng ": 6196,
  "chǎn yè ": 6197,
  " bèi": 6198,
  " wáng": 6199,
  "xíng dòng ": 6200,
  "fān yì ": 6201,
  " hái": 6202,
  " qī jiān ": 6203,
  " chū rèn ": 6204,
  " chuán ": 6205,
  "shǎo shù ": 6206,
  "cāo zuò ": 6207,
  "jiǎn chá ": 6208,
  "bàn shì ": 6209,
  "jiā ná dà ": 6210,
  "yǐng piàn ": 6211,
  "chōng tū ": 6212,
  " zài dà ": 6213,
  " tā yú ": 6214,
  "jì niàn ": 6215,
  "bǎo hù": 6216,
  " mén ": 6217,
  "àn jiàn ": 6218,
  "chóng jiàn ": 6219,
  "shǒu de ": 6220,
  "amp ": 6221,
  " mù": 6222,
  " jiàn zhù": 6223,
  " shí fēn ": 6224,
  "y ": 6225,
  " ān": 6226,
  " shì yǐ ": 6227,
  "xíng wéi ": 6228,
  "xīn lǐ ": 6229,
  "céng jīng ": 6230,
  "gòng tóng": 6231,
  " shǐ de ": 6232,
  "dòng de ": 6233,
  "kōng jūn ": 6234,
  "bàn gōng ": 6235,
  " zhǐ yǒu ": 6236,
  " xiàn wèi ": 6237,
  "qī jiān": 6238,
  "dà bù fèn ": 6239,
  " zhì zuò": 6240,
  "jié gòu": 6241,
  "nàn ": 6242,
  " yì yǒu ": 6243,
  " lì rú": 6244,
  "lián sài": 6245,
  "lián xù ": 6246,
  "jué sè": 6247,
  "jí zài ": 6248,
  "shēn de ": 6249,
  "yāng ": 6250,
  " hé běi ": 6251,
  " wèi néng ": 6252,
  "méi tǐ": 6253,
  "zhǔ tí ": 6254,
  "xiāng duì ": 6255,
  "fēn bié ": 6256,
  "jiǎn shǎo ": 6257,
  " hé liú ": 6258,
  "gōng yuán ": 6259,
  "tòu ": 6260,
  "tòng ": 6261,
  " yòu míng ": 6262,
  " yǐ sè ": 6263,
  "fèn zǐ ": 6264,
  "xiàn dài ": 6265,
  " shì yī míng ": 6266,
  "xiǎo zǔ ": 6267,
  " tǐ zhǎng ": 6268,
  "   2019": 6269,
  " xī wàng ": 6270,
  "yìng de ": 6271,
  "wěi yuán huì": 6272,
  "zhè ge": 6273,
  "   L": 6274,
  "mìng míng wèi ": 6275,
  "ōu yuán ": 6276,
  " gōng sī de ": 6277,
  " liǎng rén ": 6278,
  "yì zài ": 6279,
  "dòng jī ": 6280,
  "dǎ jī ": 6281,
  " de dì qū ": 6282,
  "zhǎn shì ": 6283,
  "zhuó ": 6284,
  " zhí zhì ": 6285,
  " shè qū ": 6286,
  " jì xù": 6287,
  "guī mó": 6288,
  "shǒu wèi ": 6289,
  "xún huí ": 6290,
  " sī lìng": 6291,
  "shù liàng ": 6292,
  "xià wǔ ": 6293,
  "1996 nián ": 6294,
  "lù dì miàn jī wèi ": 6295,
  "yòng lái ": 6296,
  "shuǐ yù miàn jī wèi ": 6297,
  " zhèn ": 6298,
  " lì jí ": 6299,
  "qǐ yòng ": 6300,
  "lèi xíng ": 6301,
  "rèn wù ": 6302,
  "d ": 6303,
  " guó lì ": 6304,
  " shí zì ": 6305,
  " yī cì ": 6306,
  "duō cì ": 6307,
  "píng jià ": 6308,
  "bù shì ": 6309,
  " líng ": 6310,
  " liè ": 6311,
  " 2009 nián ": 6312,
  "   2018": 6313,
  " de shǒu ": 6314,
  " fù jìn ": 6315,
  "jǔ xíng de ": 6316,
  "fú hé ": 6317,
  " W": 6318,
  "tǐ xì ": 6319,
  " wǎng ": 6320,
  "wài jiāo ": 6321,
  " zhè jiāng ": 6322,
  " biàn": 6323,
  "1997 nián ": 6324,
  " dà shǐ ": 6325,
  " xiào ": 6326,
  "zuò jiā ": 6327,
  " shè bèi ": 6328,
  "liǎng gè": 6329,
  "měi nián ": 6330,
  " lì fǎ ": 6331,
  "zhù yì ": 6332,
  " amp ": 6333,
  "diàn lì ": 6334,
  "dé dào ": 6335,
  " sī lìng ": 6336,
  " cóng ér ": 6337,
  "fǎ lǜ": 6338,
  " guǎng ": 6339,
  "kuí ": 6340,
  "jiào táng ": 6341,
  " dāng zhōng lù dì miàn jī wèi ": 6342,
  "zhì hé ": 6343,
  " ér shuǐ yù miàn jī wèi ": 6344,
  "qǔ xiāo ": 6345,
  "jié zhì ": 6346,
  "shēng huó": 6347,
  "fú wù": 6348,
  "zhí de ": 6349,
  "lún dūn ": 6350,
  "T ": 6351,
  "   xī ": 6352,
  "diān ": 6353,
  "xué zhě ": 6354,
  "   2022": 6355,
  " 11": 6356,
  "shuǐ píng ": 6357,
  "hǎi yù ": 6358,
  "nèi róng": 6359,
  " zhī shí ": 6360,
  "zhù zuò ": 6361,
  " 9 yuè ": 6362,
  "yīng gé lán ": 6363,
  " dà chén ": 6364,
  " chéng lì yú ": 6365,
  "   gài ": 6366,
  "lǚ kè ": 6367,
  "tuò ": 6368,
  "zhì zài ": 6369,
  "jiē jìn ": 6370,
  " xīn wén ": 6371,
  "cháng qī ": 6372,
  "i ": 6373,
  " wéi ěr ": 6374,
  "lìng wài ": 6375,
  "   xíng zhèng qū huà ": 6376,
  "rèn mìng": 6377,
  " jiā shàng ": 6378,
  "e ": 6379,
  "yuàn zhǎng ": 6380,
  "bǐ sài zhōng ": 6381,
  "jǐ yǔ ": 6382,
  "diǎn de ": 6383,
  "xī yáng ": 6384,
  " yǐ hòu ": 6385,
  " jūn wèi ": 6386,
  "mín de ": 6387,
  "shuò shì ": 6388,
  " huí ": 6389,
  " dé de ": 6390,
  "wēi lián ": 6391,
  "wěi shū jì ": 6392,
  " yì rén ": 6393,
  "jiā hé ": 6394,
  "tài yáng ": 6395,
  "1992 nián ": 6396,
  " zhōng de ": 6397,
  "dǎo yǔ ": 6398,
  "pī zhǔn ": 6399,
  "dài yǒu ": 6400,
  "hēng lì ": 6401,
  " guī ": 6402,
  " shì yī wèi ": 6403,
  " xué xiào": 6404,
  " wèi fú qí yú ": 6405,
  " 7 yuè ": 6406,
  "guō ": 6407,
  "gāo sù": 6408,
  "cān yù": 6409,
  "cì shì jiè dà zhàn ": 6410,
  " shì qū ": 6411,
  "fā chū ": 6412,
  "xìng zhì ": 6413,
  "yǎn chàng huì ": 6414,
  "quàn ": 6415,
  " yuán yīn ": 6416,
  "   yì ": 6417,
  "tǎo lùn ": 6418,
  " formula ": 6419,
  "tuì yì ": 6420,
  "bǐ yà ": 6421,
  "fēng bào ": 6422,
  "P ": 6423,
  " méng ": 6424,
  " tuō ": 6425,
  "jī zhì ": 6426,
  "xìn hào ": 6427,
  "yà de ": 6428,
  "néng gòu": 6429,
  "shòu shāng ": 6430,
  " jiàn chéng ": 6431,
  " cí ": 6432,
  "   2017": 6433,
  "wèi zhì ": 6434,
  "lián xì ": 6435,
  " rú guǒ": 6436,
  " huǒ ": 6437,
  "rú hé ": 6438,
  "bì xū": 6439,
  " tǐ zhǎng kě dá ": 6440,
  " ěr tè ": 6441,
  "bǎo chí ": 6442,
  "zhuān jiā ": 6443,
  "fū rén ": 6444,
  "jiǎng xiàng ": 6445,
  "chā yì ": 6446,
  " jīng guò ": 6447,
  " xuān bù ": 6448,
  " jī gòu": 6449,
  " zài yú ": 6450,
  " de yī zuò ": 6451,
  " tōng cháng ": 6452,
  "shòu yǔ ": 6453,
  "wō ": 6454,
  " gǎi": 6455,
  " 2010 nián ": 6456,
  "wǎng lù ": 6457,
  "jīng yíng ": 6458,
  " 12 yuè ": 6459,
  " mín guó ": 6460,
  "gòng chǎn dǎng": 6461,
  " 21 ": 6462,
  "dōng xī ": 6463,
  " kè lǐ ": 6464,
  " shēng chǎn ": 6465,
  " bù lǐ ": 6466,
  "diàn tái ": 6467,
  "tān ": 6468,
  " yǐ xià": 6469,
  "cūn zhuāng ": 6470,
  " 11 yuè ": 6471,
  "lái dào ": 6472,
  "suí hòu ": 6473,
  "miǎo ": 6474,
  "kào ": 6475,
  " zhī zhōng ": 6476,
  " zhū": 6477,
  "bì yè yú ": 6478,
  "xùn liàn": 6479,
  "cuò shī ": 6480,
  "fǎ de ": 6481,
  " yì shù": 6482,
  "zǒng dū ": 6483,
  " cháng": 6484,
  "zhù míng de ": 6485,
  " shì yǒu ": 6486,
  " jiàn duì ": 6487,
  "kuài sù ": 6488,
  "zhù yú ": 6489,
  "shé ": 6490,
  "1994 nián ": 6491,
  " shí rèn ": 6492,
  " yī shēng ": 6493,
  "gū jì ": 6494,
  "hái zi ": 6495,
  " ràng ": 6496,
  " ěr hé ": 6497,
  "tài píng yáng ": 6498,
  " jié mù ": 6499,
  "   2016": 6500,
  "yán gé ": 6501,
  "tóng yì ": 6502,
  "shēng wèi ": 6503,
  " fāng ": 6504,
  "dǎo shì ": 6505,
  "chéng gōng ": 6506,
  "xì liè": 6507,
  "le dà ": 6508,
  " tw": 6509,
  "làng ": 6510,
  "o ": 6511,
  "fā diàn ": 6512,
  " shàng hǎi": 6513,
  "zhàn zhōng ": 6514,
  " de qián ": 6515,
  " rén lèi ": 6516,
  "sì gè ": 6517,
  "shǎng ": 6518,
  "jié shù hòu ": 6519,
  " dé yǐ ": 6520,
  "pǔ tōng ": 6521,
  " de shí qū wèi ": 6522,
  " xiǎng": 6523,
  " zhèng cè ": 6524,
  " shèng": 6525,
  " míng chēng ": 6526,
  "chè xiāo ": 6527,
  "yǔ zhōng ": 6528,
  " yìn dù ": 6529,
  "   zhì ": 6530,
  " yáng": 6531,
  " háo mǐ ": 6532,
  "tóu piào ": 6533,
  "dǐ dá ": 6534,
  "fā de ": 6535,
  " jǐn guǎn": 6536,
  "jú zhǎng ": 6537,
  " de shí jiān ": 6538,
  "   and   ": 6539,
  " qī": 6540,
  "1995 nián ": 6541,
  "zhè xiē": 6542,
  "gèng jiā ": 6543,
  " wèi shēng ": 6544,
  "yuè tái ": 6545,
  " píng tái ": 6546,
  "fǎn huí ": 6547,
  " qián": 6548,
  "guǎng xī ": 6549,
  "zhái ": 6550,
  "fěi ": 6551,
  "hans ": 6552,
  "kuò dà ": 6553,
  "hā ěr ": 6554,
  "zǔ chéng de ": 6555,
  " hans ": 6556,
  "yì zhōng ": 6557,
  "dēng lù ": 6558,
  "róng yù ": 6559,
  " tw ": 6560,
  " chēng": 6561,
  "yuè shí ": 6562,
  "zhòng dà ": 6563,
  "lù yì ": 6564,
  " sà ": 6565,
  " shì yǎn ": 6566,
  "què dìng ": 6567,
  "zhǐ zài ": 6568,
  "yè hòu ": 6569,
  " bù kě ": 6570,
  " The   ": 6571,
  " bìng méi yǒu ": 6572,
  " cǐ shí ": 6573,
  "   de shí ": 6574,
  " chuàng ": 6575,
  " ā ěr ": 6576,
  "jìn xíng": 6577,
  " lǜ ": 6578,
  " xià": 6579,
  " mù qián": 6580,
  "   2023": 6581,
  "wǎn shàng ": 6582,
  "jiào qū ": 6583,
  "qì chē ": 6584,
  "míng chēng ": 6585,
  "yà lì shān": 6586,
  "wù zhǒng": 6587,
  "guān zhòng ": 6588,
  " xué xí ": 6589,
  "gǎi biān": 6590,
  "on ": 6591,
  " guó wù ": 6592,
  " zhī yuán ": 6593,
  "yuàn de ": 6594,
  "xiāo shòu ": 6595,
  " gōng yè": 6596,
  "bā xī ": 6597,
  " huò zhě ": 6598,
  "   2014": 6599,
  "rù kǒu ": 6600,
  "xiāng tóng ": 6601,
  "bā lí ": 6602,
  "F ": 6603,
  "bǎn de ": 6604,
  "pò huài ": 6605,
  "xué hé ": 6606,
  "sǔn shī ": 6607,
  "biǎo xiàn": 6608,
  " shí xiàn ": 6609,
  "xī là": 6610,
  "fā xiàn le ": 6611,
  "kàn dào ": 6612,
  "pān ": 6613,
  "qī zǐ ": 6614,
  "guān zhù ": 6615,
  " céng rèn ": 6616,
  " zhǒng ": 6617,
  "nǎi ": 6618,
  "S ": 6619,
  "x ": 6620,
  " bìng yǐ ": 6621,
  "qiǎng ": 6622,
  "xiōng yá": 6623,
  " 6 yuè ": 6624,
  "   suǒ shǔ de shěng jí xuǎn qū wèi ": 6625,
  "   de yóu zhèng biān mǎ wèi ": 6626,
  "   yǔ jiē rǎng de shì zhèn ": 6627,
  "   yú shí de rén kǒu shù liàng wèi rén ": 6628,
  "   de shí qū wèi ": 6629,
  "   jī ": 6630,
  "zhuāng zhì ": 6631,
  "zhí wèi ": 6632,
  " 2011": 6633,
  "jì hé ": 6634,
  " zuò yòng ": 6635,
  " quán zhǎng ": 6636,
  "tú zhōng ": 6637,
  "sū lián": 6638,
  "kāi fàng": 6639,
  "xū qiú ": 6640,
  " zhī míng ": 6641,
  "lín de ": 6642,
  " sī lā ": 6643,
  "shí wèi ": 6644,
  " nián qīng": 6645,
  "héng xīng ": 6646,
  " quán bù ": 6647,
  "tuī dòng ": 6648,
  "wéi de ": 6649,
  " shì zhǎng ": 6650,
  "guǎn lǐ": 6651,
  " 2019": 6652,
  "cán ": 6653,
  "rù qīn ": 6654,
  "rú cǐ ": 6655,
  " hk": 6656,
  " tiān": 6657,
  " jiā tíng ": 6658,
  "tái běi ": 6659,
  "yí dòng ": 6660,
  " zhuǎn ": 6661,
  "yǔ hé ": 6662,
  "fù de ": 6663,
  " yī dài ": 6664,
  "jìn shì ": 6665,
  " chū xiàn zài ": 6666,
  "zhè jiāng ": 6667,
  "   2015": 6668,
  "mǔ qīn ": 6669,
  "xiōng yá lì ": 6670,
  "mù sī ": 6671,
  "1991 nián ": 6672,
  " rén shù ": 6673,
  "fù qīn ": 6674,
  " dàn tā ": 6675,
  " xī bān yá": 6676,
  "mín zú": 6677,
  " gān ": 6678,
  "tái de ": 6679,
  " dì qiú ": 6680,
  " duàn ": 6681,
  " miàn ": 6682,
  " shì zhǐ ": 6683,
  " jǐn": 6684,
  "zuì chū ": 6685,
  "tí shēng ": 6686,
  "fēi jiàn zhì ": 6687,
  " chē zhàn ": 6688,
  " V": 6689,
  "   2013": 6690,
  " 5 yuè ": 6691,
  "xùn sù ": 6692,
  " hk ": 6693,
  " sī tǎn ": 6694,
  "shù xué ": 6695,
  "22 ": 6696,
  "guǎng bō": 6697,
  " wèi hé ": 6698,
  " bìng lì ": 6699,
  " chéng wéi le ": 6700,
  "C ": 6701,
  "niǔ yuē ": 6702,
  " jīng": 6703,
  "fā xíng": 6704,
  " jìn rù": 6705,
  "tè lǐ ": 6706,
  "kàng rì ": 6707,
  " hé xīn ": 6708,
  " gè zhǒng ": 6709,
  " jí qí": 6710,
  "fā shēng": 6711,
  "zǒng bù ": 6712,
  "shōu lù ": 6713,
  "gǎo ": 6714,
  " shì rén ": 6715,
  "r ": 6716,
  "jiào de ": 6717,
  "lán kè ": 6718,
  "máng ": 6719,
  "cái zhèng ": 6720,
  "chàng piàn ": 6721,
  " zuò pǐn": 6722,
  "   nián ": 6723,
  "míng yì ": 6724,
  "on   ": 6725,
  "sà kè ": 6726,
  " jì zǎi ": 6727,
  " zhōng wén ": 6728,
  "jué sài": 6729,
  "jìn gōng ": 6730,
  " shì jí ": 6731,
  "qǐ yì ": 6732,
  "cān yì ": 6733,
  "15 ": 6734,
  " zào chéng ": 6735,
  "zhuàng kuàng ": 6736,
  " xiàn yú ": 6737,
  "lǜ wèi ": 6738,
  "   zhōng guó ": 6739,
  "le tā ": 6740,
  "cān kǎo ": 6741,
  "zēng zhǎng ": 6742,
  "gāo dù ": 6743,
  "chǎn pǐn": 6744,
  "fēi jiàn zhì dì qū ": 6745,
  " huáng": 6746,
  "dōu huì ": 6747,
  " hé bìng ": 6748,
  " jì suàn": 6749,
  " shēng huó": 6750,
  "wáng de ": 6751,
  "suī rán ": 6752,
  "diào chá": 6753,
  " é luó sī ": 6754,
  "zhòng diǎn ": 6755,
  " dǎo ": 6756,
  "zhàn dòu ": 6757,
  "chāi ": 6758,
  " dà lóu ": 6759,
  "   W": 6760,
  "hǎi dào ": 6761,
  "chàng piàn": 6762,
  " rén men ": 6763,
  " fáng ": 6764,
  "   O": 6765,
  "wēi xié ": 6766,
  " hòu": 6767,
  "ào dì lì ": 6768,
  " hé zhōng ": 6769,
  "shàng shū ": 6770,
  " wéi qí ": 6771,
  "kǎn ": 6772,
  "lǐng dǎo rén ": 6773,
  " xiāng guān ": 6774,
  "jīng shén ": 6775,
  "jiā zhōng ": 6776,
  " yīn ér ": 6777,
  "yuè zài ": 6778,
  "liǎng rén ": 6779,
  " nián shí ": 6780,
  "k ": 6781,
  " bù duàn ": 6782,
  "cān jiā le ": 6783,
  "yíng yùn ": 6784,
  "huà wèi ": 6785,
  "jiāng xī ": 6786,
  " de chéng yuán ": 6787,
  "jié kè ": 6788,
  "tú shū guǎn ": 6789,
  " hé chéng ": 6790,
  "zhǔ chí ": 6791,
  " zhōng guó gòng chǎn dǎng ": 6792,
  "jù de ": 6793,
  "nà lǐ ": 6794,
  " 4 yuè ": 6795,
  " yǒu shí ": 6796,
  "zhàn dòu": 6797,
  " huá": 6798,
  "jìn rù": 6799,
  "mǒu xiē ": 6800,
  " xiǎo": 6801,
  "shēn wèi ": 6802,
  "jū zhù ": 6803,
  "zì dòng ": 6804,
  "xià jì ào lín pǐ kè yùn dòng huì ": 6805,
  "yīn shì ": 6806,
  "mín zhòng ": 6807,
  "25 ": 6808,
  "1988 nián ": 6809,
  " xiàng mù ": 6810,
  "chǎn shēng de ": 6811,
  " zuǒ ": 6812,
  "   zh ": 6813,
  " zài jiā ": 6814,
  " qiáo ": 6815,
  "shuō míng ": 6816,
  " wěi ": 6817,
  " zhèng zhuàng ": 6818,
  "yǐn fā ": 6819,
  "jiāng sū ": 6820,
  "dāo ": 6821,
  " huò dé le ": 6822,
  " zhī xià ": 6823,
  " shì wēi ": 6824,
  "xiǎo shuō": 6825,
  " xǔ duō ": 6826,
  "   jiā zú ": 6827,
  "to   ": 6828,
  " shì zhèn": 6829,
  " gōng rén ": 6830,
  " xuǎn ": 6831,
  "dìng le ": 6832,
  "yōu shì ": 6833,
  "bá ": 6834,
  "lán qiú ": 6835,
  "1993 nián ": 6836,
  " dà duō ": 6837,
  "zhōu de ": 6838,
  " biān": 6839,
  "jì shí ": 6840,
  "xiǎn de ": 6841,
  "zī xùn ": 6842,
  "ào yùn huì ": 6843,
  "sù de ": 6844,
  " dà xíng ": 6845,
  " wén": 6846,
  " 2018": 6847,
  " dú ": 6848,
  "wèi   ": 6849,
  " yuè nán ": 6850,
  "y   ": 6851,
  " zhuāng ": 6852,
  " pèi ": 6853,
  " jí lì ": 6854,
  " zhōng huá ": 6855,
  "qǔ dé": 6856,
  " lái zì ": 6857,
  "yuán zài ": 6858,
  " bù mén": 6859,
  "xiāng dāng ": 6860,
  " dàn yóu yú ": 6861,
  "fǎng wèn ": 6862,
  "zhí dào ": 6863,
  "chuāng ": 6864,
  "jiào wéi ": 6865,
  "xiàng mù": 6866,
  " shì wèi le ": 6867,
  "jié hūn ": 6868,
  " lǐ lùn ": 6869,
  "pǐn pái ": 6870,
  "3 nián ": 6871,
  "suī rán": 6872,
  " xié ": 6873,
  " ōu ": 6874,
  "xí wèi ": 6875,
  " dì wǔ ": 6876,
  " yuè tái ": 6877,
  "cān jiā": 6878,
  "zhōng wèi ": 6879,
  "d   ": 6880,
  "zhēn shí ": 6881,
  "zhōng huá rén mín gòng hé guó ": 6882,
  " yīng": 6883,
  "yǒu bù ": 6884,
  "yìn dì ": 6885,
  "měi shù ": 6886,
  " tián ": 6887,
  " lǎo ": 6888,
  "mìng lìng ": 6889,
  "16 ": 6890,
  "xué shù ": 6891,
  "xīng qī ": 6892,
  " de gōng zuò ": 6893,
  " shàng": 6894,
  "   2025": 6895,
  "2020 nián měi guó rén kǒu pǔ chá de shù jù ": 6896,
  "jiàn shè ": 6897,
  "jǔ xíng": 6898,
  "fáng yù ": 6899,
  " rèn wù ": 6900,
  "wǔ zhuāng ": 6901,
  " zhèng": 6902,
  "yí chǎn ": 6903,
  "tiáo zhěng ": 6904,
  "zhòu ": 6905,
  " shí yī ": 6906,
  "ào mén ": 6907,
  " nián bèi ": 6908,
  "tí gāo ": 6909,
  " C ": 6910,
  "yǔn xǔ ": 6911,
  " jiǔ": 6912,
  " zhì shí ": 6913,
  " jiā rù": 6914,
  " zhī hòu": 6915,
  " dìng ": 6916,
  "bào dǎo ": 6917,
  "fēi lǜ ": 6918,
  "   J": 6919,
  "wǎ ěr ": 6920,
  "yǐ lái ": 6921,
  "le tā de ": 6922,
  "huì yuán ": 6923,
  " shí qī": 6924,
  "jì lù ": 6925,
  " jī guān ": 6926,
  "dū shì ": 6927,
  "cuì ": 6928,
  "le yí gè ": 6929,
  "huà jiā ": 6930,
  "jī chǎng ": 6931,
  " fù zé": 6932,
  "yí mín ": 6933,
  "shū de ": 6934,
  "13 ": 6935,
  "jù lí ": 6936,
  "shù zì ": 6937,
  " shì yī zhǒng": 6938,
  "jīn de ": 6939,
  " rén lèi": 6940,
  " chēng wéi ": 6941,
  "   2024": 6942,
  " hé shí ": 6943,
  "hōng zhà": 6944,
  " shī": 6945,
  " zì jǐ de ": 6946,
  "jiē jí ": 6947,
  "duàn de ": 6948,
  "dū jiào ": 6949,
  "lì shì ": 6950,
  "kè lǐ ": 6951,
  " hóng": 6952,
  " zhuǎn": 6953,
  "yán de ": 6954,
  "yíng de ": 6955,
  "huā yuán ": 6956,
  "shān mài": 6957,
  "shēng jí ": 6958,
  "yuē yǒu ": 6959,
  " shì dà ": 6960,
  "yòng hù ": 6961,
  "wén zì ": 6962,
  " suì de ": 6963,
  " wàn měi yuán ": 6964,
  "miàn duì ": 6965,
  "yāo qǐng ": 6966,
  " liáng ": 6967,
  " 2011 nián ": 6968,
  "dōng jì ": 6969,
  "zī jīn ": 6970,
  "děng wèi ": 6971,
  " lì shǐ": 6972,
  "wǔ tái ": 6973,
  " guān": 6974,
  " xú": 6975,
  "sú ": 6976,
  " shè jí ": 6977,
  "hán shù ": 6978,
  "23 ": 6979,
  " zhì lì ": 6980,
  "gāo děng ": 6981,
  " 2016": 6982,
  " suǒ yǐ": 6983,
  "yuán jí ": 6984,
  " rén mín": 6985,
  " hé lán ": 6986,
  "shēn qǐng ": 6987,
  " 2005 nián ": 6988,
  "dòng zuò ": 6989,
  "xiào guǒ ": 6990,
  " 3 yuè ": 6991,
  " hán guó ": 6992,
  "měi guó de ": 6993,
  " jù": 6994,
  " 2008 nián ": 6995,
  "19 shì jì ": 6996,
  "4 nián ": 6997,
  " míng cháo zhèng zhì rén wù ": 6998,
  "   zǎo nián ": 6999,
  "jiào liàn ": 7000,
  "   xīn ": 7001,
  " xiàn hé ": 7002,
  " rì jūn ": 7003,
  "xià lìng": 7004,
  "liǎng zhǒng ": 7005,
  "1990 nián ": 7006,
  "lǐng tǔ ": 7007,
  "p ": 7008,
  " xiū ": 7009,
  " yuán míng ": 7010,
  "nǔ lì ": 7011,
  "zhèng míng ": 7012,
  "I ": 7013,
  " zhāo": 7014,
  "   hòu ": 7015,
  "an ": 7016,
  "lù jūn": 7017,
  " zhōng yú ": 7018,
  "zuò yòng ": 7019,
  " pèi": 7020,
  "qū yù": 7021,
  "jīng cháng ": 7022,
  "liè biǎo ": 7023,
  "   yóu ": 7024,
  "yǒu zài ": 7025,
  " yì yì ": 7026,
  "yǐng piàn": 7027,
  " yuán gōng ": 7028,
  " zhōu nián ": 7029,
  " jìn xíng": 7030,
  " nán zhì ": 7031,
  " guó huì ": 7032,
  " gōng huì ": 7033,
  "guān xì": 7034,
  " chì ": 7035,
  " jì zhě ": 7036,
  "nèi lù ": 7037,
  "zhǎo dào ": 7038,
  "wáng cháo": 7039,
  "le   ": 7040,
  "jīng lǐ ": 7041,
  "lǚ xíng ": 7042,
  "shén jīng ": 7043,
  " lǐ": 7044,
  " shì hòu ": 7045,
  "yòng zuò ": 7046,
  " jué": 7047,
  "lǐ lùn ": 7048,
  "huí yìng ": 7049,
  " gōng chǎng ": 7050,
  "fù jìn ": 7051,
  "yú zài ": 7052,
  " bó": 7053,
  "c ": 7054,
  " hěn ": 7055,
  "tài rén ": 7056,
  " hé gōng ": 7057,
  "kě yǐ zài ": 7058,
  " luó": 7059,
  "suì dào ": 7060,
  "bǎo chí": 7061,
  "zhī jiān ": 7062,
  "tí dào ": 7063,
  " wàn yuán ": 7064,
  " chéng xiàn ": 7065,
  "chū bǎn ": 7066,
  " nián 1 yuè 1 rì ": 7067,
  " jī chē ": 7068,
  "jiǔ diàn ": 7069,
  " shí èr ": 7070,
  " bǐ": 7071,
  " lí": 7072,
  "āi jí ": 7073,
  "gé wèi ": 7074,
  "qì xiàng ": 7075,
  "D ": 7076,
  "shǒu jī ": 7077,
  "tī ": 7078,
  " guó fáng": 7079,
  "kōng zhōng ": 7080,
  " nián shì jiè ": 7081,
  " zhù": 7082,
  "   V": 7083,
  "er ": 7084,
  "bèi shì wèi ": 7085,
  "tōng dào ": 7086,
  "kǒng bù ": 7087,
  "guī zé ": 7088,
  "qí zhōng yī zhǒng ": 7089,
  "zuò wèi ": 7090,
  "shǒu dū ": 7091,
  "wǒ men": 7092,
  " de zhì ": 7093,
  " wǒ men ": 7094,
  "lì wèi ": 7095,
  "shū jí ": 7096,
  " ér chéng ": 7097,
  "t   ": 7098,
  " fǎn": 7099,
  " léi ": 7100,
  "1984 nián ": 7101,
  "dōng nán bù ": 7102,
  "yǐ xià ": 7103,
  "yǎn yì ": 7104,
  " xī wàng": 7105,
  "jī hé ": 7106,
  "dà lù de ": 7107,
  " liàng ": 7108,
  "qǐ yè": 7109,
  " zuò wéi": 7110,
  "2 nián ": 7111,
  "dài lǐ ": 7112,
  "měng ": 7113,
  " de jiā ": 7114,
  "jīn shǔ ": 7115,
  "jìn yí bù ": 7116,
  "xīn jiā pō": 7117,
  "láo dòng ": 7118,
  "zhǔ chí": 7119,
  "jiào xué ": 7120,
  "biǎo miàn ": 7121,
  "gù wèn ": 7122,
  " yīng yǔ ": 7123,
  "nī ": 7124,
  " hé xī ": 7125,
  " bù bù ": 7126,
  " yǒu jī ": 7128,
  "cái liào ": 7129,
  "cháo xiān": 7130,
  " 2001 nián rén kǒu ": 7131,
  " gé": 7132,
  "dào lù ": 7133,
  "huá rén ": 7134,
  " zài wèi ": 7135,
  " běi qǐ ": 7136,
  "jìng de ": 7137,
  "sǐ hòu ": 7138,
  "bǎo liú ": 7139,
  "bō lán": 7140,
  "g ": 7141,
  " tǔ ": 7142,
  "tōng chē ": 7143,
  "sī lì ": 7144,
  "1989 nián ": 7145,
  " zhōng guó dà lù ": 7146,
  "bái sè ": 7147,
  "yà lì shān dà ": 7148,
  " bān ": 7149,
  "huì shì ": 7150,
  " yǐ bèi ": 7151,
  "M ": 7152,
  "jū mín": 7153,
  "zhǔ lì ": 7154,
  " píng miàn ": 7155,
  "ní kè ": 7156,
  " tā wèi ": 7157,
  " 2021": 7158,
  "zhǔ de ": 7159,
  " zhī jiān": 7160,
  "fēn zhōng ": 7161,
  " sī tè": 7162,
  " chá ": 7163,
  "nǚ zǐ": 7164,
  "yǐn qǐ ": 7165,
  " xiàn de yí gè ": 7166,
  " tí gōng ": 7167,
  " dào dá ": 7168,
  "fǎ àn ": 7169,
  "yǐn qǐ": 7170,
  " nǚ xìng ": 7171,
  "zhào kāi ": 7172,
  " dōng nán ": 7173,
  "yùn zuò ": 7174,
  "   2012": 7175,
  "jiāo huì ": 7176,
  "5 nián ": 7177,
  "shǒu gè ": 7178,
  "tuì chū ": 7179,
  "zhài ": 7180,
  "dì èr ": 7181,
  " ér yán ": 7182,
  " xiàn de yí gè": 7183,
  " hǎi": 7184,
  " bèi rèn wéi shì ": 7185,
  " yōng yǒu ": 7186,
  " jù yǒu ": 7187,
  "lì zài ": 7188,
  " jī hū": 7189,
  " kè chéng ": 7190,
  "wén zhāng ": 7191,
  "jǐ gè ": 7192,
  "zhá ": 7193,
  " shì jiā ": 7194,
  " yǒu yì ": 7195,
  "tè shū ": 7196,
  " qǔ ": 7197,
  " xī sī ": 7198,
  "xiāng guān": 7199,
  "shī fàn": 7200,
  " fù qīn ": 7201,
  "wú fǎ": 7202,
  " gǎng ": 7203,
  "cān móu": 7204,
  "jīn huì ": 7205,
  "jiè de ": 7206,
  "jiào shī ": 7207,
  "céng jīng": 7208,
  "   xià ": 7209,
  "lǜ shī ": 7210,
  "fēi zhōu ": 7211,
  " shì yǔ ": 7212,
  " s   ": 7213,
  "xī bān yá": 7214,
  "dà wèi ": 7215,
  " yī jí ": 7216,
  " féng ": 7217,
  "cháng de ": 7218,
  " bù dé": 7219,
  " tā men zài ": 7220,
  "wēi jī ": 7221,
  " yì fāng miàn ": 7222,
  "fǎ yuàn": 7223,
  "yí zhǐ ": 7224,
  " ér shuǐ yù miàn jī wèi 0": 7225,
  " guó jiā de ": 7226,
  "zhě zài ": 7227,
  " hé qí tā ": 7228,
  "yà zhōu": 7229,
  " zhǔ xí ": 7230,
  "jīn pái ": 7231,
  "chē de ": 7232,
  " zhī wèi ": 7233,
  " bìng jiāng ": 7234,
  "kāng xī ": 7235,
  "es ": 7236,
  " chéng xù ": 7237,
  "yào wù ": 7238,
  "xì tǒng de ": 7239,
  " wèi yǒu ": 7240,
  "biǎo dá": 7241,
  " 00 ": 7242,
  "   chéng ": 7243,
  " chéng rèn ": 7244,
  "zhí mín": 7245,
  "guò qù ": 7246,
  "pú táo yá": 7247,
  "dà dì ": 7248,
  "biàn dé ": 7249,
  " zhì liáo ": 7250,
  "huān yíng ": 7251,
  "wén xiàn ": 7252,
  "lěng ": 7253,
  "duō nián ": 7254,
  " sī kè ": 7255,
  " jìn xíng le ": 7256,
  " xì liè ": 7257,
  "mù biāo": 7258,
  " fèi": 7259,
  " guān yú ": 7260,
  "zhù lǐ ": 7261,
  "zhuāng shì ": 7262,
  "dōng běi bù ": 7263,
  "gòu zào ": 7264,
  "huò dé le ": 7265,
  "bó wù guǎn": 7266,
  "ào dà lì yà ": 7267,
  "e   ": 7268,
  " bǎi ": 7269,
  " qiú yuán ": 7270,
  " 100": 7271,
  " bàn ": 7272,
  "jiāng huì ": 7273,
  "fú yì ": 7274,
  "běn dì ": 7275,
  " ér gāi dì ": 7276,
  "xiān shēng ": 7277,
  " bù lā ": 7278,
  "bō lán ": 7279,
  " qǐ": 7280,
  " yú lè ": 7281,
  "jiā rù": 7282,
  "fàng qì ": 7283,
  "jiàn yì ": 7284,
  " 2015": 7285,
  "dāng shí de ": 7286,
  " qī xī zài ": 7287,
  "máo zé ": 7288,
  "xiào de ": 7289,
  "sà sī ": 7290,
  "yì dà lì ": 7291,
  " bìng yǔ ": 7292,
  " gāo": 7293,
  "zé wèi ": 7294,
  " dà lù ": 7295,
  "te   ": 7296,
  "1985 nián ": 7297,
  "fù qīn": 7298,
  " wèi lái ": 7299,
  " 2007 nián ": 7300,
  "zì yóu": 7301,
  " bǎn ": 7302,
  "   cóng ": 7303,
  " jiàn zào ": 7304,
  " jìn yí bù ": 7305,
  "liú zài ": 7306,
  "shōu shì ": 7307,
  " de zhèng ": 7308,
  "chēng zuò ": 7309,
  "nán jīng ": 7310,
  " jìn gōng ": 7311,
  "sà ěr ": 7312,
  "guǎng gào ": 7313,
  " cè ": 7314,
  "luó dì ": 7315,
  "jǐn jí ": 7316,
  " shì zhèng ": 7317,
  " fù qīn": 7318,
  " jì shù": 7319,
  " hào wèi ": 7320,
  "jì xù ": 7321,
  "tǎn kè ": 7322,
  " shōu ": 7323,
  "1949 nián ": 7324,
  " de shēng ": 7325,
  " rén men": 7326,
  " rì jūn": 7327,
  " yì měi yuán ": 7328,
  "xì jù ": 7329,
  "cì shǐ ": 7330,
  " 2013": 7331,
  " zài cǐ": 7332,
  " tè bié shì ": 7333,
  "huǒ jiàn ": 7334,
  " jiā zú ": 7335,
  "piào fáng ": 7336,
  "bǐ lì shí ": 7337,
  "qǐng qiú ": 7338,
  "jǐng fāng ": 7339,
  "kǎo lǜ": 7340,
  "R ": 7341,
  "l ": 7342,
  " shì rì běn ": 7343,
  " nián   ": 7344,
  " jié guǒ": 7345,
  "tài píng yáng": 7346,
  "zhān mǔ sī ": 7347,
  " 30": 7348,
  " hè ": 7349,
  " sī tǎn": 7350,
  " 2014": 7351,
  " chū shēng ": 7352,
  " měi nián ": 7353,
  "dì zài ": 7354,
  " yǐ yǒu ": 7355,
  "shàng wǔ ": 7356,
  "tóu piào": 7357,
  "bā lí": 7358,
  "wáng cháo ": 7359,
  "   jié zhì ": 7360,
  "nèi yǒu ": 7361,
  "biān de ": 7362,
  "wán gōng ": 7363,
  "shí jiān ": 7364,
  " zhì chéng ": 7365,
  "guǎng dōng shěng ": 7366,
  "què rèn ": 7367,
  "pāi shè": 7368,
  " yuán běn ": 7369,
  " zhào": 7370,
  "chǎng hé ": 7371,
  " qí zài ": 7372,
  " zhī zi ": 7373,
  "mǔ qīn": 7374,
  "shēn tǐ ": 7375,
  " é": 7376,
  "fěn ": 7377,
  " dà yuē ": 7378,
  " zhī de ": 7379,
  "méng gǔ": 7380,
  " sài ": 7381,
  " bīng ": 7382,
  " lǚ ": 7383,
  "gǔ fèn": 7384,
  " zhàn dòu ": 7385,
  "xí xìng": 7386,
  "gèng duō ": 7387,
  "hú běi ": 7388,
  " yuē hàn ": 7389,
  " jīng jì ": 7390,
  "dēng shàng ": 7391,
  " xiàn chǎng ": 7392,
  " dèng": 7393,
  "   zēng ": 7394,
  "suǒ zài ": 7395,
  "qíng bào ": 7396,
  " yīng wén ": 7397,
  "wài bù ": 7398,
  "zhòng yì ": 7399,
  "mín jiān ": 7400,
  "mì mì ": 7401,
  "xiào yuán ": 7402,
  " shì yè ": 7403,
  " zài qí ": 7404,
  "guān bì ": 7405,
  "guǎng fàn": 7406,
  "kǎo lǜ ": 7407,
  "tè sè ": 7408,
  " héng ": 7409,
  " yǒu xiàn ": 7410,
  "sēn lín ": 7411,
  "mǎ sī ": 7412,
  " yán": 7413,
  " 2020": 7414,
  " xiǎng ": 7415,
  " sài jì ": 7416,
  "wù yuán ": 7417,
  "cùn ": 7418,
  " xún ": 7419,
  "ān pái ": 7420,
  " wǒ men": 7421,
  "chī ": 7422,
  " quán qiú ": 7423,
  " cān jiā ": 7424,
  " āi ": 7425,
  "xià yī ": 7426,
  "měi gè ": 7427,
  " dà duō shù ": 7428,
  "chéng nián ": 7429,
  "èr yuè ": 7430,
  " bù jiǔ": 7431,
  "yǎn chàng ": 7432,
  "liǎng nián ": 7433,
  "zhuāng bèi ": 7434,
  "zèng ": 7435,
  " dà dào ": 7436,
  " wò": 7437,
  " zuì gāo ": 7438,
  "néng zài ": 7439,
  " jī bài": 7440,
  "tǔ ěr qí ": 7441,
  "qiān zhì ": 7442,
  "huǎn ": 7443,
  "1986 nián ": 7444,
  " dì yī cì ": 7445,
  " 10 ": 7446,
  "chǎng dì ": 7447,
  "mín zhǔ dǎng ": 7448,
  "tiān de ": 7449,
  " zhōng shì ": 7450,
  "14 ": 7451,
  " shí yàn ": 7452,
  "zuò zhàn ": 7453,
  " gāng ": 7454,
  "nán yǐ ": 7455,
  " jí běi ": 7456,
  " chū lái ": 7457,
  "tái fēng ": 7458,
  " kǎ": 7459,
  "xìng qù ": 7460,
  "tiān jīn ": 7461,
  " tōng cháng": 7462,
  " 2017": 7463,
  "bàn lǐ ": 7464,
  "18 ": 7465,
  " zhī dào ": 7466,
  "tiān jīn": 7467,
  "lóng jiāng ": 7468,
  "lǐng shì ": 7469,
  " bù zú ": 7470,
  "yòng tú ": 7471,
  "lǐ gōng ": 7472,
  " kāng ": 7473,
  " yuán sù ": 7474,
  "wēi ěr ": 7475,
  "nóng yè": 7476,
  " qīng cháo ": 7477,
  "āi ěr ": 7478,
  " chéng dù ": 7479,
  "zhàn lǐng ": 7480,
  "cháng jiàn de ": 7481,
  "ma ": 7482,
  "jìn xíng le ": 7483,
  " shǐ jiàn yú ": 7484,
  "   xiàn": 7485,
  "   míng ": 7486,
  "dǎo dàn ": 7487,
  "xiū zhèng ": 7488,
  " yuè tuán ": 7489,
  "guì zhōu ": 7490,
  "fēn bù yú ": 7491,
  "xǐ jù ": 7492,
  " gōng zhǔ ": 7493,
  " tā hái ": 7494,
  " zhàn dòu": 7495,
  "mǎ lái xī yà ": 7496,
  "xí xìng bù míng ": 7497,
  " xuān ": 7498,
  " shí dài": 7499,
  "zhàng ài ": 7500,
  " wén huà ": 7501,
  " chū qī ": 7502,
  "xiàng shì ": 7503,
  "te ": 7504,
  "huá shèng ": 7505,
  "shēng chéng ": 7506,
  " yǒu xiē ": 7507,
  " shēng chǎn": 7508,
  "rèn mìng wèi ": 7509,
  " yì qǐ": 7510,
  "fǎ guān ": 7511,
  " yě jiù shì ": 7512,
  " táo ": 7513,
  "   tā ": 7514,
  " de fāng shì ": 7515,
  " hé hé ": 7516,
  "jiāo liú ": 7517,
  "zǔ jiàn ": 7518,
  " shēng huó xí xìng bù míng ": 7519,
  " róng ": 7520,
  " chǔ yú ": 7521,
  "shè zhì ": 7522,
  "shòu dào": 7523,
  "tí chū": 7524,
  " wàn lì ": 7525,
  "jī chǔ ": 7526,
  " tā yě ": 7527,
  " gòng": 7528,
  " luò": 7529,
  "hěn dà ": 7530,
  "kǔ ": 7531,
  " gòng yǒu ": 7532,
  " gēn jù": 7533,
  "zhì zhōng ": 7534,
  "bào fā": 7535,
  " yín ": 7536,
  "zhǔ shì ": 7537,
  "   měi guó ": 7538,
  "lǐng xiù ": 7539,
  " hàn": 7540,
  "jù jué ": 7541,
  "lā dīng": 7542,
  " ér bú shì ": 7543,
  "chuán shuō ": 7544,
  "huà hé wù ": 7545,
  " ruì ": 7546,
  "rèn shí ": 7547,
  " kǒng ": 7548,
  "bào lì ": 7549,
  "ān zhuāng": 7550,
  "ān nà ": 7551,
  " yī xué ": 7552,
  "wǒ men ": 7553,
  "   lǐ ": 7554,
  " pà": 7555,
  "zhì bù ": 7556,
  "jiā lì fú ": 7557,
  "shú ": 7558,
  " yǒu yí gè ": 7559,
  " xiàn xiàng ": 7560,
  "shàng yìng ": 7561,
  "fǎ yǔ ": 7562,
  "wén yì ": 7563,
  "qióng ": 7564,
  " zài nèi de ": 7565,
  " diàn yǐng ": 7566,
  "gāo sù ": 7567,
  "chuàng bàn": 7568,
  "1987 nián ": 7569,
  " zài dù ": 7570,
  " ér bù ": 7571,
  "jì shì ": 7572,
  "yuàn shì ": 7573,
  " wèi xīng ": 7574,
  " lǐ lùn": 7575,
  "o   ": 7576,
  "yán shēn": 7577,
  "hǎi àn ": 7578,
  " A ": 7579,
  "chuàng jiàn ": 7580,
  "bīn hǎi ": 7581,
  "shùn lì ": 7582,
  " dōng běi ": 7583,
  "   cǐ wài ": 7584,
  "m   ": 7585,
  " 2013 nián ": 7586,
  "léi sī ": 7587,
  "ruǎn jiàn ": 7588,
  " shēng zhǎng": 7589,
  " yóu qí shì ": 7590,
  " shǔ": 7591,
  "tuī jìn ": 7592,
  " hé bù ": 7593,
  "shū rù ": 7594,
  "zī chǎn ": 7595,
  "lùn wén ": 7596,
  " xíng zhèng": 7597,
  "nǚ xìng": 7598,
  "wǎng qiú ": 7599,
  "hǎi wài ": 7600,
  " nà": 7601,
  " è ": 7602,
  " wǎ ": 7603,
  " bù luò ": 7604,
  " dà shà": 7605,
  "1980 nián ": 7606,
  "zhǔ yì de ": 7607,
  "píng lùn ": 7608,
  "zuì gāo": 7609,
  " 2010": 7610,
  " tǎ ": 7611,
  "yìng yòng": 7612,
  "cǎi qǔ ": 7613,
  " 50": 7614,
  " 2012": 7615,
  "jiào shì ": 7616,
  "pái míng dì ": 7617,
  " sāi ": 7618,
  " 2006 nián ": 7619,
  "biàn wèi ": 7620,
  "zū ": 7621,
  "b ": 7622,
  " běi jīng ": 7623,
  "   qí ": 7624,
  "yú de ": 7625,
  "bō fàng ": 7626,
  "jù hé ": 7627,
  "sān shì ": 7628,
  " zài xī ": 7629,
  "rén dà ": 7630,
  " dé ěr ": 7631,
  " hòu xuǎn rén ": 7632,
  "bào gào": 7633,
  " tiáo ": 7634,
  "tóu zī": 7635,
  "mǎ lǐ ": 7636,
  "zé rèn ": 7637,
  "rǎo ": 7638,
  "fāng miàn de ": 7639,
  "yǐn qíng ": 7640,
  "gè zhǒng ": 7641,
  "shì   ": 7642,
  " shì mín ": 7643,
  " hé dà ": 7644,
  "diàn zi": 7645,
  "lǐng dì ": 7646,
  " zài cì": 7647,
  "fàn wéi nèi ": 7648,
  "   jù qíng ": 7649,
  " yíng ": 7650,
  "   qián ": 7651,
  "zhè lǐ ": 7652,
  "xiāng shì dì ": 7653,
  " yú rén ": 7654,
  "zhèng dǎng ": 7655,
  " rì bào ": 7656,
  " lìng yī ": 7657,
  "xíng chéng ": 7658,
  "fā xíng de ": 7659,
  " jī hū ": 7660,
  "zhí jiē": 7661,
  "fēng wèi ": 7662,
  "pài de ": 7663,
  "1982 nián ": 7664,
  " shì gù ": 7665,
  "7 nián ": 7666,
  " lái": 7667,
  " zhì shǎo ": 7668,
  "biǎo dá ": 7669,
  "wǎng luò": 7670,
  " yòng yú ": 7672,
  "yuàn yì ": 7673,
  " tā hé ": 7674,
  "jù lè bù ": 7675,
  "   chū ": 7676,
  "dú lì de ": 7677,
  "6 nián ": 7678,
  " zhī fù ": 7679,
  "jiǔ lóng ": 7680,
  "dāng xuǎn ": 7681,
  "hè ěr ": 7682,
  "zì rán": 7683,
  "   xiàn ": 7684,
  " yǒu xiào ": 7685,
  "xì bāo": 7686,
  " 20": 7687,
  "bú ": 7688,
  "wēn dù ": 7689,
  "1945 nián ": 7690,
  "1983 nián ": 7691,
  "jì chéng ": 7692,
  "diàn nǎo": 7693,
  "yǔn xǔ": 7694,
  "3 rén ": 7695,
  " yī xiǎo shí ": 7696,
  "jǐng chá": 7697,
  "huǒ shān ": 7698,
  "   N": 7699,
  " dà xī yáng ": 7700,
  "guò qù": 7701,
  "pái háng ": 7702,
  "E ": 7703,
  "ān dé ": 7704,
  "jiù dú": 7705,
  " dōng lín ": 7706,
  "mián ": 7707,
  "zhī chí": 7708,
  "fǎng wèn": 7709,
  "míng zì ": 7710,
  " zuò jiā ": 7711,
  " shuō ": 7712,
  "dǎng yuán ": 7713,
  " dà fú ": 7714,
  "qū yì huì ": 7715,
  "17 ": 7716,
  " dé huá ": 7717,
  "2 rén ": 7718,
  " 2012 nián ": 7719,
  "huàn chéng ": 7720,
  "biǎo yǎn": 7721,
  "dōu zài ": 7722,
  " dì yí gè ": 7723,
  "xiàn zhì ": 7724,
  " yǔ máo": 7725,
  " chū zhàn ": 7726,
  "bǐ yà": 7727,
  "   dì fāng ": 7728,
  " fān ": 7729,
  "xiāng dāng": 7730,
  "xǐ huān": 7731,
  " jiù shì ": 7732,
  " bìng bèi ": 7733,
  "fāng yán ": 7734,
  "qū hé ": 7735,
  " yī tóng ": 7736,
  " zhōng huá rén mín gòng hé guó zhèng zhì rén wù ": 7737,
  " shì yú ": 7738,
  "jīng yàn ": 7739,
  "xún yáng": 7740,
  " jì suàn ": 7741,
  "pǔ biàn ": 7742,
  " zhōng bèi ": 7743,
  "guān diǎn ": 7744,
  "jiàng dī ": 7745,
  "kē de qí zhōng yī zhǒng ": 7746,
  "K ": 7747,
  " shēng yú ": 7748,
  " gōng yì ": 7749,
  " réng": 7750,
  "hán yǒu ": 7751,
  "liǎng míng ": 7752,
  "diǎn lǐ ": 7753,
  " shì gōng ": 7754,
  "zhòng duō ": 7755,
  "dà zhì ": 7756,
  " bìng dú": 7757,
  " qí zhōng yī ": 7758,
  " néng ": 7759,
  "yà jūn ": 7760,
  "shè qū ": 7761,
  "kǒu wèi ": 7762,
  "chéng yuán ": 7763,
  " xiàn shì ": 7764,
  "zhī qián ": 7765,
  "mì shū zhǎng ": 7766,
  "   2": 7767,
  "   2011": 7768,
  " dì sì": 7769,
  "zuò shì ": 7770,
  "tiáo lì ": 7771,
  "nèi gé ": 7772,
  " píng jūn ": 7773,
  "shù yǔ ": 7774,
  "wú zhèng zhuàng ": 7775,
  " xiàn rèn ": 7776,
  "tū pò ": 7777,
  "xiě dào ": 7778,
  "dàng tiān ": 7779,
  "yí dù ": 7780,
  " zǔ fù ": 7781,
  "1 lì ": 7782,
  " liù": 7783,
  " xíng wèi ": 7784,
  " wán ": 7785,
  " gōng mín ": 7786,
  "xīng děng wèi ": 7787,
  " bǐ sài ": 7788,
  " tóng yì ": 7789,
  "hóng sè ": 7790,
  "shān shì ": 7791,
  "kāi shǐ zài ": 7792,
  "tuán de ": 7793,
  "gěi le ": 7794,
  " jī jīn ": 7795,
  "sǐ wáng": 7796,
  "zhěng tǐ ": 7797,
  " 500": 7798,
  "   jí ": 7799,
  "lǔ sī ": 7800,
  "shě ": 7801,
  "jué duì ": 7802,
  " quán lì ": 7803,
  " zuì chū ": 7804,
  "dài biǎo dà huì ": 7805,
  " 7 ": 7806,
  "chí yǒu ": 7807,
  "yīng wén ": 7808,
  "zhèng bù ": 7809,
  "gài niàn": 7810,
  " xìn ": 7811,
  " gōng jù ": 7812,
  "shè shī ": 7813,
  " sūn": 7814,
  " dá": 7815,
  "   2010": 7816,
  "běn rén ": 7817,
  "yáng shì ": 7818,
  " shì bīng ": 7819,
  " zhè zhǒng": 7820,
  "xià xiá de yí gè ": 7821,
  " 30 ": 7822,
  " suì shí ": 7823,
  "   ā ": 7824,
  " 0 ": 7825,
  "ní ěr ": 7826,
  " de chéng jì ": 7827,
  " U": 7828,
  " jí rén ": 7829,
  "yí dìng ": 7830,
  "jiè shào ": 7831,
  "lái yuè ": 7832,
  "bǎo shǒu ": 7833,
  "tóu xiáng ": 7834,
  "guì zú ": 7835,
  "yuè zhōng ": 7836,
  "zhí dǎo ": 7837,
  "zhèn qū de ": 7838,
  "zǎo qī": 7839,
  "bó shì xué wèi ": 7840,
  "shān jī ": 7841,
  "huáng hòu ": 7842,
  "qǐ dòng ": 7843,
  " měi gè ": 7844,
  "   qí tā ": 7845,
  "tāng ": 7846,
  "guà ": 7847,
  " wéi ěr": 7848,
  "yāo qǐng": 7849,
  "yì nián ": 7850,
  "gǔ dài ": 7851,
  " míng dān ": 7852,
  "kuì ": 7853,
  " dé yǔ ": 7854,
  "zhǒng zú ": 7855,
  "en ": 7856,
  "zhěn ": 7857,
  " yī zuò ": 7858,
  " yǐ jí": 7859,
  " ér gāi ": 7860,
  "hēi sè ": 7861,
  "míng rén ": 7862,
  " rén mín zhèng fǔ ": 7863,
  "ēn shěng ": 7864,
  "tòu guò": 7865,
  "1 rén ": 7866,
  " xiǎng nián ": 7867,
  "wú zhèng zhuàng gǎn rǎn ": 7868,
  "suí zhù ": 7869,
  "sā ": 7870,
  "   1 ": 7871,
  "huó yuè ": 7872,
  "mù qián": 7873,
  "cháng wù ": 7874,
  "cháng wěi ": 7875,
  "què zhěn bìng lì ": 7876,
  " èr shí ": 7877,
  "míng zhì ": 7878,
  " rì yú ": 7879,
  "gǎi míng wèi ": 7880,
  "chū shēn ": 7881,
  "tóng nián ": 7882,
  "diàn huà ": 7883,
  " 2022": 7884,
  " bù sī ": 7885,
  " jī sī ": 7886,
  "tài zi ": 7887,
  "duō rén ": 7888,
  " bǐ rú ": 7889,
  "   gāi": 7890,
  "kè chéng ": 7891,
  "kùn nán ": 7892,
  " bù lì ": 7893,
  "zuì duō ": 7894,
  "dān de ": 7895,
  "lóng de ": 7896,
  "tún ": 7897,
  "tí jí ": 7898,
  "gèng wéi ": 7899,
  "in ": 7900,
  "rù xuǎn ": 7901,
  " wèi yú zhōng guó ": 7902,
  "yǐ jīng ": 7903,
  "quē fá": 7904,
  "sāi ěr wéi ": 7905,
  "huì zhōng ": 7906,
  "shōu jí ": 7907,
  " lì fǎ": 7908,
  "xué huì ": 7909,
  " bìng fēi ": 7910,
  "hǎi xiá ": 7911,
  "gòu de ": 7912,
  "gōng chéng ": 7913,
  " xī jiē ": 7914,
  "gē lún ": 7915,
  " yòng": 7916,
  " jī chǎng": 7917,
  "G ": 7918,
  "jù dà ": 7919,
  " chéng rén ": 7920,
  "fù zé": 7921,
  "ān nà": 7922,
  "zú qiú yùn dòng yuán ": 7923,
  "   2 ": 7924,
  "xiě de ": 7925,
  "pāi ": 7926,
  "zhuī sù": 7927,
  " yāo qiú ": 7928,
  " 2014 nián ": 7929,
  " tóng shí gāi dì ": 7930,
  " xí ": 7931,
  "zuò chū ": 7932,
  "bēi sī ": 7933,
  " yě zài ": 7934,
  "shěng de ": 7935,
  "lìng rén ": 7936,
  "huì zhì ": 7937,
  " dé zhǔ ": 7938,
  "tǎo lùn": 7939,
  "gāo sù gōng lù ": 7940,
  " yuē": 7941,
  " jí dì ": 7942,
  "fàn zuì ": 7943,
  "nèi lù shěng fèn ": 7944,
  "ān huī ": 7945,
  "kē xué jiā ": 7946,
  "tú xíng ": 7947,
  " guó nèi ": 7948,
  "pī zhǔn": 7949,
  " bìng dú ": 7950,
  "jiāng zài ": 7951,
  "dī yú ": 7952,
  " pò ": 7953,
  "zhú bù ": 7954,
  " de dì èr ": 7955,
  "shòu de ": 7956,
  "shān de ": 7957,
  " shì yīn wèi ": 7958,
  " kè xī ": 7959,
  "lián hé huì ": 7960,
  "cì de ": 7961,
  "chāo yuè ": 7962,
  "jié guǒ": 7963,
  "tái nán": 7964,
  "jiǎn shǎo": 7965,
  "qiáng liè ": 7966,
  "3 gè ": 7967,
  " chá": 7968,
  "pài qiǎn": 7969,
  "xià lìng shí jiān ": 7970,
  "hǎi píng miàn ": 7971,
  "bú dào ": 7972,
  " shí qī de ": 7973,
  " yuán xíng ": 7974,
  " wán jiā ": 7975,
  "yě zài ": 7976,
  " jī huì ": 7977,
  " xué yuàn": 7978,
  "yí dìng": 7979,
  "huī fù": 7980,
  "guò de ": 7981,
  "yà měi ": 7982,
  "1972 nián ": 7983,
  "biān jiè ": 7984,
  "dǒng shì zhǎng ": 7985,
  "jià gé ": 7986,
  " jiào yù ": 7987,
  "tí yì ": 7988,
  "shū zhōng ": 7989,
  "xūn zhāng ": 7990,
  "zhǔ jiào": 7991,
  "shī bài ": 7992,
  " hào de ": 7993,
  "zhǔ yào de ": 7994,
  "ní yà zhōu ": 7995,
  " hòu bèi ": 7996,
  " xué jiā ": 7997,
  "liú xià ": 7998,
  "shuāng fāng ": 7999,
  "   bèi jǐng ": 8000,
  "   3": 8001,
  "ér tóng ": 8002,
  " yī lì ": 8003,
  "guān chá ": 8004,
  "fāng fǎ": 8005,
  "jiā yì ": 8006,
  "1978 nián ": 8007,
  " bù duì": 8008,
  " yǐ wéi ": 8009,
  " zài shí ": 8010,
  "tí gōng le ": 8011,
  "lián xù": 8012,
  "xiàn de ": 8013,
  "qīn zì ": 8014,
  " ér zi ": 8015,
  "běi jīng shì ": 8016,
  " 1950": 8017,
  "1979 nián ": 8018,
  " yǒu suǒ ": 8019,
  " diàn shì ": 8020,
  "zuì gāo de ": 8021,
  "huì yì yuán ": 8022,
  " méi": 8023,
  "sān jiǎo": 8024,
  "   dì fāng zī liào ": 8025,
  "bǎn běn": 8026,
  "rèn wèi ": 8027,
  "mǎ ěr ": 8028,
  "lán de ": 8029,
  "ná xià ": 8030,
  "píng tái ": 8031,
  "fēi cháng": 8032,
  "   jiǎn jiè ": 8033,
  "le zài ": 8034,
  "duō wèi ": 8035,
  "zǔ fù ": 8036,
  " hé yuē ": 8037,
  " jiǎ": 8038,
  " lì liàng ": 8039,
  " chū kǒu ": 8040,
  " tā céng dài biǎo ": 8041,
  "bèi de ": 8042,
  " dì lǐ ": 8043,
  "nán běi ": 8044,
  "shén me ": 8045,
  "ng ": 8046,
  "néng yuán ": 8047,
  " dì qī ": 8048,
  " xiàn fǎ ": 8049,
  "gǎi biàn": 8050,
  " hòu zhě ": 8051,
  "quē fá ": 8052,
  "tái zhōng ": 8053,
  "dí shì ": 8054,
  " zhèng míng ": 8055,
  " shí jì shàng ": 8056,
  "liǎo ": 8057,
  " chéng zhèn ": 8058,
  " sù ": 8059,
  " 2015 nián ": 8060,
  "zì de ": 8061,
  "xuǎn zhōng ": 8062,
  "dí rén ": 8063,
  " lì yì ": 8064,
  "4 rén ": 8065,
  "lǐ hé ": 8066,
  "1 nián ": 8067,
  " shǒu": 8068,
  " lǔ ": 8069,
  "pài chū ": 8070,
  " měi yuán ": 8071,
  " zhōng guó rén mín jiě fàng jūn ": 8072,
  "duō zhǒng ": 8073,
  "tán pàn ": 8074,
  "liáo níng ": 8075,
  "1976 nián ": 8076,
  " bù shǎo ": 8077,
  " sī tǎ ": 8078,
  "tí chū de ": 8079,
  "suí jí ": 8080,
  "wán zhěng": 8081,
  "yīng gāi ": 8082,
  "tuì xiū ": 8083,
  " dà xué de ": 8084,
  "hǎi bá wèi ": 8085,
  " zī ": 8086,
  "píng wèi ": 8087,
  "gàn bù ": 8088,
  "lěi jì ": 8089,
  " shí xíng ": 8090,
  "yīng gé lán": 8091,
  "miǎn diān": 8092,
  "dāng zhōng ": 8093,
  "xù lì yà ": 8094,
  "jué yì ": 8095,
  "shāng rén ": 8096,
  "biāo běn ": 8097,
  "fā shēng zài ": 8098,
  "suǒ cǎi yòng": 8099,
  "zhǐ dǎo ": 8100,
  " jù jué ": 8101,
  "huà zhōng ": 8102,
  "zàn shí ": 8103,
  "zhuāng jiǎ ": 8104,
  "   1": 8105,
  "měi zhōu": 8106,
  "tiào ": 8107,
  " fù jìn": 8108,
  " zhōng gòng zhōng yāng ": 8109,
  "cì yú ": 8110,
  " yì qíng ": 8111,
  "nóng mín ": 8112,
  "yí dài ": 8113,
  " dé míng ": 8114,
  "   yīn ": 8115,
  "shuǐ lì ": 8116,
  "róng hé ": 8117,
  " zhōng guó de ": 8118,
  "xiū gǎi ": 8119,
  "8 nián ": 8120,
  "fā míng ": 8121,
  "1958 nián ": 8122,
  " qí wèi ": 8123,
  "zhǐ néng ": 8124,
  " míng zhì ": 8125,
  " gōng zhòng ": 8126,
  " chú": 8127,
  " bǎ": 8128,
  "zhǔ yǎn ": 8129,
  "ā lā bó": 8130,
  "zhuǎn xiàng ": 8131,
  "xiāng sì ": 8132,
  "guān chá": 8133,
  "jiē chù ": 8134,
  " běi jīng": 8135,
  "kāi shè ": 8136,
  "xiū jiàn ": 8137,
  "zhǒng zi ": 8138,
  "jìng jì ": 8139,
  "jiě sàn ": 8140,
  " de shì jiè ": 8141,
  " 2016 nián ": 8142,
  "wǔ zhuāng": 8143,
  "diàn jī ": 8144,
  "chāi chú ": 8145,
  "cn ": 8146,
  "kāi tōng ": 8147,
  "bào zhà ": 8148,
  "jǔ bàn de ": 8149,
  "fā qǐ ": 8150,
  "shēn dù ": 8151,
  "ān pái": 8152,
  " táng": 8153,
  "qū shì ": 8154,
  "wéi sī ": 8155,
  "tuán tǐ": 8156,
  "jī gòu ": 8157,
  "fù zhǔ rèn ": 8158,
  "fā shòu ": 8159,
  "zǔ zhī de ": 8160,
  "   qí": 8161,
  " nián lái ": 8162,
  "fēng xiǎn ": 8163,
  "diào kuài": 8164,
  "   duì ": 8165,
  "chéng hé ": 8166,
  " wèi dà ": 8167,
  " yǔ qí tā ": 8168,
  "zhāng zhuān jí ": 8169,
  " cn ": 8170,
  "jié de ": 8171,
  "biān jù ": 8172,
  "zào le ": 8173,
  "se ": 8174,
  "nǔ ": 8175,
  " wèi UTC ": 8176,
  " bù jí ": 8177,
  " zhōng shān ": 8178,
  "néng liàng ": 8179,
  "shuài lǐng": 8180,
  " Z": 8181,
  "bàn shì chù ": 8182,
  "qiú jì ": 8183,
  "tiáo zhěng": 8184,
  " xī bān yá ": 8185,
  " gē": 8186,
  "luó lǐ ": 8187,
  "2025 nián ": 8188,
  "gé lā ": 8189,
  "jiù dú ": 8190,
  "diào kuài yī xiǎo shí ": 8191,
  "9 nián ": 8192,
  "zé zài ": 8193,
  " de yǐng xiǎng ": 8194,
  "yīng xióng ": 8195,
  "shāng yè": 8196,
  "qiáng diào ": 8197,
  " jí UTC ": 8198,
  "kē xué yuàn ": 8199,
  "shè yǒu xià lìng shí jiān ": 8200,
  " de shí qū wèi UTC ": 8201,
  " ér gāi dì suǒ cǎi yòng": 8202,
  " tóng shí gāi dì shè yǒu xià lìng shí jiān ": 8203,
  " ér gāi dì suǒ cǎi yòng de shí qū wèi UTC ": 8204,
  " bài ": 8205,
  "xiāo fèi ": 8206,
  " tóng yàng": 8207,
  "xìn yǎng ": 8208,
  "tā men de ": 8209,
  "L ": 8210,
  " s": 8211,
  "yóu jī ": 8212,
  " dà jiǎng ": 8213,
  "jiào táng": 8214,
  " lìng yǒu ": 8215,
  " yī sī lán ": 8216,
  "40 ": 8217,
  "yuán zhù ": 8218,
  "bǎo liú": 8219,
  "tài dù ": 8220,
  "chuán bō ": 8221,
  " gāi cūn ": 8222,
  "suǒ zài dì ": 8223,
  "què de ": 8224,
  "zhī jiān de ": 8225,
  " zhēng ": 8226,
  "   jiāo tōng ": 8227,
  "fā shè": 8228,
  " shí wù ": 8229,
  "dìng jū ": 8230,
  " mǎ lái": 8231,
  " lì shǐ shàng ": 8232,
  "gāo yú hǎi píng miàn ": 8233,
  " huàn ": 8234,
  "pèi zhì ": 8235,
  " wèi fú qí yú gāng ": 8236,
  " dān": 8237,
  " bǎi": 8238,
  "xìng wèi ": 8239,
  "zhú jiàn": 8240,
  " bù néng": 8241,
  " gōng jué ": 8242,
  " ěr duō ": 8243,
  " qí xià ": 8244,
  "   qīng ": 8246,
  "wù hé ": 8247,
  "hù xiāng ": 8248,
  "huì yú ": 8249,
  "chù de hǎi bá wèi ": 8250,
  "chù de hǎi bá wèi gāo yú hǎi píng miàn ": 8251,
  "hòu wèi ": 8252,
  "kùn ": 8253,
  " yīn sù ": 8254,
  "tǐ zhì ": 8255,
  "al ": 8256,
  "jìng xuǎn ": 8257,
  "hé   ": 8258,
  "wù shì ": 8259,
  " yú lè": 8260,
  "chǎng suǒ ": 8261,
  " zhī yì ": 8262,
  " hé pàn ": 8263,
  " bù jǐn ": 8264,
  " yǐ xī ": 8265,
  " nǐ ": 8266,
  "fā xiàn de ": 8267,
  "zhòng shì ": 8268,
  "kuáng ": 8269,
  " qí shí ": 8270,
  " suí zhù ": 8271,
  "nán jīng": 8272,
  "zhǎng dá ": 8273,
  "yùn shū": 8274,
  " 2008": 8275,
  " lián hé ": 8276,
  " 2017 nián ": 8277,
  "   mǎ ": 8278,
  "shù shí ": 8279,
  "nèi dì ": 8280,
  " hú": 8281,
  " xū ": 8282,
  "shí qū ": 8283,
  "gāo xióng": 8284,
  "zī liào": 8285,
  " dài": 8286,
  " xiè ": 8287,
  "jiàn chéng ": 8288,
  "lù zhì ": 8289,
  "gēng xīn ": 8290,
  "is   ": 8291,
  " yī jiā ": 8292,
  " xī lán ": 8293,
  "yùn yòng ": 8294,
  " zì rán ": 8295,
  "chóng qìng": 8296,
  " zhèng zhì ": 8297,
  "bì yè hòu ": 8298,
  "   rán": 8299,
  "èr jí ": 8300,
  "biān hào ": 8301,
  " lì rèn ": 8302,
  "shān fēng ": 8303,
  " wèi yú gāi ": 8304,
  "wéi ěr ": 8305,
  "zhí zhèng ": 8306,
  "diàn qì ": 8307,
  " yí": 8308,
  " nuò ": 8309,
  " 8 ": 8310,
  "zhě shì ": 8311,
  "wáng shì ": 8312,
  " zuò chū ": 8313,
  " Ma": 8314,
  "xiá qū ": 8315,
  "   běn": 8316,
  "céng wèi ": 8317,
  "bāo wéi ": 8318,
  "bàng qiú ": 8319,
  "xué yuán ": 8320,
  "cuò wù ": 8321,
  " dì qiú": 8322,
  "jīn róng ": 8323,
  " yù shǐ ": 8324,
  "xuān chuán": 8325,
  "h ": 8326,
  "dōng fāng ": 8327,
  "hòu yì ": 8328,
  "běi shì ": 8329,
  "jīng cháng": 8330,
  "xiào qū ": 8331,
  " rán ér": 8332,
  " tíng ": 8333,
  "qià ": 8334,
  "jiù huì ": 8335,
  " jié kè ": 8336,
  " shā": 8337,
  " sī kē ": 8338,
  " duì shǒu ": 8339,
  " xíng zhèng qū ": 8340,
  "zhèn qū de miàn jī wèi ": 8341,
  " zhōu cì shǐ ": 8342,
  " shēng yá ": 8343,
  "jiā yǐ ": 8344,
  "jú de ": 8345,
  "fú de ": 8346,
  "mǎ kè ": 8347,
  " tā yǐ ": 8348,
  " yuán zì ": 8349,
  " lǐ xī ": 8350,
  "zào chéng de ": 8351,
  " qīn ": 8352,
  "zhí mín ": 8353,
  " 2023": 8354,
  "píng lùn": 8355,
  "fū kǎ ": 8356,
  " fú wù ": 8357,
  " dāng shí de ": 8358,
  "ào zhōu ": 8359,
  "kě zài ": 8360,
  " yī jù ": 8361,
  "H ": 8362,
  "jì yǒu ": 8363,
  "shǐ jiàn yú ": 8364,
  "rèn de ": 8365,
  "yě bèi ": 8366,
  "miàn shàng ": 8367,
  "shuāi ": 8368,
  "gōng gòng ": 8369,
  " sī kè": 8370,
  " ér tóng ": 8371,
  " fā xiàn ": 8372,
  " 2018 nián ": 8373,
  "míng shì ": 8374,
  "bàn de ": 8375,
  " xué zhě ": 8376,
  "pǎo ": 8377,
  " jiàn shè": 8378,
  " wéi rào": 8379,
  " yě bèi ": 8380,
  "qiān shǔ ": 8381,
  " qí zhōng bāo kuò ": 8382,
  " gǎn ": 8383,
  " fā xíng ": 8384,
  "jiā zài ": 8385,
  " 2009": 8386,
  "tū rán ": 8387,
  "chán ": 8388,
  "hǎi yáng ": 8389,
  "jī zài ": 8390,
  "lái yīn ": 8391,
  "jùn gōng ": 8392,
  " jí dà ": 8393,
  " dé zhī ": 8394,
  " jī jīn huì ": 8395,
  "xiào lì yú ": 8396,
  " 2019 nián ": 8397,
  "jì niàn": 8398,
  "qì chē": 8399,
  "lìng yí gè ": 8400,
  "xiāo shī ": 8401,
  " wèi duì ": 8402,
  "rú guǒ ": 8403,
  "dāng dì de ": 8404,
  "jiàng lǐng ": 8405,
  " 19": 8406,
  " yún ": 8407,
  "yán hǎi ": 8408,
  "táo tài ": 8409,
  "wěi yuán huì wěi yuán ": 8410,
  " lǐ yà ": 8411,
  "tián jìng ": 8412,
  " 2 yuè ": 8413,
  "   jǐn ": 8414,
  "píng yuán ": 8415,
  "bèi jǐng ": 8416,
  "kǎ luó ": 8417,
  "   shèng ": 8418,
  "jìn bù ": 8419,
  "dìng yú ": 8420,
  "èr rén ": 8421,
  "liǎng guó ": 8422,
  "tè dìng ": 8423,
  "fèn zǐ": 8424,
  " cì nián ": 8425,
  " xīng": 8426,
  "dà bù ": 8427,
  "duì qí ": 8428,
  " qí de ": 8429,
  " de bù fèn ": 8430,
  "zhí mín dì ": 8431,
  "shǒu zhōng ": 8432,
  "jiào dà ": 8433,
  " zhì zuò de ": 8434,
  " jī dū ": 8435,
  "diàn nǎo ": 8436,
  "gǎi zào ": 8437,
  "chuán tǒng de ": 8438,
  " chōng ": 8439,
  "děng jí ": 8440,
  "shēng yá": 8441,
  " bù bù zhǎng ": 8442,
  "jīng shén": 8443,
  " qián wǎng ": 8444,
  " xiān": 8445,
  "ng   ": 8446,
  "guān jiàn ": 8447,
  "diǎn shì ": 8448,
  "yì shù ": 8449,
  "quán miàn ": 8450,
  " diàn yǐng": 8451,
  "mò xī gē ": 8452,
  " xián ": 8453,
  "zhèn de ": 8454,
  "tuī chū": 8455,
  "1968 nián ": 8456,
  "guó jiā": 8457,
  " dì tiě": 8458,
  " xiàn yǐ ": 8459,
  " jī chǔ": 8460,
  " jù lí": 8461,
  "mù de ": 8462,
  "lí kāi": 8463,
  " luó mǎ ": 8464,
  " gēn ": 8465,
  "   nán ": 8466,
  " shí duàn ": 8467,
  "jiē duàn": 8468,
  "liǎng cì ": 8469,
  "ài ěr lán ": 8470,
  " liù ": 8471,
  "sān míng ": 8472,
  "hūn yīn ": 8473,
  "tou ": 8474,
  "dà lù": 8475,
  " yì yú ": 8476,
  "shū yuàn ": 8477,
  " shān dōng ": 8478,
  "ā lā bó ": 8479,
  "la ": 8480,
  " yóu jī ": 8481,
  "wén de ": 8482,
  "bō sī ": 8483,
  "huì zhǎng ": 8484,
  "mǎn zú ": 8485,
  "n   ": 8486,
  " zá zhì ": 8487,
  "qī wèi ": 8488,
  " dì diǎn ": 8489,
  "jìng zhēng ": 8490,
  "cái néng ": 8491,
  "xīn chéng ": 8492,
  "liǎng wèi ": 8493,
  "pèi yīn ": 8494,
  "zhèng jù ": 8495,
  " wú fǎ ": 8496,
  "lián de ": 8497,
  "xiū fù ": 8498,
  " bìng yóu ": 8499,
  "lā jī ": 8500,
  "kào jìn ": 8501,
  " dì dài ": 8502,
  " lì shí ": 8503,
  "hù lián ": 8504,
  "jiě fàng ": 8505,
  "é luó sī": 8506,
  "nèi zhàn ": 8507,
  "bō shì ": 8508,
  " wéi chí": 8509,
  "chū bǎn": 8510,
  "zāi péi ": 8511,
  " shì dé guó ": 8512,
  "duì zhǎng ": 8513,
  "fā qǐ": 8514,
  "jū zhù zài ": 8515,
  "zǎo zài ": 8516,
  "bìng bù ": 8517,
  "shǒu xiàng ": 8518,
  "shān qū ": 8519,
  "zú qiú jù lè bù ": 8520,
  " kǒu ": 8521,
  "juàn ": 8522,
  "jiāo liú": 8523,
  " guó wù yuàn ": 8524,
  "lǐ chéng ": 8525,
  "wěi fù ": 8526,
  "zhè shì ": 8527,
  "qǐ yuán ": 8528,
  "gǒu ": 8529,
  "cūn luò ": 8530,
  " B ": 8531,
  "fū de ": 8532,
  "1970 nián ": 8533,
  "jī chǔ": 8534,
  " dà lóu": 8535,
  "yán sè ": 8536,
  "xiàng zhēng ": 8537,
  " wéi sī ": 8538,
  "tiān tǐ ": 8539,
  " 28": 8540,
  " cān yù ": 8541,
  "dōu bèi ": 8542,
  " bù bīng ": 8543,
  " yǔ yán": 8544,
  "   dì èr ": 8545,
  " 2004 nián ": 8546,
  "liù shí ": 8547,
  "ne ": 8548,
  " zhì liàng ": 8549,
  " zhōu fǔ ": 8550,
  "shén me": 8551,
  " dīng ": 8552,
  "   17": 8553,
  "láng zhōng ": 8554,
  " yī yuàn": 8555,
  " xíng mù ": 8556,
  "xìng hé ": 8557,
  " yǐ wài ": 8558,
  "cháng dù ": 8559,
  "luò fá": 8560,
  " bǎo": 8561,
  "   2008": 8562,
  " zhì dì ": 8563,
  " yǔ yī ": 8564,
  "shōu gòu ": 8565,
  "wú zhèng zhuàng gǎn rǎn zhě ": 8566,
  " yì shì ": 8567,
  "liàng wèi ": 8568,
  "mǔ de ": 8569,
  " dé sī ": 8570,
  " 2020 nián ": 8571,
  "zuì chū": 8572,
  "xiě zuò ": 8573,
  "mèng jiā ": 8574,
  "tè xìng ": 8575,
  "shī qù": 8576,
  " wèi yú měi guó ": 8577,
  "jiǎ dì ": 8578,
  " zuì jiā ": 8579,
  "fù hé ": 8580,
  "chuáng ": 8581,
  "tài yáng": 8582,
  "ào mén": 8583,
  "fú lì ": 8584,
  "gé shì ": 8585,
  "1956 nián ": 8586,
  " xiàn jí ": 8587,
  "suǒ de ": 8588,
  "zhuàn de ": 8589,
  "zōng yì ": 8590,
  "st   ": 8591,
  "zì mǔ ": 8592,
  "líng chén ": 8593,
  "zhí yè shēng yá ": 8594,
  "suǒ wèi ": 8595,
  "tòu lù ": 8596,
  "dōng běi": 8597,
  " yí gè": 8598,
  "5 rén ": 8599,
  "ǒu xiàng ": 8600,
  "kǎo shì ": 8601,
  " fú jiàn ": 8602,
  "   gè rén ": 8603,
  "jué shì ": 8604,
  "zǒng rén kǒu ": 8605,
  " dì fāng": 8606,
  " xiàn chéng ": 8607,
  " lǐ kè ": 8608,
  "   Ma": 8609,
  " dé lā ": 8610,
  "kōng qì ": 8611,
  "nà de ": 8612,
  "fén ": 8613,
  "zuò wéi": 8614,
  "zhǔ zhāng ": 8615,
  "xī hé ": 8616,
  "píng de ": 8617,
  "1960 nián ": 8618,
  "xī nán ": 8619,
  " tài": 8620,
  "huí yì ": 8621,
  "1920 nián ": 8622,
  "1981 nián ": 8623,
  " yǐ zài ": 8624,
  " yě kě yǐ ": 8625,
  "pú táo yá ": 8626,
  " kù ": 8627,
  "   rén ": 8628,
  "si ": 8629,
  "1964 nián ": 8630,
  " zuò zhàn ": 8631,
  "qī shí ": 8632,
  "zǒu xiàng ": 8633,
  " diào ": 8634,
  " yǐ yú ": 8635,
  " chéng kè ": 8636,
  "sū gé lán ": 8637,
  " zhēn": 8638,
  "guò le ": 8639,
  "chē duì ": 8640,
  " ěr shì ": 8641,
  " xiǎo shí ": 8642,
  " sūn ": 8643,
  "nán de ": 8644,
  "hù bù ": 8645,
  " dì tú ": 8646,
  " yuán běn": 8647,
  " chū dào ": 8648,
  "yìn ní ": 8649,
  " 2007": 8650,
  " sè ": 8651,
  " 2021 nián ": 8652,
  "wǔ shì ": 8653,
  "shōu dào ": 8654,
  "wǎ ěr shěng ": 8655,
  "gǔ lì ": 8656,
  "guǎn zhì ": 8657,
  "féi ": 8658,
  " gōng lǐ de ": 8659,
  "xìn yǎng": 8660,
  "xún zhǎo": 8661,
  "zhǔ yì zhě ": 8662,
  " 24": 8663,
  " wèi yuán ": 8664,
  "guò dù ": 8665,
  "ǒu ": 8666,
  "yán rén ": 8667,
  "luò chéng ": 8668,
  "xiǎn zhù ": 8669,
  "ba ": 8670,
  "tōu ": 8671,
  "guó wù ": 8672,
  "shǐ shàng ": 8673,
  "guǎng chǎng": 8674,
  " shí yàn shì ": 8675,
  " sī lìng bù ": 8676,
  " kǎi": 8677,
  "shǐ rén ": 8678,
  "bì de ": 8679,
  "mài kè ": 8680,
  " dì liù ": 8681,
  "wàng yuǎn ": 8682,
  "   I": 8683,
  "   yuè ": 8684,
  "xī dì ": 8685,
  "xiū dào ": 8686,
  "hún ": 8687,
  " dà gōng ": 8688,
  " fù jìn de ": 8689,
  "sì de ": 8690,
  "céng yú ": 8691,
  "shǒu dū": 8692,
  "gé lí ": 8693,
  "shào nǚ ": 8694,
  " zú ": 8695,
  "   Re": 8696,
  "   2009": 8697,
  "yú hé ": 8698,
  "jiāng yú ": 8699,
  "dōng jīng": 8700,
  "zhuān yè": 8701,
  "   In": 8702,
  "dì hé ": 8703,
  "dù hé ": 8704,
  "yán zhì ": 8705,
  "fàng zài ": 8706,
  " jí shǐ ": 8707,
  "jiān yù ": 8708,
  "miǎn fèi ": 8709,
  "jiǎo dù ": 8710,
  "zuǒ yì ": 8711,
  " chéng běn ": 8712,
  "wéi zhǔ ": 8713,
  "děng děng ": 8714,
  "fǎn huí": 8715,
  " dǎng ": 8716,
  "1948 nián ": 8717,
  "bèi chēng wéi ": 8718,
  " xíng dòng": 8719,
  "cǎi qǔ": 8720,
  "guǎn lǐ jú ": 8721,
  "zī běn ": 8722,
  "tái běi shì ": 8723,
  "1975 nián ": 8724,
  " yuè duì ": 8725,
  " shè yú ": 8726,
  " jūn qū ": 8727,
  "bì miǎn": 8728,
  "kōng jiān": 8729,
  "xíng tài ": 8730,
  " xiè": 8731,
  "   dāng ": 8732,
  "shè bèi ": 8733,
  "xiāng shì ": 8734,
  "kǎ sī ": 8735,
  "cǎi fǎng": 8736,
  " xù ": 8737,
  "shān xiàn ": 8738,
  " ér fēi ": 8739,
  "gǎi shàn ": 8740,
  "fèi chú ": 8741,
  "lǐ lùn": 8742,
  "xī běi ": 8743,
  "zhèng fǔ de ": 8744,
  " shén": 8745,
  " 35": 8746,
  " jué dìng ": 8747,
  "shàng dì ": 8748,
  "dǎo shàng ": 8749,
  " zài hé ": 8750,
  " kè ěr ": 8751,
  " fèng ": 8752,
  "cǐ tóng shí ": 8753,
  "luò shān jī ": 8754,
  " 2002 nián ": 8755,
  "   sī ": 8756,
  "kāi gōng ": 8757,
  "tōng zhī ": 8758,
  "xiāng guān de ": 8759,
  "bō lí ": 8760,
  "jià shǐ ": 8761,
  " yǒng": 8762,
  " fēn bié ": 8763,
  " cài": 8764,
  "jiù yuán ": 8765,
  " pǔ": 8766,
  "   zhèng ": 8767,
  "cí de ": 8768,
  "1952 nián ": 8769,
  " dì yī cì": 8770,
  "7 rén ": 8771,
  "hé zài ": 8772,
  "yě huì ": 8773,
  " zhī shì ": 8774,
  "hǎi àn": 8775,
  "cí zhí ": 8776,
  "hěn kuài ": 8777,
  "shàng xiàn ": 8778,
  "kǒu de ": 8779,
  "wá ": 8780,
  " rén dà ": 8781,
  " yì jiàn ": 8782,
  "sī shì ": 8783,
  " wèi zài ": 8784,
  "xǐ huān ": 8785,
  " 60": 8786,
  "   bā ": 8787,
  "zhēng yuè ": 8788,
  "st ": 8789,
  "tì dài ": 8790,
  "chù zhǎng ": 8791,
  "chōng tū": 8792,
  " mì ": 8793,
  " kǎi ": 8794,
  "jiǔ de ": 8795,
  "qiáng zhì ": 8796,
  " shí xiàn": 8797,
  "jiān dū ": 8798,
  "yǐng shì ": 8799,
  "tí chū le ": 8800,
  "wài jiāo bù ": 8801,
  "   Ch": 8802,
  "xué zhōng ": 8803,
  "qiáng de ": 8804,
  "huài ": 8805,
  " gè guó ": 8806,
  "yǐn yòng ": 8807,
  "mín zhǔ dǎng": 8808,
  " suō ": 8809,
  "shān dì ": 8810,
  "jǐn yǒu ": 8811,
  "jì suàn": 8812,
  "fēng fù ": 8813,
  " zhǔ yǎn ": 8814,
  " fǎ": 8815,
  " léi": 8816,
  "nuó wēi": 8817,
  "   gù shì ": 8818,
  " sī mǎ ": 8819,
  " gè zhǒng": 8820,
  " hào xiàn": 8821,
  "z ": 8822,
  "zhǎng guān ": 8823,
  "zōng jiào": 8824,
  "xiǎo xíng xīng": 8825,
  " shí hòu ": 8826,
  "mò xī gē": 8827,
  "é guó ": 8828,
  "   fù ": 8829,
  " yǒu xiē": 8830,
  "pǔ biàn": 8831,
  "bù de cūn zhuāng ": 8832,
  "   yǐ xià": 8833,
  "2 gè ": 8834,
  " 26": 8835,
  " chuān ": 8836,
  "guǎn de ": 8837,
  "zàn zhù ": 8838,
  "yìn shuā": 8839,
  "cù jìn ": 8840,
  " yuè lái yuè ": 8841,
  "liú yù ": 8842,
  " pà ": 8843,
  "gǔ lǎo": 8844,
  "mǎ lái xī yà": 8845,
  "   wéi ": 8846,
  "tā zài ": 8847,
  "jiàng yǔ ": 8848,
  "liǎo jiě ": 8849,
  "jiā tíng ": 8850,
  " zú": 8851,
  " cǎi yòng ": 8852,
  "fù shì ": 8853,
  "liè chū ": 8854,
  " de jù ": 8855,
  " chéng xiàn": 8856,
  " zhī dì ": 8857,
  "jīng diǎn ": 8858,
  "chē xiāng ": 8859,
  " dàn bái ": 8860,
  "ā gēn ": 8861,
  "cè liáng ": 8862,
  " nǐ": 8863,
  "tiān hòu ": 8864,
  "yǔn shí ": 8865,
  " xiàn shàng ": 8866,
  "qiáng dù ": 8867,
  "sū wéi ": 8868,
  "guàn jūn": 8869,
  " bù shǎo": 8870,
  " zhī jiā ": 8871,
  "cān xuǎn ": 8872,
  " kè hé ": 8873,
  "liè rù ": 8874,
  "bì miǎn ": 8875,
  " xiāng dāng": 8877,
  "tóng xìng ": 8878,
  "tíng chē ": 8879,
  "zǎo shàng ": 8880,
  "1966 nián ": 8881,
  "zhǔ tí": 8882,
  "fā dòng jī ": 8883,
  "sēn lín": 8884,
  " fù zé guǎn xiá ": 8885,
  "   4": 8886,
  "ào ěr ": 8887,
  "lā de ": 8888,
  "míng dān ": 8889,
  "zhàn tái ": 8890,
  "V ": 8891,
  " kuān ": 8892,
  "guó shì ": 8893,
  "hū yù ": 8894,
  "kòu ": 8895,
  " gōng yìng ": 8896,
  "jiān rèn ": 8897,
  "xuǎn jǔ zhōng ": 8898,
  "   in   ": 8899,
  " bǎ ": 8900,
  " yī zhí ": 8901,
  "guān fāng": 8902,
  "suǒ yǒu de ": 8903,
  "jiàn zhù": 8904,
  "dī qì ": 8905,
  "N ": 8906,
  "cái liào": 8907,
  "   zēng zǔ ": 8908,
  "6 rén ": 8909,
  " mó": 8910,
  " kǎo ": 8911,
  "sāo ": 8912,
  "nán zi": 8913,
  "bó lín ": 8914,
  "jǐng gào ": 8915,
  "tǐ yù chǎng ": 8916,
  " jiē": 8917,
  "guǎng zhōu": 8918,
  "lā dé ": 8919,
  "shū chū ": 8920,
  "1937 nián ": 8921,
  " gōng néng": 8922,
  "lán xī ": 8923,
  "dùn de ": 8924,
  " bù mǎn ": 8925,
  " qiú de ": 8926,
  "yǐn rù ": 8927,
  "yín pái ": 8928,
  "yáo gǔn": 8929,
  "lián jiē": 8930,
  "zhào piān ": 8931,
  " ér gāi dì de ": 8932,
  " yè": 8933,
  "hái zài ": 8934,
  "nuó wēi ": 8935,
  " nián qīng ": 8936,
  "guó wáng ": 8937,
  " yǔ qí ": 8938,
  "qī zǐ": 8939,
  "chuàng zuò de ": 8940,
  " 29": 8941,
  " shùn": 8942,
  "   to   ": 8943,
  "xù lì yà": 8944,
  "ān zhuāng ": 8945,
  "zǎo qī de ": 8946,
  "shí hé ": 8947,
  "tú de ": 8948,
  "nù ": 8949,
  "yōu xiù": 8950,
  "mǒu xiē": 8951,
  "1946 nián ": 8952,
  "1974 nián ": 8953,
  " jì lù": 8954,
  " chū yǎn ": 8955,
  "zhī shí ": 8956,
  "qiú huì ": 8957,
  "céng de ": 8958,
  " bèi ěr": 8959,
  "zhàn dì ": 8960,
  "xià zài ": 8961,
  "zāo yù ": 8962,
  "Windows   ": 8963,
  " wèi néng": 8964,
  " jiā tíng": 8965,
  "xià lái ": 8966,
  "shēn qǐng": 8967,
  "zhàn shí ": 8968,
  " hé gǔ ": 8969,
  " chéng le ": 8970,
  " yǐ qián ": 8971,
  " jì yì ": 8972,
  " kè lì ": 8973,
  "gǔ lā ": 8974,
  "fēi xíng": 8975,
  "biān yuán ": 8976,
  "mò ěr ": 8977,
  "niáng ": 8978,
  "fā shēng de ": 8979,
  " xiāng tóng ": 8980,
  " yǐ sè liè ": 8981,
  "tè lì ": 8982,
  "1954 nián ": 8983,
  " shí bào ": 8984,
  "xīng qī": 8985,
  "4 gè ": 8986,
  " fǒu": 8987,
  "qián hòu ": 8988,
  "shān dōng shěng ": 8989,
  " zhāo hé ": 8990,
  "zǔ de ": 8991,
  "zhōng yāng ": 8992,
  " duì cǐ ": 8993,
  " zhǐ zài ": 8994,
  "   gài yào ": 8995,
  " sòng": 8996,
  " 2006": 8997,
  "   for": 8998,
  "duì yuán ": 8999,
  "sān dà ": 9000,
  " de zhǔ yào ": 9001,
  "shī qù ": 9002,
  "tài kōng ": 9003,
  " zì yóu": 9004,
  " qǐng ": 9005,
  " 2000 nián ": 9006,
  " jūn dì ": 9007,
  " shēng míng ": 9008,
  " wài": 9009,
  "zhà dàn ": 9010,
  "yú   ": 9011,
  "wǎng shàng ": 9012,
  "tǎ ěr ": 9013,
  " dì zhèn ": 9014,
  "xià jiàng ": 9015,
  " shǒu cì ": 9016,
  "lǐng dǎo de ": 9017,
  "yán jiū shēng ": 9018,
  "tè ěr ": 9019,
  " xiàn yǒu ": 9020,
  " yuán yīn": 9021,
  " 000 ": 9022,
  "wū sī ": 9023,
  "hǎo píng ": 9024,
  "pù ": 9025,
  "zhāi ": 9026,
  " zhōng jiān ": 9027,
  "pǔ chá ": 9028,
  "bǎo de ": 9029,
  "duō cì": 9030,
  " cái": 9031,
  " jí bìng ": 9032,
  "tóng míng ": 9033,
  "tè yǒu ": 9034,
  "biān wèi ": 9035,
  "bó jué ": 9036,
  " wēi lián ": 9037,
  " Ch": 9038,
  " guǎn ": 9039,
  " xiān hòu ": 9040,
  "mǐ de ": 9041,
  " xíng bù ": 9042,
  "qīn wáng ": 9043,
  "kuài sù": 9044,
  "cún de ": 9045,
  "diàn shì tái": 9046,
  "é luó sī de ": 9047,
  " guǎng dōng ": 9048,
  "qíng de ": 9049,
  " shì yī bù ": 9050,
  " xīn zēng ": 9051,
  "gǎi zhì wèi ": 9052,
  "huí guī ": 9053,
  "   dì yī ": 9054,
  "gǎng yuán ": 9055,
  "1955 nián ": 9056,
  "fèi yán ": 9057,
  " tuī ": 9058,
  "shī gōng ": 9059,
  "fěn sī ": 9060,
  "zhuì ": 9061,
  "zhǐ kòng ": 9062,
  "mì de ": 9063,
  "xūn ": 9064,
  "bēng ": 9065,
  "chē liàng": 9066,
  "zàn tíng ": 9067,
  "shēn shì ": 9068,
  "dá zhōu ": 9069,
  "yǐng xiàng ": 9070,
  "   de   ": 9071,
  "zài   ": 9072,
  "fāng mǐ ": 9073,
  " zì dòng ": 9074,
  " máo ": 9075,
  " de huà ": 9076,
  "dà qū ": 9077,
  "shěng jiē rǎng ": 9078,
  "sān rén ": 9079,
  "sān gè": 9080,
  "tè zhēng": 9081,
  " 45": 9082,
  "zhě hé ": 9083,
  " jié shù ": 9084,
  " zuì dà ": 9085,
  "wǔ gè ": 9086,
  " zhè yàng ": 9087,
  " jìn zhǐ ": 9088,
  "ruì diǎn ": 9089,
  " mài kè ": 9090,
  " 25": 9091,
  " bù yī ": 9092,
  " píng lùn ": 9093,
  "jìng nèi gòng yǒu ": 9094,
  "lù yì sī ": 9095,
  "sì shì ": 9096,
  "tài de ": 9097,
  "pèi bèi ": 9098,
  "zhǎn lǎn ": 9099,
  " shuǐ": 9100,
  "   jīn ": 9101,
  "yóu xíng ": 9102,
  " nián líng ": 9103,
  " shè huì zhǔ yì ": 9104,
  " guō": 9105,
  " shàn ": 9106,
  "zhě huì ": 9107,
  "huāng ": 9108,
  " shì yī kē ": 9109,
  " shuāng fāng ": 9110,
  " zài yì qǐ ": 9111,
  "shǐ yú ": 9112,
  "lā hé ": 9113,
  "huí guó ": 9114,
  " bù lái ": 9115,
  " shí xìng ": 9116,
  " jì zǎi": 9117,
  "xīn wén": 9118,
  "bǎo luó ": 9119,
  "jìng zhēng": 9120,
  " 200": 9121,
  "dāng nián ": 9122,
  " jí hòu ": 9123,
  "lǜ sè ": 9124,
  "cān shù ": 9125,
  " jiāng sū ": 9126,
  "wú xiàn diàn shì ": 9127,
  " chǔ ": 9128,
  " kě néng ": 9129,
  "shèng chū ": 9130,
  " dì zhì ": 9131,
  " zhì yí ": 9132,
  " xī ěr ": 9133,
  "fèi yòng ": 9134,
  "yìng jí ": 9135,
  " bèi pò ": 9136,
  "dù shǐ ": 9137,
  "chǎn shēng le ": 9138,
  "   2019 nián ": 9139,
  "mǎ kè sī ": 9140,
  "kū ": 9141,
  " guó jiā duì ": 9142,
  "tiě lù chē zhàn ": 9143,
  " dòng wù ": 9144,
  " hú nán ": 9145,
  " gōng qǐng ": 9146,
  " jiā zú": 9147,
  "wáng wèi ": 9148,
  "tuī jiàn ": 9149,
  "lián rèn ": 9150,
  "lèi xíng de ": 9151,
  "sǐ yú ": 9152,
  " tā céng ": 9153,
  "zhǎng zǐ ": 9154,
  "běi fāng ": 9155,
  "chuàng zào ": 9156,
  " céng rèn": 9157,
  "   3 ": 9158,
  "zhuō ": 9159,
  " gōng gòng": 9160,
  " dà dào": 9161,
  "fú luó lǐ ": 9162,
  "nóng cūn ": 9163,
  " shì zhōng huá rén mín gòng hé guó ": 9164,
  "yǐng xiǎng lì ": 9165,
  " de zuò biāo wèi ": 9166,
  "8 rén ": 9167,
  "O ": 9168,
  " zhòng": 9169,
  " 27": 9170,
  "10 nián ": 9171,
  "chōng jī ": 9172,
  "section   ": 9173,
  " shì huì ": 9174,
  "qún dǎo": 9175,
  " fǔ ": 9176,
  " 2022 nián ": 9177,
  "sān jí ": 9178,
  "yīng lǐ ": 9179,
  " zài xīn ": 9180,
  "tè diǎn ": 9181,
  "tiān rán ": 9182,
  "   jiā tíng ": 9183,
  " qiū ": 9184,
  "lǜ de ": 9185,
  " zài tā de ": 9186,
  "chū qī ": 9187,
  "fáng wū ": 9188,
  "shè huì": 9189,
  "v ": 9190,
  "jí bù ": 9191,
  "shēng zhì ": 9192,
  "fù jìn": 9193,
  "fāng xiàng": 9194,
  "tè lā ": 9195,
  "qīng cháo ": 9196,
  "jìng nèi": 9197,
  "gù dìng ": 9198,
  " shěn ": 9199,
  "   shǐ yòng ": 9200,
  "cóng wèi ": 9201,
  "biǎn ": 9202,
  " yī rén ": 9203,
  " dào hé ": 9204,
  "gāo dá ": 9205,
  " nǎi": 9206,
  " section   ": 9207,
  "xīn shì ": 9208,
  "zhōng yāng": 9209,
  " shí zhì ": 9210,
  " dào yī ": 9211,
  "qì xuán ": 9212,
  "gèng duō de ": 9213,
  "bān de ": 9214,
  "xuǎn chū ": 9216,
  "zòng ": 9217,
  "mā ": 9218,
  "wán zhěng ": 9219,
  " tiě ": 9220,
  "yí dào ": 9221,
  "shēng jī ": 9222,
  "guān cè ": 9223,
  " yě bù ": 9224,
  "qīng shào nián ": 9225,
  "1 gè ": 9226,
  " xǔ duō": 9227,
  "lí mǐ ": 9228,
  " shì jì de ": 9229,
  " yǒu dà ": 9230,
  " 2024": 9231,
  "jiā gōng ": 9232,
  "luò sī ": 9233,
  " shì yóu": 9234,
  "fù jìn de ": 9235,
  "měi guó rén ": 9236,
  " zhǐ shì ": 9237,
  "zhàng fū ": 9238,
  "xué bù ": 9239,
  " yǒu zhù ": 9240,
  " àn": 9241,
  "yì bù ": 9242,
  "1947 nián ": 9243,
  "guó huì ": 9244,
  "xī běi bù ": 9245,
  " tā rèn wéi ": 9246,
  "mù ní ": 9247,
  "qǔ xiāo": 9248,
  " tóng pái ": 9249,
  "kuò zhǎn": 9250,
  "sǐ xíng ": 9251,
  "qìng zhù ": 9252,
  "tiē ": 9253,
  " de gù shì ": 9254,
  "zhàn lǐng": 9255,
  " tóng yàng ": 9256,
  "   gēn jù 2020 nián měi guó rén kǒu pǔ chá de shù jù ": 9257,
  "zuì wèi ": 9258,
  "guó lì ": 9259,
  "nà cuì": 9260,
  "huáng sè ": 9261,
  "zēng jiā le ": 9262,
  " dēng ": 9263,
  "bìng wèi ": 9264,
  "hǎi shàng ": 9265,
  "guò yú ": 9266,
  "zhóu ": 9267,
  "fēn pèi ": 9268,
  " S ": 9269,
  "shàng hǎi shì ": 9270,
  " bāo hán ": 9271,
  "quán de ": 9272,
  "zǒng huì ": 9273,
  "huí hé ": 9274,
  "réng zài ": 9275,
  "lǎo shī ": 9276,
  "1973 nián ": 9277,
  " zài tā ": 9278,
  " yī zhì ": 9279,
  " chū fā ": 9280,
  "sè fū ": 9281,
  "xiāng jì ": 9282,
  "děng de ": 9283,
  "sì dà ": 9284,
  "qiè ěr ": 9285,
  "1971 nián ": 9286,
  "jīng jì": 9287,
  "lián jié ": 9288,
  "fáng wèi ": 9289,
  "50 ": 9290,
  " kuān": 9291,
  " 2003 nián ": 9292,
  " lì shǔ ": 9293,
  " bìng rù ": 9294,
  "bān jiǎng ": 9295,
  "xìng shì ": 9296,
  "duì shǒu ": 9297,
  "zhuān mén ": 9298,
  " de jì lù ": 9299,
  " kù": 9300,
  " jí xíng zhèng ": 9301,
  " lì zi ": 9302,
  " yě huì ": 9303,
  " ā lā ": 9304,
  "lái zì yú ": 9305,
  "ài de ": 9306,
  "shòu quán ": 9307,
  "piàn de ": 9308,
  "100 ": 9309,
  "1977 nián ": 9310,
  "9 rén ": 9311,
  " bái": 9312,
  "fú lǐ ": 9313,
  "jiǎng shù ": 9314,
  "zhào kāi": 9315,
  "xié dìng ": 9316,
  " 000 rén ": 9317,
  "wā ": 9318,
  "yī xiē ": 9319,
  " yǐ zhì ": 9320,
  "zhí yè": 9321,
  "hǎi bá gāo ": 9322,
  " xiāng duì ": 9323,
  "cān sài": 9324,
  "fàng qì": 9325,
  "cún zài de ": 9326,
  "fù jiā ": 9327,
  "zhuàng jī ": 9328,
  " jiàn kāng ": 9329,
  "hé wèi ": 9330,
  "dān yuán ": 9331,
  "shěng dào ": 9332,
  "láo gōng ": 9333,
  "hant ": 9334,
  "xī nán bù ": 9335,
  " kè yùn ": 9336,
  "mǎ lā ": 9337,
  "gǎi gé": 9338,
  "nán jí zhōu de ": 9339,
  "wǔ qì": 9340,
  "xiāo liàng ": 9341,
  "lèi sì de ": 9342,
  " 9 ": 9343,
  " hant ": 9344,
  "měi jūn ": 9345,
  "bā ěr ": 9346,
  "chuàng xīn ": 9347,
  "tuó ": 9348,
  "quǎn ": 9349,
  "qiǎo ": 9350,
  " yǒu guān": 9351,
  "zhèng xié ": 9352,
  " tā duì ": 9353,
  "shān mài ": 9354,
  " sì chuān ": 9355,
  "hōng zhà jī ": 9356,
  "   rán ér ": 9357,
  "cháng jiàn ": 9358,
  "chuán zhī ": 9359,
  " zhī zhàn ": 9360,
  "shǒu bō ": 9361,
  "xìng néng ": 9362,
  "yīng gāi": 9363,
  " xiǎo shuō ": 9364,
  "yī bù fèn": 9365,
  "fēi zhōu": 9366,
  " xiàn zhī xiàn ": 9367,
  "fā shēng le ": 9368,
  "shǔ de zhí wù ": 9369,
  "   dàn": 9370,
  "zhí zhì ": 9371,
  "diàn de ": 9372,
  "yào de ": 9373,
  "lòu ": 9374,
  "yán zhòng de ": 9375,
  "shā sǐ ": 9376,
  " lìng wài": 9377,
  "lǐ bù ": 9378,
  "mì sī ": 9379,
  " jiàn shì ": 9380,
  "suǒ shǔ": 9381,
  " chē zhàn": 9382,
  "tóu bù ": 9383,
  " yóu cǐ ": 9384,
  "zǔ zhǐ ": 9385,
  " dōng jīng ": 9386,
  "yùn dòng de ": 9387,
  " qiān": 9388,
  "xī shì ": 9389,
  "jiān shì ": 9390,
  "duì wǔ ": 9391,
  "zhǔ xí": 9392,
  "bāng zhù": 9393,
  " dōu": 9394,
  "jiāng tā ": 9395,
  "nà dé ": 9396,
  "nì ": 9397,
  "jiàng dī": 9398,
  " shì yì dà lì ": 9399,
  "huì yǐ ": 9400,
  "hēi rén ": 9401,
  "jī běn ": 9402,
  " zhī liú ": 9403,
  " shè jì de ": 9404,
  "shuài lǐng ": 9405,
  "tǔ ěr qí": 9406,
  "huì shì dì ": 9407,
  "huán xíng ": 9408,
  " zài yǔ ": 9409,
  " gōng lù": 9410,
  " dé dào le ": 9411,
  " 40": 9412,
  "bù fèn ": 9413,
  "ná pò ": 9414,
  "zhěng gè": 9415,
  "xiāng bǐ ": 9416,
  "cān tīng ": 9417,
  " shì yī zuò ": 9418,
  "zhōu biān ": 9419,
  " shì jiè bēi ": 9420,
  " mǎ lì ": 9421,
  "xià xiá yǐ xià": 9422,
  " xiàn jīn ": 9423,
  "háng tiān ": 9424,
  "W ": 9425,
  " lǐng ": 9426,
  "   3 yuè ": 9427,
  "shàng bù ": 9428,
  "zhǎng dà ": 9429,
  "luó dé ": 9430,
  " dà liàng": 9431,
  "shuāng dǎ ": 9432,
  " guān fāng ": 9433,
  " bào": 9434,
  "zì wèi ": 9435,
  "en   ": 9436,
  "yí chǎn": 9437,
  "yán shí ": 9438,
  " lì yòng": 9439,
  " xíng shǐ ": 9440,
  "gé ěr ": 9441,
  "zǒng cái ": 9442,
  " jǐ ": 9443,
  " nán zi ": 9444,
  " shēng zhǎng yú ": 9445,
  " huán ": 9446,
  " qín ": 9447,
  " xū yào ": 9448,
  "zhǐ de ": 9449,
  "se   ": 9450,
  "là ": 9451,
  " gōng chǐ": 9452,
  " qiú huì ": 9453,
  "chuán méi ": 9454,
  "   of   the   ": 9455,
  "hǎi bá gāo dù wèi ": 9456,
  "   2018 nián ": 9457,
  "jì zài ": 9458,
  "xīn rén ": 9459,
  "běn xiàn ": 9460,
  "cǐ shí ": 9461,
  "zhě wèi ": 9462,
  "nuò yī ": 9463,
  "th ": 9464,
  " hé lǐ ": 9465,
  " jí lín ": 9466,
  "xiāng tóng de ": 9467,
  " zhōng guó guó mín ": 9468,
  "   2007": 9469,
  "1962 nián ": 9470,
  " zhè shǒu ": 9471,
  "guāng xù ": 9472,
  "wǔ yuè ": 9473,
  "dān yī ": 9474,
  "bié de ": 9475,
  "yóu tài rén ": 9476,
  "yà mù ": 9477,
  " de chéng zhèn ": 9478,
  " bāo ": 9479,
  " liǎng gè ": 9480,
  "lā ěr ": 9481,
  "xún qiú ": 9482,
  " bù ěr ": 9483,
  " xíng xiàng ": 9484,
  " wéi chí ": 9485,
  "yǐn zhǒng ": 9486,
  " lèi ": 9487,
  "bú yào ": 9488,
  "shāng de ": 9489,
  "cōng ": 9490,
  " bù dí ": 9491,
  " yú lèi ": 9492,
  " p": 9493,
  " hán": 9494,
  "   5 yuè ": 9495,
  " zài gāi ": 9496,
  " guó mín": 9497,
  "yíng yè ": 9498,
  "qiān yuē ": 9499,
  "cān yù le ": 9500,
  " jiāng qí ": 9501,
  "wěi fù shū jì ": 9502,
  "wǔ dì ": 9503,
  "sī lán ": 9504,
  " kè lā ": 9505,
  "dǐ kàng ": 9506,
  "zhí yuán ": 9507,
  " yī liáo ": 9508,
  "qiān dìng ": 9509,
  " jiào yù": 9510,
  "é wèi ": 9511,
  " hé jí ": 9512,
  " yī cí ": 9513,
  "měi yuán de ": 9514,
  " qí zhōng nán xìng ": 9515,
  " liú yù ": 9516,
  "jiào yú ": 9517,
  "gē de ": 9518,
  "huái yí ": 9519,
  " wèi cǐ ": 9520,
  " dì miàn ": 9521,
  " dì 1 ": 9522,
  "tǐ yù": 9523,
  "céng shuǐ yù ": 9524,
  "róng nà ": 9525,
  " jié gòu ": 9526,
  "gǔ fèn yǒu xiàn gōng sī ": 9527,
  "zhuàn de xiǎo xíng xīng ": 9528,
  " hòu qī ": 9529,
  " kè lái ": 9530,
  "jiē rèn ": 9531,
  "zhǐ dìng ": 9532,
  "xiào yìng ": 9533,
  " guāng": 9534,
  " 12 ": 9535,
  "   píng jià ": 9536,
  "yóu qí ": 9537,
  "liáng shí ": 9538,
  " shì nèi ": 9539,
  "yuè nán ": 9540,
  "jìng sài ": 9541,
  " de dì èr": 9542,
  "mò sī kē ": 9543,
  "yóu rén gōng ": 9544,
  "zhǎng wèi ": 9545,
  "gē jù ": 9546,
  " shì xī ": 9547,
  " yī zhī ": 9548,
  " shè jī ": 9549,
  " jiàn lì le ": 9550,
  " hè": 9551,
  " wū kè lán ": 9552,
  "   chú le ": 9553,
  "cháo de ": 9554,
  "tuī chū de ": 9555,
  "ruǎn tǐ ": 9556,
  "1938 nián ": 9557,
  " nián qián ": 9558,
  "gǎn lǎn": 9559,
  "tuī guǎng ": 9560,
  " yōu ": 9561,
  "mén de ": 9562,
  " shí yòng ": 9563,
  " lǚ": 9564,
  "zhōng xīn ": 9565,
  " xì tǒng": 9566,
  " sú": 9567,
  " zhuān jí ": 9568,
  "shù shì ": 9569,
  " jiàn wèi ": 9570,
  "bā lā ": 9571,
  " cháo xiān ": 9572,
  " qǐng": 9573,
  " ěr dé": 9574,
  "shuò shì xué wèi ": 9575,
  "yùn hé ": 9576,
  "yáng xiàn ": 9577,
  "wéi zhǐ ": 9578,
  "huá shèng dùn": 9579,
  " 11 ": 9580,
  "zhī yuán ": 9581,
  "gè dì ": 9582,
  "biān hào wèi ": 9583,
  " zhì zào": 9584,
  " yī tiáo ": 9585,
  "kāi zhǎn ": 9586,
  "fǎ tíng ": 9587,
  " qiú chǎng ": 9588,
  "qún tǐ ": 9589,
  "le yī xiē ": 9590,
  " gōng chéng shī ": 9591,
  " tōng guò": 9592,
  "wù zhōng ": 9593,
  "méng jūn ": 9594,
  "1939 nián ": 9595,
  "luó bó tè ": 9596,
  "zǒng jiān ": 9597,
  " zài dì èr ": 9598,
  "píng jūn hǎi bá gāo dù wèi ": 9599,
  " mǎn": 9600,
  " chéng shì ": 9601,
  "   jīng jì ": 9602,
  "zhí lì ": 9603,
  " wèi míng ": 9604,
  " wèi yú zhōng huá rén mín gòng hé guó ": 9605,
  "lí zi ": 9606,
  " rén mín bì ": 9607,
  "dū dū ": 9608,
  "5 mǐ ": 9609,
  "1965 nián ": 9610,
  " xī yǐn ": 9611,
  "běn tǔ ": 9612,
  "jiǎn dān ": 9613,
  "dēng cháng ": 9614,
  "yáng gōng ": 9615,
  "1936 nián ": 9616,
  " yǒu lì ": 9617,
  " tā yě": 9618,
  " ér gāi dì de píng jūn hǎi bá gāo dù wèi ": 9619,
  " wū": 9620,
  "ā ěr": 9621,
  "qǐ le ": 9622,
  "shī rén ": 9623,
  "fēng de ": 9624,
  "ní xī yà ": 9625,
  "cù jìn": 9626,
  "hǎn mò": 9627,
  "1959 nián ": 9628,
  " zài rì běn ": 9629,
  "gōng kāi ": 9630,
  "lù zhàn ": 9631,
  "jiē shōu ": 9632,
  "   tiān ": 9633,
  "lì zhōng ": 9634,
  "zú qiú duì ": 9635,
  "2010 nián měi guó rén kǒu pǔ chá de shù jù ": 9636,
  "jī shì ": 9637,
  "chū dào ": 9638,
  "yǎn chū": 9639,
  "yìng duì ": 9640,
  "xué xí": 9641,
  " zhī qián": 9642,
  "fǎ lán ": 9643,
  "yǐn zhǒng zāi péi ": 9644,
  " sà": 9645,
  " yún nán ": 9646,
  " dà qiáo ": 9647,
  "miàn lín ": 9648,
  "xún huán ": 9649,
  "huàn zhě ": 9650,
  " wán chéng ": 9651,
  "chū rèn ": 9652,
  "shuō shì ": 9653,
  "bo ": 9654,
  " jí shǐ": 9655,
  "rù qīn": 9656,
  "shěng wěi ": 9657,
  " xīn zēng": 9658,
  "zhuāng jiǎ": 9659,
  " zhǐ chū ": 9660,
  "shěn chá ": 9661,
  "fēi lǜ bīn": 9662,
  "kǎ luó lái ": 9663,
  " pái ": 9664,
  "yuán dì ": 9665,
  "liè shì ": 9666,
  "shēn shàng ": 9667,
  "1967 nián ": 9668,
  "1935 nián ": 9669,
  "km ": 9670,
  " zài běi ": 9671,
  "wéi ěr": 9672,
  " xī xī ": 9673,
  "hěn duō": 9674,
  "pǐ ": 9675,
  "zhěng hé ": 9676,
  "jī bǎi ": 9677,
  " jī yīn ": 9678,
  "dòng huà": 9679,
  "zhǎng yuē ": 9680,
  "suǒ chù de hǎi bá wèi gāo yú hǎi píng miàn ": 9681,
  "nà xiē ": 9682,
  "chuán bō": 9683,
  "gǎng kǒu ": 9684,
  "zhǎn kāi": 9685,
  "yóu rén gōng yǐn zhǒng zāi péi ": 9686,
  " zhěng ": 9687,
  " shèn ": 9688,
  "qíng xíng ": 9689,
  "tōng xùn ": 9690,
  "qíng xù ": 9691,
  "yǒng jiǔ ": 9692,
  "rè dài fēng bào ": 9693,
  " pài ": 9694,
  " xǔ ": 9695,
  "tāi ": 9696,
  "jū mín diǎn ": 9697,
  "jì jí ": 9698,
  "cì wèi ": 9699,
  " zhī fǔ ": 9700,
  " shè huì": 9701,
  " hàn zú ": 9702,
  "   2017 nián ": 9703,
  "yǔ shì ": 9704,
  "dòng gōng ": 9705,
  "lǔ kè ": 9706,
  " bù jiā ": 9707,
  " yǐ shàng de ": 9708,
  " yǔ cǐ tóng shí ": 9709,
  "mǐ yà ": 9710,
  " zhǔ chí ": 9711,
  " suí zhe": 9712,
  "fēn bié wèi ": 9713,
  "xīn jiā pō ": 9714,
  " tuán ": 9715,
  " ōu zhōu ": 9716,
  "sì míng ": 9717,
  "bīng bù ": 9718,
  " de yī xiē ": 9719,
  "dǐ dá": 9720,
  " sū lián ": 9721,
  "liǎo jiě": 9722,
  "zhǐ yú ": 9723,
  "guài ": 9724,
  "gǒng ": 9725,
  "zǔ chéng": 9726,
  "gào sù ": 9727,
  "fā zhǎn de ": 9728,
  "yǐ hòu ": 9729,
  "duì hé ": 9730,
  "gé lì ": 9731,
  "dēng jì ": 9732,
  " sī kǎ ": 9733,
  "jù qíng ": 9734,
  " wéi yà ": 9735,
  " zhōng guó dà lù de ": 9736,
  "xià xiá yǐ xià dì qū ": 9737,
  "   jì ": 9738,
  "chū shēng ": 9739,
  "liú de ": 9740,
  "yǎn shēng ": 9741,
  "dà shǐ ": 9742,
  " xī ān ": 9743,
  "fēi fǎ ": 9744,
  "cè liáng": 9745,
  " jiào shòu ": 9746,
  "chuàng bàn ": 9747,
  "bái zhì ": 9748,
  " zhì liáo": 9749,
  "shǒu xí ": 9750,
  "jiè shào": 9751,
  "zhuàng kuàng": 9752,
  " bì yè yú ": 9753,
  " ào dà lì ": 9754,
  "xún yáng jiàn ": 9755,
  "fēn zhī yī ": 9756,
  "wén huà de ": 9757,
  "guī fàn ": 9758,
  "   2016 nián ": 9759,
  "kōng jūn": 9760,
  "shùn shí ": 9761,
  "1963 nián ": 9762,
  " bù biàn ": 9763,
  " chū xí ": 9764,
  "tú xiàng ": 9765,
  "wēi xiǎn ": 9766,
  " zhè bù ": 9767,
  " nián 7 yuè 1 rì ": 9768,
  "wèn tí de ": 9769,
  " jìn shì chū shēn ": 9770,
  "māo ": 9771,
  " zhì shǎo": 9772,
  " xiàn rù ": 9773,
  "nán fāng ": 9774,
  " bèi qí ": 9775,
  " qí zhōng nán ": 9776,
  "máo zé dōng ": 9777,
  " tāng": 9778,
  " gài ": 9779,
  "zi hé ": 9780,
  "dá ěr ": 9781,
  "lǔ shì ": 9782,
  " bù zhì ": 9783,
  " dì sī ": 9784,
  "zī shěng ": 9785,
  "pín lǜ ": 9786,
  " ー": 9787,
  "   10 yuè ": 9788,
  "yù jì ": 9789,
  "hǎn ": 9790,
  " zhōng zuì ": 9791,
  " jì niàn": 9792,
  "pàn jué ": 9793,
  "gòng chǎn zhǔ yì ": 9794,
  " yǐ sè liè": 9795,
  "   běi ": 9796,
  "duō gè": 9797,
  "qǔ jiā ": 9798,
  "liǔ ": 9799,
  "1953 nián ": 9800,
  "jú jú zhǎng ": 9801,
  "f ": 9802,
  "fán zhí ": 9803,
  "gān sù ": 9804,
  " 15 ": 9805,
  " dān rèn": 9806,
  "zì xíng chē ": 9807,
  " 2005": 9808,
  "miáo huì ": 9809,
  " yī méi ": 9810,
  "fēn lèi": 9811,
  " píng jià ": 9812,
  "duō yàng ": 9813,
  " nán běi ": 9814,
  "shào jiàng ": 9815,
  "fēi lì ": 9816,
  " sī xiǎng ": 9817,
  "yán zhòng": 9818,
  "dāng jú ": 9819,
  " shì zhōng xīn ": 9820,
  "   lìng wài ": 9821,
  "hòu shì ": 9822,
  "zhù dì ": 9823,
  "yǐn shí ": 9824,
  " shì wū kè lán": 9825,
  "zhǔ chǎng ": 9826,
  "àn zhào ": 9827,
  " gōng zuò shì ": 9828,
  "cān móu zhǎng ": 9829,
  "xiàng xī ": 9830,
  "èr zhàn ": 9831,
  "1969 nián ": 9832,
  " chéng shì de ": 9833,
  " zhī jì ": 9834,
  " dà jiā ": 9835,
  " míng chēng": 9836,
  " tóng yī ": 9837,
  "jiāo huàn ": 9838,
  "gǎi shàn": 9839,
  " hé bìng wèi ": 9840,
  " 80": 9841,
  " chūn ": 9842,
  "yǔ yǐ ": 9843,
  "zé yǒu ": 9844,
  "luò de ": 9845,
  "líng de ": 9846,
  "kē fū": 9847,
  "dāng xuǎn": 9848,
  " gōng kāi sài ": 9849,
  "hōng zhà ": 9850,
  " jǐ": 9851,
  "   zhù ": 9852,
  " fēn bié wèi ": 9853,
  " Y": 9854,
  "zhè bù ": 9855,
  "bǎo zhèng ": 9856,
  "xuē ": 9857,
  "1941 nián ": 9858,
  " yú dì ": 9859,
  "rù xuǎn": 9860,
  "shāng wáng ": 9861,
  "biān jìng ": 9862,
  "āi nà ": 9863,
  "cì dà ": 9864,
  "shēn zhèn": 9865,
  "chū shēng yú ": 9866,
  "suì shí ": 9867,
  " dì guó de ": 9868,
  "bǎo cún ": 9869,
  "bào zhǐ ": 9870,
  "gǎi biān ": 9871,
  "guǎng gào": 9872,
  "zēng qiáng ": 9873,
  "qún de ": 9874,
  " zài jī ": 9875,
  " jiàn hé ": 9876,
  " Re": 9877,
  "jī bù ": 9878,
  "zhī míng ": 9879,
  "rù de ": 9880,
  "guó nèi ": 9881,
  " gōng zhàn ": 9882,
  " yǐ nán ": 9883,
  "xiàn fǎ ": 9884,
  "zǐ nǚ ": 9885,
  "wú rén jī ": 9886,
  "chuí ": 9887,
  "chuàn ": 9888,
  " xíng chéng de ": 9889,
  "qū fēn ": 9890,
  "bā fá": 9891,
  "bàn yǎn ": 9892,
  " 1998 nián ": 9893,
  "cǐ zhī wài ": 9894,
  "sī xiǎng ": 9895,
  " dà shī ": 9896,
  " chū xiàn le ": 9897,
  "miáo shù": 9898,
  " de míng zì ": 9899,
  "wài wéi ": 9900,
  "bǎi nián ": 9901,
  "ce ": 9902,
  " dàn yīn ": 9903,
  "shā hài ": 9904,
  " xiá ": 9905,
  "xià de yí gè ": 9906,
  "huò shì ": 9907,
  " dà zhòng ": 9908,
  "shòu hài ": 9909,
  "yīng guó de ": 9910,
  " fēn bié shì ": 9911,
  "zhǐ huī guān ": 9912,
  "wén zhōng ": 9913,
  "bō ěr ": 9914,
  " yuè tái": 9915,
  " nán jīng ": 9916,
  "bìng méi yǒu ": 9917,
  "jiào yù bù ": 9918,
  " bǔ ": 9919,
  " rè ": 9920,
  "gòng shí ": 9921,
  " wèi yóu ": 9922,
  "fǎ lìng ": 9923,
  "miàn tǐ ": 9924,
  "cái wù ": 9925,
  "yán jiū yuàn ": 9926,
  "bàn nián ": 9927,
  " yuán shǐ ": 9928,
  " ěr zài ": 9929,
  "jǐng guān ": 9930,
  " nèi": 9931,
  " niǔ yuē": 9932,
  "céng shì ": 9933,
  "nuò sī ": 9934,
  "1980 nián dài ": 9935,
  " de xiǎo ": 9936,
  " shēng zhǎng yú hǎi bá": 9937,
  "mǎ tóu ": 9938,
  "zhǎn lǎn": 9939,
  " gǎi wéi ": 9940,
  "   2006": 9941,
  "shèng dì ": 9942,
  " dào shì ": 9943,
  " dà xíng": 9944,
  "jīng yíng": 9945,
  " piàn ": 9946,
  " yàn ": 9947,
  " péi ": 9948,
  "   16": 9949,
  "gāo yuán ": 9950,
  "chēng hào ": 9951,
  "táo yuán ": 9952,
  " zài yīng guó ": 9953,
  "hòu lái ": 9954,
  " zhè yàng de ": 9955,
  "pàn luàn ": 9956,
  " piào ": 9957,
  " níng ": 9958,
  "diǎn wèi ": 9959,
  " wèi bèi ": 9960,
  " hé fǎ ": 9961,
  " yì si": 9962,
  " píng lùn": 9963,
  " shàng shū ": 9964,
  "háng yè ": 9965,
  " xīn jiā ": 9966,
  " 1990": 9967,
  "mǎ de ": 9968,
  "qíng jié ": 9969,
  " mù qián shàng wèi ": 9970,
  " 2000": 9971,
  "tū chū ": 9972,
  " dào bù ": 9973,
  "píng mín ": 9974,
  "guān fèi yán ": 9975,
  " mǐ de dì qū ": 9976,
  " kōng ": 9977,
  " yì míng ": 9978,
  " yǐ shì ": 9979,
  " zuò chū": 9980,
  " xiàn de yí gè fēi jiàn zhì dì qū ": 9981,
  "ài guó ": 9982,
  "shàng yī ": 9983,
  "1961 nián ": 9984,
  " yì jí ": 9985,
  "tiān huáng ": 9986,
  "fáng zhǐ ": 9987,
  "dòu zhēng ": 9988,
  "wù zhǒng de ": 9989,
  " hé tā de ": 9990,
  "jīng guò": 9991,
  "jiào shòu": 9992,
  " 20 ": 9993,
  "luó jí ": 9994,
  "hóng jūn ": 9995,
  "31 ": 9996,
  "kā fēi ": 9997,
  "1957 nián ": 9998,
  " yǔ dà ": 9999,
  " rèn mìng": 10000,
  "sāi nà ": 10001,
  "lái sī ": 10002,
  "hǎo yǒu ": 10003,
  "shǐ yòng le ": 10004,
  " zhōng gòng zhōng yāng": 10005,
  "miàn shì ": 10006,
  "tiān jiā ": 10007,
  "chóu bèi ": 10008,
  "zuò chū": 10009,
  "cháng qī": 10010,
  "lǐng yù": 10011,
  "yuán zhōng ": 10012,
  " yuán zé ": 10013,
  "dōng ní ": 10014,
  "xiǎng fǎ ": 10015,
  "pǐn pái": 10016,
  "mìng lìng": 10017,
  "ní de ": 10018,
  " zhī chù ": 10019,
  "dài lái ": 10020,
  " dāng xuǎn": 10021,
  " mín": 10022,
  "fú ěr ": 10023,
  "dìng zài ": 10024,
  "háng xiàn ": 10025,
  " jī dū jiào ": 10026,
  " tóng rì ": 10027,
  " xíng zhèng zhèn qū ": 10028,
  " yáo ": 10029,
  "   2021 nián ": 10030,
  " de lǐ ": 10031,
  " de xī ": 10032,
  " shì nán jí zhōu de ": 10033,
  " hé dào": 10034,
  " wéi": 10035,
  " tún": 10036,
  " 1999 nián ": 10037,
  "   suí ": 10038,
  "hēng ": 10039,
  " wèi qí ": 10040,
  "lì yòng ": 10041,
  " shí dài de ": 10042,
  " zuò biāo wèi ": 10043,
  "xìng bié ": 10044,
  "cháng jiāng ": 10045,
  "1944 nián ": 10046,
  " bù dé ": 10047,
  "qì tǐ ": 10048,
  "chǎn yè": 10049,
  " zuì chū": 10050,
  " dì èr cì ": 10051,
  "ào sī kǎ ": 10052,
  " chāo": 10053,
  " chù ": 10054,
  " niú ": 10055,
  "   zhàn ": 10056,
  "huì jí ": 10057,
  "zuò zhōng ": 10058,
  "pǐn zhì ": 10059,
  "bīn shì ": 10060,
  " gōng jīn ": 10061,
  "shī bài": 10062,
  "fú hào ": 10063,
  "   zhǔ yào ": 10064,
  "   The   ": 10065,
  "gē ěr ": 10066,
  "chēng wéi": 10067,
  "shè huì zhǔ yì ": 10068,
  "dàng àn ": 10069,
  "yíng dé le ": 10070,
  "   ér": 10071,
  " gōng zuò de ": 10072,
  " yǔ zhòu": 10073,
  "chǎng jǐng ": 10074,
  " zhè cì ": 10075,
  " nián 12 yuè 31 rì ": 10076,
  " fā": 10077,
  "zhàn zhì ": 10078,
  "zhàn jì ": 10079,
  "jiē jìn": 10080,
  "wǔ míng ": 10081,
  "chǎng shàng ": 10082,
  "dǐ zhì ": 10083,
  "shāng diàn ": 10084,
  "xiū gǎi": 10085,
  " céng zài ": 10086,
  " sān shí ": 10087,
  "niǎo lèi ": 10088,
  "lèi sì yú ": 10089,
  " zhǔ": 10090,
  " jiǎo ": 10091,
  "dōng xiàn ": 10092,
  " bù ěr": 10093,
  " zhì dìng ": 10094,
  "jīng jì xué ": 10095,
  " shòu dào ": 10096,
  " xióng ": 10097,
  "zhōng shì jì ": 10098,
  "yù dào ": 10099,
  "dòng yuán ": 10100,
  "kuò zhāng ": 10101,
  "nàn mín ": 10102,
  " míng zì ": 10103,
  "jiē chù": 10104,
  "rén mín dài biǎo dà huì ": 10105,
  "   duì yú ": 10106,
  "fēn chéng ": 10107,
  " jī xiè ": 10108,
  "jù fēng ": 10109,
  "liè rù": 10110,
  "yán jiū suǒ": 10111,
  "jiāng sū shěng ": 10112,
  " n ": 10113,
  "fú dé ": 10114,
  "yǐn lì ": 10115,
  " xiàn dài": 10116,
  "gǎn rǎn": 10117,
  "jiǎng de ": 10118,
  " zhōng shū ": 10119,
  " tā shuō ": 10120,
  "zhòng zhí ": 10121,
  " 1 yuè ": 10122,
  " xiōng ": 10123,
  "hòu xuǎn rén ": 10124,
  "yán shēn ": 10125,
  " dàn bù ": 10126,
  " wéi zhǐ ": 10127,
  "zhū lóng ": 10128,
  "mù sī lín ": 10129,
  " 23": 10130,
  " 36": 10131,
  "   kè ": 10132,
  "fāng chéng ": 10133,
  "chē dào ": 10134,
  "sū lǐ ": 10135,
  "shēng míng ": 10136,
  "hài é": 10137,
  " tài yáng ": 10138,
  " X": 10139,
  "   6 ": 10140,
  "zū jiè ": 10141,
  "guā ": 10142,
  " jiā jìng ": 10143,
  "zhù cè ": 10144,
  " yóu yǒng ": 10145,
  "děng zhí ": 10146,
  "bān fā ": 10147,
  " bìng qiě zài ": 10148,
  "rén wèi ": 10149,
  "duì yǒu ": 10150,
  "tǐ xíng ": 10151,
  "chèn ": 10152,
  "yē sū": 10153,
  "1951 nián ": 10154,
  " jī chǔ ": 10155,
  " chū shēn ": 10156,
  "bǎo cún": 10157,
  "gèng duō": 10158,
  "gòng hé guó de ": 10159,
  " wèi fú qí yú gāng": 10160,
  "lǎng dé ": 10161,
  "nú ": 10162,
  " chū rù kǒu ": 10163,
  "yán jiū yuán ": 10164,
  "xié tiáo": 10165,
  " shì dì yī ": 10166,
  " hù": 10167,
  " JR": 10168,
  "ài dé huá ": 10169,
  "xiàn shí ": 10170,
  "qǐ de ": 10171,
  "bān bù ": 10172,
  "háng zhōu ": 10173,
  "jiào zuò ": 10174,
  "zī zhù ": 10175,
  "nǚ yǎn yuán ": 10176,
  "lǐng xiù": 10177,
  "kǎo gǔ ": 10178,
  "miàn jī hé ": 10179,
  "zuì zǎo de ": 10180,
  "guī mó de ": 10181,
  " wēn": 10182,
  "shǐ zhōng ": 10183,
  "qì hé ": 10184,
  "chēng zhī wèi ": 10185,
  "pái dé zhǔ ": 10186,
  "bīng lì ": 10187,
  " jiā méng ": 10188,
  "fēn qū ": 10189,
  "tōng xìn ": 10190,
  "huǒ bàn ": 10191,
  "chè dǐ ": 10192,
  "jǐn biāo sài": 10193,
  "5 gè ": 10194,
  "xī yuán ": 10195,
  "chéng zài ": 10196,
  "quán xiàn ": 10197,
  "bài zhàn ": 10198,
  "réng yǒu ": 10199,
  " chéng xù": 10200,
  " jiàn yǒu ": 10201,
  "shǒu duàn ": 10202,
  "   6": 10203,
  "quán qiú": 10204,
  " zhōng fā xiàn ": 10205,
  "zú xié ": 10206,
  "miǎn diān ": 10207,
  "zú rén ": 10208,
  "zāo shòu ": 10209,
  "shǒu fǔ ": 10210,
  "mǎ lái ": 10211,
  " zhōng guó gòng chǎn dǎng": 10212,
  "jiāng shì ": 10213,
  "jú yú ": 10214,
  "es   ": 10215,
  " hé lán": 10216,
  " gāi dì de ": 10217,
  " gōng yuán qián ": 10218,
  " dì shí yī ": 10219,
  " qiū": 10220,
  "   fú ": 10221,
  "   2015 nián ": 10222,
  "yǐ shàng ": 10223,
  "hàn yǔ ": 10224,
  "32 ": 10225,
  "1930 nián ": 10226,
  " wèi zhōng guó ": 10227,
  "fēn lí ": 10228,
  " qiú yùn dòng yuán ": 10229,
  "ài qíng ": 10230,
  "tuì xiū": 10231,
  " lìng yì fāng miàn ": 10232,
  " bù dé bù ": 10233,
  " mù qián shàng wèi yóu rén gōng yǐn zhǒng zāi péi ": 10234,
  "jiān zhì ": 10235,
  "di ": 10236,
  "huá dà xué ": 10237,
  "jiāo chā ": 10238,
  "cái chǎn ": 10239,
  "wù lǐ xué ": 10240,
  "c   ": 10241,
  "   4 yuè ": 10242,
  "fēn wèi ": 10243,
  "tóu de ": 10244,
  "th   ": 10245,
  "1940 nián ": 10246,
  " zhè yě shì ": 10247,
  "bào zhà": 10248,
  "gǎn jué ": 10249,
  " fēn wéi ": 10250,
  " tòu guò ": 10251,
  "dá de ": 10252,
  "wǎng de ": 10253,
  "móu shā ": 10254,
  " zài gōng ": 10255,
  " jiàn zào": 10256,
  " yīn de ": 10257,
  "dǎo yǎn": 10258,
  " xī bān yá yǔ ": 10259,
  "àn zhōng ": 10260,
  "yuán shí ": 10261,
  "fǎ shì ": 10262,
  "jīn rì ": 10263,
  "lín sī ": 10264,
  "1931 nián ": 10265,
  "xué shēng": 10266,
  "kǎ luó lái nà": 10267,
  " yāo qiú": 10268,
  " jí yī ": 10269,
  " chū yī ": 10270,
  " suí zhe ": 10271,
  " rèn hé ": 10272,
  "jì yú ": 10273,
  "tè hé ": 10274,
  "ràng tā ": 10275,
  "ck ": 10276,
  "II ": 10277,
  "zhōng bù ": 10278,
  " dà yuē": 10279,
  "shēng tài ": 10280,
  "wěi yuán huì de ": 10281,
  " wén huà": 10282,
  " dāng xuǎn ": 10283,
  " zhì zuò rén ": 10284,
  "xià xiá de yí gè xiāng ": 10285,
  " 2025": 10287,
  "nán sī lā ": 10288,
  "tài hòu ": 10289,
  "gàn xiàn ": 10290,
  " shì nán ": 10291,
  "zú zì zhì ": 10292,
  "zi gōng sī ": 10293,
  "ar ": 10294,
  " yuè tuán": 10295,
  " yì diǎn ": 10296,
  "duì wài ": 10297,
  " huì bèi ": 10298,
  "yán cháng": 10299,
  "qǐ sù ": 10300,
  "zhòng diǎn": 10301,
  "shuǐ kù ": 10302,
  " D ": 10303,
  " mǎ lái xī yà ": 10304,
  " fēng": 10305,
  " 34": 10306,
  "tè jí ": 10307,
  "hàn zì ": 10308,
  "ta ": 10309,
  " shì xiāng gǎng ": 10310,
  "shēn zhèn ": 10311,
  "tí gōng de ": 10312,
  "xù shù ": 10313,
  " biǎo ": 10314,
  "mù shì ": 10315,
  " zài nán ": 10316,
  " hé tóng ": 10317,
  "shàng shù ": 10318,
  "wǔ hàn": 10319,
  "qiān shǔ": 10320,
  "   gè rén shēng huó ": 10321,
  "x   ": 10322,
  " kāng xī ": 10323,
  "jìn jí ": 10324,
  "fù zhì ": 10325,
  "cū ": 10326,
  " shì gè ": 10327,
  "dìng qī ": 10328,
  "sān cì ": 10329,
  "gǎi wéi": 10330,
  " hā ěr ": 10331,
  " jì suàn jī ": 10332,
  "   7 yuè ": 10334,
  "zhàn wèi ": 10335,
  "rù wéi ": 10336,
  "qì rén ": 10337,
  "xié dài ": 10338,
  "wò ěr ": 10339,
  "tàn suǒ ": 10340,
  "codice ": 10341,
  "bō fàng": 10342,
  "miáo shù wèi ": 10343,
  " dù": 10344,
  " dí": 10345,
  " fǎn duì ": 10346,
  "   dōng ": 10347,
  "ch ": 10348,
  "fù yǒu ": 10349,
  "měi rì ": 10350,
  "xiū sī ": 10351,
  "sǎo ": 10352,
  " chéng bǎo ": 10353,
  "duì xiàng ": 10354,
  " gè zì ": 10355,
  " de jī huì ": 10356,
  "   zhì zuò ": 10357,
  "shī hé ": 10358,
  "rěn ": 10359,
  "bēn ": 10360,
  " guó gōng ": 10361,
  " yuán yǒu ": 10362,
  " gè dà ": 10363,
  " kè lǐ sī ": 10364,
  "dòng chē ": 10365,
  "tái bì ": 10366,
  "zhǔ chí rén ": 10367,
  "k   ": 10368,
  "shù hé ": 10369,
  "jué le ": 10370,
  "er   ": 10371,
  "zhuǎn wéi ": 10372,
  "ed   ": 10373,
  " bù zhèng ": 10374,
  " lì kè ": 10375,
  " gōng kāi": 10376,
  "lù shàng ": 10377,
  "guī huà": 10378,
  "bān cì ": 10379,
  "mò sī kē": 10380,
  "fū fù ": 10381,
  "zhuàng bìng dú": 10382,
  "dǔ ": 10383,
  "1942 nián ": 10384,
  "mín jìn ": 10385,
  "   2020 nián ": 10386,
  "qí shì ": 10387,
  "shǒu bù ": 10388,
  "nà sī ": 10389,
  "háng zhàn ": 10390,
  "1933 nián ": 10391,
  "xì liè de ": 10392,
  "jiàn zào ": 10393,
  "tái wān de ": 10394,
  "pī píng": 10395,
  " 90": 10396,
  " gù shì ": 10397,
  "ān rén ": 10398,
  "   X": 10399,
  "jīng de ": 10400,
  "1928 nián ": 10401,
  " zhōng zhǐ ": 10402,
  "zhèng quán ": 10403,
  "qū jiān ": 10404,
  "   xiāng gǎng ": 10405,
  " chéng wéi yī ": 10406,
  " yǒu yī xiē ": 10407,
  "kuò zhǎn ": 10408,
  "jiù dú yú ": 10409,
  " cǎi ": 10410,
  "dōng de ": 10411,
  " guó yǔ ": 10412,
  "bā nèn": 10413,
  " xiāng dāng ": 10414,
  "fàn wéi": 10415,
  " guó mín dǎng ": 10416,
  " tǎ": 10417,
  "   4 ": 10418,
  "   2014 nián ": 10419,
  "bèi shì ": 10420,
  "kē ěr ": 10421,
  "wú ěr ": 10422,
  " nián nián ": 10423,
  "kāi mù ": 10424,
  "mín zhǔ": 10425,
  "zhè zhǒng": 10426,
  " zhàn lǐng ": 10427,
  "tiān táng ": 10428,
  "yí mín": 10429,
  "cè lüè ": 10430,
  "jiǎng zuì jiā ": 10431,
  "dú tè de ": 10432,
  "qiú duì": 10433,
  "zuǒ yòu": 10434,
  "   Co": 10435,
  "   lā ": 10436,
  "xiàn xiàng ": 10437,
  " huì shàng ": 10438,
  "fēng gé": 10439,
  "tóng yàng": 10440,
  " nà me": 10441,
  "huó dòng de ": 10442,
  " cí": 10443,
  " pí": 10444,
  "yìn xiàng ": 10445,
  " míng xīng ": 10446,
  "diàn chē ": 10447,
  " qián lóng ": 10448,
  " 38": 10449,
  " gōng bù ": 10450,
  " shǎn xī ": 10451,
  "   2010 nián ": 10452,
  "shū shì ": 10453,
  " zài yuán ": 10454,
  " dì 2 ": 10455,
  " rì qī ": 10456,
  "nèi méng gǔ ": 10457,
  "zhào piān": 10458,
  "xié shāng ": 10459,
  " huā": 10460,
  " 55": 10461,
  " dì bā ": 10462,
  " jí yǐ ": 10463,
  "fǔ zhù ": 10464,
  "lǐng xiān ": 10465,
  "   8 yuè ": 10466,
  "   suī rán ": 10467,
  "pǐn de ": 10468,
  " zhōu rén ": 10469,
  " yán jiū ": 10470,
  " láo ": 10471,
  "chuān yuè ": 10472,
  " qí bīng ": 10473,
  "jìn zhǐ ": 10474,
  " lú": 10475,
  " 75": 10476,
  "è ěr ": 10477,
  "lù yǔ ": 10478,
  "duō míng ": 10479,
  "jiū ": 10480,
  "jū yú ": 10481,
  "dà xué": 10482,
  " rì yì ": 10483,
  "xī wàng ": 10484,
  "shēng mìng ": 10485,
  "yóu tài ": 10486,
  "tè qū ": 10487,
  " bìng biǎo shì ": 10488,
  "zuì duō de ": 10489,
  " tè bié ": 10490,
  " ōu yuán ": 10491,
  "jiào kē ": 10492,
  " hé liú yù ": 10493,
  "chéng shí ": 10494,
  "gé sī ": 10495,
  " shì yuán ": 10496,
  "jù dà de ": 10497,
  "bǎo zhàng": 10498,
  "jiē wèi zhī ": 10499,
  " shì yí gè wèi yú měi guó ": 10500,
  "miàn jī hé rén kǒu ": 10501,
  "20 nián ": 10502,
  "fāng wèi ": 10503,
  "cǐ shì ": 10504,
  "1943 nián ": 10505,
  " tā jiāng ": 10506,
  "zǒng jīng lǐ ": 10507,
  "kǎ lā ": 10508,
  " tóng shí yě ": 10509,
  "mí nǐ ": 10510,
  " zhàn dì ": 10511,
  "cuī huǐ": 10512,
  " nóng ": 10513,
  " dōu shì ": 10514,
  "xiāng de ": 10515,
  "jiǎ jī ": 10516,
  "shàng xià ": 10517,
  "zhù zhái": 10518,
  "fēn lán ": 10519,
  "bàn yǎn": 10520,
  "tíng kào": 10521,
  "   mù qián ": 10522,
  "bō lì ": 10523,
  "30 nián ": 10524,
  "nú lì ": 10525,
  " guó wáng": 10526,
  " chū rèn": 10527,
  " jūn guān ": 10528,
  "huáng jīn": 10529,
  " qí zhōng yǒu ": 10530,
  " yīn cǐ zài ": 10531,
  "háng kōng gōng sī ": 10532,
  " gāi dì de miàn jī hé rén kǒu ": 10533,
  " gāi dì de miàn jī hé rén kǒu jiē wèi zhī ": 10534,
  " ma": 10535,
  " yuǎn ": 10536,
  " cài ": 10537,
  "   10": 10538,
  "yuè hé ": 10539,
  "qū jí ": 10540,
  "biān chéng ": 10541,
  "chái ": 10542,
  "rùn ": 10543,
  "biān mǎ ": 10544,
  "hàn lín ": 10545,
  " zhì lì yú ": 10546,
  " cūn ": 10547,
  "dài bǔ ": 10548,
  "gāo děng": 10549,
  "jiàn kāng ": 10550,
  "yí jì ": 10551,
  "zú yǐ ": 10552,
  "1912 nián ": 10553,
  " shí yuè ": 10554,
  " yī tiān ": 10555,
  "hè sè ": 10556,
  " huái": 10557,
  "fù yǔ ": 10558,
  "bǐ ěr ": 10559,
  "dān xīn ": 10560,
  "yīng jūn ": 10561,
  "guó fáng": 10562,
  " chū xiàn": 10563,
  " jiā rù le ": 10564,
  "huì yì shàng ": 10565,
  "cún zài yú ": 10566,
  " jī yú ": 10567,
  "diǎn xíng de ": 10568,
  "táng de ": 10569,
  "biāo jì ": 10570,
  "ce   ": 10571,
  " yī cháng ": 10572,
  " dé lì ": 10573,
  " dài lái ": 10574,
  " céng jīng ": 10575,
  " mèng ": 10576,
  "jù zhōng ": 10577,
  "sān wèi ": 10578,
  "jiù yǒu ": 10579,
  "tīng de ": 10580,
  "zhuàng de ": 10581,
  "jì xù": 10582,
  " kè luó ": 10583,
  " jìn jí ": 10584,
  "gāo jià ": 10585,
  "   wèi le ": 10586,
  "6 gè ": 10587,
  " 22": 10588,
  " 2004": 10589,
  " Mar": 10590,
  "ā jī ": 10591,
  "   9 yuè ": 10592,
  "   2012 nián ": 10593,
  "   2013 nián ": 10594,
  "xì jūn ": 10595,
  "mù zhì ": 10596,
  "fú shè ": 10597,
  " yì wài ": 10598,
  " dà guī mó ": 10599,
  "chǎn shēng": 10600,
  "shāng pǐn ": 10601,
  " zhǔ chí": 10602,
  "què bǎo ": 10603,
  "ruì diǎn": 10604,
  "chá lǐ ": 10605,
  "bō chū": 10606,
  "1929 nián ": 10607,
  " shǐ yòng": 10608,
  " de jì huà ": 10609,
  " guó mín dǎng": 10610,
  "jiǎn lì ": 10611,
  "gěi tā ": 10612,
  "yí zhǐ": 10613,
  "méng tè ": 10614,
  "duǎn zàn": 10615,
  " guó mín zhèng fǔ ": 10616,
  " zhǔ yào shì ": 10617,
  " shào ": 10618,
  "zěn ": 10619,
  " hé lì ": 10620,
  " shí jiān de ": 10621,
  "lù xù ": 10622,
  " xué xí": 10623,
  "jué sài zhōng ": 10624,
  " fēn bù zài ": 10625,
  "hēi lóng jiāng ": 10626,
  " 21": 10627,
  "jiā shì ": 10628,
  "píng jūn": 10629,
  "qián zài ": 10630,
  "duàn shí jiān ": 10631,
  " yǐ 1 ": 10632,
  " xī lǐ ": 10633,
  "fā huī": 10634,
  " wéi qí": 10635,
  "dān dǎ ": 10636,
  " zhǔ rèn ": 10637,
  " 70": 10638,
  " kě néng": 10639,
  "   qí zhōng ": 10640,
  "diào yú ": 10641,
  " chū shòu ": 10642,
  "fā yán rén ": 10643,
  "tíng yùn ": 10644,
  " kěn ": 10645,
  "fú zhōu ": 10646,
  "1927 nián ": 10647,
  "guān cè": 10648,
  "tǎ ní": 10649,
  "chuàng shǐ rén ": 10650,
  " kāi fā ": 10651,
  " háo ": 10652,
  " 1997 nián ": 10653,
  "shù rén ": 10654,
  "xù jí ": 10655,
  "jué yú ": 10656,
  "chuān guò ": 10657,
  "fù zhǔ xí ": 10658,
  " zhōu wéi ": 10659,
  " zǒng tǒng ": 10660,
  " de yuán yīn ": 10661,
  "zhōng hé ": 10662,
  "wù yǔ ": 10663,
  "wáng hòu ": 10664,
  " zhī chēng ": 10665,
  " dàn qí ": 10666,
  "qún zhòng ": 10667,
  " shì jiè de ": 10668,
  "tàn xiǎn": 10669,
  "ní yà de ": 10670,
  "   chē zhàn jié gòu ": 10671,
  " jiǎng": 10672,
  " qín": 10673,
  "xíng xiàng ": 10674,
  "shǐ dì ": 10675,
  "suàn fǎ ": 10676,
  "shù mù ": 10677,
  " ér lái ": 10678,
  " fù gài ": 10679,
  "què dìng": 10680,
  "gào sù": 10681,
  " nián dài chū ": 10682,
  "   p": 10683,
  "   cān kǎo ": 10684,
  "cì jī ": 10685,
  "1932 nián ": 10686,
  "yǒu guān ": 10687,
  "zhí bō ": 10688,
  "bǎn běn de ": 10689,
  "chuàng zuò": 10690,
  " chéng lì le ": 10691,
  "qù shì hòu ": 10692,
  "ào dà lì yà": 10693,
  " lán": 10694,
  "   De": 10695,
  "shén de ": 10696,
  "chóng fù ": 10697,
  "tuī xíng ": 10698,
  "duǒ ": 10699,
  " shì bèi ": 10700,
  " dào zhōng ": 10701,
  "hǎi yáng": 10702,
  "yīng chǐ ": 10703,
  "lǐng yù de ": 10704,
  " de dì yí gè ": 10705,
  "shī dì ": 10706,
  "zhǎn xiàn ": 10707,
  "son ": 10708,
  " yīn yuán ": 10709,
  " yīn qí ": 10710,
  "fú huà ": 10711,
  "jìng nèi de ": 10712,
  "gē cí ": 10713,
  " lián jiē ": 10714,
  " lù yì ": 10715,
  " dēng": 10716,
  " 46": 10717,
  "   8": 10718,
  "yù bèi ": 10719,
  "liè sī ": 10720,
  "dū huì ": 10721,
  "xī yà ": 10722,
  "zuì zǎo ": 10723,
  "wǔ dǎo ": 10724,
  "jìng wài ": 10725,
  " zǐ ": 10726,
  "   6 yuè ": 10727,
  "duō yuán ": 10728,
  "zhě rèn wéi ": 10729,
  "sòng dào ": 10730,
  " dà qiáo": 10731,
  " tā hái": 10732,
  "zhù zhái ": 10733,
  "é hài é": 10734,
  " lián méng ": 10735,
  "guó jiā duì ": 10736,
  "zhè jiāng shěng ": 10737,
  " xuán ": 10738,
  "zhī dào ": 10739,
  "xiǎng de ": 10740,
  " xíng yú ": 10741,
  " yǐ lái": 10742,
  " shēng chēng ": 10743,
  "shēn wáng ": 10744,
  "mì qiè": 10745,
  "fǎn duì": 10746,
  "tàn cè ": 10747,
  "ān shì ": 10748,
  "duān de ": 10749,
  " dì zhōng ": 10750,
  " rén cì ": 10751,
  " jí ěr ": 10752,
  "jīng yóu ": 10753,
  " sǐ ": 10754,
  "jǐ hé ": 10755,
  "1934 nián ": 10756,
  " yī tóng": 10757,
  "cái zhèng": 10758,
  "fáng jiān ": 10759,
  "mǎn zú": 10760,
  " 150": 10761,
  " dòu ": 10762,
  "jìn xíng de ": 10763,
  " ěr yǔ ": 10764,
  "tuán zhǎng ": 10765,
  "pái háng bǎng": 10766,
  " péng ": 10767,
  "hòu bù jiǔ ": 10768,
  "chū zhàn ": 10769,
  "fù bù zhǎng ": 10770,
  " lì shǔ": 10771,
  "lā tè ": 10772,
  "bā lè": 10773,
  "qiáng dà de ": 10774,
  " zēng ": 10775,
  " yī wèi ": 10776,
  "wǎng qiú": 10777,
  "kuò jiàn ": 10778,
  "chéng jì ": 10779,
  " jí sī ": 10780,
  " rì hòu ": 10781,
  " jiā sī ": 10782,
  " bìng yǒu ": 10783,
  "chǎng bǐ sài ": 10784,
  " yǎ": 10785,
  "   xiāng ": 10786,
  "zhàn zài ": 10787,
  " hé dōng ": 10788,
  "yī lì ": 10789,
  "kē fū ": 10790,
  "tóu xián ": 10791,
  " shǒu cì": 10792,
  " M ": 10793,
  "   gēn jù": 10794,
  "ch   ": 10795,
  " xué huì ": 10796,
  "   cǐ": 10797,
  "   2011 nián ": 10798,
  "qī shì ": 10799,
  "fēn de ": 10800,
  "shuō de ": 10801,
  "zhēn zhèng ": 10802,
  " rì yǔ ": 10803,
  " qí tā de ": 10804,
  "zhí wù": 10805,
  "cháng wěi huì ": 10806,
  "bàn dǎo": 10807,
  "háng bān ": 10808,
  "wán chéng le ": 10809,
  " é luó ": 10810,
  " dūn ": 10811,
  "àn shì ": 10812,
  "   rì běn ": 10813,
  "   jiàn zhù ": 10814,
  "dī de ": 10815,
  "zá de ": 10816,
  "1924 nián ": 10817,
  " zhōng duì ": 10818,
  "dà liàng ": 10819,
  "zhàn lüè ": 10820,
  "sài guàn jūn ": 10821,
  "shōu lù": 10822,
  " guān zhì ": 10823,
  "   5": 10824,
  "dìng lǐ ": 10825,
  "xiào shè ": 10826,
  "xiě le ": 10827,
  " jí jiāng ": 10828,
  "pǔ tōng": 10829,
  "guī zé": 10830,
  " guó jì jī chǎng ": 10831,
  "   gēn jù 2010 nián měi guó rén kǒu pǔ chá de shù jù ": 10832,
  " i": 10833,
  " ruǎn": 10834,
  " 2003": 10835,
  " 180": 10836,
  "bā shí ": 10837,
  "shěng zhèng fǔ ": 10838,
  "bǎo wèi ": 10839,
  " zài xiàn ": 10840,
  "sān zhǒng ": 10841,
  "chè tuì ": 10842,
  " Q": 10843,
  "   gāo ": 10844,
  "rèn yì ": 10845,
  "xiáng xì ": 10846,
  "kuà ": 10847,
  "chuí zhí ": 10848,
  " chū xiàn de ": 10849,
  "xiǎo zǔ": 10850,
  "kē xué": 10851,
  "nuò màn ": 10852,
  " wǎn ": 10853,
  " hé jī ": 10854,
  " yī zhǒng": 10855,
  " xíng hé ": 10856,
  "hù dòng ": 10857,
  "dǎ suàn ": 10858,
  "chóng xīn": 10859,
  "xué shì xué wèi ": 10860,
  "bù wèi yú ": 10861,
  "xiào yǒu ": 10862,
  "zhāng de ": 10863,
  "dōu bù ": 10864,
  "zàng yú ": 10865,
  " hé nán shěng ": 10866,
  "hǎn mò dé ": 10867,
  " chuàng": 10868,
  " hēi": 10869,
  " miǎo ": 10870,
  "ā lǐ ": 10871,
  "   fǎ guó ": 10872,
  "dǎng jí ": 10873,
  " xiàn yǔ ": 10874,
  " yī lǎng": 10875,
  " xiàn zài de ": 10876,
  "xiāng hù ": 10877,
  " kè sà sī ": 10878,
  "cháo tíng ": 10879,
  "fáng kōng ": 10880,
  " qǔ": 10881,
  " zhāo ": 10882,
  "hòu tā ": 10883,
  "bǎi wàn ": 10884,
  "rén mín": 10885,
  "yán cháng ": 10886,
  "yōu xiù ": 10887,
  "tán pàn": 10888,
  " tīng ": 10889,
  "ā fù ": 10890,
  "zhēn yǔ ": 10891,
  " tā chéng wéi ": 10892,
  " zhōu hé ": 10893,
  "jié dù shǐ ": 10894,
  " rèn zhí ": 10895,
  "tiān qì ": 10896,
  " dāng nián ": 10897,
  "bàn fǎ ": 10898,
  "wū rǎn": 10899,
  "liú xué ": 10900,
  "gǎi míng ": 10901,
  " shì duì ": 10902,
  " zài qí": 10903,
  " bù jǐn": 10904,
  " dà chéng ": 10905,
  "bǎo zhàng ": 10906,
  " quán miàn ": 10907,
  "pàn chǔ ": 10908,
  " shì shì jiè": 10909,
  "mào xiǎn ": 10910,
  "lǐ shì huì ": 10911,
  " rén kǒu de ": 10912,
  "tú shū guǎn": 10913,
  " kuài ": 10914,
  " guì ": 10915,
  "ér tóng": 10916,
  "zǒng zhàn ": 10917,
  "sù shè ": 10918,
  "chuán qí ": 10919,
  "or ": 10920,
  "qù de ": 10921,
  "liǎn ": 10922,
  " shì zhèng fǔ ": 10923,
  " sī fǎ ": 10924,
  "fā bù de ": 10925,
  " bìng jiāng": 10926,
  "nà rù ": 10927,
  "kè yùn ": 10928,
  "qǔ dé le ": 10929,
  "   tóng": 10930,
  "běn bù ": 10931,
  "qián xiàn ": 10932,
  "cān yì yuán ": 10933,
  "cí huì ": 10934,
  "xǐng ": 10935,
  " zhī bù ": 10936,
  "hú pō ": 10937,
  "mìng míng de ": 10938,
  "zhuǎn yí ": 10939,
  " jiāng xī ": 10940,
  "rén dà dài biǎo ": 10941,
  "l   ": 10942,
  " shuāng": 10943,
  "qiān rén ": 10944,
  "liù gè ": 10945,
  "fǒu rèn ": 10946,
  "rèn zhí ": 10947,
  "mín zhòng": 10948,
  "wài guān ": 10949,
  "biān jiè": 10950,
  " R ": 10951,
  " 1992 nián ": 10952,
  "   chén ": 10953,
  "duō bù ": 10954,
  "sān yuè ": 10955,
  "dàng zuò ": 10956,
  " shì yàn ": 10957,
  "fāng chéng shì ": 10958,
  "dān mài": 10959,
  "yǎn zòu": 10960,
  "wǎng wǎng ": 10961,
  "dēng lù": 10962,
  " rì běn de ": 10963,
  "luó mǎ dì guó ": 10964,
  " xiàn de yí gè xíng zhèng zhèn qū ": 10965,
  "le dì ": 10966,
  "wéi rén ": 10967,
  "yǐng dài ": 10968,
  " wèi wèi ": 10969,
  " xiāng sì ": 10970,
  "mì dù ": 10971,
  "rén kǒu pǔ chá ": 10972,
  " wāng": 10973,
  " yùn ": 10974,
  "   12": 10975,
  "kuāng ": 10976,
  " jiàn zài ": 10977,
  " zhī hòu zài ": 10978,
  "fǎ guó de ": 10979,
  "liàng xiàng ": 10980,
  "rú guǒ": 10981,
  "xīng xì ": 10982,
  "shān xī shěng ": 10983,
  " 37": 10984,
  " 1994 nián ": 10985,
  "   yán gé ": 10986,
  "miǎn yì ": 10987,
  " bèi jǐng ": 10988,
  " quán de ": 10989,
  "huí guī": 10990,
  " tóng shí yě shì ": 10991,
  " qī jiān": 10992,
  " dà bù fèn": 10993,
  " shēng": 10994,
  "   2008 nián ": 10995,
  "   yǐ xià ": 10996,
  "tǐ jī ": 10997,
  "nà hé ": 10998,
  "13 nián ": 10999,
  " shì zhǐ": 11000,
  " yǐ 2 ": 11001,
  "zhè yàng de ": 11002,
  "gǎi chēng ": 11003,
  " dōng běi": 11004,
  " liú yù miàn jī ": 11005,
  "chuán dì ": 11006,
  "cūn de ": 11007,
  "kā ": 11008,
  " xiàn zhōng ": 11009,
  " dà fū ": 11010,
  " dàn de ": 11011,
  "wěi yuán huì zhǔ xí ": 11012,
[...]
