{
  "!": 0,
  "\"": 1,
  "#": 2,
  "$": 3,
  "%": 4,
  "&": 5,
  "'": 6,
  "(": 7,
  ")": 8,
  "*": 9,
  "+": 10,
  ",": 11,
  "-": 12,
  ".": 13,
  "/": 14,
  "0": 15,
  "1": 16,
  "2": 17,
  "3": 18,
  "4": 19,
  "5": 20,
  "6": 21,
  "7": 22,
  "8": 23,
  "9": 24,
  ":": 25,
  ";": 26,
  "=": 27,
  "?": 28,
  "@": 29,
  "A": 30,
  "B": 31,
  "C": 32,
  "D": 33,
  "E": 34,
  "F": 35,
  "G": 36,
  "H": 37,
  "I": 38,
  "J": 39,
  "K": 40,
  "L": 41,
  "M": 42,
  "N": 43,
  "O": 44,
  "P": 45,
  "Q": 46,
  "R": 47,
  "S": 48,
  "T": 49,
  "U": 50,
  "V": 51,
  "W": 52,
  "X": 53,
  "Y": 54,
  "Z": 55,
  "[": 56,
  "\\": 57,
  "]": 58,
  "^": 59,
  "_": 60,
  "`": 61,
  "a": 62,
  "b": 63,
  "c": 64,
  "d": 65,
  "e": 66,
  "f": 67,
  "g": 68,
  "h": 69,
  "i": 70,
  "j": 71,
  "k": 72,
  "l": 73,
  "m": 74,
  "n": 75,
  "o": 76,
  "p": 77,
  "q": 78,
  "r": 79,
  "s": 80,
  "t": 81,
  "u": 82,
  "v": 83,
  "w": 84,
  "x": 85,
  "y": 86,
  "z": 87,
  "|": 88,
  "~": 89,
  "\n": 162,
  " ": 163,
  "": 164,
  "�": 191,
  "ng": 199,
  "i4": 200,
  "an": 201,
  "sh": 202,
  "zh": 203,
  "ng1": 204,
  "ji": 205,
  "u4": 206,
  "ng2": 207,
  "  ": 208,
  "i2": 209,
  "ao": 210,
  "xi": 211,
  "ng4": 212,
  "an2": 213,
  "i3": 214,
  "i1": 215,
  "de": 216,
  "u3": 217,
  "an4": 218,
  "e4": 219,
  "en": 220,
  "ch": 221,
  "uo": 222,
  "u2": 223,
  "ng3": 224,
  "an1": 225,
  "e2": 226,
  "ai4": 227,
  "u1": 228,
  "   ": 229,
  "ong1": 230,
  "a1": 231,
  "shi4": 233,
  "ei4": 234,
  "ao4": 235,
  "ian2": 236,
  "a4": 237,
  "yu": 238,
  "ang1": 239,
  "yo": 240,
  "an3": 241,
  "n1": 242,
  "hu": 243,
  "ang4": 244,
  "nian2": 245,
  "en2": 246,
  "li": 247,
  "ang3": 248,
  "eng2": 249,
  "uo4": 250,
  "uo2": 251,
  "wei4": 252,
  "mi": 253,
  "ao3": 254,
  "zai4": 255,
  "、": 256,
  "bi": 257,
  "qi": 258,
  "ang2": 259,
  "e1": 260,
  "he2": 261,
  "yi": 262,
  "eng1": 263,
  "zhong1": 264,
  "er": 265,
  "bu4": 266,
  "ou4": 267,
  "a3": 268,
  "e3": 269,
  "n4": 270,
  "shi2": 271,
  "di4": 272,
  "guo2": 273,
  "ai2": 274,
  "ui4": 275,
  "ren2": 276,
  "ao1": 277,
  "xu": 278,
  "yi1": 279,
  "n2": 280,
  "ong2": 281,
  "yu2": 282,
  "gu": 283,
  "li4": 284,
  "zhi4": 285,
  "di": 286,
  "we": 287,
  "en4": 288,
  "cheng2": 289,
  "ong4": 290,
  "yi4": 291,
  "gong1": 292,
  "ji2": 293,
  "eng4": 294,
  "en1": 295,
  "yue4": 296,
  "you3": 297,
  "yuan2": 298,
  "da4": 299,
  "a2": 300,
  "le": 301,
  "ji4": 302,
  "20": 303,
  "yi3": 304,
  "ju": 305,
  "ai1": 306,
  "pi": 307,
  "xian4": 308,
  "ou1": 309,
  "jia1": 310,
  "si1": 311,
  "xing2": 312,
  "ei3": 313,
  "ti": 314,
  "yu3": 315,
  "ji1": 316,
  "ta1": 317,
  "ri4": 318,
  "zhi1": 319,
  "hou4": 320,
  "li3": 321,
  "ou3": 322,
  "ai3": 323,
  "wei2": 324,
  "hui4": 325,
  "dao4": 326,
  "19": 327,
  "ong3": 328,
  "qi2": 329,
  "uan2": 330,
  "zheng4": 331,
  "ming2": 332,
  "xi1": 333,
  "ao2": 334,
  "jian4": 335,
  "xue2": 336,
  "chu1": 337,
  "ge4": 338,
  "zuo4": 339,
  "uo1": 340,
  "sheng1": 341,
  "dui4": 342,
  "you2": 343,
  "uo3": 344,
  "qu1": 345,
  "shang4": 346,
  "en3": 347,
  "de2": 348,
  "bei4": 349,
  "shi3": 350,
  "zhu": 351,
  "zhan4": 352,
  "n3": 353,
  "xin1": 354,
  "jun1": 355,
  "er3": 356,
  "she4": 357,
  "ren4": 358,
  "fa1": 359,
  "wu4": 360,
  "bing4": 361,
  "ke4": 362,
  "er2": 363,
  "lu4": 364,
  "dai4": 365,
  "zhu3": 366,
  "yi2": 367,
  "shu4": 368,
  "ju4": 369,
  "jin4": 370,
  "zi4": 371,
  "yin1": 372,
  "fu4": 373,
  "fang1": 374,
  "jing1": 375,
  "nan2": 376,
  "hua4": 377,
  "zhou1": 378,
  "ping2": 379,
  "xia4": 380,
  "lai2": 381,
  "yong4": 382,
  "guan1": 383,
  "tong2": 384,
  "yu4": 385,
  "》": 386,
  "《": 387,
  "fa3": 388,
  "zhu4": 389,
  "mei3": 390,
  "·": 391,
  "jian1": 392,
  "bo": 393,
  "huo4": 394,
  "ben3": 395,
  "xiang1": 396,
  "zhi2": 397,
  "dong4": 398,
  "xiang4": 399,
  "min2": 400,
  "zhe4": 401,
  "jiang1": 402,
  "qi1": 403,
  "fen1": 404,
  "shou3": 405,
  "quan2": 406,
  "wen2": 407,
  "yan2": 408,
  "suo3": 409,
  "jiao4": 410,
  "qian2": 411,
  "dian4": 412,
  "te4": 413,
  "duo1": 414,
  "zui4": 415,
  "kai1": 416,
  "jie2": 417,
  "lian2": 418,
  "zhi3": 419,
  "xi4": 420,
  "ke3": 421,
  "eng3": 422,
  "ei1": 423,
  "dan4": 424,
  "mu4": 425,
  "ye4": 426,
  "du4": 427,
  "fu2": 428,
  "shu": 429,
  "ma3": 430,
  "ye3": 431,
  "dong1": 432,
  "qiu2": 433,
  "bei3": 434,
  "「": 435,
  "」": 436,
  "gao1": 437,
  "ya4": 438,
  "ou2": 439,
  "du": 440,
  "jie1": 441,
  "un2": 442,
  "mian4": 443,
  "hai3": 444,
  "zhang3": 445,
  "shi1": 446,
  "jin1": 447,
  "ci3": 448,
  "nei4": 449,
  "sai4": 450,
  "san1": 451,
  "tai2": 452,
  "ge2": 453,
  "xing4": 454,
  "guo4": 455,
  "201": 456,
  "deng3": 457,
  "yao4": 458,
  "che1": 459,
  "ci4": 460,
  "su": 461,
  "mo": 462,
  "ru4": 463,
  "wu3": 464,
  "gai1": 465,
  "ku": 466,
  "ding4": 467,
  "chang2": 468,
  "biao3": 469,
  "la1": 470,
  "ti3": 471,
  "gong4": 472,
  "jie4": 473,
  "shou4": 474,
  "dao3": 475,
  "shan1": 476,
  "chang3": 477,
  "si4": 478,
  "lv": 479,
  "ze2": 480,
  "ti2": 481,
  "ke1": 482,
  "dang1": 483,
  "neng2": 484,
  "er4": 485,
  "wai4": 486,
  "ei2": 487,
  "chu": 488,
  "dan1": 489,
  "qi3": 490,
  "zi": 491,
  "kou3": 492,
  "xiao3": 493,
  "zu3": 494,
  "ba1": 495,
  "jue2": 496,
  "lin2": 497,
  "liu2": 498,
  "ni": 499,
  "sheng3": 500,
  "ying1": 501,
  "lan2": 502,
  "bi3": 503,
  "luo2": 504,
  "tong1": 505,
  "200": 506,
  "zhong4": 507,
  "zhe3": 508,
  "shu3": 509,
  "tian1": 510,
  "zhen4": 511,
  "zhong3": 512,
  "lie4": 513,
  "qi4": 514,
  "cheng1": 515,
  "shu1": 516,
  "yuan4": 517,
  "bao3": 518,
  "tai4": 519,
  "fu3": 520,
  "feng1": 521,
  "mi3": 522,
  "qing1": 523,
  "shen1": 524,
  "wang2": 525,
  "yun4": 526,
  "guan3": 527,
  "fei1": 528,
  "jiu4": 529,
  "gu3": 530,
  "liang3": 531,
  "ceng2": 532,
  "mei2": 533,
  "10": 534,
  "fen4": 535,
  "hao4": 536,
  "yan3": 537,
  "wei3": 538,
  "zong3": 539,
  "xuan3": 540,
  "xiao4": 541,
  "da2": 542,
  "na4": 543,
  "liang4": 544,
  "bo1": 545,
  "zu2": 546,
  "jing4": 547,
  "bao4": 548,
  "ni2": 549,
  "wu2": 550,
  "tong3": 551,
  "hua2": 552,
  "jiao1": 553,
  "yue1": 554,
  "ying3": 555,
  "bian4": 556,
  "xing1": 557,
  "su4": 558,
  "shui3": 559,
  "yang2": 560,
  "men": 561,
  "bao1": 562,
  "ge1": 563,
  "bo2": 564,
  "can1": 565,
  "cong2": 566,
  "dian3": 567,
  "ru2": 568,
  "ban4": 569,
  "bi4": 570,
  "bian1": 571,
  "wang3": 572,
  "qu3": 573,
  "chan3": 574,
  "se4": 575,
  "zi1": 576,
  "qu": 577,
  "00": 578,
  "chuan2": 579,
  "nv": 580,
  "sheng4": 581,
  "ran2": 582,
  "tu2": 583,
  "zhang1": 584,
  "xu4": 585,
  "pu3": 586,
  "gai3": 587,
  "gang3": 588,
  "nv3": 589,
  "ling4": 590,
  "luo4": 591,
  "you4": 592,
  "tou2": 593,
  "hu4": 594,
  "cha2": 595,
  "ce4": 596,
  "chi2": 597,
  "18": 598,
  " de": 599,
  " de ": 600,
  "shi4 ": 601,
  " shi4 ": 602,
  " nian2": 603,
  " nian2 ": 604,
  "wei4 ": 605,
  "zai4 ": 606,
  "an4 ": 607,
  " wei4 ": 608,
  " zai4 ": 609,
  "an1 ": 610,
  "he2 ": 611,
  " h": 612,
  "zhong1 ": 613,
  "bu4 ": 614,
  " he2 ": 615,
  " xi": 616,
  "di4 ": 617,
  "an3 ": 618,
  "shi2 ": 619,
  "guo2 ": 620,
  "ren2 ": 621,
  "yu2 ": 622,
  " ji": 623,
  "u1 ": 624,
  " bu4 ": 625,
  " t": 626,
  " g": 627,
  " l": 628,
  "li4 ": 629,
  " zhong1 ": 630,
  "yi1 ": 631,
  "zhi4 ": 632,
  "gong1 ": 633,
  " yue4": 634,
  " ch": 635,
  " shi2 ": 636,
  " zh": 637,
  "cheng2 ": 638,
  " di4 ": 639,
  " yi4": 640,
  " you3": 641,
  " m": 642,
  " ji2": 643,
  " yue4 ": 644,
  " ren2 ": 645,
  " yu2 ": 646,
  " f": 647,
  " b": 648,
  " d": 649,
  " qi": 650,
  " zhi4 ": 651,
  " sh": 652,
  " w": 653,
  " li4 ": 654,
  " guo2 ": 655,
  " k": 656,
  " gong1 ": 657,
  " p": 658,
  " yi3": 659,
  " da4": 660,
  " yuan2": 661,
  "ji4 ": 662,
  "i2 ": 663,
  " xian4": 664,
  " cheng2 ": 665,
  " z": 666,
  " ri4": 667,
  " xing2": 668,
  " le": 669,
  " ta1": 670,
  " c": 671,
  " yi1 ": 672,
  " yu3": 673,
  " s": 674,
  " zhi1": 675,
  " hui4": 676,
  " ji1": 677,
  " si1": 678,
  " dao4": 679,
  " ge4": 680,
  " hou4": 681,
  " hu": 682,
  " jia1": 683,
  " qi2": 684,
  " ming2": 685,
  "ao4 ": 686,
  "i1 ": 687,
  " you3 ": 688,
  "u3 ": 689,
  "ang4 ": 690,
  " ji2 ": 691,
  " ri4 ": 692,
  " xi1": 693,
  "ang1 ": 694,
  " xue2": 695,
  " li3": 696,
  " wei2": 697,
  "ang2 ": 698,
  " yi4 ": 699,
  " zheng4": 700,
  " chu1": 701,
  " de2": 702,
  " ji4 ": 703,
  "ang3 ": 704,
  " jian4": 705,
  " you2": 706,
  " dui4": 707,
  " er3": 708,
  " sheng1": 709,
  " bei4": 710,
  " zhan4": 711,
  " shang4": 712,
  " r": 713,
  " li": 714,
  " yuan2 ": 715,
  " er2": 716,
  " zhu": 717,
  " y": 718,
  " bing4": 719,
  " 1": 720,
  " shi3": 721,
  " ren4": 722,
  "qu1 ": 723,
  " hou4 ": 724,
  " xian4 ": 725,
  " gu": 726,
  " yi3 ": 727,
  " yin1": 728,
  " she4": 729,
  " ju4": 730,
  " jun1": 731,
  " ti": 732,
  " yu3 ": 733,
  " yong4": 734,
  " ke4": 735,
  " wu4": 736,
  " zhu3": 737,
  " jin4": 738,
  " zi4": 739,
  " fa1": 740,
  " zhou1": 741,
  " xing2 ": 742,
  " bi": 743,
  "ao2 ": 744,
  "ong2 ": 745,
  " 19": 746,
  " fang1": 747,
  " lu4": 748,
  " zuo4": 749,
  " yi": 750,
  " ping2": 751,
  "n4 ": 752,
  " jing1": 753,
  " si1 ": 754,
  " yu4": 755,
  "ng2 ": 756,
  " nan2": 757,
  " dan4": 758,
  "ai4 ": 759,
  " fu4": 760,
  " dao4 ": 761,
  " dong4": 762,
  " shu4": 763,
  " dai4": 764,
  " zhe4": 765,
  " huo4": 766,
  " n": 767,
  " guan1": 768,
  " ta1 ": 769,
  " hua4": 770,
  "u2 ": 771,
  " ming2 ": 772,
  " pi": 773,
  " zhi1 ": 774,
  " lai2": 775,
  " xiang4": 776,
  " xi4": 777,
  " jiang1": 778,
  " x": 779,
  " tong2": 780,
  " jiao4": 781,
  "ao3 ": 782,
  " xin1": 783,
  "a1 ": 784,
  " zheng4 ": 785,
  " jia1 ": 786,
  " xi1 ": 787,
  " ji1 ": 788,
  " xu": 789,
  " sai4": 790,
  " shou3": 791,
  " zhu4": 792,
  " fen1": 793,
  " fa3": 794,
  " xia4": 795,
  " mu4": 796,
  "yi2 ge4": 797,
  " mian4": 798,
  " xiang1": 799,
  " j": 800,
  "4 ": 801,
  " zhi2": 802,
  "a3 ": 803,
  " le ": 804,
  " ye3": 805,
  " ke3": 806,
  " wen2": 807,
  " ma3": 808,
  " qian2": 809,
  " mei3": 810,
  " qiu2": 811,
  " hui4 ": 812,
  " ci3": 813,
  "n3 ": 814,
  " yan2": 815,
  " zhi3": 816,
  " duo1": 817,
  " quan2": 818,
  " te4": 819,
  " zui4": 820,
  " suo3": 821,
  " gao1": 822,
  " ge2": 823,
  " jie2": 824,
  " jie1": 825,
  " biao3": 826,
  "ng3 ": 827,
  " guo4": 828,
  " ti3": 829,
  "n1 ": 830,
  " yao4": 831,
  "i3 ": 832,
  " jian1": 833,
  "e4 ": 834,
  " fu2": 835,
  " deng3": 836,
  " xue2 ": 837,
  " hai3": 838,
  " mi": 839,
  " qu1 ": 840,
  " gai1": 841,
  " 2": 842,
  "ai2 ": 843,
  " chang2": 844,
  " du4": 845,
  " shou4": 846,
  " lian2": 847,
  " lan2": 848,
  " che1": 849,
  " bei3": 850,
  " zhang3": 851,
  " ru4": 852,
  " qi1": 853,
  " dian4": 854,
  " ti2": 855,
  " ze2": 856,
  " dong1": 857,
  " xing4": 858,
  " luo2": 859,
  " ci4": 860,
  " dang1": 861,
  " ding4": 862,
  " ben3": 863,
  " ye4": 864,
  " du": 865,
  " dao3": 866,
  " shi1": 867,
  " wei2 ": 868,
  "3 ": 869,
  " li3 ": 870,
  " sheng3": 871,
  " jin1": 872,
  " wu4 ": 873,
  " tong1": 874,
  " su": 875,
  " lv": 876,
  " wai4": 877,
  " tai2": 878,
  " kai1": 879,
  " tong3": 880,
  " zi": 881,
  " chu": 882,
  " nei4": 883,
  " shu1": 884,
  " liu2": 885,
  " zu3": 886,
  " la1": 887,
  " bi3": 888,
  " shan1": 889,
  "1 nian2 ": 890,
  "0 nian2 ": 891,
  " lie4": 892,
  " neng2": 893,
  " lin2": 894,
  "5 nian2 ": 895,
  " wu3": 896,
  "4 nian2 ": 897,
  " zhong4": 898,
  "2 nian2 ": 899,
  " xiao3": 900,
  " shu3": 901,
  " si4": 902,
  " cheng1": 903,
  " ying1": 904,
  " ya4": 905,
  " chang3": 906,
  "3 nian2 ": 907,
  " jue2": 908,
  " min2": 909,
  " feng1": 910,
  " dan1": 911,
  " ke1": 912,
  " xie1": 913,
  " mo": 914,
  " kuo4": 915,
  " gong4": 916,
  " shen1": 917,
  " liang4": 918,
  " hao4": 919,
  " ku": 920,
  "8 nian2 ": 921,
  "6 nian2 ": 922,
  " yan3": 923,
  " ying3": 924,
  " yue4 2": 925,
  " mei2": 926,
  "202": 927,
  " gang3": 928,
  " qi4": 929,
  " ceng2": 930,
  " tian1": 931,
  " zong3": 932,
  " di": 933,
  " bao1": 934,
  " gou4": 935,
  "li3 ": 936,
  " san1": 937,
  " jiu4": 938,
  "7 nian2 ": 939,
  " xuan3": 940,
  " fei1": 941,
  " 3": 942,
  " tuan2": 943,
  " zheng1": 944,
  " yue4 1": 945,
  " jing4": 946,
  " qu3": 947,
  " yang2": 948,
  " yun4": 949,
  " zhong3": 950,
  " ba1": 951,
  " dou1": 952,
  " bao3": 953,
  " qian1 ": 954,
  " yi2": 955,
  " tai4": 956,
  " gu3": 957,
  " liang3": 958,
  " wang3": 959,
  " zhe3": 960,
  " da2": 961,
  " qi3": 962,
  "mi3 ": 963,
  " guan3": 964,
  " qu1": 965,
  " chan3": 966,
  " zhong1 guo2 ": 967,
  " jiao1": 968,
  " an1 ": 969,
  " yuan4": 970,
  " wei4 yu2 ": 971,
  " hu4": 972,
  " xian1 ": 973,
  " wu2": 974,
  " lu": 975,
  " ni2": 976,
  " cong2": 977,
  " qing1": 978,
  " bian4": 979,
  " bian1": 980,
  " dian3": 981,
  " q": 982,
  " jie4": 983,
  " zu2": 984,
  "or": 985,
  "   19": 986,
  " bi4": 987,
  " wei3": 988,
  " shui3": 989,
  " 201": 990,
  " ban1 ": 991,
  " fu1 ": 992,
  " na4": 993,
  " wan1 ": 994,
  " bao4": 995,
  " ling4": 996,
  " you4": 997,
  " shuo1": 998,
  " 5": 999,
  " 200": 1000,
  " lei4": 1001,
  "9 nian2 ": 1002,
  " zhan3 ": 1003,
  " bo2": 1004,
  " huo2": 1005,
  " xie2": 1006,
  " fan3 ": 1007,
  " shen2": 1008,
  " mi4": 1009,
  " xiao4": 1010,
  " zhang1": 1011,
  " ran2": 1012,
  " xing1": 1013,
  " ji4": 1014,
  " wang2": 1015,
  " cu": 1016,
  " an4 ": 1017,
  " bo1": 1018,
  " se4": 1019,
  " fu3": 1020,
  " li2 ": 1021,
  " ban3 ": 1022,
  " meng2": 1023,
  " chen2": 1024,
  " can1": 1025,
  " lun2": 1026,
  " wo": 1027,
  " ru2": 1028,
  " han4 ": 1029,
  " zhan4 ": 1030,
  " cheng2": 1031,
  " wan4 ": 1032,
  " han2": 1033,
  " jia4": 1034,
  " ge1": 1035,
  " ta1 men": 1036,
  " ni": 1037,
  "e   ": 1038,
  " yue1": 1039,
  " men2": 1040,
  " sheng4": 1041,
  " ce4": 1042,
  " chi2": 1043,
  " su4": 1045,
  " ping2 fang1": 1046,
  " luo4": 1047,
  " cheng2 wei2": 1048,
  " zi1": 1049,
  " bie2": 1050,
  " zhen4": 1051,
  " gong1 si1": 1052,
  " po": 1053,
  " biao1": 1054,
  " pu3": 1055,
  " kong1": 1056,
  " jie3": 1057,
  " gai3": 1058,
  " gen1": 1059,
  " jian3 ": 1060,
  "u4 ": 1061,
  " tou2": 1062,
  "a ": 1063,
  " 4": 1064,
  "mei3 guo2 ": 1065,
  " yi1": 1066,
  " ji3": 1067,
  " hai2": 1068,
  " bu4 fen4": 1069,
  " ban4": 1070,
  " wan2": 1071,
  " fan4 ": 1072,
  "t ": 1073,
  " xi2 ": 1074,
  " er4": 1075,
  " jiu1 ": 1076,
  "on": 1077,
  " qu": 1078,
  " chuan2": 1079,
  " guo3": 1080,
  " ming4": 1081,
  " xiao1": 1082,
  "wei1 ": 1083,
  " 6": 1084,
  " zhen1": 1085,
  "12": 1086,
  " geng4": 1087,
  " xiu1 ": 1088,
  " nv3": 1089,
  " zhong1": 1090,
  " ren2 kou3": 1091,
  " tu2": 1092,
  " de di4 ": 1093,
  "ar": 1094,
  " xiang3 ": 1095,
  " shu": 1096,
  " qie3": 1097,
  " hua2": 1098,
  " shi4 jie4": 1099,
  " gong1 li3 ": 1100,
  " xia2": 1101,
  " shi3 yong4": 1102,
  " zhuan1 ": 1103,
  " zheng4 fu3": 1104,
  " bao1 kuo4": 1105,
  " yo": 1106,
  " shou1": 1107,
  " zong1": 1108,
  "   201": 1109,
  " tuo1": 1110,
  " ci2 ": 1111,
  " wu1 ": 1112,
  " su1 ": 1113,
  " xu4": 1114,
  " qi2 zhong1 ": 1115,
  " gui1 ": 1116,
  " sui4": 1117,
  " gu4": 1118,
  " deng1": 1119,
  " guo2 jia1": 1120,
  " xu1 ": 1121,
  " de yi1 ": 1122,
  " zhi4": 1123,
  " de yi2 ge4": 1124,
  " fen4": 1125,
  " yu2 19": 1126,
  " cha2": 1127,
  " de shi4 ": 1128,
  "   zai4 ": 1129,
  "ying4": 1130,
  " pei4": 1131,
  "11": 1132,
  " shang1 ": 1133,
  " tu": 1134,
  " chu1 ": 1135,
  " jiang3 ": 1136,
  " ta1 de ": 1137,
  "ren2 kou3": 1138,
  " hui2 ": 1139,
  " fei4": 1140,
  "e ": 1141,
  " chao2": 1142,
  " 7": 1143,
  " li4": 1144,
  " tang2 ": 1145,
  " yu": 1146,
  " man4 ": 1147,
  " tian2": 1148,
  " shi2": 1149,
  " 10": 1150,
  " bai3": 1151,
  " ri4 ben3": 1152,
  " long2 ": 1153,
  " bing1": 1154,
  "mo2": 1155,
  "s ": 1156,
  " jing3": 1157,
  " ren2 min2": 1158,
  " 8": 1159,
  " mo2": 1160,
  " shi4 yi1 ": 1161,
  "zuo4 ": 1162,
  " ling3": 1163,
  " cai3": 1164,
  " er3 ": 1165,
  " yin1 ci3": 1166,
  "1 ": 1167,
  " tie3": 1168,
  " duan4 ": 1169,
  " shi4 wei4 ": 1170,
  " sha1": 1171,
  " ren2": 1172,
  " dang3 ": 1173,
  " jin3": 1174,
  " ying4": 1175,
  " sai4 ": 1176,
  " rong2 ": 1177,
  " zhu1 ": 1178,
  " huo4 de2": 1179,
  " mu3 ": 1180,
  " chu4": 1181,
  " a1": 1182,
  " cai2": 1183,
  " du1 ": 1184,
  " chao1": 1185,
  " mei3 guo2 ": 1186,
  " huo3": 1187,
  " C": 1188,
  " kou3": 1189,
  "in": 1190,
  " wen4": 1191,
  " huan2": 1193,
  " zhuan3 ": 1194,
  " cun2": 1195,
  " dang3": 1196,
  " zeng1": 1197,
  " sa4": 1198,
  " ju4 ": 1199,
  "shi4 de ": 1200,
  " gan3 ": 1201,
  " bu4": 1202,
  " 18": 1203,
  " hen3": 1204,
  " ting1": 1205,
  "zhong1 guo2 ": 1206,
  " song4": 1207,
  " S": 1208,
  "s   ": 1209,
  " qing2 ": 1210,
  " qin1": 1211,
  " he2 guo2 ": 1212,
  "zhen4 ": 1213,
  " lu4 ": 1214,
  " pian4 ": 1215,
  " yi3 ji2 ": 1216,
  " A": 1217,
  "an4 de ": 1218,
  "0 ": 1219,
  " dong4 ": 1220,
  " hua4 ": 1221,
  " jian4 ": 1222,
  " 9": 1223,
  "—": 1224,
  " e2": 1225,
  " gei3": 1226,
  "ul": 1227,
  " du2": 1228,
  " lv4": 1229,
  " xi4 ": 1230,
  " hang2": 1231,
  " kai1 shi3": 1232,
  " yi2 ge4": 1233,
  " pai2": 1234,
  " da4 xue2": 1235,
  " ju1 ": 1236,
  " zi3": 1237,
  " 199": 1238,
  " ka3": 1239,
  " long2": 1240,
  " guo2": 1241,
  "wei1": 1242,
  " zhu3 yao4": 1243,
  " fang4 ": 1244,
  " dai4 biao3": 1245,
  " zhuang1 ": 1246,
  " you2 yu2 ": 1247,
  " yu4 ": 1248,
  " zheng3": 1249,
  " de h": 1250,
  " di4": 1251,
  " jing3 ": 1252,
  " qiang2 ": 1253,
  " chu3 ": 1254,
  " tong2 shi2 ": 1255,
  "   di4 ": 1256,
  " hang2 ": 1257,
  " xuan1 ": 1258,
  "al": 1259,
  " guang3 ": 1260,
  "li4 shi3": 1261,
  " fang2 ": 1262,
  " huang2": 1263,
  " huan4 ": 1264,
  " ting2 ": 1265,
  " zhang3 ": 1266,
  " shang4 ": 1267,
  "2 ": 1268,
  " lou2": 1269,
  " di2 ": 1270,
  "duan4 ": 1271,
  " qu4": 1272,
  "hou4 ": 1273,
  " M": 1274,
  " tui1 ": 1275,
  " jiu3 ": 1276,
  " ju": 1277,
  " zai4 19": 1278,
  " xun2": 1279,
  "tie3": 1280,
  " 15": 1281,
  " ya2": 1282,
  " sha1 ": 1283,
  " xie3": 1284,
  " huang2 ": 1285,
  " lian4 ": 1286,
  " xin4": 1287,
  " sen1": 1288,
  "kai1 shi3": 1289,
  " li4 ya4": 1290,
  " jia3": 1291,
  " ping2 ": 1292,
  " sai1": 1293,
  " yin1 wei4 ": 1294,
  " pin3 ": 1295,
  " mu3": 1296,
  " mi3": 1297,
  " rong2": 1298,
  " di4 yi1 ": 1299,
  " dui4 ": 1300,
  " chuan1 ": 1301,
  " kong4": 1302,
  " ke4 ": 1303,
  " xiang1 gang3": 1304,
  " yin3": 1305,
  " gong1": 1306,
  " sui2 ": 1307,
  " ka3 ": 1308,
  "fa3 guo2 ": 1309,
  " sheng1 ": 1310,
  " yong4 ": 1311,
  " di4 er4": 1312,
  " de shi2 ": 1313,
  " 20": 1314,
  " hu2": 1315,
  "orm": 1316,
  " lun4 ": 1317,
  " yan2 jiu1 ": 1318,
  " shi4 ji4 ": 1319,
  " ren4 wei2": 1320,
  " lei2 ": 1321,
  " xian2": 1322,
  " zao4": 1323,
  " ha1": 1324,
  " wei1 ": 1325,
  " ping2 fang1 gong1 li3 ": 1326,
  "20 nian2 ": 1327,
  " zhuang1": 1328,
  " hei1": 1329,
  " zhong1 xin1": 1330,
  " zhao4 ": 1331,
  " pai4": 1332,
  " reng2": 1333,
  "   S": 1334,
  " xi4 tong3": 1335,
  " pin3": 1336,
  "xiang1 gang3": 1337,
  " ge": 1338,
  " jian1 ": 1339,
  " xiang3": 1340,
  " wai4 ": 1341,
  " hong2 ": 1342,
  " ying2": 1343,
  " nian2 de ": 1344,
  "yuan2 ": 1345,
  "wu4 ": 1346,
  " mi3 ": 1347,
  " bei1": 1348,
  " ju3 ": 1349,
  " di4 qu1 ": 1350,
  "ula ": 1351,
  " pan4 ": 1352,
  " ju3": 1353,
  " lun4": 1354,
  " xian3 ": 1355,
  "ormula ": 1356,
  " yun4 dong4": 1357,
  " guan4 ": 1358,
  " mu4 ": 1359,
  " ying2 ": 1360,
  " tan2": 1361,
  " chu2": 1362,
  "hua4 ": 1363,
  " chong1": 1364,
  " guang1 ": 1365,
  " ao4 ": 1366,
  " hui1 ": 1367,
  "ri4 ben3": 1368,
  "nian4 ": 1369,
  " yu2": 1370,
  " tiao2": 1371,
  "jian1 ": 1372,
  " bu4 tong2": 1373,
  "   200": 1374,
  " shi4 zai4 ": 1375,
  " shuo1 ": 1376,
  " zhong1 de ": 1377,
  " 198": 1378,
  " heng2": 1379,
  " zhe4 xie1": 1380,
  "t   ": 1381,
  " zhong1 y": 1382,
  " zao4 ": 1383,
  " hong2": 1384,
  "u3 duo1": 1385,
  " 16": 1386,
  "th": 1387,
  " qun2": 1388,
  " cun1 ": 1389,
  " lv4 ": 1390,
  " mo4": 1391,
  " shu4 ": 1392,
  " zhi1 yi1 ": 1393,
  " B": 1394,
  " ting2": 1395,
  " dou4": 1396,
  " ba2": 1397,
  " de2 ": 1398,
  " wa3": 1399,
  " zhou1 ": 1400,
  "bing1": 1401,
  " biao3 shi4 ": 1402,
  " dan1 ren4": 1403,
  " ju2 ": 1404,
  " ke3 neng2": 1405,
  "d   ": 1406,
  "kuang4 ": 1407,
  " jin4 xing2": 1408,
  " de xi": 1409,
  " jin3 ": 1410,
  " ta3": 1411,
  " da3": 1412,
  " zuo3": 1413,
  " zhong1 hua2": 1414,
  " T": 1415,
  " bang1 ": 1416,
  " mai4": 1417,
  "liu4": 1418,
  " de qi": 1419,
  " fa3 ": 1420,
  " I": 1421,
  " chong2 ": 1422,
  " ju2": 1423,
  " zuo4 ": 1424,
  " de ji": 1425,
  "   202": 1426,
  " du2 ": 1427,
  " yao1": 1428,
  " kan4 ": 1429,
  " hu2 ": 1430,
  " ke3 yi3": 1431,
  "zheng4 fu3": 1432,
  " gao4 ": 1433,
  " shi4 jian4": 1434,
  "n4 du4": 1435,
  " nuo4": 1436,
  " 202": 1437,
  "dian4 ying3": 1438,
  " rui4": 1439,
  " hao3": 1440,
  " le4": 1441,
  " 12": 1442,
  " yin2": 1443,
  " deng3 ": 1444,
  " yue4 3": 1445,
  " gong4 he2 guo2 ": 1446,
  " chong2": 1447,
  " de g": 1448,
  " hou4 lai2": 1449,
  "   g": 1450,
  "am": 1451,
  " mian4 ji1 ": 1452,
  "tai2 wan1 ": 1453,
  " xiang4 ": 1454,
  " po4": 1455,
  " shi1 ": 1456,
  " zhuang4 ": 1457,
  " bu2": 1458,
  " ai4": 1459,
  " ming2 wei4 ": 1460,
  " ku4": 1461,
  " yan4 ": 1462,
  "ou": 1463,
  " ge2 ": 1464,
  " jian4 zhu4": 1465,
  " hu1 ": 1466,
  "men2": 1467,
  "mo4": 1468,
  " que4": 1469,
  " chao2 ": 1470,
  " xia4 ": 1471,
  " jun1 ": 1472,
  " xue2 yuan4": 1473,
  " yong1": 1474,
  " bai2": 1475,
  " P": 1476,
  " tiao2 ": 1477,
  " zuo4 wei2": 1478,
  " jiu3": 1479,
  " shi2 qi1": 1480,
  " tai2 wan1 ": 1482,
  " zi3 ": 1483,
  "5 ": 1484,
  "   sheng1": 1485,
  " guo2 ji4 ": 1486,
  "an3 de ": 1487,
  " qin2": 1488,
  " tu3 ": 1489,
  " xin4 ": 1490,
  " D": 1491,
  " pai2 ": 1492,
  " bai4": 1493,
  " pi1 ": 1494,
  " ao4": 1495,
  " tu1 ": 1496,
  " yi3 ji2": 1497,
  "a   ": 1498,
  " cun1": 1499,
  " zhu2": 1500,
  " tan3 ": 1501,
  " sheng3 ": 1502,
  " ling3 ": 1503,
  " tang2": 1504,
  " de sh": 1505,
  " liu4": 1506,
  " chuang4 ": 1507,
  "ri": 1508,
  " ou1": 1509,
  " 17": 1510,
  "0 nian2 dai4": 1511,
  " de c": 1512,
  " ling2 ": 1513,
  " tui4": 1514,
  " liao4 ": 1515,
  "zhang3 ": 1516,
  " tao2": 1517,
  " lai2 ": 1518,
  " na2": 1519,
  " mei2 you3 ": 1520,
  " de f": 1521,
  " xue2 xiao4": 1522,
  " de gong1 ": 1523,
  " fan1 ": 1524,
  "lei4": 1525,
  " jiang4 ": 1526,
  "an3 shi4 ": 1527,
  " zi4 ji3": 1528,
  "zheng4 zhi4 ": 1529,
  " gan1 ": 1530,
  " 194": 1531,
  " cheng2 li4 ": 1532,
  " wen1": 1533,
  " fang2": 1534,
  "5 ri4 ": 1535,
  " guan1 ": 1536,
  "19 nian2 ": 1537,
  " ling2": 1538,
  " xing2 de ": 1539,
  " shou3 ": 1540,
  " zheng4 shi4 ": 1541,
  " xing4 ": 1542,
  " tong1 guo4": 1543,
  " ping2 fang1 qian1 ": 1544,
  "wu1 ": 1545,
  " ta1 zai4 ": 1546,
  " xun4": 1547,
  " gui4": 1548,
  "tu": 1549,
  " wan3 ": 1550,
  "uan3 ": 1551,
  "zhuan1 ": 1552,
  " jiao3": 1553,
  " chang3 ": 1554,
  " mian4 ": 1555,
  " qiao2": 1556,
  " di4 qu1": 1557,
  " li4 shi3": 1558,
  " zi ": 1559,
  " diao4 ": 1560,
  "pian4 ": 1561,
  "   f": 1562,
  "lu4 ": 1563,
  " liang2 ": 1564,
  " yi3 jing1": 1565,
  " zui4 zhong1 ": 1566,
  " wang4 ": 1567,
  " xian4 de ": 1568,
  " da4 de ": 1569,
  " qi2 ta1": 1570,
  "yan2 jiu1 ": 1571,
  " qin1 ": 1572,
  "chang3 ": 1573,
  " qiao2 ": 1574,
  "st": 1575,
  " de zhu3": 1576,
  " fa2": 1577,
  " he4": 1578,
  " dian4 ying3": 1579,
  " zhe": 1580,
  " shu3 yu2 ": 1581,
  " shan4 ": 1582,
  " ren4 ": 1583,
  " shi3 ": 1584,
  "guang3 ": 1585,
  " dang1 shi2 ": 1586,
  " xiong1": 1587,
  "ro": 1588,
  "guo2 jia1": 1589,
  " bai4 ": 1590,
  "ke4 lan2": 1591,
  " qing4": 1592,
  " shang1": 1593,
  " de ren2 ": 1594,
  " 197": 1595,
  " zhi1 hou4 ": 1596,
  " ti2 ": 1597,
  " yu2 201": 1598,
  "nuo4": 1599,
  " xie4": 1600,
  " zao3": 1601,
  "el": 1602,
  " xiu4": 1603,
  "   C": 1604,
  "li4 shi3 ": 1605,
  "ju1 ": 1606,
  " song1": 1607,
  " ti3 ": 1608,
  "i1 ran2": 1609,
  " ren2 min2 gong4 he2 guo2 ": 1610,
  "1 ri4 ": 1611,
  "6 ri4 ": 1612,
  "gui1 ": 1613,
  " ke3 yi3 ": 1614,
  " zheng4 zhi4 ": 1615,
  " zou3": 1616,
  "dian4 shi4 ": 1617,
  "4 ri4 ": 1618,
  " hao4 ": 1619,
  " hai2 ": 1620,
  " cai2 ": 1621,
  " lu2": 1622,
  " wo3": 1623,
  " dian3 ": 1624,
  " er2 ": 1625,
  "7 ri4 ": 1626,
  " ta3 ": 1627,
  " 195": 1628,
  " ruo4": 1629,
  " 00": 1630,
  "wan2": 1631,
  "xuan1 ": 1632,
  " de ch": 1633,
  " de p": 1634,
  "1 yue4 ": 1635,
  " qing2": 1636,
  " zan4 ": 1637,
  " lei1 ": 1638,
  " geng1": 1639,
  " zhun3": 1640,
  " xun4 ": 1641,
  " shi4 f": 1642,
  " zhe4 ge": 1643,
  " li4 ru2": 1644,
  "   sheng1 ping2 ": 1645,
  " bai2 ": 1646,
  "re": 1647,
  "6 ": 1648,
  " jin4 xing2 ": 1649,
  " wei3 yuan2": 1650,
  " gen1 ju4": 1651,
  " jiao3 ": 1652,
  " hua1": 1653,
  " de cheng2 ": 1654,
  " zao1": 1655,
  " fa1 sheng1": 1656,
  " guang3": 1657,
  " she4 ": 1658,
  " yin3 ": 1659,
  " ye3 shi4 ": 1660,
  " fu4 ze2": 1661,
  " chu3": 1662,
  " shen3": 1663,
  "jun1 ": 1664,
  " feng4": 1665,
  " mi4 du4": 1666,
  " yun2": 1667,
  " dian4 shi4 ": 1668,
  " chu2 ": 1669,
  " en1": 1670,
  " de da4": 1671,
  " ding1": 1672,
  " ye4 ": 1673,
  " de zh": 1674,
  " jin4 ru4": 1675,
  "y   ": 1676,
  " bing4 qie3": 1677,
  " you2 xi4": 1678,
  " dao3 ": 1679,
  " zhong1 yang1 ": 1680,
  " zhi1 jian1": 1681,
  " shi4 zhen4 ": 1682,
  " da4 xue2 ": 1683,
  " shi4 zhong1 ": 1684,
  "qu4": 1685,
  " ping2 fang1 qian1 mi3 ": 1686,
  " de m": 1687,
  " si1 te4": 1688,
  " mian3 ": 1689,
  " gong1 zuo4": 1690,
  " ai1": 1691,
  "17": 1692,
  "bao1 kuo4": 1693,
  " man3 ": 1694,
  " pai4 ": 1695,
  " E": 1696,
  " shen4": 1697,
  " de t": 1698,
  " da4 ": 1699,
  " fa1 zhan3 ": 1700,
  " lv3": 1701,
  " a1 ": 1702,
  " gong1 cheng2 ": 1703,
  "xia4 ": 1704,
  " 1 ": 1705,
  " de k": 1706,
  " shi4 de ": 1707,
  "zi ": 1708,
  " zhao4": 1709,
  "diao4 ": 1710,
  " li2": 1711,
  " di1 ": 1712,
  " piao4 ": 1713,
  " cheng2 shi4 ": 1714,
  " 196": 1715,
  " de guan1": 1716,
  " ji1 wei4 ": 1717,
  " de ji1": 1718,
  "yan4 ": 1719,
  "   li4 shi3 ": 1720,
  " zha4": 1721,
  "9 yue4 ": 1722,
  "lv4": 1723,
  " zhao1": 1724,
  " gang1 ": 1725,
  " ni2 ya4": 1726,
  " 0": 1727,
  "que4": 1728,
  "dou1": 1729,
  "suan4 ": 1730,
  "zhe3 ": 1731,
  "ac": 1732,
  " 14": 1733,
  " pa4": 1734,
  "   M": 1735,
  " fang4": 1736,
  "15": 1737,
  "chuang4 ": 1738,
  " pi2 ": 1739,
  " si3 ": 1740,
  " shi4 you2": 1741,
  "3 yue4 ": 1742,
  " che1 ": 1743,
  " kao3 ": 1744,
  "ya2": 1745,
  " qing3": 1746,
  " lao3": 1747,
  "xu1 ": 1748,
  " ying1 guo2 ": 1749,
  " ti2 gong1 ": 1750,
  " bu3 ": 1751,
  " shi2 jian1": 1752,
  " gou4 ": 1753,
  "7 yue4 ": 1754,
  "10 yue4 ": 1755,
  "   de": 1756,
  " da3 ": 1757,
  "at": 1758,
  " te4 ": 1759,
  "ol": 1760,
  " peng2": 1761,
  " lu3 ": 1762,
  " zhe3 ": 1763,
  " za2": 1764,
  " si3": 1765,
  " min2 guo2 ": 1766,
  " she4 ji4 ": 1767,
  "12 yue4 ": 1768,
  " yin1 ": 1769,
  " tong2 nian2 ": 1770,
  " jia3 ": 1771,
  " H": 1772,
  " jiang4": 1773,
  " de xing2": 1774,
  " zheng1 ": 1775,
  " L": 1776,
  " ren2 kou3 mi4 du4": 1777,
  " yong3": 1778,
  " chang4 ": 1779,
  "8 yue4 ": 1780,
  "5 yue4 ": 1781,
  "16": 1782,
  " N": 1783,
  " di4 san1": 1784,
  " de bu4 ": 1785,
  " yang3 ": 1786,
  " 13": 1787,
  " ci2": 1788,
  " ji4 shu4": 1789,
  "wei3 yuan2": 1790,
  " jiang3": 1791,
  " bin1": 1792,
  "yi1 xie1": 1793,
  " tan4 ": 1794,
  " di3": 1795,
  " qi2 ": 1796,
  "2020 nian2 ": 1797,
  " cheng1 ": 1798,
  " shi4 yi2 ge4": 1799,
  " lu3": 1800,
  " R": 1801,
  " 193": 1802,
  " se4 ": 1803,
  "tong1 guo4": 1804,
  " duo2": 1805,
  " dan4 shi4 ": 1806,
  "shi3 yong4": 1807,
  " qiang2": 1808,
  " G": 1809,
  " fen1 bie2": 1810,
  " tu3": 1811,
  " shou4 ": 1812,
  "u1 shi4 ": 1813,
  "biao1": 1814,
  " gong1 si1 ": 1815,
  "6 yue4 ": 1816,
  " shang4 de ": 1817,
  "ying1 guo2 ": 1818,
  "   h": 1819,
  " yue4 1 ri4 ": 1820,
  "lu": 1821,
  " ya1": 1822,
  " wo3 ": 1823,
  " bing4 zai4 ": 1824,
  " yin1 yue4 ": 1825,
  "4 yue4 ": 1826,
  " mu4 qian2": 1827,
  " qiu1 ": 1828,
  " xi1 ya4": 1829,
  "wang2 ": 1830,
  " pei2": 1831,
  " de hu": 1832,
  " zhi1 chi2": 1833,
  "huo4 de2": 1834,
  "y ": 1835,
  " quan2 guo2 ": 1836,
  " yang4 ": 1837,
  " wen2 ": 1838,
  " de z": 1839,
  "ju3": 1840,
  "d ": 1841,
  "zhuan3 ": 1842,
  "qun2": 1843,
  "xi2 ": 1844,
  " wa3 ": 1845,
  "   A": 1846,
  " gan4 ": 1847,
  " ji2 tuan2": 1848,
  " liang2": 1849,
  " xuan2": 1850,
  " gt ": 1851,
  " zhu4 ": 1852,
  " kong3": 1853,
  "lv3": 1854,
  " bu4 fen4 ": 1855,
  " shi4 wei4 yu2 ": 1856,
  " F": 1857,
  " re4": 1858,
  "lv4 ": 1859,
  " mo4 ": 1860,
  " zhu3 yi4 ": 1861,
  " luo2 si1": 1862,
  " gu1 ": 1863,
  " zu": 1864,
  " wei4 le": 1865,
  "tion": 1866,
  "7 ": 1867,
  " xing2 zheng4 ": 1868,
  " bu4 ji": 1869,
  " wei1": 1870,
  " che4": 1871,
  "C ": 1872,
  " zhi2 ": 1873,
  " jia1 ru4": 1874,
  "ke3 neng2": 1875,
  " mai4 ": 1876,
  " shi4 shi4 ": 1877,
  " de zuo4": 1878,
  " lt ": 1879,
  "11 yue4 ": 1880,
  " bu4 dui4": 1881,
  " xuan1 bu4 ": 1882,
  " bu4 guo4": 1883,
  " sui1 ran2": 1884,
  " gui1": 1885,
  " lei1": 1886,
  " hao2 ": 1887,
  " fan2": 1888,
  "su1 ": 1889,
  " sheng1 huo2": 1890,
  " ba3": 1891,
  " wen2 hua4": 1892,
  " tong1 chang2": 1893,
  " shi4 di4 ": 1894,
  " xian4 zai4 ": 1895,
  "ren2 min2": 1896,
  " tou4": 1897,
  " gai4 ": 1898,
  " guang1": 1899,
  "si": 1900,
  " ye2": 1901,
  " zhi4 zuo4": 1902,
  " xi3": 1903,
  " shuang1 ": 1904,
  "8 ": 1905,
  " men": 1906,
  "8 ri4 ": 1907,
  " de yi4": 1908,
  " xu3 duo1": 1909,
  " wo4": 1910,
  " yao1 qiu2": 1911,
  " ji4 hua4": 1912,
  " le yi1 ": 1913,
  "   ji": 1914,
  " yu2 200": 1915,
  " yuan4 ": 1916,
  " po1": 1917,
  " cheng1 wei2 ": 1918,
  " xi2": 1919,
  " mao2 ": 1920,
  "ji2 ": 1921,
  "shao3": 1922,
  " cai3 yong4": 1923,
  " pin2": 1924,
  " dang1 di4 ": 1925,
  " shi4 zhen4": 1926,
  " zhe2": 1927,
  "ying3 xiang3 ": 1928,
  " gao1 du4": 1929,
  " yan2 ": 1930,
  " xu1 yao4": 1931,
  " tie3 lu4": 1932,
  "tiao2": 1933,
  " xia2 ": 1934,
  " jiao4 yu4": 1935,
  " chi4": 1936,
  " nong2 ": 1937,
  " de d": 1938,
  "qian1 ": 1939,
  " gao4": 1940,
  " kai3": 1941,
  "yuan3 ": 1942,
  " jing1 ": 1943,
  " de yuan2": 1944,
  " ji4 xu4": 1945,
  " yi4 shu4": 1946,
  "jian4 ": 1947,
  "an4 shi4 ": 1948,
  " zai4 di4 ": 1949,
  " cheng2 yuan2": 1950,
  "   P": 1951,
  " shao3": 1952,
  " da4 li4 ": 1953,
  " kan1 ": 1954,
  " kang1 ": 1955,
  " de shu4": 1956,
  " yang4": 1957,
  "ling3": 1958,
  "chuan1 ": 1959,
  " 11": 1960,
  "dai4 biao3": 1961,
  "2 yue4 ": 1962,
  " cuo4": 1963,
  "an1 de ": 1964,
  " ti4": 1965,
  "shi1 ": 1966,
  " pai1": 1967,
  "ye4 ": 1968,
  " chu4 ": 1969,
  " lai2 zi4": 1970,
  "ting1": 1971,
  "fa1 zhan3 ": 1972,
  " gong1 zuo4 ": 1973,
  "xun2": 1974,
  " she4 hui4": 1975,
  " de ji4 ": 1976,
  " qi4 ": 1977,
  " de zui4": 1978,
  " dai4 ": 1979,
  " yi4 zhi2": 1980,
  " jie2 ": 1981,
  " yin4 du4": 1982,
  " ban1 ya2": 1983,
  " rang4 ": 1984,
  " zhi3 ": 1985,
  " rang4": 1986,
  " chao1 guo4": 1987,
  " de xin1": 1988,
  " you3 yi1 ": 1989,
  " nan2 ": 1990,
  " shu1 ": 1991,
  " pian1 ": 1992,
  "shen2": 1993,
  "30": 1994,
  "bao3 hu4": 1995,
  " ding4 ": 1996,
  "po": 1997,
  " qi2 ta1 ": 1998,
  "ming4": 1999,
  " zu2 qiu2": 2000,
  "cheng1 ": 2001,
  " shang4 hai3": 2002,
  " mou2": 2003,
  " fen1 bu4 ": 2004,
  " yong4 yu2 ": 2005,
  "wai4 ": 2007,
  " zhu3 jiao4": 2008,
  "cheng2 shi4 ": 2009,
  "hui2 ": 2010,
  "qi1 ": 2011,
  " hai3 ba2": 2012,
  "guan4 ": 2013,
  "50": 2014,
  " gang1": 2015,
  " zhong1 gong4": 2016,
  " cheng2 gong1 ": 2017,
  " huo2 dong4": 2018,
  " ji3 ": 2019,
  " J": 2020,
  " ri4 zai4 ": 2021,
  " yi4 yuan2 ": 2022,
  " hai4 ": 2023,
  " zhang4 ": 2024,
  "dai4 ": 2025,
  " de2 guo2 ": 2026,
  " de sheng1": 2027,
  " hang2 kong1": 2028,
  " ren4 wei2 ": 2029,
  " de b": 2030,
  " ha1 ": 2031,
  " can1 yu4": 2032,
  " yi4 wei4 ": 2033,
  "zhen1": 2034,
  " zhe4 zhong3": 2035,
  " di1": 2036,
  " qu3 ": 2037,
  "yi1 wei4 ": 2038,
  " zh ": 2039,
  " jin4 ": 2040,
  " shi4 he2 ": 2041,
  " dao3 zhi4 ": 2042,
  "   T": 2043,
  " zhun3 ": 2044,
  "wen2 hua4": 2045,
  " qian2 wang3": 2046,
  " dui4 yu2 ": 2047,
  " 2 ": 2048,
  "biao3 shi4 ": 2049,
  " zi4 you2": 2050,
  "dan1 ren4": 2051,
  "ling2": 2052,
  "er ": 2053,
  "   199": 2054,
  "of": 2055,
  "   B": 2056,
  " feng1 ": 2057,
  " san4 ": 2058,
  "wo": 2059,
  "   z": 2060,
  " hua1 ": 2061,
  "2 ri4 ": 2062,
  " formula ": 2063,
  " mei2 you3": 2064,
  " yan3 ": 2065,
  " de he2 ": 2066,
  "om": 2067,
  " wan2 cheng2 ": 2068,
  " tai2 ": 2069,
  " you1 ": 2070,
  "o2": 2071,
  "zhong3 ": 2072,
  "bao4 ": 2073,
  " sheng1 yu2 ": 2074,
  " zhuang4": 2075,
  " ma3 wei4 ": 2076,
  "9 ri4 ": 2077,
  " luo2 si1 ": 2078,
  "il": 2079,
  " hui2": 2080,
  " chang4": 2081,
  "pian1 ": 2082,
  " fa1 ": 2083,
  "3 ri4 ": 2084,
  " la4": 2085,
  " di4 fang1": 2086,
  "   you2": 2087,
  "   xing2": 2088,
  "dian3 ": 2089,
  " gui3": 2090,
  " dan1 wei4 ": 2091,
  " xiang2 ": 2092,
  " de fu4": 2093,
  " teng2": 2094,
  " fa3 guo2 ": 2095,
  "du4 ": 2096,
  " shao4 ": 2097,
  " wang4": 2098,
  " lian2 meng2": 2099,
  "   ben3": 2100,
  " you3 guan1": 2101,
  " du4 ": 2102,
  "ou1 zhou1": 2103,
  " di2": 2104,
  "mo4 ": 2105,
  " fang3": 2106,
  " jia4 ": 2107,
  "r ": 2108,
  " chou2": 2109,
  " pao4 ": 2110,
  "－": 2111,
  "yin3": 2112,
  " mao4": 2113,
  " te4 bie2": 2114,
  " qi1 jian1": 2115,
  " quan2 ": 2116,
  "   shi4 ": 2117,
  " kuai4 ": 2118,
  "9 ": 2119,
  " qiu2 ": 2120,
  " he4 ": 2121,
  " guo3 ": 2123,
  "cu": 2124,
  "sui2 ": 2125,
  " zao3 ": 2126,
  "   di4 li3 ": 2127,
  " de shou3": 2128,
  " kao3": 2129,
  " zhu3 ": 2130,
  " meng4": 2131,
  " dang4 ": 2132,
  " shi4 g": 2133,
  " ren2 yuan2": 2134,
  " kang1": 2135,
  " zhong1 xue2": 2136,
  " shao4": 2137,
  "yun2": 2138,
  " zhi1 hou4": 2139,
  " fen1 ": 2140,
  " bi3 sai4": 2141,
  "et": 2142,
  " bei4 ": 2143,
  "xian4 ": 2144,
  " de qi2": 2145,
  "tiao2 ": 2146,
  "qi3 ": 2147,
  "ren2 wu4 ": 2148,
  " xi4 lie4": 2149,
  " jing1 ji4 ": 2150,
  "bie2": 2151,
  " de fang1": 2152,
  " ba4": 2153,
  " di3 ": 2154,
  "zai3": 2155,
  " fan3 ying4": 2156,
  "ju2 ": 2157,
  " sheng1 chan3": 2158,
  " cun2 zai4 ": 2159,
  " de zhi2": 2160,
  " xiong2 ": 2161,
  " che1 zhan4": 2162,
  " sui2": 2163,
  " shu4 liang4": 2164,
  " huo2 dong4 ": 2165,
  " tao2 ": 2166,
  "yun4 dong4": 2167,
  " jian4 li4 ": 2168,
  "   t": 2169,
  " zai1": 2170,
  " duan1 ": 2171,
  " yi4 ban1 ": 2172,
  " yong3 ": 2173,
  " 000": 2174,
  " lang2 ": 2175,
  " zai4 201": 2176,
  " xue2 sheng1": 2177,
  " yu3 yan2": 2178,
  " can1 jia1": 2179,
  " di4 de ": 2180,
  " yi1 xie1": 2181,
  "ren2 kou3 ": 2182,
  "2019 nian2 ": 2183,
  " hui1": 2184,
  " de yi1": 2185,
  " chong2 xin1": 2186,
  "ju4 ": 2187,
  "zhong4 yao4": 2188,
  " fen4 ": 2189,
  "zhu3 yao4": 2190,
  " guo2 min2": 2191,
  " chun2": 2192,
  " zong3 tong3": 2193,
  " gong1 yuan2": 2194,
  "pin2": 2195,
  "yu4 ": 2196,
  "la": 2197,
  " xiong2": 2198,
  " K": 2199,
  "liang3 ge4": 2200,
  " shi4 h": 2201,
  "xu3 duo1": 2202,
  " zhi1 qian2": 2203,
  " yuan3 ": 2204,
  " zhong1 hua2 ren2 min2 gong4 he2 guo2 ": 2205,
  "xiang4 ": 2206,
  " she4 you3 ": 2207,
  "ao2 shu4": 2208,
  " xing2 dong4": 2209,
  " lang3": 2210,
  " ru2 guo3": 2211,
  " suo1": 2212,
  " nan2 bu4 ": 2213,
  "che1 zhan4": 2214,
  " de zhong1 ": 2215,
  "ra": 2216,
  " shi2 er4": 2217,
  " xing2 xing1": 2218,
  "shu3 yu2 ": 2219,
  " zhong4 yao4": 2220,
  " �": 2221,
  " fa1 xian4": 2222,
  " piao4": 2223,
  " xing2 cheng2 ": 2224,
  "sheng3 ": 2225,
  "ji1 ": 2226,
  " que4 ": 2227,
  "   ch": 2228,
  " bin1 ": 2229,
  " lang3 ": 2230,
  " zhen4 ": 2231,
  "pai2": 2232,
  " ken3": 2233,
  " he2 zuo4": 2234,
  " guan3 ": 2235,
  " dun4": 2236,
  " chi3 ": 2237,
  " liang3 ge4": 2238,
  "da4 lu4": 2239,
  " jue2 ding4": 2240,
  " gai4": 2241,
  "   gai1": 2242,
  "le ": 2243,
  "ting2 ": 2244,
  " qian3 ": 2245,
  "14": 2246,
  " wu2 fa3": 2247,
  "   yu3": 2248,
  "yin2": 2249,
  " de she4": 2250,
  "zong1": 2251,
  " yi3 xia4": 2252,
  " fan4 wei2": 2253,
  " qian2 ": 2254,
  " qi1 ": 2255,
  "ming2 ": 2256,
  " men2 ": 2257,
  " shi4 yi1 zhong3": 2258,
  " da4 liang4": 2259,
  " guo2 de ": 2260,
  " zai4 zhe4": 2261,
  " su4 ": 2262,
  " xue2 jia1 ": 2263,
  " qie4": 2264,
  "13": 2265,
  " pi3": 2266,
  " dao4 le": 2267,
  " suo3 ": 2268,
  " 192": 2269,
  "ow": 2270,
  "cai2": 2271,
  "guang1 ": 2272,
  " wu4 guan3": 2273,
  "ta1 men": 2274,
  " zao4 cheng2 ": 2275,
  "chu1 ": 2276,
  "fa3 ": 2277,
  " xian3 shi4 ": 2278,
  " bang1": 2279,
  "zhu4 ": 2280,
  "yong3": 2281,
  " jing4 ": 2282,
  "ying2 ": 2283,
  " huan1 ": 2284,
  " shi4 ch": 2286,
  " si4 ": 2287,
  " de ming2": 2288,
  "sha1": 2289,
  " xue2 ming2 ": 2290,
  " ya1 ": 2291,
  " kang4": 2292,
  "shang4 ": 2293,
  " zai4 200": 2294,
  "199": 2295,
  "T ": 2296,
  " xiao4 ": 2297,
  "   gen1": 2298,
  " fa1 xian4 ": 2299,
  " sou1": 2300,
  " jue2 ": 2301,
  " zai4 h": 2302,
  " W": 2303,
  " de jian4": 2304,
  "shang1 ": 2305,
  " hui4 yi4 ": 2306,
  " zhu3 xi2 ": 2307,
  "fan3 ": 2308,
  " pan2": 2309,
  " liao4": 2310,
  " gong1 kai1": 2311,
  " lian2 he2 ": 2312,
  " zou4": 2313,
  " dun4 ": 2314,
  " tuan2 ": 2315,
  " mi2 ": 2316,
  " lei4 ": 2317,
  "es": 2318,
  " zai4 ci4": 2319,
  " de yi2 ge4 shi4 zhen4 ": 2320,
  " dun1": 2321,
  " hao3 ": 2322,
  " ruan3 ": 2323,
  " duan3 ": 2324,
  "   ren2 kou3 ": 2325,
  " xu3 ": 2326,
  "   L": 2327,
  " chu1 ban3 ": 2328,
  " zu2 ": 2329,
  "xi4 tong3": 2330,
  " ce4 ": 2331,
  "lun2": 2332,
  "bei3 jing1": 2333,
  " du2 li4 ": 2334,
  " yi4 de ": 2335,
  "wen4": 2336,
  "zhuang1": 2337,
  "   zhe4": 2338,
  " zui4 gao1": 2339,
  " zhe4 yi1 ": 2340,
  "ying2": 2341,
  "shuo1": 2342,
  "zheng4 shi4 ": 2343,
  "wan4 ": 2344,
  " shan1 ": 2345,
  " zi4 ": 2346,
  "u3 yue1": 2347,
  "re4": 2348,
  "yin4 du4": 2349,
  " mai3": 2350,
  " yu2 202": 2351,
  " jiu4 shi4 ": 2352,
  "〉": 2353,
  "〈": 2354,
  " ming2 de ": 2355,
  " ci3 wai4 ": 2356,
  "ju3 ": 2357,
  "huang2": 2358,
  "fen1 ": 2359,
  "ben3 ": 2360,
  " yu2 shi4 ": 2361,
  " di4 shi2 ": 2362,
  " hou2": 2363,
  " zhao3": 2364,
  " jing1 guo4": 2365,
  "liao2 ": 2366,
  "shuang1 ": 2367,
  " pu3 cha2": 2368,
  " zhan4 zheng1": 2369,
  " fu4 ": 2370,
  " duo1 shu4": 2371,
  " lin2 ": 2372,
  " hai3 ba2 gao1 du4": 2373,
  " xing2 shi4 ": 2374,
  " liang4 ": 2375,
  " chu1 de ": 2376,
  " guan3 li3": 2377,
  " wo3 men": 2378,
  " jun4 ": 2379,
  " xiang1 ": 2380,
  " qiang1 ": 2381,
  " shui4": 2382,
  "kong1": 2383,
  "zheng1": 2384,
  "   qi2": 2385,
  "pin3": 2386,
  " yang3": 2387,
  " jun1 shi4 ": 2388,
  " sui2 hou4": 2389,
  "jiu3": 2390,
  "sa4": 2391,
  "xing4 ": 2392,
  " shi4 ji4": 2393,
  "   R": 2394,
  " me": 2395,
  " zu3 zhi1": 2396,
  " bei3 bu4 ": 2397,
  " ling3 dao3": 2398,
  " zhuan4 ": 2400,
  "que4 ": 2401,
  " bu3": 2402,
  "   D": 2403,
  " bi4 ": 2404,
  "zhong1 hua2": 2405,
  " zhong3 ": 2406,
  " kuan3 ": 2407,
  " shao1": 2408,
  " ge4 ren2 ": 2409,
  "   2": 2410,
  "mian4 ji1 wei4 ": 2411,
  " wu1 ke4 lan2": 2412,
  "jin1 ": 2413,
  " chuang4": 2414,
  " qi1 jian1 ": 2415,
  "ding1": 2416,
  " jiao4 ": 2417,
  " 3 ": 2418,
  " de jing1": 2419,
  " zui4 hou4": 2420,
  " bei3 jing1": 2421,
  " ri4 zhi4 ": 2422,
  "mian3 ": 2423,
  " zhe4 shi4 ": 2424,
  "ci2 ": 2425,
  "i ": 2426,
  " lao3 ": 2427,
  " di4 guo2 ": 2428,
  "tie3 lu4": 2429,
  "sheng1 ": 2430,
  "si1 ": 2431,
  " zhi4 z": 2432,
  " bao1 kuo4 ": 2433,
  " fan3 dui4": 2434,
  " duo1 ": 2435,
  " bu2 shi4 ": 2436,
  "yin1 yue4 ": 2437,
  "nong2 ": 2438,
  " kong4 zhi4 ": 2439,
  " you3 xian4": 2440,
  "ding4 ": 2441,
  " ren4 he2 ": 2442,
  " ai4 ": 2443,
  " shou3 ci4": 2444,
  " ge2 lan2": 2445,
  "deng3 ": 2446,
  "zi4 ji3": 2447,
  " kou3 ": 2448,
  " li4 yong4": 2449,
  " shen1 ": 2450,
  "gong4 chan3": 2451,
  " mei4": 2452,
  " nei4 ": 2453,
  "ran3 ": 2454,
  " zhu2 jian4": 2455,
  "se4 ": 2456,
  "ic": 2457,
  " wei4 yu2 gai1": 2458,
  "k ": 2459,
  "guang3": 2460,
  "   G": 2461,
  "   jia1": 2462,
  "hao4 ": 2463,
  " dang1 zhong1 ": 2464,
  " 2010 nian2 ": 2465,
  " fang1 mian4": 2466,
  " wei3 yuan2 hui4": 2467,
  " zi4 zhi4 ": 2468,
  " he2": 2469,
  "zong3 tong3": 2470,
  " xiang1 guan1": 2471,
  " shu1 ji4 ": 2472,
  " shi3 yong4 ": 2473,
  " er2 qie3": 2474,
  " de jie2": 2475,
  " xue3": 2476,
  " qiu2 dui4": 2477,
  "   xing2 zheng4 ": 2478,
  " cao1": 2479,
  " fa1 biao3": 2480,
  " sui4 ": 2481,
  "   p": 2482,
  " kuan1 ": 2483,
  " le4 ": 2484,
  " feng2": 2485,
  " lie4 che1": 2486,
  " yong1 you3 ": 2487,
  "de2 guo2 ": 2488,
  "li4 de ": 2489,
  "cheng2 wei2": 2490,
  " tong2 ": 2491,
  "quan2 ": 2492,
  " si1 tan3 ": 2493,
  " 30": 2494,
  " gong1 ch": 2495,
  " bu4 neng2": 2496,
  "ju2": 2497,
  " de qing2 ": 2498,
  "zhi1 chi2": 2499,
  "mei2 you3 ": 2500,
  " zai3": 2501,
  " jin3 guan3": 2502,
  " chan3 sheng1": 2503,
  " shi4 yi3": 2504,
  "m ": 2505,
  "man4 ": 2506,
  " ting1 ": 2507,
  " dong3": 2508,
  " gong1 li3": 2509,
  " zai4 ci3": 2510,
  " cheng2 de ": 2511,
  " luan4 ": 2512,
  "hui4 ": 2513,
  "shi2 de ": 2514,
  " de jue2": 2515,
  " lei3": 2516,
  " qi3 ": 2517,
  "zhan4 zheng1": 2518,
  "qing2 ": 2519,
  " wang2 ": 2520,
  "   formula ": 2521,
  "cheng2 li4 ": 2522,
  "tui1 ": 2523,
  "A ": 2524,
  " jin3 biao1": 2525,
  " sheng1 ya2": 2526,
  " gong1 ye4": 2527,
  "shao3 ": 2528,
  "n ": 2529,
  "ling2 ": 2530,
  "yue1 ": 2531,
  " gao1 ": 2532,
  " zhen3": 2533,
  " bu4 l": 2534,
  "shou1": 2535,
  "yin1 wei4 ": 2536,
  "–": 2537,
  " che1 zhan4 ": 2538,
  " yun4 dong4 yuan2 ": 2539,
  "an1 shi4 ": 2540,
  "guo2 ji4 ": 2541,
  " kai1 fa1": 2542,
  " suan4 ": 2543,
  "xin1 ": 2544,
  "bi3 sai4": 2545,
  "shang4 hai3": 2546,
  "   k": 2547,
  " kang4 ": 2548,
  " wen4 ti2 ": 2549,
  " shi2 dai4": 2550,
  " xi4 tong3 ": 2551,
  "wu1 ke4 lan2": 2552,
  " he2 bing4": 2553,
  "hai3 jun1": 2554,
  "ling3 ": 2555,
  "40": 2556,
  "suan1 ": 2557,
  " zhang1 ": 2558,
  "ec": 2559,
  " de te4": 2560,
  " zhong1 xin1 ": 2561,
  " luo2 ma3": 2562,
  " lu2 ": 2563,
  "   198": 2564,
  "qi4 ": 2565,
  " fu4 jin4": 2566,
  "jian3 ": 2567,
  " xie4 ": 2568,
  "zu2 ": 2569,
  " fang1 ": 2570,
  "a1 er3": 2571,
  " tao3": 2572,
  "jie4 ": 2573,
  " de you2": 2574,
  " he2 p": 2575,
  " zang4 ": 2576,
  " qu3 de2": 2577,
  " fang1 shi4 ": 2578,
  " gui1 mo2": 2579,
  " na2 da4": 2580,
  "it": 2581,
  " ge2 ming4": 2582,
  "   H": 2583,
  "jin4 xing2": 2584,
  "jiao1 tong1": 2585,
  " ta1 shi4 ": 2586,
  " you2 ": 2587,
  "as": 2588,
  "rui4": 2589,
  " xi1 bei3": 2590,
  "   ta1": 2591,
  " wen4 ti2": 2592,
  " yi1 yuan4": 2593,
  "li2 ": 2594,
  " ran2 er2": 2595,
  " ying3 xiang3 ": 2596,
  " cang2 ": 2597,
  " pu2": 2598,
  "ban1 ": 2599,
  " li4 de ": 2600,
  "yin3 ": 2601,
  " mou3": 2602,
  " kuai4": 2603,
  "hui1 ": 2604,
  " su1 lian2": 2605,
  " U": 2606,
  "yang4 ": 2607,
  " die2": 2608,
  " dou1 shi4 ": 2609,
  " bu4 zai4 ": 2610,
  "kuai4": 2611,
  "huan4 ": 2612,
  " xue2 jia1": 2613,
  "o ": 2614,
  " bao4 ": 2615,
  " zhui1 ": 2616,
  " ren2 de ": 2617,
  " cui4": 2618,
  "…": 2619,
  " he2 nan2": 2620,
  " yi3 lai2": 2621,
  "25": 2622,
  "du2": 2623,
  "   18": 2624,
  " yue4 30": 2625,
  " jian4 yu2 ": 2626,
  " guan4 jun1 ": 2627,
  "the   ": 2628,
  " gou1": 2629,
  " fa1 bu4 ": 2630,
  " hai4": 2631,
  " xiao3 shi2 ": 2632,
  " li2 kai1": 2633,
  "zhao4 ": 2634,
  " cheng1 wei2": 2635,
  " jun4": 2636,
  " wan2 quan2": 2637,
  "fei4": 2638,
  "ren2 kou3 pu3 cha2": 2639,
  " 4 ": 2640,
  "xi4 lie4": 2641,
  "60": 2642,
  " zu3 cheng2 ": 2643,
  " zhuo2": 2644,
  " yu2 199": 2645,
  " ning2 ": 2646,
  " qi2 yu2 ": 2647,
  "dian4 ying3 ": 2648,
  " zuo4 pin3 ": 2649,
  "   I": 2650,
  " fen1 bu4 yu2 ": 2651,
  " shu3 ": 2652,
  "   c": 2653,
  " gong4 you3 ": 2654,
  "p ": 2655,
  " ni3": 2656,
  " xing1 ": 2657,
  "rong2 ": 2658,
  " jiao1 tong1": 2659,
  " jie1 shou4": 2660,
  " shi2 de ": 2661,
  " ta1 ceng2": 2662,
  " si1 ling4": 2663,
  "S ": 2664,
  "jia1 ": 2665,
  "quan2 guo2 ": 2666,
  " zu3 ": 2667,
  " O": 2668,
  " ti2 chu1": 2669,
  "zu2 qiu2": 2670,
  "   F": 2671,
  " can1 jia1 ": 2672,
  "   ci3": 2673,
  " fo2": 2674,
  " qi2 shi4 ": 2675,
  "da4 xue2": 2676,
  " wen3": 2677,
  " han2 guo2 ": 2678,
  "ke3 yi3": 2679,
  " yi1 ming2": 2680,
  " nong2": 2681,
  " 2001 nian2 ": 2682,
  " bu4 de ": 2683,
  " lou2 ": 2684,
  "dun4": 2685,
  " di4 si4": 2686,
  "..": 2687,
  " ju4 you3 ": 2688,
  " you3 de ": 2689,
  "dang1 shi2 ": 2690,
  " le4 bu4 ": 2691,
  " ren2 lei4": 2692,
  "chuan2 tong3": 2693,
  " ju3 ban4": 2694,
  " shao3 ": 2695,
  "duan3 ": 2696,
  " wei4": 2697,
  " zhi4 de ": 2698,
  "   ju4": 2699,
  " ji4 nian4 ": 2700,
  " ran2 er2 ": 2701,
  "yao1": 2702,
  " chu1 xian4": 2703,
  " yi1 zhong3": 2704,
  " tou4 guo4": 2705,
  " xian4 dai4": 2706,
  " shi4 shi2 ": 2707,
  "di3 ": 2708,
  "pin3 ": 2709,
  " shi4 wu4": 2710,
  "jiao4 yu4": 2711,
  " nan2 zi": 2712,
  " bang3 ": 2713,
  " lve4": 2714,
  "cha2 ": 2715,
  " shu3 de ": 2716,
  " xin1 ": 2717,
  " min2 zhu3": 2718,
  "huan2": 2719,
  " suo3 you3 ": 2720,
  "   nian2": 2721,
  " mao4 ": 2722,
  " jie1 r": 2723,
  "xun4": 2724,
  " mei2 ti3": 2725,
  " shen2 ": 2726,
  " xiang4 mu4": 2727,
  " de zhu3 yao4": 2728,
  " jie1 ": 2729,
  "jin4 xing2 ": 2730,
  " fu2 ": 2731,
  " kao4 ": 2732,
  " cao3 ": 2733,
  "jie3": 2734,
  " he2 h": 2735,
  " la1 ": 2736,
  "   194": 2737,
  "wen2 ": 2738,
  " guan3 xia2 ": 2739,
  " de zheng4": 2740,
  "sai1": 2741,
  "ban3 ": 2742,
  " de qian2": 2743,
  " yi4 qi3": 2744,
  " na4 ": 2745,
  " zu3 zhi1 ": 2746,
  "huang2 ": 2747,
  " chen2 ": 2748,
  " wei4 ren2 ": 2749,
  " cha1": 2750,
  " a1 er3": 2751,
  "zuo3": 2752,
  "   m": 2753,
  " qing3 ": 2754,
  " yi1 ci4": 2755,
  "ation": 2756,
  "xuan1 bu4 ": 2757,
  " bao1 han2": 2758,
  "dun4 ": 2759,
  "di3": 2760,
  "shu1 ": 2761,
  "can1 yu4": 2762,
  "di4 qu1 ": 2763,
  " chu1 xian4 ": 2764,
  "xiang1 guan1": 2765,
  "qu1 wei4 ": 2766,
  " de yi1 bu4 fen4 ": 2767,
  " yuan2 de ": 2768,
  "D ": 2769,
  " jie3 fang4 ": 2770,
  " nao3": 2771,
  " reng2 ran2": 2772,
  " po4 ": 2773,
  "lin2 pi3": 2774,
  " wei4 zhi4 ": 2775,
  " lao2 ": 2776,
  "lei2 ": 2777,
  " shi4 yan3": 2778,
  " zuo4 wei2 ": 2779,
  " lei4 si4": 2780,
  " zhi2 jie1": 2781,
  " ji2 qi2": 2782,
  " bu4 men2": 2783,
  " shi2 nian2 ": 2784,
  "chen2": 2785,
  "wei3 yuan2 hui4": 2786,
  "zhou1 ": 2787,
  "UT": 2788,
  " ma3 ": 2789,
  " qu4 ": 2790,
  " shi4 wei4 yu2 mei3 guo2 ": 2791,
  " guo1": 2792,
  " wei4 di4 ": 2793,
  "jin4 ru4": 2794,
  " tu2 ": 2795,
  " zhuan1 ji2": 2796,
  " dan4 ": 2797,
  " chun1": 2798,
  " shen4 zhi4 ": 2799,
  " chi3": 2800,
  " bo1 ": 2801,
  "ter": 2802,
  " zhan4 dou4": 2803,
  "you1 ": 2804,
  " dao4 le ": 2805,
  " que1": 2806,
  "ti2 gong1 ": 2807,
  " ling4 shi2 ": 2808,
  " bao3 hu4": 2809,
  "ting2": 2810,
  " chai1": 2811,
  " ji1 gou4": 2812,
  "lin2 pi3 ke4": 2813,
  " ba3 ": 2814,
  " 190": 2815,
  " hun1": 2816,
  " cha4": 2817,
  "zhi2 ": 2818,
  "suo3 you3 ": 2819,
  " liu2 ": 2820,
  " fei1 chang2": 2821,
  "   wei4 ": 2822,
  " liao2 ": 2823,
  " zhong1 hua2 min2 guo2 ": 2824,
  " qu1 de ": 2825,
  "guan3 li3": 2826,
  " cu4": 2827,
  " lun2 ": 2828,
  " de nv3": 2829,
  "jun4 ": 2830,
  "kuai4 ": 2831,
  " shi4 yi4": 2832,
  " pi2": 2833,
  " jie2 shu4": 2834,
  "shu3 ": 2835,
  "   zh": 2836,
  " jiang1 qi2": 2837,
  " yin4 ": 2838,
  "ka3": 2839,
  " zhu2 ": 2840,
  " yue4 28 ri4 ": 2841,
  " da4 bu4 fen4": 2842,
  " yan1 ": 2843,
  "u1 de ": 2844,
  " shi2 san1": 2845,
  " zhu3 yi4": 2846,
  " fen1 zhong1 ": 2847,
  " tui1 chu1": 2848,
  " dong1 bei3": 2849,
  "ping2 jun1": 2850,
  " zai4": 2851,
  "zhuang1 ": 2852,
  "198": 2853,
  " zhu3 chi2": 2854,
  " shi4 jian4 ": 2855,
  "jun1 shi4 ": 2856,
  " jie2 mu4": 2857,
  "ning2 ": 2858,
  " qiang1": 2859,
  " wei3 yuan2 hui4 ": 2860,
  " ya3": 2861,
  " ze2 ": 2862,
  " biao1 ": 2863,
  " xi1 ban1 ya2": 2864,
  " lao2": 2865,
  " wei4 mei3": 2866,
  " shi2 si4": 2867,
  "zhuang4 ": 2868,
  "man3 ": 2869,
  "   b": 2870,
  "she4 hui4": 2871,
  "ruo4": 2872,
  "zu3 zhi1": 2873,
  "ru": 2874,
  " he2 t": 2875,
  " fu2 wu4": 2876,
  " xian1 hou4": 2877,
  " qing2 kuang4 ": 2878,
  " yuan2 yin1": 2879,
  " jin4 shi4 ": 2880,
  "u4 shi4 ": 2881,
  " wei4 neng2": 2882,
  " shi2 qi1 ": 2883,
  " wei3 ": 2884,
  " shun4": 2885,
  " ji1 ben3": 2886,
  " tun2": 2887,
  " gong4 tong2": 2888,
  "zhang1 ": 2889,
  " gong1 neng2": 2890,
  " zhong4 ": 2891,
  "zhong1 de ": 2892,
  " V": 2893,
  " chang1 ": 2894,
  " da4 zhan4": 2895,
  "shu4 ": 2896,
  "jue2 ding4": 2897,
  " si1 ke1": 2898,
  " yue4 15 ri4 ": 2899,
  "   yi3": 2900,
  "fa1 sheng1": 2901,
  "zuo4 wei2": 2902,
  " fang3 ": 2903,
  " nai3": 2904,
  " nv3 xing4": 2905,
  " ying4 ": 2906,
  " zheng4 ce4": 2907,
  "wei3 yuan2 hui4 ": 2908,
  " de l": 2909,
  " lian2 sai4": 2910,
  " rou4": 2911,
  " li4 fa3": 2912,
  "kuan3 ": 2913,
  " chu2 le": 2914,
  " shan3 ": 2915,
  " lang2": 2916,
  " yu2 18": 2917,
  " 2011 nian2 ": 2918,
  " bi3 ": 2919,
  "ag": 2920,
  " zai4 qi2": 2921,
  " you3 shi2 ": 2922,
  " mian4 ji1": 2923,
  " gong1 shi4 ": 2924,
  " xin1 wen2": 2925,
  " heng1": 2926,
  "   E": 2927,
  " zhui1": 2928,
  " de gao1": 2929,
  " hai2 you3 ": 2930,
  "jing1 ji4 ": 2931,
  "he   ": 2932,
  " gong1 lu4": 2933,
  " xi1 nan2": 2934,
  " guan1 yu2 ": 2935,
  "   W": 2936,
  " ju3 xing2 ": 2937,
  "shi2 qi1": 2938,
  " guan4 jun1": 2939,
  " huo4 ": 2940,
  " mao2": 2941,
  "di2 ": 2942,
  "000": 2943,
  "can1 jia1": 2944,
  "UTC ": 2945,
  " hong1": 2946,
  " xuan3 ": 2947,
  " 191": 2948,
  " zhou4": 2949,
  "zu3 zhi1 ": 2950,
  " lei2": 2951,
  " min2 zu2": 2952,
  " suan1 ": 2953,
  " de xi1": 2954,
  " cao3": 2955,
  " shi4 xue2": 2956,
  "min2 zhu3": 2957,
  " sai4 shi4 ": 2958,
  " wei4 yu2 gai1 guo2 ": 2959,
  " ma2": 2960,
  " ping2 yang2": 2961,
  " jin1 ": 2962,
  " shi4 fa3 guo2 ": 2963,
  " de jia1": 2964,
  " shi2 ji4 ": 2965,
  " xie2 hui4": 2966,
  " de quan2": 2967,
  " tian1 ": 2968,
  " dian4 ": 2969,
  "ir": 2970,
  " jian4 she4": 2971,
  "lai2 zi4": 2972,
  "jiu3 ": 2973,
  " miao4 ": 2974,
  " de zhi4 ": 2975,
  " hui1 fu4": 2976,
  "jue2 ": 2977,
  "mi4": 2978,
  "dang1 di4 ": 2979,
  "fan4 ": 2980,
  " de tong2": 2981,
  " han3 ": 2982,
  " lai2 xi1 ya4": 2983,
  " yi4 shi4 ": 2984,
  " de ju4": 2985,
  " ju1 min2": 2986,
  " zhong1 yang1": 2987,
  " hun1 ": 2988,
  " lan2 ": 2989,
  " chuan2 tong3": 2990,
  " 25": 2991,
  " meng2 gu3": 2992,
  " de xian4": 2993,
  "   3": 2994,
  "xue2 yuan4": 2995,
  " fa3 yuan4": 2996,
  "dui4 ": 2997,
  " zeng1 jia1": 2998,
  " li3 shi4 ": 2999,
  "ke4 ": 3000,
  " de qing2 kuang4 ": 3001,
  "dian4 ": 3002,
  " zu1 ": 3003,
  " dan4 zai4 ": 3004,
  "xu1 yao4": 3005,
  " de li4 ": 3006,
  " zuo4 pin3": 3007,
  " chi2 xu4": 3008,
  " de hai3": 3009,
  " she4 li4 ": 3010,
  " ti3 yu4": 3011,
  "yi1 nian2 ": 3012,
  "10 ri4 ": 3013,
  " de xiao3": 3014,
  "bi4 ye4": 3015,
  " shi2 wu3": 3016,
  "yi1 bu4 ": 3017,
  "on ": 3018,
  " shi4 xi": 3019,
  " zhi3 you3 ": 3020,
  " 2009 nian2 ": 3021,
  "EE": 3022,
  " hui4 zai4 ": 3023,
  " 5 ": 3024,
  " shi4 chang3": 3025,
  "fa1 xian4 ": 3026,
  " jie2 guo3": 3027,
  " de zhan4": 3028,
  "fang2": 3029,
  "zhun3": 3030,
  " zi4 ran2": 3031,
  " yao2": 3032,
  "e2 luo2 si1": 3033,
  " fu2 wu4 ": 3034,
  " xue2 xi2 ": 3035,
  "te": 3036,
  "80": 3037,
  "reng2": 3038,
  " ji4 lu4": 3039,
  "mu3": 3040,
  " ren4 ming4": 3041,
  " ji1 chang3": 3042,
  " shi4 zhi3": 3043,
  " ou1 zhou1": 3044,
  "shan1 ": 3045,
  "tai4 ": 3046,
  " bang4 ": 3047,
  " meng2 ": 3048,
  " wu3 ": 3049,
  "ni2 ya4": 3050,
  " cheng2 yuan2 ": 3051,
  " yue4 25 ri4 ": 3052,
  "ning2": 3053,
  "shou3 ci4": 3054,
  " de wei4 ": 3055,
  " shi4 tu2": 3056,
  "   gen1 ju4": 3057,
  "20 ri4 ": 3058,
  " keng1": 3059,
  " ben3 ": 3060,
  " pao4": 3061,
  "a1 la1": 3062,
  " diao4": 3063,
  "22": 3064,
  "chao1": 3065,
  "liao2": 3066,
  " jiang1 ": 3067,
  "qi1 jian1": 3068,
  " re4 ": 3069,
  " he2 qi2": 3070,
  " lan3 ": 3071,
  " hun4": 3072,
  " cheng2 zhong1 ": 3073,
  "an ": 3074,
  "qiang2 ": 3075,
  " yue4 30 ri4 ": 3076,
  "liang4 ": 3077,
  "   N": 3078,
  " de zi4": 3079,
  " cheng2 qu1 ": 3080,
  " xu3": 3081,
  "jun4": 3082,
  "si3 ": 3083,
  " qu1 yu4": 3084,
  " he2 ping2": 3085,
  " yi4 yuan4": 3086,
  " de mu4": 3087,
  " huan2 jing4": 3088,
  "su4 ": 3089,
  "yi4 ": 3090,
  "ao4 lin2 pi3 ke4": 3091,
  " ning2": 3092,
  " fen3": 3093,
  "sheng1 huo2": 3094,
  " bi3 sai4 ": 3095,
  " gong1 gong4": 3096,
  " chao2 xian1 ": 3097,
  " pi1 ping2": 3098,
  " da4 li4 ya4": 3099,
  " zui4 chu1": 3100,
  " zai4 yi1 ": 3101,
  " deng4": 3102,
  " ling4 wai4": 3103,
  " xue2 yuan4 ": 3104,
  "   yu2 ": 3105,
  "   xi": 3106,
  "zeng1": 3107,
  "shuang1": 3108,
  "ng ": 3109,
  "zhan4 ": 3110,
  " neng2 gou4": 3111,
  " yi4 hui4": 3112,
  " ru4 ": 3113,
  "70": 3114,
  "yi2 ": 3115,
  " bing4 bu4 ": 3116,
  " zheng4 zhi4 ren2 wu4 ": 3117,
  "ya4 zhou1": 3118,
  " yu2 l": 3119,
  " shi4 fou3": 3120,
  " hou4 de ": 3121,
  " jie3 ": 3122,
  " chu3 li3": 3123,
  " yun3": 3124,
  "ju1 min2": 3125,
  " zhi2 ye4": 3126,
  " jie4 ": 3127,
  "wen1": 3128,
  "   zheng4 zhi4 ": 3129,
  "wei3 yuan2 ": 3130,
  " yao2 ": 3131,
  "cai3": 3132,
  " suo3 yi3": 3133,
  " zhan1 ": 3134,
  " ge4 yue4 ": 3135,
  " luo4 ": 3136,
  " hui3 ": 3137,
  "ka3 ": 3138,
  " tui1": 3139,
  " ding3": 3140,
  " ci4 ": 3141,
  "gui3": 3142,
  " yi4 da4 li4 ": 3143,
  " zui4 hou4 ": 3144,
  "ke3 yi3 ": 3145,
  " shuang1": 3146,
  " wu4 bao3 hu4": 3147,
  " wa3 er3": 3148,
  "you2 xi4": 3149,
  " xian4 shi2 ": 3150,
  " cang2": 3151,
  "xuan2": 3152,
  " zhong1 bu4 ": 3153,
  " she4 ji4": 3154,
  " fou3": 3155,
  " ju4 le4 bu4 ": 3156,
  "qiu2 ": 3157,
  " you3 ren2 ": 3158,
  "mei3 guo2 ren2 kou3 pu3 cha2": 3159,
  " huai2": 3160,
  " tao4 ": 3161,
  " an1 quan2": 3162,
  " jun1 dui4": 3163,
  "lie4 che1": 3164,
  " fa1 dong4": 3165,
  " hen3 duo1": 3166,
  " bi4 xu1 ": 3167,
  "nei4 ": 3168,
  " ren2 men": 3169,
  "duan1 ": 3170,
  "gong1 si1": 3171,
  "   jie2": 3172,
  "fa1 xing2 ": 3173,
  "18 ri4 ": 3174,
  "NS": 3175,
  " yuan2 nian2 ": 3176,
  " de xue2": 3177,
  " ji4 suan4 ": 3178,
  " tuan2 ti3": 3179,
  " lie4 ": 3180,
  "suo3 ": 3181,
  "rong2": 3182,
  "chuang4": 3183,
  "xia4 ji4 ": 3184,
  " yue1 han4 ": 3185,
  " mei3 zhou1": 3186,
  " bian4 ": 3187,
  " ming2 cheng1": 3188,
  " bu4 tong2 ": 3189,
  " shi2 ba1": 3190,
  " xian4 zhi4 ": 3191,
  "que1": 3192,
  " ke1 ": 3193,
  "qu3 de2": 3194,
  " da1": 3195,
  " yue4 24 ri4 ": 3196,
  " ping2 jun1": 3197,
  "cun2": 3198,
  "un": 3199,
  "48": 3200,
  " shi2 liu4": 3201,
  "zheng3": 3202,
  " jing1 chang2": 3203,
  " chu3 yu2 ": 3204,
  "   s": 3205,
  "shi2 jian1": 3206,
  " yue4 26 ri4 ": 3207,
  "kai1 fa1": 3208,
  " da4 yue1": 3209,
  "na4 ": 3210,
  " jian4 de ": 3211,
  " 50": 3212,
  "   197": 3213,
  " ge4 zhong3": 3214,
  " shi3 de ": 3215,
  " ta1 ye3": 3216,
  " shou4 dao4": 3217,
  " di4 tie3": 3218,
  "tong2 nian2 ": 3219,
  " zong3 ren2 kou3": 3220,
  "   da4": 3221,
  "du1 ": 3222,
  " xue2 xiao4 ": 3223,
  "tai2 ": 3224,
  " she2": 3225,
  "   195": 3226,
  "tai2 bei3": 3227,
  "zhu1 ": 3228,
  " di4 li4 ": 3229,
  " gu4 shi4 ": 3230,
  "zui4 gao1": 3231,
  "guo2 min2": 3232,
  " xiang1 dang1": 3233,
  "lo": 3234,
  " can2": 3235,
  " ke1 xue2": 3236,
  "ying4 ": 3237,
  "bei1": 3238,
  "da3": 3239,
  " yang2 ": 3240,
  " e2 luo2 si1": 3241,
  " de zhu4": 3242,
  " zha1": 3243,
  "ren4 he2 ": 3244,
  " wei2 er3": 3245,
  " luo2 ": 3246,
  " wo4 ": 3247,
  "qiu2 dui4": 3248,
  " dong1 nan2": 3249,
  " ci4 shi4 jie4": 3250,
  " ceng2 jing1": 3251,
  " bing4 wei4 ": 3252,
  " 2016 nian2 ": 3253,
  "bei3 bu4 ": 3254,
  "pei4": 3255,
  " shang1 ye4": 3256,
  "jin3": 3257,
  " lai4": 3258,
  " hai3 jun1": 3259,
  "is": 3260,
  " biao3 ": 3261,
  "liu2 ": 3262,
  " ge4 ": 3263,
  "jiang3 ": 3264,
  " ri4 jun1": 3265,
  " kan3 ": 3266,
  " ya3 ": 3267,
  " wei4 zhong1 ": 3268,
  " zai4 ta1": 3269,
  " yue4 16 ri4 ": 3270,
  "   the   ": 3271,
  " de dian4": 3272,
  " mian4 ji1 wei4 ": 3273,
  "jie2 ": 3274,
  " hui2 dao4": 3275,
  " zai4 199": 3276,
  "dan1 ": 3277,
  "mei3 yuan2 ": 3278,
  " fa1 xing2 ": 3279,
  " qian4 ": 3280,
  "23": 3281,
  " bo2 wu4 guan3": 3282,
  " yue4 17 ri4 ": 3283,
  " dun1 ": 3284,
  "100": 3285,
  " shi4 bu4 ": 3286,
  " pi1": 3287,
  "sha1 ": 3288,
  " jing3 cha2": 3289,
  " he2 xi": 3290,
  "ruan3 ": 3291,
  " tan1 ": 3292,
  " ting3": 3293,
  " yin3 qi3": 3294,
  "   you2 yu2 ": 3295,
  " wei4 yi1 ": 3296,
  " xian4 de yi2 ge4": 3297,
  " br ": 3298,
  " ji4 hua4 ": 3299,
  " wei4 h": 3300,
  "xun4 ": 3301,
  " 2008 nian2 ": 3302,
  " zhan3 kai1": 3303,
  " huai4 ": 3304,
  " bao3 ": 3305,
  " 100": 3306,
  "lian2 he2 ": 3307,
  " ban3 ben3": 3308,
  " huai2 ": 3309,
  " zhang4": 3310,
  "yong3 ": 3311,
  " wei3 yuan2 ": 3312,
  "xu4 ": 3313,
  " shang4 wei4 ": 3314,
  " gong1 ji1": 3315,
  " bi4 ye4": 3316,
  " yuan2 ben3": 3317,
  "liang2 ": 3318,
  " yue4 12 ri4 ": 3319,
  " shuo4": 3320,
  " ceng2 ren4": 3321,
  "P ": 3322,
  "fang2 ": 3323,
  " hao2": 3324,
  "luo2 ma3": 3325,
  "tu2 ": 3326,
  " guang3 dong1": 3327,
  " ling4 ": 3328,
  " cai4": 3329,
  " ding3 ": 3330,
  " jue2 se4": 3331,
  " yue4 27 ri4 ": 3332,
  " ge1 ": 3333,
  " geng4 duo1": 3334,
  " xiu4 ": 3335,
  " sun1": 3336,
  "she4 ji4 ": 3337,
  "lu4 di4 ": 3338,
  " kuang4 ": 3339,
  " yue4 21 ri4 ": 3340,
  " xuan3 ze2": 3341,
  "chan3 sheng1": 3342,
  " jian3 cheng1": 3343,
  " jing4 nei4": 3344,
  "ig": 3345,
  "19 ri4 ": 3346,
  "lian2 sai4": 3347,
  " de2 dao4": 3348,
  " zhi2 dao4": 3349,
  " lian2 ": 3350,
  " guang3 bo1": 3351,
  " 2019 nian2 ": 3352,
  " shi4 xi1": 3353,
  " de shu4 ju4 ": 3354,
  " lai2 de ": 3355,
  " suo3 yi3 ": 3356,
  " de shi4 zhen4 ": 3357,
  "diao4": 3358,
  " yue4 11 ri4 ": 3359,
  "nong2": 3360,
  "   196": 3361,
  " kua4": 3362,
  "21": 3363,
  " de ping2": 3364,
  " huo4 zhe3": 3365,
  " wan4 ren2 ": 3366,
  " yue4 3 ri4 ": 3367,
  " yi2 bu4 ": 3368,
  " 2018 nian2 ": 3369,
  "   xian4": 3370,
  " chuang4 zuo4": 3371,
  "nan2 ": 3372,
  " guan1 xi4": 3373,
  " shi4 li4 ": 3374,
  " guan1 fang1": 3375,
  " mian2": 3376,
  "and   ": 3377,
  " you3 ren2 kou3": 3378,
  "zhun3 ": 3379,
  "qi1 jian1 ": 3380,
  " xi1 yang2": 3381,
  "xuan3 qu1": 3382,
  " zhong1 yi1 ": 3383,
  "ren2 kou3 shu4 liang4": 3384,
  " e4": 3385,
  " guan1 xi4 ": 3386,
  " da2 ": 3387,
  " guan3 li3 ": 3388,
  " bing4 yu2 ": 3389,
  " she4 hui4 ": 3390,
  " sai4 ji4 ": 3391,
  " yue4 22 ri4 ": 3392,
  " yue4 2 ri4 ": 3393,
  "wai4 jiao1": 3394,
  "35": 3395,
  "luo4 ": 3396,
  " ke4 si1": 3397,
  " de nan2": 3398,
  " yue4 14 ri4 ": 3399,
  " pan1 ": 3400,
  " yue4 23 ri4 ": 3401,
  "niu3 yue1": 3402,
  " zhe4 jiang1": 3403,
  " yue4 29 ri4 ": 3404,
  " xuan3 ju3 ": 3405,
  " 2013 nian2 ": 3406,
  " he2 di4 ": 3407,
  "   K": 3408,
  "   bu4 ": 3409,
  "yan2 ": 3410,
  " ke4 si1 ": 3411,
  " ren2 shi4 ": 3412,
  " miao2 shu4": 3413,
  "ao4 lin2 pi3 ke4 yun4 dong4": 3414,
  "to": 3415,
  " cai4 ": 3416,
  " yu2 198": 3417,
  " yue4 31 ri4 ": 3418,
  "ni3": 3419,
  " chu1 ren4": 3420,
  " wei4 yu2 fa3 guo2 ": 3421,
  "ge4 ren2 ": 3422,
  " jiao4 shou4 ": 3423,
  "dian1 ": 3424,
  "ke1 xue2": 3425,
  " shi4 zhong1 guo2 ": 3426,
  " xing2 zheng4": 3427,
  " xi1 la4": 3428,
  "die2": 3429,
  " hui3": 3430,
  " de fen1": 3431,
  " yi1 si1": 3432,
  "lian2 ": 3433,
  "zhi3 ": 3434,
  " 2014 nian2 ": 3435,
  "du2 ": 3436,
  " ying2 de2": 3437,
  "liang2": 3438,
  " wu4 bao3 hu4 dan1 wei4 ": 3439,
  "yong1": 3440,
  " 2012 nian2 ": 3441,
  " shi4 xue2 wei4 ": 3442,
  "meng2": 3443,
  "qian2 ": 3444,
  "lan3 ": 3445,
  " er2 gai1": 3446,
  " she3": 3447,
  " 2015 nian2 ": 3448,
  "chu4": 3449,
  " xie2 zhu4": 3450,
  " zhu3 ren4 ": 3451,
  " tai2 bei3": 3452,
  " de shen1": 3453,
  " zheng4 bian1": 3454,
  " bei4 er3": 3455,
  " he2 xin1": 3456,
  " za2 zhi4 ": 3457,
  " guo2 ji4": 3458,
  " she4 zhi4 ": 3459,
  " gong1 chi3 ": 3460,
  "ren2 shi4 ": 3461,
  " ke3 da2": 3462,
  " hu3 ": 3463,
  "av": 3464,
  "sui4": 3465,
  " nan4 ": 3466,
  "dan1 wei4 ": 3467,
  " di4 xia4": 3468,
  " dong1 bu4 ": 3469,
  " zong1 jiao4": 3470,
  " de di4 fang1": 3471,
  " xian2 ": 3472,
  " duo1 ci4": 3473,
  " cheng2 le": 3474,
  " ju4 li2 ": 3475,
  " 2020 nian2 ": 3476,
  "jie1 shou4": 3477,
  " yue4 13 ri4 ": 3478,
  "45": 3479,
  " de wen2": 3480,
  " he2 lan2": 3481,
  "ao1 ": 3482,
  " bang3": 3483,
  " bei4 ren4 wei2": 3484,
  " yin4": 3485,
  " de yan2": 3486,
  " ya4 ": 3487,
  "shou3 ": 3488,
  " lve4 ": 3489,
  " zi1 liao4 ": 3490,
  " bei4 cheng1 wei2 ": 3491,
  " yan3 yuan2 ": 3492,
  "che1 ": 3493,
  "ur": 3494,
  " ji1 hu1 ": 3495,
  "e2 luo2 si1 ": 3496,
  "yun4 ": 3497,
  "ge2 ming4": 3498,
  " liang3 ren2 ": 3499,
  " yi4 hui4 ": 3500,
  "qian2 wang3": 3501,
  " zong4": 3502,
  " shi4 t": 3503,
  " sheng1 wu4": 3504,
  " fu4 qin1": 3505,
  " dian4 ying3 ": 3506,
  "yang1 ": 3507,
  " han": 3508,
  " guo2 wang2": 3509,
  " de di4 yi1 ": 3510,
  " pai1 she4": 3511,
  " da4 hui4": 3512,
  " li4 ru2 ": 3513,
  " yi4 zhi4 ": 3514,
  "an1 quan2": 3515,
  "   193": 3516,
  " er2 zai4 ": 3517,
  " de ge1": 3518,
  "197": 3519,
  "   che1 zhan4": 3520,
  "   yi1 ": 3521,
  "xuan3 ju3 ": 3522,
  " lv3 ": 3523,
  " de wu3": 3524,
  "ling3 dao3": 3525,
  " xi1 ge1": 3526,
  " jie3 fang4 jun1": 3527,
  " nian2 qing1": 3528,
  " bang1 zhu4": 3529,
  "sheng3 ji2 ": 3530,
  " zhong1 guo2": 3531,
  "qiu1 ": 3532,
  "qu4 shi4 ": 3533,
  "gou4": 3534,
  " sheng4 ": 3535,
  " fen4 wei4 ": 3536,
  "lian4 ": 3537,
  " tou2 ": 3538,
  "   2021 nian2 ": 3539,
  " de fan3 ": 3540,
  "28": 3541,
  " de yi2": 3542,
  "dang3": 3543,
  " zai4 jia1": 3544,
  " zeng1 jia1 ": 3545,
  " sen1 ": 3546,
  " de zi1": 3547,
  " you2 xi4 ": 3548,
  " jie1 duan4 ": 3549,
  " hao2 mi3 ": 3550,
  "xue2 xiao4": 3551,
  "90": 3552,
  " jie2 gou4": 3553,
  " yi1 yang4 ": 3554,
  " hai2 shi4 ": 3555,
  "oo": 3556,
  " di4 wu3": 3557,
  "song4": 3558,
  " 2007 nian2 ": 3559,
  "   2019 nian2 ": 3560,
  "en1 ": 3561,
  "xiao3 shi2 ": 3562,
  " bu4 xi": 3563,
  " jiu4 shi4 zhen4 ": 3564,
  "   zi4": 3565,
  "w ": 3566,
  " wei2 chi2": 3567,
  "ap": 3568,
  "tong1 chang2": 3569,
  " xi3 ": 3570,
  " he2 bei3": 3571,
  " fu3 ": 3572,
  " zun1": 3573,
  " ceng2 ": 3574,
  " juan3 ": 3575,
  " tong4": 3576,
  " ku4 ": 3577,
  " cang1 ": 3578,
  "I ": 3579,
  "cai2 ": 3580,
  " ting3 ": 3581,
  " bei1 ": 3582,
  " ge1 qu3": 3583,
  "dao4 ": 3584,
  "te4 ": 3585,
  "tong3 zhi4 ": 3586,
  " ji4 zai3": 3587,
  " he2 yi1 ": 3588,
  " li4 shu3 yu2 ": 3589,
  " sheng3 de yi2 ge4 shi4 zhen4 ": 3590,
  "yong4 yu2 ": 3591,
  "ze2 ": 3592,
  " 40": 3593,
  " ren2 kou3 mi4 du4 wei4 mei3": 3594,
  "ya1": 3595,
  " dong3 shi4 ": 3596,
  " xi4 bao1": 3597,
  "fu1 ": 3598,
  " 2017 nian2 ": 3599,
  " shuai4": 3600,
  "   2020 nian2 ": 3601,
  " gan3 ran3 ": 3602,
  "27": 3603,
  " dong4 hua4": 3604,
  "guang1": 3605,
  "24": 3606,
  " de ying3 xiang3 ": 3607,
  " 2021 nian2 ": 3608,
  " mei3 nian2 ": 3609,
  " yin1 ci3 ": 3610,
  " shi2 ren4": 3611,
  " de dui4": 3612,
  " tuo2": 3613,
  " li4 shi2 ": 3614,
  " ci4 shi4 jie4 da4 zhan4": 3615,
  " wu4 zhong3": 3616,
  " di4 qiu2": 3617,
  " dang4": 3618,
  "zhi1 yi1 ": 3619,
  "can1 jia1 ": 3620,
  " wei2 ya4": 3621,
  " bian1 ": 3622,
  " de san1": 3623,
  "26": 3624,
  "   suo3": 3625,
  " jia1 po1": 3626,
  "diao4 cha2": 3627,
  " de feng1": 3628,
  " ci3 ": 3629,
  " zao3 qi1": 3630,
  "lin2 ": 3631,
  " bing3": 3632,
  "ren2 kou3 shu4 liang4 wei4 ren2 ": 3633,
  "jia1 ru4": 3634,
  " gai1 sheng3": 3635,
  " INS": 3636,
  " de yan3": 3637,
  " you3 xie1": 3638,
  "gui1": 3639,
  "E ": 3640,
  " yuan2 yu2 ": 3641,
  "ba1 shi4 ": 3642,
  " dong4 wu4": 3643,
  " jia1 zu2": 3644,
  " 2005 nian2 ": 3645,
  "guan1 ": 3646,
  " shun4 ": 3647,
  " chang4 pian4 ": 3648,
  " shi2 fen1": 3649,
  " wei4 lai2": 3650,
  " sun1 ": 3651,
  "jing4 ": 3652,
  " yin1 er2": 3653,
  " fang1 xiang4": 3654,
  " bao3 chi2": 3655,
  " INSEE": 3656,
  " zai4 yi4": 3657,
  " jian4 zhi4 ": 3658,
  " wei4 fu2": 3659,
  " zhong1 guo2 gong4 chan3": 3660,
  " zheng4 bian1 ma3 wei4 ": 3661,
  "   1": 3662,
  " shui3 ": 3663,
  " you4 cheng1": 3664,
  " xiao1 ": 3665,
  "   O": 3666,
  " zhou2": 3667,
  "   bei4": 3668,
  " cheng2 ji4 ": 3669,
  "   zhi4 ": 3670,
  " zuo4 chu1": 3671,
  "   2018 nian2 ": 3672,
  "ci4 ": 3673,
  "fu4 ze2": 3674,
  " jing1 ji4": 3675,
  " shi2 zi4": 3676,
  " zheng4 zai4 ": 3677,
  " kong1 jian1": 3678,
  " bu2 hui4": 3679,
  " qi2 hou4": 3680,
  " ye3 you3 ": 3681,
  " zui4 da4": 3682,
  "tai4 yang2": 3683,
  " zai4 zhong1 ": 3684,
  "bai3": 3685,
  "l ": 3686,
  " shi2 xing2": 3687,
  " zhi3 shi4 ": 3688,
  "op": 3689,
  "dang3 ": 3690,
  "gan3 ": 3691,
  " deng3 ren2 ": 3692,
  " gong1 fen1 ": 3693,
  " chang1": 3694,
  " shan1 dong1": 3695,
  " zhuan1 ji2 ": 3696,
  " cong2 er2": 3697,
  " xiao3 ": 3698,
  "gong4 tong2": 3699,
  " bu4 zhang3": 3700,
  " rao4 ": 3701,
  "dong1 bei3": 3702,
  " lu4 jun1": 3703,
  " zheng3 ge4": 3704,
  "un1": 3705,
  " qi2 xia4": 3706,
  " gong4 he2 ": 3707,
  "   J": 3708,
  " de yan2 jiu1 ": 3709,
  " pang2 ": 3710,
  "oc": 3711,
  " zhi4 202": 3712,
  " sha4": 3713,
  " zhuan1 ye4": 3714,
  "au": 3715,
  " cang1": 3716,
  "fei1 chang2": 3717,
  " er3 de2": 3718,
  " he2 ch": 3719,
  "   gong1 ": 3720,
  " wei4 sheng1": 3721,
  " ming2 chao2": 3722,
  " ying1 chi3 ": 3723,
  " dian4 zi": 3724,
  " 23": 3725,
  " tou2 zi1": 3726,
  "zan4 ": 3727,
  " fu1": 3728,
  "kai1 shi3 ": 3729,
  " tao2 ya2": 3730,
  " xia4 ling4 shi2 ": 3731,
  " de dong4": 3732,
  " zhong1 guo2 da4 lu4": 3733,
  " bian1 ma3 wei4 ": 3734,
  "sui2": 3735,
  "gong4 you3 ren2 kou3": 3736,
  " zhen1 dui4": 3737,
  " wei4 shi2 ": 3738,
  " li4 si1": 3739,
  "miao2 shu4": 3740,
  " shi2 xian4": 3741,
  " yi4 yuan2": 3742,
  " fei3": 3743,
  "long2": 3744,
  "ov": 3745,
  " jia1 shang4": 3746,
  "kuang4": 3747,
  " ni4": 3748,
  " fei4 ": 3749,
  "jing4 nei4": 3750,
  " ren2 kou3 mi4 du4 mei3": 3751,
  "tuan2": 3752,
  "chun1": 3753,
  " zai4 da4": 3754,
  " ju4 jue2": 3755,
  " jia1 na2 da4": 3756,
  "yao4 ": 3757,
  "qu1 yu4": 3758,
  " shi4 zhen4 bian1 ma3 wei4 ": 3759,
  " INSEE shi4 zhen4 bian1 ma3 wei4 ": 3760,
  "ti3 yu4": 3761,
  " quan2 qiu2": 3762,
  " yin2 hang2 ": 3763,
  " xun4 lian4 ": 3764,
  "『": 3765,
  "mei2 you3": 3766,
  "ad": 3767,
  " li4 yu2 ": 3768,
  " xi1 bu4 ": 3769,
  " jian4 zhu4 ": 3770,
  " shi4 yu3": 3771,
  " de li3": 3772,
  " nao3 ": 3773,
  " qi1 xi1": 3774,
  "』": 3775,
  " 2006 nian2 ": 3776,
  " san1 nian2 ": 3777,
  "shi2 de ren2 kou3 shu4 liang4 wei4 ren2 ": 3778,
  " yin3 fa1": 3780,
  "mei3 guo2 ren2 kou3 pu3 cha2 de shu4 ju4 ": 3781,
  " ti1 ": 3782,
  " zai4 xi1": 3783,
  " er2 ren2 kou3 mi4 du4 wei4 mei3": 3784,
  " zhi2 wu4 ": 3785,
  "   2017 nian2 ": 3786,
  " dang1 di4 gong4 you3 ren2 kou3": 3787,
  " de mo2": 3788,
  "ren4 wei2": 3789,
  " gu4 ": 3790,
  "xuan3 qu1 wei4 ": 3791,
  "ang3 de shi4 zhen4 ": 3792,
  " huo4 jiu4 shi4 zhen4 ": 3793,
  " bing1 ": 3794,
  " zhi2 wu4": 3795,
  " sai1 er3": 3796,
  " fang1 mian4 ": 3797,
  " shu3 de sheng3 ji2 ": 3798,
  " shu3 de sheng3 ji2 xuan3 qu1 wei4 ": 3799,
  " zang4": 3800,
  " sang1 ": 3801,
  " ke4 li3": 3802,
  "zhi1 ": 3803,
  " 6 ": 3804,
  " zha2": 3805,
  " ji1 jin1": 3806,
  " dong1 jing1": 3807,
  "re4 dai4": 3808,
  " ji2 wei4 ": 3809,
  "geng4": 3810,
  " min3": 3811,
  " chuan2 ": 3812,
  " yan2 zhong4": 3813,
  "29": 3814,
  " fen4 wei4 fa3 guo2 ": 3815,
  " gai1 sheng3 fen4 wei4 fa3 guo2 ": 3816,
  " zhi2 zhi4 ": 3817,
  " liao2": 3818,
  "tuo1": 3819,
  " he2 zuo4 ": 3820,
  " de nei4": 3821,
  " ta1 bei4": 3822,
  " you3 xiao4": 3823,
  "wu2 fa3": 3824,
  " zhi1 jian1 ": 3825,
  " ren2 shu4": 3826,
  "xuan3 ze2": 3827,
  "xie3": 3828,
  " xie2 ": 3829,
  "quan2 qiu2": 3830,
  " sui2 zhu4": 3831,
  " yi1 wei4 ": 3832,
  "tian1 ": 3833,
  " shi4 yi1 ming2": 3834,
  " qu4 shi4 ": 3835,
  "ed   ": 3836,
  " di4 yi1 ci4": 3837,
  " shi2 shi1": 3838,
  " wai4 jiao1": 3839,
  "lun4 ": 3840,
  "chu1 ban3 ": 3841,
  " nian2 du4": 3842,
  " ji1 yu2 ": 3843,
  " jing3 fang1": 3844,
  "gu4": 3845,
  " xiang2": 3846,
  " zhi2 dao4 ": 3847,
  " xie2 hui4 ": 3848,
  " tai4 ": 3849,
  " da4 duo1 shu4": 3850,
  " li4 ji2": 3851,
  " xin1 de ": 3852,
  "fu2 ": 3853,
  " zai4 nei4": 3854,
  " meng3": 3855,
  "ab": 3856,
  "   xi1": 3857,
  " xin1 zeng1": 3858,
  " tong1 ": 3859,
  "pi1 ": 3860,
  "ti2 chu1": 3861,
  "zhe4 xie1": 3862,
  " suo3 you3": 3863,
  " hu4 ": 3864,
  " biao1 zhun3": 3865,
  " ban4 ": 3866,
  "hui2": 3867,
  "   2016 nian2 ": 3868,
  " gong1 bu4 ": 3869,
  "zhong1 hua2 ren2 min2 gong4 he2 guo2 ": 3870,
  "jun1 dui4": 3871,
  "lie4 ": 3872,
  "   you3": 3873,
  "46": 3874,
  " zai4 zhong1 guo2 ": 3875,
  " de2 dao4 ": 3876,
  " gui3 ": 3877,
  " 500": 3878,
  " zai4 du4": 3879,
  " ji1 gou4 ": 3880,
  " le yi2 ge4": 3881,
  "ak": 3882,
  " shi4 ji2": 3883,
  " shi2 yi1 ": 3884,
  "   2022 nian2 ": 3885,
  " yong1 you3": 3886,
  " wen2 xue2": 3887,
  "jian4 zhu4": 3888,
  "es ": 3889,
  " bu4 jiu3 ": 3890,
  " bu4 de2": 3891,
  " bi3 ya4": 3892,
  " gua4": 3893,
  " diao4 cha2": 3894,
  "es   ": 3895,
  " hou4 zhe3": 3896,
  " hai3 ": 3897,
  " ni2 ": 3898,
  "ju3 xing2 ": 3899,
  " shi4 nan2": 3900,
  " di4 mian4": 3901,
  " diao1": 3902,
  " de zhi3": 3903,
  " bu4 ke3": 3904,
  " zhong1 wen2": 3905,
  " ji1 du1 ": 3906,
  "ao4 yun4": 3907,
  " shu4 ju4": 3908,
  "zhe": 3909,
  " lai4 ": 3910,
  " jin3 biao1 sai4": 3911,
  " zai4 bu4 ": 3912,
  " xian4 lu4": 3913,
  " fa1 xing2": 3914,
  " lian2 jie1": 3915,
  " shui3 yu4": 3916,
  " wen4 ": 3917,
  " de xing4": 3918,
  "zhi2 ye4": 3919,
  " yuan2 zhu4": 3920,
  " zhen1 ": 3921,
  "ding3": 3922,
  "ge2 lan2": 3923,
  " shou4 dao4 ": 3924,
  " zhong1 guo2 ren2 min2": 3925,
  " guo2 hui4": 3926,
  " ji4 lu4 ": 3927,
  "   yi4": 3928,
  "di4 wei4 ": 3929,
  "yang3 ": 3930,
  "75": 3931,
  "bian4 ": 3932,
  " tie1": 3933,
  " deng3 di4 ": 3934,
  " ru2 ": 3935,
  " zhong1 xue2 ": 3936,
  "194": 3937,
  "fa1 xian4": 3938,
  "   jian3 ": 3939,
  "fen1 bie2": 3940,
  "yin4 ": 3941,
  " 189": 3942,
  " xue2 zhe3": 3943,
  "zi4 you2": 3944,
  "ao3 qi1": 3945,
  " zhi3 hui1 ": 3946,
  " ji2 de ": 3947,
  "jing3": 3948,
  "da4 xue2 ": 3949,
  "bao3 ": 3950,
  " xie2 yi4 ": 3951,
  "mu4 qian2": 3952,
  "ing": 3953,
  " zai4 mei3 guo2 ": 3954,
  " 2022 nian2 ": 3955,
  "guang3 dong1": 3956,
  "fu2 wu4": 3957,
  "ye2": 3958,
  " shi4 mei3 guo2 ": 3959,
  " fa1 she4": 3960,
  "xiao3 xing2 xing1": 3961,
  " xi1 wang4 ": 3962,
  " xue1": 3963,
  " zu3 fu4": 3964,
  " ha1 er3": 3965,
  "shi3 yong4 ": 3966,
  " shi4 you3": 3967,
  " he2 liu2": 3968,
  " ji2 zhong1 ": 3969,
  "di4 yi1 ": 3970,
  "2 ren2 ": 3971,
  "neng2 li4 ": 3972,
  "196": 3973,
  "ti3 ": 3974,
  " tan2 ": 3975,
  " xiong1 di4 ": 3976,
  "wen4 ti2 ": 3977,
  " de hou4": 3978,
  " chu1 sheng1 yu2 ": 3979,
  " mei2 ": 3980,
  " gu3 ": 3981,
  "   yuan2": 3982,
  " dai4 biao3 ": 3983,
  " shuang1 fang1": 3984,
  " bu4 duan4 ": 3985,
  "   V": 3986,
  "fu2 wu4 ": 3987,
  " zhi4 yu2 ": 3988,
  " a1 la1": 3989,
  " ju4 you3": 3990,
  "lai2 ": 3991,
  "lian2 bang1 ": 3992,
  " ci3 hou4 ": 3993,
  " si4 chuan1 ": 3994,
  " sheng1 ya2 ": 3995,
  "wan3 ": 3996,
  "qie4": 3997,
  " gai3 wei2": 3998,
  "er3 qi2": 3999,
  "fu4 ": 4000,
  "zu3 ": 4001,
  " xie3 ": 4002,
  " yi3 shang4": 4003,
  " chan3 ": 4004,
  "os": 4005,
  " xu1": 4006,
  " jie2 mu4 ": 4007,
  " zuo3 you4": 4008,
  " chen4": 4009,
  " ying3 xiang3": 4010,
  "38": 4011,
  "chuang4 zuo4": 4012,
  " fang1 an4 ": 4013,
  " cui1": 4014,
  "zhi1 hou4 ": 4015,
  " tai1": 4016,
  "ub": 4017,
  "yu3 ": 4018,
  " jiao4 shou4": 4019,
  " ren2 gong1 ": 4020,
  "zu3 cheng2 ": 4021,
  " shao4 nian2 ": 4022,
  "shen3": 4023,
  " qi3 ye4": 4024,
  "chu3 ": 4025,
  "fu3 ": 4026,
  " dao4 da2": 4027,
  " zhi1 wai4 ": 4028,
  " de yi1 zuo4": 4029,
  "feng1 ": 4030,
  " ju3 xing2": 4031,
  "nv3 ": 4032,
  "0 nian2 dai4 ": 4033,
  "wa3": 4034,
  " xiang4 mu4 ": 4035,
  "xing2 ": 4036,
  "zheng4 ": 4037,
  " de jiao4": 4038,
  " hua4 xue2": 4039,
  " wo1": 4040,
  " guang3 fan4 ": 4041,
  "sui1 ran2": 4042,
  "guan3 ": 4043,
  " gan3 dao4": 4044,
  "xiang1 ": 4045,
  " gao1 su4": 4046,
  "   2014 nian2 ": 4047,
  " gen1 ju4 ": 4048,
  "   2015 nian2 ": 4049,
  " bing4 jiang1": 4050,
  " yu2 hai3": 4051,
  " 28": 4052,
  " you3 xian4 gong1 si1": 4053,
  " xuan3 wei4 ": 4054,
  " guang3 zhou1": 4055,
  "zhao4": 4056,
  " de hua4": 4057,
  "em": 4058,
  " fei1 ": 4059,
  " yu2 197": 4060,
  " li4 shan1": 4061,
  "shun4": 4062,
  "ying3 xiang3": 4063,
  " yi1 nian2 ": 4064,
  "   5": 4065,
  "yi2 ding4": 4066,
  "nan2 bu4 ": 4067,
  " de lu4": 4068,
  "36": 4069,
  " jian3 cha2": 4070,
  "TA": 4071,
  "quan1 ": 4072,
  "   fen1": 4073,
  " re4 dai4": 4074,
  "R ": 4075,
  " hua2 ": 4076,
  " zai4 gai1": 4077,
  " chan2": 4078,
  " you2 qi2": 4079,
  " zai4 t": 4080,
  " quan2 bu4 ": 4081,
  " di4 an1 ": 4082,
  " huai4": 4083,
  " you1": 4084,
  "   4": 4085,
  " he2 xi1": 4086,
  " nan2 jing1": 4087,
  " de di4 er4": 4088,
  "   xin1": 4089,
  " de biao3": 4090,
  " jian4 dui4": 4091,
  " tian1 jin1": 4092,
  "dong1 jing1": 4093,
  " de fei1": 4094,
  " zeng4": 4095,
  "po4": 4096,
  " ji4 zhe3": 4097,
  "   li4 ": 4098,
  " chun1 ": 4099,
  "zuo4 pin3 ": 4100,
  " cheng2 du4": 4101,
  "qu1 hua4 ": 4102,
  "di4 er4": 4103,
  "   2013 nian2 ": 4104,
  " jie1 rang3 de shi4 zhen4 ": 4105,
  " cheng2 ren4": 4106,
  " miao4": 4107,
  " shi4 l": 4108,
  " ya4 zhou1": 4109,
  "4 ren2 ": 4110,
  " chai2": 4111,
  " zhao4 kai1": 4112,
  " tu3 di4 ": 4113,
  "ju3 ban4": 4114,
  "xia4 xia2": 4115,
  " de er2": 4116,
  " pang2": 4117,
  " wei4 xing1": 4118,
  " e2 luo2 si1 ": 4119,
  " ji1 di4 ": 4120,
  " jiang1 jun1": 4121,
  "fen4 ": 4122,
  " ji4 cheng2 ": 4123,
  " de bao4": 4124,
  "min2 zu2": 4125,
  " zhong1 you3": 4126,
  " mei3 ge4": 4127,
  " chang2 ": 4128,
  " hu2 nan2": 4129,
  " de ji2": 4130,
  " 26": 4131,
  "san1 ge4": 4132,
  " shi4 ri4 ben3": 4133,
  " miao2": 4134,
  " qing1 nian2 ": 4135,
  "zao4": 4136,
  "mei2 ti3": 4137,
  "1 ren2 ": 4138,
  " ni3 ": 4139,
  "er3 ": 4140,
  "an3 he2 ": 4141,
  "qi3 ye4": 4142,
  " shou1 lu4": 4143,
  " cha1 ": 4144,
  "shun4 ": 4145,
  "qing1 nian2 ": 4146,
  " dao4 de ": 4147,
  "3 ren2 ": 4148,
  " shi2 yan4 ": 4149,
  "kuan1 ": 4150,
  "wu4 yuan4": 4151,
  " bao4 fa1": 4152,
  " biao1 wei4 ": 4153,
  "   l": 4154,
  "jie2 shu4": 4155,
  " shi4 zheng4": 4156,
  " sun3 ": 4157,
  " niu3 ": 4158,
  " jie3 jue2": 4159,
  "she4 ": 4160,
  "zhe4 ge": 4161,
  " wu4 li3": 4162,
  " de yi1 zhong3": 4163,
  " er2 shi4 ": 4164,
  " ling4 wai4 ": 4165,
  " fu2 jian4": 4166,
  "chao2": 4167,
  " de fang1 shi4 ": 4168,
  " ping2 tai2": 4169,
  " shi4 yue4": 4170,
  "   he2 ": 4171,
  "she4 you3 ": 4172,
  "jue2 sai4": 4173,
  " yi1 tong2": 4174,
  " ti3 zhang3": 4175,
  "   dui4": 4176,
  " de gu3": 4177,
  " zai4 yu2 ": 4178,
  " bu4 la1": 4179,
  " niao3": 4180,
  " ran2 hou4": 4181,
  " zhi1 xian4 ": 4182,
  " fen1 wei2 ": 4183,
  "yuan4 ": 4184,
  "ind": 4185,
  " ba1 shi4 ": 4186,
  "lian2 meng2": 4187,
  " mi2": 4188,
  " xian4 ren2 ": 4189,
  "gang1": 4190,
  " yue4 tai2": 4191,
  "mou3": 4192,
  " shi4 min2": 4193,
  " kou4": 4194,
  " zong3 mian4 ji1 ": 4195,
  "   2023 nian2 ": 4196,
  " kan4 dao4": 4197,
  " zhi1 qian2 ": 4198,
  " hong1 zha4": 4199,
  "°": 4200,
  " guo2 li4 ": 4201,
  " zhi4 zao4": 4202,
  " mang2": 4203,
  "um": 4204,
  " de fa3": 4205,
  " yun4 shu1": 4206,
  "kui2 ": 4207,
  " zhi4 zao4 ": 4208,
  " de zhong4 yao4": 4210,
  " shi4 da4": 4211,
  " da4 qu1 ": 4212,
  " li3 ya4": 4213,
  "mu4 ": 4214,
  " zong1 he2 ": 4215,
  " lian2 bang1 ": 4216,
  "dao3 zhi4 ": 4217,
  "zao4 ": 4218,
  " er2 tong2": 4219,
  " ci3 shi2 ": 4220,
  " di3 da2": 4221,
  "che1 zhan4 ": 4222,
  "ev": 4223,
  "an2 guo2 ": 4224,
  " shi4 bing1": 4225,
  " tong2 shi2 ye3": 4226,
  " gui1 ding4": 4227,
  " yue4 nan2": 4228,
  " huang2 di4 ": 4229,
  "ke1 ": 4230,
  "si3": 4231,
  " shang3 ": 4232,
  " de si1": 4233,
  "kua4": 4234,
  " dao1": 4235,
  " lian2 xu4": 4236,
  " er3 si1 ": 4237,
  " zhun3 bei4": 4238,
  "37": 4239,
  "na2": 4240,
  " ping2 mian4": 4241,
  " niu3 yue1": 4242,
  " er3 lan2": 4243,
  "195": 4244,
  " you3 yi2 ge4": 4245,
  " 21": 4246,
  " fang1 fa3": 4247,
  " ding4 wei4 ": 4248,
  " huo3 ": 4249,
  "M ": 4250,
  " de yu3": 4251,
  "bi3 sai4 ": 4252,
  " de wai4": 4253,
  " dao4 lu4": 4254,
  " tiao2 zheng3": 4255,
  " chang2 qi1": 4256,
  " la1 si1 ": 4257,
  "zui4 zhong1 ": 4258,
  " yi1 xue2": 4259,
  " hun2": 4260,
  " qun2 ": 4261,
  " de liang3": 4262,
  " yu2 194": 4263,
  "wan2 cheng2 ": 4264,
  " wei2 zhu3 ": 4265,
  " kun1": 4266,
  " The   ": 4267,
  " xing2 dong4 ": 4268,
  " zou3 ": 4269,
  " sui2 zhe": 4270,
  "xi1 ": 4271,
  " yi3 se4": 4272,
  " nv3 ": 4273,
  "zhi2 jie1": 4274,
  "00 wan4 ": 4275,
  " ru": 4276,
  " bian3 ": 4277,
  " ne4 ": 4278,
  " de tou2": 4279,
  " zai4 18": 4280,
  " zhou1 shi4 ": 4281,
  " ze2 shi4 ": 4282,
  " man4 hua4": 4283,
  "yue1 han4 ": 4284,
  " hui4 yi4": 4285,
  " 24": 4286,
  " dong1 ": 4287,
  " zhu3 jue2": 4288,
  "bao1 han2": 4289,
  " ma3 li4 ": 4290,
  "amp ": 4291,
  "B ": 4292,
  " 60": 4293,
  " tuo4": 4294,
  "   shi2 ": 4295,
  "bei3 mei3": 4296,
  " zhi1 shi2 ": 4297,
  " she4 qu1 ": 4298,
  " tuo1 ": 4299,
  " de shui3": 4300,
  " 35": 4301,
  "   zhong1 ": 4302,
  " huo4 shi4 ": 4303,
  "You": 4304,
  "gen1": 4305,
  "she4 hui4 ": 4306,
  "chong1": 4307,
  "fa1 bu4 ": 4308,
  " ming4 ming2 ": 4309,
  "ge1 ": 4310,
  " you3 xian4 gong1 si1 ": 4311,
  "tong2 shi2 ": 4312,
  "kou3 ": 4313,
  " zai4 198": 4314,
  "lve4": 4315,
  " jin4 gong1 ": 4316,
  " ling3 yu4": 4317,
  "jian4 li4 ": 4318,
  "gong1 bu4 ": 4319,
  " zhi4 jin1": 4320,
  " hou4 xuan3": 4321,
  " gui1 hua4": 4322,
  "xue2 sheng1": 4323,
  "te4 bie2": 4324,
  "sai4 ": 4325,
  "ji4 nian4 ": 4326,
  " cheng2 xian4": 4327,
  " er2 bei4": 4328,
  " li4 ya4 ": 4329,
  " san1 ge4": 4330,
  " wan2 jia1": 4331,
  "jie2 mu4": 4332,
  " bu4 he2 ": 4333,
  " er3 si1": 4334,
  " qie4 ": 4335,
  " zhi4 zuo4 ": 4336,
  " jin4 yi2 bu4 ": 4337,
  " jie2 he2 ": 4338,
  " sa4 ke4": 4339,
  " guo2 nei4": 4340,
  "bai2 ": 4341,
  " de jin4": 4342,
  " he2 pan4 ": 4343,
  "zhi1 jian1": 4344,
  "9 ren2 ": 4345,
  " ban3 de ": 4346,
  " fa3 lan2": 4347,
  "pai2 ": 4348,
  " yi4 fang1": 4349,
  "chuan2 ": 4350,
  "cun1 ": 4351,
  "   ji1": 4352,
  "in ": 4353,
  " deng1 ": 4354,
  " shi4 yi1 wei4 ": 4355,
  " geng1 ming2 wei4 ": 4356,
  " zi4 dong4": 4357,
  " 27": 4358,
  " bing4 fei1": 4359,
  " mu3 qin1": 4360,
  "xue4 ": 4361,
  "lu4 di4 mian4 ji1 wei4 ": 4362,
  "   10": 4363,
  "00 nian2 ": 4364,
  " de chu1": 4365,
  " pu1 ": 4366,
  " shui3 yu4 mian4 ji1 wei4 ": 4367,
  " you3 suo3": 4368,
  " chu2 le ": 4369,
  " ge4 di4 ": 4370,
  " xiang1 dui4": 4371,
  " kui2 ": 4372,
  "hua1": 4373,
  " xue4": 4374,
  "formula ": 4375,
  "zao1": 4376,
  " sheng1 zhang3": 4377,
  " nai4": 4378,
  " ren2 zai4 ": 4379,
  " nu3": 4380,
  " ji1 chu3 ": 4381,
  "gan1 ": 4382,
  " fei2": 4383,
  " yong4 lai2": 4384,
  "65": 4385,
  " mo2 shi4 ": 4386,
  "V ": 4387,
  "   ming2": 4388,
  "xi4 bao1": 4389,
  " gong3": 4390,
  " xiao3 xing2 xing1": 4391,
  " nian2 shi4 jie4": 4392,
  "～": 4393,
  "ta": 4394,
  "tang2 ": 4395,
  "jing1 guo4": 4396,
  " ji1 bai4": 4397,
  " lei3 ": 4398,
  " wei4 he2 ": 4399,
  " shi4 jia1": 4400,
  "ying1 ge2 lan2": 4401,
  " kai1 fang4 ": 4402,
  " amp ": 4403,
  " po1 ": 4404,
  " dan1 ": 4405,
  "guan3 li3 ": 4406,
  "fan1 ": 4407,
  "pai4": 4408,
  " niu2 ": 4409,
  " da4 lu4": 4410,
  " dang1 zhong1 lu4 di4 mian4 ji1 wei4 ": 4411,
  "qing2": 4412,
  " er2 shui3 yu4 mian4 ji1 wei4 ": 4413,
  "oun": 4414,
  " lang4": 4415,
  " min2 ": 4416,
  "   2012 nian2 ": 4417,
  " yuan2 he2 ": 4418,
  " mi4 shu1": 4419,
  " nong2 ye4": 4420,
  "ph": 4421,
  " zhai2": 4422,
  " 2004 nian2 ": 4423,
  " yi1 shi4 ": 4424,
  "miao2": 4425,
  "dong1 nan2": 4426,
  " jue2 sai4": 4427,
  " qun2 dao3": 4428,
  "tian2": 4429,
  " wei4 gao1": 4430,
  " zi4 ji3 ": 4431,
  " de shen2": 4432,
  " cheng2 li4 yu2 ": 4433,
  " cao2": 4434,
  "xue3": 4435,
  " neng2 li4 ": 4436,
  " wei1 er3": 4437,
  "san1 nian2 ": 4438,
  "qing1 ": 4439,
  " you2 tai4": 4440,
  " shi4 nei4": 4441,
  " fen2": 4442,
  " biao1 zhun3 ": 4443,
  " di4 1": 4444,
  " qi2 hou4 ": 4445,
  " xu2": 4446,
  "qing4": 4447,
  "tui4": 4448,
  " nai4 ": 4449,
  "nan2 xing4": 4450,
  "niu2": 4451,
  " hua4 he2 ": 4452,
  " zhi3 neng2": 4453,
  "sun1 ": 4454,
  " shi4 gong1 ": 4455,
  " ji1 che1": 4456,
  " mi4 ": 4457,
  " 188": 4458,
  " yu2 196": 4459,
  "wen3": 4460,
  " tuan2 dui4": 4461,
  "suo3 you3": 4462,
  "diao1": 4463,
  "xin1 wen2": 4464,
  "nan2 zi": 4465,
  " de guo2 jia1": 4466,
  "ji3": 4467,
  " wei4 you3": 4468,
  " nv3 zi3": 4469,
  "im": 4470,
  " fu1 si1": 4471,
  "eg": 4472,
  " xing2 wei2": 4473,
  " duo1 ge4": 4474,
  " ying1 yu3 ": 4475,
  "kong3": 4476,
  "   cong2": 4477,
  "ao3 nian2 ": 4478,
  "zui4 hou4": 4479,
  "sai4 shi4 ": 4480,
  " jie1 dao4 ": 4481,
  "shan4 ": 4482,
  "   ma3": 4483,
  " de wu4": 4484,
  " shi4 ren2 ": 4485,
  "   xing2 zheng4 qu1 hua4 ": 4486,
  " de you3": 4487,
  " tong3 zhi4 ": 4488,
  "gang1 ": 4489,
  "niao3": 4490,
  " gai3 bian1": 4491,
  "xun4 lian4 ": 4492,
  " ji2 shi3": 4493,
  " da2 dao4 ": 4494,
  " gong1 zhu3": 4495,
  " wei4 fu2 qi2 yu2 ": 4496,
  "   ling4": 4497,
  " gong1 hui4": 4498,
  " xue4 ": 4499,
  "zi3": 4500,
  " 21 ": 4501,
  " yu2 195": 4502,
  " dian4 shi4 tai2": 4503,
  " jie2 gou4 ": 4504,
  "she4 li4 ": 4505,
  "fu4 jin4": 4506,
  " wang3 luo4": 4507,
  " kong1 jun1": 4508,
  " de shi2 jian1": 4509,
  " de gu4 shi4 ": 4510,
  "guang3 bo1": 4511,
  " shi4 zheng4 fu3": 4512,
  "duo1 ": 4513,
  " de shan1": 4514,
  " nei4 rong2 ": 4515,
  " guo2 jia1 ": 4516,
  " ao4 yun4": 4517,
  "zheng4 zhi4 ren2 wu4 ": 4518,
  "ding3 ": 4519,
  " yi1 sheng1": 4520,
  " pai2 ming2": 4521,
  " ti3 zhang3 ke3 da2": 4522,
  " bu4 zhang3 ": 4523,
  " jiao4 lian4 ": 4524,
  " 29": 4525,
  " 2023 nian2 ": 4526,
  "X ": 4527,
  " bing3 ": 4528,
  " jia4 zhi2": 4529,
  " zong1 ": 4530,
  " ren2 min2 zheng4 fu3": 4531,
  "chong2": 4532,
  "nv3 xing4": 4533,
  " deng1 lu4": 4534,
  "an1 wei4 ": 4535,
  "sun1": 4536,
  " de lian2": 4537,
  " zhan3 shi4 ": 4538,
  " pao3": 4539,
  " jin4 zhi3": 4540,
  " fan3 hui2 ": 4541,
  "ang": 4542,
  "ne": 4543,
  "   6": 4544,
  "20 shi4 ji4 ": 4545,
  " li3 lun4": 4546,
  " bang4": 4547,
  " bi3 li4 ": 4548,
  " sui4 shi2 ": 4549,
  " de biao1": 4550,
  " he2 gong1 ": 4551,
  "dao3 ": 4552,
  "F ": 4553,
  " de fa1": 4554,
  " xing1 qi1": 4555,
  "   U": 4556,
  " de zhi1 chi2": 4557,
  " de di4 qu1 ": 4558,
  " ren2 wu4": 4559,
  " ban3 ben3 ": 4560,
  "ran": 4561,
  "dong1 bu4 ": 4562,
  "18 nian2 ": 4563,
  " zui4 da4 de ": 4564,
  "0 mi3 ": 4565,
  "7 ren2 ": 4566,
  "shou4 dao4": 4567,
  " yang3 hua4": 4568,
  "bo2 wu4 guan3": 4569,
  "xue4": 4570,
  " sheng3 fen4 ": 4571,
  " wang3 zhan4": 4572,
  " zao1 dao4": 4573,
  " you3 zhu4": 4574,
  " leng3": 4575,
  " chong1 tu1 ": 4576,
  "ce4 ": 4577,
  " zhong1 shan1": 4578,
  " yue1 ": 4579,
  " zhe4 yang4": 4580,
  " zhao3 ": 4581,
  " tai4 ping2 yang2": 4582,
  " cha2 ": 4583,
  " si1 la1": 4584,
  "   of": 4585,
  " quan2 li4 ": 4586,
  " jie3 shi4 ": 4587,
  " cai3 qu3": 4588,
  " gong1 lu4 ": 4589,
  " xian4 wei4 ": 4590,
  " you2 zheng4 bian1 ma3 wei4 ": 4591,
  " ju1 zhu4": 4592,
  "shang1": 4593,
  " ying4 yong4": 4594,
  "   2024 nian2 ": 4595,
  " bu4 shao3": 4596,
  " shi2 jian1 ": 4597,
  " chao1 ji2 ": 4598,
  "ji4 hua4": 4599,
  "qiao2": 4600,
  " zhi4 du4": 4601,
  " 22": 4602,
  " er4 nian2 ": 4603,
  "ni2 ": 4604,
  " zhuo1": 4605,
  " Ch": 4606,
  " xuan3 ju3": 4607,
  "ping2 ": 4608,
  " de dao4": 4609,
  " de ge4": 4610,
  "pa4": 4611,
  "ying3 pian4 ": 4612,
  " huan3 ": 4613,
  " bei3 qi3": 4614,
  " he2 zhong1 ": 4615,
  " de bian1": 4616,
  " qiao2 zhi4 ": 4617,
  "mai4": 4618,
  " zai4 xin1": 4619,
  " di4 wei4 ": 4620,
  " fo2 jiao4": 4621,
  " tian1 zhu3 jiao4": 4622,
  "kong4": 4623,
  "ji4 shu4": 4624,
  " gou4 mai3": 4625,
  " shao3 shu4": 4626,
  "O ": 4627,
  "ao4 lin2 pi3 ke4 yun4 dong4 hui4": 4628,
  " ming2 zhi4 ": 4629,
  " lu4 xian4 ": 4630,
  "bai2": 4631,
  "   gai4 ": 4632,
  "jiang4 ": 4633,
  " she4 bei4": 4634,
  "kuo4": 4635,
  "lei1 ": 4636,
  " si3 wang2": 4637,
  "sou1": 4638,
  " de guo2 ": 4639,
  " de sheng4": 4640,
  " yi3 se4 lie4": 4641,
  " gai4 nian4 ": 4642,
  "de2 ": 4643,
  " ci3 wai4": 4644,
  " de shi2 qu1 wei4 ": 4645,
  "ay": 4646,
  "tic": 4647,
  "lu4 jun1": 4648,
  "zhi4 zuo4": 4649,
  " guang3 chang3": 4650,
  "en ": 4651,
  " ji1 he2 ": 4652,
  " nian4 ": 4653,
  " juan1 ": 4654,
  "indow": 4655,
  " xi1 sheng3": 4656,
  " chu1 sheng1": 4657,
  " jie1 wei4 ": 4658,
  " 2000 nian2 ": 4659,
  " en1 ": 4660,
  "cheng2 de ": 4661,
  " guo4 cheng2 ": 4662,
  " gou3": 4663,
  " quan2 zhang3": 4664,
  " tui1 dong4": 4665,
  " he2 ta1": 4666,
  " di4 yi2 ge4": 4667,
  " nei4 bu4 ": 4668,
  "kan1 ": 4669,
  "yi3 jing1": 4670,
  " bao4 gao4 ": 4671,
  " de chang2": 4672,
  " tw ": 4673,
  " shi2 jiu3": 4674,
  " da4 lou2": 4675,
  " ling4 yi1 ": 4676,
  " xi2 ji1": 4677,
  "wei4 shi4 ": 4678,
  " zai4 202": 4679,
  " gong1 zhong4": 4680,
  " hans ": 4681,
  " ji1 guan1": 4682,
  " fen1 wei2": 4683,
  " er3 sheng3 ": 4684,
  "sen1": 4685,
  "neng2 gou4": 4686,
  " ru3 ": 4687,
  " de qing1": 4688,
  "jia3": 4689,
  " shuai1": 4690,
  " fa3 lv4": 4691,
  " qing1 ": 4692,
  "zhan3 ": 4693,
  " jiang1 su1 ": 4694,
  " zhi3 chu1 ": 4695,
  " xian4 ren4": 4696,
  "du2 li4 ": 4697,
  " xing2 che1": 4698,
  "ci2": 4699,
  " de zong3": 4700,
  " dan1 qu1 ": 4701,
  "   ping2": 4702,
  " bao3 liu2": 4703,
  " bu4 ming2 ": 4704,
  " lang4 ": 4705,
  " de qi2 zhong1 yi1 ": 4706,
  "su1 lian2": 4707,
  " de guo4": 4708,
  " ma3 lai2 xi1 ya4": 4709,
  " qi4 che1": 4710,
  " dao3 yan3": 4711,
  " chu1 xian4 zai4 ": 4712,
  " hu2 bei3": 4713,
  " tang1 ": 4714,
  "   de shi2 ": 4715,
  "32": 4716,
  "min3": 4717,
  " zhan4 shi4 ": 4718,
  " zheng1 yi4 ": 4719,
  "da3 ": 4720,
  " de zhuan1 ": 4721,
  " zai4 wei4 ": 4722,
  " gong1 min2": 4723,
  "5 ri4": 4724,
  " fang3 wen4": 4725,
  "8 ren2 ": 4726,
  "jie1 ": 4727,
  "／": 4728,
  "yun3": 4729,
  "xue2 ": 4730,
  " ke4 la1": 4731,
  " zun1 ": 4732,
  "wei3 ": 4733,
  " shen1 fen4": 4734,
  " zhi1 zhong1 ": 4735,
  "gong1 yuan2": 4736,
  " zhe4 ci4": 4737,
  " jie2 zhi4 ": 4738,
  " jin1 shu3": 4739,
  " bi3 jiao4": 4740,
  " li4 he2 ": 4741,
  " shi2 er4 nian2 ": 4742,
  "   dang1": 4743,
  " zui4 duo1": 4744,
  " ta1 hai2": 4745,
  " guan1 zhong4": 4746,
  "quan4 ": 4747,
  " 2002 nian2 ": 4748,
  "xu3 ": 4749,
  " wei4 qi2": 4750,
  " mang2 ": 4751,
  " da4 xi1 yang2": 4752,
  " de xiao1": 4753,
  "N ": 4754,
  " ji2 bing4": 4755,
  " xiu1 gai3": 4756,
  " ji1 bai4 ": 4757,
  " yuan2 zi4": 4758,
  "   yue4": 4759,
  " de jiao1": 4760,
  "   de you2 zheng4 bian1 ma3 wei4 ": 4761,
  "   yu3 jie1 rang3 de shi4 zhen4 ": 4762,
  "   yu2 shi2 de ren2 kou3 shu4 liang4 wei4 ren2 ": 4763,
  "   suo3 shu3 de sheng3 ji2 xuan3 qu1 wei4 ": 4764,
  "   de shi2 qu1 wei4 ": 4765,
  "us": 4766,
  " sang1": 4768,
  "6 ren2 ": 4769,
  "ali": 4770,
  "kao3 ": 4771,
  "   192": 4772,
  "shuo1 ": 4773,
  "chong2 ": 4774,
  "nie4": 4775,
  "NA": 4776,
  "ku4": 4777,
  " wei4 ji1": 4778,
  " quan1 ": 4779,
  " xia4 xia2": 4780,
  "iv": 4781,
  "wei2 yi1 ": 4782,
  " da4 hui4 ": 4783,
  " gong1 yuan2 ": 4784,
  "wo4": 4785,
  " hun4 ": 4786,
  " si4 nian2 ": 4787,
  "fa1 biao3": 4788,
  " he2 cheng2 ": 4789,
  " yue4 tuan2": 4790,
  " zhu3 ti2": 4791,
  " sun3": 4792,
  "xian1 ": 4793,
  "ber": 4794,
  "lv3 ": 4795,
  "rang4 ": 4796,
  " pu4": 4798,
  " yao4 ": 4799,
  " shi4 wei4 le": 4800,
  "zhu3 yi4 ": 4801,
  "kan4 ": 4802,
  " zhi3 chu1": 4803,
  " de zhen1": 4804,
  " dang1 xuan3": 4805,
  " yu3 qi2": 4806,
  " shou1 ru4": 4807,
  " ri4 ben3 ": 4808,
  "bo1 lan2": 4809,
  " su2 ": 4810,
  " shan3 xi1": 4811,
  " he2 gu3": 4812,
  " ge1 shou3": 4813,
  "ai": 4814,
  " tai4 yang2": 4815,
  "   w": 4816,
  "guan1 yu2 ": 4817,
  " de bian4": 4818,
  " dong1 lin2": 4819,
  "chi2 xu4": 4820,
  " she4 you3": 4821,
  " tu2 shu1": 4822,
  " di4 2": 4823,
  " yi4 shi2 ": 4824,
  " ting2 zhi3": 4825,
  " yi1 ji2": 4826,
  " mao2 qiu2": 4827,
  "qin1": 4828,
  " hk ": 4829,
  " zai4 ri4 ben3": 4830,
  " 2003 nian2 ": 4831,
  "jue2 se4": 4832,
  " de dan1": 4833,
  " li4 shu3": 4834,
  "la1 ": 4835,
  " mie4 ": 4836,
  "qu4 ": 4837,
  " zai4 na4": 4838,
  "   2011 nian2 ": 4839,
  "55": 4840,
  "juan3 ": 4841,
  " de duo1": 4842,
  " de fu2": 4843,
  " shi4 ta1": 4844,
  " nei4 rong2": 4845,
  " de shi1": 4846,
  " de ma3": 4847,
  " dai4 lai2": 4848,
  " tian1 wen2": 4849,
  " yun4 dong4 ": 4850,
  " lou4": 4851,
  "rang4": 4852,
  " shi4 qi2": 4853,
  " de zhong4": 4854,
  " shi4 hou4": 4855,
  " wu2 xian4 ": 4856,
  " ta1 ceng2 dai4 biao3": 4857,
  " xiao3 shuo1": 4858,
  "al ": 4859,
  " yin2 hang2": 4860,
  " de xiang1": 4861,
  " zhai1": 4862,
  "lian2 xu4": 4863,
  " gong4 chan3": 4864,
  " yi2 du4": 4865,
  " de qiu2": 4866,
  " si": 4867,
  " bian1 hao4": 4868,
  "shuai4": 4869,
  " zui4 zao3": 4870,
  " da4 gui1 mo2": 4871,
  " ge1 qu3 ": 4872,
  " ya2 ": 4873,
  " shi4 gu4": 4874,
  "dong1 ": 4875,
  " jian4 zhi4 di4 qu1 ": 4876,
  "song1": 4877,
  " yi3 bei4": 4878,
  " dian4 tai2": 4879,
  "der": 4880,
  "20 ": 4881,
  "jing1 li4 ": 4882,
  " yuan2 shi4 ": 4883,
  "tian1 zhu3 jiao4": 4884,
  " gong1 ren2 ": 4885,
  "da2 ": 4886,
  " shi2 ji4 shang4": 4887,
  "   ba1": 4888,
  "dian4 zi": 4889,
  " you3 liang3": 4890,
  "zi4 ran2": 4891,
  " cao2 ": 4892,
  " wen2 wu4 bao3 hu4 dan1 wei4 ": 4893,
  " yu2 le4": 4894,
  "mie4 ": 4895,
  "tian1 jin1": 4896,
  "xing1 ": 4897,
  " zhi3 zai4 ": 4898,
  " nie4": 4899,
  " jie2 ke4": 4900,
  " de shuo1": 4901,
  " lu2 wa3 er3": 4902,
  "sheng1 huo2 ": 4903,
  "   2010 nian2 ": 4904,
  "ent": 4905,
  "tong2 ": 4906,
  " li3 lun4 ": 4907,
  " zhi2 xing2 ": 4908,
  " de chuan2": 4909,
  " guo4 qu4": 4910,
  " sheng3 he2 ": 4911,
  "   yi3 xia4": 4912,
  " ren2 wu4 ": 4913,
  " wa2": 4914,
  " wei2 yi1 ": 4915,
  " fu4 ze2 guan3 xia2 ": 4916,
  " fan3 ying4 ": 4917,
  "BC": 4918,
  "10 nian2 ": 4919,
  " de ke4": 4920,
  "xi1 bu4 ": 4921,
  " di4 liu4": 4922,
  " bing4 li4 ": 4923,
  " shi4 qu1 ": 4924,
  "ot": 4925,
  "re4 ": 4926,
  "chu3": 4927,
  " hou4 bei4": 4928,
  " de fa1 zhan3 ": 4929,
  " de zuo4 pin3 ": 4930,
  "xiu1 ": 4931,
  " zhong1 bei4": 4932,
  " de2 li3": 4933,
  " lie4 wei4 ": 4934,
  " hao4 xian4 ": 4935,
  " fan1 yi4": 4936,
  "   gen1 ju4 ": 4937,
  "   zhong1 guo2 ": 4938,
  " nv3 zi3 ": 4939,
  " mai4 ke4": 4940,
  " ye3 bei4": 4941,
  " niu2": 4942,
  " pu2 tao2 ya2": 4943,
  " da4 zhi4 ": 4944,
  " jian4 cheng2 ": 4945,
  " zi1 ": 4946,
  "   chu1": 4947,
  "dong4 hua4": 4948,
  "yang4": 4949,
  "yong4 ": 4950,
  "hua1 ": 4951,
  " zui4 ": 4952,
  " ya2 li4 ": 4953,
  " yan2 jiu1 suo3": 4954,
  " ao4 men2": 4955,
  "un1 ": 4956,
  "tian1 wen2": 4957,
  " bing4 ru4": 4958,
  "bu3 ": 4959,
  " duo3": 4960,
  " zuo4 yong4 ": 4961,
  " dang1 shi2": 4962,
  " qi1 xi1 zai4 ": 4963,
  "   zhan4": 4964,
  " jie1 jin4": 4965,
  " zhan4 yi4 ": 4966,
  "   jian4": 4967,
  " de ren4": 4968,
  " shi4 dui4": 4969,
  " de ri4": 4970,
  "   hou4": 4971,
  " qia4": 4972,
  " di4 ya4": 4973,
  " si1 tuo1": 4974,
  " qing1 chao2": 4975,
  "lu3 ": 4976,
  " gai3 ge2": 4977,
  " zai4 197": 4978,
  " di4 qi1": 4979,
  " he2 shi2 ": 4980,
  " kui4": 4981,
  " yi4 ren2 ": 4982,
  " feng1 ge2": 4983,
  " sa1": 4984,
  " tiao3": 4985,
  " zheng4 zhi4": 4986,
  "   8": 4987,
  " bo1 chu1 ": 4988,
  "1 ri4": 4989,
  "jia4": 4990,
  "chi4": 4991,
  " de zhi1": 4992,
  " san3 ": 4993,
  " jiao4 tang2 ": 4994,
  " de shi2 hou4 ": 4995,
  " bu4 bing1": 4996,
  " da4 chen2": 4997,
  " jian4 zao4": 4998,
  " ying1 ge2 lan2": 4999,
  " de dong1": 5000,
  " bu4 luo4": 5001,
  " xun1 ": 5002,
  " fang4 qi4": 5003,
  "   zh ": 5004,
  " cong2 shi4 ": 5005,
  " bo1 lan2": 5006,
  " tui4 ": 5007,
  " jia1 ting2 ": 5008,
  " ying1 gai1": 5009,
  " bu4 zu2": 5010,
  "gong1 zuo4": 5011,
  " guo2 he2 ": 5012,
  "xi4 tong3 ": 5013,
  "ce ": 5014,
  "chun1 ": 5015,
  " de si4": 5016,
  " 187": 5017,
  "nong2 ye4": 5018,
  "ao4 men2": 5019,
  " zhui4": 5020,
  "xia4 wu3": 5021,
  " jiao1 ": 5022,
  " weng1": 5023,
  "39": 5024,
  "bang1 ": 5025,
  " wu2 ren2 ": 5026,
  " li4 fu2": 5027,
  " ao4 da4 li4 ya4": 5028,
  "ge2 ": 5029,
  "wang3 luo4": 5030,
  " wei4 2": 5031,
  " hai2 you3": 5032,
  "L ": 5033,
  "shen1 fen4": 5034,
  " shi4 zui4": 5035,
  "guan1 xi4": 5036,
  "yan2 zhong4": 5037,
  " shi2 yi1 nian2 ": 5038,
  "gui4": 5039,
  " jun1 zai4 ": 5040,
  " wei4 xin1": 5041,
  " chou1": 5042,
  " yi2 ": 5043,
  " yi3 lai2 ": 5044,
  " he2 bu4 ": 5045,
  " gao3 ": 5046,
  " ran3 ": 5047,
  " mei3 ni2 ya4": 5048,
  "su4 du4": 5049,
  " nu3 ": 5050,
  " zu3 he2 ": 5051,
  "as   ": 5052,
  "tu3 ": 5053,
  "kun1": 5054,
  " wen2 ming2 ": 5055,
  " ren4 wu4 ": 5056,
  "qiao2 ": 5057,
  " de mei3": 5058,
  "bao4 gao4 ": 5059,
  " zhong1 gong4 zhong1 yang1 ": 5060,
  "bin1": 5061,
  " qiong2": 5062,
  " shi4 yu2 ": 5063,
  "cuo4": 5064,
  "dou4": 5065,
  " he2 da4": 5066,
  " ran2 hou4 ": 5067,
  " 186": 5068,
  "   zhu4": 5069,
  "   jia1 zu2 ": 5070,
  " zhu3 ren4": 5071,
  " bao4 dao4 ": 5072,
  " de kong1": 5073,
  "jing3 ": 5074,
  "jie2 mu4 ": 5075,
  " biao3 yan3": 5076,
  " sheng4 li4 ": 5077,
  "47": 5078,
  "xi2": 5079,
  " zhong1 yu2 ": 5080,
  "7 ri4": 5081,
  " quan4 ": 5082,
  " zhong1 shi4 ": 5083,
  " ji2 shi4 ": 5084,
  "yao1 qiu2": 5085,
  "gei3": 5086,
  " gong1 chang3": 5087,
  " xi1 wang4": 5088,
  " er3 te4": 5089,
  " ren4 wu4": 5090,
  " qi2 zhong1 bao1 kuo4": 5091,
  " shi4 yi1 ke1": 5092,
  "jin4 ": 5093,
  " de xuan3": 5094,
  " kun4 ": 5095,
  " chi2 ": 5096,
  " 2024 nian2 ": 5097,
  "ao4 da4 li4 ya4": 5098,
  " yin1 yue4": 5099,
  " she4 shi1 ": 5100,
  " zhou1 nian2 ": 5101,
  " jian3 shao3": 5102,
  "6 ri4": 5103,
  " zha1 ": 5104,
  " li4 shi3 shang4": 5105,
  "ack": 5106,
  " yi1 yuan4 ": 5107,
  " yi1 zuo4": 5108,
  " cai2 neng2": 5109,
  "2020 nian2 mei3 guo2 ren2 kou3 pu3 cha2 de shu4 ju4 ": 5110,
  " xi1 fang1": 5111,
  " lin2 shi2 ": 5112,
  " yi1 si1 lan2": 5113,
  " ming4 ming2 wei4 ": 5114,
  "and": 5115,
  "33": 5116,
  "bin1 ": 5117,
  " tou1": 5118,
  "0 mi3": 5119,
  " de qi1": 5120,
  "   can1": 5121,
  " zheng4 fu3 ": 5122,
  "--": 5123,
  "og": 5124,
  "   7": 5125,
  "er4 nian2 ": 5126,
  " wei4 dui4": 5127,
  " qu3 dai4": 5128,
  " da4 xing2": 5129,
  " chuan4 ": 5130,
  "tan3 ": 5131,
  " da4 duo1": 5132,
  " xing1 jian4": 5133,
  " C ": 5134,
  "piao4": 5135,
  " de shu1": 5136,
  " nan2 zhi4 ": 5137,
  " bu4 jin3": 5138,
  "ed": 5139,
  "ya3": 5140,
  " da4 qu1": 5141,
  " chu1 qi1": 5142,
  " jing1 li4 ": 5143,
  " ming4 ": 5144,
  "OS": 5145,
  " dan4 you2 yu2 ": 5146,
  " de huo2": 5147,
  "e2 ": 5148,
  "yan3 chang4": 5149,
  " pi4": 5150,
  " jun1 wei4 ": 5151,
  " fa3 an4 ": 5152,
  "193": 5153,
  " pen1": 5154,
  " jian4 yi4 ": 5155,
  " xiao1 shou4": 5156,
  " ye3 you3": 5157,
  "   zao3 nian2 ": 5158,
  "pan4 ": 5159,
  " guan1 cha2": 5160,
  " song4 ": 5161,
  "ew": 5162,
  " wu3 nian2 ": 5163,
  "che4": 5164,
  "tong2 yi1 ": 5165,
  " xian3 de ": 5166,
  " dian1 ": 5167,
  " 300": 5168,
  " de fan4 ": 5169,
  "jie2 gou4": 5170,
  "is   ": 5171,
  " zhi4 li4 ": 5172,
  " miao3 ": 5173,
  " yi3 hou4 ": 5174,
  " 80": 5175,
  " ming2 chao2 zheng4 zhi4 ren2 wu4 ": 5176,
  "xiang1 dang1": 5177,
  "sun3 ": 5178,
  " seng1": 5179,
  "deng3 ren2 ": 5180,
  " jiang1 jun1 ": 5181,
  " zhi4 wei4 ": 5182,
  " bu4 dui4 ": 5183,
  "pai1": 5184,
  "po4 ": 5185,
  "qin2": 5186,
  " shi4 ge4": 5187,
  " hui4 bei4": 5188,
  "or ": 5189,
  " long2 jiang1": 5190,
  "wan2 quan2": 5191,
  " yuan2 lai2": 5192,
  " biao3 da2": 5193,
  " tou2 ru4": 5194,
  " de shang1 ": 5195,
  " shi4 wei1 ": 5196,
  " che1 liang4": 5197,
  " ji4 shu4 ": 5198,
  " jin4 xing2 le": 5199,
  "per": 5200,
  "u3 di4 ": 5201,
  " si1 lin2": 5202,
  "id": 5203,
  " 45": 5204,
  "nv3 zi3": 5205,
  " jiu1": 5206,
  " shi3 jian4 yu2 ": 5207,
  " wan2 jia1 ": 5208,
  " you4 ming2 ": 5209,
  " chuang4 ban4": 5210,
  " hou4 xuan3 ren2 ": 5211,
  "xiao3 shuo1": 5212,
  " zai4 nan2": 5213,
  " zhan4 zheng1 ": 5214,
  " de xin4": 5215,
  " ji2 zhou1": 5216,
  " yi4 yi4 ": 5217,
  " zhi3 you3": 5218,
  " he2 ma3": 5219,
  " cheng2 xu4": 5220,
  " cai2 zheng4": 5221,
  " sheng1 huo2 ": 5222,
  " yu2 193": 5223,
  " qiang3": 5224,
  " zhou1 bian1": 5225,
  " dong4 wu4 ": 5226,
  "ba3": 5227,
  "bo1 ": 5228,
  " he2 he2 ": 5229,
  " kai1 shi3 ": 5230,
  " yi1 zhi1": 5231,
  "di1 ": 5232,
  "bu2": 5233,
  " li3 si1 ": 5234,
  " bing4 ": 5235,
  "nai3": 5236,
  " shi4 zhang3": 5237,
  " yi1 jia1": 5238,
  " zhuan1 men2": 5239,
  " 1998 nian2 ": 5240,
  "4 ri4": 5241,
  "bu4 zai4 ": 5242,
  " ji2 shi2 ": 5243,
  " li4 ren4": 5244,
  " cui1 ": 5245,
  " shi2 si4 nian2 ": 5246,
  "shan1 dong1": 5247,
  " wei4 da4": 5248,
  " zhi4 liao2 ": 5249,
  " de zong1": 5250,
  "shi2 qi1 ": 5251,
  "lv3 you2": 5252,
  " hu3": 5253,
  " zhong1 zui4": 5254,
  " yong4 zuo4": 5255,
  " hai3 an4 ": 5256,
  " 1999 nian2 ": 5257,
  "yun4 dong4 yuan2 ": 5258,
  " xing2 wei2 ": 5259,
  " can1 mou2": 5260,
  " shi2 san1 nian2 ": 5261,
  " jia1 ting2": 5262,
  " gao1 zhong1 ": 5263,
  " shi4 yan4 ": 5264,
  " qin2 ": 5265,
  "niu2 ": 5266,
  " shi1 qu4": 5267,
  "AS": 5268,
  "xiao1": 5269,
  "yin4": 5270,
  "guan1 fang1": 5271,
  " de yin1": 5272,
  " shen2 jing1": 5273,
  "   2008 nian2 ": 5274,
  "sheng1 chan3": 5275,
  " an1 de2": 5276,
  " lun2 bi3 ya4": 5277,
  " 36": 5278,
  " zhi4 ding4": 5279,
  " feng1 bao4": 5280,
  " po4 huai4 ": 5281,
  " leng3 ": 5282,
  " xuan1 chuan2": 5283,
  " du3 ": 5284,
  "gai3 ge2": 5285,
  " zai4 xian4": 5286,
  " da4 fu2": 5287,
  " yi1 chang2": 5288,
  " xin4 xi1 ": 5289,
  "2016 nian2 ": 5290,
  " pu3 ": 5291,
  " zheng3 ti3": 5292,
  " pai2 ming2 ": 5293,
  "ao3 jie3": 5294,
  "geng1": 5295,
  " ji2 he2 ": 5296,
  " mao4 yi4 ": 5297,
  " you3 duo1": 5298,
  " ke4 yun4": 5299,
  " si1 ma3": 5300,
  " gai3 wei2 ": 5301,
  " ou3": 5302,
  " wei4 zhu3": 5303,
  " fa1 qi3": 5304,
  " yan3 chang4": 5305,
  " kuai4 su4": 5306,
  " que4 ding4": 5307,
  "miao4 ": 5308,
  "jing1 ji4": 5309,
  " de li4 shi3": 5310,
  "zhong1 xin1": 5311,
  " zhi2 min2": 5312,
  " niao3 ": 5313,
  " zai4 ba1": 5314,
  " zai4 xiang1 gang3": 5315,
  " hao4 xian4": 5316,
  " shi4 yin1 wei4 ": 5317,
  " ji1 du1 jiao4": 5318,
  " cheng2 ke4": 5319,
  " gao1 deng3": 5320,
  " lian2 he2 guo2 ": 5321,
  "min2 ": 5322,
  " zuo4 yong4": 5323,
  "bi4 ye4 yu2 ": 5324,
  " ren2 yuan2 ": 5325,
  " xi1 jie1": 5326,
  " wang2 guo2 ": 5327,
  "gao1 su4": 5328,
  " bu4 li3": 5329,
  " biao3 xian4": 5330,
  " wan2 zheng3": 5331,
  " heng1 li4 ": 5332,
  " jie4 quan2 guo2 ": 5333,
  "85": 5334,
  " she4 shi1": 5335,
  "kai3": 5336,
  "   zheng4": 5337,
  "neng2 ": 5338,
  " zi1 ge2 ": 5339,
  "ting1 ": 5340,
  "   n": 5341,
  " pu3 tong1": 5342,
  " de jie3": 5343,
  " che4 xiao1": 5344,
  "95": 5345,
  "   sheng4": 5346,
  " de qi3": 5347,
  " ke4 cheng2 ": 5348,
  " mu4 biao1": 5349,
  " guo4 ": 5350,
  " de guan1 xi4 ": 5351,
  " pin2 dao4 ": 5352,
  "yan4 shi4 ": 5353,
  "   qian2": 5354,
  " yi1 duan4 ": 5355,
  " de bu4 fen4": 5356,
  "ju3 ren2 ": 5357,
  "shou4 dao4 ": 5358,
  "ying1 wen2": 5359,
  "ge1 qu3": 5360,
  " fa1 chu1": 5361,
  " de jin1": 5363,
  " jue2 se4 ": 5364,
  " han2 shu4": 5365,
  " ping2 fang1 mi3 ": 5366,
  " xu4 ": 5367,
  " cun2 ": 5368,
  "cun2 zai4 ": 5369,
  "ceng2 jing1": 5370,
  " zai4 196": 5371,
  " chong2 qing4": 5372,
  " xing2 zheng4 qu1 ": 5373,
  " lie4 che1 ": 5374,
  " shu2": 5375,
  " yuan2 wei4 ": 5376,
  " jiao4 qu1 ": 5377,
  "ff": 5378,
  "di4 qu1": 5379,
  " yi1 dai4": 5380,
  " zhuang1 bei4": 5381,
  "dian4 shi4 tai2": 5382,
  "cun1": 5383,
  " zai4 194": 5384,
  "shui3 ": 5385,
  " rou2": 5386,
  " zhou1 de ": 5387,
  " jie1 rang3 ": 5388,
  " ming2 dan1 ": 5389,
  " A ": 5390,
  " zhong1 guo2 ren2 min2 jie3 fang4 jun1": 5391,
  "1 yue4 1 ri4 ": 5392,
  "gu3 ": 5393,
  " fa1 dian4": 5394,
  " wen3 ding4": 5395,
  " si1 ji1": 5396,
  "tan4 ": 5397,
  "pu3 tong1": 5398,
  " de xiao4": 5399,
  "lun2 dun1": 5400,
  " 2001 nian2 ren2 kou3": 5401,
  " de qi4": 5402,
  "   2025 nian2 ": 5403,
  "cheng2 gong1 ": 5404,
  " zhi4 shao3": 5405,
  " si1 fa3": 5406,
  " gui3 dao4 ": 5407,
  "   yin1": 5408,
  "   te4": 5409,
  " xi3 huan1 ": 5410,
  " qiu2 yuan2 ": 5411,
  "zhao1": 5412,
  " chou3": 5413,
  " zhan4 ling3": 5414,
  "lan2 ": 5415,
  " bu4 zhi1": 5416,
  " tong3 ji4 ": 5417,
  " ren2 he2 ": 5418,
  "   xia4": 5419,
  " yong4 hu4": 5420,
  "St": 5421,
  " de bi3": 5422,
  " bu4 bu4 ": 5423,
  " que1 fa2": 5424,
  "   2009 nian2 ": 5425,
  " lao2 dong4": 5426,
  "zhong1 yang1 ": 5427,
  " ming2 xian3 ": 5428,
  " ying1 ": 5429,
  " xiu1 jian4": 5430,
  " guang1 xu4": 5431,
  " xun4 su4": 5432,
  " wa1 ": 5433,
  " gai3 bian4": 5434,
  " de gai4 ": 5435,
  "zuo4 pin3": 5436,
  " zui4 jia1": 5437,
  "3 ge4": 5438,
  " de nian2": 5439,
  " ping2 lun4": 5440,
  " jia1 la1": 5441,
  " te4 shu1": 5442,
  " xun2 hui2 ": 5443,
  " tian2 ": 5444,
  " gong4 he2 guo2": 5445,
  " er2 shui3 yu4 mian4 ji1 wei4 0": 5446,
  "・": 5447,
  "×": 5448,
  " sheng1 cheng1": 5449,
  " yuan2 su4": 5450,
  " de huo3": 5451,
  " bu4 jiu3": 5452,
  " de qi2 zhong1 yi1 zhong3 ": 5453,
  "fa3 lv4": 5454,
  " da4 wei4 ": 5455,
  " tiao2 jian4": 5456,
  "wen4 ti2": 5457,
  "   qing1": 5458,
  " ren2 kou3 mi4 du4 mei3 ping2 fang1 gong1 li3 ": 5459,
  "   fu2": 5460,
  " de n": 5461,
  " ne4": 5462,
  " tong3 yi1 ": 5463,
  " yun2 nan2": 5464,
  "   er2": 5465,
  " deng1 shang4": 5466,
  " 70": 5467,
  "guan4 jun1 ": 5468,
  "quan2 li4 ": 5469,
  " de yu4": 5470,
  " si1 ke4": 5471,
  "ci3 ": 5472,
  "yan1 ": 5473,
  " zhi2 xing2": 5474,
  " xiao3 zu3": 5475,
  " gou4 cheng2 ": 5476,
  "dun1": 5477,
  " wan4 li4 ": 5478,
  " pu3 bian4": 5479,
  "hun1": 5480,
  " bu4 lai2": 5481,
  "zhong4 ": 5482,
  " shi4 ye4": 5483,
  " ping2 fang1 qian1 mi3": 5484,
  " fu4 za2": 5485,
  "guang3 zhou1": 5486,
  "   zeng1": 5487,
  "gai3 wei2": 5488,
  " xian4 chang3": 5489,
  "dong4 wu4": 5490,
  " wang3 ": 5491,
  "si4 ": 5492,
  " de cun1": 5493,
  "shi2 nian2 ": 5494,
  "chu1 xian4 ": 5495,
  " wu4 zhong3 ": 5496,
  " shi4 yi1 zuo4": 5497,
  "   di4 er4": 5498,
  " er2 gai1 di4 ": 5499,
  " de shang4": 5500,
  " de dai4": 5501,
  " cong1": 5502,
  " wei2 qi2": 5503,
  " jiang3 shu4": 5504,
  " kao3 lv4": 5505,
  "49": 5506,
  "oh": 5507,
  " ceng2 zai4 ": 5508,
  " zong3 li3": 5509,
  " gen1 ": 5510,
  "BA": 5511,
  "zhan4 dou4": 5512,
  " mao1": 5513,
  "gui3 dao4 ": 5514,
  "ji1 chang3": 5515,
  " ke4 luo2": 5516,
  " 10 ": 5517,
  "feng4": 5518,
  " de jun1": 5519,
  "ell": 5520,
  " ming2 zi4": 5521,
  "jiu4 shi4 ": 5522,
  "sp": 5523,
  "yi2 zhi4 ": 5524,
  "gai1 di4 ": 5525,
  " ta1 yu3 ": 5526,
  "a1 la1 bo2": 5527,
  "ea": 5528,
  "   yan2": 5529,
  "   xiang1 gang3": 5530,
  " su4 du4": 5531,
  "fu4 qin1": 5532,
  " er2 fei1": 5533,
  " lun2 dun1": 5534,
  " biao1 zhi4 ": 5535,
  " jian3 shao3 ": 5536,
  " mi3 er3": 5537,
  " de zu3": 5538,
  " zhai4 ": 5539,
  " cheng2 gong1": 5540,
  " ti2 gong1": 5541,
  " chui2 ": 5542,
  " ji3 ge4": 5543,
  " er2 ren2 kou3 mi4 du4 wei4 mei3 ping2 fang1 qian1 mi3": 5544,
  "ex": 5545,
  " de shi4 jie4": 5546,
  " 1949 nian2 ": 5547,
  "   12": 5548,
  "yang2 ": 5549,
  " dui4 ci3": 5550,
  " kong1 ": 5551,
  "BS": 5552,
  " si1 ka3 ": 5553,
  " zhai2 ": 5554,
  " di4 zhen4": 5555,
  " zuo4 jia1 ": 5556,
  "si4 chuan1 ": 5557,
  " bu4 man3 ": 5558,
  " zhi4 liang4": 5559,
  " deng3 wei4 ": 5560,
  " chan3 ye4": 5561,
  "g ": 5562,
  " tong2 yang4": 5563,
  " can1 sai4": 5564,
  "que4 ding4": 5565,
  " shi4 bei4": 5566,
  " shi2 dai4 ": 5567,
  " lu4 yi4": 5568,
  "la1 ke4": 5569,
  " kao4": 5570,
  " si1 ta3": 5571,
  " quan2 mian4": 5572,
  " bu4 shang4": 5573,
  " zhu3 zhang1": 5574,
  " ren4 ming4 wei4 ": 5575,
  "dang4 ": 5576,
  " jiao4 yu4 ": 5577,
  " 1997 nian2 ": 5578,
  " cu4 jin4": 5579,
  "zhuan4 ": 5581,
  " fei1 ji1": 5582,
  " nie4 ": 5583,
  " chong2 jian4": 5584,
  "you1": 5585,
  "gong4 you3 ": 5586,
  " tiao4 ": 5587,
  " nan2 bei3": 5588,
  " yun2 ": 5589,
  " ji2 tuan2 ": 5590,
  "xiang1 dui4": 5591,
  " ke4 lai2": 5592,
  "shang1 ye4": 5593,
  " cao1 zuo4": 5594,
  "   zui4": 5595,
  " 1992 nian2 ": 5596,
  "shen4": 5597,
  " ci4 nian2 ": 5598,
  " bo2 te4 ": 5599,
  " chu1 kou3": 5600,
  "wu2 xian4 ": 5601,
  " shi4 xin1": 5602,
  " yi4 zhong1 ": 5603,
  " zheng4 zhuang4": 5604,
  "xiao3 shuo1 ": 5605,
  "lin2 shi2 ": 5606,
  " de kai1": 5607,
  " zhu4 ming2": 5608,
  " luan3 ": 5609,
  " fan4 zui4": 5610,
  "zhong1 hua2 min2 guo2 ": 5611,
  "xian3 ": 5612,
  " de gui1 ": 5613,
  " da4 dao4 ": 5614,
  " ka3 er3": 5615,
  " li4 shi3 ": 5616,
  "shi3 ": 5617,
  "wei3 shu1 ji4 ": 5618,
  " bi3 ru2": 5619,
  " a1 la1 bo2": 5620,
  "long2 ": 5621,
  " jian3 dan1": 5622,
  " xi2 xing4": 5623,
  " tu1 ran2": 5624,
  "luan4 ": 5625,
  " de wei4 zhi4 ": 5626,
  " ku3 ": 5627,
  " chu1 zhan4": 5628,
  " ti3 xi4": 5629,
  " xin4 hao4": 5630,
  "U ": 5631,
  "lu2": 5632,
  "2012 nian2 ": 5633,
  "tai4 ping2 yang2": 5634,
  " ying3 pian4 ": 5635,
  " shi4 jie4 ": 5636,
  " gui1 ding4 ": 5637,
  "mian4 ": 5638,
  " shi4 ba1": 5639,
  " bu4 er3": 5640,
  "peng2": 5641,
  "xuan3 ju3": 5642,
  " zai4 shi2 ": 5643,
  " ge4 zi4": 5644,
  " de jia4": 5645,
  " shi4 xiang1 gang3": 5646,
  " zai4 mei3": 5647,
  "lian2 jie1": 5648,
  " si1 ren2 ": 5649,
  "   Ch": 5650,
  "   9": 5651,
  "2008 nian2 ": 5652,
  " tang1": 5653,
  " zhong1 jian1": 5654,
  "chou2": 5655,
  "zhi2 xing2 ": 5656,
  "zhen4 qu1 ": 5657,
  " xian4 jin1": 5658,
  " ben3 shen1": 5659,
  "yang1": 5660,
  " de liu2": 5661,
  " fu1 ren2 ": 5662,
  "ding4 yi4 ": 5663,
  " ye1": 5664,
  " 90": 5665,
  " you3 guan1 ": 5666,
  "   ji2": 5667,
  "   in": 5668,
  " li4 ke4": 5669,
  " jiao4 hui4": 5670,
  " biao3 mian4": 5671,
  "u2 li4 ": 5672,
  "nei4 lu4": 5673,
  "xiao4 ": 5674,
  " ban4 dao3": 5675,
  "％": 5676,
  " nuo2": 5677,
  " ni1 ": 5678,
  " de bei4": 5679,
  " bu4 zhu3": 5680,
  " zhi1 yuan2 ": 5681,
  " guo4 cheng2 zhong1 ": 5682,
  " 1994 nian2 ": 5683,
  " 150": 5684,
  "fei1 zhou1": 5685,
  " yan3 chu1": 5686,
  " qu3 xiao1": 5687,
  "deng3 di4 ": 5688,
  " shu4 wei4 ": 5689,
  " an4 jian4": 5690,
  "zi1 liao4 ": 5691,
  " he2 fa3": 5692,
  "si3 wang2 ": 5693,
  "mai4 ": 5694,
  " tao4": 5695,
  " you3 xian4 ": 5696,
  " shi4 zhong1 hua2": 5697,
  "cheng1 wei2 ": 5698,
  " cun4 ": 5699,
  " niu3": 5700,
  " bu4 guo4 ": 5701,
  "─": 5702,
  " qiang2 lie4": 5703,
  "tong3 ji4 ": 5704,
  "bi4 xu1 ": 5705,
  " wu4 zhi4 ": 5706,
  " qi4 xuan2": 5707,
  " yu3 zhong1 ": 5708,
  " 14 ": 5709,
  " hong2 se4": 5710,
  " mo4 xi1 ge1": 5711,
  "ren4 wei2 ": 5712,
  " da4 sha4": 5713,
  " bing4 mei2 you3 ": 5714,
  " gun3": 5715,
  " fen1 zhi1 ": 5716,
  " bie2 ": 5717,
  " di4 ba1": 5718,
  " chu1 ru4": 5719,
  " han2 ": 5720,
  "zhe4 zhong3": 5721,
  "ren2 da4": 5722,
  "ST ": 5723,
  "zhe2": 5724,
  " guo2 wu4 yuan4": 5725,
  " li3 xue2": 5726,
  " er2 cheng2 ": 5727,
  "yi1 shi4 ": 5728,
  "10 ": 5729,
  " shi2 duan4 ": 5730,
  "gong4 he2 guo2 ": 5731,
  " jian4 zao4 ": 5732,
  " dui4 shou3": 5733,
  "qiang2": 5734,
  " shi4 ji1": 5735,
  " fan4 de ": 5736,
  " yan2 shen1": 5737,
  " sheng1 huo2 xi2 xing4": 5738,
  " shi2 liu4 nian2 ": 5739,
  "34": 5740,
  "yun4 dong4 ": 5741,
  "ge1 qu3 ": 5742,
  " er2 zi": 5743,
  "tu2 shu1": 5744,
  " wei4 zai4 ": 5745,
  " ji4 zai3 ": 5746,
  " man2": 5747,
  "ari": 5748,
  "fa1 xing2": 5749,
  "guo4 qu4": 5750,
  " 1996 nian2 ": 5751,
  " de sheng1 huo2": 5752,
  " jing1 shen2": 5753,
  " zheng4 ce4 ": 5754,
  "an1 zai4 ": 5755,
  "   cheng2 ": 5756,
  " sheng2": 5757,
  " ta1 wei4 ": 5758,
  " shi2 wu3 nian2 ": 5759,
  " bian4 hua4": 5760,
  " si1 te4 ": 5761,
  " de huan2": 5762,
  " sheng1 huo2 xi2 xing4 bu4 ming2 ": 5763,
  "ci": 5764,
  "zhong4 dian3": 5765,
  " zhi4 du4 ": 5766,
  " guai4": 5767,
  "   17": 5768,
  "sun3": 5769,
  " tong2 shi2": 5770,
  " tan2 pan4 ": 5771,
  "lun4": 5772,
  "kang4": 5773,
  "ren2 lei4": 5774,
  " xue2 shu4": 5775,
  " yi3 bian4": 5776,
  " heng2 ": 5777,
  "ju3 xing2": 5778,
  " he2 qi2 ta1": 5779,
  " zhong1 guo2 gong4 chan3 dang3 ": 5780,
  "68": 5781,
  " di4 er4 ci4": 5782,
  " lian2 meng2 ": 5783,
  " de ling3": 5784,
  " di4 5": 5785,
  " li4 xue2": 5786,
  " chu1 le": 5787,
  " lu4 xu4": 5788,
  "pu3 ": 5789,
  " tu3 er3 qi2": 5790,
  "K ": 5791,
  "00 ": 5792,
  " zheng4 chang2": 5793,
  "min2 zhong4": 5794,
  " tuo3": 5795,
  " 38": 5796,
  " zuo4 zhan4": 5797,
  " rui4 dian3": 5798,
  " yu3 yan2 ": 5799,
  "   mei3": 5800,
  "zhi3 chu1 ": 5801,
  " shi4 chu1": 5802,
  " shi4 wu1 ke4 lan2": 5803,
  " shang3": 5804,
  " ji1 chang3 ": 5805,
  "xuan1 chuan2": 5806,
  "wo3 ": 5807,
  "TV": 5808,
  "   sui1 ran2": 5809,
  "ya4 ": 5810,
  " gao3": 5811,
  " gu4 ding4": 5812,
  "   mei3 guo2 ": 5813,
  "shou3 du1 ": 5814,
  " wei4 1": 5815,
  " zhi1 wei4 ": 5816,
  " qian1 shu3": 5817,
  " jiu3 dian4": 5818,
  "31": 5819,
  "fen1 bu4 ": 5820,
  " mian4 dui4": 5821,
  "zhe4 jiang1": 5822,
  " zai4 he2 ": 5823,
  " da4 shi3": 5824,
  " zhan1 mu3": 5825,
  " nan2 xing4": 5826,
  " chuang1 ": 5827,
  "ver": 5828,
  " ji1 xie4": 5829,
  " you2 qi2 shi4 ": 5830,
  " xiang1 tong2 ": 5831,
  "   2007 nian2 ": 5832,
  " li4 fu2 ni2 ya4": 5833,
  "niu3 ": 5834,
  " chi1 ": 5835,
  " de yue4": 5836,
  " lie4 ru4": 5837,
  " huang1 ": 5838,
  " zheng4 ming2": 5839,
  " fen1 pei4": 5840,
  " ping2 fang1 gong1 li3": 5841,
  "yi3 ji2 ": 5842,
  "dang1 xuan3": 5843,
  " mu4 di4 ": 5844,
  " jie3 san4 ": 5845,
  " tou2 piao4 ": 5846,
  "99": 5847,
  " shi4 jiang1": 5848,
  " neng2 ": 5849,
  "zhuan1 ji2 ": 5850,
  " si3 wang2 ": 5851,
  "wei1 er3": 5852,
  "zuo3 you4": 5853,
  "mu3 ": 5854,
  "qin1 ": 5855,
  " xi1 yin3": 5856,
  " tong2 yang4 ": 5857,
  " yi2 chan3": 5858,
  " de gong1 zuo4": 5859,
  " zhu3 yan3": 5860,
  " bao4 zha4": 5861,
  " zheng4 shi2 ": 5862,
  " hao2 mi3": 5863,
  " de zhi2 wu4 ": 5864,
  "   dan4": 5865,
  " liu4 nian2 ": 5866,
  "di2": 5867,
  "42": 5868,
  "   nan2": 5869,
  " de tian1": 5870,
  " nian2 jian1 ": 5871,
  " yi1 li4 ": 5872,
  " zhi1 ming2 ": 5873,
  "dian4 shi4 ju4 ": 5874,
  "sui2 hou4": 5875,
  " ji2 bie2": 5876,
  " ci3 ci4": 5877,
  " te4 bie2 shi4 ": 5878,
  " de cun1 zhuang1 ": 5879,
  " bing4 you2": 5880,
  "ma3 lai2 xi1 ya4": 5881,
  "hu4 ": 5882,
  " hou4 zai4 ": 5883,
  " yan3 chu1 ": 5884,
  " huo4 de2 le": 5885,
  "ah": 5886,
  "   zhi2": 5887,
  "jie1 duan4 ": 5888,
  " sen1 lin2": 5889,
  " dui4 wu3": 5890,
  " xin4 xi1": 5891,
  " lei2 si1": 5892,
  " jiu3 nian2 ": 5893,
  " mou3 xie1": 5894,
  " 55": 5895,
  " chu3 li3 ": 5896,
  "wo3": 5897,
  "   dao4": 5898,
  "all": 5899,
  "xiang4 mu4": 5900,
  "2018 nian2 ": 5901,
  " ji1 qi4": 5902,
  " ye3 jiu4 shi4 ": 5903,
  " 7 ": 5904,
  " yuan2 gong1 ": 5905,
  " ce4 shi4 ": 5906,
  "zuo4 wei2 ": 5907,
  " ti2 sheng1": 5908,
  " yin1 wei4 ta1": 5909,
  " pai4 qian3 ": 5910,
  "ep": 5911,
  "an3 wei4 ": 5912,
  " ke2": 5913,
  " liu3 ": 5914,
  "   di4 fang1": 5915,
  " de mi4": 5916,
  "2014 nian2 ": 5917,
  " ku1 ": 5918,
  " ju4 ti3": 5919,
  " pei4 he2 ": 5920,
  "nai4": 5921,
  " Z": 5922,
  "duo1 ge4": 5923,
  " bing4 bei4": 5924,
  " fa2 ": 5925,
  " jing1 ying2 ": 5926,
  " li3 da2": 5927,
  " bi4 mian3 ": 5928,
  " de xie2": 5929,
  " fen1 bie2 wei4 ": 5930,
  "ok": 5931,
  " he2 dao4": 5932,
  " yi1 xiao3 shi2 ": 5933,
  " yu3 mao2 qiu2": 5934,
  " tie3 dao4": 5935,
  " que4 zhen3": 5936,
  "2010 nian2 ": 5937,
  "   fu4": 5938,
  " de ba1": 5939,
  " yun4 xing2 ": 5940,
  " zhuang1 zhi4 ": 5941,
  "lve4 ": 5942,
  " tao1": 5943,
  " xue2 hui4": 5944,
  " duo1 nian2 ": 5945,
  " liu2 xia4": 5946,
  " huan2 ": 5947,
  " de hei1": 5948,
  "fa2": 5949,
  " wei4 bei4": 5950,
  " yun4 ying2 ": 5951,
  " yue4 dui4": 5952,
  "   li3": 5953,
  " jian4 li4 le": 5954,
  "64": 5955,
  "shou4 shang1 ": 5956,
  "si4 nian2 ": 5957,
  " pai4 chu1": 5958,
  " zhuang4 kuang4 ": 5959,
  " pi1 zhun3": 5960,
  "dun1 ": 5961,
  " shi4 cong2": 5962,
  " yi1 bu4 ": 5963,
  " zao1 dao4 ": 5964,
  " de she4 ji4 ": 5965,
  "   jin4": 5966,
  " yao1 qing3": 5967,
  "IN": 5968,
  "zhui1": 5969,
  "tou2 ru4": 5970,
  " ge4 lei4": 5971,
  " zhu3 xi2": 5972,
  "ken3": 5973,
  " ti1": 5974,
  " bi3 de2": 5975,
  " liang3 nian2 ": 5976,
  " ye3 ": 5977,
  " zui4 jia1 ": 5978,
  "xue2 yuan4 ": 5979,
  "wu3 ": 5980,
  "ying4 yong4": 5981,
  "zhong1 guo2 da4 lu4": 5982,
  "fu2 jian4": 5983,
  " dou1 you3 ": 5984,
  "nei4 rong2 ": 5985,
  " wei4 yu2": 5986,
  " guo2 fang2": 5987,
  " ji1 zhi4 ": 5988,
  " liu2 yu4": 5989,
  " qi2 zhong1 nan2 xing4": 5990,
  "juan1 ": 5991,
  " min2 zhong4": 5992,
  " de wen4 ti2 ": 5993,
  " si1 he2 ": 5994,
  " shi1 fan4 ": 5995,
  " zhen4 qu1 ": 5996,
  " ka3 luo2": 5997,
  "qi2 ta1": 5998,
  " bu4 fu4": 5999,
  " zhan3 lan3 ": 6000,
  " 1993 nian2 ": 6001,
  " qiang2 diao4 ": 6002,
  " ju4 feng1": 6003,
  "ric": 6004,
  " de yin1 yue4 ": 6005,
  " zai4 yu3": 6006,
  " chan3 pin3": 6007,
  " xin1 jia1 po1": 6008,
  "   St": 6009,
  " zhong1 hua2 ren2 min2 gong4 he2 guo2 zheng4 zhi4 ren2 wu4 ": 6010,
  "jiao1 tong1 ": 6011,
  " pin4": 6012,
  "In": 6013,
  "x ": 6014,
  "piao4 ": 6015,
  " wei2 zhu3": 6016,
  " guan1 yuan2 ": 6017,
  " 13 ": 6018,
  " gu1 ji4 ": 6019,
  " gong1 neng2 ": 6020,
  "ren2 yuan2": 6021,
  " yue4 zai4 ": 6022,
  " li3 ke4": 6023,
  " huo4 de2 le ": 6024,
  "xian4 dai4": 6025,
  " shi4 pin2": 6026,
  " 185": 6027,
  " lv4 bin1": 6028,
  "   jin1": 6029,
  " qie1": 6030,
  " bei4 shi4 wei4 ": 6031,
  " dan4 ta1": 6032,
  "ming4 ming2 ": 6033,
  " de jing4": 6034,
  " er4 shi2 ": 6035,
  " you3 ji1": 6036,
  " ju4 li2": 6037,
  " zhi3 hui1": 6038,
  "meng4": 6039,
  "shou4 ": 6040,
  " 1945 nian2 ": 6041,
  "yi4 shu4": 6042,
  "chang2 qi1": 6043,
  " yi1 ran2": 6044,
  " yi3 wai4": 6045,
  " 37": 6046,
  "jin3 ": 6047,
  "ou1 yuan2 ": 6048,
  " zhai4": 6049,
  " yu3 zhou4": 6050,
  "rou4": 6051,
  "dong4 ": 6052,
  "fang1 ": 6053,
  "wen2 xue2": 6054,
  " fa4": 6055,
  " yun4 ": 6056,
  " bo2 shi4 ": 6057,
  "guan1 xi4 ": 6058,
  " de bi3 sai4": 6059,
  " jia1 meng2": 6060,
  " xiang1 tong2": 6061,
  " qi4 xiang4": 6062,
  "   chu2": 6063,
  "   and   ": 6064,
  " er3 duo1": 6065,
  " shen1 ti3": 6066,
  " zhui1 su4": 6067,
  " dui4 ying4": 6068,
  " yin3 ru4": 6069,
  "ear": 6070,
  "ich": 6071,
  " de xia4": 6072,
  " kuang4": 6073,
  "tong3 yi1 ": 6074,
  " de cheng2 shi4 ": 6075,
  "gong1 cheng2 ": 6076,
  " de cai2": 6077,
  " qing3 qiu2": 6078,
  "pi2 ": 6079,
  "2022 nian2 ": 6080,
  " tie3 lu4 ": 6081,
  " man3 zu2": 6082,
  "67": 6083,
  "quan2 bu4 ": 6084,
  " zhan3 de ": 6085,
  " bu2 ": 6086,
  "kuai4 su4": 6087,
  "di1": 6088,
  "jiang3": 6089,
  " shi3 qi2": 6090,
  " ti2 gao1": 6091,
  " bo2 ": 6092,
  " 75": 6093,
  "ik": 6094,
  "shuai1": 6095,
  " zong3 bu4 ": 6096,
  " xiang3 nian2 ": 6097,
  " gao4 su4": 6098,
  " zheng4 zhuang4 gan3 ran3 ": 6099,
  "kun4 ": 6100,
  " de mian4 ji1 wei4 ": 6101,
  "min2 guo2 ": 6102,
  " shi3 shang4": 6103,
  "bao3 chi2": 6104,
  "   In": 6105,
  " de ban4": 6106,
  " xiu1": 6107,
  " cheng2 wei2 le": 6108,
  " tie3 dao4 ": 6109,
  "wei2 ": 6110,
  "zhi2 wu4 ": 6111,
  " da3 suan4 ": 6112,
  " fen1 xi1": 6113,
  "ef": 6114,
  " di4 li3": 6115,
  " ji2 jiang1": 6116,
  " 1995 nian2 ": 6117,
  " geng4 jia1": 6118,
  " di4 shi4 ": 6119,
  " hei1 long2 jiang1": 6120,
  "dao3 yan3": 6121,
  " li4 liang4": 6122,
  " yue4 1 ri4": 6123,
  "   wai4": 6124,
  " er2 bu2 shi4 ": 6125,
  " dou4 ": 6126,
  " bing4 yi3 ": 6127,
  " ji2 da4": 6128,
  "ji4 xu4": 6129,
  " bian4 de2": 6130,
  "G ": 6131,
  "duo2": 6132,
  "fa1 dong4": 6133,
  " zai4 bei3": 6134,
  " sheng1 ming4": 6135,
  " wei1 lian2": 6136,
  "lay": 6137,
  " xian4 he2 ": 6138,
  " xian4 fa3": 6139,
  " mei3 ": 6140,
  " de ji1 chu3 ": 6141,
  "tou2 zi1": 6142,
  " beng1": 6143,
  " jia1 ren2 ": 6144,
  "ban4 ": 6145,
  "yun2 nan2": 6146,
  "tan2": 6147,
  "chao2 ": 6148,
  " xi1 an1 ": 6149,
  " de xing2 shi4 ": 6150,
  "H ": 6151,
  "ni3 ": 6152,
  " shi4 ni2": 6153,
  " du1": 6154,
  " li4 fang1": 6155,
  " fen1 lei4": 6156,
  " ru4 xuan3": 6157,
  " qi4 hou4 ": 6158,
  "wang3 lu4": 6159,
  " jian3 cheng1 ": 6160,
  "pei2": 6161,
  " cheng2 ren2 ": 6162,
  " suo3 shu3": 6163,
  " wang3 wang3": 6164,
  "at   ": 6165,
  " fen1 xi1 ": 6166,
  " wen2 jian4": 6167,
  " mei3 shu4": 6168,
  " jie2 hun1 ": 6169,
  " zi1 yuan2 ": 6170,
  " shi4 zhong1 xin1": 6171,
  " hun4 he2 ": 6172,
  "pai4 ": 6173,
  "dan1 qu1 ": 6174,
  " di4 yi1": 6175,
  " gong1 ji1 ": 6176,
  " rao4": 6177,
  " zheng4 quan2": 6178,
  " de di4 fang1 ": 6179,
  "AM": 6180,
  "zi1 ": 6181,
  " hui4 he2 ": 6182,
  " shen4 zhi4": 6183,
  "chui2 ": 6184,
  " hu1 yu4": 6185,
  " de tong1": 6186,
  " du1 shi4 ": 6187,
  " pen2": 6188,
  " sang4 ": 6189,
  " ru3": 6190,
  " ming2 cheng1 ": 6191,
  " 1988 nian2 ": 6192,
  "mo4 xi1 ge1": 6193,
  " de hai3 ba2": 6194,
  "chan3 ": 6195,
  " si1 ji1 ": 6196,
  " yi3 qian2": 6197,
  " zi4 mu3 ": 6198,
  "mei2 ": 6199,
  " chai2 you2": 6200,
  "44": 6201,
  "qiang1 ": 6202,
  "zhuang4": 6203,
  "2015 nian2 ": 6204,
  " bu4 li4 ": 6205,
  " gai1 cun1": 6206,
  " zhi1 chi2 ": 6207,
  "ju4 you3 ": 6208,
  " chuang2 ": 6209,
  " tong2 shi2 gai1 di4 ": 6210,
  "AR": 6211,
  " shu4 zi4": 6212,
  " zong3 du1 ": 6213,
  " hang2 tian1": 6214,
  "zhuan1 ji2": 6215,
  " shi4 fang4 ": 6216,
  " 0 ": 6217,
  " xing2 mu4": 6218,
  "fan2": 6219,
  "00 mi3": 6220,
  "ji4 lu4": 6221,
  "12 nian2 ": 6222,
  " nian2 dai4": 6223,
  " mie4": 6224,
  "ER": 6225,
  "sang1 ": 6226,
  "ze2 dong1": 6227,
  " ban4 gong1 shi4 ": 6228,
  " 1991 nian2 ": 6229,
  " qiao1": 6230,
  " you2 ci3": 6231,
  " 1990 nian2 ": 6232,
  "ill": 6233,
  " jin3 biao1 sai4 ": 6234,
  " gua1 ": 6235,
  " ye4 wu4 ": 6236,
  "guan4 jun1": 6237,
  "nei4 lu4 sheng3 fen4 ": 6238,
  "yan3 yuan2 ": 6239,
  " zhan4 hou4 ": 6240,
  " xi4 lie4 ": 6241,
  " de zheng4 zhi4 ": 6242,
  "guo2 hui4": 6243,
  " ka1 ": 6244,
  " gang3 ": 6245,
  " sui4 dao4 ": 6246,
  " de che1": 6247,
  " de tu2": 6248,
  " you3 ke3 neng2": 6249,
  " shang4 shi4 ": 6250,
  " liang3 zhong3": 6251,
  "   ci3 wai4 ": 6252,
  " zhi4 shi2 ": 6253,
  " ji1 yin1": 6254,
  " gong1 yi4": 6255,
  " zai3 ": 6256,
  "   liu2": 6257,
  " de tai4": 6258,
  " she4 ying3": 6259,
  " shou3 du1 ": 6260,
  " te4 ding4": 6261,
  " rong2 yi4 ": 6262,
  " lv3 you2": 6263,
  " bei4 ren4 wei2 shi4 ": 6264,
  "zui4 jia1": 6265,
  " zai4 jin1": 6266,
  " hai3 yang2": 6267,
  "xie2": 6268,
  " yi4 mei3 yuan2 ": 6269,
  "2017 nian2 ": 6270,
  " wei3 hui4": 6271,
  " da4 jiang3 ": 6272,
  " xi1 er3": 6273,
  " sheng1 tai4": 6274,
  "mao4": 6275,
  " nian2 jian1": 6276,
  " xian4 shang4": 6277,
  " wen2 hua4 ": 6278,
  " Y": 6279,
  "han4 ": 6280,
  " shang4 shu4": 6281,
  " zai4 195": 6282,
  "igh": 6283,
  " peng1": 6284,
  " zhi1 xia4 ": 6285,
  " zhi3 kong4": 6286,
  " po2": 6287,
  "lei4 ": 6288,
  "tou4": 6289,
  "yi4 da4 li4 ": 6290,
  "2013 nian2 ": 6291,
  "tou2 ": 6292,
  "di4 guo2 ": 6293,
  "8 ri4": 6294,
  "IC": 6295,
  " zu3 jian4": 6296,
  " qin1 zi4": 6297,
  "   2006 nian2 ": 6298,
  " zi4 zhi4 qu1": 6299,
  " wei4 yuan2": 6300,
  " wan3 shang4": 6301,
  "wan1 ": 6302,
  " jing1 ying2": 6303,
  " pian4 de ": 6304,
  " 10 yue4 ": 6305,
  "lu4 xian4 ": 6306,
  " dui4 qi2": 6307,
  " zhe4 bu4 ": 6308,
  " gou4 zao4 ": 6309,
  "dai4 biao3 ": 6310,
  " é": 6311,
  "gao1 deng3": 6312,
  "jiu4 ": 6313,
  "nv3 zi3 ": 6314,
  " zhi4 cheng2 ": 6315,
  " zhuan4 xie3": 6316,
  "   di4 fang1 zi1 liao4 ": 6317,
  " chi1": 6318,
  " 00 ": 6319,
  " shi4 yi2 ge4 wei4 yu2 ": 6320,
  " jie2 shu4 hou4 ": 6321,
  "fo2": 6322,
  "lei1": 6323,
  "2011 nian2 ": 6324,
  "gan4 ": 6325,
  "yao2": 6326,
  "xue2 xiao4 ": 6327,
  " ji2 ren2 ": 6328,
  " huo3 jian4": 6329,
  "   jian3 jie4 ": 6330,
  "   ge4": 6331,
  "gong4 he2 ": 6332,
  " da4 zhong4": 6333,
  " da4 xiao3": 6334,
  " you3 xu3 duo1": 6335,
  " xian4 zai4": 6336,
  " kao4 jin4": 6337,
  "xia4 ling4 shi2 ": 6338,
  "gu3 dai4": 6339,
  "bo2 ": 6340,
  " dan4 yin1": 6341,
  " ta1 men zai4 ": 6342,
  "suo3 cai3 yong4": 6343,
  " ta1 jiang1": 6344,
  " ru2 xia4 ": 6345,
  " de di4 san1": 6346,
  " ti2 gong1 le": 6347,
  "yin2 hang2 ": 6348,
  "88": 6349,
  "hui1": 6350,
  "gao1 ": 6351,
  "shen1 ": 6352,
  " de2 yi3": 6353,
  " xian1 sheng1": 6354,
  "zheng3 ge4": 6355,
  " qiang3 ": 6356,
  "biao1 zhun3": 6357,
  "   bei4 jing3 ": 6358,
  "ce   ": 6359,
  "de ": 6360,
  " di4 3": 6361,
  " yi4 he2 ": 6362,
  " li4 yi4": 6363,
  " ta1 dui4": 6364,
  " yi1 mei2": 6365,
  " 2025 nian2 ": 6366,
  " bai2 se4": 6367,
  "suo1": 6368,
  "   ran2": 6369,
  "shang4 wu3": 6370,
  "fang1 mian4": 6371,
  " shi4 zhi1": 6372,
  " ci3 hou4": 6373,
  " de gai4 nian4 ": 6374,
  " 1985 nian2 ": 6375,
  "sheng3 de yi2 ge4 shi4 zhen4 ": 6376,
  "fang4 ": 6377,
  " bu4 si1": 6378,
  "wei2 ai1": 6379,
  "zui4 chu1": 6380,
  " wei4 you2": 6381,
  " yin1 su4": 6382,
  "xia4 ling4 shi2 jian1 ": 6383,
  " yi4 zai4 ": 6384,
  " kai1 she4": 6385,
  " tao3 lun4 ": 6386,
  "gh": 6387,
  "lian2 bang1": 6388,
  " zhong1 zhi3": 6389,
  " si1 la1 fu1 ": 6390,
  "   si1": 6391,
  " de ying1": 6392,
  " zi4 shen1": 6393,
  " jia1 jing4": 6394,
  " shi2 qi1 nian2 ": 6395,
  "shu4 ju4": 6396,
  " pi1 zhun3 ": 6397,
  " nan2 fang1": 6398,
  " qing2 bao4": 6399,
  " lv3 ke4": 6400,
  "liao4 ": 6401,
  "ling4 yi1 ": 6402,
  " zhu3 yan3 ": 6403,
  " jie1 chu4": 6404,
  "fang1 shi4 ": 6405,
  "si4 ge4": 6406,
  " da4 dao4": 6407,
  " pai2 hang2": 6408,
  " fang2 yu4": 6409,
  " nuo4 ": 6410,
  "DT ": 6411,
  "zou3": 6412,
  " yuan2 shi3": 6413,
  " 32": 6414,
  " cai2 liao4 ": 6415,
  " de zuo4 biao1 wei4 ": 6416,
  "lao3": 6417,
  "jiao4 yu4 ": 6418,
  " cu1 ": 6419,
  " qi2 zhong1 yi1 ": 6420,
  " zhuan3 xiang4": 6421,
  "ma3 ": 6422,
  " ta4": 6423,
  " zhong1 yi3": 6424,
  "ren2 de ": 6425,
  " bei4 po4": 6426,
  " zuo4 zhe3": 6427,
  " ye3 zai4 ": 6428,
  "nd": 6429,
  " gong1 bu4": 6430,
  " liang3 zhe3": 6431,
  " jia4 shi3": 6432,
  "mo2 shi4 ": 6433,
  "wen2 hua4 ": 6434,
  " zhe4 shou3": 6435,
  " zhu4 ming2 de ": 6436,
  " bian4 hua4 ": 6437,
  " huan4 zhe3": 6438,
  "jia3 ": 6439,
  " zhu1": 6440,
  " li2 mi3 ": 6441,
  "wu3 nian2 ": 6442,
  " tong2 yi1 ": 6443,
  " zui4 jin4": 6444,
  " chuang4 li4 ": 6445,
  " de jian4 zhu4": 6446,
  " chu1 yan3": 6447,
  " yi3 bei3": 6448,
  " shen2 me": 6449,
  " heng2 xing1": 6450,
  "zai3 ": 6451,
  "xia4 xia2 de yi2 ge4": 6452,
  "66": 6453,
  "ce4 shi4 ": 6454,
  " si1 di4 ": 6455,
  " wei4 UTC ": 6456,
  " er3 man4 ": 6457,
  " de cun2": 6458,
  "tur": 6459,
  " zhong1 guo2 gong4 chan3 dang3": 6460,
  "87": 6461,
  " 1984 nian2 ": 6462,
  "hai3 ": 6463,
  "da2 dao4 ": 6464,
  " xian4 ru4": 6465,
  " jiang1 hui4": 6466,
  " X": 6467,
  " guo2 jun1": 6468,
  " xia4 lai2": 6469,
  " xing4 bie2": 6470,
  " pei2 ": 6471,
  "miao2 ": 6472,
  " de zhong1 guo2 ": 6473,
  " bu4 ji2": 6474,
  " mei3 yuan2 ": 6475,
  " 8 yue4 ": 6476,
  " diao4 kuai4": 6477,
  " yuan2 yin1 ": 6478,
  "   zeng1 zu3": 6479,
  "co": 6480,
  " tou": 6481,
  " ji1 ji2 ": 6482,
  " ji2 lin2": 6483,
  " zhe4 yang4 ": 6484,
  "tui1 chu1": 6485,
  " qi2 wei4 ": 6486,
  " xing2 cheng2": 6487,
  " tong2 yi4 ": 6488,
  "ark": 6489,
  " de gan3 ": 6490,
  "zhu2": 6491,
  " shi4 yuan2": 6492,
  " tui4 xiu1 ": 6493,
  " le ta1 de ": 6494,
  " cn ": 6495,
  " zhi1 fu4": 6496,
  " xiao3 xue2 ": 6497,
  "xi3": 6498,
  " yi1 ju4": 6499,
  " chu1 shen1": 6500,
  " wu3 qi4": 6501,
  " lei4 xing2 ": 6502,
  " xiao1 fei4": 6503,
  " hei1 se4": 6504,
  "ri4 ": 6505,
  "hua2 ": 6506,
  " ben3 zhan4": 6507,
  " nei4 ge2": 6508,
  " bo2 wu4 guan3 ": 6509,
  " diao4 kuai4 yi1 xiao3 shi2 ": 6510,
  "IS": 6511,
  " fan4 wei2 nei4": 6512,
  "AT": 6513,
  " ji2 UTC ": 6514,
  " dui4 fang1": 6515,
  " bo1 chu1": 6516,
  " de zui4 gao1": 6517,
  "she4 you3 xia4 ling4 shi2 jian1 ": 6518,
  " de shi2 qu1 wei4 UTC ": 6519,
  " er2 gai1 di4 suo3 cai3 yong4": 6520,
  " tong2 shi2 gai1 di4 she4 you3 xia4 ling4 shi2 jian1 ": 6521,
  " er2 gai1 di4 suo3 cai3 yong4 de shi2 qu1 wei4 UTC ": 6522,
  "gong1 zuo4 ": 6523,
  " an1 hui1 ": 6524,
  "ss": 6525,
  " de yun4": 6526,
  " de can1": 6527,
  " bei4 cheng1 wei2": 6528,
  " kai1 fang4": 6529,
  " tan3 ke4": 6530,
  " ren3": 6531,
  "ju1 zhu4": 6532,
  " yi4 nian2 ": 6533,
  " ji2 bei3 mei3": 6534,
  " de xian1 ": 6535,
  " de jian3 ": 6536,
  " yi4 you3 ": 6537,
  " wei4 fu2 qi2 yu2 gang1": 6538,
  " zhi4 jin1 ": 6539,
  " zhan4 zhong1 ": 6540,
  " 1989 nian2 ": 6541,
  "sheng1 wu4": 6542,
  " wei2 qi2 ": 6543,
  " tuan2 ti3 ": 6544,
  " zhi2 li4 ": 6545,
  " chu4 de hai3 ba2": 6546,
  "   wei2": 6547,
  " de wei2": 6548,
  " shi2 you2": 6549,
  " zhou1 ci4": 6550,
  " 30 ": 6551,
  " shou1 gou4": 6552,
  " wei4 gao1 yu2 hai3": 6553,
  " chu4 de hai3 ba2 wei4 gao1 yu2 hai3": 6554,
  "ni4": 6555,
  "tiao3": 6556,
  "ye3 shi4 ": 6557,
  "   190": 6558,
  " po3": 6559,
  " kang4 yi4 ": 6560,
  " ben3 tu3 ": 6561,
  " yuan4 zhang3 ": 6562,
  " mi4 mi4": 6563,
  " jiang4 di1 ": 6564,
  " wan1 de ": 6565,
  " guo2 yu3": 6566,
  " fang2 wu1 ": 6567,
  " gui4 zu2": 6568,
  "gui1 hua4": 6569,
  " de zheng1": 6570,
  " tao3 lun4": 6571,
  "ya1 ": 6572,
  " pu2 ": 6573,
  " xu2 ": 6574,
  " de wu2": 6575,
  "mo4 si1 ke1": 6576,
  "tang2": 6577,
  " ben1": 6578,
  " la1 ding1": 6579,
  " er4 shi4 ": 6580,
  " shi4 jie4 bei1": 6581,
  "le4": 6582,
  "   zhu3 yao4": 6583,
  "zong3 du1 ": 6584,
  "ban4 dao3": 6585,
  " de chan3": 6586,
  " fu4 shu1 ji4 ": 6587,
  " bai3 wan4 ": 6588,
  " xian3 zhu4": 6589,
  " gong1 chi3": 6590,
  "...": 6591,
  "miao4": 6592,
  "qiu2 yuan2 ": 6593,
  " ka1": 6594,
  " li3 lan2": 6595,
  " bian4 cheng2 ": 6596,
  "tu1 ": 6597,
  " shen1 wei4 ": 6598,
  " B ": 6599,
  " huan1 ying2 ": 6600,
  "ping2 fang1": 6601,
  " gong1 jue2": 6602,
  " sai4 ji4": 6603,
  " zhi3 ding4": 6604,
  " xun2 yang2": 6605,
  "tai2 nan2": 6606,
  " de an1 ": 6607,
  " de xiang4": 6608,
  "gong1 gong4": 6609,
  " an1 pai2": 6610,
  " chu4 de hai3 ba2 wei4 gao1 yu2 hai3 ping2 mian4": 6611,
  " bu4 lu3 ": 6612,
  "wa3 ": 6613,
  " long3": 6614,
  " ri4 bao4 ": 6615,
  " xuan3 shou3": 6616,
  " 39": 6617,
  " qu1 de mian4 ji1 wei4 ": 6618,
  "ma": 6619,
  " fei1 xing2": 6620,
  " dan3 ": 6621,
  " gong1 an1 ": 6622,
  " yi1 zhou1": 6623,
  "qi2 ": 6624,
  "guo4 cheng2 ": 6625,
  "ceng2 ": 6626,
  "bi4 ": 6627,
  "shi2 qu1 ": 6628,
  " ming2 dan1": 6629,
  "   1 ": 6630,
  " yue4 lai2": 6631,
  " you3 san1": 6632,
  " chu1 xi2 ": 6633,
  " zhi2 wei4 ": 6634,
  " chang2 du4": 6635,
  " yi2 shi4 ": 6636,
  " shou1 ": 6637,
  "shao4 ": 6638,
  "   ke4": 6639,
  "bi3 jiao4": 6640,
  " shi2 wu4": 6641,
  " dui4 wai4": 6642,
  " jian1 ren4": 6643,
  " In": 6644,
  " 1950 nian2 ": 6645,
  "dang4": 6646,
  "ke1 xue2 yuan4": 6647,
  " zhe ": 6648,
  " de shou1": 6649,
  "keng1": 6650,
  " gong1 ying4": 6651,
  " fa3 guan1": 6652,
  " dong1 fang1": 6653,
  " quan3 ": 6654,
  " yi4 fang1 mian4 ": 6655,
  " yin1 shi4 ": 6656,
  " fang1 fa3 ": 6657,
  " dou1 hui4": 6658,
  "bu4 fen4": 6659,
  " lian3 ": 6660,
  " min3 ": 6661,
  "mi3 ya4": 6662,
  " de ti2": 6663,
  " zhuan3 yi2": 6664,
  " zhao1 he2 ": 6665,
  "ON": 6666,
  " rui4 shi4 ": 6667,
  "wen2 wu4 bao3 hu4 dan1 wei4 ": 6668,
  " wen1 du4": 6669,
  "AC": 6670,
  " zai4 ji1": 6671,
  "guo2 nei4": 6672,
  "ji4 suan4 ": 6673,
  " zhou1 wei2": 6674,
  " lai2 yuan2 ": 6675,
  " xiang4 shi4 ": 6676,
  " fang2 zhi3": 6677,
  "bing4 du2": 6678,
  "jie2 guo3": 6679,
  "qi3 yong4 ": 6680,
  " wei4 ta1": 6681,
  " yue4 zhong1 ": 6682,
  " jia1 ge1": 6683,
  " wang2 chao2": 6684,
  " huo3 shan1": 6685,
  " de gu4": 6686,
  "zi3 ": 6687,
  " de hui4": 6688,
  " 24 ": 6689,
  " dang1 shi2 de ": 6690,
  " shu1 ru4": 6691,
  " la1 si1": 6692,
  " gai3 shan4 ": 6693,
  "76": 6694,
  "   huo4": 6695,
  "ao4 di4 li4 ": 6696,
  "qi4 hou4 ": 6697,
  "bo1 chu1 ": 6698,
  " yi2 dong4": 6699,
  " ta1 men ": 6700,
  "jiao3": 6701,
  "   ri4 ben3": 6702,
  " de bao3": 6703,
  " yu4 ji4 ": 6704,
  " yu2 192": 6705,
  " chuang4 jian4": 6706,
  "Tub": 6707,
  " dang1 nian2 ": 6708,
  " kuo4 zhan3 ": 6709,
  "pu2": 6710,
  " wei2 er3 ": 6711,
  " lan2 qiu2": 6712,
  " zeng1 zhang3": 6713,
  " de cheng2 ji4 ": 6714,
  " qi2 bing1": 6715,
  " jiao1 liu2": 6716,
  " huang2 jin1": 6717,
  " ke3 neng2 hui4": 6718,
  "gai3 bian1": 6719,
  " chan3 pin3 ": 6720,
  " 48": 6721,
  " yi4 b": 6722,
  " yu3 he2 ": 6723,
  " chu1 le ": 6724,
  " sheng1 ren4": 6725,
  " lian2 wang3": 6726,
  " duan4 de ": 6727,
  " pei4 ": 6728,
  " 8 ": 6729,
  "ru3 ": 6730,
  " shi4 qu1": 6731,
  "zhi4 200": 6732,
  " 65": 6733,
  "   li4 shi3": 6734,
  " li3 gong1 ": 6735,
  "15 nian2 ": 6736,
  "2 ri4": 6737,
  "est": 6738,
  "od": 6739,
  " de mei3 guo2 ": 6740,
  " leng2": 6741,
  " ming2 ren2 ": 6742,
  " ke1 xue2 ": 6743,
  " an1 zhuang1": 6744,
  " ju3 xing2 de ": 6745,
  " shi2 ba1 nian2 ": 6746,
  "tao3": 6747,
  " 11 yue4 ": 6748,
  " yu3 ci3": 6749,
  "cai3 yong4": 6750,
  " zuo4 jia1": 6751,
  " guan1 zhu4": 6752,
  "ut": 6753,
  " zhou1 fu3": 6754,
  " que4 ren4": 6755,
  "dong1 ji4 ": 6756,
  " di4 dian3": 6757,
  " da4 chen2 ": 6758,
  " zheng4 ming2 ": 6759,
  " sheng1 wei4 ": 6760,
  " chang2 shi4 ": 6761,
  " xiu1 zheng4": 6762,
  " zao4 cheng2": 6763,
  "   a1": 6764,
  " cheng2 ben3": 6765,
  " ju4 ji2 ": 6766,
  " wu3 zhuang1": 6767,
  "ru2 guo3": 6768,
  " xia4 ling4": 6769,
  " song1 ": 6770,
  "zhui1 ": 6771,
  "ge1 shou3": 6772,
  " da4 xing2 ": 6773,
  " yi3 ci3": 6774,
  " nu4": 6775,
  " yi2 min2": 6776,
  " ai4 er3 lan2": 6777,
  " xi2 wei4 ": 6778,
  " fei1 ji1 ": 6779,
  "   2005 nian2 ": 6780,
  "zeng4": 6781,
  "bei4 ": 6782,
  "min2 jian1": 6783,
  " shi4 chang3 ": 6784,
  " di4 guo2": 6785,
  " yi4 ti2": 6786,
  " tai4 guo2 ": 6787,
  "Window": 6788,
  " gua1": 6789,
  " bian1 ji2 ": 6790,
  " guo2 min2 zheng4 fu3": 6791,
  " nen4": 6792,
  " fen1 bu4 zai4 ": 6793,
  " xing4 de ": 6794,
  " sheng4 dun4": 6795,
  " ding1 ": 6796,
  " yu2 190": 6797,
  " 1983 nian2 ": 6798,
  " bi4 ye4 yu2 ": 6799,
  "   11": 6800,
  "jie1 r": 6801,
  " yi2 ding4": 6802,
  "nuo4 ": 6803,
  "bai4": 6804,
  " xing3": 6805,
  " wa1": 6806,
  " zhen1 zheng4": 6807,
  " hai2 zi": 6808,
  "   quan2": 6809,
  "si1 lan2": 6810,
  " jian4 kang1 ": 6811,
  " yi3 nan2": 6812,
  "ram": 6813,
  "   er4": 6814,
  " shi4 tai2 wan1 ": 6815,
  " xiang1 si4 ": 6816,
  " fu2 he2 ": 6817,
  " hai3 yu4 ": 6818,
  " huang2 jia1": 6819,
  " fu4 zhu3 xi2 ": 6820,
  " ming2 que4": 6821,
  " zui4 zhong1": 6822,
  " cheng1 wei4 ": 6823,
  " ya1 li4 ": 6824,
  " zi4 zhi4 qu1 ": 6825,
  "shao4": 6826,
  "tiv": 6827,
  " de ri4 ben3": 6828,
  " shi4 yong4": 6829,
  " shi3 mi4": 6830,
  " ya4 li4 shan1": 6831,
  "Ch": 6832,
  "   zhu3": 6833,
  "   san1": 6834,
  "fa3 yuan4": 6835,
  " mei3 jun1": 6836,
  " fei4 yan2": 6837,
  " zheng4 zhuang4 gan3 ran3 zhe3": 6838,
  "qing3 ": 6839,
  " gu3 fen4": 6840,
  "41": 6841,
  "jiang1 ": 6842,
  " luo2 li3 da2": 6843,
  " jin1 pai2 ": 6844,
  " zhuang4 tai4 ": 6845,
  "shan3 ": 6846,
  "chu1 xian4": 6847,
  "zui4 da4": 6848,
  "xi4 ": 6849,
  " shi2 yan4 shi4 ": 6850,
  " yi1 xi4 lie4": 6851,
  " le liang3": 6852,
  " shi4 shi4 jie4": 6853,
  "ection": 6854,
  "3 ri4": 6855,
  "jian4 she4": 6856,
  "jie2 shu4 ": 6857,
  " de ye4": 6858,
  " shang4 xia4": 6859,
  " xiong1 ya2 li4 ": 6860,
  " xue2 sheng1 ": 6861,
  "u ": 6862,
  "wang2 guo2 ": 6863,
  " er3 fu1 ": 6864,
  "ar ": 6865,
  " de ban3 ": 6866,
  "ll": 6867,
  " ma3 er3": 6868,
  "78": 6869,
  "te4 ding4": 6870,
  "qu3 ": 6871,
  " shi4 de2 guo2 ": 6872,
  " qi2 shi2 ": 6873,
  " geng4 wei2": 6874,
  " xun2 ": 6875,
  " de pei4": 6876,
  "ami": 6877,
  "   gao1": 6878,
  " de wei1": 6879,
  " ren2 da4": 6880,
  " ta1 yu3": 6881,
  " 12 ": 6882,
  " duo1 li4 ya4": 6883,
  " hen3 kuai4 ": 6884,
  "xia4 ji4 ao4 lin2 pi3 ke4 yun4 dong4 hui4": 6885,
  "14 nian2 ": 6886,
  " yi3 wei2": 6887,
  " liao3 jie3": 6888,
  " yu2 2016 nian2 ": 6889,
  "YouTub": 6890,
  "   wu3": 6891,
  " bu4 shao3 ": 6892,
  " yi4 yu2 ": 6893,
  " 9 yue4 ": 6894,
  " xiang1 gang3 ": 6895,
  " de fang2 ": 6896,
  " zhe4 xiang4": 6897,
  " jie2 shu4 ": 6898,
  " pei4 bei4": 6899,
  " 15 ": 6900,
  "zao3": 6901,
  "zui4 hou4 ": 6902,
  " pao3 ": 6903,
  " ban1 fa1": 6904,
  "30 nian2 ": 6905,
  "9 ri4": 6906,
  "can2": 6907,
  "qu1 yu4 ": 6908,
  "96": 6909,
  "lin": 6910,
  " yue1 wei4 ": 6911,
  "c ": 6912,
  "jiang1 qi2": 6913,
  " shi4 ying4": 6914,
  " zai4 yuan2": 6915,
  " ni2 xi1 ya4": 6916,
  "xun1 ": 6917,
  "ji4 cheng2 ": 6918,
  " ke3 neng2 shi4 ": 6919,
  "guang3 dong1 sheng3": 6920,
  "   mu4": 6921,
  "juan4 ": 6922,
  "gai3 bian4": 6923,
  " fei1 jian4 zhi4 di4 qu1 ": 6924,
  " 1986 nian2 ": 6925,
  " du2 te4": 6926,
  " si1 ling4 bu4 ": 6927,
  "   tian1": 6928,
  "fen4 zi3": 6929,
  " xuan3 qu1 ": 6930,
  " su1 ge2 lan2": 6931,
  "17 nian2 ": 6932,
  "AN": 6933,
  "ying1 gai1": 6934,
  " shi4 yi1 bu4 ": 6935,
  " ji1 hui4 ": 6936,
  "za2": 6937,
  "   tai2 wan1 ": 6938,
  "mian4 ji1 ": 6939,
  " shi4 cheng2 ": 6940,
  "di4 san1": 6941,
  " ta1 he2 ": 6942,
  " er4 ren2 ": 6943,
  " de ming2 zi4": 6944,
  "xi1 ban1 ya2": 6945,
  " zhan4 ling3 ": 6946,
  " fei1 zhou1": 6947,
  " na4 me": 6948,
  " zhong1 dui4": 6949,
  " kong1 jian1 ": 6950,
  "yong1 you3 ": 6951,
  "II": 6952,
  " qiong2 ": 6953,
  " ying1 wen2": 6954,
  " de shi2 hou4": 6955,
  " 12 yue4 ": 6956,
  " zhi1 jian1 de ": 6957,
  " yu2 2021 nian2 ": 6958,
  "   16": 6959,
  " 11 ": 6960,
  " te4 la1": 6961,
  " 184": 6962,
  " yu2 2015 nian2 ": 6963,
  "98": 6964,
  "   gu3": 6965,
  " xiang4 zheng1": 6966,
  " tong2 pai2 ": 6967,
  " ge2 wei4 ": 6968,
  " lin2 jin4": 6969,
  " ke1 ji4 ": 6970,
  " yi2 zhi4 ": 6971,
  " de kong4": 6972,
  " de M": 6973,
  " wei4 wei4 ": 6974,
  " shui3 yu4 ": 6975,
  " zhong4 dian3": 6976,
  " de ci2 ": 6977,
  " de quan2 li4 ": 6978,
  "lou2": 6979,
  " Q": 6980,
  "yu3 yan2": 6981,
  "shi2 dai4": 6982,
  " ye3 hui4": 6983,
  "43": 6984,
  "   ge4 ren2 ": 6985,
  " ge1 shou3 ": 6986,
  "xian2": 6987,
  "zhi2 wu4": 6988,
  " wan4 mei3 yuan2 ": 6989,
  " yu2 2018 nian2 ": 6990,
  "fei2": 6991,
  "zao3 qi1": 6992,
  "de2 dao4": 6993,
  "duo1 ci4": 6994,
  "zhong3 zu2": 6995,
  " shou3 xian1 ": 6996,
  " ding4 yi4 ": 6997,
  "ya3 ": 6998,
  " si1 xiang3 ": 6999,
  " xu4 li4 ya4": 7000,
  " zhuang4 tai4": 7001,
  "xiang3 ": 7002,
  "xiang1 tong2": 7003,
  "zu3 he2 ": 7004,
  " he2 li3": 7005,
  "ao4 zhou1": 7006,
  " zou4 ": 7007,
  " shi4 lang2 ": 7008,
  "tong1 che1 ": 7009,
  " shi4 wu4 ": 7010,
  " xiang1 hu4": 7011,
  " lan2 ke4": 7012,
  " wei2 yi1": 7013,
  "3 hao4": 7014,
  " sha1 si3": 7015,
  "77": 7016,
  "ge4 zhong3": 7017,
  "niao3 ": 7018,
  " sa4 ": 7019,
  " yu2 2012 nian2 ": 7020,
  " e4 ": 7021,
  " de dan4": 7022,
  " he2 yue1": 7023,
  " bei4 qi2": 7024,
  " shen1 zhen4": 7025,
  " duo2 de ": 7026,
  "   jin3 ": 7027,
  " yun3 xu3 ": 7028,
  "zhi3 hui1 ": 7029,
  " he2 wu4": 7030,
  " di4 yi4": 7031,
  " qian1 ding4": 7032,
  " zhe4 chang3": 7033,
  " si4 ge4": 7034,
  " bu2 yao4": 7035,
  "tao2": 7036,
  " de zhang3": 7037,
  " da4 sai4": 7038,
  " mei3 guo2": 7039,
  "2021 nian2 ": 7040,
  " ji3 yu3": 7041,
  " IS": 7042,
  "shui4": 7043,
  "gong1 shi4 ": 7044,
  "bo1 luo2": 7045,
  " de jie1": 7046,
  " hua4 shi2 ": 7047,
  " ming2 xing1": 7048,
  " duo1 zhong3": 7049,
  " ke1 ji4": 7050,
  " meng2 te4": 7051,
  " zu1 jie4": 7052,
  "chang4 ": 7053,
  "st   ": 7054,
  "xu2": 7055,
  " de2 yu3 ": 7056,
  " gui4 ": 7057,
  "ation ": 7058,
  "et   ": 7059,
  "   xiang1": 7060,
  " can3 ": 7061,
  " tiao2 yue1 ": 7062,
  " biao3 xian4 ": 7063,
  " jue2 sai4 ": 7064,
  " 7 yue4 ": 7065,
  " de qing2 kuang4 xia4": 7066,
  "aw": 7067,
  " lian2 sai4 ": 7068,
  " min2 jian1": 7069,
  " pai1 she4 ": 7070,
  "AP": 7071,
  "fu4 ze2 guan3 xia2 ": 7072,
  " de shuo1 fa3 ": 7073,
  "la1 ding1": 7074,
  " le xu3 duo1": 7075,
  " fu4 shu3": 7076,
  " zheng4 mian4": 7077,
  " shan1 ji1": 7078,
  " xiang3 yao4": 7079,
  " bai3 ke1": 7080,
  " yu2 2014 nian2 ": 7081,
  " yu2 2017 nian2 ": 7082,
  "gui3 ": 7083,
  "ba1 li2 ": 7084,
  " de jiu4": 7085,
  " shi4 wei3": 7086,
  " huo2 yue4 ": 7087,
  " fan4 wei2 ": 7088,
  "xing1 jian4": 7089,
  " de2 ming2 ": 7090,
  " she4 yu2 ": 7091,
  " 1920 nian2 ": 7092,
  " 1980 nian2 ": 7093,
  "5 ren2 ": 7094,
  " luan2": 7095,
  " jing1 yan4 ": 7096,
  " tong2 xing4": 7097,
  " ma3 la1": 7098,
  "chuang4 li4 ": 7099,
  " er2 ren2 kou3 mi4 du4 wei4 mei3 ping2 fang1 qian1 mi3 ": 7100,
  "zheng4 xie2": 7101,
  " bu2 hui4 ": 7102,
  "ong": 7103,
  "yao2 ": 7104,
  "   bei3": 7105,
  "   jiao1 tong1 ": 7106,
  "bu4 tong2": 7107,
  " de2 yi3 ": 7108,
  " guan1 ce4": 7109,
  " 46": 7110,
  " dang3 yuan2 ": 7111,
  "jiao3 ": 7112,
  " lan4 ": 7113,
  " di4 tu2": 7114,
  " tui4 chu1": 7115,
  " ren2 kou3 mi4 du4 mei3 ping2 fang1 gong1 li3": 7116,
  " pi3 ": 7117,
  " da4 lou2 ": 7118,
  " dan4 bai2": 7119,
  " bao3 cun2": 7120,
  " da2 dao4": 7121,
  " wei4 yu2 zhong1 guo2 ": 7122,
  " ling3 shi4 ": 7123,
  " de cheng2 yuan2 ": 7124,
  " shi4 di4 er4": 7125,
  " ji4 suan4 ji1": 7126,
  "yi3 ": 7127,
  "bi3 ": 7128,
  "jiao1 yi4 ": 7129,
  " yuan2 zi": 7130,
  " ren4 qi1": 7131,
  " fa3 lv4 ": 7132,
  " zhuan3 huan4 ": 7133,
  " ling3 dao3 ren2 ": 7134,
  "guan1 yuan2 ": 7135,
  " zhe4 zuo4": 7136,
  " xing2 wei4 ": 7137,
  " su2": 7138,
  " xian4 xiang4": 7139,
  "diao4 cha2 ": 7140,
  "4 ge4": 7141,
  "   0": 7142,
  " bu4 zheng4": 7143,
  " xin1 jiang1": 7144,
  " ao4 er3": 7145,
  "eb": 7146,
  "shu2": 7147,
  " jia1 zhou1": 7148,
  " he2 nan2 sheng3": 7149,
  "kang4 ": 7150,
  "chu1 shen1 ": 7151,
  "yan2 hai3": 7152,
  " hui4 shang4": 7153,
  "300": 7154,
  "   20": 7155,
  " de jian1": 7156,
  " yi3 you3 ": 7157,
  " dan4 shui3": 7158,
  " ban4 yan3": 7159,
  " guo2 jia1 dui4": 7160,
  "   nian2 ": 7161,
  "che1 liang4": 7162,
  " bi4 ye4 ": 7163,
  " cai3 ": 7164,
  "chao1 guo4": 7165,
  "chu1 sheng1 yu2 ": 7166,
  " li4 zi": 7167,
  " ren4 zhi2": 7168,
  " jun1 tuan2": 7169,
  " yan3 yuan2": 7170,
  " xin4 yang3 ": 7171,
  " die2 ": 7172,
  " ke1 fu1 ": 7173,
  " mao2 ze2 dong1": 7174,
  "   chen2": 7175,
  "bu3": 7176,
  "dong1 nan2 bu4 ": 7177,
  "wu3 qi4": 7178,
  " li4 ji1": 7179,
  "jiang4": 7180,
  "ren2 zai4 ": 7181,
  "ze2 shi4 ": 7182,
  " de yu2 ": 7183,
  " qu1 yu4 ": 7184,
  " cun4": 7185,
  "gao4 ": 7186,
  " jiao4 wei2": 7187,
  " xi1 lan2": 7188,
  " ceng2 wei4 ": 7189,
  " 1987 nian2 ": 7190,
  "reng2 ran2": 7191,
  "tou": 7192,
  "   shang4": 7193,
  " zuo4 zhan4 ": 7194,
  " fen1 bie2 shi4 ": 7195,
  "kong4 zhi4 ": 7196,
  "58": 7197,
  "man": 7198,
  "zhi3 you3 ": 7199,
  " zhi3 yao4": 7200,
  " de zuo4 pin3": 7201,
  " zai4 di4 er4": 7202,
  "if": 7203,
  " he2 jia1": 7204,
  "guo2 ji4": 7205,
  " ping2 wei4 ": 7206,
  " kun4": 7207,
  " lv4 shi1": 7208,
  "19 ": 7209,
  " de qiang2 ": 7210,
  " ta3 ni2": 7211,
  "fa1 she4": 7212,
  " shang4 shu1": 7213,
  " bo2 te4": 7214,
  " rong2 na4": 7215,
  " sa4 er3": 7216,
  " de han2": 7217,
  " li3 de ": 7218,
  " jiang3 xiang4 ": 7219,
  " S ": 7220,
  " sui2 hou4 ": 7221,
  " gan4 bu4 ": 7222,
  " zai4 bei4": 7223,
  " na4 xie1": 7224,
  " bu4 wei4 ": 7225,
  " lv4 wei4 ": 7226,
  " po4 huai4": 7227,
  " 1948 nian2 ": 7228,
  "mou3 xie1": 7229,
  "li2": 7230,
  " hou4 qi1": 7231,
  "wang4 ": 7232,
  "tie1": 7233,
  "yi2 min2": 7234,
  " de ren2 kou3": 7235,
  " si1 zhi2": 7236,
  " yan2 ren2 ": 7237,
  " wan2 ": 7238,
  "ying2 de2": 7239,
  " gong1 jiao1": 7240,
  " xian4 yu2 ": 7241,
  " mu4 biao1 ": 7242,
  " jin1 shan1": 7243,
  " 47": 7244,
  " shi4 jue2": 7245,
  "3 mi3 ": 7246,
  " hang2 zhou1": 7247,
  "zheng4 fu3 ": 7248,
  " kao3 gu3": 7249,
  " zai4 dang1": 7250,
  " yin1 qi2": 7251,
  " jin4 nian2 ": 7252,
  " kai1 ": 7253,
  "pp": 7254,
  " he2 ji1": 7256,
  " si1 man4 ": 7257,
  " ling4 ren2 ": 7258,
  " 58": 7259,
  " ai4 de2": 7260,
  " yu2 2013 nian2 ": 7261,
  " shi2 zhi4 ": 7262,
  " 1982 nian2 ": 7263,
  " 1958 nian2 ": 7264,
  "ao4 lin2 pi3 ke4 yun4 dong4 hui4 ": 7265,
  " yu2 2019 nian2 ": 7266,
  " ju4 yuan4": 7267,
  " ze2 wei4 ": 7268,
  " mian3 dian1 ": 7269,
  "gong1 kai1": 7270,
  " yu2 2020 nian2 ": 7271,
  " shou3 ge4": 7272,
  " le yi1 xie1": 7273,
  " qu1 nei4": 7274,
  " wang3 qiu2": 7275,
  " jiao1 gei3": 7276,
  " cuo4 shi1 ": 7277,
  "192": 7278,
  " te4 zheng1 ": 7279,
  "qun2 ": 7280,
  "16 nian2 ": 7281,
  " yi1 ci2 ": 7282,
  " ye4 wu4": 7283,
  " dou3": 7284,
  " shou3 wei4 ": 7285,
  " deng3 deng3 ": 7286,
  " diao4 cha2 ": 7287,
  " yu2 2022 nian2 ": 7288,
  "chu2": 7289,
  " hen4": 7290,
  " si1 zhou1": 7291,
  " ta1 men de ": 7292,
  " er2 gai1 di4 de ": 7293,
  " zuo3 you4 ": 7294,
  "yue4 ": 7295,
  "yi3 lai2": 7296,
  "zhe4 yi1 ": 7297,
  " zai4 hai3": 7298,
  " pei4 yin1": 7299,
  " ruo4 ": 7300,
  " yu2 le4 ": 7301,
  "11 nian2 ": 7302,
  "ob": 7303,
  "qian3 ": 7304,
  " yi3 shang4 ": 7305,
  " zuo4 wei4 ": 7306,
  " mian4 lin2": 7307,
  " xiao1 xi1 ": 7308,
  " chou2 ": 7309,
  " lang3 pu3": 7310,
  "56": 7311,
  "   she4": 7312,
  " ao4 di4 li4 ": 7313,
  " pin2 dao4": 7314,
  "bi3 ya4": 7315,
  " de de2": 7316,
  "zhi4 199": 7317,
  " yi2 zhi3": 7318,
  " da4 di4 ": 7319,
  " wei2 fan3 ": 7320,
  "   dong1": 7321,
  " xue2 xi2": 7322,
  " bei4 jing3": 7323,
  " xi4 ju4": 7324,
  " bei3 fang1": 7325,
  " rui4 ": 7326,
  " de guan1 xi4": 7327,
  "yin1 ": 7328,
  "mei3 yuan2": 7329,
  " shi4 ren2 min2": 7330,
  " zhai3": 7331,
  " 120": 7332,
  " ba1 ": 7333,
  "zi4 zhi4 ": 7334,
  "dong1 bei3 bu4 ": 7335,
  " zhong1 ye3": 7336,
  " er2 bu4 ": 7337,
  " zan4 shi2 ": 7338,
  "kong1 jun1": 7339,
  " ping2 lun4 ": 7340,
  " xia4 jiang4 ": 7341,
  " 33": 7342,
  " 6 yue4 ": 7343,
  "xue2 shu4": 7344,
  " qiao3": 7345,
  " she4 ding4": 7346,
  " te4 zheng1": 7347,
  " gai1 gong1 si1": 7348,
  " liang3 guo2 ": 7349,
  " he2 qi2 ta1 ": 7350,
  " gong1 wu4": 7351,
  " ge4 guo2 ": 7352,
  "4 mi3 ": 7353,
  " mei4 ": 7354,
  "fang4": 7355,
  " zai4 shang4": 7356,
  " xian4 cheng2 ": 7357,
  " cong2 ci3": 7358,
  "jing1 ": 7359,
  "jiang1 jun1": 7360,
  " wei4 zhi1": 7361,
  " hu1": 7362,
  " zhi4 di4 ": 7363,
  " si1 tai4": 7364,
  " ren2 min2 gong4 he2 guo2": 7365,
  " zai4 193": 7366,
  " qin1 wang2": 7367,
  " zai4 tai2 wan1 ": 7368,
  "   gai4 yao4 ": 7369,
  "72": 7370,
  "kang1 ": 7371,
  "jiang1 su1 ": 7372,
  " ji2 ju4": 7373,
  " zheng4 dang3 ": 7374,
  " lv4 bin1 ": 7375,
  " 1979 nian2 ": 7376,
  "lv3 ke4": 7377,
  "ling4 wai4": 7378,
  "you1 shi4 ": 7379,
  " xiao1 liang4": 7380,
  "li2 kai1": 7381,
  "z ": 7382,
  " de2 zhu3 ": 7384,
  " liu4 ": 7385,
  " 1978 nian2 ": 7386,
  " feng2 ": 7387,
  " de ke1": 7388,
  " zai4 ying1 guo2 ": 7389,
  " he2 yuan2": 7390,
  "ji4 hua4 ": 7391,
  " xi1 li3": 7392,
  " ling4 yi2 ge4": 7393,
  " mo2 xing2 ": 7394,
  "pi1": 7395,
  "   shi3 yong4": 7396,
  "yong4 hu4": 7397,
  " yuan2 zhu4 min2": 7398,
  "92": 7399,
  "ang2 kong1": 7400,
  "er2 tong2": 7401,
  " he1": 7402,
  " di4 zhi4 ": 7403,
  " ye3 bu4 ": 7404,
  " ying3 ": 7405,
  " de qing2": 7406,
  "mei3 zhou1": 7407,
  " ren2 zhi1": 7408,
  " 1946 nian2 ": 7409,
  " mao4 yi4": 7410,
  "hi": 7411,
  " ping2 jie4": 7412,
  " jiu4 ": 7413,
  " zi1 ge2": 7414,
  " zhuan1 jia1": 7415,
  " dao4 lu4 ": 7416,
  " e2 ": 7417,
  " yu2 2010 nian2 ": 7418,
  "fang3": 7419,
  "2009 nian2 ": 7420,
  "ru2 ": 7421,
  "qu3 dai4": 7422,
  " zhu3 ban4": 7423,
  " ling4 you3 ": 7424,
  " zhi4 shi4 ": 7425,
  "rui4 shi4 ": 7426,
  " tiao3 zhan4": 7427,
  " wei4 ci3": 7428,
  " na2 xia4": 7429,
  "zong1 jiao4": 7430,
  " yu2 2023 nian2 ": 7431,
  "bian1 ": 7432,
  " he2 dong1": 7433,
  " er2 yan2 ": 7434,
  " ma3 ke4": 7435,
  " de xiu1 ": 7436,
  " hou2 ": 7437,
  "bei1 ": 7438,
  " yue4 lai2 yue4 ": 7439,
  "an4 nian2 ": 7440,
  " zhi4 pian4 ": 7441,
  " you2 yu2": 7442,
  " zheng1 qu3": 7443,
  " zai1 ": 7444,
  "nu3": 7445,
  " he2 shang4": 7446,
  " si1 luo4": 7447,
  " tong2 meng2": 7448,
  " 5 yue4 ": 7449,
  " xie2 dai4": 7450,
  " gai3 ming2 wei4 ": 7451,
  " yuan1 ": 7452,
  " hou4 lai2 ": 7453,
  "nei4 bu4 ": 7454,
  " de bo1": 7455,
  " kuo4 da4": 7456,
  " tong1 guo4 ": 7457,
  " cha4 ": 7458,
  " ji1 dui4": 7459,
  " yu4 shi3 ": 7460,
  " miao3": 7461,
  " xiao4 zhang3": 7462,
  " guang3 chang3 ": 7463,
  "13 nian2 ": 7464,
  "hun1 ": 7465,
  "qing3": 7466,
  "ci4 yu2 ": 7467,
  "yun4 shu1": 7468,
  " jiu4 du2": 7469,
  " ru2 he2 ": 7470,
  "th ": 7471,
  "our": 7472,
  "omp": 7473,
  "xing2 zheng4 ": 7474,
  "gang3 ": 7475,
  " bu4 di2 ": 7476,
  "zhuan1 ye4": 7477,
  "xi2 ji1": 7478,
  "ye3 ": 7479,
  " lian2 bang1": 7480,
  " bao4 fa1 ": 7481,
  " peng2 you3 ": 7482,
  "qi4 che1": 7483,
  " ji1 fen1": 7484,
  " dang1 ju2": 7485,
  " 180": 7486,
  " hong2 jun1": 7487,
  " yu3 qi2 ta1": 7488,
  " dai4 ling3": 7489,
  " shi2 jiu3 nian2 ": 7490,
  "86": 7491,
  "   ren2 ": 7492,
  "zui4 da4 de ": 7493,
  "ru2 he2 ": 7494,
  " zai4 bei3 jing1": 7495,
  " sheng3 wei3": 7496,
  " shen1 qing3": 7497,
  " tui1 jin4": 7498,
  " zhang4 ai4 ": 7499,
  "79": 7500,
  " zai4 qian2": 7501,
  " ma1 ": 7502,
  " ku3": 7503,
  " se4 fu1 ": 7504,
  " dang4 tian1": 7505,
  "zheng1 yi4 ": 7506,
  "lan": 7507,
  "yi2 shi4 ": 7508,
  "shi1 qu4": 7509,
  "shen1 zhen4": 7510,
  "chan3 ye4": 7511,
  " wei2 rao4 ": 7512,
  " miao2 ": 7513,
  " de mu3": 7514,
  " shuai4 ling3": 7515,
  " de er2 zi": 7516,
  "zui4 ": 7517,
  "2000 nian2 ": 7518,
  "sheng4 ": 7519,
  " de2 er3": 7520,
  "biao3 yan3": 7521,
  " gong1 zhan4": 7522,
  " zhan4 dui4": 7523,
  " jing1 li3 ": 7524,
  " dou1 bei4": 7525,
  "zhao3": 7526,
  "biao3 xian4": 7527,
  "an1 de2": 7528,
  " de2 jun1": 7529,
  " ban4 gong1 ": 7530,
  " tian2 jing4": 7531,
  " shao4 nv3": 7532,
  "shuang1 fang1": 7533,
  " de qing2 kuang4 xia4 ": 7534,
  "   jin3 guan3": 7535,
  "o   ": 7536,
  "chi2 ": 7537,
  " jing1 dian3": 7538,
  " fu4 jin4 ": 7539,
  " ti2 chu1 ": 7540,
  " rong2 yu4": 7541,
  "2 mi3 ": 7542,
  " ke3 yi3 zai4 ": 7543,
  " guang3 gao4 ": 7544,
  " shi4 you2 yu2 ": 7545,
  " cha1 yi4 ": 7546,
  "jian4 cheng2 ": 7547,
  "shang4 ying4 ": 7548,
  " de ke3": 7549,
  " ta1 cheng2 wei2": 7550,
  " hai3 dao4 ": 7551,
  " li2 zi": 7552,
  " chong1 man3 ": 7553,
  " zao3 nian2 ": 7554,
  " zui3": 7555,
  " cuo4 ": 7556,
  " fen1 lan2": 7557,
  " liu2 xing2": 7558,
  "us ": 7559,
  "zui4 jia1 ": 7560,
  " de zhuang4 ": 7561,
  "ast": 7562,
  "   lin2": 7563,
  "ri4 zhi4 ": 7564,
  " ni2 hei1": 7565,
  " he2 bing4 ": 7566,
  "   tong2": 7567,
  " gong1 ju4": 7568,
  " si1 li4 ": 7569,
  " qiu2 chang3": 7570,
  " qi1 nian2 ": 7571,
  " dao3 de ": 7572,
  " di4 qu1 de ": 7573,
  "yp": 7574,
  "qi3 lai2": 7575,
  "tai4 guo2 ": 7576,
  " le dui4": 7577,
  " xia4 de ": 7578,
  " le gai1": 7579,
  " zu3 cheng2 de ": 7580,
  " tun1": 7581,
  " fa2 li4 ya4": 7582,
  " zhe2 xue2": 7583,
  " shi4 xing1": 7584,
  " gong1 cheng2": 7585,
  " cheng2 zhen4": 7586,
  " guai4 ": 7587,
  " wang3 lu4": 7588,
  " ling3 yu4 ": 7589,
  " di1 yu2 ": 7590,
  "se": 7591,
  "mu4 di4 ": 7592,
  "bo2 shi4 ": 7593,
  " ma1": 7594,
  " qiao3 ": 7595,
  " JR": 7596,
  " da4 qi4": 7597,
  " wan4 yuan2 ": 7598,
  "jie1 dao4 ": 7599,
  " section": 7600,
  " ji2 er3": 7601,
  " liu2 xing2 ": 7602,
  " de yi1 zhong3 ": 7603,
  " hui2 gui1 ": 7604,
  " ka3 si1": 7605,
  " shi4 chu4": 7606,
  "xiao3 xing2 xing1 ": 7607,
  " ben3 pian4 ": 7608,
  " cai2 pan4 ": 7609,
  " huan4 cheng2 ": 7610,
  " zhu2 bu4 ": 7611,
  " huan1 ying2": 7612,
  "kai1 fang4 ": 7613,
  " zhan4 tai2": 7614,
  " shang4 you3 ": 7615,
  " hui4 zhang3 ": 7616,
  " jian1 du1 ": 7617,
  " chang2 jian4": 7618,
  " man3 zhou1": 7619,
  "yao1 qiu2 ": 7620,
  "gai3 shan4 ": 7621,
  " he2 ji2": 7622,
  " guan1 zhi4 ": 7623,
  " ying1 li3 ": 7624,
  " mo2 ": 7625,
  " zi4 ji3 de ": 7626,
  "huang2 di4 ": 7627,
  " she4 bei4 ": 7628,
  " hai3 wai4": 7629,
  "ard": 7630,
  " wu1 ran3 ": 7631,
  " yue4 de ": 7632,
  " mai2": 7633,
  " ren2 dui4": 7634,
  " yi1 zhi4 ": 7635,
  " zu3 cheng2": 7636,
  " wu3 han4 ": 7637,
  " jiao1 yi4 ": 7638,
  " er4 ": 7639,
  " zao1 shou4": 7640,
  " shi4 zhang3 ": 7641,
  " ru4 qin1": 7642,
  " 400": 7643,
  " zhi4 he2 ": 7644,
  "ren2 min2 dai4 biao3": 7645,
  " pan2 ": 7646,
  "   xiao3": 7647,
  "chu1 ren4": 7648,
  "mei3 nian2 ": 7649,
  " zai4 gao1": 7650,
  " xing2 shi3": 7651,
  " le ta1 ": 7652,
  " dan4 qi2": 7653,
  " li4 bu4 ": 7654,
  "   jia1 ting2 ": 7655,
  "na4 zhou1": 7656,
  " he2 suan1 ": 7657,
  " zu3 zhi3": 7658,
  " zai1 pei2 ": 7659,
  " lei3 ji4 ": 7660,
  "   15": 7661,
  "lian2 meng2 ": 7662,
  "ling4 yi2 ge4": 7663,
  " ke4 sa4": 7664,
  " kai1 zhan3 ": 7665,
  " ru2 ci3 ": 7666,
  " ming4 ling4": 7667,
  "   gen1 ju4 2020 nian2 mei3 guo2 ren2 kou3 pu3 cha2 de shu4 ju4 ": 7668,
  "zhi2 min2": 7669,
  " zai4 ju4": 7670,
  " zhong1 shu1": 7671,
  " yi1 dai4 ": 7672,
  " lai2 na4": 7673,
  " jian1 chi2": 7674,
  " di1 qi4": 7675,
  "xiong1": 7677,
  " ma3 si1 ": 7678,
  "xing2 dong4": 7679,
  "2007 nian2 ": 7680,
  " she4 ji2 ": 7681,
  " jie2 guo3 ": 7682,
  " ka3 la1": 7683,
  " 160": 7684,
  " jiu3 long2": 7685,
  " a1 er3 bei1": 7686,
  " zhan1 mu3 si1 ": 7687,
  "kang1": 7688,
  " de gong4": 7689,
  " you3 yi4 ": 7690,
  " zhi4 liao2": 7691,
  " jia1 li4 ya4": 7692,
  " zhan3 xian4": 7693,
  " tui1 chu1 ": 7694,
  " zhao4 pian1 ": 7695,
  "EC": 7696,
  "xing2 shi4 ": 7697,
  " yi1 qie4": 7698,
  " bei4 pan4 ": 7699,
  " chang3 bi3 sai4": 7700,
  "2024 nian2 ": 7701,
  " shi4 xi1 ban1 ya2": 7702,
  "OM": 7703,
  "lian2 he2 guo2 ": 7704,
  "xu4 li4 ya4": 7705,
  " shi4 gai1": 7706,
  " xue2 ke1": 7707,
  " dian4 nao3": 7708,
  " liang3 ci4": 7709,
  "kao4 ": 7710,
  "shen1 ti3": 7711,
  " he2 jin1": 7712,
  " yue4 sheng1": 7713,
  " zhi4 yi2": 7714,
  " zhi1 di4 ": 7715,
  " zei2": 7716,
  " yi1 ren2 ": 7717,
  " bu4 tong2 de ": 7718,
  " fa2 ke4": 7719,
  "   you2 xi4": 7720,
  "miao2 shu4 ": 7721,
  "   v": 7722,
  "   luo2": 7723,
  " zhe1": 7724,
  " yuan4 shi4 ": 7725,
  " xie3 dao4 ": 7726,
  " gui4 zhou1": 7727,
  "huan2 jing4": 7728,
  "for": 7729,
  "you2 xi4 ": 7730,
  "feng1 ge2": 7731,
  " ga2": 7732,
  "2023 nian2 ": 7733,
  " yin4 ni2": 7734,
  "xin4": 7735,
  "hun4": 7736,
  "chuang1 ": 7737,
  "quan3 ": 7738,
  " zhi1 zi ": 7739,
  " de di4 yi2 ge4": 7740,
  " kong4 ": 7741,
  " xing2 zheng4 yuan4": 7742,
  "xue2 zhe3": 7743,
  " fu4 nv3": 7744,
  " zong3 li3 ": 7745,
  " si3 hou4 ": 7746,
  "tong1 guo4 ": 7747,
  "sui2 zhu4": 7748,
  " ruan3 jian4": 7749,
  "an3 zai4 ": 7750,
  "yan3 ": 7751,
  " yi4 da4": 7752,
  " yuan2 ming2 ": 7753,
  " huan2 jing4 ": 7754,
  " shi4 fan4 ": 7755,
  "ai4 er3 lan2": 7756,
  "yan3 chu1": 7757,
  " pa2": 7758,
  " zhi1 shi4 ": 7759,
  " chu1 lai2 ": 7760,
  " zhou1 qi1": 7761,
  " zhu4 ce4": 7762,
  " tai2 nan2": 7763,
  " tu2 shu1 guan3": 7764,
  "fa1 dian4": 7765,
  "yan3 chu1 ": 7766,
  "ban4 gong1 shi4 ": 7767,
  " zhong1 duan4 ": 7768,
  " zhi1 yi4 ": 7769,
  " ke3 ": 7770,
  " de tu3 di4 ": 7771,
  " hant ": 7772,
  "yi2 ci4 shi4 jie4 da4 zhan4": 7773,
  " ti2 ming2 ": 7774,
  " qu3 dai4 ": 7775,
  " 49": 7776,
  "24 ": 7777,
  " de na4": 7778,
  " yi4 wai4": 7779,
  " mo4 si1 ke1": 7780,
  "   gu4 shi4 ": 7781,
  " yu2 2024 nian2 ": 7782,
  "qiang1": 7783,
  "bi4 yao4": 7784,
  "wang3 qiu2": 7785,
  " xian4 shi4 ": 7786,
  " si1 zai4 ": 7787,
  " ri4 zhan4 zheng1": 7788,
  " yan2 jiu1": 7789,
  " fan3 er2": 7790,
  " shi4 jie4 shang4": 7791,
  " ba4 ": 7792,
  "ta3": 7793,
  " he2 zhi4 ": 7794,
  " bu4 shu3": 7795,
  "yi1 ci4": 7796,
  " wang1 ": 7797,
  "kao3": 7798,
  " de ben3": 7799,
  " da4 qiao2 ": 7800,
  " dan4 reng2": 7801,
  " bo1 fang4 ": 7802,
  "   2004 nian2 ": 7803,
  "bing1 ": 7804,
  " 000 ren2 ": 7805,
  "pai2 ming2": 7806,
  "jie2 ke4": 7807,
  "xuan3 shou3": 7808,
  " de xu1 ": 7809,
  " qi2 ta1 de ": 7810,
  " xiao4 zhang3 ": 7811,
  "jing1 shen2": 7812,
  " de suo3 you3 ": 7813,
  " zhi4 yuan2": 7814,
  " yao4 wu4": 7815,
  " feng1 ge2 ": 7816,
  " ji4 wei4 ": 7817,
  " de cha1": 7818,
  "chong2 xin1": 7819,
  "ru4 xuan3": 7820,
  " zhong1 qi1": 7821,
  " zhi1 ming2": 7822,
  " xia4 wu3": 7823,
  " mei3 tian1": 7824,
  " gu3 lao3": 7825,
  " fa3 lan2 xi1": 7826,
  "52": 7827,
  "ya4 li4 shan1": 7828,
  "guo2 wang2": 7829,
  " da4 bu4 ": 7830,
  " da4 shi1": 7831,
  " de2 la1": 7832,
  " dai4 bu3 ": 7833,
  " fu2 lang3": 7834,
  " shou4 yu3": 7835,
  " qun2 dao3 ": 7836,
  " de chuang4 ": 7837,
  " sheng1 ming2 ": 7838,
  " li3 ao4 ": 7839,
  " an4 zhao4 ": 7840,
  " peng2 ": 7841,
  "jia1 na2 da4": 7842,
  "chang2 ": 7843,
  " dong4 li4 ": 7844,
  " le ci3": 7845,
  " kong1 qi4": 7846,
  " de gong1 zuo4 ": 7847,
  " yu2 2011 nian2 ": 7848,
  " que4 zhen3 bing4 li4 ": 7849,
  "   d": 7850,
  " sheng1 cheng2 ": 7851,
  " fa1 sheng1 ": 7852,
  " ping2 min2": 7853,
  " de chao1": 7854,
  " de zeng1": 7855,
  " de jing1 ji4 ": 7856,
  " bang4 qiu2": 7857,
  "wen3 ding4": 7858,
  "she4 zhi4 ": 7859,
  " de bei3": 7860,
  " yi4 si": 7861,
  " yi1 yang4": 7862,
  " zuo4 luo4": 7863,
  " nan2 ji2 ": 7864,
  " chao1 yue4 ": 7865,
  "62": 7866,
  "ay ": 7867,
  "   la1": 7868,
  "qie4 ": 7869,
  "jie2 gou4 ": 7870,
  " de ling3 dao3": 7871,
  " zhi1 dao4": 7872,
  " du1 du1 ": 7873,
  " si1 ling4 ": 7874,
  "wo3 men": 7875,
  " de chang3": 7876,
  " zai4 yi2 ge4": 7877,
  " guan1 fei4 yan2": 7878,
  " bai3 nian2 ": 7879,
  "bao1 kuo4 ": 7880,
  "cao3": 7881,
  "2006 nian2 ": 7882,
  " nian2 nian2 ": 7883,
  " zhu3 li4 ": 7884,
  " nan2 fei1": 7885,
  " gen1 sui2 ": 7886,
  " 9 ": 7887,
  " de cheng2 yuan2": 7888,
  "yi3 ji2": 7889,
  "zhi1 qian2": 7890,
  " xian3": 7891,
  " duo4": 7892,
  " 34": 7893,
  " shui3 ping2": 7894,
  " 158": 7895,
  "edi": 7896,
  "mer": 7897,
  "ren2 he2 ": 7898,
  " wai4 guo2 ": 7899,
  "tie3 lu4 ": 7900,
  "   ju4 qing2 ": 7901,
  "500": 7902,
  "an1 deng1": 7903,
  "hou4 lai2": 7904,
  "guan1 zhong4": 7905,
  " bao4 dao3": 7906,
  " zhong1 shi4 yan3": 7907,
  " yi3 xia4 di4 qu1 ": 7908,
  "us   ": 7909,
  " de dao3": 7910,
  " shi4 qian2": 7911,
  " qi2 fu4": 7912,
  " sui1": 7913,
  " xian1 jin4": 7914,
  "mao2 ": 7915,
  "   2 ": 7916,
  "fang1 xiang4": 7917,
  "fei1 ": 7918,
  "bo1 chu1": 7919,
  "shi2 jian1 ": 7920,
  " jiao4 tang2": 7921,
  " xia4 lai2 ": 7922,
  " tui4 yi4 ": 7923,
  " fan2 ": 7924,
  " shi4 zhong1 hua2 ren2 min2 gong4 he2 guo2 ": 7925,
  "nve4": 7926,
  "189": 7927,
  " zai4 dui4": 7928,
  " shi2 yong4": 7929,
  " you2 yong3 ": 7930,
  " jiao4 shi1": 7931,
  " wei2 hu4": 7932,
  " jia4 ge2": 7933,
  " zhuang1 shi4 ": 7934,
  "69": 7935,
  "jie2 hun1 ": 7936,
  "bi4 mian3 ": 7937,
  " zhi4 shao3 ": 7938,
  " 1 li4 ": 7939,
  " de cheng2 zhen4 ": 7940,
  " de jue2 se4": 7941,
  "si3 wang2": 7942,
  "tu3": 7943,
  "qi2 ta1 ": 7944,
  "chu1 sheng1": 7945,
  "lu4 ying3": 7946,
  "zui4 zao3": 7947,
  " zai4 dong1": 7948,
  " he2 shui3": 7949,
  " xiao3 shuo1 ": 7950,
  " xuan3 zhong1 ": 7951,
  " hua1 yuan2 ": 7952,
  "ace": 7953,
  " xian4 de yi2 ge4 fei1 jian4 zhi4 di4 qu1 ": 7954,
  "you2 tai4": 7955,
  "hai3 an4 ": 7956,
  "cheng1 wei2": 7957,
  "pu3 bian4": 7958,
  " yu3 wen2": 7959,
  " jie1 dao4": 7960,
  " zhang3 da2": 7961,
  " kong1 zhong1 ": 7962,
  " zhuang1 jia3": 7963,
  " ta3 er3": 7964,
  " ha1 er3 bin1": 7965,
  "nan4 ": 7966,
  "huai2 ": 7967,
  "ke3 ": 7968,
  " de shou4": 7969,
  " shi2 zhen1": 7970,
  " yi1 xiang4": 7971,
  " ma3 en1": 7972,
  " 162": 7973,
  " zong3 tong3 ": 7974,
  "gai4 ": 7975,
  "tou2 piao4 ": 7976,
  "yi1 zhong3": 7977,
  " tao2 tai4": 7978,
  "bian4 hua4": 7979,
  "zi1 ge2": 7980,
  " wei4 ming2": 7981,
  " da4 ban3 ": 7982,
  " ming2 jin4 shi4 ": 7983,
  " qiang2 du4": 7984,
  "hai3 ba2": 7985,
  "tai2 feng1": 7986,
  " zai4 ben3": 7987,
  " ren2 bei4": 7988,
  " yan2 chang2": 7989,
  "an4 de xiao3 xing2 xing1 ": 7990,
  " tao2 wan3 ": 7991,
  "yan3 chang4 hui4 ": 7992,
  "5 mi3 ": 7993,
  "mie4": 7994,
  "lai2 yuan2 ": 7995,
  "ge1 lun2 bi3 ya4": 7996,
  " ren4 shi2 ": 7997,
  " jin4 xing2 le ": 7998,
  "59": 7999
}