{
  "!": 0,
  "\"": 1,
  "#": 2,
  "$": 3,
  "%": 4,
  "&": 5,
  "'": 6,
  "(": 7,
  ")": 8,
  "*": 9,
  "+": 10,
  ",": 11,
  "-": 12,
  ".": 13,
  "/": 14,
  "0": 15,
  "1": 16,
  "2": 17,
  "3": 18,
  "4": 19,
  "5": 20,
  "6": 21,
  "7": 22,
  "8": 23,
  "9": 24,
  ":": 25,
  ";": 26,
  "=": 27,
  "?": 28,
  "@": 29,
  "A": 30,
  "B": 31,
  "C": 32,
  "D": 33,
  "E": 34,
  "F": 35,
  "G": 36,
  "H": 37,
  "I": 38,
  "J": 39,
  "K": 40,
  "L": 41,
  "M": 42,
  "N": 43,
  "O": 44,
  "P": 45,
  "Q": 46,
  "R": 47,
  "S": 48,
  "T": 49,
  "U": 50,
  "V": 51,
  "W": 52,
  "X": 53,
  "Y": 54,
  "Z": 55,
  "[": 56,
  "\\": 57,
  "]": 58,
  "^": 59,
  "_": 60,
  "`": 61,
  "a": 62,
  "b": 63,
  "c": 64,
  "d": 65,
  "e": 66,
  "f": 67,
  "g": 68,
  "h": 69,
  "i": 70,
  "j": 71,
  "k": 72,
  "l": 73,
  "m": 74,
  "n": 75,
  "o": 76,
  "p": 77,
  "q": 78,
  "r": 79,
  "s": 80,
  "t": 81,
  "u": 82,
  "v": 83,
  "w": 84,
  "x": 85,
  "y": 86,
  "z": 87,
  "|": 88,
  "~": 89,
  "�": 156,
  "\n": 162,
  " ": 163,
  "": 164,
  "ng": 199,
  "h�": 200,
  "à": 201,
  "ā": 202,
  "ì": 203,
  "á": 204,
  "ī": 205,
  "è": 206,
  "ǎ": 207,
  "  ": 208,
  "é": 209,
  "í": 210,
  "sh�": 211,
  "ù": 212,
  "án": 213,
  "zh": 214,
  "ǐ": 215,
  "ō": 216,
  "ji": 217,
  "de": 218,
  "àn": 219,
  "ē": 220,
  "zh�": 221,
  "sh": 222,
  "ě": 223,
  "ó": 224,
  "ǔ": 225,
  "xi": 226,
  "ò": 227,
  "ú": 228,
  "ān": 229,
  "   ": 230,
  "ài": 231,
  "ū": 232,
  "ōng": 233,
  "ǒ": 234,
  "shì": 236,
  "hu": 237,
  "èi": 238,
  "gu": 239,
  "ián": 240,
  "hé": 241,
  "ào": 242,
  "āng": 243,
  "íng": 244,
  "yu": 245,
  "ǎn": 246,
  "ch": 247,
  "nián": 248,
  "yī": 249,
  "ǎng": 250,
  "én": 251,
  "ǒu": 252,
  "ìng": 253,
  "wèi": 254,
  "ǎo": 255,
  "zài": 256,
  "、": 257,
  "jī": 258,
  "ēng": 259,
  "zhōng": 260,
  "xī": 261,
  "bù": 262,
  "jì": 263,
  "àng": 264,
  "li": 265,
  "zhè": 266,
  "shí": 267,
  "dì": 268,
  "guó": 269,
  "yú": 270,
  "rén": 271,
  "òng": 272,
  "ch�": 273,
  "āo": 274,
  "du": 275,
  "ché": 276,
  "yǐ": 277,
  "lì": 278,
  "áng": 279,
  "yì": 280,
  "uò": 281,
  "ái": 282,
  "zhì": 283,
  "chéng": 284,
  "éi": 285,
  "xu": 286,
  "gōng": 287,
  "jí": 288,
  "�u": 289,
  "ěi": 290,
  "iàn": 291,
  "ēn": 292,
  "óng": 293,
  "yuè": 294,
  "yǒu": 295,
  "yuán": 296,
  "dà": 297,
  "qi": 298,
  "ōu": 299,
  "lǐ": 300,
  "20": 301,
  "óu": 302,
  "āi": 303,
  "xiàn": 304,
  "jiā": 305,
  "sī": 306,
  "ūn": 307,
  "xíng": 308,
  "yǔ": 309,
  "èn": 310,
  "ǒng": 311,
  "ín": 312,
  "tā": 313,
  "rì": 314,
  "zhī": 315,
  "hòu": 316,
  "ǎi": 317,
  "gè": 318,
  "zhà": 319,
  "éng": 320,
  "le": 321,
  "wéi": 322,
  "huì": 323,
  "dào": 324,
  "19": 325,
  "bi": 326,
  "shà": 327,
  "qī": 328,
  "qí": 329,
  "shè": 330,
  "su": 331,
  "zhèng": 332,
  "míng": 333,
  "jiàn": 334,
  "xué": 335,
  "chū": 336,
  "yù": 337,
  "ěng": 338,
  "zuò": 339,
  "shēng": 340,
  "duì": 341,
  "yóu": 342,
  "qū": 343,
  "shàng": 344,
  "ěn": 345,
  "dé": 346,
  "lù": 347,
  "bèi": 348,
  "chá": 349,
  "ti": 350,
  "shǐ": 351,
  "zhàn": 352,
  "zhǔ": 353,
  "ēi": 354,
  "qu": 355,
  "jù": 356,
  "xīn": 357,
  "jūn": 358,
  "zhu": 359,
  "ěr": 360,
  "áo": 361,
  "shù": 362,
  "uì": 363,
  "rèn": 364,
  "fā": 365,
  "wù": 366,
  "bìng": 367,
  "kè": 368,
  "ér": 369,
  "dài": 370,
  "yí": 371,
  "jìn": 372,
  "zì": 373,
  "yīn": 374,
  "fù": 375,
  "fāng": 376,
  "jīng": 377,
  "nán": 378,
  "huà": 379,
  "xì": 380,
  "zhōu": 381,
  "píng": 382,
  "òu": 383,
  "xià": 384,
  "lái": 385,
  "yòng": 386,
  "shu": 387,
  "guān": 388,
  "tóng": 389,
  "》": 390,
  "《": 391,
  "fǎ": 392,
  "zhù": 393,
  "měi": 394,
  "há": 395,
  "·": 396,
  "jiān": 397,
  "jǐ": 398,
  "huò": 399,
  "dù": 400,
  "chu": 401,
  "běn": 402,
  "xiāng": 403,
  "zhí": 404,
  "dòng": 405,
  "xiàng": 406,
  "mín": 407,
  "jiāng": 408,
  "fēn": 409,
  "shǒu": 410,
  "quán": 411,
  "wén": 412,
  "yán": 413,
  "hà": 414,
  "suǒ": 415,
  "jiào": 416,
  "qián": 417,
  "diàn": 418,
  "tè": 419,
  "di": 420,
  "duō": 421,
  "ún": 422,
  "zuì": 423,
  "kāi": 424,
  "tu": 425,
  "jié": 426,
  "lián": 427,
  "zhǐ": 428,
  "kě": 429,
  "dàn": 430,
  "mù": 431,
  "yè": 432,
  "fú": 433,
  "mǎ": 434,
  "yě": 435,
  "dōng": 436,
  "qiú": 437,
  "běi": 438,
  "「": 439,
  "」": 440,
  "gāo": 441,
  "yà": 442,
  "qǐ": 443,
  "jiē": 444,
  "miàn": 445,
  "hǎi": 446,
  "zhǎng": 447,
  "shī": 448,
  "jīn": 449,
  "cǐ": 450,
  "lu": 451,
  "nèi": 452,
  "tǐ": 453,
  "sài": 454,
  "sān": 455,
  "tái": 456,
  "gé": 457,
  "xìng": 458,
  "guò": 459,
  "rù": 460,
  "201": 461,
  "děng": 462,
  "yào": 463,
  "ju": 464,
  "chē": 465,
  "cì": 466,
  "wǔ": 467,
  "gāi": 468,
  "dìng": 469,
  "cháng": 470,
  "biǎo": 471,
  "lā": 472,
  "gòng": 473,
  "jiè": 474,
  "shòu": 475,
  "dǎo": 476,
  "shān": 477,
  "chǎng": 478,
  "sì": 479,
  "bǐ": 480,
  "zé": 481,
  "tí": 482,
  "kē": 483,
  "dāng": 484,
  "néng": 485,
  "èr": 486,
  "wài": 487,
  "dān": 488,
  "xù": 489,
  "zi": 490,
  "kǒu": 491,
  "xiǎo": 492,
  "zǔ": 493,
  "bā": 494,
  "jué": 495,
  "lín": 496,
  "liú": 497,
  "shěng": 498,
  "yīng": 499,
  "ku": 500,
  "lán": 501,
  "luó": 502,
  "tōng": 503,
  "200": 504,
  "īng": 505,
  "mǐ": 507,
  "zhòng": 508,
  "en": 509,
  "zhě": 510,
  "shǔ": 511,
  "tiān": 512,
  "zhèn": 513,
  "ǚ": 514,
  "qì": 515,
  "zhǒng": 516,
  "liè": 517,
  "chēng": 518,
  "shū": 519,
  "yuàn": 520,
  "bǎo": 521,
  "tài": 522,
  "fǔ": 523,
  "fēng": 524,
  "gǔ": 525,
  "qīng": 526,
  "shēn": 527,
  "wáng": 528,
  "yùn": 529,
  "guǎn": 530,
  "fēi": 531,
  "jiù": 532,
  "liǎng": 533,
  "céng": 534,
  "méi": 535,
  "10": 536,
  "fèn": 537,
  "hào": 538,
  "�ng": 539,
  "yǎn": 540,
  "wěi": 541,
  "zǒng": 542,
  "xuǎn": 543,
  "xiào": 544,
  "dá": 545,
  "nà": 546,
  "liàng": 547,
  "bō": 548,
  "zú": 549,
  "jìng": 550,
  "bào": 551,
  "ní": 552,
  "wú": 553,
  "tǒng": 554,
  "huá": 555,
  "jiāo": 556,
  "yuē": 557,
  "yǐng": 558,
  "biàn": 559,
  "xīng": 560,
  "sù": 561,
  "shuǐ": 562,
  "yáng": 563,
  "hù": 564,
  "men": 565,
  "bāo": 566,
  "gē": 567,
  "bó": 568,
  "cān": 569,
  "cóng": 570,
  "diǎn": 571,
  "bì": 572,
  "rú": 573,
  "bàn": 574,
  "biān": 575,
  "wǎng": 576,
  "qǔ": 577,
  "mi": 578,
  "chǎn": 579,
  "sè": 580,
  "zī": 581,
  "chuán": 582,
  "00": 583,
  "shèng": 584,
  "rán": 585,
  "tú": 586,
  "zhāng": 587,
  "pǔ": 588,
  "gǎi": 589,
  "gǎng": 590,
  "nǚ": 591,
  "lìng": 592,
  "luò": 593,
  "yòu": 594,
  "tóu": 595,
  "cè": 596,
  "l�": 597,
  "chí": 598,
  "18": 599,
  "lǜ": 600,
  "qiān": 601,
  "shé": 602,
  "lí": 603,
  "dōu": 604,
  "pǐ": 605,
  "12": 606,
  "zhēng": 607,
  "ni": 608,
  "kuò": 609,
  "shā": 610,
  "dǎng": 611,
  "fǎn": 612,
  "gòu": 613,
  "lèi": 614,
  "xí": 615,
  "jǐng": 616,
  "tuán": 617,
  "wēi": 618,
  "xiē": 619,
  "lǐng": 620,
  "lóng": 621,
  "guī": 622,
  "xiān": 623,
  "róng": 624,
  "huáng": 625,
  "xiǎng": 626,
  "bān": 627,
  "jiǔ": 628,
  "yìng": 629,
  "mén": 630,
  "shāng": 631,
  "shén": 632,
  "202": 633,
  "bǎn": 634,
  "kǎ": 635,
  "mǔ": 636,
  "jǐn": 637,
  "fū": 638,
  "jǔ": 639,
  "mó": 640,
  "guǎng": 641,
  "cí": 642,
  "shuō": 643,
  "qíng": 644,
  "zhǎn": 645,
  "hái": 646,
  "zhuāng": 647,
  "mò": 648,
  "cái": 649,
  "dú": 650,
  "11": 651,
  "pǐn": 652,
  "tíng": 653,
  "cháo": 654,
  "yíng": 655,
  "tiáo": 656,
  "jiǎn": 657,
  "táng": 658,
  "huí": 659,
  "duàn": 660,
  "chén": 661,
  "gēn": 662,
  "mì": 663,
  "wàn": 664,
  "pái": 665,
  "wān": 666,
  "zào": 667,
  "háng": 668,
  "wán": 669,
  "biāo": 670,
  "gù": 671,
  "lún": 672,
  "199": 673,
  "xié": 674,
  "jiǎng": 675,
  "hàn": 676,
  "jú": 677,
  "fàn": 678,
  "fáng": 679,
  "huó": 680,
  "hán": 681,
  "pi": 682,
  "kōng": 683,
  "or": 684,
  "tiě": 685,
  "méng": 686,
  "bié": 687,
  "wū": 688,
  "jiě": 689,
  "zhuān": 690,
  "yǐn": 691,
  "xū": 692,
  "zhēn": 693,
  "dǐ": 694,
  "er": 695,
  "chú": 696,
  "hú": 697,
  "jià": 698,
  "bīng": 699,
  "mìng": 700,
  "líng": 701,
  "hóng": 702,
  "qīn": 703,
  "zǐ": 704,
  "lùn": 705,
  "xìn": 706,
  "chù": 707,
  "chǔ": 708,
  "sū": 709,
  "an": 710,
  "xiū": 711,
  "zōng": 712,
  "15": 713,
  "què": 714,
  "xiāo": 715,
  "zhào": 716,
  "qiáng": 717,
  "qù": 718,
  "cūn": 719,
  "chóng": 720,
  "piàn": 721,
  "jiū": 722,
  "fàng": 723,
  "suí": 724,
  "shōu": 725,
  "gèng": 726,
  "guāng": 728,
  "èng": 729,
  "jū": 730,
  "on": 731,
  "jiǎ": 732,
  "chuàng": 733,
  "dí": 734,
  "16": 735,
  "zhuǎn": 736,
  "guǒ": 737,
  "xùn": 738,
  "màn": 739,
  "pài": 740,
  "fèi": 741,
  "pèi": 742,
  "198": 743,
  "dǎ": 744,
  "tuō": 745,
  "la": 746,
  "xuān": 747,
  "bái": 748,
  "zhū": 749,
  "dū": 750,
  "tǔ": 751,
  "diào": 752,
  "xiá": 753,
  "liù": 754,
  "17": 755,
  "suì": 756,
  "huī": 757,
  "tīng": 758,
  "qiě": 759,
  "tǎ": 760,
  "qiáo": 761,
  "hā": 762,
  "gǎn": 763,
  "zēng": 764,
  "xiǎn": 765,
  "mài": 766,
  "huán": 767,
  "xǔ": 768,
  "wǎ": 769,
  "tuī": 770,
  "wèn": 771,
  "chāo": 772,
  "tián": 773,
  "bǎi": 774,
  "cǎi": 775,
  "liáng": 776,
  "yá": 777,
  "sà": 778,
  "ar": 779,
  "bài": 780,
  "cún": 781,
  "jiǎo": 782,
  "shǎo": 783,
  "yàn": 784,
  "zhuàng": 785,
  "huǒ": 786,
  "léi": 787,
  "14": 788,
  "zu": 789,
  "jiàng": 790,
  "chuān": 791,
  "yìn": 792,
  "zǎo": 793,
  "chà": 794,
  "yǒng": 795,
  "sǐ": 796,
  "dēng": 797,
  "30": 798,
  "zhǔn": 799,
  "lè": 800,
  "xún": 801,
  "nuò": 802,
  "kù": 803,
  "huàn": 804,
  "sòng": 805,
  "gào": 806,
  "lǔ": 807,
  "13": 808,
  "194": 809,
  "bāng": 810,
  "lǚ": 811,
  "pī": 812,
  "yàng": 813,
  "hěn": 814,
  "qún": 815,
  "zhěng": 816,
  "guàn": 817,
  "pò": 818,
  "gāng": 819,
  "wǒ": 820,
  "197": 821,
  "huā": 822,
  "lēi": 823,
  "hǎo": 824,
  "táo": 825,
  "kuàng": 826,
  "hè": 827,
  "in": 828,
  "dùn": 829,
  "nóng": 830,
  "gěi": 831,
  "sāi": 832,
  "shuāng": 833,
  "liàn": 834,
  "kuài": 835,
  "dī": 836,
  "bī": 837,
  "pàn": 838,
  "xiě": 839,
  "195": 840,
  "kǎo": 841,
  "gài": 842,
  "hēi": 843,
  "wàng": 844,
  "liào": 845,
  "rè": 846,
  "ge": 847,
  "zuǒ": 848,
  "kòng": 849,
  "196": 850,
  "yāng": 851,
  "chàng": 852,
  "yín": 853,
  "réng": 855,
  "sēn": 856,
  "bēi": 857,
  "lú": 858,
  "piào": 859,
  "yā": 860,
  "25": 861,
  "bīn": 862,
  "—": 863,
  "ràng": 864,
  "chōng": 865,
  "lóu": 866,
  "bǔ": 867,
  "lǎo": 868,
  "zhú": 869,
  "jùn": 870,
  "yǎng": 871,
  "ruì": 872,
  "yāo": 873,
  "xián": 874,
  "xiè": 875,
  "niàn": 876,
  "for": 877,
  "yōu": 878,
  "tán": 879,
  "kāng": 880,
  "pí": 881,
  "héng": 882,
  "yún": 883,
  "xǐ": 884,
  "kàn": 885,
  "níng": 886,
  "liáo": 887,
  "shào": 888,
  "bú": 889,
  "24": 890,
  "qǐng": 891,
  "chǐ": 892,
  "mu": 893,
  "dòu": 894,
  "miǎn": 895,
  "yōng": 896,
  "tǎn": 897,
  "wǎn": 898,
  "hū": 899,
  "fān": 900,
  "al": 901,
  "tū": 902,
  "gān": 903,
  "suàn": 904,
  "dīng": 905,
  "yuǎn": 906,
  "wēn": 907,
  "tuì": 908,
  "zhe": 909,
  "21": 910,
  "st": 911,
  "xiù": 912,
  "bǎ": 913,
  "mǎn": 914,
  "193": 915,
  "23": 916,
  "mula": 917,
  "kàng": 918,
  "formula": 919,
  "28": 920,
  "th": 921,
  "máo": 922,
  "ruò": 923,
  "piān": 924,
  "chè": 925,
  "mào": 926,
  "lǎng": 927,
  "qín": 928,
  "bá": 929,
  "ná": 930,
  "zàn": 931,
  "guǐ": 932,
  "guì": 933,
  "ou": 934,
  "pín": 935,
  "wò": 936,
  "xióng": 937,
  "shàn": 938,
  "re": 939,
  "22": 940,
  "xiōng": 941,
  "me": 942,
  "suī": 943,
  "ü": 944,
  "26": 945,
  "shěn": 946,
  "qìng": 947,
  "miáo": 948,
  "fǎng": 949,
  "50": 950,
  "2020": 951,
  "27": 952,
  "láng": 953,
  "ru": 954,
  "qiū": 955,
  "sōng": 956,
  "üè": 957,
  "dàng": 958,
  "gēng": 959,
  "qiāng": 960,
  "ri": 961,
  "fá": 962,
  "zāo": 963,
  "fèng": 964,
  "zhàng": 965,
  "háo": 967,
  "dūn": 968,
  "zǒu": 969,
  "hài": 970,
  "qiè": 971,
  "29": 972,
  "tàn": 973,
  "pào": 974,
  "pà": 975,
  "shùn": 976,
  "péng": 977,
  "xuán": 978,
  "2010": 979,
  "nǐ": 980,
  "000": 981,
  "dǐng": 982,
  "niǔ": 983,
  "zǎi": 984,
  "zhāo": 985,
  "zhuī": 986,
  "lüè": 987,
  "chūn": 988,
  "2019": 989,
  "hūn": 990,
  "kǒng": 991,
  "duān": 992,
  "shèn": 993,
  "xiáng": 994,
  "duǎn": 995,
  "gàn": 996,
  "te": 997,
  "ro": 998,
  "de ": 999,
  " de ": 1000,
  "shì ": 1001,
  " shì ": 1002,
  " nián": 1003,
  " nián ": 1004,
  "wèi ": 1005,
  "zài ": 1006,
  " wèi ": 1007,
  " zài ": 1008,
  "hé ": 1009,
  " hé ": 1010,
  "zhōng ": 1011,
  "bù ": 1012,
  "dì ": 1013,
  "shí ": 1014,
  "guó ": 1015,
  "yú ": 1016,
  "rén ": 1017,
  " bù ": 1018,
  "yī ": 1019,
  " zhōng ": 1020,
  "lì ": 1021,
  "zhì ": 1022,
  "gōng ": 1023,
  " shí ": 1024,
  "yuè ": 1025,
  "jí ": 1026,
  "chéng ": 1027,
  "yì ": 1028,
  "yǒu ": 1029,
  " dì ": 1030,
  " yuè ": 1031,
  " yú ": 1032,
  " rén ": 1033,
  " zhì ": 1034,
  "dà ": 1035,
  " jí ": 1036,
  "yuán ": 1037,
  " yǒu ": 1038,
  "jì ": 1039,
  " guó ": 1040,
  " lì ": 1041,
  " gōng ": 1042,
  " yì ": 1043,
  " yǐ": 1044,
  " chéng ": 1045,
  "jiā ": 1046,
  "sī ": 1047,
  "yǔ ": 1048,
  " xiàn": 1049,
  " rì": 1050,
  " yī ": 1051,
  " xíng": 1052,
  " tā": 1053,
  "lǐ ": 1054,
  "jī ": 1055,
  " dào": 1056,
  "hòu ": 1057,
  "wéi ": 1058,
  " zhī": 1059,
  " dà ": 1060,
  " yuán ": 1061,
  "xī ": 1062,
  " rì ": 1063,
  " gè": 1064,
  " yǐ ": 1065,
  "xué ": 1066,
  "huì ": 1067,
  "le ": 1068,
  "zuò ": 1069,
  " yǔ ": 1070,
  " dào ": 1071,
  "míng ": 1072,
  " jì ": 1073,
  "bèi ": 1074,
  " xíng ": 1075,
  "shēng ": 1076,
  " jiàn": 1077,
  " chū": 1078,
  " qí": 1079,
  " sī ": 1080,
  " dé": 1081,
  "zhèng ": 1082,
  " xiàn ": 1083,
  " hòu ": 1084,
  " jī ": 1085,
  "duì ": 1086,
  "shàng ": 1087,
  "qū ": 1088,
  "shǐ ": 1089,
  " ěr": 1090,
  " jiā ": 1091,
  "yóu ": 1092,
  " tā ": 1093,
  " xī ": 1094,
  " lǐ ": 1095,
  " ér": 1096,
  "zhàn ": 1097,
  " jūn": 1098,
  " bìng": 1099,
  " zhī ": 1100,
  " gè ": 1101,
  "zhǔ ": 1102,
  "rèn ": 1103,
  "fù ": 1104,
  "zì ": 1105,
  "wù ": 1106,
  "xīn ": 1107,
  "dài ": 1108,
  "ān ": 1109,
  "jù ": 1110,
  "píng ": 1111,
  " chū ": 1112,
  " kè": 1113,
  " zhōu": 1114,
  "xiāng ": 1115,
  "shù ": 1116,
  " huì ": 1117,
  "nán ": 1118,
  " shè": 1119,
  " bèi ": 1120,
  " míng ": 1121,
  "xià ": 1122,
  "guān ": 1123,
  " ěr ": 1124,
  " dé ": 1125,
  "lù ": 1126,
  "yù ": 1127,
  "huà ": 1128,
  " jiàn ": 1129,
  "jīng ": 1130,
  "yán ": 1131,
  "fāng ": 1132,
  " yīn": 1133,
  "kāi ": 1134,
  "jiān ": 1135,
  "jiào ": 1136,
  "fā ": 1137,
  "yòng ": 1138,
  " dàn": 1139,
  " ér ": 1140,
  "zhù ": 1141,
  "lái ": 1142,
  "mín ": 1143,
  "shǒu ": 1144,
  "zhè ": 1145,
  "xiàng ": 1146,
  "wén ": 1147,
  " jūn ": 1148,
  "xì ": 1149,
  "qián ": 1150,
  "běn ": 1151,
  "tè ": 1152,
  " wéi ": 1153,
  "zhí ": 1154,
  "fǎ ": 1155,
  "qī ": 1156,
  "jié ": 1157,
  "lián ": 1158,
  " bìng ": 1159,
  "dòng ": 1160,
  "diàn ": 1161,
  " qí ": 1162,
  " kè ": 1163,
  "dōng ": 1164,
  "mù ": 1165,
  " jìn": 1166,
  " duì ": 1167,
  " huò": 1168,
  "fēn ": 1169,
  "tái ": 1170,
  " zhàn ": 1171,
  "zhǎng ": 1172,
  "dù ": 1173,
  "jiāng ": 1174,
  " qiú": 1175,
  "gāo ": 1176,
  "yè ": 1177,
  "běi ": 1178,
  "suǒ ": 1179,
  "shī ": 1180,
  " zhōu ": 1181,
  " píng ": 1182,
  " le ": 1183,
  "duō ": 1184,
  "jiē ": 1185,
  "gé ": 1186,
  "ā ": 1187,
  " shàng ": 1188,
  "jīn ": 1189,
  "fú ": 1190,
  " zhèng ": 1191,
  " zuò ": 1192,
  " yóu ": 1193,
  "kǒu ": 1194,
  "guò ": 1195,
  "zhǐ ": 1196,
  "hǎi ": 1197,
  " tóng": 1198,
  " fù ": 1199,
  " rèn ": 1200,
  "mǎ ": 1201,
  "rù ": 1202,
  "tōng ": 1203,
  "zuì ": 1204,
  "àn ": 1205,
  "quán ": 1206,
  "cǐ ": 1207,
  "xìng ": 1208,
  " xué ": 1209,
  " shēng ": 1210,
  "wài ": 1211,
  "nèi ": 1212,
  "lā ": 1213,
  "tǐ ": 1214,
  "jué ": 1215,
  "kě ": 1216,
  "qǐ ": 1217,
  "shān ": 1218,
  "tiān ": 1219,
  "děng ": 1220,
  "chǎng ": 1221,
  "zhèn ": 1222,
  "wǔ ": 1223,
  "cháng ": 1224,
  "zi ": 1225,
  "yào ": 1226,
  "bǐ ": 1227,
  "ǎn ": 1228,
  "bǎo ": 1229,
  "gāi ": 1230,
  "ào ": 1231,
  "mǐ ": 1232,
  "yà ": 1233,
  "miàn ": 1234,
  "cì ": 1235,
  " yīn ": 1236,
  "n ": 1237,
  "shòu ": 1238,
  "yě ": 1239,
  "jiè ": 1240,
  "zhòng ": 1241,
  "yí ": 1242,
  " shè ": 1243,
  "fēng ": 1244,
  "zhǒng ": 1245,
  " jù ": 1246,
  "liú ": 1247,
  "chē ": 1248,
  "yùn ": 1249,
  " zhè ": 1250,
  "lín ": 1251,
  "bāo ": 1252,
  " c": 1253,
  "sài ": 1254,
  "yí gè ": 1255,
  "dìng ": 1256,
  "shēn ": 1257,
  "shěng ": 1258,
  "luó ": 1259,
  " dài ": 1260,
  " dàn ": 1261,
  "qì ": 1262,
  "sān ": 1263,
  "měi guó ": 1264,
  "néng ": 1265,
  "xiǎo ": 1266,
  "zé ": 1267,
  "zhě ": 1268,
  "liè ": 1269,
  "shū ": 1270,
  "xuǎn ": 1271,
  "sì ": 1272,
  "qīng ": 1273,
  " qiú ": 1274,
  "yuàn ": 1275,
  "jìng ": 1276,
  "bā ": 1277,
  "ài ": 1278,
  "kē ": 1279,
  "wáng ": 1280,
  "tài ": 1281,
  "lán ": 1282,
  "bào ": 1283,
  "ǎo ": 1284,
  "yǐng ": 1285,
  "zǒng ": 1286,
  "bì ": 1287,
  "fǔ ": 1288,
  " huò ": 1289,
  "dǎo ": 1290,
  "gǔ ": 1291,
  "1 nián ": 1292,
  "yīng ": 1293,
  " xīn ": 1294,
  "fèn ": 1295,
  "gē ": 1296,
  "5 nián ": 1297,
  "1 ": 1298,
  "ní ": 1299,
  "xiào ": 1300,
  " xià ": 1301,
  "yuē ": 1302,
  "jiāo ": 1303,
  "2 nián ": 1304,
  "èr ": 1305,
  " zì ": 1306,
  "4 nián ": 1307,
  "zī ": 1308,
  "shuǐ ": 1309,
  "hào ": 1310,
  "pǔ ": 1311,
  "8 nián ": 1312,
  "dān ": 1313,
  "nà ": 1314,
  "3 nián ": 1315,
  "é ": 1316,
  "biǎo ": 1317,
  "liàng ": 1318,
  " mǐ ": 1319,
  "tóu ": 1320,
  "chēng ": 1321,
  "guǎn ": 1322,
  "chuán ": 1323,
  "sù ": 1324,
  "wú ": 1325,
  " m": 1326,
  "6 nián ": 1327,
  "xīng ": 1328,
  "nǚ ": 1329,
  "bō ": 1330,
  "rú ": 1331,
  "bó ": 1332,
  "yǎn ": 1333,
  "tí ": 1334,
  "2 ": 1335,
  "fēi ": 1336,
  "sè ": 1337,
  " zhōng guó ": 1338,
  "měi ": 1339,
  "dá ": 1340,
  " jìn ": 1341,
  " dāng": 1342,
  " wèi yú ": 1343,
  " zhù ": 1344,
  "céng ": 1345,
  "chǎn ": 1346,
  "7 nián ": 1347,
  "wǎng ": 1348,
  "biàn ": 1349,
  "tú ": 1350,
  "guī ": 1351,
  " p": 1352,
  " xiāng ": 1353,
  " rán": 1354,
  "biān ": 1355,
  "zhāng ": 1356,
  "yáng ": 1357,
  "diǎn ": 1358,
  " yù ": 1359,
  "gǎi ": 1360,
  "cóng ": 1361,
  "huá ": 1362,
  "jiù ": 1363,
  "shā ": 1364,
  "zǔ ": 1365,
  "shèng ": 1366,
  "bāo kuò": 1367,
  "jiǎn ": 1368,
  "gǎng ": 1369,
  "shǔ ": 1370,
  "lǜ ": 1371,
  "zú ": 1372,
  "bàn ": 1373,
  "qíng ": 1374,
  "jǐng ": 1375,
  "liǎng ": 1376,
  "tǒng ": 1377,
  "gòng ": 1378,
  " běn ": 1379,
  "shāng ": 1380,
  "hù ": 1381,
  "lí ": 1382,
  "jìn ": 1383,
  " lù ": 1384,
  "tóng ": 1385,
  "luò ": 1386,
  "0 nián ": 1387,
  "xù ": 1388,
  "chí ": 1389,
  "9 nián ": 1390,
  " nán ": 1391,
  "5 ": 1392,
  "méi ": 1393,
  "bān ": 1394,
  "guǎng ": 1395,
  "3 ": 1396,
  "lóng ": 1397,
  "cè ": 1398,
  "jǐn ": 1399,
  "chū ": 1400,
  "shén ": 1401,
  "zhēng ": 1402,
  " tā men": 1403,
  "zhī ": 1404,
  "lǐng ": 1405,
  "mì ": 1406,
  "wēi ": 1407,
  "yòu ": 1408,
  "fǎn ": 1409,
  " gāi ": 1410,
  "tíng ": 1411,
  "xí ": 1412,
  "chá ": 1413,
  "kǎ ": 1414,
  "huó ": 1415,
  " t": 1416,
  "cái ": 1417,
  "xiǎng ": 1418,
  "shuō ": 1419,
  "mén ": 1420,
  "āi ": 1421,
  "cí ": 1422,
  "qǔ ": 1423,
  "jiǎng ": 1424,
  "wěi ": 1425,
  "mǔ ": 1426,
  "tuán ": 1427,
  "lèi ": 1428,
  "t ": 1429,
  "è ": 1430,
  " gōng lǐ ": 1431,
  "cháo ": 1432,
  "yán jiū": 1433,
  "jiàn ": 1434,
  " 200": 1435,
  " l": 1436,
  "yìng ": 1437,
  "táng ": 1438,
  "pǐn ": 1439,
  "qí ": 1440,
  "xiē ": 1441,
  "chén ": 1442,
  " yǐ jí ": 1443,
  "jià ": 1444,
  "yǐn ": 1445,
  "4 ": 1446,
  " duō ": 1447,
  "shǐ yòng ": 1448,
  "háng ": 1449,
  " zhǔ ": 1450,
  " s": 1451,
  "róng ": 1452,
  "pái ": 1453,
  "jiǔ ": 1454,
  "yǐ ": 1455,
  "fū ": 1456,
  "gòu ": 1457,
  "lún ": 1458,
  " yóu": 1459,
  "tái wān": 1460,
  "lìng ": 1461,
  " de dì ": 1462,
  "āng ": 1463,
  "dǎng ": 1464,
  "kě yǐ ": 1465,
  "huáng ": 1466,
  "duàn ": 1467,
  "xū ": 1468,
  "kè ": 1469,
  "0 ": 1470,
  "xiān ": 1471,
  "biāo ": 1472,
  "e   ": 1473,
  "tiáo ": 1474,
  " de yī ": 1475,
  "kāi shǐ ": 1476,
  "yíng ": 1477,
  "xiàn ": 1478,
  "bǎn ": 1479,
  "qiān ": 1480,
  " chéng wéi ": 1481,
  "méi yǒu ": 1482,
  " 201": 1483,
  "mó ": 1484,
  "hàn ": 1485,
  "ōu ": 1486,
  "hóng ": 1487,
  "wěi yuán ": 1488,
  "xiāo ": 1489,
  "6 ": 1490,
  "líng ": 1491,
  "sū ": 1492,
  "kōng ": 1493,
  "jú ": 1494,
  " tóng ": 1495,
  "huí ": 1496,
  "méng ": 1497,
  "yīn ": 1498,
  "s ": 1499,
  "zhuāng ": 1500,
  "xíng ": 1501,
  "cūn ": 1502,
  "fáng ": 1503,
  "rén kǒu ": 1504,
  "jiě ": 1505,
  " qí zhōng ": 1506,
  "huò ": 1507,
  "bāo kuò ": 1508,
  "zhǎn ": 1509,
  " gōng sī ": 1510,
  "cān ": 1511,
  "áng ": 1512,
  "āo ": 1513,
  " de shì ": 1514,
  "   zài ": 1515,
  "dōu ": 1516,
  "ú ": 1517,
  "qiáng ": 1518,
  "ó ": 1519,
  "zhào ": 1520,
  "zhèng zhì ": 1521,
  "yí gè": 1522,
  "dú ": 1523,
  "áo ": 1524,
  "cǎi ": 1525,
  "   201": 1526,
  "fǎ guó ": 1527,
  "bīng ": 1528,
  "mò ": 1529,
  " dà xué ": 1530,
  " shì yī ": 1531,
  "xìn ": 1532,
  " tā de ": 1533,
  "ūn ": 1534,
  "qīn ": 1535,
  "hái ": 1536,
  "lùn ": 1537,
  "zǐ ": 1538,
  "chù ": 1539,
  "zhēn ": 1540,
  "wàn ": 1541,
  "wèn ": 1542,
  " gāo ": 1543,
  "màn ": 1544,
  "shè ": 1545,
  "fàn ": 1546,
  "guāng ": 1547,
  "biǎo shì ": 1548,
  "jū ": 1549,
  "xùn ": 1550,
  "zhōng de ": 1551,
  "ō ": 1552,
  "zhuān ": 1553,
  "què ": 1554,
  "wán ": 1555,
  "diào ": 1556,
  "zōng ": 1557,
  "zhuǎn ": 1558,
  "diàn shì ": 1559,
  "bái ": 1560,
  "dǎ ": 1561,
  "hú ": 1562,
  " shì wèi ": 1563,
  "yìn ": 1564,
  "fèi ": 1565,
  "shì de ": 1566,
  "mìng ": 1567,
  "jǔ ": 1568,
  "8 ": 1569,
  "piàn ": 1570,
  "hán ": 1571,
  "tuō ": 1572,
  "ěn ": 1573,
  "à ": 1574,
  "7 ": 1575,
  "gù ": 1576,
  "zào ": 1577,
  "dāng ": 1578,
  "xiū ": 1579,
  "s   ": 1580,
  " bù fèn ": 1581,
  " rén kǒu ": 1582,
  "guǒ ": 1583,
  "xié ": 1584,
  "tā ": 1585,
  " hé guó ": 1586,
  "zhōng guó ": 1587,
  "10 yuè ": 1588,
  "12 yuè ": 1590,
  "7 yuè ": 1591,
  "ē ": 1592,
  " dōng ": 1593,
  "9 yuè ": 1594,
  " mù ": 1595,
  "wū ": 1596,
  "miàn jī ": 1597,
  " rén mín ": 1598,
  "8 yuè ": 1599,
  "xún ": 1600,
  " zuì": 1601,
  " dì qū ": 1602,
  "huán ": 1603,
  "òu ": 1604,
  "dí ": 1605,
  "3 yuè ": 1606,
  "zhū ": 1607,
  "jiǎ ": 1608,
  "1 yuè ": 1609,
  " 19": 1610,
  "dū ": 1611,
  "xiá ": 1612,
  " jīn ": 1613,
  "tīng ": 1614,
  "e ": 1615,
  " yě ": 1616,
  "5 yuè ": 1617,
  "zhōu ": 1618,
  "dǐ ": 1619,
  "dào ": 1620,
  "yīng guó ": 1621,
  "ǒu ": 1622,
  "zhuàng ": 1623,
  " cǐ ": 1624,
  "ǎng ": 1625,
  "zhèng shì ": 1626,
  " jiāng ": 1627,
  "6 yuè ": 1628,
  "huǒ ": 1629,
  "chóng ": 1630,
  "yán jiū ": 1631,
  "shōu ": 1632,
  "gèng ": 1633,
  "jūn ": 1634,
  "chéng shì ": 1635,
  "4 yuè ": 1636,
  " guó jiā ": 1637,
  "tián ": 1638,
  "fàng ": 1639,
  "yǒng ": 1640,
  "   dì ": 1641,
  "bié ": 1642,
  "shǔ yú ": 1643,
  " píng fāng": 1644,
  "jǐ ": 1645,
  "gǎn ": 1646,
  " tè ": 1647,
  " dì yī ": 1648,
  "qún ": 1649,
  "pò ": 1650,
  "qù ": 1651,
  "jiàng ": 1652,
  "a ": 1653,
  "ǔ ": 1654,
  "gēn ": 1655,
  "11 yuè ": 1656,
  "ng ": 1657,
  "nóng ": 1658,
  " shì jì ": 1659,
  " píng fāng gōng lǐ ": 1660,
  "shuāng ": 1661,
  " tóng shí ": 1662,
  "tiě ": 1663,
  "dān rèn ": 1664,
  "huī ": 1665,
  "án ": 1666,
  "pài ": 1667,
  "liáng ": 1668,
  " C": 1669,
  "shǎo ": 1670,
  "táo ": 1671,
  "jiǎo ": 1672,
  "tǎ ": 1673,
  "ěr ": 1674,
  "bǎi ": 1675,
  " rú ": 1676,
  "9 ": 1677,
  "àng ": 1678,
  "ū ": 1679,
  " yě": 1680,
  "diàn yǐng ": 1681,
  "í ": 1682,
  "tái wān ": 1683,
  "sǐ ": 1684,
  "ī ": 1685,
  "chǔ ": 1686,
  "qiáo ": 1687,
  "ēn ": 1688,
  " g": 1689,
  " de shí ": 1690,
  "gào ": 1691,
  "chú ": 1692,
  " S": 1693,
  " zhè": 1694,
  " k": 1695,
  "yín ": 1696,
  "gēn jù ": 1697,
  "pàn ": 1698,
  "lì shǐ ": 1699,
  " fēn ": 1700,
  "chāo ": 1701,
  "bài ": 1702,
  " 18": 1703,
  "yàn ": 1704,
  "   S": 1705,
  " shì zhèn ": 1706,
  "cān jiā ": 1707,
  "yùn dòng": 1708,
  "gāng ": 1709,
  "chē zhàn ": 1710,
  "guó de ": 1711,
  "qī jiān ": 1712,
  "zhèng fǔ ": 1713,
  " yīn wèi ": 1714,
  " rì běn ": 1715,
  " píng fāng ": 1716,
  "lì de ": 1717,
  "gài ": 1718,
  "hēi ": 1719,
  " nián de ": 1720,
  "bìng ": 1721,
  "chuān ": 1722,
  "sòng ": 1723,
  "huàn ": 1724,
  "wǒ ": 1725,
  "wǎ ": 1726,
  "zhǔn ": 1727,
  "gòng hé guó ": 1728,
  "yá ": 1729,
  " xiàn de ": 1730,
  "léi ": 1731,
  "fā xiàn ": 1732,
  "hā ": 1733,
  "formula ": 1734,
  "ǎi ": 1735,
  "qū de ": 1736,
  "tí gōng ": 1737,
  "i ": 1738,
  "jìn xíng ": 1739,
  "qiě ": 1740,
  "hěn ": 1741,
  "2 yuè ": 1742,
  "huā ": 1743,
  "tōng guò ": 1744,
  "suí ": 1745,
  "jīng jì ": 1746,
  "   200": 1747,
  "chuàng ": 1748,
  "lēi ": 1749,
  "dēng ": 1750,
  " zhōng yāng": 1751,
  "kǎo ": 1752,
  " tā men ": 1753,
  " guó jì ": 1754,
  "shàng de ": 1755,
  " 199": 1756,
  " A": 1757,
  "wěi yuán huì ": 1758,
  " yóu yú ": 1759,
  " běi ": 1760,
  "liàn ": 1761,
  "nuò ": 1762,
  " shì jiè ": 1763,
  "chēng wéi ": 1764,
  " jīng ": 1765,
  " yīn cǐ ": 1766,
  " qián ": 1767,
  " tiān ": 1768,
  "kuài ": 1769,
  "d   ": 1770,
  "míng wèi ": 1771,
  "zuǒ ": 1772,
  " shì zài ": 1773,
  " jìn xíng ": 1774,
  "zhǔ yì ": 1775,
  "chōng ": 1776,
  "xiāng gǎng ": 1777,
  "tǔ ": 1778,
  "sà ": 1779,
  " zhī hòu ": 1780,
  "piào ": 1781,
  " hǎi ": 1782,
  "1 rì ": 1783,
  " rán ": 1784,
  "shí de ": 1785,
  " 3": 1786,
  "mài ": 1787,
  "xì tǒng ": 1788,
  "   202": 1789,
  "liào ": 1790,
  "dé ": 1791,
  "lǔ ": 1792,
  "00 ": 1793,
  "quán guó ": 1794,
  "lú ": 1795,
  "xuān ": 1796,
  "qiú ": 1797,
  " xíng de ": 1798,
  "rén de ": 1799,
  "kuàng ": 1800,
  "suǒ yǒu ": 1801,
  "héng ": 1802,
  "rì ": 1803,
  "xǔ ": 1804,
  " mǎ ": 1805,
  "men ": 1806,
  "pèi ": 1807,
  "guǎn lǐ ": 1808,
  " gōng zuò ": 1809,
  " zhī yī ": 1810,
  " jié ": 1811,
  " M": 1812,
  "sēn ": 1813,
  "suì ": 1814,
  "yàng ": 1815,
  "dà de ": 1816,
  "zēng ": 1817,
  "tuī ": 1818,
  "bǔ ": 1819,
  "liù ": 1820,
  " dāng ": 1821,
  " zhōng xīn ": 1822,
  "xuān bù ": 1823,
  "zǎo ": 1824,
  "pī ": 1825,
  "wàng ": 1826,
  "chǐ ": 1827,
  "dī ": 1828,
  "chàng ": 1829,
  "zǔ zhī ": 1830,
  " h": 1831,
  "bù de ": 1832,
  " 4": 1833,
  "   C": 1834,
  "hè ": 1835,
  " zuì ": 1836,
  "yǎng ": 1837,
  "yǐng xiǎng ": 1838,
  " tā zài ": 1839,
  "ér ": 1840,
  "qiān mǐ ": 1841,
  "sāi ": 1842,
  "   shēng ": 1843,
  "dùn ": 1844,
  " huò dé ": 1845,
  "2020 nián ": 1846,
  "luó sī ": 1847,
  " n": 1848,
  " bāo kuò ": 1849,
  "chéng de ": 1850,
  "uò ": 1851,
  "xián ": 1852,
  " shì jiè": 1853,
  "kě néng": 1854,
  "niàn ": 1855,
  " shǐ ": 1856,
  "C ": 1857,
  "qí tā ": 1858,
  "yōu ": 1859,
  " ā ": 1860,
  "èng ": 1861,
  " zh": 1862,
  " f": 1863,
  " chéng lì ": 1864,
  "le yī ": 1865,
  "bāng ": 1866,
  "huó dòng ": 1867,
  "bēi ": 1868,
  "t   ": 1869,
  "lè ": 1870,
  " 198": 1871,
  " rèn wéi ": 1872,
  "pí ": 1873,
  "lǎo ": 1874,
  "hǎo ": 1875,
  "wén huà ": 1876,
  "jùn ": 1877,
  " gāi": 1878,
  "yā ": 1879,
  "�u ": 1880,
  "fā zhǎn ": 1881,
  "kē xué ": 1882,
  "liáo ": 1883,
  "huò dé ": 1884,
  " děng ": 1885,
  "gè ": 1886,
  " píng fāng qiān mǐ ": 1887,
  " zuò wéi ": 1888,
  "kù ": 1889,
  "huá rén mín ": 1890,
  "tán ": 1891,
  "rì běn ": 1892,
  " shǒu ": 1893,
  " T": 1894,
  "huì yì ": 1895,
  "éi ": 1896,
  "ì ": 1897,
  "jiān de ": 1898,
  "tiě lù ": 1899,
  "miǎn ": 1900,
  "níng ": 1901,
  " de rén ": 1902,
  "bǐ sài ": 1903,
  "ruì ": 1904,
  "lóu ": 1905,
  "yòng yú ": 1906,
  "zhěng ": 1907,
  " 202": 1908,
  " shí jiān ": 1909,
  "2010 nián ": 1910,
  "rán ": 1911,
  " de gōng ": 1912,
  "xiǎn ": 1913,
  "a   ": 1914,
  "miáo ": 1915,
  "rè ": 1916,
  " I": 1917,
  "zá": 1918,
  "A ": 1919,
  "miàn jī": 1920,
  "yǎ": 1921,
  "mín guó ": 1922,
  "zhǔ yào ": 1923,
  "wū kè ": 1924,
  "ge ": 1925,
  " B": 1926,
  "yuǎn ": 1927,
  "gòng yǒu ": 1928,
  "   lì shǐ ": 1929,
  "dòu ": 1930,
  " fú ": 1931,
  "wèn tí ": 1932,
  "   shēng píng ": 1933,
  "huá rén mín gòng hé guó ": 1934,
  "fāng shì ": 1935,
  "fā shēng ": 1936,
  "cún ": 1937,
  "éng ": 1938,
  "chì": 1939,
  "y   ": 1940,
  "am": 1941,
  " 5": 1942,
  "guàn jūn ": 1943,
  " dì èr ": 1944,
  "dài biǎo ": 1945,
  " qīng ": 1946,
  "kě néng ": 1947,
  "dì de ": 1948,
  "10 ": 1949,
  "dǎo zhì ": 1950,
  "guān xì ": 1951,
  "zhé": 1952,
  " wú ": 1953,
  "y ": 1954,
  "cān yù ": 1955,
  "fēn bù ": 1956,
  " P": 1957,
  " gōng chéng ": 1958,
  "wán chéng ": 1959,
  "dān wèi ": 1960,
  "yī wèi ": 1961,
  " bù fèn": 1962,
  " yòu ": 1963,
  " měi": 1964,
  " 15": 1965,
  "gān ": 1966,
  "zhì de ": 1967,
  "gěi ": 1968,
  " yú 201": 1969,
  " chéng yuán ": 1970,
  " b": 1971,
  " de chéng ": 1972,
  "d ": 1973,
  " 194": 1974,
  "zhàng ": 1975,
  "ēng ": 1976,
  "jiào yù ": 1977,
  "piān ": 1978,
  "2019 nián ": 1979,
  "   M": 1980,
  "yuán de ": 1981,
  "o ": 1982,
  "yōng yǒu ": 1983,
  "lǚ ": 1984,
  "cún zài ": 1985,
  "èr shí ": 1986,
  " 6": 1987,
  "běi bù ": 1988,
  "lián hé ": 1989,
  "yún ": 1990,
  " zhí": 1991,
  "hòu de ": 1992,
  "yóu yú ": 1993,
  "shào ": 1994,
  " shì zhōng ": 1995,
  "bīn ": 1996,
  "uì ": 1997,
  "guó jiā ": 1998,
  "niǔ ": 1999,
  "fā xíng ": 2000,
  " cóng ": 2001,
  "yì de ": 2002,
  "shěn ": 2003,
  "jù yǒu ": 2004,
  "duì yú ": 2005,
  "zhèng fǔ": 2006,
  "xiù ": 2007,
  "dīng ": 2008,
  " jiàn zhù ": 2009,
  "kāng ": 2010,
  " bìng zài ": 2011,
  " dào le ": 2012,
  " D": 2013,
  "xuán ": 2014,
  "guì ": 2015,
  "xīn de ": 2016,
  "sī de ": 2017,
  "xiè ": 2018,
  "huái": 2019,
  "yùn dòng ": 2020,
  "zì jǐ": 2021,
  "é luó sī ": 2022,
  "xíng zhèng ": 2023,
  "yìn dù ": 2024,
  "tū ": 2025,
  "fú wù ": 2026,
  "wǎn ": 2027,
  "xǔ duō ": 2028,
  " dàn shì ": 2029,
  "rèn hé ": 2030,
  "chè ": 2031,
  "mǎn ": 2032,
  "xiě ": 2033,
  "shēng yú ": 2034,
  " miàn jī ": 2035,
  "qǐng ": 2036,
  "zhǔ yào": 2037,
  "ràng ": 2038,
  "liǎng gè ": 2039,
  " suǒ": 2040,
  " rén kǒu mì ": 2041,
  " zhōng yāng ": 2042,
  "bǎo hù ": 2043,
  " jǐn ": 2044,
  "si": 2045,
  "wēn ": 2046,
  " de yí gè ": 2047,
  "nán bù ": 2048,
  "jǔ xíng ": 2049,
  " 16": 2050,
  " xiàng ": 2051,
  "zhuān jí ": 2052,
  "miàn jī wèi ": 2053,
  " lìng ": 2054,
  " měi guó ": 2055,
  "hū ": 2056,
  "ruò ": 2057,
  "lái de ": 2058,
  " zhèng fǔ ": 2059,
  "jué dìng ": 2060,
  "fān ": 2061,
  " dāng shí ": 2062,
  " tóng nián ": 2063,
  "el": 2064,
  "dú lì ": 2065,
  " chū de ": 2066,
  "xǐ ": 2067,
  "kāi shǐ": 2068,
  " lì shǐ ": 2069,
  "máo ": 2070,
  " 195": 2071,
  " zǒng ": 2072,
  "gēng ": 2073,
  "suàn ": 2074,
  " shè jì ": 2075,
  " shǐ": 2076,
  "hài ": 2077,
  "míng de ": 2078,
  "qín ": 2079,
  "ac": 2080,
  "kàn ": 2081,
  " luó ": 2082,
  " lián ": 2083,
  " shì wèi yú ": 2084,
  "jiù shì ": 2085,
  " yǒu yī ": 2086,
  "shù jù ": 2087,
  " liú ": 2088,
  "fāng miàn ": 2089,
  "tàn ": 2090,
  " gt ": 2091,
  "zhí wù ": 2092,
  " qí tā ": 2093,
  " zhǐ": 2094,
  " bā ": 2095,
  "shàn ": 2096,
  " xíng zhèng ": 2097,
  " 197": 2098,
  "fǎng ": 2099,
  "shòu dào ": 2100,
  "tion": 2101,
  "rèn wéi ": 2102,
  "   A": 2103,
  "ol": 2104,
  "tuì ": 2105,
  " 7": 2106,
  " yīng ": 2107,
  " cǐ": 2108,
  "xiāng gǎng": 2109,
  " shì dì ": 2110,
  "shè huì ": 2111,
  " lt ": 2112,
  "yì wèi ": 2113,
  "gù shì ": 2114,
  "fèng ": 2115,
  " xiàn zài ": 2116,
  "duǎn ": 2117,
  "qū wèi ": 2118,
  "qiāng ": 2119,
  "fā zhǎn": 2120,
  "kān ": 2121,
  "zhe ": 2122,
  "T ": 2123,
  "lǎng ": 2124,
  "wān ": 2125,
  " shì shì ": 2126,
  "shǐ yòng": 2127,
  " zuì zhōng ": 2128,
  "suān ": 2129,
  "ě ": 2130,
  "liè chē ": 2131,
  "yáo ": 2132,
  "nèi de ": 2133,
  "dàn ": 2134,
  "r ": 2135,
  " lì rú ": 2136,
  " E": 2137,
  "shǔ de ": 2138,
  "ǐ ": 2139,
  "xiǎo shí ": 2140,
  "zú qiú ": 2141,
  "láng ": 2142,
  "xū yào ": 2143,
  "sōng ": 2144,
  " yú 200": 2145,
  "kòng ": 2146,
  "huà de ": 2147,
  " bù tóng": 2148,
  "pào ": 2149,
  " měi ": 2150,
  "zuò wéi ": 2151,
  "rén shì ": 2152,
  "lái zì ": 2153,
  " 8": 2154,
  "diàn yǐng": 2155,
  "   P": 2156,
  "zuò de ": 2157,
  "zēng jiā ": 2158,
  "tǎn ": 2159,
  " jì huà ": 2160,
  "mín zhǔ ": 2161,
  "ěng ": 2162,
  " shí qī ": 2163,
  "mào ": 2164,
  "xióng ": 2165,
  " zhǐ ": 2166,
  "kòng zhì ": 2167,
  "zuò pǐn ": 2168,
  "yīn yuè ": 2169,
  "xiáng ": 2170,
  " shì jiàn ": 2171,
  " jiàn de ": 2172,
  " suī": 2173,
  "zhuī ": 2174,
  " rán ér ": 2175,
  "xué yuàn ": 2176,
  " yǐ jīng ": 2177,
  " H": 2178,
  " tōng ": 2179,
  " zài dì ": 2180,
  "rén mín ": 2181,
  " rén yuán ": 2182,
  " hé zuò ": 2183,
  "zǎi ": 2184,
  "tā de ": 2185,
  "S ": 2186,
  "bǎ ": 2187,
  "zǔ chéng ": 2188,
  " céng ": 2189,
  "chāo guò ": 2190,
  " 17": 2191,
  "xì tǒng": 2192,
  "zǒng tǒng ": 2193,
  "ā ěr ": 2194,
  " yīn yuè ": 2195,
  " wǔ ": 2196,
  "zhá": 2197,
  " zhāng ": 2198,
  "kuǎn ": 2199,
  "huì de ": 2200,
  "er ": 2201,
  "jì de ": 2202,
  " jiàn yú ": 2203,
  "yé ": 2204,
  " shǔ yú ": 2205,
  " sān ": 2206,
  " wèi le ": 2207,
  "qiū ": 2208,
  " L": 2209,
  " hòu lái ": 2210,
  " quán ": 2211,
  "yú shì ": 2212,
  " 196": 2213,
  " lì yà ": 2214,
  " chéng gōng ": 2215,
  " ān ": 2216,
  "fā bù ": 2217,
  "ǔn ": 2218,
  " zhè xiē ": 2219,
  "dà lì ": 2220,
  "yāo qiú ": 2221,
  "tí chū ": 2222,
  " 000": 2223,
  " R": 2224,
  " yì yuán ": 2225,
  "dāng shí ": 2226,
  " shè yǒu ": 2227,
  " 9": 2228,
  "   B": 2229,
  "jié mù ": 2230,
  "yùn dòng yuán ": 2231,
  "hán guó ": 2232,
  "bù zài ": 2233,
  "yǒu de ": 2234,
  "ní yà": 2235,
  "zào chéng ": 2236,
  "ōu zhōu ": 2237,
  "cǎi yòng ": 2238,
  "xiǎo xíng ": 2239,
  "xì liè ": 2240,
  " gōng yuán ": 2241,
  "D ": 2242,
  "zàn ": 2243,
  "jiā de ": 2244,
  "xìng de ": 2245,
  " yīn cǐ": 2246,
  "shēng de ": 2247,
  " yòu": 2248,
  " de yí gè": 2249,
  "óu ": 2250,
  " rì zài ": 2251,
  "rén wù ": 2252,
  " cǐ wài ": 2253,
  "   T": 2254,
  "gòng chǎn ": 2255,
  " 1": 2256,
  "m ": 2257,
  " zh ": 2258,
  "nǐ ": 2259,
  "dǐng ": 2260,
  "20 ": 2262,
  "ra": 2263,
  "chūn ": 2264,
  " N": 2265,
  " shì hé ": 2266,
  "kuān ": 2267,
  "lüè ": 2268,
  "   de ": 2269,
  " jiǎn ": 2270,
  "mǎ wèi ": 2271,
  "yě shì ": 2272,
  "of": 2273,
  " G": 2274,
  "xué jiā ": 2275,
  " de bù ": 2276,
  "xuè ": 2277,
  "yóu xì ": 2278,
  "sān nián ": 2279,
  " céng": 2280,
  "   199": 2281,
  "fàn wéi ": 2282,
  "   19": 2283,
  "shè jì ": 2284,
  "kāi fā ": 2285,
  " bù tóng ": 2286,
  "bǐ sài": 2287,
  "qǔ dé ": 2288,
  " jiāng": 2289,
  " wǒ ": 2290,
  "qìng ": 2291,
  " de jī ": 2292,
  "dàng ": 2293,
  " gēn jù ": 2294,
  "il": 2295,
  " lìng": 2296,
  " xíng chéng ": 2297,
  "   dì lǐ ": 2298,
  " 0": 2299,
  "zì zhì ": 2300,
  "chǎn shēng ": 2301,
  " suí": 2302,
  "dūn ": 2303,
  " de jì ": 2304,
  "jué sè ": 2305,
  "shū jì ": 2306,
  "－": 2307,
  "dōu shì ": 2308,
  "   shì ": 2309,
  "yī nián ": 2310,
  "ǒng ": 2311,
  " 193": 2312,
  "chóng xīn ": 2313,
  "xiōng ": 2314,
  " F": 2315,
  "chā ": 2316,
  "lǐ de ": 2317,
  "bú shì ": 2318,
  " shè huì ": 2319,
  "zhòng yào": 2320,
  " sī tè ": 2321,
  " zhōng huá ": 2322,
  " jiù ": 2323,
  "guān yú ": 2324,
  "qū yù ": 2325,
  "sài shì ": 2326,
  "gē qǔ ": 2327,
  "jiāo tōng ": 2328,
  "kǒng ": 2329,
  " cóng": 2330,
  "wò ": 2331,
  "dà xué ": 2332,
  " yóu xì ": 2333,
  "pín ": 2334,
  "jí de ": 2335,
  "chú le ": 2336,
  " chū xiàn ": 2337,
  "á ": 2338,
  "duān ": 2339,
  " 1 ": 2340,
  " zhì zuò ": 2341,
  "qián wǎng ": 2342,
  " guān ": 2343,
  " dà xué": 2344,
  "píng jūn ": 2345,
  "k ": 2346,
  " dé guó ": 2347,
  "xiǎn shì ": 2348,
  "zǒu ": 2349,
  " yán ": 2350,
  "èr nián ": 2351,
  " zhōng huá rén mín gòng hé guó ": 2352,
  "quē ": 2353,
  "hòu zài ": 2354,
  "dāng dì ": 2355,
  "12 ": 2356,
  "zhí yè ": 2357,
  " xiǎo ": 2358,
  "xià de ": 2359,
  "ow": 2360,
  "yǎn yuán ": 2361,
  " kè sī ": 2362,
  "dé guó ": 2363,
  "guǎn xiá ": 2364,
  "xuǎn jǔ ": 2365,
  "péng ": 2366,
  "wéi yī ": 2367,
  "guó jì ": 2368,
  "duì de ": 2369,
  "pà ": 2370,
  "bó wù ": 2371,
  "qiǎn ": 2372,
  " jiàn lì ": 2373,
  " 10": 2374,
  "30 ": 2375,
  " dì guó ": 2376,
  "xiàng mù ": 2377,
  "fǎn duì ": 2378,
  "qī de ": 2379,
  "qiè ": 2380,
  "wù de ": 2381,
  "zhǔ xí ": 2382,
  "huān ": 2383,
  " xiāng gǎng ": 2384,
  "yīn wèi ": 2385,
  "qù shì ": 2386,
  " 14": 2387,
  "yī bù fèn ": 2388,
  "dòng wù ": 2389,
  "bá gāo ": 2390,
  "niú ": 2392,
  "hūn ": 2393,
  " dài biǎo ": 2394,
  "shí nián ": 2395,
  "zuì zhōng ": 2396,
  " liǎng": 2397,
  "yī bù ": 2398,
  "o   ": 2399,
  "dù wèi ": 2400,
  "ruǎn ": 2401,
  "jiē shòu ": 2402,
  "fá ": 2403,
  "zhèng zhì rén wù ": 2404,
  "ní yà ": 2405,
  "miào ": 2406,
  " J": 2407,
  "hái yǒu ": 2408,
  "dài biǎo": 2409,
  "   rén kǒu ": 2411,
  "tǐ yù ": 2412,
  "lěi": 2413,
  "jiào shòu ": 2414,
  "yǎ ": 2415,
  "kuò ": 2416,
  "0 nián dài ": 2417,
  " wáng ": 2418,
  "suō ": 2419,
  " tā shì ": 2420,
  " bù duì ": 2421,
  " xíng shì ": 2422,
  " shòu ": 2423,
  "kàng ": 2424,
  " liǎng ": 2425,
  "dìng de ": 2426,
  " dāng dì ": 2427,
  "chì ": 2428,
  " yě shì ": 2429,
  "jiē r": 2430,
  "duó ": 2431,
  "bā shì ": 2432,
  "rǎn ": 2433,
  "zūn ": 2434,
  "xué xiào ": 2435,
  " mǎ": 2436,
  "zhǔ jiào ": 2437,
  "huái ": 2438,
  "zhāo ": 2439,
  " de yuán ": 2440,
  "zhòng yào ": 2441,
  "   L": 2442,
  "jié gòu ": 2443,
  " suǒ ": 2444,
  "diào chá ": 2445,
  " kě ": 2446,
  " zhī jiān ": 2447,
  " gé ": 2448,
  "ta": 2449,
  " bì ": 2450,
  "biān mǎ wèi ": 2451,
  "dài de ": 2452,
  "lián méng ": 2453,
  "niǎo ": 2454,
  " xué míng ": 2455,
  " yú 202": 2456,
  " rì zhì ": 2457,
  "gǎi wéi ": 2458,
  "zǔ zhī": 2459,
  "nǚ zǐ ": 2460,
  "wěn ": 2461,
  "zī liào ": 2462,
  " zài 200": 2463,
  "zhuàn ": 2464,
  "jiào yù": 2465,
  "guàn ": 2466,
  "fēn wéi ": 2467,
  "wú fǎ ": 2468,
  " bǐ ": 2469,
  "hǎi jūn ": 2470,
  " jūn shì ": 2471,
  "gōng shì ": 2472,
  " rén kǒu mì dù ": 2473,
  "guǐ ": 2474,
  "fù zé ": 2475,
  "chǔ lǐ ": 2476,
  "〉": 2477,
  "〈": 2478,
  " sì ": 2479,
  "shù de ": 2480,
  " zhèng fǔ": 2481,
  "zuì gāo ": 2482,
  "fāng fǎ ": 2483,
  "fó ": 2484,
  " 2 ": 2485,
  "wū kè lán ": 2486,
  " de dà ": 2487,
  " rì běn": 2488,
  "dié ": 2489,
  "   R": 2490,
  "yāo ": 2491,
  " de yì ": 2492,
  " chén ": 2493,
  " yǒu xiàn": 2494,
  "cu": 2495,
  "11 ": 2496,
  "   yǔ ": 2497,
  " gè rén ": 2498,
  " jì shù ": 2499,
  "chún ": 2500,
  "yǐng xiǎng": 2501,
  "jū mín ": 2502,
  "zhǔ rèn ": 2503,
  "zì yóu ": 2504,
  "qí zhōng ": 2505,
  " shì yóu ": 2506,
  "fēi cháng ": 2507,
  "xué shēng ": 2508,
  "lù de ": 2509,
  "nán zi ": 2510,
  "lián sài ": 2511,
  "sān shí ": 2512,
  "fǎn yìng ": 2513,
  " �": 2514,
  "biāo zhǔn ": 2515,
  " zài 201": 2516,
  "shù liàng": 2517,
  "zhí jiē ": 2518,
  " zhī chí ": 2519,
  "xié huì ": 2520,
  " qī ": 2521,
  "kě yǐ": 2522,
  " jié": 2523,
  " cháng ": 2524,
  "shèn zhì ": 2525,
  "wén xué ": 2526,
  "fēn bù yú ": 2527,
  "bǐ lì ": 2528,
  "wén huà": 2529,
  "tǒng zhì ": 2530,
  "chuàng zuò ": 2531,
  "p ": 2532,
  "sǔn ": 2533,
  "   běn ": 2534,
  "dōng bù ": 2535,
  " de yí gè shì zhèn ": 2536,
  "et": 2537,
  " dì sān ": 2538,
  "gāi guó ": 2539,
  " gōng sī": 2540,
  "P ": 2541,
  "qíng kuàng ": 2542,
  "sì nián ": 2543,
  "zàng ": 2544,
  "yuē hàn ": 2545,
  "wén wù ": 2546,
  " fù zé ": 2547,
  " 2": 2548,
  "   G": 2549,
  " dì shí ": 2550,
  " fú": 2551,
  "àn de ": 2552,
  "   xíng zhèng ": 2553,
  "shēng huó ": 2554,
  " bù guò ": 2555,
  "yān ": 2556,
  "ān quán ": 2557,
  "huì zài ": 2558,
  "zhōng shì ": 2559,
  "quán lì ": 2560,
  "cuò ": 2561,
  " cù": 2562,
  "nǚ xìng ": 2563,
  " dào de ": 2564,
  " suí ": 2565,
  "néng lì ": 2566,
  "gōng bù ": 2567,
  "nèi róng ": 2568,
  "   D": 2569,
  " shì yí gè ": 2570,
  " gǔ ": 2571,
  " lái ": 2572,
  "om": 2573,
  "xī bù ": 2574,
  " bìng yú ": 2575,
  " shī ": 2576,
  " jìn rù ": 2577,
  "dòng huà ": 2578,
  "lù xiàn ": 2579,
  "běi jīng ": 2580,
  "pāi": 2581,
  "chéng lì ": 2582,
  " jiē ": 2583,
  " zhōng xué ": 2584,
  "qíng kuàng": 2585,
  " K": 2586,
  "miàn de ": 2587,
  "shuài ": 2588,
  "yì shì ": 2589,
  "   formula ": 2590,
  " ěr sī ": 2591,
  "bǎng ": 2592,
  "jǐn biāo ": 2593,
  "méi tǐ ": 2594,
  "ic": 2595,
  "the   ": 2596,
  " fǎ ": 2597,
  "yǒu shí ": 2598,
  " shān ": 2599,
  " yì huì ": 2600,
  " bǎo ": 2601,
  "guǎng dōng ": 2602,
  " shēn ": 2603,
  "zì jǐ de ": 2604,
  "mǐn ": 2605,
  " huáng ": 2606,
  " kǎ ": 2607,
  "–": 2608,
  " ào ": 2609,
  "bǐng ": 2610,
  "   jiā ": 2611,
  "jiàn zhù ": 2612,
  "yà zhōu ": 2613,
  "shùn ": 2614,
  " pǔ ": 2615,
  "at": 2616,
  "luàn ": 2617,
  "   H": 2618,
  "chāng ": 2619,
  "dǎo de ": 2620,
  " guó mín ": 2621,
  "ōng ": 2622,
  "niè ": 2623,
  "láo ": 2624,
  "ná dà ": 2625,
  " d": 2626,
  "tài píng ": 2627,
  "měi yuán ": 2628,
  "fán ": 2629,
  "   198": 2630,
  "quán bù ": 2631,
  "dì wèi ": 2632,
  "zhǐ yǒu ": 2633,
  "bá gāo dù ": 2634,
  "dá dào ": 2635,
  "háo ": 2636,
  "lǐ shì ": 2637,
  "zhú jiàn ": 2638,
  " zhè shì ": 2639,
  " bìng qiě ": 2640,
  "bǎn běn ": 2641,
  " gǎi ": 2642,
  "qīng nián ": 2643,
  " suǒ yǐ ": 2644,
  "xǔ duō": 2645,
  " xué xiào ": 2646,
  "péi ": 2647,
  "zhě de ": 2648,
  "huǐ ": 2649,
  " xī yà ": 2650,
  "shǒu cì ": 2651,
  "miè ": 2652,
  "chóu ": 2653,
  " bìng qiě": 2654,
  "xuě ": 2655,
  "wū kè lán": 2656,
  "jiāng jūn ": 2657,
  "gū ": 2658,
  "lā sī ": 2659,
  "yī shì ": 2660,
  "   gēn jù ": 2661,
  " chéng wéi": 2662,
  "zhǐ chū ": 2663,
  "dān qū ": 2664,
  "rì běn": 2665,
  "mó shì ": 2666,
  "tǐng ": 2667,
  "tǎo ": 2668,
  "hùn ": 2669,
  " yì shù ": 2670,
  " tā men de ": 2671,
  "háng kōng ": 2672,
  "I ": 2673,
  " jì lù ": 2674,
  "zhí xíng ": 2675,
  "tōng guò": 2676,
  " zhōu de ": 2677,
  "…": 2678,
  "zhòu": 2679,
  "wǔ nián ": 2680,
  "zhà ": 2681,
  "   18": 2682,
  "on ": 2683,
  "zhè yī ": 2684,
  " qí shì ": 2685,
  " zhè ge ": 2686,
  " fēng ": 2687,
  "děng rén ": 2688,
  " lín ": 2689,
  "yǔn ": 2690,
  "zāi ": 2691,
  " tài ": 2692,
  "kěn ": 2693,
  " W": 2694,
  "zé shì ": 2695,
  "jìn rù ": 2696,
  " zhǔ yào ": 2697,
  "nǎo ": 2698,
  "tóng shí ": 2699,
  "28 rì ": 2700,
  "rén kǒu pǔ ": 2701,
  "me ": 2702,
  "gé lán ": 2703,
  " qí yú ": 2704,
  "mín zú ": 2705,
  "gāi dì ": 2706,
  " qiú duì ": 2707,
  " hào ": 2708,
  "zhàn zhēng ": 2709,
  "yǎn chū ": 2710,
  "bà ": 2711,
  "huó dòng": 2712,
  "rèn wéi": 2713,
  " yú shì ": 2714,
  " zǒng": 2715,
  "zhé ": 2716,
  " zhī jiān de ": 2717,
  " gōng kāi ": 2718,
  "   F": 2719,
  "tòu ": 2720,
  "ná ": 2721,
  "UT": 2722,
  " lì yà": 2723,
  "..": 2724,
  "xià jì ": 2725,
  "lè bù ": 2726,
  " ào": 2727,
  " ài ": 2728,
  "zhè xiē ": 2729,
  "jìng nèi ": 2730,
  " zé ": 2731,
  " dāng zhōng ": 2732,
  "tǐ de ": 2733,
  "ec": 2734,
  " 13": 2735,
  "chē zhàn": 2736,
  "gòng tóng ": 2737,
  "sōu ": 2738,
  "tuī chū ": 2739,
  "zhú ": 2740,
  "jié shù ": 2741,
  " lā ": 2742,
  " shì wù ": 2743,
  " nà ": 2744,
  "huán jìng ": 2745,
  "lí kāi ": 2746,
  " xīn": 2747,
  "shuì ": 2748,
  " lìng wài ": 2749,
  "   I": 2750,
  "lín pǐ": 2751,
  " zhǎng ": 2752,
  "shāng yè ": 2753,
  "chuán tǒng ": 2754,
  "yuán nián ": 2755,
  "   nián": 2756,
  "qǐ yè ": 2757,
  " kāi ": 2758,
  " jiān ": 2759,
  "15 rì ": 2760,
  "yín háng ": 2761,
  "fēn zhōng ": 2762,
  "guān de ": 2763,
  "jūn shì ": 2764,
  " 5 ": 2765,
  "shú": 2766,
  "jiē dào ": 2767,
  "   194": 2768,
  "quán qiú ": 2769,
  "xiāng guān ": 2770,
  " sū ": 2771,
  "jī de ": 2772,
  "qián de ": 2773,
  "zì jǐ ": 2774,
  "xuǎn zé ": 2775,
  "liàng de ": 2776,
  " zhǔ yào": 2777,
  " kě yǐ ": 2778,
  "gāo de ": 2779,
  "40": 2780,
  "sài jì ": 2781,
  "bó shì ": 2782,
  "fēn bié": 2783,
  "dù de ": 2784,
  "pú ": 2785,
  " wèi rén ": 2786,
  " bā": 2787,
  " shèng ": 2788,
  "wán quán ": 2789,
  " èr ": 2790,
  " wèi zhì ": 2791,
  "mìng míng ": 2792,
  " dì èr": 2793,
  "sūn ": 2794,
  "tuán tǐ ": 2795,
  "běi jīng": 2796,
  "děng dì ": 2797,
  " gōng lù ": 2798,
  "hóu ": 2799,
  "R ": 2800,
  "rè dài ": 2801,
  "bào gào ": 2802,
  "zuì hòu ": 2803,
  "chéng zhōng ": 2804,
  " bāo kuò": 2805,
  " shí jì ": 2806,
  "yùn dòng huì ": 2807,
  "rén zài ": 2808,
  " dà lì ": 2809,
  "zuì jiā ": 2810,
  "sān gè ": 2811,
  " dàn zài ": 2812,
  "21 ": 2813,
  "bō chū ": 2814,
  " shā ": 2815,
  "   jù ": 2816,
  "xué wèi ": 2817,
  "lǐng dǎo ": 2818,
  "zōng jiào ": 2819,
  "tǔ dì ": 2820,
  " dé dào ": 2821,
  " shì yī zhǒng ": 2822,
  "xì de ": 2823,
  "E ": 2824,
  " hóng ": 2825,
  "25 rì ": 2826,
  " 2001 nián ": 2827,
  "duó": 2828,
  " dì fāng ": 2829,
  "guǐ dào ": 2830,
  " wèi dì ": 2831,
  " mù qián ": 2832,
  "juǎn ": 2833,
  "V ": 2834,
  "jīng lì ": 2835,
  " zhī qián ": 2836,
  "shěng de yí gè shì zhèn ": 2837,
  "òng ": 2838,
  " jūn de ": 2839,
  "oo": 2840,
  " jī gòu ": 2841,
  " shì wèi yú měi guó ": 2842,
  " zhōng huá mín guó ": 2843,
  "wèi de ": 2844,
  " kē ": 2845,
  "sǐ wáng ": 2846,
  " gè yuè ": 2847,
  "dǒng": 2848,
  "ào lín pǐ": 2849,
  "qiàn": 2850,
  " zài yī ": 2851,
  "ù ": 2852,
  "30 rì ": 2853,
  " jīn": 2854,
  "an ": 2855,
  "dān rèn": 2856,
  "zàng": 2857,
  " de hé ": 2858,
  "shāo ": 2859,
  " bō ": 2860,
  " hǎi bá gāo dù ": 2861,
  " yī xiē ": 2862,
  "chāi ": 2863,
  " yǒu guān ": 2864,
  " diàn ": 2865,
  "20 rì ": 2866,
  " xíng dòng ": 2867,
  "ter": 2868,
  "shuǐ yù ": 2869,
  "   wèi ": 2870,
  "biàn huà ": 2871,
  "shàng wèi ": 2872,
  "huài ": 2873,
  "zhǎo": 2874,
  " zhí ": 2875,
  " 3 ": 2876,
  "zhī yī ": 2877,
  " shí dài ": 2878,
  "jí zhōng ": 2879,
  "diāo ": 2880,
  " jí tuán ": 2881,
  " jì xù ": 2882,
  "UTC ": 2883,
  "zhī chí ": 2884,
  "gàn ": 2885,
  "gòng hé ": 2886,
  "gé mìng ": 2887,
  "gē shǒu ": 2888,
  "tì ": 2889,
  "zhè ge ": 2890,
  "jī yú ": 2891,
  "chǔ yú ": 2892,
  "zū ": 2893,
  " hòu lái": 2894,
  " bù zhǎng ": 2895,
  "guò chéng ": 2896,
  "zhǎo ": 2897,
  "yòng de ": 2898,
  "tái běi": 2899,
  "10 rì ": 2900,
  "xiǎo shuō ": 2901,
  "kōng jiān ": 2902,
  "xīn wén ": 2903,
  "B ": 2904,
  " yú 199": 2905,
  "   gāi ": 2906,
  "bú huì ": 2907,
  "ā lā ": 2908,
  "nèi bù ": 2909,
  " jiào ": 2910,
  " hái ": 2911,
  " ér zài ": 2912,
  " jí tuán": 2913,
  " yì zhí ": 2914,
  "wù zhǒng ": 2915,
  "gēn jù": 2916,
  "jiě fàng": 2917,
  "as": 2918,
  "pī píng ": 2919,
  " zhōu shì ": 2920,
  "dì qū ": 2921,
  "luó mǎ ": 2922,
  "yè yú ": 2923,
  " yí ": 2924,
  "réng ": 2925,
  " jiā rù ": 2926,
  " hé nán ": 2927,
  "guī dìng ": 2928,
  " zhí dào ": 2929,
  "kǎi ": 2930,
  " yǒu xiàn gōng sī ": 2931,
  "guō ": 2932,
  "wán jiā ": 2933,
  "shàng hǎi ": 2934,
  "jīng guò ": 2935,
  "rǔ ": 2936,
  " shì shí ": 2937,
  "chéng wéi ": 2938,
  "xī bān ": 2939,
  "ào lín pǐ kè ": 2940,
  "zī gé ": 2941,
  "26 rì ": 2942,
  "xì liè": 2943,
  "dà lù ": 2944,
  "   c": 2945,
  "diān ": 2946,
  "gū": 2947,
  " dà huì ": 2948,
  "24 rì ": 2949,
  " O": 2950,
  "duō de ": 2951,
  "zài de ": 2952,
  "zá zhì ": 2953,
  "yīng yǔ ": 2954,
  "lù dì ": 2955,
  "hé de ": 2956,
  "háo mǐ ": 2957,
  " yǔ yán ": 2958,
  "qí tā": 2959,
  "fāng de ": 2960,
  " zhè zhǒng ": 2961,
  "   W": 2962,
  " 12": 2963,
  "jié guǒ ": 2964,
  "hòu yī ": 2965,
  "kào ": 2966,
  " 6 ": 2967,
  "   yī ": 2968,
  " nán": 2969,
  " chéng qū ": 2970,
  " fā ": 2971,
  "es": 2972,
  " fēi ": 2973,
  "sè de ": 2974,
  "fǎ lǜ ": 2975,
  "zòu ": 2976,
  " hàn ": 2977,
  "yī de ": 2978,
  "chuán tǒng": 2979,
  "fǒu ": 2980,
  " shì fǎ guó ": 2981,
  " tái wān ": 2982,
  "mǒu ": 2983,
  "18 rì ": 2984,
  "xuǎn jǔ": 2985,
  "cǎo ": 2986,
  " wèi yú gāi guó ": 2987,
  " lǐ sī ": 2988,
  "60": 2989,
  "zhuān yè ": 2990,
  " suì": 2991,
  " yáng ": 2992,
  "zhàn de ": 2993,
  "wù lǐ ": 2994,
  "zhǐ shì ": 2995,
  "shù wèi ": 2996,
  " bù tóng de ": 2997,
  "kuí ": 2998,
  "biǎo xiàn ": 2999,
  "chóu": 3000,
  " yì bān ": 3001,
  " shì jiè dà ": 3002,
  "shěng jí ": 3003,
  "miáo shù ": 3004,
  "shǐ de ": 3005,
  "   E": 3006,
  "guān yuán ": 3007,
  "tā men": 3008,
  " mèi": 3009,
  "fǎ yuàn ": 3010,
  "wú xiàn ": 3011,
  " yīng guó ": 3012,
  "wèn tí": 3013,
  "zhǐ huī ": 3014,
  " guó jiā": 3015,
  "yě yǒu ": 3016,
  "yíng dé ": 3017,
  "bāo hán ": 3018,
  "bó wù guǎn ": 3019,
  "jiāng qí ": 3020,
  "tóng nián ": 3021,
  " gōng jī ": 3022,
  "zhèng zài ": 3023,
  "cè shì ": 3024,
  " gù ": 3025,
  "chǎng de ": 3026,
  "0 nián dài": 3027,
  " wèi zhōng ": 3028,
  "bù hé ": 3029,
  " yǐn ": 3030,
  " lì yòng ": 3031,
  " dà": 3032,
  "50 ": 3033,
  "fēi jī ": 3034,
  " zì jǐ": 3035,
  "zhēng yì ": 3036,
  "16 rì ": 3037,
  "27 rì ": 3038,
  " tǐ ": 3039,
  " zuì hòu ": 3040,
  "xūn ": 3041,
  " dì qū": 3042,
  "21 rì ": 3043,
  " suí hòu ": 3044,
  "yì shí ": 3045,
  "17 rì ": 3046,
  "zāo dào ": 3047,
  "12 rì ": 3048,
  "dōng nán ": 3049,
  "8 rì ": 3050,
  " 4 ": 3051,
  "dìng yì ": 3052,
  "liù nián ": 3053,
  " dà qū ": 3054,
  "l ": 3055,
  " zhōng xīn": 3056,
  "zōng hé ": 3057,
  " bèi chēng wéi ": 3058,
  " rú": 3059,
  " wēi ": 3060,
  " zhàn zhēng ": 3061,
  " chú ": 3062,
  " shì yì ": 3063,
  "xué de ": 3064,
  " xiàn shí ": 3065,
  "he   ": 3066,
  "jí wèi ": 3067,
  " sān": 3068,
  "23 rì ": 3069,
  "huáng dì ": 3070,
  "zuì dà de ": 3071,
  "20 nián ": 3072,
  " hú ": 3073,
  " shì jiàn": 3074,
  "it": 3075,
  " fēn bù yú ": 3076,
  " bìng bù ": 3077,
  "quān ": 3078,
  "11 rì ": 3079,
  "ōu zhōu": 3080,
  " shēng huó ": 3081,
  "kùn ": 3082,
  "fāng xiàng ": 3083,
  "duō shù ": 3084,
  "é luó ": 3085,
  "là ": 3086,
  "shēng yá ": 3087,
  "lián méng": 3088,
  " suī rán": 3089,
  "   N": 3090,
  "chū xiàn ": 3091,
  " zhōng gòng": 3092,
  "7 rì ": 3093,
  "zhuó ": 3094,
  "fēn xī ": 3095,
  " zhè xiē": 3096,
  "22 rì ": 3097,
  "tōng cháng ": 3098,
  "29 rì ": 3099,
  "xiàng de ": 3100,
  "   yú ": 3101,
  " jiā p": 3102,
  " de zuò ": 3103,
  "hái shì ": 3104,
  "   cǐ ": 3105,
  "9 rì ": 3106,
  "nài ": 3107,
  "dōng běi ": 3108,
  "lìng yī ": 3109,
  "dìng wèi ": 3110,
  " nèi ": 3111,
  "wàn rén ": 3112,
  "zá ": 3113,
  "xū yào": 3114,
  "   zhèng zhì ": 3115,
  "tǒng jì ": 3116,
  "xìn xī ": 3117,
  "yàng de ": 3118,
  " xiàn zhì ": 3119,
  "lián bāng ": 3120,
  "19 rì ": 3121,
  "gōng de ": 3122,
  " cǎo ": 3123,
  " ài": 3124,
  "5 rì ": 3125,
  "qiú duì ": 3126,
  "chá de ": 3127,
  "14 rì ": 3128,
  "qióng": 3129,
  "guī mó ": 3130,
  "cháng shì ": 3131,
  "mí ": 3132,
  "ruǎn": 3133,
  "měi guó rén kǒu pǔ ": 3134,
  "3 rì ": 3135,
  "100": 3136,
  "zǔ hé ": 3137,
  " yú 18": 3138,
  "30 nián ": 3139,
  "hǎi bá": 3140,
  " huò dé": 3141,
  " cáng ": 3142,
  "lín shí ": 3143,
  "EE": 3144,
  "niǔ yuē": 3145,
  "wèi shì ": 3146,
  "yù de ": 3147,
  "jī dì ": 3148,
  "yōng ": 3149,
  " kě": 3150,
  "bāng zhù ": 3151,
  " de shì zhèn ": 3152,
  "6 rì ": 3153,
  "jǔ bàn": 3154,
  " zhōng bù ": 3155,
  "2 rì ": 3156,
  " péi ": 3157,
  "   zhōng ": 3158,
  " yú 19": 3159,
  " yì dà lì ": 3160,
  "sì shí ": 3161,
  "guān fāng ": 3162,
  " shè lì ": 3163,
  "gè rén ": 3164,
  "4 rì ": 3165,
  " 190": 3166,
  "shè yǒu ": 3167,
  "31 rì ": 3168,
  "néng gòu ": 3169,
  "   zhè ": 3170,
  " de zhōng ": 3171,
  "shēn fèn ": 3172,
  "yuán hé ": 3173,
  " dì qū de ": 3174,
  "suǒ shǔ de ": 3175,
  " rén kǒu": 3176,
  " yì bān": 3177,
  "tiě lù": 3178,
  "au": 3179,
  " méi ": 3180,
  "liè chē": 3181,
  "oc": 3182,
  "zǎo qī ": 3183,
  " qí tā": 3184,
  "nu": 3185,
  " yuē ": 3186,
  "   197": 3187,
  " wài ": 3188,
  "gōu ": 3189,
  "nàn ": 3190,
  "zú qiú": 3191,
  " 2011 nián ": 3192,
  "13 rì ": 3193,
  "xiōng dì ": 3194,
  "jié shù": 3195,
  "NS": 3196,
  " shì chǎng ": 3197,
  " xué shēng ": 3198,
  "mù dì ": 3199,
  "lián sài": 3200,
  "huī fù ": 3201,
  "yuán yú ": 3202,
  "shèn ": 3203,
  "   195": 3204,
  "qǔ dài ": 3205,
  "sū lián ": 3206,
  " bái ": 3207,
  "shēng zài ": 3208,
  " xué yuàn ": 3209,
  "   yóu yú ": 3210,
  "jǔ bàn ": 3211,
  "qíng kuàng xià ": 3212,
  "yí bù ": 3213,
  "gé mìng": 3214,
  " gōng chǐ ": 3215,
  "xié yì ": 3216,
  "jué sài": 3217,
  " lú ": 3218,
  " gē ": 3219,
  "kē jì ": 3220,
  "huáng jiā ": 3221,
  "fā xiàn": 3222,
  "bì yè ": 3223,
  " dǎo zhì ": 3224,
  " shì zhǎng ": 3225,
  " sh": 3226,
  "zhěng gè ": 3227,
  "rén hé ": 3228,
  "téng ": 3229,
  "rào ": 3230,
  "80": 3231,
  "vi": 3232,
  " táng ": 3233,
  "chāo jí ": 3234,
  "mào yì ": 3235,
  "wén wù bǎo hù ": 3236,
  "miào": 3237,
  "yuè de ": 3238,
  "zhǎng de ": 3239,
  "jué sài ": 3240,
  " zhè yī ": 3241,
  " bó ": 3242,
  "xí jī ": 3243,
  " zhū ": 3244,
  "zhā ": 3245,
  " dì lì ": 3246,
  "lì hé ": 3247,
  "lài ": 3248,
  "xué yuàn": 3249,
  " wǒ": 3250,
  "tú shū ": 3251,
  "qū huà ": 3252,
  "xiān hòu ": 3253,
  "háng kōng": 3254,
  "op": 3255,
  "tǒng yī ": 3256,
  " xī nán ": 3257,
  "yāo qiú": 3258,
  "jié hé ": 3259,
  " móu ": 3260,
  "jiē duàn ": 3261,
  " nǚ ": 3262,
  " yǐ jīng": 3263,
  "liú xíng ": 3264,
  " gòng ": 3265,
  " shuāng ": 3266,
  "M ": 3267,
  "fǎn yìng": 3268,
  " br ": 3269,
  "xié zhù ": 3270,
  "cì shì jiè dà ": 3271,
  "yán zhòng ": 3272,
  "zhàn hòu ": 3273,
  " rú guǒ ": 3274,
  "shàng shì ": 3275,
  "xùn liàn ": 3276,
  " hēi ": 3277,
  " fēn bié": 3278,
  " huá ": 3279,
  " jǐng ": 3280,
  " mó ": 3281,
  "guǎng bō ": 3282,
  " hā": 3283,
  " ěr shěng ": 3284,
  "yǔ de ": 3285,
  "rén kǒu shù liàng": 3286,
  "kāi fā": 3287,
  " hé yī ": 3288,
  "qiǎng ": 3289,
  "zì xíng ": 3290,
  " jiù": 3291,
  " bù néng ": 3292,
  "fā biǎo": 3293,
  "gòng chǎn dǎng ": 3294,
  "hùn": 3295,
  "qī nián ": 3296,
  " dān ": 3297,
  "shào nián ": 3298,
  " yǐ lái ": 3299,
  " xī bān ": 3300,
  "zì rán ": 3301,
  "huà xué ": 3302,
  " ā": 3303,
  " zài cì ": 3304,
  "   196": 3305,
  " tā céng": 3306,
  " U": 3307,
  " wú": 3308,
  "hào xiàn ": 3309,
  "zhù zài ": 3310,
  "huà hé ": 3311,
  " quán": 3312,
  "jué dìng": 3313,
  "cháo xiān ": 3314,
  "ir": 3315,
  "guó hé ": 3316,
  "xì bāo ": 3317,
  "dǎo yǎn ": 3318,
  " shuǐ ": 3319,
  " sūn ": 3320,
  "shuāi ": 3321,
  " yǐ xià ": 3322,
  "tè de ": 3323,
  " 2009 nián ": 3324,
  "70": 3325,
  " cuò ": 3326,
  "xià xiá": 3327,
  "chí xù ": 3328,
  " mǔ ": 3329,
  "tiáo jiàn ": 3330,
  " xiāng gǎng": 3331,
  "pín dào ": 3332,
  " gōng zuò": 3333,
  " 2010 nián ": 3334,
  "yè de ": 3335,
  "jiāo yì ": 3336,
  "yǎn chàng": 3337,
  "and   ": 3338,
  "w ": 3339,
  " shì zhōng guó ": 3340,
  "zuì dà ": 3341,
  "qiú yuán ": 3342,
  "bào dào ": 3343,
  " rén kǒu mì dù wèi ": 3344,
  " shì lì ": 3345,
  " méi yǒu ": 3346,
  "   bù ": 3347,
  "yóu zhèng ": 3348,
  "jiàn lì ": 3349,
  " zuò pǐn ": 3350,
  "yìng yòng ": 3351,
  "wài de ": 3352,
  "zī yuán ": 3353,
  "sāi ěr ": 3354,
  "zhān ": 3355,
  " qí hòu ": 3356,
  "gǎi gé ": 3357,
  "bàng": 3358,
  " wén ": 3359,
  "kě dá ": 3360,
  "ma": 3361,
  "mò xī ": 3362,
  " qiě ": 3363,
  " yī yuàn ": 3364,
  "fā biǎo ": 3365,
  "fēng gé ": 3366,
  "zhuàng tài ": 3367,
  " bìng wèi ": 3368,
  "   the   ": 3369,
  "huí dào ": 3370,
  "sù dù ": 3371,
  "35": 3372,
  "lù jūn ": 3373,
  "qì hòu ": 3374,
  " wèi yú fǎ guó ": 3375,
  "mì shū ": 3376,
  " zhōng gòng ": 3377,
  " hā ": 3378,
  " gōng yè ": 3379,
  " yòng ": 3380,
  "diàn shì jù ": 3381,
  "   K": 3382,
  "zhù de ": 3383,
  "fèn wèi ": 3384,
  "jiē rǎng": 3385,
  "wǎng zhàn ": 3386,
  "kūn ": 3387,
  "gōng sī ": 3388,
  " zài zhè ": 3389,
  "mù biāo ": 3390,
  " de dì yī ": 3391,
  "tóu zī ": 3392,
  "kuǎn": 3393,
  " jiǎn chēng ": 3394,
  "hú nán ": 3395,
  " yī sī ": 3396,
  "kuà ": 3397,
  "zhàn yì ": 3398,
  "wén wù bǎo hù dān wèi ": 3399,
  "yà lì ": 3400,
  " wèi yī ": 3401,
  "shǒu cì": 3402,
  "tún": 3403,
  "20 shì jì ": 3404,
  "chǎn pǐn ": 3405,
  "xiǎo xué ": 3406,
  "15 ": 3407,
  "zuǒ yòu ": 3408,
  "zāo ": 3409,
  "shèng lì ": 3410,
  " shǔ ": 3411,
  " cài ": 3412,
  "zhèn qū ": 3413,
  " jiàn shè ": 3414,
  "wén míng ": 3415,
  " de fù ": 3416,
  " cu": 3417,
  "shěng fèn ": 3418,
  "mù qián ": 3419,
  "ròu ": 3420,
  "yí zhì ": 3421,
  "jiào huì ": 3422,
  "zhǎn kāi ": 3423,
  "yìn dù": 3424,
  "shí qī ": 3425,
  "yé": 3426,
  "tè bié ": 3427,
  "dōng jīng ": 3428,
  "tè zhēng ": 3429,
  " ér shì ": 3430,
  "bǐ jiào ": 3431,
  "gāo jí ": 3432,
  "zhǔn bèi ": 3433,
  " dài biǎo": 3434,
  "bì xū ": 3435,
  "nǔ": 3436,
  "kē de ": 3437,
  "xuǎn shǒu ": 3438,
  " rén wù ": 3439,
  "guò chéng zhōng ": 3440,
  " běn": 3441,
  "hǎo de ": 3442,
  "shàng hǎi": 3443,
  " yào ": 3444,
  "zhòng yào de ": 3445,
  " fǎ guó ": 3446,
  "diàn zi ": 3447,
  "jiāo tōng": 3448,
  "wǎng luò ": 3449,
  "yè wù ": 3450,
  "gòng yǒu rén kǒu ": 3451,
  " xiàn dài ": 3452,
  " yī míng ": 3453,
  "cān sài ": 3454,
  "xiǎo xíng xīng ": 3455,
  "bàng ": 3456,
  " chéng jì ": 3457,
  " xī běi ": 3458,
  "kāi fàng ": 3459,
  " hé dì ": 3460,
  "xú ": 3461,
  " jī chǎng ": 3462,
  "zi de ": 3463,
  "ha": 3464,
  " qǐ ": 3465,
  "nǎo": 3466,
  "biàn chéng ": 3467,
  "qiáo zhì ": 3468,
  "bào fā ": 3469,
  "diàn shì tái ": 3470,
  " han": 3471,
  "shān dōng ": 3472,
  "jiě shì ": 3473,
  "guó mín ": 3474,
  " yì qǐ ": 3475,
  "100 ": 3476,
  " qiě": 3477,
  "lèi sì": 3478,
  "ig": 3479,
  " dù ": 3480,
  "zhì zuò ": 3481,
  "kǎ ěr ": 3482,
  "xíng shì ": 3483,
  "dōu yǒu ": 3484,
  "shēng chǎn ": 3485,
  "zhī hòu ": 3486,
  "duō gè ": 3487,
  "huì hé ": 3488,
  "měi píng fāng gōng lǐ ": 3489,
  "zhàn shì ": 3490,
  "   2021 nián ": 3491,
  "quàn ": 3492,
  "rù le ": 3493,
  " xià lìng": 3494,
  "rú xià ": 3495,
  " gōng fēn ": 3496,
  " shè zhì ": 3497,
  " yī yàng ": 3498,
  " sī jī ": 3499,
  "lái zì": 3500,
  "O ": 3501,
  "zhēn duì ": 3502,
  "lǐng dǎo": 3503,
  "jiù shì zhèn ": 3504,
  "48": 3505,
  "fěi": 3506,
  " mò ": 3507,
  " shí jiān": 3508,
  " V": 3509,
  "gāo zhōng ": 3510,
  " cǐ hòu ": 3511,
  " zài zhōng ": 3512,
  " míng": 3513,
  "wáng guó ": 3514,
  "zǎo nián ": 3515,
  "wài jiāo": 3516,
  "   2019 nián ": 3517,
  "èr shì ": 3518,
  "X ": 3519,
  " shèn zhì ": 3520,
  "guī huà ": 3521,
  "sāng ": 3522,
  " mín ": 3523,
  "36": 3524,
  " rán hòu ": 3525,
  "N ": 3526,
  "chā": 3527,
  "lèi sì ": 3528,
  "ǒ ": 3529,
  " mí ": 3530,
  "yuán shì ": 3531,
  " lì shǔ yú ": 3532,
  " yì zhí": 3533,
  "zhù míng ": 3534,
  "yún nán ": 3535,
  "zhái ": 3536,
  "huò dé": 3537,
  "hěn duō ": 3538,
  " ěr de ": 3539,
  "lián jiē ": 3540,
  "jiě jué ": 3541,
  " zhì zào ": 3542,
  "mǎ lái": 3543,
  "   2020 nián ": 3544,
  "jǐn biāo sài ": 3545,
  "ov": 3546,
  "   gōng ": 3547,
  " de míng ": 3548,
  "zhòng de ": 3549,
  " wǔ": 3550,
  " suī rán ": 3551,
  " yì zhì ": 3552,
  "juān ": 3553,
  "zǒng lǐ ": 3554,
  " de yī zhǒng ": 3555,
  "F ": 3556,
  "   dà ": 3557,
  "nè ": 3558,
  "zhǔ tí ": 3559,
  " pú ": 3560,
  "x ": 3561,
  "shān xī ": 3562,
  "rén kǒu shù liàng wèi rén ": 3563,
  " w": 3564,
  "jù jí ": 3565,
  "un": 3566,
  "jí hé ": 3567,
  "jiē rǎng de shì zhèn ": 3568,
  " INS": 3569,
  "os": 3570,
  " jiàn zhì ": 3571,
  " yè ": 3572,
  "lǚ yóu ": 3573,
  " shàng hǎi ": 3574,
  "zhài ": 3575,
  "lián bāng": 3576,
  "fāng àn ": 3577,
  "fā dòng ": 3578,
  " chú le ": 3579,
  "nǚ ér ": 3580,
  "tiào ": 3581,
  "tān ": 3582,
  " sàn ": 3583,
  " gù": 3584,
  "lù yì ": 3585,
  "fā shè ": 3586,
  "zǒng tǒng": 3587,
  " yí gè ": 3588,
  "jí shì ": 3589,
  " cì": 3590,
  " xíng wéi ": 3591,
  "sī hé ": 3592,
  " mài": 3593,
  "40 ": 3594,
  "ruì shì ": 3595,
  "nóng yè ": 3596,
  " sì": 3597,
  " bào ": 3598,
  " xī yà": 3599,
  "   2018 nián ": 3600,
  "25 ": 3601,
  "jué de ": 3602,
  "gé de ": 3603,
  " cái ": 3604,
  " dà liàng ": 3605,
  " z": 3606,
  "wù zhì ": 3607,
  " shén ": 3608,
  " 2008 nián ": 3609,
  " jìn shì ": 3610,
  "bāo hán": 3611,
  " de shí hòu ": 3612,
  " tái ": 3613,
  "is": 3614,
  "shǐ yòng de ": 3615,
  "ào lín pǐ kè yùn dòng huì ": 3616,
  "luó mǎ": 3617,
  "duì zài ": 3618,
  "gǎn rǎn ": 3619,
  " fù": 3620,
  " zhì jīn ": 3621,
  "sī rén ": 3622,
  "chāng": 3623,
  "24 ": 3624,
  " jiǎ ": 3625,
  "jìn de ": 3626,
  "chuí ": 3627,
  "fēi xíng ": 3628,
  " 2013 nián ": 3629,
  "chuāng ": 3630,
  " zhī wài ": 3631,
  "kào": 3632,
  "kě néng shì ": 3633,
  "biǎo yǎn ": 3634,
  "tào ": 3635,
  "chù de ": 3636,
  "xuǎn wèi ": 3637,
  "tōng cháng": 3638,
  "shǎng ": 3639,
  "   J": 3640,
  "yí shì ": 3641,
  "tǔ ěr": 3642,
  " lì sī ": 3643,
  "jià zhí ": 3644,
  " shè shī ": 3645,
  "bó tè ": 3646,
  " zhì 202": 3647,
  "qì de ": 3648,
  "chuàng lì ": 3649,
  " zài cǐ ": 3650,
  " dān rèn ": 3651,
  " gōng néng ": 3652,
  "làng ": 3653,
  " zǒng miàn jī ": 3654,
  " yà ": 3655,
  "   O": 3656,
  " dé lǐ ": 3657,
  "páng ": 3658,
  " duì yú ": 3659,
  "fēn lèi ": 3660,
  "guǎng chǎng ": 3661,
  "jiǔ nián ": 3662,
  "lián hé guó ": 3663,
  "jí shí ": 3664,
  "réng rán ": 3665,
  " yǒu rén ": 3666,
  "gēng míng wèi ": 3667,
  " ér qiě ": 3668,
  "zhì shì ": 3669,
  " zé": 3670,
  "xiào lì ": 3671,
  " INSEE": 3672,
  " de lì ": 3673,
  " gāi shěng ": 3674,
  " de yī bù fèn ": 3675,
  "ation": 3676,
  "bā nián ": 3677,
  " rén kǒu mì dù měi píng fāng gōng lǐ ": 3678,
  " rén kǒu mì dù wèi měi": 3679,
  " xià lìng shí ": 3680,
  "yóu zhèng biān mǎ wèi ": 3681,
  "ǎn xī ": 3682,
  "zǔ fù ": 3683,
  "chá de shù jù ": 3684,
  " biàn ": 3685,
  "shí shì ": 3686,
  "cóng shì ": 3687,
  " shì zhèn biān mǎ wèi ": 3688,
  " INSEE shì zhèn biān mǎ wèi ": 3689,
  "2 rén ": 3690,
  " shù ": 3691,
  "mò sī ": 3692,
  "tiān wén ": 3693,
  "『": 3694,
  " zhè ge": 3695,
  " guó wáng ": 3696,
  " 2016 nián ": 3697,
  "xuǎn qū wèi ": 3698,
  "   bèi ": 3699,
  "』": 3700,
  "pái míng ": 3701,
  "kēng ": 3702,
  "dà bù fèn": 3703,
  "dòng lì ": 3704,
  "yī zhǒng ": 3705,
  " shè de ": 3706,
  "shí de rén kǒu shù liàng wèi rén ": 3707,
  "gài niàn ": 3708,
  "yīng chǐ ": 3709,
  "ān de ": 3710,
  "yùn yíng ": 3711,
  "měi guó rén kǒu pǔ chá de shù jù ": 3712,
  "   193": 3713,
  " 2018 nián ": 3714,
  "jiā lì ": 3715,
  " ér rén kǒu mì dù wèi měi": 3716,
  "chē liàng ": 3717,
  "   2017 nián ": 3718,
  " dāng dì gòng yǒu rén kǒu ": 3719,
  " zài 199": 3720,
  " bù guò": 3721,
  "16 ": 3722,
  "zú de ": 3723,
  " jǐn guǎn ": 3724,
  " 2019 nián ": 3725,
  "hé shì ": 3726,
  "gé lán": 3727,
  "lǐng yù ": 3728,
  " huò jiù shì zhèn ": 3729,
  "fú jiàn ": 3730,
  "shěng jí xuǎn qū wèi ": 3731,
  "suǒ shǔ de shěng jí xuǎn qū wèi ": 3732,
  "dā ": 3733,
  "   lì ": 3734,
  "jī jí ": 3735,
  "xī de ": 3736,
  " chū bǎn ": 3737,
  " tè bié": 3738,
  "ér zi ": 3739,
  "xīng de ": 3740,
  "jǐng chá ": 3741,
  "màn huà ": 3742,
  "qǐ lái ": 3743,
  "tiáo yuē ": 3744,
  "bǎng": 3745,
  "xuǎn rén ": 3746,
  " ěr dé ": 3747,
  " jūn zài ": 3748,
  "biāo zhǔn": 3749,
  "tì": 3750,
  "shěng hé ": 3751,
  "xuē ": 3752,
  " chū bǎn": 3753,
  "fèn wèi fǎ guó ": 3754,
  " gāi shěng fèn wèi fǎ guó ": 3755,
  "ào dà lì ": 3756,
  " yú 198": 3757,
  "mǐ ěr ": 3758,
  " bù jiǔ ": 3759,
  " zhī xiàn ": 3760,
  " què ": 3761,
  "tiě dào ": 3762,
  "zuì hòu yī ": 3763,
  " nián jiān ": 3764,
  "ài ěr ": 3765,
  "guǎng zhōu ": 3766,
  " jūn duì ": 3767,
  "zhěn ": 3768,
  " wèi shí ": 3769,
  "38": 3770,
  " duō": 3771,
  "qún dǎo ": 3772,
  " 2014 nián ": 3773,
  " gèng ": 3774,
  "pái míng": 3775,
  "běn de ": 3776,
  "dōng xī ": 3777,
  "37": 3778,
  " dì sì ": 3779,
  "lái yuán ": 3780,
  "90": 3781,
  " tā bèi ": 3782,
  "shuò": 3783,
  "shè lì ": 3784,
  "xīng jiàn ": 3785,
  " dì sān": 3786,
  "jiē shòu": 3787,
  "tòu guò ": 3788,
  "ap": 3789,
  " rì de ": 3790,
  "   2016 nián ": 3791,
  "dì yī ": 3792,
  "pāi shè ": 3793,
  " chēng ": 3794,
  "měi zhōu ": 3795,
  " chū shēng yú ": 3796,
  "wěi huì ": 3797,
  "ào sī ": 3798,
  "xīn jiā p": 3799,
  "réng rán": 3800,
  "   2022 nián ": 3801,
  " biān ": 3802,
  "wú rén ": 3803,
  "hōng ": 3804,
  " 11": 3805,
  "zhàn zhēng": 3806,
  " 2015 nián ": 3807,
  " 2012 nián ": 3808,
  "zhǔ jué ": 3809,
  " yóu xì": 3810,
  " hé bìng": 3811,
  " zhì yú ": 3812,
  " tòu ": 3813,
  "mǔ sī ": 3814,
  " rén gōng ": 3815,
  " jiǔ ": 3816,
  "yùn xíng ": 3817,
  " shì bù ": 3818,
  "nán jí ": 3819,
  "cǎi yòng": 3820,
  "pán ": 3821,
  "gòu m": 3822,
  " míng cháo ": 3823,
  " bù míng ": 3824,
  "jiā rù ": 3825,
  "yán jiū suǒ ": 3826,
  "liǎo ": 3827,
  "méng gǔ ": 3828,
  "zuò pǐn": 3829,
  " xiàn lù ": 3830,
  "yǐ jí ": 3831,
  " hé píng ": 3832,
  "L ": 3833,
  "chán ": 3834,
  "pò huài ": 3835,
  " zì jǐ ": 3836,
  "huà shí ": 3837,
  "tè bié": 3838,
  " jìn de ": 3839,
  "shuō fǎ ": 3840,
  "xué xiào": 3841,
  "zāi": 3842,
  "1 rén ": 3843,
  "wǔ shí ": 3844,
  "yāng ": 3845,
  " jī běn ": 3846,
  " chóng ": 3847,
  "miǎo ": 3848,
  " rèn wéi": 3849,
  "guǎng fàn ": 3850,
  "fǒu": 3851,
  "hǔ ": 3852,
  " zhào ": 3853,
  "tóu piào ": 3854,
  "mó xíng ": 3855,
  "huǎn ": 3856,
  " bù mén ": 3857,
  "ne": 3858,
  " kè de ": 3859,
  "mèng ": 3860,
  " láo ": 3861,
  " de dì fāng ": 3862,
  "xī zài ": 3863,
  "jì shù ": 3864,
  " jiàn yì ": 3865,
  " tā yǔ ": 3866,
  "yùn shū ": 3867,
  " zài yì ": 3868,
  "měi nián ": 3869,
  " zài zhōng guó ": 3870,
  " yì wèi ": 3871,
  "xué shì ": 3872,
  " jù lè bù ": 3873,
  "rèn wéi shì ": 3874,
  "xuān chuán ": 3875,
  " gè dì ": 3876,
  "liè wèi ": 3877,
  "bàn gōng shì ": 3878,
  "tóng yī ": 3879,
  "kǎi": 3880,
  "   p": 3881,
  "wài guó ": 3882,
  "chà ": 3883,
  " 10 yuè ": 3884,
  "shàng yǒu ": 3885,
  " zǒng rén kǒu ": 3886,
  "yuán wèi ": 3887,
  "xué xí ": 3888,
  "45": 3889,
  " 2007 nián ": 3890,
  "3 rén ": 3891,
  " zhèng shì ": 3892,
  " de xīn ": 3893,
  "tóu rù ": 3894,
  "gōng zuò ": 3895,
  "tài yáng ": 3896,
  "mǎ lì ": 3897,
  "ní sī ": 3898,
  "13 ": 3899,
  "jié gòu": 3900,
  "yǎng huà ": 3901,
  " yī xiē": 3902,
  "4 rén ": 3903,
  "lún dūn": 3904,
  "chēng wèi ": 3905,
  "xiāo xī ": 3906,
  " xiàn rén ": 3907,
  "hǎi jūn": 3908,
  "shī de ": 3909,
  "biāo zhì ": 3910,
  " qīng": 3911,
  "én ": 3912,
  "zhì wèi ": 3913,
  "zhí de ": 3914,
  "là": 3915,
  "dǎng de ": 3916,
  "ǎ ": 3917,
  "xuě": 3918,
  "tā men ": 3919,
  "fāng miàn": 3920,
  " zhēn ": 3921,
  "yóu xì": 3922,
  "fù zé guǎn xiá ": 3923,
  "zhèng de ": 3924,
  "fēn zhī ": 3925,
  "ub": 3926,
  "jiè quán guó ": 3927,
  " jù lí ": 3928,
  "tiē ": 3929,
  "nán xìng ": 3930,
  " chén": 3931,
  "fěn ": 3932,
  " 2005 nián ": 3933,
  " jiǎng ": 3934,
  "zhé xué ": 3935,
  "cù": 3936,
  " wéi zhǔ ": 3937,
  "cáng ": 3938,
  "sì chuān ": 3939,
  " zhòng ": 3940,
  " biǎo shì ": 3941,
  " hán ": 3942,
  " jì huà": 3943,
  " jì niàn ": 3944,
  " lóng ": 3945,
  " 2017 nián ": 3946,
  " yǒng ": 3947,
  " dào lù ": 3948,
  "   2014 nián ": 3949,
  "huán jìng": 3950,
  "mèi": 3951,
  "bǐ dé ": 3952,
  " cáng": 3953,
  "fēn bié ": 3954,
  "   2015 nián ": 3955,
  "shēng wù ": 3956,
  "chí xù": 3958,
  " 2021 nián ": 3959,
  "zài shì ": 3960,
  "shù liàng ": 3961,
  "gòu chéng ": 3962,
  " shū ": 3963,
  "hi": 3964,
  "ào yùn ": 3965,
  "cháo xiān": 3966,
  "bù wèi ": 3967,
  " shì měi guó ": 3968,
  "huǐ": 3969,
  "nī ": 3970,
  " zài 19": 3971,
  "péng yǒu ": 3972,
  "qiàn ": 3973,
  " zhī chí": 3974,
  "   yǐ ": 3975,
  "liè de ": 3976,
  " jí qí ": 3977,
  " bèi ěr ": 3978,
  "kàng yì ": 3979,
  " sòng ": 3980,
  "ián ": 3981,
  "yuē wèi ": 3982,
  " gōng gòng ": 3983,
  "xuǎn zé": 3984,
  "tài guó ": 3985,
  "ǎo zhàn ": 3986,
  " zài bù ": 3987,
  "wō ": 3988,
  "   yǒu ": 3989,
  "qī jiān": 3990,
  "jiē wèi ": 3991,
  "xuǎn qū ": 3992,
  "huì yǒu ": 3993,
  "shōu rù ": 3994,
  "nì ": 3995,
  "yǎn de ": 3996,
  "xiào zhǎng ": 3997,
  "yì hé ": 3998,
  "wén jiàn ": 3999,
  "   2013 nián ": 4000,
  "kǎn ": 4001,
  " wàn ": 4002,
  "xiāng duì ": 4003,
  "U ": 4004,
  "āo zuò ": 4005,
  "cài ": 4006,
  "ur": 4007,
  " qì ": 4008,
  " xiān ": 4009,
  "róng yì ": 4010,
  "guā ": 4011,
  "dié": 4012,
  "biāo wèi ": 4013,
  "cān yù": 4014,
  "zhèng cè ": 4015,
  "   of": 4016,
  " zài měi guó ": 4017,
  "yǔ yán ": 4018,
  "lái shuō ": 4019,
  " jìng ": 4020,
  "   chē zhàn ": 4021,
  "jiào táng ": 4022,
  "jiē rǎng ": 4023,
  "biān jí ": 4024,
  "tuó ": 4025,
  "jié mù": 4026,
  "yín háng": 4027,
  "   shí ": 4028,
  " gèng": 4029,
  "sī dì ": 4030,
  "gǎi biàn ": 4031,
  " xiāo ": 4032,
  "jūn duì ": 4033,
  "kuà": 4034,
  "wǔ qì ": 4035,
  "jiě fàng jūn ": 4036,
  "ad": 4037,
  "   b": 4038,
  "tiǎo zhàn ": 4039,
  "tǐng": 4040,
  " zhì dù ": 4041,
  " yuán zhù ": 4042,
  " chū le ": 4043,
  " huò shì ": 4044,
  "tóng de ": 4045,
  "quán de ": 4046,
  "gē qǔ": 4047,
  " yī zhǒng ": 4048,
  "shòu yǔ ": 4049,
  " zhōng yǒu ": 4050,
  "ag": 4051,
  " kāi shǐ ": 4052,
  " dǎ ": 4053,
  " wū ": 4054,
  "   V": 4055,
  "gǎn dào ": 4056,
  " yǐ shàng ": 4057,
  " zhāng": 4058,
  " 2020 nián ": 4059,
  "ào yùn": 4060,
  " yòu chēng ": 4061,
  " zhàn zhēng": 4062,
  "tiān zhǔ jiào ": 4063,
  " lěi": 4064,
  "chī ": 4065,
  " dì xià ": 4066,
  "àn jiàn ": 4067,
  " shì yí gè": 4068,
  " shēng wù ": 4069,
  "xī bān yá ": 4070,
  " ràng": 4071,
  "pèi hé ": 4072,
  "wěn dìng ": 4073,
  "   tā": 4074,
  "fán": 4075,
  "   hé ": 4076,
  " rèn": 4077,
  "jiā rén ": 4078,
  " yǔ": 4079,
  "lěng ": 4080,
  "hào wèi ": 4081,
  "gāo yú ": 4082,
  "zhè zhǒng ": 4083,
  "jì zhōng ": 4084,
  "tí míng ": 4085,
  "dá chéng ": 4086,
  "xiǎo de ": 4087,
  "cè de ": 4088,
  "jiǎn jiè ": 4089,
  "cāo ": 4090,
  " hòu": 4091,
  "shēn fèn": 4092,
  "tíng zhǐ ": 4093,
  "shí zài ": 4094,
  "dì shì ": 4095,
  " ér qiě": 4096,
  "móu ": 4097,
  "wàn lì ": 4098,
  "duó de ": 4099,
  "biǎo míng ": 4100,
  " zhōng guó rén mín ": 4101,
  " fēi": 4102,
  "pú táo ": 4103,
  "jué sè": 4104,
  "zào de ": 4105,
  " jī bài ": 4106,
  "   2023 nián ": 4107,
  "°": 4108,
  " 2006 nián ": 4109,
  "chōng tū ": 4110,
  " ér rén kǒu mì dù wèi měi píng fāng qiān mǐ ": 4111,
  "46": 4112,
  "bàn dǎo ": 4113,
  "zhèng shí ": 4114,
  "22 ": 4115,
  " wèi fú": 4116,
  "sú ": 4117,
  "ind": 4118,
  " dì tiě ": 4119,
  "qián wǎng": 4120,
  "céng jīng ": 4121,
  "lèi de ": 4122,
  " dí ": 4124,
  "ing": 4125,
  "in ": 4126,
  " nián dù ": 4127,
  " jiā ná dà ": 4128,
  " zài dà ": 4129,
  " píng fāng mǐ ": 4130,
  " gǔ": 4131,
  "   yuán ": 4132,
  "zì zhì qū ": 4133,
  "pì": 4134,
  "gǎo ": 4135,
  " 8 yuè ": 4136,
  "lā kè ": 4137,
  "lián xù ": 4138,
  "duō cì ": 4139,
  "hùn hé ": 4140,
  " de guān ": 4141,
  "xiǎo zǔ ": 4142,
  "jǔ rén ": 4143,
  "jiǎn chá ": 4144,
  "   zì ": 4145,
  "zuì zǎo": 4146,
  "tuán duì ": 4147,
  "píng jià ": 4148,
  "gòng tóng": 4149,
  "xīn lǐ ": 4150,
  "14 ": 4151,
  "yǐng piàn ": 4152,
  "méi tǐ": 4153,
  "kě néng huì ": 4154,
  "shēng chǎn": 4155,
  "bǎo hù": 4156,
  "cāng ": 4157,
  "12 nián ": 4158,
  "yā lì ": 4159,
  "jīng yíng ": 4160,
  "bǐ yà ": 4161,
  " shì tú ": 4162,
  "jì wèi ": 4163,
  " ér bèi ": 4164,
  "jì huà ": 4165,
  " jì chéng ": 4166,
  "gòng xiàn ": 4167,
  "céng zài ": 4168,
  "lǎn ": 4169,
  " guāng ": 4170,
  " shí shī ": 4171,
  " luò ": 4172,
  "dāo ": 4173,
  " liú": 4174,
  " hái yǒu ": 4175,
  "zhěn": 4176,
  "ān dé ": 4177,
  "lì bù ": 4178,
  " tái wān": 4179,
  "23 ": 4180,
  "fú wù": 4181,
  "jiǎn shǎo ": 4182,
  "2016 nián ": 4183,
  "chǎn yè ": 4184,
  "dà bù fèn ": 4185,
  "xiāng tóng ": 4186,
  "xíng dòng ": 4187,
  "fān yì ": 4188,
  "sàn ": 4189,
  " hé liú ": 4190,
  "9 rén ": 4191,
  " chū rèn ": 4192,
  " wéi ěr ": 4193,
  "guī mó": 4194,
  "2022 nián ": 4195,
  "jì niàn ": 4196,
  "amp ": 4197,
  "5 rén ": 4198,
  "K ": 4199,
  "ab": 4200,
  "shǒu de ": 4201,
  "jiā ná dà ": 4202,
  "bǐ sài zhōng ": 4203,
  "fú hé ": 4204,
  " shǐ yòng ": 4205,
  "zhǐ huī": 4206,
  "shǎo shù ": 4207,
  "chóng jiàn ": 4208,
  " jiàn zhù": 4209,
  "lún dūn ": 4210,
  " lán ": 4211,
  " tōng guò ": 4212,
  "bàn shì ": 4213,
  "nǔ ": 4214,
  "wā ": 4215,
  "   3": 4216,
  "sī zài ": 4217,
  "hǎn ": 4218,
  "ver": 4219,
  "dòng de ": 4220,
  "You": 4221,
  " suǒ yǒu ": 4222,
  "xíng wéi ": 4223,
  "kōng jūn ": 4224,
  "bàn gōng ": 4225,
  " wèi néng ": 4226,
  " shí fēn ": 4227,
  "mèng": 4228,
  "ak": 4229,
  "shēn de ": 4230,
  " zhì zuò": 4231,
  " hé běi ": 4232,
  " zì yóu ": 4233,
  "cuī ": 4234,
  "00 nián ": 4235,
  "ōu yuán ": 4236,
  " xiàn wèi ": 4237,
  "47": 4238,
  "oun": 4239,
  " tú ": 4240,
  "AT": 4241,
  "gōng yuán ": 4242,
  "wěi yuán huì": 4243,
  "zhōng zài ": 4244,
  " yì yǒu ": 4245,
  "ròu": 4246,
  "   s": 4247,
  "xiàn dài ": 4248,
  "18 ": 4249,
  " yǐ sè ": 4250,
  "fèn zǐ ": 4251,
  " zì": 4252,
  " shì yī míng ": 4253,
  "yìng de ": 4254,
  " xī wàng ": 4255,
  "guò qù ": 4256,
  "wēi ěr ": 4257,
  "yòng lái ": 4258,
  "zhǎn shì ": 4259,
  " jì xù": 4260,
  "mìng míng wèi ": 4261,
  " gōng sī de ": 4262,
  " fǎn ": 4263,
  "dòng jī ": 4264,
  "dǎ jī ": 4265,
  " yī cì ": 4266,
  "xiàng mù": 4267,
  " de dì qū ": 4268,
  " yòu míng ": 4269,
  " sī lìng": 4270,
  "xún huí ": 4271,
  "gāo sù": 4272,
  "xià wǔ ": 4273,
  "qǐ yòng ": 4274,
  "kā ": 4275,
  "féng ": 4276,
  " lì rú": 4277,
  " pō ": 4278,
  " ní ": 4279,
  " cāng ": 4280,
  "bù shì ": 4281,
  "shǒu wèi ": 4282,
  " qiān ": 4283,
  "wài jiāo ": 4284,
  "jiē jìn ": 4285,
  " shè qū ": 4286,
  "rèn wù ": 4287,
  "lù dì miàn jī wèi ": 4288,
  " shí yàn": 4289,
  " de shǒu ": 4290,
  "shuǐ yù miàn jī wèi ": 4291,
  " běi": 4292,
  " 189": 4293,
  "shuì": 4294,
  "liǎng gè": 4295,
  "lèi xíng ": 4296,
  " guó lì ": 4297,
  "tǐ xì ": 4298,
  " àn ": 4299,
  " shì yǐ ": 4300,
  " qū ": 4301,
  " shí zì ": 4302,
  "hǎi yù ": 4303,
  "mù sī ": 4304,
  "yīng gé lán ": 4305,
  "diàn lì ": 4306,
  "fǎ lǜ": 4307,
  " lín": 4308,
  " liǎng rén ": 4309,
  "jǔ xíng de ": 4310,
  " zài yú ": 4311,
  " tǐ zhǎng ": 4312,
  "jié shù hòu ": 4313,
  "zhù zuò ": 4314,
  "néng gòu": 4315,
  " shǐ de ": 4316,
  " dà shǐ ": 4317,
  "shēng huó": 4318,
  "～": 4319,
  "láo": 4320,
  "xué zhě ": 4321,
  "zuò jiā ": 4322,
  "cháng qī ": 4323,
  "guó zài ": 4324,
  " shè bèi ": 4325,
  "zhù yì ": 4326,
  " duì": 4327,
  "guān zhòng ": 4328,
  " amp ": 4329,
  " mèng ": 4330,
  "dé dào ": 4331,
  " huà ": 4332,
  " yù": 4333,
  "zhì hé ": 4334,
  "xiàng shì ": 4335,
  " dāng zhōng lù dì miàn jī wèi ": 4336,
  "zhuó": 4337,
  " ér shuǐ yù miàn jī wèi ": 4338,
  "   2012 nián ": 4339,
  " fàn ": 4340,
  " cóng ér ": 4341,
  "jiào qū ": 4342,
  "zǔ chéng de ": 4343,
  "qǔ xiāo ": 4344,
  "wēi lián ": 4345,
  " 21 ": 4346,
  "lìng wài ": 4347,
  " sī lìng ": 4348,
  "shuǐ píng ": 4349,
  " lì jí ": 4350,
  "ài de ": 4351,
  " zhī shí ": 4352,
  "   xī ": 4353,
  "fēng bào ": 4354,
  " The   ": 4355,
  "60 ": 4356,
  "jí zài ": 4357,
  "xú": 4358,
  " lì fǎ ": 4359,
  " chéng lì yú ": 4360,
  " 9 yuè ": 4361,
  "lǚ kè ": 4362,
  "33": 4363,
  " zhǐ yǒu ": 4364,
  "kuài sù ": 4365,
  "pī zhǔn ": 4366,
  "G ": 4367,
  " ràng ": 4368,
  "lián xì ": 4369,
  "bì xū": 4370,
  "hào de ": 4371,
  " dà chén ": 4372,
  "diǎn de ": 4373,
  "diàn tái ": 4374,
  "   xíng zhèng qū huà ": 4375,
  " jiā shàng ": 4376,
  "xìn hào ": 4377,
  "mín de ": 4378,
  " dé de ": 4379,
  "cān jiā": 4380,
  "yuàn zhǎng ": 4381,
  "jǐ yǔ ": 4382,
  " yǐ hòu ": 4383,
  "dài yǒu ": 4384,
  " jūn wèi ": 4385,
  "rèn mìng": 4386,
  "ēng lì ": 4387,
  "wěi shū jì ": 4388,
  " èr": 4389,
  "nèi róng": 4390,
  "zǒng dū ": 4391,
  "chuàn ": 4392,
  "ce ": 4393,
  "rú hé ": 4394,
  "shòu shāng ": 4395,
  "dǎo yǔ ": 4396,
  "zhè ge": 4397,
  "bǎo chí ": 4398,
  " dōu ": 4399,
  " yì rén ": 4400,
  "suí hòu ": 4401,
  "fó jiào ": 4402,
  " yuán yīn ": 4403,
  "es ": 4404,
  " wèi fú qí yú ": 4405,
  "guà ": 4406,
  "   gài ": 4407,
  "g ": 4408,
  " zhí zhì ": 4409,
  "cì shì jiè dà zhàn ": 4410,
  " 7 yuè ": 4411,
  "āi jí ": 4412,
  "18 nián ": 4413,
  "huāng ": 4414,
  "yà de ": 4415,
  "xìng zhì ": 4416,
  " jī dū ": 4417,
  "yǎn chàng huì ": 4418,
  "fā chū ": 4419,
  " zhè jiāng ": 4420,
  " 2022 nián ": 4421,
  " fèi ": 4422,
  " shì yī wèi ": 4423,
  " xīn wén ": 4424,
  " bèi": 4425,
  "tuì yì ": 4426,
  " děng": 4427,
  "xī yáng ": 4428,
  " shì qū ": 4429,
  "jiā hé ": 4430,
  " zhuān ": 4431,
  "jī zhì ": 4432,
  "bì yè yú ": 4433,
  "zhù míng de ": 4434,
  " jiàn chéng ": 4435,
  " xìng ": 4437,
  "zòu": 4438,
  " dōng": 4439,
  "wèi zhì ": 4440,
  " míng chēng ": 4441,
  "rù kǒu ": 4442,
  "pǔ tōng ": 4443,
  " formula ": 4444,
  "   yì ": 4445,
  "10 nián ": 4446,
  " tǐ zhǎng kě dá ": 4447,
  "hái zi ": 4448,
  "fū rén ": 4449,
  "chā yì ": 4450,
  "zhuān jiā ": 4451,
  "bà": 4452,
  " de yī zuò ": 4453,
  " fù jìn ": 4454,
  "fā diàn ": 4455,
  " xī": 4456,
  " lǎn ": 4457,
  " 12 yuè ": 4458,
  " rú guǒ": 4459,
  " mín guó ": 4460,
  "dǐ dá ": 4461,
  " shāng ": 4462,
  "wén zhāng ": 4463,
  "wǎng lù ": 4464,
  " bō": 4465,
  " tóu ": 4466,
  "zhì zài ": 4467,
  "lo": 4468,
  "fǎ de ": 4469,
  " bù lǐ ": 4470,
  " yǐ xià": 4471,
  "xiāng dāng ": 4472,
  "cūn zhuāng ": 4473,
  " kè lǐ ": 4474,
  "rù qīn ": 4475,
  " 11 yuè ": 4476,
  "yǔ zhōng ": 4477,
  "zhàn zhōng ": 4478,
  "lái dào ": 4479,
  "yě zài ": 4480,
  " xué xiào": 4481,
  "yán gé ": 4482,
  "6 rén ": 4483,
  "chái": 4484,
  "en ": 4485,
  " zhī zhōng ": 4486,
  "   2024 nián ": 4487,
  " jiàn duì ": 4488,
  "zhè xiē": 4489,
  " píng": 4490,
  " wáng": 4491,
  "zhí wèi ": 4492,
  "wàn yuán ": 4493,
  "25 nián ": 4494,
  " shí rèn ": 4495,
  "fā shēng": 4496,
  "tóng yì ": 4497,
  " yī shēng ": 4498,
  "guài ": 4499,
  "sì gè ": 4500,
  "al ": 4501,
  "guǎng bō": 4502,
  " ěr hé ": 4503,
  "dǎo shì ": 4504,
  "hā ěr ": 4505,
  "qì chē ": 4506,
  "tài píng yáng ": 4507,
  "yì zài ": 4508,
  " jī gòu": 4509,
  "tí gāo ": 4510,
  "8 rén ": 4511,
  "chéng gōng ": 4512,
  " yì shù": 4513,
  "míng chēng ": 4514,
  "xiāo shòu ": 4515,
  "chōu ": 4516,
  "míng shì ": 4517,
  "gòng chǎn dǎng": 4518,
  "chū bǎn ": 4519,
  "2012 nián ": 4520,
  "le dà ": 4521,
  " dé yǐ ": 4522,
  " shēng chǎn ": 4523,
  "rǎo ": 4524,
  "shēng wèi ": 4525,
  " de shí qū wèi ": 4526,
  "28 nián ": 4527,
  "xīng qī ": 4528,
  " de qián ": 4529,
  " rén lèi ": 4530,
  " zhèng cè ": 4531,
  "gèng jiā ": 4532,
  " ruò ": 4533,
  "xiǎo shuō": 4534,
  "shé ": 4535,
  "2008 nián ": 4536,
  " hái": 4537,
  "indow": 4538,
  "jú zhǎng ": 4539,
  " de shí jiān ": 4540,
  "yáo": 4541,
  "   zhì ": 4542,
  " shì yǒu ": 4543,
  "yuè tái ": 4544,
  " yú 197": 4545,
  " ěr tè ": 4546,
  "jiào wéi ": 4547,
  "zhè jiāng ": 4548,
  "duō nián ": 4549,
  "zhǐ zài ": 4550,
  "guǎng xī ": 4551,
  "què dìng ": 4552,
  "ed   ": 4553,
  "qī zǐ ": 4554,
  "méng gǔ": 4555,
  "kuò dà ": 4556,
  " shàng hǎi": 4557,
  "55": 4558,
  "yǔ hé ": 4559,
  "zhù yú ": 4560,
  "dēng lù ": 4561,
  " shí xiàn ": 4562,
  "jié hūn ": 4563,
  " hans ": 4564,
  "yì zhōng ": 4565,
  "niú": 4566,
  "róng yù ": 4567,
  " tw ": 4568,
  " wèi shēng ": 4569,
  "guān zhù ": 4570,
  "cán ": 4571,
  "zhòng dà ": 4572,
  "dòng zuò ": 4573,
  "āi ěr ": 4574,
  "ran": 4575,
  "chún": 4576,
  "yuè shí ": 4577,
  " yìn dù ": 4578,
  "yè hòu ": 4579,
  "chè xiāo ": 4580,
  " jǐn guǎn": 4581,
  " bìng méi yǒu ": 4582,
  "biǎn ": 4583,
  "zuì chū ": 4584,
  " píng tái ": 4585,
  "   nián ": 4586,
  "shù xué ": 4587,
  "jìn xíng": 4588,
  "chū bǎn": 4589,
  "   de shí ": 4590,
  "bā xī ": 4591,
  "zhǔ chí ": 4592,
  "yí dòng ": 4593,
  " què": 4594,
  "cān kǎo ": 4595,
  "lín de ": 4596,
  "wǎn shàng ": 4597,
  " bù kě ": 4598,
  "wù zhǒng": 4599,
  "yuàn de ": 4600,
  "yà lì shān": 4601,
  " sī tǎn ": 4602,
  "shī fàn": 4603,
  " shì yǎn ": 4604,
  " huò zhě ": 4605,
  " guó wù ": 4606,
  "rǎn": 4607,
  " sà ": 4608,
  " zhī yuán ": 4609,
  "shù zì ": 4610,
  "wén zì ": 4611,
  " ā ěr ": 4612,
  "／": 4613,
  " gōng yè": 4614,
  " jiā tíng ": 4615,
  "fù de ": 4616,
  "xū qiú ": 4617,
  "fǎn huí ": 4618,
  "eb": 4619,
  " mài ": 4620,
  "yě bèi ": 4621,
  "míng yì ": 4622,
  "xué hé ": 4623,
  " jī hū ": 4624,
  "dǒng shì ": 4625,
  "biǎo xiàn": 4626,
  " cuì ": 4627,
  "rú cǐ ": 4628,
  "fā xiàn le ": 4629,
  "17 ": 4630,
  "kàn dào ": 4631,
  "mǔ qīn ": 4632,
  "sū lián": 4633,
  " cháng": 4634,
  "19 nián ": 4635,
  "2021 nián ": 4636,
  "héng xīng ": 4637,
  " cǐ shí ": 4638,
  "24 nián ": 4639,
  "hún ": 4640,
  " bìng yǐ ": 4641,
  "tái běi ": 4642,
  "gǎi biān": 4643,
  "zhàn dì ": 4644,
  "xiōng yá": 4645,
  " zài 18": 4646,
  "huá mín guó ": 4647,
  " mù qián": 4648,
  "nǎi": 4649,
  "   suǒ shǔ de shěng jí xuǎn qū wèi ": 4650,
  "zǒng bù ": 4651,
  "or ": 4652,
  "   de yóu zhèng biān mǎ wèi ": 4653,
  "   yǔ jiē rǎng de shì zhèn ": 4654,
  "   yú shí de rén kǒu shù liàng wèi rén ": 4655,
  "   de shí qū wèi ": 4656,
  "   t": 4657,
  "zhuāng zhì ": 4658,
  "shuò shì ": 4659,
  " 6 yuè ": 4660,
  "tic": 4661,
  " rén men ": 4662,
  "7 rén ": 4663,
  "bā lí ": 4665,
  "jì hé ": 4666,
  " xué xí ": 4667,
  " kuān ": 4668,
  "tú zhōng ": 4669,
  "em": 4670,
  " zhī míng ": 4671,
  "   2010 nián ": 4672,
  "wéi de ": 4673,
  " sī lā ": 4674,
  "zì dòng ": 4675,
  " zuò yòng ": 4676,
  "shí wèi ": 4677,
  "tái de ": 4678,
  " zǔ ": 4679,
  "fù qīn ": 4680,
  "guǎn lǐ": 4681,
  "fā de ": 4682,
  "zèng ": 4683,
  " céng rèn ": 4684,
  "jìn shì ": 4685,
  "kāi fàng": 4686,
  "mín zhòng ": 4687,
  "chuáng ": 4688,
  " yī dài ": 4689,
  " jīng guò ": 4690,
  "hóu": 4691,
  "   zh": 4692,
  " chū xiàn zài ": 4693,
  " gǎi": 4694,
  "   jī ": 4695,
  "liǔ ": 4696,
  " rén shù ": 4697,
  "zī xùn ": 4698,
  "xiōng yá lì ": 4699,
  " qiáng ": 4700,
  " dàn tā ": 4701,
  " dì qiú ": 4702,
  "75": 4703,
  " tǎo ": 4704,
  "jiǎng xiàng ": 4705,
  "2018 nián ": 4706,
  "suī rán ": 4707,
  "tí shēng ": 4708,
  "fēi jiàn zhì ": 4709,
  "14 nián ": 4710,
  "chàng piàn ": 4711,
  "niǔ yuē ": 4712,
  "shǎn ": 4713,
  "mǐn": 4714,
  " hk ": 4715,
  "xì jù ": 4716,
  " pāi": 4717,
  "jiào de ": 4718,
  " gè zhǒng ": 4719,
  " 5 yuè ": 4720,
  " bìng lì ": 4721,
  "tuī dòng ": 4722,
  " chéng wéi le ": 4723,
  "zhuàng kuàng ": 4724,
  "ea": 4725,
  " yǎn ": 4726,
  " hé bìng ": 4727,
  " yì yuàn ": 4728,
  " jì zǎi ": 4729,
  " pán ": 4730,
  "   2011 nián ": 4731,
  "xùn sù ": 4732,
  "fā xíng": 4733,
  " jí qí": 4734,
  "gāo dù ": 4735,
  "tè lǐ ": 4736,
  "kàng rì ": 4737,
  " wèi hé ": 4738,
  "luàn": 4739,
  " hé xīn ": 4740,
  "jīng shén ": 4741,
  "wēi xié ": 4742,
  "xuè": 4743,
  "rùn ": 4744,
  "shōu lù ": 4745,
  "guò qù": 4746,
  "wáng de ": 4747,
  "27 nián ": 4748,
  " líng ": 4749,
  "lán kè ": 4750,
  " shì zhǐ ": 4751,
  "yē ": 4752,
  "cái zhèng ": 4753,
  "suì dào ": 4754,
  " cùn ": 4755,
  "zhòu ": 4756,
  " nián qīng": 4757,
  "sà kè ": 4758,
  "21 nián ": 4759,
  "liǎng rén ": 4760,
  " zhī hòu": 4761,
  " chē ": 4762,
  "lù jūn": 4763,
  "jìn gōng ": 4764,
  "34": 4765,
  "qǐ yì ": 4766,
  " pí ": 4767,
  "jù de ": 4768,
  " tōng cháng ": 4769,
  "lǜ wèi ": 4770,
  "2014 nián ": 4771,
  "ot": 4772,
  "le tā ": 4773,
  " shì jí ": 4774,
  "zēng zhǎng ": 4775,
  "   zhōng guó ": 4776,
  "der": 4777,
  "jīng cháng ": 4778,
  "fēi jiàn zhì dì qū ": 4779,
  "sài de ": 4780,
  "xì tǒng de ": 4781,
  "jiāng xī ": 4782,
  "ào dì lì ": 4783,
  "shǒu dū ": 4784,
  "ber": 4785,
  "dōu huì ": 4786,
  " yě yǒu ": 4787,
  "zhā": 4788,
  "zhóu ": 4789,
  " cí ": 4790,
  "zhòng diǎn ": 4791,
  "zhàn dòu": 4792,
  " kē": 4793,
  "tài yáng": 4794,
  " jǐn": 4795,
  " chē zhàn ": 4796,
  "hǎi dào ": 4797,
  "liǎng nián ": 4798,
  " shì rén ": 4799,
  " wéi qí ": 4800,
  "yíng yùn ": 4801,
  "dǔ ": 4802,
  "jié kè ": 4803,
  " guī ": 4804,
  "quǎn ": 4805,
  "15 nián ": 4806,
  " dà lóu ": 4807,
  "shān mài": 4808,
  "diào chá": 4809,
  " chuán ": 4810,
  " hé zhōng ": 4811,
  "00 wàn ": 4812,
  " xī bān yá": 4813,
  "lǐng dǎo rén ": 4814,
  " é luó sī ": 4815,
  "mín zú": 4816,
  "shàng shū ": 4817,
  "chèn ": 4818,
  "yǐn fā ": 4819,
  " zhōng guó gòng chǎn dǎng ": 4820,
  " yīn ér ": 4821,
  " yú 194": 4822,
  "zhàn dòu ": 4823,
  "guǎng gào ": 4824,
  "xùn liàn": 4825,
  "cān jiā le ": 4826,
  "pǐ ": 4827,
  " bù duàn ": 4828,
  " de chéng yuán ": 4829,
  " dá ": 4830,
  "190": 4831,
  "zhǔ chí": 4832,
  "xì bāo": 4833,
  "yīn shì ": 4834,
  " zhū": 4835,
  " lǜ ": 4836,
  " huā ": 4837,
  " jìn rù": 4838,
  "tú shū guǎn ": 4839,
  " 00 ": 4840,
  " hé chéng ": 4841,
  "chàng piàn": 4842,
  "AS": 4843,
  "   U": 4844,
  "zhí dào ": 4845,
  "nà lǐ ": 4846,
  "yuè zài ": 4847,
  "huà wèi ": 4848,
  "29 nián ": 4849,
  " qián": 4850,
  " zào chéng ": 4851,
  "jù lí ": 4852,
  "yòng hù ": 4853,
  " 4 yuè ": 4854,
  "fù jìn ": 4855,
  "nuó ": 4856,
  "39": 4857,
  "zhóu": 4858,
  "shēn wèi ": 4859,
  "jū zhù ": 4860,
  "xiào guǒ ": 4861,
  "měi shù ": 4862,
  " C ": 4863,
  "xià jì ào lín pǐ kè yùn dòng huì ": 4864,
  " zhèng zhuàng ": 4865,
  " 2004 nián ": 4866,
  "jiè de ": 4867,
  "suī rán": 4868,
  "chǎn pǐn": 4869,
  " 188": 4870,
  "pān ": 4871,
  "shí jiān ": 4872,
  "jiāng sū ": 4873,
  "chǎn shēng de ": 4874,
  "kuáng ": 4875,
  "22 nián ": 4876,
  "   zh ": 4877,
  " quán guó ": 4878,
  "shuō míng ": 4879,
  " shēng huó": 4880,
  "wǔ zhuāng ": 4881,
  "yīng wén ": 4882,
  " jiā rù": 4883,
  "shēn qǐng ": 4884,
  "pō": 4885,
  "jiào liàn ": 4886,
  " lǐ lùn ": 4887,
  " zhī xià ": 4888,
  " huò dé le ": 4889,
  "lán qiú ": 4890,
  " zài jiā ": 4891,
  " zuò pǐn": 4892,
  "   jiā zú ": 4893,
  "ào yùn huì ": 4894,
  "zhōu de ": 4895,
  "yōu shì ": 4896,
  " gōng rén ": 4897,
  "xiǎn de ": 4898,
  "jiào shī ": 4899,
  "wáng cháo": 4900,
  " zhōng wén ": 4901,
  "sù de ": 4902,
  "jì shí ": 4903,
  "huá rén ": 4904,
  " dà duō ": 4905,
  " ruò": 4906,
  "hán shù ": 4907,
  "fǎng wèn ": 4908,
  "ai": 4909,
  "de   ": 4910,
  "lì shì ": 4911,
  "11 nián ": 4912,
  "tiáo zhěng ": 4913,
  "2015 nián ": 4914,
  "xué shù ": 4915,
  "pǐn pái ": 4916,
  " xǔ duō ": 4917,
  "tòu": 4918,
  " huáng": 4919,
  "mǎ sī ": 4920,
  "jìn rù": 4921,
  " wǎng ": 4922,
  " tuō ": 4923,
  " yuè nán ": 4924,
  "yāo qǐng ": 4925,
  " biàn": 4926,
  " yǒu shí ": 4927,
  "jīn de ": 4928,
  " shì zhèn": 4929,
  "yǔn xǔ ": 4930,
  "bào dǎo ": 4931,
  " lǎn": 4932,
  "què zhěn": 4933,
  "shě ": 4934,
  "qǔ dé": 4935,
  "dìng le ": 4936,
  "65": 4937,
  " 10 ": 4938,
  "qià ": 4939,
  " shì wèi le ": 4940,
  " mèi ": 4941,
  "ep": 4942,
  "shǎn xī ": 4943,
  " dàn yóu yú ": 4944,
  " yuè tái ": 4945,
  "téng": 4946,
  "xí wèi ": 4947,
  " jí lì ": 4948,
  "jiā zhōng ": 4949,
  " dà xíng ": 4950,
  "zhōng wèi ": 4951,
  "yǒu bù ": 4952,
  " jì suàn": 4953,
  "pāi ": 4954,
  "jiàn shè ": 4955,
  "wǔ tái ": 4956,
  "liǎng zhǒng ": 4957,
  " xiǎng": 4958,
  "zhēn shí ": 4959,
  "huí yìng ": 4960,
  "13 nián ": 4961,
  "zhōng huá rén mín gòng hé guó ": 4962,
  "49": 4963,
  "yìn dì ": 4964,
  "qū yù": 4965,
  "yí chǎn ": 4966,
  "est": 4967,
  "ào mén ": 4968,
  "shū de ": 4969,
  " dì wǔ ": 4970,
  "yí mín ": 4971,
  "fēi lǜ ": 4972,
  " sāng ": 4973,
  "um": 4974,
  " de gōng zuò ": 4975,
  "2020 nián měi guó rén kǒu pǔ chá de shù jù ": 4976,
  " ōu ": 4977,
  "jǔ xíng": 4978,
  "2017 nián ": 4979,
  "fáng yù ": 4980,
  "jiào xué ": 4981,
  " kǎi ": 4982,
  "bo": 4983,
  "qì xiàng ": 4984,
  "tou": 4985,
  " zhōu nián ": 4986,
  "liè biǎo ": 4987,
  " rù ": 4988,
  "shén jīng ": 4989,
  "duō rén ": 4990,
  "23 nián ": 4991,
  "guān xì": 4992,
  " rèn wù ": 4993,
  "mìng lìng ": 4994,
  " féng ": 4995,
  "--": 4996,
  "jī chǎng ": 4997,
  "bái sè ": 4998,
  "chuàng bàn": 4999,
  "ay": 5000,
  "2011 nián ": 5001,
  "yǐ lái ": 5002,
  "děng wèi ": 5003,
  "le tā de ": 5004,
  "huì yuán ": 5005,
  "niǎo": 5006,
  "wǎ ěr ": 5007,
  "jì lù ": 5008,
  " jī guān ": 5009,
  "fǎ àn ": 5010,
  "quán miàn ": 5011,
  "dū shì ": 5012,
  "le yí gè ": 5013,
  "1 yuè 1 rì ": 5014,
  " rì jūn ": 5015,
  "zhá ": 5016,
  "tī ": 5017,
  "kè lǐ ": 5018,
  " shí yī ": 5019,
  "duàn de ": 5020,
  " rén lèi": 5021,
  "gāo děng ": 5022,
  "shú ": 5023,
  "yán de ": 5024,
  "yíng de ": 5025,
  "17 nián ": 5026,
  " hé xī ": 5027,
  "huà jiā ": 5028,
  "dōng jì ": 5029,
  "jiē jí ": 5030,
  "zé wèi ": 5031,
  " shí qī": 5032,
  "   zǎo nián ": 5033,
  "zǔ jiàn ": 5034,
  "yí zhǐ ": 5035,
  "nǎi ": 5036,
  "jīng lǐ ": 5037,
  "huā yuán ": 5038,
  "ali": 5039,
  "eg": 5040,
  "yuē yǒu ": 5041,
  "miàn duì ": 5042,
  "es   ": 5043,
  "shēng jí ": 5044,
  "měi guó de ": 5045,
  " wǒ men ": 5046,
  " tí ": 5047,
  "xià yī ": 5048,
  "mǐ de ": 5049,
  " zhì shí ": 5050,
  " zài xī ": 5051,
  " lì shǐ": 5052,
  "nǚ zǐ": 5053,
  " shè jí ": 5054,
  "xǐ huān ": 5055,
  "ame": 5056,
  "yì nián ": 5057,
  " zhì lì ": 5058,
  " zuǒ ": 5059,
  "lǐng tǔ ": 5060,
  " shèng": 5061,
  "yuán jí ": 5062,
  "zī jīn ": 5063,
  " suǒ yǐ": 5064,
  "zòng ": 5065,
  " āi ": 5066,
  " hé lán ": 5067,
  "bǎo chí": 5068,
  "wán quán": 5069,
  "bo ": 5070,
  " shí èr ": 5071,
  "jiǔ diàn ": 5072,
  " 3 yuè ": 5073,
  "chēng zuò ": 5074,
  " shì dà ": 5075,
  " míng cháo zhèng zhì rén wù ": 5076,
  "zhèng míng ": 5077,
  "yòng zuò ": 5078,
  " 2023 nián ": 5079,
  "mǒu": 5080,
  " jì zhě ": 5081,
  " měi nián ": 5082,
  "wén xiàn ": 5083,
  " rén mín": 5084,
  "lěi ": 5085,
  " kāng": 5086,
  "   xīn ": 5087,
  "yuán zài ": 5088,
  " yuán míng ": 5089,
  "og": 5090,
  "2009 nián ": 5091,
  " zhōng yú ": 5092,
  " zhì liáo ": 5093,
  " jī chē ": 5094,
  "   tā ": 5095,
  "26 nián ": 5096,
  "guī zé ": 5097,
  "cái liào ": 5098,
  "sǔn shī ": 5099,
  "sp": 5100,
  "lǐ lùn ": 5101,
  "dòng wù": 5102,
  "tāng ": 5103,
  "dà dì ": 5104,
  " xiàn hé ": 5105,
  "bǎo liú ": 5106,
  " qī": 5107,
  "   yóu ": 5108,
  "ev": 5109,
  " yì yì ": 5110,
  " shòu": 5111,
  "   hòu ": 5112,
  " guó huì ": 5113,
  " gōng huì ": 5114,
  "nèi lù ": 5115,
  " 2002 nián ": 5116,
  "nán jīng ": 5117,
  " jìn xíng": 5118,
  " cuì": 5119,
  "mí": 5120,
  "2023 nián ": 5121,
  "xià lìng": 5122,
  "biǎo miàn ": 5123,
  " yáng": 5124,
  "   jié": 5125,
  " gōng chǎng ": 5126,
  " yuán gōng ": 5127,
  " shì yī zhǒng": 5128,
  " dì yī cì ": 5129,
  " xiào ": 5130,
  "juàn ": 5131,
  "lǚ xíng ": 5132,
  "IN": 5133,
  "ate": 5134,
  "68": 5135,
  "qǐ yè": 5136,
  "gǒng ": 5137,
  "wēi jī ": 5138,
  "and": 5139,
  " yú 196": 5140,
  " chéng xiàn ": 5141,
  " nán zhì ": 5142,
  " hé gōng ": 5143,
  "   2008 nián ": 5144,
  "ent": 5145,
  "tài rén ": 5146,
  " yì fāng miàn ": 5147,
  "19 ": 5148,
  "zhī jiān ": 5149,
  " hán guó ": 5150,
  "bèi shì wèi ": 5151,
  "wén yì ": 5152,
  "tí dào ": 5153,
  "xiāng guān": 5154,
  " bǐ": 5155,
  " shì hòu ": 5156,
  "céng jīng": 5157,
  "av": 5158,
  " fāng ": 5159,
  "tiān de ": 5160,
  " bù mén": 5161,
  " nián shì jiè ": 5162,
  "diàn nǎo ": 5163,
  "kě yǐ zài ": 5164,
  "gé wèi ": 5165,
  "dōng nán bù ": 5166,
  " xīng ": 5167,
  "dà wèi ": 5168,
  "kōng zhōng ": 5169,
  " guó fáng": 5170,
  "jīn shǔ ": 5171,
  " lí ": 5172,
  "zhù lǐ ": 5173,
  "16 nián ": 5174,
  "kǒng bù ": 5175,
  "zuò yòng ": 5176,
  "dài lǐ ": 5177,
  "tōng dào ": 5178,
  " cáo ": 5179,
  "qí zhōng yī zhǒng ": 5180,
  "máng ": 5181,
  " màn ": 5182,
  "zuò wèi ": 5183,
  "suǒ zài ": 5184,
  "liú zài ": 5185,
  "31": 5186,
  " zhèng": 5187,
  "shǒu jī ": 5188,
  "lì wèi ": 5189,
  "shū jí ": 5190,
  " ér chéng ": 5191,
  "   in": 5192,
  "yǒu zài ": 5193,
  "2013 nián ": 5194,
  "gù wèn ": 5195,
  " 000 ": 5196,
  " zhōng de ": 5197,
  "shǎng": 5198,
  "jìng de ": 5199,
  "yǐn qǐ ": 5200,
  "44": 5201,
  "yǐ xià ": 5202,
  "yǐng piàn": 5203,
  "bō lán": 5204,
  "jìn yí bù ": 5205,
  "50 nián ": 5206,
  "dà lù de ": 5207,
  " xī wàng": 5208,
  "chéng nián ": 5209,
  "kuí": 5210,
  "yǎn yì ": 5211,
  " zhèn ": 5212,
  "qiǎn": 5213,
  "men de ": 5214,
  "ew": 5215,
  " lǐ": 5216,
  "zhǔ de ": 5217,
  "jī hé ": 5218,
  "huì shì ": 5219,
  "kuāng ": 5220,
  "tè shū ": 5221,
  "tōng chē ": 5222,
  "ci": 5223,
  " jiāo ": 5224,
  " zài 198": 5225,
  " jié zhì ": 5226,
  "tǎo lùn ": 5227,
  "jiāng huì ": 5228,
  " zuò wéi": 5229,
  " 7 ": 5230,
  " yǒu jī ": 5231,
  " 2001 nián rén kǒu ": 5232,
  "zhāo hé ": 5233,
  "wú fǎ": 5234,
  " xiāng guān ": 5235,
  " téng ": 5236,
  "zhào kāi ": 5237,
  "dào lù ": 5238,
  " dào dá ": 5239,
  " fù zé": 5240,
  "cháng de ": 5241,
  "yǐn qǐ": 5242,
  " zì jǐ de ": 5243,
  " běi qǐ ": 5244,
  "sǐ hòu ": 5245,
  " tā yě ": 5246,
  "wáng cháo ": 5247,
  "In": 5248,
  "shāo": 5249,
  " shì wēi ": 5250,
  "ST ": 5251,
  "sī lì ": 5252,
  " yú lè ": 5253,
  " zhōng guó dà lù ": 5254,
  "yà lì shān dà ": 5255,
  " yǐ bèi ": 5256,
  " é ": 5257,
  " cuī ": 5258,
  " yīng yǔ ": 5259,
  "zhí mín": 5260,
  "jū mín": 5261,
  "zhǔ lì ": 5262,
  " píng miàn ": 5263,
  "má ": 5264,
  " hóng": 5265,
  "ní kè ": 5266,
  "dì èr ": 5267,
  " tā wèi ": 5268,
  "jù lè bù ": 5270,
  "chē de ": 5271,
  " zhī jiān": 5272,
  " 2000 nián ": 5273,
  " xiàn de yí gè ": 5274,
  "per": 5275,
  "2024 nián ": 5276,
  " bù bù ": 5277,
  " zài wèi ": 5278,
  "jīn pái ": 5279,
  " fán ": 5280,
  "ne ": 5281,
  "yùn zuò ": 5282,
  "lǜ shī ": 5283,
  "guǎng fàn": 5284,
  "   2025 nián ": 5285,
  " wù ": 5286,
  "jiāo huì ": 5287,
  " ér yán ": 5288,
  "yào wù ": 5289,
  "1   ": 5290,
  "zhuō ": 5291,
  "shǒu gè ": 5292,
  "tuì chū ": 5293,
  " xiàn de yí gè": 5294,
  " xuān bù ": 5295,
  "cì shǐ ": 5296,
  "bō lán ": 5297,
  "ang": 5298,
  "suō": 5299,
  " sī tè": 5300,
  " kè chéng ": 5301,
  "wǒ men ": 5302,
  " lái zì ": 5303,
  "jǐ gè ": 5304,
  " yǒu yì ": 5305,
  "yě huì ": 5306,
  "jīn huì ": 5307,
  "fēi zhōu ": 5308,
  "AR": 5309,
  "biàn dé ": 5310,
  " shí yàn ": 5311,
  "   2009 nián ": 5312,
  "féi": 5313,
  "dōng běi bù ": 5314,
  " 0 ": 5315,
  "   xià ": 5316,
  " 2003 nián ": 5317,
  " xī sī ": 5318,
  " léi ": 5319,
  "fú yì ": 5320,
  "dāng shí de ": 5321,
  "chuáng": 5322,
  "mù biāo": 5323,
  "bō fàng ": 5324,
  " ér shuǐ yù miàn jī wèi 0": 5325,
  "・": 5326,
  "H ": 5327,
  "×": 5328,
  " guó jiā de ": 5329,
  "ào dà lì yà ": 5330,
  "jù hé ": 5331,
  " shì jiā ": 5332,
  " shì yǔ ": 5333,
  "zì yóu": 5334,
  "gòu zào ": 5335,
  "zhuāng jiǎ ": 5336,
  "běn dì ": 5337,
  "yà zhōu": 5338,
  " zhī wèi ": 5339,
  " bìng jiāng ": 5340,
  "kēng": 5341,
  "xiào de ": 5342,
  " 30 ": 5343,
  " hé qí tā ": 5344,
  " chēng wéi ": 5345,
  "biān jù ": 5346,
  "jù jué ": 5347,
  " chéng rèn ": 5348,
  "suì shí ": 5349,
  " chéng xù ": 5350,
  "fěn": 5351,
  " bù dé": 5352,
  "gāo sù ": 5353,
  "shī bài ": 5354,
  " qiáo ": 5355,
  "fù qīn": 5356,
  " jiàn zào ": 5357,
  "bā lí": 5358,
  "huò dé le ": 5359,
  "huān yíng ": 5360,
  "ff": 5361,
  "zhuāng shì ": 5362,
  "yǎn chàng ": 5363,
  " jìn xíng le ": 5364,
  " fǎn": 5365,
  "qiē ": 5366,
  " r": 5367,
  "32": 5368,
  " tún": 5369,
  " jiè ": 5370,
  " yú 195": 5371,
  "guān bì ": 5372,
  " fù qīn ": 5373,
  " jié guǒ ": 5374,
  "cān móu ": 5375,
  " ér gāi dì ": 5376,
  "fǎ yuàn": 5377,
  " qiú yuán ": 5378,
  "cǎo": 5379,
  " chì ": 5380,
  "   chéng ": 5381,
  "jiàn yì ": 5382,
  "xiān shēng ": 5383,
  " bù lā ": 5384,
  "bó wù guǎn": 5385,
  "   w": 5386,
  " de jiā ": 5387,
  "yì dà lì ": 5388,
  " zhàn dòu ": 5389,
  "máo zé ": 5390,
  "64": 5391,
  "sà sī ": 5392,
  " yī jí ": 5393,
  " bìng yǔ ": 5394,
  "mò xī gē ": 5395,
  " hěn ": 5396,
  " dà lù ": 5397,
  "gǔ fèn": 5398,
  "biǎo dá": 5399,
  " wèi yǒu ": 5400,
  "jiā rù": 5401,
  " wèi lái ": 5402,
  " zhī de ": 5403,
  " guān yú ": 5404,
  " xiàn yú ": 5405,
  " zhōng gòng zhōng yāng ": 5406,
  "ed": 5407,
  "jié guǒ": 5408,
  " dú ": 5409,
  "luó dì ": 5410,
  "jǐn jí ": 5411,
  "qǐng qiú ": 5412,
  "hóng sè ": 5413,
  " liáng ": 5414,
  "què rèn ": 5415,
  "shōu shì ": 5416,
  "jì xù ": 5417,
  "jǐng fāng ": 5418,
  "   cóng ": 5419,
  " jiā zú ": 5420,
  " fù qīn": 5421,
  "sà ěr ": 5422,
  " jìn gōng ": 5423,
  " jìn yí bù ": 5424,
  "zhuì ": 5425,
  "2007 nián ": 5426,
  " bǎi ": 5427,
  "kǎo lǜ": 5428,
  "oh": 5429,
  " nà": 5430,
  "35 ": 5431,
  "tǎn kè ": 5432,
  " guǎng ": 5433,
  "chǎng hé ": 5434,
  " yì měi yuán ": 5435,
  "huǒ shān ": 5436,
  "us": 5437,
  " sī kè ": 5438,
  "shēn tǐ ": 5439,
  "má": 5440,
  " chá": 5441,
  "mǔ qīn": 5442,
  "gū jì ": 5443,
  "biān de ": 5444,
  "huǒ jiàn ": 5445,
  "hǎi àn ": 5446,
  "tài píng yáng": 5447,
  " jì shù": 5448,
  " sǔn ": 5449,
  "ruì diǎn ": 5450,
  "bǐ lì shí ": 5451,
  "sōu": 5452,
  " de zhì ": 5453,
  "zhǎo dào ": 5454,
  "jué duì ": 5456,
  "gèng duō ": 5457,
  " shì rì běn ": 5458,
  " yuè tuán ": 5459,
  " yǐ yǒu ": 5460,
  "guǎng dōng shěng ": 5461,
  "shě": 5462,
  " zhì chéng ": 5463,
  "shàng wǔ ": 5464,
  " chū shēng ": 5465,
  "zhǒng zú ": 5466,
  " tè bié shì ": 5467,
  " cì ": 5468,
  "yú zài ": 5469,
  " shì zhèng ": 5470,
  "mín jiān ": 5471,
  " cháo ": 5472,
  "nèi yǒu ": 5473,
  "2000 nián ": 5474,
  "wán gōng ": 5475,
  "ān pái ": 5476,
  "mín zhǔ dǎng ": 5477,
  " dà yuē ": 5478,
  " yuán běn ": 5479,
  "ST": 5480,
  "jī chǔ ": 5481,
  "hú běi ": 5482,
  "sēn lín ": 5483,
  "nán yǐ ": 5484,
  " zhī zi ": 5485,
  "ān nà ": 5486,
  "xī bān yá": 5487,
  "zhě zài ": 5488,
  " dà dào ": 5489,
  "yòng tú ": 5490,
  "tái fēng ": 5491,
  "yǐn qíng ": 5492,
  "dài biǎo dà huì ": 5493,
  " qī xī zài ": 5494,
  " bèi rèn wéi shì ": 5495,
  "èr yuè ": 5496,
  " pú táo ": 5497,
  " nǚ xìng ": 5498,
  "tè sè ": 5499,
  "fàng qì ": 5500,
  " Ch": 5501,
  "lì zài ": 5502,
  "xí xìng": 5503,
  " mò": 5504,
  "měi gè ": 5505,
  "qíng bào ": 5506,
  "dēng shàng ": 5507,
  " xiàn chǎng ": 5508,
  "wài bù ": 5509,
  "tiān jīn ": 5510,
  "é luó sī": 5511,
  " guān": 5512,
  " méng ": 5513,
  "2   ": 5514,
  "dā": 5515,
  "xiào yuán ": 5516,
  "zhèng dǎng ": 5517,
  "yán shēn": 5518,
  "huài": 5519,
  " tā men zài ": 5520,
  " yōng yǒu ": 5521,
  " de zhǔ ": 5522,
  " shì yè ": 5523,
  "tún ": 5524,
  "％": 5525,
  "tiān jīn": 5526,
  " yǒu xiàn ": 5527,
  " yuán sù ": 5528,
  " rì jūn": 5529,
  " 187": 5530,
  "nài": 5531,
  " dà duō shù ": 5532,
  "suì de ": 5533,
  "zuò zhàn ": 5534,
  "mǎ lái xī yà ": 5535,
  "lí mǐ ": 5536,
  "zhuāng bèi ": 5537,
  "kǎo lǜ ": 5538,
  "nǔ lì ": 5539,
  "suǒ de ": 5540,
  "58": 5541,
  "xìng qù ": 5542,
  " cǎo": 5543,
  "jiāo liú ": 5544,
  "zhàng ài ": 5545,
  "tǔ ěr qí ": 5546,
  " xiū ": 5547,
  "─": 5548,
  "   zēng ": 5549,
  "chǎng dì ": 5550,
  "lóng jiāng ": 5551,
  "shuā ": 5552,
  "qiān zhì ": 5553,
  "ān zhuāng": 5554,
  "wǎng luò": 5555,
  "lǐng xiù ": 5556,
  " fèi": 5557,
  " jí běi ": 5558,
  "ān quán": 5559,
  " chū lái ": 5560,
  " wěi ": 5561,
  " bù jiǔ": 5562,
  "zhàn lǐng ": 5563,
  " zài qí ": 5564,
  " zhī dào ": 5565,
  "bàn lǐ ": 5566,
  " bù zú ": 5567,
  " móu": 5568,
  "sàn": 5569,
  " gǎng ": 5570,
  "shàng dì ": 5571,
  "lǐng shì ": 5572,
  " de shēng ": 5573,
  " jié mù ": 5574,
  "lǐ gōng ": 5575,
  " jī bài": 5576,
  "1 lì ": 5577,
  " lǎo ": 5578,
  "cháng jiàn de ": 5579,
  "dǎo dàn ": 5580,
  "gē lún ": 5581,
  "mì mì ": 5582,
  " qīng cháo ": 5583,
  " hè ": 5584,
  "wèi   ": 5585,
  "3 gè ": 5586,
  "guì zhōu ": 5587,
  "chuán shuō ": 5588,
  "nóng yè": 5589,
  "ce   ": 5590,
  " yì yuàn": 5591,
  "míng zì ": 5592,
  "zhí dǎo ": 5593,
  "fǎ guān ": 5594,
  " páng ": 5595,
  " jīng jì ": 5596,
  "míng zhì ": 5597,
  " hé shí ": 5598,
  " chéng dù ": 5599,
  "jìn xíng le ": 5600,
  "   In": 5601,
  " zhōng shì ": 5602,
  "néng zài ": 5603,
  "huá shèng ": 5604,
  "shòu dào": 5605,
  "xiū zhèng ": 5606,
  "bǐ yà": 5607,
  " fáng ": 5608,
  "rèn shí ": 5609,
  "xǐ jù ": 5610,
  " gōng zhǔ ": 5611,
  "xí xìng bù míng ": 5612,
  "c ": 5613,
  "dèng ": 5614,
  "bǐng": 5615,
  "hǎn": 5616,
  "diàn zi": 5617,
  "rèn mìng wèi ": 5618,
  " chū qī ": 5619,
  "quán zhǎng ": 5620,
  "qióng ": 5621,
  "45 ": 5622,
  " 8 ": 5623,
  "2006 nián ": 5624,
  "as   ": 5625,
  "shēng chéng ": 5626,
  "zhǔ shì ": 5627,
  " yǒu xiē ": 5628,
  " sī tǎn": 5629,
  "   měi guó ": 5630,
  "chǒu ": 5631,
  "biàn wèi ": 5632,
  " 186": 5633,
  "shè zhì ": 5634,
  "tái běi shì ": 5635,
  " shēng huó xí xìng bù míng ": 5636,
  "   xiàn": 5637,
  "tí chū": 5638,
  "jīng yàn ": 5639,
  " xiàng": 5640,
  "dì zài ": 5641,
  "niè": 5642,
  " tā hái ": 5643,
  "bào fā": 5644,
  "miǎn diān ": 5645,
  " pèi": 5646,
  " zhuǎn ": 5647,
  " bù luò ": 5648,
  " yì qǐ": 5649,
  " jù yǒu ": 5650,
  "hěn dà ": 5651,
  " jì suàn ": 5652,
  " tāng ": 5653,
  "piào fáng ": 5654,
  "cāo zuò ": 5655,
  " hé hé ": 5656,
  "zhì zhōng ": 5657,
  "píng lùn ": 5658,
  " gān ": 5659,
  "jì shì ": 5660,
  "sài zhōng ": 5661,
  "kòu ": 5662,
  "   Ch": 5663,
  " huí ": 5664,
  "huà hé wù ": 5665,
  "páng": 5666,
  "sān shì ": 5667,
  " ér bú shì ": 5668,
  "hǎi wài ": 5669,
  " cān jiā ": 5670,
  " shí dài": 5671,
  "zhí jiē": 5672,
  "dāng xuǎn ": 5673,
  "tí gōng le ": 5674,
  "tuò ": 5675,
  "liǎn ": 5676,
  "bào lì ": 5677,
  " cì nián ": 5678,
  "im": 5679,
  " yuē hàn ": 5680,
  "míng rén ": 5681,
  " zài cǐ": 5682,
  " yī xué ": 5683,
  "shàng yìng ": 5684,
  "zhǔ yì de ": 5685,
  "shū rù ": 5686,
  "zī chǎn ": 5687,
  "sā ": 5688,
  "99": 5689,
  "ve   ": 5690,
  " wèi xīng ": 5691,
  "   2007 nián ": 5692,
  "jiā lì fú ": 5693,
  "   lǐ ": 5694,
  "mǎ lǐ ": 5695,
  " zài nèi de ": 5696,
  " yǒu yí gè ": 5697,
  " chǔ yú ": 5698,
  "quē": 5699,
  "zhuàn": 5700,
  "co": 5701,
  "zhì bù ": 5702,
  " xiàn xiàng ": 5703,
  "tài zi ": 5704,
  " gòng": 5705,
  "fǎ yǔ ": 5706,
  " yě jiù shì ": 5707,
  "   and   ": 5708,
  "bīn hǎi ": 5709,
  " zài dù ": 5710,
  " ér bù ": 5711,
  "tóu zī": 5712,
  "yuàn shì ": 5713,
  "jià gé ": 5714,
  "   cǐ wài ": 5715,
  "chuàng jiàn ": 5716,
  "tuī jìn ": 5717,
  "shùn lì ": 5718,
  "zuì gāo": 5719,
  " dōng nán ": 5720,
  "   qí ": 5721,
  "jiě sàn ": 5722,
  "léi sī ": 5723,
  "shén me ": 5724,
  "zé rèn ": 5725,
  " shì fǒu ": 5726,
  "ruǎn jiàn ": 5727,
  " yóu qí shì ": 5728,
  "xún yáng": 5729,
  " gēn jù": 5730,
  " xíng zhèng": 5731,
  " mǒu ": 5732,
  "wǎng qiú ": 5733,
  "guān diǎn ": 5734,
  "kūn": 5735,
  " jīng": 5736,
  "zhèng jù ": 5737,
  "lùn wén ": 5738,
  "lài": 5739,
  "gè zhǒng ": 5740,
  " liè ": 5741,
  "189": 5742,
  " dà shà": 5743,
  "fāng miàn de ": 5744,
  " hé bù ": 5745,
  " shēng zhǎng": 5746,
  " gòng yǒu ": 5747,
  "yú de ": 5748,
  "yīng gāi ": 5749,
  "yìng yòng": 5750,
  "jiào shì ": 5751,
  "yīng lǐ ": 5752,
  "biǎo dá ": 5753,
  "pái míng dì ": 5754,
  " bó": 5755,
  "qiǎo ": 5756,
  "bǎn běn": 5757,
  "80 ": 5758,
  " gāo": 5759,
  "yáng shì ": 5760,
  "gòu mǎi ": 5761,
  "AM": 5762,
  " cān ": 5763,
  "dà zhì ": 5764,
  "rén dà ": 5765,
  "   f": 5766,
  "pài de ": 5767,
  "ari": 5768,
  " dé ěr ": 5769,
  " hòu xuǎn rén ": 5770,
  " gé": 5771,
  "quē fá ": 5772,
  "   ā ": 5773,
  "67": 5774,
  " 20": 5775,
  "zhè lǐ ": 5776,
  " rì bào ": 5777,
  "jiù dú": 5778,
  " A ": 5779,
  "fàn wéi nèi ": 5780,
  "pō ": 5781,
  " zhàn dòu": 5782,
  " shēng chǎn": 5783,
  "lǐng dì ": 5784,
  "bú ": 5785,
  " yú rén ": 5786,
  "   qián ": 5787,
  " hé dà ": 5788,
  "hǎi xiá ": 5789,
  "   jù qíng ": 5790,
  "xiāng shì dì ": 5791,
  " xià": 5792,
  "bào gào": 5793,
  "tion ": 5794,
  "xíng chéng ": 5795,
  "fā xíng de ": 5796,
  "pǔ biàn ": 5797,
  " shǐ jiàn yú ": 5798,
  "fēng wèi ": 5799,
  "xiāng dāng": 5800,
  " sāi ": 5801,
  "   xiàn ": 5802,
  " yín ": 5803,
  " xī là ": 5804,
  "dú lì de ": 5805,
  " tiān": 5806,
  " tā hé ": 5807,
  " lǐ lùn": 5808,
  " zhī fù ": 5809,
  "ack": 5810,
  "gāo sù gōng lù ": 5811,
  "é guó ": 5812,
  "yuān ": 5813,
  " de fāng shì ": 5814,
  "hè ěr ": 5815,
  " mèng": 5816,
  " 2024 nián ": 5817,
  " suì ": 5818,
  " shì gù ": 5819,
  "chū shēng yú ": 5820,
  "lay": 5821,
  " zhōng bèi ": 5822,
  "ān huī ": 5823,
  "jù dà ": 5824,
  "bá ": 5825,
  "wēn dù ": 5826,
  "jì chéng ": 5827,
  " dé huá ": 5828,
  " gāng ": 5829,
  "mǎ ěr ": 5830,
  " zhì shǎo ": 5831,
  " yī xiǎo shí ": 5832,
  "fāng yán ": 5833,
  "pái háng ": 5834,
  "jǐng chá": 5835,
  "n shí ": 5836,
  "nèi gé ": 5838,
  "jiè shào ": 5839,
  "yí dù ": 5840,
  " dà xī yáng ": 5841,
  " bān ": 5842,
  "jié de ": 5843,
  "jué yì ": 5844,
  " qí zài ": 5845,
  "dǎng yuán ": 5846,
  " yǒu xiào ": 5847,
  " zuò jiā ": 5848,
  "yí dìng ": 5849,
  "chū shēn ": 5850,
  " zuì gāo ": 5851,
  "sūn": 5852,
  "qū yì huì ": 5853,
  "lù yì sī ": 5854,
  "cì de ": 5855,
  "huàn chéng ": 5856,
  " dà fú ": 5857,
  "cǎi qǔ ": 5858,
  "ast": 5859,
  "   4": 5860,
  "xiàn zhì ": 5861,
  "zuò shì ": 5862,
  "zhòng duō ": 5863,
  "yīng xióng ": 5864,
  " dōng lín ": 5865,
  "liǎng míng ": 5866,
  "xǐng ": 5867,
  " xiàn shì ": 5868,
  " běi jīng ": 5869,
  "ar ": 5870,
  " chū zhàn ": 5871,
  "   dì fāng ": 5872,
  " xuān ": 5873,
  " pèi ": 5874,
  "běn rén ": 5875,
  "kǎ sī ": 5876,
  " bìng bèi ": 5877,
  "rù xuǎn ": 5878,
  "qū hé ": 5879,
  "tóu xiáng ": 5880,
  " zhōng huá rén mín gòng hé guó zhèng zhì rén wù ": 5881,
  " sū": 5882,
  "shè qū ": 5883,
  " tòu guò ": 5884,
  "   m": 5885,
  "zuǐ ": 5886,
  "diàn huà ": 5887,
  "zuì duō ": 5888,
  "tán pàn ": 5889,
  "fǎng wèn": 5890,
  " lìng yī ": 5891,
  " hàn": 5892,
  "   míng ": 5893,
  "hán yǒu ": 5894,
  "nán běi ": 5895,
  "zhī chí": 5896,
  "jiǔ lóng ": 5897,
  "jiàng dī ": 5898,
  "kē de qí zhōng yī zhǒng ": 5899,
  " gōng yì ": 5900,
  " bìng fēi ": 5901,
  "zhǒng zi ": 5902,
  "diǎn lǐ ": 5903,
  "dàng tiān ": 5904,
  "chéng yuán ": 5905,
  " qǐ": 5906,
  " tǎ ": 5907,
  "yà jūn ": 5908,
  " qí zhōng yī ": 5909,
  "zhèng bù ": 5910,
  "kǒu wèi ": 5911,
  "guò dù ": 5912,
  "qǐ dòng ": 5913,
  "zhī qián ": 5914,
  "mì shū zhǎng ": 5915,
  "wú zhèng zhuàng ": 5916,
  " zài cì": 5917,
  "jī dū ": 5918,
  " bìng dú": 5919,
  "70 ": 5920,
  "shān shì ": 5921,
  "tiáo lì ": 5922,
  " yǐ jí": 5923,
  "xiāng sì ": 5924,
  "Window": 5925,
  " xiàn rèn ": 5926,
  "suǒ chù de ": 5927,
  "id": 5928,
  "xiě dào ": 5929,
  " yī tóng ": 5930,
  "hēi sè ": 5931,
  "od": 5932,
  " 30": 5933,
  "lù zhì ": 5934,
  "shù yǔ ": 5935,
  " xíng wèi ": 5936,
  "yǔn xǔ": 5937,
  "xīng děng wèi ": 5938,
  "tuán de ": 5939,
  " gōng mín ": 5940,
  " yǔ máo": 5941,
  "liú xià ": 5942,
  "mǒu xiē ": 5943,
  "90 ": 5944,
  "bǎn de ": 5945,
  "mù qián": 5946,
  "jiē chù ": 5947,
  "shè shī ": 5948,
  "zhěng tǐ ": 5949,
  "xīn jiā pō ": 5950,
  " zǔ fù ": 5951,
  "huáng hòu ": 5952,
  "gěi le ": 5953,
  " jī jīn ": 5954,
  "fā shòu ": 5955,
  "tuì xiū ": 5956,
  "48 ": 5957,
  "lǔ sī ": 5958,
  " pān ": 5959,
  "ph": 5960,
  "ul": 5961,
  "chí yǒu ": 5962,
  " shì yú ": 5963,
  " tóng yì ": 5964,
  "bǎo shǒu ": 5965,
  "kāi shǐ zài ": 5966,
  "duō wèi ": 5968,
  "jīng cháng": 5969,
  "fàn zuì ": 5970,
  "2 gè ": 5971,
  "dōu zài ": 5972,
  "lóng de ": 5973,
  " gōng jù ": 5974,
  "suí zhù ": 5975,
  "gèng wéi ": 5976,
  "gōng chéng ": 5977,
  " 1998 nián ": 5978,
  "xià xiá de yí gè ": 5979,
  " yòng yú ": 5980,
  "OS": 5981,
  "gǔ dài ": 5982,
  " míng dān ": 5983,
  "zhèn qū de ": 5984,
  "gǎi míng wèi ": 5985,
  "lái yuè ": 5986,
  "ní ěr ": 5987,
  "néng liàng ": 5988,
  "sǐ wáng": 5989,
  " de chéng jì ": 5990,
  " 1949 nián ": 5991,
  "kū ": 5992,
  " píng jūn ": 5993,
  "   qí tā ": 5994,
  "nán de ": 5995,
  " ér gāi ": 5996,
  "biǎo yǎn": 5997,
  "kěn": 5998,
  " qī jiān ": 5999,
  "tiáo zhěng": 6000,
  "běi jīng shì ": 6001,
  "ik": 6002,
  "nè": 6003,
  "   jí ": 6004,
  "2004 nián ": 6005,
  "fēng xiǎn ": 6006,
  "tū pò ": 6007,
  "bó shì xué wèi ": 6008,
  "yuè zhōng ": 6009,
  "shān jī ": 6010,
  "2001 nián ": 6011,
  "jiào táng": 6012,
  "yóu jī ": 6013,
  " de xíng ": 6014,
  "nǚ xìng": 6015,
  "guì zú ": 6016,
  " shēng yú ": 6017,
  "zhāi ": 6018,
  "zǎo qī": 6019,
  " zhào": 6020,
  " dé yǔ ": 6021,
  " qí hòu": 6022,
  " rén mín zhèng fǔ ": 6023,
  "wú zhèng zhuàng gǎn rǎn ": 6024,
  "ái ": 6025,
  "niáng ": 6026,
  " hé pàn ": 6027,
  "shōu gòu ": 6028,
  "ēn shěng ": 6029,
  " yī zuò ": 6030,
  " xiǎng nián ": 6031,
  "xué huì ": 6032,
  "lián xù": 6033,
  "cháng wěi ": 6034,
  "huó yuè ": 6035,
  "cháng wù ": 6036,
  "hù lián ": 6037,
  "què zhěn bìng lì ": 6038,
  "shòu de ": 6039,
  "ān nà": 6040,
  "zhǔ yào de ": 6041,
  "yǐ jīng ": 6042,
  "dān de ": 6043,
  " bù sī ": 6044,
  "suǒ yǒu de ": 6045,
  "bào zhà ": 6046,
  "gài niàn": 6047,
  "kè chéng ": 6048,
  "lìng rén ": 6049,
  "shōu jí ": 6050,
  "fù zé": 6051,
  " měi gè ": 6052,
  " hǎi": 6053,
  " bù lì ": 6054,
  "guān chá ": 6055,
  "tí jí ": 6056,
  " shì mín ": 6057,
  " wèi yú zhōng guó ": 6058,
  "sāi ěr wéi ": 6059,
  "5 mǐ ": 6060,
  "cáo ": 6061,
  " yán": 6062,
  "duǒ": 6063,
  "huì zhōng ": 6064,
  "rèn wèi ": 6065,
  "xiě de ": 6066,
  "wéi ěr ": 6067,
  "dìng jū ": 6068,
  " bǐ rú ": 6069,
  "kùn nán ": 6070,
  "28 ": 6071,
  " de dì èr ": 6072,
  " tōng cháng": 6073,
  " shì xī ": 6074,
  " jí rén ": 6075,
  " lì fǎ": 6076,
  "zhǔ yǎn ": 6077,
  "gh": 6078,
  "nú": 6079,
  " chéng rén ": 6080,
  "zú qiú yùn dòng yuán ": 6081,
  " chuàng ": 6082,
  "xìn yǎng ": 6083,
  " tóng shí gāi dì ": 6084,
  " 1999 nián ": 6085,
  " héng ": 6086,
  " jī sī ": 6087,
  "biān jiè ": 6088,
  "wán zhěng": 6089,
  " tián ": 6090,
  "shěng de ": 6091,
  "bēi sī ": 6092,
  "jiě fàng ": 6093,
  "II": 6094,
  "huì zhì ": 6095,
  " rì yú ": 6096,
  "qiáng liè ": 6097,
  "zhuī sù": 6098,
  "dāng nián ": 6099,
  "2005 nián ": 6100,
  " jī chǎng": 6101,
  " kǎi": 6102,
  " hòu zhě ": 6103,
  " bìng dú ": 6104,
  "nèi lù shěng fèn ": 6105,
  "kē xué jiā ": 6106,
  "tú xíng ": 6107,
  "zhǔ jiào": 6108,
  "n de ": 6109,
  " bàn ": 6110,
  "zhú bù ": 6111,
  " dì sì": 6112,
  "wá ": 6113,
  " jí dì ": 6114,
  " kè xī ": 6115,
  "gǒu ": 6116,
  "shān de ": 6117,
  " bù shǎo ": 6118,
  "jiǎn shǎo": 6119,
  "hēng lì ": 6120,
  " huǒ ": 6121,
  " nǐ ": 6122,
  "suí jí ": 6123,
  "fāng fǎ": 6124,
  "zuì gāo de ": 6125,
  "yà měi ": 6126,
  "lián hé huì ": 6127,
  "xūn zhāng ": 6128,
  " zhuāng ": 6129,
  " èr shí ": 6130,
  "dāng zhōng ": 6131,
  "chāo yuè ": 6132,
  "sān jiǎo": 6133,
  "liáo níng ": 6134,
  "57": 6135,
  " Z": 6136,
  "ér tóng ": 6137,
  "zuò chū ": 6138,
  "píng tái ": 6139,
  "shān qū ": 6140,
  " xī bān yá ": 6141,
  " jù": 6142,
  "hǎi píng miàn ": 6143,
  "céng wèi ": 6144,
  " zài 197": 6145,
  " shí qī de ": 6146,
  " guó nèi ": 6147,
  "xiàng zhēng ": 6148,
  "xià lìng shí jiān ": 6149,
  "   1 ": 6150,
  "bèi de ": 6151,
  "bú dào ": 6152,
  "zhǐ néng ": 6153,
  "yí dìng": 6154,
  " zhè zhǒng": 6155,
  "fēi cháng": 6156,
  "shuāng fāng ": 6157,
  "66": 6158,
  " dé zhǔ ": 6159,
  "fā qǐ ": 6160,
  "zhuǎn xiàng ": 6161,
  "huī fù": 6162,
  "guò de ": 6163,
  " yuán xíng ": 6164,
  "shī qù": 6165,
  "wǔ zhuāng": 6166,
  " tào ": 6167,
  "zòng": 6168,
  " jiǔ": 6169,
  "shū zhōng ": 6170,
  " jī huì ": 6171,
  "tí yì ": 6172,
  "zì rán": 6173,
  "tái nán": 6174,
  "jìng nèi gòng yǒu ": 6175,
  "IC": 6176,
  "fén ": 6177,
  " xún ": 6178,
  " lì liàng ": 6179,
  "ní yà zhōu ": 6180,
  "32 ": 6181,
  "xù lì yà ": 6182,
  "   bèi jǐng ": 6183,
  " yāo qiú ": 6184,
  " yī lì ": 6185,
  " zài shí ": 6186,
  " gōng zhòng ": 6187,
  "zhāng zhuān jí ": 6188,
  "AC": 6189,
  " wò": 6190,
  "miè": 6191,
  " hé yuē ": 6192,
  " ér zi ": 6193,
  "   2006 nián ": 6194,
  "cuò shī ": 6195,
  "féng": 6196,
  "pī zhǔn": 6197,
  " hào": 6198,
  "xiàn de ": 6199,
  "píng wèi ": 6200,
  "qīn zì ": 6201,
  " yǐ wéi ": 6202,
  "duō zhǒng ": 6203,
  "yīng gé lán": 6204,
  " sōu ": 6205,
  "jiā yì ": 6206,
  "lán de ": 6207,
  "zhǐ dǎo ": 6208,
  " wán jiā ": 6209,
  "zì de ": 6210,
  "huì yì yuán ": 6211,
  "fú de ": 6212,
  "guān chá": 6213,
  " xué yuàn": 6214,
  "shēn dù ": 6215,
  " zuì chū ": 6216,
  "yāo qǐng": 6217,
  "   dì fāng zī liào ": 6218,
  "DT ": 6219,
  "měng ": 6220,
  " yǒu suǒ ": 6221,
  "gòu de ": 6222,
  "ná xià ": 6223,
  " chū kǒu ": 6224,
  "   jiǎn jiè ": 6225,
  "luó lǐ ": 6226,
  "dī yú ": 6227,
  " hòu bèi ": 6228,
  "nán jīng": 6229,
  " tā céng dài biǎo ": 6230,
  "lái yīn ": 6231,
  " xué jiā ": 6232,
  " cāo ": 6233,
  "mā ": 6234,
  " yuē": 6235,
  "duò": 6236,
  "néng yuán ": 6237,
  "fā shēng zài ": 6238,
  "gǎi biàn": 6239,
  " dōng běi ": 6240,
  "dí shì ": 6241,
  " shì yīn wèi ": 6242,
  " dì lǐ ": 6243,
  " xiàn fǎ ": 6244,
  "dà bù ": 6245,
  "lǐ hé ": 6246,
  "tái zhōng ": 6247,
  " shí xíng ": 6248,
  " chéng zhèn ": 6249,
  "cè liáng ": 6250,
  "jià shǐ ": 6251,
  " shí jì shàng ": 6252,
  " shēng yá ": 6253,
  "dí rén ": 6254,
  " xiǎo": 6255,
  "shāng rén ": 6256,
  " yǐ xī ": 6257,
  " xī jiē ": 6258,
  "ān pái": 6259,
  "   17": 6260,
  "pài chū ": 6261,
  "zhù zhái ": 6262,
  "děng děng ": 6263,
  " nu": 6264,
  " zhōng guó rén mín jiě fàng jūn ": 6265,
  "jiāng zài ": 6266,
  " zhèng míng ": 6267,
  "ER": 6268,
  "què de ": 6269,
  "la ": 6270,
  "lā dīng": 6271,
  "ān shì ": 6272,
  "tí chū de ": 6273,
  "xuǎn zhōng ": 6274,
  "00 mǐ ": 6275,
  "gàn bù ": 6276,
  "suǒ cǎi yòng": 6277,
  " kěn ": 6278,
  " dà xué de ": 6279,
  "hǎi bá wèi ": 6280,
  "měi zhōu": 6281,
  " dì yí gè ": 6282,
  " yì qíng ": 6283,
  "kāi tōng ": 6284,
  " xié ": 6285,
  "kāi shè ": 6286,
  "biāo běn ": 6287,
  "zàn shí ": 6288,
  " dì qī ": 6289,
  " lì yì ": 6290,
  "chāi chú ": 6291,
  " de shì jiè ": 6292,
  "NB": 6293,
  "féi ": 6294,
  "xiū gǎi ": 6295,
  "nóng mín ": 6296,
  "táo tài ": 6297,
  "z ": 6298,
  " zhōng guó de ": 6299,
  "jī gòu ": 6300,
  "yán sè ": 6301,
  "chuán bō ": 6302,
  "suǒ zài dì ": 6303,
  " dé míng ": 6304,
  "TV": 6305,
  " tí gōng ": 6306,
  "shuǐ lì ": 6307,
  "tài dù ": 6308,
  "tóu piào": 6309,
  " shǔ": 6310,
  " xiǎng ": 6311,
  "le zài ": 6312,
  "fā míng ": 6313,
  " qí wèi ": 6314,
  "wén de ": 6315,
  "zhōng yāng ": 6316,
  "chǎng suǒ ": 6317,
  "wáng shì ": 6318,
  "wū sī ": 6319,
  "zī běn ": 6320,
  "ā lā bó": 6321,
  "78": 6322,
  "jué shì ": 6323,
  "róng hé ": 6324,
  " rán ér": 6325,
  "qiào ": 6326,
  "jiù huì ": 6327,
  "xiū jiàn ": 6328,
  "zhí zhèng ": 6329,
  "jǔ bàn de ": 6330,
  "mò xī gē": 6331,
  "bàn shì chù ": 6332,
  "53": 6333,
  " 25": 6334,
  " diàn yǐng ": 6335,
  "shuài": 6336,
  "jìng jì ": 6337,
  " qǔ ": 6338,
  "   2 ": 6339,
  "diàn jī ": 6340,
  " mí": 6341,
  "xiāo fèi ": 6342,
  " liù ": 6343,
  "jiù dú ": 6344,
  "shāng yè": 6345,
  " kǒng ": 6346,
  "qī wèi ": 6347,
  " yīng": 6348,
  "pèi zhì ": 6349,
  "gōng gòng ": 6350,
  "zhǎng dá ": 6351,
  "gé lā ": 6352,
  "jìng xuǎn ": 6353,
  "56": 6354,
  " huá": 6355,
  " xì ": 6356,
  "qū shì ": 6357,
  "wéi sī ": 6358,
  "guō": 6359,
  "huà zhōng ": 6360,
  "00 rén ": 6361,
  "fù zhǔ rèn ": 6362,
  " kān ": 6363,
  "shān fēng ": 6364,
  "diào kuài": 6365,
  "tor": 6366,
  " yǔ qí tā ": 6367,
  "jīng shén": 6368,
  "qiáng diào ": 6369,
  "zhí yè shēng yá ": 6370,
  " dǎo ": 6371,
  "shǒu zhōng ": 6372,
  "luǎn ": 6373,
  "zào le ": 6374,
  "26 ": 6375,
  " wèi UTC ": 6376,
  " cn ": 6377,
  " máng ": 6378,
  "na": 6379,
  "zhě shì ": 6380,
  "chéng hé ": 6381,
  "qiú jì ": 6382,
  " rén men": 6383,
  "jīn róng ": 6384,
  "zǔ zhī de ": 6385,
  "shuài lǐng": 6386,
  " āi": 6387,
  "biān hào ": 6388,
  "diào kuài yī xiǎo shí ": 6389,
  " jiù shì ": 6390,
  "liù shí ": 6391,
  " dà jiǎng ": 6392,
  "zhí mín ": 6393,
  " sūn": 6394,
  " běi jīng": 6395,
  "kē xué yuàn ": 6396,
  "dá ěr ": 6397,
  " jí UTC ": 6398,
  "shè yǒu xià lìng shí jiān ": 6399,
  " de shí qū wèi UTC ": 6400,
  " ér gāi dì suǒ cǎi yòng": 6401,
  " tóng shí gāi dì shè yǒu xià lìng shí jiān ": 6402,
  " ér gāi dì suǒ cǎi yòng de shí qū wèi UTC ": 6403,
  " lù": 6404,
  "zhǎn lǎn ": 6405,
  "ric": 6406,
  " yī sī lán ": 6407,
  " è ": 6408,
  " pò ": 6409,
  "yuán zhù ": 6410,
  " gāi cūn ": 6411,
  "zhǔ zhāng ": 6412,
  " yīn sù ": 6413,
  "zhī jiān de ": 6414,
  "mǎ kè ": 6415,
  "tǐ zhì ": 6416,
  "zhú jiàn": 6417,
  " cán ": 6418,
  " lì shǐ shàng ": 6419,
  " lìng yǒu ": 6420,
  "gāo yú hǎi píng miàn ": 6421,
  "AN": 6422,
  "tū rán ": 6423,
  "xìng bié ": 6424,
  "4 gè ": 6425,
  "is   ": 6426,
  " pà": 6427,
  "   jiāo tōng ": 6428,
  "xìng wèi ": 6429,
  "hù xiāng ": 6430,
  " bù duì": 6431,
  " gōng jué ": 6432,
  "diàn qì ": 6433,
  "zī liào": 6434,
  "wàn měi yuán ": 6435,
  " xī lán ": 6436,
  "yí dài ": 6437,
  " tóng yàng": 6438,
  "tā men de ": 6439,
  "   duì ": 6440,
  "shàng xiàn ": 6441,
  "zhí wù": 6442,
  "suǒ chù de hǎi bá wèi ": 6443,
  "suǒ chù de hǎi bá wèi gāo yú hǎi píng miàn ": 6444,
  " bù jí ": 6445,
  " zhōng shān ": 6446,
  " shí wù ": 6447,
  " qí xià ": 6448,
  "qiān shǔ ": 6449,
  " kāng ": 6450,
  "zhòng shì ": 6451,
  "zūn": 6452,
  "shǐ jiàn yú ": 6453,
  "rèn de ": 6454,
  "dōng fāng ": 6455,
  "bì yè hòu ": 6456,
  "gǎi zào ": 6457,
  "43": 6458,
  "nd": 6459,
  "diàn chē ": 6460,
  "xiào qū ": 6461,
  "zhù yǒu ": 6462,
  "all": 6463,
  "rǔ": 6464,
  "rěn ": 6465,
  "   qí": 6466,
  "   qīng ": 6467,
  "fā xiàn de ": 6468,
  "kě zài ": 6469,
  " zhī yì ": 6470,
  " qí shí ": 6471,
  "tè dìng ": 6472,
  "   190": 6473,
  "wēng ": 6474,
  "nèi dì ": 6475,
  "èr jí ": 6476,
  "...": 6477,
  "igh": 6478,
  "zhí mín dì ": 6479,
  " wēi": 6480,
  "fā shè": 6481,
  "gé shì ": 6482,
  "shǒu xiàng ": 6483,
  " zhǔ xí ": 6484,
  "ob": 6485,
  "luò chéng ": 6486,
  "shí qū ": 6487,
  "bǎo liú": 6488,
  " máng": 6489,
  "   gāi": 6490,
  "jiàn chéng ": 6491,
  "píng yuán ": 6492,
  "děng jí ": 6493,
  "gēng xīn ": 6494,
  "yùn yòng ": 6495,
  " jié guǒ": 6496,
  "   mǎ ": 6497,
  "hòu wèi ": 6498,
  "gǔn ": 6499,
  " bù néng": 6500,
  " yī jiā ": 6501,
  "yùn shū": 6502,
  " tǔ ": 6503,
  " lì rèn ": 6504,
  " wèi yú gāi ": 6505,
  "   rán": 6506,
  " méi": 6507,
  " shuō ": 6508,
  " wǎ ": 6509,
  " bù jǐn ": 6510,
  "píng lùn": 6511,
  "xiá qū ": 6512,
  "   běn": 6513,
  "bāo wéi ": 6514,
  "hǎi yáng ": 6515,
  " guō ": 6516,
  "xué yuán ": 6517,
  " ér tóng ": 6518,
  " 1997 nián ": 6519,
  " zhuǎn": 6520,
  "ào zhōu ": 6521,
  " zì rán ": 6522,
  "dāng dì de ": 6523,
  "xīn jiā pō": 6524,
  "nèn": 6525,
  "shī qù ": 6526,
  "zhèn qū de miàn jī wèi ": 6527,
  "   yīn ": 6528,
  "yán hǎi ": 6529,
  " suí zhù ": 6530,
  "59": 6531,
  " wán ": 6532,
  "jìn bù ": 6533,
  "liǎng wèi ": 6534,
  "fū kǎ ": 6535,
  " hǔ ": 6536,
  "dǎn ": 6537,
  "kǔ ": 6538,
  " chá ": 6539,
  "bō sī ": 6540,
  "jú de ": 6541,
  " xué zhě ": 6542,
  " xíng zhèng qū ": 6543,
  "jiào yù bù ": 6544,
  "liǎng cì ": 6545,
  "xìn yǎng": 6546,
  "duì qí ": 6547,
  "èr rén ": 6548,
  " tā yǐ ": 6549,
  " yuán zì ": 6550,
  "jìng zhēng ": 6551,
  "am ": 6552,
  "1 gè ": 6553,
  " zuò chū ": 6554,
  "rú guǒ ": 6555,
  "lìng yí gè ": 6556,
  "69": 6557,
  " duì shǒu ": 6558,
  "fǎn huí": 6559,
  "to   ": 6560,
  " Y": 6561,
  " miàn ": 6562,
  "jiā yǐ ": 6563,
  "zuì chū": 6564,
  "biān yuán ": 6565,
  " zhōu cì shǐ ": 6566,
  "quán qiú": 6567,
  "qì chē": 6568,
  "xiāo shī ": 6569,
  " 9 ": 6570,
  "jì yǒu ": 6571,
  "suǒ wèi ": 6572,
  "miàn shàng ": 6573,
  " zài 196": 6574,
  " dì qiú": 6575,
  " cài": 6576,
  "cái néng ": 6577,
  "zào chéng de ": 6578,
  " de bù fèn ": 6579,
  " róng ": 6580,
  "cì yú ": 6581,
  "liǎng guó ": 6582,
  " yī jù ": 6583,
  " xī là": 6584,
  " lǐ xī ": 6585,
  "cháng dù ": 6586,
  "tián jìng ": 6587,
  "xuān chuán": 6588,
  "dǒng shì zhǎng ": 6589,
  "rào": 6590,
  " yíng ": 6591,
  "yì shù ": 6592,
  "Tub": 6593,
  "chuī ": 6594,
  "shī gōng ": 6595,
  "xiāng guān de ": 6596,
  " de yǐng xiǎng ": 6597,
  "chóng qìng": 6598,
  " 1994 nián ": 6599,
  "jùn gōng ": 6600,
  "hūn yīn ": 6601,
  " dé zhī ": 6602,
  " jī jīn huì ": 6603,
  "jiē duàn": 6604,
  "lí kāi": 6605,
  "xiào lì yú ": 6606,
  "IS": 6607,
  "guó jiā": 6608,
  "quē fá": 6609,
  "ā lā bó ": 6610,
  "31 ": 6611,
  " 12 ": 6612,
  "suān": 6613,
  "píng de ": 6614,
  "duì zhǎng ": 6615,
  " lǐ yà ": 6616,
  "kǎ luó ": 6617,
  "tǐ yù chǎng ": 6618,
  "AP": 6619,
  " táo ": 6620,
  "zhàn shí ": 6621,
  "xīn chéng ": 6622,
  " 1992 nián ": 6623,
  "wěi yuán huì wěi yuán ": 6624,
  " jié kè ": 6625,
  "ài ěr lán ": 6626,
  " dì liù ": 6627,
  " ěr duō ": 6628,
  " réng": 6629,
  "guān jiàn ": 6630,
  " de xī ": 6631,
  " jí dà ": 6632,
  " yì yú ": 6633,
  "bèi jǐng ": 6634,
  " 2 yuè ": 6635,
  "jì niàn": 6636,
  "shū yuàn ": 6637,
  "fèn zǐ": 6638,
  "jiàng lǐng ": 6639,
  "79": 6640,
  "f ": 6641,
  "ss": 6642,
  " wèi dà ": 6643,
  "kuì ": 6644,
  "pǎo": 6645,
  "   shèng ": 6646,
  "diǎn shì ": 6647,
  "27 ": 6648,
  " zhì liàng ": 6649,
  "jū zhù zài ": 6650,
  " zhān ": 6651,
  " yú 2016 nián ": 6652,
  "jiào dà ": 6653,
  "sān míng ": 6654,
  "pèi yīn ": 6655,
  " mǎ lái": 6656,
  "cāng": 6657,
  " shí duàn ": 6658,
  " qí de ": 6659,
  " sī kè": 6660,
  "jié dù ": 6661,
  "88": 6662,
  "zhè shì ": 6663,
  "gāo xióng": 6664,
  "mián ": 6665,
  " yú lè": 6666,
  "tiān tǐ ": 6667,
  "   2005 nián ": 6668,
  "chuán tǒng de ": 6669,
  "zāi péi ": 6670,
  "pìn ": 6671,
  "bàn de ": 6672,
  "tuī chū": 6673,
  " zhì zuò de ": 6674,
  "dōng běi": 6675,
  "bō lí ": 6676,
  "fèi chú ": 6677,
  "ba ": 6678,
  "   nán ": 6679,
  "   jǐn ": 6680,
  "zì wèi ": 6681,
  " xiàn yǐ ": 6682,
  "péi": 6683,
  " fèng ": 6684,
  " jiàn shè": 6685,
  " pà ": 6686,
  "ch ": 6687,
  "zhèn de ": 6688,
  " qí zhōng bāo kuò ": 6689,
  " 1996 nián ": 6690,
  "lan": 6691,
  "pán": 6692,
  "shù shí ": 6693,
  "huì zhǎng ": 6694,
  " dāng shí de ": 6695,
  "si ": 6696,
  "bō shì ": 6697,
  "fā dòng jī ": 6698,
  "fù hé ": 6699,
  "lián de ": 6700,
  "lā jī ": 6701,
  "tíng chē ": 6702,
  "quán xiàn ": 6703,
  "xiū fù ": 6704,
  " dì diǎn ": 6705,
  " bìng yóu ": 6706,
  "chái ": 6707,
  " dé sī ": 6708,
  " wéi ěr": 6709,
  "ào mén": 6710,
  "cūn luò ": 6711,
  "   dì èr ": 6712,
  " yú 2015 nián ": 6713,
  "zú qiú jù lè bù ": 6714,
  "fú lì ": 6715,
  "qǐ yuán ": 6716,
  "nèi zhàn ": 6717,
  " guó wù yuàn ": 6718,
  "ké ": 6719,
  " lǔ ": 6720,
  "lǐ chéng ": 6721,
  "shī rén ": 6722,
  "fā qǐ": 6723,
  "tè xìng ": 6724,
  "mǎn zú ": 6725,
  " bù bù zhǎng ": 6726,
  "bìng bù ": 6727,
  "diāo": 6728,
  " dà lóu": 6729,
  " zhèng zhì ": 6730,
  " dì dài ": 6731,
  " zhì dì ": 6732,
  "dà lù": 6733,
  "qú ": 6734,
  " chēng": 6735,
  "xī hé ": 6736,
  " jù lí": 6737,
  "zhuàn de ": 6738,
  "wěi fù ": 6739,
  " pì": 6740,
  " yù shǐ ": 6741,
  " yú 2021 nián ": 6742,
  "ear": 6743,
  " yǐ wài ": 6744,
  "jiān dū ": 6745,
  " wéi sī ": 6746,
  "tuán tǐ": 6747,
  " lài ": 6748,
  "sì de ": 6749,
  "dōu bèi ": 6750,
  "mǔ de ": 6751,
  "fū de ": 6752,
  "jiāo liú": 6753,
  " shì dé guó ": 6754,
  " yǔ yán": 6755,
  "shǐ shàng ": 6756,
  "zì mǔ ": 6757,
  "wú zhèng zhuàng gǎn rǎn zhě ": 6758,
  "tiē": 6759,
  "xìng hé ": 6760,
  "láng zhōng ": 6761,
  " shì gōng ": 6762,
  " bù bīng ": 6763,
  " xíng mù ": 6764,
  " jù jué ": 6765,
  "pài qiǎn ": 6766,
  " luó": 6767,
  " xiè": 6768,
  " 11 ": 6769,
  "bǎi nián ": 6770,
  "luò fá": 6771,
  "YouTub": 6772,
  "hào xiàn": 6773,
  "our": 6774,
  "   de": 6775,
  "xī dì ": 6776,
  " shì yī bù ": 6777,
  " chéng kè ": 6778,
  " yǔ yī ": 6779,
  "qī zǐ": 6780,
  " zhōu fǔ ": 6781,
  "cǎi qǔ": 6782,
  " 1993 nián ": 6783,
  " hé dào ": 6784,
  " yú 2012 nián ": 6785,
  " yú 2018 nián ": 6786,
  "xiě zuò ": 6787,
  "hěn kuài ": 6788,
  " 24": 6789,
  " wèi yú měi guó ": 6790,
  " nuò ": 6791,
  "wù shì ": 6792,
  "jiān rèn ": 6793,
  " fù jìn": 6794,
  "diàn shì tái": 6795,
  "miǎn fèi ": 6796,
  "bàng qiú ": 6797,
  "jiān yù ": 6798,
  " dān": 6799,
  "liàng wèi ": 6800,
  "jiǎ dì ": 6801,
  "zǒu xiàng ": 6802,
  " lǐ kè ": 6803,
  "líng chén ": 6804,
  "gǎo": 6805,
  "   5": 6806,
  "zōng yì ": 6807,
  " zài hé ": 6808,
  " yī yuàn": 6809,
  "ǒu xiàng ": 6810,
  "33 ": 6811,
  "ON": 6812,
  "ong": 6813,
  " 20 ": 6814,
  "hòu yì ": 6815,
  "nà de ": 6816,
  "zuò wéi": 6817,
  "   gè rén ": 6818,
  "zǒng rén kǒu ": 6819,
  "yìn ní ": 6820,
  "qī shí ": 6821,
  "kǎo shì ": 6822,
  "sū gé lán ": 6823,
  "nì": 6824,
  " zhēng ": 6825,
  " wéi chí": 6826,
  "lián jiē": 6827,
  "zhǔ yì zhě ": 6828,
  " yú 2014 nián ": 6829,
  "pp": 6830,
  "kōng qì ": 6831,
  "wú xiàn diàn shì ": 6832,
  " sī lìng bù ": 6833,
  "wǔ shì ": 6834,
  "guǎng chǎng": 6835,
  " 1945 nián ": 6836,
  "guó shì ": 6837,
  "gǔ lì ": 6838,
  " jī chǔ": 6839,
  "cán": 6840,
  "shǐ rén ": 6841,
  "jiù yuán ": 6842,
  "jīng diǎn ": 6843,
  "zhān mǔ sī ": 6844,
  "cáng": 6845,
  "ark": 6846,
  "77": 6847,
  "zé zài ": 6848,
  "tiān hòu ": 6849,
  "te ": 6850,
  " wèi fú qí yú gāng ": 6851,
  " táng": 6852,
  " yún ": 6853,
  "chē duì ": 6854,
  "bì de ": 6855,
  "mài kè ": 6856,
  "bèi chēng wéi ": 6857,
  "shān mài ": 6858,
  "guà": 6859,
  "hù bù ": 6860,
  "wǎ ěr shěng ": 6861,
  " yuán běn": 6862,
  " chū dào ": 6863,
  "bí ": 6864,
  "shōu dào ": 6865,
  "re ": 6866,
  " shì huì ": 6867,
  "guǎn lǐ jú ": 6868,
  " fā xiàn ": 6869,
  " zá zhì ": 6870,
  "huí yì ": 6871,
  " gōng lǐ de ": 6872,
  " ěr shì ": 6873,
  "dōng jīng": 6874,
  " zuò zhàn ": 6875,
  "shào nǚ ": 6876,
  "hōng zhà": 6877,
  "guǎn zhì ": 6878,
  " míng zhì ": 6879,
  "yán rén ": 6880,
  "xiǎn zhù ": 6881,
  "guó wù ": 6882,
  " xiàn chéng ": 6883,
  "yǐn yòng ": 6884,
  "xún zhǎo ": 6885,
  "wàng yuǎn ": 6886,
  "jī zài ": 6887,
  "guò le ": 6888,
  "wéi zhǔ ": 6889,
  " yú 2017 nián ": 6890,
  " shí yàn shì ": 6891,
  "dù hé ": 6892,
  "xiū dào ": 6893,
  " dì tiě": 6894,
  " dà gōng ": 6895,
  "ell": 6896,
  "95": 6897,
  "lěng": 6898,
  "gǎi shàn ": 6899,
  " kǎ": 6900,
  "zhuā ": 6901,
  " jí shǐ ": 6902,
  "luò shān jī ": 6903,
  "jiǎo dù ": 6904,
  " lǚ ": 6905,
  "   rén ": 6906,
  "ào ěr ": 6907,
  " dì fāng": 6908,
  "chē xiāng ": 6909,
  " xiān": 6910,
  " lián hé ": 6911,
  " dì tú ": 6912,
  " yú 193": 6913,
  " yòng": 6914,
  " 23": 6915,
  "2025 nián ": 6916,
  "zuǒ yì ": 6917,
  " nián   ": 6918,
  " chéng běn ": 6919,
  "zhǔ tí": 6920,
  " ér fēi ": 6921,
  " zuì jiā ": 6922,
  " yì shì ": 6923,
  " xú ": 6924,
  "dì hé ": 6925,
  "jiā tíng ": 6926,
  " xíng dòng": 6927,
  "lǎn": 6928,
  "shè bèi ": 6929,
  " wèi yuán ": 6930,
  "gé lí ": 6931,
  "mù de ": 6932,
  "zǔ de ": 6933,
  "yuàn yì ": 6934,
  " yuè duì ": 6935,
  " yì jiàn ": 6936,
  "kōng jiān": 6937,
  "zhèng fǔ de ": 6938,
  "sǎn ": 6939,
  "tī": 6940,
  " yí gè": 6941,
  "   dāng ": 6942,
  "biǎn": 6943,
  " jūn qū ": 6944,
  "jǐng gào ": 6945,
  "   chū ": 6946,
  "yú hé ": 6947,
  "shān xiàn ": 6948,
  "céng de ": 6949,
  "jiǔ de ": 6950,
  " xiàn jí ": 6951,
  " dài": 6952,
  " suō ": 6953,
  "shàng bù ": 6954,
  "Sta": 6955,
  "dǎo shàng ": 6956,
  "fàng zài ": 6957,
  " kè ěr ": 6958,
  "cí zhí ": 6959,
  "wài jiāo bù ": 6960,
  "mò sī kē ": 6961,
  "   sī ": 6962,
  "cǐ tóng shí ": 6963,
  "gòu mǎi": 6964,
  "u ": 6965,
  " bǎ": 6966,
  "kāi gōng ": 6967,
  "tōng zhī ": 6968,
  "bì miǎn": 6969,
  "76": 6970,
  " gē": 6971,
  "yán zhì ": 6972,
  "liú yù ": 6973,
  "liè rù ": 6974,
  " fú jiàn ": 6975,
  " xián ": 6976,
  "th ": 6977,
  "   zhèng ": 6978,
  "188": 6979,
  "huàn zhě ": 6980,
  " kù ": 6981,
  "jǐn yǒu ": 6982,
  "shǒu dū": 6983,
  "cān xuǎn ": 6984,
  "é luó sī de ": 6985,
  "róu ": 6986,
  "kǒu de ": 6987,
  " zhī shì ": 6988,
  "fù jìn": 6989,
  "98": 6990,
  "yp": 6991,
  " zhāo hé ": 6992,
  " néng ": 6993,
  "qīn wáng ": 6994,
  "chuàng zuò de ": 6995,
  " yú 2013 nián ": 6996,
  " wǒ men": 6997,
  " shān dōng ": 6998,
  "zhēng yuè ": 6999,
  "cí de ": 7000,
  "jī chǔ": 7001,
  "chù zhǎng ": 7002,
  "shuāng dǎ ": 7003,
  " 1995 nián ": 7004,
  "sàng ": 7005,
  " cān yù ": 7006,
  "cóng wèi ": 7007,
  "qiáng zhì ": 7008,
  "lǐ lùn": 7009,
  "ān zhuāng ": 7010,
  "guān fāng": 7011,
  "dòng huà": 7012,
  " yú 2022 nián ": 7013,
  "gā ": 7014,
  "bì miǎn ": 7015,
  " luó mǎ ": 7016,
  "tí chū le ": 7017,
  " 29": 7018,
  "xué zhōng ": 7019,
  "fēng fù ": 7020,
  " gè guó ": 7021,
  "chōng tū": 7022,
  " hù ": 7023,
  "fù shì ": 7024,
  "shān dì ": 7025,
  " zài 194": 7026,
  " dé lā ": 7027,
  "00 mǐ": 7028,
  " B ": 7029,
  "   bā ": 7030,
  "sī shì ": 7031,
  "shèng chū ": 7032,
  "ā gēn ": 7033,
  "yǐn rù ": 7034,
  "zhào piān ": 7035,
  "yǐng shì ": 7036,
  "cǎi fǎng": 7037,
  "   gù shì ": 7038,
  " sī mǎ ": 7039,
  " pō": 7040,
  "mǎ lái xī yà": 7041,
  " liù": 7042,
  " bǎ ": 7043,
  "   10": 7044,
  " jī hū": 7045,
  "zhǎng guān ": 7046,
  " yīng wén ": 7047,
  "bó lín ": 7048,
  "xià zài ": 7049,
  "pīn ": 7050,
  "fā shēng de ": 7051,
  "huáng sè ": 7052,
  "bù de cūn zhuāng ": 7053,
  "   yǐ xià": 7054,
  "zàn zhù ": 7055,
  " yǒu xiē": 7056,
  "zōng jiào": 7057,
  "54": 7058,
  " xū ": 7059,
  "xiāng shì ": 7060,
  "guǎn de ": 7061,
  " yú 2019 nián ": 7062,
  "qiáng dù ": 7063,
  "shōu lù": 7064,
  " 1985 nián ": 7065,
  "   16": 7066,
  " yuè lái yuè ": 7067,
  "ah": 7068,
  "nù ": 7069,
  " 00": 7070,
  "jiā zài ": 7071,
  "sū wéi ": 7072,
  "jiàng yǔ ": 7073,
  "hǎi àn": 7074,
  " fù jìn de ": 7075,
  " dàn bái ": 7076,
  "gǔ lǎo": 7077,
  "xiǎo xíng xīng": 7078,
  "duō míng ": 7079,
  "qiáng de ": 7080,
  " yú 2020 nián ": 7081,
  " chéng xiàn": 7082,
  " rén dà ": 7083,
  " zhī dì ": 7084,
  "tài kōng ": 7085,
  "tíng kào ": 7086,
  "pāi shè": 7087,
  " jiǎ": 7088,
  "guàn jūn": 7089,
  " shí hòu ": 7090,
  "yuè nán ": 7091,
  " gōng yìng ": 7092,
  " zhī jiā ": 7093,
  " kè hé ": 7094,
  " bèi pò ": 7095,
  " sú ": 7096,
  " 2025 nián ": 7097,
  "láo dòng ": 7098,
  "38 ": 7099,
  " gè zhǒng": 7100,
  " 1990 nián ": 7101,
  "ection": 7102,
  "pēn ": 7103,
  " Q": 7104,
  "zǎo shàng ": 7105,
  " bù mǎn ": 7106,
  "zhàn tái ": 7107,
  " xiè ": 7108,
  "fēi xíng": 7109,
  "tóng xìng ": 7110,
  " fù zé guǎn xiá ": 7111,
  "36 ": 7112,
  "sān dà ": 7114,
  "hū yù ": 7115,
  " xī ěr ": 7116,
  "pǔ biàn": 7117,
  "huí guī ": 7118,
  "xuǎn jǔ zhōng ": 7119,
  "man": 7120,
  "liè chū ": 7121,
  " yī zhí ": 7122,
  "dī qì ": 7123,
  " bīng ": 7124,
  "tuǒ": 7125,
  "dùn de ": 7126,
  "sú": 7127,
  "àn shì ": 7128,
  "biān wèi ": 7129,
  "mò ěr ": 7130,
  "jì suàn": 7131,
  " xiàn shàng ": 7132,
  "xià lái ": 7133,
  "ani": 7134,
  "   wéi ": 7135,
  "lā de ": 7136,
  "lā dé ": 7137,
  "guǎng zhōu": 7138,
  "yín pái ": 7139,
  "shān dōng shěng ": 7140,
  "to": 7141,
  "shū chū ": 7142,
  " yóu jī ": 7143,
  "liǎo jiě ": 7144,
  " jué dìng ": 7145,
  " wàn lì ": 7146,
  "míng dān ": 7147,
  "xià jiàng ": 7148,
  "duì yuán ": 7149,
  "bǎo de ": 7150,
  "gǔ lā ": 7151,
  " ér gāi dì de ": 7152,
  "qián hòu ": 7153,
  "guó wáng ": 7154,
  "tiān rán ": 7155,
  " tiě ": 7156,
  "shì   ": 7157,
  "lán xī ": 7158,
  "zhì 199": 7159,
  " shí xiàn": 7160,
  "xiāng tóng de ": 7161,
  "zhǐ kòng ": 7162,
  "jiàn zhù": 7163,
  "omp": 7164,
  "et ": 7165,
  "sāng": 7166,
  "sān rén ": 7167,
  "bó jué ": 7168,
  "zǎo qī de ": 7169,
  " dìng ": 7170,
  "shí hé ": 7171,
  " jì lù": 7172,
  " jì yì ": 7173,
  "jù qíng ": 7174,
  " chū yǎn ": 7175,
  "xiāng bǐ ": 7176,
  "lián rèn ": 7177,
  "jìng nèi": 7178,
  "wǒ men": 7179,
  " 1991 nián ": 7180,
  "mín zhǔ dǎng": 7181,
  "qiú huì ": 7182,
  "bàn nián ": 7183,
  " jí bìng ": 7184,
  " kè lì ": 7185,
  "měi yuán de ": 7186,
  " yǐ sè liè ": 7187,
  "2002 nián ": 7188,
  " jiā lā ": 7189,
  "diàn nǎo": 7190,
  "fēn pèi ": 7191,
  "shòu quán ": 7192,
  "sēn lín": 7193,
  "at   ": 7194,
  "ex": 7195,
  "ich": 7196,
  "zhī shí ": 7197,
  "shéng ": 7198,
  "zāo yù ": 7199,
  " hé gǔ ": 7200,
  "cái liào": 7201,
  "pǎo ": 7202,
  "tè lì ": 7203,
  "duō gè": 7204,
  " chéng le ": 7205,
  " yǐ qián ": 7206,
  "xīng qī": 7207,
  "74": 7208,
  " gēn ": 7209,
  "tú de ": 7210,
  " shí bào ": 7211,
  "běi fāng ": 7212,
  " sàn": 7213,
  "yǔn shí ": 7214,
  " wèi néng": 7215,
  "tè lā ": 7216,
  " duì cǐ ": 7217,
  "jiē rèn ": 7218,
  "ay ": 7219,
  "sān gè": 7220,
  "mǎ lā ": 7221,
  "   gài yào ": 7222,
  "aw": 7223,
  "lòu ": 7224,
  " chuān ": 7225,
  " yáo ": 7226,
  "2003 nián ": 7227,
  "shǒu bō ": 7228,
  "BS": 7229,
  "fēn de ": 7230,
  " yǔ qí ": 7231,
  "duō cì": 7232,
  "shén me": 7233,
  "   fù ": 7234,
  " yī liáo ": 7235,
  "pǔ chá ": 7236,
  " yú 2023 nián ": 7237,
  " dèng ": 7238,
  "tǎ ěr ": 7239,
  "yán jiū shēng ": 7240,
  " 1950 nián ": 7241,
  "96": 7242,
  "hǔ": 7243,
  "wǎng shàng ": 7244,
  " xiàn yǒu ": 7245,
  "qīng shào nián ": 7246,
  "lǐng dǎo de ": 7247,
  "cān shù ": 7248,
  "tè ěr ": 7249,
  "piāo ": 7250,
  " jiā tíng": 7251,
  "qì xuán ": 7252,
  "shè huì": 7253,
  " 1988 nián ": 7254,
  " 15 ": 7255,
  "   zēng zǔ ": 7256,
  "yóu xíng ": 7257,
  "hǎo píng ": 7258,
  " zhōng jiān ": 7259,
  "ele": 7260,
  " jué ": 7261,
  "qíng de ": 7262,
  "nán zi": 7263,
  "chǎng bǐ sài ": 7264,
  "fáng wū ": 7265,
  "wán zhěng ": 7266,
  "shēng yá": 7267,
  " bèi ěr": 7268,
  " zhǔ yǎn ": 7269,
  " yí": 7270,
  "ān rén ": 7271,
  "chī": 7272,
  "tóng míng ": 7273,
  "tè yǒu ": 7274,
  " wèi zài ": 7275,
  " xíng bù ": 7276,
  " yuán yīn": 7277,
  "fù jìn de ": 7278,
  "tè zhēng": 7279,
  "shā sǐ ": 7280,
  "BC": 7281,
  " chuàng": 7282,
  " kǎo ": 7283,
  "mì de ": 7284,
  "pèi bèi ": 7285,
  " gōng néng": 7286,
  "2 mǐ ": 7287,
  " shā": 7288,
  "wén zhōng ": 7289,
  "dá zhōu ": 7290,
  " wéi rào ": 7291,
  " cáo": 7292,
  "qīng cháo ": 7293,
  "gǎi zhì wèi ": 7294,
  "   dì yī ": 7295,
  "85": 7296,
  "sēng ": 7297,
  " lái": 7298,
  " bǎo": 7299,
  "hé zài ": 7300,
  "gǎng yuán ": 7301,
  "bǎo luó ": 7302,
  "fèi yán ": 7303,
  " fǎ": 7304,
  " shǒu": 7305,
  "xīn shì ": 7306,
  "cún de ": 7307,
  "cān tīng ": 7308,
  "zhǐ de ": 7309,
  "děng de ": 7310,
  "lǜ sè ": 7311,
  "CO": 7312,
  "fú lǐ ": 7313,
  "wǔ gè ": 7314,
  "tài de ": 7315,
  "piàn de ": 7316,
  " zài xīn ": 7317,
  "fāng mǐ ": 7318,
  "xìng néng ": 7319,
  "yǐng xiàng ": 7320,
  "fèi yòng ": 7321,
  "ly": 7322,
  " bái": 7323,
  " sù ": 7324,
  " qīn ": 7325,
  "xù lì yà": 7326,
  "xíng tài ": 7327,
  "zàn tíng ": 7328,
  "W ": 7329,
  " zhì yí ": 7330,
  "dà qū ": 7331,
  "lián jié ": 7332,
  " zhè yàng ": 7333,
  "shěng jiē rǎng ": 7334,
  " láo": 7335,
  " xuǎn ": 7336,
  " guǎng dōng ": 7337,
  "sì shì ": 7338,
  "xī nán ": 7339,
  " jìn zhǐ ": 7340,
  "zhái": 7341,
  "shēn shì ": 7342,
  "zhuān yè": 7343,
  "gù dìng ": 7344,
  " wú fǎ ": 7345,
  "sān jí ": 7346,
  "zhě hé ": 7347,
  " bù shǎo": 7348,
  " dì 1 ": 7349,
  "tuī guǎng ": 7350,
  "zuì wèi ": 7351,
  " sī tǎ ": 7352,
  "jìng zhēng": 7353,
  "chū qī ": 7354,
  "7 yuè 1 rì ": 7355,
  "wū rǎn ": 7356,
  " hōng ": 7357,
  "tòng": 7358,
  " xiān hòu ": 7359,
  "shēn qǐng": 7360,
  "zhà dàn ": 7361,
  "mǎ kè sī ": 7362,
  "   jīn ": 7363,
  "zhě huì ": 7364,
  "wáng wèi ": 7365,
  " sī kē ": 7366,
  " shì yī kē ": 7367,
  " quán zhǎng ": 7368,
  " zài yì qǐ ": 7369,
  " shén": 7370,
  "huí guó ": 7371,
  "zhí shēng ": 7372,
  "xiāo liàng ": 7373,
  "chuàng zào ": 7374,
  "xì liè de ": 7375,
  " tài": 7376,
  " hú": 7377,
  "jiāng tā ": 7378,
  " shí xìng ": 7379,
  " dì zhèn ": 7380,
  "xīn wén": 7381,
  "tè diǎn ": 7382,
  "zhǎng zǐ ": 7383,
  " shè huì zhǔ yì ": 7384,
  " mài kè ": 7385,
  " zhòng": 7386,
  "fēn chéng ": 7387,
  "yìng jí ": 7388,
  "gāo dá ": 7389,
  " 185": 7390,
  "tǎo lùn": 7391,
  "lā hé ": 7392,
  "luò sī ": 7393,
  " bù lái ": 7394,
  " jí hòu ": 7395,
  " gōng qǐng ": 7396,
  "fú luó lǐ ": 7397,
  "wǔ qì": 7398,
  " shì jiè bēi ": 7399,
  " fǒu ": 7400,
  "chǎn shēng le ": 7401,
  "dǒng ": 7402,
  "   3 ": 7403,
  "lǜ de ": 7404,
  "fáng wèi ": 7405,
  " shè yú ": 7406,
  " shēng míng ": 7407,
  " guó jiā duì ": 7408,
  "tiě lù chē zhàn ": 7409,
  "iv": 7410,
  "oli": 7411,
  "xiā ": 7412,
  "guān cè ": 7413,
  "gèng duō de ": 7414,
  " shuāng fāng ": 7415,
  "37 ": 7416,
  " shěn ": 7417,
  "shuò ": 7418,
  "lǐ bù ": 7419,
  "tuī jiàn ": 7420,
  " zài tā de ": 7421,
  " lì shí ": 7422,
  " gōng gòng": 7423,
  "he": 7424,
  "nī": 7425,
  "lèi xíng de ": 7426,
  " tā céng ": 7427,
  "suǒ shǔ": 7428,
  " pán": 7429,
  "qǔ xiāo": 7430,
  " jiāng sū ": 7431,
  "jí bù ": 7432,
  "quán shì ": 7433,
  " nián líng ": 7434,
  " shì zhōng huá rén mín gòng hé guó ": 7435,
  "yǐng xiǎng lì ": 7436,
  "chōng jī ": 7438,
  "jīng jì": 7439,
  " xīn zēng ": 7440,
  "xié dìng ": 7441,
  "cǐ shí ": 7442,
  " dì zhì ": 7443,
  "wén huà de ": 7444,
  "   jiā tíng ": 7445,
  " wēi lián ": 7446,
  "hēng ": 7447,
  "àn zhōng ": 7448,
  "bìng wèi ": 7449,
  " fán": 7450,
  " 1989 nián ": 7451,
  " wài": 7452,
  "sì dà ": 7453,
  "zǒng huì ": 7454,
  "nà dé ": 7455,
  "bān de ": 7456,
  " lì shǔ ": 7457,
  "zhǔ xí": 7458,
  " píng lùn ": 7459,
  "yīng gāi": 7460,
  "300": 7461,
  "b ": 7462,
  " yī rén ": 7463,
  " jiā zú": 7464,
  "měi guó rén ": 7465,
  " section": 7466,
  " de zuò biāo wèi ": 7467,
  " X": 7468,
  " yǒng": 7469,
  "shēng zhì ": 7470,
  " dào hé ": 7471,
  " jì zǎi": 7472,
  "yán zhòng de ": 7473,
  "fāng xiàng": 7474,
  "mù ní ": 7475,
  "xué bù ": 7476,
  "yí dào ": 7477,
  " yú lèi ": 7478,
  " tóng pái ": 7479,
  "lèi sì de ": 7480,
  "34 ": 7481,
  "liú de ": 7482,
  "xuǎn chū ": 7483,
  "hái zài ": 7484,
  "zhí yè": 7485,
  "nóng cūn ": 7486,
  " fēn bié ": 7487,
  "ruì diǎn": 7488,
  "zèng": 7489,
  " hú nán ": 7490,
  "měi jūn ": 7491,
  "al   ": 7492,
  " nián qīng ": 7493,
  "dài lái ": 7494,
  "yě kě yǐ ": 7495,
  "nüè": 7496,
  " chōng ": 7497,
  " shì jì de ": 7498,
  " dào yī ": 7499,
  "yùn dòng de ": 7500,
  " céng rèn": 7501,
  "mer": 7502,
  "yì bù ": 7503,
  "chē liàng": 7504,
  " zì yóu": 7505,
  "jiǎn cè ": 7506,
  " tóng yàng ": 7507,
  " 1983 nián ": 7508,
  " zhǐ zài ": 7509,
  " chú": 7510,
  " 28": 7511,
  "   shǐ yòng ": 7512,
  " shí zhì ": 7513,
  "qiān yuē ": 7514,
  " zuì dà ": 7515,
  " kù": 7516,
  "hǎi shàng ": 7517,
  "bā ěr ": 7518,
  " shì fǒu": 7519,
  "guó huì ": 7520,
  "duì shǒu ": 7521,
  " tā rèn wéi ": 7522,
  " yú 2011 nián ": 7523,
  " dòng ": 7524,
  " xǔ duō": 7525,
  "jiā gōng ": 7526,
  "fù jiā ": 7527,
  "sǐ xíng ": 7528,
  "qìng zhù ": 7529,
  " yǒu dà ": 7530,
  " jiàn kāng ": 7531,
  "sè fū ": 7532,
  "kuò zhǎn": 7533,
  " yú 2024 nián ": 7534,
  "   gēn jù 2020 nián měi guó rén kǒu pǔ chá de shù jù ": 7535,
  " 50": 7536,
  "guó lì ": 7537,
  " S ": 7538,
  "zēng jiā le ": 7539,
  "et   ": 7540,
  "guò yú ": 7542,
  "wǔ yuè ": 7543,
  "jiǎng shù ": 7544,
  "shàng hǎi shì ": 7545,
  " xīng": 7546,
  "ā ěr": 7547,
  "liǔ": 7548,
  "huí hé ": 7549,
  "réng zài ": 7550,
  " yī zhì ": 7551,
  " chū fā ": 7552,
  "yà mù ": 7553,
  "bān jiǎng ": 7554,
  " In": 7555,
  "xiāng jì ": 7556,
  "dān yuán ": 7557,
  "qiè ěr ": 7558,
  " yǒu zhù ": 7559,
  "zhèng xié ": 7560,
  " bìng rù ": 7561,
  "nú ": 7562,
  "xīn rén ": 7563,
  " dà qiáo ": 7564,
  "zhàn lǐng": 7565,
  "zhào kāi": 7566,
  " dǎng ": 7567,
  "shàng yī ": 7568,
  "xìng shì ": 7569,
  "běn tǔ ": 7570,
  "qún dǎo": 7571,
  "dēng cháng ": 7572,
  " yǐ zài ": 7573,
  " yǐ zhì ": 7574,
  " yī cí ": 7575,
  "hǎi bá gāo ": 7576,
  "yōu xiù": 7577,
  " de jì lù ": 7578,
  "cān móu zhǎng ": 7579,
  "500 ": 7580,
  "wěn": 7581,
  " bù yī ": 7582,
  " lì zi ": 7583,
  " dà dào": 7584,
  "lù zhàn ": 7585,
  "gǎi gé": 7586,
  "fén": 7587,
  " cè ": 7588,
  " kě néng ": 7589,
  "   2": 7590,
  " jí xíng zhèng ": 7591,
  "zǔ zhǐ ": 7592,
  "87": 7593,
  " zhēn": 7594,
  "jiāo chā ": 7595,
  " 000 rén ": 7596,
  "150": 7597,
  " shì yóu": 7598,
  "xī běi ": 7599,
  " mén ": 7600,
  "   0": 7601,
  "yào de ": 7602,
  "yáng xiàn ": 7603,
  "duì wǔ ": 7604,
  " měng ": 7605,
  "xún huán ": 7606,
  "cún zài de ": 7607,
  "tǔ ěr qí": 7608,
  "róu": 7609,
  "   dàn": 7610,
  "hé wèi ": 7611,
  "wù hé ": 7612,
  "jǐ nián ": 7613,
  "kōng jūn": 7614,
  "zhuàng jī ": 7615,
  "bǎo cún ": 7616,
  " nǎi": 7617,
  "nán jí zhōu de ": 7618,
  "if": 7619,
  "shěng dào ": 7620,
  " zài tā ": 7621,
  "shī bài": 7622,
  " cāng": 7623,
  "cuì ": 7624,
  "ut": 7625,
  "fēi zhōu": 7626,
  " yú dì ": 7627,
  " yóu cǐ ": 7628,
  "gǔ fèn yǒu xiàn gōng sī ": 7629,
  "mǎi ": 7630,
  " lí": 7631,
  " mì ": 7632,
  "zhí zhì ": 7633,
  " kè yùn ": 7634,
  " 1984 nián ": 7635,
  " hant ": 7636,
  "   rán ér ": 7637,
  "làn ": 7638,
  "chuán zhī ": 7639,
  " zài běi ": 7640,
  " zhī zhàn ": 7641,
  "tǐ yù": 7642,
  " lěng ": 7643,
  " sì chuān ": 7644,
  " ān": 7645,
  " mó": 7646,
  "   6": 7647,
  "diàn de ": 7648,
  "cháng jiàn ": 7649,
  " xiàn zhī xiàn ": 7650,
  "jiào shòu": 7651,
  "fā shēng le ": 7652,
  "shǔ de zhí wù ": 7653,
  "97": 7654,
  " zài gāi ": 7655,
  "shǒu xí ": 7656,
  "xiào yìng ": 7657,
  " chǔ ": 7658,
  "xī shì ": 7659,
  "mì sī ": 7660,
  " zhī liú ": 7661,
  "zhǐ dìng ": 7662,
  "fàng qì": 7663,
  "   2004 nián ": 7664,
  "náng ": 7665,
  " bāo hán ": 7666,
  " bù ěr ": 7667,
  " yǒu guān": 7668,
  "zǒng cái ": 7669,
  "zhàng fū ": 7670,
  "dāo": 7671,
  " cǎi yòng ": 7672,
  "jiān shì ": 7673,
  " zài yǔ ": 7674,
  " tā duì ": 7675,
  "fēn bié wèi ": 7676,
  "mián": 7677,
  " luò": 7678,
  "běn xiàn ": 7679,
  "tóu bù ": 7680,
  "187": 7681,
  "bù fèn ": 7682,
  "jiē shōu ": 7683,
  "zhōu biān ": 7684,
  "jiàng dī": 7685,
  "shuài lǐng ": 7686,
  "sāo ": 7687,
  "xuàn ": 7688,
  "huì yǐ ": 7689,
  "sǐ yú ": 7690,
  "qiān dìng ": 7691,
  " shì yì dà lì ": 7692,
  "46 ": 7693,
  "war": 7694,
  "é wèi ": 7695,
  "hēi rén ": 7696,
  "jī běn ": 7697,
  " jiàn shì ": 7698,
  "nán fāng ": 7699,
  "kē huì": 7700,
  "pàn luàn ": 7701,
  " ā lā ": 7702,
  " qín ": 7703,
  "shāng de ": 7704,
  "huán xíng ": 7705,
  " nián nián ": 7706,
  " dé dào le ": 7707,
  "dǐ kàng ": 7708,
  "huái yí ": 7709,
  "yán shí ": 7710,
  "bié de ": 7711,
  "yī xiē ": 7712,
  " gōng lù": 7713,
  " lìng wài": 7714,
  "ná pò ": 7715,
  "luó dé ": 7716,
  "zhěng gè": 7717,
  "xī běi bù ": 7718,
  " shè jì de ": 7719,
  " shì yī zuò ": 7720,
  "xià xiá yǐ xià": 7721,
  "   3 yuè ": 7722,
  "kāi zhǎn ": 7723,
  "yí chǎn": 7724,
  "háng tiān ": 7725,
  " ruǎn ": 7726,
  "   12": 7727,
  "zhǎng dà ": 7728,
  "mén de ": 7729,
  " jí lín ": 7730,
  "zhù dì ": 7731,
  "yě bù ": 7732,
  "gé ěr ": 7733,
  "chuán méi ": 7734,
  "yī bù fèn": 7735,
  "186": 7736,
  " xíng shǐ ": 7737,
  "cān yù le ": 7738,
  " xìn ": 7739,
  "zhě wèi ": 7740,
  " lì yòng": 7741,
  "xī nán bù ": 7742,
  "fǎ tíng ": 7743,
  "jìng sài ": 7744,
  " sài ": 7745,
  "duī ": 7746,
  "zhàn wèi yú ": 7747,
  "bā lā ": 7748,
  "mù sī lín ": 7749,
  "hǎi bá gāo dù wèi ": 7750,
  "zhí yuán ": 7751,
  "yán zhòng": 7752,
  "mǎ tóu ": 7753,
  "tōng xùn ": 7754,
  " shēng zhǎng yú ": 7755,
  "ist": 7756,
  " é": 7757,
  " léi": 7758,
  " xù ": 7759,
  "xún qiú ": 7760,
  "nuò yī ": 7761,
  " shì bīng ": 7762,
  "yóu tài rén ": 7763,
  " zhōng guó guó mín ": 7764,
  " pāi ": 7765,
  "ock": 7766,
  "ami": 7767,
  "tā zài ": 7768,
  "zhí lì ": 7769,
  "dān yī ": 7770,
  " bù dí ": 7771,
  " xiàn jīn ": 7772,
  " huàn ": 7773,
  " qiú huì ": 7774,
  "shěng wěi ": 7775,
  "guāng xù ": 7776,
  "zhuān mén ": 7777,
  " de chéng zhèn ": 7778,
  "kǎn": 7779,
  "ā lǐ ": 7780,
  "lā ěr ": 7781,
  " dì miàn ": 7782,
  "luó bó tè ": 7783,
  "yǐn zhǒng ": 7784,
  "kuài sù": 7785,
  "bú yào ": 7786,
  " hé lǐ ": 7787,
  "xué xí": 7788,
  " xíng xiàng ": 7789,
  "yíng yè ": 7790,
  " wèi fú qí yú gāng": 7791,
  " sòng": 7792,
  " chē zhàn": 7793,
  " dōng jīng ": 7794,
  "bāng zhù": 7795,
  "mò sī kē": 7796,
  "gr": 7797,
  "tào": 7798,
  "   5 yuè ": 7799,
  "tuó": 7800,
  " de zhǔ yào ": 7801,
  " guó mín": 7802,
  " xī ān ": 7803,
  "jiǎn dān ": 7804,
  "wěi fù shū jì ": 7805,
  "cì wèi ": 7806,
  "gē jù ": 7807,
  "sī lán ": 7808,
  " xiāng dāng": 7809,
  "yóu qí ": 7810,
  "wǔ dì ": 7811,
  " wèi cǐ ": 7812,
  " dà liàng": 7813,
  "biān hào wèi ": 7814,
  "lí zi ": 7815,
  " tī ": 7816,
  "xún yáng jiàn ": 7817,
  "róng nà ": 7818,
  " qí zhōng nán xìng ": 7819,
  " yú 2009 nián ": 7820,
  " suí zhe": 7821,
  " nǐ": 7822,
  "ān xiàn ": 7823,
  "céng shuǐ yù ": 7824,
  "wēi xiǎn ": 7825,
  "zhuàn de xiǎo xíng xīng ": 7826,
  " dīng ": 7827,
  "   píng jià ": 7828,
  "wù yuán ": 7829,
  "fú dé ": 7830,
  " hé jí ": 7831,
  " kè lái ": 7832,
  "jiāo huàn ": 7833,
  "AO": 7834,
  " wū kè lán ": 7835,
  "zhǎng wèi ": 7836,
  "nà cuì": 7837,
  "liáng shí ": 7838,
  " zhè shǒu ": 7839,
  " 184": 7840,
  " 1986 nián ": 7841,
  " re": 7842,
  " diàn shì ": 7843,
  " huán ": 7844,
  "yǔ shì ": 7845,
  "yóu rén gōng ": 7846,
  " hòu qī ": 7847,
  "fǔ zhù ": 7848,
  " xīn zēng": 7849,
  "guī fàn ": 7850,
  " jiàn lì le ": 7851,
  "42": 7852,
  " hán": 7853,
  "tuī chū de ": 7854,
  "wéi zhǐ ": 7855,
  " shè jī ": 7856,
  " wéi chí ": 7857,
  " shè huì": 7858,
  "shā hài ": 7859,
  "fěi ": 7860,
  "ala": 7861,
  "jué le ": 7862,
  " de huà ": 7863,
  " shí yòng ": 7864,
  "93": 7865,
  "BC ": 7866,
  "ài guó ": 7867,
  "qǐ le ": 7868,
  "cì dà ": 7869,
  "zhōng xīn ": 7870,
  " gōng chǐ": 7871,
  " jiàn wèi ": 7872,
  " qiú chǎng ": 7873,
  "   chú le ": 7874,
  "qiǎo": 7875,
  "shù shì ": 7876,
  "miàn lín ": 7877,
  "tú xiàng ": 7878,
  "qún tǐ ": 7879,
  "   8": 7880,
  "zhāng de ": 7881,
  "luò de ": 7882,
  " zài rì běn ": 7883,
  "cān sài": 7884,
  " gū ": 7885,
  " gōng chéng shī ": 7886,
  "shào jiàng ": 7887,
  "gè dì ": 7888,
  "gǎn lǎn": 7889,
  "shùn shí ": 7890,
  " shì nèi ": 7891,
  " yú 2010 nián ": 7892,
  "zǒng jiān ": 7893,
  "gǎi biān ": 7894,
  " rén mín bì ": 7895,
  "dū dū ": 7896,
  "lǎo shī ": 7897,
  " pǔ": 7898,
  " qiū ": 7899,
  " niú ": 7900,
  "zhī yuán ": 7901,
  "zhuō": 7902,
  "gē de ": 7903,
  "fú hào ": 7904,
  " téng": 7905,
  " tì ": 7906,
  " dì èr cì ": 7907,
  " 1958 nián ": 7908,
  "42 ": 7909,
  "   jīng jì ": 7910,
  " jí shǐ": 7911,
  "fǎ lán ": 7912,
  " jìn nián ": 7913,
  "rù qīn": 7914,
  "gǎng kǒu ": 7915,
  " zài dì èr ": 7916,
  "ill": 7917,
  "píng jūn hǎi bá gāo dù wèi ": 7918,
  "duì hé ": 7919,
  "yùn hé ": 7920,
  "zú qiú duì ": 7921,
  "ní xī yà ": 7922,
  "gōng kāi ": 7923,
  "nà xiē ": 7924,
  "chuàng bàn ": 7925,
  "méng jūn ": 7926,
  " ěr dé": 7927,
  "jié dù shǐ ": 7928,
  " kè lā ": 7929,
  " ér gāi dì de píng jūn hǎi bá gāo dù wèi ": 7930,
  "LE": 7931,
  "fēn zhī yī ": 7932,
  " yǒu lì ": 7933,
  "bàn yǎn ": 7934,
  "gào sù ": 7935,
  "fēng de ": 7936,
  " xī yǐn ": 7937,
  " de dì èr": 7938,
  "dāng jú ": 7939,
  "2010 nián měi guó rén kǒu pǔ chá de shù jù ": 7940,
  "liǎo jiě": 7941,
  "hǎn mò": 7942,
  "chū dào ": 7943,
  "yǎn chū": 7944,
  "yìng duì ": 7945,
  "fēn qū ": 7946,
  "mǐ yà ": 7947,
  "fēi fǎ ": 7948,
  " 1946 nián ": 7949,
  "yǐn zhǒng zāi péi ": 7950,
  "ter ": 7951,
  " yè": 7952,
  " yōu ": 7953,
  " zhěng ": 7954,
  "zhē ": 7955,
  "jī shì ": 7956,
  "tuǒ ": 7957,
  "biān chéng ": 7958,
  " wèi míng ": 7959,
  " yī tiáo ": 7960,
  " jī yīn ": 7961,
  "qíng xù ": 7962,
  "shěn chá ": 7963,
  " liú yù ": 7964,
  "pín lǜ ": 7965,
  "75 ": 7966,
  " hè": 7967,
  "   yuè ": 7968,
  "le   ": 7969,
  "chū rèn ": 7970,
  "zé yǒu ": 7971,
  " nǎi ": 7972,
  "kǎ luó lái ": 7973,
  " guò ": 7974,
  "yuán dì ": 7975,
  "shēn shàng ": 7976,
  " xī xī ": 7977,
  " zhī qián": 7978,
  "oni": 7979,
  " yún nán ": 7980,
  "   tiān ": 7981,
  "jiào yú ": 7982,
  "sì míng ": 7983,
  "zú yǐ ": 7984,
  "jī bǎi ": 7985,
  " qiú de ": 7986,
  "zhǎn kāi": 7987,
  "fā zhǎn de ": 7988,
  "yóu rén gōng yǐn zhǒng zāi péi ": 7989,
  "lì zhōng ": 7990,
  "qíng xíng ": 7991,
  "zhù cè ": 7992,
  " de yī xiē ": 7993,
  "jū mín diǎn ": 7994,
  " yǐ sè liè": 7995,
  "kē huì shì dì ": 7996,
  "   1": 7997,
  "shuō shì ": 7998,
  "dān dǎ ": 7999,
  "le yī xiē ": 8000,
  "rè dài fēng bào ": 8001,
  " liǎng gè ": 8002,
  "jì jí ": 8003,
  " zhōng zuì ": 8004,
  " sī xiǎng ": 8005,
  " zhī fǔ ": 8006,
  " wéi yà ": 8007,
  " dāng nián ": 8008,
  "diàn yǐng de ": 8009,
  "wèn tí de ": 8010,
  "5 gè ": 8011,
  "sǎo ": 8012,
  "yù jì ": 8013,
  "dòng gōng ": 8014,
  "bīng bù ": 8015,
  "lǔ kè ": 8016,
  " yǐ shàng de ": 8017,
  " yǔ cǐ tóng shí ": 8018,
  " chū xí ": 8019,
  "duō yàng ": 8020,
  "1 hào ": 8021,
  " hàn zú ": 8022,
  "jiè shí ": 8023,
  "miǎo": 8024,
  "chǎng jǐng ": 8025,
  "zǔ chéng": 8026,
  "zhè bù ": 8027,
  "yǔ yǐ ": 8028,
  "hòu yú ": 8029,
  " zhì shǎo": 8030,
  " yī zhī ": 8031,
  "jiè shào": 8032,
  "kē fū": 8033,
  "dǒu ": 8034,
  "yǐ hòu ": 8035,
  "yǎn shēng ": 8036,
  "dēng jì ": 8037,
  "dà shǐ ": 8038,
  "fēn lèi": 8039,
  " zhōng guó dà lù de ": 8040,
  "cái chǎn ": 8041,
  "yǒng jiǔ ": 8042,
  "zhǐ huī guān ": 8043,
  "   jié zhì 202": 8044,
  "xià xiá yǐ xià dì qū ": 8045,
  "gé lì ": 8046,
  " bù jiā ": 8047,
  "tòu guò": 8048,
  "chǒng ": 8049,
  "zhàn zhì ": 8050,
  "céng shì ": 8051,
  " zhì zào": 8052,
  "zhèng quán ": 8053,
  "fēn lí ": 8054,
  "shòu hài ": 8055,
  "zī zhù ": 8056,
  "12 yuè 31 rì ": 8057,
  "zhǔ chí rén ": 8058,
  " xǔ ": 8059,
  "   jì ": 8060,
  "diān": 8061,
  " 100": 8062,
  "shī dì ": 8063,
  "jǐng wèi ": 8064,
  "bái zhì ": 8065,
  "chuán bō": 8066,
  "gān sù ": 8067,
  " jìn shì chū shēn ": 8068,
  "pù": 8069,
  " mǎn": 8070,
  " xū yào ": 8071,
  "zú rén ": 8072,
  " xiàn rù ": 8073,
  " qí zhōng nán ": 8074,
  "lái zì yú ": 8075,
  "máo zé dōng ": 8076,
  " mǐ": 8077,
  " pí": 8078,
  "   10 yuè ": 8079,
  "xiàng xī ": 8080,
  "mǎ de ": 8081,
  "cháo de ": 8082,
  "lǔ shì ": 8083,
  " bù biàn ": 8084,
  "fǎ lìng ": 8085,
  "zī shěng ": 8086,
  "gǎn jué ": 8087,
  "wú rén jī ": 8088,
  "   běi ": 8089,
  " dì sī ": 8090,
  "jīng guò": 8091,
  "zǐ nǚ ": 8092,
  "pàn jué ": 8093,
  " ー": 8094,
  "zhàn jì ": 8095,
  "bǎo zhèng ": 8096,
  "fēi lì ": 8097,
  "yīng guó de ": 8098,
  "biān jìng ": 8099,
  "cái wù ": 8100,
  "shǐ yòng le ": 8101,
  "jú jú zhǎng ": 8102,
  "gòng chǎn zhǔ yì ": 8103,
  " gōng kāi sài ": 8104,
  "zì xíng chē ": 8105,
  " 26": 8107,
  " jǐ ": 8108,
  " tuī ": 8109,
  "qū fēn ": 8110,
  "shǒu fǔ ": 8111,
  " 1982 nián ": 8112,
  "ne   ": 8113,
  "qǔ jiā ": 8114,
  "miáo huì ": 8115,
  " zhī jì ": 8116,
  " bèi qí ": 8117,
  "bào zhǐ ": 8118,
  "gǎi shàn": 8119,
  "wán chéng le ": 8120,
  "6 gè ": 8121,
  "zi hé ": 8122,
  "hěn duō": 8123,
  " shì zhōng xīn ": 8124,
  "   k": 8125,
  "   lìng wài ": 8126,
  "yǐn shí ": 8127,
  " shì yàn ": 8128,
  " shì wū kè lán": 8129,
  " bù zhì ": 8130,
  "sī xiǎng ": 8131,
  " yī méi ": 8132,
  " má ": 8133,
  "āi nà ": 8134,
  " gōng zuò shì ": 8135,
  "huá shèng dùn": 8136,
  "   st": 8137,
  "chū shēng ": 8138,
  "èr zhàn ": 8139,
  " de gù shì ": 8140,
  " dà zhòng ": 8141,
  " tóng yī ": 8142,
  "àn zhào ": 8143,
  " 1987 nián ": 8144,
  " hé bìng wèi ": 8145,
  "shuò shì xué wèi ": 8146,
  "fà ": 8147,
  " dà xíng": 8148,
  "shēn zhèn": 8149,
  " ào dà lì ": 8150,
  "63": 8151,
  "se": 8152,
  " 27": 8153,
  "qún de ": 8154,
  " jūn dì ": 8155,
  " qián wǎng ": 8156,
  " xì liè ": 8157,
  "guā": 8158,
  "fāng chéng ": 8159,
  "jǐ hé ": 8160,
  " dà jiā ": 8161,
  "ck": 8162,
  "zhǎng yuē ": 8163,
  "dàng àn ": 8164,
  "II ": 8165,
  " dōu": 8166,
  "zhī míng ": 8167,
  "huò shì ": 8168,
  "wài wéi ": 8169,
  "dá de ": 8170,
  "zhěng hé ": 8171,
  "guó nèi ": 8172,
  " jiàn hé ": 8173,
  " zì dòng ": 8174,
  " fó ": 8175,
  " yú 190": 8176,
  "tì dài ": 8177,
  "Ch": 8178,
  "cài": 8179,
  "kān": 8180,
  " ōu zhōu ": 8181,
  "luó jí ": 8182,
  " gōng zhàn ": 8183,
  " dàn yīn ": 8184,
  "jī bù ": 8185,
  "fú ěr ": 8186,
  "bō ěr ": 8187,
  "líng de ": 8188,
  " zài 195": 8189,
  " dì guó de ": 8190,
  "jù fēng ": 8191,
  "sān cì ": 8192,
  "bā fá": 8193,
  " zhè bù ": 8194,
  " sū lián ": 8195,
  "bēng": 8196,
  "cǐ zhī wài ": 8197,
  " yǐ nán ": 8198,
  " xíng chéng de ": 8199,
  "jiào zuò ": 8200,
  " pǎo ": 8201,
  " pāi shè ": 8202,
  " cháo xiān ": 8203,
  "liè shì ": 8204,
  "jiē chù": 8205,
  "tiān huáng ": 8206,
  "chēng hào ": 8207,
  "xiàn fǎ ": 8208,
  "zēng qiáng ": 8209,
  " chū xiàn le ": 8210,
  " de míng zì ": 8211,
  "báo ": 8212,
  " cái": 8213,
  "   v": 8214,
  "zhàn wèi ": 8215,
  "1999 nián ": 8216,
  "ther": 8217,
  " dà shī ": 8218,
  " jī chǔ ": 8219,
  "zú xié ": 8220,
  "xià de yí gè ": 8221,
  "shèng dì ": 8222,
  "zuò chū": 8223,
  "jǐng guān ": 8224,
  "dāng xuǎn": 8225,
  "   2003 nián ": 8226,
  " 1978 nián ": 8227,
  "jǐn biāo sài": 8228,
  "   6 ": 8229,
  "gòng shí ": 8230,
  " dào bù ": 8231,
  "miàn tǐ ": 8232,
  "shén huà ": 8233,
  "bìng méi yǒu ": 8234,
  " lìng yì fāng miàn ": 8235,
  " wén huà ": 8236,
  "kùn": 8237,
  " yuán shǐ ": 8238,
  "qū jiān ": 8239,
  "lǐng yù": 8240,
  "zhuàng kuàng": 8241,
  "yán jiū yuàn ": 8242,
  "mù zhì ": 8243,
  "shēng míng ": 8244,
  "zhòng zhí ": 8245,
  " 40": 8246,
  " yú 2008 nián ": 8247,
  "hòu shì ": 8249,
  "quān": 8250,
  "wàn nián ": 8251,
  "nuò sī ": 8252,
  " hé suān ": 8253,
  "hòu lái ": 8254,
  " sī kǎ ": 8255,
  "píng mín ": 8256,
  "shǒu duàn ": 8257,
  "shāng diàn ": 8258,
  "zhū lóng": 8259,
  "miáo shù": 8260,
  "→": 8261,
  " shēng zhǎng yú hǎi bá": 8262,
  "gāo yuán ": 8263,
  "chuàng xīn ": 8264,
  " yuè tái": 8265,
  "dòu zhēng ": 8266,
  "cuò wù ": 8267,
  "tāo ": 8268,
  "bō chū": 8269,
  " zài yīng guó ": 8270,
  "ān dōng ": 8271,
  "háng yè ": 8272,
  "fáng zhǐ ": 8273,
  " 1980 nián ": 8274,
  "nù": 8275,
  " shàn ": 8276,
  "ā jī ": 8277,
  "táo yuán ": 8278,
  "zhǔ chǎng ": 8279,
  "yán shēn ": 8280,
  "mìng lìng": 8281,
  " dì yī cì": 8282,
  "   St": 8283,
  " 1948 nián ": 8284,
  " niǔ yuē": 8285,
  " wèi yóu ": 8286,
  " yuán zé ": 8287,
  " jì niàn": 8288,
  "rù xuǎn": 8289,
  "guǎng gào": 8290,
  "kào jìn ": 8291,
  "wù zhǒng de ": 8292,
  "tòu lù ": 8293,
  "gōu": 8294,
  "jiē jìn": 8295,
  "rù de ": 8296,
  " bù dé ": 8297,
  " mù qián shàng wèi ": 8298,
  "tiān jiā ": 8299,
  "diǎn wèi ": 8300,
  "tū chū ": 8301,
  " hé fǎ ": 8302,
  " zhōng shū ": 8303,
  " shí dài de ": 8304,
  "guān fèi yán ": 8305,
  "cháng qī": 8306,
  "qì tǐ ": 8307,
  "qíng jié ": 8308,
  "cái pàn ": 8309,
  "tuán zhǎng ": 8310,
  "dōng xiàn ": 8311,
  " yì míng ": 8312,
  " zhè cì ": 8313,
  "shuǐ kù ": 8314,
  " xiàn de yí gè fēi jiàn zhì dì qū ": 8315,
  "lái sī ": 8316,
  " yǐ shì ": 8317,
  "fú huà ": 8318,
  " rèn mìng": 8319,
  " làng ": 8320,
  "sāi nà ": 8321,
  " bì yè yú ": 8322,
  "ale": 8323,
  "jiāng shì ": 8324,
  "ní de ": 8325,
  "hóng jūn ": 8326,
  " hé tā de ": 8327,
  "J ": 8328,
  "NA": 8329,
  "lù xù ": 8330,
  " shàng shū ": 8331,
  " zuò chū": 8332,
  "tōng xìn ": 8333,
  " sà": 8334,
  " fā xíng ": 8335,
  "1996 nián ": 8336,
  "hǎo yǒu ": 8337,
  " yǔ dà ": 8338,
  "mǎ lái ": 8339,
  "cè lüè ": 8340,
  "xiǎng fǎ ": 8341,
  "xiū gǎi": 8342,
  "kǎo gǔ ": 8343,
  "chóu bèi ": 8344,
  "yù dào ": 8345,
  "on   ": 8346,
  " zhōng fā xiàn ": 8347,
  " zhī chù ": 8348,
  " 1920 nián ": 8349,
  "pò huài": 8350,
  "1 nián de ": 8351,
  "ain": 8352,
  "huǎng ": 8353,
  "juǎn": 8354,
  "cháng jiāng ": 8355,
  " co": 8356,
  " zhǐ shì ": 8357,
  "zuì zǎo de ": 8358,
  "fú zhōu ": 8359,
  "miàn shì ": 8360,
  " wèi bèi ": 8361,
  " dào shì ": 8362,
  "chēng wéi": 8363,
  "ào sī kǎ ": 8364,
  "chēng zhī wèi ": 8365,
  "háng xiàn ": 8366,
  " wèi qí ": 8367,
  " xíng zhèng zhèn qū ": 8368,
  "fēi lǜ bīn": 8369,
  "fěn sī ": 8370,
  "5 gōng lǐ ": 8371,
  "máng": 8372,
  "shǐ zhōng ": 8373,
  "ros": 8374,
  " jī xiè ": 8375,
  "chǎn yè": 8376,
  " gōu ": 8377,
  "niǎo lèi ": 8378,
  " xiá ": 8379,
  " shì nán jí zhōu de ": 8380,
  " zhì dìng ": 8381,
  " lì kè ": 8382,
  "dòng chē ": 8383,
  " zuò biāo wèi ": 8384,
  "shè huì zhǔ yì ": 8385,
  "65 ": 8386,
  "bēn ": 8387,
  "‧": 8388,
  "lì yòng ": 8389,
  " gōng jīn ": 8390,
  "běn shēn ": 8391,
  " tóng rì ": 8392,
  "64 ": 8393,
  "NA ": 8394,
  "   suí ": 8395,
  "zhàn guó ": 8396,
  "zhǐ yú ": 8397,
  "pǐn zhì ": 8398,
  " yì diǎn ": 8399,
  "qǐ sù ": 8400,
  "děng zhí ": 8401,
  "IT": 8402,
  " lú": 8403,
  " xióng ": 8404,
  "   ér": 8405,
  "   zhǔ yào ": 8406,
  "duǒ ": 8407,
  "huì jí ": 8408,
  "qǐ de ": 8409,
  "gē ěr ": 8410,
  "huǒ bàn ": 8411,
  "yíng dé le ": 8412,
  " bào": 8413,
  "àn shí ": 8414,
  "zuò zhōng ": 8415,
  "duì tā ": 8416,
  "běi shì ": 8417,
  "wǔ míng ": 8418,
  "jiū ": 8419,
  "bīn shì ": 8420,
  " píng lùn": 8421,
  "zū jiè ": 8422,
  "120": 8423,
  "ith": 8424,
  "chǎng shàng ": 8425,
  "kuò zhāng ": 8426,
  " gōng zuò de ": 8427,
  "wéi ěr": 8428,
  " chū xiàn": 8429,
  "lù shàng ": 8430,
  "tí gōng de ": 8431,
  "jīng jì xué ": 8432,
  "1 míng ": 8433,
  " mín": 8434,
  " gǎi wéi ": 8435,
  " chū rù kǒu ": 8436,
  " yóu yǒng ": 8437,
  "nǚ yǎn yuán ": 8438,
  "lǐng xiān ": 8439,
  " shì dì yī ": 8440,
  " fēn bié shì ": 8441,
  ".&": 8442,
  "   zhù ": 8443,
  "ài dé huá ": 8444,
  "zhōng shì jì ": 8445,
  "duì yǒu ": 8446,
  "dòng yuán ": 8447,
  "shī hé ": 8448,
  "tài hòu ": 8449,
  "bān bù ": 8450,
  "hòu xuǎn rén ": 8451,
  "ài qíng ": 8452,
  " D ": 8453,
  "rén mín dài biǎo dà huì ": 8454,
  " bāo ": 8455,
  "   15": 8456,
  "   zhàn ": 8457,
  " dàn bù ": 8458,
  " mǎi ": 8459,
  " tōng guò": 8460,
  "jiāng sū shěng ": 8461,
  "fù zhì ": 8462,
  "jīng de ": 8463,
  "yǐn lì ": 8464,
  "dǐ zhì ": 8465,
  " shì xiāng gǎng ": 8466,
  "zuì zǎo ": 8467,
  "zú zì zhì ": 8468,
  "   The   ": 8469,
  "52": 8470,
  "jì zài ": 8471,
  "1998 nián ": 8472,
  "jiǎng de ": 8473,
  " míng zì ": 8474,
  "yí zhǐ": 8475,
  " zhè yàng de ": 8476,
  "bān fā ": 8477,
  "chóng xīn": 8478,
  " Al": 8479,
  "us ": 8480,
  " shèn ": 8481,
  "rén wèi ": 8482,
  "fēn wèi ": 8483,
  " zài jī ": 8484,
  " chū shēn ": 8485,
  "pǐn pái": 8486,
  " bù dé bù ": 8487,
  "xī yuán ": 8488,
  "hàn yǔ ": 8489,
  "sū lǐ ": 8490,
  " dì 2 ": 8491,
  "duì wài ": 8492,
  " jiā méng ": 8493,
  " māo ": 8494,
  " tòng ": 8495,
  "chè dǐ ": 8496,
  " yú 2007 nián ": 8497,
  "lèi sì yú ": 8498,
  " jī dū jiào ": 8499,
  "pū ": 8500,
  " i": 8501,
  " chūn ": 8502,
  "dà hé ": 8503,
  "lù yǔ ": 8504,
  "chē dào ": 8505,
  "hàn zì ": 8506,
  "zāo shòu ": 8507,
  " xiàn dài": 8508,
  "duì xiàng ": 8509,
  " jiā jìng ": 8510,
  " yīn de ": 8511,
  "zhí bō ": 8512,
  "bān cì ": 8513,
  "son ": 8514,
  "yuán zhōng ": 8515,
  "jiē shì ": 8516,
  "tǐ xíng ": 8517,
  "gǔn": 8518,
  "háng zhōu ": 8519,
  " zài gōng ": 8520,
  " chéng shì de ": 8521,
  "shēng mìng ": 8522,
  "bǎn běn de ": 8523,
  "xié tiáo": 8524,
  "hài é": 8525,
  " 1979 nián ": 8526,
  " jiāng qí ": 8527,
  "gòng hé guó de ": 8528,
  "   duì yú ": 8529,
  "fù yǒu ": 8530,
  "réng yǒu ": 8531,
  "lǎng dé ": 8532,
  " yì jí ": 8533,
  "yán cháng": 8534,
  " wéi zhǐ ": 8535,
  "yán jiū yuán ": 8536,
  "gèng duō": 8537,
  "xiàn shí ": 8538,
  "jīn rì ": 8539,
  " zài nán ": 8540,
  " chéng xù": 8541,
  "shǒu shù ": 8542,
  "miàn jī hé ": 8543,
  " hǎo ": 8544,
  "kē ěr ": 8545,
  "qì hé ": 8546,
  "pái dé zhǔ ": 8547,
  "ràng tā ": 8548,
  " de zhèng ": 8549,
  "xué shēng": 8550,
  "jiàn zào ": 8551,
  " dāng xuǎn": 8552,
  "ol ": 8553,
  "den": 8554,
  "bīng lì ": 8555,
  "bài zhàn ": 8556,
  "000 ": 8557,
  " jiàn yǒu ": 8558,
  "guī mó de ": 8559,
  "   4 ": 8560,
  "mù shì ": 8561,
  "tóu de ": 8562,
  "zhòng diǎn": 8563,
  " zhuān jí ": 8564,
  "tiāo ": 8565,
  "wǎng de ": 8566,
  " hé lán": 8567,
  " zhè yě shì ": 8568,
  "kē fū ": 8569,
  "dǎo yǎn": 8570,
  "89": 8571,
  " sān shí ": 8572,
  "liè rù": 8573,
  " gāi dì de ": 8574,
  " gōng yuán qián ": 8575,
  " dì shí yī ": 8576,
  " chéng shì ": 8577,
  "yǐ shàng ": 8578,
  "nán sī lā ": 8579,
  "shù mù ": 8580,
  "jiào kē ": 8581,
  "mín jìn ": 8582,
  "wǔ hàn": 8583,
  " qiú yùn dòng yuán ": 8584,
  "1 mǐ ": 8585,
  "lǐng xiù": 8586,
  "què dìng": 8587,
  "ruǎn tǐ ": 8588,
  " fēn bié wèi ": 8589,
  " mù qián shàng wèi yóu rén gōng yǐn zhǒng zāi péi ": 8590,
  "móu": 8591,
  "měi rì ": 8592,
  "huá dà xué ": 8593,
  "dìng qī ": 8594,
  "biān mǎ ": 8595,
  "gǎi wéi": 8596,
  "xù shù ": 8597,
  "wù lǐ xué ": 8598,
  "yē sū": 8599,
  "   4 yuè ": 8600,
  "dice ": 8601,
  " huì bèi ": 8602,
  "shēn zhèn ": 8603,
  " péi": 8604,
  "qiān shǔ": 8605,
  "zuì duō de ": 8606,
  "fēng gé": 8607,
  "zuǒ yòu": 8608,
  "qiú duì": 8609,
  " xī bān yá yǔ ": 8610,
  "qú": 8611,
  " yán jiū ": 8612,
  "yuán shí ": 8613,
  "duō ěr ": 8614,
  "lín sī ": 8615,
  "shēng tài ": 8616,
  "oog": 8617,
  " wéi": 8618,
  "zhài": 8619,
  "jiān zhì ": 8620,
  " jí yī ": 8621,
  "jù dà de ": 8622,
  "tiān táng ": 8623,
  " mǎi": 8624,
  "shāng wáng ": 8625,
  "dèng": 8626,
  "tōu ": 8627,
  "xūn": 8628,
  "shǒu bù ": 8629,
  "wò ěr ": 8630,
  " zài yuán ": 8631,
  "zhōng bù ": 8632,
  "wěi yuán huì de ": 8633,
  "huó dòng de ": 8634,
  " zhì zuò rén ": 8635,
  "xià xiá de yí gè xiāng ": 8636,
  " shùn": 8637,
  "fǎ shì ": 8638,
  "gàn xiàn ": 8639,
  "shàng shù ": 8640,
  "dài bǔ ": 8641,
  "jù lí": 8642,
  "tè qū ": 8643,
  " zhōng guó gòng chǎn dǎng": 8644,
  "huáng jīn": 8645,
  "yōu xiù ": 8646,
  " zhǐ chū ": 8647,
  "   1949 nián ": 8648,
  "ohn": 8649,
  "pó ": 8650,
  "sti": 8651,
  " bǎi": 8652,
  " wèi zhōng guó ": 8653,
  " bù ěr": 8654,
  " yú tóng nián ": 8655,
  " xī zàng ": 8656,
  "fēn lán ": 8657,
  "wāng ": 8658,
  " 1 yuè ": 8659,
  " shòu dào ": 8660,
  "   dōng ": 8661,
  "tè jí ": 8662,
  "dōng de ": 8663,
  " míng chēng": 8664,
  "kāi mù ": 8665,
  "tái wān de ": 8666,
  "jiù dú yú ": 8667,
  "   gè rén shēng huó ": 8668,
  "eli": 8669,
  " bài ": 8670,
  "jìn jí ": 8671,
  "jiǎ jī ": 8672,
  " dà yuē": 8673,
  "qián tǐng ": 8674,
  "tái bì ": 8675,
  "kǎ lā ": 8676,
  " zhǔ chí ": 8677,
  " 1938 nián ": 8678,
  " jì suàn jī ": 8679,
  "IP": 8680,
  " cān": 8681,
  "bèi shì ": 8682,
  "kǎ luó lái nà": 8683,
  "500": 8684,
  "shù hé ": 8685,
  "rù wéi ": 8686,
  "zi gōng sī ": 8687,
  "qì rén ": 8688,
  "xié dài ": 8689,
  "hú pō ": 8690,
  "zhuǎn wéi ": 8691,
  " de lǐ ": 8692,
  "xiāng hù ": 8693,
  "jīng yóu ": 8694,
  "guī huà": 8695,
  " gū": 8696,
  "miáo shù wèi ": 8697,
  "tàn suǒ ": 8698,
  " xīn jiā p": 8699,
  " kāng xī ": 8700,
  "DV": 8701,
  "qí shì ": 8702,
  "xiū sī ": 8703,
  " de jī huì ": 8704,
  "ki": 8705,
  "   fú ": 8706,
  "shǐ dì ": 8707,
  "tè hé ": 8708,
  "1992 nián ": 8709,
  " chéng bǎo ": 8710,
  " kè lǐ sī ": 8711,
  "yí mín": 8712,
  "dǐ dá": 8713,
  "dēng lù": 8714,
  " yǒu yī xiē ": 8715,
  "nuó wēi": 8716,
  "℃": 8718,
  "3 mǐ ": 8719,
  " diàn yǐng": 8720,
  "nà sī ": 8721,
  " hé tóng ": 8722,
  " gōng kāi": 8723,
  " má": 8724,
  "shāng pǐn ": 8725,
  "   2002 nián ": 8726,
  " 1947 nián ": 8727,
  " guó mín dǎng ": 8728,
  " níng ": 8729,
  "sān wèi ": 8730,
  "fū fù ": 8731,
  "29 ": 8732,
  " guó gōng ": 8733,
  "mín zhǔ": 8734,
  "wén zhāng": 8735,
  "jiǎng zuì jiā ": 8736,
  "   Pro": 8737,
  "laySta": 8738,
  "BS ": 8739,
  "cáo": 8740,
  "ng   ": 8741,
  "   xiāng gǎng ": 8742,
  "háng zhàn ": 8743,
  "zhuàng bìng dú": 8744,
  " zhōng zhǐ ": 8745,
  " gè dà ": 8746,
  "jìng nèi de ": 8747,
  "pī píng": 8748,
  "kāi fā de ": 8749,
  " shàng": 8750,
  " tā hái": 8751,
  "hǎi yáng": 8752,
  "fàn wéi": 8753,
  "xié shāng ": 8754,
  " dāng xuǎn ": 8755,
  "kuò zhǎn ": 8756,
  " jiào yù ": 8757,
  "mǎ shì ": 8758,
  " chéng wéi yī ": 8759,
  "xī yáng": 8760,
  "liàng zǐ ": 8761,
  " pǎo": 8762,
  "dú tè de ": 8763,
  "gē lún bǐ yà ": 8764,
  "ost": 8765,
  "bā nèn": 8766,
  "jiàn kāng ": 8767,
  "86": 8768,
  " cí": 8769,
  " tíng ": 8770,
  "è ěr ": 8771,
  "   lā ": 8772,
  "   zhì zuò ": 8773,
  "wú ěr ": 8774,
  " bù zhèng ": 8775,
  " hā ěr ": 8776,
  "jù zhōng ": 8777,
  "nán rén ": 8778,
  "cǐ shì ": 8779,
  "1988 nián ": 8780,
  " yī cháng ": 8781,
  "cè liáng": 8782,
  "hàn lín ": 8783,
  " yú 2006 nián ": 8784,
  "wén huà dà ": 8785,
  "ire": 8786,
  " péng ": 8787,
  "shū shì ": 8788,
  " jiàn zào": 8789,
  " qí bīng ": 8790,
  "jìn zhǐ ": 8791,
  "xiàn xiàng ": 8792,
  " tóng shí yě ": 8793,
  "fēi lǜ bīn ": 8794,
  " mǎ lái xī yà ": 8795,
  "xiǎng de ": 8796,
  " rì qī ": 8797,
  " jiā rù le ": 8798,
  "yìn xiàng ": 8799,
  "mǒu xiē": 8800,
  " pái ": 8801,
  " wǎn ": 8802,
  "   8 yuè ": 8803,
  "   suī rán ": 8804,
  "fú shè ": 8805,
  " dì bā ": 8806,
  " bìng jiāng": 8807,
  "gāo děng": 8808,
  "zǒng jīng lǐ ": 8809,
  " zuì chū": 8810,
  " shǎn xī ": 8811,
  " pài ": 8812,
  " rè ": 8813,
  " máo ": 8814,
  " fǎn duì ": 8815,
  "wáng hòu ": 8816,
  " guó yǔ ": 8817,
  "nèi méng gǔ ": 8818,
  " mǒu": 8819,
  "què bǎo ": 8820,
  "qún zhòng ": 8821,
  "se ": 8822,
  " sōng ": 8823,
  "duō bù ": 8824,
  "jiù yǒu ": 8825,
  "zhuàng de ": 8826,
  "chuān yuè ": 8827,
  "dà xué": 8828,
  " yì si": 8829,
  "yóu tài ": 8830,
  " huì shàng ": 8831,
  "lán sè ": 8832,
  "gē cí ": 8833,
  "edi": 8834,
  "pǐn de ": 8835,
  " shì nán ": 8836,
  " rì yì ": 8837,
  "zhè zhǒng": 8838,
  " bìng biǎo shì ": 8839,
  " zhàn lǐng ": 8840,
  "fáng kōng ": 8841,
  "zhào piān": 8842,
  "55 ": 8843,
  " dān rèn": 8844,
  "gé sī ": 8845,
  " nán běi ": 8846,
  " hé liú yù ": 8847,
  " yuǎn ": 8848,
  " gù shì ": 8849,
  "fù yǔ ": 8850,
  " yuán yǒu ": 8851,
  " míng xīng ": 8852,
  " xiāng duì ": 8853,
  "jiē wèi zhī ": 8854,
  " shì yí gè wèi yú měi guó ": 8855,
  "miàn jī hé rén kǒu ": 8856,
  " yāo qiú": 8858,
  "chéng shí ": 8859,
  "qiāo ": 8860,
  "qū jí ": 8861,
  "yí jì ": 8862,
  "fāng wèi ": 8863,
  " zhōu rén ": 8864,
  " 1981 nián ": 8865,
  "làng": 8866,
  " wū": 8867,
  "   kè ": 8868,
  "bǐ ěr ": 8869,
  "dān xīn ": 8870,
  "yīng jūn ": 8871,
  "shàng xià ": 8872,
  " tā jiāng ": 8873,
  " zhī chēng ": 8874,
  " fù gài ": 8875,
  "wǔ dǎo ": 8876,
  "shēn wáng ": 8877,
  "chuàng shǐ rén ": 8878,
  "ation ": 8879,
  "chá lǐ ": 8880,
  "zhēn de ": 8881,
  " yī tiān ": 8882,
  " chū rèn": 8883,
  " mián ": 8884,
  "nǚ hái ": 8885,
  " qí zhōng yǒu ": 8886,
  "hè sè ": 8887,
  "háng kōng gōng sī ": 8888,
  " gāi dì de miàn jī hé rén kǒu ": 8889,
  " gāi dì de miàn jī hé rén kǒu jiē wèi zhī ": 8890,
  "44 ": 8891,
  "yuè hé ": 8892,
  "xiāng de ": 8893,
  "cì jī ": 8894,
  " yì wài ": 8895,
  "tóng yàng": 8896,
  "zhuāng jiǎ": 8897,
  " 1937 nián ": 8898,
  " zhì lì yú ": 8899,
  "2 nián de ": 8900,
  "39 ": 8901,
  " rèn hé ": 8902,
  " zhàn dì ": 8903,
  "   mù qián ": 8904,
  "duō yuán ": 8905,
  "bō lì ": 8906,
  "inc": 8907,
  " zhì liáo": 8908,
  "xī wàng ": 8909,
  "jīng yíng": 8910,
  " nán zi ": 8911,
  "lǐng yù de ": 8912,
  "jū yú ": 8913,
  "kē xué": 8914,
  "cái zhèng": 8915,
  "tuán jié ": 8916,
  " qián lóng ": 8917,
  " 157": 8918,
  " zi ": 8919,
  " jí yǐ ": 8920,
  " gè zì ": 8921,
  " chū shòu ": 8922,
  " jìn jí ": 8923,
  " píng jià ": 8924,
  " páng": 8925,
  "huì yì shàng ": 8926,
  "cún zài yú ": 8927,
  "   hé": 8928,
  "diǎn xíng de ": 8929,
  "biāo jì ": 8930,
  "gěi tā ": 8931,
  " zhōng duì ": 8932,
  " dé lì ": 8933,
  "bǎo zhàng ": 8934,
  " guó mín zhèng fǔ ": 8935,
  "5 nián de ": 8936,
  "tīng de ": 8937,
  "zhōng yāng": 8938,
  "guān cè": 8939,
  " jūn guān ": 8940,
  " kè luó ": 8941,
  " mián": 8942,
  "bǔ chōng ": 8943,
  " de yuán yīn ": 8944,
  "   wèi le ": 8945,
  "40 nián ": 8946,
  "rǎng ": 8947,
  "xì jūn ": 8948,
  "luán ": 8949,
  "táng de ": 8950,
  "guó fáng": 8951,
  "fā yán rén ": 8952,
  "gāo jià ": 8953,
  "jìng tóu ": 8954,
  "chǎn shēng": 8955,
  "chuàng zuò": 8956,
  " suí zhe ": 8957,
  "   7 yuè ": 8958,
  "   9 yuè ": 8959,
  "   qí zhōng ": 8960,
  "píng jūn": 8961,
  " shì yuán ": 8962,
  " yǐ 1 ": 8963,
  "yán cháng ": 8964,
  "bǎi wàn ": 8965,
  "hēi lóng jiāng ": 8966,
  " de jì huà ": 8967,
  "ts ": 8968,
  " shào ": 8969,
  "   i": 8970,
  "xù jí ": 8971,
  "jiǎn lì ": 8972,
  " jí ěr ": 8973,
  "yán lùn ": 8974,
  "nà rù ": 8975,
  "wǎng wǎng ": 8976,
  "cháo tíng ": 8977,
  "méng tè ": 8978,
  " 1956 nián ": 8979,
  "fú jiàn shěng ": 8980,
  "avi": 8981,
  " fǔ ": 8982,
  " zhāo ": 8983,
  " yī tóng": 8984,
  "tíng yùn ": 8985,
  "háng bān ": 8986,
  "fáng jiān ": 8987,
  " lǐng ": 8988,
  "huǎn": 8989,
  "duàn shí jiān ": 8990,
  " hé lì ": 8991,
  "19 shì jì ": 8992,
  "qiān rén ": 8993,
  "diào yú ": 8994,
  " shì gè ": 8995,
  " shí jiān de ": 8996,
  " xī lǐ ": 8997,
  " fú wù ": 8998,
  "illi": 8999,
  "pen": 9000,
  "shù rén ": 9001,
  "sān yuè ": 9002,
  "shōu cáng ": 9003,
  " nián dài ": 9004,
  "tiān qì ": 9005,
  "bǎo cún": 9006,
  "jìng wài ": 9007,
  "liàng xiàng ": 9008,
  " 19 ": 9009,
  "35 nián ": 9010,
  " nèi": 9011,
  "tuǐ ": 9012,
  "fù zhǔ xí ": 9013,
  " guó mín dǎng": 9014,
  "ry": 9015,
  " kǒu ": 9016,
  "qiāo": 9017,
  "sān zhǒng ": 9018,
  "wáng zǐ ": 9019,
  "dǎ suàn ": 9020,
  "   chē zhàn jié gòu ": 9021,
  "cuò": 9022,
  "   cān kǎo ": 9023,
  "yīng cùn ": 9024,
  "yǒu guān ": 9025,
  "jì xù": 9026,
  "fā bù de ": 9027,
  " ér lái ": 9028,
  "bō fàng": 9029,
  " shì jiè de ": 9030,
  "xǐ hu": 9031,
  "suàn fǎ ": 9032,
  " suì de ": 9033,
  "zū": 9034,
  "   7": 9035,
  "jiā shì ": 9036,
  "xī yà ": 9037,
  " wéi qí": 9038,
  "bǎo zhàng": 9039,
  "tóu xián ": 9040,
  "xīng xì ": 9041,
  " chéng lì le ": 9042,
  "ā ěr bā ": 9043,
  "ní yà de ": 9044,
  "qù shì hòu ": 9045,
  "300 ": 9046,
  "yù bèi ": 9047,
  "chóng fù ": 9048,
  "tuī xíng ": 9049,
  " de dì yí gè ": 9050,
  "chè tuì ": 9051,
  "tǐ yù guǎn ": 9052,
  " mǎ lì ": 9053,
  "pǒ": 9054,
  " diào ": 9055,
  "shén de ": 9056,
  "zhǎn xiàn ": 9057,
  "sòng dào ": 9058,
  "duān de ": 9059,
  " yǔ zhòu": 9060,
  " zhōu wéi ": 9061,
  " yīn yuán ": 9062,
  " xué xí": 9063,
  "zhuān mén": 9064,
  "shōu gòu": 9065,
  "ào dà lì yà": 9066,
  "pú táo yá ": 9067,
  "zhè jiāng shěng ": 9068,
  "h ": 9069,
  " zhǔ": 9070,
  "zhōng hé ": 9071,
  "zhàn hé ": 9072,
  "liè sī ": 9073,
  "dū huì ": 9074,
  " zài xiàn ": 9075,
  "fā huī": 9076,
  "qiáng dà de ": 9077,
  "mǎn zú": 9078,
  "zhuàn xiě ": 9079,
  "TV ": 9080,
  "   6 yuè ": 9081,
  "guài": 9082,
  "qiǎng": 9083,
  "zhě rèn wéi ": 9084,
  " guó wáng": 9085,
  " yīn qí ": 9086,
  "xiǎo zǔ": 9087,
  "é hài é": 9088,
  "guó jiā duì ": 9089,
  " guān fāng ": 9090,
  "oy": 9091,
  " chāo": 9092,
  "chéng zài ": 9093,
  "zhī dào ": 9094,
  "qián zài ": 9095,
  "di ": 9096,
  "wǎn nián ": 9097,
  "res": 9098,
  " dào zhōng ": 9099,
  " yǐ lái": 9100,
  " chū yī ": 9101,
  "bā lè": 9102,
  "sè cǎi ": 9103,
  "tàn cè ": 9104,
  "94": 9105,
  "ach": 9106,
  "bù wèi yú ": 9107,
  "jìn xíng de ": 9108,
  " dì zhōng ": 9109,
  "zhè yàng de ": 9110,
  "wài guān ": 9111,
  "zá de ": 9112,
  " 1955 nián ": 9113,
  " pú táo yá": 9114,
  "wán zhěng de ": 9115,
  "tt": 9116,
  "   gāo ": 9117,
  "diē ": 9118,
  "mǎ lì yà ": 9119,
  "zhēn zhèng ": 9120,
  " zài qí": 9121,
  "tōng xùn": 9122,
  "tōng wǎng ": 9123,
  "liú liàng ": 9124,
  "bào zhà": 9125,
  "guī zé": 9126,
  "pú táo yá": 9127,
  " gǎn ": 9128,
  "qī shì ": 9129,
  "běn bù ": 9130,
  "bǎo wèi ": 9131,
  "shuǐ hé ": 9132,
  "dōu bù ": 9133,
  "orl": 9134,
  "dà liàng ": 9135,
  " dà sài ": 9136,
  " jiā sī ": 9137,
  " shēng chēng ": 9138,
  "lā tè ": 9139,
  "pǔ tōng": 9140,
  "hù dòng ": 9141,
  "cūn mín ": 9142,
  "dǔ": 9143,
  "xuē": 9144,
  "chū zhàn ": 9145,
  "fù bù zhǎng ": 9146,
  "bā shí ": 9147,
  "kuān": 9148,
  "bō chū de ": 9149,
  " yuè tuán": 9150,
  " ěr yǔ ": 9151,
  "qián jìn ": 9152,
  "tǎ ní": 9153,
  "   2001 nián ": 9154,
  "7 nián de ": 9155,
  "Pro": 9156,
  "� ": 9157,
  " ān dé ": 9158,
  "rèn yì ": 9159,
  "shěng zhèng fǔ ": 9160,
  "wǎng qiú": 9161,
  "kuò jiàn ": 9162,
  "1997 nián ": 9163,
  "yī lì ": 9164,
  " jí sī ": 9165,
  " bìng yǒu ": 9166,
  "diàn zǐ": 9167,
  "fēn liè ": 9168,
  "tàn xiǎn": 9169,
  "por": 9170,
  " lǚ": 9171,
  " 22": 9172,
  "chéng jì ": 9173,
  "gào sù": 9174,
  " hēng lì ": 9175,
  " qǐng ": 9176,
  "   gēn jù": 9177,
  "xiào shè ": 9178,
  " rì hòu ": 9179,
  "gǎi chēng ": 9180,
  "zú qún ": 9181,
  "bàn yǎn": 9182,
  "kōng xí ": 9183,
  " M ": 9184,
  "nàn mín ": 9185,
  "yùn xíng": 9186,
  " guó jūn ": 9187,
  " rì yǔ ": 9188,
  " qí tā de ": 9189,
  "cháng wěi huì ": 9190,
  "shōu fèi ": 9191,
  " guó jì jī chǎng ": 9192,
  "el ": 9193,
  "layStation": 9194,
  "   rì běn ": 9195,
  "   jiàn zhù ": 9196,
  "hòu bù jiǔ ": 9197,
  "dī de ": 9198,
  " bù jǐn": 9199,
  "shēng yīn ": 9200,
  "fǎ guó de ": 9201,
  "bàn dǎo": 9202,
  " sāng": 9203,
  "   2000 nián ": 9204,
  "guǎng fàn de ": 9205,
  "kǔ": 9206,
  " nóng ": 9207,
  "   xiāng ": 9208,
  "dìng lǐ ": 9209,
  "1945 nián ": 9210,
  "xiě le ": 9211,
  " jí jiāng ": 9212,
  " ěr zài ": 9213,
  "zhǐ shù ": 9214,
  "zhuǎn yí ": 9215,
  "   gēn jù 2010 nián měi guó rén kǒu pǔ chá de shù jù ": 9216,
  "   189": 9217,
  "CD ": 9218,
  "lǒng ": 9219,
  " lǎo": 9220,
  " hé dōng ": 9221,
  "xī là ": 9222,
  " míng xiǎn ": 9223,
  " yě kě yǐ ": 9224,
  "nuó wēi ": 9225,
  "3 míng ": 9226,
  "ati": 9227,
  " dí": 9228,
  " tǎ": 9229,
  " yì nián ": 9230,
  "   cǐ": 9231,
  "jué yú ": 9232,
  "liú xué ": 9233,
  " chū xiàn de ": 9234,
  " jìn le ": 9235,
  "xù liè ": 9236,
  " tòng": 9237,
  " sā ": 9238,
  "qiáo liáng ": 9239,
  "nuò màn ": 9240,
  " 158": 9241,
  "ma ": 9242,
  " xuán ": 9243,
  "luǎn": 9244,
  "zhǔ bàn ": 9245,
  "rén kǒu pǔ chá ": 9246,
  "xué shì xué wèi ": 9247,
  "tòng ": 9248,
  " n ": 9249,
  "xiào yǒu ": 9250,
  "sù shè ": 9251,
  "lǘ": 9252,
  " xiàn yǔ ": 9253,
  " dà guī mó ": 9254,
  " nán jīng ": 9255,
  "yìn shuā ": 9256,
  " hé nán shěng ": 9257,
  "hǎn mò dé ": 9258,
  "pù ": 9259,
  " biǎo ": 9260,
  "zhàn zài ": 9261,
  "gǎi míng ": 9262,
  "dǎng jí ": 9263,
  "kāng xī ": 9264,
  " xiàn zài de ": 9265,
  "qū zhú": 9266,
  " kè sà sī ": 9267,
  "shòu sǔn ": 9268,
  "shuǐ shēn ": 9269,
  "kè yùn ": 9270,
  "zhǔ yào shì ": 9271,
  "mào xiǎn ": 9272,
  "zàng yú ": 9273,
  "2 míng ": 9274,
  " yī wèi ": 9275,
  "le dì ": 9276,
  "xīn xíng ": 9277,
  "měi de ": 9278,
  "jiǎng zhōng ": 9279,
  "xǐng": 9280,
  "rén mín": 9281,
  " dàn qí ": 9282,
  "tè lǎng ": 9283,
  "bàn fǎ ": 9284,
  "tiáo wén ": 9285,
  " tóng shí yě shì ": 9286,
  "dài biǎo tuán ": 9287,
  " guǎn ": 9288,
  "1900": 9289,
  "qián xiàn ": 9290,
  "sān bù ": 9291,
  "sì yuè ": 9292,
  "zhēn yǔ ": 9293,
  "yì bǎi ": 9294,
  " tā chéng wéi ": 9295,
  " tā shuō ": 9296,
  " zhōu hé ": 9297,
  "shōu rù": 9298,
  "pàn chǔ ": 9299,
  " ch": 9300,
  " lán": 9301,
  " gōng bù ": 9302,
  "   fǎ guó ": 9303,
  "fú shì ": 9304,
  "zǒng zhàn ": 9305,
  "cí huì ": 9306,
  "150 ": 9307,
  "jiǎ shè ": 9308,
  " zhī bù ": 9309,
  " dà chéng ": 9310,
  " yǐ 2 ": 9311,
  " xué huì ": 9312,
  "yí dù": 9313,
  "yǎn zòu ": 9314,
  "lǐ shì huì ": 9315,
  "tú shū guǎn": 9316,
  "4   ": 9317,
  " dōu shì ": 9318,
  "jú shì ": 9319,
  " shì zhèng fǔ ": 9320,
  " shí yuè ": 9321,
  "bèi ěr ": 9322,
  " sī fǎ ": 9323,
  "rèn zhí ": 9324,
  "sài chē ": 9325,
  "qǔ dé le ": 9326,
  "rén dà dài biǎo ": 9327,
  "0 rén ": 9328,
  "MA": 9329,
  " qiū": 9330,
  " chǎng ": 9331,
  "nà hé ": 9332,
  "chuán qí ": 9333,
  "mìng míng de ": 9334,
  "chuí zhí ": 9335,
  " guān zhì ": 9336,
  "wéi rén ": 9337,
  "eri": 9338,
  "liù gè ": 9339,
  "zhèng cháng ": 9340,
  "lù kǒu ": 9341,
  "suǒ xū": 9342,
  "rú guǒ": 9343,
  "cuī": 9344,
  "43 ": 9345,
  " gài ": 9346,
  " dēng ": 9347,
  " wò ": 9348,
  "ā kè ": 9349,
  "yǐng dài ": 9350,
  "cūn de ": 9351,
  "shōu cáng": 9352,
  "dàng zuò ": 9353,
  " lì shǔ": 9354,
  "fāng chéng shì ": 9355,
  "jīn róng": 9356,
  " tāi ": 9357,
  " shì shì jiè": 9358,
  "luó mǎ dì guó ": 9359,
  " xiàn de yí gè xíng zhèng zhèn qū ": 9360,
  "HD": 9361,
  "ay   ": 9362,
  "hù shì ": 9363,
  "shuō de ": 9364,
  "zǒng miàn jī ": 9365,
  "bō luó ": 9366,
  "mì dù ": 9367,
  "fǎn duì": 9368,
  "   tái wān ": 9369,
  "zhàn yǒu ": 9370,
  "chē rén ": 9371,
  "biàn shì ": 9372,
  "shuǐ de ": 9373,
  " zhī hòu zài ": 9374,
  "jiào gāo ": 9375,
  "fú léi": 9376,
  " rèn zhí ": 9377,
  "fàn zuì": 9378,
  " kūn ": 9379,
  " rì běn de ": 9380,
  "jué sài zhōng ": 9381,
  "shān xī shěng ": 9382,
  "ei": 9383,
  " wán chéng ": 9384,
  "   yán gé ": 9385,
  "   yǐ xià ": 9386,
  "jiāo jiè ": 9387,
  " xiāng tóng ": 9388,
  "shāng chǎng ": 9389,
  "yīn sù ": 9390,
  "qiáng diào": 9391,
  " R ": 9392,
  "cù jìn ": 9393,
  "fú yīn ": 9394,
  "tǐ jī ": 9395,
  "xīng jiàn": 9396,
  "zǐ dàn ": 9397,
  "miǎn yì ": 9398,
  " shì zhǐ": 9399,
  " xiàn zhōng ": 9400,
  "jù běn ": 9401,
  " bèi jǐng ": 9402,
  "wěi yuán huì zhǔ xí ": 9403,
  " shǒu cì ": 9404,
  " liú yù miàn jī ": 9405,
  "6 mǐ ": 9406,
  "no": 9407,
  " mù": 9408,
  " fēng": 9409,
  " xiōng ": 9410,
  " jī yú ": 9411,
  "chá ěr sī ": 9412,
  "ér tóng": 9413,
  "chuán dì ": 9414,
  " xíng hé ": 9415,
  "rèn mìng ": 9416,
  "bǎo jiā": 9417,
  "2 hào ": 9418,
  " P ": 9419,
  "tuì xiū": 9420,
  " gēn jù 2020 nián měi guó rén kǒu pǔ chá de shù jù ": 9421,
  "hù lián wǎng ": 9422,
  "OR": 9423,
  " dá": 9424,
  " huā": 9425,
  " cǎi ": 9426,
  "àn lì ": 9427,
  "cháo shí ": 9428,
  " zhèng quán ": 9429,
  "TA": 9430,
  "cǎn ": 9431,
  " zǔ": 9432,
  " xiōng": 9433,
  "jìn nián ": 9434,
  "1994 nián ": 9435,
  "tú shā ": 9436,
  "zhēng qǔ ": 9437,
  "fán zhí ": 9438,
  "8 gè ": 9439,
  " dēng": 9440,
  " yàn ": 9441,
  "zhǎng hé ": 9442,
  "jiāo de ": 9443,
  "shā de ": 9444,
  "nǚ zhǔ jué ": 9445,
  "qiǎn zé ": 9446,
  "háng kōng mǔ": 9447,
  "yán shēn zhì ": 9448,
  "dī qì yā ": 9449,
  "gāo dì ": 9450,
  "dàng de ": 9451,
  "jīn shān ": 9452,
  "biān jiè": 9453,
  "jiǎn cè": 9454,
  "xiáng xì ": 9455,
  " rén kǒu de ": 9456,
  "fi": 9457,
  "   chén ": 9458,
  "jǐng yuán ": 9459,
  " zhōng qī ": 9460,
  " dàn de ": 9461,
  " jūn tuán ": 9462,
  "yǎn jiǎng ": 9463,
  " zhǔ chí": 9464,
  "huí guī": 9465,
  "gǔ lǎo de ": 9466,
  "3 nián de ": 9467,
  "yǒu hé ": 9468,
  "jiù bèi ": 9469,
  "céng bèi ": 9470,
  " yǒu liǎng ": 9471,
  " chéng lì de ": 9472,
  " dà fū ": 9473,
  " zhī shàng ": 9474,
  "guān kàn ": 9475,
  "shòu huān ": 9476,
  "luó lā ": 9477,
  "guī lèi": 9478,
  "mó tè": 9479,
  "shěn pàn ": 9480,
  "nú lì ": 9481,
  "2 lì ": 9482,
  "51": 9483,
  "wit": 9484,
  " wēn": 9485,
  " guì ": 9486,
  "kāi shè": 9487,
  "biàn de ": 9488,
  "gēn běn ": 9489,
  "yí cì shì jiè dà zhàn ": 9490,
  "guī dìng": 9491,
  "dé guó de ": 9492,
  " yīng chǐ ": 9493,
  "duǎn zàn": 9494,
  "hōng zhà ": 9495,
  "Windows   ": 9496,
  "41": 9497,
  "tāi": 9498,
  "wǔ dé ": 9499,
  "bù tóng ": 9500,
  "lián luò ": 9501,
  "wēi xié": 9502,
  "ty   ": 9503,
  " kě néng": 9504,
  " zhuī ": 9505,
  "tiǎo ": 9506,
  "gé lǐ ": 9507,
  "chēng shì ": 9508,
  "1991 nián ": 9509,
  "gèng shì ": 9510,
  "yī yuàn ": 9511,
  " shí yóu ": 9512,
  "lǐ lán ": 9513,
  "yóu yǒng ": 9514,
  "fēn lí": 9515,
  "gǎi zào": 9516,
  "chè xiāo": 9517,
  " lì shǐ xué jiā ": 9518,
  "ā ěr bēi sī ": 9519,
  " zhǔ yào shì ": 9520,
  "   xiāng gǎng": 9521,
  "jiē de ": 9522,
  "jiè yóu ": 9523,
  "gǔ jì ": 9524,
  "nǚ rén ": 9525,
  " yī zhǒng": 9526,
  " gè bù ": 9527,
  " duì wǔ ": 9528,
  "yǐ sè ": 9529,
  " cuī": 9530,
  "24 xiǎo shí ": 9531,
  " guāng xù ": 9532,
  " quán qiú ": 9533,
  "   Y": 9534,
  "   liú ": 9535,
  " zhōu lì ": 9536,
  " duì wài ": 9537,
  "fēn pèi": 9538,
  "sà lā ": 9539,
  " gōng gào ": 9540,
  " jìn ér ": 9541,
  "xuǎn qū": 9542,
  "sic": 9543,
  " 1952 nián ": 9544,
  "fā bù le ": 9545,
  " jiāng xī ": 9546,
  " yì shù jiā ": 9547,
  "luò zài ": 9548,
  "luò kè ": 9549,
  "xué xì ": 9550,
  "zhǒng lèi ": 9551,
  "chāo guò": 9552,
  " 18 ": 9553,
  " hǎi bá": 9554,
  " zuì hòu": 9555,
  " jié zhì 202": 9556,
  " kě shì ": 9557,
  "zhòng diǎn wén wù bǎo hù dān wèi ": 9558,
  "jiā lì fú ní yà zhōu ": 9559,
  "zhí shēng jī ": 9560,
  "52 ": 9561,
  "84": 9562,
  "gǔ de ": 9563,
  "biān zhì ": 9564,
  "zhuǎn chéng ": 9565,
  " wèi wèi ": 9566,
  "zhì zuò": 9567,
  "zhàn lüè ": 9568,
  "qíng bào": 9569,
  "zhuǎn huàn ": 9570,
  " fēn bù zài ": 9571,
  "lái kè ": 9572,
  "yà sī ": 9573,
  " yuán zi ": 9574,
  "xīn jiāng ": 9575,
  "zī xún ": 9576,
  "tóu shǒu ": 9577,
  "mó fǎ ": 9578,
  " zǎo": 9579,
  "shá": 9580,
  "jú bù ": 9581,
  "zhì dù ": 9582,
  " shí lì ": 9583,
  " yì dà ": 9584,
  " xī fāng ": 9585,
  " shè yǐng ": 9586,
  " tòu": 9587,
  " miàn jī 0": 9588,
  " lěi jì ": 9589,
  "dí shì ní ": 9590,
  "US": 9591,
  " zhōng xīn de ": 9592,
  "jì zǎi ": 9593,
  " jī xiè": 9594,
  " zhī hòu de ": 9595,
  " shì yī kē": 9596,
  " bìng qiě zài ": 9597,
  "fǒu rèn ": 9598,
  "OM": 9599,
  "ee": 9600,
  " luó sī ": 9601,
  "guǎng zhōu shì ": 9602,
  "huí jiā ": 9603,
  "1980 nián ": 9604,
  " shì xī bān yá ": 9605,
  " hé jì ": 9606,
  " bù shí ": 9607,
  " shí kè ": 9608,
  " xíng róng": 9609,
  "jiào liàn": 9610,
  "yí dìng de ": 9611,
  "jiāo gěi ": 9612,
  "sū dān ": 9613,
  "chéng lì hòu ": 9614,
  " cuò shī ": 9615,
  "110": 9616,
  "tǎo": 9617,
  "tāi ": 9618,
  "ā sī ": 9619,
  "cháng bèi ": 9620,
  "gòng jì ": 9621,
  " shì xīng děng wèi ": 9622,
  " yǐ běi ": 9623,
  " tā yě": 9624,
  "zhǐ kòng": 9625,
  " cāo zuò ": 9626,
  "pǔ luó ": 9627,
  " mā ": 9628,
  "diàn yǐng jié ": 9629,
  "tǎn dīng ": 9630,
  "gòng hé dǎng ": 9631,
  " nián qīng de ": 9632,
  "shi": 9633,
  "zé bèi ": 9634,
  "hù wèi ": 9635,
  "zhuān lì ": 9636,
  "fāng xiàng de ": 9637,
  "gǔ diǎn ": 9638,
  "měi tiān ": 9639,
  "yán jiū zhōng xīn ": 9640,
  " nà me": 9641,
  "92": 9642,
  "ok": 9643,
  "jiān wèi ": 9644,
  "duō lì yà ": 9645,
  "kě jiàn ": 9646,
  "shī jí ": 9647,
  " shì duì ": 9648,
  " jí xiàn ": 9649,
  "běi bù de ": 9650,
  "wěi tuō ": 9651,
  "jià gòu ": 9652,
  "tiáo kuǎn ": 9653,
  " а": 9654,
  "gi": 9655,
  "dà yú ": 9656,
  "jiù zài ": 9657,
  "lún sī ": 9658,
  "qīng chǔ ": 9659,
  "jiǎn dān de ": 9660,
  " dà bù fèn": 9661,
  "8 nián de ": 9662,
  " zài xiāng gǎng ": 9663,
  "àn zhào": 9664,
  "fǎ lán xī": 9665,
  "61": 9666,
  "n   ": 9667,
  " wēn ": 9668,
  " bù zài ": 9669,
  "kuài de ": 9670,
  " de xiǎo ": 9671,
  " yóu xì de ": 9672,
  "fēng gé de ": 9673,
  "gē gē ": 9674,
  "huáng jīn ": 9675,
  "gè zhǒng": 9676,
  "58 ": 9677,
  "us   ": 9678,
  "ā bù ": 9679,
  "míng hé ": 9680,
  "qǔ zì ": 9681,
  "wǔ hàn ": 9682,
  "ní ào ": 9683,
  "shǐ yòng zhě ": 9684,
  "EC": 9685,
  "lǎ": 9686,
  " bǐ sài ": 9687,
  "zhī jiā ": 9688,
  "gào shì ": 9689,
  " bìng shì ": 9690,
  "mín zhòng": 9691,
  "ā fù ": 9692,
  "nèi ruì ": 9693,
  " zì mǔ ": 9694,
  " céng jīng ": 9695,
  " shì shí shàng ": 9696,
  "sāi ěr wéi yà ": 9697,
  "   dào": 9698,
  "kè sī ": 9699,
  "bā bù ": 9700,
  "tíng de ": 9701,
  "tán hé ": 9702,
  " jūn yǒu ": 9703,
  "fù shǐ ": 9704,
  "zhǔn bèi": 9705,
  "láo gōng ": 9706,
  "ID ": 9707,
  "   X": 9708,
  "gōng hé ": 9709,
  "děng yú ": 9710,
  " xíng rén ": 9711,
  " xiàn míng ": 9712,
  "wù pǐn ": 9713,
  "dān mài": 9714,
  "chǎn wù ": 9715,
  "méi yǒu rèn hé ": 9716,
  "rì běn de ": 9717,
  "měi guó rén kǒu pǔ chá ": 9718,
  "37 nián ": 9719,
  "nán shì ": 9720,
  "chuí": 9721,
  "suǒ yǐ ": 9722,
  "yě shēng ": 9723,
  "rù qiú ": 9724,
  "wǎng yǒu ": 9725,
  "179": 9726,
  " shì yīng guó ": 9727,
  " yú shí de rén kǒu shù liàng wèi rén ": 9728,
  "jī guān ": 9729,
  "zuò zhě ": 9730,
  "qū nèi ": 9731,
  "zhǔ quán ": 9732,
  "fǎ lán kè ": 9733,
  " zhōu kān ": 9734,
  " tóng zhì ": 9735,
  "tài shǒu ": 9736,
  "yīng xióng": 9737,
  " dōng běi": 9738,
  "qiú chǎng ": 9739,
  " 1970 nián ": 9740,
  " lú wǎ ěr shěng ": 9741,
  " jǐng fāng ": 9742,
  "NH": 9743,
  "ty ": 9744,
  " ruì ": 9745,
  " rì hé ": 9746,
  " tā rén ": 9747,
  "jīn shǔ": 9748,
  "èr shí nián ": 9749,
  "shuǐ liàng ": 9750,
  "kě néng xìng ": 9751,
  "máo dùn ": 9752,
  "zéi ": 9753,
  "jiāng jūn": 9754,
  "lín jìn ": 9755,
  "ment ": 9756,
  "qǔ de ": 9757,
  "jiào zōng ": 9758,
  "zhèn róng ": 9759,
  "qǔ mù ": 9760,
  " shì jiè shàng ": 9761,
  "sì chuān shěng ": 9762,
  "ts   ": 9763,
  "wù yǔ ": 9764,
  "lùn de ": 9765,
  "chuān xiàn ": 9766,
  " dà qiáo": 9767,
  " zhōu qī ": 9768,
  " 1941 nián ": 9769,
  "73": 9770,
  " qín": 9771,
  "lù shì ": 9772,
  "200 ": 9773,
  "pǔ jí ": 9774,
  " shì jì zhōng ": 9775,
  " shí dà ": 9776,
  " shí pǐn ": 9777,
  "zhǔ dòng ": 9778,
  "tú àn ": 9779,
  " wèi yú gāi guó xī bù ": 9780,
  "bāo hán le ": 9781,
  " zú": 9782,
  " jiě ": 9783,
  "1995 nián ": 9784,
  "zhēn rén ": 9785,
  "ard   ": 9786,
  "huàn wèi ": 9787,
  "yǔ máo": 9788,
  "jiē xià ": 9789,
  "zhēng fú ": 9790,
  " féng": 9791,
  "chì jīng ": 9792,
  "shùn xù ": 9793,
  " yuán zhù mín ": 9794,
  "tou ": 9795,
  "47 ": 9796,
  "pú": 9797,
  " chóng xīn ": 9798,
  " kǎ ěr ": 9799,
  "cān yì yuán ": 9800,
  "réng wèi ": 9801,
  "bǔ zhù ": 9802,
  "xì jié ": 9803,
  "hǎi nán ": 9804,
  " tè bié ": 9805,
  "bǔ rǔ ": 9806,
  " yǐn": 9807,
  "cho": 9808,
  "zhōng de yī ": 9809,
  "yuán bù ": 9810,
  "piàn duàn ": 9811,
  "lián méng de ": 9812,
  "bō de ": 9813,
  "hù de ": 9814,
  "chèn": 9815,
  " lì táo ": 9816,
  "bèi jǐng": 9817,
  " dé wéi ": 9818,
  " xià le ": 9819,
  "chēng hū ": 9820,
  "bìng rù ": 9821,
  "jiè quán guó zhèng xié ": 9822,
  "wēng": 9823,
  " shū": 9824,
  "   èr ": 9825,
  "niào ": 9826,
  "jiǎ jí ": 9827,
  "pín dào": 9828,
  "shí dài ": 9829,
  " tā yú ": 9830,
  "guān xì de ": 9831,
  "kāi tōng": 9832,
  "lián luò": 9833,
  " qiú duì": 9834,
  "yíng yùn": 9835,
  "xuān yán ": 9836,
  " T ": 9837,
  "bào fā hòu ": 9838,
  "quàn": 9839,
  "huà shì ": 9840,
  "fēi dàn ": 9841,
  "dú de ": 9842,
  "hā lǐ ": 9843,
  " xíng róng ": 9844,
  "xià lìng ": 9845,
  "gé lā sī ": 9846,
  "xié tiáo ": 9847,
  " 1954 nián ": 9848,
  " yú 2005 nián ": 9849,
  " yǒu xiàn gōng sī": 9850,
  "qí zhōng yī ": 9851,
  "wàng yuǎn jìng ": 9852,
  "   14": 9853,
  "   hóng ": 9854,
  "   yóu xì ": 9855,
  "xīn jiàn ": 9856,
  "shù jiā ": 9857,
  "shuí ": 9858,
  "zhǔ dǎo ": 9859,
  "shēn tǐ": 9860,
  "diàn shì dòng huà ": 9861,
  "huǒ chē zhàn ": 9862,
  "nóng chǎng ": 9863,
  " chú cǐ zhī wài ": 9864,
  "chē xíng ": 9865,
  " shì bèi ": 9866,
  " wèi lì ": 9867,
  " zài qián ": 9868,
  " bèi rèn mìng wèi ": 9869,
  "4 yuè 1 rì ": 9870,
  " 1975 nián ": 9871,
  " HR": 9872,
  "bǐ sài de ": 9873,
  " yú 2025 nián ": 9874,
  "pái háng bǎng": 9875,
  "um ": 9876,
  " jǐ": 9877,
  "piàn zhōng ": 9878,
  "hèn ": 9879,
  " zài fǎ guó ": 9880,
  " dà xiǎo ": 9881,
  "yán fā ": 9882,
  " jīn shǔ ": 9883,
  "xuān chēng ": 9884,
  "   jǐn guǎn ": 9885,
  "son": 9886,
  "shuǐ dào ": 9888,
  "hū xī ": 9889,
  "bì yào ": 9890,
  "hěn dà de ": 9891,
  " tiān jīn ": 9892,
  "DS": 9893,
  "wā": 9894,
  "zé yóu ": 9895,
  "huǒ lì ": 9896,
  " dào shí ": 9897,
  " dà lǐ ": 9898,
  " yǐ biàn ": 9899,
  " jiàn zài ": 9900,
  "pǔ lā ": 9901,
  " fú lǎng ": 9902,
  "kuà yuè ": 9903,
  " chì wěi ": 9904,
  "ome": 9905,
  " fā": 9907,
  " tīng ": 9908,
  "   jiǎn lì ": 9909,
  "tiào": 9910,
  "fèn de ": 9911,
  "shā rén ": 9912,
  "yì míng ": 9913,
  "jī chē ": 9914,
  "shěng zhǎng ": 9915,
  "měi xiǎo shí ": 9916,
  "lǐng tǔ": 9917,
  "chuàng zào": 9918,
  " 16 ": 9919,
  " fēi lǜ ": 9920,
  " xiàn shí yóu ": 9921,
  "41 ": 9922,
  "mò nián ": 9923,
  "wǒ de ": 9924,
  "tū jī ": 9925,
  "wēn dài ": 9926,
  " jí wéi ": 9927,
  " yǐ bù ": 9928,
  " xíng tài ": 9929,
  "wù tǐ ": 9930,
  " huò zhě": 9931,
  " de dì sān ": 9932,
  "wú xiàn diàn ": 9933,
  "shēng yuán ": 9934,
  "jié shí ": 9935,
  "shèng dàn ": 9936,
  "1984 nián ": 9937,
  " jí bìng": 9938,
  " yī lǎng": 9939,
  " chū chǎng ": 9940,
  " yóu tài ": 9941,
  "ní sū ": 9942,
  "tiáo jié ": 9943,
  "huǒ chē ": 9944,
  " 180": 9945,
  "nuò fū ": 9946,
  " 60": 9947,
  " jiàn zhù wù ": 9948,
  " 1939 nián ": 9949,
  " yù jì ": 9950,
  "ath": 9951,
  " guāng": 9952,
  "hǎi de ": 9953,
  "jùn de ": 9954,
  " shì é luó sī ": 9955,
  " zhōng jiàng ": 9956,
  " dà bǎn ": 9957,
  " yǔ xī ": 9958,
  " dé jūn ": 9959,
  "kāi zhǎn": 9960,
  " bìng fēi": 9961,
  "jiǎng jīn ": 9962,
  "xǔ kě ": 9963,
  " 1944 nián ": 9964,
  "zhǔ tí qū ": 9965,
  "4 nián de ": 9966,
  "54 ": 9967,
  "8 mǐ ": 9968,
  "   kǎ ": 9969,
  "suǒ shì ": 9970,
  "xù de ": 9971,
  "chóng jiàn": 9972,
  " hé shàng ": 9973,
  " guó ān ": 9974,
  "duō zhǒng": 9975,
  "lóng shěng ": 9976,
  " tī": 9977,
  "xùn sù": 9978,
  "tuō lí ": 9979,
  "zhōng guó dà lù ": 9980,
  " měi zhōu ": 9981,
  "span ": 9982,
  "   jīng lì ": 9983,
  "zào xíng ": 9984,
  "las": 9985,
  "liù míng ": 9986,
  "bǎ tā ": 9987,
  " jí gōng ": 9988,
  "shòu huān yíng ": 9989,
  "yí bàn ": 9990,
  " zhè zuò ": 9991,
  "pái liè ": 9992,
  "jǔ zhèn ": 9993,
  " 1930 nián ": 9994,
  " SAO": 9995,
  "   Al": 9996,
  " E ": 9997,
  "51 ": 9998,
  "EN": 9999,
  "jì zhì ": 10000,
  "xíng de ": 10001,
  "zhí xíng": 10002,
  "nà ěr ": 10003,
  "shèng de ": 10004,
  " dì yī wèi ": 10005,
  " guó yǒu ": 10006,
  "yín jīng ": 10007,
  "chōng mǎn ": 10008,
  " 1940 nián ": 10009,
  "os ": 10010,
  "   lín ": 10011,
  "huì shàng ": 10012,
  " qí B": 10013,
  "gèng dà de ": 10014,
  "sis ": 10015,
  " 17 ": 10016,
  " lì fǎ huì ": 10017,
  "38 nián ": 10018,
  "400": 10019,
  "7 gè ": 10020,
  "lún de ": 10021,
  "màn de ": 10022,
  "jiào dī ": 10023,
  "xiào lǜ ": 10024,
  "biān zǔ ": 10025,
  "tóng yàng ": 10026,
  "KB": 10027,
  " tí chū ": 10028,
  "zuì yǒu ": 10029,
  "jué wèi ": 10030,
  "niào": 10031,
  " jí qí tā ": 10032,
  "qián lái ": 10033,
  "gēn suí ": 10034,
  " zhè shí ": 10035,
  " tiān jīn": 10036,
  "shī fàn dà xué ": 10037,
  "biǎo xiàn chū ": 10038,
  " jí xíng zhèng dān wèi ": 10039,
  "gěn": 10040,
  "   sān ": 10041,
  "fāng xíng ": 10042,
  "zhuāng wèi ": 10043,
  " yī qiè ": 10044,
  "yóu xì de ": 10045,
  "diàn chí ": 10046,
  " duì xiàng ": 10047,
  "zhōu biān": 10048,
  "rén mín zhèng fǔ ": 10049,
  " 1960 nián ": 10050,
  "cǎi yòng le ": 10051,
  " yín wěi ": 10052,
  "0 zuò biāo wèi ": 10053,
  " huái ": 10054,
  "duì dì ": 10055,
  "xiàng jī ": 10056,
  "2019 guān ": 10057,
  " jí tǐ ": 10058,
  " chéng yī ": 10059,
  "wéi yī de ": 10060,
  "jiān chá": 10061,
  " dàn shì zài ": 10062,
  "jiāng hù": 10063,
  "cì shù ": 10064,
  " dàn zuì zhōng ": 10065,
  "dān dú ": 10066,
  " wèi yú yín jīng ": 10067,
  " 13 ": 10068,
  " qí B1900": 10069,
  "0 zuò biāo wèi chì jīng ": 10070,
  "AL": 10071,
  "   shàng ": 10072,
  "   11 yuè ": 10073,
  "fēn qí ": 10074,
  "lián jūn ": 10075,
  "lā wéi ": 10076,
  "bó ěr ": 10077,
  "．": 10078,
  " zài bèi ": 10079,
  " ér hòu ": 10080,
  " chū xí": 10081,
  "yùn yíng": 10082,
  "jiǎn chá": 10083,
  "zhēn zhèng de ": 10084,
  " jiàn zhù miàn jī ": 10085,
  "kòng zhì de ": 10086,
  "OS ": 10087,
  "Vi": 10088,
  "mǎi": 10089,
  " liáng": 10090,
  " kē xué ": 10091,
  "   fēn bù ": 10092,
  "zi shì ": 10093,
  "jiāo zhàn ": 10094,
  "zhōng huá mín guó ": 10095,
  " rén duì ": 10096,
  " dào dá": 10097,
  " sī zhí ": 10098,
  "jiǔ lóng": 10099,
  " ン": 10100,
  " qīng cháo zhèng zhì rén wù ": 10101,
  "ren": 10102,
  "hào hé ": 10103,
  "xiān wéi ": 10104,
  "sǐ le ": 10105,
  " jí bié ": 10106,
  "hòu qī ": 10107,
  "zì wǒ ": 10108,
  "zhǐ dìng": 10109,
  "zuì zhòng yào de ": 10110,
  "qīng xiàng ": 10111,
  "ōu méng ": 10112,
  "mèi ": 10113,
  " huái": 10114,
  "dǎo hé ": 10115,
  "bā sī ": 10116,
  "lùn shì ": 10117,
  "xiě wèi ": 10118,
  "suǒ wèi de ": 10119,
  "quán tǐ ": 10120,
  " shēng tài ": 10121,
  "jué sè de ": 10122,
  "tí qián ": 10123,
  "xiāo fáng ": 10124,
  "gǎn rǎn": 10125,
  " ān huī ": 10126,
  "jiě fàng jūn": 10127,
  "   chē zhàn gòu zào ": 10128,
  "luò fá kè ": 10129,
  "adi": 10130,
  "zhǎi ": 10131,
  "   chú ": 10132,
  "180": 10133,
  "niàng ": 10134,
  "zuān ": 10135,
  " zhōng yī ": 10136,
  " dà jiē ": 10137,
  " dé dào": 10138,
  "zhǔ dǎ ": 10139,
  "jiào dà de ": 10140,
  " shàng le ": 10141,
  "dìng yì wèi ": 10142,
  "jǐn zhāng ": 10143,
  "Al": 10144,
  "her": 10145,
  " kuài ": 10146,
  " wū kè lán": 10147,
  "   píng ": 10148,
  "   5 ": 10149,
  "kàng zhàn ": 10150,
  " shì tái wān ": 10151,
  " shí rèn": 10152,
  " rén zhì ": 10153,
  "jiān chí ": 10154,
  "fú zhuāng ": 10155,
  "sài guàn jūn ": 10156,
  "dān mài ": 10157,
  " 1942 nián ": 10158,
  " 1966 nián ": 10159,
  "mù sī lín": 10160,
  "72": 10161,
  "ra ": 10162,
  "yà hé ": 10163,
  "nèi sī ": 10164,
  "huá de ": 10165,
  "1989 nián ": 10166,
  " jí chéng ": 10167,
  "wéi chí": 10168,
  " dà chén": 10169,
  "huà miàn ": 10170,
  " yīn ér": 10171,
  "fǎ lán xī ": 10172,
  "gē shǒu": 10173,
  "pǐn zhǒng ": 10174,
  "cān guān ": 10175,
  " kǎn ": 10176,
  " hú běi ": 10177,
  "   to   ": 10178,
  " ào dà lì yà ": 10179,
  "2019 guān zhuàng bìng dú": 10180,
  " zī ": 10181,
  " tán ": 10182,
  " zhěng gè ": 10183,
  "tóng wèi ": 10184,
  " yú léi ": 10185,
  " yǐ dōng ": 10186,
  "qián shēn ": 10187,
  "diàn liú ": 10188,
  "jiāng nán ": 10189,
  " rèn mìng ": 10190,
  " xué shù ": 10191,
  "zhòng liàng ": 10192,
  "mì qiè": 10193,
  "shùn shí zhēn yǔ ": 10194,
  "4 mǐ ": 10195,
  " zēng ": 10196,
  "huà yǔ ": 10197,
  "1990 nián ": 10198,
  "fù mǔ ": 10199,
  "fāng biàn ": 10200,
  "tiān wén xué ": 10201,
  "liáng hǎo ": 10202,
  "tiē mù": 10203,
  "kā fēi ": 10204,
  "   xiǎo ": 10205,
  "   guó jì ": 10206,
  "lái shì ": 10207,
  "yòu yì ": 10208,
  "jià de ": 10209,
  " rén quán ": 10210,
  " yī shí ": 10211,
  " dà duì ": 10212,
  "shēng gé wèi ": 10213,
  "ài hào ": 10214,
  "sù sòng ": 10215,
  "62": 10216,
  "   tā de ": 10217,
  "fāng zài ": 10218,
  "yòng zài ": 10219,
  "zhèn jí xíng zhèng dān wèi ": 10220,
  "yín hé ": 10221,
  " xiàn zhǎng ": 10222,
  "xiǎng yào ": 10223,
  " lòu ": 10224,
  "chóng fǎn ": 10225,
  " 1976 nián ": 10226,
  " yīn cǐ zài ": 10227,
  " 1935 nián ": 10228,
  " guó fáng bù ": 10229,
  "wù bù ": 10230,
  "xiàng wèi ": 10231,
  "jiǎng lì ": 10232,
  " shì láng ": 10233,
  " yì xí ": 10234,
  "shǒu xiān ": 10235,
  "róng liàng ": 10236,
  "kàn fǎ ": 10237,
  "rè dài qì xuán ": 10238,
  "kàng rì zhàn zhēng ": 10239,
  "YouTube ": 10240,
  "shòu dào le ": 10241,
  "suí jī ": 10242,
  "zì shā ": 10243,
  " dài lái ": 10244,
  " zuì zǎo": 10245,
  " suì shí ": 10246,
  " rén kǒu wèi ": 10247,
  "se   ": 10248,
  " wēi ěr ": 10249,
  "   gǔ ": 10250,
  "mò de ": 10251,
  "st ": 10252,
  "qū zhú jiàn ": 10253,
  " shàng yìng ": 10254,
  "sì hū": 10255,
  "ài ěr lán": 10256,
  "   ér ": 10257,
  "xùn xī ": 10258,
  " zhōng duàn ": 10259,
  " shí sān ": 10260,
  " shí bā ": 10261,
  " zhì yuán ": 10262,
  "wéi chí ": 10263,
  "huà guī ": 10264,
  "tǐ cāo ": 10265,
  " zhèng fǔ de ": 10266,
  "hùn níng ": 10267,
  "3000": 10268,
  "wá": 10269,
  " shī": 10270,
  "quán yì ": 10271,
  "bā jī sī ": 10272,
  " zài chéng ": 10273,
  " yǐ cǐ ": 10274,
  "zhǔ liú ": 10275,
  "zhù shǒu ": 10276,
  "lián zǎi ": 10277,
  " yóu zhèng ": 10278,
  "shāng hài ": 10279,
  "chóng qìng ": 10280,
  " 1968 nián ": 10281,
  "shān mài de yī bù fèn ": 10282,
  "   zuò wéi ": 10283,
  "wéi gōng ": 10284,
  "fēi de ": 10285,
  "zhǎn lǎn": 10286,
  " shì pín ": 10287,
  " hé yì ": 10288,
  " chéng dū ": 10289,
  " zhōu zhǎng ": 10290,
  "qíng gǎn ": 10291,
  "jiǎng pái ": 10292,
  "è huà ": 10293,
  "qún dǎo de ": 10294,
  " 156": 10295,
  "xiāng gǎng de ": 10296,
  " J ": 10297,
  "5   ": 10298,
  "56 ": 10299,
  "ly   ": 10300,
  " qiān": 10301,
  " tài guó ": 10302,
  " guǎng xī ": 10303,
  "jì bù ": 10304,
  "liǎng zuò ": 10305,
  "céng rèn ": 10306,
  "biān xíng ": 10307,
  "jī huì ": 10308,
  "qū bié ": 10309,
  "3 hào ": 10310,
  "jǐ nèi ": 10311,
  " 164": 10312,
  " 179": 10313,
  " 14 ": 10314,
  "   luó ": 10315,
  "yǔ dì ": 10316,
  "xìng míng ": 10317,
  "fēn xiào ": 10318,
  " zhōu fù zé guǎn xiá ": 10319,
  "miàn xiàng ": 10320,
  "tiáo yuē tǐ xì ": 10321,
  "36 nián ": 10322,
  "   wáng ": 10323,
  " zhōng shān": 10324,
  " jí huì ": 10325,
  " yī rán ": 10326,
  " yǔ wén ": 10327,
  " zuò zhě ": 10328,
  "wài láng ": 10329,
  "zhèn yā ": 10330,
  "xuǎn mín ": 10331,
  " ma ": 10332,
  "pī pàn ": 10333,
  "sì wèi ": 10334,
  "xiǎng yǒu ": 10335,
  "què shí ": 10336,
  "ard": 10337,
  " rén yǔ ": 10338,
  "ES": 10339,
  " sè ": 10340,
  " jiǎo ": 10341,
  "ān zhì ": 10342,
  "hòu tā ": 10343,
  "yóu jú": 10344,
  " cuò": 10345,
  " de shí jiān": 10346,
  "kǎo chá ": 10347,
  "tiān wén tái ": 10348,
  " wén": 10349,
  " yǎ": 10350,
  "kē lì ": 10351,
  "shēn yú ": 10352,
  "méi tóng pái ": 10353,
  "yàn de ": 10354,
  " zài 193": 10355,
  " jiàn kāng": 10356,
  "qián fēng ": 10357,
  "tōng yòng ": 10358,
  "mó nǐ ": 10359,
  " dà bù fèn ": 10360,
  "nuǎn ": 10361,
  "nán jí tiáo yuē tǐ xì ": 10362,
  "34 nián ": 10363,
  "pēng ": 10364,
  " fàn": 10365,
  "tīng dào ": 10366,
  " zài yǒu ": 10367,
  "wéi yě ": 10368,
  " jiā lǐ ": 10369,
  "bǎo xiǎn ": 10370,
  "sù dù": 10371,
  " tān ": 10372,
  " zhǔ rèn ": 10373,
  " nài ": 10374,
  " píng chéng ": 10375,
  " gāi cūn shǐ jiàn yú ": 10376,
  "33 nián ": 10377,
  "pén": 10378,
  "yú wèi ": 10379,
  "zhèng yì ": 10380,
  "tè shì ": 10381,
  "luò yī ": 10382,
  "qù de ": 10383,
  "1972 nián ": 10384,
  "nán bù de ": 10385,
  " jù qíng ": 10386,
  "shā bái ": 10387,
  "shèng mǔ ": 10388,
  " yóu qí ": 10389,
  "dāng xuǎn wèi ": 10390,
  "xié huì": 10391,
  "quán guó zhòng diǎn wén wù bǎo hù dān wèi ": 10392,
  "rè dài": 10393,
  " xíng chéng le ": 10394,
  "qí zhōng yí gè ": 10395,
  " ài ěr ": 10396,
  "xià xiá de yí gè xiāng zhèn jí xíng zhèng dān wèi ": 10397,
  "4 míng ": 10398,
  "89 nián ": 10399,
  " sǐ ": 10400,
  "zhèn dì ": 10401,
  "185": 10402,
  "lí shì ": 10403,
  "ork": 10404,
  " zài nèi ": 10405,
  "dài mǎ ": 10406,
  " dé luó ": 10407,
  "nà xiē": 10408,
  "bō tè ": 10409,
  " shǐ yòng": 10410,
  "ey": 10411,
  " wǎ": 10412,
  "ài lì ": 10413,
  "yě zhàn ": 10414,
  "zé yǐ ": 10415,
  "ont": 10416,
  "tǎ jī ": 10417,
  "gōng mín ": 10418,
  " chéng gōng de ": 10419,
  " kè yǔ ": 10420,
  "tǐ yàn ": 10421,
  " 1959 nián ": 10422,
  " mǔ qīn": 10423,
  " kōng ": 10424,
  " gēng ": 10425,
  " sì shí ": 10426,
  "céng yǒu ": 10427,
  "nóng lì ": 10428,
  " zài shàng ": 10429,
  " chéng fèn ": 10430,
  " rì yǐ ": 10431,
  " jiàn dào ": 10432,
  "lái kàn ": 10433,
  " wéi wú ěr ": 10434,
  "liǎng àn ": 10435,
  "huí dá ": 10436,
  "kuāng jià ": 10437,
  "62 ": 10438,
  "ang ": 10439,
  "1993 nián ": 10440,
  "hūn yīn": 10441,
  " shí èr nián ": 10442,
  "chéng rèn ": 10443,
  " yuè yǔ ": 10444,
  " jī fēn ": 10445,
  "yuē 1": 10446,
  "xí guàn ": 10447,
  "mò qī ": 10448,
  " 1953 nián ": 10449,
  " lián jiē ": 10450,
  " sī lìng yuán ": 10451,
  "Uni": 10452,
  "cí jī ": 10453,
  "fáng xiàn ": 10454,
  " bìng bú shì ": 10455,
  "duō shù": 10456,
  "xí jī": 10457,
  "yīn cǐ ": 10458,
  " An": 10459,
  " zǒng tǒng ": 10460,
  "xiǎo xíng xīng de ": 10461,
  "mín zú zhǔ yì ": 10462,
  "fā biǎo de ": 10463,
  "nán jí tiáo yuē tǐ xì guǎn lǐ ": 10464,
  "hēng": 10465,
  "omi": 10466,
  "   suī rán": 10467,
  "   zhí yè shēng yá ": 10468,
  "le zhōng guó ": 10469,
  "wù zhōng ": 10470,
  "hǎi shì ": 10471,
  "shuǐ shàng ": 10472,
  "sà kè sī ": 10473,
  "shí yī ": 10474,
  " xíng hào ": 10475,
  "fǎ xué ": 10476,
  "xìng bié": 10477,
  "yǎn huà ": 10478,
  " xiāng dāng ": 10479,
  " tou": 10480,
  "yí gè yuè ": 10481,
  "diàn shì jié mù ": 10482,
  "léi dá ": 10483,
  " 159": 10484,
  "duǎn zàn ": 10485,
  "7 mǐ ": 10486,
  "sk": 10487,
  "shěng fù zé guǎn xiá ": 10488,
  " shí tǐ ": 10489,
  " yuán yīn shì ": 10490,
  "zhèng cè": 10491,
  "shǒu lǐng ": 10492,
  " fù zhǔ xí ": 10493,
  " pù": 10494,
  "jiù zhǐ ": 10495,
  "tóng méng": 10496,
  "gù dìng": 10497,
  "huǒ zāi ": 10498,
  "shào nǚ": 10499,
  "miè jué ": 10500,
  " jí běi měi ": 10501,
  "gěn dì ": 10502,
  "49 ": 10503,
  "6 nián de ": 10504,
  "fěng ": 10505,
  "   en": 10506,
  "rì jūn ": 10507,
  "duì zhōng ": 10508,
  "jié chū ": 10509,
  "fēi ěr dé ": 10510,
  "jiǎn yì ": 10511,
  " zhī lǐ ": 10512,
  "qī jiān de ": 10513,
  " huò chēng ": 10514,
  "wǎng wǎng": 10515,
  "zhèng zhì jiā ": 10516,
  " F ": 10517,
  "wéi yī yī ": 10518,
  " bì xū ": 10519,
  " lèi ": 10520,
  "   wài bù ": 10521,
  "duī": 10522,
  "bīng de ": 10523,
  " shì chū ": 10524,
  " yī shī ": 10525,
  " dà qì ": 10526,
  " yǔ qí": 10527,
  "xiàng běi ": 10528,
  "hǎi bá gāo dù ": 10529,
  " dàn yě ": 10530,
  " cǐ cì ": 10531,
  " zhā ": 10532,
  " 1972 nián ": 10533,
  "hē ": 10534,
  "sēng": 10535,
  "zēng shè ": 10536,
  " gōng ān ": 10537,
  " gōng dǎ ": 10538,
  "liú dòng ": 10539,
  "sài tǐng ": 10540,
  "xuǎn xiù": 10541,
  "tíng zhǐ": 10542,
  "yán jiū de ": 10543,
  " de gōng néng ": 10544,
  " 1943 nián ": 10545,
  " yǐn fā ": 10546,
  "31 nián ": 10547,
  "72 ": 10548,
  "māo ": 10549,
  " 21": 10550,
  "   wú ": 10551,
  "yǔ yì ": 10552,
  "shēng hé ": 10553,
  "cì shì ": 10554,
  "gǎi jìn ": 10555,
  " dì chǎn ": 10556,
  " xiàn xìng ": 10557,
  "jiān chá ": 10558,
  "běn kē ": 10559,
  "diàn chē": 10560,
  "táng qū ": 10561,
  " tóng xìng ": 10562,
  "   1999 nián ": 10563,
  "   zhōng huá rén mín gòng hé guó ": 10564,
  "cān sài zī gé ": 10565,
  "yà měi ní yà ": 10566,
  "   jié ": 10567,
  "běi jí ": 10568,
  "liú qiú ": 10569,
  "2000": 10570,
  "rén kǒu wèi ": 10571,
  " bù lǔ ": 10572,
  "jì huà": 10573,
  " chéng jiù ": 10574,
  " yuán lǐ ": 10575,
  "jù yuàn ": 10576,
  "guān lián ": 10577,
  "lù yǐng dài ": 10578,
  " zhè yàng": 10579,
  "dǎo shī ": 10580,
  "pǔ lǔ shì ": 10581,
  " xiāng bǐ ": 10582,
  " rén mín zhèng fǔ": 10583,
  " gè yuè hòu ": 10584,
  "39 nián ": 10585,
  "kuī ": 10586,
  "xìn rèn ": 10587,
  " guó dào ": 10588,
  "qū dòng ": 10589,
  "guān guāng ": 10590,
  "cí diǎn ": 10591,
  "1 jiā ": 10592,
  "cū ": 10593,
  "yst": 10594,
  " yào": 10595,
  " chāo ": 10596,
  "fēn jí ": 10597,
  "yè hé ": 10598,
  " yǒu míng ": 10599,
  " chū yú ": 10600,
  "nèi gé": 10601,
[...]
