{
  "!": 0,
  "\"": 1,
  "#": 2,
  "$": 3,
  "%": 4,
  "&": 5,
  "'": 6,
  "(": 7,
  ")": 8,
  "*": 9,
  "+": 10,
  ",": 11,
  "-": 12,
  ".": 13,
  "/": 14,
  "0": 15,
  "1": 16,
  "2": 17,
  "3": 18,
  "4": 19,
  "5": 20,
  "6": 21,
  "7": 22,
  "8": 23,
  "9": 24,
  ":": 25,
  ";": 26,
  "=": 27,
  "?": 28,
  "@": 29,
  "A": 30,
  "B": 31,
  "C": 32,
  "D": 33,
  "E": 34,
  "F": 35,
  "G": 36,
  "H": 37,
  "I": 38,
  "J": 39,
  "K": 40,
  "L": 41,
  "M": 42,
  "N": 43,
  "O": 44,
  "P": 45,
  "Q": 46,
  "R": 47,
  "S": 48,
  "T": 49,
  "U": 50,
  "V": 51,
  "W": 52,
  "X": 53,
  "Y": 54,
  "Z": 55,
  "[": 56,
  "\\": 57,
  "]": 58,
  "^": 59,
  "_": 60,
  "`": 61,
  "a": 62,
  "b": 63,
  "c": 64,
  "d": 65,
  "e": 66,
  "f": 67,
  "g": 68,
  "h": 69,
  "i": 70,
  "j": 71,
  "k": 72,
  "l": 73,
  "m": 74,
  "n": 75,
  "o": 76,
  "p": 77,
  "q": 78,
  "r": 79,
  "s": 80,
  "t": 81,
  "u": 82,
  "v": 83,
  "w": 84,
  "x": 85,
  "y": 86,
  "z": 87,
  "|": 88,
  "~": 89,
  "\n": 162,
  " ": 163,
  "": 164,
  "�": 170,
  "ng": 199,
  "h�": 200,
  "à": 201,
  "ā": 202,
  "ì": 203,
  "á": 204,
  "ī": 205,
  "è": 206,
  "ǎ": 207,
  "  ": 208,
  "é": 209,
  "í": 210,
  "sh�": 211,
  "ù": 212,
  "án": 213,
  "zh": 214,
  "ǐ": 215,
  "ō": 216,
  "ji": 217,
  "de": 218,
  "àn": 219,
  "ē": 220,
  "zh�": 221,
  "sh": 222,
  "ě": 223,
  "ó": 224,
  "ǔ": 225,
  "xi": 226,
  "ò": 227,
  "ú": 228,
  "ān": 229,
  "   ": 230,
  "ài": 231,
  "ū": 232,
  "ōng": 233,
  "ǒ": 234,
  "shì": 236,
  "hu": 237,
  "èi": 238,
  "gu": 239,
  "ián": 240,
  "hé": 241,
  "ào": 242,
  "āng": 243,
  "íng": 244,
  "yu": 245,
  "ǎn": 246,
  "ch": 247,
  "nián": 248,
  "yī": 249,
  "ǎng": 250,
  "én": 251,
  "ǒu": 252,
  "ìng": 253,
  "wèi": 254,
  "ǎo": 255,
  "zài": 256,
  "、": 257,
  "jī": 258,
  "ēng": 259,
  "zhōng": 260,
  "xī": 261,
  "bù": 262,
  "jì": 263,
  "àng": 264,
  "li": 265,
  "zhè": 266,
  "shí": 267,
  "dì": 268,
  "guó": 269,
  "yú": 270,
  "rén": 271,
  "òng": 272,
  "ch�": 273,
  "āo": 274,
  "du": 275,
  "ché": 276,
  "yǐ": 277,
  "lì": 278,
  "áng": 279,
  "yì": 280,
  "uò": 281,
  "ái": 282,
  "zhì": 283,
  "chéng": 284,
  "éi": 285,
  "xu": 286,
  "gōng": 287,
  "jí": 288,
  "�u": 289,
  "ěi": 290,
  "iàn": 291,
  "ēn": 292,
  "óng": 293,
  "yuè": 294,
  "yǒu": 295,
  "yuán": 296,
  "dà": 297,
  "qi": 298,
  "ōu": 299,
  "lǐ": 300,
  "20": 301,
  "óu": 302,
  "āi": 303,
  "xiàn": 304,
  "jiā": 305,
  "sī": 306,
  "ūn": 307,
  "xíng": 308,
  "yǔ": 309,
  "èn": 310,
  "ǒng": 311,
  "ín": 312,
  "tā": 313,
  "rì": 314,
  "zhī": 315,
  "hòu": 316,
  "ǎi": 317,
  "gè": 318,
  "zhà": 319,
  "éng": 320,
  "le": 321,
  "wéi": 322,
  "huì": 323,
  "dào": 324,
  "19": 325,
  "bi": 326,
  "shà": 327,
  "qī": 328,
  "qí": 329,
  "shè": 330,
  "su": 331,
  "zhèng": 332,
  "míng": 333,
  "jiàn": 334,
  "xué": 335,
  "chū": 336,
  "yù": 337,
  "ěng": 338,
  "zuò": 339,
  "shēng": 340,
  "duì": 341,
  "yóu": 342,
  "qū": 343,
  "shàng": 344,
  "ěn": 345,
  "dé": 346,
  "lù": 347,
  "bèi": 348,
  "chá": 349,
  "ti": 350,
  "shǐ": 351,
  "zhàn": 352,
  "zhǔ": 353,
  "ēi": 354,
  "qu": 355,
  "jù": 356,
  "xīn": 357,
  "jūn": 358,
  "zhu": 359,
  "ěr": 360,
  "áo": 361,
  "shù": 362,
  "uì": 363,
  "rèn": 364,
  "fā": 365,
  "wù": 366,
  "bìng": 367,
  "kè": 368,
  "ér": 369,
  "dài": 370,
  "yí": 371,
  "jìn": 372,
  "zì": 373,
  "yīn": 374,
  "fù": 375,
  "fāng": 376,
  "jīng": 377,
  "nán": 378,
  "huà": 379,
  "xì": 380,
  "zhōu": 381,
  "píng": 382,
  "òu": 383,
  "xià": 384,
  "lái": 385,
  "yòng": 386,
  "shu": 387,
  "guān": 388,
  "tóng": 389,
  "》": 390,
  "《": 391,
  "fǎ": 392,
  "zhù": 393,
  "měi": 394,
  "há": 395,
  "·": 396,
  "jiān": 397,
  "jǐ": 398,
  "huò": 399,
  "dù": 400,
  "chu": 401,
  "běn": 402,
  "xiāng": 403,
  "zhí": 404,
  "dòng": 405,
  "xiàng": 406,
  "mín": 407,
  "jiāng": 408,
  "fēn": 409,
  "shǒu": 410,
  "quán": 411,
  "wén": 412,
  "yán": 413,
  "hà": 414,
  "suǒ": 415,
  "jiào": 416,
  "qián": 417,
  "diàn": 418,
  "tè": 419,
  "di": 420,
  "duō": 421,
  "ún": 422,
  "zuì": 423,
  "kāi": 424,
  "tu": 425,
  "jié": 426,
  "lián": 427,
  "zhǐ": 428,
  "kě": 429,
  "dàn": 430,
  "mù": 431,
  "yè": 432,
  "fú": 433,
  "mǎ": 434,
  "yě": 435,
  "dōng": 436,
  "qiú": 437,
  "běi": 438,
  "「": 439,
  "」": 440,
  "gāo": 441,
  "yà": 442,
  "qǐ": 443,
  "jiē": 444,
  "miàn": 445,
  "hǎi": 446,
  "zhǎng": 447,
  "shī": 448,
  "jīn": 449,
  "cǐ": 450,
  "lu": 451,
  "nèi": 452,
  "tǐ": 453,
  "sài": 454,
  "sān": 455,
  "tái": 456,
  "gé": 457,
  "xìng": 458,
  "guò": 459,
  "rù": 460,
  "201": 461,
  "děng": 462,
  "yào": 463,
  "ju": 464,
  "chē": 465,
  "cì": 466,
  "wǔ": 467,
  "gāi": 468,
  "dìng": 469,
  "cháng": 470,
  "biǎo": 471,
  "lā": 472,
  "gòng": 473,
  "jiè": 474,
  "shòu": 475,
  "dǎo": 476,
  "shān": 477,
  "chǎng": 478,
  "sì": 479,
  "bǐ": 480,
  "zé": 481,
  "tí": 482,
  "kē": 483,
  "dāng": 484,
  "néng": 485,
  "èr": 486,
  "wài": 487,
  "dān": 488,
  "xù": 489,
  "zi": 490,
  "kǒu": 491,
  "xiǎo": 492,
  "zǔ": 493,
  "bā": 494,
  "jué": 495,
  "lín": 496,
  "liú": 497,
  "shěng": 498,
  "yīng": 499,
  "ku": 500,
  "lán": 501,
  "luó": 502,
  "tōng": 503,
  "200": 504,
  "īng": 505,
  "�ng": 506,
  "mǐ": 507,
  "zhòng": 508,
  "en": 509,
  "zhě": 510,
  "shǔ": 511,
  "tiān": 512,
  "zhèn": 513,
  "ǚ": 514,
  "qì": 515,
  "zhǒng": 516,
  "liè": 517,
  "chēng": 518,
  "shū": 519,
  "yuàn": 520,
  "bǎo": 521,
  "tài": 522,
  "fǔ": 523,
  "fēng": 524,
  "gǔ": 525,
  "qīng": 526,
  "shēn": 527,
  "wáng": 528,
  "yùn": 529,
  "guǎn": 530,
  "fēi": 531,
  "jiù": 532,
  "liǎng": 533,
  "céng": 534,
  "méi": 535,
  "10": 536,
  "fèn": 537,
  "hào": 538,
  "yǎn": 540,
  "wěi": 541,
  "zǒng": 542,
  "xuǎn": 543,
  "xiào": 544,
  "dá": 545,
  "nà": 546,
  "liàng": 547,
  "bō": 548,
  "zú": 549,
  "jìng": 550,
  "bào": 551,
  "ní": 552,
  "wú": 553,
  "tǒng": 554,
  "huá": 555,
  "jiāo": 556,
  "yuē": 557,
  "yǐng": 558,
  "biàn": 559,
  "xīng": 560,
  "sù": 561,
  "shuǐ": 562,
  "yáng": 563,
  "hù": 564,
  "men": 565,
  "bāo": 566,
  "gē": 567,
  "bó": 568,
  "cān": 569,
  "cóng": 570,
  "diǎn": 571,
  "bì": 572,
  "rú": 573,
  "bàn": 574,
  "biān": 575,
  "wǎng": 576,
  "qǔ": 577,
  "mi": 578,
  "chǎn": 579,
  "sè": 580,
  "zī": 581,
  "chuán": 582,
  "00": 583,
  "shèng": 584,
  "rán": 585,
  "tú": 586,
  "zhāng": 587,
  "pǔ": 588,
  "gǎi": 589,
  "gǎng": 590,
  "nǚ": 591,
  "lìng": 592,
  "luò": 593,
  "yòu": 594,
  "tóu": 595,
  "cè": 596,
  "l�": 597,
  "chí": 598,
  "de ": 599,
  " de ": 600,
  "shì ": 601,
  " shì ": 602,
  " nián": 603,
  "n ": 604,
  " nián ": 605,
  "wèi ": 606,
  "zài ": 607,
  " wèi ": 608,
  " zài ": 609,
  " l": 610,
  "ān ": 611,
  "hé ": 612,
  "zhōng ": 613,
  " m": 614,
  " hé ": 615,
  "bù ": 616,
  "dì ": 617,
  "ǎn ": 618,
  "àn ": 619,
  "shí ": 620,
  "guó ": 621,
  " p": 622,
  "rén ": 623,
  "yú ": 624,
  " xi": 625,
  "lì ": 626,
  " zhōng ": 627,
  "yī ": 628,
  "ū ": 629,
  "gōng ": 630,
  "zhì ": 631,
  " d": 632,
  " b": 633,
  " bù ": 634,
  " yuè": 635,
  " yì": 636,
  " t": 637,
  " shí ": 638,
  " w": 639,
  "chéng ": 640,
  "jí ": 641,
  " yuè ": 642,
  " dì ": 643,
  " yǒu": 644,
  " f": 645,
  " rén ": 646,
  " yǐ": 647,
  " yú ": 648,
  " g": 649,
  " k": 650,
  " lì ": 651,
  " zhì ": 652,
  " gōng ": 653,
  " guó ": 654,
  "yuán ": 655,
  " ji": 656,
  "jì ": 657,
  " y": 658,
  " jí ": 659,
  " dà": 660,
  "ǔ ": 661,
  " xiàn": 662,
  " rì": 663,
  " chéng ": 664,
  " z": 665,
  " hu": 666,
  " gè": 667,
  "í ": 668,
  " tā": 669,
  " yī ": 670,
  " c": 671,
  " yǔ": 672,
  "ng ": 673,
  " lǐ": 674,
  " xíng": 675,
  " yì ": 676,
  " zh": 677,
  " yǒu ": 678,
  "āng ": 679,
  " dào": 680,
  " jī": 681,
  " zhī": 682,
  "jiā ": 683,
  "hòu ": 684,
  " sī": 685,
  " rì ": 686,
  " s": 687,
  " qí": 688,
  " yuán ": 689,
  " míng": 690,
  " huì": 691,
  "ǎng ": 692,
  " chū": 693,
  " xué": 694,
  "wéi ": 695,
  "áng ": 696,
  "àng ": 697,
  " xī": 698,
  " le": 699,
  " gu": 700,
  " jì ": 701,
  " dé": 702,
  " zhèng": 703,
  " qi": 704,
  " 1": 705,
  " jiàn": 706,
  "ào ": 707,
  " yǐ ": 708,
  " ěr": 709,
  " yóu": 710,
  " zhàn": 711,
  " shēng": 712,
  " lù": 713,
  " duì": 714,
  " n": 715,
  " ér": 716,
  " r": 717,
  " sh": 718,
  " shàng": 719,
  " bìng": 720,
  " bèi": 721,
  "qū ": 722,
  " hòu ": 723,
  "zuò ": 724,
  " jù": 725,
  " zhǔ": 726,
  " shǐ": 727,
  " shè": 728,
  " rèn": 729,
  " ch�": 730,
  " yǔ ": 731,
  " zhu": 732,
  " x": 733,
  " xiàn ": 734,
  " jūn": 735,
  " xì": 736,
  " yīn": 737,
  " jiā ": 738,
  " kè": 739,
  " jìn": 740,
  " wù": 741,
  " píng": 742,
  " dòng": 743,
  " zì": 744,
  "íng ": 745,
  " zhōu": 746,
  " shù": 747,
  " 19": 748,
  " fā": 749,
  " h": 750,
  " fù": 751,
  " yòng": 752,
  " há": 753,
  " fāng": 754,
  " jīng": 755,
  " yù": 756,
  " dàn": 757,
  " sī ": 758,
  " jǐ": 759,
  " xíng ": 760,
  " tā ": 761,
  "án ": 762,
  " dào ": 763,
  "āo ": 764,
  " ch": 765,
  " huà": 766,
  "ā ": 767,
  "ǎo ": 768,
  " míng ": 769,
  " zhī ": 770,
  " zhè": 771,
  "xiāng ": 772,
  " nán": 773,
  " huò": 774,
  " xīn": 775,
  " dài": 776,
  " jiāng": 777,
  " wéi ": 778,
  " xiàng": 779,
  " qī": 780,
  " jī ": 781,
  " jiào": 782,
  "ǎ ": 783,
  "ài ": 784,
  " lái": 785,
  " dà ": 786,
  " zhèng ": 787,
  " xià": 788,
  " fēn": 789,
  " q": 790,
  " tóng": 791,
  "ī ": 792,
  " shǒu": 793,
  " miàn": 794,
  "yí gè": 795,
  " mù": 796,
  " zhù": 797,
  " fǎ": 798,
  " j": 799,
  " dù": 800,
  "ǐ ": 801,
  " wén": 802,
  " tè": 803,
  " cǐ": 804,
  " zhí": 805,
  " mǎ": 806,
  " kě": 807,
  " guān": 808,
  " yě": 809,
  " měi": 810,
  " xī ": 811,
  " qián": 812,
  " yán": 813,
  " sài": 814,
  " su": 815,
  " suǒ": 816,
  " zuì": 817,
  " gé": 818,
  " zhǐ": 819,
  " biǎo": 820,
  " yào": 821,
  " jiē": 822,
  " xué ": 823,
  " gāo": 824,
  " li": 825,
  " tǐ": 826,
  " jiān": 827,
  " jié": 828,
  " děng": 829,
  " qū ": 830,
  " yè": 831,
  " hǎi": 832,
  " zhǎng": 833,
  " běi": 834,
  " fú": 835,
  " quán": 836,
  " dìng": 837,
  " 2": 838,
  " lián": 839,
  " h�": 840,
  " gāi": 841,
  " cháng": 842,
  " xìng": 843,
  " lán": 844,
  " zé": 845,
  " duō": 846,
  " chē": 847,
  " dōng": 848,
  " luó": 849,
  " rù": 850,
  " cì": 851,
  " tu": 852,
  " tí": 853,
  " diàn": 854,
  " qiú": 855,
  " zuò ": 856,
  " dǎo": 857,
  " shěng": 858,
  " guò": 859,
  " shī": 860,
  " jīn": 861,
  " běn": 862,
  " kāi": 863,
  " shòu": 864,
  " zi": 865,
  " lǐ ": 866,
  " bǐ": 867,
  " tōng": 868,
  " wài": 869,
  " wù ": 870,
  " dāng": 871,
  " tái": 872,
  " liè": 873,
  " shū": 874,
  " chá": 875,
  " lā": 876,
  " néng": 877,
  " zǔ": 878,
  " tǒng": 879,
  " bi": 880,
  " shān": 881,
  " nèi": 882,
  " liú": 883,
  " 3": 884,
  " ti": 885,
  " wǔ": 886,
  " mǐ": 887,
  " xiāng ": 888,
  " chǎng": 889,
  " mín": 890,
  " jué": 891,
  "lǜ": 892,
  "1 nián ": 893,
  "shé": 894,
  "0 nián ": 895,
  " chēng": 896,
  " shu": 897,
  " qǐ": 898,
  "5 nián ": 899,
  " shǔ": 900,
  " hào": 901,
  " yīng": 902,
  " kē": 903,
  "2 nián ": 904,
  " yà": 905,
  " zhòng": 906,
  " lín": 907,
  "4 nián ": 908,
  " du": 909,
  " méi": 910,
  " xiǎo": 911,
  "8 nián ": 912,
  " shēn": 913,
  " dān": 914,
  " fēng": 915,
  " yuè 1": 916,
  " tiān": 917,
  " gòng": 918,
  " qì": 919,
  " xù": 920,
  " xiē": 921,
  " sì": 922,
  "3 nián ": 923,
  " chu": 924,
  " céng": 925,
  " kuò": 926,
  " yǐng": 927,
  " lèi": 928,
  " yǎn": 929,
  " sān": 930,
  "6 nián ": 931,
  " bāo": 932,
  " yuè 2": 933,
  "202": 934,
  " zǒng": 935,
  " jiù": 936,
  " fēi": 937,
  " pǐ": 938,
  " sè": 939,
  " lóng": 940,
  " yùn": 941,
  " gǔ": 942,
  " yí": 943,
  " bǎo": 944,
  "shén ": 945,
  "7 nián ": 946,
  " gòu": 947,
  " xuǎn": 948,
  " tài": 949,
  " bā": 950,
  " chǎn": 951,
  " jiā": 952,
  " zhǒng": 953,
  " liǎng": 954,
  " yáng": 955,
  " guǎn": 956,
  " dá": 957,
  " zhēng": 958,
  "lǐ ": 959,
  " wǎng": 960,
  " ní": 961,
  " hù": 962,
  " dōu": 963,
  " ān ": 964,
  " wú": 965,
  " qǔ": 966,
  " mén": 967,
  " wěi": 968,
  " zhà": 969,
  " liàng": 970,
  " zhě": 971,
  " zhōng guó ": 972,
  " ku": 973,
  "chén ": 974,
  " nà": 975,
  " hòu": 976,
  " yuàn": 977,
  " cóng": 978,
  " jiāo": 979,
  " wéi": 980,
  " xu": 981,
  " jiè": 982,
  " qīng": 983,
  " biàn": 984,
  " shuǐ": 985,
  " wèi yú ": 986,
  " diǎn": 987,
  " yuán": 988,
  "or": 989,
  " biān": 990,
  " 4": 991,
  "hàn ": 992,
  " qiān ": 993,
  " bì": 994,
  " lìng": 995,
  " zhāng": 996,
  " bó": 997,
  " mó": 998,
  "er": 999,
  " 5": 1000,
  " xiān ": 1001,
  " 201": 1002,
  "   19": 1003,
  " lún": 1004,
  " bào": 1005,
  " wáng": 1006,
  " bān ": 1007,
  " 200": 1008,
  " wān ": 1009,
  " yòu": 1010,
  " zuò": 1011,
  " lí ": 1012,
  " róng": 1013,
  " bō": 1014,
  " xiào": 1015,
  " qū": 1016,
  " jìng": 1017,
  "9 nián ": 1018,
  " fū ": 1019,
  " fǔ": 1020,
  " méng": 1021,
  " pǐn ": 1022,
  " fǎn ": 1023,
  " mò": 1024,
  " rán": 1025,
  " mì": 1026,
  " bù": 1027,
  " zī": 1028,
  " rú": 1029,
  " zú": 1030,
  " àn ": 1031,
  " hái": 1032,
  " bǎn ": 1033,
  "què": 1034,
  " cān": 1035,
  " xié": 1036,
  " luò": 1037,
  " wēi": 1038,
  " shèng": 1039,
  " xīng": 1040,
  " gē": 1041,
  " mìng": 1042,
  " lǜ": 1043,
  " yuē": 1044,
  " huó": 1045,
  " zhǎn ": 1046,
  " chí": 1047,
  " dú": 1048,
  " yú": 1049,
  " cè": 1050,
  "e   ": 1051,
  " tóu": 1052,
  " wàn ": 1053,
  " tā men": 1054,
  " píng fāng": 1056,
  " pǔ": 1057,
  " gōng sī": 1058,
  " zhàn ": 1059,
  " chéng": 1060,
  " gǎi": 1061,
  " zhèn": 1062,
  "an": 1063,
  " pi": 1064,
  " mǔ ": 1065,
  " kōng": 1066,
  " nǚ": 1067,
  " jià": 1068,
  " cái": 1069,
  " jí": 1070,
  " èr": 1071,
  "a ": 1072,
  " shuō": 1073,
  " sù": 1074,
  " bàn": 1075,
  " jiě": 1076,
  " piàn": 1077,
  " bié": 1078,
  " gēn": 1079,
  " xí ": 1080,
  " mi": 1081,
  " de yī ": 1082,
  "t ": 1083,
  "měi guó ": 1084,
  " 6": 1085,
  " jiǎn ": 1086,
  " chú": 1087,
  " jì": 1088,
  " chuán": 1089,
  " jǐn ": 1090,
  " tú": 1091,
  "12": 1092,
  " yǐn ": 1093,
  " pái": 1094,
  " yī": 1095,
  " jú": 1096,
  " di": 1097,
  " huá": 1098,
  " jiū ": 1099,
  " xiǎng ": 1100,
  " fàn ": 1101,
  " zh�": 1102,
  " gù": 1103,
  " de dì ": 1104,
  " rén kǒu": 1105,
  " bāo kuò": 1106,
  "ar": 1107,
  " hàn ": 1108,
  " chù": 1109,
  " zhēn": 1110,
  " zhōng": 1111,
  " yǐ jí ": 1112,
  " lùn ": 1113,
  " hán ": 1114,
  " yìng": 1115,
  " xiū ": 1116,
  " jǐng ": 1117,
  " shì jiè": 1118,
  " qiě": 1119,
  " cūn": 1120,
  " xiá": 1121,
  " gōng lǐ ": 1122,
  " bīng": 1123,
  " shén ": 1124,
  " cí ": 1125,
  " rén": 1126,
  "   201": 1127,
  " guǒ": 1128,
  " tiáo": 1129,
  " zhèng fǔ": 1130,
  " qí zhōng ": 1131,
  " chū ": 1132,
  " ni": 1133,
  " cháo": 1134,
  " zhuān ": 1135,
  " pèi": 1136,
  " shǐ yòng": 1137,
  "11": 1138,
  " zōng": 1139,
  " màn ": 1140,
  " táng ": 1141,
  " lǐng ": 1142,
  " fèn": 1143,
  " de yí gè": 1144,
  " jǔ ": 1145,
  " xū ": 1146,
  " de shì ": 1147,
  "   zài ": 1148,
  " yú 19": 1149,
  " mǐ ": 1150,
  "rén kǒu": 1151,
  " 7": 1152,
  " jiǎng ": 1153,
  "on": 1154,
  " léi": 1155,
  " wū ": 1156,
  " sū ": 1157,
  " lè": 1158,
  " hú": 1159,
  " dǎng ": 1160,
  " 10": 1161,
  " qù": 1162,
  "e ": 1163,
  " shì yī ": 1164,
  " é": 1165,
  " fèi": 1166,
  " tā de ": 1167,
  " xiāng": 1168,
  " bái": 1169,
  " xìn ": 1170,
  " shí": 1171,
  " dòng ": 1172,
  " 8": 1173,
  " suì": 1174,
  " shāng ": 1175,
  " bù fèn": 1176,
  " bǎi": 1177,
  " lù ": 1178,
  " chóng": 1179,
  " 18": 1180,
  " rì běn": 1181,
  " shōu": 1182,
  " hé": 1183,
  " tīng": 1184,
  "s ": 1185,
  "18": 1186,
  " dū ": 1187,
  " tián": 1188,
  " hóng": 1189,
  " zhì": 1190,
  " chén ": 1191,
  " huí ": 1192,
  " yīn cǐ": 1193,
  " duàn ": 1194,
  " chéng wéi ": 1195,
  " ā": 1196,
  " rén mín": 1197,
  " shì wèi ": 1198,
  "ni": 1199,
  " cǎi": 1200,
  " měi guó ": 1201,
  " lēi": 1202,
  " huáng ": 1203,
  " C": 1204,
  " lì": 1205,
  " yí gè": 1206,
  " huì ": 1207,
  "èng ": 1208,
  " wèn": 1210,
  " shà": 1211,
  "zhōng guó ": 1212,
  " qiáo": 1213,
  "shì de ": 1214,
  " qīn ": 1215,
  " zhào": 1216,
  " ěr ": 1217,
  " S": 1218,
  " guǎng ": 1219,
  " zēng": 1220,
  " què": 1221,
  " tíng ": 1222,
  " pò": 1223,
  "s   ": 1224,
  " huò dé": 1225,
  " xùn ": 1226,
  " sà": 1227,
  " kǒu": 1228,
  " lǚ": 1229,
  " kù": 1230,
  " hé guó ": 1231,
  "uǒ": 1232,
  " suí ": 1233,
  " A": 1234,
  "zhèn ": 1235,
  " dēng": 1236,
  " jù ": 1237,
  "tiě": 1238,
  " yǒng": 1239,
  " 9": 1240,
  " gèng ": 1241,
  " kāi shǐ": 1242,
  " huà ": 1243,
  " wǒ": 1245,
  " zhū ": 1246,
  " zhuǎn ": 1247,
  " chà": 1248,
  "īn ": 1249,
  " huǒ": 1250,
  " zhǔn ": 1251,
  " guó": 1252,
  " zhǎng ": 1253,
  " sòng": 1254,
  " cún": 1255,
  "—": 1256,
  " tiě": 1257,
  "in": 1258,
  " xì ": 1259,
  " jiàn ": 1260,
  " gǎn ": 1261,
  "yìng": 1262,
  " zhuāng ": 1263,
  " guī": 1264,
  " yuán huì": 1265,
  " dǎng": 1266,
  " píng ": 1267,
  "ul": 1268,
  " fáng ": 1269,
  " dì": 1270,
  " lóu": 1271,
  " fàng ": 1272,
  " 199": 1273,
  " tóng shí ": 1274,
  " jiǔ ": 1275,
  " gěi": 1276,
  "lì shǐ": 1277,
  " xún": 1278,
  " sài ": 1279,
  " jū ": 1280,
  " zhǔ yào": 1281,
  " dǐ": 1282,
  "1 ": 1283,
  " chǔ ": 1284,
  "   dì ": 1285,
  " yóu yú ": 1286,
  " kǎ": 1287,
  " dài biǎo": 1288,
  " shā": 1289,
  " tuō": 1290,
  "n de ": 1291,
  " háng ": 1292,
  " zhěng": 1293,
  " lú": 1294,
  " M": 1295,
  " men": 1296,
  " shā ": 1297,
  "al": 1298,
  " yá": 1299,
  " yù ": 1300,
  " dà xué": 1301,
  " líng ": 1302,
  " xuān ": 1303,
  " táo": 1304,
  " wán": 1305,
  "qíng ": 1306,
  "cháo": 1307,
  " zài 19": 1308,
  " 20": 1309,
  " de m": 1310,
  " dí ": 1311,
  " kǎ ": 1312,
  " 15": 1313,
  " pài": 1314,
  " huàn ": 1315,
  " guāng ": 1316,
  " yíng ": 1317,
  " chuān ": 1318,
  " zhōng xīn": 1319,
  "tiáo": 1320,
  "liù": 1321,
  " yīn wèi ": 1322,
  " zào": 1323,
  " bēi": 1324,
  " yìn ": 1325,
  " le ": 1326,
  " dì yī ": 1327,
  " zǐ": 1328,
  " de shí ": 1329,
  " kòng": 1330,
  "orm": 1331,
  " wài ": 1332,
  "xiāng gǎng": 1333,
  " lì yà": 1334,
  " sāi": 1335,
  "fǎ guó ": 1336,
  "kāi shǐ": 1337,
  " lǔ ": 1338,
  " xiāng gǎng": 1339,
  " dì èr": 1340,
  " shù ": 1341,
  "20 nián ": 1342,
  "duàn ": 1343,
  " yíng": 1344,
  "wù ": 1345,
  " xiě": 1346,
  " jiān ": 1347,
  " sēn": 1348,
  "   S": 1349,
  " xì tǒng": 1350,
  "2 ": 1351,
  " kè ": 1352,
  " ge": 1353,
  " shàng ": 1354,
  "àn de ": 1355,
  " hěn": 1356,
  " zhōng y": 1357,
  " yùn dòng": 1358,
  " nián de ": 1359,
  " dì qū ": 1360,
  "0 ": 1361,
  " mù ": 1362,
  " píng fāng gōng lǐ ": 1363,
  " duì ": 1364,
  " xiāo ": 1365,
  " yán jiū ": 1366,
  "ula ": 1367,
  " qún": 1368,
  " pàn ": 1369,
  " shì jì ": 1370,
  " qiáng ": 1371,
  "ormula ": 1372,
  " xiè": 1373,
  " mài": 1374,
  "rì běn": 1375,
  " shēng ": 1376,
  " guàn ": 1377,
  " guó jiā ": 1378,
  " zhōng de ": 1379,
  " xiǎn ": 1380,
  " yín": 1381,
  " nuò": 1382,
  " dé ": 1383,
  " bīn ": 1384,
  " bāng ": 1385,
  "jiān ": 1386,
  " shì zài ": 1387,
  "   200": 1388,
  " réng": 1389,
  "huà ": 1390,
  " tǔ ": 1391,
  "t   ": 1392,
  " B": 1393,
  " hè": 1394,
  "th": 1395,
  "zhèng fǔ": 1396,
  " bú": 1397,
  "ūn ": 1398,
  " jiǎ": 1399,
  "ǔ duō": 1400,
  " kě yǐ ": 1401,
  " méi yǒu ": 1402,
  " 16": 1403,
  " shěng ": 1404,
  " bù tóng": 1405,
  " bá": 1406,
  " zǐ ": 1407,
  "kuàng ": 1408,
  " 198": 1409,
  " ào ": 1410,
  " biǎo shì ": 1411,
  " dòu": 1412,
  " tíng": 1413,
  " zhè xiē": 1414,
  " dān rèn": 1415,
  "jǐn ": 1416,
  "hóng": 1417,
  "d   ": 1418,
  " de p": 1419,
  " T": 1420,
  " guī ": 1421,
  " zhōng huá": 1422,
  "ou": 1423,
  "shuō": 1424,
  " qíng ": 1425,
  " tuán ": 1426,
  "3 ": 1427,
  " wǎ": 1428,
  " pī": 1429,
  " I": 1430,
  " ài": 1431,
  "   202": 1432,
  " xiǎng": 1433,
  " zào ": 1434,
  "am": 1435,
  " hā": 1436,
  " zhōu ": 1437,
  " gòng hé guó ": 1438,
  "yuǎn ": 1439,
  " wán ": 1440,
  " zì jǐ": 1441,
  " kě néng": 1442,
  "ü": 1443,
  "zhào": 1444,
  " shì jiàn": 1445,
  "hú": 1446,
  "wēi": 1447,
  " 202": 1448,
  "shǐ yòng": 1449,
  " děng ": 1450,
  " xiù": 1451,
  " jìn xíng": 1452,
  " yuè 3": 1453,
  " kàn ": 1454,
  " 12": 1455,
  " zuǒ": 1456,
  "diàn yǐng": 1457,
  " dǎ": 1458,
  " zi ": 1459,
  " yōng": 1460,
  "tái wān ": 1461,
  " bài": 1462,
  " gé ": 1463,
  " zhuāng": 1464,
  " miàn jī ": 1465,
  " guó jì ": 1466,
  " tǎ": 1467,
  "ǎn de ": 1468,
  " xià ": 1469,
  " dùn ": 1470,
  " dīng": 1471,
  "zhuān ": 1472,
  " nóng": 1473,
  " líng": 1474,
  "üè": 1475,
  " rèn wéi ": 1476,
  " shī ": 1477,
  " ruì": 1478,
  " yàn ": 1479,
  " ào": 1480,
  " yōu": 1481,
  " jiàn zhù": 1482,
  " qiān mǐ": 1483,
  " mǎn ": 1484,
  " fǎ ": 1485,
  " háng": 1486,
  " P": 1487,
  "gù": 1488,
  " máo": 1489,
  " bǔ ": 1490,
  " ōu": 1491,
  " huī": 1492,
  " xiāo": 1493,
  " tái wān ": 1494,
  " D": 1495,
  " tōng guò": 1496,
  " zhī yī ": 1497,
  " shí qī": 1498,
  "zhèng zhì ": 1500,
  " zhuàng ": 1501,
  " hēi": 1502,
  "5 ": 1503,
  "   shēng": 1504,
  " lǐng": 1505,
  " jūn ": 1506,
  " hòu lái": 1507,
  " chuàng ": 1508,
  "a   ": 1509,
  " jùn ": 1510,
  " huáng": 1511,
  "4 ": 1512,
  " xióng": 1513,
  "hài": 1514,
  " gào ": 1515,
  " míng wèi ": 1516,
  "jiǔ ": 1517,
  "ri": 1518,
  " chǎng ": 1519,
  " yāo ": 1520,
  "bù fèn": 1521,
  "0 nián dài": 1522,
  " xiàng ": 1523,
  " tǎn ": 1524,
  " de c": 1525,
  "tuō": 1526,
  " gǎng": 1527,
  "jǔ ": 1528,
  " huán ": 1529,
  " 17": 1530,
  "qīn ": 1531,
  " xué yuàn": 1532,
  " xìng ": 1533,
  " lái ": 1534,
  " de gōng ": 1535,
  " biāo": 1536,
  " sè ": 1537,
  " de f": 1538,
  " tí ": 1539,
  "ǎn shì ": 1540,
  " xué xiào": 1541,
  "5 rì ": 1542,
  " wēn": 1543,
  " shuō ": 1544,
  " miàn ": 1545,
  " de zhǔ": 1546,
  "19 nián ": 1547,
  " wǎn ": 1548,
  " fān ": 1549,
  " zhī hòu ": 1550,
  " liù": 1551,
  " 194": 1552,
  "shāng ": 1553,
  " tuī": 1554,
  " wàng ": 1555,
  " tuì": 1556,
  " chéng lì ": 1557,
  "tuán ": 1558,
  "8 rì ": 1559,
  " píng fāng qiān mǐ": 1560,
  "tuán": 1561,
  " shào": 1562,
  "guǎng ": 1563,
  " hū ": 1564,
  " tā zài ": 1565,
  " shǒu ": 1566,
  " wò": 1567,
  "wū ": 1568,
  " chōng": 1569,
  " piān ": 1570,
  " hào ": 1571,
  " diào ": 1572,
  " zhú": 1573,
  " diàn yǐng": 1574,
  "   f": 1575,
  " zuì zhōng ": 1576,
  " dà de ": 1577,
  " dāng shí ": 1578,
  "uǎn ": 1579,
  " ēn": 1580,
  "xìn ": 1581,
  " zhèng shì ": 1582,
  "hán ": 1583,
  " gōng zuò ": 1584,
  "jū ": 1585,
  "st": 1586,
  " gān ": 1587,
  " shǐ ": 1588,
  " rén mín gòng hé guó ": 1589,
  " gāng ": 1590,
  " yǐ jīng": 1591,
  "qiān ": 1592,
  " xiàn de ": 1593,
  "ro": 1594,
  "pái": 1595,
  "xuān ": 1596,
  " fá": 1597,
  " zhèng zhì ": 1598,
  "jú": 1599,
  " rè": 1600,
  "000": 1601,
  " diǎn ": 1602,
  "el": 1603,
  "kè lán": 1604,
  " lì shǐ": 1605,
  "gēn": 1606,
  " shì de ": 1607,
  " lí": 1608,
  " tǎ ": 1609,
  "jiǎn ": 1610,
  "lì shǐ ": 1611,
  "1 rì ": 1612,
  "chóng": 1613,
  " yú 201": 1614,
  "6 rì ": 1615,
  "y   ": 1616,
  "zhēn": 1617,
  "èng": 1618,
  " ā ": 1619,
  " liáng ": 1620,
  "ī rán": 1621,
  " dì qū": 1622,
  "diàn shì ": 1623,
  "4 rì ": 1624,
  "bīng": 1625,
  "7 rì ": 1626,
  "yán jiū ": 1627,
  " 197": 1628,
  " yè ": 1629,
  " fáng": 1630,
  " lüè": 1631,
  " ér ": 1632,
  " liào ": 1633,
  " shǔ yú ": 1634,
  " de hu": 1635,
  "biāo": 1636,
  "lù ": 1637,
  " zǒu": 1638,
  " zhōng yāng ": 1639,
  " xiōng": 1640,
  " ruò": 1641,
  " rèn ": 1642,
  "liáo": 1643,
  " shì f": 1644,
  " de rén ": 1645,
  " bài ": 1646,
  "jūn ": 1647,
  "   shēng píng ": 1648,
  " lì rú": 1649,
  " 195": 1650,
  "zhuǎn ": 1651,
  " piào ": 1652,
  " 11": 1653,
  "6 ": 1654,
  " diàn shì ": 1655,
  " chēng wéi ": 1656,
  " yún ": 1657,
  " de chéng ": 1658,
  " tū ": 1659,
  "zhǎng ": 1660,
  " jiǎo ": 1661,
  "re": 1662,
  " fù zé": 1663,
  " gēn jù": 1664,
  " zuò wéi ": 1665,
  " pō": 1666,
  " chè": 1667,
  " de k": 1668,
  " zǎo": 1669,
  "chǎng ": 1670,
  " de l": 1671,
  " de xi": 1672,
  " mì dù": 1673,
  " tuán": 1674,
  " tí gōng ": 1675,
  " jiàng ": 1676,
  "   C": 1677,
  " de dà": 1678,
  " zhè ge": 1679,
  " yě shì ": 1680,
  " dà xué ": 1681,
  "cái": 1682,
  " 14": 1683,
  " dǎ ": 1684,
  " táng": 1685,
  " kāng ": 1686,
  " dǎo ": 1687,
  " bìng qiě": 1688,
  " pà": 1689,
  " shì zhèn ": 1690,
  " kǎo ": 1691,
  "qù": 1692,
  " liàn ": 1693,
  " jìn xíng ": 1694,
  " jiǎ ": 1695,
  " chéng wéi": 1696,
  " chāo ": 1697,
  " jiǎo": 1698,
  " zàn ": 1699,
  " fā shēng": 1700,
  "xū ": 1701,
  "shōu": 1702,
  "róng": 1703,
  " háo": 1704,
  " gēng": 1705,
  " chēng ": 1706,
  "dōu": 1707,
  " pài ": 1708,
  "jǐng ": 1709,
  " tè ": 1710,
  " sōng": 1711,
  " shì zhōng ": 1712,
  " 0": 1713,
  " E": 1714,
  " láo": 1715,
  " jìn rù": 1716,
  " shè huì": 1717,
  " dào le": 1718,
  " shè ": 1719,
  " lǎng ": 1720,
  " miǎn ": 1721,
  "zōng": 1722,
  " wěi yuán huì": 1723,
  " yóu xì": 1724,
  " pín": 1725,
  " pí ": 1726,
  " 1 ": 1727,
  "huò dé": 1728,
  " ní yà": 1729,
  "xià ": 1730,
  "dú": 1731,
  " guì": 1732,
  " kě yǐ": 1733,
  "   lì shǐ ": 1734,
  " jī wèi ": 1735,
  "nuò": 1736,
  " de jī": 1737,
  " chē ": 1738,
  "xíng ": 1739,
  " 13": 1740,
  "ac": 1741,
  " de guān": 1742,
  "hái": 1743,
  "17": 1744,
  " fàng": 1745,
  "   M": 1746,
  "chuàng ": 1747,
  " lǎo": 1748,
  " shì yóu": 1749,
  " jiàng": 1750,
  " péng": 1751,
  " qu": 1752,
  " zhī jiān": 1753,
  " yīng guó ": 1754,
  "diào ": 1755,
  "si": 1756,
  " gōng chéng ": 1757,
  "liàn ": 1758,
  " fā zhǎn ": 1759,
  " 196": 1760,
  " gòu ": 1761,
  "biāo ": 1762,
  "niàn": 1763,
  " shè jì ": 1764,
  "ol": 1765,
  "at": 1766,
  " shuāng ": 1767,
  " shí jiān": 1768,
  " H": 1769,
  " chàng ": 1770,
  " jiǔ": 1771,
  "zhě ": 1772,
  " de y": 1773,
  " shěn": 1774,
  " zhǔ yì ": 1775,
  " sī tè": 1776,
  " L": 1777,
  "tuī": 1778,
  " dī": 1779,
  " de yì": 1780,
  " de t": 1781,
  "9 yuè ": 1782,
  " tǐ ": 1783,
  " wén ": 1784,
  " N": 1785,
  " tóng nián ": 1786,
  " rén kǒu mì dù": 1787,
  "shǎo": 1788,
  " R": 1789,
  " qí tā": 1790,
  "15": 1791,
  " de xíng": 1792,
  " zhēng ": 1793,
  " sǐ ": 1794,
  " G": 1795,
  " péi": 1796,
  " shì yí gè": 1797,
  " cūn ": 1798,
  " huā": 1799,
  "bāo kuò": 1800,
  " wǎ ": 1801,
  "sū ": 1802,
  "yǐn ": 1803,
  " zá": 1804,
  "10 yuè ": 1805,
  "2020 nián ": 1806,
  " gōng sī ": 1807,
  "suàn ": 1808,
  "1 yuè ": 1809,
  "rè": 1810,
  " dàn shì ": 1811,
  " mài ": 1812,
  " guó jiā": 1813,
  "7 yuè ": 1814,
  "3 yuè ": 1815,
  "kě néng": 1816,
  " jì shù": 1817,
  " dì sān": 1818,
  " zhě ": 1819,
  " mín guó ": 1820,
  " 193": 1821,
  " gōng": 1822,
  " chéng yuán ": 1823,
  " cān jiā ": 1824,
  "16": 1825,
  " guān ": 1826,
  "12 yuè ": 1827,
  " yé": 1828,
  " rèn wéi": 1829,
  " píng fāng qiān mǐ ": 1830,
  "xùn ": 1831,
  "yá": 1832,
  "rén mín": 1833,
  " fēn bié": 1834,
  "sī ": 1835,
  " āi": 1836,
  "5 yuè ": 1837,
  " bìng zài ": 1838,
  " yuè 1 rì ": 1839,
  "8 yuè ": 1840,
  " xíng de ": 1841,
  " qìng": 1842,
  "n shì ": 1843,
  " yàng ": 1844,
  " mù qián": 1845,
  " cǎi yòng": 1846,
  " shòu ": 1847,
  " xián ": 1848,
  " shèn ": 1849,
  " quán guó ": 1850,
  "xí ": 1851,
  "y ": 1852,
  " qín": 1853,
  " F": 1854,
  "   A": 1855,
  "chéng shì ": 1856,
  "yīng guó ": 1857,
  " xī yà": 1858,
  " gt ": 1859,
  " shì wèi yú ": 1860,
  " tàn ": 1861,
  "yàn ": 1862,
  "wěi yuán huì": 1863,
  " yǎng ": 1864,
  "6 yuè ": 1865,
  "d ": 1866,
  " biāo ": 1867,
  " chéng shì ": 1868,
  " niàn": 1869,
  "7 ": 1870,
  " dǎo zhì ": 1871,
  "on ": 1872,
  "nóng": 1873,
  " héng ": 1874,
  "ān de ": 1875,
  " yì yuán ": 1876,
  " kǒng": 1877,
  "guó jiā ": 1878,
  " dūn": 1879,
  "C ": 1880,
  " qí ": 1881,
  "bié": 1882,
  "dài biǎo": 1883,
  "4 yuè ": 1884,
  "shā": 1885,
  " shàng de ": 1886,
  " dìng ": 1887,
  "ná": 1888,
  " luó sī": 1889,
  " hǎo": 1890,
  " lt ": 1891,
  " yāo qiú": 1892,
  " suī rán": 1893,
  " tōng cháng": 1894,
  " guǎng": 1895,
  " bù guò": 1896,
  " shì shì ": 1897,
  " wèi le": 1898,
  "ǔn ": 1899,
  " shùn ": 1900,
  " xǔ duō": 1901,
  " shū ": 1902,
  " yuàn ": 1903,
  "wáng ": 1904,
  " yìn dù": 1905,
  "chù": 1906,
  " dǐ ": 1907,
  " mǔ": 1908,
  " yīn yuè ": 1909,
  "jiě": 1910,
  " lěi": 1911,
  " kān ": 1912,
  " gū ": 1913,
  " yán ": 1914,
  "8 ": 1915,
  " jǐng": 1916,
  "qiáng ": 1917,
  "huì ": 1918,
  " wén huà": 1919,
  "shè huì": 1920,
  " zhī chí": 1921,
  " dāng dì ": 1922,
  " xiàn zài ": 1923,
  " gàn ": 1924,
  " huī ": 1925,
  " shì dì ": 1926,
  " bù duì": 1927,
  " yáo": 1928,
  " huā ": 1929,
  "fā zhǎn ": 1930,
  " qì ": 1931,
  "tōng guò": 1932,
  "yǐng xiǎng ": 1933,
  "xíng zhèng ": 1934,
  "zhēng": 1935,
  " huí": 1936,
  " de shù": 1937,
  " huán": 1938,
  " shàn ": 1939,
  "11 yuè ": 1940,
  " cí": 1941,
  "míng ": 1942,
  " xuān bù ": 1943,
  " pāi": 1944,
  "qún": 1945,
  " de gu": 1946,
  " shēng huó": 1947,
  "zuò pǐn ": 1948,
  " yú 200": 1949,
  " yā": 1950,
  "dài ": 1951,
  " xué jiā ": 1952,
  " è": 1953,
  " zhí ": 1954,
  " jìn ": 1955,
  " shì zhèn": 1956,
  " gāo dù": 1957,
  " yàng": 1958,
  "i ": 1959,
  " zhù ": 1960,
  "yī xiē": 1961,
  " xū yào": 1962,
  " móu": 1963,
  " jīng ": 1964,
  " yì shù": 1965,
  "shī ": 1966,
  " chū de ": 1967,
  " dà lì ": 1968,
  " mén ": 1969,
  " xiá ": 1970,
  " tán": 1971,
  " mào": 1972,
  " yīn ": 1973,
  " yòng ": 1974,
  " yī xiē": 1975,
  "jiàn ": 1976,
  "50": 1977,
  " zài dì ": 1978,
  "   P": 1979,
  " dī ": 1980,
  "shàng ": 1981,
  " jiào yù": 1982,
  " qiè": 1983,
  "xiàn ": 1984,
  " yā ": 1985,
  " yǒu yī ": 1986,
  "hēi": 1987,
  " sǐ": 1988,
  "hěn": 1989,
  "chú": 1990,
  "guān ": 1991,
  " lèi ": 1992,
  " zhe": 1993,
  " de jì ": 1994,
  "suí ": 1995,
  " shāng": 1996,
  "30": 1997,
  " tì": 1998,
  "le ": 1999,
  "yìn ": 2000,
  " bān yá": 2001,
  "chōng": 2002,
  " gài": 2003,
  " tòu": 2004,
  "chǔ ": 2005,
  " yì zhí": 2006,
  " kǎi": 2007,
  "huí ": 2008,
  "om": 2009,
  " qiū ": 2010,
  "chuān ": 2011,
  " jì huà": 2012,
  " lì de ": 2013,
  "huáng ": 2014,
  "il": 2015,
  " xí": 2016,
  " jiǎng": 2017,
  " guó de ": 2018,
  "bǎo hù": 2019,
  " wán chéng ": 2020,
  "   m": 2021,
  "zi ": 2022,
  "zhú": 2023,
  " bǎ": 2024,
  " lái zì": 2026,
  " hǎi bá": 2027,
  "dǐ": 2028,
  " chéng gōng ": 2029,
  " cān yù": 2030,
  "2 yuè ": 2031,
  " de zuì": 2032,
  " J": 2033,
  " fēn bù ": 2034,
  " níng ": 2035,
  " zhōng gòng": 2036,
  " rì zài ": 2037,
  " xiáng ": 2038,
  " shì hé ": 2039,
  " xǐ": 2040,
  " de xīn": 2041,
  " chāo": 2042,
  " zǎo ": 2043,
  " zhǔ jiào": 2044,
  " dù ": 2045,
  " de b": 2046,
  " zh ": 2047,
  " miáo": 2048,
  " duó": 2049,
  "yù ": 2050,
  " 2 ": 2051,
  "   T": 2052,
  " qī jiān": 2053,
  " jì xù": 2054,
  " luó sī ": 2055,
  " yì wèi ": 2056,
  "zì jǐ": 2057,
  " dí": 2058,
  " cù": 2059,
  " cuò": 2060,
  "dù ": 2061,
  " shàng hǎi": 2062,
  " zāo": 2063,
  " lǎn ": 2064,
  "fǎ ": 2065,
  " ràng ": 2066,
  "hè": 2067,
  "wén huà": 2068,
  "xiàng ": 2069,
  " chǔ": 2070,
  " yǎn ": 2071,
  " le yī ": 2072,
  " fēng ": 2073,
  "2 rì ": 2074,
  "of": 2075,
  "14": 2076,
  " là": 2077,
  "zú ": 2078,
  " yì de ": 2079,
  "   de ": 2080,
  " xíng zhèng ": 2081,
  "   199": 2082,
  " tái ": 2083,
  "yè ": 2084,
  " dì de ": 2085,
  "   B": 2086,
  " piàn ": 2087,
  " dé guó ": 2088,
  " mǎ wèi ": 2089,
  " piào": 2090,
  " zhè zhǒng": 2091,
  "9 rì ": 2092,
  "r ": 2093,
  " gào": 2094,
  "yī wèi ": 2095,
  "dān rèn": 2096,
  " ràng": 2097,
  "qí tā": 2098,
  "qī ": 2099,
  " láng ": 2100,
  "13": 2101,
  "biǎo shì ": 2102,
  " zuò pǐn ": 2103,
  " yòng yú ": 2104,
  " dài ": 2105,
  " huái": 2106,
  " gèng": 2107,
  " tè bié": 2108,
  "zhǔ yào": 2109,
  " guǎn ": 2110,
  "qíng": 2111,
  " jiā rù": 2112,
  " gōng yuán ": 2113,
  "qiáo": 2114,
  "zēng": 2115,
  "jù ": 2116,
  " de shēng": 2117,
  "bào ": 2118,
  " chì": 2119,
  "   yóu": 2120,
  "3 rì ": 2121,
  " jīng jì ": 2122,
  " dàng ": 2123,
  " dān wèi ": 2124,
  " lǔ": 2125,
  " de g": 2126,
  "   běn": 2127,
  " qián wǎng": 2128,
  " kuǎn ": 2129,
  " shēng yú ": 2130,
  " nán ": 2131,
  "zhǒng ": 2132,
  "ōu zhōu": 2133,
  " formula ": 2134,
  " duì yú ": 2135,
  "－": 2136,
  "fǎn ": 2137,
  " zhàng ": 2138,
  " chù ": 2139,
  "   shì ": 2140,
  " 000": 2141,
  "zǎi": 2143,
  "jī ": 2144,
  "9 ": 2145,
  " qiáng": 2146,
  " fā ": 2147,
  " zú qiú": 2148,
  " shè yǒu ": 2149,
  "cí ": 2150,
  "   dì lǐ ": 2151,
  " zhōng xué": 2152,
  " de w": 2153,
  "rén wù ": 2154,
  " fēn ": 2155,
  "wài ": 2156,
  " liè ": 2157,
  "ati": 2158,
  " bǐ sài": 2159,
  " tiě lù": 2160,
  " fǎ guó ": 2161,
  " pú": 2162,
  "et": 2163,
  " jué ": 2164,
  " jià ": 2165,
  "zhù ": 2166,
  "ū shì ": 2167,
  " kuài ": 2168,
  " fù ": 2169,
  " dì fāng": 2170,
  " de fù": 2171,
  " jué dìng": 2172,
  " qǐng ": 2173,
  " xián": 2174,
  "tā men": 2175,
  "yòng ": 2176,
  "zuǒ": 2177,
  "xún": 2178,
  " qí tā ": 2179,
  "dùn ": 2180,
  "tiě lù": 2181,
  "liáng ": 2182,
  "luàn ": 2183,
  "chēng ": 2184,
  " sūn": 2185,
  " pái ": 2186,
  " bà": 2187,
  " liǎng gè": 2188,
  " tǔ": 2189,
  " chē zhàn": 2190,
  " chūn": 2191,
  " duān ": 2192,
  "er ": 2193,
  " shì jì": 2194,
  " quán ": 2195,
  " qī ": 2196,
  "   p": 2197,
  "o ": 2198,
  " zhāng ": 2199,
  "diǎn ": 2200,
  "   l": 2201,
  " shù liàng": 2202,
  "ow": 2203,
  " sàn ": 2204,
  " qǔ ": 2205,
  " xué shēng": 2206,
  " zāi": 2207,
  " yì bān ": 2208,
  "shǎo ": 2209,
  " zài 201": 2210,
  " huó dòng": 2211,
  " zì yóu": 2212,
  " rú guǒ": 2213,
  " de hé ": 2214,
  " lǎo ": 2215,
  " qíng": 2216,
  " suǒ ": 2217,
  "zhèng shì ": 2218,
  " de shǒu": 2219,
  " qiāng ": 2220,
  " zhuàng": 2221,
  " wú fǎ": 2222,
  " de lǐ": 2223,
  "zhòng yào": 2224,
  " zhōng huá rén mín gòng hé guó ": 2225,
  " hā ": 2226,
  "guī": 2227,
  "199": 2228,
  "2019 nián ": 2229,
  " K": 2230,
  " fǎn yìng": 2231,
  " ruǎn ": 2232,
  "jiǎng ": 2233,
  "ic": 2234,
  "sà": 2235,
  " de fāng": 2236,
  "zhe": 2237,
  "shuāng ": 2238,
  " jiàn lì ": 2239,
  "běn ": 2240,
  " téng": 2241,
  " mí ": 2242,
  " jié ": 2243,
  "qǐ ": 2244,
  " dǐng ": 2245,
  "àn shì ": 2246,
  " de zhí": 2247,
  " yì huì": 2248,
  "chē zhàn": 2249,
  " de yuán ": 2250,
  " rén yuán ": 2251,
  " cún zài ": 2252,
  " qián ": 2254,
  "yīn yuè ": 2255,
  " zhòng yào": 2256,
  "dà lù": 2257,
  " shí èr": 2258,
  " guǐ": 2259,
  " zhèn ": 2260,
  " yǔ yán": 2261,
  " wàng": 2262,
  "   t": 2263,
  " zǒng tǒng": 2264,
  " liáo": 2265,
  "miáo": 2266,
  " ná": 2267,
  " xíng xīng": 2268,
  " xíng chéng ": 2269,
  "zhuāng ": 2270,
  " shēng chǎn": 2271,
  " guó mín": 2272,
  "   yǔ": 2273,
  "   gāi": 2274,
  " rén de ": 2275,
  "yùn dòng": 2276,
  " fèn ": 2277,
  "mò": 2278,
  " xiào ": 2279,
  " chóu": 2280,
  "xǔ duō": 2281,
  "rén kǒu ": 2282,
  "guāng ": 2283,
  " shì yī zhǒng": 2284,
  " kěn": 2285,
  "as": 2286,
  " xiǎo shí ": 2287,
  "shēng ": 2288,
  "shǔ yú ": 2289,
  " míng de ": 2290,
  " shǎo": 2291,
  " zài zhè": 2292,
  " guāng": 2293,
  " zào chéng ": 2294,
  " yú shì ": 2295,
  "on   ": 2296,
  " wù guǎn": 2297,
  " pào ": 2298,
  "zhū ": 2299,
  " lián hé ": 2300,
  " lǐng dǎo": 2301,
  "bù fèn ": 2302,
  " yōng yǒu ": 2303,
  " zhǐ ": 2304,
  " shān ": 2305,
  "zhōng huá": 2306,
  "shā ": 2307,
  " 192": 2308,
  " chǐ ": 2309,
  "qín": 2310,
  " zhī qián": 2311,
  "liǎng gè": 2312,
  " zhǔ xí ": 2313,
  " jiù shì ": 2314,
  "qǐng ": 2315,
  " niǔ ": 2316,
  " xué míng ": 2317,
  " gōng zuò": 2318,
  " fǎng": 2319,
  " cè ": 2320,
  " zhè yī ": 2321,
  " yǐ xià": 2322,
  " mǎi": 2323,
  " W": 2324,
  " fā xiàn": 2325,
  "T ": 2326,
  " nán bù ": 2327,
  " chǎn shēng": 2328,
  " huó dòng ": 2329,
  " zài 200": 2330,
  "   gēn": 2331,
  "jià": 2332,
  " qī jiān ": 2333,
  "yún ": 2334,
  " zhá": 2335,
  " méi yǒu": 2336,
  "guó jì ": 2337,
  " tán ": 2338,
  "guàn ": 2339,
  "es": 2340,
  "zú qiú": 2341,
  "jìn xíng": 2342,
  " bèi ": 2343,
  " zuì gāo": 2344,
  "jiǔ": 2345,
  " duǎn ": 2346,
  " dú lì ": 2347,
  " dà liàng": 2348,
  " kǎo": 2349,
  " yǐng xiǎng ": 2350,
  " fèng ": 2351,
  " bù de ": 2352,
  "kōng": 2353,
  " gōng lǐ": 2354,
  " hé zuò ": 2355,
  " de yí gè shì zhèn ": 2356,
  " yìng ": 2357,
  " fā xiàn ": 2358,
  "   rén kǒu ": 2359,
  " zài cì": 2360,
  " qiǎn ": 2361,
  "zhī chí": 2362,
  "xì tǒng": 2363,
  " shēn ": 2364,
  "háng ": 2365,
  " xiǎn shì ": 2366,
  " chú le": 2367,
  " liàng ": 2368,
  "chà": 2369,
  " zòu": 2370,
  " gōng kāi": 2371,
  "ra": 2372,
  " chàng": 2373,
  " tīng ": 2374,
  "   zhè": 2375,
  "zào ": 2376,
  "zhuāng": 2377,
  " bú shì ": 2378,
  "hǎo": 2379,
  " yú 202": 2380,
  " lián méng": 2381,
  " hé p": 2382,
  " guǎn lǐ": 2383,
  " zì ": 2384,
  " huān ": 2385,
  "běi jīng": 2386,
  " róng ": 2387,
  " zhǒng ": 2388,
  "〉": 2389,
  " cǐ wài ": 2390,
  "〈": 2391,
  " sōu": 2392,
  " dié": 2393,
  " shū jì ": 2394,
  " wáng ": 2395,
  "duì ": 2396,
  " liào": 2397,
  "sài ": 2398,
  " pǔ chá": 2399,
  "miǎn ": 2400,
  " chāo guò": 2401,
  "   L": 2402,
  " hǎi bá gāo dù": 2403,
  " shí de ": 2404,
  "qíng kuàng ": 2405,
  " mèi": 2406,
  " wǒ men": 2407,
  "dé guó ": 2408,
  " kàng": 2409,
  " zhàn zhēng": 2410,
  " lèi sì": 2411,
  " chū bǎn ": 2412,
  " jīng guò": 2413,
  " �": 2414,
  "jīng jì ": 2415,
  "shàn ": 2416,
  " 30": 2417,
  " ài ": 2418,
  " běi jīng": 2419,
  " bāo kuò ": 2420,
  "guī ": 2421,
  "qí tā ": 2422,
  "fēn ": 2423,
  " jiào ": 2424,
  "tā de ": 2425,
  " huì yì ": 2426,
  " dì shí ": 2427,
  " zǔ zhī": 2428,
  " kòng zhì ": 2429,
  "wàn ": 2430,
  "lùn ": 2431,
  "quán ": 2432,
  "k ": 2433,
  " sǔn ": 2434,
  " zhì de ": 2435,
  "cún": 2436,
  " lóng ": 2437,
  " bì ": 2438,
  " qǐ ": 2439,
  " rì zhì ": 2440,
  "rǎn ": 2441,
  "zǒng tǒng": 2442,
  "ruì": 2443,
  "chāo ": 2444,
  " xíng shì ": 2445,
  "   2": 2446,
  " chéng de ": 2447,
  " liáng": 2448,
  " chū le": 2449,
  " guǒ ": 2450,
  "shí de ": 2451,
  " mǒu": 2452,
  "xī ": 2453,
  "chéng lì ": 2454,
  " yùn dòng yuán ": 2455,
  "wū kè lán": 2456,
  " dì guó ": 2457,
  " lǜ ": 2458,
  " jǔ": 2459,
  " zuò wéi": 2460,
  "miàn jī wèi ": 2461,
  " de míng": 2462,
  " liè chē": 2463,
  " gé lán": 2464,
  " běi bù ": 2465,
  " 2010 nián ": 2466,
  "   D": 2467,
  " wèi yú gāi": 2468,
  " de jiàn": 2469,
  " mín zhǔ": 2470,
  "yīn wèi ": 2471,
  "děng ": 2472,
  "it": 2473,
  " chuàng": 2474,
  " zhōng xīn ": 2475,
  "   R": 2476,
  " gè rén ": 2477,
  " jūn shì ": 2478,
  " dāng zhōng ": 2479,
  "suì": 2480,
  " zhé": 2481,
  "gòng chǎn": 2482,
  " cu": 2483,
  "zhěng": 2484,
  "cān jiā ": 2485,
  "shè jì ": 2486,
  " yǒu xiàn": 2487,
  "shàng hǎi": 2488,
  " wěi yuán ": 2489,
  " zì zhì ": 2490,
  " kàng ": 2491,
  "kě yǐ ": 2492,
  " hài": 2493,
  " zhǎo": 2494,
  " de zhōng ": 2495,
  " lí kāi": 2496,
  "dà xué": 2497,
  "ec": 2498,
  "   xíng zhèng ": 2499,
  " ér qiě": 2500,
  " zhuān jí ": 2501,
  "dēng": 2502,
  " kuān ": 2503,
  " háng kōng": 2504,
  " de bù ": 2505,
  "qí zhōng ": 2506,
  " lín ": 2507,
  " sù ": 2508,
  " shǒu cì": 2509,
  " chóng xīn": 2510,
  " bāng": 2511,
  "ān shì ": 2512,
  " fāng miàn": 2513,
  " bù zài ": 2514,
  "zhàn zhēng": 2515,
  " zhuàn ": 2516,
  "sāi": 2517,
  "   G": 2518,
  " xuě": 2519,
  " zhì zuò": 2520,
  " féng": 2521,
  " dōu shì ": 2522,
  "   k": 2523,
  "ā ěr": 2524,
  " wū kè lán": 2525,
  " hé nán": 2526,
  " zhāo": 2527,
  " shǔ ": 2528,
  " dǒng": 2529,
  " jǐn guǎn": 2530,
  " zhè shì ": 2531,
  " zēng jiā ": 2532,
  " zài cǐ": 2533,
  "   formula ": 2534,
  " yuǎn ": 2535,
  "suān ": 2536,
  "A ": 2537,
  " xì liè": 2538,
  " suǒ yǒu ": 2539,
  " bù néng": 2540,
  " zǎi": 2541,
  " tā shì ": 2542,
  " xì tǒng ": 2543,
  " chún ": 2544,
  " zǔ ": 2545,
  " fù jìn": 2546,
  "–": 2547,
  "40": 2548,
  " niú": 2549,
  "méi yǒu ": 2550,
  " jǔ xíng": 2551,
  " hé bìng": 2552,
  " shuì": 2553,
  " xiāng guān": 2554,
  "bái": 2555,
  "bǐ sài": 2556,
  " fā biǎo": 2557,
  "tīng": 2558,
  " wèn tí ": 2559,
  " bǎ ": 2560,
  "m ": 2561,
  "xìng ": 2562,
  " shí dài": 2563,
  "   198": 2564,
  " kāi fā": 2565,
  " ju": 2566,
  " jú ": 2567,
  "hǎi jūn": 2568,
  " jù yǒu ": 2569,
  " bào ": 2570,
  " suì ": 2571,
  " qǔ dé": 2572,
  " qiú ": 2573,
  " guī mó": 2574,
  "qiú ": 2575,
  " yǒu de ": 2576,
  " nèi ": 2577,
  " shí nián ": 2578,
  "fèi": 2579,
  " shǐ yòng ": 2580,
  " lóu ": 2581,
  "bān ": 2582,
  " fāng shì ": 2583,
  " de jié": 2584,
  "jīn ": 2585,
  "jiāo tōng": 2586,
  " U": 2587,
  " de jué": 2588,
  " xuǎn jǔ ": 2589,
  "jùn ": 2590,
  " wèn tí": 2591,
  "shào": 2592,
  " xǔ ": 2593,
  " rán ér": 2594,
  " zhì zuò ": 2595,
  "zhōu ": 2596,
  "yóu xì": 2597,
  " luó mǎ": 2598,
  "zhuàng ": 2599,
  "sǐ ": 2600,
  " suàn ": 2601,
  " lā ": 2602,
  " chē zhàn ": 2603,
  " yī yuàn": 2604,
  "pi": 2605,
  " duō ": 2606,
  "lái ": 2607,
  "60": 2608,
  " luò ": 2609,
  "kuài": 2610,
  " gòng yǒu ": 2611,
  "   g": 2612,
  " mào ": 2613,
  "jiā rù": 2614,
  "jiè ": 2615,
  " guàn jūn ": 2616,
  " yǔn ": 2617,
  " shǔ de ": 2618,
  "zhǔ ": 2619,
  "fàn ": 2620,
  "zào": 2621,
  " shì yǐ": 2622,
  " rèn hé ": 2623,
  " gāng": 2624,
  "…": 2625,
  " gōng yè": 2626,
  " zǔ zhī ": 2627,
  "tóng ": 2628,
  " sī tǎn ": 2629,
  " yá ": 2630,
  "xīn ": 2631,
  " fāng ": 2632,
  "zhí ": 2633,
  " wán quán": 2634,
  "the   ": 2635,
  " yuè 30": 2636,
  "zhǐ ": 2637,
  " tǎo": 2638,
  "   18": 2639,
  "zhé": 2640,
  " de yī bù fèn ": 2641,
  "jūn shì ": 2642,
  "lì de ": 2643,
  " fó": 2644,
  " zhī hòu": 2645,
  "p ": 2646,
  " níng": 2647,
  " tǐng ": 2648,
  "rén kǒu pǔ chá": 2649,
  " jiē shòu": 2650,
  " jiāo tōng": 2651,
  " jiàn yú ": 2652,
  "jiào yù": 2653,
  " zhěn": 2654,
  "shuō ": 2655,
  " O": 2656,
  "an ": 2657,
  " cǎo ": 2658,
  " fǎng ": 2659,
  "wán": 2660,
  " zuì hòu ": 2661,
  "S ": 2662,
  "réng": 2663,
  " fēn bù yú ": 2664,
  " jí tuán": 2665,
  "xǔ ": 2666,
  "   H": 2667,
  "zhī yī ": 2668,
  " de tè": 2669,
  " lì yòng": 2670,
  "dāng shí ": 2671,
  " tā céng": 2672,
  " zàng ": 2673,
  "dì qū ": 2674,
  " pào": 2675,
  " gài ": 2676,
  " yú 199": 2677,
  " méi tǐ": 2678,
  "   cǐ": 2679,
  "quán guó ": 2680,
  " kuài": 2681,
  " 2001 nián ": 2682,
  "jìn xíng ": 2683,
  " nà ": 2684,
  " yī míng": 2685,
  "25": 2686,
  "..": 2687,
  " qí yú ": 2688,
  " gōu": 2689,
  " xī běi": 2690,
  " bō ": 2691,
  "qiè": 2692,
  "xiāng guān": 2693,
  "sòng": 2694,
  " yóu ": 2695,
  " xié huì": 2696,
  "jìn rù": 2697,
  " yǒu guān": 2698,
  " zǔ chéng ": 2699,
  " sī lìng": 2700,
  "duǎn ": 2701,
  " yǐ jí": 2702,
  "qìng": 2703,
  " rán ér ": 2704,
  "   I": 2705,
  " ā ěr": 2706,
  "bǎn ": 2707,
  "   c": 2708,
  "   jù": 2709,
  " lè bù ": 2710,
  "dìng ": 2711,
  "xuān bù ": 2712,
  " yī zhǒng": 2713,
  "diàn yǐng ": 2714,
  " hùn ": 2715,
  "hào ": 2716,
  " mèng ": 2717,
  " jiē r": 2718,
  "yǒng": 2719,
  "suǒ yǒu ": 2720,
  " hǎo ": 2721,
  " fā bù ": 2722,
  " sū lián": 2723,
  " fū": 2724,
  " qiú duì": 2725,
  " huán jìng": 2726,
  " gōng ch": 2727,
  " tiān ": 2728,
  "héng ": 2729,
  " tòu guò": 2730,
  " shì shí ": 2731,
  " guǎn xiá ": 2732,
  "huǒ": 2733,
  "lián méng": 2734,
  "yíng ": 2735,
  " xīn ": 2736,
  "198": 2737,
  " dì sì": 2738,
  " shèn zhì ": 2739,
  " shì wù": 2740,
  " cáng ": 2741,
  " fēi cháng": 2742,
  " zūn": 2743,
  " wèi zhì ": 2744,
  "   nián": 2745,
  "chū ": 2746,
  "   F": 2747,
  " de d": 2748,
  " xuè": 2749,
  "zuò wéi ": 2750,
  " wěn": 2751,
  " jīn ": 2752,
  " jìng ": 2753,
  " 191": 2754,
  "kuài ": 2755,
  " kǒu ": 2756,
  " de zhǔ yào": 2757,
  " tú ": 2758,
  "shú": 2759,
  "shù ": 2760,
  " gé mìng": 2761,
  "qì ": 2762,
  " xiàn dài": 2763,
  "sù ": 2764,
  " zhuī": 2765,
  " 3 ": 2766,
  "   194": 2767,
  " mín zú": 2768,
  " gāo ": 2769,
  " fǎn duì": 2770,
  "xiān ": 2771,
  " jǔ bàn": 2772,
  " dà duō": 2773,
  "xiě": 2774,
  " pí": 2775,
  " suō": 2776,
  "la": 2777,
  " jiàn de ": 2778,
  " kào ": 2779,
  "guǒ": 2780,
  " xuán": 2781,
  " bāo hán ": 2782,
  " chū xiàn": 2783,
  " xiàng mù": 2784,
  " qū de ": 2785,
  " jì niàn": 2786,
  " yān ": 2787,
  " láng": 2788,
  " èr shí ": 2789,
  "zhōng de ": 2790,
  " fàn wéi ": 2791,
  "háng": 2792,
  "chá ": 2793,
  "D ": 2794,
  "chuán tǒng": 2795,
  " bǎng ": 2796,
  "huàn ": 2797,
  "zhàn ": 2798,
  " qí shì ": 2799,
  "fā shēng": 2800,
  " zuì hòu": 2801,
  "qū wèi ": 2802,
  "   tā": 2803,
  "niǔ ": 2804,
  " yī cì": 2805,
  "lín pǐ": 2806,
  " yì qǐ": 2807,
  " mǎ ": 2808,
  " wèi rén ": 2809,
  " chū xiàn ": 2810,
  " má": 2811,
  " pī ": 2812,
  " lún ": 2813,
  " nǐ": 2814,
  "shěng ": 2815,
  " fú ": 2816,
  " cuì": 2817,
  "UT": 2818,
  " bǎo hù": 2819,
  "cān yù": 2820,
  "oo": 2821,
  "tí gōng ": 2822,
  " jiě fàng ": 2823,
  "gǎn ": 2824,
  " jǐn biāo ": 2825,
  " de qián": 2826,
  " wèi": 2827,
  " lǎng": 2828,
  " wèi dì ": 2829,
  " qù ": 2830,
  " jí qí": 2831,
  " fú wù": 2832,
  "gù shì ": 2833,
  "xiū ": 2834,
  " suí hòu ": 2835,
  "yàng ": 2836,
  "chè": 2837,
  " zhǐ yǒu ": 2838,
  "xuè": 2839,
  "xué yuàn": 2840,
  " nán zi": 2841,
  "gèng ": 2842,
  "   z": 2843,
  " lìng shí ": 2844,
  " de zhèng": 2845,
  "tíng ": 2846,
  " shì yǎn": 2847,
  "ter": 2848,
  " lián ": 2849,
  " liú ": 2850,
  "xǐ": 2851,
  " bú huì": 2852,
  "xì liè": 2853,
  " yǎ": 2854,
  " dōng běi": 2855,
  " zhōng huá mín guó ": 2856,
  "lín pǐ kè": 2857,
  " dàn ": 2858,
  " 190": 2859,
  " shì l": 2860,
  "   wèi ": 2861,
  " hūn": 2862,
  " jié shù": 2863,
  " wěi ": 2864,
  "mì": 2865,
  " yuè 28 rì ": 2866,
  " dà bù fèn": 2867,
  " zhí jiē": 2868,
  " nǎo": 2869,
  "guì": 2870,
  "ruò": 2871,
  "jié ": 2872,
  " gōng bù ": 2873,
  " jiāng qí": 2874,
  "kǎ": 2875,
  "yì ": 2876,
  " fēn zhōng ": 2877,
  " wǔ ": 2878,
  "lǐng ": 2879,
  " gòng tóng": 2880,
  " zhàn dòu": 2881,
  "píng jūn": 2882,
  " niè": 2883,
  "tǐ ": 2884,
  " shì jiàn ": 2885,
  " yǒu shí ": 2886,
  " yuán de ": 2887,
  "nèi ": 2888,
  " réng rán": 2889,
  " V": 2890,
  " nǚ xìng": 2891,
  " nǎi": 2892,
  " chuán tǒng": 2893,
  " wèi měi": 2894,
  "wén ": 2895,
  "shěn": 2896,
  "cǎi": 2897,
  "mén": 2898,
  "lái zì": 2899,
  "yìn dù": 2900,
  "dǐ ": 2901,
  "táo": 2902,
  " shì p": 2903,
  " pì": 2904,
  " wèi néng": 2905,
  " nè": 2906,
  " zhòng ": 2907,
  "fā xiàn ": 2908,
  " dà huì": 2909,
  "dí ": 2910,
  " méng gǔ": 2911,
  " guàn jūn": 2912,
  " yì shì ": 2913,
  " jié mù": 2914,
  " shí qī ": 2915,
  " yuè 15 rì ": 2916,
  "xié": 2917,
  " zài": 2918,
  "ir": 2919,
  " shì yì": 2920,
  " shí jì ": 2921,
  " lěng": 2922,
  " 2011 nián ": 2923,
  "he   ": 2924,
  "   yǐ": 2925,
  " jìn shì ": 2926,
  " zhuó": 2927,
  " fú wù ": 2928,
  " zhǔ chí": 2929,
  "diàn ": 2930,
  "huó": 2931,
  "24": 2932,
  " de nǚ": 2933,
  "kǎ ": 2934,
  " jī gòu": 2935,
  "ag": 2936,
  "shēng huó": 2937,
  "zǔ zhī ": 2938,
  " chí xù": 2939,
  " shǐ de ": 2940,
  " kē ": 2941,
  "rèn wéi ": 2942,
  "shí qī": 2943,
  " tún": 2944,
  " huò ": 2945,
  " kāng": 2946,
  " 100": 2947,
  " ròu": 2948,
  " mǐn ": 2949,
  " fán": 2950,
  " lán ": 2951,
  " shǎo ": 2952,
  " dàn zài ": 2953,
  "kè ": 2954,
  " de gāo": 2955,
  " xī bān yá": 2956,
  " cáo": 2957,
  " yú 18": 2958,
  " dà zhàn": 2959,
  "UTC ": 2960,
  "yín": 2961,
  " é luó sī": 2962,
  " quē": 2963,
  " yùn dòng huì": 2964,
  " hái yǒu ": 2965,
  " sī kē": 2966,
  " miàn jī": 2967,
  " wèi yú gāi guó ": 2968,
  "yuē ": 2969,
  "shǒu cì": 2970,
  " diào": 2971,
  " píng yáng": 2972,
  " xuǎn zé": 2973,
  " chāng ": 2974,
  "nán ": 2975,
  " gōng néng": 2976,
  " 25": 2977,
  "dāng dì ": 2978,
  " xīn wén": 2979,
  " suǒ yǐ ": 2980,
  "qiū ": 2981,
  " gōng lù": 2982,
  "80": 2983,
  " bàng ": 2984,
  " de jīng": 2985,
  "   w": 2986,
  " shì xué": 2987,
  "fáng": 2988,
  " lì fǎ": 2989,
  "guǎn lǐ": 2990,
  "shū ": 2991,
  "gòu": 2992,
  "   3": 2993,
  " néng gòu": 2994,
  " lái xī yà": 2995,
  "xū yào": 2996,
  " bǐ sài ": 2997,
  " de jù": 2998,
  "chéng wéi ": 2999,
  " fán ": 3000,
  "dào ": 3001,
  " de quán": 3002,
  " jī běn": 3003,
  "qiú duì": 3004,
  " tí chū": 3005,
  "   E": 3006,
  "10 rì ": 3007,
  " xīng ": 3008,
  " 5 ": 3009,
  " jìng nèi": 3010,
  "   W": 3011,
  "quē": 3012,
  "bì yè": 3013,
  "yī nián ": 3014,
  "chāo": 3015,
  " guān yú ": 3016,
  " 50": 3017,
  " yǎ ": 3018,
  " ōu zhōu": 3019,
  "qiáng": 3020,
  "rèn hé ": 3021,
  " xī nán": 3022,
  " suān ": 3023,
  "shǔ ": 3024,
  " cì ": 3025,
  " lìng wài": 3026,
  " de xī": 3027,
  " jiāng ": 3028,
  " zhèng cè": 3029,
  " 2009 nián ": 3030,
  " de lì ": 3031,
  " gōng shì ": 3032,
  " bù jiǔ ": 3033,
  "23": 3034,
  "yīn ": 3035,
  "EE": 3036,
  " jiàn shè": 3037,
  " de xiàn": 3038,
  " de zuò ": 3039,
  " lǐ shì ": 3040,
  " jiē ": 3041,
  " biāo zhǔn ": 3042,
  " yǎng": 3043,
  " de hǎi": 3044,
  "ān quán": 3045,
  " sài shì ": 3046,
  "sān nián ": 3047,
  "zǔ zhī": 3048,
  " jié guǒ": 3049,
  " jū mín": 3050,
  "20 rì ": 3051,
  " guō": 3052,
  "te": 3053,
  " yuè 25 rì ": 3054,
  " chéng zhōng ": 3055,
  " zū ": 3056,
  "zì yóu": 3057,
  " fǎ yuàn": 3058,
  "   gēn jù": 3059,
  "měi yuán ": 3060,
  "ào lín pǐ kè": 3061,
  "ǐn ": 3062,
  " jiè ": 3063,
  " kūn": 3064,
  " yuè 30 rì ": 3065,
  " de yóu": 3066,
  "70": 3067,
  " kùn ": 3068,
  "yíng": 3069,
  " jiū": 3070,
  " shì tú": 3071,
  " shè lì ": 3072,
  " shì chǎng": 3073,
  " hé píng": 3074,
  "táng ": 3075,
  " de tóng": 3076,
  " de xiǎo": 3077,
  "jū mín": 3078,
  " chéng qū ": 3079,
  " chǐ": 3080,
  " de zhàn": 3081,
  " tuī ": 3082,
  " yín háng ": 3083,
  " de zhì ": 3084,
  " 4 ": 3085,
  " yì yuàn": 3086,
  "me": 3087,
  " xué xí ": 3088,
  " qū yù": 3089,
  "oc": 3090,
  " de wèi ": 3091,
  " shǎn ": 3092,
  " shé": 3093,
  " yuē ": 3094,
  "lián sài": 3095,
  " rèn mìng": 3096,
  " dà lì yà": 3097,
  " yì dà lì ": 3098,
  " bèi chēng wéi ": 3099,
  " yǐn qǐ": 3100,
  " fěn": 3101,
  " jì lù": 3102,
  " yǎn yuán ": 3103,
  "fáng ": 3104,
  " 00": 3105,
  " de mù": 3106,
  " fēn wéi ": 3107,
  "   zhèng zhì ": 3108,
  " kē xué": 3109,
  "sēn": 3110,
  "fā xíng ": 3111,
  " shì fǒu": 3112,
  "ní yà": 3113,
  " wǎ ěr": 3114,
  " shòu dào": 3115,
  " wéi ěr": 3116,
  " bì xū ": 3117,
  " xuǎn ": 3118,
  "yà zhōu": 3119,
  " hán guó ": 3120,
  " shì zhǐ": 3121,
  " zuì chū": 3122,
  "tián": 3123,
  "   N": 3124,
  " 24": 3125,
  "hā": 3126,
  "jué dìng": 3127,
  " lián sài": 3128,
  " zài yī ": 3129,
  "liàng ": 3130,
  " wù bǎo hù": 3131,
  " yuē hàn ": 3132,
  " gè yuè ": 3133,
  "22": 3134,
  "zhǔn ": 3135,
  "guó mín": 3136,
  " zhèng zhì rén wù ": 3137,
  "   yú ": 3138,
  "měi guó rén kǒu pǔ chá": 3139,
  " xiàn shí ": 3140,
  " zhāo ": 3141,
  "jiǎ": 3142,
  "ā lā": 3143,
  " jī chǎng": 3144,
  "os": 3145,
  "shí jiān": 3146,
  " jiā pō": 3147,
  "shān ": 3148,
  "xià jì ": 3149,
  " zì rán": 3150,
  " rén shì ": 3151,
  "mín zhǔ": 3152,
  " jiě ": 3153,
  " xíng dòng": 3154,
  "yǎng ": 3155,
  "biāo zhǔn ": 3156,
  "NS": 3157,
  "   jié": 3158,
  " fǒu": 3159,
  " gōng gòng": 3160,
  "zhī hòu ": 3161,
  " céng jīng": 3162,
  "liáng": 3163,
  "op": 3164,
  "kāi fā": 3165,
  " biàn ": 3166,
  " shì wèi yú měi guó ": 3167,
  " guǎn lǐ ": 3168,
  " rén men": 3169,
  " rù ": 3170,
  "hùn ": 3171,
  " bēi ": 3172,
  " bìng bù ": 3173,
  " cǎo": 3174,
  " dá ": 3175,
  " shí sì": 3176,
  " yuè 26 rì ": 3177,
  "zàn ": 3178,
  " shì fǎ guó ": 3179,
  " dā": 3180,
  " cuī": 3181,
  "tóng nián ": 3182,
  "wán ": 3183,
  "miè": 3184,
  " xú": 3185,
  " yuè 24 rì ": 3186,
  "ur": 3187,
  "huáng": 3188,
  " yuè 18 rì ": 3189,
  " lǐ lùn ": 3190,
  " yǒu rén ": 3191,
  " míng cháo": 3192,
  " lái de ": 3193,
  "gé mìng": 3194,
  " zhú jiàn": 3195,
  " miàn jī wèi ": 3196,
  " píng jūn": 3197,
  " huǐ ": 3198,
  "liè chē": 3199,
  " yáng ": 3200,
  " lài": 3201,
  " diàn ": 3202,
  " měi zhōu": 3203,
  "   197": 3204,
  "qǔ dé": 3205,
  " mián": 3206,
  " zǒng rén kǒu": 3207,
  "zhī ": 3208,
  " xiàn zhì ": 3209,
  "dà xué ": 3210,
  " tā yě": 3211,
  " tǐ yù": 3212,
  "duān ": 3213,
  "huī ": 3214,
  " de xué": 3215,
  " chāi": 3216,
  " hòu de ": 3217,
  "chuàng": 3218,
  " 2016 nián ": 3219,
  "lián hé ": 3220,
  " dì lì ": 3221,
  " zhí dào": 3222,
  " fā dòng": 3223,
  " kuàng ": 3224,
  "un": 3225,
  "mǔ ": 3226,
  "huán ": 3227,
  " jù lè bù ": 3228,
  "guó de ": 3229,
  "kě yǐ": 3230,
  " yīng chǐ ": 3231,
  "   195": 3232,
  "luó mǎ": 3233,
  " qíng kuàng ": 3234,
  "is": 3235,
  " cāo ": 3236,
  " chǎn ": 3237,
  " dōng nán": 3238,
  " jūn duì": 3239,
  "chì": 3240,
  "tái běi": 3241,
  " xuán ": 3242,
  " gè ": 3243,
  " wèi yī ": 3244,
  " miào ": 3245,
  " xué yuàn ": 3246,
  " suí": 3247,
  " xué xiào ": 3248,
  "hán guó ": 3249,
  " yíng dé": 3250,
  " dì tiě": 3251,
  "dǎng ": 3252,
  " biǎo ": 3253,
  " cì shì jiè": 3254,
  "gè rén ": 3255,
  " pān ": 3256,
  " hǎi jūn": 3257,
  " céng rèn": 3258,
  " 2008 nián ": 3259,
  " gē ": 3260,
  " bù tóng ": 3261,
  " yuè 16 rì ": 3262,
  " zhōng yāng": 3263,
  " dà yuē": 3264,
  " zhí yè": 3265,
  "zuì gāo": 3266,
  " luó ": 3267,
  "   jiā ": 3268,
  "liú ": 3269,
  " lìng ": 3270,
  " de dì yī ": 3271,
  "rén kǒu shù liàng": 3272,
  "100": 3273,
  "tái ": 3274,
  "qī jiān": 3275,
  " zhān ": 3276,
  " yí bù ": 3277,
  "suǒ ": 3278,
  " bǎo ": 3279,
  "   dà": 3280,
  " zu": 3281,
  " yuè 17 rì ": 3282,
  "bǎi": 3283,
  "nèi de ": 3284,
  " zài 199": 3285,
  " rì jūn": 3286,
  " shí wǔ": 3287,
  " kè sī ": 3288,
  " jīng cháng": 3289,
  " wèi zhōng ": 3290,
  " yě yǒu ": 3291,
  " hóu": 3292,
  "qián wǎng": 3293,
  "xù ": 3294,
  " yuè 12 rì ": 3295,
  " br ": 3296,
  " yuè 27 rì ": 3297,
  "ap": 3298,
  " mó shì ": 3299,
  " qiáo ": 3300,
  "zé ": 3301,
  " xiāng dāng": 3302,
  "P ": 3303,
  "o   ": 3304,
  "jìng ": 3305,
  " zhōng bù ": 3306,
  "   yóu yú ": 3307,
  "tǔ ": 3308,
  "shǒu ": 3309,
  "chūn": 3310,
  "fù zé": 3311,
  "diào": 3312,
  " kǎn ": 3313,
  " bǎn běn": 3314,
  "guǎng": 3315,
  "běi bù ": 3316,
  " yuè 21 rì ": 3317,
  "ig": 3318,
  "197": 3319,
  " tài ": 3320,
  " jué sè": 3321,
  "wèn": 3322,
  " hēng": 3323,
  " gù shì ": 3324,
  " de mó": 3325,
  " de diàn": 3326,
  "shāng": 3327,
  " 2019 nián ": 3328,
  " shí liù": 3329,
  "sì ": 3330,
  " shì lì ": 3331,
  "yí ": 3332,
  " bì yè": 3333,
  " gè zhǒng": 3334,
  " huī fù": 3335,
  " rén lèi": 3336,
  " hōng": 3337,
  "19 rì ": 3338,
  " míng chēng": 3339,
  " guǎng dōng": 3340,
  " gōng chǐ ": 3341,
  " me": 3342,
  "dǎ": 3343,
  "chéng de ": 3344,
  "nà ": 3345,
  " yuè 11 rì ": 3346,
  "sǐ": 3347,
  " fā xíng ": 3348,
  " jiǎn chēng": 3349,
  " gōng jī": 3350,
  " jì suàn ": 3351,
  " shěng de yí gè shì zhèn ": 3352,
  "jǔ xíng": 3353,
  "hǎo ": 3354,
  "yòng yú ": 3355,
  " de shì zhèn ": 3356,
  "lù dì ": 3357,
  " jì huà ": 3358,
  " 2018 nián ": 3359,
  " de shù jù ": 3360,
  " bìng wèi ": 3361,
  " yuè 22 rì ": 3362,
  " fèng": 3363,
  "   196": 3364,
  "48": 3365,
  " cāng ": 3366,
  " yuè 3 rì ": 3367,
  " sài jì ": 3368,
  " qū wèi ": 3369,
  " shì zhōng guó ": 3370,
  " huí dào": 3371,
  "21": 3372,
  " de qíng kuàng ": 3373,
  " yuè 29 rì ": 3374,
  "ov": 3375,
  " yuè 14 rì ": 3376,
  " de zhù": 3377,
  " yì zhì ": 3378,
  " wàn rén ": 3379,
  " chǔ yú ": 3380,
  "   xiàn": 3381,
  " yuè 23 rì ": 3382,
  " duō cì": 3383,
  " yuè 2 rì ": 3384,
  "and   ": 3385,
  " pāi shè": 3386,
  " zú ": 3387,
  " shēng wù": 3388,
  " yǒu rén kǒu": 3389,
  " chā": 3390,
  " 2013 nián ": 3391,
  " chú ": 3392,
  " tān ": 3393,
  " 40": 3394,
  " xī yáng": 3395,
  "lín ": 3396,
  " 23": 3397,
  " shàng wèi ": 3398,
  "yāng ": 3399,
  " hé dì ": 3400,
  " de píng": 3401,
  "jiǎo ": 3402,
  " bó wù guǎn": 3403,
  " yuè 31 rì ": 3404,
  "qián ": 3405,
  " 2012 nián ": 3406,
  "wài jiāo": 3407,
  " céng ": 3408,
  "é luó sī": 3409,
  " jí tuán ": 3410,
  " běn ": 3411,
  " shāo": 3412,
  " diàn yǐng ": 3413,
  " bìng yú ": 3414,
  " 2014 nián ": 3415,
  "huī": 3416,
  " dòng wù": 3417,
  "rén lèi": 3418,
  " sāng ": 3419,
  " jù lí ": 3420,
  "jué ": 3421,
  " lēi ": 3422,
  "gāng ": 3423,
  " 2015 nián ": 3424,
  " yú 198": 3425,
  " nàn ": 3426,
  " guǎng bō": 3427,
  " shì xī": 3428,
  " xīn de ": 3429,
  " gèng duō": 3430,
  "tú ": 3431,
  "fū ": 3432,
  "hūn": 3433,
  "yǔ ": 3434,
  " ér zài ": 3435,
  " wù bǎo hù dān wèi ": 3436,
  " mìng míng ": 3437,
  " shì xué wèi ": 3438,
  " guǐ ": 3439,
  " shè jì": 3440,
  "gōng sī": 3441,
  " dào de ": 3442,
  " bīng ": 3443,
  " yuán běn": 3444,
  " ér gāi": 3445,
  " 2020 nián ": 3446,
  "fāng ": 3447,
  " kēng": 3448,
  " zhuī ": 3449,
  "shùn ": 3450,
  " nǚ ": 3451,
  " tái běi": 3452,
  " huò zhě": 3453,
  " yuè 13 rì ": 3454,
  "duó": 3455,
  " zá zhì ": 3456,
  " yà ": 3457,
  "huí": 3458,
  "xué xiào": 3459,
  "tài ": 3460,
  " xì bāo": 3461,
  " huì zài ": 3462,
  "xuǎn zé": 3463,
  " zhè jiāng": 3464,
  "xīng ": 3465,
  " zhǔ rèn ": 3466,
  " zhèng biān": 3467,
  " kě dá": 3468,
  "shěng jí ": 3469,
  " hé xīn": 3470,
  "av": 3471,
  "dān wèi ": 3472,
  " cài ": 3473,
  "diān ": 3474,
  "tǐ yù": 3475,
  " shè zhì ": 3476,
  "yán ": 3477,
  " cài": 3478,
  " de nán": 3479,
  " shuǐ ": 3480,
  " liǎng rén ": 3481,
  "yōu": 3482,
  " nǐ ": 3483,
  " hé lán": 3484,
  "kǒu ": 3485,
  " dì xià": 3486,
  "   yī ": 3487,
  " shí bā": 3488,
  " mò ": 3489,
  " xī là": 3490,
  "rén shì ": 3491,
  " xiàn de yí gè": 3492,
  " yī sī": 3493,
  " de shēn": 3494,
  " de fēn": 3495,
  " tóu ": 3496,
  " bǐ ": 3497,
  " yǐn fā": 3498,
  " bèi ěr": 3499,
  "suō": 3500,
  " chéng le": 3501,
  " biān ": 3502,
  " de fǎn ": 3503,
  "ào yùn": 3504,
  "   193": 3505,
  " méi ": 3506,
  "90": 3507,
  " xǐ ": 3508,
  " lì rú ": 3509,
  " cáng": 3510,
  " han": 3511,
  " shèng ": 3512,
  " zī liào ": 3513,
  " guān fāng": 3514,
  " fèn wèi ": 3515,
  " zài m": 3516,
  "jiē shòu": 3517,
  "dān ": 3518,
  " nián qīng": 3519,
  " sì ": 3520,
  "   chē zhàn": 3521,
  "kù": 3522,
  " hǔ ": 3523,
  " cái ": 3524,
  " xī gē": 3525,
  " chū rèn": 3526,
  " zhǔ yì": 3527,
  " fǔ ": 3528,
  " de yán": 3529,
  " bǐng ": 3530,
  " wèi yú fǎ guó ": 3531,
  " fù qīn ": 3532,
  " jì zǎi": 3533,
  " kè sī": 3534,
  " suǒ yǐ": 3535,
  " bā shì ": 3536,
  "zhè xiē": 3537,
  " hé zuò": 3538,
  "   2021 nián ": 3539,
  "ǎn lǎn ": 3540,
  " hé běi": 3541,
  " de wén": 3542,
  "chāo guò": 3543,
  " páng ": 3544,
  " gē qǔ": 3545,
  "sōng": 3546,
  " guó wáng": 3547,
  " bāng zhù": 3548,
  " jiā ná": 3549,
  " jiě fàng jūn": 3550,
  "hóu": 3551,
  "niú": 3552,
  "   K": 3553,
  " nèi róng": 3554,
  " xié zhù": 3555,
  " 2007 nián ": 3556,
  "gān ": 3557,
  " zhǐ shì ": 3558,
  " chǔ lǐ": 3559,
  " zhā": 3560,
  " pò hu": 3561,
  " pú táo": 3562,
  " zòng": 3563,
  " zài l": 3564,
  " shuò": 3565,
  "I ": 3566,
  "   2019 nián ": 3567,
  "háng kōng": 3568,
  " jiù shì zhèn ": 3569,
  " bǎo chí": 3570,
  "zì rán": 3571,
  " zhǎn kāi": 3572,
  " sú": 3573,
  " zōng jiào": 3574,
  " guān xì": 3575,
  " jī hū ": 3576,
  "zhǎn ": 3577,
  " dǒng shì ": 3578,
  "28": 3579,
  "tuì": 3580,
  " wù zhǒng": 3581,
  " yòu chēng": 3582,
  " yóu xì ": 3583,
  " bǐ lì ": 3584,
  " cháo xiān ": 3585,
  " nǎo ": 3586,
  "gěi": 3587,
  "kuà": 3588,
  "ab": 3589,
  " dōng bù ": 3590,
  " é luó sī ": 3591,
  " 2017 nián ": 3592,
  " rén kǒu mì dù wèi měi": 3593,
  "chē ": 3594,
  " shuài": 3595,
  " yī wèi ": 3596,
  " pán": 3597,
  " yǐ shàng": 3598,
  "   2020 nián ": 3599,
  " xū": 3600,
  " cǐ ": 3601,
  " sān nián ": 3602,
  " de zī": 3603,
  " cǐ hòu ": 3604,
  " de gē": 3605,
  " lì shǔ yú ": 3606,
  " de z": 3607,
  " yīn cǐ ": 3608,
  "w ": 3609,
  " dì wǔ": 3610,
  " 2005 nián ": 3611,
  " fāng xiàng": 3612,
  " gǎi wéi ": 3613,
  " cì shì jiè dà zhàn": 3614,
  "zhōng huá rén mín gòng hé guó ": 3615,
  " zhǔ ": 3616,
  " shì hòu ": 3617,
  " bǎng": 3618,
  " xíng zhèng": 3619,
  " 2021 nián ": 3620,
  "E ": 3621,
  " shě": 3622,
  " jié gòu": 3623,
  " tòng": 3624,
  " hūn ": 3625,
  "35": 3626,
  "nǐ": 3627,
  "jiàng ": 3628,
  " jiào shòu ": 3629,
  "chū bǎn ": 3630,
  "dì yī ": 3631,
  "rén kǒu shù liàng wèi rén ": 3632,
  " bù fèn ": 3633,
  "   suǒ": 3634,
  " de wǔ": 3635,
  " INS": 3636,
  " yī yàng ": 3637,
  " shān dōng": 3638,
  " hé yī ": 3639,
  " jiē duàn ": 3640,
  " de yí": 3641,
  " yǒu xiē": 3642,
  " měi nián ": 3643,
  "zhí yè": 3644,
  "   the   ": 3645,
  " shí rèn": 3646,
  " děng rén ": 3647,
  " diàn zi": 3648,
  "27": 3649,
  " huǐ": 3650,
  " tā hái": 3651,
  " INSEE": 3652,
  " gāi shěng": 3653,
  " niǎo": 3654,
  " gǎn rǎn ": 3655,
  " niàn ": 3656,
  "kuǎn ": 3657,
  "jiàn zhù": 3658,
  " wèi fú": 3659,
  " zhōng guó gòng chǎn": 3660,
  " shāng yè": 3661,
  " de yǐng xiǎng ": 3662,
  " yǐ lái": 3663,
  " zhí wù ": 3664,
  " zhèng biān mǎ wèi ": 3665,
  " háo mǐ ": 3666,
  " shù jù": 3667,
  " tóu zī": 3668,
  "26": 3669,
  "   bèi": 3670,
  "   2018 nián ": 3671,
  " pán ": 3672,
  " chéng jì ": 3673,
  " ān quán": 3674,
  "   gōng ": 3675,
  "tōng cháng": 3676,
  " dà chén ": 3677,
  " sēn ": 3678,
  "fǎ lǜ": 3679,
  "fú ": 3680,
  " dé dào": 3681,
  " gǔ ": 3682,
  " lún dūn": 3683,
  " zǎo qī": 3684,
  "zhī jiān": 3685,
  " de yǎn": 3686,
  " wō": 3687,
  "qī jiān ": 3688,
  " shí fēn": 3689,
  " de duì": 3690,
  " dì qiú": 3691,
  " cóng ér": 3692,
  " duō shù": 3693,
  " xué jiā": 3694,
  " gōng fēn ": 3695,
  " wéi yà": 3696,
  "zhuān jí ": 3697,
  " de fēng": 3698,
  " zài qí": 3699,
  "néng lì ": 3700,
  "rè dài": 3701,
  "ào lín pǐ kè yùn dòng huì": 3702,
  "ruǎn ": 3703,
  "guó jiā": 3704,
  "cūn": 3705,
  "   zhì ": 3706,
  "zhèng ": 3707,
  " zài yì": 3708,
  " suí zhù": 3709,
  "sān gè": 3710,
  " lài ": 3711,
  " shì bù ": 3712,
  "   b": 3713,
  " tā bèi": 3714,
  "196": 3715,
  "dì èr": 3716,
  "shè ": 3717,
  " kōng jiān": 3718,
  " ní ": 3719,
  " yīn ér": 3720,
  " cháo ": 3721,
  " dàng": 3722,
  " shí zì": 3723,
  " zhì 202": 3724,
  "diào chá": 3725,
  "shèn ": 3726,
  " zài zhōng ": 3727,
  " shuāng": 3728,
  " jiàn zhù ": 3729,
  "shāng yè": 3730,
  "45": 3731,
  " xià lìng shí ": 3732,
  " bù zhǎng": 3733,
  " dú ": 3734,
  " dòng huà": 3735,
  " zhōng guó dà lù": 3736,
  " ěr dé": 3737,
  "dú lì ": 3738,
  " jiē rǎng": 3739,
  "jiǎ ": 3740,
  " biān mǎ wèi ": 3741,
  "jūn duì": 3742,
  "gòng yǒu rén kǒu": 3743,
  " lù jūn": 3744,
  " shòu dào ": 3745,
  "tài yáng": 3746,
  "quán qiú": 3747,
  "   1": 3748,
  "kē xué": 3749,
  " qī xī": 3750,
  " rén kǒu mì dù měi": 3751,
  " 2006 nián ": 3752,
  "ad": 3753,
  " pī píng": 3754,
  " wèi shí ": 3755,
  "qū yù": 3756,
  " lián jiē": 3757,
  "194": 3758,
  " qí hòu ": 3759,
  "qiāng ": 3760,
  "lián bāng ": 3761,
  " shì zhèn biān mǎ wèi ": 3762,
  " INSEE shì zhèn biān mǎ wèi ": 3763,
  "zhāng ": 3764,
  " diào chá": 3765,
  " fā shè": 3766,
  "『": 3767,
  " shí xiàn": 3768,
  " zhèng zài ": 3769,
  " 189": 3770,
  "dōng běi": 3771,
  " děng dì ": 3772,
  " 6 ": 3773,
  " fěi": 3774,
  " píng lùn ": 3775,
  "』": 3776,
  "   qí": 3777,
  " zāo ": 3778,
  "gòng tóng": 3779,
  "   O": 3780,
  "shí de rén kǒu shù liàng wèi rén ": 3781,
  "em": 3782,
  " fèi ": 3783,
  " guān xì ": 3784,
  "měi guó rén kǒu pǔ chá de shù jù ": 3785,
  " rén kǒu mì dù wèi měi píng fāng qiān mǐ": 3786,
  " ér rén kǒu mì dù wèi měi píng fāng qiān mǐ": 3787,
  "   2017 nián ": 3788,
  " dāng dì gòng yǒu rén kǒu": 3789,
  "chóu": 3790,
  "xuǎn qū wèi ": 3791,
  " ěr sī ": 3793,
  " huò jiù shì zhèn ": 3794,
  " xià de ": 3795,
  "fēn bié": 3796,
  " wèi shēng": 3797,
  "tǒng zhì ": 3798,
  " dōng jīng": 3799,
  " shǔ de shěng jí ": 3800,
  " shǔ de shěng jí xuǎn qū wèi ": 3801,
  " hù ": 3802,
  " jiā shàng": 3803,
  " shì yǔ": 3804,
  "quān ": 3805,
  " měng": 3806,
  " zhì zào ": 3807,
  " zàng": 3808,
  " yī nián ": 3809,
  " méng ": 3810,
  " fèn wèi fǎ guó ": 3811,
  " gāi shěng fèn wèi fǎ guó ": 3812,
  "tíng": 3813,
  " zhì liáo": 3814,
  " jù jué": 3815,
  " zhí zhì ": 3816,
  " miáo shù": 3817,
  " qióng": 3818,
  "niǔ yuē": 3819,
  " tā men de ": 3820,
  "jǐng": 3821,
  "kāi shǐ ": 3822,
  " wài jiāo": 3823,
  " zài xī": 3824,
  " dì yī cì": 3825,
  "fā xiàn": 3826,
  "mǐn ": 3827,
  "l ": 3828,
  "zhè ge": 3829,
  " shì yǒu": 3830,
  "pǐn ": 3831,
  "   J": 3832,
  " nì": 3833,
  " shì yī míng": 3834,
  "29": 3835,
  " pù": 3836,
  " fāng miàn ": 3837,
  "ub": 3838,
  " zài dà": 3839,
  " máng ": 3840,
  " lì sī": 3841,
  " quán qiú": 3842,
  " hǎi ": 3843,
  "ak": 3844,
  " yǒu xiào": 3845,
  " zài zhōng guó ": 3846,
  " jiàn zhì ": 3847,
  " dǐng": 3848,
  " zhěng gè": 3849,
  " chuán ": 3850,
  " chā ": 3851,
  " miè": 3852,
  " yuán yú ": 3853,
  " xīn zēng": 3854,
  " 500": 3855,
  " zài dù": 3856,
  " zhí wù": 3857,
  " wán jiā ": 3858,
  "jiā ná": 3859,
  "   2016 nián ": 3860,
  "àn hé ": 3861,
  " chǎn pǐn ": 3862,
  "jiàn lì ": 3863,
  "   yǒu": 3864,
  " bǐ yà": 3865,
  " rén shù": 3866,
  " xìng de ": 3867,
  " pī zhǔn ": 3868,
  " jǔ xíng ": 3869,
  " juǎn ": 3870,
  "zǔ chéng ": 3871,
  "jì huà": 3872,
  " xié yì ": 3873,
  "   2022 nián ": 3874,
  "ed   ": 3875,
  " lǐ sī ": 3876,
  " dé dào ": 3877,
  " huá ": 3878,
  "mù qián": 3879,
  " shuǐ yù": 3880,
  "ǎo qī": 3881,
  " ā lā": 3882,
  "cì ": 3883,
  " yán zhòng": 3884,
  " rú ": 3885,
  " dà duō shù": 3886,
  "ing": 3887,
  "lǐng": 3888,
  "xià xiá": 3889,
  " nián dù": 3890,
  " zhōng guó rén mín": 3891,
  " shí shī": 3892,
  " zhēn duì": 3893,
  " zhōng xué ": 3894,
  " bī": 3895,
  "uó": 3896,
  "   xī": 3897,
  " bàn ": 3898,
  " jǐng chá": 3899,
  " zhuān yè": 3900,
  "ot": 3901,
  "um": 3902,
  " sāi ěr": 3903,
  " shuāng fāng": 3904,
  " jìn xíng le": 3905,
  "gé lán": 3906,
  " tuán tǐ": 3907,
  " lì yú ": 3908,
  " kuà": 3909,
  "é luó sī ": 3910,
  " de shí hòu ": 3911,
  " shì m": 3912,
  "chǎn shēng": 3913,
  " dū jiào": 3914,
  " shì nán": 3915,
  "   zh": 3916,
  "shuāng": 3917,
  "biàn ": 3918,
  " wèi lái": 3919,
  "shǐ yòng ": 3920,
  " xiù ": 3921,
  " de dòng": 3922,
  " zhōng wén": 3923,
  "guǎng dōng": 3924,
  "   yì": 3925,
  " zhī jiān ": 3926,
  " guà": 3927,
  " xué zhě": 3928,
  "   jiǎn ": 3929,
  " ěr sī": 3930,
  " wèn ": 3931,
  " fǎ lǜ": 3932,
  "jǔ bàn": 3933,
  " dì miàn": 3934,
  "wēn": 3935,
  " jī jīn": 3936,
  " dìng wèi ": 3937,
  " zǔ fù": 3938,
  "xiǎo xíng xīng": 3939,
  " zài měi guó ": 3940,
  " xié ": 3941,
  " jí de ": 3942,
  "yōng": 3943,
  "ǎn hé ": 3944,
  " 2022 nián ": 3945,
  "xiè": 3946,
  "jiē ": 3947,
  " bù dé": 3948,
  " rén gōng ": 3949,
  " xī wàng ": 3950,
  " nǔ ": 3951,
  "   zì": 3952,
  " guó huì": 3953,
  "sūn": 3954,
  "jiàng": 3955,
  "75": 3956,
  " hòu zhě": 3957,
  "xiǎng ": 3958,
  "2 rén ": 3959,
  "gài": 3960,
  " qīng cháo": 3961,
  "yùn ": 3962,
  " mín ": 3963,
  " qǐ yè": 3964,
  " xūn": 3965,
  " de yán jiū ": 3966,
  " bù kě": 3967,
  "wéi yī ": 3968,
  "tóng shí ": 3969,
  " jī yú ": 3970,
  " zài p": 3971,
  " sì chuān ": 3972,
  " jiào shòu": 3973,
  " zhī jiān de ": 3974,
  " dōng ": 3975,
  "ěr qí": 3976,
  "fēng ": 3977,
  "àn wèi ": 3978,
  " xiǎo ": 3979,
  "es ": 3980,
  "bǎo ": 3981,
  " jiāng jūn": 3982,
  " bù mén": 3983,
  "zhòu": 3984,
  "bǔ ": 3985,
  " gāo sù": 3986,
  " páng": 3987,
  "hā ": 3988,
  " tōng ": 3989,
  " gòng hé ": 3990,
  "xiōng": 3991,
  " ér shì ": 3992,
  "in ": 3993,
  "   bù ": 3994,
  "kuàng": 3995,
  "gāng": 3996,
  "dì wèi ": 3997,
  "195": 3998,
  " xuǎn wèi ": 3999,
  "dīng": 4000,
  " shì měi guó ": 4001,
  " tū": 4002,
  " jì lù ": 4003,
  " de nèi": 4004,
  "dǎng": 4005,
  "chē zhàn ": 4006,
  " màn huà": 4007,
  "es   ": 4008,
  "xué ": 4009,
  " dān ": 4010,
  " yuán yīn": 4011,
  "nán zi": 4012,
  " tǔ dì ": 4013,
  " jǐn biāo sài": 4014,
  " de fēi": 4015,
  " de qí zhōng ": 4016,
  " shí xíng": 4017,
  " fā xíng": 4018,
  " yuán nián ": 4019,
  " jiē rǎng de shì zhèn ": 4020,
  "zhí jiē": 4021,
  "jì niàn": 4022,
  " zhái": 4023,
  "0 nián dài ": 4024,
  " chū shēng yú ": 4025,
  "   lì ": 4026,
  "shè yǒu ": 4027,
  " zhǔn bèi": 4028,
  "   4": 4029,
  "ěr ": 4030,
  " héng": 4031,
  " 28": 4032,
  " hé m": 4033,
  " zhì yú ": 4034,
  "   2014 nián ": 4035,
  " huò dé le": 4036,
  " xùn liàn ": 4037,
  " shí yī ": 4038,
  " jī gòu ": 4039,
  "nán bù ": 4040,
  "   2015 nián ": 4041,
  " hé liú": 4042,
  " kù ": 4043,
  "qù shì ": 4044,
  "xué shēng": 4045,
  " jiā zú": 4046,
  " rèn wéi shì ": 4047,
  " ér tóng": 4048,
  "R ": 4049,
  "ràng ": 4050,
  " yú hǎi": 4051,
  " bìng jiāng": 4052,
  "wǒ": 4053,
  " lián bāng ": 4054,
  " xíng wéi ": 4055,
  "jǔ": 4056,
  "zǐ": 4057,
  " tiān jīn": 4058,
  "TA": 4059,
  "qiú yuán ": 4060,
  " de fú": 4061,
  " yú 197": 4062,
  "gēng": 4063,
  " lì shān": 4064,
  "fǔ ": 4065,
  " cháng ": 4066,
  " xuē": 4067,
  "   fēn": 4068,
  " de zhǐ": 4069,
  " xī bù ": 4070,
  " yà zhōu": 4071,
  " fēi ": 4072,
  "au": 4073,
  " zé shì ": 4074,
  " zài gāi": 4075,
  " zhí dào ": 4076,
  " qīng nián ": 4077,
  " xiān hòu ": 4078,
  " de dì èr": 4079,
  " wéi chí": 4080,
  " jié mù ": 4081,
  "38": 4082,
  " zuì jiā ": 4083,
  "fā bù ": 4084,
  " hé xī": 4085,
  "yào ": 4086,
  " tāi": 4087,
  " chéng yuán": 4088,
  " hú ": 4089,
  "wú fǎ": 4090,
  "qū huà ": 4091,
  "tè ": 4092,
  "   2013 nián ": 4093,
  " 60": 4094,
  "dǎo ": 4095,
  "   xīn": 4096,
  " dìng de ": 4097,
  " mǔ qīn ": 4098,
  " dài biǎo ": 4099,
  "chóng xīn": 4100,
  "dōng jīng": 4101,
  " tāng ": 4102,
  " tào ": 4103,
  " lǐ yà": 4104,
  " fāng àn ": 4105,
  " guǎng zhōu": 4106,
  " yǒu xiàn gōng sī": 4107,
  " zuǒ yòu": 4108,
  " 26": 4109,
  "suī rán": 4110,
  " wén xué": 4111,
  " qù shì ": 4112,
  " qiāng": 4113,
  " měi gè": 4114,
  " bào fā": 4115,
  " rǔ ": 4116,
  " xiàng mù ": 4117,
  " 21": 4118,
  "rén de ": 4119,
  " zhōng yǒu": 4120,
  " jiàn duì": 4121,
  " quán bù ": 4122,
  " jǐng fāng": 4123,
  " yóu qí": 4124,
  " sān gè": 4125,
  " hěn duō": 4126,
  " zì jǐ de ": 4127,
  "duō ": 4128,
  "formula ": 4129,
  " bù duàn ": 4130,
  "yuàn ": 4131,
  " shì wēi": 4132,
  " zhēn ": 4133,
  "sū lián": 4134,
  " chéng wéi le": 4135,
  " xiōng dì ": 4136,
  "fēi cháng": 4137,
  " cāng": 4138,
  "wù yuàn": 4139,
  " mì shū": 4140,
  " de fāng shì ": 4141,
  "shè lì ": 4142,
  "dié": 4143,
  " fú jiàn": 4144,
  " dào dá": 4145,
  "   5": 4146,
  " guó lì ": 4147,
  " chéng rèn": 4148,
  " mìng ": 4149,
  " tǒng zhì ": 4150,
  " cùn ": 4151,
  " huà xué": 4152,
  " de yī zhǒng": 4153,
  "46": 4154,
  "mín zú": 4155,
  " jiǎn chá": 4156,
  "ind": 4157,
  "guǐ": 4158,
  " zhī wài ": 4159,
  " yùn shū": 4160,
  " lìng wài ": 4161,
  " yuán zhù": 4162,
  "xuǎn rén ": 4163,
  " dǐ dá": 4164,
  "33": 4165,
  " cháng qī": 4166,
  " shì gù": 4167,
  " kāi fàng ": 4168,
  " gǎn dào": 4169,
  " hào xiàn ": 4170,
  "kuān ": 4171,
  "   duì": 4172,
  " rán hòu ": 4173,
  "qīng nián ": 4174,
  " shì yuè": 4175,
  "4 rén ": 4176,
  " yuè tái": 4177,
  " lián xù": 4178,
  " chéng dù": 4179,
  " rén zài ": 4180,
  " qún ": 4181,
  "qǐ yè": 4182,
  " tǐ zhǎng": 4183,
  "sè ": 4184,
  " lǚ yóu": 4185,
  "   2023 nián ": 4186,
  " niǔ yuē": 4187,
  "ev": 4188,
  "°": 4189,
  " de gǔ": 4190,
  " shì rì běn": 4191,
  "yǐ jí ": 4192,
  " shì zhèng": 4193,
  "tòu": 4194,
  "V ": 4195,
  "bā shì ": 4196,
  "fān ": 4197,
  "jié shù": 4198,
  " zài yú ": 4199,
  " mèng": 4200,
  " zhóu": 4201,
  " jì zhě": 4202,
  " suí zhe": 4203,
  " rè dài": 4204,
  " cǐ shí ": 4205,
  "tàn ": 4207,
  " nǚ zǐ ": 4208,
  " kàn dào": 4209,
  " shì mín": 4210,
  "   hé ": 4211,
  "jié mù": 4212,
  " jīng jì": 4213,
  " suí hòu": 4214,
  " shēng yá": 4215,
  " gēn jù ": 4216,
  " 35": 4217,
  " shì bīng": 4218,
  " tǎo lùn ": 4219,
  "M ": 4220,
  " hǎn ": 4221,
  " yǎn chàng ": 4222,
  " kòu": 4223,
  " guī dìng": 4224,
  "1 rén ": 4225,
  " de lù": 4226,
  " niǎo ": 4227,
  " tóng shí yě": 4228,
  " guǎng fàn ": 4229,
  " yī shì ": 4230,
  "chàng ": 4231,
  " píng tái": 4232,
  "zuì zhōng ": 4233,
  "gōng zuò ": 4234,
  " de jiào": 4235,
  " yuè nán": 4236,
  " jiē dào ": 4237,
  " tuó": 4238,
  "gōng yuán ": 4239,
  " ěr lán": 4240,
  "B ": 4241,
  "zuò wéi": 4242,
  "sài shì ": 4243,
  " de bào": 4244,
  " zǒng miàn jī ": 4245,
  " lǜ bīn ": 4246,
  "36": 4247,
  " zhī xiàn ": 4248,
  " píng miàn": 4249,
  " chēng wéi": 4250,
  " ēn ": 4251,
  "7 rén ": 4252,
  " zhōu shì ": 4253,
  " miào": 4254,
  " huáng dì ": 4255,
  " dà qū ": 4256,
  " chéng xiàn": 4257,
  "niè": 4258,
  "sōu": 4259,
  " dūn ": 4260,
  " de cūn": 4261,
  " bù lā": 4262,
  " shí yàn ": 4263,
  " jì chéng ": 4264,
  " nán jīng": 4265,
  "lǜ ": 4266,
  " de biǎo": 4267,
  " jī dì ": 4268,
  " qún dǎo": 4269,
  " lù xiàn ": 4270,
  " yú lè": 4271,
  " yìng yòng": 4272,
  " de huà": 4273,
  " The   ": 4274,
  "zhú jiàn": 4275,
  " de shè": 4276,
  " de xìng": 4277,
  " de yǔ": 4278,
  " mí": 4279,
  " jí wèi ": 4280,
  " 188": 4281,
  " xiě ": 4282,
  "jīng guò": 4283,
  " jìn gōng ": 4284,
  "amp ": 4285,
  " nài": 4286,
  "chuán ": 4287,
  " lìng yī ": 4288,
  " duō gè": 4289,
  " yú 194": 4290,
  " de wèn": 4291,
  "chā": 4292,
  "háo": 4293,
  " huò shì ": 4294,
  " zōng ": 4295,
  " chuàng zuò": 4296,
  "You": 4297,
  "bēi": 4298,
  " fāng fǎ": 4299,
  " guī huà": 4300,
  "kuí ": 4301,
  " lǐng yù": 4302,
  " hā ěr": 4303,
  "jué sài": 4304,
  "fāng miàn": 4305,
  "méi tǐ": 4306,
  " zài 18": 4307,
  "dǎ ": 4308,
  " tíng zhǐ": 4309,
  "oun": 4310,
  " yào ": 4311,
  " xiàn rén ": 4312,
  "   zhōng ": 4313,
  " bù luò": 4314,
  "kān ": 4315,
  "00 wàn ": 4316,
  " de zhòng yào": 4317,
  " zǒu ": 4318,
  " tiē": 4319,
  " hào xiàn": 4320,
  " huǒ ": 4321,
  " zài 198": 4322,
  " làng ": 4323,
  " bǎn de ": 4324,
  " yǒu yí gè": 4325,
  " wù lǐ": 4326,
  "cuò": 4327,
  "kòng": 4328,
  " shēng yá ": 4329,
  "xuě": 4330,
  "běi měi": 4331,
  "   shí ": 4332,
  " nóng yè": 4333,
  " shào nián ": 4334,
  " yīng yǔ ": 4335,
  "biāo wèi ": 4336,
  "huā": 4337,
  " guó jì": 4338,
  "jiā tíng ": 4339,
  " yǐ sè": 4340,
  "kǎo ": 4341,
  " pū ": 4342,
  "   10": 4343,
  "xīn wén": 4344,
  "mǐ ": 4345,
  " de sān": 4346,
  " yǒu xiàn gōng sī ": 4347,
  "nán xìng": 4348,
  "tǎn ": 4349,
  " zhǔ jué": 4350,
  "xùn liàn ": 4351,
  "níng": 4352,
  " shì dà": 4353,
  " zài tā": 4354,
  " lā sī ": 4355,
  "9 rén ": 4356,
  "ràng": 4357,
  "   jī": 4358,
  "xuǎn jǔ ": 4359,
  "fù ": 4360,
  "juǎn ": 4361,
  "yuē hàn ": 4362,
  "00 nián ": 4363,
  " de zì": 4364,
  " sà kè": 4365,
  " pǐn pái": 4366,
  " tuò": 4367,
  " shè qū ": 4368,
  " jiě jué": 4369,
  "bó wù guǎn": 4370,
  "kǒng": 4371,
  " dì wèi ": 4372,
  "bīn ": 4373,
  " de liǎng": 4374,
  " chá ": 4375,
  " zhàng": 4376,
  "wěi yuán ": 4377,
  " yí ": 4378,
  "lù dì miàn jī wèi ": 4379,
  "   s": 4380,
  " zhì jīn": 4381,
  "cháo xiān ": 4382,
  " shuǐ yù miàn jī wèi ": 4383,
  " ér bèi": 4384,
  " yán jiū": 4385,
  " zuì dà de ": 4386,
  " gǎi biān": 4387,
  "kuò": 4388,
  "yāo ": 4389,
  " 2004 nián ": 4390,
  "guǎng bō": 4391,
  "jì shù": 4392,
  "ān wèi ": 4393,
  " zhī qián ": 4394,
  " jué sài": 4395,
  " zhǎo ": 4396,
  "uó wēi": 4397,
  "jìng nèi": 4398,
  "og": 4399,
  "chǔ": 4400,
  " yǎng huà": 4401,
  "pèi": 4402,
  " suǒ yǒu": 4403,
  "zǔ ": 4404,
  " de shuǐ": 4405,
  "bù tóng": 4406,
  " shǎng ": 4407,
  " zōng hé ": 4408,
  "   míng": 4409,
  " néng lì ": 4410,
  " xiǎo xíng xīng": 4411,
  "níng ": 4412,
  " nián l": 4413,
  " qí xià": 4414,
  " nián shì jiè": 4415,
  " qiàn": 4416,
  "～": 4417,
  " 27": 4418,
  " fǎ lán": 4419,
  "dōng bù ": 4420,
  " cān jiā": 4421,
  " de zuò pǐn ": 4422,
  " shēng zhǎng": 4423,
  " pǐn de ": 4424,
  " yī tóng": 4425,
  "wǎn ": 4426,
  " pìn ": 4427,
  " amp ": 4428,
  " huà hé ": 4429,
  " dá dào ": 4430,
  "dū ": 4431,
  "ēn ": 4432,
  "gē ": 4433,
  "hòu lái": 4434,
  " zī ": 4435,
  "   V": 4436,
  " yǒu suǒ": 4437,
  " zì dòng": 4438,
  " dāng zhōng lù dì miàn jī wèi ": 4439,
  "ay": 4440,
  " ér shuǐ yù miàn jī wèi ": 4441,
  "im": 4442,
  " shì jí ": 4443,
  " jī bài": 4444,
  "   2012 nián ": 4445,
  " qǐng": 4446,
  "yīng gé lán": 4447,
  " kuí ": 4448,
  " èr nián ": 4449,
  " lú wǎ ěr": 4450,
  " de ér": 4451,
  " shí sān": 4452,
  " shěng hé ": 4453,
  " zhòu": 4454,
  " gè dì ": 4455,
  "zhèng zhì rén wù ": 4456,
  " qí hòu": 4457,
  " dé lǐ": 4458,
  " xiāo shòu": 4459,
  "3 rén ": 4460,
  "65": 4461,
  " zhào ": 4462,
  "bǐ lì ": 4463,
  " shì yī wèi ": 4464,
  " lì hé ": 4465,
  "dōng nán": 4466,
  " de wài": 4467,
  " féi": 4468,
  "gào ": 4469,
  "xiǎn ": 4470,
  "juān ": 4471,
  " lì yà ": 4472,
  " quán lì ": 4473,
  " bìng fēi": 4474,
  " wǎng zhàn": 4475,
  " chí ": 4476,
  "mù ": 4477,
  " fén": 4478,
  " dào lù": 4479,
  " dèng ": 4480,
  "yǐ jīng": 4481,
  " tóng ": 4482,
  " wēi ěr": 4483,
  "fā biǎo": 4484,
  " zhǐ néng": 4485,
  "qīng ": 4486,
  " bù hé ": 4487,
  " chàng piàn": 4488,
  " xíng dòng ": 4489,
  " fū sī": 4490,
  "xuán": 4491,
  " chéng lì yú ": 4492,
  "   cóng": 4493,
  " xīng qī": 4494,
  " bǔ": 4495,
  " zhōu de ": 4496,
  " pái míng": 4497,
  " dān qū ": 4498,
  " mǎ lì ": 4499,
  "   xíng zhèng qū huà ": 4500,
  " dǔ ": 4501,
  " de shí jiān": 4502,
  "   mǎ": 4503,
  " de tóu": 4504,
  " wèi gāo": 4505,
  "tè bié": 4506,
  " wèi fú qí yú ": 4507,
  "bǐ sài ": 4508,
  " yú 196": 4509,
  " hōng zhà": 4510,
  "   lìng": 4511,
  " yòng lái": 4512,
  " wèi yǒu": 4513,
  " yǐng xiǎng": 4514,
  " bǎo liú": 4515,
  " wěi yuán huì ": 4516,
  "bèi ": 4517,
  "jiǎo": 4518,
  "xiāo ": 4519,
  " 29": 4520,
  " xiāng duì": 4521,
  "us": 4522,
  " jí shǐ": 4523,
  " wǎng luò": 4524,
  " chāo jí ": 4525,
  " shì zhèng fǔ": 4526,
  "   zǎo": 4527,
  "guǎn lǐ ": 4528,
  " de jìn": 4529,
  " gēng míng wèi ": 4530,
  "X ": 4531,
  "měi guó": 4532,
  " chū shēng": 4533,
  " tǐ zhǎng kě dá": 4534,
  " làng": 4535,
  " zé ": 4536,
  " de sī": 4537,
  "huā ": 4538,
  " lòu": 4539,
  " yú 195": 4540,
  " zhī shí ": 4541,
  " 2023 nián ": 4542,
  " yōng yǒu": 4543,
  "ph": 4544,
  "F ": 4545,
  " dàn bái": 4546,
  " bǎn běn ": 4547,
  " de dì qū ": 4548,
  " lì jí ": 4549,
  " zhǐ zài ": 4550,
  "huái": 4551,
  " quán zhǎng": 4552,
  "ali": 4553,
  "zuì jiā ": 4554,
  " dà lù": 4555,
  " qīng ": 4556,
  "guān yú ": 4557,
  "tiān ": 4558,
  " diàn shì tái": 4559,
  " jī chǔ ": 4560,
  " jī chē": 4561,
  " mìng míng wèi ": 4562,
  " de chū": 4563,
  "zhǔ yì ": 4564,
  " jìn yí bù ": 4565,
  " bào gào ": 4566,
  " 21 ": 4567,
  "   yuán ": 4568,
  "guān xì": 4569,
  "guò chéng ": 4570,
  " biǎn ": 4571,
  " wèi hé ": 4572,
  "ne": 4573,
  " zhàn lǐng ": 4574,
  " nèi bù ": 4575,
  " gōng huì": 4576,
  " shěng fèn ": 4577,
  " kōng jūn": 4578,
  " xí jī": 4579,
  "hài ": 4580,
  " bǐ jiào": 4581,
  " zhōng shān": 4582,
  "lù jūn": 4583,
  " wū": 4584,
  " yī shēng": 4585,
  " běi qǐ": 4586,
  "wèi shì ": 4587,
  "fāng miàn ": 4588,
  " shōu lù": 4589,
  "   6": 4590,
  "liào ": 4591,
  " rén mín zhèng fǔ": 4592,
  "fú wù": 4593,
  " dū": 4594,
  "ob": 4595,
  "37": 4596,
  " bù zhǎng ": 4597,
  " 22": 4598,
  "   2024 nián ": 4599,
  " chèn ": 4600,
  " sì nián ": 4601,
  " Ch": 4602,
  "der": 4603,
  " xiàn wèi ": 4604,
  " jié gòu ": 4605,
  " zuò chū": 4606,
  "fù jìn": 4607,
  " yóu tài": 4608,
  " shuāi": 4609,
  " tī": 4610,
  " hé pàn ": 4611,
  " de shān": 4612,
  " 2000 nián ": 4613,
  "O ": 4614,
  "lián ": 4615,
  " mò xī gē": 4616,
  " dì liù": 4617,
  " cán": 4618,
  " kè lā": 4619,
  "eb": 4620,
  "wò": 4621,
  "lián xù": 4622,
  " yǒu zhù": 4623,
  " diāo ": 4624,
  " shèng dùn ": 4625,
  " guān yuán ": 4626,
  "zōng jiào": 4627,
  "shēng chǎn": 4628,
  " jū zhù": 4629,
  "xī bù ": 4630,
  " guó nèi": 4631,
  " cǐ wài": 4632,
  " hé zhōng ": 4633,
  "bāo hán ": 4634,
  " wèi l": 4635,
  " zài xīn": 4636,
  " de shí qū wèi ": 4637,
  "indow": 4638,
  "fú wù ": 4639,
  " zhǎn shì ": 4640,
  " guò qù": 4641,
  "bǐ ": 4642,
  " jī hé ": 4643,
  "dòng huà": 4644,
  " zhǐ chū ": 4645,
  " dǎo yǎn": 4646,
  "qiàn": 4647,
  "8 rén ": 4648,
  "xì bāo": 4649,
  " de yǒu": 4650,
  " gǒng": 4651,
  " xiáng": 4652,
  " zhǐ huī ": 4653,
  " fǎn huí ": 4654,
  " rén wù": 4655,
  "kàn ": 4656,
  " zhōng yú ": 4657,
  " tw ": 4658,
  " jià zhí": 4659,
  " hans ": 4660,
  " yùn dòng ": 4661,
  "   U": 4662,
  " zài 202": 4663,
  " jiē wèi ": 4664,
  " lǚ kè": 4665,
  "sǔn ": 4666,
  " jīn shǔ": 4667,
  "eg": 4668,
  " qì chē": 4669,
  " fó jiào": 4670,
  " xiàn lù": 4671,
  "chún ": 4672,
  "hū ": 4673,
  "yóu zhèng biān mǎ wèi ": 4674,
  " gù ": 4675,
  " míng zhì ": 4676,
  " tiáo zhěng": 4677,
  "ai": 4678,
  " shì nèi": 4679,
  " suì shí ": 4680,
  " de wù": 4681,
  " qiú yuán ": 4682,
  " tài yáng": 4683,
  " kǎo lǜ": 4684,
  " tài píng yáng": 4685,
  "wán chéng ": 4686,
  " de fā": 4687,
  "   de shí ": 4688,
  "   píng": 4689,
  " jiě shì ": 4690,
  " cǎi qǔ": 4691,
  "6 rén ": 4692,
  " dōng lín": 4693,
  " jié hé ": 4694,
  "ang": 4695,
  " zuì duō": 4696,
  "zhàng ": 4697,
  "tiān zhǔ jiào": 4698,
  " gōng lù ": 4699,
  " cóng shì ": 4700,
  "cún zài ": 4701,
  " yǐ sè liè": 4702,
  " gǒu": 4703,
  " xī shěng": 4704,
  " jiāng sū ": 4705,
  " tiáo ": 4706,
  " rì běn ": 4707,
  " dà lóu": 4708,
  " dāng xuǎn": 4709,
  "shēng huó ": 4710,
  "jué sè": 4711,
  " dì yí gè": 4712,
  "miào ": 4713,
  " hé gōng ": 4714,
  " 2002 nián ": 4715,
  "xǐ ": 4716,
  "cè ": 4717,
  " yì shí ": 4718,
  "shuì": 4719,
  " mào yì ": 4720,
  "／": 4721,
  " bù míng ": 4722,
  " yī xué": 4723,
  " zhàn yì ": 4724,
  " chuàng zuò ": 4725,
  "jīng lì ": 4726,
  "N ": 4727,
  " jìn zhǐ": 4728,
  " dēng ": 4729,
  " jù yǒu": 4730,
  " jié zhì ": 4731,
  " bàng": 4732,
  " zhàn shì ": 4733,
  " shí èr nián ": 4734,
  " tī ": 4735,
  " liè wèi ": 4736,
  "iv": 4737,
  " xiàn rèn": 4738,
  "guāng": 4739,
  "ǔ lì ": 4740,
  "   dāng": 4741,
  " nù": 4742,
  " sī lā": 4743,
  " miǎo ": 4744,
  "ran": 4745,
  "   yuè": 4747,
  " de xìn ": 4748,
  " jí dà": 4749,
  " pín dào ": 4750,
  "   de yóu zhèng biān mǎ wèi ": 4751,
  "   yǔ jiē rǎng de shì zhèn ": 4752,
  "   yú shí de rén kǒu shù liàng wèi rén ": 4753,
  "   suǒ shǔ de shěng jí xuǎn qū wèi ": 4754,
  "   de shí qū wèi ": 4755,
  " dà guī mó": 4756,
  " mǎ lái xī yà": 4757,
  " tuī chū": 4758,
  " dòng wù ": 4759,
  " 187": 4760,
  " mài kè": 4761,
  " de zhī chí": 4762,
  " bo": 4763,
  " jiào liàn ": 4764,
  "   192": 4765,
  "32": 4766,
  " zhì dù": 4767,
  " zhè yàng": 4768,
  " shēn fèn": 4769,
  "dòu": 4770,
  " gòu mǎi": 4771,
  " fǎng wèn": 4772,
  "tí chū": 4773,
  "chéng gōng ": 4774,
  " xuǎn jǔ": 4775,
  " píng fāng gōng lǐ": 4776,
  " yá lì ": 4777,
  "chàng": 4778,
  " le yí gè": 4779,
  " de biān": 4780,
  " zhā ": 4781,
  "gè zhǒng": 4782,
  "zhòng diǎn": 4783,
  " shèng lì ": 4784,
  " shì qū ": 4785,
  "NA": 4786,
  "piàn": 4787,
  " jiāng shěng": 4788,
  " tiān zhǔ jiào": 4789,
  " zāo dào": 4790,
  " kè lǐ": 4791,
  " yǐ hòu ": 4792,
  " zhēng yì ": 4793,
  " nú": 4794,
  " gǎi gé": 4795,
  " shí jiān ": 4796,
  " zhū": 4797,
  " rén yuán": 4798,
  " 2003 nián ": 4799,
  " shè bèi": 4800,
  " shì wèi le": 4801,
  " de dào": 4802,
  " gòng chǎn": 4803,
  "sú": 4804,
  "jiǎng": 4805,
  "193": 4806,
  " wěi huì": 4807,
  "bú": 4808,
  "ent": 4810,
  "zhuī": 4811,
  "xiāo": 4812,
  "yí dìng": 4813,
  " zǔ hé ": 4814,
  "yán zhòng": 4815,
  " chū xiàn zài ": 4816,
  " wèi xīng": 4817,
  " hái shì ": 4818,
  "al ": 4819,
  " de qí zhōng yī ": 4820,
  " rén hé ": 4821,
  " 186": 4822,
  "kē ": 4823,
  " hk ": 4824,
  "qí ": 4825,
  "shuài": 4826,
  " de cháng": 4827,
  " xī yǐn ": 4828,
  "5 rì": 4829,
  "dī": 4830,
  "nǚ xìng": 4831,
  " de zǒng": 4832,
  " zài wèi ": 4833,
  " máo qiú": 4834,
  "jǔ xíng ": 4835,
  "kǎi": 4836,
  "bō lán": 4837,
  " pǎo": 4838,
  " gōng mín": 4839,
  " máng": 4840,
  "luǎn ": 4841,
  " lì shǔ": 4842,
  "   2011 nián ": 4843,
  "chēng wéi ": 4844,
  " shì chù": 4845,
  "jì xù": 4846,
  " jī xiè": 4847,
  " hé gǔ": 4848,
  " ěr shěng ": 4849,
  " jī guān": 4850,
  "quàn ": 4851,
  " tiān wén": 4852,
  "fèn ": 4853,
  " wǔ nián ": 4854,
  "20 shì jì ": 4855,
  " jūn zài ": 4856,
  "bié ": 4857,
  " lüè ": 4858,
  " tā céng dài biǎo": 4859,
  "wǎ": 4860,
  "34": 4861,
  " chāng": 4862,
  " biān hào": 4863,
  " yuán hé ": 4864,
  " zhōng shì ": 4865,
  "dǐng ": 4866,
  " dì 1": 4867,
  "yǐng xiǎng": 4868,
  " wèi jī": 4869,
  " ào mén": 4870,
  "tuī ": 4871,
  " wéi zhǔ ": 4872,
  " yùn ": 4873,
  "shòu dào": 4874,
  " zài nà": 4875,
  " de shèng": 4876,
  " jiào huì": 4877,
  " wú xiàn ": 4878,
  " de qīng": 4879,
  " zài rì běn": 4880,
  " yán jiū suǒ": 4881,
  " fù zé guǎn xiá ": 4882,
  "8 rì": 4883,
  "guān xì ": 4884,
  "ní ": 4885,
  " gē qǔ ": 4886,
  " guǎng chǎng": 4887,
  " jiàn zhì dì qū ": 4888,
  " jiàn yì ": 4889,
  " yǐ bèi": 4890,
  " bìng lì ": 4891,
  " yí dù": 4892,
  "guān fāng": 4893,
  " ào yùn": 4894,
  " sǐ wáng": 4895,
  " zhè cì": 4896,
  " diàn tái": 4897,
  "   bā": 4898,
  "xiāng duì": 4899,
  " yǔ qí": 4900,
  " qī xī zài ": 4901,
  "á ": 4902,
  " yīng gāi": 4903,
  "yuán nián ": 4904,
  "xiǎo shuō": 4905,
  "yǎn chàng ": 4906,
  " dà qū": 4907,
  " mó ": 4908,
  " bào dào ": 4909,
  "   2010 nián ": 4910,
  " shí jì shàng": 4911,
  "jié mù ": 4912,
  "méi yǒu": 4913,
  "BC": 4914,
  "cí": 4915,
  "   zhōng guó ": 4916,
  " mì ": 4917,
  " xiū gǎi": 4918,
  "zhàn dòu": 4919,
  "fù qīn ": 4920,
  "qǔ ": 4921,
  " ān pái": 4922,
  " yī bù ": 4923,
  " de cái": 4924,
  " dà zhì ": 4925,
  "wěn": 4926,
  "en ": 4927,
  "zhuó": 4928,
  "tiān wén": 4929,
  " zhōng bèi": 4930,
  "ru": 4931,
  "jié gòu": 4932,
  " jī bài ": 4933,
  " xiǎn de ": 4934,
  " jié kè": 4935,
  "   yǐ xià": 4936,
  " bù shǎo": 4937,
  "xiāng dāng": 4938,
  "ew": 4939,
  " yuè de ": 4940,
  " 80": 4941,
  "tiān jīn": 4942,
  " yǒu jī": 4943,
  "   chū": 4944,
  "zuì hòu": 4945,
  " gōng zhòng": 4946,
  "55": 4947,
  "yuān ": 4948,
  " bù jǐn ": 4949,
  "   chú": 4950,
  " xíng chē": 4951,
  "ce ": 4952,
  "wěi ": 4953,
  " shī qù": 4954,
  "táng": 4955,
  "bǐng ": 4956,
  " gōng rén ": 4957,
  " yīng gé lán": 4958,
  "zāo": 4959,
  "   jiàn": 4960,
  "20 ": 4961,
  " gē shǒu": 4962,
  " jī de ": 4963,
  "   8": 4964,
  " zhōng gòng zhōng yāng ": 4965,
  "guǎn ": 4966,
  "sù dù": 4967,
  " zhǐ chū": 4968,
  " bō lán": 4969,
  "as   ": 4970,
  " hé chéng ": 4971,
  " dì qū de ": 4972,
  " shì gōng ": 4973,
  " dì yà": 4974,
  " gǔn ": 4975,
  "L ": 4976,
  " nài ": 4977,
  " zhǔ tí": 4978,
  "or ": 4979,
  "bāng ": 4980,
  " zuì zǎo": 4981,
  " shū guǎn": 4982,
  "piān ": 4983,
  "zūn": 4984,
  "huì yì ": 4985,
  " yī jí ": 4986,
  " guò chéng ": 4987,
  "   zh ": 4988,
  "10 nián ": 4989,
  " yì rén ": 4990,
  " bō chū ": 4991,
  " fān yì": 4992,
  " pēn": 4993,
  " zài 197": 4994,
  "shēn fèn": 4995,
  " gǎo ": 4996,
  " kuì": 4997,
  " lǐ de ": 4998,
  " jī jí ": 4999,
  " zhí xíng ": 5000,
  " shù wèi ": 5001,
  " zhī zhōng ": 5002,
  " pú táo yá": 5003,
  "xuán ": 5004,
  "diàn zi": 5005,
  " kāi shǐ ": 5006,
  "wǎng luò": 5007,
  " wú rén ": 5008,
  "   gēn jù ": 5009,
  " zhài": 5010,
  " qiáo zhì ": 5011,
  " shǎn xī": 5012,
  "xià wǔ": 5013,
  "gāo ": 5014,
  " ào dà lì yà": 5015,
  " de biàn": 5016,
  " wēng": 5017,
  " yǒu liǎng": 5018,
  " jiàn zào": 5019,
  "pín": 5020,
  "yé": 5021,
  " yì yì ": 5022,
  " fēng gé": 5023,
  "ation": 5024,
  "kēng": 5025,
  " kě néng huì": 5026,
  " de chéng yuán ": 5027,
  " shè shī ": 5028,
  " de dān": 5029,
  " de mǎ": 5030,
  " měi ní yà": 5031,
  " zhǐ huī": 5032,
  " lì fú": 5033,
  " rán hòu": 5034,
  " dì qī": 5035,
  " zhì zào": 5036,
  " céng zài ": 5037,
  " bù bīng": 5038,
  " yī xiǎo": 5039,
  "ǎo zhàn": 5040,
  " qǔ dài": 5041,
  " fàng qì": 5042,
  "xì tǒng ": 5043,
  "zhuī ": 5044,
  "dé ": 5045,
  "néng gòu": 5046,
  "bào gào ": 5047,
  " yuán zì": 5048,
  " lín shí ": 5049,
  "dì qū": 5050,
  " wèi yú": 5051,
  " chē liàng": 5052,
  " fǎn yìng ": 5053,
  "   zhù": 5054,
  " zuì ": 5055,
  " yǔn xǔ ": 5056,
  "   jiā zú ": 5057,
  "shí qī ": 5058,
  " ěr tè": 5059,
  " 300": 5060,
  " diān ": 5061,
  "64": 5062,
  "qiǎn ": 5063,
  " yě bèi": 5064,
  " C ": 5065,
  " de kōng": 5066,
  "cu": 5067,
  " rén wù ": 5068,
  "   7": 5069,
  "   cān": 5070,
  " wén míng ": 5071,
  "nǚ zǐ ": 5072,
  " de jiāo": 5073,
  " zhì lì ": 5074,
  " yòu míng ": 5075,
  "tóng yī ": 5076,
  "hi": 5077,
  " wèi xīn": 5078,
  " zhǔ rèn": 5079,
  " qí zhōng bāo kuò": 5080,
  " shì yī kē": 5081,
  "St": 5082,
  "ào dà lì yà": 5083,
  "bìng ": 5084,
  "gào": 5085,
  "jī chǎng": 5086,
  " bó ": 5087,
  " shì duì": 5088,
  " jiàn chéng ": 5089,
  " jīng shén ": 5090,
  "tǒng jì ": 5091,
  " xià xiá": 5092,
  " 2024 nián ": 5093,
  " wèi 2": 5094,
  " jīng lì ": 5095,
  "ack": 5096,
  " zhōu nián ": 5097,
  "2020 nián měi guó rén kǒu pǔ chá de shù jù ": 5098,
  "xiù": 5099,
  "and": 5100,
  " bái ": 5101,
  " de kè": 5102,
  " zhī yuán ": 5103,
  "tuán tǐ": 5104,
  "xiàn dài": 5105,
  "yáo": 5106,
  " sā": 5107,
  " yī yuàn ": 5108,
  "chí xù": 5109,
  "jú ": 5110,
  " de shī": 5111,
  " hú nán": 5112,
  "--": 5113,
  "ào mén": 5114,
  " hé dà": 5115,
  " 45": 5116,
  " dì yī": 5117,
  " kē jì ": 5118,
  "OS": 5119,
  "le yī ": 5120,
  "chái": 5121,
  "fāng shì ": 5122,
  " nǚ zǐ": 5123,
  "yìng ": 5124,
  "duō gè": 5125,
  " dà xī yáng": 5126,
  " sī dì ": 5127,
  "1 rì": 5128,
  "mín guó ": 5129,
  " biǎo yǎn": 5130,
  " rǎn ": 5131,
  " chuāng ": 5132,
  " gōng chǎng": 5133,
  "ed": 5134,
  " de chuán": 5135,
  " de fā zhǎn ": 5136,
  " tóu rù": 5137,
  " lì shǐ shàng": 5138,
  "id": 5139,
  " de guó ": 5140,
  " xiǎo shuō": 5141,
  " zī yuán ": 5142,
  " láo dòng": 5143,
  "huán": 5144,
  " de wēi": 5145,
  " bìng rù": 5146,
  " dàn yóu yú ": 5147,
  "   zǎo nián ": 5148,
  " guān zhòng": 5149,
  " shì zuì": 5150,
  " yì zhōng ": 5151,
  " pò huài ": 5152,
  " yāo qǐng ": 5153,
  "zhěng gè": 5154,
  " chán ": 5155,
  " rèn wù": 5156,
  " xīng jiàn": 5157,
  " míng cháo zhèng zhì rén wù ": 5158,
  "dōng ": 5159,
  "yǎn yuán ": 5160,
  "cān jiā": 5161,
  "zhōng yāng ": 5162,
  " de jí ": 5163,
  " shì zhǎng": 5164,
  " kǔ ": 5165,
  " zhāi": 5166,
  " jūn wèi ": 5167,
  " xīn jiā pō": 5168,
  " chuàng bàn": 5169,
  "xú": 5170,
  " gǎi biàn": 5171,
  " 70": 5172,
  "rèn wéi": 5173,
  " de hòu ": 5174,
  " de gù shì ": 5175,
  " chū qī": 5176,
  "xí": 5177,
  "nóng yè": 5178,
  "per": 5179,
  "zhuàn ": 5180,
  " shì rén ": 5181,
  " bù lǐ": 5182,
  " gāo zhōng ": 5183,
  " kāi ": 5184,
  "zhōng huá mín guó ": 5185,
  " yuán míng": 5186,
  " qià": 5187,
  " cái zhèng": 5188,
  " ān dé": 5189,
  " wáng guó ": 5190,
  " sǎn ": 5191,
  " yín háng": 5192,
  " dì 2": 5193,
  " lì bù ": 5194,
  " sī lín": 5195,
  " nán zhì ": 5196,
  " biǎo dá": 5197,
  "xià jì ào lín pǐ kè yùn dòng huì": 5198,
  " rèn wù ": 5199,
  " zuò yòng ": 5200,
  " shāo ": 5201,
  " shǐ jiàn yú ": 5202,
  " bó tè ": 5203,
  "chǎn pǐn ": 5204,
  " lù yì ": 5205,
  " cái néng": 5206,
  " fēng bào": 5207,
  "xué yuàn ": 5208,
  " jiāo ": 5209,
  "39": 5210,
  " shì yú ": 5211,
  " kuài sù": 5212,
  " de zhī": 5213,
  " pǔ ": 5214,
  "gàn ": 5215,
  " wèi dà": 5216,
  " ké": 5217,
  " dài lái": 5218,
  " mǔ sī": 5219,
  "wéi ěr": 5220,
  "nǚ ": 5221,
  " xī fāng": 5222,
  "gé ": 5223,
  " zhèng fǔ ": 5224,
  " xún huí ": 5225,
  "6 rì": 5226,
  " shì gè": 5227,
  " 36": 5228,
  " jí zhōng ": 5229,
  "ell": 5230,
  "gǎi wéi ": 5231,
  " hé mǎ": 5232,
  " wù zhǒng ": 5233,
  " pǔ tōng": 5234,
  " quàn ": 5235,
  "AS": 5236,
  " jì shù ": 5237,
  " jí zhōu": 5238,
  " liè chē ": 5239,
  " wáng cháo": 5240,
  " yī sī lán": 5241,
  " hé shí ": 5242,
  " yī tiáo": 5243,
  "   2008 nián ": 5244,
  "bì yè yú ": 5245,
  "   zhàn": 5246,
  " dōu huì": 5247,
  " wán zhěng": 5248,
  " jiāng huì": 5249,
  " zuò jiā ": 5250,
  " wéi yī ": 5251,
  " sòng ": 5252,
  "7 rì": 5253,
  "zǐ ": 5254,
  " hé hé ": 5255,
  " yú 193": 5256,
  "44": 5257,
  "zhè zhǒng": 5258,
  " jiào táng ": 5259,
  " qián lóng": 5260,
  " xìn xī": 5261,
  " de rèn": 5262,
  " lún bǐ yà": 5263,
  " zhàn zhēng ": 5264,
  " jiāng jūn ": 5265,
  "jiù shì ": 5266,
  " de dōng": 5267,
  " yīng ": 5268,
  " bù duì ": 5269,
  "jù yǒu ": 5270,
  " zài nán": 5271,
  " yǐ lái ": 5272,
  " jiào qū ": 5273,
  " cān móu": 5274,
  " 1999 nián ": 5275,
  " xióng ": 5276,
  "sǐ wáng ": 5277,
  " fǎ àn ": 5278,
  " wèi zhǔ": 5279,
  "quán lì ": 5280,
  "suǒ yǒu": 5281,
  " de jiā ": 5282,
  "nì": 5283,
  "dìng yì ": 5284,
  "sp": 5285,
  "ǎo jiě": 5286,
  "guò qù": 5287,
  " de qí": 5288,
  " tōu": 5289,
  "tic": 5290,
  " de sì": 5291,
  " pó": 5292,
  "hěn duō": 5293,
  "fā xíng": 5294,
  "qǐng": 5295,
  "děng rén ": 5296,
  " hǎi àn ": 5297,
  "yǎng": 5298,
  "   St": 5299,
  "diàn shì tái": 5300,
  "oh": 5301,
  "chū xiàn ": 5302,
  " lì rèn": 5303,
  " jiè quán guó ": 5304,
  " tuì ": 5305,
  " quān ": 5306,
  " de yī zuò ": 5307,
  "zuǒ yòu": 5308,
  " 2001 nián rén kǒu": 5309,
  " chéng xù": 5310,
  " pái míng ": 5311,
  "yùn dòng yuán ": 5312,
  "ǔ dì ": 5313,
  "   of": 5314,
  " wèi qí": 5315,
  " chǎn yè": 5316,
  " wǎng ": 5317,
  " pǔ biàn": 5318,
  " yì yuán": 5319,
  " é ": 5320,
  "shǎn ": 5321,
  "gōng chéng ": 5322,
  " de huó": 5323,
  " A ": 5324,
  " 1998 nián ": 5325,
  " chōng tū ": 5326,
  "4 rì": 5327,
  " zài xiāng gǎng": 5328,
  " zhōng guó": 5329,
  " yī liáo": 5330,
  " guǐ dào ": 5331,
  " jù jí ": 5332,
  " jiē jìn": 5333,
  " chái": 5334,
  " pèi ": 5335,
  " yún nán": 5336,
  " guān chá": 5337,
  "ver": 5338,
  " yāo": 5339,
  "1 yuè 1 rì ": 5340,
  " shì yīn wèi ": 5341,
  " mǐ ěr": 5342,
  " zēng jiā": 5343,
  "   qián": 5344,
  "   shèng": 5345,
  " dà xíng": 5346,
  " biǎo xiàn": 5347,
  "shān dōng": 5348,
  " zài bā": 5349,
  " bù zú": 5350,
  "èr nián ": 5351,
  " bàn dǎo": 5352,
  " chuàn ": 5354,
  "guǎng zhōu": 5355,
  " zhì dìng": 5356,
  "85": 5357,
  " dà fú": 5358,
  " mǒu xiē": 5359,
  " wén wù bǎo hù dān wèi ": 5360,
  " 10 ": 5361,
  " lǚ ": 5362,
  "95": 5363,
  "zhòng ": 5364,
  " dēng lù": 5365,
  " dōu yǒu ": 5366,
  " zhōng guó rén mín jiě fàng jūn": 5367,
  "cūn ": 5368,
  " jiǎn shǎo ": 5369,
  " de fàn ": 5370,
  "shòu ": 5371,
  " chéng kè": 5372,
  " tā yǔ ": 5373,
  " píng fāng mǐ ": 5374,
  " zài 196": 5375,
  " de dì fāng": 5376,
  " shēng huó ": 5377,
  " de rì": 5378,
  " shì yàn ": 5379,
  " tóng yì ": 5380,
  " yuán shì ": 5381,
  " de guān xì ": 5382,
  "kāng ": 5383,
  " tǐ xì": 5384,
  " wàn lì ": 5385,
  "   2025 nián ": 5386,
  " zhí mín": 5387,
  "chuàng zuò ": 5388,
  "ff": 5389,
  " zhàn hòu ": 5390,
  " bìng méi yǒu ": 5391,
  "chǔ lǐ": 5392,
  "   zhèng": 5393,
  "2016 nián ": 5394,
  " jué sè ": 5395,
  "47": 5396,
  "   tè": 5397,
  " zhōu biān": 5398,
  "wěi yuán huì ": 5399,
  "gāo sù": 5400,
  " xī jiē": 5401,
  "jǐng chá": 5402,
  "yīng wén": 5403,
  " jiǎng shù": 5404,
  " 90": 5405,
  "   2009 nián ": 5406,
  "tū ": 5407,
  "liè ": 5408,
  "   xià": 5409,
  " de měi": 5410,
  "zuì hòu ": 5411,
  " zèng ": 5412,
  " de shén ": 5413,
  " yī cháng": 5414,
  " jiē rǎng ": 5415,
  "tài píng yáng": 5416,
  "wěi shū jì ": 5417,
  "gē qǔ": 5418,
  " jí lì ": 5419,
  " sēng": 5420,
  " fā qǐ": 5421,
  " tè shū": 5422,
  " xù ": 5423,
  "nǎi": 5424,
  " de lián": 5425,
  " zài 194": 5426,
  " ér shuǐ yù miàn jī wèi 0": 5427,
  "・": 5428,
  "×": 5429,
  " yī zhī": 5430,
  " zhì wèi ": 5431,
  "   yīn": 5432,
  "   qīng": 5433,
  "tuī chū": 5434,
  "fèng ": 5435,
  "tán": 5436,
  "   ér": 5437,
  " róu": 5438,
  " kè lái": 5439,
  " xī wàng": 5440,
  " dāng jú": 5441,
  " de wèi zhì ": 5442,
  "wán quán": 5443,
  "cǐ ": 5444,
  " de shū": 5445,
  " yuán lái": 5446,
  " lián hé guó ": 5447,
  " chuí ": 5448,
  " dīng ": 5449,
  "fēn bù ": 5450,
  "dá ": 5451,
  "   zēng": 5452,
  "yí zhì ": 5453,
  "zhí xíng ": 5454,
  " mó xíng ": 5455,
  "   fú": 5456,
  " néng ": 5457,
  " wā ": 5458,
  " zhuān mén": 5459,
  "xiá": 5460,
  "yà ": 5461,
  "sì nián ": 5462,
  "xiǎo shuō ": 5463,
  " xué huì": 5464,
  " yòng hù": 5465,
  " tǒng yī ": 5466,
  "   dì èr": 5467,
  "yàn shì ": 5468,
  " shì yè": 5469,
  " ér gāi dì ": 5470,
  "ān zài ": 5471,
  " wēi lián": 5472,
  " jiǎn shǎo": 5473,
  " xuān chuán": 5474,
  " de lǐng ": 5475,
  "tǎ": 5476,
  "zhá": 5477,
  " bù zhī": 5478,
  "chéng wéi": 5479,
  " zì mǔ ": 5480,
  "yàng": 5481,
  " yì yǒu ": 5482,
  " 150": 5483,
  " bù tóng de ": 5484,
  " tè bié shì ": 5485,
  "BA": 5486,
  " yě huì": 5487,
  "   12": 5488,
  "néng ": 5489,
  " gāo děng": 5490,
  " zhuān jí": 5491,
  "yóu ": 5492,
  "pǔ tōng": 5493,
  " zī gé ": 5494,
  "gāi dì ": 5495,
  "gǎi gé": 5496,
  " zhěng tǐ": 5497,
  "bǎ": 5498,
  "   yán": 5499,
  "   xiāng gǎng": 5500,
  " de zhòng": 5501,
  " quán miàn": 5502,
  " de lì shǐ": 5503,
  " bù lái": 5504,
  " mò sī kē": 5505,
  " àn jiàn": 5506,
  " pèi hé ": 5507,
  " rèn mìng wèi ": 5508,
  " cān sài": 5509,
  "ari": 5510,
  " de shì jiè": 5511,
  " háo mǐ": 5512,
  " zhōng zuì": 5513,
  " děng wèi ": 5514,
  " de fǎ": 5515,
  "dì ān ": 5516,
  " yī dài": 5517,
  " zuò yòng": 5518,
  " xiàn chǎng": 5519,
  " xiǎo zǔ": 5520,
  " xùn sù": 5521,
  "g ": 5522,
  "lín shí ": 5523,
  "dí": 5524,
  " sī kǎ ": 5525,
  " sī mǎ": 5526,
  "ea": 5527,
  "jīng jì": 5528,
  " de jīn": 5529,
  " shè jí ": 5530,
  " tián ": 5531,
  " de qí zhōng yī zhǒng ": 5532,
  "BS": 5533,
  " 1949 nián ": 5534,
  "guò chéng zhōng ": 5535,
  " àn zhào": 5536,
  "xuān chuán": 5537,
  "dàng ": 5538,
  "nèi lù": 5539,
  "wú xiàn ": 5540,
  " dà wèi ": 5541,
  " xié huì ": 5542,
  " ér fēi": 5543,
  " běn shēn": 5544,
  " shōu rù": 5545,
  "rào ": 5546,
  " èr shì ": 5547,
  "gòng yǒu ": 5548,
  " wèi duì": 5549,
  " bàn gōng shì ": 5550,
  " yē": 5551,
  " shí dài ": 5553,
  " wēi ": 5554,
  " zhì shǎo": 5555,
  " jiào yù ": 5556,
  "shǐ ": 5557,
  " yǔ zhōng ": 5558,
  " kè chéng ": 5559,
  " rén kǒu mì dù měi píng fāng gōng lǐ": 5560,
  "ex": 5561,
  "sāng ": 5562,
  "zhuàng": 5563,
  " cì nián ": 5564,
  " jiè shào": 5565,
  " 1997 nián ": 5566,
  " dū shì ": 5567,
  " bèi pò": 5568,
  " lè ": 5569,
  " guī dìng ": 5570,
  " kāng xī": 5571,
  "lā ": 5572,
  " nán běi": 5573,
  " tóu piào ": 5574,
  " bǐ rú": 5575,
  " de qǐ": 5576,
  " shì jiè ": 5577,
  " xí xìng": 5578,
  " gěi le": 5579,
  " mǎn zú": 5580,
  " jì zǎi ": 5581,
  " tū pò": 5582,
  "   9": 5583,
  " huāng ": 5584,
  "U ": 5585,
  " shēng chēng": 5586,
  "jǔ rén ": 5587,
  "ci": 5588,
  "xiáng ": 5589,
  "suí": 5590,
  " yì hé ": 5591,
  " tóng yàng": 5592,
  " kǎ ěr": 5593,
  "yǐng piàn": 5594,
  " yǐn rù": 5595,
  " cǐ cì": 5596,
  "kěn": 5597,
  " pǐ ": 5598,
  " jiā tíng ": 5599,
  "yā": 5600,
  "bù zài ": 5601,
  " de wèn tí ": 5602,
  "lán ": 5603,
  " cè shì ": 5604,
  " pō ": 5605,
  "zhèn qū ": 5606,
  " de zhēn": 5607,
  "rén dà": 5608,
  " huáng jiā ": 5609,
  " shè shī": 5610,
  " xiū jiàn": 5611,
  "％": 5612,
  " de nián": 5613,
  " hòu bèi": 5614,
  " lì shǐ ": 5615,
  "ation ": 5616,
  " cōng": 5617,
  " cāo": 5618,
  " zhèng zhuàng": 5619,
  "xiàng mù": 5620,
  " zhǔ zhāng": 5621,
  "zhāo": 5622,
  " bù bù ": 5623,
  " sù dù": 5624,
  " bù guò ": 5625,
  "mín zhòng": 5626,
  "céng jīng": 5627,
  " cún ": 5628,
  " dì shì ": 5629,
  " zhí xíng": 5630,
  " guò ": 5631,
  " gēn ": 5632,
  " de gōng zuò ": 5633,
  " fā xiàn le": 5634,
  " hé fǎ": 5635,
  " zhì liàng": 5636,
  " jī dū jiào": 5637,
  "zhuān yè": 5638,
  " shì zhōng huá": 5639,
  "yáng ": 5640,
  " shì xiāng gǎng": 5641,
  " dāo": 5642,
  " guài": 5643,
  " shí zài ": 5644,
  "─": 5645,
  " de yīn": 5646,
  " de xuǎn": 5647,
  " wèi m": 5648,
  " kè luó": 5649,
  " zhōng guó gòng chǎn dǎng ": 5650,
  "yī shì ": 5651,
  "gē qǔ ": 5652,
  "miào": 5653,
  " de xiào": 5654,
  " zhōng jiān": 5655,
  " shè yǒu": 5656,
  " fā diàn": 5657,
  " 38": 5658,
  " biàn huà": 5659,
  " sī tè ": 5660,
  " chóng qìng": 5661,
  " chū rù": 5662,
  " fá ": 5663,
  "ST ": 5664,
  "tán ": 5665,
  " chū kǒu": 5666,
  " 1994 nián ": 5667,
  "   suí ": 5668,
  "shòu shāng ": 5669,
  " de shàng": 5670,
  " mù dì ": 5671,
  " yùn yíng ": 5672,
  " ā lā bó": 5673,
  "2012 nián ": 5674,
  "gòng hé guó ": 5675,
  "shòu dào ": 5676,
  "sì chuān ": 5677,
  " fēn zhī ": 5678,
  " biàn dé": 5679,
  " tū rán": 5680,
  " de yù": 5681,
  "K ": 5682,
  " yǒu xiàn ": 5683,
  " ér zi": 5684,
  " rù qīn ": 5685,
  " liǎng nián ": 5686,
  "bìng dú": 5687,
  " dì zhèn": 5688,
  " sī tuō": 5689,
  " dà xiǎo": 5690,
  " zhèn qū ": 5691,
  " 185": 5692,
  " de huǒ": 5693,
  " tuán duì": 5694,
  " lì kè": 5695,
  " pǒ": 5696,
  " rào ": 5697,
  " wèi zài ": 5698,
  " yuán sù": 5699,
  " wù zhì ": 5700,
  " hóng ": 5701,
  " shēng huó xí xìng": 5702,
  "99": 5703,
  " shì bā": 5704,
  " dì 3": 5705,
  " qiǎng": 5706,
  " měi yuán ": 5707,
  " de xíng shì ": 5708,
  "   n": 5709,
  "dǎo zhì ": 5710,
  " ér chéng ": 5711,
  "ep": 5712,
  " bù ěr": 5713,
  " zài jiā ": 5714,
  " shí duàn ": 5715,
  " guó wù yuàn": 5716,
  " zǒng lǐ": 5717,
  " yán shēn": 5718,
  "In": 5719,
  " dài biǎo dà huì": 5720,
  " shì xīn": 5721,
  " lǐ kè": 5722,
  " liè rù": 5723,
  " de mì": 5724,
  " cù jìn": 5725,
  " de kāi": 5726,
  " kào": 5727,
  "téng": 5728,
  "shǒu dū ": 5729,
  " yì měi yuán ": 5730,
  " shēng huó xí xìng bù míng ": 5731,
  "xūn": 5732,
  " de qì": 5733,
  " xiū": 5734,
  " dìng yì ": 5735,
  "od": 5736,
  "diāo ": 5737,
  " pài qiǎn ": 5738,
  "2008 nián ": 5739,
  " dà dào ": 5740,
  " yóu qí shì ": 5741,
  " gāo jí ": 5742,
  " bó shì ": 5743,
  "   lǐ": 5744,
  "   chéng ": 5745,
  "tion   ": 5746,
  " zài shí ": 5747,
  " jiǎn dān": 5748,
  "all": 5749,
  "huó dòng": 5750,
  "TV": 5751,
  " de duō": 5752,
  "   191": 5753,
  " fàn zuì": 5754,
  "zhǐ chū ": 5755,
  "mǎ lái xī yà": 5756,
  "fēi zhōu": 5757,
  " tào": 5758,
  " sī jī": 5759,
  " yǐ biàn": 5760,
  "jiǔ nián ": 5761,
  "ain": 5762,
  " de qī": 5763,
  " yuè zài ": 5764,
  " biǎo miàn": 5765,
  "   17": 5766,
  " de shuō": 5767,
  " 55": 5768,
  "   suī rán": 5769,
  " bìng yǐ ": 5770,
  " wàn yuán ": 5771,
  "miáo shù": 5772,
  "   měi guó ": 5773,
  " shì wū kè lán": 5774,
  " liǔ ": 5775,
  "zǒu": 5776,
  " zhèng shí ": 5777,
  " gòu chéng ": 5778,
  "00 ": 5779,
  " dì bā": 5780,
  " zhèng cháng": 5781,
  " yí chǎn": 5782,
  " yuán xíng": 5783,
  " miàn duì": 5784,
  " yǒu guān ": 5786,
  " sī kè": 5787,
  "   2007 nián ": 5788,
  " lì fú ní yà": 5789,
  "ǎn wèi ": 5790,
  " sī fǎ": 5791,
  "hún ": 5792,
  "chuàng zuò": 5793,
  " de bèi": 5794,
  " dà shà": 5795,
  " yě jiù shì ": 5796,
  " biāo zhì ": 5797,
  " guò chéng zhōng ": 5798,
  " fàn wéi": 5799,
  " 7 ": 5800,
  " guó hé ": 5801,
  "ā lā bó": 5802,
  "10 ": 5803,
  " fā chū": 5804,
  "nèi róng": 5805,
  " yī duàn ": 5806,
  " chōu": 5807,
  " bì miǎn ": 5808,
  " lù xù": 5809,
  "jì lù": 5810,
  " tí shēng": 5811,
  " tuō ": 5812,
  "pǔ ": 5813,
  "luò ": 5814,
  "hù ": 5815,
  " shī fàn ": 5816,
  " wéi qí": 5817,
  " què dìng": 5818,
  " fēn bié wèi ": 5819,
  " yì zài ": 5820,
  " tǐng": 5821,
  " xiè ": 5822,
  "   dàn": 5823,
  "fā dòng": 5824,
  " shì jī": 5825,
  " guāng xù": 5826,
  "quán bù ": 5827,
  "wǔ ": 5828,
  " de dài": 5829,
  "   nán": 5830,
  " mìng lìng": 5831,
  " wàn": 5832,
  " duì shǒu": 5833,
  " bìng yóu": 5834,
  " xǔ": 5835,
  "68": 5836,
  "wǔ nián ": 5837,
  " dì èr cì": 5838,
  " de cūn zhuāng ": 5839,
  " nián dài": 5840,
  " 1992 nián ": 5841,
  " zhèng cè ": 5842,
  "rǔ ": 5843,
  "wén wù bǎo hù dān wèi ": 5844,
  " sī tǎ": 5845,
  " dòng lì ": 5846,
  " tǔ ěr qí": 5847,
  " jiǔ lóng": 5848,
  " zhù míng de ": 5849,
  " xiān hòu": 5850,
  " gū jì ": 5851,
  "   zhí": 5852,
  "chǐ": 5853,
  "liào": 5854,
  "lā kè": 5855,
  " zài yǔ": 5856,
  " bìng ": 5857,
  " yuè 1 rì": 5858,
  " de yōu": 5859,
  "kàng": 5860,
  " de gè": 5861,
  " làn ": 5862,
  " míng zì": 5863,
  " xìng bié": 5864,
  " yǎn chū": 5865,
  " de liú": 5866,
  "ber": 5867,
  "   dào": 5868,
  " gè zì": 5869,
  " xiāng tóng ": 5870,
  " fēi jī": 5871,
  "fó": 5872,
  " yǎn chū ": 5873,
  " yí shì ": 5874,
  " yuán wèi ": 5875,
  " biān jí ": 5876,
  " de zhí wù ": 5877,
  " dì 5": 5878,
  " gāi cūn": 5879,
  " de shēng huó": 5880,
  " yǔ yán ": 5881,
  " qì hòu ": 5882,
  " qí zhōng nán xìng": 5883,
  "tǎo": 5884,
  " nián jiān ": 5885,
  " lǐ dá": 5886,
  " dāng shí de ": 5887,
  "niǎo": 5888,
  "dān qū ": 5889,
  " tou": 5890,
  " fàn de ": 5891,
  " zhī wèi ": 5892,
  " bìng bèi": 5893,
  " zuì dà": 5894,
  " zuò zhàn": 5895,
  " jí hé ": 5896,
  "   dì fāng": 5897,
  "zǎo": 5898,
  "zhàng": 5899,
  "zǔ hé ": 5900,
  " shì chū": 5901,
  " jiā ná dà": 5902,
  " zāo dào ": 5903,
  " huǎn ": 5904,
  " xué shù": 5905,
  " tiáo jiàn": 5906,
  " bǐ dé": 5907,
  " tǒng jì ": 5908,
  " ní sī ": 5909,
  "nài": 5910,
  "ròu": 5911,
  " duì cǐ": 5912,
  " jié shù hòu ": 5913,
  "ah": 5914,
  " wén huà ": 5915,
  " wèi fú qí yú gāng": 5916,
  " dà shǐ": 5917,
  " biàn chéng ": 5918,
  "   xíng": 5919,
  "   jìn": 5920,
  "x ": 5921,
  "chán ": 5922,
  " tā wèi ": 5923,
  " hú běi": 5924,
  "2018 nián ": 5925,
  " zài hé ": 5926,
  " hé dào": 5927,
  " zǒng bù ": 5928,
  " cān jiā le": 5929,
  " yī xiǎo shí ": 5930,
  " zhī míng ": 5931,
  " fū rén ": 5932,
  " ruì diǎn": 5933,
  "xióng": 5934,
  "lián jiē": 5935,
  "bàn ": 5936,
  " chǒu": 5937,
  " shēn tǐ": 5938,
  " shí yī nián ": 5939,
  " bèi rèn wéi shì ": 5940,
  " yě ": 5941,
  "dài biǎo ": 5942,
  " shí sì nián ": 5943,
  " kē xué ": 5944,
  " bù lǔ ": 5945,
  " rú xià ": 5946,
  "IN": 5947,
  " Z": 5948,
  "zī liào ": 5949,
  " jiù dú": 5950,
  " tán pàn ": 5951,
  "chāi": 5952,
  "xué xiào ": 5953,
  "tiē": 5954,
  "jiē duàn ": 5955,
  " shì bèi": 5956,
  " 37": 5957,
  " yǒng ": 5958,
  "yùn dòng ": 5959,
  "2010 nián ": 5960,
  " léi ": 5961,
  "zhōng guó dà lù": 5962,
  "ric": 5963,
  " de xié": 5964,
  "fú jiàn": 5965,
  "   in": 5966,
  "tǒng yī ": 5967,
  " pēng": 5968,
  " yǔ máo qiú": 5969,
  " de yāo ": 5970,
  " ér bú shì ": 5971,
  " jīng yíng ": 5972,
  "shuǐ ": 5973,
  " zhǎn de ": 5974,
  "jiāo tōng ": 5975,
  "yì shù": 5976,
  " 1993 nián ": 5977,
  " 1996 nián ": 5978,
  "zhēng yì ": 5979,
  " shǎo shù": 5980,
  " wěn dìng": 5981,
  "zuì chū": 5982,
  "2014 nián ": 5983,
  "jiù ": 5984,
  " shì tā": 5985,
  " sī hé ": 5986,
  " yùn xíng ": 5987,
  " kǎ luó": 5988,
  " pài chū": 5989,
  "zēng jiā ": 5990,
  " zhōng huá rén mín gòng hé guó zhèng zhì rén wù ": 5991,
  " de jūn": 5992,
  " chēng wèi ": 5993,
  "ar ": 5994,
  " zhì dù ": 5995,
  " lùn de ": 5996,
  "dāng xuǎn": 5997,
  "tóu rù": 5998,
  " tā hé ": 5999,
  " tóng yàng ": 6000,
  "zá": 6001,
  "   fù": 6002,
  " gōng zhǔ": 6003,
  " yī lì ": 6004,
  " jiàn zào ": 6005,
  " tí gāo": 6006,
  " de jī chǔ ": 6007,
  "rén yuán ": 6008,
  " guā ": 6009,
  "   gài ": 6010,
  " bèi jǐng ": 6011,
  "xiào ": 6012,
  " lǒng": 6013,
  "dì guó ": 6014,
  " zhǔ yǎn": 6015,
  " xiàn jīn": 6016,
  " sī rén ": 6017,
  " zhuàng kuàng ": 6018,
  " mái": 6019,
  " dēng shàng": 6020,
  " 1945 nián ": 6021,
  "   In": 6022,
  "guǒ ": 6023,
  "   jīn": 6024,
  "gōng gòng": 6025,
  " ěr duō": 6026,
  " liǎng zhǒng": 6027,
  "diàn shì jù ": 6028,
  "bì xū ": 6029,
  " hēng lì ": 6030,
  " shì cóng": 6031,
  " wèi 1": 6032,
  " duō nián ": 6033,
  " shén jīng": 6034,
  "ik": 6035,
  "áo ": 6036,
  "gāo děng": 6037,
  " dāo ": 6038,
  " bào zhà": 6039,
  " pǎo ": 6040,
  "ation   ": 6041,
  " shēn qǐng ": 6042,
  "zhí wù ": 6043,
  "2022 nián ": 6044,
  "G ": 6045,
  "děng dì ": 6046,
  " míng dān ": 6047,
  " xiǎo xué ": 6048,
  "shǎo shù": 6049,
  "yě shì ": 6050,
  " fà": 6051,
  " duì wǔ": 6052,
  " wǎng wǎng": 6053,
  " hái ": 6054,
  " 75": 6055,
  "lay": 6056,
  " rùn ": 6057,
  " zài xiàn": 6058,
  " pén": 6059,
  " chuáng ": 6060,
  "shén me": 6061,
  " de tú": 6062,
  "zhì zuò": 6063,
  " rù xuǎn": 6064,
  "bǐ sài zhōng ": 6065,
  " zhèng zhuàng gǎn rǎn ": 6066,
  "49": 6067,
  "xián ": 6068,
  " mín zhòng": 6069,
  "bō ": 6070,
  " guó fáng": 6071,
  " máo zé": 6072,
  "wǎng lù": 6073,
  " de guó jiā ": 6074,
  " chū zhàn": 6075,
  " bèi shì wèi ": 6076,
  " chī": 6077,
  " xiǎng nián ": 6078,
  " de yuè": 6079,
  " yě zài ": 6080,
  " yè wù ": 6081,
  " hè ": 6082,
  "nǐ ": 6083,
  "wǎ ": 6084,
  " lǐ xué": 6085,
  " jī chǎng ": 6086,
  " xiāng tóng": 6087,
  "gōng shì ": 6088,
  "jiāng ": 6089,
  "   měi": 6090,
  " pīn ": 6091,
  " fēn lèi": 6092,
  "què dìng": 6093,
  " zhěn bìng lì ": 6094,
  "ef": 6095,
  " bù lì ": 6096,
  " xǐ huān ": 6097,
  "42": 6098,
  "   wài": 6099,
  " kū ": 6100,
  " míng xiǎn ": 6101,
  " shí shì ": 6102,
  "guō": 6103,
  "wéi āi": 6104,
  " jī qì": 6105,
  "píng ": 6106,
  "juàn ": 6107,
  " de chéng shì ": 6108,
  " mù biāo ": 6109,
  " pái háng": 6110,
  "00 mǐ": 6111,
  " cháng shì ": 6112,
  "yǔ yán": 6113,
  "zhǐ yǒu ": 6114,
  "gēn jù": 6115,
  " pín dào": 6116,
  "rì ": 6117,
  " zài běi": 6118,
  " yǐ wài": 6119,
  " jǐn yǒu": 6120,
  "pài": 6121,
  " kào jìn": 6122,
  "zhóu": 6123,
  " gè lèi": 6124,
  " de gài": 6125,
  "cǎi yòng": 6126,
  " xì liè ": 6127,
  " kā ": 6128,
  " shì fàng ": 6129,
  "cháng qī": 6130,
  " xiàn hé ": 6131,
  " yī rán": 6132,
  " mì mì": 6133,
  " zhuāng zhì ": 6134,
  "at   ": 6135,
  " shì ní": 6136,
  " wān de ": 6137,
  " jī zhì ": 6138,
  " dé yǐ ": 6139,
  " běn tǔ ": 6140,
  " 1995 nián ": 6141,
  "H ": 6142,
  "hēng": 6143,
  "yì dà lì ": 6144,
  "dì sān": 6145,
  " gōng néng ": 6146,
  "67": 6147,
  " shì zhōng xīn": 6148,
  " de tiān": 6149,
  "réng rán": 6150,
  " xíng róng": 6151,
  " de dì fāng ": 6152,
  " zhào kāi": 6153,
  "igh": 6154,
  "yǐ ": 6155,
  " jù tǐ": 6156,
  "31": 6157,
  " liú xià": 6158,
  " de hǎi bá": 6159,
  "jiā tíng": 6160,
  " dì lǐ": 6161,
  " zì zhì qū ": 6162,
  "kuài sù": 6163,
  " qí zhōng yī ": 6164,
  "   Ch": 6165,
  " yǐ yǒu ": 6166,
  " jiǎn chēng ": 6167,
  " tóng shí gāi dì ": 6168,
  "qiě": 6169,
  " shì pín": 6170,
  " wén jiàn": 6171,
  " gōng bù": 6172,
  "AM": 6173,
  "ER": 6174,
  " lì liàng": 6175,
  " kōng ": 6176,
  " nián jiān": 6177,
  " fù zá": 6178,
  " wèi yú zhōng guó ": 6179,
  " gōng jī ": 6180,
  " duì yìng": 6181,
  " nī ": 6182,
  " jiě sàn ": 6183,
  "rù qīn ": 6184,
  " jí rén ": 6185,
  " shǐ qí": 6186,
  " zuì dà ": 6187,
  " gèng jiā ": 6188,
  "nèi lù shěng fèn ": 6189,
  "AR": 6190,
  "jì suàn ": 6191,
  " liú yù": 6192,
  " 1991 nián ": 6193,
  " quē fá": 6194,
  "zhǔ xí ": 6195,
  "dǎo yǎn": 6196,
  " zài nèi de ": 6197,
  " dà jiǎng ": 6198,
  " sāng": 6199,
  " tiào ": 6200,
  "   cǐ wài ": 6201,
  "   liú": 6202,
  " dǎo de ": 6203,
  " jiē chù": 6204,
  " jù lí": 6205,
  " fēn xī": 6206,
  " zhǐ kòng": 6207,
  " yǐng piàn": 6208,
  " tiě dào ": 6209,
  " xíng zhèng qū ": 6210,
  "2017 nián ": 6211,
  "guó huì": 6212,
  " shàng shì ": 6213,
  " zhuō": 6214,
  " bù mǎn ": 6215,
  " Y": 6216,
  "shuāi": 6217,
  " lái yuán ": 6218,
  " chuàng lì ": 6219,
  " shù zì": 6220,
  "míng wèi ": 6221,
  " de bā": 6222,
  " zuì jìn": 6223,
  " máo ": 6224,
  " tā duì": 6225,
  " xiàn fǎ": 6226,
  " měi ": 6227,
  " shì yī bù ": 6228,
  "yún nán": 6229,
  "gǔ ": 6230,
  " bù shàng": 6231,
  " yuè duì": 6232,
  " kāi shè": 6233,
  " shēn wèi ": 6234,
  " gào sù": 6235,
  " tuī dòng": 6236,
  " de lǚ": 6237,
  " shí sān nián ": 6238,
  " yī méi": 6239,
  " wàn měi yuán ": 6240,
  " zài 195": 6241,
  "xī bān yá": 6242,
  " yǔ zhòu": 6243,
  " yīn yuè": 6244,
  " xíng mù": 6245,
  " 1990 nián ": 6246,
  " wǎn shàng": 6247,
  "   bèi jǐng ": 6248,
  " gōng yuán": 6249,
  " zhèng míng": 6250,
  " xī ān ": 6251,
  "ut": 6252,
  "shēn ": 6253,
  " kàng yì ": 6254,
  "IC": 6255,
  "gōng zuò": 6256,
  " yǐ qián": 6257,
  " yóu cǐ": 6258,
  "suǒ cǎi yòng": 6259,
  " xī ěr": 6260,
  " běn zhàn": 6261,
  " jí shí ": 6262,
  "   2006 nián ": 6263,
  " bēng": 6264,
  " shēng mìng": 6265,
  " xuǎn qū ": 6266,
  " zǎi ": 6267,
  " de cí ": 6268,
  "pàn ": 6269,
  "2015 nián ": 6270,
  "gē shǒu": 6271,
  " 48": 6272,
  " jiǔ diàn": 6273,
  "43": 6274,
  "tóu zī": 6275,
  " 00 ": 6276,
  "is   ": 6277,
  "mó": 6278,
  "   dì fāng zī liào ": 6279,
  "fàng ": 6280,
  "dòng ": 6281,
  "mǎ ": 6282,
  " de miàn jī wèi ": 6283,
  "shàng wǔ": 6284,
  " lèi xíng ": 6285,
  " 2025 nián ": 6286,
  "mín ": 6287,
  "fēn wéi ": 6288,
  " zài jīn": 6289,
  " lì shān dà ": 6290,
  "hòu de ": 6291,
  "2013 nián ": 6292,
  "   jiǎn jiè ": 6293,
  " yǒu duō": 6294,
  " zhèng míng ": 6295,
  " hán shù": 6296,
  "chū xiàn": 6297,
  " dàn yīn": 6298,
  " 32": 6299,
  "gèng": 6300,
  "xià lìng shí ": 6301,
  " sī jī ": 6302,
  " biàn huà ": 6303,
  " de dì sān": 6304,
  "gòng hé ": 6305,
  " wéi zhǔ": 6306,
  " dòu ": 6307,
  " gǎo": 6308,
  " shàng shù": 6309,
  " suī": 6310,
  " dǎng yuán ": 6311,
  "zhān ": 6312,
  "   gǔ": 6313,
  "chāng ": 6314,
  " shì jiāng": 6315,
  " chéng rén ": 6316,
  " jīn róng": 6317,
  "lǐng dǎo": 6318,
  " sī lā fū ": 6319,
  "   rán": 6320,
  " lián méng ": 6321,
  " jiā ná dà ": 6322,
  "yǒu ": 6323,
  " de xià": 6324,
  " bù shǎo ": 6325,
  "ce   ": 6326,
  " nán xìng": 6327,
  " zǔ jiàn": 6328,
  " wǔ qì": 6329,
  " jiā tíng": 6330,
  " In": 6331,
  " wán jiā": 6332,
  " 0 ": 6333,
  " sī dùn ": 6334,
  " liǎng zhě": 6335,
  " gǎng ": 6336,
  "jiào yù ": 6337,
  " shì jiā ": 6338,
  " qiē": 6339,
  " qiáng diào ": 6340,
  " xí wèi ": 6341,
  " cāo zuò ": 6342,
  "xià lìng shí jiān ": 6343,
  "héng": 6344,
  " de bàn": 6345,
  " yí dìng": 6346,
  " bái sè": 6347,
  "chā ": 6348,
  " suǒ shǔ": 6349,
  " shí qī nián ": 6350,
  " gōng yì": 6351,
  " jī yīn": 6352,
  " huà de ": 6353,
  " gòu zào ": 6354,
  " tā men zài ": 6355,
  "bǎo chí": 6356,
  " yīn wèi tā": 6357,
  " 1985 nián ": 6358,
  "zǎo qī": 6359,
  "   sī": 6360,
  " hé bù ": 6361,
  " zǒng dū ": 6362,
  " juān ": 6363,
  "jiā ná dà": 6364,
  "DT ": 6365,
  "ong": 6366,
  "bì ": 6367,
  " léng": 6368,
  " xiàn shàng": 6369,
  " shè yǐng": 6370,
  " zhuì": 6371,
  " qì xiàng": 6372,
  " líng chén ": 6373,
  "hǎi ": 6374,
  " shǒu dū ": 6375,
  " jiāo yì ": 6376,
  "jū zhù": 6377,
  " de chéng jì ": 6378,
  "   jǐn ": 6379,
  "gài ": 6380,
  "guǐ ": 6381,
  "tur": 6382,
  "qì hòu ": 6383,
  " de jìng": 6384,
  " bù sī": 6385,
  " yī qiè": 6386,
  " nuò ": 6387,
  " de yīn yuè ": 6388,
  " shì qí": 6389,
  " nuó wēi": 6390,
  " xún yáng": 6391,
  " tí gōng le": 6392,
  "chuí ": 6393,
  "ōu yuán ": 6394,
  "sī lán": 6395,
  "tóu ": 6396,
  " lǐ gōng ": 6397,
  "shí dài": 6398,
  " nèi gé": 6399,
  " gài niàn": 6400,
  "xià xiá de yí gè": 6401,
  "rèn ": 6402,
  " sū": 6403,
  "2011 nián ": 6404,
  " lā dīng": 6405,
  "bo": 6406,
  " kè yùn": 6407,
  " 33": 6408,
  " 184": 6409,
  " dié ": 6410,
  "cè shì ": 6411,
  " wèi UTC ": 6412,
  " zài měi": 6413,
  " gōng yìng": 6414,
  " jí jiāng": 6415,
  " yīn sù": 6416,
  " dà zhòng": 6417,
  "fǎ yuàn": 6418,
  " chū yǎn": 6419,
  " fēn pèi": 6420,
  " péi ": 6421,
  "tái nán": 6422,
  " zhì chéng ": 6423,
  " tā jiāng": 6424,
  " sǐ wáng ": 6425,
  "dòng wù": 6426,
  "wén huà ": 6427,
  "miàn jī ": 6428,
  " zhì jīn ": 6429,
  " wài guó ": 6430,
  " fáng yù": 6431,
  " diào kuài": 6432,
  " huì bèi": 6433,
  " měi shù": 6434,
  " 39": 6435,
  " qǔ xiāo ": 6436,
  " 10 yuè ": 6437,
  " yā lì ": 6438,
  " jiàn lì le": 6439,
  "jié guǒ": 6440,
  " hé lǐ": 6441,
  " bù fù": 6442,
  " cn ": 6443,
  "mǔ sī ": 6444,
  "88": 6445,
  "ǒu xiē": 6446,
  "zhōng xīn": 6447,
  "ark": 6448,
  " zhuāng bèi": 6449,
  " huàn zhě": 6450,
  "AT": 6451,
  " zài bù ": 6452,
  "zhì zuò ": 6453,
  " dǎn ": 6454,
  " míng chēng ": 6455,
  " jí shì ": 6456,
  " tōng guò ": 6457,
  " zhí lì ": 6458,
  "our": 6459,
  " de huán ": 6460,
  " jiā jìng": 6461,
  " kuàng": 6462,
  " tiě dào": 6463,
  "   zēng zǔ": 6464,
  " diào kuài yī xiǎo shí ": 6465,
  "   and   ": 6466,
  "tí ": 6467,
  " jīng yíng": 6468,
  " zhè yàng ": 6469,
  "huò dé le": 6470,
  " jí yǐ": 6471,
  " jí UTC ": 6472,
  "shè yǒu xià lìng shí jiān ": 6473,
  " de shí qū wèi UTC ": 6474,
  " ér gāi dì suǒ cǎi yòng": 6475,
  " tóng shí gāi dì shè yǒu xià lìng shí jiān ": 6476,
  " ér gāi dì suǒ cǎi yòng de shí qū wèi UTC ": 6477,
  "jì chéng ": 6478,
  " yǒu xǔ duō": 6479,
  " xuǎn shǒu": 6480,
  "yìng yòng": 6481,
  " 1988 nián ": 6482,
  "gū ": 6483,
  "chē liàng": 6484,
  " shí jiǔ ": 6485,
  " wá": 6486,
  " lì fāng": 6487,
  " yǐ běi": 6488,
  " zhàn zhōng ": 6489,
  " zhǔ yǎn ": 6490,
  "wéi chí": 6491,
  " zhōu fǔ": 6492,
  " fù shū jì ": 6493,
  " jié hūn ": 6494,
  " huān yíng ": 6495,
  "zǒng dū ": 6496,
  " de bù fèn": 6497,
  " zhè bù ": 6498,
  " hái zi": 6499,
  "   gè": 6500,
  " wèi bèi": 6501,
  " tà": 6502,
  " hùn hé ": 6503,
  " yú hǎi píng miàn": 6504,
  "ào dì lì ": 6505,
  " jí běi měi": 6506,
  " dà xíng ": 6507,
  " chuàng jiàn": 6508,
  "ào yùn huì": 6509,
  "IS": 6510,
  " lì yì": 6511,
  " lā sī": 6512,
  " 30 ": 6513,
  " qiān shǔ": 6514,
  " jiǔ nián ": 6515,
  " zhī chí ": 6516,
  "Ch": 6517,
  "   11": 6518,
  "jiàn shè": 6519,
  "kē jì ": 6520,
  " chù de hǎi bá": 6521,
  " 8 ": 6522,
  "àn zài ": 6523,
  "   kè": 6524,
  " qú": 6525,
  " tóng yī ": 6526,
  "lián méng ": 6527,
  " chù de hǎi bá wèi gāo": 6528,
  "xǔ": 6529,
  "   hòu ": 6530,
  "   190": 6531,
  " kě néng shì ": 6532,
  "yú lè": 6533,
  " huà shí ": 6534,
  " lí mǐ ": 6535,
  "zhuō": 6536,
  " bēn": 6537,
  " yù jì ": 6538,
  " yí zhì ": 6539,
  " B ": 6540,
  "zǎi ": 6541,
  " chù de hǎi bá wèi gāo yú hǎi píng miàn": 6542,
  " shì chǎng ": 6543,
  " guó jūn": 6544,
  " zì shēn": 6545,
  " shí liù nián ": 6546,
  "wān ": 6547,
  " shēng tài": 6548,
  "kàng ": 6549,
  " shì jiè bēi": 6550,
  " qiáng liè": 6551,
  " 1989 nián ": 6552,
  "kòng zhì ": 6553,
  " X": 6554,
  "zhǎo": 6555,
  "   zhǔ yào": 6556,
  " wéi qí ": 6557,
  "...": 6558,
  "gh": 6559,
  "píng fāng": 6560,
  " dà qiáo": 6561,
  " lǐ lán": 6562,
  " de cún": 6563,
  " de xíng wéi ": 6564,
  " zhuàn xiě": 6565,
  "78": 6566,
  "ich": 6567,
  "zhè yī ": 6568,
  " chéng gōng": 6569,
  " dàn tā": 6570,
  " hǎi yáng": 6571,
  " yuàn zhǎng ": 6572,
  " gù dìng": 6573,
  " 180": 6574,
  " xìn hào": 6575,
  " de pèi": 6576,
  " liù nián ": 6577,
  " shí wǔ nián ": 6578,
  "pī": 6579,
  " tuì yì ": 6580,
  "sì gè": 6581,
  "shí qū ": 6582,
  " yǔ hé ": 6583,
  "66": 6584,
  "dī ": 6585,
  " yuè zhōng ": 6586,
  "tǎ ": 6587,
  " yǒu kě néng": 6588,
  " fāng fǎ ": 6589,
  " fēn xī ": 6590,
  " qū de miàn jī wèi ": 6591,
  " cán ": 6592,
  " sūn ": 6593,
  " xiàn rù": 6594,
  " gǎi shàn ": 6595,
  " hé de ": 6596,
  " jí lín": 6597,
  " lìng yǒu ": 6598,
  " guǎng xī": 6599,
  "qíng bào": 6600,
  " rì bào ": 6601,
  " míng què": 6602,
  " zhè shǒu": 6603,
  " fēi jī ": 6604,
  " lǐng xiù": 6605,
  " zhōng guó gòng chǎn dǎng": 6606,
  "aw": 6607,
  " yī jù": 6608,
  " yuē wèi ": 6609,
  " hé shì ": 6610,
  "bō chū ": 6611,
  " duō zhǒng": 6612,
  " jīn pái ": 6613,
  " yí dòng": 6614,
  " chóng jiàn": 6615,
  " què rèn": 6616,
  " xiǎn zhù": 6617,
  " de jiě": 6618,
  " zài jī": 6619,
  " yì nián ": 6620,
  " ěr fū ": 6621,
  " dá dào": 6622,
  " wēi lián ": 6623,
  " tiě lù ": 6624,
  " yì b": 6625,
  " xiàn zài": 6626,
  " zhí wèi ": 6627,
  " dāng nián ": 6628,
  "ill": 6629,
  "zhī qián": 6630,
  "dōng jì ": 6631,
  " zhǎn lǎn ": 6632,
  "bǐ jiào": 6633,
  " hòu xuǎn rén ": 6634,
  " duàn de ": 6635,
  "yāng": 6636,
  " yì fāng miàn ": 6637,
  " hū": 6638,
  "xiāng tóng": 6639,
  " bō chū": 6640,
  " tǎn kè": 6641,
  " zhāo hé ": 6642,
  "ON": 6643,
  " de tōng": 6644,
  " xiān shēng": 6645,
  " wēn dù": 6646,
  " suí jí ": 6647,
  "zhì 200": 6648,
  " yuè lái": 6649,
  " zhī xià ": 6650,
  " zhǐ yǒu": 6651,
  " tài guó ": 6652,
  " shí wèi ": 6653,
  " 8 yuè ": 6654,
  " tuì xiū ": 6655,
  " lǐng dǎo rén ": 6656,
  " de shè jì ": 6657,
  " bù jí ": 6658,
  " shí wù": 6659,
  " lán qiú": 6660,
  " fēi lǜ bīn ": 6661,
  " ǒu": 6662,
  "dé dào": 6663,
  " chū shēn": 6664,
  " nán fāng": 6665,
  " shū rù": 6666,
  "ú táo": 6667,
  " de tài": 6668,
  " sì gè": 6669,
  "   jí ": 6670,
  "   1 ": 6671,
  "   rì běn": 6672,
  " hé qí tā": 6673,
  " xíng wéi": 6674,
  " pāi shè ": 6675,
  "II": 6676,
  "Tub": 6677,
  "miàn ": 6678,
  " yī zhōu": 6679,
  " duì qí": 6680,
  " rú hé ": 6681,
  " de guī ": 6682,
  " ěr màn ": 6683,
  " shǎng": 6684,
  " shàng yǒu ": 6685,
  "yāo qiú": 6686,
  "jié shù ": 6687,
  "xuǎn ": 6688,
  " dōng fāng": 6689,
  " 1950 nián ": 6690,
  "5 rén ": 6691,
  " lián wǎng": 6692,
  " pò huài": 6693,
  "   d": 6694,
  "ér tóng": 6695,
  "wén xué": 6696,
  "píng lùn ": 6697,
  "cān sài": 6698,
  " nī": 6699,
  " bìng dú": 6700,
  " chǎng bǐ sài": 6701,
  " zhuān jiā ": 6702,
  "AC": 6703,
  "qǐ yòng ": 6704,
  " de zhuān ": 6705,
  " yǔ cǐ": 6706,
  " yě yǒu": 6707,
  " cháng dù": 6708,
  " yí mín": 6709,
  " yú 192": 6710,
  " ruì shì ": 6711,
  " wā": 6712,
  " xiàng shì ": 6713,
  " jué sài ": 6714,
  "   huò": 6715,
  "lìng yī ": 6716,
  " mù biāo": 6717,
  " tā men ": 6718,
  "76": 6719,
  "shēng yá ": 6720,
  "jīng shén ": 6721,
  " yì yú ": 6722,
  " xiàn lù ": 6723,
  " duì fāng": 6724,
  " fáng zhǐ": 6725,
  " de lǐng": 6726,
  "   lì shǐ": 6727,
  " gōng ān ": 6728,
  " jiān rèn": 6729,
  " duǒ": 6730,
  " kuò zhǎn ": 6731,
  " jià shǐ": 6732,
  "huī shěng": 6733,
  "vi": 6734,
  " shǐ shàng": 6735,
  "ami": 6736,
  " de yīng": 6737,
  " yuán shǐ": 6738,
  " zēng zhǎng": 6739,
  " dǎ pò": 6740,
  " bì yè yú ": 6741,
  "ear": 6742,
  "yǎ": 6743,
  " dì diǎn": 6744,
  " běn piàn": 6745,
  " méng tè": 6746,
  " zī xùn ": 6747,
  "pò": 6748,
  "ram": 6749,
  " jiā gē": 6750,
  "   2005 nián ": 6751,
  " 1984 nián ": 6752,
  "jiā rén ": 6753,
  " shì dé guó ": 6754,
  " jí dì ": 6755,
  " bā ": 6756,
  " huā yuán ": 6757,
  " de zhèng zhì ": 6758,
  " qiǎng ": 6759,
  " rěn": 6760,
  " jū": 6761,
  "Window": 6762,
  " nèn": 6763,
  " jǐ gè": 6764,
  " zhù míng": 6765,
  " xún ": 6766,
  " de xiāo": 6767,
  "   h": 6768,
  "mǐ yà": 6769,
  " pèi bèi": 6770,
  " huáng jīn": 6771,
  " sēn lín": 6772,
  " dǎ suàn ": 6773,
  "guó nèi": 6774,
  " zhōu cì": 6775,
  " hǎi yù ": 6776,
  "192": 6777,
  " shēng wèi ": 6778,
  " èr rén ": 6779,
  " de xiān ": 6780,
  "féi": 6781,
  "   èr": 6782,
  " fù zhǔ xí ": 6783,
  " zuò zhě": 6784,
  " bù wèi ": 6785,
  "tiě lù ": 6786,
  "tuán duì": 6787,
  "chū rèn": 6788,
  "mín jiān": 6789,
  "ún dūn": 6790,
  "yùn shū": 6791,
  " guó mín zhèng fǔ": 6792,
  "zé shì ": 6793,
  "12 nián ": 6794,
  "to": 6795,
  " gōng jué": 6796,
  " zhèng zhuàng gǎn rǎn zhě": 6797,
  "   quán": 6798,
  "   sān": 6799,
  "   rú": 6800,
  "dōng nán bù ": 6801,
  " qí wèi ": 6802,
  " zhèng quán": 6803,
  " yú 190": 6804,
  " ài ěr lán": 6805,
  " fáng wū ": 6806,
  " kā": 6807,
  "yuán zhù": 6808,
  " luó lǐ dá": 6809,
  " hòu zài ": 6810,
  " fèi yán": 6811,
  "guān zhòng": 6812,
  " qí shí ": 6813,
  " fēn bù zài ": 6814,
  " de yī tiáo": 6815,
  "ān pái": 6816,
  " 34": 6817,
  " lèi xíng": 6818,
  " jiāo liú": 6819,
  " de fáng ": 6820,
  "chōng tū ": 6821,
  "jiāng qí": 6822,
  " de zhōng guó ": 6823,
  " tù": 6824,
  "nuò ": 6825,
  " ní xī yà": 6826,
  " 65": 6827,
  " 1983 nián ": 6828,
  " rén kǒu mì dù měi píng fāng gōng lǐ ": 6829,
  " wāng ": 6830,
  " yuè tuán ": 6831,
  " yīng wén": 6832,
  " jiù huì": 6833,
  "sàn ": 6834,
  " fēi xíng": 6835,
  " shì shì jiè": 6836,
  "bài": 6837,
  " rén dà": 6838,
  " lín jìn": 6839,
  "tiáo zhěng": 6840,
  "jīng ": 6841,
  "mù biāo ": 6842,
  "nǚ zǐ": 6843,
  " mǎ ěr": 6844,
  " xù lì yà": 6845,
  " bān fā": 6846,
  " yú 2016 nián ": 6847,
  "pp": 6848,
  "huán jìng": 6849,
  "YouTub": 6850,
  "   gāo": 6851,
  "wèi de ": 6852,
  " yǐ cǐ": 6853,
  " xiāng xìn ": 6854,
  "xíng shì ": 6855,
  " jiàn kāng ": 6856,
  " yǐ nán": 6857,
  " fú hé ": 6858,
  " céng wèi ": 6859,
  "est": 6860,
  " nà me": 6861,
  " shì yí gè wèi yú ": 6862,
  " de quán lì ": 6863,
  "gǔ dài": 6864,
  " dú tè": 6865,
  " mā ": 6866,
  " hé nán shěng": 6867,
  "dàng": 6868,
  " dà dào": 6869,
  " xià lìng": 6870,
  " huǒ jiàn": 6871,
  " zài 193": 6872,
  "zhèng fǔ ": 6873,
  " xiāo fèi": 6874,
  " lǐng shì ": 6875,
  "98": 6876,
  "zuò jiā ": 6877,
  " shǐ mì": 6878,
  " gé wèi ": 6879,
  " nà xiē": 6880,
  " yōu xiù": 6881,
  " qín ": 6882,
  "chū shēng yú ": 6883,
  " yuè tuán": 6884,
  " tè lā": 6885,
  "2021 nián ": 6886,
  " chóng ": 6887,
  " de zuì gāo": 6888,
  " de zuò biāo wèi ": 6889,
  "nd": 6890,
  "   wǔ": 6891,
  " fēi jiàn zhì dì qū ": 6892,
  " bǎo cún": 6893,
  " 15 ": 6894,
  " hū yù": 6895,
  " péi xùn ": 6896,
  "jiāo yì ": 6897,
  " huài ": 6898,
  " huì hé ": 6899,
  " 47": 6900,
  " cái liào ": 6901,
  "liù nián ": 6902,
  "   tiān": 6903,
  "lái yuán ": 6904,
  " shì tái wān ": 6905,
  " xié tiáo": 6906,
  "quē fá": 6907,
  "AN": 6908,
  " chéng běn": 6909,
  "ào zhōu": 6910,
  " xiōng yá lì ": 6911,
  " bó wù guǎn ": 6912,
  "   tái wān ": 6913,
  "wáng guó ": 6914,
  " de qiú": 6915,
  " yī zuò ": 6916,
  " běi ": 6917,
  " kōng jiān ": 6918,
  "c ": 6919,
  " chū xí ": 6920,
  " zhì hé ": 6921,
  " péng yǒu ": 6922,
  "gōng kāi": 6923,
  " dài bǔ ": 6924,
  " zhuǎn xiàng": 6925,
  " chǔ lǐ ": 6926,
  " chè xiāo ": 6927,
  " yú 2021 nián ": 6928,
  " zì zhì qū": 6929,
  " máo zé dōng": 6930,
  " fēi zhōu": 6931,
  " yōu ": 6932,
  " tí gōng": 6933,
  " yú 2015 nián ": 6934,
  " yú 2018 nián ": 6935,
  "cù": 6936,
  "   16": 6937,
  "   gè rén ": 6938,
  "bù mén": 6939,
  "yóu tài": 6940,
  "zì zhì ": 6941,
  " de wú": 6942,
  " jí bìng": 6943,
  " cū ": 6944,
  " mì qiè": 6945,
  "cái ": 6946,
  " de gǎn ": 6947,
  "sǐ wáng": 6948,
  " jǐn biāo sài ": 6949,
  "zuò chū": 6950,
  " de guàn ": 6951,
  "guǎng dōng shěng": 6952,
  "jiē r": 6953,
  " zhōng zhǐ": 6954,
  " fàn": 6955,
  " yī cí ": 6956,
  " shuǐ yù ": 6957,
  " de jiàn zhù": 6958,
  "18 nián ": 6959,
  "zhài": 6960,
  " de mǔ ": 6961,
  " IS": 6962,
  " de fù qīn ": 6963,
  "jié hé ": 6964,
  " měi jūn": 6965,
  " lán kè": 6966,
  " shì láng ": 6967,
  "pà": 6968,
  "us ": 6969,
  "chū shēn ": 6970,
  " de kòng": 6971,
  "   zhǔ": 6972,
  " de tí": 6973,
  " shì yòng": 6974,
  " sài jì": 6975,
  " qū yù ": 6976,
  " 58": 6977,
  " diào chá ": 6978,
  " shōu ": 6979,
  " qǐng qiú": 6980,
  " jié shù ": 6981,
  " shēn zhèn": 6982,
  " 1986 nián ": 6983,
  "nèi bù ": 6984,
  " zhōng duì": 6985,
  " shǒu xiān ": 6986,
  " de měi guó ": 6987,
  " shì yìng": 6988,
  " yì si": 6989,
  " qī nián ": 6990,
  " bó tè": 6991,
  " mèi ": 6992,
  "2 rì": 6993,
  " duì wài": 6994,
  " guó jiā duì": 6995,
  "qū yù ": 6996,
  " xiū zhèng": 6997,
  "hú nán": 6998,
  " zòu ": 6999,
  "ale": 7000,
  " Q": 7001,
  "bō luó": 7002,
  " jiù ": 7003,
  "cháo ": 7004,
  " yú 2012 nián ": 7005,
  "qiáo zhì ": 7006,
  "tōng chē ": 7007,
  " qí bīng": 7008,
  " dé yǔ ": 7009,
  " bú yào": 7010,
  " de yìn ": 7011,
  " sī lìng bù ": 7012,
  "41": 7013,
  "   de": 7014,
  "lǐ lùn ": 7015,
  "duō lì yà": 7016,
  " dì yì": 7017,
  " yuán yīn ": 7018,
  " guā": 7019,
  "yǔn ": 7020,
  "jiāng jūn": 7021,
  " shì wù ": 7022,
  "jiā lā": 7023,
  " zhǐ dìng": 7024,
  "   ā": 7025,
  "shàng de ": 7026,
  "chuāng ": 7027,
  " zhī fù": 7028,
  "guān yuán ": 7029,
  "zuì ": 7030,
  "xīng jiàn": 7031,
  "   nián ": 7032,
  "zhèng cè": 7033,
  " shí yóu": 7034,
  "chéng yuán ": 7035,
  "jì huà ": 7036,
  " mín jiān": 7037,
  " lìng yí gè": 7038,
  " lì wèi ": 7039,
  " de bǎn ": 7040,
  " ěr dùn ": 7041,
  " bèi qí": 7042,
  " gǔ fèn": 7043,
  " bàn yǎn": 7044,
  " de mìng": 7045,
  " yìn ní": 7046,
  "péng": 7047,
  "yp": 7048,
  "   20": 7049,
  "   mù": 7050,
  "zhèng xié": 7051,
  "xué shù": 7052,
  "gǎi biān": 7053,
  " fú lǎng ": 7054,
  " zhēn zhèng": 7055,
  " bǎi kē": 7056,
  " 11 yuè ": 7057,
  " zū jiè": 7058,
  "AP": 7059,
  " de xiàng": 7060,
  " shì zhī": 7061,
  " dé dào le": 7062,
  " dà sài": 7063,
  " yú 2014 nián ": 7064,
  " quǎn ": 7065,
  "huó dòng ": 7066,
  "cáng ": 7067,
  "cháng ": 7068,
  " de zǔ": 7069,
  " xiàng zhēng": 7070,
  " 46": 7071,
  " lìng rén ": 7072,
  "   běi": 7073,
  " zhōng yǐ": 7074,
  "77": 7075,
  "   jiāo tōng ": 7076,
  "shēng wù": 7077,
  " de n": 7078,
  " wèi wèi ": 7079,
  " māo ": 7080,
  " hóng sè": 7081,
  "lóng": 7082,
  " wǔ zhuāng ": 7083,
  "96": 7084,
  " shì qū": 7085,
  " bù zhǔ": 7086,
  " yì bèi": 7087,
  " bō fàng ": 7088,
  " gǎi wéi": 7089,
  " zhuǎn yí": 7090,
  " xiāng gǎng ": 7091,
  " ào ěr": 7092,
  " láng zhōng ": 7093,
  "et   ": 7094,
  "tā ": 7095,
  " xià jiàng ": 7096,
  " pèi yīn": 7097,
  " yú 2017 nián ": 7098,
  " fēn bié shì ": 7099,
  "fàng": 7100,
  "jiāo ": 7101,
  " zhè xiàng": 7102,
  " fù zé ": 7103,
  "xíng dòng": 7104,
  "zhí mín": 7105,
  " yóu yǒng": 7106,
  " Al": 7107,
  "xiǎng": 7108,
  "chū shēng": 7109,
  " de bǎo": 7110,
  "gōng yè": 7111,
  " chū lái ": 7112,
  " biǎo xiàn ": 7113,
  "u ": 7114,
  "wàng ": 7115,
  " tè lǎng ": 7116,
  " shì dì èr": 7117,
  "hōng": 7118,
  "yuè ": 7119,
  "yán hǎi": 7120,
  "zuì zǎo": 7121,
  " de rì běn": 7122,
  " shí yàn shì ": 7123,
  " dé míng ": 7124,
  " sōng ": 7125,
  "3 gè": 7126,
  "ele": 7127,
  "   0": 7128,
  "fā diàn": 7129,
  " jí xíng zhèng ": 7130,
  " rèn qī": 7131,
  " liǎng guó ": 7132,
  " ān nà": 7133,
  " ruò ": 7134,
  " mín zhǔ dǎng ": 7135,
  "fù zé guǎn xiá ": 7136,
  "xué zhě": 7137,
  " sī xiǎng ": 7138,
  " yīng lǐ ": 7139,
  " S ": 7140,
  " sà ": 7141,
  "chuàng lì ": 7142,
  "3 rì": 7143,
  "zhāo ": 7144,
  "rì zhì ": 7145,
  "wáng cháo": 7146,
  "huá ": 7147,
  " dàn shuǐ": 7148,
  " tè dìng": 7149,
  " de yè": 7150,
  " yě bù ": 7151,
  " lǜ wèi ": 7152,
  "ruì shì ": 7153,
  "   shè": 7154,
  "dà ": 7155,
  " dì tú": 7156,
  " cǎn ": 7157,
  " zǔ chéng de ": 7158,
  " 9 yuè ": 7159,
  " jī jīn huì": 7160,
  "9 rì": 7161,
  "yóu xì ": 7162,
  "yīng gāi": 7163,
  " le tā de ": 7164,
  " xiāo liàng": 7165,
  "lù xiàn ": 7166,
  " ér bù ": 7167,
  " mǎ kè": 7168,
  " ài dé": 7169,
  " yóu yú": 7170,
  " tóng pái ": 7171,
  " zé wèi ": 7172,
  " xǐng ": 7173,
  "z ": 7174,
  "zuì dà de ": 7175,
  " 7 yuè ": 7176,
  " dà lóu ": 7177,
  " xiàn xiàng": 7178,
  " bàn gōng ": 7179,
  " de huáng ": 7180,
  " míng rén ": 7181,
  " yǐng ": 7182,
  " zhuàng tài ": 7183,
  " zài dì èr": 7184,
  "guī huà": 7185,
  "   hóng": 7186,
  " zài bèi": 7187,
  "19 ": 7188,
  " píng wèi ": 7189,
  " xiāng hù": 7190,
  " ào dì lì ": 7191,
  " tuì chū": 7192,
  "yí mín": 7193,
  " yú 2019 nián ": 7194,
  " jú zhǎng ": 7195,
  " huá shèng dùn ": 7196,
  " cǎi ": 7197,
  "jiàn chéng ": 7198,
  "fǎ guó": 7199,
  "yě ": 7200,
  "luò shān": 7201,
  " de jià": 7202,
  " jìn jí ": 7203,
  " yǐn qíng ": 7204,
  " 1987 nián ": 7205,
  " jiā zhōu": 7206,
  " yán rén ": 7207,
  " gāo xióng": 7208,
  " tǎ ní": 7209,
  "kōng jūn": 7210,
  "tīng ": 7211,
  "n   ": 7212,
  "měi zhōu": 7213,
  "zhí wù": 7214,
  " bì yè ": 7215,
  "xián": 7216,
  "yǐ lái": 7217,
  "nán jīng": 7218,
  " de jiē": 7219,
  " shàng xià": 7220,
  " wǎng qiú": 7221,
  "zhào piān ": 7222,
  "ast": 7223,
  " yǒu yì ": 7224,
  " chēng zuò ": 7225,
  " ná xià": 7226,
  "xué xí ": 7228,
  " shí hòu ": 7229,
  " fù shǔ": 7230,
  " yè wù": 7231,
  " sè fū ": 7232,
  " cóng cǐ": 7233,
  " mǎn zhōu": 7234,
  " yú 2022 nián ": 7235,
  "lā dīng": 7236,
  "gǎng ": 7237,
  " yú 2020 nián ": 7238,
  " lì zi": 7239,
  "omp": 7240,
  " gōng chǐ": 7241,
  " de M": 7242,
  "shuò": 7243,
  "yòng hù": 7244,
  " yáo ": 7245,
  "yōng yǒu ": 7246,
  "   chú le": 7247,
  "zhì zài ": 7248,
  "dōng běi bù ": 7249,
  "hǎi wài": 7250,
  "wǔ qì": 7251,
  "jiù dú": 7252,
  "yī zhǒng": 7253,
  "zhì 199": 7254,
  " zhèng dǎng ": 7255,
  " zhèng miàn": 7256,
  " jīn shān": 7257,
  " kāi fàng": 7258,
  " lěi jì ": 7259,
  "zhǎn kāi": 7260,
  " dǒu": 7261,
  " guān zhù": 7262,
  " hēi lóng": 7263,
  "lián bāng": 7264,
  "ān dé": 7265,
  " hé wù": 7266,
  " jiān dū ": 7267,
  " děng děng ": 7268,
  "58": 7269,
  "92": 7270,
  "jiāng sū ": 7271,
  "bǐ yà": 7272,
  " hé jī": 7273,
  " qiú huì": 7274,
  " gǎi míng wèi ": 7275,
  " yú 2013 nián ": 7276,
  " ér gāi dì de ": 7277,
  " shì wěi": 7278,
  "shí jiān ": 7279,
  " sī màn ": 7280,
  " míng xīng": 7281,
  " guān cè": 7282,
  " qū zhú": 7283,
  " huǒ shān": 7284,
  "   shǐ yòng": 7285,
  " yǔ de ": 7286,
  " zuì zhōng": 7287,
  " yí zhǐ": 7288,
  "zōng hé ": 7289,
  "guàn jūn ": 7290,
  "biǎo yǎn": 7291,
  "bó ": 7292,
  " sū gé lán": 7293,
  "qiáng liè": 7294,
  "hùn hé ": 7295,
  "if": 7296,
  " lì shí ": 7297,
  " 1920 nián ": 7298,
  " jiā méng": 7299,
  " miǎn diān ": 7300,
  "kē de qí zhōng yī zhǒng ": 7301,
  " yì jí ": 7302,
  " jìn nián ": 7303,
  " běi fāng": 7304,
  " liǎng cì": 7305,
  " zhì shì ": 7306,
  " 12 yuè ": 7307,
  "15 nián ": 7308,
  "   gù shì ": 7309,
  "dá dào ": 7310,
  " sī zhí": 7311,
  " zhǐ yào": 7312,
  " kě yǐ zài ": 7313,
  "72": 7314,
  "kào ": 7315,
  " jiē jí ": 7316,
  " bǎi wàn ": 7317,
  "   chén ": 7318,
  " wēi xié": 7319,
  " kǎo gǔ": 7320,
  "rén mín dài biǎo dà huì": 7321,
  "odi": 7322,
  "son ": 7323,
  "   xiǎo": 7324,
  "biǎo xiàn": 7325,
  "bā lí ": 7326,
  " dì zhì ": 7327,
  " tí chū ": 7328,
  " xiāng sì ": 7329,
  " 1982 nián ": 7330,
  " de bái": 7331,
  "shàng yìng ": 7332,
  "mǎ lā": 7333,
  " sī de ": 7334,
  " míng dān": 7335,
  " ān zhuāng ": 7336,
  "bù lǔ ": 7337,
  "tuó": 7338,
  " hé yuē": 7339,
  " shè yú ": 7340,
  "oli": 7341,
  " 11 ": 7342,
  " lí zi": 7343,
  " qīn zì": 7344,
  " 1958 nián ": 7345,
  "jí zhōng ": 7346,
  "zhǐ huī": 7347,
  " yīn qí": 7348,
  " hái yǒu": 7349,
  " tóu xiáng ": 7350,
  " miǎo": 7351,
  " xiǎng yào": 7352,
  "chóng qìng": 7353,
  " jiàng dī": 7354,
  "   dōng": 7355,
  "ǎn zài ": 7356,
  " shí zhì ": 7357,
  " gè guó ": 7358,
  " mò ěr": 7359,
  "ection   ": 7360,
  "   gài yào ": 7361,
  " yǒu sān": 7362,
  " zhǎng dá": 7363,
  " nóng cūn": 7364,
  " de guān xì": 7365,
  "4 gè": 7366,
  "bàn dǎo": 7367,
  "yī cì": 7368,
  " shí pǐn ": 7369,
  " tóng xìng": 7370,
  " kē fū ": 7371,
  "shù jù": 7372,
  " sī lì ": 7373,
  " 120": 7374,
  " xī lán": 7375,
  " féng ": 7376,
  " miàn lín": 7377,
  " tè zhēng ": 7378,
  "cǎo ": 7379,
  "nǔ ": 7380,
  "quǎn ": 7381,
  " yě kě yǐ ": 7382,
  " sà ěr": 7383,
  " yuè lái yuè ": 7384,
  " xīn jiāng": 7386,
  " guān zhì ": 7387,
  " bǐng": 7388,
  " nèi róng ": 7389,
  " èr ": 7390,
  " 1979 nián ": 7391,
  "zhǒng zú": 7392,
  " dà dì ": 7393,
  " fàn wéi nèi": 7394,
  "rén zài ": 7395,
  " tā yǔ": 7396,
  " gāi gōng sī": 7397,
  " de pī": 7398,
  " zhāng zhuān jí ": 7399,
  " hún ": 7400,
  "ly": 7401,
  "jīng cháng": 7402,
  "měi nián ": 7403,
  " de dàn": 7404,
  " shì jué": 7405,
  " jí jù": 7406,
  " yuán zi": 7407,
  " 1980 nián ": 7408,
  " xiāo xī ": 7409,
  " guì zú": 7410,
  " yú 2023 nián ": 7411,
  " chuàng zào": 7412,
  "ne ": 7413,
  "ér zi": 7414,
  "diàn lì ": 7415,
  "jié gòu ": 7416,
  "fèn zǐ": 7417,
  "gǎi biàn": 7418,
  " tūn": 7419,
  " yuàn shì ": 7420,
  " diāo": 7421,
  "tiáo jiàn": 7422,
  "diào chá ": 7423,
  " hòu qī": 7424,
  " 183": 7425,
  " 1946 nián ": 7426,
  "93": 7427,
  "kūn": 7428,
  "guó wáng": 7429,
  " mǎ sī ": 7430,
  " wán gōng ": 7431,
  " chóu ": 7432,
  " jì suàn jī": 7433,
  "jiā ná dà ": 7434,
  "yān ": 7435,
  "yǐ lái ": 7436,
  "guò ": 7437,
  " fù jìn ": 7438,
  " gāi piàn": 7439,
  " 400": 7440,
  " 1978 nián ": 7441,
  " zàn shí ": 7442,
  "duì yú ": 7443,
  " shàng shū": 7444,
  "mò ": 7445,
  " yù shǐ ": 7446,
  " bào fā ": 7447,
  " yíng yùn": 7448,
  " de chē": 7449,
  " zhàn tái": 7450,
  " hé bìng ": 7451,
  "shè zhì ": 7452,
  "duō cì": 7453,
  " tè zhēng": 7454,
  " de pái": 7455,
  "tuǒ": 7456,
  " xiàn chéng ": 7457,
  " pī píng ": 7458,
  "shè shī": 7459,
  " zhǔ bàn": 7460,
  " hòu lái ": 7461,
  " shì yóu yú ": 7462,
  " ā ěr bēi": 7463,
  "fá": 7464,
  "pāi": 7465,
  "gòng xiàn ": 7466,
  "2009 nián ": 7467,
  " gē shǒu ": 7468,
  "th ": 7469,
  "kē xué yuàn": 7470,
  " xiàn shì ": 7471,
  " zhǎi": 7472,
  " tí míng ": 7473,
  " jiǎng xiàng ": 7474,
  " yú 2010 nián ": 7475,
  "63": 7476,
  " lù zhàn": 7477,
  " jīng yàn ": 7478,
  " zhōng shì yǎn": 7479,
  " 1948 nián ": 7480,
  "87": 7481,
  " zài shàng": 7482,
  " rèn zhí": 7483,
  " chī ": 7484,
  " lián sài ": 7485,
  " zǔ zhǐ": 7486,
  " wǔ hàn ": 7487,
  " dōu bèi": 7488,
  "   fǎn ": 7489,
  "qún ": 7490,
  " sǐ hòu ": 7491,
  "jìn ": 7492,
  "jǐ gè": 7493,
  " zāi ": 7494,
  "jìn xíng le": 7495,
  "huáng dì ": 7496,
  "jiè shào": 7497,
  "qì chē": 7498,
  "guó lì ": 7499,
  " xià lái": 7500,
  " liǎn ": 7501,
  "nèi róng ": 7502,
  " bù dí ": 7503,
  " jīng lǐ ": 7504,
  " cuò shī ": 7505,
  " dàng tiān": 7506,
  "   rén ": 7507,
  "zī ": 7508,
  " de dú": 7509,
  " dé jūn": 7510,
  " 12 ": 7511,
  " jiā rén ": 7512,
  "shēn zhèn": 7513,
  "chǎn yè": 7514,
  " hé dōng": 7515,
  " 160": 7516,
  "   jǐn guǎn": 7517,
  "kāi fàng ": 7518,
  "fēng gé": 7519,
  " zài tái wān ": 7520,
  " zhōng yě": 7521,
  " xì jù": 7522,
  " hǎn": 7523,
  "shè jì": 7524,
  " wèi zhī": 7525,
  " jiān chí": 7526,
  " zī gé": 7527,
  " St": 7528,
  " de zhǎng": 7529,
  " jī duì": 7530,
  " qiān dìng": 7531,
  " wèi yuán ": 7532,
  " shēng wù ": 7533,
  " fù qī": 7534,
  " dài yǒu ": 7535,
  " ní hēi": 7536,
  "zhuàng tài ": 7537,
  "se": 7538,
  " de dé": 7539,
  " yǐ shàng ": 7540,
  "fǎng": 7541,
  "hūn ": 7542,
  " de jiān": 7543,
  " qǐ yì ": 7544,
  " tián jìng": 7545,
  " zhuàng tài": 7546,
  " fá lì yà": 7547,
  "huáng jiā ": 7548,
  "   shàng": 7549,
  "   lín": 7550,
  "qǐ lái": 7551,
  " sàng ": 7552,
  " hǔ": 7553,
  " gāo dá": 7554,
  " shòu yǔ ": 7555,
  "rén kǒu wèi ": 7556,
  " de míng zì": 7557,
  "xiǎo xíng xīng ": 7558,
  "bǎ ": 7559,
  "duǒ": 7560,
  " ěr hé ": 7561,
  " cháng wěi ": 7562,
  " hán yǒu": 7563,
  "é ": 7564,
  "cì yú ": 7565,
  "fēi lǜ bīn ": 7566,
  " wèi tā": 7567,
  " de yī zhǒng ": 7568,
  " lǐng yù ": 7569,
  " dī qì": 7570,
  " zuǒ yòu ": 7571,
  "us   ": 7572,
  " xī lǐ": 7573,
  " huó yuè ": 7574,
  "tào ": 7575,
  "   tóng": 7576,
  "xuē": 7577,
  "hǎi bá": 7578,
  "qǔ dài": 7579,
  " de shè huì": 7580,
  " section   ": 7581,
  " xiào zhǎng": 7582,
  " rú cǐ ": 7583,
  " JR": 7584,
  "chā yì ": 7585,
  "   jiā tíng ": 7586,
  "tion ": 7587,
  "yǎn chū ": 7588,
  " gōng zhàn": 7589,
  " gōng jù": 7590,
  " dào lù ": 7591,
  " 6 yuè ": 7592,
  " tú zhōng ": 7593,
  "xì ": 7594,
  " yīn shì ": 7595,
  " méng jūn": 7596,
  " suì dào ": 7597,
  " de pi": 7598,
  " de guǐ": 7599,
  "céng ": 7600,
  " huì zhǎng ": 7601,
  " píng jiè": 7602,
  " jǐn jí ": 7603,
  "ard": 7604,
  " qún dǎo ": 7605,
  "56": 7606,
  "bàn shì chù": 7607,
  "shèng ": 7608,
  " zài qián": 7609,
  " zài běi jīng": 7610,
  " kè sà": 7611,
  " 31": 7612,
  "rùn ": 7613,
  " zài dāng": 7614,
  " xué shēng ": 7615,
  " zǒng lǐ ": 7616,
  "tè dìng": 7617,
  " de jiù": 7618,
  " shì rén mín": 7619,
  " shōu gòu": 7620,
  " huān yíng": 7621,
  "fú hé ": 7622,
  "2000 nián ": 7623,
  " bù zhèng": 7624,
  " gōng chéng": 7625,
  " jí ěr": 7626,
  " ér yán ": 7627,
  " wū rǎn ": 7628,
  " de xiū ": 7629,
  " shì zhōng huá rén mín gòng hé guó ": 7630,
  "73": 7631,
  "   15": 7632,
  "kě ": 7633,
  " de yùn": 7634,
  " shì xīng": 7635,
  " dàn qí": 7636,
  " chūn ": 7637,
  " qǔ dài ": 7638,
  " zāi péi ": 7639,
  "ock": 7640,
  "   gēn jù 2020 nián měi guó rén kǒu pǔ chá de shù jù ": 7641,
  "jiào ": 7642,
  " tōng xùn ": 7643,
  " tài kōng": 7644,
  "biāo zhì ": 7645,
  "ài ěr lán": 7647,
  " dì 4": 7648,
  " zǎo nián ": 7649,
  " shì zhǎng ": 7650,
  " gōng jiāo": 7651,
  " guǎng gào ": 7652,
  " zāo shòu": 7653,
  " hé suān ": 7654,
  "2023 nián ": 7655,
  " kǎ sī": 7656,
  "gāo xióng": 7657,
  "2007 nián ": 7658,
  " chéng zhèn": 7659,
  " yì qíng ": 7660,
  " fēn lán": 7661,
  " fú léi": 7662,
  " 9 ": 7663,
  " ruì ": 7664,
  "ros": 7665,
  "5 mǐ ": 7666,
  "74": 7667,
  "yā ": 7668,
  "bìng bù ": 7669,
  "shěng de yí gè shì zhèn ": 7670,
  "rú hé ": 7671,
  " yuè shēng": 7672,
  " zhǔ yì de ": 7673,
  " lái nà": 7674,
  "gǎi shàn ": 7675,
  " wèi cǐ": 7676,
  " nán jí ": 7677,
  " kāi zhǎn ": 7678,
  " pèi zhì ": 7679,
  "guàn jūn": 7680,
  "79": 7681,
  "OM": 7682,
  "ma": 7683,
  "zhì shì ": 7684,
  "jié kè": 7685,
  "wǎng qiú": 7686,
  " de guó jì ": 7687,
  " huì yì": 7688,
  " zhè chǎng": 7689,
  " hǎi xiá": 7690,
  "tiáo yuē": 7691,
  " fá kè": 7692,
  "   yóu xì": 7693,
  "14 nián ": 7694,
  "EC": 7695,
  "dà bù fèn": 7696,
  "jìn yí bù ": 7697,
  " zhì shǎo ": 7698,
  " dé ěr": 7699,
  " shēng rèn": 7700,
  " hào wèi ": 7701,
  " fēi xíng ": 7702,
  " wēi jī ": 7703,
  " dǎ jī ": 7704,
  "ook": 7705,
  "   luó": 7706,
  " yī zhì ": 7707,
  " yī xì liè": 7708,
  " zhǔn de ": 7709,
  " xíng chéng": 7710,
  " zhuàng bìng dú": 7711,
  "cǎo": 7712,
  "zàng": 7713,
  "rú ": 7714,
  " wǎng lù": 7715,
  " suì de ": 7716,
  "miáo shù ": 7717,
  " zuǐ": 7718,
  "zhǐ huī ": 7719,
  "shī qù": 7720,
  " hǎi dào ": 7721,
  " lǐ ào ": 7722,
  "2024 nián ": 7723,
  " de dì yí gè": 7724,
  " guǎng chǎng ": 7725,
  " diàn shì jù ": 7726,
  " shì xī bān yá": 7727,
  "jiē jìn": 7728,
  " sī zhōu": 7729,
  " zhù míng ": 7730,
  " 20 ": 7731,
  " 000 rén ": 7732,
  " yú 2024 nián ": 7733,
  "shào nián ": 7734,
  "nài ": 7735,
  "fēi ": 7736,
  " dì chǎn": 7737,
  " jù yuàn": 7738,
  " zhǔ xí": 7739,
  " shǒu gè": 7740,
  " xī bù": 7741,
  " bīn hǎi": 7742,
  " xué xí": 7743,
  " shěng wěi": 7744,
  " yuán gōng ": 7745,
  " zuò wèi ": 7746,
  " 64": 7747,
  " tiáo yuē ": 7748,
  " kòng ": 7749,
  "ruì diǎn": 7750,
  " lì fǎ huì": 7751,
  "yí cì shì jiè dà zhàn": 7752,
  " de hóng": 7753,
  " zhōng shū": 7754,
  " jiē dào": 7755,
  " hant ": 7756,
  "ǎo zhàn ": 7757,
  " chū dào ": 7758,
  " de mó shì ": 7759,
  "for": 7760,
  "bù mǎn ": 7761,
  " 20 shì jì ": 7762,
  " 162": 7763,
  " zhì yí": 7764,
  " shēng míng ": 7765,
  " xià lái ": 7766,
  " shān mài": 7767,
  " 49": 7768,
  " hé jīn": 7769,
  " fēng gé ": 7770,
  " huàn chéng ": 7771,
  "res": 7772,
  " de tǔ dì ": 7773,
  "qì xiàng": 7774,
  " huài": 7775,
  " wéi rào ": 7776,
  " xià wǔ": 7777,
  " de mò": 7778,
  "   2004 nián ": 7779,
  " péng ": 7780,
  " bà ": 7781,
  "86": 7782,
  "qiāng": 7783,
  "xuǎn shǒu": 7784,
  " shì gāi": 7785,
  " zhōng qī": 7786,
  " dàn réng": 7787,
  " zhēng qǔ": 7788,
  " shì jiè shàng": 7789,
  " kǎ lā": 7790,
  " gòng hé guó": 7791,
  "bó shì ": 7792,
  " zài jù": 7793,
  " zài yīng guó ": 7794,
  " rén zhī": 7795,
  " zhī yì ": 7796,
  " jīng diǎn": 7797,
  " dāng shí": 7798,
  " liàng de ": 7799,
  " yú 2011 nián ": 7800,
  "nú": 7801,
  "   lā": 7802,
  "luǒ": 7803,
  " mā": 7804,
  " jié guǒ ": 7805,
  " fǎn ér": 7806,
  " xié dài": 7807,
  " de chéng zhèn ": 7808,
  " gōng wù": 7809,
  " rì zhàn zhēng": 7810,
  " fù nǚ": 7811,
  " sī luò": 7812,
  " lěi ": 7813,
  "ay ": 7814,
  "rén hé ": 7815,
  "huò ": 7816,
  " tuǒ": 7817,
  " dī yú ": 7818,
  " yé ": 7819,
  "xí jī": 7820,
  "zī gé": 7821,
  " māo": 7822,
  " guài ": 7823,
  " bào dǎo": 7824,
  " dà bù ": 7825,
  " yī jiā ": 7826,
  " shū guǎn ": 7827,
  " xiào zhǎng ": 7828,
  " chū xiàn le": 7829,
  " bàng qiú": 7830,
  "zhǐ shì ": 7831,
  " zéi": 7832,
  " qǔ xiāo": 7833,
  " sī lìng ": 7834,
  "   jù qíng ": 7835,
  " fǎ lán xī": 7836,
  "lan": 7837,
  "mù dì ": 7838,
  "xù lì yà": 7839,
  " de bō": 7840,
  " yì wài": 7841,
  " dà shī": 7842,
  " shuǐ píng": 7843,
  " shùn lì ": 7844,
  "52": 7845,
  " yǒu míng": 7846,
  "wéi zhǔ ": 7847,
  " guān fèi yán": 7848,
  "bó wù guǎn ": 7849,
  "sàng ": 7850,
  " zhì dì ": 7851,
  " yán cháng": 7852,
  "shōu rù": 7853,
  "wèn tí ": 7854,
  "shēn tǐ": 7855,
  " xíng shǐ": 7856,
  " huì yuán ": 7857,
  " hǎi dào": 7858,
  " hǎi wài": 7859,
  " 5 yuè ": 7860,
  " lǚ xíng ": 7861,
  " shì fàn ": 7862,
  "qù ": 7863,
  " nián nián ": 7864,
  " zhǔ lì ": 7865,
  " 158": 7866,
  "hú běi": 7867,
  " lú wǎ ěr shěng ": 7868,
  "53": 7869,
  "bà": 7870,
  "mer": 7871,
  "bì yè ": 7872,
  " dé yǐ": 7873,
  "xiāng tóng ": 7874,
  " jiāo gěi": 7875,
  " chuán bō": 7876,
  " shè huì zhǔ yì ": 7877,
  "sū gé lán": 7878,
  "chōu": 7879,
  "lián sài ": 7880,
  " měi tiān": 7881,
  " gé lā": 7882,
  " yǐ xià dì qū ": 7883,
  "jiǔ lóng": 7884,
  "sēn lín": 7885,
  "chái yóu": 7886,
  " shí yòng": 7887,
  " mó xíng": 7888,
  " luò kè": 7889,
  " bǎi nián ": 7890,
  " de yì s": 7891,
  " bīn shì ": 7892,
  " zhèng zhì": 7893,
  " zhǎn xiàn": 7894,
  " niǔ": 7895,
  " lú ": 7896,
  " yōu shì ": 7897,
  "ach": 7898,
  "lù yǐng": 7899,
  " de hēi": 7900,
  " shè bèi ": 7901,
  " hěn kuài ": 7902,
  " nóng mín": 7903,
  "hǎi àn ": 7904,
  "tài guó ": 7905,
  "yǎn chū": 7906,
  " de bǐ": 7907,
  " zài nèi": 7908,
  " hé qí tā ": 7909,
  " yī dài ": 7910,
  " yǔ qí tā": 7911,
  " mǎ ēn": 7912,
  " bā ěr": 7913,
  " gēn suí ": 7914,
  "biǎo xiàn ": 7915,
  "bā nián ": 7916,
  "zī xùn ": 7917,
  " píng mín": 7918,
  "62": 7919,
  "jiā lì fú ní yà": 7920,
  " lǜ shī": 7921,
  " yǐn yòng": 7922,
  " jú zhǎng": 7923,
  "guǎng chǎng": 7924,
  "tuī dòng": 7925,
  " guó mín dǎng ": 7926,
  " shí bā nián ": 7927,
  "lián hé guó ": 7928,
  "rù xuǎn": 7929,
  " píng gū ": 7930,
  " hài ": 7931,
  " bèi pàn ": 7932,
  " shòu yǔ": 7933,
  " ní kè": 7934,
  "ort": 7935,
  "àn de xiǎo xíng xīng ": 7936,
  " guǐ dào": 7937,
  "17 nián ": 7938,
  " yī rén ": 7939,
  " tái nán": 7940,
  " yà měi ní yà": 7941,
  "xiāng gǎng ": 7942,
  " sǔn shī": 7943,
  "jiā zhōng ": 7944,
  "fā shè": 7945,
  " xiān": 7946,
  " 1 lì ": 7947,
  " xī bó": 7948,
  " qǐ lái ": 7949,
  " fēng wèi ": 7950,
  "táo wǎn ": 7951,
  " yuán zhù mín": 7952,
  "kè chéng ": 7953,
  "2006 nián ": 7954,
  " bù shǔ": 7955,
  " zhì shí ": 7956,
  " kě ": 7957,
  " liú xíng ": 7958,
  " nǚ ér": 7959,
  " pò shǐ": 7960,
  " xíng zhèng yuàn": 7961,
  "tái fēng": 7962,
  " dà bǎn ": 7963,
  " zhī shì ": 7964,
  " yào wù": 7965,
  " zhōng guó guó mín": 7966,
  " bào gào": 7967,
  "wèn tí": 7968,
  " de shēn fèn": 7969,
  "guǐ dào ": 7970,
  " de shuō fǎ ": 7971,
  " zhē": 7972,
  " tì ": 7973,
  "yǒu guān": 7974,
  "bì yào": 7975,
  " de suǒ yǒu ": 7976,
  " zhōu qī": 7977,
  " cái pàn ": 7978,
  "guāng xù": 7979,
  " zēng jiā le": 7980,
  " de qíng kuàng xià": 7981,
  "yóu yú ": 7982,
  " de kě": 7983,
  " de qīn ": 7984,
  " shì yuán ": 7985,
  " bí ": 7986,
  " liǎo jiě": 7987,
  " kuáng ": 7988,
  " róng yù": 7989,
  " rú cǐ": 7990,
  " kōng qì": 7991,
  " shā sǐ": 7992,
  "7 yuè 1 rì ": 7993,
  " xué kē": 7994,
  " xiǎo xué": 7995,
  " zuò zhàn ": 7996,
  " zī chǎn": 7997,
  " huán jìng ": 7998,
  "adi": 7999
}