{
  "!": 0,
  "\"": 1,
  "#": 2,
  "$": 3,
  "%": 4,
  "&": 5,
  "'": 6,
  "(": 7,
  ")": 8,
  "*": 9,
  "+": 10,
  ",": 11,
  "-": 12,
  ".": 13,
  "/": 14,
  "0": 15,
  "1": 16,
  "2": 17,
  "3": 18,
  "4": 19,
  "5": 20,
  "6": 21,
  "7": 22,
  "8": 23,
  "9": 24,
  ":": 25,
  ";": 26,
  "=": 27,
  "?": 28,
  "@": 29,
  "A": 30,
  "B": 31,
  "C": 32,
  "D": 33,
  "E": 34,
  "F": 35,
  "G": 36,
  "H": 37,
  "I": 38,
  "J": 39,
  "K": 40,
  "L": 41,
  "M": 42,
  "N": 43,
  "O": 44,
  "P": 45,
  "Q": 46,
  "R": 47,
  "S": 48,
  "T": 49,
  "U": 50,
  "V": 51,
  "W": 52,
  "X": 53,
  "Y": 54,
  "Z": 55,
  "[": 56,
  "\\": 57,
  "]": 58,
  "^": 59,
  "_": 60,
  "`": 61,
  "a": 62,
  "b": 63,
  "c": 64,
  "d": 65,
  "e": 66,
  "f": 67,
  "g": 68,
  "h": 69,
  "i": 70,
  "j": 71,
  "k": 72,
  "l": 73,
  "m": 74,
  "n": 75,
  "o": 76,
  "p": 77,
  "q": 78,
  "r": 79,
  "s": 80,
  "t": 81,
  "u": 82,
  "v": 83,
  "w": 84,
  "x": 85,
  "y": 86,
  "z": 87,
  "|": 88,
  "~": 89,
  "�": 107,
  "\n": 162,
  " ": 163,
  "": 164,
  "ng": 199,
  "h�": 200,
  "à": 201,
  "ā": 202,
  "ì": 203,
  "á": 204,
  "ī": 205,
  "è": 206,
  "ǎ": 207,
  "  ": 208,
  "é": 209,
  "í": 210,
  "sh�": 211,
  "ù": 212,
  "án": 213,
  "zh": 214,
  "ǐ": 215,
  "ō": 216,
  "ji": 217,
  "de": 218,
  "àn": 219,
  "ē": 220,
  "zh�": 221,
  "sh": 222,
  "ě": 223,
  "ó": 224,
  "ǔ": 225,
  "xi": 226,
  "ò": 227,
  "ú": 228,
  "ān": 229,
  "   ": 230,
  "ài": 231,
  "ū": 232,
  "ōng": 233,
  "ǒ": 234,
  "shì": 236,
  "hu": 237,
  "èi": 238,
  "gu": 239,
  "ián": 240,
  "hé": 241,
  "ào": 242,
  "āng": 243,
  "íng": 244,
  "yu": 245,
  "ǎn": 246,
  "ch": 247,
  "nián": 248,
  "yī": 249,
  "ǎng": 250,
  "én": 251,
  "ǒu": 252,
  "ìng": 253,
  "wèi": 254,
  "ǎo": 255,
  "zài": 256,
  "、": 257,
  "jī": 258,
  "ēng": 259,
  "zhōng": 260,
  "xī": 261,
  "bù": 262,
  "jì": 263,
  "àng": 264,
  "li": 265,
  "zhè": 266,
  "shí": 267,
  "dì": 268,
  "guó": 269,
  "yú": 270,
  "rén": 271,
  "òng": 272,
  "ch�": 273,
  "āo": 274,
  "du": 275,
  "ché": 276,
  "yǐ": 277,
  "lì": 278,
  "áng": 279,
  "yì": 280,
  "uò": 281,
  "ái": 282,
  "zhì": 283,
  "chéng": 284,
  "éi": 285,
  "xu": 286,
  "gōng": 287,
  "jí": 288,
  "ěi": 290,
  "iàn": 291,
  "ēn": 292,
  "óng": 293,
  "yuè": 294,
  "yǒu": 295,
  "yuán": 296,
  "dà": 297,
  "qi": 298,
  "ōu": 299,
  "lǐ": 300,
  "20": 301,
  "óu": 302,
  "āi": 303,
  "xiàn": 304,
  "jiā": 305,
  "sī": 306,
  "ūn": 307,
  "xíng": 308,
  "yǔ": 309,
  "èn": 310,
  "ǒng": 311,
  "ín": 312,
  "tā": 313,
  "rì": 314,
  "zhī": 315,
  "hòu": 316,
  "ǎi": 317,
  "gè": 318,
  "zhà": 319,
  "éng": 320,
  "le": 321,
  "wéi": 322,
  "huì": 323,
  "dào": 324,
  "19": 325,
  "bi": 326,
  "shà": 327,
  "qī": 328,
  "qí": 329,
  "shè": 330,
  "su": 331,
  "zhèng": 332,
  "míng": 333,
  "jiàn": 334,
  "xué": 335,
  "chū": 336,
  "yù": 337,
  "ěng": 338,
  "zuò": 339,
  "shēng": 340,
  "duì": 341,
  "yóu": 342,
  "qū": 343,
  "shàng": 344,
  "ěn": 345,
  "dé": 346,
  "lù": 347,
  "bèi": 348,
  "chá": 349,
  "ti": 350,
  "shǐ": 351,
  "zhàn": 352,
  "zhǔ": 353,
  "ēi": 354,
  "qu": 355,
  "jù": 356,
  "xīn": 357,
  "jūn": 358,
  "zhu": 359,
  "ěr": 360,
  "áo": 361,
  "shù": 362,
  "uì": 363,
  "rèn": 364,
  "fā": 365,
  "wù": 366,
  "bìng": 367,
  "kè": 368,
  "ér": 369,
  "dài": 370,
  "yí": 371,
  "jìn": 372,
  "zì": 373,
  "yīn": 374,
  "fù": 375,
  "fāng": 376,
  "jīng": 377,
  "nán": 378,
  "huà": 379,
  "xì": 380,
  "zhōu": 381,
  "píng": 382,
  "òu": 383,
  "xià": 384,
  "lái": 385,
  "yòng": 386,
  "shu": 387,
  "guān": 388,
  "tóng": 389,
  "》": 390,
  "《": 391,
  "fǎ": 392,
  "zhù": 393,
  "měi": 394,
  "há": 395,
  "·": 396,
  "jiān": 397,
  "jǐ": 398,
  "huò": 399,
  "dù": 400,
  "chu": 401,
  "běn": 402,
  "xiāng": 403,
  "zhí": 404,
  "dòng": 405,
  "xiàng": 406,
  "mín": 407,
  "jiāng": 408,
  "fēn": 409,
  "shǒu": 410,
  "quán": 411,
  "wén": 412,
  "yán": 413,
  "hà": 414,
  "suǒ": 415,
  "jiào": 416,
  "qián": 417,
  "diàn": 418,
  "tè": 419,
  "di": 420,
  "duō": 421,
  "ún": 422,
  "zuì": 423,
  "kāi": 424,
  "tu": 425,
  "jié": 426,
  "lián": 427,
  "zhǐ": 428,
  "kě": 429,
  "dàn": 430,
  "mù": 431,
  "yè": 432,
  "fú": 433,
  "mǎ": 434,
  "yě": 435,
  "dōng": 436,
  "qiú": 437,
  "běi": 438,
  "「": 439,
  "」": 440,
  "gāo": 441,
  "yà": 442,
  "qǐ": 443,
  "jiē": 444,
  "miàn": 445,
  "hǎi": 446,
  "zhǎng": 447,
  "shī": 448,
  "jīn": 449,
  "cǐ": 450,
  "lu": 451,
  "nèi": 452,
  "tǐ": 453,
  "sài": 454,
  "sān": 455,
  "tái": 456,
  "gé": 457,
  "xìng": 458,
  "guò": 459,
  "rù": 460,
  "201": 461,
  "děng": 462,
  "yào": 463,
  "ju": 464,
  "chē": 465,
  "cì": 466,
  "wǔ": 467,
  "gāi": 468,
  "dìng": 469,
  "cháng": 470,
  "biǎo": 471,
  "lā": 472,
  "gòng": 473,
  "jiè": 474,
  "shòu": 475,
  "dǎo": 476,
  "shān": 477,
  "chǎng": 478,
  "sì": 479,
  "bǐ": 480,
  "zé": 481,
  "tí": 482,
  "kē": 483,
  "dāng": 484,
  "néng": 485,
  "èr": 486,
  "wài": 487,
  "dān": 488,
  "xù": 489,
  "zi": 490,
  "kǒu": 491,
  "xiǎo": 492,
  "zǔ": 493,
  "bā": 494,
  "jué": 495,
  "lín": 496,
  "liú": 497,
  "shěng": 498,
  "yīng": 499,
  "ku": 500,
  "lán": 501,
  "luó": 502,
  "tōng": 503,
  "200": 504,
  "īng": 505,
  "�ng": 506,
  "mǐ": 507,
  "zhòng": 508,
  "en": 509,
  "zhě": 510,
  "shǔ": 511,
  "tiān": 512,
  "zhèn": 513,
  "ǚ": 514,
  "qì": 515,
  "zhǒng": 516,
  "liè": 517,
  "chēng": 518,
  "shū": 519,
  "yuàn": 520,
  "bǎo": 521,
  "tài": 522,
  "fǔ": 523,
  "fēng": 524,
  "gǔ": 525,
  "qīng": 526,
  "shēn": 527,
  "wáng": 528,
  "yùn": 529,
  "guǎn": 530,
  "fēi": 531,
  "jiù": 532,
  "liǎng": 533,
  "céng": 534,
  "méi": 535,
  "10": 536,
  "fèn": 537,
  "hào": 538,
  "yǎn": 540,
  "wěi": 541,
  "zǒng": 542,
  "xuǎn": 543,
  "xiào": 544,
  "dá": 545,
  "nà": 546,
  "liàng": 547,
  "bō": 548,
  "zú": 549,
  "jìng": 550,
  "bào": 551,
  "ní": 552,
  "wú": 553,
  "tǒng": 554,
  "huá": 555,
  "jiāo": 556,
  "yuē": 557,
  "yǐng": 558,
  "biàn": 559,
  "xīng": 560,
  "sù": 561,
  "shuǐ": 562,
  "yáng": 563,
  "hù": 564,
  "men": 565,
  "bāo": 566,
  "gē": 567,
  "bó": 568,
  "cān": 569,
  "cóng": 570,
  "diǎn": 571,
  "bì": 572,
  "rú": 573,
  "bàn": 574,
  "biān": 575,
  "wǎng": 576,
  "qǔ": 577,
  "mi": 578,
  "chǎn": 579,
  "sè": 580,
  "zī": 581,
  "chuán": 582,
  "00": 583,
  "shèng": 584,
  "rán": 585,
  "tú": 586,
  "zhāng": 587,
  "pǔ": 588,
  "gǎi": 589,
  "gǎng": 590,
  "nǚ": 591,
  "lìng": 592,
  "luò": 593,
  "yòu": 594,
  "tóu": 595,
  "cè": 596,
  "l�": 597,
  "chí": 598,
  "18": 599,
  "lǜ": 600,
  "qiān": 601,
  "shé": 602,
  "lí": 603,
  "dōu": 604,
  "pǐ": 605,
  "12": 606,
  "zhēng": 607,
  "ni": 608,
  "kuò": 609,
  "shā": 610,
  "dǎng": 611,
  "fǎn": 612,
  "gòu": 613,
  "lèi": 614,
  "xí": 615,
  "jǐng": 616,
  "tuán": 617,
  "wēi": 618,
  "xiē": 619,
  "lǐng": 620,
  "lóng": 621,
  "guī": 622,
  "xiān": 623,
  "róng": 624,
  "huáng": 625,
  "xiǎng": 626,
  "bān": 627,
  "jiǔ": 628,
  "yìng": 629,
  "mén": 630,
  "shāng": 631,
  "shén": 632,
  "202": 633,
  "bǎn": 634,
  "kǎ": 635,
  "mǔ": 636,
  "jǐn": 637,
  "fū": 638,
  "jǔ": 639,
  "mó": 640,
  "guǎng": 641,
  "cí": 642,
  "shuō": 643,
  "qíng": 644,
  "zhǎn": 645,
  "hái": 646,
  "zhuāng": 647,
  "mò": 648,
  "cái": 649,
  "dú": 650,
  "11": 651,
  "pǐn": 652,
  "tíng": 653,
  "cháo": 654,
  "yíng": 655,
  "tiáo": 656,
  "jiǎn": 657,
  "táng": 658,
  "huí": 659,
  "duàn": 660,
  "chén": 661,
  "gēn": 662,
  "mì": 663,
  "wàn": 664,
  "pái": 665,
  "wān": 666,
  "zào": 667,
  "háng": 668,
  "wán": 669,
  "biāo": 670,
  "gù": 671,
  "lún": 672,
  "199": 673,
  "xié": 674,
  "jiǎng": 675,
  "hàn": 676,
  "jú": 677,
  "fàn": 678,
  "fáng": 679,
  "huó": 680,
  "hán": 681,
  "pi": 682,
  "kōng": 683,
  "or": 684,
  "tiě": 685,
  "méng": 686,
  "bié": 687,
  "wū": 688,
  "jiě": 689,
  "zhuān": 690,
  "yǐn": 691,
  "xū": 692,
  "zhēn": 693,
  "dǐ": 694,
  "er": 695,
  "chú": 696,
  "hú": 697,
  "jià": 698,
  "bīng": 699,
  "mìng": 700,
  "líng": 701,
  "hóng": 702,
  "qīn": 703,
  "zǐ": 704,
  "lùn": 705,
  "xìn": 706,
  "chù": 707,
  "chǔ": 708,
  "sū": 709,
  "an": 710,
  "xiū": 711,
  "zōng": 712,
  "15": 713,
  "què": 714,
  "xiāo": 715,
  "zhào": 716,
  "qiáng": 717,
  "qù": 718,
  "cūn": 719,
  "chóng": 720,
  "piàn": 721,
  "jiū": 722,
  "fàng": 723,
  "suí": 724,
  "shōu": 725,
  "gèng": 726,
  "guāng": 728,
  "èng": 729,
  "jū": 730,
  "on": 731,
  "jiǎ": 732,
  "chuàng": 733,
  "dí": 734,
  "16": 735,
  "zhuǎn": 736,
  "guǒ": 737,
  "xùn": 738,
  "màn": 739,
  "pài": 740,
  "fèi": 741,
  "pèi": 742,
  "198": 743,
  "dǎ": 744,
  "tuō": 745,
  "la": 746,
  "xuān": 747,
  "bái": 748,
  "zhū": 749,
  "dū": 750,
  "tǔ": 751,
  "diào": 752,
  "xiá": 753,
  "liù": 754,
  "17": 755,
  "suì": 756,
  "huī": 757,
  "tīng": 758,
  "qiě": 759,
  "tǎ": 760,
  "qiáo": 761,
  "hā": 762,
  "gǎn": 763,
  "zēng": 764,
  "xiǎn": 765,
  "mài": 766,
  "huán": 767,
  "xǔ": 768,
  "wǎ": 769,
  "tuī": 770,
  "wèn": 771,
  "chāo": 772,
  "tián": 773,
  "bǎi": 774,
  "cǎi": 775,
  "liáng": 776,
  "yá": 777,
  "sà": 778,
  "ar": 779,
  "bài": 780,
  "cún": 781,
  "jiǎo": 782,
  "shǎo": 783,
  "yàn": 784,
  "zhuàng": 785,
  "huǒ": 786,
  "léi": 787,
  "14": 788,
  "zu": 789,
  "jiàng": 790,
  "chuān": 791,
  "yìn": 792,
  "zǎo": 793,
  "chà": 794,
  "yǒng": 795,
  "sǐ": 796,
  "dēng": 797,
  "30": 798,
  "zhǔn": 799,
  "lè": 800,
  "xún": 801,
  "nuò": 802,
  "kù": 803,
  "huàn": 804,
  "sòng": 805,
  "gào": 806,
  "lǔ": 807,
  "13": 808,
  "194": 809,
  "bāng": 810,
  "lǚ": 811,
  "pī": 812,
  "yàng": 813,
  "hěn": 814,
  "qún": 815,
  "zhěng": 816,
  "guàn": 817,
  "pò": 818,
  "gāng": 819,
  "wǒ": 820,
  "197": 821,
  "huā": 822,
  "lēi": 823,
  "hǎo": 824,
  "táo": 825,
  "kuàng": 826,
  "hè": 827,
  "in": 828,
  "dùn": 829,
  "nóng": 830,
  "gěi": 831,
  "sāi": 832,
  "shuāng": 833,
  "liàn": 834,
  "kuài": 835,
  "dī": 836,
  "bī": 837,
  "pàn": 838,
  "xiě": 839,
  "195": 840,
  "kǎo": 841,
  "gài": 842,
  "hēi": 843,
  "wàng": 844,
  "liào": 845,
  "rè": 846,
  "ge": 847,
  "zuǒ": 848,
  "kòng": 849,
  "196": 850,
  "yāng": 851,
  "chàng": 852,
  "yín": 853,
  "�u": 854,
  "réng": 855,
  "sēn": 856,
  "bēi": 857,
  "lú": 858,
  "piào": 859,
  "yā": 860,
  "25": 861,
  "bīn": 862,
  "—": 863,
  "ràng": 864,
  "chōng": 865,
  "lóu": 866,
  "bǔ": 867,
  "lǎo": 868,
  "zhú": 869,
  "jùn": 870,
  "yǎng": 871,
  "ruì": 872,
  "yāo": 873,
  "xián": 874,
  "xiè": 875,
  "niàn": 876,
  "for": 877,
  "yōu": 878,
  "tán": 879,
  "kāng": 880,
  "pí": 881,
  "héng": 882,
  "yún": 883,
  "xǐ": 884,
  "kàn": 885,
  "níng": 886,
  "liáo": 887,
  "shào": 888,
  "bú": 889,
  "24": 890,
  "qǐng": 891,
  "chǐ": 892,
  "mu": 893,
  "dòu": 894,
  "miǎn": 895,
  "yōng": 896,
  "tǎn": 897,
  "wǎn": 898,
  "hū": 899,
  "fān": 900,
  "al": 901,
  "tū": 902,
  "gān": 903,
  "suàn": 904,
  "dīng": 905,
  "yuǎn": 906,
  "wēn": 907,
  "tuì": 908,
  "zhe": 909,
  "21": 910,
  "st": 911,
  "xiù": 912,
  "bǎ": 913,
  "mǎn": 914,
  "193": 915,
  "23": 916,
  "mula": 917,
  "kàng": 918,
  "formula": 919,
  "28": 920,
  "th": 921,
  "máo": 922,
  "ruò": 923,
  "piān": 924,
  "chè": 925,
  "mào": 926,
  "lǎng": 927,
  "qín": 928,
  "bá": 929,
  "ná": 930,
  "zàn": 931,
  "guǐ": 932,
  "guì": 933,
  "ou": 934,
  "pín": 935,
  "wò": 936,
  "xióng": 937,
  "shàn": 938,
  "re": 939,
  "22": 940,
  "xiōng": 941,
  "me": 942,
  "suī": 943,
  "ü": 944,
  "26": 945,
  "shěn": 946,
  "qìng": 947,
  "miáo": 948,
  "fǎng": 949,
  "50": 950,
  "2020": 951,
  "27": 952,
  "láng": 953,
  "ru": 954,
  "qiū": 955,
  "sōng": 956,
  "üè": 957,
  "dàng": 958,
  "gēng": 959,
  "qiāng": 960,
  "ri": 961,
  "fá": 962,
  "zāo": 963,
  "fèng": 964,
  "zhàng": 965,
  "háo": 967,
  "dūn": 968,
  "zǒu": 969,
  "hài": 970,
  "qiè": 971,
  "29": 972,
  "tàn": 973,
  "pào": 974,
  "pà": 975,
  "shùn": 976,
  "péng": 977,
  "xuán": 978,
  "2010": 979,
  "nǐ": 980,
  "000": 981,
  "dǐng": 982,
  "niǔ": 983,
  "zǎi": 984,
  "zhāo": 985,
  "zhuī": 986,
  "lüè": 987,
  "chūn": 988,
  "2019": 989,
  "hūn": 990,
  "kǒng": 991,
  "duān": 992,
  "shèn": 993,
  "xiáng": 994,
  "duǎn": 995,
  "gàn": 996,
  "te": 997,
  "ro": 998,
  "kān": 999,
  "láo": 1000,
  "cǎo": 1001,
  "2016": 1002,
  "si": 1003,
  "gū": 1004,
  "péi": 1005,
  "2018": 1006,
  "kuǎn": 1007,
  "zá": 1008,
  "sūn": 1009,
  "yé": 1010,
  "yǎ": 1011,
  "pō": 1012,
  "2021": 1013,
  "ra": 1014,
  "chì": 1015,
  "duó": 1016,
  "2014": 1017,
  "fán": 1018,
  "2011": 1019,
  "2015": 1020,
  "cuò": 1021,
  "2017": 1022,
  "zhé": 1023,
  "yáo": 1024,
  "pāi": 1025,
  "tòu": 1026,
  "cáng": 1027,
  "2012": 1028,
  "40": 1029,
  "kǎi": 1030,
  "2013": 1031,
  "2022": 1032,
  "mí": 1033,
  "ruǎn": 1034,
  "suān": 1035,
  "chā": 1036,
  "zàng": 1037,
  "miào": 1038,
  "lt": 1039,
  "2009": 1040,
  "zhǎo": 1041,
  "2008": 1042,
  "huái": 1043,
  "ce": 1045,
  "60": 1046,
  "am": 1047,
  "cu": 1048,
  "xuè": 1049,
  "chóu": 1050,
  "se": 1051,
  "bǎng": 1052,
  "mèng": 1053,
  "100": 1054,
  "tì": 1055,
  "pú": 1056,
  "nǎo": 1057,
  "2023": 1058,
  "zhuàn": 1059,
  "gt": 1060,
  "lěi": 1061,
  "190": 1062,
  "31": 1063,
  "cài": 1064,
  "cù": 1065,
  "sàn": 1066,
  "móu": 1067,
  "tion": 1068,
  "ta": 1069,
  "hùn": 1070,
  "ǔn": 1071,
  "kuān": 1072,
  "2007": 1073,
  "niú": 1074,
  "mǒu": 1075,
  "tǎo": 1076,
  "dié": 1077,
  "2001": 1078,
  "ol": 1079,
  "téng": 1080,
  "sōu": 1081,
  "kěn": 1082,
  "qiǎn": 1083,
  "chāng": 1084,
  "rǎn": 1085,
  "quē": 1086,
  "fǒu": 1087,
  "sǔn": 1088,
  "el": 1089,
  "bà": 1090,
  "2000": 1091,
  "80": 1092,
  "kào": 1093,
  "suō": 1094,
  "2006": 1095,
  "niǎo": 1096,
  "chún": 1097,
  "ma": 1098,
  "2024": 1099,
  "lǎn": 1100,
  "zāi": 1102,
  "zhá": 1103,
  "xuě": 1104,
  "huǐ": 1105,
  "luàn": 1106,
  "tǐng": 1107,
  "2005": 1108,
  "zūn": 1109,
  "bàng": 1110,
  "là": 1111,
  "huān": 1112,
  "rǎng": 1113,
  "shuì": 1114,
  "mǐn": 1115,
  "35": 1116,
  "lài": 1117,
  "cāng": 1118,
  "70": 1119,
  "fó": 1120,
  "pán": 1121,
  "of": 1122,
  "nài": 1123,
  "wěn": 1124,
  "et": 1125,
  "cāo": 1126,
  "sāng": 1127,
  "páng": 1128,
  "90": 1129,
  "bǐng": 1130,
  "－": 1131,
  "zhā": 1132,
  "shuài": 1134,
  "niè": 1135,
  "es": 1136,
  "hóu": 1137,
  "mèi": 1138,
  "shāo": 1139,
  "nǔ": 1140,
  "dǒng": 1141,
  "il": 1142,
  "at": 1143,
  "ow": 1144,
  "féng": 1145,
  "miè": 1146,
  "yǔn": 1147,
  "zòu": 1148,
  "mǎi": 1149,
  "huài": 1150,
  "2004": 1151,
  "45": 1152,
  "yān": 1153,
  "co": 1154,
  "48": 1155,
  "the": 1156,
  "zhuó": 1157,
  "and": 1158,
  "ter": 1159,
  "he": 1160,
  "tào": 1161,
  "nǎi": 1162,
  "kūn": 1163,
  "2025": 1164,
  "zhěn": 1165,
  "ck": 1166,
  "rǔ": 1167,
  "kuà": 1168,
  "kuí": 1169,
  "〉": 1170,
  "〈": 1171,
  "gōu": 1172,
  "36": 1173,
  "cuī": 1174,
  "38": 1175,
  "shǎn": 1176,
  "ròu": 1177,
  "diāo": 1178,
  "2003": 1179,
  "hǔ": 1180,
  "guō": 1181,
  "37": 1182,
  "cuì": 1183,
  "ne": 1184,
  "xú": 1185,
  "máng": 1186,
  "juǎn": 1187,
  "cán": 1188,
  "diān": 1189,
  "zhān": 1190,
  "cáo": 1191,
  "189": 1192,
  "IN": 1193,
  "2002": 1194,
  "is": 1195,
  "bo": 1196,
  "kēng": 1197,
  "TC": 1198,
  "ve": 1199,
  "34": 1200,
  "má": 1201,
  "lěng": 1202,
  "as": 1203,
  "zū": 1204,
  "75": 1205,
  "–": 1206,
  "sú": 1207,
  "quān": 1208,
  "dā": 1209,
  "to": 1210,
  "chāi": 1211,
  "nu": 1212,
  "làng": 1213,
  "kùn": 1214,
  "46": 1215,
  "tún": 1216,
  "fěn": 1217,
  "1990": 1218,
  "…": 1219,
  "zhòu": 1220,
  "shǎng": 1221,
  "rào": 1222,
  "hēng": 1223,
  "tī": 1224,
  "xūn": 1225,
  "39": 1226,
  "nè": 1227,
  "..": 1228,
  "pì": 1229,
  "nàn": 1230,
  "pān": 1231,
  "65": 1232,
  "hōng": 1233,
  "shú": 1234,
  "tān": 1235,
  "Ch": 1236,
  "tāng": 1237,
  "kǎn": 1238,
  "Ma": 1239,
  "nì": 1240,
  "32": 1241,
  "In": 1242,
  "ST": 1243,
  "47": 1244,
  "hǎn": 1245,
  "it": 1246,
  "UTC": 1247,
  "qiàn": 1248,
  "1999": 1249,
  "1998": 1250,
  "1980": 1251,
  "188": 1252,
  "500": 1253,
  "33": 1254,
  "64": 1255,
  "qiǎng": 1256,
  "shuò": 1257,
  "pǎo": 1258,
  "lo": 1259,
  "be": 1260,
  "kā": 1261,
  "zhái": 1262,
  "SE": 1263,
  "55": 1264,
  "quàn": 1265,
  "nī": 1266,
  "dèng": 1267,
  "1997": 1268,
  "The": 1269,
  "mián": 1270,
  "49": 1271,
  "gǎo": 1272,
  "II": 1273,
  "68": 1274,
  "Co": 1275,
  "vi": 1276,
  "shě": 1277,
  "zèng": 1278,
  "Re": 1279,
  "han": 1280,
  "zhóu": 1281,
  "zhài": 1282,
  "44": 1283,
  "1996": 1284,
  "na": 1285,
  "tiē": 1286,
  "dāo": 1287,
  "ad": 1288,
  "br": 1289,
  "1994": 1290,
  "ver": 1291,
  "féi": 1292,
  "zòng": 1293,
  "qióng": 1294,
  "ci": 1295,
  "tiào": 1296,
  "chuáng": 1297,
  "1992": 1298,
  "ba": 1299,
  "chuí": 1300,
  "juān": 1301,
  "chái": 1302,
  "miǎo": 1303,
  "guā": 1304,
  "xuē": 1305,
  "tòng": 1306,
  "1995": 1307,
  "fěi": 1308,
  "chī": 1309,
  "oo": 1310,
  "měng": 1311,
  "wō": 1312,
  "67": 1313,
  "ir": 1314,
  "shuāi": 1315,
  "tuó": 1316,
  "chuāng": 1317,
  "huǎn": 1318,
  "1991": 1319,
  "1970": 1320,
  "58": 1321,
  "ay": 1322,
  "1950": 1323,
  "ca": 1324,
  "nd": 1325,
  "guà": 1326,
  "chán": 1327,
  "300": 1328,
  "wā": 1329,
  "1993": 1330,
  "187": 1331,
  "1949": 1332,
  "pe": 1333,
  "sā": 1334,
  "tiǎo": 1335,
  "AT": 1336,
  "1960": 1337,
  "biǎn": 1338,
  "42": 1339,
  "1945": 1340,
  "ing": 1341,
  "guài": 1342,
  "au": 1343,
  "kǔ": 1344,
  "nú": 1345,
  "1988": 1346,
  "dǔ": 1347,
  "1989": 1348,
  "ig": 1349,
  "pù": 1350,
  "69": 1351,
  "liǔ": 1352,
  "gǒng": 1353,
  "SEE": 1354,
  "tuò": 1355,
  "amp": 1356,
  "ct": 1357,
  "liǎo": 1358,
  "INSEE": 1359,
  "59": 1360,
  "tāi": 1361,
  "43": 1362,
  "66": 1363,
  "chuàn": 1364,
  "op": 1365,
  "chèn": 1366,
  "os": 1367,
  "57": 1368,
  "1985": 1369,
  "huāng": 1370,
  "99": 1371,
  "SA": 1372,
  "『": 1373,
  "cùn": 1374,
  "』": 1375,
  "1984": 1376,
  "hún": 1377,
  "41": 1378,
  "pū": 1379,
  "ly": 1380,
  "us": 1381,
  "kòu": 1382,
  "fén": 1383,
  "88": 1384,
  "1986": 1385,
  "rǎo": 1386,
  "mp": 1387,
  "St": 1388,
  "id": 1389,
  "rùn": 1390,
  "TV": 1391,
  "150": 1392,
  "zhuō": 1393,
  "ind": 1394,
  "400": 1395,
  "sǎn": 1396,
  "1987": 1397,
  "78": 1398,
  "un": 1399,
  "ed": 1400,
  "ha": 1401,
  "1982": 1402,
  "56": 1403,
  "Li": 1404,
  "ur": 1405,
  "ard": 1406,
  "nuó": 1407,
  "1983": 1408,
  "NA": 1409,
  "gǔn": 1410,
  "Ro": 1411,
  "De": 1412,
  "ss": 1413,
  "mā": 1414,
  "tou": 1415,
  "pìn": 1416,
  "CD": 1417,
  "chōu": 1418,
  "ber": 1419,
  "gǒu": 1420,
  "quǎn": 1421,
  "Mi": 1422,
  "77": 1423,
  "zhāi": 1424,
  "Me": 1425,
  "qià": 1426,
  "māo": 1427,
  "qiǎo": 1428,
  "Mar": 1429,
  "tw": 1430,
  "kū": 1431,
  "kuáng": 1432,
  "róu": 1433,
  "der": 1434,
  "79": 1435,
  "lòu": 1436,
  "OS": 1437,
  "°": 1438,
  "kuì": 1439,
  "sàng": 1440,
  "Al": 1442,
  "180": 1443,
  "ty": 1444,
  "BC": 1445,
  "54": 1446,
  "1979": 1447,
  "61": 1448,
  "1920": 1449,
  "ang": 1450,
  "pēn": 1451,
  "98": 1452,
  "sēng": 1453,
  "52": 1454,
  "You": 1455,
  "ap": 1456,
  "1978": 1457,
  "nù": 1458,
  "wēng": 1459,
  "62": 1460,
  "yē": 1461,
  "duǒ": 1462,
  "Le": 1463,
  "53": 1464,
  "xǐng": 1465,
  "juàn": 1466,
  "～": 1467,
  "BA": 1468,
  "ke": 1469,
  "1946": 1470,
  "ts": 1471,
  "CO": 1472,
  "mo": 1473,
  "ction": 1474,
  "51": 1475,
  "1958": 1476,
  "1981": 1477,
  "Vi": 1478,
  "1972": 1479,
  "1948": 1480,
  "zhuì": 1481,
  "cōng": 1482,
  "tōu": 1483,
  "AM": 1484,
  "hi": 1485,
  "63": 1486,
  "man": 1487,
  "ows": 1488,
  "AR": 1489,
  "ry": 1490,
  "1941": 1491,
  "Wind": 1492,
  "BS": 1493,
  "wá": 1494,
  "liǎn": 1495,
  "1930": 1496,
  "Mo": 1497,
  "Pro": 1498,
  "luǎn": 1499,
  "kuāng": 1500,
  "qú": 1501,
  "tuǒ": 1502,
  "ké": 1503,
  "76": 1504,
  "hans": 1505,
  "va": 1506,
  "1940": 1507,
  "1937": 1508,
  "con": 1509,
  "1976": 1510,
  "zuǐ": 1511,
  "1944": 1512,
  "Jo": 1513,
  "89": 1514,
  "1975": 1515,
  "um": 1516,
  "／": 1517,
  "Te": 1518,
  "1968": 1519,
  "niáng": 1520,
  "pó": 1521,
  "shuā": 1522,
  "hk": 1523,
  "yuān": 1524,
  "tāo": 1525,
  "per": 1526,
  "wāng": 1527,
  "ga": 1528,
  "1000": 1529,
  "ran": 1530,
  "Windows": 1531,
  "95": 1532,
  "Ne": 1533,
  "bí": 1534,
  "sǎo": 1535,
  "da": 1536,
  "87": 1537,
  "1966": 1538,
  "85": 1539,
  "fà": 1540,
  "pēng": 1541,
  "600": 1542,
  "làn": 1543,
  "Se": 1544,
  "Sta": 1545,
  "sp": 1546,
  "120": 1547,
  "1947": 1548,
  "Ga": 1549,
  "Ar": 1550,
  "ot": 1551,
  "gā": 1552,
  "1956": 1553,
  "AC": 1554,
  "1964": 1555,
  "dǎn": 1556,
  "cū": 1557,
  "1942": 1558,
  "1955": 1559,
  "chǒu": 1560,
  "lay": 1561,
  "1952": 1562,
  "1939": 1563,
  "IS": 1564,
  "1938": 1565,
  "72": 1566,
  "74": 1567,
  "ht": 1568,
  "rěn": 1569,
  "1973": 1570,
  "ace": 1571,
  "fi": 1572,
  "1974": 1573,
  "1954": 1574,
  "qiē": 1575,
  "ED": 1576,
  "1900": 1577,
  "--": 1578,
  "Be": 1579,
  "AP": 1580,
  "ore": 1581,
  "1943": 1582,
  "1977": 1583,
  "Da": 1584,
  "1971": 1585,
  "pīn": 1586,
  "pǒ": 1587,
  "mán": 1588,
  "1967": 1589,
  "shéng": 1590,
  "ment": 1591,
  "IC": 1592,
  "800": 1593,
  "ER": 1594,
  "La": 1595,
  "86": 1596,
  "1959": 1597,
  "bēng": 1598,
  "son": 1599,
  "1965": 1600,
  "JR": 1601,
  "1969": 1602,
  "Ra": 1603,
  "duī": 1604,
  "Di": 1605,
  "ok": 1606,
  "pén": 1607,
  "・": 1608,
  "×": 1609,
  "qiào": 1610,
  "chuī": 1611,
  "ID": 1612,
  "qiāo": 1613,
  "Su": 1614,
  "ine": 1615,
  "1936": 1616,
  "160": 1617,
  "97": 1618,
  "bēn": 1619,
  "zhuā": 1620,
  "ent": 1621,
  "1953": 1622,
  "Sa": 1623,
  "1962": 1624,
  "MA": 1625,
  "Tu": 1626,
  "tic": 1627,
  "1961": 1628,
  "lǒng": 1629,
  "ation": 1630,
  "1935": 1632,
  "tà": 1633,
  "mái": 1634,
  "Sh": 1635,
  "96": 1636,
  "ON": 1637,
  "ak": 1638,
  "％": 1639,
  "1951": 1640,
  "1957": 1641,
  "1963": 1642,
  "Lo": 1643,
  "─": 1644,
  "one": 1645,
  "rou": 1646,
  "84": 1647,
  "Ja": 1648,
  "2026": 1649,
  "do": 1650,
  "cǎn": 1651,
  "82": 1652,
  "gi": 1653,
  "bu": 1654,
  "mer": 1655,
  "73": 1656,
  "po": 1657,
  "94": 1658,
  "tūn": 1659,
  "92": 1660,
  "So": 1661,
  "AN": 1662,
  "IP": 1663,
  "An": 1664,
  "ho": 1665,
  "ali": 1666,
  "1933": 1667,
  "Mu": 1668,
  "1931": 1669,
  "náng": 1670,
  "niào": 1671,
  "les": 1672,
  "71": 1673,
  "báo": 1674,
  "nuǎn": 1675,
  "léng": 1676,
  "pá": 1677,
  "83": 1678,
  "93": 1679,
  "ai": 1680,
  "We": 1681,
  "81": 1682,
  "dǒu": 1683,
  "1918": 1684,
  "sta": 1685,
  "HD": 1686,
  "Bo": 1687,
  "sāo": 1688,
  "Uni": 1689,
  "1928": 1690,
  "luán": 1691,
  "ki": 1692,
  "1932": 1693,
  "wi": 1694,
  "nèn": 1695,
  "col": 1696,
  "int": 1697,
  "MV": 1698,
  "SS": 1699,
  "our": 1700,
  "110": 1701,
  "tù": 1702,
  "IT": 1703,
  "1912": 1704,
  "all": 1705,
  "1929": 1706,
  "tuǐ": 1707,
  "duò": 1708,
  "1927": 1709,
  "cn": 1710,
  "1934": 1711,
  "are": 1712,
  "Pa": 1713,
  "700": 1714,
  "gá": 1715,
  "che": 1716,
  "by": 1717,
  "ted": 1718,
  "ster": 1719,
  "huǎng": 1720,
  "Si": 1721,
  "250": 1722,
  "ff": 1723,
  "91": 1724,
  "mm": 1725,
  "Par": 1726,
  "zéi": 1727,
  "Ri": 1728,
  "1924": 1729,
  "pp": 1730,
  "ph": 1731,
  "...": 1732,
  "1919": 1733,
  "kuī": 1734,
  "He": 1735,
  "so": 1736,
  "xuàn": 1737,
  "130": 1738,
  "piāo": 1739,
  "no": 1740,
  "1925": 1741,
  "PS": 1742,
  "Play": 1743,
  "pāo": 1744,
  "140": 1745,
  "xiā": 1746,
  "Bu": 1747,
  "Ca": 1748,
  "SM": 1749,
  "Con": 1750,
  "Sp": 1751,
  "PC": 1752,
  "1914": 1753,
  "ble": 1754,
  "ste": 1755,
  "zhǎi": 1756,
  "km": 1757,
  "DV": 1758,
  "zhē": 1759,
  "En": 1760,
  "mes": 1761,
  "YouTu": 1762,
  "com": 1763,
  "Ba": 1764,
  "hē": 1765,
  "Fi": 1766,
  "Ti": 1767,
  "diē": 1768,
  "ell": 1769,
  "gra": 1770,
  "lǎ": 1771,
  "AS": 1772,
  "ia": 1773,
  "1911": 1774,
  "Wi": 1775,
  "shi": 1776,
  "end": 1777,
  "ill": 1778,
  "nüè": 1779,
  "ana": 1780,
  "ara": 1781,
  "Ge": 1782,
  "1926": 1783,
  "de ": 1784,
  " de ": 1785,
  "shì ": 1786,
  " shì ": 1787,
  " nián": 1788,
  " nián ": 1789,
  "wèi ": 1790,
  "zài ": 1791,
  " wèi ": 1792,
  " zài ": 1793,
  "hé ": 1794,
  " hé ": 1795,
  "zhōng ": 1796,
  "bù ": 1797,
  "dì ": 1798,
  "shí ": 1799,
  "guó ": 1800,
  "yú ": 1801,
  "rén ": 1802,
  " bù ": 1803,
  "yī ": 1804,
  " zhōng ": 1805,
  "lì ": 1806,
  "zhì ": 1807,
  "gōng ": 1808,
  " shí ": 1809,
  "yuè ": 1810,
  "jí ": 1811,
  "chéng ": 1812,
  "yì ": 1813,
  "yǒu ": 1814,
  " dì ": 1815,
  " yuè ": 1816,
  " yú ": 1817,
  " rén ": 1818,
  " zhì ": 1819,
  "dà ": 1820,
  " jí ": 1821,
  "yuán ": 1822,
  " yǒu ": 1823,
  "jì ": 1824,
  " guó ": 1825,
  " lì ": 1826,
  " gōng ": 1827,
  " yì ": 1828,
  " yǐ": 1829,
  " chéng ": 1830,
  "jiā ": 1831,
  "sī ": 1832,
  "yǔ ": 1833,
  " xiàn": 1834,
  " rì": 1835,
  " yī ": 1836,
  " xíng": 1837,
  " tā": 1838,
  "lǐ ": 1839,
  "jī ": 1840,
  " dào": 1841,
  "hòu ": 1842,
  "wéi ": 1843,
  " zhī": 1844,
  " dà ": 1845,
  " yuán ": 1846,
  "xī ": 1847,
  " rì ": 1848,
  " gè": 1849,
  " yǐ ": 1850,
  "xué ": 1851,
  "huì ": 1852,
  "le ": 1853,
  "zuò ": 1854,
  " yǔ ": 1855,
  " dào ": 1856,
  "míng ": 1857,
  " jì ": 1858,
  "bèi ": 1859,
  " xíng ": 1860,
  "shēng ": 1861,
  " jiàn": 1862,
  " chū": 1863,
  " qí": 1864,
  " sī ": 1865,
  " dé": 1866,
  "zhèng ": 1867,
  " xiàn ": 1868,
  " hòu ": 1869,
  " jī ": 1870,
  "duì ": 1871,
  "shàng ": 1872,
  "qū ": 1873,
  "shǐ ": 1874,
  " ěr": 1875,
  " jiā ": 1876,
  "yóu ": 1877,
  " tā ": 1878,
  " xī ": 1879,
  " lǐ ": 1880,
  " ér": 1881,
  "zhàn ": 1882,
  " jūn": 1883,
  " bìng": 1884,
  " zhī ": 1885,
  " gè ": 1886,
  "zhǔ ": 1887,
  "rèn ": 1888,
  "fù ": 1889,
  "zì ": 1890,
  "wù ": 1891,
  "xīn ": 1892,
  "dài ": 1893,
  "jù ": 1894,
  "píng ": 1895,
  " chū ": 1896,
  " kè": 1897,
  " zhōu": 1898,
  "xiāng ": 1899,
  " huì ": 1900,
  "shù ": 1901,
  "nán ": 1902,
  " shè": 1903,
  " bèi ": 1904,
  " míng ": 1905,
  "xià ": 1906,
  "guān ": 1907,
  " ěr ": 1908,
  " dé ": 1909,
  "lù ": 1910,
  "yù ": 1911,
  "huà ": 1912,
  " jiàn ": 1913,
  "jīng ": 1914,
  "yán ": 1915,
  "fāng ": 1916,
  " yīn": 1917,
  "kāi ": 1918,
  "jiān ": 1919,
  "jiào ": 1920,
  "fā ": 1921,
  "yòng ": 1922,
  " dàn": 1923,
  " ér ": 1924,
  "zhù ": 1925,
  "lái ": 1926,
  "mín ": 1927,
  "shǒu ": 1928,
  "zhè ": 1929,
  "xiàng ": 1930,
  "wén ": 1931,
  " jūn ": 1932,
  "xì ": 1933,
  "qián ": 1934,
  "běn ": 1935,
  "tè ": 1936,
  " wéi ": 1937,
  "zhí ": 1938,
  "fǎ ": 1939,
  "qī ": 1940,
  "jié ": 1941,
  "lián ": 1942,
  " bìng ": 1943,
  "dòng ": 1944,
  "diàn ": 1945,
  " qí ": 1946,
  " kè ": 1947,
  "dōng ": 1948,
  "mù ": 1949,
  " jìn": 1950,
  " duì ": 1951,
  " huò": 1952,
  " zhàn ": 1953,
  "fēn ": 1954,
  "tái ": 1955,
  "zhǎng ": 1956,
  "dù ": 1957,
  "jiāng ": 1958,
  " qiú": 1959,
  " píng ": 1960,
  "gāo ": 1961,
  "yè ": 1962,
  "suǒ ": 1963,
  "běi ": 1964,
  " zhōu ": 1965,
  "shī ": 1966,
  " le ": 1967,
  "duō ": 1968,
  "jiē ": 1969,
  "gé ": 1970,
  " shàng ": 1971,
  "jīn ": 1972,
  " zhèng ": 1973,
  "fú ": 1974,
  " zuò ": 1975,
  " yóu ": 1976,
  " fù ": 1977,
  "kǒu ": 1978,
  "guò ": 1979,
  "zhǐ ": 1980,
  " tóng": 1981,
  "hǎi ": 1982,
  " rèn ": 1983,
  " quán": 1984,
  "mǎ ": 1985,
  "tōng ": 1986,
  "rù ": 1987,
  "zuì ": 1988,
  " shēng ": 1989,
  " xué ": 1990,
  "cǐ ": 1991,
  "xìng ": 1992,
  "wài ": 1993,
  "nèi ": 1994,
  "lā ": 1995,
  "tǐ ": 1996,
  "jué ": 1997,
  "kě ": 1998,
  "qǐ ": 1999,
  "shān ": 2000,
  "tiān ": 2001,
  "chǎng ": 2002,
  "děng ": 2003,
  "zhèn ": 2004,
  "wǔ ": 2005,
  "cháng ": 2006,
  "zi ": 2007,
  "yào ": 2008,
  "bǐ ": 2009,
  " jù ": 2010,
  "bǎo ": 2011,
  "mǐ ": 2012,
  "yà ": 2013,
  " yě": 2014,
  "gāi ": 2015,
  " yīn ": 2016,
  " dài ": 2017,
  "miàn ": 2018,
  "zhòng ": 2019,
  " shè ": 2020,
  "fēng ": 2021,
  " zhè ": 2022,
  "zhǒng ": 2023,
  "cì ": 2024,
  "yùn ": 2025,
  "yí ": 2026,
  "liú ": 2027,
  "chē ": 2028,
  "shòu ": 2029,
  "lín ": 2030,
  "bāo ": 2031,
  "yí gè ": 2032,
  "sài ": 2033,
  "jiè ": 2034,
  "dìng ": 2035,
  "shēn ": 2036,
  "shěng ": 2037,
  "luó ": 2038,
  "měi guó ": 2039,
  "sān ": 2040,
  "qì ": 2041,
  "xiǎo ": 2042,
  " dàn ": 2043,
  "néng ": 2044,
  "shū ": 2045,
  "zé ": 2046,
  "liè ": 2047,
  "xuǎn ": 2048,
  "sì ": 2049,
  "qīng ": 2050,
  "zhě ": 2051,
  " qiú ": 2052,
  "jìng ": 2053,
  "yuàn ": 2054,
  "bā ": 2055,
  "ān ": 2056,
  "wáng ": 2057,
  "kē ": 2058,
  "tài ": 2059,
  "lán ": 2060,
  "bào ": 2061,
  "zǒng ": 2062,
  "yǐng ": 2063,
  " huò ": 2064,
  "bì ": 2065,
  "fǔ ": 2066,
  "dǎo ": 2067,
  " xīn ": 2068,
  "gǔ ": 2069,
  "yīng ": 2070,
  " hào": 2071,
  " xià ": 2072,
  " zì ": 2073,
  "gē ": 2074,
  "fèn ": 2075,
  "xiào ": 2076,
  "yuē ": 2077,
  "ní ": 2078,
  "jiāo ": 2079,
  "nà ": 2080,
  " yù ": 2081,
  " mǐ ": 2082,
  "zī ": 2083,
  "èr ": 2084,
  " xiāng ": 2085,
  "pǔ ": 2086,
  "dān ": 2087,
  " zhù ": 2088,
  "biǎo ": 2089,
  "guǎn ": 2090,
  "tóu ": 2091,
  "liàng ": 2092,
  "chuán ": 2093,
  " lù ": 2094,
  "sù ": 2095,
  "wú ": 2096,
  " dāng": 2097,
  "bō ": 2098,
  "rú ": 2099,
  "yǎn ": 2100,
  "nǚ ": 2101,
  "bó ": 2102,
  " zhōng guó ": 2103,
  "xīng ": 2104,
  "tí ": 2105,
  "fēi ": 2106,
  "dá ": 2107,
  "sè ": 2108,
  "chēng ": 2109,
  "měi ": 2110,
  " wèi yú ": 2111,
  " jìn ": 2112,
  "céng ": 2113,
  "chǎn ": 2114,
  " nán ": 2115,
  "shuǐ ": 2116,
  "tú ": 2117,
  "biàn ": 2118,
  "ā ": 2119,
  "guī ": 2120,
  " rán": 2121,
  "yáng ": 2122,
  "zhāng ": 2123,
  "gǎi ": 2124,
  "diǎn ": 2125,
  "cóng ": 2126,
  "jiù ": 2127,
  " běn ": 2128,
  " quán ": 2129,
  "shā ": 2130,
  "bāo kuò": 2131,
  "wǎng ": 2132,
  "jiǎn ": 2133,
  "shèng ": 2134,
  "zǔ ": 2135,
  "shǔ ": 2136,
  "gǎng ": 2137,
  "huá ": 2138,
  "lǜ ": 2139,
  "qíng ": 2140,
  "jǐng ": 2141,
  "liǎng ": 2142,
  "zú ": 2143,
  "bàn ": 2144,
  "àn ": 2145,
  "tǒng ": 2146,
  "gòng ": 2147,
  "shāng ": 2148,
  "ào ": 2149,
  "lí ": 2150,
  "hù ": 2151,
  "tóng ": 2152,
  "1 ": 2153,
  "biān ": 2154,
  "jìn ": 2155,
  "lóng ": 2156,
  "luò ": 2157,
  "xù ": 2158,
  "chí ": 2159,
  "méi ": 2160,
  "jǐn ": 2161,
  "bān ": 2162,
  "guǎng ": 2163,
  "chū ": 2164,
  "cè ": 2165,
  "mì ": 2166,
  "shén ": 2167,
  " tā men": 2168,
  "zhēng ": 2169,
  "zhī ": 2170,
  "lǐng ": 2171,
  "yòu ": 2172,
  "fǎn ": 2173,
  "wēi ": 2174,
  " zhǔ ": 2175,
  "huó ": 2176,
  "xí ": 2177,
  "tíng ": 2178,
  "kǎ ": 2179,
  "chá ": 2180,
  " gāi ": 2181,
  " xiàng ": 2182,
  "cái ": 2183,
  "gòu ": 2184,
  "shuō ": 2185,
  "mén ": 2186,
  "cí ": 2187,
  "2 ": 2188,
  "xiǎng ": 2189,
  "mǔ ": 2190,
  "lèi ": 2191,
  "wěi ": 2192,
  "qǔ ": 2193,
  " gōng lǐ ": 2194,
  "yán jiū": 2195,
  " duō ": 2196,
  "tuán ": 2197,
  "yǐn ": 2198,
  "jiàn ": 2199,
  " yě ": 2200,
  "cháo ": 2201,
  "yìng ": 2202,
  "chén ": 2203,
  "táng ": 2204,
  "xiē ": 2205,
  "qí ": 2206,
  "pǐn ": 2207,
  " yǐ jí ": 2208,
  "jià ": 2209,
  "shǐ yòng ": 2210,
  "jiě ": 2211,
  "háng ": 2212,
  "yǐ ": 2213,
  "lún ": 2214,
  "róng ": 2215,
  "é ": 2216,
  "jiǎng ": 2217,
  " yóu": 2218,
  "pái ": 2219,
  "fū ": 2220,
  "jiǔ ": 2221,
  "lìng ": 2222,
  "tái wān": 2223,
  " hào ": 2224,
  " wàn": 2225,
  " de dì ": 2226,
  "xū ": 2227,
  "kě yǐ ": 2228,
  "huáng ": 2229,
  "xiān ": 2230,
  "duàn ": 2231,
  "kè ": 2232,
  "dǎng ": 2233,
  "mó ": 2234,
  "cān ": 2235,
  "yíng ": 2236,
  "tiáo ": 2237,
  "biāo ": 2238,
  " de yī ": 2239,
  "kāi shǐ ": 2240,
  "quán ": 2241,
  "zhǎn ": 2242,
  " chéng wéi ": 2243,
  "yě ": 2244,
  "hóng ": 2245,
  "méi yǒu ": 2246,
  "hàn ": 2247,
  "yīn ": 2248,
  "wěi yuán ": 2249,
  "qiān ": 2250,
  "bǎn ": 2251,
  "xiàn ": 2252,
  "líng ": 2253,
  "xiāo ": 2254,
  " tóng ": 2255,
  "huí ": 2256,
  "sū ": 2257,
  "fáng ": 2258,
  "méng ": 2259,
  "zhuāng ": 2260,
  "kōng ": 2261,
  "jú ": 2262,
  "cūn ": 2263,
  "bāo kuò ": 2264,
  "rén kǒu ": 2265,
  " qí zhōng ": 2266,
  "huò ": 2267,
  " gōng sī ": 2268,
  "zǐ ": 2269,
  "xíng ": 2270,
  "dōu ": 2271,
  " de shì ": 2272,
  "   zài ": 2273,
  "qiáng ": 2274,
  "zhào ": 2275,
  "dú ": 2276,
  "zhèng zhì ": 2277,
  "yí gè": 2278,
  "mò ": 2279,
  "bīng ": 2280,
  "cǎi ": 2281,
  "3 ": 2282,
  "fǎ guó ": 2283,
  " gāo ": 2284,
  " dà xué ": 2285,
  " shì yī ": 2286,
  "hái ": 2287,
  "hú ": 2288,
  "chù ": 2289,
  " tā de ": 2290,
  "qīn ": 2291,
  "lùn ": 2292,
  " fēn ": 2293,
  "fàn ": 2294,
  "zhēn ": 2295,
  "guāng ": 2296,
  "wèn ": 2297,
  "màn ": 2298,
  "shè ": 2299,
  " jié ": 2300,
  "biǎo shì ": 2301,
  "ài ": 2302,
  "zhōng de ": 2303,
  "jū ": 2304,
  " jiào ": 2305,
  "zhuān ": 2306,
  "diào ": 2307,
  "bái ": 2308,
  "dǎ ": 2309,
  "què ": 2310,
  "diàn shì ": 2311,
  " dōng ": 2312,
  "fèi ": 2313,
  " shì wèi ": 2314,
  " dù ": 2315,
  " mù ": 2316,
  "hán ": 2317,
  "shì de ": 2318,
  " tè ": 2319,
  "xùn ": 2320,
  " jīn ": 2321,
  "piàn ": 2322,
  "mìng ": 2323,
  "jǔ ": 2324,
  " jiāng ": 2325,
  "tuō ": 2326,
  "gù ": 2327,
  " rén kǒu ": 2328,
  "xiū ": 2329,
  " bù fèn ": 2330,
  "xié ": 2331,
  "zào ": 2332,
  " hé guó ": 2333,
  "zhōng guó ": 2334,
  "guǒ ": 2335,
  "10 yuè ": 2336,
  "shōu ": 2337,
  " zuì": 2338,
  "xìn ": 2339,
  "12 yuè ": 2340,
  "7 yuè ": 2341,
  "5 ": 2342,
  "9 yuè ": 2343,
  "zhuǎn ": 2344,
  "tā ": 2345,
  "dāng ": 2346,
  "wū ": 2347,
  "miàn jī ": 2348,
  " rén mín ": 2349,
  "8 yuè ": 2350,
  "xún ": 2351,
  " dì qū ": 2352,
  "3 yuè ": 2353,
  " shī ": 2354,
  " guò ": 2355,
  "1 yuè ": 2356,
  "4 ": 2357,
  " jīng ": 2358,
  "dí ": 2359,
  "gǎn ": 2360,
  "huán ": 2361,
  "jiǎ ": 2362,
  "xiá ": 2363,
  "5 yuè ": 2364,
  " suǒ ": 2365,
  "yīng guó ": 2366,
  "dào ": 2367,
  " cǐ ": 2368,
  "dǐ ": 2369,
  " shǒu ": 2370,
  "zhū ": 2371,
  "tīng ": 2372,
  "zhèng shì ": 2373,
  "chóng ": 2374,
  "huǒ ": 2375,
  "6 yuè ": 2376,
  "zhōu ": 2377,
  "zhuàng ": 2378,
  "chéng shì ": 2379,
  "4 yuè ": 2380,
  " guó jiā ": 2381,
  "tián ": 2382,
  "gèng ": 2383,
  "   dì ": 2384,
  "fàng ": 2385,
  "yǒng ": 2386,
  "shǔ yú ": 2387,
  " píng fāng": 2388,
  "pò ": 2389,
  "jūn ": 2390,
  " dì yī ": 2391,
  " qián ": 2392,
  "11 yuè ": 2393,
  "qún ": 2394,
  "qù ": 2395,
  "jiàng ": 2396,
  "táo ": 2397,
  " shì jì ": 2398,
  " píng fāng gōng lǐ ": 2399,
  " tóng shí ": 2400,
  "dān rèn ": 2401,
  "gēn ": 2402,
  " rú ": 2403,
  " mǎ ": 2404,
  "jǐ ": 2405,
  " děng ": 2406,
  "bié ": 2407,
  "pài ": 2408,
  "dū ": 2409,
  "liáng ": 2410,
  "shǎo ": 2411,
  "huī ": 2412,
  "tiě ": 2413,
  "nóng ": 2414,
  " nián 1 yuè ": 2415,
  "tǎ ": 2416,
  "diàn yǐng ": 2417,
  "zōng ": 2418,
  "chǔ ": 2419,
  " qī ": 2420,
  " zhè": 2421,
  "sǐ ": 2422,
  "ěr ": 2423,
  " tiān ": 2424,
  " de shí ": 2425,
  "shuāng ": 2426,
  "qiáo ": 2427,
  "tái wān ": 2428,
  " suì": 2429,
  "gēn jù ": 2430,
  "lì shǐ ": 2431,
  "chú ": 2432,
  " shì zhèn ": 2433,
  "gào ": 2434,
  "bài ": 2435,
  "cān jiā ": 2436,
  "yùn dòng": 2437,
  "gāng ": 2438,
  "chē zhàn ": 2439,
  "guó de ": 2440,
  "jiǎo ": 2441,
  " yīn wèi ": 2442,
  "s ": 2443,
  " rì běn ": 2444,
  " píng fāng ": 2445,
  "lì de ": 2446,
  " nián de ": 2447,
  "gài ": 2448,
  "pàn ": 2449,
  " wén ": 2450,
  " hǎi ": 2451,
  "zhèng fǔ ": 2452,
  "bìng ": 2453,
  "zhǔn ": 2454,
  " nián 12 yuè ": 2455,
  "wǎ ": 2456,
  "yàn ": 2457,
  "6 ": 2458,
  "wǒ ": 2459,
  "gòng hé guó ": 2460,
  " xiàn de ": 2461,
  " fú ": 2462,
  "yá ": 2463,
  "yín ": 2464,
  "fā xiàn ": 2465,
  "formula ": 2466,
  "chuàng ": 2467,
  "hēi ": 2468,
  "huàn ": 2469,
  "qū de ": 2470,
  "sòng ": 2471,
  "hā ": 2472,
  "hěn ": 2473,
  "tí gōng ": 2474,
  " suǒ": 2475,
  "jìn xíng ": 2476,
  " běi ": 2477,
  "léi ": 2478,
  "2 yuè ": 2479,
  "jīng jì ": 2480,
  "tōng guò ": 2481,
  " nián 3 yuè ": 2482,
  "suí ": 2483,
  "chuān ": 2484,
  " wàn ": 2485,
  "qiě ": 2486,
  " zhōng yāng": 2487,
  " guó jì ": 2488,
  "huā ": 2489,
  "shàng de ": 2490,
  " yóu yú ": 2491,
  "lēi ": 2492,
  " yòu ": 2493,
  "wěi yuán huì ": 2494,
  "kǎo ": 2495,
  " nián 7 yuè ": 2496,
  "wán ": 2497,
  "chēng wéi ": 2498,
  " nián 10 yuè ": 2499,
  "bǎi ": 2500,
  "dēng ": 2501,
  " shì jiè ": 2502,
  " yīn cǐ ": 2503,
  "míng wèi ": 2504,
  " jìn xíng ": 2505,
  "nuò ": 2506,
  " shì zài ": 2507,
  " rán ": 2508,
  "chōng ": 2509,
  "zhǔ yì ": 2510,
  " nián 9 yuè ": 2511,
  " tā men ": 2512,
  "kuài ": 2513,
  "yán jiū ": 2514,
  "tǔ ": 2515,
  " zhī hòu ": 2516,
  "qiú ": 2517,
  "mài ": 2518,
  "shí de ": 2519,
  "liàn ": 2520,
  "hào ": 2521,
  " nián 5 yuè ": 2522,
  "sà ": 2523,
  "lú ": 2524,
  "xì tǒng ": 2525,
  "pèi ": 2526,
  " zuì ": 2527,
  "lǔ ": 2528,
  " nián 4 yuè ": 2529,
  "chǐ ": 2530,
  "liào ": 2531,
  " dāng ": 2532,
  " nián 8 yuè ": 2533,
  " nián 6 yuè ": 2534,
  " lián ": 2535,
  " yīng ": 2536,
  " xíng de ": 2537,
  "zēng ": 2538,
  "rén de ": 2539,
  "xuān ": 2540,
  "xiāng gǎng ": 2541,
  " shǐ ": 2542,
  "qī jiān ": 2543,
  "ēn ": 2544,
  "dé ": 2545,
  "kuàng ": 2546,
  "guǎn lǐ ": 2547,
  " gōng zuò ": 2548,
  "piào ": 2549,
  " zhī yī ": 2550,
  "xǔ ": 2551,
  "dī ": 2552,
  "héng ": 2553,
  "dà de ": 2554,
  "bǔ ": 2555,
  "yàng ": 2556,
  "sēn ": 2557,
  " zhōng xīn ": 2558,
  "xuān bù ": 2559,
  "tuī ": 2560,
  " nián 11 yuè ": 2561,
  "zǔ zhī ": 2562,
  "rì ": 2563,
  "wàng ": 2564,
  "bù de ": 2565,
  "pí ": 2566,
  "men ": 2567,
  " bāo kuò ": 2568,
  "chàng ": 2569,
  "yǐng xiǎng ": 2570,
  "yǎng ": 2571,
  " tā zài ": 2572,
  "qiān mǐ ": 2573,
  "sāi ": 2574,
  "ér ": 2575,
  "   shēng ": 2576,
  " huò dé ": 2577,
  "pī ": 2578,
  " shì jiè": 2579,
  "luó sī ": 2580,
  "hè ": 2581,
  "kě néng": 2582,
  "chéng de ": 2583,
  " gāi": 2584,
  " qīng ": 2585,
  "niàn ": 2586,
  "dùn ": 2587,
  "xián ": 2588,
  " měi": 2589,
  " C": 2590,
  "s   ": 2591,
  " ā ": 2592,
  "lóu ": 2593,
  "qí tā ": 2594,
  " nián 2 yuè ": 2595,
  " chéng lì ": 2596,
  "le yī ": 2597,
  "bāng ": 2598,
  "huó dòng ": 2599,
  " rèn wéi ": 2600,
  "liù ": 2601,
  " lái ": 2602,
  "yōu ": 2603,
  " shù ": 2604,
  " bǐ ": 2605,
  "kē xué ": 2606,
  "fā zhǎn ": 2607,
  " fēn": 2608,
  "huò dé ": 2609,
  "jùn ": 2610,
  " zuò wéi ": 2611,
  " luó ": 2612,
  "yā ": 2613,
  " píng fāng qiān mǐ ": 2614,
  "huá rén mín ": 2615,
  " wú ": 2616,
  "rì běn ": 2617,
  "bēi ": 2618,
  "lǎo ": 2619,
  "huì yì ": 2620,
  "rè ": 2621,
  " zhí": 2622,
  "kù ": 2623,
  "tán ": 2624,
  "jiān de ": 2625,
  "tiě lù ": 2626,
  " liú ": 2627,
  " de rén ": 2628,
  "yòng yú ": 2629,
  "liáo ": 2630,
  "níng ": 2631,
  " shí jiān ": 2632,
  " de gōng ": 2633,
  "gè ": 2634,
  " shān ": 2635,
  "miǎn ": 2636,
  "miàn jī": 2637,
  "yìn ": 2638,
  "ruì ": 2639,
  "mín guó ": 2640,
  "wū kè ": 2641,
  " yán ": 2642,
  "ōu ": 2643,
  "xiǎn ": 2644,
  "lè ": 2645,
  "7 ": 2646,
  "zuǒ ": 2647,
  "gòng yǒu ": 2648,
  "   lì shǐ ": 2649,
  " A": 2650,
  "hǎo ": 2651,
  "āi ": 2652,
  " zhāng ": 2653,
  "   shēng píng ": 2654,
  "huá rén mín gòng hé guó ": 2655,
  "fāng shì ": 2656,
  "fā shēng ": 2657,
  "gān ": 2658,
  " cóng ": 2659,
  "dòu ": 2660,
  "wèn tí ": 2661,
  " zhí ": 2662,
  "guàn jūn ": 2663,
  "zhǔ yào ": 2664,
  "rán ": 2665,
  "dì de ": 2666,
  " dì èr ": 2667,
  "dǎo zhì ": 2668,
  "guān xì ": 2669,
  "cún ": 2670,
  "kāng ": 2671,
  "cān yù ": 2672,
  "yuǎn ": 2673,
  " bù fèn": 2674,
  "zhěng ": 2675,
  " gōng chéng ": 2676,
  "wán chéng ": 2677,
  "dān wèi ": 2678,
  "kě néng ": 2679,
  " xiǎo ": 2680,
  "yī wèi ": 2681,
  " jǐn ": 2682,
  " wǔ ": 2683,
  " zhǐ ": 2684,
  "1 rì ": 2685,
  "xiè ": 2686,
  "   S": 2687,
  "ge ": 2688,
  "suǒ yǒu ": 2689,
  " zé ": 2690,
  "zhì de ": 2691,
  "wén huà ": 2692,
  " zǒng ": 2693,
  " chéng yuán ": 2694,
  " de chéng ": 2695,
  "8 ": 2696,
  "lǚ ": 2697,
  "gěi ": 2698,
  " 18": 2699,
  "yuán de ": 2700,
  "yōng yǒu ": 2701,
  "cún zài ": 2702,
  "èr shí ": 2703,
  " tōng ": 2704,
  "běi bù ": 2705,
  " bā ": 2706,
  "lián hé ": 2707,
  "hòu de ": 2708,
  "niǔ ": 2709,
  " shì zhōng ": 2710,
  "zhèng fǔ": 2711,
  "yóu yú ": 2712,
  "guó jiā ": 2713,
  "duì yú ": 2714,
  " nián zhì ": 2715,
  "fā xíng ": 2716,
  "yì de ": 2717,
  "jù yǒu ": 2718,
  " jiàn zhù ": 2719,
  "bǐ sài ": 2720,
  " bìng zài ": 2721,
  " dào le ": 2722,
  "è ": 2723,
  " zhǐ": 2724,
  "xīn de ": 2725,
  "sī de ": 2726,
  "shěn ": 2727,
  "yún ": 2728,
  "zì jǐ": 2729,
  "yùn dòng ": 2730,
  "xíng zhèng ": 2731,
  "yìn dù ": 2732,
  "é luó sī ": 2733,
  " 15": 2734,
  "bīn ": 2735,
  " miàn jī ": 2736,
  "dài biǎo ": 2737,
  "shào ": 2738,
  " měi guó ": 2739,
  " lìng ": 2740,
  "xǔ duō ": 2741,
  " dàn shì ": 2742,
  "rèn hé ": 2743,
  "shēng yú ": 2744,
  "tū ": 2745,
  "guì ": 2746,
  " nián dài ": 2747,
  " S": 2748,
  "dīng ": 2749,
  "liǎng gè ": 2750,
  "chè ": 2751,
  "bǎo hù ": 2752,
  " rén kǒu mì ": 2753,
  " jiǎn ": 2754,
  "xiù ": 2755,
  " shǐ": 2756,
  "mǎn ": 2757,
  "zh ": 2758,
  "xuán ": 2759,
  " dāng shí ": 2760,
  "zhàng ": 2761,
  " de yí gè ": 2762,
  "nán bù ": 2763,
  "jǔ xíng ": 2764,
  "zhuān jí ": 2765,
  "miàn jī wèi ": 2766,
  " diàn ": 2767,
  "lái de ": 2768,
  " 0": 2769,
  " xì ": 2770,
  "fān ": 2771,
  " guān ": 2772,
  "   C": 2773,
  "zǎo ": 2774,
  " zhèng fǔ ": 2775,
  "fú wù ": 2776,
  "dú lì ": 2777,
  "jué dìng ": 2778,
  " chū de ": 2779,
  "zhǔ yào": 2780,
  "ruò ": 2781,
  "xiě ": 2782,
  "kāi shǐ": 2783,
  " lì shǐ ": 2784,
  "qǐng ": 2785,
  " céng ": 2786,
  " shè jì ": 2787,
  "n ": 2788,
  " sān ": 2789,
  " wáng ": 2790,
  "míng de ": 2791,
  " měi ": 2792,
  "hài ": 2793,
  "ràng ": 2794,
  " shì wèi yú ": 2795,
  "jiù shì ": 2796,
  " yǒu yī ": 2797,
  " B": 2798,
  "gēng ": 2799,
  "gt ": 2800,
  " cǐ": 2801,
  " gt ": 2802,
  "xǐ ": 2803,
  " jiāng": 2804,
  "tàn ": 2805,
  " qí tā ": 2806,
  " xíng zhèng ": 2807,
  "péi ": 2808,
  "jiào yù ": 2809,
  "suàn ": 2810,
  "shòu dào ": 2811,
  " 16": 2812,
  "lt ": 2813,
  "   A": 2814,
  "rèn wéi ": 2815,
  " fēng ": 2816,
  "fǎng ": 2817,
  " shì dì ": 2818,
  "fā zhǎn": 2819,
  "wǎn ": 2820,
  "kān ": 2821,
  "shàn ": 2822,
  "shè huì ": 2823,
  " lt ": 2824,
  "yì wèi ": 2825,
  "gù shì ": 2826,
  "piān ": 2827,
  "fāng miàn ": 2828,
  " xiàn zài ": 2829,
  "qū wèi ": 2830,
  " zuì zhōng ": 2831,
  "qín ": 2832,
  " bì ": 2833,
  " P": 2834,
  " jiē ": 2835,
  " zhōng yāng ": 2836,
  " shì shì ": 2837,
  "tuì ": 2838,
  "pào ": 2839,
  "zhe ": 2840,
  "nèi de ": 2841,
  "9 ": 2842,
  "shǔ de ": 2843,
  "xiāng gǎng": 2844,
  " jiù ": 2845,
  "xiǎo shí ": 2846,
  "dàn ": 2847,
  " lì rú ": 2848,
  "zú qiú ": 2849,
  "shù jù ": 2850,
  " bù tóng": 2851,
  "qiāng ": 2852,
  "liè chē ": 2853,
  "xū yào ": 2854,
  "huà de ": 2855,
  "zhí wù ": 2856,
  "rén shì ": 2857,
  " suī": 2858,
  "kàn ": 2859,
  "shǐ yòng": 2860,
  "zuò de ": 2861,
  "zēng jiā ": 2862,
  " jì huà ": 2863,
  "mín zhǔ ": 2864,
  " shí qī ": 2865,
  "zuò wéi ": 2866,
  " qū ": 2867,
  "kòng zhì ": 2868,
  " yě shì ": 2869,
  "tǎn ": 2870,
  " gǔ ": 2871,
  "duǎn ": 2872,
  " jiàn de ": 2873,
  "a ": 2874,
  "yīn yuè ": 2875,
  " rán ér ": 2876,
  "   P": 2877,
  " dòng ": 2878,
  " 17": 2879,
  "láng ": 2880,
  " yǐ jīng ": 2881,
  " hé zuò ": 2882,
  " shǔ yú ": 2883,
  " zài dì ": 2884,
  "rén mín ": 2885,
  " shì jiàn ": 2886,
  " rén yuán ": 2887,
  " ān ": 2888,
  "tā de ": 2889,
  " jiàn yú ": 2890,
  "xué yuàn ": 2891,
  "zǔ chéng ": 2892,
  " yòu": 2893,
  "chāo guò ": 2894,
  "zuò pǐn ": 2895,
  " céng": 2896,
  " yīn yuè ": 2897,
  " mǎ": 2898,
  "mào ": 2899,
  " gé ": 2900,
  " quán guó ": 2901,
  " kē ": 2902,
  "xióng ": 2903,
  "zǎi ": 2904,
  "hū ": 2905,
  "huì de ": 2906,
  "jì de ": 2907,
  "zǒng tǒng ": 2908,
  " sì ": 2909,
  " zhè xiē ": 2910,
  " wèi le ": 2911,
  "10 ": 2912,
  " hòu lái ": 2913,
  "yú shì ": 2914,
  "t ": 2915,
  " pǔ ": 2916,
  "xiōng ": 2917,
  " chéng gōng ": 2918,
  "fā bù ": 2919,
  " shòu ": 2920,
  " tài ": 2921,
  "dà lì ": 2922,
  "tí chū ": 2923,
  " lì yà ": 2924,
  " 000": 2925,
  " yì yuán ": 2926,
  " shè yǒu ": 2927,
  " T": 2928,
  " yīn cǐ": 2929,
  " M": 2930,
  "yùn dòng yuán ": 2931,
  "yāo qiú ": 2932,
  "hán guó ": 2933,
  "bù zài ": 2934,
  "pín ": 2935,
  "ní yà": 2936,
  "yǒu de ": 2937,
  "   de ": 2938,
  "pú ": 2939,
  "qiū ": 2940,
  "zào chéng ": 2941,
  "ōu zhōu ": 2942,
  "cǎi yòng ": 2943,
  "xiǎo xíng ": 2944,
  " gōng yuán ": 2945,
  "jiā de ": 2946,
  "xìng de ": 2947,
  "shēng de ": 2948,
  " de yí gè": 2949,
  " rì zài ": 2950,
  "dāng shí ": 2951,
  "kòng ": 2952,
  "fèng ": 2953,
  "bǎ ": 2954,
  "rén wù ": 2955,
  " cǐ wài ": 2956,
  "gòng chǎn ": 2957,
  " suí": 2958,
  " lā ": 2959,
  " zh ": 2960,
  " D": 2961,
  " cóng": 2963,
  " wǒ ": 2964,
  "wān ": 2965,
  " shì hé ": 2966,
  "2010 nián ": 2967,
  " E": 2968,
  " lìng": 2969,
  " H": 2970,
  "mǎ wèi ": 2971,
  " de bù ": 2972,
  "máo ": 2973,
  "xué jiā ": 2974,
  "yóu xì ": 2975,
  "   B": 2976,
  "sōng ": 2977,
  " shā ": 2978,
  "fàn wéi ": 2979,
  " tǐ ": 2980,
  " bù tóng ": 2981,
  " gēn jù ": 2982,
  "kāi fā ": 2983,
  "shè jì ": 2984,
  "chāo ": 2985,
  "dūn ": 2986,
  "sān nián ": 2987,
  "qǔ dé ": 2988,
  " nǚ ": 2989,
  " de jī ": 2990,
  " kě ": 2991,
  "sài shì ": 2992,
  " 1": 2993,
  " xíng chéng ": 2994,
  " zhǎng ": 2995,
  "   dì lǐ ": 2996,
  "yáo ": 2997,
  "   shì ": 2998,
  "ā ěr ": 2999,
  "zì zhì ": 3000,
  "chǎn shēng ": 3001,
  " wù ": 3002,
  "dǐng ": 3003,
  " de jì ": 3004,
  "wēn ": 3005,
  "jié mù ": 3006,
  "shū jì ": 3007,
  " suì ": 3008,
  "nǐ ": 3009,
  " bìng yú ": 3010,
  "dōu shì ": 3011,
  "chóng xīn ": 3012,
  "xì tǒng": 3013,
  "zàn ": 3014,
  "lüè ": 3015,
  " shè huì ": 3016,
  "chūn ": 3017,
  "zhòng yào": 3018,
  "lǐ de ": 3019,
  "bú shì ": 3020,
  " dài biǎo ": 3021,
  "yī nián ": 3022,
  " xiāng gǎng ": 3023,
  "diàn yǐng": 3024,
  " sī tè ": 3025,
  "zhuī ": 3026,
  " liǎng ": 3027,
  "guān yú ": 3028,
  "dàng ": 3029,
  "jué sè ": 3030,
  " nà ": 3031,
  " fú": 3032,
  "jiāo tōng ": 3033,
  "lǎng ": 3034,
  " fǎ ": 3035,
  " yóu xì ": 3036,
  "dà xué ": 3037,
  " yí ": 3038,
  "jí de ": 3039,
  "mí ": 3040,
  "gē qǔ ": 3041,
  "chú le ": 3042,
  " chū xiàn ": 3043,
  "2020 nián ": 3044,
  "tǎo ": 3045,
  " jié": 3046,
  " zhì zuò ": 3047,
  " dà xué": 3048,
  "píng jūn ": 3049,
  " dé guó ": 3050,
  "xiǎn shì ": 3051,
  " chén ": 3052,
  "   T": 3053,
  "huá mín guó ": 3054,
  " nián zài ": 3055,
  "y ": 3056,
  " shēn ": 3057,
  " zhōng huá rén mín gòng hé guó ": 3058,
  "kǒng ": 3059,
  "hòu zài ": 3060,
  "kuò ": 3061,
  "miáo ": 3062,
  " nián dài": 3063,
  "èr nián ": 3064,
  " liǎng": 3065,
  "xià de ": 3066,
  " 19": 3067,
  "yǎn yuán ": 3068,
  "A ": 3069,
  " kè sī ": 3070,
  " jiān ": 3071,
  "dé guó ": 3072,
  "   M": 3073,
  "xiáng ": 3074,
  "   F": 3075,
  "   H": 3076,
  " F": 3077,
  " 1 ": 3078,
  "wéi yī ": 3079,
  "cǎo ": 3080,
  "qìng ": 3081,
  "dāng dì ": 3082,
  "guó jì ": 3083,
  "duì de ": 3084,
  "bó wù ": 3085,
  " bǎo ": 3086,
  " jiàn lì ": 3087,
  "hūn ": 3088,
  " dì guó ": 3089,
  "   G": 3090,
  " bù yú ": 3091,
  " fēi ": 3092,
  "fǎn duì ": 3093,
  "qī de ": 3094,
  "duān ": 3095,
  "wù de ": 3096,
  "zǒu ": 3097,
  "xuè ": 3098,
  "yīn wèi ": 3099,
  "qū yù ": 3100,
  " 2": 3101,
  "qù shì ": 3102,
  "yī bù fèn ": 3103,
  "bá gāo ": 3104,
  "wò ": 3105,
  "quē ": 3106,
  "2001 nián ": 3107,
  "guǎn xiá ": 3108,
  " cháng ": 3109,
  " G": 3110,
  " N": 3111,
  "dù wèi ": 3112,
  "zhèng zhì rén wù ": 3113,
  "ní yà ": 3114,
  "hái yǒu ": 3115,
  "péng ": 3116,
  "   rén kǒu ": 3117,
  " dāng dì ": 3118,
  " kǎ ": 3119,
  "zuì zhōng ": 3120,
  " yuē ": 3123,
  " tā shì ": 3124,
  " bù duì ": 3125,
  "lái zì ": 3126,
  "bǐ sài": 3127,
  " xíng shì ": 3128,
  "chì ": 3129,
  "kuǎn ": 3130,
  "zhí yè ": 3131,
  "qián wǎng ": 3132,
  " dān ": 3133,
  "dìng de ": 3134,
  " wēi ": 3135,
  "quán guó ": 3136,
  " 3": 3137,
  "bā shì ": 3138,
  "yī bù ": 3139,
  " de yuán ": 3140,
  " zhèng fǔ": 3141,
  "zhòng yào ": 3142,
  "diào chá ": 3143,
  " chú ": 3144,
  " zhī jiān ": 3145,
  " lín ": 3146,
  "biān mǎ wèi ": 3147,
  " fā ": 3148,
  " nián jiān ": 3149,
  " huáng ": 3150,
  " xué míng ": 3151,
  " 14": 3152,
  "xué xiào ": 3153,
  "zhāo ": 3154,
  "zhǔ xí ": 3155,
  "xuǎn jǔ ": 3156,
  " rì zhì ": 3157,
  "gǎi wéi ": 3158,
  "zǔ zhī": 3159,
  "zhǔ jiào ": 3160,
  " nèi ": 3161,
  "zī liào ": 3162,
  "fá ": 3163,
  "hǎi jūn ": 3164,
  "gōng shì ": 3165,
  " jūn shì ": 3166,
  " de dà ": 3167,
  "sūn ": 3168,
  " rén kǒu mì dù ": 3169,
  "chǔ lǐ ": 3170,
  "zāi ": 3171,
  " de yì ": 3172,
  " jìng ": 3173,
  "fāng fǎ ": 3174,
  "kàng ": 3175,
  "fù zé ": 3176,
  " duō": 3177,
  " rì běn": 3178,
  "wū kè lán ": 3179,
  "   yǔ ": 3180,
  "guàn ": 3181,
  "shù de ": 3182,
  " yǒu xiàn": 3183,
  "dài biǎo": 3184,
  " bō ": 3185,
  " gè rén ": 3186,
  "wú fǎ ": 3187,
  "yǐng xiǎng": 3188,
  " jì shù ": 3189,
  " shì yóu ": 3190,
  " sān": 3191,
  "jiē rǎng": 3192,
  "zuì gāo ": 3193,
  "jū mín ": 3194,
  " shèng ": 3195,
  "pà ": 3196,
  "xì liè ": 3197,
  "qiè ": 3198,
  " huà ": 3199,
  "qí zhōng ": 3200,
  "lù de ": 3201,
  " méi ": 3203,
  " jiè ": 3204,
  "xué shēng ": 3205,
  " 2 ": 3206,
  " 12": 3207,
  " zhī chí ": 3208,
  " hóng ": 3209,
  "zì yóu ": 3210,
  "biāo zhǔn ": 3211,
  "wěn ": 3212,
  "xié huì ": 3213,
  "shù liàng": 3214,
  "ān quán ": 3215,
  "fǎn yìng ": 3216,
  "kě yǐ": 3217,
  "kěn ": 3218,
  "huì zài ": 3219,
  "yāo ": 3220,
  "yé ": 3221,
  " gǎi ": 3222,
  "shèn zhì ": 3223,
  "bǐ lì ": 3224,
  "tǒng zhì ": 3225,
  "lián méng ": 3226,
  "chuàng zuò ": 3227,
  "zhǔ rèn ": 3228,
  "kǎi ": 3229,
  " suí ": 3230,
  "   běn ": 3231,
  " kāi ": 3232,
  "dōng bù ": 3233,
  " de yí gè shì zhèn ": 3234,
  " xīn": 3235,
  " shì yí gè ": 3236,
  " gōng sī": 3237,
  "gāi guó ": 3238,
  "yǎ ": 3239,
  " fù zé ": 3240,
  "fán ": 3241,
  " nán": 3242,
  " zé": 3243,
  "y   ": 3244,
  " dì sān ": 3245,
  "tǐ yù ": 3246,
  " dì shí ": 3247,
  "   xíng zhèng ": 3248,
  "jié gòu ": 3249,
  " sū ": 3250,
  " bù guò ": 3251,
  "m ": 3252,
  " qǐ ": 3253,
  " dào de ": 3254,
  "shí nián ": 3255,
  "qíng kuàng ": 3256,
  "néng lì ": 3257,
  "niú ": 3258,
  "nán zi ": 3259,
  "mǒu ": 3260,
  "zhōng shì ": 3261,
  "qíng kuàng": 3262,
  "sì nián ": 3263,
  "suō ": 3264,
  "xī bù ": 3265,
  "gōng bù ": 3266,
  "jiē shòu ": 3267,
  "shēng huó ": 3268,
  " K": 3269,
  "nǚ zǐ ": 3270,
  " ào": 3271,
  "lù xiàn ": 3272,
  " gē ": 3273,
  "chéng lì ": 3274,
  " zhōng xué ": 3275,
  "   formula ": 3276,
  " shuǐ ": 3277,
  "miàn de ": 3278,
  "gū ": 3279,
  "huān ": 3280,
  "wàn ": 3281,
  " jìn rù ": 3282,
  "yì shì ": 3283,
  " ěr sī ": 3284,
  "lián sài ": 3285,
  "běi jīng ": 3286,
  " zhǔ yào ": 3287,
  "e ": 3288,
  "a   ": 3289,
  " bā": 3290,
  "yǒu shí ": 3291,
  " ào ": 3292,
  " yì huì ": 3293,
  "guǎng dōng ": 3294,
  " yáng ": 3295,
  " míng": 3296,
  " kě yǐ ": 3297,
  "duó ": 3298,
  "háo ": 3299,
  "   jiā ": 3300,
  "láo ": 3301,
  "jiàn zhù ": 3302,
  "yà zhōu ": 3303,
  "dǎo de ": 3304,
  " guó mín ": 3305,
  "yě shì ": 3306,
  "ná dà ": 3307,
  "dòng wù ": 3308,
  "tài píng ": 3309,
  " suǒ yǐ ": 3310,
  "   the": 3311,
  "zhuàn ": 3312,
  "dì wèi ": 3313,
  " zhè shì ": 3314,
  "bá gāo dù ": 3315,
  "dá dào ": 3316,
  "zì jǐ de ": 3317,
  "lǐ shì ": 3318,
  "zhú jiàn ": 3319,
  " bìng qiě": 3320,
  " tái ": 3321,
  "dài de ": 3322,
  "bǎn běn ": 3323,
  "guǐ ": 3324,
  "xiàng mù ": 3325,
  "rǎn ": 3326,
  "xǔ duō": 3327,
  "zhě de ": 3328,
  "jiào shòu ": 3329,
  "2008 nián ": 3330,
  " xué xiào ": 3331,
  "fēi cháng ": 3332,
  "wū kè lán": 3333,
  "2009 nián ": 3334,
  " xī yà ": 3335,
  "qīng nián ": 3336,
  " dà": 3337,
  " hái ": 3338,
  " bìng qiě ": 3339,
  " zǒng": 3340,
  "suān ": 3341,
  " zhǔ yào": 3342,
  "lā sī ": 3343,
  "   gēn jù ": 3344,
  "yī shì ": 3345,
  " hú ": 3346,
  " chéng wéi": 3347,
  "suì ": 3348,
  "rì běn": 3349,
  "mó shì ": 3350,
  "zhé ": 3351,
  " 4": 3352,
  "niǎo ": 3353,
  "wén wù ": 3354,
  " tā men de ": 3355,
  "zhǐ yǒu ": 3356,
  " yì shù ": 3357,
  "chā ": 3358,
  " jì lù ": 3359,
  " mǔ ": 3360,
  " zhōu de ": 3361,
  "háng kōng ": 3362,
  " ài ": 3363,
  "wén xué ": 3364,
  " yú shì ": 3365,
  "fēn wéi ": 3366,
  "   D": 3367,
  " bó ": 3368,
  " qí shì ": 3369,
  " qí yú ": 3370,
  "tōng guò": 3371,
  " èr ": 3372,
  "zhǐ chū ": 3373,
  " mín ": 3374,
  "děng rén ": 3375,
  " L": 3376,
  " 10": 3377,
  "huǐ ": 3378,
  "28 rì ": 3379,
  "shuài ": 3380,
  "cuò ": 3381,
  "cáng ": 3382,
  "rén kǒu pǔ ": 3383,
  "zhí xíng ": 3384,
  "tóng shí ": 3385,
  "hùn ": 3386,
  "zhí jiē ": 3387,
  " qiú duì ": 3388,
  "zhà ": 3389,
  " lì yà": 3390,
  "jǐn biāo ": 3391,
  "yǎn chū ": 3392,
  "T ": 3393,
  " jīn": 3394,
  "gāi dì ": 3395,
  " 13": 3396,
  "gé lán ": 3397,
  "2016 nián ": 3398,
  "zhè yī ": 3399,
  "huó dòng": 3400,
  "rèn wéi": 3401,
  "jìn rù ": 3402,
  " zhī jiān de ": 3403,
  " gōng kāi ": 3404,
  " dāng zhōng ": 3405,
  "gòng tóng ": 3406,
  "xià jì ": 3407,
  " dàn zài ": 3408,
  " 5": 3409,
  "zhàn zhēng ": 3410,
  "wǔ nián ": 3411,
  "jiāng jūn ": 3412,
  "chóu ": 3413,
  "méi tǐ ": 3414,
  " yòng ": 3415,
  "lè bù ": 3416,
  "tǐ de ": 3417,
  " I": 3418,
  "chē zhàn": 3419,
  "   E": 3420,
  "tuī chū ": 3421,
  "jiào yù": 3422,
  "yǔn ": 3423,
  "zhè xiē ": 3424,
  " shì wù ": 3425,
  "mèng ": 3426,
  "dié ": 3427,
  "pō ": 3428,
  "miào ": 3429,
  "lí kāi ": 3430,
  "tì ": 3431,
  " lìng wài ": 3432,
  "huán jìng ": 3433,
  " 6": 3434,
  "2012 nián ": 3435,
  "zhú ": 3436,
  "téng ": 3437,
  "lín pǐ": 3438,
  " dì èr": 3439,
  "shāng yè ": 3440,
  "2011 nián ": 3441,
  "chuán tǒng ": 3442,
  "   nián": 3443,
  "15 rì ": 3444,
  "dān qū ": 3445,
  "guān de ": 3446,
  "sān shí ": 3447,
  "jūn shì ": 3448,
  "liàng de ": 3449,
  "jiē dào ": 3450,
  "sàn ": 3451,
  "dòng huà ": 3452,
  "nèi róng ": 3453,
  "jī de ": 3454,
  "qián de ": 3455,
  " zhè ge ": 3456,
  " cì ": 3457,
  "rén zài ": 3458,
  "zàng ": 3459,
  "sài jì ": 3460,
  " yǐn ": 3461,
  "gāo de ": 3462,
  "bó shì ": 3463,
  "dù de ": 3464,
  " wèi rén ": 3465,
  "me ": 3466,
  "yín háng ": 3467,
  "xuǎn jǔ": 3468,
  " wèi zhì ": 3469,
  "chéng zhōng ": 3470,
  "mìng míng ": 3471,
  "děng dì ": 3472,
  " gōng lù ": 3473,
  "rè dài ": 3474,
  "sǔn ": 3475,
  " gù ": 3476,
  "běi jīng": 3477,
  " shí jì ": 3478,
  "yùn dòng huì ": 3479,
  "xuǎn zé ": 3480,
  " dà lì ": 3481,
  " ér zài ": 3482,
  "yuán nián ": 3483,
  "bào gào ": 3484,
  " de hé ": 3485,
  " mù qián ": 3486,
  "C ": 3487,
  "bō chū ": 3488,
  "zuì jiā ": 3489,
  " wú": 3490,
  "P ": 3491,
  "   jù ": 3492,
  "zōng jiào ": 3493,
  "xué wèi ": 3494,
  " hàn ": 3495,
  "tǔ dì ": 3496,
  " dé dào ": 3497,
  "bǎng ": 3498,
  "zuì hòu ": 3499,
  "wén huà": 3500,
  "tuán tǐ ": 3501,
  "25 rì ": 3502,
  " dì fāng ": 3503,
  " 5 ": 3504,
  "guǐ dào ": 3505,
  "luàn ": 3506,
  " wèi dì ": 3507,
  "jīng lì ": 3508,
  "xì de ": 3509,
  " zhī qián ": 3510,
  "shěng de yí gè shì zhèn ": 3511,
  "fēn bié": 3512,
  " shì yī zhǒng ": 3513,
  "d   ": 3514,
  " shì wèi yú měi guó ": 3515,
  " zhàn": 3516,
  "jí zhōng ": 3517,
  " 9": 3518,
  " gè yuè ": 3519,
  "o ": 3520,
  " jūn de ": 3521,
  "sǐ wáng ": 3522,
  "xiāng guān ": 3523,
  "shǒu cì ": 3524,
  " yè ": 3525,
  "30 rì ": 3526,
  " bāo kuò": 3527,
  " jī gòu ": 3528,
  "wèi de ": 3529,
  "ào lín pǐ": 3530,
  " mó ": 3531,
  " qì ": 3532,
  "lǐng dǎo ": 3533,
  " xìng ": 3534,
  " yǒu guān ": 3535,
  " mǐ": 3536,
  " hǎi bá gāo dù ": 3537,
  " yī xiē ": 3538,
  " tóng nián ": 3539,
  "t   ": 3540,
  "2014 nián ": 3541,
  "huái ": 3542,
  "yòng de ": 3543,
  "d ": 3544,
  "   wèi ": 3545,
  "20 rì ": 3546,
  "měi yuán ": 3547,
  " xíng dòng ": 3548,
  " zài yī ": 3549,
  "jī yú ": 3550,
  "xuě ": 3551,
  " zhōng huá mín guó ": 3552,
  "shuǐ yù ": 3553,
  "11 ": 3554,
  "biàn huà ": 3555,
  " jué ": 3556,
  "shàng wèi ": 3557,
  " jí tuán": 3558,
  " zhòng ": 3559,
  "2018 nián ": 3560,
  " jì xù ": 3561,
  "zhī yī ": 3562,
  " shí dài ": 3563,
  "S ": 3564,
  " R": 3565,
  "chǔ yú ": 3566,
  "UTC ": 3567,
  "gòng hé ": 3568,
  "jié shù ": 3569,
  " bù zhǎng ": 3570,
  "zì jǐ ": 3571,
  "2019 nián ": 3572,
  " zì jǐ": 3573,
  "zhī chí ": 3574,
  "2005 nián ": 3575,
  "guò chéng ": 3576,
  " hòu lái": 3577,
  "shùn ": 3578,
  " bái ": 3579,
  "10 rì ": 3580,
  "mín zú ": 3581,
  "2015 nián ": 3582,
  "kōng jiān ": 3583,
  "shuì ": 3584,
  " 8": 3585,
  " wài ": 3586,
  "bú huì ": 3587,
  "yè yú ": 3588,
  " rú": 3589,
  "tòu guò ": 3590,
  "mèi ": 3591,
  "nèi bù ": 3592,
  "2013 nián ": 3593,
  "jiě fàng": 3594,
  "xīn wén ": 3595,
  " zhí dào ": 3596,
  "fēn bù ": 3597,
  " yì zhí ": 3598,
  " sì": 3599,
  "gēn jù": 3600,
  " chēng ": 3601,
  " zhōu shì ": 3602,
  "pī píng ": 3603,
  " jí tuán ": 3604,
  "2007 nián ": 3605,
  "dì qū ": 3606,
  " 7": 3607,
  "D ": 3608,
  "   zhè ": 3609,
  " hé nán ": 3610,
  "tā men": 3611,
  " shì shí ": 3612,
  " yǒu xiàn gōng sī ": 3613,
  " jiù": 3614,
  "gé mìng ": 3615,
  "20 ": 3616,
  "wán jiā ": 3617,
  "guī dìng ": 3618,
  " ài": 3619,
  " zi ": 3620,
  " shǔ ": 3621,
  " jiā rù ": 3622,
  " jǐng ": 3623,
  "wán quán ": 3624,
  "chéng wéi ": 3625,
  "xī bān ": 3626,
  "zī gé ": 3627,
  " shén ": 3628,
  "26 rì ": 3629,
  "dà lù ": 3630,
  "   gāi ": 3631,
  " táng ": 3632,
  "2017 nián ": 3633,
  "ào lín pǐ kè ": 3634,
  " dà huì ": 3635,
  " 3 ": 3636,
  "24 rì ": 3637,
  "zài de ": 3638,
  "zá zhì ": 3639,
  " zhè zhǒng ": 3640,
  "yīng yǔ ": 3641,
  "pú táo ": 3642,
  "lù dì ": 3643,
  "qǐ yè ": 3644,
  "hé de ": 3645,
  "shàng hǎi ": 3646,
  " yīng guó ": 3647,
  "háo mǐ ": 3648,
  " yǔ yán ": 3649,
  "   yī ": 3650,
  "qí tā": 3651,
  "fāng de ": 3652,
  "hòu yī ": 3653,
  "luó mǎ ": 3654,
  " mò ": 3655,
  "sān gè ": 3656,
  "wèn tí": 3657,
  " chéng qū ": 3658,
  " kě": 3659,
  "sè de ": 3660,
  "2006 nián ": 3661,
  "chuán tǒng": 3662,
  " shì fǎ guó ": 3663,
  "yī de ": 3664,
  "18 rì ": 3665,
  "wù zhǒng ": 3666,
  " wèi yú gāi guó ": 3667,
  " lǐ sī ": 3668,
  "jìng nèi ": 3669,
  " bù tóng de ": 3670,
  " hā ": 3671,
  " tái wān ": 3672,
  "   of": 3673,
  "wù lǐ ": 3674,
  "duō de ": 3675,
  " mò": 3676,
  "shù wèi ": 3677,
  " dài biǎo": 3678,
  "   K": 3679,
  "biǎo xiàn ": 3680,
  "fǎ lǜ ": 3681,
  " shì jiè dà ": 3682,
  "shěng jí ": 3683,
  "miáo shù ": 3684,
  " tóu ": 3685,
  "jīng guò ": 3686,
  "guān yuán ": 3687,
  "gàn ": 3688,
  "21 ": 3689,
  " lú ": 3690,
  "chāng ": 3691,
  " ā": 3692,
  "   N": 3693,
  " zuì hòu ": 3694,
  "bà ": 3695,
  " yì bān ": 3696,
  "pò huài": 3697,
  " guó jiā": 3698,
  " yào ": 3699,
  "yíng dé ": 3700,
  "kuān ": 3701,
  "   W": 3702,
  "cài ": 3703,
  "zhèng zài ": 3704,
  " suí hòu ": 3705,
  "bāo hán ": 3706,
  " shì jiàn": 3707,
  "bó wù guǎn ": 3708,
  " O": 3709,
  " gōng jī ": 3710,
  "shèn ": 3711,
  "cè shì ": 3712,
  "chǎng de ": 3713,
  "zé shì ": 3714,
  " wèi zhōng ": 3715,
  " lì yòng ": 3716,
  "bù hé ": 3717,
  "ná ": 3718,
  "30 ": 3719,
  "fǎ yuàn ": 3720,
  "niè ": 3721,
  "fēi jī ": 3722,
  " fēn bù yú ": 3723,
  "   L": 3724,
  "shǐ de ": 3725,
  "zhuān yè ": 3726,
  "zhēng yì ": 3727,
  "27 rì ": 3728,
  "chún ": 3729,
  "16 rì ": 3730,
  "B ": 3731,
  " 2001 nián ": 3732,
  " dì qū": 3733,
  " cháo ": 3734,
  "21 rì ": 3735,
  "yì shí ": 3736,
  "yōng ": 3737,
  "17 rì ": 3738,
  "zāo dào ": 3739,
  " shì yì ": 3740,
  " shēng huó ": 3741,
  "12 rì ": 3742,
  " bèi chēng wéi ": 3743,
  "dìng yì ": 3744,
  " zhōng xīn": 3745,
  "8 rì ": 3746,
  " dà qū ": 3747,
  " suī rán": 3748,
  "zōng hé ": 3749,
  " zhàn zhēng ": 3750,
  " W": 3751,
  "xué de ": 3752,
  " xiàn shí ": 3753,
  " zhōng gòng": 3754,
  "jí wèi ": 3755,
  "23 rì ": 3756,
  "2021 nián ": 3757,
  "huáng dì ": 3758,
  " de zuò ": 3759,
  "zhǐ shì ": 3760,
  "2022 nián ": 3761,
  "11 rì ": 3762,
  "ā lā ": 3763,
  "jiāng qí ": 3764,
  "sōu ": 3765,
  "ōu zhōu": 3766,
  " bìng bù ": 3767,
  "yuán yú ": 3768,
  " zhū ": 3769,
  "fāng xiàng ": 3770,
  "zhàn de ": 3771,
  "liù nián ": 3772,
  "é luó ": 3773,
  " p": 3774,
  "chū xiàn ": 3775,
  "quán lì ": 3776,
  " chóng ": 3777,
  "   yú ": 3778,
  "guī mó ": 3779,
  "22 rì ": 3780,
  "liè chē": 3781,
  "7 rì ": 3782,
  "29 rì ": 3783,
  "liè de ": 3784,
  "zuì dà de ": 3785,
  "duō shù ": 3786,
  "xiàng de ": 3787,
  "nǎo ": 3788,
  "xū yào": 3789,
  "hái shì ": 3790,
  "yù de ": 3791,
  "néng gòu ": 3792,
  "yuē hàn ": 3793,
  " zhè xiē": 3794,
  "9 rì ": 3795,
  " lóng ": 3796,
  "   cǐ ": 3797,
  "dìng wèi ": 3798,
  "tǒng jì ": 3799,
  "E ": 3800,
  " xiāng gǎng": 3801,
  "19 rì ": 3802,
  "sāng ": 3803,
  "   zhèng zhì ": 3804,
  " zài zhè ": 3805,
  "xìn xī ": 3806,
  "lián méng": 3807,
  "yàng de ": 3808,
  " xiàn zhì ": 3809,
  " cì": 3810,
  "gōng de ": 3811,
  "jǔ bàn": 3812,
  "qiú duì ": 3813,
  "hōng ": 3814,
  "chá de ": 3815,
  "14 rì ": 3816,
  "lìng yī ": 3817,
  "cháng shì ": 3818,
  "5 rì ": 3819,
  "měi guó rén kǒu pǔ ": 3820,
  "niǔ yuē": 3821,
  "zǔ hé ": 3822,
  " huò dé": 3823,
  "3 rì ": 3824,
  "lín shí ": 3825,
  "31 rì ": 3826,
  " zhōng bù ": 3827,
  "wèi shì ": 3828,
  "dǒng shì ": 3829,
  " fēn bié": 3830,
  "jī dì ": 3831,
  "gē shǒu ": 3832,
  "dōng nán ": 3833,
  "hǎi bá": 3834,
  "   zhōng ": 3835,
  "on ": 3836,
  "bāng zhù ": 3837,
  " de shì zhèn ": 3838,
  "6 rì ": 3839,
  " lù": 3840,
  "bǐng ": 3841,
  "móu ": 3842,
  "pāi shè ": 3843,
  " 4 ": 3844,
  " yì dà lì ": 3845,
  "2000 nián ": 3846,
  " shè lì ": 3847,
  "2 rì ": 3848,
  " yì bān": 3849,
  " rén kǒu": 3850,
  "gè rén ": 3851,
  " 190": 3852,
  "shè yǒu ": 3853,
  " de zhōng ": 3854,
  " gòng ": 3855,
  "4 rì ": 3856,
  " liú": 3857,
  "shēng yá ": 3858,
  " rù ": 3859,
  " huá ": 3860,
  "yuán hé ": 3861,
  "2004 nián ": 3862,
  " dì qū de ": 3863,
  " xué shēng ": 3864,
  " dǎo zhì ": 3865,
  "tiě lù": 3866,
  " bào ": 3867,
  "zú qiú": 3868,
  "zǎo qī ": 3869,
  "al   ": 3870,
  " qí tā": 3871,
  "cāng ": 3872,
  "féng ": 3873,
  "13 rì ": 3874,
  "xiōng dì ": 3875,
  "   the   ": 3876,
  "shēng zài ": 3877,
  "dōng běi ": 3878,
  "12 ": 3879,
  "tōng cháng ": 3880,
  "mù dì ": 3881,
  "huī fù ": 3882,
  "0 ": 3883,
  " shì chǎng ": 3884,
  " xué yuàn ": 3885,
  " zhè yī ": 3886,
  "er ": 3887,
  "ruǎn ": 3888,
  "shāo ": 3889,
  " wǒ": 3890,
  "shēn fèn ": 3891,
  "   yóu yú ": 3892,
  "qǔ dài ": 3893,
  "gé mìng": 3894,
  "zhǐ huī ": 3895,
  "qíng kuàng xià ": 3896,
  "sū lián ": 3897,
  "yí bù ": 3898,
  "xié yì ": 3899,
  "huáng jiā ": 3900,
  "kē jì ": 3901,
  "fā xiàn": 3902,
  "pán ": 3903,
  "páng ": 3904,
  "zhěng gè ": 3905,
  "zhān ": 3906,
  " méi yǒu ": 3907,
  "rén hé ": 3908,
  " gōng chǐ ": 3909,
  "lián bāng ": 3910,
  "yāo qiú": 3911,
  "yān ": 3912,
  " hēi ": 3913,
  " biàn ": 3914,
  "chāo jí ": 3915,
  "mào yì ": 3916,
  "yuè de ": 3917,
  " gù": 3918,
  "zhǎng de ": 3919,
  "xué yuàn": 3920,
  "fǎn yìng": 3921,
  "jǔ bàn ": 3922,
  "cuī ": 3923,
  "háng kōng": 3924,
  "xí jī ": 3925,
  " yě yǒu ": 3926,
  "huà hé ": 3927,
  "guān fāng ": 3928,
  "xiǎo shuō ": 3929,
  "nǚ xìng ": 3930,
  " fù": 3931,
  " dì lì ": 3932,
  "3 nián ": 3933,
  "I ": 3934,
  "lì hé ": 3935,
  " xī nán ": 3936,
  "tú shū ": 3937,
  "bì yè ": 3938,
  "4 nián ": 3939,
  "xiān hòu ": 3940,
  "zá ": 3941,
  "tǒng yī ": 3942,
  " hā": 3943,
  "br ": 3944,
  "hóu ": 3945,
  " J": 3946,
  "sài de ": 3947,
  "zūn ": 3948,
  " yǐ jīng": 3949,
  "lǎn ": 3950,
  " br ": 3951,
  "xié zhù ": 3952,
  "cì shì jiè dà ": 3953,
  " wēi": 3954,
  " 6 ": 3955,
  " shū ": 3956,
  " rú guǒ ": 3957,
  "shàng shì ": 3958,
  "qū huà ": 3959,
  " dōng": 3960,
  " què ": 3961,
  "fēn xī ": 3962,
  "yǔ de ": 3963,
  " ěr shěng ": 3964,
  "rén kǒu shù liàng": 3965,
  "wén wù bǎo hù ": 3966,
  "tǐng ": 3967,
  " hé yī ": 3968,
  "i ": 3969,
  " bù néng ": 3970,
  "zì xíng ": 3971,
  "   R": 3972,
  "jiē duàn ": 3973,
  "wú xiàn ": 3974,
  "guǎng bō ": 3975,
  " yǐ lái ": 3976,
  " xī bān ": 3977,
  "dān rèn": 3978,
  " shuāng ": 3979,
  " qiě ": 3980,
  " běn": 3981,
  " zǔ ": 3982,
  " tā céng": 3983,
  "chí xù ": 3984,
  "tái běi": 3985,
  "5 nián ": 3986,
  "gòng chǎn dǎng ": 3987,
  "guó hé ": 3988,
  " wǔ": 3989,
  " yǐ xià ": 3990,
  "fā biǎo": 3991,
  "qī nián ": 3992,
  "tè de ": 3993,
  "réng ": 3994,
  "dǎo yǎn ": 3995,
  "6 nián ": 3996,
  "hòu yú ": 3997,
  "yǎn chàng": 3998,
  "zhù zài ": 3999,
  "   O": 4000,
  "xià xiá": 4001,
  "tiáo jiàn ": 4002,
  "pín dào ": 4003,
  " gōng zuò": 4004,
  " màn ": 4005,
  "yè de ": 4006,
  "jiāo yì ": 4007,
  " zài cì ": 4008,
  " cái ": 4009,
  "shào nián ": 4010,
  "jié shù": 4011,
  " shì zhōng guó ": 4012,
  "lài ": 4013,
  "hǔ ": 4014,
  "bào dào ": 4015,
  " rén kǒu mì dù wèi ": 4016,
  "qiú yuán ": 4017,
  "an ": 4018,
  " shì lì ": 4019,
  "   bù ": 4020,
  "jué sài ": 4021,
  " qiě": 4022,
  "yìng yòng ": 4023,
  "wài de ": 4024,
  "yóu zhèng ": 4025,
  "jiàn lì ": 4026,
  "zāo ": 4027,
  "9 nián ": 4028,
  "zī yuán ": 4029,
  "sāi ěr ": 4030,
  " zhāng": 4031,
  " qí hòu ": 4032,
  " jiǔ ": 4033,
  " yà ": 4034,
  "zuì dà ": 4035,
  "cāo ": 4036,
  " bìng wèi ": 4037,
  "huí dào ": 4038,
  "sù dù ": 4039,
  "qì hòu ": 4040,
  "kě dá ": 4041,
  " wèi yú fǎ guó ": 4042,
  "gǎi gé ": 4043,
  "mì shū ": 4044,
  " xī": 4045,
  " yī yuàn ": 4046,
  "diàn shì jù ": 4047,
  "zhuàng tài ": 4048,
  "zhù de ": 4049,
  "fèn wèi ": 4050,
  " gōng yè ": 4051,
  " luò ": 4052,
  "wǎng zhàn ": 4053,
  "kāi fā": 4054,
  "gōng sī ": 4055,
  "jié guǒ ": 4056,
  "suǒ shǔ de ": 4057,
  " de dì yī ": 4058,
  " qiān ": 4059,
  "hú nán ": 4060,
  " yī sī ": 4061,
  "yà lì ": 4062,
  " wèi yī ": 4063,
  "shǒu cì": 4064,
  "jié hé ": 4065,
  "shàng hǎi": 4066,
  " zhè ge": 4067,
  "20 shì jì ": 4068,
  "zòu ": 4069,
  " zuò pǐn ": 4070,
  " mài": 4071,
  "zuǒ yòu ": 4072,
  "xiǎo xué ": 4073,
  " jiě ": 4074,
  " zhào ": 4075,
  "shèng lì ": 4076,
  " zhōng gòng ": 4077,
  "U ": 4078,
  " hào xiàn ": 4079,
  "zhèn qū ": 4080,
  "2 nián ": 4081,
  " de fù ": 4082,
  "wén míng ": 4083,
  " jiǎn chēng ": 4084,
  "yí zhì ": 4085,
  "jiào huì ": 4086,
  "shěng fèn ": 4087,
  "zhǎn kāi ": 4088,
  "yìn dù": 4089,
  "shí qī ": 4090,
  " suǒ yǒu ": 4091,
  "lǐng dǎo": 4092,
  " fǎ guó ": 4093,
  "mù biāo ": 4094,
  " ér shì ": 4095,
  "gāo jí ": 4096,
  "zhǔn bèi ": 4097,
  "fā biǎo ": 4098,
  "wǎng luò ": 4099,
  " jiàn shè ": 4100,
  "xùn liàn ": 4101,
  "kē de ": 4102,
  " rén wù ": 4103,
  "xuǎn shǒu ": 4104,
  "jiāo tōng": 4105,
  "hǎo de ": 4106,
  "zì rán ": 4107,
  "zhòng yào de ": 4108,
  "dōng jīng ": 4109,
  "chǎn pǐn ": 4110,
  "gòng yǒu rén kǒu ": 4111,
  " xiàn dài ": 4112,
  " yī míng ": 4113,
  " xī běi ": 4114,
  "fēng gé ": 4115,
  " fēi": 4116,
  " chéng jì ": 4117,
  "lěi ": 4118,
  " hé dì ": 4119,
  "yán zhòng ": 4120,
  "xiǎo xíng xīng ": 4121,
  "r ": 4122,
  "zi de ": 4123,
  "mù qián ": 4124,
  " jiǎ ": 4125,
  "liú xíng ": 4126,
  "wén wù bǎo hù dān wèi ": 4127,
  "juǎn ": 4128,
  " jī chǎng ": 4129,
  "biàn chéng ": 4130,
  "7 nián ": 4131,
  "qiáo zhì ": 4132,
  "miè ": 4133,
  "8 nián ": 4134,
  "lèi sì": 4135,
  "1 nián ": 4136,
  "diàn shì tái ": 4137,
  "jiě shì ": 4138,
  "guó mín ": 4139,
  " yì qǐ ": 4140,
  " wū ": 4141,
  "kāi fàng ": 4142,
  " lán ": 4143,
  " yǒng ": 4144,
  " xià lìng": 4145,
  " mài ": 4146,
  "kǎ ěr ": 4147,
  "2003 nián ": 4148,
  "xíng shì ": 4149,
  "dōu yǒu ": 4150,
  " shèn zhì ": 4151,
  "2002 nián ": 4152,
  " yí gè ": 4153,
  "zhī hòu ": 4154,
  "huì hé ": 4155,
  "měi píng fāng gōng lǐ ": 4156,
  "rù le ": 4157,
  " yī yàng ": 4158,
  " chú le ": 4159,
  " gōng fēn ": 4160,
  " shè zhì ": 4161,
  "tè zhēng ": 4162,
  "cān sài ": 4163,
  " sī jī ": 4164,
  "rú xià ": 4165,
  "e   ": 4166,
  "zhēn duì ": 4167,
  "jiù shì zhèn ": 4168,
  " shì fǒu": 4169,
  " shí jiān": 4170,
  "zhè ge ": 4171,
  " guāng ": 4172,
  "gāo zhōng ": 4173,
  " cǐ hòu ": 4174,
  " dān rèn ": 4175,
  "bì xū ": 4176,
  " zài zhōng ": 4177,
  "wáng guó ": 4178,
  "bàng ": 4179,
  "bǐ jiào ": 4180,
  " 00": 4181,
  "èr shì ": 4182,
  "wài jiāo": 4183,
  "guī huà ": 4184,
  "diāo ": 4185,
  " yì zhì ": 4186,
  "lèi sì ": 4187,
  "shān dōng ": 4188,
  " rán hòu ": 4189,
  " yì zhí": 4190,
  " lì shǔ yú ": 4191,
  " suī rán ": 4192,
  "yuán shì ": 4193,
  "duì zài ": 4194,
  "zhù míng ": 4195,
  "yún nán ": 4196,
  "hěn duō ": 4197,
  " ěr de ": 4198,
  "huò dé": 4199,
  " jià ": 4200,
  "shēng chǎn ": 4201,
  "zhàn yì ": 4202,
  " yǔ": 4203,
  "   gōng ": 4204,
  "diàn zi ": 4205,
  " běi": 4206,
  "zhòng de ": 4207,
  " 11": 4208,
  " jiàn zhì ": 4209,
  "   dà ": 4210,
  "xīn jiā ": 4211,
  "lái zì": 4212,
  "zhì zuò ": 4213,
  "shān xī ": 4214,
  "rén kǒu shù liàng wèi rén ": 4215,
  "jù jí ": 4216,
  " de yī zhǒng ": 4217,
  " de míng ": 4218,
  "jí hé ": 4219,
  " xī yà": 4220,
  "tào ": 4221,
  " gǔ": 4222,
  "lǚ yóu ": 4223,
  " zhì zào ": 4224,
  " xíng wéi ": 4225,
  " shāng ": 4226,
  "mǎ lái": 4227,
  "bào fā ": 4228,
  "nǚ ér ": 4229,
  " rèn": 4230,
  " INSEE": 4231,
  "de   ": 4232,
  "zǒng lǐ ": 4233,
  "quán qiú ": 4234,
  "sī hé ": 4235,
  " de zhǔ ": 4236,
  "yè wù ": 4237,
  " shàng hǎi ": 4238,
  "sài zhōng ": 4239,
  "fā shè ": 4240,
  "ruì shì ": 4241,
  "bāo hán": 4242,
  "nóng yè ": 4243,
  " tú ": 4244,
  "tóu zī ": 4245,
  "nài ": 4246,
  "lù jūn ": 4247,
  "wù zhì ": 4248,
  "jué de ": 4249,
  " chē ": 4250,
  " duì yú ": 4251,
  "tè bié ": 4252,
  " zǔ": 4253,
  " jìn shì ": 4254,
  " de shí hòu ": 4255,
  "ào lín pǐ kè yùn dòng huì ": 4256,
  "gé de ": 4257,
  "mǐn ": 4258,
  " zhì jīn ": 4259,
  "fāng àn ": 4260,
  "sī rén ": 4261,
  "huà xué ": 4262,
  " tè bié": 4263,
  " dà liàng ": 4264,
  " děng": 4265,
  "jí shì ": 4266,
  " biǎo shì ": 4267,
  "kě néng shì ": 4268,
  "lián jiē ": 4269,
  "jìn de ": 4270,
  " zhī wài ": 4271,
  "fā dòng ": 4272,
  "sì shí ": 4273,
  " ní ": 4274,
  "cáo ": 4275,
  " V": 4276,
  "xuǎn wèi ": 4277,
  "chà ": 4278,
  "qiǎn ": 4279,
  " shè shī ": 4280,
  "chù de ": 4281,
  "tǔ ěr": 4282,
  " lì sī ": 4283,
  "bó tè ": 4284,
  "x ": 4285,
  " zǒng miàn jī ": 4286,
  "luó mǎ": 4287,
  "chuàng lì ": 4288,
  " de lì ": 4289,
  " dé lǐ ": 4290,
  "guǎng chǎng ": 4291,
  "lián hé guó ": 4292,
  "jí shí ": 4293,
  "gēng míng wèi ": 4294,
  "zǎo nián ": 4295,
  "2023 nián ": 4296,
  "xiào lì ": 4297,
  "X ": 4298,
  "qì de ": 4299,
  "jué dìng": 4300,
  "biǎo yǎn ": 4301,
  "yí shì ": 4302,
  "réng rán ": 4303,
  " jūn zài ": 4304,
  "fāng miàn": 4305,
  " gāi shěng ": 4306,
  "zǒng tǒng": 4307,
  "zhì shì ": 4308,
  "dā ": 4309,
  " gōng néng ": 4310,
  " gèng ": 4311,
  " rén kǒu mì dù měi píng fāng gōng lǐ ": 4312,
  " rén kǒu mì dù wèi měi": 4313,
  " xià lìng shí ": 4314,
  "yóu zhèng biān mǎ wèi ": 4315,
  "chá de shù jù ": 4316,
  " jù lè bù ": 4317,
  " zhēn ": 4318,
  " shì zhèn biān mǎ wèi ": 4319,
  " INSEE shì zhèn biān mǎ wèi ": 4320,
  "ng ": 4321,
  "   bèi ": 4322,
  "biāo zhǔn": 4323,
  " xiān ": 4324,
  " shè de ": 4325,
  "xuǎn qū wèi ": 4326,
  "jiǔ nián ": 4327,
  " zài cǐ ": 4328,
  " bù guò": 4329,
  "pái míng ": 4330,
  " guó wáng ": 4331,
  "dòng lì ": 4332,
  "shí de rén kǒu shù liàng wèi rén ": 4333,
  "jiē rǎng de shì zhèn ": 4334,
  "měi guó rén kǒu pǔ chá de shù jù ": 4335,
  "cóng shì ": 4336,
  "jiā lì ": 4337,
  " ér rén kǒu mì dù wèi měi": 4338,
  "gé lán": 4339,
  " dāng dì gòng yǒu rén kǒu ": 4340,
  "fēn lèi ": 4341,
  "jiě jué ": 4342,
  "shǐ yòng de ": 4343,
  "F ": 4344,
  "zú de ": 4345,
  "lián bāng": 4346,
  " fēn zhōng ": 4347,
  "gōu ": 4348,
  "dà bù fèn": 4349,
  "yī zhǒng ": 4350,
  "lǐng yù ": 4351,
  " huò jiù shì zhèn ": 4352,
  "hé shì ": 4353,
  "   lì ": 4354,
  " chū bǎn ": 4355,
  "yùn yíng ": 4356,
  "shěng jí xuǎn qū wèi ": 4357,
  "jī jí ": 4358,
  " de yī bù fèn ": 4359,
  "shí shì ": 4360,
  " xiàng": 4361,
  " nián dù ": 4362,
  "ér zi ": 4363,
  "zuò pǐn": 4364,
  "jiē shòu": 4365,
  "xuǎn rén ": 4366,
  "gài niàn ": 4367,
  "xīng de ": 4368,
  " ěr dé ": 4369,
  "shěng hé ": 4370,
  "tiáo yuē ": 4371,
  " jǐn guǎn ": 4372,
  " zhèng shì ": 4373,
  "fèn wèi fǎ guó ": 4374,
  " gāi shěng fèn wèi fǎ guó ": 4375,
  " chū bǎn": 4376,
  " zhī xiàn ": 4377,
  "tiě dào ": 4378,
  " dì sān": 4379,
  " ér qiě ": 4380,
  " jūn duì ": 4381,
  "guǎng zhōu ": 4382,
  " bù jiǔ ": 4383,
  " jiǎng ": 4384,
  " sòng ": 4385,
  " xiāo ": 4386,
  "ào dà lì ": 4387,
  " wèi shí ": 4388,
  " xī là": 4389,
  "   18": 4390,
  "fú jiàn ": 4391,
  " qīng": 4392,
  " hé bìng": 4393,
  "bā nián ": 4394,
  "zhàn zhēng": 4395,
  " hán ": 4396,
  " yǒu rén ": 4397,
  "pái míng": 4398,
  " c": 4399,
  "zhàn shì ": 4400,
  "jǐn biāo sài ": 4401,
  "zuì hòu yī ": 4402,
  "jǐng chá ": 4403,
  "qún dǎo ": 4404,
  "lái yuán ": 4405,
  "tè bié": 4406,
  " tā bèi ": 4407,
  "xīng jiàn ": 4408,
  " wàn rén ": 4409,
  " duì": 4410,
  " chū shēng yú ": 4411,
  "shè lì ": 4412,
  "réng rán": 4413,
  "dì yī ": 4414,
  " rì de ": 4415,
  " ruò ": 4416,
  "lún dūn": 4417,
  "běn de ": 4418,
  "wěi huì ": 4419,
  " yóu xì": 4420,
  " rén gōng ": 4421,
  "xué xiào": 4422,
  " kāi shǐ ": 4423,
  "shǎn xī ": 4424,
  "céng zài ": 4425,
  "tōng cháng": 4426,
  "tiān wén ": 4427,
  " zhì yú ": 4428,
  "liè wèi ": 4429,
  " bù míng ": 4430,
  " yì wèi ": 4431,
  "mǔ sī ": 4432,
  " míng cháo ": 4433,
  "yùn xíng ": 4434,
  "l ": 4435,
  "měi zhōu ": 4436,
  "cǎi yòng": 4437,
  "áng ": 4438,
  "ròu ": 4439,
  " dì sì ": 4440,
  "yán jiū suǒ ": 4441,
  "guǎng fàn ": 4442,
  "ào sī ": 4443,
  " xiàn lù ": 4444,
  " gèng": 4445,
  "méng gǔ ": 4446,
  " shì bù ": 4447,
  "yǐ jí ": 4448,
  " hé píng ": 4449,
  "jiā rù ": 4450,
  "huà shí ": 4451,
  "zhàn hòu ": 4452,
  "   tā": 4453,
  " dí ": 4454,
  "nán jí ": 4455,
  "shuō fǎ ": 4456,
  "gǎn rǎn ": 4457,
  "k ": 4458,
  "xī zài ": 4459,
  " ràng": 4460,
  " jìn de ": 4461,
  " rèn wéi": 4462,
  " jī běn ": 4463,
  " jù lí ": 4464,
  " fèi ": 4465,
  "mó xíng ": 4466,
  " jiāo ": 4467,
  "guò chéng zhōng ": 4468,
  " de dì fāng ": 4469,
  "wú rén ": 4470,
  " de xīn ": 4471,
  "jì shù ": 4472,
  " jiàn yì ": 4473,
  " tā yǔ ": 4474,
  "yùn shū ": 4475,
  "gòu mǎi": 4476,
  "wán quán": 4477,
  "wǔ shí ": 4478,
  " kè de ": 4479,
  "rèn wéi shì ": 4480,
  " dá ": 4481,
  " zài yì ": 4482,
  " gè dì ": 4483,
  "bàn gōng shì ": 4484,
  " chén": 4485,
  " 10 yuè ": 4486,
  "tóng yī ": 4487,
  "duō gè ": 4488,
  "wài guó ": 4489,
  " zǒng rén kǒu ": 4490,
  "xué shì ": 4491,
  "jià zhí ": 4492,
  "shàng yǒu ": 4493,
  "yuán wèi ": 4494,
  "fēi xíng ": 4495,
  "gōng zuò ": 4496,
  " zì jǐ ": 4497,
  "ní sī ": 4498,
  " zài zhōng guó ": 4499,
  "xué xí ": 4500,
  "zhǎo ": 4501,
  "yǎng huà ": 4502,
  "quān ": 4503,
  " shòu": 4504,
  " cān ": 4505,
  " āi": 4506,
  "xuān chuán ": 4507,
  " fàn ": 4508,
  "mò xī ": 4509,
  " yī xiē": 4510,
  "xuǎn zé": 4511,
  "chēng wèi ": 4513,
  "xiāo xī ": 4514,
  " xiàn rén ": 4515,
  " de guān ": 4516,
  "hǎi jūn": 4517,
  "qǐ lái ": 4518,
  "biāo zhì ": 4519,
  " bù mén ": 4520,
  "zhì wèi ": 4521,
  " nián hòu ": 4522,
  "yóu xì": 4523,
  "má ": 4524,
  "huán jìng": 4525,
  "fù zé guǎn xiá ": 4526,
  "xì bāo ": 4527,
  " wéi zhǔ ": 4528,
  "jiè quán guó ": 4529,
  " xīng ": 4530,
  " shǐ yòng ": 4531,
  "gòu chéng ": 4532,
  "chē liàng ": 4533,
  "shī de ": 4534,
  "zhé xué ": 4535,
  "   yǐ ": 4536,
  "1999 nián ": 4537,
  "àn de ": 4538,
  "kēng ": 4539,
  "g ": 4540,
  " jì huà": 4541,
  "sī zài ": 4542,
  "zhèng de ": 4543,
  "ān quán": 4544,
  " kē": 4545,
  "dǎng de ": 4546,
  " lín": 4547,
  "bǐ dé ": 4548,
  " dào lù ": 4549,
  "cháo xiān ": 4550,
  "yín háng": 4551,
  "xī de ": 4552,
  " àn ": 4553,
  " shì měi guó ": 4554,
  " shì tú ": 4555,
  "zhōng zài ": 4556,
  " jì niàn ": 4557,
  "zhǔ jué ": 4558,
  "sì chuān ": 4559,
  "bù wèi ": 4560,
  " jí qí ": 4561,
  "L ": 4562,
  "péng yǒu ": 4563,
  " huā ": 4564,
  " èr": 4565,
  "chí xù": 4566,
  "24 ": 4567,
  "ài ěr ": 4568,
  " gōng gòng ": 4569,
  " zhī chí": 4570,
  "kàng yì ": 4571,
  "   yǒu ": 4572,
  "yuē wèi ": 4573,
  "tài guó ": 4574,
  " ér qiě": 4575,
  "jiē wèi ": 4576,
  "xuǎn qū ": 4577,
  " yīng chǐ ": 4578,
  "shí zài ": 4579,
  "yì hé ": 4580,
  "huì yǒu ": 4581,
  "shēng wù ": 4582,
  "xiào zhǎng ": 4583,
  "wén jiàn ": 4584,
  " bèi ěr ": 4585,
  " fǎn ": 4586,
  "gē qǔ": 4587,
  "màn huà ": 4588,
  "shōu rù ": 4589,
  " jié zhì ": 4590,
  " tái wān": 4591,
  " jiè": 4592,
  "   V": 4593,
  "biāo wèi ": 4594,
  "fó jiào ": 4595,
  " dōu ": 4596,
  "róng yì ": 4597,
  "   shí ": 4598,
  "ào yùn": 4599,
  "suǒ shǔ de shěng jí xuǎn qū wèi ": 4600,
  "   hé ": 4601,
  "   chē zhàn ": 4602,
  " shēng wù ": 4603,
  "yǎn de ": 4604,
  "biān jí ": 4605,
  "qiàn ": 4606,
  " zhàn zhēng": 4607,
  "sī dì ": 4608,
  "yě yǒu ": 4609,
  "qián wǎng": 4610,
  " ruò": 4611,
  "yǔ yán ": 4612,
  "zhèng cè ": 4613,
  " dǎ ": 4614,
  "jì zhōng ": 4615,
  "mǐ ěr ": 4616,
  "O ": 4617,
  " qiáng ": 4618,
  "jūn duì ": 4619,
  "jiě fàng jūn ": 4620,
  "tiǎo zhàn ": 4621,
  " yuán zhù ": 4622,
  " chū le ": 4623,
  "ào yùn ": 4624,
  " zhì dù ": 4625,
  "1998 nián ": 4626,
  " yòu chēng ": 4627,
  "M ": 4628,
  "gāo yú ": 4629,
  " shì yí gè": 4630,
  " huò shì ": 4631,
  "gǎn dào ": 4632,
  "nán xìng ": 4633,
  "mǎ lì ": 4634,
  " yǐ shàng ": 4635,
  "gǎi biàn ": 4636,
  "kūn ": 4637,
  "   2021": 4638,
  " dì xià ": 4639,
  "tóu rù ": 4640,
  " chǎng ": 4641,
  "fó ": 4642,
  "jiē rǎng ": 4643,
  "pèi hé ": 4644,
  "zhǐ huī": 4645,
  "jiā rén ": 4646,
  "ce ": 4647,
  "wěn dìng ": 4648,
  "zhā ": 4649,
  " zhōng yǒu ": 4650,
  " zài bù ": 4651,
  "tí míng ": 4652,
  "dá chéng ": 4653,
  "2024 nián ": 4654,
  " yī zhǒng ": 4655,
  "rǔ ": 4656,
  "nè ": 4657,
  "mò sī ": 4658,
  "fēn zhī ": 4659,
  "zài shì ": 4660,
  "tóng de ": 4661,
  "jiǎn jiè ": 4662,
  "shēn fèn": 4663,
  "tiān zhǔ jiào ": 4664,
  " zhōng guó rén mín ": 4665,
  " què": 4666,
  "biǎo míng ": 4667,
  "duó de ": 4668,
  "tíng zhǐ ": 4669,
  " yù": 4670,
  " ér rén kǒu mì dù wèi měi píng fāng qiān mǐ ": 4671,
  " yǎn ": 4672,
  "xiǎo de ": 4673,
  " zì": 4674,
  "zhèng shí ": 4675,
  "cè de ": 4676,
  "zào de ": 4677,
  " wèi fú": 4678,
  "juān ": 4679,
  " hái yǒu ": 4680,
  "què zhěn": 4681,
  " tōng guò ": 4682,
  "   2020": 4683,
  " jī bài ": 4684,
  " nián chū ": 4685,
  "bàn dǎo ": 4686,
  "guó zài ": 4687,
  "wǔ qì ": 4688,
  "tā men ": 4689,
  "   yuán ": 4690,
  " jiā ná dà ": 4691,
  " píng fāng mǐ ": 4692,
  "zì zhì qū ": 4693,
  " 8 yuè ": 4694,
  "lā kè ": 4695,
  "lèi de ": 4696,
  "in ": 4697,
  "R ": 4698,
  "hùn hé ": 4699,
  " zì yóu ": 4700,
  "   zì ": 4701,
  " tí ": 4702,
  " zài měi guó ": 4703,
  " shí yàn": 4704,
  "zuì zǎo": 4705,
  "jǔ rén ": 4706,
  " pí ": 4707,
  "tuán duì ": 4708,
  "dì shì ": 4709,
  "kě néng huì ": 4710,
  "yā lì ": 4711,
  "quán bù ": 4712,
  " sū": 4713,
  "jì wèi ": 4714,
  " ér bèi ": 4715,
  "jì huà ": 4716,
  " jì chéng ": 4717,
  "gòng xiàn ": 4718,
  "xī bān yá ": 4719,
  " U": 4720,
  " píng": 4721,
  " shí shī ": 4722,
  "jié mù": 4723,
  " lí ": 4724,
  "   J": 4725,
  " jié guǒ ": 4726,
  " dì tiě ": 4727,
  " bō": 4728,
  " The": 4729,
  "shēng chǎn": 4730,
  "lái shuō ": 4731,
  "zhè zhǒng ": 4732,
  "lì bù ": 4733,
  "chǎn yè ": 4734,
  " é ": 4735,
  " wáng": 4736,
  "xíng dòng ": 4737,
  "fān yì ": 4738,
  " qī jiān ": 4739,
  " chū rèn ": 4740,
  "shǎo shù ": 4741,
  "cāo zuò ": 4742,
  "jiǎn chá ": 4743,
  "bàn shì ": 4744,
  "jiā ná dà ": 4745,
  "yǐng piàn ": 4746,
  "chōng tū ": 4747,
  " tā yú ": 4748,
  "bǎo hù": 4749,
  " zài dà ": 4750,
  "jì niàn ": 4751,
  "àn jiàn ": 4752,
  "áo ": 4753,
  "fēn bié ": 4754,
  "céng jīng ": 4755,
  "chóng jiàn ": 4756,
  " zhuān ": 4757,
  "shǒu de ": 4758,
  "amp ": 4759,
  "   p": 4760,
  " jiàn zhù": 4761,
  " mù": 4762,
  " shì yǐ ": 4763,
  "xíng wéi ": 4764,
  "xīn lǐ ": 4765,
  " bèi": 4766,
  "gòng tóng": 4767,
  "nàn ": 4768,
  " shí fēn ": 4769,
  "dòng de ": 4770,
  "kōng jūn ": 4771,
  "bàn gōng ": 4772,
  " shǐ de ": 4773,
  "dà bù fèn ": 4774,
  "yāng ": 4775,
  " xiàn wèi ": 4776,
  "qī jiān": 4777,
  " zhì zuò": 4778,
  "jié gòu": 4779,
  " zhǐ yǒu ": 4780,
  "lián sài": 4781,
  "lián xù ": 4782,
  "jué sè": 4783,
  " yì yǒu ": 4784,
  " lì rú": 4785,
  "jí zài ": 4786,
  "shēn de ": 4787,
  " hé běi ": 4788,
  " wèi néng ": 4789,
  " ān": 4790,
  "xiāng duì ": 4791,
  "méi tǐ": 4792,
  "zhǔ tí ": 4793,
  "jiǎn shǎo ": 4794,
  "ōu yuán ": 4795,
  " hé liú ": 4796,
  "gōng yuán ": 4797,
  "xiǎo zǔ ": 4798,
  "tòu ": 4799,
  " yòu míng ": 4800,
  "tòng ": 4801,
  " yǐ sè ": 4802,
  "fèn zǐ ": 4803,
  "xiàn dài ": 4804,
  " shì yī míng ": 4805,
  " tǐ zhǎng ": 4806,
  "   2019": 4807,
  " xī wàng ": 4808,
  "yìng de ": 4809,
  "wěi yuán huì": 4810,
  " mén ": 4811,
  "zhè ge": 4812,
  "mìng míng wèi ": 4813,
  " gōng sī de ": 4814,
  " hù ": 4815,
  " liǎng rén ": 4816,
  "yì zài ": 4817,
  "dòng jī ": 4818,
  "dǎ jī ": 4819,
  " de dì qū ": 4820,
  "zhǎn shì ": 4821,
  " biān ": 4822,
  " hái": 4823,
  "zhuó ": 4824,
  " zhí zhì ": 4825,
  " shè qū ": 4826,
  " jì xù": 4827,
  "guī mó": 4828,
  "shǒu wèi ": 4829,
  "xún huí ": 4830,
  " sī lìng": 4831,
  "shù liàng ": 4832,
  "xià wǔ ": 4833,
  "1996 nián ": 4834,
  "yòng lái ": 4835,
  "lù dì miàn jī wèi ": 4836,
  " chuán ": 4837,
  "shuǐ yù miàn jī wèi ": 4838,
  " lì jí ": 4839,
  "qǐ yòng ": 4840,
  "lèi xíng ": 4841,
  "rèn wù ": 4842,
  " guó lì ": 4843,
  " shí zì ": 4844,
  " yī cì ": 4845,
  "duō cì ": 4846,
  "píng jià ": 4847,
  "bù shì ": 4848,
  " 2009 nián ": 4849,
  "ng   ": 4850,
  " fù jìn ": 4851,
  "fú hé ": 4852,
  "jǔ xíng de ": 4853,
  " de shǒu ": 4854,
  "   2018": 4855,
  "wài jiāo ": 4856,
  "tǐ xì ": 4857,
  "fǎ lǜ": 4858,
  " zhè jiāng ": 4859,
  "1997 nián ": 4860,
  "c ": 4861,
  " dà shǐ ": 4862,
  " líng ": 4863,
  "liǎng gè": 4864,
  "zuò jiā ": 4865,
  " shè bèi ": 4866,
  " zhèn ": 4867,
  "měi nián ": 4868,
  "zhù yì ": 4869,
  "diàn lì ": 4870,
  " amp ": 4871,
  "dé dào ": 4872,
  " lì fǎ ": 4873,
  "kuí ": 4874,
  " sī lìng ": 4875,
  " cóng ér ": 4876,
  "kào ": 4877,
  "jiào táng ": 4878,
  " dāng zhōng lù dì miàn jī wèi ": 4879,
  "zhì hé ": 4880,
  "zhí de ": 4881,
  " ér shuǐ yù miàn jī wèi ": 4882,
  "qǔ xiāo ": 4883,
  "jié zhì ": 4884,
  "shēng huó": 4885,
  "fú wù": 4886,
  "lún dūn ": 4887,
  "xué zhě ": 4888,
  "   xī ": 4889,
  "hǎi yù ": 4890,
  "   2022": 4891,
  "shuǐ píng ": 4892,
  "diān ": 4893,
  "nèi róng": 4894,
  "yīng gé lán ": 4895,
  " zhī shí ": 4896,
  "zhù zuò ": 4897,
  " 9 yuè ": 4898,
  " dà chén ": 4899,
  " chéng lì yú ": 4900,
  " liè ": 4901,
  "   gài ": 4902,
  "tuò ": 4903,
  "lǚ kè ": 4904,
  "zhì zài ": 4905,
  "jiē jìn ": 4906,
  "cháng qī ": 4907,
  " xīn wén ": 4908,
  " biàn": 4909,
  " wéi ěr ": 4910,
  "gāo sù": 4911,
  "lìng wài ": 4912,
  "   xíng zhèng qū huà ": 4913,
  "rèn mìng": 4914,
  " xiào ": 4915,
  " jiā shàng ": 4916,
  "bǐ sài zhōng ": 4917,
  "yuàn zhǎng ": 4918,
  "jǐ yǔ ": 4919,
  "diǎn de ": 4920,
  "xī yáng ": 4921,
  " yǐ hòu ": 4922,
  " jūn wèi ": 4923,
  "mín de ": 4924,
  "shuò shì ": 4925,
  " dé de ": 4926,
  "wēi lián ": 4927,
  "wěi shū jì ": 4928,
  " guǎng ": 4929,
  " yì rén ": 4930,
  "tài yáng ": 4931,
  "jiā hé ": 4932,
  "1992 nián ": 4933,
  "dǎo yǔ ": 4934,
  "pī zhǔn ": 4935,
  "dài yǒu ": 4936,
  "hēng lì ": 4937,
  " shì yī wèi ": 4938,
  "guō ": 4939,
  " xué xiào": 4940,
  "cān yù": 4941,
  " wèi fú qí yú ": 4942,
  " 7 yuè ": 4943,
  "cì shì jiè dà zhàn ": 4944,
  " shì qū ": 4945,
  "fā chū ": 4946,
  "quàn ": 4947,
  "xìng zhì ": 4948,
  "yǎn chàng huì ": 4949,
  " yuán yīn ": 4950,
  "tǎo lùn ": 4951,
  " formula ": 4952,
  "tuì yì ": 4953,
  "fēng bào ": 4954,
  "K ": 4955,
  "bǐ yà ": 4956,
  "jī zhì ": 4957,
  "xìn hào ": 4958,
  "yà de ": 4959,
  "shòu shāng ": 4960,
  "néng gòu": 4961,
  "   yì ": 4962,
  " jiàn chéng ": 4963,
  "lián xì ": 4964,
  " méng ": 4965,
  "wèi zhì ": 4966,
  "bì xū": 4967,
  "   in": 4968,
  "rú hé ": 4969,
  "   2017": 4970,
  "bǎo chí ": 4971,
  " rú guǒ": 4972,
  " tǐ zhǎng kě dá ": 4973,
  " huí ": 4974,
  "zhuān jiā ": 4975,
  " ěr tè ": 4976,
  "fū rén ": 4977,
  "jiǎng xiàng ": 4978,
  "chā yì ": 4979,
  "shòu yǔ ": 4980,
  "wō ": 4981,
  " jī gòu": 4982,
  " zài yú ": 4983,
  " de yī zuò ": 4984,
  " jīng guò ": 4985,
  " tōng cháng ": 4986,
  " tuō ": 4987,
  " 2010 nián ": 4988,
  "wǎng lù ": 4989,
  "jīng yíng ": 4990,
  " 12 yuè ": 4991,
  " mín guó ": 4992,
  "gòng chǎn dǎng": 4993,
  " 21 ": 4994,
  "diàn tái ": 4995,
  "dōng xī ": 4996,
  " kè lǐ ": 4997,
  " shēng chǎn ": 4998,
  "tān ": 4999,
  " bù lǐ ": 5000,
  "suí hòu ": 5001,
  " yǐ xià": 5002,
  "cūn zhuāng ": 5003,
  " cí ": 5004,
  " 11 yuè ": 5005,
  "lái dào ": 5006,
  "15 ": 5007,
  " zhī zhōng ": 5008,
  "xì liè": 5009,
  "bì yè yú ": 5010,
  "xùn liàn": 5011,
  "cuò shī ": 5012,
  "fǎ de ": 5013,
  " yì shù": 5014,
  "zǒng dū ": 5015,
  "zhù míng de ": 5016,
  "50 ": 5017,
  " shì yǒu ": 5018,
  " jiàn duì ": 5019,
  "kuài sù ": 5020,
  "zhù yú ": 5021,
  "làng ": 5022,
  " cháng": 5023,
  "1994 nián ": 5024,
  " shí rèn ": 5025,
  " yī shēng ": 5026,
  "gū jì ": 5027,
  "hái zi ": 5028,
  " ěr hé ": 5029,
  "tài píng yáng ": 5030,
  "o   ": 5031,
  "yán gé ": 5032,
  "   2016": 5033,
  "tóng yì ": 5034,
  "le dà ": 5035,
  "shēng wèi ": 5036,
  "shé ": 5037,
  "dǎo shì ": 5038,
  "chéng gōng ": 5039,
  " zhū": 5040,
  " tw": 5041,
  "sì gè ": 5042,
  "on   ": 5043,
  " jié mù ": 5044,
  "fā diàn ": 5045,
  " shàng hǎi": 5046,
  " ràng ": 5047,
  "zhàn zhōng ": 5048,
  " de qián ": 5049,
  " rén lèi ": 5050,
  "jié shù hòu ": 5051,
  " dé yǐ ": 5052,
  "pǔ tōng ": 5053,
  " de shí qū wèi ": 5054,
  " guī ": 5055,
  " huǒ ": 5056,
  "yǔ zhōng ": 5057,
  " zhèng cè ": 5058,
  " míng chēng ": 5059,
  "chè xiāo ": 5060,
  "an   ": 5061,
  "en ": 5062,
  "shǎng ": 5063,
  "tóu piào ": 5064,
  "   zhì ": 5065,
  "dǐ dá ": 5066,
  " yìn dù ": 5067,
  "al ": 5068,
  " jǐn guǎn": 5069,
  "zhái ": 5070,
  "jú zhǎng ": 5071,
  " de shí jiān ": 5072,
  "gèng jiā ": 5073,
  "zǔ chéng de ": 5074,
  "fǎn huí ": 5075,
  "miǎo ": 5076,
  "1995 nián ": 5077,
  "zhè xiē": 5078,
  " wèi shēng ": 5079,
  "yuè tái ": 5080,
  " píng tái ": 5081,
  " shèng": 5082,
  "guǎng xī ": 5083,
  "fěi ": 5084,
  "hā ěr ": 5085,
  "hans ": 5086,
  "kuò dà ": 5087,
  " fāng ": 5088,
  " hans ": 5089,
  "yì zhōng ": 5090,
  "dēng lù ": 5091,
  "róng yù ": 5092,
  " tw ": 5093,
  "yuè shí ": 5094,
  "zhòng dà ": 5095,
  "lù yì ": 5096,
  "fā de ": 5097,
  " qī": 5098,
  "què dìng ": 5099,
  " qián": 5100,
  " gǎi": 5101,
  "zhǐ zài ": 5102,
  " shì yǎn ": 5103,
  "yè hòu ": 5104,
  "25 ": 5105,
  "22 ": 5106,
  " bù kě ": 5107,
  "n   ": 5108,
  " bìng méi yǒu ": 5109,
  " yáng": 5110,
  " sà ": 5111,
  " cǐ shí ": 5112,
  "   de shí ": 5113,
  "qì chē ": 5114,
  " s": 5115,
  "jìn xíng": 5116,
  " ā ěr ": 5117,
  " wǎng ": 5118,
  "   19": 5119,
  " xué xí ": 5120,
  " chēng": 5121,
  "wǎn shàng ": 5122,
  "jiào qū ": 5123,
  "xiāo shòu ": 5124,
  " mù qián": 5125,
  "míng chēng ": 5126,
  "gǎi biān": 5127,
  "yà lì shān": 5128,
  " 189": 5129,
  "wù zhǒng": 5130,
  "guān zhòng ": 5131,
  " guó wù ": 5132,
  " zhī yuán ": 5133,
  "yuàn de ": 5134,
  " zhōng de ": 5135,
  "bā xī ": 5136,
  " gōng yè": 5137,
  "rù kǒu ": 5138,
  "bā lí ": 5139,
  " huò zhě ": 5140,
  "   2023": 5141,
  "xiāng tóng ": 5142,
  "bǎn de ": 5143,
  "   2014": 5144,
  "xué hé ": 5145,
  "sǔn shī ": 5146,
  " lǜ ": 5147,
  "biǎo xiàn": 5148,
  " shí xiàn ": 5149,
  "xī là": 5150,
  "fā xiàn le ": 5151,
  "kàn dào ": 5152,
  "qī zǐ ": 5153,
  "nǎi ": 5154,
  "guān zhù ": 5155,
  " céng rèn ": 5156,
  "qiǎng ": 5157,
  "pò huài ": 5158,
  " bìng yǐ ": 5159,
  " �": 5160,
  "pān ": 5161,
  "xiōng yá": 5162,
  " 6 yuè ": 5163,
  "   suǒ shǔ de shěng jí xuǎn qū wèi ": 5164,
  "   de yóu zhèng biān mǎ wèi ": 5165,
  "   yǔ jiē rǎng de shì zhèn ": 5166,
  "   yú shí de rén kǒu shù liàng wèi rén ": 5167,
  "   de shí qū wèi ": 5168,
  "zhuāng zhì ": 5169,
  "zhí wèi ": 5170,
  " 2011": 5171,
  "jì hé ": 5172,
  "kāi fàng": 5173,
  " zuò yòng ": 5174,
  " quán zhǎng ": 5175,
  "tú zhōng ": 5176,
  "sū lián": 5177,
  " xià": 5178,
  "xū qiú ": 5179,
  "lín de ": 5180,
  " zhī míng ": 5181,
  " sī lā ": 5182,
  "shí wèi ": 5183,
  "héng xīng ": 5184,
  "   jī ": 5185,
  "mǔ qīn ": 5186,
  "tuī dòng ": 5187,
  "wéi de ": 5188,
  " shì zhǎng ": 5189,
  " quán bù ": 5190,
  "rù qīn ": 5191,
  "tái běi ": 5192,
  "guǎn lǐ": 5193,
  " 2019": 5194,
  " chuàng ": 5195,
  "ǎ ": 5196,
  "fù de ": 5197,
  "cán ": 5198,
  " jiā tíng ": 5199,
  "yí dòng ": 5200,
  "rú cǐ ": 5201,
  " hk": 5202,
  "yǔ hé ": 5203,
  " yī dài ": 5204,
  "jìn shì ": 5205,
  " chū xiàn zài ": 5206,
  "fù qīn ": 5207,
  "zhè jiāng ": 5208,
  "G ": 5209,
  " nián qīng": 5210,
  "xiōng yá lì ": 5211,
  "   2015": 5212,
  "mù sī ": 5213,
  "1991 nián ": 5214,
  " rén shù ": 5215,
  " dàn tā ": 5216,
  " xī bān yá": 5217,
  "mín zú": 5218,
  "guǎng bō": 5219,
  "zuì chū ": 5220,
  "tái de ": 5221,
  " dì qiú ": 5222,
  "16 ": 5223,
  " shì zhǐ ": 5224,
  "tí shēng ": 5225,
  "fēi jiàn zhì ": 5226,
  " xiǎng": 5227,
  " gān ": 5228,
  " sī tǎn ": 5229,
  " 5 yuè ": 5230,
  " chē zhàn ": 5231,
  "shù xué ": 5232,
  "xùn sù ": 5233,
  " hk ": 5234,
  "or ": 5235,
  "and   ": 5236,
  " wèi hé ": 5237,
  " bìng lì ": 5238,
  " chéng wéi le ": 5239,
  "   2013": 5240,
  "niǔ yuē ": 5241,
  "fā xíng": 5242,
  "zǒng bù ": 5243,
  " jìn rù": 5244,
  "tè lǐ ": 5245,
  "kàng rì ": 5246,
  " hé xīn ": 5247,
  " gè zhǒng ": 5248,
  " jīng": 5249,
  "le   ": 5250,
  "zhěn ": 5251,
  "máng ": 5252,
  " jǐn": 5253,
  "míng yì ": 5254,
  "gǎo ": 5255,
  " jí qí": 5256,
  "fā shēng": 5257,
  "shōu lù ": 5258,
  " shì rén ": 5259,
  "jiào de ": 5260,
  "lán kè ": 5261,
  "cái zhèng ": 5262,
  "chàng piàn ": 5263,
  " jì zǎi ": 5264,
  " zuò pǐn": 5265,
  "   nián ": 5266,
  "sà kè ": 5267,
  " zhōng wén ": 5268,
  "jué sài": 5269,
  "jìn gōng ": 5270,
  "23 ": 5271,
  " shì jí ": 5272,
  "qǐ yì ": 5273,
  "cān yì ": 5274,
  "cān kǎo ": 5275,
  "zhuàng kuàng ": 5276,
  " xiàn yú ": 5277,
  " zào chéng ": 5278,
  "lǜ wèi ": 5279,
  " miàn ": 5280,
  "   zhōng guó ": 5281,
  "le tā ": 5282,
  "zēng zhǎng ": 5283,
  "gāo dù ": 5284,
  "chǎn pǐn": 5285,
  "fēi jiàn zhì dì qū ": 5286,
  "N ": 5287,
  "13 ": 5288,
  "zhàn dòu ": 5289,
  "suī rán ": 5290,
  "kǎn ": 5291,
  "dōu huì ": 5292,
  " hé bìng ": 5293,
  " zhuǎn ": 5294,
  " shēng huó": 5295,
  "wáng de ": 5296,
  "zhòng diǎn ": 5297,
  " é luó sī ": 5298,
  "diào chá": 5299,
  "chāi ": 5300,
  " dà lóu ": 5301,
  "p ": 5302,
  "hǎi dào ": 5303,
  "chàng piàn": 5304,
  " huáng": 5305,
  " rén men ": 5306,
  "wēi xié ": 5307,
  "ào dì lì ": 5308,
  " hé zhōng ": 5309,
  "shàng shū ": 5310,
  " wéi qí ": 5311,
  "lǐng dǎo rén ": 5312,
  "jīng shén ": 5313,
  " xiāng guān ": 5314,
  "jiā zhōng ": 5315,
  "liǎng rén ": 5316,
  " yīn ér ": 5317,
  "yuè zài ": 5318,
  " bù duàn ": 5319,
  "cān jiā le ": 5320,
  "huà wèi ": 5321,
  "jiāng xī ": 5322,
  "yíng yùn ": 5323,
  " de chéng yuán ": 5324,
  " jì suàn": 5325,
  "jié kè ": 5326,
  "tú shū guǎn ": 5327,
  " hé chéng ": 5328,
  "zhǔ chí ": 5329,
  " zhōng guó gòng chǎn dǎng ": 5330,
  "jù de ": 5331,
  "nà lǐ ": 5332,
  " hòu": 5333,
  " 4 yuè ": 5334,
  "mín zhòng ": 5335,
  "1988 nián ": 5336,
  "jìn rù": 5337,
  "zì dòng ": 5338,
  "mǒu xiē ": 5339,
  "shēn wèi ": 5340,
  "jū zhù ": 5341,
  "xià jì ào lín pǐ kè yùn dòng huì ": 5342,
  "yīn shì ": 5343,
  "dāo ": 5344,
  "zhàn dòu": 5345,
  "shí jiān ": 5346,
  "chǎn shēng de ": 5347,
  " huá": 5348,
  " zài jiā ": 5349,
  "   zh ": 5350,
  "shuō míng ": 5351,
  "yǐn fā ": 5352,
  " yǒu shí ": 5353,
  " zhèng zhuàng ": 5354,
  " dǎo ": 5355,
  "jiāng sū ": 5356,
  "es ": 5357,
  "1993 nián ": 5358,
  " huò dé le ": 5359,
  " 20": 5360,
  " zhī xià ": 5361,
  " xiǎo": 5362,
  " shì wēi ": 5363,
  "xiǎo shuō": 5364,
  " qiáo ": 5365,
  " xuān bù ": 5366,
  "   jiā zú ": 5367,
  " xǔ duō ": 5368,
  " shì zhèn": 5369,
  " gōng rén ": 5370,
  " fáng ": 5372,
  "dìng le ": 5373,
  "yōu shì ": 5374,
  "lán qiú ": 5375,
  " dà duō ": 5376,
  "zhōu de ": 5377,
  "jì shí ": 5378,
  " xiàng mù ": 5379,
  " wěi ": 5380,
  " zuǒ ": 5381,
  "xiǎn de ": 5382,
  "zī xùn ": 5383,
  "ào yùn huì ": 5384,
  "cuì ": 5385,
  "sù de ": 5386,
  " dà xíng ": 5387,
  " 2018": 5388,
  " yuè nán ": 5389,
  "chuāng ": 5390,
  "xiàng mù": 5391,
  " tiān": 5392,
  " jí lì ": 5393,
  " zhōng huá ": 5394,
  "xiāng dāng ": 5395,
  "qǔ dé": 5396,
  "yuán zài ": 5397,
  " bù mén": 5398,
  " dàn yóu yú ": 5399,
  " lái zì ": 5400,
  "fǎng wèn ": 5401,
  "   I": 5402,
  "zhí dào ": 5403,
  "suī rán": 5404,
  " lǐ lùn ": 5405,
  "jiào wéi ": 5406,
  " shì wèi le ": 5407,
  "jié hūn ": 5408,
  "pǐn pái ": 5409,
  "cān jiā": 5410,
  "xí wèi ": 5411,
  " dì wǔ ": 5412,
  " yuè tái ": 5413,
  "zhōng wèi ": 5414,
  " C ": 5415,
  " dú ": 5416,
  "zhēn shí ": 5417,
  "zhòu ": 5418,
  "měi shù ": 5419,
  "zhōng huá rén mín gòng hé guó ": 5420,
  "yǒu bù ": 5421,
  "yìn dì ": 5422,
  "xué shù ": 5423,
  "b ": 5424,
  "xīng qī ": 5425,
  "mìng lìng ": 5426,
  " de gōng zuò ": 5427,
  "2020 nián měi guó rén kǒu pǔ chá de shù jù ": 5428,
  "jiàn shè ": 5429,
  "jǔ xíng": 5430,
  "wǔ zhuāng ": 5431,
  "pǐ ": 5432,
  "fáng yù ": 5433,
  " rèn wù ": 5434,
  "bào dǎo ": 5435,
  "tiáo zhěng ": 5436,
  " ōu ": 5437,
  "tī ": 5438,
  "yí chǎn ": 5439,
  "ào mén ": 5440,
  "   2025": 5441,
  " shí yī ": 5442,
  " lǎo ": 5443,
  "tí gāo ": 5444,
  "yǔn xǔ ": 5445,
  " lǐ": 5446,
  " jiā rù": 5447,
  " zhī hòu": 5448,
  "hán shù ": 5449,
  "1990 nián ": 5450,
  "fēi lǜ ": 5451,
  "wǎ ěr ": 5452,
  "yí mín ": 5453,
  "yǐ lái ": 5454,
  "le tā de ": 5455,
  "huì yuán ": 5456,
  " shí qī": 5457,
  "jì lù ": 5458,
  " jī guān ": 5459,
  "dū shì ": 5460,
  "jī chǎng ": 5461,
  "le yí gè ": 5462,
  "huà jiā ": 5463,
  "shū de ": 5464,
  "jù lí ": 5465,
  "shù zì ": 5466,
  " fù zé": 5467,
  "yòng hù ": 5468,
  " shì yī zhǒng": 5469,
  "jīn de ": 5470,
  " rén lèi": 5471,
  " zhèng": 5472,
  " zhōu nián ": 5473,
  "hōng zhà": 5474,
  " zì jǐ de ": 5475,
  "jiē jí ": 5476,
  "duàn de ": 5477,
  "dū jiào ": 5478,
  "   2024": 5479,
  "lì shì ": 5480,
  "kè lǐ ": 5481,
  " zhuāng ": 5482,
  "sú ": 5483,
  "yán de ": 5484,
  "yíng de ": 5485,
  "huā yuán ": 5486,
  "shān mài": 5487,
  "shēng jí ": 5488,
  "yuē yǒu ": 5489,
  " shì dà ": 5490,
  "wén zì ": 5491,
  "chū bǎn ": 5492,
  "dōng jì ": 5493,
  "miàn duì ": 5494,
  "yāo qǐng ": 5495,
  " 2011 nián ": 5496,
  " hóng": 5497,
  "děng wèi ": 5498,
  "zī jīn ": 5499,
  " lì shǐ": 5500,
  "wǔ tái ": 5501,
  " yú 18": 5502,
  " shè jí ": 5503,
  "xiào guǒ ": 5504,
  " suì de ": 5505,
  " wén": 5506,
  " xú": 5507,
  " zhì shí ": 5508,
  " zhì lì ": 5509,
  "gāo děng ": 5510,
  " 2016": 5511,
  " dìng ": 5512,
  " chēng wéi ": 5513,
  " suǒ yǐ": 5514,
  " liáng ": 5515,
  "yuán jí ": 5516,
  " rén mín": 5517,
  " hé lán ": 5518,
  "shēn qǐng ": 5519,
  " 2005 nián ": 5520,
  "dòng zuò ": 5521,
  "er   ": 5522,
  " xiàn hé ": 5523,
  " 3 yuè ": 5524,
  "měi guó de ": 5525,
  "liǎng zhǒng ": 5526,
  " n": 5527,
  " 2008 nián ": 5528,
  "jiào liàn ": 5529,
  " míng cháo zhèng zhì rén wù ": 5530,
  " biān": 5531,
  "   zǎo nián ": 5532,
  " jiǔ": 5533,
  "bá ": 5534,
  " rì jūn ": 5535,
  "xià lìng": 5536,
  " wàn měi yuán ": 5537,
  " zhuǎn": 5538,
  " hán guó ": 5539,
  "   xīn ": 5540,
  "lǐng tǔ ": 5541,
  " yuán míng ": 5542,
  "nǔ lì ": 5543,
  "zhèng míng ": 5544,
  "liè biǎo ": 5545,
  "   hòu ": 5546,
  "lù jūn": 5547,
  " zhōng yú ": 5548,
  "zuò yòng ": 5549,
  "jīng cháng ": 5550,
  "qū yù": 5551,
  "yǒu zài ": 5552,
  " yì yì ": 5553,
  "yǐng piàn": 5554,
  " zhāo": 5555,
  " yuán gōng ": 5556,
  " jìn xíng": 5557,
  " nán zhì ": 5558,
  "   yóu ": 5559,
  " guó huì ": 5560,
  " gōng huì ": 5561,
  "guān xì": 5562,
  " xié ": 5563,
  "ST ": 5564,
  " jì zhě ": 5565,
  "huí yìng ": 5566,
  "lǐ lùn ": 5567,
  "yòng zuò ": 5568,
  "nèi lù ": 5569,
  "2 rén ": 5570,
  " shī": 5571,
  "zhǎo dào ": 5572,
  "1984 nián ": 5573,
  "wáng cháo": 5574,
  "jīng lǐ ": 5575,
  "lǚ xíng ": 5576,
  "shén jīng ": 5577,
  " shì hòu ": 5578,
  " Ch": 5579,
  " shàng": 5580,
  " jù": 5581,
  " xiū ": 5582,
  " gōng chǎng ": 5583,
  "fù jìn ": 5584,
  "jiǔ diàn ": 5585,
  "yú zài ": 5586,
  "bǎo chí": 5587,
  "guī zé ": 5588,
  " chì ": 5589,
  "tài rén ": 5590,
  " hé gōng ": 5591,
  "qì xiàng ": 5592,
  "kě yǐ zài ": 5593,
  "suì dào ": 5594,
  "zhī jiān ": 5595,
  "tí dào ": 5596,
  " chéng xiàn ": 5597,
  " nián 1 yuè 1 rì ": 5598,
  "V ": 5599,
  " jī chē ": 5600,
  " shí èr ": 5601,
  " bó": 5602,
  "āi jí ": 5603,
  "1989 nián ": 5604,
  "gé wèi ": 5605,
  "shǒu jī ": 5606,
  " guó fáng": 5607,
  " jué": 5608,
  "kōng zhōng ": 5609,
  " nián shì jiè ": 5610,
  "shǒu dū ": 5611,
  "zhù lǐ ": 5612,
  "14 ": 5613,
  "bèi shì wèi ": 5614,
  "tōng dào ": 5615,
  "kǒng bù ": 5616,
  "wǒ men": 5617,
  "qí zhōng yī zhǒng ": 5618,
  " luó": 5619,
  "zuò wèi ": 5620,
  " de zhì ": 5621,
  " wǒ men ": 5622,
  " bǐ": 5623,
  "lì wèi ": 5624,
  "shū jí ": 5625,
  " ér chéng ": 5626,
  "jī hé ": 5627,
  " yīng": 5628,
  " 188": 5629,
  " tián ": 5630,
  "dōng nán bù ": 5631,
  "yǐ xià ": 5632,
  "xīn jiā pō": 5633,
  "yǎn yì ": 5634,
  " xī wàng": 5635,
  " m": 5636,
  "dà lù de ": 5637,
  "qǐ yè": 5638,
  " fǎn": 5639,
  " zuò wéi": 5640,
  "gù wèn ": 5641,
  "dài lǐ ": 5642,
  " de jiā ": 5643,
  "jīn shǔ ": 5644,
  "jìn yí bù ": 5645,
  "fēn zhōng ": 5646,
  "10 nián ": 5647,
  " xuǎn ": 5648,
  " hěn ": 5649,
  "   3": 5650,
  "láo dòng ": 5651,
  "zhǔ chí": 5652,
  "jiào xué ": 5653,
  "biǎo miàn ": 5654,
  " léi ": 5655,
  " yīng yǔ ": 5656,
  " 30": 5657,
  "nī ": 5658,
  "cái liào ": 5659,
  " hé xī ": 5660,
  " bù bù ": 5661,
  " hé shí ": 5662,
  " yǒu jī ": 5663,
  "cháo xiān": 5664,
  " 2001 nián rén kǒu ": 5665,
  "dào lù ": 5666,
  "huá rén ": 5667,
  "3 rén ": 5668,
  " guān": 5669,
  " zài wèi ": 5670,
  " běi qǐ ": 5671,
  "bǎo liú ": 5672,
  "jìng de ": 5673,
  "sǐ hòu ": 5674,
  "bō lán": 5675,
  "tōng chē ": 5676,
  "sī lì ": 5677,
  " zhōng guó dà lù ": 5678,
  "bái sè ": 5679,
  "yà lì shān dà ": 5680,
  "huì shì ": 5681,
  " yǐ bèi ": 5682,
  " tǔ ": 5683,
  "fǎ àn ": 5684,
  "jū mín": 5685,
  "zhǔ lì ": 5687,
  " píng miàn ": 5688,
  "ní kè ": 5689,
  " tā wèi ": 5690,
  "yǐn qǐ ": 5691,
  " wàn yuán ": 5692,
  " 2021": 5693,
  "zhǔ de ": 5694,
  " zhī jiān": 5695,
  "yǐn qǐ": 5696,
  " sī tè": 5697,
  "nǚ zǐ": 5698,
  "zhào kāi ": 5699,
  " xiàn de yí gè ": 5700,
  "ne ": 5701,
  " dào dá ": 5702,
  "zhài ": 5703,
  " dōng nán ": 5704,
  "yùn zuò ": 5705,
  "   2012": 5706,
  "jiāo huì ": 5707,
  "yí zhǐ ": 5708,
  "wèi   ": 5709,
  "shǒu gè ": 5710,
  "tuì chū ": 5711,
  "dì èr ": 5712,
  " ér yán ": 5713,
  " xiàn de yí gè": 5714,
  " qǐ": 5715,
  "jiè de ": 5716,
  "zhá ": 5717,
  " bèi rèn wéi shì ": 5718,
  "céng jīng": 5719,
  "lì zài ": 5720,
  " jī hū": 5721,
  " kè chéng ": 5722,
  "wén zhāng ": 5723,
  "jǐ gè ": 5724,
  " shì jiā ": 5725,
  " yǒu yì ": 5726,
  "tè shū ": 5727,
  " nǚ xìng ": 5728,
  " xī sī ": 5729,
  "xiāng guān": 5730,
  "shī fàn": 5731,
  " fù qīn ": 5732,
  "wú fǎ": 5733,
  "cān móu": 5734,
  " s   ": 5735,
  "jīn huì ": 5736,
  "lěng ": 5737,
  "1985 nián ": 5738,
  "jiào shī ": 5739,
  "   xià ": 5740,
  "fēi zhōu ": 5741,
  "lǜ shī ": 5742,
  " shì yǔ ": 5743,
  "wēi jī ": 5744,
  "xī bān yá": 5745,
  "dà wèi ": 5746,
  " yī jí ": 5747,
  "cháng de ": 5748,
  " bù dé": 5749,
  " tā men zài ": 5750,
  " yì fāng miàn ": 5751,
  "fǎ yuàn": 5752,
  " ér shuǐ yù miàn jī wèi 0": 5753,
  " guó jiā de ": 5754,
  " féng ": 5755,
  "zhě zài ": 5756,
  " hé qí tā ": 5757,
  "xì tǒng de ": 5758,
  "   U": 5759,
  "duō nián ": 5760,
  "yà zhōu": 5761,
  "chē de ": 5762,
  "jīn pái ": 5763,
  " zhī wèi ": 5764,
  " bìng jiāng ": 5765,
  " zhǔ xí ": 5766,
  "kāng xī ": 5767,
  "yào wù ": 5768,
  "1 rén ": 5769,
  "wén xiàn ": 5770,
  "zé wèi ": 5771,
  " chéng xù ": 5772,
  "biàn dé ": 5773,
  "biǎo dá": 5774,
  " měi nián ": 5775,
  "dà dì ": 5776,
  " chéng rèn ": 5777,
  "zhí mín": 5778,
  "guò qù ": 5779,
  "pú táo yá": 5780,
  "huān yíng ": 5781,
  " jù yǒu ": 5782,
  " zhì liáo ": 5783,
  " sī kè ": 5784,
  " jìn xíng le ": 5785,
  " gǎng ": 5786,
  "   chéng ": 5787,
  "mù biāo": 5788,
  " 00 ": 5789,
  " hǎi": 5790,
  "fú yì ": 5791,
  "zhuāng shì ": 5792,
  "dōng běi bù ": 5793,
  "gòu zào ": 5794,
  "huò dé le ": 5795,
  "bó wù guǎn": 5796,
  "ào dà lì yà ": 5797,
  " bān ": 5798,
  " qǔ ": 5799,
  "běn dì ": 5800,
  "jiāng huì ": 5801,
  " qiú yuán ": 5802,
  " fèi": 5803,
  " 100": 5804,
  " guān yú ": 5805,
  " ér gāi dì ": 5806,
  "xiān shēng ": 5807,
  " bù lā ": 5808,
  " yú lè ": 5809,
  "bō lán ": 5810,
  "1949 nián ": 5811,
  "jiā rù": 5812,
  "fàng qì ": 5813,
  "jiàn yì ": 5814,
  " lí": 5815,
  " 2015": 5816,
  " wèi yǒu ": 5817,
  "yì dà lì ": 5818,
  "dāng shí de ": 5819,
  " qī xī zài ": 5820,
  "máo zé ": 5821,
  "liǎng nián ": 5822,
  "xiào de ": 5823,
  "sà sī ": 5824,
  " bìng yǔ ": 5825,
  " zhǒng ": 5826,
  " dà lù ": 5827,
  " zhù": 5828,
  " yōng yǒu ": 5829,
  "guǎng gào ": 5830,
  " wèi lái ": 5831,
  " 2007 nián ": 5832,
  "chēng zuò ": 5833,
  "fù qīn": 5834,
  "zì yóu": 5835,
  " jiàn zào ": 5836,
  "liú zài ": 5837,
  "shōu shì ": 5838,
  " de zhèng ": 5839,
  " jìn yí bù ": 5840,
  " bàn ": 5841,
  "   cóng ": 5842,
  "nán jīng ": 5843,
  " jìn gōng ": 5844,
  "sà ěr ": 5845,
  "luó dì ": 5846,
  " shì zhèng ": 5847,
  " fù qīn": 5848,
  "tiān de ": 5849,
  "jǐn jí ": 5850,
  "xì jù ": 5851,
  " hào wèi ": 5852,
  "jì xù ": 5853,
  " jì shù": 5854,
  "tǎn kè ": 5855,
  " gé": 5856,
  " rén men": 5857,
  " rì jūn": 5858,
  "4 rén ": 5859,
  " yì měi yuán ": 5860,
  "cì shǐ ": 5861,
  " 2013": 5862,
  " zài cǐ": 5863,
  "   In": 5864,
  " tè bié shì ": 5865,
  "huǒ jiàn ": 5866,
  " jiā zú ": 5867,
  "piào fáng ": 5868,
  "què rèn ": 5869,
  "qǐng qiú ": 5870,
  " de shēng ": 5871,
  "jǐng fāng ": 5872,
  "kǎo lǜ": 5873,
  "bǐ lì shí ": 5874,
  "1986 nián ": 5875,
  " shì rì běn ": 5876,
  "tài píng yáng": 5877,
  "zhān mǔ sī ": 5878,
  " bīng ": 5879,
  " jié guǒ": 5880,
  " 2014": 5881,
  " chū shēng ": 5882,
  "dì zài ": 5883,
  "pāi ": 5884,
  " yǐ yǒu ": 5885,
  " sī tǎn": 5886,
  "tóu piào": 5887,
  " bǎi ": 5888,
  "biān de ": 5889,
  "shàng wǔ ": 5890,
  "bā lí": 5891,
  "wáng cháo ": 5892,
  "nèi yǒu ": 5893,
  "wán gōng ": 5894,
  " zhì chéng ": 5895,
  "guǎng dōng shěng ": 5896,
  "   jié zhì ": 5897,
  "fěn ": 5898,
  " f": 5899,
  "pāi shè": 5900,
  " yuán běn ": 5901,
  "chéng nián ": 5902,
  " gāo": 5903,
  "chǎng hé ": 5904,
  "chī ": 5905,
  " qí zài ": 5906,
  " zhī zi ": 5907,
  " xì liè ": 5908,
  " pèi": 5909,
  "   w": 5910,
  "shēn tǐ ": 5911,
  "méng gǔ": 5912,
  "18 ": 5913,
  " dà yuē ": 5914,
  " zhàn dòu ": 5915,
  "gǔ fèn": 5916,
  " zhī de ": 5917,
  "yǎn chàng ": 5918,
  "xí xìng": 5919,
  "gèng duō ": 5920,
  "hú běi ": 5921,
  " yuē hàn ": 5922,
  "dēng shàng ": 5923,
  " xiàn chǎng ": 5924,
  "   zēng ": 5925,
  "suǒ zài ": 5926,
  "mín jiān ": 5927,
  "qíng bào ": 5928,
  "guǎng fàn": 5929,
  "mǔ qīn": 5930,
  "5 rén ": 5931,
  "wài bù ": 5932,
  "zhòng yì ": 5933,
  "mì mì ": 5934,
  " yīng wén ": 5935,
  "guān bì ": 5936,
  " dèng": 5937,
  " hè ": 5938,
  "xiào yuán ": 5939,
  " shì yè ": 5940,
  " zài qí ": 5941,
  "kǎo lǜ ": 5942,
  "é luó sī": 5943,
  " tí gōng ": 5944,
  "tè sè ": 5945,
  " jīng jì ": 5946,
  " āi ": 5947,
  " yǒu xiàn ": 5948,
  "sēn lín ": 5949,
  "mǎ sī ": 5950,
  "ān pái ": 5951,
  " 2020": 5952,
  "   2": 5953,
  "wù yuán ": 5954,
  "měng ": 5955,
  "xià yī ": 5956,
  "měi gè ": 5957,
  " quán qiú ": 5958,
  " wǒ men": 5959,
  "èr yuè ": 5960,
  " dà duō shù ": 5961,
  " bù jiǔ": 5962,
  "zhuāng bèi ": 5963,
  "huǎn ": 5964,
  " dà dào ": 5965,
  " 10 ": 5966,
  "néng zài ": 5967,
  " jī bài": 5968,
  "tǔ ěr qí ": 5969,
  " wò": 5970,
  "qiān zhì ": 5971,
  "cùn ": 5972,
  " dì yī cì ": 5973,
  " zuì gāo ": 5974,
  "chǎng dì ": 5975,
  "zèng ": 5976,
  "mín zhǔ dǎng ": 5977,
  "nán yǐ ": 5978,
  "xìng qù ": 5979,
  " shí yàn ": 5980,
  "zuò zhàn ": 5981,
  " jí běi ": 5982,
  " chū lái ": 5983,
  "tái fēng ": 5984,
  "tiān jīn ": 5985,
  " nián   ": 5986,
  " 2017": 5987,
  "bàn lǐ ": 5988,
  " zhī dào ": 5989,
  "tiān jīn": 5990,
  " xún ": 5991,
  " pèi ": 5992,
  "lóng jiāng ": 5993,
  "lǐng shì ": 5994,
  " bù zú ": 5995,
  "yòng tú ": 5996,
  "H ": 5997,
  " cān jiā ": 5998,
  " zhōng shì ": 5999,
  "lǐ gōng ": 6000,
  " tōng cháng": 6001,
  " yuán sù ": 6002,
  " é": 6003,
  "wēi ěr ": 6004,
  "nóng yè": 6005,
  " qīng cháo ": 6006,
  "āi ěr ": 6007,
  " kāng ": 6008,
  "cháng jiàn de ": 6009,
  " chéng dù ": 6010,
  "zhàn lǐng ": 6011,
  "jìn xíng le ": 6012,
  " shǐ jiàn yú ": 6013,
  " gāng ": 6014,
  "   míng ": 6015,
  "dǎo dàn ": 6016,
  "xiū zhèng ": 6017,
  " yuè tuán ": 6018,
  " lǚ ": 6019,
  "zǔ jiàn ": 6020,
  "guì zhōu ": 6021,
  " tā hái ": 6022,
  "   xiàn": 6023,
  "fēn bù yú ": 6024,
  "ma ": 6025,
  "mǎ lái xī yà ": 6026,
  "xǐ jù ": 6027,
  " gōng zhǔ ": 6028,
  "xí xìng bù míng ": 6029,
  " shí dài": 6030,
  "zhàng ài ": 6031,
  "xiàng shì ": 6032,
  " wén huà ": 6033,
  "   f": 6034,
  " chū qī ": 6035,
  " zhàn dòu": 6036,
  "te ": 6037,
  "huá shèng ": 6038,
  " yán": 6039,
  "shēng chéng ": 6040,
  "1987 nián ": 6041,
  " yǒu xiē ": 6042,
  "fǎ guān ": 6043,
  "jiāo liú ": 6044,
  "rèn mìng wèi ": 6045,
  " shēng chǎn": 6046,
  " yì qǐ": 6047,
  " yě jiù shì ": 6048,
  "   tā ": 6049,
  " de fāng shì ": 6050,
  " hé hé ": 6051,
  " shēng huó xí xìng bù míng ": 6052,
  " héng ": 6053,
  "shè zhì ": 6054,
  "shòu dào": 6055,
  "tí chū": 6056,
  "40 ": 6057,
  "jī chǔ ": 6058,
  " tā yě ": 6059,
  " A ": 6060,
  " shōu ": 6061,
  "hěn dà ": 6062,
  " chǔ yú ": 6063,
  "zhì zhōng ": 6064,
  "tóng nián ": 6065,
  "bào fā": 6066,
  " táo ": 6067,
  "zhǔ shì ": 6068,
  "se ": 6069,
  "1980 nián ": 6070,
  "jù jué ": 6071,
  " wàn lì ": 6072,
  " gēn jù": 6073,
  "   měi guó ": 6074,
  "chuán shuō ": 6075,
  "h ": 6076,
  "17 ": 6077,
  "lā dīng": 6078,
  "lǐng xiù ": 6079,
  "chuàng bàn": 6080,
  "huà hé wù ": 6081,
  " ér bú shì ": 6082,
  "ān zhuāng": 6083,
  " ruì ": 6084,
  "rèn shí ": 6085,
  "qióng ": 6086,
  "1982 nián ": 6087,
  " yín ": 6088,
  "bào lì ": 6089,
  "ān nà ": 6090,
  " yī xué ": 6091,
  "wǒ men ": 6092,
  " gòng": 6093,
  " xuān ": 6094,
  "ter ": 6095,
  "zhì bù ": 6096,
  "wén yì ": 6097,
  "shú ": 6098,
  "jiā lì fú ": 6099,
  " zhào": 6100,
  " yǒu yí gè ": 6101,
  " xiàn xiàng ": 6102,
  "shàng yìng ": 6103,
  " gòng yǒu ": 6104,
  "   lǐ ": 6105,
  "fǎ yǔ ": 6106,
  " zài nèi de ": 6107,
  "gāo sù ": 6108,
  " zài dù ": 6109,
  " ér bù ": 6110,
  "jì shì ": 6111,
  "yuàn shì ": 6112,
  " wèi xīng ": 6113,
  "yán shēn": 6114,
  "hǎi àn ": 6115,
  "chuàng jiàn ": 6116,
  "bīn hǎi ": 6117,
  "shùn lì ": 6118,
  " lǐ lùn": 6119,
  " dōng běi ": 6120,
  "   cǐ wài ": 6121,
  " luò": 6122,
  " hàn": 6123,
  " 2013 nián ": 6124,
  "léi sī ": 6125,
  "ruǎn jiàn ": 6126,
  " shēng zhǎng": 6127,
  "shū rù ": 6128,
  "nǚ xìng": 6129,
  " yóu qí shì ": 6130,
  "tuī jìn ": 6131,
  " hé bù ": 6132,
  "zī chǎn ": 6133,
  "lùn wén ": 6134,
  "kǔ ": 6135,
  " xíng zhèng": 6136,
  "wǎng luò": 6137,
  "wǎng qiú ": 6138,
  "hǎi wài ": 6139,
  "zuì gāo": 6140,
  "píng lùn ": 6141,
  " bù luò ": 6142,
  " dà shà": 6143,
  " kǎ": 6144,
  "zhǔ yì de ": 6145,
  "bào gào": 6146,
  " 2010": 6147,
  "1983 nián ": 6148,
  "yìng yòng": 6149,
  "cǎi qǔ ": 6150,
  " 2012": 6151,
  "jiào shì ": 6152,
  "zū ": 6153,
  "bǎn běn": 6154,
  "pái míng dì ": 6155,
  " sāi ": 6156,
  "jù hé ": 6157,
  "biàn wèi ": 6158,
  "15 nián ": 6159,
  " 2006 nián ": 6160,
  "tóu zī": 6161,
  " shǔ": 6162,
  " wǎ ": 6163,
  "yú de ": 6164,
  "sān shì ": 6165,
  "zé rèn ": 6166,
  "fāng miàn de ": 6167,
  "diàn nǎo": 6168,
  "bō fàng ": 6169,
  " běi jīng ": 6170,
  "   qí ": 6171,
  " zài xī ": 6172,
  "rén dà ": 6173,
  " dé ěr ": 6174,
  " hòu xuǎn rén ": 6175,
  " nà": 6176,
  " tǎ ": 6177,
  "mǎ lǐ ": 6178,
  "yǐn qíng ": 6179,
  "gè zhǒng ": 6180,
  "   of   ": 6181,
  " Ma": 6182,
  "1945 nián ": 6183,
  " shì mín ": 6184,
  " hé dà ": 6185,
  "diàn zi": 6186,
  "lǐng dì ": 6187,
  "21 nián ": 6188,
  " zài cì": 6189,
  "fàn wéi nèi ": 6190,
  "rǎo ": 6191,
  "   jù qíng ": 6192,
  "   qián ": 6193,
  "zhè lǐ ": 6194,
  "xiāng shì dì ": 6195,
  "13 nián ": 6196,
  " yú rén ": 6197,
  "zhèng dǎng ": 6198,
  " rì bào ": 6199,
  " lìng yī ": 6200,
  "xíng chéng ": 6201,
  "fā xíng de ": 6202,
  " jī hū ": 6203,
  "zhí jiē": 6204,
  " pà": 6205,
  "fēng wèi ": 6206,
  "pài de ": 6207,
  "22 nián ": 6208,
  " shì gù ": 6209,
  "xì bāo": 6210,
  " zhì shǎo ": 6211,
  "biǎo dá ": 6212,
  "yuàn yì ": 6213,
  " tā hé ": 6214,
  "jù lè bù ": 6215,
  "dú lì de ": 6216,
  "mián ": 6217,
  " zhī fù ": 6218,
  "jiǔ lóng ": 6219,
  "dāng xuǎn ": 6220,
  "hè ěr ": 6221,
  "zì rán": 6222,
  " 30 ": 6223,
  "   chū ": 6224,
  "   xiàn ": 6225,
  " yǒu xiào ": 6226,
  "bú ": 6227,
  "wēn dù ": 6228,
  "c   ": 6229,
  "jì chéng ": 6230,
  "huǒ shān ": 6231,
  "yǔn xǔ": 6232,
  " yī xiǎo shí ": 6233,
  " jì suàn ": 6234,
  " dà xī yáng ": 6235,
  "guò qù": 6236,
  "jiù dú": 6237,
  "pái háng ": 6238,
  "ān dé ": 6239,
  " dōng lín ": 6240,
  "to   ": 6241,
  "jǐng chá": 6242,
  "zhī chí": 6243,
  "fǎng wèn": 6244,
  "míng zì ": 6245,
  " zuò jiā ": 6246,
  "xǐ huān": 6247,
  " yòng yú ": 6248,
  "dǎng yuán ": 6249,
  " róng ": 6250,
  "qū yì huì ": 6251,
  " dà fú ": 6252,
  " dé huá ": 6253,
  " lái": 6254,
  " 2012 nián ": 6255,
  "huàn chéng ": 6256,
  "fāng yán ": 6257,
  "biǎo yǎn": 6258,
  "xiàn zhì ": 6259,
  "yáng shì ": 6260,
  "dōu zài ": 6261,
  " dì yí gè ": 6262,
  "1 lì ": 6263,
  " chū zhàn ": 6264,
  "bǐ yà": 6265,
  "   dì fāng ": 6266,
  " yǔ máo": 6267,
  " bìng bèi ": 6268,
  "qū hé ": 6269,
  " yī tóng ": 6270,
  " zhōng huá rén mín gòng hé guó zhèng zhì rén wù ": 6271,
  " kǒng ": 6272,
  " xiàn shì ": 6273,
  "xiāng dāng": 6274,
  "jīng yàn ": 6275,
  "tiáo zhěng": 6276,
  "pǔ biàn ": 6277,
  " yíng ": 6278,
  " 7 ": 6279,
  "zuò shì ": 6280,
  " zhōng bèi ": 6281,
  "guān diǎn ": 6282,
  "jiàng dī ": 6283,
  "kē de qí zhōng yī zhǒng ": 6284,
  "23 nián ": 6285,
  " gōng yì ": 6286,
  "xún yáng": 6287,
  " 0 ": 6288,
  "dà zhì ": 6289,
  "liǎng míng ": 6290,
  "hán yǒu ": 6291,
  "zhòng duō ": 6292,
  "diǎn lǐ ": 6293,
  " shēng yú ": 6294,
  "shě ": 6295,
  "guà ": 6296,
  " bìng dú": 6297,
  "yà jūn ": 6298,
  " qí zhōng yī ": 6299,
  "shè qū ": 6300,
  "kǒu wèi ": 6301,
  "chéng yuán ": 6302,
  "zhī qián ": 6303,
  "mì shū zhǎng ": 6304,
  " dì sì": 6305,
  "yí dù ": 6306,
  " sài jì ": 6307,
  "tiáo lì ": 6308,
  "nèi gé ": 6309,
  " liàng ": 6310,
  "shù yǔ ": 6311,
  "shān shì ": 6312,
  "wú zhèng zhuàng ": 6313,
  " xiàn rèn ": 6314,
  "tū pò ": 6315,
  "xiě dào ": 6316,
  "dàng tiān ": 6317,
  " chá ": 6318,
  " xíng wèi ": 6319,
  " zǔ fù ": 6320,
  " píng jūn ": 6321,
  " gōng mín ": 6322,
  "xīng děng wèi ": 6323,
  " shì yú ": 6324,
  " tóng yì ": 6325,
  " è ": 6326,
  " jiù shì ": 6327,
  "hóng sè ": 6328,
  "zhèng bù ": 6329,
  "wán zhěng": 6330,
  " bǐ sài ": 6331,
  "kāi shǐ zài ": 6332,
  "7 rén ": 6333,
  "tuán de ": 6334,
  "gěi le ": 6335,
  " jī jīn ": 6336,
  "sǐ wáng": 6337,
  "zhěng tǐ ": 6338,
  "z ": 6339,
  "yì nián ": 6340,
  "běn rén ": 6341,
  "jué duì ": 6342,
  "lǔ sī ": 6343,
  " liù": 6344,
  " 500": 6345,
  " shuō ": 6346,
  " quán lì ": 6347,
  "yí dìng ": 6348,
  "yīng wén ": 6349,
  "dài biǎo dà huì ": 6350,
  "6 rén ": 6351,
  " sài ": 6352,
  " háo mǐ ": 6353,
  "   jí ": 6354,
  "chí yǒu ": 6355,
  " shì bīng ": 6356,
  "gài niàn": 6357,
  " réng": 6358,
  "   2011": 6359,
  " gōng jù ": 6360,
  "shè shī ": 6361,
  " zuì chū ": 6362,
  " néng ": 6363,
  " sūn": 6364,
  "huáng hòu ": 6365,
  "gōng chéng ": 6366,
  " zhè zhǒng": 6367,
  "xià xiá de yí gè ": 6368,
  "zhǒng zú ": 6369,
  "   ā ": 6370,
  "zhí dǎo ": 6371,
  "m   ": 6372,
  "ní ěr ": 6373,
  " de chéng jì ": 6374,
  "1   ": 6375,
  " jí rén ": 6376,
  " suì shí ": 6377,
  "lái yuè ": 6378,
  "qǐ dòng ": 6379,
  "bǎo shǒu ": 6380,
  "tóu xiáng ": 6381,
  "guì zú ": 6382,
  "yuè zhōng ": 6383,
  "zhèn qū de ": 6384,
  "zǎo qī": 6385,
  "bó shì xué wèi ": 6386,
  "   qí tā ": 6387,
  "shān jī ": 6388,
  "kuì ": 6389,
  " wéi ěr": 6390,
  "jiè shào ": 6391,
  "shén me ": 6392,
  " měi gè ": 6393,
  "yāo qǐng": 6394,
  " xìn ": 6395,
  "gǔ dài ": 6396,
  " míng dān ": 6397,
  " diàn yǐng ": 6398,
  "míng rén ": 6399,
  " dé yǔ ": 6400,
  "hēi sè ": 6401,
  " yī zuò ": 6402,
  " yǐ jí": 6403,
  " ér gāi ": 6404,
  "3 gè ": 6405,
  "   2010": 6406,
  "tāng ": 6407,
  " rén mín zhèng fǔ ": 6408,
  "ēn shěng ": 6409,
  "tòu guò": 6410,
  "fàn zuì ": 6411,
  " xiǎng nián ": 6412,
  "wú zhèng zhuàng gǎn rǎn ": 6413,
  "suí zhù ": 6414,
  "mù qián": 6415,
  " duàn ": 6416,
  "19 ": 6417,
  "huó yuè ": 6418,
  "cháng wù ": 6419,
  "cháng wěi ": 6420,
  "gǎi míng wèi ": 6421,
  "běi jīng shì ": 6422,
  "què zhěn bìng lì ": 6423,
  "míng zhì ": 6424,
  "sā ": 6425,
  " rì yú ": 6426,
  "chū shēn ": 6427,
  "tún ": 6428,
  "diàn huà ": 6429,
  "gāo sù gōng lù ": 6430,
  " 2022": 6431,
  " fān ": 6432,
  "gèng wéi ": 6433,
  " bù sī ": 6434,
  " jī sī ": 6435,
  "tài zi ": 6436,
  " bǐ rú ": 6437,
  "quē fá": 6438,
  "   gāi": 6439,
  "kè chéng ": 6440,
  "kùn nán ": 6441,
  " bù lì ": 6442,
  "dān de ": 6443,
  "lóng de ": 6444,
  "rù xuǎn ": 6445,
  "yǐ jīng ": 6446,
  "tí jí ": 6447,
  "zuì duō ": 6448,
  " wèi yú zhōng guó ": 6449,
  "sāi ěr wéi ": 6450,
  " èr shí ": 6451,
  "huì zhōng ": 6452,
  "shōu jí ": 6453,
  " lì fǎ": 6454,
  "xué huì ": 6455,
  " bìng fēi ": 6456,
  "hǎi xiá ": 6457,
  "gòu de ": 6458,
  " xī jiē ": 6459,
  "gē lún ": 6460,
  " jī chǎng": 6461,
  "jù dà ": 6462,
  "duō rén ": 6463,
  " chéng rén ": 6464,
  "fù zé": 6465,
  "ān nà": 6466,
  "zú qiú yùn dòng yuán ": 6467,
  "xiě de ": 6468,
  "zuò chū ": 6469,
  "zhuī sù": 6470,
  " kuān": 6471,
  " 2014 nián ": 6472,
  "1979 nián ": 6473,
  " tóng shí gāi dì ": 6474,
  " xiǎng ": 6475,
  "1972 nián ": 6476,
  "bēi sī ": 6477,
  " yě zài ": 6478,
  "shěng de ": 6479,
  "lìng rén ": 6480,
  " yòng": 6481,
  "huì zhì ": 6482,
  " dé zhǔ ": 6483,
  "tǎo lùn": 6484,
  " jí dì ": 6485,
  "nèi lù shěng fèn ": 6486,
  "1978 nián ": 6487,
  "ān huī ": 6488,
  "kē xué jiā ": 6489,
  " Z": 6490,
  "tú xíng ": 6491,
  " guó nèi ": 6492,
  "pī zhǔn": 6493,
  "jiāng zài ": 6494,
  "ar ": 6495,
  "tiào ": 6496,
  " bìng dú ": 6497,
  " yuē": 6498,
  "cì de ": 6499,
  "yí dìng": 6500,
  " se": 6501,
  "zhú bù ": 6502,
  " de dì èr ": 6503,
  "shòu de ": 6504,
  "shān de ": 6505,
  "st   ": 6506,
  " shì yīn wèi ": 6507,
  " kè xī ": 6508,
  "jié guǒ": 6509,
  "qiáng liè ": 6510,
  "lián hé huì ": 6511,
  "chāo yuè ": 6512,
  "tái nán": 6513,
  "jiǎn shǎo": 6514,
  "dī yú ": 6515,
  "tí gōng le ": 6516,
  " pò ": 6517,
  "le zài ": 6518,
  "jià gé ": 6519,
  "pài qiǎn": 6520,
  "xià lìng shí jiān ": 6521,
  "hǎi píng miàn ": 6522,
  "bú dào ": 6523,
  " shí qī de ": 6524,
  " yuán xíng ": 6525,
  "8 rén ": 6526,
  " yāo qiú ": 6527,
  "yě zài ": 6528,
  " jī huì ": 6529,
  " xué yuàn": 6530,
  "huī fù": 6531,
  "guò de ": 6532,
  "yà měi ": 6533,
  "biān jiè ": 6534,
  "dǒng shì zhǎng ": 6535,
  " wán jiā ": 6536,
  "fāng fǎ": 6537,
  "tí yì ": 6538,
  "shū zhōng ": 6539,
  "xūn zhāng ": 6540,
  "shī bài ": 6541,
  " jiào yù ": 6542,
  "zhǔ yào de ": 6543,
  "zhǔ jiào": 6544,
  " hào de ": 6545,
  "ní yà zhōu ": 6546,
  " hòu bèi ": 6547,
  "guān chá ": 6548,
  " xué jiā ": 6549,
  "liú xià ": 6550,
  "shuāng fāng ": 6551,
  "   bèi jǐng ": 6552,
  "ér tóng ": 6553,
  "1976 nián ": 6554,
  " yī lì ": 6555,
  "jiā yì ": 6556,
  "tōu ": 6557,
  " bù duì": 6558,
  " yǐ wéi ": 6559,
  "lián xù": 6560,
  "xiàn de ": 6561,
  "qīn zì ": 6562,
  " ér zi ": 6563,
  "zhuāng jiǎ ": 6564,
  " 1950": 6565,
  " yǒu suǒ ": 6566,
  "ǒu ": 6567,
  " zài shí ": 6568,
  "zuì gāo de ": 6569,
  "huì yì yuán ": 6570,
  "sān jiǎo": 6571,
  "   dì fāng zī liào ": 6572,
  "rèn wèi ": 6573,
  "mǎ ěr ": 6574,
  "zǔ fù ": 6575,
  "lán de ": 6576,
  "ná xià ": 6577,
  "píng tái ": 6578,
  "fēi cháng": 6579,
  "   jiǎn jiè ": 6580,
  "duō wèi ": 6581,
  " hé yuē ": 6582,
  "1958 nián ": 6583,
  "bèi de ": 6584,
  " lì liàng ": 6585,
  " chū kǒu ": 6586,
  "gǎi biàn": 6587,
  " tā céng dài biǎo ": 6588,
  "   17": 6589,
  " dì lǐ ": 6590,
  "nán běi ": 6591,
  "píng wèi ": 6592,
  "néng yuán ": 6593,
  " dì qī ": 6594,
  " xiàn fǎ ": 6595,
  "dí shì ": 6596,
  "st ": 6597,
  " hòu zhě ": 6598,
  "zì de ": 6599,
  "tái zhōng ": 6600,
  "la ": 6601,
  " zhèng míng ": 6602,
  " shí jì shàng ": 6603,
  "   1 ": 6604,
  "lǐ hé ": 6605,
  " chéng zhèn ": 6606,
  " měi yuán ": 6607,
  " 28": 6608,
  " 2015 nián ": 6609,
  "xuǎn zhōng ": 6610,
  "dí rén ": 6611,
  " lì yì ": 6612,
  "quē fá ": 6613,
  "suí jí ": 6614,
  "pài chū ": 6615,
  "liǎo ": 6616,
  " zhōng guó rén mín jiě fàng jūn ": 6617,
  "duō zhǒng ": 6618,
  "yīng gāi ": 6619,
  "tán pàn ": 6620,
  "liáo níng ": 6621,
  " shì gōng ": 6622,
  " bù shǎo ": 6623,
  " sī tǎ ": 6624,
  "miǎn diān": 6625,
  "tí chū de ": 6626,
  "nǔ ": 6627,
  "yīng gé lán": 6628,
  "tuì xiū ": 6629,
  " dà xué de ": 6630,
  "hǎi bá wèi ": 6631,
  "gàn bù ": 6632,
  "lěi jì ": 6633,
  " shí xíng ": 6634,
  "dāng zhōng ": 6635,
  "xù lì yà ": 6636,
  "jué yì ": 6637,
  "shāng rén ": 6638,
  "biāo běn ": 6639,
  "zhuǎn xiàng ": 6640,
  "fā shēng zài ": 6641,
  "suǒ cǎi yòng": 6642,
  "zhǐ dǎo ": 6643,
  "huà zhōng ": 6644,
  "měi zhōu": 6645,
  "zàn shí ": 6646,
  " jù jué ": 6647,
  " fù jìn": 6648,
  " zhōng gòng zhōng yāng ": 6649,
  "   2 ": 6650,
  "céng wèi ": 6651,
  " yì qíng ": 6652,
  "fā shòu ": 6653,
  "nóng mín ": 6654,
  "cì yú ": 6655,
  "   yīn ": 6656,
  "yí dài ": 6657,
  " dé míng ": 6658,
  "xiū gǎi ": 6659,
  "shuǐ lì ": 6660,
  "róng hé ": 6661,
  " zhōng guó de ": 6662,
  "fā míng ": 6663,
  " qí wèi ": 6664,
  "zhǐ néng ": 6665,
  "zī liào": 6666,
  " míng zhì ": 6667,
  " gōng zhòng ": 6668,
  "zhǔ yǎn ": 6669,
  "zhǒng zi ": 6670,
  "17 nián ": 6671,
  "zī běn ": 6672,
  "ā lā bó": 6673,
  "xiāng sì ": 6674,
  "jiē chù ": 6675,
  " běi jīng": 6676,
  "kāi shè ": 6677,
  "xiū jiàn ": 6678,
  "2025 nián ": 6679,
  "guān chá": 6680,
  "jìng jì ": 6681,
  "fā qǐ ": 6682,
  "ān pái": 6683,
  "jiě sàn ": 6684,
  " de shì jiè ": 6685,
  " méi": 6686,
  " 2016 nián ": 6687,
  "kāi tōng ": 6688,
  "wǔ zhuāng": 6689,
  "bào zhà ": 6690,
  "diàn jī ": 6691,
  "chāi chú ": 6692,
  "cn ": 6693,
  "jǔ bàn de ": 6694,
  "ve ": 6695,
  "shēn dù ": 6696,
  "zhāng zhuān jí ": 6697,
  " chú": 6698,
  "qū shì ": 6699,
  "wéi sī ": 6700,
  "tuán tǐ": 6701,
  " chá": 6702,
  "jī gòu ": 6703,
  "fù zhǔ rèn ": 6704,
  "fēng xiǎn ": 6705,
  "zǔ zhī de ": 6706,
  "zé zài ": 6707,
  "biān jù ": 6708,
  "diào kuài": 6709,
  " 187": 6710,
  "chéng hé ": 6711,
  " yǔ qí tā ": 6712,
  "jié de ": 6713,
  "néng liàng ": 6714,
  " bǎ": 6715,
  " sù ": 6716,
  " cn ": 6717,
  "   qí": 6718,
  "zào le ": 6719,
  "pèi zhì ": 6720,
  " wèi UTC ": 6721,
  " bù jí ": 6722,
  " zhōng shān ": 6723,
  "shuài lǐng": 6724,
  "bàn shì chù ": 6725,
  "shǒu zhōng ": 6726,
  "yóu jī ": 6727,
  "qiú jì ": 6728,
  "yīng xióng ": 6729,
  " xī bān yá ": 6730,
  "luó lǐ ": 6731,
  "gé lā ": 6732,
  "jiù dú ": 6733,
  "shāng yè": 6734,
  "xiāo fèi ": 6735,
  "qiáng diào ": 6736,
  "diào kuài yī xiǎo shí ": 6737,
  " de yǐng xiǎng ": 6738,
  "   duì ": 6739,
  "dá ěr ": 6740,
  "shuāi ": 6741,
  " jí UTC ": 6742,
  "kē xué yuàn ": 6743,
  "shè yǒu xià lìng shí jiān ": 6744,
  " de shí qū wèi UTC ": 6745,
  " ér gāi dì suǒ cǎi yòng": 6746,
  " tóng shí gāi dì shè yǒu xià lìng shí jiān ": 6747,
  " ér gāi dì suǒ cǎi yòng de shí qū wèi UTC ": 6748,
  "hòu wèi ": 6749,
  " tóng yàng": 6750,
  "xìn yǎng ": 6751,
  "tā men de ": 6752,
  " jiǎ": 6753,
  "kùn ": 6754,
  " dà jiǎng ": 6755,
  "jiào táng": 6756,
  "bǎo liú": 6757,
  " lìng yǒu ": 6758,
  " yī sī lán ": 6759,
  "yuán zhù ": 6760,
  "tài dù ": 6761,
  "chuán bō ": 6762,
  " gāi cūn ": 6763,
  "suǒ zài dì ": 6764,
  "què de ": 6765,
  "zhī jiān de ": 6766,
  " gē": 6767,
  " nǐ ": 6768,
  "   jiāo tōng ": 6769,
  "fā shè": 6770,
  " shí wù ": 6771,
  "dìng jū ": 6772,
  " lì shǐ shàng ": 6773,
  "gāo yú hǎi píng miàn ": 6774,
  " cè ": 6775,
  "xìng wèi ": 6776,
  " mǎ lái": 6777,
  " wèi fú qí yú gāng ": 6778,
  "5 mǐ ": 6779,
  " táng": 6780,
  "zhú jiàn": 6781,
  " bù néng": 6782,
  " gōng jué ": 6783,
  "wù hé ": 6784,
  "hù xiāng ": 6785,
  " lǔ ": 6786,
  " qí xià ": 6787,
  "chù de hǎi bá wèi ": 6788,
  "chù de hǎi bá wèi gāo yú hǎi píng miàn ": 6789,
  "   qīng ": 6790,
  " wèi dà ": 6791,
  " ěr duō ": 6792,
  " yīn sù ": 6793,
  "tǐ zhì ": 6794,
  " yú lè": 6795,
  "chǎng suǒ ": 6796,
  "jìng xuǎn ": 6797,
  "   190": 6798,
  "wù shì ": 6799,
  "zhǎng dá ": 6800,
  "lù zhì ": 6801,
  " zhī yì ": 6802,
  "gāo xióng": 6803,
  "kuáng ": 6804,
  " hé pàn ": 6805,
  " bù jǐn ": 6806,
  " yǐ xī ": 6807,
  "fā xiàn de ": 6808,
  "zhòng shì ": 6809,
  "ction   ": 6810,
  " qí shí ": 6811,
  "chóng qìng": 6812,
  " suí zhù ": 6813,
  " dān": 6814,
  "nán jīng": 6815,
  "yùn shū": 6816,
  " 2008": 6817,
  " zhēng ": 6818,
  " 8 ": 6819,
  " 2017 nián ": 6820,
  "shù shí ": 6821,
  "nèi dì ": 6822,
  "biān hào ": 6823,
  "shí qū ": 6824,
  "   mǎ ": 6825,
  "jiàn chéng ": 6826,
  "gēng xīn ": 6827,
  " yī jiā ": 6828,
  " xī lán ": 6829,
  "yùn yòng ": 6830,
  "bì yè hòu ": 6831,
  " zì rán ": 6832,
  "shì   ": 6833,
  " 24": 6834,
  " zhèng zhì ": 6835,
  "   rán": 6836,
  "èr jí ": 6837,
  " lì rèn ": 6838,
  "wéi ěr ": 6839,
  "zhí zhèng ": 6840,
  "diàn qì ": 6841,
  "shān fēng ": 6842,
  " wèi yú gāi ": 6843,
  "60 ": 6844,
  "tion ": 6845,
  "zhě shì ": 6846,
  "wáng shì ": 6847,
  "jiù huì ": 6848,
  "16 nián ": 6849,
  "xiào qū ": 6850,
  "qià ": 6851,
  "xiá qū ": 6852,
  "xuān chuán": 6853,
  "   běn": 6854,
  "bāo wéi ": 6855,
  "bàng qiú ": 6856,
  " zuò chū ": 6857,
  " xiè ": 6858,
  "xué yuán ": 6859,
  "cuò wù ": 6860,
  " dì qiú": 6861,
  "jīn róng ": 6862,
  " yù shǐ ": 6863,
  " xū ": 6864,
  "hòu yì ": 6865,
  "dōng fāng ": 6866,
  " wán ": 6867,
  "běi shì ": 6868,
  "jīng cháng": 6869,
  " rán ér": 6870,
  " cì nián ": 6871,
  " hú": 6872,
  " jié kè ": 6873,
  "huì yú ": 6874,
  " sī kē ": 6875,
  " duì shǒu ": 6876,
  " xíng zhèng qū ": 6877,
  "zhèn qū de miàn jī wèi ": 6878,
  "9 rén ": 6879,
  "míng shì ": 6880,
  "ve   ": 6881,
  " zhōu cì shǐ ": 6882,
  " shēng yá ": 6883,
  "jiā yǐ ": 6884,
  "fú de ": 6885,
  "jú de ": 6886,
  "kě zài ": 6887,
  "mǎ kè ": 6888,
  " tā yǐ ": 6889,
  " yuán zì ": 6890,
  "zào chéng de ": 6891,
  " Y": 6892,
  " huàn ": 6893,
  " lǐ xī ": 6894,
  "zhí mín ": 6895,
  "gōng gòng ": 6896,
  "píng lùn": 6897,
  "fū kǎ ": 6898,
  " dāng shí de ": 6899,
  "ào zhōu ": 6900,
  "chán ": 6901,
  " yī jù ": 6902,
  "qiān shǔ ": 6903,
  "jì yǒu ": 6904,
  "shǐ jiàn yú ": 6905,
  "rèn de ": 6906,
  "yě bèi ": 6907,
  "miàn shàng ": 6908,
  " nián lái ": 6909,
  " sī kè": 6910,
  " ér tóng ": 6911,
  " 2018 nián ": 6912,
  "děng jí ": 6913,
  "pǎo ": 6914,
  " xué zhě ": 6915,
  " dài": 6916,
  " yí": 6917,
  " diàn shì ": 6918,
  "1968 nián ": 6919,
  " jiàn shè": 6920,
  " wéi rào": 6921,
  " yě bèi ": 6922,
  " qí zhōng bāo kuò ": 6923,
  "jiā zài ": 6924,
  "qì chē": 6925,
  " shā": 6926,
  " 2009": 6927,
  "bàn de ": 6928,
  "tū rán ": 6929,
  "hǎi yáng ": 6930,
  "chū bǎn": 6931,
  "lái yīn ": 6932,
  "jī zài ": 6933,
  "gé shì ": 6934,
  "jùn gōng ": 6935,
  " dé zhī ": 6936,
  " jī jīn huì ": 6937,
  "xiāo shī ": 6938,
  " fú wù ": 6939,
  "xiào lì yú ": 6940,
  " 2019 nián ": 6941,
  "jì niàn": 6942,
  "rú guǒ ": 6943,
  "lìng yí gè ": 6944,
  "tián jìng ": 6945,
  "táo tài ": 6946,
  "āo ": 6947,
  " wèi duì ": 6948,
  " jí dà ": 6949,
  "yán hǎi ": 6950,
  "dāng dì de ": 6951,
  "jiàng lǐng ": 6952,
  " bǎi": 6953,
  "19 shì jì ": 6954,
  "èr rén ": 6955,
  "wěi yuán huì wěi yuán ": 6956,
  "píng yuán ": 6957,
  " lǐ yà ": 6958,
  " 2 yuè ": 6959,
  "   jǐn ": 6960,
  "duì qí ": 6961,
  "bèi jǐng ": 6962,
  "kǎ luó ": 6963,
  " lián hé ": 6964,
  "jìn bù ": 6965,
  "liǎng guó ": 6966,
  "tè dìng ": 6967,
  "fèn zǐ": 6968,
  "dà bù ": 6969,
  "dìng yú ": 6970,
  " qí de ": 6971,
  "gǎi zào ": 6972,
  " de bù fèn ": 6973,
  "zhí mín dì ": 6974,
  " 26": 6975,
  "   shèng ": 6976,
  " qīn ": 6977,
  "   Ch": 6978,
  "jiào dà ": 6979,
  " zhì zuò de ": 6980,
  " jī dū ": 6981,
  "chuán tǒng de ": 6982,
  " 2023": 6983,
  "guān jiàn ": 6984,
  "shēng yá": 6985,
  " bù bù zhǎng ": 6986,
  "jīng shén": 6987,
  "shōu gòu ": 6988,
  " qián wǎng ": 6989,
  " yún ": 6990,
  "diǎn shì ": 6991,
  "1970 nián ": 6992,
  "yì shù ": 6993,
  "shū yuàn ": 6994,
  "lí kāi": 6995,
  "quán miàn ": 6996,
  "mò xī gē ": 6997,
  "   4": 6998,
  "zhèn de ": 6999,
  "tuī chū": 7000,
  "gǒu ": 7001,
  "guó jiā": 7002,
  " dì tiě": 7003,
  " xiàn yǐ ": 7004,
  " jī chǔ": 7005,
  " jù lí": 7006,
  " xián ": 7007,
  "sān míng ": 7008,
  "jiē duàn": 7009,
  " luó mǎ ": 7010,
  " 23": 7011,
  "wén de ": 7012,
  " shí duàn ": 7013,
  "liǎng cì ": 7014,
  "cái néng ": 7015,
  "ài ěr lán ": 7016,
  "hūn yīn ": 7017,
  "dà lù": 7018,
  " yì yú ": 7019,
  " shān dōng ": 7020,
  "ā lā bó ": 7021,
  " gǎn ": 7022,
  "mù de ": 7023,
  "liǎng wèi ": 7024,
  "bō sī ": 7025,
  "pèi yīn ": 7026,
  "huì zhǎng ": 7027,
  "jìng zhēng ": 7028,
  "mǎn zú ": 7029,
  " diàn yǐng": 7030,
  "   nán ": 7031,
  "qī wèi ": 7032,
  "tou ": 7033,
  " dì diǎn ": 7034,
  " tíng ": 7035,
  " fā xiàn ": 7036,
  "xīn chéng ": 7037,
  "1981 nián ": 7038,
  "zhèng jù ": 7039,
  "hù lián ": 7040,
  "   c": 7041,
  "lián de ": 7042,
  "xiū fù ": 7043,
  " bìng yóu ": 7044,
  "zāi péi ": 7045,
  "lā jī ": 7046,
  "kào jìn ": 7047,
  "1956 nián ": 7048,
  " dì dài ": 7049,
  " lì shí ": 7050,
  "jiě fàng ": 7051,
  " yóu jī ": 7052,
  " wú fǎ ": 7053,
  "nèi zhàn ": 7054,
  "bō shì ": 7055,
  " wéi chí": 7056,
  " xiān": 7057,
  "duì zhǎng ": 7058,
  "fā qǐ": 7059,
  "jū zhù zài ": 7060,
  "zhè shì ": 7061,
  "zǎo zài ": 7062,
  " shǒu": 7063,
  " bài ": 7064,
  "bìng bù ": 7065,
  "shǒu xiàng ": 7066,
  "diàn nǎo ": 7067,
  "shān qū ": 7068,
  "chōng tū": 7069,
  "zú qiú jù lè bù ": 7070,
  "lǐ chéng ": 7071,
  "juàn ": 7072,
  "jiāo liú": 7073,
  " guó wù yuàn ": 7074,
  " liù ": 7075,
  "qǐ yuán ": 7076,
  "wěi fù ": 7077,
  " w": 7078,
  "tài yáng": 7079,
  "cūn luò ": 7080,
  "fū de ": 7081,
  " shì dé guó ": 7082,
  "jī chǔ": 7083,
  " dà lóu": 7084,
  "yán sè ": 7085,
  "xiàng zhēng ": 7086,
  " wéi sī ": 7087,
  "tiān tǐ ": 7088,
  "dōu bèi ": 7089,
  "1960 nián ": 7090,
  " bù bīng ": 7091,
  " yǔ yán": 7092,
  "   dì èr ": 7093,
  " 2004 nián ": 7094,
  "liù shí ": 7095,
  " zhì liàng ": 7096,
  " zhōu fǔ ": 7097,
  "láng zhōng ": 7098,
  " yī yuàn": 7099,
  " xíng mù ": 7100,
  "cháng dù ": 7101,
  "xìng hé ": 7102,
  "1920 nián ": 7103,
  " yǐ wài ": 7104,
  "luò fá": 7105,
  " zhì dì ": 7106,
  " yǔ yī ": 7107,
  "shī qù": 7108,
  "wú zhèng zhuàng gǎn rǎn zhě ": 7109,
  "zuì chū": 7110,
  "liàng wèi ": 7111,
  "mǔ de ": 7112,
  " dé sī ": 7113,
  " 2020 nián ": 7114,
  "ch ": 7115,
  "1964 nián ": 7116,
  "xiě zuò ": 7117,
  "mèng jiā ": 7118,
  " xīng": 7119,
  "fù hé ": 7120,
  "te   ": 7121,
  "tè xìng ": 7122,
  " wèi yú měi guó ": 7123,
  "jiǎ dì ": 7124,
  "ào mén": 7125,
  " zuì jiā ": 7126,
  "2 gè ": 7127,
  " dīng ": 7128,
  "zhí yè shēng yá ": 7129,
  "fú lì ": 7130,
  " xiàn jí ": 7131,
  "   2008": 7132,
  "suǒ de ": 7133,
  "suǒ wèi ": 7134,
  "jué shì ": 7135,
  "zhuàn de ": 7136,
  "f ": 7137,
  "zōng yì ": 7138,
  "zì mǔ ": 7139,
  "líng chén ": 7140,
  "tòu lù ": 7141,
  "dōng běi": 7142,
  " bǎo": 7143,
  " yì shì ": 7144,
  "chuáng ": 7145,
  "1948 nián ": 7146,
  "ǒu xiàng ": 7147,
  "kǎo shì ": 7148,
  " fú jiàn ": 7149,
  "   gè rén ": 7150,
  "zǒng rén kǒu ": 7151,
  " dì fāng": 7152,
  " xiàn chéng ": 7153,
  " lǐ kè ": 7154,
  " zá zhì ": 7155,
  " dé lā ": 7156,
  "kōng qì ": 7157,
  " gēn ": 7158,
  " nuò ": 7159,
  "píng de ": 7160,
  "nà de ": 7161,
  "zuò wéi": 7162,
  "zhǔ zhāng ": 7163,
  "xī hé ": 7164,
  "xī nán ": 7165,
  " 50": 7166,
  "huí yì ": 7167,
  "fén ": 7168,
  "1975 nián ": 7169,
  " yǐ zài ": 7170,
  " yě kě yǐ ": 7171,
  "pú táo yá ": 7172,
  "si ": 7173,
  " zuò zhàn ": 7174,
  "xún zhǎo": 7175,
  "qī shí ": 7176,
  "zǒu xiàng ": 7177,
  "1952 nián ": 7178,
  " cān yù ": 7179,
  "nán de ": 7180,
  " chéng kè ": 7181,
  "sū gé lán ": 7182,
  " tài": 7183,
  "chē duì ": 7184,
  " ěr shì ": 7185,
  "wǔ shì ": 7186,
  "hù bù ": 7187,
  " dì tú ": 7188,
  " yuán běn": 7189,
  " chū dào ": 7190,
  "yìn ní ": 7191,
  " 2007": 7192,
  " 35": 7193,
  " yí gè": 7194,
  " sūn ": 7195,
  " 2021 nián ": 7196,
  "gǔ lì ": 7197,
  "luò chéng ": 7198,
  "shōu dào ": 7199,
  "wǎ ěr shěng ": 7200,
  "shǐ shàng ": 7201,
  "shǒu dū": 7202,
  "xìn yǎng": 7203,
  " kù ": 7204,
  "   Ma": 7205,
  "   rén ": 7206,
  "guò le ": 7207,
  "guǎn zhì ": 7208,
  " gōng lǐ de ": 7209,
  "zhǔ yì zhě ": 7210,
  " wèi yuán ": 7211,
  " yǐ yú ": 7212,
  "guò dù ": 7213,
  "guǎng chǎng": 7214,
  " shí yàn shì ": 7215,
  "yán rén ": 7216,
  "xiǎn zhù ": 7217,
  "guó wù ": 7218,
  " sī lìng bù ": 7219,
  "xī dì ": 7220,
  "shàng xiàn ": 7221,
  "shǐ rén ": 7222,
  "dù hé ": 7223,
  "jiāng yú ": 7224,
  "bì de ": 7225,
  "mài kè ": 7226,
  " dì liù ": 7227,
  "zhuān yè": 7228,
  "wàng yuǎn ": 7229,
  "   10": 7230,
  "xiū dào ": 7231,
  " dà gōng ": 7232,
  "gé lí ": 7233,
  " fù jìn de ": 7234,
  "   Co": 7235,
  "yán zhì ": 7236,
  "sì de ": 7237,
  "bèi chēng wéi ": 7238,
  "shào nǚ ": 7239,
  "re ": 7240,
  "dōng jīng": 7241,
  "yú hé ": 7242,
  "xiāng guān de ": 7243,
  "děng děng ": 7244,
  "fǎn huí": 7245,
  "4 gè ": 7246,
  "   Re": 7247,
  "dì hé ": 7248,
  "fàng zài ": 7249,
  "ba ": 7250,
  " jí shǐ ": 7251,
  "jiān yù ": 7252,
  "miǎn fèi ": 7253,
  "jiǎo dù ": 7254,
  "zuǒ yì ": 7255,
  " chéng běn ": 7256,
  "wéi zhǔ ": 7257,
  " xíng dòng": 7258,
  "gǎi shàn ": 7259,
  "cǎi qǔ": 7260,
  "guǎn lǐ jú ": 7261,
  " zhēn": 7262,
  "tái běi shì ": 7263,
  " 29": 7264,
  " dǎng ": 7265,
  " yuè duì ": 7266,
  " jūn qū ": 7267,
  "bì miǎn": 7268,
  "kōng jiān": 7269,
  "xíng tài ": 7270,
  "   dāng ": 7271,
  "ào ěr ": 7272,
  "shè bèi ": 7273,
  "xiāng shì ": 7274,
  "kǎ sī ": 7275,
  "jià shǐ ": 7276,
  "cǎi fǎng": 7277,
  "fèi chú ": 7278,
  "á ": 7279,
  "shān xiàn ": 7280,
  " ér fēi ": 7281,
  "luò shān jī ": 7282,
  " 25": 7283,
  "shàng dì ": 7284,
  "huài ": 7285,
  "xī běi ": 7286,
  "hěn kuài ": 7287,
  "zhèng fǔ de ": 7288,
  "   2009": 7289,
  "dǎo shàng ": 7290,
  " zài hé ": 7291,
  " kè ěr ": 7292,
  " shè yú ": 7293,
  " 27": 7294,
  "cǐ tóng shí ": 7295,
  "hún ": 7296,
  " 2002 nián ": 7297,
  "kāi gōng ": 7298,
  "tōng zhī ": 7299,
  "lǐ lùn": 7300,
  "bō lí ": 7301,
  " fèng ": 7302,
  " kǎi ": 7303,
  "cí zhí ": 7304,
  "   sī ": 7305,
  "jiù yuán ": 7306,
  " shén": 7307,
  " cài": 7308,
  "cí de ": 7309,
  " dì yī cì": 7310,
  " pǔ": 7311,
  "   zhèng ": 7312,
  "hé zài ": 7313,
  "yě huì ": 7314,
  "wá ": 7315,
  " zhī shì ": 7316,
  "hǎi àn": 7317,
  "é luó sī de ": 7318,
  " yǒng": 7319,
  " suō ": 7320,
  "kǒu de ": 7321,
  " yì jiàn ": 7322,
  " xiè": 7323,
  " wèi zài ": 7324,
  "shén me": 7325,
  " diào ": 7326,
  "zhēng yuè ": 7327,
  "tì dài ": 7328,
  " rén dà ": 7329,
  "chù zhǎng ": 7330,
  " xiǎo shí ": 7331,
  "jiǔ de ": 7332,
  "jǐn yǒu ": 7333,
  "qiáng zhì ": 7334,
  " shí xiàn": 7335,
  "jiān dū ": 7336,
  "yǐn yòng ": 7337,
  "yǐng shì ": 7338,
  "tí chū le ": 7339,
  "wài jiāo bù ": 7340,
  " bǎn ": 7341,
  "xué zhōng ": 7342,
  "qiáng de ": 7343,
  " gè guó ": 7344,
  "mín zhǔ dǎng": 7345,
  " chōng ": 7346,
  "shān dì ": 7347,
  "1966 nián ": 7348,
  "jì suàn": 7349,
  "fēng fù ": 7350,
  "th ": 7351,
  "   bā ": 7352,
  "sī shì ": 7353,
  "nuó wēi": 7354,
  "1937 nián ": 7355,
  " zhǔ yǎn ": 7356,
  "xǐ huān ": 7357,
  "   gù shì ": 7358,
  "céng yú ": 7359,
  " sī mǎ ": 7360,
  " hào xiàn": 7361,
  " kǒu ": 7362,
  " gè zhǒng": 7363,
  "zhǎng guān ": 7364,
  "zōng jiào": 7365,
  "xiǎo xíng xīng": 7366,
  " kǎi": 7367,
  "tiān hòu ": 7368,
  " shí hòu ": 7369,
  "mò xī gē": 7370,
  "é guó ": 7371,
  "1974 nián ": 7372,
  " yǒu xiē": 7373,
  "pǔ biàn": 7374,
  " fēn bié ": 7375,
  "bù de cūn zhuāng ": 7376,
  "   yǐ xià": 7377,
  " jué dìng ": 7378,
  "   yuè ": 7379,
  "guǎn de ": 7380,
  "lí mǐ ": 7381,
  "zàn zhù ": 7382,
  "fā dòng jī ": 7383,
  "cè liáng ": 7384,
  "yìn shuā": 7385,
  " mì ": 7386,
  "cù jìn ": 7387,
  " yuè lái yuè ": 7388,
  "liú yù ": 7389,
  "liè rù ": 7390,
  "kòu ": 7391,
  "gǔ lǎo": 7392,
  "ā gēn ": 7393,
  "mǎ lái xī yà": 7394,
  "tā zài ": 7395,
  "jiàng yǔ ": 7396,
  "liǎo jiě ": 7397,
  "jiā tíng ": 7398,
  "chē xiāng ": 7399,
  " xù ": 7400,
  "   wéi ": 7401,
  "fù shì ": 7402,
  "liè chū ": 7403,
  " de jù ": 7404,
  " chéng xiàn": 7405,
  " zhī dì ": 7406,
  "jīng diǎn ": 7407,
  " dàn bái ": 7408,
  "tíng chē ": 7409,
  " fǎ": 7410,
  "yīng lǐ ": 7411,
  "yǔn shí ": 7412,
  "1946 nián ": 7413,
  " xiàn shàng ": 7414,
  "qiáng dù ": 7415,
  "chuàng zuò de ": 7416,
  " léi": 7417,
  "sū wéi ": 7418,
  "guàn jūn": 7419,
  " bù shǎo": 7420,
  " zhī jiā ": 7421,
  "cān xuǎn ": 7422,
  " chuān ": 7423,
  "   fù ": 7424,
  " kè hé ": 7425,
  "bì miǎn ": 7426,
  " Q": 7427,
  "shuí": 7428,
  "tóng xìng ": 7429,
  " sè ": 7430,
  "zǎo shàng ": 7431,
  "1955 nián ": 7432,
  "zhǔ tí": 7433,
  " xiāng dāng": 7434,
  "cái liào": 7435,
  "sēn lín": 7436,
  " fù zé guǎn xiá ": 7437,
  "   de": 7439,
  "lā de ": 7440,
  "míng dān ": 7441,
  "zhàn tái ": 7442,
  "guó shì ": 7443,
  "hū yù ": 7444,
  " gōng yìng ": 7445,
  "jiān rèn ": 7446,
  "bó lín ": 7447,
  "xuǎn jǔ zhōng ": 7448,
  " tiáo ": 7449,
  " yī zhí ": 7450,
  "guān fāng": 7451,
  "suǒ yǒu de ": 7452,
  "jǐng gào ": 7453,
  "jiàn zhù": 7454,
  "dī qì ": 7455,
  "xià zài ": 7456,
  "   zēng zǔ ": 7457,
  " kǎo ": 7458,
  "hái zài ": 7459,
  "1954 nián ": 7460,
  "nán zi": 7461,
  "zhào piān ": 7462,
  "tǐ yù chǎng ": 7463,
  "guǎng zhōu": 7464,
  "sāo ": 7465,
  "lián jiē": 7466,
  "diàn shì tái": 7467,
  "lā dé ": 7468,
  "shū chū ": 7469,
  " gōng néng": 7470,
  "yǐn rù ": 7471,
  "lán xī ": 7472,
  "dùn de ": 7473,
  " bù mǎn ": 7474,
  " qiú de ": 7475,
  "yín pái ": 7476,
  "yáo gǔn": 7477,
  "céng de ": 7478,
  "nì ": 7479,
  " ér gāi dì de ": 7480,
  "nuó wēi ": 7481,
  "guó wáng ": 7482,
  " yǔ qí ": 7483,
  "qī zǐ": 7484,
  "ān zhuāng ": 7485,
  " pà ": 7486,
  "xù lì yà": 7487,
  "shēn qǐng": 7488,
  "zǎo qī de ": 7489,
  "shí hé ": 7490,
  "zhàn dì ": 7491,
  "tú de ": 7492,
  "mǒu xiē": 7493,
  "fēi xíng": 7494,
  " jì lù": 7495,
  " chū yǎn ": 7496,
  " t": 7497,
  " nǐ": 7498,
  "zhī shí ": 7499,
  "qiú huì ": 7500,
  " bèi ěr": 7501,
  " 000 ": 7502,
  "zhàn shí ": 7503,
  "zāo yù ": 7504,
  " wèi néng": 7505,
  "xià lái ": 7506,
  " zú": 7507,
  "niáng ": 7508,
  " hé gǔ ": 7509,
  " chéng le ": 7510,
  " yǐ qián ": 7511,
  " jì yì ": 7512,
  " kè lì ": 7513,
  "fā shēng de ": 7514,
  "shī qù ": 7515,
  "gǔ lā ": 7516,
  " shùn": 7517,
  "qián hòu ": 7518,
  "tè lì ": 7519,
  "zǔ de ": 7520,
  "biān yuán ": 7521,
  "mò ěr ": 7522,
  "zhōng yāng ": 7523,
  " jiā tíng": 7524,
  " xiāng tóng ": 7525,
  "xīng qī": 7526,
  "yōu xiù": 7527,
  " yǐ sè liè ": 7528,
  "duì yuán ": 7529,
  " shí bào ": 7530,
  " Re": 7531,
  " zú ": 7532,
  "shān dōng shěng ": 7533,
  " zhāo hé ": 7534,
  "1 gè ": 7535,
  "chǒng": 7536,
  " duì cǐ ": 7537,
  "tài kōng ": 7538,
  "   gài yào ": 7539,
  " 2006": 7540,
  "sān dà ": 7541,
  "mǐ de ": 7542,
  " zì yóu": 7543,
  " 2000 nián ": 7544,
  "bǎo de ": 7545,
  " jūn dì ": 7546,
  " shēng míng ": 7547,
  " zhǐ zài ": 7548,
  " z": 7549,
  " qǐng ": 7550,
  "zhà dàn ": 7551,
  "huí guī ": 7552,
  "wǎng shàng ": 7553,
  "tǎ ěr ": 7554,
  " dì zhèn ": 7555,
  "xià jiàng ": 7556,
  "lǐng dǎo de ": 7557,
  "yán jiū shēng ": 7558,
  " jiē": 7559,
  "tè ěr ": 7560,
  "zhāi ": 7561,
  " xiàn yǒu ": 7562,
  " yuán yīn": 7563,
  " sòng": 7564,
  "wū sī ": 7565,
  "hǎo píng ": 7566,
  "is   ": 7567,
  " de zhǔ yào ": 7568,
  " zhōng jiān ": 7569,
  "pǔ chá ": 7570,
  " yè": 7571,
  "duō cì": 7572,
  "qīn wáng ": 7573,
  " B ": 7574,
  " fǒu": 7575,
  " nián qīng ": 7576,
  " wài": 7577,
  " In": 7578,
  "tóng míng ": 7579,
  "tè yǒu ": 7580,
  "biān wèi ": 7581,
  "bó jué ": 7582,
  " wēi lián ": 7583,
  "30 nián ": 7584,
  "nù ": 7585,
  " jí bìng ": 7586,
  " xíng bù ": 7587,
  "kuài sù": 7588,
  "zàn tíng ": 7589,
  "shī gōng ": 7590,
  "dāng nián ": 7591,
  "dá zhōu ": 7592,
  "cún de ": 7593,
  " mó": 7594,
  " guǎn ": 7595,
  " bǎ ": 7596,
  " guǎng dōng ": 7597,
  "qíng de ": 7598,
  " shì yī bù ": 7599,
  " xīn zēng ": 7600,
  "gǎi zhì wèi ": 7601,
  "   dì yī ": 7602,
  "gǎng yuán ": 7603,
  "fèi yán ": 7604,
  " 40": 7605,
  " xiān hòu ": 7606,
  "fěn sī ": 7607,
  "zhǐ kòng ": 7608,
  "chē liàng": 7609,
  "mì de ": 7610,
  " X": 7611,
  "shēn shì ": 7612,
  "pèi bèi ": 7613,
  "yǐng xiàng ": 7614,
  " shǒu cì ": 7615,
  "xūn ": 7616,
  "zhuì ": 7617,
  "fāng mǐ ": 7618,
  " cái": 7619,
  "sān rén ": 7620,
  "sān gè": 7621,
  "100 ": 7622,
  " de huà ": 7623,
  "dà qū ": 7624,
  "shěng jiē rǎng ": 7625,
  " zì dòng ": 7626,
  "zhě hé ": 7627,
  "bēng ": 7628,
  "tè zhēng": 7629,
  "cān shù ": 7630,
  " zuì dà ": 7631,
  "ruì diǎn ": 7632,
  " 45": 7633,
  "wǔ gè ": 7634,
  " zhè yàng ": 7635,
  " jìn zhǐ ": 7636,
  "tuī guǎng ": 7637,
  " mài kè ": 7638,
  "lù yì sī ": 7639,
  "yóu xíng ": 7640,
  " bù yī ": 7641,
  " píng lùn ": 7642,
  "jìng nèi gòng yǒu ": 7643,
  "   jīn ": 7644,
  "sì shì ": 7645,
  "tài de ": 7646,
  "èng ": 7647,
  "1947 nián ": 7648,
  "YouTube": 7649,
  "zhǎn lǎn ": 7650,
  " guō": 7651,
  "shèng chū ": 7652,
  " shè huì zhǔ yì ": 7653,
  "zhě huì ": 7654,
  " shì yī kē ": 7655,
  " jié shù ": 7656,
  " shuāng fāng ": 7657,
  " zài yì qǐ ": 7658,
  " cǎi yòng ": 7659,
  "lā hé ": 7660,
  "huí guó ": 7661,
  "huāng ": 7662,
  " bù lái ": 7663,
  " shí xìng ": 7664,
  "xīn wén": 7665,
  "bǎo luó ": 7666,
  "jìng zhēng": 7667,
  "lǜ sè ": 7668,
  " 200": 7669,
  "   16": 7670,
  " jí hòu ": 7671,
  " jì zǎi": 7672,
  " xī ěr ": 7673,
  " jiāng sū ": 7674,
  "wú xiàn diàn shì ": 7675,
  "20 nián ": 7676,
  "50 nián ": 7677,
  " zài 18": 7678,
  " dì zhì ": 7679,
  " zhì yí ": 7680,
  "fèi yòng ": 7681,
  "yìng jí ": 7682,
  " bèi pò ": 7683,
  "dù shǐ ": 7684,
  "chǎn shēng le ": 7685,
  "   2019 nián ": 7686,
  "mǎ kè sī ": 7687,
  "1973 nián ": 7688,
  " guó jiā duì ": 7689,
  "tiě lù chē zhàn ": 7690,
  " dòng wù ": 7691,
  " shàn ": 7692,
  "chuàng zào ": 7693,
  " hú nán ": 7695,
  "kū ": 7696,
  " gōng qǐng ": 7697,
  " jiā zú": 7698,
  " máo ": 7699,
  "wáng wèi ": 7700,
  "tuī jiàn ": 7701,
  "1971 nián ": 7702,
  "lián rèn ": 7703,
  "zhǎng zǐ ": 7704,
  "yīng chǐ ": 7705,
  "sān jí ": 7706,
  "lèi xíng de ": 7707,
  " tā céng ": 7708,
  "běi fāng ": 7709,
  " nián líng ": 7710,
  " gōng gòng": 7711,
  " dà dào": 7712,
  "fú luó lǐ ": 7713,
  "fáng wū ": 7714,
  "nóng cūn ": 7715,
  " shì zhōng huá rén mín gòng hé guó ": 7716,
  " céng rèn": 7717,
  "yǐng xiǎng lì ": 7718,
  " de zuò biāo wèi ": 7719,
  "chōng jī ": 7720,
  " shì huì ": 7721,
  "qún dǎo": 7722,
  " 2022 nián ": 7723,
  " zài xīn ": 7724,
  "tè diǎn ": 7725,
  "tiān rán ": 7726,
  "qīng cháo ": 7727,
  "chū qī ": 7728,
  "gù dìng ": 7729,
  "   jiā tíng ": 7730,
  "l   ": 7731,
  "sǐ yú ": 7732,
  " zài tā de ": 7733,
  "shè huì": 7734,
  " kě néng ": 7735,
  "jí bù ": 7736,
  "shēng zhì ": 7737,
  "cóng wèi ": 7738,
  "biǎn ": 7739,
  "lòu ": 7740,
  "fù jìn": 7741,
  "fāng xiàng": 7742,
  "tè lā ": 7743,
  "jìng nèi": 7744,
  "gèng duō de ": 7745,
  "xīn shì ": 7746,
  "1977 nián ": 7747,
  " yī rén ": 7748,
  " dào hé ": 7749,
  "gāo dá ": 7750,
  " shěn ": 7751,
  "   0": 7752,
  " shí zhì ": 7753,
  " dào yī ": 7754,
  "qì xuán ": 7755,
  " section   ": 7756,
  " chǔ ": 7757,
  "lǜ de ": 7758,
  "bān de ": 7759,
  "qǔ xiāo": 7760,
  " nǎi": 7761,
  " xǔ duō": 7762,
  "děng de ": 7763,
  "xuǎn chū ": 7764,
  "yí dào ": 7765,
  "shòu quán ": 7766,
  "zhóu ": 7767,
  "zhōng yāng": 7768,
  "shēng jī ": 7769,
  "guān cè ": 7770,
  " yě bù ": 7771,
  "qīng shào nián ": 7772,
  "wán zhěng ": 7773,
  "   shǐ yòng ": 7774,
  " shì jì de ": 7775,
  " yǒu dà ": 7776,
  " fǔ ": 7777,
  "jiā gōng ": 7778,
  "luò sī ": 7779,
  " shì yóu": 7780,
  "fù jìn de ": 7781,
  "měi guó rén ": 7782,
  "zhàng fū ": 7783,
  "xué bù ": 7784,
  "tiē ": 7785,
  "pù ": 7786,
  " yǒu zhù ": 7787,
  "yì bù ": 7788,
  "shǐ yú ": 7789,
  "en   ": 7790,
  "guó huì ": 7791,
  "xī běi bù ": 7792,
  " tā rèn wéi ": 7793,
  "mù ní ": 7794,
  " tóng pái ": 7795,
  " zhǐ shì ": 7796,
  "kuò zhǎn": 7797,
  " hè": 7798,
  "sǐ xíng ": 7799,
  "qìng zhù ": 7800,
  "zhàn lǐng": 7801,
  "lián jié ": 7802,
  " tóng yàng ": 7803,
  "   gēn jù 2020 nián měi guó rén kǒu pǔ chá de shù jù ": 7804,
  "bìng wèi ": 7805,
  "zuì wèi ": 7806,
  "hǎi shàng ": 7807,
  "réng zài ": 7808,
  " de gù shì ": 7809,
  "guó lì ": 7810,
  "fēn pèi ": 7811,
  "huáng sè ": 7812,
  "xiāo liàng ": 7813,
  "zhuān mén ": 7814,
  "zēng jiā le ": 7815,
  "k   ": 7816,
  " 2024": 7818,
  "guò yú ": 7819,
  " zài tā ": 7820,
  "xié dìng ": 7821,
  "shàng hǎi shì ": 7822,
  "quán de ": 7823,
  "sì dà ": 7824,
  "zǒng huì ": 7825,
  "huí hé ": 7826,
  "lǎo shī ": 7827,
  " yī zhì ": 7828,
  " chū fā ": 7829,
  "sè fū ": 7830,
  " S ": 7831,
  "xiāng jì ": 7832,
  "qiè ěr ": 7833,
  "jīng jì": 7834,
  "bān jiǎng ": 7835,
  "fáng wèi ": 7836,
  "v ": 7837,
  " Jo": 7838,
  " 9 ": 7839,
  " qiū ": 7840,
  " 2003 nián ": 7841,
  " lì shǔ ": 7842,
  " bìng rù ": 7843,
  "dēng cháng ": 7844,
  " xí ": 7845,
  " tiě ": 7846,
  "xìng shì ": 7847,
  "ck ": 7848,
  "duì shǒu ": 7849,
  "cān sài": 7850,
  " de jì lù ": 7851,
  " jí xíng zhèng ": 7852,
  " lì zi ": 7853,
  " yě huì ": 7854,
  " ā lā ": 7855,
  "ài de ": 7856,
  "piàn de ": 7857,
  " yǐ zhì ": 7858,
  "jiǎng shù ": 7859,
  "lái zì yú ": 7860,
  " SA": 7861,
  "fú lǐ ": 7862,
  "dān yuán ": 7863,
  "mā ": 7864,
  "zhí yè": 7865,
  "zhào kāi": 7866,
  " 000 rén ": 7867,
  " bāo hán ": 7868,
  "fù jiā ": 7869,
  "yī xiē ": 7870,
  "hǎi bá gāo ": 7871,
  "shuāng dǎ ": 7872,
  " han": 7873,
  "qì hé ": 7874,
  "xìng néng ": 7875,
  "cún zài de ": 7876,
  "zhuàng jī ": 7877,
  " jiàn kāng ": 7878,
  "nà cuì": 7879,
  " xiāng duì ": 7880,
  "gěng": 7881,
  " kù": 7882,
  " fā xíng ": 7883,
  "hé wèi ": 7884,
  "shěng dào ": 7885,
  "láo gōng ": 7886,
  "tuó ": 7887,
  "xī nán bù ": 7888,
  " kè yùn ": 7889,
  "mǎ lā ": 7890,
  "gǎi gé": 7891,
  "nán jí zhōu de ": 7892,
  " àn": 7893,
  "wā ": 7894,
  "shǒu bō ": 7895,
  "yīng gāi": 7896,
  "lèi sì de ": 7897,
  "měi jūn ": 7898,
  "bā ěr ": 7899,
  "chuàng xīn ": 7900,
  " yǒu guān": 7901,
  "zhèng xié ": 7902,
  " tā duì ": 7903,
  "shān mài ": 7904,
  "shā sǐ ": 7905,
  " sì chuān ": 7906,
  "hōng zhà jī ": 7907,
  "   rán ér ": 7908,
  " hant ": 7909,
  "lǐ bù ": 7910,
  "cháng jiàn ": 7911,
  "chuán zhī ": 7912,
  " zhī zhàn ": 7913,
  " xiǎo shuō ": 7914,
  " bái": 7915,
  "yī bù fèn": 7916,
  "fēi zhōu": 7917,
  "1962 nián ": 7918,
  " xiàn zhī xiàn ": 7919,
  "fā shēng le ": 7920,
  "shǔ de zhí wù ": 7921,
  "w ": 7922,
  "zhí zhì ": 7923,
  "diàn de ": 7924,
  "yào de ": 7925,
  "II ": 7926,
  "yán zhòng de ": 7927,
  "cān tīng ": 7928,
  " lìng wài": 7929,
  " Co": 7930,
  "   dàn": 7931,
  "mì sī ": 7932,
  "et ": 7933,
  "zòng ": 7934,
  "quǎn ": 7935,
  "qiǎo ": 7936,
  " jiàn shì ": 7937,
  "suǒ shǔ": 7938,
  "zǔ zhǐ ": 7939,
  "   2007": 7940,
  "xī shì ": 7941,
  "tóu bù ": 7942,
  "duì wǔ ": 7943,
  " yóu cǐ ": 7944,
  " dōng jīng ": 7945,
  "fàng qì": 7946,
  "yùn dòng de ": 7947,
  "W ": 7948,
  "   and   ": 7949,
  "jiān shì ": 7950,
  "nà dé ": 7951,
  "féi ": 7952,
  "bāng zhù": 7953,
  " chē zhàn": 7954,
  "   The": 7955,
  "jiāng tā ": 7956,
  "jiàng dī": 7957,
  " shì yì dà lì ": 7958,
  "huì yǐ ": 7959,
  "luǒ": 7960,
  " 60": 7961,
  "hēi rén ": 7962,
  "jī běn ": 7963,
  " zhī liú ": 7964,
  "zhǔ xí": 7965,
  "shuài lǐng ": 7966,
  "tǔ ěr qí": 7967,
  "huì shì dì ": 7968,
  "huán xíng ": 7969,
  " zài yǔ ": 7970,
  " gōng lù": 7971,
  " dé dào le ": 7972,
  " shè jì de ": 7973,
  "shàng bù ": 7974,
  "bù fèn ": 7975,
  "ná pò ": 7976,
  "zhěng gè": 7977,
  "xiāng bǐ ": 7978,
  " shì yī zuò ": 7979,
  "zhōu biān ": 7980,
  "xià xiá yǐ xià": 7981,
  "   3 yuè ": 7982,
  " xiàn jīn ": 7983,
  "háng tiān ": 7984,
  "qiān yuē ": 7985,
  " shì jiè bēi ": 7986,
  "zhǎng dà ": 7987,
  "luó dé ": 7988,
  " dà liàng": 7989,
  "zì wèi ": 7990,
  "yán shí ": 7991,
  " lì yòng": 7992,
  "yí chǎn": 7993,
  "gé ěr ": 7994,
  " xíng shǐ ": 7995,
  "xīn rén ": 7996,
  "zhǐ de ": 7997,
  "zǒng cái ": 7998,
  "chuán méi ": 7999,
  " nán zi ": 8000,
  "chū shēng yú ": 8001,
  " mǎ lì ": 8002,
  " shēng zhǎng yú ": 8003,
  "mǎo": 8004,
  "cǐ shí ": 8005,
  " gōng chǐ": 8006,
  " qiú huì ": 8007,
  "hǎi bá gāo dù wèi ": 8008,
  "   2018 nián ": 8009,
  "běn xiàn ": 8010,
  "zhě wèi ": 8011,
  "nuò yī ": 8012,
  "ay ": 8013,
  "cōng ": 8014,
  " jí lín ": 8015,
  "xiāng tóng de ": 8016,
  " zhōng guó guó mín ": 8017,
  "cān yù le ": 8018,
  " jǐ ": 8019,
  " dì 1 ": 8020,
  "yà mù ": 8021,
  " zhè shǒu ": 8022,
  "guāng xù ": 8023,
  "O   ": 8024,
  " zhòng": 8025,
  "jì zài ": 8026,
  "wǔ yuè ": 8027,
  "dān yī ": 8028,
  "bié de ": 8029,
  "1939 nián ": 8030,
  " hé lǐ ": 8031,
  "yóu tài rén ": 8032,
  " de chéng zhèn ": 8033,
  "lā ěr ": 8034,
  "xún qiú ": 8035,
  "1938 nián ": 8036,
  " bù ěr ": 8037,
  " xíng xiàng ": 8038,
  " wéi chí ": 8039,
  "yǐn zhǒng ": 8040,
  "bú yào ": 8041,
  " qín ": 8042,
  "shāng de ": 8043,
  "1965 nián ": 8044,
  " bù dí ": 8045,
  " yú lèi ": 8046,
  "měi yuán de ": 8047,
  "yíng yè ": 8048,
  "qiān dìng ": 8049,
  " guān fāng ": 8050,
  " xū yào ": 8051,
  "é wèi ": 8052,
  "   5 yuè ": 8053,
  "1936 nián ": 8054,
  " zài gāi ": 8055,
  " guó mín": 8056,
  "jiē rèn ": 8057,
  "wěi fù shū jì ": 8058,
  " re": 8059,
  "wǔ dì ": 8060,
  "zhuō ": 8061,
  "1959 nián ": 8062,
  "sī lán ": 8063,
  " kè lā ": 8064,
  " jiāng qí ": 8065,
  "zhí yuán ": 8066,
  " yī liáo ": 8067,
  "tǐ yù": 8068,
  "xiào yìng ": 8069,
  " jiào yù": 8070,
  " dōu": 8071,
  "1967 nián ": 8072,
  " yī cí ": 8073,
  " qí zhōng nán xìng ": 8074,
  "dǐ kàng ": 8075,
  " liú yù ": 8076,
  "gǔ fèn yǒu xiàn gōng sī ": 8077,
  " Mar": 8078,
  " huán ": 8079,
  "yùn hé ": 8080,
  "gē de ": 8081,
  "huái yí ": 8082,
  "guā ": 8083,
  " wèi cǐ ": 8084,
  " dì miàn ": 8085,
  "zhǐ dìng ": 8086,
  "céng shuǐ yù ": 8087,
  "róng nà ": 8088,
  "zhuàn de xiǎo xíng xīng ": 8089,
  "cro": 8090,
  "u ": 8091,
  " bào": 8092,
  " hòu qī ": 8093,
  "fǎ tíng ": 8094,
  " kè lái ": 8095,
  "jìng sài ": 8096,
  "   píng jià ": 8097,
  "yóu qí ": 8098,
  "gē jù ": 8099,
  "liáng shí ": 8100,
  "1935 nián ": 8101,
  " shì nèi ": 8102,
  "yuè nán ": 8103,
  " de dì èr": 8104,
  "mò sī kē ": 8105,
  "yóu rén gōng ": 8106,
  "zhǎng wèi ": 8107,
  "yáng xiàn ": 8108,
  " shì xī ": 8109,
  " yī zhī ": 8110,
  " shè jī ": 8111,
  "bā lā ": 8112,
  "gǎn lǎn": 8113,
  " jiàn lì le ": 8114,
  " lǐng ": 8115,
  " wū kè lán ": 8116,
  "cháo de ": 8117,
  "tuī chū de ": 8118,
  "ruǎn tǐ ": 8119,
  " liǎng gè ": 8120,
  "   chú le ": 8121,
  "jiào yú ": 8122,
  "mén de ": 8123,
  " shí yòng ": 8124,
  "zhōng xīn ": 8125,
  " shuǐ": 8126,
  " sú": 8127,
  "shù shì ": 8128,
  " jiàn wèi ": 8129,
  " cháo xiān ": 8130,
  " ěr dé": 8131,
  "shuò shì xué wèi ": 8132,
  " qiān": 8133,
  "   s": 8134,
  "biān hào wèi ": 8135,
  "wéi zhǐ ": 8136,
  "lí zi ": 8137,
  " jié gòu ": 8138,
  "huá shèng dùn": 8139,
  " 11 ": 8140,
  "   3 ": 8141,
  "zhī yuán ": 8142,
  "gè dì ": 8143,
  " hé jí ": 8144,
  " zhì zào": 8145,
  " yī tiáo ": 8146,
  "kāi zhǎn ": 8147,
  " qiú chǎng ": 8148,
  "qún tǐ ": 8149,
  "le yī xiē ": 8150,
  " gōng chéng shī ": 8151,
  " tuī ": 8152,
  "ā ěr": 8153,
  "wù zhōng ": 8154,
  "méng jūn ": 8155,
  "bǎi nián ": 8156,
  "luó bó tè ": 8157,
  "zǒng jiān ": 8158,
  " zài dì èr ": 8159,
  "píng jūn hǎi bá gāo dù wèi ": 8160,
  "   jīng jì ": 8161,
  "zhí lì ": 8162,
  "bo ": 8163,
  " wèi míng ": 8164,
  " wèi yú zhōng huá rén mín gòng hé guó ": 8165,
  " rén mín bì ": 8166,
  "dū dū ": 8167,
  "yáng gōng ": 8168,
  "bàn nián ": 8169,
  " xī yǐn ": 8170,
  "běn tǔ ": 8171,
  "fǎ lán ": 8172,
  "chuán bō": 8173,
  "jiǎn dān ": 8174,
  "zhuāng jiǎ": 8175,
  "gōng kāi ": 8176,
  " yǒu lì ": 8177,
  " tā yě": 8178,
  "zhǎng yuē ": 8179,
  "jiē shōu ": 8180,
  "miàn lín ": 8181,
  "huàn zhě ": 8182,
  " tōng guò": 8183,
  " ér gāi dì de píng jūn hǎi bá gāo dù wèi ": 8184,
  " r": 8185,
  " hán": 8186,
  " yōu ": 8187,
  "qǐ le ": 8188,
  "shī rén ": 8189,
  "fēng de ": 8190,
  "zú qiú duì ": 8191,
  "ní xī yà ": 8192,
  "12 nián ": 8193,
  "cù jìn": 8194,
  "hǎn mò": 8195,
  " zài rì běn ": 8196,
  "lù zhàn ": 8197,
  "tú xiàng ": 8198,
  "xún huán ": 8199,
  "   tiān ": 8200,
  "lì zhōng ": 8201,
  "1953 nián ": 8202,
  "2010 nián měi guó rén kǒu pǔ chá de shù jù ": 8203,
  " mǎn": 8204,
  "jī shì ": 8205,
  "chū dào ": 8206,
  "yǎn chū": 8207,
  "yìng duì ": 8208,
  " zhī qián": 8209,
  "yǐn zhǒng zāi péi ": 8210,
  " yún nán ": 8211,
  "là ": 8212,
  " dà qiáo ": 8213,
  "dòng huà": 8214,
  "guī fàn ": 8215,
  "shěn chá ": 8216,
  " xì tǒng": 8217,
  "fēi lǜ bīn": 8218,
  "   12": 8219,
  "chū rèn ": 8220,
  "shuō shì ": 8221,
  "hǎn ": 8222,
  "km ": 8223,
  " jí shǐ": 8224,
  "suǒ chù de hǎi bá wèi gāo yú hǎi píng miàn ": 8225,
  "shěng wěi ": 8226,
  " xīn zēng": 8227,
  "kǎ luó lái ": 8228,
  "yuán dì ": 8229,
  "shēn shàng ": 8230,
  "1963 nián ": 8231,
  " zài běi ": 8232,
  " xī xī ": 8233,
  "rù qīn": 8234,
  "hěn duō": 8235,
  " suí zhe": 8236,
  " sà": 8237,
  " qǐng": 8238,
  "liè shì ": 8239,
  "jī bǎi ": 8240,
  "wéi ěr": 8241,
  "xué xí": 8242,
  " jī yīn ": 8243,
  "tōng xùn ": 8244,
  "nà xiē ": 8245,
  "gǎng kǒu ": 8246,
  "zhǎn kāi": 8247,
  "yǒng jiǔ ": 8248,
  "fēn bié wèi ": 8249,
  "yóu rén gōng yǐn zhǒng zāi péi ": 8250,
  " b": 8251,
  "qíng xíng ": 8252,
  "1941 nián ": 8253,
  "qíng xù ": 8254,
  "cè liáng": 8255,
  "rè dài fēng bào ": 8256,
  "cì wèi ": 8257,
  "zhěng hé ": 8258,
  "jū mín diǎn ": 8259,
  " lǚ": 8260,
  "   2017 nián ": 8261,
  "jì jí ": 8262,
  "gǒng ": 8263,
  " zhī fǔ ": 8264,
  " shè huì": 8265,
  " hàn zú ": 8266,
  "yǔ shì ": 8267,
  "dòng gōng ": 8268,
  "lǔ kè ": 8269,
  " bù jiā ": 8270,
  " yǐ shàng de ": 8271,
  " yǔ cǐ tóng shí ": 8272,
  "mǐ yà ": 8273,
  " zhǔ chí ": 8274,
  " xǔ ": 8275,
  "sì míng ": 8276,
  "00 ": 8277,
  "bīng bù ": 8278,
  "tāi ": 8279,
  "jiè shào": 8280,
  " de yī xiē ": 8281,
  " sū lián ": 8282,
  "liǎo jiě": 8283,
  "x   ": 8284,
  " ōu zhōu ": 8285,
  "guài ": 8286,
  " sī kǎ ": 8287,
  "shǒu xí ": 8288,
  "zǔ chéng": 8289,
  "dǐ dá": 8290,
  "gào sù ": 8291,
  "chuàng bàn ": 8292,
  "fā zhǎn de ": 8293,
  "NBA": 8294,
  "yǐ hòu ": 8295,
  "yù jì ": 8296,
  "duì hé ": 8297,
  "zhǐ yú ": 8298,
  "gé lì ": 8299,
  "dēng jì ": 8300,
  "1969 nián ": 8301,
  "jù qíng ": 8302,
  " wéi yà ": 8303,
  " zhōng guó dà lù de ": 8304,
  " zhǐ chū ": 8305,
  "xià xiá yǐ xià dì qū ": 8306,
  " bāo ": 8307,
  "chū shēng ": 8308,
  "liú de ": 8309,
  "yǎn shēng ": 8310,
  " zhì liáo": 8311,
  "dà shǐ ": 8312,
  " xī ān ": 8313,
  "zī zhù ": 8314,
  "fēi fǎ ": 8315,
  "5 gè ": 8316,
  " wán chéng ": 8317,
  "   2016 nián ": 8318,
  "bái zhì ": 8319,
  " jiào shòu ": 8320,
  "zhuàng kuàng": 8321,
  " bì yè yú ": 8322,
  "xún yáng jiàn ": 8323,
  "fēn zhī yī ": 8324,
  "wén huà de ": 8325,
  " ào dà lì ": 8326,
  "xīn jiā pō ": 8327,
  "   jì ": 8328,
  "kōng jūn": 8329,
  "shùn shí ": 8330,
  "ta ": 8331,
  " bù biàn ": 8332,
  " chū xí ": 8333,
  "wēi xiǎn ": 8334,
  " zhè bù ": 8335,
  " nián 7 yuè 1 rì ": 8336,
  "wèn tí de ": 8337,
  " jìn shì chū shēn ": 8338,
  " zhì shǎo": 8339,
  " xiàn rù ": 8340,
  "nán fāng ": 8341,
  " bèi qí ": 8342,
  " qí zhōng nán ": 8343,
  "máo zé dōng ": 8344,
  " pài ": 8345,
  "   10 yuè ": 8346,
  "zi hé ": 8347,
  "lǔ shì ": 8348,
  " bù zhì ": 8349,
  " dì sī ": 8350,
  "zī shěng ": 8351,
  "pín lǜ ": 8352,
  " tāng": 8353,
  " shèn ": 8354,
  "1957 nián ": 8355,
  " zhōng zuì ": 8356,
  " jì niàn": 8357,
  "pàn jué ": 8358,
  "gòng chǎn zhǔ yì ": 8359,
  " ー": 8360,
  " yǐ sè liè": 8361,
  " gài ": 8362,
  " dēng ": 8363,
  "duō gè": 8364,
  "qǔ jiā ": 8365,
  "jú jú zhǎng ": 8366,
  " 15 ": 8367,
  " lèi ": 8369,
  "fán zhí ": 8370,
  "zhǔ chǎng ": 8371,
  "gān sù ": 8372,
  "zì xíng chē ": 8373,
  " 2005": 8374,
  "   běi ": 8375,
  "miáo huì ": 8376,
  " yī méi ": 8377,
  "fēn lèi": 8378,
  " píng jià ": 8379,
  "duō yàng ": 8380,
  " nán běi ": 8381,
  "shào jiàng ": 8382,
  "fēi lì ": 8383,
  "xuē ": 8384,
  " sī xiǎng ": 8385,
  "yán zhòng": 8386,
  "àn zhào ": 8387,
  "dāng jú ": 8388,
  " shì zhōng xīn ": 8389,
  " dān rèn": 8390,
  " i": 8391,
  " pái ": 8392,
  "   lìng wài ": 8393,
  "hòu shì ": 8394,
  "zhù dì ": 8395,
  "yǐn shí ": 8396,
  " shì wū kè lán": 8397,
  "āi nà ": 8398,
  " gōng zuò shì ": 8399,
  "cān móu zhǎng ": 8400,
  "xiàng xī ": 8401,
  "zé yǒu ": 8402,
  "èr zhàn ": 8403,
  "bǎo zhèng ": 8404,
  "niàng": 8405,
  " chéng shì de ": 8406,
  " zhī jì ": 8407,
  " dà jiā ": 8408,
  " míng chēng": 8409,
  " tóng yī ": 8410,
  "jiāo huàn ": 8411,
  " hé bìng wèi ": 8412,
  " 80": 8413,
  " ma": 8414,
  "yǔ yǐ ": 8415,
  "líng de ": 8416,
  "chuàn ": 8417,
  "kē fū": 8418,
  "dāng xuǎn": 8419,
  " gōng kāi sài ": 8420,
  "hōng zhà ": 8421,
  "R   ": 8422,
  " xiōng ": 8423,
  "suì shí ": 8424,
  "liǔ ": 8425,
  "fǎ lìng ": 8426,
  "rù xuǎn": 8427,
  " zhěng ": 8428,
  " 1998 nián ": 8429,
  "   2006": 8430,
  "zhè bù ": 8431,
  "jǐ hé ": 8432,
  " yú dì ": 8433,
  "shāng wáng ": 8434,
  "biān jìng ": 8435,
  "guǎng gào": 8436,
  "wú rén jī ": 8437,
  " chéng shì ": 8438,
  "   zhù ": 8439,
  "cì dà ": 8440,
  "wàn rén ": 8441,
  "shēn zhèn": 8442,
  "gǎi shàn": 8443,
  "1961 nián ": 8444,
  " dì guó de ": 8445,
  " jiàn hé ": 8446,
  "bǎo cún ": 8447,
  "bào zhǐ ": 8448,
  "gǎi biān ": 8449,
  "zēng qiáng ": 8450,
  "qún de ": 8451,
  " zài jī ": 8452,
  " fēn bié wèi ": 8453,
  "jī bù ": 8454,
  "zhī míng ": 8455,
  "rù de ": 8456,
  "guó nèi ": 8457,
  " gōng zhàn ": 8458,
  " yǐ nán ": 8459,
  "zǐ nǚ ": 8460,
  "luò de ": 8461,
  " xíng chéng de ": 8462,
  "qū fēn ": 8463,
  "bā fá": 8464,
  "bàn yǎn ": 8465,
  "xiàn fǎ ": 8466,
  " zhuān jí ": 8467,
  "ěn ": 8468,
  "huò shì ": 8469,
  "cǐ zhī wài ": 8470,
  "wài wéi ": 8471,
  "sī xiǎng ": 8472,
  " dà shī ": 8473,
  " chū xiàn le ": 8474,
  "miáo shù": 8475,
  " de míng zì ": 8476,
  " guāng": 8477,
  " Al": 8478,
  "hé   ": 8479,
  "céng shì ": 8480,
  " dàn yīn ": 8481,
  "shā hài ": 8482,
  "zhǐ huī guān ": 8483,
  "xià de yí gè ": 8484,
  "chuí ": 8485,
  " dà zhòng ": 8486,
  "shòu hài ": 8487,
  "yīng guó de ": 8488,
  " 20 ": 8489,
  "wén zhōng ": 8490,
  "bō ěr ": 8491,
  "hēng ": 8492,
  " yuè tái": 8493,
  " nán jīng ": 8494,
  "cái wù ": 8495,
  "bìng méi yǒu ": 8496,
  "jiào yù bù ": 8497,
  "sti": 8498,
  "gòng shí ": 8499,
  " wèi yóu ": 8500,
  "miàn tǐ ": 8501,
  "yán jiū yuàn ": 8502,
  "nòng": 8503,
  " h": 8504,
  " yuán shǐ ": 8505,
  "jǐng guān ": 8506,
  "6 gè ": 8507,
  " xiá ": 8509,
  "nuò sī ": 8510,
  "1980 nián dài ": 8511,
  "1944 nián ": 8512,
  "mǎ tóu ": 8513,
  "→": 8514,
  " shēng zhǎng yú hǎi bá": 8515,
  "chēng hào ": 8516,
  " de xiǎo ": 8517,
  " zài yīng guó ": 8518,
  "shǐ yòng le ": 8519,
  "zhǎn lǎn": 8520,
  " fēn bié shì ": 8521,
  "gāo yuán ": 8522,
  "shèng dì ": 8523,
  " dào shì ": 8524,
  " dà xíng": 8525,
  "jīng yíng": 8526,
  " niǔ yuē": 8527,
  "táo yuán ": 8528,
  "oun": 8529,
  "hòu lái ": 8530,
  "pàn luàn ": 8531,
  " Ro": 8532,
  " rè ": 8533,
  "mǎ de ": 8534,
  "diǎn wèi ": 8535,
  " wèi bèi ": 8536,
  " yì si": 8537,
  " shàng shū ": 8538,
  " zhè yàng de ": 8539,
  "háng yè ": 8540,
  " xīn jiā ": 8541,
  " chūn ": 8542,
  "ài guó ": 8543,
  "shàng yī ": 8544,
  "31 ": 8545,
  "qíng jié ": 8546,
  " mù qián shàng wèi ": 8547,
  " wū": 8548,
  " 2000": 8549,
  "tū chū ": 8550,
  " hé fǎ ": 8551,
  " dào bù ": 8552,
  "píng mín ": 8553,
  "guān fèi yán ": 8554,
  " píng lùn": 8555,
  "tuán zhǎng ": 8556,
  "luó jí ": 8557,
  " yì míng ": 8558,
  " yǐ shì ": 8559,
  " mǐ de dì qū ": 8560,
  " xiàn de yí gè fēi jiàn zhì dì qū ": 8561,
  "tiān jiā ": 8562,
  " yì jí ": 8563,
  "jiào shòu": 8564,
  " zuò chū": 8565,
  "tiān huáng ": 8566,
  "fáng zhǐ ": 8567,
  "dòu zhēng ": 8568,
  "wù zhǒng de ": 8569,
  " bǔ ": 8570,
  "hóng jūn ": 8571,
  " ěr zài ": 8572,
  "jīng guò": 8573,
  " yàn ": 8574,
  "kā fēi ": 8575,
  " hé tā de ": 8576,
  " yǔ dà ": 8577,
  " rèn mìng": 8578,
  "sāi nà ": 8579,
  " péi ": 8580,
  "lái sī ": 8581,
  "hǎo yǒu ": 8582,
  "1940 nián ": 8583,
  "zuò chū": 8584,
  "cháng qī": 8585,
  "lǐng yù": 8586,
  " zhōng gòng zhōng yāng": 8587,
  " gǎi wéi ": 8588,
  "miàn shì ": 8589,
  "chóu bèi ": 8590,
  "xiǎng fǎ ": 8591,
  "yuán zhōng ": 8592,
  " yuán zé ": 8593,
  " zhī chù ": 8594,
  "dōng ní ": 8595,
  "pǐn pái": 8596,
  "mìng lìng": 8597,
  "gǎn rǎn": 8598,
  "   2021 nián ": 8599,
  "ní de ": 8600,
  "dài lái ": 8601,
  " dāng xuǎn": 8602,
  " níng ": 8603,
  " 1999 nián ": 8604,
  "fú ěr ": 8605,
  "háng xiàn ": 8606,
  " jī dū jiào ": 8607,
  " tóng rì ": 8608,
  " xíng zhèng zhèn qū ": 8609,
  " de lǐ ": 8610,
  " de xī ": 8611,
  " shì nán jí zhōu de ": 8612,
  "xiū gǎi": 8613,
  " mín": 8614,
  "   X": 8615,
  "   suí ": 8616,
  " wèi qí ": 8617,
  " hé dào": 8618,
  "lì yòng ": 8619,
  " shí dài de ": 8620,
  "shī bài": 8621,
  " zuò biāo wèi ": 8622,
  "xìng bié ": 8623,
  "cháng jiāng ": 8624,
  "dìng zài ": 8625,
  "‧": 8626,
  " bù dé ": 8627,
  "fú hào ": 8628,
  "qì tǐ ": 8629,
  "chǎn yè": 8630,
  "shāng diàn ": 8631,
  " dì èr cì ": 8632,
  "ào sī kǎ ": 8633,
  " wéi": 8634,
  "ē ": 8635,
  "   ér": 8636,
  "huì jí ": 8637,
  "zuò zhōng ": 8638,
  "pǐn zhì ": 8639,
  "bīn shì ": 8640,
  "1951 nián ": 8641,
  " gōng jīn ": 8642,
  " tún": 8643,
  "   zhǔ yào ": 8644,
  "gē ěr ": 8645,
  "rùn ": 8646,
  "chǎng jǐng ": 8647,
  "chēng wéi": 8648,
  " zuì chū": 8649,
  "shè huì zhǔ yì ": 8650,
  "dàng àn ": 8651,
  "yíng dé le ": 8652,
  " 1990": 8653,
  " gōng zuò de ": 8654,
  " yǔ zhòu": 8655,
  " zhè cì ": 8656,
  " nián 12 yuè 31 rì ": 8657,
  "yù dào ": 8658,
  "zhàn zhì ": 8659,
  "zhàn jì ": 8660,
  "jiē jìn": 8661,
  "wǔ míng ": 8662,
  "chǎng shàng ": 8663,
  "dǐ zhì ": 8664,
  "jiē chù": 8665,
  " sān shí ": 8666,
  "niǎo lèi ": 8667,
  "dōng xiàn ": 8668,
  " bù ěr": 8669,
  " zhì dìng ": 8670,
  "wǔ qì": 8671,
  "liè rù": 8672,
  "jīng jì xué ": 8673,
  "lèi sì yú ": 8674,
  ".&": 8675,
  "   zhàn ": 8676,
  "zhōng shì jì ": 8677,
  "dòng yuán ": 8678,
  "fēn chéng ": 8679,
  "kuò zhāng ": 8680,
  "nàn mín ": 8681,
  "32 ": 8682,
  " míng zì ": 8683,
  "rén mín dài biǎo dà huì ": 8684,
  " yáo ": 8685,
  " jī xiè ": 8686,
  "jù fēng ": 8687,
  "yán jiū suǒ": 8688,
  "jiāng sū shěng ": 8689,
  "fú dé ": 8690,
  "yǐn lì ": 8691,
  " xiàn dài": 8692,
  "   duì yú ": 8693,
  "jiǎng de ": 8694,
  "codi": 8695,
  "1930 nián ": 8696,
  " tā shuō ": 8697,
  "zhòng zhí ": 8698,
  "5 gōng lǐ ": 8699,
  " e": 8700,
  "dá de ": 8701,
  "nú ": 8702,
  " zhōng shū ": 8703,
  "hòu xuǎn rén ": 8704,
  "yán shēn ": 8705,
  " dàn bù ": 8706,
  " wéi zhǐ ": 8707,
  "zhū lóng ": 8708,
  "mù sī lín ": 8709,
  " 36": 8710,
  " 1 yuè ": 8711,
  "   kè ": 8712,
  "fāng chéng ": 8713,
  "chē dào ": 8714,
  "sū lǐ ": 8715,
  "ce   ": 8716,
  "chèn ": 8717,
  "shēng míng ": 8718,
  "bān fā ": 8719,
  "gèng duō": 8720,
  "hài é": 8721,
  " niú ": 8722,
  "zū jiè ": 8723,
  " jiā jìng ": 8724,
  "zhù cè ": 8725,
  " yóu yǒng ": 8726,
  "děng zhí ": 8727,
  " chāo": 8728,
  "rén wèi ": 8729,
  "duì yǒu ": 8730,
  "tǐ xíng ": 8731,
  "chēng zhī wèi ": 8732,
  "yē sū": 8733,
  " jī chǔ ": 8734,
  " chū shēn ": 8735,
  "fēn qū ": 8736,
  "bǎo cún": 8737,
  "lǐng xiù": 8738,
  " tài yáng ": 8739,
  "gòng hé guó de ": 8740,
  " wèi fú qí yú gāng": 8741,
  "shǐ zhōng ": 8742,
  "lǎng dé ": 8743,
  "90 nián ": 8744,
  " chū rù kǒu ": 8745,
  "tōng xìn ": 8746,
  "yán jiū yuán ": 8747,
  "xié tiáo": 8748,
  "huǒ bàn ": 8749,
  " shì dì yī ": 8750,
  " céng zài ": 8751,
  " bìng qiě zài ": 8752,
  "jǐn biāo sài": 8753,
  " JR": 8754,
  " shòu dào ": 8755,
  " xióng ": 8756,
  "ài dé huá ": 8757,
  "xiàn shí ": 8758,
  "chuǎng": 8759,
  "bān bù ": 8760,
  "háng zhōu ": 8761,
  "jiào zuò ": 8762,
  "nǚ yǎn yuán ": 8763,
  "kǎo gǔ ": 8764,
  "miàn jī hé ": 8765,
  "zuì zǎo de ": 8766,
  "guī mó de ": 8767,
  "pái dé zhǔ ": 8768,
  "bīng lì ": 8769,
  "1931 nián ": 8770,
  " jiā méng ": 8771,
  "mǎ lái ": 8772,
  "chè dǐ ": 8773,
  "xī yuán ": 8774,
  "quán xiàn ": 8775,
  "qǐ de ": 8776,
  "bài zhàn ": 8777,
  "réng yǒu ": 8778,
  " chéng xù": 8779,
  " jiàn yǒu ": 8780,
  "shǒu duàn ": 8781,
  "fēn lí ": 8782,
  " qì": 8783,
  " piàn ": 8784,
  "chéng zài ": 8785,
  "quán qiú": 8786,
  "zú rén ": 8787,
  " zhōng fā xiàn ": 8788,
  "shǒu fǔ ": 8789,
  "zú xié ": 8790,
  "zāo shòu ": 8791,
  " zhōng guó gòng chǎn dǎng": 8792,
  "   2015 nián ": 8793,
  "jiāng shì ": 8794,
  "am ": 8795,
  "jiāo chā ": 8796,
  " gāi dì de ": 8797,
  " gōng yuán qián ": 8798,
  " dì shí yī ": 8799,
  " dá": 8800,
  " n ": 8801,
  "   fú ": 8802,
  "yǐ shàng ": 8803,
  "hàn yǔ ": 8804,
  "1933 nián ": 8805,
  " wèi zhōng guó ": 8806,
  " hé lán": 8807,
  " qiú yùn dòng yuán ": 8808,
  "tí gōng de ": 8809,
  "ài qíng ": 8810,
  "miǎn diān ": 8811,
  "tuì xiū": 8812,
  " lìng yì fāng miàn ": 8813,
  " bù dé bù ": 8814,
  " mù qián shàng wèi yóu rén gōng yǐn zhǒng zāi péi ": 8815,
  "   1": 8816,
  "jiān zhì ": 8817,
  "huá dà xué ": 8818,
  "cái chǎn ": 8819,
  "wù lǐ xué ": 8820,
  "àn zhōng ": 8821,
  "   4 yuè ": 8822,
  "fēn wèi ": 8823,
  "tóu de ": 8824,
  "1928 nián ": 8825,
  " zhè yě shì ": 8826,
  "gǎn jué ": 8827,
  " Mi": 8828,
  "di ": 8829,
  "wǎng de ": 8830,
  "hàn zì ": 8831,
  "móu shā ": 8832,
  " zài gōng ": 8833,
  " jiàn zào": 8834,
  " yīn de ": 8835,
  "bào zhà": 8836,
  "dǎo yǎn": 8837,
  " D ": 8838,
  " xī bān yá yǔ ": 8839,
  "yuán shí ": 8840,
  "jīn rì ": 8841,
  "lín sī ": 8842,
  "ràng tā ": 8843,
  "māo ": 8844,
  "New": 8845,
  "xué shēng": 8846,
  " fēn wéi ": 8847,
  "kǎ luó lái nà": 8848,
  " qiū": 8849,
  "fǎ shì ": 8850,
  "1942 nián ": 8851,
  " jí yī ": 8852,
  " chū yī ": 8853,
  "fù yǒu ": 8854,
  "tè hé ": 8855,
  "tài hòu ": 8856,
  "zhōng bù ": 8857,
  " dà yuē": 8858,
  "shēng tài ": 8859,
  "wěi yuán huì de ": 8860,
  "qiān shǔ": 8861,
  " wén huà": 8862,
  " dāng xuǎn ": 8863,
  " zhì zuò rén ": 8864,
  "xià xiá de yí gè xiāng ": 8865,
  "nán sī lā ": 8866,
  "gàn xiàn ": 8867,
  " shì nán ": 8868,
  "yán cháng": 8869,
  "shuǐ kù ": 8870,
  "zú zì zhì ": 8871,
  "biān mǎ ": 8872,
  "xù shù ": 8873,
  " nèi": 8874,
  " wēn": 8875,
  "zi gōng sī ": 8876,
  " yuè tuán": 8877,
  " yì diǎn ": 8878,
  "duì wài ": 8879,
  "qǐ sù ": 8880,
  "zhòng diǎn": 8881,
  " 34": 8882,
  " kōng ": 8883,
  "jì yú ": 8884,
  "tè jí ": 8885,
  "1943 nián ": 8886,
  " shì xiāng gǎng ": 8887,
  "shēn zhèn ": 8888,
  " mǎ lái xī yà ": 8889,
  " 2025": 8890,
  " rèn hé ": 8891,
  "mù shì ": 8892,
  "biān chéng ": 8893,
  " zài nán ": 8894,
  " hé tóng ": 8895,
  "shàng shù ": 8896,
  " huì bèi ": 8897,
  "wǔ hàn": 8898,
  "dìng qī ": 8899,
  "gǎi wéi": 8900,
  " suí zhe ": 8901,
  "   gè rén shēng huó ": 8902,
  " tòu guò ": 8903,
  " kāng xī ": 8904,
  "jìn jí ": 8905,
  "fù zhì ": 8906,
  " shì gè ": 8907,
  "sān cì ": 8908,
  "bō fàng": 8909,
  "cè lüè ": 8910,
  " jì suàn jī ": 8911,
  "fěng": 8912,
  " zhǔ": 8913,
  " jiǎo ": 8914,
  "   7 yuè ": 8915,
  "zhàn wèi ": 8916,
  "rù wéi ": 8917,
  "qì rén ": 8918,
  "xié dài ": 8919,
  "wò ěr ": 8920,
  "tàn suǒ ": 8921,
  "cū ": 8922,
  "duì xiàng ": 8923,
  "miáo shù wèi ": 8924,
  " hā ěr ": 8925,
  "codice ": 8927,
  " CD": 8928,
  " fǎn duì ": 8929,
  " yāo qiú": 8930,
  "chǎo": 8931,
  "shù hé ": 8932,
  "měi rì ": 8933,
  "shǒu bù ": 8934,
  "shī hé ": 8935,
  "xiū sī ": 8936,
  "sǎo ": 8937,
  "xì liè de ": 8938,
  "tái bì ": 8939,
  "bān cì ": 8940,
  " de jī huì ": 8941,
  "J ": 8942,
  "jiǒng": 8943,
  "   dōng ": 8944,
  "zhuǎn wéi ": 8945,
  "Station": 8946,
  " guó gōng ": 8947,
  " yuán yǒu ": 8948,
  " gè dà ": 8949,
  " kè lǐ sī ": 8950,
  "dòng chē ": 8951,
  "zhǔ chí rén ": 8952,
  "℃": 8953,
  "2 mǐ ": 8954,
  " y": 8955,
  "   2020 nián ": 8956,
  "jué le ": 8957,
  "bēn ": 8958,
  " bù zhèng ": 8959,
  " lì kè ": 8960,
  " gōng kāi": 8961,
  "lù shàng ": 8962,
  "mín jìn ": 8963,
  "guī huà": 8964,
  "mò sī kē": 8965,
  " 22": 8966,
  "ān rén ": 8967,
  "   zhì zuò ": 8968,
  "fū fù ": 8969,
  "zhuàng bìng dú": 8970,
  "rěn ": 8971,
  " chéng bǎo ": 8972,
  "qí shì ": 8973,
  "bèi shì ": 8974,
  "nà sī ": 8975,
  "háng zhàn ": 8976,
  "yí mín": 8977,
  "jiàn zào ": 8978,
  "tái wān de ": 8979,
  "pī píng": 8980,
  "   xiāng gǎng ": 8981,
  "jīng de ": 8982,
  "dōng de ": 8983,
  "oog": 8984,
  " dì 2 ": 8985,
  "zhèng quán ": 8986,
  "qū jiān ": 8987,
  " gè zì ": 8988,
  "zuǒ yòu": 8989,
  "jiù dú yú ": 8990,
  " fā": 8991,
  " nián nián ": 8992,
  " chéng wéi yī ": 8993,
  " xiāng dāng ": 8994,
  " yǒu yī xiē ": 8995,
  "kuò zhǎn ": 8996,
  "kē ěr ": 8997,
  " zhōng zhǐ ": 8998,
  " guó yǔ ": 8999,
  "kāi mù ": 9000,
  "bā nèn": 9001,
  "dú tè de ": 9002,
  "fàn wéi": 9003,
  " guó mín dǎng ": 9004,
  " gù shì ": 9005,
  "   2014 nián ": 9006,
  "jǐ nián ": 9007,
  "wú ěr ": 9008,
  " dì 2": 9009,
  "mín zhǔ": 9010,
  "zhè zhǒng": 9011,
  " zhàn lǐng ": 9012,
  "tiān táng ": 9013,
  "jiǎng zuì jiā ": 9014,
  "qiú duì": 9015,
  "3000": 9016,
  "xiàn xiàng ": 9017,
  " huì shàng ": 9018,
  "fēng gé": 9019,
  "tóng yàng": 9020,
  "xié shāng ": 9021,
  "huó dòng de ": 9022,
  " biǎo ": 9023,
  "   lā ": 9024,
  "   6 ": 9025,
  "   2010 nián ": 9026,
  "yìn xiàng ": 9027,
  " míng xīng ": 9028,
  "diàn chē ": 9029,
  " qián lóng ": 9030,
  "cuī huǐ": 9031,
  " pí": 9032,
  " shǎn xī ": 9033,
  "shū shì ": 9034,
  "jiū ": 9035,
  " zài yuán ": 9036,
  " rì qī ": 9037,
  "nèi méng gǔ ": 9038,
  "fǔ zhù ": 9039,
  " 38": 9040,
  "   Pro": 9041,
  "   8 yuè ": 9042,
  " dì bā ": 9043,
  " jí yǐ ": 9044,
  " qí bīng ": 9045,
  "lǐng xiān ": 9046,
  " 55": 9047,
  "pǐn de ": 9048,
  "olo": 9049,
  "1912 nián ": 9050,
  " zhōu rén ": 9051,
  "zhào piān": 9052,
  " tǎ": 9053,
  "   suī rán ": 9054,
  "chuān yuè ": 9055,
  "th   ": 9056,
  "xī wàng ": 9057,
  "shēng mìng ": 9058,
  "jìn zhǐ ": 9059,
  "cāi ": 9060,
  " 75": 9061,
  " láo ": 9062,
  "è ěr ": 9063,
  "   15": 9064,
  "lù yǔ ": 9065,
  "dà xué": 9066,
  " rì yì ": 9067,
  "yóu tài ": 9068,
  "tè qū ": 9069,
  " bìng biǎo shì ": 9070,
  "zuì duō de ": 9071,
  "chǎng bǐ sài ": 9072,
  " tè bié ": 9073,
  " dí": 9074,
  " cǎi ": 9075,
  "jiào kē ": 9076,
  "bàn yǎn": 9077,
  " hé liú yù ": 9078,
  " huā": 9079,
  "cho": 9080,
  "chéng shí ": 9081,
  "gé sī ": 9082,
  "ver ": 9083,
  " shì yuán ": 9084,
  "jù dà de ": 9085,
  "bǎo zhàng": 9086,
  "jiē wèi zhī ": 9087,
  " shì yí gè wèi yú měi guó ": 9088,
  "miàn jī hé rén kǒu ": 9089,
  " cí": 9091,
  "fāng wèi ": 9092,
  "cǐ shì ": 9093,
  "jū yú ": 9094,
  "1929 nián ": 9095,
  " tā jiāng ": 9096,
  "zǒng jīng lǐ ": 9097,
  "kǎ lā ": 9098,
  " tóng shí yě ": 9099,
  "hè sè ": 9100,
  " 90": 9101,
  "xiāng de ": 9102,
  "duō míng ": 9103,
  "bō chū": 9104,
  "jiǎ jī ": 9105,
  "shàng xià ": 9106,
  "fēn lán ": 9107,
  "huáng jīn": 9108,
  " fēng": 9109,
  " lú": 9110,
  "   mù qián ": 9111,
  "wáng hòu ": 9112,
  "bō lì ": 9113,
  "nú lì ": 9114,
  "dǔ ": 9115,
  "1927 nián ": 9116,
  " chū rèn": 9117,
  " jūn guān ": 9118,
  " qí zhōng yǒu ": 9119,
  "mí nǐ ": 9120,
  "háng kōng gōng sī ": 9121,
  " gāi dì de miàn jī hé rén kǒu ": 9122,
  " gāi dì de miàn jī hé rén kǒu jiē wèi zhī ": 9123,
  "   st": 9124,
  "yuè hé ": 9125,
  "qū jí ": 9126,
  "diū": 9127,
  "zhù zhái": 9128,
  "jiàn kāng ": 9129,
  "hàn lín ": 9130,
  " zhì lì yú ": 9131,
  " Le": 9132,
  "yí jì ": 9133,
  "dān xīn ": 9134,
  "zhāng de ": 9135,
  "dài bǔ ": 9136,
  "gāo děng": 9137,
  "bǎn běn de ": 9138,
  "fù yǔ ": 9139,
  "zú yǐ ": 9140,
  "táng de ": 9141,
  " shí yuè ": 9142,
  " yī tiān ": 9143,
  "dān dǎ ": 9144,
  "shāng pǐn ": 9145,
  "tuán jié ": 9146,
  " yīn cǐ zài ": 9147,
  "bǐ ěr ": 9148,
  "yīng jūn ": 9149,
  "jiù yǒu ": 9150,
  "xiǎng de ": 9151,
  "guó fáng": 9152,
  " chū xiàn": 9153,
  " jiā rù le ": 9154,
  "huì yì shàng ": 9155,
  "cún zài yú ": 9156,
  " huái": 9157,
  "sān wèi ": 9158,
  "diǎn xíng de ": 9159,
  "biāo jì ": 9160,
  "ari": 9161,
  " yī cháng ": 9162,
  " dé lì ": 9163,
  " dài lái ": 9164,
  "yí zhǐ": 9165,
  "2   ": 9166,
  " cài ": 9167,
  "jù zhōng ": 9168,
  "tīng de ": 9169,
  "zhuàng de ": 9170,
  "1932 nián ": 9171,
  "jì xù": 9172,
  " kè luó ": 9173,
  " jìn jí ": 9174,
  "gāo jià ": 9175,
  "què bǎo ": 9176,
  "chuàng shǐ rén ": 9177,
  "   wèi le ": 9178,
  " 2004": 9179,
  " yán jiū ": 9180,
  "ā jī ": 9181,
  "ān shì ": 9182,
  "   2012 nián ": 9183,
  "   2013 nián ": 9184,
  "chá lǐ ": 9185,
  "xì jūn ": 9186,
  "mù zhì ": 9187,
  "fú shè ": 9188,
  " yì wài ": 9189,
  " dà guī mó ": 9190,
  "chǎn shēng": 9191,
  " zhǔ chí": 9192,
  "ruì diǎn": 9193,
  "   9 yuè ": 9194,
  "   4 ": 9195,
  "80 nián ": 9196,
  " de jì huà ": 9197,
  " guó mín dǎng": 9198,
  " zhǔ yào shì ": 9199,
  " yuǎn ": 9200,
  " shào ": 9201,
  "   qí zhōng ": 9202,
  "jiǎn lì ": 9203,
  "zuǎn": 9204,
  "gěi tā ": 9205,
  "jué sài zhōng ": 9206,
  "méng tè ": 9207,
  " guó mín zhèng fǔ ": 9208,
  "wà": 9209,
  "píng jūn": 9210,
  " shí jiān de ": 9211,
  "lù xù ": 9212,
  "hēi lóng jiāng ": 9213,
  "lī": 9214,
  "zhōng hé ": 9215,
  "jiā shì ": 9216,
  "duàn shí jiān ": 9217,
  " yǐ 1 ": 9218,
  " xī lǐ ": 9219,
  "fā huī": 9220,
  "fā yán rén ": 9221,
  " wéi qí": 9222,
  " zhǔ rèn ": 9223,
  "tíng yùn ": 9224,
  " 70": 9225,
  "qián zài ": 9226,
  "shī dì ": 9227,
  "diào yú ": 9228,
  "illi": 9229,
  " chū shòu ": 9230,
  "duǎn zàn": 9231,
  " nóng ": 9232,
  " dōu shì ": 9233,
  "fú zhōu ": 9234,
  "guān cè": 9235,
  "tǎ ní": 9236,
  " shǐ yòng": 9237,
  " 1997 nián ": 9238,
  "shù rén ": 9239,
  "xù jí ": 9240,
  "chuān guò ": 9241,
  " guó wáng": 9242,
  "fù zhǔ xí ": 9243,
  " zhōu wéi ": 9244,
  " fēn bù zài ": 9245,
  " céng jīng ": 9246,
  " nà me": 9247,
  " de yuán yīn ": 9248,
  "f   ": 9249,
  " kěn ": 9250,
  "shǐ dì ": 9251,
  "wù yǔ ": 9252,
  "cì jī ": 9253,
  "jué yú ": 9254,
  " hé lì ": 9255,
  " zhī chēng ": 9256,
  " dàn qí ": 9257,
  " xué xí": 9258,
  "lǐng yù de ": 9259,
  "què dìng": 9260,
  "qún zhòng ": 9261,
  "chuàng zuò": 9262,
  " shì jiè de ": 9263,
  " zǒng tǒng ": 9264,
  "tàn xiǎn": 9265,
  "ní yà de ": 9266,
  " zhàn dì ": 9267,
  "   chē zhàn jié gòu ": 9268,
  " mèng ": 9269,
  "xíng xiàng ": 9270,
  "1934 nián ": 9271,
  "shù mù ": 9272,
  " ér lái ": 9273,
  "zhí bō ": 9274,
  " fù gài ": 9275,
  "gào sù": 9276,
  "suàn fǎ ": 9277,
  " nián dài chū ": 9278,
  "ào dà lì yà": 9279,
  "C   ": 9280,
  "   cān kǎo ": 9281,
  "duǒ ": 9282,
  "son ": 9283,
  "yǒu guān ": 9284,
  " dāng nián ": 9285,
  " chéng lì le ": 9286,
  "qù shì hòu ": 9287,
  "6 mǐ ": 9288,
  " hù": 9289,
  "yù bèi ": 9290,
  "shén de ": 9291,
  "chóng fù ": 9292,
  "tuī xíng ": 9293,
  "1924 nián ": 9294,
  " dào zhōng ": 9295,
  "hǎi yáng": 9296,
  " de dì yí gè ": 9297,
  " gōng bù ": 9298,
  "zhǎn xiàn ": 9299,
  " shì bèi ": 9300,
  " yīn yuán ": 9301,
  " yīn qí ": 9302,
  "zhù zhái ": 9303,
  "fú huà ": 9304,
  "zuì zǎo ": 9305,
  "jìng nèi de ": 9306,
  "gē cí ": 9307,
  "fáng jiān ": 9308,
  " qín": 9309,
  " 46": 9310,
  "àn shì ": 9311,
  "àn shí ": 9312,
  "liè sī ": 9313,
  "dū huì ": 9314,
  "sòng dào ": 9315,
  "33 ": 9316,
  " jí ěr ": 9317,
  "xī yà ": 9318,
  "wǔ dǎo ": 9319,
  "jìng wài ": 9320,
  "mì qiè": 9321,
  "é hài é": 9322,
  " lù yì ": 9323,
  " kě néng": 9324,
  "   6 yuè ": 9325,
  "zhě rèn wéi ": 9326,
  "chái ": 9327,
  " dà qiáo": 9328,
  "dǎ suàn ": 9329,
  "guó jiā duì ": 9330,
  "zhè jiāng shěng ": 9331,
  "pái háng bǎng": 9332,
  "zhī dào ": 9333,
  "ǎi ": 9334,
  "duō yuán ": 9335,
  " yǐ lái": 9336,
  "shēn wáng ": 9337,
  "fǎn duì": 9338,
  "tàn cè ": 9339,
  " dēng": 9340,
  "duān de ": 9341,
  " dì zhōng ": 9342,
  " tā hái": 9343,
  "jīng yóu ": 9344,
  "25 nián ": 9345,
  "as   ": 9346,
  " yī tóng": 9347,
  " rì hòu ": 9348,
  " shēng chēng ": 9349,
  "guī zé": 9350,
  "cái zhèng": 9351,
  " lián jiē ": 9352,
  "mǎn zú": 9353,
  " 150": 9354,
  "hòu bù jiǔ ": 9355,
  "jìn xíng de ": 9356,
  " ěr yǔ ": 9357,
  "cūn mín ": 9358,
  "chū zhàn ": 9359,
  "fù bù zhǎng ": 9360,
  "orl": 9361,
  "PlayStation": 9362,
  " lì shǔ": 9363,
  " xíng yú ": 9364,
  "lā tè ": 9365,
  "bā lè": 9366,
  "tóu xián ": 9367,
  "qiáng dà de ": 9368,
  "shōu lù": 9369,
  "   2011 nián ": 9370,
  "zhàn zài ": 9371,
  "fēn de ": 9372,
  "wǎng qiú": 9373,
  "kuò jiàn ": 9374,
  " jí sī ": 9375,
  " jiā sī ": 9376,
  " bìng yǒu ": 9377,
  " 12 ": 9378,
  "yú   ": 9379,
  "in   ": 9380,
  "kuà ": 9381,
  "nd ": 9382,
  "yī lì ": 9383,
  "chéng jì ": 9384,
  "kē fū ": 9385,
  "3 mǐ ": 9386,
  " yǎ": 9387,
  "ā lǐ ": 9388,
  "   gēn jù": 9389,
  "qī shì ": 9390,
  "ol ": 9391,
  " hé dōng ": 9392,
  " rì yǔ ": 9393,
  "zhàn lüè ": 9394,
  "zhí wù": 9395,
  " xué huì ": 9396,
  "wán chéng le ": 9397,
  "wán zhěng de ": 9398,
  "5   ": 9399,
  " jiǎng": 9400,
  "   cǐ": 9401,
  "shuō de ": 9402,
  "zhēn zhèng ": 9403,
  "ts ": 9404,
  " qí tā de ": 9405,
  "cháng wěi huì ": 9406,
  "bàn dǎo": 9407,
  "háng bān ": 9408,
  "fáng kōng ": 9409,
  "EN": 9410,
  "   rì běn ": 9411,
  "   jiàn zhù ": 9412,
  "dī de ": 9413,
  "zá de ": 9414,
  " zhōng duì ": 9415,
  "dà liàng ": 9416,
  "kē xué": 9417,
  "chóng xīn": 9418,
  " péng ": 9419,
  " jī yú ": 9420,
  "   xiāng ": 9421,
  "dìng lǐ ": 9422,
  "xiào shè ": 9423,
  "xiě le ": 9424,
  " jí jiāng ": 9425,
  " dà sài ": 9426,
  "pǔ tōng": 9427,
  " guó jì jī chǎng ": 9428,
  "yōu xiù ": 9429,
  "   gēn jù 2010 nián měi guó rén kǒu pǔ chá de shù jù ": 9430,
  " 2003": 9431,
  " 180": 9432,
  " xuán ": 9433,
  "bā shí ": 9434,
  "shěng zhèng fǔ ": 9435,
  "bǎo wèi ": 9436,
  "dōu bù ": 9437,
  " zài xiàn ": 9438,
  "sān zhǒng ": 9439,
  "xiǎo zǔ": 9440,
  "hù dòng ": 9441,
  "chè tuì ": 9442,
  " M ": 9443,
  " guān zhì ": 9444,
  " sǐ ": 9445,
  "rèn yì ": 9446,
  "xiáng xì ": 9447,
  "chuí zhí ": 9448,
  " chū xiàn de ": 9449,
  "nuò màn ": 9450,
  "den": 9451,
  "   gāo ": 9452,
  "26 ": 9453,
  " yī zhǒng": 9454,
  " xíng hé ": 9455,
  "xué shì xué wèi ": 9456,
  " yī wèi ": 9457,
  "ā fù ": 9458,
  "bù wèi yú ": 9459,
  "xiào yǒu ": 9460,
  "lǘ": 9461,
  "zàng yú ": 9462,
  "us ": 9463,
  " hé jī ": 9464,
  "cháo tíng ": 9465,
  " hé nán shěng ": 9466,
  "hǎn mò dé ": 9467,
  " zēng ": 9468,
  " wǎn ": 9469,
  "qiān rén ": 9470,
  "dǎng jí ": 9471,
  "bǎi wàn ": 9472,
  "28 ": 9473,
  " xiàn yǔ ": 9474,
  " xiàn zài de ": 9475,
  "xiāng hù ": 9476,
  " kè sà sī ": 9477,
  " ruǎn": 9478,
  "hòu tā ": 9479,
  "rén mín": 9480,
  "yán cháng ": 9481,
  "jié dù shǐ ": 9482,
  "zī xùn": 9483,
  "wū rǎn": 9484,
  " shǒu cì": 9485,
  "tán pàn": 9486,
  " guì ": 9487,
  "or   ": 9488,
  "zhēn yǔ ": 9489,
  " shì duì ": 9490,
  " tā chéng wéi ": 9491,
  " zhōu hé ": 9492,
  "fā bù de ": 9493,
  "fǎ guó de ": 9494,
  "tiān qì ": 9495,
  "bàn fǎ ": 9496,
  "   fǎ guó ": 9498,
  "běn bù ": 9499,
  "liú xué ": 9500,
  "gǎi míng ": 9501,
  "27 ": 9502,
  "STAT": 9503,
  " dà chéng ": 9504,
  " rèn zhí ": 9505,
  "bǎo zhàng ": 9506,
  "nà rù ": 9507,
  "liàng xiàng ": 9508,
  " quán miàn ": 9509,
  "pàn chǔ ": 9510,
  " shì shì jiè": 9511,
  "mào xiǎn ": 9512,
  "lǐ shì huì ": 9513,
  " rén kǒu de ": 9514,
  "tú shū guǎn": 9515,
  "1 hào ": 9516,
  " zhāo ": 9517,
  "ér tóng": 9518,
  "zǒng zhàn ": 9519,
  "sù shè ": 9520,
  "chuán qí ": 9521,
  "qù de ": 9522,
  "fǒu rèn ": 9523,
  " shì zhèng fǔ ": 9524,
  " zài qí": 9525,
  " bù jǐn": 9526,
  " sī fǎ ": 9527,
  "mín zhòng": 9528,
  " bìng jiāng": 9529,
  "kè yùn ": 9530,
  "zhuǎn yí ": 9531,
  "qǔ dé le ": 9532,
  "qián xiàn ": 9533,
  "cān yì yuán ": 9534,
  "cí huì ": 9535,
  "xǐng ": 9536,
  "liǎn ": 9537,
  " nián qián ": 9538,
  " yī lǎng": 9539,
  " zhī bù ": 9540,
  "rèn zhí ": 9541,
  "wài guān ": 9542,
  "mìng míng de ": 9543,
  "rén dà dài biǎo ": 9544,
  " lán": 9545,
  "   chén ": 9546,
  "liù gè ": 9547,
  " yǐ 2 ": 9548,
  "wǎng wǎng ": 9549,
  "biān jiè": 9550,
  "hú pō ": 9551,
  "dēng lù": 9552,
  " jiāng xī ": 9553,
  " 1992 nián ": 9554,
  "wéi rén ": 9555,
  "duō bù ": 9556,
  "sān yuè ": 9557,
  "dàng zuò ": 9558,
  "fāng chéng shì ": 9559,
  " rì běn de ": 9560,
  "luó mǎ dì guó ": 9561,
  " xiàn de yí gè xíng zhèng zhèn qū ": 9562,
  "yǐng dài ": 9563,
  "zhēn de ": 9564,
  " shì yàn ": 9565,
  " wèi wèi ": 9566,
  " xiāng sì ": 9567,
  "dān mài": 9568,
  "yǎn zòu": 9569,
  "mì dù ": 9570,
  "huí guī": 9571,
  "rén kǒu pǔ chá ": 9572,
  " hēi": 9573,
  "chē rén ": 9574,
  "bō chū de ": 9575,
  "80 ": 9576,
  " zhī hòu zài ": 9577,
  "rú guǒ": 9578,
  "xīng xì ": 9579,
  " R ": 9580,
  "shān xī shěng ": 9581,
  " chuàng": 9582,
  " 37": 9583,
  " 2023 nián ": 9584,
  " 1994 nián ": 9585,
  "   yán gé ": 9586,
  "miǎn yì ": 9587,
  " jiàn zài ": 9588,
  " bèi jǐng ": 9589,
  "zhè yàng de ": 9590,
  " quán de ": 9591,
  " tóng shí yě shì ": 9592,
  " qī jiān": 9593,
  " dà bù fèn": 9594,
  "kāi fā de ": 9595,
  "   2008 nián ": 9596,
  "   yǐ xià ": 9597,
  "tǐ jī ": 9598,
  "nà hé ": 9599,
  "jiǎ shè ": 9600,
  "kā ": 9601,
  " shì zhǐ": 9602,
  "gǎi chēng ": 9603,
  "fàn zuì": 9604,
  " dōng běi": 9605,
  "wěi yuán huì zhǔ xí ": 9606,
  "guǎng fàn de ": 9607,
  " liú yù miàn jī ": 9608,
  " qǔ": 9609,
  " tīng ": 9610,
  "chuán dì ": 9611,
  "cūn de ": 9612,
  " xiàn zhōng ": 9613,
  " dà fū ": 9614,
  " dàn de ": 9615,
  " lián méng ": 9616,
  " gēn jù 2020 nián měi guó rén kǒu pǔ chá de shù jù ": 9617,
  " féng": 9618,
  " wāng": 9619,
  "yǒu hé ": 9620,
  "lí shì ": 9621,
  "cháo shí ": 9622,
  "jú shì ": 9623,
  "48 ": 9624,
  "zǒng miàn jī ": 9625,
  "gǎi zào": 9626,
  " P ": 9627,
  " Da": 9628,
  " hēng lì ": 9629,
  "xīn xíng ": 9630,
  "kāi shè": 9631,
  "cháng bèi ": 9632,
  "zǐ dàn ": 9633,
  "dàng de ": 9634,
  "tāo ": 9635,
  "xué xì ": 9636,
  "shōu cáng": 9637,
  " ān dé ": 9638,
  " 400": 9639,
  "le dì ": 9640,
  " chéng lì de ": 9641,
  " bìng fēi": 9642,
  " zì mǔ ": 9643,
  "háng kōng mǔ": 9644,
  " 39": 9645,
  "gé lǐ ": 9646,
  "18 nián ": 9647,
  "jǐng yuán ": 9648,
  "qiǎn zé ": 9649,
  "kuāng ": 9650,
  "bù tóng ": 9651,
  "yì bǎi ": 9652,
  "xī yáng": 9653,
  "diàn zǐ": 9654,
  " bì xū ": 9655,
  "fēi lǜ bīn ": 9656,
  "gěn": 9657,
  " shuāng": 9658,
  "   tóng": 9659,
  "chá ěr sī ": 9660,
  "zhǎng hé ": 9661,
  "jiāo de ": 9662,
  "wǎn nián ": 9663,
  "60 nián ": 9664,
  " zài bèi ": 9665,
  " shí yóu ": 9666,
  " jī xiè": 9667,
  "yí dù": 9668,
  "sài chē ": 9669,
  "jiāo jiè ": 9670,
  "nǚ hái ": 9671,
  "shāng chǎng ": 9672,
  "wit": 9673,
  " shēng": 9674,
  " 21": 9675,
  "   tái wān ": 9676,
  "fú shì ": 9677,
  " xī fāng ": 9678,
  " qí hòu yú ": 9679,
  "tíng kào": 9680,
  "diàn yǐng de ": 9681,
  " 300": 9682,
  " 1996 nián ": 9683,
  "   189": 9684,
  "xīng jiàn": 9685,
  "gēn běn ": 9686,
  "35 ": 9687,
  "es   ": 9688,
  "pǎo dào ": 9689,
  " zhōng qī ": 9690,
  " shí lì ": 9691,
  "zhèng cháng ": 9692,
  " zhī shàng ": 9693,
  "bǎo jiā": 9694,
  "yí cì shì jiè dà zhàn ": 9695,
  "qiáng diào": 9696,
  "dé guó de ": 9697,
  "bǔ chōng ": 9698,
  "fú jiàn shěng ": 9699,
  " a": 9700,
  "   xiāng gǎng": 9701,
  "40 nián ": 9702,
  " shí kè ": 9703,
  " gè bù ": 9704,
  "fēn pèi": 9705,
  "fēn liè ": 9706,
  "chi": 9707,
  "hào de ": 9708,
  "eri": 9709,
  " yǒu liǎng ": 9710,
  "lǐ lán ": 9711,
  " zhōu lì ": 9712,
  "shǒu shù ": 9713,
  " duì wài ": 9714,
  "jīn róng": 9715,
  "shòu huān ": 9716,
  "wáng zǐ ": 9717,
  "guī lèi": 9718,
  " lì shǐ xué jiā ": 9719,
  " yì shù jiā ": 9720,
  "cri": 9721,
  " jǐ": 9722,
  " St": 9723,
  "sān bù ": 9724,
  "sì yuè ": 9725,
  "shuò ": 9726,
  " duì wǔ ": 9727,
  "jīn shān ": 9728,
  " xiāng bǐ ": 9729,
  "yǎn jiǎng ": 9730,
  "qíng bào": 9731,
  "yīn sù ": 9732,
  " mǐ zhì ": 9733,
  " guāng xù ": 9734,
  "24 xiǎo shí ": 9735,
  "1925 nián ": 9736,
  "yán lùn ": 9737,
  "xù liè ": 9738,
  "wēi xié": 9739,
  "ā ěr bēi sī ": 9740,
  "cuī huǐ ": 9741,
  "fó jiào": 9742,
  " chóng xīn ": 9743,
  "   liú ": 9744,
  "is ": 9745,
  " hé shàng ": 9746,
  " guó shí ": 9747,
  "shēng yīn ": 9748,
  "zhí shēng jī ": 9749,
  " jìn ér ": 9750,
  "luó lā ": 9751,
  "qiáo liáng ": 9752,
  "sà lā ": 9753,
  " miàn jī 0": 9754,
  "fā bù le ": 9755,
  "gǔ lǎo de ": 9756,
  " De": 9757,
  "ch   ": 9758,
  "gāo dì ": 9759,
  "gǔ jì ": 9760,
  "nǚ rén ": 9761,
  "shuǐ shēn ": 9762,
  "yǐ sè ": 9763,
  " jīn shǔ ": 9764,
  "gè zhǒng": 9765,
  "chāo guò": 9766,
  "zhòng diǎn wén wù bǎo hù dān wèi ": 9767,
  "jiā lì fú ní yà zhōu ": 9768,
  "dī qì yā ": 9769,
  "1 míng ": 9770,
  "duì tā ": 9771,
  " shì xī bān yá ": 9772,
  " hé jì ": 9773,
  " bù shí ": 9774,
  " shí dà ": 9775,
  "rèn mìng ": 9776,
  " com": 9777,
  "lái kè ": 9778,
  "tè zài ": 9779,
  "fú yīn ": 9780,
  "yà sī ": 9781,
  "ID ": 9782,
  " yuán zi ": 9783,
  "xīn jiāng ": 9784,
  "qián jìn ": 9785,
  " shè yǐng ": 9786,
  "tú shā ": 9787,
  "kōng xí ": 9788,
  "tǎn dīng ": 9789,
  " kě shì ": 9790,
  " yào": 9791,
  "shá": 9792,
  "shā de ": 9793,
  "jú bù ": 9794,
  "14 nián ": 9795,
  "ing ": 9796,
  " yì dà ": 9797,
  " jūn tuán ": 9798,
  "nǚ zhǔ jué ": 9799,
  "shōu rù": 9800,
  " jǐng fāng ": 9801,
  " hǎo ": 9802,
  "19 nián ": 9803,
  "luò kè ": 9804,
  "huí jiā ": 9805,
  " gōng gào ": 9806,
  " zhī hòu de ": 9807,
  "jìng tóu ": 9808,
  "mó tè": 9809,
  " shì yī kē": 9810,
  "hn": 9811,
  " luó sī ": 9812,
  " kuān ": 9813,
  "   8": 9814,
  "guǎng zhōu shì ": 9815,
  "70 nián ": 9816,
  " guó jūn ": 9817,
  "fú léi": 9818,
  "zī xún ": 9819,
  "chéng lì hòu ": 9820,
  " bù zài ": 9821,
  "dà yú ": 9822,
  "luò zài ": 9823,
  "1970 nián dài ": 9824,
  " shì xīng děng wèi ": 9825,
  "ul": 9826,
  "shuǐ de ": 9827,
  "zhuǎn chéng ": 9828,
  "yī yuàn ": 9829,
  " yǐ běi ": 9830,
  " xiàn míng ": 9831,
  "xuǎn qū": 9832,
  "yīng xióng": 9833,
  "yán jiū zhōng xīn ": 9834,
  " а": 9835,
  "dí shì ní ": 9836,
  "zhuān lì ": 9837,
  " rén duì ": 9838,
  " xià le ": 9839,
  "pǔ luó ": 9840,
  "zhuān mén": 9841,
  "péi xùn ": 9842,
  " nián qīng de ": 9843,
  " dòu ": 9844,
  "jiē de ": 9845,
  "wǔ dé ": 9846,
  "gòng jì ": 9847,
  "jiù zài ": 9848,
  "00 nián ": 9849,
  "lún sī ": 9850,
  "shén huà ": 9851,
  "diàn yǐng jié ": 9852,
  " dù": 9853,
  " kuài ": 9854,
  "zhì dù ": 9855,
  " zhèng quán ": 9856,
  "yí dìng de ": 9857,
  "lán sè ": 9858,
  "fǎ lán xī": 9859,
  " ED": 9860,
  " yùn ": 9861,
  "duō lì yà ": 9862,
  "jiù bèi ": 9863,
  "biàn shì ": 9864,
  "tíng de ": 9865,
  "kuài de ": 9866,
  " shì yīng guó ": 9867,
  " jí bìng": 9868,
  "yǔ máo": 9869,
  "qū zhú": 9870,
  "fāng xiàng de ": 9871,
  " tiān jīn ": 9872,
  "5000": 9873,
  " chù ": 9874,
  "gōng hé ": 9875,
  "nán rén ": 9876,
  "mǎi ": 9877,
  "féi tè ": 9878,
  " míng xiǎn ": 9879,
  "mó fǎ ": 9880,
  "tǐ yù guǎn ": 9881,
  "3 míng ": 9882,
  "8 gè ": 9883,
  "pen": 9884,
  "   2005": 9885,
  "zhī jiā ": 9886,
  "gǔ de ": 9887,
  "gào shì ": 9888,
  " xíng róng": 9889,
  "běn shēn ": 9890,
  "nèi ruì ": 9891,
  "tóu shǒu ": 9892,
  "yíng yùn": 9893,
  "zhuǎn huàn": 9894,
  " shì shí shàng ": 9895,
  " zǐ ": 9896,
  "dà hé ": 9897,
  "shuǐ hé ": 9898,
  "zhì zuò": 9899,
  " jí xiàn ": 9900,
  " rì hé ": 9901,
  " jūn yǒu ": 9902,
  "fù shǐ ": 9903,
  " zhōu qī ": 9904,
  " yóu xì de ": 9905,
  "zhǐ kòng": 9906,
  "zhǔn bèi": 9907,
  " 1949 nián ": 9908,
  "náng ": 9909,
  " shí pǐn ": 9910,
  " bìng shì ": 9911,
  " tóng zhì ": 9912,
  "qīng chǔ ": 9913,
  "chǎn wù ": 9914,
  "àn zhào": 9915,
  "rì běn de ": 9916,
  " 2002": 9917,
  "wǎng yǒu ": 9918,
  " wèi lì ": 9919,
  " yú 2021": 9920,
  "liú liàng ": 9921,
  "zhēng qǔ ": 9922,
  "zhuǎn huàn ": 9923,
  "měi guó rén kǒu pǔ chá ": 9924,
  "sāi ěr wéi yà ": 9925,
  "   dào ": 9926,
  "zhàn hé ": 9927,
  "kè sī ": 9928,
  "rù qiú ": 9929,
  "biàn de ": 9930,
  "dǎn ": 9931,
  " xíng rén ": 9932,
  "liàng zǐ ": 9933,
  " wèi yú yín": 9934,
  "sū dān ": 9935,
  "kě néng xìng ": 9936,
  "zhuàn xiě ": 9937,
  "shùn xù ": 9938,
  " lú wǎ ěr shěng ": 9939,
  "sì chuān shěng ": 9940,
  "E   ": 9941,
  "jì zǎi ": 9942,
  " xíng róng ": 9943,
  " bèi rèn mìng wèi ": 9944,
  " zhǔ tí ": 9945,
  "qiú chǎng ": 9946,
  " shì jiè shàng ": 9947,
  " měi zhōu ": 9948,
  "gòu mǎi ": 9949,
  " wò ": 9950,
  "fāng zài ": 9951,
  "chuān xiàn ": 9952,
  " yú shí de rén kǒu shù liàng wèi rén ": 9953,
  "bèi jǐng": 9954,
  "sài guàn jūn ": 9955,
  "gǔ diǎn ": 9956,
  "chè xiāo": 9957,
  "NH": 9958,
  " pān": 9959,
  "huà shì ": 9960,
  "tán hé ": 9961,
  " shàng le ": 9962,
  " huò zhě": 9963,
  "jiǎn dān de ": 9964,
  " wèi yú gāi guó xī bù ": 9965,
  "bāo hán le ": 9966,
  " g": 9967,
  "zài   ": 9968,
  "bā bù ": 9969,
  "chì jīng ": 9970,
  "35 nián ": 9971,
  " shì jì zhōng ": 9972,
  " lì táo ": 9973,
  "fǎ lán kè ": 9974,
  " fēi lǜ ": 9975,
  " yuán zhù mín ": 9976,
  " kǎ ěr ": 9977,
  "mǎ lì yà ": 9978,
  "děng yú ": 9979,
  "ori": 9980,
  "bǔ zhù ": 9981,
  "kāi zhǎn": 9982,
  "zhēng fú ": 9983,
  "lǐng tǔ": 9984,
  "wěi tuō ": 9985,
  "tiáo wén ": 9986,
  "dài biǎo tuán ": 9987,
  "ruǎn tiáo ": 9988,
  "hào wèi ": 9989,
  "CD ": 9990,
  "jiāng hù": 9991,
  "tōng xùn": 9992,
  "sì hū": 9993,
  "qǔ mù ": 9994,
  " xiāng dāng yú ": 9995,
  " wēn ": 9996,
  "   hóng ": 9997,
  "   yóu xì ": 9998,
  "kě jiàn ": 9999,
  "pǔ jí ": 10000,
  " tā rén ": 10001,
  "zuò zhě ": 10002,
  "yóu yǒng ": 10003,
  " dé wéi ": 10004,
  "méi yǒu rèn hé ": 10005,
  " tiān jīn": 10006,
  " 1949": 10007,
  "hòu yǐ ": 10008,
  "jiān wèi ": 10009,
  "bō de ": 10010,
  "dú de ": 10011,
  "gèng shì ": 10012,
  "rào ": 10013,
  "qián tǐng": 10014,
  "yán shēn zhì ": 10015,
  "ven": 10016,
  " 1995 nián ": 10017,
  " 1993 nián ": 10018,
  "zhōng de yī ": 10019,
  "jiǎ jí ": 10020,
  "pín dào": 10021,
  "běi bù de ": 10022,
  "jiē xià ": 10023,
  " xué shù ": 10024,
  "zhèn róng ": 10025,
  "bìng rù ": 10026,
  " zuì zǎo": 10027,
  "zhǔ yào shì ": 10028,
  " yǒu xiàn gōng sī": 10029,
  "qí zhōng yī ": 10030,
  "gē lún bǐ yà ": 10031,
  "sū wéi āi": 10032,
  "qǔ de ": 10034,
  " shí èr nián ": 10035,
  "jī guān ": 10036,
  "kāi tōng": 10037,
  "zhí bàng": 10038,
  "tài shǒu ": 10039,
  "gē gē ": 10040,
  "diàn shì dòng huà ": 10041,
  " chú cǐ zhī wài ": 10042,
  "jiè quán guó zhèng xié ": 10043,
  "bào fā hòu ": 10044,
  " liáng": 10045,
  "shù jiā ": 10046,
  "piàn zhōng ": 10047,
  "me   ": 10048,
  " zài xiāng gǎng ": 10049,
  " shí yī nián ": 10050,
  " jí wéi ": 10051,
  " yǐ biàn ": 10052,
  "tōng wǎng ": 10053,
  "wǔ hàn ": 10054,
  " yù jì ": 10055,
  "DNA": 10056,
  " tí chū ": 10058,
  "yuán bù ": 10059,
  "chē xíng ": 10060,
  "fèn de ": 10061,
  "1919 nián ": 10062,
  " zhōng xīn de ": 10063,
  " dà xiǎo ": 10064,
  "gé lā sī ": 10065,
  "OR": 10066,
  " péng": 10067,
  "wàn lì ": 10068,
  "hū xī ": 10069,
  "el ": 10070,
  " dà lǐ ": 10071,
  "jù lí": 10072,
  "lián luò ": 10073,
  " de dì sān ": 10074,
  "shōu fèi ": 10075,
  "hěn dà de ": 10076,
  "máo dùn ": 10077,
  " fán": 10078,
  "jì zhì ": 10079,
  "jiē shì ": 10080,
  "jiè shí ": 10081,
  "hā lǐ ": 10082,
  "huǒ lì ": 10083,
  "réng wèi ": 10084,
  "at   ": 10085,
  "kuà yuè ": 10086,
  "TV ": 10087,
  "ty ": 10088,
  " shì é luó sī ": 10089,
  " rén bèi ": 10090,
  "yòng hù": 10091,
  "dòng wù": 10092,
  "shuǐ liàng ": 10093,
  "xié tiáo ": 10094,
  "huǒ chē zhàn ": 10095,
  "nóng chǎng ": 10096,
  "chōng mǎn ": 10097,
  "xuān yán ": 10098,
  " chì wěi ": 10099,
  "   èr ": 10100,
  "   jiǎn lì ": 10101,
  "zhàn yǒu ": 10102,
  "chēng shì ": 10103,
  "gǔ xī là": 10104,
  "sēng ": 10105,
  "yì míng ": 10106,
  "wù pǐn ": 10107,
  "duō zhǒng": 10108,
  " yóu tài ": 10109,
  "hǎi nán ": 10110,
  "shěng zhǎng ": 10111,
  "huáng jīn ": 10112,
  "chuàng zào": 10113,
  " xiàn shí yóu ": 10114,
  "   jǐn guǎn ": 10115,
  "   kǎ ": 10116,
  "hǎi de ": 10117,
  "tū jī ": 10118,
  " rén yǔ ": 10119,
  " jí gōng ": 10120,
  " yǐ bù ": 10121,
  "qū nèi ": 10122,
  "shōu gòu": 10123,
  "qī zhì ": 10124,
  "jùn de ": 10125,
  "sis ": 10126,
  " dào dá": 10127,
  " dé dào": 10128,
  " zhè zuò ": 10129,
  "ní sū ": 10130,
  "měi xiǎo shí ": 10131,
  " jīng cháng ": 10132,
  "zhōu biān": 10133,
  " jiàn zhù wù ": 10134,
  " kē xué ": 10135,
  "xīn jiàn ": 10136,
  "zào xíng ": 10137,
  " dé jūn ": 10138,
  "shēn tǐ": 10139,
  "shǐ yòng zhě ": 10140,
  " zhè shí ": 10141,
  "wàng yuǎn jìng ": 10142,
  "   2022 nián ": 10143,
  "xù de ": 10144,
  "céng bèi ": 10145,
  "span ": 10146,
  " dà bǎn ": 10147,
  " chū chǎng ": 10148,
  "lóng shěng ": 10149,
  "xiū dìng ": 10150,
  "ght": 10151,
  "je": 10152,
  "   jīng lì ": 10153,
  "liù míng ": 10154,
  "luǎn ": 10155,
  " dì yī wèi ": 10156,
  " jí huì ": 10157,
  " jí qí tā ": 10158,
  "jǔ zhèn ": 10159,
  "zhōng guó dà lù ": 10160,
  "8 mǐ ": 10161,
  "ami": 10162,
  "fà ": 10163,
  " guó yǒu ": 10164,
  " chū xí": 10165,
  "xì jié ": 10166,
  "lián luò": 10167,
  " shēng tài ": 10168,
  "měi tiān ": 10169,
  "jiǎng jīn ": 10170,
  "nuò fū ": 10171,
  " guān zhuàng bìng dú": 10172,
  " E ": 10173,
  " 2001": 10174,
  " pú táo yá": 10175,
  "ǐ ": 10176,
  "nà ěr ": 10177,
  "11 nián ": 10178,
  " de gāo ": 10179,
  " rén zhì ": 10180,
  " chéng yī ": 10181,
  " duì xiàng ": 10182,
  "shòu huān yíng ": 10183,
  "guī dìng": 10184,
  "cái pàn ": 10185,
  "tuō lí ": 10186,
  "cān yì yuàn ": 10187,
  " lì fǎ huì ": 10188,
  "yà hé ": 10189,
  "zé bèi ": 10190,
  "chóng jiàn": 10191,
  "pū ": 10192,
  " zài fǎ guó ": 10193,
  " qí B": 10194,
  "xuān chēng ": 10195,
  " lún ": 10196,
  "   lín ": 10197,
  "shèng dàn ": 10198,
  "bǎ tā ": 10199,
  "book": 10200,
  "68 nián ": 10201,
  " shí rèn": 10202,
  "yán fā ": 10203,
  "jiào gāo ": 10204,
  "zhǐ shù ": 10205,
  " rèn mìng ": 10206,
  "pái liè ": 10207,
  "biǎo xiàn chū ": 10208,
  " jí xíng zhèng dān wèi ": 10209,
  " ào dà lì yà ": 10210,
  " k": 10211,
  " qù ": 10212,
  "fāng xíng ": 10213,
  "zhuāng wèi ": 10214,
  "1911 nián ": 10215,
  " shí sān ": 10216,
  " yú 2019": 10217,
  " ér hòu ": 10218,
  "zhǔ dòng ": 10219,
  "bì yào ": 10220,
  " yín wěi ": 10221,
  "0 zuò biāo wèi ": 10222,
  "2 lì ": 10223,
  "xíng de ": 10224,
  "zi shì ": 10225,
  "fēi dàn ": 10226,
  "zhēn rén ": 10227,
  "wéi yī de ": 10228,
  "bèi ěr ": 10229,
  " dàn shì zài ": 10230,
  " dàn zuì zhōng ": 10231,
  "jiāo gěi ": 10232,
  "xùn sù": 10233,
  "huǒ chē ": 10234,
  "rén mín zhèng fǔ ": 10235,
  " hú běi ": 10236,
  " wèi yú yín jīng ": 10237,
  " qí B1900": 10238,
  "0 zuò biāo wèi chì jīng ": 10239,
  "   11 yuè ": 10240,
  "jiāng jūn": 10241,
  "lián jūn ": 10242,
  "lā wéi ": 10243,
  "bó ěr ": 10244,
  "lún de ": 10245,
  "．": 10246,
  " zhōng huá": 10247,
  "jī dū ": 10248,
  " xíng tài ": 10249,
  "gèng dà de ": 10250,
  "tǔ rǎng": 10251,
  " jiàn zhù miàn jī ": 10252,
  " xì bāo ": 10253,
  "kòng zhì de ": 10254,
  "gòng hé dǎng ": 10255,
  "lan": 10256,
  " wū kè lán": 10257,
  "   sān ": 10258,
  "   fēn bù ": 10259,
  "míng hé ": 10260,
  "suǒ yǐ ": 10261,
  "jiāo zhàn ": 10262,
  "pe ": 10263,
  "1926 nián ": 10264,
  " sī zhí ": 10265,
  "guān xì de ": 10266,
  "xiāo fáng ": 10267,
  " ン": 10268,
  " zé shì ": 10269,
  " qīng cháo zhèng zhì rén wù ": 10270,
  "KB": 10271,
  "huà yǔ ": 10272,
  "xiàng yú ": 10273,
  "sǐ le ": 10274,
  "yóu xì de ": 10275,
  "xiào lǜ ": 10276,
  "ōu méng ": 10277,
  " T ": 10278,
  " huán": 10279,
  "   shàng ": 10280,
  "biān zhì ": 10281,
  "shā rén ": 10282,
  "zhōng huá mín guó ": 10283,
  " jí tǐ ": 10284,
  "   chē zhàn gòu zào ": 10285,
  "luò fá kè ": 10286,
  " ōu": 10287,
  " 1985 nián ": 10288,
  "   6": 10289,
  "   Y": 10290,
  "   píng ": 10291,
  "lùn shì ": 10292,
  "xiě wèi ": 10293,
  "75 nián ": 10294,
  "wēng ": 10295,
  " shí bā ": 10296,
  " yú tóng": 10297,
  " dà jiē ": 10298,
  "jīn shǔ": 10299,
  " jù qíng ": 10300,
  "zú qún ": 10301,
  " mǔ qīn": 10302,
  "jiě fàng jūn": 10303,
  "   chú ": 10304,
  "dǎo hé ": 10305,
  "màn de ": 10306,
  "kàng zhàn ": 10307,
  " jí chéng ": 10308,
  "jī chē ": 10309,
  "yí bàn ": 10310,
  "jià gòu ": 10311,
  "xǔ kě ": 10312,
  "ài ěr lán": 10313,
  " zhěng gè ": 10314,
  "wǒ de ": 10315,
  "dā zài ": 10316,
  "zhǔ quán ": 10317,
  " qiú duì": 10318,
  "4 mǐ ": 10319,
  "zhí xíng": 10320,
  "nèi sī ": 10321,
  "dǒng ": 10322,
  "wù tǐ ": 10323,
  "zhǐ dìng": 10324,
  "jǐn zhāng ": 10325,
  "zhēn zhèng de ": 10326,
  "cǎi yòng le ": 10327,
  " dà bù fèn ": 10328,
  "shùn shí zhēn yǔ ": 10329,
  " 160": 10330,
  "bā sī ": 10331,
  "cān jiàn ": 10332,
  "wēn dài ": 10333,
  "hūn yīn": 10334,
  "64 nián ": 10335,
  "tiē mù": 10336,
  "1918 nián ": 10337,
  " yī shí ": 10338,
  " yǐ dōng ": 10339,
  " xiàn zhǎng ": 10340,
  "zì wǒ ": 10341,
  "fēng gé de ": 10342,
  "pǔ lā ": 10343,
  "tí qián ": 10344,
  "sè cǎi ": 10345,
  "lián méng de ": 10346,
  " wěi": 10347,
  " xiōng": 10348,
  "zé yóu ": 10349,
  "pīn ": 10350,
  " shì tái wān ": 10351,
  " dà duì ": 10352,
  "zhǔ dǎ ": 10353,
  "guān kàn ": 10354,
  "suǒ xū": 10355,
  "   2009 nián ": 10356,
  "lái shì ": 10357,
  "duō ěr ": 10358,
  "lín jìn ": 10359,
  "zhèn jí xíng zhèng dān wèi ": 10360,
  " bù chéng ": 10361,
  "fāng biàn ": 10362,
  " yóu zhèng ": 10363,
  "jué sè de ": 10364,
  "dìng yì wèi ": 10365,
  " zì rán": 10366,
  "tú àn ": 10367,
  "chóng fǎn ": 10368,
  " yǐn fā ": 10369,
  "7 mǐ ": 10370,
  " zào ": 10371,
  "   tā de ": 10372,
  "shèng de ": 10373,
  " zhōng yī ": 10374,
  " zhì yuán ": 10375,
  "shēng gé wèi ": 10376,
  " jiàn kāng": 10377,
  " quán xiàn ": 10378,
  "zuì zhòng yào de ": 10379,
  " zhè yàng": 10380,
  "zhǒng lèi ": 10381,
  "kàn fǎ ": 10382,
  " wēi ěr ": 10383,
  " zōng ": 10384,
  " liè chē ": 10385,
  " sōng ": 10386,
  "àn lì ": 10387,
  "   ér ": 10388,
  "28 nián ": 10389,
  "ra ": 10390,
  "bí ": 10391,
  " shì láng ": 10392,
  " zài qián ": 10393,
  " zhōng jiàng ": 10394,
  " jí bié ": 10395,
  " ér tóng": 10396,
  " shàng yìng ": 10397,
  "cì shù ": 10398,
  "tóng yàng ": 10399,
  "cān guān ": 10400,
  " zhèng fǔ de ": 10401,
  " rén kǒu wèi ": 10402,
  "   gǔ ": 10403,
  "   guó jì ": 10404,
  "jǐng wèi ": 10405,
  "xiān wéi ": 10406,
  "jià de ": 10407,
  "1914 nián ": 10408,
  " yī liáo": 10409,
  " yīn ér": 10410,
  "jiān chí ": 10411,
  " kāi fā ": 10412,
  "yòu yì ": 10413,
  "xiān de ": 10414,
  "90 ": 10415,
  "mái ": 10416,
  "yì huì ": 10417,
  " yú 2016": 10418,
  " zhōu zhǎng ": 10419,
  "wǎng wǎng": 10420,
  "jiǎn chá": 10421,
  "shěn pàn ": 10422,
  " 17 ": 10423,
  "hùn níng ": 10424,
  " 58": 10425,
  "shòu dào le ": 10426,
  "qù le ": 10427,
  "65 nián ": 10428,
  " gè guó jiā ": 10429,
  " yǔ xī ": 10430,
  "dān dú ": 10431,
  "biān zǔ ": 10432,
  " tài guó ": 10433,
  " guǎng xī ": 10434,
  "   xiǎo ": 10435,
  "shī jí ": 10436,
  "shēn yú ": 10437,
  "lùn de ": 10438,
  "xùn xī ": 10439,
  "62 nián ": 10440,
  "um ": 10441,
  " zhōng duàn ": 10442,
  " dà chén": 10443,
  "qún dǎo de ": 10444,
  "è huà ": 10445,
  " ní": 10446,
  " bīn ": 10447,
  "   7": 10448,
  "míng yú ": 10449,
  "xìng míng ": 10450,
  "1950 nián ": 10451,
  " yǔ wén ": 10452,
  "zhù shǒu ": 10453,
  "miàn xiàng ": 10454,
  "chēng hū ": 10455,
  " yóu qí ": 10456,
  " J ": 10457,
  "bā jī sī ": 10458,
  " shì chéng ": 10459,
  " shì chū ": 10460,
  " yǒu míng ": 10461,
  " dào shí ": 10462,
  " yǐ cǐ ": 10463,
  "jiào liàn": 10464,
  " zhōu fù zé guǎn xiá ": 10465,
  "wài láng ": 10466,
  "tiān wén xué ": 10467,
  "xiǎng yào ": 10468,
  "jiǎng pái ": 10469,
  "gēn suí ": 10470,
  " zhàn hòu ": 10471,
  " ài ěr ": 10472,
  "tiáo yuē tǐ xì ": 10473,
  "4 míng ": 10474,
  "7 gè ": 10475,
  " 47": 10476,
  "ān xiàn ": 10477,
  "   luó ": 10478,
  "   wáng ": 10479,
  "   zuò wéi ": 10480,
  "suǒ shì ": 10481,
  "táng hé ": 10482,
  " zhōng shān": 10483,
  "hòu qī ": 10484,
  "jīng yàn": 10485,
  "sù dù": 10486,
  "péi xùn": 10487,
  " píng chéng ": 10488,
  "AL": 10489,
  " 1988 nián ": 10490,
  "jì bù ": 10491,
  "wù bù ": 10492,
  "ther": 10493,
  "70 ": 10494,
  "jī huì ": 10495,
  "zhǔ bàn ": 10496,
  "fù mǔ ": 10497,
  "jiān chá": 10498,
  "gē shǒu": 10499,
  " xiāng guān de ": 10500,
  " zhí jiē ": 10501,
  "ET": 10502,
  " 1984 nián ": 10503,
  "suān jiǎn ": 10504,
  " de xíng ": 10505,
  "fāng àn": 10506,
  "qián shēn ": 10507,
  "xuǎn mín ": 10508,
  "kē huì shì dì ": 10509,
  "èr shí nián ": 10510,
  " de shí jiān": 10511,
  " guó fáng bù ": 10512,
  "   2007 nián ": 10513,
  "xiǎng yǒu ": 10514,
  " jī fēn ": 10515,
  "yóu jú": 10516,
  "piàn duàn ": 10517,
  " lái zì": 10518,
  "nán jí tiáo yuē tǐ xì ": 10519,
  " 600": 10520,
  "   quán ": 10521,
  "tīng dào ": 10522,
  "yín hé ": 10523,
  "tū rán": 10524,
  "cán jí rén ": 10525,
  " bù lǔ ": 10526,
  " rén quán ": 10527,
  " gōng dǎ ": 10528,
  " chū yú ": 10529,
  "zì shā ": 10530,
  "pǐn zhǒng ": 10531,
  "róng liàng ": 10532,
  "jǐ nèi ": 10533,
  " gāi cūn shǐ jiàn yú ": 10534,
  " 64": 10535,
  " zī ": 10536,
  "   e": 10537,
  "yú wèi ": 10538,
  "zhèng yì ": 10539,
  "zhàn wèi yú ": 10540,
  "zhù yǒu ": 10541,
  " shì pín ": 10542,
  " zài nèi ": 10543,
  "wéi yě ": 10544,
  "diàn chí ": 10545,
  "duō shù": 10546,
  "qíng gǎn ": 10547,
  "rè dài": 10548,
  " zhí xíng ": 10549,
  " ān huī ": 10550,
  " xíng chéng le ": 10551,
  " jìng nèi ": 10552,
  "qí zhōng yí gè ": 10553,
  "xià xiá de yí gè xiāng zhèn jí xíng zhèng dān wèi ": 10554,
  " lóng": 10555,
  "mǎ shì ": 10556,
  "zhèn dì ": 10557,
  "wéi chí": 10558,
  "vo": 10559,
  " 1990 nián ": 10560,
  "ā sī ": 10561,
  "   jìn": 10562,
  "méi tóng pái ": 10563,
  "tǎ jī ": 10564,
  "gōng mín ": 10565,
  " shí yǒu ": 10566,
  " chéng gōng de ": 10567,
  " yī lài": 10568,
  " jī běn": 10569,
  " jiā lǐ ": 10570,
  " kè yǔ ": 10571,
  "huà guī ": 10572,
  "fú zhuāng ": 10573,
  "zhèn yā ": 10574,
  "sù sòng ": 10575,
  "kǎo chá ": 10576,
  "pī pàn ": 10577,
  " sī lìng yuán ": 10578,
  " dī ": 10579,
  "   for": 10580,
  "liǎng zuò ": 10581,
  "nóng lì ": 10582,
  " zài nà ": 10583,
  " yì xí ": 10584,
  " rì yǐ ": 10585,
  " jiàn dào ": 10586,
  " hòu zhě": 10587,
  " dé luó ": 10588,
  "jiào dà de ": 10589,
  "wén zhāng": 10590,
  " wéi wú ěr ": 10591,
  "jiāng nán ": 10592,
  " zuò zhě ": 10593,
  "qǐ yuán yú ": 10594,
  "bō tè ": 10595,
  " F ": 10596,
  "1 mǐ ": 10597,
  " shù": 10598,
  " fàn": 10599,
  " zǔ zhī ": 10600,
  " kāi shǐ": 10601,
  "yòng zài ": 10602,
  " zài chéng ": 10603,
  " yuè yǔ ": 10604,
  "fǎ lán xī ": 10605,
  " jié hūn ": 10606,
  "shōu cáng ": 10607,
  "tiān wén tái ": 10608,
  " xiǎn shì ": 10609,
  "   suī rán": 10610,
  "wéi gōng ": 10611,
  "tè shì ": 10612,
  "fáng xiàn ": 10613,
  "1990 nián dài ": 10614,
  "kuāng jià ": 10615,
  " xī tè ": 10616,
  " bìng bú shì ": 10617,
  "qīng xiàng ": 10618,
  " xià lái ": 10619,
  "jiě sàn": 10620,
  "mò qī ": 10621,
  " nián 4 yuè 1 rì ": 10622,
  "yìn ní": 10623,
  "xiǎo xíng xīng de ": 10624,
  "nán jí tiáo yuē tǐ xì guǎn lǐ ": 10625,
  "   zhí yè shēng yá ": 10626,
  "le zhōng guó ": 10627,
  "biān xíng ": 10628,
  "luò yī ": 10629,
  "cí jī ": 10630,
  "shí yī ": 10631,
  " shí tǐ ": 10632,
  " dà qì ": 10633,
  "huì shàng ": 10634,
  "fǎ xué ": 10635,
  "fēn lí": 10636,
  "shào nǚ": 10637,
  " The   ": 10638,
  "IV": 10639,
  "UN": 10640,
  " 1989 nián ": 10641,
  "kē lì ": 10642,
  "shěng fù zé guǎn xiá ": 10643,
  "hù wèi ": 10644,
  "lěi jī ": 10645,
  "sǎn ": 10646,
  " dì yù ": 10647,
  "wéi chí ": 10648,
  "qián lái ": 10649,
  "shāng hài ": 10650,
  "tiáo jié ": 10651,
  "yí gè yuè ": 10652,
[...]
