{
  "!": 0,
  "\"": 1,
  "#": 2,
  "$": 3,
  "%": 4,
  "&": 5,
  "'": 6,
  "(": 7,
  ")": 8,
  "*": 9,
  "+": 10,
  ",": 11,
  "-": 12,
  ".": 13,
  "/": 14,
  "0": 15,
  "1": 16,
  "2": 17,
  "3": 18,
  "4": 19,
  "5": 20,
  "6": 21,
  "7": 22,
  "8": 23,
  "9": 24,
  ":": 25,
  ";": 26,
  "=": 27,
  "?": 28,
  "@": 29,
  "A": 30,
  "B": 31,
  "C": 32,
  "D": 33,
  "E": 34,
  "F": 35,
  "G": 36,
  "H": 37,
  "I": 38,
  "J": 39,
  "K": 40,
  "L": 41,
  "M": 42,
  "N": 43,
  "O": 44,
  "P": 45,
  "Q": 46,
  "R": 47,
  "S": 48,
  "T": 49,
  "U": 50,
  "V": 51,
  "W": 52,
  "X": 53,
  "Y": 54,
  "Z": 55,
  "[": 56,
  "\\": 57,
  "]": 58,
  "^": 59,
  "_": 60,
  "`": 61,
  "a": 62,
  "b": 63,
  "c": 64,
  "d": 65,
  "e": 66,
  "f": 67,
  "g": 68,
  "h": 69,
  "i": 70,
  "j": 71,
  "k": 72,
  "l": 73,
  "m": 74,
  "n": 75,
  "o": 76,
  "p": 77,
  "q": 78,
  "r": 79,
  "s": 80,
  "t": 81,
  "u": 82,
  "v": 83,
  "w": 84,
  "x": 85,
  "y": 86,
  "z": 87,
  "|": 88,
  "~": 89,
  "�": 118,
  "\n": 162,
  " ": 163,
  "": 164,
  "ng": 199,
  "an": 200,
  "sh": 201,
  "zh": 202,
  "ji": 203,
  "ang": 204,
  "  ": 205,
  "ong": 206,
  "xi": 207,
  "ao": 208,
  "ai": 209,
  "de": 210,
  "ei": 211,
  "shi": 212,
  "yu": 213,
  "ou": 214,
  "yi": 215,
  "en": 216,
  "ch": 217,
  "ian": 218,
  "uo": 219,
  "eng": 220,
  "li": 221,
  "   ": 222,
  "ing": 224,
  "ui": 225,
  "wei": 226,
  "uan": 227,
  "zhi": 228,
  "qi": 229,
  "nian": 230,
  "zhong": 231,
  "you": 232,
  "ren": 233,
  "un": 234,
  "zai": 235,
  "di": 236,
  "guo": 237,
  "、": 238,
  "he": 239,
  "bu": 240,
  "er": 241,
  "gong": 242,
  "xing": 243,
  "cheng": 244,
  "da": 245,
  "zhu": 246,
  "hu": 247,
  "yuan": 248,
  "si": 249,
  "jian": 250,
  "yue": 251,
  "ge": 252,
  "fu": 253,
  "xian": 254,
  "ue": 255,
  "ke": 256,
  "wu": 257,
  "chu": 258,
  "shu": 259,
  "sheng": 260,
  "jie": 261,
  "jia": 262,
  "bi": 263,
  "dao": 264,
  "zi": 265,
  "bei": 266,
  "hui": 267,
  "fa": 268,
  "xiang": 269,
  "ti": 270,
  "zheng": 271,
  "mi": 272,
  "ta": 273,
  "jin": 274,
  "qu": 275,
  "20": 276,
  "tong": 277,
  "ri": 278,
  "ju": 279,
  "jing": 280,
  "ming": 281,
  "le": 282,
  "hou": 283,
  "shang": 284,
  "shou": 285,
  "dong": 286,
  "ci": 287,
  "fang": 288,
  "19": 289,
  "hua": 290,
  "yin": 291,
  "xue": 292,
  "guan": 293,
  "zhan": 294,
  "ye": 295,
  "ying": 296,
  "zuo": 297,
  "zhe": 298,
  "yan": 299,
  "mei": 300,
  "jiao": 301,
  "gu": 302,
  "chang": 303,
  "xin": 304,
  "dui": 305,
  "lu": 306,
  "bing": 307,
  "bao": 308,
  "fen": 309,
  "dan": 310,
  "huo": 311,
  "jun": 312,
  "jiang": 313,
  "du": 314,
  "xiao": 315,
  "dian": 316,
  "yong": 317,
  "qian": 318,
  "she": 319,
  "tai": 320,
  "xia": 321,
  "mu": 322,
  "wen": 323,
  "gai": 324,
  "zhang": 325,
  "liang": 326,
  "ya": 327,
  "ru": 328,
  "dai": 329,
  "hai": 330,
  "nan": 331,
  "zhou": 332,
  "zu": 333,
  "wang": 334,
  "lai": 335,
  "ban": 336,
  "jiu": 337,
  "dang": 338,
  "qing": 339,
  "ping": 340,
  "shen": 341,
  "》": 342,
  "《": 343,
  "wan": 344,
  "lian": 345,
  "ling": 346,
  "luo": 347,
  "·": 348,
  "min": 349,
  "quan": 350,
  "pi": 351,
  "ni": 352,
  "bo": 353,
  "duo": 354,
  "te": 355,
  "ben": 356,
  "gao": 357,
  "biao": 358,
  "suo": 359,
  "la": 360,
  "ma": 361,
  "kai": 362,
  "ba": 363,
  "xie": 364,
  "xu": 365,
  "bian": 366,
  "deng": 367,
  "yao": 368,
  "yang": 369,
  "mian": 370,
  "zhen": 371,
  "ding": 372,
  "qiu": 373,
  "zui": 374,
  "sai": 375,
  "liu": 376,
  "fan": 377,
  "xuan": 378,
  "fei": 379,
  "san": 380,
  "shan": 381,
  "che": 382,
  "zong": 383,
  "men": 384,
  "「": 385,
  "」": 386,
  "tu": 387,
  "tian": 388,
  "hao": 389,
  "su": 390,
  "lei": 391,
  "nei": 392,
  "yun": 393,
  "201": 394,
  "lan": 395,
  "feng": 396,
  "mo": 397,
  "na": 398,
  "ze": 399,
  "lv": 400,
  "han": 401,
  "kou": 402,
  "wai": 403,
  "neng": 404,
  "lin": 405,
  "chuan": 406,
  "chi": 407,
  "jue": 408,
  "bai": 409,
  "pai": 410,
  "200": 411,
  "ku": 412,
  "cai": 413,
  "zao": 414,
  "ting": 415,
  "zhuan": 416,
  "gang": 417,
  "lie": 418,
  "guang": 419,
  "gui": 420,
  "lun": 421,
  "sui": 422,
  "pu": 423,
  "ceng": 424,
  "kong": 425,
  "shui": 426,
  "10": 427,
  "chao": 428,
  "zhuang": 429,
  "cha": 430,
  "dou": 431,
  "can": 432,
  "tou": 433,
  "ran": 434,
  "se": 435,
  "duan": 436,
  "cun": 437,
  "huan": 438,
  "cong": 439,
  "pin": 440,
  "ce": 441,
  "chan": 442,
  "xun": 443,
  "gou": 444,
  "00": 445,
  "nv": 446,
  "zhao": 447,
  "gan": 448,
  "chong": 449,
  "sha": 450,
  "tan": 451,
  "18": 452,
  "qin": 453,
  "ka": 454,
  "meng": 455,
  "qiang": 456,
  "huang": 457,
  "xiu": 458,
  "12": 459,
  "tiao": 460,
  "man": 461,
  "shao": 462,
  "kuo": 463,
  "long": 464,
  "pian": 465,
  "shuo": 466,
  "tuan": 467,
  "tang": 468,
  "rong": 469,
  "geng": 470,
  "202": 471,
  "chen": 472,
  "tui": 473,
  "gen": 474,
  "que": 475,
  "tie": 476,
  "11": 477,
  "qie": 478,
  "wo": 479,
  "po": 480,
  "pei": 481,
  "hang": 482,
  "hong": 483,
  "199": 484,
  "bang": 485,
  "liao": 486,
  "chuang": 487,
  "bie": 488,
  "re": 489,
  "tuo": 490,
  "tao": 491,
  "song": 492,
  "wa": 493,
  "mai": 494,
  "ha": 495,
  "15": 496,
  "pan": 497,
  "dun": 498,
  "diao": 499,
  "qiao": 500,
  "sa": 501,
  "mao": 502,
  "lang": 503,
  "kan": 504,
  "kang": 505,
  "or": 507,
  "lao": 508,
  "zeng": 509,
  "16": 510,
  "198": 511,
  "kao": 512,
  "xiong": 513,
  "17": 514,
  "on": 515,
  "nuo": 516,
  "miao": 517,
  "rang": 518,
  "kuang": 519,
  "hen": 520,
  "suan": 521,
  "14": 522,
  "30": 523,
  "zhun": 524,
  "13": 525,
  "194": 526,
  "cao": 527,
  "hun": 528,
  "qun": 529,
  "nong": 530,
  "197": 531,
  "heng": 532,
  "shuang": 533,
  "lou": 534,
  "gei": 535,
  "kuai": 536,
  "piao": 537,
  "zha": 538,
  "hei": 539,
  "niu": 540,
  "195": 541,
  "sen": 542,
  "bin": 543,
  "reng": 544,
  "zou": 545,
  "196": 546,
  "chun": 547,
  "kuan": 548,
  "25": 549,
  "—": 550,
  "rui": 551,
  "sun": 552,
  "pao": 553,
  "ning": 554,
  "for": 555,
  "pa": 556,
  "cang": 557,
  "mou": 558,
  "24": 559,
  "peng": 560,
  "huai": 561,
  "21": 562,
  "193": 563,
  "23": 564,
  "mula": 565,
  "formula": 566,
  "28": 567,
  "zan": 568,
  "ruo": 569,
  "in": 570,
  "22": 571,
  "chou": 572,
  "zhui": 573,
  "ar": 574,
  "me": 575,
  "26": 576,
  "50": 577,
  "2020": 578,
  "27": 579,
  "nai": 580,
  "nu": 581,
  "29": 583,
  "shun": 584,
  "2010": 585,
  "za": 586,
  "000": 587,
  "lve": 588,
  "zhai": 589,
  "2019": 590,
  "ne": 591,
  "ro": 592,
  "juan": 593,
  "st": 594,
  "ra": 595,
  "cui": 596,
  "kun": 597,
  "2016": 598,
  "shi ": 599,
  "de ": 600,
  " shi ": 601,
  " de ": 602,
  "yi ": 603,
  " yi ": 604,
  "ji ": 605,
  "wei ": 606,
  "zhi ": 607,
  "yu ": 608,
  " wei ": 609,
  " ji ": 610,
  " nian": 611,
  " zhi ": 612,
  " yu ": 613,
  " li": 614,
  " nian ": 615,
  "zhong ": 616,
  " li ": 617,
  "zai ": 618,
  "ren ": 619,
  "you ": 620,
  "guo ": 621,
  "he ": 622,
  "qi ": 623,
  "bu ": 624,
  "di ": 625,
  " you ": 626,
  " zai ": 627,
  " ren ": 628,
  " yue": 629,
  " zhong ": 630,
  " he ": 631,
  "da ": 632,
  "xi ": 633,
  "xing ": 634,
  "er ": 635,
  "yuan ": 636,
  "gong ": 637,
  " yue ": 638,
  "fu ": 639,
  "si ": 640,
  "ge ": 641,
  "jian ": 642,
  " guo ": 643,
  "wu ": 644,
  "jia ": 645,
  " bu ": 646,
  "jie ": 647,
  "ke ": 648,
  "cheng ": 649,
  "zhu ": 650,
  "sheng ": 651,
  "xiang ": 652,
  "xian ": 653,
  "dao ": 654,
  "bei ": 655,
  "zi ": 656,
  " qi ": 657,
  "fa ": 658,
  "hui ": 659,
  "chu ": 660,
  "jin ": 661,
  " di ": 662,
  "shu ": 663,
  " er ": 664,
  "ri ": 665,
  " xi ": 666,
  "ju ": 667,
  "qu ": 668,
  "zheng ": 669,
  "hou ": 670,
  "shou ": 671,
  "ming ": 672,
  "shang ": 673,
  "dong ": 674,
  "le ": 675,
  "ta ": 676,
  "jing ": 677,
  "xue ": 678,
  "fang ": 679,
  "yan ": 680,
  "zhan ": 681,
  "ci ": 682,
  "bao ": 683,
  "hua ": 684,
  "ying ": 685,
  "ye ": 686,
  "tong ": 687,
  "zuo ": 688,
  "zhe ": 689,
  "guan ": 690,
  " da ": 691,
  " ri ": 692,
  "yin ": 693,
  "chang ": 694,
  "xin ": 695,
  "jiao ": 696,
  "lu ": 697,
  "dui ": 698,
  "wen ": 699,
  "ti ": 700,
  "fen ": 701,
  "qian ": 702,
  "tai ": 703,
  "jiang ": 704,
  "xiao ": 705,
  "bing ": 706,
  " si ": 707,
  "jun ": 708,
  "dian ": 709,
  "zhang ": 710,
  "ping ": 711,
  "xia ": 712,
  "du ": 713,
  "huo ": 714,
  "yong ": 715,
  "dan ": 716,
  " ke ": 717,
  " jia ": 718,
  "hai ": 719,
  "gai ": 720,
  "wang ": 721,
  "dai ": 722,
  "nan ": 723,
  "ru ": 724,
  "qing ": 725,
  "mu ": 726,
  "bi ": 727,
  "ban ": 728,
  "liang ": 729,
  "lai ": 730,
  "mei ": 731,
  "ya ": 732,
  "shen ": 733,
  "zu ": 734,
  " xing ": 735,
  " fu ": 736,
  "wan ": 737,
  "she ": 738,
  "lian ": 739,
  "min ": 740,
  "mi ": 741,
  "zhou ": 742,
  "an ": 743,
  "jiu ": 744,
  "qiu ": 745,
  "zhen ": 746,
  "ben ": 747,
  "xu ": 748,
  "gao ": 749,
  "bo ": 750,
  " ta ": 751,
  "xie ": 752,
  "te ": 753,
  "bian ": 754,
  "ling ": 755,
  "luo ": 756,
  "yao ": 757,
  "deng ": 758,
  "duo ": 759,
  "yang ": 760,
  "quan ": 761,
  "che ": 762,
  "suo ": 763,
  "zui ": 764,
  "tian ": 765,
  "gu ": 766,
  "biao ": 767,
  "fan ": 768,
  "hu ": 769,
  "yun ": 770,
  "xuan ": 771,
  "su ": 772,
  "shan ": 773,
  "fei ": 774,
  "ding ": 775,
  "liu ": 776,
  "zong ": 777,
  "sai ": 778,
  "dang ": 779,
  "ma ": 780,
  "kai ": 781,
  "ba ": 782,
  "hao ": 783,
  " de yi ": 784,
  " bing ": 785,
  " dao ": 786,
  "feng ": 787,
  "kou ": 788,
  "tu ": 789,
  "mian ": 790,
  "men ": 791,
  "nei ": 792,
  "la ": 793,
  "ao ": 794,
  "lei ": 795,
  "san ": 796,
  "e ": 797,
  "cai ": 798,
  "wai ": 799,
  "chuan ": 800,
  "jue ": 801,
  "pai ": 802,
  "chi ": 803,
  " dan ": 804,
  "lan ": 805,
  " jin ": 806,
  " jian ": 807,
  " bei ": 808,
  " gong ": 809,
  "guang ": 810,
  " shi yi ": 811,
  "a ": 812,
  "ni ": 813,
  "gui ": 814,
  "bai ": 815,
  "lin ": 816,
  "ting ": 817,
  " zi ": 818,
  "pu ": 819,
  " zhe ": 820,
  "neng ": 821,
  "gang ": 822,
  "na ": 823,
  "lun ": 824,
  "ai ": 825,
  "1 ": 826,
  "han ": 827,
  "ze ": 828,
  "lie ": 829,
  " xiang ": 830,
  "cheng wei ": 831,
  "mo ": 832,
  " zhu ": 833,
  " yin ": 834,
  "2 ": 835,
  " shi de ": 836,
  "mei guo ": 837,
  "chan ": 838,
  "shui ": 839,
  " xian ": 840,
  " de shi ": 841,
  " ju ": 842,
  "zhuan ": 843,
  "sui ": 844,
  " gai ": 845,
  " chu ": 846,
  "xun ": 847,
  "lv ": 848,
  "li ": 849,
  "huan ": 850,
  "1 nian ": 851,
  " ge ": 852,
  "zao ": 853,
  "zhuang ": 854,
  "ou ": 855,
  " ta": 856,
  "tou ": 857,
  "duan ": 858,
  "5 nian ": 859,
  "2 nian ": 860,
  "se ": 861,
  " wu ": 862,
  " yi ji ": 863,
  "4 nian ": 864,
  " bao ": 865,
  "ceng ": 866,
  "chong ": 867,
  "8 nian ": 868,
  " wei yu ": 869,
  "pin ": 870,
  "3 nian ": 871,
  " ping ": 872,
  " jie ": 873,
  "gou ": 874,
  "cong ": 875,
  "cha ": 876,
  "cun ": 877,
  "di yi ": 878,
  "dou ": 879,
  "5 ": 880,
  "zhao ": 881,
  "kong ": 882,
  "7 nian ": 883,
  " hou ": 884,
  "gan ": 885,
  "sha ": 886,
  "3 ": 887,
  "qiang ": 888,
  "ce ": 889,
  " shi ji ": 890,
  "chao ": 891,
  "meng ": 892,
  "man ": 893,
  "long ": 894,
  "kai shi ": 895,
  "tang ": 896,
  "kuo ": 897,
  "tuan ": 898,
  "tan ": 899,
  "shuo ": 900,
  " dan": 901,
  "ke yi ": 902,
  " ci ": 903,
  " yi ge ": 904,
  " ye ": 905,
  "0 ": 906,
  "qin ": 907,
  "0 nian ": 908,
  "ka ": 909,
  " shi wei ": 910,
  "gong li ": 911,
  " zhong guo ": 912,
  "tie ": 913,
  "9 nian ": 914,
  " tong": 915,
  "pian ": 916,
  " shi shi ": 917,
  "4 ": 918,
  "shao ": 919,
  "zheng fu ": 920,
  " bing": 921,
  "hang ": 922,
  "can ": 923,
  "geng ": 924,
  "t ": 925,
  "huo de ": 926,
  " sheng ": 927,
  "mian ji ": 928,
  "6 nian ": 929,
  "hong ": 930,
  "tiao ": 931,
  "tao ": 932,
  "xiu ": 933,
  "chen ": 934,
  "ji de ": 935,
  " shi yong ": 936,
  " 200": 937,
  "pi ": 938,
  " you": 939,
  "ran ": 940,
  "huang ": 941,
  "ren wei ": 942,
  " shi jian ": 943,
  "zhi yi ": 944,
  "6 ": 945,
  "zhong de ": 946,
  "zheng zhi ": 947,
  " yi zhi ": 948,
  " huo ": 949,
  " shi jie ": 950,
  " fa ": 951,
  " dong ": 952,
  "zhong guo ": 953,
  "nv ": 954,
  "chuang ": 955,
  "yue ": 956,
  " cheng ": 957,
  "ang ": 958,
  "qu de ": 959,
  "guo ji ": 960,
  "s ": 961,
  "yi shi ": 962,
  "wo ": 963,
  " yuan ": 964,
  "ren kou ": 965,
  "xing de ": 966,
  "po ": 967,
  "jin xing ": 968,
  "rong ": 969,
  "liao ": 970,
  "tuo ": 971,
  "song ": 972,
  "diao ": 973,
  "mei you ": 974,
  "nian ": 975,
  " li de ": 976,
  " li shi ": 977,
  "en ": 978,
  " wei yuan ": 979,
  " dang": 980,
  "pei ": 981,
  "pan ": 982,
  "bang ": 983,
  " qi zhong ": 984,
  "gong si ": 985,
  "8 ": 986,
  "zuo wei ": 987,
  "qie ": 988,
  "fa guo ": 989,
  "biao shi ": 990,
  "   zai ": 991,
  "yan jiu ": 992,
  " ping fang ": 993,
  "zheng shi ": 994,
  " 201": 995,
  "que ": 996,
  "tui ": 997,
  "7 ": 998,
  " de ji ": 999,
  " er": 1000,
  "yin wei ": 1001,
  " shou ": 1002,
  "s   ": 1003,
  "dian shi ": 1004,
  "yun dong ": 1005,
  " zhe": 1006,
  " hai ": 1007,
  " de di ": 1008,
  "cheng shi ": 1009,
  " ri": 1010,
  " sui ": 1011,
  " xin ": 1012,
  "zhi shi ": 1013,
  "ta de ": 1014,
  "jian de ": 1015,
  "lang ": 1016,
  " ming ": 1017,
  "gong he ": 1018,
  "dun ": 1019,
  "shu yu ": 1020,
  "she ji ": 1021,
  "tai wan ": 1022,
  "   201": 1023,
  " shang ": 1024,
  " shu ": 1025,
  " jiang ": 1026,
  "qiao ": 1027,
  " ren min ": 1028,
  " �": 1029,
  " ren kou ": 1030,
  "zhi de ": 1031,
  " mei ": 1032,
  "10 yue ": 1033,
  " jing ": 1034,
  "12 yue ": 1035,
  " de zhi ": 1036,
  "jing ji ": 1037,
  "7 yue ": 1038,
  "dian ying ": 1039,
  "zu zhi ": 1040,
  "9 yue ": 1041,
  " nan ": 1042,
  "mao ": 1043,
  " fen ": 1044,
  "8 yue ": 1045,
  "zhu yi ": 1046,
  " xia ": 1047,
  "3 yue ": 1048,
  "wa ": 1049,
  " 19": 1050,
  "1 yue ": 1051,
  " shi qi ": 1052,
  "dai biao ": 1053,
  "kan ": 1054,
  " mu ": 1055,
  "ri ben ": 1056,
  "you yi ": 1057,
  "ying guo ": 1058,
  " zui ": 1059,
  "5 yue ": 1060,
  "kao ": 1061,
  "ji shi ": 1062,
  "6 yue ": 1063,
  "re ": 1064,
  " qian ": 1065,
  "hen ": 1066,
  "eng ": 1067,
  "guo de ": 1068,
  "4 yue ": 1069,
  "mai ": 1070,
  " zhang ": 1071,
  " shi zhen ": 1072,
  "   S": 1073,
  "xian de ": 1074,
  "wei yi ": 1075,
  "11 yue ": 1076,
  "che zhan ": 1077,
  "jiao yu ": 1078,
  "gen ju ": 1079,
  "bu fen ": 1080,
  "yi de ": 1081,
  "da xue ": 1082,
  "xiang gang ": 1083,
  "yu shi ": 1084,
  " C": 1085,
  "ming wei ": 1086,
  "xue yuan ": 1087,
  " de guo ": 1088,
  " yi yuan ": 1089,
  "gen ": 1090,
  "li shi ": 1091,
  "cao ": 1092,
  "ying xiang ": 1093,
  " de yi ge ": 1094,
  "dan ren ": 1095,
  "kang ": 1096,
  " zhi hou ": 1097,
  "lao ": 1098,
  " tong ": 1099,
  "bie ": 1100,
  "can jia ": 1101,
  "9 ": 1102,
  " S": 1103,
  " yi wei ": 1104,
  " ru ": 1105,
  "sa ": 1106,
  " 18": 1107,
  "she hui ": 1108,
  "xian shi ": 1109,
  " di qu ": 1110,
  " hui ": 1111,
  "shu de ": 1112,
  "zeng ": 1113,
  "shang de ": 1114,
  "xing shi ": 1115,
  "ye shi ": 1116,
  "qi shi ": 1117,
  "formula ": 1118,
  " you yu ": 1119,
  " yin ci ": 1120,
  "00 ": 1121,
  " ran": 1122,
  "guan li ": 1123,
  "gong zuo ": 1124,
  "tong guo ": 1125,
  " bi ": 1126,
  "le yi ": 1127,
  "uan ": 1128,
  "er shi ": 1129,
  " qing ": 1130,
  "   200": 1131,
  "xing zheng ": 1132,
  "bu de ": 1133,
  "gong he guo ": 1134,
  "xiong ": 1135,
  "wei shi ": 1136,
  " li ya ": 1137,
  " nian de ": 1138,
  "zhun ": 1139,
  "ren de ": 1140,
  " 199": 1141,
  "zi ji ": 1142,
  " xue ": 1143,
  "da de ": 1144,
  "ha ": 1145,
  "2 yue ": 1146,
  "   C": 1147,
  "kuang ": 1148,
  " guo jia ": 1149,
  " ying ": 1150,
  "nong ": 1151,
  "zui zhong ": 1152,
  " A": 1153,
  "ku ": 1154,
  "hui yi ": 1155,
  " yan ": 1156,
  "yin yue ": 1157,
  " deng ": 1158,
  "   sheng ": 1159,
  " xiao ": 1160,
  "cheng li ": 1161,
  "fa xian ": 1162,
  "miao ": 1163,
  "luo si ": 1164,
  "   202": 1165,
  "ti gong ": 1166,
  "chu de ": 1167,
  "piao ": 1168,
  "hei ": 1169,
  "d   ": 1170,
  "lou ": 1171,
  "fa zhan ": 1172,
  "qi de ": 1173,
  " 3": 1174,
  " bao kuo ": 1175,
  "yuan de ": 1176,
  "kuai ": 1177,
  " shi you ": 1178,
  " shi zhi ": 1179,
  "qi ta ": 1180,
  " qi jian ": 1181,
  "suo you ": 1182,
  "nuo ": 1183,
  "si de ": 1184,
  "you yu ": 1185,
  "shuang ": 1186,
  "1 ri ": 1187,
  "tie lu ": 1188,
  " da xue ": 1189,
  "quan guo ": 1190,
  " shi zai ": 1191,
  " M": 1192,
  " ling ": 1193,
  " tai ": 1194,
  "dao zhi ": 1195,
  "tong de ": 1196,
  "zhu yao ": 1197,
  "dao de ": 1198,
  "hun ": 1199,
  "cheng de ": 1200,
  "can yu ": 1201,
  "sen ": 1202,
  "wen hua ": 1203,
  " liang ": 1204,
  "bao kuo ": 1205,
  "di li ": 1206,
  "   M": 1207,
  "zhong yi ": 1208,
  " ta men ": 1209,
  "lian he ": 1210,
  "di de ": 1211,
  " zhi dao ": 1212,
  " 4": 1213,
  " wang ": 1214,
  " tong shi ": 1215,
  "bu shi ": 1216,
  " ping fang gong li ": 1217,
  " zhong xin ": 1218,
  "qian mi ": 1219,
  "bei bu ": 1220,
  " zheng ": 1221,
  "cheng yuan ": 1222,
  "   shi ": 1223,
  "shu ji ": 1224,
  "yong yu ": 1225,
  "rang ": 1226,
  "   yi ": 1227,
  "qun ": 1228,
  " hua ": 1229,
  "zai yi ": 1230,
  "xuan bu ": 1231,
  "2020 nian ": 1232,
  "guo jia ": 1233,
  "o ": 1234,
  " wei yuan hui ": 1235,
  "zu qiu ": 1236,
  " wan ": 1237,
  " tian ": 1238,
  "wen ti ": 1239,
  " ma ": 1240,
  " nian zhi ": 1241,
  " dang ": 1242,
  " zhan ": 1243,
  "xue xiao ": 1244,
  " gu ": 1245,
  "sheng yu ": 1246,
  "jian yu ": 1247,
  "zi you ": 1248,
  " shi wu ": 1249,
  "C ": 1250,
  " 198": 1251,
  " lu ": 1252,
  " dui ": 1253,
  "t   ": 1254,
  " zong ": 1255,
  " bo ": 1256,
  "gong you ": 1257,
  "ping fang ": 1258,
  "guan xi ": 1259,
  "fang shi ": 1260,
  "kuan ": 1261,
  "bi sai ": 1262,
  " shi zhong ": 1263,
  "zuo pin ": 1264,
  " jiu ": 1265,
  " shen ": 1266,
  "huo dong ": 1267,
  " yin wei ": 1268,
  "suan ": 1269,
  " wei zhi ": 1270,
  "hua ren min ": 1271,
  "ying de ": 1272,
  "jian zhu ": 1273,
  " luo ": 1274,
  "heng ": 1275,
  " quan ": 1276,
  " T": 1277,
  "jian li ": 1278,
  " 202": 1279,
  "yu yi ": 1280,
  " hao ": 1281,
  " xu ": 1282,
  " gai": 1283,
  "   li shi ": 1284,
  "ji yi ": 1285,
  "fen wei ": 1286,
  " l": 1287,
  " de ren ": 1288,
  "she you ": 1289,
  "cuo": 1290,
  "ren shi ": 1291,
  " I": 1292,
  "tong shi ": 1293,
  "guan jun ": 1294,
  " a": 1295,
  "da li ": 1296,
  " g": 1297,
  " a ": 1298,
  "ge ren ": 1299,
  "2010 nian ": 1300,
  "   sheng ping ": 1301,
  "   A": 1302,
  "zhuan ji ": 1303,
  " ben ": 1304,
  " B": 1305,
  "yu de ": 1306,
  "bei jing ": 1307,
  " di er ": 1308,
  " mi ": 1309,
  " ji hua ": 1310,
  " cheng wei ": 1311,
  " you xi ": 1312,
  "jiu shi ": 1313,
  "xiao shi ": 1314,
  "hua ren min gong he guo ": 1315,
  "chun ": 1316,
  "gei ": 1317,
  " 5": 1318,
  "men de ": 1319,
  " li yu ": 1320,
  "dui yu ": 1321,
  "xi de ": 1322,
  "zou ": 1323,
  "tong yi ": 1324,
  "ming de ": 1325,
  " P": 1326,
  " ta de ": 1327,
  " an ": 1328,
  "jun shi ": 1329,
  "di shi ": 1330,
  "di er ": 1331,
  "xue jia ": 1332,
  "xin de ": 1333,
  "er de ": 1334,
  "y ": 1335,
  "qu yu ": 1336,
  " bu fen ": 1337,
  "e luo si ": 1338,
  " cong ": 1339,
  "xian zhi ": 1340,
  " liu ": 1341,
  "shou dao ": 1342,
  " 15": 1343,
  "kui": 1344,
  "ta men ": 1345,
  "fa sheng ": 1346,
  " 194": 1347,
  " ba ": 1348,
  "wei de ": 1349,
  " sui": 1350,
  "min guo ": 1351,
  "hou de ": 1352,
  "un ": 1353,
  "   P": 1354,
  "sheng de ": 1355,
  "lai de ": 1356,
  "cu": 1357,
  "fang mian ": 1358,
  "zheng fu": 1359,
  "d ": 1360,
  "dan wei ": 1361,
  "gong ji ": 1362,
  " ti ": 1363,
  " jie": 1364,
  "xing wei ": 1365,
  " shi ren ": 1366,
  " yi jing ": 1367,
  "yong you ": 1368,
  "2019 nian ": 1369,
  "fa xing ": 1370,
  "you ji ": 1371,
  "A ": 1372,
  "2016 nian ": 1373,
  " 6": 1374,
  " dian ": 1375,
  "zhong shi ": 1376,
  "jin shi ": 1377,
  " xi tong ": 1378,
  "jue ding ": 1379,
  "bu yu ": 1380,
  " D": 1381,
  " zhong yang ": 1382,
  "ju you ": 1383,
  " mian ji ": 1384,
  "liang ge ": 1385,
  "tong zhi ": 1386,
  " chang ": 1387,
  "di qu ": 1388,
  "ni ya ": 1389,
  "chu xian ": 1390,
  "qu wei ": 1391,
  " ri ben ": 1392,
  "you de ": 1393,
  "sheng ji ": 1394,
  "xian zai ": 1395,
  "mou ": 1396,
  "al": 1397,
  "zh ": 1398,
  "hua de ": 1399,
  " ren kou mi ": 1400,
  "ci shi ": 1401,
  "ju xing ": 1402,
  " zuo ": 1403,
  "qi yu ": 1404,
  "zi zhi ": 1405,
  "   B": 1406,
  "wu de ": 1407,
  " feng ": 1408,
  "lai zi ": 1409,
  "ling yi ": 1410,
  " ta zai ": 1411,
  " 16": 1412,
  "jia de ": 1413,
  "m ": 1414,
  "shuai ": 1415,
  " wei ji ": 1416,
  "mian ji wei ": 1417,
  "hui de ": 1418,
  "bao hu ": 1419,
  " ji yu ": 1420,
  " fei ": 1421,
  "nan bu ": 1422,
  " jiao ": 1423,
  "zhuo": 1424,
  "du li ": 1425,
  " hu ": 1426,
  "cang ": 1427,
  "shu ju ": 1428,
  "zong tong ": 1429,
  "kong zhi ": 1430,
  " shi yu ": 1431,
  "jin ru ": 1432,
  " shi wei yu ": 1433,
  " 195": 1434,
  " li ru ": 1435,
  " gao ": 1436,
  "ren wu ": 1437,
  "   T": 1438,
  "qu shi ": 1439,
  "zha ": 1440,
  "ke li ": 1441,
  "yao qiu ": 1442,
  "r ": 1443,
  " fan ": 1444,
  " su ": 1445,
  " san ": 1446,
  " guan ": 1447,
  " gt ": 1448,
  "gu shi ": 1449,
  " suo": 1450,
  "wan cheng ": 1451,
  "cheng ji ": 1452,
  " ran er ": 1453,
  " mei guo ": 1454,
  " 197": 1455,
  "   de ": 1456,
  "xue sheng ": 1457,
  " lian ": 1458,
  "   yu ": 1459,
  " wo ": 1460,
  "jin de ": 1461,
  " tong nian ": 1462,
  " dan shi ": 1463,
  "min zhu ": 1464,
  "gong shi ": 1465,
  "ke neng ": 1466,
  " yi qi ": 1467,
  "lie che ": 1468,
  " ru": 1469,
  " 7": 1470,
  " lt ": 1471,
  " yi bu ": 1472,
  "shen zhi ": 1473,
  "you shi ": 1474,
  " bing yu ": 1475,
  "ren zhi ": 1476,
  " te ": 1477,
  "y   ": 1478,
  " wen ": 1479,
  " bing zai ": 1480,
  "chao guo ": 1481,
  " ji shu ": 1482,
  "ti yu ": 1483,
  " 10": 1484,
  "yuan shi ": 1485,
  "qian wang ": 1486,
  "cheng gong ": 1487,
  "cun zai ": 1488,
  " guang ": 1489,
  "ke de ": 1490,
  "dang shi ": 1491,
  "ya li ": 1492,
  " E": 1493,
  "si shi ": 1494,
  "xue xi ": 1495,
  "yong de ": 1496,
  " de yi ge": 1497,
  "jing guo ": 1498,
  "nei de ": 1499,
  "fa bu ": 1500,
  "zuo de ": 1501,
  "ning ": 1502,
  "wu ke ": 1503,
  "jian yi ": 1504,
  "pao ": 1505,
  "guan yu ": 1506,
  "he   ": 1507,
  "T ": 1508,
  " zhi wei ": 1509,
  " yong ": 1510,
  "xiang gang": 1511,
  "wu shi ": 1512,
  "zhu ren ": 1513,
  "yin du ": 1514,
  " zhi jian ": 1515,
  " duo ": 1516,
  " 8": 1517,
  "zhan zheng ": 1518,
  "   di ": 1519,
  "zhan shi ": 1520,
  "sun ": 1521,
  " qi ta ": 1522,
  "guo shi ": 1523,
  "bin ": 1524,
  " cai ": 1525,
  "zhu yao": 1526,
  "sheng huo ": 1527,
  "kai fa ": 1528,
  "xu duo ": 1529,
  " H": 1530,
  "zhou de ": 1531,
  " han ": 1532,
  "jian zhi ": 1533,
  "jie shou ": 1534,
  " ji wei ": 1535,
  "fan wei ": 1536,
  " yi shu ": 1537,
  "co": 1538,
  " wei er ": 1539,
  "zhu xi ": 1540,
  " ji qi ": 1541,
  " ceng": 1542,
  "han guo ": 1543,
  " 17": 1544,
  "ou zhou ": 1545,
  "niu ": 1546,
  " ping fang qian mi ": 1547,
  "lu de ": 1548,
  "fu wu ": 1549,
  " yu 201": 1550,
  " suo ": 1551,
  "qiu dui ": 1552,
  "dai biao": 1553,
  " zhi you ": 1554,
  " ji zhong ": 1555,
  " ao ": 1556,
  "zeng jia ": 1557,
  " L": 1558,
  " bu guo ": 1559,
  " 196": 1560,
  "ban de ": 1561,
  "gong yuan ": 1562,
  " you xian ": 1563,
  "xiao xing ": 1564,
  " shu yu ": 1565,
  " 9": 1566,
  "huai ": 1567,
  "shang hai ": 1568,
  " 000": 1569,
  " ba": 1570,
  "xia de ": 1571,
  "   gai ": 1572,
  " R": 1573,
  " zhe xie ": 1574,
  "he yi ": 1575,
  "duo de ": 1576,
  " zhi chu ": 1577,
  " pu ": 1578,
  "tion": 1579,
  "hou yi ": 1580,
  "san shi ": 1581,
  "0 nian dai ": 1582,
  "   zhi ": 1583,
  " ci wai ": 1584,
  "ju li ": 1585,
  "jiao tong ": 1586,
  "fu de ": 1587,
  "si ji ": 1588,
  "zu cheng ": 1589,
  "yun dong yuan ": 1590,
  " zai": 1591,
  " yu 200": 1592,
  " zhi zuo ": 1593,
  " gen ju ": 1594,
  "gao du ": 1595,
  " zhi chi ": 1596,
  "ma wei ": 1597,
  "chu le ": 1598,
  "zhu jiao ": 1599,
  "chang de ": 1600,
  "jue se ": 1601,
  " qu ": 1602,
  "xu yao ": 1603,
  " zh ": 1604,
  " bian ": 1605,
  " jin": 1606,
  "zhe xie ": 1607,
  "chai ": 1608,
  "ge zhong ": 1610,
  " zhi wu ": 1611,
  " N": 1612,
  "n ": 1613,
  "chong xin ": 1614,
  "ti de ": 1615,
  "tui chu ": 1616,
  "zhe ge ": 1617,
  " li ji ": 1618,
  " yin": 1619,
  "jing li ": 1620,
  " G": 1621,
  " zai ci ": 1622,
  "die ": 1623,
  "xiang de ": 1624,
  "   199": 1625,
  " mo ": 1626,
  "gong cheng ": 1627,
  " 1 ": 1628,
  "   19": 1629,
  "qi yi ": 1630,
  "da shi ": 1631,
  "l ": 1632,
  " dang shi ": 1633,
  " zui zhong ": 1634,
  "of": 1635,
  " ren he ": 1636,
  " shan ": 1637,
  "wu zhong ": 1638,
  "du wei ": 1639,
  "ren min ": 1640,
  "lian sai ": 1641,
  "zi de ": 1642,
  "xuan ju ": 1643,
  "chu yu ": 1644,
  "niao ": 1645,
  "zi ji de ": 1646,
  "   di li ": 1647,
  "jie mu ": 1648,
  "ge qu ": 1649,
  " wei le ": 1650,
  " ren wu ": 1651,
  "jie shu ": 1652,
  "fu ze ": 1653,
  "S ": 1654,
  "dang di ": 1655,
  "gong chan ": 1656,
  "－": 1657,
  "zhe yi ": 1658,
  "   L": 1659,
  " 193": 1660,
  " ceng ": 1661,
  " F": 1662,
  " wei qi ": 1663,
  " bai ": 1664,
  "   wei ": 1665,
  " ren yuan ": 1666,
  "rao ": 1667,
  " zhi yu ": 1668,
  " ai ": 1669,
  "   t": 1670,
  "jie de ": 1671,
  "liang wei ": 1672,
  "ya de ": 1673,
  "nao ": 1674,
  " 0": 1675,
  "chu li ": 1676,
  "shou ci ": 1677,
  "guan de ": 1678,
  "rui ": 1679,
  "nv zi ": 1680,
  "fan ying ": 1681,
  "sai shi ": 1682,
  "chu ban ": 1683,
  "ye you ": 1684,
  "ding de ": 1685,
  "dui de ": 1686,
  "ri ben": 1687,
  "ruo ": 1688,
  "k ": 1689,
  "   R": 1690,
  " hou lai ": 1691,
  "chan sheng ": 1692,
  "jie shi ": 1693,
  "dong wu ": 1694,
  "ba shi ": 1695,
  "she shi ": 1696,
  "lei si ": 1697,
  " shi yi ge ": 1698,
  "juan ": 1699,
  "jing shi ": 1700,
  "san nian ": 1701,
  " ji xu ": 1702,
  "le bu ": 1703,
  " huo": 1704,
  "xiang shi ": 1705,
  "bo shi ": 1706,
  "an de ": 1707,
  " ma": 1708,
  "lian meng ": 1709,
  "D ": 1710,
  "nan zi ": 1711,
  "sou ": 1712,
  "du de ": 1713,
  "guan xia ": 1714,
  "ke neng": 1715,
  "hai shi ": 1716,
  "yang de ": 1717,
  "dong shi ": 1718,
  "zao cheng ": 1719,
  "she li ": 1720,
  "yan jiu": 1721,
  "lo": 1722,
  " kai ": 1723,
  " ai": 1724,
  "zhong zhi ": 1725,
  " t": 1726,
  "chou ": 1727,
  "shan xi ": 1728,
  " lai ": 1729,
  "dao le ": 1730,
  "guo yi ": 1731,
  " mei": 1732,
  "fen bu ": 1733,
  "nv xing ": 1734,
  " ji zhi ": 1735,
  " he zuo ": 1736,
  "dou shi ": 1737,
  " 1": 1738,
  " suo yi ": 1739,
  "cai yong ": 1740,
  "jun de ": 1741,
  "jiao shou ": 1742,
  "   qi ": 1743,
  "dong de ": 1744,
  "xiang mu ": 1745,
  "dai de ": 1746,
  "zheng de ": 1747,
  "fang fa ": 1748,
  " zhi zhi ": 1749,
  "   G": 1750,
  " 14": 1751,
  "xian ren ": 1752,
  "wu li ": 1753,
  " yi si ": 1754,
  "fang de ": 1755,
  "mei ping fang ": 1756,
  "guo yu ": 1757,
  "zheng zhi ren wu ": 1758,
  " J": 1759,
  "zhong yu ": 1760,
  "di wei ": 1761,
  "   D": 1762,
  "liang de ": 1763,
  " zai di ": 1764,
  "   ren kou ": 1765,
  " jiang": 1766,
  "chuan tong ": 1768,
  "luan ": 1769,
  "zhan de ": 1770,
  "zhu de ": 1771,
  "hua min guo ": 1773,
  "xi tong ": 1774,
  "   you ": 1775,
  "cheng ren ": 1776,
  "jia ru ": 1777,
  "reng ": 1778,
  "xin wen ": 1779,
  "xiang guan ": 1780,
  "fa de ": 1781,
  "ge shi ": 1782,
  "yan yuan ": 1783,
  " nian yi ": 1784,
  "ming cheng ": 1785,
  "th": 1786,
  "zan ": 1787,
  "hao de ": 1788,
  " 2 ": 1789,
  " li si ": 1790,
  "fu shi ": 1791,
  "tai wan": 1792,
  " ji ji ": 1793,
  " yi hui ": 1794,
  "ti chu ": 1795,
  "ye yu ": 1796,
  " cong": 1797,
  "dao shi ": 1798,
  "bian ma wei ": 1799,
  "   ji ": 1800,
  "bei ren ": 1801,
  "bo wu ": 1802,
  "he shi ": 1803,
  " ji lu ": 1804,
  "lian jie ": 1805,
  " ta men": 1806,
  "yuan yu ": 1807,
  "xue de ": 1808,
  "hou zai ": 1809,
  "ken ": 1810,
  " wei fu ": 1811,
  " de yi ge shi zhen ": 1812,
  "a er ": 1813,
  " zhen ": 1814,
  "er nian ": 1815,
  " yi yi ": 1816,
  "zang ": 1817,
  "fo ": 1818,
  " xue ming ": 1819,
  "xi ji ": 1820,
  "   H": 1821,
  "zui jia ": 1822,
  " xi ya ": 1823,
  "ying yu ": 1824,
  "ruan ": 1825,
  "mu si ": 1826,
  "bao kuo": 1827,
  "〉": 1828,
  "p ": 1829,
  "〈": 1830,
  "ling shi ": 1831,
  " du ": 1832,
  "xiao de ": 1833,
  "hai you ": 1834,
  "mian de ": 1835,
  " wei zhu ": 1836,
  " ren kou mi du ": 1837,
  "ge de ": 1838,
  " li yi ": 1839,
  " zhe shi ": 1840,
  "zui gao ": 1841,
  "zhui ": 1842,
  " zhi jie ": 1843,
  " ya ": 1844,
  "dong ji ": 1845,
  "   jia ": 1846,
  "ge ming ": 1847,
  " shi yi zhong ": 1848,
  " na ": 1849,
  "bei shi ": 1850,
  "yan de ": 1851,
  "xia ji ": 1852,
  "gai wei ": 1853,
  "hai jun ": 1854,
  " she ": 1855,
  "zai de ": 1856,
  "10 ": 1857,
  "zhe zhong ": 1858,
  " ye shi ": 1859,
  "yao de ": 1860,
  "jie gou ": 1861,
  "shu shi ": 1862,
  " yi xie ": 1863,
  "sheng wu ": 1864,
  "jia zhi ": 1865,
  " yu shi ": 1866,
  "chang shi ": 1867,
  "mei ti ": 1869,
  "hui shi ": 1870,
  "gai guo ": 1871,
  "peng ": 1872,
  "yan zhong ": 1873,
  "na da ": 1874,
  "hui fu ": 1875,
  "   F": 1876,
  "zhu shi ": 1877,
  "pa ": 1878,
  "zheng yi ": 1879,
  "bian de ": 1880,
  "ke ji ": 1881,
  "jie guo ": 1882,
  " gong si ": 1883,
  " gu": 1884,
  "wen wu ": 1885,
  " zhi qian ": 1886,
  "zai yu ": 1887,
  "   I": 1888,
  "qing kuang": 1889,
  "min zu ": 1890,
  "xin xi ": 1891,
  " tu ": 1892,
  "gao de ": 1893,
  " yi zhong ": 1894,
  "mie ": 1895,
  "yan chang ": 1896,
  "xian yu ": 1897,
  "jun dui ": 1898,
  "jian shi ": 1899,
  "qi zhi ": 1900,
  "zhai ": 1901,
  " han": 1902,
  " ji zai ": 1903,
  "zhu jian ": 1904,
  "shui yu ": 1905,
  "qian de ": 1906,
  "he de ": 1907,
  "gong kai ": 1908,
  "fan dui ": 1909,
  "chui": 1910,
  "neng li ": 1911,
  " wei you ": 1912,
  " ke si ": 1913,
  " zong": 1914,
  " yang ": 1915,
  "gao su ": 1916,
  "   xing zheng ": 1917,
  " 12": 1918,
  "ge li ": 1919,
  " ci": 1920,
  "hua shi ": 1921,
  " bu tong ": 1922,
  "xing zhi ": 1923,
  "lei de ": 1924,
  " liang": 1925,
  "ge lan ": 1926,
  "shang ye ": 1927,
  " chen ": 1928,
  "jiang jun ": 1929,
  "huan jing ": 1930,
  " gui ": 1931,
  "pang ": 1932,
  "20 ": 1933,
  " zhu yao ": 1934,
  "zhang de ": 1935,
  "chuang zuo ": 1936,
  " zuo wei ": 1937,
  " xuan ": 1938,
  "   ben ": 1939,
  "sai ji ": 1940,
  "fou ": 1941,
  " K": 1942,
  "mo shi ": 1943,
  "ow": 1944,
  "si nian ": 1945,
  "tong ji ": 1946,
  " zai 200": 1947,
  "zhe de ": 1948,
  " zhe ge ": 1949,
  "kun ": 1950,
  "sheng chan ": 1951,
  "biao zhun ": 1952,
  "biao xian ": 1953,
  " zu ": 1954,
  "wu fa ": 1955,
  " xiang gang ": 1956,
  "el": 1957,
  " zhong hua ren min gong he guo ": 1958,
  "sheng ya ": 1959,
  " li wei ": 1960,
  "da lu ": 1961,
  "zong jiao ": 1962,
  "hang kong ": 1963,
  "bi ye ": 1964,
  "zhu li ": 1965,
  "ge yue ": 1966,
  "sheng li ": 1967,
  "diao cha ": 1968,
  "quan li ": 1969,
  "–": 1970,
  "dong bu ": 1971,
  "zhou shi ": 1972,
  " ka ": 1973,
  " nian shi ": 1974,
  " ban ": 1975,
  " ji tuan ": 1976,
  "tou guo ": 1977,
  " yi ban ": 1978,
  "bu fen": 1979,
  "xie hui ": 1980,
  "shen fen ": 1981,
  "   gen ju ": 1982,
  " di yi ": 1983,
  " yi ci ": 1984,
  "   ci ": 1985,
  " fang ": 1986,
  "   formula ": 1987,
  "fa yuan ": 1988,
  " dang di ": 1989,
  "di zhi ": 1990,
  "si yu ": 1991,
  "bing bu ": 1992,
  "gong lu ": 1993,
  "jin ji ": 1994,
  "   198": 1995,
  " de yi bu fen ": 1996,
  "bu yi ": 1997,
  "dong hua ": 1998,
  " hong ": 1999,
  "sang ": 2000,
  "gong zuo": 2001,
  "xian wei ": 2002,
  "hui zai ": 2003,
  "jia li ": 2004,
  "nie ": 2005,
  "an quan ": 2006,
  "cheng zhong ": 2007,
  "sai de ": 2008,
  "fei chang ": 2009,
  "quan bu ": 2010,
  "ba gao du ": 2011,
  "di yu ": 2012,
  "jiao shi ": 2013,
  "qiu yuan ": 2014,
  "jie zhi ": 2015,
  " huang ": 2016,
  "bi de ": 2017,
  " xie ": 2018,
  "cha de ": 2019,
  " wan": 2020,
  " ze ": 2021,
  "zi liao ": 2022,
  " zhi xing ": 2023,
  "xian yi ": 2024,
  "luo ma ": 2025,
  " tang ": 2026,
  "fu he ": 2027,
  "jing de ": 2028,
  "tuan ti ": 2029,
  " lei ": 2030,
  "qing kuang ": 2031,
  " 2": 2032,
  "ping jun ": 2033,
  " zhou ": 2034,
  "rou": 2035,
  "…": 2036,
  " ke yi ": 2037,
  "jin biao ": 2038,
  "chao xian ": 2039,
  "nei rong ": 2040,
  "gai di ": 2041,
  "   18": 2042,
  " la ": 2043,
  "ding yi ": 2044,
  "xing dong ": 2045,
  " lin ": 2046,
  "xia yi ": 2047,
  "wen xue ": 2048,
  " W": 2049,
  "jie fang ": 2050,
  "qi jian ": 2051,
  "du shi ": 2052,
  "ren kou pu ": 2053,
  "rou ": 2054,
  "la si ": 2055,
  "jia ji ": 2056,
  " ru guo ": 2057,
  " yu 202": 2058,
  "ju min ": 2059,
  "gong gong ": 2060,
  "fen bie": 2061,
  " zhi yuan ": 2062,
  " tai wan ": 2063,
  " qi hou ": 2064,
  "dong bei ": 2065,
  " zhi hui ": 2066,
  "gua ": 2067,
  "shou de ": 2068,
  "yan chu ": 2069,
  "shang shi ": 2070,
  " yun ": 2071,
  "mei yuan ": 2072,
  " jin xing ": 2073,
  "UT": 2074,
  "er ji ": 2075,
  " yao ": 2076,
  "she zhi ": 2077,
  "..": 2078,
  "ban ben ": 2079,
  "ter": 2080,
  "P ": 2081,
  "lve ": 2082,
  "fa biao ": 2083,
  " bing qie ": 2084,
  "yuan yi ": 2085,
  "sai zhong ": 2086,
  "ke xue ": 2087,
  "gong tong ": 2088,
  " yu ji ": 2089,
  "yan shi ": 2090,
  "ling dao ": 2091,
  " ji di ": 2092,
  "ren yi ": 2093,
  " 13": 2094,
  " wo": 2095,
  "san ge ": 2096,
  "zai shi ": 2097,
  "zuo you ": 2098,
  "qing nian ": 2099,
  " bing qie": 2100,
  " b": 2101,
  "ao yun ": 2102,
  "zuo pin": 2103,
  "gai bian ": 2104,
  " de zhu ": 2105,
  " ri zai ": 2106,
  "28 ri ": 2107,
  "kong jian ": 2108,
  "xing ji ": 2109,
  "zang": 2110,
  " bao kuo": 2111,
  "wu zhi ": 2112,
  "deng di ": 2113,
  "30 ": 2114,
  " ling wai ": 2115,
  "jia shi ": 2116,
  "   194": 2117,
  " dai ": 2118,
  " di guo ": 2119,
  "il": 2120,
  "you xi ": 2121,
  " liu": 2122,
  "yuan he ": 2123,
  "fang zhi ": 2124,
  " ni ": 2125,
  "lu xian ": 2126,
  "deng ren ": 2127,
  "   E": 2128,
  "xue shi ": 2129,
  "guan zhong ": 2130,
  "wu nian ": 2131,
  "zuo yong ": 2132,
  "lan de ": 2133,
  "   W": 2134,
  "bao dao ": 2135,
  "sang": 2136,
  "xue wei ": 2137,
  "yuan nian ": 2138,
  "fen zhong ": 2139,
  "tong chang ": 2140,
  "ol": 2141,
  "shu wei ": 2142,
  "ze shi ": 2143,
  "ju de ": 2144,
  "ai er ": 2145,
  " li zhi ": 2146,
  "qi wei ": 2147,
  "ma li ": 2148,
  " 5 ": 2149,
  " er shi ": 2150,
  " ke neng ": 2151,
  "ao lin ": 2152,
  "he ji ": 2153,
  "chu ren ": 2154,
  "guo li ": 2155,
  "bang zhu ": 2156,
  "jiang qi ": 2157,
  " zhuan ": 2158,
  "pi ke ": 2159,
  "gong de ": 2160,
  "jing nei ": 2161,
  " fu ze ": 2162,
  "zao dao ": 2163,
  "dan qu ": 2164,
  "zu de ": 2165,
  "   zhong ": 2166,
  "ta men": 2167,
  "bu tong ": 2168,
  " yu yan ": 2169,
  "lu di ": 2170,
  "gui dao ": 2171,
  " da dao ": 2172,
  "15 ri ": 2173,
  "ju ji ": 2174,
  "jie he ": 2175,
  " dan ren ": 2176,
  "wu ke lan ": 2177,
  "shou ji ": 2178,
  " you guan ": 2179,
  "ya zhou ": 2180,
  "jia yi ": 2181,
  "fei ji ": 2182,
  "xian dai ": 2183,
  "tai ping ": 2184,
  " yu qi ": 2185,
  "zhan yi ": 2186,
  "tu di ": 2187,
  "bian hua ": 2188,
  "gong ye ": 2189,
  "sheng de yi ge shi zhen ": 2190,
  " zhi jian de ": 2191,
  " si": 2192,
  "xi ban ": 2193,
  "zheng ce ": 2194,
  "wan quan ": 2195,
  "   ju ": 2196,
  " mu qian ": 2197,
  "hui he ": 2198,
  " shi xing ": 2199,
  "jue sai ": 2200,
  "jiao yi ": 2201,
  " si ke ": 2202,
  "guang bo ": 2203,
  "zao qi ": 2204,
  "jiao hui ": 2205,
  "on ": 2206,
  "xuan ze ": 2207,
  " yi you ": 2208,
  " da": 2209,
  "ye de ": 2210,
  "yuan yin ": 2211,
  "xing cheng ": 2212,
  "xiao shuo ": 2213,
  "pi ping ": 2214,
  " zhao ": 2215,
  " hai ba gao du ": 2216,
  "25 ri ": 2217,
  "miao shu ": 2218,
  " 2001 nian ": 2219,
  "   N": 2220,
  " bu dui ": 2221,
  "lian bang ": 2222,
  " zhi ye ": 2223,
  " er si ": 2224,
  " si te ": 2225,
  "UTC ": 2226,
  " zai 201": 2227,
  "fa lv ": 2228,
  "zun": 2229,
  " wei zhong ": 2230,
  " huo de ": 2231,
  "bo li ": 2232,
  "xie yi ": 2233,
  "teng ": 2234,
  "zao de ": 2235,
  " he wu ": 2236,
  "ming ming ": 2237,
  " yue de ": 2238,
  "chu shi ": 2239,
  "jian she ": 2240,
  "bei cheng wei ": 2241,
  "chang qi ": 2242,
  "gong si": 2243,
  "zhuan ye ": 2244,
  "yun dong hui ": 2245,
  "dian zi ": 2246,
  " di san ": 2247,
  " yi yu ": 2248,
  "er wei ": 2249,
  "wen hua": 2250,
  "yuan zhu ": 2251,
  "30 ri ": 2252,
  " jian cheng ": 2253,
  "chi xu ": 2254,
  " shi yan ": 2255,
  " dang zhong ": 2256,
  "zui da ": 2257,
  " che ": 2258,
  "20 ri ": 2259,
  "jie dao ": 2260,
  " jiu": 2261,
  "zu he ": 2262,
  "duo shu ": 2263,
  "to": 2264,
  "se de ": 2265,
  "100 ": 2266,
  " nan": 2267,
  "ta zai ": 2268,
  " 3 ": 2269,
  "pai she ": 2270,
  "hou lai ": 2271,
  "luan": 2272,
  " wei di ": 2273,
  " nei ": 2274,
  "10 ri ": 2275,
  "lin shi ": 2276,
  " ta shi ": 2277,
  " e ": 2278,
  "ba li ": 2279,
  "wu yuan ": 2280,
  "zi ge ": 2281,
  " shui ": 2282,
  " chuan ": 2283,
  " chong ": 2284,
  "mi de ": 2285,
  "sheng he ": 2286,
  " mo": 2287,
  "bu li ": 2288,
  " bei": 2289,
  " you cheng ": 2290,
  "a la ": 2291,
  "fu zhi ": 2292,
  " ji gou ": 2293,
  "chu qi ": 2294,
  "tong nian ": 2295,
  "luo de ": 2296,
  " O": 2297,
  " yi ming ": 2298,
  "ruan": 2299,
  "er zi ": 2300,
  "bu ji ": 2301,
  "dong nan ": 2302,
  "40": 2303,
  "gao zhong ": 2304,
  "ta men de ": 2305,
  "ling yu ": 2307,
  " dan zai ": 2308,
  "za zhi ": 2309,
  " di si ": 2310,
  "fa zhan": 2311,
  " geng ": 2312,
  " shi wei yu mei guo ": 2313,
  " ji jin ": 2314,
  " 11": 2315,
  "da dao ": 2316,
  "xing yu ": 2317,
  "wang de ": 2318,
  " jin guan ": 2319,
  " ye": 2320,
  " wei yu gai guo ": 2321,
  "gai nian ": 2322,
  " ha": 2323,
  " 6 ": 2324,
  "ve": 2325,
  " yue zhi ": 2326,
  "bao gao ": 2327,
  " guo min ": 2328,
  " li ke ": 2329,
  "kui ": 2330,
  "tu er ": 2331,
  "bo chu ": 2332,
  "sheng wei ": 2333,
  "kua ": 2334,
  "fang xiang ": 2335,
  " shi jie da ": 2336,
  "I ": 2337,
  "zhong ji ": 2338,
  "24 ri ": 2339,
  "bo wu guan ": 2340,
  " c": 2341,
  "gui ding ": 2342,
  "dao yi ": 2343,
  " li yong ": 2344,
  " li kai ": 2345,
  "guang dong ": 2346,
  "nei bu ": 2347,
  "guo min ": 2348,
  " hou": 2349,
  "26 ri ": 2350,
  "yin hang ": 2351,
  "can sai ": 2352,
  "she qu ": 2353,
  "gong chan dang ": 2354,
  " yue shi ": 2355,
  "mu biao ": 2356,
  "EE": 2357,
  "guan fang ": 2358,
  " sui hou ": 2359,
  "guan zhi ": 2360,
  "dian li ": 2361,
  "wu xian ": 2362,
  " xi lie ": 2363,
  "bing wei ": 2364,
  "18 ri ": 2365,
  " zhe zhong ": 2366,
  " ren wei ": 2367,
  " yu zhi ": 2368,
  "ao lin pi ke ": 2369,
  "quan qiu ": 2370,
  "dang de ": 2371,
  " meng ": 2372,
  "ju ban ": 2373,
  " wei si ": 2374,
  "lian xi ": 2375,
  " ling": 2376,
  "gong bu ": 2377,
  "yin shi ": 2378,
  "V ": 2379,
  "fu li ": 2380,
  "mu de ": 2381,
  "lie de ": 2382,
  " ji chang ": 2383,
  " ying guo ": 2384,
  "shen de ": 2385,
  " san": 2386,
  "   a": 2387,
  " fen bu yu ": 2388,
  " you qi ": 2389,
  "chang wei ": 2390,
  " er sheng ": 2391,
  "bi li ": 2392,
  "tou zi ": 2393,
  "zhe shi ": 2394,
  "shang shu ": 2395,
  "vi": 2396,
  "mu di ": 2397,
  "dong jing ": 2398,
  " jun ": 2399,
  "mi er ": 2400,
  "16 ri ": 2401,
  "ding wei ": 2402,
  "xun lian ": 2403,
  " yu zhong ": 2404,
  "ce shi ": 2405,
  " ji he ": 2406,
  "ming zi ": 2407,
  "qiong": 2408,
  "fen zhi ": 2409,
  "bao fa ": 2410,
  "ying yong ": 2411,
  " qie": 2412,
  "fu yi ": 2413,
  "   K": 2414,
  " ta yu ": 2415,
  "kai fang ": 2416,
  " 4 ": 2417,
  "guo zhi ": 2418,
  "17 ri ": 2419,
  "hua xue ": 2420,
  "21 ": 2421,
  " de dao ": 2422,
  " you xian gong si ": 2423,
  "   zheng zhi ": 2424,
  "21 ri ": 2425,
  "bu zhi ": 2426,
  " shi zi ": 2427,
  " de shi zhen ": 2428,
  "ai de ": 2429,
  "yin qi ": 2430,
  "27 ri ": 2431,
  "ck": 2432,
  " qie ": 2433,
  "ka er ": 2434,
  " zhong xue ": 2435,
  "8 ri ": 2436,
  "jun wei ": 2437,
  " mian ": 2438,
  " li fa ": 2439,
  "12 ri ": 2440,
  "23 ri ": 2441,
  " chu le ": 2442,
  "shang you ": 2443,
  "shou yu ": 2444,
  " shi he ": 2445,
  "dao yu ": 2446,
  "su lian ": 2447,
  "7 ri ": 2448,
  "xi lie ": 2449,
  "hi": 2450,
  " yin ci": 2451,
  "mei guo ren kou pu ": 2452,
  "fei xing ": 2453,
  "shu liang wei ": 2454,
  "ju le bu ": 2455,
  "te bie": 2456,
  "xue zhe ": 2457,
  "E ": 2458,
  "fen xi ": 2459,
  "gui mo ": 2460,
  " sha ": 2461,
  "huang di ": 2462,
  "bi xu ": 2463,
  "neng gou ": 2464,
  "me ": 2465,
  "ban shi ": 2466,
  "11 ri ": 2467,
  "leng ": 2468,
  " wai ": 2469,
  "qi ji ": 2470,
  "22 ri ": 2471,
  " shi fa guo ": 2472,
  "gong neng ": 2473,
  "te de ": 2474,
  "9 ri ": 2475,
  "jiao de ": 2476,
  " min ": 2477,
  "shan dong ": 2478,
  "tai de ": 2479,
  "zi yu ": 2480,
  "ping jia ": 2481,
  "19 ri ": 2482,
  "jin zhi ": 2483,
  "feng ge ": 2484,
  "29 ri ": 2485,
  "60": 2486,
  "chu yi ": 2487,
  "ge di ": 2488,
  " fu wu ": 2489,
  "suo shu de ": 2490,
  "ting zhi ": 2491,
  "guan yuan ": 2492,
  "zui da de ": 2493,
  "NS": 2494,
  "jing ying ": 2495,
  "ying shi ": 2496,
  "she de ": 2497,
  "ke shi ": 2498,
  "20 nian ": 2499,
  " yue han ": 2500,
  "fu jin ": 2501,
  "dian de ": 2502,
  "sheng ming ": 2503,
  "oo": 2504,
  "jie chu ": 2505,
  "5 ri ": 2506,
  "3 ri ": 2507,
  " ji bai ": 2508,
  " ming": 2509,
  "qing kuang xia ": 2510,
  "fu yu ": 2511,
  "zheng zai ": 2512,
  "   197": 2513,
  "am": 2514,
  "14 ri ": 2515,
  "shou shi ": 2516,
  "tiao jian ": 2517,
  "qu hua ": 2518,
  " 190": 2519,
  "yuan ji ": 2520,
  "nu ": 2521,
  " sui ran ": 2522,
  "yuan zhi ": 2523,
  "xi shi ": 2524,
  "shang wei ": 2525,
  "   you yu ": 2526,
  "zhu zai ": 2527,
  "mai ke ": 2528,
  "   195": 2529,
  "da ji ": 2530,
  "   li ": 2531,
  " bu jiu ": 2532,
  "4 ri ": 2533,
  "40 ": 2534,
  " da hui ": 2535,
  "xiao xing xing ": 2536,
  "2 ri ": 2537,
  " song ": 2538,
  "duo ge ": 2539,
  "chao ji ": 2540,
  "liu xing ": 2541,
  "6 ri ": 2542,
  "sheng zai ": 2543,
  "te zheng ": 2544,
  "jie duan ": 2545,
  "qi nian ": 2546,
  "bo te ": 2547,
  "B ": 2548,
  " gong chi ": 2549,
  "nan xing ": 2550,
  "31 ri ": 2551,
  "ge ji ": 2552,
  "13 ri ": 2553,
  " zui hou ": 2554,
  " dao zhi ": 2555,
  "ya yu ": 2556,
  "si ren ": 2557,
  "zong he ": 2558,
  "wen wu bao hu ": 2559,
  " de wei ": 2560,
  "hai yu ": 2561,
  "30 nian ": 2562,
  "ge wei ": 2563,
  "ren he ": 2564,
  "ao si ": 2565,
  "wu ji ": 2566,
  "lv you ": 2567,
  "zuo jia ": 2568,
  "ren ji ": 2569,
  "man hua ": 2570,
  " gan ": 2571,
  " ri zhi ": 2572,
  "ke da ": 2573,
  "ge shou ": 2574,
  "xiong di ": 2575,
  "yin ci ": 2576,
  "w ": 2577,
  "xu duo": 2578,
  "huang jia ": 2579,
  "sheng fen ": 2580,
  "lian meng": 2581,
  "ou zhou": 2582,
  "jian wei ": 2583,
  " tong guo ": 2584,
  "zai wei ": 2585,
  " de zhong ": 2586,
  "fen zi ": 2587,
  "ju ren ": 2588,
  "lie che": 2589,
  " shen zhi ": 2590,
  "ban dao ": 2591,
  "niu yue ": 2592,
  " br ": 2593,
  "zhu ti ": 2594,
  "ci shi jie da ": 2595,
  "cheng du ": 2596,
  "wang luo ": 2597,
  "   jin ": 2598,
  "zhong wei ": 2599,
  " ta ceng ": 2600,
  "cheng yi ": 2601,
  "ci de ": 2602,
  "you yi ge ": 2603,
  "zhuang tai ": 2604,
  "nai ": 2605,
  " 2011 nian ": 2606,
  "xian de yi ge ": 2607,
  "ben de ": 2608,
  "bian wei ": 2609,
  " you ming ": 2610,
  "pin dao ": 2611,
  " zhi ji ": 2612,
  "ju zhong ": 2613,
  "xuan shou ": 2614,
  "he li ": 2615,
  "mao yi ": 2616,
  "20 shi ji ": 2617,
  "bu zhang ": 2618,
  "ren kou shu liang wei ": 2619,
  " ling yi ": 2620,
  " zai qi ": 2621,
  "duo ci ": 2622,
  "hui you ": 2623,
  "bao han ": 2624,
  "   196": 2625,
  "   zi ": 2626,
  "qian yi ": 2627,
  "   O": 2628,
  "hui dao ": 2629,
  "bei de ": 2630,
  "shuo shi ": 2631,
  " yu 199": 2632,
  "liu nian ": 2633,
  " zhi li ": 2634,
  " ren zhong ": 2635,
  "mo de ": 2636,
  "gao ji ": 2637,
  "zhun bei ": 2638,
  "fang an ": 2639,
  " U": 2640,
  "fa shi ": 2641,
  " he nan ": 2642,
  "sheng chan": 2643,
  "bing li ": 2644,
  "ca": 2645,
  "wai de ": 2646,
  "da xing ": 2647,
  "wu qi ": 2648,
  "she bei ": 2649,
  "jie ji ": 2650,
  "gong zhong ": 2651,
  "ci zhi ": 2652,
  "xiang tong ": 2653,
  " yi lai ": 2654,
  " zhi zhong ": 2655,
  "bu wei ": 2656,
  "tai yang ": 2657,
  "shu guan ": 2658,
  "you zhi ": 2659,
  "le yi ge ": 2660,
  "mang ": 2661,
  "yuan wei ": 2662,
  " di fang ": 2663,
  "hao mi ": 2664,
  "dian shi tai ": 2665,
  "lu jun ": 2666,
  " zhong bu ": 2667,
  "zi shi ": 2668,
  " de yi zhong ": 2669,
  "xing he ": 2670,
  " ren kou mi du wei ": 2671,
  "ju shi ": 2672,
  "deng ji ": 2673,
  " ren kou": 2674,
  "zui hou ": 2675,
  "xuan wei ": 2676,
  "190": 2677,
  " sui ran": 2678,
  "zhe jiang ": 2679,
  "gu ji ": 2680,
  "zhan dou ": 2681,
  "fang yu ": 2682,
  "jun zai ": 2683,
  "hui yu ": 2684,
  "xin li ": 2685,
  "biao yan ": 2686,
  "qiu ji ": 2687,
  " kai shi ": 2688,
  "gai ge ": 2689,
  "guang chang ": 2690,
  "si wang ": 2691,
  "zai ji ": 2692,
  "mei zhou ": 2693,
  " wei yu fa guo ": 2694,
  "da liang ": 2695,
  "jian cheng ": 2696,
  "nao": 2697,
  "nong ye ": 2698,
  " zhi jin ": 2699,
  "dian shi ju ": 2700,
  "zhan kai ": 2701,
  "yang shi ": 2702,
  " xi ban ": 2703,
  "bian cheng ": 2704,
  "shang yi ": 2705,
  "liu shi ": 2706,
  "keng ": 2707,
  " zhu yao": 2708,
  "wan ren ": 2709,
  " shi dai ": 2710,
  "chan pin ": 2711,
  "xie zhu ": 2712,
  " lan ": 2713,
  "wen wu bao hu dan wei ": 2714,
  "sao ": 2715,
  "mu qian ": 2716,
  "   da ": 2717,
  "jia he ": 2718,
  " pai ": 2719,
  "tiao yue ": 2720,
  "huo de le ": 2721,
  " jia ru ": 2722,
  "   J": 2723,
  " qiu ": 2724,
  "zhu yu ": 2725,
  " de li ": 2726,
  " bu zai ": 2727,
  " fan": 2728,
  "zhen qu ": 2729,
  "dao lu ": 2730,
  "fen lei ": 2731,
  "48": 2732,
  " sai ": 2733,
  " 2010 nian ": 2734,
  "you zheng ": 2735,
  "ri qi ": 2736,
  "fu jian ": 2737,
  " ran ": 2738,
  "shou du ": 2739,
  "fa yu ": 2740,
  "gong you ren kou ": 2741,
  " que": 2742,
  "cuo ": 2743,
  "i ": 2744,
  "ying ji ": 2745,
  "qun dao ": 2746,
  "bi jiao ": 2747,
  " yi bei ": 2748,
  "hai ba ": 2749,
  "duan de ": 2750,
  "qing de ": 2751,
  "zhan zheng": 2752,
  "gui hua ": 2753,
  " pi ": 2754,
  " bei qi ": 2755,
  " qiang ": 2756,
  " h": 2757,
  "qiao zhi ": 2758,
  " lv ": 2759,
  " qi ye ": 2760,
  "su du ": 2761,
  "hang kong": 2762,
  "nv er ": 2763,
  "xi bu ": 2764,
  " xi wang ": 2765,
  "xi wei ": 2766,
  " zhong hua min guo ": 2767,
  " xing zheng ": 2768,
  "kua": 2769,
  " zai zhong ": 2770,
  " bu hui ": 2771,
  "si he ": 2772,
  "ze ren ": 2773,
  " zhi zai ": 2774,
  "qu dai ": 2775,
  " gong fen ": 2776,
  " yi shi ": 2777,
  " fei": 2778,
  "dong li ": 2779,
  "mei ping fang gong li ": 2780,
  " yu wei ": 2781,
  "dong xi ": 2782,
  "jiu shi zhen ": 2783,
  "jin gong ": 2784,
  " fa guo ": 2785,
  "di yi ge ": 2786,
  " ke neng": 2787,
  " yi yang ": 2788,
  "et": 2789,
  "R ": 2790,
  "   jian ": 2791,
  " zhe yi ": 2792,
  "zun ": 2793,
  "dou you ": 2794,
  " dou ": 2795,
  " de shi jian ": 2796,
  " chen": 2797,
  "tai bei ": 2798,
  "ru xia ": 2799,
  " V": 2800,
  "35": 2801,
  " li zi ": 2802,
  "   of": 2803,
  "xiang ji ": 2804,
  "ma lai": 2805,
  "hou yu ": 2806,
  " yi ren ": 2807,
  "   xi ": 2808,
  "si wei ": 2809,
  "rong yu ": 2810,
  "60 ": 2811,
  " huan ": 2812,
  "xiang dui ": 2813,
  "hen duo ": 2814,
  " gang ": 2815,
  "   2021 nian ": 2816,
  "biao zhun": 2817,
  " fen bie": 2818,
  "fu ren ": 2819,
  "la ke ": 2820,
  "lian xu ": 2821,
  "shang wu ": 2822,
  "jin biao sai ": 2823,
  "jie rang": 2824,
  " mei you ": 2825,
  "   2019 nian ": 2826,
  "cheng zhen ": 2827,
  "yu shi de ": 2828,
  "zong li ": 2829,
  " ci hou ": 2830,
  "qu yi ": 2831,
  "ming shi ": 2832,
  "jian you ": 2833,
  " er bei ": 2834,
  "mi shu ": 2835,
  " geng": 2836,
  "wang guo ": 2837,
  "ci ji ": 2838,
  " zhao": 2839,
  "ke wei ": 2840,
  "zheng ge ": 2841,
  "   fu ": 2842,
  "min zhong ": 2843,
  "xiao xi ": 2844,
  "70": 2845,
  "tie dao ": 2846,
  "zui hou yi ": 2847,
  "80": 2848,
  "12 ": 2849,
  "   zhe ": 2850,
  "ren kou shu liang wei ren ": 2851,
  "di san ": 2852,
  " chao ": 2853,
  "ye wu ": 2854,
  "cui ": 2855,
  " 2009 nian ": 2856,
  " hei ": 2857,
  "zhan ling ": 2858,
  "jue de ": 2859,
  " tou ": 2860,
  "   2020 nian ": 2861,
  "ren yu ": 2862,
  "xin jia ": 2863,
  " INS": 2864,
  " yi xia ": 2865,
  "M ": 2866,
  "   zhu ": 2867,
  "shou ge ": 2868,
  "wai jiao ": 2869,
  "sheng cheng ": 2870,
  "tian zhu jiao ": 2871,
  "jia na da ": 2872,
  "qi ta": 2873,
  "zhen shi ": 2874,
  " li shu yu ": 2875,
  " INSEE": 2876,
  " cheng qu ": 2877,
  "quan de ": 2878,
  "la de ": 2879,
  "jian cha ": 2880,
  "fen de ": 2881,
  "yuan zi ": 2882,
  " er qie ": 2883,
  "wang zhan ": 2884,
  "ne ": 2885,
  "tian wen ": 2886,
  "ni ya": 2887,
  "   3": 2888,
  "reng ran": 2889,
  "zuo chu ": 2890,
  " nian ji ": 2891,
  " zhong xin": 2892,
  "yuan you ": 2893,
  " ran hou ": 2894,
  "da xue": 2895,
  "zheng quan ": 2896,
  " ni": 2897,
  " nv ": 2898,
  "nan ji ": 2899,
  "dian ying": 2900,
  " man ": 2901,
  "qu xiao ": 2902,
  "pu tao ": 2903,
  "ju jue ": 2904,
  " de shi hou ": 2905,
  " xian shi ": 2906,
  "zhong xin ": 2907,
  "jie jue ": 2908,
  " he bei ": 2909,
  "wu yi ": 2910,
  "lu shi ": 2911,
  "jiao wei ": 2912,
  " ren zai ": 2913,
  "xian fa ": 2914,
  "ti ji ": 2915,
  "che liang ": 2916,
  "shun ": 2917,
  "   the   ": 2918,
  "zi xing ": 2919,
  "sheng zhi ": 2920,
  "dian ji ": 2921,
  "le ji ": 2922,
  "yun ying ": 2923,
  " gai sheng ": 2924,
  "zhan dou": 2925,
  "he wei ": 2926,
  "   V": 2927,
  "da li ya ": 2928,
  "ci yu ": 2929,
  "   2018 nian ": 2930,
  " chi ": 2931,
  "di fang ": 2932,
  "zhen de ": 2933,
  "lan xi ": 2934,
  " zong mian ji ": 2935,
  "he zhi ": 2936,
  " qi ta": 2937,
  "bo lan ": 2938,
  " jie zhi ": 2939,
  "ming yi ": 2940,
  "meng gu ": 2941,
  " ding ": 2942,
  "mo xi ": 2943,
  " de yu ": 2944,
  "2022 nian ": 2945,
  "pen": 2946,
  "zao nian ": 2947,
  "ni si ": 2948,
  " ri ben": 2949,
  " you yi ": 2950,
  " xin": 2951,
  "gong yi ": 2952,
  "shu zhi ": 2953,
  "shao nian ": 2954,
  "fa dong ": 2955,
  "xiao xue ": 2956,
  " di qi ": 2957,
  "qing shi ": 2958,
  "shou wei ": 2959,
  " ren kou mi du mei ping fang gong li ": 2960,
  "cha de shu ju ": 2961,
  "you zheng bian ma wei ": 2962,
  "mu shi ": 2963,
  "gan dao ": 2964,
  "di yi ci ": 2965,
  "die": 2966,
  "jiang shi ": 2967,
  " shi zhen bian ma wei ": 2968,
  " INSEE shi zhen bian ma wei ": 2969,
  "hui zhi ": 2970,
  "te li ": 2971,
  " ren kou mi du wei mei ping fang ": 2972,
  "zhuo ": 2973,
  "   bu ": 2974,
  "『": 2975,
  " xing cheng ": 2976,
  " xia ling shi ": 2977,
  " jian zhu ": 2978,
  "xi li ": 2979,
  "ke zai ": 2980,
  "   nian ": 2981,
  "』": 2982,
  "ye zai ": 2983,
  "zuo zhan ": 2984,
  "xuan qu wei ": 2985,
  "xian he ": 2986,
  "lei ji ": 2987,
  "yu shi de ren kou shu liang wei ren ": 2988,
  "jing chang ": 2989,
  "mei guo ren kou pu cha de shu ju ": 2990,
  " dui yu ": 2991,
  "   193": 2992,
  "zuo yi ": 2993,
  "lu yi ": 2994,
  "bao de ": 2995,
  " er ren kou mi du wei mei ping fang ": 2996,
  " dang di gong you ren kou ": 2997,
  "er he ": 2998,
  "yun xing ": 2999,
  " huo jiu shi zhen ": 3000,
  "pang": 3001,
  "huo shi ": 3002,
  "sheng ji xuan qu wei ": 3003,
  "wu ren ": 3004,
  "cong shi ": 3005,
  "ying chi ": 3006,
  "gao deng ": 3007,
  "kuai su ": 3008,
  "yang hua ": 3009,
  "zhang da ": 3010,
  "at": 3011,
  "sheng ren ": 3012,
  "bian ji ": 3013,
  " zhong yang": 3014,
  "fou": 3015,
  "jin yi bu ": 3016,
  "chong jian ": 3017,
  "fen wei fa guo ": 3018,
  " gai sheng fen wei fa guo ": 3019,
  "fa qi ": 3020,
  "yun shu ": 3021,
  " xiang": 3022,
  "be": 3023,
  "wan jia ": 3024,
  "zheng ming ": 3025,
  "   2017 nian ": 3026,
  "2 ren ": 3027,
  " ha ": 3028,
  "gao yu ": 3029,
  "jiang yu ": 3030,
  "dui zai ": 3031,
  "cheng li yu ": 3032,
  " shuang ": 3033,
  "jia zhong ": 3034,
  "fu qin ": 3035,
  "ying xiang": 3036,
  "fan hui ": 3037,
  "jie rang de shi zhen ": 3038,
  "na de ": 3039,
  "ming dan ": 3040,
  "lian he guo ": 3041,
  "suo shu de sheng ji xuan qu wei ": 3042,
  "yan jiu suo ": 3043,
  " te bie": 3044,
  "fang qi ": 3045,
  "zhong hua ren min gong he guo ": 3046,
  "da qu ": 3047,
  "tai guo ": 3048,
  " shi chang ": 3049,
  "zi yuan ": 3050,
  "gou de ": 3051,
  "ju yu ": 3052,
  " 2013 nian ": 3053,
  "gong xian ": 3054,
  "ceng zai ": 3055,
  "ao lin pi ke yun dong hui ": 3056,
  " 2019 nian ": 3057,
  "si li ": 3058,
  "zi wei ": 3059,
  "100": 3060,
  "gong ren ": 3061,
  "shuo fa ": 3062,
  "zhu chi ": 3063,
  "yuan li ": 3064,
  "bei yi ": 3065,
  "xian xiang ": 3066,
  "er zai ": 3067,
  "ti xi ": 3068,
  "ce de ": 3069,
  "ping tai ": 3070,
  "biao wei ": 3071,
  "xing qi ": 3072,
  "fa she ": 3073,
  "na li ": 3074,
  "   he ": 3075,
  "F ": 3076,
  "dao ren ": 3077,
  "re dai ": 3078,
  "xi ban ya ": 3079,
  " bu neng ": 3080,
  "it": 3081,
  "hua wei ": 3082,
  "xian ji ": 3083,
  "luo fu ": 3084,
  " xi bei ": 3085,
  "xia wu ": 3086,
  "hao xian ": 3087,
  " kong ": 3088,
  "si zai ": 3089,
  "ba nian ": 3090,
  "wen ming ": 3091,
  "xiao zu ": 3092,
  "xian you ": 3093,
  "pai de ": 3094,
  "bei ji ": 3095,
  "xiang dang ": 3096,
  " di qu de ": 3097,
  "jin yi ": 3098,
  "jin xing le ": 3099,
  "   che zhan ": 3100,
  "   2016 nian ": 3101,
  "jie wei ": 3102,
  " zhi cheng ": 3103,
  "chan ye ": 3104,
  " er zai ": 3105,
  "zhou wei ": 3106,
  "an shi ": 3107,
  "shou shang ": 3108,
  " shi yi ming ": 3109,
  "teng": 3110,
  "   2022 nian ": 3111,
  " nian yu ": 3112,
  "xuan chuan ": 3113,
  "sheng shi ": 3114,
  "pai ming ": 3115,
  "jing shen ": 3116,
  "chao zheng zhi ren wu ": 3117,
  "su de ": 3118,
  "nan sheng ": 3119,
  "pe": 3120,
  "   ta ": 3121,
  "jian ji ": 3122,
  "hao wei ": 3123,
  "diao cha": 3124,
  "   chu ": 3125,
  "za ": 3126,
  " zheng shi ": 3127,
  "zi he ": 3128,
  " shi yi wei ": 3129,
  "ying li ": 3130,
  "jue ding": 3131,
  "tun": 3132,
  "lv shi ": 3133,
  "zhan hou ": 3134,
  "tong xing ": 3135,
  "hu shi ": 3136,
  "shu zhong ": 3137,
  " 2008 nian ": 3138,
  "guan zhu ": 3139,
  "lie wei ": 3140,
  "2021 nian ": 3141,
  "xi yang ": 3142,
  "qi zhong yi ": 3143,
  "fu ze guan xia ": 3144,
  "N ": 3145,
  "jia ting ": 3146,
  "zi ran": 3147,
  "lian de ": 3148,
  "xi zai ": 3149,
  "jie yi ": 3150,
  " 2018 nian ": 3151,
  "38": 3152,
  "X ": 3153,
  " rang": 3154,
  "da wei ": 3155,
  "shu liang ": 3156,
  "lan qiu ": 3157,
  "xi yu ": 3158,
  "liu yu ": 3159,
  " ze": 3160,
  " nian jian ": 3161,
  "wen jian ": 3162,
  "sai er ": 3163,
  "du jiao ": 3164,
  " you shi ": 3165,
  "xuan ren ": 3166,
  "reng ran ": 3167,
  "zheng ju ": 3168,
  "tao lun ": 3169,
  "11 ": 3170,
  "dao yan ": 3171,
  " xi nan ": 3172,
  " he bing ": 3173,
  " ruo": 3174,
  " 2016 nian ": 3175,
  "qiu de ": 3176,
  "cheng xian ": 3177,
  " bai": 3178,
  "bo er ": 3179,
  " you ren ": 3180,
  "ping lun ": 3181,
  "wang shi ": 3182,
  "yan yi ": 3183,
  "zhong yang ": 3184,
  " yue zai ": 3185,
  "bao chi ": 3186,
  "re dai": 3187,
  " kang": 3188,
  "duo zhong ": 3189,
  "lai yuan ": 3190,
  "3 ren ": 3191,
  "37": 3192,
  "zheng dang ": 3193,
  "0 nian dai": 3194,
  " 2014 nian ": 3195,
  "   bei ": 3196,
  "fen bie ": 3197,
  "gen ju": 3198,
  "fo jiao ": 3199,
  "1 ren ": 3200,
  "90": 3201,
  "lun dun": 3203,
  "4 ren ": 3204,
  "ver": 3205,
  "mo xing ": 3206,
  "and   ": 3207,
  "tiao zhan ": 3208,
  "mp ": 3209,
  "ri zhi ": 3210,
  "36": 3211,
  "rui shi ": 3212,
  "zi dong ": 3213,
  "te bie ": 3214,
  " dao le ": 3215,
  " guo ji ": 3216,
  "ceng jing ": 3217,
  " 10 yue ": 3218,
  "lv ke ": 3219,
  " zhong gong ": 3220,
  " ri qi ": 3221,
  "di si ": 3222,
  "sheng yi ": 3223,
  "fan de ": 3224,
  " pei ": 3225,
  " zong ren kou ": 3226,
  "xia de yi ge ": 3227,
  "xu yao": 3228,
  "biao ming ": 3229,
  "xuan qu ": 3230,
  "da yue ": 3231,
  "xu de ": 3232,
  " ou ": 3233,
  "jiao tang ": 3234,
  "luo ma": 3235,
  "hai de ": 3236,
  " ji si ": 3237,
  " zhi ming ": 3238,
  "gh": 3239,
  "feng xian ": 3240,
  " 2012 nian ": 3241,
  "ke li si ": 3242,
  "O ": 3243,
  " shi jian yu ": 3244,
  "x ": 3245,
  "189": 3246,
  "tai ping yang ": 3247,
  "tun ": 3248,
  "jing wei ": 3249,
  "15 ": 3250,
  "peng you ": 3251,
  "e luo ": 3252,
  "xing yi ": 3253,
  " li ren ": 3254,
  "nan jing ": 3255,
  "shen wei ": 3256,
  "   2014 nian ": 3257,
  "jian dui ": 3258,
  " de di fang ": 3259,
  "om": 3260,
  " ji hu ": 3261,
  " 2015 nian ": 3262,
  "wu wei ": 3263,
  " wu ke ": 3264,
  "mang": 3265,
  " bei jing ": 3266,
  "gong zhong yang ": 3267,
  "zheng bu ": 3268,
  " yi li ": 3269,
  "5 ren ": 3270,
  " zhi xian ": 3271,
  "yan ge ": 3272,
  "jiao bu ": 3273,
  "ru he ": 3274,
  "xing bu ": 3275,
  "ken": 3276,
  "jing you ": 3277,
  " ci shi ": 3278,
  "qian shi ": 3279,
  "chong tu ": 3280,
  "que ding ": 3281,
  " guo wang ": 3282,
  "dao da ": 3283,
  "lai shuo ": 3284,
  "   2015 nian ": 3285,
  "xun hui ": 3286,
  "bo de ": 3287,
  "ying ge lan ": 3288,
  "24 ": 3289,
  " chuang ": 3290,
  "tui yi ": 3291,
  "ir": 3292,
  "jian ren ": 3293,
  "   xian ": 3294,
  "biao zhi ": 3295,
  "jie ke ": 3296,
  " long ": 3297,
  "xia shi ": 3298,
  "qian zhi ": 3299,
  "lin de ": 3300,
  "shang ying ": 3301,
  " ben": 3302,
  " biao shi ": 3303,
  "xiao guo ": 3304,
  "liang zhong ": 3305,
  "ling de ": 3306,
  " huang": 3307,
  " 2021 nian ": 3308,
  "shu yi ": 3309,
  "mei nian ": 3310,
  "dang xuan ": 3311,
  "   2013 nian ": 3312,
  "dao he ": 3313,
  "pen ": 3314,
  "ye bu ": 3315,
  "feng bao ": 3316,
  "   sui ": 3317,
  "lei xing ": 3318,
  "chu sheng ": 3319,
  "shen qing ": 3320,
  "zhang shi ": 3321,
  " da xue": 3322,
  " 2007 nian ": 3323,
  "jiu nian ": 3324,
  " e": 3325,
  "guang zhou ": 3326,
  "que zhen ": 3327,
  "biao da ": 3328,
  "sheng huo": 3329,
  "lian bang": 3330,
  "zhong yao ": 3331,
  "jiao qu ": 3332,
  "ping mian ": 3333,
  "bi ya ": 3334,
  " gong yuan ": 3335,
  "hou you ": 3336,
  "qi ye ": 3337,
  "qiu chang ": 3338,
  "xie de ": 3339,
  "lun dun ": 3340,
  "   de": 3341,
  "gua": 3342,
  "yuan su ": 3343,
  " zao ": 3344,
  "dui yi ": 3345,
  "tiao zheng ": 3346,
  " can ": 3347,
  "an jian ": 3348,
  "   U": 3349,
  "zi yi ": 3350,
  " ceng ren ": 3351,
  "cha yi ": 3352,
  "lu si ": 3353,
  "dui shou ": 3354,
  " li lun ": 3355,
  "yuan zhang ": 3356,
  "°": 3357,
  " er ren kou mi du wei mei ping fang qian mi ": 3358,
  "50 ": 3359,
  " ji bei ": 3360,
  "yuan zai ": 3361,
  " shi xian ": 3362,
  " li da ": 3363,
  "chu sheng yu ": 3364,
  "pu tong ": 3365,
  "2023 nian ": 3366,
  " zhi fu ": 3367,
  "yao qing ": 3368,
  "zheng zhuang ": 3369,
  "ru ci ": 3370,
  "nei rong": 3371,
  "tuan dui ": 3372,
  " zhi zao ": 3373,
  "xiao shou ": 3375,
  " qin ": 3376,
  "xing ren ": 3377,
  "xi he ": 3378,
  "jie jin ": 3379,
  "lu yu ": 3380,
  " jin ru ": 3381,
  " ta men de ": 3382,
  " bi": 3383,
  " 2017 nian ": 3384,
  "bao wei ": 3385,
  "heng xing ": 3386,
  "yin hang": 3387,
  "yan zhi ": 3388,
  "la fu ": 3389,
  "   2023 nian ": 3390,
  "31 ": 3391,
  "xue shu ": 3392,
  "zuo shi ": 3393,
  "ru guo ": 3394,
  "wang lu ": 3395,
  " yi xi ": 3396,
  " er qie": 3397,
  "qia ": 3398,
  "you wei ": 3399,
  "hui ji ": 3400,
  "dian tai ": 3401,
  "bei ren wei shi ": 3402,
  " zhong you ": 3403,
  "shou ru ": 3404,
  "ta shi ": 3405,
  "L ": 3406,
  " yi shang ": 3407,
  "an na ": 3408,
  " jie guo ": 3409,
  " 2020 nian ": 3410,
  "cai yong": 3411,
  "you li ": 3412,
  "dow": 3413,
  "nu li ": 3414,
  "lun de ": 3415,
  " zhong hua ": 3416,
  "xin shi ": 3417,
  " yu ci ": 3418,
  "jing cha ": 3419,
  "huo dong": 3420,
  "fan yi ": 3421,
  "jie fang jun ": 3422,
  " 8 yue ": 3423,
  " qi yu ": 3424,
  "jia ren ": 3425,
  "quan shi ": 3426,
  "ic": 3427,
  "xiao zhang ": 3428,
  "geng ming wei ": 3429,
  "zi zhi qu ": 3430,
  "ting de ": 3431,
  " gao": 3432,
  "shu zi ": 3433,
  "hai zi ": 3434,
  " 2005 nian ": 3435,
  "zhu yan ": 3436,
  "min de ": 3437,
  "lan ke ": 3438,
  "chu shen ": 3439,
  "qu he ": 3440,
  "chuang li ": 3441,
  "zong du ": 3442,
  "xu shi ": 3443,
  " zheng": 3444,
  " lao ": 3445,
  "ge you ": 3446,
  "39": 3447,
  "jiang xi ": 3448,
  " yue yu ": 3449,
  "jia ge ": 3450,
  "guai ": 3451,
  "tou piao ": 3452,
  "dan de ": 3453,
  " mai ": 3454,
  "xun su ": 3455,
  "wen zi ": 3456,
  "ban gong shi ": 3457,
  "ju xing de ": 3458,
  "he yu ": 3459,
  "hou qi ": 3460,
  "jiang xiang ": 3461,
  "tion   ": 3462,
  "sun shi ": 3463,
  "00 wan ": 3464,
  "6 ren ": 3465,
  "25 ": 3466,
  "guan dian ": 3467,
  "tion ": 3468,
  "ga ": 3469,
  "ke yu ": 3470,
  "wu yu ": 3471,
  "dai you ": 3472,
  "wen zhang ": 3473,
  "leng": 3474,
  " tong chang ": 3475,
  "   wu ": 3476,
  "2024 nian ": 3477,
  "sa ke ": 3478,
  "ga": 3479,
  "ka si ": 3480,
  " ji ben ": 3481,
  " s": 3482,
  "   xia ": 3483,
  "si chuan ": 3484,
  "47": 3485,
  " de yi zuo ": 3486,
  "jiang di ": 3487,
  " xiong ": 3488,
  "pai ming": 3489,
  "shao shu ": 3490,
  "kan dao ": 3491,
  "neng gou": 3492,
  "   ge ": 3493,
  "zai zhi ": 3494,
  " li he ": 3495,
  "xiang yu ": 3496,
  "tou xiang ": 3497,
  "jie quan guo ": 3498,
  "lu di mian ji wei ": 3499,
  "zhan ji ": 3500,
  "fu qin": 3501,
  "shui yu mian ji wei ": 3502,
  " da qu ": 3503,
  " ji zhe ": 3504,
  " de di qu ": 3505,
  "hui shang ": 3506,
  "ao men ": 3507,
  "wen yi ": 3508,
  "12 nian ": 3509,
  "xing jian ": 3510,
  " suo you ": 3511,
  "ming yu ": 3512,
  "jiao liu ": 3513,
  "kang yi ": 3514,
  "zhen dui ": 3515,
  "49": 3516,
  "hai an ": 3517,
  "xin ren ": 3518,
  "ti ming ": 3519,
  " duo": 3520,
  "   ke ": 3521,
  "zuo biao wei ": 3522,
  "jie yu ": 3523,
  "jing dian ": 3524,
  "ru kou ": 3525,
  "2012 nian ": 3526,
  "xi bei ": 3527,
  "wai guo ": 3528,
  "jian shao ": 3529,
  "zi ran ": 3530,
  "～": 3531,
  "tian jin ": 3532,
  " 189": 3533,
  "wen de ": 3534,
  "po huai ": 3535,
  "xing xing ": 3536,
  "xi zhi ": 3537,
  "zhang yu ": 3538,
  "ea": 3539,
  "45": 3540,
  "zhang ke da ": 3541,
  "cuo shi ": 3542,
  " amp ": 3543,
  " 2006 nian ": 3544,
  "chu fa ": 3545,
  "ming zhi ": 3546,
  " shi di ": 3547,
  "jun di ": 3548,
  "pei he ": 3549,
  " shi li ": 3550,
  " zai 199": 3551,
  " dang zhong lu di mian ji wei ": 3552,
  " er shui yu mian ji wei ": 3553,
  " zai yi ": 3554,
  " tuo ": 3555,
  "bian jie ": 3556,
  " che zhan ": 3557,
  "ba xi ": 3558,
  "xian chang ": 3559,
  "fang wei ": 3560,
  "xuan ze": 3561,
  "fu ji ": 3562,
  "chi de ": 3563,
  "xi yi ": 3564,
  "xian lu ": 3565,
  "rong yi ": 3566,
  " zhong yao ": 3567,
  "dao ji ": 3568,
  " lin": 3569,
  "guang xi ": 3570,
  "luo di ": 3571,
  "shan ji ": 3572,
  "tou ru ": 3573,
  "fang zai ": 3574,
  "cun zhuang ": 3575,
  "TA": 3576,
  "ha er ": 3577,
  "dui wu ": 3578,
  "deng lu ": 3579,
  " ju li ": 3580,
  "da zhi ": 3581,
  " bei er ": 3582,
  "da zhong ": 3583,
  " de zhi chi ": 3584,
  " yue you ": 3585,
  "ge yi ": 3586,
  "ni de ": 3587,
  "gong min ": 3588,
  "nan de ": 3589,
  "yue tai ": 3590,
  "   xing zheng qu hua ": 3591,
  "pi zhun ": 3592,
  "cheng zuo ": 3593,
  " zai zhe ": 3594,
  "jian zao ": 3595,
  "cheng xu ": 3596,
  " cong er ": 3597,
  " wei lian ": 3598,
  "ge lei ": 3599,
  "qian shu ": 3600,
  "yong hu ": 3601,
  "do": 3602,
  " hai you ": 3603,
  "yuan hui ": 3604,
  "chang yi ": 3605,
  "cun de ": 3607,
  "dai li ": 3608,
  "niao": 3609,
  "es": 3610,
  "   2012 nian ": 3611,
  " 9 yue ": 3612,
  "2018 nian ": 3613,
  "bao liu ": 3614,
  "tian de ": 3615,
  " yue wei ": 3616,
  "bi ye yu ": 3617,
  " zai bei ": 3618,
  " jing guo ": 3619,
  "nuo wei ": 3620,
  "yin fa ": 3621,
  " ji shi ": 3622,
  "du yu ": 3623,
  "g ": 3624,
  "er ren ": 3625,
  "jian zhong ": 3626,
  "zi xun ": 3627,
  "ying pian ": 3628,
  "ke he ": 3629,
  " tan ": 3630,
  "hua yu ": 3631,
  "zi jin ": 3632,
  "tui dong ": 3633,
  " shi zhong guo ": 3634,
  "tu er qi ": 3635,
  "tu de ": 3636,
  "zhan di ": 3637,
  "hun he ": 3638,
  "2008 nian ": 3639,
  " zhi xia ": 3640,
  "ju zhu ": 3641,
  "wen ding ": 3642,
  "hai dao ": 3643,
  "bi sai zhong ": 3644,
  "jun yi ": 3645,
  "ti gao ": 3646,
  "le si ": 3647,
  "shu he ": 3648,
  "ge ge ": 3649,
  " xiang gang": 3650,
  "You": 3651,
  " formula ": 3652,
  " ti zhang ke da ": 3653,
  "jin ru": 3654,
  "xi zhong ": 3655,
  "da fu ": 3656,
  "nan bei ": 3657,
  "hu yu ": 3658,
  "zi li ": 3659,
  "xin hao ": 3660,
  "fang wen ": 3661,
  "qi zi ": 3662,
  " 7 yue ": 3663,
  "chu ji ": 3664,
  "yong yi ": 3665,
  "tian qi ": 3666,
  "jie shu hou ": 3667,
  " wei fu qi yu ": 3668,
  "ma ke ": 3669,
  " ren men ": 3670,
  "cheng yu ": 3671,
  "heng li ": 3672,
  "gong yu ": 3673,
  "per": 3674,
  "di ji ": 3675,
  "zhuang jia ": 3676,
  "xin yi ": 3677,
  "xian hou ": 3678,
  "U ": 3679,
  " sa ": 3680,
  "gan ran": 3681,
  " wo men ": 3682,
  " deng": 3683,
  "2014 nian ": 3684,
  "ci wei ": 3685,
  "mo er ": 3686,
  "zui chu ": 3687,
  "ben tu ": 3688,
  "jian he ": 3689,
  " shi qu ": 3690,
  "jin shu ": 3691,
  "zhan zhong ": 3692,
  "hou xuan ren ": 3693,
  " yin du ": 3694,
  "jia yu ": 3695,
  "xiao li ": 3696,
  " ta yi ": 3697,
  "c ": 3698,
  " zhuan": 3699,
  "zhu ming ": 3700,
  "jie you ": 3701,
  "guang fan ": 3702,
  " 2022 nian ": 3703,
  " 12 yue ": 3704,
  "zhou fu ": 3705,
  "pin pai ": 3706,
  "gou cheng ": 3707,
  " zhi neng ": 3708,
  "8 ren ": 3709,
  "ni ke ": 3710,
  "zhu ming de ": 3711,
  "she yu ": 3712,
  "zhong li ": 3713,
  "shang ren ": 3714,
  "xia lai ": 3715,
  " an": 3716,
  "he zuo ": 3717,
  "xue hui ": 3718,
  " yi da li ": 3719,
  "mou xie ": 3720,
  " ji tuan": 3721,
  "chu zhan ": 3722,
  " 21 ": 3723,
  "shui ping ": 3724,
  " 11 yue ": 3725,
  "ling wai ": 3726,
  " de yi zhi ": 3727,
  " nian du ": 3728,
  " zai zhong guo ": 3729,
  "yin de ": 3730,
  "bu tong de ": 3731,
  " de shi qu wei ": 3732,
  " bing yi ": 3733,
  "   2024 nian ": 3734,
  "cheng zhi ": 3735,
  "jia zu ": 3736,
  "jiang su ": 3737,
  "indow": 3738,
  "zao yu ": 3739,
  "zhu bu ": 3740,
  "   de shi ": 3741,
  "sa er ": 3742,
  " zhong guo gong chan dang ": 3743,
  "dang shi de ": 3744,
  "pai chu ": 3745,
  "33": 3746,
  "er yi ": 3747,
  "bu dui ": 3748,
  " di qu": 3749,
  " jia shang ": 3750,
  "46": 3751,
  "   er ": 3752,
  "shan da ": 3753,
  "ke si ": 3754,
  "xu qiu ": 3755,
  " hans ": 3756,
  "te shu ": 3757,
  " tw ": 3758,
  "   in": 3759,
  "nan yi ": 3760,
  "jie rang ": 3761,
  "bo si ": 3762,
  "suo de ": 3763,
  "xiang si ": 3764,
  "shan de ": 3765,
  "mei ge ": 3766,
  "da cheng ": 3767,
  "ao da li ya ": 3768,
  "00 nian ": 3769,
  "biao mian ": 3770,
  "   qing ": 3771,
  "lv wei ": 3772,
  " xian zai ": 3773,
  " rang ": 3774,
  "xie ren ": 3775,
  " bu fen": 3776,
  "ban gong ": 3777,
  "rao": 3778,
  "jun gong ": 3779,
  "bei zhi ": 3780,
  "2015 nian ": 3781,
  "18 nian ": 3782,
  "si ke ": 3783,
  "chang he ": 3784,
  "jie gou": 3785,
  "chang pian ": 3786,
  " ji guan ": 3787,
  "she hui zhu yi ": 3788,
  "sui dao ": 3789,
  "ying wen ": 3790,
  " dan ta ": 3791,
  "zhu you ": 3792,
  "zhuang zhi ": 3793,
  "que fa ": 3794,
  "jing yan ": 3795,
  "yin su ": 3796,
  "jian zai ": 3797,
  "22 ": 3798,
  " xi bao ": 3799,
  "ll": 3800,
  " yu ren ": 3801,
  "fa chu ": 3802,
  "ling tu ": 3803,
  " xun ": 3804,
  "ping fang gong li ": 3805,
  "wa er ": 3806,
  "／": 3807,
  "16 ": 3808,
  " pa": 3809,
  " ji ren ": 3810,
  "   yuan ": 3811,
  "ti shi ": 3812,
  "lu zhi ": 3813,
  " ren lei ": 3814,
  "tu zhong ": 3815,
  "kong zhong ": 3816,
  "wei zhi ": 3817,
  "jue se": 3818,
  "80 ": 3819,
  "ber": 3820,
  "jiang de ": 3821,
  "sha si ": 3822,
  "ti yi ": 3823,
  "min jian ": 3824,
  " hou lai": 3825,
  " e luo si ": 3826,
  "ci yi ": 3827,
  "hua he ": 3828,
  "yong shi ": 3829,
  "geng jia ": 3830,
  " bian": 3832,
  "2017 nian ": 3833,
  " ji cheng ": 3834,
  "   yu shi de ren kou shu liang wei ren ": 3835,
  "   suo shu de sheng ji xuan qu wei ": 3836,
  "10 nian ": 3837,
  "ti sheng ": 3838,
  "   de you zheng bian ma wei ": 3839,
  "   yu jie rang de shi zhen ": 3840,
  "   de shi qu wei ": 3841,
  " zai da ": 3842,
  "23 ": 3843,
  "le shi ": 3844,
  " guo cheng ": 3845,
  "hui ying ": 3846,
  "ho": 3847,
  "kong jun ": 3848,
  "zeng zhang ": 3849,
  "xiao shuo": 3850,
  "guang gao ": 3851,
  " zhang": 3852,
  "zong bu ": 3853,
  "ke cheng ": 3854,
  "guan bi ": 3855,
  "gu wen ": 3856,
  "han shu ": 3857,
  "er yu ": 3858,
  "da yu ": 3859,
  " di da ": 3860,
  " ta ye ": 3861,
  " xiu ": 3862,
  "28 nian ": 3863,
  " que ": 3864,
  "188": 3865,
  " ji nian ": 3866,
  "te er ": 3867,
  "7 ren ": 3868,
  " shi mei guo ": 3869,
  " wei sheng ": 3870,
  "shan mai": 3871,
  "xian xing ": 3872,
  "an pai ": 3873,
  "mu qin ": 3874,
  " bing jiang ": 3875,
  "zheng fu de ": 3876,
  "wo men ": 3877,
  "chao shi ": 3878,
  "fei jian zhi ": 3879,
  " sheng huo": 3880,
  " xu duo ": 3881,
  "dai bu ": 3882,
  "quan mian ": 3883,
  "   xin ": 3884,
  "fang bu ": 3885,
  " ji you ": 3886,
  " he xi ": 3887,
  "xu ke ": 3888,
  "ge er ": 3889,
  " mi": 3890,
  "min zhu dang ": 3891,
  "zhuang shi ": 3892,
  "lang de ": 3893,
  "jia ru": 3894,
  " 6 yue ": 3895,
  "25 nian ": 3896,
  " bing you ": 3897,
  " hk ": 3898,
  " de guo jia ": 3899,
  "xing tai ": 3900,
  "che zhan": 3901,
  "yun xu ": 3902,
  "keng": 3903,
  "shou zhong ": 3904,
  "jun ji ": 3905,
  "di guo ": 3906,
  " ting ": 3907,
  "bao li ": 3908,
  "ge da ": 3909,
  " er gai ": 3910,
  "zhuan jia ": 3911,
  "gong chang ": 3912,
  "hu de ": 3913,
  "dang zhong ": 3914,
  " wang": 3915,
  "ju bu ": 3916,
  "ming ling ": 3917,
  "pei yin ": 3918,
  "dui shi ": 3919,
  "rui dian ": 3920,
  "zu cheng de ": 3921,
  " jing ji ": 3922,
  "   2010 nian ": 3923,
  "luo ke ": 3924,
  "jiu dian ": 3925,
  "wei yi ge ": 3926,
  "tu shu guan ": 3927,
  " zai mei guo ": 3928,
  "hui bei ": 3929,
  "ou yuan ": 3930,
  "nei lu ": 3931,
  "duo ren ": 3932,
  "2011 nian ": 3933,
  "13 ": 3934,
  " he er ": 3935,
  "se lie ": 3936,
  "hua zhong ": 3937,
  "55": 3938,
  " yue tai ": 3939,
  "shan shi ": 3940,
  "bing mei you ": 3941,
  "   xiang ": 3942,
  "ge zhi ": 3943,
  " ke xue ": 3944,
  " lai zi ": 3945,
  "san jiao ": 3946,
  "si xiang ": 3947,
  " qi zhong yi ": 3948,
  "jing zheng ": 3949,
  "fei jian zhi di qu ": 3950,
  " 5 yue ": 3951,
  "gong si de ": 3952,
  " hong": 3953,
  "fen li ": 3954,
  "ba wei ": 3955,
  "ming ming wei ": 3956,
  "34": 3957,
  "ma er ": 3958,
  "zhuan yi ": 3959,
  "fa dian ": 3960,
  " xi jie ": 3961,
  " na": 3962,
  "bing shi ": 3963,
  "jin pai ": 3964,
  "guo wei ": 3965,
  "lai dao ": 3966,
  "32 ": 3967,
  "fo": 3968,
  "shu xue ": 3969,
  "jiu zhi ": 3970,
  "xie shi ": 3971,
  "tan ke ": 3972,
  " you qi shi ": 3973,
  "xia jiang ": 3974,
  "   2011 nian ": 3975,
  " mao ": 3976,
  "huan ying ": 3977,
  "jiu de ": 3978,
  " yi jia ": 3979,
  " zhi shi ": 3980,
  "24 nian ": 3981,
  "sheng zhang ": 3982,
  "yan jiu yuan ": 3983,
  " di xia ": 3984,
  "ying yun ": 3985,
  "shou fu ": 3986,
  " shi jie bei ": 3987,
  " li ya": 3988,
  "hua ren ": 3989,
  "mo xi ge ": 3990,
  "fi": 3991,
  " ao": 3992,
  "jun you ": 3993,
  "deng wei ": 3994,
  "hui zhang ": 3995,
  "   jia zu ": 3996,
  "19 nian ": 3997,
  "ona": 3998,
  "5 mi ": 3999,
  "xiu gai ": 4000,
  " wei yuan hui": 4001,
  " li bu ": 4002,
  "yong lai ": 4003,
  " fa xian ": 4004,
  " ji chu ": 4005,
  "ling xian ": 4006,
  " ye you ": 4007,
  "K ": 4008,
  "que ren ": 4009,
  "ye bei ": 4010,
  "dian nao ": 4011,
  "18 ": 4012,
  "jie hun ": 4013,
  "shou zhi ": 4014,
  "dui qi ": 4015,
  "ling bu ": 4016,
  "fa an ": 4017,
  "AS": 4018,
  "   s": 4019,
  " dan you yu ": 4020,
  "au": 4021,
  " feng": 4022,
  "wen shi ": 4023,
  "cheng wei le ": 4024,
  " zheng fu ": 4025,
  "zi mu ": 4026,
  "bei er ": 4027,
  "   zh ": 4028,
  " bu tong de ": 4029,
  " di tie ": 4030,
  "shen ti ": 4031,
  " gong zuo ": 4032,
  "mao qiu ": 4033,
  "gong ju ": 4034,
  "sui ji ": 4035,
  "27 nian ": 4036,
  " min guo ": 4037,
  "liao jie ": 4038,
  "fei lv ": 4039,
  " de di er ": 4040,
  "ter ": 4041,
  "zhu ji ": 4042,
  "bo fang ": 4043,
  " shi yi ge": 4044,
  "bai se ": 4045,
  "   jie zhi ": 4046,
  "2013 nian ": 4047,
  "chu xi ": 4048,
  "shen jing ": 4049,
  " ta bei ": 4050,
  "cai qu ": 4051,
  " 4 yue ": 4052,
  " he di ": 4053,
  "is": 4054,
  "duo nian ": 4055,
  "ju zhang ": 4056,
  "21 nian ": 4057,
  "lie biao ": 4058,
  " shi yi nian ": 4059,
  " chu yu ": 4060,
  "14 nian ": 4061,
  " yi nian ": 4062,
  "chuan bo ": 4063,
  "70 ": 4064,
  "shou xi ": 4065,
  "gu de ": 4066,
  "dang yu ": 4067,
  "ze you ": 4068,
  " wei wei ": 4069,
  " ta hai ": 4070,
  "tie lu": 4071,
  "chang di ": 4072,
  "che xiao ": 4073,
  " zhong guo ren min ": 4074,
  " 30": 4075,
  "lv xing ": 4076,
  "9 ren ": 4077,
  "jiao lian ": 4078,
  "huo jian ": 4079,
  "ban fa ": 4080,
  "zhuang kuang ": 4081,
  "can jia le ": 4082,
  "ma si ": 4083,
  "zhe li ": 4084,
  "zhu zuo ": 4085,
  " 188": 4086,
  "wang qiu ": 4087,
  " kang ": 4088,
  "tong yu ": 4089,
  "che de ": 4090,
  "fu you ": 4091,
  "ma de ": 4092,
  "su wei ": 4093,
  "qiu hui ": 4094,
  "nei ge ": 4095,
  " hai": 4096,
  "liang shi ": 4097,
  " wei li ": 4098,
  "yan chang hui ": 4099,
  "ye he ": 4100,
  "zu jian ": 4101,
  "   zhong guo ": 4102,
  " er fu ": 4103,
  "   li": 4104,
  " yi jian ": 4105,
  " li ru": 4106,
  "dian qi ": 4107,
  "nie": 4108,
  "wan shang ": 4109,
  "hua yuan ": 4110,
  "liang ren ": 4111,
  " yi ju ": 4112,
  "zhan tai ": 4113,
  "zi zhu ": 4114,
  " qi lai ": 4115,
  "yue han ": 4116,
  "ju he ": 4117,
  "tai ji ": 4118,
  "hua sheng ": 4119,
  "zhao kai ": 4120,
  " wei ren ": 4121,
  "niang ": 4122,
  "sou": 4123,
  "xiang xi ": 4124,
  "chan pin": 4125,
  "shuo ming ": 4126,
  "ma lai xi ya ": 4127,
  "as": 4128,
  " zhuang ": 4129,
  "ru xuan ": 4130,
  "chan sheng de ": 4131,
  " ren min zheng fu ": 4132,
  "wu he ": 4133,
  "chu xian zai ": 4134,
  "2020 nian mei guo ren kou pu cha de shu ju ": 4135,
  "xue he ": 4136,
  " wei neng ": 4137,
  "yin du": 4138,
  " shang hai ": 4139,
  " 00 ": 4140,
  " zai xi ": 4141,
  "tong che ": 4142,
  "yao wu ": 4143,
  " 0 ": 4144,
  "xu li ya ": 4145,
  "chao de ": 4146,
  "le ta ": 4147,
  " jie mu ": 4148,
  "qin shi ": 4149,
  "75": 4150,
  " quan guo ": 4151,
  "xin ji ": 4152,
  " yi zai ": 4153,
  " you xiao ": 4154,
  "--": 4155,
  "ti zhong ": 4156,
  "or ": 4157,
  "kuo da ": 4158,
  "15 nian ": 4159,
  "xue xiao": 4160,
  "sui hou ": 4161,
  "1   ": 4162,
  " tao ": 4163,
  "suan ji ": 4164,
  "22 nian ": 4165,
  " zhi di ": 4166,
  "ze wei ": 4167,
  " li shu ": 4168,
  "si te ": 4169,
  "wang chao ": 4170,
  "3 ge ": 4171,
  " ying yu ": 4172,
  "   qian ": 4173,
  " da bu fen ": 4174,
  "gui ze ": 4175,
  "shan xi sheng ": 4176,
  "xing zhong ": 4177,
  "tian shi ": 4178,
  "ao di li ": 4179,
  "tai shi ": 4180,
  "zhou bian ": 4181,
  "ri zai ": 4182,
  "kong bu ": 4183,
  "hu bei ": 4184,
  " shi de yi ": 4185,
  "gong hui ": 4186,
  "tuo li ": 4187,
  "ming xian ": 4188,
  " you xie ": 4189,
  "shen shi ": 4190,
  "29 nian ": 4191,
  "shang hai": 4192,
  "cheng li de ": 4193,
  "shua ": 4194,
  " fu jin ": 4195,
  "tong bu ": 4196,
  "chang yu ": 4197,
  "da bu fen ": 4198,
  " zhong de ": 4199,
  "da lu de ": 4200,
  "te se ": 4201,
  " gong cheng ": 4202,
  " qian": 4203,
  "wu yue ": 4204,
  "xing xiang ": 4205,
  "she ji de ": 4206,
  "lao dong ": 4207,
  "kao lv ": 4208,
  " co": 4209,
  "ge lan": 4210,
  "zhuang de ": 4211,
  "xing qu ": 4212,
  "cu jin ": 4213,
  "11 nian ": 4214,
  " yi tong ": 4215,
  "G ": 4216,
  " zhi du ": 4217,
  "nan shi ": 4218,
  " er bu ": 4219,
  " xi la ": 4220,
  " xing dong ": 4221,
  " li shi shang ": 4222,
  "jin bu ": 4223,
  "ding yu ": 4224,
  "zhu chang ": 4225,
  " liang ren ": 4226,
  "da he ": 4227,
  "lv de ": 4228,
  "long de ": 4229,
  " ji hui ": 4230,
  " 20": 4231,
  "jiao xue ": 4232,
  " ming chao zheng zhi ren wu ": 4233,
  "dai biao da hui ": 4234,
  "cao zuo ": 4235,
  " C ": 4236,
  "bao shi ": 4237,
  "2009 nian ": 4238,
  "14 ": 4239,
  " ji er ": 4240,
  "ping wei ": 4241,
  " zhe jiang ": 4242,
  "xia ji ao lin pi ke yun dong hui ": 4243,
  "pu bian ": 4244,
  "35 ": 4245,
  "gong zhi ": 4246,
  "187": 4247,
  "yuan gong ": 4248,
  "IN": 4249,
  "a   ": 4250,
  "ceng yu ": 4251,
  "2   ": 4252,
  "ri de ": 4253,
  "an quan": 4254,
  "chang zai ": 4255,
  "der": 4256,
  "zhuan xiang ": 4257,
  "ur": 4258,
  "jie ren ": 4259,
  "wu zhuang ": 4260,
  "chang pian": 4261,
  " dai biao ": 4262,
  "13 nian ": 4263,
  "wen xian ": 4264,
  "piao fang ": 4265,
  " yu le ": 4266,
  "ying gai ": 4267,
  "65": 4268,
  "fei zhou ": 4269,
  "jiu long ": 4270,
  "hong se ": 4271,
  " 3 yue ": 4272,
  "   xiao ": 4273,
  "lian ren ": 4274,
  "sa si ": 4275,
  "dao zhong ": 4276,
  "ci zai ": 4277,
  " shi tu ": 4278,
  "kou wei ": 4279,
  " fu jian ": 4280,
  "luo ji ": 4281,
  "yuan xing ": 4282,
  "dong fang ": 4283,
  "wu tai ": 4284,
  "zhu zhang ": 4285,
  "zheng he ": 4286,
  "23 nian ": 4287,
  " xi ju ": 4288,
  "fen bu yu ": 4289,
  "zui hou": 4290,
  "shou yi ": 4291,
  "bi sai": 4292,
  " 2023 nian ": 4293,
  "jie shao ": 4294,
  "la ji ": 4295,
  "tong dao ": 4296,
  "zhao dao ": 4297,
  "no": 4298,
  "mei guo de ": 4299,
  "   guo ": 4300,
  " bu ke ": 4301,
  "ling dao ren ": 4302,
  "yun dong": 4303,
  "cai liao ": 4304,
  "44": 4305,
  "ac": 4306,
  "ec": 4307,
  "gi": 4308,
  "sui shi ": 4309,
  " nv xing ": 4310,
  "   cong ": 4311,
  "qi zhong yi zhong ": 4312,
  " yao qiu ": 4313,
  "gun ": 4314,
  "zhe zai ": 4315,
  "jing cha": 4316,
  " wei lai ": 4317,
  " qiao ": 4318,
  "si ling ": 4319,
  "chu lai ": 4320,
  " s   ": 4321,
  " li mi ": 4322,
  "ling di ": 4323,
  "2007 nian ": 4324,
  " shi wei le ": 4325,
  " de zhi wu ": 4326,
  "   zao nian ": 4327,
  "wei   ": 4328,
  "17 nian ": 4329,
  "hun yin ": 4330,
  "ming xing ": 4331,
  " sun": 4332,
  " wei xing ": 4333,
  " xi ya": 4334,
  "dong bei bu ": 4335,
  "ti dao ": 4336,
  "qian wang": 4337,
  "fa xian le ": 4338,
  "ti zhi ": 4339,
  "bian shi ": 4340,
  "chu kou ": 4341,
  "dian hua ": 4342,
  " 2001 nian ren kou ": 4343,
  "ub": 4344,
  "jin you ": 4345,
  " wei he ": 4346,
  "dong nan bu ": 4347,
  "hu bu ": 4348,
  " wei hui ": 4349,
  " 2004 nian ": 4350,
  "hua ji ": 4351,
  "xu zai ": 4352,
  "fei chu ": 4353,
  " zhe xie": 4354,
  "huo zhe ": 4355,
  "bao zhi ": 4356,
  "liu zai ": 4357,
  " fa xing ": 4358,
  " ka": 4359,
  "ge he ": 4360,
  " xi bu ": 4361,
  "   2008 nian ": 4362,
  " pan ": 4363,
  "yin di ": 4364,
  "da chen ": 4366,
  "si ge ": 4367,
  "chi you ": 4368,
  "wan de ": 4369,
  "   i": 4370,
  "ke you ": 4371,
  " ren shu ": 4372,
  " xing qi ": 4373,
  " hao": 4374,
  " zhi zi ": 4375,
  " ri yu ": 4376,
  "ruan jian ": 4377,
  "fang wu ": 4378,
  "dui zhang ": 4379,
  "geng duo ": 4380,
  "   In": 4381,
  " bu men ": 4382,
  "zheng chang ": 4383,
  "90 ": 4384,
  "mei de ": 4385,
  " yi ban": 4386,
  " wei wu ": 4387,
  "jie mu": 4388,
  "zhu jue ": 4389,
  "yong zuo ": 4390,
  "liang nian ": 4391,
  "tui jin ": 4392,
  "f ": 4393,
  " guan yu ": 4394,
  "26 nian ": 4395,
  "jun qu ": 4396,
  "ben di ": 4397,
  "tai zi ": 4398,
  "dou hui ": 4399,
  "ST ": 4400,
  "ye hui ": 4401,
  "tong yang ": 4402,
  "186": 4403,
  "guo ji ji ": 4404,
  "gao su gong lu ": 4405,
  "suo zai ": 4406,
  "bian xing ": 4407,
  "jue shi ": 4408,
  " han guo ": 4409,
  "ta yu ": 4410,
  "45 ": 4411,
  "xian jin ": 4412,
  "ya li shan da ": 4413,
  " lu": 4414,
  "jiao you ": 4415,
  "beng ": 4416,
  " jiao yu ": 4417,
  "jiao da ": 4418,
  " er shui yu mian ji wei 0": 4419,
  "・": 4420,
  "×": 4421,
  "qing bao ": 4422,
  "bao yu ": 4423,
  "gui de ": 4424,
  "dai wei ": 4425,
  "2025 nian ": 4426,
  "nei you ": 4427,
  "16 nian ": 4428,
  "ri jun ": 4429,
  "   2025 nian ": 4430,
  "tai ren ": 4431,
  "dui xiang ": 4432,
  "jing yu ": 4433,
  "tuan de ": 4434,
  "xia you ": 4435,
  "deng shang ": 4436,
  "xiang yi ": 4437,
  "hai wai ": 4438,
  " da cheng ": 4439,
  "an hui ": 4440,
  "dui wai ": 4441,
  "zhou qi ": 4442,
  "zhang ai ": 4443,
  "zuo qu ": 4444,
  "1 yue 1 ri ": 4445,
  "po huai": 4446,
  "fu zai ": 4447,
  " da liang ": 4448,
  "gou zao ": 4449,
  " biao ": 4450,
  " cao ": 4451,
  " zao cheng ": 4452,
  "xiao qu ": 4453,
  "2000 nian ": 4454,
  "yong tu ": 4455,
  "cheng nian ": 4456,
  " er gai di ": 4457,
  " xi tong": 4458,
  "jun yu ": 4459,
  "la he ": 4460,
  "yan shen ": 4461,
  "qiang de ": 4462,
  "gai shan ": 4463,
  "ling xiu ": 4464,
  "jia you ": 4465,
  "ao yun hui ": 4466,
  "gao jia ": 4467,
  " zhi ding ": 4468,
  " he ping ": 4469,
  "   2009 nian ": 4470,
  "san ji ": 4471,
  "xi nan ": 4472,
  " mai": 4473,
  "chang you ": 4474,
  "fa shou ": 4475,
  "hai xia ": 4476,
  " de shi jie ": 4477,
  " nai": 4478,
  "biao de ": 4479,
  "4 ge ": 4480,
  " xian ren ": 4481,
  "mei li ": 4482,
  " yi du ": 4483,
  "que zhen bing li ": 4484,
  "dun de ": 4485,
  " sui zhe ": 4486,
  " tui ": 4487,
  " yue nan ": 4488,
  "zheng ti ": 4490,
  "le da ": 4491,
  " jia na da ": 4492,
  "mi mi ": 4493,
  "ge lun ": 4494,
  "guan shi ": 4495,
  "shu ru ": 4496,
  "zeng zu ": 4497,
  " yin er ": 4498,
  "le ta de ": 4499,
  "xia xia de yi ge ": 4500,
  "   and   ": 4501,
  "yun shi ": 4502,
  "sui zhu ": 4503,
  "shou lu ": 4504,
  "yun zuo ": 4505,
  "jue yi ": 4506,
  " zai jia ": 4507,
  "can mou": 4508,
  "sen lin ": 4509,
  " qi": 4510,
  "gun": 4511,
  "long jiang ": 4512,
  " 7 ": 4513,
  "ju yi ": 4514,
  " yu he ": 4515,
  " sheng yu ": 4516,
  " zai 19": 4517,
  "yin he ": 4518,
  "ban shi chu ": 4519,
  "fei li ": 4520,
  "wu si ": 4521,
  " er yan ": 4522,
  "dong zuo ": 4523,
  "shu yuan ": 4524,
  "xiang zheng ": 4525,
  " shao ": 4526,
  "bei shi wei ": 4527,
  "zhan zhi ": 4528,
  "zuo ren ": 4529,
  "chu dao ": 4530,
  "liang ci ": 4531,
  "shan qu ": 4532,
  " 2002 nian ": 4533,
  " zu": 4534,
  "kang ri ": 4535,
  "kai zhan ": 4536,
  "68": 4537,
  "AT": 4538,
  "jun guan ": 4540,
  " zhong": 4541,
  "jiang hui ": 4542,
  "shou ren ": 4543,
  "du he ": 4544,
  "de   ": 4545,
  "suo shi ": 4546,
  "shou zhang ": 4547,
  " shi wu ke ": 4548,
  " zhong zai ": 4549,
  "hui yuan ": 4550,
  "deng de ": 4551,
  "ren da ": 4552,
  " dong lin ": 4553,
  " nan zhi ": 4554,
  " po": 4555,
  "bin hai ": 4556,
  " wei ke ": 4557,
  "gu li ": 4558,
  " she ji ": 4559,
  "xia ling": 4560,
  "xiu fu ": 4561,
  "17 ": 4562,
  "chuang jian ": 4563,
  "zhou ji ": 4564,
  "zhuang bei ": 4565,
  "dai lai ": 4566,
  "an da ": 4567,
  "chuan zhi ": 4568,
  "an zhuang ": 4569,
  "fan zui ": 4570,
  " bao han ": 4571,
  " cha ": 4572,
  " qi zi ": 4573,
  "bi mian ": 4574,
  "cai zheng ": 4575,
  "wi": 4576,
  "hou shi ": 4577,
  "dian che ": 4578,
  "1 li ": 4579,
  "   si ": 4580,
  "ya ke ": 4581,
  " yu 198": 4582,
  "the": 4583,
  "liu de ": 4584,
  "ju qing ": 4585,
  "zui gao": 4586,
  "jing xuan ": 4587,
  "wan gong ": 4588,
  " mei nian ": 4589,
  " pei": 4590,
  "zhe bu ": 4591,
  "ka luo ": 4592,
  "tu xing ": 4593,
  "2006 nian ": 4594,
  "qin zi ": 4595,
  "50 nian ": 4596,
  "％": 4597,
  "xiang hu ": 4598,
  " qi zai ": 4599,
  "mian shi ": 4600,
  "wu ke lan": 4601,
  "shang yu ": 4602,
  "bing de ": 4603,
  "wai jiao bu ": 4604,
  "H ": 4605,
  " lie ": 4606,
  "si yi ": 4607,
  "fa xing de ": 4608,
  " you ke ": 4609,
  "geng wei ": 4610,
  " er tong ": 4611,
  "bao shou ": 4612,
  "chuan shuo ": 4613,
  "jia zai ": 4614,
  "zhou nian ": 4615,
  " yi mei yuan ": 4616,
  "tai feng ": 4617,
  " si ling ": 4618,
  "zhang guan ": 4619,
  "ce liang ": 4620,
  " zheng zhi ": 4621,
  "hou bei ": 4622,
  "hu nan ": 4623,
  " jian yu ": 4624,
  "chai": 4625,
  "hui zhong ": 4626,
  "fu wei ": 4627,
  "ban li ": 4628,
  "fang mian de ": 4629,
  "bing ru ": 4630,
  "chai chu ": 4631,
  "─": 4632,
  "   dang ": 4633,
  "gong zhu ": 4634,
  " qi xiang ": 4635,
  "ding ju ": 4636,
  "fan wei nei ": 4637,
  "jin wei ": 4638,
  "liang ji ": 4639,
  "guan cha ": 4640,
  " kuan ": 4641,
  "guo wang ": 4642,
  "sheng yin ": 4643,
  "kai tong ": 4644,
  "fei de ": 4645,
  " you bu ": 4646,
  "jun zhu ": 4647,
  "qing chu ": 4648,
  "que de ": 4649,
  "jian jie ": 4650,
  " dong bei ": 4651,
  "zhou yi ": 4652,
  "ying ye ": 4653,
  " sheng huo xi ": 4654,
  "ru qin ": 4655,
  "tou lu ": 4656,
  "ai ji ": 4657,
  "ren li ": 4658,
  "yan xi ": 4659,
  "can yi yuan ": 4660,
  "pian de ": 4661,
  "meng de ": 4662,
  " shi da ": 4663,
  " quan": 4664,
  "hua he wu ": 4665,
  "zhan qi jian ": 4666,
  "gou mai ": 4667,
  " she hui ": 4668,
  " heng ": 4669,
  " di wu ": 4670,
  " er cheng ": 4671,
  "ke yi zai ": 4672,
  "pi fu ": 4673,
  "wai bu ": 4674,
  " zai du ": 4675,
  " yue tuan ": 4676,
  "zhu yao de ": 4677,
  "xing bu ming ": 4678,
  " dou": 4679,
  "ke zhi ": 4680,
  "dui you ": 4681,
  "   c": 4682,
  "ming ren ": 4683,
  "lei da ": 4684,
  "jiang ji ": 4685,
  "zu zhi de ": 4686,
  "du li de ": 4687,
  "zhuan de ": 4688,
  " she you ": 4689,
  "ma la ": 4690,
  "xi ju ": 4691,
  "xin yang ": 4692,
  "OS": 4693,
  "jie san ": 4694,
  "64": 4695,
  " er zi ": 4696,
  "huo shan ": 4697,
  " 187": 4698,
  " sheng huo xi xing bu ming ": 4699,
  "chang zhi ": 4700,
  " 2003 nian ": 4701,
  "er yue ": 4702,
  " qi xia ": 4703,
  "jiang ling ": 4704,
  "fang yan ": 4705,
  "liang xiang ": 4706,
  "run": 4707,
  "tong pai ": 4708,
  "xin xing ": 4709,
  "suo shu ": 4710,
  "er zhi ": 4711,
  "xiu jian ": 4712,
  " cheng li ": 4713,
  "lu ji ": 4714,
  "gui zu ": 4715,
  "guan jian ": 4716,
  " ju xing ": 4717,
  "AM": 4718,
  "   bei jing ": 4719,
  "tai bei shi ": 4720,
  "58": 4721,
  "xun yang ": 4722,
  " mei ge ": 4723,
  "jia li fu ": 4724,
  "liang zhi ": 4725,
  "jiu du ": 4726,
  "   ming ": 4727,
  " yi hou ": 4728,
  " si wang ": 4729,
  "ame": 4730,
  "jing zhong ": 4731,
  "cheng ben ": 4732,
  "ke neng shi ": 4733,
  " xuan bu ": 4734,
  "cheng he ": 4735,
  "ying xiong ": 4736,
  "   ci wai ": 4737,
  "99": 4738,
  "op": 4739,
  " dian ying ": 4740,
  "jing fang ": 4741,
  "2 ge ": 4742,
  " se": 4743,
  "kong qi ": 4744,
  " yue zhong ": 4745,
  "zhu yi de ": 4746,
  "bai ren ": 4747,
  "lun wen ": 4748,
  " ping fang mi ": 4749,
  " zhong guo da lu ": 4750,
  "shang bu ": 4751,
  " zai ci": 4752,
  "zhe xie": 4753,
  "xiang guan de ": 4754,
  "fu jin de ": 4755,
  "fa hui ": 4756,
  "kao gu ": 4757,
  " re": 4758,
  "xin jia po ": 4759,
  "qu le ": 4760,
  " 2000 nian ": 4761,
  " can jia ": 4762,
  "yu yan ": 4763,
  "zhong dian ": 4764,
  " niu": 4765,
  "chu bu ": 4766,
  "qu ji ": 4767,
  " sha": 4768,
  " 8 ": 4769,
  "bao zhang ": 4770,
  " 186": 4771,
  " gong you ": 4772,
  "   a ": 4773,
  "man de ": 4774,
  " shi shi jie ": 4775,
  "qian ren ": 4776,
  "mo si ke ": 4777,
  "ge ming": 4778,
  "zhan ting ": 4779,
  "tai du ": 4780,
  "   ju qing ": 4781,
  " ke er ": 4782,
  " bi ru ": 4783,
  "huan zhe ": 4784,
  "kao jin ": 4785,
  "shou gou ": 4786,
  "48 ": 4787,
  "gao da ": 4788,
  "zong shi ": 4789,
  "   Ma": 4790,
  "cheng ke ": 4791,
  "zuo zhe ": 4792,
  " shi ji shang ": 4793,
  " yong you ": 4794,
  "yun nan ": 4795,
  " zhong shi ": 4796,
  "chu yan ": 4797,
  "guang dong sheng ": 4798,
  "l   ": 4799,
  "zhe wei ": 4800,
  " dong": 4801,
  "2005 nian ": 4802,
  "yin qing ": 4803,
  " si chuan ": 4804,
  "weng ": 4805,
  "   ben": 4806,
  "hua yi ": 4807,
  " shi ri ben ": 4808,
  " wei ci ": 4809,
  "AR": 4810,
  " guo cheng zhong ": 4811,
  "   2007 nian ": 4812,
  " di": 4813,
  "dang nian ": 4814,
  "fa lv": 4815,
  "chang jian de ": 4816,
  "tao tai ": 4817,
  " ci nian ": 4818,
  "yuan ze ": 4819,
  "quan zhang ": 4820,
  "shuang fang ": 4821,
  "yang ji ": 4822,
  " te bie shi ": 4823,
  " yong yu ": 4824,
  "fang yi ": 4825,
  "cheng bao ": 4826,
  "lao de ": 4827,
  " ji fu ": 4828,
  "you xian ": 4829,
  "tic": 4830,
  "qu yi hui ": 4831,
  "2004 nian ": 4832,
  "chui ": 4833,
  "dai shi ": 4834,
  "sheng chu ": 4835,
  "lian zai ": 4836,
  "xiu zheng ": 4837,
  " di shi ": 4838,
  "sheng tai ": 4839,
  "zhou ci shi ": 4840,
  "kai she ": 4841,
  "hu wei ": 4842,
  "gan bu ": 4843,
  " qi xi ": 4844,
  "huo xing ": 4845,
  " shi de guo ": 4846,
  "jue dui ": 4847,
  "19 ": 4848,
  "tiao li ": 4849,
  "hua zhi ": 4850,
  "shen me": 4851,
  "cuo wu ": 4852,
  "feng wei ": 4853,
  "shou xiang ": 4854,
  " jia ting ": 4855,
  "bian ju ": 4856,
  " chu sheng yu ": 4857,
  "shi   ": 4858,
  " duan ": 4859,
  "fa lan xi ": 4860,
  "   di fang ": 4861,
  " guo hui ": 4862,
  "ban bu ": 4863,
  " gong tong ": 4864,
  "fa guan ": 4865,
  "mei shu ": 4866,
  " bing du ": 4867,
  "   qi ta ": 4868,
  "ling ren ": 4869,
  "hao shi ": 4870,
  "neng liang ": 4871,
  " yi xiao shi ": 4872,
  " you ci ": 4873,
  "   mei guo ": 4874,
  "yao qiu": 4875,
  "deng deng ": 4876,
  "tou piao": 4877,
  "zhou zhi ": 4878,
  "qing qiu ": 4879,
  "ee": 4880,
  " bo": 4881,
  "shu li ": 4882,
  "lu ying ": 4883,
  "duo wei ": 4884,
  "zui you ": 4885,
  "bai de ": 4886,
  "chu zhi ": 4887,
  "2001 nian ": 4888,
  "qing hua ": 4889,
  "gu fen": 4890,
  "dang di de ": 4891,
  " kai": 4892,
  "   di er ": 4893,
  "si zhi ": 4894,
  "xian sheng ": 4895,
  " wu fa ": 4896,
  "67": 4897,
  " can yu ": 4898,
  "ke de qi zhong yi zhong ": 4899,
  " wu ke lan ": 4900,
  "hui bu ": 4901,
  "run ": 4902,
  "zhi de shi ": 4903,
  "han you ": 4904,
  "he xin ": 4905,
  "kai fa": 4906,
  "Window": 4907,
  " yi dai ": 4908,
  "lu ke ": 4909,
  " jie shou ": 4910,
  "qiang diao ": 4911,
  " zhong hua ren min gong he guo zheng zhi ren wu ": 4912,
  "bei wei ": 4913,
  "lao shi ": 4914,
  " 2024 nian ": 4915,
  "dang wei ": 4916,
  " ju you ": 4917,
  "xiang he ": 4918,
  "hen da ": 4919,
  " ren ming ": 4920,
  "xi la ": 4921,
  "gai cheng ": 4922,
  "suo chu de ": 4923,
  " A ": 4924,
  "dao bu ": 4925,
  "qing xing ": 4926,
  " xue xiao ": 4927,
  "cui hui ": 4928,
  "can kao ": 4929,
  "ve ": 4930,
  "en sheng ": 4931,
  "xia wei ": 4932,
  "zhuang ji ": 4933,
  " zai 198": 4934,
  "gong ying ": 4935,
  "ya jun ": 4936,
  "tong meng ": 4937,
  "mu qin": 4938,
  "hong zha": 4939,
  "te ding ": 4940,
  "b ": 4941,
  " su": 4942,
  "   dan ": 4943,
  "xiang wei ": 4944,
  "hen kuai ": 4945,
  "lai shi ": 4946,
  "tian jing ": 4947,
  "dang ju ": 4948,
  "TV": 4949,
  "xiang you ": 4950,
  "suo zhi ": 4951,
  "huan xing ": 4952,
  "II": 4953,
  "   nian": 4954,
  "zheng wei ": 4955,
  "wu zi ": 4956,
  "bei ren ming wei ": 4957,
  "In": 4958,
  "yuan zhong ": 4959,
  "zui gao de ": 4960,
  "ni ya zhou ": 4961,
  " reng": 4962,
  " mai ke ": 4963,
  "huan de ": 4964,
  "yin li ": 4965,
  "xia qu ": 4966,
  "xie dao ": 4967,
  "le yu ": 4968,
  "ya yi ": 4969,
  " ji bu ": 4970,
  " he lan ": 4971,
  "shang hai shi ": 4972,
  "la ding ": 4973,
  "ti yu chang ": 4974,
  "xie er ": 4975,
  "huo ban ": 4976,
  "1 hao ": 4977,
  "sheng you ": 4978,
  " ye jiu shi ": 4979,
  " cha": 4980,
  "han yu ": 4981,
  " da duo ": 4982,
  "a la bo ": 4983,
  "kun nan ": 4984,
  " da xing ": 4985,
  "yin ru ": 4986,
  " jie ke ": 4987,
  "jiang zai ": 4988,
  "tai zhong ": 4989,
  "ren yuan ": 4990,
  "zhan xian ": 4991,
  "CO": 4992,
  "gai shi ": 4993,
  "sui de ": 4994,
  " he zhong ": 4995,
  "e   ": 4996,
  "ke xue yuan ": 4997,
  "so": 4998,
  "jing zhi ": 4999,
  "tan de ": 5000,
  "shun li ": 5001,
  " yi zuo ": 5002,
  " he xin ": 5003,
  "ti gong le ": 5004,
  "hei se ": 5005,
  "fen bu zai ": 5006,
  "le qi ": 5007,
  "lay": 5008,
  " yu 19": 5009,
  "xi bao ": 5010,
  "wang yuan ": 5011,
  "cheng guo ": 5012,
  "xiao yuan ": 5013,
  "zhao pian ": 5014,
  " xiang nian ": 5015,
  "ki": 5016,
  "jun zhi ": 5017,
  "suo wei ": 5018,
  " da fu ": 5019,
  "qiang lie ": 5020,
  " xi ban ya ": 5021,
  " ping jun ": 5022,
  "man zu ": 5023,
  " sui zhu ": 5024,
  "neng zai ": 5025,
  "da hui ": 5026,
  "hai yang ": 5027,
  "pai hang ": 5028,
  "zu yi ": 5029,
  " ji nian": 5030,
  "IS": 5031,
  "sta": 5032,
  "hou wei ": 5033,
  " xi er ": 5034,
  " zeng ": 5035,
  "jiang zhi ": 5036,
  "xiang xin ": 5037,
  "chu zai ": 5038,
  "chuan de ": 5039,
  " yi fu ": 5040,
  " bu jin ": 5041,
  "bei jing shi ": 5042,
  "zhong guo da lu de ": 5043,
  "gan ran zhe ": 5044,
  "jia wei ": 5045,
  "hai ping mian ": 5046,
  "ya mei ": 5047,
  "huang hou ": 5048,
  " ta ceng dai biao ": 5049,
  "jing he ": 5050,
  "jiu hui ": 5051,
  "   yin ": 5052,
  "pai ming di ": 5053,
  " dui": 5054,
  "lai yue ": 5055,
  "zui wei ": 5056,
  " ri jun ": 5057,
  " 25": 5058,
  "li yu ": 5059,
  "tu po ": 5060,
  "ci shi jie da zhan ": 5061,
  "ben shen ": 5062,
  "gu dai ": 5063,
  " chu xian ": 5064,
  "59": 5065,
  " kan ": 5066,
  "zhou li ": 5067,
  "ren lei ": 5068,
  "shang chang ": 5069,
  "ru qin": 5070,
  " meng": 5071,
  "dang yuan ": 5072,
  " zu fu ": 5073,
  "57": 5074,
  " qi shi ": 5075,
  "ta wei ": 5076,
  "jing yi ": 5077,
  "gei le ": 5078,
  " shi ge ": 5079,
  "wu dao ": 5080,
  " tong shi gai di ": 5081,
  "zhu zhi ": 5082,
  "zhang wei ": 5083,
  "te xing ": 5084,
  " shi yong": 5085,
  "huan cheng ": 5086,
  " de ji chu ": 5087,
  " xiao": 5088,
  " qing": 5089,
  "bian hao ": 5090,
  " tai wan": 5091,
  " ji du ": 5092,
  "liang guo ": 5093,
  "zu qiu yun dong yuan ": 5094,
  " guang dong ": 5095,
  "bo shi xue wei ": 5096,
  "tong wei ": 5097,
  "qiang zhi ": 5098,
  "chuang ban ": 5099,
  "nong min ": 5100,
  "nei lu sheng fen ": 5101,
  " a er ": 5102,
  "jiao zhi ": 5103,
  "ding qi ": 5104,
  " yin qi ": 5105,
  "   1 ": 5106,
  "cheng shi de ": 5107,
  "da jiang ": 5108,
  " ku ": 5109,
  "chu you ": 5110,
  "ke fu ": 5111,
  "tan pan ": 5112,
  "jiu yi ": 5113,
  "bang de ": 5114,
  " zhong zi ": 5115,
  "chu shou ": 5116,
  "xun zhang ": 5117,
  "lu xu ": 5118,
  "00 mi ": 5119,
  "xia ling shi jian ": 5120,
  "seng ": 5121,
  " cai": 5122,
  "le you ": 5123,
  "duan shi ": 5124,
  "gan ran ": 5125,
  " Z": 5126,
  "le zai ": 5127,
  "zhen ji ": 5128,
  "mo si ": 5129,
  "shang xia ": 5130,
  "fan zhi ": 5131,
  " yu di ": 5132,
  "xiang bi ": 5133,
  "ban ben": 5134,
  "43": 5135,
  "kuo zhan ": 5136,
  " liao ": 5137,
  " bu di ": 5138,
  "ju da ": 5139,
  "fang jian ": 5140,
  "zhou he ": 5141,
  "min di ": 5142,
  "tang de ": 5143,
  "wo de ": 5144,
  "kai shi shi ": 5145,
  "mi ya ": 5146,
  " mu qian": 5147,
  " xiong": 5148,
  "mu ni ": 5149,
  "tian ti ": 5150,
  "ceng wei ": 5151,
  " bu luo ": 5152,
  "jun he ": 5153,
  "gao zhi ": 5154,
  "chi ren ": 5155,
  "xi wang ": 5156,
  "wu zheng zhuang ": 5157,
  "sha hai ": 5158,
  "   jian jie ": 5159,
  " tie ": 5160,
  "mu zhi ": 5161,
  "ling yi ge ": 5162,
  "zhe xue ": 5163,
  "xuan de ": 5164,
  "xiu de ": 5165,
  "ren gong ": 5166,
  "suo you de ": 5167,
  "wei yi yi ": 5168,
  "ER": 5169,
  "ni er ": 5170,
  "dui ci ": 5171,
  "di yi wei ": 5172,
  "kai shi zai ": 5173,
  "liang ming ": 5174,
  "yuan xian ": 5175,
  " qi che ": 5176,
  "wen du ": 5177,
  " fu qin ": 5178,
  " shi yi ge wei yu ": 5179,
  "hui guo ": 5180,
  "bing yi ": 5181,
  " wei chi ": 5182,
  "lu kou ": 5183,
  "zuan": 5184,
  " p": 5185,
  "zi zhong ": 5186,
  "fei er ": 5187,
  "jiang jin ": 5188,
  "yue nan ": 5189,
  "ai er lan ": 5190,
  "56": 5191,
  "xi ya ": 5192,
  " yi si lan ": 5193,
  "   di fang zi liao ": 5194,
  " pu": 5195,
  "dian he ": 5196,
  "rong he ": 5197,
  "qu zhi ": 5198,
  "DT ": 5199,
  "   zeng zu ": 5200,
  "ye ji ": 5201,
  "feng fu ": 5202,
  "nan fang ": 5203,
  "chang jian ": 5204,
  "bei yu ": 5205,
  "xue yu ": 5206,
  "ye yi ": 5207,
  "ping de ": 5208,
  "zhen yu ": 5209,
  " guo qu ": 5210,
  "78": 5211,
  " wen hua ": 5212,
  "ba he ": 5213,
  "nuo fu ": 5214,
  "ao zhou ": 5215,
  " wan jia ": 5216,
  "oun": 5217,
  "   17": 5218,
  "shen du ": 5219,
  "gong cheng shi ": 5220,
  "tong ming ": 5221,
  "yin pai ": 5222,
  " ruo ": 5223,
  "san jia ": 5224,
  "tian fu ": 5225,
  "pei zhi ": 5226,
  "zhan lan ": 5227,
  "chang suo ": 5228,
  " nian wei ": 5229,
  " bu duan ": 5230,
  "jie ti ": 5231,
  "shan feng ": 5232,
  "zai li ": 5233,
  "nv zhu ": 5234,
  " ren qi ": 5235,
  "da xi yang ": 5236,
  " xian hou ": 5237,
  "guan li ju ": 5238,
  "wan li ": 5239,
  "yang xing ": 5240,
  " jia zu ": 5241,
  " wa ": 5242,
  "xian li ": 5243,
  "hai ba wei ": 5244,
  "le zhong ": 5245,
  "ya he ": 5246,
  "xiao fang ": 5247,
  "na cui": 5248,
  " huo zhe ": 5249,
  "z ": 5250,
  "jie zhong ": 5251,
  "ti wei ": 5252,
  "liang da ": 5253,
  "gai zao ": 5254,
  "dong shi zhang ": 5255,
  "   zheng ": 5256,
  "zou xiang ": 5257,
  " ji hou ": 5258,
  "ge ju ": 5259,
  " ke xi ": 5260,
  "zhu wei ": 5261,
  "ri yu ": 5262,
  "NB": 5263,
  "ding shi ": 5264,
  " zai you ": 5265,
  "suo cai yong": 5266,
  "42 ": 5267,
  " xu": 5268,
  " 1949 nian ": 5269,
  " shi yi bu ": 5270,
  "69": 5271,
  " da duo shu ": 5272,
  " 1998 nian ": 5273,
  "jian kang ": 5274,
  "chuang zao ": 5275,
  "jun ren ": 5276,
  "da lou ": 5277,
  " bu er ": 5278,
  "gao xiong": 5279,
  "che xiang ": 5280,
  "gu ding ": 5281,
  "neng yuan ": 5282,
  " cheng gong ": 5283,
  "jie li ": 5284,
  "qian ding ": 5285,
  "   jing ": 5286,
  "wen zhong ": 5287,
  " you zhong ": 5288,
  "yan se ": 5289,
  "zhi shi qi ": 5290,
  "shang sheng ": 5291,
  "bo lin ": 5292,
  "qin wang ": 5293,
  "zei": 5294,
  " te": 5295,
  " zhi yi ": 5296,
  "jun zhong ": 5297,
  "han de ": 5298,
  "zhan lve": 5299,
  "meng gu": 5300,
  "   jie ": 5301,
  "san wei ": 5302,
  "man di ": 5303,
  " guo nei ": 5304,
  "   2 ": 5305,
  "tai he ": 5306,
  "lun shi ": 5307,
  " bing wei ": 5308,
  " Ma": 5309,
  "er tong ": 5310,
  "xia ling ": 5311,
  "mu qian": 5312,
  " 1999 nian ": 5313,
  "33 ": 5314,
  "dao wei ": 5315,
  "ming zhong ": 5316,
  "zheng xie": 5317,
  " wei yu gai ": 5318,
  "xiao fei ": 5319,
  "fei er de ": 5320,
  " song": 5321,
  " yin yue ": 5322,
  "hui yi yuan ": 5323,
  "bian yi ": 5324,
  "san da ": 5325,
  "kou de ": 5326,
  "28 ": 5327,
  "sheng di ": 5328,
  "mian dui ": 5329,
  "gong li de ": 5330,
  "ti xing ": 5331,
  "diao kuai": 5332,
  "yin yue": 5333,
  "zi shen ": 5334,
  "qu zhu ": 5335,
  "le zhe ": 5336,
  "liu xia ": 5337,
  " de yi shu ": 5338,
  "   2006 nian ": 5339,
  "zi zai ": 5340,
  "yan yu ": 5341,
  "que shi ": 5342,
  " wei UTC ": 5343,
  "nan hai ": 5344,
  "zhu yi zhe ": 5345,
  "xiong ya li ": 5346,
  "lian he hui ": 5347,
  "AN": 5348,
  " hu": 5349,
  "in ": 5350,
  "yan hai ": 5351,
  " cn ": 5352,
  "zhu he ": 5353,
  "wen he ": 5354,
  "1 ge ": 5355,
  "zhang yue ": 5356,
  "pai qian ": 5357,
  "diao kuai yi xiao shi ": 5358,
  "   ma ": 5359,
  "   jiao tong ": 5360,
  "cheng you ": 5361,
  "luo shi ": 5362,
  "chong ji ": 5363,
  "zai ci ": 5364,
  "guo hui ": 5365,
  "jing gao ": 5366,
  "zhen qu de ": 5367,
  "yin yu ": 5368,
  "zhang he ": 5369,
  " ji UTC ": 5370,
  " xi lie": 5371,
  "she you xia ling shi jian ": 5372,
  "mi shu zhang ": 5373,
  " de shi qu wei UTC ": 5374,
  " er gai di suo cai yong": 5375,
  " tong shi gai di she you xia ling shi jian ": 5376,
  " er gai di suo cai yong de shi qu wei UTC ": 5377,
  " jiu shi ": 5378,
  "shu ren ": 5379,
  "cai de ": 5380,
  "shou xian ": 5381,
  "wan yuan ": 5382,
  "tian hou ": 5383,
  "qun zhong ": 5384,
  " yi wu ": 5385,
  "zui zao": 5386,
  "biao ben ": 5387,
  " dong nan ": 5388,
  "jian li le ": 5389,
  "dang ji ": 5390,
  " er qi ": 5391,
  "lie ru ": 5392,
  "5 gong li ": 5393,
  "bi ye hou ": 5394,
  "bing fei ": 5395,
  "gai ming wei ": 5396,
  "guan he ": 5397,
  " qi zhong bao kuo ": 5398,
  "gao yu hai ping mian ": 5399,
  " qi fu ": 5400,
  " er fei ": 5401,
  "   an ": 5402,
  " shi ye ": 5403,
  "ru de ": 5404,
  "ben ren ": 5405,
  "hai ba wei gao yu hai ping mian ": 5406,
  "79": 5407,
  "st ": 5408,
  "xiang tong de ": 5409,
  "jing du ": 5410,
  "ping gu ": 5411,
  "su ge lan ": 5412,
  " lao": 5413,
  "xuan zhong ": 5414,
  "da bu fen": 5415,
  "tui xiu ": 5416,
  "suo chu de hai ba wei gao yu hai ping mian ": 5417,
  "tan xian ": 5418,
  " zhong shan ": 5419,
  "zhang fu ": 5420,
  "tu jing ": 5421,
  " Y": 5422,
  " shuo ": 5423,
  "va": 5424,
  "da yi ": 5425,
  "zhua ": 5426,
  "ze zai ": 5427,
  "dan bai ": 5428,
  "bu shi qu ": 5429,
  "fa zhi ": 5430,
  "fang ji ": 5431,
  " ling you ": 5432,
  "...": 5433,
  "shang di ": 5434,
  "chao yue ": 5435,
  "guan cha": 5436,
  "she xian ": 5437,
  " ku": 5438,
  "tiao jie ": 5439,
  "jin xing de ": 5440,
  "cun luo ": 5441,
  "66": 5442,
  "   ying ": 5443,
  "gong neng": 5444,
  "zheng ce": 5445,
  "kao lv": 5446,
  " shan xi ": 5447,
  "yi shi de ": 5448,
  "suo zai di ": 5449,
  "deng zhi ": 5450,
  "shuang da ": 5451,
  "dai ling ": 5452,
  "cai neng ": 5453,
  " zai ta ": 5454,
  " da lu ": 5455,
  "chang jing ": 5456,
  " chi": 5457,
  "li de ": 5458,
  "gong wei ": 5459,
  "duo er ": 5460,
  "53": 5461,
  "   190": 5462,
  " zi you ": 5463,
  "   4": 5464,
  "san ren ": 5465,
  "ew": 5466,
  "e de ": 5467,
  "um": 5468,
  "jue sai": 5469,
  "bei fang ": 5470,
  "shen hua ": 5471,
  "luo fa ": 5472,
  " The   ": 5473,
  " gen ": 5474,
  " miao ": 5475,
  "jin nian ": 5476,
  "duan shi jian ": 5477,
  "hui gui ": 5478,
  "ou xiang ": 5479,
  "lai si ": 5480,
  "yin xiang ": 5481,
  "zhen qu de mian ji wei ": 5482,
  "bei si ": 5483,
  " de ji lu ": 5484,
  "le de ": 5485,
  "yan ren ": 5486,
  "yan he ": 5487,
  "qian yue ": 5488,
  "ceng de ": 5489,
  " er bu shi ": 5490,
  "na xie ": 5491,
  " luo ma ": 5492,
  "shou bu ": 5493,
  " yu xi ": 5494,
  "cheng qu ": 5495,
  "ju le ": 5496,
  "can xuan ": 5497,
  " 24": 5498,
  "shu bu ": 5499,
  "dan shi ": 5500,
  "chang shang ": 5501,
  "zu cheng": 5502,
  "zai yi qi ": 5503,
  "zu qiu dui ": 5504,
  "AP": 5505,
  "quan yi ": 5506,
  "mian yi ": 5507,
  "dou zai ": 5508,
  "di qiu ": 5509,
  "ge la ": 5510,
  " qi xuan ": 5511,
  "yan zhong de ": 5512,
  "lian luo ": 5513,
  "hu xiang ": 5514,
  "zi chan ": 5515,
  "chang bi sai ": 5516,
  "ke neng hui ": 5517,
  "yun yong ": 5518,
  "ka la ": 5519,
  " lu wa": 5520,
  "pp": 5521,
  "   di yi ": 5522,
  " 10 ": 5523,
  " n": 5524,
  "chu zhong ": 5525,
  "kong xi ": 5526,
  "xian zhong ": 5527,
  " nian shi jie ": 5528,
  " he dao ": 5529,
  "fu xing ": 5530,
  "qing jie ": 5531,
  "Sta": 5532,
  "guan yi ": 5533,
  "se fu ": 5534,
  "zhong yao": 5535,
  "tong xun ": 5536,
  "ge guo ": 5537,
  "fa yi ": 5538,
  "tu ji ": 5539,
  " yu bei ": 5540,
  " zhong gong zhong yang ": 5541,
  "bao cun ": 5542,
  "zhuan men ": 5543,
  "shuai ling ": 5544,
  "kai de ": 5545,
  "o   ": 5546,
  "mu er ": 5547,
  "88": 5548,
  "   mei ": 5549,
  "zhu zhong ": 5550,
  "bao luo ": 5551,
  "hua jia ": 5552,
  "zhang zhuan ji ": 5553,
  "she ji shi ": 5554,
  "mian fei ": 5555,
  "zhong yi yuan ": 5556,
  "he liu ": 5557,
  "zheng bian ": 5558,
  "dui ying ": 5559,
  "zui duo ": 5560,
  " shi bei ": 5561,
  " zhi shu ": 5562,
  "tai kong ": 5563,
  " ge qu ": 5564,
  " 30 ": 5565,
  "nei di ": 5566,
  " yi sheng ": 5567,
  "shou quan ": 5568,
  "guan ce ": 5569,
  "shuai": 5570,
  "jing zai ": 5571,
  "di qu de ": 5572,
  "xue ke ": 5573,
  "zu qiu ju le bu ": 5574,
  "qian xi ": 5575,
  "kao shi ": 5576,
  "xian zhu ": 5577,
  " cheng yuan ": 5578,
  "AC": 5579,
  " 23": 5580,
  "ti he ": 5581,
  "shang ji ": 5582,
  "yan ji ": 5583,
  "ru wei ": 5584,
  "ding li ": 5585,
  "xuan ju": 5586,
  "mu si lin ": 5587,
  "wan zheng ": 5588,
  " chao xian ": 5589,
  "san bu ": 5590,
  "bian jing ": 5591,
  "quan xian ": 5592,
  "shen yi ": 5593,
  "guo nei ": 5594,
  "mian dian ": 5595,
  " ri de ": 5596,
  " sa": 5597,
  "geng xin ": 5598,
  " ma lai": 5599,
  " 2 yue ": 5600,
  "   yan ": 5601,
  "shan xian ": 5602,
  "fei yan ": 5603,
  "zao shang ": 5604,
  "cu ": 5605,
  " tian": 5606,
  "   ran": 5607,
  " yue yi ": 5608,
  "wu guan ": 5609,
  " di di ": 5610,
  "zhou ren ": 5611,
  "00 ren ": 5612,
  "fa sheng zai ": 5613,
  "BS": 5614,
  "chu wei ": 5615,
  "ri yi ": 5616,
  "xue zhong ": 5617,
  "qing ren ": 5618,
  " bu la ": 5619,
  "ping guo ": 5620,
  "wan nian ": 5621,
  "gao shi ": 5622,
  "feng de ": 5623,
  "tui jian ": 5624,
  "fa ming ": 5625,
  "liao de ": 5626,
  "tai hou ": 5627,
  "chuan tong de ": 5628,
  "ju feng ": 5629,
  "xie zuo ": 5630,
  "   xing ": 5631,
  "ge yu ": 5632,
  "lang zhong ": 5633,
  "huo sheng ": 5634,
  " nuo ": 5635,
  "jiang yi ": 5636,
  "xiu dao ": 5637,
  "pian zhong ": 5638,
  "dai yi ": 5639,
  "miao hui ": 5640,
  " bu xiang ": 5641,
  "luo shan ji ": 5642,
  "che chang ": 5643,
  "tu shu ": 5644,
  " rong ": 5645,
  "xian ru ": 5646,
  "jin ri ": 5647,
  "qu jian ": 5648,
  "zhong guo da lu ": 5649,
  "ba si ": 5650,
  "zan zhu ": 5651,
  "di wu ": 5652,
  "fu zhu ": 5653,
  "jiao huan ": 5654,
  "xiao ying ": 5655,
  " bei cheng wei ": 5656,
  "ba da ": 5657,
  "bo luo ": 5658,
  " shi jia ": 5659,
  " di qiu ": 5660,
  "ping lun": 5661,
  "ping fang qian mi ": 5662,
  " 00": 5663,
  "YouT": 5664,
  "ao er ": 5665,
  "li zi ": 5666,
  "xing mu ": 5667,
  "mi ni ": 5668,
  "ai li ": 5669,
  "liang he ": 5670,
  "jiu yuan ": 5671,
  "she zai ": 5672,
  "bian zhi ": 5673,
  "cheng le ": 5674,
  "ge si ": 5675,
  "jiao du ": 5676,
  "na xia ": 5677,
  " de shi yong ": 5678,
  "xian zhi xian ": 5679,
  "   gong ": 5680,
  "rea": 5681,
  "shou bo ": 5682,
  "shang xian ": 5683,
  " shi shi yong ": 5684,
  "dui zhong ": 5685,
  "lin si ": 5686,
  " zui gao ": 5687,
  "guo min dang ": 5688,
  " zhi wai ": 5689,
  "chu zhang ": 5690,
  "zao cheng de ": 5691,
  " yuan ming ": 5692,
  "BC": 5693,
  " 26": 5694,
  "tai yu ": 5695,
  "gai zhi wei ": 5696,
  "ju ben ": 5697,
  "tian zhu ": 5698,
  "gui mo": 5699,
  "luo li da ": 5700,
  "ba er ": 5701,
  "zong yi ": 5702,
  "zhang zi ": 5703,
  "   10": 5704,
  "su li ": 5705,
  "zhan mu si ": 5706,
  "ti chu de ": 5707,
  " 1997 nian ": 5708,
  "luo yu ": 5709,
  "bao hu": 5710,
  "hu lian ": 5711,
  " shi jian zhu ": 5712,
  "ban ji ": 5713,
  "lei si de ": 5714,
  "   2005 nian ": 5715,
  " jue ding ": 5716,
  "jue yu ": 5717,
  "lu zhan ": 5718,
  "huo che ": 5719,
  "pi zhun": 5720,
  " shan dong ": 5721,
  "   ren ": 5722,
  "   dong ": 5723,
  "lie shi ": 5724,
  "fu shu ": 5725,
  "bi xu": 5726,
  "bo lan": 5727,
  "   nan ": 5728,
  "yun de ": 5729,
  "tou xian ": 5730,
  "54": 5731,
  "   ge ren ": 5732,
  "shao de ": 5733,
  "ge zi ": 5734,
  " hou zhe ": 5735,
  "   ba ": 5736,
  "fa sheng": 5737,
  "jiao cha ": 5738,
  "yao shi ": 5739,
  "huai yi ": 5740,
  "di qi ": 5741,
  "di xia ": 5742,
  " pu tao ": 5743,
  "ction   ": 5744,
  "fa li ": 5745,
  "guan ji ": 5746,
  " wei yu zhong guo ": 5747,
  "36 ": 5748,
  "ju ban de ": 5749,
  "xin guan ": 5750,
  "qiang du ": 5751,
  " zao": 5752,
  "ma shi ": 5753,
  "can yi ": 5754,
  " di ya ": 5755,
  "huo bi ": 5756,
  " ta you ": 5757,
  "fa xian de ": 5758,
  "luo cheng ": 5759,
  "zhuan xie ": 5760,
  "can ting ": 5761,
  "jing nei gong you ": 5762,
  "zha dan ": 5763,
  "chuan mei ": 5764,
  "   dui ": 5765,
  "ding ji ": 5766,
  " lian he ": 5767,
  " shi ta ": 5768,
  "bing du ": 5769,
  "te qu ": 5770,
  " ai er ": 5771,
  "38 ": 5772,
  "IC": 5773,
  "xing zheng qu ": 5774,
  "xue li ": 5775,
  "xiao yu ": 5776,
  "xia zai ": 5777,
  " wei bei ": 5778,
  "   p": 5779,
  "xi nan bu ": 5780,
  "xi you ": 5781,
  "xing zai ": 5782,
  "jiang li ": 5783,
  "zheng ji ": 5784,
  "luo yi ": 5785,
  "su zhi ": 5786,
  "bai yu ": 5787,
  " shi er ": 5788,
  " shi yi ke ": 5789,
  " gai bian ": 5790,
  "huang se ": 5791,
  "xin jia po": 5792,
  " za zhi ": 5793,
  " zhong xing ": 5794,
  "xiang fa ": 5795,
  "ju ban": 5796,
  " ying wen ": 5797,
  "zhe he ": 5798,
  " zai 197": 5799,
  "zhu dao ": 5800,
  " da bu fen": 5801,
  "   16": 5802,
  "sui zhe ": 5803,
  "shang wang ": 5804,
  "tong xin ": 5805,
  "qian ting ": 5806,
  " 1992 nian ": 5807,
  " 1994 nian ": 5808,
  "chu guo ": 5809,
  " shi cheng ": 5810,
  "mei jun ": 5811,
  " ti gong ": 5812,
  " chun ": 5813,
  "mi si ": 5814,
  "zong ren kou ": 5815,
  "fa dong ji ": 5816,
  "ba de ": 5817,
  " li liang ": 5818,
  "qing zhu ": 5819,
  " bing bei ": 5820,
  "duan pian ": 5821,
  "76": 5822,
  "95": 5823,
  "ct": 5824,
  "gan yu ": 5825,
  "qi zhong ": 5826,
  " xi yin ": 5827,
  "she jiao ": 5828,
  "wu zheng zhuang gan ran zhe ": 5829,
  " yang": 5830,
  "te ji ": 5831,
  "zui zao ": 5832,
  "   hou ": 5833,
  "xue ji ": 5834,
  "xin jian ": 5835,
  "shen sheng ": 5836,
  " xiang guan ": 5837,
  "mer": 5838,
  " hang ": 5839,
  "pin de ": 5840,
  "cheng jiu ": 5841,
  "jin rong": 5842,
  "   Li": 5843,
  " i": 5844,
  " shao": 5845,
  " kan": 5846,
  " tang": 5847,
  "xing shi de ": 5848,
  "tou de ": 5849,
  " yi dong ": 5850,
  "a gen ": 5851,
  "ry": 5852,
  "u ": 5853,
  "shu zai ": 5854,
  " li cheng ": 5855,
  "fu mu ": 5856,
  "fang mian": 5857,
  "shan mai ": 5858,
  "sui ran ": 5859,
  "ao de ": 5860,
  "dui ji ": 5861,
  "xu ji ": 5862,
  "2002 nian ": 5863,
  " shi hou ": 5864,
  " zhi bu ": 5865,
  "qi che ": 5866,
  "zu jie ": 5867,
  " de yi yuan ": 5868,
  " xin wen ": 5869,
  " zu zhi ": 5870,
  "ta yi ": 5871,
  "dian wei ": 5872,
  "min yi ": 5873,
  " shi ren min ": 5874,
  "che di ": 5875,
  "qi lai ": 5876,
  "min zu": 5877,
  "ling chen ": 5878,
  "yun dong de ": 5879,
  "   liu ": 5880,
  "da xiao ": 5881,
  "le yuan ": 5882,
  "   shi yong ": 5883,
  "gra": 5884,
  " 29": 5885,
  "   tian ": 5886,
  "ci di ": 5887,
  "zhang zhi ": 5888,
  "te he ": 5889,
  "chuan qi ": 5890,
  "zhong hua min guo ": 5891,
  "gu la ": 5892,
  "cheng zai ": 5893,
  "qi hou ": 5894,
  "zheng qu ": 5895,
  "te dian ": 5896,
  " The": 5897,
  " hei": 5898,
  "xian shang ": 5899,
  "du guo ": 5900,
  "lin jin ": 5901,
  "wu di ": 5902,
  "h ": 5903,
  "han zi ": 5904,
  "zan shi ": 5905,
  "ya mu ": 5906,
  "xun lian": 5907,
  " shou ci ": 5908,
  " 1996 nian ": 5909,
  "an zhi ": 5910,
  "zui di ": 5911,
  " zhong dian ": 5912,
  "xi bei bu ": 5913,
  "bang qiu ": 5914,
  "bu de cun zhuang ": 5915,
  "chu ban she ": 5916,
  "dan da ": 5917,
  "xiang ying ": 5918,
  "xin jiang ": 5919,
  "lai yin ": 5920,
  "gao du wei ": 5921,
  "gang kou ": 5922,
  " er de ": 5923,
  "   co": 5924,
  "gong zuo shi ": 5925,
  "yong ji ": 5926,
  "san zhong ": 5927,
  "fa ting ": 5928,
  "sui ran": 5929,
  " 1945 nian ": 5930,
  "sheng dao ": 5931,
  "gong yuan qian ": 5932,
  " ta he ": 5933,
  " cai yong ": 5934,
  " di zai ": 5935,
  "qian jin ": 5936,
  "dai biao tuan ": 5937,
  "xing you ": 5938,
  "zi xun": 5939,
  "ti dai ": 5940,
  " ming zhi ": 5941,
  " shuang fang ": 5942,
  " 27": 5943,
  "si da ": 5944,
  "cheng wei yi ": 5945,
  "ye fu ": 5946,
  "xin jie ": 5947,
  "jiang shu ": 5948,
  "bian yuan ": 5949,
  " de yi xie ": 5950,
  "e guo ": 5951,
  " Q": 5952,
  "lie chu ": 5953,
  "37 ": 5954,
  "87": 5955,
  " 50": 5956,
  " yan jiu ": 5957,
  "dao you ": 5958,
  "hui wei ": 5959,
  "san ming ": 5960,
  "hou ji ": 5962,
  "xiao li yu ": 5963,
  " zai nei de ": 5964,
  "ma tou ": 5965,
  " huo shi ": 5966,
  " jia la ": 5967,
  " sui de ": 5968,
  "5 ge ": 5969,
  "shen yu ": 5970,
  "da di ": 5971,
  "a li ": 5972,
  " jue ": 5973,
  "cheng zhi wei ": 5974,
  "bi li shi ": 5975,
  " yu 197": 5976,
  "zan ting ": 5977,
  " 9 ": 5978,
  "dan yi ": 5979,
  " da jia ": 5980,
  "dui fang ": 5981,
  "tt": 5982,
  "dui he ": 5983,
  "bai ke ": 5984,
  "xian cheng ": 5985,
  "shu chu ": 5986,
  " shou dao ": 5987,
  "tong he ": 5988,
  "jian du ": 5989,
  " 1993 nian ": 5990,
  "NA": 5991,
  " hen ": 5992,
  "   dao ": 5993,
  "yong zai ": 5994,
  "ping yuan ": 5995,
  " er gai di de ": 5996,
  "tan he ": 5997,
  "ge bu ": 5998,
  " da jiang ": 5999,
  "wang wang ": 6000,
  " dan yin ": 6001,
  " zhao he ": 6002,
  " wei yi ": 6003,
  "ch ": 6004,
  "fen qi ": 6005,
  "nd": 6006,
  " shuang": 6007,
  "huo zai ": 6008,
  "ye ke yi ": 6009,
  " ge shou ": 6010,
  "46 ": 6011,
  "96": 6012,
  "ge nian ": 6013,
  "yun he ": 6014,
  " de hua ": 6015,
  "wu shu ": 6016,
  "jing guan ": 6017,
  " xu yao ": 6018,
  "   gai yao ": 6019,
  "52 ": 6020,
  " peng": 6021,
  "na he ": 6022,
  "que bao ": 6023,
  " yi gong ": 6024,
  " bu dao ": 6025,
  "chuang zuo de ": 6026,
  " wei fu qi yu gang": 6027,
  "zuan ": 6028,
  "hao you ": 6029,
  " nian   ": 6030,
  "si lan ": 6031,
  "fen pei ": 6032,
  "an li ": 6033,
  "dui di ": 6034,
  " qi bing ": 6035,
  "yan jing ": 6036,
  "can shu ": 6037,
  "500 ": 6038,
  "98": 6039,
  "2003 nian ": 6040,
  " X": 6041,
  "ju zai ": 6042,
  "gui fan ": 6043,
  "   6": 6044,
  "fa ji ": 6045,
  "pei bei ": 6046,
  "ju yuan ": 6047,
  "xiao jie ": 6048,
  " chu ban ": 6049,
  "chuo": 6050,
  "wu you ": 6051,
  " yi bian ": 6052,
  "fu hao ": 6053,
  "shang zhen ": 6054,
  " de shi ji ": 6055,
  "ya ren ": 6056,
  " li li ": 6057,
  "bei da ": 6058,
  "she ding ": 6059,
  "   jia ting ": 6060,
  "chang ji ": 6061,
  "kuo jian ": 6062,
  "shou shu ": 6063,
  "shen me ": 6064,
  " ta ren wei ": 6065,
  "te la ": 6066,
  " gong ye ": 6067,
  "34 ": 6068,
  "dian shi jie ": 6069,
  "pin zhong ": 6070,
  "qian hou ": 6071,
  "1998 nian ": 6072,
  " yue dui ": 6073,
  "chu zi ": 6074,
  " xi tong de ": 6075,
  "qu fen ": 6076,
  " jin shi ": 6077,
  "jiu zai ": 6078,
  "1999 nian ": 6079,
  "xiang mu": 6080,
  " xian wei ": 6081,
  "zhu ce ": 6082,
  "deng chang ": 6083,
  " huo dong ": 6084,
  "tui guang ": 6085,
  "le yi xie ": 6086,
  "tu xiang ": 6087,
  "da shi guan ": 6088,
  "ri ben de ": 6089,
  "ma ke si ": 6090,
  " ji li ": 6091,
  " qi zhong": 6092,
  "duo ming ": 6093,
  "sai er wei ": 6094,
  "chi xu": 6095,
  "geng duo de ": 6096,
  " 2025 nian ": 6097,
  "qiu shi ": 6098,
  "bei jing": 6099,
  "th ": 6100,
  " zhong guo ren min jie fang jun ": 6101,
  "xuan shi ": 6102,
  "ye jian ": 6103,
  "jin yu ": 6104,
  "la wei ": 6105,
  "qian shen ": 6106,
  "ban jiang ": 6107,
  "tie lu che zhan ": 6108,
  "fu za": 6109,
  "cheng fen ": 6110,
  "jiao tang": 6111,
  "ceng shi ": 6113,
  "qi yong ": 6114,
  " zhong jian ": 6115,
  "oh": 6116,
  "   wang ": 6117,
  "qu you ": 6118,
  "dou bei ": 6119,
  "zhong bu ": 6120,
  "chang du ": 6121,
  " xiang mu ": 6122,
  "lv se ": 6123,
  "dao zai ": 6124,
  "bei li ": 6125,
  "wang wei ": 6126,
  "185": 6127,
  "al ": 6128,
  "ON": 6129,
  "le di ": 6130,
  "lai yu ": 6131,
  "184": 6132,
  " you zai ": 6133,
  " he liu ": 6134,
  "fu er ": 6135,
  "ye sheng ya ": 6136,
  " tong yi ": 6137,
  "77": 6138,
  " kou ": 6139,
  " neng ": 6140,
  "cong wei ": 6141,
  "yuan ben ": 6142,
  " qi he ": 6143,
  "ye sheng ": 6144,
  "yin yong ": 6145,
  "su lian": 6146,
  "ze dong ": 6147,
  " bi sai ": 6148,
  "bu de bu ": 6149,
  "huang jin ": 6150,
  "mao xian ": 6151,
  "qing chao ": 6152,
  " zui chu ": 6153,
  " bu si ": 6154,
  "ca ": 6155,
  "rt": 6156,
  " sun ": 6157,
  "mai de ": 6158,
  "shou fei ": 6159,
  "ban yan ": 6160,
  "che dui ": 6161,
  "shan di ": 6162,
  " zai he ": 6163,
  "bao han": 6164,
  "r   ": 6165,
  "19 shi ji ": 6166,
  "wen ji ": 6167,
  "zhang ji ": 6168,
  "tou bu ": 6169,
  "ke yun ": 6170,
  " gong qing ": 6171,
  "tiona": 6172,
  "jun bu ": 6173,
  "deng shi ": 6174,
  "zu fu ": 6175,
  " 1985 nian ": 6176,
  "ruan ti ": 6177,
  "ste": 6178,
  " shui": 6179,
  "xing li ": 6180,
  "deng yu ": 6181,
  "kai gong ": 6182,
  "nan si ": 6183,
  "dang tian ": 6184,
  "a la bo": 6185,
  "chen ji ": 6186,
  "1945 nian ": 6187,
  "wu zhuang": 6188,
  "zhe yang ": 6189,
  "xie shang ": 6190,
  "mo ni ": 6191,
  " liang ge ": 6192,
  "500": 6193,
  " zai jin ": 6194,
  "lu shang ": 6195,
  "hao ping ": 6196,
  "qun ti ": 6197,
  "zheng shu ": 6198,
  " shi shi shang ": 6199,
  "zhang yi ": 6200,
  "shen ke ": 6201,
  " zhi shao ": 6202,
  " you liang ": 6203,
  "ri bao ": 6204,
  "bi er ": 6205,
  "che shi ": 6206,
  "mei yuan de ": 6207,
  "nong cun": 6208,
  "hua zai ": 6209,
  "quan ji ": 6210,
  "zhuan wei ": 6211,
  "dui kang ": 6212,
  " de ji hua ": 6213,
  "Ma": 6214,
  " xi an ": 6215,
  " 1995 nian ": 6216,
  "sen lin": 6217,
  "qiong ": 6218,
  "du ji ": 6219,
  "dong xian ": 6220,
  "xiao liang ": 6221,
  "   Pro": 6222,
  " fu ze guan xia ": 6223,
  "ly": 6224,
  "le   ": 6225,
  "wai wei ": 6226,
  "te lei ": 6227,
  "xuan cheng ": 6228,
  " shi shi ji ": 6229,
  "sha de ": 6230,
  " qi dong ": 6231,
  "fan ying": 6232,
  "120": 6233,
  " niu ": 6235,
  "ju zhi ": 6236,
  "lu he ": 6237,
  "zong zhi ": 6238,
  "xiao xiang ": 6239,
  "xian de yi ge fei jian zhi di qu ": 6240,
  "da duo ": 6241,
  "shao nv ": 6242,
  "zhe zhi ": 6243,
  "bao he ": 6244,
  "huo li ": 6245,
  "feng shi ": 6246,
  "zong jian ": 6247,
  "mian ti ": 6248,
  "3 mi ": 6249,
  " fen bie ": 6250,
  "chai you ji ": 6251,
  "   gu ": 6252,
  "zai yi ge ": 6253,
  "qu zhong ": 6254,
  " you zhu ": 6255,
  "xiang qi ": 6256,
  "can jia": 6257,
  " ta men zai ": 6258,
  "gong kai sai ": 6259,
  "Re": 6260,
  "hai shang ": 6261,
  "se lie": 6262,
  " 1950 nian ": 6263,
  "an ji ": 6264,
  "   zhang ": 6265,
  " qi xi zai ": 6266,
  "6 mi ": 6267,
  "hang ye ": 6268,
  "wei yuan ": 6269,
  "chu xian de ": 6270,
  "lai na ": 6271,
  "fei lv bin": 6272,
  "41 ": 6273,
  "huo yi ": 6274,
  "lie si ": 6275,
  " section   ": 6276,
  "zhan wei yu ": 6277,
  "liang bu ": 6278,
  "biao ji ": 6279,
  "tu chu ": 6280,
  "   ran er ": 6281,
  "jiang you ": 6282,
  "1996 nian ": 6283,
  "fen si ": 6284,
  " 000 ": 6285,
  "   the": 6286,
  "chang da ": 6287,
  "dui zhi ": 6288,
  "bai zhi ": 6289,
  "ha li ": 6290,
  "bei po ": 6291,
  "hui da ": 6292,
  "   Mo": 6293,
  "niao lei ": 6294,
  " ma li ": 6295,
  "zhan you ": 6296,
  "hai di ": 6297,
  "duo shi ": 6298,
  "chang jiang ": 6299,
  " qi zhong nan xing ": 6300,
  "   guang ": 6301,
  "ni xi ya ": 6302,
  " zhong qi ": 6303,
  "yan an ": 6304,
  "bo jue ": 6305,
  "fei yong ": 6306,
  "xie wei ": 6307,
  "bu men ": 6308,
  "shen zhen ": 6309,
  "zhong guo ren min ": 6310,
  "pu tao ya ": 6311,
  " xian": 6312,
  "   2": 6313,
  "ru yi ": 6314,
  "gong jue ": 6315,
  "jin zhan ": 6316,
  "shou duan ": 6317,
  " si da ": 6318,
  " jiang su ": 6319,
  "   gen ju 2020 nian mei guo ren kou pu cha de shu ju ": 6320,
  "   jing ji ": 6321,
  "lu yi si ": 6322,
  "xia di qu ": 6323,
  "xing dong": 6324,
  "dao dan ": 6325,
  "zhan shu ": 6326,
  "   12": 6328,
  "guang de ": 6329,
  "150 ": 6330,
  " guo wu yuan ": 6331,
  "zi ben ": 6332,
  "zheng mian ": 6333,
  "con": 6334,
  "e wei ": 6335,
  "tian jia ": 6336,
  "jie duan": 6337,
  "fen zhi yi ": 6338,
  "mei guo": 6339,
  "su wei ai ": 6340,
  "ie": 6341,
  "gong yue ": 6342,
  "jiao di ": 6343,
  "mu yu ": 6344,
  " yi ke ": 6345,
  " he qi ta ": 6346,
  "xue ye ": 6347,
  "hou zhi ": 6348,
  "gen sui ": 6349,
  " zai bu ": 6350,
  "bao zha": 6351,
  "dai ma ": 6352,
  "zong cai ": 6353,
  "cun zai de ": 6354,
  "yuan zhu min ": 6355,
  "weng": 6356,
  "   cheng ": 6357,
  "zu ren ": 6358,
  " guo jia de ": 6359,
  "kuo zhang ": 6360,
  " 1990 nian ": 6361,
  "zhan wei ": 6362,
  "wo er ": 6363,
  "ci da ": 6364,
  "zhe yang de ": 6365,
  " zi yuan ": 6366,
  "zhuan yong ": 6367,
  "men shi ": 6368,
  "ke er ": 6369,
  "tai nan ": 6370,
  "ri ji ": 6371,
  "shui de ": 6372,
  " guo gong ": 6373,
  "yan jiang ": 6374,
  "xuan ju zhong ": 6375,
  " ge lei ": 6376,
  " 1991 nian ": 6377,
  " wei yuan hui wei yuan ": 6378,
  " men ": 6379,
  " lun ": 6380,
  "shu de zhi wu ": 6381,
  "bei yue ": 6382,
  "ban nian ": 6383,
  "bao zha ": 6384,
  "gu fen you xian gong si ": 6385,
  "32": 6386,
  "ta ren ": 6387,
  "wang ji ": 6388,
  "cha shi ": 6389,
  "gan xian ": 6390,
  " xing jian ": 6391,
  " shi yi zuo ": 6392,
  " 1988 nian ": 6393,
  "   8": 6394,
  "mei shi ": 6395,
  " you suo ": 6396,
  "chu chang ": 6397,
  "ju min": 6398,
  "wen ti de ": 6399,
  " shi de shi ": 6400,
  "zeng qiang ": 6401,
  "cheng li hou ": 6402,
  " yu 2012 nian ": 6403,
  " ji jin hui ": 6404,
  "nan ji zhou de ": 6405,
  "W ": 6406,
  " lv": 6407,
  "hou bu ": 6408,
  "lai ke ": 6409,
  "yang he ": 6410,
  "gu dian ": 6411,
  " jin shu ": 6412,
  "2 hao ": 6413,
  "a fu ": 6414,
  " shou": 6415,
  "gan de ": 6416,
  " yi nian": 6417,
  "xun yang jian ": 6418,
  "   qi zhong ": 6419,
  " yu 2021 nian ": 6420,
  " wei fu qi yu gang ": 6421,
  " jian li ": 6422,
  "ing ": 6423,
  "fa he ": 6424,
  "duo li ya ": 6425,
  "nuo yi ": 6426,
  "zhu ban ": 6427,
  " hant ": 6428,
  " ce ": 6429,
  "zuo zhi ": 6430,
  "gong an ": 6431,
  "ke luo ": 6432,
  "jiao jie ": 6433,
  " 185": 6434,
  " yu 2015 nian ": 6435,
  " liu yu ": 6436,
  "re dai feng bao ": 6437,
  " zhuan ji ": 6438,
  "   zhu yao ": 6439,
  "hu xi ": 6440,
  "hai zai ": 6441,
  "xin tai ": 6442,
  "xuan chu ": 6443,
  "you yi xie ": 6444,
  "bie de ": 6445,
  "pin lv ": 6446,
  " B ": 6447,
  " wan li ": 6448,
  " di tu ": 6449,
  "zuo fa ": 6450,
  " shi yi zhi ": 6451,
  "bing yu ": 6452,
  "ru shi ": 6453,
  " li gong ": 6454,
  "fa sheng de ": 6455,
  "jin qu ": 6456,
  "le dui ": 6457,
  " da er ": 6458,
  "liang zi ": 6459,
  "xie ding ": 6460,
  "na sheng ": 6461,
  "hang tian ": 6462,
  "can kao": 6463,
  "75 ": 6464,
  "ya zhong ": 6465,
  "1992 nian ": 6466,
  "fang mi ": 6467,
  "mei guo ren ": 6468,
  " yu 2018 nian ": 6469,
  "   fan ": 6470,
  "ding xing ": 6471,
  " zhong wen ": 6472,
  " xiu": 6473,
  "   e": 6474,
  "xue bu ": 6475,
  "qun de ": 6476,
  "00 mi": 6477,
  "   0": 6478,
  "ban ren ": 6479,
  "jiu you ": 6480,
  "shou fa ": 6481,
  " kao ": 6482,
  "ri shi ": 6483,
  "wu ge ": 6484,
  "bai wan ": 6485,
  " ling wai": 6486,
  " lian jie ": 6487,
  "rao tai yang ": 6488,
  " nian yi lai ": 6489,
  "fen bie wei ": 6490,
  "shang wei you ": 6491,
  "ci qu ": 6492,
  "wen ti": 6493,
  "74": 6494,
  "ta he ": 6495,
  "ying er ": 6496,
  "yan lun ": 6497,
  "wang hou ": 6498,
  "lian sai": 6499,
  "gao yuan ": 6500,
  "lei xing de ": 6501,
  "suo yi ": 6502,
  " zhi jing ": 6503,
  "lu wa": 6504,
  "chuan guo ": 6505,
  "dan shui ": 6506,
  "zong hui ": 6507,
  "2 mi ": 6508,
  "300": 6509,
  "   3 yue ": 6510,
  "shang he ": 6511,
  "dai yu ": 6512,
  " shi xi ": 6513,
  "fa ling ": 6514,
  "ying zhan ": 6515,
  " ke luo ": 6516,
  " zhe yang ": 6517,
  " bao hu ": 6518,
  " yu 2014 nian ": 6519,
  "6 ge ": 6520,
  "ping jie ": 6521,
  "du hui ": 6522,
  "wang zi ": 6523,
  " ta ji ": 6524,
  " S ": 6525,
  "guo jia dui ": 6526,
  " Ro": 6527,
  "   qi hou ": 6528,
  " bao": 6529,
  "lei wei ": 6530,
  " bing bu ": 6531,
  " shi yong le ": 6532,
  "hai ba gao du wei ": 6533,
  "jiang bei ": 6534,
  "gao xiao ": 6535,
  "jiao yu bu ": 6536,
  " cun ": 6537,
  "bei he ": 6538,
  "xing zheng": 6539,
  "cheng zhang ": 6540,
  "fen jie ": 6541,
  " pi": 6542,
  "jin zai ": 6543,
  "bing zai ": 6544,
  "wai xing ": 6545,
  "shun shi ": 6546,
  " yi qian ": 6547,
  "quan shu ": 6548,
  "ma lai ": 6549,
  " dan qi ": 6550,
  " dang shi de ": 6551,
  " ren min bi ": 6552,
  "wang zhi ": 6553,
  "tuan jie ": 6554,
  "gong jiao ": 6555,
  "wu zhong de ": 6556,
  " di liu ": 6557,
  " si ta ": 6558,
  "xun huan ": 6559,
  "xun zhao ": 6560,
  " fou ": 6561,
  " tou guo ": 6562,
  "   di": 6563,
  "ci zhong ": 6564,
  "song dao ": 6565,
  "shu mu ": 6566,
  "jing sai ": 6567,
  "zhan chang ": 6568,
  " gong kai ": 6569,
  " xin zeng ": 6570,
  "qiao liang ": 6571,
  "   luo ": 6572,
  "   ping jia ": 6573,
  "ju wei ": 6574,
  "ru yu ": 6575,
  " yue he ": 6576,
  "ti chu le ": 6577,
  " de ji hui ": 6578,
  " IS": 6579,
  "xin zhong ": 6580,
  " yi chan ": 6581,
  "cheng hu ": 6582,
  " di dian ": 6583,
  "zui zao de ": 6584,
  "   Re": 6585,
  "ying xiang li ": 6586,
  " pa ": 6587,
  "pu li ": 6588,
  " yi da ": 6589,
  " nian nian ": 6590,
  "du du ": 6591,
  "yang xian ": 6592,
  " de yi mei ": 6593,
  " dao yan ": 6594,
  " shi yi da li ": 6595,
  "LE": 6596,
  "ge zai ": 6597,
  "fen ji ": 6598,
  "huo yun ": 6599,
  "ceng shui yu ": 6600,
  " wa": 6601,
  "   chu le ": 6602,
  "jun tuan ": 6603,
  "wang shang ": 6604,
  " 15 ": 6605,
  "xia yi xia di qu ": 6606,
  "guo shi qi ": 6607,
  "duo fu ": 6608,
  "guo cheng ": 6609,
  " da lou ": 6610,
  "jian zhu wu ": 6611,
  "   15": 6612,
  "   fa ": 6613,
  "zheng qi ": 6614,
  "qing yi ": 6615,
  "lei shi ": 6616,
  "jia meng ": 6617,
  "zhuan de xiao xing xing ": 6618,
  "fa wei ": 6619,
  "ming ju ren ": 6620,
  "guo ji ji chang ": 6621,
  "ss   ": 6622,
  " yong": 6623,
  " nong ": 6624,
  "   jiang ": 6625,
  "hua er ": 6626,
  "mu he ": 6627,
  "huang shi ": 6628,
  "guo wu yuan ": 6629,
  "ling dao de ": 6630,
  "gang yuan ": 6631,
  " In": 6632,
  "   5 yue ": 6633,
  "ke ren ": 6634,
  "ju da de ": 6635,
  "bao chi": 6636,
  "wen hua de ": 6637,
  "ba la ": 6638,
  "nei zhan ": 6639,
  " de shi wu ": 6640,
  "   2004 nian ": 6641,
  " 1983 nian ": 6642,
  "zhe jiang sheng ": 6643,
  "nang ": 6644,
  "   3 ": 6645,
  "shou he ": 6646,
  "wang si ": 6647,
  "jiu ren ": 6648,
  "zu xie ": 6649,
  "lian tong ": 6650,
  "guang fan": 6651,
  "shan dong sheng ": 6652,
  "mp": 6653,
  "bi shi ": 6654,
  "bao xian ": 6655,
  "ti jiao ": 6656,
  " yu 2017 nian ": 6657,
  " cheng li yu ": 6658,
  "yin er ": 6659,
  "xiao you ": 6660,
  "gao di ": 6661,
  "bu ke ": 6662,
  "shang dian ": 6663,
  "gong chan dang": 6664,
  " 28": 6665,
  "jiang zhong ": 6666,
  "ru zhi ": 6667,
  "ming jin shi ": 6668,
  "ping min ": 6669,
  "huo wu ": 6670,
  " fu qin": 6671,
  " dan wei ": 6672,
  "7 yue 1 ri ": 6673,
  "AO": 6674,
  " ke shi ": 6675,
  "ya zhi ": 6676,
  " ji xing ": 6677,
  "fa zhan de ": 6678,
  "wan quan": 6679,
  "xun qiu ": 6680,
  "tui chu de ": 6681,
  " 1989 nian ": 6682,
  "97": 6683,
  "sheng bu ": 6684,
  "gu fen ": 6685,
  " min": 6686,
  "zheng yue ": 6687,
  "zhan yu ": 6688,
  "la er ": 6689,
  "she ying ": 6690,
  "si you ": 6691,
  " zai 196": 6692,
  "da gui mo ": 6693,
  "fu zhou ": 6694,
  "jiao fu ": 6695,
  "san ci ": 6696,
  " sui shi ": 6697,
  "ping jun hai ba gao du wei ": 6698,
  "hua sheng dun ": 6699,
  " san shi ": 6700,
  " chu ren ": 6701,
  "su shi ": 6702,
  "song de ": 6703,
  "zao shou ": 6704,
  "shao jiang ": 6705,
  "ye zhi ": 6706,
  " shi ji de ": 6707,
  "gan su ": 6708,
  "YouTub": 6709,
  " zi ji ": 6710,
  "yin zhong zai ": 6711,
  "tai er ": 6712,
  "yang zhi ": 6713,
  "lan yu ": 6714,
  " li fu ": 6715,
  "gong da ": 6716,
  "jian kang": 6717,
  "qing xiang ": 6718,
  "ban ci ": 6719,
  " yu 2013 nian ": 6720,
  " er gai di de ping jun hai ba gao du wei ": 6721,
  "jiang ta ": 6722,
  "lai zi yu ": 6723,
  "v ": 6724,
  " zui jia ": 6725,
  "an zhong ": 6726,
  "ji   ": 6727,
  "yin zhi ": 6728,
  "ma li ya ": 6729,
  " shi fa ": 6730,
  "na ru ": 6731,
  "li lun ": 6732,
  " 1984 nian ": 6733,
  "2010 nian mei guo ren kou pu cha de shu ju ": 6734,
  " han zu ": 6735,
  "shuo shi xue wei ": 6736,
  "yin zhong zai pei ": 6737,
  " ou zhou ": 6738,
  "wang yu ": 6739,
  "luo zai ": 6740,
  "qie er ": 6741,
  "xian zhang ": 6742,
  "shou hai ": 6743,
  "ying di ": 6744,
  " yi he ": 6745,
  " yi er ": 6746,
  "fu ze": 6747,
  " chao": 6748,
  "   yue ": 6749,
  "xiang zhi ": 6750,
  "shuo de ": 6751,
  " da xi yang ": 6752,
  "dian ying de ": 6753,
  " jiang qi ": 6754,
  "51 ": 6755,
  " an de ": 6756,
  "ping fang mi ": 6757,
  "fou ren ": 6758,
  "ren gong yin zhong zai pei ": 6759,
  "ss ": 6760,
  "yi shi yong ": 6761,
  " xi huan ": 6762,
  "ying dui ": 6763,
  "gui zhou ": 6764,
  " jie shu ": 6765,
  "di yi ren ": 6766,
  "yan jiu sheng ": 6767,
  " yi wai ": 6768,
  "ju ti ": 6769,
  "cai chan ": 6770,
  "3 hao ": 6771,
  "xiang shi di ": 6772,
  " kang xi ": 6773,
  " huai": 6774,
  "yu   ": 6775,
  " yi xiang ": 6776,
  " zai gai ": 6777,
  "chang bei ": 6778,
  "fen qu ": 6779,
  "duan zan": 6780,
  " yu ci tong shi ": 6781,
  "km ": 6782,
  "reng you ": 6783,
  "yuan ben": 6784,
  "jiao zuo ": 6785,
  "pan jue ": 6786,
  " n ": 6787,
  "xu shu ": 6788,
  "can guan ": 6789,
  "ya shi ": 6790,
  "ping shi ": 6791,
  "hao yu ": 6792,
  "fu gai ": 6793,
  "zhu ru ": 6794,
  "te lang ": 6795,
  "a ji ": 6796,
  "   tai wan ": 6797,
  "long shi ": 6798,
  "bu luo ": 6799,
  "ming que ": 6800,
  "hong jun ": 6801,
  "m   ": 6802,
  "zhan he ": 6803,
  " he pan ": 6804,
  "8 mi ": 6805,
  " quan zhang ": 6806,
  "chan sheng le ": 6807,
  "zhen ren ": 6808,
  "rang ta ": 6809,
  "zhi chi ": 6810,
  "dian zi you ": 6811,
  " mu": 6812,
  "sheng mu ": 6813,
  " zhe ci ": 6814,
  " sheng zhang yu ": 6815,
  "7 mi ": 6816,
  "son ": 6817,
  " shen": 6818,
  " cu": 6819,
  "xia zhi ": 6820,
  "dou zheng ": 6821,
  "1 nian zhi ": 6822,
  "ad": 6823,
  "ai guo ": 6824,
  "zhen he ": 6825,
  "jie du shi ": 6826,
  "dong che ": 6827,
  "tan ding ": 6828,
  " qian wang ": 6829,
  "ci you ": 6830,
  "1997 nian ": 6831,
  "shu qi ": 6832,
  "nve ": 6833,
  "chu xian le ": 6834,
  "85": 6835,
  "   10 yue ": 6836,
  "da zai ": 6837,
  "zheng li ": 6838,
  "zhuang bing du ": 6839,
  "zhu zhai": 6840,
  "bao zheng ": 6841,
  " 000 ren ": 6842,
  " ー": 6843,
  "est": 6844,
  "le wei ": 6845,
  " yu you ": 6846,
  "yuan qu ": 6847,
  "cheng hao ": 6848,
  "chu ru kou ": 6849,
  "yan hua ": 6850,
  "yin jing ": 6851,
  "jiao ke ": 6852,
  "fen lan ": 6853,
  "   shen ": 6855,
  "ku de ": 6856,
  "qiang ji ": 6857,
  "si tan ": 6858,
  "jian she": 6859,
  "dui hua ": 6860,
  " jia jing ": 6861,
  "an zhuang": 6862,
  " gong bu ": 6863,
  "   Ro": 6864,
  "shang zhi ": 6865,
  "xian dai": 6866,
  "dong ni ": 6867,
  " bei ke ": 6868,
  " xian dai ": 6869,
  "ming you ": 6870,
  " fu lei ": 6871,
  " xue sheng ": 6872,
  " ke li ": 6873,
  "fei yi ": 6874,
  "jian zao": 6875,
  "jian guo ": 6876,
  " ju qing ": 6877,
  "ul": 6878,
  "chu nian ": 6879,
  "ba yue ": 6880,
  " you you ": 6881,
  "fu she ": 6882,
  "zhu di ": 6883,
  "ju bei ": 6884,
  "dui yuan ": 6885,
  "ai qing ": 6886,
  "zhuang kuang": 6887,
  " bao dao ": 6888,
  "gong he dang ": 6889,
  " gai wei ": 6890,
  "sheng chan de ": 6891,
  " diao ": 6892,
  "zhang zai ": 6893,
  "zong tong": 6894,
  "ci zhi wai ": 6895,
  "son": 6896,
  "zhu guo ": 6897,
  "mian yu ": 6898,
  " he yue ": 6899,
  "chong qing ": 6900,
  " su lian ": 6901,
  " ke neng shi ": 6902,
  "ig": 6903,
  "sheng zhong ": 6904,
  "mo qi ": 6905,
  "dao shang ": 6906,
  "fen xiao ": 6907,
  "xia fang ": 6908,
  "kai fa de ": 6909,
  "4 mi ": 6910,
  "ai de hua ": 6911,
  "sti": 6912,
  "chao ting ": 6913,
  " shi zhong hua ren min gong he guo ": 6914,
  "zeng jia le ": 6915,
  "ren min dai biao da hui ": 6916,
  "   sui ran ": 6917,
  "89": 6918,
  "   ling wai ": 6919,
  "da bu ": 6920,
  "te shi ": 6921,
  " guo jia dui ": 6922,
  " cui": 6923,
  "chuan di ": 6924,
  "kang xi ": 6925,
  " ju min ": 6926,
  " na me": 6927,
  " ke": 6928,
  "wang you ": 6929,
  "ze yi ": 6930,
  "bin shi ": 6931,
  " yin fa ": 6932,
  " mao": 6933,
  "yue wei ": 6934,
  "zheng yu ": 6935,
  "du yi ": 6936,
  "kan de ": 6937,
  "dong gong ": 6938,
  "luo bo te ": 6939,
  "12 yue 31 ri ": 6940,
  "65 ": 6941,
  " gong ji ": 6942,
  "niang": 6943,
  "hang xian ": 6944,
  "26 ": 6945,
  " nian li ": 6946,
  "shang jia ": 6947,
  "han mo de ": 6948,
  " 1958 nian ": 6949,
  "zi liao": 6950,
  "ming lu ": 6951,
  " yu 196": 6952,
  " you tai ": 6953,
  " he qi ": 6954,
  " bu neng": 6955,
  "jiao dao ": 6956,
  "qing shao nian ": 6957,
  "ear": 6958,
  " dian shi ": 6959,
  "   xiang gang ": 6960,
  " shi yue ": 6961,
  " yu qi ta ": 6962,
  "you guan ": 6963,
  "ben xian ": 6964,
  "1 nian de ": 6965,
  " lang ": 6966,
  "han yi ": 6967,
  "jie guan ": 6968,
  " 184": 6969,
  "can mou zhang ": 6970,
  " ding": 6972,
  " shun": 6973,
  "   1": 6974,
  "xun fu ": 6975,
  "zhu liu ": 6976,
  "shang su ": 6977,
  "qian ru ": 6978,
  "qing xu ": 6979,
  "cai liao": 6980,
  "shui ku ": 6981,
  " 1946 nian ": 6982,
  "→": 6983,
  " chan ": 6984,
  "ye zhong ": 6985,
  "huan xiang ": 6986,
  "hui xiang ": 6987,
  "xue yuan de ": 6988,
  " ling yi fang mian ": 6989,
  "bai nian ": 6990,
  "mian lin ": 6991,
  "kong de ": 6992,
  "180": 6993,
  "shang le ": 6994,
  "an zhao ": 6995,
  "hua ren min gong he ": 6996,
  " a la ": 6997,
  "nv zhu jue ": 6998,
  "ff": 6999,
  "zen ": 7000,
  "   zhan ": 7001,
  "yin ji ": 7002,
  "jiao he ": 7003,
  "na si ": 7004,
  "wei yu ": 7005,
  " er hou ": 7006,
  "shang pin ": 7007,
  "ying jun ": 7008,
  "liang ce ": 7009,
  "mei zhou": 7010,
  "long sheng ": 7011,
  " sheng zhang yu hai ba ": 7012,
  "zhui su ": 7013,
  "chang wu": 7014,
  "gou mai": 7015,
  " 1986 nian ": 7016,
  " luo": 7017,
  "pai de zhu ": 7018,
  "pin zhi ": 7019,
  " li xin ": 7020,
  "jin qiu ": 7021,
  "qing dao ": 7022,
  "wai guan ": 7023,
  " xin jia ": 7024,
  "zhan zheng zhong ": 7025,
  "Li": 7026,
  "   shou ": 7027,
  "ye er ": 7028,
  "du da ": 7029,
  "ben ke ": 7030,
  "lou de ": 7031,
  "xiang guan": 7032,
  "dui zhen ": 7033,
  "hu po ": 7034,
  " bi ye yu ": 7035,
  "93": 7036,
  " qu de ": 7037,
  "zhong de yi ": 7038,
  "dai zhi ": 7039,
  "fu yin ": 7040,
  "sheng fu ": 7041,
  " qi chu ": 7042,
  "dong yuan ": 7043,
  "hai e ": 7044,
  "nv hai ": 7045,
  "rong na ": 7046,
  " tun": 7047,
  "ill": 7048,
  "xiang zhong ": 7049,
  "fen lie ": 7050,
  "mo luo ": 7051,
  "1988 nian ": 7052,
  " yi ri ": 7053,
  " jian she ": 7054,
  " bi ye ": 7055,
  " ju": 7056,
  "guo qu ": 7057,
  "da qi ": 7058,
  "le gai ": 7059,
  "hu dong ": 7060,
  " fa zhan ": 7061,
  "xing zheng zhen qu ": 7062,
  "quan wei ": 7063,
  "bo ke ": 7064,
  "27 ": 7065,
  "gong shang ": 7066,
  "ti yan ": 7067,
  " li shi de ": 7068,
  "sheng jing ": 7069,
  "e luo si de ": 7070,
  "n   ": 7071,
  "suan fa ": 7072,
  " nian ling ": 7073,
  " bu da ": 7074,
  "tian tang ": 7075,
  "shai ": 7076,
  "ye wei ": 7077,
  "zu zi zhi ": 7078,
  " shi yong zhe ": 7079,
  "   tai ": 7080,
  "1991 nian ": 7081,
  "kan fa ": 7082,
  " zai ren ": 7083,
  "dian nao": 7084,
  "zhou zhang ": 7085,
  " tian jin ": 7086,
  "xian de yi ge xing zheng zhen qu ": 7087,
  " gen ju": 7088,
  "   zong ": 7089,
  "qing xi ": 7090,
  "ceng ren ": 7091,
  " qi you ": 7092,
  "ven": 7093,
  "hou bu jiu ": 7094,
  "yong zhi ": 7095,
  "sui zhi ": 7096,
  "xun de ": 7097,
  "‧": 7098,
  " shi jing ": 7099,
  "fu zhu ren ": 7100,
  "hui hua ": 7101,
  "zheng duo ": 7102,
  "ni ya de ": 7103,
  "gan jue ": 7104,
  "pei yang ": 7105,
  " ma lai xi ya ": 7106,
  "our": 7107,
  "er you ": 7108,
  "gong gao ": 7109,
  "cheng xiang ": 7110,
  "shen cha ": 7111,
  " yu 2022 nian ": 7112,
  "gui mo de ": 7113,
  "tuan zhang ": 7114,
  "mei ri ": 7115,
  "zhu dong ": 7116,
  "tian huang ": 7117,
  "tai wan de ": 7118,
  "IP": 7119,
  "ming he ": 7120,
  "dong yi ": 7121,
  "huo yue ": 7122,
  "1994 nian ": 7123,
  "tong wang ": 7124,
  "huo dong de ": 7125,
  "IT": 7126,
  "fa li ya ": 7127,
  "dui li ": 7128,
  "zhen di ": 7129,
  "shou ling ": 7130,
  "yan wu ": 7131,
  "du jia ": 7132,
  "su dan ": 7133,
  " zhu jian ": 7134,
  " you ji ": 7135,
  " qi zhong nan ": 7136,
  ".&": 7137,
  "5   ": 7138,
  "fang he ": 7139,
  "zuo zhong ": 7140,
  "miao de ": 7141,
  "jian dao ": 7142,
  "she hui": 7143,
  " de ren wu ": 7144,
  " cheng shi ": 7145,
  " 20 ": 7146,
  "tong zhong ": 7147,
  "hou ren ": 7148,
  "xia er ": 7149,
  "sheng xia ": 7150,
  " shi yi ji ": 7151,
  " guan fang ": 7152,
  " ren zhong gong ": 7153,
  "mei mei ": 7154,
  "shen wang ": 7155,
  "tor": 7156,
  "   Y": 7157,
  "mi shi ": 7158,
  "qian zai ": 7159,
  " bu lai ": 7160,
  " bu zu ": 7161,
  "zhen ya ": 7162,
  "quan qiu": 7163,
  "ti yu guan ": 7164,
  "yi shi jian ": 7165,
  "jian li de ": 7166,
  " qi yong ": 7167,
  "tu ran ": 7168,
  "9 mi ": 7169,
  "ok": 7170,
  " chun": 7171,
  "   lu ": 7172,
  "zhe yu ": 7173,
  "xia yu ": 7174,
  "na er ": 7175,
  "hai jun": 7176,
  "mian ji he ": 7177,
  " xi ban ya yu ": 7178,
  "   yong ": 7179,
  "da duo shu ": 7180,
  "shen shang ": 7181,
  "nv yan yuan ": 7182,
  " 1987 nian ": 7183,
  "an ren ": 7184,
  "jie wei zhi ": 7185,
  "cha li ": 7186,
  "har": 7187,
  "kai mu ": 7188,
  " 1948 nian ": 7189,
  " guo min dang ": 7190,
  "xia xia de yi ge xiang ": 7191,
  " she li ": 7192,
  "fa zhong ": 7193,
  "fen shi ": 7194,
  "nan fei ": 7195,
  "gu dong ": 7196,
  " de yi si ": 7197,
  "chong man ": 7198,
  "can yu le ": 7199,
  " 1982 nian ": 7200,
  "mou sha ": 7201,
  " guang": 7202,
  "   fei ": 7203,
  "shu you ": 7204,
  "lu zai ": 7205,
  "pan chu ": 7206,
  "   2003 nian ": 7207,
  " yu 2011 nian ": 7208,
  "63": 7209,
  "61 ": 7210,
  "64 ": 7211,
  "la yu ": 7212,
  "re   ": 7213,
  "chu ban de ": 7214,
  "le liang ": 7215,
  "la te ": 7216,
  " mu qian shang wei you ": 7217,
  "   tong ": 7218,
  "   gao ": 7219,
  "yuan ren ": 7220,
  "la li ": 7221,
  "su da ": 7222,
  "he ping ": 7223,
  " you xing ": 7224,
  " zai na li ": 7225,
  "jiao zong ": 7226,
  " shi zhong xin ": 7227,
  "xiang gang de ": 7228,
  "chuang shi ren ": 7229,
  "xi si ": 7230,
  "sheng ge wei ": 7231,
  "chan de ": 7232,
  "ming ci ": 7233,
  "bi ya": 7234,
  "cai wu ": 7235,
  "han lin ": 7236,
  " zui da ": 7237,
  " wei ya ": 7238,
  "ti gong de ": 7239,
  "dan yuan ": 7240,
  "di yi bu ": 7241,
  " 1978 nian ": 7242,
  "   6 ": 7243,
  "qu zai ": 7244,
  "war": 7245,
  "fu luo li da ": 7246,
  "an pai": 7247,
  " dong jing ": 7248,
  " mu qian shang wei you ren gong yin zhong zai pei ": 7249,
  "II ": 7250,
  "ay": 7251,
  "nen ": 7252,
  " gu shi ": 7253,
  "mei yi ": 7254,
  "zhang li ": 7255,
  "shen ji ": 7256,
  "gu wu ": 7257,
  "lian meng de ": 7258,
  "BC ": 7259,
  "jiong": 7260,
  "   shang ": 7261,
  "dice ": 7262,
  "xi zang ": 7263,
  " da chen ": 7264,
  "bian hao wei ": 7265,
  "chuang xin ": 7266,
  " hu nan ": 7267,
  "1995 nian ": 7268,
  "bu man ": 7269,
  "shou hui ": 7270,
  "huan jie ": 7271,
  "   Com": 7272,
  "01 ": 7273,
  " zhi zheng ": 7274,
  "ke xue": 7275,
  "zhu da ": 7276,
  "dao qian ": 7277,
  "ju chang ": 7278,
  " hao mi ": 7279,
  " lei": 7280,
  "duo bu ": 7281,
  "chou bei ": 7282,
  " shi ba ": 7283,
  "wu li xue ": 7284,
  "   4 yue ": 7285,
  "zhou fu ze guan xia ": 7286,
  " qi qi ": 7287,
  "ru jing ": 7288,
  "che dao ": 7289,
  "zao qi de ": 7290,
  " qing chao ": 7291,
  "3000": 7292,
  "ab": 7293,
  "he yi ge ": 7294,
  "er   ": 7295,
  "hao ji ": 7296,
  "tui xing ": 7297,
  "xin zeng ": 7298,
  "wang chao": 7299,
  "la ge ": 7300,
  " gai di de ": 7301,
  "62 ": 7302,
  " lai": 7303,
  "zu yu ": 7304,
  "han shi ": 7305,
  " zhe ye shi ": 7306,
  " dan yi ": 7307,
  "zhu yao shi ": 7308,
  "8 ge ": 7309,
  "   bo ": 7310,
  "tai da ": 7311,
  "xun shi ": 7312,
  " xi jin ": 7313,
  "fang cheng ": 7314,
  "tian ran": 7315,
  "sai bai ": 7316,
  "mian shang ": 7317,
  " zi liao ": 7318,
  "3 ming ": 7319,
  " re ": 7320,
  "ha de ": 7321,
  "xiang bei ": 7322,
  "hou lai": 7323,
  "yin zi ": 7324,
  "zong dui ": 7325,
  "nei meng gu ": 7326,
  " dong wu ": 7327,
  "shou dao le ": 7328,
  " ha er ": 7329,
  "DV": 7330,
  "xiang zai ": 7331,
  "zeng zhi ": 7332,
  "fa biao": 7333,
  " er zhe ": 7334,
  "xie tiao": 7335,
  " gong jin ": 7336,
  " ke neng hui ": 7337,
  "   ge ren sheng huo ": 7338,
  " sai": 7339,
  "jin zhong ": 7340,
  "jiang he ": 7341,
  " ren min": 7342,
  "yong jiu ": 7343,
  "ya zhou": 7344,
  " dan ye ": 7345,
  "pei xun ": 7346,
  " zhe bu ": 7347,
  "2 nian zhi ": 7348,
  " xie": 7349,
  " ning": 7350,
  "bu wei yu ": 7351,
  "lun si ": 7352,
  "sheng xiao ": 7353,
  "jing ji xue ": 7354,
  "jiao yu ji ": 7355,
  " ying chi ": 7356,
  "300 ": 7357,
  " po ": 7358,
  " 1 yue ": 7359,
  "tuo fu ": 7360,
  "da xue de ": 7361,
  "zhu long ": 7362,
  "bao an ": 7363,
  "xin sheng ": 7364,
  " mei yuan ": 7365,
  "℃": 7367,
  " ke li si ": 7368,
  "   ri ": 7369,
  "niu si ": 7370,
  "ne sheng ": 7371,
  " shi gu ": 7372,
  " shi xiang gang ": 7373,
  " zhi yao ": 7374,
  "xiang lian ": 7375,
  "   Me": 7376,
  " ka er ": 7377,
  "ci hui ": 7378,
  " ba li ": 7379,
  " JR": 7380,
  "dao li ": 7381,
  "zhan zai ": 7382,
  "yan li ": 7383,
  " li nian ": 7384,
  "ci ke ": 7385,
  "dian chi ": 7386,
  "gai ming ": 7387,
  "ting yun ": 7388,
  " bao gao ": 7389,
  " quan qiu ": 7390,
  "YouTube ": 7391,
  "   pu ": 7392,
  "qian wei ": 7393,
  " yi xing ": 7394,
  "cheng dan ": 7395,
  "ling yu de ": 7396,
  "sai che ": 7397,
  " bing mei you ": 7398,
  "shui shen ": 7399,
  "   jin guan ": 7400,
  "laySta": 7401,
  "55 ": 7402,
  "5 nian zhi ": 7403,
  " gui": 7404,
  "wu zai ": 7405,
  "lao gong ": 7406,
  " he he ": 7407,
  " xi yuan ": 7408,
  " yu 2024 nian ": 7409,
  "   7": 7410,
  "liang jia ": 7411,
  "nuo si ": 7412,
  "li yong ": 7413,
  " Re": 7414,
  "oog": 7415,
  "ka luo lai na ": 7416,
  "2 nian de ": 7417,
  "3 nian zhi ": 7418,
  "the   ": 7419,
  " diao": 7420,
  "qian li ": 7421,
  "duan qi ": 7422,
  " zhi chi": 7423,
  "fu hua ": 7424,
  "zhan sheng ": 7425,
  "zhan zheng de ": 7426,
  "dui ta ": 7427,
  " 1920 nian ": 7428,
  " can": 7429,
  "zhong shi ji ": 7430,
  "jie zai ": 7431,
  " shi nan ji zhou de ": 7432,
  " li xue ": 7433,
  "gong zuo de ": 7434,
  "fu jia ": 7435,
  "luo xuan ": 7436,
  " 1980 nian ": 7437,
  "hou guo ": 7438,
  "nan ren ": 7439,
  "ra ": 7440,
  " yu 2023 nian ": 7441,
  " dai": 7442,
  "si yue ": 7443,
  "ni shi ": 7444,
  " yi xie": 7445,
  " nian qing ": 7446,
  "min jin ": 7447,
  " yu 2009 nian ": 7448,
  "MA": 7449,
  " 22": 7450,
  "wai ji ": 7451,
  " yi cheng ": 7452,
  "jia zhou ": 7453,
  "chong zu ": 7454,
  "fa sheng le ": 7455,
  "ohn": 7456,
  "44 ": 7457,
  " tiao ": 7458,
  "den": 7459,
  "   8 yue ": 7460,
  "di liu ": 7461,
  "si fa ": 7462,
  "jin xing": 7463,
  "lu duan ": 7464,
  "ping heng ": 7465,
  "ba sai ": 7466,
  "lan se ": 7467,
  "ting kao ": 7468,
  "zhan zheng qi jian ": 7469,
  "jing xi ": 7470,
  "pan de ": 7471,
  " zai ta de ": 7472,
  "fen cheng ": 7473,
  "zhou bian": 7474,
  "zui duo de ": 7475,
  " li shi xue jia ": 7476,
  "   ye ": 7477,
  "   quan ": 7478,
  "   gu shi ": 7479,
  "ree": 7480,
  "wei ji ": 7481,
  " yue lai yue ": 7482,
  "ge ci ": 7483,
  "zi gong si ": 7484,
  "jin shan ": 7485,
  "qu dong ": 7486,
  "hou fang ": 7487,
  "yan xu ": 7488,
  "bo la ": 7489,
  "se cai ": 7490,
  "go": 7491,
  " gan": 7492,
  "si zhong ": 7493,
  "che li ": 7494,
  "jun jian ": 7495,
  " fu ze": 7496,
  "dang an ": 7497,
  "hui yi shang ": 7498,
  "mian ji he ren kou ": 7499,
  " bu": 7500,
  "shou er ": 7501,
  "du zhi ": 7502,
  "er bei ": 7503,
  "jian dan ": 7504,
  "nian dai ": 7505,
  "72 ": 7506,
  " bu shi ": 7507,
  "   la ": 7508,
  "gai zhi ": 7509,
  "la di ": 7510,
  "ding zai ": 7511,
  "cha ju ": 7512,
  "yan sheng ": 7513,
  " de ji shu ": 7514,
  "ying de le ": 7515,
  "jiang su sheng ": 7516,
  " cao": 7517,
  "she li de ": 7518,
  "wang yi ": 7519,
  "jia qiang ": 7520,
  "ci shu ": 7521,
  "dang xuan wei ": 7522,
  "a de ": 7523,
  "1900": 7524,
  "pei de ": 7525,
  "hang xing ": 7526,
  "ros": 7527,
  "si xing ": 7528,
  "qu nei ": 7529,
  "tong xue ": 7530,
  " da bu ": 7531,
  "xuan chuan": 7532,
  "tu an ": 7533,
  "hei long jiang ": 7534,
  " gai di de mian ji he ren kou ": 7535,
  " gai di de mian ji he ren kou jie wei zhi ": 7536,
  "ts ": 7537,
  "ty ": 7538,
  "   dui yu ": 7539,
  "   mu qian ": 7540,
  "lu wei ": 7541,
  "zhong xue ": 7542,
  " gai cun": 7543,
  "   you xi ": 7544,
  "chui zhi ": 7545,
  "ES": 7546,
  "xin he ": 7547,
  "lei he ": 7548,
  "ce qi ": 7549,
  " shi bu ": 7550,
  " li qi ": 7551,
  "jiang zhe ": 7552,
  "zong jing li ": 7553,
  " yi shu jia ": 7554,
  " 1938 nian ": 7555,
  "0 ren ": 7556,
  "wei shi jie ": 7557,
  "mie": 7558,
  "jiang zui jia ": 7559,
  " qian long ": 7560,
  "ci he ": 7561,
  "ding zhi ": 7562,
  "qu zi ": 7563,
  "mi du ": 7564,
  "jiu du yu ": 7565,
  "Ro": 7566,
  "an fu ": 7567,
  "   Sta": 7568,
  "zheng xie wei yuan ": 7569,
  "US": 7570,
  " qiao": 7572,
  "dong zhi ": 7573,
  "zuo yu ": 7574,
  "mei er ": 7575,
  "zhuang wei ": 7576,
  " shi zhang ": 7577,
  "jia na ": 7578,
  "tong chang": 7579,
  "zong shu ": 7580,
  "bian yu ": 7581,
  " di 1 ": 7582,
  "gai jin ": 7583,
  "ka fei ": 7584,
  "nong chang ": 7585,
  "   yi xia ": 7586,
  " 1947 nian ": 7587,
  "zi xing che ": 7588,
  "jia li fu ni ya zhou ": 7589,
  "ck ": 7590,
  "   jian li ": 7591,
  "mi ji ": 7592,
  "ba ta ": 7593,
  " zai nan ": 7594,
  " da qiao ": 7595,
  " ke lai ": 7596,
  "   jian zhu ": 7597,
  "di yi ji ": 7598,
  "zhe ji ": 7599,
  "feng yu ": 7600,
  "chuan yue ": 7601,
  "1993 nian ": 7602,
  " zhong bei ": 7603,
  "gu lao de ": 7604,
  " wu xian ": 7605,
  "xiu ding ": 7606,
  " le ": 7607,
  "   7 yue ": 7608,
  "kuai de ": 7609,
  "jin rong ": 7610,
  "zhan ju ": 7611,
  "du te de ": 7612,
  "liu liang ": 7613,
  " shi ji yu ": 7614,
  "hang zhan ": 7615,
  "zui zhong yao de ": 7616,
  "86": 7617,
  " zhan di ": 7618,
  "ka de ": 7619,
  "jun bei ": 7620,
  "mei tian ": 7621,
  "J ": 7622,
  "and": 7623,
  "li yi ": 7624,
  "cheng yi ge ": 7625,
  "jiao ji ": 7626,
  "te yu ": 7627,
  " yi ti ": 7628,
  "zheng jiao ": 7629,
  "che tui ": 7630,
  "pu cha ": 7631,
  " 157": 7632,
  " 1979 nian ": 7633,
  "ph": 7634,
  " ou": 7635,
  " guan zhi ": 7636,
  " lei ji ": 7637,
  "   9 yue ": 7638,
  "fu zhong ": 7639,
  "zhu shou ": 7640,
  "zhu guan ": 7641,
  "nan min ": 7642,
  "wan mei yuan ": 7643,
  "chi jing ": 7644,
  " gong gong ": 7645,
  "ge yue hou ": 7646,
  "zhan dou ji ": 7647,
  "shou li ": 7648,
  "zao xing ": 7649,
  " bu lu ": 7650,
  "yan fa ": 7651,
  "yin ni ": 7652,
  "jiu bei ": 7653,
  "e hai e ": 7654,
  " ming chao ": 7655,
  "5 nian de ": 7656,
  "zuo he ": 7657,
  "suan de ": 7658,
  "wan zheng de ": 7659,
  "lin sheng ": 7660,
  " ci ci ": 7661,
  "hang ban ": 7662,
  " fa biao ": 7663,
  " fan dui ": 7664,
  "   che zhan jie gou ": 7665,
  " bang ": 7666,
  "   ta": 7667,
  "bao fu ": 7668,
  "dai ti ": 7669,
  " zai yu ": 7670,
  "wu xian dian shi ": 7671,
  "   f": 7672,
  "1980 nian ": 7673,
  " li you ": 7674,
  "fa jue ": 7675,
  "shang fang ": 7676,
  "mei ti": 7677,
  "mian qian ": 7678,
  " fen bie wei ": 7679,
  "   ai ": 7680,
  "an xian ": 7681,
  "jin qi ": 7682,
  "mu ji ": 7683,
  "ying guo de ": 7684,
  "zong ju ": 7685,
  " ping tai ": 7686,
  " hua sheng ": 7687,
  "gong chan zhu yi ": 7688,
  " li fa hui ": 7689,
  "PS": 7690,
  " jun shi ": 7691,
  "   jiu ": 7692,
  "sheng ren min zheng fu ": 7693,
  "fang di ": 7694,
  "duan yu ": 7695,
  "tuo yuan ": 7696,
  " tong ri ": 7697,
  "   2002 nian ": 7698,
  "cheng li le ": 7699,
  "   mu ": 7700,
  "ya si ": 7701,
  "fu bu zhang ": 7702,
  "zi sha ": 7703,
  "hui jia ": 7704,
  "luo fa ke ": 7705,
  "fei zhi ": 7706,
  "ku er ": 7707,
  "zhuan zhi ": 7708,
  "ju feng": 7709,
  "ju zhu zai ": 7710,
  "fang xing ": 7711,
  "zuo le ": 7712,
  " qi zhong you ": 7713,
  "   zhi zuo ": 7714,
  " 1937 nian ": 7715,
  "8 nian zhi ": 7716,
  "KB": 7717,
  "e er ": 7718,
  "lu xi ": 7719,
  "kuang jia ": 7720,
  "jian chi ": 7721,
  "gang tie ": 7722,
  " de shi shi ": 7723,
  " tong zhi ": 7724,
  "tui fan ": 7725,
  "s   of": 7726,
  " 100 ": 7727,
  "   1949 nian ": 7728,
  "wit": 7729,
  "� ": 7730,
  "   6 yue ": 7731,
  "bao ji ": 7732,
  "di da ": 7733,
  "jie jie ": 7734,
  "110": 7735,
  "   ri ben ": 7736,
  "dui wei ": 7737,
  " yi xue ": 7738,
  " you he ": 7739,
  "jin zhang ": 7740,
  "zhuan huan ": 7741,
  "li ke ": 7742,
  "luo wei ": 7743,
  "zong de ": 7744,
  " shi tai wan ": 7745,
  " he cheng ": 7746,
  "jian zhu shi ": 7747,
  " bu he ": 7748,
  "yan shen zhi ": 7749,
  "wen ge ": 7750,
  "qian lai ": 7751,
  " de yi jian ": 7752,
  "xin xi lan ": 7753,
  "ke xue jia ": 7754,
  "fang bian ": 7755,
  "qian xian ": 7756,
  "tai shou ": 7757,
  "zhen zheng ": 7758,
  "2 li ": 7759,
  "lai er ": 7760,
  "1990 nian ": 7761,
  "jin cheng ": 7762,
  " da xue de ": 7763,
  " fu gai ": 7764,
  "bian zu ": 7765,
  "fei chang": 7766,
  "7 nian de ": 7767,
  "oi": 7768,
  "yan qi ": 7769,
  "ben zhi ": 7770,
  " zai ri ben ": 7771,
  "xiang jiao ": 7772,
  "nuan ": 7773,
  "tai wei ": 7774,
  "shen li ": 7775,
  "shan yu ": 7776,
  "nei si ": 7777,
  "ka li ": 7778,
  "1944 nian ": 7779,
  "hei ren ": 7780,
  " ke la ": 7781,
  "mu jian ": 7782,
  "   Co": 7783,
  " 12 ": 7784,
  "zu shi ": 7785,
  "zu wei ": 7786,
  "dang zai ": 7787,
  "duo li ": 7788,
  "ted   ": 7789,
  "guo fang bu ": 7790,
  " guo fang ": 7791,
  "cheng shu ": 7792,
  "ba le si ": 7793,
  "pan luan ": 7794,
  "HD": 7795,
  "nian de ": 7796,
  "po er ": 7797,
  "reng zai ": 7798,
  "shu shu ": 7799,
  "meng te ": 7800,
  "   gen ju 2010 nian mei guo ren kou pu cha de shu ju ": 7801,
  " hui yi ": 7802,
  "jin he ": 7803,
  "mei zhong ": 7804,
  "jiang wei ": 7805,
  " xi xi ": 7806,
  "jing qu ": 7807,
  "quan ti ": 7808,
  "liu xue ": 7809,
  "tou ru": 7810,
  "chong fan ": 7811,
  "73": 7812,
  " heng": 7813,
  "   huo ": 7814,
  "xin yu ": 7815,
  "qian qi ": 7816,
  "hao he ": 7817,
  "ban ben de ": 7818,
  "7 ge ": 7819,
  " 21": 7820,
  " pian ": 7821,
  "ri er ": 7822,
  "tui li ": 7823,
  "yuan wai ": 7824,
  "zheng wu ": 7825,
  "liu chuan ": 7826,
  "li liang ": 7827,
  " bi xu ": 7828,
  "   tang ": 7829,
  "qian yu ": 7830,
  "chong fu ": 7831,
  "chen de ": 7832,
  " yue ren ": 7833,
  "cheng gong de ": 7834,
  "jing yuan ": 7835,
  " er he ": 7836,
  "ty": 7837,
  " zha": 7838,
  "xiao yi ": 7839,
  "bai shi ": 7840,
  "xi lie": 7841,
  "hui guan ": 7842,
  " ri bao ": 7843,
  "feng ge de ": 7844,
  "qu shi hou ": 7845,
  "dang he ": 7846,
  "dang ri ": 7847,
  "bei mei ": 7848,
  "fang xiang de ": 7849,
  "duo xiang ": 7850,
  "tu sha ": 7851,
  " ti chu ": 7852,
  "47 ": 7853,
  "xian bu ": 7854,
  "gu yi ": 7855,
  "ceng bei ": 7856,
  "huan wei ": 7857,
  "da lu": 7858,
  "pai she": 7859,
  "tan suo ": 7860,
  " wei yuan hui de ": 7861,
  " wu": 7862,
  "   yan ge ": 7863,
  "kai qi ": 7864,
  "fan fu ": 7865,
  "pu de ": 7866,
  "zhao shi ": 7867,
  " ke cheng ": 7868,
  "liu ge ": 7869,
  " dao da ": 7870,
  "guang fan de ": 7871,
  "xin guan fei yan ": 7872,
  "er zhong ": 7873,
  "ta er ": 7874,
  " yu 195": 7875,
  "fen xiang ": 7876,
  "mian xiang ": 7877,
  " shi shi zhang ": 7878,
  "cao zuo": 7879,
  " fei li ": 7880,
  "OM": 7881,
  "fei shi ": 7882,
  "che ren ": 7883,
  "sha shi ": 7884,
  "jia er ": 7885,
  "le xu duo ": 7886,
  "cai zheng bu ": 7887,
  " 1981 nian ": 7888,
  " jin nian ": 7889,
  "1941 nian ": 7890,
  "wu ren ji ": 7891,
  "jie ru ": 7892,
  "xiao she ": 7893,
  "huo qu ": 7894,
  "liao ning": 7895,
  "xing zheng dan wei ": 7896,
  "sang shi ": 7897,
  "ry ": 7898,
  "wan qi ": 7899,
  "rong de ": 7900,
  "wu bu ": 7901,
  "jin si ": 7902,
  "bo yin ": 7903,
  "fei fa ": 7904,
  " hai jun ": 7905,
  " zheng ge ": 7906,
  " yu 2008 nian ": 7907,
  " ceng jing ": 7908,
  " jiang xi ": 7909,
  "   189": 7910,
  "hang kong gong si ": 7911,
  " shi yi ge wei yu mei guo ": 7912,
  "dao guo ": 7913,
  "xin zhi ": 7914,
  "tuo er ": 7915,
  "gei ta ": 7916,
  "shang jiang ": 7917,
  "qian ze ": 7918,
  "ting zhang ": 7919,
  "tao wang ": 7920,
  " an hui ": 7921,
  "ren da dai biao ": 7922,
  "OR": 7923,
  "ming ji ": 7924,
  "dian yu ": 7925,
  "tai yi ": 7926,
  "fu qi ": 7927,
  "zhu chi ren ": 7928,
  "fa bu de ": 7929,
  "sai guan jun ": 7930,
  "ken ding ": 7931,
  " fen bie shi ": 7932,
  "igh": 7933,
  " yu yi ": 7934,
  " zhuo": 7935,
  "fan ji ": 7936,
  " ri you ": 7937,
  " 158": 7938,
  "Windows   ": 7939,
  " liu yu mian ji ": 7940,
  "le zhi ": 7941,
  "che xing ": 7942,
  "shao you ": 7943,
  "1989 nian ": 7944,
  "he bei ": 7945,
  "yuan shu ": 7946,
  "fu si ": 7947,
  "wu er ": 7948,
  " bing biao shi ": 7949,
  "cai pan ": 7950,
  "tou shou ": 7951,
  "ke yi tong guo ": 7952,
  "ls": 7953,
  "ting shi ": 7954,
  "ren min": 7955,
  "xiang dao ": 7956,
  "liang hao ": 7957,
  " xian jin ": 7958,
  " fa sheng ": 7959,
  " M ": 7960,
  " 40": 7961,
  " gen ju 2020 nian mei guo ren kou pu cha de shu ju ": 7962,
  "1 jia ": 7963,
  " peng ": 7964,
  "ben ji ": 7965,
  "ma qi ": 7966,
  " yi chang ": 7967,
  "ge ti ": 7968,
  "jie xia ": 7969,
  "shou ming ": 7970,
  "zuo ye ": 7971,
  "zhuan qu ": 7972,
  "huo de de ": 7973,
  " yan chang ": 7974,
  "roun": 7975,
  "35 nian ": 7976,
  "4 nian zhi ": 7977,
  "   X": 7978,
  "   gai": 7979,
  "ben bu ": 7980,
  "san yue ": 7981,
  "nv you ": 7982,
  "qiao de ": 7983,
  "1984 nian ": 7984,
  "zhong gong ": 7985,
  "ke sa si ": 7986,
  " di er ci ": 7987,
  "DS": 7988,
  "hao zai ": 7989,
  "tao li ": 7990,
  "qian xia ": 7991,
  "ping ding ": 7992,
  " zhou": 7993,
  " pin ": 7994,
  " guan li ": 7995,
  " chong xin ": 7996,
  "guan wei ": 7997,
  "ying he ": 7998,
  "nan yu ": 7999
}