{
  "!": 0,
  "\"": 1,
  "#": 2,
  "$": 3,
  "%": 4,
  "&": 5,
  "'": 6,
  "(": 7,
  ")": 8,
  "*": 9,
  "+": 10,
  ",": 11,
  "-": 12,
  ".": 13,
  "/": 14,
  "0": 15,
  "1": 16,
  "2": 17,
  "3": 18,
  "4": 19,
  "5": 20,
  "6": 21,
  "7": 22,
  "8": 23,
  "9": 24,
  ":": 25,
  ";": 26,
  "=": 27,
  "?": 28,
  "@": 29,
  "A": 30,
  "B": 31,
  "C": 32,
  "D": 33,
  "E": 34,
  "F": 35,
  "G": 36,
  "H": 37,
  "I": 38,
  "J": 39,
  "K": 40,
  "L": 41,
  "M": 42,
  "N": 43,
  "O": 44,
  "P": 45,
  "Q": 46,
  "R": 47,
  "S": 48,
  "T": 49,
  "U": 50,
  "V": 51,
  "W": 52,
  "X": 53,
  "Y": 54,
  "Z": 55,
  "[": 56,
  "\\": 57,
  "]": 58,
  "^": 59,
  "_": 60,
  "`": 61,
  "a": 62,
  "b": 63,
  "c": 64,
  "d": 65,
  "e": 66,
  "f": 67,
  "g": 68,
  "h": 69,
  "i": 70,
  "j": 71,
  "k": 72,
  "l": 73,
  "m": 74,
  "n": 75,
  "o": 76,
  "p": 77,
  "q": 78,
  "r": 79,
  "s": 80,
  "t": 81,
  "u": 82,
  "v": 83,
  "w": 84,
  "x": 85,
  "y": 86,
  "z": 87,
  "|": 88,
  "~": 89,
  "�": 105,
  "\n": 162,
  " ": 163,
  "": 164,
  "ng": 199,
  "i4": 200,
  "an": 201,
  "sh": 202,
  "zh": 203,
  "ng1": 204,
  "ji": 205,
  "u4": 206,
  "ng2": 207,
  "  ": 208,
  "i2": 209,
  "ao": 210,
  "xi": 211,
  "ng4": 212,
  "an2": 213,
  "i3": 214,
  "i1": 215,
  "de": 216,
  "u3": 217,
  "an4": 218,
  "e4": 219,
  "en": 220,
  "ch": 221,
  "uo": 222,
  "u2": 223,
  "ng3": 224,
  "an1": 225,
  "e2": 226,
  "ai4": 227,
  "u1": 228,
  "   ": 229,
  "ong1": 230,
  "a1": 231,
  "shi4": 233,
  "ei4": 234,
  "ao4": 235,
  "ian2": 236,
  "a4": 237,
  "yu": 238,
  "ang1": 239,
  "yo": 240,
  "an3": 241,
  "n1": 242,
  "hu": 243,
  "ang4": 244,
  "nian2": 245,
  "en2": 246,
  "li": 247,
  "ang3": 248,
  "eng2": 249,
  "uo4": 250,
  "uo2": 251,
  "wei4": 252,
  "mi": 253,
  "ao3": 254,
  "zai4": 255,
  "、": 256,
  "bi": 257,
  "qi": 258,
  "ang2": 259,
  "e1": 260,
  "he2": 261,
  "yi": 262,
  "eng1": 263,
  "zhong1": 264,
  "er": 265,
  "bu4": 266,
  "ou4": 267,
  "a3": 268,
  "e3": 269,
  "n4": 270,
  "shi2": 271,
  "di4": 272,
  "guo2": 273,
  "ai2": 274,
  "ui4": 275,
  "ren2": 276,
  "ao1": 277,
  "xu": 278,
  "yi1": 279,
  "n2": 280,
  "ong2": 281,
  "yu2": 282,
  "gu": 283,
  "li4": 284,
  "zhi4": 285,
  "di": 286,
  "we": 287,
  "en4": 288,
  "cheng2": 289,
  "ong4": 290,
  "yi4": 291,
  "gong1": 292,
  "ji2": 293,
  "eng4": 294,
  "en1": 295,
  "yue4": 296,
  "you3": 297,
  "yuan2": 298,
  "da4": 299,
  "a2": 300,
  "le": 301,
  "ji4": 302,
  "20": 303,
  "yi3": 304,
  "ju": 305,
  "ai1": 306,
  "pi": 307,
  "xian4": 308,
  "ou1": 309,
  "jia1": 310,
  "si1": 311,
  "xing2": 312,
  "ei3": 313,
  "ti": 314,
  "yu3": 315,
  "ji1": 316,
  "ta1": 317,
  "ri4": 318,
  "zhi1": 319,
  "hou4": 320,
  "li3": 321,
  "ou3": 322,
  "ai3": 323,
  "wei2": 324,
  "hui4": 325,
  "dao4": 326,
  "19": 327,
  "ong3": 328,
  "qi2": 329,
  "uan2": 330,
  "zheng4": 331,
  "ming2": 332,
  "xi1": 333,
  "ao2": 334,
  "jian4": 335,
  "xue2": 336,
  "chu1": 337,
  "ge4": 338,
  "zuo4": 339,
  "uo1": 340,
  "sheng1": 341,
  "dui4": 342,
  "you2": 343,
  "uo3": 344,
  "qu1": 345,
  "shang4": 346,
  "en3": 347,
  "de2": 348,
  "bei4": 349,
  "shi3": 350,
  "zhu": 351,
  "zhan4": 352,
  "n3": 353,
  "xin1": 354,
  "jun1": 355,
  "er3": 356,
  "she4": 357,
  "ren4": 358,
  "fa1": 359,
  "wu4": 360,
  "bing4": 361,
  "ke4": 362,
  "er2": 363,
  "lu4": 364,
  "dai4": 365,
  "zhu3": 366,
  "yi2": 367,
  "shu4": 368,
  "ju4": 369,
  "jin4": 370,
  "zi4": 371,
  "yin1": 372,
  "fu4": 373,
  "fang1": 374,
  "jing1": 375,
  "nan2": 376,
  "hua4": 377,
  "zhou1": 378,
  "ping2": 379,
  "xia4": 380,
  "lai2": 381,
  "yong4": 382,
  "guan1": 383,
  "tong2": 384,
  "yu4": 385,
  "》": 386,
  "《": 387,
  "fa3": 388,
  "zhu4": 389,
  "mei3": 390,
  "·": 391,
  "jian1": 392,
  "bo": 393,
  "huo4": 394,
  "ben3": 395,
  "xiang1": 396,
  "zhi2": 397,
  "dong4": 398,
  "xiang4": 399,
  "min2": 400,
  "zhe4": 401,
  "jiang1": 402,
  "qi1": 403,
  "fen1": 404,
  "shou3": 405,
  "quan2": 406,
  "wen2": 407,
  "yan2": 408,
  "suo3": 409,
  "jiao4": 410,
  "qian2": 411,
  "dian4": 412,
  "te4": 413,
  "duo1": 414,
  "zui4": 415,
  "kai1": 416,
  "jie2": 417,
  "lian2": 418,
  "zhi3": 419,
  "xi4": 420,
  "ke3": 421,
  "eng3": 422,
  "ei1": 423,
  "dan4": 424,
  "mu4": 425,
  "ye4": 426,
  "du4": 427,
  "fu2": 428,
  "shu": 429,
  "ma3": 430,
  "ye3": 431,
  "dong1": 432,
  "qiu2": 433,
  "bei3": 434,
  "「": 435,
  "」": 436,
  "gao1": 437,
  "ya4": 438,
  "ou2": 439,
  "du": 440,
  "jie1": 441,
  "un2": 442,
  "mian4": 443,
  "hai3": 444,
  "zhang3": 445,
  "shi1": 446,
  "jin1": 447,
  "ci3": 448,
  "nei4": 449,
  "sai4": 450,
  "san1": 451,
  "tai2": 452,
  "ge2": 453,
  "xing4": 454,
  "guo4": 455,
  "201": 456,
  "deng3": 457,
  "yao4": 458,
  "che1": 459,
  "ci4": 460,
  "su": 461,
  "mo": 462,
  "ru4": 463,
  "wu3": 464,
  "gai1": 465,
  "ku": 466,
  "ding4": 467,
  "chang2": 468,
  "biao3": 469,
  "la1": 470,
  "ti3": 471,
  "gong4": 472,
  "jie4": 473,
  "shou4": 474,
  "dao3": 475,
  "shan1": 476,
  "chang3": 477,
  "si4": 478,
  "lv": 479,
  "ze2": 480,
  "ti2": 481,
  "ke1": 482,
  "dang1": 483,
  "neng2": 484,
  "er4": 485,
  "wai4": 486,
  "ei2": 487,
  "chu": 488,
  "dan1": 489,
  "qi3": 490,
  "zi": 491,
  "kou3": 492,
  "xiao3": 493,
  "zu3": 494,
  "ba1": 495,
  "jue2": 496,
  "lin2": 497,
  "liu2": 498,
  "ni": 499,
  "sheng3": 500,
  "ying1": 501,
  "lan2": 502,
  "bi3": 503,
  "luo2": 504,
  "tong1": 505,
  "200": 506,
  "zhong4": 507,
  "zhe3": 508,
  "shu3": 509,
  "tian1": 510,
  "zhen4": 511,
  "zhong3": 512,
  "lie4": 513,
  "qi4": 514,
  "cheng1": 515,
  "shu1": 516,
  "yuan4": 517,
  "bao3": 518,
  "tai4": 519,
  "fu3": 520,
  "feng1": 521,
  "mi3": 522,
  "qing1": 523,
  "shen1": 524,
  "wang2": 525,
  "yun4": 526,
  "guan3": 527,
  "fei1": 528,
  "jiu4": 529,
  "gu3": 530,
  "liang3": 531,
  "ceng2": 532,
  "mei2": 533,
  "10": 534,
  "fen4": 535,
  "hao4": 536,
  "yan3": 537,
  "wei3": 538,
  "zong3": 539,
  "xuan3": 540,
  "xiao4": 541,
  "da2": 542,
  "na4": 543,
  "liang4": 544,
  "bo1": 545,
  "zu2": 546,
  "jing4": 547,
  "bao4": 548,
  "ni2": 549,
  "wu2": 550,
  "tong3": 551,
  "hua2": 552,
  "jiao1": 553,
  "yue1": 554,
  "ying3": 555,
  "bian4": 556,
  "xing1": 557,
  "su4": 558,
  "shui3": 559,
  "yang2": 560,
  "men": 561,
  "bao1": 562,
  "ge1": 563,
  "bo2": 564,
  "can1": 565,
  "cong2": 566,
  "dian3": 567,
  "ru2": 568,
  "ban4": 569,
  "bi4": 570,
  "bian1": 571,
  "wang3": 572,
  "qu3": 573,
  "chan3": 574,
  "se4": 575,
  "zi1": 576,
  "qu": 577,
  "00": 578,
  "chuan2": 579,
  "nv": 580,
  "sheng4": 581,
  "ran2": 582,
  "tu2": 583,
  "zhang1": 584,
  "xu4": 585,
  "pu3": 586,
  "gai3": 587,
  "gang3": 588,
  "nv3": 589,
  "ling4": 590,
  "luo4": 591,
  "you4": 592,
  "tou2": 593,
  "hu4": 594,
  "cha2": 595,
  "ce4": 596,
  "chi2": 597,
  "18": 598,
  "lv4": 599,
  "qian1": 600,
  "li2": 601,
  "dou1": 602,
  "12": 603,
  "zheng1": 604,
  "kuo4": 605,
  "sha1": 606,
  "lu": 607,
  "dang3": 608,
  "fan3": 609,
  "gou4": 610,
  "lei4": 611,
  "xi2": 612,
  "jing3": 613,
  "tuan2": 614,
  "wei1": 615,
  "xie1": 616,
  "ling3": 617,
  "long2": 618,
  "gui1": 619,
  "xian1": 620,
  "rong2": 621,
  "huang2": 622,
  "xiang3": 623,
  "ban1": 624,
  "jiu3": 625,
  "ying4": 626,
  "men2": 627,
  "shang1": 628,
  "shen2": 629,
  "202": 630,
  "ban3": 631,
  "ka3": 632,
  "cu": 633,
  "mu3": 634,
  "jin3": 635,
  "fu1": 636,
  "ju3": 637,
  "mo2": 638,
  "guang3": 639,
  "ci2": 640,
  "shuo1": 641,
  "qing2": 642,
  "zhan3": 643,
  "hai2": 644,
  "zhuang1": 645,
  "mo4": 646,
  "cai2": 647,
  "ji3": 648,
  "du2": 649,
  "11": 650,
  "pin3": 651,
  "ting2": 652,
  "chao2": 653,
  "ying2": 654,
  "wo": 655,
  "tiao2": 656,
  "po": 657,
  "jian3": 658,
  "tang2": 659,
  "hui2": 660,
  "duan4": 661,
  "chen2": 662,
  "gen1": 663,
  "mi4": 664,
  "wan4": 665,
  "pai2": 666,
  "wan1": 667,
  "zao4": 668,
  "hang2": 669,
  "wan2": 670,
  "biao1": 671,
  "lun2": 672,
  "199": 673,
  "xie2": 674,
  "jiang3": 675,
  "han4": 676,
  "ju2": 677,
  "fan4": 678,
  "fang2": 679,
  "huo2": 680,
  "gu4": 681,
  "han2": 682,
  "kong1": 683,
  "tie3": 684,
  "meng2": 685,
  "bie2": 686,
  "wu1": 687,
  "jie3": 688,
  "zhuan1": 689,
  "yin3": 690,
  "xu1": 691,
  "zhen1": 692,
  "jia4": 693,
  "bing1": 694,
  "ming4": 695,
  "ling2": 696,
  "hong2": 697,
  "qin1": 698,
  "zi3": 699,
  "lun4": 700,
  "tu": 701,
  "or": 702,
  "xin4": 703,
  "chu4": 704,
  "su1": 705,
  "xiu1": 706,
  "chu3": 707,
  "zong1": 708,
  "15": 709,
  "hu2": 710,
  "que4": 711,
  "xiao1": 712,
  "zhao4": 713,
  "qiang2": 714,
  "qu4": 715,
  "cun1": 716,
  "chong2": 717,
  "pian4": 718,
  "jiu1": 719,
  "fang4": 720,
  "sui2": 721,
  "shou1": 722,
  "geng4": 723,
  "guang1": 725,
  "ju1": 726,
  "jia3": 727,
  "chuang4": 728,
  "di2": 729,
  "zhuan3": 730,
  "16": 731,
  "guo3": 732,
  "xun4": 733,
  "man4": 734,
  "pai4": 735,
  "fei4": 736,
  "pei4": 737,
  "198": 738,
  "da3": 739,
  "tuo1": 740,
  "xuan1": 741,
  "chu2": 742,
  "bai2": 743,
  "la": 744,
  "on": 745,
  "zhu1": 746,
  "du1": 747,
  "tu3": 748,
  "diao4": 749,
  "xia2": 750,
  "liu4": 751,
  "17": 752,
  "sui4": 753,
  "hui1": 754,
  "ting1": 755,
  "qie3": 756,
  "ta3": 757,
  "qiao2": 758,
  "ha1": 759,
  "gan3": 760,
  "zeng1": 761,
  "xian3": 762,
  "mai4": 763,
  "huan2": 764,
  "xu3": 765,
  "wa3": 766,
  "tui1": 767,
  "wen4": 768,
  "chao1": 769,
  "tian2": 770,
  "bai3": 771,
  "cai3": 772,
  "liang2": 773,
  "ya2": 774,
  "sa4": 775,
  "ar": 776,
  "bai4": 777,
  "cun2": 778,
  "jiao3": 779,
  "shao3": 780,
  "yan4": 781,
  "zhuang4": 782,
  "di3": 783,
  "huo3": 784,
  "lei2": 785,
  "14": 786,
  "jiang4": 787,
  "chuan1": 788,
  "yin4": 789,
  "zao3": 790,
  "yong3": 791,
  "si3": 792,
  "deng1": 793,
  "30": 794,
  "zhun3": 795,
  "le4": 796,
  "xun2": 797,
  "nuo4": 798,
  "huan4": 799,
  "song4": 800,
  "gao4": 801,
  "lu3": 802,
  "13": 803,
  "194": 804,
  "bang1": 805,
  "lv3": 806,
  "yang4": 807,
  "hen3": 808,
  "qun2": 809,
  "zheng3": 810,
  "guan4": 811,
  "po4": 812,
  "gang1": 813,
  "wo3": 814,
  "197": 815,
  "hua1": 816,
  "lei1": 817,
  "hao3": 818,
  "tao2": 819,
  "kuang4": 820,
  "pi1": 821,
  "dun4": 822,
  "nong2": 823,
  "gei3": 824,
  "sai1": 825,
  "shuang1": 826,
  "lian4": 827,
  "kuai4": 828,
  "in": 829,
  "di1": 830,
  "pan4": 831,
  "xie3": 832,
  "195": 833,
  "kao3": 834,
  "gai4": 835,
  "he4": 836,
  "hei1": 837,
  "wang4": 838,
  "liao4": 839,
  "re4": 840,
  "ge": 841,
  "zuo3": 842,
  "kong4": 843,
  "196": 844,
  "yang1": 845,
  "chang4": 846,
  "yin2": 847,
  "reng2": 848,
  "sen1": 849,
  "bei1": 850,
  "lu2": 851,
  "piao4": 852,
  "ya1": 853,
  "ku4": 854,
  "25": 855,
  "bin1": 856,
  "—": 857,
  "rang4": 858,
  "chong1": 859,
  "lou2": 860,
  "bu3": 861,
  "lao3": 862,
  "zhu2": 863,
  "jun4": 864,
  "yang3": 865,
  "rui4": 866,
  "yao1": 867,
  "xian2": 868,
  "xie4": 869,
  "nian4": 870,
  "for": 871,
  "you1": 872,
  "tan2": 873,
  "kang1": 874,
  "pi2": 875,
  "heng2": 876,
  "yun2": 877,
  "kan4": 878,
  "ning2": 879,
  "liao2": 880,
  "shao4": 881,
  "bu2": 882,
  "qing3": 883,
  "chi3": 884,
  "24": 885,
  "mu": 886,
  "dou4": 887,
  "mian3": 888,
  "yong1": 889,
  "tan3": 890,
  "wan3": 891,
  "hu1": 892,
  "ru": 893,
  "fan1": 894,
  "al": 895,
  "tu1": 896,
  "gan1": 897,
  "suan4": 898,
  "ding1": 899,
  "yuan3": 900,
  "wen1": 901,
  "tui4": 902,
  "zhe": 903,
  "st": 904,
  "21": 905,
  "xiu4": 906,
  "ba3": 907,
  "man3": 908,
  "193": 909,
  "23": 910,
  "mula": 911,
  "kang4": 912,
  "formula": 913,
  "28": 914,
  "th": 915,
  "mao2": 916,
  "ruo4": 917,
  "pian1": 918,
  "mao4": 919,
  "lang3": 920,
  "qin2": 921,
  "ba2": 922,
  "na2": 923,
  "zan4": 924,
  "xi3": 925,
  "gui3": 926,
  "gui4": 927,
  "re": 928,
  "pin2": 929,
  "wo4": 930,
  "xiong2": 931,
  "shan4": 932,
  "22": 933,
  "xiong1": 934,
  "me": 935,
  "sui1": 936,
  "26": 937,
  "shen3": 938,
  "qing4": 939,
  "miao2": 940,
  "fang3": 941,
  "50": 942,
  "2020": 943,
  "27": 944,
  "lang2": 945,
  "ou": 946,
  "qiu1": 947,
  "song1": 948,
  "ri": 949,
  "dang4": 950,
  "geng1": 951,
  "qiang1": 952,
  "fa2": 953,
  "zao1": 954,
  "feng4": 955,
  "zhang4": 956,
  "hao2": 958,
  "dun1": 959,
  "zou3": 960,
  "hai4": 961,
  "qie4": 962,
  "29": 963,
  "tan4": 964,
  "zu": 965,
  "pao4": 966,
  "pa4": 967,
  "shun4": 968,
  "peng2": 969,
  "xuan2": 970,
  "2010": 971,
  "ni3": 972,
  "000": 973,
  "ding3": 974,
  "niu3": 975,
  "zai3": 976,
  "zhao1": 977,
  "zhui1": 978,
  "lve4": 979,
  "chun1": 980,
  "2019": 981,
  "hun1": 982,
  "kong3": 983,
  "che4": 984,
  "duan1": 985,
  "shen4": 986,
  "xiang2": 987,
  "duan3": 988,
  "gan4": 989,
  "ro": 990,
  "te": 991,
  "kan1": 992,
  "lao2": 993,
  "cao3": 994,
  "2016": 995,
  "si": 996,
  "gu1": 997,
  "pei2": 998,
  "kuan3": 999,
  "za2": 1000,
  "2018": 1001,
  "sun1": 1002,
  "ye2": 1003,
  "ya3": 1004,
  "ra": 1005,
  "po1": 1006,
  "2021": 1007,
  "zha4": 1008,
  "chi4": 1009,
  "duo2": 1010,
  "2014": 1011,
  "fan2": 1012,
  "2011": 1013,
  "2015": 1014,
  "cuo4": 1015,
  "2017": 1016,
  "zhe2": 1017,
  "yao2": 1018,
  "pai1": 1019,
  "tou4": 1020,
  "cang2": 1021,
  "2012": 1022,
  "40": 1023,
  "kai3": 1024,
  "2013": 1025,
  "2022": 1026,
  "mi2": 1027,
  "ruan3": 1028,
  "suan1": 1029,
  "cha1": 1030,
  "zang4": 1031,
  "miao4": 1032,
  "lt": 1033,
  "2009": 1034,
  "zhao3": 1035,
  "2008": 1036,
  "huai2": 1037,
  "ce": 1039,
  "60": 1040,
  "xue4": 1041,
  "chou2": 1042,
  "se": 1043,
  "bang3": 1044,
  "am": 1045,
  "meng4": 1046,
  "100": 1047,
  "ti4": 1048,
  "pu2": 1049,
  "nao3": 1050,
  "2023": 1051,
  "zhuan4": 1052,
  "gt": 1053,
  "lei3": 1054,
  "190": 1055,
  "31": 1056,
  "cai4": 1057,
  "san4": 1058,
  "mou2": 1059,
  "tion": 1060,
  "hun4": 1061,
  "kuan1": 1062,
  "2007": 1063,
  "ta": 1064,
  "niu2": 1065,
  "mou3": 1066,
  "tao3": 1067,
  "die2": 1068,
  "2001": 1069,
  "teng2": 1070,
  "sou1": 1071,
  "ken3": 1072,
  "qian3": 1073,
  "chang1": 1074,
  "ran3": 1075,
  "que1": 1076,
  "fou3": 1077,
  "sun3": 1078,
  "fo": 1079,
  "ba4": 1080,
  "2000": 1081,
  "80": 1082,
  "kao4": 1083,
  "suo1": 1084,
  "2006": 1085,
  "niao3": 1086,
  "pi3": 1087,
  "chun2": 1088,
  "2024": 1089,
  "lan3": 1090,
  "zai1": 1092,
  "co": 1093,
  "xue3": 1094,
  "hui3": 1095,
  "el": 1096,
  "ma": 1097,
  "luan4": 1098,
  "ting3": 1099,
  "2005": 1100,
  "zun1": 1101,
  "bang4": 1102,
  "la4": 1103,
  "huan1": 1104,
  "rang3": 1105,
  "shui4": 1106,
  "min3": 1107,
  "35": 1108,
  "lai4": 1109,
  "cang1": 1110,
  "70": 1111,
  "fo2": 1112,
  "pan2": 1113,
  "nai4": 1114,
  "wen3": 1115,
  "ne": 1116,
  "cao1": 1117,
  "of": 1118,
  "sang1": 1119,
  "pang2": 1120,
  "90": 1121,
  "bing3": 1122,
  "－": 1123,
  "ter": 1124,
  "zha1": 1125,
  "shuai4": 1127,
  "nie4": 1128,
  "hou2": 1129,
  "mei4": 1130,
  "shao1": 1131,
  "nu3": 1132,
  "dong3": 1133,
  "il": 1134,
  "feng2": 1135,
  "mie4": 1136,
  "yun3": 1137,
  "zou4": 1138,
  "mai3": 1139,
  "huai4": 1140,
  "2004": 1141,
  "45": 1142,
  "lo": 1143,
  "yan1": 1144,
  "the": 1145,
  "he": 1146,
  "48": 1147,
  "zhuo2": 1148,
  "at": 1149,
  "and": 1150,
  "tao4": 1151,
  "nai3": 1152,
  "kun1": 1153,
  "2025": 1154,
  "zhen3": 1155,
  "ck": 1156,
  "ru3": 1157,
  "kua4": 1158,
  "kui2": 1159,
  "〉": 1160,
  "〈": 1161,
  "gou1": 1162,
  "36": 1163,
  "et": 1164,
  "cui1": 1165,
  "es": 1166,
  "38": 1167,
  "cu4": 1168,
  "shan3": 1169,
  "rou4": 1170,
  "diao1": 1171,
  "2003": 1172,
  "hu3": 1173,
  "guo1": 1174,
  "37": 1175,
  "cui4": 1176,
  "xu2": 1177,
  "is": 1178,
  "mang2": 1179,
  "juan3": 1180,
  "to": 1181,
  "can2": 1182,
  "dian1": 1183,
  "zhan1": 1184,
  "cao2": 1185,
  "189": 1186,
  "IN": 1187,
  "2002": 1188,
  "keng1": 1189,
  "TC": 1190,
  "ma2": 1191,
  "34": 1192,
  "leng3": 1193,
  "as": 1194,
  "zu1": 1195,
  "cha4": 1196,
  "75": 1197,
  "–": 1198,
  "ow": 1199,
  "su2": 1200,
  "quan1": 1201,
  "da1": 1202,
  "chai1": 1203,
  "lang4": 1204,
  "kun4": 1205,
  "46": 1206,
  "tun2": 1207,
  "fen3": 1208,
  "1990": 1209,
  "…": 1210,
  "ol": 1211,
  "ve": 1212,
  "zhou4": 1213,
  "shang3": 1214,
  "rao4": 1215,
  "heng1": 1216,
  "ti1": 1217,
  "xun1": 1218,
  "39": 1219,
  "ne4": 1220,
  "..": 1221,
  "nan4": 1222,
  "pan1": 1223,
  "65": 1224,
  "hong1": 1225,
  "shu2": 1226,
  "tan1": 1227,
  "tang1": 1228,
  "kan3": 1229,
  "Ma": 1230,
  "ni4": 1231,
  "Ch": 1232,
  "32": 1233,
  "it": 1234,
  "ST": 1235,
  "han3": 1236,
  "47": 1237,
  "UTC": 1238,
  "qian4": 1239,
  "1999": 1240,
  "1998": 1241,
  "In": 1242,
  "1980": 1243,
  "188": 1244,
  "500": 1245,
  "33": 1246,
  "64": 1247,
  "qiang3": 1248,
  "she2": 1249,
  "shuo4": 1250,
  "pao3": 1251,
  "be": 1252,
  "ka1": 1253,
  "zhai2": 1254,
  "SE": 1255,
  "55": 1256,
  "quan4": 1257,
  "ni1": 1258,
  "deng4": 1259,
  "1997": 1260,
  "The": 1261,
  "Co": 1262,
  "mian2": 1263,
  "49": 1264,
  "gao3": 1265,
  "II": 1266,
  "68": 1267,
  "han": 1268,
  "she3": 1269,
  "zeng4": 1270,
  "zhou2": 1271,
  "zhai4": 1272,
  "Re": 1273,
  "1996": 1274,
  "44": 1275,
  "na": 1276,
  "tie1": 1277,
  "dao1": 1278,
  "ad": 1279,
  "br": 1280,
  "1994": 1281,
  "fei2": 1282,
  "zong4": 1283,
  "ir": 1284,
  "qiong2": 1285,
  "tiao4": 1286,
  "chuang2": 1287,
  "nd": 1288,
  "1992": 1289,
  "chui2": 1290,
  "juan1": 1291,
  "ci": 1292,
  "chai2": 1293,
  "miao3": 1294,
  "ba": 1295,
  "gua1": 1296,
  "xue1": 1297,
  "tong4": 1298,
  "1995": 1299,
  "fei3": 1300,
  "chi1": 1301,
  "meng3": 1302,
  "wo1": 1303,
  "67": 1304,
  "shuai1": 1305,
  "tuo2": 1306,
  "chuang1": 1307,
  "huan3": 1308,
  "vi": 1309,
  "1991": 1310,
  "1970": 1311,
  "58": 1312,
  "1950": 1313,
  "gua4": 1314,
  "chan2": 1315,
  "ca": 1316,
  "300": 1317,
  "wa1": 1318,
  "1993": 1319,
  "187": 1320,
  "1949": 1321,
  "ay": 1322,
  "pe": 1323,
  "sa1": 1324,
  "tiao3": 1325,
  "zha2": 1326,
  "AT": 1327,
  "1960": 1328,
  "bian3": 1329,
  "42": 1330,
  "1945": 1331,
  "ver": 1332,
  "us": 1333,
  "guai4": 1334,
  "ku3": 1335,
  "nu2": 1336,
  "1988": 1337,
  "du3": 1338,
  "oo": 1339,
  "1989": 1340,
  "ig": 1341,
  "pu4": 1342,
  "69": 1343,
  "liu3": 1344,
  "ing": 1345,
  "ur": 1346,
  "ss": 1347,
  "gong3": 1348,
  "SEE": 1349,
  "tuo4": 1350,
  "ct": 1351,
  "liao3": 1352,
  "INSEE": 1353,
  "59": 1354,
  "sha4": 1355,
  "tai1": 1356,
  "43": 1357,
  "66": 1358,
  "chuan4": 1359,
  "amp": 1360,
  "chen4": 1361,
  "57": 1362,
  "1985": 1363,
  "huang1": 1364,
  "Ro": 1365,
  "99": 1366,
  "SA": 1367,
  "『": 1368,
  "cun4": 1369,
  "』": 1370,
  "1984": 1371,
  "hun2": 1372,
  "41": 1373,
  "um": 1374,
  "pu1": 1375,
  "kou4": 1376,
  "ph": 1377,
  "88": 1378,
  "fen2": 1379,
  "1986": 1380,
  "rao3": 1381,
  "St": 1382,
  "au": 1383,
  "id": 1384,
  "run4": 1385,
  "TV": 1386,
  "150": 1387,
  "zhuo1": 1388,
  "ind": 1389,
  "400": 1390,
  "san3": 1391,
  "1987": 1392,
  "78": 1393,
  "56": 1394,
  "1982": 1395,
  "ard": 1396,
  "Li": 1397,
  "nuo2": 1398,
  "Me": 1399,
  "1983": 1400,
  "De": 1401,
  "NA": 1402,
  "gun3": 1403,
  "ma1": 1404,
  "tou": 1405,
  "pin4": 1406,
  "un": 1407,
  "CD": 1408,
  "chou1": 1409,
  "ber": 1410,
  "gou3": 1411,
  "quan3": 1412,
  "77": 1413,
  "Mi": 1414,
  "zhai1": 1415,
  "qia4": 1416,
  "per": 1417,
  "mao1": 1418,
  "qiao3": 1419,
  "Mar": 1420,
  "ku1": 1421,
  "kuang2": 1422,
  "ed": 1423,
  "ang": 1424,
  "rou2": 1425,
  "98": 1426,
  "der": 1427,
  "lou4": 1428,
  "OS": 1429,
  "°": 1430,
  "kui4": 1431,
  "sang4": 1432,
  "ly": 1434,
  "180": 1435,
  "BC": 1436,
  "54": 1437,
  "61": 1438,
  "Al": 1439,
  "1979": 1440,
  "1920": 1441,
  "ty": 1442,
  "79": 1443,
  "pen1": 1444,
  "seng1": 1445,
  "tw": 1446,
  "52": 1447,
  "You": 1448,
  "1978": 1449,
  "nu4": 1450,
  "62": 1451,
  "weng1": 1452,
  "ye1": 1453,
  "duo3": 1454,
  "Le": 1455,
  "53": 1456,
  "xing3": 1457,
  "juan4": 1458,
  "～": 1459,
  "BA": 1460,
  "ts": 1461,
  "ak": 1462,
  "1946": 1463,
  "CO": 1464,
  "Mo": 1465,
  "ction": 1466,
  "51": 1467,
  "1958": 1468,
  "Sh": 1469,
  "1981": 1470,
  "Vi": 1471,
  "man": 1472,
  "1972": 1473,
  "1948": 1474,
  "zhui4": 1475,
  "cong1": 1476,
  "tou1": 1477,
  "AM": 1478,
  "63": 1479,
  "AR": 1480,
  "Jo": 1481,
  "1941": 1482,
  "Wind": 1483,
  "wa2": 1484,
  "BS": 1485,
  "lian3": 1486,
  "1930": 1487,
  "Pro": 1488,
  "luan3": 1489,
  "ows": 1490,
  "kuang1": 1491,
  "ke2": 1492,
  "qu2": 1493,
  "tuo3": 1494,
  "76": 1495,
  "hans": 1496,
  "1940": 1497,
  "pi4": 1498,
  "1937": 1499,
  "1976": 1500,
  "zui3": 1501,
  "1944": 1502,
  "89": 1503,
  "1975": 1504,
  "ry": 1505,
  "／": 1506,
  "1968": 1507,
  "niang2": 1508,
  "po2": 1509,
  "shua1": 1510,
  "hk": 1511,
  "con": 1512,
  "ran": 1513,
  "Te": 1514,
  "yuan1": 1515,
  "tao1": 1516,
  "wang1": 1517,
  "1000": 1518,
  "Windows": 1519,
  "95": 1520,
  "pa": 1521,
  "Ne": 1522,
  "no": 1523,
  "bi2": 1524,
  "sao3": 1525,
  "87": 1526,
  "da": 1527,
  "1966": 1528,
  "85": 1529,
  "fa4": 1530,
  "peng1": 1531,
  "600": 1532,
  "ga1": 1533,
  "lan4": 1534,
  "120": 1535,
  "1947": 1536,
  "Ar": 1537,
  "Sta": 1538,
  "1956": 1539,
  "AC": 1540,
  "1964": 1541,
  "dan3": 1542,
  "cu1": 1543,
  "1942": 1544,
  "é": 1545,
  "1955": 1546,
  "Se": 1547,
  "Ra": 1548,
  "chou3": 1549,
  "1952": 1550,
  "1939": 1551,
  "1938": 1552,
  "72": 1553,
  "IS": 1554,
  "va": 1555,
  "74": 1556,
  "Ga": 1557,
  "ga": 1558,
  "ht": 1559,
  "nu": 1560,
  "lay": 1561,
  "ren3": 1562,
  "1973": 1563,
  "1974": 1564,
  "1954": 1565,
  "fi": 1566,
  "qie1": 1567,
  "ED": 1568,
  "1900": 1569,
  "--": 1570,
  "Ja": 1571,
  "AP": 1572,
  "1943": 1573,
  "bi1": 1574,
  "Tu": 1575,
  "ke": 1576,
  "os": 1577,
  "1977": 1578,
  "Be": 1579,
  "1971": 1580,
  "pin1": 1581,
  "man2": 1582,
  "op": 1583,
  "po3": 1584,
  "ent": 1585,
  "1967": 1586,
  "sheng2": 1587,
  "ment": 1588,
  "mp": 1589,
  "IC": 1590,
  "800": 1591,
  "La": 1592,
  "ER": 1593,
  "ia": 1594,
  "86": 1595,
  "1959": 1596,
  "beng1": 1597,
  "Sa": 1598,
  "1965": 1599,
  "son": 1600,
  "JR": 1601,
  "1969": 1602,
  "dui1": 1603,
  "Lo": 1604,
  "pen2": 1605,
  "ine": 1606,
  "So": 1607,
  "・": 1608,
  "×": 1609,
  "qiao4": 1610,
  "chui1": 1611,
  "ID": 1612,
  "qiao1": 1613,
  "Su": 1614,
  "1936": 1615,
  "97": 1616,
  "160": 1617,
  "ben1": 1618,
  "zhua1": 1619,
  "Da": 1620,
  "Fa": 1621,
  "1953": 1622,
  "1962": 1623,
  "MA": 1624,
  "do": 1625,
  "1961": 1626,
  "tic": 1627,
  "long3": 1628,
  "1935": 1630,
  "ta4": 1631,
  "rou": 1632,
  "mai2": 1633,
  "96": 1634,
  "ON": 1635,
  "Di": 1636,
  "％": 1637,
  "1951": 1638,
  "1957": 1639,
  "1963": 1640,
  "Ca": 1641,
  "ha": 1642,
  "─": 1643,
  "ok": 1644,
  "84": 1645,
  "2026": 1646,
  "can3": 1647,
  "ore": 1648,
  "82": 1649,
  "Na": 1650,
  "hi": 1651,
  "bu": 1652,
  "73": 1653,
  "94": 1654,
  "tun1": 1655,
  "92": 1656,
  "pp": 1657,
  "IP": 1658,
  "AN": 1659,
  "Bo": 1660,
  "sta": 1661,
  "mer": 1662,
  "1933": 1663,
  "one": 1664,
  "Mu": 1665,
  "1931": 1666,
  "nang2": 1667,
  "les": 1668,
  "niao4": 1669,
  "71": 1670,
  "bao2": 1671,
  "ho": 1672,
  "nuan3": 1673,
  "gi": 1674,
  "An": 1675,
  "leng2": 1676,
  "pa2": 1677,
  "Pa": 1678,
  "93": 1679,
  "so": 1680,
  "83": 1681,
  "all": 1682,
  "We": 1683,
  "dou3": 1684,
  "81": 1685,
  "1918": 1686,
  "HD": 1687,
  "Si": 1688,
  "sao1": 1689,
  "wi": 1690,
  "Uni": 1691,
  "1928": 1692,
  "luan2": 1693,
  "1932": 1694,
  "nen4": 1695,
  "ll": 1696,
  "ara": 1697,
  "int": 1698,
  "Ba": 1699,
  "MV": 1700,
  "SS": 1701,
  "110": 1702,
  "1912": 1703,
  "IT": 1704,
  "ki": 1705,
  "1929": 1706,
  "tui3": 1707,
  "duo4": 1708,
  "1927": 1709,
  "com": 1710,
  "tu4": 1711,
  "1934": 1712,
  "are": 1713,
  "700": 1714,
  "ga2": 1715,
  "cn": 1716,
  "ali": 1717,
  "91": 1718,
  "che": 1719,
  "ted": 1720,
  "ster": 1721,
  "ff": 1722,
  "by": 1723,
  "huang3": 1724,
  "col": 1725,
  "ill": 1726,
  "ot": 1727,
  "250": 1728,
  "sa": 1729,
  "art": 1730,
  "zei2": 1731,
  "1924": 1732,
  "Ri": 1733,
  "...": 1734,
  "1919": 1735,
  "kui1": 1736,
  "xuan4": 1737,
  "130": 1738,
  "piao1": 1739,
  "1925": 1740,
  "PS": 1741,
  "pao1": 1742,
  "xia1": 1743,
  "140": 1744,
  "Play": 1745,
  "SM": 1746,
  "PC": 1747,
  "mes": 1748,
  "1914": 1749,
  "ste": 1750,
  "zhai3": 1751,
  "km": 1752,
  "He": 1753,
  "DV": 1754,
  "pan": 1755,
  "zhe1": 1756,
  "YouTu": 1757,
  "he1": 1758,
  "end": 1759,
  "Ha": 1760,
  "Fi": 1761,
  "ana": 1762,
  "die1": 1763,
  "ble": 1764,
  "Con": 1765,
  "Wi": 1766,
  "la3": 1767,
  "AS": 1768,
  "1911": 1769,
  "Bu": 1770,
  "ka": 1771,
  "shi": 1772,
  "od": 1773,
  "gra": 1774,
  "nve4": 1775,
  "ld": 1776,
  "1926": 1777,
  "Ge": 1778,
  "Ti": 1779,
  "den": 1780,
  "our": 1781,
  "1922": 1782,
  "na3": 1783,
  "hen4": 1784,
  "1917": 1785,
  "sion": 1786,
  "ET": 1787,
  "NBA": 1788,
  "IV": 1789,
  "shui2": 1790,
  "cai1": 1791,
  "rao2": 1792,
  "EN": 1793,
  "1923": 1794,
  "1921": 1795,
  "peng4": 1796,
  "fe": 1797,
  "kua1": 1798,
  "Goo": 1799,
  "ther": 1800,
  "Ta": 1801,
  "chong3": 1802,
  "170": 1803,
  "EC": 1805,
  "mao3": 1806,
  "nong4": 1807,
  "mm": 1808,
  "AL": 1809,
  "MS": 1810,
  "Ho": 1811,
  "section": 1812,
  "YouTube": 1813,
  "EP": 1814,
  "Ni": 1815,
  "BL": 1816,
  "1913": 1817,
  "hn": 1818,
  "tiao1": 1819,
  "pen": 1820,
  "HK": 1821,
  "En": 1822,
  "hant": 1824,
  "gun4": 1825,
  "1909": 1826,
  "gin": 1827,
  "Inter": 1828,
  "cro": 1829,
  "Pe": 1830,
  "Ste": 1831,
  "MP": 1832,
  "AI": 1833,
  "To": 1834,
  "geng3": 1835,
  "Wor": 1836,
  "nao4": 1837,
  "ris": 1838,
  "feng3": 1839,
  "ant": 1840,
  "luo3": 1841,
  "US": 1842,
  "ya": 1843,
  "por": 1844,
  "DVD": 1845,
  "go": 1846,
  "ari": 1847,
  "zou1": 1848,
  "Pi": 1849,
  "3000": 1850,
  "Th": 1851,
  "ca1": 1852,
  "Do": 1853,
  "Po": 1854,
  "gn": 1855,
  "1910": 1856,
  "For": 1857,
  "RO": 1858,
  "DS": 1859,
  "112": 1860,
  "AK": 1861,
  "RE": 1862,
  "pro": 1863,
  "1916": 1864,
  "Car": 1865,
  "ー": 1866,
  "chuo4": 1867,
  "Net": 1868,
  "α": 1869,
  "ation": 1870,
  "Sch": 1871,
  "Ki": 1872,
  "No": 1873,
  "ani": 1874,
  "ture": 1875,
  "ell": 1876,
  "Lin": 1877,
  "My": 1878,
  "CP": 1879,
  "UN": 1880,
  "Wil": 1881,
  "ark": 1882,
  "Station": 1884,
  "hen2": 1885,
  "1915": 1886,
  "gle": 1887,
  "niang4": 1888,
  "1905": 1889,
  "FC": 1890,
  "ven": 1891,
  "ers": 1892,
  "my": 1893,
  "CN": 1894,
  "→": 1896,
  "1901": 1897,
  "tional": 1898,
  "Lu": 1899,
  "wa": 1900,
  "ting": 1901,
  "Au": 1902,
  "DNA": 1903,
  "Ex": 1904,
  "fa": 1905,
  "pu": 1906,
  "‧": 1907,
  "sic": 1908,
  "dia": 1909,
  "900": 1910,
  "HR": 1911,
  "Ph": 1912,
  "dice": 1913,
  "ary": 1914,
  "sis": 1915,
  "New": 1916,
  ".&": 1917,
  "ton": 1918,
  "CH": 1919,
  "zen3": 1920,
  "TA": 1921,
  "TO": 1922,
  "1906": 1923,
  "1904": 1924,
  "chuang3": 1925,
  "AV": 1926,
  "Ju": 1927,
  "Qu": 1928,
  "oun": 1929,
  "Ka": 1930,
  "gen3": 1931,
  "ps": 1932,
  "John": 1933,
  "ere": 1934,
  "And": 1935,
  "MO": 1936,
  "codice": 1937,
  "chao3": 1938,
  "jiong3": 1939,
  "ding": 1940,
  "℃": 1941,
  "ko": 1942,
  "eri": 1943,
  "wa4": 1944,
  "beng4": 1945,
  "05": 1946,
  "fu": 1947,
  "CC": 1948,
  "diu1": 1949,
  "1907": 1950,
  "1908": 1951,
  "Google": 1952,
  "AG": 1953,
  "EST": 1954,
  "MI": 1955,
  "vo": 1956,
  "zuan4": 1957,
  "SO": 1958,
  "tes": 1959,
  "LE": 1960,
  "jia2": 1961,
  "zuan3": 1962,
  "PlayStation": 1963,
  "enter": 1964,
  "BO": 1965,
  "BBC": 1966,
  "chi": 1967,
  "Com": 1968,
  "AD": 1969,
  "IG": 1970,
  "cal": 1971,
  "ley": 1972,
  "li1": 1973,
  "Gu": 1974,
  "ence": 1975,
  "III": 1976,
  "oft": 1977,
  "Ru": 1978,
  "1500": 1979,
  "cy": 1980,
  "5000": 1981,
  "cri": 1982,
  "wor": 1983,
  "zuan1": 1984,
  "IST": 1985,
  "she1": 1986,
  "lv2": 1987,
  "Col": 1988,
  "ory": 1989,
  "ME": 1990,
  "Sy": 1991,
  "tive": 1992,
  "wit": 1993,
  "CR": 1994,
  "3D": 1995,
  "round": 1996,
  "IA": 1997,
  "lan": 1998,
  "gua3": 1999,
  "105": 2000,
  "je": 2001,
  "ma4": 2002,
  "а": 2003,
  "tt": 2004,
  "lin": 2005,
  "1903": 2006,
  "101": 2007,
  "GB": 2008,
  "ping1": 2009,
  "ree": 2010,
  "Cu": 2011,
  "can": 2012,
  "09": 2013,
  "ina": 2014,
  "can4": 2015,
  "Fe": 2016,
  "cen2": 2017,
  "1902": 2018,
  "BD": 2019,
  "NC": 2020,
  "land": 2021,
  "TE": 2022,
  "cha": 2023,
  "pang1": 2024,
  "xt": 2025,
  "350": 2026,
  "á": 2027,
  "ze": 2028,
  "SAO": 2029,
  "shao2": 2030,
  "gen": 2031,
  "DC": 2032,
  "des": 2033,
  "span": 2034,
  "pt": 2035,
  "mon": 2036,
  "Ad": 2037,
  "β": 2038,
  "ght": 2039,
  "res": 2040,
  "lin4": 2041,
  "B1900": 2042,
  "del": 2043,
  "book": 2044,
  "ES": 2045,
  "BM": 2046,
  "ron": 2047,
  "．": 2048,
  "ン": 2049,
  "1898": 2050,
  "06": 2051,
  "118": 2052,
  "Hi": 2053,
  "la2": 2054,
  "の": 2055,
  "ms": 2056,
  "qin3": 2057,
  "cor": 2058,
  "tel": 2059,
  "DR": 2060,
  "360": 2061,
  "01": 2062,
  "DA": 2063,
  "Open": 2064,
  "1895": 2065,
  "lao4": 2066,
  "125": 2067,
  "mu2": 2068,
  "za": 2069,
  "lar": 2070,
  "ben4": 2071,
  "HO": 2072,
  "ance": 2073,
  "tin": 2074,
  "MC": 2075,
  "ATP": 2076,
  "Micro": 2077,
  "Ko": 2078,
  "gy": 2079,
  "о": 2080,
  "108": 2081,
  "Ke": 2082,
  "sy": 2083,
  "line": 2084,
  "dio": 2085,
  "NG": 2086,
  "igh": 2087,
  "pou1": 2088,
  "net": 2089,
  "yle": 2090,
  "Go": 2091,
  "clu": 2092,
  "low": 2093,
  "qie2": 2094,
  "gram": 2095,
  "Cor": 2096,
  "IF": 2097,
  "ft": 2098,
  "Fran": 2099,
  "One": 2100,
  "ner": 2101,
  "App": 2102,
  "07": 2103,
  "−": 2104,
  "08": 2105,
  "230": 2106,
  "gh": 2107,
  "Face": 2108,
  "Hu": 2109,
  "104": 2110,
  "pace": 2111,
  "Pu": 2112,
  "Ser": 2113,
  "rea": 2114,
  "World": 2115,
  "soft": 2116,
  "EDT": 2117,
  "ISTAT": 2118,
  "Mon": 2119,
  "Stu": 2120,
  "ja": 2121,
  "shai1": 2122,
  "song3": 2123,
  "NO": 2125,
  "1896": 2126,
  "LL": 2127,
  "ning": 2128,
  "109": 2129,
  "DP": 2130,
  "fli": 2131,
  "ger": 2132,
  "las": 2133,
  "dy": 2134,
  "yu1": 2135,
  "AA": 2136,
  "lus": 2137,
  "own": 2138,
  "Bi": 2139,
  "ity": 2140,
  "ge3": 2141,
  "RI": 2142,
  "ctor": 2143,
  "Wa": 2144,
  "Du": 2145,
  "SP": 2146,
  "RT": 2147,
  "sui3": 2148,
  "xiao2": 2149,
  "qia3": 2150,
  "EX": 2151,
  "re3": 2152,
  "Bri": 2153,
  "bert": 2154,
  "B48": 2155,
  "Man": 2156,
  "vel": 2157,
  "ling": 2158,
  "106": 2159,
  "1890": 2160,
  "San": 2161,
  "CST": 2162,
  "ML": 2163,
  "ori": 2164,
  "Bar": 2165,
  "CDT": 2166,
  "Love": 2167,
  "zang1": 2168,
  "DO": 2169,
  "with": 2170,
  "HE": 2171,
  "ward": 2172,
  "Per": 2173,
  "pei1": 2174,
  "row": 2175,
  "tain": 2176,
  "04": 2177,
  "4000": 2178,
  "pri": 2179,
  "ux": 2180,
  "cuan4": 2181,
  "115": 2182,
  "ight": 2183,
  "ds": 2184,
  "1200": 2185,
  "M1": 2186,
  "03": 2187,
  "Har": 2188,
  "GP": 2189,
  "pao2": 2190,
  "CE": 2191,
  "ren": 2192,
  "ā": 2193,
  "back": 2194,
  "1889": 2195,
  "begin": 2196,
  "Par": 2197,
  "1899": 2198,
  "Je": 2199,
  "Mac": 2200,
  "colspan": 2201,
  "1871": 2202,
  "Ed": 2203,
  "RS": 2204,
  "mic": 2205,
  "Facebook": 2206,
  "Willi": 2207,
  "Microsoft": 2208,
  "​": 2209,
  "240": 2210,
  "tur": 2211,
  "Comp": 2212,
  "ool": 2213,
  "1600": 2214,
  "LO": 2215,
  "Gi": 2216,
  "ky": 2217,
  "BE": 2218,
  "cc": 2219,
  "Nor": 2220,
  "cket": 2221,
  "102": 2222,
  "box": 2223,
  "clude": 2224,
  "TT": 2225,
  "ref": 2226,
  "1897": 2227,
  "pha": 2228,
  "Live": 2229,
  "NH": 2230,
  "Sou": 2231,
  "EE": 2232,
  "chou4": 2233,
  "Tri": 2234,
  "117": 2235,
  "Is": 2236,
  "Pre": 2237,
  "PP": 2238,
  "im": 2239,
  "qin4": 2240,
  "ut": 2241,
  "SC": 2242,
  "min": 2243,
  "02": 2244,
  "cm": 2245,
  "shuang3": 2246,
  "style": 2247,
  "ie": 2248,
  "103": 2249,
  "AKB48": 2250,
  "MD": 2251,
  "yao3": 2252,
  "Music": 2253,
  "Pri": 2254,
  "107": 2255,
  "van": 2256,
  "On": 2257,
  "bli": 2258,
  "cou4": 2259,
  "tra": 2260,
  "Gra": 2261,
  "Or": 2262,
  "ler": 2263,
  "Linux": 2264,
  "Dis": 2265,
  "Tra": 2266,
  "ser": 2267,
  "ye": 2268,
  "tang3": 2269,
  "ww": 2270,
  "Gre": 2271,
  "Ori": 2272,
  "lis": 2273,
  "old": 2274,
  "VID": 2275,
  "127": 2276,
  "tus": 2277,
  "450": 2278,
  "Vo": 2279,
  "sti": 2280,
  "Davi": 2281,
  "ü": 2282,
  "que": 2283,
  "128": 2284,
  "align": 2285,
  "lao1": 2286,
  "flix": 2287,
  "CL": 2288,
  "Netflix": 2289,
  "1894": 2290,
  "Game": 2291,
  "220": 2292,
  "rin": 2293,
  "Ber": 2294,
  "н": 2295,
  "mas": 2296,
  "William": 2297,
  "IL": 2298,
  "Mor": 2299,
  "ks": 2300,
  "SH": 2301,
  "Twit": 2302,
  "1880": 2303,
  "Red": 2304,
  "len": 2305,
  "lla": 2306,
  "í": 2307,
  "RNA": 2308,
  "zao2": 2309,
  "136": 2310,
  "rus": 2311,
  "rom": 2312,
  "PG": 2313,
  "nge": 2314,
  "и": 2315,
  "stri": 2316,
  "い": 2317,
  "TR": 2318,
  "stra": 2319,
  "Team": 2320,
  "1800": 2321,
  "ス": 2322,
  "Univer": 2323,
  "ground": 2324,
  "1885": 2325,
  "lia3": 2326,
  "ero": 2327,
  "114": 2328,
  "ん": 2329,
  "Char": 2330,
  "pian2": 2331,
  "color": 2332,
  "Fu": 2333,
  "Hz": 2334,
  "Ty": 2335,
  "280": 2336,
  "UR": 2337,
  "е": 2338,
  "113": 2339,
  "116": 2340,
  "tor": 2341,
  "ano": 2342,
  "Gen": 2343,
  "1886": 2344,
  "sing": 2345,
  "イ": 2346,
  "TS": 2347,
  "School": 2348,
  "PO": 2349,
  "mang3": 2350,
  "lass": 2351,
  "1893": 2352,
  "Che": 2353,
  "ex": 2354,
  "sen": 2355,
  "irl": 2356,
  "Bla": 2357,
  "lyi": 2358,
  "mb": 2359,
  "ten": 2360,
  "Mc": 2361,
  "ane": 2362,
  "Mark": 2363,
  "Eu": 2364,
  "name": 2365,
  "SL": 2366,
  "tri": 2367,
  "111": 2368,
  "Star": 2369,
  "cial": 2371,
  "lia": 2372,
  "irst": 2373,
  "Super": 2374,
  "port": 2375,
  "Don": 2376,
  "ject": 2377,
  "lex": 2378,
  "mo3": 2379,
  "※": 2380,
  "ces": 2381,
  "mo1": 2382,
  "135": 2383,
  "David": 2384,
  "260": 2385,
  "national": 2386,
  "ys": 2387,
  "era": 2388,
  "1860": 2389,
  "Geor": 2390,
  "sto": 2391,
  "gue": 2392,
  "nin2": 2393,
  "ess": 2394,
  "Wal": 2395,
  "WTA": 2396,
  "ker": 2397,
  "HC": 2398,
  "way": 2399,
  "Show": 2400,
  "lver": 2401,
  "Ac": 2402,
  "UA": 2403,
  "was": 2404,
  "Un": 2405,
  "ham": 2406,
  "1888": 2407,
  "text": 2408,
  "SD": 2409,
  "ac": 2410,
  "ó": 2411,
  "roup": 2412,
  "-.": 2413,
  "ans": 2414,
  "ouse": 2415,
  "Bra": 2416,
  "roid": 2417,
  "cation": 2418,
  "background": 2419,
  "tle": 2420,
  "yun1": 2421,
  "dai3": 2422,
  "Cy": 2423,
  "pre": 2424,
  "GO": 2425,
  "Wh": 2426,
  "chen1": 2427,
  "1870": 2428,
  "ream": 2429,
  "GN": 2430,
  "129": 2432,
  "ony": 2433,
  "1887": 2434,
  "bur": 2435,
  "any": 2436,
  "dis": 2437,
  "shuan1": 2438,
  "1868": 2439,
  "Meta": 2440,
  "6000": 2441,
  "ö": 2442,
  "р": 2443,
  "El": 2444,
  "NF": 2445,
  "VA": 2446,
  "cle": 2447,
  "1883": 2448,
  "lor": 2449,
  "ank": 2450,
  "ous": 2451,
  "Xbox": 2452,
  "320": 2453,
  "CS": 2454,
  "Tho": 2455,
  "NHK": 2456,
  "AF": 2457,
  "As": 2458,
  "DD": 2459,
  "Twitter": 2460,
  "KP": 2461,
  "nclude": 2462,
  "onlyi": 2463,
  "onlyinclude": 2464,
  "piao2": 2465,
  "++": 2466,
  "bit": 2467,
  "tang4": 2468,
  "1864": 2469,
  "•": 2470,
  "ION": 2471,
  "ny": 2472,
  "cho": 2473,
  "1884": 2474,
  "RC": 2475,
  "UE": 2476,
  "mar": 2477,
  "ensis": 2478,
  "119": 2479,
  "122": 2480,
  "2500": 2481,
  "1892": 2482,
  "210": 2483,
  "A1": 2484,
  "tis": 2485,
  "ena": 2486,
  "let": 2487,
  "center": 2488,
  "miu4": 2489,
  "155": 2490,
  "ins": 2491,
  "ower": 2492,
  "ISO": 2493,
  "Mat": 2494,
  "145": 2496,
  "1891": 2497,
  "650": 2498,
  "Clu": 2499,
  "cer": 2500,
  "Android": 2501,
  "Girl": 2502,
  "age": 2503,
  "〕": 2504,
  "OR": 2505,
  "red": 2506,
  "nes": 2507,
  "Ku": 2508,
  "NS": 2509,
  "cuo1": 2510,
  "car": 2511,
  "〔": 2512,
  "1850": 2513,
  "htt": 2514,
  "meri": 2515,
  "Cl": 2516,
  "val": 2517,
  "International": 2518,
  "Day": 2519,
  "xy": 2520,
  "ound": 2521,
  "mi1": 2522,
  "1867": 2523,
  "logy": 2524,
  "stem": 2525,
  "IM": 2526,
  "pang4": 2527,
  "ト": 2528,
  "eld": 2529,
  "All": 2530,
  "ffi": 2531,
  "1879": 2532,
  "ake": 2533,
  "James": 2534,
  "Enter": 2535,
  "War": 2536,
  "par": 2537,
  "sel": 2538,
  "380": 2539,
  "AB": 2540,
  "UP": 2541,
  "Ver": 2542,
  "bri": 2543,
  "ney": 2544,
  "1876": 2545,
  "Ani": 2546,
  "Coun": 2547,
  "sia": 2548,
  "George": 2549,
  "Can": 2550,
  "lie": 2551,
  "1875": 2552,
  "1861": 2553,
  "270": 2554,
  "Universi": 2555,
  "Dra": 2556,
  "Her": 2557,
  "Por": 2558,
  "td": 2559,
  "Games": 2560,
  "Air": 2561,
  "IR": 2562,
  "126": 2563,
  "NT": 2564,
  "è": 2565,
  "time": 2566,
  "inter": 2567,
  "Hol": 2568,
  "Pau": 2569,
  "Spe": 2570,
  "NGC": 2571,
  "stru": 2572,
  "ル": 2573,
  "1873": 2574,
  "MG": 2575,
  "ns": 2576,
  "123": 2577,
  "ラ": 2578,
  "ama": 2579,
  "Eng": 2580,
  "Hen": 2581,
  "PV": 2582,
  "Ab": 2583,
  "Group": 2584,
  "HT": 2585,
  "sed": 2586,
  "rans": 2587,
  "Colle": 2588,
  "Ben": 2589,
  "Hy": 2590,
  "MB": 2591,
  "Va": 2592,
  "168": 2593,
  "COVID": 2594,
  "critic": 2595,
  "FM": 2596,
  "om": 2597,
  "1865": 2598,
  "ild": 2599,
  "Club": 2600,
  "AO": 2601,
  "PL": 2602,
  "lue": 2603,
  "that": 2604,
  "ass": 2605,
  "Ameri": 2606,
  "DE": 2607,
  "121": 2608,
  "Center": 2609,
  "hy": 2610,
  "cus": 2611,
  "work": 2612,
  "Blo": 2613,
  "175": 2614,
  "ald": 2615,
  "う": 2616,
  "Web": 2617,
  "H2": 2618,
  "YP": 2619,
  "from": 2620,
  "ä": 2621,
  "1400": 2622,
  "MAX": 2623,
  "Ali": 2624,
  "138": 2625,
  "228": 2626,
  "TP": 2627,
  "ast": 2628,
  "ha2": 2629,
  "chan4": 2630,
  "nic": 2631,
  "1848": 2632,
  "fer": 2633,
  "liu1": 2634,
  "1862": 2635,
  "ration": 2636,
  "330": 2637,
  "peng3": 2638,
  "124": 2639,
  "ア": 2640,
  "1881": 2641,
  "1882": 2642,
  "737": 2643,
  "Park": 2644,
  "vil": 2645,
  "ens": 2646,
  "ona": 2647,
  "1878": 2648,
  "550": 2649,
  "guai3": 2650,
  "Ve": 2651,
  "rui3": 2652,
  "1872": 2653,
  "LC": 2654,
  "bin4": 2655,
  "Hel": 2656,
  "High": 2657,
  "INK": 2658,
  "Metacritic": 2659,
  "zo": 2660,
  "It": 2661,
  "nao2": 2662,
  "tro": 2663,
  "Oricon": 2664,
  "MTV": 2665,
  "UC": 2666,
  "wan": 2667,
  "156": 2668,
  "165": 2669,
  "Boo": 2670,
  "LED": 2671,
  "don": 2672,
  "nian3": 2673,
  "1840": 2674,
  "IVE": 2675,
  "Spi": 2676,
  "core": 2677,
  "dai1": 2678,
  "750": 2679,
  "dge": 2680,
  "shai4": 2681,
  "ッ": 2682,
  "cre": 2683,
  "ming": 2684,
  "137": 2685,
  "し": 2686,
  "Lea": 2687,
  "nis": 2688,
  "1300": 2689,
  "stagram": 2690,
  "7000": 2691,
  "ring": 2692,
  "Bro": 2693,
  "DOS": 2694,
  "SQ": 2695,
  "UB": 2696,
  "229": 2697,
  "IU": 2698,
  "She": 2699,
  "GDP": 2700,
  "King": 2701,
  "OK": 2702,
  "с": 2703,
  "Chu": 2704,
  "Pla": 2705,
  "rand": 2706,
  "152": 2707,
  "out": 2708,
  "TVB": 2709,
  "Micha": 2710,
  "Fri": 2711,
  "day": 2712,
  "159": 2713,
  "1877": 2714,
  "Robert": 2715,
  "Stre": 2716,
  "type": 2717,
  "Sur": 2718,
  "kui3": 2720,
  "1866": 2721,
  "Chris": 2722,
  "iOS": 2723,
  "л": 2724,
  "als": 2725,
  "Produ": 2726,
  "SK": 2727,
  "Up": 2728,
  "1869": 2729,
  "′": 2730,
  "silver": 2731,
  "Ele": 2732,
  "THE": 2733,
  "DM": 2734,
  "xiu3": 2735,
  "star": 2736,
  "Peter": 2737,
  "NET": 2738,
  "Pat": 2739,
  "gar": 2740,
  "pla": 2741,
  "she": 2742,
  "play": 2743,
  "к": 2744,
  "Chi": 2745,
  "Instagram": 2746,
  "BI": 2747,
  "py": 2748,
  "139": 2749,
  "BLAC": 2750,
  "Big": 2751,
  "gan": 2752,
  "в": 2753,
  "DJ": 2754,
  "reng1": 2755,
  "lip": 2756,
  "sso": 2757,
  "Phone": 2758,
  "CG": 2759,
  "WE": 2760,
  "code": 2761,
  "ク": 2762,
  "Michael": 2763,
  "At": 2764,
  "DF": 2765,
  "Apple": 2767,
  "1100": 2768,
  "Ci": 2769,
  "ai": 2770,
  "158": 2771,
  "Tech": 2772,
  "Paul": 2773,
  "225": 2774,
  "gon": 2775,
  "ene": 2776,
  "305": 2777,
  "133": 2778,
  "alk": 2779,
  "INE": 2780,
  "National": 2781,
  "Type": 2782,
  "RA": 2783,
  "sa3": 2784,
  "nia": 2785,
  "リ": 2786,
  "ator": 2787,
  "Award": 2788,
  "HI": 2789,
  "YO": 2790,
  "132": 2791,
  "Steam": 2792,
  "Es": 2793,
  "Ye": 2794,
  "ral": 2795,
  "205": 2796,
  "1863": 2797,
  "ray": 2798,
  "tainment": 2799,
  "215": 2800,
  "Bill": 2801,
  "cia": 2802,
  "University": 2803,
  "Ce": 2804,
  "FO": 2805,
  "phy": 2806,
  "CA": 2807,
  "F1": 2808,
  "KBS": 2809,
  "148": 2810,
  "131": 2811,
  "Media": 2812,
  "Kar": 2813,
  "Lou": 2814,
  "Mer": 2815,
  "Smi": 2816,
  "Wo": 2817,
  "166": 2818,
  "arch": 2819,
  "new": 2820,
  "1874": 2821,
  "EF": 2822,
  "XX": 2823,
  "kg": 2824,
  "now": 2825,
  "deo": 2826,
  "enti": 2827,
  "1858": 2828,
  "Fin": 2829,
  "ic": 2830,
  "147": 2831,
  "Black": 2832,
  "bal": 2833,
  "vin": 2834,
  "256": 2835,
  "か": 2836,
  "GA": 2837,
  "Gar": 2838,
  "M2": 2839,
  "kun3": 2840,
  "1830": 2841,
  "Rich": 2842,
  "CBS": 2843,
  "Ter": 2844,
  "UT": 2845,
  "ach": 2846,
  "clo": 2847,
  "ew": 2848,
  "1851": 2849,
  "ora": 2850,
  "Lee": 2851,
  "BN": 2852,
  "EM": 2853,
  "UI": 2854,
  "192": 2855,
  "μ": 2856,
  "Cha": 2857,
  "8000": 2858,
  "che3": 2859,
  "Jack": 2860,
  "Entertainment": 2861,
  "if": 2862,
  "zer": 2863,
  "ann": 2864,
  "lin3": 2865,
  "mini": 2866,
  "bin": 2867,
  "143": 2868,
  "set": 2869,
  "ada": 2870,
  "City": 2871,
  "Mk": 2872,
  "gang4": 2873,
  "1855": 2874,
  "Intel": 2875,
  "310": 2876,
  "Power": 2877,
  "IX": 2878,
  "ha3": 2879,
  "mber": 2880,
  "IE": 2881,
  "RAM": 2882,
  "Space": 2883,
  "bel": 2884,
  "zuo2": 2885,
  "1859": 2887,
  "STAR": 2888,
  "Charles": 2889,
  "134": 2890,
  "tions": 2891,
  "iss": 2892,
  "Dire": 2893,
  "ship": 2894,
  "Ang": 2895,
  "ABC": 2896,
  "185": 2897,
  "1854": 2898,
  "org": 2899,
  "146": 2900,
  "301": 2901,
  "Fla": 2902,
  "1700": 2903,
  "Viu": 2904,
  "370": 2905,
  "space": 2906,
  "1857": 2907,
  "Free": 2908,
  "GM": 2909,
  "Win": 2910,
  "ek": 2911,
  "whi": 2912,
  "stro": 2913,
  "Er": 2914,
  "vs": 2915,
  "ا": 2916,
  "290": 2917,
  "な": 2918,
  "Life": 2919,
  "Tai": 2920,
  "︰": 2921,
  "Sam": 2922,
  "γ": 2923,
  "ino": 2924,
  "Java": 2925,
  "214": 2926,
  "Py": 2927,
  "т": 2928,
  "mis": 2929,
  "Recor": 2930,
  "Company": 2931,
  "stitu": 2932,
  "420": 2933,
  "Dream": 2934,
  "Pol": 2935,
  "fang": 2936,
  "ο": 2937,
  "〜": 2938,
  "1856": 2939,
  "1853": 2940,
  "Project": 2941,
  "House": 2942,
  "ah": 2943,
  "first": 2944,
  "dium": 2945,
  "た": 2946,
  "ety": 2947,
  "ood": 2948,
  "Time": 2949,
  "Thomas": 2950,
  "Pan": 2951,
  "bra": 2952,
  "von": 2953,
  "bo4": 2954,
  "144": 2955,
  "Alpha": 2956,
  "Saint": 2957,
  "FA": 2958,
  "Ken": 2959,
  "OVA": 2960,
  "Cent": 2961,
  "VO": 2962,
  "face": 2963,
  "A2": 2964,
  "IO": 2965,
  "167": 2966,
  "3A": 2967,
  "HS": 2968,
  "SBS": 2969,
  "sha3": 2970,
  "bili": 2971,
  "kua3": 2972,
  "1841": 2973,
  "Street": 2974,
  "Am": 2975,
  "Alex": 2976,
  "Bat": 2977,
  "LP": 2978,
  "spe": 2979,
  "alo": 2980,
  "Japan": 2981,
  "340": 2982,
  "Ag": 2983,
  "PM": 2984,
  "chuan3": 2985,
  "rie": 2986,
  "Euro": 2987,
  "BLACKP": 2988,
  "Spo": 2989,
  "Tor": 2990,
  "ae": 2991,
  "wn": 2992,
  "za1": 2993,
  "208": 2994,
  "1815": 2995,
  "178": 2996,
  "CPU": 2997,
  "BLACKPINK": 2998,
  "223": 2999,
  "Bur": 3000,
  "Tru": 3001,
  "cis": 3002,
  "men4": 3003,
  "Soci": 3004,
  "850": 3005,
  "LGB": 3006,
  "Sing": 3007,
  "tal": 3008,
  "zuo1": 3009,
  "cher": 3010,
  "ric": 3011,
  "ses": 3012,
  "Rock": 3013,
  "Studio": 3014,
  "www": 3015,
  "IBM": 3016,
  "die": 3017,
  "mat": 3018,
  "esti": 3019,
  "ports": 3020,
  "SF": 3021,
  "Val": 3022,
  "you": 3023,
  "207": 3024,
  "very": 3025,
  "235": 3026,
  "と": 3027,
  "ま": 3028,
  "mation": 3029,
  "Art": 3030,
  "Dig": 3031,
  "Fer": 3032,
  "LIVE": 3033,
  "Mr": 3034,
  "Met": 3035,
  "Pop": 3036,
  "SU": 3037,
  "203": 3038,
  "ning4": 3039,
  "171": 3040,
  "berg": 3041,
  "B2": 3042,
  "VE": 3043,
  "Whi": 3044,
  "nal": 3045,
  "comp": 3046,
  "Shi": 3047,
  "SQL": 3048,
  "Pad": 3049,
  "cra": 3050,
  "sg": 3051,
  "vis": 3052,
  "1846": 3053,
  "164": 3054,
  "ford": 3055,
  "not": 3056,
  "College": 3057,
  "Min": 3058,
  "Yu": 3059,
  "bre": 3060,
  "lit": 3061,
  "157": 3062,
  "vice": 3063,
  "publi": 3064,
  "BR": 3065,
  "LT": 3066,
  "NE": 3067,
  "Sun": 3068,
  "141": 3069,
  "ICE": 3070,
  "American": 3071,
  "B1": 3072,
  "Cro": 3073,
  "PE": 3074,
  "est": 3075,
  "board": 3076,
  "176": 3077,
  "sign": 3078,
  "ING": 3079,
  "Asso": 3080,
  "LS": 3081,
  "ball": 3082,
  "han1": 3083,
  "²": 3084,
  "well": 3085,
  "1812": 3086,
  "1845": 3087,
  "1844": 3088,
  "Road": 3089,
  "Girls": 3090,
  "self": 3091,
  "ple": 3092,
  "mit": 3093,
  "231": 3094,
  "Offi": 3095,
  "cture": 3096,
  "class": 3097,
  "HF": 3098,
  "Ltd": 3099,
  "M3": 3100,
  "pm": 3101,
  "bor": 3102,
  "り": 3103,
  "witch": 3104,
  "LGBT": 3105,
  "BB": 3106,
  "209": 3107,
  "wood": 3108,
  "pon": 3109,
  "cess": 3110,
  "き": 3111,
  "NASA": 3112,
  "GNU": 3113,
  "Ger": 3114,
  "LA": 3115,
  "PA": 3116,
  "wai1": 3117,
  "ded": 3118,
  "thy": 3119,
  "Jose": 3120,
  "Tele": 3121,
  "Smith": 3122,
  "Cla": 3123,
  "Cra": 3124,
  "Pra": 3125,
  "ise": 3126,
  "ampi": 3127,
  "aurus": 3128,
  "IUCN": 3129,
  "216": 3130,
  "PN": 3131,
  "wh": 3132,
  "κ": 3133,
  "1849": 3134,
  "153": 3135,
  "Good": 3136,
  "CT": 3137,
  "Fil": 3138,
  "Hall": 3139,
  "NBC": 3140,
  "Tour": 3141,
  "zhou3": 3142,
  "204": 3143,
  "238": 3144,
  "Cho": 3145,
  "ump": 3146,
  "Production": 3147,
  "le1": 3148,
  "lea": 3149,
  "tation": 3150,
  "ness": 3151,
  "Video": 3152,
  "GT": 3153,
  "O2": 3154,
  "Sci": 3155,
  "σ": 3156,
  "mited": 3157,
  "Gala": 3158,
  "Eli": 3159,
  "Fo": 3160,
  "PR": 3161,
  "war": 3162,
  "yn": 3163,
  "din": 3164,
  "206": 3165,
  "eries": 3166,
  "Ze": 3167,
  "1814": 3168,
  "mac": 3169,
  "218": 3170,
  "fri": 3171,
  "fra": 3172,
  "lti": 3173,
  "ons": 3174,
  "ange": 3175,
  "Richard": 3176,
  "SI": 3177,
  "mal": 3178,
  "chun3": 3179,
  "IGN": 3180,
  "Act": 3181,
  "LD": 3182,
  "Sen": 3183,
  "WS": 3184,
  "win": 3185,
  "pic": 3187,
  "qui": 3188,
  "Chri": 3189,
  "Boy": 3190,
  "Plan": 3191,
  "Sky": 3192,
  "Tur": 3193,
  "bun": 3194,
  "π": 3195,
  "def": 3196,
  "1847": 3197,
  "154": 3198,
  "tho": 3199,
  "ved": 3200,
  "vision": 3201,
  "turn": 3202,
  "460": 3203,
  "580": 3204,
  "Bel": 3205,
  "FF": 3206,
  "Far": 3207,
  "Mas": 3208,
  "her": 3209,
  "iro": 3210,
  "sch": 3211,
  "ves": 3212,
  "zz": 3213,
  "mor": 3214,
  "1843": 3215,
  "Best": 3216,
  "System": 3217,
  "ptr": 3218,
  "430": 3219,
  "MBC": 3220,
  "sha": 3221,
  "401": 3222,
  "chem": 3223,
  "410": 3224,
  "bar": 3225,
  "bus": 3226,
  "pr": 3227,
  "led": 3228,
  "177": 3229,
  "rich": 3230,
  "off": 3231,
  "シ": 3232,
  "los": 3233,
  "NFL": 3234,
  "ViuTV": 3235,
  "Cal": 3236,
  "Switch": 3237,
  "163": 3238,
  "AMD": 3239,
  "API": 3240,
  "West": 3241,
  "Dan": 3242,
  "ICO": 3243,
  "ep": 3244,
  "oper": 3245,
  "ments": 3246,
  "1852": 3247,
  "162": 3248,
  "cript": 3249,
  "VII": 3250,
  "gs": 3251,
  "1820": 3252,
  "this": 3253,
  "く": 3254,
  "Max": 3255,
  "Inc": 3256,
  "Ama": 3257,
  "Bor": 3258,
  "Fre": 3259,
  "Prin": 3260,
  "cil": 3261,
  "ue": 3262,
  "142": 3263,
  "get": 3264,
  "234": 3265,
  "thon": 3266,
  "Roy": 3267,
  "VR": 3268,
  "172": 3269,
  "お": 3270,
  "さ": 3271,
  "Records": 3272,
  "640": 3273,
  "Em": 3274,
  "Gal": 3275,
  "Squ": 3276,
  "Vir": 3277,
  "169": 3278,
  "3500": 3279,
  "Limited": 3280,
  "data": 3281,
  "CM": 3282,
  "Core": 3283,
  "KC": 3284,
  "T1": 3285,
  "±": 3286,
  "lve": 3287,
  "1839": 3288,
  "ars": 3289,
  "232": 3290,
  "480": 3291,
  "ci1": 3292,
  "179": 3293,
  "cade": 3294,
  "2030": 3295,
  "de ": 3296,
  " de ": 3297,
  "shi4 ": 3298,
  " shi4 ": 3299,
  " nian2": 3300,
  " nian2 ": 3301,
  "wei4 ": 3302,
  "zai4 ": 3303,
  " wei4 ": 3304,
  " zai4 ": 3305,
  "he2 ": 3306,
  " he2 ": 3307,
  "zhong1 ": 3308,
  "bu4 ": 3309,
  "di4 ": 3310,
  "shi2 ": 3311,
  "guo2 ": 3312,
  "yu2 ": 3313,
  "ren2 ": 3314,
  " bu4 ": 3315,
  "yi1 ": 3316,
  " zhong1 ": 3317,
  "li4 ": 3318,
  "zhi4 ": 3319,
  "gong1 ": 3320,
  " shi2 ": 3321,
  "yue4 ": 3322,
  "ji2 ": 3323,
  "cheng2 ": 3324,
  "yi4 ": 3325,
  "you3 ": 3326,
  " di4 ": 3327,
  " yue4 ": 3328,
  " yu2 ": 3329,
  " ren2 ": 3330,
  " zhi4 ": 3331,
  "da4 ": 3332,
  " ji2 ": 3333,
  "yuan2 ": 3334,
  " you3 ": 3335,
  "ji4 ": 3336,
  " guo2 ": 3337,
  " li4 ": 3338,
  " gong1 ": 3339,
  " yi4 ": 3340,
  " yi3": 3341,
  " cheng2 ": 3342,
  "jia1 ": 3343,
  "si1 ": 3344,
  "yu3 ": 3345,
  " xian4": 3346,
  " ri4": 3347,
  " yi1 ": 3348,
  " xing2": 3349,
  " ta1": 3350,
  "li3 ": 3351,
  "ji1 ": 3352,
  " dao4": 3353,
  "hou4 ": 3354,
  "wei2 ": 3355,
  " zhi1": 3356,
  " da4 ": 3357,
  " yuan2 ": 3358,
  "xi1 ": 3359,
  " ri4 ": 3360,
  " ge4": 3361,
  " yi3 ": 3362,
  "xue2 ": 3363,
  "hui4 ": 3364,
  "le ": 3365,
  "zuo4 ": 3366,
  " yu3 ": 3367,
  " dao4 ": 3368,
  "ming2 ": 3369,
  " ji4 ": 3370,
  "bei4 ": 3371,
  " xing2 ": 3372,
  "sheng1 ": 3373,
  " jian4": 3374,
  " chu1": 3375,
  " qi2": 3376,
  " si1 ": 3377,
  " de2": 3378,
  "zheng4 ": 3379,
  " xian4 ": 3380,
  " hou4 ": 3381,
  " ji1 ": 3382,
  "dui4 ": 3383,
  "shang4 ": 3384,
  "qu1 ": 3385,
  "shi3 ": 3386,
  " er3": 3387,
  " jia1 ": 3388,
  "you2 ": 3389,
  " ta1 ": 3390,
  " xi1 ": 3391,
  " li3 ": 3392,
  " er2": 3393,
  "zhan4 ": 3394,
  " jun1": 3395,
  " bing4": 3396,
  " zhi1 ": 3397,
  " ge4 ": 3398,
  "zhu3 ": 3399,
  "ren4 ": 3400,
  "fu4 ": 3401,
  "zi4 ": 3402,
  "wu4 ": 3403,
  "xin1 ": 3404,
  "dai4 ": 3405,
  "ju4 ": 3406,
  "ping2 ": 3407,
  " chu1 ": 3408,
  " ke4": 3409,
  " zhou1": 3410,
  "xiang1 ": 3411,
  " hui4 ": 3412,
  "shu4 ": 3413,
  "nan2 ": 3414,
  " she4": 3415,
  " bei4 ": 3416,
  " ming2 ": 3417,
  "xia4 ": 3418,
  "guan1 ": 3419,
  " er3 ": 3420,
  " de2 ": 3421,
  "lu4 ": 3422,
  "yu4 ": 3423,
  "hua4 ": 3424,
  " jian4 ": 3425,
  "jing1 ": 3426,
  "yan2 ": 3427,
  "fang1 ": 3428,
  " yin1": 3429,
  "kai1 ": 3430,
  "jian1 ": 3431,
  "jiao4 ": 3432,
  "fa1 ": 3433,
  "yong4 ": 3434,
  " dan4": 3435,
  " er2 ": 3436,
  "zhu4 ": 3437,
  "lai2 ": 3438,
  "min2 ": 3439,
  "shou3 ": 3440,
  "zhe4 ": 3441,
  "xiang4 ": 3442,
  "wen2 ": 3443,
  " jun1 ": 3444,
  "xi4 ": 3445,
  "qian2 ": 3446,
  "ben3 ": 3447,
  "te4 ": 3448,
  " wei2 ": 3449,
  "zhi2 ": 3450,
  "fa3 ": 3451,
  "qi1 ": 3452,
  "jie2 ": 3453,
  "lian2 ": 3454,
  " bing4 ": 3455,
  "dong4 ": 3456,
  "dian4 ": 3457,
  " qi2 ": 3458,
  " ke4 ": 3459,
  "dong1 ": 3460,
  "mu4 ": 3461,
  " jin4": 3462,
  " dui4 ": 3463,
  " huo4": 3464,
  " zhan4 ": 3465,
  "fen1 ": 3466,
  "tai2 ": 3467,
  "zhang3 ": 3468,
  "du4 ": 3469,
  "jiang1 ": 3470,
  " qiu2": 3471,
  " ping2 ": 3472,
  "gao1 ": 3473,
  "ye4 ": 3474,
  "suo3 ": 3475,
  "bei3 ": 3476,
  " zhou1 ": 3477,
  "shi1 ": 3478,
  " le ": 3479,
  "duo1 ": 3480,
  "jie1 ": 3481,
  "ge2 ": 3482,
  " shang4 ": 3483,
  "jin1 ": 3484,
  " zheng4 ": 3485,
  "fu2 ": 3486,
  " zuo4 ": 3487,
  " you2 ": 3488,
  " fu4 ": 3489,
  "kou3 ": 3490,
  "guo4 ": 3491,
  "zhi3 ": 3492,
  " tong2": 3493,
  "hai3 ": 3494,
  " ren4 ": 3495,
  " quan2": 3496,
  "ma3 ": 3497,
  "tong1 ": 3498,
  "ru4 ": 3499,
  "zui4 ": 3500,
  " sheng1 ": 3501,
  " xue2 ": 3502,
  "ci3 ": 3503,
  "xing4 ": 3504,
  "wai4 ": 3505,
  "nei4 ": 3506,
  "la1 ": 3507,
  "ti3 ": 3508,
  "jue2 ": 3509,
  "ke3 ": 3510,
  "qi3 ": 3511,
  "shan1 ": 3512,
  "tian1 ": 3513,
  "chang3 ": 3514,
  "deng3 ": 3515,
  "zhen4 ": 3516,
  "wu3 ": 3517,
  "chang2 ": 3518,
  "zi ": 3519,
  "yao4 ": 3520,
  "bi3 ": 3521,
  " ju4 ": 3522,
  "bao3 ": 3523,
  "mi3 ": 3524,
  "ya4 ": 3525,
  " ye3": 3526,
  "gai1 ": 3527,
  " yin1 ": 3528,
  " dai4 ": 3529,
  "mian4 ": 3530,
  "zhong4 ": 3531,
  " she4 ": 3532,
  "feng1 ": 3533,
  " zhe4 ": 3534,
  "zhong3 ": 3535,
  "ci4 ": 3536,
  "yun4 ": 3537,
  "yi2 ": 3538,
  "liu2 ": 3539,
  "che1 ": 3540,
  "shou4 ": 3541,
  "lin2 ": 3542,
  "bao1 ": 3543,
  "yi2 ge4 ": 3544,
  "sai4 ": 3545,
  "jie4 ": 3546,
  "ding4 ": 3547,
  "shen1 ": 3548,
  "sheng3 ": 3549,
  "luo2 ": 3550,
  "mei3 guo2 ": 3551,
  "san1 ": 3552,
  "qi4 ": 3553,
  "xiao3 ": 3554,
  " dan4 ": 3555,
  "neng2 ": 3556,
  "shu1 ": 3557,
  "ze2 ": 3558,
  "lie4 ": 3559,
  "xuan3 ": 3560,
  "si4 ": 3561,
  "qing1 ": 3562,
  "zhe3 ": 3563,
  " qiu2 ": 3564,
  "jing4 ": 3565,
  "yuan4 ": 3566,
  "ba1 ": 3567,
  "wang2 ": 3568,
  "ke1 ": 3569,
  "tai4 ": 3570,
  "lan2 ": 3571,
  "bao4 ": 3572,
  "an1 ": 3573,
  "zong3 ": 3574,
  "ying3 ": 3575,
  " huo4 ": 3576,
  "bi4 ": 3577,
  "fu3 ": 3578,
  "dao3 ": 3579,
  " xin1 ": 3580,
  "gu3 ": 3581,
  "ying1 ": 3582,
  " hao4": 3583,
  " xia4 ": 3584,
  " zi4 ": 3585,
  "ge1 ": 3586,
  "fen4 ": 3587,
  "xiao4 ": 3588,
  "yue1 ": 3589,
  "ni2 ": 3590,
  "jiao1 ": 3591,
  "na4 ": 3592,
  " yu4 ": 3593,
  " mi3 ": 3594,
  "zi1 ": 3595,
  "er4 ": 3596,
  " xiang1 ": 3597,
  "pu3 ": 3598,
  "dan1 ": 3599,
  " zhu4 ": 3600,
  "biao3 ": 3601,
  "guan3 ": 3602,
  "tou2 ": 3603,
  "liang4 ": 3604,
  "chuan2 ": 3605,
  " lu4 ": 3606,
  "su4 ": 3607,
  "wu2 ": 3608,
  " dang1": 3609,
  "bo1 ": 3610,
  "ru2 ": 3611,
  "yan3 ": 3612,
  "nv3 ": 3613,
  "bo2 ": 3614,
  " zhong1 guo2 ": 3615,
  "xing1 ": 3616,
  "ti2 ": 3617,
  "fei1 ": 3618,
  "da2 ": 3619,
  "se4 ": 3620,
  "cheng1 ": 3621,
  "mei3 ": 3622,
  " wei4 yu2 ": 3623,
  " jin4 ": 3624,
  "ceng2 ": 3625,
  "chan3 ": 3626,
  " nan2 ": 3627,
  "shui3 ": 3628,
  "tu2 ": 3629,
  "bian4 ": 3630,
  "gui1 ": 3631,
  " ran2": 3632,
  "yang2 ": 3633,
  "zhang1 ": 3634,
  "a1 ": 3635,
  "gai3 ": 3636,
  "dian3 ": 3637,
  "cong2 ": 3638,
  "jiu4 ": 3639,
  " ben3 ": 3640,
  " quan2 ": 3641,
  "sha1 ": 3642,
  "bao1 kuo4": 3643,
  "wang3 ": 3644,
  "jian3 ": 3645,
  "sheng4 ": 3646,
  "zu3 ": 3647,
  "shu3 ": 3648,
  "gang3 ": 3649,
  "hua2 ": 3650,
  "lv4 ": 3651,
  "qing2 ": 3652,
  "jing3 ": 3653,
  "liang3 ": 3654,
  "zu2 ": 3655,
  "ban4 ": 3656,
  "tong3 ": 3657,
  "gong4 ": 3658,
  "shang1 ": 3659,
  "li2 ": 3660,
  "hu4 ": 3661,
  "tong2 ": 3662,
  "bian1 ": 3663,
  "jin4 ": 3664,
  "an4 ": 3665,
  "long2 ": 3666,
  "luo4 ": 3667,
  "xu4 ": 3668,
  "chi2 ": 3669,
  "ao4 ": 3670,
  "mei2 ": 3671,
  "jin3 ": 3672,
  "ban1 ": 3673,
  "guang3 ": 3674,
  "chu1 ": 3675,
  "ce4 ": 3676,
  "mi4 ": 3677,
  "shen2 ": 3678,
  " ta1 men": 3679,
  "zheng1 ": 3680,
  "zhi1 ": 3681,
  "ling3 ": 3682,
  "you4 ": 3683,
  "fan3 ": 3684,
  "wei1 ": 3685,
  " zhu3 ": 3686,
  " xiang4 ": 3687,
  "huo2 ": 3688,
  "xi2 ": 3689,
  "ting2 ": 3690,
  "ka3 ": 3691,
  "cha2 ": 3692,
  " gai1 ": 3693,
  "cai2 ": 3694,
  "1 ": 3695,
  "gou4 ": 3696,
  "shuo1 ": 3697,
  "men2 ": 3698,
  "ci2 ": 3699,
  "xiang3 ": 3700,
  "mu3 ": 3701,
  "lei4 ": 3702,
  "wei3 ": 3703,
  "qu3 ": 3704,
  " gong1 li3 ": 3705,
  "yan2 jiu1": 3706,
  " duo1 ": 3707,
  "tuan2 ": 3708,
  "yin3 ": 3709,
  "jian4 ": 3710,
  " ye3 ": 3711,
  "chao2 ": 3712,
  "ying4 ": 3713,
  "chen2 ": 3714,
  "tang2 ": 3715,
  "xie1 ": 3716,
  "qi2 ": 3717,
  "pin3 ": 3718,
  " yi3 ji2 ": 3719,
  "jia4 ": 3720,
  "shi3 yong4 ": 3721,
  "jie3 ": 3722,
  " wan4": 3723,
  "hang2 ": 3724,
  "yi3 ": 3725,
  "lun2 ": 3726,
  "rong2 ": 3727,
  " you2": 3728,
  "jiang3 ": 3729,
  "pai2 ": 3730,
  "fu1 ": 3731,
  "jiu3 ": 3732,
  "ling4 ": 3733,
  "tai2 wan1": 3734,
  " hao4 ": 3735,
  " de di4 ": 3736,
  "xu1 ": 3737,
  "ke3 yi3 ": 3738,
  "huang2 ": 3739,
  "xian1 ": 3740,
  "duan4 ": 3741,
  "2 ": 3742,
  "ke4 ": 3743,
  "dang3 ": 3744,
  "mo2 ": 3745,
  "can1 ": 3746,
  "ying2 ": 3747,
  "tiao2 ": 3748,
  "biao1 ": 3749,
  " de yi1 ": 3750,
  "kai1 shi3 ": 3751,
  "quan2 ": 3752,
  "zhan3 ": 3753,
  " cheng2 wei2 ": 3754,
  "ye3 ": 3755,
  "hong2 ": 3756,
  "mei2 you3 ": 3757,
  "han4 ": 3758,
  "e2 ": 3759,
  "yin1 ": 3760,
  "wei3 yuan2 ": 3761,
  "qian1 ": 3762,
  "ban3 ": 3763,
  "xian4 ": 3764,
  "ling2 ": 3765,
  "xiao1 ": 3766,
  " tong2 ": 3767,
  "hui2 ": 3768,
  "su1 ": 3769,
  "fang2 ": 3770,
  "meng2 ": 3771,
  "zhuang1 ": 3772,
  "kong1 ": 3773,
  "ju2 ": 3774,
  "cun1 ": 3775,
  "bao1 kuo4 ": 3776,
  "ren2 kou3 ": 3777,
  " qi2 zhong1 ": 3778,
  " gong1 si1 ": 3779,
  "huo4 ": 3780,
  "zi3 ": 3781,
  "xing2 ": 3782,
  "dou1 ": 3783,
  " de shi4 ": 3784,
  "   zai4 ": 3785,
  "qiang2 ": 3786,
  "zhao4 ": 3787,
  "du2 ": 3788,
  "zheng4 zhi4 ": 3789,
  "yi2 ge4": 3790,
  "mo4 ": 3791,
  " fen1 ": 3792,
  "cai3 ": 3793,
  "bing1 ": 3794,
  "fa3 guo2 ": 3795,
  " gao1 ": 3796,
  " da4 xue2 ": 3797,
  " shi4 yi1 ": 3798,
  "hai2 ": 3799,
  " ta1 de ": 3800,
  "hu2 ": 3801,
  "chu4 ": 3802,
  "qin1 ": 3803,
  "lun4 ": 3804,
  "fan4 ": 3805,
  "zhen1 ": 3806,
  "guang1 ": 3807,
  "wen4 ": 3808,
  "man4 ": 3809,
  " jie2 ": 3810,
  "she4 ": 3811,
  "biao3 shi4 ": 3812,
  "ai4 ": 3813,
  "zhong1 de ": 3814,
  "ju1 ": 3815,
  " jiao4 ": 3816,
  "zhuan1 ": 3817,
  "diao4 ": 3818,
  "bai2 ": 3819,
  "da3 ": 3820,
  "que4 ": 3821,
  "dian4 shi4 ": 3822,
  " dong1 ": 3823,
  " du4 ": 3824,
  "fei4 ": 3825,
  " shi4 wei4 ": 3826,
  " mu4 ": 3827,
  "han2 ": 3828,
  "shi4 de ": 3829,
  " te4 ": 3830,
  "3 ": 3831,
  "xun4 ": 3832,
  " jin1 ": 3833,
  "pian4 ": 3834,
  "ming4 ": 3835,
  "ju3 ": 3836,
  " jiang1 ": 3837,
  "tuo1 ": 3838,
  "gu4 ": 3839,
  " ren2 kou3 ": 3840,
  "xiu1 ": 3841,
  " bu4 fen4 ": 3842,
  "xie2 ": 3843,
  "zao4 ": 3844,
  " he2 guo2 ": 3845,
  "zhong1 guo2 ": 3846,
  "guo3 ": 3847,
  "10 yue4 ": 3848,
  "shou1 ": 3849,
  " zui4": 3850,
  "xin4 ": 3851,
  "12 yue4 ": 3852,
  "7 yue4 ": 3853,
  "9 yue4 ": 3854,
  "zhuan3 ": 3855,
  " shi1 ": 3856,
  "ta1 ": 3857,
  "dang1 ": 3858,
  "mian4 ji1 ": 3859,
  " ren2 min2 ": 3860,
  "8 yue4 ": 3861,
  "xun2 ": 3862,
  " di4 qu1 ": 3863,
  "wu1 ": 3864,
  "3 yue4 ": 3865,
  " guo4 ": 3866,
  "1 yue4 ": 3867,
  " suo3 ": 3868,
  " jing1 ": 3869,
  " shou3 ": 3870,
  "gan3 ": 3871,
  "huan2 ": 3872,
  "di2 ": 3873,
  "xia2 ": 3874,
  "jia3 ": 3875,
  "5 yue4 ": 3876,
  "ying1 guo2 ": 3877,
  " ci3 ": 3878,
  "dao4 ": 3879,
  "di3 ": 3880,
  "zhu1 ": 3881,
  "ting1 ": 3882,
  "zheng4 shi4 ": 3883,
  "chong2 ": 3884,
  "huo3 ": 3885,
  "zhou1 ": 3886,
  "6 yue4 ": 3887,
  "zhuang4 ": 3888,
  "cheng2 shi4 ": 3889,
  "4 yue4 ": 3890,
  " guo2 jia1 ": 3891,
  "tian2 ": 3892,
  "geng4 ": 3893,
  "   di4 ": 3894,
  "fang4 ": 3895,
  "yong3 ": 3896,
  "shu3 yu2 ": 3897,
  " ping2 fang1": 3898,
  "po4 ": 3899,
  "jun1 ": 3900,
  " di4 yi1 ": 3901,
  " qian2 ": 3902,
  "11 yue4 ": 3903,
  "qun2 ": 3904,
  "qu4 ": 3905,
  "jiang4 ": 3906,
  "tao2 ": 3907,
  " shi4 ji4 ": 3908,
  " ping2 fang1 gong1 li3 ": 3909,
  " tong2 shi2 ": 3910,
  " ma3 ": 3911,
  " deng3 ": 3912,
  "dan1 ren4 ": 3913,
  "4 ": 3914,
  " ru2 ": 3915,
  "gen1 ": 3916,
  "ji3 ": 3917,
  "bie2 ": 3918,
  "pai4 ": 3919,
  "du1 ": 3920,
  "5 ": 3921,
  "liang2 ": 3922,
  "shao3 ": 3923,
  "hui1 ": 3924,
  "tie3 ": 3925,
  "nong2 ": 3926,
  " nian2 1 yue4 ": 3927,
  "ta3 ": 3928,
  "dian4 ying3 ": 3929,
  "zong1 ": 3930,
  "chu3 ": 3931,
  " qi1 ": 3932,
  " tian1 ": 3933,
  " zhe4": 3934,
  "si3 ": 3935,
  "er3 ": 3936,
  " de shi2 ": 3937,
  "shuang1 ": 3938,
  "qiao2 ": 3939,
  "tai2 wan1 ": 3940,
  " sui4": 3941,
  "gen1 ju4 ": 3942,
  "li4 shi3 ": 3943,
  "chu2 ": 3944,
  " shi4 zhen4 ": 3945,
  "gao4 ": 3946,
  "bai4 ": 3947,
  "can1 jia1 ": 3948,
  "yun4 dong4": 3949,
  "gang1 ": 3950,
  "che1 zhan4 ": 3951,
  "guo2 de ": 3952,
  "jiao3 ": 3953,
  " yin1 wei4 ": 3954,
  " ri4 ben3 ": 3955,
  " ping2 fang1 ": 3956,
  "li4 de ": 3957,
  " nian2 de ": 3958,
  "gai4 ": 3959,
  "pan4 ": 3960,
  " wen2 ": 3961,
  " hai3 ": 3962,
  "zheng4 fu3 ": 3963,
  "bing4 ": 3964,
  "zhun3 ": 3965,
  " nian2 12 yue4 ": 3966,
  "wa3 ": 3967,
  "yan4 ": 3968,
  "wo3 ": 3969,
  " fu2 ": 3970,
  "gong4 he2 guo2 ": 3971,
  " xian4 de ": 3972,
  "ya2 ": 3973,
  "yin2 ": 3974,
  " wan4 ": 3975,
  "fa1 xian4 ": 3976,
  "formula ": 3977,
  "chuang4 ": 3978,
  "hei1 ": 3979,
  "huan4 ": 3980,
  "qu1 de ": 3981,
  "song4 ": 3982,
  "ha1 ": 3983,
  "hen3 ": 3984,
  " suo3": 3985,
  "ti2 gong1 ": 3986,
  "jin4 xing2 ": 3987,
  " bei3 ": 3988,
  "lei2 ": 3989,
  "2 yue4 ": 3990,
  "jing1 ji4 ": 3991,
  "tong1 guo4 ": 3992,
  " nian2 3 yue4 ": 3993,
  "sui2 ": 3994,
  "chuan1 ": 3995,
  "qie3 ": 3996,
  " zhong1 yang1": 3997,
  " guo2 ji4 ": 3998,
  "hua1 ": 3999,
  "shang4 de ": 4000,
  " you2 yu2 ": 4001,
  " you4 ": 4002,
  "lei1 ": 4003,
  "wei3 yuan2 hui4 ": 4004,
  "kao3 ": 4005,
  " nian2 7 yue4 ": 4006,
  "wan2 ": 4007,
  "cheng1 wei2 ": 4008,
  " nian2 10 yue4 ": 4009,
  "bai3 ": 4010,
  "deng1 ": 4011,
  " shi4 jie4 ": 4012,
  " yin1 ci3 ": 4013,
  "ming2 wei4 ": 4014,
  " jin4 xing2 ": 4015,
  "nuo4 ": 4016,
  " shi4 zai4 ": 4017,
  " ran2 ": 4018,
  "chong1 ": 4019,
  "zhu3 yi4 ": 4020,
  " nian2 9 yue4 ": 4021,
  " ta1 men ": 4022,
  "kuai4 ": 4023,
  "yan2 jiu1 ": 4024,
  "tu3 ": 4025,
  " zhi1 hou4 ": 4026,
  "qiu2 ": 4027,
  " ying1 ": 4028,
  "mai4 ": 4029,
  "shi2 de ": 4030,
  "lian4 ": 4031,
  "hao4 ": 4032,
  " nian2 5 yue4 ": 4033,
  "sa4 ": 4034,
  "lu2 ": 4035,
  "xi4 tong3 ": 4036,
  " zui4 ": 4037,
  " lian2 ": 4038,
  "pei4 ": 4039,
  "lu3 ": 4040,
  " nian2 4 yue4 ": 4041,
  "chi3 ": 4042,
  "liao4 ": 4043,
  " dang1 ": 4044,
  " nian2 8 yue4 ": 4045,
  " nian2 6 yue4 ": 4046,
  " xing2 de ": 4047,
  "zeng1 ": 4048,
  "ren2 de ": 4049,
  " shi3 ": 4050,
  "xiang1 gang3 ": 4051,
  "xuan1 ": 4052,
  "qi1 jian1 ": 4053,
  "de2 ": 4054,
  "kuang4 ": 4055,
  "guan3 li3 ": 4056,
  " gong1 zuo4 ": 4057,
  "piao4 ": 4058,
  " zhi1 yi1 ": 4059,
  "xu3 ": 4060,
  "6 ": 4061,
  "en1 ": 4062,
  "di1 ": 4063,
  "heng2 ": 4064,
  "da4 de ": 4065,
  "bu3 ": 4066,
  "yang4 ": 4067,
  "sen1 ": 4068,
  " zhong1 xin1 ": 4069,
  "xuan1 bu4 ": 4070,
  "tui1 ": 4071,
  " nian2 11 yue4 ": 4072,
  "zu3 zhi1 ": 4073,
  "ri4 ": 4074,
  "wang4 ": 4075,
  "bu4 de ": 4076,
  "pi2 ": 4077,
  "men ": 4078,
  " bao1 kuo4 ": 4079,
  "chang4 ": 4080,
  "ying3 xiang3 ": 4081,
  "yang3 ": 4082,
  " ta1 zai4 ": 4083,
  "qian1 mi3 ": 4084,
  "sai1 ": 4085,
  "er2 ": 4086,
  "   sheng1 ": 4087,
  " huo4 de2 ": 4088,
  "pi1 ": 4089,
  " shi4 jie4": 4090,
  "luo2 si1 ": 4091,
  "he4 ": 4092,
  "ke3 neng2": 4093,
  "cheng2 de ": 4094,
  " gai1": 4095,
  " qing1 ": 4096,
  "nian4 ": 4097,
  "dun4 ": 4098,
  " mei3": 4099,
  "xian2 ": 4100,
  "lou2 ": 4101,
  "qi2 ta1 ": 4102,
  " nian2 2 yue4 ": 4103,
  "bang1 ": 4104,
  " cheng2 li4 ": 4105,
  "le yi1 ": 4106,
  "huo2 dong4 ": 4107,
  " ren4 wei2 ": 4108,
  " lai2 ": 4109,
  "liu4 ": 4110,
  "you1 ": 4111,
  " bi3 ": 4112,
  " shu4 ": 4113,
  " fen1": 4114,
  "ke1 xue2 ": 4115,
  "fa1 zhan3 ": 4116,
  "huo4 de2 ": 4117,
  "jun4 ": 4118,
  " luo2 ": 4119,
  " zuo4 wei2 ": 4120,
  "ya1 ": 4121,
  " ping2 fang1 qian1 mi3 ": 4122,
  " a1 ": 4123,
  "hua2 ren2 min2 ": 4124,
  " wu2 ": 4125,
  "ri4 ben3 ": 4126,
  "bei1 ": 4127,
  "lao3 ": 4128,
  "hui4 yi4 ": 4129,
  "re4 ": 4130,
  " zhi2": 4131,
  "ku4 ": 4132,
  "tan2 ": 4133,
  "jian1 de ": 4134,
  "tie3 lu4 ": 4135,
  " liu2 ": 4136,
  " de ren2 ": 4137,
  "yong4 yu2 ": 4138,
  "liao2 ": 4139,
  "ning2 ": 4140,
  " shi2 jian1 ": 4141,
  " de gong1 ": 4142,
  "ge4 ": 4143,
  " shan1 ": 4144,
  " zhang1 ": 4145,
  "mian3 ": 4146,
  " yan2 ": 4147,
  "mian4 ji1": 4148,
  "min2 guo2 ": 4149,
  "rui4 ": 4150,
  "wu1 ke4 ": 4151,
  "yin4 ": 4152,
  "xian3 ": 4153,
  "le4 ": 4154,
  "zuo3 ": 4155,
  "gong4 you3 ": 4156,
  "   li4 shi3 ": 4157,
  "hao3 ": 4158,
  "   sheng1 ping2 ": 4159,
  "hua2 ren2 min2 gong4 he2 guo2 ": 4160,
  "fang1 shi4 ": 4161,
  "fa1 sheng1 ": 4162,
  "gan1 ": 4163,
  " cong2 ": 4164,
  " zhi2 ": 4165,
  "dou4 ": 4166,
  "wen4 ti2 ": 4167,
  "guan4 jun1 ": 4168,
  "zhu3 yao4 ": 4169,
  "ran2 ": 4170,
  "di4 de ": 4171,
  " di4 er4 ": 4172,
  "dao3 zhi4 ": 4173,
  " xiao3 ": 4174,
  "guan1 xi4 ": 4175,
  "cun2 ": 4176,
  "kang1 ": 4177,
  "can1 yu4 ": 4178,
  "yuan3 ": 4179,
  " jin3 ": 4180,
  " bu4 fen4": 4181,
  "zheng3 ": 4182,
  " gong1 cheng2 ": 4183,
  "wan2 cheng2 ": 4184,
  "dan1 wei4 ": 4185,
  "ke3 neng2 ": 4186,
  " wu3 ": 4187,
  " zhi3 ": 4188,
  "yi1 wei4 ": 4189,
  " ze2 ": 4190,
  "1 ri4 ": 4191,
  "xie4 ": 4192,
  "suo3 you3 ": 4193,
  " zong3 ": 4194,
  "zhi4 de ": 4195,
  "wen2 hua4 ": 4196,
  " cheng2 yuan2 ": 4197,
  " de cheng2 ": 4198,
  "gei3 ": 4199,
  "lv3 ": 4200,
  " ba1 ": 4201,
  "yuan2 de ": 4202,
  " tong1 ": 4203,
  "yong1 you3 ": 4204,
  "cun2 zai4 ": 4205,
  "er4 shi2 ": 4206,
  "bei3 bu4 ": 4207,
  "lian2 he2 ": 4208,
  "hou4 de ": 4209,
  "niu3 ": 4210,
  " shi4 zhong1 ": 4211,
  "zheng4 fu3": 4212,
  "you2 yu2 ": 4213,
  "guo2 jia1 ": 4214,
  "dui4 yu2 ": 4215,
  " nian2 zhi4 ": 4216,
  "fa1 xing2 ": 4217,
  "yi4 de ": 4218,
  "ju4 you3 ": 4219,
  " xi4 ": 4220,
  " zhi3": 4221,
  " jian4 zhu4 ": 4222,
  "bi3 sai4 ": 4223,
  " bing4 zai4 ": 4224,
  " dao4 le ": 4225,
  "xin1 de ": 4226,
  "ou1 ": 4227,
  "si1 de ": 4228,
  "shen3 ": 4229,
  "ge ": 4230,
  "zi4 ji3": 4231,
  "yun4 dong4 ": 4232,
  "yun2 ": 4233,
  "xing2 zheng4 ": 4234,
  "yin4 du4 ": 4235,
  "e2 luo2 si1 ": 4236,
  "bin1 ": 4237,
  " mian4 ji1 ": 4238,
  "dai4 biao3 ": 4239,
  "shao4 ": 4240,
  " mei3 guo2 ": 4241,
  " ling4 ": 4242,
  "xu3 duo1 ": 4243,
  " dan4 shi4 ": 4244,
  "ren4 he2 ": 4245,
  "sheng1 yu2 ": 4246,
  "tu1 ": 4247,
  "gui4 ": 4248,
  " jian3 ": 4249,
  "man3 ": 4250,
  " nian2 dai4 ": 4251,
  "ding1 ": 4252,
  "liang3 ge4 ": 4253,
  "che4 ": 4254,
  "bao3 hu4 ": 4255,
  " ren2 kou3 mi4 ": 4256,
  " shi3": 4257,
  "zh ": 4258,
  "xiu4 ": 4259,
  "e4 ": 4260,
  "xuan2 ": 4261,
  " dang1 shi2 ": 4262,
  "zhang4 ": 4263,
  " de yi2 ge4 ": 4264,
  "nan2 bu4 ": 4265,
  "ju3 xing2 ": 4266,
  "zhuan1 ji2 ": 4267,
  "mian4 ji1 wei4 ": 4268,
  " dian4 ": 4269,
  "lai2 de ": 4270,
  " guan1 ": 4271,
  "fan1 ": 4272,
  "zao3 ": 4273,
  " zheng4 fu3 ": 4274,
  " ceng2 ": 4275,
  "du2 li4 ": 4276,
  "fu2 wu4 ": 4277,
  "jue2 ding4 ": 4278,
  "xie3 ": 4279,
  " chu1 de ": 4280,
  "ruo4 ": 4281,
  "zhu3 yao4": 4282,
  "7 ": 4283,
  "kai1 shi3": 4284,
  " li4 shi3 ": 4285,
  "qing3 ": 4286,
  " san1 ": 4287,
  " she4 ji4 ": 4288,
  " wang2 ": 4289,
  " mei3 ": 4290,
  " 15": 4291,
  "ming2 de ": 4292,
  "hai4 ": 4293,
  "rang4 ": 4294,
  " shi4 wei4 yu2 ": 4295,
  "jiu4 shi4 ": 4296,
  " you3 yi1 ": 4297,
  "ai1 ": 4298,
  "geng1 ": 4299,
  " jiang1": 4300,
  "gt ": 4301,
  " ci3": 4302,
  " gt ": 4303,
  "xi3 ": 4304,
  "tan4 ": 4305,
  " qi2 ta1 ": 4306,
  " fa3 ": 4307,
  " xing2 zheng4 ": 4308,
  "pei2 ": 4309,
  "jiao4 yu4 ": 4310,
  "shou4 dao4 ": 4311,
  "lt ": 4312,
  " feng1 ": 4313,
  "ren4 wei2 ": 4314,
  "fang3 ": 4315,
  "kan1 ": 4316,
  "wan3 ": 4317,
  " shi4 di4 ": 4318,
  "fa1 zhan3": 4319,
  " jie1 ": 4320,
  "she4 hui4 ": 4321,
  " lt ": 4322,
  "yi4 wei4 ": 4323,
  "gu4 shi4 ": 4324,
  "shan4 ": 4325,
  "pian1 ": 4326,
  "fang1 mian4 ": 4327,
  " xian4 zai4 ": 4328,
  "qu1 wei4 ": 4329,
  " zui4 zhong1 ": 4330,
  " bi4 ": 4331,
  "8 ": 4332,
  "qin2 ": 4333,
  " zhong1 yang1 ": 4334,
  "pao4 ": 4335,
  " shi4 shi4 ": 4336,
  "tui4 ": 4337,
  "zhe ": 4338,
  "nei4 de ": 4339,
  " jiu4 ": 4340,
  "shu3 de ": 4341,
  "xiang1 gang3": 4342,
  "xiao3 shi2 ": 4343,
  "dan4 ": 4344,
  " li4 ru2 ": 4345,
  "zu2 qiu2 ": 4346,
  " qu1 ": 4347,
  "shu4 ju4 ": 4348,
  " bu4 tong2": 4349,
  "lie4 che1 ": 4350,
  "xu1 yao4 ": 4351,
  "hua4 de ": 4352,
  "zhi2 wu4 ": 4353,
  " sui1": 4354,
  "ren2 shi4 ": 4355,
  "qiang1 ": 4356,
  "zuo4 de ": 4357,
  " dong4 ": 4358,
  "shi3 yong4": 4359,
  "zeng1 jia1 ": 4360,
  " ji4 hua4 ": 4361,
  "min2 zhu3 ": 4362,
  " shi2 qi1 ": 4363,
  "zuo4 wei2 ": 4364,
  " gu3 ": 4365,
  "kong4 zhi4 ": 4366,
  " ye3 shi4 ": 4367,
  "duan3 ": 4368,
  "tan3 ": 4369,
  " jian4 de ": 4370,
  "yin1 yue4 ": 4371,
  " ceng2": 4372,
  " ran2 er2 ": 4373,
  " 16": 4374,
  " an1 ": 4375,
  " yi3 jing1 ": 4376,
  " shu3 yu2 ": 4377,
  "lang2 ": 4378,
  " he2 zuo4 ": 4379,
  " zai4 di4 ": 4380,
  "ren2 min2 ": 4381,
  " shi4 jian4 ": 4382,
  " ren2 yuan2 ": 4383,
  " you4": 4384,
  "ta1 de ": 4385,
  " jian4 yu2 ": 4386,
  "xue2 yuan4 ": 4387,
  "zu3 cheng2 ": 4388,
  "chao1 guo4 ": 4389,
  " ma3": 4390,
  " ge2 ": 4391,
  "zuo4 pin3 ": 4392,
  " yin1 yue4 ": 4393,
  " ke1 ": 4394,
  "mao4 ": 4395,
  " quan2 guo2 ": 4396,
  "xiong2 ": 4397,
  "zai3 ": 4398,
  "hu1 ": 4399,
  "hui4 de ": 4400,
  "ji4 de ": 4401,
  " si4 ": 4402,
  "zong3 tong3 ": 4403,
  "suan4 ": 4404,
  " zhe4 xie1 ": 4405,
  " wei4 le ": 4406,
  " hou4 lai2 ": 4407,
  "yu2 shi4 ": 4408,
  " shou4 ": 4409,
  " pu3 ": 4410,
  " zhang3 ": 4411,
  " tai4 ": 4412,
  " cheng2 gong1 ": 4413,
  "fa1 bu4 ": 4414,
  "da4 li4 ": 4415,
  "ti2 chu1 ": 4416,
  " li4 ya4 ": 4417,
  " 000": 4418,
  " yi4 yuan2 ": 4419,
  " she4 you3 ": 4420,
  "   de ": 4421,
  "s ": 4422,
  " yin1 ci3": 4423,
  "yun4 dong4 yuan2 ": 4424,
  "yao1 qiu2 ": 4425,
  "han2 guo2 ": 4426,
  "bu4 zai4 ": 4427,
  "ni2 ya4": 4428,
  "pin2 ": 4429,
  "you3 de ": 4430,
  "pu2 ": 4431,
  "zao4 cheng2 ": 4432,
  "ou1 zhou1 ": 4433,
  "qiu1 ": 4434,
  "cai3 yong4 ": 4435,
  "xiao3 xing2 ": 4436,
  " gong1 yuan2 ": 4437,
  "jia1 de ": 4438,
  "xing4 de ": 4439,
  "sheng1 de ": 4440,
  "ba3 ": 4441,
  " de yi2 ge4": 4442,
  " ri4 zai4 ": 4443,
  "dang1 shi2 ": 4444,
  "kong4 ": 4445,
  "ren2 wu4 ": 4446,
  "feng4 ": 4447,
  " ci3 wai4 ": 4448,
  " sui2": 4449,
  "gong4 chan3 ": 4450,
  " la1 ": 4451,
  "kan4 ": 4452,
  " zh ": 4453,
  " cong2": 4454,
  " wo3 ": 4455,
  "10 ": 4456,
  " sha1 ": 4457,
  " shi4 he2 ": 4458,
  "wan1 ": 4459,
  " ling4": 4460,
  "2010 nian2 ": 4461,
  " gen1 ju4 ": 4462,
  " de bu4 ": 4463,
  "ma3 wei4 ": 4464,
  " ti3 ": 4465,
  "xue2 jia1 ": 4466,
  "you2 xi4 ": 4467,
  " nv3 ": 4468,
  "song1 ": 4469,
  "fan4 wei2 ": 4470,
  " bu4 tong2 ": 4471,
  "dun1 ": 4472,
  "kai1 fa1 ": 4473,
  "she4 ji4 ": 4474,
  "mao2 ": 4475,
  "chao1 ": 4476,
  "san1 nian2 ": 4477,
  " ke3 ": 4478,
  "qu3 de2 ": 4479,
  " de ji1 ": 4480,
  "sai4 shi4 ": 4481,
  "   shi4 ": 4482,
  "xiong1 ": 4483,
  " xing2 cheng2 ": 4484,
  "   di4 li3 ": 4485,
  " sui4 ": 4486,
  "zi4 zhi4 ": 4487,
  "chan3 sheng1 ": 4488,
  " yi2 ": 4489,
  " wu4 ": 4490,
  "wen1 ": 4491,
  "a1 er3 ": 4492,
  "yao2 ": 4493,
  "ding3 ": 4494,
  " de ji4 ": 4495,
  "shu1 ji4 ": 4496,
  " 17": 4497,
  "jie2 mu4 ": 4498,
  " bing4 yu2 ": 4499,
  "ni3 ": 4500,
  "dou1 shi4 ": 4501,
  "chong2 xin1 ": 4502,
  "zan4 ": 4503,
  "lve4 ": 4504,
  "chun1 ": 4505,
  " liang3 ": 4506,
  " she4 hui4 ": 4507,
  "zhong4 yao4": 4508,
  "li3 de ": 4509,
  "bu2 shi4 ": 4510,
  " dai4 biao3 ": 4511,
  "yi1 nian2 ": 4512,
  " xiang1 gang3 ": 4513,
  " si1 te4 ": 4514,
  "dian4 ying3": 4515,
  "zhui1 ": 4516,
  "guan1 yu2 ": 4517,
  "dang4 ": 4518,
  "xi4 tong3": 4519,
  " na4 ": 4520,
  "jue2 se4 ": 4521,
  " fu2": 4522,
  "jiao1 tong1 ": 4523,
  "lang3 ": 4524,
  " you2 xi4 ": 4525,
  "da4 xue2 ": 4526,
  "9 ": 4527,
  "ji2 de ": 4528,
  "mi2 ": 4529,
  " 0": 4530,
  "ge1 qu3 ": 4531,
  "chu2 le ": 4532,
  " chu1 xian4 ": 4533,
  "tao3 ": 4534,
  "2020 nian2 ": 4535,
  " jie2": 4536,
  " zhi4 zuo4 ": 4537,
  " da4 xue2": 4538,
  "ping2 jun1 ": 4539,
  " de2 guo2 ": 4540,
  "xian3 shi4 ": 4541,
  " chen2 ": 4542,
  " jian1 ": 4543,
  "hua2 min2 guo2 ": 4544,
  " C": 4545,
  " shen1 ": 4546,
  " nian2 zai4 ": 4547,
  " zhong1 hua2 ren2 min2 gong4 he2 guo2 ": 4548,
  "kuo4 ": 4549,
  "kong3 ": 4550,
  "hou4 zai4 ": 4551,
  "miao2 ": 4552,
  " nian2 dai4": 4553,
  " liang3": 4554,
  "er4 nian2 ": 4555,
  "xia4 de ": 4556,
  "yan3 yuan2 ": 4557,
  " ke4 si1 ": 4558,
  "de2 guo2 ": 4559,
  "xiang2 ": 4560,
  "qing4 ": 4561,
  "wei2 yi1 ": 4562,
  "cao3 ": 4563,
  " bao3 ": 4564,
  "dang1 di4 ": 4565,
  "guo2 ji4 ": 4566,
  "dui4 de ": 4567,
  " 1 ": 4568,
  "bo2 wu4 ": 4569,
  "hun1 ": 4570,
  " jian4 li4 ": 4571,
  " fei1 ": 4572,
  " di4 guo2 ": 4573,
  " bu4 yu2 ": 4574,
  "fan3 dui4 ": 4575,
  " A": 4576,
  "qi1 de ": 4577,
  "duan1 ": 4578,
  "zou3 ": 4579,
  "wu4 de ": 4580,
  "xue4 ": 4581,
  "yin1 wei4 ": 4582,
  "qu1 yu4 ": 4583,
  "qu4 shi4 ": 4584,
  "yi1 bu4 fen4 ": 4585,
  "ba2 gao1 ": 4586,
  "wo4 ": 4587,
  "kuan3 ": 4588,
  " chang2 ": 4589,
  "que1 ": 4590,
  "2001 nian2 ": 4591,
  "guan3 xia2 ": 4592,
  "du4 wei4 ": 4593,
  "zheng4 zhi4 ren2 wu4 ": 4594,
  "peng2 ": 4595,
  "ni2 ya4 ": 4596,
  " ka3 ": 4597,
  "hai2 you3 ": 4598,
  "   ren2 kou3 ": 4599,
  " dang1 di4 ": 4600,
  "zui4 zhong1 ": 4601,
  " ta1 shi4 ": 4602,
  "chi4 ": 4603,
  " bu4 dui4 ": 4604,
  "lai2 zi4 ": 4605,
  " dan1 ": 4606,
  " 1": 4607,
  " yue1 ": 4608,
  " xing2 shi4 ": 4609,
  "bi3 sai4": 4610,
  "qian2 wang3 ": 4611,
  " fa1 ": 4612,
  "zhi2 ye4 ": 4613,
  " wei1 ": 4614,
  "ding4 de ": 4615,
  "quan2 guo2 ": 4616,
  "ba1 shi4 ": 4617,
  "yi1 bu4 ": 4618,
  " de yuan2 ": 4619,
  " zheng4 fu3": 4620,
  " chu2 ": 4621,
  "zhong4 yao4 ": 4622,
  "diao4 cha2 ": 4623,
  " lin2 ": 4624,
  " zhi1 jian1 ": 4625,
  "bian1 ma3 wei4 ": 4626,
  " huang2 ": 4627,
  " nian2 jian1 ": 4628,
  " xue2 ming2 ": 4629,
  "xue2 xiao4 ": 4630,
  "zhao1 ": 4631,
  "zhu3 xi2 ": 4632,
  "xuan3 ju3 ": 4633,
  " ri4 zhi4 ": 4634,
  "gai3 wei2 ": 4635,
  "zu3 zhi1": 4636,
  " nei4 ": 4637,
  "zhu3 jiao4 ": 4638,
  "fa2 ": 4639,
  "zi1 liao4 ": 4640,
  " jing4 ": 4641,
  "hai3 jun1 ": 4642,
  "gong1 shi4 ": 4643,
  " jun1 shi4 ": 4644,
  " de da4 ": 4645,
  " ren2 kou3 mi4 du4 ": 4646,
  "s   ": 4647,
  "chu3 li3 ": 4648,
  "kang4 ": 4649,
  "sun1 ": 4650,
  "zai1 ": 4651,
  " de yi4 ": 4652,
  "fang1 fa3 ": 4653,
  "fu4 ze2 ": 4654,
  " duo1": 4655,
  " ri4 ben3": 4656,
  "wu1 ke4 lan2 ": 4657,
  "   yu3 ": 4658,
  "guan4 ": 4659,
  " bo1 ": 4660,
  "shu4 de ": 4661,
  " you3 xian4": 4662,
  "dai4 biao3": 4663,
  " mei2 ": 4664,
  " ge4 ren2 ": 4665,
  " sheng4 ": 4666,
  " san1": 4667,
  "wu2 fa3 ": 4668,
  "ying3 xiang3": 4669,
  " ji4 shu4 ": 4670,
  " shi4 you2 ": 4671,
  " hua4 ": 4672,
  "jie1 rang3": 4673,
  "ju1 min2 ": 4674,
  "zui4 gao1 ": 4675,
  " jie4 ": 4676,
  " kai1 ": 4677,
  " gai3 ": 4678,
  "pa4 ": 4679,
  "qi2 zhong1 ": 4680,
  "lu4 de ": 4681,
  " hong2 ": 4682,
  "xue2 sheng1 ": 4683,
  " zhi1 chi2 ": 4684,
  " ze2": 4685,
  "zi4 you2 ": 4686,
  "wen3 ": 4687,
  "biao1 zhun3 ": 4688,
  "qie4 ": 4689,
  "xie2 hui4 ": 4690,
  "shu4 liang4": 4691,
  "an1 quan2 ": 4692,
  "fan3 ying4 ": 4693,
  "ke3 yi3": 4694,
  "hui4 zai4 ": 4695,
  " 2 ": 4696,
  "yao1 ": 4697,
  "ken3 ": 4698,
  "shen4 zhi4 ": 4699,
  "ye2 ": 4700,
  "bi3 li4 ": 4701,
  "tong3 zhi4 ": 4702,
  "xi4 lie4 ": 4703,
  "chuang4 zuo4 ": 4704,
  "zhu3 ren4 ": 4705,
  " sui2 ": 4706,
  " qi3 ": 4707,
  "   ben3 ": 4708,
  " xin1": 4709,
  "dong1 bu4 ": 4710,
  " de yi2 ge4 shi4 zhen4 ": 4711,
  "lian2 meng2 ": 4712,
  " shi4 yi2 ge4 ": 4713,
  " nan2": 4714,
  " gong1 si1": 4715,
  " S": 4716,
  "gai1 guo2 ": 4717,
  "kai3 ": 4718,
  " fu4 ze2 ": 4719,
  "fan2 ": 4720,
  "ya3 ": 4721,
  " di4 san1 ": 4722,
  " di4 shi2 ": 4723,
  "   xing2 zheng4 ": 4724,
  " su1 ": 4725,
  "ti3 yu4 ": 4726,
  " bu4 guo4 ": 4727,
  "jie2 gou4 ": 4728,
  "niu2 ": 4729,
  " 2": 4730,
  " dao4 de ": 4731,
  "shi2 nian2 ": 4732,
  "qing2 kuang4 ": 4733,
  "neng2 li4 ": 4734,
  "mou3 ": 4735,
  "nan2 zi ": 4736,
  "zhong1 shi4 ": 4737,
  " shui3 ": 4738,
  "qing2 kuang4": 4739,
  "si4 nian2 ": 4740,
  " ming2": 4741,
  " ge1 ": 4742,
  "xi1 bu4 ": 4743,
  "gong1 bu4 ": 4744,
  "hao2 ": 4745,
  "sheng1 huo2 ": 4746,
  "jie1 shou4 ": 4747,
  "of   ": 4748,
  " yang2 ": 4749,
  "nv3 zi3 ": 4750,
  " ao4": 4751,
  "lu4 xian4 ": 4752,
  "suo1 ": 4753,
  "cheng2 li4 ": 4754,
  " zhong1 xue2 ": 4755,
  "   formula ": 4756,
  "huan1 ": 4757,
  "gu1 ": 4758,
  " 14": 4759,
  "mian4 de ": 4760,
  " jin4 ru4 ": 4761,
  "yi4 shi4 ": 4762,
  " er3 si1 ": 4763,
  " zhu3 yao4 ": 4764,
  "bei3 jing1 ": 4765,
  "lian2 sai4 ": 4766,
  " ke3 yi3 ": 4767,
  "the   ": 4768,
  " ba1": 4769,
  "you3 shi2 ": 4770,
  " yi4 hui4 ": 4771,
  "guang3 dong1 ": 4772,
  "duo2 ": 4773,
  " ao4 ": 4774,
  "   jia1 ": 4775,
  "lao2 ": 4776,
  "jian4 zhu4 ": 4777,
  "ya4 zhou1 ": 4778,
  " tai2 ": 4779,
  " ci4 ": 4780,
  "dao3 de ": 4781,
  " guo2 min2 ": 4782,
  "ye3 shi4 ": 4783,
  "na2 da4 ": 4784,
  "dong4 wu4 ": 4785,
  "tai4 ping2 ": 4786,
  " suo3 yi3 ": 4787,
  "di4 wei4 ": 4788,
  "ran3 ": 4789,
  " zhe4 shi4 ": 4790,
  "ba2 gao1 du4 ": 4791,
  "da2 dao4 ": 4792,
  "zi4 ji3 de ": 4793,
  "li3 shi4 ": 4794,
  "zhu2 jian4 ": 4795,
  "gui3 ": 4796,
  "zhuan4 ": 4797,
  " bing4 qie3": 4798,
  "dai4 de ": 4799,
  "ban3 ben3 ": 4800,
  "xu3 duo1": 4801,
  "zhe3 de ": 4802,
  "jiao4 shou4 ": 4803,
  " hai2 ": 4804,
  " er4 ": 4805,
  "2008 nian2 ": 4806,
  "xiang4 mu4 ": 4807,
  " xue2 xiao4 ": 4808,
  " hu2 ": 4809,
  " da4": 4810,
  "wu1 ke4 lan2": 4811,
  "fei1 chang2 ": 4812,
  "2009 nian2 ": 4813,
  " xi1 ya4 ": 4814,
  "qing1 nian2 ": 4815,
  " zong3": 4816,
  " mu3 ": 4817,
  " bing4 qie3 ": 4818,
  " zhu3 yao4": 4819,
  "la1 si1 ": 4820,
  "   gen1 ju4 ": 4821,
  "yi1 shi4 ": 4822,
  " cheng2 wei2": 4823,
  "ri4 ben3": 4824,
  "mo2 shi4 ": 4825,
  "zhe2 ": 4826,
  "niao3 ": 4827,
  "wen2 wu4 ": 4828,
  " ta1 men de ": 4829,
  " yi4 shu4 ": 4830,
  "zhi3 you3 ": 4831,
  "cha1 ": 4832,
  " ji4 lu4 ": 4833,
  "   of   ": 4834,
  " zhou1 de ": 4835,
  " ai4 ": 4836,
  " min2 ": 4837,
  "hang2 kong1 ": 4838,
  " yu2 shi4 ": 4839,
  " bo2 ": 4840,
  "wen2 xue2 ": 4841,
  "fen1 wei2 ": 4842,
  "suan1 ": 4843,
  " qi2 shi4 ": 4844,
  " qi2 yu2 ": 4845,
  "sui4 ": 4846,
  "deng3 ren2 ": 4847,
  "hui3 ": 4848,
  "tong1 guo4": 4849,
  "zhi3 chu1 ": 4850,
  "B ": 4851,
  "cang2 ": 4852,
  " 3": 4853,
  "28 ri4 ": 4854,
  "shuai4 ": 4855,
  " yong4 ": 4856,
  "ren2 kou3 pu3 ": 4857,
  "cuo4 ": 4858,
  "zhi2 xing2 ": 4859,
  "tong2 shi2 ": 4860,
  " jin1": 4861,
  " qiu2 dui4 ": 4862,
  "zha4 ": 4863,
  " li4 ya4": 4864,
  "zhi2 jie1 ": 4865,
  "yan3 chu1 ": 4866,
  "jin3 biao1 ": 4867,
  "gai1 di4 ": 4868,
  "ge2 lan2 ": 4869,
  "2016 nian2 ": 4870,
  "huo2 dong4": 4871,
  "zhe4 yi1 ": 4872,
  "ren4 wei2": 4873,
  "jin4 ru4 ": 4874,
  " zhi1 jian1 de ": 4875,
  " gong1 kai1 ": 4876,
  " dang1 zhong1 ": 4877,
  "hun4 ": 4878,
  "   S": 4879,
  "gong4 tong2 ": 4880,
  "xia4 ji4 ": 4881,
  " dan4 zai4 ": 4882,
  "zhan4 zheng1 ": 4883,
  "wu3 nian2 ": 4884,
  "chou2 ": 4885,
  "jiang1 jun1 ": 4886,
  "le4 bu4 ": 4887,
  "mei2 ti3 ": 4888,
  " wu2": 4889,
  "ti3 de ": 4890,
  "che1 zhan4": 4891,
  "meng4 ": 4892,
  "tui1 chu1 ": 4893,
  "jiao4 yu4": 4894,
  "die2 ": 4895,
  "yun3 ": 4896,
  "zhe4 xie1 ": 4897,
  "po1 ": 4898,
  "ti4 ": 4899,
  " shi4 wu4 ": 4900,
  "miao4 ": 4901,
  "li2 kai1 ": 4902,
  " ling4 wai4 ": 4903,
  "huan2 jing4 ": 4904,
  "zhu2 ": 4905,
  "teng2 ": 4906,
  "wan4 ": 4907,
  "2012 nian2 ": 4908,
  " D": 4909,
  "lin2 pi3": 4910,
  " di4 er4": 4911,
  "shang1 ye4 ": 4912,
  "2011 nian2 ": 4913,
  "chuan2 tong3 ": 4914,
  "   nian2": 4915,
  "15 ri4 ": 4916,
  " yin3 ": 4917,
  "guan1 de ": 4918,
  "kuan1 ": 4919,
  "san1 shi2 ": 4920,
  "jun1 shi4 ": 4921,
  "dan1 qu1 ": 4922,
  "liang4 de ": 4923,
  "jie1 dao4 ": 4924,
  "san4 ": 4925,
  "ji1 de ": 4926,
  "qian2 de ": 4927,
  "ren2 zai4 ": 4928,
  "nei4 rong2 ": 4929,
  "zang4 ": 4930,
  "sai4 ji4 ": 4931,
  "gao1 de ": 4932,
  "dong4 hua4 ": 4933,
  "bo2 shi4 ": 4934,
  "du4 de ": 4935,
  " wei4 ren2 ": 4936,
  "12 ": 4937,
  "yin2 hang2 ": 4938,
  "xuan3 ju3": 4939,
  " wei4 zhi4 ": 4940,
  "cheng2 zhong1 ": 4941,
  "ming4 ming2 ": 4942,
  "sun3 ": 4943,
  " gu4 ": 4944,
  "deng3 di4 ": 4945,
  " gong1 lu4 ": 4946,
  "re4 dai4 ": 4947,
  "bei3 jing1": 4948,
  " zhe4 ge ": 4949,
  "bang3 ": 4950,
  " shi2 ji4 ": 4951,
  "yun4 dong4 hui4 ": 4952,
  "xuan3 ze2 ": 4953,
  " da4 li4 ": 4954,
  " er2 zai4 ": 4955,
  " han4 ": 4956,
  "yuan2 nian2 ": 4957,
  "bao4 gao4 ": 4958,
  " mu4 qian2 ": 4959,
  " de he2 ": 4960,
  "bo1 chu1 ": 4961,
  "zui4 jia1 ": 4962,
  "   ju4 ": 4963,
  "zong1 jiao4 ": 4964,
  "xue2 wei4 ": 4965,
  "tu3 di4 ": 4966,
  " de2 dao4 ": 4967,
  "de   ": 4968,
  "zui4 hou4 ": 4969,
  "wen2 hua4": 4970,
  "tuan2 ti3 ": 4971,
  "25 ri4 ": 4972,
  " ye4 ": 4973,
  " di4 fang1 ": 4974,
  "gui3 dao4 ": 4975,
  "luan4 ": 4976,
  " wei4 di4 ": 4977,
  "jing1 li4 ": 4978,
  "xi4 de ": 4979,
  " zhan4": 4980,
  " zhi1 qian2 ": 4981,
  "sheng3 de yi2 ge4 shi4 zhen4 ": 4982,
  " mo2 ": 4983,
  " shi4 yi1 zhong3 ": 4984,
  " shi4 wei4 yu2 mei3 guo2 ": 4985,
  "A ": 4986,
  "ji2 zhong1 ": 4987,
  " ge4 yue4 ": 4988,
  " xing4 ": 4989,
  " 5 ": 4990,
  " jun1 de ": 4991,
  "si3 wang2 ": 4992,
  "xiang1 guan1 ": 4993,
  " qi4 ": 4994,
  " mi3": 4995,
  " 5": 4996,
  " bao1 kuo4": 4997,
  "30 ri4 ": 4998,
  "fen1 bie2": 4999,
  " ji1 gou4 ": 5000,
  "wei4 de ": 5001,
  "shou3 ci4 ": 5002,
  "ao4 lin2 pi3": 5003,
  "ling3 dao3 ": 5004,
  " you3 guan1 ": 5005,
  " hai3 ba2 gao1 du4 ": 5006,
  " yi1 xie1 ": 5007,
  " tong2 nian2 ": 5008,
  " jue2 ": 5009,
  "2014 nian2 ": 5010,
  "yong4 de ": 5011,
  "huai2 ": 5012,
  "   wei4 ": 5013,
  "mei3 yuan2 ": 5014,
  "20 ri4 ": 5015,
  " xing2 dong4 ": 5016,
  " zhong4 ": 5017,
  "xue3 ": 5018,
  " zai4 yi1 ": 5019,
  " 6": 5020,
  "ji1 yu2 ": 5021,
  " zhong1 hua2 min2 guo2 ": 5022,
  "shui3 yu4 ": 5023,
  "11 ": 5024,
  "bian4 hua4 ": 5025,
  "10 ri4 ": 5026,
  "shang4 wei4 ": 5027,
  " ji2 tuan2": 5028,
  "2018 nian2 ": 5029,
  " ji4 xu4 ": 5030,
  "zhi1 yi1 ": 5031,
  " shi2 dai4 ": 5032,
  "chu3 yu2 ": 5033,
  "UTC ": 5034,
  "gong4 he2 ": 5035,
  " bu4 zhang3 ": 5036,
  "zi4 ji3 ": 5037,
  " wai4 ": 5038,
  "jie2 shu4 ": 5039,
  " bai2 ": 5040,
  "2019 nian2 ": 5041,
  " zi ": 5042,
  " zi4 ji3": 5043,
  "zhi1 chi2 ": 5044,
  " 4": 5045,
  "2005 nian2 ": 5046,
  "guo4 cheng2 ": 5047,
  " hou4 lai2": 5048,
  "min2 zu2 ": 5049,
  "2015 nian2 ": 5050,
  "shun4 ": 5051,
  "kong1 jian1 ": 5052,
  "shui4 ": 5053,
  " T": 5054,
  "bu2 hui4 ": 5055,
  "mei4 ": 5056,
  "ye4 yu2 ": 5057,
  " ru2": 5058,
  " 18": 5059,
  " cheng1 ": 5060,
  "tou4 guo4 ": 5061,
  "nei4 bu4 ": 5062,
  "2013 nian2 ": 5063,
  " si4": 5064,
  "jie3 fang4": 5065,
  " zhi2 dao4 ": 5066,
  " yi4 zhi2 ": 5067,
  " jing3 ": 5068,
  "xin1 wen2 ": 5069,
  "fen1 bu4 ": 5070,
  "gen1 ju4": 5071,
  " zhou1 shi4 ": 5072,
  " ai4": 5073,
  "pi1 ping2 ": 5074,
  " ji2 tuan2 ": 5075,
  "2007 nian2 ": 5076,
  " jiu4": 5077,
  "di4 qu1 ": 5078,
  " shu3 ": 5079,
  "   zhe4 ": 5080,
  " he2 nan2 ": 5081,
  "ta1 men": 5082,
  " shi4 shi2 ": 5083,
  " you3 xian4 gong1 si1 ": 5084,
  "wan2 jia1 ": 5085,
  "gui1 ding4 ": 5086,
  " shen2 ": 5087,
  "ge2 ming4 ": 5088,
  " jia1 ru4 ": 5089,
  "wan2 quan2 ": 5090,
  "cheng2 wei2 ": 5091,
  " tang2 ": 5092,
  "xi1 ban1 ": 5093,
  "zi1 ge2 ": 5094,
  "26 ri4 ": 5095,
  "da4 lu4 ": 5096,
  "ao4 lin2 pi3 ke4 ": 5097,
  "   gai1 ": 5098,
  "2017 nian2 ": 5099,
  " da4 hui4 ": 5100,
  "24 ri4 ": 5101,
  " mo4 ": 5102,
  "zai4 de ": 5103,
  "za2 zhi4 ": 5104,
  " zhe4 zhong3 ": 5105,
  "ying1 yu3 ": 5106,
  "pu2 tao2 ": 5107,
  "   yi1 ": 5108,
  "lu4 di4 ": 5109,
  " ying1 guo2 ": 5110,
  "he2 de ": 5111,
  "shang4 hai3 ": 5112,
  "hao2 mi3 ": 5113,
  " yu3 yan2 ": 5114,
  "qi3 ye4 ": 5115,
  "qi2 ta1": 5116,
  "fang1 de ": 5117,
  " 8": 5118,
  " ke3": 5119,
  "hou4 yi1 ": 5120,
  "luo2 ma3 ": 5121,
  " tou2 ": 5122,
  "wen4 ti2": 5123,
  " 3 ": 5124,
  "san1 ge4 ": 5125,
  " cheng2 qu1 ": 5126,
  "se4 de ": 5127,
  "2006 nian2 ": 5128,
  "chuan2 tong3": 5129,
  " shi4 fa3 guo2 ": 5130,
  "yi1 de ": 5131,
  "18 ri4 ": 5132,
  "wu4 zhong3 ": 5133,
  " yao4 ": 5134,
  " wei4 yu2 gai1 guo2 ": 5135,
  " ha1 ": 5136,
  " li3 si1 ": 5137,
  " tai2 wan1 ": 5138,
  "jing4 nei4 ": 5139,
  " bu4 tong2 de ": 5140,
  " 9": 5141,
  " mo4": 5142,
  "wu4 li3 ": 5143,
  "duo1 de ": 5144,
  "shu4 wei4 ": 5145,
  " dai4 biao3": 5146,
  "biao3 xian4 ": 5147,
  " 7": 5148,
  " shi4 jie4 da4 ": 5149,
  "sheng3 ji2 ": 5150,
  "fa3 lv4 ": 5151,
  "miao2 shu4 ": 5152,
  "gan4 ": 5153,
  "guan1 yuan2 ": 5154,
  "jing1 guo4 ": 5155,
  " lu2 ": 5156,
  "ba4 ": 5157,
  " P": 5158,
  "chang1 ": 5159,
  " yi4 ban1 ": 5160,
  " zui4 hou4 ": 5161,
  "po4 huai4": 5162,
  " M": 5163,
  " a1": 5164,
  " guo2 jia1": 5165,
  "ying2 de2 ": 5166,
  "cai4 ": 5167,
  " sui2 hou4 ": 5168,
  "12 ri4 ": 5169,
  "zheng4 zai4 ": 5170,
  "bao1 han2 ": 5171,
  " shi4 jian4": 5172,
  "bo2 wu4 guan3 ": 5173,
  " gong1 ji1 ": 5174,
  "shen4 ": 5175,
  "ce4 shi4 ": 5176,
  "chang3 de ": 5177,
  "na2 ": 5178,
  " E": 5179,
  "21 ": 5180,
  " wei4 zhong1 ": 5181,
  " li4 yong4 ": 5182,
  "bu4 he2 ": 5183,
  " chao2 ": 5184,
  "ze2 shi4 ": 5185,
  "chun2 ": 5186,
  "nie4 ": 5187,
  "fei1 ji1 ": 5188,
  " fen1 bu4 yu2 ": 5189,
  "zhuan1 ye4 ": 5190,
  "zheng1 yi4 ": 5191,
  "27 ri4 ": 5192,
  "shi3 de ": 5193,
  "16 ri4 ": 5194,
  "fa3 yuan4 ": 5195,
  " 2001 nian2 ": 5196,
  " di4 qu1": 5197,
  "21 ri4 ": 5198,
  "yi4 shi2 ": 5199,
  "yong1 ": 5200,
  "17 ri4 ": 5201,
  "zao1 dao4 ": 5202,
  " shi4 yi4 ": 5203,
  " sheng1 huo2 ": 5204,
  " chong2 ": 5205,
  " bei4 cheng1 wei2 ": 5206,
  "ding4 yi4 ": 5207,
  " zhong1 xin1": 5208,
  " sui1 ran2": 5209,
  " da4 qu1 ": 5210,
  "sou1 ": 5211,
  "zong1 he2 ": 5212,
  " zhan4 zheng1 ": 5213,
  "8 ri4 ": 5214,
  "xue2 de ": 5215,
  " xian4 shi2 ": 5216,
  " zhong1 gong4": 5217,
  "19 ri4 ": 5218,
  "ji2 wei4 ": 5219,
  "23 ri4 ": 5220,
  "2021 nian2 ": 5221,
  " 13": 5222,
  "huang2 di4 ": 5223,
  " de zuo4 ": 5224,
  " zhu1 ": 5225,
  "zhi3 shi4 ": 5226,
  "2022 nian2 ": 5227,
  "11 ri4 ": 5228,
  "a1 la1 ": 5229,
  "ou1 zhou1": 5230,
  "jiang1 qi2 ": 5231,
  " bing4 bu4 ": 5232,
  "yuan2 yu2 ": 5233,
  "fang1 xiang4 ": 5234,
  " ci4": 5235,
  "zhan4 de ": 5236,
  "liu4 nian2 ": 5237,
  "e2 luo2 ": 5238,
  "   yu2 ": 5239,
  "chu1 xian4 ": 5240,
  "lie4 che1": 5241,
  "quan2 li4 ": 5242,
  "nao3 ": 5243,
  "gui1 mo2 ": 5244,
  "22 ri4 ": 5245,
  "29 ri4 ": 5246,
  "7 ri4 ": 5247,
  "lie4 de ": 5248,
  "zui4 da4 de ": 5249,
  "me ": 5250,
  "duo1 shu4 ": 5251,
  "xiang4 de ": 5252,
  "   C": 5253,
  "20 ": 5254,
  "xu1 yao4": 5255,
  "hai2 shi4 ": 5256,
  " long2 ": 5257,
  "yu4 de ": 5258,
  "neng2 gou4 ": 5259,
  "yue1 han4 ": 5260,
  " zhe4 xie1": 5261,
  "   ci3 ": 5262,
  "ding4 wei4 ": 5263,
  "tong3 ji4 ": 5264,
  " xiang1 gang3": 5265,
  "9 ri4 ": 5266,
  "sang1 ": 5267,
  "   zheng4 zhi4 ": 5268,
  " zai4 zhe4 ": 5269,
  "xin4 xi1 ": 5270,
  "yang4 de ": 5271,
  " xian4 zhi4 ": 5272,
  "gong1 de ": 5273,
  " lu4": 5274,
  "ju3 ban4": 5275,
  "lian2 meng2": 5276,
  " fen1 bie2": 5277,
  "qiu2 dui4 ": 5278,
  "hong1 ": 5279,
  " zhang1": 5280,
  "cha2 de ": 5281,
  "14 ri4 ": 5282,
  "ling4 yi1 ": 5283,
  "chang2 shi4 ": 5284,
  "mei3 guo2 ren2 kou3 pu3 ": 5285,
  "   the   ": 5286,
  "niu3 yue1": 5287,
  "5 ri4 ": 5288,
  "zu3 he2 ": 5289,
  " huo4 de2": 5290,
  "lin2 shi2 ": 5291,
  "3 ri4 ": 5292,
  "31 ri4 ": 5293,
  " zhong1 bu4 ": 5294,
  "wei4 shi4 ": 5295,
  "dong3 shi4 ": 5296,
  "ji1 di4 ": 5297,
  " G": 5298,
  "ge1 shou3 ": 5299,
  "dong1 nan2 ": 5300,
  "hai3 ba2": 5301,
  " bao4 ": 5302,
  "   zhong1 ": 5303,
  "bang1 zhu4 ": 5304,
  " de shi4 zhen4 ": 5305,
  " ru4 ": 5306,
  " hua2 ": 5307,
  "6 ri4 ": 5308,
  "pai1 she4 ": 5309,
  " gong4 ": 5310,
  "mou2 ": 5311,
  " F": 5312,
  " liu2": 5313,
  " yi4 da4 li4 ": 5314,
  "2000 nian2 ": 5315,
  " she4 li4 ": 5316,
  "2 ri4 ": 5317,
  " yi4 ban1": 5318,
  " ren2 kou3": 5319,
  "ge4 ren2 ": 5320,
  "she4 you3 ": 5321,
  " de zhong1 ": 5322,
  "bing3 ": 5323,
  "4 ri4 ": 5324,
  "sheng1 ya2 ": 5326,
  "yuan2 he2 ": 5327,
  " 4 ": 5328,
  "2004 nian2 ": 5329,
  " di4 qu1 de ": 5330,
  " xue2 sheng1 ": 5331,
  " dao3 zhi4 ": 5332,
  "tie3 lu4": 5333,
  "zu2 qiu2": 5334,
  "zao3 qi1 ": 5335,
  "feng2 ": 5336,
  " qi2 ta1": 5337,
  "cang1 ": 5338,
  "m ": 5339,
  "13 ri4 ": 5340,
  "xiong1 di4 ": 5341,
  "sheng1 zai4 ": 5342,
  "dong1 bei3 ": 5343,
  "ruan3 ": 5344,
  "mu4 di4 ": 5345,
  "tong1 chang2 ": 5346,
  "hui1 fu4 ": 5347,
  " zhe4 yi1 ": 5349,
  " wo3": 5350,
  " shi4 chang3 ": 5351,
  " xue2 yuan4 ": 5352,
  "shao1 ": 5353,
  "pan2 ": 5354,
  " bian4 ": 5355,
  "shen1 fen4 ": 5356,
  "   you2 yu2 ": 5357,
  "qu3 dai4 ": 5358,
  "   A": 5359,
  "lian2 bang1 ": 5360,
  "ge2 ming4": 5361,
  "zhi3 hui1 ": 5362,
  " mei2 you3 ": 5363,
  "qing2 kuang4 xia4 ": 5364,
  "yi2 bu4 ": 5365,
  "su1 lian2 ": 5366,
  "xie2 yi4 ": 5367,
  "huang2 jia1 ": 5368,
  "ke1 ji4 ": 5369,
  "fa1 xian4": 5370,
  "pang2 ": 5371,
  "zheng3 ge4 ": 5372,
  "zhan1 ": 5373,
  "ren2 he2 ": 5374,
  " gong1 chi3 ": 5375,
  " hei1 ": 5376,
  "yao1 qiu2": 5377,
  "yan1 ": 5378,
  " fu4": 5379,
  "chao1 ji2 ": 5380,
  "mao4 yi4 ": 5381,
  "yue4 de ": 5382,
  "zhang3 de ": 5383,
  "xue2 yuan4": 5384,
  "fan3 ying4": 5385,
  "ju3 ban4 ": 5386,
  "hang2 kong1": 5387,
  "cui1 ": 5388,
  "xi2 ji1 ": 5389,
  " ye3 you3 ": 5390,
  "hua4 he2 ": 5391,
  "xiao3 shuo1 ": 5392,
  " di4 li4 ": 5393,
  " shu1 ": 5394,
  "li4 he2 ": 5395,
  "nv3 xing4 ": 5396,
  " xi1 nan2 ": 5397,
  "tu2 shu1 ": 5398,
  "guan1 fang1 ": 5399,
  "xian1 hou4 ": 5400,
  "bi4 ye4 ": 5401,
  "tong3 yi1 ": 5402,
  "ting3 ": 5403,
  "za2 ": 5404,
  " ha1": 5405,
  "br ": 5406,
  " gu4": 5407,
  " man4 ": 5408,
  "sai4 de ": 5409,
  "hou2 ": 5410,
  "zun1 ": 5411,
  " shuang1 ": 5412,
  " yi3 jing1": 5413,
  " wei1": 5414,
  " que4 ": 5415,
  "a   ": 5416,
  " dong1": 5417,
  " br ": 5418,
  "xie2 zhu4 ": 5419,
  "lan3 ": 5420,
  "a ": 5421,
  "ci4 shi4 jie4 da4 ": 5422,
  " ru2 guo3 ": 5423,
  " B": 5424,
  "shang4 shi4 ": 5425,
  "qu1 hua4 ": 5426,
  " K": 5427,
  "30 ": 5428,
  "fen1 xi1 ": 5429,
  "yu3 de ": 5430,
  " er3 sheng3 ": 5431,
  "ren2 kou3 shu4 liang4": 5432,
  "wen2 wu4 bao3 hu4 ": 5433,
  "The   ": 5434,
  " he2 yi1 ": 5435,
  " bu4 neng2 ": 5436,
  "zi4 xing2 ": 5437,
  " 6 ": 5438,
  " ben3": 5439,
  "jie1 duan4 ": 5440,
  "guang3 bo1 ": 5441,
  " qie3 ": 5442,
  " yi3 lai2 ": 5443,
  " xi1 ban1 ": 5444,
  " zu3 ": 5445,
  " cai2 ": 5446,
  "dan1 ren4": 5447,
  " ta1 ceng2": 5448,
  "chi2 xu4 ": 5449,
  "tai2 bei3": 5450,
  " wu3": 5451,
  "wu2 xian4 ": 5452,
  "gong4 chan3 dang3 ": 5453,
  "guo2 he2 ": 5454,
  " 12": 5455,
  " yi3 xia4 ": 5456,
  "qi1 nian2 ": 5457,
  "te4 de ": 5458,
  "dao3 yan3 ": 5459,
  "reng2 ": 5460,
  "hou4 yu2 ": 5461,
  "yan3 chang4": 5462,
  "zhu4 zai4 ": 5463,
  "fa1 biao3": 5464,
  "xia4 xia2": 5465,
  "tiao2 jian4 ": 5466,
  "pin2 dao4 ": 5467,
  "hu3 ": 5468,
  " gong1 zuo4": 5469,
  "ye4 de ": 5470,
  "jiao1 yi4 ": 5471,
  " L": 5472,
  " qian1 ": 5473,
  " zai4 ci4 ": 5474,
  "lai4 ": 5475,
  "shao4 nian2 ": 5476,
  " jiu3 ": 5477,
  "jie2 shu4": 5478,
  " shi4 zhong1 guo2 ": 5479,
  "bao4 dao4 ": 5480,
  " ren2 kou3 mi4 du4 wei4 ": 5481,
  "qiu2 yuan2 ": 5482,
  " shi4 li4 ": 5483,
  " qie3": 5484,
  "   bu4 ": 5485,
  "zao1 ": 5486,
  "jue2 sai4 ": 5487,
  " zhe4 ge": 5488,
  "ying4 yong4 ": 5489,
  "wai4 de ": 5490,
  "you2 zheng4 ": 5491,
  "jian4 li4 ": 5492,
  " ya4 ": 5493,
  "zi1 yuan2 ": 5494,
  "sai1 er3 ": 5495,
  " qi2 hou4 ": 5496,
  " xi1": 5497,
  "zui4 da4 ": 5498,
  " bing4 wei4 ": 5499,
  "hui2 dao4 ": 5500,
  "cao1 ": 5501,
  "su4 du4 ": 5502,
  "qi4 hou4 ": 5503,
  "ke3 da2 ": 5504,
  " luo4 ": 5505,
  " wei4 yu2 fa3 guo2 ": 5506,
  " zhao4 ": 5507,
  "gai3 ge2 ": 5508,
  "mi4 shu1 ": 5509,
  " yi1 yuan4 ": 5510,
  "dian4 shi4 ju4 ": 5511,
  "zhuang4 tai4 ": 5512,
  "zhu4 de ": 5513,
  "fen4 wei4 ": 5514,
  " 10": 5515,
  " gong1 ye4 ": 5516,
  "wang3 zhan4 ": 5517,
  " jie3 ": 5518,
  "gong1 si1 ": 5519,
  " lan2 ": 5520,
  "jie2 guo3 ": 5521,
  "suo3 shu3 de ": 5522,
  " de di4 yi1 ": 5523,
  "hu2 nan2 ": 5524,
  " yi1 si1 ": 5525,
  " mai4": 5526,
  "ya4 li4 ": 5527,
  " wei4 yi1 ": 5528,
  "shang4 hai3": 5529,
  "20 shi4 ji4 ": 5530,
  " zuo4 pin3 ": 5531,
  "zuo3 you4 ": 5532,
  "xiao3 xue2 ": 5533,
  " R": 5534,
  "jie2 he2 ": 5535,
  "sheng4 li4 ": 5536,
  " zhong1 gong4 ": 5537,
  "shou3 ci4": 5538,
  " jia4 ": 5539,
  " hao4 xian4 ": 5540,
  "zhen4 qu1 ": 5541,
  " de fu4 ": 5542,
  "wen2 ming2 ": 5543,
  " jian3 cheng1 ": 5544,
  "kai1 fa1": 5545,
  " H": 5546,
  " suo3 you3 ": 5547,
  "yi2 zhi4 ": 5548,
  "jiao4 hui4 ": 5549,
  "sheng3 fen4 ": 5550,
  "zhan3 kai1 ": 5551,
  "yin4 du4": 5552,
  "shi2 qi1 ": 5553,
  " fa3 guo2 ": 5554,
  "ling3 dao3": 5555,
  "mu4 biao1 ": 5556,
  " er2 shi4 ": 5557,
  "gao1 ji2 ": 5558,
  "zhun3 bei4 ": 5559,
  "wang3 luo4 ": 5560,
  " fei1": 5561,
  " jian4 she4 ": 5562,
  "xun4 lian4 ": 5563,
  "ke1 de ": 5564,
  " ren2 wu4 ": 5565,
  "fa1 biao3 ": 5566,
  "xuan3 shou3 ": 5567,
  "jiao1 tong1": 5568,
  "hao3 de ": 5569,
  "   B": 5570,
  "zi4 ran2 ": 5571,
  "zhong4 yao4 de ": 5572,
  "dong1 jing1 ": 5573,
  "chan3 pin3 ": 5574,
  "gong4 you3 ren2 kou3 ": 5575,
  " jia3 ": 5576,
  " xian4 dai4 ": 5577,
  " yi1 ming2 ": 5578,
  " xi1 bei3 ": 5579,
  "juan3 ": 5580,
  "feng1 ge2 ": 5581,
  " cheng2 ji4 ": 5582,
  "lei3 ": 5583,
  "zou4 ": 5584,
  " he2 di4 ": 5585,
  "xiao3 xing2 xing1 ": 5586,
  "yan2 zhong4 ": 5587,
  "zi de ": 5588,
  "mu4 qian2 ": 5589,
  "liu2 xing2 ": 5590,
  "wen2 wu4 bao3 hu4 dan1 wei4 ": 5591,
  "mie4 ": 5592,
  " ji1 chang3 ": 5593,
  "bian4 cheng2 ": 5594,
  "qiao2 zhi4 ": 5595,
  " guang1 ": 5596,
  " dan1 ren4 ": 5597,
  "lei4 si4": 5598,
  "dian4 shi4 tai2 ": 5599,
  "   P": 5600,
  "jie3 shi4 ": 5601,
  "guo2 min2 ": 5602,
  " yi4 qi3 ": 5603,
  " mai4 ": 5604,
  " yong3 ": 5605,
  "kai1 fang4 ": 5606,
  " shen4 zhi4 ": 5607,
  " xia4 ling4": 5608,
  " yi2 ge4 ": 5609,
  "ka3 er3 ": 5610,
  "2003 nian2 ": 5611,
  "xing2 shi4 ": 5612,
  "dou1 you3 ": 5613,
  "2002 nian2 ": 5614,
  " chu2 le ": 5615,
  "zhi1 hou4 ": 5616,
  "hui4 he2 ": 5617,
  "mei3 ping2 fang1 gong1 li3 ": 5618,
  "ru4 le ": 5619,
  " yi1 yang4 ": 5620,
  " gong1 fen1 ": 5621,
  " she4 zhi4 ": 5622,
  "te4 zheng1 ": 5623,
  "can1 sai4 ": 5624,
  " si1 ji1 ": 5625,
  " wu1 ": 5626,
  " deng3": 5627,
  "ru2 xia4 ": 5628,
  "zhen1 dui4 ": 5629,
  "jiu4 shi4 zhen4 ": 5630,
  " shi4 fou3": 5631,
  " shi2 jian1": 5632,
  "gao1 zhong1 ": 5633,
  " ci3 hou4 ": 5634,
  " zai4 zhong1 ": 5635,
  "bi4 xu1 ": 5636,
  "wang2 guo2 ": 5637,
  "bi3 jiao4 ": 5638,
  " 00": 5639,
  "er4 shi4 ": 5640,
  "diao1 ": 5641,
  "wai4 jiao1": 5642,
  "gui1 hua4 ": 5643,
  " che1 ": 5644,
  "bang4 ": 5645,
  " yi4 zhi4 ": 5646,
  "lei4 si4 ": 5647,
  " yu3": 5648,
  " biao3 shi4 ": 5649,
  "zhe4 ge ": 5650,
  "shan1 dong1 ": 5651,
  " ran2 hou4 ": 5652,
  " sui1 ran2 ": 5653,
  " yi4 zhi2": 5654,
  " li4 shu3 yu2 ": 5655,
  "yuan2 shi4 ": 5656,
  "dui4 zai4 ": 5657,
  "zhu4 ming2 ": 5658,
  "yun2 nan2 ": 5659,
  "hen3 duo1 ": 5660,
  " er3 de ": 5661,
  "huo4 de2": 5662,
  " shang1 ": 5663,
  "sheng1 chan3 ": 5664,
  "   gong1 ": 5665,
  "zhan4 yi4 ": 5666,
  " bei3": 5667,
  "zhong4 de ": 5668,
  "dian4 zi ": 5669,
  "   da4 ": 5670,
  " jian4 zhi4 ": 5671,
  "xin1 jia1 ": 5672,
  " tu2 ": 5673,
  "lai2 zi4": 5674,
  "zhi4 zuo4 ": 5675,
  "shan1 xi1 ": 5676,
  "ren2 kou3 shu4 liang4 wei4 ren2 ": 5677,
  " gu3": 5678,
  "ju4 ji2 ": 5679,
  " de yi1 zhong3 ": 5680,
  " de ming2 ": 5681,
  "   F": 5682,
  "ji2 he2 ": 5683,
  "U ": 5684,
  " xi1 ya4": 5685,
  "lv3 you2 ": 5686,
  "tao4 ": 5687,
  " zhi4 zao4 ": 5688,
  " xing2 wei2 ": 5689,
  "ma3 lai2": 5690,
  " ren4": 5691,
  "bao4 fa1 ": 5692,
  "nv3 er2 ": 5693,
  " INSEE": 5694,
  " O": 5695,
  "   T": 5696,
  "zong3 li3 ": 5697,
  " zu3": 5698,
  "quan2 qiu2 ": 5699,
  "si1 he2 ": 5700,
  " de zhu3 ": 5701,
  " dui4 yu2 ": 5702,
  "sai4 zhong1 ": 5703,
  " shang4 hai3 ": 5704,
  "fa1 she4 ": 5705,
  "rui4 shi4 ": 5706,
  "bao1 han2": 5707,
  "nong2 ye4 ": 5708,
  " I": 5709,
  "   M": 5710,
  "ye4 wu4 ": 5711,
  "lu4 jun1 ": 5712,
  "tou2 zi1 ": 5713,
  "wu4 zhi4 ": 5714,
  "jue2 de ": 5715,
  "t ": 5716,
  "nai4 ": 5717,
  "te4 bie2 ": 5718,
  " jin4 shi4 ": 5719,
  " de shi2 hou4 ": 5720,
  "   G": 5721,
  "ao4 lin2 pi3 ke4 yun4 dong4 hui4 ": 5722,
  " N": 5723,
  "ge2 de ": 5724,
  " zhi4 jin1 ": 5725,
  "fang1 an4 ": 5726,
  "si1 ren2 ": 5727,
  "hua4 xue2 ": 5728,
  " te4 bie2": 5729,
  "cha4 ": 5730,
  " da4 liang4 ": 5731,
  "ji2 shi4 ": 5732,
  "min3 ": 5733,
  " ni2 ": 5734,
  "ke3 neng2 shi4 ": 5735,
  " nian2 du4 ": 5736,
  "jin4 de ": 5737,
  " zhi1 wai4 ": 5738,
  "si4 shi2 ": 5739,
  "qian3 ": 5740,
  "cao2 ": 5741,
  "fa1 dong4 ": 5742,
  "lian2 jie1 ": 5743,
  " geng4 ": 5744,
  "xuan3 wei4 ": 5745,
  " she4 shi1 ": 5746,
  " zheng4 shi4 ": 5747,
  " wan4 ren2 ": 5748,
  "chu4 de ": 5749,
  "tu3 er3": 5750,
  " li4 si1 ": 5751,
  "bo2 te4 ": 5752,
  " zong3 mian4 ji1 ": 5753,
  "luo2 ma3": 5754,
  "chuang4 li4 ": 5755,
  " de li4 ": 5756,
  " nian2 hou4 ": 5757,
  " de2 li3 ": 5758,
  "guang3 chang3 ": 5759,
  "lian2 he2 guo2 ": 5760,
  "ji2 shi2 ": 5761,
  "geng1 ming2 wei4 ": 5762,
  "zao3 nian2 ": 5763,
  "xiao4 li4 ": 5764,
  "qi4 de ": 5765,
  "biao3 yan3 ": 5766,
  "0 ": 5767,
  "yi2 shi4 ": 5768,
  "reng2 ran2 ": 5769,
  " jun1 zai4 ": 5770,
  "fang1 mian4": 5771,
  "jue2 ding4": 5772,
  " zhen1 ": 5773,
  " gai1 sheng3 ": 5774,
  "da1 ": 5775,
  "zhi4 shi4 ": 5776,
  " gong1 neng2 ": 5777,
  "zong3 tong3": 5778,
  " ren2 kou3 mi4 du4 mei3 ping2 fang1 gong1 li3 ": 5779,
  " ren2 kou3 mi4 du4 wei4 mei3": 5780,
  " xia4 ling4 shi2 ": 5781,
  " xian1 ": 5782,
  "you2 zheng4 bian1 ma3 wei4 ": 5783,
  "cha2 de shu4 ju4 ": 5784,
  "   bei4 ": 5785,
  " ju4 le4 bu4 ": 5786,
  " fen1 zhong1 ": 5787,
  " shi4 zhen4 bian1 ma3 wei4 ": 5788,
  " INSEE shi4 zhen4 bian1 ma3 wei4 ": 5789,
  " xiang4": 5790,
  " han2 ": 5791,
  "biao1 zhun3": 5792,
  " she4 de ": 5793,
  "xuan3 qu1 wei4 ": 5794,
  " zai4 ci3 ": 5795,
  " bu4 guo4": 5796,
  "pai2 ming2 ": 5797,
  " guo2 wang2 ": 5798,
  " xiao1 ": 5799,
  "dong4 li4 ": 5800,
  "shi2 de ren2 kou3 shu4 liang4 wei4 ren2 ": 5801,
  "2023 nian2 ": 5802,
  "jie1 rang3 de shi4 zhen4 ": 5803,
  "mei3 guo2 ren2 kou3 pu3 cha2 de shu4 ju4 ": 5804,
  "jia1 li4 ": 5805,
  "cong2 shi4 ": 5806,
  " er2 ren2 kou3 mi4 du4 wei4 mei3": 5807,
  "ge2 lan2": 5808,
  " dang1 di4 gong4 you3 ren2 kou3 ": 5809,
  "fen1 lei4 ": 5810,
  "jie3 jue2 ": 5811,
  "n ": 5812,
  "zu2 de ": 5813,
  " qing1": 5814,
  "da4 bu4 fen4": 5815,
  "yi1 zhong3 ": 5816,
  "shi3 yong4 de ": 5817,
  "ling3 yu4 ": 5818,
  " huo4 jiu4 shi4 zhen4 ": 5819,
  "   li4 ": 5820,
  "he2 shi4 ": 5821,
  " chu1 ban3 ": 5822,
  " jiang3 ": 5823,
  "gou1 ": 5824,
  "yun4 ying2 ": 5825,
  "sheng3 ji2 xuan3 qu1 wei4 ": 5826,
  "ji1 ji2 ": 5827,
  " de yi1 bu4 fen4 ": 5828,
  "shi2 shi4 ": 5829,
  "an   ": 5830,
  "er2 zi ": 5831,
  "jiu3 nian2 ": 5832,
  "zuo4 pin3": 5833,
  "xuan3 ren2 ": 5834,
  "gai4 nian4 ": 5835,
  " kai1 shi3 ": 5836,
  "xing1 de ": 5837,
  " er3 de2 ": 5838,
  "sheng3 he2 ": 5839,
  " jin3 guan3 ": 5840,
  "jie1 shou4": 5841,
  "tiao2 yue1 ": 5842,
  "fen4 wei4 fa3 guo2 ": 5843,
  " gai1 sheng3 fen4 wei4 fa3 guo2 ": 5844,
  " chu1 ban3": 5845,
  " zhi1 xian4 ": 5846,
  "tie3 dao4 ": 5847,
  " di4 san1": 5848,
  "lian2 bang1": 5849,
  " song4 ": 5850,
  " nian2 chu1 ": 5851,
  " er2 qie3 ": 5852,
  " jun1 dui4 ": 5853,
  "guang3 zhou1 ": 5854,
  " bu4 jiu3 ": 5855,
  "al   ": 5856,
  "ao4 da4 li4 ": 5857,
  " wei4 shi2 ": 5858,
  " xi1 la4": 5859,
  "fu2 jian4 ": 5860,
  " ying1 chi3 ": 5861,
  " dui4": 5862,
  " he2 bing4": 5863,
  "zhan4 zheng1": 5864,
  " you3 ren2 ": 5865,
  "pai2 ming2": 5866,
  "zhan4 shi4 ": 5867,
  "jin3 biao1 sai4 ": 5868,
  "zui4 hou4 yi1 ": 5869,
  "qun2 dao3 ": 5870,
  "lai2 yuan2 ": 5871,
  "te4 bie2": 5872,
  " ta1 bei4 ": 5873,
  "jing3 cha2 ": 5874,
  "xing1 jian4 ": 5875,
  " chu1 sheng1 yu2 ": 5876,
  " ruo4 ": 5877,
  "ba1 nian2 ": 5878,
  "she4 li4 ": 5879,
  "reng2 ran2": 5880,
  " geng4": 5881,
  "di4 yi1 ": 5882,
  " ri4 de ": 5883,
  " yi4 wei4 ": 5884,
  "lun2 dun1": 5885,
  "ben3 de ": 5886,
  "wei3 hui4 ": 5887,
  " you2 xi4": 5888,
  " ren2 gong1 ": 5890,
  "xue2 xiao4": 5891,
  "shan3 xi1 ": 5892,
  " zhi4 yu2 ": 5893,
  "lie4 wei4 ": 5894,
  " bu4 ming2 ": 5895,
  "tong1 chang2": 5896,
  "mu3 si1 ": 5897,
  " ming2 chao2 ": 5898,
  "yun4 xing2 ": 5899,
  "ceng2 zai4 ": 5900,
  " jiao1 ": 5901,
  "mei3 zhou1 ": 5902,
  "tian1 wen2 ": 5903,
  "cai3 yong4": 5904,
  " di4 si4 ": 5905,
  " fan4 ": 5906,
  " J": 5907,
  "yan2 jiu1 suo3 ": 5908,
  "guang3 fan4 ": 5909,
  "ao4 si1 ": 5910,
  "ang2 ": 5911,
  " xian4 lu4 ": 5912,
  "meng2 gu3 ": 5913,
  "gan3 ran3 ": 5914,
  "rou4 ": 5915,
  " shi4 bu4 ": 5916,
  "yi3 ji2 ": 5917,
  " he2 ping2 ": 5918,
  "   ta1": 5919,
  "hua4 shi2 ": 5920,
  "jia1 ru4 ": 5921,
  "zhan4 hou4 ": 5922,
  " shi3 yong4 ": 5923,
  "nan2 ji2 ": 5924,
  "shuo1 fa3 ": 5925,
  " rang4": 5926,
  "xi1 zai4 ": 5927,
  " jin4 de ": 5928,
  " ren4 wei2": 5929,
  " ji1 ben3 ": 5930,
  " fei4 ": 5931,
  " ju4 li2 ": 5932,
  " di2 ": 5933,
  "mo2 xing2 ": 5934,
  " can1 ": 5935,
  "guo4 cheng2 zhong1 ": 5936,
  " de di4 fang1 ": 5937,
  " de xin1 ": 5938,
  "ji4 shu4 ": 5939,
  " da2 ": 5940,
  " jian4 yi4 ": 5941,
  " ta1 yu3 ": 5942,
  "yun4 shu1 ": 5943,
  "gou4 mai3": 5944,
  " shou4": 5945,
  "wan2 quan2": 5946,
  "wu3 shi2 ": 5947,
  " ke4 de ": 5948,
  "ren4 wei2 shi4 ": 5949,
  " chen2": 5950,
  " zai4 yi4 ": 5951,
  " ge4 di4 ": 5952,
  "duo1 ge4 ": 5953,
  "ban4 gong1 shi4 ": 5954,
  " 10 yue4 ": 5955,
  "tong2 yi1 ": 5956,
  "wai4 guo2 ": 5957,
  " zong3 ren2 kou3 ": 5958,
  "xue2 shi4 ": 5959,
  "shang4 you3 ": 5960,
  "yuan2 wei4 ": 5961,
  "zhao3 ": 5962,
  "jia4 zhi2 ": 5963,
  "gong1 zuo4 ": 5964,
  " zi4 ji3 ": 5965,
  "ni2 si1 ": 5966,
  " zai4 zhong1 guo2 ": 5967,
  " ai1": 5968,
  "quan1 ": 5969,
  " xing1 ": 5970,
  "   H": 5971,
  "xue2 xi2 ": 5972,
  "yang3 hua4 ": 5973,
  "fei1 xing2 ": 5974,
  " jie4": 5975,
  "xuan1 chuan2 ": 5976,
  "mo4 xi1 ": 5977,
  " yi1 xie1": 5978,
  "xuan3 ze2": 5979,
  "cheng1 wei4 ": 5980,
  "xiao1 xi1 ": 5981,
  " xian4 ren2 ": 5982,
  " de guan1 ": 5983,
  " chang3 ": 5984,
  "hai3 jun1": 5985,
  "biao1 zhi4 ": 5986,
  " bu4 men2 ": 5987,
  "zhi4 wei4 ": 5988,
  "qi3 lai2 ": 5989,
  " ke1": 5990,
  "you2 xi4": 5991,
  "huan2 jing4": 5992,
  "ma2 ": 5993,
  "fu4 ze2 guan3 xia2 ": 5994,
  " wei2 zhu3 ": 5995,
  "   yi3 ": 5996,
  "gou4 cheng2 ": 5997,
  "shi1 de ": 5998,
  "and   ": 5999,
  "che1 liang4 ": 6000,
  "zhe2 xue2 ": 6001,
  " an4 ": 6002,
  "xi4 bao1 ": 6003,
  " da3 ": 6004,
  "keng1 ": 6005,
  " ji4 hua4": 6006,
  "si1 zai4 ": 6007,
  " lin2": 6008,
  "zheng4 de ": 6009,
  "dang3 de ": 6010,
  "an1 quan2": 6011,
  "bi3 de2 ": 6012,
  " dao4 lu4 ": 6013,
  "jie4 quan2 guo2 ": 6014,
  "chao2 xian1 ": 6015,
  "yin2 hang2": 6016,
  " hua1 ": 6017,
  "   K": 6018,
  " dou1 ": 6019,
  "xi1 de ": 6020,
  " er4": 6021,
  " shi4 mei3 guo2 ": 6022,
  " shi4 tu2 ": 6023,
  "zhong1 zai4 ": 6024,
  " ji4 nian4 ": 6025,
  "zhu3 jue2 ": 6026,
  "an4 de ": 6027,
  "si4 chuan1 ": 6028,
  "bu4 wei4 ": 6029,
  " ji2 qi2 ": 6030,
  "   D": 6031,
  "peng2 you3 ": 6032,
  "1999 nian2 ": 6033,
  "chi2 xu4": 6034,
  " fan3 ": 6035,
  "ai4 er3 ": 6036,
  "   you3 ": 6037,
  "   he2 ": 6038,
  " gong1 gong4 ": 6039,
  " zhi1 chi2": 6040,
  "kang4 yi4 ": 6041,
  "yue1 wei4 ": 6042,
  "tai4 guo2 ": 6043,
  " er2 qie3": 6044,
  "jie1 wei4 ": 6045,
  "xuan3 qu1 ": 6046,
  " tai2 wan1": 6047,
  "shi2 zai4 ": 6048,
  "yi4 he2 ": 6049,
  "hui4 you3 ": 6050,
  "sheng1 wu4 ": 6051,
  "xiao4 zhang3 ": 6052,
  "wen2 jian4 ": 6053,
  " bei4 er3 ": 6054,
  "ge1 qu3": 6055,
  "shou1 ru4 ": 6056,
  " jie2 zhi4 ": 6057,
  "biao1 wei4 ": 6058,
  "fo2 jiao4 ": 6059,
  "rong2 yi4 ": 6060,
  "ao4 yun4": 6061,
  "   in": 6062,
  "   shi2 ": 6063,
  "   che1 zhan4 ": 6064,
  " sheng1 wu4 ": 6065,
  "suo3 shu3 de sheng3 ji2 xuan3 qu1 wei4 ": 6066,
  " qiang2 ": 6067,
  "yan3 de ": 6068,
  "bian1 ji2 ": 6069,
  "qian4 ": 6070,
  " zhan4 zheng1": 6071,
  "si1 di4 ": 6072,
  "ye3 you3 ": 6073,
  "zheng4 ce4 ": 6074,
  "qian2 wang3": 6075,
  "ji4 zhong1 ": 6076,
  "mi3 er3 ": 6077,
  "yu3 yan2 ": 6078,
  " ruo4": 6079,
  "jun1 dui4 ": 6080,
  "jie3 fang4 jun1 ": 6081,
  "ao4 yun4 ": 6082,
  " you4 cheng1 ": 6083,
  "tiao3 zhan4 ": 6084,
  " yuan2 zhu4 ": 6085,
  " chu1 le ": 6086,
  "   R": 6087,
  " zhi4 du4 ": 6088,
  " yu4": 6089,
  " yan3 ": 6090,
  "gao1 yu2 ": 6091,
  "24 ": 6092,
  "wu2 ren2 ": 6093,
  " shi4 yi2 ge4": 6094,
  " ti2 ": 6095,
  " huo4 shi4 ": 6096,
  "gan3 dao4 ": 6097,
  "nan2 xing4 ": 6098,
  " yi3 shang4 ": 6099,
  "man4 hua4 ": 6100,
  "i ": 6101,
  "gai3 bian4 ": 6102,
  "   2021": 6103,
  " tong1 guo4 ": 6104,
  "ma3 li4 ": 6105,
  " di4 xia4 ": 6106,
  " que4": 6107,
  "fo2 ": 6108,
  "jie1 rang3 ": 6109,
  "pei4 he2 ": 6110,
  " zi4": 6111,
  "kun1 ": 6112,
  "tou2 ru4 ": 6113,
  "jia1 ren2 ": 6114,
  "wen3 ding4 ": 6115,
  "1998 nian2 ": 6116,
  "zhi3 hui1": 6117,
  " zhong1 you3 ": 6118,
  " zai4 bu4 ": 6119,
  "ti2 ming2 ": 6120,
  "da2 cheng2 ": 6121,
  " yi1 zhong3 ": 6122,
  "ru3 ": 6123,
  "mo4 si1 ": 6124,
  "ne4 ": 6125,
  "fen1 zhi1 ": 6126,
  "zha1 ": 6127,
  "zai4 shi4 ": 6128,
  "tong2 de ": 6129,
  "jian3 jie4 ": 6130,
  " hu4 ": 6131,
  "shen1 fen4": 6132,
  "tian1 zhu3 jiao4 ": 6133,
  " zhong1 guo2 ren2 min2 ": 6134,
  "biao3 ming2 ": 6135,
  "duo2 de ": 6136,
  "ting2 zhi3 ": 6137,
  " hai2 you3 ": 6138,
  " er2 ren2 kou3 mi4 du4 wei4 mei3 ping2 fang1 qian1 mi3 ": 6139,
  " ping2": 6140,
  "xiao3 de ": 6141,
  "zheng4 shi2 ": 6142,
  "ce4 de ": 6143,
  "zao4 de ": 6144,
  " wei4 fu2": 6145,
  "juan1 ": 6146,
  " li2 ": 6147,
  " zhuan1 ": 6148,
  "que4 zhen3": 6149,
  "2024 nian2 ": 6150,
  "   2020": 6151,
  " ji1 bai4 ": 6152,
  "ban4 dao3 ": 6153,
  " pi2 ": 6154,
  "   yuan2 ": 6155,
  "guo2 zai4 ": 6156,
  "wu3 qi4 ": 6157,
  "ta1 men ": 6158,
  " bo1": 6159,
  "   L": 6160,
  " jia1 na2 da4 ": 6161,
  " ping2 fang1 mi3 ": 6162,
  "zi4 zhi4 qu1 ": 6163,
  " 8 yue4 ": 6164,
  "la1 ke4 ": 6165,
  "lei4 de ": 6166,
  "   zi4 ": 6167,
  "19 ": 6168,
  "hun4 he2 ": 6169,
  " zi4 you2 ": 6170,
  " zai4 mei3 guo2 ": 6171,
  " shi2 yan4": 6172,
  "zui4 zao3": 6173,
  "ju3 ren2 ": 6174,
  " bian1 ": 6175,
  "tuan2 dui4 ": 6176,
  "di4 shi4 ": 6177,
  "ke3 neng2 hui4 ": 6178,
  "ya1 li4 ": 6179,
  "y ": 6180,
  "quan2 bu4 ": 6181,
  " su1": 6182,
  "ji4 wei4 ": 6183,
  " er2 bei4 ": 6184,
  " ji4 cheng2 ": 6185,
  "gong4 xian4 ": 6186,
  "ji4 hua4 ": 6187,
  "xi1 ban1 ya2 ": 6188,
  " shi2 shi1 ": 6189,
  "jie2 mu4": 6190,
  " jie2 guo3 ": 6191,
  "X ": 6192,
  " di4 tie3 ": 6193,
  "sheng1 chan3": 6194,
  "lai2 shuo1 ": 6195,
  "li4 bu4 ": 6196,
  "zhe4 zhong3 ": 6197,
  "chan3 ye4 ": 6198,
  " wang2": 6199,
  " bei4": 6200,
  "xing2 dong4 ": 6201,
  "fan1 yi4 ": 6202,
  " hai2": 6203,
  " qi1 jian1 ": 6204,
  " chu1 ren4 ": 6205,
  " chuan2 ": 6206,
  "shao3 shu4 ": 6207,
  "cao1 zuo4 ": 6208,
  "jian3 cha2 ": 6209,
  "ban4 shi4 ": 6210,
  "jia1 na2 da4 ": 6211,
  "ying3 pian4 ": 6212,
  "chong1 tu1 ": 6213,
  " zai4 da4 ": 6214,
  " ta1 yu2 ": 6215,
  "ji4 nian4 ": 6216,
  "bao3 hu4": 6217,
  " men2 ": 6218,
  "an4 jian4 ": 6219,
  "chong2 jian4 ": 6220,
  "amp ": 6221,
  "shou3 de ": 6222,
  " mu4": 6223,
  " jian4 zhu4": 6224,
  " shi2 fen1 ": 6225,
  " an1": 6226,
  " shi4 yi3 ": 6227,
  "xing2 wei2 ": 6228,
  "xin1 li3 ": 6229,
  "ceng2 jing1 ": 6230,
  "gong4 tong2": 6231,
  " shi3 de ": 6232,
  "dong4 de ": 6233,
  "kong1 jun1 ": 6234,
  " zhi3 you3 ": 6235,
  "ban4 gong1 ": 6236,
  " xian4 wei4 ": 6237,
  "zhe4 ge": 6238,
  "qi1 jian1": 6239,
  "da4 bu4 fen4 ": 6240,
  " zhi4 zuo4": 6241,
  "jie2 gou4": 6242,
  "nan4 ": 6243,
  " yi4 you3 ": 6244,
  " li4 ru2": 6245,
  "lian2 sai4": 6246,
  "lian2 xu4 ": 6247,
  "jue2 se4": 6248,
  "ji2 zai4 ": 6249,
  "shen1 de ": 6250,
  "yang1 ": 6251,
  " he2 bei3 ": 6252,
  " wei4 neng2 ": 6253,
  "mei2 ti3": 6254,
  "zhu3 ti2 ": 6255,
  "xiang1 dui4 ": 6256,
  "fen1 bie2 ": 6257,
  "jian3 shao3 ": 6258,
  " he2 liu2 ": 6259,
  "gong1 yuan2 ": 6260,
  "tou4 ": 6261,
  "tong4 ": 6262,
  " you4 ming2 ": 6263,
  " yi3 se4 ": 6264,
  "fen4 zi3 ": 6265,
  "xian4 dai4 ": 6266,
  " shi4 yi1 ming2 ": 6267,
  "xiao3 zu3 ": 6268,
  " ti3 zhang3 ": 6269,
  "   2019": 6270,
  " xi1 wang4 ": 6271,
  "ying4 de ": 6272,
  "wei3 yuan2 hui4": 6273,
  "d ": 6274,
  "ming4 ming2 wei4 ": 6275,
  "ou1 yuan2 ": 6276,
  " gong1 si1 de ": 6277,
  " liang3 ren2 ": 6278,
  "yi4 zai4 ": 6279,
  "dong4 ji1 ": 6280,
  "da3 ji1 ": 6281,
  " de di4 qu1 ": 6282,
  "zhan3 shi4 ": 6283,
  "zhuo2 ": 6284,
  " zhi2 zhi4 ": 6285,
  " she4 qu1 ": 6286,
  " ji4 xu4": 6287,
  "gui1 mo2": 6288,
  "shou3 wei4 ": 6289,
  "xun2 hui2 ": 6290,
  " si1 ling4": 6291,
  "shu4 liang4 ": 6292,
  "xia4 wu3 ": 6293,
  "1996 nian2 ": 6294,
  "lu4 di4 mian4 ji1 wei4 ": 6295,
  "yong4 lai2 ": 6296,
  "shui3 yu4 mian4 ji1 wei4 ": 6297,
  " li4 ji2 ": 6298,
  "qi3 yong4 ": 6299,
  " zhen4 ": 6300,
  "lei4 xing2 ": 6301,
  "ren4 wu4 ": 6302,
  " guo2 li4 ": 6303,
  " shi2 zi4 ": 6304,
  " yi1 ci4 ": 6305,
  "duo1 ci4 ": 6306,
  "ping2 jia4 ": 6307,
  "bu4 shi4 ": 6308,
  " ling2 ": 6309,
  " lie4 ": 6310,
  " 2009 nian2 ": 6311,
  "   2018": 6312,
  " de shou3 ": 6313,
  " fu4 jin4 ": 6314,
  "ju3 xing2 de ": 6315,
  "fu2 he2 ": 6316,
  "ti3 xi4 ": 6317,
  " wang3 ": 6318,
  "wai4 jiao1 ": 6319,
  " zhe4 jiang1 ": 6320,
  "e ": 6321,
  "   E": 6322,
  "1997 nian2 ": 6323,
  " da4 shi3 ": 6324,
  " bian4": 6325,
  "zuo4 jia1 ": 6326,
  " she4 bei4 ": 6327,
  "liang3 ge4": 6328,
  "mei3 nian2 ": 6329,
  " li4 fa3 ": 6330,
  " xiao4 ": 6331,
  "zhu4 yi4 ": 6332,
  " amp ": 6333,
  "dian4 li4 ": 6334,
  "de2 dao4 ": 6335,
  " si1 ling4 ": 6336,
  " cong2 er2 ": 6337,
  "fa3 lv4": 6338,
  "kui2 ": 6339,
  "jiao4 tang2 ": 6340,
  " dang1 zhong1 lu4 di4 mian4 ji1 wei4 ": 6341,
  " guang3 ": 6342,
  "zhi4 he2 ": 6343,
  " er2 shui3 yu4 mian4 ji1 wei4 ": 6344,
  "qu3 xiao1 ": 6345,
  "jie2 zhi4 ": 6346,
  "sheng1 huo2": 6347,
  "fu2 wu4": 6348,
  "T ": 6349,
  "zhi2 de ": 6350,
  "lun2 dun1 ": 6351,
  "   xi1 ": 6352,
  "dian1 ": 6353,
  "xue2 zhe3 ": 6354,
  "   2022": 6355,
  " 11": 6356,
  "shui3 ping2 ": 6357,
  "hai3 yu4 ": 6358,
  "nei4 rong2": 6359,
  " zhi1 shi2 ": 6360,
  "zhu4 zuo4 ": 6361,
  " 9 yue4 ": 6362,
  "ying1 ge2 lan2 ": 6363,
  " da4 chen2 ": 6364,
  " cheng2 li4 yu2 ": 6365,
  "   gai4 ": 6366,
  "lv3 ke4 ": 6367,
  "tuo4 ": 6368,
  "zhi4 zai4 ": 6369,
  "jie1 jin4 ": 6370,
  " xin1 wen2 ": 6371,
  "chang2 qi1 ": 6372,
  " wei2 er3 ": 6373,
  "ling4 wai4 ": 6374,
  "   xing2 zheng4 qu1 hua4 ": 6375,
  "ren4 ming4": 6376,
  " jia1 shang4 ": 6377,
  "yuan4 zhang3 ": 6378,
  "bi3 sai4 zhong1 ": 6379,
  "dian3 de ": 6380,
  "ji3 yu3 ": 6381,
  "xi1 yang2 ": 6382,
  " yi3 hou4 ": 6383,
  " jun1 wei4 ": 6384,
  " gui1 ": 6385,
  "min2 de ": 6386,
  "shuo4 shi4 ": 6387,
  " de2 de ": 6388,
  "wei1 lian2 ": 6389,
  "wei3 shu1 ji4 ": 6390,
  " hui2 ": 6391,
  " yi4 ren2 ": 6392,
  "jia1 he2 ": 6393,
  "tai4 yang2 ": 6394,
  "1992 nian2 ": 6395,
  " zhong1 de ": 6396,
  "dao3 yu3 ": 6397,
  "pi1 zhun3 ": 6398,
  "dai4 you3 ": 6399,
  "heng1 li4 ": 6400,
  " shi4 yi1 wei4 ": 6401,
  " xue2 xiao4": 6402,
  " wei4 fu2 qi2 yu2 ": 6403,
  " 7 yue4 ": 6404,
  "guo1 ": 6405,
  "gao1 su4": 6406,
  "can1 yu4": 6407,
  "ci4 shi4 jie4 da4 zhan4 ": 6408,
  " shi4 qu1 ": 6409,
  "fa1 chu1 ": 6410,
  " W": 6411,
  "xing4 zhi4 ": 6412,
  "yan3 chang4 hui4 ": 6413,
  "quan4 ": 6414,
  " yuan2 yin1 ": 6415,
  "P ": 6416,
  "   yi4 ": 6417,
  "tao3 lun4 ": 6418,
  " formula ": 6419,
  "tui4 yi4 ": 6420,
  " tuo1 ": 6421,
  "bi3 ya4 ": 6422,
  "feng1 bao4 ": 6423,
  " meng2 ": 6424,
  "ji1 zhi4 ": 6425,
  "xin4 hao4 ": 6426,
  "ya4 de ": 6427,
  "neng2 gou4": 6428,
  "shou4 shang1 ": 6429,
  " jian4 cheng2 ": 6430,
  " ci2 ": 6431,
  "   2017": 6432,
  "wei4 zhi4 ": 6433,
  "lian2 xi4 ": 6434,
  " ru2 guo3": 6435,
  " huo3 ": 6436,
  "ru2 he2 ": 6437,
  "bi4 xu1": 6438,
  " ti3 zhang3 ke3 da2 ": 6439,
  " er3 te4 ": 6440,
  "bao3 chi2 ": 6441,
  "zhuan1 jia1 ": 6442,
  "fu1 ren2 ": 6443,
  "jiang3 xiang4 ": 6444,
  "cha1 yi4 ": 6445,
  " jing1 guo4 ": 6446,
  " xuan1 bu4 ": 6447,
  " ji1 gou4": 6448,
  " zai4 yu2 ": 6449,
  " de yi1 zuo4 ": 6450,
  " tong1 chang2 ": 6451,
  " gai3": 6452,
  "shou4 yu3 ": 6453,
  "wo1 ": 6454,
  " 2010 nian2 ": 6455,
  "wang3 lu4 ": 6456,
  "jing1 ying2 ": 6457,
  " 12 yue4 ": 6458,
  " min2 guo2 ": 6459,
  "gong4 chan3 dang3": 6460,
  "tan1 ": 6461,
  "dong1 xi1 ": 6462,
  " ke4 li3 ": 6463,
  " sheng1 chan3 ": 6464,
  " bu4 li3 ": 6465,
  "dian4 tai2 ": 6466,
  " 21 ": 6467,
  " yi3 xia4": 6468,
  "miao3 ": 6469,
  "cun1 zhuang1 ": 6470,
  " 11 yue4 ": 6471,
  "lai2 dao4 ": 6472,
  "sui2 hou4 ": 6473,
  "kao4 ": 6474,
  " zhi1 zhong1 ": 6475,
  " zhu1": 6476,
  "bi4 ye4 yu2 ": 6477,
  "xun4 lian4": 6478,
  "cuo4 shi1 ": 6479,
  "fa3 de ": 6480,
  " yi4 shu4": 6481,
  "zong3 du1 ": 6482,
  " chang2": 6483,
  "zhu4 ming2 de ": 6484,
  " shi4 you3 ": 6485,
  " jian4 dui4 ": 6486,
  "kuai4 su4 ": 6487,
  "zhu4 yu2 ": 6488,
  "she2 ": 6489,
  "1994 nian2 ": 6490,
  " shi2 ren4 ": 6491,
  " yi1 sheng1 ": 6492,
  "p ": 6493,
  "gu1 ji4 ": 6494,
  "hai2 zi ": 6495,
  " rang4 ": 6496,
  " er3 he2 ": 6497,
  "tai4 ping2 yang2 ": 6498,
  " jie2 mu4 ": 6499,
  "   2016": 6500,
  "yan2 ge2 ": 6501,
  "tong2 yi4 ": 6502,
  "sheng1 wei4 ": 6503,
  "dao3 shi4 ": 6504,
  "lang4 ": 6505,
  "cheng2 gong1 ": 6506,
  "le da4 ": 6507,
  " fang1 ": 6508,
  "fa1 dian4 ": 6509,
  "shang3 ": 6510,
  " shang4 hai3": 6511,
  "zhan4 zhong1 ": 6512,
  " de qian2 ": 6513,
  " ren2 lei4 ": 6514,
  "si4 ge4 ": 6515,
  "jie2 shu4 hou4 ": 6516,
  " de2 yi3 ": 6517,
  "pu3 tong1 ": 6518,
  " xiang3": 6519,
  " de shi2 qu1 wei4 ": 6520,
  " zheng4 ce4 ": 6521,
  " sheng4": 6522,
  " ming2 cheng1 ": 6523,
  "che4 xiao1 ": 6524,
  "yu3 zhong1 ": 6525,
  " yin4 du4 ": 6526,
  "   zhi4 ": 6527,
  "xi4 lie4": 6528,
  " yang2": 6529,
  " tw": 6530,
  " hao2 mi3 ": 6531,
  "tou2 piao4 ": 6532,
  " The   ": 6533,
  "di3 da2 ": 6534,
  "fa1 de ": 6535,
  " jin3 guan3": 6536,
  "er ": 6537,
  "ju2 zhang3 ": 6538,
  " de shi2 jian1 ": 6539,
  "x ": 6540,
  " qi1": 6541,
  "1995 nian2 ": 6542,
  "zhe4 xie1": 6543,
  "geng4 jia1 ": 6544,
  " wei4 sheng1 ": 6545,
  "yue4 tai2 ": 6546,
  " ping2 tai2 ": 6547,
  "fan3 hui2 ": 6548,
  " qian2": 6549,
  "guang3 xi1 ": 6550,
  "zhai2 ": 6551,
  "fei3 ": 6552,
  "hans ": 6553,
  "kuo4 da4 ": 6554,
  "ha1 er3 ": 6555,
  "zu3 cheng2 de ": 6556,
  " hans ": 6557,
  "yi4 zhong1 ": 6558,
  "deng1 lu4 ": 6559,
  "rong2 yu4 ": 6560,
  " tw ": 6561,
  " cheng1": 6562,
  "yue4 shi2 ": 6563,
  "zhong4 da4 ": 6564,
  "lu4 yi4 ": 6565,
  " sa4 ": 6566,
  " shi4 yan3 ": 6567,
  "que4 ding4 ": 6568,
  "zhi3 zai4 ": 6569,
  "ye4 hou4 ": 6570,
  " bu4 ke3 ": 6571,
  " bing4 mei2 you3 ": 6572,
  " ci3 shi2 ": 6573,
  "   de shi2 ": 6574,
  " chuang4 ": 6575,
  "   and   ": 6576,
  " a1 er3 ": 6577,
  "jin4 xing2": 6578,
  " lv4 ": 6579,
  " mu4 qian2": 6580,
  "   2023": 6581,
  "wan3 shang4 ": 6582,
  "jiao4 qu1 ": 6583,
  "qi4 che1 ": 6584,
  " xia4": 6585,
  "ming2 cheng1 ": 6586,
  "ya4 li4 shan1": 6587,
  "wu4 zhong3": 6589,
  "guan1 zhong4 ": 6590,
  " xue2 xi2 ": 6591,
  "gai3 bian1": 6592,
  " guo2 wu4 ": 6593,
  " zhi1 yuan2 ": 6594,
  "yuan4 de ": 6595,
  "xiao1 shou4 ": 6596,
  "F ": 6597,
  " gong1 ye4": 6598,
  "ba1 xi1 ": 6599,
  " huo4 zhe3 ": 6600,
  "   2014": 6601,
  "ru4 kou3 ": 6602,
  "xiang1 tong2 ": 6603,
  "ba1 li2 ": 6604,
  "po4 huai4 ": 6605,
  "ban3 de ": 6606,
  "xue2 he2 ": 6607,
  "sun3 shi1 ": 6608,
  "biao3 xian4": 6609,
  " shi2 xian4 ": 6610,
  "xi1 la4": 6611,
  "fa1 xian4 le ": 6612,
  "kan4 dao4 ": 6613,
  "pan1 ": 6614,
  "qi1 zi3 ": 6615,
  "guan1 zhu4 ": 6616,
  " ceng2 ren4 ": 6617,
  " zhong3 ": 6618,
  "nai3 ": 6619,
  " bing4 yi3 ": 6620,
  "S ": 6621,
  "qiang3 ": 6622,
  "xiong1 ya2": 6623,
  " 6 yue4 ": 6624,
  "   suo3 shu3 de sheng3 ji2 xuan3 qu1 wei4 ": 6625,
  "   de you2 zheng4 bian1 ma3 wei4 ": 6626,
  "   yu3 jie1 rang3 de shi4 zhen4 ": 6627,
  "   yu2 shi2 de ren2 kou3 shu4 liang4 wei4 ren2 ": 6628,
  "   de shi2 qu1 wei4 ": 6629,
  "zhuang1 zhi4 ": 6630,
  "zhi2 wei4 ": 6631,
  " 2011": 6632,
  "   ji1 ": 6633,
  "ji4 he2 ": 6634,
  " zuo4 yong4 ": 6635,
  " quan2 zhang3 ": 6636,
  "tu2 zhong1 ": 6637,
  "su1 lian2": 6638,
  "can2 ": 6639,
  "kai1 fang4": 6640,
  "xu1 qiu2 ": 6641,
  " zhi1 ming2 ": 6642,
  "lin2 de ": 6643,
  " si1 la1 ": 6644,
  "shi2 wei4 ": 6645,
  " nian2 qing1": 6646,
  "heng2 xing1 ": 6647,
  " quan2 bu4 ": 6648,
  "tui1 dong4 ": 6649,
  "wei2 de ": 6650,
  " shi4 zhang3 ": 6651,
  "guan3 li3": 6652,
  " 2019": 6653,
  "ru4 qin1 ": 6654,
  "ru2 ci3 ": 6655,
  " tian1": 6656,
  " hk": 6657,
  " jia1 ting2 ": 6658,
  "tai2 bei3 ": 6659,
  "yi2 dong4 ": 6660,
  "yu3 he2 ": 6661,
  "fu4 de ": 6662,
  " yi1 dai4 ": 6663,
  "jin4 shi4 ": 6664,
  " chu1 xian4 zai4 ": 6665,
  "zhe4 jiang1 ": 6666,
  " zhuan3 ": 6667,
  "   2015": 6668,
  "mu3 qin1 ": 6669,
  "xiong1 ya2 li4 ": 6670,
  "mu4 si1 ": 6671,
  "1991 nian2 ": 6672,
  " ren2 shu4 ": 6673,
  "fu4 qin1 ": 6674,
  " dan4 ta1 ": 6675,
  " xi1 ban1 ya2": 6676,
  "min2 zu2": 6677,
  " gan1 ": 6678,
  "tai2 de ": 6679,
  " di4 qiu2 ": 6680,
  " jin3": 6681,
  " mian4 ": 6682,
  " duan4 ": 6683,
  " shi4 zhi3 ": 6684,
  " che1 zhan4 ": 6685,
  "zui4 chu1 ": 6686,
  "ti2 sheng1 ": 6687,
  "fei1 jian4 zhi4 ": 6688,
  "   2013": 6689,
  "y   ": 6690,
  " 5 yue4 ": 6691,
  "xun4 su4 ": 6692,
  " hk ": 6693,
  " si1 tan3 ": 6694,
  "shu4 xue2 ": 6695,
  "22 ": 6696,
  "guang3 bo1": 6697,
  " wei4 he2 ": 6698,
  " bing4 li4 ": 6699,
  " cheng2 wei2 le ": 6700,
  "C ": 6701,
  "niu3 yue1 ": 6702,
  " V": 6703,
  " jing1": 6704,
  "fa1 xing2": 6705,
  " jin4 ru4": 6706,
  "te4 li3 ": 6707,
  "kang4 ri4 ": 6708,
  " he2 xin1 ": 6709,
  " ge4 zhong3 ": 6710,
  " ji2 qi2": 6711,
  "fa1 sheng1": 6712,
  "zong3 bu4 ": 6713,
  "shou1 lu4 ": 6714,
  "gao3 ": 6715,
  " shi4 ren2 ": 6716,
  "jiao4 de ": 6717,
  "lan2 ke4 ": 6718,
  "mang2 ": 6719,
  "cai2 zheng4 ": 6720,
  "r ": 6721,
  "   nian2 ": 6722,
  "chang4 pian4 ": 6723,
  " zuo4 pin3": 6724,
  "ming2 yi4 ": 6725,
  "sa4 ke4 ": 6726,
  " ji4 zai3 ": 6727,
  " zhong1 wen2 ": 6728,
  "jue2 sai4": 6729,
  "jin4 gong1 ": 6730,
  " shi4 ji2 ": 6731,
  "qi3 yi4 ": 6732,
  "can1 yi4 ": 6733,
  " zao4 cheng2 ": 6734,
  "zhuang4 kuang4 ": 6735,
  " xian4 yu2 ": 6736,
  "lv4 wei4 ": 6737,
  "l ": 6738,
  "   zhong1 guo2 ": 6739,
  "le ta1 ": 6740,
  "15 ": 6741,
  "can1 kao3 ": 6742,
  "zeng1 zhang3 ": 6743,
  "gao1 du4 ": 6744,
  "chan3 pin3": 6745,
  "fei1 jian4 zhi4 di4 qu1 ": 6746,
  " huang2": 6747,
  "dou1 hui4 ": 6748,
  " he2 bing4 ": 6749,
  " ji4 suan4": 6750,
  " sheng1 huo2": 6751,
  "wang2 de ": 6752,
  "sui1 ran2 ": 6753,
  "diao4 cha2": 6754,
  " e2 luo2 si1 ": 6755,
  "   O": 6756,
  "zhong4 dian3 ": 6757,
  " dao3 ": 6758,
  "zhan4 dou4 ": 6759,
  "chai1 ": 6760,
  " da4 lou2 ": 6761,
  "hai3 dao4 ": 6762,
  "chang4 pian4": 6763,
  " ren2 men ": 6764,
  " fang2 ": 6765,
  "wei1 xie2 ": 6766,
  " hou4": 6767,
  "ao4 di4 li4 ": 6768,
  " he2 zhong1 ": 6769,
  "shang4 shu1 ": 6770,
  " wei2 qi2 ": 6771,
  "kan3 ": 6772,
  "ling3 dao3 ren2 ": 6773,
  " xiang1 guan1 ": 6774,
  "jing1 shen2 ": 6775,
  "jia1 zhong1 ": 6776,
  " yin1 er2 ": 6777,
  "yue4 zai4 ": 6778,
  "liang3 ren2 ": 6779,
  " nian2 shi2 ": 6780,
  " bu4 duan4 ": 6781,
  "can1 jia1 le ": 6782,
  "ying2 yun4 ": 6783,
  "hua4 wei4 ": 6784,
  "jiang1 xi1 ": 6785,
  " de cheng2 yuan2 ": 6786,
  "jie2 ke4 ": 6787,
  "tu2 shu1 guan3 ": 6788,
  " he2 cheng2 ": 6789,
  "zhu3 chi2 ": 6790,
  " zhong1 guo2 gong4 chan3 dang3 ": 6791,
  "ju4 de ": 6792,
  "na4 li3 ": 6793,
  " 4 yue4 ": 6794,
  " you3 shi2 ": 6795,
  "zhan4 dou4": 6796,
  " hua2": 6797,
  "jin4 ru4": 6798,
  " xiao3": 6799,
  "mou3 xie1 ": 6800,
  "shen1 wei4 ": 6801,
  "ju1 zhu4 ": 6802,
  "zi4 dong4 ": 6803,
  "xia4 ji4 ao4 lin2 pi3 ke4 yun4 dong4 hui4 ": 6804,
  "yin1 shi4 ": 6805,
  "min2 zhong4 ": 6806,
  "25 ": 6807,
  "1988 nian2 ": 6808,
  " xiang4 mu4 ": 6809,
  "chan3 sheng1 de ": 6810,
  " zuo3 ": 6811,
  "   zh ": 6812,
  " zai4 jia1 ": 6813,
  "shuo1 ming2 ": 6814,
  " wei3 ": 6815,
  " qiao2 ": 6816,
  " zheng4 zhuang4 ": 6817,
  "yin3 fa1 ": 6818,
  "jiang1 su1 ": 6819,
  "dao1 ": 6820,
  " huo4 de2 le ": 6821,
  " zhi1 xia4 ": 6822,
  "to   ": 6823,
  " shi4 wei1 ": 6824,
  "xiao3 shuo1": 6825,
  " xu3 duo1 ": 6826,
  "on ": 6827,
  "   jia1 zu2 ": 6828,
  " shi4 zhen4": 6829,
  " gong1 ren2 ": 6830,
  "ding4 le ": 6831,
  "you1 shi4 ": 6832,
  "ba2 ": 6833,
  " xuan3 ": 6834,
  "lan2 qiu2 ": 6835,
  "1993 nian2 ": 6836,
  " da4 duo1 ": 6837,
  "wei4   ": 6838,
  "zhou1 de ": 6839,
  " bian1": 6840,
  "ji4 shi2 ": 6841,
  "xian3 de ": 6842,
  "zi1 xun4 ": 6843,
  "ao4 yun4 hui4 ": 6844,
  "su4 de ": 6845,
  " da4 xing2 ": 6846,
  " wen2": 6847,
  " 2018": 6848,
  " yue4 nan2 ": 6849,
  " du2 ": 6850,
  " pei4 ": 6851,
  " ji2 li4 ": 6852,
  " zhuang1 ": 6853,
  " zhong1 hua2 ": 6854,
  "   J": 6855,
  "qu3 de2": 6856,
  " lai2 zi4 ": 6857,
  "yuan2 zai4 ": 6858,
  " bu4 men2": 6859,
  "chuang1 ": 6860,
  "xiang1 dang1 ": 6861,
  " dan4 you2 yu2 ": 6862,
  "fang3 wen4 ": 6863,
  "zhi2 dao4 ": 6864,
  "jiao4 wei2 ": 6865,
  "xiang4 mu4": 6866,
  " shi4 wei4 le ": 6867,
  "jie2 hun1 ": 6868,
  " li3 lun4 ": 6869,
  "pin3 pai2 ": 6870,
  "3 nian2 ": 6871,
  " xie2 ": 6872,
  "sui1 ran2": 6873,
  " ou1 ": 6874,
  "xi2 wei4 ": 6875,
  " di4 wu3 ": 6876,
  " yue4 tai2 ": 6877,
  "can1 jia1": 6878,
  "zhong1 wei4 ": 6879,
  "zhen1 shi2 ": 6880,
  "zhong1 hua2 ren2 min2 gong4 he2 guo2 ": 6881,
  "you3 bu4 ": 6882,
  "16 ": 6883,
  "yin4 di4 ": 6884,
  "mei3 shu4 ": 6885,
  " lao3 ": 6886,
  "cui4 ": 6887,
  "   2025": 6888,
  "ming4 ling4 ": 6889,
  "xue2 shu4 ": 6890,
  "xing1 qi1 ": 6891,
  " de gong1 zuo4 ": 6892,
  "zhou4 ": 6893,
  "2020 nian2 mei3 guo2 ren2 kou3 pu3 cha2 de shu4 ju4 ": 6894,
  "jian4 she4 ": 6895,
  "ju3 xing2": 6896,
  " shang4": 6897,
  "fang2 yu4 ": 6898,
  " ren4 wu4 ": 6899,
  "wu3 zhuang1 ": 6900,
  "k ": 6901,
  "yi2 chan3 ": 6902,
  "tiao2 zheng3 ": 6903,
  " zheng4": 6904,
  " shi2 yi1 ": 6905,
  "ao4 men2 ": 6906,
  " tian2 ": 6907,
  " nian2 bei4 ": 6908,
  "ti2 gao1 ": 6909,
  "yun3 xu3 ": 6910,
  " ying1": 6911,
  " zhi4 shi2 ": 6912,
  " jia1 ru4": 6913,
  " zhi1 hou4": 6914,
  "bao4 dao3 ": 6915,
  " C ": 6916,
  "fei1 lv4 ": 6917,
  "wa3 er3 ": 6918,
  "yi3 lai2 ": 6919,
  "le ta1 de ": 6920,
  "hui4 yuan2 ": 6921,
  " shi2 qi1": 6922,
  "ji4 lu4 ": 6923,
  " ji1 guan1 ": 6924,
  "du1 shi4 ": 6925,
  "le yi2 ge4 ": 6926,
  " jiu3": 6927,
  " ding4 ": 6928,
  "hua4 jia1 ": 6929,
  "ji1 chang3 ": 6930,
  " fu4 ze2": 6931,
  "yi2 min2 ": 6932,
  "shu1 de ": 6933,
  "13 ": 6934,
  "ju4 li2 ": 6935,
  "shu4 zi4 ": 6936,
  " shi4 yi1 zhong3": 6937,
  "jin1 de ": 6938,
  " ren2 lei4": 6939,
  " cheng1 wei2 ": 6940,
  "   2024": 6941,
  " he2 shi2 ": 6942,
  "hong1 zha4": 6943,
  " shi1": 6944,
  " zi4 ji3 de ": 6945,
  "jie1 ji2 ": 6946,
  "duan4 de ": 6947,
  "du1 jiao4 ": 6948,
  "li4 shi4 ": 6949,
  "ke4 li3 ": 6950,
  " hong2": 6951,
  "yan2 de ": 6952,
  " zhuan3": 6953,
  "ying2 de ": 6954,
  "hua1 yuan2 ": 6955,
  "shan1 mai4": 6956,
  " liang2 ": 6957,
  "sheng1 ji2 ": 6958,
  "yue1 you3 ": 6959,
  " shi4 da4 ": 6960,
  "yong4 hu4 ": 6961,
  "wen2 zi4 ": 6962,
  " sui4 de ": 6963,
  " wan4 mei3 yuan2 ": 6964,
  "mian4 dui4 ": 6965,
  "yao1 qing3 ": 6966,
  "d   ": 6967,
  " 2011 nian2 ": 6968,
  "dong1 ji4 ": 6969,
  "zi1 jin1 ": 6970,
  "deng3 wei4 ": 6971,
  "t   ": 6972,
  " li4 shi3": 6973,
  "wu3 tai2 ": 6974,
  "han2 shu4 ": 6975,
  " xu2": 6976,
  "su2 ": 6977,
  " she4 ji2 ": 6978,
  " guan1": 6979,
  "23 ": 6980,
  " zhi4 li4 ": 6981,
  "gao1 deng3 ": 6982,
  " 2016": 6983,
  " suo3 yi3": 6984,
  "yuan2 ji2 ": 6985,
  " ren2 min2": 6986,
  "shen1 qing3 ": 6987,
  " he2 lan2 ": 6988,
  "xiao4 guo3 ": 6989,
  " 2005 nian2 ": 6990,
  "dong4 zuo4 ": 6991,
  " 3 yue4 ": 6992,
  " han2 guo2 ": 6993,
  "mei3 guo2 de ": 6994,
  " ju4": 6995,
  " 2008 nian2 ": 6996,
  "19 shi4 ji4 ": 6997,
  "4 nian2 ": 6998,
  " ming2 chao2 zheng4 zhi4 ren2 wu4 ": 6999,
  "   zao3 nian2 ": 7000,
  "jiao4 lian4 ": 7001,
  "   xin1 ": 7002,
  " xian4 he2 ": 7003,
  " ri4 jun1 ": 7004,
  "xia4 ling4": 7005,
  "liang3 zhong3 ": 7006,
  "1990 nian2 ": 7007,
  "ling3 tu3 ": 7008,
  " xiu1 ": 7009,
  " yuan2 ming2 ": 7010,
  "nu3 li4 ": 7011,
  "zheng4 ming2 ": 7012,
  "I ": 7013,
  " zhao1": 7014,
  "   hou4 ": 7015,
  "le   ": 7016,
  " pei4": 7017,
  "lu4 jun1": 7018,
  " zhong1 yu2 ": 7019,
  "zuo4 yong4 ": 7020,
  "qu1 yu4": 7021,
  "jing1 chang2 ": 7022,
  "lie4 biao3 ": 7023,
  "you3 zai4 ": 7024,
  " yi4 yi4 ": 7025,
  "ying3 pian4": 7026,
  "   you2 ": 7027,
  " yuan2 gong1 ": 7028,
  " zhou1 nian2 ": 7029,
  " jin4 xing2": 7030,
  " nan2 zhi4 ": 7031,
  " guo2 hui4 ": 7032,
  " gong1 hui4 ": 7033,
  "guan1 xi4": 7034,
  " chi4 ": 7035,
  " ji4 zhe3 ": 7036,
  "   W": 7037,
  "nei4 lu4 ": 7038,
  "an ": 7039,
  "zhao3 dao4 ": 7040,
  "wang2 chao2": 7041,
  "jing1 li3 ": 7042,
  "lv3 xing2 ": 7043,
  "shen2 jing1 ": 7044,
  " li3": 7045,
  " shi4 hou4 ": 7046,
  "yong4 zuo4 ": 7047,
  " jue2": 7048,
  "li3 lun4 ": 7049,
  "hui2 ying4 ": 7050,
  " gong1 chang3 ": 7051,
  "fu4 jin4 ": 7052,
  " bo2": 7053,
  "yu2 zai4 ": 7054,
  " hen3 ": 7055,
  "tai4 ren2 ": 7056,
  " he2 gong1 ": 7057,
  "ke3 yi3 zai4 ": 7058,
  " luo2": 7059,
  "sui4 dao4 ": 7060,
  "bao3 chi2": 7061,
  "zhi1 jian1 ": 7062,
  "ti2 dao4 ": 7063,
  " wan4 yuan2 ": 7064,
  " cheng2 xian4 ": 7065,
  "chu1 ban3 ": 7066,
  " nian2 1 yue4 1 ri4 ": 7067,
  "c ": 7068,
  " ji1 che1 ": 7069,
  "jiu3 dian4 ": 7070,
  " bi3": 7071,
  " shi2 er4 ": 7072,
  "D ": 7073,
  " li2": 7074,
  "ai1 ji2 ": 7075,
  "ge2 wei4 ": 7076,
  "qi4 xiang4 ": 7077,
  "e   ": 7078,
  "shou3 ji1 ": 7079,
  "ti1 ": 7080,
  " guo2 fang2": 7081,
  "kong1 zhong1 ": 7082,
  " nian2 shi4 jie4 ": 7083,
  " zhu4": 7084,
  "bei4 shi4 wei4 ": 7085,
  "tong1 dao4 ": 7086,
  "kong3 bu4 ": 7087,
  "gui1 ze2 ": 7088,
  "qi2 zhong1 yi1 zhong3 ": 7089,
  "zuo4 wei4 ": 7090,
  "shou3 du1 ": 7091,
  "wo3 men": 7092,
  " de zhi4 ": 7093,
  " wo3 men ": 7094,
  "li4 wei4 ": 7095,
  "shu1 ji2 ": 7096,
  " er2 cheng2 ": 7097,
  " fan3": 7098,
  " lei2 ": 7099,
  "1984 nian2 ": 7100,
  "dong1 nan2 bu4 ": 7101,
  "yi3 xia4 ": 7102,
  "yan3 yi4 ": 7103,
  " xi1 wang4": 7104,
  " liang4 ": 7105,
  "ji1 he2 ": 7106,
  "da4 lu4 de ": 7107,
  "qi3 ye4": 7108,
  "meng3 ": 7109,
  " zuo4 wei2": 7110,
  "2 nian2 ": 7111,
  "dai4 li3 ": 7112,
  " de jia1 ": 7113,
  "jin1 shu3 ": 7114,
  "g ": 7115,
  "jin4 yi2 bu4 ": 7116,
  "xin1 jia1 po1": 7117,
  "lao2 dong4 ": 7118,
  "zhu3 chi2": 7119,
  "jiao4 xue2 ": 7120,
  "biao3 mian4 ": 7121,
  "gu4 wen4 ": 7122,
  " ying1 yu3 ": 7123,
  "ni1 ": 7124,
  " he2 xi1 ": 7125,
  " bu4 bu4 ": 7126,
  " s   ": 7128,
  " you3 ji1 ": 7129,
  "cai2 liao4 ": 7130,
  "chao2 xian1": 7131,
  " 2001 nian2 ren2 kou3 ": 7132,
  " ge2": 7133,
  "dao4 lu4 ": 7134,
  "hua2 ren2 ": 7135,
  " zai4 wei4 ": 7136,
  " bei3 qi3 ": 7137,
  "jing4 de ": 7138,
  "si3 hou4 ": 7139,
  "bao3 liu2 ": 7140,
  "bo1 lan2": 7141,
  " xi4 lie4 ": 7142,
  " tu3 ": 7143,
  "tong1 che1 ": 7144,
  "si1 li4 ": 7145,
  "1989 nian2 ": 7146,
  " zhong1 guo2 da4 lu4 ": 7147,
  "bai2 se4 ": 7148,
  "ya4 li4 shan1 da4 ": 7149,
  " ban1 ": 7150,
  "hui4 shi4 ": 7151,
  " yi3 bei4 ": 7152,
  "ju1 min2": 7153,
  "zhu3 li4 ": 7154,
  " ping2 mian4 ": 7155,
  "ni2 ke4 ": 7156,
  " ta1 wei4 ": 7157,
  "M ": 7158,
  " 2021": 7159,
  "zhu3 de ": 7160,
  " zhi1 jian1": 7161,
  "fen1 zhong1 ": 7162,
  " si1 te4": 7163,
  " cha2 ": 7164,
  "nv3 zi3": 7165,
  "yin3 qi3 ": 7166,
  " xian4 de yi2 ge4 ": 7167,
  " ti2 gong1 ": 7168,
  " dao4 da2 ": 7169,
  "fa3 an4 ": 7170,
  "yin3 qi3": 7171,
  " nv3 xing4 ": 7172,
  "zhao4 kai1 ": 7173,
  " dong1 nan2 ": 7174,
  "yun4 zuo4 ": 7175,
  "   2012": 7176,
  "jiao1 hui4 ": 7177,
  "zhai4 ": 7178,
  "5 nian2 ": 7179,
  "shou3 ge4 ": 7180,
  "tui4 chu1 ": 7181,
  "di4 er4 ": 7182,
  " er2 yan2 ": 7183,
  " xian4 de yi2 ge4": 7184,
  " hai3": 7185,
  " bei4 ren4 wei2 shi4 ": 7186,
  " ju4 you3 ": 7187,
  "li4 zai4 ": 7188,
  " ji1 hu1": 7189,
  " ke4 cheng2 ": 7190,
  "wen2 zhang1 ": 7191,
  "ji3 ge4 ": 7192,
  "zha2 ": 7193,
  " shi4 jia1 ": 7194,
  " you3 yi4 ": 7195,
  "te4 shu1 ": 7196,
  " qu3 ": 7197,
  " xi1 si1 ": 7198,
  "xiang1 guan1": 7199,
  "shi1 fan4": 7200,
  " fu4 qin1 ": 7201,
  "wu2 fa3": 7202,
  " gang3 ": 7203,
  " yong1 you3 ": 7204,
  "can1 mou2": 7205,
  "jin1 hui4 ": 7206,
  "jie4 de ": 7207,
  "jiao4 shi1 ": 7208,
  "ceng2 jing1": 7209,
  "   xia4 ": 7210,
  "lv4 shi1 ": 7211,
  "fei1 zhou1 ": 7212,
  " shi4 yu3 ": 7213,
  "   V": 7214,
  "xi1 ban1 ya2": 7215,
  "da4 wei4 ": 7216,
  " yi1 ji2 ": 7217,
  " feng2 ": 7218,
  "chang2 de ": 7219,
  " bu4 de2": 7220,
  " ta1 men zai4 ": 7221,
  "wei1 ji1 ": 7222,
  "yi2 zhi3 ": 7223,
  " yi4 fang1 mian4 ": 7224,
  "fa3 yuan4": 7225,
  " er2 shui3 yu4 mian4 ji1 wei4 0": 7226,
  " guo2 jia1 de ": 7227,
  "zhe3 zai4 ": 7228,
  " he2 qi2 ta1 ": 7229,
  "ya4 zhou1": 7230,
  " zhu3 xi2 ": 7231,
  "jin1 pai2 ": 7232,
  "che1 de ": 7233,
  " zhi1 wei4 ": 7234,
  " bing4 jiang1 ": 7235,
  "kang1 xi1 ": 7236,
  " cheng2 xu4 ": 7237,
  "yao4 wu4 ": 7238,
  " wei4 you3 ": 7239,
  "biao3 da2": 7240,
  " 00 ": 7241,
  " cheng2 ren4 ": 7242,
  "zhi2 min2": 7243,
  "guo4 qu4 ": 7244,
  "pu2 tao2 ya2": 7245,
  "   cheng2 ": 7246,
  "da4 di4 ": 7247,
  "bian4 de2 ": 7248,
  "on   ": 7249,
  "leng3 ": 7250,
  " zhi4 liao2 ": 7251,
  "huan1 ying2 ": 7252,
  "wen2 xian4 ": 7253,
  "duo1 nian2 ": 7254,
  " si1 ke4 ": 7255,
  " jin4 xing2 le ": 7256,
  "mu4 biao1": 7257,
  " fei4": 7258,
  " guan1 yu2 ": 7259,
  "zhu4 li3 ": 7260,
  "zhuang1 shi4 ": 7261,
  "dong1 bei3 bu4 ": 7262,
  "gou4 zao4 ": 7263,
  "huo4 de2 le ": 7264,
  "xi4 tong3 de ": 7265,
  "bo2 wu4 guan3": 7266,
  "ao4 da4 li4 ya4 ": 7267,
  " bai3 ": 7268,
  " qiu2 yuan2 ": 7269,
  " 100": 7270,
  " ban4 ": 7271,
  "jiang1 hui4 ": 7272,
  "fu2 yi4 ": 7273,
  "ben3 di4 ": 7274,
  "te   ": 7275,
  " er2 gai1 di4 ": 7276,
  "xian1 sheng1 ": 7277,
  " bu4 la1 ": 7278,
  "bo1 lan2 ": 7279,
  " qi3": 7280,
  " yu2 le4 ": 7281,
  "jia1 ru4": 7282,
  "fang4 qi4 ": 7283,
  "jian4 yi4 ": 7284,
  " 2015": 7285,
  "dang1 shi2 de ": 7286,
  " qi1 xi1 zai4 ": 7287,
  "mao2 ze2 ": 7288,
  " gao1": 7289,
  "xiao4 de ": 7290,
  "sa4 si1 ": 7291,
  "yi4 da4 li4 ": 7292,
  " bing4 yu3 ": 7293,
  "ze2 wei4 ": 7294,
  " da4 lu4 ": 7295,
  "1985 nian2 ": 7296,
  "fu4 qin1": 7297,
  " wei4 lai2 ": 7298,
  " 2007 nian2 ": 7299,
  "zi4 you2": 7300,
  "R ": 7301,
  "   cong2 ": 7302,
  " jian4 zao4 ": 7303,
  " jin4 yi2 bu4 ": 7304,
  " ban3 ": 7305,
  "liu2 zai4 ": 7306,
  "shou1 shi4 ": 7307,
  " de zheng4 ": 7308,
  "cheng1 zuo4 ": 7309,
  "nan2 jing1 ": 7310,
  " jin4 gong1 ": 7311,
  "guang3 gao4 ": 7312,
  "sa4 er3 ": 7313,
  " shou1 ": 7314,
  "luo2 di4 ": 7315,
  "jin3 ji2 ": 7316,
  " shi4 zheng4 ": 7317,
  " fu4 qin1": 7318,
  " ji4 shu4": 7319,
  " hao4 wei4 ": 7320,
  " ce4 ": 7321,
  "ji4 xu4 ": 7322,
  "tan3 ke4 ": 7323,
  "1949 nian2 ": 7324,
  " de sheng1 ": 7325,
  " ren2 men": 7326,
  " ri4 jun1": 7327,
  " yi4 mei3 yuan2 ": 7328,
  "ci4 shi3 ": 7329,
  "xi4 ju4 ": 7330,
  " 2013": 7331,
  " zai4 ci3": 7332,
  " te4 bie2 shi4 ": 7333,
  " 30": 7334,
  "huo3 jian4 ": 7335,
  " jia1 zu2 ": 7336,
  "piao4 fang2 ": 7337,
  "bi3 li4 shi2 ": 7338,
  "qing3 qiu2 ": 7339,
  "jing3 fang1 ": 7340,
  "kao3 lv4": 7341,
  " shi4 ri4 ben3 ": 7342,
  " jie2 guo3": 7343,
  "tai4 ping2 yang2": 7344,
  "zhan1 mu3 si1 ": 7345,
  " he4 ": 7346,
  " si1 tan3": 7347,
  " 2014": 7348,
  " nian2   ": 7349,
  " chu1 sheng1 ": 7350,
  " mei3 nian2 ": 7351,
  "di4 zai4 ": 7352,
  " yi3 you3 ": 7353,
  "shang4 wu3 ": 7354,
  "tou2 piao4": 7355,
  "ba1 li2": 7356,
  "wang2 chao2 ": 7357,
  "   jie2 zhi4 ": 7358,
  "nei4 you3 ": 7359,
  "bian1 de ": 7360,
  "wan2 gong1 ": 7361,
  "shi2 jian1 ": 7362,
  " zhi4 cheng2 ": 7363,
  "guang3 dong1 sheng3 ": 7364,
  "que4 ren4 ": 7365,
  "pai1 she4": 7366,
  " yuan2 ben3 ": 7367,
  " zhao4": 7368,
  "chang3 he2 ": 7369,
  " qi2 zai4 ": 7370,
  " zhi1 zi ": 7371,
  "mu3 qin1": 7372,
  "shen1 ti3 ": 7373,
  " bing1 ": 7374,
  " da4 yue1 ": 7375,
  " sai4 ": 7376,
  "fen3 ": 7377,
  " zhi1 de ": 7378,
  "meng2 gu3": 7379,
  " lv3 ": 7380,
  "gu3 fen4": 7381,
  " zhan4 dou4 ": 7382,
  "xi2 xing4": 7383,
  " jing1 ji4 ": 7384,
  "geng4 duo1 ": 7385,
  "hu2 bei3 ": 7386,
  " yue1 han4 ": 7387,
  "deng1 shang4 ": 7388,
  "é ": 7389,
  " xian4 chang3 ": 7390,
  " deng4": 7391,
  "   zeng1 ": 7392,
  "suo3 zai4 ": 7393,
  "qing2 bao4 ": 7394,
  " ying1 wen2 ": 7395,
  "wai4 bu4 ": 7396,
  "zhong4 yi4 ": 7397,
  "min2 jian1 ": 7398,
  "mi4 mi4 ": 7399,
  "xiao4 yuan2 ": 7400,
  " shi4 ye4 ": 7401,
  " zai4 qi2 ": 7402,
  "guan1 bi4 ": 7403,
  "guang3 fan4": 7404,
  "kao3 lv4 ": 7405,
  "e2 luo2 si1": 7406,
  " xiang3 ": 7407,
  "te4 se4 ": 7408,
  " heng2 ": 7409,
  " you3 xian4 ": 7410,
  "sen1 lin2 ": 7411,
  "ma3 si1 ": 7412,
  " yan2": 7413,
  " 2020": 7414,
  " sai4 ji4 ": 7415,
  "wu4 yuan2 ": 7416,
  "cun4 ": 7417,
  " xun2 ": 7418,
  "an1 pai2 ": 7419,
  " wo3 men": 7420,
  " can1 jia1 ": 7421,
  "chi1 ": 7422,
  " quan2 qiu2 ": 7423,
  " ai1 ": 7424,
  "xia4 yi1 ": 7425,
  "mei3 ge4 ": 7426,
  " da4 duo1 shu4 ": 7427,
  "cheng2 nian2 ": 7428,
  "er4 yue4 ": 7429,
  " bu4 jiu3": 7430,
  "yan3 chang4 ": 7431,
  "liang3 nian2 ": 7432,
  "zhuang1 bei4 ": 7433,
  "zeng4 ": 7434,
  " da4 dao4 ": 7435,
  " wo4": 7436,
  " zui4 gao1 ": 7437,
  "neng2 zai4 ": 7438,
  " ji1 bai4": 7439,
  "tu3 er3 qi2 ": 7440,
  "qian1 zhi4 ": 7441,
  "huan3 ": 7442,
  "1986 nian2 ": 7443,
  " di4 yi1 ci4 ": 7444,
  " 10 ": 7445,
  "chang3 di4 ": 7446,
  "min2 zhu3 dang3 ": 7447,
  "tian1 de ": 7448,
  " zhong1 shi4 ": 7449,
  " shi2 yan4 ": 7450,
  "zuo4 zhan4 ": 7451,
  " gang1 ": 7452,
  "nan2 yi3 ": 7453,
  "14 ": 7454,
  " ji2 bei3 ": 7455,
  " chu1 lai2 ": 7456,
  "tai2 feng1 ": 7457,
  "b ": 7458,
  "xing4 qu4 ": 7459,
  "tian1 jin1 ": 7460,
  " tong1 chang2": 7461,
  " ka3": 7462,
  " 2017": 7463,
  "ban4 li3 ": 7464,
  "18 ": 7465,
  " zhi1 dao4 ": 7466,
  "tian1 jin1": 7467,
  "long2 jiang1 ": 7468,
  "ling3 shi4 ": 7469,
  " bu4 zu2 ": 7470,
  "yong4 tu2 ": 7471,
  "li3 gong1 ": 7472,
  " kang1 ": 7473,
  " yuan2 su4 ": 7474,
  "wei1 er3 ": 7475,
  "nong2 ye4": 7476,
  " qing1 chao2 ": 7477,
  "ai1 er3 ": 7478,
  " cheng2 du4 ": 7479,
  "zhan4 ling3 ": 7480,
  "chang2 jian4 de ": 7481,
  "jin4 xing2 le ": 7482,
  " shi3 jian4 yu2 ": 7483,
  "   xian4": 7484,
  "   ming2 ": 7485,
  "dao3 dan4 ": 7486,
  "xiu1 zheng4 ": 7487,
  " yue4 tuan2 ": 7488,
  "gui4 zhou1 ": 7489,
  "fen1 bu4 yu2 ": 7490,
  "ma ": 7491,
  " xuan1 ": 7492,
  "xi3 ju4 ": 7493,
  " gong1 zhu3 ": 7494,
  " ta1 hai2 ": 7495,
  " zhan4 dou4": 7496,
  "ma3 lai2 xi1 ya4 ": 7497,
  "xi2 xing4 bu4 ming2 ": 7498,
  " shi2 dai4": 7499,
  "zhang4 ai4 ": 7500,
  " wen2 hua4 ": 7501,
  "o ": 7502,
  " chu1 qi1 ": 7503,
  "xiang4 shi4 ": 7504,
  "hua2 sheng4 ": 7505,
  "sheng1 cheng2 ": 7506,
  "te ": 7507,
  " you3 xie1 ": 7508,
  " sheng1 chan3": 7509,
  "ren4 ming4 wei4 ": 7510,
  " yi4 qi3": 7511,
  " tao2 ": 7512,
  "fa3 guan1 ": 7513,
  " ye3 jiu4 shi4 ": 7514,
  "   ta1 ": 7515,
  " de fang1 shi4 ": 7516,
  " he2 he2 ": 7517,
  "jiao1 liu2 ": 7518,
  "zu3 jian4 ": 7519,
  " sheng1 huo2 xi2 xing4 bu4 ming2 ": 7520,
  " chu3 yu2 ": 7521,
  "she4 zhi4 ": 7522,
  "shou4 dao4": 7523,
  "ti2 chu1": 7524,
  " wan4 li4 ": 7525,
  "ji1 chu3 ": 7526,
  " ta1 ye3 ": 7527,
  " gong4": 7528,
  " rong2 ": 7529,
  " luo4": 7530,
  "hen3 da4 ": 7531,
  "ku3 ": 7532,
  " gong4 you3 ": 7533,
  " gen1 ju4": 7534,
  "zhi4 zhong1 ": 7535,
  "bao4 fa1": 7536,
  " yin2 ": 7537,
  "zhu3 shi4 ": 7538,
  "   mei3 guo2 ": 7539,
  "ling3 xiu4 ": 7540,
  " han4": 7541,
  "ju4 jue2 ": 7542,
  "la1 ding1": 7543,
  " er2 bu2 shi4 ": 7544,
  "chuan2 shuo1 ": 7545,
  "hua4 he2 wu4 ": 7546,
  " rui4 ": 7547,
  "ren4 shi2 ": 7548,
  " kong3 ": 7549,
  "bao4 li4 ": 7550,
  "an1 zhuang1": 7551,
  "an1 na4 ": 7552,
  " yi1 xue2 ": 7553,
  "wo3 men ": 7554,
  "   li3 ": 7555,
  " pa4": 7556,
  "zhi4 bu4 ": 7557,
  "jia1 li4 fu2 ": 7558,
  "shu2 ": 7559,
  " you3 yi2 ge4 ": 7560,
  " xian4 xiang4 ": 7561,
  "shang4 ying4 ": 7562,
  "fa3 yu3 ": 7563,
  "wen2 yi4 ": 7564,
  "qiong2 ": 7565,
  " zai4 nei4 de ": 7566,
  " dian4 ying3 ": 7567,
  "gao1 su4 ": 7568,
  "chuang4 ban4": 7569,
  "1987 nian2 ": 7570,
  " zai4 du4 ": 7571,
  " er2 bu4 ": 7572,
  "ji4 shi4 ": 7573,
  "yuan4 shi4 ": 7574,
  " wei4 xing1 ": 7575,
  " li3 lun4": 7576,
  "yan2 shen1": 7577,
  "hai3 an4 ": 7578,
  "chuang4 jian4 ": 7579,
  "bin1 hai3 ": 7580,
  "shun4 li4 ": 7581,
  " dong1 bei3 ": 7582,
  " A ": 7583,
  "   ci3 wai4 ": 7584,
  " 2013 nian2 ": 7585,
  "lei2 si1 ": 7586,
  "ruan3 jian4 ": 7587,
  " sheng1 zhang3": 7588,
  " you2 qi2 shi4 ": 7589,
  "tui1 jin4 ": 7590,
  " he2 bu4 ": 7591,
  "shu1 ru4 ": 7592,
  "zi1 chan3 ": 7593,
  "lun4 wen2 ": 7594,
  " shu3": 7595,
  " xing2 zheng4": 7596,
  "nv3 xing4": 7597,
  "wang3 qiu2 ": 7598,
  "hai3 wai4 ": 7599,
  " na4": 7600,
  " wa3 ": 7601,
  " bu4 luo4 ": 7602,
  " da4 sha4": 7603,
  "1980 nian2 ": 7604,
  "zhu3 yi4 de ": 7605,
  "ping2 lun4 ": 7606,
  "zui4 gao1": 7607,
  " 2010": 7608,
  " ta3 ": 7609,
  "ying4 yong4": 7610,
  "cai3 qu3 ": 7611,
  " 50": 7612,
  " 2012": 7613,
  "jiao4 shi4 ": 7614,
  "zu1 ": 7615,
  "pai2 ming2 di4 ": 7616,
  " sai1 ": 7617,
  " 2006 nian2 ": 7618,
  "bian4 wei4 ": 7619,
  " bei3 jing1 ": 7620,
  "   qi2 ": 7621,
  "yu2 de ": 7622,
  "bo1 fang4 ": 7623,
  " tiao2 ": 7624,
  "ju4 he2 ": 7625,
  "san1 shi4 ": 7626,
  " zai4 xi1 ": 7627,
  "ren2 da4 ": 7628,
  " de2 er3 ": 7629,
  " hou4 xuan3 ren2 ": 7630,
  "bao4 gao4": 7631,
  "tou2 zi1": 7632,
  "ma3 li3 ": 7633,
  "ze2 ren4 ": 7634,
  "rao3 ": 7635,
  "fang1 mian4 de ": 7636,
  "yin3 qing2 ": 7637,
  "ge4 zhong3 ": 7638,
  "   N": 7639,
  " shi4 min2 ": 7640,
  " he2 da4 ": 7641,
  "dian4 zi": 7642,
  "ling3 di4 ": 7643,
  " zai4 ci4": 7644,
  "fan4 wei2 nei4 ": 7645,
  "   qian2 ": 7646,
  "   ju4 qing2 ": 7647,
  " ying2 ": 7648,
  "xiang1 shi4 di4 ": 7649,
  "zhe4 li3 ": 7650,
  " yu2 ren2 ": 7651,
  "zheng4 dang3 ": 7652,
  "shi4   ": 7653,
  " ri4 bao4 ": 7654,
  " ling4 yi1 ": 7655,
  "xing2 cheng2 ": 7656,
  "fa1 xing2 de ": 7657,
  " ji1 hu1 ": 7658,
  "zhi2 jie1": 7659,
  "7 nian2 ": 7660,
  " lai2": 7661,
  "feng1 wei4 ": 7662,
  "pai4 de ": 7663,
  "1982 nian2 ": 7664,
  " shi4 gu4 ": 7665,
  " zhi4 shao3 ": 7666,
  "biao3 da2 ": 7667,
  "wang3 luo4": 7668,
  " yong4 yu2 ": 7669,
  "yuan4 yi4 ": 7670,
  " ta1 he2 ": 7671,
  "ju4 le4 bu4 ": 7672,
  "   chu1 ": 7673,
  "du2 li4 de ": 7674,
  "6 nian2 ": 7675,
  "e2 guo2 ": 7676,
  " zhi1 fu4 ": 7677,
  "jiu3 long2 ": 7678,
  "dang1 xuan3 ": 7679,
  "   xian4 ": 7680,
  "he4 er3 ": 7681,
  "zi4 ran2": 7682,
  " you3 xiao4 ": 7683,
  "bu2 ": 7684,
  "wen1 du4 ": 7685,
  "xi4 bao1": 7686,
  "3 ren2 ": 7687,
  "1945 nian2 ": 7688,
  "1983 nian2 ": 7689,
  "ji4 cheng2 ": 7690,
  "dian4 nao3": 7691,
  "yun3 xu3": 7692,
  " yi1 xiao3 shi2 ": 7693,
  "jing3 cha2": 7694,
  "huo3 shan1 ": 7695,
  " da4 xi1 yang2 ": 7696,
  "guo4 qu4": 7697,
  "pai2 hang2 ": 7698,
  "E ": 7699,
  "an1 de2 ": 7700,
  "jiu4 du2": 7701,
  " dong1 lin2 ": 7702,
  "en ": 7703,
  "mian2 ": 7704,
  "zhi1 chi2": 7705,
  "fang3 wen4": 7706,
  "ming2 zi4 ": 7707,
  " zuo4 jia1 ": 7708,
  "dang3 yuan2 ": 7709,
  " da4 fu2 ": 7710,
  "qu1 yi4 hui4 ": 7711,
  "17 ": 7712,
  " de2 hua2 ": 7713,
  "2 ren2 ": 7714,
  " shuo1 ": 7715,
  " 2012 nian2 ": 7716,
  "huan4 cheng2 ": 7717,
  "biao3 yan3": 7718,
  "dou1 zai4 ": 7719,
  " di4 yi2 ge4 ": 7720,
  "xian4 zhi4 ": 7721,
  " yu3 mao2": 7722,
  " chu1 zhan4 ": 7723,
  "bi3 ya4": 7724,
  "   di4 fang1 ": 7725,
  " fan1 ": 7726,
  "xiang1 dang1": 7727,
  "fang1 yan2 ": 7728,
  "xi3 huan1": 7729,
  " bing4 bei4 ": 7730,
  "qu1 he2 ": 7731,
  " yi1 tong2 ": 7732,
  " zhong1 hua2 ren2 min2 gong4 he2 guo2 zheng4 zhi4 ren2 wu4 ": 7733,
  "ng   ": 7734,
  " shi4 yu2 ": 7735,
  "jing1 yan4 ": 7736,
  "xun2 yang2": 7737,
  "K ": 7738,
  "m   ": 7739,
  " jiu4 shi4 ": 7740,
  " ji4 suan4 ": 7741,
  "pu3 bian4 ": 7742,
  " sheng1 yu2 ": 7743,
  " zhong1 bei4 ": 7744,
  "guan1 dian3 ": 7745,
  "jiang4 di1 ": 7746,
  "ke1 de qi2 zhong1 yi1 zhong3 ": 7747,
  " gong1 yi4 ": 7748,
  " reng2": 7749,
  "han2 you3 ": 7750,
  "   2": 7751,
  "liang3 ming2 ": 7752,
  "dian3 li3 ": 7753,
  " shi4 gong1 ": 7754,
  "zhong4 duo1 ": 7755,
  "da4 zhi4 ": 7756,
  " bing4 du2": 7757,
  " qi2 zhong1 yi1 ": 7758,
  " neng2 ": 7759,
  "ya4 jun1 ": 7760,
  "she4 qu1 ": 7761,
  "kou3 wei4 ": 7762,
  "cheng2 yuan2 ": 7763,
  " xian4 shi4 ": 7764,
  "zhi1 qian2 ": 7765,
  "mi4 shu1 zhang3 ": 7766,
  " di4 si4": 7767,
  "zuo4 shi4 ": 7768,
  "tiao2 li4 ": 7769,
  "nei4 ge2 ": 7770,
  " ping2 jun1 ": 7771,
  "   2011": 7772,
  "shu4 yu3 ": 7773,
  "wu2 zheng4 zhuang4 ": 7774,
  " xian4 ren4 ": 7775,
  "tu1 po4 ": 7776,
  "xie3 dao4 ": 7777,
  "dang4 tian1 ": 7778,
  "yi2 du4 ": 7779,
  " zu3 fu4 ": 7780,
  "1 li4 ": 7781,
  " liu4": 7782,
  " xing2 wei4 ": 7783,
  " wan2 ": 7784,
  "in ": 7785,
  " gong1 min2 ": 7786,
  "xing1 deng3 wei4 ": 7787,
  " bi3 sai4 ": 7788,
  " tong2 yi4 ": 7789,
  "hong2 se4 ": 7790,
  "shan1 shi4 ": 7791,
  "kai1 shi3 zai4 ": 7792,
  "tuan2 de ": 7793,
  "gei3 le ": 7794,
  "she3 ": 7795,
  " ji1 jin1 ": 7796,
  "si3 wang2": 7797,
  "zheng3 ti3 ": 7798,
  " 500": 7799,
  "   ji2 ": 7800,
  "lu3 si1 ": 7801,
  "jue2 dui4 ": 7802,
  " quan2 li4 ": 7803,
  " zui4 chu1 ": 7804,
  "dai4 biao3 da4 hui4 ": 7805,
  " 7 ": 7806,
  "chi2 you3 ": 7807,
  "es ": 7808,
  "ying1 wen2 ": 7809,
  "zheng4 bu4 ": 7810,
  "gai4 nian4": 7811,
  " xin4 ": 7812,
  " gong1 ju4 ": 7813,
  "she4 shi1 ": 7814,
  " sun1": 7815,
  " da2": 7816,
  "   2010": 7817,
  "ben3 ren2 ": 7818,
  "yang2 shi4 ": 7819,
  " shi4 bing1 ": 7820,
  " zhe4 zhong3": 7821,
  "xia4 xia2 de yi2 ge4 ": 7822,
  " sui4 shi2 ": 7823,
  "   a1 ": 7824,
  " 0 ": 7825,
  "ni2 er3 ": 7826,
  " de cheng2 ji4 ": 7827,
  " 30 ": 7828,
  " ji2 ren2 ": 7829,
  "yi2 ding4 ": 7830,
  "jie4 shao4 ": 7831,
  "lai2 yue4 ": 7832,
  "bao3 shou3 ": 7833,
  "tou2 xiang2 ": 7834,
  "gui4 zu2 ": 7835,
  "yue4 zhong1 ": 7836,
  "zhi2 dao3 ": 7837,
  "zhen4 qu1 de ": 7838,
  "zao3 qi1": 7839,
  "bo2 shi4 xue2 wei4 ": 7840,
  "shan1 ji1 ": 7841,
  "huang2 hou4 ": 7842,
  "gua4 ": 7843,
  "qi3 dong4 ": 7844,
  " mei3 ge4 ": 7845,
  " U": 7846,
  "   qi2 ta1 ": 7847,
  "tang1 ": 7848,
  " wei2 er3": 7849,
  "yao1 qing3": 7850,
  "yi4 nian2 ": 7851,
  "gu3 dai4 ": 7852,
  "kui4 ": 7853,
  " ming2 dan1 ": 7854,
  "zhen3 ": 7855,
  " de2 yu3 ": 7856,
  "zhong3 zu2 ": 7857,
  " yi1 zuo4 ": 7858,
  " yi3 ji2": 7859,
  " er2 gai1 ": 7860,
  "hei1 se4 ": 7861,
  "   1 ": 7862,
  "ming2 ren2 ": 7863,
  " ren2 min2 zheng4 fu3 ": 7864,
  "en1 sheng3 ": 7865,
  "tou4 guo4": 7866,
  "1 ren2 ": 7867,
  " xiang3 nian2 ": 7868,
  "wu2 zheng4 zhuang4 gan3 ran3 ": 7869,
  "sui2 zhu4 ": 7870,
  "sa1 ": 7871,
  " 20": 7872,
  "huo2 yue4 ": 7873,
  "mu4 qian2": 7874,
  "chang2 wu4 ": 7875,
  "chang2 wei3 ": 7876,
  "que4 zhen3 bing4 li4 ": 7877,
  " er4 shi2 ": 7878,
  "ming2 zhi4 ": 7879,
  " ri4 yu2 ": 7880,
  "gai3 ming2 wei4 ": 7881,
  "chu1 shen1 ": 7882,
  "tong2 nian2 ": 7883,
  "dian4 hua4 ": 7884,
  "G ": 7885,
  " 2022": 7886,
  "   2 ": 7887,
  " bu4 si1 ": 7888,
  " ji1 si1 ": 7889,
  "tai4 zi ": 7890,
  "duo1 ren2 ": 7891,
  " bi3 ru2 ": 7892,
  "   gai1": 7893,
  "ke4 cheng2 ": 7894,
  "kun4 nan2 ": 7895,
  " bu4 li4 ": 7896,
  "zui4 duo1 ": 7897,
  "dan1 de ": 7898,
  "long2 de ": 7899,
  "tun2 ": 7900,
  "ti2 ji2 ": 7901,
  "geng4 wei2 ": 7902,
  "ru4 xuan3 ": 7903,
  " wei4 yu2 zhong1 guo2 ": 7904,
  "yi3 jing1 ": 7905,
  "que1 fa2": 7906,
  "sai1 er3 wei2 ": 7907,
  " yong4": 7908,
  "hui4 zhong1 ": 7909,
  "shou1 ji2 ": 7910,
  " li4 fa3": 7911,
  "xue2 hui4 ": 7912,
  " bing4 fei1 ": 7913,
  "hai3 xia2 ": 7914,
  "gou4 de ": 7915,
  "gong1 cheng2 ": 7916,
  " xi1 jie1 ": 7917,
  "ge1 lun2 ": 7918,
  "ng ": 7919,
  " ji1 chang3": 7920,
  "ju4 da4 ": 7921,
  "pai1 ": 7922,
  " cheng2 ren2 ": 7923,
  "fu4 ze2": 7924,
  "an1 na4": 7925,
  "zu2 qiu2 yun4 dong4 yuan2 ": 7926,
  "xie3 de ": 7927,
  "zhui1 su4": 7928,
  " yao1 qiu2 ": 7929,
  " 2014 nian2 ": 7930,
  " tong2 shi2 gai1 di4 ": 7931,
  " xi2 ": 7932,
  "zuo4 chu1 ": 7933,
  "bei1 si1 ": 7934,
  " ye3 zai4 ": 7935,
  "sheng3 de ": 7936,
  "ling4 ren2 ": 7937,
  "n   ": 7938,
  "hui4 zhi4 ": 7939,
  " de2 zhu3 ": 7940,
  "tao3 lun4": 7941,
  "gao1 su4 gong1 lu4 ": 7942,
  " yue1": 7943,
  " ji2 di4 ": 7944,
  "fan4 zui4 ": 7945,
  "nei4 lu4 sheng3 fen4 ": 7946,
  "an1 hui1 ": 7947,
  "ke1 xue2 jia1 ": 7948,
  "tu2 xing2 ": 7949,
  "pi1 zhun3": 7950,
  " bing4 du2 ": 7951,
  "jiang1 zai4 ": 7952,
  "di1 yu2 ": 7953,
  " po4 ": 7954,
  "zhu2 bu4 ": 7955,
  " de di4 er4 ": 7956,
  "shou4 de ": 7957,
  "shan1 de ": 7958,
  " shi4 yin1 wei4 ": 7959,
  " ke4 xi1 ": 7960,
  "lian2 he2 hui4 ": 7961,
  "ci4 de ": 7962,
  "chao1 yue4 ": 7963,
  "jie2 guo3": 7964,
  "tai2 nan2": 7965,
  "jian3 shao3": 7966,
  "qiang2 lie4 ": 7967,
  "3 ge4 ": 7968,
  " cha2": 7969,
  "xia4 ling4 shi2 jian1 ": 7970,
  "hai3 ping2 mian4 ": 7971,
  "bu2 dao4 ": 7972,
  " shi2 qi1 de ": 7973,
  " yuan2 xing2 ": 7974,
  " wan2 jia1 ": 7975,
  "ye3 zai4 ": 7976,
  " ji1 hui4 ": 7977,
  " xue2 yuan4": 7978,
  "yi2 ding4": 7979,
  "hui1 fu4": 7980,
  "guo4 de ": 7981,
  "ya4 mei3 ": 7982,
  "1972 nian2 ": 7983,
  " guo2 nei4 ": 7984,
  "bian1 jie4 ": 7985,
  "dong3 shi4 zhang3 ": 7986,
  "jia4 ge2 ": 7987,
  " jiao4 yu4 ": 7988,
  "pai4 qian3": 7989,
  "ti2 yi4 ": 7990,
  "shu1 zhong1 ": 7991,
  "xun1 zhang1 ": 7992,
  "zhu3 jiao4": 7993,
  "shi1 bai4 ": 7994,
  " hao4 de ": 7995,
  "zhu3 yao4 de ": 7996,
  "ni2 ya4 zhou1 ": 7997,
  " s": 7998,
  " hou4 bei4 ": 7999,
  " xue2 jia1 ": 8000,
  "liu2 xia4 ": 8001,
  "shuang1 fang1 ": 8002,
  "   bei4 jing3 ": 8003,
  "er2 tong2 ": 8004,
  " yi1 li4 ": 8005,
  "guan1 cha2 ": 8006,
  "fang1 fa3": 8007,
  "jia1 yi4 ": 8008,
  "1978 nian2 ": 8009,
  " bu4 dui4": 8010,
  " yi3 wei2 ": 8011,
  "   3": 8012,
  " zai4 shi2 ": 8013,
  "ti2 gong1 le ": 8014,
  "lian2 xu4": 8015,
  "xian4 de ": 8016,
  "qin1 zi4 ": 8017,
  " er2 zi ": 8018,
  "bei3 jing1 shi4 ": 8019,
  " 1950": 8020,
  " dian4 shi4 ": 8021,
  "1979 nian2 ": 8022,
  " you3 suo3 ": 8023,
  "zui4 gao1 de ": 8024,
  "hui4 yi4 yuan2 ": 8025,
  " mei2": 8026,
  "san1 jiao3": 8027,
  "ban3 ben3": 8028,
  "   di4 fang1 zi1 liao4 ": 8029,
  "ren4 wei4 ": 8030,
  "ma3 er3 ": 8031,
  "lan2 de ": 8032,
  "na2 xia4 ": 8033,
  "ping2 tai2 ": 8034,
  "fei1 chang2": 8035,
  "   jian3 jie4 ": 8036,
  "le zai4 ": 8037,
  "duo1 wei4 ": 8038,
  "zu3 fu4 ": 8039,
  " he2 yue1 ": 8040,
  " li4 liang4 ": 8041,
  " chu1 kou3 ": 8042,
  "shen2 me ": 8043,
  " ta1 ceng2 dai4 biao3 ": 8044,
  "bei4 de ": 8045,
  "pi3 ": 8046,
  " di4 li3 ": 8047,
  "nan2 bei3 ": 8048,
  "neng2 yuan2 ": 8049,
  "bian3 ": 8050,
  " di4 qi1 ": 8051,
  " xian4 fa3 ": 8052,
  "gai3 bian4": 8053,
  " hou4 zhe3 ": 8054,
  "que1 fa2 ": 8055,
  "tai2 zhong1 ": 8056,
  "di2 shi4 ": 8057,
  " zheng4 ming2 ": 8058,
  " shi2 ji4 shang4 ": 8059,
  "liao3 ": 8060,
  " cheng2 zhen4 ": 8061,
  "4 ren2 ": 8062,
  " su4 ": 8063,
  " 2015 nian2 ": 8064,
  "   1": 8065,
  "zi4 de ": 8066,
  "xuan3 zhong1 ": 8067,
  "di2 ren2 ": 8068,
  " li4 yi4 ": 8069,
  " shou3": 8070,
  "li3 he2 ": 8071,
  " jia3": 8072,
  "pai4 chu1 ": 8073,
  " mei3 yuan2 ": 8074,
  " zhong1 guo2 ren2 min2 jie3 fang4 jun1 ": 8075,
  "duo1 zhong3 ": 8076,
  "tan2 pan4 ": 8077,
  "liao2 ning2 ": 8078,
  "1976 nian2 ": 8079,
  " bu4 shao3 ": 8080,
  " si1 ta3 ": 8081,
  "1 nian2 ": 8082,
  " lu3 ": 8083,
  "ti2 chu1 de ": 8084,
  "sui2 ji2 ": 8085,
  "wan2 zheng3": 8086,
  "ying1 gai1 ": 8087,
  "tui4 xiu1 ": 8088,
  " da4 xue2 de ": 8089,
  "hai3 ba2 wei4 ": 8090,
  "ping2 wei4 ": 8091,
  "gan4 bu4 ": 8092,
  "lei3 ji4 ": 8093,
  " shi2 xing2 ": 8094,
  "ying1 ge2 lan2": 8095,
  "mian3 dian1": 8096,
  "dang1 zhong1 ": 8097,
  "jue2 yi4 ": 8098,
  "xu4 li4 ya4 ": 8099,
  "shang1 ren2 ": 8100,
  "biao1 ben3 ": 8101,
  "fa1 sheng1 zai4 ": 8102,
  "suo3 cai3 yong4": 8103,
  "zhi3 dao3 ": 8104,
  " ju4 jue2 ": 8105,
  "hua4 zhong1 ": 8106,
  "zan4 shi2 ": 8107,
  "zhuang1 jia3 ": 8108,
  "mei3 zhou1": 8109,
  "tiao4 ": 8110,
  " fu4 jin4": 8111,
  " zhong1 gong4 zhong1 yang1 ": 8112,
  "ci4 yu2 ": 8113,
  " yi4 qing2 ": 8114,
  "nong2 min2 ": 8115,
  "zi1 liao4": 8116,
  "yi2 dai4 ": 8117,
  " de2 ming2 ": 8118,
  "   yin1 ": 8119,
  "shui3 li4 ": 8120,
  "rong2 he2 ": 8121,
  " zhong1 guo2 de ": 8122,
  "xiu1 gai3 ": 8123,
  "fa1 ming2 ": 8124,
  "1958 nian2 ": 8125,
  " qi2 wei4 ": 8126,
  "zhi3 neng2 ": 8127,
  " ming2 zhi4 ": 8128,
  " gong1 zhong4 ": 8129,
  " chu2": 8130,
  "zhuan3 xiang4 ": 8131,
  "zhu3 yan3 ": 8132,
  "zi1 ben3 ": 8133,
  "a1 la1 bo2": 8134,
  " ba3": 8135,
  "xiang1 si4 ": 8136,
  "guan1 cha2": 8137,
  "jie1 chu4 ": 8138,
  " bei3 jing1": 8139,
  "kai1 she4 ": 8140,
  "xiu1 jian4 ": 8141,
  "zhong3 zi ": 8142,
  "jing4 ji4 ": 8143,
  "jie3 san4 ": 8144,
  " de shi4 jie4 ": 8145,
  "8 nian2 ": 8146,
  " 2016 nian2 ": 8147,
  "wu3 zhuang1": 8148,
  " cn": 8149,
  "dian4 ji1 ": 8150,
  "chai1 chu2 ": 8151,
  "kai1 tong1 ": 8152,
  "bao4 zha4 ": 8153,
  "ju3 ban4 de ": 8154,
  "fa1 qi3 ": 8155,
  "shen1 du4 ": 8156,
  "an1 pai2": 8157,
  " tang2": 8158,
  "qu1 shi4 ": 8159,
  "nu3 ": 8160,
  "wei2 si1 ": 8161,
  "tuan2 ti3": 8162,
  "ji1 gou4 ": 8163,
  "fu4 zhu3 ren4 ": 8164,
  "fa1 shou4 ": 8165,
  "zu3 zhi1 de ": 8166,
  "   qi2": 8167,
  " nian2 lai2 ": 8168,
  "feng1 xian3 ": 8169,
  "diao4 kuai4": 8170,
  "cheng2 he2 ": 8171,
  " wei4 da4 ": 8172,
  " yu3 qi2 ta1 ": 8173,
  "   I": 8174,
  "   dui4 ": 8175,
  "bian1 ju4 ": 8176,
  "zhang1 zhuan1 ji2 ": 8177,
  " Z": 8178,
  "jie2 de ": 8179,
  "zao4 le ": 8180,
  " wei4 UTC ": 8181,
  " bu4 ji2 ": 8182,
  " zhong1 shan1 ": 8183,
  "neng2 liang4 ": 8184,
  "shuai4 ling3": 8185,
  " cn ": 8186,
  " ge1": 8187,
  "ban4 shi4 chu4 ": 8188,
  "qiu2 ji4 ": 8189,
  "tiao2 zheng3": 8190,
  " xi1 ban1 ya2 ": 8191,
  "L ": 8192,
  "luo2 li3 ": 8193,
  "2025 nian2 ": 8194,
  "ge2 la1 ": 8195,
  "jiu4 du2 ": 8196,
  "diao4 kuai4 yi1 xiao3 shi2 ": 8197,
  "9 nian2 ": 8198,
  "ze2 zai4 ": 8199,
  " de ying3 xiang3 ": 8200,
  "ying1 xiong2 ": 8201,
  "shang1 ye4": 8202,
  "qiang2 diao4 ": 8203,
  " ji2 UTC ": 8204,
  "ke1 xue2 yuan4 ": 8205,
  "she4 you3 xia4 ling4 shi2 jian1 ": 8206,
  " de shi2 qu1 wei4 UTC ": 8207,
  " er2 gai1 di4 suo3 cai3 yong4": 8208,
  " tong2 shi2 gai1 di4 she4 you3 xia4 ling4 shi2 jian1 ": 8209,
  " er2 gai1 di4 suo3 cai3 yong4 de shi2 qu1 wei4 UTC ": 8210,
  " bai4 ": 8211,
  "xiao1 fei4 ": 8212,
  " tong2 yang4": 8213,
  "xin4 yang3 ": 8214,
  "ta1 men de ": 8215,
  "you2 ji1 ": 8216,
  "40 ": 8217,
  " da4 jiang3 ": 8218,
  "jiao4 tang2": 8219,
  "bao3 liu2": 8220,
  " ling4 you3 ": 8221,
  " yi1 si1 lan2 ": 8222,
  "yuan2 zhu4 ": 8223,
  "tai4 du4 ": 8224,
  "chuan2 bo1 ": 8225,
  " gai1 cun1 ": 8226,
  "suo3 zai4 di4 ": 8227,
  "que4 de ": 8228,
  "zhi1 jian1 de ": 8229,
  "   jiao1 tong1 ": 8230,
  "fa1 she4": 8231,
  " shi2 wu4 ": 8232,
  "ding4 ju1 ": 8233,
  " ma3 lai2": 8234,
  " li4 shi3 shang4 ": 8235,
  "gao1 yu2 hai3 ping2 mian4 ": 8236,
  " zheng1 ": 8237,
  "pei4 zhi4 ": 8238,
  " wei4 fu2 qi2 yu2 gang1 ": 8239,
  " huan4 ": 8240,
  "xing4 wei4 ": 8241,
  "zhu2 jian4": 8242,
  "kun4 ": 8243,
  " bu4 neng2": 8244,
  " gong1 jue2 ": 8245,
  " er3 duo1 ": 8246,
  " qi2 xia4 ": 8247,
  "   qing1 ": 8249,
  "wu4 he2 ": 8250,
  "hu4 xiang1 ": 8251,
  " dan1": 8252,
  "hui4 yu2 ": 8253,
  "chu4 de hai3 ba2 wei4 ": 8254,
  "chu4 de hai3 ba2 wei4 gao1 yu2 hai3 ping2 mian4 ": 8255,
  "hou4 wei4 ": 8256,
  " yin1 su4 ": 8257,
  "ti3 zhi4 ": 8258,
  "al ": 8259,
  "jing4 xuan3 ": 8260,
  "wu4 shi4 ": 8261,
  "qia4 ": 8262,
  " yu2 le4": 8263,
  "chang3 suo3 ": 8264,
  " zhi1 yi4 ": 8265,
  " he2 pan4 ": 8266,
  " bu4 jin3 ": 8267,
  " yi3 xi1 ": 8268,
  " ni3 ": 8269,
  "fa1 xian4 de ": 8270,
  "zhong4 shi4 ": 8271,
  "kuang2 ": 8272,
  " qi2 shi2 ": 8273,
  " sui2 zhu4 ": 8274,
  "   ma3 ": 8275,
  "nan2 jing1": 8276,
  "zhang3 da2 ": 8277,
  "yun4 shu1": 8278,
  " 2008": 8279,
  " lian2 he2 ": 8280,
  " 2017 nian2 ": 8281,
  "he2   ": 8282,
  "shu4 shi2 ": 8283,
  "nei4 di4 ": 8284,
  " xu1 ": 8285,
  "shi2 qu1 ": 8286,
  "gao1 xiong2": 8287,
  "jian4 cheng2 ": 8288,
  "geng1 xin1 ": 8289,
  "is   ": 8290,
  "chan2 ": 8291,
  " yi1 jia1 ": 8292,
  " xi1 lan2 ": 8293,
  "yun4 yong4 ": 8294,
  " zi4 ran2 ": 8295,
  "chong2 qing4": 8296,
  " dai4": 8297,
  " hu2": 8298,
  " zheng4 zhi4 ": 8299,
  " xie4 ": 8300,
  "lu4 zhi4 ": 8301,
  "bi4 ye4 hou4 ": 8302,
  "   ran2": 8303,
  "er4 ji2 ": 8304,
  "bian1 hao4 ": 8305,
  " li4 ren4 ": 8306,
  "shan1 feng1 ": 8307,
  " wei4 yu2 gai1 ": 8308,
  "wei2 er3 ": 8309,
  "zhi2 zheng4 ": 8310,
  "dian4 qi4 ": 8311,
  " 8 ": 8312,
  "zhe3 shi4 ": 8313,
  "wang2 shi4 ": 8314,
  " zuo4 chu1 ": 8315,
  " yi2": 8316,
  "xia2 qu1 ": 8317,
  "   ben3": 8318,
  "ceng2 wei4 ": 8319,
  "bao1 wei2 ": 8320,
  "bang4 qiu2 ": 8321,
  "xue2 yuan2 ": 8322,
  "cuo4 wu4 ": 8323,
  " di4 qiu2": 8324,
  "jin1 rong2 ": 8325,
  "xiao4 qu1 ": 8326,
  " yu4 shi3 ": 8327,
  "xuan1 chuan2": 8328,
  "dong1 fang1 ": 8329,
  " Ma": 8330,
  "hou4 yi4 ": 8331,
  "bei3 shi4 ": 8332,
  "jing1 chang2": 8333,
  " ran2 er2": 8334,
  " ting2 ": 8335,
  "jiu4 hui4 ": 8336,
  " jie2 ke4 ": 8337,
  " si1 ke1 ": 8338,
  " dui4 shou3 ": 8339,
  " xing2 zheng4 qu1 ": 8340,
  "zhen4 qu1 de mian4 ji1 wei4 ": 8341,
  " zhou1 ci4 shi3 ": 8342,
  " sheng1 ya2 ": 8343,
  " fa1 xing2 ": 8344,
  "jia1 yi3 ": 8345,
  "ju2 de ": 8346,
  " bai3": 8347,
  "fu2 de ": 8348,
  "ma3 ke4 ": 8349,
  " ta1 yi3 ": 8350,
  " yuan2 zi4 ": 8351,
  " li3 xi1 ": 8352,
  "zao4 cheng2 de ": 8353,
  "zhi2 min2 ": 8354,
  " 2023": 8355,
  " qin1 ": 8356,
  "ping2 lun4": 8357,
  "fu1 ka3 ": 8358,
  " fu2 wu4 ": 8359,
  " dang1 shi2 de ": 8360,
  "ao4 zhou1 ": 8361,
  "ke3 zai4 ": 8362,
  " yi1 ju4 ": 8363,
  " gan3 ": 8364,
  "ji4 you3 ": 8365,
  "shi3 jian4 yu2 ": 8366,
  "ren4 de ": 8367,
  "ye3 bei4 ": 8368,
  "mian4 shang4 ": 8369,
  "shuai1 ": 8370,
  "gong1 gong4 ": 8371,
  " si1 ke4": 8372,
  " er2 tong2 ": 8373,
  " fa1 xian4 ": 8374,
  " 2018 nian2 ": 8375,
  "ming2 shi4 ": 8376,
  "ban4 de ": 8377,
  " xue2 zhe3 ": 8378,
  "H ": 8379,
  "pao3 ": 8380,
  " jian4 she4": 8381,
  " wei2 rao4": 8382,
  " ye3 bei4 ": 8383,
  "qian1 shu3 ": 8384,
  " qi2 zhong1 bao1 kuo4 ": 8385,
  "jia1 zai4 ": 8386,
  " 2009": 8387,
  "tu1 ran2 ": 8388,
  "hai3 yang2 ": 8389,
  "ji1 zai4 ": 8390,
  "lai2 yin1 ": 8391,
  "jun4 gong1 ": 8392,
  " ji2 da4 ": 8393,
  " de2 zhi1 ": 8394,
  " ji1 jin1 hui4 ": 8395,
  "xiao4 li4 yu2 ": 8396,
  " 2019 nian2 ": 8397,
  "ji4 nian4": 8398,
  "qi4 che1": 8399,
  "ling4 yi2 ge4 ": 8400,
  "xiao1 shi1 ": 8401,
  " sha1": 8402,
  " wei4 dui4 ": 8403,
  "ru2 guo3 ": 8404,
  "dang1 di4 de ": 8405,
  "jiang4 ling3 ": 8406,
  " 19": 8407,
  "yan2 hai3 ": 8408,
  "tao2 tai4 ": 8409,
  "wei3 yuan2 hui4 wei3 yuan2 ": 8410,
  " xian1": 8411,
  " yun2 ": 8412,
  " li3 ya4 ": 8413,
  "tian2 jing4 ": 8414,
  " xing1": 8415,
  " 2 yue4 ": 8416,
  "   jin3 ": 8417,
  "ping2 yuan2 ": 8418,
  "bei4 jing3 ": 8419,
  "ka3 luo2 ": 8420,
  "   sheng4 ": 8421,
  "jin4 bu4 ": 8422,
  "ding4 yu2 ": 8423,
  "er4 ren2 ": 8424,
  "liang3 guo2 ": 8425,
  "te4 ding4 ": 8426,
  "fen4 zi3": 8427,
  " ci4 nian2 ": 8428,
  "da4 bu4 ": 8429,
  "dui4 qi2 ": 8430,
  " qi2 de ": 8431,
  " de bu4 fen4 ": 8432,
  "zhi2 min2 di4 ": 8433,
  " e4 ": 8434,
  "jiao4 da4 ": 8435,
  " zhi4 zuo4 de ": 8436,
  " ji1 du1 ": 8437,
  "dian4 nao3 ": 8438,
  "gai3 zao4 ": 8439,
  "chuan2 tong3 de ": 8440,
  " chong1 ": 8441,
  "shou3 zhong1 ": 8442,
  "deng3 ji2 ": 8443,
  "sheng1 ya2": 8444,
  " bu4 bu4 zhang3 ": 8445,
  "guan1 jian4 ": 8446,
  "jing1 shen2": 8447,
  " qian2 wang3 ": 8448,
  "dian3 shi4 ": 8449,
  "yi4 shu4 ": 8450,
  "quan2 mian4 ": 8451,
  " dian4 ying3": 8452,
  "mo4 xi1 ge1 ": 8453,
  " xian2 ": 8454,
  "zhen4 de ": 8455,
  "tui1 chu1": 8456,
  "1968 nian2 ": 8457,
  "guo2 jia1": 8458,
  " di4 tie3": 8459,
  " xian4 yi3 ": 8460,
  " ji1 chu3": 8461,
  " ju4 li2": 8462,
  "li2 kai1": 8463,
  "mu4 de ": 8464,
  " luo2 ma3 ": 8465,
  " gen1 ": 8466,
  "   nan2 ": 8467,
  " shi2 duan4 ": 8468,
  "jie1 duan4": 8469,
  "liang3 ci4 ": 8470,
  "ai4 er3 lan2 ": 8471,
  "san1 ming2 ": 8472,
  "hun1 yin1 ": 8473,
  "tou ": 8474,
  "da4 lu4": 8475,
  " yi4 yu2 ": 8476,
  "shu1 yuan4 ": 8477,
  " shan1 dong1 ": 8478,
  "a1 la1 bo2 ": 8479,
  " liu4 ": 8480,
  " you2 ji1 ": 8481,
  "wen2 de ": 8482,
  "bo1 si1 ": 8483,
  "hui4 zhang3 ": 8484,
  "man3 zu2 ": 8485,
  " za2 zhi4 ": 8486,
  "qi1 wei4 ": 8487,
  " di4 dian3 ": 8488,
  "jing4 zheng1 ": 8489,
  "cai2 neng2 ": 8490,
  "xin1 cheng2 ": 8491,
  "liang3 wei4 ": 8492,
  "pei4 yin1 ": 8493,
  "se ": 8494,
  "zheng4 ju4 ": 8495,
  " wu2 fa3 ": 8496,
  "lian2 de ": 8497,
  "xiu1 fu4 ": 8498,
  " bing4 you2 ": 8499,
  "la1 ji1 ": 8500,
  "kao4 jin4 ": 8501,
  " di4 dai4 ": 8502,
  " li4 shi2 ": 8503,
  "hu4 lian2 ": 8504,
  "jie3 fang4 ": 8505,
  "nei4 zhan4 ": 8506,
  "bo1 shi4 ": 8507,
  " wei2 chi2": 8508,
  "chu1 ban3": 8509,
  "zai1 pei2 ": 8510,
  "ne ": 8511,
  " shi4 de2 guo2 ": 8512,
  "dui4 zhang3 ": 8513,
  "fa1 qi3": 8514,
  "ju1 zhu4 zai4 ": 8515,
  "zao3 zai4 ": 8516,
  "bing4 bu4 ": 8517,
  "shou3 xiang4 ": 8518,
  "shan1 qu1 ": 8519,
  "zu2 qiu2 ju4 le4 bu4 ": 8520,
  " kou3 ": 8521,
  " B ": 8522,
  "juan4 ": 8523,
  "jiao1 liu2": 8524,
  " guo2 wu4 yuan4 ": 8525,
  "li3 cheng2 ": 8526,
  "wei3 fu4 ": 8527,
  "zhe4 shi4 ": 8528,
  "qi3 yuan2 ": 8529,
  "gou3 ": 8530,
  "cun1 luo4 ": 8531,
  "fu1 de ": 8532,
  "1970 nian2 ": 8533,
  "ji1 chu3": 8534,
  " da4 lou2": 8535,
  "yan2 se4 ": 8536,
  "xiang4 zheng1 ": 8537,
  " wei2 si1 ": 8538,
  "tian1 ti3 ": 8539,
  "dou1 bei4 ": 8540,
  " bu4 bing1 ": 8541,
  " yu3 yan2": 8542,
  "   di4 er4 ": 8543,
  " 28": 8544,
  " 2004 nian2 ": 8545,
  "liu4 shi2 ": 8546,
  " zhi4 liang4 ": 8547,
  " zhou1 fu3 ": 8548,
  " can1 yu4 ": 8549,
  "   17": 8550,
  "lang2 zhong1 ": 8551,
  " yi1 yuan4": 8552,
  " xing2 mu4 ": 8553,
  "shen2 me": 8554,
  " ding1 ": 8555,
  "xing4 he2 ": 8556,
  " yi3 wai4 ": 8557,
  "chang2 du4 ": 8558,
  "luo4 fa2": 8559,
  "la ": 8560,
  " zhi4 di4 ": 8561,
  " yu3 yi1 ": 8562,
  "wu2 zheng4 zhuang4 gan3 ran3 zhe3 ": 8563,
  " yi4 shi4 ": 8564,
  "   2008": 8565,
  "liang4 wei4 ": 8566,
  "mu3 de ": 8567,
  " de2 si1 ": 8568,
  "h ": 8569,
  " 2020 nian2 ": 8570,
  "shou1 gou4 ": 8571,
  "zui4 chu1": 8572,
  "xie3 zuo4 ": 8573,
  "meng4 jia1 ": 8574,
  " bao3": 8575,
  "te4 xing4 ": 8576,
  "shi1 qu4": 8577,
  " wei4 yu2 mei3 guo2 ": 8578,
  "jia3 di4 ": 8579,
  " zui4 jia1 ": 8580,
  "   Ma": 8581,
  "fu4 he2 ": 8582,
  "chuang2 ": 8583,
  "tai4 yang2": 8584,
  "ao4 men2": 8585,
  "fu2 li4 ": 8586,
  "ge2 shi4 ": 8587,
  "1956 nian2 ": 8588,
  " xian4 ji2 ": 8589,
  "suo3 de ": 8590,
  "zhuan4 de ": 8591,
  "zong1 yi4 ": 8592,
  "zi4 mu3 ": 8593,
  "ling2 chen2 ": 8594,
  "zhi2 ye4 sheng1 ya2 ": 8595,
  "suo3 wei4 ": 8596,
  "tou4 lu4 ": 8597,
  "dong1 bei3": 8598,
  " yi2 ge4": 8599,
  "5 ren2 ": 8600,
  "ou3 xiang4 ": 8601,
  "kao3 shi4 ": 8602,
  " fu2 jian4 ": 8603,
  "   ge4 ren2 ": 8604,
  "jue2 shi4 ": 8605,
  "zong3 ren2 kou3 ": 8606,
  "si ": 8607,
  " di4 fang1": 8608,
  " xian4 cheng2 ": 8609,
  " li3 ke4 ": 8610,
  " de2 la1 ": 8611,
  "kong1 qi4 ": 8612,
  " nuo4 ": 8613,
  "na4 de ": 8614,
  "fen2 ": 8615,
  "zuo4 wei2": 8616,
  "zhu3 zhang1 ": 8617,
  "xi1 he2 ": 8618,
  "ping2 de ": 8619,
  "1960 nian2 ": 8620,
  "xi1 nan2 ": 8621,
  " tai4": 8622,
  "hui2 yi4 ": 8623,
  "1920 nian2 ": 8624,
  "1981 nian2 ": 8625,
  " yi3 zai4 ": 8626,
  " ye3 ke3 yi3 ": 8627,
  "pu2 tao2 ya2 ": 8628,
  "   ren2 ": 8629,
  "1964 nian2 ": 8630,
  " zuo4 zhan4 ": 8631,
  " ku4 ": 8632,
  "   Re": 8633,
  "qi1 shi2 ": 8634,
  "zou3 xiang4 ": 8635,
  " yi3 yu2 ": 8636,
  " cheng2 ke4 ": 8637,
  "su1 ge2 lan2 ": 8638,
  " zhen1": 8639,
  "guo4 le ": 8640,
  "che1 dui4 ": 8641,
  " er3 shi4 ": 8642,
  " diao4 ": 8643,
  " xiao3 shi2 ": 8644,
  " sun1 ": 8645,
  "nan2 de ": 8646,
  "hu4 bu4 ": 8647,
  " di4 tu2 ": 8648,
  " yuan2 ben3": 8649,
  " chu1 dao4 ": 8650,
  "yin4 ni2 ": 8651,
  " 2007": 8652,
  " se4 ": 8653,
  " 2021 nian2 ": 8654,
  "wu3 shi4 ": 8655,
  "shou1 dao4 ": 8656,
  "wa3 er3 sheng3 ": 8657,
  "guan3 zhi4 ": 8658,
  "gu3 li4 ": 8659,
  "fei2 ": 8660,
  " gong1 li3 de ": 8661,
  "xin4 yang3": 8662,
  "zhu3 yi4 zhe3 ": 8663,
  " 24": 8664,
  "tou1 ": 8665,
  " wei4 yuan2 ": 8666,
  "guo4 du4 ": 8667,
  "ou3 ": 8668,
  "yan2 ren2 ": 8669,
  "luo4 cheng2 ": 8670,
  "xian3 zhu4 ": 8671,
  "ba ": 8672,
  "guo2 wu4 ": 8673,
  "shi3 shang4 ": 8674,
  "guang3 chang3": 8675,
  "xun2 zhao3": 8676,
  " shi2 yan4 shi4 ": 8677,
  " si1 ling4 bu4 ": 8678,
  " kai3": 8679,
  "shi3 ren2 ": 8680,
  "bi4 de ": 8681,
  "mai4 ke4 ": 8682,
  " di4 liu4 ": 8683,
  "wang4 yuan3 ": 8684,
  "   yue4 ": 8685,
  "xi1 di4 ": 8686,
  "xiu1 dao4 ": 8687,
  "hun2 ": 8688,
  " da4 gong1 ": 8689,
  " fu4 jin4 de ": 8690,
  "si4 de ": 8691,
  "ceng2 yu2 ": 8692,
  "shou3 du1": 8693,
  "ge2 li2 ": 8694,
  "shao4 nv3 ": 8695,
  "   2009": 8696,
  "yu2 he2 ": 8697,
  "jiang1 yu2 ": 8698,
  "dong1 jing1": 8699,
  "zhuan1 ye4": 8700,
  " zu2 ": 8701,
  "di4 he2 ": 8702,
  "yan2 zhi4 ": 8703,
  "du4 he2 ": 8704,
  "fang4 zai4 ": 8705,
  " ji2 shi3 ": 8706,
  "jian1 yu4 ": 8707,
  "mian3 fei4 ": 8708,
  "jiao3 du4 ": 8709,
  "zuo3 yi4 ": 8710,
  " cheng2 ben3 ": 8711,
  "wei2 zhu3 ": 8712,
  "fan3 hui2": 8713,
  " dang3 ": 8714,
  "1948 nian2 ": 8715,
  "bei4 cheng1 wei2 ": 8716,
  " xing2 dong4": 8717,
  "deng3 deng3 ": 8718,
  "cai3 qu3": 8719,
  "guan3 li3 ju2 ": 8720,
  " xie4": 8721,
  "tai2 bei3 shi4 ": 8722,
  " jue2 ding4 ": 8723,
  "1975 nian2 ": 8724,
  " yue4 dui4 ": 8725,
  " she4 yu2 ": 8726,
  " jun1 qu1 ": 8727,
  "bi4 mian3": 8728,
  "kong1 jian1": 8729,
  "xing2 tai4 ": 8730,
  "   dang1 ": 8731,
  "she4 bei4 ": 8732,
  "xiang1 shi4 ": 8733,
  "ka3 si1 ": 8734,
  "cai3 fang3": 8735,
  "shan1 xian4 ": 8736,
  " er2 fei1 ": 8737,
  "gai3 shan4 ": 8738,
  "fei4 chu2 ": 8739,
  "st   ": 8740,
  "li3 lun4": 8741,
  "xi1 bei3 ": 8742,
  "zheng4 fu3 de ": 8743,
  " 35": 8744,
  "shang4 di4 ": 8745,
  "dao3 shang4 ": 8746,
  " zai4 he2 ": 8747,
  " ke4 er3 ": 8748,
  " shen2": 8749,
  " feng4 ": 8750,
  "ci3 tong2 shi2 ": 8751,
  "luo4 shan1 ji1 ": 8752,
  " 2002 nian2 ": 8753,
  "   si1 ": 8754,
  "kai1 gong1 ": 8755,
  "tong1 zhi1 ": 8756,
  "xiang1 guan1 de ": 8757,
  "bo1 li2 ": 8758,
  "jia4 shi3 ": 8759,
  " fen1 bie2 ": 8760,
  " cai4": 8761,
  " mi4 ": 8762,
  "jiu4 yuan2 ": 8763,
  " de ju4 ": 8764,
  "   zheng4 ": 8765,
  "1952 nian2 ": 8766,
  " di4 yi1 ci4": 8767,
  "7 ren2 ": 8768,
  " yong3": 8769,
  "   de   ": 8770,
  "he2 zai4 ": 8771,
  "ye3 hui4 ": 8772,
  "wa2 ": 8773,
  " zhi1 shi4 ": 8774,
  "hai3 an4": 8775,
  "ci2 zhi2 ": 8776,
  "hen3 kuai4 ": 8777,
  "e2 luo2 si1 de ": 8778,
  "shang4 xian4 ": 8779,
  " ren2 da4 ": 8780,
  " yi4 jian4 ": 8781,
  " pu3": 8782,
  " wei4 zai4 ": 8783,
  "xi3 huan1 ": 8784,
  " 60": 8785,
  " xu4 ": 8786,
  "kou3 de ": 8787,
  "zheng1 yue4 ": 8788,
  "ti4 dai4 ": 8789,
  "chu4 zhang3 ": 8790,
  "chong1 tu1": 8791,
  " kai3 ": 8792,
  "   ba1 ": 8793,
  "qiang2 zhi4 ": 8794,
  " shi2 xian4": 8795,
  "jian1 du1 ": 8796,
  "ying3 shi4 ": 8797,
  "ci2 de ": 8798,
  "huai4 ": 8799,
  "ti2 chu1 le ": 8800,
  "wai4 jiao1 bu4 ": 8801,
  "z ": 8802,
  "xue2 zhong1 ": 8803,
  " ge4 guo2 ": 8804,
  "yin3 yong4 ": 8805,
  "min2 zhu3 dang3": 8806,
  "shan1 di4 ": 8807,
  "jiu3 de ": 8808,
  "jin3 you3 ": 8809,
  "ji4 suan4": 8810,
  " lei2": 8811,
  " e2 ": 8812,
  " suo1 ": 8813,
  "feng1 fu4 ": 8814,
  " zhu3 yan3 ": 8815,
  " fa3": 8816,
  "si1 shi4 ": 8817,
  "nuo2 wei1": 8818,
  "   in   ": 8819,
  "   gu4 shi4 ": 8820,
  " si1 ma3 ": 8821,
  " ge4 zhong3": 8822,
  " hao4 xian4": 8823,
  "zhang3 guan1 ": 8824,
  "zong1 jiao4": 8825,
  "xiao3 xing2 xing1": 8826,
  "   fu4 ": 8827,
  " shi2 hou4 ": 8828,
  "mo4 xi1 ge1": 8829,
  "qiang2 de ": 8830,
  " you3 xie1": 8831,
  "pu3 bian4": 8832,
  "bu4 de cun1 zhuang1 ": 8833,
  "   yi3 xia4": 8834,
  "2 ge4 ": 8835,
  "V ": 8836,
  " 26": 8837,
  "guan3 de ": 8838,
  "zan4 zhu4 ": 8839,
  "yin4 shua1": 8840,
  " chuan1 ": 8841,
  "cu4 jin4 ": 8842,
  " yue4 lai2 yue4 ": 8843,
  "liu2 yu4 ": 8844,
  " pa4 ": 8845,
  "gu3 lao3": 8846,
  "ma3 lai2 xi1 ya4": 8847,
  "   wei2 ": 8848,
  "ta1 zai4 ": 8849,
  "jiang4 yu3 ": 8850,
  "liao3 jie3 ": 8851,
  "jia1 ting2 ": 8852,
  " zu2": 8853,
  " cai3 yong4 ": 8854,
  "fu4 shi4 ": 8855,
  "lie4 chu1 ": 8856,
  "kou4 ": 8857,
  " cheng2 xian4": 8858,
  " zhi1 di4 ": 8859,
  "jing1 dian3 ": 8860,
  "che1 xiang1 ": 8861,
  " dan4 bai2 ": 8862,
  "a1 gen1 ": 8863,
  "ce4 liang2 ": 8864,
  "tian1 hou4 ": 8865,
  "yun3 shi2 ": 8866,
  " xian4 shang4 ": 8867,
  "qiang2 du4 ": 8868,
  "su1 wei2 ": 8869,
  "guan4 jun1": 8870,
  "st ": 8871,
  " bu4 shao3": 8872,
  " zhi1 jia1 ": 8873,
  "can1 xuan3 ": 8874,
  " ni3": 8875,
  " ke4 he2 ": 8876,
  "lie4 ru4 ": 8877,
  "bi4 mian3 ": 8878,
  "   4": 8880,
  " xiang1 dang1": 8881,
  "tong2 xing4 ": 8882,
  "ting2 che1 ": 8883,
  "zao3 shang4 ": 8884,
  "1966 nian2 ": 8885,
  "zhu3 ti2": 8886,
  "fa1 dong4 ji1 ": 8887,
  "sen1 lin2": 8888,
  " fu4 ze2 guan3 xia2 ": 8889,
  "ao4 er3 ": 8890,
  "la1 de ": 8891,
  "ming2 dan1 ": 8892,
  "zhan4 tai2 ": 8893,
  "guo2 shi4 ": 8894,
  "hu1 yu4 ": 8895,
  " gong1 ying4 ": 8896,
  "jian1 ren4 ": 8897,
  "xuan3 ju3 zhong1 ": 8898,
  " kuan1 ": 8899,
  " yi1 zhi2 ": 8900,
  "guan1 fang1": 8901,
  "suo3 you3 de ": 8902,
  "jian4 zhu4": 8903,
  "di1 qi4 ": 8904,
  " ba3 ": 8905,
  "cai2 liao4": 8906,
  "   zeng1 zu3 ": 8907,
  "6 ren2 ": 8908,
  " kao3 ": 8909,
  "sao1 ": 8910,
  "nan2 zi": 8911,
  "bo2 lin2 ": 8912,
  "jing3 gao4 ": 8913,
  "ti3 yu4 chang3 ": 8914,
  "guang3 zhou1": 8915,
  "Windows   ": 8916,
  "la1 de2 ": 8917,
  "shu1 chu1 ": 8918,
  "1937 nian2 ": 8919,
  " gong1 neng2": 8920,
  "N ": 8921,
  "lan2 xi1 ": 8922,
  "dun4 de ": 8923,
  " bu4 man3 ": 8924,
  " qiu2 de ": 8925,
  "yin2 pai2 ": 8926,
  "yao2 gun3": 8927,
  "lian2 jie1": 8928,
  "yin3 ru4 ": 8929,
  "zhao4 pian1 ": 8930,
  " er2 gai1 di4 de ": 8931,
  " ye4": 8932,
  " jie1": 8933,
  "hai2 zai4 ": 8934,
  "nuo2 wei1 ": 8935,
  " nian2 qing1 ": 8936,
  "guo2 wang2 ": 8937,
  " yu3 qi2 ": 8938,
  "qi1 zi3": 8939,
  " 29": 8940,
  " shun4": 8941,
  "chuang4 zuo4 de ": 8942,
  "xu4 li4 ya4": 8943,
  "an1 zhuang1 ": 8944,
  "zao3 qi1 de ": 8945,
  "shi2 he2 ": 8946,
  "tu2 de ": 8947,
  "nu4 ": 8948,
  "you1 xiu4": 8949,
  "mou3 xie1": 8950,
  "1946 nian2 ": 8951,
  "1974 nian2 ": 8952,
  " ji4 lu4": 8953,
  " chu1 yan3 ": 8954,
  "zhi1 shi2 ": 8955,
  "xia4 zai4 ": 8956,
  "qiu2 hui4 ": 8957,
  "ceng2 de ": 8958,
  " bei4 er3": 8959,
  "zhan4 di4 ": 8960,
  "zao1 yu4 ": 8961,
  " wei4 neng2": 8962,
  " jia1 ting2": 8963,
  "xia4 lai2 ": 8964,
  "shen1 qing3": 8965,
  "zhan4 shi2 ": 8966,
  " he2 gu3 ": 8967,
  " cheng2 le ": 8968,
  " yi3 qian2 ": 8969,
  " ji4 yi4 ": 8970,
  " ke4 li4 ": 8971,
  "gu3 la1 ": 8972,
  "   for": 8973,
  "   In": 8974,
  "fei1 xing2": 8975,
  "bian1 yuan2 ": 8976,
  "mo4 er3 ": 8977,
  "niang2 ": 8978,
  "fa1 sheng1 de ": 8979,
  " xiang1 tong2 ": 8980,
  " yi3 se4 lie4 ": 8981,
  "te4 li4 ": 8982,
  "1954 nian2 ": 8983,
  " shi2 bao4 ": 8984,
  "xing1 qi1": 8985,
  "4 ge4 ": 8986,
  " fou3": 8987,
  "qian2 hou4 ": 8988,
  "shan1 dong1 sheng3 ": 8989,
  " zhao1 he2 ": 8990,
  "zu3 de ": 8991,
  "zhong1 yang1 ": 8992,
  " dui4 ci3 ": 8993,
  " zhi3 zai4 ": 8994,
  "   gai4 yao4 ": 8995,
  " 2006": 8996,
  "dui4 yuan2 ": 8997,
  "san1 da4 ": 8998,
  " de zhu3 yao4 ": 8999,
  "shi1 qu4 ": 9000,
  "tai4 kong1 ": 9001,
  " zi4 you2": 9002,
  " mo2": 9003,
  " qing3 ": 9004,
  "yu2   ": 9005,
  " jun1 di4 ": 9006,
  " sheng1 ming2 ": 9007,
  " song4": 9008,
  " 2000 nian2 ": 9009,
  "   to   ": 9010,
  "zha4 dan4 ": 9011,
  " wai4": 9012,
  "wang3 shang4 ": 9013,
  "ta3 er3 ": 9014,
  " di4 zhen4 ": 9015,
  "xia4 jiang4 ": 9016,
  " shou3 ci4 ": 9017,
  "ling3 dao3 de ": 9018,
  "yan2 jiu1 sheng1 ": 9019,
  "te4 er3 ": 9020,
  "bao3 de ": 9021,
  " xian4 you3 ": 9022,
  " yuan2 yin1": 9023,
  " 000 ": 9024,
  "wu1 si1 ": 9025,
  "hao3 ping2 ": 9026,
  "pu4 ": 9027,
  "zhai1 ": 9028,
  " zhong1 jian1 ": 9029,
  "pu3 cha2 ": 9030,
  " cai2": 9031,
  "duo1 ci4": 9032,
  " ji2 bing4 ": 9033,
  " guan3 ": 9034,
  "tong2 ming2 ": 9035,
  "te4 you3 ": 9036,
  "bian1 wei4 ": 9037,
  "bo2 jue2 ": 9038,
  " wei1 lian2 ": 9039,
  "v ": 9040,
  " xian1 hou4 ": 9041,
  "mi3 de ": 9042,
  " xing2 bu4 ": 9043,
  "qin1 wang2 ": 9044,
  "kuai4 su4": 9045,
  "cun2 de ": 9046,
  "dian4 shi4 tai2": 9047,
  " guang3 dong1 ": 9048,
  "qing2 de ": 9049,
  " shi4 yi1 bu4 ": 9050,
  " xin1 zeng1 ": 9051,
  "gai3 zhi4 wei4 ": 9052,
  "hui2 gui1 ": 9053,
  "   di4 yi1 ": 9054,
  " tui1 ": 9055,
  "gang3 yuan2 ": 9056,
  "1955 nian2 ": 9057,
  "fei4 yan2 ": 9058,
  "shi1 gong1 ": 9059,
  "fen3 si1 ": 9060,
  "zhui4 ": 9061,
  "zhi3 kong4 ": 9062,
  "mi4 de ": 9063,
  "xun1 ": 9064,
  "beng1 ": 9065,
  "che1 liang4": 9066,
  "zan4 ting2 ": 9067,
  "shen1 shi4 ": 9068,
  "da2 zhou1 ": 9069,
  "ying3 xiang4 ": 9070,
  "fang1 mi3 ": 9071,
  " zi4 dong4 ": 9072,
  " de hua4 ": 9073,
  "da4 qu1 ": 9074,
  "sheng3 jie1 rang3 ": 9075,
  "zai4   ": 9076,
  "san1 ren2 ": 9077,
  "san1 ge4": 9078,
  "te4 zheng1": 9079,
  "zhe3 he2 ": 9080,
  " jie2 shu4 ": 9081,
  " zui4 da4 ": 9082,
  " 45": 9083,
  "wu3 ge4 ": 9084,
  " zhe4 yang4 ": 9085,
  " jin4 zhi3 ": 9086,
  "rui4 dian3 ": 9087,
  " mai4 ke4 ": 9088,
  " 25": 9089,
  " mao2 ": 9090,
  " bu4 yi1 ": 9091,
  " ping2 lun4 ": 9092,
  "jing4 nei4 gong4 you3 ": 9093,
  "lu4 yi4 si1 ": 9094,
  "si4 shi4 ": 9095,
  "tai4 de ": 9096,
  "zhan3 lan3 ": 9097,
  " shui3": 9098,
  "   jin1 ": 9099,
  "you2 xing2 ": 9100,
  "pei4 bei4 ": 9101,
  " nian2 ling2 ": 9102,
  " she4 hui4 zhu3 yi4 ": 9103,
  " guo1": 9104,
  " shan4 ": 9105,
  "zhe3 hui4 ": 9106,
  "huang1 ": 9107,
  " shi4 yi1 ke1 ": 9108,
  " shuang1 fang1 ": 9109,
  " zai4 yi4 qi3 ": 9110,
  "shi3 yu2 ": 9111,
  "la1 he2 ": 9112,
  "hui2 guo2 ": 9113,
  " bu4 lai2 ": 9114,
  " shi2 xing4 ": 9115,
  " ji4 zai3": 9116,
  "xin1 wen2": 9117,
  "bao3 luo2 ": 9118,
  "jing4 zheng1": 9119,
  " 200": 9120,
  "dang1 nian2 ": 9121,
  " ji2 hou4 ": 9122,
  "lv4 se4 ": 9123,
  "can1 shu4 ": 9124,
  " jiang1 su1 ": 9125,
  "wu2 xian4 dian4 shi4 ": 9126,
  " chu3 ": 9127,
  " ke3 neng2 ": 9128,
  "sheng4 chu1 ": 9129,
  " di4 zhi4 ": 9130,
  " zhi4 yi2 ": 9131,
  " xi1 er3 ": 9132,
  "fei4 yong4 ": 9133,
  "ying4 ji2 ": 9134,
  " bei4 po4 ": 9135,
  "du4 shi3 ": 9136,
  "chan3 sheng1 le ": 9137,
  "en   ": 9138,
  "   2019 nian2 ": 9139,
  "ma3 ke4 si1 ": 9140,
  "ku1 ": 9141,
  " guo2 jia1 dui4 ": 9142,
  "tie3 lu4 che1 zhan4 ": 9143,
  " dong4 wu4 ": 9144,
  "o   ": 9145,
  " hu2 nan2 ": 9146,
  " gong1 qing3 ": 9147,
  " jia1 zu2": 9148,
  "wang2 wei4 ": 9149,
  "tui1 jian4 ": 9150,
  "lian2 ren4 ": 9151,
  "lei4 xing2 de ": 9152,
  "si3 yu2 ": 9153,
  "zhuo1 ": 9154,
  " ta1 ceng2 ": 9155,
  "zhang3 zi3 ": 9156,
  "bei3 fang1 ": 9157,
  " ceng2 ren4": 9158,
  " S ": 9159,
  " zhong4": 9160,
  "ying1 li3 ": 9161,
  " gong1 gong4": 9162,
  " da4 dao4": 9163,
  "fu2 luo2 li3 ": 9164,
  "nong2 cun1 ": 9165,
  "chuang4 zao4 ": 9166,
  " shi4 zhong1 hua2 ren2 min2 gong4 he2 guo2 ": 9167,
  "ying3 xiang3 li4 ": 9168,
  " de zuo4 biao1 wei4 ": 9169,
  "O ": 9170,
  " 27": 9171,
  "10 nian2 ": 9172,
  "chong1 ji1 ": 9173,
  "section   ": 9174,
  " shi4 hui4 ": 9175,
  "qun2 dao3": 9176,
  " fu3 ": 9177,
  " 2022 nian2 ": 9178,
  "san1 ji2 ": 9179,
  " zai4 xin1 ": 9180,
  "te4 dian3 ": 9181,
  "tian1 ran2 ": 9182,
  "   jia1 ting2 ": 9183,
  " qiu1 ": 9184,
  "   3 ": 9185,
  "lv4 de ": 9186,
  " zai4 ta1 de ": 9187,
  "chu1 qi1 ": 9188,
  "fang2 wu1 ": 9189,
  "she4 hui4": 9190,
  "ji2 bu4 ": 9191,
  "sheng1 zhi4 ": 9192,
  "fu4 jin4": 9193,
  "fang1 xiang4": 9194,
  "te4 la1 ": 9195,
  "qing1 chao2 ": 9196,
  "jing4 nei4": 9197,
  "gu4 ding4 ": 9198,
  "geng4 duo1 de ": 9199,
  " shen3 ": 9200,
  "cong2 wei4 ": 9201,
  " yi1 ren2 ": 9202,
  " dao4 he2 ": 9203,
  "gao1 da2 ": 9204,
  " nai3": 9205,
  " section   ": 9206,
  "   shi3 yong4 ": 9207,
  "xin1 shi4 ": 9208,
  "zhong1 yang1": 9209,
  " shi2 zhi4 ": 9210,
  " dao4 yi1 ": 9211,
  "qi4 xuan2 ": 9212,
  "ban1 de ": 9213,
  "zong4 ": 9214,
  "xuan3 chu1 ": 9215,
  "wan2 zheng3 ": 9216,
  " tie3 ": 9218,
  "yi2 dao4 ": 9219,
  "ma1 ": 9220,
  "sheng1 ji1 ": 9221,
  "guan1 ce4 ": 9222,
  " ye3 bu4 ": 9223,
  "qing1 shao4 nian2 ": 9224,
  "8 ren2 ": 9225,
  " xu3 duo1": 9226,
  "li2 mi3 ": 9227,
  " shi4 ji4 de ": 9228,
  " you3 da4 ": 9229,
  "1 ge4 ": 9230,
  " 2024": 9231,
  "jia1 gong1 ": 9232,
  "luo4 si1 ": 9233,
  " shi4 you2": 9234,
  "fu4 jin4 de ": 9235,
  "mei3 guo2 ren2 ": 9236,
  " zhi3 shi4 ": 9237,
  "zhang4 fu1 ": 9238,
  "xue2 bu4 ": 9239,
  "tie1 ": 9240,
  " you3 zhu4 ": 9241,
  " an4": 9242,
  "yi4 bu4 ": 9243,
  "1947 nian2 ": 9244,
  "guo2 hui4 ": 9245,
  "xi1 bei3 bu4 ": 9246,
  " ta1 ren4 wei2 ": 9247,
  "mu4 ni2 ": 9248,
  "qu3 xiao1": 9249,
  " tong2 pai2 ": 9250,
  "kuo4 zhan3": 9251,
  "si3 xing2 ": 9252,
  "qing4 zhu4 ": 9253,
  " de gu4 shi4 ": 9254,
  "zhan4 ling3": 9255,
  " tong2 yang4 ": 9256,
  "   gen1 ju4 2020 nian2 mei3 guo2 ren2 kou3 pu3 cha2 de shu4 ju4 ": 9257,
  "zui4 wei4 ": 9258,
  "guo2 li4 ": 9259,
  "huang2 se4 ": 9260,
  "zeng1 jia1 le ": 9261,
  " Y": 9262,
  " deng1 ": 9263,
  "bing4 wei4 ": 9264,
  "hai3 shang4 ": 9265,
  "guo4 yu2 ": 9266,
  "zhou2 ": 9267,
  "fen1 pei4 ": 9268,
  "na4 cui4": 9269,
  "shang4 hai3 shi4 ": 9270,
  " bao1 han2 ": 9271,
  "quan2 de ": 9272,
  "zong3 hui4 ": 9273,
  "hui2 he2 ": 9274,
  "reng2 zai4 ": 9275,
  "lao3 shi1 ": 9276,
  "1973 nian2 ": 9277,
  " zai4 ta1 ": 9278,
  " yi1 zhi4 ": 9279,
  " chu1 fa1 ": 9280,
  "se4 fu1 ": 9281,
  "xiang1 ji4 ": 9282,
  "deng3 de ": 9283,
  "si4 da4 ": 9284,
  "th ": 9285,
  "50 ": 9286,
  "qie4 er3 ": 9287,
  "1971 nian2 ": 9288,
  "jing1 ji4": 9289,
  "lian2 jie2 ": 9290,
  "fang2 wei4 ": 9291,
  " kuan1": 9292,
  " 2003 nian2 ": 9293,
  " li4 shu3 ": 9294,
  " bing4 ru4 ": 9295,
  "ban1 jiang3 ": 9296,
  "xing4 shi4 ": 9297,
  "dui4 shou3 ": 9298,
  "zhuan1 men2 ": 9299,
  " de ji4 lu4 ": 9300,
  " ku4": 9301,
  "ai4 de ": 9302,
  " ji2 xing2 zheng4 ": 9303,
  " li4 zi ": 9304,
  " ye3 hui4 ": 9305,
  "lai2 zi4 yu2 ": 9306,
  "shou4 quan2 ": 9307,
  "pian4 de ": 9308,
  "100 ": 9309,
  "1977 nian2 ": 9310,
  "9 ren2 ": 9311,
  " bai2": 9312,
  "fu2 li3 ": 9313,
  "jiang3 shu4 ": 9314,
  "zhao4 kai1": 9315,
  "xie2 ding4 ": 9316,
  " a1 la1 ": 9317,
  " 000 ren2 ": 9318,
  " lei4 ": 9319,
  "yi1 xie1 ": 9320,
  " yi3 zhi4 ": 9321,
  "zhi2 ye4": 9322,
  "hai3 ba2 gao1 ": 9323,
  " xiang1 dui4 ": 9324,
  "can1 sai4": 9325,
  "fang4 qi4": 9326,
  "cun2 zai4 de ": 9327,
  "fu4 jia1 ": 9328,
  "zhuang4 ji1 ": 9329,
  " jian4 kang1 ": 9330,
  "he2 wei4 ": 9331,
  "dan1 yuan2 ": 9332,
  "sheng3 dao4 ": 9333,
  "lao2 gong1 ": 9334,
  "hant ": 9335,
  "xi1 nan2 bu4 ": 9336,
  " ke4 yun4 ": 9337,
  "ma3 la1 ": 9338,
  "gai3 ge2": 9339,
  "nan2 ji2 zhou1 de ": 9340,
  "wu3 qi4": 9341,
  "xiao1 liang4 ": 9342,
  "lei4 si4 de ": 9343,
  " 9 ": 9344,
  " hant ": 9345,
  "mei3 jun1 ": 9346,
  "ba1 er3 ": 9347,
  "chuang4 xin1 ": 9348,
  "tuo2 ": 9349,
  "qiao3 ": 9350,
  " you3 guan1": 9351,
  "zheng4 xie2 ": 9352,
  " ta1 dui4 ": 9353,
  "shan1 mai4 ": 9354,
  " si4 chuan1 ": 9355,
  "hong1 zha4 ji1 ": 9356,
  "   ran2 er2 ": 9357,
  "chang2 jian4 ": 9358,
  "chuan2 zhi1 ": 9359,
  "lou4 ": 9360,
  " zhi1 zhan4 ": 9361,
  "shou3 bo1 ": 9362,
  "xing4 neng2 ": 9363,
  "ying1 gai1": 9364,
  " xiao3 shuo1 ": 9365,
  "yi1 bu4 fen4": 9366,
  "fei1 zhou1": 9367,
  " xian4 zhi1 xian4 ": 9368,
  "fa1 sheng1 le ": 9369,
  "shu3 de zhi2 wu4 ": 9370,
  " e2": 9371,
  "   dan4": 9372,
  "zhi2 zhi4 ": 9373,
  "dian4 de ": 9374,
  "yao4 de ": 9375,
  "yan2 zhong4 de ": 9376,
  "sha1 si3 ": 9377,
  " xi4 tong3": 9378,
  " ling4 wai4": 9379,
  " che1 zhan4": 9380,
  "li3 bu4 ": 9381,
  "mi4 si1 ": 9382,
  " jian4 shi4 ": 9383,
  "suo3 shu3": 9384,
  " qian1": 9385,
  "tou2 bu4 ": 9386,
  "ni4 ": 9387,
  " you2 ci3 ": 9388,
  "zu3 zhi3 ": 9389,
  " dong1 jing1 ": 9390,
  "yun4 dong4 de ": 9391,
  " dou1": 9392,
  "xi1 shi4 ": 9393,
  "jian1 shi4 ": 9394,
  "dui4 wu3 ": 9395,
  "zhu3 xi2": 9396,
  "jiang1 ta1 ": 9397,
  "na4 de2 ": 9398,
  "jiang4 di1": 9399,
  " shi4 yi4 da4 li4 ": 9400,
  "hui4 yi3 ": 9401,
  "quan3 ": 9402,
  "hei1 ren2 ": 9403,
  "ji1 ben3 ": 9404,
  " zhi1 liu2 ": 9405,
  " she4 ji4 de ": 9406,
  "shuai4 ling3 ": 9407,
  "tu3 er3 qi2": 9408,
  " bao4": 9409,
  "hui4 shi4 di4 ": 9410,
  "huan2 xing2 ": 9411,
  " zai4 yu3 ": 9412,
  " gong1 lu4": 9413,
  " de2 dao4 le ": 9414,
  " 40": 9415,
  "bu4 fen4 ": 9416,
  "can1 ting1 ": 9417,
  "bang1 zhu4": 9418,
  "na2 po4 ": 9419,
  "zheng3 ge4": 9420,
  "xiang1 bi3 ": 9421,
  " shi4 yi1 zuo4 ": 9422,
  "zhou1 bian1 ": 9423,
  " shi4 jie4 bei1 ": 9424,
  " ma3 li4 ": 9425,
  "xia4 xia2 yi3 xia4": 9426,
  "W ": 9427,
  "wa1 ": 9428,
  " xian4 jin1 ": 9429,
  "hang2 tian1 ": 9430,
  "   3 yue4 ": 9431,
  "shang4 bu4 ": 9432,
  "zhang3 da4 ": 9433,
  "luo2 de2 ": 9434,
  " da4 liang4": 9435,
  "shuang1 da3 ": 9436,
  " guan1 fang1 ": 9437,
  " ling3 ": 9438,
  "zi4 wei4 ": 9439,
  "yi2 chan3": 9440,
  "yan2 shi2 ": 9441,
  " li4 yong4": 9442,
  " xing2 shi3 ": 9443,
  " ji3 ": 9444,
  "ge2 er3 ": 9445,
  "zong3 cai2 ": 9446,
  "la4 ": 9447,
  " nan2 zi ": 9448,
  " sheng1 zhang3 yu2 ": 9449,
  " huan2 ": 9450,
  " qin2 ": 9451,
  "zhi3 de ": 9452,
  " gong1 chi3": 9453,
  " qiu2 hui4 ": 9454,
  "chuan2 mei2 ": 9455,
  "hai3 ba2 gao1 du4 wei4 ": 9456,
  " xu1 yao4 ": 9457,
  "   2018 nian2 ": 9458,
  "ji4 zai4 ": 9459,
  "xin1 ren2 ": 9460,
  "ben3 xian4 ": 9461,
  "ci3 shi2 ": 9462,
  "zhe3 wei4 ": 9463,
  "nuo4 yi1 ": 9464,
  " he2 li3 ": 9465,
  " ji2 lin2 ": 9466,
  "xiang1 tong2 de ": 9467,
  " zhong1 guo2 guo2 min2 ": 9468,
  "   of   the   ": 9469,
  "   2007": 9470,
  "1962 nian2 ": 9471,
  " zhe4 shou3 ": 9472,
  "guang1 xu4 ": 9473,
  " liang3 ge4 ": 9474,
  "wu3 yue4 ": 9475,
  "dan1 yi1 ": 9476,
  "bie2 de ": 9477,
  "you2 tai4 ren2 ": 9478,
  "ya4 mu4 ": 9479,
  " de cheng2 zhen4 ": 9480,
  "la1 er3 ": 9481,
  "xun2 qiu2 ": 9482,
  " bu4 er3 ": 9483,
  " xing2 xiang4 ": 9484,
  " wei2 chi2 ": 9485,
  "yin3 zhong3 ": 9486,
  "bu2 yao4 ": 9487,
  "f ": 9488,
  " bao1 ": 9489,
  "shang1 de ": 9490,
  "cong1 ": 9491,
  " bu4 di2 ": 9492,
  " yu2 lei4 ": 9493,
  " jiang1 qi2 ": 9494,
  " han2": 9495,
  " zhuan1 ji2 ": 9496,
  "   5 yue4 ": 9497,
  " zai4 gai1 ": 9498,
  " guo2 min2": 9499,
  "ying2 ye4 ": 9500,
  "qian1 yue1 ": 9501,
  "can1 yu4 le ": 9502,
  "wei3 fu4 shu1 ji4 ": 9503,
  "e2 wei4 ": 9504,
  "wu3 di4 ": 9505,
  "si1 lan2 ": 9506,
  " ke4 la1 ": 9507,
  "di3 kang4 ": 9508,
  "zhi2 yuan2 ": 9509,
  " yi1 ci2 ": 9510,
  " yi1 liao2 ": 9511,
  " jiao4 yu4": 9512,
  " he2 ji2 ": 9513,
  "mei3 yuan2 de ": 9514,
  " qi2 zhong1 nan2 xing4 ": 9515,
  " liu2 yu4 ": 9516,
  "jiao4 yu2 ": 9517,
  "ge1 de ": 9518,
  "huai2 yi2 ": 9519,
  " wei4 ci3 ": 9520,
  " di4 mian4 ": 9521,
  " di4 1 ": 9522,
  "ti3 yu4": 9523,
  "ceng2 shui3 yu4 ": 9524,
  "rong2 na4 ": 9525,
  " jie2 gou4 ": 9526,
  "gu3 fen4 you3 xian4 gong1 si1 ": 9527,
  "zhuan4 de xiao3 xing2 xing1 ": 9528,
  " hou4 qi1 ": 9529,
  " ke4 lai2 ": 9530,
  "jie1 ren4 ": 9531,
  "zhi3 ding4 ": 9532,
  "xiao4 ying4 ": 9533,
  "qian1 ding4 ": 9534,
  " guang1": 9535,
  " 12 ": 9536,
  "   ping2 jia4 ": 9537,
  "you2 qi2 ": 9538,
  "liang2 shi2 ": 9539,
  " shi4 nei4 ": 9540,
  "yue4 nan2 ": 9541,
  "jing4 sai4 ": 9542,
  " de di4 er4": 9543,
  "mo4 si1 ke1 ": 9544,
  "you2 ren2 gong1 ": 9545,
  "zhang3 wei4 ": 9546,
  "ge1 ju4 ": 9547,
  " shi4 xi1 ": 9548,
  " yi1 zhi1 ": 9549,
  " she4 ji1 ": 9550,
  " jian4 li4 le ": 9551,
  " wu1 ke4 lan2 ": 9552,
  "   chu2 le ": 9553,
  "chao2 de ": 9554,
  "tui1 chu1 de ": 9555,
  "ruan3 ti3 ": 9556,
  "1938 nian2 ": 9557,
  " nian2 qian2 ": 9558,
  "gan3 lan3": 9559,
  "tui1 guang3 ": 9560,
  " you1 ": 9561,
  "men2 de ": 9562,
  " shi2 yong4 ": 9563,
  " lv3": 9564,
  "zhong1 xin1 ": 9565,
  " su2": 9566,
  "shu4 shi4 ": 9567,
  " jian4 wei4 ": 9568,
  "ba1 la1 ": 9569,
  " chao2 xian1 ": 9570,
  " qing3": 9571,
  "er   ": 9572,
  " er3 de2": 9573,
  "shuo4 shi4 xue2 wei4 ": 9574,
  "yun4 he2 ": 9575,
  "yang2 xian4 ": 9576,
  "wei2 zhi3 ": 9577,
  "hua2 sheng4 dun4": 9578,
  " 11 ": 9579,
  "zhi1 yuan2 ": 9580,
  "ge4 di4 ": 9581,
  "bian1 hao4 wei4 ": 9582,
  " zhi4 zao4": 9583,
  " yi1 tiao2 ": 9584,
  "kai1 zhan3 ": 9585,
  "fa3 ting2 ": 9586,
  " qiu2 chang3 ": 9587,
  "qun2 ti3 ": 9588,
  "le yi1 xie1 ": 9589,
  " gong1 cheng2 shi1 ": 9590,
  " tong1 guo4": 9591,
  "wu4 zhong1 ": 9592,
  "meng2 jun1 ": 9593,
  "1939 nian2 ": 9594,
  "luo2 bo2 te4 ": 9595,
  "zong3 jian1 ": 9596,
  " zai4 di4 er4 ": 9597,
  "ping2 jun1 hai3 ba2 gao1 du4 wei4 ": 9598,
  " man3": 9599,
  " cheng2 shi4 ": 9600,
  "   jing1 ji4 ": 9601,
  "zhi2 li4 ": 9602,
  " wei4 ming2 ": 9603,
  " wei4 yu2 zhong1 hua2 ren2 min2 gong4 he2 guo2 ": 9604,
  "li2 zi ": 9605,
  " ren2 min2 bi4 ": 9606,
  "du1 du1 ": 9607,
  "5 mi3 ": 9608,
  "1965 nian2 ": 9609,
  " xi1 yin3 ": 9610,
  "ben3 tu3 ": 9611,
  "jian3 dan1 ": 9612,
  "deng1 chang2 ": 9613,
  " wu1": 9614,
  "yang2 gong1 ": 9615,
  "1936 nian2 ": 9616,
  " you3 li4 ": 9617,
  " ta1 ye3": 9618,
  " er2 gai1 di4 de ping2 jun1 hai3 ba2 gao1 du4 wei4 ": 9619,
  "a1 er3": 9620,
  "shi1 ren2 ": 9621,
  "qi3 le ": 9622,
  "feng1 de ": 9623,
  "ni2 xi1 ya4 ": 9624,
  "cu4 jin4": 9625,
  "han3 mo4": 9626,
  "1959 nian2 ": 9627,
  " zai4 ri4 ben3 ": 9628,
  "gong1 kai1 ": 9629,
  "lu4 zhan4 ": 9630,
  "jie1 shou1 ": 9631,
  "   tian1 ": 9632,
  "li4 zhong1 ": 9633,
  "zu2 qiu2 dui4 ": 9634,
  "2010 nian2 mei3 guo2 ren2 kou3 pu3 cha2 de shu4 ju4 ": 9635,
  "ji1 shi4 ": 9636,
  "chu1 dao4 ": 9637,
  "yan3 chu1": 9638,
  "ying4 dui4 ": 9639,
  "xue2 xi2": 9640,
  " zhi1 qian2": 9641,
  "fa3 lan2 ": 9642,
  "yin3 zhong3 zai1 pei2 ": 9643,
  " sa4": 9644,
  " yun2 nan2 ": 9645,
  "lie4 shi4 ": 9646,
  " da4 qiao2 ": 9647,
  "mian4 lin2 ": 9648,
  "xun2 huan2 ": 9649,
  "huan4 zhe3 ": 9650,
  " wan2 cheng2 ": 9651,
  "chu1 ren4 ": 9652,
  "bo ": 9653,
  "shuo1 shi4 ": 9654,
  " ji2 shi3": 9655,
  "ru4 qin1": 9656,
  "sheng3 wei3 ": 9657,
  " xin1 zeng1": 9658,
  "zhuang1 jia3": 9659,
  " zhi3 chu1 ": 9660,
  "shen3 cha2 ": 9661,
  "fei1 lv4 bin1": 9662,
  "ka3 luo2 lai2 ": 9663,
  "yuan2 di4 ": 9664,
  "shen1 shang4 ": 9665,
  "1967 nian2 ": 9666,
  "1935 nian2 ": 9667,
  "km ": 9668,
  " zai4 bei3 ": 9669,
  "wei2 er3": 9670,
  " xi1 xi1 ": 9671,
  "hen3 duo1": 9672,
  " pai2 ": 9673,
  "zheng3 he2 ": 9674,
  "ji1 bai3 ": 9675,
  " ji1 yin1 ": 9676,
  "dong4 hua4": 9677,
  "zhang3 yue1 ": 9678,
  "suo3 chu4 de hai3 ba2 wei4 gao1 yu2 hai3 ping2 mian4 ": 9679,
  "na4 xie1 ": 9680,
  "chuan2 bo1": 9681,
  "gang3 kou3 ": 9682,
  "zhan3 kai1": 9683,
  "you2 ren2 gong1 yin3 zhong3 zai1 pei2 ": 9684,
  " pai4 ": 9685,
  " zheng3 ": 9686,
  "qing2 xing2 ": 9687,
  "tai1 ": 9688,
  "tong1 xun4 ": 9689,
  "qing2 xu4 ": 9690,
  "yong3 jiu3 ": 9691,
  "re4 dai4 feng1 bao4 ": 9692,
  " he4": 9693,
  " xu3 ": 9694,
  " shen4 ": 9695,
  "ju1 min2 dian3 ": 9696,
  "ji4 ji2 ": 9697,
  "ci4 wei4 ": 9698,
  " zhi1 fu3 ": 9699,
  " she4 hui4": 9700,
  " han4 zu2 ": 9701,
  "   2017 nian2 ": 9702,
  "yu3 shi4 ": 9703,
  "dong4 gong1 ": 9704,
  "lu3 ke4 ": 9705,
  " bu4 jia1 ": 9706,
  " yi3 shang4 de ": 9707,
  " yu3 ci3 tong2 shi2 ": 9708,
  "mi3 ya4 ": 9709,
  " zhu3 chi2 ": 9710,
  " sui2 zhe": 9711,
  "fen1 bie2 wei4 ": 9712,
  "xin1 jia1 po1 ": 9713,
  " ou1 zhou1 ": 9714,
  "si4 ming2 ": 9715,
  "bing1 bu4 ": 9716,
  "guai4 ": 9717,
  " de yi1 xie1 ": 9718,
  "di3 da2": 9719,
  " su1 lian2 ": 9720,
  "liao3 jie3": 9721,
  " tuan2 ": 9722,
  "zhi3 yu2 ": 9723,
  "gong3 ": 9724,
  "zu3 cheng2": 9725,
  "gao4 su4 ": 9726,
  "fa1 zhan3 de ": 9727,
  "x   ": 9728,
  "yi3 hou4 ": 9729,
  "dui4 he2 ": 9730,
  "ge2 li4 ": 9731,
  "deng1 ji4 ": 9732,
  " si1 ka3 ": 9733,
  " wei2 ya4 ": 9734,
  " zhong1 guo2 da4 lu4 de ": 9735,
  "xia4 xia2 yi3 xia4 di4 qu1 ": 9736,
  "chu1 sheng1 ": 9737,
  "liu2 de ": 9738,
  "yan3 sheng1 ": 9739,
  "da4 shi3 ": 9740,
  " xi1 an1 ": 9741,
  "ju4 qing2 ": 9742,
  "zi1 zhu4 ": 9743,
  "fei1 fa3 ": 9744,
  "ce4 liang2": 9745,
  " jiao4 shou4 ": 9746,
  "chuang4 ban4 ": 9747,
  "   ji4 ": 9748,
  "bai2 zhi4 ": 9749,
  " zhi4 liao2": 9750,
  "shou3 xi2 ": 9751,
  "jie4 shao4": 9752,
  "zhuang4 kuang4": 9753,
  " bi4 ye4 yu2 ": 9754,
  " ao4 da4 li4 ": 9755,
  "xun2 yang2 jian4 ": 9756,
  "fen1 zhi1 yi1 ": 9757,
  "wen2 hua4 de ": 9758,
  "gui1 fan4 ": 9759,
  "kong1 jun1": 9760,
  "shun4 shi2 ": 9761,
  "se   ": 9762,
  "mao1 ": 9763,
  "1963 nian2 ": 9764,
  " bu4 bian4 ": 9765,
  " chu1 xi2 ": 9766,
  "tu2 xiang4 ": 9767,
  "wei1 xian3 ": 9768,
  " zhe4 bu4 ": 9769,
  " nian2 7 yue4 1 ri4 ": 9770,
  "wen4 ti2 de ": 9771,
  " jin4 shi4 chu1 shen1 ": 9772,
  "   2016 nian2 ": 9773,
  "ce ": 9774,
  " zhi4 shao3": 9775,
  " xian4 ru4 ": 9776,
  "nan2 fang1 ": 9777,
  " bei4 qi2 ": 9778,
  " qi2 zhong1 nan2 ": 9779,
  "mao2 ze2 dong1 ": 9780,
  " tang1": 9781,
  " gai4 ": 9782,
  " n ": 9783,
  "yu4 ji4 ": 9784,
  "zi he2 ": 9785,
  "da2 er3 ": 9786,
  "lu3 shi4 ": 9787,
  " bu4 zhi4 ": 9788,
  " di4 si1 ": 9789,
  "zi1 sheng3 ": 9790,
  "pin2 lv4 ": 9791,
  " ー": 9792,
  "   10 yue4 ": 9793,
  "han3 ": 9794,
  " zhong1 zui4 ": 9795,
  " ji4 nian4": 9796,
  "pan4 jue2 ": 9797,
  "gong4 chan3 zhu3 yi4 ": 9798,
  " yi3 se4 lie4": 9799,
  "   bei3 ": 9800,
  "duo1 ge4": 9801,
  "qu3 jia1 ": 9802,
  "liu3 ": 9803,
  "1953 nian2 ": 9804,
  "ju2 ju2 zhang3 ": 9805,
  "fan2 zhi2 ": 9806,
  "gan1 su4 ": 9807,
  " 15 ": 9808,
  " dan1 ren4": 9809,
  "zi4 xing2 che1 ": 9810,
  " 2005": 9811,
  "miao2 hui4 ": 9812,
  " yi1 mei2 ": 9813,
  "fen1 lei4": 9814,
  " ping2 jia4 ": 9815,
  "duo1 yang4 ": 9816,
  " nan2 bei3 ": 9817,
  "shao4 jiang4 ": 9818,
  "fei1 li4 ": 9819,
  " si1 xiang3 ": 9820,
  "yan2 zhong4": 9821,
  "dang1 ju2 ": 9822,
  " shi4 zhong1 xin1 ": 9823,
  "   ling4 wai4 ": 9824,
  "hou4 shi4 ": 9825,
  "zhu4 di4 ": 9826,
  "yin3 shi2 ": 9827,
  " shi4 wu1 ke4 lan2": 9828,
  "zhu3 chang3 ": 9829,
  "an4 zhao4 ": 9830,
  " gong1 zuo4 shi4 ": 9831,
  "can1 mou2 zhang3 ": 9832,
  "xiang4 xi1 ": 9833,
  "er4 zhan4 ": 9834,
  "xue1 ": 9835,
  "1969 nian2 ": 9836,
  " cheng2 shi4 de ": 9837,
  " zhi1 ji4 ": 9838,
  " da4 jia1 ": 9839,
  " ming2 cheng1": 9840,
  " tong2 yi1 ": 9841,
  "jiao1 huan4 ": 9842,
  "gai3 shan4": 9843,
  " he2 bing4 wei4 ": 9844,
  " 80": 9845,
  "yu3 yi3 ": 9846,
  "ze2 you3 ": 9847,
  "luo4 de ": 9848,
  "ling2 de ": 9849,
  "ke1 fu1": 9850,
  "dang1 xuan3": 9851,
  " gong1 kai1 sai4 ": 9852,
  "hong1 zha4 ": 9853,
  "   zhu4 ": 9854,
  " fen1 bie2 wei4 ": 9855,
  " ji3": 9856,
  " chun1 ": 9857,
  "zhe4 bu4 ": 9858,
  "bao3 zheng4 ": 9859,
  "1941 nian2 ": 9860,
  " yu2 di4 ": 9861,
  "ru4 xuan3": 9862,
  "shang1 wang2 ": 9863,
  "bian1 jing4 ": 9864,
  "ai1 na4 ": 9865,
  "ci4 da4 ": 9866,
  "shen1 zhen4": 9867,
  "chu1 sheng1 yu2 ": 9868,
  "sui4 shi2 ": 9869,
  " di4 guo2 de ": 9870,
  "bao3 cun2 ": 9871,
  "bao4 zhi3 ": 9872,
  "gai3 bian1 ": 9873,
  "guang3 gao4": 9874,
  "zeng1 qiang2 ": 9875,
  "ch ": 9876,
  "qun2 de ": 9877,
  " zai4 ji1 ": 9878,
  " jian4 he2 ": 9879,
  "ji1 bu4 ": 9880,
  "zhi1 ming2 ": 9881,
  "ru4 de ": 9882,
  "guo2 nei4 ": 9883,
  " gong1 zhan4 ": 9884,
  " yi3 nan2 ": 9885,
  "xian4 fa3 ": 9886,
  "zi3 nv3 ": 9887,
  "wu2 ren2 ji1 ": 9888,
  "chui2 ": 9889,
  "chuan4 ": 9890,
  " xing2 cheng2 de ": 9891,
  "qu1 fen1 ": 9892,
  "ba1 fa2": 9893,
  "ban4 yan3 ": 9894,
  " 1998 nian2 ": 9895,
  "ci3 zhi1 wai4 ": 9896,
  "si1 xiang3 ": 9897,
  " da4 shi1 ": 9898,
  " chu1 xian4 le ": 9899,
  "miao2 shu4": 9900,
  " de ming2 zi4 ": 9901,
  "wai4 wei2 ": 9902,
  "bai3 nian2 ": 9903,
  " dan4 yin1 ": 9904,
  "sha1 hai4 ": 9905,
  " xia2 ": 9906,
  "xia4 de yi2 ge4 ": 9907,
  "huo4 shi4 ": 9908,
  " da4 zhong4 ": 9909,
  "shou4 hai4 ": 9910,
  "ying1 guo2 de ": 9911,
  " fen1 bie2 shi4 ": 9912,
  "zhi3 hui1 guan1 ": 9913,
  " Re": 9914,
  " bu3 ": 9915,
  "wen2 zhong1 ": 9916,
  "bo1 er3 ": 9917,
  " yue4 tai2": 9918,
  " nan2 jing1 ": 9919,
  "bing4 mei2 you3 ": 9920,
  "jiao4 yu4 bu4 ": 9921,
  " re4 ": 9922,
  "gong4 shi2 ": 9923,
  " wei4 you2 ": 9924,
  "fa3 ling4 ": 9925,
  "mian4 ti3 ": 9926,
  "cai2 wu4 ": 9927,
  "yan2 jiu1 yuan4 ": 9928,
  "ban4 nian2 ": 9929,
  " yuan2 shi3 ": 9930,
  " er3 zai4 ": 9931,
  "jing3 guan1 ": 9932,
  " niu3 yue1": 9933,
  "ceng2 shi4 ": 9934,
  "nuo4 si1 ": 9935,
  "1980 nian2 dai4 ": 9936,
  " de xiao3 ": 9937,
  " sheng1 zhang3 yu2 hai3 ba2": 9938,
  " nei4": 9939,
  " gai3 wei2 ": 9940,
  "ma3 tou2 ": 9941,
  "zhan3 lan3": 9942,
  "   2006": 9943,
  "sheng4 di4 ": 9944,
  " dao4 shi4 ": 9945,
  " da4 xing2": 9946,
  "jing1 ying2": 9947,
  " pian4 ": 9948,
  " yan4 ": 9949,
  " piao4 ": 9950,
  " pei2 ": 9951,
  "   The   ": 9952,
  "gao1 yuan2 ": 9953,
  "cheng1 hao4 ": 9954,
  "tao2 yuan2 ": 9955,
  " zai4 ying1 guo2 ": 9956,
  "hou4 lai2 ": 9957,
  " zhe4 yang4 de ": 9958,
  "pan4 luan4 ": 9959,
  " ning2 ": 9960,
  "dian3 wei4 ": 9961,
  " wei4 bei4 ": 9962,
  " he2 fa3 ": 9963,
  " yi4 si": 9964,
  " ping2 lun4": 9965,
  " shang4 shu1 ": 9966,
  "hang2 ye4 ": 9967,
  " xin1 jia1 ": 9968,
  " 1990": 9969,
  "ma3 de ": 9970,
  "qing2 jie2 ": 9971,
  " mu4 qian2 shang4 wei4 ": 9972,
  "i   ": 9973,
  " 2000": 9974,
  "tu1 chu1 ": 9975,
  " dao4 bu4 ": 9976,
  "ping2 min2 ": 9977,
  "guan1 fei4 yan2 ": 9978,
  " mi3 de di4 qu1 ": 9979,
  " kong1 ": 9980,
  "   16": 9981,
  "shang4 yi1 ": 9982,
  " yi4 ming2 ": 9983,
  " yi3 shi4 ": 9984,
  " zuo4 chu1": 9985,
  " xian4 de yi2 ge4 fei1 jian4 zhi4 di4 qu1 ": 9986,
  "ai4 guo2 ": 9987,
  "1961 nian2 ": 9988,
  " yi4 ji2 ": 9989,
  "tian1 huang2 ": 9990,
  "fang2 zhi3 ": 9991,
  "dou4 zheng1 ": 9992,
  "wu4 zhong3 de ": 9993,
  " 20 ": 9994,
  " he2 ta1 de ": 9995,
  "jing1 guo4": 9996,
  "jiao4 shou4": 9997,
  "luo2 ji2 ": 9998,
  "hong2 jun1 ": 9999,
  "ka1 fei1 ": 10000,
  "1957 nian2 ": 10001,
  " yu3 da4 ": 10002,
  " ren4 ming4": 10003,
  "shi3 yong4 le ": 10004,
  "sai1 na4 ": 10005,
  "lai2 si1 ": 10006,
  "hao3 you3 ": 10007,
  "31 ": 10008,
  " zhong1 gong4 zhong1 yang1": 10009,
  "mian4 shi4 ": 10010,
  "chou2 bei4 ": 10011,
  "zuo4 chu1": 10012,
  "chang2 qi1": 10013,
  "ling3 yu4": 10014,
  "yuan2 zhong1 ": 10015,
  "tian1 jia1 ": 10016,
  " yuan2 ze2 ": 10017,
  "dong1 ni2 ": 10018,
  "xiang3 fa3 ": 10019,
  "pin3 pai2": 10020,
  "ming4 ling4": 10021,
  "ni2 de ": 10022,
  " zhi1 chu4 ": 10023,
  "dai4 lai2 ": 10024,
  " dang1 xuan3": 10025,
  " min2": 10026,
  "fu2 er3 ": 10027,
  "ding4 zai4 ": 10028,
  "hang2 xian4 ": 10029,
  " ji1 du1 jiao4 ": 10030,
  " tong2 ri4 ": 10031,
  " xing2 zheng4 zhen4 qu1 ": 10032,
  " yao2 ": 10033,
  "   2021 nian2 ": 10034,
  " de li3 ": 10035,
  " de xi1 ": 10036,
  " shi4 nan2 ji2 zhou1 de ": 10037,
  " he2 dao4": 10038,
  " wei2": 10039,
  " tun2": 10040,
  " 1999 nian2 ": 10041,
  "   sui2 ": 10042,
  "heng1 ": 10043,
  " wei4 qi2 ": 10044,
  " shi2 dai4 de ": 10045,
  " zuo4 biao1 wei4 ": 10046,
  "xing4 bie2 ": 10047,
  "chang2 jiang1 ": 10048,
  " niu2 ": 10049,
  "1944 nian2 ": 10050,
  " bu4 de2 ": 10051,
  "li4 yong4 ": 10052,
  "qi4 ti3 ": 10053,
  "chan3 ye4": 10054,
  " zui4 chu1": 10055,
  " di4 er4 ci4 ": 10056,
  "ao4 si1 ka3 ": 10057,
  " chao1": 10058,
  " Ch": 10059,
  "   zhan4 ": 10060,
  "hui4 ji2 ": 10061,
  "zuo4 zhong1 ": 10062,
  "pin3 zhi4 ": 10063,
  "bin1 shi4 ": 10064,
  " gong1 jin1 ": 10065,
  "shi1 bai4": 10066,
  "fu2 hao4 ": 10067,
  " chu4 ": 10068,
  "   zhu3 yao4 ": 10069,
  "ge1 er3 ": 10070,
  "cheng1 wei2": 10071,
  "she4 hui4 zhu3 yi4 ": 10072,
  "dang4 an4 ": 10073,
  "ying2 de2 le ": 10074,
  " gong1 zuo4 de ": 10075,
  "chang3 jing3 ": 10076,
  " zhe4 ci4 ": 10077,
  " nian2 12 yue4 31 ri4 ": 10078,
  " fa1": 10079,
  "   er2": 10080,
  "zhan4 zhi4 ": 10081,
  "zhan4 ji4 ": 10082,
  "jie1 jin4": 10083,
  "wu3 ming2 ": 10084,
  "chang3 shang4 ": 10085,
  "di3 zhi4 ": 10086,
  " yu3 zhou4": 10087,
  "shang1 dian4 ": 10088,
  "xiu1 gai3": 10089,
  " ceng2 zai4 ": 10090,
  " san1 shi2 ": 10091,
  "niao3 lei4 ": 10092,
  "lei4 si4 yu2 ": 10093,
  "dong1 xian4 ": 10094,
  " bu4 er3": 10095,
  " zhi4 ding4 ": 10096,
  "jing1 ji4 xue2 ": 10097,
  " zhu3": 10098,
  " shou4 dao4 ": 10099,
  " xiong2 ": 10100,
  "   dui4 yu2 ": 10101,
  "zhong1 shi4 ji4 ": 10102,
  "yu4 dao4 ": 10103,
  "dong4 yuan2 ": 10104,
  "kuo4 zhang1 ": 10105,
  "nan4 min2 ": 10106,
  " ming2 zi4 ": 10107,
  "jie1 chu4": 10108,
  "ren2 min2 dai4 biao3 da4 hui4 ": 10109,
  "fen1 cheng2 ": 10110,
  " ji1 xie4 ": 10111,
  "lie4 ru4": 10112,
  "yan2 jiu1 suo3": 10113,
  "jiang1 su1 sheng3 ": 10114,
  "fu2 de2 ": 10115,
  "yin3 li4 ": 10116,
  " xian4 dai4": 10117,
  "gan3 ran3": 10118,
  "jiang3 de ": 10119,
  " zhong1 shu1 ": 10120,
  " ta1 shuo1 ": 10121,
  "zhong4 zhi2 ": 10122,
  " 1 yue4 ": 10123,
  " xiong1 ": 10124,
  "hou4 xuan3 ren2 ": 10125,
  "yan2 shen1 ": 10126,
  " dan4 bu4 ": 10127,
  " wei2 zhi3 ": 10128,
  "zhu1 long2 ": 10129,
  "mu4 si1 lin2 ": 10130,
  " 23": 10131,
  " 36": 10132,
  "   ke4 ": 10133,
  "fang1 cheng2 ": 10134,
  "che1 dao4 ": 10135,
  "su1 li3 ": 10136,
  "gua1 ": 10137,
  "sheng1 ming2 ": 10138,
  "geng4 duo1": 10139,
  "hai4 e2": 10140,
  " tai4 yang2 ": 10141,
  "zu1 jie4 ": 10142,
  "chen4 ": 10143,
  " jia1 jing4 ": 10144,
  "ju4 feng1 ": 10145,
  "zhu4 ce4 ": 10146,
  " you2 yong3 ": 10147,
  "deng3 zhi2 ": 10148,
  "ban1 fa1 ": 10149,
  " bing4 qie3 zai4 ": 10150,
  " X": 10151,
  "ren2 wei4 ": 10152,
  "dui4 you3 ": 10153,
  "ti3 xing2 ": 10154,
  "nu2 ": 10155,
  "ye1 su1": 10156,
  "1951 nian2 ": 10157,
  " ji1 chu3 ": 10158,
  " chu1 shen1 ": 10159,
  "bao3 cun2": 10160,
  "gong4 he2 guo2 de ": 10161,
  " wei4 fu2 qi2 yu2 gang1": 10162,
  "lang3 de2 ": 10163,
  " chu1 ru4 kou3 ": 10164,
  "yan2 jiu1 yuan2 ": 10165,
  "xie2 tiao2": 10166,
  " shi4 di4 yi1 ": 10167,
  " hu4": 10168,
  " JR": 10169,
  " jiao3 ": 10170,
  "ai4 de2 hua2 ": 10171,
  "   6 ": 10172,
  "xian4 shi2 ": 10173,
  "qi3 de ": 10174,
  "ban1 bu4 ": 10175,
  "hang2 zhou1 ": 10176,
  "jiao4 zuo4 ": 10177,
  "nv3 yan3 yuan2 ": 10178,
  "ling3 xiu4": 10179,
  "kao3 gu3 ": 10180,
  "mian4 ji1 he2 ": 10181,
  "zui4 zao3 de ": 10182,
  "gui1 mo2 de ": 10183,
  " wen1": 10184,
  "di ": 10185,
  "shi3 zhong1 ": 10186,
  "qi4 he2 ": 10187,
  "cheng1 zhi1 wei4 ": 10188,
  "pai2 de2 zhu3 ": 10189,
  "bing1 li4 ": 10190,
  " jia1 meng2 ": 10191,
  "fen1 qu1 ": 10192,
  "tong1 xin4 ": 10193,
  "huo3 ban4 ": 10194,
  "che4 di3 ": 10195,
  "jin3 biao1 sai4": 10196,
  "5 ge4 ": 10197,
  "   Ch": 10198,
  "cheng2 zai4 ": 10199,
  "xi1 yuan2 ": 10200,
  "quan2 xian4 ": 10201,
  "bai4 zhan4 ": 10202,
  "reng2 you3 ": 10203,
  " cheng2 xu4": 10204,
  " jian4 you3 ": 10205,
  "shou3 duan4 ": 10206,
  "quan2 qiu2": 10207,
  " zhong1 fa1 xian4 ": 10208,
  "zu2 xie2 ": 10209,
  "mian3 dian1 ": 10210,
  "zu2 ren2 ": 10211,
  "zao1 shou4 ": 10212,
  "shou3 fu3 ": 10213,
  "ma3 lai2 ": 10214,
  " zhong1 guo2 gong4 chan3 dang3": 10215,
  "jiang1 shi4 ": 10216,
  "ju2 yu2 ": 10217,
  " he2 lan2": 10218,
  " gai1 di4 de ": 10219,
  " gong1 yuan2 qian2 ": 10220,
  " di4 shi2 yi1 ": 10221,
  " qiu1": 10222,
  "   fu2 ": 10223,
  "   2015 nian2 ": 10224,
  "yi3 shang4 ": 10225,
  "han4 yu3 ": 10226,
  "ar ": 10227,
  "1930 nian2 ": 10228,
  " wei4 zhong1 guo2 ": 10229,
  "fen1 li2 ": 10230,
  " qiu2 yun4 dong4 yuan2 ": 10231,
  "ai4 qing2 ": 10232,
  "tui4 xiu1": 10233,
  " ling4 yi4 fang1 mian4 ": 10234,
  " bu4 de2 bu4 ": 10235,
  " mu4 qian2 shang4 wei4 you2 ren2 gong1 yin3 zhong3 zai1 pei2 ": 10236,
  " tou4 guo4 ": 10237,
  "   Co": 10238,
  "jian1 zhi4 ": 10239,
  "hua2 da4 xue2 ": 10240,
  "jiao1 cha1 ": 10241,
  "cai2 chan3 ": 10242,
  "wu4 li3 xue2 ": 10243,
  "fen1 wei4 ": 10244,
  "tou2 de ": 10245,
  "us ": 10246,
  "1940 nian2 ": 10247,
  " zhe4 ye3 shi4 ": 10248,
  "bao4 zha4": 10249,
  "gan3 jue2 ": 10250,
  " fen1 wei2 ": 10251,
  "   6": 10252,
  "   4 yue4 ": 10253,
  "da2 de ": 10254,
  "wang3 de ": 10255,
  "mou2 sha1 ": 10256,
  " zai4 gong1 ": 10257,
  " jian4 zao4": 10258,
  " yin1 de ": 10259,
  "dao3 yan3": 10260,
  " xi1 ban1 ya2 yu3 ": 10261,
  "an4 zhong1 ": 10262,
  "yuan2 shi2 ": 10263,
  "fa3 shi4 ": 10264,
  "jin1 ri4 ": 10265,
  "lin2 si1 ": 10266,
  "ck ": 10267,
  "1931 nian2 ": 10268,
  "xue2 sheng1": 10269,
  "ka3 luo2 lai2 na4": 10270,
  " yao1 qiu2": 10271,
  " ji2 yi1 ": 10272,
  " chu1 yi1 ": 10273,
  " sui2 zhe ": 10274,
  " ren4 he2 ": 10275,
  "ji4 yu2 ": 10276,
  "te4 he2 ": 10277,
  "rang4 ta1 ": 10278,
  "32 ": 10279,
  "II ": 10280,
  "zhong1 bu4 ": 10281,
  " da4 yue1": 10282,
  "sheng1 tai4 ": 10283,
  "wei3 yuan2 hui4 de ": 10284,
  " wen2 hua4": 10285,
  " dang1 xuan3 ": 10286,
  " D ": 10287,
  " zhi4 zuo4 ren2 ": 10288,
  "xia4 xia2 de yi2 ge4 xiang1 ": 10289,
  " 2025": 10291,
  "nan2 si1 la1 ": 10292,
  "tai4 hou4 ": 10293,
  "gan4 xian4 ": 10294,
  " shi4 nan2 ": 10295,
  "zu2 zi4 zhi4 ": 10296,
  "xu4 shu4 ": 10297,
  "zi gong1 si1 ": 10298,
  " yue4 tuan2": 10299,
  " yi4 dian3 ": 10300,
  "dui4 wai4 ": 10301,
  " hui4 bei4 ": 10302,
  "yan2 chang2": 10303,
  "qi3 su4 ": 10304,
  "zhong4 dian3": 10305,
  "shui3 ku4 ": 10306,
  " ma3 lai2 xi1 ya4 ": 10307,
  " feng1": 10308,
  " 34": 10309,
  "te4 ji2 ": 10310,
  "han4 zi4 ": 10311,
  " shi4 xiang1 gang3 ": 10312,
  "shen1 zhen4 ": 10313,
  "ti2 gong1 de ": 10314,
  " biao3 ": 10315,
  "mu4 shi4 ": 10316,
  "ta ": 10317,
  " zai4 nan2 ": 10318,
  " he2 tong2 ": 10319,
  "shang4 shu4 ": 10320,
  "wu3 han4": 10321,
  "qian1 shu3": 10322,
  "   ge4 ren2 sheng1 huo2 ": 10323,
  " kang1 xi1 ": 10324,
  "jin4 ji2 ": 10325,
  "fu4 zhi4 ": 10326,
  "cu1 ": 10327,
  " shi4 ge4 ": 10328,
  "ding4 qi1 ": 10329,
  "san1 ci4 ": 10330,
  "gai3 wei2": 10331,
  " ha1 er3 ": 10332,
  " ji4 suan4 ji1 ": 10333,
  "   7 yue4 ": 10335,
  "zhan4 wei4 ": 10336,
  "ru4 wei2 ": 10337,
  "qi4 ren2 ": 10338,
  "xie2 dai4 ": 10339,
  "wo4 er3 ": 10340,
  "tan4 suo3 ": 10341,
  "codice ": 10342,
  "bo1 fang4": 10343,
  "miao2 shu4 wei4 ": 10344,
  " du4": 10345,
  " di2": 10346,
  " fan3 dui4 ": 10347,
  "   dong1 ": 10348,
  "fu4 you3 ": 10349,
  "mei3 ri4 ": 10350,
  "xiu1 si1 ": 10351,
  "sao3 ": 10352,
  " cheng2 bao3 ": 10353,
  "dui4 xiang4 ": 10354,
  " ge4 zi4 ": 10355,
  " de ji1 hui4 ": 10356,
  "   zhi4 zuo4 ": 10357,
  "shi1 he2 ": 10358,
  "ren3 ": 10359,
  "ben1 ": 10360,
  " yuan2 you3 ": 10361,
  " ge4 da4 ": 10362,
  " ke4 li3 si1 ": 10363,
  "dong4 che1 ": 10364,
  "tai2 bi4 ": 10365,
  "zhu3 chi2 ren2 ": 10366,
  "shu4 he2 ": 10367,
  "jue2 le ": 10368,
  "zhuan3 wei2 ": 10369,
  " bu4 zheng4 ": 10370,
  " guo2 gong1 ": 10371,
  " li4 ke4 ": 10372,
  " gong1 kai1": 10373,
  "lu4 shang4 ": 10374,
  "ban1 ci4 ": 10375,
  "mo4 si1 ke1": 10376,
  "fu1 fu4 ": 10377,
  "zhuang4 bing4 du2": 10378,
  "th   ": 10379,
  "du3 ": 10380,
  "1942 nian2 ": 10381,
  "min2 jin4 ": 10382,
  "   2020 nian2 ": 10383,
  "qi2 shi4 ": 10384,
  "shou3 bu4 ": 10385,
  "na4 si1 ": 10386,
  "hang2 zhan4 ": 10387,
  "1933 nian2 ": 10388,
  "jian4 zao4 ": 10389,
  "tai2 wan1 de ": 10390,
  "pi1 ping2": 10391,
  " 90": 10392,
  " gu4 shi4 ": 10393,
  "an1 ren2 ": 10394,
  "   xiang1 gang3 ": 10395,
  "jing1 de ": 10396,
  "1928 nian2 ": 10397,
  " zhong1 zhi3 ": 10398,
  "zheng4 quan2 ": 10399,
  "qu1 jian1 ": 10400,
  " cheng2 wei2 yi1 ": 10401,
  " you3 yi1 xie1 ": 10402,
[...]
