{
  "!": 0,
  "\"": 1,
  "#": 2,
  "$": 3,
  "%": 4,
  "&": 5,
  "'": 6,
  "(": 7,
  ")": 8,
  "*": 9,
  "+": 10,
  ",": 11,
  "-": 12,
  ".": 13,
  "/": 14,
  "0": 15,
  "1": 16,
  "2": 17,
  "3": 18,
  "4": 19,
  "5": 20,
  "6": 21,
  "7": 22,
  "8": 23,
  "9": 24,
  ":": 25,
  ";": 26,
  "=": 27,
  "?": 28,
  "@": 29,
  "A": 30,
  "B": 31,
  "C": 32,
  "D": 33,
  "E": 34,
  "F": 35,
  "G": 36,
  "H": 37,
  "I": 38,
  "J": 39,
  "K": 40,
  "L": 41,
  "M": 42,
  "N": 43,
  "O": 44,
  "P": 45,
  "Q": 46,
  "R": 47,
  "S": 48,
  "T": 49,
  "U": 50,
  "V": 51,
  "W": 52,
  "X": 53,
  "Y": 54,
  "Z": 55,
  "[": 56,
  "\\": 57,
  "]": 58,
  "^": 59,
  "_": 60,
  "`": 61,
  "a": 62,
  "b": 63,
  "c": 64,
  "d": 65,
  "e": 66,
  "f": 67,
  "g": 68,
  "h": 69,
  "i": 70,
  "j": 71,
  "k": 72,
  "l": 73,
  "m": 74,
  "n": 75,
  "o": 76,
  "p": 77,
  "q": 78,
  "r": 79,
  "s": 80,
  "t": 81,
  "u": 82,
  "v": 83,
  "w": 84,
  "x": 85,
  "y": 86,
  "z": 87,
  "|": 88,
  "~": 89,
  "\n": 162,
  " ": 163,
  "": 164,
  "�": 170,
  "ng": 199,
  "h�": 200,
  "à": 201,
  "ā": 202,
  "ì": 203,
  "á": 204,
  "ī": 205,
  "è": 206,
  "ǎ": 207,
  "  ": 208,
  "é": 209,
  "í": 210,
  "sh�": 211,
  "ù": 212,
  "án": 213,
  "zh": 214,
  "ǐ": 215,
  "ō": 216,
  "ji": 217,
  "de": 218,
  "àn": 219,
  "ē": 220,
  "zh�": 221,
  "sh": 222,
  "ě": 223,
  "ó": 224,
  "ǔ": 225,
  "xi": 226,
  "ò": 227,
  "ú": 228,
  "ān": 229,
  "   ": 230,
  "ài": 231,
  "ū": 232,
  "ōng": 233,
  "ǒ": 234,
  "shì": 236,
  "hu": 237,
  "èi": 238,
  "gu": 239,
  "ián": 240,
  "hé": 241,
  "ào": 242,
  "āng": 243,
  "íng": 244,
  "yu": 245,
  "ǎn": 246,
  "ch": 247,
  "nián": 248,
  "yī": 249,
  "ǎng": 250,
  "én": 251,
  "ǒu": 252,
  "ìng": 253,
  "wèi": 254,
  "ǎo": 255,
  "zài": 256,
  "、": 257,
  "jī": 258,
  "ēng": 259,
  "zhōng": 260,
  "xī": 261,
  "bù": 262,
  "jì": 263,
  "àng": 264,
  "li": 265,
  "zhè": 266,
  "shí": 267,
  "dì": 268,
  "guó": 269,
  "yú": 270,
  "rén": 271,
  "òng": 272,
  "ch�": 273,
  "āo": 274,
  "du": 275,
  "ché": 276,
  "yǐ": 277,
  "lì": 278,
  "áng": 279,
  "yì": 280,
  "uò": 281,
  "ái": 282,
  "zhì": 283,
  "chéng": 284,
  "éi": 285,
  "xu": 286,
  "gōng": 287,
  "jí": 288,
  "�u": 289,
  "ěi": 290,
  "iàn": 291,
  "ēn": 292,
  "óng": 293,
  "yuè": 294,
  "yǒu": 295,
  "yuán": 296,
  "dà": 297,
  "qi": 298,
  "ōu": 299,
  "lǐ": 300,
  "20": 301,
  "óu": 302,
  "āi": 303,
  "xiàn": 304,
  "jiā": 305,
  "sī": 306,
  "ūn": 307,
  "xíng": 308,
  "yǔ": 309,
  "èn": 310,
  "ǒng": 311,
  "ín": 312,
  "tā": 313,
  "rì": 314,
  "zhī": 315,
  "hòu": 316,
  "ǎi": 317,
  "gè": 318,
  "zhà": 319,
  "éng": 320,
  "le": 321,
  "wéi": 322,
  "huì": 323,
  "dào": 324,
  "19": 325,
  "bi": 326,
  "shà": 327,
  "qī": 328,
  "qí": 329,
  "shè": 330,
  "su": 331,
  "zhèng": 332,
  "míng": 333,
  "jiàn": 334,
  "xué": 335,
  "chū": 336,
  "yù": 337,
  "ěng": 338,
  "zuò": 339,
  "shēng": 340,
  "duì": 341,
  "yóu": 342,
  "qū": 343,
  "shàng": 344,
  "ěn": 345,
  "dé": 346,
  "lù": 347,
  "bèi": 348,
  "chá": 349,
  "ti": 350,
  "shǐ": 351,
  "zhàn": 352,
  "zhǔ": 353,
  "ēi": 354,
  "qu": 355,
  "jù": 356,
  "xīn": 357,
  "jūn": 358,
  "zhu": 359,
  "ěr": 360,
  "áo": 361,
  "shù": 362,
  "uì": 363,
  "rèn": 364,
  "fā": 365,
  "wù": 366,
  "bìng": 367,
  "kè": 368,
  "ér": 369,
  "dài": 370,
  "yí": 371,
  "jìn": 372,
  "zì": 373,
  "yīn": 374,
  "fù": 375,
  "fāng": 376,
  "jīng": 377,
  "nán": 378,
  "huà": 379,
  "xì": 380,
  "zhōu": 381,
  "píng": 382,
  "òu": 383,
  "xià": 384,
  "lái": 385,
  "yòng": 386,
  "shu": 387,
  "guān": 388,
  "tóng": 389,
  "》": 390,
  "《": 391,
  "fǎ": 392,
  "zhù": 393,
  "měi": 394,
  "há": 395,
  "·": 396,
  "jiān": 397,
  "jǐ": 398,
  "huò": 399,
  "dù": 400,
  "chu": 401,
  "běn": 402,
  "xiāng": 403,
  "zhí": 404,
  "dòng": 405,
  "xiàng": 406,
  "mín": 407,
  "jiāng": 408,
  "fēn": 409,
  "shǒu": 410,
  "quán": 411,
  "wén": 412,
  "yán": 413,
  "hà": 414,
  "suǒ": 415,
  "jiào": 416,
  "qián": 417,
  "diàn": 418,
  "tè": 419,
  "di": 420,
  "duō": 421,
  "ún": 422,
  "zuì": 423,
  "kāi": 424,
  "tu": 425,
  "jié": 426,
  "lián": 427,
  "zhǐ": 428,
  "kě": 429,
  "dàn": 430,
  "mù": 431,
  "yè": 432,
  "fú": 433,
  "mǎ": 434,
  "yě": 435,
  "dōng": 436,
  "qiú": 437,
  "běi": 438,
  "「": 439,
  "」": 440,
  "gāo": 441,
  "yà": 442,
  "qǐ": 443,
  "jiē": 444,
  "miàn": 445,
  "hǎi": 446,
  "zhǎng": 447,
  "shī": 448,
  "jīn": 449,
  "cǐ": 450,
  "lu": 451,
  "nèi": 452,
  "tǐ": 453,
  "sài": 454,
  "sān": 455,
  "tái": 456,
  "gé": 457,
  "xìng": 458,
  "guò": 459,
  "rù": 460,
  "201": 461,
  "děng": 462,
  "yào": 463,
  "ju": 464,
  "chē": 465,
  "cì": 466,
  "wǔ": 467,
  "gāi": 468,
  "dìng": 469,
  "cháng": 470,
  "biǎo": 471,
  "lā": 472,
  "gòng": 473,
  "jiè": 474,
  "shòu": 475,
  "dǎo": 476,
  "shān": 477,
  "chǎng": 478,
  "sì": 479,
  "bǐ": 480,
  "zé": 481,
  "tí": 482,
  "kē": 483,
  "dāng": 484,
  "néng": 485,
  "èr": 486,
  "wài": 487,
  "dān": 488,
  "xù": 489,
  "zi": 490,
  "kǒu": 491,
  "xiǎo": 492,
  "zǔ": 493,
  "bā": 494,
  "jué": 495,
  "lín": 496,
  "liú": 497,
  "shěng": 498,
  "yīng": 499,
  "ku": 500,
  "lán": 501,
  "luó": 502,
  "tōng": 503,
  "200": 504,
  "īng": 505,
  "�ng": 506,
  "mǐ": 507,
  "zhòng": 508,
  "en": 509,
  "zhě": 510,
  "shǔ": 511,
  "tiān": 512,
  "zhèn": 513,
  "ǚ": 514,
  "qì": 515,
  "zhǒng": 516,
  "liè": 517,
  "chēng": 518,
  "shū": 519,
  "yuàn": 520,
  "bǎo": 521,
  "tài": 522,
  "fǔ": 523,
  "fēng": 524,
  "gǔ": 525,
  "qīng": 526,
  "shēn": 527,
  "wáng": 528,
  "yùn": 529,
  "guǎn": 530,
  "fēi": 531,
  "jiù": 532,
  "liǎng": 533,
  "céng": 534,
  "méi": 535,
  "10": 536,
  "fèn": 537,
  "hào": 538,
  "yǎn": 540,
  "wěi": 541,
  "zǒng": 542,
  "xuǎn": 543,
  "xiào": 544,
  "dá": 545,
  "nà": 546,
  "liàng": 547,
  "bō": 548,
  "zú": 549,
  "jìng": 550,
  "bào": 551,
  "ní": 552,
  "wú": 553,
  "tǒng": 554,
  "huá": 555,
  "jiāo": 556,
  "yuē": 557,
  "yǐng": 558,
  "biàn": 559,
  "xīng": 560,
  "sù": 561,
  "shuǐ": 562,
  "yáng": 563,
  "hù": 564,
  "men": 565,
  "bāo": 566,
  "gē": 567,
  "bó": 568,
  "cān": 569,
  "cóng": 570,
  "diǎn": 571,
  "bì": 572,
  "rú": 573,
  "bàn": 574,
  "biān": 575,
  "wǎng": 576,
  "qǔ": 577,
  "mi": 578,
  "chǎn": 579,
  "sè": 580,
  "zī": 581,
  "chuán": 582,
  "00": 583,
  "shèng": 584,
  "rán": 585,
  "tú": 586,
  "zhāng": 587,
  "pǔ": 588,
  "gǎi": 589,
  "gǎng": 590,
  "nǚ": 591,
  "lìng": 592,
  "luò": 593,
  "yòu": 594,
  "tóu": 595,
  "cè": 596,
  "l�": 597,
  "chí": 598,
  "18": 599,
  "lǜ": 600,
  "qiān": 601,
  "shé": 602,
  "lí": 603,
  "dōu": 604,
  "pǐ": 605,
  "12": 606,
  "zhēng": 607,
  "ni": 608,
  "kuò": 609,
  "shā": 610,
  "dǎng": 611,
  "fǎn": 612,
  "gòu": 613,
  "lèi": 614,
  "xí": 615,
  "jǐng": 616,
  "tuán": 617,
  "wēi": 618,
  "xiē": 619,
  "lǐng": 620,
  "lóng": 621,
  "guī": 622,
  "xiān": 623,
  "róng": 624,
  "huáng": 625,
  "xiǎng": 626,
  "bān": 627,
  "jiǔ": 628,
  "yìng": 629,
  "mén": 630,
  "shāng": 631,
  "shén": 632,
  "202": 633,
  "bǎn": 634,
  "kǎ": 635,
  "mǔ": 636,
  "jǐn": 637,
  "fū": 638,
  "jǔ": 639,
  "mó": 640,
  "guǎng": 641,
  "cí": 642,
  "shuō": 643,
  "qíng": 644,
  "zhǎn": 645,
  "hái": 646,
  "zhuāng": 647,
  "mò": 648,
  "cái": 649,
  "dú": 650,
  "11": 651,
  "pǐn": 652,
  "tíng": 653,
  "cháo": 654,
  "yíng": 655,
  "tiáo": 656,
  "jiǎn": 657,
  "táng": 658,
  "huí": 659,
  "duàn": 660,
  "chén": 661,
  "gēn": 662,
  "mì": 663,
  "wàn": 664,
  "pái": 665,
  "wān": 666,
  "zào": 667,
  "háng": 668,
  "wán": 669,
  "biāo": 670,
  "gù": 671,
  "lún": 672,
  "199": 673,
  "xié": 674,
  "jiǎng": 675,
  "hàn": 676,
  "jú": 677,
  "fàn": 678,
  "fáng": 679,
  "huó": 680,
  "hán": 681,
  "pi": 682,
  "kōng": 683,
  "or": 684,
  "tiě": 685,
  "méng": 686,
  "bié": 687,
  "wū": 688,
  "jiě": 689,
  "zhuān": 690,
  "yǐn": 691,
  "xū": 692,
  "zhēn": 693,
  "dǐ": 694,
  "er": 695,
  "chú": 696,
  "hú": 697,
  "jià": 698,
  "bīng": 699,
  "mìng": 700,
  "líng": 701,
  "hóng": 702,
  "qīn": 703,
  "zǐ": 704,
  "lùn": 705,
  "xìn": 706,
  "chù": 707,
  "chǔ": 708,
  "sū": 709,
  "an": 710,
  "xiū": 711,
  "zōng": 712,
  "15": 713,
  "què": 714,
  "xiāo": 715,
  "zhào": 716,
  "qiáng": 717,
  "qù": 718,
  "cūn": 719,
  "chóng": 720,
  "piàn": 721,
  "jiū": 722,
  "fàng": 723,
  "suí": 724,
  "shōu": 725,
  "gèng": 726,
  "guāng": 728,
  "èng": 729,
  "jū": 730,
  "on": 731,
  "jiǎ": 732,
  "chuàng": 733,
  "dí": 734,
  "16": 735,
  "zhuǎn": 736,
  "guǒ": 737,
  "xùn": 738,
  "màn": 739,
  "pài": 740,
  "fèi": 741,
  "pèi": 742,
  "198": 743,
  "dǎ": 744,
  "tuō": 745,
  "la": 746,
  "xuān": 747,
  "bái": 748,
  "zhū": 749,
  "dū": 750,
  "tǔ": 751,
  "diào": 752,
  "xiá": 753,
  "liù": 754,
  "17": 755,
  "suì": 756,
  "huī": 757,
  "tīng": 758,
  "qiě": 759,
  "tǎ": 760,
  "qiáo": 761,
  "hā": 762,
  "gǎn": 763,
  "zēng": 764,
  "xiǎn": 765,
  "mài": 766,
  "huán": 767,
  "xǔ": 768,
  "wǎ": 769,
  "tuī": 770,
  "wèn": 771,
  "chāo": 772,
  "tián": 773,
  "bǎi": 774,
  "cǎi": 775,
  "liáng": 776,
  "yá": 777,
  "sà": 778,
  "ar": 779,
  "bài": 780,
  "cún": 781,
  "jiǎo": 782,
  "shǎo": 783,
  "yàn": 784,
  "zhuàng": 785,
  "huǒ": 786,
  "léi": 787,
  "14": 788,
  "zu": 789,
  "jiàng": 790,
  "chuān": 791,
  "yìn": 792,
  "zǎo": 793,
  "chà": 794,
  "yǒng": 795,
  "sǐ": 796,
  "dēng": 797,
  "30": 798,
  "zhǔn": 799,
  "lè": 800,
  "xún": 801,
  "nuò": 802,
  "kù": 803,
  "huàn": 804,
  "sòng": 805,
  "gào": 806,
  "lǔ": 807,
  "13": 808,
  "194": 809,
  "bāng": 810,
  "lǚ": 811,
  "pī": 812,
  "yàng": 813,
  "hěn": 814,
  "qún": 815,
  "zhěng": 816,
  "guàn": 817,
  "pò": 818,
  "gāng": 819,
  "wǒ": 820,
  "197": 821,
  "huā": 822,
  "lēi": 823,
  "hǎo": 824,
  "táo": 825,
  "kuàng": 826,
  "hè": 827,
  "in": 828,
  "dùn": 829,
  "nóng": 830,
  "gěi": 831,
  "sāi": 832,
  "shuāng": 833,
  "liàn": 834,
  "kuài": 835,
  "dī": 836,
  "bī": 837,
  "pàn": 838,
  "xiě": 839,
  "195": 840,
  "kǎo": 841,
  "gài": 842,
  "hēi": 843,
  "wàng": 844,
  "liào": 845,
  "rè": 846,
  "ge": 847,
  "zuǒ": 848,
  "kòng": 849,
  "196": 850,
  "yāng": 851,
  "chàng": 852,
  "yín": 853,
  "réng": 855,
  "sēn": 856,
  "bēi": 857,
  "lú": 858,
  "piào": 859,
  "yā": 860,
  "25": 861,
  "bīn": 862,
  "—": 863,
  "ràng": 864,
  "chōng": 865,
  "lóu": 866,
  "bǔ": 867,
  "lǎo": 868,
  "zhú": 869,
  "jùn": 870,
  "yǎng": 871,
  "ruì": 872,
  "yāo": 873,
  "xián": 874,
  "xiè": 875,
  "niàn": 876,
  "for": 877,
  "yōu": 878,
  "tán": 879,
  "kāng": 880,
  "pí": 881,
  "héng": 882,
  "yún": 883,
  "xǐ": 884,
  "kàn": 885,
  "níng": 886,
  "liáo": 887,
  "shào": 888,
  "bú": 889,
  "24": 890,
  "qǐng": 891,
  "chǐ": 892,
  "mu": 893,
  "dòu": 894,
  "miǎn": 895,
  "yōng": 896,
  "tǎn": 897,
  "wǎn": 898,
  "hū": 899,
  "fān": 900,
  "al": 901,
  "tū": 902,
  "gān": 903,
  "suàn": 904,
  "dīng": 905,
  "yuǎn": 906,
  "wēn": 907,
  "tuì": 908,
  "zhe": 909,
  "21": 910,
  "st": 911,
  "xiù": 912,
  "bǎ": 913,
  "mǎn": 914,
  "193": 915,
  "23": 916,
  "mula": 917,
  "kàng": 918,
  "formula": 919,
  "28": 920,
  "th": 921,
  "máo": 922,
  "ruò": 923,
  "piān": 924,
  "chè": 925,
  "mào": 926,
  "lǎng": 927,
  "qín": 928,
  "bá": 929,
  "ná": 930,
  "zàn": 931,
  "guǐ": 932,
  "guì": 933,
  "ou": 934,
  "pín": 935,
  "wò": 936,
  "xióng": 937,
  "shàn": 938,
  "re": 939,
  "22": 940,
  "xiōng": 941,
  "me": 942,
  "suī": 943,
  "ü": 944,
  "26": 945,
  "shěn": 946,
  "qìng": 947,
  "miáo": 948,
  "fǎng": 949,
  "50": 950,
  "2020": 951,
  "27": 952,
  "láng": 953,
  "ru": 954,
  "qiū": 955,
  "sōng": 956,
  "üè": 957,
  "dàng": 958,
  "gēng": 959,
  "qiāng": 960,
  "ri": 961,
  "fá": 962,
  "zāo": 963,
  "fèng": 964,
  "zhàng": 965,
  "háo": 967,
  "dūn": 968,
  "zǒu": 969,
  "hài": 970,
  "qiè": 971,
  "29": 972,
  "tàn": 973,
  "pào": 974,
  "pà": 975,
  "shùn": 976,
  "péng": 977,
  "xuán": 978,
  "2010": 979,
  "nǐ": 980,
  "000": 981,
  "dǐng": 982,
  "niǔ": 983,
  "zǎi": 984,
  "zhāo": 985,
  "zhuī": 986,
  "lüè": 987,
  "chūn": 988,
  "2019": 989,
  "hūn": 990,
  "kǒng": 991,
  "duān": 992,
  "shèn": 993,
  "xiáng": 994,
  "duǎn": 995,
  "gàn": 996,
  "te": 997,
  "ro": 998,
  "kān": 999,
  "láo": 1000,
  "cǎo": 1001,
  "2016": 1002,
  "si": 1003,
  "gū": 1004,
  "péi": 1005,
  "2018": 1006,
  "kuǎn": 1007,
  "zá": 1008,
  "sūn": 1009,
  "yé": 1010,
  "yǎ": 1011,
  "pō": 1012,
  "2021": 1013,
  "ra": 1014,
  "chì": 1015,
  "duó": 1016,
  "2014": 1017,
  "fán": 1018,
  "2011": 1019,
  "2015": 1020,
  "cuò": 1021,
  "2017": 1022,
  "zhé": 1023,
  "yáo": 1024,
  "pāi": 1025,
  "tòu": 1026,
  "cáng": 1027,
  "2012": 1028,
  "40": 1029,
  "kǎi": 1030,
  "2013": 1031,
  "2022": 1032,
  "mí": 1033,
  "ruǎn": 1034,
  "suān": 1035,
  "chā": 1036,
  "zàng": 1037,
  "miào": 1038,
  "lt": 1039,
  "2009": 1040,
  "zhǎo": 1041,
  "2008": 1042,
  "huái": 1043,
  "ce": 1045,
  "60": 1046,
  "am": 1047,
  "cu": 1048,
  "xuè": 1049,
  "chóu": 1050,
  "se": 1051,
  "bǎng": 1052,
  "mèng": 1053,
  "100": 1054,
  "tì": 1055,
  "pú": 1056,
  "nǎo": 1057,
  "2023": 1058,
  "zhuàn": 1059,
  "gt": 1060,
  "lěi": 1061,
  "190": 1062,
  "31": 1063,
  "cài": 1064,
  "cù": 1065,
  "sàn": 1066,
  "móu": 1067,
  "tion": 1068,
  "ta": 1069,
  "hùn": 1070,
  "ǔn": 1071,
  "kuān": 1072,
  "2007": 1073,
  "niú": 1074,
  "mǒu": 1075,
  "tǎo": 1076,
  "dié": 1077,
  "2001": 1078,
  "ol": 1079,
  "téng": 1080,
  "sōu": 1081,
  "kěn": 1082,
  "qiǎn": 1083,
  "chāng": 1084,
  "rǎn": 1085,
  "quē": 1086,
  "fǒu": 1087,
  "sǔn": 1088,
  "el": 1089,
  "bà": 1090,
  "2000": 1091,
  "80": 1092,
  "kào": 1093,
  "suō": 1094,
  "2006": 1095,
  "niǎo": 1096,
  "chún": 1097,
  "ma": 1098,
  "2024": 1099,
  "lǎn": 1100,
  "zāi": 1102,
  "zhá": 1103,
  "xuě": 1104,
  "huǐ": 1105,
  "luàn": 1106,
  "tǐng": 1107,
  "2005": 1108,
  "zūn": 1109,
  "bàng": 1110,
  "là": 1111,
  "huān": 1112,
  "rǎng": 1113,
  "shuì": 1114,
  "mǐn": 1115,
  "35": 1116,
  "lài": 1117,
  "cāng": 1118,
  "70": 1119,
  "fó": 1120,
  "pán": 1121,
  "of": 1122,
  "nài": 1123,
  "wěn": 1124,
  "et": 1125,
  "cāo": 1126,
  "sāng": 1127,
  "páng": 1128,
  "90": 1129,
  "bǐng": 1130,
  "－": 1131,
  "zhā": 1132,
  "shuài": 1134,
  "niè": 1135,
  "es": 1136,
  "hóu": 1137,
  "mèi": 1138,
  "shāo": 1139,
  "nǔ": 1140,
  "dǒng": 1141,
  "il": 1142,
  "at": 1143,
  "ow": 1144,
  "féng": 1145,
  "miè": 1146,
  "yǔn": 1147,
  "zòu": 1148,
  "mǎi": 1149,
  "huài": 1150,
  "2004": 1151,
  "45": 1152,
  "yān": 1153,
  "co": 1154,
  "48": 1155,
  "the": 1156,
  "zhuó": 1157,
  "and": 1158,
  "ter": 1159,
  "he": 1160,
  "tào": 1161,
  "nǎi": 1162,
  "kūn": 1163,
  "2025": 1164,
  "zhěn": 1165,
  "ck": 1166,
  "rǔ": 1167,
  "kuà": 1168,
  "kuí": 1169,
  "〉": 1170,
  "〈": 1171,
  "gōu": 1172,
  "36": 1173,
  "cuī": 1174,
  "38": 1175,
  "shǎn": 1176,
  "ròu": 1177,
  "diāo": 1178,
  "2003": 1179,
  "hǔ": 1180,
  "guō": 1181,
  "37": 1182,
  "cuì": 1183,
  "ne": 1184,
  "xú": 1185,
  "máng": 1186,
  "juǎn": 1187,
  "cán": 1188,
  "diān": 1189,
  "zhān": 1190,
  "cáo": 1191,
  "189": 1192,
  "IN": 1193,
  "2002": 1194,
  "is": 1195,
  "bo": 1196,
  "kēng": 1197,
  "TC": 1198,
  "ve": 1199,
  "34": 1200,
  "má": 1201,
  "lěng": 1202,
  "as": 1203,
  "zū": 1204,
  "75": 1205,
  "–": 1206,
  "sú": 1207,
  "quān": 1208,
  "dā": 1209,
  "to": 1210,
  "chāi": 1211,
  "nu": 1212,
  "làng": 1213,
  "kùn": 1214,
  "46": 1215,
  "tún": 1216,
  "fěn": 1217,
  "1990": 1218,
  "…": 1219,
  "zhòu": 1220,
  "shǎng": 1221,
  "rào": 1222,
  "hēng": 1223,
  "tī": 1224,
  "xūn": 1225,
  "39": 1226,
  "nè": 1227,
  "..": 1228,
  "pì": 1229,
  "nàn": 1230,
  "pān": 1231,
  "65": 1232,
  "hōng": 1233,
  "shú": 1234,
  "tān": 1235,
  "Ch": 1236,
  "tāng": 1237,
  "kǎn": 1238,
  "Ma": 1239,
  "nì": 1240,
  "32": 1241,
  "In": 1242,
  "ST": 1243,
  "47": 1244,
  "hǎn": 1245,
  "it": 1246,
  "UTC": 1247,
  "qiàn": 1248,
  "1999": 1249,
  "1998": 1250,
  "1980": 1251,
  "188": 1252,
  "500": 1253,
  "33": 1254,
  "64": 1255,
  "qiǎng": 1256,
  "shuò": 1257,
  "pǎo": 1258,
  "lo": 1259,
  "be": 1260,
  "kā": 1261,
  "zhái": 1262,
  "SE": 1263,
  "55": 1264,
  "quàn": 1265,
  "nī": 1266,
  "dèng": 1267,
  "1997": 1268,
  "The": 1269,
  "mián": 1270,
  "49": 1271,
  "gǎo": 1272,
  "II": 1273,
  "68": 1274,
  "Co": 1275,
  "vi": 1276,
  "shě": 1277,
  "zèng": 1278,
  "Re": 1279,
  "han": 1280,
  "zhóu": 1281,
  "zhài": 1282,
  "44": 1283,
  "1996": 1284,
  "na": 1285,
  "tiē": 1286,
  "dāo": 1287,
  "ad": 1288,
  "br": 1289,
  "1994": 1290,
  "ver": 1291,
  "féi": 1292,
  "zòng": 1293,
  "qióng": 1294,
  "ci": 1295,
  "tiào": 1296,
  "chuáng": 1297,
  "1992": 1298,
  "ba": 1299,
  "chuí": 1300,
  "juān": 1301,
  "chái": 1302,
  "miǎo": 1303,
  "guā": 1304,
  "xuē": 1305,
  "tòng": 1306,
  "1995": 1307,
  "fěi": 1308,
  "chī": 1309,
  "oo": 1310,
  "měng": 1311,
  "wō": 1312,
  "67": 1313,
  "ir": 1314,
  "shuāi": 1315,
  "tuó": 1316,
  "chuāng": 1317,
  "huǎn": 1318,
  "1991": 1319,
  "1970": 1320,
  "58": 1321,
  "ay": 1322,
  "1950": 1323,
  "ca": 1324,
  "nd": 1325,
  "guà": 1326,
  "chán": 1327,
  "300": 1328,
  "wā": 1329,
  "1993": 1330,
  "187": 1331,
  "1949": 1332,
  "pe": 1333,
  "sā": 1334,
  "tiǎo": 1335,
  "AT": 1336,
  "1960": 1337,
  "biǎn": 1338,
  "42": 1339,
  "1945": 1340,
  "ing": 1341,
  "guài": 1342,
  "au": 1343,
  "kǔ": 1344,
  "nú": 1345,
  "1988": 1346,
  "dǔ": 1347,
  "1989": 1348,
  "ig": 1349,
  "pù": 1350,
  "69": 1351,
  "liǔ": 1352,
  "gǒng": 1353,
  "SEE": 1354,
  "tuò": 1355,
  "amp": 1356,
  "ct": 1357,
  "liǎo": 1358,
  "INSEE": 1359,
  "59": 1360,
  "tāi": 1361,
  "43": 1362,
  "66": 1363,
  "chuàn": 1364,
  "op": 1365,
  "chèn": 1366,
  "os": 1367,
  "57": 1368,
  "1985": 1369,
  "huāng": 1370,
  "99": 1371,
  "SA": 1372,
  "『": 1373,
  "cùn": 1374,
  "』": 1375,
  "1984": 1376,
  "hún": 1377,
  "41": 1378,
  "pū": 1379,
  "ly": 1380,
  "us": 1381,
  "kòu": 1382,
  "fén": 1383,
  "88": 1384,
  "1986": 1385,
  "rǎo": 1386,
  "mp": 1387,
  "St": 1388,
  "id": 1389,
  "rùn": 1390,
  "TV": 1391,
  "150": 1392,
  "zhuō": 1393,
  "ind": 1394,
  "400": 1395,
  "sǎn": 1396,
  "1987": 1397,
  "78": 1398,
  "un": 1399,
  "ed": 1400,
  "ha": 1401,
  "1982": 1402,
  "56": 1403,
  "Li": 1404,
  "ur": 1405,
  "ard": 1406,
  "nuó": 1407,
  "1983": 1408,
  "NA": 1409,
  "gǔn": 1410,
  "Ro": 1411,
  "De": 1412,
  "ss": 1413,
  "mā": 1414,
  "tou": 1415,
  "pìn": 1416,
  "CD": 1417,
  "chōu": 1418,
  "ber": 1419,
  "gǒu": 1420,
  "quǎn": 1421,
  "Mi": 1422,
  "77": 1423,
  "zhāi": 1424,
  "Me": 1425,
  "qià": 1426,
  "māo": 1427,
  "qiǎo": 1428,
  "Mar": 1429,
  "tw": 1430,
  "kū": 1431,
  "kuáng": 1432,
  "róu": 1433,
  "der": 1434,
  "79": 1435,
  "lòu": 1436,
  "OS": 1437,
  "°": 1438,
  "kuì": 1439,
  "sàng": 1440,
  "Al": 1442,
  "180": 1443,
  "ty": 1444,
  "BC": 1445,
  "54": 1446,
  "1979": 1447,
  "61": 1448,
  "1920": 1449,
  "ang": 1450,
  "pēn": 1451,
  "98": 1452,
  "sēng": 1453,
  "52": 1454,
  "You": 1455,
  "ap": 1456,
  "1978": 1457,
  "nù": 1458,
  "wēng": 1459,
  "62": 1460,
  "yē": 1461,
  "duǒ": 1462,
  "Le": 1463,
  "53": 1464,
  "xǐng": 1465,
  "juàn": 1466,
  "～": 1467,
  "BA": 1468,
  "ke": 1469,
  "1946": 1470,
  "ts": 1471,
  "CO": 1472,
  "mo": 1473,
  "ction": 1474,
  "51": 1475,
  "1958": 1476,
  "1981": 1477,
  "Vi": 1478,
  "1972": 1479,
  "1948": 1480,
  "zhuì": 1481,
  "cōng": 1482,
  "tōu": 1483,
  "AM": 1484,
  "hi": 1485,
  "63": 1486,
  "man": 1487,
  "ows": 1488,
  "AR": 1489,
  "ry": 1490,
  "1941": 1491,
  "Wind": 1492,
  "BS": 1493,
  "wá": 1494,
  "liǎn": 1495,
  "1930": 1496,
  "Mo": 1497,
  "Pro": 1498,
  "luǎn": 1499,
  "kuāng": 1500,
  "qú": 1501,
  "tuǒ": 1502,
  "ké": 1503,
  "76": 1504,
  "hans": 1505,
  "va": 1506,
  "1940": 1507,
  "1937": 1508,
  "con": 1509,
  "1976": 1510,
  "zuǐ": 1511,
  "1944": 1512,
  "Jo": 1513,
  "89": 1514,
  "1975": 1515,
  "um": 1516,
  "／": 1517,
  "Te": 1518,
  "1968": 1519,
  "niáng": 1520,
  "pó": 1521,
  "shuā": 1522,
  "hk": 1523,
  "yuān": 1524,
  "tāo": 1525,
  "per": 1526,
  "wāng": 1527,
  "ga": 1528,
  "1000": 1529,
  "ran": 1530,
  "Windows": 1531,
  "95": 1532,
  "Ne": 1533,
  "bí": 1534,
  "sǎo": 1535,
  "da": 1536,
  "87": 1537,
  "1966": 1538,
  "85": 1539,
  "fà": 1540,
  "pēng": 1541,
  "600": 1542,
  "làn": 1543,
  "Se": 1544,
  "Sta": 1545,
  "sp": 1546,
  "120": 1547,
  "1947": 1548,
  "Ga": 1549,
  "Ar": 1550,
  "ot": 1551,
  "gā": 1552,
  "1956": 1553,
  "AC": 1554,
  "1964": 1555,
  "dǎn": 1556,
  "cū": 1557,
  "1942": 1558,
  "1955": 1559,
  "chǒu": 1560,
  "lay": 1561,
  "1952": 1562,
  "1939": 1563,
  "IS": 1564,
  "1938": 1565,
  "72": 1566,
  "74": 1567,
  "ht": 1568,
  "rěn": 1569,
  "1973": 1570,
  "ace": 1571,
  "fi": 1572,
  "1974": 1573,
  "1954": 1574,
  "qiē": 1575,
  "ED": 1576,
  "1900": 1577,
  "--": 1578,
  "Be": 1579,
  "AP": 1580,
  "ore": 1581,
  "1943": 1582,
  "1977": 1583,
  "Da": 1584,
  "1971": 1585,
  "pīn": 1586,
  "pǒ": 1587,
  "mán": 1588,
  "1967": 1589,
  "shéng": 1590,
  "ment": 1591,
  "IC": 1592,
  "800": 1593,
  "ER": 1594,
  "La": 1595,
  "86": 1596,
  "1959": 1597,
  "bēng": 1598,
  "son": 1599,
  "1965": 1600,
  "JR": 1601,
  "1969": 1602,
  "Ra": 1603,
  "duī": 1604,
  "Di": 1605,
  "ok": 1606,
  "pén": 1607,
  "・": 1608,
  "×": 1609,
  "qiào": 1610,
  "chuī": 1611,
  "ID": 1612,
  "qiāo": 1613,
  "Su": 1614,
  "ine": 1615,
  "1936": 1616,
  "160": 1617,
  "97": 1618,
  "bēn": 1619,
  "zhuā": 1620,
  "ent": 1621,
  "1953": 1622,
  "Sa": 1623,
  "1962": 1624,
  "MA": 1625,
  "Tu": 1626,
  "tic": 1627,
  "1961": 1628,
  "lǒng": 1629,
  "ation": 1630,
  "1935": 1632,
  "tà": 1633,
  "mái": 1634,
  "Sh": 1635,
  "96": 1636,
  "ON": 1637,
  "ak": 1638,
  "％": 1639,
  "1951": 1640,
  "1957": 1641,
  "1963": 1642,
  "Lo": 1643,
  "─": 1644,
  "one": 1645,
  "rou": 1646,
  "84": 1647,
  "Ja": 1648,
  "2026": 1649,
  "do": 1650,
  "cǎn": 1651,
  "82": 1652,
  "gi": 1653,
  "bu": 1654,
  "mer": 1655,
  "73": 1656,
  "po": 1657,
  "94": 1658,
  "tūn": 1659,
  "92": 1660,
  "So": 1661,
  "AN": 1662,
  "IP": 1663,
  "An": 1664,
  "ho": 1665,
  "ali": 1666,
  "1933": 1667,
  "Mu": 1668,
  "1931": 1669,
  "náng": 1670,
  "niào": 1671,
  "les": 1672,
  "71": 1673,
  "báo": 1674,
  "nuǎn": 1675,
  "léng": 1676,
  "pá": 1677,
  "83": 1678,
  "93": 1679,
  "ai": 1680,
  "We": 1681,
  "81": 1682,
  "dǒu": 1683,
  "1918": 1684,
  "sta": 1685,
  "HD": 1686,
  "Bo": 1687,
  "sāo": 1688,
  "Uni": 1689,
  "1928": 1690,
  "luán": 1691,
  "ki": 1692,
  "1932": 1693,
  "wi": 1694,
  "nèn": 1695,
  "col": 1696,
  "int": 1697,
  "MV": 1698,
  "SS": 1699,
  "our": 1700,
  "110": 1701,
  "tù": 1702,
  "IT": 1703,
  "1912": 1704,
  "all": 1705,
  "1929": 1706,
  "tuǐ": 1707,
  "duò": 1708,
  "1927": 1709,
  "cn": 1710,
  "1934": 1711,
  "are": 1712,
  "Pa": 1713,
  "700": 1714,
  "gá": 1715,
  "che": 1716,
  "by": 1717,
  "ted": 1718,
  "ster": 1719,
  "huǎng": 1720,
  "Si": 1721,
  "250": 1722,
  "ff": 1723,
  "91": 1724,
  "mm": 1725,
  "Par": 1726,
  "zéi": 1727,
  "Ri": 1728,
  "1924": 1729,
  "pp": 1730,
  "ph": 1731,
  "...": 1732,
  "1919": 1733,
  "kuī": 1734,
  "He": 1735,
  "so": 1736,
  "xuàn": 1737,
  "130": 1738,
  "piāo": 1739,
  "no": 1740,
  "1925": 1741,
  "PS": 1742,
  "Play": 1743,
  "pāo": 1744,
  "140": 1745,
  "xiā": 1746,
  "Bu": 1747,
  "Ca": 1748,
  "SM": 1749,
  "Con": 1750,
  "Sp": 1751,
  "PC": 1752,
  "1914": 1753,
  "ble": 1754,
  "ste": 1755,
  "zhǎi": 1756,
  "km": 1757,
  "DV": 1758,
  "zhē": 1759,
  "En": 1760,
  "mes": 1761,
  "YouTu": 1762,
  "com": 1763,
  "Ba": 1764,
  "hē": 1765,
  "Fi": 1766,
  "Ti": 1767,
  "diē": 1768,
  "ell": 1769,
  "gra": 1770,
  "lǎ": 1771,
  "AS": 1772,
  "ia": 1773,
  "1911": 1774,
  "Wi": 1775,
  "shi": 1776,
  "end": 1777,
  "ill": 1778,
  "nüè": 1779,
  "ana": 1780,
  "ara": 1781,
  "Ge": 1782,
  "1926": 1783,
  "den": 1784,
  "1922": 1785,
  "Na": 1786,
  "nǎ": 1787,
  "sion": 1788,
  "hèn": 1789,
  "1917": 1790,
  "ET": 1791,
  "NBA": 1792,
  "IV": 1793,
  "shuí": 1794,
  "cāi": 1795,
  "ráo": 1796,
  "EN": 1797,
  "1923": 1798,
  "art": 1799,
  "1921": 1800,
  "fe": 1801,
  "pèng": 1802,
  "sa": 1803,
  "ka": 1804,
  "kuā": 1805,
  "Goo": 1806,
  "ther": 1807,
  "chǒng": 1808,
  "To": 1809,
  "170": 1810,
  "EC": 1812,
  "ld": 1813,
  "mǎo": 1814,
  "nòng": 1815,
  "AL": 1816,
  "Ha": 1817,
  "MS": 1818,
  "section": 1819,
  "Ni": 1820,
  "YouTube": 1821,
  "EP": 1822,
  "hn": 1823,
  "BL": 1824,
  "1913": 1825,
  "tiāo": 1826,
  "Ju": 1827,
  "HK": 1828,
  "ler": 1829,
  "hant": 1831,
  "gùn": 1832,
  "1909": 1833,
  "gin": 1834,
  "Inter": 1835,
  "cro": 1836,
  "Ste": 1837,
  "MP": 1838,
  "AI": 1839,
  "Ho": 1840,
  "gěng": 1841,
  "Wor": 1842,
  "nào": 1843,
  "Po": 1844,
  "fěng": 1845,
  "Do": 1846,
  "luǒ": 1847,
  "US": 1848,
  "ant": 1849,
  "go": 1850,
  "ya": 1851,
  "DVD": 1852,
  "ort": 1853,
  "zōu": 1854,
  "ris": 1855,
  "3000": 1856,
  "Pi": 1857,
  "cā": 1858,
  "Car": 1859,
  "1910": 1860,
  "RO": 1861,
  "DS": 1862,
  "Th": 1863,
  "112": 1864,
  "AK": 1865,
  "My": 1866,
  "pen": 1867,
  "RE": 1868,
  "pro": 1869,
  "ven": 1870,
  "1916": 1871,
  "Station": 1872,
  "ー": 1873,
  "chuò": 1874,
  "Net": 1875,
  "α": 1876,
  "Ki": 1877,
  "Sch": 1878,
  "olo": 1879,
  "No": 1880,
  "ari": 1881,
  "ture": 1882,
  "gn": 1883,
  "Lin": 1884,
  "CP": 1885,
  "UN": 1886,
  "gle": 1887,
  "ers": 1889,
  "hén": 1890,
  "1915": 1891,
  "oun": 1892,
  "niàng": 1893,
  "1905": 1894,
  "FC": 1895,
  "my": 1896,
  "Lu": 1897,
  "ll": 1898,
  "Wil": 1899,
  "CN": 1900,
  "→": 1902,
  "1901": 1903,
  "Fa": 1904,
  "Au": 1905,
  "ting": 1906,
  "New": 1907,
  "DNA": 1908,
  "Ex": 1909,
  "‧": 1910,
  "ary": 1911,
  "900": 1912,
  "Ph": 1913,
  "sic": 1914,
  "HR": 1915,
  "dice": 1916,
  "sis": 1917,
  ".&": 1918,
  "CH": 1919,
  "zěn": 1920,
  "TA": 1921,
  "dia": 1922,
  "Qu": 1923,
  "TO": 1924,
  "1906": 1925,
  "len": 1926,
  "1904": 1927,
  "chuǎng": 1928,
  "AV": 1929,
  "For": 1930,
  "gěn": 1931,
  "John": 1932,
  "we": 1933,
  "ere": 1934,
  "And": 1935,
  "MO": 1936,
  "ding": 1937,
  "codice": 1938,
  "chǎo": 1939,
  "jiǒng": 1940,
  "℃": 1941,
  "Ta": 1942,
  "pa": 1943,
  "ps": 1944,
  "PlayStation": 1945,
  "fu": 1946,
  "ko": 1947,
  "wà": 1948,
  "bèng": 1949,
  "05": 1950,
  "CC": 1951,
  "ton": 1952,
  "vo": 1953,
  "eri": 1954,
  "diū": 1955,
  "1907": 1956,
  "1908": 1957,
  "Google": 1958,
  "AG": 1959,
  "EST": 1960,
  "MI": 1961,
  "zuàn": 1962,
  "SO": 1963,
  "ory": 1964,
  "tes": 1965,
  "LE": 1966,
  "Gu": 1967,
  "jiá": 1968,
  "zuǎn": 1969,
  "cy": 1970,
  "lī": 1971,
  "chi": 1972,
  "ley": 1973,
  "BO": 1974,
  "enter": 1975,
  "BBC": 1976,
  "AD": 1977,
  "IG": 1978,
  "cal": 1979,
  "III": 1980,
  "Cu": 1981,
  "cri": 1982,
  "oft": 1983,
  "1500": 1984,
  "Ru": 1985,
  "lin": 1986,
  "5000": 1987,
  "ori": 1988,
  "zuān": 1989,
  "pu": 1990,
  "Go": 1991,
  "IST": 1992,
  "shē": 1993,
  "lǘ": 1994,
  "Fe": 1995,
  "Col": 1996,
  "wor": 1997,
  "Sy": 1998,
  "Ka": 1999,
  "ME": 2000,
  "tive": 2001,
  "CR": 2002,
  "gen": 2003,
  "3D": 2004,
  "wit": 2005,
  "round": 2006,
  "IA": 2007,
  "guǎ": 2008,
  "105": 2009,
  "je": 2010,
  "ron": 2011,
  "mà": 2012,
  "а": 2013,
  "101": 2014,
  "1903": 2015,
  "GB": 2016,
  "pīng": 2017,
  "cha": 2018,
  "shá": 2019,
  "lan": 2020,
  "09": 2021,
  "TE": 2022,
  "ree": 2023,
  "Ad": 2024,
  "Hu": 2025,
  "càn": 2026,
  "cén": 2027,
  "1902": 2028,
  "BD": 2029,
  "NC": 2030,
  "land": 2031,
  "can": 2032,
  "ze": 2033,
  "own": 2034,
  "ess": 2035,
  "pāng": 2036,
  "xt": 2037,
  "350": 2038,
  "wa": 2039,
  "ina": 2040,
  "SAO": 2041,
  "sháo": 2042,
  "DC": 2043,
  "net": 2044,
  "span": 2045,
  "des": 2046,
  "β": 2047,
  "ght": 2048,
  "lìn": 2049,
  "ence": 2050,
  "B1900": 2051,
  "inc": 2052,
  "book": 2053,
  "del": 2054,
  "ES": 2055,
  "BM": 2056,
  "．": 2057,
  "dy": 2058,
  "ン": 2059,
  "Hi": 2060,
  "1898": 2061,
  "06": 2062,
  "118": 2063,
  "Pe": 2064,
  "ms": 2065,
  "の": 2066,
  "lá": 2067,
  "pt": 2068,
  "qǐn": 2069,
  "tel": 2070,
  "360": 2071,
  "DR": 2072,
  "mon": 2073,
  "01": 2074,
  "DA": 2075,
  "gh": 2076,
  "Open": 2077,
  "1895": 2078,
  "lào": 2079,
  "yle": 2080,
  "125": 2081,
  "mú": 2082,
  "lar": 2083,
  "bèn": 2084,
  "HO": 2085,
  "Ko": 2086,
  "MC": 2087,
  "ance": 2088,
  "ATP": 2089,
  "Micro": 2090,
  "о": 2091,
  "108": 2092,
  "gy": 2093,
  "NG": 2094,
  "pōu": 2095,
  "igh": 2096,
  "sy": 2097,
  "cor": 2098,
  "tt": 2099,
  "dio": 2100,
  "Ke": 2101,
  "qié": 2102,
  "za": 2103,
  "App": 2104,
  "Pu": 2105,
  "ning": 2106,
  "gram": 2107,
  "IF": 2108,
  "Fran": 2109,
  "ft": 2110,
  "res": 2111,
  "Com": 2112,
  "tin": 2113,
  "−": 2114,
  "07": 2115,
  "08": 2116,
  "230": 2117,
  "Face": 2118,
  "104": 2119,
  "Du": 2120,
  "ref": 2121,
  "One": 2122,
  "World": 2123,
  "old": 2124,
  "Ser": 2125,
  "soft": 2126,
  "EDT": 2127,
  "ISTAT": 2128,
  "Mon": 2129,
  "Stu": 2130,
  "shāi": 2131,
  "sǒng": 2132,
  "NO": 2134,
  "ner": 2135,
  "1896": 2136,
  "Cor": 2137,
  "LL": 2138,
  "Bi": 2139,
  "ger": 2140,
  "lus": 2141,
  "109": 2142,
  "DP": 2143,
  "yū": 2144,
  "las": 2145,
  "AA": 2146,
  "fli": 2147,
  "Comp": 2148,
  "rea": 2149,
  "gě": 2150,
  "RI": 2151,
  "vel": 2152,
  "ren": 2153,
  "line": 2154,
  "RT": 2155,
  "suǐ": 2156,
  "SP": 2157,
  "xiáo": 2158,
  "qiǎ": 2159,
  "EX": 2160,
  "rě": 2161,
  "Bar": 2162,
  "Bri": 2163,
  "ling": 2164,
  "bert": 2165,
  "B48": 2166,
  "106": 2167,
  "1890": 2168,
  "ctor": 2169,
  "CST": 2170,
  "San": 2171,
  "ML": 2172,
  "CDT": 2173,
  "Love": 2174,
  "ity": 2175,
  "mar": 2176,
  "zāng": 2177,
  "row": 2178,
  "DO": 2179,
  "with": 2180,
  "HE": 2181,
  "fa": 2182,
  "Per": 2183,
  "pēi": 2184,
  "ward": 2185,
  "Har": 2186,
  "Man": 2187,
  "ds": 2188,
  "tional": 2189,
  "tain": 2190,
  "ja": 2191,
  "04": 2192,
  "4000": 2193,
  "115": 2194,
  "cuàn": 2195,
  "1200": 2196,
  "ky": 2197,
  "ux": 2198,
  "ound": 2199,
  "ight": 2200,
  "M1": 2201,
  "03": 2202,
  "GP": 2203,
  "páo": 2204,
  "CE": 2205,
  "back": 2206,
  "1889": 2207,
  "begin": 2208,
  "Je": 2209,
  "1899": 2210,
  "ool": 2211,
  "colspan": 2212,
  "1871": 2213,
  "ring": 2214,
  "Ed": 2215,
  "RS": 2216,
  "de ": 2217,
  " de ": 2218,
  "shì ": 2219,
  " shì ": 2220,
  " nián": 2221,
  " nián ": 2222,
  "wèi ": 2223,
  "zài ": 2224,
  " wèi ": 2225,
  " zài ": 2226,
  "hé ": 2227,
  " hé ": 2228,
  "zhōng ": 2229,
  "bù ": 2230,
  "dì ": 2231,
  "shí ": 2232,
  "guó ": 2233,
  "yú ": 2234,
  "rén ": 2235,
  " bù ": 2236,
  "yī ": 2237,
  " zhōng ": 2238,
  "lì ": 2239,
  "zhì ": 2240,
  "gōng ": 2241,
  " shí ": 2242,
  "yuè ": 2243,
  "jí ": 2244,
  "chéng ": 2245,
  "yì ": 2246,
  "yǒu ": 2247,
  " dì ": 2248,
  " yuè ": 2249,
  " yú ": 2250,
  " rén ": 2251,
  " zhì ": 2252,
  "dà ": 2253,
  " jí ": 2254,
  "yuán ": 2255,
  " yǒu ": 2256,
  "jì ": 2257,
  " guó ": 2258,
  " lì ": 2259,
  " gōng ": 2260,
  " yì ": 2261,
  " yǐ": 2262,
  " chéng ": 2263,
  "jiā ": 2264,
  "sī ": 2265,
  "yǔ ": 2266,
  " xiàn": 2267,
  " rì": 2268,
  " yī ": 2269,
  " xíng": 2270,
  " tā": 2271,
  "lǐ ": 2272,
  "jī ": 2273,
  " dào": 2274,
  "hòu ": 2275,
  "wéi ": 2276,
  " zhī": 2277,
  " dà ": 2278,
  " yuán ": 2279,
  "xī ": 2280,
  " rì ": 2281,
  " gè": 2282,
  " yǐ ": 2283,
  "xué ": 2284,
  "huì ": 2285,
  "le ": 2286,
  "zuò ": 2287,
  " yǔ ": 2288,
  " dào ": 2289,
  "míng ": 2290,
  " jì ": 2291,
  "bèi ": 2292,
  " xíng ": 2293,
  "shēng ": 2294,
  " jiàn": 2295,
  " chū": 2296,
  " qí": 2297,
  " sī ": 2298,
  " dé": 2299,
  "zhèng ": 2300,
  " xiàn ": 2301,
  " hòu ": 2302,
  " jī ": 2303,
  "duì ": 2304,
  "shàng ": 2305,
  "qū ": 2306,
  "shǐ ": 2307,
  " ěr": 2308,
  " jiā ": 2309,
  "yóu ": 2310,
  " tā ": 2311,
  " xī ": 2312,
  " lǐ ": 2313,
  " ér": 2314,
  "zhàn ": 2315,
  " jūn": 2316,
  " bìng": 2317,
  " zhī ": 2318,
  " gè ": 2319,
  "zhǔ ": 2320,
  "rèn ": 2321,
  "fù ": 2322,
  "zì ": 2323,
  "wù ": 2324,
  "xīn ": 2325,
  "dài ": 2326,
  "jù ": 2327,
  "píng ": 2328,
  " chū ": 2329,
  " kè": 2330,
  " zhōu": 2331,
  "xiāng ": 2332,
  " huì ": 2333,
  "shù ": 2334,
  "nán ": 2335,
  " shè": 2336,
  " bèi ": 2337,
  " míng ": 2338,
  "xià ": 2339,
  "guān ": 2340,
  " ěr ": 2341,
  " dé ": 2342,
  "lù ": 2343,
  "yù ": 2344,
  "huà ": 2345,
  " jiàn ": 2346,
  "jīng ": 2347,
  "yán ": 2348,
  "fāng ": 2349,
  " yīn": 2350,
  "kāi ": 2351,
  "jiān ": 2352,
  "jiào ": 2353,
  "fā ": 2354,
  "yòng ": 2355,
  " dàn": 2356,
  " ér ": 2357,
  "zhù ": 2358,
  "lái ": 2359,
  "mín ": 2360,
  "shǒu ": 2361,
  "zhè ": 2362,
  "xiàng ": 2363,
  "wén ": 2364,
  " jūn ": 2365,
  "xì ": 2366,
  "qián ": 2367,
  "běn ": 2368,
  "tè ": 2369,
  " wéi ": 2370,
  "zhí ": 2371,
  "fǎ ": 2372,
  "qī ": 2373,
  "jié ": 2374,
  "lián ": 2375,
  " bìng ": 2376,
  "dòng ": 2377,
  "diàn ": 2378,
  " qí ": 2379,
  " kè ": 2380,
  "dōng ": 2381,
  "mù ": 2382,
  " jìn": 2383,
  " duì ": 2384,
  " huò": 2385,
  " zhàn ": 2386,
  "fēn ": 2387,
  "tái ": 2388,
  "zhǎng ": 2389,
  "dù ": 2390,
  "jiāng ": 2391,
  " qiú": 2392,
  " píng ": 2393,
  "gāo ": 2394,
  "yè ": 2395,
  "suǒ ": 2396,
  "běi ": 2397,
  " zhōu ": 2398,
  "shī ": 2399,
  " le ": 2400,
  "duō ": 2401,
  "jiē ": 2402,
  "gé ": 2403,
  " shàng ": 2404,
  "jīn ": 2405,
  " zhèng ": 2406,
  "fú ": 2407,
  " zuò ": 2408,
  " yóu ": 2409,
  " fù ": 2410,
  "kǒu ": 2411,
  "guò ": 2412,
  "zhǐ ": 2413,
  " tóng": 2414,
  "hǎi ": 2415,
  " rèn ": 2416,
  " quán": 2417,
  "mǎ ": 2418,
  "tōng ": 2419,
  "rù ": 2420,
  "zuì ": 2421,
  " shēng ": 2422,
  " xué ": 2423,
  "cǐ ": 2424,
  "xìng ": 2425,
  "wài ": 2426,
  "nèi ": 2427,
  "lā ": 2428,
  "tǐ ": 2429,
  "jué ": 2430,
  "kě ": 2431,
  "qǐ ": 2432,
  "shān ": 2433,
  "tiān ": 2434,
  "chǎng ": 2435,
  "děng ": 2436,
  "zhèn ": 2437,
  "wǔ ": 2438,
  "cháng ": 2439,
  "zi ": 2440,
  "yào ": 2441,
  "bǐ ": 2442,
  " jù ": 2443,
  "bǎo ": 2444,
  "mǐ ": 2445,
  "yà ": 2446,
  " yě": 2447,
  "gāi ": 2448,
  " yīn ": 2449,
  " dài ": 2450,
  "miàn ": 2451,
  "zhòng ": 2452,
  " shè ": 2453,
  "fēng ": 2454,
  " zhè ": 2455,
  "zhǒng ": 2456,
  "cì ": 2457,
  "yùn ": 2458,
  "yí ": 2459,
  "liú ": 2460,
  "chē ": 2461,
  "shòu ": 2462,
  "lín ": 2463,
  "bāo ": 2464,
  "yí gè ": 2465,
  "sài ": 2466,
  "jiè ": 2467,
  "dìng ": 2468,
  "shēn ": 2469,
  "shěng ": 2470,
  "luó ": 2471,
  "měi guó ": 2472,
  "sān ": 2473,
  "qì ": 2474,
  "xiǎo ": 2475,
  " dàn ": 2476,
  "néng ": 2477,
  "shū ": 2478,
  "zé ": 2479,
  "liè ": 2480,
  "xuǎn ": 2481,
  "sì ": 2482,
  "qīng ": 2483,
  "zhě ": 2484,
  " qiú ": 2485,
  "jìng ": 2486,
  "yuàn ": 2487,
  "bā ": 2488,
  "wáng ": 2489,
  "kē ": 2490,
  "tài ": 2491,
  "lán ": 2492,
  "bào ": 2493,
  "ān ": 2494,
  "zǒng ": 2495,
  "yǐng ": 2496,
  " huò ": 2497,
  "bì ": 2498,
  "fǔ ": 2499,
  "dǎo ": 2500,
  " xīn ": 2501,
  "gǔ ": 2502,
  "yīng ": 2503,
  " hào": 2504,
  " xià ": 2505,
  " zì ": 2506,
  "gē ": 2507,
  "fèn ": 2508,
  "xiào ": 2509,
  "yuē ": 2510,
  "ní ": 2511,
  "jiāo ": 2512,
  "nà ": 2513,
  " yù ": 2514,
  " mǐ ": 2515,
  "zī ": 2516,
  "èr ": 2517,
  " xiāng ": 2518,
  "pǔ ": 2519,
  "dān ": 2520,
  " zhù ": 2521,
  "biǎo ": 2522,
  "guǎn ": 2523,
  "tóu ": 2524,
  "liàng ": 2525,
  "chuán ": 2526,
  " lù ": 2527,
  "sù ": 2528,
  "wú ": 2529,
  " dāng": 2530,
  "bō ": 2531,
  "rú ": 2532,
  "yǎn ": 2533,
  "nǚ ": 2534,
  "bó ": 2535,
  " zhōng guó ": 2536,
  "xīng ": 2537,
  "tí ": 2538,
  "fēi ": 2539,
  "dá ": 2540,
  "sè ": 2541,
  "chēng ": 2542,
  "měi ": 2543,
  " wèi yú ": 2544,
  " jìn ": 2545,
  "céng ": 2546,
  "chǎn ": 2547,
  " nán ": 2548,
  "shuǐ ": 2549,
  "tú ": 2550,
  "biàn ": 2551,
  "guī ": 2552,
  " rán": 2553,
  "ā ": 2554,
  "yáng ": 2555,
  "zhāng ": 2556,
  "gǎi ": 2557,
  "diǎn ": 2558,
  "cóng ": 2559,
  "jiù ": 2560,
  " běn ": 2561,
  " quán ": 2562,
  "shā ": 2563,
  "bāo kuò": 2564,
  "wǎng ": 2565,
  "jiǎn ": 2566,
  "shèng ": 2567,
  "zǔ ": 2568,
  "shǔ ": 2569,
  "gǎng ": 2570,
  "huá ": 2571,
  "lǜ ": 2572,
  "qíng ": 2573,
  "jǐng ": 2574,
  "liǎng ": 2575,
  "zú ": 2576,
  "bàn ": 2577,
  "tǒng ": 2578,
  "gòng ": 2579,
  "shāng ": 2580,
  "lí ": 2581,
  "hù ": 2582,
  "tóng ": 2583,
  "biān ": 2584,
  "jìn ": 2585,
  "àn ": 2586,
  "lóng ": 2587,
  "luò ": 2588,
  "xù ": 2589,
  "chí ": 2590,
  "ào ": 2591,
  "méi ": 2592,
  "jǐn ": 2593,
  "1 ": 2594,
  "bān ": 2595,
  "guǎng ": 2596,
  "chū ": 2597,
  "cè ": 2598,
  "mì ": 2599,
  "shén ": 2600,
  " tā men": 2601,
  "zhēng ": 2602,
  "zhī ": 2603,
  "lǐng ": 2604,
  "yòu ": 2605,
  "fǎn ": 2606,
  "wēi ": 2607,
  " zhǔ ": 2608,
  "huó ": 2609,
  "xí ": 2610,
  "tíng ": 2611,
  "kǎ ": 2612,
  "chá ": 2613,
  " gāi ": 2614,
  " xiàng ": 2615,
  "cái ": 2616,
  "gòu ": 2617,
  "shuō ": 2618,
  "mén ": 2619,
  "cí ": 2620,
  "2 ": 2621,
  "xiǎng ": 2622,
  "mǔ ": 2623,
  "lèi ": 2624,
  "wěi ": 2625,
  "qǔ ": 2626,
  " gōng lǐ ": 2627,
  "yán jiū": 2628,
  " duō ": 2629,
  "tuán ": 2630,
  "yǐn ": 2631,
  "jiàn ": 2632,
  " yě ": 2633,
  "cháo ": 2634,
  "yìng ": 2635,
  "chén ": 2636,
  "táng ": 2637,
  "xiē ": 2638,
  "qí ": 2639,
  "pǐn ": 2640,
  " yǐ jí ": 2641,
  "jià ": 2642,
  "shǐ yòng ": 2643,
  "jiě ": 2644,
  "háng ": 2645,
  "yǐ ": 2646,
  "lún ": 2647,
  "róng ": 2648,
  "jiǎng ": 2649,
  " yóu": 2650,
  "pái ": 2651,
  "fū ": 2652,
  "jiǔ ": 2653,
  "é ": 2654,
  "lìng ": 2655,
  "tái wān": 2656,
  " hào ": 2657,
  " wàn": 2658,
  " de dì ": 2659,
  "xū ": 2660,
  "kě yǐ ": 2661,
  "huáng ": 2662,
  "xiān ": 2663,
  "duàn ": 2664,
  "kè ": 2665,
  "dǎng ": 2666,
  "mó ": 2667,
  "cān ": 2668,
  "yíng ": 2669,
  "tiáo ": 2670,
  "biāo ": 2671,
  " de yī ": 2672,
  "kāi shǐ ": 2673,
  "quán ": 2674,
  "zhǎn ": 2675,
  " chéng wéi ": 2676,
  "yě ": 2677,
  "hóng ": 2678,
  "méi yǒu ": 2679,
  "hàn ": 2680,
  "yīn ": 2681,
  "wěi yuán ": 2682,
  "qiān ": 2683,
  "bǎn ": 2684,
  "xiàn ": 2685,
  "líng ": 2686,
  "xiāo ": 2687,
  " tóng ": 2688,
  "huí ": 2689,
  "sū ": 2690,
  "fáng ": 2691,
  "méng ": 2692,
  "zhuāng ": 2693,
  "kōng ": 2694,
  "jú ": 2695,
  "cūn ": 2696,
  "bāo kuò ": 2697,
  "rén kǒu ": 2698,
  " qí zhōng ": 2699,
  " gōng sī ": 2700,
  "huò ": 2701,
  "zǐ ": 2702,
  "xíng ": 2703,
  "dōu ": 2704,
  " de shì ": 2705,
  "   zài ": 2706,
  "qiáng ": 2707,
  "zhào ": 2708,
  "dú ": 2709,
  "zhèng zhì ": 2710,
  "yí gè": 2711,
  "mò ": 2712,
  "bīng ": 2713,
  "cǎi ": 2714,
  "fǎ guó ": 2715,
  " fēn ": 2716,
  " gāo ": 2717,
  " dà xué ": 2718,
  " shì yī ": 2719,
  "hái ": 2720,
  " tā de ": 2721,
  "hú ": 2722,
  "chù ": 2723,
  "qīn ": 2724,
  "lùn ": 2725,
  "fàn ": 2726,
  "3 ": 2727,
  "zhēn ": 2728,
  "guāng ": 2729,
  "wèn ": 2730,
  "màn ": 2731,
  " jié ": 2732,
  "shè ": 2733,
  "biǎo shì ": 2734,
  "ài ": 2735,
  "zhōng de ": 2736,
  "jū ": 2737,
  " jiào ": 2738,
  "zhuān ": 2739,
  "diào ": 2740,
  "bái ": 2741,
  "dǎ ": 2742,
  "què ": 2743,
  "diàn shì ": 2744,
  " dōng ": 2745,
  "fèi ": 2746,
  " shì wèi ": 2747,
  " dù ": 2748,
  " mù ": 2749,
  "hán ": 2750,
  "shì de ": 2751,
  " tè ": 2752,
  "xùn ": 2753,
  " jīn ": 2754,
  "piàn ": 2755,
  "mìng ": 2756,
  "jǔ ": 2757,
  " jiāng ": 2758,
  "tuō ": 2759,
  "gù ": 2760,
  " rén kǒu ": 2761,
  "xiū ": 2762,
  " bù fèn ": 2763,
  "xié ": 2764,
  "zào ": 2765,
  " hé guó ": 2766,
  "zhōng guó ": 2767,
  "guǒ ": 2768,
  "10 yuè ": 2769,
  "shōu ": 2770,
  " zuì": 2771,
  "xìn ": 2772,
  "12 yuè ": 2773,
  "7 yuè ": 2774,
  "9 yuè ": 2775,
  "zhuǎn ": 2776,
  "tā ": 2777,
  " shī ": 2778,
  "dāng ": 2779,
  "miàn jī ": 2780,
  " rén mín ": 2781,
  "8 yuè ": 2782,
  "xún ": 2783,
  " dì qū ": 2784,
  "wū ": 2785,
  "3 yuè ": 2786,
  " guò ": 2787,
  "1 yuè ": 2788,
  " jīng ": 2789,
  " suǒ ": 2790,
  " shǒu ": 2791,
  "gǎn ": 2792,
  "huán ": 2793,
  "dí ": 2794,
  "xiá ": 2795,
  "jiǎ ": 2796,
  "5 yuè ": 2797,
  "yīng guó ": 2798,
  " cǐ ": 2799,
  "dào ": 2800,
  "dǐ ": 2801,
  "zhū ": 2802,
  "tīng ": 2803,
  "zhèng shì ": 2804,
  "chóng ": 2805,
  "huǒ ": 2806,
  "zhōu ": 2807,
  "6 yuè ": 2808,
  "zhuàng ": 2809,
  "4 ": 2810,
  "5 ": 2811,
  "chéng shì ": 2812,
  "4 yuè ": 2813,
  " guó jiā ": 2814,
  "tián ": 2815,
  "gèng ": 2816,
  "   dì ": 2817,
  "fàng ": 2818,
  "yǒng ": 2819,
  "shǔ yú ": 2820,
  " píng fāng": 2821,
  "pò ": 2822,
  "jūn ": 2823,
  " dì yī ": 2824,
  " qián ": 2825,
  "11 yuè ": 2826,
  "qún ": 2827,
  "qù ": 2828,
  "jiàng ": 2829,
  "táo ": 2830,
  " shì jì ": 2831,
  " píng fāng gōng lǐ ": 2832,
  " tóng shí ": 2833,
  "dān rèn ": 2834,
  "gēn ": 2835,
  " mǎ ": 2836,
  " rú ": 2837,
  " děng ": 2838,
  "jǐ ": 2839,
  "bié ": 2840,
  "pài ": 2841,
  "dū ": 2842,
  "liáng ": 2843,
  "shǎo ": 2844,
  "huī ": 2845,
  "tiě ": 2846,
  "nóng ": 2847,
  " nián 1 yuè ": 2848,
  "tǎ ": 2849,
  "diàn yǐng ": 2850,
  "zōng ": 2851,
  "chǔ ": 2852,
  " qī ": 2853,
  " zhè": 2854,
  "sǐ ": 2855,
  " tiān ": 2856,
  "ěr ": 2857,
  " de shí ": 2858,
  "shuāng ": 2859,
  "qiáo ": 2860,
  "tái wān ": 2861,
  " suì": 2862,
  "gēn jù ": 2863,
  "lì shǐ ": 2864,
  "chú ": 2865,
  " shì zhèn ": 2866,
  "gào ": 2867,
  "bài ": 2868,
  "cān jiā ": 2869,
  "yùn dòng": 2870,
  "gāng ": 2871,
  "chē zhàn ": 2872,
  "guó de ": 2873,
  "jiǎo ": 2874,
  " yīn wèi ": 2875,
  " rì běn ": 2876,
  " píng fāng ": 2877,
  "lì de ": 2878,
  " nián de ": 2879,
  "gài ": 2880,
  "pàn ": 2881,
  " wén ": 2882,
  " hǎi ": 2883,
  "zhèng fǔ ": 2884,
  "bìng ": 2885,
  "zhǔn ": 2886,
  " nián 12 yuè ": 2887,
  "wǎ ": 2888,
  "yàn ": 2889,
  "wǒ ": 2890,
  " fú ": 2891,
  "gòng hé guó ": 2892,
  " xiàn de ": 2893,
  "yá ": 2894,
  "yín ": 2895,
  "fā xiàn ": 2896,
  "formula ": 2897,
  "chuàng ": 2898,
  "hēi ": 2899,
  "huàn ": 2900,
  "qū de ": 2901,
  "sòng ": 2902,
  "hā ": 2903,
  "hěn ": 2904,
  " suǒ": 2905,
  "tí gōng ": 2906,
  "jìn xíng ": 2907,
  " běi ": 2908,
  "léi ": 2909,
  "2 yuè ": 2910,
  "jīng jì ": 2911,
  "tōng guò ": 2912,
  " nián 3 yuè ": 2913,
  " měi": 2914,
  "suí ": 2915,
  "chuān ": 2916,
  " zhōng yāng": 2917,
  " guó jì ": 2918,
  "huā ": 2919,
  "6 ": 2920,
  "shàng de ": 2921,
  " yóu yú ": 2922,
  " yòu ": 2923,
  "lēi ": 2924,
  "wěi yuán huì ": 2925,
  "qiě ": 2926,
  "kǎo ": 2927,
  " nián 7 yuè ": 2928,
  "chēng wéi ": 2929,
  " nián 10 yuè ": 2930,
  "dēng ": 2931,
  "bǎi ": 2932,
  " shì jiè ": 2933,
  " yīng ": 2934,
  " yīn cǐ ": 2935,
  "míng wèi ": 2936,
  " jìn xíng ": 2937,
  "nuò ": 2938,
  " shì zài ": 2939,
  "chōng ": 2940,
  "zhǔ yì ": 2941,
  "wán ": 2942,
  " rán ": 2943,
  " nián 9 yuè ": 2944,
  "kuài ": 2945,
  "tǔ ": 2946,
  " zhī hòu ": 2947,
  "yán jiū ": 2948,
  "qiú ": 2949,
  " tā men ": 2950,
  "mài ": 2951,
  "shí de ": 2952,
  "liàn ": 2953,
  "hào ": 2954,
  " nián 5 yuè ": 2955,
  "sà ": 2956,
  "lú ": 2957,
  "xì tǒng ": 2958,
  " zuì ": 2959,
  "pèi ": 2960,
  "lǔ ": 2961,
  " nián 4 yuè ": 2962,
  "chǐ ": 2963,
  "liào ": 2964,
  " dāng ": 2965,
  " nián 8 yuè ": 2966,
  " lián ": 2967,
  " nián 6 yuè ": 2968,
  " xíng de ": 2969,
  "zēng ": 2970,
  "rén de ": 2971,
  " shǐ ": 2972,
  "xiāng gǎng ": 2973,
  "qī jiān ": 2974,
  "xuān ": 2975,
  "ēn ": 2976,
  "dé ": 2977,
  "kuàng ": 2978,
  "guǎn lǐ ": 2979,
  " gōng zuò ": 2980,
  "piào ": 2981,
  " zhī yī ": 2982,
  "xǔ ": 2983,
  "dī ": 2984,
  "héng ": 2985,
  "dà de ": 2986,
  "bǔ ": 2987,
  "yàng ": 2988,
  " zhōng xīn ": 2989,
  "xuān bù ": 2990,
  "sēn ": 2991,
  "tuī ": 2992,
  " nián 11 yuè ": 2993,
  "zǔ zhī ": 2994,
  "rì ": 2995,
  "wàng ": 2996,
  "bù de ": 2997,
  "pí ": 2998,
  "men ": 2999,
  " bāo kuò ": 3000,
  "chàng ": 3001,
  "yǐng xiǎng ": 3002,
  "yǎng ": 3003,
  " tā zài ": 3004,
  "qiān mǐ ": 3005,
  "sāi ": 3006,
  "   shēng ": 3007,
  " huò dé ": 3008,
  "ér ": 3009,
  "pī ": 3010,
  " shì jiè": 3011,
  " wàn ": 3012,
  "luó sī ": 3013,
  "hè ": 3014,
  "kě néng": 3015,
  "chéng de ": 3016,
  " gāi": 3017,
  " qīng ": 3018,
  "niàn ": 3019,
  "dùn ": 3020,
  "xián ": 3021,
  " ā ": 3022,
  "lóu ": 3023,
  "qí tā ": 3024,
  " nián 2 yuè ": 3025,
  " chéng lì ": 3026,
  "le yī ": 3027,
  "bāng ": 3028,
  "huó dòng ": 3029,
  " rèn wéi ": 3030,
  "liù ": 3031,
  " lái ": 3032,
  "yōu ": 3033,
  " bǐ ": 3034,
  " shù ": 3035,
  "s ": 3036,
  "kē xué ": 3037,
  " fēn": 3038,
  "fā zhǎn ": 3039,
  "huò dé ": 3040,
  "jùn ": 3041,
  " luó ": 3042,
  " zuò wéi ": 3043,
  "yā ": 3044,
  " píng fāng qiān mǐ ": 3045,
  "huá rén mín ": 3046,
  " wú ": 3047,
  "rì běn ": 3048,
  "bēi ": 3049,
  "lǎo ": 3050,
  "huì yì ": 3051,
  "rè ": 3052,
  " zhí": 3053,
  "kù ": 3054,
  "tán ": 3055,
  "jiān de ": 3056,
  "tiě lù ": 3057,
  " liú ": 3058,
  " de rén ": 3059,
  "yòng yú ": 3060,
  "liáo ": 3061,
  "níng ": 3062,
  " shí jiān ": 3063,
  " de gōng ": 3064,
  "gè ": 3065,
  " shān ": 3066,
  " zhāng ": 3067,
  "miǎn ": 3068,
  " yán ": 3069,
  "miàn jī": 3070,
  "mín guó ": 3071,
  "ruì ": 3072,
  "wū kè ": 3073,
  "yìn ": 3074,
  "xiǎn ": 3075,
  "lè ": 3076,
  "zuǒ ": 3077,
  "gòng yǒu ": 3078,
  "   lì shǐ ": 3079,
  "hǎo ": 3080,
  "   shēng píng ": 3081,
  "huá rén mín gòng hé guó ": 3082,
  "fāng shì ": 3083,
  "fā shēng ": 3084,
  "gān ": 3085,
  " cóng ": 3086,
  "dòu ": 3087,
  "wèn tí ": 3088,
  " zhí ": 3089,
  "guàn jūn ": 3090,
  "zhǔ yào ": 3091,
  "rán ": 3092,
  "dì de ": 3093,
  " dì èr ": 3094,
  "dǎo zhì ": 3095,
  "guān xì ": 3096,
  "cún ": 3097,
  " xiǎo ": 3098,
  "kāng ": 3099,
  "cān yù ": 3100,
  "yuǎn ": 3101,
  " bù fèn": 3102,
  " jǐn ": 3103,
  "zhěng ": 3104,
  " gōng chéng ": 3105,
  "wán chéng ": 3106,
  "dān wèi ": 3107,
  "kě néng ": 3108,
  " wǔ ": 3109,
  "yī wèi ": 3110,
  " zhǐ ": 3111,
  "7 ": 3112,
  "1 rì ": 3113,
  " zé ": 3114,
  "ge ": 3115,
  "xiè ": 3116,
  "suǒ yǒu ": 3117,
  "zhì de ": 3118,
  " zǒng ": 3119,
  "wén huà ": 3120,
  " chéng yuán ": 3121,
  " de chéng ": 3122,
  "gěi ": 3123,
  "lǚ ": 3124,
  " bā ": 3125,
  "yuán de ": 3126,
  "yōng yǒu ": 3127,
  "cún zài ": 3128,
  "èr shí ": 3129,
  " tōng ": 3130,
  "běi bù ": 3131,
  "lián hé ": 3132,
  "hòu de ": 3133,
  "niǔ ": 3134,
  " shì zhōng ": 3135,
  "zhèng fǔ": 3136,
  "yóu yú ": 3137,
  "guó jiā ": 3138,
  "duì yú ": 3139,
  " nián zhì ": 3140,
  "fā xíng ": 3141,
  "yì de ": 3142,
  " 18": 3143,
  "jù yǒu ": 3144,
  " jiàn zhù ": 3145,
  "bǐ sài ": 3146,
  " bìng zài ": 3147,
  " zhǐ": 3148,
  " dào le ": 3149,
  "ōu ": 3150,
  "è ": 3151,
  "xīn de ": 3152,
  "sī de ": 3153,
  "shěn ": 3154,
  "yún ": 3155,
  "zì jǐ": 3156,
  "yùn dòng ": 3157,
  "xíng zhèng ": 3158,
  "yìn dù ": 3159,
  "é luó sī ": 3160,
  "bīn ": 3161,
  " miàn jī ": 3162,
  "dài biǎo ": 3163,
  "shào ": 3164,
  "s   ": 3165,
  " měi guó ": 3166,
  " lìng ": 3167,
  "xǔ duō ": 3168,
  " dàn shì ": 3169,
  "rèn hé ": 3170,
  "shēng yú ": 3171,
  "tū ": 3172,
  "guì ": 3173,
  " 15": 3174,
  "8 ": 3175,
  " nián dài ": 3176,
  " jiǎn ": 3177,
  "dīng ": 3178,
  "liǎng gè ": 3179,
  "chè ": 3180,
  "bǎo hù ": 3181,
  " rén kǒu mì ": 3182,
  "xiù ": 3183,
  " shǐ": 3184,
  "mǎn ": 3185,
  "zh ": 3186,
  "xuán ": 3187,
  " dāng shí ": 3188,
  "zhàng ": 3189,
  " de yí gè ": 3190,
  "nán bù ": 3191,
  "jǔ xíng ": 3192,
  "zhuān jí ": 3193,
  "miàn jī wèi ": 3194,
  " diàn ": 3195,
  " xì ": 3196,
  "lái de ": 3197,
  " C": 3198,
  "āi ": 3199,
  "fān ": 3200,
  " guān ": 3201,
  "zǎo ": 3202,
  " zhèng fǔ ": 3203,
  "dú lì ": 3204,
  "fú wù ": 3205,
  "jué dìng ": 3206,
  " chū de ": 3207,
  "xiě ": 3208,
  "ruò ": 3209,
  "zhǔ yào": 3210,
  "kāi shǐ": 3211,
  " lì shǐ ": 3212,
  "qǐng ": 3213,
  " céng ": 3214,
  " shè jì ": 3215,
  " sān ": 3216,
  "ràng ": 3217,
  "míng de ": 3218,
  " wáng ": 3219,
  " měi ": 3220,
  "hài ": 3221,
  " shì wèi yú ": 3222,
  "jiù shì ": 3223,
  " yǒu yī ": 3224,
  "gēng ": 3225,
  "gt ": 3226,
  " cǐ": 3227,
  " gt ": 3228,
  "xǐ ": 3229,
  " jiāng": 3230,
  "tàn ": 3231,
  " qí tā ": 3232,
  " xíng zhèng ": 3233,
  " fǎ ": 3234,
  "péi ": 3235,
  "jiào yù ": 3236,
  " 16": 3237,
  "shòu dào ": 3238,
  "lt ": 3239,
  " A": 3240,
  " fēng ": 3241,
  "rèn wéi ": 3242,
  "fǎng ": 3243,
  " shì dì ": 3244,
  "fā zhǎn": 3245,
  "wǎn ": 3246,
  "kān ": 3247,
  "shè huì ": 3248,
  " lt ": 3249,
  "shàn ": 3250,
  "yì wèi ": 3251,
  "gù shì ": 3252,
  "piān ": 3253,
  "fāng miàn ": 3254,
  " xiàn zài ": 3255,
  " jiē ": 3256,
  "qū wèi ": 3257,
  " zuì zhōng ": 3258,
  "qín ": 3259,
  " bì ": 3260,
  " zhōng yāng ": 3261,
  " shì shì ": 3262,
  "tuì ": 3263,
  "pào ": 3264,
  "zhe ": 3265,
  "nèi de ": 3266,
  " jiù ": 3267,
  "shǔ de ": 3268,
  "xiāng gǎng": 3269,
  "xiǎo shí ": 3270,
  "dàn ": 3271,
  " lì rú ": 3272,
  "zú qiú ": 3273,
  "shù jù ": 3274,
  " bù tóng": 3275,
  "liè chē ": 3276,
  "xū yào ": 3277,
  "huà de ": 3278,
  "zhí wù ": 3279,
  "qiāng ": 3280,
  " suī": 3281,
  "rén shì ": 3282,
  "zuò de ": 3283,
  "shǐ yòng": 3284,
  "zēng jiā ": 3285,
  " qū ": 3286,
  " dòng ": 3287,
  " jì huà ": 3288,
  "mín zhǔ ": 3289,
  " shí qī ": 3290,
  "zuò wéi ": 3291,
  " gǔ ": 3292,
  "kòng zhì ": 3293,
  " yě shì ": 3294,
  "duǎn ": 3295,
  "tǎn ": 3296,
  " jiàn de ": 3297,
  "yīn yuè ": 3298,
  " ān ": 3299,
  " rán ér ": 3300,
  "láng ": 3301,
  " yǐ jīng ": 3302,
  " shǔ yú ": 3303,
  " hé zuò ": 3304,
  " zài dì ": 3305,
  "rén mín ": 3306,
  " shì jiàn ": 3307,
  " rén yuán ": 3308,
  " yòu": 3309,
  "tā de ": 3310,
  " jiàn yú ": 3311,
  "xué yuàn ": 3312,
  " céng": 3313,
  "zǔ chéng ": 3314,
  "chāo guò ": 3315,
  "zuò pǐn ": 3316,
  " mǎ": 3317,
  " gé ": 3318,
  " yīn yuè ": 3319,
  " kē ": 3320,
  "mào ": 3321,
  " quán guó ": 3322,
  "xióng ": 3323,
  " S": 3324,
  "zǎi ": 3325,
  "hū ": 3326,
  "huì de ": 3327,
  "jì de ": 3328,
  " sì ": 3329,
  "zǒng tǒng ": 3330,
  " zhè xiē ": 3331,
  "suàn ": 3332,
  " wèi le ": 3333,
  " hòu lái ": 3334,
  "yú shì ": 3335,
  " pǔ ": 3336,
  " zhǎng ": 3337,
  " tài ": 3338,
  "10 ": 3339,
  " shòu ": 3340,
  " chéng gōng ": 3341,
  "fā bù ": 3342,
  "dà lì ": 3343,
  "tí chū ": 3344,
  " lì yà ": 3345,
  " 000": 3346,
  " yì yuán ": 3347,
  " shè yǒu ": 3348,
  " yīn cǐ": 3349,
  "yùn dòng yuán ": 3350,
  "yāo qiú ": 3351,
  "hán guó ": 3352,
  "bù zài ": 3353,
  "ní yà": 3354,
  "yǒu de ": 3355,
  "   de ": 3356,
  "pín ": 3357,
  "pú ": 3358,
  "zào chéng ": 3359,
  " 17": 3360,
  "ōu zhōu ": 3361,
  "qiū ": 3362,
  "cǎi yòng ": 3363,
  "xiǎo xíng ": 3364,
  "   S": 3365,
  " gōng yuán ": 3366,
  "jiā de ": 3367,
  "xìng de ": 3368,
  "shēng de ": 3369,
  "9 ": 3370,
  " de yí gè": 3371,
  " rì zài ": 3372,
  "dāng shí ": 3373,
  "bǎ ": 3374,
  "kòng ": 3375,
  "rén wù ": 3376,
  "fèng ": 3377,
  " cǐ wài ": 3378,
  " suí": 3379,
  "gòng chǎn ": 3380,
  " lā ": 3381,
  " zh ": 3382,
  "kàn ": 3383,
  " cóng": 3384,
  " wǒ ": 3385,
  " shā ": 3386,
  " shì hé ": 3387,
  "wān ": 3388,
  "2010 nián ": 3389,
  " lìng": 3390,
  " gēn jù ": 3391,
  " B": 3392,
  " de bù ": 3393,
  "mǎ wèi ": 3394,
  "xué jiā ": 3395,
  "yóu xì ": 3396,
  " nǚ ": 3397,
  " tǐ ": 3398,
  "sōng ": 3399,
  "fàn wéi ": 3400,
  " bù tóng ": 3401,
  "kāi fā ": 3402,
  "dūn ": 3403,
  "shè jì ": 3404,
  "máo ": 3405,
  "sān nián ": 3406,
  "chāo ": 3407,
  "qǔ dé ": 3408,
  " kě ": 3409,
  " de jī ": 3410,
  "   C": 3411,
  "sài shì ": 3412,
  "xiōng ": 3413,
  " xíng chéng ": 3414,
  "   dì lǐ ": 3415,
  "   shì ": 3416,
  " yí ": 3417,
  "zì zhì ": 3418,
  "chǎn shēng ": 3419,
  " wù ": 3420,
  "ā ěr ": 3421,
  " suì ": 3422,
  "yáo ": 3423,
  "dǐng ": 3424,
  "wēn ": 3425,
  " de jì ": 3426,
  "jié mù ": 3427,
  "shū jì ": 3428,
  " bìng yú ": 3429,
  "   A": 3430,
  " 0": 3431,
  "dōu shì ": 3432,
  "nǐ ": 3433,
  "chóng xīn ": 3434,
  "xì tǒng": 3435,
  "zàn ": 3436,
  "lüè ": 3437,
  " shè huì ": 3438,
  " liǎng ": 3439,
  "zhòng yào": 3440,
  "chūn ": 3441,
  "lǐ de ": 3442,
  "bú shì ": 3443,
  " dài biǎo ": 3444,
  "yī nián ": 3445,
  " xiāng gǎng ": 3446,
  "diàn yǐng": 3447,
  " sī tè ": 3448,
  "guān yú ": 3449,
  "zhuī ": 3450,
  "dàng ": 3451,
  " nà ": 3452,
  "jué sè ": 3453,
  " fú": 3454,
  "jiāo tōng ": 3455,
  "lǎng ": 3456,
  " yóu xì ": 3457,
  "dà xué ": 3458,
  "jí de ": 3459,
  "mí ": 3460,
  "gē qǔ ": 3461,
  "chú le ": 3462,
  " chū xiàn ": 3463,
  "2020 nián ": 3464,
  "tǎo ": 3465,
  " jié": 3466,
  " zhì zuò ": 3467,
  " dà xué": 3468,
  "píng jūn ": 3469,
  " P": 3470,
  " dé guó ": 3471,
  "xiǎn shì ": 3472,
  " chén ": 3473,
  "huá mín guó ": 3474,
  " shēn ": 3475,
  " nián zài ": 3476,
  " zhōng huá rén mín gòng hé guó ": 3477,
  "kuò ": 3478,
  "kǒng ": 3479,
  "hòu zài ": 3480,
  "miáo ": 3481,
  " nián dài": 3482,
  " jiān ": 3483,
  " liǎng": 3484,
  "èr nián ": 3485,
  "xià de ": 3486,
  "yǎn yuán ": 3487,
  " kè sī ": 3488,
  "dé guó ": 3489,
  "xiáng ": 3490,
  " 1 ": 3491,
  "wéi yī ": 3492,
  "qìng ": 3493,
  "cǎo ": 3494,
  " bǎo ": 3495,
  "dāng dì ": 3496,
  "guó jì ": 3497,
  "duì de ": 3498,
  "bó wù ": 3499,
  "hūn ": 3500,
  " jiàn lì ": 3501,
  " dì guó ": 3502,
  " fēi ": 3503,
  " bù yú ": 3504,
  "fǎn duì ": 3505,
  "qī de ": 3506,
  "duān ": 3507,
  "wù de ": 3508,
  "zǒu ": 3509,
  "xuè ": 3510,
  "yīn wèi ": 3511,
  "qū yù ": 3512,
  " 1": 3513,
  "qù shì ": 3514,
  "yī bù fèn ": 3515,
  "bá gāo ": 3516,
  "wò ": 3517,
  "quē ": 3518,
  " cháng ": 3519,
  "2001 nián ": 3520,
  "guǎn xiá ": 3521,
  "dù wèi ": 3522,
  "kuǎn ": 3523,
  "zhèng zhì rén wù ": 3524,
  "ní yà ": 3525,
  " kǎ ": 3526,
  "hái yǒu ": 3527,
  "péng ": 3528,
  "   rén kǒu ": 3529,
  " dāng dì ": 3530,
  "zuì zhōng ": 3531,
  " 2": 3533,
  " tā shì ": 3534,
  "chì ": 3535,
  " bù duì ": 3536,
  "lái zì ": 3537,
  " yuē ": 3538,
  " dān ": 3539,
  "bǐ sài": 3540,
  " xíng shì ": 3541,
  "zhí yè ": 3542,
  "qián wǎng ": 3543,
  " wēi ": 3544,
  "dìng de ": 3545,
  " T": 3546,
  " fā ": 3547,
  "quán guó ": 3548,
  "bā shì ": 3549,
  "yī bù ": 3550,
  " de yuán ": 3551,
  " zhèng fǔ": 3552,
  "   B": 3553,
  " chú ": 3554,
  "zhòng yào ": 3555,
  "diào chá ": 3556,
  " lín ": 3557,
  " zhī jiān ": 3558,
  "biān mǎ wèi ": 3559,
  " huáng ": 3560,
  " D": 3561,
  " nián jiān ": 3562,
  " xué míng ": 3563,
  " 14": 3564,
  "xué xiào ": 3565,
  "zhāo ": 3566,
  "zhǔ xí ": 3567,
  "xuǎn jǔ ": 3568,
  " rì zhì ": 3569,
  "gǎi wéi ": 3570,
  "zǔ zhī": 3571,
  " nèi ": 3572,
  "zhǔ jiào ": 3573,
  "fá ": 3574,
  "zī liào ": 3575,
  "hǎi jūn ": 3576,
  " jìng ": 3577,
  "gōng shì ": 3578,
  " jūn shì ": 3579,
  " de dà ": 3580,
  " rén kǒu mì dù ": 3581,
  "chǔ lǐ ": 3582,
  "sūn ": 3583,
  "zāi ": 3584,
  " de yì ": 3585,
  "   P": 3586,
  "kàng ": 3587,
  "fāng fǎ ": 3588,
  " duō": 3589,
  "fù zé ": 3591,
  " rì běn": 3592,
  "wū kè lán ": 3593,
  "   yǔ ": 3594,
  " bō ": 3595,
  "guàn ": 3596,
  "shù de ": 3597,
  " yǒu xiàn": 3598,
  "dài biǎo": 3599,
  " gè rén ": 3600,
  " sān": 3601,
  "wú fǎ ": 3602,
  "yǐng xiǎng": 3603,
  " jì shù ": 3604,
  " shèng ": 3605,
  " shì yóu ": 3606,
  "jiē rǎng": 3607,
  "zuì gāo ": 3608,
  "jū mín ": 3609,
  " méi ": 3610,
  " huà ": 3611,
  " kāi ": 3612,
  "xì liè ": 3613,
  "pà ": 3614,
  "qí zhōng ": 3615,
  " gǎi ": 3616,
  "lù de ": 3617,
  " jiè ": 3618,
  " hóng ": 3619,
  " 2 ": 3620,
  "xué shēng ": 3621,
  " zhī chí ": 3622,
  "zì yóu ": 3623,
  "wěn ": 3624,
  "biāo zhǔn ": 3625,
  " zé": 3626,
  "xié huì ": 3627,
  "shù liàng": 3628,
  "ān quán ": 3629,
  "fǎn yìng ": 3630,
  "kě yǐ": 3631,
  "qiè ": 3632,
  "huì zài ": 3633,
  "yāo ": 3634,
  "kěn ": 3635,
  "shèn zhì ": 3636,
  "bǐ lì ": 3637,
  "yé ": 3638,
  "tǒng zhì ": 3639,
  " M": 3640,
  "lián méng ": 3641,
  "chuàng zuò ": 3642,
  "zhǔ rèn ": 3643,
  " suí ": 3644,
  "   běn ": 3645,
  " xīn": 3646,
  "dōng bù ": 3647,
  " de yí gè shì zhèn ": 3648,
  " �": 3649,
  " shì yí gè ": 3650,
  " nán": 3651,
  " gōng sī": 3652,
  "gāi guó ": 3653,
  " fù zé ": 3654,
  "kǎi ": 3655,
  "fán ": 3656,
  "yǎ ": 3657,
  " dì sān ": 3658,
  " qǐ ": 3659,
  " dì shí ": 3660,
  "tǐ yù ": 3661,
  " 12": 3662,
  "   xíng zhèng ": 3663,
  " sū ": 3664,
  "jié gòu ": 3665,
  " bù guò ": 3666,
  " 3": 3667,
  " dào de ": 3668,
  "shí nián ": 3669,
  "qíng kuàng ": 3670,
  "néng lì ": 3671,
  "niú ": 3672,
  "mǒu ": 3673,
  "nán zi ": 3674,
  "zhōng shì ": 3675,
  "qíng kuàng": 3676,
  " shuǐ ": 3677,
  "sì nián ": 3678,
  "xī bù ": 3679,
  "gōng bù ": 3680,
  "shēng huó ": 3681,
  "jiē shòu ": 3682,
  " gē ": 3683,
  "suō ": 3684,
  "nǚ zǐ ": 3685,
  " ào": 3686,
  "lù xiàn ": 3687,
  "chéng lì ": 3688,
  " yáng ": 3689,
  " zhōng xué ": 3690,
  "   formula ": 3691,
  "gū ": 3692,
  "wàn ": 3693,
  "miàn de ": 3694,
  "huān ": 3695,
  " jìn rù ": 3696,
  "A ": 3697,
  "yì shì ": 3698,
  " ěr sī ": 3699,
  " zhǔ yào ": 3700,
  "lián sài ": 3701,
  "běi jīng ": 3702,
  "   G": 3703,
  " bā": 3704,
  "yǒu shí ": 3705,
  " ào ": 3706,
  " E": 3707,
  " yì huì ": 3708,
  " míng": 3709,
  " kě yǐ ": 3710,
  "guǎng dōng ": 3711,
  "duó ": 3712,
  "háo ": 3713,
  "   jiā ": 3714,
  "láo ": 3715,
  "jiàn zhù ": 3716,
  "   the": 3717,
  " G": 3718,
  "yà zhōu ": 3719,
  "dǎo de ": 3720,
  " guó mín ": 3721,
  "yě shì ": 3722,
  " bìng qiě": 3723,
  " tái ": 3724,
  "ná dà ": 3725,
  "dòng wù ": 3726,
  "tài píng ": 3727,
  " suǒ yǐ ": 3728,
  "dì wèi ": 3729,
  " zhè shì ": 3730,
  "bá gāo dù ": 3731,
  "dá dào ": 3732,
  "zì jǐ de ": 3733,
  "lǐ shì ": 3734,
  "zhú jiàn ": 3735,
  "zhuàn ": 3736,
  "rǎn ": 3737,
  "dài de ": 3738,
  "guǐ ": 3739,
  "bǎn běn ": 3740,
  "xiàng mù ": 3741,
  "a ": 3742,
  "xǔ duō": 3743,
  "zhě de ": 3744,
  "jiào shòu ": 3745,
  "2008 nián ": 3746,
  " hái ": 3747,
  " xué xiào ": 3748,
  " dà": 3749,
  "fēi cháng ": 3750,
  "wū kè lán": 3751,
  "2009 nián ": 3752,
  " xī yà ": 3753,
  "qīng nián ": 3754,
  " F": 3755,
  "m ": 3756,
  " èr ": 3757,
  " zǒng": 3758,
  " zhǔ yào": 3759,
  "lā sī ": 3760,
  " hú ": 3761,
  "   gēn jù ": 3762,
  "yī shì ": 3763,
  " chéng wéi": 3764,
  "rì běn": 3765,
  "   T": 3766,
  "mó shì ": 3767,
  "zhé ": 3768,
  "niǎo ": 3769,
  "wén wù ": 3770,
  " tā men de ": 3771,
  "suì ": 3772,
  " yì shù ": 3773,
  " bìng qiě ": 3774,
  " mǔ ": 3775,
  "zhǐ yǒu ": 3776,
  " 4": 3777,
  "chā ": 3778,
  " jì lù ": 3779,
  " zhōu de ": 3780,
  " ài ": 3781,
  "   of": 3782,
  "háng kōng ": 3783,
  " yú shì ": 3784,
  "wén xué ": 3785,
  "fēn wéi ": 3786,
  " bó ": 3787,
  " mín ": 3788,
  " qí shì ": 3789,
  " qí yú ": 3790,
  "suān ": 3791,
  "tōng guò": 3792,
  "děng rén ": 3793,
  "zhǐ chū ": 3794,
  "huǐ ": 3795,
  "28 rì ": 3796,
  "cáng ": 3797,
  "cuò ": 3798,
  "shuài ": 3799,
  "   M": 3800,
  "rén kǒu pǔ ": 3801,
  "zhí xíng ": 3802,
  "tóng shí ": 3803,
  "hùn ": 3804,
  "zhà ": 3805,
  "zhí jiē ": 3806,
  " qiú duì ": 3807,
  " lì yà": 3808,
  "yǎn chū ": 3809,
  "jǐn biāo ": 3810,
  " jīn": 3811,
  "gāi dì ": 3812,
  " 13": 3813,
  "gé lán ": 3814,
  "2016 nián ": 3815,
  "   F": 3816,
  "huó dòng": 3817,
  "zhè yī ": 3818,
  "rèn wéi": 3819,
  "jìn rù ": 3820,
  " zhī jiān de ": 3821,
  " gōng kāi ": 3822,
  " dāng zhōng ": 3823,
  "gòng tóng ": 3824,
  " cì ": 3825,
  " yòng ": 3826,
  "xià jì ": 3827,
  " dàn zài ": 3828,
  "zhàn zhēng ": 3829,
  "wǔ nián ": 3830,
  "jiāng jūn ": 3831,
  "chóu ": 3832,
  "lè bù ": 3833,
  "méi tǐ ": 3834,
  "tǐ de ": 3835,
  "chē zhàn": 3836,
  " 5": 3837,
  "tuī chū ": 3838,
  "jiào yù": 3839,
  "yǔn ": 3840,
  "zhè xiē ": 3841,
  "mèng ": 3842,
  "dié ": 3843,
  " shì wù ": 3844,
  "tì ": 3845,
  "pō ": 3846,
  "miào ": 3847,
  "lí kāi ": 3848,
  " lìng wài ": 3849,
  " 6": 3850,
  "huán jìng ": 3851,
  "2012 nián ": 3852,
  "lín pǐ": 3853,
  "téng ": 3854,
  " dì èr": 3855,
  "shāng yè ": 3856,
  "zhú ": 3857,
  "2011 nián ": 3858,
  "chuán tǒng ": 3859,
  "   nián": 3860,
  "15 rì ": 3861,
  "guān de ": 3862,
  " yǐn ": 3863,
  "sān shí ": 3864,
  "jūn shì ": 3865,
  "dān qū ": 3866,
  "liàng de ": 3867,
  "jiē dào ": 3868,
  "sàn ": 3869,
  " zhè ge ": 3870,
  "jī de ": 3871,
  "qián de ": 3872,
  "rén zài ": 3873,
  "nèi róng ": 3874,
  "zàng ": 3875,
  "dòng huà ": 3876,
  "sài jì ": 3877,
  "gāo de ": 3878,
  "bó shì ": 3879,
  "dù de ": 3880,
  "me ": 3881,
  " wèi rén ": 3882,
  "yín háng ": 3883,
  "xuǎn jǔ": 3884,
  " wèi zhì ": 3885,
  "chéng zhōng ": 3886,
  "mìng míng ": 3887,
  "děng dì ": 3888,
  " gōng lù ": 3889,
  " gù ": 3890,
  "sǔn ": 3891,
  "rè dài ": 3892,
  "běi jīng": 3893,
  " shí jì ": 3894,
  "yùn dòng huì ": 3895,
  "xuǎn zé ": 3896,
  " dà lì ": 3897,
  " ér zài ": 3898,
  "yuán nián ": 3899,
  " hàn ": 3900,
  "bào gào ": 3901,
  " mù qián ": 3902,
  "bǎng ": 3903,
  " de hé ": 3904,
  " wú": 3905,
  "bō chū ": 3906,
  "zuì jiā ": 3907,
  "   jù ": 3908,
  "zōng jiào ": 3909,
  "xué wèi ": 3910,
  "tǔ dì ": 3911,
  " dé dào ": 3912,
  " H": 3913,
  "zuì hòu ": 3914,
  "wén huà": 3915,
  "tuán tǐ ": 3916,
  "25 rì ": 3917,
  " dì fāng ": 3918,
  "guǐ dào ": 3919,
  "luàn ": 3920,
  " wèi dì ": 3921,
  "jīng lì ": 3922,
  "xì de ": 3923,
  " zhī qián ": 3924,
  " 5 ": 3925,
  "shěng de yí gè shì zhèn ": 3926,
  " zhàn": 3927,
  " yè ": 3928,
  " shì yī zhǒng ": 3929,
  " shì wèi yú měi guó ": 3930,
  " mó ": 3931,
  " qì ": 3932,
  "jí zhōng ": 3933,
  " gè yuè ": 3934,
  " jūn de ": 3935,
  "sǐ wáng ": 3936,
  "   H": 3937,
  "xiāng guān ": 3938,
  " mǐ": 3939,
  "fēn bié": 3940,
  "30 rì ": 3941,
  " bāo kuò": 3942,
  " jī gòu ": 3943,
  "wèi de ": 3944,
  "shǒu cì ": 3945,
  " xìng ": 3946,
  "ào lín pǐ": 3947,
  "lǐng dǎo ": 3948,
  " yǒu guān ": 3949,
  " hǎi bá gāo dù ": 3950,
  " yī xiē ": 3951,
  " tóng nián ": 3952,
  "huái ": 3953,
  "2014 nián ": 3954,
  "yòng de ": 3955,
  "   wèi ": 3956,
  " jué ": 3957,
  "20 rì ": 3958,
  " xíng dòng ": 3959,
  " zài yī ": 3960,
  "jī yú ": 3961,
  "xuě ": 3962,
  " zhòng ": 3963,
  " zhōng huá mín guó ": 3964,
  "shuǐ yù ": 3965,
  "11 ": 3966,
  "10 rì ": 3967,
  "biàn huà ": 3968,
  "shàng wèi ": 3969,
  " jí tuán": 3970,
  "2018 nián ": 3971,
  " jì xù ": 3972,
  "zhī yī ": 3973,
  " shí dài ": 3974,
  "chǔ yú ": 3975,
  "UTC ": 3976,
  "gòng hé ": 3977,
  "e ": 3978,
  " bù zhǎng ": 3979,
  "zì jǐ ": 3980,
  "jié shù ": 3981,
  "2019 nián ": 3982,
  " zì jǐ": 3983,
  "zhī chí ": 3984,
  "2005 nián ": 3985,
  "guò chéng ": 3986,
  " hòu lái": 3987,
  " bái ": 3988,
  " wài ": 3989,
  "shùn ": 3990,
  "mín zú ": 3991,
  "2015 nián ": 3992,
  "kōng jiān ": 3993,
  " 8": 3994,
  "shuì ": 3995,
  "bú huì ": 3996,
  "yè yú ": 3997,
  " zi ": 3998,
  " rú": 3999,
  "tòu guò ": 4000,
  "nèi bù ": 4001,
  "mèi ": 4002,
  "2013 nián ": 4003,
  " chēng ": 4004,
  "jiě fàng": 4005,
  " sì": 4006,
  " zhí dào ": 4007,
  " yì zhí ": 4008,
  "xīn wén ": 4009,
  "fēn bù ": 4010,
  " jǐng ": 4011,
  "gēn jù": 4012,
  "   the   ": 4013,
  " zhōu shì ": 4014,
  "pī píng ": 4015,
  " N": 4016,
  " jí tuán ": 4017,
  "2007 nián ": 4018,
  " ài": 4019,
  " 7": 4020,
  "dì qū ": 4021,
  " jiù": 4022,
  "   zhè ": 4023,
  "tā men": 4024,
  " shǔ ": 4025,
  " hé nán ": 4026,
  " shì shí ": 4027,
  " yǒu xiàn gōng sī ": 4028,
  "wán jiā ": 4029,
  "20 ": 4030,
  "guī dìng ": 4031,
  "gé mìng ": 4032,
  " jiā rù ": 4033,
  "wán quán ": 4034,
  " shén ": 4035,
  "chéng wéi ": 4036,
  " táng ": 4037,
  "xī bān ": 4038,
  "zī gé ": 4039,
  "26 rì ": 4041,
  " K": 4042,
  "dà lù ": 4043,
  "   gāi ": 4044,
  "2017 nián ": 4045,
  "ào lín pǐ kè ": 4046,
  " dà huì ": 4047,
  "24 rì ": 4048,
  "kuān ": 4049,
  "zài de ": 4050,
  "zá zhì ": 4051,
  " mò ": 4052,
  " zhè zhǒng ": 4053,
  "yīng yǔ ": 4054,
  "pú táo ": 4055,
  "d   ": 4056,
  "lù dì ": 4057,
  "   yī ": 4058,
  "hé de ": 4059,
  "shàng hǎi ": 4060,
  " yīng guó ": 4061,
  "háo mǐ ": 4062,
  " yǔ yán ": 4063,
  "qǐ yè ": 4064,
  "qí tā": 4065,
  "n ": 4066,
  "fāng de ": 4067,
  " 3 ": 4068,
  "hòu yī ": 4069,
  "luó mǎ ": 4070,
  "wèn tí": 4071,
  " kě": 4072,
  "sān gè ": 4073,
  " chéng qū ": 4074,
  "sè de ": 4075,
  "2006 nián ": 4076,
  "chuán tǒng": 4077,
  " L": 4078,
  " shì fǎ guó ": 4079,
  "yī de ": 4080,
  " tóu ": 4081,
  "18 rì ": 4082,
  "wù zhǒng ": 4083,
  " wèi yú gāi guó ": 4084,
  "a   ": 4085,
  " lǐ sī ": 4086,
  " tái wān ": 4087,
  "jìng nèi ": 4088,
  " hā ": 4089,
  " bù tóng de ": 4090,
  " 9": 4091,
  "wù lǐ ": 4092,
  " mò": 4093,
  "duō de ": 4094,
  "shù wèi ": 4095,
  " dài biǎo": 4096,
  "biǎo xiàn ": 4097,
  " shì jiè dà ": 4098,
  " yào ": 4099,
  "shěng jí ": 4100,
  "fǎ lǜ ": 4101,
  "miáo shù ": 4102,
  "guān yuán ": 4103,
  "gàn ": 4104,
  "jīng guò ": 4105,
  " ā": 4106,
  " lú ": 4107,
  "bà ": 4108,
  "chāng ": 4109,
  " zuì hòu ": 4110,
  " yì bān ": 4111,
  "pò huài": 4112,
  " guó jiā": 4113,
  "yíng dé ": 4114,
  " suí hòu ": 4115,
  "cài ": 4116,
  "zhèng zài ": 4117,
  "bāo hán ": 4118,
  " shì jiàn": 4119,
  "bó wù guǎn ": 4120,
  " gōng jī ": 4121,
  "21 ": 4122,
  "shèn ": 4123,
  "cè shì ": 4124,
  "chǎng de ": 4125,
  " wèi zhōng ": 4126,
  " lì yòng ": 4127,
  "bù hé ": 4128,
  "ná ": 4129,
  "zé shì ": 4130,
  " cháo ": 4131,
  "niè ": 4132,
  "fēi jī ": 4133,
  " fēn bù yú ": 4134,
  "chún ": 4135,
  "zhuān yè ": 4136,
  "shǐ de ": 4137,
  "zhēng yì ": 4138,
  "27 rì ": 4139,
  "16 rì ": 4140,
  "fǎ yuàn ": 4141,
  " suī rán": 4142,
  " 2001 nián ": 4143,
  " dì qū": 4144,
  "21 rì ": 4145,
  "yì shí ": 4146,
  "yōng ": 4147,
  "17 rì ": 4148,
  "zāo dào ": 4149,
  " shì yì ": 4150,
  " shēng huó ": 4151,
  "t ": 4152,
  "12 rì ": 4153,
  " chóng ": 4154,
  " bèi chēng wéi ": 4155,
  "dìng yì ": 4156,
  " zhōng xīn": 4157,
  " dà qū ": 4158,
  "8 rì ": 4159,
  "zōng hé ": 4160,
  " zhàn zhēng ": 4161,
  "d ": 4162,
  "xué de ": 4163,
  " xiàn shí ": 4164,
  "   D": 4165,
  " zhōng gòng": 4166,
  "19 rì ": 4167,
  "jí wèi ": 4168,
  "sōu ": 4169,
  "23 rì ": 4170,
  "2021 nián ": 4171,
  "huáng dì ": 4172,
  " de zuò ": 4173,
  "zhǐ shì ": 4174,
  "2022 nián ": 4175,
  "11 rì ": 4176,
  "ā lā ": 4177,
  "ōu zhōu": 4178,
  "jiāng qí ": 4179,
  " zhū ": 4180,
  " bìng bù ": 4181,
  "yuán yú ": 4182,
  "fāng xiàng ": 4183,
  "liù nián ": 4184,
  "zhàn de ": 4185,
  "é luó ": 4186,
  "   yú ": 4187,
  "chū xiàn ": 4188,
  "quán lì ": 4189,
  "nǎo ": 4190,
  "liè chē": 4191,
  "guī mó ": 4192,
  "22 rì ": 4193,
  "7 rì ": 4194,
  "29 rì ": 4195,
  "liè de ": 4196,
  "zuì dà de ": 4197,
  "duō shù ": 4198,
  "xiàng de ": 4199,
  " cì": 4200,
  "xū yào": 4201,
  "hái shì ": 4202,
  " lóng ": 4203,
  "yù de ": 4204,
  "néng gòu ": 4205,
  "yuē hàn ": 4206,
  "   cǐ ": 4207,
  " zhè xiē": 4208,
  "dìng wèi ": 4209,
  "9 rì ": 4210,
  "tǒng jì ": 4211,
  " xiāng gǎng": 4212,
  " zǔ ": 4213,
  "sāng ": 4214,
  "   zhèng zhì ": 4215,
  " zài zhè ": 4216,
  "xìn xī ": 4217,
  "lián méng": 4218,
  "yàng de ": 4219,
  " xiàn zhì ": 4220,
  "gōng de ": 4221,
  "jǔ bàn": 4222,
  "qiú duì ": 4223,
  "hōng ": 4224,
  " fēn bié": 4225,
  "de   ": 4226,
  "chá de ": 4227,
  "14 rì ": 4228,
  "lìng yī ": 4229,
  "cháng shì ": 4230,
  "y ": 4231,
  "měi guó rén kǒu pǔ ": 4232,
  " zhāng": 4233,
  "5 rì ": 4234,
  "niǔ yuē": 4235,
  "zǔ hé ": 4236,
  " huò dé": 4237,
  " lù": 4238,
  " 10": 4239,
  "lín shí ": 4240,
  "3 rì ": 4241,
  "31 rì ": 4242,
  " zhōng bù ": 4243,
  "wèi shì ": 4244,
  "dǒng shì ": 4245,
  "jī dì ": 4246,
  "gē shǒu ": 4247,
  "dōng nán ": 4248,
  "hǎi bá": 4249,
  "bāng zhù ": 4250,
  " de shì zhèn ": 4251,
  "   zhōng ": 4252,
  " rù ": 4253,
  "6 rì ": 4254,
  "móu ": 4255,
  "pāi shè ": 4256,
  " bào ": 4257,
  " huá ": 4258,
  " gòng ": 4259,
  " yì dà lì ": 4260,
  "2000 nián ": 4261,
  " shè lì ": 4262,
  "2 rì ": 4263,
  " liú": 4264,
  " yì bān": 4265,
  " rén kǒu": 4266,
  "gè rén ": 4267,
  "shè yǒu ": 4268,
  " de zhōng ": 4269,
  "4 rì ": 4270,
  " 4 ": 4271,
  "30 ": 4272,
  "shēng yá ": 4273,
  " O": 4274,
  "yuán hé ": 4275,
  "2004 nián ": 4276,
  " dì qū de ": 4277,
  " xué shēng ": 4278,
  " dǎo zhì ": 4279,
  "tiě lù": 4280,
  "zú qiú": 4281,
  "zǎo qī ": 4282,
  " qí tā": 4283,
  "féng ": 4284,
  "cāng ": 4285,
  "B ": 4286,
  "13 rì ": 4287,
  "al   ": 4288,
  "xiōng dì ": 4289,
  "shēng zài ": 4290,
  "dōng běi ": 4291,
  "mù dì ": 4292,
  "tōng cháng ": 4293,
  "huī fù ": 4294,
  "ruǎn ": 4295,
  " wǒ": 4296,
  " shì chǎng ": 4297,
  " xué yuàn ": 4298,
  " zhè yī ": 4299,
  "shāo ": 4300,
  "shēn fèn ": 4301,
  "   yóu yú ": 4302,
  "qǔ dài ": 4303,
  "gé mìng": 4304,
  "zhǐ huī ": 4305,
  "qíng kuàng xià ": 4306,
  " méi yǒu ": 4307,
  "sū lián ": 4308,
  " biàn ": 4309,
  "yí bù ": 4310,
  " fù": 4311,
  "xié yì ": 4312,
  "huáng jiā ": 4313,
  "kē jì ": 4314,
  " I": 4315,
  "fā xiàn": 4316,
  "bǐng ": 4317,
  "zhěng gè ": 4318,
  " hēi ": 4319,
  "rén hé ": 4320,
  " gōng chǐ ": 4321,
  "lián bāng ": 4322,
  "yāo qiú": 4323,
  "páng ": 4324,
  "zhān ": 4325,
  "yān ": 4326,
  "chāo jí ": 4327,
  "pán ": 4328,
  "mào yì ": 4329,
  "yuè de ": 4330,
  "zhǎng de ": 4331,
  "xué yuàn": 4332,
  "fǎn yìng": 4333,
  "jǔ bàn ": 4334,
  "háng kōng": 4335,
  " R": 4336,
  "xí jī ": 4337,
  "cuī ": 4338,
  " yě yǒu ": 4339,
  "huà hé ": 4340,
  "xiǎo shuō ": 4341,
  " dì lì ": 4342,
  "guān fāng ": 4343,
  "lì hé ": 4344,
  "0 ": 4345,
  "nǚ xìng ": 4346,
  " xī nán ": 4347,
  "tú shū ": 4348,
  "xiān hòu ": 4349,
  "bì yè ": 4350,
  "tǒng yī ": 4351,
  " hā": 4352,
  " shū ": 4353,
  "br ": 4354,
  " gù": 4355,
  "sài de ": 4356,
  "hóu ": 4357,
  " yǐ jīng": 4358,
  "zá ": 4359,
  "zūn ": 4360,
  " màn ": 4361,
  " wēi": 4362,
  " shuāng ": 4363,
  " què ": 4364,
  " br ": 4365,
  "   E": 4366,
  "xié zhù ": 4367,
  " dōng": 4368,
  "cì shì jiè dà ": 4369,
  "lǎn ": 4370,
  " rú guǒ ": 4371,
  "shàng shì ": 4372,
  " 6 ": 4373,
  "qū huà ": 4374,
  "fēn xī ": 4375,
  "yǔ de ": 4376,
  " ěr shěng ": 4377,
  "rén kǒu shù liàng": 4378,
  "wén wù bǎo hù ": 4379,
  " hé yī ": 4380,
  " bù néng ": 4381,
  "zì xíng ": 4382,
  "tǐng ": 4383,
  "12 ": 4384,
  "jiē duàn ": 4385,
  "wú xiàn ": 4386,
  "guǎng bō ": 4387,
  " běn": 4388,
  " yǐ lái ": 4389,
  " xī bān ": 4390,
  "dān rèn": 4391,
  " tā céng": 4392,
  "chí xù ": 4393,
  "tái běi": 4394,
  " wǔ": 4395,
  " cái ": 4396,
  "gòng chǎn dǎng ": 4397,
  "guó hé ": 4398,
  " yǐ xià ": 4399,
  "qī nián ": 4400,
  "tè de ": 4401,
  "dǎo yǎn ": 4402,
  " qiě": 4403,
  "réng ": 4404,
  "hòu yú ": 4405,
  "fā biǎo": 4406,
  "yǎn chàng": 4407,
  "zhù zài ": 4408,
  "xià xiá": 4409,
  "tiáo jiàn ": 4410,
  " qiě ": 4411,
  "pín dào ": 4412,
  " gōng zuò": 4413,
  "yè de ": 4414,
  "jiāo yì ": 4415,
  "hǔ ": 4416,
  " zài cì ": 4417,
  "shào nián ": 4418,
  "lài ": 4419,
  "jié shù": 4420,
  " shì zhōng guó ": 4421,
  " jiǔ ": 4422,
  "bào dào ": 4423,
  " rén kǒu mì dù wèi ": 4424,
  "qiú yuán ": 4425,
  " shì lì ": 4426,
  "   bù ": 4427,
  "zāo ": 4428,
  "jué sài ": 4429,
  "yìng yòng ": 4430,
  "wài de ": 4431,
  "yóu zhèng ": 4432,
  "jiàn lì ": 4433,
  "zī yuán ": 4434,
  "sāi ěr ": 4435,
  " yà ": 4436,
  " qí hòu ": 4437,
  " qiān ": 4438,
  "zuì dà ": 4439,
  " xī": 4440,
  " bìng wèi ": 4441,
  "huí dào ": 4442,
  "cāo ": 4443,
  "sù dù ": 4444,
  "qì hòu ": 4445,
  "kě dá ": 4446,
  " wèi yú fǎ guó ": 4447,
  "gǎi gé ": 4448,
  "mì shū ": 4449,
  " luò ": 4450,
  " yī yuàn ": 4451,
  "diàn shì jù ": 4452,
  "zhuàng tài ": 4453,
  "zhù de ": 4454,
  "fèn wèi ": 4455,
  " gōng yè ": 4456,
  "wǎng zhàn ": 4457,
  " zhào ": 4458,
  "gōng sī ": 4459,
  " W": 4460,
  "jié guǒ ": 4461,
  "suǒ shǔ de ": 4462,
  " de dì yī ": 4463,
  " jiě ": 4464,
  "   L": 4465,
  " lán ": 4466,
  "hú nán ": 4467,
  " yī sī ": 4468,
  " mài": 4469,
  "yà lì ": 4470,
  " wèi yī ": 4471,
  "shàng hǎi": 4472,
  "20 shì jì ": 4473,
  "jié hé ": 4474,
  " zhè ge": 4475,
  " zuò pǐn ": 4476,
  "zuǒ yòu ": 4477,
  "xiǎo xué ": 4478,
  "shèng lì ": 4479,
  " zhōng gòng ": 4480,
  "shǒu cì": 4481,
  "U ": 4482,
  " hào xiàn ": 4483,
  "zhèn qū ": 4484,
  " de fù ": 4485,
  "kāi fā": 4486,
  "wén míng ": 4487,
  " jiǎn chēng ": 4488,
  " suǒ yǒu ": 4489,
  "yí zhì ": 4490,
  "jiào huì ": 4491,
  "shěng fèn ": 4492,
  "zhǎn kāi ": 4493,
  "yìn dù": 4494,
  "shí qī ": 4495,
  " fǎ guó ": 4496,
  "lǐng dǎo": 4497,
  "mù biāo ": 4498,
  " ér shì ": 4499,
  "gāo jí ": 4500,
  "zhǔn bèi ": 4501,
  "wǎng luò ": 4502,
  " měi yuán ": 4503,
  " jiàn shè ": 4504,
  "xùn liàn ": 4505,
  "fā biǎo ": 4506,
  "kē de ": 4507,
  " rén wù ": 4508,
  "xuǎn shǒu ": 4509,
  "jiāo tōng": 4510,
  " fēi": 4511,
  "hǎo de ": 4512,
  "zì rán ": 4513,
  "zhòng yào de ": 4514,
  "dōng jīng ": 4515,
  "chǎn pǐn ": 4516,
  "gòng yǒu rén kǒu ": 4517,
  " xiàn dài ": 4518,
  " yī míng ": 4519,
  " jiǎ ": 4520,
  " xī běi ": 4521,
  "fēng gé ": 4522,
  " chéng jì ": 4523,
  "lěi ": 4524,
  " hé dì ": 4525,
  "zòu ": 4526,
  "xiǎo xíng xīng ": 4527,
  "yán zhòng ": 4528,
  "juǎn ": 4529,
  "zi de ": 4530,
  "mù qián ": 4531,
  "wén wù bǎo hù dān wèi ": 4532,
  "liú xíng ": 4533,
  " jī chǎng ": 4534,
  "   K": 4535,
  "biàn chéng ": 4536,
  "qiáo zhì ": 4537,
  "miè ": 4538,
  " guāng ": 4539,
  "lèi sì": 4540,
  "diàn shì tái ": 4541,
  "jiě shì ": 4542,
  "guó mín ": 4543,
  " yì qǐ ": 4544,
  " yǒng ": 4545,
  "kāi fàng ": 4546,
  " mài ": 4547,
  " shèn zhì ": 4548,
  " dān rèn ": 4549,
  " xià lìng": 4550,
  " yí gè ": 4551,
  "kǎ ěr ": 4552,
  "2003 nián ": 4553,
  "xíng shì ": 4554,
  "dōu yǒu ": 4555,
  "2002 nián ": 4556,
  " chú le ": 4557,
  "zhī hòu ": 4558,
  "huì hé ": 4559,
  "měi píng fāng gōng lǐ ": 4560,
  "   W": 4561,
  "rù le ": 4562,
  " yī yàng ": 4563,
  " gōng fēn ": 4564,
  " shè zhì ": 4565,
  "tè zhēng ": 4566,
  "cān sài ": 4567,
  " sī jī ": 4568,
  " jià ": 4569,
  " wū ": 4570,
  "rú xià ": 4571,
  "zhēn duì ": 4572,
  "zhè ge ": 4573,
  "jiù shì zhèn ": 4574,
  " shì fǒu": 4575,
  " shí jiān": 4576,
  "gāo zhōng ": 4577,
  " cǐ hòu ": 4578,
  "bàng ": 4579,
  "bì xū ": 4580,
  " zài zhōng ": 4581,
  "wáng guó ": 4582,
  "bǐ jiào ": 4583,
  " 00": 4584,
  "èr shì ": 4585,
  "wài jiāo": 4586,
  "guī huà ": 4587,
  "diāo ": 4588,
  " yì zhì ": 4589,
  "lèi sì ": 4590,
  "shān dōng ": 4591,
  " rán hòu ": 4592,
  " yǔ": 4593,
  " yì zhí": 4594,
  " lì shǔ yú ": 4595,
  "yuán shì ": 4596,
  "duì zài ": 4597,
  "zhù míng ": 4598,
  "yún nán ": 4599,
  "hěn duō ": 4600,
  " ěr de ": 4601,
  "huò dé": 4602,
  "shēng chǎn ": 4603,
  " děng": 4604,
  "   gōng ": 4605,
  "zhàn yì ": 4606,
  " suī rán ": 4607,
  " chē ": 4608,
  " běi": 4609,
  "diàn zi ": 4610,
  " biǎo shì ": 4611,
  "zhòng de ": 4612,
  " shāng ": 4613,
  " jiàn zhì ": 4614,
  "   dà ": 4615,
  "xīn jiā ": 4616,
  "lái zì": 4617,
  " tú ": 4618,
  "zhì zuò ": 4619,
  "shān xī ": 4620,
  "rén kǒu shù liàng wèi rén ": 4621,
  "jù jí ": 4622,
  " de yī zhǒng ": 4623,
  " gǔ": 4624,
  " de míng ": 4625,
  " zǔ": 4626,
  "jí hé ": 4627,
  " xī yà": 4628,
  "lǚ yóu ": 4629,
  " zhì zào ": 4630,
  " xíng wéi ": 4631,
  "mǎ lái": 4632,
  " rèn": 4633,
  "bào fā ": 4634,
  "nǚ ér ": 4635,
  " INSEE": 4636,
  "tào ": 4637,
  "zǒng lǐ ": 4638,
  "quán qiú ": 4639,
  "sī hé ": 4640,
  " de zhǔ ": 4641,
  " shàng hǎi ": 4642,
  "sài zhōng ": 4643,
  "fā shè ": 4644,
  "ruì shì ": 4645,
  " duì yú ": 4646,
  "bāo hán": 4647,
  "nóng yè ": 4648,
  "yè wù ": 4649,
  "tóu zī ": 4650,
  "lù jūn ": 4651,
  "wù zhì ": 4652,
  "jué de ": 4653,
  "nài ": 4654,
  "tè bié ": 4655,
  " jìn shì ": 4656,
  " de shí hòu ": 4657,
  "ào lín pǐ kè yùn dòng huì ": 4658,
  "gé de ": 4659,
  " zhì jīn ": 4660,
  "fāng àn ": 4661,
  "sī rén ": 4662,
  "huà xué ": 4663,
  " tè bié": 4664,
  " dà liàng ": 4665,
  "jí shì ": 4666,
  "mǐn ": 4667,
  "kě néng shì ": 4668,
  " ní ": 4669,
  "T ": 4670,
  "chà ": 4671,
  " nián dù ": 4672,
  "lián jiē ": 4673,
  "jìn de ": 4674,
  " zhī wài ": 4675,
  "sì shí ": 4676,
  "cáo ": 4677,
  "fā dòng ": 4678,
  " V": 4679,
  "qiǎn ": 4680,
  "   O": 4681,
  "   R": 4682,
  "xuǎn wèi ": 4683,
  " shè shī ": 4684,
  "chù de ": 4685,
  "tǔ ěr": 4686,
  " lì sī ": 4687,
  "bó tè ": 4688,
  " zǒng miàn jī ": 4689,
  "luó mǎ": 4690,
  "chuàng lì ": 4691,
  " de lì ": 4692,
  " gèng ": 4693,
  " nián hòu ": 4694,
  " dé lǐ ": 4695,
  "guǎng chǎng ": 4696,
  "lián hé guó ": 4697,
  "jí shí ": 4698,
  "gēng míng wèi ": 4699,
  "zǎo nián ": 4700,
  " 11": 4701,
  "xiào lì ": 4702,
  "qì de ": 4703,
  "biǎo yǎn ": 4704,
  " zhèng shì ": 4705,
  "yí shì ": 4706,
  " jūn zài ": 4707,
  "fāng miàn": 4708,
  "jué dìng": 4709,
  " gāi shěng ": 4710,
  " zhēn ": 4711,
  "réng rán ": 4712,
  "dā ": 4713,
  "zhì shì ": 4714,
  " gōng néng ": 4715,
  "zǒng tǒng": 4716,
  " rén kǒu mì dù měi píng fāng gōng lǐ ": 4717,
  " rén kǒu mì dù wèi měi": 4718,
  " xià lìng shí ": 4719,
  "yóu zhèng biān mǎ wèi ": 4720,
  "o ": 4721,
  "chá de shù jù ": 4722,
  " jù lè bù ": 4723,
  " shì zhèn biān mǎ wèi ": 4724,
  " INSEE shì zhèn biān mǎ wèi ": 4725,
  " xiān ": 4726,
  "   bèi ": 4727,
  "biāo zhǔn": 4728,
  " hán ": 4729,
  " shè de ": 4730,
  "xuǎn qū wèi ": 4731,
  " zài cǐ ": 4732,
  " bù guò": 4733,
  "pái míng ": 4734,
  " guó wáng ": 4735,
  "dòng lì ": 4736,
  "shí de rén kǒu shù liàng wèi rén ": 4737,
  " fēn zhōng ": 4738,
  "2023 nián ": 4739,
  "jiē rǎng de shì zhèn ": 4740,
  "měi guó rén kǒu pǔ chá de shù jù ": 4741,
  "cóng shì ": 4742,
  "er ": 4743,
  "jiā lì ": 4744,
  " ér rén kǒu mì dù wèi měi": 4745,
  "gé lán": 4746,
  " dāng dì gòng yǒu rén kǒu ": 4747,
  "jiě jué ": 4748,
  " xiàng": 4749,
  "fēn lèi ": 4750,
  "zú de ": 4751,
  "lián bāng": 4752,
  "3 nián ": 4753,
  "shǐ yòng de ": 4754,
  " xiāo ": 4755,
  "dà bù fèn": 4756,
  "yī zhǒng ": 4757,
  "lǐng yù ": 4758,
  " huò jiù shì zhèn ": 4759,
  "hé shì ": 4760,
  "   lì ": 4761,
  " chū bǎn ": 4762,
  "gōu ": 4763,
  "yùn yíng ": 4764,
  "shěng jí xuǎn qū wèi ": 4765,
  "jī jí ": 4766,
  " de yī bù fèn ": 4767,
  "C ": 4768,
  "S ": 4769,
  " jiǎng ": 4770,
  "shí shì ": 4771,
  "ér zi ": 4772,
  "jiǔ nián ": 4773,
  "zuò pǐn": 4774,
  "xuǎn rén ": 4775,
  "gài niàn ": 4776,
  "xīng de ": 4777,
  " ěr dé ": 4778,
  "shěng hé ": 4779,
  "jiē shòu": 4780,
  "tiáo yuē ": 4781,
  " jǐn guǎn ": 4782,
  "fèn wèi fǎ guó ": 4783,
  " gāi shěng fèn wèi fǎ guó ": 4784,
  " chū bǎn": 4785,
  " zhī xiàn ": 4786,
  "tiě dào ": 4787,
  " qīng": 4788,
  " dì sān": 4789,
  " sòng ": 4790,
  " jūn duì ": 4791,
  "guǎng zhōu ": 4792,
  " bù jiǔ ": 4793,
  "ào dà lì ": 4794,
  " wèi shí ": 4795,
  " xī là": 4796,
  " kāi shǐ ": 4797,
  "fú jiàn ": 4798,
  " hé bìng": 4799,
  "E ": 4800,
  "zhàn zhēng": 4801,
  " yǒu rén ": 4802,
  "pái míng": 4803,
  " duì": 4804,
  "zhàn shì ": 4805,
  "jǐn biāo sài ": 4806,
  " J": 4807,
  " nián chū ": 4808,
  "zuì hòu yī ": 4809,
  "jǐng chá ": 4810,
  "qún dǎo ": 4811,
  "lái yuán ": 4812,
  "i ": 4813,
  "tè bié": 4814,
  "e   ": 4815,
  " tā bèi ": 4816,
  " ér qiě ": 4817,
  "xīng jiàn ": 4818,
  " wàn rén ": 4819,
  "réng rán": 4820,
  "bā nián ": 4821,
  " chū shēng yú ": 4822,
  "shè lì ": 4823,
  "y   ": 4824,
  "F ": 4825,
  "4 nián ": 4826,
  " ruò ": 4827,
  "dì yī ": 4828,
  " rì de ": 4829,
  "lún dūn": 4830,
  "běn de ": 4831,
  "wěi huì ": 4832,
  "X ": 4833,
  " yì wèi ": 4834,
  " yóu xì": 4835,
  " rén gōng ": 4836,
  "xué xiào": 4837,
  "shǎn xī ": 4838,
  "tōng cháng": 4839,
  " zhì yú ": 4840,
  " gèng": 4841,
  "liè wèi ": 4842,
  " bù míng ": 4843,
  "céng zài ": 4844,
  "mǔ sī ": 4845,
  " míng cháo ": 4846,
  "tiān wén ": 4847,
  "yùn xíng ": 4848,
  " é ": 4849,
  "cǎi yòng": 4850,
  " dì sì ": 4851,
  "áng ": 4852,
  "ròu ": 4853,
  "yán jiū suǒ ": 4854,
  "guǎng fàn ": 4855,
  "   18": 4856,
  "ào sī ": 4857,
  " xiàn lù ": 4858,
  "měi zhōu ": 4859,
  "méng gǔ ": 4860,
  " shì bù ": 4861,
  "gǎn rǎn ": 4862,
  "yǐ jí ": 4863,
  " hé píng ": 4864,
  "huà shí ": 4865,
  "jiā rù ": 4866,
  " fàn ": 4867,
  "zhàn hòu ": 4868,
  "   tā": 4869,
  " jiāo ": 4870,
  "nán jí ": 4871,
  "shuō fǎ ": 4872,
  "xī zài ": 4873,
  " jìn de ": 4874,
  " rèn wéi": 4875,
  "k ": 4876,
  " jī běn ": 4877,
  " jù lí ": 4878,
  " fèi ": 4879,
  " dí ": 4880,
  "P ": 4881,
  "mó xíng ": 4882,
  "guò chéng zhōng ": 4883,
  " de dì fāng ": 4884,
  "wú rén ": 4885,
  " de xīn ": 4886,
  "jì shù ": 4887,
  " ràng": 4888,
  " jiàn yì ": 4889,
  " dá ": 4890,
  " tā yǔ ": 4891,
  "yùn shū ": 4892,
  "gòu mǎi": 4893,
  "wán quán": 4894,
  "wǔ shí ": 4895,
  " kè de ": 4896,
  "rèn wéi shì ": 4897,
  " zài yì ": 4898,
  " gè dì ": 4899,
  "2 nián ": 4900,
  " chén": 4901,
  "bàn gōng shì ": 4902,
  " cān ": 4903,
  " 10 yuè ": 4904,
  "tóng yī ": 4905,
  "duō gè ": 4906,
  "wài guó ": 4907,
  " zǒng rén kǒu ": 4908,
  "   of   ": 4909,
  "xué shì ": 4910,
  "shàng yǒu ": 4911,
  " shòu": 4912,
  "yuán wèi ": 4913,
  " shǐ yòng ": 4914,
  "jià zhí ": 4915,
  "gōng zuò ": 4916,
  " zì jǐ ": 4917,
  "ní sī ": 4918,
  " zài zhōng guó ": 4919,
  "xué xí ": 4920,
  "zhǎo ": 4921,
  "fēi xíng ": 4922,
  "yǎng huà ": 4923,
  "quān ": 4924,
  " āi": 4925,
  "xuān chuán ": 4926,
  "mò xī ": 4927,
  " yī xiē": 4928,
  "xuǎn zé": 4929,
  "chēng wèi ": 4930,
  "xiāo xī ": 4931,
  " xiàn rén ": 4932,
  " de guān ": 4933,
  " xīng ": 4934,
  "hǎi jūn": 4935,
  "biāo zhì ": 4936,
  " bù mén ": 4937,
  "zhì wèi ": 4938,
  "qǐ lái ": 4939,
  "   V": 4940,
  "yóu xì": 4941,
  "má ": 4942,
  "huán jìng": 4943,
  "fù zé guǎn xiá ": 4944,
  "xì bāo ": 4945,
  "19 ": 4946,
  " wéi zhǔ ": 4947,
  "jiè quán guó ": 4948,
  "gòu chéng ": 4949,
  "shī de ": 4950,
  "chē liàng ": 4951,
  "   yǐ ": 4952,
  "zhé xué ": 4953,
  "kēng ": 4954,
  " jì huà": 4955,
  " àn ": 4956,
  "sī zài ": 4957,
  " kē": 4958,
  "zhèng de ": 4959,
  " lín": 4960,
  "ān quán": 4961,
  "dǎng de ": 4962,
  "bǐ dé ": 4963,
  " dào lù ": 4964,
  "cháo xiān ": 4965,
  " ér qiě": 4966,
  " dǎ ": 4967,
  "yín háng": 4968,
  "on ": 4969,
  " yīng chǐ ": 4970,
  "xī de ": 4971,
  " shì měi guó ": 4972,
  " shì tú ": 4973,
  " huā ": 4974,
  "zhōng zài ": 4975,
  " jì niàn ": 4976,
  "zhǔ jué ": 4977,
  " èr": 4978,
  "x ": 4979,
  "àn de ": 4980,
  "sì chuān ": 4981,
  "bù wèi ": 4982,
  " jí qí ": 4983,
  "péng yǒu ": 4984,
  "1999 nián ": 4985,
  "chí xù": 4986,
  "24 ": 4987,
  "ài ěr ": 4988,
  "g ": 4989,
  "   yǒu ": 4990,
  " gōng gòng ": 4991,
  " zhī chí": 4992,
  "kàng yì ": 4993,
  "yuē wèi ": 4994,
  "tài guó ": 4995,
  " dōu ": 4996,
  " fǎn ": 4997,
  "jiē wèi ": 4998,
  "xuǎn qū ": 4999,
  "   hé ": 5000,
  "shí zài ": 5001,
  "yì hé ": 5002,
  "huì yǒu ": 5003,
  "shēng wù ": 5004,
  "xiào zhǎng ": 5005,
  "wén jiàn ": 5006,
  " tái wān": 5007,
  " bèi ěr ": 5008,
  "gē qǔ": 5009,
  "shōu rù ": 5010,
  " jié zhì ": 5011,
  "biāo wèi ": 5012,
  "fó jiào ": 5013,
  "róng yì ": 5014,
  " jiè": 5015,
  "   shí ": 5016,
  "ào yùn": 5017,
  "   chē zhàn ": 5018,
  " shēng wù ": 5019,
  "suǒ shǔ de shěng jí xuǎn qū wèi ": 5020,
  "yǎn de ": 5021,
  "biān jí ": 5022,
  " yuán zhù ": 5023,
  " zhàn zhēng": 5024,
  "sī dì ": 5025,
  "yě yǒu ": 5026,
  "qiàn ": 5027,
  "qián wǎng": 5028,
  " qiáng ": 5029,
  "yǔ yán ": 5030,
  "zhèng cè ": 5031,
  " ruò": 5032,
  "jì zhōng ": 5033,
  "mǐ ěr ": 5034,
  "jūn duì ": 5035,
  "jiě fàng jūn ": 5036,
  "tiǎo zhàn ": 5037,
  " chū le ": 5038,
  " yòu chēng ": 5039,
  "ào yùn ": 5040,
  " zhì dù ": 5041,
  " chǎng ": 5042,
  "gāo yú ": 5043,
  " shì yí gè": 5044,
  " huò shì ": 5045,
  "màn huà ": 5046,
  "gǎn dào ": 5047,
  "nán xìng ": 5048,
  "7 nián ": 5049,
  "kūn ": 5050,
  " yǐ shàng ": 5051,
  "gǎi biàn ": 5052,
  "mǎ lì ": 5053,
  "   2021": 5054,
  " dì xià ": 5055,
  "fó ": 5056,
  "jiē rǎng ": 5057,
  "pèi hé ": 5058,
  "tóu rù ": 5059,
  " yù": 5060,
  "měi yuán ": 5061,
  "zhǐ huī": 5062,
  "jiā rén ": 5063,
  "wěn dìng ": 5064,
  "1998 nián ": 5065,
  "zhā ": 5066,
  " zhōng yǒu ": 5067,
  " zài bù ": 5068,
  " què": 5069,
  "tí míng ": 5070,
  "dá chéng ": 5071,
  " yī zhǒng ": 5072,
  " yǎn ": 5073,
  "rǔ ": 5074,
  "nè ": 5075,
  "mò sī ": 5076,
  "fēn zhī ": 5077,
  "zài shì ": 5078,
  "tóng de ": 5079,
  "jiǎn jiè ": 5080,
  " tōng guò ": 5081,
  "shēn fèn": 5082,
  "tiān zhǔ jiào ": 5083,
  " zhōng guó rén mín ": 5084,
  " zì": 5085,
  "biǎo míng ": 5086,
  "duó de ": 5087,
  "tíng zhǐ ": 5088,
  " hái yǒu ": 5089,
  " ér rén kǒu mì dù wèi měi píng fāng qiān mǐ ": 5090,
  "xiǎo de ": 5091,
  " tí ": 5092,
  "zhèng shí ": 5093,
  "cè de ": 5094,
  "zào de ": 5095,
  " wèi fú": 5096,
  " píng": 5097,
  "juān ": 5098,
  "què zhěn": 5099,
  "2024 nián ": 5100,
  " jī bài ": 5101,
  "   2020": 5102,
  "bàn dǎo ": 5103,
  "   yuán ": 5104,
  "guó zài ": 5105,
  "wǔ qì ": 5106,
  " jiā ná dà ": 5107,
  " píng fāng mǐ ": 5108,
  "zì zhì qū ": 5109,
  " lí ": 5110,
  " 8 yuè ": 5111,
  "lā kè ": 5112,
  "lèi de ": 5113,
  "tā men ": 5114,
  " pí ": 5115,
  "hùn hé ": 5116,
  " zì yóu ": 5117,
  "   zì ": 5118,
  " zài měi guó ": 5119,
  " shí yàn": 5120,
  "zuì zǎo": 5121,
  "jǔ rén ": 5122,
  "tuán duì ": 5123,
  "dì shì ": 5124,
  " bō": 5125,
  "kě néng huì ": 5126,
  "yā lì ": 5127,
  "quán bù ": 5128,
  "c ": 5129,
  " sū": 5130,
  "jì wèi ": 5131,
  " ér bèi ": 5132,
  "p ": 5133,
  " zhuān ": 5134,
  " jì chéng ": 5135,
  "gòng xiàn ": 5136,
  "jì huà ": 5137,
  "xī bān yá ": 5138,
  "   in": 5139,
  " shí shī ": 5140,
  "jié mù": 5141,
  " jié guǒ ": 5142,
  " dì tiě ": 5143,
  " The": 5144,
  "shēng chǎn": 5145,
  "lái shuō ": 5146,
  "lì bù ": 5147,
  "zhè zhǒng ": 5148,
  "chǎn yè ": 5149,
  " wáng": 5150,
  "xíng dòng ": 5151,
  "fān yì ": 5152,
  " qī jiān ": 5153,
  " chū rèn ": 5154,
  "shǎo shù ": 5155,
  " bèi": 5156,
  "cāo zuò ": 5157,
  "jiǎn chá ": 5158,
  "bàn shì ": 5159,
  "jiā ná dà ": 5160,
  "yǐng piàn ": 5161,
  "chōng tū ": 5162,
  " zài dà ": 5163,
  " tā yú ": 5164,
  "bǎo hù": 5165,
  "àn jiàn ": 5166,
  "jì niàn ": 5167,
  "D ": 5168,
  "chóng jiàn ": 5169,
  "shǒu de ": 5170,
  "amp ": 5171,
  "r ": 5172,
  "céng jīng ": 5173,
  " jiàn zhù": 5174,
  " mù": 5175,
  " shí fēn ": 5176,
  " shì yǐ ": 5177,
  " hái": 5178,
  "xíng wéi ": 5179,
  "xīn lǐ ": 5180,
  "gòng tóng": 5181,
  "dòng de ": 5182,
  "kōng jūn ": 5183,
  "nàn ": 5184,
  " shǐ de ": 5185,
  "bàn gōng ": 5186,
  " zhǐ yǒu ": 5187,
  " mén ": 5188,
  " xiàn wèi ": 5189,
  "qī jiān": 5190,
  "dà bù fèn ": 5191,
  " zhì zuò": 5192,
  "jié gòu": 5193,
  "fēn bié ": 5194,
  "yāng ": 5195,
  "lián sài": 5196,
  "jué sè": 5197,
  " yì yǒu ": 5198,
  "t   ": 5199,
  " ān": 5200,
  " hù ": 5201,
  " lì rú": 5202,
  "lián xù ": 5203,
  "jí zài ": 5204,
  "shēn de ": 5205,
  " hé běi ": 5206,
  " wèi néng ": 5207,
  "xiāng duì ": 5208,
  "méi tǐ": 5209,
  "zhǔ tí ": 5210,
  " chuán ": 5211,
  "jiǎn shǎo ": 5212,
  " hé liú ": 5213,
  "gōng yuán ": 5214,
  "xiǎo zǔ ": 5215,
  "tòu ": 5216,
  " biān ": 5217,
  " yòu míng ": 5218,
  "tòng ": 5219,
  " yǐ sè ": 5220,
  "fèn zǐ ": 5221,
  "xiàn dài ": 5222,
  " shì yī míng ": 5223,
  " tǐ zhǎng ": 5224,
  "   2019": 5225,
  " xī wàng ": 5226,
  "yìng de ": 5227,
  "wěi yuán huì": 5228,
  "mìng míng wèi ": 5229,
  "ōu yuán ": 5230,
  " gōng sī de ": 5231,
  " liǎng rén ": 5232,
  "yì zài ": 5233,
  "dòng jī ": 5234,
  "dǎ jī ": 5235,
  " de dì qū ": 5236,
  "zhǎn shì ": 5237,
  "an   ": 5238,
  "zhè ge": 5239,
  "zhuó ": 5240,
  " zhí zhì ": 5241,
  " shè qū ": 5242,
  " jì xù": 5243,
  "guī mó": 5244,
  "shǒu wèi ": 5245,
  "xún huí ": 5246,
  "M ": 5247,
  " sī lìng": 5248,
  "shù liàng ": 5249,
  "xià wǔ ": 5250,
  "1996 nián ": 5251,
  "lù dì miàn jī wèi ": 5252,
  "yòng lái ": 5253,
  "shuǐ yù miàn jī wèi ": 5254,
  " lì jí ": 5255,
  "qǐ yòng ": 5256,
  "lèi xíng ": 5257,
  "rèn wù ": 5258,
  " guó lì ": 5259,
  " shí zì ": 5260,
  " yī cì ": 5261,
  "duō cì ": 5262,
  "píng jià ": 5263,
  "bù shì ": 5264,
  " zhèn ": 5265,
  " líng ": 5266,
  " 2009 nián ": 5267,
  " de shǒu ": 5268,
  " fù jìn ": 5269,
  "jǔ xíng de ": 5270,
  "   2018": 5271,
  "fú hé ": 5272,
  "wài jiāo ": 5273,
  "tǐ xì ": 5274,
  "   and": 5275,
  " zhè jiāng ": 5276,
  "1997 nián ": 5277,
  " dà shǐ ": 5278,
  "zuò jiā ": 5279,
  " shè bèi ": 5280,
  "I ": 5281,
  "liǎng gè": 5282,
  " lì fǎ ": 5283,
  " liè ": 5284,
  "zhù yì ": 5285,
  " amp ": 5286,
  "diàn lì ": 5287,
  "dé dào ": 5288,
  "kào ": 5289,
  "kuí ": 5290,
  " sī lìng ": 5291,
  " cóng ér ": 5292,
  "an ": 5293,
  " biàn": 5294,
  "fǎ lǜ": 5295,
  "jiào táng ": 5296,
  " dāng zhōng lù dì miàn jī wèi ": 5297,
  "zhì hé ": 5298,
  "zhí de ": 5299,
  " ér shuǐ yù miàn jī wèi ": 5300,
  "qǔ xiāo ": 5301,
  "jié zhì ": 5302,
  "shēng huó": 5303,
  "fú wù": 5304,
  "xué zhě ": 5305,
  "lún dūn ": 5306,
  "   xī ": 5307,
  "diān ": 5308,
  "   2022": 5309,
  "shuǐ píng ": 5310,
  "hǎi yù ": 5311,
  "nèi róng": 5312,
  " zhī shí ": 5313,
  "zhù zuò ": 5314,
  " 9 yuè ": 5315,
  "yīng gé lán ": 5316,
  " xiào ": 5317,
  " dà chén ": 5318,
  " chéng lì yú ": 5319,
  "   gài ": 5320,
  "tuò ": 5321,
  "lǚ kè ": 5322,
  " guǎng ": 5323,
  "zhì zài ": 5324,
  "jiē jìn ": 5325,
  " xīn wén ": 5326,
  "cháng qī ": 5327,
  " wéi ěr ": 5328,
  "lìng wài ": 5329,
  "   xíng zhèng qū huà ": 5330,
  "rèn mìng": 5331,
  "gāo sù": 5332,
  " jiā shàng ": 5333,
  "bǐ sài zhōng ": 5334,
  "yuàn zhǎng ": 5335,
  "jǐ yǔ ": 5336,
  "diǎn de ": 5337,
  "xī yáng ": 5338,
  " yǐ hòu ": 5339,
  " jūn wèi ": 5340,
  "mín de ": 5341,
  "shuò shì ": 5342,
  " dé de ": 5343,
  "wēi lián ": 5344,
  "wěi shū jì ": 5345,
  " yì rén ": 5346,
  "jiā hé ": 5347,
  "tài yáng ": 5348,
  "1992 nián ": 5349,
  "dǎo yǔ ": 5350,
  "pī zhǔn ": 5351,
  "dài yǒu ": 5352,
  "guō ": 5353,
  "hēng lì ": 5354,
  " shì yī wèi ": 5355,
  " xué xiào": 5356,
  "cān yù": 5357,
  " wèi fú qí yú ": 5358,
  " 7 yuè ": 5359,
  "6 nián ": 5360,
  "cì shì jiè dà zhàn ": 5361,
  "měi nián ": 5362,
  " shì qū ": 5363,
  "fā chū ": 5364,
  "quàn ": 5365,
  "xìng zhì ": 5366,
  "yǎn chàng huì ": 5367,
  " yuán yīn ": 5368,
  "tǎo lùn ": 5369,
  " formula ": 5370,
  "tuì yì ": 5371,
  "fēng bào ": 5372,
  "   yì ": 5373,
  "bǐ yà ": 5374,
  "jī zhì ": 5375,
  "xìn hào ": 5376,
  "yà de ": 5377,
  "néng gòu": 5378,
  " huí ": 5379,
  "shòu shāng ": 5380,
  " jiàn chéng ": 5381,
  " méng ": 5382,
  "lián xì ": 5383,
  " tuō ": 5384,
  "   N": 5385,
  "wèi zhì ": 5386,
  "   2017": 5387,
  "bì xū": 5388,
  " rú guǒ": 5389,
  "rú hé ": 5390,
  " tǐ zhǎng kě dá ": 5391,
  " ěr tè ": 5392,
  "bǎo chí ": 5393,
  " cí ": 5394,
  "zhuān jiā ": 5395,
  "fū rén ": 5396,
  "jiǎng xiàng ": 5397,
  "chā yì ": 5398,
  "wō ": 5399,
  " jīng guò ": 5400,
  "shòu yǔ ": 5401,
  " jī gòu": 5402,
  " zài yú ": 5403,
  " de yī zuò ": 5404,
  " tōng cháng ": 5405,
  " guī ": 5406,
  "R ": 5407,
  " 2010 nián ": 5408,
  "wǎng lù ": 5409,
  "jīng yíng ": 5410,
  " 12 yuè ": 5411,
  " mín guó ": 5412,
  "gòng chǎn dǎng": 5413,
  "diàn tái ": 5414,
  " 21 ": 5415,
  "dōng xī ": 5416,
  " kè lǐ ": 5417,
  " shēng chǎn ": 5418,
  " bù lǐ ": 5419,
  "tān ": 5420,
  " yǐ xià": 5421,
  "cūn zhuāng ": 5422,
  " 11 yuè ": 5423,
  " ràng ": 5424,
  "lái dào ": 5425,
  "suí hòu ": 5426,
  " zhī zhōng ": 5427,
  " gǎi": 5428,
  "bì yè yú ": 5429,
  "xùn liàn": 5430,
  "cuò shī ": 5431,
  "làng ": 5432,
  "fǎ de ": 5433,
  "miǎo ": 5434,
  " yì shù": 5435,
  "zǒng dū ": 5436,
  "zhù míng de ": 5437,
  "xì liè": 5438,
  " shì yǒu ": 5439,
  " jiàn duì ": 5440,
  "kuài sù ": 5441,
  "5 nián ": 5442,
  "zhù yú ": 5443,
  " cháng": 5444,
  "shé ": 5445,
  "1994 nián ": 5446,
  " shí rèn ": 5447,
  " yī shēng ": 5448,
  "gū jì ": 5449,
  "hái zi ": 5450,
  " ěr hé ": 5451,
  "tài píng yáng ": 5452,
  " zhū": 5453,
  "yán gé ": 5454,
  " huǒ ": 5455,
  "   2016": 5456,
  "tóng yì ": 5457,
  "le dà ": 5458,
  "shēng wèi ": 5459,
  "dǎo shì ": 5460,
  "chéng gōng ": 5461,
  " zhōng de ": 5462,
  " tw": 5463,
  " jié mù ": 5464,
  "sì gè ": 5465,
  "fā diàn ": 5466,
  " shàng hǎi": 5467,
  "zhàn zhōng ": 5468,
  " de qián ": 5469,
  " rén lèi ": 5470,
  "jié shù hòu ": 5471,
  " dé yǐ ": 5472,
  "pǔ tōng ": 5473,
  "shǎng ": 5474,
  " de shí qū wèi ": 5475,
  " xiǎng": 5476,
  " zhèng cè ": 5477,
  "15 ": 5478,
  " míng chēng ": 5479,
  "chè xiāo ": 5480,
  "yǔ zhōng ": 5482,
  " shèng": 5483,
  "   zhì ": 5484,
  "tóu piào ": 5485,
  "dǐ dá ": 5486,
  " yìn dù ": 5487,
  " jǐn guǎn": 5488,
  " wǎng ": 5489,
  "fā de ": 5490,
  "jú zhǎng ": 5491,
  " de shí jiān ": 5492,
  " fāng ": 5493,
  "gèng jiā ": 5494,
  "1995 nián ": 5495,
  "zhè xiē": 5496,
  " wèi shēng ": 5497,
  "fǎn huí ": 5498,
  "yuè tái ": 5499,
  " píng tái ": 5500,
  "guǎng xī ": 5501,
  " yáng": 5502,
  "zhái ": 5503,
  "fěi ": 5504,
  "hans ": 5505,
  "kuò dà ": 5506,
  "hā ěr ": 5507,
  " hans ": 5508,
  "yì zhōng ": 5509,
  "dēng lù ": 5510,
  "róng yù ": 5511,
  " tw ": 5512,
  "yuè shí ": 5513,
  " qī": 5514,
  " qián": 5515,
  "zhòng dà ": 5516,
  "lù yì ": 5517,
  "zǔ chéng de ": 5518,
  "zhǐ zài ": 5519,
  "25 ": 5520,
  " shì yǎn ": 5521,
  "què dìng ": 5522,
  "yè hòu ": 5523,
  " bù kě ": 5524,
  " sà ": 5525,
  " bìng méi yǒu ": 5526,
  " cǐ shí ": 5527,
  "   de shí ": 5528,
  " chēng": 5529,
  "jìn xíng": 5530,
  " ā ěr ": 5531,
  " xué xí ": 5532,
  "qì chē ": 5533,
  "wǎn shàng ": 5534,
  "jiào qū ": 5535,
  " mù qián": 5536,
  "míng chēng ": 5537,
  "yà lì shān": 5538,
  " lǜ ": 5539,
  "gǎi biān": 5540,
  "wù zhǒng": 5541,
  "guān zhòng ": 5542,
  "xiāo shòu ": 5543,
  " guó wù ": 5544,
  " zhī yuán ": 5545,
  "   2023": 5546,
  "yuàn de ": 5547,
  "bā xī ": 5548,
  " gōng yè": 5549,
  " huò zhě ": 5550,
  "rù kǒu ": 5551,
  "xiāng tóng ": 5552,
  "bā lí ": 5553,
  "bǎn de ": 5554,
  " xià": 5555,
  "xué hé ": 5556,
  "sǔn shī ": 5557,
  "pò huài ": 5558,
  "biǎo xiàn": 5559,
  "pān ": 5560,
  " shí xiàn ": 5561,
  "xī là": 5562,
  "fā xiàn le ": 5563,
  "   2014": 5564,
  "kàn dào ": 5565,
  "nǎi ": 5566,
  "qī zǐ ": 5567,
  "guān zhù ": 5568,
  " céng rèn ": 5569,
  " bìng yǐ ": 5571,
  "qiǎng ": 5572,
  "xiōng yá": 5573,
  " 6 yuè ": 5574,
  " chuàng ": 5575,
  "   suǒ shǔ de shěng jí xuǎn qū wèi ": 5576,
  "   de yóu zhèng biān mǎ wèi ": 5577,
  "   yǔ jiē rǎng de shì zhèn ": 5578,
  "   yú shí de rén kǒu shù liàng wèi rén ": 5579,
  "   de shí qū wèi ": 5580,
  "zhuāng zhì ": 5581,
  " xuān bù ": 5582,
  "zhí wèi ": 5583,
  "22 ": 5584,
  " 2011": 5585,
  " U": 5586,
  "jì hé ": 5587,
  " zuò yòng ": 5588,
  " quán zhǎng ": 5589,
  "tú zhōng ": 5590,
  "sū lián": 5591,
  "kāi fàng": 5592,
  "   jī ": 5593,
  "xū qiú ": 5594,
  " zhī míng ": 5595,
  "lín de ": 5596,
  " sī lā ": 5597,
  "shí wèi ": 5598,
  "héng xīng ": 5599,
  "tuī dòng ": 5600,
  "wéi de ": 5601,
  " shì zhǎng ": 5602,
  " quán bù ": 5603,
  " nián qīng": 5604,
  "guǎn lǐ": 5605,
  " 2019": 5606,
  " jiā tíng ": 5607,
  "rù qīn ": 5608,
  "rú cǐ ": 5609,
  " hk": 5610,
  "cán ": 5611,
  "tái běi ": 5612,
  "yǔ hé ": 5613,
  "yí dòng ": 5614,
  " yī dài ": 5615,
  "jìn shì ": 5616,
  "fù de ": 5617,
  " chū xiàn zài ": 5618,
  "zhè jiāng ": 5619,
  "mǔ qīn ": 5620,
  "xiōng yá lì ": 5621,
  " miàn ": 5622,
  "le   ": 5623,
  "mù sī ": 5624,
  "1991 nián ": 5625,
  " rén shù ": 5626,
  "fù qīn ": 5627,
  " dàn tā ": 5628,
  " xī bān yá": 5629,
  "   2015": 5630,
  "mín zú": 5631,
  "guǎng bō": 5632,
  "zuì chū ": 5633,
  "tái de ": 5634,
  " dì qiú ": 5635,
  " gān ": 5636,
  " shì zhǐ ": 5637,
  "1 nián ": 5638,
  "tí shēng ": 5639,
  "fēi jiàn zhì ": 5640,
  " duàn ": 5641,
  " chē zhàn ": 5642,
  " 5 yuè ": 5644,
  "xùn sù ": 5645,
  " hk ": 5646,
  "on   ": 5647,
  "shù xué ": 5648,
  "   2013": 5649,
  " sī tǎn ": 5650,
  " jǐn": 5651,
  " wèi hé ": 5652,
  " bìng lì ": 5653,
  " chéng wéi le ": 5654,
  "niǔ yuē ": 5655,
  " jīng": 5656,
  " zhuǎn ": 5657,
  "fā xíng": 5658,
  " jìn rù": 5659,
  "tè lǐ ": 5660,
  "kàng rì ": 5661,
  " hé xīn ": 5662,
  " gè zhǒng ": 5663,
  "zǒng bù ": 5664,
  " jí qí": 5665,
  "fā shēng": 5666,
  "shōu lù ": 5667,
  " shì rén ": 5668,
  "jiào de ": 5669,
  "gǎo ": 5670,
  "lán kè ": 5671,
  "máng ": 5672,
  "míng yì ": 5673,
  "cái zhèng ": 5674,
  "8 nián ": 5675,
  "chàng piàn ": 5676,
  " zuò pǐn": 5677,
  "   nián ": 5678,
  "sà kè ": 5679,
  " jì zǎi ": 5680,
  " zhōng wén ": 5681,
  "50 ": 5682,
  "jué sài": 5683,
  "jìn gōng ": 5684,
  "16 ": 5685,
  " shì jí ": 5686,
  "qǐ yì ": 5687,
  "cān yì ": 5688,
  "zhuàng kuàng ": 5689,
  " zào chéng ": 5690,
  " xiàn yú ": 5691,
  "lǜ wèi ": 5692,
  "   zhōng guó ": 5693,
  "le tā ": 5694,
  "zēng zhǎng ": 5695,
  "gāo dù ": 5696,
  "chǎn pǐn": 5697,
  "cān kǎo ": 5698,
  "fēi jiàn zhì dì qū ": 5699,
  " jì suàn": 5700,
  "zhàn dòu ": 5701,
  "dōu huì ": 5702,
  " hé bìng ": 5703,
  " shēng huó": 5704,
  "wáng de ": 5705,
  " huáng": 5706,
  " é luó sī ": 5707,
  "zhòng diǎn ": 5708,
  "diào chá": 5709,
  "chāi ": 5710,
  " dà lóu ": 5711,
  "hǎi dào ": 5712,
  "chàng piàn": 5713,
  " rén men ": 5714,
  "   J": 5715,
  "wēi xié ": 5716,
  "ào dì lì ": 5717,
  " hé zhōng ": 5718,
  "shàng shū ": 5719,
  " wéi qí ": 5720,
  "lǐng dǎo rén ": 5721,
  "kǎn ": 5722,
  " hòu": 5723,
  " dǎo ": 5724,
  "jīng shén ": 5725,
  " xiāng guān ": 5726,
  "jiā zhōng ": 5727,
  "suī rán ": 5728,
  " yīn ér ": 5729,
  "yuè zài ": 5730,
  "liǎng rén ": 5731,
  "   I": 5732,
  " bù duàn ": 5733,
  "cān jiā le ": 5734,
  " fáng ": 5735,
  "yíng yùn ": 5736,
  "l ": 5737,
  "huà wèi ": 5738,
  "jiāng xī ": 5739,
  " de chéng yuán ": 5740,
  "jié kè ": 5741,
  "23 ": 5742,
  "tú shū guǎn ": 5743,
  " hé chéng ": 5744,
  "zhǔ chí ": 5745,
  " zhōng guó gòng chǎn dǎng ": 5746,
  "jù de ": 5747,
  "nà lǐ ": 5748,
  " 4 yuè ": 5749,
  "mín zhòng ": 5750,
  "1988 nián ": 5751,
  "jìn rù": 5752,
  "mǒu xiē ": 5753,
  " huá": 5754,
  "shēn wèi ": 5755,
  "jū zhù ": 5756,
  "zì dòng ": 5757,
  "xià jì ào lín pǐ kè yùn dòng huì ": 5758,
  "yīn shì ": 5759,
  "al ": 5760,
  " xiǎo": 5761,
  "zhàn dòu": 5762,
  "shí jiān ": 5763,
  " yǒu shí ": 5764,
  "chǎn shēng de ": 5765,
  "   zh ": 5766,
  " zài jiā ": 5767,
  "shuō míng ": 5768,
  " tiān": 5769,
  " zhèng zhuàng ": 5770,
  "yǐn fā ": 5771,
  " qiáo ": 5772,
  "dāo ": 5773,
  "jiāng sū ": 5774,
  "1993 nián ": 5775,
  " huò dé le ": 5776,
  " 20": 5777,
  "es ": 5778,
  " zhī xià ": 5779,
  " shì wēi ": 5780,
  "xiǎo shuō": 5781,
  "   jiā zú ": 5782,
  " xǔ duō ": 5783,
  " shì zhèn": 5784,
  " gōng rén ": 5785,
  " wěi ": 5786,
  "dìng le ": 5787,
  "yōu shì ": 5788,
  "lán qiú ": 5789,
  " dà duō ": 5790,
  " zuǒ ": 5791,
  "zhōu de ": 5792,
  "suī rán": 5793,
  "jì shí ": 5794,
  " xiàng mù ": 5795,
  "xiǎn de ": 5796,
  "zī xùn ": 5797,
  "ào yùn huì ": 5798,
  "cuì ": 5799,
  "sù de ": 5800,
  " dà xíng ": 5801,
  " 2018": 5802,
  "13 ": 5803,
  " yuè nán ": 5804,
  "chuāng ": 5805,
  "xiàng mù": 5806,
  " jí lì ": 5807,
  " zhōng huá ": 5808,
  "qǔ dé": 5809,
  " lái zì ": 5810,
  "yuán zài ": 5811,
  " bù mén": 5812,
  "xiāng dāng ": 5813,
  " dàn yóu yú ": 5814,
  "fǎng wèn ": 5815,
  "zhí dào ": 5816,
  "jiào wéi ": 5817,
  "jié hūn ": 5818,
  " shì wèi le ": 5819,
  " dú ": 5820,
  " lǐ lùn ": 5821,
  "pǐn pái ": 5822,
  " xuǎn ": 5823,
  " lǐ": 5824,
  "xí wèi ": 5825,
  " dì wǔ ": 5826,
  "cān jiā": 5827,
  " pèi ": 5828,
  " yuè tái ": 5829,
  "zhōng wèi ": 5830,
  "zhēn shí ": 5831,
  "L ": 5832,
  "zhōng huá rén mín gòng hé guó ": 5833,
  "b ": 5834,
  "yǒu bù ": 5835,
  "yìn dì ": 5836,
  "měi shù ": 5837,
  "zhòu ": 5838,
  "xīng qī ": 5839,
  "mìng lìng ": 5840,
  "xué shù ": 5841,
  " de gōng zuò ": 5842,
  "2020 nián měi guó rén kǒu pǔ chá de shù jù ": 5843,
  " biān": 5844,
  " lǎo ": 5845,
  "jiàn shè ": 5846,
  "jǔ xíng": 5847,
  "fáng yù ": 5848,
  " rèn wù ": 5849,
  "wǔ zhuāng ": 5850,
  "   2025": 5851,
  "yí chǎn ": 5852,
  "bào dǎo ": 5853,
  "ào mén ": 5854,
  "tiáo zhěng ": 5855,
  " C ": 5856,
  " zhèng": 5857,
  " wén": 5858,
  " shí yī ": 5859,
  "tí gāo ": 5860,
  "m   ": 5861,
  "bá ": 5862,
  " jiā rù": 5863,
  " zhī hòu": 5864,
  "1990 nián ": 5865,
  "fēi lǜ ": 5866,
  "wǎ ěr ": 5867,
  "yǐ lái ": 5868,
  " tián ": 5869,
  "le tā de ": 5870,
  "huì yuán ": 5871,
  " shí qī": 5872,
  "jì lù ": 5873,
  " jī guān ": 5874,
  "shù zì ": 5875,
  "yǔn xǔ ": 5876,
  "dū shì ": 5877,
  "le yí gè ": 5878,
  "huà jiā ": 5879,
  "jī chǎng ": 5880,
  "yí mín ": 5881,
  "shū de ": 5882,
  "jù lí ": 5883,
  " fù zé": 5884,
  " zhuāng ": 5885,
  " shì yī zhǒng": 5886,
  "jīn de ": 5887,
  " rén lèi": 5888,
  " jiǔ": 5889,
  "   2024": 5890,
  " zhōu nián ": 5891,
  " zì jǐ de ": 5892,
  "jiē jí ": 5893,
  "duàn de ": 5894,
  "dū jiào ": 5895,
  "hōng zhà": 5896,
  "lì shì ": 5897,
  "kè lǐ ": 5898,
  "yán de ": 5899,
  "yāo qǐng ": 5900,
  " xié ": 5901,
  "yíng de ": 5902,
  "huā yuán ": 5903,
  "yòng hù ": 5904,
  "shān mài": 5905,
  " hóng": 5906,
  "shēng jí ": 5907,
  "yuē yǒu ": 5908,
  " shì dà ": 5909,
  "wén zì ": 5910,
  " dìng ": 5911,
  "miàn duì ": 5912,
  " liáng ": 5913,
  " 2011 nián ": 5914,
  "dōng jì ": 5915,
  "hán shù ": 5916,
  " chēng wéi ": 5917,
  "zī jīn ": 5918,
  "děng wèi ": 5919,
  "sú ": 5920,
  " lì shǐ": 5921,
  "wǔ tái ": 5922,
  " suì de ": 5923,
  " zhuǎn": 5924,
  " xú": 5925,
  " shè jí ": 5926,
  " zhì shí ": 5927,
  " shàng": 5928,
  " guān": 5929,
  " zhì lì ": 5930,
  "gāo děng ": 5931,
  "xiào guǒ ": 5932,
  " 2016": 5933,
  " suǒ yǐ": 5934,
  "yuán jí ": 5935,
  " rén mín": 5936,
  "shēn qǐng ": 5937,
  " hé lán ": 5938,
  " 2005 nián ": 5939,
  "dòng zuò ": 5940,
  " ōu ": 5941,
  " xiàn hé ": 5942,
  " 3 yuè ": 5943,
  "měi guó de ": 5944,
  " 2008 nián ": 5945,
  "19 shì jì ": 5946,
  " míng cháo zhèng zhì rén wù ": 5947,
  "   xīn ": 5948,
  "   zǎo nián ": 5949,
  "liǎng zhǒng ": 5950,
  " wàn měi yuán ": 5951,
  " hán guó ": 5952,
  " rì jūn ": 5953,
  "xià lìng": 5954,
  "jiào liàn ": 5955,
  "lǐng tǔ ": 5956,
  " jù": 5957,
  " shī": 5958,
  "nǔ lì ": 5959,
  " yuán míng ": 5960,
  "zhèng míng ": 5961,
  " s": 5962,
  "   hòu ": 5963,
  " 30": 5964,
  " zhāo": 5965,
  "liè biǎo ": 5966,
  "wèi   ": 5967,
  "lù jūn": 5968,
  " zhōng yú ": 5969,
  "zuò yòng ": 5970,
  "jīng cháng ": 5971,
  "qū yù": 5972,
  "yǒu zài ": 5973,
  " yì yì ": 5974,
  "yǐng piàn": 5975,
  "G ": 5976,
  " xiū ": 5977,
  " jìn xíng": 5978,
  " nán zhì ": 5979,
  "   yóu ": 5980,
  " guó huì ": 5981,
  " gōng huì ": 5982,
  " yuán gōng ": 5983,
  "guān xì": 5984,
  " jì zhě ": 5985,
  " chì ": 5986,
  "nèi lù ": 5987,
  "2 rén ": 5988,
  " pèi": 5989,
  "zhǎo dào ": 5990,
  "1984 nián ": 5991,
  "wáng cháo": 5992,
  "huí yìng ": 5993,
  "jīng lǐ ": 5994,
  "lǚ xíng ": 5995,
  "yòng zuò ": 5996,
  "shén jīng ": 5997,
  " shì hòu ": 5998,
  " yīng": 5999,
  " Ch": 6000,
  "lǐ lùn ": 6001,
  " gōng chǎng ": 6002,
  "fù jìn ": 6003,
  "yú zài ": 6004,
  " jué": 6005,
  " bó": 6006,
  "tài rén ": 6007,
  " hé gōng ": 6008,
  "chū bǎn ": 6009,
  "kě yǐ zài ": 6010,
  "suì dào ": 6011,
  "bǎo chí": 6012,
  "zhī jiān ": 6013,
  "jiǔ diàn ": 6014,
  "tí dào ": 6015,
  " chéng xiàn ": 6016,
  " nián 1 yuè 1 rì ": 6017,
  " jī chē ": 6018,
  " shí èr ": 6019,
  "guī zé ": 6020,
  "wǒ men": 6021,
  " luó": 6022,
  "āi jí ": 6023,
  "1989 nián ": 6024,
  " bǐ": 6025,
  "gé wèi ": 6026,
  "tī ": 6027,
  "qì xiàng ": 6028,
  "shǒu jī ": 6029,
  " guó fáng": 6030,
  "kōng zhōng ": 6031,
  " nián shì jiè ": 6032,
  " zhǒng ": 6033,
  "zhù lǐ ": 6034,
  " yú 18": 6035,
  "bèi shì wèi ": 6036,
  "tōng dào ": 6037,
  "kǒng bù ": 6038,
  "qí zhōng yī zhǒng ": 6039,
  " hěn ": 6040,
  "zuò wèi ": 6041,
  "shǒu dū ": 6042,
  " de zhì ": 6043,
  "lì wèi ": 6044,
  "shū jí ": 6045,
  " ér chéng ": 6046,
  "jī hé ": 6047,
  "dōng nán bù ": 6048,
  " wǒ men ": 6049,
  "yǐ xià ": 6050,
  " xī wàng": 6051,
  " měi nián ": 6052,
  " fǎn": 6053,
  "yǎn yì ": 6054,
  "xīn jiā pō": 6055,
  "dà lù de ": 6056,
  " léi ": 6057,
  "qǐ yè": 6058,
  " zuò wéi": 6059,
  "dài lǐ ": 6060,
  "měng ": 6061,
  " de jiā ": 6062,
  "jīn shǔ ": 6063,
  "jìn yí bù ": 6064,
  "láo dòng ": 6065,
  "to   ": 6066,
  "zhǔ chí": 6067,
  "jiào xué ": 6068,
  "biǎo miàn ": 6069,
  "gù wèn ": 6070,
  " yīng yǔ ": 6071,
  "nī ": 6072,
  " hé xī ": 6073,
  " bù bù ": 6074,
  "cái liào ": 6075,
  " hé shí ": 6076,
  " yǒu jī ": 6077,
  "cháo xiān": 6078,
  " 2001 nián rén kǒu ": 6079,
  "dào lù ": 6080,
  "fēn zhōng ": 6081,
  "huá rén ": 6082,
  "or ": 6083,
  " zài wèi ": 6084,
  " běi qǐ ": 6085,
  "jìng de ": 6086,
  "sǐ hòu ": 6087,
  "bǎo liú ": 6088,
  "bō lán": 6089,
  "14 ": 6090,
  "tōng chē ": 6091,
  " tǔ ": 6092,
  "sī lì ": 6093,
  " zhōng guó dà lù ": 6094,
  "bái sè ": 6095,
  "yà lì shān dà ": 6096,
  "huì shì ": 6097,
  " yǐ bèi ": 6098,
  "K ": 6099,
  " wàn yuán ": 6100,
  "jū mín": 6101,
  "zhǔ lì ": 6102,
  " píng miàn ": 6103,
  "ní kè ": 6104,
  " tā wèi ": 6105,
  " 2021": 6106,
  "zhǔ de ": 6107,
  " zhī jiān": 6108,
  " sī tè": 6109,
  "fǎ àn ": 6110,
  "yǐn qǐ ": 6111,
  "o   ": 6112,
  "zhài ": 6113,
  "nǚ zǐ": 6114,
  "yǐn qǐ": 6115,
  " xiàn de yí gè ": 6116,
  " dào dá ": 6117,
  "zhào kāi ": 6118,
  " nǚ xìng ": 6119,
  " chá ": 6120,
  " dōng nán ": 6121,
  "yùn zuò ": 6122,
  "ng ": 6123,
  "jiāo huì ": 6124,
  "shǒu gè ": 6125,
  "tuì chū ": 6126,
  "dì èr ": 6127,
  " ér yán ": 6128,
  " xiàn de yí gè": 6129,
  " bèi rèn wéi shì ": 6130,
  "   2012": 6131,
  "lì zài ": 6132,
  "zhá ": 6133,
  " jī hū": 6134,
  " kè chéng ": 6135,
  "wén zhāng ": 6136,
  "céng jīng": 6137,
  "jǐ gè ": 6138,
  "jiè de ": 6139,
  " shì jiā ": 6140,
  " yǒu yì ": 6141,
  "tè shū ": 6142,
  " xī sī ": 6143,
  "xiāng guān": 6144,
  "shī fàn": 6145,
  " fù qīn ": 6146,
  "wú fǎ": 6147,
  "cān móu": 6148,
  "3 rén ": 6149,
  " p": 6150,
  " s   ": 6151,
  "jīn huì ": 6152,
  "1985 nián ": 6153,
  "jiào shī ": 6154,
  "O ": 6155,
  "   xià ": 6156,
  "lǜ shī ": 6157,
  " gǎng ": 6158,
  "fēi zhōu ": 6159,
  " shì yǔ ": 6160,
  "xī bān yá": 6161,
  " jù yǒu ": 6162,
  "dà wèi ": 6163,
  " yī jí ": 6164,
  "cháng de ": 6165,
  " bù dé": 6166,
  " tā men zài ": 6167,
  " qǔ ": 6168,
  "wēi jī ": 6169,
  " gé": 6170,
  " yì fāng miàn ": 6171,
  "fǎ yuàn": 6172,
  "yí zhǐ ": 6173,
  " ér shuǐ yù miàn jī wèi 0": 6174,
  " féng ": 6175,
  "lěng ": 6176,
  " guó jiā de ": 6177,
  " lí": 6178,
  "zhě zài ": 6179,
  " hé qí tā ": 6180,
  "xì tǒng de ": 6181,
  "yà zhōu": 6182,
  "chē de ": 6183,
  "jīn pái ": 6184,
  "duō nián ": 6185,
  " zhī wèi ": 6186,
  " bìng jiāng ": 6187,
  " zhǔ xí ": 6188,
  "kāng xī ": 6189,
  "yào wù ": 6190,
  " hǎi": 6191,
  " bān ": 6192,
  " yōng yǒu ": 6193,
  " chéng xù ": 6194,
  " wèi yǒu ": 6195,
  "biǎo dá": 6196,
  " 00 ": 6197,
  "dà dì ": 6198,
  "biàn dé ": 6199,
  " chéng rèn ": 6200,
  "zhí mín": 6201,
  "guò qù ": 6202,
  "pú táo yá": 6203,
  " zhì liáo ": 6204,
  "huān yíng ": 6205,
  "   chéng ": 6206,
  "wén xiàn ": 6207,
  " sī kè ": 6208,
  " jìn xíng le ": 6209,
  "mù biāo": 6210,
  "fú yì ": 6211,
  "zhuāng shì ": 6212,
  "dōng běi bù ": 6213,
  "gòu zào ": 6214,
  "huò dé le ": 6215,
  "bó wù guǎn": 6216,
  "ào dà lì yà ": 6217,
  " fèi": 6218,
  " guān yú ": 6219,
  " qiú yuán ": 6220,
  " 100": 6221,
  "jiāng huì ": 6222,
  "běn dì ": 6223,
  " ér gāi dì ": 6224,
  " bǎi ": 6225,
  "xiān shēng ": 6226,
  " bù lā ": 6227,
  "bō lán ": 6228,
  "1949 nián ": 6229,
  " yú lè ": 6230,
  "jiā rù": 6231,
  "fàng qì ": 6232,
  "jiàn yì ": 6233,
  " 2015": 6234,
  "yì dà lì ": 6235,
  " bàn ": 6236,
  "dāng shí de ": 6237,
  " qī xī zài ": 6238,
  " zhù": 6239,
  "zé wèi ": 6240,
  "in ": 6241,
  "máo zé ": 6242,
  "liǎng nián ": 6243,
  "xiào de ": 6244,
  "sà sī ": 6245,
  " bìng yǔ ": 6246,
  " tí gōng ": 6247,
  " dà lù ": 6248,
  " qǐ": 6249,
  "fù qīn": 6250,
  " wèi lái ": 6251,
  " 2007 nián ": 6252,
  "zì yóu": 6253,
  "   cóng ": 6254,
  "chēng zuò ": 6255,
  " jiàn zào ": 6256,
  " jìn yí bù ": 6257,
  "liú zài ": 6258,
  "shōu shì ": 6259,
  " de zhèng ": 6260,
  "guǎng gào ": 6261,
  "nán jīng ": 6262,
  " jìn gōng ": 6263,
  "en ": 6264,
  "st   ": 6265,
  "jǐn jí ": 6266,
  "sà ěr ": 6267,
  "luó dì ": 6268,
  " shì zhèng ": 6269,
  " fù qīn": 6270,
  " jì shù": 6271,
  " hào wèi ": 6272,
  "jì xù ": 6273,
  "xì jù ": 6274,
  "tǎn kè ": 6275,
  " de shēng ": 6276,
  " rén men": 6277,
  " rì jūn": 6278,
  "9 nián ": 6279,
  " yì měi yuán ": 6280,
  "cì shǐ ": 6281,
  " 2013": 6282,
  " zài cǐ": 6283,
  " gāo": 6284,
  " tè bié shì ": 6285,
  "huǒ jiàn ": 6286,
  " jiā zú ": 6287,
  "piào fáng ": 6288,
  "qǐng qiú ": 6289,
  "jǐng fāng ": 6290,
  "kǎo lǜ": 6291,
  "bǐ lì shí ": 6292,
  "1986 nián ": 6293,
  " shì rì běn ": 6294,
  " sī tǎn": 6295,
  " jié guǒ": 6296,
  "tài píng yáng": 6297,
  "zhān mǔ sī ": 6298,
  " bīng ": 6299,
  " 2014": 6300,
  "què rèn ": 6301,
  " chū shēng ": 6302,
  "dì zài ": 6303,
  "tiān de ": 6304,
  " yǐ yǒu ": 6305,
  "   2": 6306,
  "biān de ": 6307,
  "pāi ": 6308,
  "shàng wǔ ": 6309,
  "tóu piào": 6310,
  "bā lí": 6311,
  "wáng cháo ": 6312,
  " xì liè ": 6313,
  "   jié zhì ": 6314,
  "nèi yǒu ": 6315,
  "wán gōng ": 6316,
  " zhì chéng ": 6317,
  "guǎng dōng shěng ": 6318,
  "pāi shè": 6319,
  "fěn ": 6320,
  " yuán běn ": 6321,
  "chéng nián ": 6322,
  "chǎng hé ": 6323,
  " qí zài ": 6324,
  " zhī zi ": 6325,
  "mǔ qīn": 6326,
  "shēn tǐ ": 6327,
  "méng gǔ": 6328,
  " sài jì ": 6329,
  " dà yuē ": 6330,
  " zhàn dòu ": 6331,
  " zhī de ": 6332,
  "gǔ fèn": 6333,
  "xí xìng": 6334,
  "gèng duō ": 6335,
  "hú běi ": 6336,
  " yuē hàn ": 6337,
  "dēng shàng ": 6338,
  " xiàn chǎng ": 6339,
  " hè ": 6340,
  "   zēng ": 6341,
  "suǒ zài ": 6342,
  "yǎn chàng ": 6343,
  "qíng bào ": 6344,
  " yīng wén ": 6345,
  " dèng": 6346,
  "wài bù ": 6347,
  "zhòng yì ": 6348,
  "mín jiān ": 6349,
  "mì mì ": 6350,
  " jīng jì ": 6351,
  "guān bì ": 6352,
  "guǎng fàn": 6353,
  " cè ": 6354,
  "xiào yuán ": 6355,
  " shì yè ": 6356,
  " zài qí ": 6357,
  "1 rén ": 6358,
  " shōu ": 6359,
  "   U": 6360,
  "kǎo lǜ ": 6361,
  "é luó sī": 6362,
  " nián   ": 6363,
  "tè sè ": 6364,
  " wǒ men": 6365,
  " yǒu xiàn ": 6366,
  "sēn lín ": 6367,
  "mǎ sī ": 6368,
  " 2020": 6369,
  " lǚ ": 6370,
  " āi ": 6371,
  "wù yuán ": 6372,
  "ān pái ": 6373,
  " liàng ": 6374,
  " quán qiú ": 6375,
  " xiǎng ": 6376,
  " xún ": 6377,
  "xià yī ": 6378,
  "èr yuè ": 6379,
  " dà duō shù ": 6380,
  " bù jiǔ": 6381,
  "zhuāng bèi ": 6382,
  "chī ": 6383,
  " héng ": 6384,
  "huǎn ": 6385,
  " dà dào ": 6386,
  " wò": 6387,
  "néng zài ": 6388,
  " jī bài": 6389,
  "tǔ ěr qí ": 6390,
  "qiān zhì ": 6391,
  "zèng ": 6392,
  " dì yī cì ": 6393,
  " zuì gāo ": 6394,
  " yán": 6395,
  " cān jiā ": 6396,
  " 10 ": 6397,
  "chǎng dì ": 6398,
  "mín zhǔ dǎng ": 6399,
  "xìng qù ": 6400,
  " shí yàn ": 6401,
  "zuò zhàn ": 6402,
  "nán yǐ ": 6403,
  "cùn ": 6404,
  " jí běi ": 6405,
  " chū lái ": 6406,
  "tái fēng ": 6407,
  "tiān jīn ": 6408,
  " é": 6409,
  " zhōng shì ": 6410,
  " 2017": 6411,
  "bàn lǐ ": 6412,
  " zhī dào ": 6413,
  "tiān jīn": 6414,
  "lóng jiāng ": 6415,
  " gāng ": 6416,
  "lǐng shì ": 6417,
  " bù zú ": 6418,
  "yòng tú ": 6419,
  "lǐ gōng ": 6420,
  " tōng cháng": 6421,
  "n   ": 6422,
  " kāng ": 6423,
  " yuán sù ": 6424,
  "wēi ěr ": 6425,
  "nóng yè": 6426,
  " qīng cháo ": 6427,
  "āi ěr ": 6428,
  " háo mǐ ": 6429,
  "cháng jiàn de ": 6430,
  " chéng dù ": 6431,
  "zhàn lǐng ": 6432,
  " nián bèi ": 6433,
  "jìn xíng le ": 6434,
  " shǐ jiàn yú ": 6435,
  "   míng ": 6436,
  "dǎo dàn ": 6437,
  "xiū zhèng ": 6438,
  " yuè tuán ": 6439,
  "guì zhōu ": 6440,
  "fēn bù yú ": 6441,
  "mǎ lái xī yà ": 6442,
  "   xiàn": 6443,
  "zǔ jiàn ": 6444,
  "xǐ jù ": 6445,
  "ma ": 6446,
  " gōng zhǔ ": 6447,
  " tā hái ": 6448,
  "xí xìng bù míng ": 6449,
  " shí dài": 6450,
  "zhàng ài ": 6451,
  " wén huà ": 6452,
  "c   ": 6453,
  "xiàng shì ": 6454,
  " chū qī ": 6455,
  " zhàn dòu": 6456,
  "huá shèng ": 6457,
  "shēng chéng ": 6458,
  "te ": 6459,
  " yǒu xiē ": 6460,
  "jiāo liú ": 6461,
  "rèn mìng wèi ": 6462,
  " shēng chǎn": 6463,
  "   tā ": 6464,
  " yì qǐ": 6465,
  "fǎ guān ": 6466,
  " yě jiù shì ": 6467,
  " de fāng shì ": 6468,
  " hé hé ": 6469,
  " shēng huó xí xìng bù míng ": 6470,
  "shè zhì ": 6471,
  "shòu dào": 6472,
  "tí chū": 6473,
  " chǔ yú ": 6474,
  "jī chǔ ": 6475,
  " tā yě ": 6476,
  " luò": 6477,
  " táo ": 6478,
  "hěn dà ": 6479,
  "4 rén ": 6480,
  "zhì zhōng ": 6481,
  "kǔ ": 6482,
  "bào fā": 6483,
  "zhǔ shì ": 6484,
  " wàn lì ": 6485,
  " gēn jù": 6486,
  "   měi guó ": 6487,
  "se ": 6488,
  "jù jué ": 6489,
  "chuán shuō ": 6490,
  "lǐng xiù ": 6491,
  " yín ": 6492,
  " gòng yǒu ": 6493,
  "lā dīng": 6494,
  "huà hé wù ": 6495,
  "er   ": 6496,
  " ér bú shì ": 6497,
  "ān zhuāng": 6498,
  " hàn": 6499,
  " zhào": 6500,
  " ruì ": 6501,
  "rèn shí ": 6502,
  "1987 nián ": 6503,
  "chuàng bàn": 6504,
  " xuān ": 6505,
  " kǒng ": 6506,
  "bào lì ": 6507,
  "ān nà ": 6508,
  " yī xué ": 6509,
  " gòng": 6510,
  " pà": 6511,
  "zhì bù ": 6512,
  " A ": 6513,
  "jiā lì fú ": 6514,
  "qióng ": 6515,
  " yǒu yí gè ": 6516,
  " xiàn xiàng ": 6517,
  "shàng yìng ": 6518,
  "   lǐ ": 6519,
  "fǎ yǔ ": 6520,
  "wén yì ": 6521,
  "shú ": 6522,
  " zài nèi de ": 6523,
  "gāo sù ": 6524,
  " róng ": 6525,
  " zài dù ": 6526,
  " ér bù ": 6527,
  "jì shì ": 6528,
  "yuàn shì ": 6529,
  " wèi xīng ": 6530,
  " lǐ lùn": 6531,
  "wǒ men ": 6532,
  " kǎ": 6533,
  "yán shēn": 6534,
  "hǎi àn ": 6535,
  "chuàng jiàn ": 6536,
  "bīn hǎi ": 6537,
  "shùn lì ": 6538,
  "1980 nián ": 6539,
  " dōng běi ": 6540,
  "   cǐ wài ": 6541,
  " 2013 nián ": 6542,
  "měi gè ": 6543,
  "léi sī ": 6544,
  "ruǎn jiàn ": 6545,
  " shēng zhǎng": 6546,
  "shū rù ": 6547,
  " yóu qí shì ": 6548,
  "tuī jìn ": 6549,
  " hé bù ": 6550,
  "zī chǎn ": 6551,
  "lùn wén ": 6552,
  " xíng zhèng": 6553,
  "nǚ xìng": 6554,
  "wǎng qiú ": 6555,
  "hǎi wài ": 6556,
  "tóng nián ": 6557,
  " shǔ": 6558,
  " nà": 6559,
  " tǎ ": 6560,
  " bù luò ": 6561,
  " dà shà": 6562,
  "zhǔ yì de ": 6563,
  "píng lùn ": 6564,
  " 2010": 6565,
  "zuì gāo": 6566,
  "yìng yòng": 6567,
  "cǎi qǔ ": 6568,
  " 2012": 6569,
  " wǎ ": 6570,
  "jiào shì ": 6571,
  "bǎn běn": 6572,
  "pái míng dì ": 6573,
  " sāi ": 6574,
  "biàn wèi ": 6575,
  " 2006 nián ": 6576,
  "zū ": 6577,
  "bào gào": 6578,
  " běi jīng ": 6579,
  "yú de ": 6580,
  "jù hé ": 6581,
  "bō fàng ": 6582,
  "   qí ": 6583,
  "sān shì ": 6584,
  " zài xī ": 6585,
  "rén dà ": 6586,
  " dé ěr ": 6587,
  " hòu xuǎn rén ": 6588,
  "tóu zī": 6589,
  "wǎng luò": 6590,
  "1982 nián ": 6591,
  "mǎ lǐ ": 6592,
  "zé rèn ": 6593,
  "fāng miàn de ": 6594,
  "gè zhǒng ": 6595,
  " Ma": 6596,
  " sài ": 6597,
  " shì mín ": 6598,
  " hé dà ": 6599,
  "diàn zi": 6600,
  "lǐng dì ": 6601,
  "rǎo ": 6602,
  " zài cì": 6603,
  "fàn wéi nèi ": 6604,
  "   qián ": 6605,
  "   jù qíng ": 6606,
  "zhè lǐ ": 6607,
  "xiāng shì dì ": 6608,
  " yú rén ": 6609,
  "zhèng dǎng ": 6610,
  "yǐn qíng ": 6611,
  "   and   ": 6612,
  " rì bào ": 6613,
  " lìng yī ": 6614,
  "xíng chéng ": 6615,
  "fā xíng de ": 6616,
  "1983 nián ": 6617,
  " jī hū ": 6618,
  " 188": 6619,
  "zhí jiē": 6620,
  "fēng wèi ": 6621,
  "pài de ": 6622,
  " shì gù ": 6623,
  "xì bāo": 6624,
  " měi gè ": 6625,
  " zhì shǎo ": 6626,
  "biǎo dá ": 6627,
  "yuàn yì ": 6628,
  "17 ": 6629,
  "1945 nián ": 6630,
  " tā hé ": 6631,
  "jù lè bù ": 6632,
  "dú lì de ": 6633,
  " zhī fù ": 6634,
  "diàn nǎo": 6635,
  "jiǔ lóng ": 6636,
  "dāng xuǎn ": 6637,
  "yǔn xǔ": 6638,
  "   chū ": 6639,
  "hè ěr ": 6640,
  "mián ": 6641,
  "zì rán": 6642,
  " yǒu xiào ": 6643,
  " lái": 6644,
  "   xiàn ": 6645,
  " è ": 6646,
  "bú ": 6647,
  "wēn dù ": 6648,
  "jì chéng ": 6649,
  "huǒ shān ": 6650,
  " yíng ": 6651,
  " yòng yú ": 6652,
  " yī xiǎo shí ": 6653,
  " dà xī yáng ": 6654,
  "guò qù": 6655,
  "pái háng ": 6656,
  "ān dé ": 6657,
  "jiù dú": 6658,
  " dōng lín ": 6659,
  "zhī chí": 6660,
  "fǎng wèn": 6661,
  "míng zì ": 6662,
  " zuò jiā ": 6663,
  "jǐng chá": 6664,
  "dǎng yuán ": 6665,
  "xǐ huān": 6666,
  "qū yì huì ": 6667,
  " dà fú ": 6668,
  " dé huá ": 6669,
  " 2012 nián ": 6670,
  "huàn chéng ": 6671,
  "biǎo yǎn": 6672,
  "xiàn zhì ": 6673,
  "yáng shì ": 6674,
  "dōu zài ": 6675,
  " dì yí gè ": 6676,
  "fāng yán ": 6677,
  " yǔ máo": 6678,
  " chū zhàn ": 6679,
  "bǐ yà": 6680,
  "   dì fāng ": 6681,
  "xiāng dāng": 6682,
  "1 lì ": 6683,
  " bìng bèi ": 6684,
  "tiáo zhěng": 6685,
  "qū hé ": 6686,
  "40 ": 6687,
  " yī tóng ": 6688,
  " zhōng huá rén mín gòng hé guó zhèng zhì rén wù ": 6689,
  " xiàn shì ": 6690,
  "jīng yàn ": 6691,
  "pǔ biàn ": 6692,
  " diàn yǐng ": 6693,
  "zuò shì ": 6694,
  " zhōng bèi ": 6695,
  "guān diǎn ": 6696,
  "kē de qí zhōng yī zhǒng ": 6697,
  " shuō ": 6698,
  " gōng yì ": 6699,
  "hán yǒu ": 6700,
  " jì suàn ": 6701,
  "xún yáng": 6702,
  " shēng yú ": 6703,
  "liǎng míng ": 6704,
  "diǎn lǐ ": 6705,
  "zhòng duō ": 6706,
  "jiàng dī ": 6707,
  "dà zhì ": 6708,
  " bìng dú": 6709,
  " qí zhōng yī ": 6710,
  "yà jūn ": 6711,
  "shè qū ": 6712,
  " fān ": 6713,
  "   3": 6714,
  "kǒu wèi ": 6715,
  "chéng yuán ": 6716,
  "zhī qián ": 6717,
  "mì shū zhǎng ": 6718,
  " 7 ": 6719,
  " jiù shì ": 6720,
  " dì sì": 6721,
  " réng": 6722,
  "tiáo lì ": 6723,
  "nèi gé ": 6724,
  "shù yǔ ": 6725,
  "shān shì ": 6726,
  "wú zhèng zhuàng ": 6727,
  " xiàn rèn ": 6728,
  "tū pò ": 6729,
  "xiě dào ": 6730,
  "dàng tiān ": 6731,
  "shě ": 6732,
  "yí dù ": 6733,
  " zǔ fù ": 6734,
  " néng ": 6735,
  " píng jūn ": 6736,
  "guà ": 6737,
  " xíng wèi ": 6738,
  " gōng mín ": 6739,
  "xīng děng wèi ": 6740,
  " shì yú ": 6741,
  " tóng yì ": 6742,
  " liù": 6743,
  "is   ": 6744,
  "hóng sè ": 6745,
  " bǐ sài ": 6746,
  "kāi shǐ zài ": 6747,
  " 0 ": 6748,
  "   jí ": 6749,
  "tuán de ": 6750,
  "gěi le ": 6751,
  " jī jīn ": 6752,
  "sǐ wáng": 6753,
  "zhěng tǐ ": 6754,
  "z ": 6755,
  " c": 6756,
  " 500": 6757,
  "lǔ sī ": 6758,
  "wán zhěng": 6759,
  "   2011": 6760,
  "jué duì ": 6761,
  " quán lì ": 6762,
  "dài biǎo dà huì ": 6763,
  "chí yǒu ": 6764,
  "yīng wén ": 6765,
  "5 rén ": 6766,
  "zhèng bù ": 6767,
  " shì bīng ": 6768,
  "gài niàn": 6769,
  "běn rén ": 6770,
  " gōng jù ": 6771,
  "shè shī ": 6772,
  " zuì chū ": 6773,
  " sūn": 6774,
  " 30 ": 6775,
  "gōng chéng ": 6776,
  " zhè zhǒng": 6777,
  "xià xiá de yí gè ": 6778,
  "huáng hòu ": 6779,
  "   ā ": 6780,
  "zhǒng zú ": 6781,
  " suì shí ": 6782,
  " xìn ": 6783,
  "   2010": 6784,
  "   1 ": 6785,
  "ní ěr ": 6786,
  "zhí dǎo ": 6787,
  " de chéng jì ": 6788,
  " jí rén ": 6789,
  "yí dìng ": 6790,
  " dá": 6791,
  "lái yuè ": 6792,
  "bǎo shǒu ": 6793,
  "jiè shào ": 6794,
  "tóu xiáng ": 6795,
  "guì zú ": 6796,
  "yì nián ": 6797,
  "yuè zhōng ": 6798,
  "zhèn qū de ": 6799,
  "zǎo qī": 6800,
  "bó shì xué wèi ": 6801,
  "   qí tā ": 6802,
  "shān jī ": 6803,
  "qǐ dòng ": 6804,
  "tāng ": 6805,
  "kuì ": 6806,
  " wéi ěr": 6807,
  "gǔ dài ": 6808,
  " míng dān ": 6809,
  "míng rén ": 6810,
  "zhěn ": 6811,
  " dé yǔ ": 6812,
  "shén me ": 6813,
  " yī zuò ": 6814,
  " yǐ jí": 6815,
  " ér gāi ": 6816,
  "hēi sè ": 6817,
  "yāo qǐng": 6818,
  "te   ": 6819,
  " rén mín zhèng fǔ ": 6820,
  "ēn shěng ": 6821,
  "tòu guò": 6822,
  "3 gè ": 6823,
  " xiǎng nián ": 6824,
  "wú zhèng zhuàng gǎn rǎn ": 6825,
  "suí zhù ": 6826,
  "sā ": 6827,
  "mù qián": 6828,
  "huó yuè ": 6829,
  "cháng wù ": 6830,
  "cháng wěi ": 6831,
  "běi jīng shì ": 6832,
  "què zhěn bìng lì ": 6833,
  "míng zhì ": 6834,
  " rì yú ": 6835,
  "gǎi míng wèi ": 6836,
  "chū shēn ": 6837,
  "diàn huà ": 6838,
  " 2022": 6839,
  "tún ": 6840,
  " bù sī ": 6841,
  " jī sī ": 6842,
  "tài zi ": 6843,
  "18 ": 6844,
  " bǐ rú ": 6845,
  "gāo sù gōng lù ": 6846,
  "   gāi": 6847,
  "kè chéng ": 6848,
  "kùn nán ": 6849,
  " bù lì ": 6850,
  "zuì duō ": 6851,
  "quē fá": 6852,
  "dān de ": 6853,
  "lóng de ": 6854,
  "gèng wéi ": 6855,
  "yǐ jīng ": 6856,
  " èr shí ": 6857,
  "tí jí ": 6858,
  "rù xuǎn ": 6859,
  " wèi yú zhōng guó ": 6860,
  "sāi ěr wéi ": 6861,
  "7 rén ": 6862,
  "huì zhōng ": 6863,
  "shōu jí ": 6864,
  " lì fǎ": 6865,
  "xué huì ": 6866,
  " bìng fēi ": 6867,
  "hǎi xiá ": 6868,
  "gòu de ": 6869,
  " xī jiē ": 6870,
  "gē lún ": 6871,
  " jī chǎng": 6872,
  "jù dà ": 6873,
  "duō rén ": 6874,
  " chéng rén ": 6875,
  "fù zé": 6876,
  "ān nà": 6877,
  "zú qiú yùn dòng yuán ": 6878,
  "xiě de ": 6879,
  "zhuī sù": 6880,
  "k   ": 6881,
  " yòng": 6882,
  " 2014 nián ": 6883,
  " tóng shí gāi dì ": 6884,
  "zuò chū ": 6885,
  "bēi sī ": 6886,
  " yě zài ": 6887,
  "shěng de ": 6888,
  "lìng rén ": 6889,
  "fàn zuì ": 6890,
  "huì zhì ": 6891,
  " dé zhǔ ": 6892,
  "tǎo lùn": 6893,
  " yuē": 6894,
  "tiào ": 6895,
  " jí dì ": 6896,
  "nèi lù shěng fèn ": 6897,
  "ān huī ": 6898,
  "kē xué jiā ": 6899,
  " Z": 6900,
  " yāo qiú ": 6901,
  "tú xíng ": 6902,
  " guó nèi ": 6903,
  "pī zhǔn": 6904,
  "jiāng zài ": 6905,
  " bìng dú ": 6906,
  "shì   ": 6907,
  " h": 6908,
  "cì de ": 6909,
  "zhú bù ": 6910,
  " de dì èr ": 6911,
  "shòu de ": 6912,
  "shān de ": 6913,
  " shì yīn wèi ": 6914,
  " kè xī ": 6915,
  "qiáng liè ": 6916,
  "lián hé huì ": 6917,
  " pò ": 6918,
  "chāo yuè ": 6919,
  "1972 nián ": 6920,
  "jié guǒ": 6921,
  "tái nán": 6922,
  "jiǎn shǎo": 6923,
  "   Ch": 6924,
  "dī yú ": 6925,
  "xià lìng shí jiān ": 6926,
  "H ": 6927,
  "hǎi píng miàn ": 6928,
  "bú dào ": 6929,
  " shí qī de ": 6930,
  " yuán xíng ": 6931,
  " wán jiā ": 6932,
  "yě zài ": 6933,
  " jī huì ": 6934,
  " xué yuàn": 6935,
  "yí dìng": 6936,
  "huī fù": 6937,
  " chá": 6938,
  "guò de ": 6939,
  "yà měi ": 6940,
  "pài qiǎn": 6941,
  "tí gōng le ": 6942,
  "biān jiè ": 6943,
  "dǒng shì zhǎng ": 6944,
  "N ": 6945,
  "1978 nián ": 6946,
  "tōu ": 6947,
  "jià gé ": 6948,
  "tí yì ": 6949,
  "shū zhōng ": 6950,
  "xūn zhāng ": 6951,
  "fāng fǎ": 6952,
  "shī bài ": 6953,
  " jiào yù ": 6954,
  "zhǔ yào de ": 6955,
  "zhǔ jiào": 6956,
  " hào de ": 6957,
  "ní yà zhōu ": 6958,
  "1979 nián ": 6959,
  " hòu bèi ": 6960,
  "guān chá ": 6961,
  " xué jiā ": 6962,
  "liú xià ": 6963,
  "shuāng fāng ": 6964,
  "   bèi jǐng ": 6965,
  "ér tóng ": 6966,
  " yī lì ": 6967,
  "jiā yì ": 6968,
  " bù duì": 6969,
  " yǐ wéi ": 6970,
  " zài shí ": 6971,
  "lián xù": 6972,
  "xiàn de ": 6973,
  "qīn zì ": 6974,
  " ér zi ": 6975,
  " 1950": 6976,
  " yǒu suǒ ": 6977,
  "zuì gāo de ": 6978,
  "huì yì yuán ": 6979,
  "   2 ": 6980,
  "sān jiǎo": 6981,
  "zhuāng jiǎ ": 6982,
  "   dì fāng zī liào ": 6983,
  "6 rén ": 6984,
  "le zài ": 6985,
  "rèn wèi ": 6986,
  "mǎ ěr ": 6987,
  "lán de ": 6988,
  "ná xià ": 6989,
  "píng tái ": 6990,
  "fēi cháng": 6991,
  "   jiǎn jiè ": 6992,
  "duō wèi ": 6993,
  "zǔ fù ": 6994,
  " hé yuē ": 6995,
  "bèi de ": 6996,
  "1976 nián ": 6997,
  " lì liàng ": 6998,
  " chū kǒu ": 6999,
  " tā céng dài biǎo ": 7000,
  "   Ma": 7001,
  " dì lǐ ": 7002,
  "nán běi ": 7003,
  "gǎi biàn": 7004,
  "néng yuán ": 7005,
  "la ": 7006,
  " dì qī ": 7007,
  " xiàn fǎ ": 7008,
  "dí shì ": 7009,
  "st ": 7010,
  " hòu zhě ": 7011,
  "zì de ": 7012,
  "tái zhōng ": 7013,
  " zhèng míng ": 7014,
  " shí jì shàng ": 7015,
  " chéng zhèn ": 7016,
  "quē fá ": 7017,
  " méi": 7018,
  " 28": 7019,
  " 2015 nián ": 7020,
  "   Re": 7021,
  "xuǎn zhōng ": 7022,
  "dí rén ": 7023,
  " lì yì ": 7024,
  "lǐ hé ": 7025,
  "liǎo ": 7026,
  "pài chū ": 7027,
  " zhōng guó rén mín jiě fàng jūn ": 7028,
  " lǔ ": 7029,
  "duō zhǒng ": 7030,
  "tán pàn ": 7031,
  "liáo níng ": 7032,
  "píng wèi ": 7033,
  " shì gōng ": 7034,
  " bù shǎo ": 7035,
  " sī tǎ ": 7036,
  "tí chū de ": 7037,
  "suí jí ": 7038,
  " sù ": 7039,
  "miǎn diān": 7040,
  "tuì xiū ": 7041,
  " dà xué de ": 7042,
  "hǎi bá wèi ": 7043,
  "gàn bù ": 7044,
  "lěi jì ": 7045,
  " shí xíng ": 7046,
  "yīng gé lán": 7047,
  "dāng zhōng ": 7048,
  "xù lì yà ": 7049,
  "jué yì ": 7050,
  "pǐ ": 7051,
  "shāng rén ": 7052,
  "biāo běn ": 7053,
  "fā shēng zài ": 7054,
  "suǒ cǎi yòng": 7055,
  "zhǐ dǎo ": 7056,
  " jù jué ": 7057,
  "huà zhōng ": 7058,
  "zàn shí ": 7059,
  "1958 nián ": 7060,
  " fù jìn": 7061,
  " zhōng gòng zhōng yāng ": 7062,
  " yì qíng ": 7063,
  "nóng mín ": 7064,
  "cì yú ": 7065,
  "céng wèi ": 7066,
  "yí dài ": 7067,
  " dé míng ": 7068,
  "xiū gǎi ": 7069,
  "   yīn ": 7070,
  "shuǐ lì ": 7071,
  "róng hé ": 7072,
  " zhōng guó de ": 7073,
  "fā míng ": 7074,
  "měi zhōu": 7075,
  " qí wèi ": 7076,
  "zhǐ néng ": 7077,
  "zī liào": 7078,
  " míng zhì ": 7079,
  "1   ": 7080,
  " chú": 7081,
  "zhuǎn xiàng ": 7082,
  " gōng zhòng ": 7083,
  "zhǒng zi ": 7084,
  "zhǔ yǎn ": 7085,
  "zī běn ": 7086,
  "ā lā bó": 7087,
  "xiāng sì ": 7088,
  "jiē chù ": 7089,
  " běi jīng": 7090,
  "kāi shè ": 7091,
  "xiū jiàn ": 7092,
  "guān chá": 7093,
  " bǎ": 7094,
  "jìng jì ": 7095,
  "jiě sàn ": 7096,
  " de shì jiè ": 7097,
  " 2016 nián ": 7098,
  "wǔ zhuāng": 7099,
  "bào zhà ": 7100,
  "diàn jī ": 7101,
  "chāi chú ": 7102,
  "cn ": 7103,
  "kāi tōng ": 7104,
  "fā qǐ ": 7105,
  "fā shòu ": 7106,
  "jǔ bàn de ": 7107,
  "ng   ": 7108,
  "shēn dù ": 7109,
  "ān pái": 7110,
  " diàn shì ": 7111,
  "qū shì ": 7112,
  "nǔ ": 7113,
  "2025 nián ": 7114,
  " táng": 7115,
  "wéi sī ": 7116,
  "tuán tǐ": 7117,
  "x   ": 7118,
  "jī gòu ": 7119,
  "fù zhǔ rèn ": 7120,
  "zǔ zhī de ": 7121,
  "fēng xiǎn ": 7122,
  "diào kuài": 7123,
  "   qí": 7124,
  "chéng hé ": 7125,
  "biān jù ": 7126,
  " yǔ qí tā ": 7127,
  "zhāng zhuān jí ": 7128,
  " jiǎ": 7129,
  " cn ": 7130,
  "   duì ": 7131,
  "jié de ": 7132,
  "zào le ": 7133,
  " wèi UTC ": 7134,
  " bù jí ": 7135,
  " zhōng shān ": 7136,
  "néng liàng ": 7137,
  "shuài lǐng": 7138,
  "shǒu zhōng ": 7139,
  "bàn shì chù ": 7140,
  "   w": 7141,
  "qiú jì ": 7142,
  "yīng gāi ": 7143,
  " xī bān yá ": 7144,
  "yóu jī ": 7145,
  "luó lǐ ": 7146,
  "gé lā ": 7147,
  "jiù dú ": 7148,
  "shāng yè": 7149,
  "diào kuài yī xiǎo shí ": 7150,
  " gē": 7151,
  "zé zài ": 7152,
  " de yǐng xiǎng ": 7153,
  " nián lái ": 7154,
  "qiáng diào ": 7155,
  " 19": 7156,
  " wèi dà ": 7157,
  " jí UTC ": 7158,
  "yīng xióng ": 7159,
  " tóng yàng": 7160,
  "kē xué yuàn ": 7161,
  "shè yǒu xià lìng shí jiān ": 7162,
  " de shí qū wèi UTC ": 7163,
  " ér gāi dì suǒ cǎi yòng": 7164,
  " tóng shí gāi dì shè yǒu xià lìng shí jiān ": 7165,
  " ér gāi dì suǒ cǎi yòng de shí qū wèi UTC ": 7166,
  "shuāi ": 7167,
  "xiāo fèi ": 7168,
  "xìn yǎng ": 7169,
  "tā men de ": 7170,
  " dà jiǎng ": 7171,
  "jiào táng": 7172,
  "bǎo liú": 7173,
  " lìng yǒu ": 7174,
  " yī sī lán ": 7175,
  "ar ": 7176,
  "kùn ": 7177,
  "yuán zhù ": 7178,
  "tài dù ": 7179,
  "chuán bō ": 7180,
  " gāi cūn ": 7181,
  "suǒ zài dì ": 7182,
  "què de ": 7183,
  "pèi zhì ": 7184,
  "zhī jiān de ": 7185,
  "   jiāo tōng ": 7186,
  "fā shè": 7187,
  " shí wù ": 7188,
  "dìng jū ": 7189,
  " lì shǐ shàng ": 7190,
  "gāo yú hǎi píng miàn ": 7191,
  " zhēng ": 7192,
  "ǒu ": 7193,
  " mǎ lái": 7194,
  " wèi fú qí yú gāng ": 7195,
  "xìng wèi ": 7196,
  "zhú jiàn": 7197,
  " bù néng": 7198,
  " gōng jué ": 7199,
  " ěr duō ": 7200,
  "wù hé ": 7201,
  "hù xiāng ": 7202,
  " qí xià ": 7203,
  "8 rén ": 7204,
  "chù de hǎi bá wèi ": 7205,
  "chù de hǎi bá wèi gāo yú hǎi píng miàn ": 7206,
  "hòu wèi ": 7207,
  " yú lè": 7208,
  " yīn sù ": 7209,
  " 23": 7210,
  " kuān": 7211,
  "   qīng ": 7212,
  "tǐ zhì ": 7213,
  "jìng xuǎn ": 7214,
  " dān": 7215,
  "wù shì ": 7216,
  "chǎng suǒ ": 7217,
  " zhī yì ": 7218,
  "kuáng ": 7219,
  " hé pàn ": 7220,
  " bù jǐn ": 7221,
  " yǐ xī ": 7222,
  "fā xiàn de ": 7223,
  "zhòng shì ": 7224,
  " qí shí ": 7225,
  " suí zhù ": 7226,
  "   17": 7227,
  "lù zhì ": 7228,
  "nán jīng": 7229,
  "zhǎng dá ": 7230,
  "yùn shū": 7231,
  " 2008": 7232,
  " 2017 nián ": 7233,
  "shù shí ": 7234,
  "nèi dì ": 7235,
  " 8 ": 7236,
  " nǐ ": 7237,
  "   In": 7238,
  "shí qū ": 7239,
  "gāo xióng": 7240,
  "chóng qìng": 7241,
  "   mǎ ": 7242,
  "jiàn chéng ": 7243,
  "gēng xīn ": 7244,
  " yī jiā ": 7245,
  " xī lán ": 7246,
  "yùn yòng ": 7247,
  " zì rán ": 7248,
  " hú": 7249,
  " xiè ": 7250,
  "bì yè hòu ": 7251,
  " 24": 7252,
  "   rán": 7253,
  "èr jí ": 7254,
  "biān hào ": 7255,
  " lì rèn ": 7256,
  "diàn qì ": 7257,
  "shān fēng ": 7258,
  " wèi yú gāi ": 7259,
  " xū ": 7260,
  " zhèng zhì ": 7261,
  "qià ": 7262,
  "wéi ěr ": 7263,
  "zhí zhèng ": 7264,
  " huàn ": 7265,
  "zhě shì ": 7266,
  "wáng shì ": 7267,
  " zuò chū ": 7268,
  "xiào qū ": 7269,
  "xiá qū ": 7270,
  "   p": 7271,
  "   běn": 7272,
  "bāo wéi ": 7273,
  "bàng qiú ": 7274,
  " dì qiú": 7275,
  "xuān chuán": 7276,
  "xué yuán ": 7277,
  "jiù huì ": 7278,
  "cuò wù ": 7279,
  "jīn róng ": 7280,
  " yù shǐ ": 7281,
  " lián hé ": 7282,
  "dōng fāng ": 7283,
  "hòu yì ": 7284,
  "běi shì ": 7285,
  "jīng cháng": 7286,
  " rán ér": 7287,
  " dài": 7288,
  " yí": 7289,
  " jié kè ": 7290,
  "huì yú ": 7291,
  " sī kē ": 7292,
  " duì shǒu ": 7293,
  " xíng zhèng qū ": 7294,
  "zhèn qū de miàn jī wèi ": 7295,
  "míng shì ": 7296,
  " zhōu cì shǐ ": 7297,
  " shēng yá ": 7298,
  "jiā yǐ ": 7299,
  "jú de ": 7300,
  "pǎo ": 7301,
  " shā": 7302,
  "fú de ": 7303,
  "mǎ kè ": 7304,
  " tā yǐ ": 7305,
  " yuán zì ": 7306,
  "zào chéng de ": 7307,
  " Y": 7308,
  "kě zài ": 7309,
  " lǐ xī ": 7310,
  "zhí mín ": 7311,
  " 2023": 7312,
  "chán ": 7313,
  "gōng gòng ": 7314,
  "píng lùn": 7315,
  "fū kǎ ": 7316,
  " fú wù ": 7317,
  " dāng shí de ": 7318,
  "ào zhōu ": 7319,
  " yī jù ": 7320,
  "jì yǒu ": 7321,
  "shǐ jiàn yú ": 7322,
  "rèn de ": 7323,
  "yě bèi ": 7324,
  "miàn shàng ": 7325,
  " sī kè": 7326,
  " ér tóng ": 7327,
  " cì nián ": 7328,
  " qīn ": 7329,
  " 2018 nián ": 7330,
  " xué zhě ": 7331,
  " jiàn shè": 7332,
  " wéi rào": 7333,
  " yě bèi ": 7334,
  "qiān shǔ ": 7335,
  " qí zhōng bāo kuò ": 7336,
  " tíng ": 7337,
  " bǎn ": 7338,
  "jiā zài ": 7339,
  "bàn de ": 7340,
  " 2009": 7341,
  "hǎi yáng ": 7342,
  "f ": 7343,
  " bǎi": 7344,
  "jī zài ": 7345,
  "lái yīn ": 7346,
  "jùn gōng ": 7347,
  "tū rán ": 7348,
  " jí dà ": 7349,
  "jì niàn": 7350,
  " dé zhī ": 7351,
  " jī jīn huì ": 7352,
  "qì chē": 7353,
  "xiào lì yú ": 7354,
  " 2019 nián ": 7355,
  "rú guǒ ": 7356,
  "lìng yí gè ": 7357,
  "xiāo shī ": 7358,
  "tián jìng ": 7359,
  "táo tài ": 7360,
  " wèi duì ": 7361,
  "dāng dì de ": 7362,
  "jiàng lǐng ": 7363,
  "yán hǎi ": 7364,
  "wěi yuán huì wěi yuán ": 7365,
  " gǎn ": 7366,
  "1968 nián ": 7367,
  " lǐ yà ": 7368,
  " 2 yuè ": 7369,
  "   jǐn ": 7370,
  "píng yuán ": 7371,
  "děng jí ": 7372,
  "èr rén ": 7373,
  "bèi jǐng ": 7374,
  "kǎ luó ": 7375,
  " bài ": 7376,
  "   shèng ": 7377,
  "duì qí ": 7378,
  "jìn bù ": 7379,
  "liǎng guó ": 7380,
  "tè dìng ": 7381,
  "fèn zǐ": 7382,
  " yún ": 7383,
  "dà bù ": 7384,
  "dìng yú ": 7385,
  " qí de ": 7386,
  " de bù fèn ": 7387,
  "zhí mín dì ": 7388,
  " 26": 7389,
  " fā xiàn ": 7390,
  "jiào dà ": 7391,
  " zhì zuò de ": 7392,
  " jī dū ": 7393,
  "gǎi zào ": 7394,
  "chuán tǒng de ": 7395,
  "shēng yá": 7396,
  "diàn nǎo ": 7397,
  " bù bù zhǎng ": 7398,
  "guān jiàn ": 7399,
  "jīng shén": 7400,
  " qián wǎng ": 7401,
  "diǎn shì ": 7402,
  "yì shù ": 7403,
  "lí kāi": 7404,
  "quán miàn ": 7405,
  "mò xī gē ": 7406,
  " shǒu": 7407,
  "zhèn de ": 7408,
  "tuī chū": 7409,
  "gǒu ": 7410,
  "guó jiā": 7411,
  " dì tiě": 7412,
  " xiàn yǐ ": 7413,
  " jī chǔ": 7414,
  " jù lí": 7415,
  " xián ": 7416,
  " luó mǎ ": 7417,
  "gé shì ": 7418,
  "tou ": 7419,
  " shí duàn ": 7420,
  "jiē duàn": 7421,
  "liǎng cì ": 7422,
  "ài ěr lán ": 7423,
  "wén de ": 7424,
  "sān míng ": 7425,
  "hūn yīn ": 7426,
  "dà lù": 7427,
  " yì yú ": 7428,
  "shū yuàn ": 7429,
  " shān dōng ": 7430,
  "ā lā bó ": 7431,
  " xiān": 7432,
  "   nán ": 7433,
  "mù de ": 7434,
  "bō sī ": 7435,
  "huì zhǎng ": 7436,
  "mǎn zú ": 7437,
  " diàn yǐng": 7438,
  " xīng": 7439,
  "qī wèi ": 7440,
  "pèi yīn ": 7441,
  " dì diǎn ": 7442,
  "jìng zhēng ": 7443,
  "cái néng ": 7444,
  "xīn chéng ": 7445,
  "liǎng wèi ": 7446,
  "1970 nián ": 7447,
  "zhèng jù ": 7448,
  "lián de ": 7449,
  "xiū fù ": 7450,
  " bìng yóu ": 7451,
  "hù lián ": 7452,
  "chū bǎn": 7453,
  " yóu jī ": 7454,
  " wú fǎ ": 7455,
  "lā jī ": 7456,
  "kào jìn ": 7457,
  " dì dài ": 7458,
  " lì shí ": 7459,
  "jiě fàng ": 7460,
  "nèi zhàn ": 7461,
  "bō shì ": 7462,
  " wéi chí": 7463,
  "zāi péi ": 7464,
  " liù ": 7465,
  "duì zhǎng ": 7466,
  "fā qǐ": 7467,
  "jū zhù zài ": 7468,
  "shōu gòu ": 7469,
  " wán ": 7470,
  "zhè shì ": 7471,
  "zǎo zài ": 7472,
  " chōng ": 7473,
  "bìng bù ": 7474,
  "shǒu xiàng ": 7475,
  "shān qū ": 7476,
  "zú qiú jù lè bù ": 7477,
  "lǐ chéng ": 7478,
  "jiāo liú": 7479,
  " guó wù yuàn ": 7480,
  " gēn ": 7481,
  "qǐ yuán ": 7482,
  "wěi fù ": 7483,
  "ne ": 7484,
  " shì dé guó ": 7485,
  "cūn luò ": 7486,
  "fū de ": 7487,
  "jī chǔ": 7488,
  " dà lóu": 7489,
  "yán sè ": 7490,
  "xiàng zhēng ": 7491,
  " wéi sī ": 7492,
  "tiān tǐ ": 7493,
  "dōu bèi ": 7494,
  " bù bīng ": 7495,
  " yǔ yán": 7496,
  "   dì èr ": 7497,
  "V ": 7498,
  " 2004 nián ": 7499,
  "liù shí ": 7500,
  " zhì liàng ": 7501,
  " zhōu fǔ ": 7502,
  "láng zhōng ": 7503,
  " yī yuàn": 7504,
  " xíng mù ": 7505,
  "cháng dù ": 7506,
  " dīng ": 7507,
  "xìng hé ": 7508,
  " yǐ wài ": 7509,
  "luò fá": 7510,
  "1956 nián ": 7511,
  " zhì dì ": 7512,
  " yǔ yī ": 7513,
  "wú zhèng zhuàng gǎn rǎn zhě ": 7514,
  "   2008": 7515,
  "liàng wèi ": 7516,
  "mǔ de ": 7517,
  "juàn ": 7518,
  " dé sī ": 7519,
  "shī qù": 7520,
  " 2020 nián ": 7521,
  "zuì chū": 7522,
  " yì shì ": 7523,
  "   4": 7524,
  "xiě zuò ": 7525,
  "mèng jiā ": 7526,
  " bǎo": 7527,
  "tè xìng ": 7528,
  " wèi yú měi guó ": 7529,
  " zá zhì ": 7530,
  "jiǎ dì ": 7531,
  "tài yáng": 7532,
  "ào mén": 7533,
  " zuì jiā ": 7534,
  "2 gè ": 7535,
  "1981 nián ": 7536,
  "zhí yè shēng yá ": 7537,
  "fú lì ": 7538,
  "1920 nián ": 7539,
  " xiàn jí ": 7540,
  "fù hé ": 7541,
  "suǒ de ": 7542,
  "zhuàn de ": 7543,
  "1960 nián ": 7544,
  "zōng yì ": 7545,
  "zì mǔ ": 7546,
  "líng chén ": 7547,
  " cān yù ": 7548,
  "suǒ wèi ": 7549,
  "tòu lù ": 7550,
  "chuáng ": 7551,
  "dōng běi": 7552,
  "jué shì ": 7553,
  " yí gè": 7554,
  "ǒu xiàng ": 7555,
  "kǎo shì ": 7556,
  " fú jiàn ": 7557,
  "9 rén ": 7558,
  "   gè rén ": 7559,
  "zǒng rén kǒu ": 7560,
  "1964 nián ": 7561,
  " dì fāng": 7562,
  " xiàn chéng ": 7563,
  " lǐ kè ": 7564,
  "ch ": 7565,
  " dé lā ": 7566,
  "kōng qì ": 7567,
  " 50": 7568,
  " nuò ": 7569,
  "píng de ": 7570,
  "nà de ": 7571,
  "zuò wéi": 7572,
  "zhǔ zhāng ": 7573,
  "xī hé ": 7574,
  "xī nán ": 7575,
  "huí yì ": 7576,
  "fén ": 7577,
  " yǐ zài ": 7578,
  " yě kě yǐ ": 7579,
  "pú táo yá ": 7580,
  " fā xíng ": 7581,
  "si ": 7582,
  " zuò zhàn ": 7583,
  " tài": 7584,
  "qī shí ": 7585,
  "zǒu xiàng ": 7586,
  " chéng kè ": 7587,
  "sū gé lán ": 7588,
  "xún zhǎo": 7589,
  " kù ": 7590,
  "   rén ": 7591,
  "chē duì ": 7592,
  " ěr shì ": 7593,
  "nán de ": 7594,
  "guò le ": 7595,
  "hù bù ": 7596,
  " dì tú ": 7597,
  " yuán běn": 7598,
  " chū dào ": 7599,
  "yìn ní ": 7600,
  " 2007": 7601,
  " 35": 7602,
  " 2021 nián ": 7603,
  "wǔ shì ": 7604,
  "shōu dào ": 7605,
  "wǎ ěr shěng ": 7606,
  "xìn yǎng": 7607,
  " sūn ": 7608,
  "gǔ lì ": 7609,
  "guǎn zhì ": 7610,
  " gōng lǐ de ": 7611,
  "shǐ shàng ": 7612,
  "zhǔ yì zhě ": 7613,
  " zhēn": 7614,
  "1948 nián ": 7615,
  " wèi yuán ": 7616,
  " yǐ yú ": 7617,
  "guò dù ": 7618,
  " shí yàn shì ": 7619,
  " kǎi": 7620,
  "yán rén ": 7621,
  "luò chéng ": 7622,
  "xiǎn zhù ": 7623,
  "1975 nián ": 7624,
  "guó wù ": 7625,
  "guǎng chǎng": 7626,
  " sī lìng bù ": 7627,
  "5 mǐ ": 7628,
  "shǐ rén ": 7629,
  "dù hé ": 7630,
  "jiāng yú ": 7631,
  "bì de ": 7632,
  "mài kè ": 7633,
  " dì liù ": 7634,
  "wàng yuǎn ": 7635,
  "xī dì ": 7636,
  "xiū dào ": 7637,
  "ba ": 7638,
  " dà gōng ": 7639,
  " fù jìn de ": 7640,
  "zhuān yè": 7641,
  " kǒu ": 7642,
  "sì de ": 7643,
  "shǒu dū": 7644,
  "gé lí ": 7645,
  "shào nǚ ": 7646,
  "shàng xiàn ": 7647,
  "yán zhì ": 7648,
  " diào ": 7649,
  "yú hé ": 7650,
  "xiāng guān de ": 7651,
  "dōng jīng": 7652,
  "děng děng ": 7653,
  "dì hé ": 7654,
  "fàng zài ": 7655,
  " jí shǐ ": 7656,
  "jiān yù ": 7657,
  "miǎn fèi ": 7658,
  " dǎng ": 7659,
  "jiǎo dù ": 7660,
  "zuǒ yì ": 7661,
  " chéng běn ": 7662,
  "wéi zhǔ ": 7663,
  "fǎn huí": 7664,
  " tiáo ": 7665,
  "bèi chēng wéi ": 7666,
  " xíng dòng": 7667,
  "cǎi qǔ": 7668,
  "guǎn lǐ jú ": 7669,
  " xiǎo shí ": 7670,
  "hún ": 7671,
  "1952 nián ": 7672,
  "tái běi shì ": 7673,
  " 29": 7674,
  " yuè duì ": 7675,
  " jūn qū ": 7676,
  "bì miǎn": 7677,
  "kōng jiān": 7678,
  "xíng tài ": 7679,
  "   2009": 7680,
  "   dāng ": 7681,
  "shè bèi ": 7682,
  "xiāng shì ": 7683,
  "kǎ sī ": 7684,
  "cǎi fǎng": 7685,
  " 25": 7686,
  " sè ": 7687,
  "shān xiàn ": 7688,
  "lǐ lùn": 7689,
  " ér fēi ": 7690,
  "gǎi shàn ": 7691,
  "fèi chú ": 7692,
  " xiè": 7693,
  " zú ": 7694,
  "xī běi ": 7695,
  "jià shǐ ": 7696,
  "zhèng fǔ de ": 7697,
  "shàng dì ": 7698,
  "dǎo shàng ": 7699,
  " zài hé ": 7700,
  " kè ěr ": 7701,
  " shè yú ": 7702,
  "luò shān jī ": 7703,
  " shén": 7704,
  " 27": 7705,
  "cǐ tóng shí ": 7706,
  "tion ": 7707,
  " fèng ": 7708,
  " 2002 nián ": 7709,
  "kāi gōng ": 7710,
  "tōng zhī ": 7711,
  "bō lí ": 7712,
  "   sī ": 7713,
  "hěn kuài ": 7714,
  " yǒng": 7715,
  " cài": 7716,
  " jué dìng ": 7717,
  "jiù yuán ": 7718,
  "cí de ": 7719,
  " dì yī cì": 7720,
  "hé zài ": 7721,
  "yě huì ": 7722,
  "huài ": 7723,
  " zhī shì ": 7724,
  "hǎi àn": 7725,
  "cí zhí ": 7726,
  "é luó sī de ": 7727,
  " pǔ": 7728,
  "kǒu de ": 7729,
  "wá ": 7730,
  " yì jiàn ": 7731,
  "   zhèng ": 7732,
  " wèi zài ": 7733,
  "shén me": 7734,
  " suō ": 7735,
  " 60": 7736,
  "zhēng yuè ": 7737,
  "tì dài ": 7738,
  " rén dà ": 7739,
  " fēn bié ": 7740,
  "chù zhǎng ": 7741,
  "chōng tū": 7742,
  "jiǔ de ": 7743,
  "qiáng zhì ": 7744,
  " shí xiàn": 7745,
  "jiān dū ": 7746,
  "yǐng shì ": 7747,
  "yǐn yòng ": 7748,
  "tí chū le ": 7749,
  "wài jiāo bù ": 7750,
  "4 gè ": 7751,
  " xù ": 7752,
  " kǎi ": 7753,
  "xué zhōng ": 7754,
  "qiáng de ": 7755,
  " gè guó ": 7756,
  "mín zhǔ dǎng": 7757,
  "shān dì ": 7758,
  "jǐn yǒu ": 7759,
  "jì suàn": 7760,
  "fēng fù ": 7761,
  " zhǔ yǎn ": 7762,
  "xǐ huān ": 7763,
  "   bā ": 7764,
  "sī shì ": 7765,
  "nuó wēi": 7766,
  "   gù shì ": 7767,
  " sī mǎ ": 7768,
  " hào xiàn": 7769,
  " xí ": 7770,
  "   yuè ": 7771,
  "tiān hòu ": 7772,
  "céng yú ": 7773,
  " gè zhǒng": 7774,
  "zhǎng guān ": 7775,
  "zōng jiào": 7776,
  "xiǎo xíng xīng": 7777,
  " shí hòu ": 7778,
  "mò xī gē": 7779,
  " mì ": 7780,
  "é guó ": 7781,
  " yǒu xiē": 7782,
  "pǔ biàn": 7783,
  "bù de cūn zhuāng ": 7784,
  "   yǐ xià": 7785,
  " chuān ": 7786,
  "   fù ": 7787,
  "guǎn de ": 7788,
  "zàn zhù ": 7789,
  "yìn shuā": 7790,
  "cù jìn ": 7791,
  " yuè lái yuè ": 7792,
  "liú yù ": 7793,
  " fǎ": 7794,
  "1966 nián ": 7795,
  "gǔ lǎo": 7796,
  "ā gēn ": 7797,
  "mǎ lái xī yà": 7798,
  " léi": 7799,
  " pà ": 7800,
  "tā zài ": 7801,
  "jiàng yǔ ": 7802,
  "liǎo jiě ": 7803,
  "kòu ": 7804,
  "jiā tíng ": 7805,
  "cè liáng ": 7806,
  "   wéi ": 7807,
  "fù shì ": 7808,
  "liè chū ": 7809,
  "th ": 7810,
  " de jù ": 7811,
  " chéng xiàn": 7812,
  " zhī dì ": 7813,
  "jīng diǎn ": 7814,
  "chē xiāng ": 7815,
  " dàn bái ": 7816,
  "liè rù ": 7817,
  "yǔn shí ": 7818,
  " xiàn shàng ": 7819,
  "qiáng dù ": 7820,
  " nǐ": 7821,
  "sū wéi ": 7822,
  "guàn jūn": 7823,
  " bù shǎo": 7824,
  " zhī jiā ": 7825,
  "fā dòng jī ": 7826,
  "cān xuǎn ": 7827,
  " zú": 7828,
  " kè hé ": 7829,
  "bì miǎn ": 7830,
  "tíng chē ": 7831,
  " xiāng dāng": 7832,
  "tóng xìng ": 7833,
  "zǎo shàng ": 7834,
  "1937 nián ": 7835,
  "zhǔ tí": 7836,
  "chuàng zuò de ": 7837,
  "sēn lín": 7838,
  " fù zé guǎn xiá ": 7839,
  "ào ěr ": 7841,
  "lā de ": 7842,
  "1974 nián ": 7843,
  "míng dān ": 7844,
  "zhàn tái ": 7845,
  "guó shì ": 7846,
  "hū yù ": 7847,
  " gōng yìng ": 7848,
  "jiān rèn ": 7849,
  "xuǎn jǔ zhōng ": 7850,
  "1946 nián ": 7851,
  " yī zhí ": 7852,
  "guān fāng": 7853,
  "suǒ yǒu de ": 7854,
  "bó lín ": 7855,
  "jiàn zhù": 7856,
  "dī qì ": 7857,
  "lí mǐ ": 7858,
  "jǐng gào ": 7859,
  "cái liào": 7860,
  "   zēng zǔ ": 7861,
  " kǎo ": 7862,
  "sāo ": 7863,
  "nán zi": 7864,
  "tǐ yù chǎng ": 7865,
  "guǎng zhōu": 7866,
  "lián jiē": 7867,
  "lā dé ": 7868,
  "shū chū ": 7869,
  " bù mǎn ": 7870,
  " gōng néng": 7871,
  "zhào piān ": 7872,
  "xià zài ": 7873,
  "lán xī ": 7874,
  "hái zài ": 7875,
  "dùn de ": 7876,
  " qiú de ": 7877,
  "yǐn rù ": 7878,
  "yín pái ": 7879,
  "yáo gǔn": 7880,
  " ér gāi dì de ": 7881,
  "yīng lǐ ": 7882,
  "nuó wēi ": 7883,
  "guó wáng ": 7884,
  " yǔ qí ": 7885,
  "qī zǐ": 7886,
  "ān zhuāng ": 7887,
  "xù lì yà": 7888,
  "zǎo qī de ": 7889,
  "shí hé ": 7890,
  "tú de ": 7891,
  "1954 nián ": 7892,
  "mǒu xiē": 7893,
  " mó": 7894,
  "céng de ": 7895,
  " jì lù": 7896,
  " chū yǎn ": 7897,
  " jiē": 7898,
  " bǎ ": 7899,
  "zhī shí ": 7900,
  "zhàn dì ": 7901,
  "qiú huì ": 7902,
  "fēi xíng": 7903,
  " bèi ěr": 7904,
  " shùn": 7905,
  "zhàn shí ": 7906,
  "zāo yù ": 7907,
  " nián qīng ": 7908,
  " wèi néng": 7909,
  "xià lái ": 7910,
  "shēn qǐng": 7911,
  " t": 7912,
  " hé gǔ ": 7913,
  " chéng le ": 7914,
  " yǐ qián ": 7915,
  " jì yì ": 7916,
  " kè lì ": 7917,
  "fā shēng de ": 7918,
  "shī qù ": 7919,
  "gǔ lā ": 7920,
  " n": 7921,
  "qián hòu ": 7922,
  "10 nián ": 7923,
  "biān yuán ": 7924,
  "mò ěr ": 7925,
  "zhōng yāng ": 7926,
  " jiā tíng": 7927,
  " xiāng tóng ": 7928,
  "yōu xiù": 7929,
  " yǐ sè liè ": 7930,
  "tè lì ": 7931,
  " shí bào ": 7932,
  "xīng qī": 7933,
  " Re": 7934,
  " qǐng ": 7935,
  "shān dōng shěng ": 7936,
  " zhāo hé ": 7937,
  " yè": 7938,
  "duì yuán ": 7939,
  "zǔ de ": 7940,
  " duì cǐ ": 7941,
  "   gài yào ": 7942,
  " 2006": 7943,
  "sān dà ": 7944,
  " de zhǔ yào ": 7945,
  "tài kōng ": 7946,
  " zì yóu": 7947,
  " B ": 7948,
  " fǒu": 7949,
  " 2000 nián ": 7950,
  " jūn dì ": 7951,
  " shēng míng ": 7952,
  " zhǐ zài ": 7953,
  "1 gè ": 7954,
  "zhà dàn ": 7955,
  "niáng ": 7956,
  " sòng": 7957,
  "wǎng shàng ": 7958,
  "tǎ ěr ": 7959,
  " dì zhèn ": 7960,
  "xià jiàng ": 7961,
  " wài": 7962,
  "lǐng dǎo de ": 7963,
  "yán jiū shēng ": 7964,
  " cǎi yòng ": 7965,
  "tè ěr ": 7966,
  "bǎo de ": 7967,
  " xiàn yǒu ": 7968,
  " yuán yīn": 7969,
  "diàn shì tái": 7970,
  " 000 ": 7971,
  " 40": 7972,
  "wū sī ": 7973,
  "hǎo píng ": 7974,
  "zhāi ": 7975,
  "1955 nián ": 7976,
  " zhōng jiān ": 7977,
  "pǔ chá ": 7978,
  " shǒu cì ": 7979,
  " cái": 7980,
  "duō cì": 7981,
  "huí guī ": 7982,
  "qīn wáng ": 7983,
  "   The": 7984,
  "tóng míng ": 7985,
  "tè yǒu ": 7986,
  "biān wèi ": 7987,
  " jí bìng ": 7988,
  "bó jué ": 7989,
  " wēi lián ": 7990,
  "mǐ de ": 7991,
  " xíng bù ": 7992,
  "kuài sù": 7993,
  "zàn tíng ": 7994,
  "cún de ": 7995,
  " guǎng dōng ": 7996,
  " xiān hòu ": 7997,
  "qíng de ": 7998,
  " shì yī bù ": 7999
}