{
  "!": 0,
  "\"": 1,
  "#": 2,
  "$": 3,
  "%": 4,
  "&": 5,
  "'": 6,
  "(": 7,
  ")": 8,
  "*": 9,
  "+": 10,
  ",": 11,
  "-": 12,
  ".": 13,
  "/": 14,
  "0": 15,
  "1": 16,
  "2": 17,
  "3": 18,
  "4": 19,
  "5": 20,
  "6": 21,
  "7": 22,
  "8": 23,
  "9": 24,
  ":": 25,
  ";": 26,
  "=": 27,
  "?": 28,
  "@": 29,
  "A": 30,
  "B": 31,
  "C": 32,
  "D": 33,
  "E": 34,
  "F": 35,
  "G": 36,
  "H": 37,
  "I": 38,
  "J": 39,
  "K": 40,
  "L": 41,
  "M": 42,
  "N": 43,
  "O": 44,
  "P": 45,
  "Q": 46,
  "R": 47,
  "S": 48,
  "T": 49,
  "U": 50,
  "V": 51,
  "W": 52,
  "X": 53,
  "Y": 54,
  "Z": 55,
  "[": 56,
  "\\": 57,
  "]": 58,
  "^": 59,
  "_": 60,
  "`": 61,
  "a": 62,
  "b": 63,
  "c": 64,
  "d": 65,
  "e": 66,
  "f": 67,
  "g": 68,
  "h": 69,
  "i": 70,
  "j": 71,
  "k": 72,
  "l": 73,
  "m": 74,
  "n": 75,
  "o": 76,
  "p": 77,
  "q": 78,
  "r": 79,
  "s": 80,
  "t": 81,
  "u": 82,
  "v": 83,
  "w": 84,
  "x": 85,
  "y": 86,
  "z": 87,
  "|": 88,
  "~": 89,
  "\n": 162,
  " ": 163,
  "": 164,
  "�": 198,
  "ng": 199,
  "an": 200,
  "sh": 201,
  "zh": 202,
  "ji": 203,
  "ang": 204,
  "  ": 205,
  "ong": 206,
  "xi": 207,
  "ao": 208,
  "ai": 209,
  "de": 210,
  "ei": 211,
  "shi": 212,
  "yu": 213,
  "ou": 214,
  "yi": 215,
  "en": 216,
  "ch": 217,
  "ian": 218,
  "uo": 219,
  "eng": 220,
  "li": 221,
  "   ": 222,
  "ing": 224,
  "ui": 225,
  "wei": 226,
  "uan": 227,
  "zhi": 228,
  "qi": 229,
  "nian": 230,
  "zhong": 231,
  "you": 232,
  "ren": 233,
  "un": 234,
  "zai": 235,
  "di": 236,
  "guo": 237,
  "、": 238,
  "he": 239,
  "bu": 240,
  "er": 241,
  "gong": 242,
  "xing": 243,
  "cheng": 244,
  "da": 245,
  "zhu": 246,
  "hu": 247,
  "yuan": 248,
  "si": 249,
  "jian": 250,
  "yue": 251,
  "ge": 252,
  "fu": 253,
  "xian": 254,
  "ue": 255,
  "ke": 256,
  "wu": 257,
  "chu": 258,
  "shu": 259,
  "sheng": 260,
  "jie": 261,
  "jia": 262,
  "bi": 263,
  "dao": 264,
  "zi": 265,
  "bei": 266,
  "hui": 267,
  "fa": 268,
  "xiang": 269,
  "ti": 270,
  "zheng": 271,
  "mi": 272,
  "ta": 273,
  "jin": 274,
  "qu": 275,
  "20": 276,
  "tong": 277,
  "ri": 278,
  "ju": 279,
  "jing": 280,
  "ming": 281,
  "le": 282,
  "hou": 283,
  "shang": 284,
  "shou": 285,
  "dong": 286,
  "ci": 287,
  "fang": 288,
  "19": 289,
  "hua": 290,
  "yin": 291,
  "xue": 292,
  "guan": 293,
  "zhan": 294,
  "ye": 295,
  "ying": 296,
  "zuo": 297,
  "zhe": 298,
  "yan": 299,
  "mei": 300,
  "jiao": 301,
  "gu": 302,
  "chang": 303,
  "xin": 304,
  "dui": 305,
  "lu": 306,
  "bing": 307,
  "bao": 308,
  "fen": 309,
  "dan": 310,
  "huo": 311,
  "jun": 312,
  "jiang": 313,
  "du": 314,
  "xiao": 315,
  "dian": 316,
  "yong": 317,
  "qian": 318,
  "she": 319,
  "tai": 320,
  "xia": 321,
  "mu": 322,
  "wen": 323,
  "gai": 324,
  "zhang": 325,
  "liang": 326,
  "ya": 327,
  "ru": 328,
  "dai": 329,
  "hai": 330,
  "nan": 331,
  "zhou": 332,
  "zu": 333,
  "wang": 334,
  "lai": 335,
  "ban": 336,
  "jiu": 337,
  "dang": 338,
  "qing": 339,
  "ping": 340,
  "shen": 341,
  "》": 342,
  "《": 343,
  "wan": 344,
  "lian": 345,
  "ling": 346,
  "luo": 347,
  "·": 348,
  "min": 349,
  "quan": 350,
  "pi": 351,
  "ni": 352,
  "bo": 353,
  "duo": 354,
  "te": 355,
  "ben": 356,
  "gao": 357,
  "biao": 358,
  "suo": 359,
  "la": 360,
  "ma": 361,
  "kai": 362,
  "ba": 363,
  "xie": 364,
  "xu": 365,
  "bian": 366,
  "deng": 367,
  "yao": 368,
  "yang": 369,
  "mian": 370,
  "zhen": 371,
  "ding": 372,
  "qiu": 373,
  "zui": 374,
  "sai": 375,
  "liu": 376,
  "fan": 377,
  "xuan": 378,
  "fei": 379,
  "san": 380,
  "shan": 381,
  "che": 382,
  "zong": 383,
  "men": 384,
  "「": 385,
  "」": 386,
  "tu": 387,
  "tian": 388,
  "hao": 389,
  "su": 390,
  "lei": 391,
  "nei": 392,
  "yun": 393,
  "201": 394,
  "lan": 395,
  "feng": 396,
  "mo": 397,
  "na": 398,
  "ze": 399,
  "lv": 400,
  "han": 401,
  "kou": 402,
  "wai": 403,
  "neng": 404,
  "lin": 405,
  "chuan": 406,
  "chi": 407,
  "jue": 408,
  "bai": 409,
  "pai": 410,
  "200": 411,
  "ku": 412,
  "cai": 413,
  "zao": 414,
  "ting": 415,
  "zhuan": 416,
  "gang": 417,
  "lie": 418,
  "guang": 419,
  "gui": 420,
  "lun": 421,
  "sui": 422,
  "pu": 423,
  "ceng": 424,
  "kong": 425,
  "shui": 426,
  "10": 427,
  "chao": 428,
  "zhuang": 429,
  "cha": 430,
  "dou": 431,
  "can": 432,
  "tou": 433,
  "ran": 434,
  "se": 435,
  "duan": 436,
  "cun": 437,
  "huan": 438,
  "cong": 439,
  "pin": 440,
  "ce": 441,
  "chan": 442,
  "xun": 443,
  "gou": 444,
  "00": 445,
  "nv": 446,
  "zhao": 447,
  "gan": 448,
  "chong": 449,
  "sha": 450,
  "tan": 451,
  "18": 452,
  "qin": 453,
  "ka": 454,
  "meng": 455,
  "qiang": 456,
  "huang": 457,
  "xiu": 458,
  "12": 459,
  "tiao": 460,
  "man": 461,
  "shao": 462,
  "kuo": 463,
  "long": 464,
  "pian": 465,
  "shuo": 466,
  "tuan": 467,
  "tang": 468,
  "rong": 469,
  "geng": 470,
  "202": 471,
  "chen": 472,
  "tui": 473,
  "gen": 474,
  "que": 475,
  "tie": 476,
  "11": 477,
  "qie": 478,
  "wo": 479,
  "po": 480,
  "pei": 481,
  "hang": 482,
  "hong": 483,
  "199": 484,
  "bang": 485,
  "liao": 486,
  "chuang": 487,
  "bie": 488,
  "re": 489,
  "tuo": 490,
  "tao": 491,
  "song": 492,
  "wa": 493,
  "mai": 494,
  "ha": 495,
  "15": 496,
  "pan": 497,
  "dun": 498,
  "diao": 499,
  "qiao": 500,
  "sa": 501,
  "mao": 502,
  "lang": 503,
  "kan": 504,
  "kang": 505,
  "or": 507,
  "lao": 508,
  "zeng": 509,
  "16": 510,
  "198": 511,
  "kao": 512,
  "xiong": 513,
  "17": 514,
  "on": 515,
  "nuo": 516,
  "miao": 517,
  "rang": 518,
  "kuang": 519,
  "hen": 520,
  "suan": 521,
  "14": 522,
  "30": 523,
  "zhun": 524,
  "13": 525,
  "194": 526,
  "cao": 527,
  "hun": 528,
  "qun": 529,
  "nong": 530,
  "197": 531,
  "heng": 532,
  "shuang": 533,
  "lou": 534,
  "gei": 535,
  "kuai": 536,
  "piao": 537,
  "zha": 538,
  "hei": 539,
  "niu": 540,
  "195": 541,
  "sen": 542,
  "bin": 543,
  "reng": 544,
  "zou": 545,
  "196": 546,
  "chun": 547,
  "kuan": 548,
  "25": 549,
  "—": 550,
  "rui": 551,
  "sun": 552,
  "pao": 553,
  "ning": 554,
  "for": 555,
  "pa": 556,
  "cang": 557,
  "mou": 558,
  "24": 559,
  "peng": 560,
  "huai": 561,
  "21": 562,
  "193": 563,
  "23": 564,
  "mula": 565,
  "formula": 566,
  "28": 567,
  "zan": 568,
  "ruo": 569,
  "in": 570,
  "22": 571,
  "chou": 572,
  "zhui": 573,
  "ar": 574,
  "me": 575,
  "26": 576,
  "50": 577,
  "2020": 578,
  "27": 579,
  "nai": 580,
  "nu": 581,
  "29": 583,
  "shun": 584,
  "2010": 585,
  "za": 586,
  "000": 587,
  "lve": 588,
  "zhai": 589,
  "2019": 590,
  "ne": 591,
  "ro": 592,
  "juan": 593,
  "st": 594,
  "ra": 595,
  "cui": 596,
  "kun": 597,
  "2016": 598,
  "luan": 599,
  "2018": 600,
  "cuo": 601,
  "2021": 602,
  "zang": 603,
  "2014": 604,
  "shuai": 605,
  "2011": 606,
  "2015": 607,
  "2017": 608,
  "2012": 609,
  "40": 610,
  "2013": 611,
  "nao": 612,
  "2022": 613,
  "die": 614,
  "ruan": 615,
  "kui": 616,
  "lt": 617,
  "rou": 618,
  "cu": 619,
  "sang": 620,
  "2009": 621,
  "2008": 622,
  "60": 624,
  "niao": 625,
  "al": 626,
  "rao": 627,
  "chai": 628,
  "100": 629,
  "zhuo": 630,
  "2023": 631,
  "gt": 632,
  "sou": 633,
  "190": 634,
  "31": 635,
  "ken": 636,
  "2007": 637,
  "2001": 638,
  "teng": 639,
  "pang": 640,
  "fou": 641,
  "co": 642,
  "fo": 643,
  "gua": 644,
  "2000": 645,
  "80": 646,
  "2006": 647,
  "2024": 648,
  "2005": 650,
  "zun": 651,
  "tion": 652,
  "kua": 653,
  "the": 654,
  "35": 655,
  "70": 656,
  "nie": 657,
  "lo": 658,
  "of": 659,
  "90": 660,
  "leng": 661,
  "－": 662,
  "am": 664,
  "tun": 665,
  "ter": 666,
  "mie": 667,
  "2004": 668,
  "th": 669,
  "to": 670,
  "45": 671,
  "48": 672,
  "mang": 673,
  "2025": 674,
  "ve": 675,
  "ga": 676,
  "〉": 677,
  "〈": 678,
  "36": 679,
  "38": 680,
  "2003": 681,
  "37": 682,
  "Ma": 683,
  "chui": 684,
  "pen": 685,
  "ll": 686,
  "189": 687,
  "IN": 688,
  "2002": 689,
  "keng": 690,
  "TC": 691,
  "do": 692,
  "34": 693,
  "75": 694,
  "–": 695,
  "Co": 696,
  "46": 697,
  "ca": 698,
  "1990": 699,
  "…": 700,
  "ck": 701,
  "39": 702,
  "..": 703,
  "be": 704,
  "65": 705,
  "32": 706,
  "ST": 707,
  "47": 708,
  "UTC": 709,
  "1999": 710,
  "1998": 711,
  "1980": 712,
  "188": 713,
  "500": 714,
  "33": 715,
  "In": 716,
  "64": 717,
  "ss": 718,
  "The": 719,
  "vi": 720,
  "SE": 721,
  "55": 722,
  "1997": 723,
  "Re": 724,
  "hi": 725,
  "49": 726,
  "II": 727,
  "el": 728,
  "68": 729,
  "et": 730,
  "44": 731,
  "1996": 732,
  "oo": 733,
  "qiong": 734,
  "1994": 735,
  "gun": 736,
  "br": 737,
  "guai": 738,
  "1992": 739,
  "1995": 740,
  "Mi": 741,
  "67": 742,
  "and": 743,
  "sao": 744,
  "es": 745,
  "1991": 746,
  "1970": 747,
  "58": 748,
  "1950": 749,
  "300": 750,
  "1993": 751,
  "187": 752,
  "1949": 753,
  "at": 754,
  "AT": 755,
  "pe": 756,
  "1960": 757,
  "42": 758,
  "1945": 759,
  "Li": 760,
  "ver": 761,
  "qia": 762,
  "1988": 763,
  "ty": 764,
  "1989": 765,
  "69": 766,
  "Ro": 767,
  "is": 768,
  "run": 769,
  "SEE": 770,
  "niang": 771,
  "INSEE": 772,
  "ho": 773,
  "59": 774,
  "43": 775,
  "66": 776,
  "57": 777,
  "1985": 778,
  "99": 779,
  "SA": 780,
  "『": 781,
  "』": 782,
  "ct": 783,
  "1984": 784,
  "41": 785,
  "88": 786,
  "1986": 787,
  "wi": 788,
  "ol": 789,
  "ws": 790,
  "TV": 791,
  "ry": 792,
  "150": 793,
  "Me": 794,
  "nd": 795,
  "400": 796,
  "1987": 797,
  "78": 798,
  "1982": 799,
  "56": 800,
  "beng": 801,
  "Vi": 802,
  "Pa": 803,
  "ts": 804,
  "1983": 805,
  "amp": 806,
  "NA": 807,
  "De": 808,
  "CD": 809,
  "gh": 810,
  "fi": 811,
  "weng": 812,
  "ber": 813,
  "77": 814,
  "Win": 815,
  "per": 816,
  "zuan": 817,
  "Sta": 818,
  "79": 819,
  "OS": 820,
  "Wi": 821,
  "°": 822,
  "der": 824,
  "180": 825,
  "BC": 826,
  "54": 827,
  "1979": 828,
  "61": 829,
  "1920": 830,
  "as": 831,
  "Mo": 832,
  "seng": 833,
  "98": 834,
  "52": 835,
  "You": 836,
  "1978": 837,
  "no": 838,
  "62": 839,
  "53": 840,
  "ly": 841,
  "shua": 842,
  "La": 843,
  "～": 844,
  "BA": 845,
  "1946": 846,
  "CO": 847,
  "51": 848,
  "1958": 849,
  "gi": 850,
  "Jo": 851,
  "1981": 852,
  "1972": 853,
  "1948": 854,
  "Le": 855,
  "tw": 856,
  "AM": 857,
  "63": 858,
  "AR": 859,
  "ction": 860,
  "1941": 861,
  "BS": 862,
  "Ga": 863,
  "1930": 864,
  "Da": 865,
  "Pro": 866,
  "Te": 867,
  "76": 868,
  "hans": 869,
  "1940": 870,
  "1937": 871,
  "1976": 872,
  "1944": 873,
  "Ja": 874,
  "89": 875,
  "us": 876,
  "Di": 877,
  "Windo": 878,
  "1975": 879,
  "／": 880,
  "1968": 881,
  "hk": 882,
  "con": 883,
  "Fi": 884,
  "um": 885,
  "Si": 886,
  "1000": 887,
  "Windows": 888,
  "95": 889,
  "87": 890,
  "nal": 891,
  "Mar": 892,
  "1966": 893,
  "rd": 894,
  "85": 895,
  "Ne": 896,
  "Ra": 897,
  "ki": 898,
  "600": 899,
  "120": 900,
  "1947": 901,
  "Se": 902,
  "AC": 903,
  "1956": 904,
  "1964": 905,
  "Be": 906,
  "1942": 907,
  "é": 908,
  "1955": 909,
  "1952": 910,
  "IS": 911,
  "ad": 912,
  "1939": 913,
  "1938": 914,
  "72": 915,
  "ur": 916,
  "74": 917,
  "Ca": 918,
  "va": 919,
  "1973": 920,
  "1974": 921,
  "1954": 922,
  "Ar": 923,
  "Al": 924,
  "ED": 925,
  "1900": 926,
  "--": 927,
  "AP": 928,
  "1943": 929,
  "To": 930,
  "1977": 931,
  "ld": 932,
  "1971": 933,
  "cen": 934,
  "lay": 935,
  "1967": 936,
  "Ba": 937,
  "IC": 938,
  "800": 939,
  "Po": 940,
  "Lo": 941,
  "ER": 942,
  "zhua": 943,
  "sta": 944,
  "86": 945,
  "1959": 946,
  "Bo": 947,
  "tt": 948,
  "1965": 949,
  "JR": 950,
  "1969": 951,
  "Fa": 952,
  "・": 953,
  "×": 954,
  "ID": 955,
  "Bi": 956,
  "son": 957,
  "1936": 958,
  "160": 959,
  "97": 960,
  "1953": 961,
  "Sa": 962,
  "MA": 963,
  "1962": 964,
  "1961": 965,
  "nen": 966,
  "Na": 967,
  "So": 969,
  "1935": 970,
  "com": 971,
  "Ho": 972,
  "tic": 973,
  "96": 974,
  "ON": 975,
  "％": 976,
  "1951": 977,
  "St": 978,
  "1957": 979,
  "1963": 980,
  "Tu": 981,
  "─": 982,
  "fe": 983,
  "so": 984,
  "ment": 985,
  "84": 986,
  "Hi": 987,
  "2026": 988,
  "82": 989,
  "Do": 990,
  "mer": 991,
  "Ri": 992,
  "73": 993,
  "nt": 994,
  "94": 995,
  "92": 996,
  "Ki": 997,
  "Ha": 998,
  "nang": 999,
  "one": 1000,
  "IP": 1001,
  "AN": 1002,
  "ls": 1003,
  "1933": 1004,
  "1931": 1005,
  "les": 1006,
  "71": 1007,
  "nuan": 1008,
  "Com": 1009,
  "83": 1010,
  "93": 1011,
  "ted": 1012,
  "Su": 1013,
  "81": 1014,
  "Ti": 1015,
  "Mu": 1016,
  "1918": 1017,
  "Ni": 1018,
  "HD": 1019,
  "Uni": 1020,
  "1928": 1021,
  "pp": 1022,
  "1932": 1023,
  "Cha": 1024,
  "We": 1025,
  "ys": 1026,
  "MV": 1027,
  "SS": 1028,
  "110": 1029,
  "IT": 1030,
  "1912": 1031,
  "No": 1032,
  "1929": 1033,
  "1927": 1034,
  "1934": 1035,
  "cn": 1036,
  "700": 1037,
  "go": 1038,
  "zei": 1039,
  "ght": 1040,
  "ster": 1041,
  "250": 1042,
  "91": 1043,
  "rt": 1044,
  "lli": 1045,
  "1924": 1046,
  "ris": 1047,
  "...": 1048,
  "1919": 1049,
  "nve": 1050,
  "130": 1051,
  "Pi": 1052,
  "1925": 1053,
  "Gi": 1054,
  "PS": 1055,
  "by": 1056,
  "ed": 1057,
  "mes": 1058,
  "An": 1059,
  "PC": 1060,
  "140": 1061,
  "AS": 1062,
  "Play": 1063,
  "1914": 1064,
  "km": 1065,
  "DV": 1066,
  "tio": 1067,
  "YouTu": 1068,
  "SM": 1069,
  "ble": 1070,
  "gra": 1071,
  "ko": 1072,
  "1911": 1073,
  "Con": 1074,
  "Ch": 1075,
  "lla": 1076,
  "1926": 1077,
  "lle": 1078,
  "Ge": 1079,
  "Par": 1080,
  "id": 1081,
  "Ta": 1082,
  "1922": 1083,
  "Lin": 1084,
  "mp": 1085,
  "1917": 1086,
  "He": 1087,
  "Ka": 1088,
  "ET": 1089,
  "NBA": 1090,
  "wn": 1091,
  "IV": 1092,
  "EN": 1093,
  "1923": 1094,
  "1921": 1095,
  "shai": 1096,
  "Goo": 1097,
  "chuo": 1098,
  "170": 1099,
  "EC": 1101,
  "MS": 1102,
  "ali": 1103,
  "AL": 1104,
  "ph": 1105,
  "section": 1106,
  "YouTube": 1107,
  "EP": 1108,
  "BL": 1109,
  "1913": 1110,
  "Car": 1111,
  "Bu": 1112,
  "zen": 1113,
  "HK": 1114,
  "we": 1115,
  "hn": 1116,
  "mm": 1117,
  "ven": 1118,
  "hant": 1119,
  "1909": 1121,
  "sion": 1122,
  "Inter": 1123,
  "cro": 1124,
  "MP": 1125,
  "AI": 1126,
  "Wor": 1127,
  "Pe": 1128,
  "ds": 1129,
  "US": 1130,
  "pro": 1131,
  "DVD": 1132,
  "ok": 1133,
  "3000": 1134,
  "En": 1135,
  "1910": 1136,
  "DS": 1137,
  "RO": 1138,
  "cou": 1139,
  "Ste": 1140,
  "sis": 1141,
  "112": 1142,
  "Go": 1143,
  "rk": 1144,
  "AK": 1145,
  "RE": 1146,
  "1916": 1147,
  "Wa": 1148,
  "lia": 1149,
  "ー": 1150,
  "Station": 1151,
  "For": 1152,
  "Net": 1153,
  "ff": 1154,
  "α": 1155,
  "oft": 1156,
  "ine": 1157,
  "den": 1158,
  "lor": 1159,
  "rea": 1160,
  "tional": 1161,
  "gn": 1162,
  "ture": 1163,
  "gle": 1164,
  "CP": 1165,
  "UN": 1166,
  "ard": 1168,
  "1915": 1169,
  "gin": 1170,
  "1905": 1171,
  "ps": 1172,
  "FC": 1173,
  "cal": 1174,
  "vo": 1175,
  "dia": 1176,
  "My": 1177,
  "CN": 1178,
  "→": 1180,
  "our": 1181,
  "ers": 1182,
  "1901": 1183,
  "ent": 1184,
  "Au": 1185,
  "DNA": 1186,
  "Ex": 1187,
  "‧": 1188,
  "900": 1189,
  "end": 1190,
  "HR": 1191,
  "dice": 1192,
  ".&": 1193,
  "ther": 1194,
  "tal": 1195,
  "CH": 1196,
  "TA": 1197,
  "TO": 1198,
  "1906": 1199,
  "1904": 1200,
  "AV": 1201,
  "tes": 1202,
  "MO": 1203,
  "jiong": 1204,
  "John": 1205,
  "my": 1206,
  "eri": 1207,
  "codice": 1208,
  "Man": 1209,
  "℃": 1210,
  "dy": 1211,
  "PlayStation": 1212,
  "Chi": 1213,
  "05": 1214,
  "CC": 1215,
  "tive": 1216,
  "diu": 1217,
  "And": 1218,
  "1907": 1219,
  "dio": 1220,
  "1908": 1221,
  "Google": 1222,
  "AG": 1223,
  "Ci": 1224,
  "EST": 1225,
  "MI": 1226,
  "SO": 1227,
  "LE": 1228,
  "sic": 1229,
  "ree": 1230,
  "BO": 1231,
  "int": 1232,
  "wit": 1233,
  "BBC": 1234,
  "Sch": 1235,
  "AD": 1236,
  "IG": 1237,
  "land": 1238,
  "III": 1239,
  "cri": 1240,
  "ton": 1241,
  "1500": 1242,
  "5000": 1243,
  "cy": 1244,
  "round": 1245,
  "wer": 1246,
  "IST": 1247,
  "ms": 1248,
  "ron": 1249,
  "ME": 1250,
  "CR": 1251,
  "ul": 1252,
  "3D": 1253,
  "je": 1254,
  "IA": 1255,
  "ley": 1256,
  "105": 1257,
  "au": 1258,
  "а": 1259,
  "ria": 1260,
  "101": 1261,
  "1903": 1262,
  "tor": 1263,
  "GB": 1264,
  "van": 1265,
  "09": 1266,
  "TE": 1267,
  "Lu": 1268,
  "1902": 1269,
  "BD": 1270,
  "NC": 1271,
  "Pri": 1272,
  "Fe": 1273,
  "xt": 1274,
  "350": 1275,
  "pou": 1276,
  "á": 1277,
  "SAO": 1278,
  "des": 1279,
  "DC": 1280,
  "ja": 1281,
  "β": 1282,
  "cke": 1283,
  "B1900": 1284,
  "book": 1285,
  "hat": 1286,
  "ES": 1287,
  "all": 1288,
  "BM": 1289,
  "．": 1290,
  "ン": 1291,
  "Ru": 1292,
  "ner": 1293,
  "1898": 1294,
  "res": 1295,
  "06": 1296,
  "118": 1297,
  "op": 1298,
  "の": 1299,
  "360": 1300,
  "DR": 1301,
  "New": 1302,
  "01": 1303,
  "DA": 1304,
  "Hu": 1305,
  "Open": 1306,
  "1895": 1307,
  "ger": 1308,
  "125": 1309,
  "Sho": 1310,
  "HO": 1311,
  "MC": 1312,
  "San": 1313,
  "ATP": 1314,
  "Micro": 1315,
  "ctor": 1316,
  "о": 1317,
  "108": 1318,
  "ft": 1319,
  "cor": 1320,
  "os": 1321,
  "NG": 1322,
  "Ke": 1323,
  "clu": 1324,
  "gy": 1325,
  "gram": 1326,
  "pri": 1327,
  "ward": 1328,
  "sty": 1329,
  "IF": 1330,
  "Cu": 1331,
  "Fran": 1332,
  "One": 1333,
  "net": 1334,
  "soft": 1335,
  "ker": 1336,
  "pt": 1337,
  "−": 1338,
  "07": 1339,
  "08": 1340,
  "230": 1341,
  "Face": 1342,
  "104": 1343,
  "pace": 1344,
  "lspan": 1345,
  "Cor": 1346,
  "Per": 1347,
  "Bar": 1348,
  "World": 1349,
  "App": 1350,
  "EDT": 1351,
  "ISTAT": 1352,
  "cuan": 1353,
  "Love": 1354,
  "Ko": 1355,
  "Har": 1357,
  "NO": 1358,
  "Stu": 1359,
  "1896": 1360,
  "LL": 1361,
  "ux": 1362,
  "109": 1363,
  "DP": 1364,
  "las": 1365,
  "AA": 1366,
  "fli": 1367,
  "RI": 1368,
  "Ju": 1369,
  "pha": 1370,
  "Ser": 1371,
  "lus": 1372,
  "line": 1373,
  "RT": 1374,
  "tri": 1375,
  "SP": 1376,
  "EX": 1377,
  "B48": 1378,
  "106": 1379,
  "1890": 1380,
  "rai": 1381,
  "sti": 1382,
  "mon": 1383,
  "CST": 1384,
  "ML": 1385,
  "od": 1386,
  "uni": 1387,
  "CDT": 1388,
  "bert": 1389,
  "Je": 1390,
  "rs": 1391,
  "rus": 1392,
  "red": 1393,
  "DO": 1394,
  "Pu": 1395,
  "ky": 1396,
  "HE": 1397,
  "Cou": 1398,
  "ation": 1399,
  "Mon": 1400,
  "04": 1401,
  "4000": 1402,
  "115": 1403,
  "1200": 1404,
  "M1": 1405,
  "Pre": 1406,
  "03": 1407,
  "ler": 1408,
  "GP": 1409,
  "del": 1410,
  "CE": 1411,
  "ā": 1412,
  "Live": 1413,
  "begin": 1414,
  "1889": 1415,
  "ool": 1416,
  "Davi": 1417,
  "with": 1418,
  "ara": 1419,
  "1899": 1420,
  "colspan": 1421,
  "tain": 1422,
  "back": 1423,
  "1871": 1424,
  "RS": 1425,
  "sto": 1426,
  "Facebook": 1427,
  "Ed": 1428,
  "Sha": 1429,
  "Microsoft": 1430,
  "mic": 1431,
  "tem": 1432,
  "​": 1433,
  "240": 1434,
  "1600": 1435,
  "LO": 1436,
  "Tri": 1437,
  "ten": 1438,
  "tin": 1439,
  "BE": 1440,
  "low": 1441,
  "102": 1442,
  "box": 1443,
  "clude": 1444,
  "Ad": 1445,
  "TT": 1446,
  "1897": 1447,
  "Sou": 1448,
  "ser": 1449,
  "NH": 1450,
  "EE": 1451,
  "Du": 1452,
  "ces": 1453,
  "PP": 1454,
  "117": 1455,
  "SC": 1456,
  "val": 1457,
  "02": 1458,
  "por": 1459,
  "cm": 1460,
  "Mac": 1461,
  "style": 1462,
  "Che": 1463,
  "rst": 1464,
  "103": 1465,
  "AKB48": 1466,
  "Dan": 1467,
  "MD": 1468,
  "Nor": 1469,
  "Ph": 1470,
  "107": 1471,
  "ral": 1472,
  "Her": 1473,
  "On": 1474,
  "pre": 1475,
  "ring": 1476,
  "As": 1477,
  "are": 1478,
  "Willi": 1479,
  "tel": 1480,
  "Linux": 1481,
  "lis": 1482,
  "Ori": 1483,
  "ww": 1484,
  "Dis": 1485,
  "shuan": 1486,
  "gue": 1487,
  "mas": 1488,
  "450": 1489,
  "Ber": 1490,
  "VID": 1491,
  "127": 1492,
  "Music": 1493,
  "Is": 1494,
  "Ai": 1495,
  "Gre": 1496,
  "cer": 1497,
  "ü": 1498,
  "tus": 1499,
  "Vo": 1500,
  "tra": 1501,
  "128": 1502,
  "flix": 1503,
  "CL": 1504,
  "Netflix": 1505,
  "Bro": 1506,
  "yo": 1507,
  "1894": 1508,
  "Game": 1509,
  "220": 1510,
  "Can": 1511,
  "Gra": 1512,
  "nin": 1513,
  "ref": 1514,
  "н": 1515,
  "William": 1516,
  "Bri": 1517,
  "IL": 1518,
  "align": 1519,
  "SH": 1520,
  "bli": 1521,
  "ory": 1522,
  "Or": 1523,
  "Twit": 1524,
  "1880": 1525,
  "Red": 1526,
  "old": 1527,
  "í": 1528,
  "RNA": 1529,
  "136": 1530,
  "PG": 1531,
  "и": 1532,
  "い": 1533,
  "rom": 1534,
  "TR": 1535,
  "Team": 1536,
  "1800": 1537,
  "ス": 1538,
  "Univer": 1539,
  "ground": 1540,
  "ia": 1541,
  "1885": 1542,
  "len": 1543,
  "114": 1544,
  "ん": 1545,
  "Hz": 1546,
  "color": 1547,
  "Gen": 1548,
  "Ty": 1549,
  "116": 1550,
  "280": 1551,
  "UR": 1552,
  "ple": 1553,
  "е": 1554,
  "113": 1555,
  "1886": 1556,
  "ein": 1557,
  "イ": 1558,
  "TS": 1559,
  "PO": 1560,
  "1893": 1561,
  "lar": 1562,
  "ex": 1563,
  "rn": 1564,
  "yn": 1565,
  "Mc": 1566,
  "name": 1567,
  "111": 1568,
  "SL": 1569,
  "Super": 1571,
  "She": 1572,
  "stra": 1573,
  "All": 1574,
  "Gu": 1575,
  "cial": 1576,
  "lass": 1577,
  "※": 1578,
  "David": 1579,
  "135": 1580,
  "ject": 1581,
  "Ac": 1582,
  "260": 1583,
  "Cen": 1584,
  "Eu": 1585,
  "lf": 1586,
  "1860": 1587,
  "port": 1588,
  "ham": 1589,
  "Geor": 1590,
  "cho": 1591,
  "national": 1592,
  "Char": 1593,
  "Un": 1594,
  "WTA": 1595,
  "lver": 1596,
  "dge": 1597,
  "work": 1598,
  "HC": 1599,
  "Th": 1600,
  "tro": 1601,
  "School": 1602,
  "Ban": 1603,
  "ks": 1604,
  "sso": 1605,
  "tch": 1606,
  "tis": 1607,
  "1888": 1608,
  "Mor": 1609,
  "qui": 1610,
  "text": 1611,
  "SD": 1612,
  "ó": 1613,
  "-.": 1614,
  "UA": 1615,
  "roup": 1616,
  "lly": 1617,
  "cation": 1618,
  "ony": 1619,
  "background": 1620,
  "Meta": 1621,
  "roid": 1622,
  "ac": 1623,
  "meri": 1624,
  "Tra": 1625,
  "129": 1626,
  "GO": 1627,
  "Sto": 1628,
  "dis": 1629,
  "1870": 1630,
  "GN": 1631,
  "ream": 1633,
  "1887": 1634,
  "Show": 1635,
  "Qu": 1636,
  "cle": 1637,
  "1868": 1638,
  "6000": 1639,
  "ö": 1640,
  "р": 1641,
  "1883": 1642,
  "NF": 1643,
  "VA": 1644,
  "mar": 1645,
  "Ver": 1646,
  "day": 1647,
  "320": 1648,
  "Xbox": 1649,
  "CS": 1650,
  "was": 1651,
  "Ang": 1652,
  "NHK": 1653,
  "Tho": 1654,
  "AF": 1655,
  "Fo": 1656,
  "Twitter": 1657,
  "DD": 1658,
  "lyin": 1659,
  "onlyin": 1660,
  "onlyinclude": 1661,
  "++": 1662,
  "KP": 1663,
  "don": 1664,
  "1864": 1665,
  "•": 1666,
  "Gir": 1667,
  "ION": 1668,
  "1884": 1669,
  "119": 1670,
  "Bla": 1671,
  "RC": 1672,
  "UE": 1673,
  "ain": 1674,
  "miu": 1675,
  "122": 1676,
  "Va": 1677,
  "2500": 1678,
  "1892": 1679,
  "210": 1680,
  "A1": 1681,
  "center": 1682,
  "cket": 1683,
  "155": 1684,
  "ISO": 1685,
  "145": 1687,
  "stri": 1688,
  "1891": 1689,
  "650": 1690,
  "way": 1691,
  "Android": 1692,
  "NS": 1693,
  "Clu": 1694,
  "〕": 1695,
  "OR": 1696,
  "ffi": 1697,
  "htt": 1698,
  "mber": 1699,
  "〔": 1700,
  "1850": 1701,
  "Fu": 1702,
  "Phi": 1703,
  "age": 1704,
  "mb": 1705,
  "win": 1706,
  "xy": 1707,
  "Cy": 1708,
  "Ku": 1709,
  "king": 1710,
  "International": 1711,
  "sia": 1712,
  "1867": 1713,
  "logy": 1714,
  "Ce": 1715,
  "IM": 1716,
  "ト": 1717,
  "1879": 1718,
  "Star": 1719,
  "rie": 1720,
  "James": 1721,
  "Enter": 1722,
  "cc": 1723,
  "ller": 1724,
  "380": 1725,
  "AB": 1726,
  "UP": 1727,
  "ney": 1728,
  "Eng": 1729,
  "1876": 1730,
  "Spe": 1731,
  "War": 1732,
  "ny": 1733,
  "Studio": 1734,
  "zo": 1735,
  "George": 1736,
  "Ab": 1737,
  "Ani": 1738,
  "1875": 1739,
  "1861": 1740,
  "270": 1741,
  "Universi": 1742,
  "Games": 1743,
  "Bra": 1744,
  "IR": 1745,
  "126": 1746,
  "NT": 1747,
  "è": 1748,
  "time": 1749,
  "art": 1750,
  "Es": 1751,
  "Por": 1752,
  "NGC": 1753,
  "stru": 1754,
  "ル": 1755,
  "1873": 1756,
  "Hen": 1757,
  "MG": 1758,
  "phi": 1759,
  "ero": 1760,
  "123": 1761,
  "ラ": 1762,
  "PV": 1763,
  "ns": 1764,
  "Ben": 1765,
  "Dra": 1766,
  "HT": 1767,
  "Colle": 1768,
  "Group": 1769,
  "Pan": 1770,
  "car": 1771,
  "mpi": 1772,
  "rans": 1773,
  "Sun": 1774,
  "it": 1775,
  "ut": 1776,
  "168": 1777,
  "cus": 1778,
  "COVID": 1779,
  "Blo": 1780,
  "FM": 1781,
  "MB": 1782,
  "Sys": 1783,
  "ous": 1784,
  "sed": 1785,
  "1865": 1786,
  "Club": 1787,
  "AO": 1788,
  "Ameri": 1789,
  "PL": 1790,
  "her": 1791,
  "im": 1792,
  "121": 1793,
  "DE": 1794,
  "Don": 1795,
  "that": 1796,
  "Air": 1797,
  "Center": 1798,
  "175": 1799,
  "ary": 1800,
  "う": 1801,
  "Web": 1802,
  "H2": 1803,
  "YP": 1804,
  "from": 1805,
  "ä": 1806,
  "1400": 1807,
  "MAX": 1808,
  "critic": 1809,
  "Ale": 1810,
  "tz": 1811,
  "138": 1812,
  "228": 1813,
  "Han": 1814,
  "TP": 1815,
  "1848": 1816,
  "1862": 1817,
  "330": 1818,
  "124": 1819,
  "ア": 1820,
  "1881": 1821,
  "1882": 1822,
  "737": 1823,
  "Lea": 1824,
  "Ali": 1825,
  "UC": 1826,
  "hy": 1827,
  "1878": 1828,
  "550": 1829,
  "Ve": 1830,
  "sau": 1831,
  "bri": 1832,
  "bit": 1833,
  "1872": 1834,
  "El": 1835,
  "LC": 1836,
  "Insta": 1837,
  "Min": 1838,
  "ration": 1839,
  "INK": 1840,
  "Metacritic": 1841,
  "eld": 1842,
  "Oricon": 1843,
  "Sai": 1844,
  "Whi": 1845,
  "sco": 1846,
  "156": 1847,
  "Boo": 1848,
  "MTV": 1849,
  "sp": 1850,
  "165": 1851,
  "LED": 1852,
  "1840": 1853,
  "IVE": 1854,
  "Ya": 1855,
  "cre": 1856,
  "kin": 1857,
  "750": 1858,
  "ッ": 1859,
  "1300": 1860,
  "し": 1861,
  "Hy": 1862,
  "137": 1863,
  "Micha": 1864,
  "Mark": 1865,
  "7000": 1866,
  "Hel": 1867,
  "era": 1868,
  "DOS": 1869,
  "SQ": 1870,
  "UB": 1871,
  "229": 1872,
  "IU": 1873,
  "GDP": 1874,
  "King": 1875,
  "OK": 1876,
  "с": 1877,
  "type": 1878,
  "Gran": 1879,
  "nic": 1880,
  "High": 1881,
  "Tai": 1882,
  "ast": 1883,
  "152": 1884,
  "TVB": 1885,
  "Chris": 1886,
  "159": 1887,
  "1877": 1888,
  "Robert": 1889,
  "Chan": 1890,
  "py": 1891,
  "sy": 1892,
  "tle": 1893,
  "cien": 1895,
  "1866": 1896,
  "Hou": 1897,
  "iOS": 1898,
  "ot": 1899,
  "л": 1900,
  "Produ": 1901,
  "SK": 1902,
  "Shi": 1903,
  "silver": 1904,
  "1869": 1905,
  "′": 1906,
  "thi": 1907,
  "THE": 1908,
  "Up": 1909,
  "Day": 1910,
  "Cro": 1911,
  "DM": 1912,
  "Ele": 1913,
  "Stre": 1914,
  "Peter": 1915,
  "It": 1916,
  "NET": 1917,
  "tter": 1918,
  "Free": 1919,
  "Jan": 1920,
  "к": 1921,
  "139": 1922,
  "Phone": 1923,
  "Instagram": 1924,
  "At": 1925,
  "BI": 1926,
  "Sur": 1927,
  "pla": 1928,
  "BLAC": 1929,
  "Type": 1930,
  "в": 1931,
  "ora": 1932,
  "Apple": 1933,
  "DJ": 1934,
  "Sy": 1935,
  "Wal": 1936,
  "CG": 1937,
  "WE": 1938,
  "code": 1939,
  "ク": 1940,
  "Michael": 1941,
  "DF": 1942,
  "Sh": 1943,
  "1100": 1945,
  "cia": 1946,
  "158": 1947,
  "ness": 1948,
  "Big": 1949,
  "225": 1950,
  "Pla": 1951,
  "Pat": 1952,
  "Sam": 1953,
  "Ye": 1954,
  "vin": 1955,
  "nia": 1956,
  "305": 1957,
  "133": 1958,
  "INE": 1959,
  "Paul": 1960,
  "Tech": 1961,
  "National": 1962,
  "tte": 1963,
  "oun": 1964,
  "nis": 1965,
  "リ": 1966,
  "Award": 1967,
  "RA": 1968,
  "YO": 1969,
  "132": 1970,
  "Steam": 1971,
  "205": 1972,
  "1863": 1973,
  "ray": 1974,
  "IE": 1975,
  "pany": 1976,
  "Media": 1977,
  "tainment": 1978,
  "215": 1979,
  "Br": 1980,
  "University": 1981,
  "FO": 1982,
  "Lou": 1983,
  "Val": 1984,
  "ensis": 1985,
  "tions": 1986,
  "Bill": 1987,
  "phy": 1988,
  "CA": 1989,
  "F1": 1990,
  "KBS": 1991,
  "bur": 1992,
  "148": 1993,
  "131": 1994,
  "Smi": 1995,
  "kg": 1996,
  "166": 1997,
  "1874": 1998,
  "XX": 1999,
  "deo": 2000,
  "1858": 2001,
  "par": 2002,
  "EF": 2003,
  "sor": 2004,
  "rin": 2005,
  "rum": 2006,
  "Cho": 2007,
  "clo": 2008,
  "147": 2009,
  "Hol": 2010,
  "mini": 2011,
  "Fri": 2012,
  "256": 2013,
  "か": 2014,
  "M2": 2015,
  "1830": 2016,
  "CBS": 2017,
  "UT": 2018,
  "gon": 2019,
  "lm": 2020,
  "1851": 2021,
  "Lee": 2022,
  "BN": 2023,
  "GA": 2024,
  "HI": 2025,
  "UI": 2026,
  "lip": 2027,
  "ric": 2028,
  "192": 2029,
  "Park": 2030,
  "td": 2031,
  "μ": 2032,
  "8000": 2033,
  "Mer": 2034,
  "now": 2035,
  "Entertainment": 2036,
  "310": 2037,
  "143": 2038,
  "his": 2039,
  "Mk": 2040,
  "1855": 2041,
  "City": 2042,
  "Black": 2043,
  "Wil": 2044,
  "Power": 2045,
  "Chu": 2046,
  "EM": 2047,
  "IX": 2048,
  "Space": 2049,
  "gar": 2050,
  "whi": 2051,
  "GM": 2052,
  "RAM": 2053,
  "185": 2055,
  "1859": 2056,
  "tho": 2057,
  "STAR": 2058,
  "Jack": 2059,
  "Charles": 2060,
  "134": 2061,
  "Java": 2062,
  "Dire": 2063,
  "ABC": 2064,
  "Gar": 2065,
  "Ter": 2066,
  "spe": 2067,
  "ship": 2068,
  "1854": 2069,
  "146": 2070,
  "301": 2071,
  "1700": 2072,
  "inter": 2073,
  "Viu": 2074,
  "stitu": 2075,
  "370": 2076,
  "Fla": 2077,
  "Ken": 2078,
  "1857": 2079,
  "Alpha": 2080,
  "Lan": 2081,
  "Stan": 2082,
  "out": 2083,
  "los": 2084,
  "Dar": 2085,
  "ا": 2086,
  "290": 2087,
  "な": 2088,
  "Life": 2089,
  "︰": 2090,
  "vs": 2091,
  "γ": 2092,
  "214": 2093,
  "420": 2094,
  "Cam": 2095,
  "т": 2096,
  "Recor": 2097,
  "Company": 2098,
  "Fun": 2099,
  "ο": 2100,
  "〜": 2101,
  "1856": 2102,
  "1853": 2103,
  "Project": 2104,
  "Dream": 2105,
  "Fan": 2106,
  "Sen": 2107,
  "dium": 2108,
  "た": 2109,
  "first": 2110,
  "Time": 2111,
  "Thomas": 2112,
  "House": 2113,
  "Pen": 2114,
  "144": 2115,
  "Saint": 2116,
  "FA": 2117,
  "OVA": 2118,
  "Py": 2119,
  "Spi": 2120,
  "Cent": 2121,
  "VO": 2122,
  "ek": 2123,
  "face": 2124,
  "A2": 2125,
  "IO": 2126,
  "dd": 2127,
  "von": 2128,
  "167": 2129,
  "Japan": 2130,
  "Street": 2131,
  "3A": 2132,
  "Cla": 2133,
  "HS": 2134,
  "SBS": 2135,
  "rence": 2136,
  "bili": 2137,
  "rist": 2138,
  "chard": 2139,
  "1841": 2140,
  "very": 2141,
  "Euro": 2142,
  "LP": 2143,
  "Plan": 2144,
  "ak": 2145,
  "ie": 2146,
  "rp": 2147,
  "bal": 2148,
  "ety": 2149,
  "Alex": 2150,
  "340": 2151,
  "PM": 2152,
  "bun": 2153,
  "if": 2154,
  "lue": 2155,
  "BLACKP": 2156,
  "Sco": 2157,
  "Tal": 2158,
  "shi ": 2159,
  "de ": 2160,
  " shi ": 2161,
  " de ": 2162,
  "yi ": 2163,
  " yi ": 2164,
  "ji ": 2165,
  "wei ": 2166,
  "zhi ": 2167,
  "yu ": 2168,
  " wei ": 2169,
  " ji ": 2170,
  " nian": 2171,
  " zhi ": 2172,
  " yu ": 2173,
  " li": 2174,
  " nian ": 2175,
  "zhong ": 2176,
  " li ": 2177,
  "zai ": 2178,
  "ren ": 2179,
  "you ": 2180,
  "guo ": 2181,
  "he ": 2182,
  "qi ": 2183,
  "bu ": 2184,
  "di ": 2185,
  " you ": 2186,
  " zai ": 2187,
  " ren ": 2188,
  " yue": 2189,
  " zhong ": 2190,
  " he ": 2191,
  "da ": 2192,
  "xi ": 2193,
  "xing ": 2194,
  "yuan ": 2195,
  "er ": 2196,
  "gong ": 2197,
  " yue ": 2198,
  "fu ": 2199,
  "si ": 2200,
  "ge ": 2201,
  "jian ": 2202,
  " guo ": 2203,
  "wu ": 2204,
  "jia ": 2205,
  " bu ": 2206,
  "jie ": 2207,
  "ke ": 2208,
  "cheng ": 2209,
  "zhu ": 2210,
  "sheng ": 2211,
  "xiang ": 2212,
  "xian ": 2213,
  "dao ": 2214,
  "bei ": 2215,
  "zi ": 2216,
  " qi ": 2217,
  "fa ": 2218,
  "hui ": 2219,
  "chu ": 2220,
  "jin ": 2221,
  " di ": 2222,
  "shu ": 2223,
  " er ": 2224,
  "ri ": 2225,
  " xi ": 2226,
  "ju ": 2227,
  "qu ": 2228,
  "zheng ": 2229,
  "hou ": 2230,
  "shou ": 2231,
  "ming ": 2232,
  "shang ": 2233,
  "dong ": 2234,
  "ta ": 2235,
  "jing ": 2236,
  "le ": 2237,
  "xue ": 2238,
  "fang ": 2239,
  "yan ": 2240,
  "zhan ": 2241,
  "ci ": 2242,
  "bao ": 2243,
  "hua ": 2244,
  "ying ": 2245,
  "ye ": 2246,
  "tong ": 2247,
  "zuo ": 2248,
  "zhe ": 2249,
  "guan ": 2250,
  " da ": 2251,
  " ri ": 2252,
  "yin ": 2253,
  "chang ": 2254,
  "xin ": 2255,
  "jiao ": 2256,
  "lu ": 2257,
  "dui ": 2258,
  "wen ": 2259,
  "ti ": 2260,
  "fen ": 2261,
  "qian ": 2262,
  "tai ": 2263,
  "jiang ": 2264,
  "xiao ": 2265,
  "bing ": 2266,
  " si ": 2267,
  "jun ": 2268,
  "dian ": 2269,
  "zhang ": 2270,
  "ping ": 2271,
  "xia ": 2272,
  "du ": 2273,
  "huo ": 2274,
  "yong ": 2275,
  "dan ": 2276,
  " ke ": 2277,
  " jia ": 2278,
  "hai ": 2279,
  "gai ": 2280,
  "wang ": 2281,
  "dai ": 2282,
  "nan ": 2283,
  "ru ": 2284,
  "qing ": 2285,
  "mu ": 2286,
  "bi ": 2287,
  "ban ": 2288,
  "liang ": 2289,
  "lai ": 2290,
  "mei ": 2291,
  "ya ": 2292,
  "shen ": 2293,
  " fu ": 2294,
  " xing ": 2295,
  "zu ": 2296,
  "wan ": 2297,
  "she ": 2298,
  "lian ": 2299,
  "min ": 2300,
  "mi ": 2301,
  "zhou ": 2302,
  "jiu ": 2303,
  "qiu ": 2304,
  "an ": 2305,
  "zhen ": 2306,
  "ben ": 2307,
  "xu ": 2308,
  "gao ": 2309,
  " ta ": 2310,
  "bo ": 2311,
  "xie ": 2312,
  "te ": 2313,
  "bian ": 2314,
  "ling ": 2315,
  "luo ": 2316,
  "yao ": 2317,
  "deng ": 2318,
  "duo ": 2319,
  "yang ": 2320,
  "quan ": 2321,
  "che ": 2322,
  "suo ": 2323,
  "zui ": 2324,
  "tian ": 2325,
  "gu ": 2326,
  "biao ": 2327,
  "fan ": 2328,
  "hu ": 2329,
  "yun ": 2330,
  "xuan ": 2331,
  "su ": 2332,
  "shan ": 2333,
  "fei ": 2334,
  "ding ": 2335,
  "liu ": 2336,
  "zong ": 2337,
  "sai ": 2338,
  "dang ": 2339,
  "ma ": 2340,
  "kai ": 2341,
  "ba ": 2342,
  "hao ": 2343,
  " de yi ": 2344,
  " bing ": 2345,
  " dao ": 2346,
  "feng ": 2347,
  "kou ": 2348,
  "tu ": 2349,
  "mian ": 2350,
  "men ": 2351,
  "nei ": 2352,
  "la ": 2353,
  "lei ": 2354,
  "san ": 2355,
  "cai ": 2356,
  "wai ": 2357,
  "chuan ": 2358,
  "jue ": 2359,
  "pai ": 2360,
  "chi ": 2361,
  " dan ": 2362,
  " jin ": 2363,
  " bei ": 2364,
  " gong ": 2365,
  " jian ": 2366,
  "guang ": 2367,
  " shi yi ": 2368,
  "lan ": 2369,
  "ni ": 2370,
  "gui ": 2371,
  "bai ": 2372,
  " zi ": 2373,
  "lin ": 2374,
  "ting ": 2375,
  " zhe ": 2376,
  "pu ": 2377,
  " xiang ": 2378,
  "na ": 2379,
  "gang ": 2380,
  "lun ": 2381,
  "neng ": 2382,
  "han ": 2383,
  "lie ": 2384,
  "ze ": 2385,
  " zhu ": 2386,
  "cheng wei ": 2387,
  "mo ": 2388,
  " yin ": 2389,
  " ge ": 2390,
  " xian ": 2391,
  " chu ": 2392,
  " shi de ": 2393,
  "mei guo ": 2394,
  "chan ": 2395,
  "shui ": 2396,
  " ju ": 2397,
  " cheng ": 2398,
  " de shi ": 2399,
  " jie ": 2400,
  " gai ": 2401,
  " wu ": 2402,
  "sui ": 2403,
  "xun ": 2404,
  "zhuan ": 2405,
  " bao ": 2406,
  " ping ": 2407,
  "lv ": 2408,
  " ta": 2409,
  "ao ": 2410,
  "zhuang ": 2411,
  "li ": 2412,
  "tou ": 2413,
  "duan ": 2414,
  " yi ji ": 2415,
  "se ": 2416,
  "huan ": 2417,
  "e ": 2418,
  "chong ": 2419,
  " wei yu ": 2420,
  "ceng ": 2421,
  "pin ": 2422,
  "cong ": 2423,
  "cha ": 2424,
  "di yi ": 2425,
  "cun ": 2426,
  "1 ": 2427,
  "a ": 2428,
  "dou ": 2429,
  "zao ": 2430,
  " hou ": 2431,
  "kong ": 2432,
  "zhao ": 2433,
  "gou ": 2434,
  "gan ": 2435,
  " ci ": 2436,
  "sha ": 2437,
  "qiang ": 2438,
  " shi ji ": 2439,
  "chao ": 2440,
  "meng ": 2441,
  " ye ": 2442,
  "kai shi ": 2443,
  "man ": 2444,
  "ce ": 2445,
  "tang ": 2446,
  "long ": 2447,
  "ai ": 2448,
  " dan": 2449,
  "kuo ": 2450,
  "ke yi ": 2451,
  " yuan ": 2452,
  " fa ": 2453,
  " yi ge ": 2454,
  "2 ": 2455,
  "tan ": 2456,
  "tuan ": 2457,
  " sheng ": 2458,
  " shi wei ": 2459,
  "ka ": 2460,
  "gong li ": 2461,
  " zhong guo ": 2462,
  "qin ": 2463,
  " tong": 2464,
  "tie ": 2465,
  " shi shi ": 2466,
  " bing": 2467,
  " ming ": 2468,
  "zheng fu ": 2469,
  "shao ": 2470,
  "can ": 2471,
  "pian ": 2472,
  " you": 2473,
  "huo de ": 2474,
  "mian ji ": 2475,
  "hang ": 2476,
  "hong ": 2477,
  "geng ": 2478,
  " huo ": 2479,
  "ji de ": 2480,
  " shi yong ": 2481,
  "tiao ": 2482,
  "xiu ": 2483,
  "chen ": 2484,
  "shuo ": 2485,
  "pi ": 2486,
  " dong ": 2487,
  "ren wei ": 2488,
  " shi jian ": 2489,
  "tao ": 2490,
  "zhi yi ": 2491,
  "zhong de ": 2492,
  "zheng zhi ": 2493,
  "huang ": 2494,
  "ran ": 2495,
  " yi zhi ": 2496,
  " shi jie ": 2497,
  "zhong guo ": 2498,
  " ri": 2499,
  "yue ": 2500,
  "chuang ": 2501,
  "nv ": 2502,
  "qu de ": 2503,
  "guo ji ": 2504,
  "yi shi ": 2505,
  " ping fang ": 2506,
  "wo ": 2507,
  "ren kou ": 2508,
  "xing de ": 2509,
  "po ": 2510,
  " shou ": 2511,
  "jin xing ": 2512,
  "rong ": 2513,
  " hao ": 2514,
  " sui ": 2515,
  "liao ": 2516,
  "mei you ": 2517,
  "diao ": 2518,
  "tuo ": 2519,
  "song ": 2520,
  "ou ": 2521,
  " mi ": 2522,
  " li de ": 2523,
  " li shi ": 2524,
  "nian ": 2525,
  " dang": 2526,
  " wei yuan ": 2527,
  " fen ": 2528,
  " wan ": 2529,
  "pei ": 2530,
  " qi zhong ": 2531,
  "zuo wei ": 2532,
  "gong si ": 2533,
  "fa guo ": 2534,
  "biao shi ": 2535,
  "   zai ": 2536,
  "yan jiu ": 2537,
  " er": 2538,
  " shang ": 2539,
  "zheng shi ": 2540,
  " hai ": 2541,
  " yin": 2542,
  " de ji ": 2543,
  "pan ": 2544,
  "tui ": 2545,
  " mei ": 2546,
  " xin ": 2547,
  " zhe": 2548,
  "dian shi ": 2549,
  "yun dong ": 2550,
  "que ": 2551,
  "bang ": 2552,
  "qie ": 2553,
  " tai ": 2554,
  " de di ": 2555,
  "cheng shi ": 2556,
  "zhi shi ": 2557,
  " shu ": 2558,
  " jiang ": 2559,
  " jing ": 2560,
  "jian de ": 2561,
  "3 ": 2562,
  "ta de ": 2563,
  "gong he ": 2564,
  "shu yu ": 2565,
  "she ji ": 2566,
  " qian ": 2567,
  "lang ": 2568,
  " ren min ": 2569,
  "dun ": 2570,
  " ren kou ": 2571,
  "zhi de ": 2572,
  "qiao ": 2573,
  "10 yue ": 2574,
  "12 yue ": 2575,
  " de zhi ": 2576,
  " ying ": 2577,
  "jing ji ": 2578,
  "dian ying ": 2579,
  "7 yue ": 2580,
  " xia ": 2581,
  " nan ": 2582,
  "zu zhi ": 2583,
  " mu ": 2584,
  "9 yue ": 2585,
  " zhang ": 2586,
  "8 yue ": 2587,
  "zhu yi ": 2588,
  "3 yue ": 2589,
  " zui ": 2590,
  "1 yue ": 2591,
  "mao ": 2592,
  " shi qi ": 2593,
  "dai biao ": 2594,
  "wa ": 2595,
  "ri ben ": 2596,
  "ying guo ": 2597,
  "5 yue ": 2598,
  "you yi ": 2599,
  "ji shi ": 2600,
  "kao ": 2601,
  "6 yue ": 2602,
  "guo de ": 2603,
  "kan ": 2604,
  "4 yue ": 2605,
  " hui ": 2606,
  " shi zhen ": 2607,
  "re ": 2608,
  "hen ": 2609,
  "mai ": 2610,
  "xian de ": 2611,
  " bi ": 2612,
  "wei yi ": 2613,
  "11 yue ": 2614,
  "che zhan ": 2615,
  "jiao yu ": 2616,
  " tong ": 2617,
  "gen ju ": 2618,
  "bu fen ": 2619,
  "yi de ": 2620,
  "da xue ": 2621,
  "yu shi ": 2622,
  "xiang gang ": 2623,
  "ming wei ": 2624,
  "xue yuan ": 2625,
  " de guo ": 2626,
  " yi yuan ": 2627,
  "4 ": 2628,
  "li shi ": 2629,
  " de yi ge ": 2630,
  " zhi hou ": 2631,
  " ru ": 2632,
  " deng ": 2633,
  "dan ren ": 2634,
  " nian 1 yue ": 2635,
  "gen ": 2636,
  "can jia ": 2637,
  " yi wei ": 2638,
  "cao ": 2639,
  "kang ": 2640,
  "5 ": 2641,
  "she hui ": 2642,
  " ti ": 2643,
  "xian shi ": 2644,
  " di qu ": 2645,
  " qing ": 2646,
  "sa ": 2647,
  "ying xiang ": 2648,
  "tai wan ": 2649,
  "shu de ": 2650,
  " ran": 2651,
  " yan ": 2652,
  " you yu ": 2653,
  "shang de ": 2654,
  "xing shi ": 2655,
  "ye shi ": 2656,
  " xue ": 2657,
  "qi shi ": 2658,
  " yin ci ": 2659,
  "formula ": 2660,
  "bie ": 2661,
  "guan li ": 2662,
  "lao ": 2663,
  "zeng ": 2664,
  "gong zuo ": 2665,
  "tong guo ": 2666,
  "le yi ": 2667,
  " nian 12 yue ": 2668,
  " xiao ": 2669,
  " ling ": 2670,
  "xing zheng ": 2671,
  "bu de ": 2672,
  "gong he guo ": 2673,
  "wei shi ": 2674,
  " li ya ": 2675,
  " nian de ": 2676,
  "er shi ": 2677,
  "ren de ": 2678,
  "zhun ": 2679,
  "zi ji ": 2680,
  "da de ": 2681,
  "2 yue ": 2682,
  "xiong ": 2683,
  " guo jia ": 2684,
  " liang ": 2685,
  "zui zhong ": 2686,
  " nian 3 yue ": 2687,
  "hui yi ": 2688,
  "kuang ": 2689,
  "   sheng ": 2690,
  "cheng li ": 2691,
  "nong ": 2692,
  " ping fang gong li ": 2693,
  "luo si ": 2694,
  "ku ": 2695,
  " nian 7 yue ": 2696,
  " jiao ": 2697,
  " nian 10 yue ": 2698,
  "fa xian ": 2699,
  " wang ": 2700,
  "chu de ": 2701,
  "miao ": 2702,
  " zhan ": 2703,
  "ha ": 2704,
  "qi de ": 2705,
  " bao kuo ": 2706,
  "fa zhan ": 2707,
  " nian 9 yue ": 2708,
  " tian ": 2709,
  "yuan de ": 2710,
  " shi you ": 2711,
  " shi zhi ": 2712,
  "qi ta ": 2713,
  "hei ": 2714,
  " nian 5 yue ": 2715,
  " qi jian ": 2716,
  "piao ": 2717,
  "suo you ": 2718,
  "kuai ": 2719,
  "si de ": 2720,
  " bo ": 2721,
  " nian 4 yue ": 2722,
  " nian 6 yue ": 2723,
  " nian 8 yue ": 2724,
  "you yu ": 2725,
  " luo ": 2726,
  "tie lu ": 2727,
  " da xue ": 2728,
  "quan guo ": 2729,
  " shi zai ": 2730,
  "6 ": 2731,
  "dao zhi ": 2732,
  "dao de ": 2733,
  "tong de ": 2734,
  "zhu yao ": 2735,
  "cheng de ": 2736,
  "can yu ": 2737,
  "lou ": 2738,
  " ma ": 2739,
  " zheng ": 2740,
  "wen hua ": 2741,
  "shuang ": 2742,
  "nuo ": 2743,
  " hua ": 2744,
  "di li ": 2745,
  " dui ": 2746,
  " ta men ": 2747,
  " lu ": 2748,
  "zhong yi ": 2749,
  "lian he ": 2750,
  "di de ": 2751,
  " zhi dao ": 2752,
  " dang ": 2753,
  " gu ": 2754,
  " nian 11 yue ": 2755,
  " tong shi ": 2756,
  " shen ": 2757,
  "bao kuo ": 2758,
  "bu shi ": 2759,
  " zhong xin ": 2760,
  "   shi ": 2761,
  "yin yue ": 2762,
  "bei bu ": 2763,
  " jiu ": 2764,
  "shu ji ": 2765,
  "yong yu ": 2766,
  "sen ": 2767,
  "   yi ": 2768,
  "ti gong ": 2769,
  " quan ": 2770,
  " zong ": 2771,
  "zai yi ": 2772,
  "xuan bu ": 2773,
  "guo jia ": 2774,
  " wei yuan hui ": 2775,
  "zu qiu ": 2776,
  " sui": 2777,
  "wen ti ": 2778,
  " zuo ": 2779,
  " nian zhi ": 2780,
  "kuan ": 2781,
  " yin wei ": 2782,
  "xue xiao ": 2783,
  "sheng yu ": 2784,
  " shi wu ": 2785,
  "jian yu ": 2786,
  "zi you ": 2787,
  "qian mi ": 2788,
  "gong you ": 2789,
  "guan xi ": 2790,
  "fang shi ": 2791,
  " wei zhi ": 2792,
  " shi zhong ": 2793,
  "hun ": 2794,
  " nian 2 yue ": 2795,
  " xu ": 2796,
  "en ": 2797,
  "bi sai ": 2798,
  "hua ren min ": 2799,
  "ying de ": 2800,
  "rang ": 2801,
  "cheng yuan ": 2802,
  "jian zhu ": 2803,
  "huo dong ": 2804,
  "jian li ": 2805,
  " gai": 2806,
  "heng ": 2807,
  "suan ": 2808,
  "yu yi ": 2809,
  "   li shi ": 2810,
  "ji yi ": 2811,
  "fen wei ": 2812,
  " de ren ": 2813,
  "she you ": 2814,
  "ren shi ": 2815,
  "zuo pin ": 2816,
  " chang ": 2817,
  " dian ": 2818,
  "tong shi ": 2819,
  "guan jun ": 2820,
  " ben ": 2821,
  "da li ": 2822,
  "ge ren ": 2823,
  " cheng wei ": 2824,
  "   sheng ping ": 2825,
  " jie": 2826,
  " xian": 2827,
  " an ": 2828,
  "zhuan ji ": 2829,
  "yu de ": 2830,
  " di er ": 2831,
  "bei jing ": 2832,
  " ji hua ": 2833,
  " you xi ": 2834,
  "jiu shi ": 2835,
  "xiao shi ": 2836,
  " liu ": 2837,
  "hua ren min gong he guo ": 2838,
  "yin wei ": 2839,
  "gei ": 2840,
  " ta de ": 2841,
  "men de ": 2842,
  " li yu ": 2843,
  "qun ": 2844,
  " nian dai ": 2845,
  " ba ": 2846,
  "dui yu ": 2847,
  "xi de ": 2848,
  "ming de ": 2849,
  " a ": 2850,
  "jun shi ": 2851,
  " cong ": 2852,
  "di shi ": 2853,
  "tong yi ": 2854,
  "di er ": 2855,
  "xin de ": 2856,
  "qu yu ": 2857,
  " bu fen ": 2858,
  "xue jia ": 2859,
  "e luo si ": 2860,
  "zou ": 2861,
  "ta men ": 2862,
  " duo ": 2863,
  "chun ": 2864,
  "wei de ": 2865,
  "shou dao ": 2866,
  "min guo ": 2867,
  "hou de ": 2868,
  "er de ": 2869,
  "sheng de ": 2870,
  "lai de ": 2871,
  "fang mian ": 2872,
  "fa sheng ": 2873,
  "zheng fu": 2874,
  "gong ji ": 2875,
  "dan wei ": 2876,
  " feng ": 2877,
  " hu ": 2878,
  "xing wei ": 2879,
  " shi ren ": 2880,
  " yi jing ": 2881,
  "yong you ": 2882,
  " fan ": 2883,
  "zhong shi ": 2884,
  "jin shi ": 2885,
  " lian ": 2886,
  " xi tong ": 2887,
  "jue ding ": 2888,
  "bu yu ": 2889,
  " gong li ": 2890,
  " qu ": 2891,
  " zhong yang ": 2892,
  "ju you ": 2893,
  " mian ji ": 2894,
  "1 ri ": 2895,
  "tong zhi ": 2896,
  "di qu ": 2897,
  "ni ya ": 2898,
  "liang ge ": 2899,
  " guan ": 2900,
  "fa xing ": 2901,
  "qu wei ": 2902,
  " ri ben ": 2903,
  " gao ": 2904,
  " fei ": 2905,
  " wen ": 2906,
  "you de ": 2907,
  "chu xian ": 2908,
  " te ": 2909,
  "sheng ji ": 2910,
  " suo ": 2911,
  "zh ": 2912,
  "hua de ": 2913,
  " ren kou mi ": 2914,
  "ci shi ": 2915,
  "qi yu ": 2916,
  "zi zhi ": 2917,
  "wu de ": 2918,
  "lai zi ": 2919,
  "ju xing ": 2920,
  " ta zai ": 2921,
  "ling yi ": 2922,
  "jia de ": 2923,
  " ji yu ": 2924,
  "xian zhi ": 2925,
  " suo": 2926,
  " wei ji ": 2927,
  "mian ji wei ": 2928,
  " su ": 2929,
  "hui de ": 2930,
  "s ": 2931,
  "bao hu ": 2932,
  " san ": 2933,
  "nan bu ": 2934,
  "du li ": 2935,
  " ping fang qian mi ": 2936,
  "shu ju ": 2937,
  "kong zhi ": 2938,
  " shi yu ": 2939,
  "zong tong ": 2940,
  "jin ru ": 2941,
  " shi wei yu ": 2942,
  " li ru ": 2943,
  "ren wu ": 2944,
  "qu shi ": 2945,
  "ke li ": 2946,
  "yao qiu ": 2947,
  "mou ": 2948,
  "   de ": 2949,
  " 15": 2950,
  " wo ": 2951,
  " mei guo ": 2952,
  "gt ": 2953,
  " gt ": 2954,
  "gu shi ": 2955,
  "cheng ji ": 2956,
  " ran er ": 2957,
  " guang ": 2958,
  "lt ": 2959,
  " ru": 2960,
  "xue sheng ": 2961,
  " bian ": 2962,
  "   yu ": 2963,
  " wan": 2964,
  "jin de ": 2965,
  " dan shi ": 2966,
  "min zhu ": 2967,
  " cai ": 2968,
  "gong shi ": 2969,
  "wan cheng ": 2970,
  " yi qi ": 2971,
  "lie che ": 2972,
  "you ji ": 2973,
  "ke neng ": 2974,
  " lt ": 2975,
  " yi bu ": 2976,
  "shen zhi ": 2977,
  " bing yu ": 2978,
  "zha ": 2979,
  "ren zhi ": 2980,
  "ping fang ": 2981,
  "you shi ": 2982,
  " yong ": 2983,
  " bing zai ": 2984,
  " ji shu ": 2985,
  "chao guo ": 2986,
  "ti yu ": 2987,
  "yuan shi ": 2988,
  "cang ": 2989,
  "cun zai ": 2990,
  "qian wang ": 2991,
  "ke de ": 2992,
  "ya li ": 2993,
  "dang shi ": 2994,
  "si shi ": 2995,
  "xue xi ": 2996,
  "yong de ": 2997,
  " de yi ge": 2998,
  "jing guo ": 2999,
  " ceng": 3000,
  " kai ": 3001,
  "nei de ": 3002,
  "fa bu ": 3003,
  " shan ": 3004,
  "zuo de ": 3005,
  " zhi wei ": 3006,
  "jian yi ": 3007,
  " han ": 3008,
  "guan yu ": 3009,
  " a": 3010,
  "   di ": 3011,
  "wu ke ": 3012,
  "wu shi ": 3013,
  "xiang gang": 3014,
  "zhu ren ": 3015,
  " zhi jian ": 3016,
  " 16": 3017,
  "yin du ": 3018,
  " pu ": 3019,
  "zhan shi ": 3020,
  "zhan zheng ": 3021,
  " qi ta ": 3022,
  "guo shi ": 3023,
  "sun ": 3024,
  "pao ": 3025,
  "zhu yao": 3026,
  "sheng huo ": 3027,
  "zhou de ": 3028,
  "xu duo ": 3029,
  "jian zhi ": 3030,
  " ji wei ": 3031,
  "fan wei ": 3032,
  "bin ": 3033,
  " yi shu ": 3034,
  " ji qi ": 3035,
  " wei er ": 3036,
  "cheng gong ": 3037,
  "han guo ": 3038,
  "ou zhou ": 3039,
  "zhu xi ": 3040,
  "lu de ": 3041,
  "jie shou ": 3042,
  "qiu dui ": 3043,
  " zhi you ": 3044,
  " shu yu ": 3045,
  " zai": 3046,
  "dai biao": 3047,
  " ji zhong ": 3048,
  " jin": 3049,
  "fu wu ": 3050,
  "zeng jia ": 3051,
  " bu guo ": 3052,
  "ban de ": 3053,
  "s   ": 3054,
  " bai ": 3055,
  "gong yuan ": 3056,
  " you xian ": 3057,
  " mo ": 3058,
  " 000": 3059,
  "xiao xing ": 3060,
  "xia de ": 3061,
  "   gai ": 3062,
  " zhe xie ": 3063,
  " zhi chu ": 3064,
  "he yi ": 3065,
  "shang hai ": 3066,
  "duo de ": 3067,
  " ao ": 3068,
  "hou yi ": 3069,
  "san shi ": 3070,
  "   zhi ": 3071,
  "ning ": 3072,
  " ci wai ": 3073,
  "fu de ": 3074,
  "ju li ": 3075,
  "huai ": 3076,
  "si ji ": 3077,
  "zu cheng ": 3078,
  " gen ju ": 3079,
  " ba": 3080,
  "yun dong yuan ": 3081,
  "jiao tong ": 3082,
  " zhi zuo ": 3083,
  " zhi chi ": 3084,
  "ma wei ": 3085,
  "gao du ": 3086,
  "7 ": 3087,
  "chang de ": 3088,
  " nian qi ": 3089,
  "zhu jiao ": 3090,
  " zh ": 3091,
  "zhe xie ": 3092,
  "niu ": 3093,
  "ge zhong ": 3094,
  " ceng ": 3095,
  " zhi wu ": 3096,
  "xu yao ": 3097,
  " zai ci ": 3098,
  "jue se ": 3099,
  "chong xin ": 3100,
  "chu le ": 3101,
  "ti de ": 3102,
  "tui chu ": 3103,
  " li ji ": 3104,
  "zhe ge ": 3105,
  "jing li ": 3106,
  " 17": 3107,
  "xiang de ": 3108,
  " zui zhong ": 3109,
  "gong cheng ": 3110,
  " dang shi ": 3111,
  "qi yi ": 3112,
  "da shi ": 3113,
  "chu yu ": 3114,
  " ren he ": 3115,
  " ai": 3116,
  " she ": 3117,
  "wu zhong ": 3118,
  "du wei ": 3119,
  "ren min ": 3120,
  "zi de ": 3121,
  " du ": 3122,
  "xuan ju ": 3123,
  "lian sai ": 3124,
  "   di li ": 3125,
  "zi ji de ": 3126,
  " ye": 3127,
  " wei le ": 3128,
  " ren wu ": 3129,
  "ge qu ": 3130,
  " huo": 3131,
  " nian jian ": 3132,
  "dang di ": 3133,
  "kai fa ": 3134,
  " lai ": 3135,
  "fu ze ": 3136,
  "   wei ": 3137,
  " wei qi ": 3138,
  "gong chan ": 3139,
  "xian zai ": 3140,
  " zhi yu ": 3141,
  " ren yuan ": 3142,
  " ma": 3143,
  "zhe yi ": 3144,
  "liang wei ": 3145,
  "jie shu ": 3146,
  "ya de ": 3147,
  "chu li ": 3148,
  "jie mu ": 3149,
  " lei ": 3150,
  "guan de ": 3151,
  " ban ": 3152,
  "nv zi ": 3153,
  "sai shi ": 3154,
  "2010 nian ": 3155,
  "ding de ": 3156,
  "rui ": 3157,
  "dui de ": 3158,
  "ri ben": 3159,
  " hou lai ": 3160,
  "fan ying ": 3161,
  "chu ban ": 3162,
  "jie de ": 3163,
  "chan sheng ": 3164,
  "juan ": 3165,
  "shou ci ": 3166,
  "she shi ": 3167,
  "lei si ": 3168,
  " shi yi ge ": 3169,
  " yang ": 3170,
  "dong wu ": 3171,
  "ba shi ": 3172,
  " C": 3173,
  "jing shi ": 3174,
  " ji xu ": 3175,
  " na ": 3176,
  "le bu ": 3177,
  "jie shi ": 3178,
  "8 ": 3179,
  "xiang shi ": 3180,
  "ruo ": 3181,
  "bo shi ": 3182,
  "ke neng": 3183,
  " dai ": 3184,
  "an de ": 3185,
  "nan zi ": 3186,
  " A": 3187,
  " jiang": 3188,
  "du de ": 3189,
  "guan xia ": 3190,
  "san nian ": 3191,
  " ai ": 3192,
  "zao cheng ": 3193,
  " mei": 3194,
  "hai shi ": 3195,
  "yang de ": 3196,
  "dong shi ": 3197,
  "she li ": 3198,
  " 1 ": 3199,
  "zhong zhi ": 3200,
  "yan jiu": 3201,
  "dao le ": 3202,
  "shan xi ": 3203,
  " 0": 3204,
  "guo yi ": 3205,
  " zhen ": 3206,
  " ya ": 3207,
  " suo yi ": 3208,
  " ji zhi ": 3209,
  "zhong yu ": 3210,
  "fen bu ": 3211,
  "nv xing ": 3212,
  " he zuo ": 3213,
  "dou shi ": 3214,
  "jun de ": 3215,
  "   qi ": 3216,
  "guo yu ": 3217,
  "dong de ": 3218,
  "dai de ": 3219,
  "lian meng ": 3220,
  "zheng de ": 3221,
  "fang fa ": 3222,
  " zhi zhi ": 3223,
  "2020 nian ": 3224,
  " yi si ": 3225,
  "wu li ": 3226,
  "xiang mu ": 3227,
  "jiao shou ": 3228,
  "fang de ": 3229,
  "mei ping fang ": 3230,
  "zheng zhi ren wu ": 3231,
  "cai yong ": 3232,
  "di wei ": 3233,
  " tu ": 3234,
  " cong": 3235,
  "liang de ": 3236,
  " zai di ": 3237,
  " xuan ": 3238,
  "   ren kou ": 3239,
  "chuan tong ": 3240,
  "yuan yu ": 3241,
  "zhan de ": 3242,
  "zhu de ": 3243,
  "   you ": 3244,
  "hua min guo ": 3245,
  "xi tong ": 3246,
  "cheng ren ": 3247,
  " ze ": 3248,
  " ri zai ": 3249,
  " gui ": 3250,
  "jia ru ": 3251,
  "fa de ": 3252,
  "2001 nian ": 3253,
  "ge shi ": 3254,
  " nian yi ": 3255,
  "xin wen ": 3256,
  " ran ": 3257,
  "yan yuan ": 3258,
  "hao de ": 3259,
  " li si ": 3260,
  "   ji ": 3261,
  " ji ji ": 3262,
  "fu shi ": 3263,
  " bei": 3264,
  " yi hui ": 3265,
  "xiang guan ": 3266,
  "ying yu ": 3267,
  "dao shi ": 3268,
  "bian ma wei ": 3269,
  "tai wan": 3270,
  "he shi ": 3271,
  " ji lu ": 3272,
  "bo wu ": 3273,
  "xue de ": 3274,
  "hou zai ": 3275,
  " wei fu ": 3276,
  " ta men": 3277,
  "lian jie ": 3278,
  " de yi ge shi zhen ": 3279,
  "bao kuo": 3280,
  " yi yi ": 3281,
  "10 ": 3282,
  " xue ming ": 3283,
  "xi ji ": 3284,
  "zui jia ": 3285,
  "ming cheng ": 3286,
  " xi ya ": 3287,
  "ti chu ": 3288,
  "mu si ": 3289,
  " xie ": 3290,
  "ling shi ": 3291,
  " zhe shi ": 3292,
  "er nian ": 3293,
  "xiao de ": 3294,
  "hai you ": 3295,
  "mian de ": 3296,
  " wei zhu ": 3297,
  " ren kou mi du ": 3298,
  " zong": 3299,
  " li yi ": 3300,
  "ge de ": 3301,
  " zhi jie ": 3302,
  " la ": 3303,
  "zui gao ": 3304,
  "dong ji ": 3305,
  " zhou ": 3306,
  "   jia ": 3307,
  " ye shi ": 3308,
  " shi yi zhong ": 3309,
  "yan de ": 3310,
  "xia ji ": 3311,
  " yu shi ": 3312,
  "ge ming ": 3313,
  " ci": 3314,
  "ye yu ": 3315,
  " gong si ": 3316,
  " fang ": 3317,
  " nian zai ": 3318,
  "yao de ": 3319,
  " qiu ": 3320,
  "gai wei ": 3321,
  " yi xie ": 3322,
  "zai de ": 3323,
  "shu shi ": 3324,
  "hai jun ": 3325,
  " jun ": 3326,
  " ka ": 3327,
  "jia zhi ": 3328,
  " S": 3329,
  "sheng wu ": 3330,
  "zhe zhong ": 3331,
  "chang shi ": 3332,
  " liang": 3333,
  "hui shi ": 3334,
  "yan zhong ": 3335,
  "gai guo ": 3336,
  "na da ": 3337,
  "zhu shi ": 3338,
  "qing kuang": 3339,
  "zheng yi ": 3340,
  "zhai ": 3341,
  "bian de ": 3342,
  "ke ji ": 3343,
  " zuo wei ": 3344,
  "hui fu ": 3345,
  " zhi qian ": 3346,
  "mei ti ": 3347,
  "zai yu ": 3348,
  "luan ": 3349,
  "xin xi ": 3350,
  " yi zhong ": 3351,
  "gao de ": 3352,
  "wen wu ": 3353,
  "jie guo ": 3354,
  "jian shi ": 3355,
  "qi zhi ": 3356,
  " ji zai ": 3357,
  " 18": 3358,
  "min zu ": 3359,
  "shui yu ": 3360,
  "qian de ": 3361,
  "he de ": 3362,
  "yan chang ": 3363,
  " ni ": 3364,
  "chou ": 3365,
  "zhu jian ": 3366,
  "fan dui ": 3367,
  " 2 ": 3368,
  "neng li ": 3369,
  " wei you ": 3370,
  " ke si ": 3371,
  "   S": 3372,
  "   xing zheng ": 3373,
  " ke yi ": 3374,
  "ge li ": 3375,
  "gong kai ": 3376,
  "hua shi ": 3377,
  " bu tong ": 3378,
  "xing zhi ": 3379,
  " mi": 3380,
  "si yu ": 3381,
  "lei de ": 3382,
  " zhu yao ": 3383,
  " chong ": 3384,
  "bei shi ": 3385,
  "huan jing ": 3386,
  "jie gou ": 3387,
  "jiang jun ": 3388,
  "zhang de ": 3389,
  "peng ": 3390,
  " xiang gang ": 3391,
  "chuang zuo ": 3392,
  "xian yu ": 3393,
  "shang ye ": 3394,
  "   ben ": 3395,
  "zan ": 3396,
  "   formula ": 3397,
  " 14": 3398,
  "gao su ": 3399,
  " zhe ge ": 3400,
  "sai ji ": 3401,
  "mo shi ": 3402,
  "a er ": 3403,
  " di yi ": 3404,
  "zhe de ": 3405,
  "biao xian ": 3406,
  " zhong hua ren min gong he guo ": 3407,
  "tong ji ": 3408,
  " hong ": 3409,
  " ling": 3410,
  "jun dui ": 3411,
  "of   ": 3412,
  " li wei ": 3413,
  "da lu ": 3414,
  " chen ": 3415,
  "zhu li ": 3416,
  "sheng ya ": 3417,
  "ge yue ": 3418,
  " yun ": 3419,
  "sheng li ": 3420,
  "the   ": 3421,
  "quan li ": 3422,
  "wu fa ": 3423,
  " tang ": 3424,
  "dong bu ": 3425,
  "zhou shi ": 3426,
  "zong jiao ": 3427,
  "ge lan ": 3428,
  " nian shi ": 3429,
  "diao cha ": 3430,
  "si nian ": 3431,
  "tou guo ": 3432,
  " yi ban ": 3433,
  "bu fen": 3434,
  "biao zhun ": 3435,
  "   gen ju ": 3436,
  "hang kong ": 3437,
  "bi ye ": 3438,
  "hui zai ": 3439,
  "   ci ": 3440,
  " yi ci ": 3441,
  " dang di ": 3442,
  "shen fen ": 3443,
  " yao ": 3444,
  "di zhi ": 3445,
  "gong lu ": 3446,
  "fa yuan ": 3447,
  " 1": 3448,
  " nei ": 3449,
  " de yi bu fen ": 3450,
  "bu yi ": 3451,
  "di yu ": 3452,
  "jia li ": 3453,
  "gong zuo": 3454,
  "jin ji ": 3455,
  "cheng zhong ": 3456,
  "bing bu ": 3457,
  "sai de ": 3458,
  " tai wan ": 3459,
  " 9": 3460,
  "quan bu ": 3461,
  "ba gao du ": 3462,
  " bing qie": 3463,
  " ji tuan ": 3464,
  " ming": 3465,
  "xie hui ": 3466,
  "jiao shi ": 3467,
  "fei chang ": 3468,
  "dong hua ": 3469,
  "an quan ": 3470,
  " zhi xing ": 3471,
  "bi de ": 3472,
  " huang ": 3473,
  "cha de ": 3474,
  " lin ": 3475,
  "sheng chan ": 3476,
  "zi liao ": 3477,
  "fu he ": 3478,
  "jing de ": 3479,
  "tuan ti ": 3480,
  "luo ma ": 3481,
  "jie zhi ": 3482,
  " B": 3483,
  "bei ren ": 3484,
  "fen bie": 3485,
  "chao xian ": 3486,
  "gai di ": 3487,
  " zhuan ": 3488,
  " 2": 3489,
  "ding yi ": 3490,
  "xing dong ": 3491,
  "xia yi ": 3492,
  "jin biao ": 3493,
  "ping jun ": 3494,
  " liu": 3495,
  "   A": 3496,
  " jin xing ": 3497,
  "wen xue ": 3498,
  "du shi ": 3499,
  " ru guo ": 3500,
  "ren kou pu ": 3501,
  "la si ": 3502,
  "qing kuang ": 3503,
  "jia ji ": 3504,
  "gong gong ": 3505,
  "jie fang ": 3506,
  " zhi yuan ": 3507,
  " zu ": 3508,
  "ju min ": 3509,
  " zhi hui ": 3510,
  " qi hou ": 3511,
  " gu": 3512,
  "dong bei ": 3513,
  "shou de ": 3514,
  " bao kuo": 3515,
  "shang shi ": 3516,
  " ji di ": 3517,
  " 3": 3518,
  "she zhi ": 3519,
  "   of   ": 3520,
  " wo": 3521,
  "yan chu ": 3522,
  "qiu yuan ": 3523,
  "yuan yi ": 3524,
  " yu ji ": 3525,
  "sai zhong ": 3526,
  "ke xue ": 3527,
  "yan shi ": 3528,
  " fen": 3529,
  " da": 3530,
  " chuan ": 3531,
  "gong tong ": 3532,
  "ling dao ": 3533,
  " 5": 3534,
  "ren yi ": 3535,
  " 4": 3536,
  "zuo pin": 3537,
  "zuo you ": 3538,
  " nan": 3539,
  "er ji ": 3540,
  " de zhu ": 3541,
  "fa biao ": 3542,
  "zai shi ": 3543,
  "28 ri ": 3544,
  "ao yun ": 3545,
  "kong jian ": 3546,
  "xing ji ": 3547,
  "gai bian ": 3548,
  "ye you ": 3549,
  "san ge ": 3550,
  "wu zhi ": 3551,
  "deng di ": 3552,
  " ling wai ": 3553,
  "jia shi ": 3554,
  " zhao ": 3555,
  " di guo ": 3556,
  "you xi ": 3557,
  "de   ": 3558,
  " jiu": 3559,
  "yuan he ": 3560,
  "fang zhi ": 3561,
  "deng ren ": 3562,
  " er shi ": 3563,
  "xue shi ": 3564,
  "guan zhong ": 3565,
  "lan de ": 3566,
  " che ": 3567,
  "lu xian ": 3568,
  " dan ren ": 3569,
  "xue wei ": 3570,
  "d   ": 3571,
  "shu wei ": 3572,
  "ze shi ": 3573,
  "ju de ": 3574,
  "bao dao ": 3575,
  " huo de ": 3576,
  " li zhi ": 3577,
  "qi wei ": 3578,
  "zhui ": 3579,
  "he ji ": 3580,
  "lve ": 3581,
  "chu ren ": 3582,
  "bu tong ": 3583,
  "qing nian ": 3584,
  "2008 nian ": 3585,
  "guo li ": 3586,
  "zuo yong ": 3587,
  "bang zhu ": 3588,
  "ao lin ": 3589,
  "pi ke ": 3590,
  "2016 nian ": 3591,
  "gong de ": 3592,
  "zao dao ": 3593,
  " ke neng ": 3594,
  "ai er ": 3595,
  " yu qi ": 3596,
  " ri zhi ": 3597,
  " fu ze ": 3598,
  "   zhong ": 3599,
  "zu de ": 3600,
  "dan qu ": 3601,
  " yu yan ": 3602,
  "jiang qi ": 3603,
  "ju ji ": 3604,
  "lu di ": 3605,
  " da dao ": 3606,
  "gui dao ": 3607,
  " you guan ": 3608,
  "15 ri ": 3609,
  "tong chang ": 3610,
  "shou ji ": 3611,
  " yi you ": 3612,
  "ta men": 3613,
  "ban ben ": 3614,
  "fei ji ": 3615,
  " yi yu ": 3616,
  "tu di ": 3617,
  "xian dai ": 3618,
  "yuan nian ": 3619,
  "2009 nian ": 3620,
  " 12": 3621,
  "sheng de yi ge shi zhen ": 3622,
  "ma li ": 3623,
  " zhi jian de ": 3624,
  "ya zhou ": 3625,
  "xi ban ": 3626,
  " mu qian ": 3627,
  "bian hua ": 3628,
  " shui ": 3629,
  "   ju ": 3630,
  "jing nei ": 3631,
  "jie he ": 3632,
  "pa ": 3633,
  "t ": 3634,
  " shi xing ": 3635,
  "gong ye ": 3636,
  "hui he ": 3637,
  "jue sai ": 3638,
  "wu nian ": 3639,
  "tai ping ": 3640,
  "jia yi ": 3641,
  "hou yu ": 3642,
  " bing qie ": 3643,
  "2011 nian ": 3644,
  " pai ": 3645,
  " si ke ": 3646,
  "2012 nian ": 3647,
  "zao qi ": 3648,
  "nei rong ": 3649,
  "zheng ce ": 3650,
  " wei zhong ": 3651,
  "guang bo ": 3652,
  " 8": 3653,
  "zhan yi ": 3654,
  " ding ": 3655,
  "xian ren ": 3656,
  "ta zai ": 3657,
  "mei yuan ": 3658,
  " mo": 3659,
  "jiao yi ": 3660,
  "pi ping ": 3661,
  "xing cheng ": 3662,
  " hai ba gao du ": 3663,
  "25 ri ": 3664,
  "jiao hui ": 3665,
  "miao shu ": 3666,
  "m ": 3667,
  " bu dui ": 3668,
  " ha": 3669,
  " zhi ye ": 3670,
  " er si ": 3671,
  "wan quan ": 3672,
  " dan zai ": 3673,
  "xuan ze ": 3674,
  "yuan yin ": 3675,
  " si te ": 3676,
  " ta yu ": 3677,
  "UTC ": 3678,
  " si": 3679,
  "bo li ": 3680,
  "zao de ": 3681,
  " E": 3682,
  " he wu ": 3683,
  "jian she ": 3684,
  " yue de ": 3685,
  "xie yi ": 3686,
  "chu shi ": 3687,
  "xiao shuo ": 3688,
  "wu ke lan ": 3689,
  "chang qi ": 3690,
  "yun dong hui ": 3691,
  " D": 3692,
  "bei cheng wei ": 3693,
  "lian bang ": 3694,
  " di san ": 3695,
  " wei di ": 3696,
  " ren wei ": 3697,
  " jian cheng ": 3698,
  "30 ri ": 3699,
  " dang zhong ": 3700,
  "10 ri ": 3701,
  " shi yan ": 3702,
  " de dao ": 3703,
  "chi xu ": 3704,
  "zui da ": 3705,
  "wen hua": 3706,
  " e ": 3707,
  " qie": 3708,
  "20 ri ": 3709,
  "ming ming ": 3710,
  " xun ": 3711,
  "zu he ": 3712,
  "yuan zhu ": 3713,
  "duo shu ": 3714,
  "dian zi ": 3715,
  "se de ": 3716,
  "zhuan ye ": 3717,
  " yi ming ": 3718,
  " ta shi ": 3719,
  "xing yu ": 3720,
  "2014 nian ": 3721,
  "hou lai ": 3722,
  "lin shi ": 3723,
  "gong si": 3724,
  " T": 3725,
  " mian ": 3726,
  "sheng he ": 3727,
  " you cheng ": 3728,
  "er wei ": 3729,
  "wu yuan ": 3730,
  "bu li ": 3731,
  "jie dao ": 3732,
  " meng ": 3733,
  "fu zhi ": 3734,
  "ba li ": 3735,
  "zi ge ": 3736,
  " 7": 3737,
  "chu qi ": 3738,
  "2018 nian ": 3739,
  "bu ji ": 3740,
  "2019 nian ": 3741,
  " 6": 3742,
  "er zi ": 3743,
  " 5 ": 3744,
  "t   ": 3745,
  "dong nan ": 3746,
  "gao zhong ": 3747,
  "fa lv ": 3748,
  "ta men de ": 3749,
  " ji gou ": 3750,
  "za zhi ": 3751,
  " ji jin ": 3752,
  " di si ": 3753,
  " shi wei yu mei guo ": 3754,
  "da dao ": 3755,
  " jin guan ": 3756,
  "ye de ": 3757,
  "2013 nian ": 3758,
  " wei yu gai guo ": 3759,
  " guo min ": 3760,
  "fa zhan": 3761,
  "a la ": 3762,
  "kui ": 3763,
  " yue zhi ": 3764,
  " li ke ": 3765,
  "tu er ": 3766,
  "sheng wei ": 3767,
  " shi jie da ": 3768,
  " san": 3769,
  "bao gao ": 3770,
  "zhong ji ": 3771,
  "24 ri ": 3772,
  "dao yi ": 3773,
  "2015 nian ": 3774,
  " li yong ": 3775,
  " li kai ": 3776,
  "fang xiang ": 3777,
  " sui hou ": 3778,
  "nei bu ": 3779,
  " yu zhong ": 3780,
  "guo min ": 3781,
  "guang dong ": 3782,
  "gui ding ": 3783,
  "wang de ": 3784,
  "9 ": 3785,
  "bo wu guan ": 3786,
  " ke": 3787,
  " geng ": 3788,
  "luo de ": 3789,
  "26 ri ": 3790,
  "can sai ": 3792,
  " M": 3793,
  " yue shi ": 3794,
  " ying guo ": 3795,
  " zhe zhong ": 3796,
  "2007 nian ": 3797,
  "mu biao ": 3798,
  " wei si ": 3799,
  "she qu ": 3800,
  " yu zhi ": 3801,
  "guan zhi ": 3802,
  " tong nian ": 3803,
  "dian li ": 3804,
  "2005 nian ": 3805,
  "gong chan dang ": 3807,
  "die ": 3808,
  "18 ri ": 3809,
  " you qi ": 3810,
  " xi lie ": 3811,
  "xian yi ": 3812,
  " wai ": 3813,
  "te bie": 3814,
  " fen bu yu ": 3815,
  "ao lin pi ke ": 3816,
  "lian xi ": 3817,
  "bing wei ": 3818,
  "gong bu ": 3819,
  " ji chang ": 3820,
  "fu li ": 3821,
  "ju ban ": 3822,
  " sha ": 3823,
  "mu de ": 3824,
  " chu le ": 3825,
  " 2001 nian ": 3826,
  " gan ": 3827,
  "lie de ": 3828,
  " shi he ": 3829,
  "chang wei ": 3830,
  "wu xian ": 3831,
  " er sheng ": 3832,
  " P": 3833,
  "bi li ": 3834,
  "quan qiu ": 3835,
  "shen de ": 3836,
  "tou zi ": 3837,
  " shi zi ": 3838,
  "2017 nian ": 3839,
  "mu di ": 3840,
  "16 ri ": 3841,
  " ji he ": 3842,
  "yin hang ": 3843,
  "ding wei ": 3844,
  " que": 3845,
  " duo": 3846,
  "dong jing ": 3847,
  "shang shu ": 3848,
  "fu yi ": 3849,
  "dao yu ": 3850,
  "dang de ": 3851,
  "guan fang ": 3852,
  " 13": 3853,
  "guo zhi ": 3854,
  "17 ri ": 3855,
  "pai she ": 3856,
  "zi yu ": 3857,
  "hua xue ": 3858,
  "shou yu ": 3859,
  "kai fang ": 3860,
  " min ": 3861,
  " you xian gong si ": 3862,
  "   zheng zhi ": 3863,
  "21 ri ": 3864,
  "bu zhi ": 3865,
  " de shi zhen ": 3866,
  "gai nian ": 3867,
  "27 ri ": 3868,
  "bao fa ": 3869,
  " zhong xue ": 3870,
  "zhe shi ": 3871,
  "ka er ": 3872,
  "19 ri ": 3873,
  "2006 nian ": 3874,
  "8 ri ": 3875,
  "jun wei ": 3876,
  "11 ri ": 3877,
  " li fa ": 3878,
  "ming zi ": 3879,
  "ying yong ": 3880,
  "12 ri ": 3881,
  "23 ri ": 3882,
  "shang you ": 3883,
  "ce shi ": 3884,
  " song ": 3885,
  " hao mi ": 3886,
  " fu wu ": 3887,
  " yin ci": 3888,
  "su lian ": 3889,
  "mei guo ren kou pu ": 3890,
  "xian wei ": 3891,
  " de wei ": 3892,
  "fei xing ": 3893,
  " zhi ji ": 3894,
  "shu liang wei ": 3895,
  "7 ri ": 3896,
  "qi jian ": 3897,
  "ju le bu ": 3898,
  "fu yu ": 3899,
  "yin shi ": 3900,
  "xue zhe ": 3901,
  "huang di ": 3902,
  "hui yu ": 3903,
  "qi ji ": 3904,
  "2021 nian ": 3905,
  "ban shi ": 3906,
  "xi lie ": 3907,
  "bo chu ": 3908,
  " de zhong ": 3909,
  " qie ": 3910,
  "22 ri ": 3911,
  "gui mo ": 3912,
  " shi fa guo ": 3913,
  " sai ": 3914,
  "bi xu ": 3915,
  "ling yu ": 3916,
  "9 ri ": 3917,
  " 3 ": 3918,
  "shan dong ": 3919,
  "gong neng ": 3920,
  " �": 3921,
  "29 ri ": 3922,
  "chu yi ": 3923,
  " G": 3924,
  "yin qi ": 3925,
  " 6 ": 3926,
  "guan yuan ": 3927,
  "ying shi ": 3928,
  "te de ": 3929,
  "zui da de ": 3930,
  "zheng zai ": 3931,
  " yue han ": 3932,
  "xun lian ": 3933,
  "kun ": 3934,
  " ji bai ": 3935,
  "jing ying ": 3936,
  "feng ge ": 3937,
  " F": 3938,
  "2022 nian ": 3939,
  "fu jin ": 3940,
  "ting zhi ": 3941,
  "neng gou ": 3942,
  "suo shu de ": 3943,
  "ping jia ": 3944,
  "sheng ming ": 3945,
  "3 ri ": 3946,
  "14 ri ": 3947,
  "ge di ": 3948,
  "zhu zai ": 3949,
  "qing kuang xia ": 3950,
  "yuan ji ": 3951,
  "shou shi ": 3952,
  "tiao jian ": 3953,
  "jiao de ": 3954,
  "21 ": 3955,
  "5 ri ": 3956,
  "sheng zai ": 3957,
  "qu hua ": 3958,
  "   C": 3959,
  "sheng chan": 3960,
  "tai de ": 3961,
  "xi shi ": 3962,
  "shang wei ": 3963,
  " pi ": 3964,
  "she de ": 3965,
  "mai ke ": 3966,
  "   you yu ": 3967,
  "ya yu ": 3968,
  " dao zhi ": 3969,
  "jin zhi ": 3970,
  "31 ri ": 3971,
  " bu jiu ": 3972,
  "jie chu ": 3973,
  " kai shi ": 3974,
  " lv ": 3975,
  "yuan zhi ": 3976,
  " da hui ": 3977,
  "lian meng": 3978,
  "xiao xing xing ": 3979,
  "4 ri ": 3980,
  "chao ji ": 3981,
  "2 ri ": 3982,
  "xiong di ": 3983,
  "da ji ": 3984,
  " ren zhong ": 3985,
  " zui hou ": 3986,
  "dian de ": 3987,
  "6 ri ": 3988,
  "A ": 3989,
  "hai yu ": 3990,
  "zang ": 3991,
  "   the   ": 3992,
  "bo te ": 3993,
  " gong chi ": 3994,
  "liu xing ": 3995,
  "ge ji ": 3996,
  "13 ri ": 3997,
  "nan xing ": 3998,
  " sui ran ": 3999,
  "wen wu bao hu ": 4000,
  " nian dai": 4001,
  "te zheng ": 4002,
  "ren he ": 4003,
  "wu ji ": 4004,
  " man ": 4005,
  "ge wei ": 4006,
  " qiang ": 4007,
  "ren ji ": 4008,
  "lv you ": 4009,
  "zuo jia ": 4010,
  "ke da ": 4011,
  "si ren ": 4012,
  " tong guo ": 4013,
  "ge shou ": 4014,
  " xin": 4015,
  " jue ": 4016,
  " shen zhi ": 4017,
  "yin ci ": 4018,
  "huang jia ": 4019,
  "fen xi ": 4020,
  "ou zhou": 4021,
  "br ": 4022,
  "jian wei ": 4023,
  "sheng fen ": 4024,
  " ling yi ": 4025,
  "zong he ": 4026,
  "xu duo": 4027,
  "d ": 4028,
  "lie che": 4029,
  "r ": 4030,
  "ju ren ": 4031,
  "niu yue ": 4032,
  " br ": 4033,
  "   jin ": 4034,
  "ban dao ": 4035,
  "ci shi jie da ": 4036,
  "zhu ti ": 4037,
  "zhong wei ": 4038,
  " 10": 4039,
  "cheng yi ": 4040,
  "zai wei ": 4041,
  "zhuang tai ": 4042,
  " sui ran": 4043,
  " you ming ": 4044,
  "qi nian ": 4045,
  " ta ceng ": 4046,
  "ben de ": 4047,
  "bian wei ": 4048,
  " dou ": 4049,
  "pin dao ": 4050,
  " zai qi ": 4051,
  "you yi ge ": 4052,
  "ju zhong ": 4053,
  "fen zi ": 4054,
  "he li ": 4055,
  "mao yi ": 4056,
  "20 shi ji ": 4057,
  " zhi zhong ": 4058,
  "The   ": 4059,
  "bu zhang ": 4060,
  "ren kou shu liang wei ": 4061,
  " chi ": 4062,
  "wang luo ": 4063,
  "hui you ": 4064,
  " geng": 4065,
  "qian yi ": 4066,
  "   zi ": 4067,
  "ao si ": 4068,
  "2004 nian ": 4069,
  "shuo shi ": 4070,
  "jie duan ": 4071,
  "xuan shou ": 4072,
  "gao ji ": 4073,
  "zhun bei ": 4074,
  "fa shi ": 4075,
  " he nan ": 4076,
  "ci de ": 4077,
  "fang an ": 4078,
  "fang yu ": 4079,
  "mi er ": 4080,
  "wai de ": 4081,
  "da xing ": 4082,
  "duo ci ": 4083,
  " zhou": 4084,
  " chen": 4085,
  "bing li ": 4086,
  "gong zhong ": 4087,
  "   li ": 4088,
  "bei de ": 4089,
  "hui dao ": 4090,
  " 4 ": 4091,
  "mo de ": 4092,
  " yi lai ": 4093,
  " ri qi ": 4094,
  "cheng du ": 4095,
  "fen zhi ": 4096,
  " lan ": 4097,
  "ci zhi ": 4098,
  " gang ": 4099,
  "bu wei ": 4100,
  "2000 nian ": 4101,
  "shu guan ": 4102,
  "liu nian ": 4103,
  "11 ": 4104,
  " zhong bu ": 4105,
  "wu qi ": 4106,
  "jie ji ": 4107,
  "le yi ge ": 4108,
  "yuan wei ": 4109,
  "bao han ": 4110,
  "jun zai ": 4111,
  " di fang ": 4112,
  "dian shi tai ": 4113,
  " fan": 4114,
  "you zhi ": 4115,
  "zi shi ": 4116,
  " de yi zhong ": 4117,
  "xing he ": 4118,
  " ren kou": 4119,
  " ren kou mi du wei ": 4120,
  "ju shi ": 4121,
  "deng ji ": 4122,
  " yi shi ": 4123,
  "lu jun ": 4124,
  "xuan wei ": 4125,
  "xiang tong ": 4126,
  " chao ": 4127,
  "zhe jiang ": 4128,
  " ze": 4129,
  " xian shi ": 4130,
  "zui hou ": 4131,
  "biao yan ": 4132,
  "qiu ji ": 4133,
  " tou ": 4134,
  "si wang ": 4135,
  "gai ge ": 4136,
  " zhu yao": 4137,
  " wei yu fa guo ": 4138,
  "she bei ": 4139,
  "nong ye ": 4140,
  "da liang ": 4141,
  "duo ge ": 4142,
  "mei zhou ": 4143,
  " zhi jin ": 4144,
  "dian shi ju ": 4145,
  "hou you ": 4146,
  " shi dai ": 4147,
  " zu": 4148,
  " zhao": 4149,
  " xi ban ": 4150,
  " K": 4151,
  "gu ji ": 4152,
  "shang yi ": 4153,
  "ai de ": 4154,
  "yang shi ": 4155,
  "zhu yu ": 4156,
  "guang chang ": 4157,
  " xiang": 4158,
  "liu shi ": 4159,
  "zai ji ": 4160,
  "zhan dou ": 4161,
  "fa yu ": 4162,
  " fei": 4163,
  "wen wu bao hu dan wei ": 4164,
  "   da ": 4165,
  "zhan kai ": 4166,
  " mei you ": 4167,
  " zhi li ": 4168,
  "jia he ": 4169,
  "l ": 4170,
  "tiao yue ": 4171,
  " jia ru ": 4172,
  "fu jian ": 4173,
  "xie zhu ": 4174,
  " yi bei ": 4175,
  " bu zai ": 4176,
  "chan pin ": 4177,
  "mu qian ": 4178,
  "hang kong": 4179,
  "bian cheng ": 4180,
  "jiang yu ": 4181,
  "you zheng ": 4182,
  " fen bie": 4183,
  "huo de le ": 4184,
  "ren yu ": 4185,
  "mi de ": 4186,
  "fen lei ": 4187,
  "dao lu ": 4188,
  "gong you ren kou ": 4189,
  "ying ji ": 4190,
  "duan de ": 4191,
  " zhi zai ": 4192,
  "qun dao ": 4193,
  "qing de ": 4194,
  "biao zhun": 4195,
  "zhen qu ": 4196,
  " bei qi ": 4197,
  " zhe yi ": 4198,
  "hai ba ": 4199,
  "   jian ": 4200,
  "nao ": 4201,
  "bi jiao ": 4202,
  "nai ": 4203,
  " qi ye ": 4204,
  "gui hua ": 4205,
  "zhan zheng": 4206,
  "cuo ": 4207,
  "   B": 4208,
  " li zi ": 4209,
  " ke neng": 4210,
  "20 ": 4211,
  " xi wang ": 4212,
  " xing zheng ": 4213,
  "su du ": 4214,
  "ju yu ": 4215,
  "nv er ": 4216,
  "xi bu ": 4217,
  " zhong hua min guo ": 4218,
  "shou du ": 4219,
  "xi wei ": 4220,
  "nu ": 4221,
  " L": 4222,
  " bu hui ": 4223,
  " fa guo ": 4224,
  " yi ren ": 4225,
  "qiao zhi ": 4226,
  " gong fen ": 4227,
  " zhang": 4228,
  " zai zhong ": 4229,
  "mei ping fang gong li ": 4230,
  "rong yu ": 4231,
  "dong xi ": 4232,
  "jiu shi zhen ": 4233,
  "dong li ": 4234,
  " yi yang ": 4235,
  "man hua ": 4236,
  " de shi jian ": 4237,
  "jin gong ": 4238,
  "di yi ge ": 4239,
  "dou you ": 4240,
  "si he ": 4241,
  " R": 4242,
  "   xi ": 4243,
  " cheng qu ": 4244,
  "si wei ": 4245,
  "U ": 4246,
  "hen duo ": 4247,
  " I": 4248,
  "ma lai": 4249,
  "la de ": 4250,
  " 00": 4251,
  " nv ": 4252,
  "ken ": 4253,
  "   T": 4254,
  "ru xia ": 4255,
  "tai bei ": 4256,
  "ze ren ": 4257,
  "fu ren ": 4258,
  "la ke ": 4259,
  " O": 4260,
  "qu dai ": 4261,
  " ci hou ": 4262,
  "xian de yi ge ": 4263,
  "jin biao sai ": 4264,
  " yi xia ": 4265,
  "shang wu ": 4266,
  "yu shi de ": 4267,
  " 30": 4268,
  " yu wei ": 4269,
  " kong ": 4270,
  "jian you ": 4271,
  " er bei ": 4272,
  "zong li ": 4273,
  "a   ": 4274,
  " tian": 4275,
  "wang guo ": 4276,
  "xiang dui ": 4277,
  "lian xu ": 4278,
  "   fu ": 4279,
  "qu yi ": 4280,
  "min zhong ": 4281,
  "jie rang": 4282,
  "reng ran": 4283,
  "xiao xi ": 4284,
  "mi shu ": 4285,
  " hao": 4286,
  "tie dao ": 4287,
  "zheng ge ": 4288,
  "   zhe ": 4289,
  "zui hou yi ": 4290,
  "ci ji ": 4291,
  "jue de ": 4292,
  "ren kou shu liang wei ren ": 4293,
  " ruo": 4294,
  " tiao ": 4295,
  " zhong xin": 4296,
  "   zhu ": 4297,
  "quan de ": 4298,
  "zhan ling ": 4299,
  "xin jia ": 4300,
  "   F": 4301,
  "wai jiao ": 4302,
  "di san ": 4303,
  "jia na da ": 4304,
  " li shu yu ": 4305,
  " ren zai ": 4306,
  "tian zhu jiao ": 4307,
  " ying chi ": 4308,
  "zhen shi ": 4309,
  " INSEE": 4310,
  "ye wu ": 4311,
  "cheng zhen ": 4312,
  "ci yu ": 4313,
  "qi ta": 4314,
  " hei ": 4315,
  " wu": 4316,
  " nian ji ": 4317,
  " ran hou ": 4318,
  "yuan you ": 4319,
  " you yi ": 4320,
  "ceng zai ": 4321,
  "da xue": 4322,
  "niao ": 4323,
  "jian cha ": 4324,
  "zheng quan ": 4325,
  "sheng cheng ": 4326,
  "shou ge ": 4327,
  "nan ji ": 4328,
  "zuo chu ": 4329,
  " de shi hou ": 4330,
  " he bei ": 4331,
  "ni si ": 4332,
  "ju jue ": 4333,
  "lu shi ": 4334,
  "jiao wei ": 4335,
  " N": 4336,
  "qu xiao ": 4337,
  "ti ji ": 4338,
  " rang": 4339,
  " jie zhi ": 4340,
  " de yu ": 4341,
  "dian ji ": 4342,
  "sheng zhi ": 4343,
  "che liang ": 4344,
  " gai sheng ": 4345,
  "wang zhan ": 4346,
  "he wei ": 4347,
  "da li ya ": 4348,
  "zhong xin ": 4349,
  "dui zai ": 4350,
  "n ": 4351,
  "xian fa ": 4352,
  "le ji ": 4353,
  " bai": 4354,
  "he zhi ": 4355,
  "di fang ": 4356,
  " dui yu ": 4357,
  "zi xing ": 4358,
  "zhen de ": 4359,
  "lan xi ": 4360,
  " qi ta": 4361,
  " er zai ": 4362,
  " zong mian ji ": 4363,
  " zheng shi ": 4364,
  "yun ying ": 4365,
  " de li ": 4366,
  "jie jue ": 4367,
  "tian wen ": 4368,
  "2002 nian ": 4369,
  " ri ben": 4370,
  "2003 nian ": 4371,
  "mo xi ": 4372,
  " shi chang ": 4373,
  "gong yi ": 4374,
  "shu zhi ": 4375,
  "ye zai ": 4376,
  " di qi ": 4377,
  " jian zhu ": 4378,
  "shou wei ": 4379,
  "dian ying": 4380,
  " ren kou mi du mei ping fang gong li ": 4381,
  "xiao xue ": 4382,
  "ying xiang": 4383,
  "cha de shu ju ": 4384,
  "you zheng bian ma wei ": 4385,
  "hui zhi ": 4386,
  "gan dao ": 4387,
  " xing cheng ": 4388,
  "pu tao ": 4389,
  " shi zhen bian ma wei ": 4390,
  " INSEE shi zhen bian ma wei ": 4391,
  "qing shi ": 4392,
  "te li ": 4393,
  " ren kou mi du wei mei ping fang ": 4394,
  "meng gu ": 4395,
  "   bu ": 4396,
  "mu shi ": 4397,
  " xia ling shi ": 4398,
  "di yi ci ": 4399,
  "xi li ": 4400,
  "zhuo ": 4401,
  "er zai ": 4402,
  "xuan qu wei ": 4403,
  "lei ji ": 4404,
  "zuo zhan ": 4405,
  "si zai ": 4406,
  "gao yu ": 4407,
  "ni ya": 4408,
  "yu shi de ren kou shu liang wei ren ": 4409,
  "bao de ": 4410,
  "mei guo ren kou pu cha de shu ju ": 4411,
  "zuo yi ": 4412,
  "lu yi ": 4413,
  " er ren kou mi du wei mei ping fang ": 4414,
  " dang di gong you ren kou ": 4415,
  " huan ": 4416,
  "xi yu ": 4417,
  " te bie": 4418,
  "yun xing ": 4419,
  " huo jiu shi zhen ": 4420,
  "xin li ": 4421,
  "jing chang ": 4422,
  "sheng ji xuan qu wei ": 4423,
  "jiang shi ": 4424,
  "yuan zi ": 4425,
  "fa dong ": 4426,
  "kuai su ": 4427,
  " shuang ": 4428,
  " bo": 4429,
  " zhong yang": 4430,
  "shao nian ": 4431,
  "sheng ren ": 4432,
  "bian ji ": 4433,
  "chong jian ": 4434,
  "fen wei fa guo ": 4435,
  " gai sheng fen wei fa guo ": 4436,
  "fa qi ": 4437,
  "   nian ": 4438,
  "gao deng ": 4439,
  " biao shi ": 4440,
  "ming yi ": 4441,
  "cong shi ": 4442,
  "   G": 4443,
  "shuo fa ": 4444,
  " nian chu ": 4445,
  "yang hua ": 4446,
  " you ren ": 4447,
  " nian yu ": 4448,
  "cheng li yu ": 4449,
  "jia zhong ": 4450,
  "jin yi bu ": 4451,
  "na de ": 4452,
  "y ": 4453,
  "lian he guo ": 4454,
  " er qie": 4455,
  "yan jiu suo ": 4456,
  "zheng ming ": 4457,
  "fang qi ": 4458,
  "da qu ": 4459,
  "tai guo ": 4460,
  "gong xian ": 4461,
  "gou de ": 4462,
  "lun dun": 4463,
  "   he ": 4464,
  "fan hui ": 4465,
  "ao lin pi ke yun dong hui ": 4466,
  "jie rang de shi zhen ": 4467,
  " guo ji ": 4468,
  "zi wei ": 4469,
  "gong ren ": 4470,
  "suo shu de sheng ji xuan qu wei ": 4471,
  "si li ": 4472,
  "yun shu ": 4473,
  "xiang ji ": 4474,
  "me ": 4475,
  "huo shi ": 4476,
  "zi ran": 4477,
  "yuan li ": 4478,
  "2023 nian ": 4479,
  "ne ": 4480,
  "ti xi ": 4481,
  "jian cheng ": 4482,
  "biao wei ": 4483,
  " H": 4484,
  "na li ": 4485,
  "zhu chi ": 4486,
  "xing qi ": 4487,
  "zhong hua ren min gong he guo ": 4488,
  "ming dan ": 4489,
  "bo lan ": 4490,
  " huang": 4491,
  "xi zai ": 4492,
  "zi yuan ": 4493,
  "dao ren ": 4494,
  "re dai ": 4495,
  "xi ban ya ": 4496,
  "ce de ": 4497,
  " hu": 4498,
  "hua wei ": 4499,
  "luo fu ": 4500,
  "fu qin ": 4501,
  " xi bei ": 4502,
  "xia wu ": 4503,
  "zhan dou": 4504,
  "B ": 4505,
  "er he ": 4506,
  "pai de ": 4507,
  " nian you ": 4508,
  "fa she ": 4509,
  " di qu de ": 4510,
  "bei yi ": 4511,
  "fen de ": 4512,
  "ni ke ": 4513,
  "cui ": 4514,
  " ha ": 4515,
  "wen ming ": 4516,
  "   che zhan ": 4517,
  " zhi cheng ": 4518,
  " he bing ": 4519,
  "diao cha": 4520,
  "chan ye ": 4521,
  " nian hou ": 4522,
  " shi yi ming ": 4523,
  "wan jia ": 4524,
  "an shi ": 4525,
  "xiang dang ": 4526,
  "   chu ": 4527,
  " you shi ": 4528,
  "sheng shi ": 4529,
  " kang": 4530,
  " zao ": 4531,
  "chao zheng zhi ren wu ": 4532,
  "su de ": 4533,
  "jin xing le ": 4534,
  " wei sheng ": 4535,
  " chuang ": 4536,
  "   ta ": 4537,
  "jian ji ": 4538,
  " bu neng ": 4539,
  "nan sheng ": 4540,
  " pei ": 4541,
  "jin yi ": 4542,
  "xuan chuan ": 4543,
  " shi yi wei ": 4544,
  "ying li ": 4545,
  "jing shen ": 4546,
  "bei ji ": 4547,
  "lv shi ": 4548,
  "xian xiang ": 4549,
  "za ": 4550,
  "shu zhong ": 4551,
  "shou shang ": 4552,
  "zi he ": 4553,
  "xi yang ": 4554,
  "fu ze guan xia ": 4555,
  "guan zhu ": 4556,
  "lian de ": 4557,
  "qi zhong yi ": 4558,
  "mie ": 4559,
  "jia ting ": 4560,
  "pai ming ": 4561,
  "tong xing ": 4562,
  "lie wei ": 4563,
  "sai er ": 4564,
  " yue zai ": 4565,
  "zhan hou ": 4566,
  "xuan ren ": 4567,
  "liu yu ": 4568,
  "shu liang ": 4569,
  "xiao zu ": 4570,
  "fo jiao ": 4571,
  "lan qiu ": 4572,
  "shuai ": 4573,
  "ke wei ": 4574,
  "   P": 4575,
  " bi": 4576,
  "jie yi ": 4577,
  "dao yan ": 4578,
  "zheng ju ": 4579,
  "qiu de ": 4580,
  " xi nan ": 4581,
  "da wei ": 4582,
  "tao lun ": 4583,
  "ba nian ": 4584,
  "wang shi ": 4585,
  "du jiao ": 4586,
  "yan yi ": 4587,
  " long ": 4588,
  "re dai": 4589,
  "y   ": 4590,
  "   bei ": 4591,
  " zhong gong ": 4592,
  "zheng dang ": 4593,
  "lai yuan ": 4594,
  "gen ju": 4595,
  " shi xian ": 4596,
  "bao chi ": 4597,
  " tuo ": 4598,
  "wen jian ": 4599,
  " yi jian ": 4600,
  "hou qi ": 4601,
  " nian du ": 4602,
  " er qie ": 4603,
  "zhong yang ": 4604,
  " zhi xian ": 4605,
  " ben": 4606,
  " dao le ": 4607,
  "reng ran ": 4608,
  " 10 yue ": 4609,
  " yi xi ": 4610,
  "lv ke ": 4611,
  "rui shi ": 4612,
  " can ": 4613,
  " ji si ": 4614,
  "ping lun ": 4615,
  "ming shi ": 4616,
  "zi dong ": 4617,
  " zong ren kou ": 4618,
  "xia de yi ge ": 4619,
  "fan de ": 4620,
  " wu ke ": 4621,
  "di si ": 4622,
  "zao nian ": 4623,
  "biao ming ": 4624,
  "xu de ": 4625,
  "lu yu ": 4626,
  " zhi ming ": 4627,
  "hai de ": 4628,
  " ji hu ": 4629,
  "ping tai ": 4630,
  "luo ma": 4631,
  "ke li si ": 4632,
  "   E": 4633,
  " shi jian yu ": 4634,
  "hao wei ": 4635,
  "rao ": 4636,
  "ceng jing ": 4637,
  "xu yao": 4638,
  "peng you ": 4639,
  " li ren ": 4640,
  "da yue ": 4641,
  "yin hang": 4642,
  "feng xian ": 4643,
  "e luo ": 4644,
  "nan jing ": 4645,
  "   M": 4646,
  " bei jing ": 4647,
  " ci shi ": 4648,
  " de di fang ": 4649,
  "sheng yi ": 4650,
  "gong zhong yang ": 4651,
  "tai ping yang ": 4652,
  "jiao tang ": 4653,
  "zheng bu ": 4654,
  "lian bang": 4655,
  " ou ": 4656,
  "jiao bu ": 4657,
  "xuan qu ": 4658,
  "xing bu ": 4659,
  "ke zai ": 4660,
  "jing you ": 4661,
  "yan ge ": 4662,
  "que ding ": 4663,
  "yuan zai ": 4664,
  "sou ": 4665,
  " guo wang ": 4666,
  "dao da ": 4667,
  "shen wei ": 4668,
  "jian dui ": 4669,
  "chong tu ": 4670,
  "   xian ": 4671,
  "wu ren ": 4672,
  "jian ren ": 4673,
  " yi shang ": 4674,
  "mo xing ": 4675,
  "   2021": 4676,
  "biao zhi ": 4677,
  "hua yu ": 4678,
  "ru he ": 4679,
  " lin": 4680,
  "qian shi ": 4681,
  "ke shi ": 4682,
  " miao ": 4683,
  "qian zhi ": 4684,
  "tui yi ": 4685,
  "xiao guo ": 4686,
  "zhang da ": 4687,
  "shang ying ": 4688,
  "dao he ": 4689,
  "ke si ": 4690,
  " gong yuan ": 4691,
  "jing wei ": 4692,
  "   sui ": 4693,
  "lei xing ": 4694,
  " yi li ": 4695,
  " da xue": 4696,
  "zhou wei ": 4697,
  "xian ji ": 4698,
  "que zhen ": 4699,
  "ye bu ": 4700,
  "biao da ": 4701,
  "feng bao ": 4702,
  "guang zhou ": 4703,
  "   2020": 4704,
  "xia shi ": 4705,
  "dang xuan ": 4706,
  "xie de ": 4707,
  "bi ya ": 4708,
  " tan ": 4709,
  "xian he ": 4710,
  "sheng huo": 4711,
  "pang ": 4712,
  "liang zhong ": 4713,
  "ding yu ": 4714,
  "qi ye ": 4715,
  " ceng ren ": 4716,
  " ji bei ": 4717,
  "jiao qu ": 4718,
  "ping mian ": 4719,
  "   and": 4720,
  "an jian ": 4721,
  "cheng xian ": 4722,
  "shen qing ": 4723,
  "lu si ": 4724,
  "xing yi ": 4725,
  " zhi fu ": 4726,
  "tuan dui ": 4727,
  " er ren kou mi du wei mei ping fang qian mi ": 4728,
  " jin ru ": 4729,
  " li da ": 4730,
  " deng": 4731,
  " qin ": 4732,
  "cha yi ": 4733,
  " li lun ": 4734,
  "ying ge lan ": 4735,
  "yao qing ": 4736,
  "nei rong": 4737,
  "pu tong ": 4738,
  " J": 4739,
  "yuan zhang ": 4740,
  "0 ": 4741,
  "yuan su ": 4742,
  " zhong you ": 4743,
  " gao": 4744,
  "xing ren ": 4745,
  "jiu nian ": 4746,
  " jie guo ": 4747,
  "xi he ": 4748,
  " ta men de ": 4749,
  " zheng": 4750,
  "ri qi ": 4751,
  "qiu chang ": 4752,
  "xiao shou ": 4753,
  "rou ": 4754,
  "zhong yao ": 4755,
  "yan zhi ": 4756,
  "heng xing ": 4757,
  "zi yi ": 4758,
  "ru ci ": 4759,
  "dui shou ": 4760,
  "la fu ": 4761,
  "fen bie ": 4762,
  "tiao zhan ": 4763,
  "zuo shi ": 4764,
  "bao wei ": 4765,
  "cheng yu ": 4766,
  "shu yi ": 4767,
  "lai shuo ": 4768,
  " qi yu ": 4769,
  "hui ji ": 4770,
  " yue yu ": 4771,
  "ru guo ": 4772,
  " zhi zao ": 4773,
  "xue shu ": 4774,
  "he yu ": 4775,
  "12 ": 4776,
  "an na ": 4777,
  " zhong hua ": 4778,
  "wang lu ": 4779,
  "lun de ": 4780,
  "nu li ": 4781,
  "l   ": 4782,
  "yu   ": 4783,
  "ni de ": 4784,
  " shi di ": 4785,
  "wu yi ": 4786,
  "shun ": 4787,
  " 8 yue ": 4788,
  "zheng zhuang ": 4789,
  "jia ren ": 4790,
  "cai yong": 4791,
  "ting de ": 4792,
  "neng gou": 4793,
  "zi zhi qu ": 4794,
  " 11": 4795,
  "jie fang jun ": 4796,
  " mai ": 4797,
  "xiao zhang ": 4798,
  "dian tai ": 4799,
  "te bie ": 4800,
  " hao xian ": 4801,
  "min de ": 4802,
  "hai zi ": 4803,
  " tong chang ": 4804,
  "you li ": 4805,
  "ta shi ": 4806,
  "lan ke ": 4807,
  "shu zi ": 4808,
  "xiang yu ": 4809,
  "qu he ": 4810,
  "geng ming wei ": 4811,
  "   K": 4812,
  "chuang li ": 4813,
  "quan shi ": 4814,
  "2024 nian ": 4815,
  "zong du ": 4816,
  "xu shi ": 4817,
  "fan yi ": 4818,
  "duo zhong ": 4819,
  "fu qin": 4820,
  "zhu yan ": 4821,
  "ge you ": 4822,
  "she yu ": 4823,
  "jia ge ": 4824,
  "chu shen ": 4825,
  " 19": 4826,
  "   in": 4827,
  "huo dong": 4828,
  " W": 4829,
  "jiang xi ": 4830,
  "   2019": 4831,
  "xin shi ": 4832,
  "bo de ": 4833,
  " zai yi ": 4834,
  " dai": 4835,
  "hu shi ": 4836,
  "ming yu ": 4837,
  "jiang xiang ": 4838,
  "ban gong shi ": 4839,
  "dan de ": 4840,
  "sun shi ": 4841,
  "shou ru ": 4842,
  "g ": 4843,
  "lin de ": 4844,
  " e": 4845,
  " suo you ": 4846,
  "   wu ": 4847,
  " zhong yao ": 4848,
  "ju xing de ": 4849,
  " pei": 4850,
  "dui yi ": 4851,
  "jing cha ": 4852,
  "sa ke ": 4853,
  " lao ": 4854,
  "jie jin ": 4855,
  " wei lian ": 4856,
  " ji ben ": 4857,
  "jie wei ": 4858,
  "jie yu ": 4859,
  "ka si ": 4860,
  "   xia ": 4861,
  "guan dian ": 4862,
  " de yi zuo ": 4863,
  "1999 nian ": 4864,
  " li he ": 4865,
  "jiang di ": 4866,
  "shao shu ": 4867,
  "kan dao ": 4868,
  "wen zhang ": 4869,
  " ji zhe ": 4870,
  "lun dun ": 4871,
  "   2018": 4872,
  "tou xiang ": 4873,
  "hui shang ": 4874,
  "lu di mian ji wei ": 4875,
  "   ge ": 4876,
  " han": 4877,
  "amp ": 4878,
  "shui yu mian ji wei ": 4879,
  " zhuan": 4880,
  "jie quan guo ": 4881,
  " da qu ": 4882,
  "wen zi ": 4883,
  "zhan ji ": 4884,
  "xing jian ": 4885,
  " de di qu ": 4886,
  "sang ": 4887,
  "ao men ": 4888,
  "zai zhi ": 4889,
  "wen yi ": 4890,
  " che zhan ": 4891,
  "zhang shi ": 4892,
  "kang yi ": 4893,
  "   L": 4894,
  "leng ": 4895,
  "xi bei ": 4896,
  "hai an ": 4897,
  "ru kou ": 4898,
  "wai guo ": 4899,
  " xiong ": 4900,
  "wen de ": 4901,
  "chu sheng ": 4902,
  "jiao liu ": 4903,
  "   ke ": 4904,
  "ming di ": 4905,
  "24 ": 4906,
  " ji tuan": 4907,
  "xing xing ": 4908,
  "xi zhi ": 4909,
  "zhen dui ": 4910,
  "xin ren ": 4911,
  "du yu ": 4912,
  "p ": 4913,
  " amp ": 4914,
  "cuo shi ": 4915,
  "zhang ke da ": 4916,
  "tian jin ": 4917,
  "tiao zheng ": 4918,
  " xian zai ": 4919,
  "fang zai ": 4920,
  "po huai ": 4921,
  "jun di ": 4922,
  "ti ming ": 4923,
  " fen zhong ": 4924,
  "xuan ze": 4925,
  " dang zhong lu di mian ji wei ": 4926,
  "T ": 4927,
  " er shui yu mian ji wei ": 4928,
  "1998 nian ": 4929,
  "F ": 4930,
  "rong yi ": 4931,
  "chu fa ": 4932,
  "   2022": 4933,
  " bei er ": 4934,
  "zao yu ": 4935,
  "jing dian ": 4936,
  "chi de ": 4937,
  " ju li ": 4938,
  "ba xi ": 4939,
  " hai you ": 4940,
  " ji shi ": 4941,
  "guang xi ": 4942,
  "luo di ": 4943,
  "gou cheng ": 4944,
  "bian jie ": 4945,
  "ou yuan ": 4946,
  "xian you ": 4947,
  "xian chang ": 4948,
  " xiang gang": 4949,
  "k ": 4950,
  "xi yi ": 4951,
  "shan ji ": 4952,
  " fa xian ": 4953,
  "tai yang ": 4954,
  "fu ji ": 4955,
  "dao ji ": 4956,
  "ha er ": 4957,
  " de zhi chi ": 4958,
  " yue you ": 4959,
  "si chuan ": 4960,
  "yue tai ": 4961,
  "   xing zheng qu hua ": 4962,
  "ming zhi ": 4963,
  " ao": 4964,
  " yu ci ": 4965,
  " zai zhe ": 4966,
  "dui wu ": 4967,
  "X ": 4968,
  "teng ": 4969,
  "cun zhuang ": 4970,
  " shou": 4971,
  " jing guo ": 4972,
  " cong er ": 4973,
  "da zhong ": 4974,
  "tou ru ": 4975,
  "wei   ": 4976,
  "keng ": 4977,
  " nian bei ": 4978,
  "you wei ": 4979,
  "cun de ": 4980,
  " hou": 4981,
  " sa ": 4982,
  "deng lu ": 4983,
  " 9 yue ": 4984,
  "da zhi ": 4985,
  "tou piao ": 4986,
  " shi li ": 4987,
  "ge lei ": 4988,
  "yuan hui ": 4989,
  "chang yi ": 4990,
  " yue wei ": 4991,
  "   2017": 4992,
  " zhi xia ": 4993,
  "gong min ": 4994,
  "yin fa ": 4995,
  "bi ye yu ": 4996,
  " pa": 4997,
  "jian zhong ": 4998,
  "zhang yu ": 4999,
  "nuo wei ": 5000,
  "   R": 5001,
  "tu er qi ": 5002,
  "jia yu ": 5003,
  "fang wei ": 5004,
  "tu de ": 5005,
  "tui dong ": 5006,
  " shi zhong guo ": 5007,
  "gong yu ": 5008,
  "zhan di ": 5009,
  "ge yi ": 5010,
  "hun he ": 5011,
  " ren men ": 5012,
  "ju zhu ": 5013,
  "bao liu ": 5014,
  "qian shu ": 5015,
  "jin ru": 5016,
  "wen ding ": 5017,
  "hai dao ": 5018,
  "le si ": 5019,
  "gan ran": 5020,
  "shu he ": 5021,
  "bi sai zhong ": 5022,
  " ti zhang ke da ": 5023,
  " formula ": 5024,
  "er ren ": 5025,
  " zai bei ": 5026,
  "zi ran ": 5027,
  "xi zhong ": 5028,
  " bu fen": 5029,
  "da fu ": 5030,
  " 7 yue ": 5031,
  "wu yu ": 5032,
  "zi li ": 5033,
  "nan bei ": 5034,
  "jun yi ": 5035,
  "pi zhun ": 5036,
  "ke yu ": 5037,
  "chu ji ": 5038,
  "qi zi ": 5039,
  "yong hu ": 5040,
  " wei fu qi yu ": 5041,
  "heng li ": 5042,
  "fang wen ": 5043,
  "zhuang jia ": 5044,
  "ti gao ": 5045,
  " you ji ": 5046,
  " wo men ": 5047,
  "di ji ": 5048,
  "ma ke ": 5049,
  " shi qu ": 5050,
  " nian he ": 5051,
  "cheng zuo ": 5052,
  " bian": 5053,
  "er yu ": 5054,
  "jian he ": 5055,
  "ang ": 5056,
  "   2016": 5057,
  " yi da li ": 5058,
  "zi jin ": 5059,
  " yin du ": 5060,
  "xun su ": 5061,
  " biao ": 5062,
  "ben tu ": 5063,
  "hou xuan ren ": 5064,
  "xin hao ": 5065,
  " an": 5066,
  "zhan zhong ": 5067,
  "mo er ": 5068,
  "xiao li ": 5069,
  "xian lu ": 5070,
  "pin pai ": 5071,
  " ting ": 5072,
  "jin shu ": 5073,
  "jie shu hou ": 5074,
  " 12 yue ": 5075,
  "ci wei ": 5076,
  "ge ge ": 5077,
  " ta yi ": 5078,
  "xin yi ": 5079,
  "guang fan ": 5080,
  "zhu ming de ": 5081,
  "zhong li ": 5082,
  "shang ren ": 5083,
  "yong yi ": 5084,
  "xian hou ": 5085,
  "zui chu ": 5086,
  "ying pian ": 5087,
  "zhu ming ": 5088,
  "ceng yu ": 5089,
  "mou xie ": 5090,
  " xiu ": 5091,
  "cheng zhi ": 5092,
  " 11 yue ": 5093,
  " de yi zhi ": 5094,
  "jian zao ": 5095,
  "wu wei ": 5096,
  " hai": 5097,
  "jian zai ": 5098,
  "jie you ": 5099,
  "ling wai ": 5100,
  " de shi qu wei ": 5101,
  "chu zhan ": 5102,
  "xia lai ": 5103,
  "   de shi ": 5104,
  " The   ": 5105,
  " zhi neng ": 5106,
  " hong": 5107,
  "xue hui ": 5108,
  "bu tong de ": 5109,
  " bing yi ": 5110,
  " tw": 5111,
  "he zuo ": 5112,
  "jiang su ": 5113,
  " zhong de ": 5114,
  "sa er ": 5115,
  " zhong guo gong chan dang ": 5116,
  "bu dui ": 5117,
  " jia shang ": 5118,
  "dang shi de ": 5119,
  "   li": 5120,
  "zhu bu ": 5121,
  "shan da ": 5122,
  "shui ping ": 5123,
  " 21 ": 5124,
  "hans ": 5125,
  "   er ": 5126,
  "bo er ": 5127,
  " hans ": 5128,
  "ke he ": 5129,
  " di qu": 5130,
  "mei nian ": 5131,
  "xu qiu ": 5132,
  " ji cheng ": 5133,
  "jian shao ": 5134,
  "te shu ": 5135,
  " tw ": 5136,
  "da cheng ": 5137,
  "shan de ": 5138,
  "   O": 5139,
  "jia zu ": 5140,
  " 2011": 5141,
  "   D": 5142,
  " zhe xie": 5143,
  "lv wei ": 5144,
  " ren lei ": 5145,
  "pai chu ": 5146,
  "S ": 5147,
  "x ": 5148,
  "   qing ": 5149,
  "xiao shuo": 5150,
  "ao da li ya ": 5151,
  " ri yu ": 5152,
  "nan yi ": 5153,
  "jie rang ": 5154,
  "gong chang ": 5155,
  "si ke ": 5156,
  " dan ta ": 5157,
  " cheng yuan ": 5158,
  "chang he ": 5159,
  "jie ke ": 5160,
  "zi xun ": 5161,
  " ji guan ": 5162,
  "jue ding": 5163,
  " zai zhong guo ": 5164,
  "she hui zhu yi ": 5165,
  "   2023": 5166,
  " yu ren ": 5167,
  "zhu you ": 5168,
  "zhuang zhi ": 5169,
  "fa chu ": 5170,
  " xi bao ": 5171,
  "jing yan ": 5172,
  " 2010 nian ": 5173,
  "C ": 5174,
  "   2014": 5175,
  "wa er ": 5176,
  " ji ren ": 5177,
  "yin su ": 5178,
  "suo de ": 5179,
  "reng ": 5180,
  " jie mu ": 5181,
  "ti shi ": 5182,
  "1997 nian ": 5183,
  "ying wen ": 5184,
  "fen zhong ": 5185,
  "lu zhi ": 5186,
  " hou lai": 5187,
  " e luo si ": 5188,
  " xu duo ": 5189,
  "   yuan ": 5190,
  "tu zhong ": 5191,
  "kong zhong ": 5192,
  "sui dao ": 5193,
  "chu sheng yu ": 5194,
  "bei zhi ": 5195,
  "hua he ": 5196,
  "sha si ": 5197,
  "yong shi ": 5198,
  "ling tu ": 5199,
  " men ": 5200,
  " jing ji ": 5201,
  "mei ge ": 5202,
  "   yu shi de ren kou shu liang wei ren ": 5203,
  "   suo shu de sheng ji xuan qu wei ": 5204,
  "min jian ": 5205,
  "   de you zheng bian ma wei ": 5206,
  "   yu jie rang de shi zhen ": 5207,
  "   de shi qu wei ": 5208,
  "geng jia ": 5209,
  " guo cheng ": 5210,
  "xiang si ": 5211,
  " 2019": 5212,
  "   2015": 5213,
  "zeng zhang ": 5214,
  " fa xing ": 5215,
  "nan de ": 5216,
  " zai da ": 5217,
  "ke cheng ": 5218,
  "jiang de ": 5219,
  "kong jun ": 5220,
  "hui ying ": 5221,
  " 2009 nian ": 5222,
  "er yi ": 5223,
  "le shi ": 5224,
  "gu wen ": 5225,
  " he xi ": 5226,
  " ta ye ": 5227,
  "ci yi ": 5228,
  "guang gao ": 5229,
  "P ": 5230,
  "te er ": 5231,
  " shi mei guo ": 5232,
  "1996 nian ": 5233,
  "c ": 5234,
  " hk": 5235,
  "zhou fu ": 5236,
  " sheng huo": 5237,
  " wang": 5238,
  "ti yi ": 5239,
  " ji you ": 5240,
  " di da ": 5241,
  "jue se": 5242,
  "an pai ": 5243,
  "   2013": 5244,
  "xian xing ": 5245,
  " bing jiang ": 5246,
  "chao shi ": 5247,
  "guan bi ": 5248,
  "han shu ": 5249,
  "zong bu ": 5250,
  "ti sheng ": 5251,
  "fei jian zhi ": 5252,
  " zhi shi ": 5253,
  "wo men ": 5254,
  " zhuang ": 5255,
  "   xin ": 5256,
  "fang bu ": 5257,
  "da yu ": 5258,
  "xu ke ": 5259,
  "lang de ": 5260,
  "min zhu dang ": 5261,
  " 6 yue ": 5262,
  "zhuang shi ": 5263,
  "jia ru": 5264,
  " bing you ": 5265,
  "zheng fu de ": 5266,
  "quan mian ": 5267,
  " hk ": 5268,
  "ban gong ": 5269,
  " de guo jia ": 5270,
  " feng": 5271,
  "jun ji ": 5272,
  "xing tai ": 5273,
  "che zhan": 5274,
  " er gai ": 5275,
  " he er ": 5276,
  "bao li ": 5277,
  "di guo ": 5278,
  "jie gou": 5279,
  "dui shi ": 5280,
  "tian de ": 5281,
  "shan mai": 5282,
  "ju bu ": 5283,
  "ling de ": 5284,
  "fo ": 5285,
  "rui dian ": 5286,
  "dang yu ": 5287,
  "luo ke ": 5288,
  "wei yi ge ": 5289,
  "jun gong ": 5290,
  "dang zhong ": 5291,
  "wei zhi ": 5292,
  "tu shu guan ": 5293,
  "nei lu ": 5294,
  " lai zi ": 5295,
  "hua zhong ": 5296,
  "zhuan jia ": 5297,
  " ji nian ": 5298,
  " yue tai ": 5299,
  "cheng xu ": 5300,
  " V": 5301,
  "hui bei ": 5302,
  "se lie ": 5303,
  "shi   ": 5304,
  "shan shi ": 5305,
  "yun xu ": 5306,
  "bing mei you ": 5307,
  "jiu dian ": 5308,
  "ge zhi ": 5309,
  " ke xue ": 5310,
  " qi zhong yi ": 5311,
  "   xiang ": 5312,
  "1992 nian ": 5313,
  "si xiang ": 5314,
  "fei jian zhi di qu ": 5315,
  " 5 yue ": 5316,
  "dai you ": 5317,
  "zu cheng de ": 5318,
  "ba wei ": 5319,
  "fa lv": 5320,
  " xi jie ": 5321,
  " mao ": 5322,
  "jing zheng ": 5323,
  " yi jia ": 5324,
  "dian nao": 5325,
  "guo wei ": 5326,
  "jin pai ": 5327,
  "san jiao ": 5328,
  "chang yu ": 5329,
  "tan ke ": 5330,
  " li bu ": 5331,
  " you qi shi ": 5332,
  "mu qin ": 5333,
  "tong yu ": 5334,
  "bing shi ": 5335,
  "huan ying ": 5336,
  " 2018": 5337,
  " xuan bu ": 5338,
  "ma er ": 5339,
  "xia jiang ": 5340,
  "mo xi ge ": 5341,
  " zheng fu ": 5342,
  "ge lan": 5343,
  "yan jiu yuan ": 5344,
  " wan ren ": 5345,
  " qian": 5346,
  "shu xue ": 5347,
  "jiu de ": 5348,
  "nei ge ": 5349,
  " shi jie bei ": 5350,
  "on ": 5351,
  " li ya": 5352,
  "hua ren ": 5353,
  "zhuan yi ": 5354,
  "gong si de ": 5355,
  " gong zuo ": 5356,
  "jun you ": 5357,
  "jiu zhi ": 5358,
  " he di ": 5359,
  "ming ming wei ": 5360,
  "   jia zu ": 5361,
  "to   ": 5362,
  " ji chu ": 5363,
  "sheng zhang ": 5364,
  "lai dao ": 5365,
  " di xia ": 5366,
  "bei ren wei shi ": 5367,
  " lie ": 5368,
  "deng wei ": 5369,
  "ying yun ": 5370,
  " chu yu ": 5371,
  "xiu gai ": 5372,
  "ming ling ": 5373,
  "shuo ming ": 5374,
  "hui zhang ": 5375,
  "que fa ": 5376,
  "yong lai ": 5377,
  " na": 5378,
  "dui qi ": 5379,
  "hu de ": 5380,
  "zi mu ": 5381,
  "xun hui ": 5382,
  " cha ": 5383,
  "shou fu ": 5384,
  "dai li ": 5385,
  " dan you yu ": 5386,
  "wen shi ": 5387,
  " bu tong de ": 5388,
  " 20": 5389,
  "   zh ": 5390,
  "mao qiu ": 5391,
  " min guo ": 5392,
  " zai mei guo ": 5393,
  " shi yi ge": 5394,
  " de di er ": 5395,
  " wei wei ": 5396,
  " rang ": 5397,
  "zhu ji ": 5398,
  "gong ju ": 5399,
  "   and   ": 5400,
  "ta yu ": 5401,
  "ruan ": 5402,
  " yin yue ": 5403,
  " 4 yue ": 5404,
  "cheng wei le ": 5405,
  "liao jie ": 5406,
  " ta bei ": 5407,
  "ye bei ": 5408,
  "yin de ": 5409,
  "chang di ": 5410,
  "fei lv ": 5411,
  "que ren ": 5412,
  "fa an ": 5413,
  "ju zhang ": 5414,
  "   jie zhi ": 5415,
  "cai qu ": 5416,
  "shen ti ": 5417,
  "bei er ": 5418,
  "chang pian ": 5419,
  " ta hai ": 5420,
  " shang hai ": 5421,
  " zhong guo ren min ": 5422,
  " kang ": 5423,
  "shou zhong ": 5424,
  "che xiao ": 5425,
  "can jia le ": 5426,
  "1995 nian ": 5427,
  " 2016": 5428,
  "bo fang ": 5429,
  "chan pin": 5430,
  " kuan ": 5431,
  " er fu ": 5432,
  "jiao lian ": 5433,
  "xie ren ": 5434,
  "che de ": 5435,
  "zhu zuo ": 5436,
  "ban fa ": 5437,
  "fu you ": 5438,
  "su wei ": 5439,
  "chuan bo ": 5440,
  " 23": 5441,
  " yi ju ": 5442,
  " yi nian ": 5443,
  "   H": 5444,
  "zhe li ": 5445,
  "hua yuan ": 5446,
  "ma si ": 5447,
  "1994 nian ": 5448,
  " wei ren ": 5449,
  " quan guo ": 5450,
  "   zhong guo ": 5451,
  "sui ji ": 5452,
  " li ru": 5453,
  "tie lu": 5454,
  "dian qi ": 5455,
  "liang shi ": 5456,
  "qiu hui ": 5457,
  " tao ": 5458,
  " wei yuan hui": 5459,
  "ma de ": 5460,
  " qi lai ": 5461,
  "fa dian ": 5462,
  "wang qiu ": 5463,
  "ze you ": 5464,
  "bai se ": 5465,
  " shi yi nian ": 5466,
  "yue han ": 5467,
  "ju he ": 5468,
  "tai ji ": 5469,
  "jie hun ": 5470,
  "shen jing ": 5471,
  "gu de ": 5472,
  "chu xi ": 5473,
  "zhan tai ": 5474,
  "wan shang ": 5475,
  " que ": 5476,
  " di tie ": 5477,
  "ling bu ": 5478,
  " zhi di ": 5479,
  " you xie ": 5480,
  " yi zai ": 5481,
  "zi zhu ": 5482,
  " she ji ": 5483,
  "ye he ": 5484,
  "hua sheng ": 5485,
  " xing dong ": 5486,
  "chan sheng de ": 5487,
  " ren min zheng fu ": 5488,
  " wei neng ": 5489,
  "liang ren ": 5490,
  " you xiao ": 5491,
  "zu jian ": 5492,
  "ling xian ": 5493,
  "zhao kai ": 5494,
  "2020 nian mei guo ren kou pu cha de shu ju ": 5495,
  "xue he ": 5496,
  "ma lai xi ya ": 5497,
  " dai biao ": 5498,
  "le ta ": 5499,
  " ka": 5500,
  " cao ": 5501,
  "chao de ": 5502,
  " er bu ": 5503,
  "tong che ": 5504,
  "yan chang hui ": 5505,
  "xu li ya ": 5506,
  "chang zai ": 5507,
  "yao wu ": 5508,
  "qin shi ": 5509,
  "huo jian ": 5510,
  "ti zhong ": 5511,
  "ru xuan ": 5512,
  "kuo da ": 5513,
  " zai xi ": 5514,
  " xi la ": 5515,
  "chu xian zai ": 5516,
  "yin du": 5517,
  "lie biao ": 5518,
  "   2025": 5519,
  "15 ": 5520,
  " ying yu ": 5521,
  "   nian": 5522,
  " li shu ": 5523,
  "ge da ": 5524,
  "ge er ": 5525,
  "xue xiao": 5526,
  "   2024": 5527,
  "xiang xi ": 5528,
  " gong cheng ": 5529,
  "xin ji ": 5530,
  " fu jin ": 5531,
  "gua ": 5532,
  "   qian ": 5533,
  " da bu fen ": 5534,
  "shan xi sheng ": 5535,
  "xing zhong ": 5536,
  "dai bu ": 5537,
  "tai shi ": 5538,
  "si te ": 5539,
  "chang pian": 5540,
  "kong bu ": 5541,
  " shi de yi ": 5542,
  " zhi du ": 5543,
  "hu bei ": 5544,
  "lv xing ": 5545,
  "tuo li ": 5546,
  "gong hui ": 5547,
  "shen shi ": 5548,
  "cheng li de ": 5549,
  "da bu fen ": 5550,
  "I ": 5551,
  "te   ": 5552,
  " wei li ": 5553,
  "ao di li ": 5554,
  "gui ze ": 5555,
  " liang ren ": 5556,
  "da lu de ": 5557,
  " C ": 5558,
  "lao dong ": 5559,
  "shang hai": 5560,
  "1991 nian ": 5561,
  " yi tong ": 5562,
  "jing yu ": 5563,
  "zhuang de ": 5564,
  "cu jin ": 5565,
  "zhou bian ": 5566,
  "tong bu ": 5567,
  " qiao ": 5568,
  "pei yin ": 5569,
  "xing xiang ": 5570,
  "ci zai ": 5571,
  "fen li ": 5572,
  " lu": 5573,
  "zhuang kuang ": 5574,
  " li shi shang ": 5575,
  "long de ": 5576,
  "suan ji ": 5577,
  "xing qu ": 5578,
  "D ": 5579,
  " ming chao zheng zhi ren wu ": 5580,
  "3 nian ": 5581,
  "   J": 5582,
  "wu ke lan": 5583,
  "jin bu ": 5584,
  "bao shi ": 5585,
  "dai biao da hui ": 5586,
  "R ": 5587,
  "wu he ": 5588,
  " zhi zi ": 5589,
  "nan shi ": 5590,
  "zhu chang ": 5591,
  "pei he ": 5592,
  " zhe jiang ": 5593,
  "   a": 5594,
  "ping wei ": 5595,
  "ze wei ": 5596,
  "te se ": 5597,
  "sui hou ": 5598,
  "xia ji ao lin pi ke yun dong hui ": 5599,
  "22 ": 5600,
  "jiao xue ": 5601,
  "wan ren ": 5602,
  " ji er ": 5603,
  "xie shi ": 5604,
  "pu bian ": 5605,
  "   W": 5606,
  "da he ": 5607,
  "zhe zai ": 5608,
  "piao fang ": 5609,
  "la ji ": 5610,
  " shi tu ": 5611,
  " 3 yue ": 5612,
  " yao qiu ": 5613,
  "wen xian ": 5614,
  "luo ji ": 5615,
  "fei zhou ": 5616,
  "   xiao ": 5617,
  "lian ren ": 5618,
  " xi ju ": 5619,
  "sa si ": 5620,
  " wei he ": 5621,
  "an quan": 5622,
  " 2011 nian ": 5623,
  "dao zhong ": 5624,
  "zhuan xiang ": 5625,
  " fu jian ": 5626,
  "kao lv ": 5627,
  "le   ": 5628,
  "she ji de ": 5629,
  "wang chao ": 5630,
  " nai": 5631,
  "jie ren ": 5632,
  "ming xian ": 5633,
  "16 ": 5634,
  " wei wu ": 5635,
  " pan ": 5636,
  "zhu zhang ": 5637,
  "gong zhi ": 5638,
  " bu ke ": 5639,
  " xi bu ": 5640,
  "zheng he ": 5641,
  "tong dao ": 5642,
  "m   ": 5643,
  " sun": 5644,
  " wei xing ": 5645,
  "4 nian ": 5646,
  " mai": 5647,
  "xu zai ": 5648,
  "biao mian ": 5649,
  " nv xing ": 5650,
  "   guo ": 5651,
  "kou wei ": 5653,
  "mei guo de ": 5654,
  "ling dao ren ": 5655,
  " jiao yu ": 5656,
  " wei lai ": 5657,
  "bi sai": 5658,
  "qi zhong yi zhong ": 5659,
  " 2021": 5660,
  "zhao dao ": 5661,
  "hu yu ": 5662,
  "si ling ": 5663,
  "1993 nian ": 5664,
  "jing cha": 5665,
  "fang wu ": 5666,
  "hong se ": 5667,
  "1988 nian ": 5668,
  " li mi ": 5669,
  " yu le ": 5670,
  "yuan gong ": 5671,
  "zui hou": 5672,
  " shi wei le ": 5673,
  " de zhi wu ": 5674,
  "   cong ": 5675,
  "hun yin ": 5676,
  "yun dong": 5677,
  "cai liao ": 5678,
  " cheng gong ": 5679,
  " s   ": 5680,
  " wei hui ": 5681,
  " xi ya": 5682,
  " ji hui ": 5683,
  " 2001 nian ren kou ": 5684,
  "dong nan bu ": 5685,
  " nian qian ": 5686,
  " you bu ": 5687,
  "dong bei bu ": 5688,
  " 2015": 5689,
  "hua ji ": 5690,
  "fen bu yu ": 5691,
  "i ": 5692,
  "jun yu ": 5693,
  "shou zhi ": 5694,
  " tui ": 5695,
  "fu zai ": 5696,
  "bian shi ": 5697,
  "ying gai ": 5698,
  " xing qi ": 5699,
  "   2012": 5700,
  "ti zhi ": 5701,
  " ren shu ": 5702,
  "da chen ": 5703,
  "bao zhi ": 5704,
  " han guo ": 5705,
  "   V": 5706,
  "si ge ": 5707,
  "fei chu ": 5708,
  " ti gong ": 5709,
  " 2005 nian ": 5710,
  "jin you ": 5711,
  "25 ": 5712,
  "dian hua ": 5713,
  "ge he ": 5714,
  " bu men ": 5715,
  " zhong": 5716,
  "bao yu ": 5717,
  " yi ban": 5718,
  " Ma": 5719,
  "ruan jian ": 5720,
  "sao ": 5721,
  " guan yu ": 5722,
  "yuan xing ": 5723,
  "wu tai ": 5724,
  "M ": 5725,
  "ling di ": 5726,
  "chi you ": 5727,
  "dui zhang ": 5728,
  "tui jin ": 5729,
  "zhu jue ": 5730,
  "geng duo ": 5731,
  " yin er ": 5732,
  " sui de ": 5733,
  "fa xian le ": 5734,
  " nian di ": 5735,
  " quan": 5736,
  "chu lai ": 5737,
  "ti dao ": 5738,
  "yong zuo ": 5739,
  "suo zai ": 5740,
  "zheng chang ": 5741,
  "jue shi ": 5742,
  "wu zhuang ": 5743,
  "1 hao ": 5744,
  "guo ji ji ": 5745,
  "mei de ": 5746,
  "ya li shan da ": 5747,
  "ben di ": 5748,
  "bian xing ": 5749,
  "E ": 5750,
  " da cheng ": 5751,
  "gui de ": 5752,
  " er shui yu mian ji wei 0": 5753,
  "ri jun ": 5754,
  " zao cheng ": 5755,
  "yin di ": 5756,
  "jiao you ": 5757,
  "bo si ": 5758,
  "dou hui ": 5759,
  "po huai": 5760,
  "tai ren ": 5761,
  "dong fang ": 5762,
  "tong yang ": 5763,
  "jiao da ": 5764,
  "huo zhe ": 5765,
  " ping fang mi ": 5766,
  " zai jia ": 5767,
  " da liang ": 5768,
  "hai wai ": 5769,
  "tuan de ": 5770,
  "re   ": 5771,
  "ming xing ": 5772,
  "qing bao ": 5773,
  "an hui ": 5774,
  "nei you ": 5775,
  "dui wai ": 5776,
  "cao zuo ": 5777,
  "jie shao ": 5778,
  "qian wang": 5779,
  " reng": 5780,
  " sui zhe ": 5781,
  " 2017": 5782,
  "jie mu": 5783,
  "ye hui ": 5784,
  "xia you ": 5785,
  " he ping ": 5786,
  " er gai di ": 5787,
  "can mou": 5788,
  " 2020": 5789,
  " 2014": 5790,
  " dou": 5791,
  "   zao nian ": 5792,
  "xiang yi ": 5793,
  "on   ": 5794,
  "yong tu ": 5795,
  " 2013": 5796,
  "qiang de ": 5797,
  " yu he ": 5798,
  "chu kou ": 5799,
  " yi du ": 5800,
  " zhi ding ": 5801,
  "gai shan ": 5802,
  "ao yun hui ": 5803,
  "biao de ": 5804,
  "la he ": 5805,
  "18 ": 5806,
  " xi tong": 5807,
  " de shi jie ": 5808,
  "gao jia ": 5809,
  "xi nan ": 5810,
  " yue nan ": 5811,
  "dui xiang ": 5812,
  "2 nian ": 5813,
  "xian jin ": 5814,
  "yan shen ": 5815,
  "que zhen bing li ": 5816,
  "dun de ": 5817,
  " jia na da ": 5818,
  " bao han ": 5819,
  "mei li ": 5820,
  "san ji ": 5821,
  "zuo qu ": 5822,
  " shi da ": 5823,
  "le da ": 5824,
  "xiao qu ": 5825,
  "jun qu ": 5826,
  "deng shang ": 5827,
  " xiu": 5828,
  " sheng yu ": 5829,
  "zheng ti ": 5830,
  "jia zai ": 5831,
  "chang you ": 5832,
  "le ta de ": 5833,
  "xia xia de yi ge ": 5834,
  "long jiang ": 5835,
  "ge lun ": 5836,
  " ye you ": 5837,
  "duo ren ": 5838,
  "jue yi ": 5839,
  "shu ru ": 5840,
  "hai xia ": 5841,
  " dian ying ": 5842,
  "guan shi ": 5843,
  "sui zhu ": 5844,
  "nie ": 5845,
  " xian ren ": 5846,
  "yun shi ": 5847,
  " qi zai ": 5848,
  "yun zuo ": 5849,
  " ri de ": 5850,
  "19 shi ji ": 5851,
  "ju yi ": 5852,
  "13 ": 5853,
  " wei ke ": 5854,
  "gou zao ": 5855,
  "ban shi chu ": 5856,
  " er yan ": 5857,
  " nan zhi ": 5858,
  "zhan zhi ": 5859,
  "liu zai ": 5860,
  "   Ma": 5861,
  "   zeng ": 5862,
  "zuo ren ": 5863,
  "dian che ": 5864,
  " sai ji ": 5865,
  "fa shou ": 5866,
  "gao su gong lu ": 5867,
  " nian lai ": 5868,
  "kang ri ": 5869,
  "shu yuan ": 5870,
  "jia you ": 5871,
  "du he ": 5872,
  "fei li ": 5873,
  "jun guan ": 5874,
  "mi mi ": 5875,
  "1990 nian ": 5876,
  "kai zhan ": 5877,
  " shi wu ke ": 5878,
  "ren da ": 5879,
  " zhong zai ": 5880,
  " 100": 5881,
  "shang yu ": 5882,
  "bin hai ": 5883,
  " dong lin ": 5884,
  " 2010": 5885,
  "shen me": 5886,
  " wan mei yuan ": 5887,
  " shao ": 5888,
  "xia ling": 5889,
  "tian shi ": 5890,
  "chuang jian ": 5891,
  "jiang hui ": 5892,
  "liang ci ": 5893,
  "ling xiu ": 5894,
  "zhuang bei ": 5895,
  "dong zuo ": 5896,
  " niu": 5897,
  "chuan zhi ": 5898,
  "chai chu ": 5899,
  "sen lin ": 5900,
  " cheng li ": 5901,
  "shou yi ": 5902,
  " qi xiang ": 5903,
  "shou zhang ": 5904,
  " tai wan": 5905,
  "cai zheng ": 5906,
  "an da ": 5907,
  "ya ke ": 5908,
  "bi mian ": 5909,
  "gu li ": 5910,
  " qi zi ": 5911,
  "tou piao": 5912,
  "shan qu ": 5913,
  " zheng zhi ": 5914,
  "hui yuan ": 5915,
  "   si ": 5916,
  " ju xing ": 5917,
  " po": 5918,
  " jian yu ": 5919,
  "bei shi wei ": 5920,
  "tu xing ": 5921,
  "qin zi ": 5922,
  " er tong ": 5923,
  "ju qing ": 5924,
  "ka luo ": 5925,
  " qi": 5926,
  " nian 1 yue 1 ri ": 5927,
  "shou lu ": 5928,
  " heng ": 5929,
  "wu si ": 5930,
  " tai yang ": 5931,
  "zui gao": 5932,
  "hou shi ": 5933,
  "zhe bu ": 5934,
  "wai jiao bu ": 5935,
  " yi mei yuan ": 5936,
  "deng de ": 5937,
  "liu de ": 5938,
  " si ling ": 5939,
  "ce liang ": 5940,
  "1989 nian ": 5941,
  "jing xuan ": 5942,
  " mei ge ": 5943,
  "hui zhong ": 5944,
  "zhang guan ": 5945,
  "fan zui ": 5946,
  " jie shou ": 5947,
  "5 nian ": 5948,
  "b ": 5949,
  "ban li ": 5950,
  " huan": 5951,
  " 2007 nian ": 5952,
  "   dang ": 5953,
  "si yi ": 5954,
  "fu wei ": 5955,
  "suo shi ": 5956,
  "bing ru ": 5957,
  " you ke ": 5958,
  "xiang zheng ": 5959,
  " er zi ": 5960,
  "shou xi ": 5961,
  "geng wei ": 5962,
  "dai lai ": 5963,
  "ming zhong ": 5964,
  "bao shou ": 5965,
  " dong bei ": 5966,
  "fan wei nei ": 5967,
  "pian de ": 5968,
  "3 ge ": 5969,
  "mian shi ": 5970,
  "meng de ": 5971,
  "guo wang ": 5972,
  "tai feng ": 5973,
  "ri zhi ": 5974,
  " er cheng ": 5975,
  "hu nan ": 5976,
  " 2008 nian ": 5977,
  " qi xia ": 5978,
  "chu dao ": 5979,
  "zun ": 5980,
  " zai du ": 5981,
  " she hui ": 5982,
  " yi hou ": 5983,
  " jie ke ": 5984,
  " sheng huo xi ": 5985,
  "yan xi ": 5986,
  "fang mian de ": 5987,
  "ren li ": 5988,
  "can yi yuan ": 5989,
  "kai tong ": 5990,
  " yong you ": 5991,
  "tai zi ": 5992,
  "jun zhu ": 5993,
  "qing chu ": 5994,
  "ding ju ": 5995,
  "gong zhu ": 5996,
  "sheng yin ": 5997,
  " she you ": 5998,
  "hua he wu ": 5999,
  "zhan qi jian ": 6000,
  " 2012": 6001,
  "jin wei ": 6002,
  "1984 nian ": 6003,
  "zhou qi ": 6004,
  "zu fu ": 6005,
  "jian jie ": 6006,
  " si wang ": 6007,
  "liang ji ": 6008,
  "pi fu ": 6009,
  "fei de ": 6010,
  "wai bu ": 6011,
  "xiang hu ": 6012,
  "ying ye ": 6013,
  "guan cha ": 6014,
  "xing bu ming ": 6015,
  "dui you ": 6016,
  "zhu yao de ": 6017,
  "lei da ": 6018,
  "du li de ": 6019,
  " sha": 6020,
  " lao": 6021,
  " ju you ": 6022,
  "zhuan de ": 6023,
  "   ming ": 6025,
  "lv de ": 6026,
  "xi ju ": 6027,
  " can jia ": 6028,
  "bing de ": 6029,
  "jiang ji ": 6030,
  "er yue ": 6031,
  "chang zhi ": 6032,
  "ma la ": 6033,
  "gou mai ": 6034,
  " sheng huo xi xing bu ming ": 6035,
  " yi dai ": 6036,
  "tian qi ": 6037,
  "e   ": 6038,
  "que de ": 6039,
  "tong pai ": 6040,
  "xin yang ": 6041,
  "ni er ": 6042,
  " nian   ": 6043,
  "fa xing de ": 6044,
  "zuo biao wei ": 6045,
  "jiang ling ": 6046,
  "tou lu ": 6047,
  "jiu long ": 6048,
  "an zhuang ": 6049,
  " wu fa ": 6050,
  "   bei jing ": 6051,
  "liang xiang ": 6052,
  "jia li fu ": 6053,
  "xin xing ": 6054,
  "huo shan ": 6055,
  "zu zhi de ": 6056,
  "ke neng shi ": 6057,
  "jing zhong ": 6058,
  "cheng he ": 6059,
  "guan jian ": 6060,
  "tai bei shi ": 6061,
  " dong": 6062,
  " xiao": 6063,
  " gong you ": 6064,
  "lu ji ": 6065,
  "jiu du ": 6066,
  "   ci wai ": 6067,
  " yong yu ": 6068,
  "jie san ": 6069,
  "ru qin ": 6070,
  " zhong shi ": 6071,
  "kong qi ": 6072,
  " zai ci": 6073,
  " yue zhong ": 6074,
  "liang zhi ": 6075,
  "bai ren ": 6076,
  "fang yan ": 6077,
  "lun wen ": 6078,
  "er zhi ": 6079,
  "zhu yi de ": 6080,
  " zhong guo da lu ": 6081,
  "shang bu ": 6082,
  "zhe xie": 6083,
  "chuan shuo ": 6084,
  "ke yi zai ": 6085,
  "1985 nian ": 6086,
  "kao gu ": 6087,
  "hou bei ": 6088,
  " cha": 6089,
  " chu xian ": 6090,
  " yang": 6091,
  "qu ji ": 6092,
  "fu jin de ": 6093,
  " 2009": 6094,
  "zhang ai ": 6095,
  " kai": 6096,
  "ai ji ": 6097,
  "chu bu ": 6098,
  " yin qi ": 6099,
  "o ": 6100,
  "tong nian ": 6101,
  "man de ": 6102,
  "jing fang ": 6103,
  " shi shi jie ": 6104,
  "xin jia po ": 6105,
  " duan ": 6106,
  "mo si ke ": 6107,
  "   ju qing ": 6108,
  " can yu ": 6109,
  "lian zai ": 6110,
  "yu yan ": 6111,
  " bi ru ": 6112,
  "2 ren ": 6113,
  "cheng nian ": 6114,
  "kao jin ": 6115,
  "3 ren ": 6116,
  " di shi ": 6117,
  "qian ren ": 6118,
  " wei ci ": 6119,
  "zhan ting ": 6120,
  "gui zu ": 6121,
  "1 li ": 6122,
  "ming ren ": 6123,
  "yun nan ": 6124,
  "zhong dian ": 6125,
  "zuo zhe ": 6126,
  "guang dong sheng ": 6127,
  " shi ri ben ": 6128,
  "mu qin": 6129,
  " qi shi ": 6130,
  " si chuan ": 6131,
  " gong tong ": 6132,
  " 2008": 6133,
  "qu le ": 6134,
  "zhe wei ": 6135,
  " guo cheng zhong ": 6136,
  "bao zhang ": 6137,
  "tai du ": 6138,
  " chu sheng yu ": 6139,
  " te bie shi ": 6140,
  " 1949": 6141,
  " 2013 nian ": 6142,
  "zhou ji ": 6143,
  "gao da ": 6144,
  " ren ming ": 6145,
  "zong shi ": 6146,
  " shi ji shang ": 6147,
  "   ben": 6148,
  "yin qing ": 6149,
  "chang jian de ": 6150,
  "suo shu ": 6151,
  "shuang fang ": 6152,
  "qu yi hui ": 6153,
  "yin he ": 6154,
  "jiang zai ": 6155,
  " you ci ": 6156,
  "quan zhang ": 6157,
  "xun yang ": 6158,
  "fa hui ": 6159,
  " di wu ": 6160,
  "ying xiong ": 6161,
  " 50": 6162,
  "hua yi ": 6163,
  "xiu zheng ": 6164,
  "hua zhi ": 6165,
  "gan bu ": 6166,
  " shi de guo ": 6167,
  "fang yi ": 6168,
  "you xian ": 6169,
  " qi xi ": 6170,
  "le yu ": 6171,
  "tiao li ": 6172,
  "chu zai ": 6174,
  " zeng ": 6175,
  "cuo wu ": 6176,
  " jia ting ": 6177,
  "chu yan ": 6178,
  "   di fang ": 6179,
  " guo hui ": 6180,
  "bian ju ": 6181,
  " cai": 6182,
  "sui shi ": 6183,
  " yi xiao shi ": 6184,
  " xue xiao ": 6185,
  "sheng tai ": 6186,
  " bing du ": 6187,
  "shou xiang ": 6188,
  "wan gong ": 6189,
  "neng liang ": 6190,
  "hu bu ": 6191,
  "ban bu ": 6192,
  "yuan ze ": 6193,
  "fa lan xi ": 6194,
  " wu ke lan ": 6195,
  " su": 6196,
  "lao de ": 6197,
  " yue tuan ": 6198,
  "zhou ci shi ": 6199,
  "tao tai ": 6200,
  "   qi ta ": 6201,
  "shu li ": 6202,
  "xiang guan de ": 6203,
  " dui": 6204,
  "chu zhi ": 6205,
  "zui you ": 6206,
  "feng wei ": 6207,
  "lu kou ": 6208,
  "lu ying ": 6209,
  "qing hua ": 6210,
  " wan yuan ": 6211,
  "   2010": 6212,
  " nian kai shi ": 6213,
  " ping jun ": 6214,
  "   di er ": 6215,
  "gu fen": 6216,
  "ke de qi zhong yi zhong ": 6217,
  "   mei guo ": 6218,
  "hui bu ": 6219,
  " wei chi ": 6220,
  "qing qiu ": 6221,
  "zhi de shi ": 6222,
  "fa guan ": 6223,
  "yao qiu": 6224,
  "dang di de ": 6225,
  "kai she ": 6226,
  "he   ": 6227,
  "huan cheng ": 6228,
  "30 ": 6229,
  " zhong hua ren min gong he guo zheng zhi ren wu ": 6230,
  "r   ": 6231,
  "si zhi ": 6232,
  " ji nian": 6233,
  " he xin ": 6234,
  "huo xing ": 6235,
  "gai cheng ": 6236,
  " shi yong": 6237,
  "   dan ": 6238,
  "ling ren ": 6239,
  "he xin ": 6240,
  " 2022": 6241,
  "han you ": 6242,
  "hen da ": 6243,
  " he zhong ": 6244,
  "mei shu ": 6245,
  "dao bu ": 6246,
  "han yu ": 6247,
  "zhuang ji ": 6248,
  "cui hui ": 6249,
  "lu ke ": 6250,
  " shi ge ": 6251,
  "cheng ke ": 6252,
  " wan jia ": 6253,
  "pai ming di ": 6254,
  "xia wei ": 6255,
  "   2011": 6256,
  "qiang diao ": 6257,
  " 2006 nian ": 6258,
  "en sheng ": 6259,
  "dang wei ": 6260,
  " mai ke ": 6261,
  "zheng wei ": 6262,
  "xi la ": 6263,
  "ya jun ": 6264,
  " xiong": 6265,
  "yuan zhong ": 6266,
  "bei wei ": 6267,
  " yi zuo ": 6268,
  "zui gao de ": 6269,
  "tian jing ": 6270,
  "ni ya zhou ": 6271,
  "neng zai ": 6272,
  "gong ying ": 6273,
  " hen ": 6274,
  "ji   ": 6275,
  "xia qu ": 6276,
  "suo chu de ": 6277,
  "can kao ": 6278,
  "ya yi ": 6279,
  "cheng ben ": 6280,
  "dang ju ": 6281,
  "ti yu chang ": 6282,
  "6 nian ": 6283,
  "xie er ": 6284,
  "shang hai shi ": 6285,
  "sheng you ": 6286,
  "suo zhi ": 6287,
  "14 ": 6288,
  " ji bu ": 6289,
  "tu po ": 6290,
  " ye jiu shi ": 6291,
  " A ": 6292,
  " da duo ": 6293,
  "te ding ": 6294,
  "deng deng ": 6295,
  "kun nan ": 6296,
  "ren yuan ": 6297,
  " da xing ": 6298,
  "yin ru ": 6299,
  "a la bo ": 6300,
  " qing": 6301,
  "tai zhong ": 6302,
  "bai de ": 6303,
  "xie dao ": 6304,
  "n   ": 6305,
  "xiang you ": 6306,
  "fou ": 6307,
  " yi fu ": 6308,
  " meng": 6309,
  " wen hua ": 6310,
  "jing zhi ": 6311,
  " ji du ": 6312,
  "ke xue yuan ": 6313,
  "tan de ": 6314,
  "shun li ": 6315,
  "huo ban ": 6316,
  "fen bu zai ": 6317,
  "7 nian ": 6318,
  "huan de ": 6319,
  "xiu fu ": 6320,
  "xian sheng ": 6321,
  " da fu ": 6322,
  "la ding ": 6323,
  " sui zhu ": 6324,
  "xi bao ": 6325,
  "zhan xian ": 6326,
  "   1 ": 6327,
  "cheng guo ": 6328,
  "le qi ": 6329,
  "jun zhi ": 6330,
  "qing xing ": 6331,
  " xi ban ya ": 6332,
  "   3": 6333,
  "xiang wei ": 6334,
  "lai shi ": 6335,
  "da hui ": 6336,
  " xiang nian ": 6337,
  "   a ": 6338,
  "wang yuan ": 6339,
  " xi er ": 6340,
  "ru qin": 6341,
  " bu jin ": 6342,
  " ke er ": 6343,
  " 2012 nian ": 6344,
  "wu zi ": 6345,
  "duo wei ": 6346,
  "chuan de ": 6347,
  "hai yang ": 6348,
  "jing he ": 6349,
  "xiao yuan ": 6350,
  "kai fa": 6351,
  "zhong guo da lu de ": 6352,
  "ke you ": 6353,
  "hai ping mian ": 6354,
  "gai shi ": 6355,
  "suo wei ": 6356,
  "xiu jian ": 6357,
  "sheng chu ": 6358,
  " ta ceng dai biao ": 6359,
  "gan ran zhe ": 6360,
  " he lan ": 6361,
  "tong meng ": 6362,
  "qiang lie ": 6363,
  "hei se ": 6364,
  "w ": 6365,
  "ze zai ": 6366,
  " ri jun ": 6367,
  "1 ren ": 6368,
  "   yin ": 6369,
  "xue yu ": 6370,
  "lai yue ": 6371,
  "1980 nian ": 6372,
  " zu fu ": 6373,
  " 00 ": 6374,
  "hong zha": 6375,
  "ci shi jie da zhan ": 6376,
  "jia wei ": 6377,
  "tai yu ": 6378,
  "zui wei ": 6379,
  "shou gou ": 6380,
  "zhao pian ": 6381,
  "le zai ": 6382,
  "yin li ": 6383,
  "chui ": 6384,
  "ya mei ": 6385,
  " U": 6386,
  "zhou zhi ": 6387,
  "zhen yu ": 6388,
  "jing yi ": 6389,
  "gu dai ": 6390,
  "gei le ": 6391,
  "li yu ": 6392,
  "zhu zhi ": 6393,
  "jiang zhi ": 6394,
  "zu yi ": 6395,
  "huang hou ": 6396,
  "1986 nian ": 6397,
  "ren lei ": 6398,
  "dang yuan ": 6399,
  " tong shi gai di ": 6400,
  "4 ren ": 6401,
  "   17": 6402,
  "bei yu ": 6403,
  "zhang wei ": 6404,
  "te xing ": 6405,
  "da jiang ": 6406,
  " de ji chu ": 6407,
  " guang dong ": 6408,
  "hou wei ": 6409,
  "ding qi ": 6410,
  "ce   ": 6411,
  "man zu ": 6412,
  " liao ": 6413,
  "zu qiu yun dong yuan ": 6414,
  "bo shi xue wei ": 6415,
  "4 ge ": 6416,
  " ku ": 6417,
  "qiang zhi ": 6418,
  "beng ": 6419,
  "bei jing shi ": 6420,
  "shang chang ": 6421,
  "nong min ": 6422,
  "nei lu sheng fen ": 6423,
  "xiang he ": 6424,
  "jiao zhi ": 6425,
  "liang guo ": 6426,
  "cheng bao ": 6427,
  "jiu hui ": 6428,
  "ben shen ": 6429,
  "cheng shi de ": 6430,
  "zhen ji ": 6431,
  "ke fu ": 6432,
  " huo zhe ": 6433,
  " a er ": 6434,
  "chu you ": 6435,
  "bang de ": 6436,
  " tie ": 6437,
  "st   ": 6438,
  " zhong zi ": 6439,
  "xun zhang ": 6440,
  "chuang ban ": 6441,
  "xia ling shi jian ": 6442,
  " pu": 6443,
  "tong wei ": 6444,
  "jing zai ": 6445,
  "duan shi ": 6446,
  " Z": 6447,
  "mo si ": 6448,
  " zhi yi ": 6449,
  "le you ": 6450,
  "bian hao ": 6451,
  " mu qian": 6452,
  " bu di ": 6453,
  "ke zhi ": 6454,
  "kuo zhan ": 6455,
  " mei nian ": 6456,
  "ri de ": 6457,
  "tang de ": 6458,
  " ren qi ": 6459,
  "xiang xin ": 6460,
  "lu xu ": 6461,
  "min di ": 6462,
  "shang xia ": 6463,
  "jiu yi ": 6464,
  "zao zai ": 6465,
  "di qiu ": 6466,
  " di": 6467,
  "19 ": 6468,
  "wo de ": 6469,
  " bu luo ": 6470,
  "wu dao ": 6471,
  "ta wei ": 6472,
  "jun he ": 6473,
  "wan de ": 6474,
  "ju da ": 6475,
  "   jian jie ": 6476,
  " 10 ": 6477,
  "mu zhi ": 6478,
  " ji fu ": 6479,
  "ren gong ": 6480,
  "   2": 6481,
  "gao zhi ": 6482,
  "fan zhi ": 6483,
  "xuan de ": 6484,
  "xi wang ": 6485,
  "ge ming": 6486,
  "tian ti ": 6487,
  "wei yi yi ": 6488,
  " kan ": 6489,
  "   jie ": 6490,
  "chi ren ": 6491,
  "mu ni ": 6492,
  " 500": 6493,
  "1945 nian ": 6494,
  "wu zheng zhuang ": 6495,
  " qi che ": 6496,
  "zhe xue ": 6497,
  "suo you de ": 6498,
  "tan pan ": 6499,
  " shi yi ge wei yu ": 6500,
  "hui guo ": 6501,
  "nan fang ": 6502,
  "liang ming ": 6503,
  "mi ya ": 6504,
  " xian hou ": 6505,
  "zi zhong ": 6506,
  " 1950": 6507,
  "qu zhi ": 6508,
  "xi ya ": 6509,
  "jiang jin ": 6510,
  "yue nan ": 6511,
  "   di fang zi liao ": 6512,
  "dian he ": 6513,
  "ya he ": 6514,
  "rong he ": 6515,
  "xiang bi ": 6516,
  "sha hai ": 6517,
  " 2014 nian ": 6518,
  "   2 ": 6519,
  "fei er ": 6520,
  "feng fu ": 6521,
  "wen du ": 6522,
  "di yi wei ": 6523,
  "yan yu ": 6524,
  "bing yi ": 6525,
  "ling yi ge ": 6526,
  " wa ": 6527,
  "dui ci ": 6528,
  " ni": 6529,
  " song": 6530,
  "dai shi ": 6531,
  "ping de ": 6532,
  "nuo fu ": 6533,
  " guo qu ": 6534,
  "fang jian ": 6535,
  "zi zai ": 6536,
  "chu shou ": 6537,
  "yin pai ": 6538,
  "chang jian ": 6539,
  "ao zhou ": 6540,
  "h ": 6541,
  " jiu shi ": 6542,
  "ceng wei ": 6543,
  "gao xiong": 6544,
  "pai hang ": 6545,
  " yi si lan ": 6546,
  "ye ji ": 6547,
  " yi wu ": 6548,
  "shen du ": 6549,
  "liang nian ": 6550,
  " nian wei ": 6551,
  "qin wang ": 6552,
  "san jia ": 6553,
  "nv zhu ": 6554,
  " 0 ": 6555,
  "   ying ": 6556,
  "zhou he ": 6557,
  "xiu de ": 6558,
  "1987 nian ": 6559,
  "na cui": 6560,
  "guan li ju ": 6561,
  "ding shi ": 6562,
  "da xi yang ": 6563,
  " xu": 6564,
  "hao shi ": 6565,
  "hai ba wei ": 6566,
  " ruo ": 6567,
  "ti wei ": 6568,
  " ji hou ": 6569,
  " ke xi ": 6570,
  "shan feng ": 6571,
  "zheng ce": 6572,
  "tong ming ": 6573,
  " jia zu ": 6574,
  "dong shi zhang ": 6575,
  "ye yi ": 6576,
  "pei zhi ": 6577,
  "zou xiang ": 6578,
  " you zhong ": 6579,
  "xiao fang ": 6580,
  "zai li ": 6581,
  "zhu wei ": 6582,
  "liang da ": 6583,
  " xi lie": 6584,
  "suo cai yong": 6585,
  " bing wei ": 6586,
  "L ": 6587,
  "jie zhong ": 6588,
  " bu duan ": 6589,
  " shi yi bu ": 6590,
  "han de ": 6591,
  "huan zhe ": 6592,
  " bu er ": 6593,
  " da duo shu ": 6594,
  "gai zao ": 6595,
  "neng yuan ": 6596,
  "le zhong ": 6597,
  " gen ": 6598,
  "hu wei ": 6599,
  "jun ren ": 6600,
  "1983 nian ": 6601,
  "zhan lve": 6602,
  "kao lv": 6603,
  " xiao shi ": 6604,
  "shou ren ": 6605,
  "1982 nian ": 6606,
  "zhi shi qi ": 6607,
  " ku": 6608,
  "wen zhong ": 6609,
  "mang ": 6610,
  "zhan lan ": 6611,
  "gong cheng shi ": 6612,
  "jie ti ": 6613,
  "   In": 6614,
  "jun zhong ": 6615,
  "gan ran ": 6616,
  "ba he ": 6617,
  "man di ": 6618,
  " shi ye ": 6619,
  "er tong ": 6620,
  "gu ding ": 6621,
  "meng gu": 6622,
  " 40": 6623,
  "   jing ": 6624,
  " zai you ": 6625,
  "ge ju ": 6626,
  "tai he ": 6627,
  " cn": 6628,
  "le zhe ": 6629,
  "huan xing ": 6630,
  " guo nei ": 6631,
  " wei yu gai ": 6632,
  "lun shi ": 6633,
  "zheng xie": 6634,
  "shang sheng ": 6635,
  "bo lin ": 6636,
  "ge yu ": 6637,
  "jie li ": 6638,
  "hui yi yuan ": 6639,
  "jue dui ": 6640,
  "gong li de ": 6641,
  "kou de ": 6642,
  " er fei ": 6643,
  "mu qian": 6644,
  "diao kuai": 6645,
  "ai er lan ": 6646,
  "dao wei ": 6647,
  "xiao fei ": 6648,
  "xia ling ": 6649,
  " fu qin ": 6650,
  " de yi shu ": 6651,
  "mian dui ": 6652,
  " dong nan ": 6653,
  " wei UTC ": 6654,
  "sheng di ": 6655,
  "zhu yi zhe ": 6656,
  "lian he hui ": 6657,
  "yan hai ": 6658,
  "kai shi shi ": 6659,
  "xiong ya li ": 6660,
  " cn ": 6661,
  " luo": 6662,
  "   zheng ": 6663,
  "   ma ": 6664,
  "   jiao tong ": 6665,
  "zhu he ": 6666,
  "wen he ": 6667,
  " er qi ": 6668,
  "zhou yi ": 6669,
  "san wei ": 6670,
  "san da ": 6671,
  "zi shen ": 6672,
  "diao kuai yi xiao shi ": 6673,
  "cheng you ": 6674,
  "chong ji ": 6675,
  "guo hui ": 6676,
  "liu xia ": 6677,
  " chi": 6678,
  "lao shi ": 6679,
  " ji UTC ": 6680,
  "pai qian ": 6681,
  " mei yuan ": 6682,
  "she you xia ling shi jian ": 6683,
  " ling you ": 6684,
  " de shi qu wei UTC ": 6685,
  " er gai di suo cai yong": 6686,
  " tong shi gai di she you xia ling shi jian ": 6687,
  " er gai di suo cai yong de shi qu wei UTC ": 6688,
  "shu ren ": 6689,
  "zhang yue ": 6690,
  "jing gao ": 6691,
  "nan hai ": 6692,
  "N ": 6693,
  "chuang zao ": 6694,
  "jian li le ": 6695,
  " wan li ": 6696,
  "mi shu zhang ": 6697,
  "xiang tong de ": 6698,
  "bing fei ": 6699,
  " ge qu ": 6700,
  "guan he ": 6701,
  "cai de ": 6702,
  "bi ye hou ": 6703,
  "gao yu hai ping mian ": 6704,
  "dang ji ": 6705,
  "qun zhong ": 6706,
  "G ": 6707,
  "ru de ": 6708,
  " qi fu ": 6709,
  " shi bei ": 6710,
  "qu de mian ji wei ": 6711,
  "hai ba wei gao yu hai ping mian ": 6712,
  "zhang he ": 6713,
  "jin xing de ": 6714,
  "gai ming wei ": 6715,
  " ge": 6716,
  " zi you ": 6717,
  "fa zhi ": 6718,
  "xuan zhong ": 6719,
  "jing du ": 6720,
  "chang suo ": 6721,
  "lie ru ": 6722,
  "tan xian ": 6723,
  " zhong shan ": 6724,
  "da bu fen": 6725,
  "guan cha": 6726,
  " qi zhong bao kuo ": 6727,
  " rong ": 6728,
  " shuo ": 6729,
  "zhan yu ": 6730,
  "bu shi qu ": 6731,
  "1 nian ": 6732,
  "fang ji ": 6733,
  "da lou ": 6734,
  "8 nian ": 6735,
  "da yi ": 6736,
  " yue yi ": 6737,
  " shuang": 6738,
  " shan xi ": 6739,
  "   4": 6740,
  "shang di ": 6741,
  "chao yue ": 6742,
  "hua jia ": 6743,
  "biao ben ": 6744,
  " huo dong ": 6745,
  " sa": 6746,
  " 2025": 6747,
  " 2015 nian ": 6748,
  "ping gu ": 6749,
  "   yan ": 6750,
  "tiao jie ": 6751,
  "zhang fu ": 6752,
  "cun luo ": 6753,
  "shou xian ": 6754,
  "tu jing ": 6755,
  "yi shi de ": 6756,
  "te ji ": 6757,
  "suo zai di ": 6758,
  "bian yi ": 6759,
  "dou zai ": 6760,
  "kai shi zai ": 6761,
  " luo ma ": 6762,
  " da lu ": 6763,
  "che xiang ": 6764,
  "K ": 6765,
  "li de ": 6766,
  "ben ren ": 6767,
  "ban ben": 6768,
  "2 ge ": 6769,
  "gong wei ": 6770,
  "gong neng": 6771,
  "suo chu de hai ba wei gao yu hai ping mian ": 6772,
  "   Re": 6773,
  "chang jing ": 6774,
  "dan bai ": 6775,
  "fei er de ": 6776,
  " bu xiang ": 6777,
  "qian ding ": 6778,
  "she xian ": 6779,
  "deng zhi ": 6780,
  "duan shi jian ": 6781,
  " zai ta ": 6782,
  "tui xiu ": 6783,
  "xiao yu ": 6784,
  "lai si ": 6785,
  "yang ji ": 6786,
  "se fu ": 6787,
  "jian kang ": 6788,
  " er bu shi ": 6789,
  "luo fa ": 6790,
  " er de ": 6791,
  "   an ": 6792,
  "san ren ": 6793,
  "hui gui ": 6794,
  "ti xing ": 6795,
  "2 hao ": 6796,
  "yin xiang ": 6797,
  "shen hua ": 6798,
  " de ji lu ": 6799,
  "ou xiang ": 6800,
  "   I": 6801,
  "yan ren ": 6802,
  "yong le ": 6803,
  "yan he ": 6804,
  "cai neng ": 6805,
  " kou ": 6806,
  "ju le ": 6807,
  "qu zhu ": 6808,
  "na xie ": 6809,
  " sui shi ": 6810,
  "yin yu ": 6811,
  "zu qiu dui ": 6812,
  "mian yi ": 6813,
  "shuai ling ": 6814,
  " qi xuan ": 6815,
  "di xia ": 6816,
  "zu cheng": 6817,
  "bo lan": 6818,
  " yi sheng ": 6819,
  " lu wa": 6820,
  "ke neng hui ": 6821,
  " he dao ": 6822,
  "can xuan ": 6823,
  "   di yi ": 6824,
  "chu zhong ": 6825,
  "kong xi ": 6826,
  " nian shi jie ": 6827,
  "quan yi ": 6828,
  "lian luo ": 6829,
  "hu xiang ": 6830,
  " 2023": 6831,
  "qing jie ": 6832,
  "dan shi ": 6833,
  "zhou li ": 6834,
  " zhong gong zhong yang ": 6835,
  "chang shang ": 6836,
  " 2016 nian ": 6837,
  "tu ji ": 6838,
  "zai yi qi ": 6839,
  "9 nian ": 6840,
  "yan zhong de ": 6841,
  " yu bei ": 6842,
  " ma lai": 6843,
  " chao xian ": 6844,
  "guan yi ": 6845,
  "mu er ": 6846,
  "kai de ": 6847,
  " shou ci ": 6848,
  " 2007": 6849,
  "   mei ": 6850,
  "shu bu ": 6851,
  "fa yi ": 6852,
  "ding li ": 6853,
  "dui ying ": 6854,
  "zhen qu de mian ji wei ": 6855,
  "ti gong le ": 6856,
  "H ": 6857,
  " hei": 6858,
  "   2008": 6859,
  " zhi shu ": 6860,
  "zi chan ": 6861,
  "fa sheng zai ": 6862,
  " shou dao ": 6863,
  "zhong yi yuan ": 6864,
  "zhu zhong ": 6865,
  "dai wei ": 6866,
  "nei di ": 6867,
  "   xing ": 6868,
  "que shi ": 6869,
  "1978 nian ": 6870,
  " yu xi ": 6871,
  "he liu ": 6872,
  "fu xing ": 6873,
  "xian zhu ": 6874,
  "bei si ": 6875,
  "yan se ": 6876,
  "zu qiu ju le bu ": 6877,
  "qian xi ": 6878,
  "kao shi ": 6879,
  "di qu de ": 6880,
  "ge guo ": 6881,
  "zheng bian ": 6882,
  "bao luo ": 6883,
  "zui duo ": 6884,
  "su ge lan ": 6885,
  "ti he ": 6886,
  "shang ji ": 6887,
  "yan ji ": 6888,
  "she zai ": 6889,
  "zi xun": 6890,
  "mian fei ": 6891,
  "mu si lin ": 6892,
  "dai ling ": 6893,
  "zhuan men ": 6894,
  "ka la ": 6895,
  "ru wei ": 6896,
  " shi jia ": 6897,
  " yuan ming ": 6898,
  "shen yi ": 6899,
  "wu guan ": 6900,
  "guan ce ": 6901,
  "she ji shi ": 6902,
  " 2 yue ": 6903,
  "san bu ": 6904,
  "zhong yao": 6905,
  "bei fang ": 6906,
  "bao cun ": 6907,
  "zhong guo da lu ": 6908,
  "qian yue ": 6909,
  " bu la ": 6910,
  "fei yan ": 6911,
  "zao shang ": 6912,
  " dun ": 6913,
  "mian dian ": 6914,
  " lv": 6915,
  " kan": 6916,
  "yang xing ": 6917,
  "ceng de ": 6918,
  " lun ": 6919,
  "   ran": 6920,
  "xue zhong ": 6921,
  " 24": 6922,
  "chu wei ": 6923,
  "bing yu ": 6924,
  "qing ren ": 6925,
  "ping guo ": 6926,
  "tui jian ": 6927,
  "liao de ": 6928,
  "quan xian ": 6929,
  " s": 6930,
  "guo nei ": 6931,
  "chuan tong de ": 6932,
  " bei cheng wei ": 6933,
  "ju feng ": 6934,
  "geng xin ": 6935,
  " shao": 6936,
  " lian he ": 6937,
  " jue ding ": 6938,
  "   gong ": 6939,
  "duo nian ": 6940,
  "lang zhong ": 6941,
  "di wu ": 6942,
  "tian hou ": 6943,
  " xiang guan ": 6944,
  "shu zai ": 6945,
  "gao shi ": 6946,
  "pian zhong ": 6947,
  "tong xun ": 6948,
  "wan zheng ": 6949,
  "hua zai ": 6950,
  "bian jing ": 6951,
  "shan xian ": 6952,
  "feng de ": 6953,
  "miao hui ": 6954,
  "yuan xian ": 6955,
  "shou quan ": 6956,
  "xie zuo ": 6957,
  "zan zhu ": 6958,
  "cheng zai ": 6959,
  "le de ": 6960,
  " li cheng ": 6961,
  "gui mo": 6962,
  "ju zai ": 6963,
  "mu yu ": 6964,
  "ba da ": 6965,
  "ba si ": 6966,
  "jue yu ": 6967,
  "ge la ": 6968,
  "fa ming ": 6969,
  "luo shan ji ": 6970,
  " 2019 nian ": 6971,
  "   ren ": 6972,
  "tu shu ": 6973,
  "li zi ": 6974,
  "é ": 6975,
  "xing mu ": 6976,
  " di qiu ": 6977,
  " peng": 6978,
  " zhi wai ": 6979,
  "zhang zhuan ji ": 6980,
  " zui gao ": 6981,
  " bi sai ": 6982,
  "7 ren ": 6983,
  "al   ": 6984,
  "xian ru ": 6985,
  "jin ri ": 6986,
  "shuang da ": 6987,
  "tun ": 6988,
  "qu jian ": 6989,
  "xing zai ": 6990,
  "xian zhong ": 6991,
  "fu zhu ": 6992,
  "che chang ": 6993,
  "bei ren ming wei ": 6994,
  "yin yue": 6995,
  "zhou ren ": 6996,
  " shi ta ": 6997,
  " 28": 6998,
  "dui zhong ": 6999,
  " shi er ": 7000,
  " shan dong ": 7001,
  "guo min dang ": 7002,
  " dian shi ": 7003,
  "liang he ": 7004,
  " you zai ": 7005,
  "ping lun": 7006,
  "jiu yuan ": 7007,
  " 7 ": 7008,
  " de shi yong ": 7009,
  " sang": 7010,
  "jiang yi ": 7011,
  "gai zhi wei ": 7012,
  "bian zhi ": 7013,
  " shi cheng ": 7014,
  " li liang ": 7015,
  "chu zhang ": 7016,
  "lin si ": 7017,
  "st ": 7018,
  "ju ben ": 7019,
  "jiao du ": 7020,
  "tian zhu ": 7021,
  " zu zhi ": 7022,
  " 2017 nian ": 7023,
  "luo li da ": 7024,
  " di di ": 7025,
  "xiao ying ": 7026,
  "1958 nian ": 7027,
  "pi zhun": 7028,
  " za zhi ": 7029,
  "   dong ": 7030,
  "su li ": 7031,
  "shang xian ": 7032,
  "zao cheng de ": 7033,
  " shi jian zhu ": 7034,
  " tang": 7035,
  " hang ": 7036,
  "   1": 7037,
  "ban ji ": 7038,
  "shou bo ": 7039,
  "zhang zi ": 7040,
  "hu lian ": 7041,
  " 2018 nian ": 7042,
  " nuo ": 7043,
  "ao er ": 7044,
  "   nan ": 7045,
  "tion ": 7046,
  "zhan mu si ": 7047,
  "ai li ": 7048,
  "   ba ": 7049,
  "1979 nian ": 7050,
  "fu shu ": 7051,
  "   dui ": 7052,
  "yun de ": 7053,
  "tou xian ": 7054,
  "1972 nian ": 7055,
  "lu zhan ": 7056,
  " hou zhe ": 7057,
  " huo shi ": 7058,
  "   ge ren ": 7059,
  "ding ji ": 7060,
  " wei bei ": 7061,
  "yun yong ": 7062,
  " pu tao ": 7063,
  "ba er ": 7064,
  "ma shi ": 7065,
  "huai yi ": 7066,
  "xia zai ": 7067,
  "xu ji ": 7068,
  " yi dong ": 7069,
  " wei yu zhong guo ": 7070,
  "guan ji ": 7071,
  "bao hu": 7072,
  " ying wen ": 7073,
  "can yi ": 7074,
  "huo che ": 7075,
  "qiang du ": 7076,
  " ci nian ": 7077,
  "chai ": 7078,
  " di ya ": 7079,
  "mi ni ": 7080,
  " ai er ": 7081,
  "shao de ": 7082,
  " zhi bu ": 7083,
  "xin guan ": 7084,
  "huo bi ": 7085,
  " xu yao ": 7086,
  " chun ": 7087,
  "zha dan ": 7088,
  "cu ": 7089,
  "jiao cha ": 7090,
  "lei si de ": 7091,
  "chuan mei ": 7092,
  "ju ban de ": 7093,
  "min zu": 7094,
  " gai bian ": 7095,
  " yan jiu ": 7096,
  "dao zai ": 7097,
  "luo shi ": 7098,
  "xue ke ": 7099,
  "5 ren ": 7100,
  "17 ": 7101,
  "di qi ": 7102,
  "bing du ": 7103,
  " xin wen ": 7104,
  "xing zheng qu ": 7105,
  "   2009": 7106,
  "na xia ": 7107,
  " ming zhi ": 7108,
  "   zeng zu ": 7109,
  "lie shi ": 7110,
  " zhong xing ": 7111,
  "xi nan bu ": 7112,
  "tai hou ": 7113,
  "zui zao": 7114,
  "wu yue ": 7115,
  "zheng ji ": 7116,
  " shi yi ke ": 7117,
  "xin jia po": 7118,
  "yao shi ": 7119,
  "pin de ": 7120,
  "gan yu ": 7121,
  "xiang fa ": 7122,
  "ti chu de ": 7123,
  "can ting ": 7124,
  " 35": 7125,
  "fa li ": 7126,
  "luo yu ": 7127,
  " da bu fen": 7128,
  " ren wei shi ": 7129,
  "ju ban": 7130,
  "tai kong ": 7131,
  " 2006": 7132,
  "xi you ": 7133,
  "chu guo ": 7134,
  "xue li ": 7135,
  "zhe he ": 7136,
  "bai yu ": 7137,
  "jue sai": 7138,
  " shi shi yong ": 7139,
  "zong yi ": 7140,
  "zong ren kou ": 7141,
  "te qu ": 7142,
  "qing zhu ": 7143,
  " bing bei ": 7144,
  "zhuan xie ": 7145,
  "fa xian de ": 7146,
  "jin rong": 7147,
  " xi yin ": 7148,
  "   hou ": 7149,
  "jiang li ": 7150,
  " zhong dian ": 7151,
  "zhu dao ": 7152,
  "xue ji ": 7153,
  "tong xin ": 7154,
  "mei jun ": 7155,
  " 2004 nian ": 7156,
  "shang wang ": 7157,
  "sui ran": 7158,
  "a gen ": 7159,
  " ma li ": 7160,
  " mao": 7161,
  "ba de ": 7162,
  "cheng le ": 7163,
  "jiao huan ": 7164,
  "wu zheng zhuang gan ran zhe ": 7165,
  " 2021 nian ": 7166,
  "xing shi de ": 7167,
  "su zhi ": 7168,
  "tou de ": 7169,
  "mi si ": 7170,
  "she jiao ": 7171,
  " yi gong ": 7172,
  " chu ban ": 7173,
  "   liu ": 7174,
  "sui zhe ": 7175,
  " shun": 7176,
  " wei yi ": 7177,
  "ll ": 7178,
  " yi qian ": 7179,
  " di zai ": 7180,
  "xin jian ": 7181,
  "zu jie ": 7182,
  " de yi yuan ": 7183,
  " shui": 7184,
  "ju zhi ": 7185,
  "dian wei ": 7186,
  "shen yu ": 7187,
  " shi ren min ": 7188,
  "xian zhi xian ": 7189,
  "   18": 7190,
  "   tian ": 7191,
  "xian li ": 7192,
  "dui ji ": 7193,
  "da xiao ": 7194,
  "ge zi ": 7195,
  "che di ": 7196,
  "fang mian": 7197,
  "duan pian ": 7198,
  "chuan qi ": 7199,
  "qi zhong ": 7200,
  "fa sheng": 7201,
  "gu la ": 7202,
  "huang se ": 7203,
  "min yi ": 7204,
  "te he ": 7205,
  "bi xu": 7206,
  "   shi yong ": 7207,
  "yong zai ": 7208,
  " de hua ": 7209,
  "zheng qu ": 7210,
  "huo sheng ": 7211,
  "te dian ": 7212,
  " ta he ": 7213,
  "6 ren ": 7214,
  " 60": 7215,
  " 2020 nian ": 7216,
  "du guo ": 7217,
  "zhang zhi ": 7218,
  "zan shi ": 7219,
  "shou bu ": 7220,
  "1960 nian ": 7221,
  "qi lai ": 7222,
  "xi bei bu ": 7223,
  "8 ren ": 7224,
  "zui di ": 7225,
  "si da ": 7226,
  "luo cheng ": 7227,
  "zui zao ": 7228,
  "yun dong de ": 7229,
  "bang qiu ": 7230,
  "bu de cun zhuang ": 7231,
  " zhuan ji ": 7232,
  "gao du wei ": 7233,
  " neng ": 7234,
  "lin jin ": 7235,
  " shi hou ": 7236,
  " you zhu ": 7237,
  "1 ge ": 7238,
  "lai yu ": 7239,
  "le yuan ": 7240,
  "gang kou ": 7241,
  "gong yuan qian ": 7242,
  "ci di ": 7243,
  "1976 nian ": 7244,
  "wu di ": 7245,
  "xin jiang ": 7246,
  "an zhi ": 7247,
  "cheng jiu ": 7248,
  "xun lian": 7249,
  "gong zuo shi ": 7250,
  " shuang fang ": 7251,
  " ce ": 7252,
  " gong ye ": 7253,
  "se   ": 7254,
  "ling chen ": 7255,
  "dan da ": 7256,
  "yong ji ": 7257,
  "1980 nian dai ": 7258,
  " yi bian ": 7259,
  "qi che ": 7260,
  "fa ting ": 7261,
  " cai yong ": 7262,
  "zhong hua min guo ": 7263,
  "xian cheng ": 7264,
  "shan mai ": 7265,
  " de yi xie ": 7266,
  "chu ban she ": 7267,
  "jing nei gong you ": 7268,
  " guang": 7269,
  "dang nian ": 7270,
  "san zhong ": 7271,
  " ge shou ": 7272,
  "hui wei ": 7274,
  "han zi ": 7275,
  "1920 nian ": 7276,
  "jiang shu ": 7277,
  "san ming ": 7278,
  " 26": 7279,
  "dao you ": 7280,
  "xin jie ": 7281,
  " xiang mu ": 7282,
  "hou ji ": 7283,
  "xiao li yu ": 7284,
  "23 ": 7285,
  " jia la ": 7286,
  "qi hou ": 7287,
  "da di ": 7288,
  "xian shang ": 7289,
  "cheng zhi wei ": 7290,
  "sheng dao ": 7291,
  "lie chu ": 7292,
  " zhao he ": 7293,
  "xiu dao ": 7294,
  "th ": 7295,
  " da jia ": 7296,
  "   dao ": 7297,
  " he liu ": 7298,
  "zan ting ": 7299,
  " tao": 7300,
  "bi li shi ": 7301,
  "bai ke ": 7302,
  "chang bi sai ": 7303,
  "hai zai ": 7304,
  "ruan ti ": 7305,
  "jian du ": 7306,
  "ye fu ": 7307,
  "lai yin ": 7308,
  " ta you ": 7309,
  " liang ge ": 7310,
  " er gai di de ": 7311,
  "tong he ": 7312,
  " da jiang ": 7313,
  " dan yin ": 7314,
  " tong yi ": 7315,
  "jin yu ": 7316,
  "hen kuai ": 7317,
  "er   ": 7318,
  "huo zai ": 7319,
  "dui he ": 7320,
  "ti dai ": 7321,
  "qian ting ": 7322,
  "   gai yao ": 7323,
  " 25": 7324,
  " bu dao ": 7325,
  "xiang ying ": 7326,
  " qi bing ": 7327,
  " wei fu qi yu gang": 7328,
  "fa ji ": 7329,
  "ya ren ": 7330,
  "1990 nian dai ": 7331,
  " li fu ": 7332,
  "jing guan ": 7333,
  "qian jin ": 7334,
  " ta men zai ": 7335,
  "k   ": 7336,
  "ao de ": 7337,
  "dui di ": 7338,
  "tan he ": 7339,
  "cheng qu ": 7340,
  "wang wang ": 7341,
  " zui chu ": 7342,
  "que bao ": 7343,
  "ma tou ": 7344,
  " 29": 7345,
  " nong ": 7346,
  "an li ": 7347,
  "xing you ": 7348,
  "ta yi ": 7349,
  "pin zhong ": 7350,
  "qun ti ": 7351,
  " qi he ": 7352,
  "bian yuan ": 7353,
  "bu men ": 7354,
  "yun he ": 7355,
  "na he ": 7356,
  "fu hao ": 7357,
  "fa dong ji ": 7358,
  "ping yuan ": 7359,
  " de shi ji ": 7360,
  " jin shi ": 7361,
  "chang ji ": 7362,
  "kuo jian ": 7363,
  " yue dui ": 7364,
  " ta ren wei ": 7365,
  "dian shi jie ": 7366,
  "si lan ": 7367,
  "   jia ting ": 7368,
  "wu shu ": 7369,
  " xi tong de ": 7370,
  "ju yuan ": 7371,
  "e guo ": 7372,
  " 2002 nian ": 7373,
  "ye ke yi ": 7374,
  "gui fan ": 7375,
  "   shou ": 7376,
  "fu za": 7377,
  "shu chu ": 7378,
  "qu fen ": 7379,
  "she ding ": 7380,
  "le yi xie ": 7381,
  "jiu zai ": 7382,
  " xian wei ": 7383,
  "da shi guan ": 7384,
  "ri ben de ": 7385,
  " cun ": 7386,
  "dan yi ": 7387,
  " li li ": 7388,
  " nian qing ": 7389,
  "jiao tang": 7390,
  "sen lin": 7391,
  "ma ke si ": 7392,
  "qiu shi ": 7393,
  "jie duan": 7394,
  "tui guang ": 7395,
  " zhong guo ren min jie fang jun ": 7396,
  "xuan shi ": 7397,
  "fu mu ": 7398,
  "wu zhuang": 7399,
  "sai er wei ": 7400,
  "geng duo de ": 7401,
  "can shu ": 7402,
  "tie lu che zhan ": 7403,
  "   wang ": 7404,
  "wang wei ": 7405,
  "la wei ": 7406,
  "pei bei ": 7407,
  "chang du ": 7408,
  "fen pei ": 7409,
  "ya mu ": 7410,
  " yi mei ": 7411,
  " you liang ": 7412,
  " zhong jian ": 7413,
  "bei jing": 7414,
  "   de   ": 7415,
  "duo er ": 7416,
  "zhong bu ": 7417,
  "bei da ": 7418,
  " qi zhong": 7419,
  "qian shen ": 7420,
  "sui ran ": 7421,
  "chuang zuo de ": 7422,
  " 1970": 7423,
  "   Co": 7424,
  " bu si ": 7425,
  "shang zhen ": 7426,
  "bao han": 7427,
  "v ": 7428,
  "ye jian ": 7429,
  "ye sheng ya ": 7430,
  "dui fang ": 7431,
  "mai de ": 7432,
  "ze dong ": 7433,
  "zhang ji ": 7434,
  "cheng wei yi ": 7435,
  "yan jing ": 7436,
  "ban jiang ": 7437,
  "bu de bu ": 7438,
  " sun ": 7439,
  "ceng shi ": 7440,
  "dou bei ": 7441,
  " zai nei de ": 7442,
  "deng chang ": 7443,
  " 30 ": 7444,
  "shan di ": 7445,
  "chu zi ": 7446,
  "tu xiang ": 7447,
  " gong qing ": 7448,
  "wen ji ": 7449,
  "tou bu ": 7450,
  " B ": 7451,
  "an ji ": 7452,
  "jun bu ": 7453,
  "ke yun ": 7454,
  "te la ": 7455,
  "su lian": 7456,
  "9 ren ": 7457,
  "cong wei ": 7458,
  "huang jin ": 7459,
  " sai": 7460,
  "deng yu ": 7461,
  " jie shu ": 7462,
  "lv se ": 7463,
  "ch ": 7464,
  "xing li ": 7465,
  "ye sheng ": 7466,
  "zhe yang ": 7467,
  "ban yan ": 7468,
  "kai gong ": 7469,
  " zi yuan ": 7470,
  "du ji ": 7471,
  "nan si ": 7472,
  "1956 nian ": 7473,
  " 45": 7474,
  " shi shi shang ": 7475,
  "a la bo": 7476,
  "shen ke ": 7477,
  "chen ji ": 7478,
  " zai he ": 7479,
  "ri bao ": 7480,
  "dang tian ": 7481,
  " tun": 7482,
  "bei li ": 7483,
  "zhe zhi ": 7484,
  "che shi ": 7485,
  "1964 nian ": 7486,
  "zhu ce ": 7487,
  " xi an ": 7488,
  "xie shang ": 7489,
  "chi xu": 7490,
  "le di ": 7491,
  "xian dai": 7492,
  "jin qu ": 7493,
  "fen zhi yi ": 7494,
  " de ji hua ": 7495,
  "qu you ": 7496,
  "lu shang ": 7497,
  " qi dong ": 7499,
  "se lie": 7500,
  " fu ze guan xia ": 7501,
  " bao": 7502,
  "mu he ": 7503,
  "wai wei ": 7504,
  " shi shi ji ": 7505,
  "quan ji ": 7506,
  "zhuan wei ": 7507,
  " yi ke ": 7508,
  "dong xian ": 7509,
  " pi": 7510,
  "wei yuan ": 7511,
  "   zhang ": 7512,
  "   gu ": 7513,
  "deng shi ": 7514,
  "hao you ": 7515,
  "ze yu ": 7516,
  " yi nian": 7517,
  "xiang qi ": 7518,
  "hao ping ": 7519,
  "   N": 7520,
  "   cheng ": 7521,
  "1968 nian ": 7522,
  "section   ": 7523,
  "fu er ": 7524,
  "zheng shu ": 7525,
  "xiao jie ": 7526,
  "qing chao ": 7527,
  "qu zhong ": 7528,
  "dui zhi ": 7529,
  "sha de ": 7530,
  "da duo ": 7531,
  "zong jian ": 7532,
  "bing zai ": 7533,
  " qi xi zai ": 7534,
  "fan ying": 7535,
  "mian ti ": 7536,
  " zhong qi ": 7537,
  "xiao liang ": 7538,
  "V ": 7539,
  "hang ye ": 7540,
  "te lei ": 7541,
  "xuan cheng ": 7542,
  " bao hu ": 7543,
  " bing bu ": 7544,
  " section   ": 7545,
  "biao ji ": 7546,
  "lie si ": 7547,
  "yuan ben ": 7548,
  "shou shu ": 7549,
  "lai na ": 7550,
  " ge lei ": 7551,
  "fei lv bin": 7552,
  "zhan wei yu ": 7554,
  "feng shi ": 7555,
  " lian jie ": 7556,
  "wan li ": 7557,
  "zong zhi ": 7558,
  " he qi ta ": 7559,
  "hai shang ": 7560,
  "tu chu ": 7561,
  " gong kai ": 7562,
  "can jia": 7563,
  " fen bie ": 7564,
  "dai biao tuan ": 7565,
  "   ran er ": 7566,
  " wa": 7567,
  "   guang ": 7568,
  "chang da ": 7569,
  "jiang you ": 7570,
  "bai zhi ": 7571,
  "niao lei ": 7572,
  " 27": 7573,
  "zhan you ": 7574,
  " shi xi ": 7575,
  " qi zhong nan xing ": 7576,
  " jiang su ": 7577,
  " jian li ": 7578,
  "ni xi ya ": 7579,
  "1981 nian ": 7580,
  "jin zhan ": 7581,
  "bao zha": 7582,
  "fen si ": 7583,
  " si da ": 7584,
  "xie wei ": 7585,
  "mo ni ": 7586,
  "zhong guo ren min ": 7587,
  " S ": 7588,
  "hai di ": 7589,
  "yan an ": 7590,
  "shen zhen ": 7591,
  "pu tao ya ": 7592,
  " fou": 7593,
  "liang bu ": 7594,
  "xing dong": 7595,
  "gong da ": 7596,
  "   gen ju 2020 nian mei guo ren kou pu cha de shu ju ": 7597,
  " zui jia ": 7598,
  "ju wei ": 7599,
  "lu yi si ": 7600,
  "xia di qu ": 7601,
  "ding xing ": 7602,
  " shi bu ": 7603,
  "ge bu ": 7604,
  "chang jiang ": 7605,
  "   jing ji ": 7606,
  "zai yi ge ": 7607,
  "zhan wei ": 7608,
  " guo wu yuan ": 7609,
  "dao dan ": 7610,
  "lai zi yu ": 7611,
  "fei yong ": 7612,
  " liu yu ": 7613,
  " 2024": 7614,
  "hou zhi ": 7615,
  "1948 nian ": 7616,
  "xiao xiang ": 7617,
  " 8 ": 7618,
  "   2019 nian ": 7619,
  "gong yue ": 7620,
  "jiao di ": 7621,
  "chu xian de ": 7622,
  "che dui ": 7623,
  "bi er ": 7624,
  "lu he ": 7625,
  "ha li ": 7626,
  " you suo ": 7627,
  "gong kai sai ": 7628,
  " 2000 nian ": 7629,
  " guo jia de ": 7630,
  "zi ben ": 7631,
  "zheng mian ": 7632,
  " jin shu ": 7633,
  "kuo zhang ": 7634,
  "dang zai ": 7635,
  " yi he ": 7636,
  " 2005": 7637,
  "qiong ": 7638,
  "xue ye ": 7639,
  "hou bu ": 7640,
  "tian jia ": 7641,
  "fu zhou ": 7642,
  "yuan zhu min ": 7643,
  " wei yuan hui wei yuan ": 7644,
  " 200": 7645,
  " bang ": 7646,
  "shu de zhi wu ": 7647,
  "wang ji ": 7648,
  "ke er ": 7649,
  "tai nan ": 7650,
  "xuan ju zhong ": 7651,
  "   qi zhong ": 7652,
  "x   ": 7653,
  "bei yue ": 7654,
  "fa he ": 7655,
  "huo li ": 7656,
  "shui de ": 7657,
  "gan xian ": 7658,
  "ju min": 7659,
  "le dui ": 7660,
  "yan jiang ": 7661,
  "zhan shu ": 7662,
  " shi yi zuo ": 7663,
  " 1946": 7664,
  "duo shi ": 7665,
  "cha shi ": 7666,
  " shi de shi ": 7667,
  " guan fang ": 7668,
  " ji jin hui ": 7669,
  " kao ": 7670,
  "   yue ": 7671,
  "zu ren ": 7672,
  "lai ke ": 7673,
  "hant ": 7674,
  " zai bu ": 7675,
  "zhe yang de ": 7676,
  "nan ji zhou de ": 7677,
  " lei": 7678,
  "gan de ": 7679,
  "wo er ": 7680,
  "gu dian ": 7681,
  "bai wan ": 7682,
  "shao nv ": 7683,
  " qian wang ": 7684,
  "cheng li hou ": 7685,
  "gu fen you xian gong si ": 7686,
  "e de ": 7687,
  " niu ": 7688,
  " tou guo ": 7689,
  "da gui mo ": 7690,
  "jian kang": 7691,
  "bei po ": 7692,
  " di tu ": 7693,
  "wen ti de ": 7694,
  "mei guo": 7695,
  " wei fu qi yu gang ": 7696,
  " hant ": 7697,
  "duo li ya ": 7698,
  "gong an ": 7699,
  " guo gong ": 7700,
  "hui da ": 7701,
  "chu chang ": 7702,
  "zong cai ": 7703,
  "ch   ": 7704,
  "ya zhong ": 7705,
  "yang he ": 7706,
  "1952 nian ": 7707,
  " zhong wen ": 7708,
  "ke luo ": 7709,
  "can kao": 7710,
  "re dai feng bao ": 7711,
  "hu xi ": 7712,
  "zuo zhi ": 7713,
  "shuai ling": 7714,
  " yu di ": 7715,
  " ta ji ": 7716,
  "   zhu yao ": 7717,
  "bie de ": 7718,
  "xin tai ": 7719,
  " pian ": 7720,
  "   fan ": 7721,
  "luo yi ": 7722,
  "men shi ": 7723,
  "1975 nian ": 7724,
  "gong jiao ": 7725,
  "zhu ban ": 7726,
  " shi yi zhi ": 7727,
  "1966 nian ": 7728,
  "zuo fa ": 7729,
  " da er ": 7730,
  "na sheng ": 7731,
  "mei guo ren ": 7732,
  "zhuan yong ": 7733,
  "cun zai de ": 7734,
  " jin ru": 7735,
  "xian de yi ge fei jian zhi di qu ": 7736,
  " 2022 nian ": 7737,
  "nuo yi ": 7738,
  " shi fa ": 7739,
  " zhi shao ": 7740,
  "fang mi ": 7741,
  "hang tian ": 7742,
  "ding zai ": 7743,
  "qun de ": 7744,
  " zhi jing ": 7745,
  "1 ri": 7746,
  "you yi xie ": 7747,
  " ling wai": 7748,
  "   2007": 7749,
  "niang ": 7750,
  "lu wa": 7751,
  " xing jian ": 7752,
  "xue bu ": 7753,
  "mei shi ": 7754,
  "lan yu ": 7755,
  " yi xue ": 7756,
  "   jiang ": 7757,
  "rao tai yang ": 7758,
  "liang zi ": 7759,
  " nian yi lai ": 7760,
  " yong": 7761,
  "shang wei you ": 7762,
  "bao he ": 7763,
  "dui kang ": 7764,
  "ma lai ": 7765,
  " Y": 7766,
  " qu de ": 7767,
  " 2003 nian ": 7768,
  "ying er ": 7769,
  "jiu you ": 7770,
  " shi bing ": 7771,
  "e wei ": 7772,
  "ta ren ": 7773,
  " yi da ": 7774,
  " yi xiang ": 7775,
  " yue he ": 7776,
  "ci qu ": 7777,
  "du hui ": 7778,
  "xie ding ": 7779,
  "ban ren ": 7780,
  "chuan guo ": 7781,
  "1947 nian ": 7782,
  "wu ge ": 7783,
  "san ci ": 7784,
  " zhe yang ": 7785,
  "shang he ": 7786,
  "zong hui ": 7787,
  " fa zhan ": 7788,
  "   3 yue ": 7789,
  "bo jue ": 7790,
  "xuan chu ": 7791,
  " ri you ": 7792,
  " xin zeng ": 7793,
  "guo jia dui ": 7794,
  "   qi hou ": 7795,
  "5 mi ": 7796,
  "1937 nian ": 7797,
  "Windows   ": 7798,
  "jiao jie ": 7799,
  "hai ba gao du wei ": 7800,
  "z ": 7801,
  "guang de ": 7802,
  " yi wai ": 7803,
  " shi yong le ": 7804,
  " dang shi de ": 7805,
  "jiao yu bu ": 7806,
  " ou zhou ": 7807,
  "wu you ": 7808,
  "wen ti": 7809,
  " fu qin": 7810,
  "lei xing de ": 7811,
  "zhuang kuang": 7812,
  " dan qi ": 7813,
  " pin ": 7814,
  " diao ": 7815,
  "wang yu ": 7816,
  "wai xing ": 7817,
  "gen sui ": 7818,
  " yi chan ": 7819,
  "xing zheng": 7820,
  "yan lun ": 7821,
  " si ta ": 7822,
  " ren min bi ": 7823,
  "fen bie wei ": 7824,
  " zi ji ": 7825,
  "ge zai ": 7826,
  "ta he ": 7827,
  "jin zai ": 7828,
  "wang zhi ": 7829,
  "gong jue ": 7830,
  " dao yan ": 7831,
  "nong cun": 7832,
  "she ying ": 7833,
  "lian sai": 7834,
  "gao xiao ": 7835,
  "jian zhu wu ": 7836,
  " jiang qi ": 7837,
  "   fa ": 7838,
  "ll   ": 7839,
  " nian ling ": 7840,
  "zhan chang ": 7841,
  "xuan ju": 7842,
  " ping tai ": 7843,
  " de ji hui ": 7844,
  "o   ": 7845,
  " Co": 7846,
  "   ping jia ": 7847,
  "II ": 7848,
  "shu mu ": 7849,
  "jing sai ": 7850,
  "duan zan": 7851,
  " dan wei ": 7852,
  "qiao liang ": 7853,
  "xun yang jian ": 7854,
  "5 ge ": 7855,
  " cheng li yu ": 7856,
  "   luo ": 7857,
  "tuan jie ": 7858,
  "song dao ": 7859,
  "guo cheng ": 7860,
  "shou fa ": 7861,
  "fen jie ": 7862,
  "quan shu ": 7863,
  " de yi mei ": 7864,
  " shi yi da li ": 7865,
  " le ": 7866,
  "zhang yi ": 7867,
  " ke luo ": 7868,
  "zui zao de ": 7869,
  "ceng shui yu ": 7870,
  "a fu ": 7871,
  " chao": 7872,
  "   chu le ": 7873,
  "xin zhong ": 7874,
  "xia yi xia di qu ": 7875,
  "ying xiang li ": 7876,
  "guo shi qi ": 7877,
  "pu li ": 7878,
  "shou duan ": 7879,
  "ping jie ": 7880,
  " Q": 7881,
  "ci zhong ": 7882,
  "zhuan de xiao xing xing ": 7883,
  " hua": 7884,
  "bei he ": 7885,
  "fa wei ": 7886,
  " di dian ": 7887,
  "jiang bei ": 7888,
  "xun zhao ": 7889,
  "guo ji ji chang ": 7890,
  "wang si ": 7891,
  "1954 nian ": 7892,
  " yi er ": 7893,
  "guo wu yuan ": 7894,
  "wu zhong de ": 7895,
  " di liu ": 7896,
  "ju da de ": 7897,
  "f ": 7898,
  "ru yu ": 7899,
  " li gong ": 7900,
  "wang zi ": 7901,
  " de shi wu ": 7902,
  "zhe jiang sheng ": 7903,
  "   5 yue ": 7904,
  "zhe yu ": 7905,
  " ji xing ": 7906,
  "   in   ": 7907,
  "c   ": 7908,
  " shen": 7909,
  "zheng qi ": 7910,
  "ya zhi ": 7911,
  "ru yi ": 7912,
  "huang shi ": 7913,
  " zai jin ": 7914,
  "jia meng ": 7915,
  "wang shang ": 7916,
  "zu xie ": 7917,
  "shan dong sheng ": 7918,
  " chu ren ": 7919,
  "40 ": 7920,
  " shi ba ": 7921,
  "guang fan": 7922,
  "zheng shi qi ": 7923,
  "a li ": 7924,
  " huai": 7925,
  " ke li ": 7926,
  "ti chu le ": 7927,
  "an zhuang": 7928,
  "song de ": 7929,
  "ming ju ren ": 7930,
  "yin yong ": 7931,
  "huo yun ": 7932,
  "yao gun": 7933,
  "sheng bu ": 7934,
  "xiao you ": 7935,
  "la er ": 7936,
  "xian zhang ": 7937,
  "fa sheng de ": 7938,
  "bao zha ": 7939,
  "   of   the   ": 7940,
  " san shi ": 7941,
  "   shen ": 7942,
  "guai ": 7943,
  " shi ji de ": 7944,
  "ping min ": 7945,
  "lian tong ": 7946,
  "ping jun hai ba gao du wei ": 7947,
  " chun": 7948,
  "si you ": 7949,
  "li lun ": 7950,
  "zhan zai ": 7951,
  "du du ": 7952,
  "dan shui ": 7953,
  "yang xian ": 7954,
  "nei zhan ": 7955,
  "xun qiu ": 7956,
  "shao jiang ": 7957,
  "W ": 7958,
  "   to   ": 7959,
  "yin zhong zai ": 7960,
  "tai er ": 7961,
  "ru shi ": 7962,
  "shuo de ": 7963,
  "gu fen ": 7964,
  " zhe ci ": 7965,
  "zao shou ": 7966,
  "gan su ": 7967,
  " nian qi jian ": 7968,
  " er gai di de ping jun hai ba gao du wei ": 7969,
  "da zai ": 7970,
  "jiang zhong ": 7971,
  " li xue ": 7972,
  "luo zai ": 7973,
  "ma li ya ": 7974,
  "chai you ji ": 7975,
  " fa sheng ": 7976,
  " bi ye ": 7977,
  " han zu ": 7978,
  "2010 nian mei guo ren kou pu cha de shu ju ": 7979,
  "shuo shi xue wei ": 7980,
  "yin zhong zai pei ": 7981,
  "   16": 7982,
  "yang zhi ": 7983,
  "hao yu ": 7984,
  "qie er ": 7985,
  "shun shi ": 7986,
  "cheng hu ": 7987,
  "ju ti ": 7988,
  "jiao fu ": 7989,
  "wen hua de ": 7990,
  "bo luo ": 7991,
  " xue sheng ": 7992,
  "ying di ": 7993,
  "dai yu ": 7994,
  "gao di ": 7995,
  "fa ling ": 7996,
  "bao xian ": 7997,
  "ying zhan ": 7998,
  "qing xiang ": 7999
}