#version: 0.2
n g
a n
s h
z h
j i
a ng
Ġ Ġ
o ng
x i
a o
a i
d e
e i
sh i
y u
o u
y i
e n
c h
i an
u o
e ng
l i
ĠĠ Ġ
ã Ģ
i ng
u i
w ei
u an
zh i
q i
n ian
zh ong
y ou
r en
u n
z ai
d i
g uo
ãĢ ģ
h e
b u
e r
g ong
xi ng
ch eng
d a
zh u
h u
yu an
s i
ji an
yu e
g e
f u
xi an
u e
k e
w u
ch u
sh u
sh eng
ji e
ji a
b i
d ao
z i
b ei
h ui
f a
xi ang
t i
zh eng
m i
t a
ji n
q u
2 0
t ong
r i
j u
ji ng
m ing
l e
h ou
sh ang
sh ou
d ong
c i
f ang
1 9
hu a
yi n
x ue
g uan
zh an
y e
yi ng
z uo
zh e
y an
m ei
ji ao
g u
ch ang
xi n
d ui
l u
b ing
b ao
f en
d an
h uo
j un
ji ang
d u
xi ao
d ian
y ong
q ian
sh e
t ai
xi a
m u
w en
g ai
zh ang
li ang
y a
r u
d ai
h ai
n an
zh ou
z u
w ang
l ai
b an
ji u
d ang
q ing
p ing
sh en
ãĢ ĭ
ãĢ Ĭ
w an
l ian
li ng
l uo
Â ·
mi n
q uan
p i
n i
b o
d uo
t e
b en
g ao
bi ao
s uo
l a
m a
k ai
b a
xi e
x u
b ian
de ng
y ao
y ang
m ian
zh en
d ing
qi u
z ui
s ai
li u
f an
x uan
f ei
s an
sh an
ch e
z ong
m en
ãĢ Į
ãĢ į
t u
t ian
h ao
s u
l ei
n ei
yu n
20 1
l an
f eng
m o
n a
z e
l v
h an
k ou
w ai
n eng
li n
ch uan
ch i
j ue
b ai
p ai
20 0
k u
c ai
z ao
t ing
zh uan
g ang
li e
gu ang
g ui
l un
s ui
p u
c eng
k ong
sh ui
1 0
ch ao
zhu ang
ch a
d ou
c an
t ou
r an
s e
d uan
c un
h uan
c ong
pi n
c e
ch an
x un
g ou
0 0
n v
zh ao
g an
ch ong
sh a
t an
1 8
qi n
k a
m eng
qi ang
hu ang
xi u
1 2
ti ao
m an
sh ao
k uo
l ong
p ian
sh uo
t uan
t ang
r ong
g eng
20 2
ch en
t ui
g en
q ue
ti e
1 1
qi e
w o
p o
p ei
h ang
h ong
19 9
b ang
li ao
chu ang
bi e
r e
t uo
t ao
s ong
w a
m ai
h a
1 5
p an
d un
di ao
qi ao
s a
m ao
l ang
k an
k ang
â Ģ
o r
l ao
z eng
1 6
19 8
k ao
xi ong
1 7
o n
n uo
mi ao
r ang
ku ang
h en
s uan
1 4
3 0
zh un
1 3
19 4
c ao
h un
q un
n ong
19 7
h eng
shu ang
l ou
g ei
ku ai
pi ao
zh a
h ei
ni u
19 5
s en
bi n
r eng
z ou
19 6
ch un
k uan
2 5
âĢ Ķ
r ui
s un
p ao
n ing
f or
p a
c ang
m ou
2 4
p eng
hu ai
2 1
19 3
2 3
mu la
for mula
2 8
z an
r uo
i n
2 2
ch ou
zh ui
a r
m e
2 6
5 0
20 20
2 7
n ai
n u
ï ¼
2 9
sh un
201 0
z a
00 0
lv e
zh ai
20 19
n e
r o
j uan
s t
r a
c ui
k un
201 6
l uan
201 8
c uo
202 1
z ang
201 4
shu ai
201 1
201 5
201 7
201 2
4 0
201 3
n ao
202 2
di e
r uan
k ui
l t
r ou
c u
s ang
200 9
200 8
ã ĥ
6 0
ni ao
a l
r ao
ch ai
10 0
zh uo
202 3
g t
s ou
19 0
3 1
k en
200 7
200 1
t eng
p ang
f ou
c o
f o
gu a
200 0
8 0
200 6
202 4
ã ģ
200 5
z un
ti on
ku a
t he
3 5
7 0
ni e
l o
o f
9 0
l eng
ï¼ į
ã Ĥ
a m
t un
t er
mi e
200 4
t h
t o
4 5
4 8
m ang
202 5
v e
g a
ãĢ ī
ãĢ Ī
3 6
3 8
200 3
3 7
M a
ch ui
p en
l l
18 9
I N
200 2
k eng
T C
d o
3 4
7 5
âĢ ĵ
C o
4 6
c a
199 0
âĢ ¦
c k
3 9
. .
b e
6 5
3 2
S T
4 7
U TC
199 9
199 8
198 0
18 8
5 00
3 3
I n
6 4
s s
T he
v i
S E
5 5
199 7
R e
h i
4 9
I I
e l
6 8
e t
4 4
199 6
o o
qi ong
199 4
g un
b r
gu ai
199 2
199 5
M i
6 7
an d
s ao
e s
199 1
197 0
5 8
195 0
3 00
199 3
18 7
194 9
a t
A T
p e
196 0
4 2
194 5
L i
v er
qi a
198 8
t y
198 9
6 9
R o
i s
r un
SE E
ni ang
IN SEE
h o
5 9
4 3
6 6
5 7
198 5
9 9
S A
ãĢ İ
ãĢ ı
c t
198 4
4 1
8 8
198 6
w i
o l
w s
T V
r y
15 0
M e
n d
4 00
198 7
7 8
198 2
5 6
b eng
V i
P a
t s
198 3
am p
N A
D e
C D
g h
f i
w eng
b er
7 7
W in
p er
z uan
S ta
7 9
O S
W i
Â °
ï ½
de r
18 0
B C
5 4
197 9
6 1
19 20
a s
M o
s eng
9 8
5 2
Y ou
197 8
n o
6 2
5 3
l y
shu a
L a
ï½ ŀ
B A
194 6
C O
5 1
195 8
g i
J o
198 1
197 2
194 8
L e
t w
A M
6 3
A R
c tion
194 1
B S
G a
19 30
D a
P ro
T e
7 6
han s
194 0
193 7
197 6
194 4
J a
8 9
u s
D i
Win do
197 5
ï¼ ı
196 8
h k
c on
F i
u m
S i
10 00
Windo ws
9 5
8 7
na l
M ar
196 6
r d
8 5
N e
R a
k i
6 00
1 20
194 7
S e
A C
195 6
196 4
B e
194 2
Ã ©
195 5
195 2
I S
a d
193 9
193 8
7 2
u r
7 4
C a
v a
197 3
197 4
195 4
A r
A l
E D
19 00
- -
A P
194 3
T o
197 7
l d
197 1
c en
la y
196 7
B a
I C
8 00
P o
L o
E R
zhu a
s ta
8 6
195 9
B o
t t
196 5
J R
196 9
F a
ãĥ »
Ã Ĺ
I D
B i
s on
193 6
16 0
9 7
195 3
S a
M A
196 2
196 1
n en
N a
â Ķ
S o
193 5
co m
H o
ti c
9 6
O N
ï¼ ħ
195 1
S t
195 7
196 3
T u
âĶ Ģ
f e
s o
men t
8 4
H i
202 6
8 2
D o
m er
R i
7 3
n t
9 4
9 2
K i
H a
n ang
on e
I P
A N
l s
193 3
193 1
le s
7 1
n uan
Co m
8 3
9 3
te d
S u
8 1
T i
M u
19 18
N i
H D
U ni
19 28
p p
193 2
C ha
W e
y s
M V
S S
1 10
I T
19 12
N o
19 29
19 27
193 4
c n
7 00
g o
z ei
gh t
st er
25 0
9 1
r t
l li
19 24
ri s
.. .
19 19
nv e
1 30
P i
19 25
G i
P S
b y
e d
me s
A n
P C
14 0
A S
P lay
19 14
k m
D V
ti o
You Tu
S M
b le
g ra
k o
19 11
C on
C h
l la
19 26
l le
G e
P ar
i d
T a
19 22
L in
m p
19 17
H e
K a
E T
N BA
w n
I V
E N
19 23
19 21
sh ai
G oo
ch uo
17 0
à ¸
E C
M S
a li
A L
p h
se ction
YouTu be
E P
B L
19 13
C ar
B u
z en
H K
w e
h n
m m
v en
han t
â Ĩ
190 9
si on
In ter
c ro
M P
A I
W or
P e
d s
U S
p ro
DV D
o k
3 000
E n
19 10
D S
R O
c ou
S te
si s
1 12
G o
r k
A K
R E
19 16
W a
li a
ãĥ ¼
Sta tion
F or
N et
f f
Î ±
of t
in e
de n
l or
re a
tio nal
g n
tu re
g le
C P
U N
â Ī
ar d
19 15
g in
190 5
p s
F C
c al
v o
di a
M y
C N
â Ħ
âĨ Ĵ
ou r
er s
190 1
en t
A u
D NA
E x
âĢ §
9 00
en d
H R
di ce
. &
the r
ta l
C H
T A
T O
190 6
190 4
A V
te s
M O
ji ong
Jo hn
m y
er i
co dice
M an
âĦ ĥ
d y
Play Station
C hi
0 5
C C
ti ve
di u
A nd
190 7
di o
190 8
Goo gle
A G
C i
E ST
M I
S O
L E
si c
re e
B O
in t
wi t
B BC
S ch
A D
I G
lan d
II I
c ri
t on
15 00
5 000
c y
rou nd
w er
I ST
m s
r on
M E
C R
u l
3 D
j e
I A
le y
10 5
a u
Ð °
ri a
10 1
190 3
t or
G B
v an
0 9
T E
L u
190 2
B D
N C
P ri
F e
x t
3 50
p ou
Ã ¡
SA O
de s
D C
j a
Î ²
c ke
B 1900
bo ok
ha t
E S
al l
B M
ï¼ İ
ãĥ ³
R u
n er
189 8
re s
0 6
1 18
o p
ãģ ®
3 60
D R
Ne w
0 1
D A
H u
O pen
189 5
g er
12 5
S ho
H O
M C
S an
AT P
Mi cro
ct or
Ð ¾
10 8
f t
c or
o s
N G
K e
c lu
g y
gra m
p ri
wa rd
st y
I F
C u
F ran
O ne
ne t
s oft
k er
p t
âĪ Ĵ
0 7
0 8
2 30
Fa ce
10 4
pa ce
ls pan
C or
P er
B ar
Wor ld
A pp
ED T
IST AT
c uan
Lo ve
K o
à ¤
H ar
N O
S tu
189 6
L L
u x
10 9
D P
la s
A A
f li
R I
J u
p ha
S er
lu s
lin e
R T
t ri
S P
E X
B 48
10 6
18 90
r ai
s ti
mo n
C ST
M L
o d
un i
CD T
ber t
J e
r s
ru s
re d
D O
P u
k y
H E
C ou
a tion
M on
0 4
4 000
11 5
1 200
M 1
P re
0 3
l er
G P
de l
C E
Ä ģ
Li ve
be gin
188 9
oo l
Da vi
wi th
ar a
189 9
co lspan
tai n
ba ck
187 1
R S
st o
Face book
E d
S ha
Micro soft
mi c
te m
âĢ ĭ
24 0
16 00
L O
T ri
t en
ti n
B E
lo w
10 2
bo x
clu de
A d
T T
189 7
S ou
s er
N H
E E
D u
ce s
P P
11 7
S C
v al
0 2
po r
c m
Ma c
sty le
C he
r st
10 3
AK B48
D an
M D
N or
P h
10 7
ra l
H er
O n
p re
r ing
A s
a re
Wi lli
te l
Lin ux
li s
O ri
w w
D is
sh uan
g ue
ma s
4 50
B er
V ID
12 7
Mu sic
I s
A i
G re
c er
Ã ¼
tu s
V o
t ra
12 8
fli x
C L
Net flix
B ro
y o
189 4
Ga me
2 20
C an
G ra
ni n
re f
Ð ½
Willi am
B ri
I L
ali gn
S H
b li
or y
O r
T wit
18 80
Re d
ol d
Ã Ń
R NA
13 6
P G
Ð ¸
ãģ Ħ
ro m
T R
Te am
18 00
ãĤ ¹
Uni ver
g round
i a
188 5
l en
11 4
ãĤ ĵ
H z
co lor
G en
T y
11 6
28 0
U R
p le
Ð µ
11 3
188 6
ei n
ãĤ ¤
T S
P O
189 3
la r
e x
r n
y n
M c
na me
11 1
S L
ã Ħ
Su per
S he
st ra
A ll
G u
ci al
la ss
âĢ »
Davi d
13 5
je ct
A c
26 0
C en
E u
l f
18 60
po rt
ha m
Ge or
ch o
na tional
Cha r
U n
W TA
lv er
d ge
wo rk
H C
T h
t ro
Sch ool
B an
k s
ss o
t ch
ti s
188 8
M or
q ui
te xt
S D
Ã ³
- .
U A
rou p
ll y
ca tion
on y
back ground
Me ta
ro id
a c
mer i
T ra
12 9
G O
S to
di s
18 70
G N
ï ¹
re am
188 7
Sho w
Q u
c le
18 68
6 000
Ã ¶
Ñ Ģ
188 3
N F
V A
ma r
V er
da y
3 20
X box
C S
wa s
A ng
N HK
T ho
A F
F o
Twit ter
D D
l yin
on lyin
onlyin clude
+ +
K P
d on
18 64
âĢ ¢
Gi r
I ON
188 4
1 19
B la
R C
U E
ai n
mi u
12 2
V a
25 00
189 2
2 10
A 1
cen ter
cke t
15 5
IS O
â ħ
14 5
st ri
189 1
6 50
wa y
And roid
N S
C lu
ãĢ ķ
O R
f fi
h tt
m ber
ãĢ Ķ
18 50
F u
P hi
a ge
m b
w in
x y
C y
K u
k ing
Inter national
si a
18 67
lo gy
C e
I M
ãĥ Ī
187 9
Sta r
ri e
Ja mes
En ter
c c
ll er
3 80
A B
U P
ne y
E ng
187 6
S pe
W ar
n y
Stu dio
z o
Geor ge
A b
A ni
18 75
18 61
27 0
Univer si
Ga mes
B ra
I R
12 6
N T
Ã ¨
ti me
ar t
E s
P or
NG C
st ru
ãĥ «
187 3
H en
M G
p hi
er o
12 3
ãĥ ©
P V
n s
B en
D ra
H T
Co lle
G roup
P an
c ar
m pi
ran s
S un
i t
u t
16 8
cu s
CO VID
B lo
F M
M B
S ys
ou s
se d
18 65
Clu b
A O
A meri
P L
he r
i m
12 1
D E
D on
t hat
Ai r
Cen ter
17 5
ar y
ãģ Ĩ
We b
H 2
Y P
f rom
Ã ¤
14 00
MA X
cri tic
A le
t z
13 8
2 28
H an
T P
18 48
18 62
3 30
12 4
ãĤ ¢
188 1
188 2
7 37
Le a
A li
U C
h y
187 8
5 50
V e
sa u
b ri
bi t
187 2
E l
L C
In sta
M in
ra tion
IN K
Meta critic
el d
Ori con
S ai
W hi
s co
15 6
B oo
M TV
s p
16 5
L ED
18 40
IV E
Y a
c re
k in
7 50
ãĥ ĥ
13 00
ãģ Ĺ
H y
13 7
Mi cha
Mar k
7 000
H el
er a
D OS
S Q
U B
22 9
I U
G DP
K ing
O K
Ñ ģ
ty pe
G ran
ni c
Hi gh
T ai
a st
15 2
TV B
Ch ris
15 9
187 7
Ro bert
C han
p y
s y
t le
â Ĺ
ci en
18 66
H ou
i OS
o t
Ð »
Pro du
S K
S hi
si lver
18 69
âĢ ²
th i
T HE
U p
Da y
C ro
D M
E le
St re
Pe ter
I t
N ET
t ter
F ree
J an
Ð º
13 9
Ph one
Insta gram
A t
B I
S ur
p la
BL AC
Ty pe
Ð ²
or a
App le
D J
S y
W al
C G
W E
co de
ãĤ ¯
Micha el
D F
S h
ï ¸
1 100
ci a
15 8
ne ss
Bi g
2 25
P la
P at
S am
Y e
v in
ni a
30 5
13 3
IN E
Pa ul
Te ch
Na tional
t te
ou n
ni s
ãĥ ª
A ward
R A
Y O
13 2
Ste am
20 5
18 63
ra y
I E
pan y
Me dia
tain ment
2 15
B r
Universi ty
F O
L ou
V al
en sis
tion s
Bi ll
ph y
C A
F 1
K BS
bu r
14 8
13 1
S mi
k g
16 6
187 4
X X
de o
18 58
pa r
E F
s or
ri n
ru m
C ho
c lo
14 7
H ol
min i
F ri
25 6
ãģ ĭ
M 2
18 30
C BS
U T
g on
l m
18 51
Le e
B N
G A
H I
U I
li p
ri c
19 2
Par k
t d
Î ¼
8 000
M er
no w
Enter tainment
3 10
14 3
hi s
M k
18 55
Ci ty
Bla ck
Wi l
Po wer
C hu
E M
I X
S pace
g ar
w hi
G M
R AM
ð «
18 5
18 59
th o
ST AR
Ja ck
Char les
13 4
Ja va
Di re
A BC
G ar
T er
s pe
shi p
18 54
14 6
30 1
17 00
in ter
Vi u
sti tu
3 70
F la
K en
18 57
Al pha
L an
S tan
ou t
lo s
D ar
Ø §
29 0
ãģ ª
Li fe
ï¸ °
v s
Î ³
2 14
4 20
C am
Ñ Ĥ
Re cor
Com pany
F un
Î ¿
ãĢ ľ
18 56
18 53
Pro ject
D ream
F an
S en
di um
ãģ Ł
fi rst
Ti me
Tho mas
Hou se
P en
14 4
Sai nt
F A
O VA
P y
S pi
C ent
V O
e k
fa ce
A 2
I O
d d
v on
16 7
Ja pan
Stre et
3 A
C la
H S
S BS
ren ce
bi li
ri st
cha rd
18 41
ver y
Eu ro
L P
P lan
a k
i e
r p
ba l
et y
Ale x
3 40
P M
b un
i f
l ue
BLAC KP
S co
T al
shi Ġ
de Ġ
Ġ shiĠ
Ġ deĠ
yi Ġ
Ġ yiĠ
ji Ġ
wei Ġ
zhi Ġ
yu Ġ
Ġ weiĠ
Ġ jiĠ
Ġ nian
Ġ zhiĠ
Ġ yuĠ
Ġ li
Ġnian Ġ
zhong Ġ
Ġli Ġ
zai Ġ
ren Ġ
you Ġ
guo Ġ
he Ġ
qi Ġ
bu Ġ
di Ġ
Ġ youĠ
Ġ zaiĠ
Ġ renĠ
Ġ yue
Ġ zhongĠ
Ġ heĠ
da Ġ
xi Ġ
xing Ġ
yuan Ġ
er Ġ
gong Ġ
Ġyue Ġ
fu Ġ
si Ġ
ge Ġ
jian Ġ
Ġ guoĠ
wu Ġ
jia Ġ
Ġ buĠ
jie Ġ
ke Ġ
cheng Ġ
zhu Ġ
sheng Ġ
xiang Ġ
xian Ġ
dao Ġ
bei Ġ
zi Ġ
Ġ qiĠ
fa Ġ
hui Ġ
chu Ġ
jin Ġ
Ġ diĠ
shu Ġ
Ġ erĠ
ri Ġ
Ġ xiĠ
ju Ġ
qu Ġ
zheng Ġ
hou Ġ
shou Ġ
ming Ġ
shang Ġ
dong Ġ
ta Ġ
jing Ġ
le Ġ
xue Ġ
fang Ġ
yan Ġ
zhan Ġ
ci Ġ
bao Ġ
hua Ġ
ying Ġ
ye Ġ
tong Ġ
zuo Ġ
zhe Ġ
guan Ġ
Ġ daĠ
Ġ riĠ
yin Ġ
chang Ġ
xin Ġ
jiao Ġ
lu Ġ
dui Ġ
wen Ġ
ti Ġ
fen Ġ
qian Ġ
tai Ġ
jiang Ġ
xiao Ġ
bing Ġ
Ġ siĠ
jun Ġ
dian Ġ
zhang Ġ
ping Ġ
xia Ġ
du Ġ
huo Ġ
yong Ġ
dan Ġ
Ġ keĠ
Ġ jiaĠ
hai Ġ
gai Ġ
wang Ġ
dai Ġ
nan Ġ
ru Ġ
qing Ġ
mu Ġ
bi Ġ
ban Ġ
liang Ġ
lai Ġ
mei Ġ
ya Ġ
shen Ġ
Ġ fuĠ
Ġ xingĠ
zu Ġ
wan Ġ
she Ġ
lian Ġ
min Ġ
mi Ġ
zhou Ġ
jiu Ġ
qiu Ġ
an Ġ
zhen Ġ
ben Ġ
xu Ġ
gao Ġ
Ġ taĠ
bo Ġ
xie Ġ
te Ġ
bian Ġ
ling Ġ
luo Ġ
yao Ġ
deng Ġ
duo Ġ
yang Ġ
quan Ġ
che Ġ
suo Ġ
zui Ġ
tian Ġ
gu Ġ
biao Ġ
fan Ġ
hu Ġ
yun Ġ
xuan Ġ
su Ġ
shan Ġ
fei Ġ
ding Ġ
liu Ġ
zong Ġ
sai Ġ
dang Ġ
ma Ġ
kai Ġ
ba Ġ
hao Ġ
ĠdeĠ yiĠ
Ġ bingĠ
Ġ daoĠ
feng Ġ
kou Ġ
tu Ġ
mian Ġ
men Ġ
nei Ġ
la Ġ
lei Ġ
san Ġ
cai Ġ
wai Ġ
chuan Ġ
jue Ġ
pai Ġ
chi Ġ
Ġ danĠ
Ġ jinĠ
Ġ beiĠ
Ġ gongĠ
Ġ jianĠ
guang Ġ
ĠshiĠ yiĠ
lan Ġ
ni Ġ
gui Ġ
bai Ġ
Ġ ziĠ
lin Ġ
ting Ġ
Ġ zheĠ
pu Ġ
Ġ xiangĠ
na Ġ
gang Ġ
lun Ġ
neng Ġ
han Ġ
lie Ġ
ze Ġ
Ġ zhuĠ
cheng ĠweiĠ
mo Ġ
Ġ yinĠ
Ġ geĠ
Ġ xianĠ
Ġ chuĠ
ĠshiĠ deĠ
mei ĠguoĠ
chan Ġ
shui Ġ
Ġ juĠ
Ġ chengĠ
ĠdeĠ shiĠ
Ġ jieĠ
Ġ gaiĠ
Ġ wuĠ
sui Ġ
xun Ġ
zhuan Ġ
Ġ baoĠ
Ġ pingĠ
lv Ġ
Ġ ta
ao Ġ
zhuang Ġ
li Ġ
tou Ġ
duan Ġ
ĠyiĠ jiĠ
se Ġ
huan Ġ
e Ġ
chong Ġ
ĠweiĠ yuĠ
ceng Ġ
pin Ġ
cong Ġ
cha Ġ
di ĠyiĠ
cun Ġ
1 Ġ
a Ġ
dou Ġ
zao Ġ
Ġ houĠ
kong Ġ
zhao Ġ
gou Ġ
gan Ġ
Ġ ciĠ
sha Ġ
qiang Ġ
ĠshiĠ jiĠ
chao Ġ
meng Ġ
Ġ yeĠ
kai ĠshiĠ
man Ġ
ce Ġ
tang Ġ
long Ġ
ai Ġ
Ġ dan
kuo Ġ
ke ĠyiĠ
Ġ yuanĠ
Ġ faĠ
ĠyiĠ geĠ
2 Ġ
tan Ġ
tuan Ġ
Ġ shengĠ
ĠshiĠ weiĠ
ka Ġ
gong ĠliĠ
ĠzhongĠ guoĠ
qin Ġ
Ġ tong
tie Ġ
ĠshiĠ shiĠ
Ġ bing
Ġ mingĠ
zhengĠ fuĠ
shao Ġ
can Ġ
pian Ġ
Ġ you
huo ĠdeĠ
mian ĠjiĠ
hang Ġ
hong Ġ
geng Ġ
Ġ huoĠ
ji ĠdeĠ
ĠshiĠ yongĠ
tiao Ġ
xiu Ġ
chen Ġ
shuo Ġ
pi Ġ
Ġ dongĠ
ren ĠweiĠ
ĠshiĠ jianĠ
tao Ġ
zhi ĠyiĠ
zhong ĠdeĠ
zheng ĠzhiĠ
huang Ġ
ran Ġ
ĠyiĠ zhiĠ
ĠshiĠ jieĠ
zhongĠ guoĠ
Ġ ri
yue Ġ
chuang Ġ
nv Ġ
qu ĠdeĠ
guo ĠjiĠ
yi ĠshiĠ
ĠpingĠ fangĠ
wo Ġ
renĠ kouĠ
xing ĠdeĠ
po Ġ
Ġ shouĠ
jinĠ xingĠ
rong Ġ
Ġ haoĠ
Ġ suiĠ
liao Ġ
mei ĠyouĠ
diao Ġ
tuo Ġ
song Ġ
ou Ġ
Ġ miĠ
Ġli ĠdeĠ
Ġli ĠshiĠ
nian Ġ
Ġ dang
ĠweiĠ yuanĠ
Ġ fenĠ
Ġ wanĠ
pei Ġ
ĠqiĠ zhongĠ
zuo ĠweiĠ
gongĠ siĠ
fa ĠguoĠ
biao ĠshiĠ
ĠĠĠ zaiĠ
yanĠ jiuĠ
Ġ er
Ġ shangĠ
zheng ĠshiĠ
Ġ haiĠ
Ġ yin
ĠdeĠ jiĠ
pan Ġ
tui Ġ
Ġ meiĠ
Ġ xinĠ
Ġ zhe
dian ĠshiĠ
yunĠ dongĠ
que Ġ
bang Ġ
qie Ġ
Ġ taiĠ
ĠdeĠ diĠ
cheng ĠshiĠ
zhi ĠshiĠ
Ġ shuĠ
Ġ jiangĠ
Ġ jingĠ
jian ĠdeĠ
3 Ġ
ta ĠdeĠ
gong ĠheĠ
shu ĠyuĠ
she ĠjiĠ
Ġ qianĠ
lang Ġ
ĠrenĠ minĠ
dun Ġ
ĠrenĠ kouĠ
zhi ĠdeĠ
qiao Ġ
10 ĠyueĠ
12 ĠyueĠ
ĠdeĠ zhiĠ
Ġ yingĠ
jing ĠjiĠ
dianĠ yingĠ
7 ĠyueĠ
Ġ xiaĠ
Ġ nanĠ
zu ĠzhiĠ
Ġ muĠ
9 ĠyueĠ
Ġ zhangĠ
8 ĠyueĠ
zhu ĠyiĠ
3 ĠyueĠ
Ġ zuiĠ
1 ĠyueĠ
mao Ġ
ĠshiĠ qiĠ
daiĠ biaoĠ
wa Ġ
riĠ benĠ
ying ĠguoĠ
5 ĠyueĠ
you ĠyiĠ
ji ĠshiĠ
kao Ġ
6 ĠyueĠ
guo ĠdeĠ
kan Ġ
4 ĠyueĠ
Ġ huiĠ
ĠshiĠ zhenĠ
re Ġ
hen Ġ
mai Ġ
xian ĠdeĠ
Ġ biĠ
wei ĠyiĠ
11 ĠyueĠ
cheĠ zhanĠ
jiao ĠyuĠ
Ġ tongĠ
gen ĠjuĠ
buĠ fenĠ
yi ĠdeĠ
daĠ xueĠ
yu ĠshiĠ
xiangĠ gangĠ
ming ĠweiĠ
xueĠ yuanĠ
ĠdeĠ guoĠ
ĠyiĠ yuanĠ
4 Ġ
li ĠshiĠ
ĠdeĠyiĠ geĠ
ĠzhiĠ houĠ
Ġ ruĠ
Ġ dengĠ
dan ĠrenĠ
ĠnianĠ 1ĠyueĠ
gen Ġ
can ĠjiaĠ
ĠyiĠ weiĠ
cao Ġ
kang Ġ
5 Ġ
sheĠ huiĠ
Ġ tiĠ
xian ĠshiĠ
ĠdiĠ quĠ
Ġ qingĠ
sa Ġ
yingĠ xiangĠ
taiĠ wanĠ
shu ĠdeĠ
Ġ ran
Ġ yanĠ
Ġyou ĠyuĠ
shang ĠdeĠ
xing ĠshiĠ
ye ĠshiĠ
Ġ xueĠ
qi ĠshiĠ
ĠyinĠ ciĠ
formula Ġ
bie Ġ
guan ĠliĠ
lao Ġ
zeng Ġ
gongĠ zuoĠ
tong ĠguoĠ
le ĠyiĠ
ĠnianĠ 12ĠyueĠ
Ġ xiaoĠ
Ġ lingĠ
xingĠ zhengĠ
bu ĠdeĠ
gongĠheĠ guoĠ
wei ĠshiĠ
ĠliĠ yaĠ
Ġnian ĠdeĠ
er ĠshiĠ
ren ĠdeĠ
zhun Ġ
zi ĠjiĠ
da ĠdeĠ
2 ĠyueĠ
xiong Ġ
ĠguoĠ jiaĠ
Ġ liangĠ
zui ĠzhongĠ
ĠnianĠ 3ĠyueĠ
hui ĠyiĠ
kuang Ġ
ĠĠĠ shengĠ
cheng ĠliĠ
nong Ġ
ĠpingĠfangĠ gongĠliĠ
luo ĠsiĠ
ku Ġ
ĠnianĠ 7ĠyueĠ
Ġ jiaoĠ
ĠnianĠ 10ĠyueĠ
faĠ xianĠ
Ġ wangĠ
chu ĠdeĠ
miao Ġ
Ġ zhanĠ
ha Ġ
qi ĠdeĠ
ĠbaoĠ kuoĠ
faĠ zhanĠ
ĠnianĠ 9ĠyueĠ
Ġ tianĠ
yuan ĠdeĠ
ĠshiĠ youĠ
ĠshiĠ zhiĠ
qiĠ taĠ
hei Ġ
ĠnianĠ 5ĠyueĠ
ĠqiĠ jianĠ
piao Ġ
suo ĠyouĠ
kuai Ġ
si ĠdeĠ
Ġ boĠ
ĠnianĠ 4ĠyueĠ
ĠnianĠ 6ĠyueĠ
ĠnianĠ 8ĠyueĠ
you ĠyuĠ
Ġ luoĠ
tieĠ luĠ
ĠdaĠ xueĠ
quan ĠguoĠ
ĠshiĠ zaiĠ
6 Ġ
dao ĠzhiĠ
dao ĠdeĠ
tong ĠdeĠ
zhuĠ yaoĠ
cheng ĠdeĠ
can ĠyuĠ
lou Ġ
Ġ maĠ
Ġ zhengĠ
wenĠ huaĠ
shuang Ġ
nuo Ġ
Ġ huaĠ
di ĠliĠ
Ġ duiĠ
ĠtaĠ menĠ
Ġ luĠ
zhong ĠyiĠ
lian ĠheĠ
di ĠdeĠ
ĠzhiĠ daoĠ
Ġ dangĠ
Ġ guĠ
ĠnianĠ 11ĠyueĠ
Ġtong ĠshiĠ
Ġ shenĠ
baoĠ kuoĠ
bu ĠshiĠ
ĠzhongĠ xinĠ
ĠĠĠ shiĠ
yin ĠyueĠ
bei ĠbuĠ
Ġ jiuĠ
shu ĠjiĠ
yong ĠyuĠ
sen Ġ
ĠĠĠ yiĠ
tiĠ gongĠ
Ġ quanĠ
Ġ zongĠ
zai ĠyiĠ
xuan ĠbuĠ
guoĠ jiaĠ
ĠweiĠyuanĠ huiĠ
zuĠ qiuĠ
Ġ sui
wenĠ tiĠ
Ġ zuoĠ
Ġnian ĠzhiĠ
kuan Ġ
Ġyin ĠweiĠ
xueĠ xiaoĠ
sheng ĠyuĠ
ĠshiĠ wuĠ
jian ĠyuĠ
zi ĠyouĠ
qianĠ miĠ
gong ĠyouĠ
guan ĠxiĠ
fang ĠshiĠ
ĠweiĠ zhiĠ
ĠshiĠ zhongĠ
hun Ġ
ĠnianĠ 2ĠyueĠ
Ġ xuĠ
en Ġ
biĠ saiĠ
hua ĠrenĠminĠ
ying ĠdeĠ
rang Ġ
chengĠ yuanĠ
jianĠ zhuĠ
huoĠ dongĠ
jian ĠliĠ
Ġ gai
heng Ġ
suan Ġ
yu ĠyiĠ
ĠĠĠ liĠshiĠ
ji ĠyiĠ
fen ĠweiĠ
ĠdeĠ renĠ
she ĠyouĠ
ren ĠshiĠ
zuoĠ pinĠ
Ġ changĠ
Ġ dianĠ
tong ĠshiĠ
guanĠ junĠ
Ġ benĠ
da ĠliĠ
ge ĠrenĠ
Ġ chengĠweiĠ
ĠĠĠshengĠ pingĠ
Ġ jie
Ġ xian
Ġ anĠ
zhuan ĠjiĠ
yu ĠdeĠ
ĠdiĠ erĠ
beiĠ jingĠ
ĠjiĠ huaĠ
ĠyouĠ xiĠ
jiu ĠshiĠ
xiao ĠshiĠ
Ġ liuĠ
huaĠrenĠminĠ gongĠheĠguoĠ
yin ĠweiĠ
gei Ġ
Ġta ĠdeĠ
men ĠdeĠ
Ġli ĠyuĠ
qun Ġ
ĠnianĠ daiĠ
Ġ baĠ
dui ĠyuĠ
xi ĠdeĠ
ming ĠdeĠ
Ġ aĠ
jun ĠshiĠ
Ġ congĠ
di ĠshiĠ
tong ĠyiĠ
diĠ erĠ
xin ĠdeĠ
qu ĠyuĠ
ĠbuĠ fenĠ
xueĠ jiaĠ
eĠ luoĠsiĠ
zou Ġ
taĠ menĠ
Ġ duoĠ
chun Ġ
wei ĠdeĠ
shouĠ daoĠ
min ĠguoĠ
hou ĠdeĠ
er ĠdeĠ
sheng ĠdeĠ
lai ĠdeĠ
fangĠ mianĠ
faĠ shengĠ
zhengĠ fu
gong ĠjiĠ
dan ĠweiĠ
Ġ fengĠ
Ġ huĠ
xing ĠweiĠ
ĠshiĠ renĠ
ĠyiĠ jingĠ
yong ĠyouĠ
Ġ fanĠ
zhong ĠshiĠ
jin ĠshiĠ
Ġ lianĠ
ĠxiĠ tongĠ
jueĠ dingĠ
bu ĠyuĠ
Ġ gongĠliĠ
Ġ quĠ
ĠzhongĠ yangĠ
ju ĠyouĠ
Ġ mianĠjiĠ
1 ĠriĠ
tong ĠzhiĠ
diĠ quĠ
niĠ yaĠ
liangĠ geĠ
Ġ guanĠ
faĠ xingĠ
qu ĠweiĠ
ĠriĠ benĠ
Ġ gaoĠ
Ġ feiĠ
Ġ wenĠ
you ĠdeĠ
chuĠ xianĠ
Ġ teĠ
sheng ĠjiĠ
Ġ suoĠ
zh Ġ
hua ĠdeĠ
ĠrenĠkouĠ miĠ
ci ĠshiĠ
qi ĠyuĠ
zi ĠzhiĠ
wu ĠdeĠ
laiĠ ziĠ
juĠ xingĠ
Ġta ĠzaiĠ
ling ĠyiĠ
jia ĠdeĠ
ĠjiĠ yuĠ
xian ĠzhiĠ
Ġ suo
ĠweiĠ jiĠ
mianĠjiĠ weiĠ
Ġ suĠ
hui ĠdeĠ
s Ġ
baoĠ huĠ
Ġ sanĠ
nan ĠbuĠ
du ĠliĠ
ĠpingĠfangĠ qianĠmiĠ
shuĠ juĠ
kong ĠzhiĠ
ĠshiĠ yuĠ
zongĠ tongĠ
jinĠ ruĠ
ĠshiĠweiĠ yuĠ
ĠliĠ ruĠ
renĠ wuĠ
qu ĠshiĠ
ke ĠliĠ
yaoĠ qiuĠ
mou Ġ
ĠĠĠ deĠ
Ġ 15
Ġ woĠ
Ġ meiĠguoĠ
gt Ġ
Ġ gtĠ
gu ĠshiĠ
cheng ĠjiĠ
Ġran ĠerĠ
Ġ guangĠ
lt Ġ
Ġ ru
xueĠ shengĠ
Ġ bianĠ
ĠĠĠ yuĠ
Ġ wan
jin ĠdeĠ
Ġdan ĠshiĠ
minĠ zhuĠ
Ġ caiĠ
gong ĠshiĠ
wanĠ chengĠ
ĠyiĠ qiĠ
lieĠ cheĠ
you ĠjiĠ
keĠ nengĠ
Ġ ltĠ
ĠyiĠ buĠ
shen ĠzhiĠ
Ġbing ĠyuĠ
zha Ġ
ren ĠzhiĠ
pingĠ fangĠ
you ĠshiĠ
Ġ yongĠ
Ġbing ĠzaiĠ
ĠjiĠ shuĠ
chao ĠguoĠ
ti ĠyuĠ
yuan ĠshiĠ
cang Ġ
cun ĠzaiĠ
qianĠ wangĠ
ke ĠdeĠ
ya ĠliĠ
dang ĠshiĠ
si ĠshiĠ
xue ĠxiĠ
yong ĠdeĠ
ĠdeĠyiĠ ge
jing ĠguoĠ
Ġ ceng
Ġ kaiĠ
nei ĠdeĠ
fa ĠbuĠ
Ġ shanĠ
zuo ĠdeĠ
ĠzhiĠ weiĠ
jian ĠyiĠ
Ġ hanĠ
guan ĠyuĠ
Ġ a
ĠĠĠ diĠ
wuĠ keĠ
wu ĠshiĠ
xiangĠ gang
zhu ĠrenĠ
ĠzhiĠ jianĠ
Ġ 16
yinĠ duĠ
Ġ puĠ
zhan ĠshiĠ
zhanĠ zhengĠ
ĠqiĠ taĠ
guo ĠshiĠ
sun Ġ
pao Ġ
zhuĠ yao
shengĠ huoĠ
zhou ĠdeĠ
xuĠ duoĠ
jian ĠzhiĠ
ĠjiĠ weiĠ
fan ĠweiĠ
bin Ġ
ĠyiĠ shuĠ
ĠjiĠ qiĠ
ĠweiĠ erĠ
chengĠ gongĠ
han ĠguoĠ
ouĠ zhouĠ
zhuĠ xiĠ
lu ĠdeĠ
jieĠ shouĠ
qiuĠ duiĠ
ĠzhiĠ youĠ
Ġ shuĠyuĠ
Ġ zai
daiĠ biao
ĠjiĠ zhongĠ
Ġ jin
fuĠ wuĠ
zeng ĠjiaĠ
ĠbuĠ guoĠ
ban ĠdeĠ
s ĠĠĠ
Ġ baiĠ
gongĠ yuanĠ
ĠyouĠ xianĠ
Ġ moĠ
Ġ 000
xiaoĠ xingĠ
xia ĠdeĠ
ĠĠĠ gaiĠ
ĠzheĠ xieĠ
ĠzhiĠ chuĠ
he ĠyiĠ
shangĠ haiĠ
duo ĠdeĠ
Ġ aoĠ
hou ĠyiĠ
san ĠshiĠ
ĠĠĠ zhiĠ
ning Ġ
ĠciĠ waiĠ
fu ĠdeĠ
ju ĠliĠ
huai Ġ
si ĠjiĠ
zuĠ chengĠ
Ġ genĠjuĠ
Ġ ba
yunĠdongĠ yuanĠ
jiaoĠ tongĠ
ĠzhiĠ zuoĠ
ĠzhiĠ chiĠ
ma ĠweiĠ
gaoĠ duĠ
7 Ġ
chang ĠdeĠ
ĠnianĠ qiĠ
zhuĠ jiaoĠ
Ġ zhĠ
zheĠ xieĠ
niu Ġ
ge ĠzhongĠ
Ġ cengĠ
ĠzhiĠ wuĠ
xuĠ yaoĠ
ĠzaiĠ ciĠ
jueĠ seĠ
chongĠ xinĠ
chuĠ leĠ
ti ĠdeĠ
tui ĠchuĠ
Ġli ĠjiĠ
zheĠ geĠ
jing ĠliĠ
Ġ 17
xiang ĠdeĠ
Ġ zuiĠzhongĠ
gongĠ chengĠ
Ġdang ĠshiĠ
qi ĠyiĠ
da ĠshiĠ
chu ĠyuĠ
ĠrenĠ heĠ
Ġ ai
Ġ sheĠ
wu ĠzhongĠ
du ĠweiĠ
renĠ minĠ
zi ĠdeĠ
Ġ duĠ
xuanĠ juĠ
lianĠ saiĠ
ĠĠĠ diĠliĠ
ziĠ jiĠdeĠ
Ġ ye
ĠweiĠ leĠ
ĠrenĠ wuĠ
geĠ quĠ
Ġ huo
ĠnianĠ jianĠ
dang ĠdiĠ
kaiĠ faĠ
Ġ laiĠ
fuĠ zeĠ
ĠĠĠ weiĠ
ĠweiĠ qiĠ
gongĠ chanĠ
xian ĠzaiĠ
ĠzhiĠ yuĠ
ĠrenĠ yuanĠ
Ġ ma
zhe ĠyiĠ
liang ĠweiĠ
jieĠ shuĠ
ya ĠdeĠ
chu ĠliĠ
jieĠ muĠ
Ġ leiĠ
guan ĠdeĠ
Ġ banĠ
nv ĠziĠ
sai ĠshiĠ
2010 ĠnianĠ
ding ĠdeĠ
rui Ġ
dui ĠdeĠ
riĠ ben
ĠhouĠ laiĠ
fanĠ yingĠ
chuĠ banĠ
jie ĠdeĠ
chanĠ shengĠ
juan Ġ
shouĠ ciĠ
she ĠshiĠ
lei ĠsiĠ
ĠshiĠyiĠ geĠ
Ġ yangĠ
dongĠ wuĠ
ba ĠshiĠ
Ġ C
jing ĠshiĠ
ĠjiĠ xuĠ
Ġ naĠ
le ĠbuĠ
jie ĠshiĠ
8 Ġ
xiang ĠshiĠ
ruo Ġ
bo ĠshiĠ
keĠ neng
Ġ daiĠ
an ĠdeĠ
nanĠ ziĠ
Ġ A
Ġ jiang
du ĠdeĠ
guanĠ xiaĠ
san ĠnianĠ
Ġ aiĠ
zao ĠchengĠ
Ġ mei
hai ĠshiĠ
yang ĠdeĠ
dong ĠshiĠ
she ĠliĠ
Ġ 1Ġ
zhong ĠzhiĠ
yanĠ jiu
daoĠ leĠ
shan ĠxiĠ
Ġ 0
guo ĠyiĠ
Ġ zhenĠ
Ġ yaĠ
Ġsuo ĠyiĠ
ĠjiĠ zhiĠ
zhong ĠyuĠ
fen ĠbuĠ
nv ĠxingĠ
ĠheĠ zuoĠ
dou ĠshiĠ
jun ĠdeĠ
ĠĠĠ qiĠ
guo ĠyuĠ
dong ĠdeĠ
dai ĠdeĠ
lianĠ mengĠ
zheng ĠdeĠ
fangĠ faĠ
ĠzhiĠ zhiĠ
2020 ĠnianĠ
ĠyiĠ siĠ
wu ĠliĠ
xiangĠ muĠ
jiaoĠ shouĠ
fang ĠdeĠ
meiĠ pingĠfangĠ
zhengĠzhiĠ renĠwuĠ
caiĠ yongĠ
di ĠweiĠ
Ġ tuĠ
Ġ cong
liang ĠdeĠ
ĠzaiĠ diĠ
Ġ xuanĠ
ĠĠĠ renĠkouĠ
chuanĠ tongĠ
yuan ĠyuĠ
zhan ĠdeĠ
zhu ĠdeĠ
ĠĠĠ youĠ
huaĠ minĠguoĠ
xiĠ tongĠ
cheng ĠrenĠ
Ġ zeĠ
Ġri ĠzaiĠ
Ġ guiĠ
jiaĠ ruĠ
fa ĠdeĠ
2001 ĠnianĠ
ge ĠshiĠ
Ġnian ĠyiĠ
xinĠ wenĠ
Ġ ranĠ
yanĠ yuanĠ
hao ĠdeĠ
ĠliĠ siĠ
ĠĠĠ jiĠ
ĠjiĠ jiĠ
fu ĠshiĠ
Ġ bei
ĠyiĠ huiĠ
xiangĠ guanĠ
ying ĠyuĠ
dao ĠshiĠ
bianĠ maĠweiĠ
taiĠ wan
he ĠshiĠ
ĠjiĠ luĠ
boĠ wuĠ
xue ĠdeĠ
hou ĠzaiĠ
ĠweiĠ fuĠ
ĠtaĠ men
lianĠ jieĠ
ĠdeĠyiĠge ĠshiĠzhenĠ
baoĠ kuo
ĠyiĠ yiĠ
10 Ġ
ĠxueĠ mingĠ
xi ĠjiĠ
zui ĠjiaĠ
mingĠ chengĠ
ĠxiĠ yaĠ
tiĠ chuĠ
mu ĠsiĠ
Ġ xieĠ
ling ĠshiĠ
Ġzhe ĠshiĠ
er ĠnianĠ
xiao ĠdeĠ
hai ĠyouĠ
mian ĠdeĠ
ĠweiĠ zhuĠ
ĠrenĠkouĠmiĠ duĠ
Ġ zong
Ġli ĠyiĠ
ge ĠdeĠ
ĠzhiĠ jieĠ
Ġ laĠ
zuiĠ gaoĠ
dong ĠjiĠ
Ġ zhouĠ
ĠĠĠ jiaĠ
Ġ yeĠshiĠ
ĠshiĠyiĠ zhongĠ
yan ĠdeĠ
xia ĠjiĠ
Ġ yuĠshiĠ
geĠ mingĠ
Ġ ci
ye ĠyuĠ
ĠgongĠ siĠ
Ġ fangĠ
ĠnianĠ zaiĠ
yao ĠdeĠ
Ġ qiuĠ
gai ĠweiĠ
ĠyiĠ xieĠ
zai ĠdeĠ
shu ĠshiĠ
haiĠ junĠ
Ġ junĠ
Ġ kaĠ
jia ĠzhiĠ
Ġ S
shengĠ wuĠ
zhe ĠzhongĠ
chang ĠshiĠ
Ġ liang
hui ĠshiĠ
yan ĠzhongĠ
gai ĠguoĠ
na ĠdaĠ
zhu ĠshiĠ
qingĠ kuang
zheng ĠyiĠ
zhai Ġ
bian ĠdeĠ
ke ĠjiĠ
Ġ zuoĠweiĠ
huiĠ fuĠ
ĠzhiĠ qianĠ
meiĠ tiĠ
zai ĠyuĠ
luan Ġ
xin ĠxiĠ
ĠyiĠ zhongĠ
gao ĠdeĠ
wenĠ wuĠ
jie ĠguoĠ
jian ĠshiĠ
qi ĠzhiĠ
ĠjiĠ zaiĠ
Ġ 18
minĠ zuĠ
shui ĠyuĠ
qian ĠdeĠ
he ĠdeĠ
yanĠ changĠ
Ġ niĠ
chou Ġ
zhuĠ jianĠ
fanĠ duiĠ
Ġ 2Ġ
neng ĠliĠ
ĠweiĠ youĠ
ĠkeĠ siĠ
ĠĠĠ S
ĠĠĠ xingĠzhengĠ
Ġ keĠyiĠ
ge ĠliĠ
gongĠ kaiĠ
hua ĠshiĠ
ĠbuĠ tongĠ
xing ĠzhiĠ
Ġ mi
si ĠyuĠ
lei ĠdeĠ
ĠzhuĠ yaoĠ
Ġ chongĠ
bei ĠshiĠ
huanĠ jingĠ
jieĠ gouĠ
jiangĠ junĠ
zhang ĠdeĠ
peng Ġ
ĠxiangĠ gangĠ
chuangĠ zuoĠ
xian ĠyuĠ
shangĠ yeĠ
ĠĠĠ benĠ
zan Ġ
ĠĠĠ formulaĠ
Ġ 14
gaoĠ suĠ
ĠzheĠ geĠ
sai ĠjiĠ
mo ĠshiĠ
a ĠerĠ
Ġ diĠyiĠ
zhe ĠdeĠ
biaoĠ xianĠ
ĠzhongĠ huaĠrenĠminĠgongĠheĠguoĠ
tong ĠjiĠ
Ġ hongĠ
Ġ ling
junĠ duiĠ
of ĠĠĠ
Ġli ĠweiĠ
daĠ luĠ
Ġ chenĠ
zhu ĠliĠ
shengĠ yaĠ
ge ĠyueĠ
Ġ yunĠ
sheng ĠliĠ
the ĠĠĠ
quan ĠliĠ
wuĠ faĠ
Ġ tangĠ
dong ĠbuĠ
zhou ĠshiĠ
zongĠ jiaoĠ
geĠ lanĠ
Ġnian ĠshiĠ
diaoĠ chaĠ
si ĠnianĠ
tou ĠguoĠ
ĠyiĠ banĠ
buĠ fen
biaoĠ zhunĠ
ĠĠĠ genĠjuĠ
hangĠ kongĠ
biĠ yeĠ
hui ĠzaiĠ
ĠĠĠ ciĠ
ĠyiĠ ciĠ
Ġdang ĠdiĠ
shenĠ fenĠ
Ġ yaoĠ
di ĠzhiĠ
gongĠ luĠ
faĠ yuanĠ
Ġ 1
Ġ neiĠ
ĠdeĠyiĠ buĠfenĠ
bu ĠyiĠ
di ĠyuĠ
jia ĠliĠ
gongĠ zuo
jin ĠjiĠ
cheng ĠzhongĠ
bing ĠbuĠ
sai ĠdeĠ
ĠtaiĠ wanĠ
Ġ 9
quan ĠbuĠ
baĠ gaoĠduĠ
ĠbingĠ qie
ĠjiĠ tuanĠ
Ġ ming
xieĠ huiĠ
jiao ĠshiĠ
feiĠ changĠ
dongĠ huaĠ
anĠ quanĠ
ĠzhiĠ xingĠ
bi ĠdeĠ
Ġ huangĠ
cha ĠdeĠ
Ġ linĠ
shengĠ chanĠ
ziĠ liaoĠ
fu ĠheĠ
jing ĠdeĠ
tuanĠ tiĠ
luoĠ maĠ
jie ĠzhiĠ
Ġ B
bei ĠrenĠ
fenĠ bie
chao ĠxianĠ
gai ĠdiĠ
Ġ zhuanĠ
Ġ 2
ding ĠyiĠ
xingĠ dongĠ
xia ĠyiĠ
jinĠ biaoĠ
pingĠ junĠ
Ġ liu
ĠĠĠ A
ĠjinĠ xingĠ
wenĠ xueĠ
du ĠshiĠ
Ġru ĠguoĠ
renĠkouĠ puĠ
la ĠsiĠ
qingĠ kuangĠ
jia ĠjiĠ
gongĠ gongĠ
jieĠ fangĠ
ĠzhiĠ yuanĠ
Ġ zuĠ
juĠ minĠ
ĠzhiĠ huiĠ
ĠqiĠ houĠ
Ġ gu
dongĠ beiĠ
shou ĠdeĠ
ĠbaoĠ kuo
shang ĠshiĠ
ĠjiĠ diĠ
Ġ 3
she ĠzhiĠ
ĠĠĠ ofĠĠĠ
Ġ wo
yanĠ chuĠ
qiuĠ yuanĠ
yuan ĠyiĠ
ĠyuĠ jiĠ
sai ĠzhongĠ
keĠ xueĠ
yan ĠshiĠ
Ġ fen
Ġ da
Ġ chuanĠ
gongĠ tongĠ
lingĠ daoĠ
Ġ 5
ren ĠyiĠ
Ġ 4
zuoĠ pin
zuo ĠyouĠ
Ġ nan
er ĠjiĠ
ĠdeĠ zhuĠ
faĠ biaoĠ
zai ĠshiĠ
28 ĠriĠ
aoĠ yunĠ
kong ĠjianĠ
xing ĠjiĠ
gaiĠ bianĠ
ye ĠyouĠ
sanĠ geĠ
wu ĠzhiĠ
deng ĠdiĠ
ĠlingĠ waiĠ
jia ĠshiĠ
Ġ zhaoĠ
ĠdiĠ guoĠ
youĠ xiĠ
de ĠĠĠ
Ġ jiu
yuan ĠheĠ
fang ĠzhiĠ
deng ĠrenĠ
Ġer ĠshiĠ
xue ĠshiĠ
guan ĠzhongĠ
lan ĠdeĠ
Ġ cheĠ
luĠ xianĠ
Ġdan ĠrenĠ
xue ĠweiĠ
d ĠĠĠ
shu ĠweiĠ
ze ĠshiĠ
ju ĠdeĠ
baoĠ daoĠ
Ġ huoĠdeĠ
Ġli ĠzhiĠ
qi ĠweiĠ
zhui Ġ
he ĠjiĠ
lve Ġ
chu ĠrenĠ
buĠ tongĠ
qing ĠnianĠ
2008 ĠnianĠ
guo ĠliĠ
zuoĠ yongĠ
bang ĠzhuĠ
aoĠ linĠ
pi ĠkeĠ
2016 ĠnianĠ
gong ĠdeĠ
zao ĠdaoĠ
ĠkeĠ nengĠ
ai ĠerĠ
ĠyuĠ qiĠ
Ġri ĠzhiĠ
ĠfuĠ zeĠ
ĠĠĠ zhongĠ
zu ĠdeĠ
danĠ quĠ
ĠyuĠ yanĠ
jiang ĠqiĠ
ju ĠjiĠ
lu ĠdiĠ
ĠdaĠ daoĠ
gui ĠdaoĠ
ĠyouĠ guanĠ
15 ĠriĠ
tongĠ changĠ
shou ĠjiĠ
ĠyiĠ youĠ
taĠ men
banĠ benĠ
fei ĠjiĠ
ĠyiĠ yuĠ
tu ĠdiĠ
xianĠ daiĠ
yuan ĠnianĠ
2009 ĠnianĠ
Ġ 12
sheng ĠdeĠyiĠgeĠshiĠzhenĠ
ma ĠliĠ
ĠzhiĠ jianĠdeĠ
yaĠ zhouĠ
xiĠ banĠ
ĠmuĠ qianĠ
bianĠ huaĠ
Ġ shuiĠ
ĠĠĠ juĠ
jingĠ neiĠ
jie ĠheĠ
pa Ġ
t Ġ
ĠshiĠ xingĠ
gongĠ yeĠ
hui ĠheĠ
jueĠ saiĠ
wu ĠnianĠ
taiĠ pingĠ
jia ĠyiĠ
hou ĠyuĠ
ĠbingĠ qieĠ
2011 ĠnianĠ
Ġ paiĠ
ĠsiĠ keĠ
2012 ĠnianĠ
zao ĠqiĠ
neiĠ rongĠ
zhengĠ ceĠ
ĠweiĠ zhongĠ
guangĠ boĠ
Ġ 8
zhan ĠyiĠ
Ġ dingĠ
xian ĠrenĠ
ta ĠzaiĠ
meiĠ yuanĠ
Ġ mo
jiao ĠyiĠ
pi ĠpingĠ
xingĠ chengĠ
ĠhaiĠ baĠgaoĠduĠ
25 ĠriĠ
jiaoĠ huiĠ
miao ĠshuĠ
m Ġ
ĠbuĠ duiĠ
Ġ ha
ĠzhiĠ yeĠ
ĠerĠ siĠ
wanĠ quanĠ
Ġdan ĠzaiĠ
xuanĠ zeĠ
yuanĠ yinĠ
ĠsiĠ teĠ
Ġta ĠyuĠ
UTC Ġ
Ġ si
bo ĠliĠ
zao ĠdeĠ
Ġ E
ĠheĠ wuĠ
jianĠ sheĠ
Ġyue ĠdeĠ
xie ĠyiĠ
chu ĠshiĠ
xiaoĠ shuoĠ
wuĠkeĠ lanĠ
chang ĠqiĠ
yunĠdongĠ huiĠ
Ġ D
beiĠ chengĠweiĠ
lianĠ bangĠ
ĠdiĠ sanĠ
ĠweiĠ diĠ
Ġ renĠweiĠ
ĠjianĠ chengĠ
30 ĠriĠ
Ġdang ĠzhongĠ
10 ĠriĠ
ĠshiĠ yanĠ
ĠdeĠ daoĠ
chiĠ xuĠ
zui ĠdaĠ
wenĠ hua
Ġ eĠ
Ġ qie
20 ĠriĠ
mingĠ mingĠ
Ġ xunĠ
zu ĠheĠ
yuanĠ zhuĠ
duoĠ shuĠ
dianĠ ziĠ
se ĠdeĠ
zhuanĠ yeĠ
ĠyiĠ mingĠ
Ġta ĠshiĠ
xing ĠyuĠ
2014 ĠnianĠ
houĠ laiĠ
lin ĠshiĠ
gongĠ si
Ġ T
Ġ mianĠ
sheng ĠheĠ
ĠyouĠ chengĠ
er ĠweiĠ
wuĠ yuanĠ
bu ĠliĠ
jieĠ daoĠ
Ġ mengĠ
fu ĠzhiĠ
ba ĠliĠ
ziĠ geĠ
Ġ 7
chu ĠqiĠ
2018 ĠnianĠ
bu ĠjiĠ
2019 ĠnianĠ
Ġ 6
erĠ ziĠ
Ġ 5Ġ
t ĠĠĠ
dongĠ nanĠ
gao ĠzhongĠ
faĠ lvĠ
taĠ menĠdeĠ
ĠjiĠ gouĠ
za ĠzhiĠ
ĠjiĠ jinĠ
ĠdiĠ siĠ
ĠshiĠweiĠyuĠ meiĠguoĠ
daĠ daoĠ
ĠjinĠ guanĠ
ye ĠdeĠ
2013 ĠnianĠ
ĠweiĠyuĠ gaiĠguoĠ
ĠguoĠ minĠ
faĠ zhan
aĠ laĠ
kui Ġ
Ġyue ĠzhiĠ
ĠliĠ keĠ
tu ĠerĠ
sheng ĠweiĠ
ĠshiĠjieĠ daĠ
Ġ san
baoĠ gaoĠ
zhong ĠjiĠ
24 ĠriĠ
dao ĠyiĠ
2015 ĠnianĠ
ĠliĠ yongĠ
ĠliĠ kaiĠ
fangĠ xiangĠ
ĠsuiĠ houĠ
nei ĠbuĠ
ĠyuĠ zhongĠ
guoĠ minĠ
guangĠ dongĠ
guiĠ dingĠ
wang ĠdeĠ
9 Ġ
boĠwuĠ guanĠ
Ġ ke
Ġ gengĠ
luo ĠdeĠ
26 ĠriĠ
Ġ ãĤ
canĠ saiĠ
Ġ M
Ġyue ĠshiĠ
Ġ yingĠguoĠ
Ġzhe ĠzhongĠ
2007 ĠnianĠ
muĠ biaoĠ
ĠweiĠ siĠ
sheĠ quĠ
ĠyuĠ zhiĠ
guan ĠzhiĠ
Ġtong ĠnianĠ
dian ĠliĠ
2005 ĠnianĠ
Ġ ãģ
gongĠchanĠ dangĠ
die Ġ
18 ĠriĠ
ĠyouĠ qiĠ
ĠxiĠ lieĠ
xian ĠyiĠ
Ġ waiĠ
teĠ bie
ĠfenĠ buĠyuĠ
aoĠlinĠ piĠkeĠ
lian ĠxiĠ
bing ĠweiĠ
gongĠ buĠ
ĠjiĠ changĠ
fu ĠliĠ
juĠ banĠ
Ġ shaĠ
mu ĠdeĠ
ĠchuĠ leĠ
Ġ 2001ĠnianĠ
Ġ ganĠ
lie ĠdeĠ
ĠshiĠ heĠ
chang ĠweiĠ
wuĠ xianĠ
ĠerĠ shengĠ
Ġ P
bi ĠliĠ
quanĠ qiuĠ
shen ĠdeĠ
tou ĠziĠ
ĠshiĠ ziĠ
2017 ĠnianĠ
mu ĠdiĠ
16 ĠriĠ
ĠjiĠ heĠ
yinĠ hangĠ
ding ĠweiĠ
Ġ que
Ġ duo
dongĠ jingĠ
shangĠ shuĠ
fu ĠyiĠ
dao ĠyuĠ
dang ĠdeĠ
guanĠ fangĠ
Ġ 13
guo ĠzhiĠ
17 ĠriĠ
paiĠ sheĠ
zi ĠyuĠ
huaĠ xueĠ
shou ĠyuĠ
kaiĠ fangĠ
Ġ minĠ
ĠyouĠxianĠ gongĠsiĠ
ĠĠĠ zhengĠzhiĠ
21 ĠriĠ
bu ĠzhiĠ
ĠdeĠshiĠ zhenĠ
gai ĠnianĠ
27 ĠriĠ
baoĠ faĠ
ĠzhongĠ xueĠ
zhe ĠshiĠ
ka ĠerĠ
19 ĠriĠ
2006 ĠnianĠ
8 ĠriĠ
jun ĠweiĠ
11 ĠriĠ
ĠliĠ faĠ
mingĠ ziĠ
yingĠ yongĠ
12 ĠriĠ
23 ĠriĠ
shang ĠyouĠ
ce ĠshiĠ
Ġ songĠ
ĠhaoĠ miĠ
ĠfuĠ wuĠ
ĠyinĠ ci
suĠ lianĠ
meiĠguoĠ renĠkouĠpuĠ
xian ĠweiĠ
ĠdeĠ weiĠ
fei ĠxingĠ
ĠzhiĠ jiĠ
shuĠ liangĠweiĠ
7 ĠriĠ
qiĠ jianĠ
juĠ leĠbuĠ
fu ĠyuĠ
yin ĠshiĠ
xueĠ zheĠ
huang ĠdiĠ
hui ĠyuĠ
qi ĠjiĠ
2021 ĠnianĠ
ban ĠshiĠ
xiĠ lieĠ
boĠ chuĠ
ĠdeĠ zhongĠ
Ġ qieĠ
22 ĠriĠ
guiĠ moĠ
ĠshiĠ faĠguoĠ
Ġ saiĠ
biĠ xuĠ
ling ĠyuĠ
9 ĠriĠ
Ġ 3Ġ
shanĠ dongĠ
gongĠ nengĠ
Ġ ãĥ
29 ĠriĠ
chu ĠyiĠ
Ġ G
yin ĠqiĠ
Ġ 6Ġ
guanĠ yuanĠ
ying ĠshiĠ
te ĠdeĠ
zuiĠ daĠdeĠ
zheng ĠzaiĠ
ĠyueĠ hanĠ
xunĠ lianĠ
kun Ġ
ĠjiĠ baiĠ
jingĠ yingĠ
fengĠ geĠ
Ġ F
2022 ĠnianĠ
fuĠ jinĠ
ting ĠzhiĠ
nengĠ gouĠ
suoĠ shuĠdeĠ
pingĠ jiaĠ
shengĠ mingĠ
3 ĠriĠ
14 ĠriĠ
geĠ diĠ
zhu ĠzaiĠ
qingĠkuang ĠxiaĠ
yuan ĠjiĠ
shou ĠshiĠ
tiao ĠjianĠ
jiao ĠdeĠ
21 Ġ
5 ĠriĠ
sheng ĠzaiĠ
quĠ huaĠ
ĠĠĠ C
shengĠ chan
tai ĠdeĠ
xi ĠshiĠ
shang ĠweiĠ
Ġ piĠ
she ĠdeĠ
mai ĠkeĠ
ĠĠĠ youĠyuĠ
ya ĠyuĠ
Ġ daoĠzhiĠ
jin ĠzhiĠ
31 ĠriĠ
ĠbuĠ jiuĠ
jieĠ chuĠ
Ġ kaiĠshiĠ
Ġ lvĠ
yuan ĠzhiĠ
ĠdaĠ huiĠ
lianĠ meng
xiaoĠxingĠ xingĠ
4 ĠriĠ
chao ĠjiĠ
2 ĠriĠ
xiong ĠdiĠ
da ĠjiĠ
ĠrenĠ zhongĠ
ĠzuiĠ houĠ
dian ĠdeĠ
6 ĠriĠ
A Ġ
hai ĠyuĠ
zang Ġ
ĠĠĠ theĠĠĠ
boĠ teĠ
ĠgongĠ chiĠ
liu ĠxingĠ
ge ĠjiĠ
13 ĠriĠ
nanĠ xingĠ
ĠsuiĠ ranĠ
wenĠwuĠ baoĠhuĠ
ĠnianĠ dai
teĠ zhengĠ
renĠ heĠ
wu ĠjiĠ
Ġ manĠ
ge ĠweiĠ
Ġ qiangĠ
ren ĠjiĠ
lv ĠyouĠ
zuoĠ jiaĠ
keĠ daĠ
si ĠrenĠ
Ġtong ĠguoĠ
geĠ shouĠ
Ġ xin
Ġ jueĠ
Ġ shenĠzhiĠ
yinĠ ciĠ
huang ĠjiaĠ
fen ĠxiĠ
ouĠ zhou
br Ġ
jian ĠweiĠ
shengĠ fenĠ
Ġ lingĠyiĠ
zong ĠheĠ
xuĠ duo
d Ġ
lieĠ che
r Ġ
ju ĠrenĠ
niu ĠyueĠ
Ġ brĠ
ĠĠĠ jinĠ
banĠ daoĠ
ci ĠshiĠjieĠdaĠ
zhuĠ tiĠ
zhong ĠweiĠ
Ġ 10
cheng ĠyiĠ
zai ĠweiĠ
zhuangĠ taiĠ
ĠsuiĠ ran
ĠyouĠ mingĠ
qi ĠnianĠ
ĠtaĠ cengĠ
ben ĠdeĠ
bian ĠweiĠ
Ġ douĠ
pin ĠdaoĠ
ĠzaiĠ qiĠ
you ĠyiĠgeĠ
ju ĠzhongĠ
fenĠ ziĠ
he ĠliĠ
mao ĠyiĠ
20 ĠshiĠjiĠ
ĠzhiĠ zhongĠ
The ĠĠĠ
buĠ zhangĠ
renĠkouĠ shuĠliangĠweiĠ
Ġ chiĠ
wangĠ luoĠ
hui ĠyouĠ
Ġ geng
qian ĠyiĠ
ĠĠĠ ziĠ
ao ĠsiĠ
2004 ĠnianĠ
shuo ĠshiĠ
jieĠ duanĠ
xuanĠ shouĠ
gao ĠjiĠ
zhun ĠbeiĠ
fa ĠshiĠ
ĠheĠ nanĠ
ci ĠdeĠ
fangĠ anĠ
fang ĠyuĠ
mi ĠerĠ
wai ĠdeĠ
daĠ xingĠ
duoĠ ciĠ
Ġ zhou
Ġ chen
bing ĠliĠ
gong ĠzhongĠ
ĠĠĠ liĠ
bei ĠdeĠ
huiĠ daoĠ
Ġ 4Ġ
mo ĠdeĠ
ĠyiĠ laiĠ
Ġri ĠqiĠ
chengĠ duĠ
fen ĠzhiĠ
Ġ lanĠ
ci ĠzhiĠ
Ġ gangĠ
bu ĠweiĠ
2000 ĠnianĠ
shuĠ guanĠ
liu ĠnianĠ
11 Ġ
ĠzhongĠ buĠ
wuĠ qiĠ
jie ĠjiĠ
le ĠyiĠgeĠ
yuan ĠweiĠ
baoĠ hanĠ
jun ĠzaiĠ
ĠdiĠ fangĠ
dianĠshiĠ taiĠ
Ġ fan
you ĠzhiĠ
zi ĠshiĠ
ĠdeĠyiĠ zhongĠ
xing ĠheĠ
ĠrenĠ kou
ĠrenĠkouĠmiĠ duĠweiĠ
ju ĠshiĠ
deng ĠjiĠ
Ġ yiĠshiĠ
luĠ junĠ
xuan ĠweiĠ
xiangĠ tongĠ
Ġ chaoĠ
zheĠ jiangĠ
Ġ ze
Ġ xianĠshiĠ
zuiĠ houĠ
biaoĠ yanĠ
qiu ĠjiĠ
Ġ touĠ
siĠ wangĠ
gaiĠ geĠ
ĠzhuĠ yao
ĠweiĠyuĠ faĠguoĠ
sheĠ beiĠ
nong ĠyeĠ
daĠ liangĠ
duoĠ geĠ
meiĠ zhouĠ
ĠzhiĠ jinĠ
dianĠshiĠ juĠ
hou ĠyouĠ
ĠshiĠ daiĠ
Ġ zu
Ġ zhao
ĠxiĠ banĠ
Ġ K
gu ĠjiĠ
shang ĠyiĠ
ai ĠdeĠ
yang ĠshiĠ
zhu ĠyuĠ
guangĠ changĠ
Ġ xiang
liu ĠshiĠ
zai ĠjiĠ
zhanĠ douĠ
fa ĠyuĠ
Ġ fei
wenĠwuĠbaoĠhuĠ danĠweiĠ
ĠĠĠ daĠ
zhanĠ kaiĠ
Ġ meiĠyouĠ
ĠzhiĠ liĠ
jia ĠheĠ
l Ġ
tiao ĠyueĠ
ĠjiaĠ ruĠ
fuĠ jianĠ
xieĠ zhuĠ
ĠyiĠ beiĠ
ĠbuĠ zaiĠ
chanĠ pinĠ
muĠ qianĠ
hangĠ kong
bianĠ chengĠ
jiang ĠyuĠ
youĠ zhengĠ
ĠfenĠ bie
huoĠdeĠ leĠ
ren ĠyuĠ
mi ĠdeĠ
fenĠ leiĠ
daoĠ luĠ
gongĠyouĠ renĠkouĠ
ying ĠjiĠ
duan ĠdeĠ
ĠzhiĠ zaiĠ
qun ĠdaoĠ
qing ĠdeĠ
biaoĠ zhun
zhenĠ quĠ
ĠbeiĠ qiĠ
Ġzhe ĠyiĠ
haiĠ baĠ
ĠĠĠ jianĠ
nao Ġ
biĠ jiaoĠ
nai Ġ
ĠqiĠ yeĠ
guiĠ huaĠ
zhanĠ zheng
cuo Ġ
ĠĠĠ B
ĠliĠ ziĠ
ĠkeĠ neng
20 Ġ
ĠxiĠ wangĠ
ĠxingĠ zhengĠ
suĠ duĠ
ju ĠyuĠ
nv ĠerĠ
xiĠ buĠ
ĠzhongĠ huaĠminĠguoĠ
shouĠ duĠ
xi ĠweiĠ
nu Ġ
Ġ L
ĠbuĠ huiĠ
Ġ faĠguoĠ
ĠyiĠ renĠ
qiao ĠzhiĠ
ĠgongĠ fenĠ
Ġ zhang
ĠzaiĠ zhongĠ
meiĠpingĠfangĠ gongĠliĠ
rong ĠyuĠ
dong ĠxiĠ
jiu ĠshiĠzhenĠ
dong ĠliĠ
ĠyiĠ yangĠ
manĠ huaĠ
ĠdeĠshiĠ jianĠ
jinĠ gongĠ
diĠyiĠ geĠ
dou ĠyouĠ
si ĠheĠ
Ġ R
ĠĠĠ xiĠ
ĠchengĠ quĠ
si ĠweiĠ
U Ġ
henĠ duoĠ
Ġ I
maĠ lai
la ĠdeĠ
Ġ 00
Ġ nvĠ
ken Ġ
ĠĠĠ T
ruĠ xiaĠ
taiĠ beiĠ
ze ĠrenĠ
fu ĠrenĠ
la ĠkeĠ
Ġ O
quĠ daiĠ
ĠciĠ houĠ
xian ĠdeĠyiĠgeĠ
jinĠbiaoĠ saiĠ
ĠyiĠ xiaĠ
shangĠ wuĠ
yu ĠshiĠdeĠ
Ġ 30
ĠyuĠ weiĠ
Ġ kongĠ
jian ĠyouĠ
ĠerĠ beiĠ
zong ĠliĠ
a ĠĠĠ
Ġ tian
wang ĠguoĠ
xiangĠ duiĠ
lianĠ xuĠ
ĠĠĠ fuĠ
qu ĠyiĠ
min ĠzhongĠ
jieĠ rang
reng Ġran
xiao ĠxiĠ
miĠ shuĠ
Ġ hao
tie ĠdaoĠ
zhengĠ geĠ
ĠĠĠ zheĠ
zuiĠ houĠyiĠ
ci ĠjiĠ
jue ĠdeĠ
renĠkouĠshuĠliangĠweiĠ renĠ
Ġ ruo
Ġ tiaoĠ
ĠzhongĠ xin
ĠĠĠ zhuĠ
quan ĠdeĠ
zhanĠ lingĠ
xinĠ jiaĠ
ĠĠĠ F
waiĠ jiaoĠ
diĠ sanĠ
jiaĠ naĠdaĠ
ĠliĠ shuĠyuĠ
ĠrenĠ zaiĠ
tianĠ zhuĠjiaoĠ
ĠyingĠ chiĠ
zhen ĠshiĠ
Ġ INSEE
yeĠ wuĠ
chengĠ zhenĠ
ci ĠyuĠ
qiĠ ta
Ġ heiĠ
Ġ wu
Ġnian ĠjiĠ
Ġran ĠhouĠ
yuan ĠyouĠ
Ġyou ĠyiĠ
ceng ĠzaiĠ
daĠ xue
niao Ġ
jianĠ chaĠ
zhengĠ quanĠ
shengĠ chengĠ
shouĠ geĠ
nan ĠjiĠ
zuoĠ chuĠ
ĠdeĠshiĠ houĠ
ĠheĠ beiĠ
ni ĠsiĠ
juĠ jueĠ
lu ĠshiĠ
jiao ĠweiĠ
Ġ N
quĠ xiaoĠ
ti ĠjiĠ
Ġ rang
Ġjie ĠzhiĠ
ĠdeĠ yuĠ
dian ĠjiĠ
sheng ĠzhiĠ
cheĠ liangĠ
ĠgaiĠ shengĠ
wangĠ zhanĠ
he ĠweiĠ
da ĠliĠyaĠ
zhongĠ xinĠ
dui ĠzaiĠ
n Ġ
xianĠ faĠ
le ĠjiĠ
Ġ bai
he ĠzhiĠ
diĠ fangĠ
Ġ duiĠyuĠ
ziĠ xingĠ
zhen ĠdeĠ
lan ĠxiĠ
ĠqiĠ ta
Ġer ĠzaiĠ
ĠzongĠ mianĠjiĠ
Ġ zhengĠshiĠ
yunĠ yingĠ
ĠdeĠ liĠ
jieĠ jueĠ
tianĠ wenĠ
2002 ĠnianĠ
ĠriĠ ben
2003 ĠnianĠ
mo ĠxiĠ
ĠshiĠ changĠ
gong ĠyiĠ
shu ĠzhiĠ
ye ĠzaiĠ
ĠdiĠ qiĠ
ĠjianĠ zhuĠ
shou ĠweiĠ
dianĠ ying
ĠrenĠkouĠmiĠduĠ meiĠpingĠfangĠgongĠliĠ
xiaoĠ xueĠ
yingĠ xiang
chaĠdeĠ shuĠjuĠ
youĠzhengĠ bianĠmaĠweiĠ
hui ĠzhiĠ
gan ĠdaoĠ
ĠxingĠ chengĠ
puĠ taoĠ
ĠshiĠzhenĠ bianĠmaĠweiĠ
ĠINSEE ĠshiĠzhenĠbianĠmaĠweiĠ
qing ĠshiĠ
te ĠliĠ
ĠrenĠkouĠmiĠduĠweiĠ meiĠpingĠfangĠ
mengĠ guĠ
ĠĠĠ buĠ
mu ĠshiĠ
ĠxiaĠ lingĠshiĠ
diĠyiĠ ciĠ
xi ĠliĠ
zhuo Ġ
er ĠzaiĠ
xuanĠ quĠweiĠ
lei ĠjiĠ
zuoĠ zhanĠ
si ĠzaiĠ
gao ĠyuĠ
niĠ ya
yuĠshiĠdeĠ renĠkouĠshuĠliangĠweiĠrenĠ
bao ĠdeĠ
meiĠguoĠrenĠkouĠpuĠ chaĠdeĠshuĠjuĠ
zuo ĠyiĠ
lu ĠyiĠ
Ġer ĠrenĠkouĠmiĠduĠweiĠmeiĠpingĠfangĠ
ĠdangĠdiĠ gongĠyouĠrenĠkouĠ
Ġ huanĠ
xi ĠyuĠ
ĠteĠ bie
yun ĠxingĠ
ĠhuoĠ jiuĠshiĠzhenĠ
xin ĠliĠ
jingĠ changĠ
shengĠjiĠ xuanĠquĠweiĠ
jiang ĠshiĠ
yuanĠ ziĠ
faĠ dongĠ
kuaiĠ suĠ
Ġ shuangĠ
Ġ bo
ĠzhongĠ yang
shao ĠnianĠ
sheng ĠrenĠ
bian ĠjiĠ
chong ĠjianĠ
fenĠweiĠ faĠguoĠ
ĠgaiĠshengĠ fenĠweiĠfaĠguoĠ
fa ĠqiĠ
ĠĠĠ nianĠ
gaoĠ dengĠ
Ġ biaoĠshiĠ
ming ĠyiĠ
cong ĠshiĠ
ĠĠĠ G
shuo ĠfaĠ
ĠnianĠ chuĠ
yangĠ huaĠ
ĠyouĠ renĠ
Ġnian ĠyuĠ
cheng ĠliĠyuĠ
jia ĠzhongĠ
jin ĠyiĠbuĠ
na ĠdeĠ
y Ġ
lianĠheĠ guoĠ
ĠerĠ qie
yanĠjiuĠ suoĠ
zhengĠ mingĠ
fang ĠqiĠ
daĠ quĠ
tai ĠguoĠ
gongĠ xianĠ
gou ĠdeĠ
lunĠ dun
ĠĠĠ heĠ
fanĠ huiĠ
aoĠlinĠpiĠkeĠ yunĠdongĠhuiĠ
jieĠrang ĠdeĠshiĠzhenĠ
Ġ guoĠjiĠ
zi ĠweiĠ
gong ĠrenĠ
suoĠshuĠdeĠ shengĠjiĠxuanĠquĠweiĠ
si ĠliĠ
yunĠ shuĠ
xiang ĠjiĠ
me Ġ
huo ĠshiĠ
ziĠ ran
yuan ĠliĠ
2023 ĠnianĠ
ne Ġ
ti ĠxiĠ
jianĠ chengĠ
biao ĠweiĠ
Ġ H
na ĠliĠ
zhuĠ chiĠ
xingĠ qiĠ
zhongĠ huaĠrenĠminĠgongĠheĠguoĠ
mingĠ danĠ
boĠ lanĠ
Ġ huang
xi ĠzaiĠ
ziĠ yuanĠ
dao ĠrenĠ
reĠ daiĠ
xiĠbanĠ yaĠ
ce ĠdeĠ
Ġ hu
hua ĠweiĠ
luo ĠfuĠ
fuĠ qinĠ
ĠxiĠ beiĠ
xiaĠ wuĠ
zhanĠ dou
B Ġ
er ĠheĠ
pai ĠdeĠ
ĠnianĠ youĠ
faĠ sheĠ
ĠdiĠ quĠdeĠ
bei ĠyiĠ
fen ĠdeĠ
ni ĠkeĠ
cui Ġ
Ġ haĠ
wenĠ mingĠ
ĠĠĠ cheĠzhanĠ
ĠzhiĠ chengĠ
ĠheĠ bingĠ
diaoĠ cha
chanĠ yeĠ
ĠnianĠ houĠ
ĠshiĠyiĠ mingĠ
wan ĠjiaĠ
an ĠshiĠ
xiangĠ dangĠ
ĠĠĠ chuĠ
Ġyou ĠshiĠ
sheng ĠshiĠ
Ġ kang
Ġ zaoĠ
chaoĠ zhengĠzhiĠrenĠwuĠ
su ĠdeĠ
jinĠxingĠ leĠ
ĠweiĠ shengĠ
Ġ chuangĠ
ĠĠĠ taĠ
jian ĠjiĠ
ĠbuĠ nengĠ
nanĠ shengĠ
Ġ peiĠ
jin ĠyiĠ
xuanĠ chuanĠ
ĠshiĠyiĠ weiĠ
ying ĠliĠ
jingĠ shenĠ
bei ĠjiĠ
lv ĠshiĠ
xianĠ xiangĠ
za Ġ
shu ĠzhongĠ
shouĠ shangĠ
zi ĠheĠ
xiĠ yangĠ
fuĠzeĠ guanĠxiaĠ
guanĠ zhuĠ
lian ĠdeĠ
qiĠ zhongĠyiĠ
mie Ġ
jiaĠ tingĠ
paiĠ mingĠ
tongĠ xingĠ
lie ĠweiĠ
sai ĠerĠ
Ġyue ĠzaiĠ
zhanĠ houĠ
xuan ĠrenĠ
liu ĠyuĠ
shuĠ liangĠ
xiaoĠ zuĠ
fo ĠjiaoĠ
lanĠ qiuĠ
shuai Ġ
ke ĠweiĠ
ĠĠĠ P
Ġ bi
jie ĠyiĠ
daoĠ yanĠ
zhengĠ juĠ
qiu ĠdeĠ
ĠxiĠ nanĠ
da ĠweiĠ
taoĠ lunĠ
ba ĠnianĠ
wang ĠshiĠ
duĠ jiaoĠ
yan ĠyiĠ
Ġ longĠ
reĠ dai
y ĠĠĠ
ĠĠĠ beiĠ
ĠzhongĠ gongĠ
zhengĠ dangĠ
laiĠ yuanĠ
genĠ ju
ĠshiĠ xianĠ
baoĠ chiĠ
Ġ tuoĠ
wenĠ jianĠ
ĠyiĠ jianĠ
hou ĠqiĠ
ĠnianĠ duĠ
ĠerĠ qieĠ
zhongĠ yangĠ
ĠzhiĠ xianĠ
Ġ ben
ĠdaoĠ leĠ
reng ĠranĠ
Ġ 10ĠyueĠ
ĠyiĠ xiĠ
lv ĠkeĠ
rui ĠshiĠ
Ġ canĠ
ĠjiĠ siĠ
pingĠ lunĠ
ming ĠshiĠ
ziĠ dongĠ
Ġzong ĠrenĠkouĠ
xia ĠdeĠyiĠgeĠ
fan ĠdeĠ
ĠwuĠ keĠ
diĠ siĠ
zao ĠnianĠ
biaoĠ mingĠ
xu ĠdeĠ
lu ĠyuĠ
ĠzhiĠ mingĠ
hai ĠdeĠ
ĠjiĠ huĠ
pingĠ taiĠ
luoĠ ma
keĠliĠ siĠ
ĠĠĠ E
ĠshiĠ jianĠyuĠ
hao ĠweiĠ
rao Ġ
cengĠ jingĠ
xuĠ yao
peng ĠyouĠ
ĠliĠ renĠ
da ĠyueĠ
yinĠ hang
fengĠ xianĠ
eĠ luoĠ
nanĠ jingĠ
ĠĠĠ M
ĠbeiĠ jingĠ
Ġ ciĠshiĠ
ĠdeĠdiĠ fangĠ
sheng ĠyiĠ
gong ĠzhongĠyangĠ
taiĠpingĠ yangĠ
jiaoĠ tangĠ
zheng ĠbuĠ
lianĠ bang
Ġ ouĠ
jiao ĠbuĠ
xuanĠ quĠ
xingĠ buĠ
ke ĠzaiĠ
jing ĠyouĠ
yanĠ geĠ
queĠ dingĠ
yuan ĠzaiĠ
sou Ġ
ĠguoĠ wangĠ
daoĠ daĠ
shen ĠweiĠ
jianĠ duiĠ
chongĠ tuĠ
ĠĠĠ xianĠ
wu ĠrenĠ
jian ĠrenĠ
ĠyiĠ shangĠ
mo ĠxingĠ
ĠĠĠ 2021
biao ĠzhiĠ
hua ĠyuĠ
ru ĠheĠ
Ġ lin
qian ĠshiĠ
ke ĠshiĠ
Ġ miaoĠ
qian ĠzhiĠ
tui ĠyiĠ
xiao ĠguoĠ
zhang ĠdaĠ
shangĠ yingĠ
dao ĠheĠ
keĠ siĠ
ĠgongĠ yuanĠ
jing ĠweiĠ
ĠĠĠ suiĠ
lei ĠxingĠ
ĠyiĠ liĠ
ĠdaĠ xue
zhou ĠweiĠ
xian ĠjiĠ
queĠ zhenĠ
ye ĠbuĠ
biao ĠdaĠ
fengĠ baoĠ
guangĠ zhouĠ
ĠĠĠ 2020
xia ĠshiĠ
dangĠ xuanĠ
xie ĠdeĠ
biĠ yaĠ
Ġ tanĠ
xian ĠheĠ
shengĠ huo
pang Ġ
liang ĠzhongĠ
ding ĠyuĠ
qiĠ yeĠ
Ġceng ĠrenĠ
ĠjiĠ beiĠ
jiaoĠ quĠ
pingĠ mianĠ
ĠĠĠ and
anĠ jianĠ
chengĠ xianĠ
shenĠ qingĠ
luĠ siĠ
xing ĠyiĠ
ĠzhiĠ fuĠ
tuanĠ duiĠ
ĠerĠrenĠkouĠmiĠduĠweiĠmeiĠpingĠfangĠ qianĠmiĠ
ĠjinĠ ruĠ
ĠliĠ daĠ
Ġ deng
Ġ qinĠ
cha ĠyiĠ
ĠliĠ lunĠ
yingĠ geĠlanĠ
yaoĠ qingĠ
neiĠ rong
puĠ tongĠ
Ġ J
yuanĠ zhangĠ
0 Ġ
yuanĠ suĠ
ĠzhongĠ youĠ
Ġ gao
xing ĠrenĠ
jiu ĠnianĠ
Ġjie ĠguoĠ
xi ĠheĠ
ĠtaĠ menĠdeĠ
Ġ zheng
ri ĠqiĠ
qiuĠ changĠ
xiaoĠ shouĠ
rou Ġ
zhongĠ yaoĠ
yan ĠzhiĠ
heng ĠxingĠ
zi ĠyiĠ
ruĠ ciĠ
duiĠ shouĠ
la ĠfuĠ
fenĠ bieĠ
tiaoĠ zhanĠ
zuo ĠshiĠ
bao ĠweiĠ
cheng ĠyuĠ
shu ĠyiĠ
laiĠ shuoĠ
Ġ qiĠyuĠ
hui ĠjiĠ
Ġyue ĠyuĠ
ru ĠguoĠ
ĠzhiĠ zaoĠ
xueĠ shuĠ
he ĠyuĠ
12 Ġ
anĠ naĠ
ĠzhongĠ huaĠ
wangĠ luĠ
lun ĠdeĠ
nu ĠliĠ
l ĠĠĠ
yu ĠĠĠ
ni ĠdeĠ
ĠshiĠ diĠ
wu ĠyiĠ
shun Ġ
Ġ 8ĠyueĠ
zhengĠ zhuangĠ
jia ĠrenĠ
caiĠ yong
ting ĠdeĠ
nengĠ gou
ziĠzhiĠ quĠ
Ġ 11
jieĠfangĠ junĠ
Ġ maiĠ
xiaoĠ zhangĠ
dianĠ taiĠ
teĠ bieĠ
ĠhaoĠ xianĠ
min ĠdeĠ
haiĠ ziĠ
ĠtongĠ changĠ
you ĠliĠ
ta ĠshiĠ
lan ĠkeĠ
shuĠ ziĠ
xiang ĠyuĠ
qu ĠheĠ
gengĠ mingĠweiĠ
ĠĠĠ K
chuang ĠliĠ
quan ĠshiĠ
2024 ĠnianĠ
zongĠ duĠ
xu ĠshiĠ
fan ĠyiĠ
duo ĠzhongĠ
fuĠ qin
zhuĠ yanĠ
ge ĠyouĠ
she ĠyuĠ
jiaĠ geĠ
chuĠ shenĠ
Ġ 19
ĠĠĠ in
huoĠ dong
Ġ W
jiang ĠxiĠ
ĠĠĠ 2019
xin ĠshiĠ
bo ĠdeĠ
Ġ zaiĠyiĠ
Ġ dai
hu ĠshiĠ
ming ĠyuĠ
jiangĠ xiangĠ
banĠ gongĠshiĠ
dan ĠdeĠ
sun ĠshiĠ
shouĠ ruĠ
g Ġ
lin ĠdeĠ
Ġ e
Ġ suoĠyouĠ
ĠĠĠ wuĠ
ĠzhongĠ yaoĠ
juĠ xingĠdeĠ
Ġ pei
dui ĠyiĠ
jingĠ chaĠ
sa ĠkeĠ
Ġ laoĠ
jieĠ jinĠ
ĠweiĠ lianĠ
ĠjiĠ benĠ
jie ĠweiĠ
jie ĠyuĠ
ka ĠsiĠ
ĠĠĠ xiaĠ
guanĠ dianĠ
ĠdeĠyiĠ zuoĠ
1999 ĠnianĠ
ĠliĠ heĠ
jiang ĠdiĠ
shaoĠ shuĠ
kan ĠdaoĠ
wenĠ zhangĠ
ĠjiĠ zheĠ
lunĠ dunĠ
ĠĠĠ 2018
tou ĠxiangĠ
huiĠ shangĠ
luĠdiĠ mianĠjiĠweiĠ
ĠĠĠ geĠ
Ġ han
amp Ġ
shuiĠyuĠ mianĠjiĠweiĠ
Ġ zhuan
jieĠ quanĠguoĠ
ĠdaĠ quĠ
wenĠ ziĠ
zhan ĠjiĠ
xingĠ jianĠ
ĠdeĠdiĠ quĠ
sang Ġ
aoĠ menĠ
zai ĠzhiĠ
wen ĠyiĠ
Ġ cheĠzhanĠ
zhang ĠshiĠ
kang ĠyiĠ
ĠĠĠ L
leng Ġ
xiĠ beiĠ
haiĠ anĠ
ruĠ kouĠ
wai ĠguoĠ
Ġ xiongĠ
wen ĠdeĠ
chuĠ shengĠ
jiaoĠ liuĠ
ĠĠĠ keĠ
ming ĠdiĠ
24 Ġ
ĠjiĠ tuan
xingĠ xingĠ
xi ĠzhiĠ
zhenĠ duiĠ
xin ĠrenĠ
du ĠyuĠ
p Ġ
Ġ ampĠ
cuo ĠshiĠ
zhangĠ keĠdaĠ
tianĠ jinĠ
tiaoĠ zhengĠ
Ġxian ĠzaiĠ
fang ĠzaiĠ
poĠ huaiĠ
jun ĠdiĠ
tiĠ mingĠ
Ġfen ĠzhongĠ
xuanĠ ze
ĠdangĠzhongĠ luĠdiĠmianĠjiĠweiĠ
T Ġ
ĠerĠ shuiĠyuĠmianĠjiĠweiĠ
1998 ĠnianĠ
F Ġ
rong ĠyiĠ
chuĠ faĠ
ĠĠĠ 2022
ĠbeiĠ erĠ
zao ĠyuĠ
jingĠ dianĠ
chi ĠdeĠ
Ġ juĠliĠ
ba ĠxiĠ
Ġ haiĠyouĠ
Ġ jiĠshiĠ
guang ĠxiĠ
luo ĠdiĠ
gou ĠchengĠ
bianĠ jieĠ
ou ĠyuanĠ
xian ĠyouĠ
xianĠ changĠ
ĠxiangĠ gang
k Ġ
xi ĠyiĠ
shan ĠjiĠ
ĠfaĠ xianĠ
taiĠ yangĠ
fu ĠjiĠ
dao ĠjiĠ
ha ĠerĠ
ĠdeĠzhiĠ chiĠ
Ġyue ĠyouĠ
siĠ chuanĠ
yueĠ taiĠ
ĠĠĠxingĠzhengĠ quĠhuaĠ
ming ĠzhiĠ
Ġ ao
ĠyuĠ ciĠ
ĠzaiĠ zheĠ
duiĠ wuĠ
X Ġ
teng Ġ
cunĠ zhuangĠ
Ġ shou
Ġ jingĠguoĠ
Ġcong ĠerĠ
da ĠzhongĠ
touĠ ruĠ
wei ĠĠĠ
keng Ġ
ĠnianĠ beiĠ
you ĠweiĠ
cun ĠdeĠ
Ġ hou
Ġ saĠ
dengĠ luĠ
Ġ 9ĠyueĠ
da ĠzhiĠ
touĠ piaoĠ
ĠshiĠ liĠ
geĠ leiĠ
yuanĠ huiĠ
chang ĠyiĠ
Ġyue ĠweiĠ
ĠĠĠ 2017
ĠzhiĠ xiaĠ
gongĠ minĠ
yinĠ faĠ
biĠ yeĠyuĠ
Ġ pa
jian ĠzhongĠ
zhang ĠyuĠ
nuo ĠweiĠ
ĠĠĠ R
tuĠerĠ qiĠ
jia ĠyuĠ
fang ĠweiĠ
tu ĠdeĠ
tui ĠdongĠ
ĠshiĠ zhongĠguoĠ
gong ĠyuĠ
zhan ĠdiĠ
ge ĠyiĠ
hun ĠheĠ
ĠrenĠ menĠ
juĠ zhuĠ
baoĠ liuĠ
qianĠ shuĠ
jinĠ ru
wenĠ dingĠ
haiĠ daoĠ
leĠ siĠ
ganĠ ran
shu ĠheĠ
biĠ saiĠzhongĠ
ĠtiĠ zhangĠkeĠdaĠ
Ġ formulaĠ
er ĠrenĠ
ĠzaiĠ beiĠ
ziĠ ranĠ
xi ĠzhongĠ
ĠbuĠ fen
daĠ fuĠ
Ġ 7ĠyueĠ
wu ĠyuĠ
zi ĠliĠ
nanĠ beiĠ
jun ĠyiĠ
piĠ zhunĠ
ke ĠyuĠ
chu ĠjiĠ
qiĠ ziĠ
yongĠ huĠ
ĠweiĠfuĠ qiĠyuĠ
heng ĠliĠ
fangĠ wenĠ
zhuang ĠjiaĠ
tiĠ gaoĠ
Ġyou ĠjiĠ
ĠwoĠ menĠ
di ĠjiĠ
ma ĠkeĠ
ĠshiĠ quĠ
ĠnianĠ heĠ
chengĠ zuoĠ
Ġ bian
er ĠyuĠ
jian ĠheĠ
ang Ġ
ĠĠĠ 2016
ĠyiĠ daĠliĠ
ziĠ jinĠ
ĠyinĠ duĠ
xunĠ suĠ
Ġ biaoĠ
benĠ tuĠ
houĠ xuanĠrenĠ
xinĠ haoĠ
Ġ an
zhan ĠzhongĠ
mo ĠerĠ
xiao ĠliĠ
xianĠ luĠ
pinĠ paiĠ
Ġ tingĠ
jinĠ shuĠ
jieĠshuĠ houĠ
Ġ 12ĠyueĠ
ci ĠweiĠ
geĠ geĠ
Ġta ĠyiĠ
xin ĠyiĠ
guangĠ fanĠ
zhuĠ mingĠdeĠ
zhong ĠliĠ
shang ĠrenĠ
yong ĠyiĠ
xianĠ houĠ
zuiĠ chuĠ
yingĠ pianĠ
zhuĠ mingĠ
ceng ĠyuĠ
mouĠ xieĠ
Ġ xiuĠ
cheng ĠzhiĠ
Ġ 11ĠyueĠ
ĠdeĠyiĠ zhiĠ
jianĠ zaoĠ
wu ĠweiĠ
Ġ hai
jian ĠzaiĠ
jie ĠyouĠ
lingĠ waiĠ
ĠdeĠshiĠ quĠweiĠ
chuĠ zhanĠ
xiaĠ laiĠ
ĠĠĠdeĠ shiĠ
Ġ TheĠĠĠ
ĠzhiĠ nengĠ
Ġ hong
xueĠ huiĠ
buĠ tongĠdeĠ
Ġbing ĠyiĠ
Ġ tw
heĠ zuoĠ
jiangĠ suĠ
Ġ zhongĠdeĠ
sa ĠerĠ
ĠzhongĠguoĠ gongĠchanĠdangĠ
buĠ duiĠ
ĠjiaĠ shangĠ
dang ĠshiĠdeĠ
ĠĠĠ li
zhu ĠbuĠ
shan ĠdaĠ
shuiĠ pingĠ
Ġ 21Ġ
hans Ġ
ĠĠĠ erĠ
bo ĠerĠ
Ġ hansĠ
ke ĠheĠ
ĠdiĠ qu
mei ĠnianĠ
xuĠ qiuĠ
ĠjiĠ chengĠ
jianĠ shaoĠ
teĠ shuĠ
Ġtw Ġ
daĠ chengĠ
shan ĠdeĠ
ĠĠĠ O
jiaĠ zuĠ
Ġ 2011
ĠĠĠ D
ĠzheĠ xie
lv ĠweiĠ
ĠrenĠ leiĠ
paiĠ chuĠ
S Ġ
x Ġ
ĠĠĠ qingĠ
xiaoĠ shuo
aoĠ daĠliĠyaĠ
Ġri ĠyuĠ
nan ĠyiĠ
jieĠ rangĠ
gongĠ changĠ
siĠ keĠ
ĠdanĠ taĠ
ĠchengĠ yuanĠ
chang ĠheĠ
jieĠ keĠ
ziĠ xunĠ
ĠjiĠ guanĠ
jueĠ ding
ĠzaiĠ zhongĠguoĠ
sheĠhuiĠ zhuĠyiĠ
ĠĠĠ 2023
ĠyuĠ renĠ
zhu ĠyouĠ
zhuang ĠzhiĠ
faĠ chuĠ
ĠxiĠ baoĠ
jingĠ yanĠ
Ġ 2010ĠnianĠ
C Ġ
ĠĠĠ 2014
wa ĠerĠ
ĠjiĠ renĠ
yinĠ suĠ
suo ĠdeĠ
reng Ġ
ĠjieĠ muĠ
ti ĠshiĠ
1997 ĠnianĠ
yingĠ wenĠ
fen ĠzhongĠ
lu ĠzhiĠ
ĠhouĠ lai
Ġ eĠluoĠsiĠ
ĠxuĠ duoĠ
ĠĠĠ yuanĠ
tu ĠzhongĠ
kong ĠzhongĠ
sui ĠdaoĠ
chuĠ shengĠyuĠ
bei ĠzhiĠ
hua ĠheĠ
sha ĠsiĠ
yong ĠshiĠ
lingĠ tuĠ
Ġ menĠ
Ġ jingĠjiĠ
meiĠ geĠ
ĠĠĠ yuĠshiĠdeĠrenĠkouĠshuĠliangĠweiĠrenĠ
ĠĠĠ suoĠshuĠdeĠshengĠjiĠxuanĠquĠweiĠ
minĠ jianĠ
ĠĠĠdeĠ youĠzhengĠbianĠmaĠweiĠ
ĠĠĠyuĠ jieĠrangĠdeĠshiĠzhenĠ
ĠĠĠdeĠshiĠ quĠweiĠ
geng ĠjiaĠ
ĠguoĠ chengĠ
xiangĠ siĠ
Ġ 2019
ĠĠĠ 2015
zeng ĠzhangĠ
ĠfaĠ xingĠ
nan ĠdeĠ
ĠzaiĠ daĠ
keĠ chengĠ
jiang ĠdeĠ
kongĠ junĠ
huiĠ yingĠ
Ġ 2009ĠnianĠ
er ĠyiĠ
le ĠshiĠ
guĠ wenĠ
ĠheĠ xiĠ
ĠtaĠ yeĠ
ci ĠyiĠ
guangĠ gaoĠ
P Ġ
te ĠerĠ
ĠshiĠ meiĠguoĠ
1996 ĠnianĠ
c Ġ
Ġ hk
zhou ĠfuĠ
ĠshengĠ huo
Ġ wang
ti ĠyiĠ
ĠjiĠ youĠ
ĠdiĠ daĠ
jueĠ se
anĠ paiĠ
ĠĠĠ 2013
xianĠ xingĠ
ĠbingĠ jiangĠ
chao ĠshiĠ
guanĠ biĠ
hanĠ shuĠ
zong ĠbuĠ
tiĠ shengĠ
feiĠ jianĠzhiĠ
Ġ zhiĠshiĠ
woĠ menĠ
Ġ zhuangĠ
ĠĠĠ xinĠ
fang ĠbuĠ
da ĠyuĠ
xu ĠkeĠ
lang ĠdeĠ
minĠzhuĠ dangĠ
Ġ 6ĠyueĠ
zhuang ĠshiĠ
jiaĠ ru
Ġbing ĠyouĠ
zhengĠfu ĠdeĠ
quanĠ mianĠ
Ġhk Ġ
banĠ gongĠ
ĠdeĠguoĠ jiaĠ
Ġ feng
jun ĠjiĠ
xingĠ taiĠ
cheĠ zhan
ĠerĠ gaiĠ
ĠheĠ erĠ
bao ĠliĠ
diĠ guoĠ
jieĠ gou
dui ĠshiĠ
tian ĠdeĠ
shanĠ mai
ju ĠbuĠ
ling ĠdeĠ
fo Ġ
rui ĠdianĠ
dang ĠyuĠ
luo ĠkeĠ
wei ĠyiĠgeĠ
junĠ gongĠ
dang ĠzhongĠ
weiĠ zhiĠ
tuĠ shuĠguanĠ
neiĠ luĠ
Ġ laiĠziĠ
hua ĠzhongĠ
zhuan ĠjiaĠ
ĠjiĠ nianĠ
ĠyueĠ taiĠ
chengĠ xuĠ
Ġ V
huiĠ beiĠ
seĠ lieĠ
shi ĠĠĠ
shan ĠshiĠ
yunĠ xuĠ
bingĠ meiĠyouĠ
jiuĠ dianĠ
ge ĠzhiĠ
ĠkeĠ xueĠ
ĠqiĠ zhongĠyiĠ
ĠĠĠ xiangĠ
1992 ĠnianĠ
siĠ xiangĠ
feiĠjianĠzhiĠ diĠquĠ
Ġ 5ĠyueĠ
dai ĠyouĠ
zuĠ chengĠdeĠ
ba ĠweiĠ
faĠ lv
ĠxiĠ jieĠ
Ġ maoĠ
jingĠ zhengĠ
ĠyiĠ jiaĠ
dianĠ nao
guo ĠweiĠ
jinĠ paiĠ
sanĠ jiaoĠ
chang ĠyuĠ
tan ĠkeĠ
ĠliĠ buĠ
ĠyouĠ qiĠshiĠ
muĠ qinĠ
tong ĠyuĠ
bing ĠshiĠ
huanĠ yingĠ
Ġ 2018
Ġ xuanĠbuĠ
ma ĠerĠ
xiaĠ jiangĠ
moĠxiĠ geĠ
Ġ zhengĠfuĠ
geĠ lan
yanĠjiuĠ yuanĠ
Ġwan ĠrenĠ
Ġ qian
shuĠ xueĠ
jiu ĠdeĠ
neiĠ geĠ
ĠshiĠjieĠ beiĠ
on Ġ
ĠliĠ ya
hua ĠrenĠ
zhuan ĠyiĠ
gongĠ siĠdeĠ
ĠgongĠ zuoĠ
jun ĠyouĠ
jiu ĠzhiĠ
ĠheĠ diĠ
mingĠ mingĠweiĠ
ĠĠĠjiaĠ zuĠ
to ĠĠĠ
ĠjiĠ chuĠ
shengĠ zhangĠ
laiĠ daoĠ
ĠdiĠ xiaĠ
beiĠrenĠ weiĠshiĠ
Ġ lieĠ
deng ĠweiĠ
yingĠ yunĠ
Ġ chuĠyuĠ
xiu ĠgaiĠ
mingĠ lingĠ
shuo ĠmingĠ
huiĠ zhangĠ
que ĠfaĠ
yongĠ laiĠ
Ġ na
dui ĠqiĠ
hu ĠdeĠ
ziĠ muĠ
xunĠ huiĠ
Ġ chaĠ
shouĠ fuĠ
dai ĠliĠ
ĠdanĠ youĠyuĠ
wen ĠshiĠ
ĠbuĠ tongĠdeĠ
Ġ 20
ĠĠĠ zhĠ
maoĠ qiuĠ
Ġ minĠguoĠ
ĠzaiĠ meiĠguoĠ
ĠshiĠyiĠ ge
ĠdeĠdiĠ erĠ
ĠweiĠ weiĠ
Ġ rangĠ
zhu ĠjiĠ
gongĠ juĠ
ĠĠĠand ĠĠĠ
ta ĠyuĠ
ruan Ġ
Ġyin ĠyueĠ
Ġ 4ĠyueĠ
chengĠweiĠ leĠ
liao ĠjieĠ
ĠtaĠ beiĠ
yeĠ beiĠ
yin ĠdeĠ
chang ĠdiĠ
feiĠ lvĠ
que ĠrenĠ
faĠ anĠ
juĠ zhangĠ
ĠĠĠ jieĠzhiĠ
caiĠ quĠ
shenĠ tiĠ
beiĠ erĠ
changĠ pianĠ
ĠtaĠ haiĠ
ĠshangĠ haiĠ
ĠzhongĠguoĠ renĠminĠ
Ġ kangĠ
shou ĠzhongĠ
cheĠ xiaoĠ
canĠjiaĠ leĠ
1995 ĠnianĠ
Ġ 2016
boĠ fangĠ
chanĠ pin
Ġ kuanĠ
ĠerĠ fuĠ
jiaoĠ lianĠ
xie ĠrenĠ
che ĠdeĠ
zhuĠ zuoĠ
banĠ faĠ
fu ĠyouĠ
su ĠweiĠ
chuanĠ boĠ
Ġ 23
ĠyiĠ juĠ
ĠyiĠ nianĠ
ĠĠĠ H
zhe ĠliĠ
huaĠ yuanĠ
ma ĠsiĠ
1994 ĠnianĠ
ĠweiĠ renĠ
Ġ quanĠguoĠ
ĠĠĠ zhongĠguoĠ
sui ĠjiĠ
ĠliĠ ru
tieĠ lu
dian ĠqiĠ
liang ĠshiĠ
qiuĠ huiĠ
Ġ taoĠ
ĠweiĠyuanĠ hui
ma ĠdeĠ
ĠqiĠ laiĠ
faĠ dianĠ
wangĠ qiuĠ
ze ĠyouĠ
baiĠ seĠ
ĠshiĠyiĠ nianĠ
yueĠ hanĠ
ju ĠheĠ
tai ĠjiĠ
jieĠ hunĠ
shenĠ jingĠ
gu ĠdeĠ
chuĠ xiĠ
zhanĠ taiĠ
wanĠ shangĠ
Ġ queĠ
ĠdiĠ tieĠ
ling ĠbuĠ
ĠzhiĠ diĠ
ĠyouĠ xieĠ
ĠyiĠ zaiĠ
ziĠ zhuĠ
Ġ sheĠjiĠ
ye ĠheĠ
huaĠ shengĠ
ĠxingĠ dongĠ
chanĠ shengĠdeĠ
ĠrenĠminĠ zhengĠfuĠ
ĠweiĠ nengĠ
liang ĠrenĠ
ĠyouĠ xiaoĠ
zuĠ jianĠ
lingĠ xianĠ
zhaoĠ kaiĠ
2020ĠnianĠ meiĠguoĠrenĠkouĠpuĠchaĠdeĠshuĠjuĠ
xue ĠheĠ
maĠlai ĠxiĠyaĠ
Ġ daiĠbiaoĠ
leĠ taĠ
Ġ ka
Ġ caoĠ
chao ĠdeĠ
ĠerĠ buĠ
tongĠ cheĠ
yanĠchangĠ huiĠ
xu ĠliĠyaĠ
chang ĠzaiĠ
yaoĠ wuĠ
qin ĠshiĠ
huoĠ jianĠ
ti ĠzhongĠ
ruĠ xuanĠ
kuo ĠdaĠ
ĠzaiĠ xiĠ
ĠxiĠ laĠ
chuĠ xianĠzaiĠ
yinĠ du
lieĠ biaoĠ
ĠĠĠ 2025
15 Ġ
Ġ yingĠyuĠ
ĠĠĠ nian
ĠliĠ shuĠ
geĠ daĠ
geĠ erĠ
xueĠ xiao
ĠĠĠ 2024
xiangĠ xiĠ
ĠgongĠ chengĠ
xin ĠjiĠ
ĠfuĠ jinĠ
gua Ġ
ĠĠĠ qianĠ
ĠdaĠ buĠfenĠ
shanĠxiĠ shengĠ
xing ĠzhongĠ
dai ĠbuĠ
tai ĠshiĠ
siĠ teĠ
changĠ pian
kong ĠbuĠ
ĠshiĠdeĠ yiĠ
ĠzhiĠ duĠ
huĠ beiĠ
lv ĠxingĠ
tuo ĠliĠ
gongĠ huiĠ
shen ĠshiĠ
cheng ĠliĠdeĠ
daĠ buĠfenĠ
I Ġ
te ĠĠĠ
ĠweiĠ liĠ
aoĠ diĠliĠ
guiĠ zeĠ
Ġliang ĠrenĠ
daĠ luĠdeĠ
ĠC Ġ
lao ĠdongĠ
shangĠ hai
1991 ĠnianĠ
ĠyiĠ tongĠ
jing ĠyuĠ
zhuang ĠdeĠ
cu ĠjinĠ
zhouĠ bianĠ
tong ĠbuĠ
Ġ qiaoĠ
pei ĠyinĠ
xingĠ xiangĠ
ci ĠzaiĠ
fen ĠliĠ
Ġ lu
zhuangĠ kuangĠ
ĠliĠshiĠ shangĠ
long ĠdeĠ
suan ĠjiĠ
xingĠ quĠ
D Ġ
ĠmingĠ chaoĠzhengĠzhiĠrenĠwuĠ
3 ĠnianĠ
ĠĠĠ J
wuĠkeĠ lan
jin ĠbuĠ
bao ĠshiĠ
daiĠbiao ĠdaĠhuiĠ
R Ġ
wu ĠheĠ
ĠzhiĠ ziĠ
nan ĠshiĠ
zhuĠ changĠ
pei ĠheĠ
ĠzheĠ jiangĠ
ĠĠĠ a
ping ĠweiĠ
ze ĠweiĠ
teĠ seĠ
suiĠ houĠ
xiaĠjiĠ aoĠlinĠpiĠkeĠyunĠdongĠhuiĠ
22 Ġ
jiaoĠ xueĠ
wan ĠrenĠ
ĠjiĠ erĠ
xie ĠshiĠ
puĠ bianĠ
ĠĠĠ W
da ĠheĠ
zhe ĠzaiĠ
piaoĠ fangĠ
la ĠjiĠ
ĠshiĠ tuĠ
Ġ 3ĠyueĠ
Ġ yaoĠqiuĠ
wenĠ xianĠ
luo ĠjiĠ
feiĠ zhouĠ
ĠĠĠ xiaoĠ
lian ĠrenĠ
ĠxiĠ juĠ
sa ĠsiĠ
ĠweiĠ heĠ
anĠ quan
Ġ 2011ĠnianĠ
dao ĠzhongĠ
zhuan ĠxiangĠ
ĠfuĠ jianĠ
kaoĠ lvĠ
le ĠĠĠ
sheĠ jiĠdeĠ
wangĠ chaoĠ
Ġ nai
jie ĠrenĠ
mingĠ xianĠ
16 Ġ
ĠweiĠ wuĠ
Ġ panĠ
zhuĠ zhangĠ
gong ĠzhiĠ
ĠbuĠ keĠ
ĠxiĠ buĠ
zheng ĠheĠ
tongĠ daoĠ
m ĠĠĠ
Ġ sun
ĠweiĠ xingĠ
4 ĠnianĠ
Ġ mai
xu ĠzaiĠ
biaoĠ mianĠ
Ġ nvĠxingĠ
ĠĠĠ guoĠ
Ġ Ð
kou ĠweiĠ
meiĠ guoĠdeĠ
lingĠ daoĠrenĠ
Ġ jiaoĠyuĠ
ĠweiĠ laiĠ
biĠ sai
qiĠzhongĠyiĠ zhongĠ
Ġ 2021
zhao ĠdaoĠ
hu ĠyuĠ
siĠ lingĠ
1993 ĠnianĠ
jingĠ cha
fangĠ wuĠ
hongĠ seĠ
1988 ĠnianĠ
ĠliĠ miĠ
ĠyuĠ leĠ
yuanĠ gongĠ
zuiĠ hou
ĠshiĠweiĠ leĠ
ĠdeĠzhiĠ wuĠ
ĠĠĠ congĠ
hun ĠyinĠ
yunĠ dong
caiĠ liaoĠ
ĠchengĠ gongĠ
Ġ sĠĠĠ
ĠweiĠ huiĠ
ĠxiĠ ya
ĠjiĠ huiĠ
Ġ2001ĠnianĠ renĠkouĠ
dongĠ nanĠbuĠ
ĠnianĠ qianĠ
ĠyouĠ buĠ
dongĠ beiĠbuĠ
Ġ 2015
hua ĠjiĠ
fenĠ buĠyuĠ
i Ġ
jun ĠyuĠ
shou ĠzhiĠ
Ġ tuiĠ
fu ĠzaiĠ
bian ĠshiĠ
yingĠ gaiĠ
ĠxingĠ qiĠ
ĠĠĠ 2012
ti ĠzhiĠ
ĠrenĠ shuĠ
daĠ chenĠ
bao ĠzhiĠ
Ġ hanĠguoĠ
ĠĠĠ V
siĠ geĠ
feiĠ chuĠ
ĠtiĠ gongĠ
Ġ 2005ĠnianĠ
jin ĠyouĠ
25 Ġ
dianĠ huaĠ
ge ĠheĠ
ĠbuĠ menĠ
Ġ zhong
bao ĠyuĠ
ĠyiĠ ban
Ġ Ma
ruan ĠjianĠ
sao Ġ
Ġ guanĠyuĠ
yuanĠ xingĠ
wuĠ taiĠ
M Ġ
ling ĠdiĠ
chi ĠyouĠ
duiĠ zhangĠ
tui ĠjinĠ
zhuĠ jueĠ
gengĠ duoĠ
Ġyin ĠerĠ
Ġsui ĠdeĠ
faĠxianĠ leĠ
ĠnianĠ diĠ
Ġ quan
chuĠ laiĠ
tiĠ daoĠ
yongĠ zuoĠ
suo ĠzaiĠ
zhengĠ changĠ
jue ĠshiĠ
wuĠ zhuangĠ
1Ġ haoĠ
guoĠjiĠ jiĠ
mei ĠdeĠ
yaĠliĠ shanĠdaĠ
ben ĠdiĠ
bian ĠxingĠ
E Ġ
ĠdaĠ chengĠ
gui ĠdeĠ
ĠerĠshuiĠyuĠmianĠjiĠweiĠ 0
riĠ junĠ
Ġ zaoĠchengĠ
yin ĠdiĠ
jiao ĠyouĠ
bo ĠsiĠ
douĠ huiĠ
poĠ huai
tai ĠrenĠ
dongĠ fangĠ
tongĠ yangĠ
jiao ĠdaĠ
huoĠ zheĠ
ĠpingĠfangĠ miĠ
ĠzaiĠ jiaĠ
ĠdaĠ liangĠ
haiĠ waiĠ
tuan ĠdeĠ
re ĠĠĠ
mingĠ xingĠ
qingĠ baoĠ
anĠ huiĠ
nei ĠyouĠ
duiĠ waiĠ
caoĠ zuoĠ
jieĠ shaoĠ
qianĠ wang
Ġ reng
Ġsui ĠzheĠ
Ġ 2017
jieĠ mu
yeĠ huiĠ
xia ĠyouĠ
ĠheĠ pingĠ
ĠerĠ gaiĠdiĠ
canĠ mou
Ġ 2020
Ġ 2014
Ġ dou
ĠĠĠ zaoĠnianĠ
xiang ĠyiĠ
on ĠĠĠ
yongĠ tuĠ
Ġ 2013
qiang ĠdeĠ
ĠyuĠ heĠ
chuĠ kouĠ
ĠyiĠ duĠ
ĠzhiĠ dingĠ
gaiĠ shanĠ
aoĠyunĠ huiĠ
biao ĠdeĠ
la ĠheĠ
18 Ġ
ĠxiĠ tong
ĠdeĠshiĠ jieĠ
gao ĠjiaĠ
xiĠ nanĠ
ĠyueĠ nanĠ
duiĠ xiangĠ
2 ĠnianĠ
xianĠ jinĠ
yanĠ shenĠ
queĠzhenĠ bingĠliĠ
dun ĠdeĠ
ĠjiaĠ naĠdaĠ
ĠbaoĠ hanĠ
mei ĠliĠ
san ĠjiĠ
zuoĠ quĠ
ĠshiĠ daĠ
leĠ daĠ
xiaoĠ quĠ
junĠ quĠ
dengĠ shangĠ
Ġ xiu
Ġ shengĠyuĠ
zhengĠ tiĠ
jia ĠzaiĠ
chang ĠyouĠ
leĠ taĠdeĠ
xiaĠ xiaĠdeĠyiĠgeĠ
longĠ jiangĠ
geĠ lunĠ
Ġye ĠyouĠ
duo ĠrenĠ
jue ĠyiĠ
shuĠ ruĠ
haiĠ xiaĠ
Ġ dianĠyingĠ
guan ĠshiĠ
sui ĠzhuĠ
nie Ġ
Ġxian ĠrenĠ
yun ĠshiĠ
ĠqiĠ zaiĠ
yunĠ zuoĠ
Ġri ĠdeĠ
19 ĠshiĠjiĠ
ju ĠyiĠ
13 Ġ
ĠweiĠ keĠ
gouĠ zaoĠ
banĠshiĠ chuĠ
ĠerĠ yanĠ
Ġnan ĠzhiĠ
zhan ĠzhiĠ
liu ĠzaiĠ
ĠĠĠ Ma
ĠĠĠ zengĠ
zuo ĠrenĠ
dianĠ cheĠ
Ġ saiĠjiĠ
faĠ shouĠ
gaoĠsuĠ gongĠluĠ
ĠnianĠ laiĠ
kang ĠriĠ
shuĠ yuanĠ
jia ĠyouĠ
du ĠheĠ
fei ĠliĠ
junĠ guanĠ
miĠ miĠ
1990 ĠnianĠ
kaiĠ zhanĠ
ĠshiĠwuĠ keĠ
renĠ daĠ
ĠzhongĠ zaiĠ
Ġ 100
shang ĠyuĠ
bin ĠhaiĠ
ĠdongĠ linĠ
Ġ 2010
shenĠ me
ĠwanĠ meiĠyuanĠ
Ġ shaoĠ
xiaĠ ling
tian ĠshiĠ
chuang ĠjianĠ
jiangĠ huiĠ
liangĠ ciĠ
lingĠ xiuĠ
zhuang ĠbeiĠ
dongĠ zuoĠ
Ġ niu
chuan ĠzhiĠ
chai ĠchuĠ
senĠ linĠ
Ġ chengĠliĠ
shou ĠyiĠ
ĠqiĠ xiangĠ
shouĠ zhangĠ
ĠtaiĠ wan
caiĠ zhengĠ
an ĠdaĠ
ya ĠkeĠ
biĠ mianĠ
gu ĠliĠ
ĠqiĠ ziĠ
touĠ piao
shanĠ quĠ
Ġ zhengĠzhiĠ
huiĠ yuanĠ
ĠĠĠ siĠ
ĠjuĠ xingĠ
Ġ po
Ġ jianĠyuĠ
bei ĠshiĠweiĠ
tu ĠxingĠ
qin ĠziĠ
ĠerĠ tongĠ
juĠ qingĠ
kaĠ luoĠ
Ġ qi
ĠnianĠ1ĠyueĠ 1ĠriĠ
shouĠ luĠ
Ġ hengĠ
wuĠ siĠ
ĠtaiĠ yangĠ
zuiĠ gao
hou ĠshiĠ
zhe ĠbuĠ
waiĠ jiaoĠbuĠ
ĠyiĠ meiĠyuanĠ
deng ĠdeĠ
liu ĠdeĠ
ĠsiĠ lingĠ
ceĠ liangĠ
1989 ĠnianĠ
jingĠ xuanĠ
ĠmeiĠ geĠ
hui ĠzhongĠ
zhangĠ guanĠ
fanĠ zuiĠ
ĠjieĠ shouĠ
5 ĠnianĠ
b Ġ
ban ĠliĠ
Ġ huan
Ġ 2007ĠnianĠ
ĠĠĠ dangĠ
si ĠyiĠ
fu ĠweiĠ
suo ĠshiĠ
bingĠ ruĠ
ĠyouĠ keĠ
xiangĠ zhengĠ
ĠerĠ ziĠ
shou ĠxiĠ
geng ĠweiĠ
daiĠ laiĠ
ming ĠzhongĠ
baoĠ shouĠ
ĠdongĠ beiĠ
fanĠweiĠ neiĠ
pian ĠdeĠ
3 ĠgeĠ
mian ĠshiĠ
meng ĠdeĠ
guoĠ wangĠ
taiĠ fengĠ
ri ĠzhiĠ
ĠerĠ chengĠ
huĠ nanĠ
Ġ 2008ĠnianĠ
ĠqiĠ xiaĠ
chuĠ daoĠ
zun Ġ
ĠzaiĠ duĠ
Ġ sheĠhuiĠ
ĠyiĠ houĠ
ĠjieĠ keĠ
ĠshengĠhuo ĠxiĠ
yan ĠxiĠ
fangĠ mianĠdeĠ
ren ĠliĠ
can ĠyiĠyuanĠ
kaiĠ tongĠ
Ġ yongĠyouĠ
taiĠ ziĠ
junĠ zhuĠ
qingĠ chuĠ
dingĠ juĠ
gongĠ zhuĠ
shengĠ yinĠ
Ġ sheĠyouĠ
hua ĠheĠwuĠ
zhan ĠqiĠjianĠ
Ġ 2012
jin ĠweiĠ
1984 ĠnianĠ
zhou ĠqiĠ
zu ĠfuĠ
jianĠ jieĠ
ĠsiĠ wangĠ
liang ĠjiĠ
pi ĠfuĠ
fei ĠdeĠ
wai ĠbuĠ
xiangĠ huĠ
yingĠ yeĠ
guanĠ chaĠ
xingĠbuĠ mingĠ
dui ĠyouĠ
zhuĠyao ĠdeĠ
lei ĠdaĠ
du ĠliĠdeĠ
Ġ sha
Ġ lao
Ġ juĠyouĠ
zhuan ĠdeĠ
Ġ Ã
ĠĠĠ mingĠ
lv ĠdeĠ
xiĠ juĠ
Ġ canĠjiaĠ
bing ĠdeĠ
jiang ĠjiĠ
er ĠyueĠ
chang ĠzhiĠ
maĠ laĠ
gouĠ maiĠ
ĠshengĠhuoĠxiĠ xingĠbuĠmingĠ
ĠyiĠ daiĠ
tian ĠqiĠ
e ĠĠĠ
que ĠdeĠ
tongĠ paiĠ
xinĠ yangĠ
ni ĠerĠ
Ġnian ĠĠĠ
faĠ xingĠdeĠ
zuoĠ biaoĠweiĠ
jiangĠ lingĠ
touĠ luĠ
jiuĠ longĠ
anĠ zhuangĠ
ĠwuĠ faĠ
ĠĠĠ beiĠjingĠ
liangĠ xiangĠ
jiaĠliĠ fuĠ
xinĠ xingĠ
huoĠ shanĠ
zuĠ zhiĠdeĠ
keĠneng ĠshiĠ
jing ĠzhongĠ
cheng ĠheĠ
guanĠ jianĠ
taiĠ beiĠshiĠ
Ġ dong
Ġ xiao
Ġ gongĠyouĠ
lu ĠjiĠ
jiuĠ duĠ
ĠĠĠciĠ waiĠ
Ġ yongĠyuĠ
jieĠ sanĠ
ruĠ qinĠ
Ġ zhongĠshiĠ
kong ĠqiĠ
ĠzaiĠ ci
Ġyue ĠzhongĠ
liang ĠzhiĠ
bai ĠrenĠ
fangĠ yanĠ
lunĠ wenĠ
er ĠzhiĠ
zhuĠ yiĠdeĠ
ĠzhongĠguoĠ daĠluĠ
shang ĠbuĠ
zheĠ xie
chuanĠ shuoĠ
keĠyiĠ zaiĠ
1985 ĠnianĠ
kaoĠ guĠ
houĠ beiĠ
Ġ cha
ĠchuĠ xianĠ
Ġ yang
qu ĠjiĠ
fuĠ jinĠdeĠ
Ġ 2009
zhangĠ aiĠ
Ġ kai
ai ĠjiĠ
chu ĠbuĠ
Ġyin ĠqiĠ
o Ġ
tong ĠnianĠ
man ĠdeĠ
jingĠ fangĠ
ĠshiĠshiĠ jieĠ
xinĠjiaĠ poĠ
Ġ duanĠ
mo ĠsiĠkeĠ
ĠĠĠjuĠ qingĠ
Ġ canĠyuĠ
lian ĠzaiĠ
yuĠ yanĠ
ĠbiĠ ruĠ
2 ĠrenĠ
cheng ĠnianĠ
kao ĠjinĠ
3 ĠrenĠ
Ġ diĠshiĠ
qian ĠrenĠ
ĠweiĠ ciĠ
zhanĠ tingĠ
guiĠ zuĠ
1 ĠliĠ
ming ĠrenĠ
yunĠ nanĠ
zhongĠ dianĠ
zuoĠ zheĠ
guangĠdongĠ shengĠ
ĠshiĠ riĠbenĠ
muĠ qin
Ġ qiĠshiĠ
ĠsiĠ chuanĠ
ĠgongĠ tongĠ
Ġ 2008
quĠ leĠ
zhe ĠweiĠ
ĠguoĠ chengĠzhongĠ
baoĠ zhangĠ
taiĠ duĠ
ĠchuĠ shengĠyuĠ
ĠteĠbie ĠshiĠ
Ġ 1949
Ġ 2013ĠnianĠ
zhou ĠjiĠ
gao ĠdaĠ
ĠrenĠ mingĠ
zong ĠshiĠ
ĠshiĠjiĠ shangĠ
ĠĠĠ ben
yinĠ qingĠ
changĠ jianĠdeĠ
suoĠ shuĠ
shuangĠ fangĠ
qu ĠyiĠhuiĠ
yin ĠheĠ
jiang ĠzaiĠ
ĠyouĠ ciĠ
quanĠ zhangĠ
xunĠ yangĠ
faĠ huiĠ
ĠdiĠ wuĠ
yingĠ xiongĠ
Ġ 50
hua ĠyiĠ
xiuĠ zhengĠ
hua ĠzhiĠ
gan ĠbuĠ
ĠshiĠdeĠ guoĠ
fang ĠyiĠ
youĠ xianĠ
ĠqiĠ xiĠ
le ĠyuĠ
tiao ĠliĠ
Ġ Î
chu ĠzaiĠ
Ġ zengĠ
cuo ĠwuĠ
ĠjiaĠ tingĠ
chuĠ yanĠ
ĠĠĠdiĠ fangĠ
ĠguoĠ huiĠ
bianĠ juĠ
Ġ cai
sui ĠshiĠ
ĠyiĠ xiaoĠshiĠ
ĠxueĠ xiaoĠ
shengĠ taiĠ
ĠbingĠ duĠ
shouĠ xiangĠ
wanĠ gongĠ
nengĠ liangĠ
hu ĠbuĠ
ban ĠbuĠ
yuanĠ zeĠ
faĠ lanĠxiĠ
ĠwuĠkeĠ lanĠ
Ġ su
lao ĠdeĠ
ĠyueĠ tuanĠ
zhouĠ ciĠshiĠ
taoĠ taiĠ
ĠĠĠ qiĠtaĠ
shu ĠliĠ
xiangĠ guanĠdeĠ
Ġ dui
chu ĠzhiĠ
zui ĠyouĠ
feng ĠweiĠ
luĠ kouĠ
luĠ yingĠ
qingĠ huaĠ
ĠwanĠ yuanĠ
ĠĠĠ 2010
ĠnianĠ kaiĠshiĠ
ĠpingĠ junĠ
ĠĠĠ diĠerĠ
guĠ fen
keĠdeĠ qiĠzhongĠyiĠzhongĠ
ĠĠĠ meiĠguoĠ
hui ĠbuĠ
ĠweiĠ chiĠ
qingĠ qiuĠ
zhi ĠdeĠshiĠ
faĠ guanĠ
yaoĠ qiu
dangĠ diĠdeĠ
kaiĠ sheĠ
he ĠĠĠ
huan ĠchengĠ
30 Ġ
ĠzhongĠhuaĠrenĠminĠgongĠheĠguoĠ zhengĠzhiĠrenĠwuĠ
r ĠĠĠ
si ĠzhiĠ
ĠjiĠ nian
ĠheĠ xinĠ
huoĠ xingĠ
gaiĠ chengĠ
ĠshiĠ yong
ĠĠĠ danĠ
ling ĠrenĠ
heĠ xinĠ
Ġ 2022
han ĠyouĠ
hen ĠdaĠ
ĠheĠ zhongĠ
meiĠ shuĠ
dao ĠbuĠ
han ĠyuĠ
zhuang ĠjiĠ
cui ĠhuiĠ
luĠ keĠ
ĠshiĠ geĠ
chengĠ keĠ
Ġwan ĠjiaĠ
paiĠ mingĠdiĠ
xia ĠweiĠ
ĠĠĠ 2011
qiangĠ diaoĠ
Ġ 2006ĠnianĠ
en ĠshengĠ
dang ĠweiĠ
Ġ maiĠkeĠ
zheng ĠweiĠ
xiĠ laĠ
yaĠ junĠ
Ġ xiong
yuan ĠzhongĠ
bei ĠweiĠ
ĠyiĠ zuoĠ
zuiĠ gaoĠdeĠ
tianĠ jingĠ
niĠyaĠ zhouĠ
neng ĠzaiĠ
gongĠ yingĠ
Ġ henĠ
ji ĠĠĠ
xiaĠ quĠ
suoĠ chuĠdeĠ
canĠ kaoĠ
ya ĠyiĠ
chengĠ benĠ
dangĠ juĠ
tiĠyuĠ changĠ
6 ĠnianĠ
xie ĠerĠ
shangĠ haiĠshiĠ
sheng ĠyouĠ
suo ĠzhiĠ
14 Ġ
ĠjiĠ buĠ
tuĠ poĠ
ĠyeĠ jiuĠshiĠ
ĠA Ġ
ĠdaĠ duoĠ
teĠ dingĠ
dengĠ dengĠ
kun ĠnanĠ
renĠ yuanĠ
ĠdaĠ xingĠ
yinĠ ruĠ
aĠlaĠ boĠ
Ġ qing
tai ĠzhongĠ
bai ĠdeĠ
xieĠ daoĠ
n ĠĠĠ
xiang ĠyouĠ
fou Ġ
ĠyiĠ fuĠ
Ġ meng
Ġ wenĠhuaĠ
jing ĠzhiĠ
ĠjiĠ duĠ
keĠ xueĠyuanĠ
tan ĠdeĠ
shun ĠliĠ
huoĠ banĠ
fenĠbuĠ zaiĠ
7 ĠnianĠ
huan ĠdeĠ
xiu ĠfuĠ
xianĠ shengĠ
ĠdaĠ fuĠ
laĠ dingĠ
Ġsui ĠzhuĠ
xiĠ baoĠ
zhanĠ xianĠ
ĠĠĠ 1Ġ
cheng ĠguoĠ
le ĠqiĠ
jun ĠzhiĠ
qingĠ xingĠ
ĠxiĠbanĠ yaĠ
ĠĠĠ 3
xiang ĠweiĠ
lai ĠshiĠ
daĠ huiĠ
Ġxiang ĠnianĠ
ĠĠĠ aĠ
wangĠ yuanĠ
ĠxiĠ erĠ
ruĠ qin
ĠbuĠ jinĠ
ĠkeĠ erĠ
Ġ 2012ĠnianĠ
wuĠ ziĠ
duo ĠweiĠ
chuan ĠdeĠ
haiĠ yangĠ
jing ĠheĠ
xiaoĠ yuanĠ
kaiĠ fa
zhongĠguoĠ daĠluĠdeĠ
ke ĠyouĠ
haiĠ pingĠmianĠ
gai ĠshiĠ
suo ĠweiĠ
xiu ĠjianĠ
shengĠ chuĠ
ĠtaĠcengĠ daiĠbiaoĠ
ganĠran ĠzheĠ
ĠheĠ lanĠ
tongĠ mengĠ
qiangĠ lieĠ
heiĠ seĠ
w Ġ
ze ĠzaiĠ
ĠriĠ junĠ
1 ĠrenĠ
ĠĠĠ yinĠ
xue ĠyuĠ
lai ĠyueĠ
1980 ĠnianĠ
Ġzu ĠfuĠ
Ġ00 Ġ
hongĠ zha
ciĠshiĠjieĠdaĠ zhanĠ
jia ĠweiĠ
tai ĠyuĠ
zui ĠweiĠ
shouĠ gouĠ
zhaoĠ pianĠ
le ĠzaiĠ
yin ĠliĠ
chui Ġ
yaĠ meiĠ
Ġ U
zhou ĠzhiĠ
zhen ĠyuĠ
jing ĠyiĠ
guĠ daiĠ
geiĠ leĠ
li ĠyuĠ
zhu ĠzhiĠ
jiang ĠzhiĠ
zu ĠyiĠ
huang ĠhouĠ
1986 ĠnianĠ
renĠ leiĠ
dangĠ yuanĠ
ĠtongĠshiĠ gaiĠdiĠ
4 ĠrenĠ
ĠĠĠ 17
bei ĠyuĠ
zhang ĠweiĠ
te ĠxingĠ
daĠ jiangĠ
ĠdeĠjiĠ chuĠ
ĠguangĠ dongĠ
hou ĠweiĠ
ding ĠqiĠ
ce ĠĠĠ
manĠ zuĠ
Ġ liaoĠ
zuĠqiuĠ yunĠdongĠyuanĠ
boĠshiĠ xueĠweiĠ
4 ĠgeĠ
Ġ kuĠ
qiang ĠzhiĠ
beng Ġ
beiĠ jingĠshiĠ
shangĠ changĠ
nongĠ minĠ
neiĠluĠ shengĠfenĠ
xiang ĠheĠ
jiao ĠzhiĠ
liang ĠguoĠ
chengĠ baoĠ
jiuĠ huiĠ
benĠ shenĠ
cheng ĠshiĠdeĠ
zhen ĠjiĠ
keĠ fuĠ
ĠhuoĠ zheĠ
Ġa ĠerĠ
chu ĠyouĠ
bang ĠdeĠ
Ġ tieĠ
st ĠĠĠ
ĠzhongĠ ziĠ
xunĠ zhangĠ
chuangĠ banĠ
xiaĠling ĠshiĠjianĠ
Ġ pu
tong ĠweiĠ
jing ĠzaiĠ
duan ĠshiĠ
Ġ Z
mo ĠsiĠ
Ġ zhiĠyiĠ
le ĠyouĠ
bianĠ haoĠ
ĠmuĠ qian
ĠbuĠ diĠ
ke ĠzhiĠ
kuoĠ zhanĠ
Ġmei ĠnianĠ
ri ĠdeĠ
tang ĠdeĠ
ĠrenĠ qiĠ
xiangĠ xinĠ
luĠ xuĠ
min ĠdiĠ
shangĠ xiaĠ
jiu ĠyiĠ
zao ĠzaiĠ
diĠ qiuĠ
Ġ di
19 Ġ
wo ĠdeĠ
ĠbuĠ luoĠ
wuĠ daoĠ
ta ĠweiĠ
jun ĠheĠ
wan ĠdeĠ
juĠ daĠ
ĠĠĠjianĠ jieĠ
Ġ 10Ġ
mu ĠzhiĠ
ĠjiĠ fuĠ
renĠ gongĠ
ĠĠĠ 2
gao ĠzhiĠ
fan ĠzhiĠ
xuan ĠdeĠ
xiĠ wangĠ
geĠ ming
tianĠ tiĠ
weiĠyiĠ yiĠ
Ġ kanĠ
ĠĠĠ jieĠ
chi ĠrenĠ
muĠ niĠ
Ġ 500
1945 ĠnianĠ
wuĠ zhengĠzhuangĠ
ĠqiĠ cheĠ
zheĠ xueĠ
suoĠ youĠdeĠ
tanĠ panĠ
ĠshiĠyiĠge ĠweiĠyuĠ
hui ĠguoĠ
nanĠ fangĠ
liangĠ mingĠ
miĠ yaĠ
ĠxianĠ houĠ
zi ĠzhongĠ
Ġ 1950
qu ĠzhiĠ
xiĠ yaĠ
jiangĠ jinĠ
yueĠ nanĠ
ĠĠĠdiĠfangĠ ziĠliaoĠ
dian ĠheĠ
ya ĠheĠ
rong ĠheĠ
xiangĠ biĠ
shaĠ haiĠ
Ġ 2014ĠnianĠ
ĠĠĠ 2Ġ
fei ĠerĠ
feng ĠfuĠ
wenĠ duĠ
diĠyiĠ weiĠ
yan ĠyuĠ
bing ĠyiĠ
ling ĠyiĠgeĠ
Ġ waĠ
duiĠ ciĠ
Ġ ni
Ġ song
dai ĠshiĠ
ping ĠdeĠ
nuo ĠfuĠ
ĠguoĠ quĠ
fangĠ jianĠ
zi ĠzaiĠ
chuĠ shouĠ
yinĠ paiĠ
changĠ jianĠ
aoĠ zhouĠ
h Ġ
Ġ jiuĠshiĠ
ceng ĠweiĠ
gaoĠ xiong
paiĠ hangĠ
ĠyiĠsiĠ lanĠ
ye ĠjiĠ
ĠyiĠ wuĠ
shenĠ duĠ
liang ĠnianĠ
Ġnian ĠweiĠ
qinĠ wangĠ
san ĠjiaĠ
nv ĠzhuĠ
Ġ0 Ġ
ĠĠĠ yingĠ
zhou ĠheĠ
xiu ĠdeĠ
1987 ĠnianĠ
naĠ cui
guanĠliĠ juĠ
ding ĠshiĠ
daĠ xiĠyangĠ
Ġ xu
hao ĠshiĠ
haiĠ baĠweiĠ
Ġ ruoĠ
ti ĠweiĠ
ĠjiĠ houĠ
ĠkeĠ xiĠ
shanĠ fengĠ
zhengĠ ce
tongĠ mingĠ
ĠjiaĠ zuĠ
dongĠshiĠ zhangĠ
ye ĠyiĠ
pei ĠzhiĠ
zou ĠxiangĠ
ĠyouĠ zhongĠ
xiaoĠ fangĠ
zai ĠliĠ
zhu ĠweiĠ
liang ĠdaĠ
ĠxiĠ lie
suoĠ caiĠyong
Ġbing ĠweiĠ
L Ġ
jie ĠzhongĠ
ĠbuĠ duanĠ
ĠshiĠyiĠ buĠ
han ĠdeĠ
huan ĠzheĠ
ĠbuĠ erĠ
ĠdaĠ duoĠshuĠ
gaiĠ zaoĠ
nengĠ yuanĠ
le ĠzhongĠ
Ġ genĠ
hu ĠweiĠ
jun ĠrenĠ
1983 ĠnianĠ
zhanĠ lve
kaoĠ lv
Ġ xiaoĠshiĠ
shou ĠrenĠ
1982 ĠnianĠ
zhiĠshiĠ qiĠ
Ġ ku
wen ĠzhongĠ
mang Ġ
zhanĠ lanĠ
gongĠ chengĠshiĠ
jieĠ tiĠ
ĠĠĠ In
jun ĠzhongĠ
ganĠ ranĠ
ba ĠheĠ
man ĠdiĠ
ĠshiĠ yeĠ
erĠ tongĠ
guĠ dingĠ
mengĠ gu
Ġ 40
ĠĠĠ jingĠ
ĠzaiĠ youĠ
geĠ juĠ
tai ĠheĠ
Ġ cn
leĠ zheĠ
huan ĠxingĠ
ĠguoĠ neiĠ
ĠweiĠyuĠ gaiĠ
lun ĠshiĠ
zhengĠ xie
shangĠ shengĠ
boĠ linĠ
ge ĠyuĠ
jie ĠliĠ
hui ĠyiĠyuanĠ
jueĠ duiĠ
gong ĠliĠdeĠ
kou ĠdeĠ
ĠerĠ feiĠ
muĠ qian
diaoĠ kuai
aiĠerĠ lanĠ
dao ĠweiĠ
xiaoĠ feiĠ
xiaĠ lingĠ
ĠfuĠ qinĠ
ĠdeĠyiĠ shuĠ
mianĠ duiĠ
ĠdongĠ nanĠ
ĠweiĠ UTCĠ
shengĠ diĠ
zhuĠyiĠ zheĠ
lianĠheĠ huiĠ
yanĠ haiĠ
kaiĠshiĠ shiĠ
xiongĠ yaĠliĠ
Ġcn Ġ
Ġ luo
ĠĠĠ zhengĠ
ĠĠĠ maĠ
ĠĠĠ jiaoĠtongĠ
zhu ĠheĠ
wen ĠheĠ
ĠerĠ qiĠ
zhou ĠyiĠ
san ĠweiĠ
san ĠdaĠ
ziĠ shenĠ
diaoĠkuai ĠyiĠxiaoĠshiĠ
cheng ĠyouĠ
chong ĠjiĠ
guoĠ huiĠ
liuĠ xiaĠ
Ġ chi
lao ĠshiĠ
ĠjiĠ UTCĠ
paiĠ qianĠ
ĠmeiĠ yuanĠ
sheĠyouĠ xiaĠlingĠshiĠjianĠ
Ġling ĠyouĠ
ĠdeĠshiĠquĠweiĠ UTCĠ
ĠerĠgaiĠdiĠ suoĠcaiĠyong
ĠtongĠshiĠgaiĠdiĠ sheĠyouĠxiaĠlingĠshiĠjianĠ
ĠerĠgaiĠdiĠsuoĠcaiĠyong ĠdeĠshiĠquĠweiĠUTCĠ
shu ĠrenĠ
zhang ĠyueĠ
jingĠ gaoĠ
nanĠ haiĠ
N Ġ
chuangĠ zaoĠ
jianĠliĠ leĠ
Ġwan ĠliĠ
miĠshuĠ zhangĠ
xiangĠ tongĠdeĠ
bingĠ feiĠ
ĠgeĠ quĠ
guan ĠheĠ
cai ĠdeĠ
biĠyeĠ houĠ
gaoĠyuĠ haiĠpingĠmianĠ
dang ĠjiĠ
qun ĠzhongĠ
G Ġ
ru ĠdeĠ
ĠqiĠ fuĠ
ĠshiĠ beiĠ
quĠdeĠ mianĠjiĠweiĠ
haiĠbaĠweiĠ gaoĠyuĠhaiĠpingĠmianĠ
zhang ĠheĠ
jinĠ xingĠdeĠ
gaiĠ mingĠweiĠ
Ġ ge
Ġ ziĠyouĠ
fa ĠzhiĠ
xuan ĠzhongĠ
jingĠ duĠ
changĠ suoĠ
lieĠ ruĠ
tan ĠxianĠ
ĠzhongĠ shanĠ
daĠ buĠfen
guanĠ cha
ĠqiĠzhongĠ baoĠkuoĠ
Ġ rongĠ
Ġ shuoĠ
zhan ĠyuĠ
buĠshiĠ quĠ
1 ĠnianĠ
fang ĠjiĠ
daĠ louĠ
8 ĠnianĠ
da ĠyiĠ
Ġyue ĠyiĠ
Ġ shuang
Ġ shanĠxiĠ
ĠĠĠ 4
shang ĠdiĠ
chao ĠyueĠ
huaĠ jiaĠ
biaoĠ benĠ
ĠhuoĠ dongĠ
Ġ sa
Ġ 2025
Ġ 2015ĠnianĠ
pingĠ guĠ
ĠĠĠ yanĠ
tiao ĠjieĠ
zhangĠ fuĠ
cunĠ luoĠ
shouĠ xianĠ
tuĠ jingĠ
yi ĠshiĠdeĠ
te ĠjiĠ
suo ĠzaiĠdiĠ
bian ĠyiĠ
dou ĠzaiĠ
kaiĠshiĠ zaiĠ
ĠluoĠ maĠ
ĠdaĠ luĠ
cheĠ xiangĠ
K Ġ
li ĠdeĠ
ben ĠrenĠ
banĠ ben
2 ĠgeĠ
gong ĠweiĠ
gongĠ neng
suoĠchuĠdeĠ haiĠbaĠweiĠgaoĠyuĠhaiĠpingĠmianĠ
ĠĠĠ Re
changĠ jingĠ
danĠ baiĠ
feiĠ erĠdeĠ
ĠbuĠ xiangĠ
qianĠ dingĠ
sheĠ xianĠ
deng ĠzhiĠ
duan ĠshiĠjianĠ
ĠzaiĠ taĠ
tuiĠ xiuĠ
xiao ĠyuĠ
lai ĠsiĠ
yang ĠjiĠ
se ĠfuĠ
jianĠ kangĠ
ĠerĠ buĠshiĠ
luoĠ faĠ
Ġer ĠdeĠ
ĠĠĠ anĠ
san ĠrenĠ
huiĠ guiĠ
tiĠ xingĠ
2Ġ haoĠ
yinĠ xiangĠ
shenĠ huaĠ
ĠdeĠjiĠ luĠ
ou ĠxiangĠ
ĠĠĠ I
yan ĠrenĠ
yongĠ leĠ
yan ĠheĠ
caiĠ nengĠ
Ġ kouĠ
juĠ leĠ
quĠ zhuĠ
naĠ xieĠ
Ġsui ĠshiĠ
yin ĠyuĠ
zuĠqiuĠ duiĠ
mian ĠyiĠ
shuai ĠlingĠ
ĠqiĠ xuanĠ
diĠ xiaĠ
zuĠ cheng
boĠ lan
ĠyiĠ shengĠ
ĠluĠ wa
keĠnengĠ huiĠ
ĠheĠ daoĠ
canĠ xuanĠ
ĠĠĠ diĠyiĠ
chu ĠzhongĠ
kong ĠxiĠ
Ġnian ĠshiĠjieĠ
quan ĠyiĠ
lianĠ luoĠ
huĠ xiangĠ
Ġ 2023
qingĠ jieĠ
dan ĠshiĠ
zhou ĠliĠ
ĠzhongĠ gongĠzhongĠyangĠ
changĠ shangĠ
Ġ 2016ĠnianĠ
tu ĠjiĠ
zaiĠyiĠ qiĠ
9 ĠnianĠ
yanĠ zhongĠdeĠ
ĠyuĠ beiĠ
ĠmaĠ lai
Ġ chaoĠxianĠ
guan ĠyiĠ
mu ĠerĠ
kai ĠdeĠ
ĠshouĠ ciĠ
Ġ 2007
ĠĠĠ meiĠ
shu ĠbuĠ
fa ĠyiĠ
ding ĠliĠ
duiĠ yingĠ
zhenĠ quĠdeĠmianĠjiĠweiĠ
tiĠgongĠ leĠ
H Ġ
Ġ hei
ĠĠĠ 2008
ĠzhiĠ shuĠ
ziĠ chanĠ
faĠ shengĠzaiĠ
ĠshouĠ daoĠ
zhong ĠyiĠyuanĠ
zhu ĠzhongĠ
dai ĠweiĠ
nei ĠdiĠ
ĠĠĠ xingĠ
que ĠshiĠ
1978 ĠnianĠ
ĠyuĠ xiĠ
heĠ liuĠ
fuĠ xingĠ
xianĠ zhuĠ
beiĠ siĠ
yanĠ seĠ
zuĠqiuĠ juĠleĠbuĠ
qian ĠxiĠ
kao ĠshiĠ
diĠ quĠdeĠ
geĠ guoĠ
zhengĠ bianĠ
baoĠ luoĠ
zuiĠ duoĠ
suĠ geĠlanĠ
ti ĠheĠ
shang ĠjiĠ
yan ĠjiĠ
she ĠzaiĠ
ziĠ xun
mianĠ feiĠ
muĠsiĠ linĠ
daiĠ lingĠ
zhuanĠ menĠ
kaĠ laĠ
ru ĠweiĠ
ĠshiĠ jiaĠ
ĠyuanĠ mingĠ
shen ĠyiĠ
wuĠ guanĠ
guanĠ ceĠ
sheĠ jiĠshiĠ
Ġ 2ĠyueĠ
san ĠbuĠ
zhongĠ yao
beiĠ fangĠ
baoĠ cunĠ
zhongĠguoĠ daĠluĠ
qian ĠyueĠ
ĠbuĠ laĠ
feiĠ yanĠ
zaoĠ shangĠ
Ġ dunĠ
mianĠ dianĠ
Ġ lv
Ġ kan
yang ĠxingĠ
ceng ĠdeĠ
Ġ lunĠ
ĠĠĠ ran
xue ĠzhongĠ
Ġ 24
chu ĠweiĠ
bing ĠyuĠ
qing ĠrenĠ
ping ĠguoĠ
tui ĠjianĠ
liao ĠdeĠ
quanĠ xianĠ
Ġ s
guoĠ neiĠ
chuanĠ tongĠdeĠ
ĠbeiĠ chengĠweiĠ
juĠ fengĠ
gengĠ xinĠ
Ġ shao
Ġ lianĠheĠ
Ġ jueĠdingĠ
ĠĠĠ gongĠ
duo ĠnianĠ
lang ĠzhongĠ
diĠ wuĠ
tianĠ houĠ
ĠxiangĠ guanĠ
shu ĠzaiĠ
gao ĠshiĠ
pian ĠzhongĠ
tongĠ xunĠ
wanĠ zhengĠ
hua ĠzaiĠ
bianĠ jingĠ
shanĠ xianĠ
feng ĠdeĠ
miao ĠhuiĠ
yuanĠ xianĠ
shouĠ quanĠ
xieĠ zuoĠ
zan ĠzhuĠ
cheng ĠzaiĠ
le ĠdeĠ
ĠliĠ chengĠ
guiĠ mo
ju ĠzaiĠ
mu ĠyuĠ
ba ĠdaĠ
ba ĠsiĠ
jue ĠyuĠ
geĠ laĠ
faĠ mingĠ
luoĠ shanĠjiĠ
Ġ 2019ĠnianĠ
ĠĠĠ renĠ
tuĠ shuĠ
li ĠziĠ
Ã© Ġ
xingĠ muĠ
ĠdiĠ qiuĠ
Ġ peng
ĠzhiĠ waiĠ
zhangĠ zhuanĠjiĠ
ĠzuiĠ gaoĠ
ĠbiĠ saiĠ
7 ĠrenĠ
al ĠĠĠ
xianĠ ruĠ
jinĠ riĠ
shuang ĠdaĠ
tun Ġ
quĠ jianĠ
xing ĠzaiĠ
xian ĠzhongĠ
fuĠ zhuĠ
cheĠ changĠ
beiĠrenĠ mingĠweiĠ
yin Ġyue
zhou ĠrenĠ
ĠshiĠ taĠ
Ġ 28
dui ĠzhongĠ
ĠshiĠ erĠ
ĠshanĠ dongĠ
guoĠminĠ dangĠ
Ġ dianĠshiĠ
liang ĠheĠ
ĠyouĠ zaiĠ
pingĠ lun
jiuĠ yuanĠ
Ġ 7Ġ
ĠdeĠshiĠ yongĠ
Ġ sang
jiang ĠyiĠ
gai ĠzhiĠweiĠ
bian ĠzhiĠ
ĠshiĠ chengĠ
ĠliĠ liangĠ
chuĠ zhangĠ
lin ĠsiĠ
st Ġ
juĠ benĠ
jiaoĠ duĠ
tianĠ zhuĠ
Ġ zuĠzhiĠ
Ġ 2017ĠnianĠ
luo ĠliĠdaĠ
ĠdiĠ diĠ
xiaoĠ yingĠ
1958 ĠnianĠ
piĠ zhun
Ġ zaĠzhiĠ
ĠĠĠ dongĠ
su ĠliĠ
shangĠ xianĠ
zaoĠ chengĠdeĠ
ĠshiĠjianĠ zhuĠ
Ġ tang
Ġ hangĠ
ĠĠĠ 1
ban ĠjiĠ
shouĠ boĠ
zhangĠ ziĠ
huĠ lianĠ
Ġ 2018ĠnianĠ
Ġ nuoĠ
ao ĠerĠ
ĠĠĠ nanĠ
tion Ġ
zhanĠ muĠsiĠ
ai ĠliĠ
ĠĠĠ baĠ
1979 ĠnianĠ
fuĠ shuĠ
ĠĠĠ duiĠ
yun ĠdeĠ
tou ĠxianĠ
1972 ĠnianĠ
luĠ zhanĠ
ĠhouĠ zheĠ
Ġhuo ĠshiĠ
ĠĠĠ geĠrenĠ
ding ĠjiĠ
ĠweiĠ beiĠ
yunĠ yongĠ
ĠpuĠ taoĠ
ba ĠerĠ
ma ĠshiĠ
huai ĠyiĠ
xia ĠzaiĠ
xu ĠjiĠ
ĠyiĠ dongĠ
ĠweiĠyuĠ zhongĠguoĠ
guan ĠjiĠ
baoĠ hu
ĠyingĠ wenĠ
can ĠyiĠ
huoĠ cheĠ
qiangĠ duĠ
Ġci ĠnianĠ
chai Ġ
ĠdiĠ yaĠ
miĠ niĠ
Ġai ĠerĠ
shao ĠdeĠ
ĠzhiĠ buĠ
xinĠ guanĠ
huoĠ biĠ
ĠxuĠ yaoĠ
Ġ chunĠ
zha ĠdanĠ
cu Ġ
jiaoĠ chaĠ
leiĠ siĠdeĠ
chuanĠ meiĠ
juĠ banĠdeĠ
minĠ zu
ĠgaiĠ bianĠ
Ġ yanĠjiuĠ
dao ĠzaiĠ
luo ĠshiĠ
xueĠ keĠ
5 ĠrenĠ
17 Ġ
diĠ qiĠ
bingĠ duĠ
ĠxinĠ wenĠ
xingĠzhengĠ quĠ
ĠĠĠ 2009
naĠ xiaĠ
Ġming ĠzhiĠ
ĠĠĠzengĠ zuĠ
lie ĠshiĠ
ĠzhongĠ xingĠ
xiĠ nanĠbuĠ
taiĠ houĠ
zuiĠ zao
wu ĠyueĠ
zheng ĠjiĠ
ĠshiĠyiĠ keĠ
xinĠjiaĠ po
yao ĠshiĠ
pin ĠdeĠ
gan ĠyuĠ
xiangĠ faĠ
tiĠ chuĠdeĠ
canĠ tingĠ
Ġ 35
fa ĠliĠ
luo ĠyuĠ
ĠdaĠ buĠfen
ĠrenĠ weiĠshiĠ
juĠ ban
taiĠ kongĠ
Ġ 2006
xi ĠyouĠ
chu ĠguoĠ
xue ĠliĠ
zhe ĠheĠ
bai ĠyuĠ
jueĠ sai
ĠshiĠshiĠ yongĠ
zong ĠyiĠ
zong ĠrenĠkouĠ
teĠ quĠ
qingĠ zhuĠ
ĠbingĠ beiĠ
zhuanĠ xieĠ
faĠ xianĠdeĠ
jinĠ rong
ĠxiĠ yinĠ
ĠĠĠ houĠ
jiang ĠliĠ
ĠzhongĠ dianĠ
zhuĠ daoĠ
xue ĠjiĠ
tongĠ xinĠ
meiĠ junĠ
Ġ 2004ĠnianĠ
shangĠ wangĠ
suiĠ ran
aĠ genĠ
Ġma ĠliĠ
Ġ mao
ba ĠdeĠ
chengĠ leĠ
jiaoĠ huanĠ
wuĠzhengĠzhuangĠ ganĠranĠzheĠ
Ġ 2021ĠnianĠ
xing ĠshiĠdeĠ
su ĠzhiĠ
tou ĠdeĠ
mi ĠsiĠ
sheĠ jiaoĠ
ĠyiĠ gongĠ
ĠchuĠ banĠ
ĠĠĠ liuĠ
sui ĠzheĠ
Ġ shun
Ġ weiĠyiĠ
ll Ġ
ĠyiĠ qianĠ
ĠdiĠ zaiĠ
xinĠ jianĠ
zuĠ jieĠ
ĠdeĠyiĠ yuanĠ
Ġ shui
ju ĠzhiĠ
dian ĠweiĠ
shen ĠyuĠ
ĠshiĠrenĠ minĠ
xianĠzhiĠ xianĠ
ĠĠĠ 18
ĠĠĠ tianĠ
xian ĠliĠ
dui ĠjiĠ
daĠ xiaoĠ
geĠ ziĠ
che ĠdiĠ
fangĠ mian
duanĠ pianĠ
chuan ĠqiĠ
qiĠ zhongĠ
faĠ sheng
guĠ laĠ
huangĠ seĠ
min ĠyiĠ
te ĠheĠ
biĠ xu
ĠĠĠshiĠ yongĠ
yong ĠzaiĠ
ĠdeĠ huaĠ
zhengĠ quĠ
huoĠ shengĠ
teĠ dianĠ
Ġta ĠheĠ
6 ĠrenĠ
Ġ 60
Ġ 2020ĠnianĠ
du ĠguoĠ
zhang ĠzhiĠ
zan ĠshiĠ
shou ĠbuĠ
1960 ĠnianĠ
qiĠ laiĠ
xiĠ beiĠbuĠ
8 ĠrenĠ
zui ĠdiĠ
siĠ daĠ
luoĠ chengĠ
zuiĠ zaoĠ
yunĠ dongĠdeĠ
bangĠ qiuĠ
buĠdeĠ cunĠzhuangĠ
Ġ zhuanĠjiĠ
gaoĠ duĠweiĠ
Ġ nengĠ
lin ĠjinĠ
ĠshiĠ houĠ
ĠyouĠ zhuĠ
1 ĠgeĠ
lai ĠyuĠ
leĠ yuanĠ
gangĠ kouĠ
gongĠyuanĠ qianĠ
ci ĠdiĠ
1976 ĠnianĠ
wuĠ diĠ
xinĠ jiangĠ
an ĠzhiĠ
chengĠ jiuĠ
xunĠ lian
gongĠzuo ĠshiĠ
ĠshuangĠ fangĠ
Ġ ceĠ
ĠgongĠ yeĠ
se ĠĠĠ
lingĠ chenĠ
dan ĠdaĠ
yong ĠjiĠ
1980 ĠnianĠdaiĠ
ĠyiĠ bianĠ
qiĠ cheĠ
faĠ tingĠ
ĠcaiĠ yongĠ
zhongĠ huaĠminĠguoĠ
xianĠ chengĠ
shanĠ maiĠ
ĠdeĠyiĠ xieĠ
chuĠbanĠ sheĠ
jingĠneiĠ gongĠyouĠ
Ġ guang
dang ĠnianĠ
san ĠzhongĠ
ĠgeĠ shouĠ
Ġ ì
hui ĠweiĠ
han ĠziĠ
1920 ĠnianĠ
jiangĠ shuĠ
sanĠ mingĠ
Ġ 26
dao ĠyouĠ
xinĠ jieĠ
ĠxiangĠ muĠ
hou ĠjiĠ
xiao ĠliĠyuĠ
23 Ġ
ĠjiaĠ laĠ
qiĠ houĠ
daĠ diĠ
xianĠ shangĠ
cheng ĠzhiĠweiĠ
shengĠ daoĠ
lieĠ chuĠ
Ġzhao ĠheĠ
xiu ĠdaoĠ
th Ġ
ĠdaĠ jiaĠ
ĠĠĠ daoĠ
ĠheĠ liuĠ
zanĠ tingĠ
Ġ tao
bi ĠliĠshiĠ
bai ĠkeĠ
changĠ biĠsaiĠ
hai ĠzaiĠ
ruan ĠtiĠ
jianĠ duĠ
yeĠ fuĠ
laiĠ yinĠ
Ġta ĠyouĠ
ĠliangĠ geĠ
ĠerĠgaiĠ diĠdeĠ
tong ĠheĠ
ĠdaĠ jiangĠ
ĠdanĠ yinĠ
Ġtong ĠyiĠ
jin ĠyuĠ
henĠ kuaiĠ
er ĠĠĠ
huo ĠzaiĠ
dui ĠheĠ
tiĠ daiĠ
qianĠ tingĠ
ĠĠĠgaiĠ yaoĠ
Ġ 25
ĠbuĠ daoĠ
xiangĠ yingĠ
ĠqiĠ bingĠ
ĠweiĠfuĠqiĠyuĠ gang
fa ĠjiĠ
ya ĠrenĠ
1990 ĠnianĠdaiĠ
ĠliĠ fuĠ
jingĠ guanĠ
qianĠ jinĠ
ĠtaĠmen ĠzaiĠ
k ĠĠĠ
ao ĠdeĠ
dui ĠdiĠ
tan ĠheĠ
chengĠ quĠ
wangĠ wangĠ
ĠzuiĠ chuĠ
que ĠbaoĠ
maĠ touĠ
Ġ 29
Ġ nongĠ
an ĠliĠ
xing ĠyouĠ
ta ĠyiĠ
pin ĠzhongĠ
qun ĠtiĠ
ĠqiĠ heĠ
bianĠ yuanĠ
buĠ menĠ
yun ĠheĠ
na ĠheĠ
fuĠ haoĠ
faĠ dongĠjiĠ
pingĠ yuanĠ
ĠdeĠshiĠ jiĠ
Ġ jinĠshiĠ
chang ĠjiĠ
kuo ĠjianĠ
ĠyueĠ duiĠ
ĠtaĠ renĠweiĠ
dian ĠshiĠjieĠ
siĠ lanĠ
ĠĠĠjiaĠ tingĠ
wuĠ shuĠ
ĠxiĠ tongĠdeĠ
juĠ yuanĠ
e ĠguoĠ
Ġ 2002ĠnianĠ
yeĠ keĠyiĠ
guiĠ fanĠ
ĠĠĠ shouĠ
fuĠ za
shuĠ chuĠ
quĠ fenĠ
sheĠ dingĠ
leĠyiĠ xieĠ
jiu ĠzaiĠ
Ġxian ĠweiĠ
daĠshiĠ guanĠ
riĠben ĠdeĠ
Ġ cunĠ
dan ĠyiĠ
Ġli ĠliĠ
ĠnianĠ qingĠ
jiaoĠ tang
senĠ lin
ma ĠkeĠsiĠ
qiu ĠshiĠ
jieĠ duan
tuiĠ guangĠ
ĠzhongĠguoĠrenĠminĠ jieĠfangĠjunĠ
xuan ĠshiĠ
fuĠ muĠ
wuĠ zhuang
saiĠ erĠweiĠ
gengĠ duoĠdeĠ
canĠ shuĠ
tieĠluĠ cheĠzhanĠ
ĠĠĠ wangĠ
wang ĠweiĠ
la ĠweiĠ
pei ĠbeiĠ
changĠ duĠ
fenĠ peiĠ
yaĠ muĠ
ĠyiĠ meiĠ
ĠyouĠ liangĠ
ĠzhongĠ jianĠ
beiĠ jing
ĠĠĠ deĠĠĠ
duo ĠerĠ
zhongĠ buĠ
beiĠ daĠ
ĠqiĠ zhong
qianĠ shenĠ
suiĠ ranĠ
chuangĠ zuoĠdeĠ
Ġ 1970
ĠĠĠ Co
ĠbuĠ siĠ
shangĠ zhenĠ
baoĠ han
v Ġ
yeĠ jianĠ
yeĠ shengĠyaĠ
duiĠ fangĠ
mai ĠdeĠ
zeĠ dongĠ
zhang ĠjiĠ
chengĠ weiĠyiĠ
yanĠ jingĠ
banĠ jiangĠ
buĠdeĠ buĠ
Ġ sunĠ
ceng ĠshiĠ
dou ĠbeiĠ
ĠzaiĠ neiĠdeĠ
dengĠ changĠ
Ġ30 Ġ
shan ĠdiĠ
chuĠ ziĠ
tuĠ xiangĠ
ĠgongĠ qingĠ
wen ĠjiĠ
tou ĠbuĠ
ĠB Ġ
an ĠjiĠ
jun ĠbuĠ
keĠ yunĠ
teĠ laĠ
suĠ lian
9 ĠrenĠ
cong ĠweiĠ
huang ĠjinĠ
Ġ sai
deng ĠyuĠ
ĠjieĠ shuĠ
lvĠ seĠ
ch Ġ
xing ĠliĠ
yeĠ shengĠ
zheĠ yangĠ
banĠ yanĠ
kaiĠ gongĠ
ĠziĠ yuanĠ
du ĠjiĠ
nan ĠsiĠ
1956 ĠnianĠ
Ġ 45
ĠshiĠshiĠ shangĠ
aĠlaĠ bo
shen ĠkeĠ
chen ĠjiĠ
ĠzaiĠ heĠ
riĠ baoĠ
dangĠ tianĠ
Ġ tun
bei ĠliĠ
zhe ĠzhiĠ
che ĠshiĠ
1964 ĠnianĠ
zhuĠ ceĠ
ĠxiĠ anĠ
xieĠ shangĠ
chiĠ xu
le ĠdiĠ
xianĠ dai
jinĠ quĠ
fenĠ zhiĠyiĠ
ĠdeĠjiĠ huaĠ
qu ĠyouĠ
luĠ shangĠ
Ġ Ï
ĠqiĠ dongĠ
seĠ lie
ĠfuĠzeĠ guanĠxiaĠ
Ġ bao
mu ĠheĠ
wai ĠweiĠ
ĠshiĠshiĠ jiĠ
quan ĠjiĠ
zhuan ĠweiĠ
ĠyiĠ keĠ
dongĠ xianĠ
Ġ pi
weiĠ yuanĠ
ĠĠĠ zhangĠ
ĠĠĠ guĠ
deng ĠshiĠ
hao ĠyouĠ
ze ĠyuĠ
ĠyiĠ nian
xiangĠ qiĠ
haoĠ pingĠ
ĠĠĠ N
ĠĠĠ chengĠ
1968 ĠnianĠ
section ĠĠĠ
fuĠ erĠ
zhengĠ shuĠ
xiaoĠ jieĠ
qingĠ chaoĠ
qu ĠzhongĠ
dui ĠzhiĠ
sha ĠdeĠ
daĠ duoĠ
zongĠ jianĠ
bing ĠzaiĠ
ĠqiĠ xiĠzaiĠ
fanĠ ying
mianĠ tiĠ
ĠzhongĠ qiĠ
xiaoĠ liangĠ
V Ġ
hang ĠyeĠ
teĠ leiĠ
xuanĠ chengĠ
ĠbaoĠ huĠ
Ġbing ĠbuĠ
Ġ sectionĠĠĠ
biao ĠjiĠ
lie ĠsiĠ
yuanĠ benĠ
shouĠ shuĠ
laiĠ naĠ
ĠgeĠ leiĠ
feiĠlvĠ bin
Ġ Ñ
zhan ĠweiĠyuĠ
feng ĠshiĠ
ĠlianĠ jieĠ
wan ĠliĠ
zong ĠzhiĠ
ĠheĠ qiĠtaĠ
haiĠ shangĠ
tuĠ chuĠ
ĠgongĠ kaiĠ
canĠ jia
ĠfenĠ bieĠ
daiĠbiaoĠ tuanĠ
ĠĠĠran ĠerĠ
Ġ wa
ĠĠĠ guangĠ
chang ĠdaĠ
jiang ĠyouĠ
bai ĠzhiĠ
niao ĠleiĠ
Ġ 27
zhan ĠyouĠ
ĠshiĠ xiĠ
ĠqiĠzhongĠ nanĠxingĠ
ĠjiangĠ suĠ
Ġ jianĠliĠ
ni ĠxiĠyaĠ
1981 ĠnianĠ
jinĠ zhanĠ
baoĠ zha
fenĠ siĠ
ĠsiĠ daĠ
xie ĠweiĠ
moĠ niĠ
zhongĠguoĠ renĠminĠ
ĠS Ġ
hai ĠdiĠ
yanĠ anĠ
shenĠ zhenĠ
puĠtaoĠ yaĠ
Ġ fou
liang ĠbuĠ
xingĠ dong
gongĠ daĠ
ĠĠĠgenĠjuĠ 2020ĠnianĠmeiĠguoĠrenĠkouĠpuĠchaĠdeĠshuĠjuĠ
Ġ zuiĠjiaĠ
ju ĠweiĠ
lu ĠyiĠsiĠ
xia ĠdiĠquĠ
ding ĠxingĠ
ĠshiĠ buĠ
geĠ buĠ
changĠ jiangĠ
ĠĠĠ jingĠjiĠ
zai ĠyiĠgeĠ
zhan ĠweiĠ
ĠguoĠ wuĠyuanĠ
daoĠ danĠ
laiĠ ziĠyuĠ
feiĠ yongĠ
Ġliu ĠyuĠ
Ġ 2024
hou ĠzhiĠ
1948 ĠnianĠ
xiaoĠ xiangĠ
Ġ 8Ġ
ĠĠĠ 2019ĠnianĠ
gong ĠyueĠ
jiao ĠdiĠ
chuĠ xianĠdeĠ
cheĠ duiĠ
bi ĠerĠ
lu ĠheĠ
ha ĠliĠ
ĠyouĠ suoĠ
gongĠkaiĠ saiĠ
Ġ 2000ĠnianĠ
ĠguoĠ jiaĠdeĠ
ziĠ benĠ
zhengĠ mianĠ
ĠjinĠ shuĠ
kuoĠ zhangĠ
dang ĠzaiĠ
ĠyiĠ heĠ
Ġ 2005
qiong Ġ
xueĠ yeĠ
hou ĠbuĠ
tian ĠjiaĠ
fuĠ zhouĠ
yuanĠzhuĠ minĠ
ĠweiĠyuanĠhui ĠweiĠyuanĠ
Ġ 200
Ġ bangĠ
shu ĠdeĠzhiĠwuĠ
wang ĠjiĠ
keĠ erĠ
taiĠ nanĠ
xuanĠ juĠzhongĠ
ĠĠĠqiĠ zhongĠ
x ĠĠĠ
bei ĠyueĠ
fa ĠheĠ
huo ĠliĠ
shui ĠdeĠ
gan ĠxianĠ
juĠ min
leĠ duiĠ
yanĠ jiangĠ
zhanĠ shuĠ
ĠshiĠyiĠ zuoĠ
Ġ 1946
duo ĠshiĠ
cha ĠshiĠ
ĠshiĠdeĠ shiĠ
ĠguanĠ fangĠ
ĠjiĠjinĠ huiĠ
Ġ kaoĠ
ĠĠĠ yueĠ
zu ĠrenĠ
lai ĠkeĠ
hant Ġ
ĠzaiĠ buĠ
zheĠ yangĠdeĠ
nanĠjiĠ zhouĠdeĠ
Ġ lei
gan ĠdeĠ
wo ĠerĠ
guĠ dianĠ
baiĠ wanĠ
shaoĠ nvĠ
ĠqianĠ wangĠ
chengĠliĠ houĠ
guĠfen ĠyouĠxianĠgongĠsiĠ
e ĠdeĠ
Ġ niuĠ
Ġ touĠguoĠ
daĠ guiĠmoĠ
jianĠ kang
beiĠ poĠ
ĠdiĠ tuĠ
wenĠ tiĠdeĠ
meiĠ guo
ĠweiĠfuĠqiĠyuĠ gangĠ
Ġ hantĠ
duo ĠliĠyaĠ
gongĠ anĠ
ĠguoĠ gongĠ
huiĠ daĠ
chuĠ changĠ
zongĠ caiĠ
ch ĠĠĠ
ya ĠzhongĠ
yang ĠheĠ
1952 ĠnianĠ
ĠzhongĠ wenĠ
keĠ luoĠ
canĠ kao
reĠdaiĠ fengĠbaoĠ
hu ĠxiĠ
zuo ĠzhiĠ
shuai Ġling
ĠyuĠ diĠ
Ġta ĠjiĠ
ĠĠĠ zhuĠyaoĠ
bie ĠdeĠ
xinĠ taiĠ
Ġ pianĠ
ĠĠĠ fanĠ
luo ĠyiĠ
men ĠshiĠ
1975 ĠnianĠ
gongĠ jiaoĠ
zhuĠ banĠ
ĠshiĠyiĠ zhiĠ
1966 ĠnianĠ
zuoĠ faĠ
ĠdaĠ erĠ
naĠ shengĠ
meiĠguoĠ renĠ
zhuanĠ yongĠ
cunĠ zaiĠdeĠ
ĠjinĠ ru
xianĠdeĠyiĠgeĠ feiĠjianĠzhiĠdiĠquĠ
Ġ 2022ĠnianĠ
nuo ĠyiĠ
ĠshiĠ faĠ
ĠzhiĠ shaoĠ
fangĠ miĠ
hangĠ tianĠ
ding ĠzaiĠ
qun ĠdeĠ
ĠzhiĠ jingĠ
1Ġ ri
youĠyiĠ xieĠ
ĠlingĠ wai
ĠĠĠ 2007
niang Ġ
luĠ wa
ĠxingĠ jianĠ
xue ĠbuĠ
mei ĠshiĠ
lan ĠyuĠ
ĠyiĠ xueĠ
ĠĠĠ jiangĠ
rao ĠtaiĠyangĠ
liangĠ ziĠ
ĠnianĠyiĠ laiĠ
Ġ yong
shang ĠweiĠyouĠ
bao ĠheĠ
duiĠ kangĠ
maĠ laiĠ
Ġ Y
Ġ quĠdeĠ
Ġ 2003ĠnianĠ
ying ĠerĠ
jiu ĠyouĠ
ĠshiĠ bingĠ
e ĠweiĠ
ta ĠrenĠ
ĠyiĠ daĠ
ĠyiĠ xiangĠ
Ġyue ĠheĠ
ciĠ quĠ
duĠ huiĠ
xieĠ dingĠ
ban ĠrenĠ
chuan ĠguoĠ
1947 ĠnianĠ
wuĠ geĠ
sanĠ ciĠ
ĠzheĠ yangĠ
shang ĠheĠ
zongĠ huiĠ
ĠfaĠ zhanĠ
ĠĠĠ 3ĠyueĠ
boĠ jueĠ
xuanĠ chuĠ
Ġri ĠyouĠ
ĠxinĠ zengĠ
guoĠjiaĠ duiĠ
ĠĠĠqiĠ houĠ
5 ĠmiĠ
1937 ĠnianĠ
Windows ĠĠĠ
jiaoĠ jieĠ
haiĠbaĠ gaoĠduĠweiĠ
z Ġ
guang ĠdeĠ
ĠyiĠ waiĠ
ĠshiĠyongĠ leĠ
Ġdang ĠshiĠdeĠ
jiaoĠyuĠ buĠ
Ġ ouĠzhouĠ
wu ĠyouĠ
wenĠ ti
ĠfuĠ qin
leiĠ xingĠdeĠ
zhuangĠ kuang
Ġdan ĠqiĠ
Ġ pinĠ
Ġ diaoĠ
wang ĠyuĠ
wai ĠxingĠ
gen ĠsuiĠ
ĠyiĠ chanĠ
xingĠ zheng
yanĠ lunĠ
ĠsiĠ taĠ
ĠrenĠminĠ biĠ
fenĠbie ĠweiĠ
Ġ ziĠjiĠ
ge ĠzaiĠ
ta ĠheĠ
jin ĠzaiĠ
wang ĠzhiĠ
gongĠ jueĠ
ĠdaoĠ yanĠ
nongĠ cun
sheĠ yingĠ
lianĠ sai
gaoĠ xiaoĠ
jianĠzhuĠ wuĠ
Ġjiang ĠqiĠ
ĠĠĠ faĠ
ll ĠĠĠ
ĠnianĠ lingĠ
zhanĠ changĠ
xuanĠ ju
ĠpingĠ taiĠ
ĠdeĠjiĠ huiĠ
o ĠĠĠ
Ġ Co
ĠĠĠ pingĠjiaĠ
II Ġ
shuĠ muĠ
jingĠ saiĠ
duanĠ zan
Ġdan ĠweiĠ
qiaoĠ liangĠ
xunĠyangĠ jianĠ
5 ĠgeĠ
Ġ chengĠliĠyuĠ
ĠĠĠ luoĠ
tuan ĠjieĠ
song ĠdaoĠ
guoĠ chengĠ
shouĠ faĠ
fenĠ jieĠ
quanĠ shuĠ
ĠdeĠyiĠ meiĠ
ĠshiĠyiĠ daĠliĠ
Ġ leĠ
zhang ĠyiĠ
ĠkeĠ luoĠ
zuiĠ zaoĠdeĠ
cengĠ shuiĠyuĠ
a ĠfuĠ
Ġ chao
ĠĠĠ chuĠleĠ
xin ĠzhongĠ
xiaĠyiĠ xiaĠdiĠquĠ
yingĠxiang ĠliĠ
guo ĠshiĠqiĠ
pu ĠliĠ
shouĠ duanĠ
pingĠ jieĠ
Ġ Q
ci ĠzhongĠ
zhuanĠdeĠ xiaoĠxingĠxingĠ
Ġ hua
bei ĠheĠ
fa ĠweiĠ
ĠdiĠ dianĠ
jiangĠ beiĠ
xunĠ zhaoĠ
guoĠjiĠjiĠ changĠ
wang ĠsiĠ
1954 ĠnianĠ
ĠyiĠ erĠ
guoĠ wuĠyuanĠ
wuĠ zhongĠdeĠ
ĠdiĠ liuĠ
juĠ daĠdeĠ
f Ġ
ru ĠyuĠ
ĠliĠ gongĠ
wangĠ ziĠ
ĠdeĠshiĠ wuĠ
zheĠjiangĠ shengĠ
ĠĠĠ 5ĠyueĠ
zhe ĠyuĠ
ĠjiĠ xingĠ
ĠĠĠin ĠĠĠ
c ĠĠĠ
Ġ shen
zheng ĠqiĠ
ya ĠzhiĠ
ru ĠyiĠ
huang ĠshiĠ
ĠzaiĠ jinĠ
jiaĠ mengĠ
wangĠ shangĠ
zuĠ xieĠ
shanĠdongĠ shengĠ
Ġ chuĠrenĠ
40 Ġ
ĠshiĠ baĠ
guangĠ fan
zhengĠshiĠ qiĠ
a ĠliĠ
Ġ huai
Ġ keĠliĠ
tiĠ chuĠleĠ
anĠ zhuang
song ĠdeĠ
mingĠ juĠrenĠ
yinĠ yongĠ
huoĠ yunĠ
yaoĠ gun
sheng ĠbuĠ
xiao ĠyouĠ
la ĠerĠ
xianĠ zhangĠ
faĠ shengĠdeĠ
baoĠ zhaĠ
ĠĠĠofĠĠĠ theĠĠĠ
Ġ sanĠshiĠ
ĠĠĠ shenĠ
guai Ġ
ĠshiĠ jiĠdeĠ
pingĠ minĠ
lianĠ tongĠ
pingĠjunĠ haiĠbaĠgaoĠduĠweiĠ
Ġ chun
si ĠyouĠ
liĠ lunĠ
zhan ĠzaiĠ
duĠ duĠ
danĠ shuiĠ
yangĠ xianĠ
neiĠ zhanĠ
xunĠ qiuĠ
shaoĠ jiangĠ
W Ġ
ĠĠĠ toĠĠĠ
yin ĠzhongĠzaiĠ
tai ĠerĠ
ru ĠshiĠ
shuo ĠdeĠ
guĠ fenĠ
ĠzheĠ ciĠ
zaoĠ shouĠ
ganĠ suĠ
ĠnianĠqiĠ jianĠ
ĠerĠgaiĠdiĠdeĠ pingĠjunĠhaiĠbaĠgaoĠduĠweiĠ
da ĠzaiĠ
jiang ĠzhongĠ
ĠliĠ xueĠ
luo ĠzaiĠ
ma ĠliĠyaĠ
chai ĠyouĠjiĠ
ĠfaĠ shengĠ
ĠbiĠ yeĠ
ĠhanĠ zuĠ
2010ĠnianĠ meiĠguoĠrenĠkouĠpuĠchaĠdeĠshuĠjuĠ
shuoĠshiĠ xueĠweiĠ
yinĠzhongĠzaiĠ peiĠ
ĠĠĠ 16
yang ĠzhiĠ
hao ĠyuĠ
qie ĠerĠ
shun ĠshiĠ
chengĠ huĠ
juĠ tiĠ
jiaoĠ fuĠ
wenĠ huaĠdeĠ
boĠ luoĠ
ĠxueĠ shengĠ
ying ĠdiĠ
dai ĠyuĠ
gao ĠdiĠ
faĠ lingĠ
baoĠ xianĠ
yingĠ zhanĠ
qingĠ xiangĠ
