#version: 0.2
n g
i 4
a n
s h
z h
ng 1
j i
u 4
ng 2
Ġ Ġ
i 2
a o
x i
ng 4
an 2
i 3
i 1
d e
u 3
an 4
e 4
e n
c h
u o
u 2
ng 3
an 1
e 2
a i4
u 1
ĠĠ Ġ
o ng1
a 1
ã Ģ
sh i4
e i4
ao 4
i an2
a 4
y u
a ng1
y o
an 3
n 1
h u
a ng4
n ian2
en 2
l i
a ng3
e ng2
uo 4
uo 2
w ei4
m i
ao 3
z ai4
ãĢ ģ
b i
q i
a ng2
e 1
h e2
y i
e ng1
zh ong1
e r
b u4
o u4
a 3
e 3
n 4
sh i2
d i4
g uo2
a i2
u i4
r en2
ao 1
x u
y i1
n 2
o ng2
y u2
g u
l i4
zh i4
d i
w e
en 4
ch eng2
o ng4
y i4
g ong1
ji 2
e ng4
en 1
yu e4
yo u3
yu an2
d a4
a 2
l e
j i4
2 0
y i3
j u
a i1
p i
xi an4
o u1
ji a1
s i1
xi ng2
e i3
t i
y u3
ji 1
t a1
r i4
zh i1
h ou4
l i3
o u3
a i3
we i2
hu i4
d ao4
1 9
o ng3
q i2
u an2
zh eng4
mi ng2
xi 1
ao 2
ji an4
xu e2
ch u1
g e4
z uo4
uo 1
sh eng1
d ui4
yo u2
uo 3
q u1
sh ang4
en 3
de 2
b ei4
sh i3
zh u
zh an4
n 3
xi n1
ju n1
er 3
sh e4
r en4
f a1
w u4
bi ng4
k e4
er 2
l u4
d ai4
zh u3
y i2
sh u4
j u4
ji n4
z i4
yi n1
f u4
f ang1
ji ng1
n an2
hu a4
zh ou1
pi ng2
xi a4
l ai2
yo ng4
gu an1
t ong2
y u4
ãĢ ĭ
ãĢ Ĭ
f a3
zh u4
m ei3
Â ·
ji an1
b o
h uo4
b en3
xi ang1
zh i2
d ong4
xi ang4
mi n2
zh e4
ji ang1
q i1
f en1
sh ou3
q uan2
w en2
y an2
s uo3
ji ao4
q ian2
di an4
t e4
d uo1
z ui4
k ai1
ji e2
l ian2
zh i3
x i4
k e3
e ng3
e i1
d an4
m u4
y e4
d u4
f u2
sh u
m a3
y e3
d ong1
qi u2
b ei3
ãĢ Į
ãĢ į
g ao1
y a4
o u2
d u
ji e1
u n2
mi an4
h ai3
zh ang3
sh i1
ji n1
c i3
n ei4
s ai4
s an1
t ai2
g e2
xi ng4
g uo4
20 1
de ng3
y ao4
ch e1
c i4
s u
m o
r u4
w u3
g ai1
k u
di ng4
ch ang2
bi ao3
l a1
t i3
g ong4
ji e4
sh ou4
d ao3
sh an1
ch ang3
s i4
l v
z e2
t i2
k e1
d ang1
n eng2
er 4
w ai4
e i2
ch u
d an1
q i3
z i
k ou3
xi ao3
z u3
b a1
ju e2
li n2
li u2
n i
sh eng3
yi ng1
l an2
b i3
l uo2
t ong1
20 0
zh ong4
zh e3
sh u3
ti an1
zh en4
zh ong3
li e4
q i4
ch eng1
sh u1
yu an4
b ao3
t ai4
f u3
f eng1
m i3
qi ng1
sh en1
w ang2
yu n4
gu an3
f ei1
ji u4
g u3
li ang3
c eng2
m ei2
1 0
f en4
h ao4
y an3
we i3
z ong3
xu an3
xi ao4
d a2
n a4
li ang4
bo 1
z u2
ji ng4
b ao4
n i2
w u2
t ong3
hu a2
ji ao1
yu e1
yi ng3
bi an4
xi ng1
s u4
shu i3
y ang2
m en
b ao1
g e1
bo 2
c an1
c ong2
di an3
r u2
b an4
b i4
bi an1
w ang3
q u3
ch an3
s e4
z i1
q u
0 0
ch uan2
n v
sh eng4
r an2
t u2
zh ang1
x u4
p u3
g ai3
g ang3
nv 3
li ng4
l uo4
yo u4
t ou2
h u4
ch a2
c e4
ch i2
1 8
lv 4
qi an1
l i2
d ou1
1 2
zh eng1
k uo4
sh a1
l u
d ang3
f an3
g ou4
l ei4
x i2
ji ng3
t uan2
we i1
xi e1
li ng3
l ong2
gu i1
xi an1
r ong2
hu ang2
xi ang3
b an1
ji u3
yi ng4
m en2
sh ang1
sh en2
20 2
b an3
k a3
c u
m u3
ji n3
f u1
j u3
mo 2
gu ang3
c i2
sh uo1
qi ng2
zh an3
h ai2
zhu ang1
mo 4
c ai2
ji 3
d u2
1 1
pi n3
ti ng2
ch ao2
yi ng2
w o
ti ao2
p o
ji an3
t ang2
hu i2
du an4
ch en2
g en1
m i4
w an4
p ai2
w an1
z ao4
h ang2
w an2
bi ao1
l un2
19 9
xi e2
ji ang3
h an4
j u2
f an4
f ang2
h uo2
g u4
h an2
k ong1
ti e3
m eng2
bi e2
w u1
ji e3
zhu an1
yi n3
x u1
zh en1
ji a4
bi ng1
mi ng4
li ng2
h ong2
qi n1
z i3
lu n4
t u
o r
xi n4
ch u4
s u1
xi u1
ch u3
z ong1
1 5
h u2
qu e4
xi ao1
zh ao4
qi ang2
q u4
cu n1
ch ong2
pi an4
ji u1
f ang4
su i2
sh ou1
g eng4
â Ģ
gu ang1
j u1
ji a3
chu ang4
d i2
zhu an3
1 6
g uo3
xu n4
m an4
p ai4
f ei4
p ei4
19 8
d a3
t uo1
xu an1
ch u2
b ai2
l a
o n
zh u1
d u1
t u3
di ao4
xi a2
li u4
1 7
s ui4
hu i1
ti ng1
qi e3
t a3
qi ao2
h a1
g an3
z eng1
xi an3
m ai4
hu an2
x u3
w a3
tu i1
w en4
ch ao1
t ian2
b ai3
c ai3
li ang2
y a2
s a4
a r
b ai4
c un2
ji ao3
sh ao3
y an4
zhu ang4
d i3
h uo3
le i2
1 4
ji ang4
chu an1
yi n4
z ao3
yo ng3
s i3
de ng1
3 0
zhu n3
l e4
xu n2
n uo4
hu an4
s ong4
g ao4
l u3
1 3
19 4
b ang1
lv 3
y ang4
h en3
q un2
zh eng3
gu an4
po 4
g ang1
wo 3
19 7
hu a1
le i1
h ao3
t ao2
ku ang4
p i1
du n4
n ong2
g ei3
s ai1
shu ang1
li an4
ku ai4
i n
d i1
p an4
xi e3
19 5
k ao3
g ai4
h e4
h ei1
w ang4
li ao4
r e4
g e
z uo3
k ong4
19 6
y ang1
ch ang4
yi n2
r eng2
s en1
b ei1
l u2
pi ao4
y a1
k u4
2 5
bi n1
âĢ Ķ
r ang4
ch ong1
l ou2
b u3
l ao3
zh u2
ju n4
y ang3
r ui4
y ao1
xi an2
xi e4
ni an4
f or
yo u1
t an2
k ang1
p i2
h eng2
yu n2
k an4
ni ng2
li ao2
sh ao4
b u2
qi ng3
ch i3
2 4
m u
d ou4
mi an3
y ong1
t an3
w an3
h u1
r u
f an1
a l
t u1
g an1
su an4
di ng1
yu an3
w en1
t ui4
zh e
s t
2 1
xi u4
b a3
m an3
19 3
2 3
mu la
k ang4
for mula
2 8
t h
m ao2
r uo4
pi an1
m ao4
l ang3
qi n2
b a2
n a2
z an4
xi 3
gu i3
g ui4
r e
pi n2
wo 4
xi ong2
sh an4
2 2
xi ong1
m e
su i1
2 6
sh en3
qi ng4
mi ao2
f ang3
5 0
20 20
2 7
l ang2
o u
qi u1
s ong1
r i
d ang4
g eng1
qi ang1
f a2
z ao1
f eng4
zh ang4
ï ¼
h ao2
du n1
z ou3
h ai4
qi e4
2 9
t an4
z u
p ao4
p a4
shu n4
p eng2
xu an2
201 0
n i3
00 0
di ng3
ni u3
z ai3
zh ao1
zhu i1
lv e4
chu n1
20 19
hu n1
k ong3
ch e4
du an1
sh en4
xi ang2
du an3
g an4
r o
t e
k an1
l ao2
c ao3
201 6
s i
g u1
p ei2
ku an3
z a2
201 8
su n1
y e2
y a3
r a
po 1
202 1
zh a4
ch i4
d uo2
201 4
f an2
201 1
201 5
c uo4
201 7
zh e2
y ao2
p ai1
t ou4
c ang2
201 2
4 0
k ai3
201 3
202 2
m i2
ru an3
su an1
ch a1
z ang4
mi ao4
l t
200 9
zh ao3
200 8
hu ai2
ã ĥ
c e
6 0
xu e4
ch ou2
s e
b ang3
a m
m eng4
10 0
t i4
p u2
n ao3
202 3
zhu an4
g t
le i3
19 0
3 1
c ai4
s an4
m ou2
ti on
hu n4
ku an1
200 7
t a
ni u2
m ou3
t ao3
di e2
200 1
t eng2
s ou1
k en3
qi an3
ch ang1
r an3
qu e1
f ou3
su n3
f o
b a4
200 0
8 0
k ao4
s uo1
200 6
ni ao3
p i3
ch un2
202 4
l an3
ã ģ
z ai1
c o
xu e3
hu i3
e l
m a
lu an4
ti ng3
200 5
zu n1
b ang4
l a4
hu an1
r ang3
sh ui4
mi n3
3 5
l ai4
c ang1
7 0
fo 2
p an2
n ai4
w en3
n e
c ao1
o f
s ang1
p ang2
9 0
bi ng3
ï¼ į
t er
zh a1
ã Ĥ
shu ai4
ni e4
h ou2
m ei4
sh ao1
n u3
d ong3
i l
f eng2
mi e4
yu n3
z ou4
m ai3
hu ai4
200 4
4 5
l o
y an1
th e
h e
4 8
zh uo2
a t
an d
t ao4
n ai3
ku n1
202 5
zh en3
c k
r u3
ku a4
ku i2
ãĢ ī
ãĢ Ī
g ou1
3 6
e t
cu i1
e s
3 8
c u4
sh an3
r ou4
di ao1
200 3
h u3
g uo1
3 7
c ui4
x u2
i s
m ang2
ju an3
t o
c an2
di an1
zh an1
c ao2
18 9
I N
200 2
k eng1
T C
m a2
3 4
le ng3
a s
z u1
ch a4
7 5
âĢ ĵ
o w
s u2
qu an1
d a1
ch ai1
l ang4
ku n4
4 6
t un2
f en3
199 0
âĢ ¦
o l
v e
zh ou4
sh ang3
r ao4
h eng1
t i1
xu n1
3 9
n e4
. .
n an4
p an1
6 5
h ong1
sh u2
t an1
t ang1
k an3
M a
n i4
C h
3 2
i t
S T
h an3
4 7
U TC
qi an4
199 9
199 8
I n
198 0
18 8
5 00
3 3
6 4
qi ang3
sh e2
sh uo4
p ao3
b e
k a1
zh ai2
S E
5 5
qu an4
n i1
de ng4
199 7
T he
C o
m ian2
4 9
g ao3
I I
6 8
h an
sh e3
z eng4
zh ou2
zh ai4
R e
199 6
4 4
n a
ti e1
d ao1
a d
b r
199 4
f ei2
z ong4
i r
qi ong2
ti ao4
chu ang2
n d
199 2
chu i2
ju an1
c i
ch ai2
mi ao3
b a
gu a1
xu e1
t ong4
199 5
f ei3
ch i1
m eng3
wo 1
6 7
shu ai1
t uo2
chu ang1
hu an3
v i
199 1
197 0
5 8
195 0
gu a4
ch an2
c a
3 00
w a1
199 3
18 7
194 9
a y
p e
s a1
ti ao3
zh a2
A T
196 0
bi an3
4 2
194 5
v er
u s
gu ai4
k u3
n u2
198 8
d u3
o o
198 9
i g
p u4
6 9
li u3
i ng
u r
s s
g ong3
SE E
t uo4
c t
li ao3
IN SEE
5 9
sh a4
t ai1
4 3
6 6
chu an4
am p
ch en4
5 7
198 5
hu ang1
R o
9 9
S A
ãĢ İ
cu n4
ãĢ ı
198 4
hu n2
4 1
u m
p u1
k ou4
p h
8 8
f en2
198 6
r ao3
S t
a u
i d
ru n4
T V
15 0
zh uo1
in d
4 00
s an3
198 7
7 8
5 6
198 2
ar d
L i
n uo2
M e
198 3
D e
N A
gu n3
m a1
t ou
pi n4
u n
C D
ch ou1
b er
g ou3
qu an3
7 7
M i
zh ai1
qi a4
p er
m ao1
qi ao3
M ar
k u1
ku ang2
e d
a ng
r ou2
9 8
de r
l ou4
O S
Â °
k ui4
s ang4
ï ½
l y
18 0
B C
5 4
6 1
A l
197 9
19 20
t y
7 9
p en1
s eng1
t w
5 2
Y ou
197 8
n u4
6 2
w eng1
y e1
d uo3
L e
5 3
xi ng3
ju an4
ï½ ŀ
B A
t s
a k
194 6
C O
M o
c tion
5 1
195 8
S h
198 1
V i
m an
197 2
194 8
zh ui4
c ong1
t ou1
A M
6 3
A R
J o
194 1
W ind
w a2
B S
li an3
19 30
P ro
lu an3
ow s
ku ang1
k e2
q u2
t uo3
7 6
han s
194 0
p i4
193 7
197 6
zu i3
194 4
8 9
197 5
r y
ï¼ ı
196 8
ni ang2
po 2
shu a1
h k
c on
r an
T e
yu an1
t ao1
w ang1
10 00
Wind ows
9 5
p a
N e
n o
b i2
s ao3
8 7
d a
196 6
8 5
f a4
p eng1
6 00
g a1
l an4
1 20
194 7
A r
S ta
195 6
A C
196 4
d an3
c u1
194 2
Ã ©
195 5
S e
R a
ch ou3
195 2
193 9
193 8
7 2
I S
v a
7 4
G a
g a
h t
n u
la y
r en3
197 3
197 4
195 4
f i
qi e1
E D
19 00
- -
J a
A P
194 3
b i1
T u
k e
o s
197 7
B e
197 1
pi n1
m an2
o p
po 3
en t
196 7
sh eng2
men t
m p
I C
8 00
L a
E R
i a
8 6
195 9
b eng1
S a
196 5
s on
J R
196 9
du i1
L o
p en2
in e
S o
ãĥ »
Ã Ĺ
qi ao4
chu i1
I D
qi ao1
S u
193 6
9 7
16 0
b en1
zhu a1
D a
F a
195 3
196 2
M A
d o
196 1
ti c
l ong3
â Ķ
193 5
t a4
r ou
m ai2
9 6
O N
D i
ï¼ ħ
195 1
195 7
196 3
C a
h a
âĶ Ģ
o k
8 4
202 6
c an3
or e
8 2
N a
h i
b u
7 3
9 4
tu n1
9 2
p p
I P
A N
B o
st a
m er
193 3
on e
M u
193 1
n ang2
le s
ni ao4
7 1
b ao2
h o
nu an3
g i
A n
l eng2
p a2
P a
9 3
s o
8 3
al l
W e
d ou3
8 1
19 18
H D
S i
s ao1
w i
U ni
19 28
l uan2
193 2
n en4
l l
ar a
in t
B a
M V
S S
1 10
19 12
I T
k i
19 29
tu i3
d uo4
19 27
co m
t u4
193 4
ar e
7 00
g a2
c n
a li
9 1
ch e
te d
st er
f f
b y
hu ang3
co l
il l
o t
25 0
s a
ar t
z ei2
19 24
R i
.. .
19 19
ku i1
xu an4
1 30
pi ao1
19 25
P S
p ao1
xi a1
14 0
P lay
S M
P C
me s
19 14
st e
zh ai3
k m
H e
D V
p an
zh e1
You Tu
h e1
en d
H a
F i
an a
di e1
b le
C on
W i
l a3
A S
19 11
B u
k a
sh i
o d
g ra
nv e4
l d
19 26
G e
T i
de n
ou r
19 22
n a3
h en4
19 17
si on
E T
N BA
I V
shu i2
c ai1
r ao2
E N
19 23
19 21
p eng4
f e
ku a1
G oo
th er
T a
ch ong3
17 0
à ¸
E C
m ao3
n ong4
m m
A L
M S
H o
se ction
YouTu be
E P
N i
B L
19 13
h n
ti ao1
p en
H K
E n
â Ĩ
han t
gu n4
190 9
g in
In ter
c ro
P e
S te
M P
A I
T o
g eng3
W or
n ao4
ri s
f eng3
an t
l uo3
U S
y a
po r
DV D
g o
ar i
z ou1
P i
3 000
T h
c a1
D o
P o
g n
19 10
F or
R O
D S
1 12
A K
R E
p ro
19 16
C ar
ãĥ ¼
ch uo4
N et
Î ±
a tion
S ch
K i
N o
an i
tu re
el l
L in
M y
C P
U N
W il
ar k
â Ī
Sta tion
h en2
19 15
g le
ni ang4
190 5
F C
v en
er s
m y
C N
â Ħ
âĨ Ĵ
190 1
tion al
L u
w a
ti ng
A u
D NA
E x
f a
p u
âĢ §
si c
di a
9 00
H R
P h
di ce
ar y
si s
Ne w
. &
t on
C H
z en3
T A
T O
190 6
190 4
chu ang3
A V
J u
Q u
ou n
K a
g en3
p s
Jo hn
er e
A nd
M O
co dice
ch ao3
ji ong3
di ng
âĦ ĥ
k o
er i
w a4
b eng4
0 5
f u
C C
di u1
190 7
190 8
Goo gle
A G
E ST
M I
v o
zu an4
S O
te s
L E
ji a2
zu an3
Play Station
en ter
B O
B BC
ch i
Co m
A D
I G
c al
le y
l i1
G u
en ce
II I
of t
R u
15 00
c y
5 000
c ri
wo r
zu an1
I ST
sh e1
lv 2
C ol
or y
M E
S y
ti ve
w it
C R
3 D
rou nd
I A
l an
gu a3
10 5
j e
m a4
Ð °
t t
li n
190 3
10 1
G B
pi ng1
re e
C u
c an
0 9
in a
c an4
F e
c en2
190 2
B D
N C
l and
T E
ch a
p ang1
x t
3 50
Ã ¡
z e
SA O
sh ao2
g en
D C
de s
s pan
p t
mo n
A d
Î ²
g ht
re s
li n4
B 1900
de l
bo ok
E S
B M
r on
ï¼ İ
ãĥ ³
189 8
0 6
1 18
H i
l a2
ãģ ®
m s
qi n3
c or
te l
D R
3 60
0 1
D A
O pen
189 5
l ao4
12 5
m u2
z a
la r
b en4
H O
an ce
ti n
M C
AT P
Mi cro
K o
g y
Ð ¾
10 8
K e
s y
li ne
di o
N G
ig h
p ou1
ne t
y le
G o
c lu
lo w
qi e2
gra m
C or
I F
f t
F ran
O ne
n er
A pp
0 7
âĪ Ĵ
0 8
2 30
g h
Fa ce
H u
10 4
pa ce
P u
S er
re a
Wor ld
s oft
ED T
IST AT
M on
S tu
j a
sh ai1
s ong3
à ¤
N O
189 6
L L
ni ng
10 9
D P
f li
g er
la s
d y
y u1
A A
lu s
ow n
B i
it y
g e3
R I
ct or
W a
D u
S P
R T
su i3
xi ao2
qi a3
E X
r e3
B ri
ber t
B 48
M an
v el
li ng
10 6
18 90
S an
C ST
M L
or i
B ar
CD T
Lo ve
z ang1
D O
wi th
H E
w ard
P er
p ei1
ro w
ta in
0 4
4 000
p ri
u x
cu an4
11 5
ig ht
d s
1 200
M 1
0 3
H ar
G P
p ao2
C E
r en
Ä ģ
ba ck
188 9
be gin
P ar
189 9
J e
Ma c
col span
187 1
E d
R S
mi c
Face book
Wil li
Micro soft
âĢ ĭ
24 0
tu r
Co mp
o ol
16 00
L O
G i
k y
B E
c c
N or
ck et
10 2
bo x
clu de
T T
re f
189 7
ph a
Li ve
N H
S ou
E E
ch ou4
T ri
11 7
I s
P re
P P
i m
qi n4
u t
S C
mi n
0 2
c m
shu ang3
st yle
i e
10 3
AK B48
M D
y ao3
Mu sic
P ri
10 7
v an
O n
b li
c ou4
t ra
G ra
O r
l er
Lin ux
D is
T ra
s er
y e
t ang3
w w
G re
O ri
li s
ol d
V ID
12 7
tu s
4 50
V o
s ti
Da vi
Ã ¼
qu e
12 8
ali gn
l ao1
fli x
C L
Net flix
189 4
Ga me
2 20
r in
B er
Ð ½
ma s
Willi am
I L
M or
k s
S H
T wit
18 80
Re d
l en
l la
Ã Ń
R NA
z ao2
13 6
ru s
ro m
P G
ng e
Ð ¸
st ri
ãģ Ħ
T R
st ra
Te am
18 00
ãĤ ¹
Uni ver
g round
188 5
li a3
er o
11 4
ãĤ ĵ
Ch ar
p ian2
col or
F u
H z
T y
28 0
U R
Ð µ
11 3
11 6
t or
an o
G en
188 6
si ng
ãĤ ¤
T S
Sch ool
P O
m ang3
la ss
189 3
C he
e x
s en
ir l
B la
l yi
m b
t en
M c
an e
Mar k
E u
na me
S L
t ri
11 1
St ar
ã Ħ
ci al
li a
ir st
Su per
por t
D on
je ct
le x
mo 3
âĢ »
ce s
mo 1
13 5
Davi d
26 0
na tional
y s
er a
18 60
Ge or
st o
gu e
ni n2
es s
W al
W TA
k er
H C
w ay
Sh ow
lv er
A c
U A
w as
U n
h am
188 8
te xt
S D
a c
Ã ³
rou p
- .
an s
ou se
B ra
ro id
ca tion
back ground
t le
yu n1
d ai3
C y
p re
G O
W h
ch en1
18 70
re am
G N
ï ¹
12 9
on y
188 7
b ur
an y
di s
shu an1
18 68
Me ta
6 000
Ã ¶
Ñ Ģ
E l
N F
V A
c le
188 3
l or
an k
ou s
X box
3 20
C S
T ho
N HK
A F
A s
D D
Twit ter
K P
n clude
on lyi
onlyi nclude
pi ao2
+ +
bi t
t ang4
18 64
âĢ ¢
I ON
n y
ch o
188 4
R C
U E
m ar
en sis
1 19
12 2
25 00
189 2
2 10
A 1
ti s
en a
le t
c enter
mi u4
15 5
in s
ow er
IS O
M at
â ħ
14 5
189 1
6 50
C lu
c er
And roid
G irl
a ge
ãĢ ķ
O R
re d
ne s
K u
N S
c uo1
c ar
ãĢ Ķ
18 50
ht t
mer i
C l
v al
Inter national
D ay
x y
ou nd
m i1
18 67
lo gy
ste m
I M
p ang4
ãĥ Ī
el d
Al l
f fi
187 9
ak e
Ja mes
En ter
W ar
p ar
se l
3 80
A B
U P
V er
b ri
ne y
187 6
A ni
C oun
si a
Geor ge
C an
li e
18 75
18 61
27 0
Univer si
D ra
H er
P or
t d
Ga mes
A ir
I R
12 6
N T
Ã ¨
ti me
in ter
H ol
P au
S pe
NG C
st ru
ãĥ «
187 3
M G
n s
12 3
ãĥ ©
am a
E ng
H en
P V
A b
G roup
H T
se d
ran s
Col le
B en
H y
M B
V a
16 8
CO VID
cri tic
F M
o m
18 65
il d
Clu b
A O
P L
lu e
th at
as s
A meri
D E
12 1
C enter
h y
cu s
wor k
B lo
17 5
al d
ãģ Ĩ
We b
H 2
Y P
f rom
Ã ¤
14 00
MA X
A li
13 8
2 28
T P
a st
h a2
ch an4
ni c
18 48
f er
li u1
18 62
ra tion
3 30
p eng3
12 4
ãĤ ¢
188 1
188 2
7 37
P ark
v il
en s
on a
187 8
5 50
gu ai3
V e
ru i3
187 2
L C
bi n4
H el
H igh
IN K
Meta critic
z o
I t
n ao2
t ro
Ori con
M TV
U C
w an
15 6
16 5
B oo
L ED
d on
ni an3
18 40
IV E
S pi
c ore
d ai1
7 50
d ge
sh ai4
ãĥ ĥ
c re
mi ng
13 7
ãģ Ĺ
Le a
ni s
13 00
sta gram
7 000
ri ng
B ro
D OS
S Q
U B
22 9
I U
S he
G DP
K ing
O K
Ñ ģ
C hu
P la
r and
15 2
ou t
TV B
Mi cha
F ri
d ay
15 9
187 7
Ro bert
St re
ty pe
S ur
â Ĺ
ku i3
18 66
Ch ris
i OS
Ð »
al s
Pro du
S K
U p
18 69
âĢ ²
si lver
E le
T HE
D M
xi u3
st ar
Pe ter
N ET
P at
g ar
p la
sh e
p lay
Ð º
Ch i
In stagram
B I
p y
13 9
BL AC
B ig
g an
Ð ²
D J
r eng1
li p
ss o
Ph one
C G
W E
co de
ãĤ ¯
Micha el
A t
D F
ï ¸
App le
1 100
C i
a i
15 8
Te ch
Pau l
2 25
g on
en e
30 5
13 3
al k
IN E
Na tional
Ty pe
R A
s a3
ni a
ãĥ ª
at or
A ward
H I
Y O
13 2
Ste am
E s
Y e
r al
20 5
18 63
ra y
tain ment
2 15
B ill
ci a
Universi ty
C e
F O
ph y
C A
F 1
K BS
14 8
13 1
Me dia
K ar
L ou
M er
S mi
W o
16 6
ar ch
ne w
187 4
E F
X X
k g
n ow
de o
en ti
18 58
F in
i c
14 7
Bla ck
b al
v in
25 6
ãģ ĭ
G A
G ar
M 2
ku n3
18 30
Ri ch
C BS
T er
U T
a ch
c lo
e w
18 51
or a
Le e
B N
E M
U I
19 2
Î ¼
Ch a
8 000
ch e3
Ja ck
Enter tainment
i f
z er
an n
li n3
mi ni
bi n
14 3
se t
ad a
C ity
M k
g ang4
18 55
In tel
3 10
P ower
I X
h a3
m ber
I E
R AM
S pace
b el
z uo2
ð «
18 59
ST AR
Char les
13 4
tion s
is s
Di re
shi p
A ng
A BC
18 5
18 54
or g
14 6
30 1
F la
17 00
Vi u
3 70
s pace
18 57
F ree
G M
W in
e k
w hi
st ro
E r
v s
Ø §
29 0
ãģ ª
Li fe
Ta i
ï¸ °
S am
Î ³
in o
Ja va
2 14
P y
Ñ Ĥ
mi s
Re cor
Comp any
sti tu
4 20
D ream
P ol
f ang
Î ¿
ãĢ ľ
18 56
18 53
Pro ject
H ouse
a h
f irst
di um
ãģ Ł
et y
oo d
Ti me
Tho mas
P an
b ra
v on
bo 4
14 4
Al pha
Sa int
F A
K en
O VA
C ent
V O
fa ce
A 2
I O
16 7
3 A
H S
S BS
sh a3
bi li
ku a3
18 41
Stre et
A m
A lex
B at
L P
s pe
al o
Ja pan
3 40
A g
P M
chu an3
ri e
Eu ro
BLAC KP
S po
T or
a e
w n
z a1
20 8
18 15
17 8
CP U
BLACKP INK
2 23
B ur
T ru
c is
m en4
So ci
8 50
L GB
S ing
t al
z uo1
ch er
ri c
se s
Ro ck
Stu dio
ww w
I BM
di e
ma t
es ti
por ts
S F
V al
yo u
20 7
ver y
23 5
ãģ ¨
ãģ ¾
ma tion
Ar t
D ig
F er
L IVE
M r
M et
P op
S U
20 3
ni ng4
17 1
ber g
B 2
V E
W hi
n al
co mp
Sh i
SQ L
P ad
c ra
s g
v is
18 46
16 4
for d
no t
Colle ge
M in
Y u
b re
li t
15 7
vi ce
pu bli
B R
L T
N E
S un
14 1
IC E
Ameri can
B 1
C ro
P E
e st
bo ard
17 6
si gn
IN G
A sso
L S
b all
h an1
Â ²
we ll
18 12
18 45
18 44
Ro ad
Girl s
sel f
p le
mi t
23 1
O ffi
c ture
c lass
H F
L td
M 3
p m
bo r
ãĤ Ĭ
wit ch
LGB T
B B
20 9
wo od
po n
ce ss
ãģ į
NA SA
GN U
G er
L A
P A
w ai1
de d
th y
Jo se
Te le
Smi th
C la
C ra
P ra
i se
am pi
au rus
IU CN
2 16
P N
w h
Î º
18 49
15 3
Goo d
C T
F il
H all
N BC
T our
zh ou3
20 4
23 8
Ch o
um p
Produ ction
l e1
le a
ta tion
ne ss
Vi deo
G T
O 2
S ci
Ï ĥ
mi ted
Ga la
E li
F o
P R
w ar
y n
di n
20 6
eri es
Z e
18 14
ma c
2 18
f ri
f ra
l ti
on s
ang e
Rich ard
S I
m al
chu n3
IG N
A ct
L D
S en
W S
w in
â ĸ
pi c
qu i
Ch ri
Bo y
P lan
S ky
T ur
b un
Ï Ģ
de f
18 47
15 4
th o
ve d
vi sion
tur n
4 60
5 80
B el
F F
F ar
M as
h er
i ro
s ch
v es
z z
mo r
18 43
Be st
Sy stem
pt r
4 30
M BC
sh a
40 1
che m
4 10
b ar
b us
p r
le d
17 7
ri ch
of f
ãĤ ·
lo s
NF L
Viu TV
C al
S witch
16 3
AM D
AP I
We st
D an
I CO
e p
o per
men ts
18 52
16 2
cri pt
V II
g s
18 20
th is
ãģ ı
Ma x
In c
A ma
B or
F re
P rin
c il
u e
14 2
ge t
23 4
th on
Ro y
V R
17 2
ãģ Ĭ
ãģ ķ
Recor ds
6 40
E m
G al
S qu
V ir
16 9
35 00
Li mited
da ta
C M
C ore
K C
T 1
Â ±
lv e
18 39
ar s
23 2
4 80
c i1
17 9
ca de
20 30
14 9
ma x
36 5
In stitu
man n
R es
18 21
ãĥ Ń
ãģ ¿
der s
Uni code
RO M
CC TV
3 90
B U
H an
c ent
l li
t v
30 6
22 2
60 1
un ch
F an
V ol
i i
tu be
17 3
24 7
ri a
it ch
Bo b
fu l
C ri
E A
P F
k ing
ti an
it al
oo t
K K
X P
17 90
5 60
O H
S N
u se
w id
li an
pi ng
ãĥ ¬
ci ation
2 11
B F
F un
T rans
V M
i re
H ot
M U
P D
P H
S co
S ir
i o
v ar
shu a3
lu m
17 95
30 3
âĹ ĭ
18 3
23 3
se arch
ãģ ¡
180 1
For ce
2 13
P en
T ok
k h
l on
we ng4
ru n
ãĥ ŀ
US B
V an
n um
ti a
su b
ni e
17 4
re w
MV P
He art
Fi re
Je an
C K
z on
Ï ģ
á Ģ
ì Ŀ
18 6
18 38
or d
al ly
St ore
5 20
6 10
B ank
D DR
G lo
T op
s or
u p
ng a
mi ly
ck er
i Pad
r ong3
t z
su r
16 1
50 1
ãĥ ī
it s
ay a
Ho me
htt p
Dire ct
2 24
C F
H or
L on
e le
bi le
18 13
ãĤ ī
Ph il
D r
F le
G E
z y
Ï Ħ
18 2
18 32
18 42
la tion
Soci ety
A E
C am
Z i
f ter
18 4
ãĤ «
Mi ni
ke y
Da ta
7 20
K I
M el
S cript
i Phone
j o
â ĺ
18 36
la te
17 93
25 5
th a
ãĤ ª
Co mic
Mu se
2 21
H BO
M T
S to
d ro
h ou3
k in
n t
18 33
17 89
Sh a
tic s
Ri ver
htt ps
Asso ciation
Gala xy
bun tu
D AM
M 4
Q Q
d ra
f in
m g
ti es
18 35
15 1
ãĤ ¿
ad y
2 19
2 17
3 38
F T
J an
J YP
S R
W A
e m
ð Ĳ
sh ang
âĢ °
mu ni
180 4
ON E
CE O
wid th
4 70
7 40
8 30
U buntu
g a4
u ni
li ght
el la
Mar tin
Hen ry
Lea gue
B ay
Y G
b an
b ro
g re
Ï Ĥ
Ð ´
â ī
mu s
Ma ster
Ch ampi
vi ng
Gen er
D es
E ar
F ra
L INE
P hi
c en
Î ½
le ss
at o
AR T
Gre en
2 12
B r
D K
c ti
Ñ ĥ
ng er
hu n
li st
18 28
or s
ãĤ ³
con d
AP AN
row n
D ou
F R
N ight
V en
di t
19 1
30 2
ta ble
Bill board
6 80
G am
M ana
M Hz
P I
P in
S NH
h as
n m
Î ¹
18 1
16 24
23 7
si de
ma in
ãĤ ĭ
Ch ina
Offi ce
Jose ph
SNH 48
B ir
F DA
G old
J APAN
P K
à ¹
á ¹
16 44
30 8
st on
Co de
St ra
CO M
No te
D B
D y
E nv
G R
H ill
M il
O b
P art
10 000
18 37
tu i2
23 9
ri ck
lo gi
180 6
So ng
Uni ted
New s
mac OS
4 40
C V
I nv
M W
U 21
h ar
m ark
Ã ¢
Ã ®
Î ´
à ¥
â ĳ
18 19
29 9
34 6
Ra dio
Lo ng
Pa la
HT ML
ann el
7 80
E ast
O ut
T en
T alk
18 25
24 5
23 6
th an
50 5
27 9
ãģ «
ad o
You ng
Dig ital
5 40
C amp
E V
H 5
L au
r pm
ch ong4
00 1
si an
ne d
ter s
bu t
3 25
B al
p lo
p ur
su s
17 76
ãģ ĺ
per i
NC AA
Ser ver
B an
F AT
H ow
J i
18 18
26 5
ri ght
ãģ ĵ
den t
Hel lo
B ru
D ri
Y o
a pp
c oun
18 24
18 31
202 7
il la
tic al
C ry
G S
L es
R PG
b et
p art
u l
w er
Ã §
Ã ´
ch el
me d
ro me
and a
Ch ild
Hi st
Ser vice
âħ ¡
Tech no
C at
D own
O s
U M
i ce
hu r
mo nd
te mp
BS D
Ki Ha
Fran k
Is land
publi c
Sci ence
1 A
B lue
C W
F ore
X ML
b en
Î »
27 5
27 00
lo ng
You tube
Ko ng
Ed ward
Un der
Py thon
Whi te
3 12
5 G
7 30
F irst
G rand
H L
L an
O M
P as
T BS
f un
h ao1
26 4
29 5
38 6
180 2
BL UE
Institu te
Champi on
6 30
C as
S um
T M
k ar
Ã º
Ã ł
ni e1
18 22
ar ed
st s
28 8
ãĤ ¸
Ù Ħ
30 7
24 4
ãĥ ķ
va te
Tu nes
IT F
To m
G ro
J T
x el
an ti
la unch
24 9
90 3
il le
Nor th
Pol y
Squ are
O T
P al
P ID
S eries
l lo
t ry
z ation
Ä «
Å ¡
tu m
24 3
28 00
ta s
You r
Th is
Cu p
bur g
F X
H am
J ump
M oun
N P
S or
S of
Y a
_ _
li o
18 10
16 22
17 92
re turn
70 1
SA RS
Ca p
Ho ng
PO P
9 60
C ur
D ani
K h
L ang
O p
S ig
S HO
V V
i ch
n on
p ai3
Î µ
mo s
16 50
80 1
Ra p
Net work
MI UI
2 100
U r
o b
Ð ¼
00 7
18 26
15 73
ru m
ci ng
ha ve
7 47
J our
R ay
W at
k en
18 34
30 4
22 6
27 8
ãĥ Ł
ãĤ Ĥ
37 5
ad d
180 5
AC T
AP P
AI R
Stu di
Blo ck
G ran
H A
I m
P ara
T re
a g
p res
r d
s in
29 6
29 8
38 5
AT A
Mo del
Di e
2 D
3 35
5 90
9 000
C U
D ot
G il
S ports
W N
m l
v y
Ï ī
â ĭ
li c
la ng
17 80
ge s
22 7
si g
lt a
ãĥ ł
ak a
ding s
IF A
3 15
J on
R en
S p
f re
i Tunes
Â »
su al
mo re
25 1
27 7
ma p
CN N
Au to
2 A
C le
G ol
O ver
R us
R FC
h r
p H
u nd
zi ne
15 82
17 99
25 9
24 6
24 8
th i
Ma g
vi ew
180 9
ga in
Qu e
Sou th
Eng ine
5 30
C 2
D LC
N ow
S c
g en4
s ang3
Â «
an der
18 23
or n
16 21
27 2
40 5
AT ION
180 3
Sta te
ste ms
Inter net
EE E
pre ss
3 34
6 20
7 70
C lass
D ar
J en
N u
S G
V I
h ad
di tion
or k
16 25
28 4
28 5
ãĤ µ
St an
tw are
da e
Pu bli
3 11
8 80
L is
N M
S ony
d or
Ã ī
á »
lu tion
cu r
25 8
for m
27 6
ãģ Į
as on
Mo bile
B us
C li
C er
D en
K O
O per
X T
d d
i th
s co
à ¦
25 3
re ss
35 7
vi a
Mo on
Wi i
Pi er
6 60
B on
G et
M en
S V
U L
Ð ¹
ch en
ou d
ãĥ Ĺ
ST A
ing s
Mar ia
IP v
Uni x
Wh at
Euro pe
5 70
B re
U 19
W F
W ay
e e
p at
Ð ³
18 27
tu an1
15 70
al y
ãģ Ĥ
ck s
ga zine
Lin k
vil le
Boo k
3 14
3 DS
6 90
B BS
C 6
D SM
I EEE
S B
W WE
b lo
i ni
n or
18 17
16 40
16 36
26 8
40 2
40 4
ãģ ¯
Me di
Ra in
Be au
Sou nd
whi ch
4 G
A X
D ol
G ri
f y
t rans
17 75
25 4
Fran cis
3 23
C ir
H P
L it
O P
k ao1
mo del
la ris
17 50
30 9
ter i
ca st
ak er
Jo y
fi c
3 29
6 70
A th
C lo
E nd
L y
P lus
h el
i de
u ng
y an
sh ing
gu ai1
18 16
ãĥ ģ
ãĤ £
45 00
Ch annel
CO N
Vi ctor
fi eld
Ti k
TO P
Cu be
Lou is
pr int
. -
7 10
9 10
9 50
D I
G od
M K
a b
o c
di an
pi n
ar r
24 1
23 00
Re search
IS BN
Po li
Fil m
tv N
3 26
A sia
B ou
P T
T 2
r ch
s p
à ½
pi tal
15 92
al le
34 7
75 8
Ma y
oo m
St and
op le
A ra
D T
T ro
t r
t an
tu al
16 28
17 88
25 2
24 2
26 9
ãĥ ĭ
and y
Le on
ff er
fe a
Ni co
vel op
tur al
3 18
3 36
9 78
A do
C B
D L
F esti
M US
N 2
O 3
á ĥ
bi e1
ti o
po s
16 27
17 83
17 91
al th
40 6
35 4
IN N
Re gi
ph i
Vi sta
rou gh
Pi xel
Dis ney
âĸ ¡
A cade
C our
E L
F 4
I B
L AN
L TE
P ho
S m
p a1
t re
ni ca
17 97
28 9
ï¼ »
ï¼ ½
ce d
Ma ch
55 6
Be at
La w
A nge
D MS
O F
T H
T an
n an3
po p
17 79
17 96
60 7
ãģ ¤
ãģ ł
35 2
46 5
180 8
Pro f
ER T
so me
km 2
Wor ks
NC T
Ali ce
Sof tware
âĭ ¯
3 21
3 37
A 4
A mi
T 3
f la
g is
l s
ch ar
hu ang4
ni ght
18 29
tu de
17 78
17 94
28 3
27 3
te st
ãĥ £
ãĥ Ĳ
ãĤ ¨
ck y
Co s
Mar y
Vi sual
ine se
YouTu ber
AS C
wor ld
Ele ct
Bat tle
3 13
5 10
8 40
8 60
F oot
M net
v ance
Ã ±
Î ¸
shu ai3
17 98
me ga
ãģ ¦
45 6
37 2
Jo han
EC T
sy stem
Spe cial
Award s
4 48
8 70
B lu
M F
a th
r or
s ca
we b
15 80
16 12
16 34
17 87
28 1
26 7
ãĥ ĩ
ãģ £
ma d
ãĤ ¦
lo st
mm y
Pre mi
Roy al
Glo bal
9 11
D G
F ro
M is
O li
S et
T N
T ou
W O
â ĩ
sh ai3
mi na
15 67
16 48
27 1
te ch
lt ra
Re al
pe dia
ph er
con o
Ar ts
BO X
Env iro
A H
D ark
E 3
G or
M M
M ur
N ot
P ay
Y ork
e v
ch uo1
hu s
bo n
36 7
OS HI
con st
AC E
ff e
EN T
AG A
Gre at
Tik Tok
- &
3 22
A h
M ON
O TT
R ou
V B
c as
bi an
po si
15 50
15 68
16 15
16 30
la m
for mation
28 6
ãĥ ĸ
Ma gazine
CH 3
Comp u
Muse um
Dani el
Festi val
B rown
C ru
C AS
F BI
L G
M al
M ill
R am
S IG
U SA
a p
g g
o ther
zh ao2
yi ng
pi e1
16 45
16 46
for e
26 2
ãĤ Ń
33 3
CO LL
AR D
Se cre
ste a
ste in
En core
ture s
Cl oud
MUS IC
H un
L ar
L et
b as
d ou
g al
t to
Ø ±
16 26
26 1
29 7
te m
35 5
ol f
Ch inese
Ki m
On line
3 28
8 20
P et
P RO
S 2
o ver
s ou3
mo d
qu es
16 37
re y
70 5
90 1
36 4
38 4
37 8
44 2
Me mo
gi c
Po int
VID IA
6 18
A U
C BC
H B
H as
H um
N VIDIA
T 48
c to
s che
y l
z e4
Ð ¡
Ñ ĭ
16 42
25 7
24 00
28 2
26 00
Ma d
ver n
Sta dium
mp le
160 9
one y
Red mi
Ye ar
Tai wan
Ado be
7 60
7 67
C ou
C AN
I l
O 4
S w
U 17
V C
V in
W on
b at
b ps
h eng4
Ñ Į
de on
ni or
po ration
15 85
15 83
16 10
th ing
ãĤ Ħ
58 3
ct ory
180 7
ak i
AR M
Te X
ster n
ther n
Com muni
Sy stems
Gener al
9 30
F IFA
J U
K E
O D
S in
T own
T hun
W ho
c la
c ci
j or
s tu
ti na
mo l
16 23
st y
27 4
ro s
si ze
ce ll
99 9
An to
Po st
pri ng
Cy clo
ï¹ ĳ
H2 O
E OS
F IN
I ma
I EC
K in
K id
e sta
s m
15 71
17 84
st an
26 3
50 9
29 3
35 1
Ch an
De ep
Ar chi
wi ki
2 200
4 28
A J
G UN
T ar
p ra
s k
x x
li g
ni ty
16 20
17 23
17 86
st re
50 4
lt on
ãĥ ¥
35 3
39 5
be th
va lue
So laris
pri vate
Chris tian
Met ro
Mana ge
Dot A
4 19
4 32
A 3
A ri
F N
G L
R on
b es
c at
c ard
c tive
p es
Å į
ì ķ
cu ri
14 50
in te
ge l
ra t
ãģ Ļ
co s
el o
Mi ke
ha i
Ke y
Mark et
Chri st
Phi lip
Studi os
Lit tle
3 45
4 27
B and
C ine
F E
H IV
K 6
L ine
V PN
Ä į
li ke
zi lla
or o
15 77
16 18
16 43
el low
38 7
39 9
ct s
Ca st
our ce
LO VE
Fle et
Techno logy
3 17
3 31
5 12
5 65
H 1
M Y
R 2
S 1
S oft
T ay
U 18
U SS
U ltra
b b
h is
l u1
u d
Ñ ı
li na
15 86
17 77
14 53
80 6
ba se
CD MA
Ra deon
Uni on
AL L
Va lve
Child ren
Secre t
3 27
4 90
4 45
4 46
5 35
A lt
A ven
F I
F ound
L and
M id
M 87
S k
U 23
W I
W OR
p ara
r stea
y er
Ã ª
en do
li ve
15 21
17 65
17 74
in to
st al
se y
se cond
ve y
49 9
Sta ge
Mu lti
ll er
Wi th
Ju nior
BM W
Fri ed
Cent re
wh ere
Acade my
4 11
4 16
C rea
E MI
H TC
K B
O mega
S che
Å «
en i
ch t
cu l
16 16
si ble
ta i
70 7
il y
36 9
39 7
ver s
Jo e
Sta tes
Wi re
Ni ko
GP U
bili ty
6 13
N R
S we
T W
Z A
Î ·
Î Ķ
Ð Ĳ
en o
mi a
15 64
17 85
lo t
36 8
39 8
ph o
TV BS
Ne xt
Su b
Wi ki
Ge o
My SQL
vo id
Ori gin
Ama zon
3 C
8 10
B T
H on
J r
S ti
S au
S ara
h ouse
m 3
p to
Ð Ķ
16 62
in clude
26 6
29 1
si st
he ad
58 8
De mo
Di stri
Ba se
MO D
chi e
Ad am
Cor poration
M1 A1
fer ence
mis sion
velop ment
GUN DAM
3 16
5 37
6 21
7 42
C I
E 48
E ric
F low
I r
R un
T I
c ted
p ter
Ã «
Ù Ĩ
po int
15 40
15 74
17 72
st d
28 7
te e
60 5
45 4
lo g
38 8
34 3
Ma u
88 8
Ar c
Se a
Su nd
Dra w
Chu rch
Alex ander
Cro ss
Manage ment
4 25
4 75
D el
L ady
N D
O ther
S W
k ang2
p al
w ere
an na
ao n
12 50
16 19
16 29
16 83
re ad
29 2
ma tic
36 3
37 6
ST S
55 2
68 6
oo k
ig n
ali ty
Au gu
Sco tt
Lon don
Dy na
Cyclo l
6 27
B RT
F L
K ir
L ake
M X
P on
S al
T ony
a le
h ard
t ru
Ð ±
ti sh
ti al
ou gh
ï¼ Ĥ
si t
48 8
De sign
Ne o
op en
And rew
Spo t
ðĲ Ń
4 49
5 A
6 25
7 38
D er
F ron
H ER
O f
P B
R ound
V ER
a ce
h l
o ni
p lan
Ð ļ
sh ared
15 90
15 79
16 33
ãĥ Ĭ
fo x
ãĤ °
id a
150 7
pu t
CH 2
vo lution
mon t
Ani max
Ear th
4 12
L F
L M
S mo
S ON
V 8
h ang1
i nv
n an
o ng
p lor
Ð ¿
í ķ
ji a
mi r
mi x
bo dy
ni co
16 31
16 80
17 73
al an
29 4
si ve
40 7
ma te
ãĤ Į
et te
as a
39 6
33 00
Be ta
160 4
Fa mily
An der
Ha mi
For t
Par ty
PG A
Jour nal
9 80
A re
B ad
C 4
D un
F old
G C
L R
N ar
S pring
p l
Ä ĩ
É Ļ
cu m
15 75
16 97
17 55
14 92
80 5
36 00
46 7
47 1
De f
Si mon
mic s
ï¹ Ĳ
tro l
SK E48
Sum mer
Thun der
0 x
3 19
E pic
J 2
X C
f b
p el
ni o
15 61
15 89
15 95
17 81
14 65
50 8
ãĥ Ĩ
ãģ ²
34 4
58 9
160 3
160 6
160 7
pp y
CN BLUE
Ru by
Bi o
Coun cil
Dri ve
Foot ball
4 15
8 55
9 40
9 70
C lar
F al
M iss
S on
k an
u age
x 86
z en
Ã ¸
Ã ħ
Ã Ł
à ®
bi o
15 22
15 26
15 56
16 13
16 60
50 2
50 6
ãĥ Ģ
37 7
47 8
55 4
amp le
Al li
mer cial
TO UR
William s
cation s
Hy per
ìĿ ´
âĺ Ĩ
Ange la
4 17
5 25
9 20
9 25
A fter
F lor
H it
L U
O ra
S ar
S ca
U RI
W ill
s ki
Ù ħ
en ts
ch eng4
bo ut
15 25
15 91
16 67
la i
40 8
48 5
to s
64 3
ba by
ph en
Mar i
Sh o
AM O
Ba ck
Fi esta
Ste ve
Ru e
Ad vance
DO HC
Chri sto
3 24
4 22
5 15
5 34
K it
L am
L ight
M es
Q S
S 4
T el
U K
V T
W el
b les
h en
m RNA
w ho
z zo
Ä ĵ
â Ĥ
li sh
su re
15 10
16 38
on ly
17 30
me dia
ãĥ ĳ
fo l
34 2
as o
39 3
47 9
ph ic
St ory
150 8
Mo zilla
Vi ta
La st
HK T48
Sy n
Cu l
las sic
Wa ter
Ber n
Wal ter
Ameri ca
Sur face
Found ation
3 200
5 31
5 38
5 46
C re
E G
G Hz
H al
I TV
J er
J ane
K at
M BA
N I
S ol
T G
V S
i te
i PS
k W
p per
v ir
li on
202 8
15 43
14 57
in du
co me
36 6
38 1
39 2
In du
Bu il
pla ce
Hist ory
1 st
4 13
E du
F 3
G un
G PS
L Z
P od
T han
U 20
W nt
d own
z an3
z ar
Ù Ĭ
bo ur
or ig
15 65
15 59
15 87
15 97
âĢ ł
16 35
16 88
17 33
17 82
al so
te x
si o
60 6
ãģ ĳ
37 3
Al bert
Ar ti
Ti m
Ti mes
John son
Fin al
4 A
4 26
5 24
6 12
8 90
A sh
B y
B ell
F S
J im
T ol
U D
Z a
b s
o v
s core
Â £
Ð Ł
Ñ ĩ
ch y
or t
15 88
15 98
50 7
the w
64 1
49 5
68 2
66 6
Ro d
Ro se
Au stra
Com mon
wor th
Mon t
Bri an
CL A
Pla ce
Tele gram
Pier re
3 32
4 K
4 35
5 75
7 90
9 90
A i
B et
M us
T MA
w en
yo n
ti e4
bo w
15 23
15 35
16 49
16 61
17 70
14 99
st or
st ry
ãĤ ¬
ãĤ ı
36 1
46 6
39 1
.. ..
55 1
vi ces
Me d
Mo der
160 1
PC I
Ho tel
ell er
TO K
Ac Fun
Ang el
Fla sh
cra ft
num ber
Won der
5 28
5 500
B ang
H ard
H TT
S ma
S han
V ar
e a
f is
o la
ch an
mi ne
ti ca
shu an4
15 11
17 60
17 69
35 8
ter a
37 1
46 9
68 4
Re p
58 7
Vi ew
pp m
gi o
Si ri
SM AP
Bu t
Ex plor
Ed ge
Sou l
tri bu
Gol den
5 48
A W
K ri
M ir
M AC
a ir
e ven
h uo
s pi
v at
ti an3
200 00
10 80
15 000
15 76
15 94
16 89
36 2
38 3
TC P
34 1
Ma i
Ro man
NA SL
Pro gram
So me
Bri dge
ac tive
sco pe
Europe an
vern ment
9 21
A po
B il
D ance
K on
L 1
M R
M ind
M MC
N EX
P ass
R B
T F
U FO
V F
b um
e y
g ni
h ong4
r ang2
s al
s ky
ð ª
ch eng3
le ft
18 11
15 17
15 14
15 52
âĢ ķ
16 39
16 84
th en
si e
60 8
se ll
ma ster
34 9
64 4
55 7
ir d
58 5
59 7
ard o
De velopment
Mo d
Se ven
Ra w
os a
We ek
ther s
Ju st
Mat thew
Por t
Eli za
Gam er
temp late
curi ty
Tay lor
3 48
4 36
5 49
A ST
B rand
D ia
E ver
F red
M itch
P res
R N
R et
T ran
V illa
c s
c uo2
e xt
r ent
u ts
yo nd
15 78
17 63
13 50
in ess
ï¼ ĭ
40 3
ce pt
90 8
es sion
65 00
vi e
ca se
150 5
tou r
77 7
Mar ie
ang er
Te st
fi ed
fi cation
Pa ck
pro te
Qu i
San ta
MG 42
5 47
5 67
6 68
C 5
F AN
L or
N K
O h
R ol
T 4
Y OSHI
c ou
k es
o let
p us
s ao4
v or
Â ³
Ñ ĸ
mi d
er ing
10 50
cu la
16 14
17 20
37 4
Co V
49 4
ver se
ID E
IP S
PS P
He a
Pe ople
UN IX
Com mit
âħ ł
Fra me
Moun tain
IPv 4
Explor er
5 14
5 22
5 45
5 68
6 19
6 75
C SS
D 1
D NS
E BU
K T
K el
S hu
S and
b n
b la
c in
n e2
o van
yo ng2
le te
po ly
15 16
15 13
15 34
15 47
15 69
16 V
14 60
ro nic
ra te
ce l
ãģ §
35 9
75 7
it z
64 2
58 1
ss a
au x
150 2
ction s
à¸ £
Wor k
SO HC
Spi ri
Art hur
Que en
COLL AR
Sund ay
4 18
4 14
4 24
4 33
5 44
A le
C J
D TS
F 2
J O
J us
M MO
P EN
T wo
X IV
Y ah
a mi
b u1
e se
f lo
k ins
p he
w ill
z ed
Ð Ĵ
17 31
17 68
17 71
14 90
st one
me l
40 9
lt er
ãĥ ı
60 4
80 2
ãĤ ±
ãĤ ĩ
ãĤ į
38 9
75 00
39 4
47 6
be en
49 3
ER O
So lo
Bo x
Ri ft
Ge Force
AG E
Pri me
FO X
new s
whi le
Tru e
JT BC
âĩ Ķ
Cine ma
4 31
5 39
7 45
A BS
B it
C lassic
E O
H ay
J am
K er
L ord
M it
S el
T am
V 6
h ol
j q
Ä ±
sh ed
sh op
ch ange
bi ao4
ti ce
15 93
17 24
17 52
14 69
14 98
13 70
si li
ãģ Ī
38 2
75 5
46 4
44 4
57 1
150 1
Ne ver
no va
Na me
PS 3
Ex press
wor ks
Bri tish
Dra gon
td own
Kar l
AGA SA
Kid s
Fried rich
6 46
6 67
C IA
D 2
D ro
G in
I RT
M 6
N um
O ld
X F
Z J
h igh
p pe
z za
de x
li us
er y
di es
ti ne
ti fy
15 20
15 60
15 53
16 51
la u
la w
17 40
ar o
14 93
60 2
se a
ma de
90 4
is m
49 6
49 8
44 3
na ment
ci o
us er
St or
Ra il
Fa mi
MA N
Bo ys
Ba by
pro du
UN G
ko v
AG UE
LE AGUE
Gu ard
Je ff
Don ald
Fire fox
à¥ į
Ath lon
Memo ri
orig in
6 11
6 45
9 45
B as
C 1
C r
C en
C BA
D EC
E a
G W
Q U
T AM
U 2
e i
t wo
Ã ¥
á º
li m
bi a
cu lus
15 96
16 32
16 79
17 18
17 35
17 45
17 58
25 G
ï¼ Ŀ
ãĥ ¡
90 7
ãĤ ģ
ãĤ Ĩ
to p
ci d
58 4
ss on
150 6
De ar
98 5
Vi olet
Ga ga
ment al
Sa mu
160 5
Si de
He alth
Fi sh
RE AM
Wil d
Cent ral
Dou g
Stand ard
Christo pher
YOSHI KI
0 50
4 39
5 33
7 31
7 32
7 41
7 62
9 62
A stro
A gain
C ree
E ye
H 3
I CD
K an
K ra
K ill
N U
O ff
R CP
T L
T it
T od
U CLA
W ood
c ine
n p
o me
p han
Ï ħ
â Ļ
sh an
di na
mo u
12 60
15 66
17 25
17 48
st en
ãĥ Ħ
70 6
ãĤ Ī
ãĤ Ĵ
45 7
37 9
to wn
75 6
55 3
67 3
57 4
57 6
au lt
Al an
Vi sion
os aurus
97 3
Ca pital
An na
Gre g
Jack son
Alpha Fold
Oper ation
Fleet line
Aven ue
Angela baby
5 16
6 17
6 39
7 22
7 35
A k
A na
B un
D U
E cono
G aon
H MS
N an
P 2
T ower
c ter
h al
n ers
s ou4
s ay
t ch
x a
á ¸
li ty
er gy
we en
20 50
qu id
15 28
15 72
16 52
la de
17 27
17 61
13 68
ãĥ ¯
ãĥ İ
35 6
70 4
48 2
65 5
In fo
br ary
AR E
ga te
mp son
Ba i
end s
BL E
Col or
lin k
Har ry
ess or
Eng lish
Gar den
Jon es
Ander son
Eliza beth
Commit tee
0 10
4 47
8 63
9 26
9 61
E pi
H ero
L X
R ATP
V P
W W
c ta
c ity
i ra
k it
de fea
bi rd
lv a
15 31
15 38
16 47
16 81
la st
on al
ra m
80 3
70 8
ãĤ ĥ
45 2
45 3
the y
65 1
be d
Co ok
58 6
57 2
Ro s
St ro
150 4
ED G
AP G
Be yond
IC A
do or
Ba sic
ali s
170 1
Ste phen
Pi e
Qu a
wor d
Col span
HO ME
igh ts
App li
pri se
cc ff
cc ccff
Pre ss
Dis co
Twit ch
Pat rick
Wo men
FIN AL
4 38
5 11
9 33
A pa
B ow
I LE
J es
R ad
S NC
b and
g as
h ang4
p as
v ity
Î ©
Ð ·
Ø ª
ì ļ
de i3
xu s
ni cal
15 30
15 37
la ti
17 36
ar di
ï¼ Ĩ
60 3
80 8
46 1
46 8
68 1
Re a
Me ga
Al f
fi sh
ON G
sta te
170 9
Car l
Ke vin
Sou thern
Game Spot
Ab du
Java Script
spe ci
fra me
Prin ce
Direct X
fun ction
Moder n
5 41
6 29
6 48
7 25
B 3
C AR
D or
E LE
M bps
N N
N PC
P 4
U RE
i des
p et
Ñ ħ
en se
mi e
di re
su ch
su per
zi ng
cu i3
15 19
15 29
15 55
16 87
17 28
te am
ãĥ Ŀ
90 5
48 4
65 3
Ma h
be fore
55 9
49 1
67 9
OS S
79 6
Sa f
Fa ir
MA D
Si lver
Con cer
Th at
Par is
cket t
UR L
AO A
Spo tify
cture s
Plan et
ASC II
Omega T
Mitch ell
Yah oo
3 G
4 23
5 36
6 32
7 15
8 25
8 33
A la
A rea
C AL
D 9
E ri
F ly
G RO
K 2
M oney
R DS
V is
a po
a te
b h
h uo1
s ci
w art
er on
20 35
lv in
11 20
po li
17 67
ck ing
es a
Ma ker
Ch ro
Ch rome
47 3
49 2
66 1
Ro bin
au to
56 2
Li ber
De ad
De bian
Le o
Vi a
Se e
La ur
bu cket
ho st
An n
An th
An ne
PS 2
Con ne
Fe de
Ed die
TR A
Coun tdown
Zi co
sig ned
TOK YO
Violet ta
3 39
4 29
5 32
6 65
7 75
7 69
A x
D 5
D al
H and
J I
P ur
R 1
R F
S 3
S NS
e g
f low
g ia
m bo
w y
w is
Õ ¡
mi e1
12 20
15 45
16 64
16 59
17 19
ar tic
14 95
14 96
13 88
th or
70 2
70 3
Ma in
ST ATION
68 9
69 2
un der
Mi x
Ne u
Ja co
os o
ent al
ment ary
ER S
ha us
hi m
AN D
An ti
gra phy
gin s
Ste ven
Ph y
Ju an
gen e
IF F
Ani me
Hen ri
Fo x
Hum an
Frame work
4 34
6 36
7 29
7 61
8 78
A us
A ction
D in
E 1
E 231
G ot
G EN
J ay
L 2
M 5
P AGASA
R K
T oo
Z ERO
b ble
d as
e b
l f
o li
y d
Ð ĳ
Ð ľ
Ñ Ĩ
ì Ĺ
le u
ti er
15 46
15 49
15 62
16 70
16 90
16 54
16 53
16 94
17 59
14 66
ãĥ ¢
80 7
70 9
il o
45 8
lo ve
46 3
55 5
59 6
66 2
57 8
St ri
Li ke
Mi chel
con stru
Ha ppy
Bu ild
shi on
Inter active
John ny
del la
fli ght
FA ST
Ken ne
Cour t
HTT P
Samu el
1 2000
5 27
6 38
6 69
7 12
7 11
B P
D REAM
G on
I MAX
K 11
K ha
L V
L ind
N am
N CC
R SA
S r
S ay
T hi
W ell
c z
c li
c am
e f
k on
l le
p tion
s an
u i
u ld
Î ¬
sh ell
xi s
qi ong1
le m
su ng
ni u1
qu a
cu lar
15 58
15 81
17 38
14 74
13 75
in k
me t
Ch art
ST AT
47 7
68 000
AT E
59 5
59 8
59 9
99 7
ga me
Ja c
160 8
He in
den ce
EP A
pro gram
sy n
EX ILE
GP L
im port
Vo ice
Star s
star s
Gal ant
NM B48
5 21
6 28
6 22
7 21
8 67
8 77
9 65
B Y
C are
F 5
F on
G y
I ta
K ur
O ST
P r
R X
S us
S UP
S ource
V EN
W P
Z Z
e ng
p pi
p ti
s ka
yu n
li fe
gu ang4
su m
12 80
tu ra
âĢ ³
16 65
la d
17 32
17 44
17 56
14 89
14 87
13 40
th al
000 rpm
ãĥ ĵ
el le
90 6
ãĤ º
45 1
Ch ill
St ru
id ae
Al fre
Sh ar
Se curity
Da ve
wi ck
Play er
Wil son
Fe li
gh ts
Per son
Fore ver
Moun t
SHO W
Bus iness
2 nd
5 19
5 17
6 24
6 23
7 98
8 35
8 76
9 38
9 54
9 51
A bu
B 9
C AP
D 3
F w
F lo
G DDR
H op
H ans
I MD
L CD
N er
N IC
Q t
T al
Y F
Z en
f an
f ree
h at
u de
u sed
Ð ĺ
ð ¤
de a
chu ai4
wo n
wo uld
15 24
15 32
15 84
16 58
16 57
16 99
17 62
13 37
mu m
al lo
ï¼ ŀ
ra s
se ed
ter y
47 2
47 4
64 9
49 7
68 7
68 8
69 8
57 9
Ro ber
78 4
man i
Jo s
Pro to
ht ml
gi e
140 6
DS P
Car los
tel li
à¤ ¾
ye ar
SH IN
Hol ly
âĺ ħ
Publi c
sca pe
Tou ch
MON STA
Compu ter
Smo sh
Sma ck
Apa che
0 54
6 16
7 19
8 65
9 46
9 88
D H
D ur
G 1
H 4
H 10
H at
J et
J ona
R yan
S b
T ake
W it
W HO
X G
d le
g li
g na
l uo1
w ri
Ã ¦
Ï Ĩ
en ne
li b
mi cro
di g
we l
ti e
du s
lv et
po wer
16 68
17 39
17 64
for mat
ma il
300 00
78 7
Li brary
pa th
So cket
so ck
PS V
170 2
Th ere
tt en
LL VM
row span
way s
bre ak
Sen se
Fan ta
Smack Down
0 52
4 21
4 37
6 14
6 26
6 37
8 15
8 16
9 75
B ran
C ard
E cho
G F
H os
I f
I ce
J P
M ore
W ri
Y A
Z O
a fter
c ca
d an
d one
g am
j an
n st
t ar
u k
v as
Ð ł
ë °
de pen
mo st
00 00
12 75
15 36
16 75
on o
14 64
ra d
ra i
se e
ma jor
45 5
lo ck
IN D
nd a
67 1
67 8
Sh er
Te x
Fa shion
170 5
ari o
Lin er
TO WN
Gi ovan
Blo od
She et
Intel lig
KK BOX
Champion ship
Lang uage
aly sis
Prof essor
Christ mas
Alfre do
5 42
6 34
8 21
9 12
C IT
C fb
D X
H PV
M OS
M IT
N XT
S Y
S ter
S IM
T ig
W H
W er
W ing
W olf
c l
c rea
d f
g lo
g roup
i la
i ma
k ra
m me
w ind
Ï ĩ
â ģ
ã ħ
ì Ħ
ch es
mi ao1
bi s
15 63
16 17
16 63
16 85
la k
17 53
14 77
13 80
mu lti
st ance
50 3
80 9
ãģ İ
ãĤ ½
48 3
48 6
as y
75 4
65 6
be at
be ca
The at
67 6
AT X
SA N
78 5
56 1
NA S
AR K
AR P
AC H
Se cond
IP TV
AN G
Bo ard
We stern
Fi le
Fi eld
od on
à¸ ²
ani c
UN ES
gen cy
Hi p
Fran ces
Mor ning
Bra d
RC A
Colle ction
Space X
lea se
Mel on
Cir cle
Mis sion
Crea tive
TW ICE
Clar k
Indu stri
SUP ER
2 DS
3 M
5 18
5 26
5 66
7 16
7 14
7 65
7 64
7 44
8 26
8 47
9 18
9 36
A er
A fri
B au
B all
B NO
E U
E ve
F all
G I
H ere
I a
M RI
P ere
R P
R ight
R ank
S UN
V IP
W TT
Z o
a w
h ai1
m ph
v ari
Å Ĥ
Ù Ī
â Ĭ
ë ¦
ð ¬
ng th
sh ow
ch in
ch ed
chu s
10 24
16 69
16 56
16 72
16 92
17 54
14 20
14 80
te o
te en
the ir
at an
75 1
65 8
Ma ki
Ch ang
In te
ca p
59 4
St one
Me i
98 6
79 1
Mo ore
Sh ine
AM C
AM P
IT A
Bu g
ther e
170 4
170 8
Ni ck
AG P
Man u
ML B
Vo gue
Fu ture
DM R
logi cal
Archi te
Fron t
7 13
7 27
7 48
7 68
8 75
9 15
9 29
9 47
B IG
C YP
E BS
F rom
I SA
M ol
N ICO
O ME
R 3
R h
R ing
U F
W are
X III
e u
f il
o 1
x c
z an1
Ð ¢
Ø ³
an te
li k
bi e
le v
pi a
10 75
00 2
00 4
12 77
12 79
12 76
11 11
14 40
14 88
14 72
13 71
st ory
ãĥ §
90 2
48 9
69 9
99 2
88 1
98 1
con tribu
AP M
160 2
do m
ok ia
com mercial
Inter play
cro ss
AI M
RE AS
Wil hel
Au dio
CR H5
Wal ker
bur y
Ver sion
Wo ng
Fil ms
Ji mmy
Swe et
Distri ct
Buil ding
0 30
6 33
7 78
8 12
9 55
9 57
A zu
A ce
A sian
C 3
C 14
E Y
F ol
G 2
I an
J alan
L NG
L IF
M IC
N Y
N int
P OS
R and
R SS
S il
S AT
S id
T ha
T NT
V IS
Y i
c u2
c en1
d 4
n ar
u te
Ã ½
Ø ¨
Ø ¯
li er
pi s
bo 3
bo v
ku ai3
12 30
po lit
tu ry
15 27
16 11
la t
ar ray
re la
ri x
ri an
ri ce
ro ad
ce ae
ãģ Ľ
ne st
48 7
ve ment
In formation
55 8
68 5
vi o
vi ch
ca te
pe d
57 7
78 1
per t
Al len
Al bum
79 2
79 4
CO 2
Sh op
AR C
Di ck
Si x
Wi MAX
shi re
Ge mini
En ergy
Ste wart
112 2
RE S
ES PN
Wa ve
Tri ckett
min al
Wh ere
Tho mpson
Por table
Ve lvet
ele ct
part ment
sm all
ìķ Ħ
Thunder bird
Jona than
ð¬ ĵ
Nint endo
0 70
5 43
6 15
7 17
8 28
8 39
9 39
C el
E 2
E di
F D
G G
G r
H il
H art
I so
K S
K or
L en
M ED
N 1
O l
R Y
S 7
S port
T D
T w
U FC
V 1
V 2
Y an
a ting
a bout
d ri
g ran
i k
i or
z zi
ã İ
ê °
di ne
le e
ti l
ti ful
qu ali
15 12
15 41
16 66
17 21
17 26
17 37
17 47
17 43
17 41
14 30
25 000
for mer
st r
el y
ne u
ter o
48 1
is on
na tion
ba sed
67 4
vi er
69 7
88 9
Li quid
De uts
98 2
98 9
ly n
fi ni
op s
gi on
PC R
à¸ Ļ
AV E
tt le
NH S
Gra ce
Or g
Gen e
Mat ch
Enter prise
hy th
Sur f
enti um
Production s
Sto p
Pin k
ado x
Bru ce
fol low
Doug las
2 TV
5 13
8 46
8 66
8 57
B 12
B in
G au
G ary
H Y
J 1
J XG
L un
M g
O culus
P entium
T r
T s
W M
a gain
k Hz
s po
z an2
mi um
gu s
zhu a3
12 17
12 74
15 15
15 42
17 12
17 11
17 15
ar chi
14 35
14 56
13 28
13 85
for man
me di
ro om
te au
ãģ ¶
48 00
is er
IN T
34 00
Re v
ba ch
pe i
Ro ger
150 9
Li e
Li st
Mo tor
Wind ow
Sta ff
IS C
Lo ck
97 1
Pa ge
AS H
ka i
fe ct
Net scape
IG HT
gen er
GP 40
bri d
bri dge
hy dro
face book
Prin cess
Ten nis
SHIN ee
0 55
2 B
6 47
7 28
7 26
8 11
9 13
C Z
C CD
C OS
D N
E very
I ng
K N
S now
T AI
W all
Z ero
f ig
t ran
Î ¯
Î ¶
sh ark
le in
ti t
chu ai3
11 50
or bit
15 44
17 57
14 24
14 70
14 54
th rough
ri er
29 00
si l
se u
se ts
ma y
90 9
45 9
37 00
75 9
ST ER
Co ng
II T
ci sion
67 2
58 2
AT S
59 1
99 3
SA P
au n
Mar s
Lo st
Si e
Bu zz
Ta c
DS L
pro ject
Fran ce
Univer sal
ham mad
âħ ¢
IM F
Dra ma
stru ct
Eng land
CG TN
Lou ise
Mer cu
add r
Anto nio
CDMA 2000
WOR LD
Alli ance
Rep Rap
Holly wood
8 23
8 29
9 27
9 35
A 5
A ve
B ol
E y
E mi
F 7
F l
F our
G IS
J C
J ason
K am
K now
L MS
L PL
M ou
O ly
S ang
T B
U SE
W D
e xi
f it
f ts
m and
m pic
p rin
t ent
w at
mi cal
bi g
er t
le dge
12 35
12 64
tu p
or der
15 54
17 22
17 34
17 66
14 71
13 30
13 90
ra nge
ãĥ į
ce i
60 9
the m
65 2
65 9
Ma xi
Ma ke
Ma gn
The o
Re mix
69 5
57 3
78 3
ber ry
77 1
per ia
Le i
Sh ot
Ar ena
Ga te
Di vision
Uni t
ster s
âĪ Ī
Ad ven
AA A
DO CO
Par adox
Red dit
Ac tive
par ti
Ben ja
Bro ok
Bro thers
Alpha Go
sor t
uni que
Engine ering
Rain bow
ECT ION
tour nament
Kel ly
Cree k
defea ted
Concer t
Maki yo
Surf shark
1 180
3 100
5 29
7 24
7 36
8 32
9 32
9 67
9 76
B EST
F 6
F G
H M
H Q
K A
K r
N 3
N ON
O L
P ia
P RE
R AD
S RAM
U 16
V CD
X Y
X i
c our
f eld
g ood
m ary
n ch
n el
o is
Â ½
Ã £
Ï Į
Ð ŀ
× Ļ
ð ¡
de ri
gu n
bo ot
su l
ni g
15 57
15 51
16 55
16 78
16 96
17 46
17 49
ar ma
14 75
14 41
14 84
13 99
ri son
ta il
75 2
be ing
Co oper
68 3
Ro b
St r
Mar sh
87 4
AC S
sta tic
140 2
gra ph
à¸ ¡
Pe ace
cy clo
Sy m
CR H
BM T
Hu lu
All stars
Hol dings
Spi n
Bro ad
GM MTV
VO CAL
Val ley
ord an
Pala zzo
IPv 6
Elect ronic
Premi er
PEN OME
Mercu ry
DOCO MO
PENOME CO
6 35
8 64
9 31
9 37
9 56
9 72
A y
D am
E dition
F ren
F IR
G it
H ad
N L
N AT
P RI
T ed
T ang
W id
c co
i st
k n
k et
t ta
x on
Ã ĸ
Å ĭ
Ñ Ī
ð °
sh o
di stri
bo t
mo tion
ni k
10 20
10 10
12 66
12 61
po st
po em
16 41
la v
17 51
13 46
mu r
th od
th ree
ou l
ãģ Ń
ne tt
and ra
ck en
TC H
ol s
ca u
Ro ss
99 5
88 4
88 5
88 6
De an
Mi ra
You Bi
Mo de
IS P
IS S
Da vis
Da ily
mer al
Pa ci
so cket
He ad
Con trol
Wor d
Car o
wa ter
AG M
ence s
ron o
M1 A2
Nor d
CL OS
Ac cess
CS I
Coun ty
YO U
Sam sung
mat ch
var ia
Bir d
long i
Wat ch
Beau tiful
Mill er
Origin al
Augu st
user name
Giovan ni
Theat re
Wilhel m
Tw ins
Benja min
0 60
5 64
6 64
8 17
8 31
8 53
9 19
9 58
9 42
9 59
9 79
A cc
B ak
F K
F NC
G as
G UI
H g
I sa
I ATA
J B
K ore
N el
P U
P X
P it
P DF
Q R
S chu
U CC
W inter
Z u
c tus
f ran
g b
h d
h ong3
h on
r ong1
w al
w ing
x e
Î £
Ð Ŀ
de t
yo ur
di ffer
12 84
12 91
202 9
16 73
17 13
14 25
14 68
13 82
me mber
si te
lt y
ãĥ ľ
80 4
ãģ ©
co la
38 00
65 7
Ma de
In f
be ta
na ture
ci ous
vi rus
AT I
De lta
De partment
CO NC
AM X
AR I
87 3
120 4
ke e
IC C
Fa ctory
mer s
so ng
ki e
à¸ ±
Ni cho
Do cu
Lu is
fa mily
CR 400
Ser vices
SP A
ori es
Dis c
Mor gan
stri ng
Wh it
ens or
cre en
Fla g
Tru st
fin al
Inv est
How ard
pres en
LAN D
Sm art
Edu cation
ession al
Fede ration
contribu tor
seu do
5 69
6 31
7 88
8 27
8 45
8 52
A 330
B 7
B our
B MP
C in
C all
E ss
E van
G 6
G IR
I Q
L ane
N at
N okia
R ER
T TC
Y S
a f
b ber
e la
g a3
h p
i bn
m 2
n ell
Ä ĥ
ì ĭ
ng i
pi e3
qu et
12 27
12 83
15 39
16 95
16 82
17 10
ar an
14 81
13 56
mu sic
ru e
st ad
st amp
ri l
si r
ãĥ Ļ
se o
am ba
ta u
ãģ µ
el li
and o
Ma te
Re gu
44 1
67 7
69 1
ur s
99 1
St yle
Mar ch
79 7
89 7
da le
AC G
AP S
Sa lv
Ca li
Si m
by e
140 5
SM O
den ti
EN D
170 7
Ni ke
112 4
Ki wi
eri c
MI R
cha ft
line s
à¤ °
EX O
HS CR
Asso cia
wh at
DK Z
Dou ble
Song s
coun ter
Rus sell
Premi um
Wire Guard
Num ber
Disco very
Nicho las
0 20
3 166
5 23
8 42
8 41
9 77
A Y
A p
A 320
D 4
E B
G ru
G RE
I ni
J in
J DG
K w
K un
L yn
M n
N on
O 305
P 10
P il
R an
R yo
R MS
S at
T EP
V HS
W C
W right
W 3C
X M
a es
k ha
Â µ
Ã °
Ã »
Ð ĵ
ng o
an us
ji to
hu man
di c
ti um
mo thy
ni n
10 66
12 41
12 95
11 30
14 33
14 49
13 76
th ro
th ird
me o
si mo
100 1
ta x
ãģ °
ãģ Ķ
ãĤ »
46 2
Ma j
Ch er
Ch in
Ch ange
Ch alle
In dia
ba i
ig a
69 6
SA E
au ri
78 6
56 3
ed om
98 3
Ne il
no s
Ar ray
PC S
fe e
fe at
170 3
EC E
Ho pe
go v
ari us
Pi ctures
CH O
And y
AD A
Gu y
Go vernment
Hu b
Pri ze
Cl 2
time stamp
type def
Es meral
Free BSD
Tai pei
Sing le
Vir tual
Talk ing
bet ween
Stadium s
Advance d
Dro p
Memori al
Anth ony
Jaco b
Esmeral da
4 D
7 49
7 66
7 99
8 38
8 44
8 43
8 54
9 68
B 5
B 6
B W
C andy
E v
F B
F r
F aker
G 3
I Z
I mp
I ron
J ordan
K iss
L as
L ow
L oo
O BE
P l
R d
R IA
S core
T as
T REAS
W B
e du
f le
g os
g ger
g irl
h or
p ay
s eries
¸ ©
ì Ĥ
zh a3
de c
su lt
mo un
12 90
12 65
12 62
12 86
cu t
or ia
la ter
17 29
17 42
ar ia
14 38
14 59
in er
ï¼ ĳ
ãĤ §
ãĤ ħ
he ight
Ma p
Re Mi
us s
66 3
id o
Me e
Al ber
Mo jito
AR S
Se p
AP EC
So ph
Di plo
Na ture
Ri ck
Ha w
Ni k
Do ReMi
RO R
Or der
ser vice
Fu nd
ex e
lyi ng
mar ch
Coun try
âĹ ı
BLAC K
Shi p
fri Day
Lis a
Johan n
Hun ter
dou ble
Sw ing
tru e
Austra lian
ðª ¸©
prote in
SNC F
Jac ques
B9 TL
TREAS URE
1 190
2 K
7 18
7 33
8 37
8 79
9 28
9 22
9 48
9 66
A 9
A Z
A da
B os
B len
C 7
C BD
F OR
H is
H ell
K L
K y
L SA
M un
N ess
N RA
O C
O u
O ce
O BC
P ha
P ET
P DP
R ED
S 22
S ant
T in
T es
U HF
W oo
c eng1
c amp
f x
f ar
g ot
p ass
â Ł
ì ł
li d
li ps
pi d
ti tle
bo y
10 40
12 40
12 70
po l
po inter
15 99
17 17
14 47
13 69
13 73
mu nd
st and
re t
si ty
ãĥ ļ
se nger
am ber
ãĤ ¶
lo ok
and ro
75 3
Ma k
ad or
99 6
88 2
88 3
Li ving
Le vel
Le wis
BA S
BA NG
con ne
da te
va lu
fi re
-- -
MA G
We i
140 3
Con ference
AS P
MP EG
112 1
Car ol
lin s
IF PI
Pri ce
YO UNG
PE G
Cra ig
Far ms
ICO CA
DAM P
gre en
Ven tures
Ur ban
aso nic
depen dent
1 x
1 198
7 46
8 19
8 14
8 13
8 24
8 51
9 64
A no
C ow
C ERT
E p
E mer
H ur
K is
K han
L lo
M bit
P ed
P sy
R al
S wi
S py
V L
a ve
e ar
g ge
g ro
g ers
o va
w are
á ŀ
ê ¸
ì ŀ
de ra
ch ang
we i
le b
zi e
12 19
12 54
16 76
la e
la h
17 14
14 29
14 34
14 44
14 62
14 51
14 83
13 64
13 91
mu se
st ed
ï¼ ¡
te c
te k
se qu
ta ng
co mo
co nv
lo v
lo sing
Ma lay
SE N
Co le
II c
Re ich
Re volution
59 3
De li
CD R
77 4
ak h
89 2
89 5
Ra di
IS IL
va tion
Mu l
140 7
Wi se
od y
à¸ Ń
pro vi
wa ii
Ex tra
Qu in
Hi ME
Fran z
Mon o
ref er
Dis play
sing le
ex ample
ãĦ §
ãĦ Ľ
DD 53
stru cture
Hel en
Pla t
Kar en
mini stra
PH P
Ob ject
Cap tain
map frame
Get chu
Gor don
inte ger
NEX T
Spiri t
Abdu l
Azu re
VOCAL O
Paci fic
3 rd
8 62
A z
A ss
E 5
J ar
J AK
K 10
K as
L os
N y
N 64
R D
S OS
T 7
T wi
U s
V G
W ol
a ter
c ry
d ol
f al
g or
j k
k ir
o su
s v
mi R
we d
du n3
su p
10 86
12 25
12 24
12 58
po t
po lis
16 86
14 86
14 97
13 10
13 29
ï¼ Ĵ
ta ge
the ory
he d
Co lo
Co ol
Re public
ir on
pe ople
AT H
69 3
ph one
id os
Li p
De ath
Mar t
98 7
BA C
AR A
89 6
Ne xus
Se an
Ra b
Ra ja
Ga ming
hi cle
110 8
com ment
140 4
Ge m
For mation
No va
âĪ ŀ
my s
Ex peri
AV C
Fe a
DC T
sy s
NO ME
Du al
Pri x
Ber g
Che e
SD K
bur n
cle ar
Mat t
vil la
Pat ri
Vir gi
âī ¥
Lis p
Oper a
Francis co
Victor ia
Pho to
Prof essional
Cast le
Sca la
apo re
Ner f
LIF E
Fren ch
VOCALO ID
0 40
0 80
4 x
6 A
7 23
8 500
8 58
8 59
9 14
9 34
9 44
9 69
9 53
A de
B li
B GM
C au
C rown
E MD
F it
F RAM
G ay
G len
G NOME
H ou
H au
H IG
K ak
N 4
O G
O Z
O ur
P ST
P AL
R R
R it
R GB
S cor
T ot
U l
Y ellow
Z h
Z n
Z ICO
c ir
f ur
g ing
i x
i le
n am
r ence
u int
v et
Ã ¯
Å Ľ
Ë ĭ
á ¼
xi n
mi li
er ror
di ca
ti nu
ti mes
bo l
00 3
12 36
12 78
12 63
11 40
âĢ Į
17 16
14 42
14 78
13 60
13 65
13 33
13 41
st art
st ream
ou ld
lo cal
Ma la
ST EM
The od
ad ow
AT M
78 2
Li te
77 2
77 9
Sh ell
89 1
120 8
Se x
Ra cing
IS IS
So cial
Bo dy
ot t
Ha ve
à¸ ŀ
Pe ar
AI L
Car ter
Ki ii
And rea
SO 3
BO RN
can s
TE EN
Ad d
Hu g
Bi li
Pre si
PP P
Fu ll
Bla ir
mb H
Day s
Hy brid
OK A
BI OS
At lan
Ter ry
Er nst
LGBT Q
Ger man
Part ners
Fore st
Fro llo
dou bles
WI SE
sist ant
Bil ly
Ret rie
Qui ck
Cen tury
Alf red
Fanta sy
0 12
1 194
8 34
8 49
9 41
B ye
B WF
B OSS
C AT
D AI
F RE
F IA
G U
H ig
J J
L ook
O re
P b
P lu
P un
R as
T ak
T ensor
U ta
W ang
W AN
X peria
c tu
f s
i ca
n n
o mp
p pa
u lar
v ant
Å Ħ
× ķ
Ø ©
à ¼
ë ĭ
ì ĺ
de z
zhu n1
10 30
10 99
12 21
12 72
15 33
16 98
16 71
la ri
14 13
14 43
13 58
13 96
re cor
co le
lo ad
Co me
99 8
78 9
CD K
77 3
Le g
Pro te
120 6
Ra zer
fi gu
Su ite
Pa per
che ster
shi ps
our ces
EP HE
HK IFF
MP I
ari an
pro per
ani zation
Com mission
lar d
Ko ta
SC I
Char lie
UT F
Sing apore
Min ute
lit ary
Cal li
oper ator
Bob by
ðĲ °
âī ¤
Sor ana
Stan ley
ev ent
posi tion
Dyna mics
íķ ľ
AMO LED
UNES CO
OBC s
1 189
8 18
8 48
8 69
8 99
9 16
9 17
9 49
B is
C s
C ream
D 7
D card
E c
F ellow
G SM
G mbH
I van
L ol
M 24
M ine
N EC
R M
R y
R ID
S na
S wan
S creen
T ER
V AL
W u
X 2
a sh
a di
a la
b ad
b ell
c are
e ch
g ne
g il
i ning
j our
p ak
r t
s ar
Â ¥
Å Ł
Û Į
à ¨
ê ¹
ë Ĥ
ë ŀ
ì §
de i
ch an1
li con
we e
le ar
le ngth
10 60
12 11
12 34
12 46
11 10
11 47
or us
15 48
14 58
in es
in us
st el
st ore
si i
ra ng
se mi
ta b
ãĤ ¡
he s
Ch at
500 rpm
SE M
Re view
ci pal
vi c
vi d
Ro th
99 4
88 7
St ray
150 3
79 3
Mo vie
BS I
con trol
Ar n
Ra i
fi nity
ED 79
-- --
os pace
IC S
Lo gic
ID S
Na tion
bu g
sta tion
so le
IT Z
od d
à¸ ´
RO CK
112 3
Sch i
my TV
Lu d
Lu cas
And r
MO ON
CR 300
ina e
BD SM
lar ge
Ke ith
PP TP
Gra phic
119 2
Boo m
Pan asonic
Fer n
Mr s
NE WS
Em pi
sor ted
Hill s
logi es
Cle ar
shing ton
Mach ine
Ami ga
Cul ture
Dia mond
Appli cation
ð¬ĵ ĭ
ãİ ¡
forman ce
Retrie ved
8 68
9 74
A e
A di
A ff
A stra
B V
B b
B lan
B aker
C 96
E 9
F lu
F lip
G 4
G 9
K F
K ara
K EN
L MP
P ER
R G
S pa
V En
V IE
Y ang
Z E
Z one
a a
a is
a cid
d al
e V
f our
f ying
g ri
g ang
j n
k t
l k
l ao
l ou3
n h
v ol
â Ĵ
er ra
le i
le ction
ti i
zhu ai1
10 27
10 70
10 49
men to
qu ar
00 6
12 32
lu n1
16 74
la us
la mb
14 48
14 39
14 67
13 45
13 86
13 92
13 93
ri es
ï¼ ľ
te mber
ãģ ļ
co ver
the ma
65 4
Ma gic
Ch en
Ch ie
Re g
na h
St ring
Li TV
De vil
Le ga
Vi lade
AM R
Ar ch
Ar my
IS H
IS M
La b
Su e
Da le
hi bi
IP A
IP O
Si licon
ki en
PS 4
à¸ ª
AL A
MP 3
US H
Th ree
Ex change
MI L
TE E
BM G
DR 2700
dy na
Wa shington
106 46
Har old
Mor ris
TS B
Hol land
LC K
UC I
LP DDR
LT TE
LS ST
bor n
Tur bo
Gran t
sche ma
stre et
Sche me
read s
Villa ge
mou th
Info com
ELE VEn
artic le
GDDR 5
F7 F
NON O
Str v
Kak ao
Vilade cans
4 200
9 63
A TC
A vi
B am
C AM
C ana
C ell
C BE
D au
F ay
H 6
H 9
J K
J IS
K V
K al
K re
K ris
K lein
L ing
M 60
M all
N TT
O RI
O wn
P 5
R 9
V Y
V CR
c les
c ator
f ly
h and
h man
i ta
o bov
s c
v re
x ml
z one
z oom
Ä Ľ
ë Ŀ
an ts
en cy
bi l
di d
10 12
10 17
10 63
00 5
12 14
12 29
12 68
12 42
12 53
12 71
11 60
11 35
16 77
16 91
14 19
13 24
ãĥ ´
ãĥ Ĵ
ce p
ta le
fo ot
co gni
ma le
ma ke
39 00
Ma jor
SE T
pe x
Mar gar
ang le
der al
ak o
Sh ang
Sh ah
Jo is
87 1
87 2
va ge
ED A
Be ach
Na tural
AN SI
ho me
so lo
IT U
130 7
140 9
ther ine
à¸ ģ
Do ctor
pu l
Ju lia
Qu ar
Qu ali
Ka i
Ka te
And re
MO MO
Fe ed
DR 2800
CE MS
Nor man
Can ada
Sing h
lli on
Sco t
Direct Show
cen se
Ob ser
mark er
Ray mond
Cer ti
Bre ak
Medi cal
Oli ver
Vin cent
JU MP
Bern ard
Rad ar
Saf ari
Tig er
ë¦ ¬
follow ing
Oly mpic
YouBi ke
HIG H
à¼ ĭ
2 n
7 34
9 K
9 43
9 52
A 7
A ar
A ge
A st
A pri
A 380
B f
B row
C 9
D 6
D ir
D ass
E I
E idos
G all
G round
J S
J Y
J un
K M
M 9
M 10
N FC
O x
O tto
S BL
S pen
V la
X I
Y E
Y es
b g
f l
f ron
i an
p ad
p lex
t hu
w ig
w ald
x 2
z el
Å ł
Î Ľ
ê µ
ë ¹
Ĭ ¸
an ia
ch s
ch ild
yo ga
le ct
pi ao3
ti us
bo th
du le
mo de
ku n
10 59
10 56
10 54
00 8
12 59
12 52
12 97
12 82
14 15
14 26
14 76
13 49
13 63
13 97
me a
ro ot
si k
ra p
ce a
ne o
at s
ck ers
to l
Ma th
Ma il
Ma cro
In die
In dian
be ar
Co mm
ba ng
ver sion
69 4
Mar cus
ï½ £
AM A
AM G
ows ki
Te ach
Te mple
Ga bri
ga tion
IC T
Ca pi
Ca the
AN N
Mu ni
An ni
130 8
Fi ve
ther a
Ta ble
gin a
Inter march
Do g
No v
CN J
Ex ample
Ju li
Qu an
Qu ad
Ka th
eri e
MI X
Gu sta
Fe el
vel y
Har ris
240 ZJ
Gi ve
EE Z
min or
SH IP
Gen ie
sto ck
ac ti
ffi ci
Spe ed
King dom
Fri ends
Dire ctor
stro ng
IO C
comp lex
dro p
á¹ £
plo t
coun t
Sc rum
live door
Sche ma
TG V
Tol kien
Hea ven
Chro mium
eb ly
Kenne th
Rober ts
Hos pital
polit an
rela tive
Virgi nia
Lega cy
1 195
8 98
B 4
C AD
C BN
F lying
J D
K ol
K TV
K SK
M s
M 12
M ET
N f
N g
P ao
R ant
R oom
R hyth
U G
U H
U 15
V il
V as
W DF
a va
b ara
d os
e h
g r
g it
k le
o id
p f
q uo
r s
s at
w ang
Â Ń
ð ł
ji n
de ll
li ni
li ca
bi no
pi o
pi ne
ti ger
bo ra
zi o
ni an1
10 19
10 11
10 15
10 32
10 47
12 12
cu re
la ce
14 12
13 14
13 13
13 94
st ris
re g
re l
re tt
si m
se c
100 6
ãģ ³
ãģ »
ne i
ãĤ Ģ
at ten
ck i
46 00
ST D
In di
Co nv
Co ver
ci an
Ro cket
per a
Mar c
98 00
Vi ctory
man u
ran ce
Da i
Fa te
An ton
We ebly
wi ch
are a
à¸ Ķ
Ni ce
Th or
Th orn
Do mini
For th
112 7
AK E
pro to
Lu cky
Lu mia
SO 2
land s
TE 1
TE AM
Mon te
NO 2
ye ars
Game Cube
IL D
280 ZJ
Bra cket
Cy ber
AF I
119 1
Por ta
Pla za
lip se
enti al
Tele vision
Cra zy
Far m
Dan ny
Fre de
Gener ation
à¹ Ģ
mark et
Hist ori
VV VF
teri al
mod ore
Il lu
Sara h
Ora nge
16V 280ZJ
flo at
Fish er
Tod ay
Stro ng
lati tude
Hein rich
IMD b
ê° Ģ
kn own
longi tude
TTC N
Ryo na
Blen der
Margar et
+ .
7 100
8 22
8 36
8 61
9 24
9 23
A IC
A ero
A gency
B 8
E volution
F PS
H H
H oo
J ere
K 3
K ING
L W
M 1895
P el
P ak
P ris
P ari
P ART
R oo
S d
S mal
V u
V ul
V ille
W en
W es
W ings
X 1
X S
Z FC
a ted
a ign
b l
b son
b rea
c all
d ar
e es
f ound
g 4
h ara
j p
j ar
k V
k as
l ong4
p ta
t 2
w s
x 3
Ï į
Ð £
à §
à ¯
ð £
de sign
de lta
ch ara
ch ani
bi r
20 31
ti g
du ring
mo ni
mo te
zi n
zi p
10 18
10 16
10 35
10 72
12 44
12 99
lu te
11 70
11 39
po ra
ar is
14 21
14 55
14 61
14 85
13 000
13 55
13 43
13 87
13 72
ru ng
me ta
me thy
ri d
ri sh
si ca
ce pha
fo o
ãģ Ŀ
el se
of fi
at t
ck e
as ons
Ch amber
ST s
SE P
The y
44 00
42 17
59 2
au f
ed s
Le c
Le ar
AM E
Pro per
AC P
IC AO
IC HI
So da
Da wn
Ca lvin
com pon
130 4
PS Y
140 8
Wi de
Bu l
sion s
ET S
EN U
Ta ste
go vernment
Do ng
For um
112 5
wa ve
Ka iser
Com pa
Com modore
Ad rian
Stu art
à¤ ®
Du ke
EX IT
mic ron
MD T
On ly
UR N
As se
Ab ra
Fri end
Produ ce
now ledge
EM U
GM M
Cla ude
wh en
Fre edom
Hor se
fin als
PI ECE
Techno logies
Science s
Pas cal
Ham l
Rap per
ob ject
Dol by
sty les
Kir k
Stor m
UCLA SS
GRO UP
Aus tin
Proto col
Fashion TV
Aer ospace
BIG BANG
Drop box
Sep tember
Ral ph
Bili bili
ëĿ ¼
0 16
0 13
0 90
0 67
1 1000
4 B
9 F
A bi
A gu
A lv
A FC
B es
C m
F ur
F ine
G TE
G host
H SD
J oo
K um
K ang
K no
K ali
K AD
K DE
L I
L ay
L id
M ST
N ut
N TSB
O E
P 1
P BS
P IE
R he
R ET
T ARD
U t
V or
V ali
W an
W RC
W anna
Y ES
a ster
b ru
c 4
c chi
e li
e ach
e ffe
f on
g ori
h ow
j s
n as
x ys
z uo
Å ļ
Ë ĩ
Î Ń
Ù Ĥ
â ¼
ð Ĵ
sh er
ch ro
20 40
20 47
ti f
su n
mo ng
mo ve
mo no
10 46
men tation
00 9
12 18
12 15
12 47
12 43
12 56
lu n
lu ng
11 38
11 37
11 68
or dina
16 93
14 14
14 27
14 32
14 91
13 78
13 51
ge e
for nia
al pha
re ti
re cei
27 58
ri o
ï¼ ķ
ro y
ro ck
ãĥ ĺ
am an
100 2
ma to
ne z
ter n
at ta
Ma gi
In stru
be i
SE C
Ro bo
Ro sa
SA S
Mi ami
Mar co
Mar ine
98 4
ï½ ¢
You th
Sh in
120 7
Ar k
Ar m
fi le
Tu ber
Sa vage
Lo cal
Fa ith
Na vi
bu tion
IP CC
An sible
110 6
sa ge
130 9
170 6
à¸ §
à¸ µ
AL X
Ho y
âĨ Ĳ
112 9
Ex e
Ex ten
SO 4
BO T
mon s
118 5
Cor tex
IF T
à¤ ¿
NO W
LL C
Nor thern
Pre cision
tri c
Super ia
Spe ci
hy po
Ali ve
XX X
ð« ļ
Japan ese
SU V
Boy z
SN K
Zi p
Master s
âĳ ł
Yo shi
Champion ships
Pal mer
Sp ark
Nico nico
Cos play
Lar ry
Demo cra
Arti sts
Qua simo
ìļ °
telli te
Intellig ent
Invest ment
MIR ROR
ìĤ ¬
OKA WA
bg color
Frede rick
TARD IS
Quasimo do
0 21
0 65
1 N
1 202
5 100
5 400
7 43
9 600
A 8
C SP
C UB
C IE
E xi
E ven
E mily
E asy
F is
F IL
F ood
G HC
H us
H ori
J M
K W
K ent
K night
M w
M and
M PC
N it
N IST
O LED
P W
P AS
P DA
Q 3
R id
S 6
S print
T 5
W y
a se
a ta
a ble
b by
e o
f era
g au
g ly
g ren
h op
h ill
o 2
s chaft
t ty
t ja
u a
Ã ¹
Ä Į
Å ¾
Ë Ĭ
ì ĸ
li ch
qi a1
er ia
di se
le c
le z
mo sa
ni um
10 37
10 67
12 16
12 26
12 55
11 55
11 58
11 42
11 43
11 54
po ol
or um
ar es
14 18
14 94
13 47
13 67
13 74
in dex
ge ther
me thod
ï¼ Ĳ
ro t
si er
ãģ Ĳ
ãĤ ®
et ro
SE L
Re ference
pe ti
AT ENU
ard s
Sta dia
Se arch
Ga p
Be lie
ent ry
Sa la
Su l
Fa ctor
ok o
Na ver
Bo i
wi de
Uni ty
110 7
Ri ot
Bu ll
ET F
Ni x
Po cket
Ki ck
UN D
âĪ ¶
ting s
AV BW
ps y
Com man
Com mercial
AD HD
DA Y
Open MP
ja ve
Bi z
Bar ry
Per formance
Comp lex
SC s
Vo cal
lla h
Univer se
Mark down
Eu gene
Geor g
WTA 1000
Bra in
ï¹ Ķ
Can on
YP E
STAR SHIP
vs ky
NE W
Mas on
sch ool
Cry e
Studi es
Den nis
Pho e
cul ture
TI ME
Arc GIS
LU NA
Syn the
Pod cast
16V 240ZJ
Econo mic
Sus an
yun nan
fil m
Iso xys
Cong ress
tup let
CRH 380
Cali fornia
Challe nge
Oce an
Empi re
Cathe d
KAD OKAWA
0 18
0 23
0 62
1 B
7 39
7 63
A to
A ur
A IT
A mb
A bout
C ris
D ru
D as
E st
E va
G l
G os
H indu
K 1
K CON
P t
R ho
S VO
T on
V it
V AR
V Tuber
W TO
W RK
Z oo
d 8
e very
f lu
f ro
f as
h orn
s qu
s port
u u
u la
v 2
Ë Ĳ
Ì ģ
Ø Ń
ê ³
li um
li zation
le vel
ju n
ti k
ni t
ni er
10 H
10 14
12 28
12 85
12 73
lu r
11 19
11 62
tu a
tu n
tu ng
14 28
14 45
13 20
13 12
13 77
13 52
13 89
in ts
in formation
for ce
st ol
re gi
ro cket
lt alk
100 8
ta k
ma xi
ne ar
ter nal
il s
ck ed
is en
IN A
Ma ple
SE A
Re ady
AT R
ver e
Ro sen
ph os
Li li
De e
un signed
77 6
per s
Mo ni
fi lter
AP T
La bo
Da sh
Da me
Ca se
110 2
110 3
IT S
140 1
ble m
MS P
Ni m
Pe ak
To Heart
To mmy
DS R
RE AL
Ju ne
Col lins
Fe deral
pt or
Open GL
Pu l
Pu re
à¤ ¤
Wa i
SP ARC
Per ry
GP T
cc er
Pri vate
Tra de
WTA 125
Show case
War ri
Her bert
DE ET
nic s
Lea der
day s
CG I
clo se
bel le
ð« Ł
space flight
bili bili
Sen ior
Em ma
CF 3
Lau ra
Island s
Fore ign
Gro ve
ide a
INN ER
JU ST
Ron ald
Alt o
XC 60
Shan e
C5 H5
Jus tice
MMO RPG
BLE ACH
Phy sic
allo cator
Tex as
Frances co
Brad ley
archi ve
STER EO
Magn um
Kore a
Docu mentary
Llo yd
sv g
hed ron
Hug hes
figu ration
Graphic s
lamb da
ORI CON
Smal ltalk
CUB RID
ToHeart 2
0 33
0 43
0 53
1 a
2 S
4 300
8 X
A 6
A my
B G
C 8
C 13
C it
C ara
C ant
D har
D anger
D ASH
E th
E at
F U
F igh
F AA
I o
L ET
M H
N ER
O O
O ber
O cto
O wen
P eri
P AD
P TT
P tr
P seudo
Q T
R in
R oot
S 26
S lo
S ad
S por
S DR
T HC
T OSHI
V eri
V WF
W G
X e
a me
b ank
c 2
h ere
i sh
i us
n en
o le
t ton
Ã ²
Ð ¶
Ø ´
ë ³
ë ı
an ne
zh i
ch annel
li x
mi nd
mi ss
mi stry
we ak
le h
pi e
ti co
ti que
bo u
du n
ku s
ni an
10 76
10 95
qu in
12 48
11 18
11 31
11 45
11 78
14 23
14 22
14 79
14 82
13 27
13 57
13 98
13 83
13 81
for t
re gu
re al
ri t
ri um
ï¼ ¢
100 3
co c
co ck
el s
ma th
the s
he im
et ta
as so
Ma ck
Ma ya
be st
Re port
na e
SA AB
au d
id al
Li bre
Me mber
De ce
Le pto
Mo jave
Sh ir
AM MA
Jo sh
Jo int
89 3
Te m
Be e
Be am
bu l
pp en
An alysis
Pa th
ll en
MV V
SS P
110 1
110 9
com muni
Ri o
He y
end y
Wi Fi
AS O
Bu bble
gra phic
IV ER
Ho we
BL S
Ru sh
Cor ne
à¤ ¨
à¤ Ĥ
NO 3
Per l
Per fect
Har rison
ren e
EE EE
Gra ph
ï¹ ķ
Universi t
737 MAX
Chu ck
she ng
ï¸ ģ
Es ports
Smi le
Wo man
Fin an
Ter ra
spe cial
Ag ri
Eli te
CM OS
Res er
Mel ody
gre gate
âī Ī
Des k
á¹ Ń
Env iron
FAT 32
Op ti
Stan dings
Medi cine
Blu es
mina tion
CAS H
COLL ECTION
Communi ty
Mid dle
Cul tural
Austra lia
Pack age
Lor en
Jus tin
Vis a
Conne ct
gam er
Afri can
Inte gra
wat ch
Git Hub
Evan s
TEP 70
Pl ant
Kota ku
Shang hai
ava ila
Exe cu
Cathed ral
0 46
0 32
0 73
0 93
2 PM
5 200
B ed
C lay
D uo
D IN
D um
E 6
E SA
E H10
F at
F itz
G 7
G 10
G 11
G ang
G rea
I de
I MI
J or
J ST
J UN
K G
L il
L ama
L PGA
M 8
M oo
P le
R 4
R at
R ig
R ang
R ange
S 8
S ri
S ak
S IL
T au
T rou
T ree
V III
W AVE
X a
Y U
Z IP
a de
c uan2
d B
g lio
k Da
k ara
k ell
o g
s r
u sing
x o
Ä Ł
á ½
ë §
ì Ĩ
an cy
an ensis
en te
mi ng3
di v
ku ra
10 65
10 55
10 57
10 94
12 38
12 39
12 93
cu be
11 15
11 57
11 79
15 18
la tions
14 52
13 25
in clu
th ia
re x
re st
re ll
re qui
me m
me tery
ro e
ãĥ ¤
ma e
ne xt
of fee
ãĤ ²
he a
et s
et ra
Ma nga
In tro
be e
SE VEN
Co hen
br an
nd rome
ci p
ba c
AT T
ct y
De stru
per son
man s
Pro motion
con e
con tra
con fig
ran e
Sta y
Se mi
IS L
Ga g
fi er
fi shing
op tera
JR A
So nic
Su lt
Ca pe
Na te
IP C
AN ET
Mu hammad
An y
SM RT
Con ser
Bu sh
Ge ar
IV B
Ste in
Ste phan
To ng
To yo
For d
112 6
AK B
RE M
ation s
No ve
fa i
fa ctor
Ju lius
fu ll
SO LO
Col d
IA U
Ad ministra
res pon
118 4
Open AI
HO L
Ke e
Hu ang
ja po
RI SE
EX ID
vel o
Par ti
Je sus
NH L
Dis k
lis m
ãĦ ľ
Wal k
El li
Tho m
Games Radar
Hol mes
Hy dro
hy n
tro ff
âĹ İ
Wo RMS
Free style
Tru th
GT X
Tur tle
Bel le
CM AMMA
Han teo
Tok yo
Comic s
Ear l
âĳ ¡
part ner
sin ce
lang uage
OP EN
Law rence
âĩ Ĵ
tech no
Ima ge
pra cti
into sh
Fort ran
Fal com
âĤ ¬
LZ 77
Wonder ful
But ter
cou ld
sea se
P2 P
Well s
WH IP
Rank ings
PX A
Associa tes
1x EV
Hig gins
Chie f
Apri l
0 15
0 56
1 D
1 199
A ki
B K
B ry
B ET
B TR
B ERT
D eri
D ATA
E TC
F ed
G ard
G lass
G ring
I re
I AL
J A
J SON
K ON
M 110
N SA
N TO
N ME
O MG
O EM
P ine
P itch
R V
R are
R LE
R NC
R anger
R ights
S NA
S ki
S CP
S ING
T X
T AS
W R
W as
W INNER
X L
Y 2
Y ON
Z im
b lue
c tic
c ara
e is
f r
f all
h of
h ind
m eng1
o th
o ire
p si
p lus
s se
t ti
t ana
v it
Ð ķ
Ð Ľ
Õ ¶
Ø ¹
Ù ĩ
ð ¨
xi v
en er
en os
yu ng
yo r
bi ne
bi ke
bi ns
20 S
pi cal
shu a
du m
mo us
ni x
10 22
10 90
10 85
12 13
12 57
12 94
12 92
cu it
po pu
po sed
tu an3
on es
on to
ar ti
14 31
13 23
13 62
ge m
for mos
mu n
re i
ï¼ Ĭ
ro ll
ce o
am ar
100 4
ãģ ¸
ne ver
ãĤ ´
he i
et t
is o
IN AX
ve ctor
Ch as
Ch amp
In dependent
500 00
64 00
Co p
Co lum
68 00
na y
vi an
ver i
De v
Mi i
OS I
79 5
CO UN
Mo s
Mo ham
man y
Te a
pa ck
Ne ed
600 00
AC M
Sa ba
Sa les
Lo go
pp le
sta ge
An t
Ba hn
IT E
IT Y
IT IL
IT ION
ali sm
130 5
He i
Con tent
AS V
à¸ ¥
à¸ Ħ
EP ROM
En ri
To night
ya h
Th ink
RE CO
Sch o
Lu ci
Lu ke
MO VIE
SO HR
Com pi
Ru th
NG O
Har vey
Willi e
Tra vis
ser vices
UR R
Che y
Ac ti
Ku ra
PL US
Ele ven
Ce le
GA INAX
whi te
Er nest
Ag da
Dig i
Met al
SU MM
Ger ald
fri end
Bor n
Vir gin
à¹ Ī
Cry stal
OM ON
Sig nature
Para dise
Rus sian
Link ed
Beau ty
Poli ce
Regi onal
sca le
Ah mad
Cru sh
Philip pe
Secret ary
FI BA
vers ary
Mau rice
íķ ĺ
Rod ri
Tran sit
Cinema Score
Greg ory
Bai ley
beca use
Pere z
Manu el
NICO NICO
lev ard
POS IX
Pia zza
moun t
Soph ie
Ano ther
Ped ro
Psy cho
Display Port
Tensor Flow
Uta da
Calli gra
ê¹ Ģ
Aff air
Comm and
yunnan ensis
Octo ber
Dece mber
Gring oire
0 24
0 48
0 47
0 58
0 69
2 C
3 S
B ED
B ron
C Y
C um
D ONG
E lla
F t2
F IVB
G ig
G are
G TA
G CC
G LP
H U
H es
H eller
I K
K ay
K 230
L SD
M 113
M ENT
M amba
N 6
P AC
Q F
R yu
S li
U V
U kra
V el
X DC
Z y
a ck
c 3
c ere
e cho
g at
j ay
k el
o ke
r k
u re
v ent
z as
z ero
Â ®
â ½
ë ª
ji ng
ao s
de v
de mo
li l
bi ng
di l
di tional
le tt
20 32
du lt
du ction
su e
su la
su rance
mo ney
chu ai1
10 34
10 44
10 87
10 93
12 10
12 49
12 51
11 52
tu ne
tu ber
or nis
14 10
14 11
13 36
13 44
13 59
13 61
13 95
in di
in stru
ge ome
25 K
25 T
re us
re vision
me an
me ter
ou ra
ï¼ ĥ
ro d
te ur
lt z
100 7
100 9
ta g
co hol
ma g
ma h
ma i
35 000
he el
et ti
46 A
Ch ow
Ch ing
47 00
In si
In dex
han a
Re in
58 00
400 00
Li on
CD C
ang o
98 A
Le u
ak es
CO O
Mo st
ction ary
Pro vin
Te e
pa i
120 5
120 9
nu ll
AP H
So ccer
Su gar
Di o
so m
We a
HD R
Ba sili
SS D
ster y
SM TOWN
ste ad
Con tin
den ts
EN CE
à¸ ¢
Inter face
Ste p
ari es
pro cess
My Radio
Lu ck
AG B
lin er
Cu t
cor ding
DR T
DA O
MC A
Hu a
à¤ ¦
vel la
ling ton
ori o
Bar on
Mac intosh
Gi or
Nor mal
Tri ple
Is ra
tra ck
Gre y
Che ng
Che mical
mb ly
ces sing
ï¹ ŀ
UE FA
Spe ak
Pan zer
comp u
Offi cial
Sci enti
FF T
Dan cing
Cri tic
Phil lips
GE O
Sto ck
SR P
Pala ce
OM R
Cas a
Gil bert
AX N
Clo stri
DI Y
pos sible
Communi cations
stan ding
Band ar
S4 N4
vat ory
Mit chie
Jeff rey
Kenne dy
Industri es
VIS ION
Lun ar
Ey es
Adven ture
Nel son
Tot al
Aar on
Spen cer
Vla di
AVBW U
Phoe bus
coc cus
Finan cial
availa ble
Ire land
COUN T
Linked In
0 35
0 86
1 b
1 201
5 300
6 K
8 56
B ER
B rea
C 12
C es
C ano
C rew
C offee
D MA
D ere
E co
E NA
E ry
E state
F W
F en
F AD
F DG
G ur
G ill
H 8
H 12
H ang
H oney
I 2
I LO
I rish
J IT
K ind
M 7
M 16
M 41
M eri
N V
P Q
P ot
P ana
P AO
R AC
S la
S andy
T su
T at
T un
T ess
U lti
V es
W ard
a z
a ction
d 3
d b
d t
d am
e th
f ir
f lor
g art
l n
p th
q a
t su
t ree
u is
Ä Ĺ
É Ľ
Î ¦
Î ¾
Î ļ
Ø ¬
ã Ī
ì ¤
ì Ĭ
í ĺ
ï »
de li
de ad
de ca
ch ia
er se
gu i
le ast
ti tude
mo ur
qu n1
lu tions
11 16
11 41
11 77
14 16
13 35
13 38
13 32
13 84
re au
re sult
000 1
ro se
ãĥ Ķ
se x
se len
ta h
ta pe
ta nga
co lo
el ds
ma b
ter ator
ãĤ ¼
ck ey
ve st
Ma z
Ma ng
Ch ara
ST EP
In no
In former
64 BV
Co ast
Re ed
ir s
ba u
ba y
vi deo
ig ne
St ream
De m
De vel
Mi le
Mi litary
ed ge
Al pert
CO P
no include
87 00
Ar cade
nu cle
ED M
ED 60
La tin
ER A
Su lli
Ca fe
Na tions
Bo ss
Pa K
Si lva
SS R
com mit
sa tion
PS 5
Play Sta
Con cept
Bu d
den s
den tial
ET SI
EP UB
âĨ Ķ
Ste f
Th el
Po ol
112 8
ani es
CN BC
TA G
fu me
AG C
cal led
Gu ide
NC E
Ad mi
118 1
Hi de
HO USE
sy mbo
clu b
NO AA
ling s
Per fume
Ed win
Gi bson
NH 2
Gra y
Gra ham
Tra ck
Davi es
CL I
Ty ler
School s
ãĦ ı
Wal ly
Wh y
ï¹ Ŀ
Ani mation
Coun t
George s
Her mann
AO 3
Park er
Lea f
DM Z
phy sic
3A 4
Fer din
data base
bro ad
Ob last
à¥ ģ
EV ER
Lau nch
peri al
Ban G
launch es
sin ensis
Ren der
Publi shing
NM DA
dor f
Cer vo
SV T
Leon ard
TH Q
Johan nes
Compu ting
PRO DU
Has kell
cto id
Flow er
Pon t
Round cube
Ora cle
bour g
Rail way
GRO W
sci ence
bucket s
artic les
haus en
Gy m
sock addr
Intellig ence
Archite cture
HY BE
exi t
distri ct
GIR L
Malay sia
Atlan tic
Ec lipse
Lud wig
Cana dian
9K 37
Anni versary
Jere my
Labo rat
Execu tive
Destru ctoid
XDC AM
Devel oper
PRODU CE
0 11
0 17
0 29
0 88
0 94
0 91
4 C
4 Minute
7 k
A men
A DV
A ES
B ing
B low
B rew
C X
C 15
C 60
C ES
C 10H
D IS
E 4
E VA
E 233
F P
F oo
F TT
G Sh
G ia
G HQ
H IDE
I ch
I RES
J 48
K wo
L 5
L US
L IM
L AB
M ID
M We
M RT
M BE
N ak
N BS
O W
O k
O AD
O mar
O micron
P han
P DC
P INK
R ao
T um
T ED
T FT
U 22
U AL
W NBA
Y Z
c p
d 6
e di
e ver
f 8
f ford
g l
g oo
g ent
g rou
i u
i co
i mp
k re
k at
k tor
l lar
m L
m ara
n us
o logy
p un
s end
t alk
u li
y ang
Ï Ī
ê ·
ð §
de m
yi n
gu el
di er
20 77
10 69
10 88
10 61
10 62
10 97
10 96
12 37
12 67
12 87
lu me
11 75
11 33
ar ts
14 17
14 46
13 48
for mes
st le
re search
me i
me mo
ri de
ro l
ro te
te le
si x
ra ge
ce du
se xu
ta tive
fo ld
ãģ Ĵ
ãģ ĸ
co in
co tt
co ordina
ma ti
il er
lo e
he art
is se
to k
IN I
ST OR
Co A
Co x
Co in
Re co
ci li
ba cter
vi ties
ca pi
ver al
ur y
Ro ma
ph ra
St art
78 00
56 00
Me V
Me yer
Mar ty
Mar io
Al cohol
BA BY
Sh ake
con tinu
no on
da in
AC AF
Ra j
ga mes
AP A
IC K
La mi
Sa c
bu il
Bo e
Bo m
Ba pti
SS 2
IT H
IT X
ff y
ff in
ste p
Fi lter
Con fe
Wi z
Ti cket
EN G
Ta g
Ni ch
Do gs
For m
Lu na
fa st
ko m
SO AP
Gu i
Ru le
cri ption
je ctive
mon y
MC T
sy stems
gh ter
Ser ge
rea ched
Bri ght
San tos
ori en
Ed mund
Gi use
pha se
cm 3
Tra in
sti ce
PO 4
let te
OR F
Coun ter
Air craft
out put
star ter
play ed
Chi esa
WE B
Ce metery
Cha pel
ð« Ĭ¸
Euro gamer
you tube
comp any
Cro quet
LA Y
âĸ ³
def ault
PD T
tia tive
ìĿ ĺ
DDR 3
Mini x
à¹ ī
Cat alo
Frank lin
launch ed
Jour ney
Tre o
Model s
Mag gie
C6 H5
Elect ric
WO W
ap pe
tem por
Pet ro
Deep Mind
inv est
Hami lton
Ash ley
bla ck
Sel f
âĻ ¯
Robin son
Michel le
Feli x
again st
Caro line
CONC ACAF
CR400 AF
Kw K
BAS IC
ave x
ear ly
Plat form
BAC net
Rab bit
Theod ore
Leg end
Arn old
Ox ford
fron t
Gusta v
Nf 6
methy l
Abra ham
OE CD
ALX 500
FIL M
Chey Tac
0 14
0 39
0 66
0 77
1 G
2 2000
7 400
9 100
9 500
A v
A ru
A AC
A DS
B art
C 16
C ID
C ET
C lin
D it
E o
E ffe
F m
F AM
F AC
F AI
F RS
G Y
G 20
G es
G ree
G row
H IS
H IT
H SPA
I UP
I bra
I lli
J W
J ake
J Script
K U
K ru
L at
L ily
M J
M N
M AR
M IPS
N ou
N es
N as
O V
O o
O le
O UT
P TC
P os
P DS
P las
R 7
R is
R hi
S 5
S n
S cu
S DO
T RI
T rin
T BF
U DP
U sen
V MS
X 100
Y au
Y un
Z in
Z 99
a x
a chie
d ad
e qu
e qui
f z
i Pod
k k
k or
l b
p x
p ark
r ine
s am
t te
t am
t ter
u ri
v ine
w all
Ã ģ
Î Ĵ
× ¨
× ľ
Ù ģ
Ù ĥ
á ¿
ã Ĩ
ê ²
ì ľ
an or
de lete
ch r
ch ing
ch ard
hu i
li day
mi k
mi l
mi nu
mi ya
gu ar
di sh
pi t
bo und
du r
mo na
lv ad
ni sh
10 23
10 36
10 33
18 000
12 98
cu lty
11 17
11 34
11 32
11 49
11 72
po ld
16 000
16 GB
17 000
ar n
ar u
ar gu
14 37
13 34
in put
al and
st es
me lan
ou ght
ri te
si mi
si le
si zer
ãĥ Ľ
ce ption
se g
el lo
ma li
ter m
the se
to day
TC HA
Ma thema
it en
ST AGE
In done
The ory
Re si
Re turn
ca pe
um ph
78 X
NA D
NA L
Mi guel
Mar ti
ï½ ľ
CO MP
Sh aun
Sh adow
man a
Jo shua
ran o
Te mp
pa ti
pa la
AC C
ga de
Ja zz
Be ar
Be ck
La i
Su p
Su ica
Di ctionary
Ca sh
ha ck
hi st
IP B
Mu le
ll on
int en
Ba la
110 4
ali a
che z
sa i
PS R
Ha waii
Con sole
Bu ck
MS I
EP R
MP 5
ris m
Pi ano
Car di
my r
Ex po
Ph arma
Ju lie
SO HO
Gu in
oft en
cy cle
Fe e
Fe ars
res sion
Hi m
cor d
MC B
Fran co
Pu t
Mon key
Stu dy
NO AH
SP E
Bar bara
DO WN
BE J48
im g
tra x
Ber ry
len e
UR A
Che ck
Super nova
sto ma
ac cu
ac cess
GO T7
âħ £
NS F
par enti
bri ng
Air port
Va lue
don na
Spi r
229 E
Chu ng
DM M
Chi ca
At ta
GA BA
Spo on
Val enti
LT D
Cla u
Cho ice
Tur ner
Res ort
Res ources
KK TV
Fun ction
AE G
KI Z
uni t
Ven us
Code Camp
Part ner
app li
UM TS
Lan tis
Sor t
Die go
Jen nie
model s
Regi ster
yl ent
CAN open
KE Y
ìķ ¼
Multi Cam
Adam s
Wel come
Jer ry
Apo gee
mid t
Tit an
speci es
ELE VEN
Laur en
free CodeCamp
âģ µ
VIS UAL
Org anization
orbit al
Marsh all
FIR ST
Wid get
B7 RLE
stad t
Ini tiative
conne ct
valu es
Swi ft
refer ence
Patri cia
Presi dent
hibi tion
fl uo
Lid l
gori th
Hoy ts
LUNA R
techno logy
RECO RDS
Basili ca
Clostri dium
PlaySta tio
Thel ma
Ferdin and
Giuse ppe
parenti d
0 25
0 28
0 22
0 26
0 84
0 82
1 197
1 mple
5 D
6 200
A pex
B J
B EC
C p
C RE
C SL
D Y
D id
D SS
E k
E AS
F e2
F ru
F SB
G Q
G rou
G ren
H G
H V
H in
I d
I ES
I gna
J E
J IN
K hu
K il
M AT
N X
P ig
R W
S IV
S CN
S wa
S HR
S can
S car
T Z
T g
T ank
T YPE
U ART
W EC
W CT
W WF
X R
X 200
Y C
Z 17
b ai1
b ass
c ru
c ana
d 2
d ru
e 5
e pi
f 1
g la
h ood
j er
k ed
m Ah
o 3
s ent
s 1mple
v 1
w d
w ai3
Ä ħ
Å Ļ
Ñ Ħ
Ñ ĳ
ë ¬
ì Ľ
de ath
li co
bi c
bi lis
di e4
ju st
ti ma
ti zen
bo rough
du al
su c
10 31
10 73
10 71
10 91
12 22
12 45
11 13
11 48
11 61
11 71
wo o
po se
la ch
on so
on line
ar g
ar ound
13 66
for med
mu ch
al low
th am
re z
re stri
me x
ri dge
ï¼ ĵ
ro stris
te a
60 61
se in
100 5
ta to
ta lis
fo lia
ma k
ma la
et o
Ma ha
Ch orus
In to
In nova
33 A
Co lt
Re f
br and
vi ri
vi si
ig o
ur al
ss age
66 00
SA D
ph ere
88 00
Me h
NA DP
Mi z
der ma
Al le
CO 3
Mo hammad
Sh are
Vi c
Jo Jo
89 4
ry s
Te ng
pa per
no de
da h
600 V
120 3
120 km
Ar men
Ra ce
Ra chel
Be gin
ER M
Sa me
Lo ver
ID C
ID F
Su la
do cu
Di ana
ok a
ore m
bu bble
ho c
gi ven
Si lv
Si erra
wi cz
SS L
col le
sa w
Ri de
130 2
Bu dd
Ta q
à¸ Ľ
Pe w
Pi etro
Th era
Do me
Do ta
Po well
For mat
pro f
Car lo
UN O
Ph en
CH ILD
TO G
Ka bu
AG 600
Com bat
Gu l
118 3
Cor p
rea ming
à¤ µ
Bi shop
DO I
Je ans
Is la
PP T
SC AR
SC AP
Pri de
ler c
Tra vel
len a
Fu ji
ten ts
Star ship
Wh en
ous tic
As sistant
War ren
Can al
Spe ct
Blo g
Ve vo
Ve hicle
Spi ke
Chu n
Sur vey
Ye ars
Tor rent
Jose f
Cla ire
war m
Sky pe
mor row
Fre sh
Trans port
PH A
USB 4
AE W
Data base
Jan et
Des tin
Camp us
Bru no
app ro
Les lie
Pal m
cur rent
Bou levard
Tro y
Nico las
tre me
Cos mo
Fro st
Mur ray
Mur phy
ENT ER
Cru z
tto m
Anto ine
wiki text
sist ance
HER E
nico nico
Def ense
indu stri
Ea gle
Tit anic
á¸ ¥
Dead line
TRA IN
thor ity
syn tax
Ita lia
Shar p
Echo Link
crea te
CYP 3A4
xc 3
Fol low
muse um
fal se
Prote ction
ëĤ ĺ
Avi ation
Quali fying
Obser vatory
à¯ į
cepha lus
Asse mbly
WRK Y
Affair s
ack nowledge
Sulli van
Ticket master
Usen et
Chica go
0 36
0 37
0 34
0 49
0 42
0 98
0 85
0 97
7 A
9 M
A 24
A id
A way
C res
D Q
D ry
D KP
E lv
E GO
F ET
F UN
F TA
F RI
F lex
G AS
G TO
H AR
I denti
J as
J VC
K H
K ine
K ID
K ari
K HL
L TS
L 129
M ing
M HC
M 686
N ano
P 3
P J
P and
P AG
Q 4
Q TE
R ow
R ISC
S 10
S pan
S cri
T 6
T hu
T il
T ell
T ION
U ser
V 3
V K
V ill
W ant
W ool
Z IS
Z oom
a v
a way
b eng3
e cono
e ffici
f 2
h in
h all
k al
k ia
k ill
m ble
n als
r 2
s n
s aurus
s ource
v ard
v ul
w ak
y am
z ang3
¹ ¬
Â ¬
Ä ĳ
× Ł
à ª
ë Į
ì £
í ĥ
an alysis
sh a2
sh ir
sh ould
zh ou
en tin
en berg
ãĢ ħ
li en
li es
mi le
mi se
mi no
gu es
di on
we ight
20 38
ju e1
19 S
shu n3
mo ra
chu ng
zi a
ni on
10 A
10 21
10 28
10 89
men s
qu ad
12 23
12 31
11 76
11 74
po le
la b
la c
la l
la tor
13 21
ge on
mu ne
al la
st all
st own
re lation
me e
ri k
ro po
si tion
si us
si um
ra di
se ason
fo glio
co st
el f
ma ss
ma tor
the a
at ro
IN LW
ST AF
64 DD
Co lin
Re x
Re y
Re la
ad vance
ci onal
ca ta
us a
oo ting
ct ly
Ro t
St ories
id s
Li ver
Li cense
Mi che
Mi ka
ly s
BC G
Al fa
Sh am
AM L
AR TS
Te xt
da i
Ar row
Se i
Ga z
AP ER
Lo bo
do main
âĶ ģ
ha vi
bu ty
AN GE
mer ce
ho t
Pa le
Pa blo
We verse
Si mple
Ba c
110 5
ali st
che ck
sa me
Ri vella
130 1
130 3
SM E
SM P
PC A
Ge off
à¸ ¸
à¸ ĩ
Ni e
En sign
âĨ ĳ
MP 7
US D
por tation
Th in
AK S
No tes
UN IQ
Au di
AV O
Ju ng
MI ME
SO D
LE I
Ru na
Ru bber
cy c
CR 200
ree ment
del le
Open street
NO T
RT X
EX R
San to
HE LL
Har per
LO W
Gi ba
Nor ton
Tri bu
Tri nity
Tri umph
PP I
min us
Vo ya
PO VM
Show time
cle f
tis m
AB CD
Ani plex
Hol y
Ab el
PL G
zo g
Boo ks
ring ton
pla sh
Black bear
GA Z
clo sed
Cha se
bel la
ð« Ľ
GM RES
stitu tion
spe ct
Rock y
Eli sa
fra g
Plan e
BU M
num eric
ele ment
Phil oso
Cam po
KI LL
MT U
Out look
coun try
chel ys
kar u
Gro ss
SHO OT
add ress
Tre at
ag gregate
Way ne
teri um
Joy ce
Poli cy
Leon ardo
DL U
Beat les
size of
wiki pedia
With out
Crea te
cul tural
Sti ll
Fron tier
pl c
After noon
Sca le
Sho ck
ITV 4
vir tual
Siri us
Bit Torrent
Tam an
high light
hal f
Hero es
speci fic
Stri ke
constru ctor
cam atan
Ita lian
Deuts ch
Match day
cour t
NAT O
Ted dy
ð° ¹¬
Mul lvad
Fea ture
proper ties
Sna p
quar ter
Gabri el
Muni cipal
Lec lerc
Lear ning
Arm strong
Synthe sizer
Integra ted
SEVEN TEEN
hyn chus
Deri ved
DONG KIZ
Isra el
Vladi mir
cedu re
Lami go
Ibra him
SHR DLU
syntax highlight
Openstreet map
0 19
0 44
0 59
0 92
2 M
8 A
A zi
A lu
A ka
A ctor
A mar
A cid
B ump
C u2
C MP
C lan
D W
D ow
E CO
F as
F ir
G 5
G J
G ad
G Pa
G las
G CM
G DB
H AP
H APP
I LL
I ETF
J ak
K R
K amp
K yle
L J
M ig
M CO
M IP
N W
N x
N a2
O B
O FF
P hu
P SA
P H2
P FA
Q 2
Q i
R H
R 16
R NG
R AF
S 9
S amp
S kin
T K
T rea
T idal
U TA
U FS
V ari
W 3
X in
a cu
a cc
c 1
c ence
d 1
d h
e mp
e How
f ps
g 2
g ara
h ir
j ang
j ara
k ind
k ina
l ers
m an1
m en1
n ou4
p c
p ari
s ou
s ke
w l
w u
x ton
y et
z or
É £
× ĳ
ë ¡
ë ¯
ì ²
ch or
hu b
mi llion
er ry
gu l
di r
20 33
ti ali
du ce
mo to
ku l
ku r
zi l
ni al
ni fer
10 48
10 58
10 77
10 98
10 84
12 33
11 12
11 46
11 64
11 67
11 56
po ur
la tt
14 000
14 36
14 73
13 22
13 39
13 79
13 53
ge bra
for k
mu l
st ant
th s
th in
ri g
ri on
te ng
100 m
ta t
ta ke
ma ge
ma cro
lo ss
to o
IN V
ST UD
be y
SE GA
The se
Re i
Re bel
Re ally
ci pa
vi vo
ca ster
ay an
42 V
ss en
57 00
Ro le
SA C
ph al
St y
Me chani
De O
ber ger
Mi G
Mar ce
ed a
ang a
98 60
Al lan
ty pen
tw a
Le v
BA E
CO B
Mo to
Sh en
Jo lin
Jo ker
ran a
1000 00
pa thy
AC A
Se ction
Se xy
Ra fa
Be ver
IC LEI
La te
La dies
Sa ga
Su ng
Fa v
ON T
Ca mi
ha b
ha bi
Na than
hi story
sta ck
gi um
gi ving
Pa i
Pa in
We ber
wi sh
Ba g
Ba ba
SS RI
com mon
He ath
Ha i
Ha ven
Fi gu
Fi lip
shi ft
IV PP
EN S
Ta p
Ta wan
AL BUM
Ho mo
Ho lo
BL G
Pe tit
Th er
Do ck
RO Cm
AK A
RE APER
Car r
ani e
My ki
âĪ ĩ
Lu x
Lu cy
wa i
Au d
pu k
CH A
Ju ly
Ju les
Qu al
oun ced
SO I
Com bi
AD P
Sy d
GB U
Fe i
BM C
Hi karu
za i
Ke i
sy lla
net work
Go ver
Cor ps
Hu d
Mon u
à¤ ª
à¤ ¸
ning s
own Cloud
SP EC
Bri ng
San thal
ori an
Bar nes
with in
with out
EE G
Tri logy
Pri son
ser ver
127 47
CL R
Fu sion
Che mistry
ex peri
sto m
Wal lace
dis play
bit al
Mat ters
War s
AB B
Por ter
PV C
FM EDA
High way
UC IL
Spi der
play er
At las
ator s
KBS 2
EM BA
Jack ie
Win Zip
Py Qt
Time Signature
VO D
Fer r
SU GO
comp lete
Pra i
Tour nament
WS BL
her ty
zz le
mor ph
Ama zing
Vir tua
KK day
MU K
áĢ º
Hor n
Lon Works
Phil lip
Mana ger
Bir th
à¹ Į
Ob jective
Camp bell
Camp aign
Os car
Pas sion
Sor ry
Cur tis
Block berry
Gran de
Die Pie
What s
Ath le
print f
oc cur
áĥ Ĳ
Regi ment
Tan foglio
WO WOW
Ah med
Rou te
CAS P
Sw iss
KE LT
stu dio
Ima gin
Metro politan
Market Ax
Wire less
Wiki pedia
include d
Round s
Flor ence
Kit ty
Mes senger
âĤ Ĥ
Buil der
ext ra
Standard s
Tod d
Cook ie
Saf ety
Maker Ville
Hand s
Stru cture
IMD B
052 D
Wri ter
Morning star
Industri al
medi cal
Adven tures
Kr yo
ð° ¾
differ ent
CR400 BF
presen tation
Alber to
âŁ ¨
âŁ ©
ê¸ °
Bli nd
ëĭ ¤
Mine craft
ash tanga
Scot land
PART Y
ð«ļ ª
Kick starter
Biz Talk
JUST HIS
Figh ter
Howe ver
Sult an
Toyo ta
Kura ki
Gior gio
Admi ral
buil ding
Yau tja
Pew DiePie
ëĮ Ģ
Runa way
numeric TimeSignature
typen ame
Virtua Real
MarketAx ess
0 27
0 31
1 196
1 193
1 187
1 UP
2 G
2 O3
7 200
8 300
9 200
A 10
A te
A ber
A ga
A QU
B les
B MI
B ona
B har
B c4
C 20
C 79
C SM
C ake
D ARK
E qu
E re
E AC
E MC
F ing
F EC
F TP
G la
G AR
G AME
H our
I ra
J ou
J ing
K yi
K 12
K orn
L Y
L ao
M 20
M 14
M Pa
M EN
N TV
N VS
O ak
O BS
O LE
O VER
P z
P ON
P 450
Q 1
R au
R AIL
S DP
S ight
S par
S ons
S ession
T AP
T win
U BA
W is
W IN
W MI
W CF
W ADA
X II
X HTML
Y ing
Y ama
Z 1
Z 48
Z K6
a 8
a ct
c d
c out
d 5
d ak
e z
f are
f esti
f MRI
g lu
h m
h au
h Pa
k aya
m mol
n c
n dez
p po
r n
r r
r yo
s per
t mp
u er
w ara
x s
y asa
Ã ¬
Ä Ĳ
Ä Ļ
Æ °
É ĳ
Ê °
Î ®
Î ĳ
× ª
Ø µ
Ù ī
ì ĥ
ì Ī
ð ©
ng en
de e
de st
de re
en to
ch ampi
hu a
mi an
mi er
bi es
di ni
di al
di lla
di sease
we ek
20 48
ti te
ti vo
bo o
bo re
bo ve
mo v
mo di
mo du
chu rch
ni te
10 13
10 39
10 68
10 53
10 83
qu er
nv ille
12 V
12 88
11 36
11 69
la in
13 16
13 26
13 31
ge ts
for ms
24 K
ru le
st rom
st anti
re ich
me da
me ssage
ri m
ro ng
si bility
ra le
ra ce
se p
am y
ta an
ta ta
ma tri
of fer
ter ia
lo on
lo op
to lo
Ma li
Ma donna
Ch al
Ch au
ST E
In clude
In finity
be ck
SE S
Re e
Re gina
vi ta
ca le
ca pa
pe u
Ro gers
ph in
Me li
Me la
tou ch
un til
CD RI
ang u
OS CAR
BA R
CO LO
Mo ha
Mo sa
Sh ort
man age
AM PV
BS AT
con du
con tain
con tent
Te en
Te ars
pa ct
Ne XT
Ne xon
no tes
da cty
Ar ound
Se bas
Tu l
os au
Be ng
ent on
So C
MA O
Ca f
Bo t
Pa c
Pa pa
so de
so lute
We e
HD MI
Ba b
SS H
ali zation
Ri cky
DV B
end l
AS IA
Bu gs
gra ci
Ti mothy
IV A
à¸ ļ
En cyclo
cro wn
AI BA
US GS
Th ings
Do c
gn at
Net works
Sch midt
My stery
CN S
CN ET
Ex cel
pu ra
Qu ake
Ka la
Ru d
IA ST
TE A
DR M
Ko h
Cor ner
ner f
Hu gh
Pu b
fli ghts
SP O
RT M
DO M
GP 2
Comp lete
LO V
BE A
PP A
min ton
Or che
Gre ene
CL UB
Ber lin
Fu l
ano v
Che ss
gue z
pre di
GO OD
GN Z48
CS X
ena ble
par te
AB P
PL AY
ona le
Ve ctor
SQ U
King s
Fri tz
Chris tine
Up per
gar h
pla ced
Ci vil
EF 52
Cha pter
ann ounced
Cent ro
Min or
publi shed
Tele com
Cho co
Cho Co
lea gue
Bel la
sha w
BU G
Cri me
PD W
âī ¡
á¹ ĥ
Stra te
COM IC
Mil lion
âĳ ¢
VV V
Im perial
PT FE
Sm all
Beat s
fla g
Elect ro
Fro g
FIN A
Alt er
Kir ara
SON Y
Arti st
1080 p
Spiri ts
Stor age
Ea stern
Jes sica
Laur ent
Nam co
wri te
CIT Y
CIT ES
Bau er
Bug Bug
xc b
CRH5 A
Album s
MED LINE
Brook s
varia ble
CONC ERT
GIR LS
aes pa
edu cation
ìŀ Ĳ
kir che
Chee ms
Schi ff
CR300 AF
E9 E9
Gall ery
thera py
plot lib
Proper ty
recei ved
Belie ve
Leader ship
Libre boot
Shir ley
inclu ding
bac terium
Elli ott
SUMM ER
geome try
COUNT DOWN
Ulti mate
ìĬ ¤
symbo l
ENG INE
Guin ness
MCB MSP
Phen om
ì£ ¼
ð«Ľ ļ
HAPP Y
Whats App
Kyi v
NVS RAM
0 75
0 57
0 51
0 74
1 da
2 H
2 250
2 GB
3 B
6 300
8 600
A f
A we
A in
A lo
A very
A dult
B ound
C TC
C RO
C row
D il
D 32
D AC
D IC
D ana
E un
E sta
E 130
E PS
E vo
F au
F BC
F VP
G ing
G ly
G ent
H AL
H MC
H ALL
I WI
J AS
K ao
K wan
K fz
L CS
M 50
M AM
M ani
M RS
M ama
N Z
N DS
N ina
N SC
N ero
O 5
O m
O la
O UR
P 6
P Z
P f
P ing
P TS
P lease
P TCH
R ene
S e2
S as
S PS
T J
T ON
T ari
T sing
T ASC
U Z
U SM
V on
V AD
W ig
X SD
Y er
Z ach
Z ARD
a q
a ward
b 1
b t
c it
c las
c ens
e X
g ow
g gle
h oo
h art
h eld
i Heart
k J
k l
k il
n ei3
n ana
o ph
p ton
p ler
p hus
s wa
u me
v n
w ers
w hy
y y
y as
Ã ĩ
Ã ľ
Î ł
Ð ¤
Ð Ĺ
Ñ Ĭ
Ñ į
× Ķ
à ¶
ë ĵ
ì Ļ
í Ļ
sh in
sh ort
de g
ch ts
yo 1
hu t
li nd
li pp
li ttle
mi mi
mi ra
mi es
mi ll
bi nd
gu r
di no
le ter
20 46
ti sta
ti lla
ti cus
bo lt
du e
su i
mo bile
ni i
10 W
10 45
18 F
12 89
12 96
12 81
lu b
11 51
tu n4
tu la
tu ring
or f
la ted
13 54
in ed
ge dit
al bum
re li
re lease
re move
22 22
ri se
ri ca
ra h
ra k
ra in
ra il
ãĥ ¦
se ctor
fo od
co ding
lo a
lo go
et ch
to on
IN ET
IN AH
ve hicle
Ma di
Ma terial
In side
64 BM
be lie
be cca
The ater
Co on
Co co
na ti
ci e
ba um
ca ted
Li m
Li u
Mi les
Mar vel
der son
BC I
Le vi
53 K
Mo vi
Mo ther
Mo vement
Vi ktor
man ia
Jo an
con ds
pa ge
da f
Sta t
Se cure
Se asons
Ra pid
Ra hman
nu ng
Be ing
op sis
IC EF
Sa ve
son s
So lutions
Su mo
Fa culty
rou te
Ca therine
Na ta
Na val
hi de
Mu ch
An s
IT ER
com b
che i
by te
ill er
ill on
sa id
SM N
Ha e
ka was
ka waii
Ti bet
à¸ ķ
mm ar
Ni gel
BL O
BL ITZ
Pe te
MP A
AI K
ant hus
por ter
Th ing
Sch a
Ki H
Ki Ro
No de
My Video
CP AP
UN ICEF
my ces
Lu c
Au dition
Ex cell
Ex hibition
Ph ra
New Jeans
AV N
Ju lian
Ka ppa
CC C
LE E
LE O
BO YS
Com merce
IG M
IA NA
je ction
ze u
Ad vis
BM NH
tel la
Open NIC
Ko ch
net te
Mon a
ja va
à¤ ¯
LL M
Wa di
Bri stol
ori e
Gi u
Gi ant
NH 3
PP Po
min ary
Tra il
Tra cker
Vo LTE
sti ll
CL C
SH ISH
ero y
ten s
tri e
ãĦ ¨
HC l
dis c
VA X
DD K
KP L
Mat ter
xy gen
All Music
War ner
par ty
AB BA
Web b
ration s
ming ton
Bro ther
SK T
SK Y
Peter s
FO MA
UT 1
org ani
Recor d
Alex and
you ng
Shi ft
Shi ning
LT M
NE O
fri ed
fra structure
Richard son
Mas sa
Fre ak
Em per
Trans form
var man
ìĿ ¸
sor tium
Cam eron
Cam bridge
kin son
de Ġ
Ġ deĠ
shi4 Ġ
Ġ shi4Ġ
Ġ nian2
Ġnian2 Ġ
wei4 Ġ
zai4 Ġ
Ġ wei4Ġ
Ġ zai4Ġ
he2 Ġ
Ġ he2Ġ
zhong1 Ġ
bu4 Ġ
di4 Ġ
shi2 Ġ
guo2 Ġ
yu2 Ġ
ren2 Ġ
Ġ bu4Ġ
yi1 Ġ
Ġ zhong1Ġ
li4 Ġ
zhi4 Ġ
gong1 Ġ
Ġ shi2Ġ
yue4 Ġ
ji2 Ġ
cheng2 Ġ
yi4 Ġ
you3 Ġ
Ġ di4Ġ
Ġ yue4Ġ
Ġ yu2Ġ
Ġ ren2Ġ
Ġ zhi4Ġ
da4 Ġ
Ġ ji2Ġ
yuan2 Ġ
Ġ you3Ġ
ji4 Ġ
Ġ guo2Ġ
Ġ li4Ġ
Ġ gong1Ġ
Ġ yi4Ġ
Ġ yi3
Ġ cheng2Ġ
jia1 Ġ
si1 Ġ
yu3 Ġ
Ġ xian4
Ġ ri4
Ġ yi1Ġ
Ġ xing2
Ġ ta1
li3 Ġ
ji1 Ġ
Ġ dao4
hou4 Ġ
wei2 Ġ
Ġ zhi1
Ġ da4Ġ
Ġ yuan2Ġ
xi1 Ġ
Ġri4 Ġ
Ġ ge4
Ġyi3 Ġ
xue2 Ġ
hui4 Ġ
zuo4 Ġ
le Ġ
Ġ yu3Ġ
Ġdao4 Ġ
ming2 Ġ
Ġ ji4Ġ
bei4 Ġ
Ġxing2 Ġ
sheng1 Ġ
Ġ jian4
Ġ chu1
Ġ qi2
Ġ si1Ġ
Ġ de2
zheng4 Ġ
Ġxian4 Ġ
Ġ hou4Ġ
Ġ ji1Ġ
dui4 Ġ
shang4 Ġ
qu1 Ġ
shi3 Ġ
Ġ er3
Ġ jia1Ġ
you2 Ġ
Ġta1 Ġ
Ġ xi1Ġ
Ġ li3Ġ
Ġ er2
zhan4 Ġ
Ġ jun1
Ġ bing4
Ġzhi1 Ġ
Ġge4 Ġ
zhu3 Ġ
ren4 Ġ
fu4 Ġ
zi4 Ġ
wu4 Ġ
xin1 Ġ
dai4 Ġ
ju4 Ġ
ping2 Ġ
Ġchu1 Ġ
Ġ ke4
Ġ zhou1
xiang1 Ġ
Ġ hui4Ġ
shu4 Ġ
nan2 Ġ
Ġ she4
Ġ bei4Ġ
Ġ ming2Ġ
xia4 Ġ
guan1 Ġ
Ġer3 Ġ
Ġde2 Ġ
lu4 Ġ
yu4 Ġ
hua4 Ġ
Ġjian4 Ġ
jing1 Ġ
yan2 Ġ
fang1 Ġ
Ġ yin1
kai1 Ġ
jian1 Ġ
jiao4 Ġ
fa1 Ġ
yong4 Ġ
Ġ dan4
Ġer2 Ġ
zhu4 Ġ
lai2 Ġ
min2 Ġ
shou3 Ġ
zhe4 Ġ
xiang4 Ġ
wen2 Ġ
Ġjun1 Ġ
xi4 Ġ
qian2 Ġ
ben3 Ġ
te4 Ġ
Ġ wei2Ġ
zhi2 Ġ
fa3 Ġ
qi1 Ġ
jie2 Ġ
lian2 Ġ
Ġbing4 Ġ
dong4 Ġ
dian4 Ġ
Ġqi2 Ġ
Ġke4 Ġ
dong1 Ġ
mu4 Ġ
Ġ jin4
Ġ dui4Ġ
Ġ huo4
Ġ zhan4Ġ
fen1 Ġ
tai2 Ġ
zhang3 Ġ
du4 Ġ
jiang1 Ġ
Ġ qiu2
Ġ ping2Ġ
gao1 Ġ
ye4 Ġ
suo3 Ġ
bei3 Ġ
Ġzhou1 Ġ
shi1 Ġ
Ġ leĠ
duo1 Ġ
jie1 Ġ
ge2 Ġ
Ġ shang4Ġ
jin1 Ġ
Ġ zheng4Ġ
fu2 Ġ
Ġ zuo4Ġ
Ġ you2Ġ
Ġ fu4Ġ
kou3 Ġ
guo4 Ġ
zhi3 Ġ
Ġ tong2
hai3 Ġ
Ġ ren4Ġ
Ġ quan2
ma3 Ġ
tong1 Ġ
ru4 Ġ
zui4 Ġ
Ġ sheng1Ġ
Ġ xue2Ġ
ci3 Ġ
xing4 Ġ
wai4 Ġ
nei4 Ġ
la1 Ġ
ti3 Ġ
jue2 Ġ
ke3 Ġ
qi3 Ġ
shan1 Ġ
tian1 Ġ
chang3 Ġ
deng3 Ġ
zhen4 Ġ
wu3 Ġ
chang2 Ġ
zi Ġ
yao4 Ġ
bi3 Ġ
Ġ ju4Ġ
bao3 Ġ
mi3 Ġ
ya4 Ġ
Ġ ye3
gai1 Ġ
Ġyin1 Ġ
Ġ dai4Ġ
mian4 Ġ
zhong4 Ġ
Ġshe4 Ġ
feng1 Ġ
Ġ zhe4Ġ
zhong3 Ġ
ci4 Ġ
yun4 Ġ
yi2 Ġ
liu2 Ġ
che1 Ġ
shou4 Ġ
lin2 Ġ
bao1 Ġ
yi2 Ġge4Ġ
sai4 Ġ
jie4 Ġ
ding4 Ġ
shen1 Ġ
sheng3 Ġ
luo2 Ġ
mei3 Ġguo2Ġ
san1 Ġ
qi4 Ġ
xiao3 Ġ
Ġdan4 Ġ
neng2 Ġ
shu1 Ġ
ze2 Ġ
lie4 Ġ
xuan3 Ġ
si4 Ġ
qing1 Ġ
zhe3 Ġ
Ġqiu2 Ġ
jing4 Ġ
yuan4 Ġ
ba1 Ġ
wang2 Ġ
ke1 Ġ
tai4 Ġ
lan2 Ġ
bao4 Ġ
zong3 Ġ
ying3 Ġ
an1 Ġ
Ġhuo4 Ġ
bi4 Ġ
fu3 Ġ
dao3 Ġ
Ġ xin1Ġ
gu3 Ġ
ying1 Ġ
Ġ hao4
Ġ xia4Ġ
Ġ zi4Ġ
ge1 Ġ
fen4 Ġ
xiao4 Ġ
yue1 Ġ
ni2 Ġ
jiao1 Ġ
na4 Ġ
Ġ yu4Ġ
Ġ mi3Ġ
zi1 Ġ
er4 Ġ
Ġ xiang1Ġ
pu3 Ġ
dan1 Ġ
Ġ zhu4Ġ
biao3 Ġ
guan3 Ġ
tou2 Ġ
liang4 Ġ
chuan2 Ġ
Ġ lu4Ġ
su4 Ġ
wu2 Ġ
Ġ dang1
bo1 Ġ
ru2 Ġ
yan3 Ġ
nv3 Ġ
bo2 Ġ
Ġzhong1Ġ guo2Ġ
xing1 Ġ
ti2 Ġ
fei1 Ġ
da2 Ġ
se4 Ġ
cheng1 Ġ
mei3 Ġ
Ġwei4Ġ yu2Ġ
Ġjin4 Ġ
ceng2 Ġ
chan3 Ġ
Ġ nan2Ġ
shui3 Ġ
tu2 Ġ
bian4 Ġ
gui1 Ġ
Ġ ran2
yang2 Ġ
zhang1 Ġ
gai3 Ġ
dian3 Ġ
a1 Ġ
cong2 Ġ
jiu4 Ġ
Ġ ben3Ġ
Ġquan2 Ġ
sha1 Ġ
bao1Ġ kuo4
wang3 Ġ
jian3 Ġ
sheng4 Ġ
zu3 Ġ
shu3 Ġ
gang3 Ġ
hua2 Ġ
lv4 Ġ
qing2 Ġ
jing3 Ġ
liang3 Ġ
zu2 Ġ
ban4 Ġ
tong3 Ġ
gong4 Ġ
shang1 Ġ
li2 Ġ
hu4 Ġ
tong2 Ġ
bian1 Ġ
jin4 Ġ
long2 Ġ
luo4 Ġ
an4 Ġ
xu4 Ġ
chi2 Ġ
ao4 Ġ
mei2 Ġ
jin3 Ġ
ban1 Ġ
guang3 Ġ
chu1 Ġ
ce4 Ġ
mi4 Ġ
shen2 Ġ
Ġta1Ġ men
zheng1 Ġ
zhi1 Ġ
ling3 Ġ
you4 Ġ
fan3 Ġ
wei1 Ġ
Ġ zhu3Ġ
Ġ xiang4Ġ
huo2 Ġ
xi2 Ġ
ting2 Ġ
ka3 Ġ
cha2 Ġ
Ġ gai1Ġ
cai2 Ġ
gou4 Ġ
shuo1 Ġ
men2 Ġ
ci2 Ġ
xiang3 Ġ
mu3 Ġ
lei4 Ġ
wei3 Ġ
qu3 Ġ
Ġgong1Ġ li3Ġ
yan2Ġ jiu1
Ġ duo1Ġ
tuan2 Ġ
yin3 Ġ
jian4 Ġ
Ġye3 Ġ
chao2 Ġ
ying4 Ġ
chen2 Ġ
Ġ wan4
tang2 Ġ
xie1 Ġ
qi2 Ġ
pin3 Ġ
Ġyi3 Ġji2Ġ
jia4 Ġ
shi3Ġ yong4Ġ
jie3 Ġ
hang2 Ġ
yi3 Ġ
lun2 Ġ
rong2 Ġ
Ġ you2
jiang3 Ġ
pai2 Ġ
fu1 Ġ
jiu3 Ġ
ling4 Ġ
tai2Ġ wan1
Ġhao4 Ġ
ĠdeĠ di4Ġ
xu1 Ġ
ke3 Ġyi3Ġ
huang2 Ġ
xian1 Ġ
duan4 Ġ
ke4 Ġ
dang3 Ġ
mo2 Ġ
can1 Ġ
1 Ġ
ying2 Ġ
tiao2 Ġ
biao1 Ġ
ĠdeĠ yi1Ġ
kai1Ġ shi3Ġ
quan2 Ġ
zhan3 Ġ
Ġcheng2Ġ wei2Ġ
ye3 Ġ
hong2 Ġ
mei2 Ġyou3Ġ
han4 Ġ
yin1 Ġ
e2 Ġ
wei3 Ġyuan2Ġ
qian1 Ġ
ban3 Ġ
xian4 Ġ
ling2 Ġ
xiao1 Ġ
Ġtong2 Ġ
hui2 Ġ
su1 Ġ
fang2 Ġ
meng2 Ġ
zhuang1 Ġ
kong1 Ġ
ju2 Ġ
cun1 Ġ
bao1Ġkuo4 Ġ
ren2Ġ kou3Ġ
Ġqi2 Ġzhong1Ġ
Ġgong1Ġ si1Ġ
huo4 Ġ
zi3 Ġ
xing2 Ġ
dou1 Ġ
ĠdeĠ shi4Ġ
ĠĠĠ zai4Ġ
Ġ fen1Ġ
qiang2 Ġ
zhao4 Ġ
zheng4 Ġzhi4Ġ
du2 Ġ
yi2 Ġge4
mo4 Ġ
2 Ġ
cai3 Ġ
bing1 Ġ
fa3 Ġguo2Ġ
Ġ gao1Ġ
Ġda4Ġ xue2Ġ
Ġshi4Ġ yi1Ġ
hai2 Ġ
Ġta1 ĠdeĠ
hu2 Ġ
chu4 Ġ
qin1 Ġ
lun4 Ġ
fan4 Ġ
zhen1 Ġ
guang1 Ġ
wen4 Ġ
man4 Ġ
Ġ jie2Ġ
she4 Ġ
biao3 Ġshi4Ġ
zhong1 ĠdeĠ
ju1 Ġ
Ġ jiao4Ġ
ai4 Ġ
zhuan1 Ġ
diao4 Ġ
bai2 Ġ
da3 Ġ
que4 Ġ
dian4 Ġshi4Ġ
Ġ dong1Ġ
Ġ du4Ġ
fei4 Ġ
Ġshi4Ġ wei4Ġ
Ġ mu4Ġ
han2 Ġ
shi4 ĠdeĠ
Ġ te4Ġ
xun4 Ġ
Ġ jin1Ġ
pian4 Ġ
ming4 Ġ
ju3 Ġ
Ġ jiang1Ġ
tuo1 Ġ
gu4 Ġ
Ġren2Ġ kou3Ġ
xiu1 Ġ
Ġbu4Ġ fen4Ġ
xie2 Ġ
zao4 Ġ
Ġhe2Ġ guo2Ġ
zhong1Ġ guo2Ġ
guo3 Ġ
10 Ġyue4Ġ
shou1 Ġ
Ġ zui4
xin4 Ġ
12 Ġyue4Ġ
7 Ġyue4Ġ
9 Ġyue4Ġ
Ġ shi1Ġ
zhuan3 Ġ
ta1 Ġ
dang1 Ġ
mian4 Ġji1Ġ
Ġren2Ġ min2Ġ
8 Ġyue4Ġ
xun2 Ġ
Ġdi4Ġ qu1Ġ
wu1 Ġ
3 Ġyue4Ġ
Ġ guo4Ġ
Ġ suo3Ġ
1 Ġyue4Ġ
Ġ jing1Ġ
Ġ shou3Ġ
gan3 Ġ
huan2 Ġ
di2 Ġ
xia2 Ġ
jia3 Ġ
5 Ġyue4Ġ
ying1 Ġguo2Ġ
Ġ ci3Ġ
dao4 Ġ
di3 Ġ
zhu1 Ġ
ting1 Ġ
zheng4 Ġshi4Ġ
chong2 Ġ
huo3 Ġ
zhou1 Ġ
6 Ġyue4Ġ
zhuang4 Ġ
cheng2 Ġshi4Ġ
4 Ġyue4Ġ
Ġguo2Ġ jia1Ġ
tian2 Ġ
geng4 Ġ
ĠĠĠ di4Ġ
fang4 Ġ
yong3 Ġ
shu3 Ġyu2Ġ
Ġping2Ġ fang1
po4 Ġ
jun1 Ġ
3 Ġ
Ġdi4Ġ yi1Ġ
Ġ qian2Ġ
Ġ deng3Ġ
11 Ġyue4Ġ
qu4 Ġ
qun2 Ġ
jiang4 Ġ
tao2 Ġ
Ġshi4Ġ ji4Ġ
Ġping2Ġfang1 Ġgong1Ġli3Ġ
Ġtong2 Ġshi2Ġ
Ġ ma3Ġ
dan1 Ġren4Ġ
Ġ tian1Ġ
Ġ ru2Ġ
gen1 Ġ
bie2 Ġ
Ġ sui4
pai4 Ġ
du1 Ġ
shao3 Ġ
liang2 Ġ
hui1 Ġ
tie3 Ġ
nong2 Ġ
ji3 Ġ
Ġnian2Ġ 1Ġyue4Ġ
ta3 Ġ
dian4Ġ ying3Ġ
Ġ qi1Ġ
zong1 Ġ
chu3 Ġ
Ġ zhe4
si3 Ġ
er3 Ġ
ĠdeĠ shi2Ġ
shuang1 Ġ
tai2Ġwan1 Ġ
qiao2 Ġ
gen1 Ġju4Ġ
li4Ġ shi3Ġ
chu2 Ġ
Ġshi4Ġ zhen4Ġ
gao4 Ġ
bai4 Ġ
can1 Ġjia1Ġ
yun4Ġ dong4
gang1 Ġ
che1 Ġzhan4Ġ
guo2 ĠdeĠ
jiao3 Ġ
Ġwan4 Ġ
Ġyin1 Ġwei4Ġ
Ġri4Ġ ben3Ġ
Ġping2Ġ fang1Ġ
li4 ĠdeĠ
Ġnian2 ĠdeĠ
gai4 Ġ
pan4 Ġ
Ġ wen2Ġ
Ġ hai3Ġ
zheng4Ġ fu3Ġ
bing4 Ġ
zhun3 Ġ
Ġnian2Ġ 12Ġyue4Ġ
wa3 Ġ
yan4 Ġ
wo3 Ġ
gong4 Ġhe2Ġguo2Ġ
Ġxian4 ĠdeĠ
Ġ fu2Ġ
ya2 Ġ
yin2 Ġ
fa1 Ġxian4Ġ
formula Ġ
chuang4 Ġ
hei1 Ġ
Ġ suo3
qu1 ĠdeĠ
song4 Ġ
huan4 Ġ
ha1 Ġ
hen3 Ġ
ti2 Ġgong1Ġ
jin4 Ġxing2Ġ
Ġ bei3Ġ
lei2 Ġ
Ġ ying1Ġ
2 Ġyue4Ġ
jing1 Ġji4Ġ
tong1Ġ guo4Ġ
Ġnian2Ġ 3Ġyue4Ġ
sui2 Ġ
chuan1 Ġ
Ġzhong1Ġ yang1
qie3 Ġ
Ġguo2Ġ ji4Ġ
hua1 Ġ
shang4 ĠdeĠ
Ġyou2 Ġyu2Ġ
Ġ you4Ġ
lei1 Ġ
wei3Ġyuan2Ġ hui4Ġ
kao3 Ġ
Ġnian2Ġ 7Ġyue4Ġ
wan2 Ġ
cheng1 Ġwei2Ġ
Ġnian2Ġ 10Ġyue4Ġ
deng1 Ġ
5 Ġ
bai3 Ġ
Ġshi4Ġ jie4Ġ
Ġyin1Ġ ci3Ġ
ming2 Ġwei4Ġ
4 Ġ
Ġjin4 Ġxing2Ġ
nuo4 Ġ
Ġshi4Ġ zai4Ġ
chong1 Ġ
Ġran2 Ġ
zhu3 Ġyi4Ġ
Ġnian2Ġ 9Ġyue4Ġ
kuai4 Ġ
tu3 Ġ
Ġzhi1 Ġhou4Ġ
yan2Ġjiu1 Ġ
Ġta1Ġmen Ġ
qiu2 Ġ
mai4 Ġ
shi2 ĠdeĠ
lian4 Ġ
hao4 Ġ
Ġ lian2Ġ
Ġnian2Ġ 5Ġyue4Ġ
sa4 Ġ
lu2 Ġ
xi4Ġ tong3Ġ
Ġ zui4Ġ
pei4 Ġ
lu3 Ġ
Ġnian2Ġ 4Ġyue4Ġ
chi3 Ġ
liao4 Ġ
Ġdang1 Ġ
Ġnian2Ġ 8Ġyue4Ġ
Ġnian2Ġ 6Ġyue4Ġ
Ġxing2 ĠdeĠ
zeng1 Ġ
ren2 ĠdeĠ
Ġ shi3Ġ
xiang1Ġ gang3Ġ
xuan1 Ġ
qi1Ġ jian1Ġ
de2 Ġ
kuang4 Ġ
guan3 Ġli3Ġ
Ġgong1Ġ zuo4Ġ
piao4 Ġ
Ġzhi1 Ġyi1Ġ
xu3 Ġ
Ġ lai2Ġ
di1 Ġ
da4 ĠdeĠ
heng2 Ġ
bu3 Ġ
Ġzhong1Ġ xin1Ġ
yang4 Ġ
xuan1 Ġbu4Ġ
sen1 Ġ
tui1 Ġ
Ġnian2Ġ 11Ġyue4Ġ
zu3 Ġzhi1Ġ
ri4 Ġ
bu4 ĠdeĠ
wang4 Ġ
pi2 Ġ
Ġ bao1Ġkuo4Ġ
chang4 Ġ
men Ġ
ying3Ġ xiang3Ġ
Ġta1 Ġzai4Ġ
yang3 Ġ
qian1 Ġmi3Ġ
en1 Ġ
ĠĠĠ sheng1Ġ
Ġhuo4 Ġde2Ġ
Ġshi4Ġ jie4
pi1 Ġ
sai1 Ġ
luo2 Ġsi1Ġ
he4 Ġ
ke3Ġ neng2
cheng2 ĠdeĠ
Ġ gai1
Ġ qing1Ġ
Ġ mei3
er2 Ġ
dun4 Ġ
nian4 Ġ
xian2 Ġ
lou2 Ġ
qi2 Ġta1Ġ
Ġnian2Ġ 2Ġyue4Ġ
bang1 Ġ
Ġcheng2Ġ li4Ġ
le Ġyi1Ġ
huo2Ġ dong4Ġ
Ġren4Ġ wei2Ġ
Ġ fen1
Ġ bi3Ġ
you1 Ġ
liu4 Ġ
Ġ shu4Ġ
ke1 Ġxue2Ġ
fa1Ġ zhan3Ġ
huo4 Ġde2Ġ
jun4 Ġ
Ġ luo2Ġ
Ġzuo4Ġ wei2Ġ
ya1 Ġ
Ġping2Ġfang1Ġ qian1Ġmi3Ġ
Ġ a1Ġ
Ġ wu2Ġ
hua2 Ġren2Ġmin2Ġ
ri4 Ġben3Ġ
bei1 Ġ
lao3 Ġ
hui4 Ġyi4Ġ
re4 Ġ
Ġ zhi2
Ġ liu2Ġ
tan2 Ġ
jian1 ĠdeĠ
ku4 Ġ
tie3 Ġlu4Ġ
ĠdeĠ ren2Ġ
Ġ zhang1Ġ
yong4 Ġyu2Ġ
liao2 Ġ
ning2 Ġ
Ġshi2Ġ jian1Ġ
ĠdeĠ gong1Ġ
Ġ shan1Ġ
ge4 Ġ
mian3 Ġ
Ġ yan2Ġ
mian4Ġ ji1
min2 Ġguo2Ġ
rui4 Ġ
6 Ġ
wu1 Ġke4Ġ
yin4 Ġ
xian3 Ġ
le4 Ġ
zuo3 Ġ
gong4 Ġyou3Ġ
ĠĠĠ li4Ġshi3Ġ
hao3 Ġ
ĠĠĠsheng1Ġ ping2Ġ
fang1 Ġshi4Ġ
Ġ zhi2Ġ
fa1Ġ sheng1Ġ
gan1 Ġ
Ġ cong2Ġ
dou4 Ġ
wen4Ġ ti2Ġ
guan4 Ġjun1Ġ
zhu3Ġ yao4Ġ
ran2 Ġ
di4 ĠdeĠ
Ġdi4Ġ er4Ġ
Ġ xiao3Ġ
dao3 Ġzhi4Ġ
guan1Ġ xi4Ġ
cun2 Ġ
kang1 Ġ
can1 Ġyu4Ġ
Ġ jin3Ġ
yuan3 Ġ
Ġbu4Ġ fen4
zheng3 Ġ
Ġgong1Ġ cheng2Ġ
wan2 Ġcheng2Ġ
dan1 Ġwei4Ġ
ke3Ġ neng2Ġ
Ġ zhi3Ġ
Ġ wu3Ġ
yi1 Ġwei4Ġ
Ġ ze2Ġ
1 Ġri4Ġ
xie4 Ġ
Ġ zong3Ġ
suo3 Ġyou3Ġ
zhi4 ĠdeĠ
wen2Ġ hua4Ġ
Ġcheng2Ġ yuan2Ġ
ĠdeĠ cheng2Ġ
gei3 Ġ
lv3 Ġ
Ġ ba1Ġ
Ġ tong1Ġ
yuan2 ĠdeĠ
yong1 Ġyou3Ġ
cun2 Ġzai4Ġ
er4 Ġshi2Ġ
bei3 Ġbu4Ġ
Ġ xi4Ġ
lian2 Ġhe2Ġ
hou4 ĠdeĠ
niu3 Ġ
Ġshi4Ġ zhong1Ġ
zheng4Ġ fu3
you2 Ġyu2Ġ
guo2Ġ jia1Ġ
dui4 Ġyu2Ġ
Ġnian2Ġ zhi4Ġ
fa1 Ġxing2Ġ
yi4 ĠdeĠ
ju4 Ġyou3Ġ
Ġ zhi3
Ġjian4Ġ zhu4Ġ
bi3Ġ sai4Ġ
Ġbing4 Ġzai4Ġ
Ġdao4Ġ leĠ
xin1 ĠdeĠ
ou1 Ġ
si1 ĠdeĠ
shen3 Ġ
zi4Ġ ji3
yun4Ġ dong4Ġ
yun2 Ġ
xing2 Ġzheng4Ġ
yin4 Ġdu4Ġ
e2Ġ luo2Ġsi1Ġ
bin1 Ġ
Ġ mian4Ġji1Ġ
dai4Ġ biao3Ġ
Ġ mei3Ġguo2Ġ
shao4 Ġ
Ġ ling4Ġ
xu3 Ġduo1Ġ
Ġdan4 Ġshi4Ġ
ren4 Ġhe2Ġ
sheng1 Ġyu2Ġ
tu1 Ġ
Ġ jian3Ġ
gui4 Ġ
man3 Ġ
Ġnian2Ġ dai4Ġ
ding1 Ġ
liang3 Ġge4Ġ
che4 Ġ
bao3Ġ hu4Ġ
Ġren2Ġkou3Ġ mi4Ġ
Ġ dian4Ġ
Ġ shi3
zh Ġ
Ġ guan1Ġ
Ġdang1 Ġshi2Ġ
xiu4 Ġ
ĠdeĠ yi2Ġge4Ġ
nan2 Ġbu4Ġ
ju3 Ġxing2Ġ
zhang4 Ġ
zhuan1 Ġji2Ġ
mian4Ġji1 Ġwei4Ġ
xuan2 Ġ
lai2 ĠdeĠ
ge Ġ
fan1 Ġ
e4 Ġ
Ġ ceng2Ġ
zao3 Ġ
Ġzheng4Ġ fu3Ġ
du2 Ġli4Ġ
fu2Ġ wu4Ġ
jue2Ġ ding4Ġ
xie3 Ġ
Ġchu1 ĠdeĠ
ruo4 Ġ
zhu3Ġ yao4
kai1Ġ shi3
Ġli4Ġ shi3Ġ
qing3 Ġ
Ġ san1Ġ
Ġshe4 Ġji4Ġ
Ġ wang2Ġ
Ġ mei3Ġ
ming2 ĠdeĠ
hai4 Ġ
rang4 Ġ
Ġshi4Ġwei4Ġ yu2Ġ
jiu4 Ġshi4Ġ
Ġyou3Ġ yi1Ġ
Ġ jiang1
geng1 Ġ
gt Ġ
Ġ ci3
Ġ gtĠ
xi3 Ġ
tan4 Ġ
Ġqi2 Ġta1Ġ
Ġ fa3Ġ
Ġxing2Ġ zheng4Ġ
pei2 Ġ
jiao4Ġ yu4Ġ
shou4 Ġdao4Ġ
Ġ feng1Ġ
ren4Ġ wei2Ġ
lt Ġ
Ġ jie1Ġ
fang3 Ġ
kan1 Ġ
wan3 Ġ
Ġshi4Ġ di4Ġ
fa1Ġ zhan3
ai1 Ġ
she4 Ġhui4Ġ
Ġ ltĠ
yi4 Ġwei4Ġ
gu4 Ġshi4Ġ
shan4 Ġ
pian1 Ġ
fang1Ġ mian4Ġ
Ġxian4 Ġzai4Ġ
Ġzui4 Ġzhong1Ġ
qu1 Ġwei4Ġ
Ġ bi4Ġ
qin2 Ġ
Ġzhong1Ġyang1 Ġ
Ġshi4Ġ shi4Ġ
pao4 Ġ
tui4 Ġ
zhe Ġ
nei4 ĠdeĠ
Ġ jiu4Ġ
shu3 ĠdeĠ
xiang1Ġ gang3
xiao3 Ġshi2Ġ
dan4 Ġ
Ġ qu1Ġ
Ġli4Ġ ru2Ġ
zu2 Ġqiu2Ġ
Ġbu4Ġ tong2
shu4Ġ ju4Ġ
lie4Ġ che1Ġ
xu1Ġ yao4Ġ
hua4 ĠdeĠ
Ġ dong4Ġ
Ġ sui1
zhi2Ġ wu4Ġ
ren2 Ġshi4Ġ
qiang1 Ġ
zuo4 ĠdeĠ
shi3Ġ yong4
zeng1 Ġjia1Ġ
Ġji4Ġ hua4Ġ
min2Ġ zhu3Ġ
Ġshi2Ġ qi1Ġ
zuo4Ġ wei2Ġ
Ġ gu3Ġ
Ġ ceng2
kong4 Ġzhi4Ġ
Ġye3 Ġshi4Ġ
duan3 Ġ
tan3 Ġ
Ġjian4 ĠdeĠ
yin1 Ġyue4Ġ
Ġran2 Ġer2Ġ
Ġ an1Ġ
Ġ shu3Ġyu2Ġ
Ġyi3Ġ jing1Ġ
lang2 Ġ
Ġhe2Ġ zuo4Ġ
Ġzai4Ġ di4Ġ
ren2Ġ min2Ġ
Ġshi4Ġ jian4Ġ
Ġren2Ġ yuan2Ġ
Ġ you4
Ġ ke1Ġ
ta1 ĠdeĠ
Ġjian4 Ġyu2Ġ
xue2Ġ yuan4Ġ
zu3 Ġcheng2Ġ
Ġ ma3
chao1 Ġguo4Ġ
Ġ ge2Ġ
zuo4Ġ pin3Ġ
Ġyin1 Ġyue4Ġ
mao4 Ġ
Ġquan2 Ġguo2Ġ
xiong2 Ġ
zai3 Ġ
hu1 Ġ
hui4 ĠdeĠ
ji4 ĠdeĠ
Ġ si4Ġ
zong3Ġ tong3Ġ
suan4 Ġ
Ġzhe4Ġ xie1Ġ
Ġwei4Ġ leĠ
Ġhou4Ġ lai2Ġ
Ġ shou4Ġ
yu2 Ġshi4Ġ
Ġ pu3Ġ
Ġ zhang3Ġ
Ġ tai4Ġ
Ġcheng2Ġ gong1Ġ
fa1 Ġbu4Ġ
da4Ġ li4Ġ
ti2 Ġchu1Ġ
Ġsui4 Ġ
Ġli4Ġ ya4Ġ
Ġyi4Ġ yuan2Ġ
Ġshe4 Ġyou3Ġ
ĠĠĠ deĠ
Ġyin1Ġ ci3
yun4Ġdong4 Ġyuan2Ġ
yao1 Ġqiu2Ġ
han2 Ġguo2Ġ
bu4 Ġzai4Ġ
ni2Ġ ya4
pin2 Ġ
you3 ĠdeĠ
pu2 Ġ
Ġ 000
zao4 Ġcheng2Ġ
ou1 Ġzhou1Ġ
qiu1 Ġ
cai3Ġ yong4Ġ
xiao3 Ġxing2Ġ
Ġgong1Ġ yuan2Ġ
jia1 ĠdeĠ
xing4 ĠdeĠ
ba3 Ġ
sheng1 ĠdeĠ
ĠdeĠ yi2Ġge4
Ġri4 Ġzai4Ġ
dang1 Ġshi2Ġ
kong4 Ġ
ren2Ġ wu4Ġ
feng4 Ġ
Ġci3Ġ wai4Ġ
Ġ sui2
gong4Ġ chan3Ġ
Ġ la1Ġ
kan4 Ġ
Ġ zhĠ
Ġ cong2
Ġ wo3Ġ
Ġ sha1Ġ
7 Ġ
wan1 Ġ
Ġshi4Ġ he2Ġ
2010 Ġnian2Ġ
Ġ ling4
Ġ gen1Ġju4Ġ
ĠdeĠ bu4Ġ
Ġ ti3Ġ
ma3 Ġwei4Ġ
xue2Ġ jia1Ġ
you2Ġ xi4Ġ
song1 Ġ
fan4 Ġwei2Ġ
Ġbu4Ġ tong2Ġ
mao2 Ġ
dun1 Ġ
kai1Ġ fa1Ġ
chao1 Ġ
she4 Ġji4Ġ
Ġ ke3Ġ
san1 Ġnian2Ġ
qu3 Ġde2Ġ
ĠdeĠ ji1Ġ
Ġ nv3Ġ
sai4 Ġshi4Ġ
Ġ jian1Ġ
ĠĠĠ shi4Ġ
Ġxing2 Ġcheng2Ġ
ĠĠĠdi4Ġ li3Ġ
xiong1 Ġ
wen1 Ġ
zi4 Ġzhi4Ġ
Ġ yi2Ġ
chan3 Ġsheng1Ġ
Ġ wu4Ġ
a1 Ġer3Ġ
yao2 Ġ
ĠdeĠ ji4Ġ
shu1 Ġji4Ġ
Ġzhong1Ġ hua2Ġren2Ġmin2Ġ
jie2Ġ mu4Ġ
Ġbing4 Ġyu2Ġ
Ġ liang3Ġ
dou1 Ġshi4Ġ
ni3 Ġ
chong2 Ġxin1Ġ
lve4 Ġ
chun1 Ġ
Ġshe4 Ġhui4Ġ
zhong4Ġ yao4
li3 ĠdeĠ
bu2 Ġshi4Ġ
zan4 Ġ
Ġdai4Ġ biao3Ġ
yi1 Ġnian2Ġ
Ġxiang1Ġ gang3Ġ
Ġsi1Ġ te4Ġ
guan1 Ġyu2Ġ
dang4 Ġ
8 Ġ
zhui1 Ġ
dian4Ġ ying3
xi4Ġ tong3
Ġ na4Ġ
jue2Ġ se4Ġ
Ġ fu2
10 Ġ
jiao1Ġ tong1Ġ
ding3 Ġ
lang3 Ġ
Ġyou2Ġ xi4Ġ
da4Ġ xue2Ġ
ji2 ĠdeĠ
ge1Ġ qu3Ġ
chu2 ĠleĠ
Ġchu1 Ġxian4Ġ
Ġ jie2
tao3 Ġ
2020 Ġnian2Ġ
mi2 Ġ
Ġzhi4Ġ zuo4Ġ
Ġda4Ġ xue2
ping2 Ġjun1Ġ
Ġ chen2Ġ
Ġde2 Ġguo2Ġ
xian3 Ġshi4Ġ
hua2Ġ min2Ġguo2Ġ
Ġ shen1Ġ
kuo4 Ġ
Ġnian2Ġ zai4Ġ
kong3 Ġ
hou4 Ġzai4Ġ
miao2 Ġ
Ġ liang3
Ġnian2Ġ dai4
er4 Ġnian2Ġ
xia4 ĠdeĠ
yan3 Ġyuan2Ġ
Ġke4 Ġsi1Ġ
de2 Ġguo2Ġ
xiang2 Ġ
qing4 Ġ
Ġ bao3Ġ
wei2 Ġyi1Ġ
cao3 Ġ
dang1 Ġdi4Ġ
guo2Ġ ji4Ġ
dui4 ĠdeĠ
bo2Ġ wu4Ġ
Ġ fei1Ġ
Ġjian4 Ġli4Ġ
hun1 Ġ
Ġdi4Ġ guo2Ġ
Ġbu4Ġ yu2Ġ
Ġ 1Ġ
fan3 Ġdui4Ġ
zou3 Ġ
qi1 ĠdeĠ
duan1 Ġ
wu4 ĠdeĠ
xue4 Ġ
yin1 Ġwei4Ġ
qu1Ġ yu4Ġ
qu4 Ġshi4Ġ
kuan3 Ġ
yi1 Ġbu4Ġfen4Ġ
wo4 Ġ
ba2 Ġgao1Ġ
Ġ chang2Ġ
que1 Ġ
2001 Ġnian2Ġ
guan3Ġ xia2Ġ
du4 Ġwei4Ġ
zheng4Ġzhi4Ġ ren2Ġwu4Ġ
Ġ ka3Ġ
Ġ fa1Ġ
ni2Ġ ya4Ġ
hai2 Ġyou3Ġ
peng2 Ġ
ĠĠĠ ren2Ġkou3Ġ
Ġdang1 Ġdi4Ġ
zui4 Ġzhong1Ġ
Ġta1 Ġshi4Ġ
Ġ dan1Ġ
Ġbu4Ġ dui4Ġ
Ġ yue1Ġ
chi4 Ġ
Ġxing2 Ġshi4Ġ
bi3Ġ sai4
qian2Ġ wang3Ġ
Ġ wei1Ġ
zhi2Ġ ye4Ġ
ding4 ĠdeĠ
quan2 Ġguo2Ġ
ba1 Ġshi4Ġ
yi1 Ġbu4Ġ
ĠdeĠ yuan2Ġ
Ġzheng4Ġ fu3
lai2Ġ zi4Ġ
Ġ chu2Ġ
zhong4Ġ yao4Ġ
Ġ lin2Ġ
diao4Ġ cha2Ġ
Ġzhi1Ġ jian1Ġ
bian1Ġ ma3Ġwei4Ġ
Ġ huang2Ġ
Ġnian2Ġ jian1Ġ
Ġxue2Ġ ming2Ġ
xue2Ġ xiao4Ġ
zhao1 Ġ
zhu3Ġ xi2Ġ
xuan3Ġ ju3Ġ
Ġri4 Ġzhi4Ġ
Ġ mei2Ġ
gai3 Ġwei2Ġ
zu3 Ġzhi1
Ġ nei4Ġ
zhu3Ġ jiao4Ġ
fa2 Ġ
zi1Ġ liao4Ġ
Ġ jing4Ġ
hai3 Ġjun1Ġ
gong1 Ġshi4Ġ
Ġjun1 Ġshi4Ġ
ĠdeĠ da4Ġ
Ġren2Ġkou3Ġmi4Ġ du4Ġ
chu3 Ġli3Ġ
zai1 Ġ
kang4 Ġ
sun1 Ġ
ĠdeĠ yi4Ġ
fang1Ġ fa3Ġ
fu4Ġ ze2Ġ
Ġ qi3Ġ
Ġri4Ġ ben3
wu1Ġke4Ġ lan2Ġ
ĠĠĠ yu3Ġ
Ġ duo1
Ġ ci4Ġ
Ġ bo1Ġ
Ġ jie4Ġ
Ġ sheng4Ġ
shu4 ĠdeĠ
Ġyou3Ġ xian4
dai4Ġ biao3
guan4 Ġ
Ġ san1
Ġge4 Ġren2Ġ
Ġ hua4Ġ
ying3Ġ xiang3
wu2Ġ fa3Ġ
Ġji4Ġ shu4Ġ
Ġ kai1Ġ
Ġshi4Ġ you2Ġ
ju1Ġ min2Ġ
zui4Ġ gao1Ġ
jie1Ġ rang3
Ġ gai3Ġ
Ġ 1
pa4 Ġ
qi2 Ġzhong1Ġ
lu4 ĠdeĠ
Ġ hong2Ġ
Ġ ze2
xue2Ġ sheng1Ġ
Ġzhi1Ġ chi2Ġ
zi4Ġ you2Ġ
wen3 Ġ
biao1Ġ zhun3Ġ
xie2 Ġhui4Ġ
shu4Ġ liang4
qie4 Ġ
an1 Ġquan2Ġ
fan3Ġ ying4Ġ
ke3 Ġyi3
hui4 Ġzai4Ġ
yao1 Ġ
shen4 Ġzhi4Ġ
ken3 Ġ
ye2 Ġ
bi3 Ġli4Ġ
tong3 Ġzhi4Ġ
chuang4 Ġzuo4Ġ
zhu3Ġ ren4Ġ
Ġ 2Ġ
Ġ sui2Ġ
Ġ xin1
ĠĠĠ ben3Ġ
xi4Ġ lie4Ġ
dong1 Ġbu4Ġ
Ġ ming2
Ġshi4Ġ yi2Ġge4Ġ
Ġ nan2
lian2Ġ meng2Ġ
Ġgong1Ġ si1
gai1 Ġguo2Ġ
kai3 Ġ
Ġfu4Ġ ze2Ġ
fan2 Ġ
ya3 Ġ
Ġdi4Ġ san1Ġ
Ġdi4Ġ shi2Ġ
ĠĠĠ xing2Ġzheng4Ġ
Ġ su1Ġ
ti3Ġ yu4Ġ
Ġbu4Ġ guo4Ġ
jie2Ġ gou4Ġ
niu2 Ġ
Ġdao4 ĠdeĠ
shi2 Ġnian2Ġ
qing2Ġ kuang4Ġ
neng2 Ġli4Ġ
nan2Ġ ziĠ
Ġ shui3Ġ
zhong1 Ġshi4Ġ
qing2Ġ kuang4
si4 Ġnian2Ġ
Ġ ge1Ġ
Ġ yang2Ġ
xi1 Ġbu4Ġ
hao2 Ġ
gong1 Ġbu4Ġ
sheng1Ġ huo2Ġ
jie1Ġ shou4Ġ
mou3 Ġ
nv3Ġ zi3Ġ
of ĠĠĠ
Ġ ao4
lu4 Ġxian4Ġ
cheng2Ġ li4Ġ
ĠĠĠ formulaĠ
suo1 Ġ
Ġzhong1Ġ xue2Ġ
gu1 Ġ
huan1 Ġ
mian4 ĠdeĠ
Ġjin4Ġ ru4Ġ
yi4 Ġshi4Ġ
Ġ ke3Ġyi3Ġ
Ġer3 Ġsi1Ġ
Ġzhu3Ġ yao4Ġ
ĠĠĠ ofĠĠĠ
bei3Ġ jing1Ġ
kuan1 Ġ
Ġ ba1
the ĠĠĠ
you3 Ġshi2Ġ
Ġyi4Ġ hui4Ġ
guang3Ġ dong1Ġ
duo2 Ġ
lian2Ġ sai4Ġ
Ġ ao4Ġ
Ġ tai2Ġ
ĠĠĠ jia1Ġ
lao2 Ġ
jian4 Ġzhu4Ġ
ya4 Ġzhou1Ġ
dao3 ĠdeĠ
Ġguo2Ġ min2Ġ
ye3 Ġshi4Ġ
na2 Ġda4Ġ
tai4 Ġping2Ġ
dong4Ġ wu4Ġ
Ġsuo3 Ġyi3Ġ
Ġbing4Ġ qie3
di4 Ġwei4Ġ
ran3 Ġ
gui3 Ġ
Ġzhe4 Ġshi4Ġ
ba2Ġgao1Ġ du4Ġ
da2 Ġdao4Ġ
zi4Ġji3 ĠdeĠ
li3 Ġshi4Ġ
zhu2 Ġjian4Ġ
zhuan4 Ġ
dai4 ĠdeĠ
ban3 Ġben3Ġ
xu3Ġ duo1
zhe3 ĠdeĠ
Ġ hai2Ġ
jiao4Ġ shou4Ġ
2008 Ġnian2Ġ
xiang4Ġ mu4Ġ
Ġxue2Ġ xiao4Ġ
Ġ mu3Ġ
Ġ hu2Ġ
wu1Ġke4Ġ lan2
fei1Ġ chang2Ġ
Ġ da4
2009 Ġnian2Ġ
Ġxi1Ġ ya4Ġ
Ġ er4Ġ
qing1 Ġnian2Ġ
Ġ zong3
Ġzhu3Ġ yao4
la1 Ġsi1Ġ
ĠĠĠ gen1Ġju4Ġ
yi1 Ġshi4Ġ
Ġcheng2Ġ wei2
ri4Ġ ben3
Ġbing4Ġ qie3Ġ
mo2 Ġshi4Ġ
zhe2 Ġ
niao3 Ġ
wen2Ġ wu4Ġ
Ġta1Ġmen ĠdeĠ
Ġyi4Ġ shu4Ġ
cha1 Ġ
zhi3 Ġyou3Ġ
Ġji4Ġ lu4Ġ
Ġzhou1 ĠdeĠ
Ġ ai4Ġ
Ġ min2Ġ
hang2Ġ kong1Ġ
Ġ yu2Ġshi4Ġ
Ġ bo2Ġ
wen2Ġ xue2Ġ
fen1 Ġwei2Ġ
suan1 Ġ
hui3 Ġ
Ġqi2 Ġshi4Ġ
Ġqi2 Ġyu2Ġ
deng3 Ġren2Ġ
tong1Ġ guo4
cang2 Ġ
zhi3 Ġchu1Ġ
Ġ yong4Ġ
shuai4 Ġ
28 Ġri4Ġ
ren2Ġkou3Ġ pu3Ġ
cuo4 Ġ
zhi2 Ġxing2Ġ
Ġ jin1
tong2 Ġshi2Ġ
Ġqiu2 Ġdui4Ġ
9 Ġ
zha4 Ġ
Ġli4Ġ ya4
yan3 Ġchu1Ġ
zhi2Ġ jie1Ġ
gai1 Ġdi4Ġ
jin3Ġ biao1Ġ
ge2Ġ lan2Ġ
2016 Ġnian2Ġ
huo2Ġ dong4
ren4Ġ wei2
zhe4 Ġyi1Ġ
jin4Ġ ru4Ġ
Ġzhi1Ġ jian1ĠdeĠ
Ġgong1Ġ kai1Ġ
Ġdang1 Ġzhong1Ġ
hun4 Ġ
gong4 Ġtong2Ġ
xia4 Ġji4Ġ
Ġdan4 Ġzai4Ġ
chou2 Ġ
zhan4Ġ zheng1Ġ
wu3 Ġnian2Ġ
Ġ wu2
jiang1 Ġjun1Ġ
le4 Ġbu4Ġ
mei2Ġ ti3Ġ
ti3 ĠdeĠ
po1 Ġ
che1Ġ zhan4
ti4 Ġ
15 Ġri4Ġ
meng4 Ġ
tui1 Ġchu1Ġ
die2 Ġ
jiao4Ġ yu4
yun3 Ġ
zhe4Ġ xie1Ġ
Ġshi4Ġ wu4Ġ
miao4 Ġ
li2Ġ kai1Ġ
Ġ yin3Ġ
0 Ġ
Ġling4Ġ wai4Ġ
huan2Ġ jing4Ġ
teng2 Ġ
zhu2 Ġ
2012 Ġnian2Ġ
lin2Ġ pi3
Ġdi4Ġ er4
shang1Ġ ye4Ġ
2011 Ġnian2Ġ
chuan2Ġ tong3Ġ
ĠĠĠ nian2
guan1 ĠdeĠ
san1 Ġshi2Ġ
jun1 Ġshi4Ġ
dan1Ġ qu1Ġ
liang4 ĠdeĠ
san4 Ġ
jie1 Ġdao4Ġ
ji1 ĠdeĠ
qian2 ĠdeĠ
ren2 Ġzai4Ġ
zang4 Ġ
nei4Ġ rong2Ġ
sai4 Ġji4Ġ
gao1 ĠdeĠ
dong4Ġ hua4Ġ
bo2 Ġshi4Ġ
du4 ĠdeĠ
Ġwei4Ġ ren2Ġ
Ġ mi3
yin2Ġ hang2Ġ
sun3 Ġ
xuan3Ġ ju3
Ġ gu4Ġ
Ġwei4Ġ zhi4Ġ
Ġ 2
cheng2 Ġzhong1Ġ
ming4 Ġming2Ġ
deng3 Ġdi4Ġ
Ġgong1Ġ lu4Ġ
bang3 Ġ
re4 Ġdai4Ġ
sheng3 ĠdeĠyi2Ġge4
bei3Ġ jing1
Ġshi2Ġ ji4Ġ
yun4Ġdong4 Ġhui4Ġ
xuan3Ġ ze2Ġ
Ġda4Ġ li4Ġ
Ġer2 Ġzai4Ġ
Ġ han4Ġ
Ġ ye4Ġ
yuan2 Ġnian2Ġ
bao4Ġ gao4Ġ
Ġmu4Ġ qian2Ġ
ĠdeĠ he2Ġ
bo1 Ġchu1Ġ
zui4 Ġjia1Ġ
A Ġ
ĠĠĠ ju4Ġ
zong1 Ġjiao4Ġ
xue2 Ġwei4Ġ
tu3 Ġdi4Ġ
Ġde2 Ġdao4Ġ
Ġzhe4Ġ geĠ
wen2Ġ hua4
zui4 Ġhou4Ġ
tuan2Ġ ti3Ġ
25 Ġri4Ġ
Ġdi4Ġ fang1Ġ
gui3 Ġdao4Ġ
luan4 Ġ
Ġwei4Ġ di4Ġ
Ġ mo2Ġ
Ġ zhan4
jing1 Ġli4Ġ
xi4 ĠdeĠ
Ġzhi1Ġ qian2Ġ
Ġshi4Ġyi1Ġ zhong3Ġ
Ġ qi4Ġ
sui4 Ġ
Ġ xing4Ġ
Ġge4 Ġyue4Ġ
Ġzhong1Ġ hua2Ġmin2Ġguo2Ġ
Ġjun1 ĠdeĠ
si3Ġ wang2Ġ
xiang1Ġ guan1Ġ
Ġ bao1Ġkuo4
30 Ġri4Ġ
Ġji1Ġ gou4Ġ
wei4 ĠdeĠ
shou3Ġ ci4Ġ
ao4Ġ lin2Ġpi3
fen1Ġ bie2
ling3Ġ dao3Ġ
Ġyou3Ġ guan1Ġ
Ġhai3Ġ ba2Ġgao1Ġdu4Ġ
Ġyi1Ġ xie1Ġ
Ġ zhong4Ġ
Ġtong2 Ġnian2Ġ
Ġ jue2Ġ
yong4 ĠdeĠ
2014 Ġnian2Ġ
huai2 Ġ
ĠĠĠ wei4Ġ
20 Ġri4Ġ
Ġxing2Ġ dong4Ġ
xue3 Ġ
Ġzai4Ġ yi1Ġ
ji1 Ġyu2Ġ
ji2 Ġzhong1Ġ
shui3 Ġyu4Ġ
bian4Ġ hua4Ġ
10 Ġri4Ġ
shang4 Ġwei4Ġ
Ġji2Ġ tuan2
Ġ 5Ġ
2018 Ġnian2Ġ
Ġji4Ġ xu4Ġ
zhi1 Ġyi1Ġ
Ġshi2Ġ dai4Ġ
chu3 Ġyu2Ġ
wan4 Ġ
UTC Ġ
Ġ bai2Ġ
Ġ wai4Ġ
gong4 Ġhe2Ġ
Ġ ziĠ
Ġbu4Ġ zhang3Ġ
zi4Ġ ji3Ġ
jie2Ġ shu4Ġ
2019 Ġnian2Ġ
Ġzi4Ġ ji3
zhi1Ġ chi2Ġ
2005 Ġnian2Ġ
guo4 Ġcheng2Ġ
Ġhou4Ġ lai2
mei3 Ġyuan2Ġ
min2Ġ zu2Ġ
shun4 Ġ
2015 Ġnian2Ġ
kong1Ġ jian1Ġ
shui4 Ġ
mei4 Ġ
bu2 Ġhui4Ġ
ye4 Ġyu2Ġ
Ġ ru2
Ġ cheng1Ġ
tou4 Ġguo4Ġ
nei4 Ġbu4Ġ
Ġ si4
2013 Ġnian2Ġ
jie3Ġ fang4
Ġzhi2 Ġdao4Ġ
Ġyi4Ġ zhi2Ġ
Ġ jing3Ġ
xin1Ġ wen2Ġ
fen1 Ġbu4Ġ
gen1Ġ ju4
Ġ ai4
Ġzhou1 Ġshi4Ġ
pi1 Ġping2Ġ
Ġ jiu4
Ġji2Ġ tuan2Ġ
2007 Ġnian2Ġ
Ġ shu3Ġ
di4Ġ qu1Ġ
ta1Ġ men
ĠĠĠ zhe4Ġ
Ġhe2Ġ nan2Ġ
Ġshi4Ġ shi2Ġ
Ġyou3Ġxian4 Ġgong1Ġsi1Ġ
Ġ shen2Ġ
wan2 Ġjia1Ġ
gui1Ġ ding4Ġ
Ġjia1Ġ ru4Ġ
ge2Ġ ming4Ġ
12 Ġ
wan2 Ġquan2Ġ
cheng2Ġ wei2Ġ
Ġ tang2Ġ
xi1Ġ ban1Ġ
zi1Ġ ge2Ġ
26 Ġri4Ġ
da4Ġ lu4Ġ
ĠĠĠ gai1Ġ
ao4Ġlin2Ġpi3 Ġke4Ġ
18 Ġri4Ġ
2017 Ġnian2Ġ
Ġda4Ġ hui4Ġ
24 Ġri4Ġ
Ġ mo4Ġ
Ġ tou2Ġ
zai4 ĠdeĠ
za2 Ġzhi4Ġ
ĠĠĠ yi1Ġ
Ġzhe4Ġ zhong3Ġ
Ġ ke3
ying1 Ġyu3Ġ
lu4 Ġdi4Ġ
Ġ ying1Ġguo2Ġ
he2 ĠdeĠ
shang4Ġ hai3Ġ
hao2 Ġmi3Ġ
Ġyu3Ġ yan2Ġ
qi2 Ġta1
qi3Ġ ye4Ġ
pu2Ġ tao2Ġ
fang1 ĠdeĠ
hou4 Ġyi1Ġ
luo2Ġ ma3Ġ
wen4Ġ ti2
Ġcheng2Ġ qu1Ġ
san1 Ġge4Ġ
se4 ĠdeĠ
2006 Ġnian2Ġ
chuan2Ġ tong3
Ġshi4Ġ fa3Ġguo2Ġ
yi1 ĠdeĠ
Ġ yao4Ġ
wu4Ġ zhong3Ġ
Ġwei4Ġyu2Ġ gai1Ġguo2Ġ
Ġ 3Ġ
Ġ ha1Ġ
Ġli3Ġ si1Ġ
Ġ tai2Ġwan1Ġ
jing4Ġ nei4Ġ
Ġbu4Ġtong2 ĠdeĠ
Ġ mo4
wu4 Ġli3Ġ
duo1 ĠdeĠ
shu4 Ġwei4Ġ
Ġdai4Ġ biao3
biao3 Ġxian4Ġ
Ġshi4Ġjie4 Ġda4Ġ
de ĠĠĠ
sheng3 Ġji2Ġ
gan4 Ġ
miao2 Ġshu4Ġ
fa3Ġ lv4Ġ
ba4 Ġ
guan1 Ġyuan2Ġ
Ġ lu2Ġ
jing1Ġ guo4Ġ
C Ġ
chang1 Ġ
16 Ġri4Ġ
sou1 Ġ
Ġzui4 Ġhou4Ġ
17 Ġri4Ġ
Ġyi4Ġ ban1Ġ
po4Ġ huai4
Ġguo2Ġ jia1
Ġ a1
ying2 Ġde2Ġ
cai4 Ġ
Ġsui2 Ġhou4Ġ
na2 Ġ
B Ġ
zheng4 Ġzai4Ġ
12 Ġri4Ġ
bao1Ġ han2Ġ
Ġshi4Ġ jian4
bo2Ġwu4Ġ guan3Ġ
Ġgong1Ġ ji1Ġ
shen4 Ġ
11 Ġ
ce4 Ġshi4Ġ
chang3 ĠdeĠ
chun2 Ġ
Ġwei4Ġ zhong1Ġ
Ġli4Ġ yong4Ġ
bu4 Ġhe2Ġ
Ġ chao2Ġ
nie4 Ġ
8 Ġri4Ġ
ze2 Ġshi4Ġ
fei1 Ġji1Ġ
Ġfen1 Ġbu4Ġyu2Ġ
zhuan1Ġ ye4Ġ
zheng1 Ġyi4Ġ
27 Ġri4Ġ
fa3Ġ yuan4Ġ
shi3 ĠdeĠ
Ġdi4Ġ qu1
Ġ 2001Ġnian2Ġ
Ġ ci4
yong1 Ġ
21 Ġri4Ġ
yi4 Ġshi2Ġ
zao1 Ġdao4Ġ
Ġsui1 Ġran2
Ġ chong2Ġ
Ġshi4Ġ yi4Ġ
Ġsheng1Ġ huo2Ġ
Ġbei4Ġ cheng1Ġwei2Ġ
ding4 Ġyi4Ġ
Ġzhong1Ġ xin1
Ġda4Ġ qu1Ġ
zong1 Ġhe2Ġ
Ġzhan4Ġ zheng1Ġ
xue2 ĠdeĠ
Ġxian4 Ġshi2Ġ
7 Ġri4Ġ
Ġzhong1Ġ gong4
19 Ġri4Ġ
ji2 Ġwei4Ġ
23 Ġri4Ġ
2021 Ġnian2Ġ
huang2 Ġdi4Ġ
ĠdeĠ zuo4Ġ
Ġ zhu1Ġ
zhi3 Ġshi4Ġ
2022 Ġnian2Ġ
11 Ġri4Ġ
a1Ġ la1Ġ
ou1 Ġzhou1
jiang1 Ġqi2Ġ
Ġbing4 Ġbu4Ġ
yuan2 Ġyu2Ġ
fang1Ġ xiang4Ġ
9 Ġri4Ġ
liu4 Ġnian2Ġ
zhan4 ĠdeĠ
e2Ġ luo2Ġ
ĠĠĠ yu2Ġ
lie4Ġ che1
chu1 Ġxian4Ġ
quan2 Ġli4Ġ
nao3 Ġ
gui1Ġ mo2Ġ
22 Ġri4Ġ
29 Ġri4Ġ
lie4 ĠdeĠ
14 Ġri4Ġ
zui4Ġ da4ĠdeĠ
Ġ lu4
duo1Ġ shu4Ġ
xiang4 ĠdeĠ
xu1Ġ yao4
hai2 Ġshi4Ġ
Ġ long2Ġ
yu4 ĠdeĠ
neng2Ġ gou4Ġ
ĠĠĠ theĠĠĠ
yue1Ġ han4Ġ
Ġzhe4Ġ xie1
5 Ġri4Ġ
ĠĠĠ ci3Ġ
ding4 Ġwei4Ġ
tong3 Ġji4Ġ
Ġxiang1Ġ gang3
Ġ zhang1
Ġfen1Ġ bie2
sang1 Ġ
ĠĠĠ zheng4Ġzhi4Ġ
Ġzai4Ġ zhe4Ġ
xin4 Ġxi1Ġ
yang4 ĠdeĠ
Ġxian4 Ġzhi4Ġ
hong1 Ġ
gong1 ĠdeĠ
3 Ġri4Ġ
ju3Ġ ban4
qiu2 Ġdui4Ġ
lian2Ġ meng2
ling4 Ġyi1Ġ
cha2 ĠdeĠ
chang2 Ġshi4Ġ
6 Ġri4Ġ
niu3Ġ yue1
Ġhuo4 Ġde2
zu3 Ġhe2Ġ
lin2 Ġshi2Ġ
31 Ġri4Ġ
Ġzhong1Ġ bu4Ġ
Ġ bao4Ġ
wei4 Ġshi4Ġ
dong3 Ġshi4Ġ
ji1 Ġdi4Ġ
ĠĠĠ zhong1Ġ
ge1Ġ shou3Ġ
Ġ liu2
Ġ ru4Ġ
dong1Ġ nan2Ġ
hai3Ġ ba2
bang1 Ġzhu4Ġ
Ġ hua2Ġ
ĠdeĠshi4Ġ zhen4Ġ
Ġ gong4Ġ
4 Ġri4Ġ
pai1 Ġshe4Ġ
mou2 Ġ
Ġyi4Ġ da4Ġli4Ġ
Ġshe4 Ġli4Ġ
13 Ġri4Ġ
Ġyi4Ġ ban1
2 Ġri4Ġ
Ġ jia4Ġ
2000 Ġnian2Ġ
Ġren2Ġ kou3
ge4 Ġren2Ġ
she4 Ġyou3Ġ
ĠdeĠ zhong1Ġ
bing3 Ġ
sheng1Ġ ya2Ġ
yuan2 Ġhe2Ġ
Ġ dao3Ġzhi4Ġ
Ġdi4Ġ qu1ĠdeĠ
2004 Ġnian2Ġ
Ġxue2Ġ sheng1Ġ
tie3Ġ lu4
feng2 Ġ
zu2 Ġqiu2
zao3 Ġqi1Ġ
Ġqi2 Ġta1
The ĠĠĠ
pan2 Ġ
ruan3 Ġ
xiong1 Ġdi4Ġ
sheng1 Ġzai4Ġ
cang1 Ġ
dong1Ġ bei3Ġ
Ġ bian4Ġ
mu4 Ġdi4Ġ
Ġ wo3
tong1Ġ chang2Ġ
hui1 Ġfu4Ġ
Ġzhe4 Ġyi1Ġ
Ġshi4Ġ chang3Ġ
Ġxue2Ġ yuan4Ġ
Ġ mei2Ġyou3Ġ
shao1 Ġ
shen1Ġ fen4Ġ
ĠĠĠ you2Ġyu2Ġ
qu3 Ġdai4Ġ
ge2Ġ ming4
lian2Ġ bang1Ġ
zhi3Ġ hui1Ġ
Ġ 4Ġ
qing2Ġkuang4 Ġxia4Ġ
yi2 Ġbu4Ġ
21 Ġ
su1Ġ lian2Ġ
xie2 Ġyi4Ġ
huang2 Ġjia1Ġ
ke1 Ġji4Ġ
fa1 Ġxian4
Ġ fu4
pang2 Ġ
zheng3 Ġge4Ġ
Ġ hei1Ġ
ren2 Ġhe2Ġ
Ġgong1Ġ chi3Ġ
yao1 Ġqiu2
yan1 Ġ
zhan1 Ġ
chao1 Ġji2Ġ
mao4 Ġyi4Ġ
yue4 ĠdeĠ
zhang3 ĠdeĠ
xue2Ġ yuan4
fan3Ġ ying4
ju3Ġ ban4Ġ
hang2Ġ kong1
cui1 Ġ
xi2 Ġji1Ġ
ting3 Ġ
Ġye3 Ġyou3Ġ
nv3Ġ xing4Ġ
hua4 Ġhe2Ġ
xiao3Ġ shuo1Ġ
Ġdi4Ġ li4Ġ
li4 Ġhe2Ġ
Ġ shu1Ġ
Ġxi1Ġ nan2Ġ
tu2Ġ shu1Ġ
xian1 Ġhou4Ġ
Ġ shuang1Ġ
tong3 Ġyi1Ġ
bi4Ġ ye4Ġ
Ġ ha1
guan1Ġ fang1Ġ
za2 Ġ
Ġ gu4
br Ġ
Ġ dong1
Ġ wei1
Ġ que4Ġ
zun1 Ġ
Ġ man4Ġ
sai4 ĠdeĠ
hou2 Ġ
Ġyi3Ġ jing1
Ġ brĠ
lan3 Ġ
xie2 Ġzhu4Ġ
ci4 Ġshi4Ġjie4Ġda4Ġ
Ġru2Ġ guo3Ġ
Ġ qian1Ġ
shang4 Ġshi4Ġ
qu1Ġ hua4Ġ
fen1 Ġxi1Ġ
yu3 ĠdeĠ
Ġer3Ġ sheng3Ġ
ren2Ġkou3Ġ shu4Ġliang4
wen2Ġwu4Ġ bao3Ġhu4Ġ
Ġhe2Ġ yi1Ġ
Ġ cai2Ġ
Ġbu4Ġ neng2Ġ
zi4 Ġxing2Ġ
Ġ ben3
jie1Ġ duan4Ġ
guang3Ġ bo1Ġ
Ġyi3Ġ lai2Ġ
Ġxi1Ġ ban1Ġ
Ġ qie3Ġ
Ġ 6Ġ
dan1Ġ ren4
Ġ wu3
Ġta1Ġ ceng2
chi2Ġ xu4Ġ
tai2Ġ bei3
Ġzhe4Ġ ge
wu2 Ġxian4Ġ
gong4Ġchan3Ġ dang3Ġ
guo2 Ġhe2Ġ
Ġyi3Ġ xia4Ġ
qi1 Ġnian2Ġ
te4 ĠdeĠ
dao3Ġ yan3Ġ
Ġying1Ġ chi3Ġ
lai4 Ġ
reng2 Ġ
hou4 Ġyu2Ġ
yan3Ġ chang4
zhu4 Ġzai4Ġ
fa1Ġ biao3
xia4Ġ xia2
tiao2 Ġjian4Ġ
Ġ jiu3Ġ
hu3 Ġ
pin2 Ġdao4Ġ
Ġgong1Ġ zuo4
ye4 ĠdeĠ
jiao1 Ġyi4Ġ
Ġzai4Ġ ci4Ġ
20 Ġ
shao4 Ġnian2Ġ
jie2Ġ shu4
Ġshi4Ġ zhong1Ġguo2Ġ
zao1 Ġ
Ġ 3
Ġ qie3
bao4 Ġdao4Ġ
qiu2 Ġyuan2Ġ
Ġshi4Ġ li4Ġ
ĠĠĠ bu4Ġ
Ġ zu3Ġ
jue2Ġ sai4Ġ
Ġ ya4Ġ
ying4Ġ yong4Ġ
wai4 ĠdeĠ
you2Ġ zheng4Ġ
jian4 Ġli4Ġ
zi1 Ġyuan2Ġ
sai1 Ġer3Ġ
Ġqi2 Ġhou4Ġ
Ġ xi1
Ġ zhao4Ġ
zui4 Ġda4Ġ
Ġbing4 Ġwei4Ġ
hui2 Ġdao4Ġ
cao1 Ġ
su4Ġ du4Ġ
qi4 Ġhou4Ġ
ke3Ġ da2Ġ
Ġwei4Ġyu2Ġ fa3Ġguo2Ġ
gai3Ġ ge2Ġ
mi4Ġ shu1Ġ
Ġyi1Ġ yuan4Ġ
dian4Ġshi4Ġ ju4Ġ
zhuang4Ġ tai4Ġ
zhu4 ĠdeĠ
fen4 Ġwei4Ġ
Ġgong1Ġ ye4Ġ
Ġ luo4Ġ
wang3 Ġzhan4Ġ
Ġ jie3Ġ
Ġ lan2Ġ
gong1Ġ si1Ġ
jie2Ġ guo3Ġ
suo3Ġ shu3ĠdeĠ
ĠdeĠdi4Ġ yi1Ġ
hu2 Ġnan2Ġ
Ġyi1Ġ si1Ġ
Ġ mai4
ya4 Ġli4Ġ
Ġwei4Ġ yi1Ġ
shang4Ġ hai3
20 Ġshi4Ġji4Ġ
Ġzuo4Ġ pin3Ġ
zuo3 Ġyou4Ġ
xiao3 Ġxue2Ġ
sheng4 Ġli4Ġ
jie2 Ġhe2Ġ
Ġzhong1Ġ gong4Ġ
shou3Ġ ci4
Ġsuo3 Ġyou3Ġ
Ġhao4 Ġxian4Ġ
zhen4Ġ qu1Ġ
ĠdeĠ fu4Ġ
wen2 Ġming2Ġ
me Ġ
Ġjian3Ġ cheng1Ġ
kai1Ġ fa1
yi2 Ġzhi4Ġ
jiao4 Ġhui4Ġ
sheng3Ġ fen4Ġ
zhan3Ġ kai1Ġ
yin4Ġ du4
shi2Ġ qi1Ġ
Ġ fa3Ġguo2Ġ
ling3Ġ dao3
mu4Ġ biao1Ġ
Ġer2 Ġshi4Ġ
gao1 Ġji2Ġ
zhun3 Ġbei4Ġ
wang3Ġ luo4Ġ
juan3 Ġ
Ġ fei1
Ġjian4 Ġshe4Ġ
xun4Ġ lian4Ġ
ke1 ĠdeĠ
Ġren2Ġ wu4Ġ
xuan3Ġ shou3Ġ
jiao1Ġ tong1
hao3 ĠdeĠ
zi4Ġ ran2Ġ
zhong4Ġyao4 ĠdeĠ
Ġ jia3Ġ
dong1Ġ jing1Ġ
chan3Ġ pin3Ġ
fa1Ġ biao3Ġ
gong4Ġyou3Ġ ren2Ġkou3Ġ
Ġxian4Ġ dai4Ġ
Ġyi1Ġ ming2Ġ
lei3 Ġ
Ġxi1Ġ bei3Ġ
feng1Ġ ge2Ġ
zou4 Ġ
Ġcheng2Ġ ji4Ġ
Ġhe2Ġ di4Ġ
xiao3Ġxing2Ġ xing1Ġ
yan2Ġ zhong4Ġ
Ġ dan1Ġren4Ġ
mie4 Ġ
