#version: 0.2
n g
i 4
a n
s h
z h
ng 1
j i
u 4
ng 2
Ġ Ġ
i 2
a o
x i
ng 4
an 2
i 3
i 1
d e
u 3
an 4
e 4
e n
c h
u o
u 2
ng 3
an 1
e 2
a i4
u 1
ĠĠ Ġ
o ng1
a 1
ã Ģ
sh i4
e i4
ao 4
i an2
a 4
y u
a ng1
y o
an 3
n 1
h u
a ng4
n ian2
en 2
l i
a ng3
e ng2
uo 4
uo 2
w ei4
m i
ao 3
z ai4
ãĢ ģ
b i
q i
a ng2
e 1
h e2
y i
e ng1
zh ong1
e r
b u4
o u4
a 3
e 3
n 4
sh i2
d i4
g uo2
a i2
u i4
r en2
ao 1
x u
y i1
n 2
o ng2
y u2
g u
l i4
zh i4
d i
w e
en 4
ch eng2
o ng4
y i4
g ong1
ji 2
e ng4
en 1
yu e4
yo u3
yu an2
d a4
a 2
l e
j i4
2 0
y i3
j u
a i1
p i
xi an4
o u1
ji a1
s i1
xi ng2
e i3
t i
y u3
ji 1
t a1
r i4
zh i1
h ou4
l i3
o u3
a i3
we i2
hu i4
d ao4
1 9
o ng3
q i2
u an2
zh eng4
mi ng2
xi 1
ao 2
ji an4
xu e2
ch u1
g e4
z uo4
uo 1
sh eng1
d ui4
yo u2
uo 3
q u1
sh ang4
en 3
de 2
b ei4
sh i3
zh u
zh an4
n 3
xi n1
ju n1
er 3
sh e4
r en4
f a1
w u4
bi ng4
k e4
er 2
l u4
d ai4
zh u3
y i2
sh u4
j u4
ji n4
z i4
yi n1
f u4
f ang1
ji ng1
n an2
hu a4
zh ou1
pi ng2
xi a4
l ai2
yo ng4
gu an1
t ong2
y u4
ãĢ ĭ
ãĢ Ĭ
f a3
zh u4
m ei3
Â ·
ji an1
b o
h uo4
b en3
xi ang1
zh i2
d ong4
xi ang4
mi n2
zh e4
ji ang1
q i1
f en1
sh ou3
q uan2
w en2
y an2
s uo3
ji ao4
q ian2
di an4
t e4
d uo1
z ui4
k ai1
ji e2
l ian2
zh i3
x i4
k e3
e ng3
e i1
d an4
m u4
y e4
d u4
f u2
sh u
m a3
y e3
d ong1
qi u2
b ei3
ãĢ Į
ãĢ į
g ao1
y a4
o u2
d u
ji e1
u n2
mi an4
h ai3
zh ang3
sh i1
ji n1
c i3
n ei4
s ai4
s an1
t ai2
g e2
xi ng4
g uo4
20 1
de ng3
y ao4
ch e1
c i4
s u
m o
r u4
w u3
g ai1
k u
di ng4
ch ang2
bi ao3
l a1
t i3
g ong4
ji e4
sh ou4
d ao3
sh an1
ch ang3
s i4
l v
z e2
t i2
k e1
d ang1
n eng2
er 4
w ai4
e i2
ch u
d an1
q i3
z i
k ou3
xi ao3
z u3
b a1
ju e2
li n2
li u2
n i
sh eng3
yi ng1
l an2
b i3
l uo2
t ong1
20 0
zh ong4
zh e3
sh u3
ti an1
zh en4
zh ong3
li e4
q i4
ch eng1
sh u1
yu an4
b ao3
t ai4
f u3
f eng1
m i3
qi ng1
sh en1
w ang2
yu n4
gu an3
f ei1
ji u4
g u3
li ang3
c eng2
m ei2
1 0
f en4
h ao4
y an3
we i3
z ong3
xu an3
xi ao4
d a2
n a4
li ang4
bo 1
z u2
ji ng4
b ao4
n i2
w u2
t ong3
hu a2
ji ao1
yu e1
yi ng3
bi an4
xi ng1
s u4
shu i3
y ang2
m en
b ao1
g e1
bo 2
c an1
c ong2
di an3
r u2
b an4
b i4
bi an1
w ang3
q u3
ch an3
s e4
z i1
q u
0 0
ch uan2
n v
sh eng4
r an2
t u2
zh ang1
x u4
p u3
g ai3
g ang3
nv 3
li ng4
l uo4
yo u4
t ou2
h u4
ch a2
c e4
ch i2
1 8
lv 4
qi an1
l i2
d ou1
1 2
zh eng1
k uo4
sh a1
l u
d ang3
f an3
g ou4
l ei4
x i2
ji ng3
t uan2
we i1
xi e1
li ng3
l ong2
gu i1
xi an1
r ong2
hu ang2
xi ang3
b an1
ji u3
yi ng4
m en2
sh ang1
sh en2
20 2
b an3
k a3
c u
m u3
ji n3
f u1
j u3
mo 2
gu ang3
c i2
sh uo1
qi ng2
zh an3
h ai2
zhu ang1
mo 4
c ai2
ji 3
d u2
1 1
pi n3
ti ng2
ch ao2
yi ng2
w o
ti ao2
p o
ji an3
t ang2
hu i2
du an4
ch en2
g en1
m i4
w an4
p ai2
w an1
z ao4
h ang2
w an2
bi ao1
l un2
19 9
xi e2
ji ang3
h an4
j u2
f an4
f ang2
h uo2
g u4
h an2
k ong1
ti e3
m eng2
bi e2
w u1
ji e3
zhu an1
yi n3
x u1
zh en1
ji a4
bi ng1
mi ng4
li ng2
h ong2
qi n1
z i3
lu n4
t u
o r
xi n4
ch u4
s u1
xi u1
ch u3
z ong1
1 5
h u2
qu e4
xi ao1
zh ao4
qi ang2
q u4
cu n1
ch ong2
pi an4
ji u1
f ang4
su i2
sh ou1
g eng4
â Ģ
gu ang1
j u1
ji a3
chu ang4
d i2
zhu an3
1 6
g uo3
xu n4
m an4
p ai4
f ei4
p ei4
19 8
d a3
t uo1
xu an1
ch u2
b ai2
l a
o n
zh u1
d u1
t u3
di ao4
xi a2
li u4
1 7
s ui4
hu i1
ti ng1
qi e3
t a3
qi ao2
h a1
g an3
z eng1
xi an3
m ai4
hu an2
x u3
w a3
tu i1
w en4
ch ao1
t ian2
b ai3
c ai3
li ang2
y a2
s a4
a r
b ai4
c un2
ji ao3
sh ao3
y an4
zhu ang4
d i3
h uo3
le i2
1 4
ji ang4
chu an1
yi n4
z ao3
yo ng3
s i3
de ng1
3 0
zhu n3
l e4
xu n2
n uo4
hu an4
s ong4
g ao4
l u3
1 3
19 4
b ang1
lv 3
y ang4
h en3
q un2
zh eng3
gu an4
po 4
g ang1
wo 3
19 7
hu a1
le i1
h ao3
t ao2
ku ang4
p i1
du n4
n ong2
g ei3
s ai1
shu ang1
li an4
ku ai4
i n
d i1
p an4
xi e3
19 5
k ao3
g ai4
h e4
h ei1
w ang4
li ao4
r e4
g e
z uo3
k ong4
19 6
y ang1
ch ang4
yi n2
r eng2
s en1
b ei1
l u2
pi ao4
y a1
k u4
2 5
bi n1
âĢ Ķ
r ang4
ch ong1
l ou2
b u3
l ao3
zh u2
ju n4
y ang3
r ui4
y ao1
xi an2
xi e4
ni an4
f or
yo u1
t an2
k ang1
p i2
h eng2
yu n2
k an4
ni ng2
li ao2
sh ao4
b u2
qi ng3
ch i3
2 4
m u
d ou4
mi an3
y ong1
t an3
w an3
h u1
r u
f an1
a l
t u1
g an1
su an4
di ng1
yu an3
w en1
t ui4
zh e
s t
2 1
xi u4
b a3
m an3
19 3
2 3
mu la
k ang4
for mula
2 8
t h
m ao2
r uo4
pi an1
m ao4
l ang3
qi n2
b a2
n a2
z an4
xi 3
gu i3
g ui4
r e
pi n2
wo 4
xi ong2
sh an4
2 2
xi ong1
m e
su i1
2 6
sh en3
qi ng4
mi ao2
f ang3
5 0
20 20
2 7
l ang2
o u
qi u1
s ong1
r i
d ang4
g eng1
qi ang1
f a2
z ao1
f eng4
zh ang4
ï ¼
h ao2
du n1
z ou3
h ai4
qi e4
2 9
t an4
z u
p ao4
p a4
shu n4
p eng2
xu an2
201 0
n i3
00 0
di ng3
ni u3
z ai3
zh ao1
zhu i1
lv e4
chu n1
20 19
hu n1
k ong3
ch e4
du an1
sh en4
xi ang2
du an3
g an4
r o
t e
k an1
l ao2
c ao3
201 6
s i
g u1
p ei2
ku an3
z a2
201 8
su n1
y e2
y a3
r a
po 1
202 1
zh a4
ch i4
d uo2
201 4
f an2
201 1
201 5
c uo4
201 7
zh e2
y ao2
p ai1
t ou4
c ang2
201 2
4 0
k ai3
201 3
202 2
m i2
ru an3
su an1
ch a1
z ang4
mi ao4
l t
200 9
zh ao3
200 8
hu ai2
ã ĥ
c e
6 0
xu e4
ch ou2
s e
b ang3
a m
m eng4
10 0
t i4
p u2
n ao3
202 3
zhu an4
g t
le i3
19 0
3 1
c ai4
s an4
m ou2
ti on
hu n4
ku an1
200 7
t a
ni u2
m ou3
t ao3
di e2
200 1
t eng2
s ou1
k en3
qi an3
ch ang1
r an3
qu e1
f ou3
su n3
f o
b a4
200 0
8 0
k ao4
s uo1
200 6
ni ao3
p i3
ch un2
202 4
l an3
ã ģ
z ai1
c o
xu e3
hu i3
e l
m a
lu an4
ti ng3
200 5
zu n1
b ang4
l a4
hu an1
r ang3
sh ui4
mi n3
3 5
l ai4
c ang1
7 0
fo 2
p an2
n ai4
w en3
n e
c ao1
o f
s ang1
p ang2
9 0
bi ng3
ï¼ į
t er
zh a1
ã Ĥ
shu ai4
ni e4
h ou2
m ei4
sh ao1
n u3
d ong3
i l
f eng2
mi e4
yu n3
z ou4
m ai3
hu ai4
200 4
4 5
l o
y an1
th e
h e
4 8
zh uo2
a t
an d
t ao4
n ai3
ku n1
202 5
zh en3
c k
r u3
ku a4
ku i2
ãĢ ī
ãĢ Ī
g ou1
3 6
e t
cu i1
e s
3 8
c u4
sh an3
r ou4
di ao1
200 3
h u3
g uo1
3 7
c ui4
x u2
i s
m ang2
ju an3
t o
c an2
di an1
zh an1
c ao2
18 9
I N
200 2
k eng1
T C
m a2
3 4
le ng3
a s
z u1
ch a4
7 5
âĢ ĵ
o w
s u2
qu an1
d a1
ch ai1
l ang4
ku n4
4 6
t un2
f en3
199 0
âĢ ¦
o l
v e
zh ou4
sh ang3
r ao4
h eng1
t i1
xu n1
3 9
n e4
. .
n an4
p an1
6 5
h ong1
sh u2
t an1
t ang1
k an3
M a
n i4
C h
3 2
i t
S T
h an3
4 7
U TC
qi an4
199 9
199 8
I n
198 0
18 8
5 00
3 3
6 4
qi ang3
sh e2
sh uo4
p ao3
b e
k a1
zh ai2
S E
5 5
qu an4
n i1
de ng4
199 7
T he
C o
m ian2
4 9
g ao3
I I
6 8
h an
sh e3
z eng4
zh ou2
zh ai4
R e
199 6
4 4
n a
ti e1
d ao1
a d
b r
199 4
f ei2
z ong4
i r
qi ong2
ti ao4
chu ang2
n d
199 2
chu i2
ju an1
c i
ch ai2
mi ao3
b a
gu a1
xu e1
t ong4
199 5
f ei3
ch i1
m eng3
wo 1
6 7
shu ai1
t uo2
chu ang1
hu an3
v i
199 1
197 0
5 8
195 0
gu a4
ch an2
c a
3 00
w a1
199 3
18 7
194 9
a y
p e
s a1
ti ao3
zh a2
A T
196 0
bi an3
4 2
194 5
v er
u s
gu ai4
k u3
n u2
198 8
d u3
o o
198 9
i g
p u4
6 9
li u3
i ng
u r
s s
g ong3
SE E
t uo4
c t
li ao3
IN SEE
5 9
sh a4
t ai1
4 3
6 6
chu an4
am p
ch en4
5 7
198 5
hu ang1
R o
9 9
S A
ãĢ İ
cu n4
ãĢ ı
198 4
hu n2
4 1
u m
p u1
k ou4
p h
8 8
f en2
198 6
r ao3
S t
a u
i d
ru n4
T V
15 0
zh uo1
in d
4 00
s an3
198 7
7 8
5 6
198 2
ar d
L i
n uo2
M e
198 3
D e
N A
gu n3
m a1
t ou
pi n4
u n
C D
ch ou1
b er
g ou3
qu an3
7 7
M i
zh ai1
qi a4
p er
m ao1
qi ao3
M ar
k u1
ku ang2
e d
a ng
r ou2
9 8
de r
l ou4
O S
Â °
k ui4
s ang4
ï ½
l y
18 0
B C
5 4
6 1
A l
197 9
19 20
t y
7 9
p en1
s eng1
t w
5 2
Y ou
197 8
n u4
6 2
w eng1
y e1
d uo3
L e
5 3
xi ng3
ju an4
ï½ ŀ
B A
t s
a k
194 6
C O
M o
c tion
5 1
195 8
S h
198 1
V i
m an
197 2
194 8
zh ui4
c ong1
t ou1
A M
6 3
A R
J o
194 1
W ind
w a2
B S
li an3
19 30
P ro
lu an3
ow s
ku ang1
k e2
q u2
t uo3
7 6
han s
194 0
p i4
193 7
197 6
zu i3
194 4
8 9
197 5
r y
ï¼ ı
196 8
ni ang2
po 2
shu a1
h k
c on
r an
T e
yu an1
t ao1
w ang1
10 00
Wind ows
9 5
p a
N e
n o
b i2
s ao3
8 7
d a
196 6
8 5
f a4
p eng1
6 00
g a1
l an4
1 20
194 7
A r
S ta
195 6
A C
196 4
d an3
c u1
194 2
Ã ©
195 5
S e
R a
ch ou3
195 2
193 9
193 8
7 2
I S
v a
7 4
G a
g a
h t
n u
la y
r en3
197 3
197 4
195 4
f i
qi e1
E D
19 00
- -
J a
A P
194 3
b i1
T u
k e
o s
197 7
B e
197 1
pi n1
m an2
o p
po 3
en t
196 7
sh eng2
men t
m p
I C
8 00
L a
E R
i a
8 6
195 9
b eng1
S a
196 5
s on
J R
196 9
du i1
L o
p en2
in e
S o
ãĥ »
Ã Ĺ
qi ao4
chu i1
I D
qi ao1
S u
193 6
9 7
16 0
b en1
zhu a1
D a
F a
195 3
196 2
M A
d o
196 1
ti c
l ong3
â Ķ
193 5
t a4
r ou
m ai2
9 6
O N
D i
ï¼ ħ
195 1
195 7
196 3
C a
h a
âĶ Ģ
o k
8 4
202 6
c an3
or e
8 2
N a
h i
b u
7 3
9 4
tu n1
9 2
p p
I P
A N
B o
st a
m er
193 3
on e
M u
193 1
n ang2
le s
ni ao4
7 1
b ao2
h o
nu an3
g i
A n
l eng2
p a2
P a
9 3
s o
8 3
al l
W e
d ou3
8 1
19 18
H D
S i
s ao1
w i
U ni
19 28
l uan2
193 2
n en4
l l
ar a
in t
B a
M V
S S
1 10
19 12
I T
k i
19 29
tu i3
d uo4
19 27
co m
t u4
193 4
ar e
7 00
g a2
c n
a li
9 1
ch e
te d
st er
f f
b y
hu ang3
co l
il l
o t
25 0
s a
ar t
z ei2
19 24
R i
.. .
19 19
ku i1
xu an4
1 30
pi ao1
19 25
P S
p ao1
xi a1
14 0
P lay
S M
P C
me s
19 14
st e
zh ai3
k m
H e
D V
p an
zh e1
You Tu
h e1
en d
H a
F i
an a
di e1
b le
C on
W i
l a3
A S
19 11
B u
k a
sh i
o d
g ra
nv e4
l d
19 26
G e
T i
de n
ou r
19 22
n a3
de Ġ
Ġ deĠ
shi4 Ġ
Ġ shi4Ġ
Ġ nian2
Ġnian2 Ġ
wei4 Ġ
zai4 Ġ
Ġ wei4Ġ
Ġ zai4Ġ
he2 Ġ
Ġ he2Ġ
zhong1 Ġ
bu4 Ġ
di4 Ġ
shi2 Ġ
guo2 Ġ
yu2 Ġ
ren2 Ġ
Ġ bu4Ġ
yi1 Ġ
Ġ zhong1Ġ
li4 Ġ
zhi4 Ġ
gong1 Ġ
Ġ shi2Ġ
yue4 Ġ
ji2 Ġ
cheng2 Ġ
yi4 Ġ
you3 Ġ
Ġ di4Ġ
Ġ yue4Ġ
Ġ yu2Ġ
Ġ ren2Ġ
Ġ zhi4Ġ
da4 Ġ
Ġ ji2Ġ
yuan2 Ġ
Ġ you3Ġ
ji4 Ġ
Ġ guo2Ġ
Ġ li4Ġ
Ġ gong1Ġ
Ġ yi4Ġ
Ġ yi3
Ġ cheng2Ġ
jia1 Ġ
si1 Ġ
yu3 Ġ
Ġ xian4
Ġ ri4
Ġ yi1Ġ
Ġ xing2
Ġ ta1
li3 Ġ
ji1 Ġ
Ġ dao4
hou4 Ġ
wei2 Ġ
Ġ zhi1
Ġ da4Ġ
Ġ yuan2Ġ
xi1 Ġ
Ġri4 Ġ
Ġ ge4
Ġyi3 Ġ
xue2 Ġ
hui4 Ġ
le Ġ
zuo4 Ġ
Ġ yu3Ġ
Ġdao4 Ġ
ming2 Ġ
Ġ ji4Ġ
bei4 Ġ
Ġxing2 Ġ
sheng1 Ġ
Ġ jian4
Ġ chu1
Ġ qi2
Ġ si1Ġ
Ġ de2
zheng4 Ġ
Ġxian4 Ġ
Ġ hou4Ġ
Ġ ji1Ġ
dui4 Ġ
shang4 Ġ
qu1 Ġ
shi3 Ġ
Ġ er3
Ġ jia1Ġ
you2 Ġ
Ġta1 Ġ
Ġ xi1Ġ
Ġ li3Ġ
Ġ er2
zhan4 Ġ
Ġ jun1
Ġ bing4
Ġzhi1 Ġ
Ġge4 Ġ
zhu3 Ġ
ren4 Ġ
fu4 Ġ
zi4 Ġ
wu4 Ġ
xin1 Ġ
dai4 Ġ
ju4 Ġ
ping2 Ġ
Ġchu1 Ġ
Ġ ke4
Ġ zhou1
xiang1 Ġ
Ġ hui4Ġ
shu4 Ġ
nan2 Ġ
Ġ she4
Ġ bei4Ġ
Ġ ming2Ġ
xia4 Ġ
guan1 Ġ
Ġer3 Ġ
Ġde2 Ġ
lu4 Ġ
yu4 Ġ
hua4 Ġ
Ġjian4 Ġ
jing1 Ġ
yan2 Ġ
fang1 Ġ
Ġ yin1
kai1 Ġ
jian1 Ġ
jiao4 Ġ
fa1 Ġ
yong4 Ġ
Ġ dan4
Ġer2 Ġ
zhu4 Ġ
lai2 Ġ
min2 Ġ
shou3 Ġ
zhe4 Ġ
xiang4 Ġ
wen2 Ġ
Ġjun1 Ġ
xi4 Ġ
qian2 Ġ
ben3 Ġ
te4 Ġ
Ġ wei2Ġ
zhi2 Ġ
fa3 Ġ
qi1 Ġ
jie2 Ġ
lian2 Ġ
Ġbing4 Ġ
dong4 Ġ
dian4 Ġ
Ġqi2 Ġ
Ġke4 Ġ
dong1 Ġ
mu4 Ġ
Ġ jin4
Ġ dui4Ġ
Ġ huo4
Ġ zhan4Ġ
fen1 Ġ
tai2 Ġ
zhang3 Ġ
du4 Ġ
jiang1 Ġ
Ġ qiu2
Ġ ping2Ġ
gao1 Ġ
ye4 Ġ
suo3 Ġ
bei3 Ġ
Ġzhou1 Ġ
shi1 Ġ
Ġ leĠ
duo1 Ġ
jie1 Ġ
ge2 Ġ
Ġ shang4Ġ
jin1 Ġ
Ġ zheng4Ġ
fu2 Ġ
Ġ zuo4Ġ
Ġ you2Ġ
Ġ fu4Ġ
kou3 Ġ
guo4 Ġ
zhi3 Ġ
Ġ tong2
hai3 Ġ
Ġ ren4Ġ
Ġ quan2
ma3 Ġ
tong1 Ġ
ru4 Ġ
zui4 Ġ
Ġ sheng1Ġ
Ġ xue2Ġ
ci3 Ġ
xing4 Ġ
wai4 Ġ
nei4 Ġ
la1 Ġ
ti3 Ġ
jue2 Ġ
ke3 Ġ
qi3 Ġ
shan1 Ġ
tian1 Ġ
chang3 Ġ
deng3 Ġ
zhen4 Ġ
wu3 Ġ
chang2 Ġ
zi Ġ
yao4 Ġ
bi3 Ġ
Ġ ju4Ġ
bao3 Ġ
mi3 Ġ
ya4 Ġ
Ġ ye3
gai1 Ġ
Ġyin1 Ġ
Ġ dai4Ġ
mian4 Ġ
zhong4 Ġ
Ġshe4 Ġ
feng1 Ġ
Ġ zhe4Ġ
zhong3 Ġ
ci4 Ġ
yun4 Ġ
yi2 Ġ
liu2 Ġ
che1 Ġ
shou4 Ġ
lin2 Ġ
bao1 Ġ
yi2 Ġge4Ġ
sai4 Ġ
jie4 Ġ
ding4 Ġ
shen1 Ġ
sheng3 Ġ
luo2 Ġ
mei3 Ġguo2Ġ
san1 Ġ
qi4 Ġ
xiao3 Ġ
Ġdan4 Ġ
neng2 Ġ
shu1 Ġ
ze2 Ġ
lie4 Ġ
xuan3 Ġ
si4 Ġ
qing1 Ġ
zhe3 Ġ
Ġqiu2 Ġ
jing4 Ġ
yuan4 Ġ
ba1 Ġ
an1 Ġ
wang2 Ġ
ke1 Ġ
tai4 Ġ
lan2 Ġ
bao4 Ġ
zong3 Ġ
ying3 Ġ
Ġhuo4 Ġ
bi4 Ġ
fu3 Ġ
dao3 Ġ
Ġ xin1Ġ
gu3 Ġ
ying1 Ġ
Ġ hao4
Ġ xia4Ġ
Ġ zi4Ġ
ge1 Ġ
fen4 Ġ
xiao4 Ġ
yue1 Ġ
ni2 Ġ
jiao1 Ġ
na4 Ġ
Ġ yu4Ġ
Ġ mi3Ġ
zi1 Ġ
er4 Ġ
Ġ xiang1Ġ
pu3 Ġ
dan1 Ġ
Ġ zhu4Ġ
biao3 Ġ
guan3 Ġ
tou2 Ġ
liang4 Ġ
chuan2 Ġ
Ġ lu4Ġ
su4 Ġ
wu2 Ġ
Ġ dang1
bo1 Ġ
ru2 Ġ
yan3 Ġ
nv3 Ġ
bo2 Ġ
Ġzhong1Ġ guo2Ġ
xing1 Ġ
ti2 Ġ
fei1 Ġ
da2 Ġ
se4 Ġ
cheng1 Ġ
mei3 Ġ
Ġwei4Ġ yu2Ġ
Ġjin4 Ġ
ceng2 Ġ
chan3 Ġ
Ġ nan2Ġ
shui3 Ġ
tu2 Ġ
bian4 Ġ
gui1 Ġ
Ġ ran2
a1 Ġ
yang2 Ġ
zhang1 Ġ
gai3 Ġ
dian3 Ġ
cong2 Ġ
jiu4 Ġ
Ġ ben3Ġ
Ġquan2 Ġ
sha1 Ġ
bao1Ġ kuo4
wang3 Ġ
jian3 Ġ
sheng4 Ġ
zu3 Ġ
shu3 Ġ
gang3 Ġ
hua2 Ġ
lv4 Ġ
an4 Ġ
qing2 Ġ
jing3 Ġ
liang3 Ġ
zu2 Ġ
ban4 Ġ
tong3 Ġ
gong4 Ġ
shang1 Ġ
ao4 Ġ
li2 Ġ
hu4 Ġ
1 Ġ
tong2 Ġ
bian1 Ġ
jin4 Ġ
long2 Ġ
luo4 Ġ
xu4 Ġ
chi2 Ġ
mei2 Ġ
jin3 Ġ
ban1 Ġ
guang3 Ġ
chu1 Ġ
ce4 Ġ
mi4 Ġ
shen2 Ġ
Ġta1Ġ men
zheng1 Ġ
zhi1 Ġ
ling3 Ġ
you4 Ġ
fan3 Ġ
wei1 Ġ
Ġ zhu3Ġ
huo2 Ġ
xi2 Ġ
ting2 Ġ
ka3 Ġ
cha2 Ġ
Ġ gai1Ġ
Ġ xiang4Ġ
cai2 Ġ
2 Ġ
gou4 Ġ
shuo1 Ġ
men2 Ġ
ci2 Ġ
xiang3 Ġ
mu3 Ġ
lei4 Ġ
wei3 Ġ
qu3 Ġ
Ġgong1Ġ li3Ġ
yan2Ġ jiu1
Ġ duo1Ġ
tuan2 Ġ
yin3 Ġ
jian4 Ġ
Ġye3 Ġ
chao2 Ġ
ying4 Ġ
chen2 Ġ
tang2 Ġ
xie1 Ġ
qi2 Ġ
pin3 Ġ
Ġyi3 Ġji2Ġ
jia4 Ġ
shi3Ġ yong4Ġ
jie3 Ġ
hang2 Ġ
yi3 Ġ
lun2 Ġ
rong2 Ġ
jiang3 Ġ
Ġ you2
pai2 Ġ
fu1 Ġ
jiu3 Ġ
ling4 Ġ
tai2Ġ wan1
Ġhao4 Ġ
Ġ wan4
ĠdeĠ di4Ġ
xu1 Ġ
ke3 Ġyi3Ġ
huang2 Ġ
xian1 Ġ
duan4 Ġ
ke4 Ġ
dang3 Ġ
mo2 Ġ
can1 Ġ
ying2 Ġ
tiao2 Ġ
biao1 Ġ
ĠdeĠ yi1Ġ
e2 Ġ
kai1Ġ shi3Ġ
quan2 Ġ
zhan3 Ġ
Ġcheng2Ġ wei2Ġ
ye3 Ġ
hong2 Ġ
mei2 Ġyou3Ġ
han4 Ġ
yin1 Ġ
wei3 Ġyuan2Ġ
qian1 Ġ
ban3 Ġ
xian4 Ġ
ling2 Ġ
xiao1 Ġ
Ġtong2 Ġ
hui2 Ġ
su1 Ġ
fang2 Ġ
meng2 Ġ
zhuang1 Ġ
kong1 Ġ
ju2 Ġ
cun1 Ġ
bao1Ġkuo4 Ġ
ren2Ġ kou3Ġ
Ġqi2 Ġzhong1Ġ
Ġgong1Ġ si1Ġ
huo4 Ġ
zi3 Ġ
xing2 Ġ
dou1 Ġ
ĠdeĠ shi4Ġ
ĠĠĠ zai4Ġ
qiang2 Ġ
zhao4 Ġ
du2 Ġ
zheng4 Ġzhi4Ġ
3 Ġ
yi2 Ġge4
mo4 Ġ
bing1 Ġ
cai3 Ġ
fa3 Ġguo2Ġ
Ġ gao1Ġ
Ġda4Ġ xue2Ġ
Ġshi4Ġ yi1Ġ
hai2 Ġ
hu2 Ġ
chu4 Ġ
Ġta1 ĠdeĠ
qin1 Ġ
lun4 Ġ
Ġ fen1Ġ
fan4 Ġ
zhen1 Ġ
guang1 Ġ
wen4 Ġ
man4 Ġ
ai4 Ġ
she4 Ġ
Ġ jie2Ġ
biao3 Ġshi4Ġ
zhong1 ĠdeĠ
ju1 Ġ
Ġ jiao4Ġ
zhuan1 Ġ
diao4 Ġ
bai2 Ġ
da3 Ġ
que4 Ġ
dian4 Ġshi4Ġ
Ġ dong1Ġ
fei4 Ġ
Ġshi4Ġ wei4Ġ
Ġ du4Ġ
Ġ mu4Ġ
han2 Ġ
shi4 ĠdeĠ
Ġ te4Ġ
xun4 Ġ
Ġ jin1Ġ
pian4 Ġ
ming4 Ġ
ju3 Ġ
tuo1 Ġ
Ġ jiang1Ġ
gu4 Ġ
Ġren2Ġ kou3Ġ
xiu1 Ġ
Ġbu4Ġ fen4Ġ
xie2 Ġ
zao4 Ġ
Ġhe2Ġ guo2Ġ
zhong1Ġ guo2Ġ
guo3 Ġ
10 Ġyue4Ġ
shou1 Ġ
Ġ zui4
xin4 Ġ
12 Ġyue4Ġ
7 Ġyue4Ġ
5 Ġ
9 Ġyue4Ġ
zhuan3 Ġ
ta1 Ġ
dang1 Ġ
wu1 Ġ
mian4 Ġji1Ġ
Ġren2Ġ min2Ġ
8 Ġyue4Ġ
xun2 Ġ
Ġdi4Ġ qu1Ġ
3 Ġyue4Ġ
4 Ġ
Ġ guo4Ġ
Ġ shi1Ġ
1 Ġyue4Ġ
Ġ jing1Ġ
di2 Ġ
gan3 Ġ
huan2 Ġ
jia3 Ġ
xia2 Ġ
5 Ġyue4Ġ
Ġ suo3Ġ
ying1 Ġguo2Ġ
dao4 Ġ
Ġ ci3Ġ
di3 Ġ
Ġ shou3Ġ
zhu1 Ġ
ting1 Ġ
zheng4 Ġshi4Ġ
chong2 Ġ
huo3 Ġ
zhou1 Ġ
6 Ġyue4Ġ
zhuang4 Ġ
cheng2 Ġshi4Ġ
4 Ġyue4Ġ
Ġguo2Ġ jia1Ġ
tian2 Ġ
geng4 Ġ
ĠĠĠ di4Ġ
fang4 Ġ
yong3 Ġ
shu3 Ġyu2Ġ
Ġping2Ġ fang1
po4 Ġ
jun1 Ġ
Ġdi4Ġ yi1Ġ
Ġ qian2Ġ
11 Ġyue4Ġ
qun2 Ġ
qu4 Ġ
jiang4 Ġ
tao2 Ġ
Ġshi4Ġ ji4Ġ
Ġping2Ġfang1 Ġgong1Ġli3Ġ
Ġtong2 Ġshi2Ġ
dan1 Ġren4Ġ
gen1 Ġ
Ġ ru2Ġ
Ġ ma3Ġ
ji3 Ġ
Ġ deng3Ġ
bie2 Ġ
pai4 Ġ
du1 Ġ
liang2 Ġ
shao3 Ġ
hui1 Ġ
tie3 Ġ
nong2 Ġ
Ġnian2Ġ 1Ġyue4Ġ
ta3 Ġ
dian4Ġ ying3Ġ
zong1 Ġ
chu3 Ġ
Ġ qi1Ġ
Ġ zhe4
si3 Ġ
er3 Ġ
Ġ tian1Ġ
ĠdeĠ shi2Ġ
shuang1 Ġ
qiao2 Ġ
tai2Ġwan1 Ġ
Ġ sui4
gen1 Ġju4Ġ
li4Ġ shi3Ġ
chu2 Ġ
Ġshi4Ġ zhen4Ġ
gao4 Ġ
bai4 Ġ
can1 Ġjia1Ġ
yun4Ġ dong4
s Ġ
gang1 Ġ
che1 Ġzhan4Ġ
guo2 ĠdeĠ
jiao3 Ġ
Ġyin1 Ġwei4Ġ
Ġri4Ġ ben3Ġ
Ġping2Ġ fang1Ġ
li4 ĠdeĠ
Ġnian2 ĠdeĠ
gai4 Ġ
pan4 Ġ
Ġ wen2Ġ
Ġ hai3Ġ
zheng4Ġ fu3Ġ
bing4 Ġ
zhun3 Ġ
Ġnian2Ġ 12Ġyue4Ġ
wa3 Ġ
yan4 Ġ
6 Ġ
wo3 Ġ
gong4 Ġhe2Ġguo2Ġ
Ġxian4 ĠdeĠ
Ġ fu2Ġ
ya2 Ġ
yin2 Ġ
fa1 Ġxian4Ġ
formula Ġ
chuang4 Ġ
hei1 Ġ
huan4 Ġ
qu1 ĠdeĠ
song4 Ġ
ha1 Ġ
hen3 Ġ
ti2 Ġgong1Ġ
jin4 Ġxing2Ġ
Ġ suo3
Ġ bei3Ġ
lei2 Ġ
2 Ġyue4Ġ
jing1 Ġji4Ġ
tong1Ġ guo4Ġ
Ġnian2Ġ 3Ġyue4Ġ
sui2 Ġ
chuan1 Ġ
Ġwan4 Ġ
qie3 Ġ
Ġzhong1Ġ yang1
Ġguo2Ġ ji4Ġ
hua1 Ġ
shang4 ĠdeĠ
Ġyou2 Ġyu2Ġ
lei1 Ġ
Ġ you4Ġ
wei3Ġyuan2Ġ hui4Ġ
kao3 Ġ
Ġnian2Ġ 7Ġyue4Ġ
wan2 Ġ
cheng1 Ġwei2Ġ
Ġnian2Ġ 10Ġyue4Ġ
bai3 Ġ
deng1 Ġ
Ġshi4Ġ jie4Ġ
Ġyin1Ġ ci3Ġ
ming2 Ġwei4Ġ
Ġjin4 Ġxing2Ġ
nuo4 Ġ
Ġshi4Ġ zai4Ġ
Ġran2 Ġ
chong1 Ġ
zhu3 Ġyi4Ġ
Ġnian2Ġ 9Ġyue4Ġ
Ġta1Ġmen Ġ
kuai4 Ġ
yan2Ġjiu1 Ġ
tu3 Ġ
Ġzhi1 Ġhou4Ġ
qiu2 Ġ
mai4 Ġ
shi2 ĠdeĠ
lian4 Ġ
hao4 Ġ
Ġnian2Ġ 5Ġyue4Ġ
sa4 Ġ
lu2 Ġ
xi4Ġ tong3Ġ
pei4 Ġ
Ġ zui4Ġ
lu3 Ġ
Ġnian2Ġ 4Ġyue4Ġ
chi3 Ġ
liao4 Ġ
Ġdang1 Ġ
Ġnian2Ġ 8Ġyue4Ġ
Ġnian2Ġ 6Ġyue4Ġ
Ġ lian2Ġ
Ġ ying1Ġ
Ġxing2 ĠdeĠ
zeng1 Ġ
ren2 ĠdeĠ
xuan1 Ġ
xiang1Ġ gang3Ġ
Ġ shi3Ġ
qi1Ġ jian1Ġ
en1 Ġ
de2 Ġ
kuang4 Ġ
guan3 Ġli3Ġ
Ġgong1Ġ zuo4Ġ
piao4 Ġ
Ġzhi1 Ġyi1Ġ
xu3 Ġ
di1 Ġ
heng2 Ġ
da4 ĠdeĠ
bu3 Ġ
yang4 Ġ
sen1 Ġ
Ġzhong1Ġ xin1Ġ
xuan1 Ġbu4Ġ
tui1 Ġ
Ġnian2Ġ 11Ġyue4Ġ
zu3 Ġzhi1Ġ
ri4 Ġ
wang4 Ġ
bu4 ĠdeĠ
pi2 Ġ
men Ġ
chang4 Ġ
Ġ bao1Ġkuo4Ġ
ying3Ġ xiang3Ġ
yang3 Ġ
Ġta1 Ġzai4Ġ
qian1 Ġmi3Ġ
sai1 Ġ
er2 Ġ
ĠĠĠ sheng1Ġ
Ġhuo4 Ġde2Ġ
pi1 Ġ
Ġshi4Ġ jie4
luo2 Ġsi1Ġ
he4 Ġ
ke3Ġ neng2
cheng2 ĠdeĠ
Ġ gai1
Ġ qing1Ġ
nian4 Ġ
dun4 Ġ
xian2 Ġ
s ĠĠĠ
Ġ mei3
lou2 Ġ
qi2 Ġta1Ġ
Ġnian2Ġ 2Ġyue4Ġ
bang1 Ġ
Ġcheng2Ġ li4Ġ
Ġ C
le Ġyi1Ġ
huo2Ġ dong4Ġ
Ġren4Ġ wei2Ġ
liu4 Ġ
Ġ lai2Ġ
you1 Ġ
Ġ bi3Ġ
Ġ shu4Ġ
ke1 Ġxue2Ġ
fa1Ġ zhan3Ġ
Ġ fen1
huo4 Ġde2Ġ
jun4 Ġ
Ġzuo4Ġ wei2Ġ
Ġ luo2Ġ
ya1 Ġ
Ġping2Ġfang1Ġ qian1Ġmi3Ġ
Ġ a1Ġ
hua2 Ġren2Ġmin2Ġ
ri4 Ġben3Ġ
Ġ wu2Ġ
bei1 Ġ
lao3 Ġ
hui4 Ġyi4Ġ
re4 Ġ
Ġ zhi2
ku4 Ġ
tan2 Ġ
jian1 ĠdeĠ
tie3 Ġlu4Ġ
Ġ liu2Ġ
ĠdeĠ ren2Ġ
yong4 Ġyu2Ġ
liao2 Ġ
ning2 Ġ
Ġshi2Ġ jian1Ġ
ĠdeĠ gong1Ġ
ge4 Ġ
Ġ shan1Ġ
mian3 Ġ
mian4Ġ ji1
yin4 Ġ
rui4 Ġ
min2 Ġguo2Ġ
wu1 Ġke4Ġ
ou1 Ġ
xian3 Ġ
Ġ yan2Ġ
le4 Ġ
7 Ġ
zuo3 Ġ
Ġ A
gong4 Ġyou3Ġ
ĠĠĠ li4Ġshi3Ġ
hao3 Ġ
ai1 Ġ
Ġ zhang1Ġ
ĠĠĠsheng1Ġ ping2Ġ
hua2Ġren2Ġmin2Ġ gong4Ġhe2Ġguo2Ġ
fang1 Ġshi4Ġ
fa1Ġ sheng1Ġ
gan1 Ġ
Ġ cong2Ġ
dou4 Ġ
wen4Ġ ti2Ġ
Ġ zhi2Ġ
guan4 Ġjun1Ġ
zhu3Ġ yao4Ġ
ran2 Ġ
di4 ĠdeĠ
Ġdi4Ġ er4Ġ
dao3 Ġzhi4Ġ
guan1Ġ xi4Ġ
cun2 Ġ
kang1 Ġ
can1 Ġyu4Ġ
yuan3 Ġ
ĠĠĠ S
Ġbu4Ġ fen4
zheng3 Ġ
Ġgong1Ġ cheng2Ġ
wan2 Ġcheng2Ġ
dan1 Ġwei4Ġ
ke3Ġ neng2Ġ
Ġ xiao3Ġ
yi1 Ġwei4Ġ
Ġ jin3Ġ
Ġ wu3Ġ
Ġ zhi3Ġ
1 Ġri4Ġ
xie4 Ġ
ge Ġ
suo3 Ġyou3Ġ
zhi4 ĠdeĠ
Ġ ze2Ġ
wen2Ġ hua4Ġ
Ġ zong3Ġ
Ġcheng2Ġ yuan2Ġ
ĠdeĠ cheng2Ġ
8 Ġ
lv3 Ġ
gei3 Ġ
Ġ 18
yuan2 ĠdeĠ
yong1 Ġyou3Ġ
cun2 Ġzai4Ġ
er4 Ġshi2Ġ
Ġ tong1Ġ
bei3 Ġbu4Ġ
Ġ ba1Ġ
lian2 Ġhe2Ġ
hou4 ĠdeĠ
niu3 Ġ
Ġshi4Ġ zhong1Ġ
zheng4Ġ fu3
you2 Ġyu2Ġ
guo2Ġ jia1Ġ
dui4 Ġyu2Ġ
Ġnian2Ġ zhi4Ġ
fa1 Ġxing2Ġ
yi4 ĠdeĠ
ju4 Ġyou3Ġ
Ġjian4Ġ zhu4Ġ
bi3Ġ sai4Ġ
Ġbing4 Ġzai4Ġ
Ġdao4Ġ leĠ
Ġ zhi3
xin1 ĠdeĠ
si1 ĠdeĠ
shen3 Ġ
yun2 Ġ
zi4Ġ ji3
yun4Ġ dong4Ġ
xing2 Ġzheng4Ġ
yin4 Ġdu4Ġ
e2Ġ luo2Ġsi1Ġ
Ġ 15
bin1 Ġ
Ġ mian4Ġji1Ġ
dai4Ġ biao3Ġ
shao4 Ġ
Ġ mei3Ġguo2Ġ
xu3 Ġduo1Ġ
Ġ ling4Ġ
Ġdan4 Ġshi4Ġ
ren4 Ġhe2Ġ
sheng1 Ġyu2Ġ
tu1 Ġ
gui4 Ġ
Ġnian2Ġ dai4Ġ
ding1 Ġ
Ġ S
liang3 Ġge4Ġ
che4 Ġ
Ġ jian3Ġ
bao3Ġ hu4Ġ
Ġren2Ġkou3Ġ mi4Ġ
xiu4 Ġ
Ġ shi3
man3 Ġ
zh Ġ
e4 Ġ
xuan2 Ġ
Ġdang1 Ġshi2Ġ
zhang4 Ġ
ĠdeĠ yi2Ġge4Ġ
nan2 Ġbu4Ġ
ju3 Ġxing2Ġ
zhuan1 Ġji2Ġ
mian4Ġji1 Ġwei4Ġ
Ġ dian4Ġ
lai2 ĠdeĠ
Ġ 0
Ġ xi4Ġ
fan1 Ġ
zao3 Ġ
Ġ guan1Ġ
Ġzheng4Ġ fu3Ġ
fu2Ġ wu4Ġ
du2 Ġli4Ġ
jue2Ġ ding4Ġ
Ġchu1 ĠdeĠ
zhu3Ġ yao4
ruo4 Ġ
xie3 Ġ
kai1Ġ shi3
Ġli4Ġ shi3Ġ
ĠĠĠ C
qing3 Ġ
Ġ ceng2Ġ
Ġshe4 Ġji4Ġ
Ġ san1Ġ
Ġ wang2Ġ
ming2 ĠdeĠ
Ġ mei3Ġ
hai4 Ġ
rang4 Ġ
Ġshi4Ġwei4Ġ yu2Ġ
jiu4 Ġshi4Ġ
Ġyou3Ġ yi1Ġ
geng1 Ġ
Ġ P
gt Ġ
Ġ B
Ġ ci3
Ġ gtĠ
xi3 Ġ
ĠĠĠ P
Ġ jiang1
Ġqi2 Ġta1Ġ
tan4 Ġ
Ġxing2Ġ zheng4Ġ
Ġ fa3Ġ
pei2 Ġ
jiao4Ġ yu4Ġ
ĠĠĠ A
Ġ 16
shou4 Ġdao4Ġ
lt Ġ
Ġ feng1Ġ
ren4Ġ wei2Ġ
fang3 Ġ
Ġshi4Ġ di4Ġ
fa1Ġ zhan3
wan3 Ġ
kan1 Ġ
she4 Ġhui4Ġ
Ġ ltĠ
shan4 Ġ
yi4 Ġwei4Ġ
gu4 Ġshi4Ġ
pian1 Ġ
fang1Ġ mian4Ġ
Ġxian4 Ġzai4Ġ
qu1 Ġwei4Ġ
Ġzui4 Ġzhong1Ġ
Ġ jie1Ġ
Ġ bi4Ġ
qin2 Ġ
Ġzhong1Ġyang1 Ġ
Ġshi4Ġ shi4Ġ
tui4 Ġ
pao4 Ġ
nei4 ĠdeĠ
Ġ jiu4Ġ
9 Ġ
shu3 ĠdeĠ
zhe Ġ
xiang1Ġ gang3
xiao3 Ġshi2Ġ
dan4 Ġ
Ġli4Ġ ru2Ġ
zu2 Ġqiu2Ġ
shu4Ġ ju4Ġ
Ġbu4Ġ tong2
lie4Ġ che1Ġ
xu1Ġ yao4Ġ
hua4 ĠdeĠ
zhi2Ġ wu4Ġ
qiang1 Ġ
Ġ sui1
ren2 Ġshi4Ġ
shi3Ġ yong4
zuo4 ĠdeĠ
zeng1 Ġjia1Ġ
Ġji4Ġ hua4Ġ
min2Ġ zhu3Ġ
Ġshi2Ġ qi1Ġ
zuo4Ġ wei2Ġ
Ġ qu1Ġ
Ġ gu3Ġ
kong4 Ġzhi4Ġ
Ġye3 Ġshi4Ġ
duan3 Ġ
tan3 Ġ
Ġjian4 ĠdeĠ
Ġ dong4Ġ
yin1 Ġyue4Ġ
Ġran2 Ġer2Ġ
Ġ 17
Ġyi3Ġ jing1Ġ
lang2 Ġ
Ġ shu3Ġyu2Ġ
Ġhe2Ġ zuo4Ġ
Ġzai4Ġ di4Ġ
ren2Ġ min2Ġ
Ġshi4Ġ jian4Ġ
Ġren2Ġ yuan2Ġ
Ġ an1Ġ
ta1 ĠdeĠ
Ġ you4
Ġjian4 Ġyu2Ġ
xue2Ġ yuan4Ġ
zu3 Ġcheng2Ġ
Ġ ceng2
chao1 Ġguo4Ġ
zuo4Ġ pin3Ġ
Ġyin1 Ġyue4Ġ
Ġ ma3
Ġ ge2Ġ
mao4 Ġ
Ġquan2 Ġguo2Ġ
xiong2 Ġ
Ġ ke1Ġ
zai3 Ġ
hu1 Ġ
hui4 ĠdeĠ
ji4 ĠdeĠ
zong3Ġ tong3Ġ
Ġ si4Ġ
Ġzhe4Ġ xie1Ġ
suan4 Ġ
Ġwei4Ġ leĠ
Ġhou4Ġ lai2Ġ
10 Ġ
t Ġ
yu2 Ġshi4Ġ
Ġ pu3Ġ
Ġ zhang3Ġ
Ġ shou4Ġ
Ġcheng2Ġ gong1Ġ
fa1 Ġbu4Ġ
Ġ tai4Ġ
da4Ġ li4Ġ
ti2 Ġchu1Ġ
Ġ T
Ġli4Ġ ya4Ġ
Ġ 000
Ġyi4Ġ yuan2Ġ
Ġshe4 Ġyou3Ġ
Ġyin1Ġ ci3
yun4Ġdong4 Ġyuan2Ġ
yao1 Ġqiu2Ġ
han2 Ġguo2Ġ
bu4 Ġzai4Ġ
ni2Ġ ya4
you3 ĠdeĠ
pin2 Ġ
Ġ M
ĠĠĠ deĠ
pu2 Ġ
zao4 Ġcheng2Ġ
Ġ D
ou1 Ġzhou1Ġ
cai3Ġ yong4Ġ
xiao3 Ġxing2Ġ
qiu1 Ġ
Ġgong1Ġ yuan2Ġ
Ġ E
jia1 ĠdeĠ
xing4 ĠdeĠ
sheng1 ĠdeĠ
ĠdeĠ yi2Ġge4
Ġri4 Ġzai4Ġ
dang1 Ġshi2Ġ
kong4 Ġ
ren2Ġ wu4Ġ
feng4 Ġ
Ġci3Ġ wai4Ġ
Ġ wo3Ġ
gong4Ġ chan3Ġ
Ġ sui2
Ġ la1Ġ
Ġ zhĠ
Ġ ãĥ
Ġ cong2
kan4 Ġ
ba3 Ġ
wan1 Ġ
Ġshi4Ġ he2Ġ
2010 Ġnian2Ġ
Ġ ling4
Ġ sha1Ġ
ma3 Ġwei4Ġ
ĠdeĠ bu4Ġ
xue2Ġ jia1Ġ
you2Ġ xi4Ġ
Ġ nv3Ġ
song1 Ġ
Ġ ti3Ġ
fan4 Ġwei2Ġ
Ġbu4Ġ tong2Ġ
Ġ gen1Ġju4Ġ
kai1Ġ fa1Ġ
she4 Ġji4Ġ
mao2 Ġ
san1 Ġnian2Ġ
qu3 Ġde2Ġ
chao1 Ġ
dun1 Ġ
ĠdeĠ ji1Ġ
Ġ ke3Ġ
ĠĠĠ B
sai4 Ġshi4Ġ
Ġ 1
xiong1 Ġ
Ġxing2 Ġcheng2Ġ
ĠĠĠdi4Ġ li3Ġ
ĠĠĠ shi4Ġ
a1 Ġer3Ġ
zi4 Ġzhi4Ġ
chan3 Ġsheng1Ġ
yao2 Ġ
Ġ wu4Ġ
ding3 Ġ
ĠdeĠ ji4Ġ
jie2Ġ mu4Ġ
wen1 Ġ
shu1 Ġji4Ġ
Ġsui4 Ġ
Ġbing4 Ġyu2Ġ
ni3 Ġ
dou1 Ġshi4Ġ
chong2 Ġxin1Ġ
xi4Ġ tong3
lve4 Ġ
zan4 Ġ
Ġshe4 Ġhui4Ġ
Ġ yi2Ġ
zhong4Ġ yao4
li3 ĠdeĠ
bu2 Ġshi4Ġ
chun1 Ġ
Ġdai4Ġ biao3Ġ
yi1 Ġnian2Ġ
Ġxiang1Ġ gang3Ġ
dian4Ġ ying3
Ġsi1Ġ te4Ġ
Ġ liang3Ġ
guan1 Ġyu2Ġ
zhui1 Ġ
dang4 Ġ
a Ġ
jue2Ġ se4Ġ
Ġ H
Ġ na4Ġ
Ġ fu2
jiao1Ġ tong1Ġ
lang3 Ġ
Ġyou2Ġ xi4Ġ
da4Ġ xue2Ġ
ji2 ĠdeĠ
mi2 Ġ
ge1Ġ qu3Ġ
chu2 ĠleĠ
Ġchu1 Ġxian4Ġ
2020 Ġnian2Ġ
tao3 Ġ
Ġ jie2
Ġzhi4Ġ zuo4Ġ
Ġda4Ġ xue2
ping2 Ġjun1Ġ
Ġde2 Ġguo2Ġ
y Ġ
xian3 Ġshi4Ġ
ĠĠĠ T
Ġ chen2Ġ
hua2Ġ min2Ġguo2Ġ
Ġnian2Ġ zai4Ġ
Ġ shen1Ġ
Ġzhong1Ġ hua2Ġren2Ġmin2Ġgong4Ġhe2Ġguo2Ġ
kong3 Ġ
hou4 Ġzai4Ġ
kuo4 Ġ
miao2 Ġ
Ġnian2Ġ dai4
er4 Ġnian2Ġ
Ġ liang3
xia4 ĠdeĠ
yan3 Ġyuan2Ġ
A Ġ
Ġke4 Ġsi1Ġ
Ġ jian1Ġ
de2 Ġguo2Ġ
xiang2 Ġ
Ġ 1Ġ
wei2 Ġyi1Ġ
qing4 Ġ
cao3 Ġ
dang1 Ġdi4Ġ
guo2Ġ ji4Ġ
dui4 ĠdeĠ
Ġ bao3Ġ
bo2Ġ wu4Ġ
Ġjian4 Ġli4Ġ
hun1 Ġ
Ġdi4Ġ guo2Ġ
ĠĠĠ G
Ġbu4Ġ yu2Ġ
ĠĠĠ M
Ġ fei1Ġ
fan3 Ġdui4Ġ
qi1 ĠdeĠ
duan1 Ġ
wu4 ĠdeĠ
zou3 Ġ
xue4 Ġ
yin1 Ġwei4Ġ
qu1Ġ yu4Ġ
Ġ 2
qu4 Ġshi4Ġ
yi1 Ġbu4Ġfen4Ġ
ba2 Ġgao1Ġ
wo4 Ġ
que1 Ġ
Ġ G
2001 Ġnian2Ġ
guan3Ġ xia2Ġ
Ġ chang2Ġ
du4 Ġwei4Ġ
zheng4Ġzhi4Ġ ren2Ġwu4Ġ
ni2Ġ ya4Ġ
peng2 Ġ
hai2 Ġyou3Ġ
ĠĠĠ ren2Ġkou3Ġ
Ġ ka3Ġ
Ġdang1 Ġdi4Ġ
zui4 Ġzhong1Ġ
Ġ ãĤ
Ġ ãģ
Ġ yue1Ġ
Ġta1 Ġshi4Ġ
Ġbu4Ġ dui4Ġ
lai2Ġ zi4Ġ
kuan3 Ġ
bi3Ġ sai4
Ġxing2 Ġshi4Ġ
chi4 Ġ
zhi2Ġ ye4Ġ
qian2Ġ wang3Ġ
Ġ dan1Ġ
ding4 ĠdeĠ
Ġ wei1Ġ
quan2 Ġguo2Ġ
Ġ 3
ba1 Ġshi4Ġ
ĠĠĠ H
yi1 Ġbu4Ġ
ĠdeĠ yuan2Ġ
Ġzheng4Ġ fu3
zhong4Ġ yao4Ġ
diao4Ġ cha2Ġ
Ġ 19
Ġzhi1Ġ jian1Ġ
Ġ lin2Ġ
Ġ chu2Ġ
bian1Ġ ma3Ġwei4Ġ
Ġ fa1Ġ
Ġnian2Ġ jian1Ġ
Ġ huang2Ġ
Ġxue2Ġ ming2Ġ
Ġ 14
xue2Ġ xiao4Ġ
Ġ F
zhao1 Ġ
zhu3Ġ xi2Ġ
xuan3Ġ ju3Ġ
ĠĠĠ F
Ġri4 Ġzhi4Ġ
gai3 Ġwei2Ġ
zu3 Ġzhi1
m Ġ
zhu3Ġ jiao4Ġ
Ġ nei4Ġ
zi1Ġ liao4Ġ
fa2 Ġ
hai3 Ġjun1Ġ
gong1 Ġshi4Ġ
Ġjun1 Ġshi4Ġ
ĠdeĠ da4Ġ
sun1 Ġ
Ġren2Ġkou3Ġmi4Ġ du4Ġ
chu3 Ġli3Ġ
zai1 Ġ
ĠdeĠ yi4Ġ
Ġ jing4Ġ
fang1Ġ fa3Ġ
kang4 Ġ
fu4Ġ ze2Ġ
Ġ duo1
Ġri4Ġ ben3
wu1Ġke4Ġ lan2Ġ
ĠĠĠ yu3Ġ
guan4 Ġ
shu4 ĠdeĠ
Ġyou3Ġ xian4
dai4Ġ biao3
Ġ bo1Ġ
Ġge4 Ġren2Ġ
wu2Ġ fa3Ġ
ying3Ġ xiang3
Ġji4Ġ shu4Ġ
Ġ san1
Ġshi4Ġ you2Ġ
jie1Ġ rang3
zui4Ġ gao1Ġ
ju1Ġ min2Ġ
pa4 Ġ
Ġ sheng4Ġ
ĠĠĠ E
qie4 Ġ
xi4Ġ lie4Ġ
qi2 Ġzhong1Ġ
Ġ hua4Ġ
lu4 ĠdeĠ
Ġ Ð
Ġ mei2Ġ
Ġ jie4Ġ
xue2Ġ sheng1Ġ
Ġ 2Ġ
Ġ 12
Ġzhi1Ġ chi2Ġ
Ġ N
zi4Ġ you2Ġ
wen3 Ġ
biao1Ġ zhun3Ġ
Ġ hong2Ġ
xie2 Ġhui4Ġ
shu4Ġ liang4
an1 Ġquan2Ġ
fan3Ġ ying4Ġ
ke3 Ġyi3
ken3 Ġ
hui4 Ġzai4Ġ
yao1 Ġ
ye2 Ġ
Ġ gai3Ġ
shen4 Ġzhi4Ġ
bi3 Ġli4Ġ
tong3 Ġzhi4Ġ
lian2Ġ meng2Ġ
chuang4 Ġzuo4Ġ
zhu3Ġ ren4Ġ
kai3 Ġ
Ġ sui2Ġ
ĠĠĠ ben3Ġ
Ġ kai1Ġ
dong1 Ġbu4Ġ
ĠdeĠyi2Ġge4 Ġshi4Ġzhen4Ġ
Ġshi4Ġ yi2Ġge4Ġ
Ġ xin1
Ġgong1Ġ si1
Ġ ze2
Ġ nan2
gai1 Ġguo2Ġ
Ġfu4Ġ ze2Ġ
fan2 Ġ
ya3 Ġ
Ġdi4Ġ san1Ġ
ti3Ġ yu4Ġ
Ġdi4Ġ shi2Ġ
ĠĠĠ xing2Ġzheng4Ġ
jie2Ġ gou4Ġ
Ġ su1Ġ
Ġbu4Ġ guo4Ġ
Ġdao4 ĠdeĠ
Ġ qi3Ġ
shi2 Ġnian2Ġ
qing2Ġ kuang4Ġ
neng2 Ġli4Ġ
niu2 Ġ
nan2Ġ ziĠ
e Ġ
mou3 Ġ
y ĠĠĠ
zhong1 Ġshi4Ġ
qing2Ġ kuang4
si4 Ġnian2Ġ
suo1 Ġ
xi1 Ġbu4Ġ
gong1 Ġbu4Ġ
sheng1Ġ huo2Ġ
jie1Ġ shou4Ġ
Ġ K
Ġ ge1Ġ
nv3Ġ zi3Ġ
Ġ shui3Ġ
lu4 Ġxian4Ġ
Ġ ao4
cheng2Ġ li4Ġ
Ġzhong1Ġ xue2Ġ
ĠĠĠ formulaĠ
Ġ Ã
mian4 ĠdeĠ
gu1 Ġ
huan1 Ġ
wan4 Ġ
Ġjin4Ġ ru4Ġ
yi4 Ġshi4Ġ
Ġer3 Ġsi1Ġ
lian2Ġ sai4Ġ
bei3Ġ jing1Ġ
Ġzhu3Ġ yao4Ġ
Ġ ba1
you3 Ġshi2Ġ
Ġ yang2Ġ
Ġ ao4Ġ
Ġyi4Ġ hui4Ġ
guang3Ġ dong1Ġ
Ġ ming2
Ġ ke3Ġyi3Ġ
duo2 Ġ
hao2 Ġ
ĠĠĠ jia1Ġ
lao2 Ġ
jian4 Ġzhu4Ġ
ya4 Ġzhou1Ġ
dao3 ĠdeĠ
Ġguo2Ġ min2Ġ
ye3 Ġshi4Ġ
na2 Ġda4Ġ
ĠĠĠ the
dong4Ġ wu4Ġ
tai4 Ġping2Ġ
Ġsuo3 Ġyi3Ġ
Ġ tai2Ġ
di4 Ġwei4Ġ
Ġzhe4 Ġshi4Ġ
ba2Ġgao1Ġ du4Ġ
da2 Ġdao4Ġ
zi4Ġji3 ĠdeĠ
li3 Ġshi4Ġ
zhu2 Ġjian4Ġ
Ġbing4Ġ qie3
zhuan4 Ġ
dai4 ĠdeĠ
ĠĠĠ D
ban3 Ġben3Ġ
gui3 Ġ
xiang4Ġ mu4Ġ
ran3 Ġ
xu3Ġ duo1
zhe3 ĠdeĠ
jiao4Ġ shou4Ġ
2008 Ġnian2Ġ
Ġxue2Ġ xiao4Ġ
fei1Ġ chang2Ġ
wu1Ġke4Ġ lan2
2009 Ġnian2Ġ
Ġxi1Ġ ya4Ġ
Ġ da4
qing1 Ġnian2Ġ
Ġ hai2Ġ
Ġbing4Ġ qie3Ġ
Ġ er4Ġ
Ġ zong3
Ġzhu3Ġ yao4
la1 Ġsi1Ġ
ĠĠĠ gen1Ġju4Ġ
yi1 Ġshi4Ġ
sui4 Ġ
Ġcheng2Ġ wei2
ri4Ġ ben3
Ġ hu2Ġ
mo2 Ġshi4Ġ
Ġ 4
zhe2 Ġ
niao3 Ġ
wen2Ġ wu4Ġ
Ġta1Ġmen ĠdeĠ
Ġyi4Ġ shu4Ġ
zhi3 Ġyou3Ġ
cha1 Ġ
Ġji4Ġ lu4Ġ
Ġ mu3Ġ
Ġzhou1 ĠdeĠ
Ġ ai4Ġ
hang2Ġ kong1Ġ
Ġ yu2Ġshi4Ġ
wen2Ġ xue2Ġ
fen1 Ġwei2Ġ
Ġ bo2Ġ
Ġqi2 Ġshi4Ġ
Ġqi2 Ġyu2Ġ
tong1Ġ guo4
suan1 Ġ
Ġ min2Ġ
zhi3 Ġchu1Ġ
deng3 Ġren2Ġ
Ġ 10
hui3 Ġ
28 Ġri4Ġ
shuai4 Ġ
cuo4 Ġ
cang2 Ġ
ren2Ġkou3Ġ pu3Ġ
zhi2 Ġxing2Ġ
tong2 Ġshi2Ġ
hun4 Ġ
Ġ L
zhi2Ġ jie1Ġ
Ġqiu2 Ġdui4Ġ
zha4 Ġ
Ġli4Ġ ya4
yan3 Ġchu1Ġ
jin3Ġ biao1Ġ
Ġ jin1
gai1 Ġdi4Ġ
n Ġ
Ġ 13
ge2Ġ lan2Ġ
2016 Ġnian2Ġ
T Ġ
zhe4 Ġyi1Ġ
huo2Ġ dong4
ren4Ġ wei2
jin4Ġ ru4Ġ
Ġzhi1Ġ jian1ĠdeĠ
Ġgong1Ġ kai1Ġ
Ġdang1 Ġzhong1Ġ
gong4 Ġtong2Ġ
Ġ I
xia4 Ġji4Ġ
Ġdan4 Ġzai4Ġ
Ġ 5
zhan4Ġ zheng1Ġ
wu3 Ġnian2Ġ
jiang1 Ġjun1Ġ
chou2 Ġ
mei2Ġ ti3Ġ
le4 Ġbu4Ġ
Ġ yong4Ġ
ti3 ĠdeĠ
che1Ġ zhan4
tui1 Ġchu1Ġ
jiao4Ġ yu4
yun3 Ġ
zhe4Ġ xie1Ġ
Ġshi4Ġ wu4Ġ
meng4 Ġ
die2 Ġ
po1 Ġ
miao4 Ġ
li2Ġ kai1Ġ
ti4 Ġ
Ġling4Ġ wai4Ġ
huan2Ġ jing4Ġ
Ġ 6
2012 Ġnian2Ġ
zhu2 Ġ
teng2 Ġ
lin2Ġ pi3
Ġdi4Ġ er4
shang1Ġ ye4Ġ
2011 Ġnian2Ġ
chuan2Ġ tong3Ġ
ĠĠĠ nian2
15 Ġri4Ġ
dan1Ġ qu1Ġ
guan1 ĠdeĠ
san1 Ġshi2Ġ
jun1 Ġshi4Ġ
liang4 ĠdeĠ
Ġ ci4Ġ
jie1 Ġdao4Ġ
san4 Ġ
ji1 ĠdeĠ
qian2 ĠdeĠ
Ġzhe4Ġ geĠ
ren2 Ġzai4Ġ
nei4Ġ rong2Ġ
dong4Ġ hua4Ġ
zang4 Ġ
sai4 Ġji4Ġ
Ġ yin3Ġ
gao1 ĠdeĠ
bo2 Ġshi4Ġ
du4 ĠdeĠ
Ġwei4Ġ ren2Ġ
me Ġ
yin2Ġ hang2Ġ
xuan3Ġ ju3
Ġwei4Ġ zhi4Ġ
cheng2 Ġzhong1Ġ
ming4 Ġming2Ġ
deng3 Ġdi4Ġ
Ġgong1Ġ lu4Ġ
re4 Ġdai4Ġ
sun3 Ġ
Ġ gu4Ġ
bei3Ġ jing1
a ĠĠĠ
Ġshi2Ġ ji4Ġ
yun4Ġdong4 Ġhui4Ġ
xuan3Ġ ze2Ġ
Ġda4Ġ li4Ġ
Ġer2 Ġzai4Ġ
yuan2 Ġnian2Ġ
bao4Ġ gao4Ġ
ĠdeĠ he2Ġ
Ġmu4Ġ qian2Ġ
bo1 Ġchu1Ġ
zui4 Ġjia1Ġ
Ġ wu2
C Ġ
ĠĠĠ ju4Ġ
zong1 Ġjiao4Ġ
Ġ han4Ġ
xue2 Ġwei4Ġ
tu3 Ġdi4Ġ
Ġde2 Ġdao4Ġ
P Ġ
bang3 Ġ
zui4 Ġhou4Ġ
wen2Ġ hua4
tuan2Ġ ti3Ġ
25 Ġri4Ġ
Ġ 5Ġ
Ġdi4Ġ fang1Ġ
gui3 Ġdao4Ġ
luan4 Ġ
Ġwei4Ġ di4Ġ
jing1 Ġli4Ġ
xi4 ĠdeĠ
Ġzhi1Ġ qian2Ġ
sheng3 ĠdeĠyi2Ġge4Ġshi4Ġzhen4Ġ
fen1Ġ bie2
Ġshi4Ġyi1Ġ zhong3Ġ
Ġ zhan4
Ġshi4Ġwei4Ġyu2Ġ mei3Ġguo2Ġ
ji2 Ġzhong1Ġ
Ġ 9
Ġge4 Ġyue4Ġ
Ġjun1 ĠdeĠ
si3Ġ wang2Ġ
xiang1Ġ guan1Ġ
t ĠĠĠ
shou3Ġ ci4Ġ
Ġ ye4Ġ
30 Ġri4Ġ
Ġ qi4Ġ
Ġ bao1Ġkuo4
Ġji1Ġ gou4Ġ
wei4 ĠdeĠ
Ġ mo2Ġ
ao4Ġ lin2Ġpi3
Ġ xing4Ġ
ling3Ġ dao3Ġ
Ġyou3Ġ guan1Ġ
Ġhai3Ġ ba2Ġgao1Ġdu4Ġ
Ġyi1Ġ xie1Ġ
Ġtong2 Ġnian2Ġ
huai2 Ġ
2014 Ġnian2Ġ
Ġ mi3
yong4 ĠdeĠ
ĠĠĠ wei4Ġ
20 Ġri4Ġ
mei3 Ġyuan2Ġ
Ġxing2Ġ dong4Ġ
Ġzai4Ġ yi1Ġ
ji1 Ġyu2Ġ
xue3 Ġ
Ġzhong1Ġ hua2Ġmin2Ġguo2Ġ
shui3 Ġyu4Ġ
Ġ jue2Ġ
11 Ġ
bian4Ġ hua4Ġ
shang4 Ġwei4Ġ
Ġji2Ġ tuan2
Ġ zhong4Ġ
2018 Ġnian2Ġ
Ġji4Ġ xu4Ġ
zhi1 Ġyi1Ġ
Ġshi2Ġ dai4Ġ
chu3 Ġyu2Ġ
S Ġ
UTC Ġ
gong4 Ġhe2Ġ
jie2Ġ shu4Ġ
Ġbu4Ġ zhang3Ġ
zi4Ġ ji3Ġ
2019 Ġnian2Ġ
Ġzi4Ġ ji3
zhi1Ġ chi2Ġ
2005 Ġnian2Ġ
guo4 Ġcheng2Ġ
Ġhou4Ġ lai2
shun4 Ġ
Ġ bai2Ġ
10 Ġri4Ġ
min2Ġ zu2Ġ
Ġ wai4Ġ
2015 Ġnian2Ġ
kong1Ġ jian1Ġ
Ġ 8
er Ġ
shui4 Ġ
bu2 Ġhui4Ġ
ye4 Ġyu2Ġ
Ġ ru2
tou4 Ġguo4Ġ
nei4 Ġbu4Ġ
mei4 Ġ
2013 Ġnian2Ġ
jie3Ġ fang4
xin1Ġ wen2Ġ
Ġzhi2 Ġdao4Ġ
fen1 Ġbu4Ġ
Ġyi4Ġ zhi2Ġ
Ġ 7
Ġ si4
gen1Ġ ju4
Ġ R
Ġzhou1 Ġshi4Ġ
pi1 Ġping2Ġ
Ġji2Ġ tuan2Ġ
2007 Ġnian2Ġ
Ġ cheng1Ġ
di4Ġ qu1Ġ
Ġ ziĠ
ĠĠĠ zhe4Ġ
Ġhe2Ġ nan2Ġ
ta1Ġ men
Ġshi4Ġ shi2Ġ
Ġyou3Ġxian4 Ġgong1Ġsi1Ġ
Ġ jiu4
ge2Ġ ming4Ġ
D Ġ
wan2 Ġjia1Ġ
gui1Ġ ding4Ġ
ĠĠĠ of
20 Ġ
Ġ ai4
Ġ jing3Ġ
Ġjia1Ġ ru4Ġ
Ġ shu3Ġ
wan2 Ġquan2Ġ
Ġ shen2Ġ
cheng2Ġ wei2Ġ
xi1Ġ ban1Ġ
zi1Ġ ge2Ġ
26 Ġri4Ġ
da4Ġ lu4Ġ
Ġ tang2Ġ
ĠĠĠ gai1Ġ
2017 Ġnian2Ġ
ao4Ġlin2Ġpi3 Ġke4Ġ
Ġ 3Ġ
Ġda4Ġ hui4Ġ
24 Ġri4Ġ
zai4 ĠdeĠ
za2 Ġzhi4Ġ
Ġzhe4Ġ zhong3Ġ
ying1 Ġyu3Ġ
pu2Ġ tao2Ġ
lu4 Ġdi4Ġ
he2 ĠdeĠ
shang4Ġ hai3Ġ
hao2 Ġmi3Ġ
Ġyu3Ġ yan2Ġ
qi3Ġ ye4Ġ
Ġ ying1Ġguo2Ġ
ĠĠĠ yi1Ġ
qi2 Ġta1
ĠĠĠ K
fang1 ĠdeĠ
hou4 Ġyi1Ġ
luo2Ġ ma3Ġ
Ġ mo4Ġ
wen4Ġ ti2
san1 Ġge4Ġ
ĠĠĠ W
Ġcheng2Ġ qu1Ġ
Ġ ke3
se4 ĠdeĠ
2006 Ġnian2Ġ
chuan2Ġ tong3
Ġshi4Ġ fa3Ġguo2Ġ
yi1 ĠdeĠ
18 Ġri4Ġ
wu4Ġ zhong3Ġ
Ġwei4Ġyu2Ġ gai1Ġguo2Ġ
Ġli3Ġ si1Ġ
jing4Ġ nei4Ġ
Ġbu4Ġtong2 ĠdeĠ
Ġ ha1Ġ
Ġ tai2Ġwan1Ġ
wu4 Ġli3Ġ
Ġ mo4
duo1 ĠdeĠ
shu4 Ġwei4Ġ
Ġdai4Ġ biao3
biao3 Ġxian4Ġ
Ġshi4Ġjie4 Ġda4Ġ
Ġ tou2Ġ
sheng3 Ġji2Ġ
fa3Ġ lv4Ġ
miao2 Ġshu4Ġ
jing1Ġ guo4Ġ
guan1 Ġyuan2Ġ
gan4 Ġ
Ġ lu2Ġ
chang1 Ġ
Ġ yao4Ġ
Ġzui4 Ġhou4Ġ
21 Ġ
Ġyi4Ġ ban1Ġ
ba4 Ġ
po4Ġ huai4
Ġguo2Ġ jia1
Ġ a1
ying2 Ġde2Ġ
kuan1 Ġ
cai4 Ġ
Ġsui2 Ġhou4Ġ
zheng4 Ġzai4Ġ
bao1Ġ han2Ġ
ĠĠĠ L
Ġshi4Ġ jian4
bo2Ġwu4Ġ guan3Ġ
Ġ O
Ġgong1Ġ ji1Ġ
shen4 Ġ
ce4 Ġshi4Ġ
chang3 ĠdeĠ
ze2 Ġshi4Ġ
Ġwei4Ġ zhong1Ġ
Ġli4Ġ yong4Ġ
bu4 Ġhe2Ġ
na2 Ġ
30 Ġ
nie4 Ġ
fei1 Ġji1Ġ
Ġfen1 Ġbu4Ġyu2Ġ
shi3 ĠdeĠ
zhuan1Ġ ye4Ġ
zheng1 Ġyi4Ġ
27 Ġri4Ġ
chun2 Ġ
fa3Ġ yuan4Ġ
16 Ġri4Ġ
Ġ chao2Ġ
Ġ 2001Ġnian2Ġ
Ġdi4Ġ qu1
21 Ġri4Ġ
yi4 Ġshi2Ġ
yong1 Ġ
17 Ġri4Ġ
zao1 Ġdao4Ġ
Ġshi4Ġ yi4Ġ
Ġsheng1Ġ huo2Ġ
12 Ġri4Ġ
B Ġ
Ġbei4Ġ cheng1Ġwei2Ġ
ding4 Ġyi4Ġ
Ġzhong1Ġ xin1
8 Ġri4Ġ
Ġda4Ġ qu1Ġ
Ġsui1 Ġran2
zong1 Ġhe2Ġ
Ġzhan4Ġ zheng1Ġ
Ġ W
xue2 ĠdeĠ
Ġxian4 Ġshi2Ġ
Ġzhong1Ġ gong4
ji2 Ġwei4Ġ
23 Ġri4Ġ
2021 Ġnian2Ġ
huang2 Ġdi4Ġ
ĠdeĠ zuo4Ġ
zhi3 Ġshi4Ġ
a1Ġ la1Ġ
2022 Ġnian2Ġ
11 Ġri4Ġ
sou1 Ġ
ou1 Ġzhou1
jiang1 Ġqi2Ġ
Ġbing4 Ġbu4Ġ
yuan2 Ġyu2Ġ
Ġ zhu1Ġ
fang1Ġ xiang4Ġ
zhan4 ĠdeĠ
liu4 Ġnian2Ġ
e2Ġ luo2Ġ
chu1 Ġxian4Ġ
quan2 Ġli4Ġ
ĠĠĠ yu2Ġ
Ġ chong2Ġ
gui1Ġ mo2Ġ
22 Ġri4Ġ
lie4Ġ che1
7 Ġri4Ġ
29 Ġri4Ġ
lie4 ĠdeĠ
zui4Ġ da4ĠdeĠ
duo1Ġ shu4Ġ
xiang4 ĠdeĠ
nao3 Ġ
xu1Ġ yao4
hai2 Ġshi4Ġ
yu4 ĠdeĠ
neng2Ġ gou4Ġ
yue1Ġ han4Ġ
ĠĠĠ ci3Ġ
Ġzhe4Ġ xie1
9 Ġri4Ġ
ding4 Ġwei4Ġ
Ġ long2Ġ
tong3 Ġji4Ġ
Ġxiang1Ġ gang3
E Ġ
19 Ġri4Ġ
sang1 Ġ
ĠĠĠ zheng4Ġzhi4Ġ
Ġzai4Ġ zhe4Ġ
xin4 Ġxi1Ġ
lian2Ġ meng2
Ġ ci4
yang4 ĠdeĠ
Ġxian4 Ġzhi4Ġ
gong1 ĠdeĠ
ju3Ġ ban4
qiu2 Ġdui4Ġ
hong1 Ġ
cha2 ĠdeĠ
14 Ġri4Ġ
ling4 Ġyi1Ġ
chang2 Ġshi4Ġ
5 Ġri4Ġ
mei3Ġguo2Ġ ren2Ġkou3Ġpu3Ġ
niu3Ġ yue1
zu3 Ġhe2Ġ
Ġhuo4 Ġde2
3 Ġri4Ġ
lin2 Ġshi2Ġ
31 Ġri4Ġ
Ġzhong1Ġ bu4Ġ
wei4 Ġshi4Ġ
dong3 Ġshi4Ġ
Ġfen1Ġ bie2
ji1 Ġdi4Ġ
ge1Ġ shou3Ġ
dong1Ġ nan2Ġ
ĠĠĠ zhong1Ġ
hai3Ġ ba2
Ġ lu4
bang1 Ġzhu4Ġ
ĠdeĠshi4Ġ zhen4Ġ
6 Ġri4Ġ
bing3 Ġ
Ġ 4Ġ
mou2 Ġ
pai1 Ġshe4Ġ
Ġyi4Ġ da4Ġli4Ġ
2000 Ġnian2Ġ
Ġshe4 Ġli4Ġ
2 Ġri4Ġ
Ġyi4Ġ ban1
Ġren2Ġ kou3
ge4 Ġren2Ġ
ĠĠĠthe ĠĠĠ
Ġ 190
Ġ gong4Ġ
she4 Ġyou3Ġ
ĠdeĠ zhong1Ġ
4 Ġri4Ġ
Ġ liu2
Ġ hua2Ġ
Ġ ru4Ġ
sheng1Ġ ya2Ġ
yuan2 Ġhe2Ġ
2004 Ġnian2Ġ
Ġdi4Ġ qu1ĠdeĠ
Ġxue2Ġ sheng1Ġ
Ġ dao3Ġzhi4Ġ
Ġ bao4Ġ
tie3Ġ lu4
zu2 Ġqiu2
zao3 Ġqi1Ġ
Ġqi2 Ġta1
feng2 Ġ
cang1 Ġ
0 Ġ
13 Ġri4Ġ
xiong1 Ġdi4Ġ
sheng1 Ġzai4Ġ
dong1Ġ bei3Ġ
12 Ġ
tong1Ġ chang2Ġ
mu4 Ġdi4Ġ
hui1 Ġfu4Ġ
ruan3 Ġ
Ġshi4Ġ chang3Ġ
Ġxue2Ġ yuan4Ġ
Ġzhe4 Ġyi1Ġ
shao1 Ġ
Ġ wo3
al ĠĠĠ
shen1Ġ fen4Ġ
ĠĠĠ you2Ġyu2Ġ
qu3 Ġdai4Ġ
ge2Ġ ming4
zhi3Ġ hui1Ġ
lian2Ġ bang1Ġ
qing2Ġkuang4 Ġxia4Ġ
yi2 Ġbu4Ġ
su1Ġ lian2Ġ
xie2 Ġyi4Ġ
huang2 Ġjia1Ġ
ke1 Ġji4Ġ
fa1 Ġxian4
d Ġ
pan2 Ġ
pang2 Ġ
zheng3 Ġge4Ġ
zhan1 Ġ
Ġ mei2Ġyou3Ġ
Ġ bian4Ġ
ren2 Ġhe2Ġ
Ġgong1Ġ chi3Ġ
yao1 Ġqiu2
yan1 Ġ
chao1 Ġji2Ġ
mao4 Ġyi4Ġ
yue4 ĠdeĠ
zhang3 ĠdeĠ
xue2Ġ yuan4
fan3Ġ ying4
ju3Ġ ban4Ġ
cui1 Ġ
hang2Ġ kong1
d ĠĠĠ
xi2 Ġji1Ġ
Ġye3 Ġyou3Ġ
hua4 Ġhe2Ġ
guan1Ġ fang1Ġ
xiao3Ġ shuo1Ġ
Ġ fu4
Ġdi4Ġ li4Ġ
3 Ġnian2Ġ
I Ġ
li4 Ġhe2Ġ
nv3Ġ xing4Ġ
Ġxi1Ġ nan2Ġ
tu2Ġ shu1Ġ
za2 Ġ
4 Ġnian2Ġ
xian1 Ġhou4Ġ
bi4Ġ ye4Ġ
tong3 Ġyi1Ġ
Ġ ha1
hou2 Ġ
sai4 ĠdeĠ
Ġ gu4
Ġ br
zun1 Ġ
Ġyi3Ġ jing1
Ġ hei1Ġ
lan3 Ġ
Ġbr Ġ
xie2 Ġzhu4Ġ
Ġ wei1
ci4 Ġshi4Ġjie4Ġda4Ġ
Ġ shu1Ġ
Ġ 6Ġ
Ġ dong1
Ġru2Ġ guo3Ġ
shang4 Ġshi4Ġ
qu1Ġ hua4Ġ
Ġ que4Ġ
fen1 Ġxi1Ġ
yu3 ĠdeĠ
ting3 Ġ
Ġer3Ġ sheng3Ġ
ren2Ġkou3Ġ shu4Ġliang4
wen2Ġwu4Ġ bao3Ġhu4Ġ
Ġhe2Ġ yi1Ġ
Ġbu4Ġ neng2Ġ
zi4 Ġxing2Ġ
jie1Ġ duan4Ġ
wu2 Ġxian4Ġ
guang3Ġ bo1Ġ
Ġ qie3Ġ
Ġyi3Ġ lai2Ġ
Ġxi1Ġ ban1Ġ
Ġ zu3Ġ
dan1Ġ ren4
Ġ ben3
Ġ shuang1Ġ
ĠĠĠ O
Ġta1Ġ ceng2
chi2Ġ xu4Ġ
tai2Ġ bei3
5 Ġnian2Ġ
gong4Ġchan3Ġ dang3Ġ
Ġ wu3
guo2 Ġhe2Ġ
on Ġ
Ġ J
Ġyi3Ġ xia4Ġ
fa1Ġ biao3
qi1 Ġnian2Ġ
te4 ĠdeĠ
reng2 Ġ
dao3Ġ yan3Ġ
6 Ġnian2Ġ
hou4 Ġyu2Ġ
yan3Ġ chang4
zhu4 Ġzai4Ġ
xia4Ġ xia2
tiao2 Ġjian4Ġ
Ġ man4Ġ
pin2 Ġdao4Ġ
Ġgong1Ġ zuo4
ye4 ĠdeĠ
jiao1 Ġyi4Ġ
Ġ cai2Ġ
ĠĠĠ N
Ġzai4Ġ ci4Ġ
i Ġ
shao4 Ġnian2Ġ
Ġ p
jie2Ġ shu4
Ġshi4Ġ zhong1Ġguo2Ġ
lai4 Ġ
hu3 Ġ
bao4 Ġdao4Ġ
Ġren2Ġkou3Ġmi4Ġ du4Ġwei4Ġ
qiu2 Ġyuan2Ġ
Ġshi4Ġ li4Ġ
Ġ qie3
ĠĠĠ bu4Ġ
jue2Ġ sai4Ġ
ying4Ġ yong4Ġ
wai4 ĠdeĠ
you2Ġ zheng4Ġ
jian4 Ġli4Ġ
zao1 Ġ
9 Ġnian2Ġ
zi1 Ġyuan2Ġ
sai1 Ġer3Ġ
Ġ zhang1
Ġ jiu3Ġ
Ġqi2 Ġhou4Ġ
Ġ ya4Ġ
zui4 Ġda4Ġ
cao1 Ġ
Ġbing4 Ġwei4Ġ
hui2 Ġdao4Ġ
su4Ġ du4Ġ
qi4 Ġhou4Ġ
ke3Ġ da2Ġ
Ġ xi1
Ġwei4Ġyu2Ġ fa3Ġguo2Ġ
gai3Ġ ge2Ġ
mi4Ġ shu1Ġ
Ġyi1Ġ yuan4Ġ
dian4Ġshi4Ġ ju4Ġ
zhuang4Ġ tai4Ġ
Ġ luo4Ġ
zhu4 ĠdeĠ
fen4 Ġwei4Ġ
ĠĠĠ R
Ġgong1Ġ ye4Ġ
wang3 Ġzhan4Ġ
gong1Ġ si1Ġ
kai1Ġ fa1
jie2Ġ guo3Ġ
suo3Ġ shu3ĠdeĠ
Ġ qian1Ġ
ĠdeĠdi4Ġ yi1Ġ
hu2 Ġnan2Ġ
Ġyi1Ġ si1Ġ
ya4 Ġli4Ġ
Ġwei4Ġ yi1Ġ
shou3Ġ ci4
zou4 Ġ
shang4Ġ hai3
Ġzhe4Ġ ge
20 Ġshi4Ġji4Ġ
jie2 Ġhe2Ġ
Ġ jie3Ġ
Ġzuo4Ġ pin3Ġ
Ġ mai4
Ġ zhao4Ġ
zuo3 Ġyou4Ġ
xiao3 Ġxue2Ġ
sheng4 Ġli4Ġ
Ġzhong1Ġ gong4Ġ
U Ġ
Ġhao4 Ġxian4Ġ
zhen4Ġ qu1Ġ
2 Ġnian2Ġ
ĠdeĠ fu4Ġ
wen2 Ġming2Ġ
Ġjian3Ġ cheng1Ġ
yi2 Ġzhi4Ġ
jiao4 Ġhui4Ġ
sheng3Ġ fen4Ġ
zhan3Ġ kai1Ġ
yin4Ġ du4
shi2Ġ qi1Ġ
Ġsuo3 Ġyou3Ġ
ling3Ġ dao3
Ġ fa3Ġguo2Ġ
mu4Ġ biao1Ġ
Ġer2 Ġshi4Ġ
gao1 Ġji2Ġ
zhun3 Ġbei4Ġ
fa1Ġ biao3Ġ
wang3Ġ luo4Ġ
Ġjian4 Ġshe4Ġ
xun4Ġ lian4Ġ
ke1 ĠdeĠ
Ġren2Ġ wu4Ġ
xuan3Ġ shou3Ġ
jiao1Ġ tong1
hao3 ĠdeĠ
zi4Ġ ran2Ġ
zhong4Ġyao4 ĠdeĠ
dong1Ġ jing1Ġ
chan3Ġ pin3Ġ
gong4Ġyou3Ġ ren2Ġkou3Ġ
Ġxian4Ġ dai4Ġ
Ġyi1Ġ ming2Ġ
Ġxi1Ġ bei3Ġ
o Ġ
feng1Ġ ge2Ġ
Ġ fei1
Ġcheng2Ġ ji4Ġ
lei3 Ġ
Ġhe2Ġ di4Ġ
yan2Ġ zhong4Ġ
xiao3Ġxing2Ġ xing1Ġ
e ĠĠĠ
Ġ jia3Ġ
zi ĠdeĠ
liu2 Ġxing2Ġ
mu4Ġ qian2Ġ
wen2Ġwu4Ġbao3Ġhu4Ġ dan1Ġwei4Ġ
juan3 Ġ
Ġji1Ġ chang3Ġ
bian4 Ġcheng2Ġ
7 Ġnian2Ġ
qiao2 Ġzhi4Ġ
mie4 Ġ
lei4Ġ si4
1 Ġnian2Ġ
dian4Ġshi4Ġ tai2Ġ
jie3 Ġshi4Ġ
8 Ġnian2Ġ
guo2Ġ min2Ġ
Ġyi4Ġ qi3Ġ
Ġ wu1Ġ
kai1Ġ fang4Ġ
Ġ lan2Ġ
Ġ yong3Ġ
Ġ mai4Ġ
Ġxia4Ġ ling4
ka3 Ġer3Ġ
2003 Ġnian2Ġ
Ġ shen4Ġzhi4Ġ
xing2 Ġshi4Ġ
dou1 Ġyou3Ġ
2002 Ġnian2Ġ
Ġ yi2Ġge4Ġ
zhi1 Ġhou4Ġ
hui4 Ġhe2Ġ
mei3 Ġping2Ġfang1Ġgong1Ġli3Ġ
ru4 ĠleĠ
Ġyi1Ġ yang4Ġ
Ġ chu2ĠleĠ
Ġgong1Ġ fen1Ġ
Ġshe4 Ġzhi4Ġ
te4Ġ zheng1Ġ
can1Ġ sai4Ġ
Ġsi1Ġ ji1Ġ
ru2 Ġxia4Ġ
zhen1 Ġdui4Ġ
jiu4 Ġshi4Ġzhen4Ġ
Ġshi4Ġ fou3
Ġ dan1Ġren4Ġ
Ġshi2Ġ jian1
zhe4Ġ geĠ
Ġ guang1Ġ
gao1 Ġzhong1Ġ
Ġci3 Ġhou4Ġ
Ġzai4Ġ zhong1Ġ
bi4Ġ xu1Ġ
wang2 Ġguo2Ġ
bi3Ġ jiao4Ġ
Ġ 00
er4 Ġshi4Ġ
wai4Ġ jiao1
gui1Ġ hua4Ġ
diao1 Ġ
Ġyi4Ġ zhi4Ġ
lei4Ġ si4Ġ
bang4 Ġ
shan1Ġ dong1Ġ
Ġran2 Ġhou4Ġ
Ġyi4Ġ zhi2
Ġli4Ġ shu3Ġyu2Ġ
Ġsui1 Ġran2Ġ
yuan2 Ġshi4Ġ
dui4 Ġzai4Ġ
zhu4 Ġming2Ġ
yun2 Ġnan2Ġ
Ġ jia4Ġ
hen3 Ġduo1Ġ
Ġer3 ĠdeĠ
huo4 Ġde2
sheng1Ġ chan3Ġ
Ġ yu3
zhan4 Ġyi4Ġ
ĠĠĠ gong1Ġ
dian4Ġ ziĠ
Ġ bei3
Ġ 11
zhong4 ĠdeĠ
Ġjian4 Ġzhi4Ġ
ĠĠĠ da4Ġ
xin1 Ġjia1Ġ
lai2Ġ zi4
zhi4Ġ zuo4Ġ
shan1 Ġxi1Ġ
ren2Ġkou3Ġshu4Ġliang4 Ġwei4Ġren2Ġ
ju4 Ġji2Ġ
ĠdeĠyi1Ġ zhong3Ġ
Ġ gu3
ĠdeĠ ming2Ġ
ji2 Ġhe2Ġ
Ġxi1Ġ ya4
tao4 Ġ
lv3 Ġyou2Ġ
Ġzhi4Ġ zao4Ġ
Ġ shang1Ġ
Ġxing2Ġ wei2Ġ
ma3Ġ lai2
bao4Ġ fa1Ġ
nv3 Ġer2Ġ
Ġ ren4
Ġ INSEE
de ĠĠĠ
zong3 Ġli3Ġ
quan2 Ġqiu2Ġ
si1 Ġhe2Ġ
ĠdeĠ zhu3Ġ
Ġshang4Ġ hai3Ġ
sai4 Ġzhong1Ġ
fa1 Ġshe4Ġ
rui4 Ġshi4Ġ
Ġ che1Ġ
bao1Ġ han2
nong2Ġ ye4Ġ
Ġ tu2Ġ
Ġ deng3
ye4Ġ wu4Ġ
tou2Ġ zi1Ġ
lu4 Ġjun1Ġ
Ġ dui4Ġyu2Ġ
wu4 Ġzhi4Ġ
jue2 ĠdeĠ
nai4 Ġ
ao2 Ġ
te4Ġ bie2Ġ
Ġ zu3
Ġjin4 Ġshi4Ġ
ĠdeĠshi2Ġ hou4Ġ
ao4Ġlin2Ġpi3Ġke4Ġ yun4Ġdong4Ġhui4Ġ
ge2 ĠdeĠ
Ġzhi4Ġ jin1Ġ
fang1Ġ an4Ġ
Ġ biao3Ġshi4Ġ
si1 Ġren2Ġ
hua4Ġ xue2Ġ
Ġte4Ġ bie2
Ġda4Ġ liang4Ġ
ji2 Ġshi4Ġ
min3 Ġ
ke3Ġneng2 Ġshi4Ġ
lian2Ġ jie1Ġ
jin4 ĠdeĠ
Ġzhi1Ġ wai4Ġ
fa1Ġ dong4Ġ
si4 Ġshi2Ġ
cao2 Ġ
Ġ V
Ġ ni2Ġ
xuan3 Ġwei4Ġ
qian3 Ġ
cha4 Ġ
Ġshe4Ġ shi1Ġ
chu4 ĠdeĠ
tu3 Ġer3
Ġli4Ġ si1Ġ
bo2Ġ te4Ġ
Ġzong3Ġ mian4Ġji1Ġ
luo2Ġ ma3
chuang4 Ġli4Ġ
ĠdeĠ li4Ġ
Ġde2 Ġli3Ġ
x Ġ
guang3Ġ chang3Ġ
lian2 Ġhe2Ġguo2Ġ
ji2 Ġshi2Ġ
geng1Ġ ming2Ġwei4Ġ
zao3 Ġnian2Ġ
2023 Ġnian2Ġ
xiao4 Ġli4Ġ
qi4 ĠdeĠ
jue2Ġ ding4
biao3Ġ yan3Ġ
X Ġ
yi2 Ġshi4Ġ
reng2 Ġran2Ġ
Ġjun1 Ġzai4Ġ
fang1Ġ mian4
Ġgai1Ġ sheng3Ġ
Ġ geng4Ġ
zong3Ġ tong3
zhi4 Ġshi4Ġ
da1 Ġ
Ġgong1Ġ neng2Ġ
Ġren2Ġkou3Ġmi4Ġdu4Ġ mei3Ġping2Ġfang1Ġgong1Ġli3Ġ
Ġren2Ġkou3Ġmi4Ġdu4Ġwei4Ġ mei3
Ġxia4Ġling4 Ġshi2Ġ
you2Ġzheng4Ġ bian1Ġma3Ġwei4Ġ
cha2ĠdeĠ shu4Ġju4Ġ
Ġju4Ġ le4Ġbu4Ġ
Ġshi4Ġzhen4Ġ bian1Ġma3Ġwei4Ġ
ĠINSEE Ġshi4Ġzhen4Ġbian1Ġma3Ġwei4Ġ
Ġ xian1Ġ
Ġ zhen1Ġ
ĠĠĠ bei4Ġ
biao1Ġ zhun3
Ġshe4 ĠdeĠ
xuan3Ġ qu1Ġwei4Ġ
jiu3 Ġnian2Ġ
Ġzai4Ġ ci3Ġ
Ġbu4Ġ guo4
pai2 Ġming2Ġ
Ġguo2Ġ wang2Ġ
dong4 Ġli4Ġ
shi2ĠdeĠ ren2Ġkou3Ġshu4Ġliang4Ġwei4Ġren2Ġ
jie1Ġrang3 ĠdeĠshi4Ġzhen4Ġ
mei3Ġguo2Ġren2Ġkou3Ġpu3Ġ cha2ĠdeĠshu4Ġju4Ġ
cong2 Ġshi4Ġ
jia1 Ġli4Ġ
Ġer2 Ġren2Ġkou3Ġmi4Ġdu4Ġwei4Ġmei3
ge2Ġ lan2
Ġdang1Ġdi4Ġ gong4Ġyou3Ġren2Ġkou3Ġ
fen1Ġ lei4Ġ
jie3Ġ jue2Ġ
shi3Ġyong4 ĠdeĠ
zu2 ĠdeĠ
Ġfen1 Ġzhong1Ġ
gou1 Ġ
da4 Ġbu4Ġfen4
yi1Ġ zhong3Ġ
F Ġ
l Ġ
ling3 Ġyu4Ġ
Ġhuo4Ġ jiu4Ġshi4Ġzhen4Ġ
he2 Ġshi4Ġ
ĠĠĠ li4Ġ
Ġchu1Ġ ban3Ġ
yun4Ġ ying2Ġ
sheng3Ġji2Ġ xuan3Ġqu1Ġwei4Ġ
ji1 Ġji2Ġ
ĠdeĠ yi1Ġbu4Ġfen4Ġ
shi2 Ġshi4Ġ
Ġnian2Ġ du4Ġ
er2Ġ ziĠ
zuo4Ġ pin3
Ġ xiang4
Ġ zheng4Ġshi4Ġ
xuan3 Ġren2Ġ
gai4Ġ nian4Ġ
xing1 ĠdeĠ
Ġer3 Ġde2Ġ
sheng3 Ġhe2Ġ
jie1Ġ shou4
tiao2Ġ yue1Ġ
Ġjin3Ġ guan3Ġ
fen4Ġwei4Ġ fa3Ġguo2Ġ
Ġgai1Ġsheng3Ġ fen4Ġwei4Ġfa3Ġguo2Ġ
Ġchu1Ġ ban3
Ġzhi1 Ġxian4Ġ
tie3 Ġdao4Ġ
lian2Ġ bang1
Ġdi4Ġ san1
Ġer2Ġ qie3Ġ
Ġjun1Ġ dui4Ġ
Ġ song4Ġ
guang3 Ġzhou1Ġ
Ġbu4Ġ jiu3Ġ
ao4 Ġda4Ġli4Ġ
ĠĠĠ 18
Ġwei4Ġ shi2Ġ
Ġxi1Ġ la4
fu2 Ġjian4Ġ
Ġ qing1
Ġhe2Ġ bing4
Ġ han2Ġ
ba1 Ġnian2Ġ
zhan4Ġ zheng1
Ġyou3Ġ ren2Ġ
pai2Ġ ming2
zhan4 Ġshi4Ġ
jin3Ġbiao1Ġ sai4Ġ
zui4Ġ hou4Ġyi1Ġ
jing3Ġ cha2Ġ
qun2Ġ dao3Ġ
lai2 Ġyuan2Ġ
te4Ġ bie2
Ġta1Ġ bei4Ġ
Ġ jiang3Ġ
xing1 Ġjian4Ġ
Ġ xiao1Ġ
lun2Ġ dun1
Ġ dui4
Ġwan4 Ġren2Ġ
Ġchu1Ġ sheng1Ġyu2Ġ
she4 Ġli4Ġ
reng2 Ġran2
di4Ġ yi1Ġ
Ġri4 ĠdeĠ
Ġ ruo4Ġ
ben3 ĠdeĠ
wei3 Ġhui4Ġ
Ġyou2Ġ xi4
Ġ kai1Ġshi3Ġ
Ġren2Ġ gong1Ġ
xue2Ġ xiao4
shan3 Ġxi1Ġ
tong1Ġ chang2
tian1Ġ wen2Ġ
Ġ yi4Ġwei4Ġ
Ġzhi4Ġ yu2Ġ
lie4 Ġwei4Ġ
ceng2 Ġzai4Ġ
Ġbu4Ġ ming2Ġ
mu3 Ġsi1Ġ
Ġming2Ġ chao2Ġ
yun4 Ġxing2Ġ
mei3 Ġzhou1Ġ
Ġ geng4
cai3Ġ yong4
Ġdi4Ġ si4Ġ
ang2 Ġ
ao4 Ġsi1Ġ
yan2Ġjiu1 Ġsuo3Ġ
rou4 Ġ
guang3Ġ fan4Ġ
Ġxian4Ġ lu4Ġ
ce Ġ
meng2Ġ gu3Ġ
Ġshi4Ġ bu4Ġ
yi3 Ġji2Ġ
Ġhe2Ġ ping2Ġ
hua4 Ġshi2Ġ
jia1Ġ ru4Ġ
ĠĠĠ ta1
zhan4 Ġhou4Ġ
nan2 Ġji2Ġ
shuo1Ġ fa3Ġ
gan3Ġ ran3Ġ
Ġ di2Ġ
xi1 Ġzai4Ġ
Ġ rang4
Ġjin4 ĠdeĠ
Ġren4Ġ wei2
Ġji1Ġ ben3Ġ
Ġju4Ġ li2Ġ
Ġ fei4Ġ
mo2 Ġxing2Ġ
Ġ jiao1Ġ
guo4Ġ cheng2Ġzhong1Ġ
ĠdeĠdi4Ġ fang1Ġ
wu2 Ġren2Ġ
ĠdeĠ xin1Ġ
ji4Ġ shu4Ġ
Ġjian4 Ġyi4Ġ
Ġta1 Ġyu3Ġ
yun4Ġ shu1Ġ
gou4Ġ mai3
Ġ fan4Ġ
wan2 Ġquan2
wu3 Ġshi2Ġ
Ġke4 ĠdeĠ
ren4Ġwei2 Ġshi4Ġ
Ġzai4Ġ yi4Ġ
Ġge4 Ġdi4Ġ
Ġ da2Ġ
ban4Ġ gong1Ġshi4Ġ
Ġ 10Ġyue4Ġ
tong2 Ġyi1Ġ
duo1 Ġge4Ġ
wai4 Ġguo2Ġ
Ġzong3 Ġren2Ġkou3Ġ
xue2 Ġshi4Ġ
jia4Ġ zhi2Ġ
shang4 Ġyou3Ġ
yuan2 Ġwei4Ġ
ng Ġ
Ġ c
Ġ can1Ġ
fei1 Ġxing2Ġ
gong1Ġ zuo4Ġ
Ġzi4Ġ ji3Ġ
ni2 Ġsi1Ġ
Ġzai4Ġ zhong1Ġguo2Ġ
xue2Ġ xi2Ġ
zhao3 Ġ
yang3Ġ hua4Ġ
Ġ shou4
Ġ chen2
quan1 Ġ
Ġ Î
Ġ ai1
qi3Ġ lai2Ġ
xuan1Ġ chuan2Ġ
mo4 Ġxi1Ġ
Ġyi1Ġ xie1
xuan3Ġ ze2
cheng1 Ġwei4Ġ
xiao1 Ġxi1Ġ
Ġxian4 Ġren2Ġ
ĠdeĠ guan1Ġ
hai3 Ġjun1
biao1 Ġzhi4Ġ
Ġbu4Ġ men2Ġ
zhi4 Ġwei4Ġ
Ġnian2Ġ hou4Ġ
you2Ġ xi4
ma2 Ġ
huan2Ġ jing4
fu4Ġze2Ġ guan3Ġxia2Ġ
Ġwei2Ġ zhu3Ġ
Ġ shi3Ġyong4Ġ
jie4 Ġquan2Ġguo2Ġ
xi4Ġ bao1Ġ
Ġ xing1Ġ
gou4 Ġcheng2Ġ
che1Ġ liang4Ġ
shi1 ĠdeĠ
zhe2 Ġxue2Ġ
an4 ĠdeĠ
ĠĠĠ yi3Ġ
1999 Ġnian2Ġ
keng1 Ġ
Ġji4Ġ hua4
si1 Ġzai4Ġ
zheng4 ĠdeĠ
an1 Ġquan2
dang3 ĠdeĠ
Ġ ke1
Ġ lin2
bi3 Ġde2Ġ
Ġdao4Ġ lu4Ġ
chao2Ġ xian1Ġ
yin2Ġ hang2
xi1 ĠdeĠ
Ġshi4Ġ mei3Ġguo2Ġ
Ġshi4Ġ tu2Ġ
Ġ an4Ġ
zhong1 Ġzai4Ġ
Ġji4Ġ nian4Ġ
zhu3Ġ jue2Ġ
k Ġ
si4Ġ chuan1Ġ
bu4 Ġwei4Ġ
Ġji2Ġ qi2Ġ
peng2 Ġyou3Ġ
Ġ er4
Ġ hua1Ġ
chi2Ġ xu4
ai4 Ġer3Ġ
24 Ġ
Ġgong1Ġ gong4Ġ
Ġzhi1Ġ chi2
kang4 Ġyi4Ġ
L Ġ
ĠĠĠ you3Ġ
yue1 Ġwei4Ġ
tai4 Ġguo2Ġ
Ġer2Ġ qie3
ĠĠĠ V
jie1 Ġwei4Ġ
xuan3Ġ qu1Ġ
Ġying1Ġ chi3Ġ
shi2 Ġzai4Ġ
yi4 Ġhe2Ġ
hui4 Ġyou3Ġ
sheng1Ġ wu4Ġ
xiao4Ġ zhang3Ġ
wen2 Ġjian4Ġ
Ġbei4Ġ er3Ġ
ge1Ġ qu3
Ġ fan3Ġ
shou1Ġ ru4Ġ
Ġjie2 Ġzhi4Ġ
Ġ tai2Ġwan1
man4Ġ hua4Ġ
Ġ da3Ġ
biao1 Ġwei4Ġ
Ġ jie4
fo2 Ġjiao4Ġ
rong2 Ġyi4Ġ
ĠĠĠ he2Ġ
Ġ dou1Ġ
ĠĠĠ shi2Ġ
ao4Ġ yun4
suo3Ġshu3ĠdeĠ sheng3Ġji2Ġxuan3Ġqu1Ġwei4Ġ
ĠĠĠ che1Ġzhan4Ġ
Ġsheng1Ġ wu4Ġ
yan3 ĠdeĠ
bian1 Ġji2Ġ
qian4 Ġ
Ġzhan4Ġ zheng1
si1 Ġdi4Ġ
ye3 Ġyou3Ġ
qian2Ġ wang3
Ġ ruo4
yu3Ġ yan2Ġ
zheng4Ġ ce4Ġ
ji4 Ġzhong1Ġ
mi3 Ġer3Ġ
jun1 Ġdui4Ġ
Ġ qiang2Ġ
jie3Ġfang4 Ġjun1Ġ
O Ġ
tiao3 Ġzhan4Ġ
Ġyuan2Ġ zhu4Ġ
Ġchu1Ġ leĠ
ao4Ġ yun4Ġ
Ġzhi4Ġ du4Ġ
1998 Ġnian2Ġ
Ġyou4Ġ cheng1Ġ
gao1 Ġyu2Ġ
Ġshi4Ġ yi2Ġge4
Ġhuo4 Ġshi4Ġ
g Ġ
gan3 Ġdao4Ġ
nan2Ġ xing4Ġ
Ġyi3Ġ shang4Ġ
ma3 Ġli4Ġ
gai3Ġ bian4Ġ
kun1 Ġ
tou2Ġ ru4Ġ
Ġ chang3Ġ
ĠĠĠ 2021
Ġdi4Ġ xia4Ġ
fo2 Ġ
jie1Ġrang3 Ġ
pei4 Ġhe2Ġ
zhi3Ġ hui1
jia1 Ġren2Ġ
wen3Ġ ding4Ġ
zha1 Ġ
M Ġ
Ġzhong1Ġ you3Ġ
Ġzai4Ġ bu4Ġ
ti2 Ġming2Ġ
da2 Ġcheng2Ġ
2024 Ġnian2Ġ
Ġyi1Ġ zhong3Ġ
ru3 Ġ
ne4 Ġ
mo4 Ġsi1Ġ
fen1 Ġzhi1Ġ
zai4 Ġshi4Ġ
tong2 ĠdeĠ
jian3Ġ jie4Ġ
shen1Ġ fen4
Ġ yu4
tian1Ġ zhu3Ġjiao4Ġ
Ġzhong1Ġguo2Ġ ren2Ġmin2Ġ
biao3 Ġming2Ġ
duo2 ĠdeĠ
ting2Ġ zhi3Ġ
Ġ que4
an Ġ
Ġ yan3Ġ
Ġer2Ġren2Ġkou3Ġmi4Ġdu4Ġwei4Ġmei3 Ġping2Ġfang1Ġqian1Ġmi3Ġ
xiao3 ĠdeĠ
Ġ zi4
zheng4 Ġshi2Ġ
ce4 ĠdeĠ
zao4 ĠdeĠ
Ġwei4Ġ fu2
Ġ hai2Ġyou3Ġ
juan1 Ġ
que4Ġ zhen3
Ġ tong1Ġguo4Ġ
ĠĠĠ 2020
Ġji1Ġ bai4Ġ
Ġnian2Ġ chu1Ġ
ban4Ġ dao3Ġ
guo2 Ġzai4Ġ
wu3Ġ qi4Ġ
ta1Ġ menĠ
ĠĠĠ yuan2Ġ
Ġjia1Ġ na2Ġda4Ġ
Ġping2Ġfang1Ġ mi3Ġ
zi4Ġzhi4Ġ qu1Ġ
Ġ 8Ġyue4Ġ
in Ġ
la1 Ġke4Ġ
lei4 ĠdeĠ
hun4 Ġhe2Ġ
Ġzi4Ġ you2Ġ
ĠĠĠ zi4Ġ
Ġzai4Ġ mei3Ġguo2Ġ
Ġshi2Ġ yan4
Ġ ti2Ġ
ju3 Ġren2Ġ
zui4Ġ zao3
tuan2 Ġdui4Ġ
di4 Ġshi4Ġ
ke3Ġneng2 Ġhui4Ġ
Ġ pi2Ġ
ya1 Ġli4Ġ
R Ġ
quan2 Ġbu4Ġ
Ġ su1
ji4 Ġwei4Ġ
Ġer2 Ġbei4Ġ
ji4Ġ hua4Ġ
Ġji4Ġ cheng2Ġ
gong4 Ġxian4Ġ
xi1Ġban1Ġ ya2Ġ
Ġ U
Ġshi2Ġ shi1Ġ
jie2Ġ mu4
Ġ li2Ġ
Ġjie2Ġ guo3Ġ
Ġ The
ng ĠĠĠ
Ġdi4Ġ tie3Ġ
Ġ bo1
sheng1Ġ chan3
lai2Ġ shuo1Ġ
zhe4Ġ zhong3Ġ
p Ġ
li4 Ġbu4Ġ
chan3Ġ ye4Ġ
Ġ wang2
xing2Ġ dong4Ġ
fan1 Ġyi4Ġ
Ġqi1Ġ jian1Ġ
Ġchu1Ġ ren4Ġ
Ġ ping2
shao3Ġ shu4Ġ
cao1 Ġzuo4Ġ
jian3Ġ cha2Ġ
ban4 Ġshi4Ġ
jia1Ġ na2Ġda4Ġ
ying3Ġ pian4Ġ
chong1Ġ tu1Ġ
Ġzai4Ġ da4Ġ
Ġta1 Ġyu2Ġ
bao3Ġ hu4
ji4Ġ nian4Ġ
Ġ zhuan1Ġ
an4 Ġjian4Ġ
fen1Ġ bie2Ġ
ceng2Ġ jing1Ġ
chong2 Ġjian4Ġ
shou3 ĠdeĠ
amp Ġ
Ġjian4Ġ zhu4
r Ġ
Ġ mu4
Ġshi4Ġ yi3Ġ
xin1 Ġli3Ġ
xing2 Ġwei2Ġ
Ġ bei4
gong4 Ġtong2
nan4 Ġ
Ġshi2Ġ fen1Ġ
Ġ an1
dong4 ĠdeĠ
kong1 Ġjun1Ġ
ban4 Ġgong1Ġ
Ġzhi3 Ġyou3Ġ
Ġshi3 ĠdeĠ
da4 Ġbu4Ġfen4Ġ
Ġxian4 Ġwei4Ġ
qi1Ġ jian1
yang1 Ġ
Ġzhi4Ġ zuo4
jie2Ġ gou4
lian2Ġ sai4
lian2Ġ xu4Ġ
jue2Ġ se4
Ġyi4Ġ you3Ġ
Ġli4Ġ ru2
ji2 Ġzai4Ġ
shen1 ĠdeĠ
Ġhe2Ġ bei3Ġ
Ġwei4Ġ neng2Ġ
xiang1Ġ dui4Ġ
mei2Ġ ti3
zhu3Ġ ti2Ġ
jian3Ġ shao3Ġ
Ġ men2Ġ
ou1 Ġyuan2Ġ
Ġhe2Ġ liu2Ġ
gong1Ġ yuan2Ġ
xiao3Ġ zu3Ġ
tou4 Ġ
Ġyou4 Ġming2Ġ
tong4 Ġ
Ġyi3Ġ se4Ġ
fen4Ġ zi3Ġ
xian4 Ġdai4Ġ
Ġshi4Ġyi1Ġ ming2Ġ
Ġti3Ġ zhang3Ġ
ĠĠĠ 2019
Ġxi1Ġ wang4Ġ
ying4 ĠdeĠ
wei3Ġyuan2Ġ hui4
zhe4Ġ ge
ming4Ġ ming2Ġwei4Ġ
Ġgong1Ġ si1ĠdeĠ
Ġliang3 Ġren2Ġ
Ġ bian1Ġ
yi4 Ġzai4Ġ
dong4 Ġji1Ġ
da3 Ġji1Ġ
ĠdeĠdi4Ġ qu1Ġ
zhan3 Ġshi4Ġ
zhuo2 Ġ
Ġ hai2
Ġzhi2 Ġzhi4Ġ
Ġ hu4Ġ
Ġshe4Ġ qu1Ġ
Ġji4Ġ xu4
gui1Ġ mo2
shou3 Ġwei4Ġ
xun2Ġ hui2Ġ
Ġsi1Ġ ling4
shu4Ġ liang4Ġ
xia4Ġ wu3Ġ
Ġ chuan2Ġ
1996 Ġnian2Ġ
yong4Ġ lai2Ġ
lu4Ġdi4Ġ mian4Ġji1Ġwei4Ġ
shui3Ġyu4Ġ mian4Ġji1Ġwei4Ġ
Ġli4Ġ ji2Ġ
qi3Ġ yong4Ġ
lei4 Ġxing2Ġ
ren4Ġ wu4Ġ
Ġguo2Ġ li4Ġ
Ġshi2Ġ zi4Ġ
Ġyi1Ġ ci4Ġ
duo1Ġ ci4Ġ
en Ġ
ping2Ġ jia4Ġ
bu4 Ġshi4Ġ
Ġ 2009Ġnian2Ġ
Ġfu4Ġ jin4Ġ
fu2 Ġhe2Ġ
ju3 Ġxing2ĠdeĠ
ĠdeĠ shou3Ġ
ĠĠĠ 2018
wai4Ġ jiao1Ġ
ti3Ġ xi4Ġ
Ġzhe4Ġ jiang1Ġ
n ĠĠĠ
Ġ ling2Ġ
1997 Ġnian2Ġ
Ġda4Ġ shi3Ġ
liang3 Ġge4
zuo4Ġ jia1Ġ
Ġshe4 Ġbei4Ġ
mei3 Ġnian2Ġ
Ġ zhen4Ġ
Ġli4Ġ fa3Ġ
an ĠĠĠ
zhu4 Ġyi4Ġ
Ġ ampĠ
dian4 Ġli4Ġ
de2 Ġdao4Ġ
kui2 Ġ
Ġsi1Ġ ling4Ġ
Ġcong2 Ġer2Ġ
kao4 Ġ
jiao4Ġ tang2Ġ
fa3Ġ lv4
Ġdang1Ġzhong1Ġ lu4Ġdi4Ġmian4Ġji1Ġwei4Ġ
zhi4 Ġhe2Ġ
zhi2 ĠdeĠ
Ġer2Ġ shui3Ġyu4Ġmian4Ġji1Ġwei4Ġ
qu3Ġ xiao1Ġ
jie2 Ġzhi4Ġ
sheng1Ġ huo2
fu2Ġ wu4
xue2Ġ zhe3Ġ
ĠĠĠ 2022
ĠĠĠ xi1Ġ
hai3Ġ yu4Ġ
shui3 Ġping2Ġ
dian1 Ġ
nei4Ġ rong2
ying1Ġ ge2Ġlan2Ġ
Ġzhi1 Ġshi2Ġ
zhu4Ġ zuo4Ġ
Ġ lie4Ġ
Ġ 9Ġyue4Ġ
Ġda4Ġ chen2Ġ
Ġcheng2Ġli4Ġ yu2Ġ
ĠĠĠ gai4Ġ
tuo4 Ġ
lun2Ġ dun1Ġ
lv3 Ġke4Ġ
zhi4 Ġzai4Ġ
jie1 Ġjin4Ġ
chang2Ġ qi1Ġ
Ġxin1Ġ wen2Ġ
Ġwei2Ġ er3Ġ
gao1Ġ su4
ling4Ġ wai4Ġ
tai4Ġ yang2Ġ
ĠĠĠxing2Ġzheng4Ġ qu1Ġhua4Ġ
ren4Ġ ming4
Ġjia1Ġ shang4Ġ
bi3Ġsai4 Ġzhong1Ġ
guo1 Ġ
yuan4Ġ zhang3Ġ
dian3 ĠdeĠ
ji3 Ġyu3Ġ
xi1Ġ yang2Ġ
Ġyi3Ġ hou4Ġ
Ġ bian4
Ġjun1 Ġwei4Ġ
min2 ĠdeĠ
shuo4 Ġshi4Ġ
c Ġ
Ġde2 ĠdeĠ
wei1Ġ lian2Ġ
wei3Ġ shu1Ġji4Ġ
Ġyi4Ġ ren2Ġ
jia1 Ġhe2Ġ
1992 Ġnian2Ġ
Ġ xiao4Ġ
dao3 Ġyu3Ġ
pi1Ġ zhun3Ġ
dai4 Ġyou3Ġ
heng1 Ġli4Ġ
Ġ guang3Ġ
Ġshi4Ġ yi1Ġwei4Ġ
Ġxue2Ġ xiao4
can1Ġ yu4
Ġwei4Ġfu2 Ġqi2Ġyu2Ġ
Ġ 7Ġyue4Ġ
ci4Ġshi4Ġjie4Ġda4Ġ zhan4Ġ
Ġshi4Ġ qu1Ġ
fa1 Ġchu1Ġ
quan4 Ġ
xing4 Ġzhi4Ġ
yan3Ġchang4 Ġhui4Ġ
Ġyuan2Ġ yin1Ġ
tao3Ġ lun4Ġ
Ġ formulaĠ
tui4 Ġyi4Ġ
feng1Ġ bao4Ġ
bi3Ġ ya4Ġ
ji1 Ġzhi4Ġ
xin4 Ġhao4Ġ
ya4 ĠdeĠ
neng2Ġ gou4
ĠĠĠ yi4Ġ
shou4Ġ shang1Ġ
Ġjian4 Ġcheng2Ġ
lian2Ġ xi4Ġ
Ġ meng2Ġ
wei4Ġ zhi4Ġ
K Ġ
ĠĠĠ 2017
bao3Ġ chi2Ġ
bi4Ġ xu1
Ġru2Ġ guo3
ru2 Ġhe2Ġ
Ġti3Ġzhang3Ġ ke3Ġda2Ġ
Ġ hui2Ġ
zhuan1 Ġjia1Ġ
Ġer3Ġ te4Ġ
fu1 Ġren2Ġ
jiang3 Ġxiang4Ġ
cha1 Ġyi4Ġ
Ġ tuo1Ġ
wo1 Ġ
Ġji1Ġ gou4
shou4 Ġyu3Ġ
Ġzai4Ġ yu2Ġ
ĠdeĠyi1Ġ zuo4Ġ
Ġjing1Ġ guo4Ġ
Ġtong1Ġ chang2Ġ
Ġ 2010Ġnian2Ġ
wang3 Ġlu4Ġ
jing1Ġ ying2Ġ
Ġ 12Ġyue4Ġ
Ġ min2Ġguo2Ġ
tan1 Ġ
gong4Ġchan3Ġ dang3
dian4Ġ tai2Ġ
Ġ ci2Ġ
dong1 Ġxi1Ġ
Ġke4 Ġli3Ġ
Ġsheng1Ġ chan3Ġ
Ġbu4Ġ li3Ġ
Ġ 21Ġ
Ġyi3Ġ xia4
sui2 Ġhou4Ġ
cun1Ġ zhuang1Ġ
Ġ 11Ġyue4Ġ
lai2 Ġdao4Ġ
Ġzhi1 Ġzhong1Ġ
xi4Ġ lie4
bi4Ġ ye4Ġyu2Ġ
xun4Ġ lian4
cuo4 Ġshi1Ġ
fa3 ĠdeĠ
15 Ġ
Ġyi4Ġ shu4
zong3Ġ du1Ġ
50 Ġ
zhu4Ġ ming2ĠdeĠ
Ġshi4Ġ you3Ġ
lang4 Ġ
Ġjian4Ġ dui4Ġ
kuai4Ġ su4Ġ
zhu4 Ġyu2Ġ
Ġ chang2
1994 Ġnian2Ġ
Ġshi2Ġ ren4Ġ
Ġyi1Ġ sheng1Ġ
gu1 Ġji4Ġ
hai2Ġ ziĠ
Ġer3 Ġhe2Ġ
tai4Ġping2Ġ yang2Ġ
yan2Ġ ge2Ġ
Ġ zhu1
ĠĠĠ 2016
tong2 Ġyi4Ġ
le Ġda4Ġ
sheng1 Ġwei4Ġ
she2 Ġ
dao3 Ġshi4Ġ
cheng2Ġ gong1Ġ
si4 Ġge4Ġ
fa1Ġ dian4Ġ
Ġjie2Ġ mu4Ġ
Ġ rang4Ġ
Ġshang4Ġ hai3
zhan4 Ġzhong1Ġ
ĠdeĠ qian2Ġ
Ġren2Ġ lei4Ġ
jie2Ġshu4 Ġhou4Ġ
Ġ gui1Ġ
Ġde2 Ġyi3Ġ
pu3Ġ tong1Ġ
ĠdeĠshi2Ġ qu1Ġwei4Ġ
ĠĠĠ J
yu3 Ġzhong1Ġ
Ġzheng4Ġ ce4Ġ
Ġming2Ġ cheng1Ġ
che4Ġ xiao1Ġ
Ġ huo3Ġ
shang3 Ġ
tou2Ġ piao4Ġ
Ġ tw
ĠĠĠ zhi4Ġ
di3Ġ da2Ġ
Ġ yin4Ġdu4Ġ
Ġjin3Ġ guan3
zhai2 Ġ
ju2Ġ zhang3Ġ
ĠdeĠshi2Ġ jian1Ġ
geng4 Ġjia1Ġ
miao3 Ġ
fan3Ġ hui2Ġ
1995 Ġnian2Ġ
zhe4Ġ xie1
Ġwei4Ġ sheng1Ġ
zu3Ġ cheng2ĠdeĠ
Ġ sheng4
yue4Ġ tai2Ġ
Ġping2Ġ tai2Ġ
guang3 Ġxi1Ġ
fei3 Ġ
ha1 Ġer3Ġ
hans Ġ
kuo4 Ġda4Ġ
Ġ hansĠ
yi4 Ġzhong1Ġ
deng1 Ġlu4Ġ
Ġ yang2
rong2 Ġyu4Ġ
Ġtw Ġ
yue4 Ġshi2Ġ
fa1 ĠdeĠ
zhong4 Ġda4Ġ
Ġ fang1Ġ
lu4 Ġyi4Ġ
que4Ġ ding4Ġ
Ġ qi1
Ġ qian2
ĠĠĠ I
zhi3 Ġzai4Ġ
al Ġ
Ġshi4Ġ yan3Ġ
Ġ gai3
ye4 Ġhou4Ġ
25 Ġ
Ġbu4Ġ ke3Ġ
Ġbing4Ġ mei2Ġyou3Ġ
Ġ sa4Ġ
Ġci3 Ġshi2Ġ
ĠĠĠdeĠ shi2Ġ
jin4 Ġxing2
qi4Ġ che1Ġ
Ġ s
Ġ wang3Ġ
Ġ a1Ġer3Ġ
Ġxue2Ġ xi2Ġ
Ġ cheng1
wan3 Ġshang4Ġ
jiao4Ġ qu1Ġ
xiao1Ġ shou4Ġ
Ġmu4Ġ qian2
ming2Ġ cheng1Ġ
gai3Ġ bian1
ya4Ġli4Ġ shan1
Ġ 189
wu4Ġ zhong3
guan1Ġ zhong4Ġ
Ġguo2Ġ wu4Ġ
Ġzhi1 Ġyuan2Ġ
yuan4 ĠdeĠ
Ġ zhong1ĠdeĠ
ĠĠĠ 2023
ba1 Ġxi1Ġ
Ġgong1Ġ ye4
ru4Ġ kou3Ġ
ba1Ġ li2Ġ
Ġhuo4Ġ zhe3Ġ
xiang1Ġ tong2Ġ
ban3 ĠdeĠ
ĠĠĠ 2014
xue2 Ġhe2Ġ
sun3 Ġshi1Ġ
biao3 Ġxian4
nai3 Ġ
Ġshi2Ġ xian4Ġ
xi1Ġ la4
guan1Ġ zhu4Ġ
fa1Ġxian4Ġ leĠ
kan4 Ġdao4Ġ
qi1Ġ zi3Ġ
Ġceng2 Ġren4Ġ
po4Ġhuai4 Ġ
Ġ lv4Ġ
qiang3 Ġ
and ĠĠĠ
Ġbing4 Ġyi3Ġ
Ġ Ñ
pan1 Ġ
xiong1Ġ ya2
Ġ 6Ġyue4Ġ
ĠĠĠ suo3Ġshu3ĠdeĠsheng3Ġji2Ġxuan3Ġqu1Ġwei4Ġ
ĠĠĠdeĠ you2Ġzheng4Ġbian1Ġma3Ġwei4Ġ
ĠĠĠyu3Ġ jie1Ġrang3ĠdeĠshi4Ġzhen4Ġ
ĠĠĠyu2Ġ shi2ĠdeĠren2Ġkou3Ġshu4Ġliang4Ġwei4Ġren2Ġ
ĠĠĠdeĠshi2Ġ qu1Ġwei4Ġ
zhuang1 Ġzhi4Ġ
zhi2 Ġwei4Ġ
22 Ġ
Ġ 2011
ji4 Ġhe2Ġ
kai1Ġ fang4
Ġzuo4Ġ yong4Ġ
Ġquan2Ġ zhang3Ġ
tu2 Ġzhong1Ġ
su1Ġ lian2
Ġ xia4
can2 Ġ
xu1 Ġqiu2Ġ
lin2 ĠdeĠ
Ġzhi1Ġ ming2Ġ
le ĠĠĠ
Ġsi1Ġ la1Ġ
shi2 Ġwei4Ġ
heng2Ġ xing1Ġ
mu3Ġ qin1Ġ
tui1Ġ dong4Ġ
wei2 ĠdeĠ
Ġshi4Ġ zhang3Ġ
Ġquan2 Ġbu4Ġ
ĠĠĠ ji1Ġ
ru4Ġ qin1Ġ
Ġ chuang4Ġ
tai2Ġ bei3Ġ
guan3Ġ li3
Ġ 2019
fu4 ĠdeĠ
Ġjia1Ġ ting2Ġ
ru2Ġ ci3Ġ
Ġ hk
yi2Ġ dong4Ġ
yu3 Ġhe2Ġ
Ġyi1Ġ dai4Ġ
jin4 Ġshi4Ġ
Ġchu1 Ġxian4Ġzai4Ġ
fu4Ġ qin1Ġ
zhe4Ġ jiang1Ġ
Ġnian2Ġ qing1
xiong1Ġya2 Ġli4Ġ
ĠĠĠ 2015
mu4 Ġsi1Ġ
1991 Ġnian2Ġ
Ġren2Ġ shu4Ġ
Ġdan4 Ġta1Ġ
Ġxi1Ġban1Ġ ya2
min2Ġ zu2
guang3Ġ bo1
zui4 Ġchu1Ġ
tai2 ĠdeĠ
16 Ġ
Ġdi4Ġ qiu2Ġ
Ġshi4Ġ zhi3Ġ
Ġ xiang3
ti2 Ġsheng1Ġ
fei1 Ġjian4Ġzhi4Ġ
Ġ gan1Ġ
G Ġ
Ġ che1Ġzhan4Ġ
Ġ 5Ġyue4Ġ
shu4Ġ xue2Ġ
xun4Ġ su4Ġ
Ġhk Ġ
Ġsi1Ġ tan3Ġ
Ġ duan4Ġ
Ġwei4Ġ he2Ġ
Ġbing4 Ġli4Ġ
Ġcheng2Ġwei2Ġ leĠ
ĠĠĠ 2013
Ġ jin3
niu3Ġ yue1Ġ
fa1 Ġxing2
zong3 Ġbu4Ġ
Ġjin4Ġ ru4
te4 Ġli3Ġ
kang4 Ġri4Ġ
Ġhe2Ġ xin1Ġ
Ġge4Ġ zhong3Ġ
Ġ jing1
gao3 Ġ
ming2 Ġyi4Ġ
Ġji2Ġ qi2
fa1Ġ sheng1
shou1 Ġlu4Ġ
Ġshi4Ġ ren2Ġ
jiao4 ĠdeĠ
mang2 Ġ
lan2 Ġke4Ġ
cai2 Ġzheng4Ġ
chang4Ġ pian4Ġ
ĠĠĠnian2 Ġ
Ġzuo4Ġ pin3
sa4 Ġke4Ġ
Ġji4Ġ zai3Ġ
Ġzhong1Ġ wen2Ġ
jue2Ġ sai4
jin4 Ġgong1Ġ
Ġshi4Ġ ji2Ġ
qi3 Ġyi4Ġ
can1 Ġyi4Ġ
23 Ġ
ĠĠĠ in
can1Ġ kao3Ġ
zhuang4Ġ kuang4Ġ
Ġ mian4Ġ
Ġxian4 Ġyu2Ġ
Ġ zao4Ġcheng2Ġ
lv4 Ġwei4Ġ
ĠĠĠ zhong1Ġguo2Ġ
le Ġta1Ġ
zeng1Ġ zhang3Ġ
gao1Ġ du4Ġ
chan3Ġ pin3
fei1Ġjian4Ġzhi4Ġ di4Ġqu1Ġ
N Ġ
13 Ġ
zhan4Ġ dou4Ġ
Ġ zhuan3Ġ
dou1 Ġhui4Ġ
sui1 Ġran2Ġ
Ġhe2Ġ bing4Ġ
Ġji4Ġ suan4
Ġsheng1Ġ huo2
wang2 ĠdeĠ
zhong4Ġ dian3Ġ
Ġ e2Ġluo2Ġsi1Ġ
diao4Ġ cha2
chai1 Ġ
Ġda4Ġ lou2Ġ
hai3 Ġdao4Ġ
chang4Ġ pian4
Ġren2Ġ menĠ
Ġ huang2
wei1Ġ xie2Ġ
ao4 Ġdi4Ġli4Ġ
Ġhe2Ġ zhong1Ġ
shang4Ġ shu1Ġ
Ġwei2Ġ qi2Ġ
ling3Ġdao3 Ġren2Ġ
kan3 Ġ
jing1Ġ shen2Ġ
Ġxiang1Ġ guan1Ġ
jia1 Ġzhong1Ġ
liang3 Ġren2Ġ
Ġyin1 Ġer2Ġ
yue4 Ġzai4Ġ
Ġbu4Ġ duan4Ġ
can1Ġjia1Ġ leĠ
hua4 Ġwei4Ġ
jiang1 Ġxi1Ġ
ying2Ġ yun4Ġ
ĠdeĠcheng2Ġ yuan2Ġ
jie2 Ġke4Ġ
tu2Ġshu1Ġ guan3Ġ
Ġhe2Ġ cheng2Ġ
zhu3Ġ chi2Ġ
Ġzhong1Ġguo2Ġ gong4Ġchan3Ġdang3Ġ
Ġ hou4
ju4 ĠdeĠ
na4 Ġli3Ġ
Ġ 4Ġyue4Ġ
min2Ġ zhong4Ġ
on ĠĠĠ
1988 Ġnian2Ġ
jin4Ġ ru4
zi4Ġ dong4Ġ
mou3Ġ xie1Ġ
shen1 Ġwei4Ġ
ju1 Ġzhu4Ġ
xia4Ġji4Ġ ao4Ġlin2Ġpi3Ġke4Ġyun4Ġdong4Ġhui4Ġ
yin1 Ġshi4Ġ
dao1 Ġ
zhan4Ġ dou4
tion Ġ
shi2Ġ jian1Ġ
Ġ hua2
chan3Ġ sheng1ĠdeĠ
Ġzai4Ġ jia1Ġ
Ġ you3Ġshi2Ġ
ĠĠĠ zhĠ
shuo1 Ġming2Ġ
yin3Ġ fa1Ġ
Ġzheng4Ġ zhuang4Ġ
jiang1Ġ su1Ġ
Ġ 20
Ġ dao3Ġ
1993 Ġnian2Ġ
Ġhuo4Ġde2Ġ leĠ
Ġ fang2Ġ
Ġzhi1Ġ xia4Ġ
Ġshi4Ġ wei1Ġ
xiao3Ġ shuo1
Ġ xiao3
Ġ qiao2Ġ
Ġ xu3Ġduo1Ġ
Ġ wei3Ġ
ĠĠĠjia1Ġ zu2Ġ
Ġ zuo3Ġ
Ġshi4Ġ zhen4
Ġgong1Ġ ren2Ġ
ding4 ĠleĠ
or Ġ
you1 Ġshi4Ġ
lan2 Ġqiu2Ġ
Ġda4Ġ duo1Ġ
zhou1 ĠdeĠ
ji4 Ġshi2Ġ
Ġxiang4Ġ mu4Ġ
xian3 ĠdeĠ
zi1Ġ xun4Ġ
ao4Ġyun4 Ġhui4Ġ
cui4 Ġ
su4 ĠdeĠ
Ġda4Ġ xing2Ġ
Ġ xuan1Ġbu4Ġ
Ġ tian1
Ġ 2018
Ġyue4Ġ nan2Ġ
chuang1 Ġ
xiang4Ġ mu4
Ġji2Ġ li4Ġ
Ġzhong1Ġ hua2Ġ
xiang1Ġ dang1Ġ
ĠĠĠ 19
qu3 Ġde2
yuan2 Ġzai4Ġ
Ġbu4Ġ men2
jie2Ġ hun1Ġ
Ġlai2Ġ zi4Ġ
Ġdan4Ġ you2Ġyu2Ġ
fang3Ġ wen4Ġ
zhi2 Ġdao4Ġ
sui1 Ġran2
Ġli3Ġ lun4Ġ
jiao4Ġ wei2Ġ
Ġshi4Ġwei4Ġ leĠ
pin3Ġ pai2Ġ
xi2 Ġwei4Ġ
Ġdi4Ġ wu3Ġ
can1Ġ jia1
Ġyue4Ġ tai2Ġ
zhong1 Ġwei4Ġ
Ġ du2Ġ
zhen1 Ġshi2Ġ
zhong1Ġ hua2Ġren2Ġmin2Ġgong4Ġhe2Ġguo2Ġ
you3 Ġbu4Ġ
yin4 Ġdi4Ġ
zhou4 Ġ
mei3Ġ shu4Ġ
ĠC Ġ
xue2Ġ shu4Ġ
Ġ pei4Ġ
xing1Ġ qi1Ġ
ming4Ġ ling4Ġ
Ġ ou1Ġ
ĠdeĠgong1Ġ zuo4Ġ
2020Ġnian2Ġ mei3Ġguo2Ġren2Ġkou3Ġpu3Ġcha2ĠdeĠshu4Ġju4Ġ
jian4 Ġshe4Ġ
ju3 Ġxing2
wu3Ġ zhuang1Ġ
Ġ lao3Ġ
fang2 Ġyu4Ġ
Ġren4Ġ wu4Ġ
tiao2Ġ zheng3Ġ
b Ġ
ĠĠĠ 2025
yi2Ġ chan3Ġ
bao4Ġ dao3Ġ
ao4Ġ men2Ġ
Ġshi2Ġ yi1Ġ
ti1 Ġ
ti2Ġ gao1Ġ
yun3Ġ xu3Ġ
Ġjia1Ġ ru4
Ġzhi1Ġ hou4
han2Ġ shu4Ġ
1990 Ġnian2Ġ
fei1Ġ lv4Ġ
wa3 Ġer3Ġ
yi3Ġ lai2Ġ
le Ġta1ĠdeĠ
hui4 Ġyuan2Ġ
Ġshi2Ġ qi1
ji4Ġ lu4Ġ
Ġji1Ġ guan1Ġ
du1 Ġshi4Ġ
leĠ yi2Ġge4Ġ
yi2Ġ min2Ġ
hua4 Ġjia1Ġ
ji1Ġ chang3Ġ
shu1 ĠdeĠ
ju4Ġ li2Ġ
shu4Ġ zi4Ġ
Ġfu4Ġ ze2
yong4Ġ hu4Ġ
Ġshi4Ġyi1Ġ zhong3
jin1 ĠdeĠ
Ġren2Ġ lei4
Ġ zheng4
Ġzhou1 Ġnian2Ġ
hong1Ġ zha4
Ġzi4Ġji3 ĠdeĠ
er ĠĠĠ
jie1 Ġji2Ġ
duan4 ĠdeĠ
du1 Ġjiao4Ġ
li4 Ġshi4Ġ
ke4 Ġli3Ġ
ĠĠĠ 2024
yan2 ĠdeĠ
su2 Ġ
ying2 ĠdeĠ
hua1 Ġyuan2Ġ
shan1Ġ mai4
Ġ zhuang1Ġ
sheng1 Ġji2Ġ
yue1 Ġyou3Ġ
Ġshi4Ġ da4Ġ
wen2Ġ zi4Ġ
chu1Ġ ban3Ġ
mian4 Ġdui4Ġ
yao1Ġ qing3Ġ
Ġ 2011Ġnian2Ġ
dong1 Ġji4Ġ
Ġ hong2
deng3 Ġwei4Ġ
zi1Ġ jin1Ġ
Ġ liang2Ġ
Ġli4Ġ shi3
wu3Ġ tai2Ġ
xiao4Ġ guo3Ġ
Ġyu2Ġ 18
Ġshe4 Ġji2Ġ
Ġsui4 ĠdeĠ
Ġ wen2
Ġ xu2
Ġzhi4Ġ shi2Ġ
Ġzhi4Ġ li4Ġ
gao1Ġ deng3Ġ
Ġ 2016
Ġ ding4Ġ
Ġsuo3 Ġyi3
Ġ cheng1Ġwei2Ġ
yuan2 Ġji2Ġ
Ġren2Ġ min2
Ġhe2Ġ lan2Ġ
Ġ 2005Ġnian2Ġ
dong4Ġ zuo4Ġ
shen1Ġ qing3Ġ
Ġxian4 Ġhe2Ġ
Ġ bian1
Ġ 3Ġyue4Ġ
o ĠĠĠ
Ġ zhuan3
mei3Ġ guo2ĠdeĠ
liang3Ġ zhong3Ġ
Ġ 2008Ġnian2Ġ
jiao4Ġ lian4Ġ
Ġming2Ġchao2Ġ zheng4Ġzhi4Ġren2Ġwu4Ġ
Ġ jiu3
ĠĠĠ zao3Ġnian2Ġ
Ġri4Ġ jun1Ġ
xia4Ġ ling4
Ġwan4Ġ mei3Ġyuan2Ġ
Ġ han2Ġguo2Ġ
ĠĠĠ xin1Ġ
ling3Ġ tu3Ġ
ba2 Ġ
Ġyuan2Ġ ming2Ġ
nu3 Ġli4Ġ
zheng4Ġ ming2Ġ
ĠĠĠ hou4Ġ
lie4Ġ biao3Ġ
lu4 Ġjun1
Ġzhong1Ġ yu2Ġ
zuo4Ġ yong4Ġ
jing1Ġ chang2Ġ
Ġ xie2Ġ
qu1Ġ yu4
Ġ zhao1
you3 Ġzai4Ġ
Ġyi4Ġ yi4Ġ
ying3Ġ pian4
2 Ġren2Ġ
Ġyuan2Ġ gong1Ġ
Ġjin4 Ġxing2
Ġnan2 Ġzhi4Ġ
ĠĠĠ you2Ġ
Ġguo2Ġ hui4Ġ
Ġgong1Ġ hui4Ġ
guan1Ġ xi4
Ġ shang4
Ġ ju4
ST Ġ
Ġji4Ġ zhe3Ġ
hui2Ġ ying4Ġ
li3Ġ lun4Ġ
yong4Ġ zuo4Ġ
nei4Ġ lu4Ġ
zhao3 Ġdao4Ġ
1984 Ġnian2Ġ
wang2Ġ chao2
jing1 Ġli3Ġ
lv3 Ġxing2Ġ
shen2Ġ jing1Ġ
Ġshi4Ġ hou4Ġ
jiu3Ġ dian4Ġ
Ġgong1Ġ chang3Ġ
fu4Ġ jin4Ġ
yu2 Ġzai4Ġ
Ġ chi4Ġ
gui1Ġ ze2Ġ
tai4 Ġren2Ġ
Ġhe2Ġ gong1Ġ
bao3Ġ chi2
qi4Ġ xiang4Ġ
ke3Ġyi3 Ġzai4Ġ
V Ġ
sui4 Ġdao4Ġ
zhi1Ġ jian1Ġ
ti2 Ġdao4Ġ
Ġ Ch
Ġ xiu1Ġ
Ġcheng2Ġ xian4Ġ
Ġnian2Ġ1Ġyue4Ġ 1Ġri4Ġ
Ġ li3
Ġ shi1
Ġji1Ġ che1Ġ
Ġwo3Ġ menĠ
Ġshi2Ġ er4Ġ
ai1 Ġji2Ġ
1989 Ġnian2Ġ
Ġ jue2
Ġ bo2
ge2 Ġwei4Ġ
shou3 Ġji1Ġ
Ġguo2Ġ fang2
kong1 Ġzhong1Ġ
Ġnian2 Ġshi4Ġjie4Ġ
shou3Ġ du1Ġ
Ġ luo2
zhu4 Ġli3Ġ
bei4 Ġshi4Ġwei4Ġ
tong1 Ġdao4Ġ
kong3 Ġbu4Ġ
qi2Ġzhong1Ġ yi1Ġzhong3Ġ
Ġ tian2Ġ
zuo4 Ġwei4Ġ
14 Ġ
ĠdeĠ zhi4Ġ
Ġ pei4
ĠĠĠ p
li4 Ġwei4Ġ
shu1 Ġji2Ġ
Ġer2 Ġcheng2Ġ
Ġ bi3
ji1 Ġhe2Ġ
Ġ 188
dong1Ġ nan2Ġbu4Ġ
Ġ ying1
yi3 Ġxia4Ġ
xin1Ġjia1Ġ po1
yan3 Ġyi4Ġ
Ġxi1Ġ wang4
da4Ġ lu4ĠdeĠ
qi3Ġ ye4
Ġ fan3
Ġzuo4Ġ wei2
gu4Ġ wen4Ġ
dai4 Ġli3Ġ
ĠdeĠ jia1Ġ
jin1Ġ shu3Ġ
jin4Ġ yi2Ġbu4Ġ
fen1 Ġzhong1Ġ
10 Ġnian2Ġ
Ġ hen3Ġ
lao2 Ġdong4Ġ
zhu3Ġ chi2
jiao4Ġ xue2Ġ
biao3Ġ mian4Ġ
Ġ lei2Ġ
Ġ ying1Ġyu3Ġ
Ġ 30
Ġ sĠĠĠ
meng3 Ġ
cai2Ġ liao4Ġ
ni1 Ġ
Ġ xuan3Ġ
ĠĠĠ 3
Ġhe2Ġ xi1Ġ
Ġbu4Ġ bu4Ġ
Ġhe2Ġ shi2Ġ
Ġyou3Ġ ji1Ġ
chao2Ġ xian1
Ġ2001Ġnian2Ġ ren2Ġkou3Ġ
3 Ġren2Ġ
Ġ guan1
dao4 Ġlu4Ġ
hua2 Ġren2Ġ
Ġzai4Ġ wei4Ġ
wo3Ġ men
Ġbei3Ġ qi3Ġ
bao3Ġ liu2Ġ
jing4 ĠdeĠ
si3 Ġhou4Ġ
bo1Ġ lan2
tong1Ġ che1Ġ
si1 Ġli4Ġ
Ġzhong1Ġguo2Ġ da4Ġlu4Ġ
bai2Ġ se4Ġ
ya4Ġli4Ġshan1 Ġda4Ġ
Ġ zhong3Ġ
hui4 Ġshi4Ġ
Ġyi3Ġ bei4Ġ
Ġ tu3Ġ
ne Ġ
ju1Ġ min2
Ġ à
zhu3 Ġli4Ġ
Ġping2Ġ mian4Ġ
ni2 Ġke4Ġ
Ġta1 Ġwei4Ġ
yin3Ġ qi3Ġ
Ġwan4 Ġyuan2Ġ
Ġ 2021
zhu3 ĠdeĠ
Ġzhi1Ġ jian1
yin3Ġ qi3
m ĠĠĠ
Ġsi1Ġ te4
fa3Ġ an4Ġ
zhao4Ġ kai1Ġ
nv3Ġ zi3
Ġxian4ĠdeĠ yi2Ġge4Ġ
Ġdao4Ġ da2Ġ
Ġnv3Ġ xing4Ġ
zhai4 Ġ
Ġdong1Ġ nan2Ġ
yun4 Ġzuo4Ġ
ĠĠĠof ĠĠĠ
yi2Ġ zhi3Ġ
wei4 ĠĠĠ
jiao1 Ġhui4Ġ
ĠĠĠ 2012
shou3 Ġge4Ġ
jie4 ĠdeĠ
tui4 Ġchu1Ġ
di4Ġ er4Ġ
Ġer2Ġ yan2Ġ
Ġxian4ĠdeĠ yi2Ġge4
Ġbei4Ġ ren4Ġwei2Ġshi4Ġ
ceng2Ġ jing1
li4 Ġzai4Ġ
zha2 Ġ
Ġji1Ġ hu1
Ġke4 Ġcheng2Ġ
wen2Ġ zhang1Ġ
ji3 Ġge4Ġ
Ġshi4Ġ jia1Ġ
Ġyou3Ġ yi4Ġ
te4Ġ shu1Ġ
Ġxi1Ġ si1Ġ
xiang1Ġ guan1
shi1Ġ fan4
Ġfu4Ġ qin1Ġ
wu2Ġ fa3
can1Ġ mou2
jin1 Ġhui4Ġ
1985 Ġnian2Ġ
jiao4Ġ shi1Ġ
ĠĠĠ xia4Ġ
fei1 Ġzhou1Ġ
lv4Ġ shi1Ġ
leng3 Ġ
Ġshi4Ġ yu3Ġ
xi1Ġban1Ġ ya2
da4 Ġwei4Ġ
wei1 Ġji1Ġ
Ġyi1Ġ ji2Ġ
chang2 ĠdeĠ
Ġbu4Ġ de2
Ġta1Ġmen Ġzai4Ġ
Ġyi4Ġ fang1Ġmian4Ġ
fa3Ġ yuan4
Ġer2Ġshui3Ġyu4Ġmian4Ġji1Ġwei4Ġ 0
Ġ feng2Ġ
Ġguo2Ġ jia1ĠdeĠ
zhe3 Ġzai4Ġ
Ġhe2Ġ qi2Ġta1Ġ
xi4Ġtong3 ĠdeĠ
duo1 Ġnian2Ġ
ya4 Ġzhou1
che1 ĠdeĠ
jin1Ġ pai2Ġ
Ġzhi1 Ġwei4Ġ
Ġbing4Ġ jiang1Ġ
Ġzhu3Ġ xi2Ġ
kang1 Ġxi1Ġ
yao4Ġ wu4Ġ
1 Ġren2Ġ
wen2 Ġxian4Ġ
Ġcheng2Ġ xu4Ġ
Ġ00 Ġ
ze2 Ġwei4Ġ
bian4 Ġde2Ġ
biao3Ġ da2
Ġmei3 Ġnian2Ġ
da4 Ġdi4Ġ
Ġcheng2Ġ ren4Ġ
zhi2Ġ min2
guo4Ġ qu4Ġ
pu2Ġtao2Ġ ya2
Ġ ban1Ġ
Ġ qu3Ġ
huan1Ġ ying2Ġ
Ġ gang3Ġ
Ġ ju4Ġyou3Ġ
Ġzhi4Ġ liao2Ġ
Ġsi1Ġ ke4Ġ
Ġjin4Ġxing2Ġ leĠ
ĠĠĠ cheng2Ġ
mu4Ġ biao1
fu2 Ġyi4Ġ
zhuang1 Ġshi4Ġ
ter Ġ
dong1Ġ bei3Ġbu4Ġ
gou4Ġ zao4Ġ
huo4Ġde2Ġ leĠ
bo2Ġwu4Ġ guan3
ao4Ġda4Ġli4Ġ ya4Ġ
Ġ hai3
ben3 Ġdi4Ġ
jiang1 Ġhui4Ġ
Ġqiu2 Ġyuan2Ġ
Ġ fei4
Ġ 100
Ġ guan1Ġyu2Ġ
Ġer2Ġ gai1Ġdi4Ġ
xian1 Ġsheng1Ġ
Ġbu4Ġ la1Ġ
Ġyu2Ġ le4Ġ
bo1Ġ lan2Ġ
Ġ li2
1949 Ġnian2Ġ
jia1Ġ ru4
fang4Ġ qi4Ġ
jian4 Ġyi4Ġ
Ġ 2015
Ġwei4Ġ you3Ġ
yi4Ġ da4Ġli4Ġ
ĠĠĠ U
dang1Ġ shi2ĠdeĠ
Ġqi1Ġ xi1Ġzai4Ġ
mao2 Ġze2Ġ
liang3 Ġnian2Ġ
xiao4 ĠdeĠ
sa4 Ġsi1Ġ
Ġbing4 Ġyu3Ġ
Ġda4Ġ lu4Ġ
guang3Ġ gao4Ġ
Ġ bai3Ġ
Ġ zhu4
Ġwei4Ġ lai2Ġ
Ġ ban4Ġ
Ġ yong1Ġyou3Ġ
Ġ 2007Ġnian2Ġ
cheng1 Ġzuo4Ġ
fu4Ġ qin1
zi4Ġ you2
Ġjian4Ġ zao4Ġ
liu2 Ġzai4Ġ
shou1 Ġshi4Ġ
ĠdeĠ zheng4Ġ
Ġjin4Ġ yi2Ġbu4Ġ
ĠĠĠ cong2Ġ
nan2Ġ jing1Ġ
Ġjin4 Ġgong1Ġ
sa4 Ġer3Ġ
luo2 Ġdi4Ġ
Ġshi4Ġ zheng4Ġ
Ġfu4Ġ qin1
tian1 ĠdeĠ
jin3 Ġji2Ġ
xi4Ġ ju4Ġ
Ġhao4 Ġwei4Ġ
es Ġ
ji4Ġ xu4Ġ
Ġji4Ġ shu4
tan3 Ġke4Ġ
4 Ġren2Ġ
Ġ ge2
Ġ bing1Ġ
Ġren2Ġ men
Ġri4Ġ jun1
Ġ qi3
Ġyi4Ġ mei3Ġyuan2Ġ
ci4Ġ shi3Ġ
Ġ 2013
Ġzai4Ġ ci3
Ġte4Ġbie2 Ġshi4Ġ
que4 Ġren4Ġ
huo3 Ġjian4Ġ
Ġjia1Ġ zu2Ġ
piao4Ġ fang2Ġ
qing3 Ġqiu2Ġ
ĠdeĠ sheng1Ġ
jing3Ġ fang1Ġ
kao3Ġ lv4
bi3Ġli4Ġ shi2Ġ
1986 Ġnian2Ġ
Ġshi4Ġ ri4Ġben3Ġ
Ġsi1Ġ tan3
tai4Ġping2Ġ yang2
zhan1Ġ mu3Ġsi1Ġ
Ġjie2Ġ guo3
Ġ 2014
pai1 Ġ
Ġchu1Ġ sheng1Ġ
di4 Ġzai4Ġ
Ġyi3 Ġyou3Ġ
tou2Ġ piao4
bian1 ĠdeĠ
shang4Ġ wu3Ġ
ba1Ġ li2
wang2Ġ chao2Ġ
Ġwo3Ġ men
nei4 Ġyou3Ġ
wan2 Ġgong1Ġ
Ġzhi4Ġ cheng2Ġ
guang3Ġdong1Ġ sheng3Ġ
ĠĠĠ jie2Ġzhi4Ġ
Ġxi4Ġ lie4Ġ
Ġ gao1
pai1 Ġshe4
Ġyuan2Ġ ben3Ġ
cheng2 Ġnian2Ġ
fen3 Ġ
chi1 Ġ
chang3 Ġhe2Ġ
18 Ġ
Ġqi2 Ġzai4Ġ
Ġzhi1Ġ ziĠ
shen1Ġ ti3Ġ
meng2Ġ gu3
Ġda4Ġ yue1Ġ
Ġzhan4Ġ dou4Ġ
Ġzhi1 ĠdeĠ
gu3Ġ fen4
yan3Ġ chang4Ġ
xi2Ġ xing4
geng4 Ġduo1Ġ
guan1Ġ bi4Ġ
hu2Ġ bei3Ġ
Ġyue1Ġ han4Ġ
deng1 Ġshang4Ġ
Ġxian4Ġ chang3Ġ
ĠĠĠ zeng1Ġ
suo3 Ġzai4Ġ
min2Ġ jian1Ġ
qing2Ġ bao4Ġ
guang3Ġ fan4
mu3Ġ qin1
5 Ġren2Ġ
Ġ deng4
Ġ he4Ġ
wai4 Ġbu4Ġ
zhong4 Ġyi4Ġ
mi4Ġ mi4Ġ
Ġying1Ġ wen2Ġ
Ġ h
Ġ ti2Ġgong1Ġ
xiao4 Ġyuan2Ġ
Ġshi4Ġ ye4Ġ
Ġzai4Ġ qi2Ġ
ĠĠĠ 2
kao3Ġ lv4Ġ
e2Ġluo2Ġ si1
te4Ġ se4Ġ
Ġ jing1Ġji4Ġ
Ġ ai1Ġ
Ġyou3Ġ xian4Ġ
sen1Ġ lin2Ġ
ma3 Ġsi1Ġ
Ġ 2020
wu4 Ġyuan2Ġ
an1Ġ pai2Ġ
xia4 Ġyi1Ġ
mei3 Ġge4Ġ
Ġquan2 Ġqiu2Ġ
er4 Ġyue4Ġ
Ġda4Ġ duo1Ġshu4Ġ
Ġbu4Ġ jiu3
zhuang1 Ġbei4Ġ
huan3 Ġ
Ġda4Ġ dao4Ġ
Ġ 10Ġ
neng2 Ġzai4Ġ
Ġji1Ġ bai4
tu3Ġer3 Ġqi2Ġ
Ġ wo4
qian1 Ġzhi4Ġ
zeng4 Ġ
Ġdi4Ġyi1Ġ ci4Ġ
Ġzui4Ġ gao1Ġ
chang3 Ġdi4Ġ
min2Ġzhu3Ġ dang3Ġ
nan2 Ġyi3Ġ
xing4Ġ qu4Ġ
cun4 Ġ
Ġshi2Ġ yan4Ġ
zuo4Ġ zhan4Ġ
Ġji2Ġ bei3Ġ
Ġchu1Ġ lai2Ġ
tai2Ġ feng1Ġ
tian1Ġ jin1Ġ
Ġ can1Ġjia1Ġ
Ġ 2017
ban4 Ġli3Ġ
Ġnian2 ĠĠĠ
Ġzhi1 Ġdao4Ġ
tian1Ġ jin1
Ġ xun2Ġ
long2Ġ jiang1Ġ
Ġ zhong1Ġshi4Ġ
ling3 Ġshi4Ġ
Ġbu4Ġ zu2Ġ
yong4Ġ tu2Ġ
li3 Ġgong1Ġ
Ġtong1Ġ chang2
H Ġ
Ġyuan2Ġ su4Ġ
Ġ gang1Ġ
wei1 Ġer3Ġ
nong2Ġ ye4
Ġqing1Ġ chao2Ġ
ai1 Ġer3Ġ
Ġ kang1Ġ
chang2 Ġjian4ĠdeĠ
Ġcheng2Ġ du4Ġ
zhan4Ġ ling3Ġ
jin4Ġxing2Ġ leĠ
Ġshi3 Ġjian4Ġyu2Ġ
Ġ lv3Ġ
ĠĠĠ ming2Ġ
dao3 Ġdan4Ġ
xiu1 Ġzheng4Ġ
ma Ġ
Ġyue4Ġ tuan2Ġ
zu3 Ġjian4Ġ
gui4 Ġzhou1Ġ
Ġta1Ġ hai2Ġ
fen1 Ġbu4Ġyu2Ġ
to ĠĠĠ
ma3Ġlai2 Ġxi1Ġya4Ġ
ĠĠĠ xian4
xi3 Ġju4Ġ
Ġgong1Ġ zhu3Ġ
zhang4Ġ ai4Ġ
xi2Ġxing4 Ġbu4Ġming2Ġ
Ġshi2Ġ dai4
Ġ f
Ġ yan2
xiang4 Ġshi4Ġ
Ġchu1Ġ qi1Ġ
Ġzhan4Ġ dou4
Ġwen2Ġ hua4Ġ
te Ġ
hua2Ġ sheng4Ġ
sheng1 Ġcheng2Ġ
1987 Ġnian2Ġ
Ġyou3Ġ xie1Ġ
jiao1Ġ liu2Ġ
ren4Ġming4 Ġwei4Ġ
Ġsheng1Ġ chan3
Ġyi4Ġ qi3
fa3Ġ guan1Ġ
Ġye3Ġ jiu4Ġshi4Ġ
Ġ shou1Ġ
ĠĠĠ ta1Ġ
ĠdeĠ fang1Ġshi4Ġ
Ġhe2Ġ he2Ġ
Ġsheng1Ġhuo2Ġ xi2Ġxing4Ġbu4Ġming2Ġ
she4 Ġzhi4Ġ
shou4 Ġdao4
ti2 Ġchu1
40 Ġ
Ġ heng2Ġ
ji1Ġ chu3Ġ
Ġta1Ġ ye3Ġ
Ġ chu3Ġyu2Ġ
hen3 Ġda4Ġ
Ġ tao2Ġ
zhi4 Ġzhong1Ġ
tong2 Ġnian2Ġ
bao4Ġ fa1
zhu3 Ġshi4Ġ
1980 Ġnian2Ġ
ju4Ġ jue2Ġ
Ġwan4 Ġli4Ġ
ĠĠĠ mei3Ġguo2Ġ
17 Ġ
se Ġ
ku3 Ġ
chuan2Ġ shuo1Ġ
chuang4Ġ ban4
Ġ gen1Ġju4
ling3Ġ xiu4Ġ
hua4Ġhe2Ġ wu4Ġ
Ġ gong4
Ġ yin2Ġ
Ġer2Ġ bu2Ġshi4Ġ
an1Ġ zhuang1
ĠA Ġ
Ġ rui4Ġ
ren4 Ġshi2Ġ
qiong2 Ġ
1982 Ġnian2Ġ
la1Ġ ding1
bao4 Ġli4Ġ
an1Ġ na4Ġ
Ġyi1Ġ xue2Ġ
Ġ luo4
zhi4 Ġbu4Ġ
wen2 Ġyi4Ġ
jia1Ġli4Ġ fu2Ġ
Ġ zhao4
Ġ gong4Ġyou3Ġ
shu2 Ġ
Ġyou3Ġ yi2Ġge4Ġ
Ġxian4Ġ xiang4Ġ
shang4Ġ ying4Ġ
Ġ xuan1Ġ
fa3 Ġyu3Ġ
Ġzai4Ġ nei4ĠdeĠ
c ĠĠĠ
gao1Ġ su4Ġ
ĠĠĠ li3Ġ
Ġzai4Ġ du4Ġ
Ġer2 Ġbu4Ġ
Ġ pa4
ji4 Ġshi4Ġ
yuan4 Ġshi4Ġ
Ġwei4Ġ xing1Ġ
yan2Ġ shen1
hai3Ġ an4Ġ
chuang4 Ġjian4Ġ
bin1 Ġhai3Ġ
shun4 Ġli4Ġ
Ġli3Ġ lun4
Ġdong1Ġ bei3Ġ
wo3Ġ menĠ
ĠĠĠci3Ġ wai4Ġ
Ġ 2013Ġnian2Ġ
Ġ ka3
Ġ han4
lei2 Ġsi1Ġ
ruan3 Ġjian4Ġ
Ġsheng1Ġ zhang3
shu1Ġ ru4Ġ
Ġyou2 Ġqi2Ġshi4Ġ
tui1 Ġjin4Ġ
Ġhe2Ġ bu4Ġ
zi1Ġ chan3Ġ
nv3Ġ xing4
lun4Ġ wen2Ġ
Ġxing2Ġ zheng4
wang3Ġ luo4
wang3 Ġqiu2Ġ
hai3Ġ wai4Ġ
zui4Ġ gao1
ping2Ġ lun4Ġ
Ġbu4Ġ luo4Ġ
Ġda4Ġ sha4
Ġ na4
Ã© Ġ
zhu3Ġ yi4ĠdeĠ
bao4Ġ gao4
Ġ 2010
1983 Ġnian2Ġ
ying4Ġ yong4
cai3Ġ qu3Ġ
Ġ 2012
jiao4 Ġshi4Ġ
bian4 Ġwei4Ġ
15 Ġnian2Ġ
zu1 Ġ
ban3Ġ ben3
pai2Ġming2 Ġdi4Ġ
Ġ sai1Ġ
Ġ 2006Ġnian2Ġ
ju4 Ġhe2Ġ
Ġ shu3
Ġ wa3Ġ
yu2 ĠdeĠ
ze2 Ġren4Ġ
fang1Ġ mian4ĠdeĠ
tou2Ġ zi1
bo1Ġ fang4Ġ
Ġbei3Ġ jing1Ġ
ĠĠĠ qi2Ġ
san1 Ġshi4Ġ
Ġzai4Ġ xi1Ġ
ren2Ġ da4Ġ
Ġde2 Ġer3Ġ
Ġhou4Ġ xuan3Ġren2Ġ
dian4Ġ nao3
Ġ ta3Ġ
ma3 Ġli3Ġ
ge4Ġ zhong3Ġ
yin3Ġ qing2Ġ
1945 Ġnian2Ġ
Ġshi4Ġ min2Ġ
Ġhe2Ġ da4Ġ
dian4Ġ zi
Ġ Ma
ling3 Ġdi4Ġ
21 Ġnian2Ġ
Ġzai4Ġ ci4
fan4Ġwei2Ġ nei4Ġ
rao3 Ġ
ĠĠĠju4Ġ qing2Ġ
ĠĠĠ qian2Ġ
xiang1 Ġshi4Ġdi4Ġ
zhe4 Ġli3Ġ
13 Ġnian2Ġ
Ġyu2Ġ ren2Ġ
zheng4Ġ dang3Ġ
Ġri4Ġ bao4Ġ
Ġling4 Ġyi1Ġ
xing2 Ġcheng2Ġ
fa1 Ġxing2ĠdeĠ
Ġji1Ġ hu1Ġ
zhi2Ġ jie1
Ġ liang4Ġ
feng1 Ġwei4Ġ
pai4 ĠdeĠ
ce ĠĠĠ
Ġshi4Ġ gu4Ġ
Ġzhi4Ġ shao3Ġ
xi4Ġ bao1
biao3Ġ da2Ġ
yuan4 Ġyi4Ġ
Ġta1 Ġhe2Ġ
ju4Ġ le4Ġbu4Ġ
du2Ġ li4ĠdeĠ
e2 Ġguo2Ġ
Ġzhi1Ġ fu4Ġ
jiu3Ġ long2Ġ
dang1Ġ xuan3Ġ
he4 Ġer3Ġ
mian2 Ġ
zi4Ġ ran2
Ġ 30Ġ
Ġyou3Ġ xiao4Ġ
ĠĠĠ chu1Ġ
ĠĠĠ xian4Ġ
bu2 Ġ
wen1 Ġdu4Ġ
ji4Ġ cheng2Ġ
yun3Ġ xu3
Ġyi1Ġ xiao3Ġshi2Ġ
huo3Ġ shan1Ġ
Ġda4Ġ xi1Ġyang2Ġ
guo4Ġ qu4
pai2Ġ hang2Ġ
an1 Ġde2Ġ
Ġdong1Ġ lin2Ġ
jiu4Ġ du2
jing3Ġ cha2
zhi1Ġ chi2
fang3Ġ wen4
Ġ yong4Ġyu2Ġ
ming2Ġ zi4Ġ
Ġzuo4Ġ jia1Ġ
Ġ lai2
Ġ rong2Ġ
dang3 Ġyuan2Ġ
xi3Ġ huan1
qu1 Ġyi4Ġhui4Ġ
Ġda4Ġ fu2Ġ
Ġde2Ġ hua2Ġ
Ġ 2012Ġnian2Ġ
huan4 Ġcheng2Ġ
fang1Ġ yan2Ġ
biao3Ġ yan3
xian4 Ġzhi4Ġ
dou1 Ġzai4Ġ
Ġdi4Ġ yi2Ġge4Ġ
st ĠĠĠ
1 Ġli4Ġ
Ġyu3Ġ mao2
Ġchu1Ġ zhan4Ġ
bi3Ġ ya4
ĠĠĠdi4Ġ fang1Ġ
Ġbing4 Ġbei4Ġ
Ġ kong3Ġ
qu1 Ġhe2Ġ
Ġyi1Ġ tong2Ġ
xun2Ġ yang2
Ġzhong1Ġhua2Ġren2Ġmin2Ġgong4Ġhe2Ġguo2Ġ zheng4Ġzhi4Ġren2Ġwu4Ġ
Ġshi4Ġ yu2Ġ
xiang1Ġ dang1
jing1Ġ yan4Ġ
tiao2Ġ zheng3
Ġ ying2Ġ
pu3Ġ bian4Ġ
Ġ 7Ġ
Ġzhong1Ġ bei4Ġ
guan1Ġ dian3Ġ
jiang4Ġ di1Ġ
ke1ĠdeĠ qi2Ġzhong1Ġyi1Ġzhong3Ġ
23 Ġnian2Ġ
Ġgong1Ġ yi4Ġ
Ġ0 Ġ
Ġ sheng1Ġyu2Ġ
liang3 Ġming2Ġ
han2 Ġyou3Ġ
zhong4Ġ duo1Ġ
da4 Ġzhi4Ġ
dian3 Ġli3Ġ
Ġshi4Ġ gong1Ġ
she3 Ġ
Ġbing4Ġ du2
ya4 Ġjun1Ġ
cheng2Ġ yuan2Ġ
Ġqi2Ġzhong1Ġ yi1Ġ
she4Ġ qu1Ġ
Ġ sai4Ġji4Ġ
kou3 Ġwei4Ġ
Ġxian4 Ġshi4Ġ
Ġji4Ġ suan4Ġ
zhi1Ġ qian2Ġ
mi4Ġshu1Ġ zhang3Ġ
Ġdi4Ġ si4
Ġ sai4Ġ
zuo4 Ġshi4Ġ
tiao2 Ġli4Ġ
nei4Ġ ge2Ġ
yi2Ġ du4Ġ
shu4 Ġyu3Ġ
wu2 Ġzheng4Ġzhuang4Ġ
Ġxian4Ġ ren4Ġ
tu1Ġ po4Ġ
Ġ jiu4Ġshi4Ġ
xie3 Ġdao4Ġ
dang4 Ġtian1Ġ
Ġzu3 Ġfu4Ġ
gua4 Ġ
Ġxing2 Ġwei4Ġ
Ġ ping2Ġjun1Ġ
Ġgong1Ġ min2Ġ
xing1Ġ deng3Ġwei4Ġ
Ġtong2 Ġyi4Ġ
hong2Ġ se4Ġ
Ġ shuo1Ġ
zheng4 Ġbu4Ġ
shan1 Ġshi4Ġ
wan2Ġ zheng3
Ġbi3Ġ sai4Ġ
kai1Ġshi3 Ġzai4Ġ
7 Ġren2Ġ
tuan2 ĠdeĠ
gei3 ĠleĠ
Ġji1Ġ jin1Ġ
si3Ġ wang2
zheng3Ġ ti3Ġ
Ġ neng2Ġ
Ġ cha2Ġ
yi4 Ġnian2Ġ
ben3 Ġren2Ġ
jue2 Ġdui4Ġ
lu3 Ġsi1Ġ
Ġ liu4
Ġ 500
Ġquan2 Ġli4Ġ
yi2Ġ ding4Ġ
ying1Ġ wen2Ġ
dai4Ġbiao3 Ġda4Ġhui4Ġ
6 Ġren2Ġ
Ġ reng2
Ġ hao2Ġmi3Ġ
ĠĠĠ ji2Ġ
chi2 Ġyou3Ġ
Ġshi4Ġ bing1Ġ
gai4Ġ nian4
huang2 Ġhou4Ġ
Ġgong1Ġ ju4Ġ
she4Ġ shi1Ġ
Ġzui4 Ġchu1Ġ
ĠĠĠ 2011
Ġ sun1
yang2 Ġshi4Ġ
Ġzhe4Ġ zhong3
xia4Ġxia2 ĠdeĠyi2Ġge4Ġ
zhong3Ġ zu2Ġ
ĠĠĠ a1Ġ
zhi2Ġ dao3Ġ
ni2 Ġer3Ġ
ĠdeĠcheng2Ġ ji4Ġ
lai2 Ġyue4Ġ
Ġji2Ġ ren2Ġ
qi3Ġ dong4Ġ
Ġsui4 Ġshi2Ġ
bao3Ġ shou3Ġ
tou2Ġ xiang2Ġ
gui4Ġ zu2Ġ
Ġ da2
yue4 Ġzhong1Ġ
zhen4Ġ qu1ĠdeĠ
zao3Ġ qi1
bo2Ġshi4Ġ xue2Ġwei4Ġ
Ġ xin4Ġ
ĠĠĠ 1
ĠĠĠ qi2Ġta1Ġ
shan1 Ġji1Ġ
kui4 Ġ
Ġ dian4Ġying3Ġ
Ġwei2Ġ er3
jie4Ġ shao4Ġ
Ġmei3 Ġge4Ġ
yao1Ġ qing3
ĠĠĠ 2010
gu3 Ġdai4Ġ
zhen3 Ġ
tang1 Ġ
Ġming2Ġ dan1Ġ
ming2 Ġren2Ġ
Ġde2 Ġyu3Ġ
shen2Ġ meĠ
Ġyi1Ġ zuo4Ġ
Ġyi3Ġ ji2
Ġer2Ġ gai1Ġ
hei1Ġ se4Ġ
Ġren2Ġmin2Ġ zheng4Ġfu3Ġ
en1Ġ sheng3Ġ
tou4Ġ guo4
3 Ġge4Ġ
Ġxiang3 Ġnian2Ġ
wu2Ġzheng4Ġzhuang4Ġ gan3Ġran3Ġ
19 Ġ
sui2 Ġzhu4Ġ
sa1 Ġ
mu4Ġ qian2
huo2 Ġyue4Ġ
chang2Ġ wu4Ġ
chang2Ġ wei3Ġ
gai3Ġ ming2Ġwei4Ġ
que4Ġzhen3 Ġbing4Ġli4Ġ
ming2 Ġzhi4Ġ
Ġri4 Ġyu2Ġ
chu1Ġ shen1Ġ
Ġ fan1Ġ
ĠĠĠ In
tun2 Ġ
dian4Ġ hua4Ġ
gao1Ġsu4 Ġgong1Ġlu4Ġ
Ġ 2022
Ġbu4Ġ si1Ġ
Ġji1Ġ si1Ġ
tai4Ġ ziĠ
geng4 Ġwei2Ġ
Ġbi3Ġ ru2Ġ
ĠĠĠ gai1
ke4 Ġcheng2Ġ
kun4 Ġnan2Ġ
Ġbu4Ġ li4Ġ
ru4Ġ xuan3Ġ
zui4Ġ duo1Ġ
que1Ġ fa2
dan1 ĠdeĠ
long2 ĠdeĠ
yi3Ġ jing1Ġ
Ġ er4Ġshi2Ġ
ti2 Ġji2Ġ
Ġwei4Ġyu2Ġ zhong1Ġguo2Ġ
sai1Ġer3Ġ wei2Ġ
hui4 Ġzhong1Ġ
shou1 Ġji2Ġ
Ġli4Ġ fa3
xue2Ġ hui4Ġ
Ġbing4Ġ fei1Ġ
hai3Ġ xia2Ġ
z Ġ
gou4 ĠdeĠ
gong1Ġ cheng2Ġ
Ġxi1Ġ jie1Ġ
ge1Ġ lun2Ġ
Ġji1Ġ chang3
ju4 Ġda4Ġ
duo1 Ġren2Ġ
Ġcheng2Ġ ren2Ġ
fu4Ġ ze2
an1Ġ na4
zu2Ġqiu2Ġ yun4Ġdong4Ġyuan2Ġ
xie3 ĠdeĠ
zuo4Ġ chu1Ġ
zhui1Ġ su4
Ġ xiang3Ġ
Ġ 2014Ġnian2Ġ
1979 Ġnian2Ġ
Ġtong2Ġshi2Ġ gai1Ġdi4Ġ
Ġ yong4
Ġ kuan1
1972 Ġnian2Ġ
bei1 Ġsi1Ġ
Ġye3 Ġzai4Ġ
fan4Ġ zui4Ġ
sheng3 ĠdeĠ
ling4 Ġren2Ġ
ar Ġ
ĠĠĠ 1Ġ
hui4 Ġzhi4Ġ
Ġde2Ġ zhu3Ġ
tao3Ġ lun4
Ġji2Ġ di4Ġ
nei4Ġlu4Ġ sheng3Ġfen4Ġ
1978 Ġnian2Ġ
an1Ġ hui1Ġ
ke1Ġxue2Ġ jia1Ġ
Ġ Z
tu2 Ġxing2Ġ
pi1Ġ zhun3
Ġ yue1
Ġ se
jiang1 Ġzai4Ġ
Ġbing4Ġ du2Ġ
ci4 ĠdeĠ
tiao4 Ġ
yi2Ġ ding4
zhu2 Ġbu4Ġ
ĠdeĠdi4Ġ er4Ġ
shou4 ĠdeĠ
shan1 ĠdeĠ
Ġshi4Ġ yin1Ġwei4Ġ
Ġke4 Ġxi1Ġ
jie2Ġ guo3
qiang2Ġ lie4Ġ
ti2Ġgong1Ġ leĠ
lian2Ġhe2Ġ hui4Ġ
chao1 Ġyue4Ġ
tai2Ġ nan2
jian3Ġ shao3
Ġ yao1Ġqiu2Ġ
di1 Ġyu2Ġ
Ġ po4Ġ
le Ġzai4Ġ
pai4Ġ qian3
xia4Ġling4 Ġshi2Ġjian1Ġ
hai3 Ġping2Ġmian4Ġ
bu2 Ġdao4Ġ
Ġshi2Ġ qi1ĠdeĠ
Ġyuan2Ġ xing2Ġ
jia4Ġ ge2Ġ
ye3 Ġzai4Ġ
Ġji1Ġ hui4Ġ
Ġxue2Ġ yuan4
hui1Ġ fu4
guo4 ĠdeĠ
ya4Ġ mei3Ġ
bian1Ġ jie4Ġ
Ġ wan2Ġjia1Ġ
tou1 Ġ
Ġguo2Ġ nei4Ġ
dong3Ġshi4Ġ zhang3Ġ
fang1Ġ fa3
ti2 Ġyi4Ġ
shu1 Ġzhong1Ġ
xun1 Ġzhang1Ġ
shi1Ġ bai4Ġ
Ġjiao4Ġ yu4Ġ
zhu3Ġyao4 ĠdeĠ
zhu3Ġ jiao4
Ġhao4 ĠdeĠ
ni2Ġya4 Ġzhou1Ġ
Ġhou4Ġ bei4Ġ
guan1Ġ cha2Ġ
Ġxue2Ġ jia1Ġ
liu2Ġ xia4Ġ
shuang1Ġ fang1Ġ
ĠĠĠbei4Ġ jing3Ġ
er2 Ġtong2Ġ
1976 Ġnian2Ġ
Ġyi1Ġ li4Ġ
jia1 Ġyi4Ġ
Ġbu4Ġ dui4
Ġyi3Ġ wei2Ġ
8 Ġren2Ġ
w Ġ
lian2Ġ xu4
zhuang1Ġ jia3Ġ
xian4 ĠdeĠ
qin1 Ġzi4Ġ
Ġer2Ġ ziĠ
bei3Ġjing1 Ġshi4Ġ
Ġ 1950
Ġyou3Ġ suo3Ġ
tion ĠĠĠ
Ġzai4Ġ shi2Ġ
zui4Ġ gao1ĠdeĠ
hui4Ġyi4Ġ yuan2Ġ
san1Ġ jiao3
ĠĠĠdi4Ġfang1Ġ zi1Ġliao4Ġ
ou3 Ġ
fei1Ġ chang2
ren4 Ġwei4Ġ
ma3 Ġer3Ġ
lan2 ĠdeĠ
na2 Ġxia4Ġ
ping2Ġ tai2Ġ
ĠĠĠ jian3Ġjie4Ġ
duo1 Ġwei4Ġ
zu3 Ġfu4Ġ
Ġhe2Ġ yue1Ġ
1958 Ġnian2Ġ
ĠĠĠ 17
bei4 ĠdeĠ
Ġli4Ġ liang4Ġ
Ġchu1Ġ kou3Ġ
gai3Ġ bian4
Ġta1Ġceng2 Ġdai4Ġbiao3Ġ
bian3 Ġ
Ġdi4Ġ li3Ġ
nan2Ġ bei3Ġ
ping2 Ġwei4Ġ
neng2 Ġyuan2Ġ
la Ġ
pi3 Ġ
Ġdi4Ġ qi1Ġ
Ġxian4Ġ fa3Ġ
Ġhou4Ġ zhe3Ġ
zi4 ĠdeĠ
tai2 Ġzhong1Ġ
di2 Ġshi4Ġ
Ġzheng4Ġ ming2Ġ
Ġshi2Ġji4Ġ shang4Ġ
Ġcheng2Ġ zhen4Ġ
Ġmei3 Ġyuan2Ġ
que1Ġ fa2Ġ
Ġ 2015Ġnian2Ġ
xuan3 Ġzhong1Ġ
di2 Ġren2Ġ
Ġli4Ġ yi4Ġ
Ġ 28
li3 Ġhe2Ġ
sui2 Ġji2Ġ
liao3 Ġ
pai4 Ġchu1Ġ
Ġzhong1Ġguo2Ġren2Ġmin2Ġ jie3Ġfang4Ġjun1Ġ
duo1Ġ zhong3Ġ
ying1Ġ gai1Ġ
tan2Ġ pan4Ġ
liao2Ġ ning2Ġ
Ġbu4Ġ shao3Ġ
Ġsi1Ġ ta3Ġ
mian3Ġ dian1
ti2 Ġchu1ĠdeĠ
ying1Ġ ge2Ġlan2
tui4Ġ xiu1Ġ
Ġda4Ġxue2 ĠdeĠ
hai3Ġba2 Ġwei4Ġ
Ġ mei2
gan4 Ġbu4Ġ
lei3 Ġji4Ġ
Ġshi2Ġ xing2Ġ
dang1 Ġzhong1Ġ
jue2 Ġyi4Ġ
xu4 Ġli4Ġya4Ġ
shang1 Ġren2Ġ
biao1 Ġben3Ġ
fa1Ġ sheng1Ġzai4Ġ
suo3Ġ cai3Ġyong4
zhi3Ġ dao3Ġ
Ġ n
hua4 Ġzhong1Ġ
mei3 Ġzhou1
zan4 Ġshi2Ġ
Ġju4Ġ jue2Ġ
Ġ ba3
Ġfu4Ġ jin4
Ġzhong1Ġgong4 Ġzhong1Ġyang1Ġ
ceng2 Ġwei4Ġ
Ġyi4Ġ qing2Ġ
nong2Ġ min2Ġ
ci4 Ġyu2Ġ
zhuan3 Ġxiang4Ġ
chan2 Ġ
fa1Ġ shou4Ġ
ĠĠĠ yin1Ġ
yi2 Ġdai4Ġ
Ġde2 Ġming2Ġ
xiu1Ġ gai3Ġ
shui3 Ġli4Ġ
rong2 Ġhe2Ġ
Ġzhong1Ġ guo2ĠdeĠ
fa1 Ġming2Ġ
Ġqi2 Ġwei4Ġ
zhi3Ġ neng2Ġ
zi1Ġ liao4
Ġming2 Ġzhi4Ġ
Ġgong1Ġ zhong4Ġ
zhu3Ġ yan3Ġ
zhong3Ġ ziĠ
17 Ġnian2Ġ
zi1Ġ ben3Ġ
a1Ġla1Ġ bo2
xiang1Ġ si4Ġ
guan1Ġ cha2
jie1Ġ chu4Ġ
Ġbei3Ġ jing1
kai1 Ġshe4Ġ
xiu1 Ġjian4Ġ
2025 Ġnian2Ġ
jing4 Ġji4Ġ
ĠdeĠshi4Ġ jie4Ġ
Ġ 2016Ġnian2Ġ
nu3 Ġ
kai1Ġ tong1Ġ
fa1Ġ qi3Ġ
wu3Ġ zhuang1
bao4Ġ zha4Ġ
jie3Ġ san4Ġ
Ġ cn
dian4 Ġji1Ġ
st Ġ
chai1 Ġchu2Ġ
an1Ġ pai2
ju3Ġban4 ĠdeĠ
shen1Ġ du4Ġ
zhang1Ġ zhuan1Ġji2Ġ
qu1 Ġshi4Ġ
wei2Ġ si1Ġ
tuan2Ġ ti3
ji1Ġ gou4Ġ
fu4Ġ zhu3Ġren4Ġ
zu3Ġzhi1 ĠdeĠ
Ġ cha2
ze2 Ġzai4Ġ
bian1 Ġju4Ġ
feng1Ġ xian3Ġ
diao4Ġ kuai4
Ġ 187
cheng2 Ġhe2Ġ
is ĠĠĠ
Ġyu3Ġ qi2Ġta1Ġ
neng2Ġ liang4Ġ
Ġ su4Ġ
ĠĠĠ qi2
jie2 ĠdeĠ
zao4 ĠleĠ
Ġwei4Ġ UTCĠ
Ġbu4Ġ ji2Ġ
Ġzhong1Ġ shan1Ġ
shuai4Ġ ling3
ban4Ġshi4Ġ chu4Ġ
Ġcn Ġ
shou3 Ġzhong1Ġ
pei4 Ġzhi4Ġ
qiu2 Ġji4Ġ
ying1Ġ xiong2Ġ
Ġxi1Ġban1Ġ ya2Ġ
ĠĠĠ dui4Ġ
you2 Ġji1Ġ
luo2 Ġli3Ġ
jiao4Ġ tang2
ge2Ġ la1Ġ
jiu4Ġ du2Ġ
shang1Ġ ye4
xiao1Ġ fei4Ġ
diao4Ġkuai4 Ġyi1Ġxiao3Ġshi2Ġ
kun4 Ġ
ĠdeĠ ying3Ġxiang3Ġ
qiang2Ġ diao4Ġ
Ġ tang2
Ġji2Ġ UTCĠ
ke1Ġxue2Ġ yuan4Ġ
she4Ġyou3Ġ xia4Ġling4Ġshi2Ġjian1Ġ
ĠdeĠshi2Ġqu1Ġwei4Ġ UTCĠ
Ġer2Ġgai1Ġdi4Ġ suo3Ġcai3Ġyong4
Ġtong2Ġshi2Ġgai1Ġdi4Ġ she4Ġyou3Ġxia4Ġling4Ġshi2Ġjian1Ġ
Ġer2Ġgai1Ġdi4Ġsuo3Ġcai3Ġyong4 ĠdeĠshi2Ġqu1Ġwei4ĠUTCĠ
hou4 Ġwei4Ġ
bao3Ġ liu2
Ġtong2Ġ yang4
xin4Ġ yang3Ġ
ta1Ġmen ĠdeĠ
shuai1 Ġ
Ġda4Ġ jiang3Ġ
Ġling4 Ġyou3Ġ
Ġyi1Ġsi1Ġ lan2Ġ
Ġ ge1
yuan2Ġ zhu4Ġ
tai4Ġ du4Ġ
chuan2Ġ bo1Ġ
Ġgai1Ġ cun1Ġ
ĠĠĠ 2Ġ
suo3 Ġzai4Ġdi4Ġ
que4 ĠdeĠ
zhi1Ġ jian1ĠdeĠ
Ġ ce4Ġ
ĠĠĠ jiao1Ġtong1Ġ
fa1 Ġshe4
Ġshi2Ġ wu4Ġ
ding4Ġ ju1Ġ
Ġli4Ġshi3Ġ shang4Ġ
gao1Ġyu2Ġ hai3Ġping2Ġmian4Ġ
Ġ ni3Ġ
xing4 Ġwei4Ġ
Ġwei4Ġfu2Ġqi2Ġyu2Ġ gang1Ġ
5 Ġmi3Ġ
zhu2 Ġjian4
Ġbu4Ġ neng2
Ġgong1Ġ jue2Ġ
Ġer3Ġ duo1Ġ
Ġma3Ġ lai2
wu4 Ġhe2Ġ
hu4 Ġxiang1Ġ
ĠĠĠ qing1Ġ
Ġqi2Ġ xia4Ġ
chu4ĠdeĠ hai3Ġba2Ġwei4Ġ
chu4ĠdeĠhai3Ġba2Ġwei4Ġ gao1Ġyu2Ġhai3Ġping2Ġmian4Ġ
Ġwei4Ġ da4Ġ
Ġyin1Ġ su4Ġ
Ġ jia3
ti3 Ġzhi4Ġ
Ġyu2Ġ le4
chang3Ġ suo3Ġ
jing4Ġ xuan3Ġ
Ġ lu3Ġ
wu4 Ġshi4Ġ
qia4 Ġ
Ġzhi1 Ġyi4Ġ
gao1Ġ xiong2
kuang2 Ġ
Ġhe2Ġ pan4Ġ
Ġbu4Ġ jin3Ġ
Ġyi3Ġ xi1Ġ
ĠĠĠ 190
fa1 Ġxian4ĠdeĠ
zhong4 Ġshi4Ġ
ction ĠĠĠ
Ġqi2 Ġshi2Ġ
Ġsui2 Ġzhu4Ġ
Ġ 8Ġ
nan2Ġ jing1
zhang3Ġ da2Ġ
yun4Ġ shu1
Ġ dan1
Ġ 2008
Ġ 2017Ġnian2Ġ
shi4 ĠĠĠ
lu4 Ġzhi4Ġ
shu4 Ġshi2Ġ
nei4 Ġdi4Ġ
bian1 Ġhao4Ġ
shi2Ġ qu1Ġ
chong2Ġ qing4
jian4 Ġcheng2Ġ
geng1 Ġxin1Ġ
Ġyi1Ġ jia1Ġ
Ġxi1Ġ lan2Ġ
yun4Ġ yong4Ġ
Ġzi4Ġ ran2Ġ
Ġ zheng1Ġ
ĠĠĠ ma3Ġ
bi4Ġ ye4Ġhou4Ġ
Ġ 24
Ġ zheng4Ġzhi4Ġ
ĠĠĠ ran2
er4 Ġji2Ġ
Ġli4Ġ ren4Ġ
wei2Ġ er3Ġ
zhi2Ġ zheng4Ġ
dian4Ġ qi4Ġ
shan1Ġ feng1Ġ
xiao4Ġ qu1Ġ
Ġwei4Ġyu2Ġ gai1Ġ
16 Ġnian2Ġ
60 Ġ
Ġ chu2
zhe3 Ġshi4Ġ
wang2 Ġshi4Ġ
ve Ġ
Ġ wan2Ġ
jiu4 Ġhui4Ġ
xia2Ġ qu1Ġ
xuan1Ġ chuan2
ĠĠĠ ben3
bao1 Ġwei2Ġ
bang4 Ġqiu2Ġ
Ġzuo4Ġ chu1Ġ
Ġ xie4Ġ
xue2 Ġyuan2Ġ
cuo4 Ġwu4Ġ
Ġdi4Ġ qiu2
jin1Ġ rong2Ġ
Ġyu4Ġ shi3Ġ
Ġ xu1Ġ
hou4 Ġyi4Ġ
dong1Ġ fang1Ġ
bei3 Ġshi4Ġ
jing1Ġ chang2
Ġran2 Ġer2
Ġci4 Ġnian2Ġ
ve ĠĠĠ
Ġjie2 Ġke4Ġ
hui4 Ġyu2Ġ
te ĠĠĠ
Ġsi1Ġ ke1Ġ
Ġdui4Ġ shou3Ġ
Ġxing2Ġzheng4Ġ qu1Ġ
zhen4Ġqu1ĠdeĠ mian4Ġji1Ġwei4Ġ
9 Ġren2Ġ
Ġ hu2
ming2 Ġshi4Ġ
Ġzhou1Ġ ci4Ġshi3Ġ
Ġsheng1Ġ ya2Ġ
Ġ huan4Ġ
jia1 Ġyi3Ġ
fu2 ĠdeĠ
ju2 ĠdeĠ
ke3 Ġzai4Ġ
ma3 Ġke4Ġ
Ġta1 Ġyi3Ġ
Ġyuan2Ġ zi4Ġ
zao4Ġ cheng2ĠdeĠ
Ġ Y
Ġli3Ġ xi1Ġ
zhi2Ġ min2Ġ
ping2Ġ lun4
fu1Ġ ka3Ġ
Ġdang1Ġ shi2ĠdeĠ
f Ġ
Ġ yi2
ao4 Ġzhou1Ġ
Ġnian2Ġ lai2Ġ
Ġyi1Ġ ju4Ġ
qian1Ġ shu3Ġ
ji4 Ġyou3Ġ
shi3 Ġjian4Ġyu2Ġ
ren4 ĠdeĠ
ye3 Ġbei4Ġ
mian4 Ġshang4Ġ
gong1Ġ gong4Ġ
Ġsi1Ġ ke4
Ġer2Ġ tong2Ġ
Ġ 2018Ġnian2Ġ
Ġxue2Ġ zhe3Ġ
Ġ dai4
deng3 Ġji2Ġ
pao3 Ġ
1968 Ġnian2Ġ
Ġjian4 Ġshe4
Ġwei2Ġ rao4
Ġye3 Ġbei4Ġ
Ġqi2Ġzhong1Ġ bao1Ġkuo4Ġ
jia1 Ġzai4Ġ
Ġ 2009
ban4 ĠdeĠ
tu1 Ġran2Ġ
hai3Ġ yang2Ġ
qi4Ġ che1
chu1Ġ ban3
lai2 Ġyin1Ġ
ge2 Ġshi4Ġ
ji1 Ġzai4Ġ
jun4 Ġgong1Ġ
Ġde2 Ġzhi1Ġ
Ġji1Ġ jin1Ġhui4Ġ
xiao1Ġ shi1Ġ
xiao4Ġli4Ġ yu2Ġ
Ġ 2019Ġnian2Ġ
ji4Ġ nian4
ru2Ġ guo3Ġ
ling4Ġ yi2Ġge4Ġ
tian2Ġ jing4Ġ
tao2Ġ tai4Ġ
Ġfu2Ġ wu4Ġ
Ġ dian4Ġshi4Ġ
ch Ġ
Ġwei4Ġ dui4Ġ
Ġji2Ġ da4Ġ
yan2Ġ hai3Ġ
dang1Ġ di4ĠdeĠ
jiang4Ġ ling3Ġ
19 Ġshi4Ġji4Ġ
ping2 Ġyuan2Ġ
er4 Ġren2Ġ
wei3Ġyuan2Ġhui4Ġ wei3Ġyuan2Ġ
Ġli3Ġ ya4Ġ
Ġ 2Ġyue4Ġ
ĠĠĠ jin3Ġ
dui4 Ġqi2Ġ
re Ġ
bei4Ġ jing3Ġ
ka3Ġ luo2Ġ
Ġ qin1Ġ
Ġ lian2Ġhe2Ġ
jin4 Ġbu4Ġ
liang3 Ġguo2Ġ
te4Ġ ding4Ġ
fen4Ġ zi3
da4 Ġbu4Ġ
ding4 Ġyu2Ġ
Ġqi2 ĠdeĠ
ĠdeĠbu4Ġ fen4Ġ
zhi2Ġmin2 Ġdi4Ġ
Ġ 26
ĠĠĠ sheng4Ġ
gai3Ġ zao4Ġ
Ġ bai3
ao1 Ġ
jiao4 Ġda4Ġ
Ġzhi4Ġ zuo4ĠdeĠ
Ġji1Ġ du1Ġ
chuan2Ġtong3 ĠdeĠ
Ġ 2023
guan1 Ġjian4Ġ
sheng1Ġ ya2
Ġbu4Ġbu4Ġ zhang3Ġ
Ġ gan3Ġ
Ġ yun2Ġ
en ĠĠĠ
jing1Ġ shen2
li2Ġ kai1
Ġqian2Ġ wang3Ġ
Ġ e4Ġ
dian3 Ġshi4Ġ
1970 Ġnian2Ġ
yi4Ġ shu4Ġ
shu1Ġ yuan4Ġ
quan2Ġ mian4Ġ
shou1Ġ gou4Ġ
mo4Ġxi1Ġ ge1Ġ
zhen4 ĠdeĠ
tui1 Ġchu1
guo2Ġ jia1
Ġdi4Ġ tie3
Ġxian4 Ġyi3Ġ
Ġji1Ġ chu3
Ġju4Ġ li2
Ġ xian2Ġ
san1 Ġming2Ġ
gou3 Ġ
Ġluo2Ġ ma3Ġ
Ġ xian1
Ġ 23
wen2 ĠdeĠ
Ġshi2Ġ duan4Ġ
jie1Ġ duan4
liang3Ġ ci4Ġ
cai2Ġ neng2Ġ
ai4Ġer3Ġ lan2Ġ
hun1 Ġyin1Ġ
tou Ġ
da4Ġ lu4
Ġyi4Ġ yu2Ġ
Ġshan1Ġ dong1Ġ
a1Ġla1Ġ bo2Ġ
Ġ sha1
mu4 ĠdeĠ
liang3 Ġwei4Ġ
jing4Ġ zheng1Ġ
bo1 Ġsi1Ġ
hui4Ġ zhang3Ġ
man3Ġ zu2Ġ
Ġdian4Ġ ying3
qi1 Ġwei4Ġ
pei4 Ġyin1Ġ
Ġdi4Ġ dian3Ġ
Ġ ting2Ġ
ĠĠĠ nan2Ġ
xin1 Ġcheng2Ġ
1981 Ġnian2Ġ
zheng4Ġ ju4Ġ
hu4Ġ lian2Ġ
lian2 ĠdeĠ
xiu1 Ġfu4Ġ
Ġbing4Ġ you2Ġ
Ġyou2 Ġji1Ġ
Ġ fa1Ġxian4Ġ
la1 Ġji1Ġ
kao4 Ġjin4Ġ
1956 Ġnian2Ġ
Ġdi4Ġ dai4Ġ
Ġli4Ġ shi2Ġ
jie3Ġ fang4Ġ
Ġwu2Ġ fa3Ġ
nei4 Ġzhan4Ġ
bo1 Ġshi4Ġ
Ġwei2Ġ chi2
zai1Ġ pei2Ġ
Ġ shou3
Ġ chong1Ġ
dui4Ġ zhang3Ġ
fa1Ġ qi3
ju1Ġ zhu4Ġzai4Ġ
l ĠĠĠ
zhe4 Ġshi4Ġ
zao3 Ġzai4Ġ
dian4Ġ nao3Ġ
Ġ z
bing4 Ġbu4Ġ
shou3Ġ xiang4Ġ
shan1Ġ qu1Ġ
jiao1Ġ liu2
zu2Ġqiu2 Ġju4Ġle4Ġbu4Ġ
Ġ bai4Ġ
li3 Ġcheng2Ġ
tai4Ġ yang2
Ġguo2Ġwu4Ġ yuan4Ġ
Ġ liu4Ġ
wei3 Ġfu4Ġ
qi3 Ġyuan2Ġ
Ġshi4Ġ de2Ġguo2Ġ
yan2Ġ se4Ġ
cun1Ġ luo4Ġ
fu1 ĠdeĠ
ji1Ġ chu3
Ġda4Ġ lou2
xiang4Ġ zheng1Ġ
Ġwei2Ġ si1Ġ
tian1Ġ ti3Ġ
dou1 Ġbei4Ġ
1960 Ġnian2Ġ
Ġbu4Ġ bing1Ġ
Ġyu3Ġ yan2
ĠĠĠdi4Ġ er4Ġ
Ġ 2004Ġnian2Ġ
liu4 Ġshi2Ġ
Ġzhi4Ġ liang4Ġ
Ġzhou1Ġ fu3Ġ
lang2 Ġzhong1Ġ
Ġyi1Ġ yuan4
Ġxing2Ġ mu4Ġ
chang2Ġ du4Ġ
xing4 Ġhe2Ġ
1920 Ġnian2Ġ
Ġyi3Ġ wai4Ġ
luo4Ġ fa2
juan4 Ġ
Ġzhi4Ġ di4Ġ
Ġyu3Ġ yi1Ġ
shi1Ġ qu4
wu2Ġzheng4Ġzhuang4Ġgan3Ġran3Ġ zhe3Ġ
Ġ xing1
zui4 Ġchu1
liang4 Ġwei4Ġ
mu3 ĠdeĠ
Ġde2 Ġsi1Ġ
Ġ 2020Ġnian2Ġ
1964 Ġnian2Ġ
xie3 Ġzuo4Ġ
meng4 Ġjia1Ġ
fu4 Ġhe2Ġ
te4Ġ xing4Ġ
Ġwei4Ġyu2Ġ mei3Ġguo2Ġ
jia3 Ġdi4Ġ
ao4Ġ men2
Ġzui4 Ġjia1Ġ
2 Ġge4Ġ
zhi2Ġye4Ġ sheng1Ġya2Ġ
Ġ ding1Ġ
suo3 ĠdeĠ
fu2 Ġli4Ġ
Ġxian4 Ġji2Ġ
suo3 Ġwei4Ġ
jue2 Ġshi4Ġ
zhuan4 ĠdeĠ
ĠĠĠ 2008
zong1 Ġyi4Ġ
zi4Ġ mu3Ġ
ling2Ġ chen2Ġ
Ġ bao3
tou4 Ġlu4Ġ
chuang2 Ġ
dong1Ġ bei3
Ġ yi4Ġshi4Ġ
ping2 ĠdeĠ
1948 Ġnian2Ġ
ou3 Ġxiang4Ġ
kao3 Ġshi4Ġ
Ġfu2 Ġjian4Ġ
Ġ yi2Ġge4
Ġ gen1Ġ
Ġ za2Ġzhi4Ġ
ĠĠĠ ge4Ġren2Ġ
zong3 Ġren2Ġkou3Ġ
Ġdi4Ġ fang1
Ġxian4 Ġcheng2Ġ
Ġli3Ġ ke4Ġ
Ġde2Ġ la1Ġ
kong1Ġ qi4Ġ
Ġ nuo4Ġ
xi1 Ġhe2Ġ
na4 ĠdeĠ
zuo4Ġ wei2
zhu3Ġ zhang1Ġ
xi1Ġ nan2Ġ
Ġ 50
hui2 Ġyi4Ġ
fen2 Ġ
1975 Ġnian2Ġ
Ġyi3 Ġzai4Ġ
Ġye3Ġ ke3Ġyi3Ġ
pu2Ġtao2Ġ ya2Ġ
Ġ can1Ġyu4Ġ
Ġzuo4Ġ zhan4Ġ
xun2Ġ zhao3
qi1 Ġshi2Ġ
zou3 Ġxiang4Ġ
1952 Ġnian2Ġ
nan2 ĠdeĠ
Ġcheng2Ġ ke4Ġ
su1Ġ ge2Ġlan2Ġ
Ġ tai4
ĠĠĠ 10
ĠĠĠ ren2Ġ
che1 Ġdui4Ġ
Ġer3 Ġshi4Ġ
hu4 Ġbu4Ġ
Ġdi4Ġ tu2Ġ
Ġyuan2Ġ ben3
Ġchu1 Ġdao4Ġ
yin4Ġ ni2Ġ
Ġ 2007
Ġ 35
Ġ sun1Ġ
Ġ 2021Ġnian2Ġ
wu3 Ġshi4Ġ
gu3 Ġli4Ġ
shou1 Ġdao4Ġ
wa3 Ġer3Ġsheng3Ġ
shi3Ġ shang4Ġ
shou3Ġ du1
xin4Ġ yang3
Ġ ku4Ġ
guo4 ĠleĠ
guan3 Ġzhi4Ġ
luo4 Ġcheng2Ġ
Ġgong1Ġ li3ĠdeĠ
zhu3Ġyi4Ġ zhe3Ġ
4 Ġge4Ġ
Ġwei4Ġ yuan2Ġ
Ġyi3 Ġyu2Ġ
guo4Ġ du4Ġ
guang3Ġ chang3
yan2 Ġren2Ġ
xian3 Ġzhu4Ġ
guo2Ġ wu4Ġ
Ġshi2Ġyan4 Ġshi4Ġ
Ġsi1Ġling4 Ġbu4Ġ
shi3 Ġren2Ġ
jiang1 Ġyu2Ġ
du4 Ġhe2Ġ
bi4 ĠdeĠ
mai4 Ġke4Ġ
ba Ġ
Ġdi4Ġ liu4Ġ
zhuan1Ġ ye4
wang4Ġ yuan3Ġ
xi1 Ġdi4Ġ
shang4 Ġxian4Ġ
si4 ĠdeĠ
xiu1 Ġdao4Ġ
si Ġ
Ġda4Ġ gong1Ġ
ge2Ġ li2Ġ
Ġfu4Ġ jin4ĠdeĠ
bei4Ġ cheng1Ġwei2Ġ
shao4Ġ nv3Ġ
yan2 Ġzhi4Ġ
dong1Ġ jing1
yu2 Ġhe2Ġ
xiang1Ġ guan1ĠdeĠ
deng3Ġ deng3Ġ
fan3Ġ hui2
ĠĠĠ yue4Ġ
di4 Ġhe2Ġ
fang4 Ġzai4Ġ
Ġji2Ġ shi3Ġ
jian1Ġ yu4Ġ
mian3Ġ fei4Ġ
jiao3 Ġdu4Ġ
zuo3 Ġyi4Ġ
Ġcheng2Ġ ben3Ġ
wei2Ġ zhu3Ġ
Ġ zhen1
th Ġ
Ġxing2Ġ dong4
cai3Ġ qu3
guan3Ġli3Ġ ju2Ġ
tai2Ġbei3 Ġshi4Ġ
Ġ 29
Ġ dang3Ġ
ĠĠĠ dang1Ġ
Ġyue4Ġ dui4Ġ
Ġjun1Ġ qu1Ġ
bi4Ġ mian3
kong1Ġ jian1
xing2Ġ tai4Ġ
ao4 Ġer3Ġ
she4 Ġbei4Ġ
xiang1 Ġshi4Ġ
ka3 Ġsi1Ġ
cai3Ġ fang3
fei4Ġ chu2Ġ
shan1 Ġxian4Ġ
Ġer2Ġ fei1Ġ
luo4Ġ shan1Ġji1Ġ
jia4Ġ shi3Ġ
Ġ 25
xi1Ġ bei3Ġ
hen3Ġ kuai4Ġ
zheng4Ġfu3 ĠdeĠ
shang4 Ġdi4Ġ
dao3 Ġshang4Ġ
huai4 Ġ
Ġzai4Ġ he2Ġ
Ġke4 Ġer3Ġ
Ġshe4 Ġyu2Ġ
gai3Ġ shan4Ġ
Ġ 27
ci3 Ġtong2Ġshi2Ġ
Ġ shen2
Ġ 2002Ġnian2Ġ
ĠĠĠ 2009
kai1 Ġgong1Ġ
tong1 Ġzhi1Ġ
li3Ġ lun4
bo1Ġ li2Ġ
Ġ kai3Ġ
ci2Ġ zhi2Ġ
Ġ cai4
Ġ feng4Ġ
jiu4 Ġyuan2Ġ
wa2 Ġ
ĠĠĠ si1Ġ
ci2 ĠdeĠ
hun2 Ġ
Ġdi4Ġyi1Ġ ci4
Ġ pu3
Ġ xie4
ĠĠĠ zheng4Ġ
he2 Ġzai4Ġ
ye3 Ġhui4Ġ
Ġzhi1 Ġshi4Ġ
hai3Ġ an4
e2Ġluo2Ġ si1ĠdeĠ
ĠĠĠ c
ĠĠĠ Ch
kou3 ĠdeĠ
Ġyi4Ġ jian4Ġ
Ġ yong3
Ġwei4Ġ zai4Ġ
shen2Ġ me
Ġ suo1Ġ
ĠĠĠ Re
Ġ diao4Ġ
zheng1 Ġyue4Ġ
ti4 Ġdai4Ġ
Ġren2Ġ da4Ġ
ji4Ġ suan4
chu4Ġ zhang3Ġ
chong1Ġ tu1
Ġ xiao3Ġshi2Ġ
jiu3 ĠdeĠ
jin3 Ġyou3Ġ
qiang2 Ġzhi4Ġ
Ġshi2Ġ xian4
jian1Ġ du1Ġ
yin3Ġ yong4Ġ
Ġ se4Ġ
ĠĠĠ Ma
ying3 Ġshi4Ġ
ti2Ġchu1Ġ leĠ
wai4Ġjiao1 Ġbu4Ġ
eng4 Ġ
xue2 Ġzhong1Ġ
qiang2 ĠdeĠ
Ġge4 Ġguo2Ġ
min2Ġzhu3Ġ dang3
Ġ jue2Ġding4Ġ
shan1 Ġdi4Ġ
1966 Ġnian2Ġ
Ġ mi4Ġ
ĠĠĠ ba1Ġ
feng1 Ġfu4Ġ
xi3Ġ huan1Ġ
h Ġ
Ġ ban3Ġ
si1 Ġshi4Ġ
nuo2 Ġwei1
1937 Ġnian2Ġ
Ġzhu3Ġ yan3Ġ
Ġ kai3
ĠĠĠ gu4Ġshi4Ġ
Ġsi1Ġ ma3Ġ
Ġhao4 Ġxian4
ceng2 Ġyu2Ġ
Ġge4Ġ zhong3
zhang3Ġ guan1Ġ
zong1Ġ jiao4
xiao3Ġxing2Ġ xing1
Ġ e2Ġ
tian1 Ġhou4Ġ
Ġshi2Ġ hou4Ġ
mo4Ġxi1Ġ ge1
1974 Ġnian2Ġ
Ġyou3Ġ xie1
pu3Ġ bian4
Ġfen1Ġ bie2Ġ
bu4ĠdeĠ cun1Ġzhuang1Ġ
ĠĠĠyi3Ġ xia4
guan3 ĠdeĠ
li2 Ġmi3Ġ
zan4 Ġzhu4Ġ
fa1Ġ dong4Ġji1Ġ
ce4Ġ liang2Ġ
yin4Ġ shua1
ĠĠĠ Co
cu4 Ġjin4Ġ
Ġyue4Ġ lai2Ġyue4Ġ
liu2Ġ yu4Ġ
lie4Ġ ru4Ġ
Ġ kou3Ġ
kou4 Ġ
gu3Ġ lao3
a1Ġ gen1Ġ
ma3Ġlai2 Ġxi1Ġya4
ĠĠĠ wei2Ġ
ta1 Ġzai4Ġ
jiang4 Ġyu3Ġ
liao3 Ġjie3Ġ
jia1Ġ ting2Ġ
che1Ġ xiang1Ġ
Ġ fa3
Ġ lei2
ĠĠĠ f
fu4 Ġshi4Ġ
lie4 Ġchu1Ġ
ĠdeĠ ju4Ġ
Ġcheng2Ġ xian4
Ġzhi1 Ġdi4Ġ
jing1Ġ dian3Ġ
Ġdan4Ġ bai2Ġ
ting2Ġ che1Ġ
Ġ pa4Ġ
ying1 Ġli3Ġ
yun3 Ġshi2Ġ
1946 Ġnian2Ġ
Ġxian4Ġ shang4Ġ
can1Ġ xuan3Ġ
qiang2Ġ du4Ġ
su1 Ġwei2Ġ
guan4 Ġjun1
Ġbu4Ġ shao3
Ġzhi1 Ġjia1Ġ
chuang4Ġ zuo4ĠdeĠ
Ġ tiao2Ġ
Ġ chuan1Ġ
ĠĠĠ fu4Ġ
Ġke4 Ġhe2Ġ
bi4Ġ mian3Ġ
Ġ Q
shu i2
tong2Ġ xing4Ġ
zao3 Ġshang4Ġ
ni4 Ġ
1955 Ġnian2Ġ
zhu3Ġ ti2
Ġxiang1Ġ dang1
sen1Ġ lin2
Ġfu4Ġze2Ġ guan3Ġxia2Ġ
Ġ ì
la1 ĠdeĠ
ming2Ġ dan1Ġ
zhan4Ġ tai2Ġ
cai2Ġ liao4
guo2 Ġshi4Ġ
hu1 Ġyu4Ġ
Ġgong1Ġ ying4Ġ
jian1Ġ ren4Ġ
bo2Ġ lin2Ġ
dian4Ġshi4Ġ tai2
xuan3Ġju3 Ġzhong1Ġ
xia4 Ġzai4Ġ
Ġyi1Ġ zhi2Ġ
guan1Ġ fang1
suo3Ġ you3ĠdeĠ
jing3Ġ gao4Ġ
jian4Ġ zhu4
di1Ġ qi4Ġ
ĠĠĠzeng1Ġ zu3Ġ
Ġ kao3Ġ
hai2 Ġzai4Ġ
1954 Ġnian2Ġ
nan2Ġ zi
ti3Ġyu4Ġ chang3Ġ
guang3 Ġzhou1
sao1 Ġ
lian2Ġ jie1
a3 Ġ
la1 Ġde2Ġ
shu1 Ġchu1Ġ
Ġgong1Ġ neng2
yin3Ġ ru4Ġ
zhao4Ġ pian1Ġ
lan2 Ġxi1Ġ
dun4 ĠdeĠ
Ġbu4Ġ man3Ġ
Ġqiu2 ĠdeĠ
yin2Ġ pai2Ġ
yao2Ġ gun3
Ġ m
Ġ t
ceng2 ĠdeĠ
Ġer2Ġgai1Ġ di4ĠdeĠ
nuo2 Ġwei1Ġ
guo2Ġ wang2Ġ
Ġyu3Ġ qi2Ġ
qi1Ġ zi3
an1Ġ zhuang1Ġ
Ġ xu4Ġ
xu4 Ġli4Ġya4
shen1Ġ qing3
zao3Ġ qi1ĠdeĠ
ĠĠĠ 4
shi2 Ġhe2Ġ
tu2 ĠdeĠ
mou3Ġ xie1
fei1 Ġxing2
Ġji4Ġ lu4
Ġchu1Ġ yan3Ġ
Ġ ni3
zhi1 Ġshi2Ġ
zhan4 Ġdi4Ġ
qiu2 Ġhui4Ġ
Ġbei4Ġ er3
Ġ000 Ġ
zhan4 Ġshi2Ġ
zao1 Ġyu4Ġ
Ġwei4Ġ neng2
xia4Ġ lai2Ġ
Ġ zu2
Ġhe2Ġ gu3Ġ
Ġcheng2Ġ leĠ
Ġyi3Ġ qian2Ġ
Ġji4Ġ yi4Ġ
Ġke4 Ġli4Ġ
fa1Ġ sheng1ĠdeĠ
shi1Ġ qu4Ġ
gu3Ġ la1Ġ
Ġ shun4
qian2 Ġhou4Ġ
zu3 ĠdeĠ
bian1 Ġyuan2Ġ
mo4 Ġer3Ġ
zhong1Ġ yang1Ġ
Ġjia1Ġ ting2
Ġxiang1Ġ tong2Ġ
xing1Ġ qi1
you1Ġ xiu4
Ġyi3Ġse4Ġ lie4Ġ
dui4 Ġyuan2Ġ
te4 Ġli4Ġ
Ġshi2Ġ bao4Ġ
shan1Ġdong1Ġ sheng3Ġ
Ġzhao1 Ġhe2Ġ
Ġ zu2Ġ
ch ong3
Ġdui4Ġ ci3Ġ
ĠĠĠgai4Ġ yao4Ġ
Ġ 2006
san1 Ġda4Ġ
mi3 ĠdeĠ
niang2 Ġ
tai4Ġ kong1Ġ
Ġzi4Ġ you2
bao3 ĠdeĠ
Ġjun1 Ġdi4Ġ
Ġsheng1Ġ ming2Ġ
Ġzhi3 Ġzai4Ġ
Ġ qing3Ġ
Ġ 2000Ġnian2Ġ
zha4 Ġdan4Ġ
Ġ Re
wang3 Ġshang4Ġ
ta3 Ġer3Ġ
Ġdi4Ġ zhen4Ġ
xia4Ġ jiang4Ġ
ling3Ġ dao3ĠdeĠ
yan2Ġjiu1 Ġsheng1Ġ
hui2Ġ gui1Ġ
1 Ġge4Ġ
te4 Ġer3Ġ
zhai1 Ġ
Ġxian4 Ġyou3Ġ
Ġyuan2Ġ yin1
Ġ jie1
wu1 Ġsi1Ġ
hao3 Ġping2Ġ
ĠdeĠ zhu3Ġyao4Ġ
Ġzhong1Ġ jian1Ġ
pu3Ġ cha2Ġ
h en4
Ġ ye4
Ġnian2Ġ qing1Ġ
duo1Ġ ci4
Ġ fou3
Ġ wai4
tong2 Ġming2Ġ
te4 Ġyou3Ġ
bian1 Ġwei4Ġ
Ġji2Ġ bing4Ġ
bo2Ġ jue2Ġ
Ġwei1Ġ lian2Ġ
30 Ġnian2Ġ
Ġxing2 Ġbu4Ġ
qin1Ġ wang2Ġ
kuai4Ġ su4
zan4Ġ ting2Ġ
shi1 Ġgong1Ġ
dang1 Ġnian2Ġ
cun2 ĠdeĠ
Ġ guang3Ġdong1Ġ
qing2 ĠdeĠ
Ġshi4Ġ yi1Ġbu4Ġ
Ġxin1Ġ zeng1Ġ
gai3Ġ zhi4Ġwei4Ġ
ĠĠĠdi4Ġ yi1Ġ
gang3 Ġyuan2Ġ
fei4Ġ yan2Ġ
Ġ 40
Ġ guan3Ġ
Ġ xian1Ġhou4Ġ
fen3 Ġsi1Ġ
zhi3Ġ kong4Ġ
Ġ cai2
mi4 ĠdeĠ
xun1 Ġ
che1Ġ liang4
Ġ song4
shen1 Ġshi4Ġ
da2 Ġzhou1Ġ
pei4 Ġbei4Ġ
ying3Ġ xiang4Ġ
Ġshou3Ġ ci4Ġ
u Ġ
zhui4 Ġ
fang1Ġ mi3Ġ
ĠB Ġ
Ġ X
san1 Ġren2Ġ
san1 Ġge4
100 Ġ
ĠdeĠ hua4Ġ
da4Ġ qu1Ġ
sheng3Ġ jie1Ġrang3Ġ
Ġzi4Ġ dong4Ġ
Ġ re
Ġ Jo
ĠĠĠ 0
zhe3 Ġhe2Ġ
beng1 Ġ
te4Ġ zheng1
can1Ġ shu4Ġ
Ġzui4 Ġda4Ġ
rui4Ġ dian3Ġ
Ġ 45
wu3 Ġge4Ġ
Ġzhe4Ġ yang4Ġ
Ġjin4Ġ zhi3Ġ
tui1Ġ guang3Ġ
Ġmai4 Ġke4Ġ
lu4Ġyi4Ġ si1Ġ
Ġ mo2
Ġbu4Ġ yi1Ġ
Ġping2Ġ lun4Ġ
jing4Ġnei4Ġ gong4Ġyou3Ġ
ĠĠĠ jin1Ġ
si4 Ġshi4Ġ
tai4 ĠdeĠ
1947 Ġnian2Ġ
zhan3Ġ lan3Ġ
you2 Ġxing2Ġ
sheng4 Ġchu1Ġ
YouTu be
Ġshe4Ġhui4Ġ zhu3Ġyi4Ġ
zhe3 Ġhui4Ġ
huang1 Ġ
Ġshi4Ġyi1Ġ ke1Ġ
Ġjie2Ġ shu4Ġ
Ġshuang1Ġ fang1Ġ
Ġzai4Ġyi4Ġ qi3Ġ
ĠĠĠ 16
la1 Ġhe2Ġ
hui2 Ġguo2Ġ
Ġbu4Ġ lai2Ġ
Ġshi2Ġ xing4Ġ
Ġji4Ġ zai3
xin1Ġ wen2
bao3Ġ luo2Ġ
jing4Ġ zheng1
lv4Ġ se4Ġ
Ġ 200
Ġji2Ġ hou4Ġ
Ġxi1Ġ er3Ġ
Ġjiang1Ġ su1Ġ
wu2Ġxian4Ġ dian4Ġshi4Ġ
Ġ guo1
Ġ shan4Ġ
Ġ cai3Ġyong4Ġ
20 Ġnian2Ġ
50 Ġnian2Ġ
Ġzai4Ġ 18
Ġdi4Ġ zhi4Ġ
Ġzhi4Ġ yi2Ġ
fei4Ġ yong4Ġ
ĠĠĠ 2019Ġnian2Ġ
ying4 Ġji2Ġ
Ġbei4Ġ po4Ġ
du4Ġ shi3Ġ
chan3Ġsheng1Ġ leĠ
ma3 Ġke4Ġsi1Ġ
1973 Ġnian2Ġ
Ġguo2Ġjia1Ġ dui4Ġ
tie3Ġlu4Ġ che1Ġzhan4Ġ
Ġdong4Ġ wu4Ġ
Ġ Ï
Ġ hu2Ġnan2Ġ
ku1 Ġ
Ġgong1Ġ qing3Ġ
Ġjia1Ġ zu2
chuang4Ġ zao4Ġ
wang2 Ġwei4Ġ
tui1 Ġjian4Ġ
1971 Ġnian2Ġ
lian2Ġ ren4Ġ
bei3Ġ fang1Ġ
ying1Ġ chi3Ġ
san1 Ġji2Ġ
lei4 Ġxing2ĠdeĠ
Ġnian2Ġ ling2Ġ
Ġta1Ġ ceng2Ġ
zhang3Ġ zi3Ġ
Ġgong1Ġ gong4
Ġda4Ġ dao4
fu2Ġ luo2Ġli3Ġ
nong2Ġ cun1Ġ
Ġshi4Ġzhong1Ġ hua2Ġren2Ġmin2Ġgong4Ġhe2Ġguo2Ġ
Ġceng2Ġ ren4
ying3Ġxiang3 Ġli4Ġ
ĠdeĠzuo4Ġ biao1Ġwei4Ġ
Ġ ba3Ġ
chong1 Ġji1Ġ
Ġshi4Ġ hui4Ġ
fang2Ġ wu1Ġ
qun2Ġ dao3
k ĠĠĠ
Ġ 2022Ġnian2Ġ
Ġzai4Ġ xin1Ġ
te4Ġ dian3Ġ
tian1Ġ ran2Ġ
qing1Ġ chao2Ġ
chu1Ġ qi1Ġ
gu4Ġ ding4Ġ
ĠĠĠjia1Ġ ting2Ġ
Ġ xi2Ġ
lv4 ĠdeĠ
si3 Ġyu2Ġ
Ġzai4Ġ ta1ĠdeĠ
fu4Ġ jin4
she4Ġ hui4
Ġ ke3Ġneng2Ġ
ji2 Ġbu4Ġ
sheng1 Ġzhi4Ġ
cong2 Ġwei4Ġ
fang1Ġ xiang4
te4Ġ la1Ġ
jing4Ġ nei4
geng4Ġ duo1ĠdeĠ
xin1 Ġshi4Ġ
1977 Ġnian2Ġ
Ġyi1Ġ ren2Ġ
Ġdao4 Ġhe2Ġ
gao1Ġ da2Ġ
Ġ Co
Ġ chu3Ġ
Ġ shen3Ġ
Ġshi2Ġ zhi4Ġ
Ġdao4 Ġyi1Ġ
qi4Ġ xuan2Ġ
Ġse ctionĠĠĠ
Ġ mao2Ġ
Ġ xu3Ġduo1
ban1 ĠdeĠ
qu3Ġ xiao1
Ġ nai3
xuan3 Ġchu1Ġ
Ġ In
ĠĠĠ shi3Ġyong4Ġ
yi2 Ġdao4Ġ
shou4 Ġquan2Ġ
zhou2 Ġ
zhong1Ġ yang1
sheng1Ġ ji1Ġ
guan1Ġ ce4Ġ
Ġye3 Ġbu4Ġ
qing1Ġ shao4Ġnian2Ġ
wan2Ġ zheng3Ġ
Ġshi4Ġ ji4ĠdeĠ
Ġyou3Ġ da4Ġ
Ġ fu3Ġ
jia1 Ġgong1Ġ
deng3 ĠdeĠ
luo4 Ġsi1Ġ
Ġshi4Ġ you2
fu4Ġ jin4ĠdeĠ
mei3Ġguo2Ġ ren2Ġ
zhang4Ġ fu1Ġ
xue2 Ġbu4Ġ
tie1 Ġ
Ġyou3Ġ zhu4Ġ
Ġ qiu1Ġ
yi4 Ġbu4Ġ
shi3 Ġyu2Ġ
pu4 Ġ
guo2Ġ hui4Ġ
xi1Ġ bei3Ġbu4Ġ
Ġta1Ġ ren4Ġwei2Ġ
mu4Ġ ni2Ġ
Ġtong2Ġ pai2Ġ
Ġzhi3 Ġshi4Ġ
kuo4Ġ zhan3
si3 Ġxing2Ġ
qing4 Ġzhu4Ġ
zhan4Ġ ling3
lian2Ġ jie2Ġ
Ġtong2Ġ yang4Ġ
ĠĠĠgen1Ġju4Ġ 2020Ġnian2Ġmei3Ġguo2Ġren2Ġkou3Ġpu3Ġcha2ĠdeĠshu4Ġju4Ġ
ai4 ĠdeĠ
bing4 Ġwei4Ġ
zui4 Ġwei4Ġ
hai3 Ġshang4Ġ
reng2 Ġzai4Ġ
guo2Ġ li4Ġ
fen1Ġ pei4Ġ
huang2Ġ se4Ġ
xiao1Ġ liang4Ġ
zhuan1Ġ men2Ġ
zeng1Ġjia1Ġ leĠ
â Ĩ
Ġ 2024
guo4 Ġyu2Ġ
Ġzai4Ġ ta1Ġ
shang4Ġhai3 Ġshi4Ġ
¡ Ġ
Ġ shui3
gu n4
quan2 ĠdeĠ
si4 Ġda4Ġ
zong3 Ġhui4Ġ
hui2 Ġhe2Ġ
pian4 ĠdeĠ
lao3 Ġshi1Ġ
zong4 Ġ
Ġyi1Ġ zhi4Ġ
Ġchu1Ġ fa1Ġ
se4Ġ fu1Ġ
xie2Ġ ding4Ġ
xiang1 Ġji4Ġ
qie4 Ġer3Ġ
jing1Ġ ji4
ban1Ġ jiang3Ġ
ĠĠĠ s
fang2 Ġwei4Ġ
ĠS Ġ
Ġ 9Ġ
Ġ 2003Ġnian2Ġ
Ġli4Ġ shu3Ġ
Ġbing4Ġ ru4Ġ
deng1Ġ chang2Ġ
lei4Ġsi4 ĠdeĠ
Ġ tie3Ġ
xing4 Ġshi4Ġ
dui4Ġ shou3Ġ
ĠdeĠji4Ġ lu4Ġ
Ġji2Ġ xing2Ġzheng4Ġ
Ġli4Ġ ziĠ
Ġye3 Ġhui4Ġ
can1Ġ sai4
Ġyi3 Ġzhi4Ġ
lai2Ġzi4 Ġyu2Ġ
Ġ SA
fu2 Ġli3Ġ
dan1 Ġyuan2Ġ
ck Ġ
zhuo1 Ġ
zhi2Ġ ye4
jiang3Ġ shu4Ġ
zhao4Ġ kai1
Ġa1Ġ la1Ġ
Ġ000 Ġren2Ġ
Ġ han
Ġ bao1Ġhan2Ġ
ma1 Ġ
yi1Ġ xie1Ġ
hai3Ġ ba2Ġgao1Ġ
shuang1Ġ da3Ġ
Ġ fa1Ġxing2Ġ
ĠĠĠ w
fu4 Ġjia1Ġ
qi4 Ġhe2Ġ
xing4Ġ neng2Ġ
cun2Ġ zai4ĠdeĠ
zhuang4 Ġji1Ġ
Ġjian4Ġ kang1Ġ
na4Ġ cui4
Ġxiang1Ġ dui4Ġ
g eng3
Ġ ku4
he2 Ġwei4Ġ
sheng3 Ġdao4Ġ
lao2 Ġgong1Ġ
xi1Ġ nan2Ġbu4Ġ
Ġke4Ġ yun4Ġ
ma3Ġ la1Ġ
gai3Ġ ge2
nan2Ġji2Ġ zhou1ĠdeĠ
Ġ an4
ĠĠĠ de
wa1 Ġ
shou3Ġ bo1Ġ
ying1Ġ gai1
mei3 Ġjun1Ġ
ba1 Ġer3Ġ
chuang4 Ġxin1Ġ
tuo2 Ġ
Ġyou3Ġ guan1
zheng4Ġ xie2Ġ
Ġta1Ġ dui4Ġ
shan1Ġ mai4Ġ
Ġsi4Ġ chuan1Ġ
hong1Ġzha4 Ġji1Ġ
ĠĠĠran2 Ġer2Ġ
Ġhan tĠ
chang2 Ġjian4Ġ
chuan2 Ġzhi1Ġ
Ġzhi1Ġ zhan4Ġ
Ġxiao3Ġ shuo1Ġ
Ġ bai2
yi1 Ġbu4Ġfen4
dian4 ĠdeĠ
fei1 Ġzhou1
1962 Ġnian2Ġ
Ġxian4 Ġzhi1Ġxian4Ġ
sha1Ġ si3Ġ
fa1Ġsheng1Ġ leĠ
shu3ĠdeĠ zhi2Ġwu4Ġ
Ġ e2
ĠĠĠ dan4
zhi2 Ġzhi4Ġ
yao4 ĠdeĠ
II Ġ
quan3 Ġ
lou4 Ġ
yan2Ġ zhong4ĠdeĠ
Ġling4Ġ wai4
li3 Ġbu4Ġ
mi4 Ġsi1Ġ
qiao3 Ġ
Ġjian4 Ġshi4Ġ
suo3Ġ shu3
yun4Ġdong4 ĠdeĠ
m ao3
xi1 Ġshi4Ġ
tou2 Ġbu4Ġ
dui4Ġ wu3Ġ
Ġyou2Ġ ci3Ġ
zu3Ġ zhi3Ġ
Ġdong1Ġ jing1Ġ
fang4Ġ qi4
jian1 Ġshi4Ġ
na4 Ġde2Ġ
nu4 Ġ
Ġ che1Ġzhan4
jiang1 Ġta1Ġ
ĠdeĠ gu4Ġshi4Ġ
jiang4Ġ di1
Ġshi4Ġyi4Ġ da4Ġli4Ġ
l uo3
hui4 Ġyi3Ġ
can1Ġ ting1Ġ
Ġ sa4
Ġ 60
hei1 Ġren2Ġ
ji1Ġ ben3Ġ
Ġzhi1Ġ liu2Ġ
zhu3Ġ xi2
shuai4Ġ ling3Ġ
tu3Ġer3 Ġqi2
ĠĠĠ The
hui4 Ġshi4Ġdi4Ġ
huan2 Ġxing2Ġ
Ġzai4Ġ yu3Ġ
Ġgong1Ġ lu4
Ġde2 Ġdao4ĠleĠ
Ġshe4Ġ ji4ĠdeĠ
bu4Ġ fen4Ġ
bang1Ġ zhu4
na2Ġ po4Ġ
W Ġ
ĠĠĠ 2007
shang4 Ġbu4Ġ
zheng3 Ġge4
xiang1Ġ bi3Ġ
Ġshi4Ġyi1Ġ zuo4Ġ
zhou1Ġ bian1Ġ
xia4Ġxia2 Ġyi3Ġxia4
Ġ Ro
ĠĠĠ 3Ġyue4Ġ
Ġxian4Ġ jin1Ġ
hang2Ġ tian1Ġ
Ġshi4Ġjie4Ġ bei1Ġ
yan2 Ġshi2Ġ
zhang3 Ġda4Ġ
luo2 Ġde2Ġ
Ġda4Ġ liang4
qian1Ġ yue1Ġ
zi4 Ġwei4Ġ
Ġli4Ġ yong4
yi2Ġ chan3
ge2 Ġer3Ġ
Ġxing2Ġ shi3Ġ
v Ġ
Ġ ji3Ġ
xin1 Ġren2Ġ
zong3Ġ cai2Ġ
chuan2Ġ mei2Ġ
Ġma3 Ġli4Ġ
zhi3 ĠdeĠ
po r
Ġnan2Ġ ziĠ
chu1Ġ sheng1Ġyu2Ġ
Ġsheng1Ġzhang3 Ġyu2Ġ
ci3 Ġshi2Ġ
Ġgong1Ġ chi3
Ġqiu2 Ġhui4Ġ
hai3Ġba2Ġgao1Ġ du4Ġwei4Ġ
ĠĠĠ 2018Ġnian2Ġ
ben3 Ġxian4Ġ
zhe3 Ġwei4Ġ
nuo4 Ġyi1Ġ
cong1 Ġ
Ġji2Ġ lin2Ġ
xiang1Ġ tong2ĠdeĠ
Ġzhong1Ġguo2Ġ guo2Ġmin2Ġ
Ġdi4Ġ 1Ġ
ya4Ġ mu4Ġ
Ġzhe4Ġ shou3Ġ
guang1Ġ xu4Ġ
can1Ġyu4Ġ leĠ
Ġ zhong4
ji4 Ġzai4Ġ
wu3 Ġyue4Ġ
dan1 Ġyi1Ġ
bie2 ĠdeĠ
1939 Ġnian2Ġ
Ġhe2Ġ li3Ġ
you2Ġ tai4Ġren2Ġ
ĠdeĠcheng2Ġ zhen4Ġ
ĠĠĠ 12
la1 Ġer3Ġ
xun2 Ġqiu2Ġ
1938 Ġnian2Ġ
Ġbu4Ġ er3Ġ
Ġxing2Ġ xiang4Ġ
Ġwei2Ġ chi2Ġ
yin3Ġ zhong3Ġ
Ġ qin2Ġ
e2 Ġwei4Ġ
bu2 Ġyao4Ġ
ay Ġ
Ġ r
Ġ xu1Ġyao4Ġ
shang1 ĠdeĠ
1965 Ġnian2Ġ
Ġbu4Ġ di2Ġ
Ġyu2Ġ lei4Ġ
mei3Ġ yuan2ĠdeĠ
ying2Ġ ye4Ġ
Ġguan1Ġ fang1Ġ
ĠĠĠ 5Ġyue4Ġ
1936 Ġnian2Ġ
Ġzai4Ġ gai1Ġ
Ġguo2Ġ min2
Ġjiang1 Ġqi2Ġ
wei3Ġfu4Ġ shu1Ġji4Ġ
c ro
Ġ dou1
wu3 Ġdi4Ġ
1959 Ġnian2Ġ
si1Ġ lan2Ġ
Ġke4Ġ la1Ġ
jie1Ġ ren4Ġ
zhi2 Ġyuan2Ġ
Ġyi1Ġ liao2Ġ
ti3Ġ yu4
xiao4Ġ ying4Ġ
qian1Ġ ding4Ġ
Ġjiao4Ġ yu4
Ġ huan2Ġ
1967 Ġnian2Ġ
Ġyi1Ġ ci2Ġ
Ġqi2Ġzhong1Ġ nan2Ġxing4Ġ
di3Ġ kang4Ġ
Ġliu2Ġ yu4Ġ
Ġ bao4
Ġ Mar
Ġ ling3Ġ
yun4 Ġhe2Ġ
ge1 ĠdeĠ
huai2 Ġyi2Ġ
Ġwei4Ġ ci3Ġ
Ġdi4Ġ mian4Ġ
zhi3Ġ ding4Ġ
ceng2Ġ shui3Ġyu4Ġ
rong2Ġ na4Ġ
gu3Ġfen4 Ġyou3Ġxian4Ġgong1Ġsi1Ġ
zhuan4ĠdeĠ xiao3Ġxing2Ġxing1Ġ
Ġhou4Ġ qi1Ġ
Ġke4Ġ lai2Ġ
jing4Ġ sai4Ġ
ĠĠĠ ping2Ġjia4Ġ
you2 Ġqi2Ġ
ge1 Ġju4Ġ
liang2 Ġshi2Ġ
1935 Ġnian2Ġ
Ġshi4Ġ nei4Ġ
yue4Ġ nan2Ġ
ĠdeĠdi4Ġ er4
mo4Ġsi1Ġ ke1Ġ
Ġ liang3Ġge4Ġ
you2 Ġren2Ġgong1Ġ
zhang3 Ġwei4Ġ
Ġshi4Ġ xi1Ġ
Ġyi1Ġ zhi1Ġ
Ġshe4 Ġji1Ġ
ba1Ġ la1Ġ
gan3Ġ lan3
Ġjian4Ġli4Ġ leĠ
Ġ wu1Ġke4Ġlan2Ġ
chao2 ĠdeĠ
tui1 Ġchu1ĠdeĠ
ruan3 Ġti3Ġ
ĠĠĠ chu2ĠleĠ
jiao4 Ġyu2Ġ
yang2 Ġxian4Ġ
men2 ĠdeĠ
Ġshi2Ġ yong4Ġ
Ġ su2
zhong1Ġ xin1Ġ
shu4 Ġshi4Ġ
Ġjian4 Ġwei4Ġ
Ġchao2Ġ xian1Ġ
Ġ qian1
Ġer3 Ġde2
shuo4Ġshi4Ġ xue2Ġwei4Ġ
bian1 Ġhao4Ġwei4Ġ
wei2Ġ zhi3Ġ
li2Ġ ziĠ
hua2Ġsheng4Ġ dun4
zhi1 Ġyuan2Ġ
ge4 Ġdi4Ġ
Ġhe2Ġ ji2Ġ
Ġzhi4Ġ zao4
Ġyi1Ġ tiao2Ġ
kai1Ġ zhan3Ġ
fa3Ġ ting2Ġ
Ġqiu2Ġ chang3Ġ
qun2Ġ ti3Ġ
leĠyi1Ġ xie1Ġ
Ġgong1Ġcheng2Ġ shi1Ġ
Ġ tui1Ġ
Ġ 11Ġ
a1 Ġer3
wu4 Ġzhong1Ġ
meng2 Ġjun1Ġ
bai3 Ġnian2Ġ
luo2Ġ bo2Ġte4Ġ
zong3Ġ jian1Ġ
Ġjie2Ġ gou4Ġ
Ġzai4Ġdi4Ġ er4Ġ
ping2Ġjun1Ġ hai3Ġba2Ġgao1Ġdu4Ġwei4Ġ
ĠĠĠ jing1Ġji4Ġ
zhi2 Ġli4Ġ
Ġwei4Ġ ming2Ġ
Ġwei4Ġyu2Ġ zhong1Ġhua2Ġren2Ġmin2Ġgong4Ġhe2Ġguo2Ġ
Ġren2Ġmin2Ġ bi4Ġ
du1Ġ du1Ġ
yang2 Ġgong1Ġ
ban4 Ġnian2Ġ
Ġxi1Ġ yin3Ġ
ben3Ġ tu3Ġ
chuan2Ġ bo1
jian3Ġ dan1Ġ
zhuang1Ġ jia3
Ġ han2
12 Ġnian2Ġ
gong1Ġ kai1Ġ
Ġyou3Ġ li4Ġ
Ġta1Ġ ye3
mian4Ġ lin2Ġ
huan4Ġ zhe3Ġ
Ġtong1Ġ guo4
Ġer2Ġgai1Ġdi4ĠdeĠ ping2Ġjun1Ġhai3Ġba2Ġgao1Ġdu4Ġwei4Ġ
Ġ you1Ġ
ch uo4
ĠĠĠ tian1Ġ
shi1 Ġren2Ġ
qi3 ĠleĠ
feng1 ĠdeĠ
zu2 Ġqiu2Ġdui4Ġ
ni2 Ġxi1Ġya4Ġ
cu4 Ġjin4
han3 Ġmo4
Ġzai4Ġ ri4Ġben3Ġ
lu4Ġ zhan4Ġ
jie1Ġ shou1Ġ
xun2Ġ huan2Ġ
Ġsui2Ġ zhe
li4 Ġzhong1Ġ
la4 Ġ
1953 Ġnian2Ġ
tu2Ġ xiang4Ġ
2010Ġnian2Ġ mei3Ġguo2Ġren2Ġkou3Ġpu3Ġcha2ĠdeĠshu4Ġju4Ġ
Ġ man3
ĠĠĠ andĠĠĠ
ji1 Ġshi4Ġ
chu1 Ġdao4Ġ
bo Ġ
yan3 Ġchu1
ying4 Ġdui4Ġ
Ġzhi1Ġ qian2
fa3Ġ lan2Ġ
yin3Ġzhong3Ġ zai1Ġpei2Ġ
Ġ yun2Ġnan2Ġ
Ġda4Ġ qiao2Ġ
gui1Ġ fan4Ġ
shen3Ġ cha2Ġ
Ġxi4Ġ tong3
fei1Ġlv4Ġ bin1
Ġ qing3
chu1 Ġren4Ġ
shuo1 Ġshi4Ġ
Ġji2Ġ shi3
dong4Ġ hua4
suo3Ġ chu4ĠdeĠhai3Ġba2Ġwei4Ġgao1Ġyu2Ġhai3Ġping2Ġmian4Ġ
sheng3Ġ wei3Ġ
Ġxin1Ġ zeng1
ka3Ġluo2Ġ lai2Ġ
yuan2 Ġdi4Ġ
shen1 Ġshang4Ġ
1963 Ġnian2Ġ
Ġzai4Ġ bei3Ġ
Ġxi1Ġ xi1Ġ
ru4Ġ qin1
hen3Ġ duo1
lie4 Ġshi4Ġ
km Ġ
ji1Ġ bai3Ġ
wei2Ġ er3
xue2Ġ xi2
Ġji1Ġ yin1Ġ
zhang3Ġ yue1Ġ
tong1Ġ xun4Ġ
na4Ġ xie1Ġ
gang3Ġ kou3Ġ
zhan3Ġ kai1
yong3Ġ jiu3Ġ
fen1Ġbie2 Ġwei4Ġ
you2Ġren2Ġgong1Ġ yin3Ġzhong3Ġzai1Ġpei2Ġ
Ġ lv3
qing2 Ġxing2Ġ
1941 Ġnian2Ġ
qing2Ġ xu4Ġ
ce4Ġ liang2
re4Ġdai4Ġ feng1Ġbao4Ġ
Ġ he4
ci4 Ġwei4Ġ
zheng3 Ġhe2Ġ
han3 Ġ
ju1Ġmin2Ġ dian3Ġ
ĠĠĠ 2017Ġnian2Ġ
ji4 Ġji2Ġ
gong3 Ġ
Ġzhi1Ġ fu3Ġ
Ġshe4Ġ hui4
Ġhan4Ġ zu2Ġ
yu3 Ġshi4Ġ
dong4 Ġgong1Ġ
lu3 Ġke4Ġ
Ġbu4Ġ jia1Ġ
Ġyi3Ġ shang4ĠdeĠ
Ġyu3Ġ ci3Ġtong2Ġshi2Ġ
mi3Ġ ya4Ġ
Ġzhu3Ġ chi2Ġ
Ġ bao1Ġ
Ġ xu3Ġ
si4 Ġming2Ġ
bing1 Ġbu4Ġ
tai1 Ġ
jie4Ġ shao4
ĠdeĠyi1Ġ xie1Ġ
di3Ġ da2
Ġsu1Ġ lian2Ġ
liao3Ġ jie3
Ġ i
Ġ ou1Ġzhou1Ġ
dui4 Ġhe2Ġ
yu4 Ġji4Ġ
Ġsi1Ġ ka3Ġ
shou3Ġ xi2Ġ
zu3Ġ cheng2
gao4Ġ su4Ġ
fa1Ġzhan3 ĠdeĠ
N BA
Ġ lei4Ġ
yi3 Ġhou4Ġ
zhi3 Ġyu2Ġ
ge2 Ġli4Ġ
deng1 Ġji4Ġ
1969 Ġnian2Ġ
ju4Ġ qing2Ġ
Ġwei2Ġ ya4Ġ
Ġzhong1Ġguo2Ġ da4Ġlu4ĠdeĠ
chuang4Ġ ban4Ġ
Ġzhi3 Ġchu1Ġ
xia4Ġxia2Ġyi3Ġxia4 Ġdi4Ġqu1Ġ
Ġ wan2Ġcheng2Ġ
ĠĠĠ 2016Ġnian2Ġ
chu1 Ġsheng1Ġ
liu2 ĠdeĠ
yan3 Ġsheng1Ġ
00 Ġ
Ġzhi4Ġ liao2
da4Ġ shi3Ġ
Ġxi1Ġ an1Ġ
zi1Ġ zhu4Ġ
fei1Ġ fa3Ġ
5 Ġge4Ġ
bai2 Ġzhi4Ġ
guai4 Ġ
Ġjiao4Ġ shou4Ġ
zhuang4Ġ kuang4
Ġbi4Ġ ye4Ġyu2Ġ
xun2Ġyang2 Ġjian4Ġ
fen1 Ġzhi1Ġyi1Ġ
wen2Ġ hua4ĠdeĠ
Ġao4 Ġda4Ġli4Ġ
xin1Ġjia1Ġ po1Ġ
Ġ cheng2Ġshi4Ġ
ĠĠĠ ji4Ġ
kong1 Ġjun1
shun4 Ġshi2Ġ
Ġbu4Ġ bian4Ġ
Ġchu1Ġ xi2Ġ
wei1Ġ xian3Ġ
Ġzhe4 Ġbu4Ġ
Ġnian2Ġ7Ġyue4Ġ 1Ġri4Ġ
wen4Ġti2 ĠdeĠ
Ġjin4Ġshi4Ġ chu1Ġshen1Ġ
ta Ġ
Ġzhi4Ġ shao3
Ġxian4Ġ ru4Ġ
nan2Ġ fang1Ġ
Ġbei4Ġ qi2Ġ
Ġqi2Ġzhong1Ġ nan2Ġ
mao2Ġze2Ġ dong1Ġ
Ġ deng1Ġ
ĠĠĠ 10Ġyue4Ġ
zi Ġhe2Ġ
da2 Ġer3Ġ
lu3 Ġshi4Ġ
Ġbu4Ġ zhi4Ġ
Ġdi4Ġ si1Ġ
zi1Ġ sheng3Ġ
pin2Ġ lv4Ġ
x ĠĠĠ
Ġ tang1
Ġ pai4Ġ
Ġ shen4Ġ
1957 Ġnian2Ġ
Ġzhong1Ġ zui4Ġ
Ġji4Ġ nian4
pan4Ġ jue2Ġ
Ġ15 Ġ
gong4Ġchan3Ġ zhu3Ġyi4Ġ
Ġãĥ ¼
Ġyi3Ġse4Ġ lie4
Ġ gai4Ġ
duo1 Ġge4
qu3 Ġjia1Ġ
yan2Ġ zhong4
ju2Ġ ju2Ġzhang3Ġ
â Ī
ĠĠĠ bei3Ġ
fan2 Ġzhi2Ġ
zhu3Ġ chang3Ġ
gan1Ġ su4Ġ
zi4Ġxing2Ġ che1Ġ
Ġ 2005
miao2 Ġhui4Ġ
Ġyi1Ġ mei2Ġ
fen1Ġ lei4
Ġping2Ġ jia4Ġ
duo1Ġ yang4Ġ
Ġnan2Ġ bei3Ġ
shao4Ġ jiang4Ġ
fei1 Ġli4Ġ
Ġsi1Ġ xiang3Ġ
gai3Ġ shan4
an4Ġ zhao4Ġ
dang1Ġ ju2Ġ
Ġshi4Ġzhong1Ġ xin1Ġ
Ġdan1Ġ ren4
ĠĠĠ ling4Ġwai4Ġ
hou4 Ġshi4Ġ
zhu4 Ġdi4Ġ
yin3 Ġshi2Ġ
Ġshi4Ġ wu1Ġke4Ġlan2
ai1Ġ na4Ġ
Ġgong1Ġzuo4 Ġshi4Ġ
can1Ġmou2 Ġzhang3Ġ
xiang4 Ġxi1Ġ
er4 Ġzhan4Ġ
ni ang4
bao3 Ġzheng4Ġ
xue1 Ġ
Ġcheng2Ġ shi4ĠdeĠ
Ġzhi1 Ġji4Ġ
Ġda4Ġ jia1Ġ
Ġming2Ġ cheng1
Ġtong2 Ġyi1Ġ
jiao1Ġ huan4Ġ
Ġhe2Ġbing4 Ġwei4Ġ
Ġ 80
yu3 Ġyi3Ġ
ze2 Ġyou3Ġ
ling2 ĠdeĠ
us Ġ
liu3 Ġ
ke1Ġ fu1
dang1Ġ xuan3
Ġgong1Ġkai1Ġ sai4Ġ
hong1Ġ zha4Ġ
sui4 Ġshi2Ġ
chuan4 Ġ
ru4Ġ xuan3
Ġ zheng3Ġ
Ġ 1998Ġnian2Ġ
ĠĠĠ zhu4Ġ
zhe4 Ġbu4Ġ
ji3 Ġhe2Ġ
Ġyu2Ġ di4Ġ
shang1Ġ wang2Ġ
bian1Ġ jing4Ġ
wu2Ġren2Ġ ji1Ġ
ĠĠĠ 2006
ci4 Ġda4Ġ
wan4 Ġren2Ġ
shen1Ġ zhen4
guang3Ġ gao4
R ĠĠĠ
Ġ zhuan1Ġji2Ġ
1961 Ġnian2Ġ
Ġdi4Ġ guo2ĠdeĠ
Ġjian4 Ġhe2Ġ
bao3Ġ cun2Ġ
bao4Ġ zhi3Ġ
gai3Ġ bian1Ġ
zeng1Ġ qiang2Ġ
O ĠĠĠ
Ġ ma
qun2 ĠdeĠ
Ġzai4Ġ ji1Ġ
Ġfen1Ġbie2 Ġwei4Ġ
Ġ pai2Ġ
ji1 Ġbu4Ġ
zhi1 Ġming2Ġ
ru4 ĠdeĠ
guo2Ġ nei4Ġ
Ġgong1Ġ zhan4Ġ
Ġyi3Ġ nan2Ġ
xian4Ġ fa3Ġ
zi3Ġ nv3Ġ
chui2 Ġ
Ġxing2Ġ cheng2ĠdeĠ
qu1Ġ fen1Ġ
ba1Ġ fa2
ban4Ġ yan3Ġ
ĠĠĠ 3Ġ
en3 Ġ
ci3 Ġzhi1Ġwai4Ġ
wai4 Ġwei2Ġ
luo4 ĠdeĠ
si1Ġ xiang3Ġ
Ġda4Ġ shi1Ġ
fa3Ġ ling4Ġ
Ġchu1Ġxian4Ġ leĠ
miao2Ġ shu4
ĠdeĠming2Ġ zi4Ġ
Ġ guang1
he2 ĠĠĠ
Ġdan4 Ġyin1Ġ
shou4Ġ hai4Ġ
sha1Ġ hai4Ġ
zhi3Ġhui1Ġ guan1Ġ
s ti
xia4 ĠdeĠyi2Ġge4Ġ
huo4 Ġshi4Ġ
Ġda4Ġ zhong4Ġ
ying1Ġ guo2ĠdeĠ
Ġ 20Ġ
wen2 Ġzhong1Ġ
ceng2 Ġshi4Ġ
bo1 Ġer3Ġ
Ġyue4Ġ tai2
Ġnan2Ġ jing1Ġ
cai2Ġ wu4Ġ
bing4Ġ mei2Ġyou3Ġ
jiao4Ġyu4 Ġbu4Ġ
gong4 Ġshi2Ġ
Ġwei4Ġ you2Ġ
mian4Ġ ti3Ġ
yan2Ġjiu1Ġ yuan4Ġ
Ġyuan2Ġ shi3Ġ
jing3Ġ guan1Ġ
6 Ġge4Ġ
â Ħ
Ġ xia2Ġ
nuo4 Ġsi1Ġ
1980 Ġnian2Ġdai4Ġ
1944 Ġnian2Ġ
ma3Ġ tou2Ġ
shi3Ġyong4Ġ leĠ
âĨ Ĵ
Ġsheng1Ġzhang3Ġyu2Ġ hai3Ġba2
n ong4
cheng1 Ġhao4Ġ
ĠdeĠ xiao3Ġ
Ġzai4Ġ ying1Ġguo2Ġ
zhan3Ġ lan3
Ġfen1Ġbie2 Ġshi4Ġ
gao1 Ġyuan2Ġ
sheng4 Ġdi4Ġ
fei2 Ġ
Ġdao4 Ġshi4Ġ
Ġda4Ġ xing2
jing1Ġ ying2
Ġ wu1
Ġ niu3Ġyue1
tao2 Ġyuan2Ġ
hou4Ġ lai2Ġ
pan4Ġ luan4Ġ
ma3 ĠdeĠ
dian3 Ġwei4Ġ
heng1 Ġ
Ġwei4Ġ bei4Ġ
Ġyi4Ġ si
Ġshang4Ġ shu1Ġ
Ġzhe4Ġ yang4ĠdeĠ
hang2Ġ ye4Ġ
Ġxin1 Ġjia1Ġ
Ġ Al
Ġ re4Ġ
Ġ chun1Ġ
ai4 Ġguo2Ġ
qing2Ġ jie2Ġ
Ġmu4Ġqian2Ġ shang4Ġwei4Ġ
Ġ 2000
tu1 Ġchu1Ġ
31 Ġ
Ġhe2Ġ fa3Ġ
Ġdao4 Ġbu4Ġ
ping2Ġ min2Ġ
guan1Ġ fei4Ġyan2Ġ
Ġping2Ġ lun4
tuan2Ġ zhang3Ġ
shang4 Ġyi1Ġ
luo2 Ġji2Ġ
Ġyi4Ġ ming2Ġ
Ġyi3 Ġshi4Ġ
Ġmi3 ĠdeĠdi4Ġqu1Ġ
Ġxian4ĠdeĠyi2Ġge4Ġ fei1Ġjian4Ġzhi4Ġdi4Ġqu1Ġ
tian1 Ġjia1Ġ
Ġyi4Ġ ji2Ġ
jiao4Ġ shou4
Ġzuo4Ġ chu1
tian1Ġ huang2Ġ
fang2Ġ zhi3Ġ
dou4Ġ zheng1Ġ
wu4Ġzhong3 ĠdeĠ
Ġ bu3Ġ
Ġ gai3Ġwei2Ġ
hong2 Ġjun1Ġ
Ġer3 Ġzai4Ġ
jing1Ġ guo4
Ġ yan4Ġ
ka1 Ġfei1Ġ
Ġhe2Ġ ta1ĠdeĠ
Ġyu3Ġ da4Ġ
Ġren4Ġ ming4
sai1Ġ na4Ġ
Ġ pei2Ġ
lai2 Ġsi1Ġ
hao3 Ġyou3Ġ
1940 Ġnian2Ġ
zuo4Ġ chu1
chang2Ġ qi1
ling3Ġ yu4
Ġzhong1Ġgong4 Ġzhong1Ġyang1
mian4 Ġshi4Ġ
chou2 Ġbei4Ġ
xiang3Ġ fa3Ġ
yuan2 Ġzhong1Ġ
Ġyuan2Ġ ze2Ġ
Ġzhi1Ġ chu4Ġ
dong1Ġ ni2Ġ
shang1Ġ dian4Ġ
pin3Ġ pai2
ming4Ġ ling4
gan3Ġ ran3
ĠĠĠ 2021Ġnian2Ġ
ni2 ĠdeĠ
dai4Ġ lai2Ġ
Ġdang1Ġ xuan3
Ġ ning2Ġ
Ġ 1999Ġnian2Ġ
fu2 Ġer3Ġ
hang2 Ġxian4Ġ
Ġji1Ġ du1Ġjiao4Ġ
Ġtong2 Ġri4Ġ
Ġxing2Ġzheng4Ġ zhen4Ġqu1Ġ
Ġ min2
ĠĠĠ X
ĠdeĠ li3Ġ
ĠdeĠ xi1Ġ
Ġshi4Ġ nan2Ġji2Ġzhou1ĠdeĠ
xiu1Ġ gai3
Ġ nĠ
ĠĠĠ sui2Ġ
Ġwei4Ġ qi2Ġ
Ġhe2Ġ dao4
li4Ġ yong4Ġ
Ġshi2Ġ dai4ĠdeĠ
shi1Ġ bai4
Ġzuo4Ġ biao1Ġwei4Ġ
xing4Ġ bie2Ġ
chang2Ġ jiang1Ġ
Ġ wei2
ding4 Ġzai4Ġ
âĢ §
Ġbu4Ġ de2Ġ
fu2Ġ hao4Ġ
qi4Ġ ti3Ġ
chan3Ġ ye4
Ġdi4Ġer4Ġ ci4Ġ
ao4Ġsi1Ġ ka3Ġ
ĠĠĠ er2
hui4 Ġji2Ġ
zuo4 Ġzhong1Ġ
pin3 Ġzhi4Ġ
bin1 Ġshi4Ġ
1951 Ġnian2Ġ
Ġgong1Ġ jin1Ġ
cheng1Ġ wei2
Ġ tun2
Ġ yao2Ġ
ĠĠĠ zhu3Ġyao4Ġ
ge1 Ġer3Ġ
chang3Ġ jing3Ġ
Ġzui4 Ġchu1
she4Ġhui4Ġ zhu3Ġyi4Ġ
dang4Ġ an4Ġ
ying2Ġde2Ġ leĠ
Ġ 1990
Ġgong1Ġ zuo4ĠdeĠ
Ġyu3Ġ zhou4
Ġzhe4Ġ ci4Ġ
Ġnian2Ġ12Ġyue4Ġ 31Ġri4Ġ
ĠĠĠ zhan4Ġ
zhan4 Ġzhi4Ġ
zhan4 Ġji4Ġ
yu4 Ġdao4Ġ
jie1 Ġjin4
wu3 Ġming2Ġ
chang3 Ġshang4Ġ
di3 Ġzhi4Ġ
Ġsan1 Ġshi2Ġ
niao3Ġ lei4Ġ
dong1 Ġxian4Ġ
Ġbu4Ġ er3
Ġzhi4Ġ ding4Ġ
wu3Ġ qi4
jing1Ġji4Ġ xue2Ġ
lei4Ġsi4 Ġyu2Ġ
. &
zhong1 Ġshi4Ġji4Ġ
dong4 Ġyuan2Ġ
fen1 Ġcheng2Ġ
kuo4 Ġzhang1Ġ
nan4 Ġmin2Ġ
run4 Ġ
Ġming2Ġ zi4Ġ
jie1Ġ chu4
lie4Ġ ru4
ren2Ġmin2Ġ dai4Ġbiao3Ġda4Ġhui4Ġ
Ġji1Ġ xie4Ġ
ju4Ġ feng1Ġ
yan2Ġjiu1 Ġsuo3
jiang1Ġsu1Ġ sheng3Ġ
Ġ niu2Ġ
ĠĠĠ dui4Ġyu2Ġ
fu2 Ġde2Ġ
yin3 Ġli4Ġ
Ġxian4Ġ dai4
zhong4Ġ zhi2Ġ
jiang3 ĠdeĠ
co di
nu2 Ġ
1930 Ġnian2Ġ
Ġta1Ġ shuo1Ġ
5 Ġgong1Ġli3Ġ
Ġ chao1
Ġzhong1Ġ shu1Ġ
hou4Ġ xuan3Ġren2Ġ
yan2Ġ shen1Ġ
Ġdan4 Ġbu4Ġ
Ġwei2Ġ zhi3Ġ
zhu1Ġ long2Ġ
mu4Ġsi1Ġ lin2Ġ
Ġ 36
Ġ 1Ġyue4Ġ
ĠĠĠ ke4Ġ
fang1 Ġcheng2Ġ
che1 Ġdao4Ġ
su1 Ġli3Ġ
chen4 Ġ
sheng1Ġ ming2Ġ
deng3Ġ zhi2Ġ
ban1Ġ fa1Ġ
geng4Ġ duo1
hai4Ġ e2
h en2
Ġ xiong1Ġ
zu1 Ġjie4Ġ
32 Ġ
nd Ġ
Ġjia1Ġ jing4Ġ
zhu4Ġ ce4Ġ
Ġyou2Ġ yong3Ġ
Ġceng2 Ġzai4Ġ
ren2 Ġwei4Ġ
dui4 Ġyou3Ġ
ti3 Ġxing2Ġ
ye1 Ġsu1
Ġji1Ġ chu3Ġ
Ġchu1Ġ shen1Ġ
fen1Ġ qu1Ġ
bao3Ġ cun2
ling3Ġ xiu4
gong4Ġhe2Ġ guo2ĠdeĠ
Ġwei4Ġfu2Ġqi2Ġyu2Ġ gang1
Ġ xiong2Ġ
shi3 Ġzhong1Ġ
cheng1 Ġzhi1Ġwei4Ġ
lang3 Ġde2Ġ
90 Ġnian2Ġ
Ġchu1Ġ ru4Ġkou3Ġ
tong1Ġ xin4Ġ
yan2Ġjiu1 Ġyuan2Ġ
xie2Ġ tiao2
huo3Ġ ban4Ġ
Ġshi4Ġdi4Ġ yi1Ġ
Ġbing4Ġqie3 Ġzai4Ġ
jin3Ġbiao1Ġ sai4
Ġ JR
Ġ shou4Ġdao4Ġ
ai4 Ġde2Ġhua2Ġ
xian4 Ġshi2Ġ
chu ang3
ban1 Ġbu4Ġ
hang2 Ġzhou1Ġ
jiao4Ġ zuo4Ġ
nv3Ġ yan3Ġyuan2Ġ
kao3Ġ gu3Ġ
mian4Ġji1 Ġhe2Ġ
zui4Ġzao3 ĠdeĠ
gui1Ġmo2 ĠdeĠ
Ġ 22
pai2 Ġde2Ġzhu3Ġ
bing1 Ġli4Ġ
1931 Ġnian2Ġ
Ġjia1Ġ meng2Ġ
ma3Ġ lai2Ġ
che4Ġ di3Ġ
Ġ pian4Ġ
xi1 Ġyuan2Ġ
quan2 Ġxian4Ġ
qi3 ĠdeĠ
bai4 Ġzhan4Ġ
reng2 Ġyou3Ġ
Ġcheng2Ġ xu4
Ġjian4 Ġyou3Ġ
shou3Ġ duan4Ġ
fen1Ġ li2Ġ
cheng2 Ġzai4Ġ
quan2 Ġqiu2
zu2 Ġren2Ġ
Ġzhong1Ġ fa1Ġxian4Ġ
shou3Ġ fu3Ġ
zu2Ġ xie2Ġ
zao1 Ġshou4Ġ
Ġzhong1Ġguo2Ġ gong4Ġchan3Ġdang3
Ġ a
ĠĠĠ 2015Ġnian2Ġ
jiang1 Ġshi4Ġ
jiao1Ġ cha1Ġ
Ġgai1Ġ di4ĠdeĠ
Ġgong1Ġyuan2Ġ qian2Ġ
Ġdi4Ġshi2Ġ yi1Ġ
ĠĠĠ fu2Ġ
yi3 Ġshang4Ġ
han4 Ġyu3Ġ
gua1 Ġ
mao1 Ġ
1933 Ġnian2Ġ
Ġwei4Ġ zhong1Ġguo2Ġ
Ġhe2Ġ lan2
Ġqiu2Ġ yun4Ġdong4Ġyuan2Ġ
ti2Ġ gong1ĠdeĠ
ai4Ġ qing2Ġ
mian3Ġ dian1Ġ
tui4Ġ xiu1
Ġling4 Ġyi4Ġfang1Ġmian4Ġ
Ġbu4Ġde2 Ġbu4Ġ
Ġmu4Ġqian2Ġshang4Ġwei4Ġ you2Ġren2Ġgong1Ġyin3Ġzhong3Ġzai1Ġpei2Ġ
jian1 Ġzhi4Ġ
hua2 Ġda4Ġxue2Ġ
cai2Ġ chan3Ġ
Ġtai4Ġ yang2Ġ
wu4Ġli3Ġ xue2Ġ
an4 Ġzhong1Ġ
ĠĠĠ 4Ġyue4Ġ
fen1 Ġwei4Ġ
tou2 ĠdeĠ
1928 Ġnian2Ġ
Ġzhe4Ġ ye3Ġshi4Ġ
gan3Ġ jue2Ġ
di Ġ
da2 ĠdeĠ
wang3 ĠdeĠ
han4 Ġzi4Ġ
mou2 Ġsha1Ġ
Ġzai4Ġ gong1Ġ
Ġjian4Ġ zao4
Ġyin1 ĠdeĠ
bao4Ġ zha4
dao3Ġ yan3
Ġxi1Ġban1Ġya2 Ġyu3Ġ
Ġ nei4
yuan2 Ġshi2Ġ
jin1 Ġri4Ġ
lin2 Ġsi1Ġ
rang4 Ġta1Ġ
am Ġ
xue2Ġ sheng1
Ġfen1 Ġwei2Ġ
ka3Ġluo2Ġlai2Ġ na4
Ġ qiu1
fa3 Ġshi4Ġ
1942 Ġnian2Ġ
Ġji2Ġ yi1Ġ
Ġchu1 Ġyi1Ġ
Ġ Mi
fu4 Ġyou3Ġ
te4 Ġhe2Ġ
tai4 Ġhou4Ġ
zhong1Ġ bu4Ġ
Ġda4Ġ yue1
sheng1Ġ tai4Ġ
wei3Ġyuan2Ġ hui4ĠdeĠ
qian1Ġ shu3
Ġwen2Ġ hua4
Ġdang1Ġ xuan3Ġ
Ġzhi4Ġzuo4 Ġren2Ġ
xia4Ġxia2ĠdeĠyi2Ġge4Ġ xiang1Ġ
Ġ kong1Ġ
Ġ tou4Ġguo4Ġ
nan2 Ġsi1Ġla1Ġ
gan4 Ġxian4Ġ
Ġshi4Ġ nan2Ġ
yan2Ġ chang2
shui3Ġ ku4Ġ
zu2Ġ zi4Ġzhi4Ġ
bian1Ġ ma3Ġ
xu4Ġ shu4Ġ
Ġ wen1
ch o
zi Ġgong1Ġsi1Ġ
Ġyue4Ġ tuan2
Ġyi4Ġ dian3Ġ
dui4Ġ wai4Ġ
qi3Ġ su4Ġ
zhong4Ġ dian3
ĠD Ġ
Ġ 34
ji4 Ġyu2Ġ
te4 Ġji2Ġ
bian1 Ġcheng2Ġ
in ĠĠĠ
1943 Ġnian2Ġ
Ġshi4Ġ xiang1Ġgang3Ġ
shen1Ġ zhen4Ġ
Ġma3Ġlai2 Ġxi1Ġya4Ġ
Ġ 2025
Ġ ren4Ġhe2Ġ
mu4 Ġshi4Ġ
Ne w
Ġzai4Ġ nan2Ġ
Ġhe2Ġ tong2Ġ
shang4Ġ shu4Ġ
Ġhui4Ġ bei4Ġ
wu3Ġ han4
ding4Ġ qi1Ġ
gai3Ġ wei2
ĠĠĠge4Ġren2Ġ sheng1Ġhuo2Ġ
Ġ w
Ġ kang1Ġxi1Ġ
ĠĠĠ 7Ġyue4Ġ
jin4 Ġji2Ġ
fu4 Ġzhi4Ġ
Ġshi4Ġ ge4Ġ
san1Ġ ci4Ġ
bo1Ġ fang4
ce4Ġ lve4Ġ
Ġji4Ġsuan4 Ġji1Ġ
f eng3
Ġ zhu3
Ġ yao1Ġqiu2
zhan4 Ġwei4Ġ
ru4 Ġwei2Ġ
qi4 Ġren2Ġ
xie2 Ġdai4Ġ
wo4 Ġer3Ġ
tan4 Ġsuo3Ġ
dui4Ġ xiang4Ġ
miao2Ġ shu4Ġwei4Ġ
Ġha1 Ġer3Ġ
Ġà ¸
codi ceĠ
Ġ CD
Ġ fan3Ġdui4Ġ
ch ao3
shu4 Ġhe2Ġ
mei3 Ġri4Ġ
shou3 Ġbu4Ġ
shi1 Ġhe2Ġ
xiu1 Ġsi1Ġ
sao3 Ġ
cu1 Ġ
xi4Ġ lie4ĠdeĠ
tai2Ġ bi4Ġ
ban1Ġ ci4Ġ
ĠdeĠji1Ġ hui4Ġ
ji ong3
ĠĠĠ dong1Ġ
zhuan3 Ġwei2Ġ
Ġyuan2Ġ you3Ġ
Ġge4 Ġda4Ġ
Ġke4 Ġli3Ġsi1Ġ
dong4Ġ che1Ġ
zhu3Ġchi2 Ġren2Ġ
âĦ ĥ
2 Ġmi3Ġ
ĠĠĠ 2020Ġnian2Ġ
jue2 ĠleĠ
ren3 Ġ
ben1 Ġ
Ġbu4Ġ zheng4Ġ
Ġguo2Ġ gong1Ġ
Ġli4Ġ ke4Ġ
Ġgong1Ġ kai1
lu4Ġ shang4Ġ
min2Ġ jin4Ġ
gui1Ġ hua4
Ġsui2Ġ zheĠ
mo4Ġsi1Ġ ke1
an1 Ġren2Ġ
ĠĠĠ zhi4Ġzuo4Ġ
fu1 Ġfu4Ġ
ar i
zhuang4 Ġbing4Ġdu2
as ĠĠĠ
Play Sta
Ġcheng2Ġ bao3Ġ
qi2 Ġshi4Ġ
bei4 Ġshi4Ġ
na4 Ġsi1Ġ
hang2 Ġzhan4Ġ
ou n
jian4Ġ zao4Ġ
tai2Ġwan1 ĠdeĠ
pi1Ġ ping2
J Ġ
jing1 ĠdeĠ
Ġdi4Ġ 2Ġ
zheng4Ġ quan2Ġ
qu1Ġ jian1Ġ
zuo3Ġ you4
ĠĠĠ xiang1Ġgang3Ġ
Ġnian2 Ġnian2Ġ
Ġcheng2Ġ wei2Ġyi1Ġ
Ġge4Ġ zi4Ġ
yi2Ġ min2
Ġxiang1Ġ dang1Ġ
Ġyou3Ġyi1Ġ xie1Ġ
kuo4Ġ zhan3Ġ
jiu4Ġdu2 Ġyu2Ġ
Ġ fa1
dong1 ĠdeĠ
ke1 Ġer3Ġ
oo g
Ġzhong1Ġ zhi3Ġ
kai1Ġ mu4Ġ
ba1Ġ nen4
du2Ġ te4ĠdeĠ
fan4Ġ wei2
Ġguo2Ġmin2Ġ dang3Ġ
Ġ b
Ġ e
Ġ gu4Ġshi4Ġ
ĠĠĠ la1Ġ
ĠĠĠ 2014Ġnian2Ġ
xian4 Ġxiang4Ġ
wu2 Ġer3Ġ
ji3 Ġnian2Ġ
Ġdi4Ġ 2
min2Ġ zhu3
zhe4Ġ zhong3
Ġzhan4Ġ ling3Ġ
tian1Ġ tang2Ġ
jiang3Ġ zui4Ġjia1Ġ
qiu2Ġ dui4
Ġ biao3Ġ
Ġhui4Ġ shang4Ġ
feng1Ġ ge2
tong2Ġ yang4
huo2Ġdong4 ĠdeĠ
3 000
ĠĠĠ 2010Ġnian2Ġ
jiu1 Ġ
yin4 Ġxiang4Ġ
Ġming2Ġ xing1Ġ
dian4Ġ che1Ġ
fu3Ġ zhu4Ġ
xie2Ġ shang1Ġ
Ġqian2Ġ long2Ġ
cui1Ġ hui3
Ġ ta3
Ġ jiao3Ġ
Ġ shan3Ġxi1Ġ
ĠĠĠ 15
ĠĠĠ 6Ġ
shu1 Ġshi4Ġ
Ġzai4Ġ yuan2Ġ
Ġri4Ġ qi1Ġ
nei4Ġ meng2Ġgu3Ġ
zhao4Ġ pian1
Ġ ci2
Ġ pi2
Ġ 38
ĠĠĠ 8Ġyue4Ġ
th ĠĠĠ
Ġdi4Ġ ba1Ġ
Ġji2Ġ yi3Ġ
Ġguo2Ġ yu3Ġ
Ġqi2Ġ bing1Ġ
ling3Ġ xian1Ġ
c ai1Ġ
Ġ 55
ĠĠĠ sui1Ġran2Ġ
pin3 ĠdeĠ
1912 Ġnian2Ġ
Ġzhou1 Ġren2Ġ
chuan1 Ġyue4Ġ
xi1Ġ wang4Ġ
sheng1Ġ ming4Ġ
jin4Ġ zhi3Ġ
Ġ 75
Ġ lao2Ġ
e4 Ġer3Ġ
lu4 Ġyu3Ġ
da4Ġ xue2
Ġri4 Ġyi4Ġ
you2Ġ tai4Ġ
te4Ġ qu1Ġ
Ġbing4Ġ biao3Ġshi4Ġ
zui4Ġ duo1ĠdeĠ
chang3Ġ bi3Ġsai4Ġ
Ġte4Ġ bie2Ġ
Ġ di2
jiao4Ġ ke1Ġ
Ġhe2Ġliu2Ġ yu4Ġ
Ġ cai3Ġ
cheng2 Ġshi2Ġ
ge2 Ġsi1Ġ
Ġshi4Ġ yuan2Ġ
ju4Ġ da4ĠdeĠ
bao3Ġ zhang4
ban4Ġ yan3
jie1Ġwei4Ġ zhi1Ġ
Ġshi4Ġyi2Ġge4 Ġwei4Ġyu2Ġmei3Ġguo2Ġ
mian4Ġji1Ġhe2Ġ ren2Ġkou3Ġ
Ġ Ø
Ġ hua1
Ġ 90
fang1 Ġwei4Ġ
ci3 Ġshi4Ġ
ju1 Ġyu2Ġ
du3 Ġ
1929 Ġnian2Ġ
Ġta1Ġ jiang1Ġ
zong3Ġ jing1Ġli3Ġ
ka3Ġ la1Ġ
Ġtong2Ġshi2Ġ ye3Ġ
he4Ġ se4Ġ
xiang1 ĠdeĠ
duo1 Ġming2Ġ
bo1 Ġchu1
jia3 Ġji1Ġ
shang4Ġ xia4Ġ
fen1Ġ lan2Ġ
huang2Ġ jin1
f ĠĠĠ
Ġ feng1
Ġ lu2
ĠĠĠ mu4Ġqian2Ġ
wang2 Ġhou4Ġ
bo1 Ġli4Ġ
nu2 Ġli4Ġ
1927 Ġnian2Ġ
Ġchu1Ġ ren4
Ġjun1Ġ guan1Ġ
Ġqi2Ġzhong1Ġ you3Ġ
mi2Ġ ni3Ġ
hang2Ġkong1 Ġgong1Ġsi1Ġ
Ġgai1Ġdi4ĠdeĠ mian4Ġji1Ġhe2Ġren2Ġkou3Ġ
Ġgai1Ġdi4ĠdeĠmian4Ġji1Ġhe2Ġren2Ġkou3Ġ jie1Ġwei4Ġzhi1Ġ
di u1
yue4 Ġhe2Ġ
qu1 Ġji2Ġ
zhu4Ġ zhai2
jian4Ġ kang1Ġ
han4Ġ lin2Ġ
ban3Ġ ben3ĠdeĠ
Ġzhi4Ġli4Ġ yu2Ġ
Ġ cai4Ġ
yi2 Ġji4Ġ
zhang1 ĠdeĠ
dai4Ġ bu3Ġ
gao1Ġ deng3
Ġ Le
fu4 Ġyu3Ġ
dan1 Ġxin1Ġ
zu2 Ġyi3Ġ
Ġshi2Ġ yue4Ġ
Ġyi1Ġ tian1Ġ
dan1Ġ da3Ġ
shang1Ġ pin3Ġ
tuan2Ġ jie2Ġ
Ġyin1Ġci3 Ġzai4Ġ
ying1 Ġjun1Ġ
bi3 Ġer3Ġ
jiu4 Ġyou3Ġ
xiang3 ĠdeĠ
chai2 Ġ
guo2Ġ fang2
Ġchu1 Ġxian4
Ġjia1Ġ ru4ĠleĠ
hui4Ġyi4Ġ shang4Ġ
cun2Ġzai4Ġ yu2Ġ
dian3 Ġxing2ĠdeĠ
tang2 ĠdeĠ
biao1 Ġji4Ġ
Ġyi1Ġ chang2Ġ
Ġde2 Ġli4Ġ
Ġdai4Ġ lai2Ġ
Ġ huai2
Ġ yan2Ġjiu1Ġ
ĠĠĠ 2013Ġnian2Ġ
e1 Ġ
ju4 Ġzhong1Ġ
san1 Ġwei4Ġ
ting1 ĠdeĠ
zhuang4 ĠdeĠ
1932 Ġnian2Ġ
ji4Ġ xu4
Ġke4Ġ luo2Ġ
Ġjin4 Ġji2Ġ
gao1Ġ jia4Ġ
yi2Ġ zhi3
que4Ġ bao3Ġ
chuang4Ġ shi3Ġren2Ġ
ĠĠĠwei4Ġ leĠ
Ġ 2004
Ġ yuan3Ġ
an1 Ġshi4Ġ
ĠĠĠ 2012Ġnian2Ġ
a1 Ġji1Ġ
xi4 Ġjun1Ġ
mu4 Ġzhi4Ġ
fu2 Ġshe4Ġ
Ġyi4Ġ wai4Ġ
Ġda4Ġ gui1Ġmo2Ġ
chan3Ġ sheng1
Ġzhu3Ġ chi2
rui4Ġ dian3
ĠĠĠ 9Ġyue4Ġ
cha2 Ġli3Ġ
80 Ġnian2Ġ
ĠdeĠji4Ġ hua4Ġ
Ġguo2Ġmin2Ġ dang3
ji a2
ĠĠĠ qi2Ġzhong1Ġ
jian3 Ġli4Ġ
gei3 Ġta1Ġ
zu an3
jue2Ġ sai4Ġzhong1Ġ
meng2Ġ te4Ġ
Ġguo2Ġmin2Ġ zheng4Ġfu3Ġ
Ġzhu3Ġyao4 Ġshi4Ġ
w a4
ping2 Ġjun1
Ġshi2Ġ jian1ĠdeĠ
lu4Ġ xu4Ġ
hei1Ġ long2Ġjiang1Ġ
zhong1 Ġhe2Ġ
jia1 Ġshi4Ġ
shi1 Ġdi4Ġ
duan4 Ġshi2Ġjian1Ġ
Ġyi3Ġ 1Ġ
Ġxi1Ġ li3Ġ
fa1Ġ hui1
fa1Ġ yan2Ġren2Ġ
Ġwei2Ġ qi2
Ġzhu3Ġ ren4Ġ
ting2Ġ yun4Ġ
C ĠĠĠ
Ġ 70
an i
qian2 Ġzai4Ġ
diao4 Ġyu2Ġ
il li
Ġchu1Ġ shou4Ġ
duan3Ġ zan4
Ġ nong2Ġ
Ġ shao4Ġ
fu2 Ġzhou1Ġ
guan1Ġ ce4
ta3Ġ ni2
Ġshi3Ġ yong4
Ġzhan4 Ġdi4Ġ
Ġ dou1Ġshi4Ġ
Ġ 1997Ġnian2Ġ
shu4 Ġren2Ġ
xu4 Ġji2Ġ
chuan1 Ġguo4Ġ
fu4Ġ zhu3Ġxi2Ġ
Ġzhou1 Ġwei2Ġ
Ġfen1Ġ bu4Ġzai4Ġ
Ġceng2Ġ jing1Ġ
Ġna4Ġ me
ĠdeĠyuan2Ġ yin1Ġ
Ġ ken3Ġ
shi3 Ġdi4Ġ
wu4 Ġyu3Ġ
ci4 Ġji1Ġ
jue2 Ġyu2Ġ
Ġhe2Ġ li4Ġ
Ġguo2Ġ wang2
Ġzhi1Ġ cheng1Ġ
Ġdan4 Ġqi2Ġ
Ġxue2Ġ xi2
ling3Ġ yu4ĠdeĠ
que4Ġ ding4
qun2Ġ zhong4Ġ
chuang4Ġ zuo4
Ġshi4Ġjie4 ĠdeĠ
Ġzong3Ġ tong3Ġ
tan4Ġ xian3
ni2Ġya4 ĠdeĠ
ĠĠĠche1Ġzhan4Ġ jie2Ġgou4Ġ
Ġ gong1Ġbu4Ġ
Ġ meng4Ġ
xing2 Ġxiang4Ġ
suan4 Ġfa3Ġ
son Ġ
1934 Ġnian2Ġ
shu4Ġ mu4Ġ
Ġer2Ġ lai2Ġ
zhi2Ġ bo1Ġ
Ġfu4Ġ gai4Ġ
gao4Ġ su4
Ġnian2Ġdai4 Ġchu1Ġ
ao4Ġda4Ġli4Ġ ya4
ĠĠĠ can1Ġkao3Ġ
you3Ġ guan1Ġ
zui4Ġ zao3Ġ
Ġdang1 Ġnian2Ġ
Ġcheng2Ġli4Ġ leĠ
qu4Ġshi4Ġ hou4Ġ
6 Ġmi3Ġ
l i1
Ġ hu4
Ġ ke3Ġneng2
yu4 Ġbei4Ġ
shen2 ĠdeĠ
chong2 Ġfu4Ġ
tui1 Ġxing2Ġ
1924 Ġnian2Ġ
Ġdao4 Ġzhong1Ġ
hai3Ġ yang2
ĠdeĠdi4Ġ yi2Ġge4Ġ
5 ĠĠĠ
an4 Ġshi4Ġ
zhan3 Ġxian4Ġ
duo3 Ġ
Ġshi4Ġ bei4Ġ
Ġyin1 Ġyuan2Ġ
Ġyin1 Ġqi2Ġ
zhu4Ġ zhai2Ġ
fu2Ġ hua4Ġ
jing4Ġ nei4ĠdeĠ
ge1Ġ ci2Ġ
Ġ li
Ġ qin2
Ġ 46
an4 Ġshi2Ġ
ai3 Ġ
lie4 Ġsi1Ġ
du1 Ġhui4Ġ
song4 Ġdao4Ġ
Ġji2Ġ er3Ġ
xi1Ġ ya4Ġ
wu3Ġ dao3Ġ
jing4Ġ wai4Ġ
mi4Ġ qie4
e2Ġ hai4Ġe2
Ġlu4 Ġyi4Ġ
pai2Ġhang2Ġ bang3
ĠĠĠ 6Ġyue4Ġ
zhe3 Ġren4Ġwei2Ġ
33 Ġ
Ġda4Ġ qiao2
fang2Ġ jian1Ġ
guo2Ġjia1Ġ dui4Ġ
zhe4Ġjiang1Ġ sheng3Ġ
zhi1 Ġdao4Ġ
duo1 Ġyuan2Ġ
ss Ġ
Ġyi3Ġ lai2
shen1Ġ wang2Ġ
fan3Ġ dui4
tan4Ġ ce4Ġ
Ġ deng1
duan1 ĠdeĠ
Ġdi4Ġ zhong1Ġ
Ġta1Ġ hai2
jing1Ġ you2Ġ
² Ġ
25 Ġnian2Ġ
Ġyi1Ġ tong2
Ġri4Ġ hou4Ġ
Ġsheng1Ġ cheng1Ġ
gui1Ġ ze2
cai2Ġ zheng4
Ġlian2Ġ jie1Ġ
man3Ġ zu2
Ġ 150
jin4 Ġxing2ĠdeĠ
Ġer3 Ġyu3Ġ
cun1Ġ min2Ġ
p en
hou4 Ġbu4Ġjiu3Ġ
chu1 Ġzhan4Ġ
fu4 Ġbu4Ġzhang3Ġ
Ġli4Ġ shu3
Ġxing2 Ġyu2Ġ
la1Ġ te4Ġ
ba1Ġ le4
tou2Ġ xian2Ġ
qiang2Ġ da4ĠdeĠ
shou1Ġ lu4
Ġ yi1Ġwei4Ġ
ĠĠĠ 2011Ġnian2Ġ
zhan4 Ġzai4Ġ
fen1 ĠdeĠ
wang3 Ġqiu2
kuo4 Ġjian4Ġ
cheng2Ġ ji4Ġ
Ġji2Ġ si1Ġ
Ġjia1Ġ si1Ġ
Ġbing4 Ġyou3Ġ
Ġ12 Ġ
Ġ ya3
kua4 Ġ
yi1Ġ li4Ġ
ke1Ġ fu1Ġ
3 Ġmi3Ġ
ĠĠĠ gen1Ġju4
a1 Ġli3Ġ
yu2 ĠĠĠ
qi1 Ġshi4Ġ
Ġhe2Ġ dong1Ġ
Ġri4Ġ yu3Ġ
zhan4Ġ lve4Ġ
zhi2Ġ wu4
Ġxue2Ġ hui4Ġ
wan2Ġcheng2Ġ leĠ
wan2Ġzheng3 ĠdeĠ
Ġ ji1Ġyu2Ġ
ĠĠĠ ci3
shuo1 ĠdeĠ
wo r
zhen1 Ġzheng4Ġ
Ġqi2 Ġta1ĠdeĠ
chang2Ġ wei3Ġhui4Ġ
ban4Ġ dao3
hang2Ġ ban1Ġ
fang2Ġ kong1Ġ
Ġ peng2Ġ
ĠĠĠ xiang1Ġ
ĠĠĠ ri4Ġben3Ġ
ĠĠĠ jian4Ġzhu4Ġ
di1 ĠdeĠ
za2 ĠdeĠ
Ġzhong1Ġ dui4Ġ
da4Ġ liang4Ġ
E N
Ġ si3Ġ
ding4 Ġli3Ġ
xiao4 Ġshe4Ġ
xie3 ĠleĠ
et Ġ
Ġji2Ġ jiang1Ġ
Ġda4Ġ sai4Ġ
pu3Ġ tong1
Ġguo2Ġji4Ġ ji1Ġchang3Ġ
you1Ġ xiu4Ġ
ĠĠĠgen1Ġju4Ġ 2010Ġnian2Ġmei3Ġguo2Ġren2Ġkou3Ġpu3Ġcha2ĠdeĠshu4Ġju4Ġ
Ġ 2003
Ġ 180
Ġ xuan2Ġ
ba1 Ġshi2Ġ
sheng3 Ġzheng4Ġfu3Ġ
bao3 Ġwei4Ġ
dou1 Ġbu4Ġ
Ġzai4Ġ xian4Ġ
san1Ġ zhong3Ġ
xiao3Ġ zu3
hu4Ġ dong4Ġ
chong2Ġ xin1
che4Ġ tui4Ġ
ĠM Ġ
Ġguan1 Ġzhi4Ġ
ch ĠĠĠ
ren4 Ġyi4Ġ
xiang2 Ġxi4Ġ
chui2 Ġzhi2Ġ
Ġchu1 Ġxian4ĠdeĠ
ke1Ġ xue2
da3Ġ suan4Ġ
nuo4Ġ man4Ġ
ĠP Ġ
ĠĠĠ gao1Ġ
pan Ġ
Ġyi1Ġ zhong3
Ġxing2 Ġhe2Ġ
xue2Ġshi4Ġ xue2Ġwei4Ġ
Ġ g
Ġ wan3Ġ
ĠĠĠ st
a1 Ġfu4Ġ
bu4 Ġwei4Ġyu2Ġ
xiao4 Ġyou3Ġ
26 Ġ
zang4 Ġyu2Ġ
ts Ġ
Ġhe2Ġ ji1Ġ
Ġyi1Ġ lang3
Ġhe2Ġnan2Ġ sheng3Ġ
han3Ġmo4 Ġde2Ġ
Ġ zeng1Ġ
qian1 Ġren2Ġ
dang3 Ġji2Ġ
bai3 Ġwan4Ġ
28 Ġ
Ġxian4 Ġyu3Ġ
Ġxian4Ġ zai4ĠdeĠ
xiang1Ġ hu4Ġ
yan2Ġ chang2Ġ
Ġke4Ġ sa4Ġsi1Ġ
chao2Ġ ting2Ġ
2 ĠĠĠ
hou4 Ġta1Ġ
jiang3 Ġzhong1Ġ
ren2Ġ min2
fa1Ġ bu4ĠdeĠ
jie2Ġ du4Ġshi3Ġ
zi1Ġ xun4
wu1Ġ ran3
Ġshou3Ġ ci4
tan2Ġ pan4
Ġ ruan3
Ġ gui4Ġ
zhen1 Ġyu3Ġ
Ġshi4Ġ dui4Ġ
Ġta1 Ġcheng2Ġwei2Ġ
Ġzhou1 Ġhe2Ġ
tian1Ġ qi4Ġ
ban4Ġ fa3Ġ
Ġ zhao1Ġ
ĠĠĠ fa3Ġguo2Ġ
ben3 Ġbu4Ġ
liu2 Ġxue2Ġ
gai3 Ġming2Ġ
27 Ġ
ST AT
Ġda4Ġ cheng2Ġ
Ġren4Ġ zhi2Ġ
bao3Ġ zhang4Ġ
na4Ġ ru4Ġ
Ġquan2Ġ mian4Ġ
pan4Ġ chu3Ġ
Ġshi4Ġshi4Ġ jie4
mao4Ġ xian3Ġ
li3Ġshi4Ġ hui4Ġ
Ġren2Ġkou3 ĠdeĠ
tu2Ġshu1Ġ guan3
1 Ġhao4Ġ
er2 Ġtong2
zong3 Ġzhan4Ġ
su4 Ġshe4Ġ
chuan2 Ġqi2Ġ
qu4 ĠdeĠ
fou3 Ġren4Ġ
lian3 Ġ
Ġshi4Ġ zheng4Ġfu3Ġ
Ġnian2Ġ qian2Ġ
Ġzai4Ġ qi2
Ġbu4Ġ jin3
Ġsi1Ġ fa3Ġ
min2Ġ zhong4
Ġbing4Ġ jiang1
ke4Ġ yun4Ġ
zhuan3Ġ yi2Ġ
qu3Ġde2Ġ leĠ
Ġ lan2
qian2 Ġxian4Ġ
can1 Ġyi4Ġyuan2Ġ
ci2 Ġhui4Ġ
xing3 Ġ
Ġzhi1 Ġbu4Ġ
ren4Ġ zhi2Ġ
wai4Ġ guan1Ġ
ming4Ġ ming2ĠdeĠ
ren2Ġda4Ġ dai4Ġbiao3Ġ
liu4 Ġge4Ġ
Ġyi3Ġ 2Ġ
wang3Ġ wang3Ġ
bian1Ġ jie4
hu2Ġ po1Ġ
deng1Ġ lu4
Ġjiang1 Ġxi1Ġ
Ġ com
Ġ 1992Ġnian2Ġ
ĠĠĠ chen2Ġ
wei2 Ġren2Ġ
duo1 Ġbu4Ġ
san1 Ġyue4Ġ
dang4 Ġzuo4Ġ
fang1Ġ cheng2Ġshi4Ġ
liang4Ġ xiang4Ġ
Ġri4Ġben3 ĠdeĠ
luo2Ġma3 Ġdi4Ġguo2Ġ
Ġxian4ĠdeĠyi2Ġge4 Ġxing2Ġzheng4Ġzhen4Ġqu1Ġ
ying3 Ġdai4Ġ
jia3 Ġshe4Ġ
Ġshi4Ġ yan4Ġ
Ġwei4Ġ wei4Ġ
fa3Ġ guo2ĠdeĠ
Ġxiang1Ġ si4Ġ
dan1Ġ mai4
yan3Ġ zou4
mi4Ġ du4Ġ
hui2Ġ gui1
ren2Ġkou3Ġpu3Ġ cha2Ġ
che1 Ġren2Ġ
bo1 Ġchu1ĠdeĠ
zhen1 ĠdeĠ
80 Ġ
Ġzhi1Ġ hou4Ġzai4Ġ
ru2Ġ guo3
xing1Ġ xi4Ġ
shan1Ġxi1Ġ sheng3Ġ
Ġ chuang4
Ġ 37
Ġ 2023Ġnian2Ġ
Ġ 1994Ġnian2Ġ
ĠĠĠ yan2Ġge2Ġ
mian3 Ġyi4Ġ
ka1 Ġ
Ġjian4 Ġzai4Ġ
Ġbei4Ġ jing3Ġ
zhe4Ġ yang4ĠdeĠ
Ġquan2 ĠdeĠ
Ġtong2Ġshi2Ġ ye3Ġshi4Ġ
Ġqi1Ġ jian1
Ġda4 Ġbu4Ġfen4
ĠĠĠ 2008Ġnian2Ġ
ĠĠĠ yi3Ġxia4Ġ
ti3 Ġji1Ġ
na4 Ġhe2Ġ
Ġshi4Ġ zhi3
gai3Ġ cheng1Ġ
Ġdong1Ġ bei3
wei3Ġyuan2Ġhui4Ġ zhu3Ġxi2Ġ
guang3Ġfan4 ĠdeĠ
Ġliu2Ġyu4Ġ mian4Ġji1Ġ
Ġ qu3
chuan2 Ġdi4Ġ
cun1 ĠdeĠ
Ġxian4 Ġzhong1Ġ
Ġda4Ġ fu1Ġ
Ġdan4 ĠdeĠ
Ġlian2Ġ meng2Ġ
Ġgen1Ġju4Ġ 2020Ġnian2Ġmei3Ġguo2Ġren2Ġkou3Ġpu3Ġcha2ĠdeĠshu4Ġju4Ġ
kai1Ġfa1 ĠdeĠ
Ġ feng2
Ġ wang1
you3 Ġhe2Ġ
li2 Ġshi4Ġ
chao2 Ġshi2Ġ
ju2 Ġshi4Ġ
tao1 Ġ
zong3Ġ mian4Ġji1Ġ
gai3Ġ zao4
w it
Ġ heng1Ġli4Ġ
xin1 Ġxing2Ġ
kai1 Ġshe4
chang2 Ġbei4Ġ
zi3 Ġdan4Ġ
dang4 ĠdeĠ
xue2Ġ xi4Ġ
shou1Ġ cang2
Ġan1 Ġde2Ġ
Ġ 400
le Ġdi4Ġ
48 Ġ
is Ġ
kuang1 Ġ
Ġcheng2Ġ li4ĠdeĠ
xi1Ġ yang2
Ġbing4Ġ fei1
Ġzi4Ġ mu3Ġ
Ġbi4Ġ xu1Ġ
hang2Ġkong1Ġ mu3
Ġ 39
ge2 Ġli3Ġ
18 Ġnian2Ġ
jing3 Ġyuan2Ġ
qian3 Ġze2Ġ
um Ġ
Ġzai4Ġ bei4Ġ
bu4Ġ tong2Ġ
yi4Ġ bai3Ġ
dian4Ġ zi3
xu4Ġ lie4Ġ
fei1Ġlv4Ġ bin1Ġ
Ġ sheng1
Ġ shuang1
Ġ 21
ĠĠĠ tong2
ĠĠĠ tai2Ġwan1Ġ
zhang3 Ġhe2Ġ
jiao1 ĠdeĠ
cha2 Ġer3Ġsi1Ġ
wan3 Ġnian2Ġ
60 Ġnian2Ġ
Ġshi2Ġ you2Ġ
Ġji1Ġ xie4
yi2Ġ du4
sai4Ġ che1Ġ
jiao1Ġ jie4Ġ
shang1Ġ chang3Ġ
fu2 Ġshi4Ġ
Ġxi1Ġ fang1Ġ
Ġqi2Ġ hou4Ġyu2Ġ
ting2Ġ kao4
dian4Ġying3 ĠdeĠ
Ġ qi4
Ġ 300
Ġ 1996Ġnian2Ġ
ĠĠĠ 189
xing1 Ġjian4
gen1 Ġben3Ġ
pao3 Ġdao4Ġ
Ġzhong1Ġ qi1Ġ
Ġshi2Ġ li4Ġ
zheng4Ġ chang2Ġ
Ġzhi1Ġ shang4Ġ
bao3Ġ jia1
yi2Ġ ci4Ġshi4Ġjie4Ġda4Ġzhan4Ġ
qiang2Ġ diao4
de2Ġ guo2ĠdeĠ
bu3Ġ chong1Ġ
fu2Ġjian4Ġ sheng3Ġ
Ġ ji3
Ġ St
Ġ De
Ġ luo2Ġsi1Ġ
ĠĠĠ xiang1Ġgang3
40 Ġnian2Ġ
Ġshi2Ġ ke4Ġ
Ġge4 Ġbu4Ġ
fen1Ġ pei4
fen1Ġ lie4Ġ
c ri
Ġ ting1Ġ
hao4 ĠdeĠ
Ġyou3Ġ liang3Ġ
li3Ġ lan2Ġ
Ġzhou1 Ġli4Ġ
shou3Ġ shu4Ġ
Ġdui4Ġ wai4Ġ
jin1Ġ rong2
shou4Ġ huan1Ġ
wang2Ġ zi3Ġ
gui1Ġ lei4
Ġli4Ġshi3Ġ xue2Ġjia1Ġ
Ġyi4Ġshu4 Ġjia1Ġ
san1 Ġbu4Ġ
si4 Ġyue4Ġ
or ĠĠĠ
35 Ġ
Ġdui4Ġ wu3Ġ
jin1Ġ shan1Ġ
Ġxiang1Ġ bi3Ġ
yan3Ġ jiang3Ġ
nv3Ġ hai2Ġ
qing2Ġ bao4
yin1Ġ su4Ġ
Ġmi3 Ġzhi4Ġ
Ġguang1Ġ xu4Ġ
ĠĠĠ 8
1925 Ġnian2Ġ
yan2Ġ lun4Ġ
wei1Ġ xie2
a1Ġer3Ġ bei1Ġsi1Ġ
cui1Ġ hui3Ġ
24Ġ xiao3Ġshi2Ġ
fo2Ġ jiao4
ĠĠĠ liu2Ġ
sha1 ĠdeĠ
Ġhe2Ġ shang4Ġ
sheng1Ġ yin1Ġ
zhi2Ġ sheng1Ġji1Ġ
Ġjin4 Ġer2Ġ
luo2Ġ la1Ġ
fan4Ġ zui4
qiao2Ġ liang2Ġ
sa4Ġ la1Ġ
Ġmian4Ġji1Ġ 0
fa1Ġbu4Ġ leĠ
gu3Ġlao3 ĠdeĠ
Ġ chong2Ġxin1Ġ
ch i
er i
gao1 Ġdi4Ġ
gu3 Ġji4Ġ
nv3 Ġren2Ġ
me ĠĠĠ
shui3Ġ shen1Ġ
yi3Ġ se4Ġ
Ġjin1Ġ shu3Ġ
ge4Ġ zhong3
chao1Ġ guo4
zhong4Ġdian3Ġ wen2Ġwu4Ġbao3Ġhu4Ġdan1Ġwei4Ġ
jia1Ġli4Ġfu2Ġ ni2Ġya4Ġzhou1Ġ
di1Ġqi4Ġ ya1Ġ
1 Ġming2Ġ
pi ng1
19 Ġnian2Ġ
dui4 Ġta1Ġ
ID Ġ
Ġshi4Ġ xi1Ġban1Ġya2Ġ
Ġhe2Ġ ji4Ġ
Ġbu4Ġ shi2Ġ
Ġshi2Ġ da4Ġ
ren4Ġ ming4Ġ
jing4Ġ tou2Ġ
lai2 Ġke4Ġ
te4 Ġzai4Ġ
fu2 Ġyin1Ġ
ya4 Ġsi1Ġ
Ġguo2Ġ shi2Ġ
Ġyuan2Ġ ziĠ
xin1Ġ jiang1Ġ
qian2Ġ jin4Ġ
Ġshe4Ġ ying3Ġ
tu2Ġ sha1Ġ
kong1Ġ xi2Ġ
tan3Ġ ding1Ġ
Ġke3 Ġshi4Ġ
Ġ yao4
Ġ hao3Ġ
ju2 Ġbu4Ġ
14 Ġnian2Ġ
shuo4 Ġ
Ġyi4Ġ da4Ġ
Ġjun1Ġ tuan2Ġ
nv3Ġ zhu3Ġjue2Ġ
shou1Ġ ru4
ĠR Ġ
Ġjing3Ġ fang1Ġ
E ĠĠĠ
g en3
luo4 Ġke4Ġ
hui2 Ġjia1Ġ
Ġgong1Ġ gao4Ġ
Ġzhi1Ġ hou4ĠdeĠ
mo2Ġ te4
Ġshi4Ġyi1Ġ ke1
Ġ kuan1Ġ
guang3 Ġzhou1Ġshi4Ġ
70 Ġnian2Ġ
seng1 Ġ
fu2Ġ lei2
zi1Ġ xun2Ġ
cheng2Ġli4Ġ hou4Ġ
Ġ bu4Ġzai4Ġ
1970 Ġnian2Ġdai4Ġ
Ġshi4Ġ xing1Ġdeng3Ġwei4Ġ
da4 Ġyu2Ġ
zhuan3 Ġcheng2Ġ
yi1Ġ yuan4Ġ
Ġyi3Ġ bei3Ġ
Ġxian4Ġ ming2Ġ
Ġming2Ġ xian3Ġ
xuan3Ġ qu1
ying1Ġ xiong2
yan2Ġjiu1 Ġzhong1Ġxin1Ġ
ĠÐ °
di2Ġshi4Ġ ni2Ġ
zhuan1 Ġli4Ġ
Ġren2Ġ dui4Ġ
Ġguo2Ġ jun1Ġ
Ġxia4Ġ leĠ
pu3Ġ luo2Ġ
zhuan1Ġ men2
pei2Ġ xun4Ġ
Ġnian2Ġqing1 ĠdeĠ
Ġ du4
Ġ dou4Ġ
jie1 ĠdeĠ
wu3 Ġde2Ġ
gong4 Ġji4Ġ
jiu4 Ġzai4Ġ
shui3 ĠdeĠ
00 Ġnian2Ġ
luo4 Ġzai4Ġ
lun2 Ġsi1Ġ
shen2Ġ hua4Ġ
dian4Ġying3Ġ jie2Ġ
3 Ġming2Ġ
Ġ kuai4Ġ
ĠĠĠ 2005
jiu4 Ġbei4Ġ
zhi4Ġ du4Ġ
yu3Ġ mao2
Ġzheng4Ġ quan2Ġ
yi2Ġ ding4ĠdeĠ
lan2Ġ se4Ġ
fa3Ġlan2Ġ xi1
Ġ ED
Ġ yun4Ġ
duo1 Ġli4Ġya4Ġ
bian4 Ġshi4Ġ
ting2 ĠdeĠ
kuai4 ĠdeĠ
mai3 Ġ
Ġshi4Ġ ying1Ġguo2Ġ
Ġji2Ġ bing4
qu1Ġ zhu2
fang1Ġ xiang4ĠdeĠ
Ġtian1Ġ jin1Ġ
5 000
gong1 Ġhe2Ġ
nan2 Ġren2Ġ
fei2 Ġte4Ġ
ti3Ġyu4Ġ guan3Ġ
1 ĠĠĠ
8 Ġge4Ġ
zhi1 Ġjia1Ġ
gu3 ĠdeĠ
gao4 Ġshi4Ġ
Ġxing2Ġ rong2
ben3Ġ shen1Ġ
nei4Ġ rui4Ġ
tou2Ġ shou3Ġ
mo2Ġ fa3Ġ
ying2Ġ yun4
zhuan3Ġ huan4
Ġshi4Ġshi2Ġ shang4Ġ
Ġ zi3Ġ
da4 Ġhe2Ġ
shui3 Ġhe2Ġ
zhi4Ġ zuo4
Ġji2Ġ xian4Ġ
Ġri4 Ġhe2Ġ
Ġjun1 Ġyou3Ġ
fu4Ġ shi3Ġ
Ġzhou1Ġ qi1Ġ
Ġyou2Ġ xi4ĠdeĠ
zhi3Ġ kong4
qing1Ġ chu3Ġ
zhun3Ġ bei4
Ġ 1949Ġnian2Ġ
nang2 Ġ
Ġshi2Ġ pin3Ġ
Ġbing4 Ġshi4Ġ
Ġtong2 Ġzhi4Ġ
chan3Ġ wu4Ġ
an4Ġ zhao4
ri4Ġben3 ĠdeĠ
Ġ xiong1
Ġ 2002
Ġ chu4Ġ
wang3 Ġyou3Ġ
Ġwei4Ġ li4Ġ
Ġyu2Ġ 2021
liu2Ġ liang4Ġ
zheng1Ġ qu3Ġ
zhuan3Ġ huan4Ġ
mei3Ġguo2Ġren2Ġkou3Ġpu3Ġ cha2Ġ
ĠThe ĠĠĠ
sai1Ġer3Ġwei2Ġ ya4Ġ
ĠĠĠ dao4Ġ
zhan4 Ġhe2Ġ
ke4 Ġsi1Ġ
ru4 Ġqiu2Ġ
bian4 ĠdeĠ
dan3 Ġ
Ġxing2 Ġren2Ġ
liang4Ġ zi3Ġ
Ġwei4Ġyu2Ġ yin2
su1Ġ dan1Ġ
ke3Ġneng2Ġ xing4Ġ
zhuan4Ġ xie3Ġ
shun4Ġ xu4Ġ
Ġlu2Ġ wa3Ġer3Ġsheng3Ġ
si4Ġchuan1Ġ sheng3Ġ
³ Ġ
Ġ peng2
Ġ wo4Ġ
zai4 ĠĠĠ
ing Ġ
ji4Ġ zai3Ġ
Ġxing2Ġ rong2Ġ
Ġbei4Ġ ren4Ġming4Ġwei4Ġ
Ġzhu3Ġ ti2Ġ
qiu2Ġ chang3Ġ
Ġshi4Ġjie4 Ġshang4Ġ
Ġmei3 Ġzhou1Ġ
gou4Ġmai3 Ġ
fang1 Ġzai4Ġ
chuan1 Ġxian4Ġ
at ĠĠĠ
Ġyu2Ġ shi2ĠdeĠren2Ġkou3Ġshu4Ġliang4Ġwei4Ġren2Ġ
bei4Ġ jing3
sai4Ġ guan4Ġjun1Ġ
gu3Ġ dian3Ġ
che4Ġ xiao1
N H
Ġ pan1
hua4 Ġshi4Ġ
tan2 Ġhe2Ġ
Ġshang4Ġ leĠ
Ġhuo4Ġ zhe3
jian3Ġ dan1ĠdeĠ
wei3Ġ tuo1Ġ
Ġwei4Ġyu2Ġgai1Ġguo2Ġ xi1Ġbu4Ġ
bao1Ġhan2 ĠleĠ
Ġ wen1Ġ
ba1 Ġbu4Ġ
chi4 Ġjing1Ġ
35 Ġnian2Ġ
Ġshi4Ġ ji4Ġzhong1Ġ
Ġli4Ġ tao2Ġ
Ġfei1Ġ lv4Ġ
Ġyuan2Ġzhu4Ġ min2Ġ
a i
Ġ ka3Ġer3Ġ
ma3 Ġli4Ġya4Ġ
bu3 Ġzhu4Ġ
kai1Ġ zhan3
zheng1Ġ fu2Ġ
tiao2Ġ wen2Ġ
dai4Ġbiao3Ġ tuan2Ġ
ruan3Ġ tiao2Ġ
deng3 Ġyu2Ġ
hao4 Ġwei4Ġ
CD Ġ
jiang1Ġ hu4
tong1Ġ xun4
ling3Ġ tu3
qu3Ġ mu4Ġ
Ġxiang1Ġdang1 Ġyu2Ġ
l an
± Ġ
i3 Ġ
ĠĠĠ hong2Ġ
ĠĠĠ you2Ġxi4Ġ
ke3 Ġjian4Ġ
pu3 Ġji2Ġ
Ġta1 Ġren2Ġ
zuo4Ġ zhe3Ġ
you2Ġ yong3Ġ
Ġde2Ġ wei2Ġ
mei2Ġyou3Ġ ren4Ġhe2Ġ
Ġtian1Ġ jin1
yan2Ġshen1 Ġzhi4Ġ
Ġ 1949
Ġ ti2Ġchu1Ġ
hou4 Ġyi3Ġ
jian1 Ġwei4Ġ
bo1 ĠdeĠ
du2 ĠdeĠ
rao4 Ġ
qian2Ġ ting3
Ġ 1995Ġnian2Ġ
Ġ 1993Ġnian2Ġ
zhong1 ĠdeĠyi1Ġ
jia3 Ġji2Ġ
pin2 Ġdao4
bei3Ġ bu4ĠdeĠ
jie1Ġ xia4Ġ
Ġxue2Ġ shu4Ġ
zhen4Ġ rong2Ġ
bing4Ġ ru4Ġ
zhu3Ġyao4 Ġshi4Ġ
Ġyou3Ġxian4 Ġgong1Ġsi1
qi2Ġzhong1Ġ yi1Ġ
ge1Ġlun2Ġ bi3Ġya4Ġ
su1Ġwei2Ġ ai1
Ġ liang2
qu3 ĠdeĠ
geng4 Ġshi4Ġ
Ġshi2Ġ er4Ġnian2Ġ
ji1Ġ guan1Ġ
kai1Ġ tong1
zhi2Ġ bang4
si4Ġ hu1
tai4Ġ shou3Ġ
ge1Ġ ge1Ġ
dian4Ġshi4Ġ dong4Ġhua4Ġ
Ġzui4Ġ zao3
Ġchu2Ġ ci3Ġzhi1Ġwai4Ġ
jie4Ġquan2Ġguo2Ġ zheng4Ġxie2Ġ
bao4Ġfa1 Ġhou4Ġ
shu4 Ġjia1Ġ
pian4 Ġzhong1Ġ
Ġzai4Ġ xiang1Ġgang3Ġ
Ġshi2Ġ yi1Ġnian2Ġ
Ġji2Ġ wei2Ġ
Ġyi3Ġ bian4Ġ
tong1Ġ wang3Ġ
wu3Ġ han4Ġ
Ġ ë
yuan2 Ġbu4Ġ
che1 Ġxing2Ġ
fen4 ĠdeĠ
1919 Ġnian2Ġ
Ġzhong1Ġ xin1ĠdeĠ
Ġda4Ġ xiao3Ġ
ge2Ġ la1Ġsi1Ġ
Ġyu4 Ġji4Ġ
O R
h n
Ġ hei1
wan4 Ġli4Ġ
hu1 Ġxi1Ġ
Ġda4Ġ li3Ġ
ju4Ġ li2
fa3Ġ lan2Ġke4Ġ
lian2Ġ luo4Ġ
ĠdeĠdi4Ġ san1Ġ
hen3Ġ da4ĠdeĠ
mao2Ġ dun4Ġ
D NA
Ġ fan2
ji4 Ġzhi4Ġ
jie1 Ġshi4Ġ
jie4 Ġshi2Ġ
ha1 Ġli3Ġ
huo3 Ġli4Ġ
reng2 Ġwei4Ġ
kua4 Ġyue4Ġ
TV Ġ
Ġshi4Ġ e2Ġluo2Ġsi1Ġ
Ġren2Ġ bei4Ġ
yong4Ġ hu4
dong4Ġ wu4
shui3Ġ liang4Ġ
xie2Ġ tiao2Ġ
shou1Ġ gou4
huo3Ġ che1Ġzhan4Ġ
nong2Ġ chang3Ġ
chong1Ġ man3Ġ
xuan1Ġ yan2Ġ
Ġchi4Ġ wei3Ġ
ĠĠĠ er4Ġ
ĠĠĠ jian3Ġli4Ġ
zhan4 Ġyou3Ġ
cheng1 Ġshi4Ġ
gu3 Ġxi1Ġla4
22 Ġnian2Ġ
yi4Ġ ming2Ġ
wu4Ġ pin3Ġ
duo1Ġ zhong3
Ġyou2Ġ tai4Ġ
hai3Ġ nan2Ġ
sheng3Ġ zhang3Ġ
huang2Ġ jin1Ġ
chuang4Ġ zao4
Ġxian4Ġshi2Ġ you2Ġ
ĠĠĠjin3Ġ guan3Ġ
ĠĠĠ ka3Ġ
hai3 ĠdeĠ
tu1 Ġji1Ġ
Ġren2Ġ yu3Ġ
Ġji2Ġ gong1Ġ
Ġyi3 Ġbu4Ġ
qu1Ġ nei4Ġ
shou1Ġ fei4Ġ
qi1 Ġzhi4Ġ
jun4 ĠdeĠ
si sĠ
Ġdao4Ġ da2
Ġde2 Ġdao4
Ġzhe4Ġ zuo4Ġ
ni2Ġ su1Ġ
mei3Ġ xiao3Ġshi2Ġ
Ġjing1Ġ chang2Ġ
zhou1Ġ bian1
Ġjian4Ġzhu4Ġ wu4Ġ
g ht
Ġ ke1Ġxue2Ġ
xin1 Ġjian4Ġ
zao4 Ġxing2Ġ
Ġde2 Ġjun1Ġ
shen1Ġ ti3
shi3Ġyong4Ġ zhe3Ġ
Ġzhe4 Ġshi2Ġ
wang4Ġyuan3Ġ jing4Ġ
s panĠ
ĠĠĠ 2022Ġnian2Ġ
ceng2 Ġbei4Ġ
xu4 ĠdeĠ
1922 Ġnian2Ġ
Ġda4Ġ ban3Ġ
Ġchu1Ġ chang3Ġ
long2Ġ sheng3Ġ
xiu1Ġ ding4Ġ
j e
ĠĠĠ jing1Ġli4Ġ
liu4 Ġming2Ġ
Ġdi4Ġ yi1Ġwei4Ġ
Ġji2Ġ hui4Ġ
Ġji2Ġ qi2Ġta1Ġ
ju3Ġ zhen4Ġ
zhong1Ġguo2Ġ da4Ġlu4Ġ
ĠE Ġ
luan3 Ġ
fa4 Ġ
Ġguo2Ġ you3Ġ
Ġchu1Ġ xi2
xi4Ġ jie2Ġ
lian2Ġ luo4
Ġsheng1Ġ tai4Ġ
mei3Ġ tian1Ġ
jiang3Ġ jin1Ġ
nuo4Ġ fu1Ġ
Ġguan1Ġ zhuang4Ġbing4Ġdu2
8 Ġmi3Ġ
Ġ 2001
Ġ pu2Ġtao2Ġya2
na4 Ġer3Ġ
11 Ġnian2Ġ
ĠdeĠ gao1Ġ
Ġren2Ġ zhi4Ġ
Ġcheng2Ġ yi1Ġ
Ġdui4Ġ xiang4Ġ
shou4Ġ huan1Ġying2Ġ
gui1Ġ ding4
cai2Ġ pan4Ġ
can1Ġyi4Ġ yuan4Ġ
Ġli4Ġfa3 Ġhui4Ġ
Ġ lun2Ġ
ya4 Ġhe2Ġ
chong2 Ġjian4
pu1 Ġ
ty Ġ
Ġzai4Ġ fa3Ġguo2Ġ
Ġqi2Ġ B
tuo1Ġ li2Ġ
xuan1Ġ cheng1Ġ
ĠĠĠ lin2Ġ
bo ok
sheng4 Ġdan4Ġ
ba3 Ġta1Ġ
68 Ġnian2Ġ
Ġshi2Ġ ren4
yan2Ġ fa1Ġ
jiao4Ġ gao1Ġ
zhi3Ġ shu4Ġ
Ġren4Ġ ming4Ġ
pai2Ġ lie4Ġ
Ġxi4Ġ bao1Ġ
biao3Ġxian4 Ġchu1Ġ
Ġji2Ġxing2Ġzheng4Ġ dan1Ġwei4Ġ
Ġao4Ġda4Ġli4Ġ ya4Ġ
m a4
fang1 Ġxing2Ġ
ze2 Ġbei4Ġ
zhuang1 Ġwei4Ġ
1911 Ġnian2Ġ
Ġshi2Ġ san1Ġ
Ġyu2Ġ 2019
Ġer2 Ġhou4Ġ
zhu3Ġ dong4Ġ
bi4Ġ yao4Ġ
Ġyin2Ġ wei3Ġ
0 Ġzuo4Ġbiao1Ġwei4Ġ
2 Ġli4Ġ
Ġ Ja
xing2 ĠdeĠ
zi Ġshi4Ġ
fei1 Ġdan4Ġ
zhen1 Ġren2Ġ
wei2Ġ yi1ĠdeĠ
bei4Ġ er3Ġ
Ġdan4 Ġshi4Ġzai4Ġ
Ġdan4Ġ zui4Ġzhong1Ġ
jiao1Ġ gei3Ġ
xun4Ġ su4
huo3Ġ che1Ġ
ren2Ġmin2Ġ zheng4Ġfu3Ġ
Ġhu2Ġ bei3Ġ
Ġwei4Ġyu2Ġyin2 Ġjing1Ġ
Ġqi2ĠB 1900
0Ġzuo4Ġbiao1Ġwei4Ġ chi4Ġjing1Ġ
ĠĠĠ 11Ġyue4Ġ
jiang1 Ġjun1
lian2 Ġjun1Ġ
la1 Ġwei2Ġ
bo2 Ġer3Ġ
lun2 ĠdeĠ
ï¼ İ
Ġzhong1Ġ hua2
ji1Ġ du1Ġ
Ġxing2Ġ tai4Ġ
geng4Ġ da4ĠdeĠ
tu3Ġ rang3
Ġjian4Ġzhu4Ġ mian4Ġji1Ġ
kong4Ġ zhi4ĠdeĠ
gong4Ġhe2Ġ dang3Ġ
Ġ wu1Ġke4Ġlan2
ĠĠĠ san1Ġ
ming2 Ġhe2Ġ
hua4 Ġyu3Ġ
suo3 Ġyi3Ġ
jiao1 Ġzhan4Ġ
pe Ġ
1926 Ġnian2Ġ
Ġsi1Ġ zhi2Ġ
guan1Ġ xi4ĠdeĠ
xiao1Ġ fang2Ġ
Ġqing1Ġchao2Ġ zheng4Ġzhi4Ġren2Ġwu4Ġ
K B
Ġ huan2
ĠĠĠ 6
ĠĠĠ shang4Ġ
ĠĠĠ fen1Ġbu4Ġ
xiang4 Ġyu2Ġ
si3 ĠleĠ
ra Ġ
you2Ġ xi4ĠdeĠ
xiao4Ġ lv4Ġ
ou1Ġ meng2Ġ
bian1 Ġzhi4Ġ
sha1 Ġren2Ġ
se ĠĠĠ
zhong1Ġ hua2Ġmin2Ġguo2Ġ
Ġji2Ġ ti3Ġ
Ġze2 Ġshi4Ġ
ĠĠĠche1Ġzhan4Ġ gou4Ġzao4Ġ
luo4Ġfa2 Ġke4Ġ
Ġ ou1
Ġ 1985Ġnian2Ġ
ĠĠĠ ping2Ġ
lun4 Ġshi4Ġ
xie3 Ġwei4Ġ
el Ġ
75 Ġnian2Ġ
Ġshi2Ġ ba1Ġ
Ġyu2Ġ tong2
Ġda4Ġ jie1Ġ
jin1Ġ shu3
Ġju4Ġ qing2Ġ
zu2Ġ qun2Ġ
Ġmu3Ġ qin1
jie3Ġfang4 Ġjun1
Ġ Da
ĠĠĠ chu2Ġ
dao3 Ġhe2Ġ
man4 ĠdeĠ
kang4 Ġzhan4Ġ
dong3 Ġ
weng1 Ġ
Ġji2Ġ cheng2Ġ
ji1Ġ che1Ġ
yi2Ġ ban4Ġ
xu3Ġ ke3Ġ
ai4Ġer3Ġ lan2
l a2
Ġ zheng3Ġge4Ġ
da1 Ġzai4Ġ
zhu3Ġ quan2Ġ
Ġqiu2Ġ dui4
cai3Ġyong4Ġ leĠ
4 Ġmi3Ġ
zhi2 Ġxing2
nei4 Ġsi1Ġ
wo3 ĠdeĠ
zhi3Ġ ding4
jin3Ġ zhang1Ġ
jia4Ġ gou4Ġ
zhen1Ġ zheng4ĠdeĠ
Ġda4 Ġbu4Ġfen4Ġ
shun4Ġshi2Ġ zhen1Ġyu3Ġ
Ġ wei3
Ġ 160
qi n3
ba1 Ġsi1Ġ
can1 Ġjian4Ġ
kan4 Ġfa3Ġ
wen1 Ġdai4Ġ
hun1 Ġyin1
64 Ġnian2Ġ
tie1 Ġmu4
1918 Ġnian2Ġ
Ġyi1Ġ shi2Ġ
Ġyi3Ġ dong1Ġ
Ġxian4Ġ zhang3Ġ
zi4Ġ wo3Ġ
wu4Ġ ti3Ġ
feng1Ġ ge2ĠdeĠ
ti2Ġ qian2Ġ
se4Ġ cai3Ġ
lian2Ġmeng2 ĠdeĠ
Ġ zao4Ġ
ĠĠĠ Y
ze2 Ġyou2Ġ
pin1 Ġ
Ġshi4Ġ tai2Ġwan1Ġ
Ġda4Ġ dui4Ġ
zhu3Ġ da3Ġ
suo3Ġ xu1
pu3Ġ la1Ġ
ĠĠĠ 4Ġ
ĠĠĠ 2009Ġnian2Ġ
lai2 Ġshi4Ġ
zhen4 Ġji2Ġxing2Ġzheng4Ġdan1Ġwei4Ġ
Ġbu4Ġ cheng2Ġ
fang1Ġ bian4Ġ
Ġyou2Ġ zheng4Ġ
jue2Ġ se4ĠdeĠ
ding4Ġ yi4Ġwei4Ġ
Ġzi4Ġ ran2
tu2Ġ an4Ġ
chong2Ġ fan3Ġ
Ġyin3Ġ fa1Ġ
7 Ġmi3Ġ
Ġ qu4Ġ
Ġ lie4Ġche1Ġ
ĠĠĠ ta1ĠdeĠ
lin2 Ġjin4Ġ
sheng4 ĠdeĠ
jiang3 Ġli4Ġ
Ġzhi4Ġ yuan2Ġ
sheng1Ġ ge2Ġwei4Ġ
Ġjian4Ġ kang1
Ġquan2 Ġxian4Ġ
zui4Ġ zhong4Ġyao4ĠdeĠ
Ġzhe4Ġ yang4
Ġwei1 Ġer3Ġ
Ġ song1Ġ
Ġ kai1Ġfa1Ġ
an4 Ġli4Ġ
duo1 Ġer3Ġ
28 Ġnian2Ġ
bi2 Ġ
Ġshi4Ġ lang2Ġ
Ġzai4Ġ qian2Ġ
Ġzhong1Ġ yi1Ġ
Ġji2Ġ bie2Ġ
Ġer2Ġ tong2
Ġshang4Ġ ying4Ġ
tong2Ġ yang4Ġ
can1Ġ guan1Ġ
Ġzheng4Ġfu3 ĠdeĠ
Ġren2Ġkou3 Ġwei4Ġ
ĠĠĠ er2Ġ
ĠĠĠ guo2Ġji4Ġ
jing3 Ġwei4Ġ
xian1 Ġwei2Ġ
jia4 ĠdeĠ
1914 Ġnian2Ġ
Ġzhong1Ġ jiang4Ġ
Ġyi1Ġ liao2
Ġyin1 Ġer2
jian1Ġ chi2Ġ
zhong3Ġ lei4Ġ
ci4Ġ shu4Ġ
ĠĠĠ 7
ĠĠĠ xiao3Ġ
ĠĠĠ gu3Ġ
xian1 ĠdeĠ
90 Ġ
mai2 Ġ
yi4Ġ hui4Ġ
Ġyu2Ġ 2016
Ġzhou1Ġ zhang3Ġ
wang3Ġ wang3
jian3Ġ cha2
shen3Ġ pan4Ġ
Ġ17 Ġ
hun4Ġ ning2Ġ
Ġ 58
shou4 Ġdao4ĠleĠ
qu4 ĠleĠ
65 Ġnian2Ġ
Ġge4 Ġguo2Ġjia1Ġ
Ġyu3Ġ xi1Ġ
dan1Ġ du2Ġ
bian1Ġ zu3Ġ
Ġ tai4Ġguo2Ġ
Ġ guang3Ġxi1Ġ
shi1 Ġji2Ġ
shen1 Ġyu2Ġ
lun4 ĠdeĠ
xun4 Ġxi1Ġ
es ĠĠĠ
62 Ġnian2Ġ
Ġzhong1Ġ duan4Ġ
Ġda4Ġ chen2
qun2Ġ dao3ĠdeĠ
e4Ġ hua4Ġ
ĠT Ġ
Ġ ni2
Ġ bin1Ġ
ming2 Ġyu2Ġ
xing4 Ġming2Ġ
1950 Ġnian2Ġ
Ġyu3Ġ wen2Ġ
zhu4Ġ shou3Ġ
mian4Ġ xiang4Ġ
Ġyou2 Ġqi2Ġ
Ġzhan4 Ġhou4Ġ
Ġ Sh
ba1 Ġji1Ġsi1Ġ
Ġshi4Ġ cheng2Ġ
Ġshi4Ġ chu1Ġ
Ġyou3Ġ ming2Ġ
Ġdao4 Ġshi2Ġ
Ġyi3Ġ ci3Ġ
jiao4Ġ lian4
Ġzhou1Ġ fu4Ġze2Ġguan3Ġxia2Ġ
wai4Ġ lang2Ġ
tian1Ġ wen2Ġxue2Ġ
xiang3Ġ yao4Ġ
jiang3Ġ pai2Ġ
gen1Ġ sui2Ġ
Ġai4 Ġer3Ġ
tiao2Ġyue1Ġ ti3Ġxi4Ġ
4 Ġming2Ġ
7 Ġge4Ġ
v en
Ġ 47
an1 Ġxian4Ġ
ĠĠĠ luo2Ġ
ĠĠĠ wang2Ġ
suo3 Ġshi4Ġ
70 Ġ
Ġzhong1Ġ shan1
hou4Ġ qi1Ġ
guan1Ġ kan4Ġ
jing1Ġ yan4
cheng1Ġ hu1Ġ
pei2Ġ xun4
Ġping2 Ġcheng2Ġ
A L
E T
Ġ 1988Ġnian2Ġ
ĠĠĠ zuo4Ġwei2Ġ
ji4 Ġbu4Ġ
wu4 Ġbu4Ġ
ji1Ġ hui4Ġ
zhu3Ġ ban4Ġ
fu4Ġ mu3Ġ
jian1Ġ cha2
ge1Ġ shou3
Ġxiang1Ġ guan1ĠdeĠ
su4Ġ du4
Ġzhi2Ġ jie1Ġ
Ġ zong1Ġ
Ġ 1984Ġnian2Ġ
suan1 Ġjian3Ġ
ĠdeĠ xing2Ġ
fang1Ġ an4
qian2Ġ shen1Ġ
xuan3Ġ min2Ġ
ke1Ġ hui4Ġshi4Ġdi4Ġ
er4Ġ shi2Ġnian2Ġ
ĠdeĠshi2Ġ jian1
Ġguo2Ġfang2 Ġbu4Ġ
ĠĠĠ 2007Ġnian2Ġ
Ġji1Ġ fen1Ġ
you2Ġ ju2
pian4Ġ duan4Ġ
Ġlai2Ġ zi4
nan2Ġji2Ġ tiao2Ġyue1Ġti3Ġxi4Ġ
Ġ 600
ĠĠĠ quan2Ġ
xiang3 Ġyou3Ġ
tang2 Ġhe2Ġ
ting1 Ġdao4Ġ
yin2 Ġhe2Ġ
tu1 Ġran2
can2 Ġji2Ġren2Ġ
Ġbu4Ġ lu3Ġ
Ġren2Ġ quan2Ġ
Ġgong1Ġ da3Ġ
Ġchu1 Ġyu2Ġ
zi4Ġ sha1Ġ
pin3Ġ zhong3Ġ
ji3Ġ nei4Ġ
Ġgai1Ġcun1Ġ shi3Ġjian4Ġyu2Ġ
v o
Ġ 64
Ġ zi1Ġ
yu2 Ġwei4Ġ
zheng4 Ġyi4Ġ
zhan4 Ġwei4Ġyu2Ġ
zhu4 Ġyou3Ġ
Ġshi4Ġ pin2Ġ
Ġzai4Ġ nei4Ġ
wei2Ġ ye3Ġ
dian4Ġ chi2Ġ
duo1Ġ shu4
qing2Ġ gan3Ġ
rong2Ġ liang4Ġ
re4Ġ dai4
Ġzhi2 Ġxing2Ġ
Ġan1Ġ hui1Ġ
Ġxing2Ġcheng2Ġ leĠ
Ġjing4Ġ nei4Ġ
qi2Ġzhong1Ġ yi2Ġge4Ġ
xia4Ġxia2ĠdeĠyi2Ġge4Ġxiang1Ġ zhen4Ġji2Ġxing2Ġzheng4Ġdan1Ġwei4Ġ
Ġ long2
Ġ zu3Ġzhi1Ġ
ma3 Ġshi4Ġ
zhen4 Ġdi4Ġ
wei2Ġ chi2
zhen4Ġ ya1Ġ
Ġ fan4
Ġ di1Ġ
Ġ 1990Ġnian2Ġ
ĠĠĠ jin4
ĠĠĠ Pro
a1 Ġsi1Ġ
mei2 Ġtong2Ġpai2Ġ
ta3 Ġji1Ġ
gong1Ġ min2Ġ
Ġshi2Ġ you3Ġ
Ġcheng2Ġ gong1ĠdeĠ
Ġji1Ġ ben3
Ġjia1Ġ li3Ġ
Ġke4 Ġyu3Ġ
jiang1Ġ nan2Ġ
fu2Ġ zhuang1Ġ
su4Ġ song4Ġ
kao3Ġ cha2Ġ
pi1Ġ pan4Ġ
ĠF Ġ
Ġsi1Ġling4 Ġyuan2Ġ
Ġ kai1Ġshi3
liang3 Ġzuo4Ġ
nong2 Ġli4Ġ
Ġzai4Ġ na4Ġ
Ġyi4Ġ xi2Ġ
Ġri4 Ġyi3Ġ
Ġyi1Ġ lai4
Ġjian4 Ġdao4Ġ
Ġhou4Ġ zhe3
Ġde2Ġ luo2Ġ
hua4Ġ gui1Ġ
jiao4Ġ da4ĠdeĠ
wen2Ġ zhang1
Ġwei2Ġ wu2Ġer3Ġ
Ġzuo4Ġ zhe3Ġ
qi3Ġ yuan2Ġyu2Ġ
bo1Ġ te4Ġ
1 Ġmi3Ġ
Ġ shu4
yong4 Ġzai4Ġ
Ġzai4Ġ cheng2Ġ
Ġyue4Ġ yu3Ġ
tian1Ġwen2Ġ tai2Ġ
Ġ mao2
ĠĠĠ sui1Ġran2
te4 Ġshi4Ġ
you4 Ġyi4Ġ
fang2 Ġxian4Ġ
1990 Ġnian2Ġdai4Ġ
kuang1 Ġjia4Ġ
Ġxi1Ġ te4Ġ
Ġbing4Ġ bu2Ġshi4Ġ
qing1Ġ xiang4Ġ
Ġxia4Ġ lai2Ġ
jie3Ġ san4
mo4Ġ qi1Ġ
shou1Ġ cang2Ġ
Ġnian2Ġ4Ġyue4Ġ 1Ġri4Ġ
yin4Ġ ni2
xiao3Ġxing2Ġ xing1ĠdeĠ
nan2Ġji2Ġtiao2Ġyue1Ġti3Ġxi4Ġ guan3Ġli3Ġ
Ġ xian3Ġshi4Ġ
ĠĠĠ zhi2Ġye4Ġsheng1Ġya2Ġ
le Ġzhong1Ġguo2Ġ
wei2 Ġgong1Ġ
bian1 Ġxing2Ġ
ci2 Ġji1Ġ
shi2Ġ yi1Ġ
Ġshi2Ġ ti3Ġ
Ġda4Ġ qi4Ġ
hui4Ġ shang4Ġ
fa3Ġ lan2Ġxi1Ġ
fen1Ġ li2
shao4Ġ nv3
U N
Ġ 1989Ġnian2Ġ
ke1 Ġli4Ġ
sheng3 Ġfu4Ġze2Ġguan3Ġxia2Ġ
luo4 Ġyi1Ġ
hu4 Ġwei4Ġ
lei3 Ġji1Ġ
id Ġ
san3 Ġ
Ġdi4Ġ yu4Ġ
wei2Ġ chi2Ġ
qian2Ġ lai2Ġ
shang1Ġ hai4Ġ
tiao2Ġ jie2Ġ
yi2Ġge4 Ġyue4Ġ
Ġjie2Ġ hun1Ġ
dang1Ġ xuan3Ġwei4Ġ
Ġlian2Ġ bang1
Ġji2Ġbei3Ġ mei3Ġ
gen3 Ġdi4Ġ
Ġ 1945
ĠĠĠ i
ri4 Ġjun1Ġ
mie4 Ġjue2Ġ
shan3 Ġ
ĠdeĠ zhi1Ġchi2Ġ
Ġshi4Ġ zhi4Ġ
Ġcheng2Ġ fen4Ġ
Ġzhi1 Ġli3Ġ
Ġyuan2Ġ yin1Ġshi4Ġ
xi1Ġ wang4
Ġdan4 Ġye3Ġ
Ġfu4Ġ zhu3Ġxi2Ġ
zhong4Ġ liang4Ġ
lei2Ġ da2Ġ
Ġshi4Ġjie4Ġ bei1
chi3Ġ cun4
Ġjie1Ġ shou4Ġ
wei2Ġyi1Ġ yi1Ġ
I V
Ġ cao2Ġ
ai4 Ġhao4Ġ
ĠĠĠ wai4Ġbu4Ġ
zui4 Ġyou3Ġ
mo4 Ġnian2Ġ
jian3 Ġyi4Ġ
sa4 Ġke4Ġsi1Ġ
th er
37 Ġnian2Ġ
jiao4Ġ zong1Ġ
Ġzheng4Ġ ce4
yan3Ġ hua4Ġ
tong2Ġ meng2
ting2Ġ zhi3
ĠJ Ġ
Ġ hui1Ġ
fei1 Ġer3Ġde2Ġ
pen2 Ġdi4Ġ
Ġwei4Ġ ji2Ġ
Ġxi1Ġ zang4Ġ
Ġke4 Ġzai4Ġ
xia4Ġ ling4Ġ
fa3Ġ xue2Ġ
sha1Ġ bai2Ġ
jiu3Ġ long2
Ġnian2Ġdai4 ĠdeĠ
Ġ 800
jian4 Ġshe4
si4 Ġwei4Ġ
shui3 Ġdao4Ġ
ment Ġ
ĠdeĠ qing2Ġkuang4Ġxia4Ġ
Ġdi4Ġ 3Ġ
Ġyu2Ġ 2018
Ġcheng2Ġ jiu4Ġ
Ġyi1Ġ shi1Ġ
Ġge4Ġ lei4Ġ
Ġren2Ġmin2Ġ zheng4Ġfu3
ĠĠĠzhong1Ġ hua2Ġren2Ġmin2Ġgong4Ġhe2Ġguo2Ġ
Ġhua2Ġ sheng4Ġ
can1Ġsai4Ġ zi1Ġge2Ġ
shan1Ġmai4 ĠdeĠyi1Ġbu4Ġfen4Ġ
Ġ jie1Ġwei4Ġ
Ġ lei3Ġji4Ġ
sui2 Ġji1Ġ
ren2Ġ kou3Ġwei4Ġ
ji4Ġ hua4
Ġyi1Ġ ci4
Ġyuan2Ġ li3Ġ
Ġxian4Ġ xing4Ġ
qu1Ġ bie2Ġ
tong1Ġ yong4Ġ
shou4Ġ sun3Ġ
tou2Ġ xiang2
Ġzhu3Ġ zhang1Ġ
hui2Ġ da2Ġ
zheng4Ġzhi4Ġ jia1Ġ
Ġ19 Ġ
re4Ġdai4Ġ qi4Ġxuan2Ġ
Ġge4Ġyue4Ġ hou4Ġ
Ġ Sa
Ġ du2Ġli4Ġ
Ġ chao1Ġ
Ġ 1991Ġnian2Ġ
ĠĠĠ jie2Ġ
hui4 Ġwei4Ġ
hai3 Ġshi4Ġ
xin4 Ġren4Ġ
Ġzai4Ġ shang4Ġ
Ġguo2Ġ an1Ġ
qian2Ġ feng1Ġ
jian3Ġ ce4Ġ
dian4Ġshi4Ġ jie2Ġmu4Ġ
ĠdeĠgong1Ġ neng2Ġ
ĠĠĠE n
Ġ guan3Ġli3Ġ
Ġ chao1Ġguo4Ġ
jue2 Ġwei4Ġ
24 Ġnian2Ġ
1960 Ġnian2Ġdai4Ġ
Ġdi4Ġ chan3Ġ
Ġyi1Ġ ran2
suo3Ġ wei4ĠdeĠ
hai3Ġ ba2Ġgao1Ġdu4Ġ
tang2Ġ qu1Ġ
tiao2Ġ kuan3Ġ
yin1Ġ ci3Ġ
Ġtong2Ġ xing4Ġ
Ġ18 Ġ
ĠdeĠji4Ġ shu4Ġ
wen3Ġ ding4ĠdeĠ
xi1 Ġyu2Ġ
jie2 Ġchu1Ġ
bing1 ĠdeĠ
Ġta1 Ġyou3Ġ
guan1Ġ lian2Ġ
Ġzhou1Ġ kan1Ġ
bao3Ġ xian3Ġ
Ġhuo4Ġ cheng1Ġ
du1Ġ cha2Ġ
Ġjian3Ġ cheng1
fa1Ġbiao3 ĠdeĠ
hu4Ġlian2Ġ wang3Ġ
Ġ La
ĠĠĠ 2006Ġnian2Ġ
yu3 Ġyi4Ġ
xiang4 Ġwei4Ġ
ceng2 Ġren4Ġ
gai3 Ġjin4Ġ
Ġhe2Ġ yi4Ġ
Ġdui4Ġ fang1Ġ
Ġquan2 Ġshi4Ġ
ci2Ġ dian3Ġ
ya4Ġmei3Ġ ni2Ġya4Ġ
Ġ sang1
nan2 Ġshi4Ġ
ceng2 Ġyou3Ġ
zeng1 Ġshe4Ġ
tui1 Ġli3Ġ
zu an1Ġ
Ġzheng4Ġ chang2Ġ
dao3Ġ shi1Ġ
pu3Ġ lu3Ġshi4Ġ
Ġdian4Ġ ziĠ
tui1Ġchu1Ġ leĠ
xiu1Ġdao4Ġ yuan4Ġ
Ġ rong2
Ġ wa3
Ġ zhui1Ġ
ĠĠĠ huo4Ġ
lu4 Ġshi4Ġ
bei3 Ġji2Ġ
liu2 Ġqiu2Ġ
qu3 Ġzi4Ġ
yin3 Ġjin4Ġ
Ġhe2Ġ yuan2Ġ
Ġli4Ġ ao4Ġ
Ġyu3Ġ qi2
ĠdeĠshi4Ġ jie4
Ġdong4Ġ hua4Ġ
Ġ kang1
ĠĠĠ min2Ġguo2Ġ
hun1 Ġli3Ġ
Ġyu2Ġ 2020
Ġyu2Ġ 2024
Ġcheng2Ġ zuo4Ġ
su1Ġ ge2Ġlan2
Ġci3Ġ ci4Ġ
O M
Ġ 65
Ġ zu3Ġcheng2Ġ
Ġ bang1Ġzhu4Ġ
Ġ qiao2Ġzhi4Ġ
dui4 Ġzhong1Ġ
and Ġ
67 Ġnian2Ġ
Ġdi4Ġ jiu3Ġ
Ġta1 Ġbu4Ġ
Ġxing2Ġ chai2
Ġxing2Ġ shi4ĠdeĠ
zheng4Ġ ce4
dai4Ġ ma3Ġ
ĠleĠ yi2Ġge4Ġ
Ġxiang1Ġ guan1
Ġxi4Ġ lie4
Ġxing2Ġzheng4Ġ yuan4Ġ
Ġyou4 Ġyi4Ġ
mei3 ĠdeĠ
bao3 Ġhe2Ġ
chuan2 ĠdeĠ
ting2 Ġzhan4Ġ
na2 Ġda4
38 Ġnian2Ġ
dou3 Ġ
Ġcheng2Ġ du1Ġ
ji1Ġ bai4Ġ
Ġyu3Ġ zhi1Ġ
Ġdai4Ġ ma3Ġwei4Ġ
liu2Ġ dong4Ġ
liang2Ġ hao3Ġ
li4Ġshi3Ġ shang4Ġ
Ġp ang1
Ġxian4Ġshi2Ġyou2Ġ nan2Ġji2Ġtiao2Ġyue1Ġti3Ġxi4Ġguan3Ġli3Ġ
Ġ sheng3Ġ
Ġ biao1Ġ
Ġ tan2Ġ
ĠĠĠ che1Ġzhan4
ping2 Ġren2Ġ
bai2 Ġren2Ġ
ding3 Ġji2Ġ
zu1 Ġjie4
ed ĠĠĠ
Ġyu2Ġ 2015
Ġzhi4Ġ du4
Ġchu1Ġ lai2ĠdeĠ
te4Ġ shu1
mian4Ġ 2
Ġduo1Ġ ci4Ġ
Ġ gong4Ġtong2Ġ
ĠĠĠ zhang1Ġ
jie2 Ġshi2Ġ
ye4 Ġhe2Ġ
luo4 Ġyu2Ġ
Ġdi4Ġ shang4Ġ
Ġgong1Ġ chang3
lu4Ġ ying3Ġdai4Ġ
Ġben3Ġ zhan4Ġ
Ġben3Ġ tu3Ġ
shen2Ġ sheng4Ġ
chong2Ġ qing4Ġ
Ġtian1Ġ wen2Ġ
Ġ yan2Ġjiu1
Ġ UĠ
ĠĠĠ wu3Ġ
jiang3 Ġxue2Ġ
pian4 Ġren2Ġ
29 Ġ
45 Ġ
ard Ġ
ĠdeĠ you3Ġ
Ġyu2Ġ lei2Ġ
da4Ġ xing2Ġ
ye4Ġ jian1Ġ
ti2Ġ gao1
liang3Ġ an4Ġ
yi3Ġ jing1
Ġzai4Ġdi4Ġ yi1Ġ
guan1Ġfei4Ġyan2Ġ que4Ġzhen3Ġbing4Ġli4Ġ
ĠĠĠ sha1Ġ
ĠĠĠ yin1Ġyue4Ġ
bei3 ĠdeĠ
jiao1 Ġyou2Ġ
man4 Ġdi4Ġguo2Ġ
zheng3 Ġli3Ġ
Ġyu2Ġ 2013
Ġyou3Ġ guan1ĠdeĠ
ji4Ġ shu4
Ġgong1Ġ an1Ġ
zhuang4Ġ tai4
Ġzhi2 Ġli4Ġ
pei2Ġ yang3
ĠĠĠzhe4Ġ ke1Ġ
ri4 Ġzhi4Ġ
tong2 Ġwei4Ġ
hui2 Ġdao4
man Ġ
Ġren2Ġ li4Ġ
Ġyi1Ġ ran2Ġ
Ġchu1 Ġnian2Ġ
nei4Ġ ge2
dan1Ġ mai4Ġ
jing3Ġ dian3Ġ
Ġyou2 Ġqi2
Ġdeng3Ġ deng3Ġ
Ġti3Ġ yu4Ġ
âĪ Ĵ
Ġ lao3
min2 Ġyi4Ġ
zhui1 Ġqiu2Ġ
ĠdeĠ xing2Ġshi4Ġ
Ġshi4Ġ chang3
ren2Ġ yuan2Ġ
Ġyu2Ġ 2012
Ġguo2Ġ dao4Ġ
Ġxing2Ġ hao4Ġ
hua4Ġ mian4Ġ
chuan2Ġ shuo1
Ġnan2Ġ xing4Ġ
jiu4Ġ zhi3Ġ
jing3Ġ qu1Ġ
fang2Ġ wu1
ĠdeĠji1Ġ chu3
Y Ġ
lin2 Ġzhong1Ġ
sheng3 Ġhui4Ġ
tong1 Ġxing2Ġ
le4 Ġyuan2Ġ
Ġshi4Ġ xia4Ġxia2ĠdeĠyi2Ġge4Ġxiang1Ġzhen4Ġji2Ġxing2Ġzheng4Ġdan1Ġwei4Ġ
Ġyi3Ġ bian4
fa1Ġ jue2Ġ
ru4Ġ jing4Ġ
yan3Ġ zou4Ġ
she4Ġ ying3Ġ
zhuan1Ġ yong4Ġ
Ġhai3Ġ ba2
gui4Ġ zu2
ĠÐ ¾
z en3Ġ
Ġ chi2Ġ
ai4 Ġli4Ġ
ĠĠĠ fen1Ġlei4Ġ
ji2 Ġzhong1Ġxue2Ġ
ze2 Ġxi1Ġ
ba1 Ġli3Ġ
luo4 Ġshi2Ġ
jiang4 Ġji2Ġ
gong1Ġ ji1Ġ
Ġji4Ġ hua4ĠdeĠ
zhu3Ġ dao3Ġ
guan1Ġ guang1Ġ
bo2Ġ la1Ġ
s of
Ġ shu1
Ġ sĠ
en terĠ
xiang4 Ġji1Ġ
zong3 Ġsi1Ġling4Ġ
you4 Ġzai4Ġ
xie1 Ġer3Ġ
ban3 Ġquan2Ġ
ĠdeĠ zui4Ġ
nan2Ġ bu4ĠdeĠ
Ġbei4Ġ bu3Ġ
lian2Ġ sai4ĠdeĠ
Ġqi2Ġ xia4ĠdeĠ
ti3Ġ yan4Ġ
yi2Ġ mian4Ġ
Ġdan4Ġ mei2Ġyou3Ġ
lun4Ġ tan2Ġ
zhen1Ġ cha2Ġ
Ġsan1 Ġyue4Ġ
tong3Ġzhi4Ġ zhe3Ġ
fan2Ġ mang2
Ġhei1Ġ long2Ġjiang1Ġ
Ġ zhuan1
Ġ yi4Ġnian2Ġ
ku4 Ġer3Ġ
Ġyi3Ġ ji2Ġzai4Ġ
zhu3Ġ liu2Ġ
dong1Ġ qu1Ġ
Ġxia4Ġ wu3Ġ
tong2Ġ meng2Ġ
ĠH Ġ
m u2
Ġ 1999
qian1 Ġming2Ġ
geng4 Ġgao1Ġ
qiu1 Ġji4Ġ
ye2 Ġer3Ġ
end Ġ
Ġhe2Ġ zhi4Ġ
Ġqi2 Ġzhi4Ġ
hua4Ġ ru4Ġ
li2Ġ ba1Ġnen4
mi4Ġ su1Ġli3Ġ
Ġ16 Ġ
kang4Ġri4Ġ zhan4Ġzheng1Ġ
Ġhe2Ġdao4 Ġquan2Ġzhang3Ġ
Ġ you3
ĠĠĠ zheng1Ġyi4Ġ
yu3 Ġdi4Ġ
zuo4 Ġzai4Ġ
te4 Ġren2Ġ
or ld
Ġshi4Ġ xin1Ġ
Ġbu4Ġ duan4
Ġyu2Ġ 2014
Ġyi1Ġ er3Ġ
Ġdao4 Ġji2Ġ
jian1Ġ cha2Ġ
feng1Ġ suo3Ġ
Ġye3Ġ mei2Ġyou3Ġ
xiang1Ġgang3 ĠdeĠ
dong1Ġbu4Ġ shi2Ġqu1Ġ
1 Ġjia1Ġ
si4 Ġren2Ġ
rong2 ĠdeĠ
tuo1 Ġer3Ġ
ke2 Ġ
gong1Ġ ye4Ġ
Ġgong1Ġ jiao1Ġ
Ġcheng2Ġ zhang3Ġ
Ġjun1 Ġren2Ġ
luo4Ġ te4Ġ
Ġma3Ġ la1Ġ
Ġtai4Ġ yang2Ġgong1Ġ
c lu
ĠĠĠ Ð
ke4 Ġli3Ġsi1Ġ
yun4 Ġzai4Ġ
guang3 Ġyi4Ġ
xuan1 Ġshi4Ġ
di4Ġ guo2Ġ
Ġxi1Ġ yin3
dian4Ġ tai2
bei3Ġ hai3Ġdao4Ġ
Ġsui2 Ġji2Ġ
la1Ġsi1Ġ jia1Ġ
Ġ 59
Ġ Me
Ġ qu3Ġde2Ġ
Ġ hao2Ġ
Ġ hou4Ġyu2Ġ
duo1 Ġsi1Ġ
ze2 Ġyi3Ġ
fei1 ĠdeĠ
zhuang1 ĠdeĠ
wan1 Ġqu1Ġ
liu4 Ġshi4Ġ
niu2 Ġsi1Ġ
Ġyi1Ġ qie4
Ġda4Ġ lian2Ġmeng2Ġ
jiao4Ġ di1Ġ
yun4Ġ ying2
bao1Ġkuo4 Ġyi3Ġxia4Ġ
gong1Ġyuan2Ġ qian2Ġ
zhui1Ġsu4 Ġdao4Ġ
Ġ 49
Ġ ming2Ġwei4Ġ
ĠĠĠ 9
ĠĠĠ e
ĠĠĠ wu2Ġ
a1 Ġbu4Ġ
sheng1 Ġhe2Ġ
fu4 Ġyu2Ġ
yuan3 ĠdeĠ
chun1 Ġji4Ġ
lv4Ġ hua4Ġ
xi2Ġ ji1
Ġdang1Ġ di4ĠdeĠ
Ġnei4Ġ rong2Ġ
guo2Ġwu4Ġ yuan4Ġ
ai1Ġna4Ġ sheng3Ġ
ĠĠĠ dao4
ĠĠĠ Li
yu3 Ġzhong1Ġguo2Ġ
te4 Ġgong1Ġ
liang4 Ġji2Ġ
dang3 Ġzai4Ġ
at Ġ
ĠdeĠ hou4Ġ
ben3Ġ ke1Ġ
dong1Ġ ce4Ġ
shang1Ġ wu4Ġ
dou1Ġ mei2Ġyou3Ġ
zhun3Ġ que4Ġ
ĠE STĠ
mei4Ġ mei4Ġ
Ġ zao3Ġ
qi1 Ġyue4Ġ
69 Ġnian2Ġ
Ġyou3Ġ xu3Ġduo1Ġ
na4Ġ xie1
guan3Ġ xia2
guan3Ġ kong4
ke3Ġyi3Ġ tong1Ġguo4Ġ
zhong1Ġguo2Ġ da4Ġlu4ĠdeĠ
ĠL Ġ
ĠI STAT
Ġ tian2
Ġ nuo4
Ġ yang3Ġ
Ġ ya3Ġ
hua2 ĠdeĠ
fan3 Ġji1Ġ
Ġyi1Ġ qie4Ġ
ju4Ġ feng1
nan2Ġ mei3Ġzhou1Ġ
ting2Ġ kao4Ġ
Ġmo4 Ġxi1Ġ
zhong4Ġyi4Ġ yuan4Ġ
Ġshi4Ġyi1Ġke1 Ġwei2Ġrao4
Ġ feng4
she4 Ġji2Ġ
ren4 Ġzhi1Ġ
sheng3 Ġli4Ġ
Ġzhong1Ġ yuan2Ġ
Ġxi1Ġ er3
guan1Ġ zhong4
guan1Ġ zheng4Ġ
Ġping2Ġ jie4Ġ
feng1Ġ fu4ĠdeĠ
tou2Ġ ru4
Ġshi4Ġyi1Ġ zuo4
wu1Ġ ran3Ġ
shou1Ġshi4Ġ lv4Ġ
ping1 Ġpang1
jie4Ġquan2Ġguo2Ġzheng4Ġxie2Ġ wei3Ġyuan2Ġ
Ġ cao2
li3 Ġshi2Ġ
chuan2 Ġyuan2Ġ
zhan3 Ġchu1Ġ
ying2 Ġli4Ġ
biao1 Ġshi4Ġ
you1 Ġhui4Ġ
Ġyu2Ġ 2022
ju4Ġ ben3Ġ
yu4Ġ wei2Ġ
Ġbing4Ġ huo4Ġde2Ġ
jie1Ġ guan3Ġ
Ġju4Ġ ben3Ġ
shu1Ġ niu3Ġ
heng2Ġ xing1
dan4Ġ shui3
bi3Ġsai4 ĠdeĠ
jue2Ġdui4Ġ xing1Ġdeng3Ġwei4Ġ
Ġ Li
Ġ ju1Ġ
ĠĠĠ St
ĠĠĠ guo2Ġ
li3 Ġren2Ġ
de2 Ġyi4Ġzhi4Ġ
zui4 Ġchu1ĠdeĠ
xin4 Ġhao4
27 Ġnian2Ġ
gou1 Ġtong1Ġ
Ġshi4Ġ xia4Ġ
Ġli4Ġ xue2Ġ
sheng1Ġ cheng1Ġ
ping2Ġ heng2Ġ
Ġbei4Ġ jing3
lian2Ġ zai3Ġ
duo1Ġ xiang4Ġ
da3Ġ suan4
Ġjing1Ġ guo4
Ġda4 Ġzhi4Ġ
Ġ5Ġ diao4Ġkuai4Ġyi1Ġxiao3Ġshi2Ġ
ĠED TĠ
Ġji2Ġbei3Ġmei3Ġ dong1Ġbu4Ġshi2Ġqu1Ġ
Ġtai4Ġyang2Ġgong1Ġ zhuan4ĠdeĠxiao3Ġxing2Ġxing1Ġ
Ġshi4Ġyi1Ġke1Ġwei2Ġrao4 Ġtai4Ġyang2Ġgong1Ġzhuan4ĠdeĠxiao3Ġxing2Ġxing1Ġ
ĠĠĠ wen2Ġhua4Ġ
ao4 Ġke4Ġ
jian4 ĠdeĠ
han2 Ġyi4Ġ
fa1Ġbiao3 ĠleĠ
xiao3Ġxing2Ġxing1ĠdeĠ jue2Ġdui4Ġxing1Ġdeng3Ġwei4Ġ
c or
y u1
ĠĠĠ 2005Ġnian2Ġ
ling3 Ġdui4Ġ
pai1 Ġshe4ĠdeĠ
yuan1 Ġ
Ġhe2Ġ yu3Ġ
Ġzhong1Ġ li4Ġ
Ġgong1Ġ she4Ġ
Ġzhi1 Ġchu1Ġ
Ġzuo4Ġ qu3Ġ
ru4Ġ kou3
Ġshi4Ġwu4Ġ suo3Ġ
s si
Ġ Vi
Ġ 1986Ġnian2Ġ
ch a
ĠĠĠ yu4Ġ
zhi3 Ġchu1
fu2 Ġji2Ġ
in u
Ġshi4Ġ zui4Ġ
Ġzai4Ġ li4Ġ
Ġxing2Ġ xing1Ġ
Ġdan4 Ġbei4Ġ
zu2Ġ lian2Ġ
wu2Ġxian4Ġ dian4Ġ
sheng1Ġchan3 ĠdeĠ
ĠĠĠzhe4Ġke1Ġ xiao3Ġxing2Ġxing1ĠdeĠjue2Ġdui4Ġxing1Ġdeng3Ġwei4Ġ
Ġ zuo3
Ġ 1998
ĠĠĠ huang2Ġ
xi1 Ġxian4Ġ
tu re
miao4 Ġyu3Ġ
ce book
48 Ġnian2Ġ
ad Ġ
Ġyi1Ġ xiang4Ġ
shou3Ġ xian1Ġ
Ġtong2 Ġnian2Ġ12Ġyue4Ġ
ĠdeĠyi1Ġ xiang4Ġ
ĠG Ġ
bi3Ġli4Ġ niu2Ġsi1Ġ
ne4Ġ sheng3Ġ
Ġda4Ġsha4 Ġ
Ġ cun1Ġ
ĠĠĠ ri4Ġ
yao4 Ġzai4Ġ
zhong3 ĠdeĠ
men ĠdeĠ
34 Ġnian2Ġ
Ġxi1Ġ ce4Ġ
ke3Ġ yong4Ġ
Ġxia4Ġ ling4Ġ
yan2Ġjiu1 ĠdeĠ
ĠdeĠyi1Ġ tiao2Ġ
tian1Ġwen2Ġ xue2Ġjia1Ġ
zu3Ġcheng2 Ġbu4Ġfen4Ġ
Ġ á
Ġ 2024Ġnian2Ġ
ĠĠĠ guan1Ġyu2Ġ
ĠĠĠ zao3Ġqi1Ġ
lai2 Ġer3Ġ
jiu3 Ġshi2Ġ
lei1 Ġsi1Ġ
lu4Ġ duan4Ġ
dian4Ġ liu2Ġ
Ġfu4Ġ mu3Ġ
zong3Ġ ling3Ġshi4Ġ
liang3Ġ ce4Ġ
Ġyin1Ġwei4Ġ ta1Ġ
hen3Ġ shao3Ġ
liang3 Ġda4Ġ
fou3 Ġ
Ġwei4Ġ guo2Ġ
Ġzai4Ġ you3Ġ
Ġzai4Ġ dang1Ġshi2Ġ
Ġyuan2Ġ lai2Ġ
xue2Ġ ke1Ġ
qu1Ġ fu4Ġze2Ġguan3Ġxia2Ġ
ci3Ġ tian1Ġti3Ġ
tu2Ġ jing4Ġ
sheng4Ġ jing1Ġ
zhuan1Ġ ji2ĠdeĠ
ke3Ġneng2 ĠdeĠ
Ġdi4Ġshi2Ġ san1Ġ
2 Ġhao4Ġ
g e3
i c
Ġ gei3
Ġ 1983Ġnian2Ġ
qian2 Ġxi1Ġ
ni2 Ġxi1Ġya4
sheng4 Ġyu2Ġ
cha2 Ġde2Ġ
wei1 Ġli4Ġ
ct Ġ
he2Ġ liu2Ġ
Ġshi2Ġ liu4Ġnian2Ġ
shang4Ġ ying4ĠdeĠ
Ġjia1Ġ qiang2Ġ
ju4Ġ yuan4Ġ
qi1Ġ jian1ĠdeĠ
you4Ġ cheng1Ġ
qu3Ġ jue2Ġyu2Ġ
duan3Ġ zan4Ġ
hun4Ġ luan4Ġ
E C
I R
k o
Ġ mo
Ġ piao4Ġ
man3 Ġyi4Ġ
geng1 Ġming2Ġ
shen1Ġ ru4Ġ
Ġzi4Ġ ci3Ġ
xi2Ġ guan4Ġ
mo2Ġ ni3
Ġao4Ġ men2Ġ
min2Ġzu2Ġ zhu3Ġyi4Ġ
Ġ sang1Ġ
ĠĠĠ Mo
ci3 Ġdi4Ġ
guo4 Ġhou4Ġ
ke1 Ġyi1Ġsheng1Ġ
hao3 Ġlai2Ġ
sang4 Ġshi1Ġ
Ġyi3Ġ wai4ĠdeĠ
Ġli3Ġ xue2Ġ
ben3Ġ tu3
te4Ġ ding4
zhen4Ġ wang2Ġ
Ġshe4Ġ shi1
bian4Ġ huan4Ġ
tiao2Ġ mu4Ġ
qian1Ġ yin3Ġ
she4Ġ jiao1Ġ
Ġ dao3Ġyan3Ġ
Ġ shan1Ġxi1Ġ
yong4 Ġdi4Ġ
ben3 Ġdi4Ġqu1Ġ
quan2 Ġshi4Ġ
zi Ġli3Ġ
fu3 Ġzhi1Ġfu3Ġ
wan3 Ġqi1Ġ
Ġwei4Ġ xin1Ġ
Ġzai4Ġ ren2Ġ
Ġda4Ġ duo1
Ġchu1 Ġbu4Ġ
ti2Ġ cai2Ġ
ĠdeĠzuo4Ġ yong4Ġ
Ġ ba
Ġ lian4Ġ
Ġ huai2Ġ
Ġ 1958Ġnian2Ġ
an1 ĠdeĠ
ĠĠĠ yin1Ġwei4Ġ
li n4
fa3 Ġer3Ġ
zong1 ĠdeĠ
Ġhe2Ġ jin1Ġ
Ġshi2Ġ bei4Ġ
Ġde2 Ġhe2Ġ
shu4Ġ ju4
xiao1Ġ shou4
pei2Ġ chang2Ġ
Ġji2Ġtuan2 Ġjun1Ġ
Ġ tong3Ġ
Ġ kan1Ġ
Ġ mi2Ġ
Ġ guo1Ġ
ĠĠĠ ge4Ġ
wen2 Ġsi1Ġ
nv3 Ġer2
Ġnian2 Ġshi4Ġ
Ġzai4Ġ ta1
Ġyuan2Ġ qu1Ġ
lai2Ġ kan4Ġ
jie2Ġ lun4Ġ
Ġqi2Ġ zhong1ĠdeĠ
zong3Ġ e2Ġwei4Ġ
Ġnan2Ġ jing1
liang3Ġ tiao2Ġ
qiang2Ġ hua4Ġ
Ġ sai4
Ġ chao1Ġji2Ġ
Ġ gui4Ġzhou1Ġ
ĠĠĠ a
ben3 Ġzhi4Ġ
fen1 Ġqi2Ġ
ti2 Ġwei4Ġ
ba1 Ġming2Ġ
shui3 Ġzhong1Ġ
00 Ġping2Ġfang1Ġqian1Ġmi3Ġ
pa4 Ġer3Ġ
46 Ġnian2Ġ
Ġwei4Ġ si1Ġ
Ġyu2Ġ 2017
Ġqi2 Ġyu3Ġ
Ġshe4 Ġzai4Ġ
feng1Ġ xian3
yi2Ġ dong4
zhuan3Ġ yi2Ġdao4Ġ
Ġfu2Ġ lang3Ġ
Ġmi3 ĠdeĠ
fei1Ġxing2 Ġyuan2Ġ
1 Ġri4
Ġ dang4Ġ
ĠĠĠ 2000
mei3 Ġzhong1Ġbu4Ġ
te4 Ġsi1Ġ
cha1 Ġju4Ġ
zui3 Ġ
bu4Ġ fen4
Ġzhong1Ġ wen2
Ġyi1Ġ yang4
Ġjian4 Ġzhong1Ġ
Ġzhi1Ġ qian2ĠdeĠ
zhu3Ġ jue2
Ġbei4Ġ ren4Ġwei2Ġ
Ġju4Ġ ti3Ġ
Ġsuo3Ġ you3ĠdeĠ
tui1Ġ guang3
li3Ġshi4Ġ zhang3Ġ
gong4Ġhe2Ġ dang3
jiao1Ġyi4Ġ suo3Ġ
jie4Ġquan2Ġguo2Ġ ren2Ġmin2Ġdai4Ġbiao3Ġda4Ġhui4Ġ
Ġ Ar
Ġ xi3Ġ
Ġ 1987Ġnian2Ġ
ĠĠĠ dang1
qu1 Ġzhong1Ġ
cai2 ĠdeĠ
Ġyou3Ġ xiao4
Ġcheng2Ġ nuo4Ġ
Ġge4 Ġge4Ġ
Ġbing4Ġ wu2Ġ
Ġshe4Ġ xian2Ġ
ĠdeĠgong1Ġ si1Ġ
Ġhou4Ġlai2 Ġzai4Ġ
chang4Ġpian4 Ġgong1Ġsi1Ġ
Ġ lei4
Ġ xue1
Ġ An
ĠĠĠ for
ĠĠĠ jian4Ġ
dui4 Ġli4Ġ
che1 Ġshi4Ġ
ti3 Ġxian4Ġ
dang3 Ġbu4Ġ
sui2 Ġzhi1Ġ
61 Ġnian2Ġ
Ġwei4Ġ mei3Ġguo2Ġ
Ġji2Ġ er3
Ġyi4Ġ mei3Ġguo2Ġren2Ġ
Ġjun1 Ġyi3Ġ
jie3Ġ jue2
chu3Ġ jue2Ġ
Ġa1Ġer3Ġ bei1Ġsi1Ġ
guang3Ġbo1 Ġgong1Ġsi1Ġ
f li
si1 Ġdi4Ġli4Ġ
ti ao1
dai4 Ġdao4Ġ
qing1 Ġdai4Ġ
mu3 Ġsi1Ġte4Ġ
fu1 Ġsi1Ġ
39 Ġnian2Ġ
Ġyu2Ġ 190
Ġxi1Ġ fa3Ġ
yu4Ġ ce4Ġ
Ġdang1 Ġri4Ġ
Ġta1Ġmen Ġshi4Ġ
ĠdeĠyi1Ġ jia1Ġ
dou1Ġ ke3Ġyi3Ġ
Ġci3Ġ wai4
di3Ġ ceng2Ġshui3Ġyu4Ġ
lang3Ġ pu3
mu4Ġsi1Ġ lin2
f e
dui4 Ġdi4Ġ
nan2 Ġxi1Ġ
sui4 ĠdeĠ
shao3 ĠdeĠ
qing4 Ġxia4Ġ
ba4 Ġgong1Ġ
Ġyu2Ġ 2023
qing1Ġ zhen1Ġ
Ġ14 Ġ
Ġ cu4
Ġ xĠ
xing2 Ġren2Ġ
jun1 Ġzhu3Ġ
xia4 Ġshi4Ġ
Ġshi4Ġ yi3
Ġsi1Ġ da4Ġ
ren4Ġ zheng4Ġ
Ġzhou1 ĠdeĠyi2Ġge4Ġshi4Ġzhen4Ġ
qian2Ġ ting3Ġ
shi1Ġ ti3Ġ
jiao1Ġ gei3
dan4Ġ shui3Ġ
yin4Ġdi4Ġ an1Ġna4
gu a3
cheng2 Ġwei4Ġ
yuan2 Ġren2Ġmin2Ġbi4Ġ
yu3 Ġwei4Ġ
jian4 Ġdui4Ġ
xin1 Ġyi1Ġ
mei3 Ġli4Ġ
ĠdeĠ ji2Ġ
Ġzai4Ġ dui4Ġ
Ġbu4Ġ zhi1Ġ
Ġshi2Ġ shi1
Ġyi4Ġ bei4Ġ
Ġer3 Ġbei4Ġ
zhan4Ġ shu4Ġ
Ġbing4 Ġcheng2Ġwei2Ġ
zi4Ġ shen1Ġ
fen1Ġ bu4Ġzai4Ġ
chuan2Ġ mei2
bo2Ġ ge2Ġ
zao4Ġ chuan2Ġ
Ġchang2Ġ qi1Ġ
zhong4Ġyao4Ġ xing4Ġ
s ong3
u b
Ġ rui4Ġshi4Ġ
ĠĠĠ 14
a1 Ġke4Ġ
ping2 Ġxian4Ġ
zhang3 Ġji2Ġ
ig h
kui1 Ġ
Ġshi4Ġ yin4Ġdu4Ġ
Ġhe2Ġ chang4Ġ
Ġguo2Ġ nei4
shou3Ġ ling3Ġ
qing1Ġ dao3Ġ
zhuan3Ġ bian4Ġ
xun2Ġ fu3Ġ
liang2Ġ hao3ĠdeĠ
Ġta1Ġceng2 Ġdai4Ġbiao3
Ġshang4Ġhai3 Ġshi4Ġ
jiang4Ġyu3Ġ liang4Ġ
1 Ġhao4
Ġ xiong1Ġya2Ġli4Ġ
yi2 ĠdeĠ
yun4 Ġxing2
be g
Ġshi2Ġ san1Ġnian2Ġ
fu4Ġ xing1Ġ
Ġke4 Ġjia1Ġ
yan2Ġ an4Ġ
sheng4Ġ mu3Ġ
ye3Ġ ke3Ġyi3Ġ
Ġtun2 Ġqi2Ġ
Ġ Se
30 Ġfen1Ġ
zu an4Ġshi2Ġ
sou1 Ġsuo3Ġ
32 Ġnian2Ġ
ji1Ġ du1Ġjiao4Ġ
you2Ġ ke4Ġ
fen1Ġ xiao4Ġ
zui4Ġ hou4ĠdeĠ
kao3Ġ gu3
Ġmu3Ġ qin1Ġ
Ġ13 Ġ
ji4Ġsuan4 Ġji1Ġ
Ġ d
Ġ ying4Ġ
ce4 Ġwei4Ġ
xie4 Ġer3Ġ
26 Ġnian2Ġ
zhui1 Ġji1Ġ
rou4 Ġshi2Ġxing4Ġ
man2 Ġ
Ġyuan2Ġ zi4
yu4Ġ suan4Ġ
shou3Ġ ren4Ġ
Ġzheng4Ġ ju4Ġ
Ġzuo4Ġ ye4Ġ
ĠdeĠyi1Ġ ci4Ġ
ĠdeĠshi4Ġ qing2Ġ
duan3Ġ pian4Ġ
ĠdeĠji1Ġ chu3Ġ
ĠN Ġ
Ġyi3Ġji2 Ġzhong1Ġguo2Ġda4Ġlu4ĠdeĠ
mei3Ġzhong1Ġbu4Ġ shi2Ġqu1Ġ
Z Ġ
p eng4Ġ
Ġ tai2
Ġ 1994
Ġ Mo
Ġ 1982Ġnian2Ġ
ĠĠĠ Me
ze2 Ġer3Ġsheng3Ġ
ba1 Ġyue4Ġ
ha1 Ġli4Ġ
36 Ġnian2Ġ
Ġdao4 Ġta1Ġ
Ġer2Ġ wen2Ġming2Ġ
tai2Ġ zhong1Ġshi4Ġ
jin1Ġ xiang4Ġ
tong1Ġ xin4
yue1Ġ se4Ġfu1Ġ
mo2Ġ tuo1Ġ
bing1Ġ tuan2Ġ
Ġgao1Ġ su4
Ġ bai4
Ġ lian2Ġhe2Ġguo2Ġ
lu4 Ġhe2Ġ
qiang2 Ġda4Ġ
2019 Ġguan1Ġzhuang4Ġbing4Ġdu2
45 Ġnian2Ġ
43 Ġnian2Ġ
Ġshi2Ġ wu3Ġnian2Ġ
Ġjin4 Ġxing2ĠdeĠ
xuan3Ġ shou3
liang3Ġ zhong3
Ġshi4Ġyi1Ġ jia1Ġ
ĠC STĠ
ou1Ġ meng2
Ġcong2Ġ ci3Ġ
Ġceng2Ġ jing1
Ġ6Ġ diao4Ġkuai4Ġyi1Ġxiao3Ġshi2Ġ
Ġji2Ġbei3Ġ mei3Ġzhong1Ġbu4Ġshi2Ġqu1Ġ
ĠCD TĠ
f a
u l
Ġ min3
Ġ dun1Ġ
dui4 Ġshi4Ġ
mi3 Ġer3
33 Ġnian2Ġ
Ġdi4Ġ ming2Ġ
ji1Ġ chang3
jing1Ġ du1Ġ
Ġshang4Ġ shu4Ġ
nv3Ġ wang2Ġ
tuo1Ġ ma3Ġsi1Ġ
Ġshi3Ġ mi4Ġsi1Ġ
yin4Ġ du4ĠdeĠ
Ġ lu3
Ġ xi4Ġtong3Ġ
Ġ 1945Ġnian2Ġ
Ġ 1920Ġnian2Ġ
ji1 Ġshi2Ġ
mei2 Ġer3Ġ
fu1 Ġsi1Ġji1Ġ
zhuan1 Ġyuan2Ġ
Ġshi4Ġ yi2Ġ
Ġcheng2Ġ ke4
qu1Ġ zhu2Ġjian4Ġ
zhe4Ġ shou3Ġ
Ġqiu2Ġ bi3Ġsai4Ġ
wang3Ġ lai2Ġ
cai2Ġ neng2
zhuan1Ġ qu1Ġ
Ġa1 Ġli3Ġ
zhe2Ġxue2Ġ jia1Ġ
Ġqi1 Ġxi1Ġ
fei2Ġte4Ġ lie4Ġ
g en
Ġ ming4Ġ
Ġ lei1Ġ
sh ai1Ġ
ĠĠĠ 13
ĠĠĠ ke1Ġ
jiao4 Ġyou3Ġ
jiao1 Ġfu4Ġ
que4 Ġli4Ġ
31 Ġnian2Ġ
li4Ġ shi3
dong1Ġ ya4Ġ
zong3Ġ ju2Ġ
wei3Ġ nei4Ġrui4Ġ
ran2Ġ liao4Ġ
ĠH RĠĠĠ
Ġshi4Ġfou3 Ġ
ĠĠĠ 12Ġyue4Ġ
ĠĠĠ 2023Ġnian2Ġ
shi2 Ġshi4Ġji4Ġ
jin1 Ġsi1Ġ
pei4 Ġyue4Ġ
Ġwei4Ġ cheng2Ġ
ge2Ġ lei2Ġ
xing4Ġ bie2
chang2Ġ an1Ġ
liu2Ġ chuan2Ġ
bo2Ġ gen3Ġdi4Ġ
zu3Ġ xian1Ġ
Ġgao1Ġ xiong2
Ġyin1Ġwei4Ġ ta1
Ġwen2Ġ zhang1Ġ
hu2Ġbei3Ġ sheng3Ġ
yan2Ġhai3Ġ sheng3Ġfen4Ġ
Ġsu2 Ġcheng1Ġ
Ġ duan4
Ġ 1996
Ġ hang2Ġ
en1 Ġsi1Ġ
le Ġbu4Ġ
di2 Ġsi1Ġ
tui1 Ġjin4
diao1 Ġxiang4Ġ
zhai4 Ġwu4Ġ
Ġyi1Ġ lu4Ġ
qu1Ġ dong4Ġ
shu4Ġ bai3
Ġqi2Ġ fu4Ġ
gao1Ġ xiao4Ġ
Ġhuo4Ġ wu4Ġ
bo2Ġ lin2
chan3Ġ liang4Ġ
bai3Ġ xing4Ġ
Ġdi4Ġer4Ġ ci4
Ġao4 Ġsi1Ġ
Ġ1950 Ġnian2Ġ
ĠĠĠ mu4Ġ
ĠĠĠ ying1Ġguo2Ġ
ĠĠĠ gai1Ġdi4Ġ
bao4 Ġfu4Ġ
xun4 Ġhao4Ġ
jiao3 ĠdeĠ
yi4Ġ qi3Ġ
Ġren2Ġ sheng1Ġ
Ġgong1Ġ dian4Ġ
sheng1Ġ ren4Ġ
Ġtong2 Ġnian2Ġ10Ġyue4Ġ
san1Ġ jiao3Ġ
ling2Ġ gan3Ġ
Ġyou4Ġ cheng1
chong1Ġ sheng2
zeng1Ġ qiang2
a1Ġer3Ġ ba1Ġ
cao3Ġ an4Ġ
Ġshi4Ġjian4 ĠdeĠ
Ġ ling2
Ġ gei3Ġ
Ġ bu2Ġshi4Ġ
jian4 Ġyu2Ġ
shu4 Ġge4Ġ
ying1 Ġer2Ġ
mo4 ĠdeĠ
hen3 Ġnan2Ġ
Ġwei4Ġ jing1Ġ
shi2Ġ qi1
Ġyou3Ġ leĠ
Ġgong1Ġ li4Ġ
fa1Ġ sheng1Ġyu2Ġ
zhi2Ġ jing4Ġ
Ġzhou1Ġ bian1Ġ
g o
Ġ zeng1Ġjia1Ġ
zhang1 Ġshi4Ġ
hu4 Ġshi4Ġ
huang2 Ġshi4Ġ
huan4 Ġyou3Ġ
sang4 Ġsheng1Ġ
cheng2Ġ wei2
Ġer3 Ġxi1Ġ
zhan4Ġ lve4
xiang1Ġ xin4Ġ
dong4Ġ tai4Ġ
Ġsheng1Ġ ming4Ġ
guang3Ġ dong1
huo4Ġ zhe3Ġ
zheng4Ġzhi4Ġ ju2Ġ
qu1ĠdeĠ fu4Ġze2Ġguan3Ġxia2Ġ
zheng3Ġ ti3
Ġjin3Ġ ci4Ġyu2Ġ
ya4Ġmei3Ġ ni2Ġya4
ĠĠĠ 5Ġ
ĠĠĠ te4Ġzheng1Ġ
xiao3 Ġyu2Ġ
xuan3 ĠdeĠ
han4 Ġguo2Ġ
kan4 Ġjian4Ġ
gui3 Ġdian4Ġ
di4Ġ fang1Ġ
Ġdi4Ġ er4Ġshi2Ġ
Ġyi3 Ġzhi1Ġ
wei2Ġ ji1Ġbai3Ġ
ben3Ġ zhan4Ġ
Ġzhan4Ġ tai2Ġ
xiao3Ġ jie3Ġ
guan3Ġ li3ĠdeĠ
Ġran2Ġ hou4Ġzai4Ġ
pi2Ġ fu1Ġ
Ġduo1 Ġren2Ġ
an1Ġhui1Ġ sheng3Ġ
2 Ġming2Ġ
Ġ 1997
ĠĠĠ tang2Ġ
wei3 ĠdeĠ
du2 Ġzi4Ġ
44 Ġnian2Ġ
Ġzhi4Ġ jin1
Ġji2Ġ ke3Ġ
hua4Ġ fen1Ġ
fu2Ġ wu4ĠdeĠ
si4Ġ chuan1
bi4Ġ lu3
Ġshou3Ġ xian1Ġ
zhu3Ġjiao4Ġ lian4Ġ
ĠI Ġ
b en4
Ġ Su
ĠĠĠ Ro
zhong1 Ġnian2Ġ
qu1 Ġxian4Ġ
dian3 Ġxing2Ġ
ban1 Ġdao4Ġ
pi1 Ġfu4Ġ
BC Ġ
53 Ġnian2Ġ
Ġshi4Ġ qi2Ġ
Ġshi2Ġ si4Ġnian2Ġ
Ġli4Ġ yu2Ġ
yan2Ġ xu4
Ġzhe4Ġ xiang4Ġ
sha1Ġ tian2Ġ
guang1Ġ pu3Ġ
xie2Ġ hui4
Ġbu4Ġfen4 ĠdeĠ
Ġ ding1
Ġ yin4Ġdu4
ĠĠĠ De
yi4 ĠdeĠshi4Ġ
le Ġyuan2Ġ
liang2 ĠdeĠ
Ġshi4Ġ yong4Ġyu2Ġ
Ġda4Ġ zheng4Ġ
te4Ġ ding4ĠdeĠ
xing4Ġ ge2Ġ
feng1Ġ bao4
mei3Ġguo2Ġ zong3Ġtong3Ġ
xiao4Ġ guo3
bao1Ġkuo4 ĠleĠ
ting1Ġ zhang3Ġ
kuang4Ġ wu4Ġ
ĠdeĠyi4Ġ siĠ
ying3Ġxiang3 ĠdeĠ
wu4Ġli3Ġ xue2Ġjia1Ġ
sheng3Ġdao4Ġ tai2Ġ
ji1 Ġli4Ġ
gu3 Ġsi1Ġ
pu3 Ġer3Ġ
qian1 Ġzheng4Ġ
guang1 ĠdeĠ
lei1 ĠdeĠ
di4Ġ er4
Ġji2Ġ zhong1Ġzai4Ġ
yong4Ġ leĠ
lai2Ġ yuan2Ġyu2Ġ
huo2Ġ xing4Ġ
jun1Ġ guan1Ġ
tie3Ġ lu4ĠdeĠ
en1Ġ lai2Ġ
a1Ġgen1Ġ ting2Ġ
Ġ yu2
Ġ ya1Ġ
Ġ bei1Ġ
Ġ XĠ
zuo4 Ġyi3Ġ
qian2 Ġwei4Ġ
jin1 Ġri4
lang3 Ġpu3Ġ
po1 Ġer3Ġ
ig ht
Ġhe2Ġ kou3Ġ
Ġli4Ġ chang3Ġ
Ġyi1Ġ kai1Ġshi3Ġ
Ġyu3Ġ yuan2Ġ
Ġchu1Ġ kou3
Ġyou2Ġ tai4Ġren2Ġ
tian1Ġ huang2
xin4Ġ tu2Ġ
ge1Ġlun2Ġ bi3Ġya4
v el
Ġ te
Ġ hou4Ġzai4Ġ
ĠĠĠ 2004Ġnian2Ġ
ming2 Ġzai4Ġ
sheng1 Ġbu4Ġ
ma3 Ġqi2Ġ
luo4 Ġhou4Ġ
gao4 Ġzhi1Ġ
lv3 Ġyou2
Ġda4Ġ zhan4Ġ
fa1Ġ dong4
xiang3Ġ ying4Ġ
Ġbi3Ġ sai4
pei2Ġ yang3Ġ
wan3Ġ jian1Ġ
Ġnv3Ġ zi3Ġ
Ġguo2Ġjia1 Ġgong1Ġyuan2Ġ
hu2Ġnan2Ġ sheng3Ġ
ĠdeĠfu4Ġ qin1Ġ
lv3Ġke4Ġ tie3Ġdao4Ġ
Ġ 1992
tong2 Ġxue2Ġ
bo1 Ġyin1Ġ
chui1 Ġ
Ġshi4Ġ fang4Ġ
Ġdi4Ġ xing2Ġ
Ġer2 Ġyuan2Ġ
Ġjian4Ġ dui4
zhang3Ġ wo4
ke1Ġ huan4Ġ
bian4Ġ hua4
mian3Ġ fei4
fa1Ġxian4 Ġyu2Ġ
Ġ shi2Ġnian2Ġ
Ġ zhen1Ġdui4Ġ
ĠĠĠ jiao4Ġyu4Ġ
she4 Ġyu2Ġ
zeng1 Ġzhi4Ġ
42 Ġ
Ġji2Ġ ju4Ġ
Ġji4Ġ hou4Ġ
Ġsi1Ġ fa3
Ġer2 Ġyi3Ġ
zhe4Ġ yang4Ġ
Ġjun1Ġ zhu3Ġ
zhong3Ġ zu2
na4Ġ yang4Ġ
diao1Ġ su4Ġ
c ti
r ĠĠĠ
Ġ xie2Ġzhu4Ġ
ĠĠĠ pu3Ġ
dang1 Ġri4Ġ
na4 Ġxi1Ġ
ha1 Ġde2Ġ
42 Ġnian2Ġ
Ġshi2Ġ xing2
yu3Ġ yan2
xi1Ġ zang4Ġ
Ġbei4Ġ ke4Ġ
Ġdan4 Ġwei4Ġ
Ġjun1Ġ dui4
zui4Ġ di1Ġ
deng3Ġ dai4Ġ
chang2Ġ gui1Ġ
Ġxian4ĠdeĠ fei1Ġjian4Ġzhi4Ġdi4Ġqu1Ġ
huan4Ġ xiang3Ġ
Ġzui4Ġ zhong1Ġzai4Ġ
ju3Ġxing2Ġ leĠ
Ġdong1 Ġxi1Ġ
Ġsuo1Ġ xie3Ġ
9 Ġmi3Ġ
M P
Ġ 1978Ġnian2Ġ
hang2 Ġxing2Ġ
Ġyi1Ġ duan4Ġ
Ġda4Ġ da4Ġ
fu4Ġ nv3Ġ
fa1Ġ hui1Ġ
Ġzhan4Ġ ling3
fen1Ġ lan2
tian1Ġ zhu3Ġjiao4
er4Ġ bai3Ġ
chen2Ġ mo4Ġ
huo3Ġ zai1Ġ
fa1Ġxing2Ġ leĠ
Ġshi4Ġwei4Ġyu2Ġ wu1Ġke4Ġlan2Ġ
Ġchao2Ġ xian1
Ġ xiang1
Ġ hui4Ġyi4Ġ
gao1 Ġer3Ġ
qi3 Ġshi4Ġ
han4 ĠdeĠ
47 Ġnian2Ġ
Ġshi2Ġ jian4Ġ
ji4Ġ zhe3Ġ
Ġguo2Ġ zhong1Ġ
ren4Ġ ke3Ġ
jiao4Ġ tu2Ġ
zhu4Ġ ming2
shi1Ġ zhang3Ġ
zhi3Ġ neng2
bao3Ġ an1Ġ
gu3Ġ dong1Ġ
Ġgai1Ġ zhuang1Ġ
jia1Ġru4 Ġzhong1Ġguo2Ġgong4Ġchan3Ġdang3Ġ
Ä ģ
ĠĠĠ jin4Ġ
guo2 Ġwei4Ġ
qu3 ĠleĠ
shou1 Ġfu4Ġ
geng4 Ġda4Ġ
ĠdeĠ wei4Ġ
Ġshi4Ġ cong2Ġ
Ġyou3Ġ liang3Ġge4Ġ
guan1Ġ dian3
Ġzhan4Ġ ju4Ġ
Ġben3Ġ pian4
yi2Ġge4 Ġren2Ġ
cun2Ġ chu3Ġ
xi4Ġtong3 Ġzhong1Ġ
ban1Ġjiang3Ġ dian3Ġli3Ġ
4 ĠĠĠ
l ao4Ġ
Ġ jian1
Ġ xiong2
Ġ zhuo2
Ġ pan4Ġ
Ġ yi1Ġnian2Ġ
kai1 Ġyuan2Ġ
pai4 Ġren2Ġ
xiang4Ġ bei3Ġ
te4Ġ se4
Ġwei2Ġ qi1Ġ
bei3Ġ mei3Ġ
Ġshang4Ġ zhen4Ġ
bian1Ġ qu1Ġ
a1Ġji1Ġ tan3
Ġ tu1Ġ
Ġ ying2Ġde2Ġ
ĠĠĠ mei3Ġ
zhu1 Ġshi4Ġhui4Ġ
liu4 Ġyue4Ġ
66 Ġnian2Ġ
Ġzai4Ġ jin1Ġ
xue2Ġ zhe3
ren4Ġ qi1Ġ
dai4Ġ ling3
Ġqi2Ġ ziĠ
tai2Ġ nan2Ġ
fu1Ġ lei1Ġ
du2Ġ zhe3Ġ
zhang4Ġ fu1
geng1Ġ huan4
ĠĠĠof ĠĠĠtheĠĠĠ
I G
g rou
Ġ song1
Ġ 1993
hen3 Ġyou3Ġ
OS Ġ
sheng1Ġ ming4
qi1Ġ tu2Ġxing2Ġ
yan3Ġ jing1Ġ
luo4Ġ bai4Ġ
xie2Ġ zhu4
Ġguo4Ġ qu4Ġ
guo2ĠdeĠ te4Ġyou3Ġ
kong3Ġ long2Ġ
Ġwu3 Ġyue4Ġ
jie1Ġshou4 ĠleĠ
Ġjiang3Ġ shu4Ġ
Ġzhan4Ġdou4 Ġji1Ġ
Ġ hai3Ġjun1Ġ
jia1 Ġji2Ġ
de2 Ġyi3Ġ
hua4 Ġgong1Ġ
liu2 Ġcheng2Ġ
pu3 Ġli3Ġ
wei1 ĠdeĠ
fang4 Ġzhi4Ġ
fang4 Ġshe4Ġ
gan1 Ġyu4Ġ
Ġshi4Ġ yong4Ġ
Ġjia1Ġ su4Ġ
Ġjin4 Ġnian2Ġ
huo3Ġ pao4Ġ
qu1Ġyi4Ġhui4Ġ xuan3Ġju3Ġ
U S
Ġ fu1Ġ
Ġ 1980Ġnian2Ġ
ĠĠĠ re
ceng2 Ġyu3Ġ
shui3 Ġshang4Ġ
can1 Ġzheng4Ġ
xu1 Ġqiu2
cao3 Ġyuan2Ġ
Ġbu4Ġ lie4Ġ
Ġge4Ġ di4ĠdeĠ
ru4Ġ yu4Ġ
tian1Ġ shi3Ġ
da3Ġ kai1Ġ
Ġnian2Ġ10Ġyue4Ġ 1Ġri4Ġ
xu3Ġ ke3
lie4Ġche1 ĠdeĠ
Ġyu3Ġmao2 Ġqiu2
Ġ sai1
Ġ jiang4Ġ
Ġ fa1Ġbu4Ġ
Ġ bi3Ġde2Ġ
guan1 Ġhe2Ġ
dian4 Ġyuan2Ġ
cheng1 ĠdeĠ
ar k
nong2 Ġdu4Ġ
hao2 Ġwu2Ġ
ol Ġ
col spanĠ
Ġyu2Ġ 2011
Ġcheng2Ġ ren4
Ġzhi1Ġ dui4Ġ
jian1Ġ du1
suo3Ġ zhang3Ġ
jiao1Ġ huan4
jian3Ġ cheng1Ġ
fang2Ġ shou3Ġ
ĠdeĠshi4Ġ jian4Ġ
Ġlian2Ġ sai4Ġ
Ġgai1 Ġdi4Ġ
xuan2Ġ zhuan3Ġ
meng4Ġjia1Ġ la1Ġ
c en2
Ġ 22Ġ
fen1 Ġji2Ġ
liu2 Ġshi4Ġ
sheng3 Ġren2Ġmin2Ġzheng4Ġfu3Ġ
yang2 Ġzhou1Ġ
que4 Ġshi2Ġ
29 Ġnian2Ġ
38 Ġ
1900 Ġnian2Ġ
Ġhe2Ġ jia1Ġ
Ġer2Ġ zhe4Ġ
ge2Ġ lin2Ġ
zui4Ġ hao3ĠdeĠ
Ġsheng1Ġ ren4Ġ
shan1Ġ hu2Ġ
mian4Ġ qian2Ġ
yi2Ġ qi4Ġ
Ġye3Ġ cheng1Ġ
pei4Ġ jue2Ġ
dan4Ġ bai2Ġ
dong3Ġshi4Ġ hui4Ġ
cro sof
Ġ Ù
Ġ gu1Ġ
Ġ 20Ġshi4Ġji4Ġ
Ġ 23Ġ
chu1 Ġxian4Ġzai4Ġ
sha1 Ġshi4Ġ
xie3 Ġcheng2Ġ
ang Ġ
Ġzhong1Ġ yi4Ġ
Ġde2 Ġyi4Ġzhi4Ġ
zhu3Ġ chang3
qiang2Ġ lie4ĠdeĠ
zhu3Ġjiao4Ġ zuo4Ġ
Ġhuo4Ġde2 Ġdi4Ġ
Ġfou3 Ġze2Ġ
I L
N et
g nĠ
Ġ Na
ĠĠĠ shi3Ġ
xiang4 Ġhe2Ġ
yue1 ĠdeĠ
jiu3 Ġyue4Ġ
Ġyue4Ġ nan2
Ġzhi4Ġ ci3Ġ
xin1Ġ qu1Ġ
du4Ġ guo4Ġ
Ġtong2 Ġwei4Ġ
Ġzhe4Ġ chang3Ġ
gu3Ġ fen4Ġ
yue1Ġ 1
ti2Ġ an4Ġ
xin4Ġ yong4Ġ
gen1Ġ sui2
Ġzui4Ġ hou4Ġyi1Ġ
fa1Ġxian4ĠleĠ ci3Ġtian1Ġti3Ġ
fa3Ġlan2Ġxi1 Ġda4Ġqu1Ġ
5 Ġming2Ġ
Ġ zhan3Ġ
Ġ teng2Ġ
ji1 Ġxing2Ġ
xia4 Ġyi4Ġ
suo3 Ġbu4Ġ
gu3 Ġcheng2Ġ
fei4 Ġer3Ġ
Fa cebook
Ġshi4Ġ pin2
Ġwei2Ġ fan3Ġ
Ġzhe4Ġ ci4
ĠdeĠgong1Ġ ji1Ġ
Ġge2Ġ lan2Ġ
zong1Ġyi4Ġ jie2Ġmu4Ġ
jing4Ġwai4Ġ shu1Ġru4Ġ
ye3 Ġbu4Ġ
shi1 Ġxing2Ġ
chan3 ĠdeĠ
ye2 Ġlu4Ġ
Ġyu2Ġ 19
Ġcheng2Ġ xiang4Ġ
Ġri4 Ġshi2Ġ
Ġyu3Ġ xin1Ġ
Ġdao4Ġ fu1Ġ
fu4Ġ xing1
kai1Ġ ye4Ġ
tian1Ġ xia4Ġ
xun2Ġ zhao3Ġ
lian2Ġsai4Ġ guan4Ġjun1Ġ
Ġ Lo
ĠĠĠ she4Ġji4Ġ
bei4 Ġyi1Ġ
xin1 Ġji1Ġ
ying2 Ġde2
âĢ ĭ
xia2 Ġshi4Ġ
sen1 ĠdeĠ
kun1 Ġming2Ġ
Ġcheng2Ġ dan1Ġ
Ġer2 Ġde2Ġming2Ġ
wu4Ġ zi1Ġ
tong1Ġ chang2Ġshi4Ġ
chuan2Ġ shu1Ġ
she4Ġ ji4ĠdeĠ
Ġwen2Ġ xue2Ġ
che4Ġ tui4
Ġshi2Ġjian1 Ġwei4Ġ
huo2Ġyue4Ġ yu2Ġ
ta3Ġni2 Ġda4Ġqu1Ġ
y leĠ
Ġ e4
yu3 Ġren2Ġ
xue2 Ġji2Ġ
zhou1 Ġwei2Ġ
Ġjia1Ġ er3Ġ
Ġxi1Ġ bei3Ġbu4Ġ
zhu3Ġ ti3Ġ
Ġzhe4Ġ shi3ĠdeĠ
luo2Ġ xuan2Ġ
jiu3Ġ dian4
nong2Ġ cun1
R E
Ġ la1
Ġ shen1
Ġ diao4
wu3 Ġgong1Ġ
lv4 Ġbu4Ġ
ding1 Ġmu4Ġ
da4Ġ hui4Ġ
Ġyi1Ġ ci2
Ġzhi1Ġ lu4Ġ
Ġhui4Ġ dao3Ġzhi4Ġ
kai1Ġ pi4
xiang4Ġ dong1Ġ
an1Ġ dong1Ġni2Ġ
ce4Ġ lve4
Ġjie2Ġ mu4
Ġlian2Ġ xu4Ġ
Ġbei3Ġqi3Ġ shun4Ġshi2Ġzhen1Ġyu3Ġ
N C
Ġ xiu1
zheng4 Ġsi1Ġ
de2 Ġzhi1Ġ
tong2 Ġshi4Ġ
bei3 Ġping2Ġ
jie4 Ġxian4Ġ
56 Ġnian2Ġ
Mu si
Ġke4 Ġren2Ġ
shu1Ġ xie3Ġ
li2Ġ hun1Ġ
Ġgai1Ġ pian4
Ġjin3Ġ biao1Ġ
xue4Ġ ye4Ġ
Ġda4 Ġwei4Ġ
xun2Ġhui2Ġ sai4Ġ
ting2Ġche1Ġ chang3Ġ
Ġ yin3
Ġ xin4
Ġ 1991
le Ġdi4Ġyi1Ġ
shang4 Ġji2Ġ
hua4 Ġcheng2Ġ
yun4 Ġhui4Ġ
shen2 Ġshe4Ġ
Ġzai4Ġ na4Ġli3Ġ
li4Ġ liang4Ġ
Ġming2Ġ que4Ġ
xia4Ġ xun2Ġ
Ġjin4 ĠleĠ
ge2Ġ luo2Ġ
qi3Ġ tu2Ġ
ying4Ġ yong4Ġyu2Ġ
Ġfei1Ġ chang2Ġ
da1Ġ pei4Ġ
ba1Ġfa2 Ġli4Ġya4
Ġ o
Ġ 1980
guang1 Ġxue2Ġ
zhuan3 Ġhui4Ġ
Ġzai4Ġ dang1Ġdi4Ġ
Ġxing2 Ġzhong1Ġ
Ġchu1Ġ zi4Ġ
wai4Ġ jie4Ġ
jiao1Ġ qu1Ġ
huo4Ġ bi4Ġ
zhao4Ġ gu4Ġ
sĠĠĠ of
you1Ġ xian1Ġ
ke3Ġyi3 Ġshi4Ġ
ye2Ġlu4Ġ sa1Ġ
Ġ 48
an1 Ġzhi4Ġ
ĠĠĠ b
yu3 Ġji2Ġ
wei2 Ġli4Ġ
zhu3 Ġren2Ġ
jie4 Ġyou2Ġ
bao3 Ġshi2Ġ
liang4 Ġhe2Ġ
you4 Ġbei4Ġ
tu r
57 Ġnian2Ġ
Ġbu4Ġ lan2Ġ
jin1Ġ pai2
tian1Ġ zhu3Ġ
er4Ġ yang3Ġhua4Ġ
jie3Ġ chu2Ġ
hang2Ġ tian1
mo2Ġ ni3Ġ
huo4Ġ yun4Ġ
dang1Ġ ju2
zhi2Ġye4Ġ sheng1Ġya2
9 Ġshi2Ġ
y ste
Ġ ju3Ġ
Ġ gui3Ġ
guan1 Ġzhi4Ġ
kai1 Ġxing2Ġ
shi1 Ġshi4Ġ
nei4 Ġshe4Ġyou3Ġ
wu3 Ġli4Ġ
zhen4 Ġxian4Ġ
yan3 ĠleĠ
ya1 Ġzhi4Ġ
cao3 Ġdi4Ġ
34 Ġ
Ġzai4Ġ hou4Ġ
Ġshi2Ġ qi4
Ġyu2Ġ yi1Ġ
Ġli3Ġ ao4Ġ
nan2Ġ fei1Ġ
zong3Ġ du1
e2Ġ wai4Ġ
Ġlian2Ġ bang1Ġ
Ġzhi2 ĠdeĠ
Ġshi3 Ġqi2Ġ
Ġge1Ġ shou3Ġ
tong1Ġguo4 ĠleĠ
Ġyi4Ġsi Ġshi4Ġ
Ġ zhu2
Ġ tan4Ġ
jiang1 Ġwei2Ġwu2Ġer3Ġ
fu3 ĠdeĠ
kuai4 Ġji4Ġ
shang4Ġ fa3Ġlan2Ġxi1Ġda4Ġqu1Ġ
Ġxi1Ġ nan2Ġbu4Ġ
Ġshe4 Ġxian4Ġ
Ġjian4Ġ leĠ
Ġbing4Ġ dui4Ġ
ci3Ġ ci4Ġ
wang2Ġ guo2ĠdeĠ
ai4Ġ sha1Ġ
Ġyin3Ġ qi3Ġ
Ġwo3 ĠdeĠ
D S
Ġ gan4Ġ
ĠĠĠ ying3Ġxiang3Ġ
er4 Ġming2Ġ
chen2 Ġji1Ġ
tou4 Ġming2Ġ
sheng1Ġ wu4
guan1Ġ shang3
zhi2Ġ dao3ĠdeĠ
la1Ġ fu1Ġ
Ġyan2Ġ zhong4Ġ
xiao3Ġshi2Ġ hou4Ġ
dan4Ġ bai2Ġzhi4Ġ
kong4Ġ gu3
wen3Ġ ding4
ĠĠĠwei4Ġ yu2Ġ
ĠĠĠ Al
sheng1 Ġri4Ġ
xu4 Ġshi4Ġ
Ġzhong1Ġ ji2Ġ
you3Ġ yi4Ġ
Ġgong1Ġ shang1Ġ
Ġjian4Ġ li4ĠdeĠ
Ġdan4 Ġyin1Ġwei4Ġ
gao1Ġ shan1Ġ
Ġyou2Ġ ke4Ġ
Ġdan4Ġ shui3Ġ
jian3Ġ dan1
zu3Ġ zhi3
Ġda4Ġxue2Ġ jiao4Ġshou4Ġ
zeng1Ġ jia1
Ġgai1 Ġgong1Ġsi1Ġ
Ġben3 Ġming2Ġ
Ġgong1Ġzuo4 Ġren2Ġyuan2Ġ
v an
Ġ Be
sh Ġ
ti3 Ġhe2Ġ
ti2 Ġshi4Ġ
tu2 Ġer3Ġ
gai3 Ġzhi4Ġ
Ġwei4Ġ ta1Ġ
Ġhe2Ġ shui3Ġ
Ġshi2Ġ yi4Ġ
Ġjian4 Ġguo2Ġ
qi1Ġ xi1Ġdi4Ġ
hai3Ġ guan1Ġ
nv3Ġ shen2Ġ
zu2Ġ xie2
Ġsi4 Ġyue4Ġ
Ġhe2Ġbei3Ġ sheng3Ġ
Ġ nei4Ġbu4Ġ
ĠĠĠ 188
Ġji4Ġ gong1Ġ
Ġjin4 Ġping2Ġ
tai4Ġ kong1
jian3Ġ hua4Ġ
zu2Ġ zi4Ġzhi4Ġqu1Ġ
man4Ġ hua4
ju1Ġ liu2Ġ
fang4Ġ song4Ġ
che4Ġ li2Ġ
ĠĠĠE x
Ġzhu4 Ġyou3Ġ
8 Ġshi2Ġ
Ġ tan2
Ġ cui1
Ġ zan4Ġ
Ġ qu3Ġdai4Ġ
yuan2 Ġzhi4Ġ
yu3 Ġzai4Ġ
sheng1 Ġyuan2Ġ
fu4 Ġchu1Ġ
yu4 Ġzhong1Ġ
yuan4 Ġyi4Ġyuan2Ġ
bin1 Ġxi1Ġfa3Ġ
Ġhe2Ġ ping2
Ġji2Ġ yu2Ġ
Ġji2Ġ yu3Ġ
Ġta1 Ġyi4Ġ
Ġji4Ġ shu4ĠdeĠ
Ġxi1Ġ bei3
ling3Ġ xian2
gang1Ġ qin2Ġ
xue4Ġ tong3Ġ
Ġ bao1Ġhan2
ĠĠĠ 1949
le Ġshi2Ġ
fan3 Ġshe4Ġ
bie2 Ġming2Ġ
yan4 Ġzheng4Ġ
ca Ġ
Ġzai4Ġ yue4Ġ
Ġshi2Ġ biao3Ġshi4Ġ
Ġguo2Ġ jun1
Ġli4Ġ cheng2Ġ
Ġyi3Ġ qi2Ġ
Ġyu3Ġ yan2ĠdeĠ
xia4Ġ wei1Ġ
zhi2Ġ ze2Ġ
zhong4Ġ shang1Ġ
yi2Ġ chuan2Ġ
Ġgai1Ġ wu4Ġzhong3ĠdeĠ
Ġwan4 Ġping2Ġfang1Ġmi3Ġ
hen3Ġ kuai4
lian4Ġ xi2Ġ
Ġ000 Ġming2Ġ
Ġge1Ġ qu3
mo2Ġshi4Ġ chan3Ġ
yue4Ġzhong1Ġ xun2Ġ
hang2Ġkong1Ġmu3 Ġjian4Ġ
A G
Ġ k
Ġ wang3
Ġ min2Ġzhu3Ġ
Ġ ya4Ġzhou1Ġ
Ġ hai2Ġshi4Ġ
ch ou4
ĠĠĠ shui3Ġ
yan2 Ġxian4Ġ
zhong4 Ġren2Ġ
re a
Ġcheng2Ġ ji2Ġ
Ġxi1Ġ zang4
xuan3Ġ xiu4
Ġdong1Ġ fang1Ġ
pan4Ġ duan4Ġ
Ġzhong1Ġyang1 Ġjun1Ġ
dong1Ġbu4Ġ da4Ġqu1Ġ
Ġba1 Ġyue4Ġ
Ġchu1Ġban3 Ġshe4Ġ
Ġ tu3
Ġ si
Ġ Ra
Ġ dian3Ġ
ao4 Ġdi4Ġ
yu4 Ġhe2Ġ
shan1 Ġhe2Ġ
liang3 Ġbu4Ġ
wu2 Ġyi4Ġ
yang2 ĠdeĠ
or i
41 Ġnian2Ġ
Ġshi4Ġ wu1Ġke4Ġlan2Ġ
Ġgong1Ġ an1
Ġdao4 Ġzai4Ġ
Ġzhi1 Ġhe2Ġ
chu1Ġ kou3Ġ
ken3Ġ ding4Ġ
biao1Ġzhun3 ĠdeĠ
Ġer4 Ġren2Ġ
ci3 Ġzhan4Ġ
ji3 Ġge4
pian1 Ġxiao3Ġshuo1Ġ
lang4 Ġman4Ġ
Ġzhong1Ġ shi2Ġ
ju4Ġ bei4Ġ
Ġdan4Ġ reng2
long2Ġ ke1Ġ
ĠdeĠyi1Ġ tiao2
ya2Ġ chi3Ġ
Ġmei3 Ġri4Ġ
ĠdeĠbu4Ġ fen4
chu3Ġli3Ġ qi4Ġ
Ġ Ca
Ġ aĠ
Ġ miao3Ġ
qi n4
ge2 Ġhe2Ġ
tai4 Ġyuan2Ġ
gu4 Ġyi4Ġ
Ġwei4Ġ zhi1Ġ
zhi3Ġ ze2Ġ
gu3Ġ dian3
ying1Ġ wu3Ġ
ge1Ġ chang4
wei1Ġ ni2Ġsi1Ġ
qu3Ġ dai4
Ġwu2 Ġxian4Ġ
Ġqi1 Ġyue4Ġ
Ġ qing2Ġ
Ġ di3Ġ
ĠĠĠ 2004
hou4 Ġcheng2Ġwei2Ġ
wu3 ĠdeĠ
bi3 ĠdeĠ
zhen1 Ġjun1Ġ
shen3 Ġli3Ġ
pu1 Ġshe4Ġ
Ġhe2Ġ mei3Ġguo2Ġ
Ġyou3Ġ zhu4Ġyu2Ġ
Ġguo2Ġ ji2Ġ
wei2Ġ ke4Ġ
ming2Ġ ni2Ġsu1Ġ
Ġer3 Ġdi4Ġ
Ġta1Ġ biao3Ġshi4Ġ
zhe4Ġ ci4Ġ
xiang4Ġ nan2Ġ
zhi2Ġ lu4
bei3Ġ ce4Ġ
ti3Ġ xi4
cheng1Ġ hu1
wu1Ġ lu3Ġ
Ġjing1Ġ chang2
Ġhua4Ġ xue2
Ġgong1Ġsi1 Ġzai4Ġ
Ġbu4Ġjiu3 Ġhou4Ġ
Ġwei4Ġyu2Ġgai1Ġ sheng3Ġ
U C
i m
r e3
Ġ xin1ĠdeĠ
ming2 Ġzhong1Ġ
sheng1 Ġyi4Ġ
yong4 Ġyi3Ġ
lv 2Ġ
DV DĠ
yi4Ġ yuan2Ġ
Ġjun1 Ġji2Ġ
Ġjun1 Ġbei4Ġ
Ġke4 Ġshi4Ġ
suo3Ġ shu3Ġ
Ġju4Ġ le4Ġ
ya4Ġ ke1Ġ
hong2Ġ shui3Ġ
wan2Ġ cheng2ĠdeĠ
fen1Ġbie2 Ġshi4Ġ
bai4Ġzhan4Ġ ting2
Ġ ou3
Ġ jing3
Ġ tie3
xing4 Ġyu3Ġ
ze2 Ġer3Ġ
lan2 Ġzhou1Ġ
huan2 Ġyuan2Ġ
suan1 Ġyan2Ġ
Ġguo2Ġ gong4Ġ
Ġguo2Ġ fang2Ġ
Ġyi4Ġ qing2
Ġqi2 Ġyi4Ġ
jian1Ġ chi2
yin1Ġ ci3
ĠdeĠming2Ġ cheng1Ġ
ge1Ġqu3 ĠdeĠ
zhi3Ġhui1 Ġbu4Ġ
luo2Ġdi4Ġ ya4Ġ
liao2Ġning2Ġ sheng3Ġ
Ġ pu2Ġ
shu ang3
jie1 Ġli4Ġ
zu3 Ġwei4Ġ
qian1 Ġxia4Ġ
jiu3 Ġming2Ġ
gao4 Ġzhong1Ġ
lou2 ĠdeĠ
49 Ġnian2Ġ
ry Ġ
ĠdeĠ qing2Ġkuang4Ġ
Ġyi3 Ġcheng2Ġwei2Ġ
ke3Ġ kao4
ti2Ġ jiao1Ġ
huo3Ġ xing1Ġ
Ġru2Ġ ci3Ġ
xue2Ġyuan4 ĠdeĠ
A V
ĠĠĠ 2003Ġnian2Ġ
qu1 Ġyi4Ġyuan2Ġ
fa3 Ġzhong1Ġ
wu3 Ġwei4Ġ
da4Ġ yue1Ġ
Ġer3 Ġke4Ġ
Ġjia1Ġ qiang2
Ġchu1Ġ sai4Ġ
jie1Ġ shou1
che1Ġ shou3Ġ
Ġma3 Ġer3Ġ
G B
ĠĠĠ 2Ġyue4Ġ
dui4 Ġta1ĠdeĠ
dong4 Ġshi4Ġ
zui4 Ġxing2Ġ
fan4 ĠdeĠ
meng2 Ġde2Ġ
gei3 Ġshi4Ġzhong1Ġ
zun1 Ġzhong4Ġ
lo g
cheng2Ġ du4Ġ
xia4Ġ tian1Ġ
Ġtong2 Ġyue4Ġ
da2Ġ ni2
chong2Ġ zu3Ġ
ji3Ġ zhui1
Ġshi4Ġshi4Ġ jie4Ġ
9 Ġge4Ġ
Ġ yong1
Ġ 1995
Ġ liao2Ġ
ang4 Ġ
as Ġ
les Ġ
duo4 Ġ
zhi4Ġ zao4Ġ
Ġyu2Ġ 2009
Ġren2Ġ bu4Ġ
si1Ġ te4Ġ
Ġda4Ġ ge2Ġming4Ġ
shang4Ġ sheng1Ġ
Ġzhi1Ġ qiu2Ġdui4Ġ
ping2Ġ gu1Ġ
xiang1Ġ xin4
kou3Ġ jing4Ġ
hai3Ġ xia2
Ġduo1Ġ shu4Ġ
yi3Ġ qian2Ġ
fa1Ġdian4Ġ chang3Ġ
beg inĠ
4 000
M S
y ao3
Ġ zai4
Ġ ruan3Ġ
ĠĠĠ ge4
ĠĠĠ 2003
ĠĠĠ xing2Ġ
ĠĠĠ 1Ġyue4Ġ
zhu4 Ġshi4Ġ
shou3 Ġer3Ġ
duo1 Ġli4Ġya4
lu2 Ġxing2Ġmu4Ġ
55 Ġnian2Ġ
Ġshi2Ġ hui4Ġ
Ġyu2Ġ 2010
yuan2Ġ yin1Ġ
xin1Ġ zeng1Ġ
kai1Ġ ban4Ġ
min2Ġ zheng4Ġ
ben3Ġ shen1
jie1Ġ ti4
kou3Ġ hao4Ġ
Ġju4Ġ chang3Ġ
zu2Ġ gou4Ġ
ĠdeĠyi1Ġ xie1
ĠdeĠcheng2Ġ gong1Ġ
duo2Ġ qu3Ġ
Ġ sh
ĠĠĠ cong2
ĠĠĠ ling4
yu4 Ġshi4Ġ
fa3 Ġzhi4Ġ
lin2 Ġjin4
zhu1 Ġduo1Ġ
wen1 Ġquan2Ġ
63 Ġnian2Ġ
BS Ġ
yi1Ġ ming2Ġ
jia1Ġ zu2Ġ
Ġsi1Ġ xiang3
xin1Ġ zeng1
xiang1Ġ hu4
nan2Ġ zhu3Ġjue2Ġ
Ġde2Ġ lan2Ġ
jie4Ġ sai4Ġshi4Ġ
mi4Ġ qie4Ġ
Ġbu4Ġtong2 Ġyu2Ġ
ba1Ġshi4Ġ lu4Ġxian4Ġ
ĠK Ġ
Ġge1Ġ lun2Ġ
ĠĠĠgai4Ġ shu4Ġ
Ġshi4Ġwei1Ġ zhe3Ġ
Ġyong4 Ġyi3Ġ
Ġ zha1
Ġ tuan2Ġ
Ġ 1956Ġnian2Ġ
zong3 Ġshi4Ġ
58 Ġnian2Ġ
ĠdeĠ shuo1Ġfa3Ġ
Ġdi4Ġ liu4
Ġri4 Ġyuan2Ġ
Ġyuan2Ġ su4
Ġri4Ġ er3Ġ
Ġjia1Ġ shang4
Ġming2Ġ lu4Ġ
Ġde2Ġ fen1Ġ
yu4Ġ gao4Ġ
mu4Ġ di4Ġshi4Ġ
jue2Ġ sai4ĠdeĠ
ke3Ġ qian2Ġwang3Ġ
Ġju4Ġ bei4Ġ
ken3Ġ ta3Ġji1Ġ
Ġda4Ġshi3Ġ guan3Ġ
3 Ġhao4Ġ
o m
u t
z a
Ġ shan4
Ġ ni4
Ġ 700
Ġ yuan2Ġwei4Ġ
Ġ 1979Ġnian2Ġ
ĠĠĠ jing1Ġ
le Ġyi3Ġ
dai4 Ġer3Ġ
tong2 Ġbu4Ġ
yu4 Ġwei4Ġ
zhi2 Ġren2Ġyuan2Ġ
te4 Ġyu3Ġ
shen2 Ġfu4Ġ
ka3 ĠdeĠ
huan2 Ġqiu2Ġ
le4 Ġbi3Ġ
ning2 Ġxia4Ġ
Ġyi1Ġ xi4Ġlie4Ġ
Ġdao4Ġ lu4
xian1Ġ qian2Ġ
tui1Ġ ce4Ġ
guang3Ġbo1Ġ dian4Ġtai2Ġ
ĠsectionĠĠĠ beginĠ
Ġ 98
lian2 Ġxian4Ġ
lin2 Ġjin4ĠdeĠ
guan3 Ġdao4Ġ
tuo1 Ġke4Ġ
Ġnian2Ġ ling2
Ġwei4Ġ bu4Ġ
Ġbu4Ġ da4Ġ
Ġyou3Ġ hao3Ġ
Ġhou4Ġ fang1Ġ
Ġji1Ġ zhong4Ġ
fu4Ġ gai4Ġ
jiao4Ġ shao3Ġ
suo3Ġ zai4ĠdeĠ
Ġhuo4Ġ yun4Ġ
ka3Ġ si1Ġdi4Ġli4Ġ
biao1Ġ ti2Ġ
kai1Ġshi3Ġ leĠ
Ġshu4Ġ ju4Ġ
Ġzhi2Ġ wu4Ġ
mao4Ġ xian3
Ġduo1 Ġming2Ġ
hun4Ġ xi
san1Ġjiao3 Ġxing2Ġ
Q u
ĠĠĠ an1Ġ
fa3 Ġren2Ġ
wen2 Ġdi4Ġ
zui4 Ġjin4ĠdeĠ
wu3 Ġda4Ġ
chuang4 Ġyi4Ġ
ĠdeĠ guan1Ġxi4Ġ
Ġbu4Ġ luo4
ji4Ġ suan4Ġ
Ġcheng2Ġ zhen4
Ġqiu2 Ġji4Ġ
jie1Ġ tou2Ġ
shen2Ġ mi4Ġ
ĠĠĠben3Ġ shu3Ġ
ĠdeĠzhu3Ġ ti2Ġ
fu4Ġze2 Ġren2Ġ
ĠĠĠqi2 Ġhou4Ġ
Ġdai4Ġma3Ġwei4Ġ 0
g h
Ġ meng4
Ġ 57
Ġ 1955Ġnian2Ġ
shou3 Ġshi4Ġ
liu2 Ġyi4Ġ
jiu4 Ġren4Ġ
bian4 Ġli4Ġ
shen2 Ġxue2Ġ
kan4 Ġdao4
zai3 Ġxiang4Ġ
37 Ġ
Ġzai4Ġ ji2Ġ
Ġyi1Ġ dui4Ġ
Ġjian4 Ġjian4Ġ
ju4Ġ ti3Ġ
Ġyin1 Ġhe2Ġ
te4Ġ shu1ĠdeĠ
mu4Ġ shi1Ġ
zheng4Ġshi4Ġ cheng2Ġli4Ġ
bao3Ġhu4Ġ qu1Ġ
ĠdeĠji1Ġ ben3Ġ
xun2Ġhui2Ġ yan3Ġchang4Ġhui4Ġ
jie1Ġxia4Ġ lai2ĠdeĠ
Ġ fan2Ġ
Ġ 1981Ġnian2Ġ
zhi2 Ġyu2Ġ
qi4 Ġzhong1Ġ
Ġyi4Ġ cheng2Ġ
Ġren4Ġ qi1Ġ
shan1Ġ ding3Ġ
lin2Ġ chuang2
Ġhuo4Ġ sheng4Ġ
jiu3Ġ ba1Ġ
da3Ġ po4Ġ
Ġhou4Ġlai2 Ġbei4Ġ
mi2Ġni3Ġ zhuan1Ġji2Ġ
Ġ zeng4
Ġ qiang1Ġ
ye4 Ġzhong1Ġ
du4 Ġshi4Ġ
ba1 Ġke4Ġ
lie4 Ġjian4Ġ
ban4 Ġbu4Ġ
hu2 ĠdeĠ
Ġbu4Ġ bing1
Ġyi1Ġ gong4Ġ
Ġji4Ġ si4Ġ
shou3Ġ du4Ġ
fu2Ġ lang3
jiao1Ġ dian3Ġ
ce4Ġ hua4Ġ
Ġjie2 Ġhe2Ġ
dong1Ġnan2Ġ ya4Ġ
Ġ 1989
Ġ en1Ġ
Ġ san1Ġnian2Ġ
jiang1 Ġbei4Ġ
la1 Ġke4
dao3 Ġxian4Ġ
shen2 Ġqi2Ġ
15 00
cun2 Ġyu2Ġ
guan4 Ġmu4Ġ
kong3 Ġju4Ġ
sha4 Ġ
dui1 Ġ
Ġhe2Ġ ren2Ġ
Ġyi4Ġ zuo4Ġ
fen1Ġ zu3Ġ
ya4Ġ te4Ġ
Ġyou3Ġyi1Ġ xie1
Ġfa1Ġ biao3Ġ
na2Ġpo4Ġ lun2Ġ
B L
you2 ĠdeĠ
ci4 Ġquan2Ġguo2Ġ
xi2 Ġjin4Ġping2Ġ
gui4 ĠdeĠ
52 Ġnian2Ġ
ted ĠĠĠ
Ġbu4Ġ gong1Ġ
yi1Ġ xie1
Ġguo2Ġ ji4
Ġdao4Ġ de2Ġ
ming2Ġ xian3Ġ
Ġxing2Ġ wei2
Ġjia1Ġ la1Ġ
yan2Ġ se4
Ġer2Ġ fei1
Ġjun1Ġ zhang3Ġ
xing4Ġ cun2Ġ
chang3Ġ jing3
chang2Ġ sha1Ġ
shou4Ġ ming4Ġ
Ġxin1Ġ jiang1Ġ
chuan2Ġ jiao4Ġshi4Ġ
xing1Ġ qi3Ġ
kan1Ġ wu4Ġ
tie3Ġlu4 Ġgong1Ġsi1Ġ
si1Ġdi4Ġ an1Ġ
Ġda4Ġduo1Ġ shu4
Ġ 1946
you3 Ġbu4Ġtong2Ġ
lan2 Ġde2Ġ
ying2 Ġdi4Ġ
zhuan4 Ġji4Ġ
Ġren2Ġ ji2Ġ
Ġcheng2Ġ guo3Ġ
sheng1Ġ zhang3Ġ
Ġshe4Ġ bei4
luo4Ġ shan1Ġ
Ġzhe4 Ġli3Ġ
dao3Ġzhi4Ġ leĠ
Ġzhi3Ġ neng2Ġ
lian2Ġxu4 Ġju4Ġ
A D
B DĠ
p ĠĠĠ
Ġ po
Ġ 1985
Ġ kan4Ġ
Ġ che4Ġxiao1Ġ
yang4 Ġben3Ġ
ku4 ĠdeĠ
na Ġ
Ġyu2Ġ 17
ci2Ġ shan4
du2Ġ te4Ġ
Ġdang1Ġ ju2Ġ
ye2Ġ fu1Ġ
Ġqi3Ġ ye4Ġ
c a1Ġ
Ġ 1948Ġnian2Ġ
ĠĠĠ ying1Ġ
tong2 Ġzhi4Ġ
ke3 Ġyou2Ġ
nei4 Ġhe2Ġ
tai2 Ġji2Ġ
shui3 Ġyuan2Ġ
Ġzai4Ġ yi2Ġge4Ġ
you2Ġ lai2Ġ
shu4Ġ zhi2Ġ
chang2Ġ zhu4
bao3Ġ yu4Ġ
ni2Ġ gu3Ġla1Ġ
zi1Ġ jin1
Ġxiang1Ġ fan3Ġ
gui1Ġ ge2Ġ
wang3Ġ min2Ġ
jing3Ġ bao4Ġ
chu3Ġ li3
er2Ġ zi
Ġtai2Ġ bei3
Ġer4 Ġyue4Ġ
mei3Ġshu4Ġ guan3Ġ
zhui1Ġsu4 Ġzhi4Ġ
ĠsectionĠĠĠ endĠ
han4Ġlin2Ġ yuan4Ġ
E E
l li
Ġ gai4
ĠĠĠ jiang1Ġ
ĠĠĠ ai4Ġ
ĠĠĠ zhu4Ġzuo4Ġ
si1 Ġji2Ġ
de2 Ġke4Ġsa4Ġsi1Ġ
hai3 Ġjun1ĠdeĠ
dao3 Ġdan4
huang2 Ġhe2Ġ
mi4 Ġxi1Ġxi1Ġ
ly Ġ
Ġda4Ġ liang4ĠdeĠ
Ġjun1 Ġgong1Ġ
Ġwei2Ġ yi1ĠdeĠ
jie1Ġ ti4Ġ
bao3Ġ xian3
ci4Ġ ziĠ
si4Ġ yuan4Ġ
jian3Ġ pu3Ġ
can1Ġ kao3
sui2Ġ zhe
Ġhuo4Ġde2 Ġyi1Ġmei2Ġ
meng4Ġjia1Ġ la1
Ġ zhang3
Ġ zi
Ġ bo2Ġshi4Ġ
ĠĠĠ dai4Ġ
shang4 Ġyu3Ġ
ping2 Ġji2Ġ
guo4 Ġshi4Ġ
liu2 Ġxing2ĠdeĠ
chuan1 Ġzhu4Ġ
59 Ġnian2Ġ
ma1 Ġzu3Ġ
qu2 Ġ
Ġli4Ġ jing1Ġ
Ġyi4Ġ ti2Ġ
Ġyi3 Ġgong1Ġ
Ġxing2Ġ zou3Ġ
dui4Ġ kang4Ġ
Ġta1Ġ ye3Ġshi4Ġ
Ġchu1Ġ sheng1Ġzai4Ġ
lu4Ġ kou3Ġ
Ġjun1Ġ tuan2
yi2Ġ ju1Ġ
ze2Ġ ren4
que4Ġ bao3
gan3Ġ qing2Ġ
Ġzhi3Ġ yao4Ġ
Ġjiang1 Ġjun1Ġ
Ġãĥ ³
Ġbao3Ġ luo2Ġ
mei4Ġ mei4
bian4Ġcheng2Ġ leĠ
gao4Ġshi4Ġ pai2Ġ
3 Ġgong1Ġli3Ġ
bei4 Ġren2Ġ
ye3 Ġsheng1Ġ
sai4 Ġshi4Ġzhong1Ġ
ke1 Ġjin4Ġshi4Ġ
zhuang1 Ġyou3Ġ
jia4 Ġri4Ġ
rui4 Ġke4Ġ
xuan4 Ġ
Ġbu4Ġ zu2
Ġshi2Ġ qi1Ġnian2Ġ
si1Ġ fa3Ġ
Ġjian4Ġ zheng4Ġ
qi4Ġ guan1Ġ
Ġxia4Ġ xia2Ġ
jing3Ġ bao4
qian1Ġ wang3Ġ
di2Ġ ya4Ġ
xia2Ġ zhai3
shen3Ġ yang2Ġ
e4Ġ tu2Ġ
Ġ zong1Ġjiao4Ġ
qian2 Ġyi1Ġ
zhong4 Ġyi4Ġyuan2Ġ
yue1 Ġke4Ġ
nv3 Ġshi4Ġ
mu3 Ġshi4Ġ
gan3 ĠdeĠ
II IĠ
ĠdeĠ er2ĠziĠ
shi2Ġ dai4Ġ
Ġbu4Ġ yu3Ġ
xi1Ġ fang1Ġ
Ġji1Ġ qi4Ġ
kai1Ġ qi3Ġ
fa1Ġ yan2Ġ
Ġzhou1Ġ bian1
Ġshe4Ġ ding4Ġ
zheng1Ġ qu3
cai3Ġ fang3Ġ
zhuan1Ġ ke1Ġxue2Ġ
Ġren2Ġkou3Ġ pu3Ġcha2Ġ
pai4Ġ qian3Ġ
Ġxing4Ġ bie2Ġ
zhan4Ġzheng1 Ġzhong1Ġ
mao2Ġze2Ġ dong1
Ġjie1Ġwei4Ġ lu4Ġdi4Ġ
Ġ ru4
Ġ xiao1
Ġ kao3
Ġ yuan4Ġ
Ġ 1947Ġnian2Ġ
ĠĠĠ Z
ĠĠĠ Le
ĠĠĠ zhan4Ġhou4Ġ
you3 Ġshi4Ġ
xian4 Ġzai4Ġ
lin2 Ġshi4Ġ
yang2 Ġji1Ġ
mu3 Ġyu3Ġ
Ġzai4Ġ tai2Ġwan1Ġ
zhi4Ġ liao2Ġ
xiang4Ġ liang4Ġ
jie2Ġ hun1
Ġtong2 Ġnian2Ġ9Ġyue4Ġ
tu2Ġ jing1Ġ
zheng1Ġ qi4Ġ
cai2Ġ ding4Ġ
Ġliang3 Ġguo2Ġ
Ġao4 Ġdi4Ġli4Ġ
Ġzai4Ġzhong1Ġguo2Ġ da4Ġlu4Ġ
Ġke1 Ġer3Ġ
wang2Ġchao2 ĠdeĠ
p ei1
Ġ hu1Ġ
Ġ 1937Ġnian2Ġ
dang1 Ġdai4Ġ
zhong3 Ġjia1Ġ
qian1 Ġshi4Ġ
da3 Ġjin4Ġ
bei1 ĠdeĠ
qiao4 Ġ
Ġwei4Ġ gai1Ġ
Ġyue4Ġ qi4Ġ
ming2Ġ cheng1
Ġta1Ġ cong2Ġ
Ġdui4Ġ ying4Ġ
Ġju4Ġ feng1Ġ
yan3Ġ hua4
Ġwan4Ġ mei3Ġyuan2ĠdeĠ
zu2Ġqiu2Ġ lian2Ġsai4Ġ
ĠĠĠH o
Ġzai4Ġci3Ġ qi1Ġjian1Ġ
you2Ġxi4 Ġzhong1Ġ
li3Ġgong1Ġ da4Ġxue2Ġ
Ġshi4Ġshi4Ġjie4 Ġshang4Ġ
Ġ ya4
Ġ tao2
Ġ 88
lai2 Ġde2Ġ
10 Ġge4Ġ
hong2 Ġshi2Ġzi4Ġ
reng2 Ġshi4Ġ
wo4 Ġsi1Ġ
na tion
2026 Ġnian2Ġ
ĠdeĠ wen4Ġti2Ġ
Ġwei4Ġ re4Ġdai4Ġ
Ġshi2Ġ shi2Ġ
dui4Ġ fang1Ġ
Ġwei2Ġ ke4Ġ
Ġran2 Ġer2Ġzai4Ġ
du2Ġ shu1Ġ
tou2Ġru4Ġ shi3Ġyong4Ġ
Ġ Te
Ġ ke3Ġneng2Ġshi4Ġ
ĠĠĠ 2002Ġnian2Ġ
you3 Ġbu4Ġtong2ĠdeĠ
dui4 Ġcheng2Ġyuan2Ġ
tai4 Ġji2Ġ
tai4 Ġer3Ġ
shun4 Ġtian1Ġ
di4Ġ san1Ġ
cheng2Ġ zhen4Ġ
Ġyi1Ġ xue2Ġyuan4Ġ
Ġda4Ġ yu3Ġ
Ġji1Ġ qi4Ġren2Ġ
fu4Ġ za2Ġ
Ġzheng4Ġ dang3Ġ
Ġtong2 Ġnian2Ġ11Ġyue4Ġ
zi1Ġ bie2
hua2Ġ xue3Ġ
lv4Ġ shi1
zu2Ġ gou4ĠdeĠ
yin3Ġ qing2
Ġjie2Ġ shu4
Ġguo4Ġ cheng2Ġzhong1Ġ
Ġma3Ġ ding1Ġ
gang1Ġ qin2
sui2Ġ zhu4
ĠĠĠli4Ġshi3Ġ yan2Ġge2Ġ
fa1Ġsheng1Ġ hou4Ġ
Ġdi4Ġshi2Ġ er4Ġ
yun2Ġnan2Ġ sheng3Ġ
Ġ geng1Ġ
li3 Ġzai4Ġ
ge4 Ġge4Ġ
fa1 Ġyin1Ġ
fu4 Ġbu4Ġ
yi4Ġ ban1Ġ
Ġyue4Ġ qiu2Ġ
guan1Ġ yin1Ġ
jing1Ġ ying1Ġ
jin1Ġ qu3Ġ
Ġren4Ġ zheng4Ġ
nv3Ġ ge1Ġshou3Ġ
ju2Ġ mian4Ġ
Ġshi4Ġjie4 Ġge4Ġdi4Ġ
pin2Ġ kun4
Ġfa1Ġ biao3
dong1Ġjing1Ġ du1Ġ
lian2Ġsai4 Ġqiu2Ġdui4Ġ
Ġli4Ġfa3Ġ wei3Ġyuan2Ġ
Ġ ou1Ġzhou1
shi3 Ġsi1Ġ
yu4 Ġyou3Ġ
xiang1 Ġdao4Ġ
xiang4 Ġta1Ġ
hui2 Ġfu4Ġ
lun2 Ġli3Ġ
st ri
lo w
SA Ġ
Ġren2Ġ shou4Ġshang1Ġ
da4Ġ dong1Ġbu4Ġda4Ġqu1Ġ
Ġgong1Ġ zhong4
Ġsi1Ġ dun4Ġ
Ġhou4Ġ lai2ĠdeĠ
yu4Ġ shi3Ġ
Ġbing4Ġ jiang1Ġqi2Ġ
ke3Ġ fen1Ġwei2Ġ
neng2Ġ li4ĠdeĠ
ba1Ġ he4Ġ
dang3Ġ wei3Ġ
qian1Ġ ru4Ġ
Ġhe2Ġguo2Ġ jia1Ġ
Ġjiu3 Ġyue4Ġ
Ġnian2Ġshi4Ġjie4Ġ bei1Ġ
Ġ qiong2
Ġ Di
ĠĠĠ zuo4Ġ
shang4 Ġyi3Ġ
ci3 Ġyi1Ġ
re e
shen3 Ġyi4Ġ
51 Ġnian2Ġ
Ġwei4Ġ gong1Ġ
dian4Ġ rong2Ġ
hai3Ġ wai4
Ġben3Ġ tu3
xian1Ġ fa1Ġ
ĠĠĠT h
shan3Ġxi1Ġ sheng3Ġ
jia1Ġli4Ġfu2Ġ ni2Ġya4
Ġ shan1
Ġ wang4Ġ
Ġ guang3Ġzhou1Ġ
Ġ 1946Ġnian2Ġ
hui4 Ġcheng2Ġyuan2Ġ
she4 Ġji1Ġ
ping2 Ġxi1Ġ
jiao4 Ġyi4Ġ
jin1 Ġzhong1Ġ
Ġzai4Ġ bei3Ġjing1Ġ
Ġhe2Ġ ma3Ġ
Ġyue4Ġ du2Ġ
ji4Ġ hou4Ġ
Ġyi1Ġ lang3Ġ
Ġyu3Ġ li3Ġ
dai4Ġ lai2ĠdeĠ
jing1Ġ fei4Ġ
dian4Ġ lu4Ġ
bian1Ġ fu2Ġ
Ġzui4Ġ hou4
sai1Ġ bai4
re4Ġ men2Ġ
shen3Ġ pan4
niu3Ġyue1 Ġshi4Ġ
ke1Ġji4Ġ da4Ġxue2Ġ
Ġ shuo1
Ġ xie2
Ġ Ri
ju4 Ġren2Ġ
fu2 Ġke4Ġ
ku a1Ġ
Ġshi2Ġ zi4
cheng2Ġ ren4Ġ
Ġzhi1Ġ nv3Ġ
lai2Ġ wang3Ġ
Ġbing4Ġ xiang4Ġ
Ġke4Ġ lu3Ġ
Ġshang4Ġ sheng1Ġ
fan4Ġ dian4Ġ
Ġru2Ġ jin1Ġ
Ġshi4Ġyi1Ġke1Ġ heng2Ġxing1Ġ
ĠSA OĠĠĠ
mo2Ġte4 Ġer2Ġ
G oog
Ġ biao1Ġzhun3Ġ
hua4 Ġxian4Ġ
fa3 Ġhe2Ġ
dou1 Ġyi3Ġ
rang4 Ġren2Ġ
fang3 Ġzhi1Ġ
li4Ġ ziĠ
Ġdi4Ġ 1
Ġzhi1 Ġyu2Ġ
zhu3Ġ guan3Ġ
Ġsheng1Ġ cheng1
qi3Ġ fa1Ġ
Ġqi2Ġzhong1Ġ bao1Ġkuo4
han2Ġ gai4Ġ
bu3Ġ ru3
Ġbo1Ġ luo2Ġ
chuang4Ġban4 Ġren2Ġ
Ġ bie2Ġ
ĠĠĠ m
ĠĠĠ 11
ĠĠĠ duo1Ġ
ĠĠĠ qi4Ġhou4Ġ
nan2 Ġzhi4Ġ
da2 Ġhe2Ġ
sha1 ĠleĠ
ver Ġ
ĠdeĠ she4Ġji4Ġ
Ġshi4Ġ jiang1Ġ
Ġgong1Ġ guo2Ġ
wen2Ġ ben3Ġ
gou4Ġ wu4Ġ
Ġjie1Ġ zhu4Ġ
Ġfu2 Ġli3Ġ
Ġdi4Ġer4 Ġge4Ġ
Ġya4Ġ mei3Ġ
Ġ xue2
Ġ qiao2
Ġ ying3Ġ
Ġ zheng1Ġyue4Ġ
zuo4 Ġhe2Ġ
bei4 Ġbu4Ġ
dou1 Ġyu4Ġshi3Ġ
zan4 Ġcheng2Ġ
54 Ġnian2Ġ
Ġdi4Ġ chu3Ġ
Ġxian4 Ġli4Ġ
Ġdan4 Ġzhe4Ġ
bi3Ġ ci3Ġ
Ġdai4Ġ ling3Ġ
yuan4Ġ xiao4Ġ
bian4Ġ geng1
zheng1Ġ duo2
pai2Ġ hang2
tian2Ġ xin4Ġ
sa4Ġ zhu1Ġ
jian4Ġzhu4Ġ wu4Ġ
mu4Ġni2Ġ hei1Ġ
Ġqi1Ġxi1Ġ shen1Ġdu4Ġ
T A
Ġ qun2Ġ
Ġ zhun3Ġbei4Ġ
ĠĠĠ 5
jia1 Ġshi2Ġ
jun1 Ġren2Ġ
jin4 Ġcheng2Ġ
shi1 Ġli4Ġ
hua2 Ġyu3Ġ
dian3 Ġwei4Ġyu2Ġ
zi1 ĠdeĠ
lu3 Ġji2Ġ
Ġren2Ġ shu4
Ġdao4Ġ guang1Ġ
dong4Ġ wu4ĠdeĠ
dong1Ġ bu4ĠdeĠ
gao1Ġ feng1Ġ
jue2Ġ ce4Ġ
lin2Ġ na4Ġ
xuan3Ġ piao4Ġ
Ġxiang4Ġ zheng1Ġ
ĠdeĠyi1Ġ zhong3
shen3Ġ cha2
miao2Ġshu4Ġ leĠ
Ġfei1 Ġli4Ġ
Ġliu4 Ġyue4Ġ
Ġ Ga
Ġ 1952Ġnian2Ġ
ai2 Ġ
wai4 Ġxing2Ġ
ji3 Ġnan2Ġ
Ġshi4Ġ dai4Ġ
Ġshi4Ġ ri4Ġben3
Ġji4Ġ zhe3Ġhui4Ġ
Ġde2 Ġyi4Ġ
jing1Ġ ti3Ġ
qi1Ġ kan1Ġ
qing1Ġ chao2
qing1Ġ hai3Ġ
bian1Ġ jing4
xie1Ġ gen1
chong1Ġ fen4Ġ
zhan4Ġdou4 Ġji1Ġ
Ġ zhen4
Ġ 1988
qu1 Ġyi4Ġ
shang4 Ġhe2Ġ
mo n
sheng3 Ġzheng4Ġ
jiu4 Ġyi3Ġ
qin1 Ġshi2Ġ
bai4 ĠdeĠ
Ġdi4Ġ 4Ġ
xin1Ġ sheng1Ġ
lu4Ġ ying3Ġ
jiao4Ġ xiao3Ġ
Ġzhan4Ġ lve4Ġ
fen1Ġ shu4Ġ
liang3Ġ ci4
ban1Ġ dian3Ġ
shen2Ġ jing1
she4Ġ ding4Ġ
Ġxing2Ġzheng4 Ġzhong1Ġxin1
I F
zuo4 Ġyou3Ġ
shou3 Ġbei4Ġ
ke3 Ġxing2Ġ
zhang3 Ġli3Ġ
san1 Ġguo2Ġ
yuan4 Ġhe2Ġ
bao3 Ġshi4Ġ
meng2 Ġyou3Ġ
zhen3 Ġduan4Ġ
36 Ġ
chai2 Ġyou2Ġ
Ġgong1Ġ jin1
Ġgong1Ġ bu4ĠdeĠ
Ġcheng2Ġ qiang2Ġ
Ġyuan2Ġ lai2ĠdeĠ
jie1Ġ qu1Ġ
jia4Ġ shi3
Ġbi4Ġ ye4Ġhou4Ġ
duo2Ġ guan4Ġ
Ġgai1Ġsheng3Ġfen4Ġwei4Ġfa3Ġguo2Ġ bei3Ġbu4Ġ
hua2Ġsheng4Ġ dun4Ġ
sai1Ġer3Ġwei2Ġ ya4
guo2ĠdeĠte4Ġyou3Ġ zhi2Ġwu4Ġ
Ġ Ba
ai4 Ġhe2Ġ
ĠĠĠ Mar
er sĠ
li3 Ġyou3Ġ
xin1 Ġhe2Ġ
yong3 Ġshi4Ġ
zao1 Ġdao4
Ġyi1Ġ shou3Ġ
Ġbei4Ġ pan4Ġ
jiao4Ġ gao1ĠdeĠ
fa1Ġ yu4Ġ
lian2Ġ bo1Ġ
jie4Ġ mian4Ġ
Ġxin1Ġ wen2
zu2Ġ zong3Ġ
lun4Ġ shu4Ġ
shao3Ġ liang4Ġ
nie4Ġ ci2
illi am
p sĠ
Ġ jiang3
ĠĠĠ huo4
wu3 Ġren2Ġ
gai1 Ġdi4Ġqu1Ġ
wai4 Ġji2Ġ
17 0
deng1 Ġji1Ġ
nuo4 Ġbei4Ġer3Ġ
tui3 Ġ
ĠdeĠ yin1Ġyue4Ġ
Ġwei4Ġ 2
Ġzai4Ġ xia4Ġ
Ġyuan2Ġ xing2
Ġer2 Ġyou3Ġ
Ġzhou1 Ġguo2Ġ
yan2Ġ lun4
fen1Ġ fen1Ġ
xiao3Ġ xiang4Ġ
pai2Ġ fang4Ġ
zhuan1Ġ zhu4Ġyu2Ġ
tui1Ġ fan1Ġ
Ġzhi2Ġ jing4Ġ
Ġsan1 Ġguo2Ġ
ĠÐ ½
ran3Ġ se4Ġ
YouTube Ġ
7 Ġgong1Ġli3Ġ
Ġ liu3
Ġ 1983
ĠĠĠ she4Ġhui4Ġ
ĠĠĠ 2024Ġnian2Ġ
xin1 Ġxi1Ġlan2Ġ
er2 Ġcheng2Ġ
zhong4 Ġxing2Ġ
bian4 Ġxing2Ġ
tiao2 Ġjian4
ning2 Ġxian4Ġ
Ġnian2Ġ du4
Ġzai4Ġ ke4Ġ
Ġyi4Ġ miao2
sheng1Ġ xiao4Ġ
Ġji1Ġ dong4Ġ
yan2Ġ hai3
bei3Ġ ka3Ġluo2Ġlai2Ġna4
Ġsheng1Ġ ming4
Ġdan4Ġ bai2
xian4Ġ chang3Ġ
Ġdong1Ġ lin2
Ġba1 Ġxi1Ġ
dian4Ġzi3 Ġyou2Ġxi4Ġ
guan3Ġkong4 Ġzhong1Ġfa1Ġxian4Ġ
Ġ fu3
Ġ ge1Ġqu3Ġ
Ġ zhu2Ġ
dao4 Ġde2Ġ
ping2 Ġxing2Ġ
luo2 ĠdeĠ
mei2 Ġli4Ġ
fan3 Ġgong1Ġ
shang1 Ġhui4Ġ
qing2 Ġren2Ġ
ali gnĠ
da4Ġ chen2Ġ
Ġji2Ġ zhi4Ġ
Ġxing2 Ġzhi4Ġ
Ġzhu4Ġ ming2ĠdeĠ
jian3Ġ ce4
xing2Ġ zheng4
xing2Ġ dong4
dian4Ġying3 Ġzhong1Ġ
ĠO Ġ
Ġsheng1Ġhuo2 Ġzai4Ġ
r ao2Ġ
Ġ le4Ġ
ĠĠĠ 2000Ġnian2Ġ
you3 Ġbu4Ġfen4Ġ
xiang4 Ġyu3Ġ
min2 Ġshi4Ġ
gui1 ĠdeĠ
75 Ġ
huan3 Ġman4Ġ
zei2 Ġ
Ġzai4Ġ ba1Ġ
Ġbu4Ġ shu3Ġ
Ġshi2Ġ chang2Ġ
Ġda4Ġ jiang1Ġjun1Ġ
zi4Ġ zhu3Ġ
Ġzhan4Ġ yi4Ġzhong1Ġ
Ġtong2 Ġbu4Ġ
Ġxue2Ġ sheng1
se4Ġ qing2Ġ
zheng1Ġ lun4Ġ
zhen1Ġ dui4
xun2Ġ luo2Ġ
Ġji2Ġtuan2 Ġyou3Ġxian4Ġgong1Ġsi1Ġ
luo2Ġma3Ġ ni2Ġya4Ġ
ban4Ġshi4Ġ chu4
Ġyu3Ġmao2 Ġqiu2Ġ
ĠĠĠ Vi
ĠĠĠ 7Ġ
le Ġta1
bo2 Ġke4Ġ
Ġshi4Ġ xiang1Ġgang3
Ġshi4Ġ dang1Ġdi4Ġ
Ġcheng2Ġ yuan2ĠdeĠ
Ġda4Ġ zi4Ġ
ping2Ġ mian4Ġ
zhu4Ġ fang2Ġ
shou3Ġ fa3Ġ
ye4Ġ wu4
liang3Ġ ce4
liang3Ġ zhe3Ġ
ke3Ġyi3Ġ yong4Ġ
hai2Ġ zi
zhen1Ġ cha2
Ġqian2Ġ wang3
sui2Ġ zheĠ
ĠdeĠbu4Ġ tong2Ġ
Ġshen1Ġ du4Ġ
shou1Ġlu4Ġ leĠ
r on
Ġ xi3
ma3 Ġde2Ġli3Ġ
qi3 Ġchu1Ġ
200 Ġ
46 Ġ
qiao1 Ġchu1Ġ
Ġyu2Ġ zhong1Ġ
Ġyi4Ġ li4Ġ
Ġyi3Ġ 3Ġ
zhu3Ġ zhang1
Ġjian4Ġ zao4ĠdeĠ
zhi3Ġ ling4Ġ
Ġquan2 Ġqiu2
jue2Ġ xin1Ġ
ke3Ġ yong4Ġyu2Ġ
lu2Ġ wa3Ġ
Ġshe4Ġji4Ġ shi1Ġ
xi3Ġ ai4Ġ
2010Ġnian2Ġ mei3Ġguo2Ġren2Ġkou3Ġpu3Ġcha2Ġ
Ġguo2Ġjia1 Ġji2Ġ
Ġwei4Ġzhong1Ġ xin1Ġ
Ġchao2Ġ ting2Ġ
zhu3Ġti2Ġ qu1Ġ
shi1Ġqu4 ĠleĠ
Ġmin2 Ġji2Ġ
ji3Ġnei4Ġ ya4Ġ
yan2 Ġhe2Ġ
zhong4 Ġzhi4Ġ
hu4 ĠdeĠ
cha2 Ġsi1Ġ
zhao4 Ġji2Ġ
cu4 Ġ
Ġren2Ġ lei4ĠdeĠ
Ġqi2 Ġdi4Ġ
Ġsi1Ġ ta3
Ġji1Ġ qiang1Ġ
Ġxi1Ġ de2Ġ
Ġbing4Ġ kai1Ġshi3Ġ
gu3Ġ dai4
Ġzhong1Ġguo2Ġ guo2Ġjia1Ġ
Ġbi4Ġ xu1
tao3Ġ fa2Ġ
ĠdeĠli4Ġ shi3
zhen3Ġ duan4
KB 48
B M
r en
Ġ Si
Ġ mĠ
yi1 Ġzai4Ġ
shang4 Ġzai4Ġ
duo1 Ġjia1Ġ
qing1 Ġxi1Ġ
xi2 ĠdeĠ
tu di
zheng3 Ġshu4Ġ
ro w
Uni ver
Ġshi4Ġ tu2
Ġshi4Ġ han2Ġguo2Ġ
Ġbu4Ġ yi4Ġ
Ġzhong1Ġ xue2
Ġshi2Ġ er4
jia1Ġ qiang2Ġ
xiang1Ġ lian2Ġ
Ġming2Ġ dan1
kai1Ġ bo1Ġ
zhi3Ġ biao1Ġ
wai4Ġ jie4
Ġju4Ġ qing4Ġxia4Ġ
lie4Ġ biao3
huan2Ġ bao3Ġ
gui3Ġdao4Ġ jiao1Ġtong1Ġ
xin1Ġli3Ġ xue2Ġ
Ġwei4Ġfu2Ġqi2Ġyu2Ġgang1Ġ lu2Ġxing2Ġmu4Ġ
Ġpu2Ġtao2Ġya2 Ġyu3Ġ
8 Ġgong1Ġli3Ġ
Ġ xu3
Ġ 68
Ġ 99
Ġ 1970Ġnian2Ġ
shi3 Ġqi2Ġ
yun4 ĠdeĠ
se4 Ġhuo4Ġ
nv3 ĠdeĠ
si3 ĠdeĠ
kun1 Ġchong2Ġ
der Ġ
ia Ġ
ine Ġ
Ġhe2Ġ zhong1Ġguo2Ġ
Ġbu4Ġ xiang2Ġ
Ġzhi4Ġ pian4Ġ
Ġyi4Ġ chang2Ġ
wei2Ġ hu4Ġ
Ġji1Ġ guan1
ping2Ġ gu1
dong1Ġ lu4Ġ
fen1Ġ lie4
mei3Ġ guo2Ġhe2Ġ
Ġnan2Ġ fang1Ġ
ling2Ġ mu4Ġ
ling2Ġ shou4Ġ
fei4Ġ chu2
Ġqian2Ġ long2
kao3Ġlv4 Ġdao4Ġ
PlaySta tionĠĠĠ
Ġ pao4Ġ
Ġ kong4Ġzhi4Ġ
gong1 Ġwei4Ġ
jin4 Ġdai4Ġ
zhu4 Ġgong1Ġ
yan2 Ġshi4Ġ
ying3 Ġji2Ġ
men2 Ġshi4Ġ
fang2 ĠdeĠ
gu4 ĠdeĠ
xu2 Ġ
Ġshi2Ġ shang4Ġ
Ġxi1Ġ lan2
Ġming2Ġ chao2
jiao4Ġ duo1Ġ
dian4Ġ che1
fu2Ġ te4Ġ
ti3Ġ nei4Ġ
ding4Ġ lv4Ġ
zhang1Ġ dan1Ġqu1Ġ
jian4Ġ zao4
quan2Ġ wei1Ġ
zhuan3Ġ bo1Ġ
er2Ġ yan2Ġ
leĠyi1Ġ xie1
dou4Ġ zheng1
zhu1Ġlong2Ġ cao3
S O
ĠĠĠ fan3Ġ
le ĠdeĠ
si1 Ġyu2Ġ
xia4 Ġxing2Ġ
te4 Ġzhi4Ġ
jie1 Ġyou3Ġ
ti3 Ġzhong1Ġ
shou4 ĠleĠ
ban4 Ġxue2Ġ
ar ĠĠĠ
po4 ĠleĠ
all Ġ
hou4Ġ lai2
Ġda4Ġ ming2Ġ
Ġhou4Ġ yin1Ġ
ju4Ġ chang3Ġ
jiao4Ġ xiao3ĠdeĠ
dian4Ġ dong4Ġ
mei3Ġguo2Ġ guo2Ġjia1Ġ
bo1Ġ luo2Ġdi4Ġ
Ġzhong1Ġguo2Ġ da4Ġlu4
huo4Ġ sheng4Ġ
ĠdeĠshi4Ġ li4Ġ
qu1ĠdeĠ yi2Ġge4Ġ
Ġwan4Ġ ying1Ġ
ĠãĤ ĵ
huan2Ġxing2Ġ shan1Ġ
hao3Ġlai2Ġ wu4Ġ
6 Ġming2Ġ
x tĠ
Ġ guo3Ġ
ao4 Ġli4Ġ
gao1 Ġjia1Ġ
la1 Ġli4Ġ
su1 Ġzhou1Ġ
zong1 Ġzuo4Ġ
gai4 ĠleĠ
tan3 Ġke4
gan4 Ġshi4Ġ
ĠdeĠ wei4Ġzhi4Ġ
Ġxi1Ġ shou1Ġ
Ġzhi1Ġ yi1ĠdeĠ
Ġbei4Ġ ren4Ġwei2
guan1Ġ bi4
Ġke4Ġ lun2Ġ
qi4Ġ xuan2
Ġzi4Ġ sha1Ġ
wei3Ġ tuo1
jiu3Ġ jing1Ġ
xun2Ġ yan3Ġ
tie3Ġlu4Ġ ju2Ġ
wen2Ġhua4Ġ yi2Ġchan3Ġ
min2Ġzhu3Ġ zhu3Ġyi4Ġ
wen1Ġ ge1Ġ
cheng2Ġli4Ġ yu2Ġ
yun3Ġshi2Ġ keng1Ġ
you1Ġxiu4 ĠdeĠ
Ġgai1Ġwu4Ġzhong3ĠdeĠ mo2Ġshi4Ġchan3Ġ
l la
Ġ bi4
Ġ 1954Ġnian2Ġ
xiang4 Ġqi2Ġ
mu4 Ġhou4Ġ
ci4 Ġri4Ġ
dan1 Ġren2Ġ
guan4 Ġjun1ĠdeĠ
sai1 Ġsi1Ġ
21 Ġshi4Ġji4Ġ
Ġwei4Ġ ji1Ġchu3Ġ
Ġyi4Ġ bai3Ġ
fang1Ġ zhen1Ġ
ge2Ġ lei1Ġ
ya4Ġ zhong3Ġ
an1Ġ fu3Ġ
ying3Ġ zhan3Ġ
shui3Ġ zhun3Ġ
can1Ġ mou2Ġ
xian4Ġ dai4
ju1Ġ bu3Ġ
xun2Ġ huan2
Ġqu1Ġ yu4Ġ
Ġbo1Ġ lan2Ġ
Ġzhan4Ġzheng1 Ġzhong1Ġ
shou4Ġhuan1Ġ ying2ĠdeĠ
Ġ chuan2
ke4 ĠdeĠ
si4 Ġge4
bian4 Ġde2
mie4 Ġwang2Ġ
47 Ġ
Ġyu2Ġ 2025
shi3Ġ guan3Ġ
jing1Ġ dian3
suo3Ġ en1Ġ
bei3Ġ lu4Ġ
ge2Ġ li2
Ġzuo4Ġ leĠ
ma3Ġ chang3Ġ
feng1Ġ mian4Ġ
san1Ġ shi2Ġnian2Ġ
ying1Ġ chao1
sha1Ġ hai4
gu4Ġ ding4
Ġdi4Ġer4Ġ ci4Ġshi4Ġjie4Ġda4Ġzhan4Ġ
ĠĠĠben3 Ġyu2Ġ
r in
Ġ gan1
Ġ 1938Ġnian2Ġ
ĠĠĠ v
si1 Ġyou3Ġ
wen2 Ġji2Ġ
ye1 Ġsu1Ġ
Ġyi1Ġ hao4Ġ
ji1Ġ hu1
hua4Ġ xue2
Ġqi2Ġ bing1
suo3Ġ mu3Ġ
shan1Ġ chu2Ġ
qing1Ġ hua2Ġda4Ġxue2Ġ
Ġxiang1Ġ xin4Ġ
fei1Ġ ji1
jiu4Ġ ke3Ġyi3Ġ
qian1Ġ xi3
guang1Ġ xu4
3 ĠĠĠ
Ġ gui1
xue2 Ġli4Ġ
qi1 Ġge4Ġ
jie1 Ġdao4
cong2 Ġzhong1Ġ
yan4 ĠdeĠ
to Ġ
Ġwei4Ġ qi2
Ġshi2Ġ ba1Ġnian2Ġ
Ġli4Ġ an1Ġ
ji1Ġ gou4
Ġda4Ġ jun1Ġ
Ġyu3Ġ qian2Ġ
Ġji4Ġ ren4Ġ
fu4Ġ shu3
ju4Ġ dian3Ġ
zhe4Ġ yang4
Ġfu4Ġ nv3Ġ
Ġdan4Ġ yao4Ġ
si4Ġ hu1Ġ
wei1Ġ bo2Ġ
kong1Ġ tiao2Ġ
huan2Ġ rao4
Ġgong1Ġzuo4Ġ zhe3Ġ
Ġzhi3 ĠdeĠshi4Ġ
Ġceng2 Ġyu2Ġ
hai3Ġjun1Ġ lu4Ġzhan4Ġ
Ġwei4Ġdi4Ġ yi1Ġ
Ġzhong1Ġshi4Ġ yan3Ġ
Ġgong4 Ġji4Ġ
Ġzhong1Ġguo2Ġguo2Ġmin2Ġ dang3Ġ
Ġ ni
Ġ yan3Ġyuan2Ġ
Ġ 1976Ġnian2Ġ
hou4 Ġji2Ġ
fu4 Ġyuan2Ġ
jiang1 Ġxian4Ġ
jiang4 Ġzhi4Ġ
gei3 Ġchu1Ġ
xun1 Ġzhang1
shi2Ġ yue4Ġ
Ġzhi4Ġ hui4Ġ
jia1Ġ meng2Ġ
zheng4Ġ wu4Ġ
Ġhui4Ġ hua4Ġ
dian4Ġ xin4Ġ
ma3Ġ en1Ġsheng3Ġ
Ġshe4Ġ li4ĠdeĠ
sai4Ġ shi4ĠdeĠ
bao4Ġ dong4Ġ
zu2Ġ qun2
mei2Ġ ti3ĠdeĠ
di3Ġ kang4
guang3Ġbo1Ġ dian4Ġshi4Ġ
pai2Ġhang2Ġ bang3Ġ
dian4Ġqi4Ġ hua4Ġ
clu deĠ
Ġ gui1Ġding4Ġ
le Ġda4Ġliang4Ġ
zhi3 Ġwei4Ġ
deng3 Ġzhan4Ġ
da2 Ġdao4ĠleĠ
lun2 Ġduo1Ġ
jie3 ĠdeĠ
xiu1 Ġshi4Ġ
Ġzhi4Ġ li3Ġ
xin1Ġ zhu2
suo3Ġ xia2
hai3Ġ di3Ġ
qi3Ġ hua4Ġ
Ġdai4Ġ wei2Ġ
dao3Ġ zhi4ĠdeĠ
fan1Ġ chuan2Ġ
yong1Ġ you3ĠdeĠ
bi4Ġye4Ġ sheng1Ġ
yin3Ġqi3 ĠdeĠ
shuai4Ġling3 ĠdeĠ
Ġ chao2
Ġ 1975Ġnian2Ġ
Ġ 1966Ġnian2Ġ
zhi1 Ġxia4Ġ
zhi3 ĠdeĠshi4Ġ
bao4 ĠdeĠ
bo2 Ġli4Ġya4Ġ
12 Ġge4Ġ
cai3 Ġji2Ġ
zong4 Ġdui4Ġ
Ġyi1Ġ yi1Ġ
dui4Ġ ying4Ġ
Ġjun1 Ġhe2Ġ
Ġxia4Ġ jiang4Ġ
Ġzhu4Ġ zuo4Ġ
shui3Ġ ku4
wang3Ġ fan3Ġ
liang3Ġ ceng2Ġ
luo4Ġ fu1Ġ
mi4Ġ ma3Ġ
ling4Ġ wai4
jia3Ġ zu3Ġ
Ġnian2Ġ11Ġyue4Ġ 1Ġri4Ġ
zheng4Ġfu3 Ġzai4Ġ
5 Ġshi2Ġ
C R
Ġ huo2Ġdong4Ġ
ou1 Ġzhou1ĠdeĠ
qi2 Ġta1ĠdeĠ
lian2 Ġsi1Ġ
zhong4 Ġli4Ġ
hua2 Ġwei4Ġ
hai2 Ġhui4Ġ
chang4 Ġyi4Ġ
lao3 Ġren2Ġ
qiang1 Ġji1Ġ
qiao1 Ġ
Ġzhong1Ġ jie2Ġ
Ġren2Ġ yi4Ġ
Ġer2 Ġwei4Ġ
Ġshang4Ġ wu3Ġ
yun4Ġ suan4Ġ
tai4Ġ luo2Ġ
kao3Ġ ru4Ġ
dun4Ġ nie4Ġci2
ĠÐ ¸
3 Ġli4Ġ
T T
ĠĠĠ yue4
ĠĠĠ bai2Ġ
ĠĠĠ fa1Ġxing2Ġ
zheng4 Ġhe2Ġ
zhan4 Ġji2Ġ
lu4 Ġde2Ġ
nan2 Ġdao4Ġ
pu3 Ġli4Ġ
zong1 Ġshi4Ġ
ding3 Ġbu4Ġ
el l
Ġzai4Ġ dong1Ġ
li4Ġ yi4Ġ
Ġjia1Ġ meng2
fa1Ġ da2Ġ
jin3Ġ ci4Ġyu2Ġ
kuo4Ġ zhang1
shuai4Ġ xian1Ġ
Ġ yan3
Ġ Ge
Ġ reng2Ġ
ĠĠĠ Te
yu3 ĠĠĠ
zhang1 Ġjia1Ġ
mai4 Ġke4Ġer3Ġ
lao3 Ġhui4Ġ
pen2 Ġ
tu4 Ġ
na3 Ġ
Ġbu4Ġ xia4Ġ
Ġda4Ġ xuan3Ġ
zheng4Ġ dang3
shang4Ġ su4Ġ
nan2Ġ xing4
lu4Ġ xu4
Ġsheng1Ġ ya2
zong3Ġ jiao4Ġqu1Ġ
bian1Ġ ru4Ġ
wei1Ġ fu1Ġ
can1Ġ yan3Ġ
ye3Ġ mei2Ġyou3Ġ
Ġfen1Ġ lan2Ġ
chu3Ġ cun2Ġ
leĠyi1Ġ zhong3Ġ
ĠÐ µ
Ġhong2Ġ se4Ġ
ĠÃ ¼
Ġbian1 Ġhao4Ġ
U R
l yi
Ġ jing4
Ġ 1935Ġnian2Ġ
ai4 Ġli4Ġsi1Ġ
ĠĠĠ 2001Ġnian2Ġ
zhou1 Ġnian2Ġ
lin2 Ġxian4Ġ
wei1 Ġer3Ġsi1Ġ
rong2 Ġyu2Ġ
xiu1 Ġxi1Ġ
Ġshi2Ġ yu2Ġ
Ġshi2Ġ bie2Ġ
Ġyu2Ġ jia1Ġ
Ġyu2Ġ 9Ġyue4Ġ
Ġren2Ġ cai2Ġ
Ġli4Ġ wei3Ġ
shi3Ġ zhe3Ġ
xia4Ġ lang3Ġde2Ġ
min2Ġ dang3Ġ
Ġhuo4 Ġer3Ġ
ĠdeĠdi4Ġ tie3Ġ
man4Ġ hua4Ġjia1Ġ
Ġluo2Ġ bo2Ġ
ĠdeĠren2Ġ wu4Ġ
Ġma3 Ġke4Ġ
Ġshu3Ġ rou4Ġshi2Ġxing4Ġ
Ġai1 Ġer3Ġ
juan1Ġ zeng4Ġ
shi1Ġfan4 Ġda4Ġxue2Ġ
xiang1Ġdang1 Ġyu2Ġ
jian1Ġcha2 Ġyu4Ġshi3Ġ
Ġ niu3Ġ
Ġ 25Ġ
tai2 Ġyu3Ġ
pu3 ĠdeĠ
cai2 Ġhui4Ġ
Ġwei4Ġ xing1
Ġbu4Ġ lang3Ġ
Ġji2Ġ you3Ġ
ming2Ġ chao2Ġ
Ġxian4Ġ ren4
Ġjia1Ġ ju4Ġ
yan2Ġ fa1
qian2Ġ long2Ġ
zhi2Ġ wu4ĠdeĠ
Ġdui4Ġ kang4Ġ
gao1Ġ ceng2Ġ
Ġzheng4Ġ quan4Ġ
zui4Ġ xin1Ġ
jiao1Ġ wang3Ġ
zu3Ġ zhang3Ġ
Ġzhu3Ġ jiao4Ġ
e2Ġ wai4ĠdeĠ
Ġgao1Ġ deng3Ġ
Ġxiao3Ġ shuo1
huo2Ġdong4 Ġzhong1Ġ
yi1Ġli4Ġ nuo4Ġyi1Ġ
Ġ 1982
Ġ iĠ
Ġ 1968Ġnian2Ġ
ĠĠĠ tai2Ġwan1
ĠĠĠ miao2Ġshu4Ġ
zuo4 Ġcheng2Ġ
ping2 Ġshi4Ġ
bo Ġdu4Ġ
bao4 Ġyu3Ġ
zhan3 Ġxian4
zhuang1 Ġyuan2Ġ
zou3 ĠleĠ
nd ro
DV D
Ġhe2Ġ zuo4ĠdeĠ
Ġxian4 Ġyi4Ġ
zuo4Ġ qu3Ġjia1Ġ
Ġqi2 Ġren2Ġ
zheng4Ġ bian4Ġ
Ġjia1Ġ zu2ĠdeĠ
Ġta1Ġ ke3Ġyi3Ġ
ju4Ġ jue2
Ġbei4Ġ ji1Ġ
wen2Ġ shu1Ġ
shi1Ġ zong1Ġ
Ġzhe4Ġ yi4Ġwei4Ġ
Ġxiang1Ġ jiao4Ġyu2Ġ
mi4Ġ mi4
lei4Ġ an4Ġjian4Ġ
jia4Ġ zhi2ĠdeĠ
xian1Ġ qu1Ġ
ling2Ġ hun2
Ġzhi2 Ġdao4
Ġjian4Ġzhu4Ġ shi1Ġ
Ġxing2Ġzheng4Ġ zhang3Ġguan1Ġ
ĠdeĠbu4Ġ dui4Ġ
Ġtai2Ġ bei3Ġ
zhuan4Ġ xie3
Ġha1 Ġli4Ġ
Ġbu4Ġguo4 Ġzai4Ġ
Ġhua4Ġxue2 Ġshi4Ġwei4Ġ
Ġ xiu4Ġ
Ġ hui1Ġfu4Ġ
Ġ pan1Ġ
yu2 Ġnian2Ġ
fu4 Ġwei4Ġ
fang1 Ġji4Ġ
ti2 ĠdeĠ
Ġcheng2Ġ shu2
shang4Ġ zhen4Ġ
zui4Ġ zhu4Ġming2ĠdeĠ
shu1Ġ niu3
na4Ġ cui4Ġ
Ġci3 Ġzhan4Ġ
ĠdeĠyi4Ġ shu4Ġ
niu3Ġyue1 Ġzhou1Ġ
Ġxian4Ġlu4Ġ kou3Ġ
shou4Ġhai4Ġ zhe3Ġ
O V
c an4Ġ
Ġ ã
Ġ kan3
Ġ Pa
Ġ huang2Ġjia1Ġ
ĠĠĠ 20Ġshi4Ġji4Ġ
wei2 Ġji2Ġ
sheng1 Ġdao4Ġ
zui4 Ġming2Ġ
ying1 Ġshi4Ġ
Ġyu2Ġ 2008
yan2Ġ xu4Ġ
jie1Ġ shang4Ġ
Ġtong2 Ġnian2Ġ8Ġyue4Ġ
chang2Ġ chang2Ġ
Ġhuo4Ġ bi4Ġ
biao3Ġ mian4
zhi1Ġ hou4ĠdeĠ
Ġwan4Ġ zhang1Ġ
tui1Ġ fan1
Ġ2 ĠĠĠ
tiao2Ġjian4Ġ xia4Ġ
Ġyi4Ġzhi2 Ġzai4Ġ
na4Ġcui4 Ġde2Ġguo2Ġ
e2Ġhai4Ġe2 Ġzhou1Ġ
Ġ huang2Ġdi4Ġ
Ġ hen3Ġduo1Ġ
ĠĠĠ xiao4Ġ
zhi2 Ġgong1Ġ
zhi2 Ġbei4Ġ
zu3 Ġcheng2Ġyuan2Ġ
mu3 Ġhe2Ġ
chu3 Ġguo2Ġ
zhong1Ġ xue2Ġ
Ġren2Ġ si3Ġwang2Ġ
jin1Ġ tian1Ġ
jie4Ġ ru4Ġ
Ġben3Ġ shen1Ġ
hui2Ġ lai2Ġ
fei4Ġ qi4Ġ
ĠĠĠta1 Ġzai4Ġ
lv4Ġwei4Ġ 0
I M
t en
Ġ xue3Ġ
e2 Ġjun1Ġ
ĠĠĠ xiang1Ġguan1Ġ
fu4 Ġyi4Ġ
ben3 Ġshi4Ġ
long2 Ġshi4Ġ
zhao1 Ġhe2Ġ
kao4 Ġjin4
43 Ġ
41 Ġ
ren2Ġ lei4
Ġbu4Ġ lang3
cheng2Ġ li4ĠdeĠ
ji4Ġ lu4
xi1Ġ li3Ġ
ren4Ġ jiao4Ġ
guan1Ġ kan4
mu4Ġ han3Ġmo4Ġde2Ġ
nei4Ġ bu4ĠdeĠ
Ġyin1Ġ su4
zong3Ġ ti3Ġ
gu3Ġ ba1Ġ
Ġlu4Ġ yin1Ġshi4Ġ
sai1Ġ e2Ġ
geng1Ġ gai3Ġ
ĠĠĠin ĠĠĠ
y a
ĠĠĠ yang2Ġ
zhan4 Ġli4Ġ
qi1 Ġming2Ġ
xing4 Ġdi4Ġ
liu2 Ġdan4Ġ
qing1 ĠdeĠ
xiao4 Ġzhong1Ġ
pai2 Ġqiu2Ġ
miao4 ĠdeĠ
et ĠĠĠ
44 Ġ
ren2Ġ lei4Ġ
Ġbu4Ġ shou4Ġ
Ġcheng2Ġ du4ĠdeĠ
Ġxian4Ġ ding4Ġ
Ġbei4Ġ xuan3Ġwei4Ġ
zui4Ġ duo1
Ġzhe4Ġ ye3Ġ
ba1Ġ da2Ġ
bian4Ġ geng1Ġ
xun2Ġ hang2Ġ
lu2Ġ sen1Ġ
Ġcheng2Ġyuan2Ġ guo2Ġ
ĠĠĠC ol
jing1Ġli4Ġ leĠ
wo3Ġmen ĠdeĠ
o li
Ġ geng1Ġming2Ġwei4Ġ
Ġ 1964Ġnian2Ġ
xun4 ĠdeĠ
que1 Ġxian4Ġ
Ġbu4Ġ bei4Ġ
jia1Ġ ting2
Ġyu3Ġ zhi1
Ġxi1Ġ lin2Ġ
Ġchu1Ġ ju2Ġ
Ġwei2Ġ lai2Ġ
Ġdai4Ġ ling3
jie3Ġ jie3Ġ
jiang3Ġ shi1Ġ
chu4Ġ chu4Ġzhang3Ġ
ĠdeĠshi2Ġ ji4Ġ
shu4Ġliang4 ĠdeĠ
mu4Ġdi4Ġ di4Ġ
Ġmeng2Ġ gu3
ĠĠĠhou4Ġ lai2Ġ
xie2Ġshang1Ġ hui4Ġyi4Ġ
E S
y n
Ġ zheng3
wu4 Ġji2Ġ
dai4 Ġshi2Ġ
bao3 Ġjian4Ġ
qiang2 Ġxing2Ġ
âĢ »
guan4 Ġli4Ġ
Ġshi4Ġ jue2Ġ
Ġren2Ġ wei2Ġ
Ġli3Ġ cha2Ġ
zhan4Ġ chang3Ġ
Ġzhi1Ġ yong4Ġ
kai1Ġ pu3Ġ
san1Ġ ceng2Ġ
mei3Ġ la1Ġ
zhou1Ġ qi1Ġ
Ġtong2Ġshi2Ġ ye3
lao3Ġ ban3Ġ
kai1Ġshi3 Ġhou4Ġ
ĠãĤ ¹
zai1Ġ hai4Ġ
ken3Ġ se4
D R
Ġ tou2
Ġ 1986
Ġ 1948
ĠĠĠ ri4
hou4 Ġgong1Ġ
chu1 Ġxian4ĠdeĠ
qu1 Ġyu3Ġ
fa3 Ġjun1Ġ
fu2 Ġda4Ġxue2Ġ
pu3 Ġsi1Ġ
zhuang1 Ġzai4Ġ
wa3 Ġer3
shuai4 Ġjun1Ġ
int Ġ
Ġhe2Ġ dao4Ġ
Ġji2Ġ ta1Ġ
Ġyuan2Ġ you3ĠdeĠ
Ġde2 Ġshi4Ġ
Ġli3Ġ jia1Ġ
zhen4Ġ ying2Ġ
zong3Ġ guan3Ġ
liang3Ġ xiang4Ġ
Ġguo4Ġ qu4
xuan1Ġ cheng1
Ġbi4Ġ ye4Ġ
Ġ1 ĠĠĠ
ling4Ġyi1Ġ zhong3Ġ
Ġgan1Ġ su4Ġ
Ġshi2Ġyi1Ġ yue4Ġ
fu2Ġluo2Ġli3Ġ da2Ġzhou1Ġ
Ġxin1Ġjia1Ġ po1
suo3Ġxu1 ĠdeĠ
n ao4Ġ
Ġ zao3
qi e2Ġ
yi1 Ġnian2ĠdeĠ
qu1 Ġwei4Ġyu2Ġ
shang4 Ġyi4Ġ
er2 Ġbei4Ġ
wan1 Ġdao4Ġ
39 Ġ
ren2Ġ kou3
yi4Ġ yi4Ġ
Ġyu3Ġ ta1
Ġxing2Ġ che1Ġ
ren4Ġ tian1Ġtang2Ġ
xin1Ġ a1Ġji1Ġtan3
min2Ġ jian1
shou3Ġ hu4Ġ
ĠleĠ dui4Ġ
Ġzhe4Ġ liang3Ġge4Ġ
bian4Ġ lun4Ġ
zheng1Ġ duo2Ġ
hui2Ġ ying4
zhuang1Ġ bei4
Ġsui4 Ġren2Ġkou3Ġ
xuan1Ġ gao4Ġ
Ġtong1Ġ chang2Ġshi4Ġ
bei3Ġjing1 Ġda4Ġxue2Ġ
Ġ190 9Ġnian2Ġ
li4Ġhe2Ġ wu2Ġzheng4Ġzhuang4Ġgan3Ġran3Ġzhe3Ġ
Ġyou4Ġming2Ġ BDĠ
hang2Ġzhan4Ġ lou2Ġ
1 Ġyi4Ġ
2 Ġshi2Ġ
s k
Ġ fen4Ġ
gong1 Ġzhong1Ġ
le Ġhe2Ġ
hou4 Ġzhi4Ġ
yan2 Ġli4Ġ
suo3 Ġbu4Ġtong2Ġ
song4 Ġzhi4Ġ
lang2 ĠdeĠ
ou nd
da1 Ġcheng2Ġ
ĠdeĠ ping2Ġ
Ġbu4Ġ lu3Ġke4Ġ
Ġyi1Ġ fu2Ġ
Ġge4 Ġyou3Ġ
Ġge4 Ġxian4Ġ
hui4Ġ hua4Ġ
sheng1Ġ zhang3
Ġde2 Ġzai4Ġ
lu4Ġ yin1Ġ
zui4Ġ ju4Ġ
chuan2Ġ jiao4Ġ
cheng1Ġ zan4
an4Ġ cha2Ġ
fan3Ġ kang4Ġ
xi2Ġ su2Ġ
man4Ġ ha1Ġ
que4Ġ ren4
Ġci3Ġ qian2Ġ
mai4Ġ a1Ġ
ke3Ġneng2 Ġzai4Ġ
tu1Ġ jue2Ġ
Ġquan2Ġguo2Ġ zhong4Ġdian3Ġwen2Ġwu4Ġbao3Ġhu4Ġdan1Ġwei4Ġ
Ġmin2Ġ zu2Ġ
Ġwei4Ġyu2Ġgai1Ġguo2Ġ bei3Ġbu4Ġ
Ġxi1 Ġyuan2Ġ
min3Ġ gan3Ġ
Ġgai1Ġwu4Ġzhong3ĠdeĠmo2Ġshi4Ġchan3Ġ di4Ġzai4Ġ
2 Ġhao4
E M
Ġ bao4Ġdao4Ġ
ĠĠĠ si4Ġ
lu4 Ġsi1Ġ
xiang4 Ġzai4Ġ
11 Ġshi2Ġ
mi4 Ġji2Ġ
geng4 Ġyou3Ġ
ĠdeĠ zuo4Ġpin3Ġ
Ġyu3Ġ mei3Ġguo2Ġ
zhan4Ġ ju4Ġ
wu2Ġ guan1Ġ
zhi1Ġ wai4Ġ
ha1Ġ la1Ġ
ding3Ġ dian3Ġ
ĠãĤ ¤
zai1Ġ nan4Ġ
Ġsui2Ġ zhu4
jie1Ġdao4Ġ ban4Ġshi4Ġchu4Ġ
ĠĠĠzhe4Ġ geĠ
ou1Ġzhou1 Ġguo2Ġjia1Ġ
jiao1Ġhui4Ġ chu4Ġ
Ġke4Ġxi1Ġ ta3Ġni2Ġda4Ġqu1Ġ
grou ndĠ
Ġ chi4
Ġ miao2Ġ
Ġ 1972Ġnian2Ġ
li n
zui4 Ġjin4Ġ
shi1 Ġzai4Ġ
ci4 Ġshi4Ġ
na4 Ġzai4Ġ
shui3 Ġxian4Ġ
nv3 Ġyou3Ġ
qian1 Ġdao4Ġ
mi4 Ġer3Ġ
zhen1 Ġxiang4Ġ
Ġshi4Ġ xian4Ġ
Ġshi2Ġ si4Ġ
Ġsi1Ġ li3Ġlan2Ġ
Ġwei2Ġ hu4Ġ
Ġwei2Ġ xiu1Ġ
Ġdai4Ġ bu3Ġ
sai4Ġ ju1Ġ
da2Ġ ke1
yang2Ġ xing4Ġ
shu3Ġ xing4Ġ
yin3Ġ fa1
hai2Ġ bao1Ġkuo4Ġ
chong2Ġ xiu1Ġ
bie2Ġ shu4Ġ
Ġying1Ġ gai1Ġ
Ġxi4Ġ bao1
Ġduo1 Ġge4Ġ
Ġyong4Ġ lai2Ġ
Ġai4 Ġde2Ġhua2Ġ
Ġan4Ġ zhao4Ġ
2 Ġgong1Ġli3Ġ
p ian2
Ġ lian2
Ġ xian3
Ġ 69
Ġ 1977Ġnian2Ġ
ĠĠĠ bi3Ġsai4Ġ
ĠĠĠ wu1Ġke4Ġlan2Ġ
li3 Ġzhi4Ġ
yin1 ĠdeĠ
neng2 ĠdeĠ
lv4 Ġdi4Ġ
rong2 Ġhuo4Ġ
tie3 Ġdao4
hen3 Ġgao1Ġ
52 Ġ
92 Ġnian2Ġ
shi2Ġ ji4Ġ
qu1Ġ yu4ĠdeĠ
jian1Ġ guan3Ġ
ming4Ġ yun4Ġ
gu4Ġ wen4
wa3Ġ sheng3Ġ
Ġnian2Ġ6Ġyue4Ġ 30Ġri4Ġ
geng1Ġ huan4Ġ
Ġxiang4 Ġshi4Ġ
z ang1
Ġ tuo1
Ġ yuan3
Ġ xiang2
ao4 Ġde2Ġ
mian4 Ġwei4Ġ
bi3 Ġsi1Ġ
bie2 Ġren2Ġ
bai3 Ġwan4
mou3 Ġge4Ġ
ed Ġ
Ġshi2Ġ er4Ġyue4Ġ
guan1Ġ qi
fa3Ġ an4
ye4Ġ ti3Ġ
ma3Ġ ding1Ġ
pai2Ġ chu2
Ġjie2Ġ gou4
Ġshi4Ġzhen4Ġ fan4Ġwei2Ġnei4Ġ
bu3Ġ ji3Ġ
ke1Ġxue2Ġ yuan4
Ġguan1Ġ zhong4Ġ
ĠP e
Ġcong2 Ġshi4Ġ
yun3Ġ keng1
re4Ġdai4Ġ di1Ġqi4Ġya1Ġ
zui4Ġhou4Ġ yi2Ġge4Ġ
ĠĠĠW orld
zi1Ġben3Ġ zhu3Ġyi4Ġ
6 Ġshi2Ġ
6 Ġgong1Ġli3Ġ
o ni
Ġ ju3
Ġ gui3
Ġ nai4
ĠĠĠ 2002
dui4 Ġzhi4Ġ
bian4 Ġhou4Ġ
di3 Ġbu4Ġ
kai3 Ġer3Ġ
ction Ġ
Ġyi1Ġ zhao4Ġ
sheng1Ġ yu4Ġ
Ġta1Ġ dan1Ġren4Ġ
nan2Ġ hai3Ġ
Ġquan2 Ġcheng2Ġ
liang4Ġ zi3
jing3Ġ wu4Ġ
Ġwen2Ġ wu4Ġ
wan2Ġ fa3Ġ
Ġbi3Ġ ru2
Ġshi4Ġzhong1Ġ xin1
Ġmei2Ġ ti3Ġ
suo1Ġ xie3Ġ
Ġ neng2
Ġ on
Ġ lei1
Ġ bing3
da4 Ġshi4Ġ
yu3 Ġshi2Ġ
ing ĠĠĠ
you3Ġ xian4Ġ
Ġyu2Ġ 189
Ġge4 Ġchu1Ġru4Ġkou3Ġ
ming2Ġ que4Ġ
Ġta1Ġ you4Ġ
fa3Ġ gui1Ġ
Ġshang4Ġ xia4Ġ
ba1Ġ ma3
ba1Ġ sai1Ġ
lei4Ġ bie2Ġ
Ġtong2Ġ shi2Ġzai4Ġ
zhuang1Ġ cun1Ġ
huan4Ġ zhe3
Ġshi4Ġshi4Ġ zhang3Ġ
Ġge2Ġ lei2Ġ
yĠĠĠ of
Ġte4Ġbie2 Ġshi4Ġzai4Ġ
zhan4Ġdou4 Ġzhong1Ġ
tai2Ġnan2 Ġshi4Ġ
ba1Ġle4 Ġsi1Ġtan3
B BC
Ġ hao3
Ġ yan1Ġ
xian4 Ġlu4Ġ
hui4 Ġcheng2Ġ
zhan4 Ġyu3Ġ
ye3 Ġzhan4Ġ
che1 Ġzai4Ġ
qing3 Ġqiu2
bang3 Ġdan1Ġ
zun1 Ġshou3Ġ
kui2 Ġbei3
Ġri4 Ġshi4Ġ
zuo4Ġ yong4
zhu3Ġ yi4Ġhe2Ġ
Ġbei4Ġ si1Ġ
dian4Ġ ci2Ġ
xuan3Ġ ba2
zu3Ġ shu1Ġji4Ġ
ci2Ġ xing4Ġ
xu1Ġ ni3
huo4Ġ wu4Ġ
bing1Ġ chuan1Ġ
Ġgao1Ġ su4Ġ
qin1Ġ wang2
xin4Ġ feng4
Ġshi3Ġ cheng1Ġ
pin2Ġ fan2Ġ
Ġyi1Ġsi1Ġ lan2
jiao4Ġke1Ġ wen2Ġ
Ġ ne
Ġ zao3Ġnian2Ġ
ĠĠĠ zhe4Ġxie1Ġ
duo1 Ġli4Ġ
ye4 Ġshi4Ġ
can1 Ġjun1Ġ
ta in
ph a
Ġgong1Ġ bu4
Ġyuan2Ġ sheng1Ġ
dui4Ġ hua4Ġ
guan1Ġ zhu4
Ġjun1Ġ qu1
Ġke4Ġ lin2Ġ
zhi3Ġ dao3
luo2Ġ fu1
hu4Ġ zhao4Ġ
gou4Ġ cheng2ĠdeĠ
wei3Ġ da4ĠdeĠ
Ġgao1Ġ du4Ġ
tui1Ġ dong4
Ġnian2Ġzai4Ġ wei4Ġ
ying3Ġxiang3 ĠleĠ
Ġguo2Ġmin2Ġ zheng4Ġfu3
Ġwei4Ġyu2Ġgai1Ġguo2Ġ dong1Ġnan2Ġbu4Ġ
ĠdeĠji1Ġchu3 Ġshang4Ġ
Ġba ck
mi4Ġxi1Ġxi1Ġ bi3
O C
Ġ 1960Ġnian2Ġ
gong1 Ġzai4Ġ
guan1 Ġjian4
mei3 Ġren2Ġ
wen2 Ġjian4
bo1 Ġxi1Ġ
han4 Ġren2Ġ
wang4 ĠdeĠ
1980 Ġnian2Ġdai4
ĠdeĠ gui3Ġdao4Ġ
Ġbu4Ġ xing2Ġ
li3Ġ you2Ġ
Ġxian4Ġ lu4
ben3Ġ shu1Ġ
ge2Ġ lai2Ġ
hua2Ġ xue3
jin4Ġ zhan3Ġ
quan2Ġ zhang3Ġ
ha1Ġ sa4Ġke4Ġsi1Ġ
lian4Ġ ai4Ġ
Ġfen1 Ġbu4Ġ
Ġling4Ġ yi2Ġge4Ġ
dong1Ġji4Ġ ao4Ġlin2Ġpi3Ġke4Ġyun4Ġdong4Ġhui4Ġ
yin3Ġqi3 ĠleĠ
ping2Ġlun4 Ġjia1Ġ
2019Ġguan1Ġzhuang4Ġbing4Ġdu2 Ġbing4
c ou4
Ġ dong3
ĠĠĠ suo3Ġ
ĠĠĠ mi3Ġ
li3 Ġji2Ġ
suo3 Ġzhi4Ġ
tai2 Ġshi4Ġ
tai2 Ġhe2Ġ
ze2 Ġren4Ġwei2Ġ
ni2 Ġji1Ġ
jiang3 Ġzuo4Ġ
fei4 Ġcheng2Ġ
di3 ĠdeĠ
sai1 Ġer3
ct or
ly ĠĠĠ
col orĠ
Ġshi2Ġ jia1Ġ
Ġzhi4Ġ shi3Ġ
Ġgong1Ġ yu4Ġ
Ġzhou1 Ġzhi1Ġ
xiang1Ġ tong2
shou3Ġ ying4Ġ
Ġke4Ġ hu4Ġ
Ġhao4 Ġhe2Ġ
luo4Ġ yang2Ġ
jia3Ġ ban3Ġ
geng4Ġ gao1ĠdeĠ
Ġxian4ĠdeĠ cheng2Ġshi4Ġ
xue4Ġ guan3Ġ
meng4Ġ xiang3Ġ
zi1Ġge2Ġ sai4Ġ
Ġzai4Ġzhe4Ġ ge
Ġdong1 Ġri4Ġben3Ġ
lan2Ġqiu2Ġ yun4Ġdong4Ġyuan2Ġ
Ġkong3Ġ tai4
C P
Ġ neng2Ġgou4Ġ
jin4 Ġqiu2Ġ
jing1 Ġcheng2Ġ
hua4 Ġji4Ġ
kai1 Ġguo2Ġ
sai4 Ġshang4Ġ
ti3 Ġwei4Ġ
lie4 Ġdi4Ġ
bai2 Ġgong1Ġ
liao4 Ġli3Ġ
xie4 Ġren4Ġ
chun1 Ġjie2Ġ
Ġbu4Ġ fu4Ġbu4Ġzhang3Ġ
gong1Ġ zuo4
dui4Ġ kang4
Ġqi2Ġ xia4
an4Ġ cha2Ġsi1Ġ
cai2Ġ zheng4Ġbu4Ġ
yin3Ġ ru4
Ġping2Ġfang1Ġ ying1Ġli3Ġ
jie2Ġshu4 Ġshi2Ġ
Ġyi4Ġzhi2 Ġshi4Ġ
Ġniu3Ġyue1 Ġshi2Ġbao4Ġ
ĠĠĠst yleĠ
w a
Ġ huo3
Ġ 1938
Ġ yong1Ġ
Ġ zao3Ġqi1Ġ
Ġ pei4Ġhe2Ġ
ĠĠĠ she4Ġ
ĠĠĠ dang1Ġshi2Ġ
shou3 Ġge4
wei3 Ġren4Ġ
lv4 Ġhe2Ġ
xian1 Ġshi4Ġ
wei2Ġ qi1Ġ
wu3Ġ shu4Ġ
Ġju4Ġ jue2
shu1Ġ fa3Ġ
yue1Ġ han4
yan3Ġ xi2Ġ
gai3Ġ zhuang1Ġ
ying4Ġ bi4Ġ
da3Ġ bai4Ġ
han2Ġ shu4
Ġluo2Ġ ma3
ya1Ġ suo1Ġ
Ġxing2Ġzheng4Ġ qu1Ġhua4Ġ
Ġzui4Ġzhong1Ġ yu2Ġ
Ġhua4Ġ xue2Ġ
ya3Ġ dian3Ġ
diao1Ġ su4
Ġ guan4Ġ
Ġ ming4Ġming2Ġ
ĠĠĠ fei1Ġ
ti ao1Ġ
shu4 Ġnian2Ġ
wang2 Ġgong1Ġ
Mi crosof
zhi4Ġ shao3Ġ
si1Ġ xiang3
Ġyi1Ġ duan4
Ġer2 Ġyu3Ġ
Ġshe4 Ġshi4Ġ
qian2Ġ fang1Ġ
Ġzhan4Ġ sheng4Ġ
zui4Ġ zhang3ĠdeĠ
mi4Ġ xie1Ġgen1
guan3Ġli3Ġ ju2
ĠĠĠS er
shu3ĠdeĠ dong4Ġwu4Ġ
qing4Ġ zhu4
wu1Ġke4Ġlan2 ĠdeĠ
Ġmin2Ġ jin4Ġ
Ġzhi4Ġzao4Ġ shang1Ġ
da1Ġ dang4Ġ
a1Ġgen1Ġ ting2
4 Ġgong1Ġli3Ġ
Ġ chuang4Ġzuo4Ġ
hou4 Ġbu4Ġ
zhu3 Ġji1Ġ
zu3 Ġjian4
ba1 Ġge4Ġ
sheng4 Ġxia4Ġ
yan4 Ġshi4Ġ
wang4 Ġsi1Ġ
xiong1 Ġzhang3Ġ
Ġbu4Ġ lei2Ġ
Ġhou4Ġ xu4Ġ
shou3Ġ ge1Ġqu3Ġ
ba1Ġ xi1
Ġguo2Ġjia1Ġ an1Ġquan2Ġ
Ġna4Ġ meĠ
ĠÃ ¡Ġ
bang1Ġzhu4Ġ xia4Ġ
xue2Ġxiao4 ĠdeĠ
- .
Ġ ji2
e2 ĠdeĠ
chu1 Ġxian4
sheng1 Ġshi2Ġ
jing4 Ġwei4Ġ
gou4 Ġjian4Ġ
wei1 Ġer3Ġshi4Ġ
cui1 Ġhua4Ġ
kun4 Ġnan2
di4Ġ shi2Ġ
yi1Ġ yang4Ġ
Ġyou3Ġ duo1Ġ
shou3Ġ xi2
jia4Ġ zhi2
jiang3Ġ zhang1Ġ
zi3Ġ mei4Ġ
zheng4Ġzhi4Ġ xie2Ġshang1Ġhui4Ġyi4Ġ
she4Ġ hui4ĠdeĠ
zhuan1Ġ an4Ġ
Ġjing1Ġ ying2Ġ
bu3Ġ chong1
xing2Ġzheng4Ġ qu1Ġ
Ġjue2Ġ ding4
cang1Ġ ku4Ġ
lei3Ġ da3Ġ
jie2Ġmu4 Ġzhong1Ġ
m ang3
p ri
z ou1Ġ
Ġ xu1
Ġ ke3Ġyi3
ĠĠĠ 2001
ĠĠĠ de2Ġ
ao4 Ġzhou1
ai2 Ġzheng4Ġ
qu1 Ġyu2Ġ
cai2 Ġfu4Ġ
wa3 Ġsi1Ġ
man3 Ġzhou1Ġ
qiang1 ĠdeĠ
mai3 Ġjia1Ġ
ĠdeĠ cheng2Ġshi4Ġ
Ġshi4Ġ qian2Ġ
Ġbu4Ġ luo2Ġ
Ġzhi4Ġ xu4Ġ
Ġyou3Ġ zheĠ
Ġli4Ġ xi1Ġ
Ġgong1Ġ yue1Ġ
hou4Ġ bei4Ġ
Ġdui4Ġ zhang3Ġ
Ġren4Ġ jiao4Ġ
yi2Ġ lan2
wu2Ġ xu1Ġ
gong4Ġ xiang3Ġ
ying3Ġxiang3Ġ li4ĠdeĠ
liu2Ġxing2Ġ yin1Ġyue4Ġ
wo1Ġ lun2Ġ
Ġli2 Ġmi3Ġ
Ġli4Ġtao2Ġ wan3
Ġ Fi
Ġ pang2Ġ
Ġ chuang4Ġli4Ġ
Ġ biao1Ġzhi4Ġ
yu n1
er e
yi1 Ġhe2Ġ
you3 Ġwei4Ġ
si1 Ġwei4Ġ
shi3 Ġta1Ġ
zhan4 Ġjian4Ġ
dai4 Ġzai4Ġ
fu4 Ġli3Ġ
jiang1 Ġqi2
dan1 Ġshi4Ġ
wu2 Ġshi4Ġ
zan4 Ġwu2Ġ
lan4 Ġ
Ġzai4Ġ du4
yi1Ġ ji2Ġ
Ġren2Ġ qun2Ġ
Ġji2Ġ xing4Ġ
Ġli4Ġ xian4Ġ
Ġyi1Ġ jiao3Ġ
li3Ġ si1Ġ
Ġyu3Ġ duo1Ġ
Ġbei4Ġ ge2Ġ
hua4Ġ ti2Ġ
la1Ġ ding1Ġ
ke1Ġ te4Ġ
gu3Ġ ge2Ġ
Ġquan2Ġ ti3Ġ
xu1Ġ ni3Ġ
Ġtong2Ġ meng2
du2Ġ xing4Ġ
shuang1Ġ fang1
wa3Ġ la1Ġ
li2Ġkai1Ġ leĠ
wai4Ġguo2Ġ ren2Ġ
gai3Ġbian1 Ġwei4Ġ
qiang3Ġ po4Ġ
Ġ fa1Ġzhan3
Ġ cui1Ġ
zhu4 Ġshe4Ġ
tai4 Ġhe2Ġ
tang2 Ġdai4Ġ
Ġri4 Ġji2Ġ
Ġyuan2Ġ xian1Ġ
Ġri4Ġ ji4Ġ
Ġxi1Ġ fang1
shu4Ġ xue2Ġjia1Ġ
lu4Ġ duan4
jin1Ġ gang1Ġ
feng1Ġ bi4Ġ
yi2Ġ bu4ĠdeĠ
ba1Ġ he4
ao4Ġ fu2Ġ
gou4Ġ ru4Ġ
jie3Ġ mei4Ġ
qian1Ġ mi3
tuo1Ġ li2
Ġtian1Ġ zhu3Ġjiao4Ġ
Ġshi4Ġdi4Ġ er4Ġ
Ġchu2Ġ le
ĠdeĠda4Ġ xing2Ġ
fan2Ġ rong2Ġ
Ġshi4Ġwei4Ġyu2Ġmei3Ġguo2Ġ mi4Ġsu1Ġli3Ġ
yi4Ġshi2Ġ dao4
tian1Ġjin1 Ġshi4Ġ
1 12
5 Ġping2Ġfang1Ġgong1Ġli3Ġ
6 Ġping2Ġfang1Ġgong1Ġli3Ġ
Ġ shan3
Ġ 1970
Ġ 1941
Ġ Ne
Ġ you3ĠdeĠ
Ġ qing1Ġnian2Ġ
ĠĠĠ zhi3Ġ
zheng4 Ġren2Ġ
shu4 Ġli4Ġ
ma3 Ġde2Ġ
gai1 Ġshi4Ġ
hua2 Ġyi4Ġ
bai4 Ġhou4Ġ
os Ġ
ĠdeĠ ge1Ġqu3Ġ
ming2Ġ yu4Ġ
dui4Ġ bi3Ġ
ge2Ġ lei1
Ġshang4Ġ su4Ġ
nei4Ġ zheng4Ġbu4Ġ
ya4Ġ ma3Ġ
Ġzhu4Ġ ce4Ġ
shu3Ġ wu4Ġzhong3Ġ
shang1Ġ hai4
xi2Ġ guan4
Ġjin1Ġ tian1Ġ
Ġnian2Ġ3Ġyue4Ġ 1Ġri4Ġ
deng1Ġ chang2
leĠyi1Ġ zuo4Ġ
kai1Ġshi3 ĠdeĠ
pao4Ġ bing1Ġ
ĠÃ Ń
chuan2Ġtong3 Ġshang4Ġ
can1Ġsai4Ġ zhe3Ġ
jie4Ġquan2Ġguo2Ġ ren2Ġda4Ġdai4Ġbiao3Ġ
Ġxiao3 Ġping2Ġ
mu4Ġbiao1 Ġshi4Ġ
fei1Ġli4Ġ pu3Ġ
I A
w ard
Ġ fang4Ġ
Ġ sai4Ġshi4Ġ
ĠĠĠ yi3
ĠĠĠ colspanĠ
ao4 Ġbu4Ġ
jian4 Ġguo2Ġ
xing1 Ġren2Ġ
xian1 Ġzai4Ġ
chao1 Ġshi4Ġ
shuang1 Ġxiang4Ġ
pao4 Ġji1Ġ
Ġgong1Ġ wu4Ġyuan2Ġ
Ġcheng2Ġ nuo4
Ġdao4 Ġwei4Ġ
Ġyuan2Ġ yi4Ġ
Ġchu1 Ġwei4Ġ
Ġli3Ġ ya4
lai2Ġ shuo1
san1Ġ fen1Ġzhi1Ġ
ni2Ġ ao4Ġ
ban4Ġ chang3Ġ
yan2Ġjiu1 Ġzhong1Ġ
tiao2Ġ yue1
jun1Ġ dui4
hua2Ġren2Ġmin2Ġ gong4Ġhe2Ġ
Ġzhong1Ġyang1Ġ wei3Ġyuan2Ġhui4Ġ
Ġgai3Ġ bian1
yi4Ġshi2Ġ dao4Ġ
ying4Ġyong4Ġ cheng2Ġshi4Ġ
ĠdeĠguan1Ġ dian3Ġ
Ġ So
Ġ gao1Ġzhong1Ġ
qian2 Ġli4Ġ
duo1 Ġyu2Ġ
deng3 Ġshi4Ġ
lin2 Ġhe2Ġ
se4 Ġhe2Ġ
kuan1 Ġdu4Ġ
Ġbu4Ġ dui4ĠdeĠ
Ġdi4Ġ 3
Ġyi4Ġ miao2Ġ
zheng4Ġ jiao4Ġ
Ġhou4Ġ you4Ġ
Ġer3 Ġjia1Ġ
yu4Ġ suan4
jing1Ġ ling2Ġ
Ġsheng1Ġ yin1Ġ
shan1Ġ lu4Ġ
lie4Ġ ning2Ġ
xiao4Ġ xiang4Ġ
bian1Ġ jiang1Ġ
dang3Ġ wei3Ġshu1Ġji4Ġ
kong1Ġ xi2
hen3Ġ shao3
ĠĠĠzhong1Ġ hua2Ġmin2Ġguo2Ġ
Ġyi3Ġjing1 Ġbei4Ġ
juan1Ġ zeng4
Ġxin1Ġjia1Ġ po1Ġ
Ġdi4Ġzhong1Ġ hai3Ġ
Ġfu2Ġlang3Ġ shen2Ġ
ka3Ġsi1Ġdi4Ġli4Ġ ya4Ġ
9 00
c c
ï ¹
Ġ yao2
Ġ 1974Ġnian2Ġ
an1 Ġda4Ġ
ĠĠĠ Be
ĠĠĠ shou3Ġ
jie2 Ġri4Ġ
hua2 Ġnan2Ġ
yang2 Ġren2Ġ
bu3 Ġshi2Ġ
In ter
Ġdi4Ġ 5Ġ
Ġzhi4Ġ da4Ġ
yuan2Ġ wai4Ġlang2Ġ
Ġguo2Ġ hui4Ġyi4Ġyuan2Ġ
Ġde2 Ġchu1Ġ
dai4Ġ ling3Ġ
Ġjun1Ġ xian2Ġ
dian4Ġ zhan4Ġ
fen1Ġ wei2
yi2Ġ dao3Ġ
zong3Ġ zhang3Ġ
Ġlu4Ġ xu4Ġ
tong2Ġ pai2Ġ
ĠdeĠyi1Ġ zuo4
ju1Ġ zhu4
Ġyin1Ġwei4Ġ zai4Ġ
gai4Ġ yao4Ġ
Ġnian2Ġ8Ġyue4Ġ 1Ġri4Ġ
ĠdeĠhe2Ġ xin1Ġ
ao4Ġlin2Ġpi3Ġke4Ġ yun4Ġdong4Ġ
sa4Ġzhu1Ġ sai1
Ġback groundĠ
i e
t ri
Ġ u
Ġ gan4
Ġ 1987
Ġ Pro
dui4 Ġzhong1Ġguo2Ġ
ju4 Ġshi4Ġ
tai2 Ġhou4Ġ
qi4 Ġshi4Ġ
feng1 Ġli4Ġ
la r
Ġzai4Ġ xiang1Ġgang3
bu4Ġ dui4Ġ
Ġdi4Ġ zhi3Ġ
Ġdao4Ġ qian4Ġ
Ġjia1Ġ zhou1
Ġta1Ġ kai1Ġshi3Ġ
zhi2Ġ jiao4Ġ
zhi2Ġ tong1Ġ
dong1Ġ feng1Ġ
ding4Ġ ju1
Ġzhi3Ġ hui1Ġ
dai4Ġbiao3 Ġda4Ġ
Ġzai4Ġyi1Ġ ci4Ġ
Ġbo1 Ġsi1Ġ
Ġzai4Ġjia1Ġ shang4Ġ
che1Ġren2Ġ ci4Ġ
2 Ġping2Ġfang1Ġgong1Ġli3Ġ
b eng4
Ġ kong3
Ġ Bo
Ġ duan3Ġ
Ġ lin2Ġshi2Ġ
Ġ za2Ġ
Ġ duo2ĠdeĠ
ĠĠĠ zhu3Ġ
ĠĠĠ ceng2Ġ
ti Ġ
zhan4 Ġxian4Ġ
kai1 ĠdeĠ
tong1 ĠdeĠ
ru2 Ġtong2Ġ
gai3 Ġyou2Ġ
tou2 Ġyu2Ġ
pai2 ĠdeĠ
jia4 Ġwei4Ġ
shi2Ġ qi1ĠdeĠ
Ġbu4Ġ lun2Ġ
shou3Ġ qiang1Ġ
fen1Ġ kai1Ġ
Ġzuo4Ġ yong4
zui4Ġ xiao3Ġ
Ġlu4Ġ kou3Ġ
tu2Ġ sha1
Ġxiang4Ġ mu4
Ġqi2Ġzhong1Ġ yi2Ġge4Ġ
Ġshi4Ġji4Ġ mo4Ġ
hui1Ġ se4Ġ
ĠdeĠshi2Ġ dai4Ġ
ĠĠĠA Ġ
Ġma3 Ġsi1Ġ
zhui1Ġ sui2Ġ
Ġren4Ġwei2 Ġshi4Ġ
Ġji1Ġbai4 ĠleĠ
xin1Ġcheng2Ġ li4ĠdeĠ
Ġfei1Ġlv4Ġ bin1Ġ
0 Ġren2Ġ
8 Ġming2Ġ
Ġ chan3Ġ
Ġ yun4Ġdong4Ġ
Ġ cao3Ġ
quan2 Ġyi4Ġ
hai3 Ġzhan4Ġ
er4 Ġhao4Ġ
shen1 Ġke4Ġ
gang3 ĠdeĠ
jie3 Ġxi1Ġ
pi1 Ġquan2Ġguo2Ġzhong4Ġdian3Ġwen2Ġwu4Ġbao3Ġhu4Ġdan1Ġwei4Ġ
dun1 ĠdeĠ
Ġzhi4Ġ suo3Ġzai4Ġ
Ġri4 ĠĠĠ
Ġda4Ġ ting1Ġ
guan1Ġ zhi2Ġ
Ġke4Ġ lei2Ġ
Ġren4Ġ nei4Ġ
bi4Ġ hua4Ġ
nv3Ġ xing4ĠdeĠ
sha1Ġ te4Ġ
can1Ġ ting1
Ġnian2Ġ9Ġyue4Ġ 1Ġri4Ġ
ĠdeĠzuo4Ġ pin3
Ġqiang2Ġ diao4Ġ
qi3Ġye4 Ġjia1Ġ
Ġkong3Ġtai4 Ġda4Ġqu1Ġ
ĠĠĠ 187
mi c
mi n
wen2 Ġhe2Ġ
fu2 Ġsi1Ġ
mian4 Ġyou3Ġ
jiu4 ĠdeĠ
su4 Ġwei4Ġ
bo2 ĠdeĠ
ci2 Ġyu3Ġ
di1 Ġdi4Ġ
yang3 Ġhe2Ġ
pao4 ĠdeĠ
il Ġ
one Ġ
Ġbu4Ġ lei2
Ġyi1Ġ dai4
Ġji4Ġ jie2Ġ
Ġchu1 Ġshi4Ġ
zhu4Ġ ru4Ġ
bo2Ġ lan3
ban4Ġ jing4Ġ
Ġye3Ġ ke3Ġ
qin1Ġ lve4Ġ
wai4Ġjiao1Ġ guan1Ġxi4Ġ
guo4Ġqu4 ĠdeĠ
3 Ġping2Ġfang1Ġgong1Ġli3Ġ
Ġ 1984
Ġ pi1Ġping2Ġ
fu4 Ġzai4Ġ
suo3 Ġzhi1Ġ
lian2 Ġsi1Ġji1Ġ
sai4 Ġhe2Ġ
shan1 Ġshang4Ġ
chuan2 Ġcheng2Ġ
Ġwei4Ġ fu4Ġ
yuan2Ġ su4Ġ
Ġyi1Ġ kao4
Ġxi1Ġ yu3Ġ
ren4Ġ nei4Ġ
ping2Ġ jie4Ġ
nan2Ġ yan3Ġyuan2Ġ
Ġyin1 Ġzai4Ġ
fu2Ġ lu3Ġ
yao4Ġ sai4Ġ
yan2Ġjiu1 Ġshi4Ġ
yi3Ġ lai2
xiao1Ġ mie4
xie2Ġ hui4ĠdeĠ
tao2Ġ li2Ġ
ĠdeĠren2Ġ kou3Ġwei4Ġ
yin4Ġdu4Ġ jiao4Ġ
jue2Ġse4Ġ ban4Ġyan3
Ġji4Ġhua4 Ġzai4Ġ
8 Ġping2Ġfang1Ġgong1Ġli3Ġ
m b
t ra
Ġ 1979
Ġ lou2Ġ
Ġ ding3Ġ
Ġ mian4Ġdui4Ġ
ĠĠĠ hui4Ġ
ĠĠĠ ru2Ġguo3Ġ
jiang1 ĠdeĠ
zhang3 Ġshi2Ġjian1Ġ
chu4 Ġzai4Ġ
pei4 Ġsi1Ġ
89 Ġnian2Ġ
Ġnian2 Ġshi4Ġjie4
Ġdi4Ġ di
Ġji2Ġ jie2Ġ
Ġge4 Ġshi4Ġ
Ġjun1 Ġjian4Ġ
zhe4Ġ zuo4Ġ
lian2Ġ xi4
shan1Ġ kou3Ġ
dan1Ġ dang1Ġ
bian4Ġ hua4ĠdeĠ
jian3Ġ yan4Ġ
sheng4Ġ dian4Ġ
jie3Ġ p
ĠdeĠshi4Ġ wu4Ġ
Ġsui4 Ġdao4Ġ
Ġbi3Ġ jiao4Ġ
jun4Ġ wang2Ġ
wan2Ġcheng2Ġ hou4Ġ
sun1Ġ ziĠ
Ġwai4Ġ jiao1
Ġren4 Ġzhong1Ġgong4Ġ
p u
Ġ ru3
Ġ 78
Ġ ju2Ġ
Ġ cun2Ġzai4Ġ
Ġ 24Ġ
ĠĠĠ quan2
ĠĠĠ te4Ġ
ĠĠĠ hai3Ġ
ĠĠĠ gui3Ġdao4Ġ
ĠĠĠ 1999Ġnian2Ġ
li4 Ġnian2Ġ
qi2 Ġxia4Ġ
mei3 Ġshi2Ġ
fen1 Ġhui4Ġ
wu3 Ġri4Ġ
gu3 Ġji2Ġ
wei1 Ġsi1Ġ
ling2 Ġshi2Ġ
wen1 Ġhe2Ġ
che4 Ġchu1Ġ
62 Ġ
Ġzhong1Ġ wu3Ġ
Ġyue4Ġ kan1Ġ
ji4Ġ yi4Ġ
zheng4Ġ wei3Ġ
fa3Ġ ting2
fen1Ġ xi1
liu2Ġ chuan2
bao4Ġ dao3
Ġhao4 Ġshi4Ġ
bian4Ġ huan4
jian4Ġ kang1
zhong1ĠdeĠ yi2Ġge4Ġ
wu1Ġ ding3Ġ
dai4Ġbiao3Ġ tuan2
xuan2Ġ lv4Ġ
Ġguo2Ġmin2Ġ ge2Ġming4
Ġtang2Ġ chao2Ġ
Ġqi2Ġta1 Ġren2Ġ
xiang4Ġmu4 ĠdeĠ
jiao1Ġliu2 Ġdao4Ġ
j a
Ġ fa1Ġzhan3Ġ
li3 Ġwei4Ġ
sai4 Ġhui4Ġ
wu3 Ġji2Ġ
luo2 Ġyi1Ġ
67 Ġ
MV Ġ
Ġzai4Ġ ju4Ġ
Ġyu2Ġ 2007
Ġxian4 Ġxing2Ġ
Ġda4Ġ xiao3
Ġyi3Ġ ci3
Ġchu1Ġ shi3Ġ
bao3Ġ an1
chuan2Ġ fo2Ġjiao4Ġ
ti2Ġ jiao1
gang3Ġ kou3
yan2Ġjiu1 Ġren2Ġyuan2Ġ
Ġye3Ġ cheng1Ġwei2Ġ
lian4Ġ jie1Ġ
Ġluo2Ġ ne4Ġ
zhang4Ġ ai4
Ġpu3Ġ tong1Ġ
Ġao4 Ġzhou1Ġ
sun3Ġ shang1Ġ
Ġwei4Ġyu2Ġgai1Ġguo2Ġ zhong1Ġbu4Ġ
Ġxi1Ġla4 Ġ
zui4Ġhou4Ġyi1Ġ ci4Ġ
yin4Ġdi4Ġ an1Ġren2Ġ
chong2Ġqing4 Ġshi4Ġ
Ġzhi1Ġjia1Ġ ge1Ġ
R NA
Ġ bu2Ġhui4Ġ
qu1 Ġzai4Ġ
zhan4 Ġji1Ġ
fa3 Ġli4Ġ
shou3 Ġzhi1Ġ
mu4 Ġji1Ġ
bei3 Ġwei4Ġ
ge1 Ġsi1Ġ
zhuan3 Ġren4Ġ
bang1 ĠdeĠ
Ġshi4Ġ tai2Ġwan1
Ġwei4Ġ ri4Ġben3Ġ
Ġyi1Ġ shu1Ġ
ji1Ġ hu1Ġ
zuo4Ġ biao1Ġ
Ġer2Ġ si3Ġ
Ġbing4Ġ zhi3Ġyu2Ġ
ti3Ġ cao1Ġ
gai3Ġ liang2Ġ
cai2Ġ pan4
Ġcheng2Ġwei2Ġ yi2Ġge4Ġ
yin1Ġ mou2Ġ
ĠĠĠdi4Ġ ming2Ġ
Ġnian2Ġ6Ġyue4Ġ 1Ġri4Ġ
Ġzhi2Ġ ye4Ġ
dan4Ġ yao4Ġ
zao4Ġcheng2Ġ leĠ
wen1Ġ nuan3
ĠĠĠF or
Ġping2 Ġjun1
Ġqi3 Ġchu1Ġ
tai2Ġfeng1Ġ jing3Ġbao4
7 Ġming2Ġ
H E
Ġ heng1
Ġ 1978
Ġ 140
Ġ ya4Ġli4Ġshan1Ġda4Ġ
ming2 Ġyu3Ġ
qu1 Ġzhi1Ġyi1Ġ
shu4 Ġzhi1Ġ
fan3 Ġfu4Ġ
pai4 Ġchu1
re4 Ġhe2Ġ
tui4 Ġchu1
zhao1 Ġmu4Ġ
1990 Ġnian2Ġdai4
1950 Ġnian2Ġdai4Ġ
chou3 Ġke1Ġ
Ġyu2Ġ 188
zhan4Ġ ting1Ġ
nan2Ġ ce4Ġ
Ġbei4Ġ sha1Ġ
bi4Ġ ye4
bi4Ġ yao4
zi1Ġ ge2
ĠdeĠdi4Ġ xia4Ġ
chu3Ġ si3Ġ
ĠĠĠS cho
ĠĠĠP ar
Ġnei4Ġ rong2
tong1Ġguo4 ĠdeĠ
jiao1Ġtong1 Ġbu4Ġ
ĠV Ġ
dong4Ġli4Ġ xue2Ġ
Ġrui4Ġ dian3Ġ
bo1Ġshi4Ġ dun4Ġ
gan3Ġlan3 Ġqiu2Ġ
G D
O P
Ġ ban4
Ġ 1971Ġnian2Ġ
Ġ 1936Ġnian2Ġ
Ġ 1940Ġnian2Ġ
Ġ 1927Ġnian2Ġ
ao4 Ġke4Ġxi1Ġta3Ġni2Ġda4Ġqu1Ġ
er3 Ġsi1Ġ
san1 Ġhe2Ġ
shan1 Ġji2Ġ
zhe3 Ġzhi1Ġyi1Ġ
fang4 ĠdeĠ
64 Ġ
Ġzai4Ġ gao1Ġ
Ġhe2Ġ si1Ġ
Ġhe2Ġ yi3Ġ
Ġzhong1Ġ chang3Ġ
Ġshi2Ġ bu4Ġ
Ġyi4Ġ ri4Ġ
Ġyu3Ġ yin1Ġ
jian1Ġ jin4Ġ
Ġbing4Ġ dan1Ġren4Ġ
Ġqi2Ġ jian1Ġ
Ġjin4 Ġcheng2Ġ
Ġzhan4Ġ chang3Ġ
Ġping2Ġ gu1Ġ
jie1Ġ ceng2Ġ
fu2Ġ la1Ġ
ci3Ġ qian2Ġ
zhen4Ġ ya1
lin2Ġ qu1Ġ
mei2Ġ you3Ġzai4Ġ
Ġgai1Ġ dang3
fan4Ġ chou2Ġ
gu4Ġ zhang4Ġ
chong2Ġ bai4Ġ
Ġbo1Ġ lan2
cha1Ġ bie2Ġ
sun3Ġ hai4Ġ
Ġshi4Ġyi4Ġ yuan2Ġ
gai3Ġbian1 Ġzi4Ġ
you3Ġbu4Ġ shao3Ġ
ub li
S te
n cludeĠ
Ġ 2025Ġnian2Ġ
Ġ 1934Ġnian2Ġ
ĠĠĠ and
di a
hou4 Ġren2Ġ
zong3 Ġren2Ġkou3ĠdeĠ
cai2 Ġshi4Ġ
nu3 Ġer3Ġ
Ġshi2Ġ wu3Ġ
yi4Ġ jian4Ġ
Ġdan4 Ġdao4Ġ
ting2Ġ liu2Ġ
ĠdeĠyi1Ġ yuan2Ġ
kong1Ġ jian1ĠdeĠ
zhen1Ġ zhu1Ġ
ĠdeĠshi2Ġ wu4Ġ
song4Ġ wang3Ġ
Ġnv3Ġ xing4Ġwei4Ġ
ĠdeĠji4Ġ zai3Ġ
xia4Ġji4Ġ ao4Ġyun4Ġhui4Ġ
zhan4Ġzheng1 ĠdeĠ
huan2Ġjing4 Ġzhong1Ġ
ĠÑ Ģ
gao1Ġdeng3 Ġxue2Ġxiao4Ġ
fu2Ġlei2 Ġde2Ġ
lyi ncludeĠ
Ġon lyincludeĠ
N G
Ġ huo2Ġ
ji1 Ġwei4Ġ
bei4 Ġli4Ġ
wan4 Ġyuan2Ġ
50 Ġmi3Ġ
han3 Ġjian4Ġ
Ġshi4Ġ ji4
Ġzai4Ġ 17
Ġhe2Ġ hou4Ġ
ji4Ġ zai3
ji1Ġ xie4Ġ
Ġzhi1 Ġren2Ġ
Ġge4 Ġji2Ġ
Ġzhou1 Ġzhi4Ġ
fa1Ġ dian4Ġji1Ġ
ye4Ġ zhe3Ġ
Ġtong2 Ġzhi1Ġ
ru4Ġ xue2Ġ
chang2Ġ chun1
qing1Ġ chu3
han2Ġ min2Ġguo2Ġ
wei3Ġyuan2Ġhui4Ġ zhu3Ġren4Ġ
chong1Ġ man3
Ġying1Ġ cun4Ġ
Ġqing1Ġ chao2
ning2Ġ bo1Ġ
e4Ġ lie4Ġ
Ġyi4Ġzhi2 Ġdao4Ġ
Ġha1Ġer3Ġ bin1Ġshi4Ġ
tan4Ġxian3 Ġdui4Ġ
+ +
0 Ġbi3Ġ
7 Ġping2Ġfang1Ġgong1Ġli3Ġ
Ġ juan3
Ġ 1933Ġnian2Ġ
yu4 Ġming2Ġ
zhi2 Ġxian4Ġ
ya4 Ġer3Ġ
che1 Ġshang4Ġ
qing1 Ġli3Ġ
tu2 Ġshang4Ġ
ku4 Ġsi1Ġ
ow Ġ
Ġshi2Ġ liu4
Ġfu4Ġ za2Ġ
zui4Ġ da4
an1Ġ da3Ġ
zong3Ġ jie2Ġ
Ġsuo3Ġ shu3ĠdeĠ
Ġshu4Ġ zi4Ġ
rui4Ġ shi4ĠdeĠ
Ġ17 0
mou3Ġ zhong3Ġ
Ġer3Ġsi1Ġ ke4Ġ
Ġde2Ġli3Ġ ke4Ġ
Ġchu1Ġban3 ĠleĠ
Ġxin1Ġzeng1Ġ jing4Ġwai4Ġshu1Ġru4Ġ
min2Ġjin4Ġ dang3Ġ
Ġcom Ġ
I ON
T wit
ĠĠĠ 20
ĠĠĠ Ga
er4 Ġge4Ġ
tian1 Ġdi4Ġ
you4 Ġyou3Ġ
mo2 Ġer3Ġ
ji3 Ġwei4Ġ
âĢ ¢
gan3 Ġjun1Ġ
te sĠ
sang4 Ġ
yi4Ġ zhi2Ġ
Ġyou3Ġ gong1Ġ
zhe4Ġ xiang4Ġ
dong1Ġ hai3Ġ
tian1Ġ qiao2Ġ
Ġzhe4Ġ lei4Ġ
tai4Ġ lei1Ġ
na4Ġ ru4
bo1Ġ luo2Ġ
zheng1Ġ yi4ĠdeĠ
wei1Ġ ruan3
shuo1Ġ fu2Ġ
xiao1Ġ liang4
Ġgen1Ġju4Ġ 2010Ġnian2Ġmei3Ġguo2Ġren2Ġkou3Ġpu3Ġcha2Ġ
Ġgong1Ġsi1 Ġhe2Ġ
Ġwei4Ġyu2Ġgai1Ġguo2Ġ nan2Ġbu4Ġ
Ġshi4Ġjian4 Ġzhong1Ġ
sang1Ġ na4
su1Ġlian2 ĠdeĠ
xiu1Ġzheng4Ġ an4Ġ
na2Ġpo4Ġ lun2
Ġ tong1
Ġ ST
Ġ Fa
Ġ zhan1Ġmu3Ġsi1Ġ
Ġ 1973Ġnian2Ġ
ĠĠĠ Lo
ĠĠĠ an4Ġ
ren4 Ġhou4Ġ
guan1 Ġyu3Ġ
fen1 Ġzhi4Ġ
ke3 Ġgong1Ġ
liu2 Ġqiu2
shu3 ĠdeĠyi1Ġzhong3Ġ
gai3 Ġcheng2Ġ
kuo4 Ġjian4
mo2 Ġsi1Ġ
cai2 Ġbei4Ġ
geng1 Ġdi4Ġ
ni3 ĠdeĠ
Ġshi4Ġ ying4Ġ
Ġyi4Ġ ke3Ġ
Ġyi3Ġ wai4
dui4Ġ ci3Ġ
Ġxi1Ġ bu4ĠdeĠ
xiang1Ġ cun1Ġ
zhu4Ġ yi4ĠdeĠshi4Ġ
zhi2Ġ neng2Ġ
Ġhuo4 Ġqi2Ġta1Ġ
wang2Ġ zi3
fu3Ġ bai4Ġ
Ġduo1Ġ ci4
zhuan1Ġ yong4
Ġhe2Ġguo2Ġ ji4Ġ
pai4Ġ xi4Ġ
bing4Ġ fei1Ġ
xuan1Ġbu4Ġ jiang1Ġ
leĠyi1Ġ chang2Ġ
Ġyin1Ġyue4Ġ hui4Ġ
pin2Ġ lv4
Ġãģ Ħ
shui4Ġ mian2
Ġ2011 Ġnian2Ġ12Ġyue4Ġ31Ġri4Ġ
chai1Ġ chu2
tong2Ġxing4Ġ lian4Ġ
zhuang1Ġwei4Ġ lin2Ġ
Ġ 1940
Ġ 1944
Ġ yuan2Ġshi4Ġ
you3 Ġzhong1Ġ
ai1 Ġde2Ġ
yu3 Ġgong1Ġ
nan2 Ġda4Ġxue2Ġ
ban1 Ġji1Ġ
nuo4 Ġke4Ġ
95 Ġnian2Ġ
li4Ġ chang3Ġ
ji1Ġ xie4
Ġjian4 Ġzhi1Ġ
Ġbei4Ġ yu4Ġwei2Ġ
Ġer3Ġ ba1Ġ
zhi2Ġ quan2Ġ
zhang3Ġ zhou2
qi3Ġ fei1Ġ
mi3Ġ ya4
Ġzhong1Ġguo2Ġ gong1Ġ
hai2Ġ yao4Ġ
zhun3Ġ jue2Ġsai4Ġ
Ġnian2Ġ12Ġyue4Ġ 28Ġri4Ġ
Ġsan1 Ġge4Ġ
ĠĠĠyi3Ġxia4 Ġwei4Ġ
a1Ġer3 Ġji2Ġli4Ġ
zhu1Ġshi4Ġhui4Ġ she4Ġ
1 200
Ġ 1960
Ġ 1931Ġnian2Ġ
ĠĠĠ h
ming2 Ġcheng2Ġ
you2 Ġhe2Ġ
fa3 Ġhui4Ġ
hai3 Ġdi4Ġ
lin2 Ġzai4Ġ
fei1 Ġer3Ġ
qian1 Ġnian2Ġ
90 Ġnian2Ġdai4Ġ
77 Ġnian2Ġ
bao2 Ġ
ll Ġ
Ġyi4Ġ fang1Ġmian4
Ġyi1Ġ liang4Ġ
fu4Ġ za2
nan2Ġ hai2Ġ
hua4Ġ fen1Ġwei4Ġ
Ġjian4Ġ zhu4ĠdeĠ
Ġqi2Ġ shou3Ġ
Ġzhan4Ġ bi3Ġ
jie1Ġ duan4ĠdeĠ
qi3Ġ dian3Ġ
yi2Ġ ci4Ġshi4Ġjie4Ġda4Ġ
Ġdan4Ġ que4
ying3Ġ ye4Ġ
Ġxiang1Ġ bi3
sha1Ġ mo4Ġ
zhi1Ġ liu2Ġ
mo2Ġ fang3Ġ
Ġnan2 Ġyu3Ġ
ĠdeĠzhong1Ġ xin1Ġ
shao1Ġ hui3Ġ
Ġshi2Ġzi4Ġ lv4Ġ
wai4Ġjiao1Ġ guan1Ġ
bao3Ġjia1 Ġli4Ġya4
bao1Ġkuo4Ġyi3Ġxia4Ġ wu4Ġzhong3Ġ
F C
G N
p re
Ġ yi4
Ġ jiao1
Ġ qian3
Ġ man3Ġ
Ġ tu3Ġdi4Ġ
Ġ xu1Ġyao4
Ġ 1953Ġnian2Ġ
you2 Ġshi4Ġ
jiu3 Ġzhou1Ġ
ban3 Ġhe2Ġ
tun2 Ġmen2Ġ
Ġyi1Ġ tiao2
Ġji4Ġ jun1Ġ
Ġxing2Ġ dian4Ġli4Ġ
Ġchu1 Ġxian4Ġyu2Ġ
Ġer2 Ġchu1Ġ
Ġshe4 Ġwei4Ġ
jie1Ġ bo2Ġ
yi2Ġ chu2Ġ
chu1Ġ lai2Ġ
chu1Ġ xi2Ġ
zhi1Ġ jian1
ci2Ġ qu4Ġ
jiang3Ġ hua4Ġ
hai2Ġ mei2Ġyou3Ġ
gang1Ġ tie3
chi3Ġ cun4Ġ
Ġzui4Ġzhong1Ġ yi3Ġ
zu2Ġqiu2Ġ jia3Ġji2Ġ
ĠdeĠyi4Ġ jian4Ġ
Ġao4Ġ men2
san1Ġshi2Ġ si4Ġnian2Ġ
yi4Ġshi2Ġ xing2Ġtai4Ġ
Ġguo2Ġwu4Ġ yuan4
Ġyi1Ġli4Ġ sha1Ġbai2Ġ
Ġyi1Ġsi1Ġlan2Ġ jiao4Ġ
Ġhei1Ġlong2Ġjiang1Ġ sheng3Ġ
zhu3Ġjiao4Ġzuo4Ġ tang2Ġ
da2Ġke1 Ġta1Ġ
Ġ lun4Ġ
Ġ tĠ
Ġ gu1Ġji4Ġ
Ġ 1962Ġnian2Ġ
Ġ 1959Ġnian2Ġ
ĠĠĠ wan4Ġli4Ġ
li3 Ġyu2Ġ
ming2 Ġdi4Ġ
xin1 Ġyi4Ġ
te4 Ġshe4Ġ
qi4 Ġji1Ġ
du2 Ġjia1Ġ
chen2 Ġshi4Ġ
ta3 Ġli4Ġ
bai3 Ġren2Ġ
lian4 ĠdeĠ
99 Ġnian2Ġ
Ġbu4Ġ jian4Ġ
ji2Ġ tuan2Ġ
Ġli4Ġ fang1Ġ
Ġqi2 Ġhe2Ġ
Ġta1Ġ hui4Ġ
Ġxi1Ġ lu4Ġ
Ġli3Ġ jie3Ġ
shou3Ġ pi1Ġ
jie2Ġ yun4Ġ
fen1Ġ jie3Ġ
ci3Ġ lei4Ġ
Ġyin1Ġ ziĠ
Ġdai4Ġ ma3Ġ
yue1Ġ 2
yue1Ġ 3
bo1Ġ li2
wang3Ġ ye4Ġ
jian3Ġ ruo4Ġ
ĠĠĠP e
Ġri4Ġben3 Ġren2Ġ
zhong1Ġshi4Ġ yan3Ġ
ya4Ġli4Ġ sang1Ġna4
dao3Ġshi4Ġ yue4Ġtai2Ġ
Ġfu4Ġze2 Ġren2Ġ
cheng2Ġnian2Ġ ren2Ġ
L E
r ao2
Ġ xiao4
Ġ bang1Ġ
Ġ nan2Ġbu4Ġ
Ġ he4Ġer3Ġ
ĠĠĠ zhe4
ĠĠĠ feng1Ġ
lie4 Ġren2Ġ
10 Ġshi2Ġ
da2 Ġli4Ġ
zhang1 Ġcheng2Ġ
tuan2 Ġyuan2Ġ
pai4 Ġdui4Ġ
da3 Ġchu1Ġ
st ra
hun1 Ġhou4Ġ
ĠdeĠ nian2
Ġbu4Ġ yi3Ġ
yi1Ġ ci4Ġ
Ġzhong1Ġ yi3Ġ
Ġli4Ġ wu4Ġ
Ġyi3 Ġshi2Ġ
Ġyi1Ġ shi4ĠdeĠ
ming2Ġ xian3ĠdeĠ
Ġjia1Ġ er3
xia4Ġ shu3
xia4Ġ xia2Ġ
Ġjin4 Ġjun1Ġ
ceng2Ġ dan1Ġren4Ġ
tuan2Ġ dui4
tang2Ġ chao2Ġ
fang2Ġ hu4Ġ
Ġmei3 Ġjun1Ġ
Ġba1Ġ li2Ġ
tan4Ġ xian3Ġ
ĠĠĠyi1Ġ xie1Ġ
zhong3Ġjia1Ġ ci2Ġ
s en
Ġ xuan1
Ġ cang2
Ġ tui1Ġchu1Ġ
ĠĠĠ dian4Ġying3Ġ
mi u4
de2 Ġjun1Ġ
ma3 Ġshang4Ġ
gai3 Ġjian4Ġ
bing1 Ġhe2Ġ
wan3 Ġhui4Ġ
65 Ġ
79 Ġnian2Ġ
Ġgong1Ġ zhu3
yu4Ġ nan4Ġ
zhe4Ġ chang3Ġ
Ġdui4Ġ zhen4Ġ
bei3Ġ shang4Ġ
shi1Ġ ge1Ġ
jie1Ġ dai4Ġ
mi3Ġ lan2Ġ
yi2Ġ ju1
dan1Ġ ni2Ġer3Ġ
Ġyou2 Ġji1Ġche1Ġ
ke3Ġyi3Ġ bei4Ġ
xiao1Ġ fang2
Ġmu4Ġ biao1Ġ
ĠĠĠdi4Ġ san1Ġ
ge4Ġ lei4
Ġyou3Ġyi1Ġ zuo4Ġ
ĠĠĠA u
Ġcong2 Ġer2
Ġsu1Ġ lian2
zhi1Ġchi2Ġ zhe3Ġ
Ġwan4Ġren2Ġ ci4Ġ
di2Ġshi4Ġ ni2
nan2Ġsi1Ġla1Ġ fu1Ġ
Ġhua2Ġsheng4Ġ dun4
hun4Ġxi ao2Ġ
1 Ġgong1Ġli3Ġ
Ġ CO
Ġ hui2Ġdao4Ġ
hou4 Ġyou3Ġ
wei2 Ġshi4Ġ
bo x
zhi3 Ġhui4Ġ
nv3 Ġsheng1Ġ
ban3 Ġshang4Ġ
guo3 Ġshi2Ġ
teng2 Ġyuan2Ġ
51 Ġ
Ġwei4Ġ zheng4Ġ
Ġli4Ġ liang4
Ġdan4 Ġyu2Ġ
min2Ġ yong4Ġ
lian2Ġ suo3Ġ
bei3Ġ fang1
ma3Ġ lu4Ġ
lin2Ġ sheng3Ġ
ao4Ġ duo1Ġ
ting2Ġ huo3Ġ
fei4Ġ zhi3Ġ
gu4Ġ shi4ĠdeĠ
Ġwan4Ġ dun1Ġ
nuo4Ġ fu1
lian4Ġ xi2
Ġwei4Ġdi4Ġ xia4Ġ
Ġfen1Ġbu4Ġyu2Ġ nan2Ġmei3Ġzhou1Ġ
an1Ġde2Ġ lie4Ġ
Ġwei4Ġyu2Ġgai1Ġ sheng3
4 Ġping2Ġfang1Ġgong1Ġli3Ġ
f u
s ĠdeĠ
â ħ
Ġ pang2
Ġ yan1
Ġ 1981
Ġ shang1Ġye4Ġ
an n
ĠĠĠ yan2Ġ
xi1 Ġri4Ġ
wen2 Ġshi4Ġ
mu4 Ġhe2Ġ
ding4 Ġshi4Ġ
zi Ġzai4Ġ
ta3 ĠdeĠ
zao3 Ġyi3Ġ
si on
76 Ġnian2Ġ
Ġzai4Ġ tai2Ġwan1
Ġji2Ġ bei4Ġ
Ġli4Ġ ren4
Ġli4Ġ yuan2Ġ
Ġji4Ġ neng2Ġ
Ġer2 Ġqi2Ġ
chang3Ġ shang1Ġ
Ġxin1Ġ zhu2
er4Ġ shi4ĠdeĠ
ti2Ġ qin2
gai3Ġ yong4Ġ
ke4Ġ lai2Ġ
qian1Ġ yi2Ġ
Ġda4Ġxue2Ġ sheng1Ġ
huo3Ġ zai1
wei3Ġyuan2Ġhui4Ġ fu4Ġzhu3Ġren4Ġ
Ġben3 Ġyu2Ġ
ĠĠĠzao3Ġnian2Ġ sheng1Ġhuo2Ġ
Ġ liao2
qi2 Ġzhi4Ġ
mei3 Ġyi1Ġ
wai4 Ġdi4Ġ
10 Ġren2Ġ
ge1 Ġhe2Ġ
dian3 Ġzhan4Ġ
bing1 Ġdui4Ġ
xiao1 Ġhao4Ġ
xun2 Ġqiu2
80 Ġnian2Ġdai4Ġ
ãģ ®
guai4 Ġwu4Ġ
Ġshi4Ġ yin1Ġ
yu2Ġ le4Ġ
yu3Ġ zhou4
ren4Ġ tong2Ġ
zhang3Ġ guan1
Ġzuo4Ġ wei2Ġyi1Ġ
zui4Ġ di1
tai4Ġ lang2Ġ
Ġzi4Ġ cheng1Ġ
Ġxiang1Ġ xin4
Ġnan2Ġ fei1Ġ
Ġjiao4Ġ tang2Ġ
si3Ġ qu4Ġ
ĠĠĠshi4Ġ jie4Ġ
Ġduo1 Ġnian2Ġ
niao3Ġ lei4
cuo4Ġ wu4ĠdeĠ
zhan4Ġzheng1Ġ qi1Ġjian1Ġ
gen1Ġju4 Ġdi4Ġ
Ġji1Ġben3Ġ shang4Ġ
bu2Ġ hui4Ġzai4Ġ
ĠĠĠben3Ġshu3Ġ bao1Ġkuo4Ġyi3Ġxia4Ġwu4Ġzhong3Ġ
Ġ ju1
Ġ zeng1
Ġ 1957Ġnian2Ġ
ĠĠĠ ao4Ġ
ĠĠĠ ren2Ġwu4Ġ
ĠĠĠ guang1Ġxu4Ġ
yong4 Ġyu3Ġ
san1 Ġri4Ġ
shan1 Ġzhan4Ġ
bi3 Ġji4Ġ
bian4 Ġyi4Ġ
kong1 ĠdeĠ
jiu1 Ġfen1Ġ
ore Ġ
Ġzai4Ġ jian4Ġ
Ġbu4Ġ shu3
Ġzhi4Ġ pian4Ġren2Ġ
Ġli4Ġ zhi1Ġ
Ġxi1Ġ ni2Ġ
ju4Ġ luo4Ġ
Ġzhan4Ġ dui4Ġ
bei3Ġ mei3
Ġzheng4Ġ wu4Ġ
ti3Ġ cao1
shou4Ġ piao4Ġ
qing1Ġ chen2Ġ
dan1Ġ du2
gou4Ġ zao4
geng4Ġ hao3ĠdeĠ
po4Ġ chan3Ġ
zong1Ġ se4Ġ
ĠĠĠshi4Ġ jian4Ġ
ĠÃ ¶
hun4Ġ luan4
ĠĠĠgong1Ġ yuan2Ġ
jiang1Ġxi1Ġ sheng3Ġ
ke4Ġli3Ġ mi3Ġya4Ġ
mu4Ġni2Ġ hei1
ĠISTAT Ġdai4Ġma3Ġwei4Ġ0
ju4Ġfeng1 Ġzhong1Ġxin1Ġ
1 Ġping2Ġfang1Ġgong1Ġli3Ġ
y aĠ
Ġ chong2
Ġ 1958
Ġ 1939
Ġ yi1Ġshi4Ġ
Ġ zao3Ġzai4Ġ
Ġ 1951Ġnian2Ġ
Ġ 1928Ġnian2Ġ
ĠĠĠ long2Ġ
xi1 Ġdao4Ġ
lu4 Ġzhong1Ġ
che1 Ġhe2Ġ
gai1 Ġgong1Ġsi1Ġ
chuan2 Ġdao4Ġ
mo2 ĠdeĠ
di3 Ġyu4Ġ
song4 ĠdeĠ
yang1 Ġshi4Ġ
mou3 Ġyi1Ġ
shui4 Ġwu4Ġ
pu4 Ġbu4Ġ
56 Ġ
74 Ġnian2Ġ
93 Ġnian2Ġ
Ġzai4Ġ guo2Ġ
Ġyu2Ġ da4Ġ
Ġli4Ġ wei2Ġ
zhu3Ġ ban4
lian2Ġ tong2Ġ
chang2Ġ yong4Ġ
bi4Ġ hu4Ġ
bian4Ġ dong4Ġ
jiu4Ġ zhi2Ġ
hua2Ġ bing1Ġ
ĠdeĠgong1Ġ gong4Ġ
shao4Ġ jiang4
Ġceng2 Ġwei4Ġ
Ġjin3Ġguan3Ġ ru2Ġci3Ġ
p ro
Ġ lao2
Ġ fa1Ġsheng1Ġ
Ġ ju3Ġxing2Ġ
Ġ wu3Ġnian2Ġ
ãĢ ķ
le Ġzhong1Ġ
tai2 Ġda4Ġ
shou4 Ġquan2
hu4 Ġli3Ġ
liao4 ĠdeĠ
zhang4 Ġhao4Ġ
duan3 Ġqi1Ġ
