#version: 0.2
n g
i 4
a n
s h
z h
ng 1
j i
u 4
ng 2
Ġ Ġ
i 2
a o
x i
ng 4
an 2
i 3
i 1
d e
u 3
an 4
e 4
e n
c h
u o
u 2
ng 3
an 1
e 2
a i4
u 1
ĠĠ Ġ
o ng1
a 1
ã Ģ
sh i4
e i4
ao 4
i an2
a 4
y u
a ng1
y o
an 3
n 1
h u
a ng4
n ian2
en 2
l i
a ng3
e ng2
uo 4
uo 2
w ei4
m i
ao 3
z ai4
ãĢ ģ
b i
q i
a ng2
e 1
h e2
y i
e ng1
zh ong1
e r
b u4
o u4
a 3
e 3
n 4
sh i2
d i4
g uo2
a i2
u i4
r en2
ao 1
x u
y i1
n 2
o ng2
y u2
g u
l i4
zh i4
d i
w e
en 4
ch eng2
o ng4
y i4
g ong1
ji 2
e ng4
en 1
yu e4
yo u3
yu an2
d a4
a 2
l e
j i4
2 0
y i3
j u
a i1
p i
xi an4
o u1
ji a1
s i1
xi ng2
e i3
t i
y u3
ji 1
t a1
r i4
zh i1
h ou4
l i3
o u3
a i3
we i2
hu i4
d ao4
1 9
o ng3
q i2
u an2
zh eng4
mi ng2
xi 1
ao 2
ji an4
xu e2
ch u1
g e4
z uo4
uo 1
sh eng1
d ui4
yo u2
uo 3
q u1
sh ang4
en 3
de 2
b ei4
sh i3
zh u
zh an4
n 3
xi n1
ju n1
er 3
sh e4
r en4
f a1
w u4
bi ng4
k e4
er 2
l u4
d ai4
zh u3
y i2
sh u4
j u4
ji n4
z i4
yi n1
f u4
f ang1
ji ng1
n an2
hu a4
zh ou1
pi ng2
xi a4
l ai2
yo ng4
gu an1
t ong2
y u4
ãĢ ĭ
ãĢ Ĭ
f a3
zh u4
m ei3
Â ·
ji an1
b o
h uo4
b en3
xi ang1
zh i2
d ong4
xi ang4
mi n2
zh e4
ji ang1
q i1
f en1
sh ou3
q uan2
w en2
y an2
s uo3
ji ao4
q ian2
di an4
t e4
d uo1
z ui4
k ai1
ji e2
l ian2
zh i3
x i4
k e3
e ng3
e i1
d an4
m u4
y e4
d u4
f u2
sh u
m a3
y e3
d ong1
qi u2
b ei3
ãĢ Į
ãĢ į
g ao1
y a4
o u2
d u
ji e1
u n2
mi an4
h ai3
zh ang3
sh i1
ji n1
c i3
n ei4
s ai4
s an1
t ai2
g e2
xi ng4
g uo4
20 1
de ng3
y ao4
ch e1
c i4
s u
m o
r u4
w u3
g ai1
k u
di ng4
ch ang2
bi ao3
l a1
t i3
g ong4
ji e4
sh ou4
d ao3
sh an1
ch ang3
s i4
l v
z e2
t i2
k e1
d ang1
n eng2
er 4
w ai4
e i2
ch u
d an1
q i3
z i
k ou3
xi ao3
z u3
b a1
ju e2
li n2
li u2
n i
sh eng3
yi ng1
l an2
b i3
l uo2
t ong1
20 0
zh ong4
zh e3
sh u3
ti an1
zh en4
zh ong3
li e4
q i4
ch eng1
sh u1
yu an4
b ao3
t ai4
f u3
f eng1
m i3
qi ng1
sh en1
w ang2
yu n4
gu an3
f ei1
ji u4
g u3
li ang3
c eng2
m ei2
1 0
f en4
h ao4
y an3
we i3
z ong3
xu an3
xi ao4
d a2
n a4
li ang4
bo 1
z u2
ji ng4
b ao4
n i2
w u2
t ong3
hu a2
ji ao1
yu e1
yi ng3
bi an4
xi ng1
s u4
shu i3
y ang2
m en
b ao1
g e1
bo 2
c an1
c ong2
di an3
r u2
b an4
b i4
bi an1
w ang3
q u3
ch an3
s e4
z i1
q u
0 0
ch uan2
n v
sh eng4
r an2
t u2
zh ang1
x u4
p u3
g ai3
g ang3
nv 3
li ng4
l uo4
yo u4
t ou2
h u4
ch a2
c e4
ch i2
1 8
lv 4
qi an1
l i2
d ou1
1 2
zh eng1
k uo4
sh a1
l u
d ang3
f an3
g ou4
l ei4
x i2
ji ng3
t uan2
we i1
xi e1
li ng3
l ong2
gu i1
xi an1
r ong2
hu ang2
xi ang3
b an1
ji u3
yi ng4
m en2
sh ang1
sh en2
20 2
b an3
k a3
c u
m u3
ji n3
f u1
j u3
mo 2
gu ang3
c i2
sh uo1
qi ng2
zh an3
h ai2
zhu ang1
mo 4
c ai2
ji 3
d u2
1 1
pi n3
ti ng2
ch ao2
yi ng2
w o
ti ao2
p o
ji an3
t ang2
hu i2
du an4
ch en2
g en1
m i4
w an4
p ai2
w an1
z ao4
h ang2
w an2
bi ao1
l un2
19 9
xi e2
ji ang3
h an4
j u2
f an4
f ang2
h uo2
g u4
h an2
k ong1
ti e3
m eng2
bi e2
w u1
ji e3
zhu an1
yi n3
x u1
zh en1
ji a4
bi ng1
mi ng4
li ng2
h ong2
qi n1
z i3
lu n4
t u
o r
xi n4
ch u4
s u1
xi u1
ch u3
z ong1
1 5
h u2
qu e4
xi ao1
zh ao4
qi ang2
q u4
cu n1
ch ong2
pi an4
ji u1
f ang4
su i2
sh ou1
g eng4
â Ģ
gu ang1
j u1
ji a3
chu ang4
d i2
zhu an3
1 6
g uo3
xu n4
m an4
p ai4
f ei4
p ei4
19 8
d a3
t uo1
xu an1
ch u2
b ai2
l a
o n
zh u1
d u1
t u3
di ao4
xi a2
li u4
1 7
s ui4
hu i1
ti ng1
qi e3
t a3
qi ao2
h a1
g an3
z eng1
xi an3
m ai4
hu an2
x u3
w a3
tu i1
w en4
ch ao1
t ian2
b ai3
c ai3
li ang2
y a2
s a4
a r
b ai4
c un2
ji ao3
sh ao3
y an4
zhu ang4
d i3
h uo3
le i2
1 4
ji ang4
chu an1
yi n4
z ao3
yo ng3
s i3
de ng1
3 0
zhu n3
l e4
xu n2
n uo4
hu an4
s ong4
g ao4
l u3
1 3
19 4
b ang1
lv 3
y ang4
h en3
q un2
zh eng3
gu an4
po 4
g ang1
wo 3
19 7
hu a1
le i1
h ao3
t ao2
ku ang4
p i1
du n4
n ong2
g ei3
s ai1
shu ang1
li an4
ku ai4
i n
d i1
p an4
xi e3
19 5
k ao3
g ai4
h e4
h ei1
w ang4
li ao4
r e4
g e
z uo3
k ong4
19 6
y ang1
ch ang4
yi n2
r eng2
s en1
b ei1
l u2
pi ao4
y a1
k u4
2 5
bi n1
âĢ Ķ
r ang4
ch ong1
l ou2
b u3
l ao3
zh u2
ju n4
y ang3
r ui4
y ao1
xi an2
xi e4
ni an4
f or
yo u1
t an2
k ang1
p i2
h eng2
yu n2
k an4
ni ng2
li ao2
sh ao4
b u2
qi ng3
ch i3
2 4
m u
d ou4
mi an3
y ong1
t an3
w an3
h u1
r u
f an1
a l
t u1
g an1
su an4
di ng1
yu an3
w en1
t ui4
zh e
s t
2 1
xi u4
b a3
m an3
19 3
2 3
mu la
k ang4
for mula
2 8
t h
m ao2
r uo4
pi an1
m ao4
l ang3
qi n2
b a2
n a2
z an4
xi 3
gu i3
g ui4
r e
pi n2
wo 4
xi ong2
sh an4
2 2
xi ong1
m e
su i1
2 6
sh en3
qi ng4
mi ao2
f ang3
5 0
20 20
2 7
l ang2
o u
qi u1
s ong1
r i
d ang4
g eng1
qi ang1
f a2
z ao1
f eng4
zh ang4
ï ¼
h ao2
du n1
z ou3
h ai4
qi e4
2 9
t an4
z u
p ao4
p a4
shu n4
p eng2
xu an2
201 0
n i3
00 0
di ng3
ni u3
z ai3
zh ao1
zhu i1
lv e4
chu n1
20 19
hu n1
k ong3
ch e4
du an1
sh en4
xi ang2
du an3
g an4
r o
t e
k an1
l ao2
c ao3
201 6
s i
g u1
p ei2
ku an3
z a2
201 8
su n1
y e2
y a3
r a
po 1
202 1
zh a4
ch i4
d uo2
201 4
f an2
201 1
201 5
c uo4
201 7
zh e2
y ao2
p ai1
t ou4
c ang2
201 2
4 0
k ai3
201 3
202 2
m i2
ru an3
su an1
ch a1
z ang4
mi ao4
l t
200 9
zh ao3
200 8
hu ai2
ã ĥ
c e
6 0
xu e4
ch ou2
s e
b ang3
a m
m eng4
10 0
t i4
p u2
n ao3
202 3
zhu an4
g t
le i3
19 0
3 1
c ai4
s an4
m ou2
ti on
hu n4
ku an1
200 7
t a
ni u2
m ou3
t ao3
di e2
200 1
t eng2
s ou1
k en3
qi an3
ch ang1
r an3
qu e1
f ou3
su n3
f o
b a4
200 0
8 0
k ao4
s uo1
200 6
ni ao3
p i3
ch un2
202 4
l an3
ã ģ
z ai1
c o
xu e3
hu i3
e l
m a
lu an4
ti ng3
200 5
zu n1
b ang4
l a4
hu an1
r ang3
sh ui4
mi n3
3 5
l ai4
c ang1
7 0
fo 2
p an2
n ai4
w en3
n e
c ao1
o f
s ang1
p ang2
9 0
bi ng3
ï¼ į
t er
zh a1
ã Ĥ
shu ai4
ni e4
h ou2
m ei4
sh ao1
n u3
d ong3
i l
f eng2
mi e4
yu n3
z ou4
m ai3
hu ai4
200 4
4 5
l o
y an1
th e
h e
4 8
zh uo2
a t
an d
t ao4
n ai3
ku n1
202 5
zh en3
c k
r u3
ku a4
ku i2
ãĢ ī
ãĢ Ī
g ou1
3 6
e t
cu i1
e s
3 8
c u4
sh an3
r ou4
di ao1
200 3
h u3
g uo1
3 7
c ui4
x u2
i s
m ang2
ju an3
t o
c an2
di an1
zh an1
c ao2
18 9
I N
200 2
k eng1
T C
m a2
3 4
le ng3
a s
z u1
ch a4
7 5
âĢ ĵ
o w
s u2
qu an1
d a1
ch ai1
l ang4
ku n4
4 6
t un2
f en3
199 0
âĢ ¦
o l
v e
zh ou4
sh ang3
r ao4
h eng1
t i1
xu n1
3 9
n e4
. .
n an4
p an1
6 5
h ong1
sh u2
t an1
t ang1
k an3
M a
n i4
C h
3 2
i t
S T
h an3
4 7
U TC
qi an4
199 9
199 8
I n
198 0
18 8
5 00
3 3
6 4
qi ang3
sh e2
sh uo4
p ao3
b e
k a1
zh ai2
S E
5 5
qu an4
n i1
de ng4
199 7
T he
C o
m ian2
4 9
g ao3
I I
6 8
h an
sh e3
z eng4
zh ou2
zh ai4
R e
199 6
4 4
n a
ti e1
d ao1
a d
b r
199 4
f ei2
z ong4
i r
qi ong2
ti ao4
chu ang2
n d
199 2
chu i2
ju an1
c i
ch ai2
mi ao3
b a
gu a1
xu e1
t ong4
199 5
f ei3
ch i1
m eng3
wo 1
6 7
shu ai1
t uo2
chu ang1
hu an3
v i
199 1
197 0
5 8
195 0
gu a4
ch an2
c a
3 00
w a1
199 3
18 7
194 9
a y
p e
s a1
ti ao3
zh a2
A T
196 0
bi an3
4 2
194 5
v er
u s
gu ai4
k u3
n u2
198 8
d u3
o o
198 9
i g
p u4
6 9
li u3
i ng
u r
s s
g ong3
SE E
t uo4
c t
li ao3
IN SEE
5 9
sh a4
t ai1
4 3
6 6
chu an4
am p
ch en4
5 7
198 5
hu ang1
R o
9 9
S A
ãĢ İ
cu n4
ãĢ ı
198 4
hu n2
4 1
u m
p u1
k ou4
p h
8 8
f en2
198 6
r ao3
S t
a u
i d
ru n4
T V
15 0
zh uo1
in d
4 00
s an3
198 7
7 8
5 6
198 2
ar d
L i
n uo2
M e
198 3
D e
N A
gu n3
m a1
t ou
pi n4
u n
C D
ch ou1
b er
g ou3
qu an3
7 7
M i
zh ai1
qi a4
p er
m ao1
qi ao3
M ar
k u1
ku ang2
e d
a ng
r ou2
9 8
de r
l ou4
O S
Â °
k ui4
s ang4
ï ½
l y
18 0
B C
5 4
6 1
A l
197 9
19 20
t y
7 9
p en1
s eng1
t w
5 2
Y ou
197 8
n u4
6 2
w eng1
y e1
d uo3
L e
5 3
xi ng3
ju an4
ï½ ŀ
B A
t s
a k
194 6
C O
M o
c tion
5 1
195 8
S h
198 1
V i
m an
197 2
194 8
zh ui4
c ong1
t ou1
A M
6 3
A R
J o
194 1
W ind
w a2
B S
li an3
19 30
P ro
lu an3
ow s
ku ang1
k e2
q u2
t uo3
7 6
han s
194 0
p i4
193 7
197 6
zu i3
194 4
8 9
197 5
r y
ï¼ ı
196 8
ni ang2
po 2
shu a1
h k
c on
r an
T e
yu an1
t ao1
w ang1
10 00
Wind ows
9 5
p a
N e
n o
b i2
s ao3
8 7
d a
196 6
8 5
f a4
p eng1
6 00
g a1
l an4
1 20
194 7
A r
S ta
195 6
A C
196 4
d an3
c u1
194 2
Ã ©
195 5
S e
R a
ch ou3
195 2
193 9
193 8
7 2
I S
v a
7 4
G a
g a
h t
n u
la y
r en3
197 3
197 4
195 4
f i
qi e1
E D
19 00
- -
J a
A P
194 3
b i1
T u
k e
o s
197 7
B e
197 1
pi n1
m an2
o p
po 3
en t
196 7
sh eng2
men t
m p
I C
8 00
L a
E R
i a
8 6
195 9
b eng1
S a
196 5
s on
J R
196 9
du i1
L o
p en2
in e
S o
ãĥ »
Ã Ĺ
qi ao4
chu i1
I D
qi ao1
S u
193 6
9 7
16 0
b en1
zhu a1
D a
F a
195 3
196 2
M A
d o
196 1
ti c
l ong3
â Ķ
193 5
t a4
r ou
m ai2
9 6
O N
D i
ï¼ ħ
195 1
195 7
196 3
C a
h a
âĶ Ģ
o k
8 4
202 6
c an3
or e
8 2
N a
h i
b u
7 3
9 4
tu n1
9 2
p p
I P
A N
B o
st a
m er
193 3
on e
M u
193 1
n ang2
le s
ni ao4
7 1
b ao2
h o
nu an3
g i
A n
l eng2
p a2
P a
9 3
s o
8 3
al l
W e
d ou3
8 1
19 18
H D
S i
s ao1
w i
U ni
19 28
l uan2
193 2
n en4
l l
ar a
in t
B a
M V
S S
1 10
19 12
I T
k i
19 29
tu i3
d uo4
19 27
co m
t u4
193 4
ar e
7 00
g a2
c n
a li
9 1
ch e
te d
st er
f f
b y
hu ang3
co l
il l
o t
25 0
s a
ar t
z ei2
19 24
R i
.. .
19 19
ku i1
xu an4
1 30
pi ao1
19 25
P S
p ao1
xi a1
14 0
P lay
S M
P C
me s
19 14
st e
zh ai3
k m
H e
D V
p an
zh e1
You Tu
h e1
en d
H a
F i
an a
di e1
b le
C on
W i
l a3
A S
19 11
B u
k a
sh i
o d
g ra
nv e4
l d
19 26
G e
T i
de n
ou r
19 22
n a3
h en4
19 17
si on
E T
N BA
I V
shu i2
c ai1
r ao2
E N
19 23
19 21
p eng4
f e
ku a1
G oo
th er
T a
ch ong3
17 0
à ¸
E C
m ao3
n ong4
m m
A L
M S
H o
se ction
YouTu be
E P
N i
B L
19 13
h n
ti ao1
p en
H K
E n
â Ĩ
han t
gu n4
190 9
g in
In ter
c ro
P e
S te
M P
A I
T o
g eng3
W or
n ao4
ri s
f eng3
an t
l uo3
U S
y a
po r
DV D
g o
ar i
z ou1
P i
3 000
T h
c a1
D o
P o
g n
19 10
F or
R O
D S
1 12
A K
R E
p ro
19 16
C ar
ãĥ ¼
ch uo4
N et
Î ±
a tion
S ch
K i
N o
an i
tu re
el l
L in
M y
C P
U N
W il
ar k
â Ī
Sta tion
h en2
19 15
g le
ni ang4
190 5
F C
v en
er s
m y
C N
â Ħ
âĨ Ĵ
190 1
tion al
L u
w a
ti ng
A u
D NA
E x
f a
p u
âĢ §
si c
di a
9 00
H R
P h
di ce
ar y
si s
Ne w
. &
t on
C H
z en3
T A
T O
190 6
190 4
chu ang3
A V
J u
Q u
ou n
K a
g en3
p s
Jo hn
er e
A nd
M O
co dice
ch ao3
ji ong3
di ng
âĦ ĥ
k o
er i
w a4
b eng4
0 5
f u
C C
di u1
190 7
190 8
Goo gle
A G
E ST
M I
v o
zu an4
S O
te s
L E
ji a2
zu an3
Play Station
en ter
B O
B BC
ch i
Co m
A D
I G
c al
le y
l i1
G u
en ce
II I
of t
R u
15 00
c y
5 000
c ri
wo r
zu an1
I ST
sh e1
lv 2
C ol
or y
M E
S y
ti ve
w it
C R
3 D
rou nd
I A
l an
gu a3
10 5
j e
m a4
Ð °
t t
li n
190 3
10 1
G B
pi ng1
re e
C u
c an
0 9
in a
c an4
F e
c en2
190 2
B D
N C
l and
T E
ch a
p ang1
x t
3 50
Ã ¡
z e
SA O
sh ao2
g en
D C
de s
s pan
p t
mo n
A d
Î ²
g ht
re s
li n4
B 1900
de l
bo ok
E S
B M
r on
ï¼ İ
ãĥ ³
189 8
0 6
1 18
H i
l a2
ãģ ®
m s
qi n3
c or
te l
D R
3 60
0 1
D A
O pen
189 5
l ao4
12 5
m u2
z a
la r
b en4
H O
an ce
ti n
M C
AT P
Mi cro
K o
g y
Ð ¾
10 8
K e
s y
li ne
di o
N G
ig h
p ou1
ne t
y le
G o
c lu
lo w
qi e2
gra m
C or
I F
f t
F ran
O ne
n er
A pp
0 7
âĪ Ĵ
0 8
2 30
g h
Fa ce
H u
10 4
pa ce
P u
S er
re a
Wor ld
s oft
ED T
IST AT
M on
S tu
j a
sh ai1
s ong3
à ¤
N O
189 6
L L
ni ng
10 9
D P
f li
g er
la s
d y
y u1
A A
lu s
ow n
B i
it y
g e3
R I
ct or
W a
D u
S P
R T
su i3
xi ao2
qi a3
E X
r e3
B ri
ber t
B 48
M an
v el
li ng
10 6
18 90
S an
C ST
M L
or i
B ar
CD T
Lo ve
z ang1
D O
wi th
H E
w ard
P er
p ei1
ro w
ta in
0 4
4 000
p ri
u x
cu an4
11 5
ig ht
d s
1 200
M 1
0 3
H ar
G P
p ao2
C E
r en
Ä ģ
ba ck
188 9
be gin
P ar
189 9
J e
Ma c
col span
187 1
E d
R S
mi c
Face book
Wil li
Micro soft
âĢ ĭ
24 0
tu r
Co mp
o ol
16 00
L O
G i
de Ġ
Ġ deĠ
shi4 Ġ
Ġ shi4Ġ
Ġ nian2
Ġnian2 Ġ
wei4 Ġ
zai4 Ġ
Ġ wei4Ġ
Ġ zai4Ġ
he2 Ġ
Ġ he2Ġ
zhong1 Ġ
bu4 Ġ
di4 Ġ
shi2 Ġ
guo2 Ġ
yu2 Ġ
ren2 Ġ
Ġ bu4Ġ
yi1 Ġ
Ġ zhong1Ġ
li4 Ġ
zhi4 Ġ
gong1 Ġ
Ġ shi2Ġ
yue4 Ġ
ji2 Ġ
cheng2 Ġ
yi4 Ġ
you3 Ġ
Ġ di4Ġ
Ġ yue4Ġ
Ġ yu2Ġ
Ġ ren2Ġ
Ġ zhi4Ġ
da4 Ġ
Ġ ji2Ġ
yuan2 Ġ
Ġ you3Ġ
ji4 Ġ
Ġ guo2Ġ
Ġ li4Ġ
Ġ gong1Ġ
Ġ yi4Ġ
Ġ yi3
Ġ cheng2Ġ
jia1 Ġ
si1 Ġ
yu3 Ġ
Ġ xian4
Ġ ri4
Ġ yi1Ġ
Ġ xing2
Ġ ta1
li3 Ġ
ji1 Ġ
Ġ dao4
hou4 Ġ
wei2 Ġ
Ġ zhi1
Ġ da4Ġ
Ġ yuan2Ġ
xi1 Ġ
Ġri4 Ġ
Ġ ge4
Ġyi3 Ġ
xue2 Ġ
hui4 Ġ
le Ġ
zuo4 Ġ
Ġ yu3Ġ
Ġdao4 Ġ
ming2 Ġ
Ġ ji4Ġ
bei4 Ġ
Ġxing2 Ġ
sheng1 Ġ
Ġ jian4
Ġ chu1
Ġ qi2
Ġ si1Ġ
Ġ de2
zheng4 Ġ
Ġxian4 Ġ
Ġ hou4Ġ
Ġ ji1Ġ
dui4 Ġ
shang4 Ġ
qu1 Ġ
shi3 Ġ
Ġ er3
Ġ jia1Ġ
you2 Ġ
Ġta1 Ġ
Ġ xi1Ġ
Ġ li3Ġ
Ġ er2
zhan4 Ġ
Ġ jun1
Ġ bing4
Ġzhi1 Ġ
Ġge4 Ġ
zhu3 Ġ
ren4 Ġ
fu4 Ġ
zi4 Ġ
wu4 Ġ
xin1 Ġ
dai4 Ġ
ju4 Ġ
ping2 Ġ
Ġchu1 Ġ
Ġ ke4
Ġ zhou1
xiang1 Ġ
Ġ hui4Ġ
shu4 Ġ
nan2 Ġ
Ġ she4
Ġ bei4Ġ
Ġ ming2Ġ
xia4 Ġ
guan1 Ġ
Ġer3 Ġ
Ġde2 Ġ
lu4 Ġ
yu4 Ġ
hua4 Ġ
Ġjian4 Ġ
jing1 Ġ
yan2 Ġ
fang1 Ġ
Ġ yin1
kai1 Ġ
jian1 Ġ
jiao4 Ġ
fa1 Ġ
yong4 Ġ
Ġ dan4
Ġer2 Ġ
zhu4 Ġ
lai2 Ġ
min2 Ġ
shou3 Ġ
zhe4 Ġ
xiang4 Ġ
wen2 Ġ
Ġjun1 Ġ
xi4 Ġ
qian2 Ġ
ben3 Ġ
te4 Ġ
Ġ wei2Ġ
zhi2 Ġ
fa3 Ġ
qi1 Ġ
jie2 Ġ
lian2 Ġ
Ġbing4 Ġ
dong4 Ġ
dian4 Ġ
Ġqi2 Ġ
Ġke4 Ġ
dong1 Ġ
mu4 Ġ
Ġ jin4
Ġ dui4Ġ
Ġ huo4
Ġ zhan4Ġ
fen1 Ġ
tai2 Ġ
zhang3 Ġ
du4 Ġ
jiang1 Ġ
Ġ qiu2
Ġ ping2Ġ
gao1 Ġ
ye4 Ġ
suo3 Ġ
bei3 Ġ
Ġzhou1 Ġ
shi1 Ġ
Ġ leĠ
duo1 Ġ
jie1 Ġ
ge2 Ġ
Ġ shang4Ġ
jin1 Ġ
Ġ zheng4Ġ
fu2 Ġ
Ġ zuo4Ġ
Ġ you2Ġ
Ġ fu4Ġ
kou3 Ġ
guo4 Ġ
zhi3 Ġ
Ġ tong2
hai3 Ġ
Ġ ren4Ġ
Ġ quan2
ma3 Ġ
tong1 Ġ
ru4 Ġ
zui4 Ġ
Ġ sheng1Ġ
Ġ xue2Ġ
ci3 Ġ
xing4 Ġ
wai4 Ġ
nei4 Ġ
la1 Ġ
ti3 Ġ
jue2 Ġ
ke3 Ġ
qi3 Ġ
shan1 Ġ
tian1 Ġ
chang3 Ġ
deng3 Ġ
zhen4 Ġ
wu3 Ġ
chang2 Ġ
zi Ġ
yao4 Ġ
bi3 Ġ
Ġ ju4Ġ
bao3 Ġ
mi3 Ġ
ya4 Ġ
Ġ ye3
gai1 Ġ
Ġyin1 Ġ
Ġ dai4Ġ
mian4 Ġ
zhong4 Ġ
Ġshe4 Ġ
feng1 Ġ
Ġ zhe4Ġ
zhong3 Ġ
ci4 Ġ
yun4 Ġ
yi2 Ġ
liu2 Ġ
che1 Ġ
shou4 Ġ
lin2 Ġ
bao1 Ġ
yi2 Ġge4Ġ
sai4 Ġ
jie4 Ġ
ding4 Ġ
shen1 Ġ
sheng3 Ġ
luo2 Ġ
mei3 Ġguo2Ġ
san1 Ġ
qi4 Ġ
xiao3 Ġ
Ġdan4 Ġ
neng2 Ġ
shu1 Ġ
ze2 Ġ
lie4 Ġ
xuan3 Ġ
si4 Ġ
qing1 Ġ
zhe3 Ġ
Ġqiu2 Ġ
jing4 Ġ
yuan4 Ġ
ba1 Ġ
wang2 Ġ
ke1 Ġ
tai4 Ġ
lan2 Ġ
bao4 Ġ
an1 Ġ
zong3 Ġ
ying3 Ġ
Ġhuo4 Ġ
bi4 Ġ
fu3 Ġ
dao3 Ġ
Ġ xin1Ġ
gu3 Ġ
ying1 Ġ
Ġ hao4
Ġ xia4Ġ
Ġ zi4Ġ
ge1 Ġ
fen4 Ġ
xiao4 Ġ
yue1 Ġ
ni2 Ġ
jiao1 Ġ
na4 Ġ
Ġ yu4Ġ
Ġ mi3Ġ
zi1 Ġ
er4 Ġ
Ġ xiang1Ġ
pu3 Ġ
dan1 Ġ
Ġ zhu4Ġ
biao3 Ġ
guan3 Ġ
tou2 Ġ
liang4 Ġ
chuan2 Ġ
Ġ lu4Ġ
su4 Ġ
wu2 Ġ
Ġ dang1
bo1 Ġ
ru2 Ġ
yan3 Ġ
nv3 Ġ
bo2 Ġ
Ġzhong1Ġ guo2Ġ
xing1 Ġ
ti2 Ġ
fei1 Ġ
da2 Ġ
se4 Ġ
cheng1 Ġ
mei3 Ġ
Ġwei4Ġ yu2Ġ
Ġjin4 Ġ
ceng2 Ġ
chan3 Ġ
Ġ nan2Ġ
shui3 Ġ
tu2 Ġ
bian4 Ġ
gui1 Ġ
Ġ ran2
yang2 Ġ
zhang1 Ġ
a1 Ġ
gai3 Ġ
dian3 Ġ
cong2 Ġ
jiu4 Ġ
Ġ ben3Ġ
Ġquan2 Ġ
sha1 Ġ
bao1Ġ kuo4
wang3 Ġ
jian3 Ġ
sheng4 Ġ
zu3 Ġ
shu3 Ġ
gang3 Ġ
hua2 Ġ
lv4 Ġ
qing2 Ġ
jing3 Ġ
liang3 Ġ
zu2 Ġ
ban4 Ġ
tong3 Ġ
gong4 Ġ
shang1 Ġ
li2 Ġ
hu4 Ġ
an4 Ġ
tong2 Ġ
bian1 Ġ
jin4 Ġ
long2 Ġ
luo4 Ġ
xu4 Ġ
chi2 Ġ
ao4 Ġ
mei2 Ġ
1 Ġ
jin3 Ġ
ban1 Ġ
guang3 Ġ
chu1 Ġ
ce4 Ġ
mi4 Ġ
shen2 Ġ
Ġta1Ġ men
zheng1 Ġ
zhi1 Ġ
ling3 Ġ
you4 Ġ
fan3 Ġ
wei1 Ġ
Ġ zhu3Ġ
huo2 Ġ
xi2 Ġ
ting2 Ġ
ka3 Ġ
cha2 Ġ
Ġ gai1Ġ
Ġ xiang4Ġ
cai2 Ġ
gou4 Ġ
shuo1 Ġ
men2 Ġ
ci2 Ġ
xiang3 Ġ
mu3 Ġ
2 Ġ
lei4 Ġ
wei3 Ġ
qu3 Ġ
Ġgong1Ġ li3Ġ
yan2Ġ jiu1
Ġ duo1Ġ
tuan2 Ġ
yin3 Ġ
jian4 Ġ
Ġye3 Ġ
chao2 Ġ
ying4 Ġ
chen2 Ġ
tang2 Ġ
xie1 Ġ
qi2 Ġ
pin3 Ġ
Ġyi3 Ġji2Ġ
jia4 Ġ
shi3Ġ yong4Ġ
jie3 Ġ
hang2 Ġ
yi3 Ġ
lun2 Ġ
rong2 Ġ
jiang3 Ġ
Ġ you2
pai2 Ġ
fu1 Ġ
jiu3 Ġ
ling4 Ġ
tai2Ġ wan1
Ġhao4 Ġ
Ġ wan4
ĠdeĠ di4Ġ
xu1 Ġ
ke3 Ġyi3Ġ
huang2 Ġ
xian1 Ġ
duan4 Ġ
ke4 Ġ
dang3 Ġ
mo2 Ġ
can1 Ġ
ying2 Ġ
tiao2 Ġ
biao1 Ġ
ĠdeĠ yi1Ġ
kai1Ġ shi3Ġ
quan2 Ġ
zhan3 Ġ
Ġcheng2Ġ wei2Ġ
ye3 Ġ
hong2 Ġ
mei2 Ġyou3Ġ
han4 Ġ
e2 Ġ
yin1 Ġ
wei3 Ġyuan2Ġ
qian1 Ġ
ban3 Ġ
xian4 Ġ
ling2 Ġ
xiao1 Ġ
Ġtong2 Ġ
hui2 Ġ
su1 Ġ
fang2 Ġ
meng2 Ġ
zhuang1 Ġ
kong1 Ġ
ju2 Ġ
cun1 Ġ
bao1Ġkuo4 Ġ
ren2Ġ kou3Ġ
Ġqi2 Ġzhong1Ġ
Ġgong1Ġ si1Ġ
huo4 Ġ
zi3 Ġ
xing2 Ġ
dou1 Ġ
ĠdeĠ shi4Ġ
ĠĠĠ zai4Ġ
qiang2 Ġ
zhao4 Ġ
du2 Ġ
zheng4 Ġzhi4Ġ
yi2 Ġge4
mo4 Ġ
bing1 Ġ
cai3 Ġ
fa3 Ġguo2Ġ
Ġ fen1Ġ
Ġ gao1Ġ
Ġda4Ġ xue2Ġ
Ġshi4Ġ yi1Ġ
hai2 Ġ
Ġta1 ĠdeĠ
hu2 Ġ
chu4 Ġ
qin1 Ġ
3 Ġ
lun4 Ġ
fan4 Ġ
zhen1 Ġ
guang1 Ġ
wen4 Ġ
man4 Ġ
ai4 Ġ
she4 Ġ
Ġ jie2Ġ
biao3 Ġshi4Ġ
zhong1 ĠdeĠ
ju1 Ġ
Ġ jiao4Ġ
zhuan1 Ġ
diao4 Ġ
bai2 Ġ
da3 Ġ
que4 Ġ
dian4 Ġshi4Ġ
Ġ dong1Ġ
fei4 Ġ
Ġshi4Ġ wei4Ġ
Ġ du4Ġ
Ġ mu4Ġ
han2 Ġ
shi4 ĠdeĠ
Ġ te4Ġ
xun4 Ġ
Ġ jin1Ġ
pian4 Ġ
ming4 Ġ
ju3 Ġ
Ġ jiang1Ġ
tuo1 Ġ
gu4 Ġ
Ġren2Ġ kou3Ġ
xiu1 Ġ
Ġbu4Ġ fen4Ġ
xie2 Ġ
zao4 Ġ
Ġhe2Ġ guo2Ġ
zhong1Ġ guo2Ġ
guo3 Ġ
10 Ġyue4Ġ
shou1 Ġ
Ġ zui4
xin4 Ġ
12 Ġyue4Ġ
7 Ġyue4Ġ
9 Ġyue4Ġ
zhuan3 Ġ
ta1 Ġ
Ġ shi1Ġ
dang1 Ġ
mian4 Ġji1Ġ
Ġren2Ġ min2Ġ
8 Ġyue4Ġ
xun2 Ġ
Ġdi4Ġ qu1Ġ
wu1 Ġ
3 Ġyue4Ġ
Ġ guo4Ġ
1 Ġyue4Ġ
Ġ jing1Ġ
Ġ suo3Ġ
Ġ shou3Ġ
gan3 Ġ
huan2 Ġ
di2 Ġ
xia2 Ġ
jia3 Ġ
5 Ġyue4Ġ
ying1 Ġguo2Ġ
Ġ ci3Ġ
dao4 Ġ
di3 Ġ
zhu1 Ġ
ting1 Ġ
zheng4 Ġshi4Ġ
chong2 Ġ
huo3 Ġ
zhou1 Ġ
6 Ġyue4Ġ
4 Ġ
zhuang4 Ġ
5 Ġ
cheng2 Ġshi4Ġ
4 Ġyue4Ġ
Ġguo2Ġ jia1Ġ
tian2 Ġ
geng4 Ġ
ĠĠĠ di4Ġ
fang4 Ġ
yong3 Ġ
shu3 Ġyu2Ġ
Ġping2Ġ fang1
po4 Ġ
jun1 Ġ
Ġdi4Ġ yi1Ġ
Ġ qian2Ġ
11 Ġyue4Ġ
qun2 Ġ
qu4 Ġ
jiang4 Ġ
tao2 Ġ
Ġshi4Ġ ji4Ġ
Ġping2Ġfang1 Ġgong1Ġli3Ġ
Ġtong2 Ġshi2Ġ
dan1 Ġren4Ġ
gen1 Ġ
Ġ ma3Ġ
Ġ ru2Ġ
Ġ deng3Ġ
ji3 Ġ
bie2 Ġ
pai4 Ġ
du1 Ġ
liang2 Ġ
shao3 Ġ
hui1 Ġ
tie3 Ġ
nong2 Ġ
Ġnian2Ġ 1Ġyue4Ġ
ta3 Ġ
dian4Ġ ying3Ġ
zong1 Ġ
chu3 Ġ
Ġ qi1Ġ
Ġ zhe4
si3 Ġ
Ġ tian1Ġ
er3 Ġ
ĠdeĠ shi2Ġ
shuang1 Ġ
qiao2 Ġ
tai2Ġwan1 Ġ
Ġ sui4
gen1 Ġju4Ġ
li4Ġ shi3Ġ
chu2 Ġ
Ġshi4Ġ zhen4Ġ
gao4 Ġ
bai4 Ġ
can1 Ġjia1Ġ
yun4Ġ dong4
gang1 Ġ
che1 Ġzhan4Ġ
guo2 ĠdeĠ
jiao3 Ġ
Ġyin1 Ġwei4Ġ
Ġri4Ġ ben3Ġ
Ġping2Ġ fang1Ġ
li4 ĠdeĠ
Ġnian2 ĠdeĠ
gai4 Ġ
pan4 Ġ
Ġ wen2Ġ
Ġ hai3Ġ
zheng4Ġ fu3Ġ
bing4 Ġ
zhun3 Ġ
Ġnian2Ġ 12Ġyue4Ġ
wa3 Ġ
yan4 Ġ
wo3 Ġ
Ġ fu2Ġ
gong4 Ġhe2Ġguo2Ġ
Ġxian4 ĠdeĠ
ya2 Ġ
yin2 Ġ
fa1 Ġxian4Ġ
formula Ġ
chuang4 Ġ
hei1 Ġ
huan4 Ġ
qu1 ĠdeĠ
song4 Ġ
ha1 Ġ
hen3 Ġ
ti2 Ġgong1Ġ
Ġ suo3
jin4 Ġxing2Ġ
Ġ bei3Ġ
lei2 Ġ
2 Ġyue4Ġ
jing1 Ġji4Ġ
tong1Ġ guo4Ġ
Ġnian2Ġ 3Ġyue4Ġ
Ġ mei3
sui2 Ġ
chuan1 Ġ
Ġzhong1Ġ yang1
Ġguo2Ġ ji4Ġ
hua1 Ġ
6 Ġ
shang4 ĠdeĠ
Ġyou2 Ġyu2Ġ
Ġ you4Ġ
lei1 Ġ
wei3Ġyuan2Ġ hui4Ġ
qie3 Ġ
kao3 Ġ
Ġnian2Ġ 7Ġyue4Ġ
cheng1 Ġwei2Ġ
Ġnian2Ġ 10Ġyue4Ġ
deng1 Ġ
bai3 Ġ
Ġshi4Ġ jie4Ġ
Ġ ying1Ġ
Ġyin1Ġ ci3Ġ
ming2 Ġwei4Ġ
Ġjin4 Ġxing2Ġ
nuo4 Ġ
Ġshi4Ġ zai4Ġ
chong1 Ġ
zhu3 Ġyi4Ġ
wan2 Ġ
Ġran2 Ġ
Ġnian2Ġ 9Ġyue4Ġ
kuai4 Ġ
tu3 Ġ
Ġzhi1 Ġhou4Ġ
yan2Ġjiu1 Ġ
qiu2 Ġ
Ġta1Ġmen Ġ
mai4 Ġ
shi2 ĠdeĠ
lian4 Ġ
hao4 Ġ
Ġnian2Ġ 5Ġyue4Ġ
sa4 Ġ
lu2 Ġ
xi4Ġ tong3Ġ
Ġ zui4Ġ
pei4 Ġ
lu3 Ġ
Ġnian2Ġ 4Ġyue4Ġ
chi3 Ġ
liao4 Ġ
Ġdang1 Ġ
Ġnian2Ġ 8Ġyue4Ġ
Ġ lian2Ġ
Ġnian2Ġ 6Ġyue4Ġ
Ġxing2 ĠdeĠ
zeng1 Ġ
ren2 ĠdeĠ
Ġ shi3Ġ
xiang1Ġ gang3Ġ
qi1Ġ jian1Ġ
xuan1 Ġ
en1 Ġ
de2 Ġ
kuang4 Ġ
guan3 Ġli3Ġ
Ġgong1Ġ zuo4Ġ
piao4 Ġ
Ġzhi1 Ġyi1Ġ
xu3 Ġ
di1 Ġ
heng2 Ġ
da4 ĠdeĠ
bu3 Ġ
yang4 Ġ
Ġzhong1Ġ xin1Ġ
xuan1 Ġbu4Ġ
sen1 Ġ
tui1 Ġ
Ġnian2Ġ 11Ġyue4Ġ
zu3 Ġzhi1Ġ
ri4 Ġ
wang4 Ġ
bu4 ĠdeĠ
pi2 Ġ
men Ġ
Ġ bao1Ġkuo4Ġ
chang4 Ġ
ying3Ġ xiang3Ġ
yang3 Ġ
Ġta1 Ġzai4Ġ
qian1 Ġmi3Ġ
sai1 Ġ
er2 Ġ
ĠĠĠ sheng1Ġ
Ġhuo4 Ġde2Ġ
pi1 Ġ
Ġshi4Ġ jie4
Ġwan4 Ġ
luo2 Ġsi1Ġ
he4 Ġ
ke3Ġ neng2
cheng2 ĠdeĠ
Ġ gai1
Ġ qing1Ġ
nian4 Ġ
dun4 Ġ
xian2 Ġ
s Ġ
lou2 Ġ
qi2 Ġta1Ġ
Ġnian2Ġ 2Ġyue4Ġ
bang1 Ġ
Ġcheng2Ġ li4Ġ
le Ġyi1Ġ
huo2Ġ dong4Ġ
Ġren4Ġ wei2Ġ
liu4 Ġ
Ġ lai2Ġ
you1 Ġ
Ġ bi3Ġ
Ġ shu4Ġ
ke1 Ġxue2Ġ
Ġ fen1
fa1Ġ zhan3Ġ
huo4 Ġde2Ġ
jun4 Ġ
Ġ luo2Ġ
Ġzuo4Ġ wei2Ġ
ya1 Ġ
Ġping2Ġfang1Ġ qian1Ġmi3Ġ
Ġ a1Ġ
hua2 Ġren2Ġmin2Ġ
Ġ wu2Ġ
ri4 Ġben3Ġ
bei1 Ġ
lao3 Ġ
hui4 Ġyi4Ġ
re4 Ġ
Ġ zhi2
ku4 Ġ
tan2 Ġ
jian1 ĠdeĠ
tie3 Ġlu4Ġ
Ġ liu2Ġ
ĠdeĠ ren2Ġ
yong4 Ġyu2Ġ
liao2 Ġ
ning2 Ġ
Ġshi2Ġ jian1Ġ
ĠdeĠ gong1Ġ
ge4 Ġ
Ġ shan1Ġ
Ġ zhang1Ġ
mian3 Ġ
mian4Ġ ji1
Ġ yan2Ġ
min2 Ġguo2Ġ
rui4 Ġ
wu1 Ġke4Ġ
yin4 Ġ
xian3 Ġ
le4 Ġ
zuo3 Ġ
gong4 Ġyou3Ġ
ĠĠĠ li4Ġshi3Ġ
hao3 Ġ
ĠĠĠsheng1Ġ ping2Ġ
hua2Ġren2Ġmin2Ġ gong4Ġhe2Ġguo2Ġ
fang1 Ġshi4Ġ
fa1Ġ sheng1Ġ
gan1 Ġ
Ġ cong2Ġ
dou4 Ġ
wen4Ġ ti2Ġ
Ġ zhi2Ġ
guan4 Ġjun1Ġ
zhu3Ġ yao4Ġ
ran2 Ġ
di4 ĠdeĠ
Ġdi4Ġ er4Ġ
dao3 Ġzhi4Ġ
guan1Ġ xi4Ġ
cun2 Ġ
Ġ xiao3Ġ
kang1 Ġ
can1 Ġyu4Ġ
yuan3 Ġ
Ġbu4Ġ fen4
Ġ jin3Ġ
zheng3 Ġ
Ġgong1Ġ cheng2Ġ
wan2 Ġcheng2Ġ
dan1 Ġwei4Ġ
ke3Ġ neng2Ġ
Ġ wu3Ġ
yi1 Ġwei4Ġ
Ġ zhi3Ġ
7 Ġ
1 Ġri4Ġ
xie4 Ġ
ge Ġ
Ġ ze2Ġ
suo3 Ġyou3Ġ
zhi4 ĠdeĠ
wen2Ġ hua4Ġ
Ġ zong3Ġ
Ġcheng2Ġ yuan2Ġ
ĠdeĠ cheng2Ġ
gei3 Ġ
lv3 Ġ
Ġ ba1Ġ
yuan2 ĠdeĠ
yong1 Ġyou3Ġ
cun2 Ġzai4Ġ
er4 Ġshi2Ġ
Ġ tong1Ġ
bei3 Ġbu4Ġ
lian2 Ġhe2Ġ
hou4 ĠdeĠ
niu3 Ġ
s ĠĠĠ
Ġshi4Ġ zhong1Ġ
zheng4Ġ fu3
you2 Ġyu2Ġ
guo2Ġ jia1Ġ
dui4 Ġyu2Ġ
Ġnian2Ġ zhi4Ġ
fa1 Ġxing2Ġ
yi4 ĠdeĠ
Ġ 18
ju4 Ġyou3Ġ
Ġjian4Ġ zhu4Ġ
bi3Ġ sai4Ġ
Ġbing4 Ġzai4Ġ
Ġ zhi3
Ġdao4Ġ leĠ
ou1 Ġ
xin1 ĠdeĠ
si1 ĠdeĠ
shen3 Ġ
yun2 Ġ
zi4Ġ ji3
yun4Ġ dong4Ġ
xing2 Ġzheng4Ġ
yin4 Ġdu4Ġ
e2Ġ luo2Ġsi1Ġ
bin1 Ġ
Ġ mian4Ġji1Ġ
dai4Ġ biao3Ġ
shao4 Ġ
Ġ mei3Ġguo2Ġ
Ġ ling4Ġ
xu3 Ġduo1Ġ
Ġdan4 Ġshi4Ġ
ren4 Ġhe2Ġ
sheng1 Ġyu2Ġ
tu1 Ġ
gui4 Ġ
Ġ 15
Ġ jian3Ġ
Ġnian2Ġ dai4Ġ
ding1 Ġ
8 Ġ
liang3 Ġge4Ġ
che4 Ġ
bao3Ġ hu4Ġ
Ġren2Ġkou3Ġ mi4Ġ
Ġ shi3
xiu4 Ġ
man3 Ġ
zh Ġ
e4 Ġ
xuan2 Ġ
Ġdang1 Ġshi2Ġ
zhang4 Ġ
ĠdeĠ yi2Ġge4Ġ
nan2 Ġbu4Ġ
ju3 Ġxing2Ġ
zhuan1 Ġji2Ġ
mian4Ġji1 Ġwei4Ġ
Ġ xi4Ġ
Ġ dian4Ġ
lai2 ĠdeĠ
ai1 Ġ
fan1 Ġ
Ġ guan1Ġ
zao3 Ġ
Ġzheng4Ġ fu3Ġ
du2 Ġli4Ġ
fu2Ġ wu4Ġ
jue2Ġ ding4Ġ
xie3 Ġ
Ġchu1 ĠdeĠ
ruo4 Ġ
zhu3Ġ yao4
Ġ C
kai1Ġ shi3
Ġli4Ġ shi3Ġ
qing3 Ġ
Ġ ceng2Ġ
Ġshe4 Ġji4Ġ
Ġ san1Ġ
rang4 Ġ
ming2 ĠdeĠ
Ġ wang2Ġ
Ġ mei3Ġ
hai4 Ġ
Ġshi4Ġwei4Ġ yu2Ġ
jiu4 Ġshi4Ġ
Ġyou3Ġ yi1Ġ
geng1 Ġ
gt Ġ
Ġ ci3
Ġ gtĠ
xi3 Ġ
Ġ jiang1
tan4 Ġ
Ġqi2 Ġta1Ġ
Ġxing2Ġ zheng4Ġ
Ġ fa3Ġ
Ġ A
pei2 Ġ
jiao4Ġ yu4Ġ
shou4 Ġdao4Ġ
lt Ġ
Ġ feng1Ġ
ren4Ġ wei2Ġ
fang3 Ġ
Ġshi4Ġ di4Ġ
fa1Ġ zhan3
wan3 Ġ
kan1 Ġ
she4 Ġhui4Ġ
Ġ ltĠ
shan4 Ġ
Ġ 16
yi4 Ġwei4Ġ
gu4 Ġshi4Ġ
pian1 Ġ
fang1Ġ mian4Ġ
Ġxian4 Ġzai4Ġ
Ġ jie1Ġ
qu1 Ġwei4Ġ
Ġzui4 Ġzhong1Ġ
qin2 Ġ
Ġ bi4Ġ
Ġzhong1Ġyang1 Ġ
Ġshi4Ġ shi4Ġ
tui4 Ġ
pao4 Ġ
zhe Ġ
nei4 ĠdeĠ
Ġ jiu4Ġ
shu3 ĠdeĠ
xiang1Ġ gang3
xiao3 Ġshi2Ġ
dan4 Ġ
Ġli4Ġ ru2Ġ
zu2 Ġqiu2Ġ
shu4Ġ ju4Ġ
Ġbu4Ġ tong2
lie4Ġ che1Ġ
xu1Ġ yao4Ġ
hua4 ĠdeĠ
zhi2Ġ wu4Ġ
qiang1 Ġ
Ġ sui1
ren2 Ġshi4Ġ
zuo4 ĠdeĠ
shi3Ġ yong4
zeng1 Ġjia1Ġ
Ġji4Ġ hua4Ġ
Ġ qu1Ġ
min2Ġ zhu3Ġ
Ġshi2Ġ qi1Ġ
Ġ dong4Ġ
zuo4Ġ wei2Ġ
Ġ gu3Ġ
kong4 Ġzhi4Ġ
Ġye3 Ġshi4Ġ
duan3 Ġ
tan3 Ġ
Ġjian4 ĠdeĠ
yin1 Ġyue4Ġ
Ġran2 Ġer2Ġ
Ġ an1Ġ
lang2 Ġ
Ġyi3Ġ jing1Ġ
Ġ shu3Ġyu2Ġ
Ġhe2Ġ zuo4Ġ
Ġzai4Ġ di4Ġ
ren2Ġ min2Ġ
Ġshi4Ġ jian4Ġ
Ġren2Ġ yuan2Ġ
Ġ you4
ta1 ĠdeĠ
Ġjian4 Ġyu2Ġ
xue2Ġ yuan4Ġ
Ġ ceng2
zu3 Ġcheng2Ġ
chao1 Ġguo4Ġ
zuo4Ġ pin3Ġ
Ġ ma3
Ġ ge2Ġ
Ġyin1 Ġyue4Ġ
mao4 Ġ
Ġ ke1Ġ
Ġquan2 Ġguo2Ġ
xiong2 Ġ
zai3 Ġ
Ġ S
hu1 Ġ
hui4 ĠdeĠ
ji4 ĠdeĠ
zong3Ġ tong3Ġ
Ġ si4Ġ
suan4 Ġ
Ġzhe4Ġ xie1Ġ
Ġwei4Ġ leĠ
Ġhou4Ġ lai2Ġ
yu2 Ġshi4Ġ
ĠĠĠ S
Ġ pu3Ġ
Ġ zhang3Ġ
Ġ shou4Ġ
10 Ġ
Ġcheng2Ġ gong1Ġ
Ġ tai4Ġ
fa1 Ġbu4Ġ
da4Ġ li4Ġ
ti2 Ġchu1Ġ
Ġli4Ġ ya4Ġ
Ġ 000
Ġyi4Ġ yuan2Ġ
Ġshe4 Ġyou3Ġ
Ġyin1Ġ ci3
yun4Ġdong4 Ġyuan2Ġ
yao1 Ġqiu2Ġ
han2 Ġguo2Ġ
bu4 Ġzai4Ġ
ni2Ġ ya4
you3 ĠdeĠ
pin2 Ġ
ĠĠĠ deĠ
pu2 Ġ
zao4 Ġcheng2Ġ
Ġ 17
ou1 Ġzhou1Ġ
qiu1 Ġ
cai3Ġ yong4Ġ
xiao3 Ġxing2Ġ
Ġgong1Ġ yuan2Ġ
jia1 ĠdeĠ
xing4 ĠdeĠ
sheng1 ĠdeĠ
9 Ġ
ĠdeĠ yi2Ġge4
Ġri4 Ġzai4Ġ
dang1 Ġshi2Ġ
ba3 Ġ
kong4 Ġ
ren2Ġ wu4Ġ
feng4 Ġ
Ġci3Ġ wai4Ġ
Ġ sui2
gong4Ġ chan3Ġ
Ġ la1Ġ
Ġ zhĠ
kan4 Ġ
Ġ cong2
Ġ wo3Ġ
wan1 Ġ
Ġshi4Ġ he2Ġ
2010 Ġnian2Ġ
Ġ ling4
Ġ sha1Ġ
Ġ gen1Ġju4Ġ
ĠdeĠ bu4Ġ
ma3 Ġwei4Ġ
xue2Ġ jia1Ġ
you2Ġ xi4Ġ
Ġ B
Ġ nv3Ġ
Ġ ti3Ġ
song1 Ġ
fan4 Ġwei2Ġ
Ġbu4Ġ tong2Ġ
kai1Ġ fa1Ġ
dun1 Ġ
she4 Ġji4Ġ
mao2 Ġ
san1 Ġnian2Ġ
chao1 Ġ
qu3 Ġde2Ġ
Ġ ke3Ġ
ĠdeĠ ji1Ġ
sai4 Ġshi4Ġ
xiong1 Ġ
Ġxing2 Ġcheng2Ġ
ĠĠĠdi4Ġ li3Ġ
ĠĠĠ shi4Ġ
Ġ yi2Ġ
zi4 Ġzhi4Ġ
chan3 Ġsheng1Ġ
Ġ wu4Ġ
ĠĠĠ A
a1 Ġer3Ġ
Ġsui4 Ġ
yao2 Ġ
ding3 Ġ
wen1 Ġ
ĠdeĠ ji4Ġ
jie2Ġ mu4Ġ
shu1 Ġji4Ġ
Ġbing4 Ġyu2Ġ
Ġ 0
dou1 Ġshi4Ġ
ni3 Ġ
chong2 Ġxin1Ġ
xi4Ġ tong3
ĠĠĠ C
zan4 Ġ
lve4 Ġ
Ġshe4 Ġhui4Ġ
zhong4Ġ yao4
Ġ liang3Ġ
chun1 Ġ
li3 ĠdeĠ
bu2 Ġshi4Ġ
Ġdai4Ġ biao3Ġ
yi1 Ġnian2Ġ
Ġxiang1Ġ gang3Ġ
dian4Ġ ying3
Ġsi1Ġ te4Ġ
guan1 Ġyu2Ġ
zhui1 Ġ
dang4 Ġ
Ġ na4Ġ
jue2Ġ se4Ġ
Ġ fu2
jiao1Ġ tong1Ġ
lang3 Ġ
Ġyou2Ġ xi4Ġ
da4Ġ xue2Ġ
ji2 ĠdeĠ
mi2 Ġ
ge1Ġ qu3Ġ
chu2 ĠleĠ
Ġchu1 Ġxian4Ġ
2020 Ġnian2Ġ
tao3 Ġ
Ġ jie2
Ġzhi4Ġ zuo4Ġ
Ġda4Ġ xue2
ping2 Ġjun1Ġ
Ġde2 Ġguo2Ġ
xian3 Ġshi4Ġ
Ġ chen2Ġ
hua2Ġ min2Ġguo2Ġ
Ġ shen1Ġ
Ġnian2Ġ zai4Ġ
Ġzhong1Ġ hua2Ġren2Ġmin2Ġgong4Ġhe2Ġguo2Ġ
kuo4 Ġ
kong3 Ġ
Ġ P
hou4 Ġzai4Ġ
miao2 Ġ
Ġnian2Ġ dai4
Ġ jian1Ġ
Ġ liang3
er4 Ġnian2Ġ
xia4 ĠdeĠ
yan3 Ġyuan2Ġ
Ġke4 Ġsi1Ġ
de2 Ġguo2Ġ
xiang2 Ġ
Ġ 1Ġ
wei2 Ġyi1Ġ
qing4 Ġ
cao3 Ġ
Ġ bao3Ġ
dang1 Ġdi4Ġ
guo2Ġ ji4Ġ
dui4 ĠdeĠ
bo2Ġ wu4Ġ
hun1 Ġ
Ġjian4 Ġli4Ġ
Ġdi4Ġ guo2Ġ
Ġ fei1Ġ
Ġbu4Ġ yu2Ġ
fan3 Ġdui4Ġ
qi1 ĠdeĠ
duan1 Ġ
wu4 ĠdeĠ
zou3 Ġ
xue4 Ġ
yin1 Ġwei4Ġ
qu1Ġ yu4Ġ
qu4 Ġshi4Ġ
Ġ 1
yi1 Ġbu4Ġfen4Ġ
ba2 Ġgao1Ġ
wo4 Ġ
que1 Ġ
Ġ chang2Ġ
2001 Ġnian2Ġ
guan3Ġ xia2Ġ
du4 Ġwei4Ġ
zheng4Ġzhi4Ġ ren2Ġwu4Ġ
kuan3 Ġ
ĠĠĠ P
ni2Ġ ya4Ġ
Ġ ka3Ġ
hai2 Ġyou3Ġ
peng2 Ġ
ĠĠĠ ren2Ġkou3Ġ
Ġdang1 Ġdi4Ġ
zui4 Ġzhong1Ġ
Ġ ãĤ
Ġ 2
Ġta1 Ġshi4Ġ
chi4 Ġ
Ġbu4Ġ dui4Ġ
lai2Ġ zi4Ġ
Ġ yue1Ġ
Ġ D
Ġ dan1Ġ
bi3Ġ sai4
Ġxing2 Ġshi4Ġ
zhi2Ġ ye4Ġ
qian2Ġ wang3Ġ
ding4 ĠdeĠ
Ġ wei1Ġ
Ġ fa1Ġ
quan2 Ġguo2Ġ
ba1 Ġshi4Ġ
yi1 Ġbu4Ġ
ĠdeĠ yuan2Ġ
Ġzheng4Ġ fu3
zhong4Ġ yao4Ġ
Ġ T
diao4Ġ cha2Ġ
Ġ chu2Ġ
Ġ lin2Ġ
Ġzhi1Ġ jian1Ġ
bian1Ġ ma3Ġwei4Ġ
Ġ huang2Ġ
Ġnian2Ġ jian1Ġ
Ġxue2Ġ ming2Ġ
Ġ 14
xue2Ġ xiao4Ġ
zhao1 Ġ
zhu3Ġ xi2Ġ
xuan3Ġ ju3Ġ
Ġri4 Ġzhi4Ġ
gai3 Ġwei2Ġ
zu3 Ġzhi1
Ġ nei4Ġ
zhu3Ġ jiao4Ġ
ĠĠĠ B
fa2 Ġ
zi1Ġ liao4Ġ
hai3 Ġjun1Ġ
Ġ jing4Ġ
gong1 Ġshi4Ġ
Ġjun1 Ġshi4Ġ
ĠdeĠ da4Ġ
Ġren2Ġkou3Ġmi4Ġ du4Ġ
chu3 Ġli3Ġ
sun1 Ġ
zai1 Ġ
ĠdeĠ yi4Ġ
kang4 Ġ
fang1Ġ fa3Ġ
Ġ duo1
Ġ ãģ
fu4Ġ ze2Ġ
Ġri4Ġ ben3
wu1Ġke4Ġ lan2Ġ
ĠĠĠ yu3Ġ
Ġ bo1Ġ
guan4 Ġ
shu4 ĠdeĠ
Ġyou3Ġ xian4
dai4Ġ biao3
Ġge4 Ġren2Ġ
Ġ san1
wu2Ġ fa3Ġ
ying3Ġ xiang3
Ġji4Ġ shu4Ġ
Ġ sheng4Ġ
Ġshi4Ġ you2Ġ
jie1Ġ rang3
zui4Ġ gao1Ġ
ju1Ġ min2Ġ
Ġ mei2Ġ
Ġ hua4Ġ
Ġ kai1Ġ
pa4 Ġ
xi4Ġ lie4Ġ
qi2 Ġzhong1Ġ
Ġ gai3Ġ
lu4 ĠdeĠ
Ġ jie4Ġ
Ġ hong2Ġ
Ġ 2Ġ
xue2Ġ sheng1Ġ
Ġzhi1Ġ chi2Ġ
zi4Ġ you2Ġ
wen3 Ġ
biao1Ġ zhun3Ġ
Ġ ze2
xie2 Ġhui4Ġ
shu4Ġ liang4
an1 Ġquan2Ġ
fan3Ġ ying4Ġ
ke3 Ġyi3
qie4 Ġ
hui4 Ġzai4Ġ
yao1 Ġ
ken3 Ġ
shen4 Ġzhi4Ġ
bi3 Ġli4Ġ
ye2 Ġ
tong3 Ġzhi4Ġ
lian2Ġ meng2Ġ
chuang4 Ġzuo4Ġ
zhu3Ġ ren4Ġ
Ġ sui2Ġ
ĠĠĠ ben3Ġ
Ġ xin1
Ġ M
dong1 Ġbu4Ġ
ĠdeĠyi2Ġge4 Ġshi4Ġzhen4Ġ
Ġ ãĥ
Ġshi4Ġ yi2Ġge4Ġ
Ġ nan2
Ġgong1Ġ si1
gai1 Ġguo2Ġ
Ġfu4Ġ ze2Ġ
kai3 Ġ
fan2 Ġ
ya3 Ġ
Ġdi4Ġ san1Ġ
Ġ qi3Ġ
ti3Ġ yu4Ġ
Ġdi4Ġ shi2Ġ
Ġ 12
ĠĠĠ xing2Ġzheng4Ġ
jie2Ġ gou4Ġ
Ġ su1Ġ
Ġbu4Ġ guo4Ġ
Ġ 3
Ġdao4 ĠdeĠ
shi2 Ġnian2Ġ
niu2 Ġ
qing2Ġ kuang4Ġ
neng2 Ġli4Ġ
mou3 Ġ
nan2Ġ ziĠ
zhong1 Ġshi4Ġ
qing2Ġ kuang4
suo1 Ġ
si4 Ġnian2Ġ
xi1 Ġbu4Ġ
gong1 Ġbu4Ġ
sheng1Ġ huo2Ġ
jie1Ġ shou4Ġ
Ġ ge1Ġ
Ġ shui3Ġ
nv3Ġ zi3Ġ
Ġ ao4
lu4 Ġxian4Ġ
cheng2Ġ li4Ġ
Ġ yang2Ġ
Ġzhong1Ġ xue2Ġ
ĠĠĠ formulaĠ
gu1 Ġ
wan4 Ġ
mian4 ĠdeĠ
huan1 Ġ
Ġjin4Ġ ru4Ġ
A Ġ
yi4 Ġshi4Ġ
Ġer3 Ġsi1Ġ
Ġzhu3Ġ yao4Ġ
lian2Ġ sai4Ġ
bei3Ġ jing1Ġ
Ġ E
Ġ ba1
you3 Ġshi2Ġ
Ġ ao4Ġ
Ġyi4Ġ hui4Ġ
Ġ ming2
guang3Ġ dong1Ġ
Ġ ke3Ġyi3Ġ
duo2 Ġ
hao2 Ġ
ĠĠĠ jia1Ġ
lao2 Ġ
jian4 Ġzhu4Ġ
ĠĠĠ the
ya4 Ġzhou1Ġ
dao3 ĠdeĠ
Ġguo2Ġ min2Ġ
ye3 Ġshi4Ġ
Ġbing4Ġ qie3
ĠĠĠ G
Ġ tai2Ġ
na2 Ġda4Ġ
dong4Ġ wu4Ġ
tai4 Ġping2Ġ
Ġsuo3 Ġyi3Ġ
di4 Ġwei4Ġ
Ġzhe4 Ġshi4Ġ
ba2Ġgao1Ġ du4Ġ
da2 Ġdao4Ġ
zi4Ġji3 ĠdeĠ
li3 Ġshi4Ġ
zhu2 Ġjian4Ġ
zhuan4 Ġ
ran3 Ġ
dai4 ĠdeĠ
gui3 Ġ
ban3 Ġben3Ġ
xiang4Ġ mu4Ġ
xu3Ġ duo1
zhe3 ĠdeĠ
jiao4Ġ shou4Ġ
2008 Ġnian2Ġ
Ġ hai2Ġ
Ġxue2Ġ xiao4Ġ
Ġ da4
fei1Ġ chang2Ġ
wu1Ġke4Ġ lan2
2009 Ġnian2Ġ
Ġxi1Ġ ya4Ġ
qing1 Ġnian2Ġ
Ġ er4Ġ
Ġ zong3
Ġ hu2Ġ
Ġzhu3Ġ yao4
Ġ Ã
la1 Ġsi1Ġ
ĠĠĠ gen1Ġju4Ġ
yi1 Ġshi4Ġ
Ġcheng2Ġ wei2
ri4Ġ ben3
mo2 Ġshi4Ġ
zhe2 Ġ
niao3 Ġ
wen2Ġ wu4Ġ
Ġta1Ġmen ĠdeĠ
Ġ G
sui4 Ġ
Ġyi4Ġ shu4Ġ
Ġbing4Ġ qie3Ġ
Ġ mu3Ġ
zhi3 Ġyou3Ġ
cha1 Ġ
Ġ 4
Ġji4Ġ lu4Ġ
Ġ F
Ġ ai4Ġ
Ġzhou1 ĠdeĠ
ĠĠĠ T
hang2Ġ kong1Ġ
Ġ yu2Ġshi4Ġ
wen2Ġ xue2Ġ
fen1 Ġwei2Ġ
ĠĠĠ of
Ġ bo2Ġ
Ġ min2Ġ
Ġqi2 Ġshi4Ġ
Ġqi2 Ġyu2Ġ
suan1 Ġ
tong1Ġ guo4
deng3 Ġren2Ġ
zhi3 Ġchu1Ġ
hui3 Ġ
28 Ġri4Ġ
cang2 Ġ
cuo4 Ġ
shuai4 Ġ
ren2Ġkou3Ġ pu3Ġ
zhi2 Ġxing2Ġ
tong2 Ġshi2Ġ
hun4 Ġ
zha4 Ġ
zhi2Ġ jie1Ġ
Ġqiu2 Ġdui4Ġ
Ġli4Ġ ya4
yan3 Ġchu1Ġ
jin3Ġ biao1Ġ
a Ġ
Ġ jin1
gai1 Ġdi4Ġ
m Ġ
Ġ 13
ge2Ġ lan2Ġ
2016 Ġnian2Ġ
huo2Ġ dong4
zhe4 Ġyi1Ġ
ren4Ġ wei2
jin4Ġ ru4Ġ
Ġzhi1Ġ jian1ĠdeĠ
Ġgong1Ġ kai1Ġ
Ġdang1 Ġzhong1Ġ
gong4 Ġtong2Ġ
Ġ ci4Ġ
Ġ yong4Ġ
xia4 Ġji4Ġ
Ġdan4 Ġzai4Ġ
zhan4Ġ zheng1Ġ
wu3 Ġnian2Ġ
jiang1 Ġjun1Ġ
chou2 Ġ
ĠĠĠ F
le4 Ġbu4Ġ
mei2Ġ ti3Ġ
ti3 ĠdeĠ
ĠĠĠ M
che1Ġ zhan4
Ġ 5
tui1 Ġchu1Ġ
jiao4Ġ yu4
yun3 Ġ
zhe4Ġ xie1Ġ
meng4 Ġ
die2 Ġ
Ġshi4Ġ wu4Ġ
ti4 Ġ
po1 Ġ
miao4 Ġ
li2Ġ kai1Ġ
Ġling4Ġ wai4Ġ
Ġ 6
huan2Ġ jing4Ġ
2012 Ġnian2Ġ
lin2Ġ pi3
teng2 Ġ
Ġdi4Ġ er4
shang1Ġ ye4Ġ
zhu2 Ġ
2011 Ġnian2Ġ
chuan2Ġ tong3Ġ
ĠĠĠ nian2
15 Ġri4Ġ
guan1 ĠdeĠ
dan1Ġ qu1Ġ
Ġ yin3Ġ
san1 Ġshi2Ġ
jun1 Ġshi4Ġ
liang4 ĠdeĠ
jie1 Ġdao4Ġ
san4 Ġ
Ġzhe4Ġ geĠ
ji1 ĠdeĠ
qian2 ĠdeĠ
ren2 Ġzai4Ġ
nei4Ġ rong2Ġ
zang4 Ġ
dong4Ġ hua4Ġ
sai4 Ġji4Ġ
gao1 ĠdeĠ
bo2 Ġshi4Ġ
du4 ĠdeĠ
me Ġ
Ġwei4Ġ ren2Ġ
yin2Ġ hang2Ġ
xuan3Ġ ju3
Ġwei4Ġ zhi4Ġ
cheng2 Ġzhong1Ġ
ming4 Ġming2Ġ
deng3 Ġdi4Ġ
Ġgong1Ġ lu4Ġ
Ġ gu4Ġ
sun3 Ġ
re4 Ġdai4Ġ
bei3Ġ jing1
Ġshi2Ġ ji4Ġ
yun4Ġdong4 Ġhui4Ġ
xuan3Ġ ze2Ġ
Ġda4Ġ li4Ġ
Ġer2 Ġzai4Ġ
yuan2 Ġnian2Ġ
Ġ han4Ġ
bao4Ġ gao4Ġ
Ġmu4Ġ qian2Ġ
ĠdeĠ he2Ġ
Ġ wu2
bo1 Ġchu1Ġ
bang3 Ġ
zui4 Ġjia1Ġ
ĠĠĠ ju4Ġ
zong1 Ġjiao4Ġ
xue2 Ġwei4Ġ
tu3 Ġdi4Ġ
Ġde2 Ġdao4Ġ
zui4 Ġhou4Ġ
wen2Ġ hua4
tuan2Ġ ti3Ġ
25 Ġri4Ġ
Ġ H
e Ġ
Ġdi4Ġ fang1Ġ
gui3 Ġdao4Ġ
luan4 Ġ
Ġwei4Ġ di4Ġ
jing1 Ġli4Ġ
xi4 ĠdeĠ
Ġzhi1Ġ qian2Ġ
Ġ 5Ġ
sheng3 ĠdeĠyi2Ġge4Ġshi4Ġzhen4Ġ
Ġ zhan4
Ġ ye4Ġ
Ġshi4Ġyi1Ġ zhong3Ġ
Ġshi4Ġwei4Ġyu2Ġ mei3Ġguo2Ġ
Ġ mo2Ġ
ĠĠĠ H
Ġ qi4Ġ
ji2 Ġzhong1Ġ
Ġge4 Ġyue4Ġ
Ġjun1 ĠdeĠ
si3Ġ wang2Ġ
xiang1Ġ guan1Ġ
30 Ġri4Ġ
fen1Ġ bie2
Ġ bao1Ġkuo4
Ġji1Ġ gou4Ġ
Ġ mi3
wei4 ĠdeĠ
shou3Ġ ci4Ġ
Ġ xing4Ġ
ao4Ġ lin2Ġpi3
ling3Ġ dao3Ġ
Ġyou3Ġ guan1Ġ
Ġhai3Ġ ba2Ġgao1Ġdu4Ġ
Ġyi1Ġ xie1Ġ
Ġtong2 Ġnian2Ġ
huai2 Ġ
2014 Ġnian2Ġ
yong4 ĠdeĠ
ĠĠĠ wei4Ġ
Ġ jue2Ġ
20 Ġri4Ġ
Ġxing2Ġ dong4Ġ
Ġzai4Ġ yi1Ġ
ji1 Ġyu2Ġ
xue3 Ġ
Ġ zhong4Ġ
Ġzhong1Ġ hua2Ġmin2Ġguo2Ġ
shui3 Ġyu4Ġ
11 Ġ
10 Ġri4Ġ
bian4Ġ hua4Ġ
shang4 Ġwei4Ġ
Ġji2Ġ tuan2
2018 Ġnian2Ġ
Ġji4Ġ xu4Ġ
zhi1 Ġyi1Ġ
Ġshi2Ġ dai4Ġ
chu3 Ġyu2Ġ
UTC Ġ
gong4 Ġhe2Ġ
Ġbu4Ġ zhang3Ġ
zi4Ġ ji3Ġ
jie2Ġ shu4Ġ
2019 Ġnian2Ġ
Ġzi4Ġ ji3
zhi1Ġ chi2Ġ
2005 Ġnian2Ġ
guo4 Ġcheng2Ġ
Ġhou4Ġ lai2
Ġ bai2Ġ
Ġ wai4Ġ
shun4 Ġ
min2Ġ zu2Ġ
2015 Ġnian2Ġ
kong1Ġ jian1Ġ
Ġ 8
shui4 Ġ
bu2 Ġhui4Ġ
ye4 Ġyu2Ġ
Ġ ziĠ
Ġ ru2
tou4 Ġguo4Ġ
nei4 Ġbu4Ġ
mei4 Ġ
2013 Ġnian2Ġ
Ġ cheng1Ġ
jie3Ġ fang4
Ġ 7
Ġzhi2 Ġdao4Ġ
Ġyi4Ġ zhi2Ġ
Ġ si4
xin1Ġ wen2Ġ
fen1 Ġbu4Ġ
Ġ jing3Ġ
gen1Ġ ju4
Ġzhou1 Ġshi4Ġ
pi1 Ġping2Ġ
ĠĠĠthe ĠĠĠ
Ġji2Ġ tuan2Ġ
2007 Ġnian2Ġ
Ġ ai4
di4Ġ qu1Ġ
Ġ jiu4
ĠĠĠ zhe4Ġ
ta1Ġ men
Ġ shu3Ġ
Ġhe2Ġ nan2Ġ
Ġshi4Ġ shi2Ġ
Ġyou3Ġxian4 Ġgong1Ġsi1Ġ
wan2 Ġjia1Ġ
gui1Ġ ding4Ġ
20 Ġ
ge2Ġ ming4Ġ
Ġjia1Ġ ru4Ġ
wan2 Ġquan2Ġ
Ġ shen2Ġ
cheng2Ġ wei2Ġ
Ġ tang2Ġ
xi1Ġ ban1Ġ
Ġ Ð
zi1Ġ ge2Ġ
t Ġ
26 Ġri4Ġ
da4Ġ lu4Ġ
ĠĠĠ gai1Ġ
2017 Ġnian2Ġ
ao4Ġlin2Ġpi3 Ġke4Ġ
Ġda4Ġ hui4Ġ
24 Ġri4Ġ
kuan1 Ġ
Ġ K
zai4 ĠdeĠ
za2 Ġzhi4Ġ
Ġ mo4Ġ
Ġzhe4Ġ zhong3Ġ
ying1 Ġyu3Ġ
pu2Ġ tao2Ġ
lu4 Ġdi4Ġ
ĠĠĠ yi1Ġ
he2 ĠdeĠ
shang4Ġ hai3Ġ
Ġ ying1Ġguo2Ġ
hao2 Ġmi3Ġ
Ġyu3Ġ yan2Ġ
qi3Ġ ye4Ġ
qi2 Ġta1
fang1 ĠdeĠ
Ġ 3Ġ
hou4 Ġyi1Ġ
luo2Ġ ma3Ġ
d ĠĠĠ
wen4Ġ ti2
Ġ ke3
san1 Ġge4Ġ
Ġcheng2Ġ qu1Ġ
se4 ĠdeĠ
2006 Ġnian2Ġ
chuan2Ġ tong3
Ġshi4Ġ fa3Ġguo2Ġ
yi1 ĠdeĠ
18 Ġri4Ġ
Ġ tou2Ġ
wu4Ġ zhong3Ġ
Ġ N
Ġwei4Ġyu2Ġ gai1Ġguo2Ġ
Ġli3Ġ si1Ġ
jing4Ġ nei4Ġ
Ġ tai2Ġwan1Ġ
Ġ ha1Ġ
Ġbu4Ġtong2 ĠdeĠ
Ġ 9
wu4 Ġli3Ġ
Ġ mo4
duo1 ĠdeĠ
shu4 Ġwei4Ġ
Ġdai4Ġ biao3
biao3 Ġxian4Ġ
ĠĠĠ D
Ġshi4Ġjie4 Ġda4Ġ
Ġ yao4Ġ
sheng3 Ġji2Ġ
fa3Ġ lv4Ġ
miao2 Ġshu4Ġ
guan1 Ġyuan2Ġ
gan4 Ġ
jing1Ġ guo4Ġ
Ġ lu2Ġ
ba4 Ġ
chang1 Ġ
Ġzui4 Ġhou4Ġ
Ġyi4Ġ ban1Ġ
po4Ġ huai4
Ġ a1
Ġguo2Ġ jia1
ying2 Ġde2Ġ
Ġsui2 Ġhou4Ġ
cai4 Ġ
zheng4 Ġzai4Ġ
bao1Ġ han2Ġ
y Ġ
Ġshi4Ġ jian4
bo2Ġwu4Ġ guan3Ġ
Ġgong1Ġ ji1Ġ
shen4 Ġ
a ĠĠĠ
ce4 Ġshi4Ġ
chang3 ĠdeĠ
21 Ġ
Ġwei4Ġ zhong1Ġ
Ġli4Ġ yong4Ġ
bu4 Ġhe2Ġ
na2 Ġ
ze2 Ġshi4Ġ
Ġ chao2Ġ
nie4 Ġ
fei1 Ġji1Ġ
Ġfen1 Ġbu4Ġyu2Ġ
chun2 Ġ
zhuan1Ġ ye4Ġ
shi3 ĠdeĠ
zheng1 Ġyi4Ġ
27 Ġri4Ġ
16 Ġri4Ġ
fa3Ġ yuan4Ġ
Ġsui1 Ġran2
Ġ 2001Ġnian2Ġ
Ġdi4Ġ qu1
21 Ġri4Ġ
yi4 Ġshi2Ġ
yong1 Ġ
17 Ġri4Ġ
zao1 Ġdao4Ġ
Ġshi4Ġ yi4Ġ
Ġsheng1Ġ huo2Ġ
12 Ġri4Ġ
Ġbei4Ġ cheng1Ġwei2Ġ
Ġ chong2Ġ
ding4 Ġyi4Ġ
Ġzhong1Ġ xin1
Ġda4Ġ qu1Ġ
8 Ġri4Ġ
zong1 Ġhe2Ġ
Ġzhan4Ġ zheng1Ġ
xue2 ĠdeĠ
Ġxian4 Ġshi2Ġ
Ġzhong1Ġ gong4
19 Ġri4Ġ
sou1 Ġ
ji2 Ġwei4Ġ
Ġ L
23 Ġri4Ġ
2021 Ġnian2Ġ
huang2 Ġdi4Ġ
ĠdeĠ zuo4Ġ
zhi3 Ġshi4Ġ
2022 Ġnian2Ġ
a1Ġ la1Ġ
11 Ġri4Ġ
Ġ zhu1Ġ
ou1 Ġzhou1
jiang1 Ġqi2Ġ
Ġbing4 Ġbu4Ġ
yuan2 Ġyu2Ġ
fang1Ġ xiang4Ġ
liu4 Ġnian2Ġ
zhan4 ĠdeĠ
e2Ġ luo2Ġ
ĠĠĠ yu2Ġ
chu1 Ġxian4Ġ
quan2 Ġli4Ġ
nao3 Ġ
lie4Ġ che1
gui1Ġ mo2Ġ
22 Ġri4Ġ
7 Ġri4Ġ
29 Ġri4Ġ
lie4 ĠdeĠ
zui4Ġ da4ĠdeĠ
duo1Ġ shu4Ġ
Ġ ci4
xiang4 ĠdeĠ
xu1Ġ yao4
hai2 Ġshi4Ġ
Ġ long2Ġ
yu4 ĠdeĠ
neng2Ġ gou4Ġ
yue1Ġ han4Ġ
ĠĠĠ ci3Ġ
Ġzhe4Ġ xie1
ding4 Ġwei4Ġ
9 Ġri4Ġ
tong3 Ġji4Ġ
Ġxiang1Ġ gang3
Ġ zu3Ġ
sang1 Ġ
ĠĠĠ zheng4Ġzhi4Ġ
Ġzai4Ġ zhe4Ġ
xin4 Ġxi1Ġ
lian2Ġ meng2
yang4 ĠdeĠ
Ġxian4 Ġzhi4Ġ
gong1 ĠdeĠ
ju3Ġ ban4
Ġfen1Ġ bie2
qiu2 Ġdui4Ġ
hong1 Ġ
cha2 ĠdeĠ
14 Ġri4Ġ
ling4 Ġyi1Ġ
chang2 Ġshi4Ġ
mei3Ġguo2Ġ ren2Ġkou3Ġpu3Ġ
Ġ zhang1
5 Ġri4Ġ
Ġ lu4
niu3Ġ yue1
zu3 Ġhe2Ġ
Ġhuo4 Ġde2
Ġ 10
de ĠĠĠ
lin2 Ġshi2Ġ
3 Ġri4Ġ
31 Ġri4Ġ
Ġzhong1Ġ bu4Ġ
wei4 Ġshi4Ġ
dong3 Ġshi4Ġ
ji1 Ġdi4Ġ
ge1Ġ shou3Ġ
dong1Ġ nan2Ġ
hai3Ġ ba2
bang1 Ġzhu4Ġ
ĠdeĠshi4Ġ zhen4Ġ
ĠĠĠ zhong1Ġ
Ġ ru4Ġ
Ġ bao4Ġ
6 Ġri4Ġ
pai1 Ġshe4Ġ
mou2 Ġ
Ġ hua2Ġ
Ġyi4Ġ da4Ġli4Ġ
Ġ gong4Ġ
2000 Ġnian2Ġ
Ġshe4 Ġli4Ġ
2 Ġri4Ġ
Ġ liu2
Ġyi4Ġ ban1
Ġren2Ġ kou3
ge4 Ġren2Ġ
she4 Ġyou3Ġ
ĠdeĠ zhong1Ġ
4 Ġri4Ġ
Ġ 4Ġ
sheng1Ġ ya2Ġ
30 Ġ
Ġ O
yuan2 Ġhe2Ġ
2004 Ġnian2Ġ
Ġdi4Ġ qu1ĠdeĠ
Ġxue2Ġ sheng1Ġ
Ġ dao3Ġzhi4Ġ
tie3Ġ lu4
zu2 Ġqiu2
zao3 Ġqi1Ġ
Ġqi2 Ġta1
feng2 Ġ
cang1 Ġ
13 Ġri4Ġ
xiong1 Ġdi4Ġ
sheng1 Ġzai4Ġ
dong1Ġ bei3Ġ
mu4 Ġdi4Ġ
tong1Ġ chang2Ġ
hui1 Ġfu4Ġ
ruan3 Ġ
Ġ I
Ġshi4Ġ chang3Ġ
Ġxue2Ġ yuan4Ġ
Ġzhe4 Ġyi1Ġ
Ġ wo3
shao1 Ġ
B Ġ
shen1Ġ fen4Ġ
ĠĠĠ you2Ġyu2Ġ
qu3 Ġdai4Ġ
lian2Ġ bang1Ġ
ge2Ġ ming4
zhi3Ġ hui1Ġ
Ġ bian4Ġ
Ġ mei2Ġyou3Ġ
qing2Ġkuang4 Ġxia4Ġ
ĠĠĠ E
yi2 Ġbu4Ġ
su1Ġ lian2Ġ
Ġ fu4
xie2 Ġyi4Ġ
huang2 Ġjia1Ġ
ke1 Ġji4Ġ
bing3 Ġ
fa1 Ġxian4
zheng3 Ġge4Ġ
ren2 Ġhe2Ġ
Ġgong1Ġ chi3Ġ
yao1 Ġqiu2
pang2 Ġ
d Ġ
yan1 Ġ
zhan1 Ġ
chao1 Ġji2Ġ
pan2 Ġ
mao4 Ġyi4Ġ
er Ġ
yue4 ĠdeĠ
zhang3 ĠdeĠ
xue2Ġ yuan4
fan3Ġ ying4
ju3Ġ ban4Ġ
hang2Ġ kong1
xi2 Ġji1Ġ
cui1 Ġ
Ġye3 Ġyou3Ġ
hua4 Ġhe2Ġ
xiao3Ġ shuo1Ġ
Ġdi4Ġ li4Ġ
guan1Ġ fang1Ġ
li4 Ġhe2Ġ
nv3Ġ xing4Ġ
Ġxi1Ġ nan2Ġ
tu2Ġ shu1Ġ
xian1 Ġhou4Ġ
bi4Ġ ye4Ġ
tong3 Ġyi1Ġ
Ġ ha1
Ġ shu1Ġ
Ġ gu4
Ġ hei1Ġ
sai4 ĠdeĠ
Ġ br
hou2 Ġ
Ġyi3Ġ jing1
Ġ man4Ġ
za2 Ġ
zun1 Ġ
Ġ wei1
Ġ que4Ġ
Ġ shuang1Ġ
Ġ dong1
Ġbr Ġ
xie2 Ġzhu4Ġ
ci4 Ġshi4Ġjie4Ġda4Ġ
lan3 Ġ
Ġru2Ġ guo3Ġ
shang4 Ġshi4Ġ
Ġ 6Ġ
qu1Ġ hua4Ġ
fen1 Ġxi1Ġ
yu3 ĠdeĠ
Ġer3Ġ sheng3Ġ
ren2Ġkou3Ġ shu4Ġliang4
wen2Ġwu4Ġ bao3Ġhu4Ġ
Ġhe2Ġ yi1Ġ
Ġbu4Ġ neng2Ġ
zi4 Ġxing2Ġ
ting3 Ġ
12 Ġ
jie1Ġ duan4Ġ
wu2 Ġxian4Ġ
guang3Ġ bo1Ġ
Ġ ben3
Ġyi3Ġ lai2Ġ
Ġxi1Ġ ban1Ġ
Ġ R
dan1Ġ ren4
Ġta1Ġ ceng2
chi2Ġ xu4Ġ
tai2Ġ bei3
Ġ wu3
Ġ cai2Ġ
gong4Ġchan3Ġ dang3Ġ
guo2 Ġhe2Ġ
Ġyi3Ġ xia4Ġ
qi1 Ġnian2Ġ
te4 ĠdeĠ
dao3Ġ yan3Ġ
Ġ qie3
reng2 Ġ
hou4 Ġyu2Ġ
fa1Ġ biao3
yan3Ġ chang4
zhu4 Ġzai4Ġ
xia4Ġ xia2
Ġ qie3Ġ
tiao2 Ġjian4Ġ
pin2 Ġdao4Ġ
Ġgong1Ġ zuo4
ye4 ĠdeĠ
jiao1 Ġyi4Ġ
hu3 Ġ
Ġzai4Ġ ci4Ġ
shao4 Ġnian2Ġ
lai4 Ġ
jie2Ġ shu4
Ġshi4Ġ zhong1Ġguo2Ġ
Ġ jiu3Ġ
bao4 Ġdao4Ġ
Ġren2Ġkou3Ġmi4Ġ du4Ġwei4Ġ
qiu2 Ġyuan2Ġ
0 Ġ
Ġshi4Ġ li4Ġ
ĠĠĠ bu4Ġ
zao1 Ġ
jue2Ġ sai4Ġ
ying4Ġ yong4Ġ
wai4 ĠdeĠ
you2Ġ zheng4Ġ
jian4 Ġli4Ġ
zi1 Ġyuan2Ġ
sai1 Ġer3Ġ
n Ġ
Ġ ya4Ġ
Ġqi2 Ġhou4Ġ
Ġ qian1Ġ
zui4 Ġda4Ġ
Ġ xi1
Ġbing4 Ġwei4Ġ
hui2 Ġdao4Ġ
cao1 Ġ
su4Ġ du4Ġ
al ĠĠĠ
qi4 Ġhou4Ġ
ke3Ġ da2Ġ
Ġwei4Ġyu2Ġ fa3Ġguo2Ġ
gai3Ġ ge2Ġ
mi4Ġ shu1Ġ
Ġ luo4Ġ
Ġyi1Ġ yuan4Ġ
dian4Ġshi4Ġ ju4Ġ
zhuang4Ġ tai4Ġ
zhu4 ĠdeĠ
fen4 Ġwei4Ġ
Ġgong1Ġ ye4Ġ
wang3 Ġzhan4Ġ
Ġ zhao4Ġ
gong1Ġ si1Ġ
jie2Ġ guo3Ġ
suo3Ġ shu3ĠdeĠ
Ġ jie3Ġ
ĠdeĠdi4Ġ yi1Ġ
Ġ lan2Ġ
hu2 Ġnan2Ġ
Ġyi1Ġ si1Ġ
ya4 Ġli4Ġ
Ġwei4Ġ yi1Ġ
shang4Ġ hai3
Ġ mai4
20 Ġshi4Ġji4Ġ
Ġzhe4Ġ ge
jie2 Ġhe2Ġ
Ġzuo4Ġ pin3Ġ
zuo3 Ġyou4Ġ
xiao3 Ġxue2Ġ
sheng4 Ġli4Ġ
Ġzhong1Ġ gong4Ġ
shou3Ġ ci4
U Ġ
Ġhao4 Ġxian4Ġ
zhen4Ġ qu1Ġ
ĠdeĠ fu4Ġ
kai1Ġ fa1
wen2 Ġming2Ġ
Ġjian3Ġ cheng1Ġ
Ġsuo3 Ġyou3Ġ
yi2 Ġzhi4Ġ
jiao4 Ġhui4Ġ
sheng3Ġ fen4Ġ
zhan3Ġ kai1Ġ
yin4Ġ du4
shi2Ġ qi1Ġ
Ġ fa3Ġguo2Ġ
ling3Ġ dao3
mu4Ġ biao1Ġ
Ġer2 Ġshi4Ġ
gao1 Ġji2Ġ
zhun3 Ġbei4Ġ
wang3Ġ luo4Ġ
Ġmei3 Ġyuan2Ġ
Ġjian4 Ġshe4Ġ
xun4Ġ lian4Ġ
fa1Ġ biao3Ġ
Ġ fei1
ke1 ĠdeĠ
Ġren2Ġ wu4Ġ
xuan3Ġ shou3Ġ
jiao1Ġ tong1
hao3 ĠdeĠ
zi4Ġ ran2Ġ
zhong4Ġyao4 ĠdeĠ
dong1Ġ jing1Ġ
chan3Ġ pin3Ġ
gong4Ġyou3Ġ ren2Ġkou3Ġ
Ġxian4Ġ dai4Ġ
Ġyi1Ġ ming2Ġ
Ġ jia3Ġ
Ġxi1Ġ bei3Ġ
feng1Ġ ge2Ġ
Ġcheng2Ġ ji4Ġ
lei3 Ġ
zou4 Ġ
Ġhe2Ġ di4Ġ
xiao3Ġxing2Ġ xing1Ġ
yan2Ġ zhong4Ġ
juan3 Ġ
zi ĠdeĠ
mu4Ġ qian2Ġ
wen2Ġwu4Ġbao3Ġhu4Ġ dan1Ġwei4Ġ
liu2 Ġxing2Ġ
Ġji1Ġ chang3Ġ
e ĠĠĠ
bian4 Ġcheng2Ġ
qiao2 Ġzhi4Ġ
mie4 Ġ
Ġ guang1Ġ
lei4Ġ si4
dian4Ġshi4Ġ tai2Ġ
jie3 Ġshi4Ġ
guo2Ġ min2Ġ
Ġyi4Ġ qi3Ġ
Ġ yong3Ġ
kai1Ġ fang4Ġ
Ġ mai4Ġ
y ĠĠĠ
Ġ shen4Ġzhi4Ġ
Ġxia4Ġ ling4
Ġ dan1Ġren4Ġ
ka3 Ġer3Ġ
Ġ yi2Ġge4Ġ
2003 Ġnian2Ġ
xing2 Ġshi4Ġ
dou1 Ġyou3Ġ
2002 Ġnian2Ġ
Ġ chu2ĠleĠ
zhi1 Ġhou4Ġ
hui4 Ġhe2Ġ
mei3 Ġping2Ġfang1Ġgong1Ġli3Ġ
ru4 ĠleĠ
Ġyi1Ġ yang4Ġ
Ġgong1Ġ fen1Ġ
Ġshe4 Ġzhi4Ġ
te4Ġ zheng1Ġ
can1Ġ sai4Ġ
Ġsi1Ġ ji1Ġ
Ġ jia4Ġ
ru2 Ġxia4Ġ
Ġ wu1Ġ
zhen1 Ġdui4Ġ
zhe4Ġ geĠ
jiu4 Ġshi4Ġzhen4Ġ
Ġshi4Ġ fou3
Ġshi2Ġ jian1
gao1 Ġzhong1Ġ
Ġci3 Ġhou4Ġ
Ġzai4Ġ zhong1Ġ
bi4Ġ xu1Ġ
wang2 Ġguo2Ġ
bi3Ġ jiao4Ġ
Ġ 00
er4 Ġshi4Ġ
wai4Ġ jiao1
gui1Ġ hua4Ġ
diao1 Ġ
bang4 Ġ
Ġyi4Ġ zhi4Ġ
lei4Ġ si4Ġ
shan1Ġ dong1Ġ
Ġran2 Ġhou4Ġ
Ġyi4Ġ zhi2
Ġ yu3
Ġli4Ġ shu3Ġyu2Ġ
Ġ W
yuan2 Ġshi4Ġ
dui4 Ġzai4Ġ
zhu4 Ġming2Ġ
yun2 Ġnan2Ġ
ĠĠĠ L
hen3 Ġduo1Ġ
Ġ deng3
Ġer3 ĠdeĠ
huo4 Ġde2
sheng1Ġ chan3Ġ
Ġ che1Ġ
ĠĠĠ gong1Ġ
zhan4 Ġyi4Ġ
Ġsui1 Ġran2Ġ
Ġ bei3
dian4Ġ ziĠ
zhong4 ĠdeĠ
Ġjian4 Ġzhi4Ġ
ĠĠĠ da4Ġ
xin1 Ġjia1Ġ
Ġ shang1Ġ
Ġ biao3Ġshi4Ġ
lai2Ġ zi4
zhi4Ġ zuo4Ġ
Ġ tu2Ġ
shan1 Ġxi1Ġ
ren2Ġkou3Ġshu4Ġliang4 Ġwei4Ġren2Ġ
Ġ gu3
ju4 Ġji2Ġ
ĠdeĠyi1Ġ zhong3Ġ
ĠdeĠ ming2Ġ
ji2 Ġhe2Ġ
Ġxi1Ġ ya4
Ġ zu3
lv3 Ġyou2Ġ
Ġzhi4Ġ zao4Ġ
Ġxing2Ġ wei2Ġ
ma3Ġ lai2
Ġ ren4
bao4Ġ fa1Ġ
nv3 Ġer2Ġ
Ġ INSEE
tao4 Ġ
zong3 Ġli3Ġ
quan2 Ġqiu2Ġ
si1 Ġhe2Ġ
ĠĠĠ K
ĠdeĠ zhu3Ġ
Ġshang4Ġ hai3Ġ
sai4 Ġzhong1Ġ
Ġ dui4Ġyu2Ġ
fa1 Ġshe4Ġ
rui4 Ġshi4Ġ
bao1Ġ han2
nong2Ġ ye4Ġ
ye4Ġ wu4Ġ
tou2Ġ zi1Ġ
lu4 Ġjun1Ġ
wu4 Ġzhi4Ġ
jue2 ĠdeĠ
nai4 Ġ
te4Ġ bie2Ġ
Ġjin4 Ġshi4Ġ
ĠdeĠshi2Ġ hou4Ġ
ao4Ġlin2Ġpi3Ġke4Ġ yun4Ġdong4Ġhui4Ġ
ge2 ĠdeĠ
Ġzhi4Ġ jin1Ġ
fang1Ġ an4Ġ
si1 Ġren2Ġ
hua4Ġ xue2Ġ
Ġte4Ġ bie2
Ġda4Ġ liang4Ġ
ji2 Ġshi4Ġ
min3 Ġ
ke3Ġneng2 Ġshi4Ġ
cha4 Ġ
Ġnian2Ġ du4Ġ
lian2Ġ jie1Ġ
Ġ ni2Ġ
jin4 ĠdeĠ
Ġzhi1Ġ wai4Ġ
si4 Ġshi2Ġ
cao2 Ġ
fa1Ġ dong4Ġ
Ġ V
qian3 Ġ
T Ġ
xuan3 Ġwei4Ġ
Ġshe4Ġ shi1Ġ
chu4 ĠdeĠ
tu3 Ġer3
Ġli4Ġ si1Ġ
bo2Ġ te4Ġ
Ġzong3Ġ mian4Ġji1Ġ
luo2Ġ ma3
chuang4 Ġli4Ġ
ĠdeĠ li4Ġ
Ġnian2Ġ hou4Ġ
Ġde2 Ġli3Ġ
Ġ geng4Ġ
guang3Ġ chang3Ġ
lian2 Ġhe2Ġguo2Ġ
ji2 Ġshi2Ġ
geng1Ġ ming2Ġwei4Ġ
t ĠĠĠ
Ġ 11
zao3 Ġnian2Ġ
xiao4 Ġli4Ġ
qi4 ĠdeĠ
Ġ zheng4Ġshi4Ġ
biao3Ġ yan3Ġ
yi2 Ġshi4Ġ
Ġjun1 Ġzai4Ġ
fang1Ġ mian4
jue2Ġ ding4
Ġgai1Ġ sheng3Ġ
Ġ zhen1Ġ
reng2 Ġran2Ġ
da1 Ġ
zhi4 Ġshi4Ġ
Ġgong1Ġ neng2Ġ
zong3Ġ tong3
Ġren2Ġkou3Ġmi4Ġdu4Ġ mei3Ġping2Ġfang1Ġgong1Ġli3Ġ
Ġren2Ġkou3Ġmi4Ġdu4Ġwei4Ġ mei3
Ġxia4Ġling4 Ġshi2Ġ
you2Ġzheng4Ġ bian1Ġma3Ġwei4Ġ
Ġ xian1Ġ
cha2ĠdeĠ shu4Ġju4Ġ
Ġju4Ġ le4Ġbu4Ġ
Ġshi4Ġzhen4Ġ bian1Ġma3Ġwei4Ġ
ĠINSEE Ġshi4Ġzhen4Ġbian1Ġma3Ġwei4Ġ
ĠĠĠ bei4Ġ
biao1Ġ zhun3
Ġ han2Ġ
Ġshe4 ĠdeĠ
xuan3Ġ qu1Ġwei4Ġ
Ġzai4Ġ ci3Ġ
Ġbu4Ġ guo4
pai2 Ġming2Ġ
Ġguo2Ġ wang2Ġ
dong4 Ġli4Ġ
shi2ĠdeĠ ren2Ġkou3Ġshu4Ġliang4Ġwei4Ġren2Ġ
Ġfen1 Ġzhong1Ġ
2023 Ġnian2Ġ
jie1Ġrang3 ĠdeĠshi4Ġzhen4Ġ
mei3Ġguo2Ġren2Ġkou3Ġpu3Ġ cha2ĠdeĠshu4Ġju4Ġ
cong2 Ġshi4Ġ
jia1 Ġli4Ġ
Ġer2 Ġren2Ġkou3Ġmi4Ġdu4Ġwei4Ġmei3
ge2Ġ lan2
Ġdang1Ġdi4Ġ gong4Ġyou3Ġren2Ġkou3Ġ
jie3Ġ jue2Ġ
fen1Ġ lei4Ġ
3 Ġnian2Ġ
zu2 ĠdeĠ
Ġ xiang4
Ġ xiao1Ġ
shi3Ġyong4 ĠdeĠ
da4 Ġbu4Ġfen4
yi1Ġ zhong3Ġ
ling3 Ġyu4Ġ
Ġhuo4Ġ jiu4Ġshi4Ġzhen4Ġ
he2 Ġshi4Ġ
ĠĠĠ li4Ġ
Ġchu1Ġ ban3Ġ
Ġ jiang3Ġ
gou1 Ġ
yun4Ġ ying2Ġ
sheng3Ġji2Ġ xuan3Ġqu1Ġwei4Ġ
ji1 Ġji2Ġ
ĠdeĠ yi1Ġbu4Ġfen4Ġ
shi2 Ġshi4Ġ
C Ġ
er2Ġ ziĠ
jiu3 Ġnian2Ġ
zuo4Ġ pin3
xuan3 Ġren2Ġ
gai4Ġ nian4Ġ
S Ġ
xing1 ĠdeĠ
Ġer3 Ġde2Ġ
sheng3 Ġhe2Ġ
jie1Ġ shou4
tiao2Ġ yue1Ġ
Ġjin3Ġ guan3Ġ
fen4Ġwei4Ġ fa3Ġguo2Ġ
Ġgai1Ġsheng3Ġ fen4Ġwei4Ġfa3Ġguo2Ġ
Ġchu1Ġ ban3
Ġzhi1 Ġxian4Ġ
tie3 Ġdao4Ġ
lian2Ġ bang1
ĠĠĠ O
Ġdi4Ġ san1
Ġ song4Ġ
Ġjun1Ġ dui4Ġ
guang3 Ġzhou1Ġ
Ġbu4Ġ jiu3Ġ
Ġ qing1
ao4 Ġda4Ġli4Ġ
Ġwei4Ġ shi2Ġ
Ġxi1Ġ la4
fu2 Ġjian4Ġ
p Ġ
Ġ kai1Ġshi3Ġ
Ġhe2Ġ bing4
E Ġ
zhan4Ġ zheng1
Ġyou3Ġ ren2Ġ
pai2Ġ ming2
Ġ dui4
zhan4 Ġshi4Ġ
jin3Ġbiao1Ġ sai4Ġ
Ġnian2Ġ chu1Ġ
zui4Ġ hou4Ġyi1Ġ
jing3Ġ cha2Ġ
qun2Ġ dao3Ġ
lai2 Ġyuan2Ġ
te4Ġ bie2
Ġta1Ġ bei4Ġ
Ġer2Ġ qie3Ġ
xing1 Ġjian4Ġ
Ġwan4 Ġren2Ġ
reng2 Ġran2
ba1 Ġnian2Ġ
Ġchu1Ġ sheng1Ġyu2Ġ
she4 Ġli4Ġ
Ġ ruo4Ġ
4 Ġnian2Ġ
di4Ġ yi1Ġ
Ġri4 ĠdeĠ
lun2Ġ dun1
F Ġ
Ġ yi4Ġwei4Ġ
ben3 ĠdeĠ
wei3 Ġhui4Ġ
X Ġ
Ġyou2Ġ xi4
Ġren2Ġ gong1Ġ
xue2Ġ xiao4
Ġ geng4
shan3 Ġxi1Ġ
tong1Ġ chang2
Ġzhi4Ġ yu2Ġ
lie4 Ġwei4Ġ
Ġbu4Ġ ming2Ġ
ceng2 Ġzai4Ġ
mu3 Ġsi1Ġ
Ġming2Ġ chao2Ġ
tian1Ġ wen2Ġ
yun4 Ġxing2Ġ
cai3Ġ yong4
Ġdi4Ġ si4Ġ
ang2 Ġ
Ġ J
rou4 Ġ
yan2Ġjiu1 Ġsuo3Ġ
guang3Ġ fan4Ġ
ĠĠĠ 18
ao4 Ġsi1Ġ
Ġxian4Ġ lu4Ġ
mei3 Ġzhou1Ġ
meng2Ġ gu3Ġ
Ġshi4Ġ bu4Ġ
gan3Ġ ran3Ġ
yi3 Ġji2Ġ
Ġhe2Ġ ping2Ġ
Ġ fan4Ġ
hua4 Ġshi2Ġ
jia1Ġ ru4Ġ
ĠĠĠ W
ĠĠĠ ta1
zhan4 Ġhou4Ġ
nan2 Ġji2Ġ
shuo1Ġ fa3Ġ
Ġ jiao1Ġ
xi1 Ġzai4Ġ
Ġjin4 ĠdeĠ
Ġren4Ġ wei2
Ġji1Ġ ben3Ġ
Ġju4Ġ li2Ġ
Ġ fei4Ġ
Ġ di2Ġ
mo2 Ġxing2Ġ
guo4Ġ cheng2Ġzhong1Ġ
ĠdeĠdi4Ġ fang1Ġ
P Ġ
wu2 Ġren2Ġ
ĠdeĠ xin1Ġ
ji4Ġ shu4Ġ
Ġ rang4
Ġjian4 Ġyi4Ġ
Ġta1 Ġyu3Ġ
Ġ da2Ġ
yun4Ġ shu1Ġ
gou4Ġ mai3
wan2 Ġquan2
wu3 Ġshi2Ġ
Ġke4 ĠdeĠ
ĠĠĠof ĠĠĠ
ren4Ġwei2 Ġshi4Ġ
Ġzai4Ġ yi4Ġ
Ġ can1Ġ
Ġge4 Ġdi4Ġ
2 Ġnian2Ġ
Ġ chen2
ban4Ġ gong1Ġshi4Ġ
Ġ 10Ġyue4Ġ
tong2 Ġyi1Ġ
duo1 Ġge4Ġ
wai4 Ġguo2Ġ
Ġzong3 Ġren2Ġkou3Ġ
Ġ shi3Ġyong4Ġ
xue2 Ġshi4Ġ
shang4 Ġyou3Ġ
Ġ shou4
yuan2 Ġwei4Ġ
jia4Ġ zhi2Ġ
gong1Ġ zuo4Ġ
Ġzi4Ġ ji3Ġ
ni2 Ġsi1Ġ
zhao3 Ġ
Ġzai4Ġ zhong1Ġguo2Ġ
xue2Ġ xi2Ġ
ĠĠĠ R
yang3Ġ hua4Ġ
Ġ ai1
fei1 Ġxing2Ġ
quan1 Ġ
xuan1Ġ chuan2Ġ
mo4 Ġxi1Ġ
Ġyi1Ġ xie1
qi3Ġ lai2Ġ
xuan3Ġ ze2
cheng1 Ġwei4Ġ
xiao1 Ġxi1Ġ
Ġxian4 Ġren2Ġ
ĠdeĠ guan1Ġ
hai3 Ġjun1
Ġ xing1Ġ
biao1 Ġzhi4Ġ
Ġbu4Ġ men2Ġ
zhi4 Ġwei4Ġ
you2Ġ xi4
ma2 Ġ
huan2Ġ jing4
ĠĠĠ V
fu4Ġze2Ġ guan3Ġxia2Ġ
19 Ġ
Ġwei2Ġ zhu3Ġ
jie4 Ġquan2Ġguo2Ġ
xi4Ġ bao1Ġ
gou4 Ġcheng2Ġ
shi1 ĠdeĠ
che1Ġ liang4Ġ
ĠĠĠ yi3Ġ
zhe2 Ġxue2Ġ
keng1 Ġ
Ġji4Ġ hua4
Ġ an4Ġ
si1 Ġzai4Ġ
Ġ ke1
Ġ lin2
zheng4 ĠdeĠ
an1 Ġquan2
dang3 ĠdeĠ
i Ġ
bi3 Ġde2Ġ
Ġdao4Ġ lu4Ġ
chao2Ġ xian1Ġ
Ġer2Ġ qie3
Ġ da3Ġ
yin2Ġ hang2
Ġ hua1Ġ
Ġying1Ġ chi3Ġ
xi1 ĠdeĠ
Ġshi4Ġ mei3Ġguo2Ġ
Ġshi4Ġ tu2Ġ
zhong1 Ġzai4Ġ
Ġji4Ġ nian4Ġ
zhu3Ġ jue2Ġ
an4 ĠdeĠ
Ġ er4
si4Ġ chuan1Ġ
bu4 Ġwei4Ġ
Ġji2Ġ qi2Ġ
peng2 Ġyou3Ġ
1999 Ġnian2Ġ
x Ġ
chi2Ġ xu4
ai4 Ġer3Ġ
24 Ġ
Ġ dou1Ġ
ĠĠĠ you3Ġ
Ġgong1Ġ gong4Ġ
Ġzhi1Ġ chi2
kang4 Ġyi4Ġ
yue1 Ġwei4Ġ
tai4 Ġguo2Ġ
Ġ fan3Ġ
jie1 Ġwei4Ġ
xuan3Ġ qu1Ġ
shi2 Ġzai4Ġ
yi4 Ġhe2Ġ
hui4 Ġyou3Ġ
sheng1Ġ wu4Ġ
xiao4Ġ zhang3Ġ
wen2 Ġjian4Ġ
Ġ tai2Ġwan1
ĠĠĠ he2Ġ
Ġbei4Ġ er3Ġ
ge1Ġ qu3
shou1Ġ ru4Ġ
Ġjie2 Ġzhi4Ġ
biao1 Ġwei4Ġ
fo2 Ġjiao4Ġ
rong2 Ġyi4Ġ
Ġ jie4
ĠĠĠ shi2Ġ
ao4Ġ yun4
ĠĠĠ che1Ġzhan4Ġ
Ġsheng1Ġ wu4Ġ
suo3Ġshu3ĠdeĠ sheng3Ġji2Ġxuan3Ġqu1Ġwei4Ġ
yan3 ĠdeĠ
bian1 Ġji2Ġ
Ġyuan2Ġ zhu4Ġ
qian4 Ġ
Ġzhan4Ġ zheng1
si1 Ġdi4Ġ
ye3 Ġyou3Ġ
qian2Ġ wang3
yu3Ġ yan2Ġ
zheng4Ġ ce4Ġ
Ġ qiang2Ġ
ji4 Ġzhong1Ġ
mi3 Ġer3Ġ
Ġ ruo4
jun1 Ġdui4Ġ
jie3Ġfang4 Ġjun1Ġ
tiao3 Ġzhan4Ġ
Ġchu1Ġ leĠ
Ġyou4Ġ cheng1Ġ
g Ġ
ao4Ġ yun4Ġ
Ġzhi4Ġ du4Ġ
Ġ chang3Ġ
gao1 Ġyu2Ġ
Ġshi4Ġ yi2Ġge4
Ġhuo4 Ġshi4Ġ
7 Ġnian2Ġ
gan3 Ġdao4Ġ
nan2Ġ xing4Ġ
kun1 Ġ
Ġyi3Ġ shang4Ġ
man4Ġ hua4Ġ
gai3Ġ bian4Ġ
ma3 Ġli4Ġ
ĠĠĠ 2021
Ġdi4Ġ xia4Ġ
fo2 Ġ
jie1Ġrang3 Ġ
pei4 Ġhe2Ġ
tou2Ġ ru4Ġ
mei3 Ġyuan2Ġ
zhi3Ġ hui1
Ġ yu4
jia1 Ġren2Ġ
Ġ yan3Ġ
wen3Ġ ding4Ġ
1998 Ġnian2Ġ
Ġzhong1Ġ you3Ġ
Ġ que4
zha1 Ġ
Ġzai4Ġ bu4Ġ
ti2 Ġming2Ġ
da2 Ġcheng2Ġ
Ġyi1Ġ zhong3Ġ
ru3 Ġ
ne4 Ġ
mo4 Ġsi1Ġ
fen1 Ġzhi1Ġ
Ġ tong1Ġguo4Ġ
zai4 Ġshi4Ġ
tong2 ĠdeĠ
jian3Ġ jie4Ġ
shen1Ġ fen4
tian1Ġ zhu3Ġjiao4Ġ
Ġzhong1Ġguo2Ġ ren2Ġmin2Ġ
Ġ zi4
biao3 Ġming2Ġ
duo2 ĠdeĠ
ting2Ġ zhi3Ġ
Ġ hai2Ġyou3Ġ
Ġer2Ġren2Ġkou3Ġmi4Ġdu4Ġwei4Ġmei3 Ġping2Ġfang1Ġqian1Ġmi3Ġ
Ġ ti2Ġ
xiao3 ĠdeĠ
zheng4 Ġshi2Ġ
ce4 ĠdeĠ
zao4 ĠdeĠ
Ġwei4Ġ fu2
juan1 Ġ
que4Ġ zhen3
2024 Ġnian2Ġ
Ġ ping2
Ġji1Ġ bai4Ġ
ĠĠĠ 2020
ban4Ġ dao3Ġ
ĠĠĠ yuan2Ġ
guo2 Ġzai4Ġ
wu3Ġ qi4Ġ
Ġ li2Ġ
Ġjia1Ġ na2Ġda4Ġ
Ġping2Ġfang1Ġ mi3Ġ
zi4Ġzhi4Ġ qu1Ġ
Ġ 8Ġyue4Ġ
Ġ pi2Ġ
la1 Ġke4Ġ
lei4 ĠdeĠ
ta1Ġ menĠ
hun4 Ġhe2Ġ
Ġzi4Ġ you2Ġ
ĠĠĠ zi4Ġ
Ġzai4Ġ mei3Ġguo2Ġ
Ġshi2Ġ yan4
zui4Ġ zao3
ju3 Ġren2Ġ
tuan2 Ġdui4Ġ
di4 Ġshi4Ġ
Ġ bo1
ke3Ġneng2 Ġhui4Ġ
Ġ zhuan1Ġ
ya1 Ġli4Ġ
quan2 Ġbu4Ġ
Ġ su1
ji4 Ġwei4Ġ
Ġer2 Ġbei4Ġ
Ġji4Ġ cheng2Ġ
gong4 Ġxian4Ġ
ji4Ġ hua4Ġ
xi1Ġban1Ġ ya2Ġ
Ġshi2Ġ shi1Ġ
jie2Ġ mu4
Ġjie2Ġ guo3Ġ
Ġ The
Ġdi4Ġ tie3Ġ
sheng1Ġ chan3
lai2Ġ shuo1Ġ
li4 Ġbu4Ġ
zhe4Ġ zhong3Ġ
chan3Ġ ye4Ġ
Ġ wang2
xing2Ġ dong4Ġ
fan1 Ġyi4Ġ
Ġqi1Ġ jian1Ġ
Ġchu1Ġ ren4Ġ
shao3Ġ shu4Ġ
Ġ bei4
cao1 Ġzuo4Ġ
jian3Ġ cha2Ġ
ban4 Ġshi4Ġ
jia1Ġ na2Ġda4Ġ
ying3Ġ pian4Ġ
chong1Ġ tu1Ġ
Ġzai4Ġ da4Ġ
Ġta1 Ġyu2Ġ
bao3Ġ hu4
an4 Ġjian4Ġ
ji4Ġ nian4Ġ
chong2 Ġjian4Ġ
shou3 ĠdeĠ
amp Ġ
Ġ hai2
ĠĠĠ in
D Ġ
Ġ mu4
Ġjian4Ġ zhu4
ceng2Ġ jing1Ġ
on Ġ
Ġshi2Ġ fen1Ġ
Ġshi4Ġ yi3Ġ
Ġ an1
xin1 Ġli3Ġ
xing2 Ġwei2Ġ
gong4 Ġtong2
dong4 ĠdeĠ
kong1 Ġjun1Ġ
nan4 Ġ
Ġshi3 ĠdeĠ
ban4 Ġgong1Ġ
Ġzhi3 Ġyou3Ġ
Ġ men2Ġ
Ġxian4 Ġwei4Ġ
qi1Ġ jian1
da4 Ġbu4Ġfen4Ġ
Ġzhi4Ġ zuo4
jie2Ġ gou4
fen1Ġ bie2Ġ
yang1 Ġ
lian2Ġ sai4
jue2Ġ se4
Ġ hu4Ġ
Ġyi4Ġ you3Ġ
Ġli4Ġ ru2
lian2Ġ xu4Ġ
ji2 Ġzai4Ġ
shen1 ĠdeĠ
Ġhe2Ġ bei3Ġ
Ġwei4Ġ neng2Ġ
Ġ chuan2Ġ
xiang1Ġ dui4Ġ
mei2Ġ ti3
zhu3Ġ ti2Ġ
Ġ bian1Ġ
jian3Ġ shao3Ġ
Ġhe2Ġ liu2Ġ
gong1Ġ yuan2Ġ
xiao3Ġ zu3Ġ
tou4 Ġ
ĠĠĠ I
Ġyou4 Ġming2Ġ
tong4 Ġ
Ġyi3Ġ se4Ġ
fen4Ġ zi3Ġ
xian4 Ġdai4Ġ
Ġshi4Ġyi1Ġ ming2Ġ
Ġti3Ġ zhang3Ġ
ĠĠĠ 2019
Ġxi1Ġ wang4Ġ
ying4 ĠdeĠ
wei3Ġyuan2Ġ hui4
ming4Ġ ming2Ġwei4Ġ
k Ġ
ou1 Ġyuan2Ġ
Ġgong1Ġ si1ĠdeĠ
Ġliang3 Ġren2Ġ
yi4 Ġzai4Ġ
dong4 Ġji1Ġ
da3 Ġji1Ġ
ĠdeĠdi4Ġ qu1Ġ
zhan3 Ġshi4Ġ
zhe4Ġ ge
zhuo2 Ġ
Ġzhi2 Ġzhi4Ġ
Ġshe4Ġ qu1Ġ
Ġji4Ġ xu4
gui1Ġ mo2
shou3 Ġwei4Ġ
xun2Ġ hui2Ġ
Ġsi1Ġ ling4
shu4Ġ liang4Ġ
xia4Ġ wu3Ġ
1996 Ġnian2Ġ
lu4Ġdi4Ġ mian4Ġji1Ġwei4Ġ
yong4Ġ lai2Ġ
shui3Ġyu4Ġ mian4Ġji1Ġwei4Ġ
Ġli4Ġ ji2Ġ
qi3Ġ yong4Ġ
lei4 Ġxing2Ġ
ren4Ġ wu4Ġ
Ġguo2Ġ li4Ġ
Ġshi2Ġ zi4Ġ
Ġyi1Ġ ci4Ġ
duo1Ġ ci4Ġ
ping2Ġ jia4Ġ
bu4 Ġshi4Ġ
M Ġ
Ġ zhen4Ġ
Ġ ling2Ġ
ĠĠĠ and
Ġ 2009Ġnian2Ġ
ĠdeĠ shou3Ġ
Ġfu4Ġ jin4Ġ
ju3 Ġxing2ĠdeĠ
ĠĠĠ 2018
fu2 Ġhe2Ġ
wai4Ġ jiao1Ġ
ti3Ġ xi4Ġ
Ġzhe4Ġ jiang1Ġ
Ġ lie4Ġ
1997 Ġnian2Ġ
Ġda4Ġ shi3Ġ
zuo4Ġ jia1Ġ
Ġshe4 Ġbei4Ġ
liang3 Ġge4
Ġli4Ġ fa3Ġ
zhu4 Ġyi4Ġ
Ġ ampĠ
dian4 Ġli4Ġ
Ġ bian4
de2 Ġdao4Ġ
kui2 Ġ
Ġsi1Ġ ling4Ġ
Ġcong2 Ġer2Ġ
kao4 Ġ
fa3Ġ lv4
jiao4Ġ tang2Ġ
Ġdang1Ġzhong1Ġ lu4Ġdi4Ġmian4Ġji1Ġwei4Ġ
zhi4 Ġhe2Ġ
zhi2 ĠdeĠ
Ġer2Ġ shui3Ġyu4Ġmian4Ġji1Ġwei4Ġ
qu3Ġ xiao1Ġ
jie2 Ġzhi4Ġ
sheng1Ġ huo2
fu2Ġ wu4
ĠĠĠ xi1Ġ
xue2Ġ zhe3Ġ
lun2Ġ dun1Ġ
dian1 Ġ
ĠĠĠ 2022
r Ġ
shui3 Ġping2Ġ
hai3Ġ yu4Ġ
nei4Ġ rong2
Ġ xiao4Ġ
Ġzhi1 Ġshi2Ġ
zhu4Ġ zuo4Ġ
Ġ 9Ġyue4Ġ
ying1Ġ ge2Ġlan2Ġ
an ĠĠĠ
Ġda4Ġ chen2Ġ
Ġcheng2Ġli4Ġ yu2Ġ
ĠĠĠ gai4Ġ
tuo4 Ġ
c Ġ
lv3 Ġke4Ġ
zhi4 Ġzai4Ġ
Ġ guang3Ġ
jie1 Ġjin4Ġ
Ġxin1Ġ wen2Ġ
chang2Ġ qi1Ġ
Ġwei2Ġ er3Ġ
ling4Ġ wai4Ġ
ĠĠĠxing2Ġzheng4Ġ qu1Ġhua4Ġ
ren4Ġ ming4
gao1Ġ su4
tai4Ġ yang2Ġ
Ġjia1Ġ shang4Ġ
bi3Ġsai4 Ġzhong1Ġ
yuan4Ġ zhang3Ġ
dian3 ĠdeĠ
ji3 Ġyu3Ġ
xi1Ġ yang2Ġ
Ġyi3Ġ hou4Ġ
Ġjun1 Ġwei4Ġ
min2 ĠdeĠ
shuo4 Ġshi4Ġ
Ġde2 ĠdeĠ
wei1Ġ lian2Ġ
wei3Ġ shu1Ġji4Ġ
Ġyi4Ġ ren2Ġ
jia1 Ġhe2Ġ
1992 Ġnian2Ġ
dao3 Ġyu3Ġ
pi1Ġ zhun3Ġ
dai4 Ġyou3Ġ
guo1 Ġ
heng1 Ġli4Ġ
Ġshi4Ġ yi1Ġwei4Ġ
Ġxue2Ġ xiao4
Ġwei4Ġfu2 Ġqi2Ġyu2Ġ
l Ġ
can1Ġ yu4
Ġ 7Ġyue4Ġ
6 Ġnian2Ġ
ci4Ġshi4Ġjie4Ġda4Ġ zhan4Ġ
mei3 Ġnian2Ġ
Ġshi4Ġ qu1Ġ
fa1 Ġchu1Ġ
quan4 Ġ
xing4 Ġzhi4Ġ
yan3Ġchang4 Ġhui4Ġ
Ġyuan2Ġ yin1Ġ
tao3Ġ lun4Ġ
Ġ formulaĠ
tui4 Ġyi4Ġ
feng1Ġ bao4Ġ
bi3Ġ ya4Ġ
ĠĠĠ yi4Ġ
ji1 Ġzhi4Ġ
xin4 Ġhao4Ġ
ya4 ĠdeĠ
neng2Ġ gou4
shou4Ġ shang1Ġ
Ġ hui2Ġ
Ġjian4 Ġcheng2Ġ
Ġ meng2Ġ
Ġ tuo1Ġ
lian2Ġ xi4Ġ
wei4Ġ zhi4Ġ
ĠĠĠ 2017
o Ġ
bi4Ġ xu1
Ġru2Ġ guo3
R Ġ
ru2 Ġhe2Ġ
Ġti3Ġzhang3Ġ ke3Ġda2Ġ
Ġ ci2Ġ
Ġer3Ġ te4Ġ
bao3Ġ chi2Ġ
zhuan1 Ġjia1Ġ
Ġ gui1Ġ
an Ġ
fu1 Ġren2Ġ
jiang3 Ġxiang4Ġ
cha1 Ġyi4Ġ
wo1 Ġ
Ġjing1Ġ guo4Ġ
Ġji1Ġ gou4
shou4 Ġyu3Ġ
Ġzai4Ġ yu2Ġ
ĠdeĠyi1Ġ zuo4Ġ
Ġtong1Ġ chang2Ġ
Ġ 2010Ġnian2Ġ
wang3 Ġlu4Ġ
jing1Ġ ying2Ġ
Ġ 12Ġyue4Ġ
Ġ min2Ġguo2Ġ
gong4Ġchan3Ġ dang3
tan1 Ġ
dian4Ġ tai2Ġ
dong1 Ġxi1Ġ
Ġke4 Ġli3Ġ
Ġsheng1Ġ chan3Ġ
Ġbu4Ġ li3Ġ
Ġ 21Ġ
Ġyi3Ġ xia4
cun1Ġ zhuang1Ġ
Ġ huo3Ġ
Ġ 11Ġyue4Ġ
Ġ rang4Ġ
lai2 Ġdao4Ġ
sui2 Ġhou4Ġ
Ġzhi1 Ġzhong1Ġ
lang4 Ġ
Ġ gai3
bi4Ġ ye4Ġyu2Ġ
xun4Ġ lian4
cuo4 Ġshi1Ġ
miao3 Ġ
fa3 ĠdeĠ
Ġyi4Ġ shu4
zong3Ġ du1Ġ
zhu4Ġ ming2ĠdeĠ
xi4Ġ lie4
Ġshi4Ġ you3Ġ
Ġjian4Ġ dui4Ġ
kuai4Ġ su4Ġ
5 Ġnian2Ġ
zhu4 Ġyu2Ġ
Ġ chang2
she2 Ġ
1994 Ġnian2Ġ
Ġshi2Ġ ren4Ġ
Ġyi1Ġ sheng1Ġ
Ġ zhu1
gu1 Ġji4Ġ
hai2Ġ ziĠ
Ġer3 Ġhe2Ġ
tai4Ġping2Ġ yang2Ġ
ĠĠĠ 2016
yan2Ġ ge2Ġ
Ġ zhong1ĠdeĠ
tong2 Ġyi4Ġ
le Ġda4Ġ
sheng1 Ġwei4Ġ
dao3 Ġshi4Ġ
cheng2Ġ gong1Ġ
si4 Ġge4Ġ
fa1Ġ dian4Ġ
Ġjie2Ġ mu4Ġ
Ġshang4Ġ hai3
zhan4 Ġzhong1Ġ
ĠdeĠ qian2Ġ
Ġren2Ġ lei4Ġ
shang3 Ġ
jie2Ġshu4 Ġhou4Ġ
Ġde2 Ġyi3Ġ
pu3Ġ tong1Ġ
Ġ xiang3
ĠdeĠshi2Ġ qu1Ġwei4Ġ
Ġzheng4Ġ ce4Ġ
Ġming2Ġ cheng1Ġ
che4Ġ xiao1Ġ
yu3 Ġzhong1Ġ
Ġ sheng4
ĠĠĠ zhi4Ġ
Ġ tw
Ġ fang1Ġ
tou2Ġ piao4Ġ
Ġ yang2
Ġ wang3Ġ
di3Ġ da2Ġ
Ġ yin4Ġdu4Ġ
Ġjin3Ġ guan3
fa1 ĠdeĠ
15 Ġ
ju2Ġ zhang3Ġ
ĠdeĠshi2Ġ jian1Ġ
geng4 Ġjia1Ġ
1995 Ġnian2Ġ
zhe4Ġ xie1
Ġwei4Ġ sheng1Ġ
yue4Ġ tai2Ġ
Ġping2Ġ tai2Ġ
fan3Ġ hui2Ġ
guang3 Ġxi1Ġ
zhai2 Ġ
fei3 Ġ
hans Ġ
kuo4 Ġda4Ġ
ha1 Ġer3Ġ
Ġ hansĠ
yi4 Ġzhong1Ġ
deng1 Ġlu4Ġ
rong2 Ġyu4Ġ
Ġtw Ġ
Ġ qian2
yue4 Ġshi2Ġ
zhong4 Ġda4Ġ
Ġ qi1
lu4 Ġyi4Ġ
zu3Ġ cheng2ĠdeĠ
zhi3 Ġzai4Ġ
que4Ġ ding4Ġ
25 Ġ
Ġshi4Ġ yan3Ġ
ye4 Ġhou4Ġ
Ġbu4Ġ ke3Ġ
Ġ sa4Ġ
Ġbing4Ġ mei2Ġyou3Ġ
Ġ cheng1
Ġci3 Ġshi2Ġ
ĠĠĠdeĠ shi2Ġ
jin4 Ġxing2
Ġ a1Ġer3Ġ
Ġxue2Ġ xi2Ġ
wan3 Ġshang4Ġ
jiao4Ġ qu1Ġ
qi4Ġ che1Ġ
Ġmu4Ġ qian2
ming2Ġ cheng1Ġ
ya4Ġli4Ġ shan1
gai3Ġ bian1
Ġ lv4Ġ
wu4Ġ zhong3
guan1Ġ zhong4Ġ
xiao1Ġ shou4Ġ
ĠĠĠ 2023
Ġguo2Ġ wu4Ġ
Ġzhi1 Ġyuan2Ġ
yuan4 ĠdeĠ
ba1 Ġxi1Ġ
Ġgong1Ġ ye4
Ġhuo4Ġ zhe3Ġ
ru4Ġ kou3Ġ
xiang1Ġ tong2Ġ
ba1Ġ li2Ġ
ban3 ĠdeĠ
po4Ġhuai4 Ġ
Ġ xia4
xue2 Ġhe2Ġ
sun3 Ġshi1Ġ
biao3 Ġxian4
pan1 Ġ
Ġshi2Ġ xian4Ġ
xi1Ġ la4
fa1Ġxian4Ġ leĠ
ĠĠĠ 2014
kan4 Ġdao4Ġ
nai3 Ġ
qi1Ġ zi3Ġ
guan1Ġ zhu4Ġ
Ġceng2 Ġren4Ġ
Ġbing4 Ġyi3Ġ
Ġ Ñ
qiang3 Ġ
xiong1Ġ ya2
Ġ 6Ġyue4Ġ
Ġ chuang4Ġ
ĠĠĠ suo3Ġshu3ĠdeĠsheng3Ġji2Ġxuan3Ġqu1Ġwei4Ġ
ĠĠĠdeĠ you2Ġzheng4Ġbian1Ġma3Ġwei4Ġ
ĠĠĠyu3Ġ jie1Ġrang3ĠdeĠshi4Ġzhen4Ġ
ĠĠĠyu2Ġ shi2ĠdeĠren2Ġkou3Ġshu4Ġliang4Ġwei4Ġren2Ġ
ĠĠĠdeĠshi2Ġ qu1Ġwei4Ġ
zhuang1 Ġzhi4Ġ
Ġ xuan1Ġbu4Ġ
zhi2 Ġwei4Ġ
22 Ġ
Ġ 2011
Ġ U
ji4 Ġhe2Ġ
Ġzuo4Ġ yong4Ġ
Ġquan2Ġ zhang3Ġ
tu2 Ġzhong1Ġ
su1Ġ lian2
ĠĠĠ N
kai1Ġ fang4
xu1 Ġqiu2Ġ
can2 Ġ
Ġzhi1Ġ ming2Ġ
Ġ Î
lin2 ĠdeĠ
Ġsi1Ġ la1Ġ
shi2 Ġwei4Ġ
heng2Ġ xing1Ġ
tui1Ġ dong4Ġ
ĠĠĠ ji1Ġ
wei2 ĠdeĠ
Ġshi4Ġ zhang3Ġ
Ġquan2 Ġbu4Ġ
Ġnian2Ġ qing1
guan3Ġ li3
Ġ 2019
Ġjia1Ġ ting2Ġ
ru4Ġ qin1Ġ
ru2Ġ ci3Ġ
Ġ hk
tai2Ġ bei3Ġ
yu3 Ġhe2Ġ
yi2Ġ dong4Ġ
Ġyi1Ġ dai4Ġ
jin4 Ġshi4Ġ
fu4 ĠdeĠ
Ġchu1 Ġxian4Ġzai4Ġ
zhe4Ġ jiang1Ġ
mu3Ġ qin1Ġ
xiong1Ġya2 Ġli4Ġ
mu4 Ġsi1Ġ
1991 Ġnian2Ġ
Ġren2Ġ shu4Ġ
fu4Ġ qin1Ġ
Ġdan4 Ġta1Ġ
Ġxi1Ġban1Ġ ya2
Ġ mian4Ġ
ĠĠĠ 2015
min2Ġ zu2
guang3Ġ bo1
zui4 Ġchu1Ġ
tai2 ĠdeĠ
Ġdi4Ġ qiu2Ġ
Ġ gan1Ġ
Ġshi4Ġ zhi3Ġ
1 Ġnian2Ġ
le ĠĠĠ
ti2 Ġsheng1Ġ
fei1 Ġjian4Ġzhi4Ġ
Ġ duan4Ġ
Ġ che1Ġzhan4Ġ
Ġ 5Ġyue4Ġ
shu4Ġ xue2Ġ
xun4Ġ su4Ġ
Ġhk Ġ
Ġ jin3
ĠĠĠ 2013
Ġsi1Ġ tan3Ġ
Ġwei4Ġ he2Ġ
Ġbing4 Ġli4Ġ
Ġcheng2Ġwei2Ġ leĠ
Ġ zhuan3Ġ
niu3Ġ yue1Ġ
Ġ jing1
fa1 Ġxing2
Ġjin4Ġ ru4
te4 Ġli3Ġ
kang4 Ġri4Ġ
Ġhe2Ġ xin1Ġ
Ġge4Ġ zhong3Ġ
zong3 Ġbu4Ġ
Ġji2Ġ qi2
fa1Ġ sheng1
shou1 Ġlu4Ġ
Ġshi4Ġ ren2Ġ
jiao4 ĠdeĠ
gao3 Ġ
lan2 Ġke4Ġ
mang2 Ġ
ming2 Ġyi4Ġ
cai2 Ġzheng4Ġ
chang4Ġ pian4Ġ
ĠĠĠnian2 Ġ
Ġzuo4Ġ pin3
sa4 Ġke4Ġ
Ġji4Ġ zai3Ġ
50 Ġ
Ġzhong1Ġ wen2Ġ
8 Ġnian2Ġ
jue2Ġ sai4
16 Ġ
jin4 Ġgong1Ġ
Ġshi4Ġ ji2Ġ
qi3 Ġyi4Ġ
can1 Ġyi4Ġ
zhuang4Ġ kuang4Ġ
Ġ zao4Ġcheng2Ġ
Ġxian4 Ġyu2Ġ
lv4 Ġwei4Ġ
ĠĠĠ zhong1Ġguo2Ġ
le Ġta1Ġ
zeng1Ġ zhang3Ġ
gao1Ġ du4Ġ
chan3Ġ pin3
can1Ġ kao3Ġ
fei1Ġjian4Ġzhi4Ġ di4Ġqu1Ġ
Ġji4Ġ suan4
zhan4Ġ dou4Ġ
dou1 Ġhui4Ġ
Ġhe2Ġ bing4Ġ
Ġsheng1Ġ huo2
wang2 ĠdeĠ
I Ġ
Ġ huang2
Ġ e2Ġluo2Ġsi1Ġ
zhong4Ġ dian3Ġ
diao4Ġ cha2
chai1 Ġ
Ġda4Ġ lou2Ġ
hai3 Ġdao4Ġ
chang4Ġ pian4
Ġren2Ġ menĠ
wei1Ġ xie2Ġ
ao4 Ġdi4Ġli4Ġ
Ġhe2Ġ zhong1Ġ
shang4Ġ shu1Ġ
Ġwei2Ġ qi2Ġ
ling3Ġdao3 Ġren2Ġ
kan3 Ġ
Ġ hou4
Ġ dao3Ġ
jing1Ġ shen2Ġ
Ġxiang1Ġ guan1Ġ
jia1 Ġzhong1Ġ
sui1 Ġran2Ġ
Ġyin1 Ġer2Ġ
yue4 Ġzai4Ġ
liang3 Ġren2Ġ
Ġbu4Ġ duan4Ġ
can1Ġjia1Ġ leĠ
Ġ fang2Ġ
ying2Ġ yun4Ġ
hua4 Ġwei4Ġ
jiang1 Ġxi1Ġ
ĠdeĠcheng2Ġ yuan2Ġ
jie2 Ġke4Ġ
23 Ġ
tu2Ġshu1Ġ guan3Ġ
Ġhe2Ġ cheng2Ġ
zhu3Ġ chi2Ġ
Ġzhong1Ġguo2Ġ gong4Ġchan3Ġdang3Ġ
ju4 ĠdeĠ
na4 Ġli3Ġ
Ġ 4Ġyue4Ġ
min2Ġ zhong4Ġ
1988 Ġnian2Ġ
jin4Ġ ru4
mou3Ġ xie1Ġ
Ġ hua2
shen1 Ġwei4Ġ
ju1 Ġzhu4Ġ
zi4Ġ dong4Ġ
xia4Ġji4Ġ ao4Ġlin2Ġpi3Ġke4Ġyun4Ġdong4Ġhui4Ġ
yin1 Ġshi4Ġ
Ġ xiao3
zhan4Ġ dou4
shi2Ġ jian1Ġ
Ġ you3Ġshi2Ġ
chan3Ġ sheng1ĠdeĠ
ĠĠĠ zhĠ
Ġzai4Ġ jia1Ġ
Ġ tian1
shuo1 Ġming2Ġ
Ġ zuo3Ġ
Ġzheng4Ġ zhuang4Ġ
yin3Ġ fa1Ġ
Ġ wei3Ġ
Ġ qiao2Ġ
jiang1Ġ su1Ġ
dao1 Ġ
Ġ 20
1993 Ġnian2Ġ
Ġhuo4Ġde2Ġ leĠ
Ġzhi1Ġ xia4Ġ
Ġshi4Ġ wei1Ġ
xiao3Ġ shuo1
Ġ xu3Ġduo1Ġ
Ġ s
ĠĠĠjia1Ġ zu2Ġ
al Ġ
Ġshi4Ġ zhen4
Ġgong1Ġ ren2Ġ
ding4 ĠleĠ
you1 Ġshi4Ġ
lan2 Ġqiu2Ġ
Ġda4Ġ duo1Ġ
zhou1 ĠdeĠ
sui1 Ġran2
ji4 Ġshi2Ġ
Ġxiang4Ġ mu4Ġ
xian3 ĠdeĠ
cui4 Ġ
zi1Ġ xun4Ġ
ao4Ġyun4 Ġhui4Ġ
su4 ĠdeĠ
Ġda4Ġ xing2Ġ
Ġ 2018
13 Ġ
Ġyue4Ġ nan2Ġ
chuang1 Ġ
xiang4Ġ mu4
Ġji2Ġ li4Ġ
Ġzhong1Ġ hua2Ġ
L Ġ
qu3 Ġde2
jie2Ġ hun1Ġ
yuan2 Ġzai4Ġ
Ġbu4Ġ men2
Ġlai2Ġ zi4Ġ
xiang1Ġ dang1Ġ
Ġdan4Ġ you2Ġyu2Ġ
fang3Ġ wen4Ġ
zhi2 Ġdao4Ġ
jiao4Ġ wei2Ġ
Ġshi4Ġwei4Ġ leĠ
Ġ du2Ġ
Ġli3Ġ lun4Ġ
pin3Ġ pai2Ġ
can1Ġ jia1
xi2 Ġwei4Ġ
Ġdi4Ġ wu3Ġ
Ġ pei4Ġ
Ġyue4Ġ tai2Ġ
zhong1 Ġwei4Ġ
b Ġ
Ġ xuan3Ġ
zhen1 Ġshi2Ġ
zhong1Ġ hua2Ġren2Ġmin2Ġgong4Ġhe2Ġguo2Ġ
you3 Ġbu4Ġ
yin4 Ġdi4Ġ
zhou4 Ġ
mei3Ġ shu4Ġ
xing1Ġ qi1Ġ
ming4Ġ ling4Ġ
xue2Ġ shu4Ġ
ĠdeĠgong1Ġ zuo4Ġ
ĠC Ġ
2020Ġnian2Ġ mei3Ġguo2Ġren2Ġkou3Ġpu3Ġcha2ĠdeĠshu4Ġju4Ġ
Ġ lao3Ġ
jian4 Ġshe4Ġ
ju3 Ġxing2
ĠĠĠ 2025
fang2 Ġyu4Ġ
Ġren4Ġ wu4Ġ
wu3Ġ zhuang1Ġ
ba2 Ġ
Ġ bian1
yi2Ġ chan3Ġ
ao4Ġ men2Ġ
tiao2Ġ zheng3Ġ
Ġshi2Ġ yi1Ġ
m ĠĠĠ
Ġ zheng4
bao4Ġ dao3Ġ
en Ġ
ti2Ġ gao1Ġ
Ġ wen2
Ġjia1Ġ ru4
Ġzhi1Ġ hou4
1990 Ġnian2Ġ
fei1Ġ lv4Ġ
wa3 Ġer3Ġ
yi3Ġ lai2Ġ
Ġ tian2Ġ
le Ġta1ĠdeĠ
hui4 Ġyuan2Ġ
Ġshi2Ġ qi1
ji4Ġ lu4Ġ
Ġji1Ġ guan1Ġ
shu4Ġ zi4Ġ
yun3Ġ xu3Ġ
du1 Ġshi4Ġ
leĠ yi2Ġge4Ġ
hua4 Ġjia1Ġ
ji1Ġ chang3Ġ
yi2Ġ min2Ġ
shu1 ĠdeĠ
ju4Ġ li2Ġ
Ġfu4Ġ ze2
Ġ zhuang1Ġ
Ġshi4Ġyi1Ġ zhong3
jin1 ĠdeĠ
Ġren2Ġ lei4
Ġ jiu3
ĠĠĠ 2024
Ġzhou1 Ġnian2Ġ
Ġzi4Ġji3 ĠdeĠ
jie1 Ġji2Ġ
duan4 ĠdeĠ
du1 Ġjiao4Ġ
hong1Ġ zha4
n ĠĠĠ
li4 Ġshi4Ġ
ke4 Ġli3Ġ
yan2 ĠdeĠ
yao1Ġ qing3Ġ
Ġ xie2Ġ
ying2 ĠdeĠ
hua1 Ġyuan2Ġ
yong4Ġ hu4Ġ
shan1Ġ mai4
Ġ liang2Ġ
sheng1 Ġji2Ġ
yue1 Ġyou3Ġ
Ġshi4Ġ da4Ġ
wen2Ġ zi4Ġ
Ġ hong2
Ġ ding4Ġ
mian4 Ġdui4Ġ
Ġ 2011Ġnian2Ġ
dong1 Ġji4Ġ
han2Ġ shu4Ġ
zi1Ġ jin1Ġ
deng3 Ġwei4Ġ
su2 Ġ
Ġ cheng1Ġwei2Ġ
Ġli4Ġ shi3
wu3Ġ tai2Ġ
Ġsui4 ĠdeĠ
Ġ xu2
Ġshe4 Ġji2Ġ
Ġ zhuan3
Ġzhi4Ġ shi2Ġ
Ġ guan1
Ġzhi4Ġ li4Ġ
gao1Ġ deng3Ġ
Ġ shang4
Ġ 2016
xiao4Ġ guo3Ġ
Ġsuo3 Ġyi3
yuan2 Ġji2Ġ
Ġren2Ġ min2
shen1Ġ qing3Ġ
Ġhe2Ġ lan2Ġ
Ġ 2005Ġnian2Ġ
dong4Ġ zuo4Ġ
Ġ ou1Ġ
Ġxian4 Ġhe2Ġ
Ġ 3Ġyue4Ġ
mei3Ġ guo2ĠdeĠ
Ġ 2008Ġnian2Ġ
19 Ġshi4Ġji4Ġ
Ġming2Ġchao2Ġ zheng4Ġzhi4Ġren2Ġwu4Ġ
ĠĠĠ xin1Ġ
ĠĠĠ zao3Ġnian2Ġ
wei4 ĠĠĠ
liang3Ġ zhong3Ġ
Ġwan4 Ġmei3Ġyuan2Ġ
Ġ han2Ġguo2Ġ
Ġri4Ġ jun1Ġ
xia4Ġ ling4
jiao4Ġ lian4Ġ
ling3Ġ tu3Ġ
Ġ ju4
Ġ shi1
nu3 Ġli4Ġ
Ġyuan2Ġ ming2Ġ
zheng4Ġ ming2Ġ
Ġ 30
Ġ zhao1
ĠĠĠ hou4Ġ
lie4Ġ biao3Ġ
lu4 Ġjun1
Ġzhong1Ġ yu2Ġ
zuo4Ġ yong4Ġ
jing1Ġ chang2Ġ
qu1Ġ yu4
you3 Ġzai4Ġ
Ġyi4Ġ yi4Ġ
ying3Ġ pian4
Ġ xiu1Ġ
Ġjin4 Ġxing2
Ġnan2 Ġzhi4Ġ
ĠĠĠ you2Ġ
Ġguo2Ġ hui4Ġ
Ġgong1Ġ hui4Ġ
Ġyuan2Ġ gong1Ġ
guan1Ġ xi4
G Ġ
Ġ chi4Ġ
Ġji4Ġ zhe3Ġ
nei4Ġ lu4Ġ
2 Ġren2Ġ
Ġ pei4
zhao3 Ġdao4Ġ
1984 Ġnian2Ġ
wang2Ġ chao2
hui2Ġ ying4Ġ
jing1 Ġli3Ġ
lv3 Ġxing2Ġ
yong4Ġ zuo4Ġ
shen2Ġ jing1Ġ
Ġshi4Ġ hou4Ġ
Ġ li3
li3Ġ lun4Ġ
Ġ ying1
Ġgong1Ġ chang3Ġ
fu4Ġ jin4Ġ
Ġ bo2
yu2 Ġzai4Ġ
on ĠĠĠ
Ġ jue2
tai4 Ġren2Ġ
Ġhe2Ġ gong1Ġ
chu1Ġ ban3Ġ
ke3Ġyi3 Ġzai4Ġ
sui4 Ġdao4Ġ
bao3Ġ chi2
zhi1Ġ jian1Ġ
ti2 Ġdao4Ġ
jiu3Ġ dian4Ġ
Ġ Ch
Ġ zhong3Ġ
Ġcheng2Ġ xian4Ġ
Ġnian2Ġ1Ġyue4Ġ 1Ġri4Ġ
Ġji1Ġ che1Ġ
Ġshi2Ġ er4Ġ
gui1Ġ ze2Ġ
wo3Ġ men
Ġ luo2
ai1 Ġji2Ġ
1989 Ġnian2Ġ
qi4Ġ xiang4Ġ
Ġ bi3
ge2 Ġwei4Ġ
ti1 Ġ
shou3 Ġji1Ġ
Ġguo2Ġ fang2
kong1 Ġzhong1Ġ
Ġnian2 Ġshi4Ġjie4Ġ
zhu4 Ġli3Ġ
Ġyu2Ġ 18
bei4 Ġshi4Ġwei4Ġ
tong1 Ġdao4Ġ
kong3 Ġbu4Ġ
qi2Ġzhong1Ġ yi1Ġzhong3Ġ
Ġ hen3Ġ
zuo4 Ġwei4Ġ
shou3Ġ du1Ġ
ĠdeĠ zhi4Ġ
li4 Ġwei4Ġ
shu1 Ġji2Ġ
Ġer2 Ġcheng2Ġ
ji1 Ġhe2Ġ
to ĠĠĠ
dong1Ġ nan2Ġbu4Ġ
Ġwo3Ġ menĠ
yi3 Ġxia4Ġ
Ġxi1Ġ wang4
Ġmei3 Ġnian2Ġ
yan3 Ġyi4Ġ
xin1Ġjia1Ġ po1
da4Ġ lu4ĠdeĠ
Ġ fan3
Ġ lei2Ġ
qi3Ġ ye4
meng3 Ġ
Ġzuo4Ġ wei2
dai4 Ġli3Ġ
ĠdeĠ jia1Ġ
jin1Ġ shu3Ġ
jin4Ġ yi2Ġbu4Ġ
lao2 Ġdong4Ġ
zhu3Ġ chi2
jiao4Ġ xue2Ġ
biao3Ġ mian4Ġ
gu4Ġ wen4Ġ
Ġ ying1Ġyu3Ġ
Ġ sĠĠĠ
ni1 Ġ
Ġhe2Ġ xi1Ġ
Ġbu4Ġ bu4Ġ
cai2Ġ liao4Ġ
Ġhe2Ġ shi2Ġ
Ġyou3Ġ ji1Ġ
chao2Ġ xian1
Ġ2001Ġnian2Ġ ren2Ġkou3Ġ
dao4 Ġlu4Ġ
fen1 Ġzhong1Ġ
hua2 Ġren2Ġ
Ġzai4Ġ wei4Ġ
Ġbei3Ġ qi3Ġ
jing4 ĠdeĠ
si3 Ġhou4Ġ
bao3Ġ liu2Ġ
bo1Ġ lan2
tong1Ġ che1Ġ
si1 Ġli4Ġ
14 Ġ
Ġzhong1Ġguo2Ġ da4Ġlu4Ġ
bai2Ġ se4Ġ
ya4Ġli4Ġshan1 Ġda4Ġ
Ġ tu3Ġ
hui4 Ġshi4Ġ
Ġyi3Ġ bei4Ġ
K Ġ
Ġwan4 Ġyuan2Ġ
ju1Ġ min2
zhu3 Ġli4Ġ
Ġping2Ġ mian4Ġ
ni2 Ġke4Ġ
Ġta1 Ġwei4Ġ
Ġ 2021
ĠĠĠ J
zhu3 ĠdeĠ
Ġzhi1Ġ jian1
zhai4 Ġ
Ġsi1Ġ te4
fa3Ġ an4Ġ
yin3Ġ qi3Ġ
nv3Ġ zi3
yin3Ġ qi3
Ġxian4ĠdeĠ yi2Ġge4Ġ
Ġdao4Ġ da2Ġ
zhao4Ġ kai1Ġ
Ġnv3Ġ xing4Ġ
Ġdong1Ġ nan2Ġ
yun4 Ġzuo4Ġ
jiao1 Ġhui4Ġ
shou3 Ġge4Ġ
tui4 Ġchu1Ġ
di4Ġ er4Ġ
Ġer2Ġ yan2Ġ
Ġxian4ĠdeĠ yi2Ġge4
Ġbei4Ġ ren4Ġwei2Ġshi4Ġ
ĠĠĠ 2012
li4 Ġzai4Ġ
zha2 Ġ
Ġji1Ġ hu1
Ġke4 Ġcheng2Ġ
wen2Ġ zhang1Ġ
ceng2Ġ jing1
Ġ cha2Ġ
jie4 ĠdeĠ
ji3 Ġge4Ġ
Ġshi4Ġ jia1Ġ
Ġyou3Ġ yi4Ġ
te4Ġ shu1Ġ
Ġxi1Ġ si1Ġ
xiang1Ġ guan1
shi1Ġ fan4
Ġfu4Ġ qin1Ġ
wu2Ġ fa3
3 Ġren2Ġ
can1Ġ mou2
jin1 Ġhui4Ġ
1985 Ġnian2Ġ
jiao4Ġ shi1Ġ
Ġ gang3Ġ
ĠĠĠ xia4Ġ
lv4Ġ shi1Ġ
fei1 Ġzhou1Ġ
Ġshi4Ġ yu3Ġ
xi1Ġban1Ġ ya2
Ġ ju4Ġyou3Ġ
da4 Ġwei4Ġ
Ġyi1Ġ ji2Ġ
Ġ ge2
ng Ġ
chang2 ĠdeĠ
Ġbu4Ġ de2
Ġta1Ġmen Ġzai4Ġ
Ġ ban1Ġ
Ġ qu3Ġ
wei1 Ġji1Ġ
yi2Ġ zhi3Ġ
Ġyi4Ġ fang1Ġmian4Ġ
fa3Ġ yuan4
Ġer2Ġshui3Ġyu4Ġmian4Ġji1Ġwei4Ġ 0
Ġ feng2Ġ
leng3 Ġ
Ġguo2Ġ jia1ĠdeĠ
zhe3 Ġzai4Ġ
Ġhe2Ġ qi2Ġta1Ġ
xi4Ġtong3 ĠdeĠ
Ġ li2
ya4 Ġzhou1
che1 ĠdeĠ
jin1Ġ pai2Ġ
duo1 Ġnian2Ġ
Ġzhi1 Ġwei4Ġ
Ġbing4Ġ jiang1Ġ
Ġzhu3Ġ xi2Ġ
kang1 Ġxi1Ġ
yao4Ġ wu4Ġ
Ġ hai3
Ġcheng2Ġ xu4Ġ
Ġwei4Ġ you3Ġ
biao3Ġ da2
Ġ00 Ġ
da4 Ġdi4Ġ
bian4 Ġde2Ġ
in Ġ
Ġcheng2Ġ ren4Ġ
zhi2Ġ min2
guo4Ġ qu4Ġ
pu2Ġtao2Ġ ya2
Ġ yong1Ġyou3Ġ
ĠĠĠ cheng2Ġ
Ġzhi4Ġ liao2Ġ
huan1Ġ ying2Ġ
wen2 Ġxian4Ġ
Ġsi1Ġ ke4Ġ
Ġjin4Ġxing2Ġ leĠ
mu4Ġ biao1
fu2 Ġyi4Ġ
zhuang1 Ġshi4Ġ
dong1Ġ bei3Ġbu4Ġ
gou4Ġ zao4Ġ
huo4Ġde2Ġ leĠ
bo2Ġwu4Ġ guan3
ao4Ġda4Ġli4Ġ ya4Ġ
Ġ fei4
Ġ guan1Ġyu2Ġ
Ġqiu2 Ġyuan2Ġ
Ġ 100
jiang1 Ġhui4Ġ
Ġ bai3Ġ
ben3 Ġdi4Ġ
Ġer2Ġ gai1Ġdi4Ġ
xian1 Ġsheng1Ġ
Ġbu4Ġ la1Ġ
bo1Ġ lan2Ġ
Ġ ti2Ġgong1Ġ
1949 Ġnian2Ġ
Ġyu2Ġ le4Ġ
jia1Ġ ru4
fang4Ġ qi4Ġ
jian4 Ġyi4Ġ
Ġ 2015
yi4Ġ da4Ġli4Ġ
dang1Ġ shi2ĠdeĠ
Ġqi1Ġ xi1Ġzai4Ġ
Ġ ban4Ġ
ze2 Ġwei4Ġ
mao2 Ġze2Ġ
liang3 Ġnian2Ġ
xiao4 ĠdeĠ
sa4 Ġsi1Ġ
Ġbing4 Ġyu3Ġ
Ġ zhu4
Ġda4Ġ lu4Ġ
O Ġ
Ġ qi3
fu4Ġ qin1
Ġwei4Ġ lai2Ġ
Ġ 2007Ġnian2Ġ
st ĠĠĠ
zi4Ġ you2
guang3Ġ gao4Ġ
ĠĠĠ cong2Ġ
Ġjian4Ġ zao4Ġ
Ġjin4Ġ yi2Ġbu4Ġ
liu2 Ġzai4Ġ
cheng1 Ġzuo4Ġ
shou1 Ġshi4Ġ
ĠdeĠ zheng4Ġ
nan2Ġ jing1Ġ
Ġjin4 Ġgong1Ġ
jin3 Ġji2Ġ
sa4 Ġer3Ġ
luo2 Ġdi4Ġ
Ġshi4Ġ zheng4Ġ
Ġfu4Ġ qin1
Ġji4Ġ shu4
Ġhao4 Ġwei4Ġ
Ġ c
ji4Ġ xu4Ġ
xi4Ġ ju4Ġ
tan3 Ġke4Ġ
es Ġ
ĠdeĠ sheng1Ġ
Ġren2Ġ men
Ġri4Ġ jun1
9 Ġnian2Ġ
Ġyi4Ġ mei3Ġyuan2Ġ
ci4Ġ shi3Ġ
Ġ 2013
Ġ bing1Ġ
Ġzai4Ġ ci3
Ġ gao1
Ġte4Ġbie2 Ġshi4Ġ
huo3 Ġjian4Ġ
Ġjia1Ġ zu2Ġ
piao4Ġ fang2Ġ
or Ġ
qing3 Ġqiu2Ġ
jing3Ġ fang1Ġ
kao3Ġ lv4
bi3Ġli4Ġ shi2Ġ
1986 Ġnian2Ġ
Ġshi4Ġ ri4Ġben3Ġ
Ġsi1Ġ tan3
Ġjie2Ġ guo3
tai4Ġping2Ġ yang2
zhan1Ġ mu3Ġsi1Ġ
que4 Ġren4Ġ
Ġ 2014
Ġchu1Ġ sheng1Ġ
Ġxi4Ġ lie4Ġ
di4 Ġzai4Ġ
tian1 ĠdeĠ
pai1 Ġ
Ġyi3 Ġyou3Ġ
bian1 ĠdeĠ
shang4Ġ wu3Ġ
tou2Ġ piao4
ba1Ġ li2
wang2Ġ chao2Ġ
nei4 Ġyou3Ġ
wan2 Ġgong1Ġ
Ġzhi4Ġ cheng2Ġ
guang3Ġdong1Ġ sheng3Ġ
ĠĠĠ jie2Ġzhi4Ġ
pai1 Ġshe4
Ġyuan2Ġ ben3Ġ
cheng2 Ġnian2Ġ
fen3 Ġ
chang3 Ġhe2Ġ
Ġqi2 Ġzai4Ġ
Ġzhi1Ġ ziĠ
mu3Ġ qin1
shen1Ġ ti3Ġ
meng2Ġ gu3
Ġ sai4Ġji4Ġ
Ġda4Ġ yue1Ġ
Ġzhan4Ġ dou4Ġ
Ġzhi1 ĠdeĠ
gu3Ġ fen4
xi2Ġ xing4
geng4 Ġduo1Ġ
hu2Ġ bei3Ġ
Ġyue1Ġ han4Ġ
Ġ he4Ġ
deng1 Ġshang4Ġ
Ġxian4Ġ chang3Ġ
Ġ deng4
ĠĠĠ zeng1Ġ
suo3 Ġzai4Ġ
qing2Ġ bao4Ġ
Ġying1Ġ wen2Ġ
Ġ jing1Ġji4Ġ
ĠĠĠ 2
ĠĠĠ U
wai4 Ġbu4Ġ
zhong4 Ġyi4Ġ
min2Ġ jian1Ġ
yan3Ġ chang4Ġ
mi4Ġ mi4Ġ
guan1Ġ bi4Ġ
guang3Ġ fan4
Ġ ce4Ġ
xiao4 Ġyuan2Ġ
Ġshi4Ġ ye4Ġ
Ġzai4Ġ qi2Ġ
1 Ġren2Ġ
kao3Ġ lv4Ġ
e2Ġluo2Ġ si1
Ġ liang4Ġ
te4Ġ se4Ġ
Ġwo3Ġ men
Ġ shou1Ġ
Ġyou3Ġ xian4Ġ
sen1Ġ lin2Ġ
ma3 Ġsi1Ġ
Ġnian2 ĠĠĠ
Ġ 2020
Ġ lv3Ġ
Ġ ai1Ġ
wu4 Ġyuan2Ġ
an1Ġ pai2Ġ
Ġquan2 Ġqiu2Ġ
Ġ xiang3Ġ
Ġ xun2Ġ
Ġ hao2Ġmi3Ġ
xia4 Ġyi1Ġ
er4 Ġyue4Ġ
Ġda4Ġ duo1Ġshu4Ġ
Ġbu4Ġ jiu3
zhuang1 Ġbei4Ġ
chi1 Ġ
Ġ heng2Ġ
huan3 Ġ
Ġda4Ġ dao4Ġ
Ġ wo4
neng2 Ġzai4Ġ
zeng4 Ġ
Ġji1Ġ bai4
tu3Ġer3 Ġqi2Ġ
Ġ can1Ġjia1Ġ
Ġ 10Ġ
qian1 Ġzhi4Ġ
Ġdi4Ġyi1Ġ ci4Ġ
Ġzui4Ġ gao1Ġ
ng ĠĠĠ
chang3 Ġdi4Ġ
cun4 Ġ
min2Ġzhu3Ġ dang3Ġ
Ġ yan2
xing4Ġ qu4Ġ
Ġshi2Ġ yan4Ġ
zuo4Ġ zhan4Ġ
nan2 Ġyi3Ġ
Ġji2Ġ bei3Ġ
Ġchu1Ġ lai2Ġ
tai2Ġ feng1Ġ
tian1Ġ jin1Ġ
Ġ 2017
Ġ zhong1Ġshi4Ġ
ban4 Ġli3Ġ
Ã© Ġ
Ġzhi1 Ġdao4Ġ
tian1Ġ jin1
Ġ gang1Ġ
long2Ġ jiang1Ġ
ling3 Ġshi4Ġ
Ġbu4Ġ zu2Ġ
yong4Ġ tu2Ġ
li3 Ġgong1Ġ
Ġtong1Ġ chang2
Ġ kang1Ġ
Ġyuan2Ġ su4Ġ
wei1 Ġer3Ġ
nong2Ġ ye4
Ġqing1Ġ chao2Ġ
ai1 Ġer3Ġ
chang2 Ġjian4ĠdeĠ
Ġcheng2Ġ du4Ġ
zhan4Ġ ling3Ġ
Ġnian2Ġ bei4Ġ
jin4Ġxing2Ġ leĠ
Ġshi3 Ġjian4Ġyu2Ġ
ĠĠĠ ming2Ġ
dao3 Ġdan4Ġ
xiu1 Ġzheng4Ġ
Ġyue4Ġ tuan2Ġ
ĠĠĠ xian4
gui4 Ġzhou1Ġ
ma Ġ
fen1 Ġbu4Ġyu2Ġ
ma3Ġlai2 Ġxi1Ġya4Ġ
zu3 Ġjian4Ġ
xi3 Ġju4Ġ
Ġgong1Ġ zhu3Ġ
Ġta1Ġ hai2Ġ
zhang4Ġ ai4Ġ
xi2Ġxing4 Ġbu4Ġming2Ġ
Ġshi2Ġ dai4
xiang4 Ġshi4Ġ
Ġwen2Ġ hua4Ġ
Ġchu1Ġ qi1Ġ
Ġzhan4Ġ dou4
hua2Ġ sheng4Ġ
sheng1 Ġcheng2Ġ
te Ġ
Ġyou3Ġ xie1Ġ
jiao1Ġ liu2Ġ
ren4Ġming4 Ġwei4Ġ
Ġsheng1Ġ chan3
ĠĠĠ ta1Ġ
Ġyi4Ġ qi3
fa3Ġ guan1Ġ
Ġye3Ġ jiu4Ġshi4Ġ
ĠdeĠ fang1Ġshi4Ġ
Ġhe2Ġ he2Ġ
Ġsheng1Ġhuo2Ġ xi2Ġxing4Ġbu4Ġming2Ġ
she4 Ġzhi4Ġ
shou4 Ġdao4
ti2 Ġchu1
Ġ chu3Ġyu2Ġ
ji1Ġ chu3Ġ
Ġta1Ġ ye3Ġ
Ġ tao2Ġ
4 Ġren2Ġ
Ġ luo4
hen3 Ġda4Ġ
zhi4 Ġzhong1Ġ
ku3 Ġ
bao4Ġ fa1
zhu3 Ġshi4Ġ
Ġwan4 Ġli4Ġ
Ġ gen1Ġju4
ĠĠĠ mei3Ġguo2Ġ
se Ġ
ju4Ġ jue2Ġ
ling3Ġ xiu4Ġ
Ġ yin2Ġ
Ġ gong4Ġyou3Ġ
la1Ġ ding1
chuan2Ġ shuo1Ġ
hua4Ġhe2Ġ wu4Ġ
Ġ gong4
Ġ han4
Ġer2Ġ bu2Ġshi4Ġ
an1Ġ zhuang1
Ġ zhao4
Ġ rui4Ġ
ren4 Ġshi2Ġ
1987 Ġnian2Ġ
chuang4Ġ ban4
Ġ xuan1Ġ
Ġ kong3Ġ
bao4 Ġli4Ġ
an1Ġ na4Ġ
Ġyi1Ġ xue2Ġ
Ġ pa4
zhi4 Ġbu4Ġ
ĠA Ġ
jia1Ġli4Ġ fu2Ġ
qiong2 Ġ
Ġyou3Ġ yi2Ġge4Ġ
Ġxian4Ġ xiang4Ġ
shang4Ġ ying4Ġ
ĠĠĠ li3Ġ
fa3 Ġyu3Ġ
wen2 Ġyi4Ġ
shu2 Ġ
Ġzai4Ġ nei4ĠdeĠ
gao1Ġ su4Ġ
Ġzai4Ġ du4Ġ
Ġer2 Ġbu4Ġ
ji4 Ġshi4Ġ
yuan4 Ġshi4Ġ
Ġwei4Ġ xing1Ġ
Ġli3Ġ lun4
wo3Ġ menĠ
Ġ ka3
yan2Ġ shen1
hai3Ġ an4Ġ
Ġ rong2Ġ
chuang4 Ġjian4Ġ
bin1 Ġhai3Ġ
shun4 Ġli4Ġ
1980 Ġnian2Ġ
Ġdong1Ġ bei3Ġ
ĠĠĠci3Ġ wai4Ġ
Ġ 2013Ġnian2Ġ
mei3 Ġge4Ġ
lei2 Ġsi1Ġ
ruan3 Ġjian4Ġ
Ġsheng1Ġ zhang3
Ġyou2 Ġqi2Ġshi4Ġ
tui1 Ġjin4Ġ
Ġhe2Ġ bu4Ġ
shu1Ġ ru4Ġ
zi1Ġ chan3Ġ
nv3Ġ xing4
lun4Ġ wen2Ġ
Ġxing2Ġ zheng4
wang3 Ġqiu2Ġ
hai3Ġ wai4Ġ
tong2 Ġnian2Ġ
Ġ ta3Ġ
Ġ shu3
Ġ na4
Ġbu4Ġ luo4Ġ
Ġda4Ġ sha4
zhu3Ġ yi4ĠdeĠ
ping2Ġ lun4Ġ
Ġ 2010
zui4Ġ gao1
ying4Ġ yong4
cai3Ġ qu3Ġ
Ġ 2012
Ġ wa3Ġ
jiao4 Ġshi4Ġ
ban3Ġ ben3
pai2Ġming2 Ġdi4Ġ
Ġ sai1Ġ
bian4 Ġwei4Ġ
Ġ 2006Ġnian2Ġ
zu1 Ġ
bao4Ġ gao4
Ġbei3Ġ jing1Ġ
ĠĠĠ qi2Ġ
yu2 ĠdeĠ
ju4 Ġhe2Ġ
bo1Ġ fang4Ġ
san1 Ġshi4Ġ
Ġzai4Ġ xi1Ġ
ren2Ġ da4Ġ
Ġde2 Ġer3Ġ
Ġhou4Ġ xuan3Ġren2Ġ
tou2Ġ zi1
wang3Ġ luo4
1982 Ġnian2Ġ
ma3 Ġli3Ġ
ze2 Ġren4Ġ
fang1Ġ mian4ĠdeĠ
ĠĠĠ Re
ge4Ġ zhong3Ġ
Ġ sai4Ġ
Ġshi4Ġ min2Ġ
Ġhe2Ġ da4Ġ
dian4Ġ zi
ling3 Ġdi4Ġ
rao3 Ġ
Ġzai4Ġ ci4
fan4Ġwei2Ġ nei4Ġ
ĠĠĠju4Ġ qing2Ġ
ĠĠĠ qian2Ġ
xiang1 Ġshi4Ġdi4Ġ
zhe4 Ġli3Ġ
Ġyu2Ġ ren2Ġ
zheng4Ġ dang3Ġ
yin3Ġ qing2Ġ
Ġri4Ġ bao4Ġ
Ġling4 Ġyi1Ġ
xing2 Ġcheng2Ġ
fa1 Ġxing2ĠdeĠ
1983 Ġnian2Ġ
Ġji1Ġ hu1Ġ
Ġ 188
zhi2Ġ jie1
feng1 Ġwei4Ġ
pai4 ĠdeĠ
Ġshi4Ġ gu4Ġ
Ġmei3 Ġge4Ġ
Ġ h
Ġzhi4Ġ shao3Ġ
xi4Ġ bao1
biao3Ġ da2Ġ
yuan4 Ġyi4Ġ
17 Ġ
1945 Ġnian2Ġ
Ġta1 Ġhe2Ġ
ju4Ġ le4Ġbu4Ġ
du2Ġ li4ĠdeĠ
e2 Ġguo2Ġ
Ġzhi1Ġ fu4Ġ
dian4Ġ nao3
jiu3Ġ long2Ġ
dang1Ġ xuan3Ġ
yun3Ġ xu3
f Ġ
he4 Ġer3Ġ
mian2 Ġ
zi4Ġ ran2
ĠĠĠ xian4Ġ
Ġyou3Ġ xiao4Ġ
ĠĠĠ chu1Ġ
Ġ lai2
bu2 Ġ
wen1 Ġdu4Ġ
ji4Ġ cheng2Ġ
Ġ ying2Ġ
Ġ yong4Ġyu2Ġ
Ġyi1Ġ xiao3Ġshi2Ġ
huo3Ġ shan1Ġ
Ġda4Ġ xi1Ġyang2Ġ
guo4Ġ qu4
pai2Ġ hang2Ġ
an1 Ġde2Ġ
jiu4Ġ du2
Ġdong1Ġ lin2Ġ
zhi1Ġ chi2
fang3Ġ wen4
ming2Ġ zi4Ġ
Ġzuo4Ġ jia1Ġ
jing3Ġ cha2
dang3 Ġyuan2Ġ
xi3Ġ huan1
qu1 Ġyi4Ġhui4Ġ
Ġda4Ġ fu2Ġ
Ġde2Ġ hua2Ġ
Ġ 2012Ġnian2Ġ
huan4 Ġcheng2Ġ
biao3Ġ yan3
ĠĠĠand ĠĠĠ
xian4 Ġzhi4Ġ
dou1 Ġzai4Ġ
Ġdi4Ġ yi2Ġge4Ġ
Ġyu3Ġ mao2
Ġchu1Ġ zhan4Ġ
fang1Ġ yan2Ġ
bi3Ġ ya4
ĠĠĠdi4Ġ fang1Ġ
xiang1Ġ dang1
1 Ġli4Ġ
40 Ġ
Ġbing4 Ġbei4Ġ
tiao2Ġ zheng3
qu1 Ġhe2Ġ
Ġyi1Ġ tong2Ġ
Ġzhong1Ġhua2Ġren2Ġmin2Ġgong4Ġhe2Ġguo2Ġ zheng4Ġzhi4Ġren2Ġwu4Ġ
Ġshi4Ġ yu2Ġ
jing1Ġ yan4Ġ
xun2Ġ yang2
pu3Ġ bian4Ġ
Ġ dian4Ġying3Ġ
Ġzhong1Ġ bei4Ġ
guan1Ġ dian3Ġ
ke1ĠdeĠ qi2Ġzhong1Ġyi1Ġzhong3Ġ
Ġ sheng1Ġyu2Ġ
Ġgong1Ġ yi4Ġ
Ġ shuo1Ġ
han2 Ġyou3Ġ
Ġji4Ġ suan4Ġ
liang3 Ġming2Ġ
dian3 Ġli3Ġ
Ġshi4Ġ gong1Ġ
zhong4Ġ duo1Ġ
jiang4Ġ di1Ġ
da4 Ġzhi4Ġ
Ġ jiu4Ġshi4Ġ
Ġbing4Ġ du2
Ġqi2Ġzhong1Ġ yi1Ġ
ya4 Ġjun1Ġ
she4Ġ qu1Ġ
Ġ fan1Ġ
kou3 Ġwei4Ġ
cheng2Ġ yuan2Ġ
Ġxian4 Ġshi4Ġ
zhi1Ġ qian2Ġ
mi4Ġshu1Ġ zhang3Ġ
Ġ 7Ġ
Ġdi4Ġ si4
Ġ reng2
zuo4 Ġshi4Ġ
tiao2 Ġli4Ġ
nei4Ġ ge2Ġ
shu4 Ġyu3Ġ
wu2 Ġzheng4Ġzhuang4Ġ
she3 Ġ
Ġxian4Ġ ren4Ġ
tu1Ġ po4Ġ
xie3 Ġdao4Ġ
dang4 Ġtian1Ġ
yi2Ġ du4Ġ
Ġzu3 Ġfu4Ġ
Ġ neng2Ġ
Ġ ping2Ġjun1Ġ
ĠĠĠ 3
gua4 Ġ
Ġxing2 Ġwei4Ġ
Ġgong1Ġ min2Ġ
xing1Ġ deng3Ġwei4Ġ
Ġtong2 Ġyi4Ġ
Ġ liu4
ĠĠĠ ji2Ġ
hong2Ġ se4Ġ
shan1 Ġshi4Ġ
Ġbi3Ġ sai4Ġ
kai1Ġshi3 Ġzai4Ġ
Ġ0 Ġ
tuan2 ĠdeĠ
gei3 ĠleĠ
Ġji1Ġ jin1Ġ
si3Ġ wang2
zheng3Ġ ti3Ġ
Ġ 500
lu3 Ġsi1Ġ
is ĠĠĠ
wan2Ġ zheng3
jue2 Ġdui4Ġ
Ġquan2 Ġli4Ġ
dai4Ġbiao3 Ġda4Ġhui4Ġ
chi2 Ġyou3Ġ
ying1Ġ wen2Ġ
5 Ġren2Ġ
zheng4 Ġbu4Ġ
Ġshi4Ġ bing1Ġ
gai4Ġ nian4
ĠĠĠ 2011
ben3 Ġren2Ġ
Ġgong1Ġ ju4Ġ
she4Ġ shi1Ġ
Ġzui4 Ġchu1Ġ
Ġ sun1
er ĠĠĠ
Ġ 30Ġ
yang2 Ġshi4Ġ
Ġzhe4Ġ zhong3
xia4Ġxia2 ĠdeĠyi2Ġge4Ġ
z Ġ
huang2 Ġhou4Ġ
ĠĠĠ a1Ġ
zhong3Ġ zu2Ġ
Ġsui4 Ġshi2Ġ
Ġ xin4Ġ
ĠĠĠ 2010
ni2 Ġer3Ġ
zhi2Ġ dao3Ġ
ĠdeĠcheng2Ġ ji4Ġ
lai2 Ġyue4Ġ
Ġji2Ġ ren2Ġ
yi2Ġ ding4Ġ
Ġ da2
bao3Ġ shou3Ġ
jie4Ġ shao4Ġ
tou2Ġ xiang2Ġ
gui4Ġ zu2Ġ
ĠĠĠ 1Ġ
yi4 Ġnian2Ġ
yue4 Ġzhong1Ġ
zhen4Ġ qu1ĠdeĠ
zao3Ġ qi1
bo2Ġshi4Ġ xue2Ġwei4Ġ
ĠĠĠ qi2Ġta1Ġ
shan1 Ġji1Ġ
kui4 Ġ
qi3Ġ dong4Ġ
tang1 Ġ
Ġwei2Ġ er3
gu3 Ġdai4Ġ
zhen3 Ġ
Ġming2Ġ dan1Ġ
ming2 Ġren2Ġ
Ġde2 Ġyu3Ġ
shen2Ġ meĠ
Ġyi1Ġ zuo4Ġ
Ġyi3Ġ ji2
Ġer2Ġ gai1Ġ
hei1Ġ se4Ġ
yao1Ġ qing3
Ġren2Ġmin2Ġ zheng4Ġfu3Ġ
en1Ġ sheng3Ġ
tou4Ġ guo4
Ġxiang3 Ġnian2Ġ
wu2Ġzheng4Ġzhuang4Ġ gan3Ġran3Ġ
3 Ġge4Ġ
sui2 Ġzhu4Ġ
sa1 Ġ
mu4Ġ qian2
huo2 Ġyue4Ġ
chang2Ġ wu4Ġ
chang2Ġ wei3Ġ
que4Ġzhen3 Ġbing4Ġli4Ġ
ming2 Ġzhi4Ġ
te ĠĠĠ
Ġri4 Ġyu2Ġ
gai3Ġ ming2Ġwei4Ġ
chu1Ġ shen1Ġ
dian4Ġ hua4Ġ
Ġ 2022
tun2 Ġ
Ġbu4Ġ si1Ġ
Ġji1Ġ si1Ġ
tai4Ġ ziĠ
18 Ġ
Ġbi3Ġ ru2Ġ
gao1Ġsu4 Ġgong1Ġlu4Ġ
ĠĠĠ gai1
ke4 Ġcheng2Ġ
kun4 Ġnan2Ġ
Ġbu4Ġ li4Ġ
zui4Ġ duo1Ġ
que1Ġ fa2
Ġ er4Ġshi2Ġ
dan1 ĠdeĠ
long2 ĠdeĠ
geng4 Ġwei2Ġ
yi3Ġ jing1Ġ
ti2 Ġji2Ġ
ru4Ġ xuan3Ġ
Ġwei4Ġyu2Ġ zhong1Ġguo2Ġ
sai1Ġer3Ġ wei2Ġ
7 Ġren2Ġ
hui4 Ġzhong1Ġ
shou1 Ġji2Ġ
Ġli4Ġ fa3
xue2Ġ hui4Ġ
Ġbing4Ġ fei1Ġ
hai3Ġ xia2Ġ
gou4 ĠdeĠ
gong1Ġ cheng2Ġ
Ġxi1Ġ jie1Ġ
ge1Ġ lun2Ġ
Ġji1Ġ chang3
Ġ yong4
ju4 Ġda4Ġ
duo1 Ġren2Ġ
Ġcheng2Ġ ren2Ġ
fu4Ġ ze2
an1Ġ na4
zu2Ġqiu2Ġ yun4Ġdong4Ġyuan2Ġ
xie3 ĠdeĠ
zhui1Ġ su4
Ġ 2014Ġnian2Ġ
Ġtong2Ġshi2Ġ gai1Ġdi4Ġ
zuo4Ġ chu1Ġ
bei1 Ġsi1Ġ
Ġye3 Ġzai4Ġ
sheng3 ĠdeĠ
ling4 Ġren2Ġ
fan4Ġ zui4Ġ
Ġ yao1Ġqiu2Ġ
hui4 Ġzhi4Ġ
Ġde2Ġ zhu3Ġ
tao3Ġ lun4
Ġji2Ġ di4Ġ
nei4Ġlu4Ġ sheng3Ġfen4Ġ
Ġ yue1
tiao4 Ġ
an1Ġ hui1Ġ
ke1Ġxue2Ġ jia1Ġ
Ġ Z
tu2 Ġxing2Ġ
pi1Ġ zhun3
jiang1 Ġzai4Ġ
Ġbing4Ġ du2Ġ
ci4 ĠdeĠ
zhu2 Ġbu4Ġ
ĠdeĠdi4Ġ er4Ġ
shi4 ĠĠĠ
shou4 ĠdeĠ
shan1 ĠdeĠ
Ġshi4Ġ yin1Ġwei4Ġ
Ġke4 Ġxi1Ġ
qiang2Ġ lie4Ġ
lian2Ġhe2Ġ hui4Ġ
Ġ po4Ġ
chao1 Ġyue4Ġ
1972 Ġnian2Ġ
jie2Ġ guo3
tai2Ġ nan2
jian3Ġ shao3
H Ġ
di1 Ġyu2Ġ
o ĠĠĠ
xia4Ġling4 Ġshi2Ġjian1Ġ
hai3 Ġping2Ġmian4Ġ
bu2 Ġdao4Ġ
Ġshi2Ġ qi1ĠdeĠ
Ġyuan2Ġ xing2Ġ
Ġ wan2Ġjia1Ġ
ye3 Ġzai4Ġ
Ġji1Ġ hui4Ġ
Ġxue2Ġ yuan4
yi2Ġ ding4
hui1Ġ fu4
guo4 ĠdeĠ
ya4Ġ mei3Ġ
pai4Ġ qian3
tou1 Ġ
Ġguo2Ġ nei4Ġ
bian1Ġ jie4Ġ
ti2Ġgong1Ġ leĠ
dong3Ġshi4Ġ zhang3Ġ
Ġ cha2
1978 Ġnian2Ġ
jia4Ġ ge2Ġ
ti2 Ġyi4Ġ
shu1 Ġzhong1Ġ
xun1 Ġzhang1Ġ
fang1Ġ fa3
shi1Ġ bai4Ġ
Ġjiao4Ġ yu4Ġ
zhu3Ġyao4 ĠdeĠ
N Ġ
zhu3Ġ jiao4
Ġhao4 ĠdeĠ
ni2Ġya4 Ġzhou1Ġ
1979 Ġnian2Ġ
Ġhou4Ġ bei4Ġ
guan1Ġ cha2Ġ
Ġxue2Ġ jia1Ġ
liu2Ġ xia4Ġ
shuang1Ġ fang1Ġ
ĠĠĠbei4Ġ jing3Ġ
er2 Ġtong2Ġ
Ġyi1Ġ li4Ġ
jia1 Ġyi4Ġ
Ġbu4Ġ dui4
Ġyi3Ġ wei2Ġ
Ġzai4Ġ shi2Ġ
lian2Ġ xu4
xian4 ĠdeĠ
qin1 Ġzi4Ġ
Ġer2Ġ ziĠ
bei3Ġjing1 Ġshi4Ġ
Ġ 1950
ĠĠĠ 2Ġ
Ġyou3Ġ suo3Ġ
zui4Ġ gao1ĠdeĠ
hui4Ġyi4Ġ yuan2Ġ
san1Ġ jiao3
zhuang1Ġ jia3Ġ
ĠĠĠdi4Ġfang1Ġ zi1Ġliao4Ġ
6 Ġren2Ġ
le Ġzai4Ġ
ren4 Ġwei4Ġ
ma3 Ġer3Ġ
lan2 ĠdeĠ
na2 Ġxia4Ġ
ping2Ġ tai2Ġ
fei1Ġ chang2
ĠĠĠ jian3Ġjie4Ġ
duo1 Ġwei4Ġ
zu3 Ġfu4Ġ
ar Ġ
Ġhe2Ġ yue1Ġ
bei4 ĠdeĠ
1976 Ġnian2Ġ
Ġli4Ġ liang4Ġ
Ġchu1Ġ kou3Ġ
Ġta1Ġceng2 Ġdai4Ġbiao3Ġ
bian3 Ġ
Ġdi4Ġ li3Ġ
nan2Ġ bei3Ġ
gai3Ġ bian4
Ġ Ma
ĠĠĠ Ch
neng2 Ġyuan2Ġ
la Ġ
pi3 Ġ
Ġdi4Ġ qi1Ġ
Ġxian4Ġ fa3Ġ
Ġhou4Ġ zhe3Ġ
zi4 ĠdeĠ
tai2 Ġzhong1Ġ
di2 Ġshi4Ġ
Ġzheng4Ġ ming2Ġ
Ġshi2Ġji4Ġ shang4Ġ
Ġcheng2Ġ zhen4Ġ
que1Ġ fa2Ġ
Ġ mei2
Ġ 2015Ġnian2Ġ
xuan3 Ġzhong1Ġ
di2 Ġren2Ġ
Ġli4Ġ yi4Ġ
Ġ 28
li3 Ġhe2Ġ
liao3 Ġ
pai4 Ġchu1Ġ
Ġzhong1Ġguo2Ġren2Ġmin2Ġ jie3Ġfang4Ġjun1Ġ
duo1Ġ zhong3Ġ
tan2Ġ pan4Ġ
liao2Ġ ning2Ġ
ping2 Ġwei4Ġ
Ġbu4Ġ shao3Ġ
Ġsi1Ġ ta3Ġ
ti2 Ġchu1ĠdeĠ
sui2 Ġji2Ġ
Ġ lu3Ġ
mian3Ġ dian1
tui4Ġ xiu1Ġ
Ġda4Ġxue2 ĠdeĠ
hai3Ġba2 Ġwei4Ġ
Ġ su4Ġ
gan4 Ġbu4Ġ
lei3 Ġji4Ġ
Ġshi2Ġ xing2Ġ
ying1Ġ ge2Ġlan2
dang1 Ġzhong1Ġ
jue2 Ġyi4Ġ
xu4 Ġli4Ġya4Ġ
shang1 Ġren2Ġ
biao1 Ġben3Ġ
fa1Ġ sheng1Ġzai4Ġ
suo3Ġ cai3Ġyong4
zhi3Ġ dao3Ġ
Ġju4Ġ jue2Ġ
Ġ p
hua4 Ġzhong1Ġ
zan4 Ġshi2Ġ
1958 Ġnian2Ġ
Ġfu4Ġ jin4
Ġzhong1Ġgong4 Ġzhong1Ġyang1Ġ
Ġyi4Ġ qing2Ġ
nong2Ġ min2Ġ
ci4 Ġyu2Ġ
ceng2 Ġwei4Ġ
ĠĠĠ 1
yi2 Ġdai4Ġ
chan2 Ġ
Ġde2 Ġming2Ġ
xiu1Ġ gai3Ġ
ĠĠĠ yin1Ġ
shui3 Ġli4Ġ
rong2 Ġhe2Ġ
st Ġ
Ġzhong1Ġ guo2ĠdeĠ
fa1 Ġming2Ġ
mei3 Ġzhou1
zhuan3 Ġxiang4Ġ
Ġqi2 Ġwei4Ġ
zhi3Ġ neng2Ġ
zi1Ġ liao4
Ġming2 Ġzhi4Ġ
Ġgong1Ġ zhong4Ġ
zhong3Ġ ziĠ
zhu3Ġ yan3Ġ
zi1Ġ ben3Ġ
a1Ġla1Ġ bo2
tion Ġ
xiang1Ġ si4Ġ
jie1Ġ chu4Ġ
Ġbei3Ġ jing1
kai1 Ġshe4Ġ
xiu1 Ġjian4Ġ
guan1Ġ cha2
jing4 Ġji4Ġ
ĠdeĠshi4Ġ jie4Ġ
Ġ ba3
Ġ dian4Ġshi4Ġ
Ġ 2016Ġnian2Ġ
wu3Ġ zhuang1
bao4Ġ zha4Ġ
jie3Ġ san4Ġ
x ĠĠĠ
Ġ cn
dian4 Ġji1Ġ
chai1 Ġchu2Ġ
kai1Ġ tong1Ġ
fa1Ġ qi3Ġ
fa1Ġ shou4Ġ
ju3Ġban4 ĠdeĠ
shen1Ġ du4Ġ
an1Ġ pai2
qu1 Ġshi4Ġ
nu3 Ġ
2025 Ġnian2Ġ
wei2Ġ si1Ġ
tuan2Ġ ti3
ji1Ġ gou4Ġ
fu4Ġ zhu3Ġren4Ġ
zu3Ġzhi1 ĠdeĠ
Ġ tang2
feng1Ġ xian3Ġ
diao4Ġ kuai4
ĠĠĠ qi2
cheng2 Ġhe2Ġ
bian1 Ġju4Ġ
Ġyu3Ġ qi2Ġta1Ġ
ĠĠĠ dui4Ġ
zhang1Ġ zhuan1Ġji2Ġ
jie2 ĠdeĠ
zao4 ĠleĠ
Ġwei4Ġ UTCĠ
Ġbu4Ġ ji2Ġ
Ġzhong1Ġ shan1Ġ
neng2Ġ liang4Ġ
shuai4Ġ ling3
Ġcn Ġ
shou3 Ġzhong1Ġ
ban4Ġshi4Ġ chu4Ġ
Ġ ge1
qiu2 Ġji4Ġ
ying1Ġ gai1Ġ
Ġxi1Ġban1Ġ ya2Ġ
you2 Ġji1Ġ
luo2 Ġli3Ġ
ge2Ġ la1Ġ
jiu4Ġ du2Ġ
shang1Ġ ye4
qiang2Ġ diao4Ġ
diao4Ġkuai4 Ġyi1Ġxiao3Ġshi2Ġ
ze2 Ġzai4Ġ
ĠdeĠ ying3Ġxiang3Ġ
Ġnian2Ġ lai2Ġ
Ġ 19
kun4 Ġ
Ġwei4Ġ da4Ġ
Ġji2Ġ UTCĠ
ying1Ġ xiong2Ġ
Ġtong2Ġ yang4
ke1Ġxue2Ġ yuan4Ġ
she4Ġyou3Ġ xia4Ġling4Ġshi2Ġjian1Ġ
ĠdeĠshi2Ġqu1Ġwei4Ġ UTCĠ
Ġer2Ġgai1Ġdi4Ġ suo3Ġcai3Ġyong4
Ġtong2Ġshi2Ġgai1Ġdi4Ġ she4Ġyou3Ġxia4Ġling4Ġshi2Ġjian1Ġ
Ġer2Ġgai1Ġdi4Ġsuo3Ġcai3Ġyong4 ĠdeĠshi2Ġqu1Ġwei4ĠUTCĠ
bao3Ġ liu2
xiao1Ġ fei4Ġ
xin4Ġ yang3Ġ
ta1Ġmen ĠdeĠ
shuai1 Ġ
Ġda4Ġ jiang3Ġ
jiao4Ġ tang2
Ġling4 Ġyou3Ġ
Ġyi1Ġsi1Ġ lan2Ġ
yuan2Ġ zhu4Ġ
tai4Ġ du4Ġ
chuan2Ġ bo1Ġ
Ġgai1Ġ cun1Ġ
Ġ jia3
suo3 Ġzai4Ġdi4Ġ
que4 ĠdeĠ
pei4 Ġzhi4Ġ
zhi1Ġ jian1ĠdeĠ
ĠĠĠ jiao1Ġtong1Ġ
fa1 Ġshe4
Ġshi2Ġ wu4Ġ
ding4Ġ ju1Ġ
Ġli4Ġshi3Ġ shang4Ġ
gao1Ġyu2Ġ hai3Ġping2Ġmian4Ġ
ou3 Ġ
Ġwei4Ġfu2Ġqi2Ġyu2Ġ gang1Ġ
xing4 Ġwei4Ġ
zhu2 Ġjian4
Ġbu4Ġ neng2
Ġgong1Ġ jue2Ġ
Ġer3Ġ duo1Ġ
Ġma3Ġ lai2
wu4 Ġhe2Ġ
hu4 Ġxiang1Ġ
Ġqi2Ġ xia4Ġ
Ġ zheng1Ġ
ĠĠĠ qing1Ġ
chu4ĠdeĠ hai3Ġba2Ġwei4Ġ
chu4ĠdeĠhai3Ġba2Ġwei4Ġ gao1Ġyu2Ġhai3Ġping2Ġmian4Ġ
hou4 Ġwei4Ġ
Ġyu2Ġ le4
Ġyin1Ġ su4Ġ
Ġ 23
Ġ kuan1
ti3 Ġzhi4Ġ
qia4 Ġ
jing4Ġ xuan3Ġ
wu4 Ġshi4Ġ
chang3Ġ suo3Ġ
ĠĠĠ 17
Ġzhi1 Ġyi4Ġ
Ġ dan1
Ġhe2Ġ pan4Ġ
Ġbu4Ġ jin3Ġ
Ġyi3Ġ xi1Ġ
Ġ chu2
fa1 Ġxian4ĠdeĠ
zhong4 Ġshi4Ġ
kuang2 Ġ
Ġqi2 Ġshi2Ġ
Ġsui2 Ġzhu4Ġ
Ġ xie4Ġ
nan2Ġ jing1
zhang3Ġ da2Ġ
yun4Ġ shu1
Ġ 2008
Ġ 2017Ġnian2Ġ
shu4 Ġshi2Ġ
nei4 Ġdi4Ġ
8 Ġren2Ġ
Ġ 8Ġ
ĠĠĠ ma3Ġ
lu4 Ġzhi4Ġ
shi2Ġ qu1Ġ
gao1Ġ xiong2
chong2Ġ qing4
Ġ ni3Ġ
jian4 Ġcheng2Ġ
geng1 Ġxin1Ġ
Ġyi1Ġ jia1Ġ
Ġxi1Ġ lan2Ġ
yun4Ġ yong4Ġ
Ġzi4Ġ ran2Ġ
bian1 Ġhao4Ġ
bi4Ġ ye4Ġhou4Ġ
ĠĠĠ ran2
er4 Ġji2Ġ
Ġli4Ġ ren4Ġ
dian4Ġ qi4Ġ
shan1Ġ feng1Ġ
Ġwei4Ġyu2Ġ gai1Ġ
Ġ xu1Ġ
Ġ zheng4Ġzhi4Ġ
wei2Ġ er3Ġ
zhi2Ġ zheng4Ġ
xiao4Ġ qu1Ġ
Ġ hu2
Ġ huan4Ġ
zhe3 Ġshi4Ġ
wang2 Ġshi4Ġ
Ġzuo4Ġ chu1Ġ
xia2Ġ qu1Ġ
ĠĠĠ ben3
bao1 Ġwei2Ġ
bang4 Ġqiu2Ġ
Ġdi4Ġ qiu2
xuan1Ġ chuan2
xue2 Ġyuan2Ġ
jiu4 Ġhui4Ġ
cuo4 Ġwu4Ġ
jin1Ġ rong2Ġ
Ġyu4Ġ shi3Ġ
Ġ lian2Ġhe2Ġ
dong1Ġ fang1Ġ
Ġ yi2
hou4 Ġyi4Ġ
bei3 Ġshi4Ġ
jing1Ġ chang2
Ġran2 Ġer2
Ġ dai4
Ġjie2 Ġke4Ġ
hui4 Ġyu2Ġ
Ġsi1Ġ ke1Ġ
Ġdui4Ġ shou3Ġ
Ġxing2Ġzheng4Ġ qu1Ġ
zhen4Ġqu1ĠdeĠ mian4Ġji1Ġwei4Ġ
ming2 Ġshi4Ġ
Ġzhou1Ġ ci4Ġshi3Ġ
Ġsheng1Ġ ya2Ġ
jia1 Ġyi3Ġ
ju2 ĠdeĠ
pao3 Ġ
fu2 ĠdeĠ
ma3 Ġke4Ġ
Ġta1 Ġyi3Ġ
Ġyuan2Ġ zi4Ġ
zao4Ġ cheng2ĠdeĠ
Ġ Y
ke3 Ġzai4Ġ
Ġli3Ġ xi1Ġ
zhi2Ġ min2Ġ
Ġ 2023
ping2Ġ lun4
fu1Ġ ka3Ġ
Ġfu2Ġ wu4Ġ
Ġdang1Ġ shi2ĠdeĠ
Ġ qin1Ġ
ao4 Ġzhou1Ġ
Ġyi1Ġ ju4Ġ
ji4 Ġyou3Ġ
shi3 Ġjian4Ġyu2Ġ
ren4 ĠdeĠ
ye3 Ġbei4Ġ
mian4 Ġshang4Ġ
gong1Ġ gong4Ġ
Ġsi1Ġ ke4
Ġer2Ġ tong2Ġ
Ġci4 Ġnian2Ġ
Ġ 2018Ġnian2Ġ
Ġxue2Ġ zhe3Ġ
Ġjian4 Ġshe4
Ġwei2Ġ rao4
Ġye3 Ġbei4Ġ
qian1Ġ shu3Ġ
Ġqi2Ġzhong1Ġ bao1Ġkuo4Ġ
Ġ ting2Ġ
jia1 Ġzai4Ġ
ban4 ĠdeĠ
Ġ 2009
ĠĠĠ In
hai3Ġ yang2Ġ
ji1 Ġzai4Ġ
lai2 Ġyin1Ġ
jun4 Ġgong1Ġ
tu1 Ġran2Ġ
Ġji2Ġ da4Ġ
ji4Ġ nian4
Ġde2 Ġzhi1Ġ
Ġji1Ġ jin1Ġhui4Ġ
qi4Ġ che1
xiao4Ġli4Ġ yu2Ġ
Ġ ban3Ġ
Ġ 2019Ġnian2Ġ
ru2Ġ guo3Ġ
ling4Ġ yi2Ġge4Ġ
xiao1Ġ shi1Ġ
tian2Ġ jing4Ġ
tao2Ġ tai4Ġ
Ġ gan3Ġ
Ġwei4Ġ dui4Ġ
dang1Ġ di4ĠdeĠ
jiang4Ġ ling3Ġ
Ġ bai3
yan2Ġ hai3Ġ
wei3Ġyuan2Ġhui4Ġ wei3Ġyuan2Ġ
1968 Ġnian2Ġ
Ġli3Ġ ya4Ġ
Ġ 2Ġyue4Ġ
ĠĠĠ jin3Ġ
ping2 Ġyuan2Ġ
deng3 Ġji2Ġ
er4 Ġren2Ġ
bei4Ġ jing3Ġ
ka3Ġ luo2Ġ
Ġ bai4Ġ
ĠĠĠ sheng4Ġ
dui4 Ġqi2Ġ
jin4 Ġbu4Ġ
liang3 Ġguo2Ġ
te4Ġ ding4Ġ
fen4Ġ zi3
Ġ yun2Ġ
da4 Ġbu4Ġ
ding4 Ġyu2Ġ
Ġqi2 ĠdeĠ
ĠdeĠbu4Ġ fen4Ġ
zhi2Ġmin2 Ġdi4Ġ
Ġ 26
Ġ xian1
Ġ fa1Ġxian4Ġ
Ġ e4Ġ
jiao4 Ġda4Ġ
Ġzhi4Ġ zuo4ĠdeĠ
Ġji1Ġ du1Ġ
gai3Ġ zao4Ġ
chuan2Ġtong3 ĠdeĠ
sheng1Ġ ya2
dian4Ġ nao3Ġ
Ġbu4Ġbu4Ġ zhang3Ġ
guan1 Ġjian4Ġ
jing1Ġ shen2
Ġqian2Ġ wang3Ġ
dian3 Ġshi4Ġ
yi4Ġ shu4Ġ
li2Ġ kai1
quan2Ġ mian4Ġ
mo4Ġxi1Ġ ge1Ġ
Ġ shou3
ch Ġ
zhen4 ĠdeĠ
tui1 Ġchu1
gou3 Ġ
guo2Ġ jia1
Ġdi4Ġ tie3
Ġxian4 Ġyi3Ġ
Ġji1Ġ chu3
Ġju4Ġ li2
Ġ xian2Ġ
Ġluo2Ġ ma3Ġ
Ġ sha1
ĠĠĠ 4
tou Ġ
Ġshi2Ġ duan4Ġ
jie1Ġ duan4
liang3Ġ ci4Ġ
ai4Ġer3Ġ lan2Ġ
wen2 ĠdeĠ
san1 Ġming2Ġ
hun1 Ġyin1Ġ
da4Ġ lu4
Ġyi4Ġ yu2Ġ
shu1Ġ yuan4Ġ
Ġshan1Ġ dong1Ġ
a1Ġla1Ġ bo2Ġ
Ġ xing1
mu4 ĠdeĠ
ge2 Ġshi4Ġ
ĠĠĠ nan2Ġ
bo1 Ġsi1Ġ
hui4Ġ zhang3Ġ
man3Ġ zu2Ġ
Ġdian4Ġ ying3
qi1 Ġwei4Ġ
liang3 Ġwei4Ġ
pei4 Ġyin1Ġ
Ġdi4Ġ dian3Ġ
jing4Ġ zheng1Ġ
cai2Ġ neng2Ġ
xin1 Ġcheng2Ġ
1970 Ġnian2Ġ
zheng4Ġ ju4Ġ
lian2 ĠdeĠ
xiu1 Ġfu4Ġ
ne Ġ
Ġbing4Ġ you2Ġ
hu4Ġ lian2Ġ
chu1Ġ ban3
Ġyou2 Ġji1Ġ
Ġwu2Ġ fa3Ġ
la1 Ġji1Ġ
kao4 Ġjin4Ġ
Ġdi4Ġ dai4Ġ
Ġli4Ġ shi2Ġ
jie3Ġ fang4Ġ
nei4 Ġzhan4Ġ
bo1 Ġshi4Ġ
Ġwei2Ġ chi2
zai1Ġ pei2Ġ
V Ġ
Ġ chong1Ġ
dui4Ġ zhang3Ġ
fa1Ġ qi3
ju1Ġ zhu4Ġzai4Ġ
shou1Ġ gou4Ġ
Ġ liu4Ġ
zhe4 Ġshi4Ġ
zao3 Ġzai4Ġ
Ġ wan2Ġ
bing4 Ġbu4Ġ
shou3Ġ xiang4Ġ
shan1Ġ qu1Ġ
jiao1Ġ liu2
zu2Ġqiu2 Ġju4Ġle4Ġbu4Ġ
Ġ gen1Ġ
li3 Ġcheng2Ġ
Ġguo2Ġwu4Ġ yuan4Ġ
wei3 Ġfu4Ġ
qi3 Ġyuan2Ġ
Ġshi4Ġ de2Ġguo2Ġ
cun1Ġ luo4Ġ
fu1 ĠdeĠ
ji1Ġ chu3
Ġda4Ġ lou2
yan2Ġ se4Ġ
xiang4Ġ zheng1Ġ
Ġwei2Ġ si1Ġ
tian1Ġ ti3Ġ
dou1 Ġbei4Ġ
Ġbu4Ġ bing1Ġ
Ġyu3Ġ yan2
ĠĠĠdi4Ġ er4Ġ
Ġ 2004Ġnian2Ġ
liu4 Ġshi2Ġ
Ġzhi4Ġ liang4Ġ
Ġzhou1Ġ fu3Ġ
lang2 Ġzhong1Ġ
Ġyi1Ġ yuan4
Ġxing2Ġ mu4Ġ
chang2Ġ du4Ġ
xing4 Ġhe2Ġ
Ġyi3Ġ wai4Ġ
luo4Ġ fa2
Ġ ding1Ġ
1956 Ġnian2Ġ
Ġzhi4Ġ di4Ġ
Ġyu3Ġ yi1Ġ
tai4Ġ yang2
wu2Ġzheng4Ġzhuang4Ġgan3Ġran3Ġ zhe3Ġ
ĠĠĠ 2008
liang4 Ġwei4Ġ
mu3 ĠdeĠ
juan4 Ġ
Ġde2 Ġsi1Ġ
shi1Ġ qu4
Ġ 2020Ġnian2Ġ
ĠĠĠ Ma
zui4 Ġchu1
Ġ yi4Ġshi4Ġ
xie3 Ġzuo4Ġ
meng4 Ġjia1Ġ
te4Ġ xing4Ġ
Ġwei4Ġyu2Ġ mei3Ġguo2Ġ
Ġ bao3
Ġ za2Ġzhi4Ġ
jia3 Ġdi4Ġ
ao4Ġ men2
Ġzui4 Ġjia1Ġ
2 Ġge4Ġ
1981 Ġnian2Ġ
zhi2Ġye4Ġ sheng1Ġya2Ġ
suo3 ĠdeĠ
fu2 Ġli4Ġ
1920 Ġnian2Ġ
Ġxian4 Ġji2Ġ
fu4 Ġhe2Ġ
zhuan4 ĠdeĠ
1960 Ġnian2Ġ
zong1 Ġyi4Ġ
chuang2 Ġ
zi4Ġ mu3Ġ
ling2Ġ chen2Ġ
Ġ can1Ġyu4Ġ
suo3 Ġwei4Ġ
tou4 Ġlu4Ġ
dong1Ġ bei3
Ġ fa1Ġxing2Ġ
jue2 Ġshi4Ġ
ou3 Ġxiang4Ġ
ping2 ĠdeĠ
kao3 Ġshi4Ġ
Ġfu2 Ġjian4Ġ
9 Ġren2Ġ
Ġ yi2Ġge4
ĠĠĠ ge4Ġren2Ġ
zong3 Ġren2Ġkou3Ġ
1964 Ġnian2Ġ
Ġdi4Ġ fang1
Ġxian4 Ġcheng2Ġ
Ġli3Ġ ke4Ġ
Ġde2Ġ la1Ġ
kong1Ġ qi4Ġ
Ġ 50
Ġ nuo4Ġ
na4 ĠdeĠ
zuo4Ġ wei2
zhu3Ġ zhang1Ġ
xi1 Ġhe2Ġ
xi1Ġ nan2Ġ
hui2 Ġyi4Ġ
fen2 Ġ
Ġyi3 Ġzai4Ġ
Ġye3Ġ ke3Ġyi3Ġ
pu2Ġtao2Ġ ya2Ġ
ĠĠĠ ren2Ġ
Ġzuo4Ġ zhan4Ġ
Ġ tai4
qi1 Ġshi2Ġ
zou3 Ġxiang4Ġ
Ġcheng2Ġ ke4Ġ
su1Ġ ge2Ġlan2Ġ
Ġ ku4Ġ
che1 Ġdui4Ġ
Ġer3 Ġshi4Ġ
nan2 ĠdeĠ
guo4 ĠleĠ
hu4 Ġbu4Ġ
Ġdi4Ġ tu2Ġ
Ġyuan2Ġ ben3
Ġchu1 Ġdao4Ġ
xun2Ġ zhao3
yin4Ġ ni2Ġ
Ġ 2007
Ġ 35
Ġ sun1Ġ
Ġ 2021Ġnian2Ġ
wu3 Ġshi4Ġ
shou1 Ġdao4Ġ
wa3 Ġer3Ġsheng3Ġ
xin4Ġ yang3
Ġ zhen1
guan3 Ġzhi4Ġ
gu3 Ġli4Ġ
Ġgong1Ġ li3ĠdeĠ
shi3Ġ shang4Ġ
zhu3Ġyi4Ġ zhe3Ġ
Ġ kai3
1948 Ġnian2Ġ
Ġwei4Ġ yuan2Ġ
Ġyi3 Ġyu2Ġ
guo4Ġ du4Ġ
yan2 Ġren2Ġ
luo4 Ġcheng2Ġ
xian3 Ġzhu4Ġ
si Ġ
1975 Ġnian2Ġ
guo2Ġ wu4Ġ
guang3Ġ chang3
Ġshi2Ġyan4 Ġshi4Ġ
Ġsi1Ġling4 Ġbu4Ġ
5 Ġmi3Ġ
shi3 Ġren2Ġ
jiang1 Ġyu2Ġ
du4 Ġhe2Ġ
bi4 ĠdeĠ
mai4 Ġke4Ġ
Ġdi4Ġ liu4Ġ
wang4Ġ yuan3Ġ
xi1 Ġdi4Ġ
si4 ĠdeĠ
xiu1 Ġdao4Ġ
ba Ġ
Ġda4Ġ gong1Ġ
Ġfu4Ġ jin4ĠdeĠ
zhuan1Ġ ye4
Ġ kou3Ġ
shou3Ġ du1
ge2Ġ li2Ġ
shao4Ġ nv3Ġ
ĠĠĠ yue4Ġ
shang4 Ġxian4Ġ
yan2 Ġzhi4Ġ
Ġ 24
Ġ tiao2Ġ
yu2 Ġhe2Ġ
xiang1Ġ guan1ĠdeĠ
dong1Ġ jing1
deng3Ġ deng3Ġ
Ġ xiao3Ġshi2Ġ
di4 Ġhe2Ġ
fang4 Ġzai4Ġ
Ġji2Ġ shi3Ġ
jian1Ġ yu4Ġ
mian3Ġ fei4Ġ
Ġ dang3Ġ
jiao3 Ġdu4Ġ
zuo3 Ġyi4Ġ
Ġcheng2Ġ ben3Ġ
wei2Ġ zhu3Ġ
fan3Ġ hui2
bei4Ġ cheng1Ġwei2Ġ
Ġxing2Ġ dong4
cai3Ġ qu3
guan3Ġli3Ġ ju2Ġ
Ġ diao4Ġ
hun2 Ġ
1952 Ġnian2Ġ
tai2Ġbei3 Ġshi4Ġ
Ġ 29
Ġyue4Ġ dui4Ġ
Ġjun1Ġ qu1Ġ
bi4Ġ mian3
kong1Ġ jian1
xing2Ġ tai4Ġ
ĠĠĠ dang1Ġ
she4 Ġbei4Ġ
xiang1 Ġshi4Ġ
ka3 Ġsi1Ġ
cai3Ġ fang3
Ġ 25
Ġ se4Ġ
ĠĠĠ 2009
shan1 Ġxian4Ġ
li3Ġ lun4
Ġer2Ġ fei1Ġ
gai3Ġ shan4Ġ
fei4Ġ chu2Ġ
xi1Ġ bei3Ġ
jia4Ġ shi3Ġ
zheng4Ġfu3 ĠdeĠ
k ĠĠĠ
shang4 Ġdi4Ġ
dao3 Ġshang4Ġ
th Ġ
Ġzai4Ġ he2Ġ
Ġke4 Ġer3Ġ
Ġshe4 Ġyu2Ġ
luo4Ġ shan1Ġji1Ġ
Ġ 27
Ġ zu2Ġ
ci3 Ġtong2Ġshi2Ġ
Ġ shen2
Ġ xie4
Ġ feng4Ġ
Ġ 2002Ġnian2Ġ
kai1 Ġgong1Ġ
tong1 Ġzhi1Ġ
bo1Ġ li2Ġ
Ġ jue2Ġding4Ġ
ĠĠĠ si1Ġ
hen3Ġ kuai4Ġ
Ġ cai4
jiu4 Ġyuan2Ġ
ci2 ĠdeĠ
Ġdi4Ġyi1Ġ ci4
Ġ yong3
he2 Ġzai4Ġ
ye3 Ġhui4Ġ
huai4 Ġ
wa2 Ġ
Ġzhi1 Ġshi4Ġ
hai3Ġ an4
ci2Ġ zhi2Ġ
e2Ġluo2Ġ si1ĠdeĠ
Ġ pu3
kou3 ĠdeĠ
Ġyi4Ġ jian4Ġ
Ġ suo1Ġ
ĠĠĠ zheng4Ġ
Ġwei4Ġ zai4Ġ
shen2Ġ me
ĠĠĠ w
Ġ 60
zheng1 Ġyue4Ġ
ti4 Ġdai4Ġ
Ġren2Ġ da4Ġ
Ġfen1Ġ bie2Ġ
chu4Ġ zhang3Ġ
chong1Ġ tu1
jiu3 ĠdeĠ
qiang2 Ġzhi4Ġ
Ġshi2Ġ xian4
jian1Ġ du1Ġ
ying3 Ġshi4Ġ
yin3Ġ yong4Ġ
ti2Ġchu1Ġ leĠ
wai4Ġjiao1 Ġbu4Ġ
4 Ġge4Ġ
Ġ mi4Ġ
Ġ kai3Ġ
xue2 Ġzhong1Ġ
qiang2 ĠdeĠ
Ġge4 Ġguo2Ġ
min2Ġzhu3Ġ dang3
shan1 Ġdi4Ġ
jin3 Ġyou3Ġ
ji4Ġ suan4
ĠĠĠ ba1Ġ
feng1 Ġfu4Ġ
Ġzhu3Ġ yan3Ġ
xi3Ġ huan1Ġ
si1 Ġshi4Ġ
nuo2 Ġwei1
Ġ xi2Ġ
Ġ e2Ġ
ĠĠĠ gu4Ġshi4Ġ
Ġsi1Ġ ma3Ġ
Ġhao4 Ġxian4
tian1 Ġhou4Ġ
ceng2 Ġyu2Ġ
Ġge4Ġ zhong3
zhang3Ġ guan1Ġ
zong1Ġ jiao4
xiao3Ġxing2Ġ xing1
Ġshi2Ġ hou4Ġ
mo4Ġxi1Ġ ge1
Ġyou3Ġ xie1
pu3Ġ bian4
bu4ĠdeĠ cun1Ġzhuang1Ġ
ĠĠĠyi3Ġ xia4
Ġ lei2
ĠĠĠ fu4Ġ
guan3 ĠdeĠ
zan4 Ġzhu4Ġ
yin4Ġ shua1
Ġ chuan1Ġ
cu4 Ġjin4Ġ
Ġyue4Ġ lai2Ġyue4Ġ
liu2Ġ yu4Ġ
Ġ fa3
1966 Ġnian2Ġ
gu3Ġ lao3
a1Ġ gen1Ġ
ma3Ġlai2 Ġxi1Ġya4
Ġ pa4Ġ
ĠĠĠ wei2Ġ
ta1 Ġzai4Ġ
jiang4 Ġyu3Ġ
liao3 Ġjie3Ġ
kou4 Ġ
jia1Ġ ting2Ġ
ce4Ġ liang2Ġ
Ġ xu4Ġ
fu4 Ġshi4Ġ
lie4 Ġchu1Ġ
ĠdeĠ ju4Ġ
Ġcheng2Ġ xian4
Ġzhi1 Ġdi4Ġ
jing1Ġ dian3Ġ
che1Ġ xiang1Ġ
Ġdan4Ġ bai2Ġ
yun3 Ġshi2Ġ
Ġxian4Ġ shang4Ġ
lie4Ġ ru4Ġ
qiang2Ġ du4Ġ
su1 Ġwei2Ġ
guan4 Ġjun1
Ġbu4Ġ shao3
Ġzhi1 Ġjia1Ġ
fa1Ġ dong4Ġji1Ġ
can1Ġ xuan3Ġ
Ġ zu2
Ġke4 Ġhe2Ġ
bi4Ġ mian3Ġ
ting2Ġ che1Ġ
Ġ ni3
Ġxiang1Ġ dang1
tong2Ġ xing4Ġ
zao3 Ġshang4Ġ
1937 Ġnian2Ġ
zhu3Ġ ti2
chuang4Ġ zuo4ĠdeĠ
sen1Ġ lin2
Ġfu4Ġze2Ġ guan3Ġxia2Ġ
Ġ ì
ao4 Ġer3Ġ
la1 ĠdeĠ
1974 Ġnian2Ġ
ming2Ġ dan1Ġ
zhan4Ġ tai2Ġ
guo2 Ġshi4Ġ
hu1 Ġyu4Ġ
Ġgong1Ġ ying4Ġ
jian1Ġ ren4Ġ
xuan3Ġju3 Ġzhong1Ġ
ĠĠĠ s
1946 Ġnian2Ġ
Ġyi1Ġ zhi2Ġ
guan1Ġ fang1
suo3Ġ you3ĠdeĠ
bo2Ġ lin2Ġ
jian4Ġ zhu4
di1Ġ qi4Ġ
li2 Ġmi3Ġ
jing3Ġ gao4Ġ
cai2Ġ liao4
ĠĠĠzeng1Ġ zu3Ġ
Ġ kao3Ġ
sao1 Ġ
nan2Ġ zi
ti3Ġyu4Ġ chang3Ġ
guang3 Ġzhou1
lian2Ġ jie1
la1 Ġde2Ġ
shu1 Ġchu1Ġ
Ġbu4Ġ man3Ġ
Ġgong1Ġ neng2
zhao4Ġ pian1Ġ
xia4 Ġzai4Ġ
lan2 Ġxi1Ġ
dun4 ĠdeĠ
Ġqiu2 ĠdeĠ
yin3Ġ ru4Ġ
yin2Ġ pai2Ġ
yao2Ġ gun3
hai2 Ġzai4Ġ
Ġer2Ġgai1Ġ di4ĠdeĠ
Ġ t
ying1 Ġli3Ġ
nuo2 Ġwei1Ġ
guo2Ġ wang2Ġ
Ġyu3Ġ qi2Ġ
qi1Ġ zi3
an1Ġ zhuang1Ġ
xu4 Ġli4Ġya4
zao3Ġ qi1ĠdeĠ
shi2 Ġhe2Ġ
tu2 ĠdeĠ
1954 Ġnian2Ġ
mou3Ġ xie1
ceng2 ĠdeĠ
Ġji4Ġ lu4
Ġchu1Ġ yan3Ġ
zhi1 Ġshi2Ġ
zhan4 Ġdi4Ġ
qiu2 Ġhui4Ġ
Ġbei4Ġ er3
Ġ shun4
Ġ ba3Ġ
zhan4 Ġshi2Ġ
fei1 Ġxing2
zao1 Ġyu4Ġ
Ġnian2Ġ qing1Ġ
Ġwei4Ġ neng2
xia4Ġ lai2Ġ
shen1Ġ qing3
Ġhe2Ġ gu3Ġ
Ġcheng2Ġ leĠ
Ġyi3Ġ qian2Ġ
Ġji4Ġ yi4Ġ
Ġke4 Ġli4Ġ
fa1Ġ sheng1ĠdeĠ
shi1Ġ qu4Ġ
gu3Ġ la1Ġ
Ġ jie1
qian2 Ġhou4Ġ
10 Ġnian2Ġ
bian1 Ġyuan2Ġ
mo4 Ġer3Ġ
zhong1Ġ yang1Ġ
Ġjia1Ġ ting2
Ġxiang1Ġ tong2Ġ
you1Ġ xiu4
Ġyi3Ġse4Ġ lie4Ġ
te4 Ġli4Ġ
Ġshi2Ġ bao4Ġ
xing1Ġ qi1
Ġ qing3Ġ
shan1Ġdong1Ġ sheng3Ġ
Ġzhao1 Ġhe2Ġ
Ġ ye4
dui4 Ġyuan2Ġ
zu3 ĠdeĠ
Ġdui4Ġ ci3Ġ
ĠĠĠgai4Ġ yao4Ġ
Ġ 2006
san1 Ġda4Ġ
ĠdeĠ zhu3Ġyao4Ġ
tai4Ġ kong1Ġ
Ġzi4Ġ you2
Ġ fou3
Ġjun1 Ġdi4Ġ
Ġsheng1Ġ ming2Ġ
Ġzhi3 Ġzai4Ġ
Ġ 2000Ġnian2Ġ
zha4 Ġdan4Ġ
niang2 Ġ
Ġ Re
ĠĠĠ The
wang3 Ġshang4Ġ
ta3 Ġer3Ġ
Ġdi4Ġ zhen4Ġ
xia4Ġ jiang4Ġ
Ġ wai4
Ġ song4
ce Ġ
ling3Ġ dao3ĠdeĠ
yan2Ġjiu1 Ġsheng1Ġ
Ġ shui3
te4 Ġer3Ġ
bao3 ĠdeĠ
Ġxian4 Ġyou3Ġ
Ġyuan2Ġ yin1
dian4Ġshi4Ġ tai2
Ġ000 Ġ
Ġ cai2
Ġ 40
wu1 Ġsi1Ġ
hao3 Ġping2Ġ
zhai1 Ġ
1955 Ġnian2Ġ
Ġzhong1Ġ jian1Ġ
pu3Ġ cha2Ġ
Ġshou3Ġ ci4Ġ
duo1Ġ ci4
hui2Ġ gui1Ġ
ĠB Ġ
1 Ġge4Ġ
Ġ cai3Ġyong4Ġ
tong2 Ġming2Ġ
te4 Ġyou3Ġ
bian1 Ġwei4Ġ
Ġji2Ġ bing4Ġ
bo2Ġ jue2Ġ
Ġwei1Ġ lian2Ġ
Ġ re
mi3 ĠdeĠ
Ġxing2 Ġbu4Ġ
qin1Ġ wang2Ġ
kuai4Ġ su4
zan4Ġ ting2Ġ
Ġ mo2
cun2 ĠdeĠ
Ġ guang3Ġdong1Ġ
Ġ xian1Ġhou4Ġ
he2 ĠĠĠ
qing2 ĠdeĠ
Ġshi4Ġ yi1Ġbu4Ġ
Ġxin1Ġ zeng1Ġ
gai3Ġ zhi4Ġwei4Ġ
ĠĠĠdi4Ġ yi1Ġ
Ġ guan3Ġ
shi1 Ġgong1Ġ
gang3 Ġyuan2Ġ
fei4Ġ yan2Ġ
fen3 Ġsi1Ġ
zhi3Ġ kong4Ġ
mi4 ĠdeĠ
zhui4 Ġ
che1Ġ liang4
shen1 Ġshi4Ġ
da2 Ġzhou1Ġ
ying3Ġ xiang4Ġ
xun1 Ġ
fang1Ġ mi3Ġ
Ġzi4Ġ dong4Ġ
Ġ X
ĠdeĠ hua4Ġ
da4Ġ qu1Ġ
sheng3Ġ jie1Ġrang3Ġ
san1 Ġren2Ġ
san1 Ġge4
zhe3 Ġhe2Ġ
beng1 Ġ
te4Ġ zheng1
Ġ 45
100 Ġ
Ġzui4 Ġda4Ġ
rui4Ġ dian3Ġ
wu3 Ġge4Ġ
dang1 Ġnian2Ġ
Ġjin4Ġ zhi3Ġ
can1Ġ shu4Ġ
tui1Ġ guang3Ġ
Ġmai4 Ġke4Ġ
lu4Ġyi4Ġ si1Ġ
pei4 Ġbei4Ġ
Ġbu4Ġ yi1Ġ
Ġping2Ġ lun4Ġ
jing4Ġnei4Ġ gong4Ġyou3Ġ
Ġ shan4Ġ
ĠĠĠ jin1Ġ
si4 Ġshi4Ġ
tai4 ĠdeĠ
Ġjie2Ġ shu4Ġ
Ġ guo1
you2 Ġxing2Ġ
zhan3Ġ lan3Ġ
Ġshe4Ġhui4Ġ zhu3Ġyi4Ġ
Ġ mao2Ġ
zhe3 Ġhui4Ġ
30 Ġnian2Ġ
Ġshi4Ġyi1Ġ ke1Ġ
Ġshuang1Ġ fang1Ġ
Ġzai4Ġyi4Ġ qi3Ġ
la1 Ġhe2Ġ
hui2 Ġguo2Ġ
huang1 Ġ
Ġbu4Ġ lai2Ġ
Ġshi2Ġ xing4Ġ
Ġji4Ġ zai3
xin1Ġ wen2
bao3Ġ luo2Ġ
jing4Ġ zheng1
Ġ 200
sheng4 Ġchu1Ġ
Ġji2Ġ hou4Ġ
Ġzhe4Ġ yang4Ġ
lv4Ġ se4Ġ
Ġjiang1Ġ su1Ġ
wu2Ġxian4Ġ dian4Ġshi4Ġ
Ġdi4Ġ zhi4Ġ
Ġzhi4Ġ yi2Ġ
Ġxi1Ġ er3Ġ
fei4Ġ yong4Ġ
ĠThe ĠĠĠ
ĠĠĠ 2019Ġnian2Ġ
ying4 Ġji2Ġ
Ġbei4Ġ po4Ġ
du4Ġ shi3Ġ
chan3Ġsheng1Ġ leĠ
ma3 Ġke4Ġsi1Ġ
Ġguo2Ġjia1Ġ dui4Ġ
tie3Ġlu4Ġ che1Ġzhan4Ġ
Ġdong4Ġ wu4Ġ
Ġ Ï
ku1 Ġ
Ġnian2Ġ ling2Ġ
Ġ 187
Ġ hu2Ġnan2Ġ
zhuo1 Ġ
Ġgong1Ġ qing3Ġ
Ġjia1Ġ zu2
chuang4Ġ zao4Ġ
Ġ chu3Ġ
20 Ġnian2Ġ
wang2 Ġwei4Ġ
tui1 Ġjian4Ġ
lian2Ġ ren4Ġ
v Ġ
Ġ ke3Ġneng2Ġ
lei4 Ġxing2ĠdeĠ
Ġta1Ġ ceng2Ġ
zhang3Ġ zi3Ġ
bei3Ġ fang1Ġ
Ġgong1Ġ gong4
Ġda4Ġ dao4
fu2Ġ luo2Ġli3Ġ
nong2Ġ cun1Ġ
Ġshi4Ġzhong1Ġ hua2Ġren2Ġmin2Ġgong4Ġhe2Ġguo2Ġ
Ġceng2Ġ ren4
ying3Ġxiang3 Ġli4Ġ
ĠdeĠzuo4Ġ biao1Ġwei4Ġ
chong1 Ġji1Ġ
section ĠĠĠ
Ġshi4Ġ hui4Ġ
qun2Ġ dao3
Ġ 2022Ġnian2Ġ
san1 Ġji2Ġ
Ġzai4Ġ xin1Ġ
te4Ġ dian3Ġ
tian1Ġ ran2Ġ
gu4Ġ ding4Ġ
ĠĠĠjia1Ġ ting2Ġ
lv4 ĠdeĠ
si3 Ġyu2Ġ
Ġzai4Ġ ta1ĠdeĠ
qing1Ġ chao2Ġ
chu1Ġ qi1Ġ
fang2Ġ wu1Ġ
she4Ġ hui4
Ġ qiu1Ġ
ji2 Ġbu4Ġ
sheng1 Ġzhi4Ġ
fu4Ġ jin4
fang1Ġ xiang4
te4Ġ la1Ġ
jing4Ġ nei4
geng4Ġ duo1ĠdeĠ
Ġ fu3Ġ
cong2 Ġwei4Ġ
Ġyi1Ġ ren2Ġ
Ġdao4 Ġhe2Ġ
gao1Ġ da2Ġ
Ġ nai3
Ġ shen3Ġ
Ġ sectionĠĠĠ
ĠĠĠ c
xin1 Ġshi4Ġ
1947 Ġnian2Ġ
Ġshi2Ġ zhi4Ġ
Ġdao4 Ġyi1Ġ
qi4Ġ xuan2Ġ
Ġ xu3Ġduo1
ban1 ĠdeĠ
zhou2 Ġ
1973 Ġnian2Ġ
wan2Ġ zheng3Ġ
ĠĠĠ shi3Ġyong4Ġ
xuan3 Ġchu1Ġ
Ġ tie3Ġ
yi2 Ġdao4Ġ
ma1 Ġ
zhong1Ġ yang1
sheng1Ġ ji1Ġ
guan1Ġ ce4Ġ
Ġye3 Ġbu4Ġ
qing1Ġ shao4Ġnian2Ġ
Ġshi4Ġ ji4ĠdeĠ
Ġyou3Ġ da4Ġ
qu3Ġ xiao1
Ġ 2024
jia1 Ġgong1Ġ
shi3 Ġyu2Ġ
luo4 Ġsi1Ġ
Ġshi4Ġ you2
fu4Ġ jin4ĠdeĠ
mei3Ġguo2Ġ ren2Ġ
zhang4Ġ fu1Ġ
xue2 Ġbu4Ġ
tie1 Ġ
1971 Ġnian2Ġ
Ġyou3Ġ zhu4Ġ
yi4 Ġbu4Ġ
zong4 Ġ
guo2Ġ hui4Ġ
xi1Ġ bei3Ġbu4Ġ
Ġta1Ġ ren4Ġwei2Ġ
mu4Ġ ni2Ġ
Ġtong2Ġ pai2Ġ
Ġzhi3 Ġshi4Ġ
kuo4Ġ zhan3
deng3 ĠdeĠ
si3 Ġxing2Ġ
qing4 Ġzhu4Ġ
zhan4Ġ ling3
lian2Ġ jie2Ġ
ĠĠĠgen1Ġju4Ġ 2020Ġnian2Ġmei3Ġguo2Ġren2Ġkou3Ġpu3Ġcha2ĠdeĠshu4Ġju4Ġ
Ġ 189
ai4 ĠdeĠ
bing4 Ġwei4Ġ
zui4 Ġwei4Ġ
guo2Ġ li4Ġ
huang2Ġ se4Ġ
Ġtong2Ġ yang4Ġ
zeng1Ġjia1Ġ leĠ
Ġ an4
en ĠĠĠ
hai3 Ġshang4Ġ
guo4 Ġyu2Ġ
reng2 Ġzai4Ġ
pu4 Ġ
1977 Ġnian2Ġ
Ġzai4Ġ ta1Ġ
shang4Ġhai3 Ġshi4Ġ
quan2 ĠdeĠ
zong3 Ġhui4Ġ
hui2 Ġhe2Ġ
pian4 ĠdeĠ
lao3 Ġshi1Ġ
nu4 Ġ
Ġyi1Ġ zhi4Ġ
Ġchu1Ġ fa1Ġ
se4Ġ fu1Ġ
zhuan1Ġ men2Ġ
xiang1 Ġji4Ġ
shou4 Ġquan2Ġ
si4 Ġda4Ġ
qie4 Ġer3Ġ
jing1Ġ ji4
fen1Ġ pei4Ġ
ban1Ġ jiang3Ġ
fang2 Ġwei4Ġ
ĠS Ġ
Ġ 2003Ġnian2Ġ
50 Ġnian2Ġ
Ġli4Ġ shu3Ġ
Ġbing4Ġ ru4Ġ
deng1Ġ chang2Ġ
lei4Ġsi4 ĠdeĠ
xing4 Ġshi4Ġ
dui4Ġ shou3Ġ
xie2Ġ ding4Ġ
ĠdeĠji4Ġ lu4Ġ
Ġ ku4
Ġji2Ġ xing2Ġzheng4Ġ
Ġli4Ġ ziĠ
Ġye3 Ġhui4Ġ
Ġ bao1Ġhan2Ġ
lai2Ġzi4 Ġyu2Ġ
Ġ bai2
fu2 Ġli3Ġ
Ġyi3 Ġzhi4Ġ
jiang3Ġ shu4Ġ
zhao4Ġ kai1
Ġa1Ġ la1Ġ
Ġ000 Ġren2Ġ
dan1 Ġyuan2Ġ
yi1Ġ xie1Ġ
zhi2Ġ ye4
hai3Ġ ba2Ġgao1Ġ
ying1Ġ chi3Ġ
can1Ġ sai4
qi4 Ġhe2Ġ
cun2Ġ zai4ĠdeĠ
zhuang4 Ġji1Ġ
wa1 Ġ
Ġjian4Ġ kang1Ġ
na4Ġ cui4
Ġxiang1Ġ dui4Ġ
he2 Ġwei4Ġ
fu4 Ġjia1Ġ
sheng3 Ġdao4Ġ
lao2 Ġgong1Ġ
hant Ġ
xi1Ġ nan2Ġbu4Ġ
Ġke4Ġ yun4Ġ
ma3Ġ la1Ġ
gai3Ġ ge2
nan2Ġji2Ġ zhou1ĠdeĠ
Ġzai4Ġ 18
xiao1Ġ liang4Ġ
Ġ 9Ġ
Ġ hantĠ
ba1 Ġer3Ġ
chuang4 Ġxin1Ġ
as ĠĠĠ
tuo2 Ġ
quan3 Ġ
qiao3 Ġ
lou4 Ġ
Ġyou3Ġ guan1
zheng4Ġ xie2Ġ
Ġta1Ġ dui4Ġ
shan1Ġ mai4Ġ
Ġsi4Ġ chuan1Ġ
hong1Ġzha4 Ġji1Ġ
ĠĠĠran2 Ġer2Ġ
ĠĠĠ 2007
chang2 Ġjian4Ġ
chuan2 Ġzhi1Ġ
Ġzhi1Ġ zhan4Ġ
shou3Ġ bo1Ġ
xing4Ġ neng2Ġ
Ġxiao3Ġ shuo1Ġ
yi1 Ġbu4Ġfen4
dian4 ĠdeĠ
fei1 Ġzhou1
Ġxian4 Ġzhi1Ġxian4Ġ
sha1Ġ si3Ġ
fa1Ġsheng1Ġ leĠ
shu3ĠdeĠ zhi2Ġwu4Ġ
Ġ e2
ĠĠĠ dan4
ĠĠĠ 16
zhi2 Ġzhi4Ġ
yao4 ĠdeĠ
II Ġ
yan2Ġ zhong4ĠdeĠ
Ġling4Ġ wai4
li3 Ġbu4Ġ
mi4 Ġsi1Ġ
ni4 Ġ
Ġjian4 Ġshi4Ġ
suo3Ġ shu3
jiang4Ġ di1
yun4Ġdong4 ĠdeĠ
Ġ che1Ġzhan4
xi1 Ġshi4Ġ
tou2 Ġbu4Ġ
dui4Ġ wu3Ġ
Ġyou2Ġ ci3Ġ
zu3Ġ zhi3Ġ
Ġdong1Ġ jing1Ġ
fang4Ġ qi4
w Ġ
jian1 Ġshi4Ġ
na4 Ġde2Ġ
mei3 Ġjun1Ġ
jiang1 Ġta1Ġ
ĠdeĠ gu4Ġshi4Ġ
Ġshi4Ġyi4Ġ da4Ġli4Ġ
Ġ sa4
hui4 Ġyi3Ġ
W Ġ
hei1 Ġren2Ġ
ji1Ġ ben3Ġ
Ġzhi1Ġ liu2Ġ
zhu3Ġ xi2
can1Ġ ting1Ġ
shuai4Ġ ling3Ġ
tu3Ġer3 Ġqi2
hui4 Ġshi4Ġdi4Ġ
huan2 Ġxing2Ġ
Ġzai4Ġ yu3Ġ
Ġgong1Ġ lu4
Ġde2 Ġdao4ĠleĠ
Ġshe4Ġ ji4ĠdeĠ
bu4Ġ fen4Ġ
bang1Ġ zhu4
na2Ġ po4Ġ
Ġ zhong4
Ġ dou1
zheng3 Ġge4
xiang1Ġ bi3Ġ
Ġshi4Ġyi1Ġ zuo4Ġ
zhou1Ġ bian1Ġ
Ġshi4Ġjie4Ġ bei1Ġ
xia4Ġxia2 Ġyi3Ġxia4
Ġ bao4
Ġ Ro
ĠĠĠ 3Ġyue4Ġ
shang4 Ġbu4Ġ
Ġxian4Ġ jin1Ġ
hang2Ġ tian1Ġ
Ġ ji3Ġ
yan2 Ġshi2Ġ
zhang3 Ġda4Ġ
luo2 Ġde2Ġ
Ġda4Ġ liang4
shuang1Ġ da3Ġ
Ġma3 Ġli4Ġ
zi4 Ġwei4Ġ
1962 Ġnian2Ġ
yi2Ġ chan3
ge2 Ġer3Ġ
Ġli4Ġ yong4
Ġxing2Ġ shi3Ġ
zong3Ġ cai2Ġ
ĠĠĠ 3Ġ
Ġnan2Ġ ziĠ
Ġsheng1Ġzhang3 Ġyu2Ġ
Ġ ling3Ġ
Ġ qin2Ġ
xin1 Ġren2Ġ
zhi3 ĠdeĠ
ci3 Ġshi2Ġ
Ġgong1Ġ chi3
Ġqiu2 Ġhui4Ġ
chuan2Ġ mei2Ġ
hai3Ġba2Ġgao1Ġ du4Ġwei4Ġ
ĠĠĠ 2018Ġnian2Ġ
zhe3 Ġwei4Ġ
nuo4 Ġyi1Ġ
Ġji2Ġ lin2Ġ
xiang1Ġ tong2ĠdeĠ
Ġzhong1Ġguo2Ġ guo2Ġmin2Ġ
ben3 Ġxian4Ġ
Ġdi4Ġ 1Ġ
ya4Ġ mu4Ġ
Ġzhe4Ġ shou3Ġ
ying1Ġ gai1
guang1Ġ xu4Ġ
ji4 Ġzai4Ġ
wu3 Ġyue4Ġ
dan1 Ġyi1Ġ
bie2 ĠdeĠ
Ġhe2Ġ li3Ġ
you2Ġ tai4Ġren2Ġ
ĠdeĠcheng2Ġ zhen4Ġ
Ġguan1Ġ fang1Ġ
Ġ qian1
Ġ huan2Ġ
Ġ xu1Ġyao4Ġ
la1 Ġer3Ġ
xun2 Ġqiu2Ġ
ay Ġ
Ġbu4Ġ er3Ġ
Ġxing2Ġ xiang4Ġ
Ġwei2Ġ chi2Ġ
yin3Ġ zhong3Ġ
bu2 Ġyao4Ġ
shang1 ĠdeĠ
cong1 Ġ
Ġbu4Ġ di2Ġ
Ġyu2Ġ lei4Ġ
qian1Ġ yue1Ġ
can1Ġyu4Ġ leĠ
Ġjiang1 Ġqi2Ġ
ĠĠĠ 5Ġyue4Ġ
Ġzai4Ġ gai1Ġ
Ġguo2Ġ min2
mei3Ġ yuan2ĠdeĠ
ying2Ġ ye4Ġ
wei3Ġfu4Ġ shu1Ġji4Ġ
Ġ liang3Ġge4Ġ
e2 Ġwei4Ġ
wu3 Ġdi4Ġ
si1Ġ lan2Ġ
Ġke4Ġ la1Ġ
di3Ġ kang4Ġ
Ġ bao1Ġ
zhi2 Ġyuan2Ġ
1938 Ġnian2Ġ
Ġyi1Ġ liao2Ġ
xiao4Ġ ying4Ġ
Ġjiao4Ġ yu4
Ġyi1Ġ ci2Ġ
jie1Ġ ren4Ġ
Ġqi2Ġzhong1Ġ nan2Ġxing4Ġ
Ġliu2Ġ yu4Ġ
l ĠĠĠ
Ġ han2
Ġ Mar
yun4 Ġhe2Ġ
ge1 ĠdeĠ
huai2 Ġyi2Ġ
Ġwei4Ġ ci3Ġ
Ġdi4Ġ mian4Ġ
ti3Ġ yu4
ceng2Ġ shui3Ġyu4Ġ
rong2Ġ na4Ġ
gu3Ġfen4 Ġyou3Ġxian4Ġgong1Ġsi1Ġ
zhuan4ĠdeĠ xiao3Ġxing2Ġxing1Ġ
ck Ġ
1939 Ġnian2Ġ
Ġhou4Ġ qi1Ġ
Ġke4Ġ lai2Ġ
zhi3Ġ ding4Ġ
qian1Ġ ding4Ġ
ĠĠĠ ping2Ġjia4Ġ
you2 Ġqi2Ġ
ge1 Ġju4Ġ
liang2 Ġshi2Ġ
1965 Ġnian2Ġ
Ġshi4Ġ nei4Ġ
yue4Ġ nan2Ġ
jing4Ġ sai4Ġ
ĠdeĠdi4Ġ er4
mo4Ġsi1Ġ ke1Ġ
you2 Ġren2Ġgong1Ġ
zhang3 Ġwei4Ġ
1936 Ġnian2Ġ
Ġshi4Ġ xi1Ġ
Ġyi1Ġ zhi1Ġ
Ġshe4 Ġji1Ġ
ba1Ġ la1Ġ
Ġjian4Ġli4Ġ leĠ
Ġ wu1Ġke4Ġlan2Ġ
ĠĠĠ chu2ĠleĠ
chao2 ĠdeĠ
tui1 Ġchu1ĠdeĠ
ruan3 Ġti3Ġ
gan3Ġ lan3
ĠĠĠ 12
jiao4 Ġyu2Ġ
men2 ĠdeĠ
Ġshi2Ġ yong4Ġ
Ġ cheng2Ġshi4Ġ
1967 Ġnian2Ġ
zhong1Ġ xin1Ġ
Ġ su2
shu4 Ġshi4Ġ
Ġjian4 Ġwei4Ġ
Ġchao2Ġ xian1Ġ
Ġ tui1Ġ
1959 Ġnian2Ġ
Ġer3 Ġde2
shuo4Ġshi4Ġ xue2Ġwei4Ġ
hua2Ġsheng4Ġ dun4
Ġ lei4Ġ
yang2 Ġxian4Ġ
wei2Ġ zhi3Ġ
zhi1 Ġyuan2Ġ
ge4 Ġdi4Ġ
bian1 Ġhao4Ġwei4Ġ
Ġhe2Ġ ji2Ġ
Ġzhi4Ġ zao4
Ġyi1Ġ tiao2Ġ
kai1Ġ zhan3Ġ
fa3Ġ ting2Ġ
Ġqiu2Ġ chang3Ġ
qun2Ġ ti3Ġ
leĠyi1Ġ xie1Ġ
Ġgong1Ġcheng2Ġ shi1Ġ
Ġ 11Ġ
wu4 Ġzhong1Ġ
meng2 Ġjun1Ġ
bai3 Ġnian2Ġ
1935 Ġnian2Ġ
luo2Ġ bo2Ġte4Ġ
zong3Ġ jian1Ġ
Ġjie2Ġ gou4Ġ
Ġzai4Ġdi4Ġ er4Ġ
ping2Ġjun1Ġ hai3Ġba2Ġgao1Ġdu4Ġwei4Ġ
f ĠĠĠ
Ġ you1Ġ
ĠĠĠ jing1Ġji4Ġ
zhi2 Ġli4Ġ
Ġwei4Ġ ming2Ġ
Ġwei4Ġyu2Ġ zhong1Ġhua2Ġren2Ġmin2Ġgong4Ġhe2Ġguo2Ġ
li2Ġ ziĠ
zhuang1Ġ jia3
Ġren2Ġmin2Ġ bi4Ġ
du1Ġ du1Ġ
Ġtong1Ġ guo4
Windows ĠĠĠ
Ġxi1Ġ yin3Ġ
jian3Ġ dan1Ġ
Ġ qing3
yang2 Ġgong1Ġ
gong1Ġ kai1Ġ
Ġyou3Ġ li4Ġ
Ġta1Ġ ye3
Ġer2Ġgai1Ġdi4ĠdeĠ ping2Ġjun1Ġhai3Ġba2Ġgao1Ġdu4Ġwei4Ġ
Ġ wu1
Ġ man3
a1 Ġer3
shi1 Ġren2Ġ
qi3 ĠleĠ
feng1 ĠdeĠ
ni2 Ġxi1Ġya4Ġ
cu4 Ġjin4
han3 Ġmo4
Ġzai4Ġ ri4Ġben3Ġ
lu4Ġ zhan4Ġ
jie1Ġ shou1Ġ
c ĠĠĠ
Ġ lv3
ĠĠĠ tian1Ġ
li4 Ġzhong1Ġ
zu2 Ġqiu2Ġdui4Ġ
ban4 Ġnian2Ġ
la4 Ġ
ter Ġ
ben3Ġ tu3Ġ
mian4Ġ lin2Ġ
2010Ġnian2Ġ mei3Ġguo2Ġren2Ġkou3Ġpu3Ġcha2ĠdeĠshu4Ġju4Ġ
Ġ i
Ġ deng1Ġ
ji1 Ġshi4Ġ
chu1 Ġdao4Ġ
yan3 Ġchu1
ying4 Ġdui4Ġ
Ġzhi1Ġ qian2
fa3Ġ lan2Ġ
Ġxi4Ġ tong3
yin3Ġzhong3Ġ zai1Ġpei2Ġ
Ġ yun2Ġnan2Ġ
bo Ġ
Ġda4Ġ qiao2Ġ
xun2Ġ huan2Ġ
huan4Ġ zhe3Ġ
shen3Ġ cha2Ġ
chu1 Ġren4Ġ
shuo1 Ġshi4Ġ
Ġji2Ġ shi3
dong4Ġ hua4
ru4Ġ qin1
sheng3Ġ wei3Ġ
Ġxin1Ġ zeng1
chuan2Ġ bo1
Ġsui2Ġ zhe
fei1Ġlv4Ġ bin1
ka3Ġluo2Ġ lai2Ġ
ĠĠĠ Pro
yuan2 Ġdi4Ġ
shen1 Ġshang4Ġ
Ġzai4Ġ bei3Ġ
wei2Ġ er3
Ġxi1Ġ xi1Ġ
hen3Ġ duo1
lie4 Ġshi4Ġ
km Ġ
ji1Ġ bai3Ġ
xue2Ġ xi2
Ġji1Ġ yin1Ġ
zhang3Ġ yue1Ġ
suo3Ġ chu4ĠdeĠhai3Ġba2Ġwei4Ġgao1Ġyu2Ġhai3Ġping2Ġmian4Ġ
tong1Ġ xun4Ġ
na4Ġ xie1Ġ
gang3Ġ kou3Ġ
zhan3Ġ kai1
yong3Ġ jiu3Ġ
you2Ġren2Ġgong1Ġ yin3Ġzhong3Ġzai1Ġpei2Ġ
Ġ he4
qing2 Ġxing2Ġ
tai1 Ġ
qing2Ġ xu4Ġ
re4Ġdai4Ġ feng1Ġbao4Ġ
Ġ shen4Ġ
ci4 Ġwei4Ġ
zheng3 Ġhe2Ġ
gui1Ġ fan4Ġ
ju1Ġmin2Ġ dian3Ġ
Ġ pai4Ġ
Ġ zheng3Ġ
ĠĠĠ 2017Ġnian2Ġ
ji4 Ġji2Ġ
Ġzhi1Ġ fu3Ġ
Ġshe4Ġ hui4
ce4Ġ liang2
Ġhan4Ġ zu2Ġ
fen1Ġbie2 Ġwei4Ġ
Ġ xu3Ġ
Ġ wan2Ġcheng2Ġ
yu3 Ġshi4Ġ
dong4 Ġgong1Ġ
lu3 Ġke4Ġ
gong3 Ġ
Ġbu4Ġ jia1Ġ
Ġyi3Ġ shang4ĠdeĠ
Ġyu3Ġ ci3Ġtong2Ġshi2Ġ
mi3Ġ ya4Ġ
Ġzhu3Ġ chi2Ġ
Ġzhi3 Ġchu1Ġ
si4 Ġming2Ġ
bing1 Ġbu4Ġ
ĠdeĠyi1Ġ xie1Ġ
di3Ġ da2
Ġsu1Ġ lian2Ġ
liao3Ġ jie3
Ġ zhuan1Ġji2Ġ
Ġ ou1Ġzhou1Ġ
1953 Ġnian2Ġ
Ġsi1Ġ ka3Ġ
gao4Ġ su4Ġ
fa1Ġzhan3 ĠdeĠ
yi3 Ġhou4Ġ
dui4 Ġhe2Ġ
zhi3 Ġyu2Ġ
ge2 Ġli4Ġ
deng1 Ġji4Ġ
guai4 Ġ
1963 Ġnian2Ġ
ju4Ġ qing2Ġ
Ġwei2Ġ ya4Ġ
Ġzhong1Ġguo2Ġ da4Ġlu4ĠdeĠ
chuang4Ġ ban4Ġ
xia4Ġxia2Ġyi3Ġxia4 Ġdi4Ġqu1Ġ
chu1 Ġsheng1Ġ
liu2 ĠdeĠ
yan3 Ġsheng1Ġ
da4Ġ shi3Ġ
Ġxi1Ġ an1Ġ
jie4Ġ shao4
zi1Ġ zhu4Ġ
fei1Ġ fa3Ġ
ĠĠĠ ji4Ġ
ĠĠĠ 2016Ġnian2Ġ
bai2 Ġzhi4Ġ
Ġzhi4Ġ liao2
shou3Ġ xi2Ġ
tu2Ġ xiang4Ġ
Ġjiao4Ġ shou4Ġ
zhuang4Ġ kuang4
Ġbi4Ġ ye4Ġyu2Ġ
xun2Ġyang2 Ġjian4Ġ
yu4 Ġji4Ġ
fen1 Ġzhi1Ġyi1Ġ
wen2Ġ hua4ĠdeĠ
zu3Ġ cheng2
Ġao4 Ġda4Ġli4Ġ
xin1Ġjia1Ġ po1Ġ
Ġ guang1
kong1 Ġjun1
shun4 Ġshi2Ġ
Ġbu4Ġ bian4Ġ
Ġchu1Ġ xi2Ġ
wei1Ġ xian3Ġ
Ġzhe4 Ġbu4Ġ
Ġnian2Ġ7Ġyue4Ġ 1Ġri4Ġ
wen4Ġti2 ĠdeĠ
Ġjin4Ġshi4Ġ chu1Ġshen1Ġ
me ĠĠĠ
ta Ġ
Ġzhi4Ġ shao3
Ġxian4Ġ ru4Ġ
nan2Ġ fang1Ġ
Ġbei4Ġ qi2Ġ
Ġqi2Ġzhong1Ġ nan2Ġ
mao2Ġze2Ġ dong1Ġ
Ġ tang1
Ġ gai4Ġ
ĠĠĠ 10Ġyue4Ġ
zi Ġhe2Ġ
da2 Ġer3Ġ
lu3 Ġshi4Ġ
liu3 Ġ
Ġbu4Ġ zhi4Ġ
Ġdi4Ġ si1Ġ
zi1Ġ sheng3Ġ
pin2Ġ lv4Ġ
Ġ ãĥ¼
han3 Ġ
1941 Ġnian2Ġ
Ġzhong1Ġ zui4Ġ
Ġji4Ġ nian4
pan4Ġ jue2Ġ
gong4Ġchan3Ġ zhu3Ġyi4Ġ
Ġyi3Ġse4Ġ lie4
yu2 ĠĠĠ
duo1 Ġge4
qu3 Ġjia1Ġ
12 Ġnian2Ġ
1969 Ġnian2Ġ
ju2Ġ ju2Ġzhang3Ġ
Ġ15 Ġ
ĠĠĠ bei3Ġ
fan2 Ġzhi2Ġ
mao1 Ġ
gan1Ġ su4Ġ
Ġdan1Ġ ren4
zi4Ġxing2Ġ che1Ġ
Ġ 2005
Ġ pai2Ġ
miao2 Ġhui4Ġ
Ġyi1Ġ mei2Ġ
fen1Ġ lei4
Ġping2Ġ jia4Ġ
duo1Ġ yang4Ġ
Ġnan2Ġ bei3Ġ
chu1Ġ sheng1Ġyu2Ġ
shao4Ġ jiang4Ġ
Ġ n
ch ĠĠĠ
fei1 Ġli4Ġ
Ġsi1Ġ xiang3Ġ
zhu3Ġ chang3Ġ
yan2Ġ zhong4
dang1Ġ ju2Ġ
Ġshi4Ġzhong1Ġ xin1Ġ
ĠĠĠ ling4Ġwai4Ġ
hou4 Ġshi4Ġ
zhu4 Ġdi4Ġ
yin3 Ġshi2Ġ
Ġshi4Ġ wu1Ġke4Ġlan2
an4Ġ zhao4Ġ
hong1Ġ zha4Ġ
Ġgong1Ġzuo4 Ġshi4Ġ
can1Ġmou2 Ġzhang3Ġ
xiang4 Ġxi1Ġ
er4 Ġzhan4Ġ
xue1 Ġ
Ġcheng2Ġ shi4ĠdeĠ
Ġzhi1 Ġji4Ġ
Ġda4Ġ jia1Ġ
Ġming2Ġ cheng1
Ġtong2 Ġyi1Ġ
jiao1Ġ huan4Ġ
gai3Ġ shan4
Ġhe2Ġbing4 Ġwei4Ġ
Ġ 80
yu3 Ġyi3Ġ
ze2 Ġyou3Ġ
ling2 ĠdeĠ
us Ġ
ke1Ġ fu1
dang1Ġ xuan3
Ġgong1Ġkai1Ġ sai4Ġ
chuan4 Ġ
ru4Ġ xuan3
Ġ ji3
Ġ chun1Ġ
zhe4 Ġbu4Ġ
bao3 Ġzheng4Ġ
Ġyu2Ġ di4Ġ
shang1Ġ wang2Ġ
bian1Ġ jing4Ġ
ai1Ġ na4Ġ
Ġfen1Ġbie2 Ġwei4Ġ
wu2Ġren2Ġ ji1Ġ
Ġ ma
ĠĠĠ zhu4Ġ
ci4 Ġda4Ġ
sui4 Ġshi2Ġ
shen1Ġ zhen4
guang3Ġ gao4
Ġ nĠ
ĠĠĠ 2006
Ġdi4Ġ guo2ĠdeĠ
Ġjian4 Ġhe2Ġ
bao3Ġ cun2Ġ
bao4Ġ zhi3Ġ
gai3Ġ bian1Ġ
zeng1Ġ qiang2Ġ
luo4 ĠdeĠ
wan4 Ġren2Ġ
qun2 ĠdeĠ
Ġzai4Ġ ji1Ġ
ji1 Ġbu4Ġ
zhi1 Ġming2Ġ
ru4 ĠdeĠ
guo2Ġ nei4Ġ
Ġgong1Ġ zhan4Ġ
Ġyi3Ġ nan2Ġ
xian4Ġ fa3Ġ
zi3Ġ nv3Ġ
Ġxing2Ġ cheng2ĠdeĠ
qu1Ġ fen1Ġ
ba1Ġ fa2
ban4Ġ yan3Ġ
Ġ 1998Ġnian2Ġ
ci3 Ġzhi1Ġwai4Ġ
wai4 Ġwei2Ġ
chui2 Ġ
si1Ġ xiang3Ġ
Ġda4Ġ shi1Ġ
fa3Ġ ling4Ġ
Ġchu1Ġxian4Ġ leĠ
miao2Ġ shu4
ĠdeĠming2Ġ zi4Ġ
wen2 Ġzhong1Ġ
Ġdan4 Ġyin1Ġ
shou4Ġ hai4Ġ
sha1Ġ hai4Ġ
ao2 Ġ
xia4 ĠdeĠyi2Ġge4Ġ
huo4 Ġshi4Ġ
Ġda4Ġ zhong4Ġ
zhi3Ġhui1Ġ guan1Ġ
Ġ xia2Ġ
Ġ 20Ġ
ceng2 Ġshi4Ġ
bo1 Ġer3Ġ
Ġyue4Ġ tai2
Ġnan2Ġ jing1Ġ
cai2Ġ wu4Ġ
bing4Ġ mei2Ġyou3Ġ
jiao4Ġyu4 Ġbu4Ġ
Ġfen1Ġbie2 Ġshi4Ġ
gong4 Ġshi2Ġ
Ġwei4Ġ you2Ġ
mian4Ġ ti3Ġ
ying1Ġ guo2ĠdeĠ
yan2Ġjiu1Ġ yuan4Ġ
Ġ bu3Ġ
Ġyuan2Ġ shi3Ġ
jing3Ġ guan1Ġ
nuo4 Ġsi1Ġ
1980 Ġnian2Ġdai4Ġ
ĠdeĠ xiao3Ġ
ma3Ġ tou2Ġ
zhan3Ġ lan3
Ġsheng1Ġzhang3Ġyu2Ġ hai3Ġba2
Ġ re4Ġ
Ġ niu3Ġyue1
cheng1 Ġhao4Ġ
Ġzai4Ġ ying1Ġguo2Ġ
sheng4 Ġdi4Ġ
1957 Ġnian2Ġ
Ġdao4 Ġshi4Ġ
Ġda4Ġ xing2
jing1Ġ ying2
Ġ yan4Ġ
gao1 Ġyuan2Ġ
tao2 Ġyuan2Ġ
31 Ġ
hou4Ġ lai2Ġ
Ġzhe4Ġ yang4ĠdeĠ
pan4Ġ luan4Ġ
Ġxin1 Ġjia1Ġ
Ġ pei2Ġ
ma3 ĠdeĠ
dian3 Ġwei4Ġ
heng1 Ġ
1961 Ġnian2Ġ
Ġwei4Ġ bei4Ġ
Ġyi4Ġ si
Ġping2Ġ lun4
Ġshang4Ġ shu1Ġ
hang2Ġ ye4Ġ
5 Ġge4Ġ
Ġ Al
Ġ gai3Ġwei2Ġ
ĠĠĠ 10
fei2 Ġ
Ġhe2Ġ fa3Ġ
qing2Ġ jie2Ġ
Ġmu4Ġqian2Ġ shang4Ġwei4Ġ
Ġ 2000
Ġ pian4Ġ
tu1 Ġchu1Ġ
Ġdao4 Ġbu4Ġ
ping2Ġ min2Ġ
guan1Ġ fei4Ġyan2Ġ
tuan2Ġ zhang3Ġ
shang4 Ġyi1Ġ
Ġyi4Ġ ming2Ġ
Ġyi3 Ġshi4Ġ
shi3Ġyong4Ġ leĠ
Ġmi3 ĠdeĠdi4Ġqu1Ġ
Ġxian4ĠdeĠyi2Ġge4Ġ fei1Ġjian4Ġzhi4Ġdi4Ġqu1Ġ
ai4 Ġguo2Ġ
Ġyi4Ġ ji2Ġ
Ġer3 Ġzai4Ġ
Ġzuo4Ġ chu1
tian1Ġ huang2Ġ
fang2Ġ zhi3Ġ
dou4Ġ zheng1Ġ
wu4Ġzhong3 ĠdeĠ
luo2 Ġji2Ġ
hong2 Ġjun1Ġ
jing1Ġ guo4
jiao4Ġ shou4
tian1 Ġjia1Ġ
ka1 Ġfei1Ġ
Ġhe2Ġ ta1ĠdeĠ
Ġyu3Ġ da4Ġ
Ġren4Ġ ming4
sai1Ġ na4Ġ
lai2 Ġsi1Ġ
hao3 Ġyou3Ġ
zuo4Ġ chu1
chang2Ġ qi1
Ġzhong1Ġgong4 Ġzhong1Ġyang1
mian4 Ġshi4Ġ
chou2 Ġbei4Ġ
ling3Ġ yu4
yuan2 Ġzhong1Ġ
1944 Ġnian2Ġ
Ġyuan2Ġ ze2Ġ
dong1Ġ ni2Ġ
xiang3Ġ fa3Ġ
pin3Ġ pai2
ming4Ġ ling4
Ġ kong1Ġ
ni2 ĠdeĠ
Ġzhi1Ġ chu4Ġ
dai4Ġ lai2Ġ
Ġdang1Ġ xuan3
Ġ min2
Ġ ning2Ġ
ĠĠĠ 2021Ġnian2Ġ
fu2 Ġer3Ġ
hang2 Ġxian4Ġ
Ġji1Ġ du1Ġjiao4Ġ
Ġtong2 Ġri4Ġ
Ġxing2Ġzheng4Ġ zhen4Ġqu1Ġ
ĠdeĠ li3Ġ
ĠdeĠ xi1Ġ
Ġshi4Ġ nan2Ġji2Ġzhou1ĠdeĠ
Ġ 1999Ġnian2Ġ
ĠĠĠ er2
ĠĠĠ sui2Ġ
ding4 Ġzai4Ġ
15 Ġnian2Ġ
Ġwei4Ġ qi2Ġ
Ġhe2Ġ dao4
li4Ġ yong4Ġ
Ġshi2Ġ dai4ĠdeĠ
Ġzuo4Ġ biao1Ġwei4Ġ
xing4Ġ bie2Ġ
chang2Ġ jiang1Ġ
shang1Ġ dian4Ġ
Ġ f
Ġ wei2
Ġ nei4
Ġ tun2
Ġ yao2Ġ
Ġbu4Ġ de2Ġ
shi1Ġ bai4
qi4Ġ ti3Ġ
chan3Ġ ye4
xiu1Ġ gai3
Ġdi4Ġer4Ġ ci4Ġ
ao4Ġsi1Ġ ka3Ġ
ĠĠĠ zhan4Ġ
hui4 Ġji2Ġ
zuo4 Ġzhong1Ġ
pin3 Ġzhi4Ġ
bin1 Ġshi4Ġ
Ġgong1Ġ jin1Ġ
fu2Ġ hao4Ġ
Ġzui4 Ġchu1
6 Ġge4Ġ
h Ġ
ĠĠĠ zhu3Ġyao4Ġ
ge1 Ġer3Ġ
cheng1Ġ wei2
she4Ġhui4Ġ zhu3Ġyi4Ġ
dang4Ġ an4Ġ
ying2Ġde2Ġ leĠ
Ġ 1990
se ĠĠĠ
Ġgong1Ġ zuo4ĠdeĠ
Ġyu3Ġ zhou4
Ġzhe4Ġ ci4Ġ
Ġnian2Ġ12Ġyue4Ġ 31Ġri4Ġ
zhan4 Ġzhi4Ġ
zhan4 Ġji4Ġ
yu4 Ġdao4Ġ
jie1 Ġjin4
wu3 Ġming2Ġ
chang3 Ġshang4Ġ
di3 Ġzhi4Ġ
chang3Ġ jing3Ġ
Ġsan1 Ġshi2Ġ
niao3Ġ lei4Ġ
Ġ niu2Ġ
dong1 Ġxian4Ġ
Ġbu4Ġ er3
Ġzhi4Ġ ding4Ġ
wu3Ġ qi4
jing1Ġji4Ġ xue2Ġ
lei4Ġsi4 Ġyu2Ġ
zhong1 Ġshi4Ġji4Ġ
dong4 Ġyuan2Ġ
fen1 Ġcheng2Ġ
kuo4 Ġzhang1Ġ
nan4 Ġmin2Ġ
Ġming2Ġ zi4Ġ
jie1Ġ chu4
gan3Ġ ran3
ren2Ġmin2Ġ dai4Ġbiao3Ġda4Ġhui4Ġ
Ġ fa1
zai4 ĠĠĠ
Ġji1Ġ xie4Ġ
ju4Ġ feng1Ġ
lie4Ġ ru4
yan2Ġjiu1 Ġsuo3
jiang1Ġsu1Ġ sheng3Ġ
Ġ chao1
Ġ xiong2Ġ
ĠĠĠ dui4Ġyu2Ġ
fu2 Ġde2Ġ
yin3 Ġli4Ġ
Ġxian4Ġ dai4
jiang3 ĠdeĠ
Ġta1Ġ shuo1Ġ
zhong4Ġ zhi2Ġ
Ġ 1Ġyue4Ġ
Ġ xiong1Ġ
ĠĠĠ p
1940 Ġnian2Ġ
1951 Ġnian2Ġ
Ġzhong1Ġ shu1Ġ
hou4Ġ xuan3Ġren2Ġ
yan2Ġ shen1Ġ
Ġdan4 Ġbu4Ġ
zhu4Ġ ce4Ġ
Ġwei2Ġ zhi3Ġ
zhu1Ġ long2Ġ
mu4Ġsi1Ġ lin2Ġ
Ġ 36
ĠĠĠ ke4Ġ
fang1 Ġcheng2Ġ
che1 Ġdao4Ġ
su1 Ġli3Ġ
sheng1Ġ ming2Ġ
deng3Ġ zhi2Ġ
ban1Ġ fa1Ġ
geng4Ġ duo1
hai4Ġ e2
Ġceng2 Ġzai4Ġ
Ġ shou4Ġdao4Ġ
zu1 Ġjie4Ġ
32 Ġ
nu2 Ġ
Ġjia1Ġ jing4Ġ
Ġyou2Ġ yong3Ġ
ren2 Ġwei4Ġ
dui4 Ġyou3Ġ
ti3 Ġxing2Ġ
gua1 Ġ
ye1 Ġsu1
Ġji1Ġ chu3Ġ
Ġchu1Ġ shen1Ġ
bao3Ġ cun2
gong4Ġhe2Ġ guo2ĠdeĠ
Ġwei4Ġfu2Ġqi2Ġyu2Ġ gang1
ĠĠĠ St
lang3 Ġde2Ġ
chen4 Ġ
Ġchu1Ġ ru4Ġkou3Ġ
fen1Ġ qu1Ġ
ling3Ġ xiu4
yan2Ġjiu1 Ġyuan2Ġ
xie2Ġ tiao2
Ġshi4Ġdi4Ġ yi1Ġ
Ġbing4Ġqie3 Ġzai4Ġ
jin3Ġbiao1Ġ sai4
Ġ JR
ai4 Ġde2Ġhua2Ġ
xian4 Ġshi2Ġ
shi3 Ġzhong1Ġ
qi3 ĠdeĠ
ban1 Ġbu4Ġ
hang2 Ġzhou1Ġ
1930 Ġnian2Ġ
jiao4Ġ zuo4Ġ
tong1Ġ xin4Ġ
nv3Ġ yan3Ġyuan2Ġ
huo3Ġ ban4Ġ
kao3Ġ gu3Ġ
mian4Ġji1 Ġhe2Ġ
zui4Ġzao3 ĠdeĠ
gui1Ġmo2 ĠdeĠ
Ġ a
Ġ wen1
Ġ 22
cheng1 Ġzhi1Ġwei4Ġ
pai2 Ġde2Ġzhu3Ġ
bing1 Ġli4Ġ
Ġjia1Ġ meng2Ġ
ma3Ġ lai2Ġ
che4Ġ di3Ġ
ĠĠĠ f
xi1 Ġyuan2Ġ
quan2 Ġxian4Ġ
bai4 Ġzhan4Ġ
reng2 Ġyou3Ġ
Ġcheng2Ġ xu4
Ġjian4 Ġyou3Ġ
shou3Ġ duan4Ġ
cheng2 Ġzai4Ġ
quan2 Ġqiu2
Ġzhong1Ġ fa1Ġxian4Ġ
zu2Ġ xie2Ġ
Ġ jiao3Ġ
zu2 Ġren2Ġ
zao1 Ġshou4Ġ
shou3Ġ fu3Ġ
fen1Ġ li2Ġ
Ġzhong1Ġguo2Ġ gong4Ġchan3Ġdang3
mian3Ġ dian1Ġ
Ġ zhu3
jiang1 Ġshi4Ġ
Ġgai1Ġ di4ĠdeĠ
Ġgong1Ġyuan2Ġ qian2Ġ
Ġdi4Ġshi2Ġ yi1Ġ
ĠĠĠ fu2Ġ
ĠĠĠ 2015Ġnian2Ġ
yi3 Ġshang4Ġ
han4 Ġyu3Ġ
1931 Ġnian2Ġ
Ġwei4Ġ zhong1Ġguo2Ġ
Ġhe2Ġ lan2
Ġqiu2Ġ yun4Ġdong4Ġyuan2Ġ
jiao1Ġ cha1Ġ
ai4Ġ qing2Ġ
tui4Ġ xiu1
Ġtai4Ġ yang2Ġ
Ġling4 Ġyi4Ġfang1Ġmian4Ġ
Ġbu4Ġde2 Ġbu4Ġ
Ġmu4Ġqian2Ġshang4Ġwei4Ġ you2Ġren2Ġgong1Ġyin3Ġzhong3Ġzai1Ġpei2Ġ
Ġ qiu1
jian1 Ġzhi4Ġ
hua2 Ġda4Ġxue2Ġ
cai2Ġ chan3Ġ
wu4Ġli3Ġ xue2Ġ
ĠĠĠ 4Ġyue4Ġ
fen1 Ġwei4Ġ
tou2 ĠdeĠ
am Ġ
Ġzhe4Ġ ye3Ġshi4Ġ
gan3Ġ jue2Ġ
Ġ tou4Ġguo4Ġ
an4 Ġzhong1Ġ
di Ġ
da2 ĠdeĠ
wang3 ĠdeĠ
mou2 Ġsha1Ġ
Ġzai4Ġ gong1Ġ
Ġjian4Ġ zao4
Ġyin1 ĠdeĠ
bao4Ġ zha4
dao3Ġ yan3
Ġxi1Ġban1Ġya2 Ġyu3Ġ
ĠĠĠ 6
ĠĠĠ 15
yuan2 Ġshi2Ġ
jin1 Ġri4Ġ
lin2 Ġsi1Ġ
xue2Ġ sheng1
ti2Ġ gong1ĠdeĠ
Ġfen1 Ġwei2Ġ
ka3Ġluo2Ġlai2Ġ na4
fa3 Ġshi4Ġ
rang4 Ġta1Ġ
Ġji2Ġ yi1Ġ
Ġchu1 Ġyi1Ġ
ĠD Ġ
ĠĠĠ for
te4 Ġhe2Ġ
zhong1Ġ bu4Ġ
Ġda4Ġ yue1
sheng1Ġ tai4Ġ
wei3Ġyuan2Ġ hui4ĠdeĠ
Ġwen2Ġ hua4
Ġdang1Ġ xuan3Ġ
Ġzhi4Ġzuo4 Ġren2Ġ
xia4Ġxia2ĠdeĠyi2Ġge4Ġ xiang1Ġ
nan2 Ġsi1Ġla1Ġ
tai4 Ġhou4Ġ
han4 Ġzi4Ġ
gan4 Ġxian4Ġ
Ġshi4Ġ nan2Ġ
zu2Ġ zi4Ġzhi4Ġ
xu4Ġ shu4Ġ
qian1Ġ shu3
Ġ yao1Ġqiu2
ĠĠĠ Li
zi Ġgong1Ġsi1Ġ
1933 Ġnian2Ġ
Ġyue4Ġ tuan2
Ġyi4Ġ dian3Ġ
dui4Ġ wai4Ġ
Ġhui4Ġ bei4Ġ
yan2Ġ chang2
qi3Ġ su4Ġ
zhong4Ġ dian3
shui3Ġ ku4Ġ
Ġ 2025
Ġ 34
Ġ ren4Ġhe2Ġ
ji4 Ġyu2Ġ
te4 Ġji2Ġ
60 Ġ
1928 Ġnian2Ġ
Ġshi4Ġ xiang1Ġgang3Ġ
shen1Ġ zhen4Ġ
Ġma3Ġlai2 Ġxi1Ġya4Ġ
mu4 Ġshi4Ġ
Ġzai4Ġ nan2Ġ
Ġhe2Ġ tong2Ġ
shang4Ġ shu4Ġ
wu3Ġ han4
ĠĠĠge4Ġren2Ġ sheng1Ġhuo2Ġ
Ġ kang1Ġxi1Ġ
jin4 Ġji2Ġ
fu4 Ġzhi4Ġ
cu1 Ġ
Ġshi4Ġ ge4Ġ
ding4Ġ qi1Ġ
san1Ġ ci4Ġ
gai3Ġ wei2
bian1Ġ ma3Ġ
Ġsui2Ġ zheĠ
Ġha1 Ġer3Ġ
Ġji4Ġsuan4 Ġji1Ġ
Ġ à¸
Ġ kuan1Ġ
ĠĠĠ 7Ġyue4Ġ
zhan4 Ġwei4Ġ
ru4 Ġwei2Ġ
qi4 Ġren2Ġ
xie2 Ġdai4Ġ
wo4 Ġer3Ġ
tan4 Ġsuo3Ġ
codice Ġ
bo1Ġ fang4
miao2Ġ shu4Ġwei4Ġ
Ġ chu4Ġ
Ġ fan3Ġdui4Ġ
ĠĠĠ dong1Ġ
shu4 Ġhe2Ġ
shou3 Ġbu4Ġ
shi1 Ġhe2Ġ
bian1 Ġcheng2Ġ
xiu1 Ġsi1Ġ
sao3 Ġ
dui4Ġ xiang4Ġ
tai2Ġ bi4Ġ
ĠdeĠji1Ġ hui4Ġ
Ġ feng1
Ġ di2
Ġ ta3
ĠĠĠ 6Ġ
zhuan3 Ġwei2Ġ
1942 Ġnian2Ġ
Ġyuan2Ġ you3Ġ
Ġge4 Ġda4Ġ
Ġke4 Ġli3Ġsi1Ġ
dong4Ġ che1Ġ
ban1Ġ ci4Ġ
zhu3Ġchi2 Ġren2Ġ
Ġ biao3Ġ
ĠĠĠ zhi4Ġzuo4Ġ
jue2 ĠleĠ
ren3 Ġ
Ġbu4Ġ zheng4Ġ
Ġguo2Ġ gong1Ġ
Ġli4Ġ ke4Ġ
Ġgong1Ġ kai1
lu4Ġ shang4Ġ
gui1Ġ hua4
mo4Ġsi1Ġ ke1
an1 Ġren2Ġ
ĠĠĠ e
fu1 Ġfu4Ġ
zhuang4 Ġbing4Ġdu2
Ġcheng2Ġ bao3Ġ
min2Ġ jin4Ġ
xi4Ġ lie4ĠdeĠ
ĠĠĠ 2020Ġnian2Ġ
qi2 Ġshi4Ġ
na4 Ġsi1Ġ
hang2 Ġzhan4Ġ
du3 Ġ
jian4Ġ zao4Ġ
tai2Ġwan1 ĠdeĠ
pi1Ġ ping2
J Ġ
Ġ 90
fu4 Ġyou3Ġ
jing1 ĠdeĠ
Ġdi4Ġ 2Ġ
zheng4Ġ quan2Ġ
qu1Ġ jian1Ġ
Ġge4Ġ zi4Ġ
Ġ gu4Ġshi4Ġ
ĠĠĠ st
ĠĠĠ xiang1Ġgang3Ġ
bei4 Ġshi4Ġ
ben1 Ġ
Ġzhong1Ġ zhi3Ġ
Ġcheng2Ġ wei2Ġyi1Ġ
zuo3Ġ you4
Ġyou3Ġyi1Ġ xie1Ġ
kuo4Ġ zhan3Ġ
jiu4Ġdu2 Ġyu2Ġ
Ġ e
dong1 ĠdeĠ
ba1Ġ nen4
Ġxiang1Ġ dang1Ġ
du2Ġ te4ĠdeĠ
fan4Ġ wei2
Ġguo2Ġmin2Ġ dang3Ġ
ĠĠĠ la1Ġ
ĠĠĠ 2014Ġnian2Ġ
xian4 Ġxiang4Ġ
ke1 Ġer3Ġ
wu2 Ġer3Ġ
Ġnian2 Ġnian2Ġ
kai1Ġ mu4Ġ
min2Ġ zhu3
zhe4Ġ zhong3
Ġzhan4Ġ ling3Ġ
tian1Ġ tang2Ġ
tong2Ġ yang4
ce4Ġ lve4Ġ
jiang3Ġ zui4Ġjia1Ġ
qiu2Ġ dui4
2 Ġmi3Ġ
jiu1 Ġ
Ġnian2Ġ qian2Ġ
Ġhui4Ġ shang4Ġ
feng1Ġ ge2
yi2Ġ min2
huo2Ġdong4 ĠdeĠ
Ġ ci2
mei3 Ġri4Ġ
yin4 Ġxiang4Ġ
Ġming2Ġ xing1Ġ
dian4Ġ che1Ġ
Ġqian2Ġ long2Ġ
Ġ pi2
Ġ 38
Ġ cai3Ġ
Ġ shan3Ġxi1Ġ
ĠĠĠ 2010Ġnian2Ġ
shu1 Ġshi4Ġ
1943 Ġnian2Ġ
Ġzai4Ġ yuan2Ġ
Ġri4Ġ qi1Ġ
nei4Ġ meng2Ġgu3Ġ
xie2Ġ shang1Ġ
Ġ 55
Ġdi4Ġ ba1Ġ
Ġji2Ġ yi3Ġ
Ġguo2Ġ yu3Ġ
Ġzhou1 Ġren2Ġ
Ġqi2Ġ bing1Ġ
fu3Ġ zhu4Ġ
ling3Ġ xian1Ġ
cui1Ġ hui3
ĠĠĠ 8Ġyue4Ġ
pin3 ĠdeĠ
zhao4Ġ pian1
Ġ hua1
Ġ lu2
chuan1 Ġyue4Ġ
jin4Ġ zhi3Ġ
Ġ 75
Ġ lao2Ġ
e4 Ġer3Ġ
lu4 Ġyu3Ġ
re Ġ
da4Ġ xue2
Ġri4 Ġyi4Ġ
sheng1Ġ ming4Ġ
you2Ġ tai4Ġ
te4Ġ qu1Ġ
Ġbing4Ġ biao3Ġshi4Ġ
zui4Ġ duo1ĠdeĠ
Ġte4Ġ bie2Ġ
xi1Ġ wang4Ġ
jiao4Ġ ke1Ġ
chang3Ġ bi3Ġsai4Ġ
Ġhe2Ġliu2Ġ yu4Ġ
cheng2 Ġshi2Ġ
ge2 Ġsi1Ġ
Ġshi4Ġ yuan2Ġ
ju4Ġ da4ĠdeĠ
jie1Ġwei4Ġ zhi1Ġ
Ġshi4Ġyi2Ġge4 Ġwei4Ġyu2Ġmei3Ġguo2Ġ
mian4Ġji1Ġhe2Ġ ren2Ġkou3Ġ
Ġ Ø
fang1 Ġwei4Ġ
ci3 Ġshi4Ġ
ju1 Ġyu2Ġ
Ġta1Ġ jiang1Ġ
zong3Ġ jing1Ġli3Ġ
ban4Ġ yan3
ka3Ġ la1Ġ
Ġtong2Ġshi2Ġ ye3Ġ
he4Ġ se4Ġ
mi2Ġ ni3Ġ
ĠĠĠ X
xiang1 ĠdeĠ
jia3 Ġji1Ġ
shang4Ġ xia4Ġ
zhu4Ġ zhai2
fen1Ġ lan2Ġ
bao3Ġ zhang4
ĠĠĠ mu4Ġqian2Ġ
duo1 Ġming2Ġ
bo1 Ġli4Ġ
nu2 Ġli4Ġ
1912 Ġnian2Ġ
Ġchu1Ġ ren4
Ġjun1Ġ guan1Ġ
huang2Ġ jin1
Ġqi2Ġzhong1Ġ you3Ġ
Ġzhan4 Ġdi4Ġ
hang2Ġkong1 Ġgong1Ġsi1Ġ
Ġgai1Ġdi4ĠdeĠ mian4Ġji1Ġhe2Ġren2Ġkou3Ġ
Ġgai1Ġdi4ĠdeĠmian4Ġji1Ġhe2Ġren2Ġkou3Ġ jie1Ġwei4Ġzhi1Ġ
Ġ yuan3Ġ
Ġ cai4Ġ
yue4 Ġhe2Ġ
qu1 Ġji2Ġ
wang2 Ġhou4Ġ
chai2 Ġ
han4Ġ lin2Ġ
Ġzhi4Ġli4Ġ yu2Ġ
Ġ nong2Ġ
yi2 Ġji4Ġ
run4 Ġ
dai4Ġ bu3Ġ
gao1Ġ deng3
jian4Ġ kang1Ġ
Ġ Le
Ġ yan2Ġjiu1Ġ
dan1 Ġxin1Ġ
zu2 Ġyi3Ġ
Ġshi2Ġ yue4Ġ
Ġyi1Ġ tian1Ġ
tuan2Ġ jie2Ġ
Ġyin1Ġci3 Ġzai4Ġ
fu4 Ġyu3Ġ
ying1 Ġjun1Ġ
bi3 Ġer3Ġ
at ĠĠĠ
guo2Ġ fang2
Ġchu1 Ġxian4
Ġjia1Ġ ru4ĠleĠ
hui4Ġyi4Ġ shang4Ġ
cun2Ġzai4Ġ yu2Ġ
Ġ huai2
Ġ dou1Ġshi4Ġ
Ġ gong1Ġbu4Ġ
jiu4 Ġyou3Ġ
dian3 Ġxing2ĠdeĠ
tang2 ĠdeĠ
biao1 Ġji4Ġ
1929 Ġnian2Ġ
Ġyi1Ġ chang2Ġ
Ġde2 Ġli4Ġ
Ġdai4Ġ lai2Ġ
ban3Ġ ben3ĠdeĠ
ĠĠĠ sui1Ġran2Ġ
ju4 Ġzhong1Ġ
san1 Ġwei4Ġ
ting1 ĠdeĠ
zhuang4 ĠdeĠ
ji4Ġ xu4
Ġke4Ġ luo2Ġ
Ġjin4 Ġji2Ġ
gao1Ġ jia4Ġ
shang1Ġ pin3Ġ
ĠĠĠwei4Ġ leĠ
Ġ 2004
an1 Ġshi4Ġ
ĠĠĠ 9Ġyue4Ġ
ĠĠĠ 2012Ġnian2Ġ
ĠĠĠ 2013Ġnian2Ġ
a1 Ġji1Ġ
xi4 Ġjun1Ġ
mu4 Ġzhi4Ġ
fu2 Ġshe4Ġ
Ġyi4Ġ wai4Ġ
Ġda4Ġ gui1Ġmo2Ġ
chan3Ġ sheng1
Ġzhu3Ġ chi2
que4Ġ bao3Ġ
Ġshi3Ġ yong4
rui4Ġ dian3
5 Ġgong1Ġli3Ġ
bo1 Ġchu1
cha2 Ġli3Ġ
1927 Ġnian2Ġ
ĠdeĠji4Ġ hua4Ġ
Ġguo2Ġmin2Ġ dang3
Ġ cun1Ġ
Ġ meng4Ġ
jian3 Ġli4Ġ
gei3 Ġta1Ġ
yi2Ġ zhi3
meng2Ġ te4Ġ
duan3Ġ zan4
Ġguo2Ġmin2Ġ zheng4Ġfu3Ġ
Ġzhu3Ġyao4 Ġshi4Ġ
Ġ hu4
21 Ġnian2Ġ
zen3 Ġ
Ġhe2Ġ li4Ġ
Ġshi2Ġ jian1ĠdeĠ
lu4Ġ xu4Ġ
jue2Ġ sai4Ġzhong1Ġ
Ġfen1Ġ bu4Ġzai4Ġ
chuang4Ġ shi3Ġren2Ġ
hei1Ġ long2Ġjiang1Ġ
Ġceng2Ġ jing1Ġ
Ġ shao4Ġ
jia1 Ġshi4Ġ
ping2 Ġjun1
duan4 Ġshi2Ġjian1Ġ
1932 Ġnian2Ġ
Ġyi3Ġ 1Ġ
Ġxi1Ġ li3Ġ
fa1Ġ hui1
Ġwei2Ġ qi2
dan1Ġ da3Ġ
Ġzhu3Ġ ren4Ġ
ting2Ġ yun4Ġ
Ġ 70
Ġ ji1Ġyu2Ġ
qian2 Ġzai4Ġ
diao4 Ġyu2Ġ
Ġchu1Ġ shou4Ġ
fa1Ġ yan2Ġren2Ġ
Ġ ken3Ġ
ĠĠĠ qi2Ġzhong1Ġ
fu2 Ġzhou1Ġ
shi1 Ġdi4Ġ
80 Ġnian2Ġ
guan1Ġ ce4
ta3Ġ ni2
Ġ ke3Ġneng2
Ġ 1997Ġnian2Ġ
shu4 Ġren2Ġ
xu4 Ġji2Ġ
chuan1 Ġguo4Ġ
fu4Ġ zhu3Ġxi2Ġ
Ġzhou1 Ġwei2Ġ
ĠdeĠyuan2Ġ yin1Ġ
Ġ du4
zhong1 Ġhe2Ġ
wu4 Ġyu3Ġ
Ġguo2Ġ wang2
Ġzhi1Ġ cheng1Ġ
Ġdan4 Ġqi2Ġ
Ġxue2Ġ xi2
que4Ġ ding4
qun2Ġ zhong4Ġ
Ġshi4Ġjie4 ĠdeĠ
Ġzong3Ġ tong3Ġ
tan4Ġ xian3
ni2Ġya4 ĠdeĠ
ĠĠĠche1Ġzhan4Ġ jie2Ġgou4Ġ
xing2 Ġxiang4Ġ
shi3 Ġdi4Ġ
jue2 Ġyu2Ġ
suan4 Ġfa3Ġ
son Ġ
shu4Ġ mu4Ġ
Ġer2Ġ lai2Ġ
zhi2Ġ bo1Ġ
Ġfu4Ġ gai4Ġ
ling3Ġ yu4ĠdeĠ
gao4Ġ su4
chuang4Ġ zuo4
Ġnian2Ġdai4 Ġchu1Ġ
ao4Ġda4Ġli4Ġ ya4
ĠĠĠ a
ĠĠĠ can1Ġkao3Ġ
ci4 Ġji1Ġ
you3Ġ guan1Ġ
Ġcheng2Ġli4Ġ leĠ
qu4Ġshi4Ġ hou4Ġ
Ġ qin2
ĠĠĠ 5
yu4 Ġbei4Ġ
shen2 ĠdeĠ
chong2 Ġfu4Ġ
tui1 Ġxing2Ġ
Ġdao4 Ġzhong1Ġ
hai3Ġ yang2
ĠdeĠdi4Ġ yi2Ġge4Ġ
Ġ lan2
ai3 Ġ
zhan3 Ġxian4Ġ
Ġshi4Ġ bei4Ġ
Ġyin1 Ġyuan2Ġ
Ġyin1 Ġqi2Ġ
fu2Ġ hua4Ġ
jing4Ġ nei4ĠdeĠ
ge1Ġ ci2Ġ
Ġ 46
ĠĠĠ 8
lie4 Ġsi1Ġ
du1 Ġhui4Ġ
song4 Ġdao4Ġ
duo3 Ġ
xi1Ġ ya4Ġ
zui4Ġ zao3Ġ
wu3Ġ dao3Ġ
jing4Ġ wai4Ġ
e2Ġ hai4Ġe2
Ġlu4 Ġyi4Ġ
Ġ jiang3
ĠĠĠ 6Ġyue4Ġ
zhe3 Ġren4Ġwei2Ġ
ve Ġ
1934 Ġnian2Ġ
Ġda4Ġ qiao2
Ġta1Ġ hai2
zhu4Ġ zhai2Ġ
mi4Ġ qie4
guo2Ġjia1Ġ dui4Ġ
zhe4Ġjiang1Ġ sheng3Ġ
Ġ deng1
ĠĠĠ 4Ġ
zhi1 Ġdao4Ġ
duo1 Ġyuan2Ġ
xiang3 ĠdeĠ
Ġyi3Ġ lai2
Ġsheng1Ġ cheng1Ġ
shen1Ġ wang2Ġ
fan3Ġ dui4
fang2Ġ jian1Ġ
tan4Ġ ce4Ġ
duan1 ĠdeĠ
ss Ġ
Ġdi4Ġ zhong1Ġ
Ġji2Ġ er3Ġ
jing1Ġ you2Ġ
ji3 Ġhe2Ġ
Ġyi1Ġ tong2
cai2Ġ zheng4
Ġlian2Ġ jie1Ġ
man3Ġ zu2
pai2Ġhang2Ġ bang3
Ġ 150
jin4 Ġxing2ĠdeĠ
Ġer3 Ġyu3Ġ
hou4 Ġbu4Ġjiu3Ġ
chu1 Ġzhan4Ġ
fu4 Ġbu4Ġzhang3Ġ
Ġli4Ġ shu3
Ġxing2 Ġyu2Ġ
la1Ġ te4Ġ
ba1Ġ le4
qiang2Ġ da4ĠdeĠ
2 ĠĠĠ
Ġ yi1Ġwei4Ġ
zhan4 Ġzai4Ġ
wang3 Ġqiu2
kuo4 Ġjian4Ġ
1924 Ġnian2Ġ
cheng2Ġ ji4Ġ
Ġji2Ġ si1Ġ
Ġri4Ġ hou4Ġ
Ġjia1Ġ si1Ġ
Ġbing4 Ġyou3Ġ
tou2Ġ xian2Ġ
Ġshou3Ġ ci4
ĠM Ġ
Ġ ya3
Ġ si3Ġ
ĠĠĠ xiang1Ġ
fen1 ĠdeĠ
yi1Ġ li4Ġ
ke1Ġ fu1Ġ
Ġ peng2Ġ
an4 Ġshi4Ġ
ĠĠĠ Y
ĠĠĠ gen1Ġju4
33 Ġ
Ġhe2Ġ dong1Ġ
zhi2Ġ wu4
Ġxue2Ġ hui4Ġ
Ġdang1 Ġnian2Ġ
Ġ12 Ġ
wan2Ġzheng3 ĠdeĠ
Ġ zeng1Ġ
Ġ xuan2Ġ
ĠĠĠ ci3
ĠĠĠ 2011Ġnian2Ġ
qi1 Ġshi4Ġ
shuo1 ĠdeĠ
zhen1 Ġzheng4Ġ
Ġri4Ġ yu3Ġ
Ġqi2 Ġta1ĠdeĠ
chang2Ġ wei3Ġhui4Ġ
ban4Ġ dao3
hang2Ġ ban1Ġ
fang2Ġ kong1Ġ
shou1Ġ lu4
wan2Ġcheng2Ġ leĠ
3 Ġmi3Ġ
ĠĠĠ ri4Ġben3Ġ
ĠĠĠ jian4Ġzhu4Ġ
di1 ĠdeĠ
za2 ĠdeĠ
Ġzhong1Ġ dui4Ġ
da4Ġ liang4Ġ
zhan4Ġ lve4Ġ
gui1Ġ ze2
Ġna4Ġ me
Ġguan1 Ġzhi4Ġ
Ġ Q
ding4 Ġli3Ġ
xiao4 Ġshe4Ġ
xie3 ĠleĠ
25 Ġnian2Ġ
Ġji2Ġ jiang1Ġ
Ġda4Ġ sai4Ġ
pu3Ġ tong1
Ġguo2Ġji4Ġ ji1Ġchang3Ġ
you1Ġ xiu4Ġ
ĠĠĠgen1Ġju4Ġ 2010Ġnian2Ġmei3Ġguo2Ġren2Ġkou3Ġpu3Ġcha2ĠdeĠshu4Ġju4Ġ
Ġ 2003
Ġ 180
ba1 Ġshi2Ġ
sheng3 Ġzheng4Ġfu3Ġ
bao3 Ġwei4Ġ
Ġzai4Ġ xian4Ġ
san1Ġ zhong3Ġ
xiao3Ġ zu3
che4Ġ tui4Ġ
xiang2 Ġxi4Ġ
chui2 Ġzhi2Ġ
ts Ġ
Ġchu1 Ġxian4ĠdeĠ
ke1Ġ xue2
hu4Ġ dong4Ġ
nuo4Ġ man4Ġ
Ġ ruan3
ĠĠĠ gao1Ġ
ren4 Ġyi4Ġ
Ġyi1Ġ zhong3
Ġxing2 Ġhe2Ġ
da3Ġ suan4Ġ
chong2Ġ xin1
ĠP Ġ
xue2Ġshi4Ġ xue2Ġwei4Ġ
Ġ wan3Ġ
bu4 Ġwei4Ġyu2Ġ
xiao4 Ġyou3Ġ
zhang1 ĠdeĠ
dou1 Ġbu4Ġ
zang4 Ġyu2Ġ
Ġhe2Ġ ji1Ġ
Ġhe2Ġnan2Ġ sheng3Ġ
han3Ġmo4 Ġde2Ġ
a1 Ġli3Ġ
qian1 Ġren2Ġ
dang3 Ġji2Ġ
Ġxian4 Ġyu3Ġ
Ġyi1Ġ lang3
Ġxian4Ġ zai4ĠdeĠ
xiang1Ġ hu4Ġ
Ġke4Ġ sa4Ġsi1Ġ
chao2Ġ ting2Ġ
Ġ gui4Ġ
Ġ zhao1Ġ
hou4 Ġta1Ġ
ren2Ġ min2
yan2Ġ chang2Ġ
jie2Ġ du4Ġshi3Ġ
bao3Ġ zhang4Ġ
zi1Ġ xun4
tan2Ġ pan4
a1 Ġfu4Ġ
zhen1 Ġyu3Ġ
Ġshi4Ġ dui4Ġ
Ġta1 Ġcheng2Ġwei2Ġ
Ġzhou1 Ġhe2Ġ
Ġren4Ġ zhi2Ġ
tian1Ġ qi4Ġ
ban4Ġ fa3Ġ
wu1Ġ ran3
Ġ chuang4
ĠĠĠ fa3Ġguo2Ġ
liu2 Ġxue2Ġ
gai3 Ġming2Ġ
Ġzai4Ġ qi2
Ġbu4Ġ jin3
Ġda4Ġ cheng2Ġ
fa1Ġ bu4ĠdeĠ
Ġquan2Ġ mian4Ġ
pan4Ġ chu3Ġ
Ġshi4Ġshi4Ġ jie4
mao4Ġ xian3Ġ
li3Ġshi4Ġ hui4Ġ
Ġren2Ġkou3 ĠdeĠ
tu2Ġshu1Ġ guan3
Ġ qu3
er2 Ġtong2
zong3 Ġzhan4Ġ
su4 Ġshe4Ġ
chuan2 Ġqi2Ġ
ji3 Ġnian2Ġ
qu4 ĠdeĠ
xing3 Ġ
lian3 Ġ
Ġshi4Ġ zheng4Ġfu3Ġ
Ġsi1Ġ fa3Ġ
min2Ġ zhong4
Ġbing4Ġ jiang1
na4Ġ ru4Ġ
ke4Ġ yun4Ġ
qu3Ġde2Ġ leĠ
6 Ġmi3Ġ
ben3 Ġbu4Ġ
qian2 Ġxian4Ġ
can1 Ġyi4Ġyuan2Ġ
ci2 Ġhui4Ġ
26 Ġ
fou3 Ġren4Ġ
Ġzhi1 Ġbu4Ġ
wai4Ġ guan1Ġ
ming4Ġ ming2ĠdeĠ
zhuan3Ġ yi2Ġ
Ġjiang1 Ġxi1Ġ
ren2Ġda4Ġ dai4Ġbiao3Ġ
liu4 Ġge4Ġ
Ġyi3Ġ 2Ġ
ren4Ġ zhi2Ġ
bian1Ġ jie4
hu2Ġ po1Ġ
deng1Ġ lu4
Ġ com
Ġ ting1Ġ
Ġ 1992Ġnian2Ġ
ĠĠĠ chen2Ġ
wei2 Ġren2Ġ
duo1 Ġbu4Ġ
san1 Ġyue4Ġ
13 Ġnian2Ġ
28 Ġ
dang4 Ġzuo4Ġ
Ġshi4Ġ yan4Ġ
fang1Ġ cheng2Ġshi4Ġ
dan1Ġ mai4
wang3Ġ wang3Ġ
Ġri4Ġben3 ĠdeĠ
luo2Ġma3 Ġdi4Ġguo2Ġ
Ġxian4ĠdeĠyi2Ġge4 Ġxing2Ġzheng4Ġzhen4Ġqu1Ġ
le Ġdi4Ġ
ying3 Ġdai4Ġ
Ġwei4Ġ wei4Ġ
fa3Ġ guo2ĠdeĠ
Ġxiang1Ġ si4Ġ
yan3Ġ zou4
xing1Ġ xi4Ġ
mi4Ġ du4Ġ
ren2Ġkou3Ġpu3Ġ cha2Ġ
Ġ wang1
che1 Ġren2Ġ
jia3 Ġshe4Ġ
Ġjian4 Ġzai4Ġ
Ġzhi1Ġ hou4Ġzai4Ġ
liang4Ġ xiang4Ġ
ru2Ġ guo3
hui2Ġ gui1
shan1Ġxi1Ġ sheng3Ġ
Ġ 37
Ġ 1994Ġnian2Ġ
ĠĠĠ yan2Ġge2Ġ
mian3 Ġyi4Ġ
Ġbei4Ġ jing3Ġ
Ġquan2 ĠdeĠ
Ġtong2Ġshi2Ġ ye3Ġshi4Ġ
Ġqi1Ġ jian1
Ġda4 Ġbu4Ġfen4
ĠĠĠ 2008Ġnian2Ġ
ĠĠĠ yi3Ġxia4Ġ
ti3 Ġji1Ġ
na4 Ġhe2Ġ
bo1 Ġchu1ĠdeĠ
Ġshi4Ġ zhi3
zhe4Ġ yang4ĠdeĠ
gai3Ġ cheng1Ġ
Ġdong1Ġ bei3
wei3Ġyuan2Ġhui4Ġ zhu3Ġxi2Ġ
Ġliu2Ġyu4Ġ mian4Ġji1Ġ
chuan2 Ġdi4Ġ
cun1 ĠdeĠ
ka1 Ġ
Ġxian4 Ġzhong1Ġ
Ġda4Ġ fu1Ġ
Ġdan4 ĠdeĠ
Ġlian2Ġ meng2Ġ
Ġgen1Ġju4Ġ 2020Ġnian2Ġmei3Ġguo2Ġren2Ġkou3Ġpu3Ġcha2ĠdeĠshu4Ġju4Ġ
guang3Ġfan4 ĠdeĠ
Ġ sheng1
Ġ feng2
you3 Ġhe2Ġ
li2 Ġshi4Ġ
chao2 Ġshi2Ġ
ju2 Ġshi4Ġ
zhen1 ĠdeĠ
tao1 Ġ
zong3Ġ mian4Ġji1Ġ
ĠĠĠof ĠĠĠtheĠĠĠ
Ġ heng1Ġli4Ġ
xin1 Ġxing2Ġ
kai1 Ġshe4
zi3 Ġdan4Ġ
27 Ġ
dang4 ĠdeĠ
kua4 Ġ
xue2Ġ xi4Ġ
gai3Ġ zao4
Ġan1 Ġde2Ġ
Ġ shuang1
Ġ 400
ĠĠĠ Me
chang2 Ġbei4Ġ
is Ġ
kuang1 Ġ
Ġcheng2Ġ li4ĠdeĠ
xi1Ġ yang2
Ġbing4Ġ fei1
Ġzi4Ġ mu3Ġ
Ġbi4Ġ xu1Ġ
hang2Ġkong1Ġ mu3
fei1Ġlv4Ġ bin1Ġ
Ġ 21
Ġ 39
Ġ 19Ġ
ĠĠĠ tong2
ĠĠĠ Ro
ge2 Ġli3Ġ
jing3 Ġyuan2Ġ
qian3 Ġze2Ġ
um Ġ
CD Ġ
Ġzai4Ġ bei4Ġ
bu4Ġ tong2Ġ
Ġshi2Ġ ke4Ġ
yi4Ġ bai3Ġ
dian4Ġ zi3
shou1Ġ cang2
Ġ qi4
ĠĠĠ tai2Ġwan1Ġ
zhang3 Ġhe2Ġ
jiao1 ĠdeĠ
cha2 Ġer3Ġsi1Ġ
80 Ġ
Ġshi2Ġ you2Ġ
Ġji1Ġ xie4
jiao1Ġ jie4Ġ
Ġ 300
fu2 Ġshi4Ġ
Ġxi1Ġ fang1Ġ
Ġqi2Ġ hou4Ġyu2Ġ
fen1Ġ pei4
yi2Ġ du4
sai4Ġ che1Ġ
shang1Ġ chang3Ġ
ting2Ġ kao4
dian4Ġying3 ĠdeĠ
Ġ yao4
Ġ 1996Ġnian2Ġ
gen1 Ġben3Ġ
pao3 Ġdao4Ġ
Ġzhong1Ġ qi1Ġ
Ġshi2Ġ li4Ġ
zheng4Ġ chang2Ġ
Ġzhi1Ġ shang4Ġ
bao3Ġ jia1
yi2Ġ ci4Ġshi4Ġjie4Ġda4Ġzhan4Ġ
qiang2Ġ diao4
de2Ġ guo2ĠdeĠ
fu2Ġjian4Ġ sheng3Ġ
Ġ St
Ġ De
Ġ luo2Ġsi1Ġ
Ġ chong2Ġxin1Ġ
ĠĠĠ xiang1Ġgang3
xing1 Ġjian4
et Ġ
Ġge4 Ġbu4Ġ
xu4Ġ lie4Ġ
hao4 ĠdeĠ
wan3 Ġnian2Ġ
Ġyou3Ġ liang3Ġ
li3Ġ lan2Ġ
Ġzhou1 Ġli4Ġ
shou3Ġ shu4Ġ
Ġdui4Ġ wai4Ġ
jin1Ġ rong2
shou4Ġ huan1Ġ
bu3Ġ chong1Ġ
Ġli4Ġshi3Ġ xue2Ġjia1Ġ
Ġmi3 Ġzhi4Ġ
cui1Ġ hui3Ġ
Ġyi4Ġshu4 Ġjia1Ġ
Ġ kuai4Ġ
Ġ bu4Ġzai4Ġ
gao1 Ġdi4Ġ
san1 Ġbu4Ġ
si4 Ġyue4Ġ
Ġdui4Ġ wu3Ġ
fen1Ġ lie4Ġ
jin1Ġ shan1Ġ
wang2Ġ zi3Ġ
Ġxiang1Ġ bi3Ġ
yan3Ġ jiang3Ġ
qing2Ġ bao4
yin1Ġ su4Ġ
Ġguang1Ġ xu4Ġ
1 Ġhao4Ġ
Ġ chao1Ġ
ĠĠĠ i
40 Ġnian2Ġ
nv3Ġ hai2Ġ
gui1Ġ lei4
wei1Ġ xie2
a1Ġer3Ġ bei1Ġsi1Ġ
24Ġ xiao3Ġshi2Ġ
fo2Ġ jiao4
ĠĠĠ liu2Ġ
ĠĠĠ toĠĠĠ
sha1 ĠdeĠ
35 Ġ
Ġhe2Ġ shang4Ġ
sheng1Ġ yin1Ġ
yan2Ġ lun4Ġ
zhi2Ġ sheng1Ġji1Ġ
Ġjin4 Ġer2Ġ
luo2Ġ la1Ġ
qiao2Ġ liang2Ġ
sa4Ġ la1Ġ
Ġmian4Ġji1Ġ 0
fa1Ġbu4Ġ leĠ
gu3Ġlao3 ĠdeĠ
Ġ Co
Ġ yun4Ġ
Ġ kai1Ġfa1Ġ
gu3 Ġji4Ġ
nv3 Ġren2Ġ
Ġshi2Ġ da4Ġ
shui3Ġ shen1Ġ
yi3Ġ se4Ġ
Ġjin1Ġ shu3Ġ
ge4Ġ zhong3
zhong4Ġdian3Ġ wen2Ġwu4Ġbao3Ġhu4Ġdan1Ġwei4Ġ
jia1Ġli4Ġfu2Ġ ni2Ġya4Ġzhou1Ġ
di1Ġqi4Ġ ya1Ġ
Ġ hao3Ġ
dui4 Ġta1Ġ
Ġshi4Ġ xi1Ġban1Ġya2Ġ
Ġhe2Ġ ji4Ġ
Ġbu4Ġ shi2Ġ
ren4Ġ ming4Ġ
kai1Ġfa1 ĠdeĠ
Ġ zao4Ġ
19 Ġnian2Ġ
lai2 Ġke4Ġ
te4 Ġzai4Ġ
fu2 Ġyin1Ġ
ya4 Ġsi1Ġ
Ġguo2Ġ shi2Ġ
Ġyi4Ġ da4Ġ
Ġyuan2Ġ ziĠ
xin1Ġ jiang1Ġ
qian2Ġ jin4Ġ
Ġshe4Ġ ying3Ġ
tu2Ġ sha1Ġ
kong1Ġ xi2Ġ
tan3Ġ ding1Ġ
Ġke3 Ġshi4Ġ
Ġ zhuang4Ġ
Ġ 2023Ġnian2Ġ
ĠĠĠ 2005
ju2 Ġbu4Ġ
60 Ġnian2Ġ
Ġjun1Ġ tuan2Ġ
nv3Ġ zhu3Ġjue2Ġ
Ġjing3Ġ fang1Ġ
ĠR Ġ
Ġ ou1
luo4 Ġke4Ġ
hui2 Ġjia1Ġ
shuo4 Ġ
seng1 Ġ
ID Ġ
Ġgong1Ġ gao4Ġ
Ġzhi1Ġ hou4ĠdeĠ
mo2Ġ te4
Ġshi4Ġyi1Ġ ke1
shou1Ġ ru4
guang3 Ġzhou1Ġshi4Ġ
fu2Ġ lei2
jing4Ġ tou2Ġ
cheng2Ġli4Ġ hou4Ġ
18 Ġnian2Ġ
1970 Ġnian2Ġdai4Ġ
1925 Ġnian2Ġ
Ġshi4Ġ xing1Ġdeng3Ġwei4Ġ
Ġ dou4Ġ
yi1Ġ yuan4Ġ
Ġyi3Ġ bei3Ġ
Ġxian4Ġ ming2Ġ
xuan3Ġ qu1
yan2Ġjiu1 Ġzhong1Ġxin1Ġ
di2Ġshi4Ġ ni2Ġ
da4 Ġyu2Ġ
zhuan1 Ġli4Ġ
zhuan3 Ġcheng2Ġ
bai3 Ġwan4Ġ
Ġren2Ġ dui4Ġ
Ġguo2Ġ jun1Ġ
Ġxia4Ġ leĠ
pu3Ġ luo2Ġ
dian4Ġying3Ġ jie2Ġ
Ġnian2Ġqing1 ĠdeĠ
1 Ġming2Ġ
Ġ peng2
Ġ Ð°
gong4 Ġji4Ġ
lun2 Ġsi1Ġ
14 Ġnian2Ġ
ying1Ġ xiong2
shen2Ġ hua4Ġ
zhuan1Ġ men2
Ġmei3 Ġzhou1Ġ
ĠĠĠ Co
jie1 ĠdeĠ
wu3 Ġde2Ġ
jiu4 Ġzai4Ġ
luo4 Ġzai4Ġ
mai3 Ġ
zhi4Ġ du4Ġ
yu3Ġ mao2
fang1Ġ xiang4ĠdeĠ
Ġzheng4Ġ quan2Ġ
yi2Ġ ding4ĠdeĠ
lan2Ġ se4Ġ
pei2Ġ xun4Ġ
fa3Ġlan2Ġ xi1
3 Ġming2Ġ
duo1 Ġli4Ġya4Ġ
ting2 ĠdeĠ
kuai4 ĠdeĠ
70 Ġnian2Ġ
1909 Ġnian2Ġ
Ġshi4Ġ ying1Ġguo2Ġ
Ġji2Ġ bing4
Ġtian1Ġ jin1Ġ
ĠĠĠ De
gong1 Ġhe2Ġ
nan2 Ġren2Ġ
jiu4 Ġbei4Ġ
bian4 Ġshi4Ġ
fei2 Ġte4Ġ
Ġming2Ġ xian3Ġ
Ġ zi3Ġ
zhi1 Ġjia1Ġ
gu3 ĠdeĠ
gao4 Ġshi4Ġ
Ġxing2Ġ rong2
ben3Ġ shen1Ġ
nei4Ġ rui4Ġ
tou2Ġ shou3Ġ
Ġshi4Ġshi2Ġ shang4Ġ
gou4Ġmai3 Ġ
zhi4Ġ zuo4
Ġji2Ġ xian4Ġ
Ġri4 Ġhe2Ġ
qu1Ġ zhu2
Ġjun1 Ġyou3Ġ
fu4Ġ shi3Ġ
Ġyou2Ġ xi4ĠdeĠ
qing1Ġ chu3Ġ
mo2Ġ fa3Ġ
zhun3Ġ bei4
ti3Ġyu4Ġ guan3Ġ
Ġ In
Ġ 1949Ġnian2Ġ
ĠĠĠ Mo
da4 Ġhe2Ġ
Ġwei4Ġ li4Ġ
Ġshi2Ġ pin3Ġ
Ġbing4 Ġshi4Ġ
Ġzhou1Ġ qi1Ġ
zhi3Ġ kong4
Ġtong2 Ġzhi4Ġ
chan3Ġ wu4Ġ
ri4Ġben3 ĠdeĠ
Ġyuan2Ġzhu4Ġ min2Ġ
Ġ xiong1
Ġ 2002
Ġ wo4Ġ
ĠĠĠ dao4Ġ
shui3 ĠdeĠ
wang3 Ġyou3Ġ
Ġyu2Ġ 2021
zheng1Ġ qu3Ġ
zhuan3Ġ huan4
zhuan4Ġ xie3Ġ
mei3Ġguo2Ġren2Ġkou3Ġpu3Ġ cha2Ġ
sai1Ġer3Ġwei2Ġ ya4Ġ
Ġ ti2Ġchu1Ġ
zhan4 Ġhe2Ġ
ke4 Ġsi1Ġ
ru4 Ġqiu2Ġ
bian4 ĠdeĠ
shui3 Ġhe2Ġ
dan3 Ġ
ji4Ġ zai3Ġ
Ġxing2 Ġren2Ġ
liu2Ġ liang4Ġ
liang4Ġ zi3Ġ
Ġwei4Ġyu2Ġ yin2
an4Ġ zhao4
ying2Ġ yun4
su1Ġ dan1Ġ
ke3Ġneng2Ġ xing4Ġ
shun4Ġ xu4Ġ
Ġlu2Ġ wa3Ġer3Ġsheng3Ġ
si4Ġchuan1Ġ sheng3Ġ
Ġdi4Ġ 2
Ġxing2Ġ rong2Ġ
Ġbei4Ġ ren4Ġming4Ġwei4Ġ
sai4Ġ guan4Ġjun1Ġ
zi1Ġ xun2Ġ
Ġzhu3Ġ ti2Ġ
zhuan3Ġ huan4Ġ
qiu2Ġ chang3Ġ
Ġshi4Ġjie4 Ġshang4Ġ
fang1 Ġzai4Ġ
chuan1 Ġxian4Ġ
Ġyu2Ġ shi2ĠdeĠren2Ġkou3Ġshu4Ġliang4Ġwei4Ġren2Ġ
gu3Ġ dian3Ġ
che4Ġ xiao1
Ġ wen1Ġ
hua4 Ġshi4Ġ
tan2 Ġhe2Ġ
rao4 Ġ
ing Ġ
bei4Ġ jing3
Ġshang4Ġ leĠ
Ġhuo4Ġ zhe3
jian3Ġ dan1ĠdeĠ
Ġwei4Ġyu2Ġgai1Ġguo2Ġ xi1Ġbu4Ġ
bao1Ġhan2 ĠleĠ
Ġ liang2
Ġ ka3Ġer3Ġ
ba1 Ġbu4Ġ
chi4 Ġjing1Ġ
Ġshi4Ġ ji4Ġzhong1Ġ
Ġli4Ġ tao2Ġ
Ġfei1Ġ lv4Ġ
ĠĠĠ hong2Ġ
ma3 Ġli4Ġya4Ġ
bu3 Ġzhu4Ġ
zheng1Ġ fu2Ġ
ling3Ġ tu3
wei3Ġ tuo1Ġ
tiao2Ġ wen2Ġ
dai4Ġbiao3Ġ tuan2Ġ
ruan3Ġ tiao2Ġ
hao4 Ġwei4Ġ
kai1Ġ zhan3
jiang1Ġ hu4
tong1Ġ xun4
Ġxue2Ġ shu4Ġ
qu3Ġ mu4Ġ
Ġxiang1Ġdang1 Ġyu2Ġ
8 Ġge4Ġ
Ġ pan1
ĠĠĠ you2Ġxi4Ġ
pu3 Ġji2Ġ
35 Ġnian2Ġ
Ġta1 Ġren2Ġ
zuo4Ġ zhe3Ġ
you2Ġ yong3Ġ
Ġde2Ġ wei2Ġ
mei2Ġyou3Ġ ren4Ġhe2Ġ
Ġtian1Ġ jin1
su1Ġwei2Ġ ai1
Ġ 1949
hou4 Ġyi3Ġ
jian1 Ġwei4Ġ
ke3 Ġjian4Ġ
deng3 Ġyu2Ġ
bo1 ĠdeĠ
du2 ĠdeĠ
qian2Ġ ting3
Ġyu4 Ġji4Ġ
yan2Ġshen1 Ġzhi4Ġ
Ġ hei1
Ġ 1995Ġnian2Ġ
Ġ 1993Ġnian2Ġ
zhong1 ĠdeĠyi1Ġ
jia3 Ġji2Ġ
pin2 Ġdao4
bei3Ġ bu4ĠdeĠ
jie1Ġ xia4Ġ
zhen4Ġ rong2Ġ
bing4Ġ ru4Ġ
Ġzui4Ġ zao3
zhu3Ġyao4 Ġshi4Ġ
Ġyou3Ġxian4 Ġgong1Ġsi1
ge1Ġlun2Ġ bi3Ġya4Ġ
Ġshi2Ġ er4Ġnian2Ġ
Ġren2Ġ bei4Ġ
ji1Ġ guan1Ġ
kai1Ġ tong1
si4Ġ hu1
tai4Ġ shou3Ġ
dian4Ġshi4Ġ dong4Ġhua4Ġ
Ġchu2Ġ ci3Ġzhi1Ġwai4Ġ
qi2Ġzhong1Ġ yi1Ġ
jie4Ġquan2Ġguo2Ġ zheng4Ġxie2Ġ
bao4Ġfa1 Ġhou4Ġ
Ġ ë
Ġ HR
shu4 Ġjia1Ġ
qu3 ĠdeĠ
pian4 Ġzhong1Ġ
Ġzai4Ġ xiang1Ġgang3Ġ
Ġshi2Ġ yi1Ġnian2Ġ
Ġji2Ġ wei2Ġ
Ġyi3Ġ bian4Ġ
wu3Ġ han4Ġ
ge1Ġ ge1Ġ
fan4Ġ zui4
ĠĠĠ ka3Ġ
yuan2 Ġbu4Ġ
che1 Ġxing2Ġ
fen4 ĠdeĠ
geng4 Ġshi4Ġ
Ġzhong1Ġ xin1ĠdeĠ
Ġda4Ġ xiao3Ġ
ge2Ġ la1Ġsi1Ġ
tong1Ġ wang3Ġ
wan4 Ġli4Ġ
hu1 Ġxi1Ġ
1923 Ġnian2Ġ
Ġda4Ġ li3Ġ
ju4Ġ li2
fa3Ġ lan2Ġke4Ġ
lian2Ġ luo4Ġ
ĠdeĠdi4Ġ san1Ġ
hen3Ġ da4ĠdeĠ
Ġ ke1Ġxue2Ġ
ĠĠĠ 7
ji4 Ġzhi4Ġ
jie4 Ġshi2Ġ
ha1 Ġli3Ġ
huo3 Ġli4Ġ
reng2 Ġwei4Ġ
kua4 Ġyue4Ġ
Ġshi4Ġ e2Ġluo2Ġsi1Ġ
zhi2Ġ bang4
dong4Ġ wu4
shui3Ġ liang4Ġ
xie2Ġ tiao2Ġ
huo3Ġ che1Ġzhan4Ġ
nong2Ġ chang3Ġ
xuan1Ġ yan2Ġ
Ġchi4Ġ wei3Ġ
Ġ fan2
ĠĠĠ shang4Ġ
ĠĠĠ er4Ġ
ĠĠĠ jian3Ġli4Ġ
zhan4 Ġyou3Ġ
jie1 Ġshi4Ġ
cheng1 Ġshi4Ġ
gu3 Ġxi1Ġla4
TV Ġ
yi4Ġ ming2Ġ
wu4Ġ pin3Ġ
duo1Ġ zhong3
Ġyou2Ġ tai4Ġ
hai3Ġ nan2Ġ
sheng3Ġ zhang3Ġ
huang2Ġ jin1Ġ
chong1Ġ man3Ġ
Ġxian4Ġshi2Ġ you2Ġ
ĠĠĠjin3Ġ guan3Ġ
hai3 ĠdeĠ
tu1 Ġji1Ġ
Ġren2Ġ yu3Ġ
Ġji2Ġ gong1Ġ
Ġyi3 Ġbu4Ġ
qu1Ġ nei4Ġ
chuang4Ġ zao4
Ġ SAO
Ġ qu4Ġ
qi1 Ġzhi4Ġ
jun4 ĠdeĠ
22 Ġnian2Ġ
Ġdao4Ġ da2
Ġde2 Ġdao4
Ġzhe4Ġ zuo4Ġ
ni2Ġ su1Ġ
mei3Ġ xiao3Ġshi2Ġ
shou1Ġ fei4Ġ
Ġjing1Ġ chang2Ġ
zhou1Ġ bian1
Ġjian4Ġzhu4Ġ wu4Ġ
mao2Ġ dun4Ġ
ĠĠĠ 0
xin1 Ġjian4Ġ
zao4 Ġxing2Ġ
Ġde2 Ġjun1Ġ
Ġzhe4 Ġshi2Ġ
wang4Ġyuan3Ġ jing4Ġ
Ġ cao2Ġ
ĠĠĠ 2022Ġnian2Ġ
ceng2 Ġbei4Ġ
xu4 ĠdeĠ
Ġda4Ġ ban3Ġ
Ġchu1Ġ chang3Ġ
shen1Ġ ti3
long2Ġ sheng3Ġ
shi3Ġyong4Ġ zhe3Ġ
xiu1Ġ ding4Ġ
ĠĠĠ jing1Ġli4Ġ
liu4 Ġming2Ġ
1919 Ġnian2Ġ
Ġdi4Ġ yi1Ġwei4Ġ
Ġji2Ġ hui4Ġ
Ġji2Ġ qi2Ġta1Ġ
ju3Ġ zhen4Ġ
zhong1Ġguo2Ġ da4Ġlu4Ġ
Ġ w
Ġ huan2
Ġ miao3Ġ
Ġguo2Ġ you3Ġ
Ġchu1Ġ xi2
yong4Ġ hu4
xi4Ġ jie2Ġ
lian2Ġ luo4
Ġsheng1Ġ tai4Ġ
mei3Ġ tian1Ġ
nuo4Ġ fu1Ġ
Ġguan1Ġ zhuang4Ġbing4Ġdu2
ĠE Ġ
Ġ 2001
Ġ lun2Ġ
Ġ pu2Ġtao2Ġya2
pu1 Ġ
ĠdeĠ gao1Ġ
Ġren2Ġ zhi4Ġ
Ġcheng2Ġ yi1Ġ
Ġdui4Ġ xiang4Ġ
shou4Ġ huan1Ġying2Ġ
cai2Ġ pan4Ġ
jiang3Ġ jin1Ġ
can1Ġyi4Ġ yuan4Ġ
Ġli4Ġfa3 Ġhui4Ġ
ĠĠĠ lin2Ġ
ya4 Ġhe2Ġ
na4 Ġer3Ġ
chong2 Ġjian4
16 Ġnian2Ġ
ty Ġ
Ġzai4Ġ fa3Ġguo2Ġ
jiao1Ġ gei3Ġ
gui1Ġ ding4
tuo1Ġ li2Ġ
shou1Ġ gou4
Ġze2 Ġshi4Ġ
Ġ zong1Ġ
guo4 Ġyi1Ġ
fa4 Ġ
Ġshi2Ġ ren4
Ġshi2Ġ san1Ġ
yan2Ġ fa1Ġ
jiao4Ġ gao1Ġ
zhi3Ġ shu4Ġ
Ġren4Ġ ming4Ġ
Ġxi4Ġ bao1Ġ
biao3Ġxian4 Ġchu1Ġ
Ġji2Ġxing2Ġzheng4Ġ dan1Ġwei4Ġ
Ġao4Ġda4Ġli4Ġ ya4Ġ
ĠĠĠ ping2Ġ
fang1 Ġxing2Ġ
ze2 Ġbei4Ġ
zhuang1 Ġwei4Ġ
11 Ġnian2Ġ
1922 Ġnian2Ġ
sis Ġ
Ġyu2Ġ tong2
Ġyu2Ġ 2019
Ġer2 Ġhou4Ġ
zhu3Ġ dong4Ġ
bi4Ġ yao4Ġ
pai2Ġ lie4Ġ
Ġyin2Ġ wei3Ġ
0 Ġzuo4Ġbiao1Ġwei4Ġ
2 Ġli4Ġ
Ġ Ja
xing2 ĠdeĠ
zi Ġshi4Ġ
fei1 Ġdan4Ġ
sheng4 Ġdan4Ġ
wei2Ġ yi1ĠdeĠ
Ġdan4 Ġshi4Ġzai4Ġ
Ġqi2Ġ B1900
Ġdan4Ġ zui4Ġzhong1Ġ
xun4Ġ su4
xuan1Ġ cheng1Ġ
ren2Ġmin2Ġ zheng4Ġfu3Ġ
Ġhu2Ġ bei3Ġ
Ġwei4Ġyu2Ġyin2 Ġjing1Ġ
0Ġzuo4Ġbiao1Ġwei4Ġ chi4Ġjing1Ġ
Ġ lie4Ġche1Ġ
ĠĠĠ san1Ġ
ĠĠĠ 11Ġyue4Ġ
jiang1 Ġjun1
lian2 Ġjun1Ġ
la1 Ġwei2Ġ
lun2 ĠdeĠ
ba3 Ġta1Ġ
nang2 Ġ
Ġzhong1Ġ hua2
ji1Ġ du1Ġ
Ġxing2Ġ tai4Ġ
geng4Ġ da4ĠdeĠ
tu3Ġ rang3
Ġjian4Ġzhu4Ġ mian4Ġji1Ġ
kong4Ġ zhi4ĠdeĠ
gong4Ġhe2Ġ dang3Ġ
Ġ ãĥ³
Ġ wu1Ġke4Ġlan2
ĠĠĠ fen1Ġbu4Ġ
ming2 Ġhe2Ġ
hua4 Ġyu3Ġ
suo3 Ġyi3Ġ
jiao1 Ġzhan4Ġ
bo2 Ġer3Ġ
zhen1 Ġren2Ġ
68 Ġnian2Ġ
pe Ġ
1911 Ġnian2Ġ
Ġsi1Ġ zhi2Ġ
guan1Ġ xi4ĠdeĠ
xiao1Ġ fang2Ġ
Ġqing1Ġchao2Ġ zheng4Ġzhi4Ġren2Ġwu4Ġ
Ġ song1Ġ
xiang4 Ġyu2Ġ
si3 ĠleĠ
bei4Ġ er3Ġ
you2Ġ xi4ĠdeĠ
xiao4Ġ lv4Ġ
bian1 Ġzhi4Ġ
sha1 Ġren2Ġ
ra Ġ
zhong1Ġ hua2Ġmin2Ġguo2Ġ
Ġji2Ġ ti3Ġ
ou1Ġ meng2Ġ
Ġmu3Ġ qin1
ĠĠĠche1Ġzhan4Ġ gou4Ġzao4Ġ
luo4Ġfa2 Ġke4Ġ
Ġ wei3
Ġ 1985Ġnian2Ġ
ĠĠĠ chu2Ġ
lun4 Ġshi4Ġ
xie3 Ġwei4Ġ
Ġshi2Ġ ba1Ġ
Ġda4Ġ jie1Ġ
jin1Ġ shu3
Ġju4Ġ qing2Ġ
zu2Ġ qun2Ġ
jie3Ġfang4 Ġjun1
Ġ Da
ĠĠĠ xiao3Ġ
dao3 Ġhe2Ġ
man4 ĠdeĠ
kang4 Ġzhan4Ġ
Ġji2Ġ cheng2Ġ
ji1Ġ che1Ġ
Ġzhe4Ġ yang4
yi2Ġ ban4Ġ
huo3Ġ che1Ġ
ai4Ġer3Ġ lan2
ĠĠĠin ĠĠĠ
Ġ zheng3Ġge4Ġ
da1 Ġzai4Ġ
weng1 Ġ
zhu3Ġ quan2Ġ
Ġqiu2Ġ dui4
xu3Ġ ke3Ġ
Ġ17 Ġ
cai3Ġyong4Ġ leĠ
Ġda4 Ġbu4Ġfen4Ġ
zhi2 Ġxing2
Ġhe2Ġ yuan2Ġ
zhi3Ġ ding4
ti2Ġ qian2Ġ
jin3Ġ zhang1Ġ
zhen1Ġ zheng4ĠdeĠ
shun4Ġshi2Ġ zhen1Ġyu3Ġ
Ġ Mi
Ġ 160
nei4 Ġsi1Ġ
ba1 Ġsi1Ġ
can1 Ġjian4Ġ
kan4 Ġfa3Ġ
wen1 Ġdai4Ġ
hun1 Ġyin1
tie1 Ġmu4
Ġyi1Ġ shi2Ġ
Ġyi3Ġ dong1Ġ
Ġxian4Ġ zhang3Ġ
zi4Ġ wo3Ġ
wu4Ġ ti3Ġ
feng1Ġ ge2ĠdeĠ
Ġyin3Ġ fa1Ġ
lian2Ġmeng2 ĠdeĠ
ze2 Ġyou2Ġ
pin1 Ġ
Ġshi4Ġ tai2Ġwan1Ġ
Ġda4Ġ dui4Ġ
zhu3Ġ da3Ġ
pu3Ġ la1Ġ
Ġ dun1Ġ
ĠĠĠ 2009Ġnian2Ġ
lai2 Ġshi4Ġ
zhen4 Ġji2Ġxing2Ġzheng4Ġdan1Ġwei4Ġ
wo3 ĠdeĠ
64 Ġnian2Ġ
Ġbu4Ġ cheng2Ġ
fang1Ġ an4
fang1Ġ bian4Ġ
suo3Ġ xu1
Ġyou2Ġ zheng4Ġ
Ġzi4Ġ ran2
Ġ long2
ĠĠĠ ta1ĠdeĠ
ĠĠĠ guo2Ġji4Ġ
lin2 Ġjin4Ġ
in ĠĠĠ
1926 Ġnian2Ġ
Ġzhi4Ġ yuan2Ġ
sheng1Ġ ge2Ġwei4Ġ
Ġjian4Ġ kang1
Ġquan2 Ġxian4Ġ
zui4Ġ zhong4Ġyao4ĠdeĠ
jue2Ġ se4ĠdeĠ
ding4Ġ yi4Ġwei4Ġ
tu2Ġ an4Ġ
chong2Ġ fan3Ġ
Ġwei1 Ġer3Ġ
Ġ piao4Ġ
Ġ bin1Ġ
Ġ tai4Ġguo2Ġ
ĠĠĠ gu3Ġ
duo1 Ġer3Ġ
ĠdeĠ xing2Ġ
Ġshi4Ġ lang2Ġ
Ġzai4Ġ qian2Ġ
Ġzhong1Ġ yi1Ġ
Ġzhong1Ġ jiang4Ġ
Ġji2Ġ bie2Ġ
Ġer2Ġ tong2
Ġshang4Ġ ying4Ġ
can1Ġ guan1Ġ
Ġren2Ġkou3 Ġwei4Ġ
Ġ á
jing3 Ġwei4Ġ
xian1 Ġwei2Ġ
dong3 Ġ
Ġyi1Ġ liao2
guan1Ġ kan4Ġ
Ġyin1 Ġer2
ci4Ġ shu4Ġ
tong2Ġ yang4Ġ
Ġ zi1Ġ
an4 Ġli4Ġ
sheng4 ĠdeĠ
jia4 ĠdeĠ
qu4 ĠleĠ
1918 Ġnian2Ġ
yi4Ġ hui4Ġ
Ġyu2Ġ 2016
jian1Ġ chi2Ġ
Ġzhou1Ġ zhang3Ġ
zhong3Ġ lei4Ġ
wang3Ġ wang3
jian3Ġ cha2
shen3Ġ pan4Ġ
hun4Ġ ning2Ġ
Ġ shu4
Ġ 58
Ġ mi2Ġ
ĠĠĠ er2Ġ
28 Ġnian2Ġ
Ġge4 Ġguo2Ġjia1Ġ
Ġyu3Ġ xi1Ġ
jiao4Ġ lian4
dan1Ġ du2Ġ
bian1Ġ zu3Ġ
7 Ġmi3Ġ
Ġ ni2
Ġ kai1Ġshi3
Ġ guang3Ġxi1Ġ
ĠĠĠ wang2Ġ
ĠĠĠ sui1Ġran2
shi1 Ġji2Ġ
shou4 Ġdao4ĠleĠ
shen1 Ġyu2Ġ
lun4 ĠdeĠ
xun4 Ġxi1Ġ
mai2 Ġ
Ġzhong1Ġ duan4Ġ
Ġda4Ġ chen2
jia4Ġ gou4Ġ
cun1Ġ min2Ġ
qun2Ġ dao3ĠdeĠ
e4Ġ hua4Ġ
Ġzheng4Ġfu3 ĠdeĠ
Ġ xian3Ġshi4Ġ
ĠĠĠ zuo4Ġwei2Ġ
ming2 Ġyu2Ġ
xing4 Ġming2Ġ
xian1 ĠdeĠ
75 Ġnian2Ġ
EST Ġ
Ġyu3Ġ wen2Ġ
zhu4Ġ shou3Ġ
tian1Ġ wen2Ġxue2Ġ
mian4Ġ xiang4Ġ
Ġyou2 Ġqi2Ġ
Ġzhan4 Ġhou4Ġ
8 Ġmi3Ġ
Ġ 64
Ġ Sh
Ġ zu3Ġzhi1Ġ
ĠĠĠ luo2Ġ
ba1 Ġji1Ġsi1Ġ
Ġshi4Ġ cheng2Ġ
Ġshi4Ġ chu1Ġ
Ġyou3Ġ ming2Ġ
Ġdao4 Ġshi2Ġ
Ġyi3Ġ ci3Ġ
Ġzhou1Ġ fu4Ġze2Ġguan3Ġxia2Ġ
wai4Ġ lang2Ġ
cheng1Ġ hu1Ġ
jiang3Ġ pai2Ġ
ĠT Ġ
Ġai4 Ġer3Ġ
tiao2Ġyue1Ġ ti3Ġxi4Ġ
Ġ 47
65 Ġnian2Ġ
Ġzhong1Ġ shan1
jing1Ġ yan4
Ġzhi2Ġ jie1Ġ
Ġping2 Ġcheng2Ġ
Ġ 1988Ġnian2Ġ
ji4 Ġbu4Ġ
wu4 Ġbu4Ġ
suo3 Ġshi4Ġ
62 Ġnian2Ġ
1914 Ġnian2Ġ
ji1Ġ hui4Ġ
hou4Ġ qi1Ġ
zhu3Ġ ban4Ġ
fu4Ġ mu3Ġ
jian1Ġ cha2
Ġxiang1Ġ guan1ĠdeĠ
se4Ġ cai3Ġ
7 Ġge4Ġ
Ġ 1984Ġnian2Ġ
an1 Ġxian4Ġ
ĠĠĠ quan2Ġ
tu1 Ġran2
suan1 Ġjian3Ġ
Ġji1Ġ fen1Ġ
xuan3Ġ min2Ġ
ke1Ġ hui4Ġshi4Ġdi4Ġ
ge1Ġ shou3
er4Ġ shi2Ġnian2Ġ
su4Ġ du4
gen1Ġ sui2Ġ
ĠdeĠshi2Ġ jian1
pei2Ġ xun4
Ġguo2Ġfang2 Ġbu4Ġ
Ġ 48
ĠĠĠ 2007Ġnian2Ġ
you2Ġ ju2
qian2Ġ shen1Ġ
xiang3Ġ yao4Ġ
Ġlai2Ġ zi4
nan2Ġji2Ġ tiao2Ġyue1Ġti3Ġxi4Ġ
E ĠĠĠ
Ġ 600
tang2 Ġhe2Ġ
ting1 Ġdao4Ġ
ce ĠĠĠ
can2 Ġji2Ġren2Ġ
bi2 Ġ
Ġshi4Ġ pin2Ġ
Ġbu4Ġ lu3Ġ
Ġren2Ġ quan2Ġ
Ġgong1Ġ da3Ġ
Ġchu1 Ġyu2Ġ
zi4Ġ sha1Ġ
pin3Ġ zhong3Ġ
ji3Ġ nei4Ġ
Ġzhi2 Ġxing2Ġ
Ġgai1Ġcun1Ġ shi3Ġjian4Ġyu2Ġ
Ġ di1Ġ
Ġ hao2Ġ
yu2 Ġwei4Ġ
zheng4 Ġyi4Ġ
yin2 Ġhe2Ġ
Ġzai4Ġ nei4Ġ
wei2Ġ ye3Ġ
dian4Ġ chi2Ġ
duo1Ġ shu4
re4Ġ dai4
Ġan1Ġ hui1Ġ
Ġxing2Ġcheng2Ġ leĠ
Ġjing4Ġ nei4Ġ
qi2Ġzhong1Ġ yi2Ġge4Ġ
xia4Ġxia2ĠdeĠyi2Ġge4Ġxiang1Ġ zhen4Ġji2Ġxing2Ġzheng4Ġdan1Ġwei4Ġ
Ġ fan4
zhan4 Ġwei4Ġyu2Ġ
zhu4 Ġyou3Ġ
ma3 Ġshi4Ġ
zhen4 Ġdi4Ġ
1950 Ġnian2Ġ
Ġshi2Ġ you3Ġ
wei2Ġ chi2
zhen4Ġ ya1Ġ
rong2Ġ liang4Ġ
Ġ 1990Ġnian2Ġ
ĠĠĠ jin4
ĠĠĠ 5Ġ
mei2 Ġtong2Ġpai2Ġ
xiang3 Ġyou3Ġ
ta3 Ġji1Ġ
gong1Ġ min2Ġ
Ġcheng2Ġ gong1ĠdeĠ
Ġsi1Ġ dun4Ġ
Ġji1Ġ ben3
Ġjia1Ġ li3Ġ
Ġke4 Ġyu3Ġ
Ġde2Ġ luo2Ġ
fu2Ġ zhuang1Ġ
su4Ġ song4Ġ
qing2Ġ gan3Ġ
pian4Ġ duan4Ġ
kao3Ġ cha2Ġ
pi1Ġ pan4Ġ
ĠF Ġ
Ġsi1Ġling4 Ġyuan2Ġ
Ġ rong2
Ġ mao2
Ġ gong4Ġtong2Ġ
liang3 Ġzuo4Ġ
nong2 Ġli4Ġ
Ġzai4Ġ na4Ġ
Ġyi4Ġ xi2Ġ
Ġri4 Ġyi3Ġ
Ġjian4 Ġdao4Ġ
Ġhou4Ġ zhe3
hua4Ġ gui1Ġ
jiao4Ġ da4ĠdeĠ
wen2Ġ zhang1
Ġwei2Ġ wu2Ġer3Ġ
jiang1Ġ nan2Ġ
Ġzuo4Ġ zhe3Ġ
qi3Ġ yuan2Ġyu2Ġ
bo1Ġ te4Ġ
4 Ġming2Ġ
Ġ r
Ġ biao1Ġ
Ġ du2Ġli4Ġ
17 Ġnian2Ġ
Ġzai4Ġ cheng2Ġ
Ġshi2Ġ ti3Ġ
Ġyue4Ġ yu3Ġ
ĠJ Ġ
1 ĠĠĠ
Ġ 1945
Ġ hui1Ġ
Ġ xi4Ġtong3Ġ
ĠĠĠ re
yong4 Ġzai4Ġ
te4 Ġshi4Ġ
you4 Ġyi4Ġ
fang2 Ġxian4Ġ
1990 Ġnian2Ġdai4Ġ
kuang1 Ġjia4Ġ
1913 Ġnian2Ġ
Ġyi1Ġ lai4
Ġxi1Ġ te4Ġ
Ġbing4Ġ bu2Ġshi4Ġ
qing1Ġ xiang4Ġ
Ġxia4Ġ lai2Ġ
mo4Ġ qi1Ġ
shou1Ġ cang2Ġ
Ġnian2Ġ4Ġyue4Ġ 1Ġri4Ġ
yin4Ġ ni2
xiao3Ġxing2Ġ xing1ĠdeĠ
nan2Ġji2Ġtiao2Ġyue1Ġti3Ġxi4Ġ guan3Ġli3Ġ
Ġ sĠ
Ġ zu3Ġcheng2Ġ
ĠĠĠ zhi2Ġye4Ġsheng1Ġya2Ġ
wei2 Ġgong1Ġ
bian1 Ġxing2Ġ
ci2 Ġji1Ġ
ping1 Ġ
shi2Ġ yi1Ġ
Ġda4Ġ qi4Ġ
hui4Ġ shang4Ġ
fa3Ġ lan2Ġxi1Ġ
fen1Ġ li2
shao4Ġ nv3
tian1Ġwen2Ġ tai2Ġ
4 Ġmi3Ġ
Ġ cao2
Ġ guan3Ġli3Ġ
Ġ 1989Ġnian2Ġ
ke1 Ġli4Ġ
sheng3 Ġfu4Ġze2Ġguan3Ġxia2Ġ
luo4 Ġyi1Ġ
hu4 Ġwei4Ġ
lei3 Ġji1Ġ
gen3 Ġdi4Ġ
Ġdi4Ġ yu4Ġ
wei2Ġ chi2Ġ
xi1Ġ wang4
qian2Ġ lai2Ġ
shang1Ġ hai4Ġ
yi2Ġge4 Ġyue4Ġ
Ġjie2Ġ hun1Ġ
dang1Ġ xuan3Ġwei4Ġ
Ġlian2Ġ bang1
Ġjie1Ġ shou4Ġ
Ġji2Ġbei3Ġ mei3Ġ
Ġ zhui1Ġ
Ġ jie1Ġwei4Ġ
ri4 Ġjun1Ġ
mie4 Ġjue2Ġ
shan3 Ġ
ĠdeĠ zhi1Ġchi2Ġ
Ġshi4Ġ zhi4Ġ
Ġcheng2Ġ fen4Ġ
Ġzhi1 Ġli3Ġ
Ġyuan2Ġ yin1Ġshi4Ġ
Ġdan4 Ġye3Ġ
Ġfu4Ġ zhu3Ġxi2Ġ
tiao2Ġ jie2Ġ
wei2Ġyi1Ġ yi1Ġ
ai4 Ġhao4Ġ
ĠĠĠ wai4Ġbu4Ġ
le Ġzhong1Ġguo2Ġ
zui4 Ġyou3Ġ
jian3 Ġyi4Ġ
sa4 Ġke4Ġsi1Ġ
jiao4Ġ zong1Ġ
Ġzheng4Ġ ce4
zhong4Ġ liang4Ġ
yan3Ġ hua4Ġ
tong2Ġ meng2
jie3Ġ san4
lei2Ġ da2Ġ
Ġshi4Ġjie4Ġ bei1
ĠĠĠ huo4Ġ
fei1 Ġer3Ġde2Ġ
37 Ġnian2Ġ
pen2 Ġdi4Ġ
Ġwei4Ġ ji2Ġ
Ġxi1Ġ zang4Ġ
Ġke4 Ġzai4Ġ
xia4Ġ ling4Ġ
fa3Ġ xue2Ġ
sha1Ġ bai2Ġ
jiu3Ġ long2
chi3Ġ cun4
Ġnian2Ġdai4 ĠdeĠ
Ġ 800
Ġ chao1Ġguo4Ġ
ĠĠĠ jie2Ġ
jian4 Ġshe4
mo4 Ġnian2Ġ
id Ġ
ment Ġ
ĠdeĠ qing2Ġkuang4Ġxia4Ġ
Ġyu2Ġ 2018
Ġcheng2Ġ jiu4Ġ
Ġyi1Ġ shi1Ġ
Ġge4Ġ lei4Ġ
ting2Ġ zhi3
Ġren2Ġmin2Ġ zheng4Ġfu3
ĠĠĠzhong1Ġ hua2Ġren2Ġmin2Ġgong4Ġhe2Ġguo2Ġ
Ġhua2Ġ sheng4Ġ
can1Ġsai4Ġ zi1Ġge2Ġ
shan1Ġmai4 ĠdeĠyi1Ġbu4Ġfen4Ġ
Ġ lei3Ġji4Ġ
si4 Ġwei4Ġ
shui3 Ġdao4Ġ
sui2 Ġji1Ġ
ren2Ġ kou3Ġwei4Ġ
ji4Ġ hua4
Ġyuan2Ġ li3Ġ
Ġxian4Ġ xing4Ġ
qu1Ġ bie2Ġ
tong1Ġ yong4Ġ
shou4Ġ sun3Ġ
tou2Ġ xiang2
Ġzhu3Ġ zhang1Ġ
zheng4Ġzhi4Ġ jia1Ġ
re4Ġdai4Ġ qi4Ġxuan2Ġ
Ġge4Ġyue4Ġ hou4Ġ
Ġ Sa
Ġ 1991Ġnian2Ġ
hui4 Ġwei4Ġ
hai3 Ġshi4Ġ
xin4 Ġren4Ġ
Ġzai4Ġ shang4Ġ
Ġguo2Ġ an1Ġ
Ġzhou1Ġ kan1Ġ
ĠdeĠgong1Ġ neng2Ġ
Ġ18 Ġ
Ġ yan2Ġjiu1
ĠĠĠ de
jue2 Ġwei4Ġ
1960 Ġnian2Ġdai4Ġ
Ġdi4Ġ chan3Ġ
Ġyu2Ġ 2024
Ġyi1Ġ ran2
hai3Ġ ba2Ġgao1Ġdu4Ġ
jian3Ġ ce4Ġ
tang2Ġ qu1Ġ
yin1Ġ ci3Ġ
Ġtong2Ġ xing4Ġ
hui2Ġ da2Ġ
ĠdeĠji4Ġ shu4Ġ
wen3Ġ ding4ĠdeĠ
Ġ bang1Ġzhu4Ġ
jie2 Ġchu1Ġ
bing1 ĠdeĠ
Ġhe2Ġ yi4Ġ
Ġta1 Ġyou3Ġ
guan1Ġ lian2Ġ
qian2Ġ feng1Ġ
suo3Ġ wei4ĠdeĠ
bao3Ġ xian3Ġ
Ġhuo4Ġ cheng1Ġ
du1Ġ cha2Ġ
Ġjian3Ġ cheng1
Ġdian4Ġ ziĠ
Ġdong4Ġ hua4Ġ
Ġ wa3
Ġ La
ĠĠĠ b
ĠĠĠ 14
ĠĠĠ 2006Ġnian2Ġ
xi1 Ġyu2Ġ
ceng2 Ġren4Ġ
gai3 Ġjin4Ġ
24 Ġnian2Ġ
luan3 Ġ
Ġdi4Ġ 3Ġ
Ġdui4Ġ fang1Ġ
Ġquan2 Ġshi4Ġ
ci2Ġ dian3Ġ
tiao2Ġ kuan3Ġ
dian4Ġshi4Ġ jie2Ġmu4Ġ
Ġxi4Ġ lie4
fa1Ġbiao3 ĠdeĠ
ya4Ġmei3Ġ ni2Ġya4Ġ
hu4Ġlian2Ġ wang3Ġ
Ġ sang1
ĠĠĠ 13
nan2 Ġshi4Ġ
xiang4 Ġwei4Ġ
ceng2 Ġyou3Ġ
zeng1 Ġshe4Ġ
tui1 Ġli3Ġ
Ġli4Ġ ao4Ġ
Ġzheng4Ġ chang2Ġ
dao3Ġ shi1Ġ
pu3Ġ lu3Ġshi4Ġ
tui1Ġchu1Ġ leĠ
xiu1Ġdao4Ġ yuan4Ġ
Ġ kang1
Ġ sheng3Ġ
yu3 Ġyi4Ġ
lu4 Ġshi4Ġ
bei3 Ġji2Ġ
qu3 Ġzi4Ġ
yin3 Ġjin4Ġ
Ġyu3Ġ qi2
ĠdeĠshi4Ġ jie4
Ġci3Ġ ci4Ġ
Ġtian1Ġ wen2Ġ
Ġti3Ġ yu4Ġ
Ġ tai2
Ġ tan2Ġ
Ġ qiao2Ġzhi4Ġ
ĠĠĠ min2Ġguo2Ġ
hun1 Ġli3Ġ
Ġyu2Ġ 2020
Ġcheng2Ġ zuo4Ġ
su1Ġ ge2Ġlan2
Ġ 65
ĠĠĠ zhang1Ġ
dui4 Ġzhong1Ġ
70 Ġ
Ġdi4Ġ jiu3Ġ
Ġta1 Ġbu4Ġ
Ġxing2Ġ chai2
Ġxing2Ġ shi4ĠdeĠ
zheng4Ġ ce4
dai4Ġ ma3Ġ
ĠleĠ yi2Ġge4Ġ
Ġxiang1Ġ guan1
Ġxing2Ġzheng4Ġ yuan4Ġ
Ġyou4 Ġyi4Ġ
Ġ ju1Ġ
liu2 Ġqiu2Ġ
bao3 Ġhe2Ġ
chuan2 ĠdeĠ
ting2 Ġzhan4Ġ
na2 Ġda4
1901 Ġnian2Ġ
Ġcheng2Ġ du1Ġ
ji1Ġ bai4Ġ
Ġyu3Ġ zhi1Ġ
Ġdai4Ġ ma3Ġwei4Ġ
liang2Ġ hao3Ġ
li4Ġshi3Ġ shang4Ġ
Ġxian4Ġshi2Ġyou2Ġ nan2Ġji2Ġtiao2Ġyue1Ġti3Ġxi4Ġguan3Ġli3Ġ
ĠĠĠ yin1Ġyue4Ġ
ĠĠĠ che1Ġzhan4
luo4 Ġyu2Ġ
bai2 Ġren2Ġ
ding3 Ġji2Ġ
38 Ġnian2Ġ
zu1 Ġjie4
Ġyu2Ġ 2015
Ġzhi4Ġ du4
Ġchu1Ġ lai2ĠdeĠ
te4Ġ shu1
Ġduo1Ġ ci4Ġ
Ġ UĠ
ĠĠĠ wu3Ġ
jie2 Ġshi2Ġ
ye4 Ġhe2Ġ
Ġdi4Ġ shang4Ġ
Ġgong1Ġ chang3
lu4Ġ ying3Ġdai4Ġ
mian4Ġ 2
liu2Ġ dong4Ġ
Ġben3Ġ zhan4Ġ
Ġben3Ġ tu3Ġ
shen2Ġ sheng4Ġ
chong2Ġ qing4Ġ
u Ġ
Ġ lao3
ĠĠĠ sha1Ġ
pian4 Ġren2Ġ
67 Ġnian2Ġ
ĠdeĠ you3Ġ
Ġyu2Ġ lei2Ġ
da4Ġ xing2Ġ
ye4Ġ jian1Ġ
ti2Ġ gao1
liang3Ġ an4Ġ
yi3Ġ jing1
Ġzai4Ġdi4Ġ yi1Ġ
guan1Ġfei4Ġyan2Ġ que4Ġzhen3Ġbing4Ġli4Ġ
bei3 ĠdeĠ
jiao1 Ġyou2Ġ
man4 Ġdi4Ġguo2Ġ
zheng3 Ġli3Ġ
Ġyu2Ġ 2013
Ġyou3Ġ guan1ĠdeĠ
Ġgong1Ġ an1Ġ
fang2Ġ wu1
Ġzhi2 Ġli4Ġ
pei2Ġ yang3
ĠĠĠzhe4Ġ ke1Ġ
Ġ Ù
Ġ shu1
Ġ chi2Ġ
ĠĠĠ Al
ri4 Ġzhi4Ġ
tong2 Ġwei4Ġ
hui2 Ġdao4
man Ġ
Ġren2Ġ li4Ġ
ji4Ġ shu4
Ġyi1Ġ ran2Ġ
nei4Ġ ge2
Ġyou2 Ġqi2
Ġdeng3Ġ deng3Ġ
1 Ġmi3Ġ
Ġ zhuan1
Ġ yi4Ġnian2Ġ
min2 Ġyi4Ġ
zhui1 Ġqiu2Ġ
ĠdeĠ zui4Ġ
ĠdeĠ xing2Ġshi4Ġ
Ġshi4Ġ chang3
ren2Ġ yuan2Ġ
Ġyu2Ġ 2012
Ġguo2Ġ dao4Ġ
hua4Ġ mian4Ġ
dan1Ġ mai4Ġ
chuan2Ġ shuo1
Ġnan2Ġ xing4Ġ
jiu4Ġ zhi3Ġ
jing3Ġ qu1Ġ
jing3Ġ dian3Ġ
ĠdeĠji1Ġ chu3
Ġ Ð¾
ĠĠĠ Mar
sheng3 Ġhui4Ġ
tong1 Ġxing2Ġ
le4 Ġyuan2Ġ
Ġshi4Ġ xia4Ġxia2ĠdeĠyi2Ġge4Ġxiang1Ġzhen4Ġji2Ġxing2Ġzheng4Ġdan1Ġwei4Ġ
Ġyi3Ġ bian4
Ġxing2Ġ hao4Ġ
ru4Ġ jing4Ġ
she4Ġ ying3Ġ
gui4Ġ zu2
Y Ġ
ai4 Ġli4Ġ
ĠĠĠ fen1Ġlei4Ġ
ji2 Ġzhong1Ġxue2Ġ
ze2 Ġxi1Ġ
ba1 Ġli3Ġ
lin2 Ġzhong1Ġ
jiang4 Ġji2Ġ
gong1Ġ ji1Ġ
Ġji4Ġ hua4ĠdeĠ
Ġchu1 Ġnian2Ġ
fa1Ġ jue2Ġ
bo2Ġ la1Ġ
ĠH Ġ
Ġ 1999
ĠĠĠ 9
zong3 Ġsi1Ġling4Ġ
luo4 Ġshi2Ġ
you4 Ġzai4Ġ
xie1 Ġer3Ġ
ban3 Ġquan2Ġ
Ġzhong1Ġ zheng4Ġ
zhu3Ġ dao3Ġ
nan2Ġ bu4ĠdeĠ
Ġbei4Ġ bu3Ġ
guan1Ġ guang1Ġ
lian2Ġ sai4ĠdeĠ
Ġqi2Ġ xia4ĠdeĠ
yi2Ġ mian4Ġ
Ġdan4Ġ mei2Ġyou3Ġ
yan3Ġ zou4Ġ
lun4Ġ tan2Ġ
zhen1Ġ cha2Ġ
Ġsan1 Ġyue4Ġ
tong3Ġzhi4Ġ zhe3Ġ
fan2Ġ mang2
Ġhei1Ġ long2Ġjiang1Ġ
ĠĠĠ Z
ku4 Ġer3Ġ
Ġyi3Ġ ji2Ġzai4Ġ
zhu3Ġ liu2Ġ
dong1Ġ qu1Ġ
ti3Ġ yan4Ġ
Ġxia4Ġ wu3Ġ
tong2Ġ meng2Ġ
Ġsui2 Ġji2Ġ
Ġ you3
ĠĠĠ dao4
ping2 Ġren2Ġ
qian1 Ġming2Ġ
geng4 Ġgao1Ġ
qiu1 Ġji4Ġ
ye2 Ġer3Ġ
end Ġ
enter Ġ
ĠdeĠ ji2Ġ
Ġhe2Ġ zhi4Ġ
Ġqi2 Ġzhi4Ġ
hua4Ġ ru4Ġ
li2Ġ ba1Ġnen4
mi4Ġ su1Ġli3Ġ
kang4Ġri4Ġ zhan4Ġzheng1Ġ
Ġhe2Ġdao4 Ġquan2Ġzhang3Ġ
Ġ yang3Ġ
ĠĠĠ zheng1Ġyi4Ġ
yu3 Ġdi4Ġ
zuo4 Ġzai4Ġ
te4 Ġren2Ġ
00 Ġ
Ġshi4Ġ xin1Ġ
Ġbu4Ġ duan4
Ġyu2Ġ 2014
Ġyi1Ġ ci4
Ġyi1Ġ er3Ġ
Ġdao4 Ġji2Ġ
jian1Ġ cha2Ġ
feng1Ġ suo3Ġ
Ġye3Ġ mei2Ġyou3Ġ
dong1Ġbu4Ġ shi2Ġqu1Ġ
Ġ qu3Ġde2Ġ
si4 Ġren2Ġ
tuo1 Ġer3Ġ
23 Ġnian2Ġ
at Ġ
dou3 Ġ
ĠdeĠ hou4Ġ
gong1Ġ ye4Ġ
Ġgong1Ġ jiao1Ġ
Ġcheng2Ġ zhang3Ġ
Ġjun1 Ġren2Ġ
luo4Ġ te4Ġ
zhuan1Ġ yong4Ġ
Ġma3Ġ la1Ġ
xiang1Ġgang3 ĠdeĠ
Ġtai4Ġ yang2Ġgong1Ġ
Ġ b
Ġ nuo4
Ġ ming2Ġwei4Ġ
ĠĠĠ wu2Ġ
ke4 Ġli3Ġsi1Ġ
yun4 Ġzai4Ġ
rong2 ĠdeĠ
guang3 Ġyi4Ġ
xuan1 Ġshi4Ġ
di4Ġ guo2Ġ
Ġxi1Ġ yin3
bei3Ġ hai3Ġdao4Ġ
Ġ16 Ġ
la1Ġsi1Ġ jia1Ġ
Ġ 59
Ġ Me
Ġ zao3Ġ
Ġ ya3Ġ
Ġ hou4Ġyu2Ġ
xiang4 Ġji1Ġ
duo1 Ġsi1Ġ
wan1 Ġqu1Ġ
liu4 Ġshi4Ġ
niu2 Ġsi1Ġ
Ġda4Ġ lian2Ġmeng2Ġ
jiao4Ġ di1Ġ
dian4Ġ tai2
bao1Ġkuo4 Ġyi3Ġxia4Ġ
Ġnei4Ġ rong2Ġ
mei4Ġ mei4Ġ
gong1Ġyuan2Ġ qian2Ġ
zhui1Ġsu4 Ġdao4Ġ
Ġ feng4
Ġ 49
sheng1 Ġhe2Ġ
zhuang1 ĠdeĠ
or ĠĠĠ
chun1 Ġji4Ġ
Ġyi1Ġ qie4
yun4Ġ ying2
lv4Ġ hua4Ġ
xi2Ġ ji1
Ġdang1Ġ di4ĠdeĠ
guo2Ġwu4Ġ yuan4Ġ
ai1Ġna4Ġ sheng3Ġ
Ġ ESTĠ
yu3 Ġzhong1Ġguo2Ġ
te4 Ġgong1Ġ
liang4 Ġji2Ġ
dang3 Ġzai4Ġ
el Ġ
san3 Ġ
Ġyou3Ġ xu3Ġduo1Ġ
ben3Ġ ke1Ġ
dong1Ġ ce4Ġ
guan3Ġ xia2
shang1Ġ wu4Ġ
dou1Ġ mei2Ġyou3Ġ
zhun3Ġ que4Ġ
Ġ ISTAT
qi1 Ġyue4Ġ
ze2 Ġyi3Ġ
fei1 ĠdeĠ
na4Ġ xie1
guan3Ġ kong4
ke3Ġyi3Ġ tong1Ġguo4Ġ
zhong1Ġguo2Ġ da4Ġlu4ĠdeĠ
ĠL Ġ
1 Ġjia1Ġ
Ġ tian2
a1 Ġbu4Ġ
yuan3 ĠdeĠ
1921 Ġnian2Ġ
Ġxi1Ġ er3
ju4Ġ feng1
nan2Ġ mei3Ġzhou1Ġ
ting2Ġ kao4Ġ
Ġmo4 Ġxi1Ġ
zhong4Ġyi4Ġ yuan4Ġ
Ġshi4Ġyi1Ġke1 Ġwei2Ġrao4
Ġ 1998
Ġ EDT
she4 Ġji2Ġ
sheng3 Ġli4Ġ
hua2 ĠdeĠ
fan3 Ġji1Ġ
Ġzhong1Ġ yuan2Ġ
guan1Ġ zhong4
guan1Ġ zheng4Ġ
Ġping2Ġ jie4Ġ
feng1Ġ fu4ĠdeĠ
Ġshi4Ġyi1Ġ zuo4
shou1Ġshi4Ġ lv4Ġ
jie4Ġquan2Ġguo2Ġzheng4Ġxie2Ġ wei3Ġyuan2Ġ
ping1Ġ pang1
Ġ li
Ġ lian4Ġ
ĠĠĠ guo2Ġ
li3 Ġshi2Ġ
ren4 Ġzhi1Ġ
chuan2 Ġyuan2Ġ
zhan3 Ġchu1Ġ
ying2 Ġli4Ġ
biao1 Ġshi4Ġ
you1 Ġhui4Ġ
Ġyu2Ġ 2022
Ġli4Ġ xue2Ġ
ju4Ġ ben3Ġ
yu4Ġ wei2Ġ
lian2Ġ zai3Ġ
Ġbing4Ġ huo4Ġde2Ġ
jie1Ġ guan3Ġ
Ġju4Ġ ben3Ġ
shu1Ġ niu3Ġ
tou2Ġ ru4
heng2Ġ xing1
dan4Ġ shui3
Ġda4 Ġzhi4Ġ
jue2Ġdui4Ġ xing1Ġdeng3Ġwei4Ġ
Ġ Li
ĠĠĠ deĠĠĠ
li3 Ġren2Ġ
de2 Ġyi4Ġzhi4Ġ
zui4 Ġchu1ĠdeĠ
xin4 Ġhao4
gou1 Ġtong1Ġ
Ġshi4Ġ xia4Ġ
Ġhe2Ġ yu3Ġ
ping2Ġ heng2Ġ
Ġbei4Ġ jing3
duo1Ġ xiang4Ġ
da3Ġ suan4
Ġ5Ġ diao4Ġkuai4Ġyi1Ġxiao3Ġshi2Ġ
Ġji2Ġbei3Ġmei3Ġ dong1Ġbu4Ġshi2Ġqu1Ġ
Ġtai4Ġyang2Ġgong1Ġ zhuan4ĠdeĠxiao3Ġxing2Ġxing1Ġ
Ġshi4Ġyi1Ġke1Ġwei2Ġrao4 Ġtai4Ġyang2Ġgong1Ġzhuan4ĠdeĠxiao3Ġxing2Ġxing1Ġ
ĠEDT Ġ
ĠĠĠ yu4Ġ
ĠĠĠ ri4Ġ
ĠĠĠ wen2Ġhua4Ġ
ao4 Ġke4Ġ
han2 Ġyi4Ġ
29 Ġ
ve ĠĠĠ
69 Ġnian2Ġ
ke2 Ġ
bi3Ġsai4 ĠdeĠ
xiao3Ġxing2Ġxing1ĠdeĠ jue2Ġdui4Ġxing1Ġdeng3Ġwei4Ġ
ĠĠĠ 2005Ġnian2Ġ
jian4 ĠdeĠ
ling3 Ġdui4Ġ
pai1 Ġshe4ĠdeĠ
Ġzai4Ġ li4Ġ
Ġzhong1Ġ li4Ġ
Ġgong1Ġ she4Ġ
Ġyi1Ġ qie4Ġ
Ġzhi1 Ġchu1Ġ
sheng1Ġ cheng1Ġ
Ġzuo4Ġ qu3Ġ
ru4Ġ kou3
wu1Ġ ran3Ġ
Ġshi4Ġwu4Ġ suo3Ġ
fa1Ġbiao3 ĠleĠ
Ġ Vi
Ġ xi3Ġ
Ġ 1986Ġnian2Ġ
fu2 Ġji2Ġ
27 Ġnian2Ġ
1905 Ġnian2Ġ
Ġshi4Ġ zui4Ġ
Ġxing2Ġ xing1Ġ
Ġdan4 Ġbei4Ġ
zu2Ġ lian2Ġ
wu2Ġxian4Ġ dian4Ġ
ĠĠĠzhe4Ġke1Ġ xiao3Ġxing2Ġxing1ĠdeĠjue2Ġdui4Ġxing1Ġdeng3Ġwei4Ġ
Ġ zuo3
ĠĠĠ huang2Ġ
zhi3 Ġchu1
miao4 Ġyu3Ġ
90 Ġ
ad Ġ
yuan1 Ġ
Ġtong2 Ġnian2Ġ12Ġyue4Ġ
ĠdeĠyi1Ġ xiang4Ġ
bi3Ġli4Ġ niu2Ġsi1Ġ
ĠG Ġ
ne4Ġ sheng3Ġ
Ġda4Ġsha4 Ġ
Ġ gei3
Ġ chao1Ġji2Ġ
ĠĠĠ ge4Ġ
ao1 Ġ
xi1 Ġxian4Ġ
fu4 Ġyu2Ġ
guo4 Ġhou4Ġ
Ġzai4Ġ you3Ġ
Ġxi1Ġ ce4Ġ
ke3Ġ yong4Ġ
Ġxia4Ġ ling4Ġ
yan2Ġjiu1 ĠdeĠ
ĠdeĠyi1Ġ tiao2Ġ
zhuang4Ġ tai4
tian1Ġwen2Ġ xue2Ġjia1Ġ
zu3Ġcheng2 Ġbu4Ġfen4Ġ
ĠĠĠ guan1Ġyu2Ġ
ĠĠĠ zao3Ġqi1Ġ
lai2 Ġer3Ġ
jiu3 Ġshi2Ġ
lu4Ġ duan4Ġ
dian4Ġ liu2Ġ
Ġfu4Ġ mu3Ġ
zong3Ġ ling3Ġshi4Ġ
liang3Ġ ce4Ġ
Ġyin1Ġwei4Ġ ta1Ġ
hen3Ġ shao3Ġ
zhong3 ĠdeĠ
liang3 Ġda4Ġ
45 Ġ
ct Ġ
Ġwei4Ġ guo2Ġ
Ġzai4Ġ dang1Ġshi2Ġ
Ġyi1Ġ xiang4Ġ
Ġyuan2Ġ lai2Ġ
xue2Ġ ke1Ġ
qu1Ġ fu4Ġze2Ġguan3Ġxia2Ġ
shou3Ġ xian1Ġ
ben3Ġ tu3
ci3Ġ tian1Ġti3Ġ
sheng4Ġ jing1Ġ
ke3Ġneng2 ĠdeĠ
Ġdi4Ġshi2Ġ san1Ġ
sheng1Ġchan3 ĠdeĠ
2 Ġhao4Ġ
Ġ dao3Ġyan3Ġ
ĠĠĠ Le
qian2 Ġxi1Ġ
yao4 Ġzai4Ġ
ni2 Ġxi1Ġya4
men ĠdeĠ
sheng4 Ġyu2Ġ
cha2 Ġde2Ġ
lei1 Ġsi1Ġ
he2Ġ liu2Ġ
Ġshi2Ġ liu4Ġnian2Ġ
shang4Ġ ying4ĠdeĠ
Ġjia1Ġ qiang2Ġ
qi1Ġ jian1ĠdeĠ
qu3Ġ jue2Ġyu2Ġ
zhuan1Ġ ji2ĠdeĠ
hun4Ġ luan4Ġ
Ġmi3 ĠdeĠ
Ġ m
man3 Ġyi4Ġ
geng1 Ġming2Ġ
ju4Ġ yuan4Ġ
shen1Ġ ru4Ġ
Ġzi4Ġ ci3Ġ
tu2Ġ jing4Ġ
xi2Ġ guan4Ġ
Ġao4Ġ men2Ġ
min2Ġzu2Ġ zhu3Ġyi4Ġ
Ġ sang1Ġ
Ġ shan1Ġxi1Ġ
Ġ 1983Ġnian2Ġ
ci3 Ġdi4Ġ
ke1 Ġyi1Ġsheng1Ġ
wei1 Ġli4Ġ
jiang3 Ġxue2Ġ
hao3 Ġlai2Ġ
34 Ġnian2Ġ
sang4 Ġshi1Ġ
Ġshi2Ġ bei4Ġ
Ġyi3Ġ wai4ĠdeĠ
Ġli3Ġ xue2Ġ
te4Ġ ding4
zhen4Ġ wang2Ġ
Ġshe4Ġ shi1
qian1Ġ yin3Ġ
she4Ġ jiao1Ġ
Ġ lei4
Ġ 2024Ġnian2Ġ
ĠĠĠ yin1Ġwei4Ġ
yong4 Ġdi4Ġ
ben3 Ġdi4Ġqu1Ġ
quan2 Ġshi4Ġ
zi Ġli3Ġ
fu3 Ġzhi1Ġfu3Ġ
wan3 Ġqi1Ġ
1917 Ġnian2Ġ
Ġwei4Ġ xin1Ġ
Ġzai4Ġ ren2Ġ
Ġda4Ġ duo1
Ġchu1 Ġbu4Ġ
lai2Ġ kan4Ġ
ti2Ġ cai2Ġ
you4Ġ cheng1Ġ
tiao2Ġ mu4Ġ
Ġhai3Ġ ba2
duan3Ġ zan4Ġ
ĠdeĠzuo4Ġ yong4Ġ
Ġ tong3Ġ
Ġ kan1Ġ
fa3 Ġer3Ġ
Ġhe2Ġ jin1Ġ
Ġde2 Ġhe2Ġ
shu4Ġ ju4
mo2Ġ ni3
pei2Ġ chang2Ġ
Ġji2Ġtuan2 Ġjun1Ġ
Ġ fa1Ġbu4Ġ
Ġ dang4Ġ
Ġ huai2Ġ
nv3 Ġer2
fou3 Ġ
Ġnian2 Ġshi4Ġ
Ġzai4Ġ ta1
Ġyuan2Ġ qu1Ġ
Ġqi2Ġ zhong1ĠdeĠ
zong3Ġ e2Ġwei4Ġ
Ġnan2Ġ jing1
bian4Ġ huan4Ġ
liang3Ġ tiao2Ġ
qiang2Ġ hua4Ġ
Ġ gui4Ġzhou1Ġ
ĠĠĠ dang1
fen1 Ġqi2Ġ
ti2 Ġwei4Ġ
ba1 Ġming2Ġ
zong1 ĠdeĠ
pa4 Ġer3Ġ
Ġwei4Ġ si1Ġ
Ġzhong1Ġ wen2
Ġyu2Ġ 2017
Ġji2Ġ er3
Ġqi2 Ġyu3Ġ
Ġshe4 Ġzai4Ġ
jie2Ġ lun4Ġ
feng1Ġ xian3
yi2Ġ dong4
xiao1Ġ shou4
zhuan3Ġ yi2Ġdao4Ġ
Ġfu2Ġ lang3Ġ
Ġsuo1Ġ xie3Ġ
1 Ġri4
Ġ lu3
mei3 Ġzhong1Ġbu4Ġ
ben3 Ġzhi4Ġ
shui3 Ġzhong1Ġ
cha1 Ġju4Ġ
bu4Ġ fen4
Ġyi1Ġ yang4
Ġjian4 Ġzhong1Ġ
Ġzhi1Ġ qian2ĠdeĠ
zhu3Ġ jue2
Ġbei4Ġ ren4Ġwei2Ġ
Ġju4Ġ ti3Ġ
Ġsuo3Ġ you3ĠdeĠ
li3Ġshi4Ġ zhang3Ġ
gong4Ġhe2Ġ dang3
jiao1Ġyi4Ġ suo3Ġ
jie4Ġquan2Ġguo2Ġ ren2Ġmin2Ġdai4Ġbiao3Ġda4Ġhui4Ġ
fei1Ġxing2 Ġyuan2Ġ
Ġ sai4
Ġ Ar
Ġ guo1Ġ
ĠĠĠ jian4Ġ
te4 Ġsi1Ġ
Ġwei4Ġ mei3Ġguo2Ġ
Ġyou3Ġ xiao4
Ġge4 Ġge4Ġ
Ġbing4Ġ wu2Ġ
Ġshe4Ġ xian2Ġ
tui1Ġ guang3
ĠdeĠgong1Ġ si1Ġ
Ġhou4Ġlai2 Ġzai4Ġ
chang4Ġpian4 Ġgong1Ġsi1Ġ
Ġ xue1
Ġ An
Ġ ying4Ġ
che1 Ġshi4Ġ
ti3 Ġxian4Ġ
dang3 Ġbu4Ġ
sui2 Ġzhi1Ġ
zui3 Ġ
Ġyi4Ġ mei3Ġguo2Ġren2Ġ
Ġjun1 Ġyi3Ġ
chu3Ġ jue2Ġ
Ġa1Ġer3Ġ bei1Ġsi1Ġ
guang3Ġbo1 Ġgong1Ġsi1Ġ
ĠĠĠ Ð
si1 Ġdi4Ġli4Ġ
dui4 Ġli4Ġ
qing1 Ġdai4Ġ
00 Ġping2Ġfang1Ġqian1Ġmi3Ġ
mu3 Ġsi1Ġte4Ġ
cai2 ĠdeĠ
46 Ġnian2Ġ
Ġshi2Ġ shi1
Ġxi1Ġ fa3Ġ
yu4Ġ ce4Ġ
Ġdang1 Ġri4Ġ
Ġta1Ġmen Ġshi4Ġ
jie3Ġ jue2
ĠdeĠyi1Ġ jia1Ġ
Ġci3Ġ wai4
di3Ġ ceng2Ġshui3Ġyu4Ġ
lang3Ġ pu3
mu4Ġsi1Ġ lin2
Ġ cu4
dui4 Ġdi4Ġ
dai4 Ġdao4Ġ
nan2 Ġxi1Ġ
shao3 ĠdeĠ
qing4 Ġxia4Ġ
ba4 Ġgong1Ġ
48 Ġnian2Ġ
Ġyu2Ġ 2023
qing1Ġ zhen1Ġ
Ġ14 Ġ
Ġ bei1Ġ
xing2 Ġren2Ġ
jun1 Ġzhu3Ġ
xia4 Ġshi4Ġ
Ġshi4Ġ yi3
Ġcheng2Ġ nuo4Ġ
Ġsi1Ġ da4Ġ
ren4Ġ zheng4Ġ
Ġzhou1 ĠdeĠyi2Ġge4Ġshi4Ġzhen4Ġ
qian2Ġ ting3Ġ
dou1Ġ ke3Ġyi3Ġ
dan4Ġ shui3Ġ
Ġchang2Ġ qi1Ġ
yin4Ġdi4Ġ an1Ġna4
Ġ xĠ
an1 ĠdeĠ
cheng2 Ġwei4Ġ
yuan2 Ġren2Ġmin2Ġbi4Ġ
jian4 Ġdui4Ġ
qu1 Ġzhong1Ġ
fu1 Ġsi1Ġ
sui4 ĠdeĠ
Ġzai4Ġ dui4Ġ
Ġbu4Ġ zhi1Ġ
Ġyi4Ġ bei4Ġ
Ġer3 Ġbei4Ġ
zhan4Ġ shu4Ġ
Ġbing4 Ġcheng2Ġwei2Ġ
zi4Ġ shen1Ġ
shi1Ġ ti3Ġ
bo2Ġ ge2Ġ
zhong4Ġyao4Ġ xing4Ġ
ĠN Ġ
Ġ rui4Ġshi4Ġ
Ġ 1958Ġnian2Ġ
yu3 Ġwei4Ġ
zhang3 Ġji2Ġ
es ĠĠĠ
ed ĠĠĠ
61 Ġnian2Ġ
kui1 Ġ
Ġshi4Ġ yin4Ġdu4Ġ
Ġhe2Ġ chang4Ġ
Ġguo2Ġ nei4
qing1Ġ dao3Ġ
chuan2Ġ mei2
zao4Ġ chuan2Ġ
zhuan3Ġ bian4Ġ
xun2Ġ fu3Ġ
liang2Ġ hao3ĠdeĠ
Ġta1Ġceng2 Ġdai4Ġbiao3
Ġshang4Ġhai3 Ġshi4Ġ
jiang4Ġyu3Ġ liang4Ġ
Ġ ming4Ġ
Ġ xiong1Ġya2Ġli4Ġ
Ġ 1987Ġnian2Ġ
xin1 Ġyi1Ġ
yun4 Ġxing2
Ġshi2Ġ san1Ġnian2Ġ
fu4Ġ xing1Ġ
Ġke4 Ġjia1Ġ
yan2Ġ an4Ġ
shou3Ġ ling3Ġ
ye3Ġ ke3Ġyi3Ġ
Ġgao1Ġ su4
Ġtun2 Ġqi2Ġ
Ġ xue2
Ġ Se
yi2 ĠdeĠ
30 Ġfen1Ġ
sou1 Ġsuo3Ġ
ji1Ġ du1Ġjiao4Ġ
you2Ġ ke4Ġ
yu4Ġ suan4Ġ
zui4Ġ hou4ĠdeĠ
jiao1Ġ gei3
sheng4Ġ mu3Ġ
kao3Ġ gu3
Ġmu3Ġ qin1Ġ
ji4Ġsuan4 Ġji1Ġ
ce4 Ġwei4Ġ
jiang3 Ġli4Ġ
xie4 Ġer3Ġ
zhui1 Ġji1Ġ
rou4 Ġshi2Ġxing4Ġ
Ġyuan2Ġ zi4
fen1Ġ bu4Ġzai4Ġ
Ġzheng4Ġ ju4Ġ
Ġzuo4Ġ ye4Ġ
ĠdeĠyi1Ġ ci4Ġ
ĠdeĠshi4Ġ qing2Ġ
duan3Ġ pian4Ġ
ĠdeĠji1Ġ chu3Ġ
Ġyi3Ġji2 Ġzhong1Ġguo2Ġda4Ġlu4ĠdeĠ
mei3Ġzhong1Ġbu4Ġ shi2Ġqu1Ġ
Ġ 1994
Ġ Mo
Ġ CST
ze2 Ġer3Ġsheng3Ġ
ba1 Ġyue4Ġ
ha1 Ġli4Ġ
man2 Ġ
Ġdao4 Ġta1Ġ
shu4Ġ bai3
Ġer2Ġ wen2Ġming2Ġ
shou3Ġ ren4Ġ
tai2Ġ zhong1Ġshi4Ġ
jin1Ġ xiang4Ġ
tong1Ġ xin4
yue1Ġ se4Ġfu1Ġ
mo2Ġ tuo1Ġ
bing1Ġ tuan2Ġ
Ġceng2Ġ jing1
Ġ13 Ġ
Ġ bai4
Ġ Jo
Ġ CDT
Ġ lian2Ġhe2Ġguo2Ġ
jian4 Ġyu2Ġ
lu4 Ġhe2Ġ
qiang2 Ġda4Ġ
2019 Ġguan1Ġzhuang4Ġbing4Ġdu2
32 Ġnian2Ġ
1904 Ġnian2Ġ
Ġshi2Ġ wu3Ġnian2Ġ
Ġjin4 Ġxing2ĠdeĠ
xuan3Ġ shou3
Ġshi4Ġyi1Ġ jia1Ġ
Ġcong2Ġ ci3Ġ
ou1Ġ meng2
Ġ6Ġ diao4Ġkuai4Ġyi1Ġxiao3Ġshi2Ġ
Ġji2Ġbei3Ġ mei3Ġzhong1Ġbu4Ġshi2Ġqu1Ġ
ĠCST Ġ
ĠCDT Ġ
1 Ġhao4
Ġ min3
ĠĠĠ ke1Ġ
dui4 Ġshi4Ġ
mi3 Ġer3
39 Ġnian2Ġ
zuan4 Ġshi2Ġ
Ġshi4Ġ yi2Ġ
Ġdi4Ġ ming2Ġ
ji1Ġ chang3
jing1Ġ du1Ġ
fen1Ġ xiao4Ġ
nv3Ġ wang2Ġ
liang3Ġ zhong3
tuo1Ġ ma3Ġsi1Ġ
Ġshi3Ġ mi4Ġsi1Ġ
yin4Ġ du4ĠdeĠ
Ġ ling2
Ġ lei1Ġ
Ġ gei3Ġ
Ġ 1920Ġnian2Ġ
ji1 Ġshi2Ġ
mei2 Ġer3Ġ
fu1 Ġsi1Ġji1Ġ
zhuan1 Ġyuan2Ġ
45 Ġnian2Ġ
36 Ġnian2Ġ
Ġcheng2Ġ ke4
qu1Ġ zhu2Ġjian4Ġ
zhe4Ġ shou3Ġ
Ġqiu2Ġ bi3Ġsai4Ġ
zhuan1Ġ qu1Ġ
Ġa1 Ġli3Ġ
Ġshi4Ġfou3 Ġ
zhe2Ġxue2Ġ jia1Ġ
Ġqi1 Ġxi1Ġ
fei2Ġte4Ġ lie4Ġ
Ġ jian1
Ġ duan4
Ġ tan4Ġ
jiao4 Ġyou3Ġ
jiao1 Ġfu4Ġ
que4 Ġli4Ġ
li4Ġ shi3
dong1Ġ ya4Ġ
Ġshang4Ġ shu4Ġ
zong3Ġ ju2Ġ
wang3Ġ lai2Ġ
cai2Ġ neng2
wei3Ġ nei4Ġrui4Ġ
ran2Ġ liao4Ġ
Ġ hang2Ġ
ĠĠĠ 12Ġyue4Ġ
shi2 Ġshi4Ġji4Ġ
pei4 Ġyue4Ġ
26 Ġnian2Ġ
33 Ġnian2Ġ
Ġwei4Ġ cheng2Ġ
ge2Ġ lei2Ġ
xing4Ġ bie2
chang2Ġ an1Ġ
liu2Ġ chuan2Ġ
bo2Ġ gen3Ġdi4Ġ
Ġyin1Ġwei4Ġ ta1
Ġwen2Ġ zhang1Ġ
hu2Ġbei3Ġ sheng3Ġ
yan2Ġhai3Ġ sheng3Ġfen4Ġ
Ġsu2 Ġcheng1Ġ
Ġ 1996
Ġ zeng1Ġjia1Ġ
Ġ 1945Ġnian2Ġ
a1 Ġsi1Ġ
en1 Ġsi1Ġ
le Ġbu4Ġ
di2 Ġsi1Ġ
tui1 Ġjin4
diao1 Ġxiang4Ġ
zhai4 Ġwu4Ġ
qu1Ġ dong4Ġ
Ġqi2Ġ fu4Ġ
gao1Ġ xiao4Ġ
Ġhuo4Ġ wu4Ġ
bo2Ġ lin2
chan3Ġ liang4Ġ
zu3Ġ xian1Ġ
bai3Ġ xing4Ġ
Ġdi4Ġer4Ġ ci4
Ġao4 Ġsi1Ġ
Ġ bu2Ġshi4Ġ
ĠĠĠ mu4Ġ
ĠĠĠ ying1Ġguo2Ġ
ĠĠĠ gai1Ġdi4Ġ
bao4 Ġfu4Ġ
xun4 Ġhao4Ġ
jiao3 ĠdeĠ
43 Ġnian2Ġ
1910 Ġnian2Ġ
Ġren2Ġ sheng1Ġ
Ġgong1Ġ dian4Ġ
Ġyi1Ġ lu4Ġ
sheng1Ġ ren4Ġ
Ġtong2 Ġnian2Ġ10Ġyue4Ġ
ling2Ġ gan3Ġ
Ġyou4Ġ cheng1
chong1Ġ sheng2
a1Ġer3Ġ ba1Ġ
cao3Ġ an4Ġ
Ġshi4Ġjian4 ĠdeĠ
Ġ g
ĠĠĠ 2023Ġnian2Ġ
shu4 Ġge4Ġ
ping2 Ġxian4Ġ
mo4 ĠdeĠ
hen3 Ġnan2Ġ
31 Ġnian2Ġ
Ġwei4Ġ jing1Ġ
shi2Ġ qi1
yi4Ġ qi3Ġ
Ġyou3Ġ leĠ
Ġgong1Ġ li4Ġ
fa1Ġ sheng1Ġyu2Ġ
zhi2Ġ jing4Ġ
Ġzhou1Ġ bian1Ġ
san1Ġ jiao3Ġ
Ġshou3Ġ xian1Ġ
zeng1Ġ qiang2
Ġ jiang4Ġ
mei3 Ġli4Ġ
ying1 Ġer2Ġ
zhang1 Ġshi4Ġ
hu4 Ġshi4Ġ
huang2 Ġshi4Ġ
huan4 Ġyou3Ġ
sang4 Ġsheng1Ġ
Ġer3 Ġxi1Ġ
zhan4Ġ lve4
xiang1Ġ xin4Ġ
dong4Ġ tai4Ġ
Ġsheng1Ġ ming4Ġ
guang3Ġ dong1
zheng4Ġzhi4Ġ ju2Ġ
qu1ĠdeĠ fu4Ġze2Ġguan3Ġxia2Ġ
Ġjin3Ġ ci4Ġyu2Ġ
zheng3Ġ ti3
ya4Ġmei3Ġ ni2Ġya4
2 Ġming2Ġ
Ġ mo
Ġ ya1Ġ
ĠĠĠ te4Ġzheng1Ġ
a3 Ġ
xuan3 ĠdeĠ
kan4 Ġjian4Ġ
gui3 Ġdian4Ġ
di4Ġ fang1Ġ
Ġdi4Ġ er4Ġshi2Ġ
Ġyi3 Ġzhi1Ġ
wei2Ġ ji1Ġbai3Ġ
ben3Ġ zhan4Ġ
Ġzhan4Ġ tai2Ġ
guan3Ġ li3ĠdeĠ
huo4Ġ zhe3Ġ
Ġran2Ġ hou4Ġzai4Ġ
Ġduo1 Ġren2Ġ
an1Ġhui1Ġ sheng3Ġ
Ġ1950 Ġnian2Ġ
Ġ 1997
ĠĠĠ tang2Ġ
wei3 ĠdeĠ
du2 Ġzi4Ġ
han4 Ġguo2Ġ
cheng2Ġ wei2
Ġzhi4Ġ jin1
Ġji2Ġ ke3Ġ
hua4Ġ fen1Ġ
fu2Ġ wu4ĠdeĠ
si4Ġ chuan1
bi4Ġ lu3
zhu3Ġjiao4Ġ lian4Ġ
ĠI Ġ
Ġ d
Ġ xiang1
Ġ ding1
Ġ Su
Ġ gui3Ġ
Ġ XĠ
qu1 Ġxian4Ġ
xiao3 Ġyu2Ġ
dian3 Ġxing2Ġ
ban1 Ġdao4Ġ
pi1 Ġfu4Ġ
Ġshi4Ġ qi2Ġ
Ġshi2Ġ si4Ġnian2Ġ
Ġli4Ġ yu2Ġ
yan2Ġ xu4
Ġzhe4Ġ xiang4Ġ
xiao3Ġ jie3Ġ
sha1Ġ tian2Ġ
xie2Ġ hui4
pi2Ġ fu1Ġ
Ġbu4Ġfen4 ĠdeĠ
Ġ jing3
Ġ yin4Ġdu4
Ġ 1982Ġnian2Ġ
zhong1 Ġnian2Ġ
yi4 ĠdeĠshi4Ġ
jin1 Ġsi1Ġ
liang2 ĠdeĠ
Ġshi4Ġ yong4Ġyu2Ġ
Ġda4Ġ zheng4Ġ
te4Ġ ding4ĠdeĠ
xing4Ġ ge2Ġ
feng1Ġ bao4
mei3Ġguo2Ġ zong3Ġtong3Ġ
guang1Ġ pu3Ġ
ting1Ġ zhang3Ġ
kuang4Ġ wu4Ġ
ĠdeĠyi4Ġ siĠ
ying3Ġxiang3 ĠdeĠ
wu4Ġli3Ġ xue2Ġjia1Ġ
sheng3Ġdao4Ġ tai2Ġ
ji1 Ġli4Ġ
gu3 Ġsi1Ġ
pu3 Ġer3Ġ
guang1 ĠdeĠ
lei1 ĠdeĠ
di4Ġ er4
Ġji2Ġ zhong1Ġzai4Ġ
yong4Ġ leĠ
lai2Ġ yuan2Ġyu2Ġ
bao1Ġkuo4 ĠleĠ
huo2Ġ xing4Ġ
Ġgao1Ġ xiong2
jun1Ġ guan1Ġ
tie3Ġ lu4ĠdeĠ
en1Ġ lai2Ġ
a1Ġgen1Ġ ting2Ġ
Ġ hou4Ġzai4Ġ
ĠĠĠ 2004Ġnian2Ġ
zuo4 Ġyi3Ġ
qian2 Ġwei4Ġ
jin1 Ġri4
lang3 Ġpu3Ġ
po1 Ġer3Ġ
44 Ġnian2Ġ
1908 Ġnian2Ġ
Ġhe2Ġ kou3Ġ
Ġli4Ġ chang3Ġ
Ġyi1Ġ kai1Ġshi3Ġ
Ġyu3Ġ yuan2Ġ
Ġchu1Ġ kou3
Ġyou2Ġ tai4Ġren2Ġ
tian1Ġ huang2
xiao4Ġ guo3
xin4Ġ tu2Ġ
ge1Ġlun2Ġ bi3Ġya4
p ĠĠĠ
le Ġyuan2Ġ
sheng1 Ġbu4Ġ
ma3 Ġqi2Ġ
gao4 Ġzhi1Ġ
lv3 Ġyou2
53 Ġnian2Ġ
Ġda4Ġ zhan4Ġ
fa1Ġ dong4
Ġbi3Ġ sai4
wan3Ġ jian1Ġ
Ġnv3Ġ zi3Ġ
Ġguo2Ġjia1 Ġgong1Ġyuan2Ġ
fa1Ġxian4 Ġyu2Ġ
hu2Ġnan2Ġ sheng3Ġ
ĠdeĠfu4Ġ qin1Ġ
lv3Ġke4Ġ tie3Ġdao4Ġ
Ġ 1992
Ġ hui4Ġyi4Ġ
Ġ shi2Ġnian2Ġ
ĠĠĠ jiao4Ġyu4Ġ
ming2 Ġzai4Ġ
tong2 Ġxue2Ġ
bo1 Ġyin1Ġ
luo4 Ġhou4Ġ
qian1 Ġzheng4Ġ
Ġshi4Ġ fang4Ġ
Ġdi4Ġ xing2Ġ
Ġer2 Ġyuan2Ġ
Ġjian4Ġ dui4
bian4Ġ hua4
xiang3Ġ ying4Ġ
mian3Ġ fei4
pei2Ġ yang3Ġ
Ġ yu2
Ġ ying2Ġde2Ġ
Ġ xie2Ġzhu4Ġ
Ġ zhen1Ġdui4Ġ
she4 Ġyu2Ġ
zeng1 Ġzhi4Ġ
th ĠĠĠ
chui1 Ġ
ĠdeĠ wei4Ġ
Ġshi2Ġ xing2
Ġji2Ġ ju4Ġ
Ġji4Ġ hou4Ġ
Ġsi1Ġ fa3
Ġer2 Ġyi3Ġ
zhe4Ġ yang4Ġ
Ġjun1Ġ zhu3Ġ
zhang3Ġ wo4
zhong3Ġ zu2
ke1Ġ huan4Ġ
Ġzui4Ġ zhong1Ġzai4Ġ
diao1Ġ su4Ġ
Ġ shen1
Ġ xiong2
ĠĠĠ pu3Ġ
dang1 Ġri4Ġ
na4 Ġxi1Ġ
ha1 Ġde2Ġ
yu3Ġ yan2
xi1Ġ zang4Ġ
Ġbei4Ġ ke4Ġ
Ġdan4 Ġwei4Ġ
Ġjun1Ġ dui4
zui4Ġ di1Ġ
deng3Ġ dai4Ġ
chang2Ġ gui1Ġ
Ġxian4ĠdeĠ fei1Ġjian4Ġzhi4Ġdi4Ġqu1Ġ
huan4Ġ xiang3Ġ
ju3Ġxing2Ġ leĠ
Ġdong1 Ġxi1Ġ
Ġ fu1Ġ
Ġ tu1Ġ
Ġ 1978Ġnian2Ġ
hang2 Ġxing2Ġ
Ġda4Ġ da4Ġ
fu4Ġ nv3Ġ
fa1Ġ hui1Ġ
Ġzhan4Ġ ling3
tian1Ġ zhu3Ġjiao4
na4Ġ yang4Ġ
chen2Ġ mo4Ġ
huo3Ġ zai1Ġ
Ġshi4Ġwei4Ġyu2Ġ wu1Ġke4Ġlan2Ġ
Ġchao2Ġ xian1
Ġ zhuo2
Ġ geng1Ġ
ĠĠĠ jin4Ġ
qi3 Ġshi4Ġ
Ġshi2Ġ jian4Ġ
ji4Ġ zhe3Ġ
Ġguo2Ġ zhong1Ġ
ren4Ġ ke3Ġ
jiao4Ġ tu2Ġ
zhu4Ġ ming2
shi1Ġ zhang3Ġ
zhi3Ġ neng2
bao3Ġ an1Ġ
gu3Ġ dong1Ġ
er4Ġ bai3Ġ
Ġgai1Ġ zhuang1Ġ
jia1Ġru4 Ġzhong1Ġguo2Ġgong4Ġchan3Ġdang3Ġ
Ġ song1
Ġ pan4Ġ
Ġ yi1Ġnian2Ġ
guo2 Ġwei4Ġ
qu3 ĠleĠ
shou1 Ġfu4Ġ
geng4 Ġda4Ġ
Ġshi4Ġ cong2Ġ
Ġyou3Ġ liang3Ġge4Ġ
guan1Ġ dian3
Ġzhan4Ġ ju4Ġ
fen1Ġ lan2
Ġben3Ġ pian4
yi2Ġge4 Ġren2Ġ
cun2Ġ chu3Ġ
ban1Ġjiang3Ġ dian3Ġli3Ġ
9 Ġmi3Ġ
kai1 Ġyuan2Ġ
han4 ĠdeĠ
pai4 Ġren2Ġ
1915 Ġnian2Ġ
xiang4Ġ bei3Ġ
te4Ġ se4
Ġwei2Ġ qi1Ġ
bei3Ġ mei3Ġ
Ġshang4Ġ zhen4Ġ
xi4Ġtong3 Ġzhong1Ġ
a1Ġji1Ġ tan3
ĠĠĠ mei3Ġ
liu4 Ġyue4Ġ
Ġzai4Ġ jin1Ġ
xue2Ġ zhe3
ren4Ġ qi1Ġ
dai4Ġ ling3
Ġqi2Ġ ziĠ
tai2Ġ nan2Ġ
fu1Ġ lei1Ġ
du2Ġ zhe3Ġ
zhang4Ġ fu1
Ġ 1993
hen3 Ġyou3Ġ
47 Ġnian2Ġ
42 Ġnian2Ġ
OS Ġ
sheng1Ġ ming4
qi1Ġ tu2Ġxing2Ġ
yan3Ġ jing1Ġ
Ġguo4Ġ qu4Ġ
guo2ĠdeĠ te4Ġyou3Ġ
fa1Ġxing2Ġ leĠ
Ġwu3 Ġyue4Ġ
Ġjiang3Ġ shu4Ġ
jie1Ġshou4 ĠleĠ
Ġzhan4Ġdou4 Ġji1Ġ
Ġ hai3Ġjun1Ġ
Ġ gu1Ġ
jia1 Ġji2Ġ
de2 Ġyi3Ġ
hua4 Ġgong1Ġ
pu3 Ġli3Ġ
wei1 ĠdeĠ
fang4 Ġzhi4Ġ
fang4 Ġshe4Ġ
gan1 Ġyu4Ġ
Ġshi4Ġ yong4Ġ
Ġjia1Ġ su4Ġ
Ġer3Ġ fu1
luo4Ġ bai4Ġ
xie2Ġ zhu4
qu1Ġyi4Ġhui4Ġ xuan3Ġju3Ġ
Ġ sai1
yang2 Ġzhou1Ġ
can1 Ġzheng4Ġ
xu1 Ġqiu2
zhu1 Ġshi4Ġhui4Ġ
cao3 Ġyuan2Ġ
66 Ġnian2Ġ
Ġbu4Ġ lie4Ġ
Ġge4Ġ di4ĠdeĠ
ru4Ġ yu4Ġ
tian1Ġ shi3Ġ
Ġnian2Ġ10Ġyue4Ġ 1Ġri4Ġ
Ġlian2Ġ sai4Ġ
xu3Ġ ke3
lie4Ġche1 ĠdeĠ
Ġyu3Ġmao2 Ġqiu2
Ġ bi3Ġde2Ġ
dian4 Ġyuan2Ġ
liu2 Ġcheng2Ġ
cheng1 ĠdeĠ
ceng2 Ġyu3Ġ
nong2 Ġdu4Ġ
hao2 Ġwu2Ġ
colspan Ġ
Ġyu2Ġ 2011
Ġcheng2Ġ ren4
Ġzhi1Ġ dui4Ġ
jian1Ġ du1
suo3Ġ zhang3Ġ
jiao1Ġ huan4
jian3Ġ cheng1Ġ
bian1Ġ qu1Ġ
fang2Ġ shou3Ġ
ĠdeĠshi4Ġ jian4Ġ
da3Ġ kai1Ġ
Ġgai1 Ġdi4Ġ
xuan2Ġ zhuan3Ġ
meng4Ġjia1Ġ la1Ġ
Ġ diao4
Ġ 22Ġ
guan1 Ġhe2Ġ
fen1 Ġji2Ġ
liu2 Ġshi4Ġ
sheng3 Ġren2Ġmin2Ġzheng4Ġfu3Ġ
shui3 Ġshang4Ġ
Ġhe2Ġ jia1Ġ
Ġer2Ġ zhe4Ġ
ge2Ġ lin2Ġ
zui4Ġ hao3ĠdeĠ
Ġsheng1Ġ ren4Ġ
Ġye3Ġ cheng1Ġ
huo3Ġ pao4Ġ
pei4Ġ jue2Ġ
dan4Ġ bai2Ġ
dong3Ġshi4Ġ hui4Ġ
Ġ shan1
Ġ zhan3Ġ
Ġ 20Ġshi4Ġji4Ġ
Ġ 23Ġ
chu1 Ġxian4Ġzai4Ġ
sha1 Ġshi4Ġ
que4 Ġshi2Ġ
xie3 Ġcheng2Ġ
42 Ġ
gn Ġ
1906 Ġnian2Ġ
Ġzhong1Ġ yi4Ġ
Ġde2 Ġyi4Ġzhi4Ġ
zhu3Ġ chang3
shan1Ġ hu2Ġ
mian4Ġ qian2Ġ
qiang2Ġ lie4ĠdeĠ
Ġzui4Ġ hou4Ġyi1Ġ
zhu3Ġjiao4Ġ zuo4Ġ
Ġfou3 Ġze2Ġ
Ġ Na
Ġ teng2Ġ
ĠĠĠ Te
ĠĠĠ shi3Ġ
xiang4 Ġhe2Ġ
yue1 ĠdeĠ
jiu3 Ġyue4Ġ
ang Ġ
Ġyue4Ġ nan2
Ġzhi4Ġ ci3Ġ
Ġjin4 Ġnian2Ġ
du4Ġ guo4Ġ
Ġtong2 Ġwei4Ġ
Ġzhe4Ġ chang3Ġ
gu3Ġ fen4Ġ
xin4Ġ yong4Ġ
xun2Ġ zhao3Ġ
kong3Ġ long2Ġ
Ġhuo4Ġde2 Ġdi4Ġ
fa1Ġxian4ĠleĠ ci3Ġtian1Ġti3Ġ
fa3Ġlan2Ġxi1 Ġda4Ġqu1Ġ
ĠĠĠ she4Ġji4Ġ
ji1 Ġxing2Ġ
xia4 Ġyi4Ġ
suo3 Ġbu4Ġ
1900 Ġnian2Ġ
1907 Ġnian2Ġ
Ġshi4Ġ pin2
xin1Ġ qu1Ġ
Ġwei2Ġ fan3Ġ
Ġzhe4Ġ ci4
yi2Ġ qi4Ġ
ti2Ġ an4Ġ
ĠdeĠgong1Ġ ji1Ġ
Ġge2Ġ lan2Ġ
zong1Ġyi4Ġ jie2Ġmu4Ġ
jing4Ġwai4Ġ shu1Ġru4Ġ
Ġ tu3
Ġ 1980
Ġ 1980Ġnian2Ġ
ĠĠĠ So
ye3 Ġbu4Ġ
gu3 Ġcheng2Ġ
chan3 ĠdeĠ
fei4 Ġer3Ġ
29 Ġnian2Ġ
ye2 Ġlu4Ġ
Ġcheng2Ġ xiang4Ġ
Ġri4 Ġshi2Ġ
Ġyu3Ġ xin1Ġ
Ġdao4Ġ fu1Ġ
fu4Ġ xing1
tian1Ġ xia4Ġ
gen1Ġ sui2
lian2Ġsai4Ġ guan4Ġjun1Ġ
Ġ e4
bei4 Ġyi1Ġ
xin1 Ġji1Ġ
shi1 Ġxing2Ġ
ying2 Ġde2
xia2 Ġshi4Ġ
sen1 ĠdeĠ
kun1 Ġming2Ġ
Ġcheng2Ġ dan1Ġ
Ġer2 Ġde2Ġming2Ġ
wu4Ġ zi1Ġ
kai1Ġ ye4Ġ
tong1Ġ chang2Ġshi4Ġ
luo2Ġ xuan2Ġ
she4Ġ ji4ĠdeĠ
Ġwen2Ġ xue2Ġ
Ġlian2Ġ xu4Ġ
che4Ġ tui4
Ġshi2Ġjian1 Ġwei4Ġ
huo2Ġyue4Ġ yu2Ġ
ta3Ġni2 Ġda4Ġqu1Ġ
Ġ la1
Ġ yin3
Ġ xin4
Ġ xiu1
Ġ gan4Ġ
zhou1 Ġwei2Ġ
Ġjia1Ġ er3Ġ
Ġxi1Ġ bei3Ġbu4Ġ
zhu3Ġ ti3Ġ
Ġzhe4Ġ shi3ĠdeĠ
Ġfei1Ġ chang2Ġ
Ġ k
Ġ zhu2
yu3 Ġren2Ġ
wu3 Ġgong1Ġ
lv4 Ġbu4Ġ
ding1 Ġmu4Ġ
38 Ġ
da4Ġ hui4Ġ
Ġyi1Ġ ci2
Ġzhi1Ġ lu4Ġ
Ġhui4Ġ dao3Ġzhi4Ġ
kai1Ġ pi4
xiang4Ġ dong1Ġ
an1Ġ dong1Ġni2Ġ
Ġjie2Ġ mu4
nong2Ġ cun1
Ġjin3Ġ biao1Ġ
Ġbei3Ġqi3Ġ shun4Ġshi2Ġzhen1Ġyu3Ġ
Ġ o
Ġ qing2Ġ
zheng4 Ġsi1Ġ
de2 Ġzhi1Ġ
bei3 Ġping2Ġ
jie4 Ġxian4Ġ
shen2 Ġshe4Ġ
Ġke4 Ġren2Ġ
shu1Ġ xie3Ġ
Ġgai1Ġ pian4
xue4Ġ ye4Ġ
Ġda4 Ġwei4Ġ
xun2Ġhui2Ġ sai4Ġ
Ġ 1991
le Ġdi4Ġyi1Ġ
shang4 Ġji2Ġ
hua4 Ġcheng2Ġ
tong2 Ġshi4Ġ
yun4 Ġhui4Ġ
Ġzai4Ġ na4Ġli3Ġ
li4Ġ liang4Ġ
Ġming2Ġ que4Ġ
xia4Ġ xun2Ġ
Ġjin4 ĠleĠ
ge2Ġ luo2Ġ
qi3Ġ tu2Ġ
chuan2Ġ shu1Ġ
li2Ġ hun1Ġ
ying4Ġ yong4Ġyu2Ġ
jiu3Ġ dian4
ba1Ġfa2 Ġli4Ġya4
Ġ ju3Ġ
Ġ qu3Ġdai4Ġ
zhuan3 Ġhui4Ġ
Ġzai4Ġ dang1Ġdi4Ġ
Ġchu1Ġ zi4Ġ
wai4Ġ jie4Ġ
jiao1Ġ qu1Ġ
huo4Ġ bi4Ġ
zhao4Ġ gu4Ġ
chao1Ġ guo4
ke3Ġyi3 Ġshi4Ġ
ye2Ġlu4Ġ sa1Ġ
Ġ zan4Ġ
Ġ aĠ
wei2 Ġli4Ġ
zhu3 Ġren2Ġ
liang4 Ġhe2Ġ
you4 Ġbei4Ġ
56 Ġnian2Ġ
Ġbu4Ġ lan2Ġ
Ġxing2 Ġzhong1Ġ
jin1Ġ pai2
tian1Ġ zhu3Ġ
er4Ġ yang3Ġhua4Ġ
jie3Ġ chu2Ġ
hang2Ġ tian1
huo4Ġ yun4Ġ
dang1Ġ ju2
you1Ġ xian1Ġ
zhi2Ġye4Ġ sheng1Ġya2
Ġge1Ġ shou3Ġ
Ġyin3Ġ qi3Ġ
ting2Ġche1Ġ chang3Ġ
Ġ di3Ġ
an1 Ġzhi4Ġ
yu3 Ġji2Ġ
kai1 Ġxing2Ġ
shi1 Ġshi4Ġ
nei4 Ġshe4Ġyou3Ġ
jie4 Ġyou2Ġ
zhen4 Ġxian4Ġ
yan3 ĠleĠ
ya1 Ġzhi4Ġ
cao3 Ġdi4Ġ
yle Ġ
Ġzai4Ġ hou4Ġ
Ġshi2Ġ qi4
Ġyu2Ġ yi1Ġ
Ġli3Ġ ao4Ġ
nan2Ġ fei1Ġ
zong3Ġ du1
e2Ġ wai4Ġ
Ġmei3 Ġri4Ġ
Ġlian2Ġ bang1Ġ
Ġzhi2 ĠdeĠ
Ġyan2Ġ zhong4Ġ
Ġshi3 Ġqi2Ġ
Ġwo3 ĠdeĠ
da1Ġ pei4Ġ
Ġyi4Ġsi Ġshi4Ġ
Ġ dian3Ġ
Ġ nei4Ġbu4Ġ
jiang1 Ġwei2Ġwu2Ġer3Ġ
wu3 Ġli4Ġ
bao3 Ġshi2Ġ
fu3 ĠdeĠ
guang1 Ġxue2Ġ
kuai4 Ġji4Ġ
shang4Ġ fa3Ġlan2Ġxi1Ġda4Ġqu1Ġ
Ġxi1Ġ nan2Ġbu4Ġ
Ġshe4 Ġxian4Ġ
Ġjian4Ġ leĠ
Ġbing4Ġ dui4Ġ
wang2Ġ guo2ĠdeĠ
mo2Ġ ni3Ġ
ai4Ġ sha1Ġ
Ġ cui1
Ġ tuan2Ġ
ĠĠĠ ying3Ġxiang3Ġ
guan1 Ġzhi4Ġ
er4 Ġming2Ġ
chen2 Ġji1Ġ
tou4 Ġming2Ġ
Ġshi2Ġ biao3Ġshi4Ġ
sheng1Ġ wu4
zhi2Ġ dao3ĠdeĠ
ci3Ġ ci4Ġ
la1Ġ fu1Ġ
xiao3Ġshi2Ġ hou4Ġ
dan4Ġ bai2Ġzhi4Ġ
kong4Ġ gu3
wen3Ġ ding4
tong1Ġguo4 ĠleĠ
ĠĠĠwei4Ġ yu2Ġ
9 Ġshi2Ġ
sheng1 Ġri4Ġ
xu4 Ġshi4Ġ
Ġzhong1Ġ ji2Ġ
you3Ġ yi4Ġ
Ġgong1Ġ shang1Ġ
guan1Ġ shang3
Ġjian4Ġ li4ĠdeĠ
Ġdan4 Ġyin1Ġwei4Ġ
gao1Ġ shan1Ġ
Ġyou2Ġ ke4Ġ
Ġdan4Ġ shui3Ġ
jian3Ġ dan1
zu3Ġ zhi3
Ġda4Ġxue2Ġ jiao4Ġshou4Ġ
Ġgai1 Ġgong1Ġsi1Ġ
Ġben3 Ġming2Ġ
Ġgong1Ġzuo4 Ġren2Ġyuan2Ġ
Z Ġ
Ġ Be
Ġ bao1Ġhan2
ti3 Ġhe2Ġ
ti2 Ġshi4Ġ
tu2 Ġer3Ġ
gai3 Ġzhi4Ġ
Ġwei4Ġ ta1Ġ
Ġhe2Ġ shui3Ġ
Ġshi2Ġ yi4Ġ
Ġji2Ġ yu2Ġ
Ġji2Ġ yu3Ġ
Ġjian4 Ġguo2Ġ
qi1Ġ xi1Ġdi4Ġ
hai3Ġ guan1Ġ
nv3Ġ shen2Ġ
zu2Ġ xie2
zeng1Ġ jia1
Ġhua4Ġ xue2
Ġsi4 Ġyue4Ġ
Ġhe2Ġbei3Ġ sheng3Ġ
Ġzhu4 Ġyou3Ġ
Ġ ya4Ġzhou1Ġ
Ġ hai2Ġshi4Ġ
ĠĠĠ 2000
57 Ġnian2Ġ
Ġji4Ġ gong1Ġ
Ġjin4 Ġping2Ġ
tai4Ġ kong1
jian3Ġ hua4Ġ
zu2Ġ zi4Ġzhi4Ġqu1Ġ
ju1Ġ liu2Ġ
fang4Ġ song4Ġ
che4Ġ li2Ġ
Ġ tan2
Ġ si
sh Ġ
yuan2 Ġzhi4Ġ
yu3 Ġzai4Ġ
sheng1 Ġyuan2Ġ
yu4 Ġzhong1Ġ
yuan4 Ġyi4Ġyuan2Ġ
fan3 Ġshe4Ġ
bin1 Ġxi1Ġfa3Ġ
Ġhe2Ġ ping2
da4Ġ yue1Ġ
Ġli4Ġ cheng2Ġ
Ġta1 Ġyi4Ġ
Ġji4Ġ shu4ĠdeĠ
Ġxi1Ġ bei3
ling3Ġ xian2
gang1Ġ qin2Ġ
xue4Ġ tong3Ġ
4 ĠĠĠ
Ġ wang3
Ġ ni4
ĠĠĠ 1949
ĠĠĠ shui3Ġ
le Ġshi2Ġ
fu4 Ġchu1Ġ
bie2 Ġming2Ġ
yan4 Ġzheng4Ġ
Ġzai4Ġ yue4Ġ
Ġguo2Ġ jun1
Ġyi1Ġ duan4Ġ
Ġyi3Ġ qi2Ġ
Ġyu3Ġ yan2ĠdeĠ
xia4Ġ wei1Ġ
zhi2Ġ ze2Ġ
zhong4Ġ shang1Ġ
yi2Ġ chuan2Ġ
Ġgai1Ġ wu4Ġzhong3ĠdeĠ
Ġwan4 Ġping2Ġfang1Ġmi3Ġ
hen3Ġ kuai4
lian4Ġ xi2Ġ
Ġ000 Ġming2Ġ
Ġge1Ġ qu3
mo2Ġshi4Ġ chan3Ġ
Ġer4 Ġren2Ġ
yue4Ġzhong1Ġ xun2Ġ
hang2Ġkong1Ġmu3 Ġjian4Ġ
Ġ zi
Ġ min2Ġzhu3Ġ
ch ou4
zhong4 Ġren2Ġ
ca Ġ
SA Ġ
Ġcheng2Ġ ji2Ġ
Ġxi1Ġ zang4
Ġdong1Ġ fang1Ġ
pan4Ġ duan4Ġ
Ġzhong1Ġyang1 Ġjun1Ġ
dong1Ġbu4Ġ da4Ġqu1Ġ
Ġba1 Ġyue4Ġ
Ġchu1Ġban3 Ġshe4Ġ
Ġ Ra
ĠĠĠ 2004
yan2 Ġxian4Ġ
liang3 Ġbu4Ġ
wu2 Ġyi4Ġ
yang2 ĠdeĠ
Ġshi4Ġ wu1Ġke4Ġlan2Ġ
Ġgong1Ġ an1
Ġdao4 Ġzai4Ġ
Ġzhi1 Ġhe2Ġ
Ġdan4Ġ reng2
chu1Ġ kou3Ġ
biao1Ġzhun3 ĠdeĠ
yu4 Ġhe2Ġ
ci3 Ġzhan4Ġ
ji3 Ġge4
pian1 Ġxiao3Ġshuo1Ġ
34 Ġ
lang4 Ġman4Ġ
Ġzhong1Ġ shi2Ġ
ju4Ġ bei4Ġ
long2Ġ ke1Ġ
ĠdeĠyi1Ġ tiao2
ĠdeĠbu4Ġ fen4
chu3Ġli3Ġ qi4Ġ
ken3Ġ ding4Ġ
Ġ ou3
Ġ tie3
Ġ Ca
qi n4
ge2 Ġhe2Ġ
tai4 Ġyuan2Ġ
gu4 Ġyi4Ġ
ĠdeĠ yin1Ġyue4Ġ
Ġwei4Ġ zhi1Ġ
zhi3Ġ ze2Ġ
ti3Ġ xi4
gu3Ġ dian3
ge1Ġ chang4
wei1Ġ ni2Ġsi1Ġ
qu3Ġ dai4
ya2Ġ chi3Ġ
Ġwu2 Ġxian4Ġ
Ġqi1 Ġyue4Ġ
Ġ te
Ġ xin1ĠdeĠ
ĠĠĠ v
ĠĠĠ ge4
ao4 Ġdi4Ġ
hou4 Ġcheng2Ġwei2Ġ
wu3 ĠdeĠ
zhen1 Ġjun1Ġ
shen3 Ġli3Ġ
pu1 Ġshe4Ġ
Ġhe2Ġ mei3Ġguo2Ġ
Ġyou3Ġ zhu4Ġyu2Ġ
Ġguo2Ġ ji2Ġ
wei2Ġ ke4Ġ
ming2Ġ ni2Ġsu1Ġ
Ġer3 Ġdi4Ġ
Ġta1Ġ biao3Ġshi4Ġ
zhe4Ġ ci4Ġ
xiang4Ġ nan2Ġ
zhi2Ġ lu4
bei3Ġ ce4Ġ
ying1Ġ wu3Ġ
wu1Ġ lu3Ġ
Ġjing1Ġ chang2
Ġgong1Ġsi1 Ġzai4Ġ
Ġbu4Ġjiu3 Ġhou4Ġ
Ġwei4Ġyu2Ġgai1Ġ sheng3Ġ
Ġ ya4
Ġ qiang1Ġ
ĠĠĠ xing2Ġ
yong4 Ġyi3Ġ
yi4Ġ yuan2Ġ
Ġjun1 Ġji2Ġ
Ġjun1 Ġbei4Ġ
Ġke4 Ġshi4Ġ
suo3Ġ shu3Ġ
Ġju4Ġ le4Ġ
ya4Ġ ke1Ġ
hong2Ġ shui3Ġ
wan2Ġ cheng2ĠdeĠ
bai4Ġzhan4Ġ ting2
Ġ ruan3Ġ
ĠĠĠ 2003
sheng1 Ġyi4Ġ
xing4 Ġyu3Ġ
ze2 Ġer3Ġ
lan2 Ġzhou1Ġ
bi3 ĠdeĠ
huan2 Ġyuan2Ġ
ar ĠĠĠ
suan1 Ġyan2Ġ
Ġguo2Ġ gong4Ġ
Ġguo2Ġ fang2Ġ
Ġyi4Ġ qing2
Ġqi2 Ġyi4Ġ
jian1Ġ chi2
yin1Ġ ci3
Ġying1Ġ bang4Ġ
ĠdeĠming2Ġ cheng1Ġ
zhi3Ġhui1 Ġbu4Ġ
luo2Ġdi4Ġ ya4Ġ
liao2Ġning2Ġ sheng3Ġ
Ġ meng4
Ġ liao2Ġ
Ġ pu2Ġ
ming2 Ġzhong1Ġ
shu ang3
jie1 Ġli4Ġ
zu3 Ġwei4Ġ
jiu3 Ġming2Ġ
gao4 Ġzhong1Ġ
41 Ġnian2Ġ
ry Ġ
ĠdeĠ qing2Ġkuang4Ġ
Ġyi3 Ġcheng2Ġwei2Ġ
ke3Ġ kao4
cheng1Ġ hu1
huo3Ġ xing1Ġ
Ġru2Ġ ci3Ġ
ĠĠĠ 2003Ġnian2Ġ
qu1 Ġyi4Ġyuan2Ġ
fa3 Ġzhong1Ġ
wu3 Ġwei4Ġ
qian1 Ġxia4Ġ
lou2 ĠdeĠ
ly ĠĠĠ
Ġshi2Ġ hui4Ġ
Ġer3 Ġke4Ġ
Ġjia1Ġ qiang2
Ġchu1Ġ sai4Ġ
jie1Ġ shou1
che1Ġ shou3Ġ
ce4Ġ lve4
xue2Ġyuan4 ĠdeĠ
8 Ġshi2Ġ
ĠĠĠ 2Ġyue4Ġ
dui4 Ġta1ĠdeĠ
dong4 Ġshi4Ġ
zui4 Ġxing2Ġ
fan4 ĠdeĠ
meng2 Ġde2Ġ
gei3 Ġshi4Ġzhong1Ġ
ou nd
zun1 Ġzhong4Ġ
duo4 Ġ
cheng2Ġ du4Ġ
Ġji2Ġ zhi4Ġ
ping2Ġ gu1Ġ
xia4Ġ tian1Ġ
Ġtong2 Ġyue4Ġ
da2Ġ ni2
chong2Ġ zu3Ġ
ji3Ġ zhui1
Ġshi4Ġshi4Ġ jie4Ġ
Ġma3 Ġer3Ġ
fen1Ġbie2 Ġshi4Ġ
ĠK Ġ
Ġ yong1
Ġ 1995
49 Ġnian2Ġ
les Ġ
AK B48
begin Ġ
Ġyu2Ġ 2009
Ġren2Ġ bu4Ġ
si1Ġ te4Ġ
Ġda4Ġ ge2Ġming4Ġ
shang4Ġ sheng1Ġ
Ġzhi1Ġ qiu2Ġdui4Ġ
xiang1Ġ xin4
hai3Ġ xia2
ti2Ġ jiao1Ġ
Ġduo1Ġ shu4Ġ
yi3Ġ qian2Ġ
fa1Ġdian4Ġ chang3Ġ
y ao3
ĠĠĠ cong2
ĠĠĠ 1Ġyue4Ġ
zhu4 Ġshi4Ġ
duo1 Ġli4Ġya4
lu2 Ġxing2Ġmu4Ġ
as Ġ
Mu sic
yuan2Ġ yin1Ġ
Ġsi1Ġ xiang3
xin1Ġ zeng1Ġ
kai1Ġ ban4Ġ
min2Ġ zheng4Ġ
ben3Ġ shen1
kou3Ġ hao4Ġ
Ġju4Ġ chang3Ġ
zu2Ġ gou4Ġ
ĠdeĠyi1Ġ xie1
ĠdeĠcheng2Ġ gong1Ġ
duo2Ġ qu3Ġ
Ġ shan4
Ġ zha1
ĠĠĠ ling4
yu4 Ġshi4Ġ
fa3 Ġzhi4Ġ
lin2 Ġjin4
zhu1 Ġduo1Ġ
wen1 Ġquan2Ġ
BS Ġ
ted ĠĠĠ
1903 Ġnian2Ġ
yi1Ġ ming2Ġ
Ġyu2Ġ 2010
jia1Ġ zu2Ġ
xin1Ġ zeng1
xiang1Ġ hu4
nan2Ġ zhu3Ġjue2Ġ
Ġde2Ġ lan2Ġ
mi4Ġ qie4Ġ
Ġshu4Ġ ju4Ġ
Ġbu4Ġtong2 Ġyu2Ġ
Ġfa1Ġ biao3Ġ
ba1Ġshi4Ġ lu4Ġxian4Ġ
Ġge1Ġ lun2Ġ
ĠĠĠgai4Ġ shu4Ġ
Ġshi4Ġwei1Ġ zhe3Ġ
Ġyong4 Ġyi3Ġ
Ġ xiao1
Ġ biao1Ġzhun3Ġ
ĠĠĠ jing1Ġ
xue2 Ġji2Ġ
zong3 Ġshi4Ġ
63 Ġnian2Ġ
BD Ġ
ĠdeĠ shuo1Ġfa3Ġ
Ġdi4Ġ liu4
Ġri4 Ġyuan2Ġ
Ġyuan2Ġ su4
Ġri4Ġ er3Ġ
Ġjia1Ġ shang4
Ġming2Ġ lu4Ġ
Ġde2Ġ fen1Ġ
yu4Ġ gao4Ġ
mu4Ġ di4Ġshi4Ġ
jue2Ġ sai4ĠdeĠ
ke3Ġ qian2Ġwang3Ġ
Ġju4Ġ bei4Ġ
xuan3Ġ xiu4
Ġzhi2Ġ wu4Ġ
ken3Ġ ta3Ġji1Ġ
Ġda4Ġshi3Ġ guan3Ġ
Ġ 700
Ġ yuan2Ġwei4Ġ
dai4 Ġer3Ġ
tong2 Ġbu4Ġ
yu4 Ġwei4Ġ
zhi2 Ġren2Ġyuan2Ġ
te4 Ġyu3Ġ
shen2 Ġfu4Ġ
ka3 ĠdeĠ
le4 Ġbi3Ġ
ning2 Ġxia4Ġ
Ġdao4Ġ lu4
jie1Ġ ti4
jie4Ġ sai4Ġshi4Ġ
xian1Ġ qian2Ġ
Ġduo1 Ġming2Ġ
guang3Ġbo1Ġ dian4Ġtai2Ġ
ĠsectionĠĠĠ beginĠ
Ġ 98
lian2 Ġxian4Ġ
lin2 Ġjin4ĠdeĠ
guan3 Ġdao4Ġ
tuo1 Ġke4Ġ
huan2 Ġqiu2Ġ
58 Ġnian2Ġ
ĠdeĠ guan1Ġxi4Ġ
Ġnian2Ġ ling2
Ġwei4Ġ bu4Ġ
Ġbu4Ġ da4Ġ
Ġyou3Ġ hao3Ġ
Ġhou4Ġ fang1Ġ
Ġji1Ġ zhong4Ġ
fu4Ġ gai4Ġ
jiao4Ġ shao3Ġ
Ġhuo4Ġ yun4Ġ
ka3Ġ si1Ġdi4Ġli4Ġ
biao1Ġ ti2Ġ
kai1Ġshi3Ġ leĠ
tui1Ġ ce4Ġ
mao4Ġ xian3
hun4Ġ xiao2
san1Ġjiao3 Ġxing2Ġ
3 Ġhao4Ġ
5 Ġming2Ġ
Ġ ru4
Ġ ying3Ġ
Ġ 1956Ġnian2Ġ
ĠĠĠ an1Ġ
ĠĠĠ ying1Ġ
fa3 Ġren2Ġ
wen2 Ġdi4Ġ
zui4 Ġjin4ĠdeĠ
37 Ġ
Ġbu4Ġ luo4
Ġcheng2Ġ zhen4
Ġqiu2 Ġji4Ġ
suo3Ġ zai4ĠdeĠ
jie1Ġ tou2Ġ
shen2Ġ mi4Ġ
ĠĠĠben3Ġ shu3Ġ
ĠdeĠzhu3Ġ ti2Ġ
fu4Ġze2 Ġren2Ġ
ĠĠĠqi2 Ġhou4Ġ
Ġ po
Ġ zeng4
Ġ 57
Ġ fan2Ġ
shou3 Ġshi4Ġ
shou3 Ġer3Ġ
guo4 Ġshi4Ġ
wu3 Ġda4Ġ
shen2 Ġxue2Ġ
kan4 Ġdao4
zai3 Ġxiang4Ġ
55 Ġnian2Ġ
Ġzai4Ġ ji2Ġ
Ġjian4 Ġjian4Ġ
ju4Ġ ti3Ġ
Ġyin1 Ġhe2Ġ
te4Ġ shu1ĠdeĠ
mu4Ġ shi1Ġ
bao3Ġhu4Ġ qu1Ġ
ĠdeĠji1Ġ ben3Ġ
xun2Ġhui2Ġ yan3Ġchang4Ġhui4Ġ
jie1Ġxia4Ġ lai2ĠdeĠ
ang4 Ġ
le Ġyi3Ġ
zhi2 Ġyu2Ġ
liu2 Ġyi4Ġ
qi4 Ġzhong1Ġ
jiu4 Ġren4Ġ
chuang4 Ġyi4Ġ
1916 Ġnian2Ġ
Lin ux
Ġyi4Ġ cheng2Ġ
Ġren4Ġ qi1Ġ
lin2Ġ chuang2
Ġhuo4Ġ sheng4Ġ
da3Ġ po4Ġ
zheng4Ġshi4Ġ cheng2Ġli4Ġ
Ġjie2 Ġhe2Ġ
Ġhou4Ġlai2 Ġbei4Ġ
mi2Ġni3Ġ zhuan1Ġji2Ġ
Ġ chi3Ġ
Ġ en1Ġ
Ġ kan4Ġ
Ġ san1Ġnian2Ġ
ba1 Ġke4Ġ
lie4 Ġjian4Ġ
ban4 Ġbu4Ġ
hu2 ĠdeĠ
ing ĠĠĠ
Ġhe2Ġ ren2Ġ
Ġbu4Ġ bing1
Ġyi1Ġ gong4Ġ
Ġji4Ġ si4Ġ
shou3Ġ du4Ġ
fu2Ġ lang3
shan1Ġ ding3Ġ
ce4Ġ hua4Ġ
dong1Ġnan2Ġ ya4Ġ
Ġ 1989
jiang1 Ġbei4Ġ
wen2 Ġsi1Ġ
ye4 Ġzhong1Ġ
la1 Ġke4
dao3 Ġxian4Ġ
shen2 Ġqi2Ġ
cun2 Ġyu2Ġ
guan4 Ġmu4Ġ
kong3 Ġju4Ġ
round Ġ
ji4Ġ suan4Ġ
Ġyi4Ġ zuo4Ġ
fen1Ġ zu3Ġ
ya4Ġ te4Ġ
jiao1Ġ dian3Ġ
Ġyou3Ġyi1Ġ xie1
na2Ġpo4Ġ lun2Ġ
Ġ 1946
Ġ bo2Ġshi4Ġ
xi2 Ġjin4Ġping2Ġ
dui1 Ġ
Ġbu4Ġ gong1Ġ
yi1Ġ xie1
Ġguo2Ġ ji4
Ġyi1Ġ dui4Ġ
Ġdao4Ġ de2Ġ
Ġxing2Ġ wei2
Ġjia1Ġ la1Ġ
yan2Ġ se4
Ġer2Ġ fei1
Ġjun1Ġ zhang3Ġ
kou3Ġ jing4Ġ
xing4Ġ cun2Ġ
chang3Ġ jing3
chang2Ġ sha1Ġ
shou4Ġ ming4Ġ
Ġxin1Ġ jiang1Ġ
chuan2Ġ jiao4Ġshi4Ġ
xing1Ġ qi3Ġ
jiu3Ġ ba1Ġ
can1Ġ kao3
kan1Ġ wu4Ġ
tie3Ġlu4 Ġgong1Ġsi1Ġ
si1Ġdi4Ġ an1Ġ
Ġda4Ġduo1Ġ shu4
ĠĠĠ jiang1Ġ
you3 Ġbu4Ġtong2Ġ
du4 Ġshi4Ġ
ci4 Ġquan2Ġguo2Ġ
lan2 Ġde2Ġ
ying2 Ġdi4Ġ
gui4 ĠdeĠ
zhuan4 Ġji4Ġ
48 Ġ
et ĠĠĠ
52 Ġnian2Ġ
zhi4Ġ zao4Ġ
Ġren2Ġ ji2Ġ
Ġcheng2Ġ guo3Ġ
ming2Ġ xian3Ġ
sheng1Ġ zhang3Ġ
jie1Ġ ti4Ġ
Ġshe4Ġ bei4
yue1Ġ 1
luo4Ġ shan1Ġ
Ġzhe4 Ġli3Ġ
dao3Ġzhi4Ġ leĠ
Ġzhi3Ġ neng2Ġ
Ġqi3Ġ ye4Ġ
lian2Ġxu4 Ġju4Ġ
Ġ zhang3
Ġ 1985
Ġ che4Ġxiao1Ġ
ĠĠĠ ai4Ġ
you2 ĠdeĠ
yang4 Ġben3Ġ
na Ġ
shui3Ġ ku4
du2Ġ te4Ġ
Ġdang1Ġ ju2Ġ
ye2Ġ fu1Ġ
Ġ kao3
Ġ 1979Ġnian2Ġ
ĠĠĠ dai4Ġ
tong2 Ġzhi4Ġ
ke3 Ġyou2Ġ
shui3 Ġyuan2Ġ
sha4 Ġ
ly Ġ
Ġzai4Ġ yi2Ġge4Ġ
Ġxing2Ġ zou3Ġ
dui4Ġ kang4Ġ
you2Ġ lai2Ġ
shu4Ġ zhi2Ġ
chang2Ġ zhu4
bao3Ġ yu4Ġ
ni2Ġ gu3Ġla1Ġ
Ġxiang1Ġ fan3Ġ
wang3Ġ min2Ġ
ci2Ġ shan4
chu3Ġ li3
er2Ġ zi
Ġfa1Ġ biao3
Ġtai2Ġ bei3
Ġer4 Ġyue4Ġ
mei3Ġshu4Ġ guan3Ġ
zhui1Ġsu4 Ġzhi4Ġ
ĠsectionĠĠĠ endĠ
han4Ġlin2Ġ yuan4Ġ
9 Ġge4Ġ
Ġ gai4
Ġ 1981Ġnian2Ġ
ĠĠĠ zhu4Ġzuo4Ġ
de2 Ġke4Ġsa4Ġsi1Ġ
hai3 Ġjun1ĠdeĠ
tai2 Ġji2Ġ
dao3 Ġdan4
shan1 Ġhe2Ġ
bian4 Ġli4Ġ
mi4 Ġxi1Ġxi1Ġ
Ġnian2Ġ du4
Ġli4Ġ jing1Ġ
Ġda4Ġ liang4ĠdeĠ
Ġjun1 Ġgong1Ġ
Ġwei2Ġ yi1ĠdeĠ
bao3Ġ xian3
ci4Ġ ziĠ
si4Ġ yuan4Ġ
jian3Ġ pu3Ġ
jing3Ġ bao4Ġ
Ġhuo4Ġde2 Ġyi1Ġmei2Ġ
meng4Ġjia1Ġ la1
si1 Ġji2Ġ
shang4 Ġyu3Ġ
liu2 Ġxing2ĠdeĠ
huang2 Ġhe2Ġ
chuan1 Ġzhu4Ġ
ma1 Ġzu3Ġ
ĠdeĠ er2ĠziĠ
Ġyi4Ġ ti2Ġ
Ġyi3 Ġgong1Ġ
Ġyi1Ġ xi4Ġlie4Ġ
Ġta1Ġ ye3Ġshi4Ġ
Ġchu1Ġ sheng1Ġzai4Ġ
lu4Ġ kou3Ġ
Ġjun1Ġ tuan2
ze2Ġ ren4
zi1Ġ jin1
que4Ġ bao3
gan3Ġ qing2Ġ
pai4Ġ qian3Ġ
sui2Ġ zhe
Ġzhi3Ġ yao4Ġ
Ġjiang1 Ġjun1Ġ
Ġbao3Ġ luo2Ġ
bian4Ġcheng2Ġ leĠ
gao4Ġshi4Ġ pai2Ġ
Ġ zong1Ġjiao4Ġ
ĠĠĠ 11
bei4 Ġren2Ġ
ye3 Ġsheng1Ġ
ke1 Ġjin4Ġshi4Ġ
zhuang1 Ġyou3Ġ
jia4 Ġri4Ġ
rui4 Ġke4Ġ
ĠdeĠ wen4Ġti2Ġ
Ġbu4Ġ zu2
Ġshi2Ġ qi1Ġnian2Ġ
si1Ġ fa3Ġ
Ġjian4Ġ zheng4Ġ
qi4Ġ guan1Ġ
qian1Ġ wang3Ġ
man4Ġ hua4
di2Ġ ya4Ġ
xia2Ġ zhai3
shen3Ġ yang2Ġ
e4Ġ tu2Ġ
b li
Ġ tao2
Ġ yuan4Ġ
Ġ hu1Ġ
Ġ 1948Ġnian2Ġ
qian2 Ġyi1Ġ
sai4 Ġshi4Ġzhong1Ġ
zhong4 Ġyi4Ġyuan2Ġ
10 Ġge4Ġ
yue1 Ġke4Ġ
nv3 Ġshi4Ġ
mu3 Ġshi4Ġ
shi2Ġ dai4Ġ
Ġbu4Ġ yu3Ġ
xi1Ġ fang1Ġ
Ġji1Ġ qi4Ġ
kai1Ġ qi3Ġ
fa1Ġ yan2Ġ
Ġzhou1Ġ bian1
Ġshe4Ġ ding4Ġ
Ġxia4Ġ xia2Ġ
jing3Ġ bao4
zheng1Ġ qu3
cai3Ġ fang3Ġ
zhuan1Ġ ke1Ġxue2Ġ
Ġren2Ġkou3Ġ pu3Ġcha2Ġ
Ġxing4Ġ bie2Ġ
mei4Ġ mei4
zhan4Ġzheng1 Ġzhong1Ġ
Ġke1 Ġer3Ġ
mao2Ġze2Ġ dong1
Ġjie1Ġwei4Ġ lu4Ġdi4Ġ
Ġ qun2Ġ
Ġ wang4Ġ
Ġ ke3Ġneng2Ġshi4Ġ
ĠĠĠ zhan4Ġhou4Ġ
you3 Ġshi4Ġ
lin2 Ġshi4Ġ
yang2 Ġji1Ġ
mu3 Ġyu3Ġ
90 Ġnian2Ġ
xuan4 Ġ
Ġwei4Ġ gai1Ġ
Ġzai4Ġ tai2Ġwan1Ġ
xiang4Ġ liang4Ġ
Ġtong2 Ġnian2Ġ9Ġyue4Ġ
tu2Ġ jing1Ġ
zheng1Ġ qi4Ġ
Ġliang3 Ġguo2Ġ
Ġao4 Ġdi4Ġli4Ġ
Ġzai4Ġzhong1Ġguo2Ġ da4Ġlu4Ġ
wang2Ġchao2 ĠdeĠ
Ġ bi4
xian4 Ġzai4Ġ
dang1 Ġdai4Ġ
zhong3 Ġjia1Ġ
qian1 Ġshi4Ġ
da3 Ġjin4Ġ
bei1 ĠdeĠ
59 Ġnian2Ġ
Ġyue4Ġ qi4Ġ
Ġzhi1 Ġyu2Ġ
ming2Ġ cheng1
Ġta1Ġ cong2Ġ
jie2Ġ hun1
Ġdui4Ġ ying4Ġ
Ġju4Ġ feng1Ġ
yi2Ġ ju1Ġ
yan3Ġ hua4
Ġwan4Ġ mei3Ġyuan2ĠdeĠ
zu2Ġqiu2Ġ lian2Ġsai4Ġ
Ġzai4Ġci3Ġ qi1Ġjian1Ġ
you2Ġxi4 Ġzhong1Ġ
li3Ġgong1Ġ da4Ġxue2Ġ
Ġshi4Ġshi4Ġjie4 Ġshang4Ġ
r ĠĠĠ
Ġ 88
lai2 Ġde2Ġ
hong2 Ġshi2Ġzi4Ġ
gan3 ĠdeĠ
reng2 Ġshi4Ġ
wo4 Ġsi1Ġ
Ġwei4Ġ re4Ġdai4Ġ
Ġhe2Ġ ma3Ġ
Ġshi2Ġ shi2Ġ
dui4Ġ fang1Ġ
Ġwei2Ġ ke4Ġ
Ġran2 Ġer2Ġzai4Ġ
cai2Ġ ding4Ġ
du2Ġ shu1Ġ
Ġguo4Ġ cheng2Ġzhong1Ġ
Ġma3Ġ ding1Ġ
geng1Ġ huan4
3 Ġgong1Ġli3Ġ
Ġ zai4
Ġ Te
Ġ 1955Ġnian2Ġ
ĠĠĠ 2002Ġnian2Ġ
you3 Ġbu4Ġtong2ĠdeĠ
dui4 Ġcheng2Ġyuan2Ġ
tai4 Ġer3Ġ
shun4 Ġtian1Ġ
di4Ġ san1Ġ
cheng2Ġ zhen4Ġ
Ġyi1Ġ xue2Ġyuan4Ġ
Ġda4Ġ yu3Ġ
Ġji1Ġ qi4Ġren2Ġ
fu4Ġ za2Ġ
Ġzheng4Ġ dang3Ġ
Ġtong2 Ġnian2Ġ11Ġyue4Ġ
zi1Ġ bie2
gui1Ġ ge2Ġ
hua2Ġ xue3Ġ
zu2Ġ gou4ĠdeĠ
Ġjie2Ġ shu4
gang1Ġ qin2
sui2Ġ zhu4
ĠĠĠli4Ġshi3Ġ yan2Ġge2Ġ
fa1Ġsheng1Ġ hou4Ġ
pin2Ġ kun4
Ġdi4Ġshi2Ġ er4Ġ
yun2Ġnan2Ġ sheng3Ġ
li3 Ġzai4Ġ
ge4 Ġge4Ġ
fu4 Ġbu4Ġ
tai4 Ġji2Ġ
qu2 Ġ
Net fli
yi4Ġ ban1Ġ
Ġren2Ġ shou4Ġshang1Ġ
guan1Ġ yin1Ġ
jing1Ġ ying1Ġ
jin1Ġ qu3Ġ
Ġren4Ġ zheng4Ġ
nv3Ġ ge1Ġshou3Ġ
yin3Ġ qing2
ju2Ġ mian4Ġ
Ġshi4Ġjie4 Ġge4Ġdi4Ġ
dong1Ġjing1Ġ du1Ġ
tou2Ġru4Ġ shi3Ġyong4Ġ
lian2Ġsai4 Ġqiu2Ġdui4Ġ
Ġli4Ġfa3Ġ wei3Ġyuan2Ġ
ĠISTAT Ġdai4Ġma3Ġwei4Ġ
Ġ xie2
Ġ ou1Ġzhou1
ĠĠĠ yue4
ĠĠĠ huo4
ĠĠĠ zuo4Ġ
shi3 Ġsi1Ġ
fa1 Ġyin1Ġ
xiang1 Ġdao4Ġ
xiang4 Ġta1Ġ
hui2 Ġfu4Ġ
lun2 Ġli3Ġ
da4Ġ dong1Ġbu4Ġda4Ġqu1Ġ
Ġgong1Ġ zhong4
Ġhou4Ġ lai2ĠdeĠ
yu4Ġ shi3Ġ
Ġbing4Ġ jiang1Ġqi2Ġ
ke3Ġ fen1Ġwei2Ġ
neng2Ġ li4ĠdeĠ
ba1Ġ he4Ġ
dang3Ġ wei3Ġ
qian1Ġ ru4Ġ
Ġhe2Ġguo2Ġ jia1Ġ
Ġjiu3 Ġyue4Ġ
Ġnian2Ġshi4Ġjie4Ġ bei1Ġ
Ġ qiong2
Ġ Di
Ġ 1947Ġnian2Ġ
yu3 ĠĠĠ
yu4 Ġyou3Ġ
ci3 Ġyi1Ġ
shen3 Ġyi4Ġ
ĠdeĠ she4Ġji4Ġ
Ġwei4Ġ gong1Ġ
Ġyue4Ġ qiu2Ġ
dian4Ġ rong2Ġ
hai3Ġ wai4
Ġben3Ġ tu3
lv4Ġ shi1
xian1Ġ fa1Ġ
Ġzui4Ġ hou4
shan3Ġxi1Ġ sheng3Ġ
jia1Ġli4Ġfu2Ġ ni2Ġya4
³ Ġ
Ġ guang3Ġzhou1Ġ
ĠĠĠ duo1Ġ
hui4 Ġcheng2Ġyuan2Ġ
she4 Ġji1Ġ
jiao4 Ġyi4Ġ
jin1 Ġzhong1Ġ
Ġzai4Ġ bei3Ġjing1Ġ
Ġyue4Ġ du2Ġ
ji4Ġ hou4Ġ
Ġyu3Ġ li3Ġ
dai4Ġ lai2ĠdeĠ
dian4Ġ lu4Ġ
bian1Ġ fu2Ġ
sai1Ġ bai4
shen3Ġ pan4
ke1Ġji4Ġ da4Ġxue2Ġ
Ġ shuo1
Ġ Ri
Ġ bie2Ġ
Ġ 1946Ġnian2Ġ
ĠĠĠ Se
shang4 Ġyi3Ġ
ju4 Ġren2Ġ
ping2 Ġji2Ġ
ping2 Ġxi1Ġ
fu2 Ġke4Ġ
fang3 Ġzhi1Ġ
2026 Ġnian2Ġ
Ġshi2Ġ zi4
cheng2Ġ ren4Ġ
Ġzhi1Ġ nv3Ġ
jing1Ġ fei4Ġ
lai2Ġ wang3Ġ
Ġbing4Ġ xiang4Ġ
Ġke4Ġ lu3Ġ
Ġshang4Ġ sheng1Ġ
fan4Ġ dian4Ġ
Ġru2Ġ jin1Ġ
re4Ġ men2Ġ
Ġshi4Ġyi1Ġke1Ġ heng2Ġxing1Ġ
mo2Ġte4 Ġer2Ġ
s ti
Ġ qiao2
Ġ pin2Ġdao4Ġ
si1 Ġyu2Ġ
hua4 Ġxian4Ġ
fa3 Ġhe2Ġ
dou1 Ġyi3Ġ
rang4 Ġren2Ġ
ver Ġ
li4Ġ ziĠ
zhu3Ġ guan3Ġ
Ġsheng1Ġ cheng1
qi3Ġ fa1Ġ
Ġqi2Ġzhong1Ġ bao1Ġkuo4
han2Ġ gai4Ġ
bu3Ġ ru3
Ġbo1Ġ luo2Ġ
niu3Ġyue1 Ġshi4Ġ
Ġ xi3
Ġ 1937Ġnian2Ġ
ĠĠĠ qi4Ġhou4Ġ
zuo4 Ġhe2Ġ
nan2 Ġzhi4Ġ
da2 Ġhe2Ġ
sha1 ĠleĠ
Ġshi4Ġ jiang1Ġ
zhi4Ġ liao2Ġ
Ġgong1Ġ guo2Ġ
Ġyi1Ġ lang3Ġ
wen2Ġ ben3Ġ
gou4Ġ wu4Ġ
Ġjie1Ġ zhu4Ġ
Ġfu2 Ġli3Ġ
Ġdi4Ġer4 Ġge4Ġ
Ġya4Ġ mei3Ġ
chuang4Ġban4 Ġren2Ġ
Ġ zhen4
Ġ zheng1Ġyue4Ġ
bei4 Ġbu4Ġ
dou1 Ġyu4Ġshi3Ġ
zan4 Ġcheng2Ġ
Ġdi4Ġ chu3Ġ
Ġxian4 Ġli4Ġ
Ġdan4 Ġzhe4Ġ
Ġdai4Ġ ling3Ġ
yuan4Ġ xiao4Ġ
tian2Ġ xin4Ġ
sa4Ġ zhu1Ġ
jian4Ġzhu4Ġ wu4Ġ
ge1Ġqu3 ĠdeĠ
mu4Ġni2Ġ hei1Ġ
Ġqi1Ġxi1Ġ shen1Ġdu4Ġ
Ġ zhun3Ġbei4Ġ
i3 Ġ
ai2 Ġ
jia1 Ġshi2Ġ
jun1 Ġren2Ġ
jin4 Ġcheng2Ġ
hua2 Ġyu3Ġ
dian3 Ġwei4Ġyu2Ġ
lu3 Ġji2Ġ
51 Ġnian2Ġ
tui3 Ġ
Ġren2Ġ shu4
Ġdao4Ġ guang1Ġ
dong4Ġ wu4ĠdeĠ
dong1Ġ bu4ĠdeĠ
jue2Ġ ce4Ġ
bi3Ġ ci3Ġ
lin2Ġ na4Ġ
xuan3Ġ piao4Ġ
bian4Ġ geng1
zheng1Ġ duo2
Ġxiang4Ġ zheng1Ġ
pai2Ġ hang2
ĠdeĠyi1Ġ zhong3
shen3Ġ cha2
miao2Ġshu4Ġ leĠ
Ġfei1 Ġli4Ġ
Ġliu4 Ġyue4Ġ
Ġ Ga
Ġ pao4Ġ
shi1 Ġli4Ġ
wai4 Ġxing2Ġ
zi1 ĠdeĠ
Ġshi4Ġ dai4Ġ
Ġshi4Ġ ri4Ġben3
Ġji4Ġ zhe3Ġhui4Ġ
Ġde2 Ġyi4Ġ
qi1Ġ kan1Ġ
gao1Ġ feng1Ġ
qing1Ġ hai3Ġ
bian1Ġ jing4
xie1Ġ gen1
chong1Ġ fen4Ġ
zhan4Ġdou4 Ġji1Ġ
Ġ 1988
Ġ le4Ġ
qu1 Ġyi4Ġ
nei4 Ġhe2Ġ
sheng3 Ġzheng4Ġ
ji3 Ġnan2Ġ
qin1 Ġshi2Ġ
bai4 ĠdeĠ
54 Ġnian2Ġ
xin1Ġ sheng1Ġ
lu4Ġ ying3Ġ
jing1Ġ ti3Ġ
jiao4Ġ xiao3Ġ
liang3Ġ ci4
ban1Ġ dian3Ġ
she4Ġ ding4Ġ
Ġxing2Ġzheng4 Ġzhong1Ġxin1
zuo4 Ġyou3Ġ
shang4 Ġhe2Ġ
shou3 Ġbei4Ġ
zhang3 Ġli3Ġ
san1 Ġguo2Ġ
yuan4 Ġhe2Ġ
bao3 Ġshi4Ġ
jiu4 Ġyi3Ġ
meng2 Ġyou3Ġ
zhen3 Ġduan4Ġ
chai2 Ġyou2Ġ
Ġgong1Ġ jin1
Ġgong1Ġ bu4ĠdeĠ
Ġcheng2Ġ qiang2Ġ
Ġyuan2Ġ lai2ĠdeĠ
Ġzhan4Ġ lve4Ġ
jie1Ġ qu1Ġ
qing1Ġ chao2
shen2Ġ jing1
Ġbi4Ġ ye4Ġhou4Ġ
duo2Ġ guan4Ġ
Ġgai1Ġsheng3Ġfen4Ġwei4Ġfa3Ġguo2Ġ bei3Ġbu4Ġ
sai1Ġer3Ġwei2Ġ ya4
guo2ĠdeĠte4Ġyou3Ġ zhi2Ġwu4Ġ
Ġ jing4
Ġ liu3
Ġ 1983
Ġ Ba
Ġ ge1Ġqu3Ġ
ai4 Ġhe2Ġ
li3 Ġyou3Ġ
xin1 Ġhe2Ġ
ke3 Ġxing2Ġ
yong3 Ġshi4Ġ
zao1 Ġdao4
36 Ġ
Ġbei4Ġ pan4Ġ
jiao4Ġ gao1ĠdeĠ
fa1Ġ yu4Ġ
lian2Ġ bo1Ġ
jie4Ġ mian4Ġ
Ġxin1Ġ wen2
zu2Ġ zong3Ġ
jia4Ġ shi3
lun4Ġ shu4Ġ
shao3Ġ liang4Ġ
tui1Ġ fan1Ġ
Ġceng2 Ġyu2Ġ
ĠÃ ¼
nie4Ġ ci2
hua2Ġsheng4Ġ dun4Ġ
Ġ 1952Ġnian2Ġ
wu3 Ġren2Ġ
gai1 Ġdi4Ġqu1Ġ
la ĠĠĠ
nuo4 Ġbei4Ġer3Ġ
75 Ġ
Ġzai4Ġ xia4Ġ
Ġyuan2Ġ xing2
Ġer2 Ġyou3Ġ
Ġzhou1 Ġguo2Ġ
yan2Ġ lun4
fen1Ġ shu4Ġ
xiao3Ġ xiang4Ġ
pai2Ġ fang4Ġ
Ġzhi2Ġ jing4Ġ
Ġsan1 Ġguo2Ġ
ran3Ġ se4Ġ
Ġ fu3
ĠĠĠ she4Ġhui4Ġ
xin1 Ġxi1Ġlan2Ġ
er2 Ġcheng2Ġ
zhong4 Ġxing2Ġ
bian4 Ġxing2Ġ
tiao2 Ġjian4
deng1 Ġji1Ġ
ning2 Ġxian4Ġ
cu4 Ġ
1902 Ġnian2Ġ
Willi am
Ġzai4Ġ ke4Ġ
Ġyi4Ġ miao2
sheng1Ġ xiao4Ġ
Ġqi2 Ġdi4Ġ
Ġji1Ġ dong4Ġ
yan2Ġ hai3
bei3Ġ ka3Ġluo2Ġlai2Ġna4
Ġsheng1Ġ ming4
Ġdan4Ġ bai2
xian4Ġ chang3Ġ
xing2Ġ dong4
Ġdong1Ġ lin2
Ġba1 Ġxi1Ġ
ĠÃ Ń
ĠÐ ½
dian4Ġzi3 Ġyou2Ġxi4Ġ
guan3Ġkong4 Ġzhong1Ġfa1Ġxian4Ġ
3 ĠĠĠ
¡ Ġ
Ġ guo3Ġ
ĠĠĠ 2024Ġnian2Ġ
dao4 Ġde2Ġ
ping2 Ġxing2Ġ
wai4 Ġji2Ġ
luo2 ĠdeĠ
fan3 Ġgong1Ġ
shang1 Ġhui4Ġ
qing2 Ġren2Ġ
ali gnĠ
da4Ġ chen2Ġ
Ġxing2 Ġzhi4Ġ
Ġke4Ġ lun2Ġ
Ġzhu4Ġ ming2ĠdeĠ
zhuan1Ġ zhu4Ġyu2Ġ
ĠO Ġ
ban4Ġshi4Ġ chu4
Ġsheng1Ġhuo2 Ġzai4Ġ
ĠĠĠ Sh
ĠĠĠ 2000Ġnian2Ġ
you3 Ġbu4Ġfen4Ġ
zheng4 Ġhe2Ġ
xiang4 Ġyu3Ġ
min2 Ġshi4Ġ
mei2 Ġli4Ġ
hu4 ĠdeĠ
gui1 ĠdeĠ
huan3 Ġman4Ġ
ard Ġ
zei2 Ġ
Ġwei4Ġ 2
Ġzai4Ġ ba1Ġ
Ġbu4Ġ shu3Ġ
Ġshi2Ġ chang2Ġ
Ġda4Ġ jiang1Ġjun1Ġ
zi4Ġ zhu3Ġ
Ġzhan4Ġ yi4Ġzhong1Ġ
Ġtong2 Ġbu4Ġ
Ġxue2Ġ sheng1
se4Ġ qing2Ġ
jian3Ġ ce4
zheng1Ġ lun4Ġ
sui2Ġ zheĠ
dian4Ġying3 Ġzhong1Ġ
Ġji2Ġtuan2 Ġyou3Ġxian4Ġgong1Ġsi1Ġ
luo2Ġma3Ġ ni2Ġya4Ġ
Ġyu3Ġmao2 Ġqiu2Ġ
ĠĠĠ h
le Ġta1
yun4 ĠdeĠ
ĠdeĠ ping2Ġ
Ġshi4Ġ xiang1Ġgang3
Ġshi4Ġ dang1Ġdi4Ġ
Ġcheng2Ġ yuan2ĠdeĠ
Ġda4Ġ zi4Ġ
zhu4Ġ fang2Ġ
shou3Ġ fa3Ġ
ye4Ġ wu4
liang3Ġ zhe3Ġ
hai2Ġ zi
zhen1Ġ dui4
zhen1Ġ cha2
xun2Ġ luo2Ġ
Ġqian2Ġ wang3
ĠdeĠbu4Ġ tong2Ġ
Ġshen1Ġ du4Ġ
shou1Ġlu4Ġ leĠ
7 Ġgong1Ġli3Ġ
Ġ tou2
ma3 Ġde2Ġli3Ġ
qiao1 Ġchu1Ġ
Ġyi4Ġ li4Ġ
zhu3Ġ zhang1
Ġjian4Ġ zao4ĠdeĠ
Ġquan2 Ġqiu2
jue2Ġ xin1Ġ
ke3Ġ yong4Ġyu2Ġ
liang3Ġ ce4
lu2Ġ wa3Ġ
Ġshe4Ġji4Ġ shi1Ġ
xi3Ġ ai4Ġ
2010Ġnian2Ġ mei3Ġguo2Ġren2Ġkou3Ġpu3Ġcha2Ġ
Ġguo2Ġjia1 Ġji2Ġ
Ġwei4Ġzhong1Ġ xin1Ġ
Ġchao2Ġ ting2Ġ
zhu3Ġti2Ġ qu1Ġ
Ġmin2 Ġji2Ġ
ji3Ġnei4Ġ ya4Ġ
Ġ kong4Ġzhi4Ġ
ĠĠĠ Be
yan2 Ġhe2Ġ
qi3 Ġchu1Ġ
cha2 Ġsi1Ġ
46 Ġ
Ġren2Ġ lei4ĠdeĠ
Ġsi1Ġ ta3
Ġji1Ġ qiang1Ġ
Ġxi1Ġ de2Ġ
Ġbing4Ġ kai1Ġshi3Ġ
zhi3Ġ ling4Ġ
gu3Ġ dai4
Ġzhong1Ġguo2Ġ guo2Ġjia1Ġ
mei3Ġ guo2Ġhe2Ġ
ke3Ġyi3Ġ yong4Ġ
Ġbi4Ġ xu1
tao3Ġ fa2Ġ
ĠdeĠli4Ġ shi3
zhen3Ġ duan4
shi1Ġqu4 ĠleĠ
Ġ 99
Ġ Si
ĠĠĠ Vi
yi1 Ġzai4Ġ
duo1 Ġjia1Ġ
qing1 Ġxi1Ġ
bo2 Ġke4Ġ
xi2 ĠdeĠ
bai3 Ġwan4
zheng3 Ġshu4Ġ
der Ġ
Uni ver
Ġshi4Ġ tu2
Ġshi4Ġ han2Ġguo2Ġ
Ġbu4Ġ yi4Ġ
Ġzhong1Ġ xue2
Ġshi2Ġ er4
Ġyu2Ġ zhong1Ġ
jia1Ġ qiang2Ġ
xiang1Ġ lian2Ġ
Ġming2Ġ dan1
kai1Ġ bo1Ġ
zhi3Ġ biao1Ġ
wai4Ġ jie4
Ġju4Ġ qing4Ġxia4Ġ
lie4Ġ biao3
huan2Ġ bao3Ġ
Ġying1Ġ gai1Ġ
gui3Ġdao4Ġ jiao1Ġtong1Ġ
xin1Ġli3Ġ xue2Ġ
Ġwei4Ġfu2Ġqi2Ġyu2Ġgang1Ġ lu2Ġxing2Ġmu4Ġ
Ġpu2Ġtao2Ġya2 Ġyu3Ġ
Ġ xu3
Ġ 68
shang4 Ġzai4Ġ
shi3 Ġqi2Ġ
se4 Ġhuo4Ġ
zhao4 Ġji2Ġ
kun1 Ġchong2Ġ
ia Ġ
ine Ġ
Ġhe2Ġ zhong1Ġguo2Ġ
Ġbu4Ġ xiang2Ġ
Ġzhi4Ġ pian4Ġ
Ġyi4Ġ chang2Ġ
wei2Ġ hu4Ġ
Ġji1Ġ guan1
dong1Ġ lu4Ġ
Ġnan2Ġ fang1Ġ
ling2Ġ mu4Ġ
ling2Ġ shou4Ġ
fei4Ġ chu2
Ġqian2Ġ long2
kao3Ġlv4 Ġdao4Ġ
5 ĠĠĠ
Ġ ni
Ġ yan3
Ġ gui3
Ġ zhu2Ġ
Ġ 1970Ġnian2Ġ
gong1 Ġwei4Ġ
jin4 Ġdai4Ġ
zhu4 Ġgong1Ġ
yan2 Ġshi4Ġ
ying3 Ġji2Ġ
nv3 ĠdeĠ
men2 Ġshi4Ġ
gu4 ĠdeĠ
si3 ĠdeĠ
all Ġ
Ġshi2Ġ shang4Ġ
Ġxi1Ġ lan2
Ġming2Ġ chao2
jiao4Ġ duo1Ġ
dian4Ġ che1
fen1Ġ lie4
fu2Ġ te4Ġ
ti3Ġ nei4Ġ
ding4Ġ lv4Ġ
wei3Ġ tuo1
jian4Ġ zao4
quan2Ġ wei1Ġ
xun2Ġ huan2
er2Ġ yan2Ġ
leĠyi1Ġ xie1
dou4Ġ zheng1
zhu1Ġlong2Ġ cao3
ĠĠĠ fan3Ġ
xia4 Ġxing2Ġ
te4 Ġzhi4Ġ
jie1 Ġyou3Ġ
ci4 Ġri4Ġ
ti3 Ġzhong1Ġ
shou4 ĠleĠ
ban4 Ġxue2Ġ
fang2 ĠdeĠ
po4 ĠleĠ
ĠdeĠ wei4Ġzhi4Ġ
Ġyi1Ġ shou3Ġ
hou4Ġ lai2
Ġda4Ġ ming2Ġ
Ġhou4Ġ yin1Ġ
ju4Ġ chang3Ġ
jiao4Ġ xiao3ĠdeĠ
dian4Ġ dong4Ġ
mei3Ġguo2Ġ guo2Ġjia1Ġ
bo1Ġ luo2Ġdi4Ġ
Ġzhong1Ġguo2Ġ da4Ġlu4
huo4Ġ sheng4Ġ
ĠdeĠshi4Ġ li4Ġ
qu1ĠdeĠ yi2Ġge4Ġ
ĠãĤ ĵ
huan2Ġxing2Ġ shan1Ġ
hao3Ġlai2Ġ wu4Ġ
Ġ chuan2
Ġ gan1
Ġ 1982
gao1 Ġjia1Ġ
su1 Ġzhou1Ġ
zong1 Ġzuo4Ġ
gai4 ĠleĠ
tan3 Ġke4
gan4 Ġshi4Ġ
Ġyu2Ġ 2025
Ġxi1Ġ shou1Ġ
Ġzhi1Ġ yi1ĠdeĠ
Ġbei4Ġ ren4Ġwei2
qi4Ġ xuan2
Ġzi4Ġ sha1Ġ
jiu3Ġ jing1Ġ
xun2Ġ yan3Ġ
tie3Ġlu4Ġ ju2Ġ
wen2Ġhua4Ġ yi2Ġchan3Ġ
Ġqu1Ġ yu4Ġ
min2Ġzhu3Ġ zhu3Ġyi4Ġ
wen1Ġ ge1Ġ
cheng2Ġli4Ġ yu2Ġ
yun3Ġshi2Ġ keng1Ġ
you1Ġxiu4 ĠdeĠ
Ġgai1Ġwu4Ġzhong3ĠdeĠ mo2Ġshi4Ġchan3Ġ
Ġ gui1
ao4 Ġli4Ġ
mu4 Ġhou4Ġ
la1 Ġli4Ġ
dan1 Ġren2Ġ
zhong4 Ġzhi4Ġ
guan4 Ġjun1ĠdeĠ
sai1 Ġsi1Ġ
21 Ġshi4Ġji4Ġ
47 Ġ
Ġwei4Ġ ji1Ġchu3Ġ
Ġyi4Ġ bai3Ġ
fang1Ġ zhen1Ġ
ge2Ġ lei1Ġ
an1Ġ fu3Ġ
ying3Ġ zhan3Ġ
shui3Ġ zhun3Ġ
can1Ġ mou2Ġ
xian4Ġ dai4
ju1Ġ bu3Ġ
zhuan3Ġ bo1Ġ
Ġbo1Ġ lan2Ġ
Ġzhan4Ġzheng1 Ġzhong1Ġ
pai2Ġhang2Ġ bang3Ġ
shou4Ġhuan1Ġ ying2ĠdeĠ
Ġ xian3
Ġ huo2Ġdong4Ġ
ĠĠĠ Ga
ke4 ĠdeĠ
xiang4 Ġqi2Ġ
si4 Ġge4
mie4 Ġwang2Ġ
shi3Ġ guan3Ġ
guan1Ġ bi4
jing1Ġ dian3
suo3Ġ en1Ġ
bei3Ġ lu4Ġ
ge2Ġ li2
Ġzuo4Ġ leĠ
ya4Ġ zhong3Ġ
feng1Ġ mian4Ġ
san1Ġ shi2Ġnian2Ġ
gu4Ġ ding4
Ġdi4Ġer4Ġ ci4Ġshi4Ġjie4Ġda4Ġzhan4Ġ
ĠĠĠben3 Ġyu2Ġ
si1 Ġyou3Ġ
bian4 Ġde2
ye1 Ġsu1Ġ
Ġdi4Ġ 4Ġ
ping2Ġ gu1
Ġqi2Ġ bing1
suo3Ġ mu3Ġ
ma3Ġ chang3Ġ
shan1Ġ chu2Ġ
qing1Ġ hua2Ġda4Ġxue2Ġ
ying1Ġ chao1
Ġxiang1Ġ xin4Ġ
fei1Ġ ji1
jiu4Ġ ke3Ġyi3Ġ
sha1Ġ hai4
qian1Ġ xi3
guang1Ġ xu4
Ġzhi3 ĠdeĠshi4Ġ
Ġzhong1Ġshi4Ġ yan3Ġ
Ġ yan3Ġyuan2Ġ
xue2 Ġli4Ġ
qi1 Ġge4Ġ
wen2 Ġji2Ġ
jie1 Ġdao4
yan4 ĠdeĠ
to Ġ
ps Ġ
Ġwei4Ġ qi2
Ġli4Ġ an1Ġ
ji1Ġ gou4
ji1Ġ hu1
Ġda4Ġ jun1Ġ
Ġyu3Ġ qian2Ġ
Ġji4Ġ ren4Ġ
fu4Ġ shu3
ju4Ġ dian3Ġ
hua4Ġ xue2
zhe4Ġ yang4
Ġfu4Ġ nv3Ġ
Ġshe4Ġ li4ĠdeĠ
Ġdan4Ġ yao4Ġ
si4Ġ hu1Ġ
wei1Ġ bo2Ġ
kong1Ġ tiao2Ġ
Ġgong1Ġzuo4Ġ zhe3Ġ
hai3Ġjun1Ġ lu4Ġzhan4Ġ
Ġwei4Ġdi4Ġ yi1Ġ
Ġgong4 Ġji4Ġ
Ġzhong1Ġguo2Ġguo2Ġmin2Ġ dang3Ġ
Ġ chao2
Ġ gui1Ġding4Ġ
Ġ 1954Ġnian2Ġ
hou4 Ġji2Ġ
fu4 Ġyuan2Ġ
jiang1 Ġxian4Ġ
jiang4 Ġzhi4Ġ
xun1 Ġzhang1
clu deĠ
shi2Ġ yue4Ġ
Ġzhong1Ġ jie2Ġ
Ġshi2Ġ ba1Ġnian2Ġ
Ġyu2Ġ 17
Ġzhi4Ġ hui4Ġ
jia1Ġ meng2Ġ
Ġyi1Ġ hao4Ġ
zheng4Ġ wu4Ġ
Ġhui4Ġ hua4Ġ
dian4Ġ xin4Ġ
suo3Ġ xia2
ma3Ġ en1Ġsheng3Ġ
sai4Ġ shi4ĠdeĠ
zu2Ġ qun2
guang3Ġbo1Ġ dian4Ġshi4Ġ
dian4Ġqi4Ġ hua4Ġ
Ġ reng2Ġ
Ġ bao4Ġdao4Ġ
Ġ iĠ
Ġ 1938Ġnian2Ġ
ĠĠĠ fa1Ġxing2Ġ
le Ġda4Ġliang4Ġ
zhi3 Ġwei4Ġ
deng3 Ġzhan4Ġ
da2 Ġdao4ĠleĠ
lun2 Ġduo1Ġ
xiu1 Ġshi4Ġ
gei3 Ġchu1Ġ
qiao1 Ġ
Ġzhi4Ġ li3Ġ
hai3Ġ di3Ġ
qi3Ġ hua4Ġ
Ġdai4Ġ wei2Ġ
bao4Ġ dong4Ġ
mei2Ġ ti3ĠdeĠ
fan1Ġ chuan2Ġ
yong1Ġ you3ĠdeĠ
bi4Ġye4Ġ sheng1Ġ
Ġ chi4
Ġ pan1Ġ
ĠĠĠ aĠĠĠ
zhi1 Ġxia4Ġ
bo2 Ġli4Ġya4Ġ
jie3 ĠdeĠ
cai3 Ġji2Ġ
zong4 Ġdui4Ġ
Sch ool
xt Ġ
Ġyi1Ġ yi1Ġ
dui4Ġ ying4Ġ
Ġjun1 Ġhe2Ġ
xin1Ġ zhu2
fen1Ġ fen1Ġ
dao3Ġ zhi4ĠdeĠ
Ġxia4Ġ jiang4Ġ
Ġzhu4Ġ zuo4Ġ
liang3Ġ ceng2Ġ
luo4Ġ fu1Ġ
mi4Ġ ma3Ġ
ling4Ġ wai4
Ġjing1Ġ guo4
jia3Ġ zu3Ġ
di3Ġ kang4
Ġnian2Ġ11Ġyue4Ġ 1Ġri4Ġ
zheng4Ġfu3 Ġzai4Ġ
juan1Ġ zeng4Ġ
shuai4Ġling3 ĠdeĠ
Ġ John
Ġ 1976Ġnian2Ġ
ĠĠĠ bai2Ġ
ou1 Ġzhou1ĠdeĠ
qi2 Ġta1ĠdeĠ
lian2 Ġsi1Ġ
zhi3 ĠdeĠshi4Ġ
zhong4 Ġli4Ġ
hua2 Ġwei4Ġ
cong2 Ġzhong1Ġ
chang4 Ġyi4Ġ
qiang1 Ġji1Ġ
III Ġ
Ġren2Ġ yi4Ġ
Ġren2Ġ si3Ġwang2Ġ
Ġer2 Ġwei4Ġ
Ġshang4Ġ wu3Ġ
tai4Ġ luo2Ġ
wang3Ġ fan3Ġ
kao3Ġ ru4Ġ
dun4Ġ nie4Ġci2
Ġ1 ĠĠĠ
ĠÐ ¸
Ġbian1 Ġhao4Ġ
yin3Ġqi3 ĠdeĠ
3 Ġli4Ġ
Ġ mĠ
Ġ 1975Ġnian2Ġ
Ġ 1966Ġnian2Ġ
zhan4 Ġji2Ġ
lu4 Ġde2Ġ
nan2 Ġdao4Ġ
bao4 ĠdeĠ
pu3 Ġli4Ġ
zong1 Ġshi4Ġ
ding3 Ġbu4Ġ
Ġzai4Ġ dong1Ġ
li4Ġ yi4Ġ
Ġshi2Ġ yu2Ġ
Ġren2Ġ cai2Ġ
Ġjia1Ġ meng2
fa1Ġ da2Ġ
yun4Ġ suan4Ġ
zhang1Ġ dan1Ġqu1Ġ
jin3Ġ ci4Ġyu2Ġ
huan2Ġ rao4
kuo4Ġ zhang1
Ġhong2Ġ se4Ġ
shuai4Ġ xian1Ġ
Ġ Ge
Ġ xiu4Ġ
zhang1 Ġjia1Ġ
hai2 Ġhui4Ġ
mai4 Ġke4Ġer3Ġ
lao3 Ġhui4Ġ
tion ĠĠĠ
na3 Ġ
Ġbu4Ġ xia4Ġ
Ġda4Ġ xuan3Ġ
shang4Ġ su4Ġ
ping2Ġ mian4Ġ
nan2Ġ xing4
lu4Ġ xu4
Ġsheng1Ġ ya2
bian1Ġ ru4Ġ
wei1Ġ fu1Ġ
ye3Ġ mei2Ġyou3Ġ
xing2Ġ zheng4
Ġfen1Ġ lan2Ġ
leĠyi1Ġ zhong3Ġ
ĠÐ µ
l yi
Ġ xue3Ġ
ai4 Ġli4Ġsi1Ġ
ĠĠĠ 2001Ġnian2Ġ
zhou1 Ġnian2Ġ
lin2 Ġxian4Ġ
rong2 Ġyu2Ġ
xiu1 Ġxi1Ġ
tu4 Ġ
Ġshi2Ġ bie2Ġ
Ġyu2Ġ jia1Ġ
Ġyu2Ġ 9Ġyue4Ġ
Ġli4Ġ wei3Ġ
xia4Ġ lang3Ġde2Ġ
min2Ġ dang3Ġ
Ġdui4Ġ kang4Ġ
Ġhuo4 Ġer3Ġ
ĠdeĠdi4Ġ tie3Ġ
can1Ġ yan3Ġ
man4Ġ hua4Ġjia1Ġ
Ġluo2Ġ bo2Ġ
ĠdeĠren2Ġ wu4Ġ
Ġma3 Ġke4Ġ
Ġtai2Ġ bei3Ġ
Ġshu3Ġ rou4Ġshi2Ġxing4Ġ
Ġai1 Ġer3Ġ
shi1Ġfan4 Ġda4Ġxue2Ġ
xiang1Ġdang1 Ġyu2Ġ
jian1Ġcha2 Ġyu4Ġshi3Ġ
6 Ġming2Ġ
8 Ġgong1Ġli3Ġ
Ġ niu3Ġ
Ġ 1935Ġnian2Ġ
wei1 Ġer3Ġsi1Ġ
pen2 Ġ
ĠdeĠ zuo4Ġpin3Ġ
Ġwei4Ġ xing1
Ġbu4Ġ lang3Ġ
Ġji2Ġ you3Ġ
ming2Ġ chao2Ġ
Ġxian4Ġ ren4
Ġjia1Ġ ju4Ġ
yan2Ġ fa1
qian2Ġ long2Ġ
zhi2Ġ wu4ĠdeĠ
Ġzheng4Ġ quan4Ġ
zui4Ġ xin1Ġ
zong3Ġ jiao4Ġqu1Ġ
Ġzhu3Ġ jiao4Ġ
e2Ġ wai4ĠdeĠ
Ġgao1Ġ deng3Ġ
Ġxiao3Ġ shuo1
huo2Ġdong4 Ġzhong1Ġ
yi1Ġli4Ġ nuo4Ġyi1Ġ
Ġ u
Ġ 25Ġ
ĠĠĠ tai2Ġwan1
ĠĠĠ miao2Ġshu4Ġ
zuo4 Ġcheng2Ġ
bo Ġdu4Ġ
tai2 Ġyu3Ġ
bao4 Ġyu3Ġ
zhan3 Ġxian4
zhuang1 Ġyuan2Ġ
lao3 Ġren2Ġ
zou3 ĠleĠ
Ġhe2Ġ zuo4ĠdeĠ
Ġxian4 Ġyi4Ġ
zuo4Ġ qu3Ġjia1Ġ
Ġqi2 Ġren2Ġ
zheng4Ġ dang3
zheng4Ġ bian4Ġ
Ġjia1Ġ zu2ĠdeĠ
Ġta1Ġ ke3Ġyi3Ġ
ju4Ġ jue2
Ġbei4Ġ ji1Ġ
wen2Ġ shu1Ġ
Ġzhe4Ġ yi4Ġwei4Ġ
jiao1Ġ wang3Ġ
Ġxiang1Ġ jiao4Ġyu2Ġ
mi4Ġ mi4
lei4Ġ an4Ġjian4Ġ
jia4Ġ zhi2ĠdeĠ
xian1Ġ qu1Ġ
ling2Ġ hun2
Ġzhi2 Ġdao4
Ġjian4Ġzhu4Ġ shi1Ġ
Ġxing2Ġzheng4Ġ zhang3Ġguan1Ġ
ĠdeĠbu4Ġ dui4Ġ
Ġha1 Ġli4Ġ
Ġbu4Ġguo4 Ġzai4Ġ
Ġhua4Ġxue2 Ġshi4Ġwei4Ġ
Ġ ã
Ġ fen4Ġ
Ġ hui1Ġfu4Ġ
fu4 Ġwei4Ġ
fang1 Ġji4Ġ
ping2 Ġshi4Ġ
pu3 ĠdeĠ
cai2 Ġhui4Ġ
ku4 ĠdeĠ
Î² Ġ
Ġcheng2Ġ shu2
shang4Ġ zhen4Ġ
shi3Ġ zhe3Ġ
shi1Ġ zong1Ġ
zui4Ġ zhu4Ġming2ĠdeĠ
shu1Ġ niu3
na4Ġ cui4Ġ
zu3Ġ zhang3Ġ
Ġwan4Ġ zhang1Ġ
Ġci3 Ġzhan4Ġ
Ġ2 ĠĠĠ
ĠdeĠyi4Ġ shu4Ġ
zhuan4Ġ xie3
niu3Ġyue1 Ġzhou1Ġ
Ġxian4Ġlu4Ġ kou3Ġ
wo3Ġmen ĠdeĠ
shou4Ġhai4Ġ zhe3Ġ
Ġ kan3
Ġ Pa
Ġ huang2Ġjia1Ġ
Ġ hen3Ġduo1Ġ
Ġ geng1Ġming2Ġwei4Ġ
ĠĠĠ 20Ġshi4Ġji4Ġ
yu2 Ġnian2Ġ
wei2 Ġji2Ġ
sheng1 Ġdao4Ġ
zui4 Ġming2Ġ
ying1 Ġshi4Ġ
Ġyu2Ġ 2008
yan2Ġ xu4Ġ
gao1Ġ ceng2Ġ
jie1Ġ shang4Ġ
Ġtong2 Ġnian2Ġ8Ġyue4Ġ
chang2Ġ chang2Ġ
Ġhuo4Ġ bi4Ġ
biao3Ġ mian4
zhi1Ġ hou4ĠdeĠ
tiao2Ġjian4Ġ xia4Ġ
Ġyi4Ġzhi2 Ġzai4Ġ
na4Ġcui4 Ġde2Ġguo2Ġ
e2Ġhai4Ġe2 Ġzhou1Ġ
Ġ zao3
Ġ kong3
Ġ huang2Ġdi4Ġ
Ġ 1968Ġnian2Ġ
ĠĠĠ xiao4Ġ
ĠĠĠ xiang1Ġguan1Ġ
zhi2 Ġgong1Ġ
zhi2 Ġbei4Ġ
zu3 Ġcheng2Ġyuan2Ġ
mu3 Ġhe2Ġ
chu3 Ġguo2Ġ
st ri
ter ĠĠĠ
zhong1Ġ xue2Ġ
jin1Ġ tian1Ġ
Ġben3Ġ shen1Ġ
hui2Ġ lai2Ġ
chu3Ġ cun2Ġ
tui1Ġ fan1
ĠĠĠta1 Ġzai4Ġ
lv4Ġwei4Ġ 0
Ġ 1948
e2 Ġjun1Ġ
ĠĠĠ yang2Ġ
ben3 Ġshi4Ġ
12 Ġge4Ġ
zhao1 Ġhe2Ġ
kao4 Ġjin4
41 Ġ
ren2Ġ lei4
Ġbu4Ġ lang3
cheng2Ġ li4ĠdeĠ
ji4Ġ lu4
xi1Ġ li3Ġ
ren4Ġ jiao4Ġ
fa3Ġ an4
mu4Ġ han3Ġmo4Ġde2Ġ
Ġyin1Ġ su4
jie4Ġ ru4Ġ
zong3Ġ ti3Ġ
gu3Ġ ba1Ġ
Ġlu4Ġ yin1Ġshi4Ġ
fei4Ġ qi4Ġ
sai1Ġ e2Ġ
zhan4 Ġli4Ġ
fu4 Ġyi4Ġ
qi1 Ġming2Ġ
xing4 Ġdi4Ġ
xiao4 Ġzhong1Ġ
long2 Ġshi4Ġ
pai2 Ġqiu2Ġ
ers Ġ
Ġbu4Ġ shou4Ġ
Ġdi4Ġ 1
Ġcheng2Ġ du4ĠdeĠ
Ġxian4Ġ ding4Ġ
Ġbei4Ġ xuan3Ġwei4Ġ
zui4Ġ duo1
Ġzhe4Ġ ye3Ġ
ba1Ġ da2Ġ
bian4Ġ geng1Ġ
lu2Ġ sen1Ġ
Ġcheng2Ġyuan2Ġ guo2Ġ
geng1Ġ gai3Ġ
jing1Ġli4Ġ leĠ
Ġ biao1Ġzhi4Ġ
ĠĠĠ ri4
ti2 ĠdeĠ
qing1 ĠdeĠ
que1 Ġxian4Ġ
44 Ġ
ren2Ġ lei4Ġ
Ġbu4Ġ bei4Ġ
jia1Ġ ting2
Ġyu3Ġ zhi1
Ġxi1Ġ lin2Ġ
Ġchu1Ġ ju2Ġ
Ġwei2Ġ lai2Ġ
Ġdai4Ġ ling3
jie3Ġ jie3Ġ
jiang3Ġ shi1Ġ
chu4Ġ chu4Ġzhang3Ġ
ĠdeĠshi2Ġ ji4Ġ
shu4Ġliang4 ĠdeĠ
mu4Ġdi4Ġ di4Ġ
Ġmeng2Ġ gu3
ĠĠĠhou4Ġ lai2Ġ
xie2Ġshang1Ġ hui4Ġyi4Ġ
Ġ zheng3
Ġ 1986
Ġ back
wu4 Ġji2Ġ
dai4 Ġshi2Ġ
bao3 Ġjian4Ġ
qiang2 Ġxing2Ġ
âĢ »
xun4 ĠdeĠ
guan4 Ġli4Ġ
43 Ġ
int Ġ
Ġshi4Ġ jue2Ġ
Ġren2Ġ wei2Ġ
Ġli3Ġ cha2Ġ
zhan4Ġ chang3Ġ
Ġzhi1Ġ yong4Ġ
kai1Ġ pu3Ġ
bei3Ġ mei3
san1Ġ ceng2Ġ
mei3Ġ la1Ġ
zhou1Ġ qi1Ġ
Ġtong2Ġshi2Ġ ye3
lao3Ġ ban3Ġ
kai1Ġshi3 Ġhou4Ġ
ĠãĤ ¹
zai1Ġ hai4Ġ
ken3Ġ se4
5 Ġshi2Ġ
Ġ nai4
Ġ 1964Ġnian2Ġ
hou4 Ġgong1Ġ
chu1 Ġxian4ĠdeĠ
qu1 Ġyu3Ġ
fa3 Ġjun1Ġ
fu2 Ġda4Ġxue2Ġ
pu3 Ġsi1Ġ
zhuang1 Ġzai4Ġ
wa3 Ġer3
miao4 ĠdeĠ
shuai4 Ġjun1Ġ
Ġhe2Ġ dao4Ġ
Ġji2Ġ ta1Ġ
Ġyuan2Ġ you3ĠdeĠ
Ġde2 Ġshi4Ġ
Ġli3Ġ jia1Ġ
zong3Ġ guan3Ġ
liang3Ġ xiang4Ġ
zheng1Ġ duo2Ġ
Ġguo4Ġ qu4
xuan1Ġ cheng1
Ġbi4Ġ ye4Ġ
ling4Ġyi1Ġ zhong3Ġ
Ġgan1Ġ su4Ġ
Ġshi2Ġyi1Ġ yue4Ġ
fu2Ġluo2Ġli3Ġ da2Ġzhou1Ġ
Ġxin1Ġjia1Ġ po1
yi1 Ġnian2ĠdeĠ
qu1 Ġwei4Ġyu2Ġ
shang4 Ġyi4Ġ
er2 Ġbei4Ġ
wan1 Ġdao4Ġ
ren2Ġ kou3
yi4Ġ yi4Ġ
Ġyu3Ġ ta1
Ġxing2Ġ che1Ġ
ren4Ġ tian1Ġtang2Ġ
xin1Ġ a1Ġji1Ġtan3
min2Ġ jian1
ĠleĠ dui4Ġ
nei4Ġ bu4ĠdeĠ
zhen4Ġ ying2Ġ
Ġzhe4Ġ liang3Ġge4Ġ
bian4Ġ lun4Ġ
hui2Ġ ying4
Ġsui4 Ġren2Ġkou3Ġ
xuan1Ġ gao4Ġ
Ġtong1Ġ chang2Ġshi4Ġ
suo1Ġ xie3Ġ
bei3Ġjing1 Ġda4Ġxue2Ġ
li4Ġhe2Ġ wu2Ġzheng4Ġzhuang4Ġgan3Ġran3Ġzhe3Ġ
Ġyou4Ġming2Ġ BDĠ
hang2Ġzhan4Ġ lou2Ġ
suo3Ġxu1 ĠdeĠ
Ġ bing3
Ġ miao2Ġ
gong1 Ġzhong1Ġ
yan2 Ġli4Ġ
suo3 Ġbu4Ġtong2Ġ
liu2 Ġdan4Ġ
song4 Ġzhi4Ġ
da1 Ġcheng2Ġ
na tional
Ġbu4Ġ lu3Ġke4Ġ
Ġge4 Ġyou3Ġ
Ġge4 Ġxian4Ġ
hui4Ġ hua4Ġ
sheng1Ġ zhang3
Ġde2 Ġzai4Ġ
guan1Ġ kan4
lu4Ġ yin1Ġ
shou3Ġ hu4Ġ
zui4Ġ ju4Ġ
chuan2Ġ jiao4Ġ
an4Ġ cha2Ġ
fan3Ġ kang4Ġ
xi2Ġ su2Ġ
man4Ġ ha1Ġ
xun2Ġ hang2Ġ
Ġci3Ġ qian2Ġ
mai4Ġ a1Ġ
tu1Ġ jue2Ġ
Ġquan2Ġguo2Ġ zhong4Ġdian3Ġwen2Ġwu4Ġbao3Ġhu4Ġdan1Ġwei4Ġ
Ġmin2Ġ zu2Ġ
Ġyong4Ġ lai2Ġ
Ġwei4Ġyu2Ġgai1Ġguo2Ġ bei3Ġbu4Ġ
Ġxi1 Ġyuan2Ġ
min3Ġ gan3Ġ
Ġgai1Ġwu4Ġzhong3ĠdeĠmo2Ġshi4Ġchan3Ġ di4Ġzai4Ġ
g roundĠ
p ian2
Ġ tuo1
Ġ xiang2
Ġ ST
Ġ chuang4Ġzuo4Ġ
ĠĠĠ si4Ġ
hou4 Ġzhi4Ġ
xiang4 Ġzai4Ġ
11 Ġshi2Ġ
mi4 Ġji2Ġ
geng4 Ġyou3Ġ
lang2 ĠdeĠ
39 Ġ
Ġyu3Ġ mei3Ġguo2Ġ
zhan4Ġ ju4Ġ
wu2Ġ guan1Ġ
zhi1Ġ wai4Ġ
zhuang1Ġ bei4
que4Ġ ren4
ha1Ġ la1Ġ
ke3Ġneng2 Ġzai4Ġ
ding3Ġ dian3Ġ
ĠãĤ ¤
Ġsui2Ġ zhu4
jie1Ġdao4Ġ ban4Ġshi4Ġchu4Ġ
ĠĠĠzhe4Ġ geĠ
ou1Ġzhou1 Ġguo2Ġjia1Ġ
Ġan4Ġ zhao4Ġ
Ġke4Ġxi1Ġ ta3Ġni2Ġda4Ġqu1Ġ
2 Ġshi2Ġ
Ġ Å
lu4 Ġsi1Ġ
zui4 Ġjin4Ġ
shi1 Ġzai4Ġ
ci4 Ġshi4Ġ
na4 Ġzai4Ġ
shui3 Ġxian4Ġ
nv3 Ġyou3Ġ
qian1 Ġdao4Ġ
mi4 Ġer3Ġ
zhen1 Ġxiang4Ġ
HD ĠĠĠ
Ġshi4Ġ xian4Ġ
Ġshi2Ġ si4Ġ
Ġsi1Ġ li3Ġlan2Ġ
Ġwei2Ġ hu4Ġ
Ġwei2Ġ xiu1Ġ
Ġdai4Ġ bu3Ġ
sai4Ġ ju1Ġ
Ġhao4 Ġhe2Ġ
da2Ġ ke1
shu3Ġ xing4Ġ
yin3Ġ fa1
hai2Ġ bao1Ġkuo4Ġ
chong2Ġ xiu1Ġ
bie2Ġ shu4Ġ
Ġxi4Ġ bao1
zai1Ġ nan4Ġ
Ġduo1 Ġge4Ġ
Ġmei2Ġ ti3Ġ
Ġai4 Ġde2Ġhua2Ġ
jiao1Ġhui4Ġ chu4Ġ
2 Ġgong1Ġli3Ġ
Ġ xu1
Ġ yuan3
Ġ 69
Ġ Pe
Ġ za2Ġ
ĠĠĠ 2002
ĠĠĠ bi3Ġsai4Ġ
ĠĠĠ wu1Ġke4Ġlan2Ġ
le ĠdeĠ
yin1 ĠdeĠ
neng2 ĠdeĠ
00 Ġnian2Ġ
lv4 Ġdi4Ġ
tie3 Ġdao4
hen3 Ġgao1Ġ
us ĠĠĠ
qu1Ġ yu4ĠdeĠ
jian1Ġ guan3Ġ
ming4Ġ yun4Ġ
gu4Ġ wen4
wa3Ġ sheng3Ġ
Ġnian2Ġ6Ġyue4Ġ 30Ġri4Ġ
Ġxiang4 Ġshi4Ġ
Ġli2 Ġmi3Ġ
Ġ neng2
Ġ ju3
Ġ ming4Ġming2Ġ
Ġ 1909Ġnian2Ġ
li3 Ġzhi4Ġ
mian4 Ġwei4Ġ
bi3 Ġsi1Ġ
rong2 Ġhuo4Ġ
bie2 Ġren2Ġ
mou3 Ġge4Ġ
ed Ġ
52 Ġ
rao2 Ġ
shi2Ġ ji4Ġ
Ġshi2Ġ er4Ġyue4Ġ
Ġyi1Ġ fu2Ġ
guan1Ġ qia3
ye4Ġ ti3Ġ
ma3Ġ ding1Ġ
cheng1Ġ zan4
Ġjie2Ġ gou4
Ġshi4Ġzhen4Ġ fan4Ġwei2Ġnei4Ġ
bu3Ġ ji3Ġ
ke1Ġxue2Ġ yuan4
Ġguan1Ġ zhong4Ġ
geng1Ġ huan4Ġ
Ġcong2 Ġshi4Ġ
yun3Ġ keng1
re4Ġdai4Ġ di1Ġqi4Ġya1Ġ
zui4Ġhou4Ġ yi2Ġge4Ġ
zi1Ġben3Ġ zhu3Ġyi4Ġ
Ġ on
Ġ hao3
Ġ 1977Ġnian2Ġ
ĠĠĠ 7Ġ
dui4 Ġzhi4Ġ
bian4 Ġhou4Ġ
di3 Ġbu4Ġ
kai3 Ġer3Ġ
92 Ġnian2Ġ
sheng1Ġ yu4Ġ
Ġta1Ġ dan1Ġren4Ġ
nan2Ġ hai3Ġ
Ġquan2 Ġcheng2Ġ
jing3Ġ wu4Ġ
pai2Ġ chu2
Ġwen2Ġ wu4Ġ
wan2Ġ fa3Ġ
Ġbi3Ġ ru2
Ġshi4Ġzhong1Ġ xin1
1 Ġyi4Ġ
Ġ lei1
Ġ sai4Ġshi4Ġ
Ġ yan1Ġ
da4 Ġshi4Ġ
yu3 Ġshi2Ġ
qu1 Ġyu2Ġ
el ĠĠĠ
you3Ġ xian4Ġ
Ġyi1Ġ zhao4Ġ
Ġge4 Ġchu1Ġru4Ġkou3Ġ
ming2Ġ que4Ġ
Ġta1Ġ you4Ġ
fa3Ġ gui1Ġ
Ġshang4Ġ xia4Ġ
ba1Ġ sai1Ġ
liang4Ġ zi3
lei4Ġ bie2Ġ
Ġtong2Ġ shi2Ġzai4Ġ
Ġshi4Ġshi4Ġ zhang3Ġ
Ġge2Ġ lei2Ġ
Ġchu2Ġ le
Ġte4Ġbie2 Ġshi4Ġzai4Ġ
zhan4Ġdou4 Ġzhong1Ġ
tai2Ġnan2 Ġshi4Ġ
ba1Ġle4 Ġsi1Ġtan3
c ou4
Ġ lian2
Ġ dong3
Ġ zao3Ġnian2Ġ
ĠĠĠ suo3Ġ
ĠĠĠ zhe4Ġxie1Ġ
xian4 Ġlu4Ġ
hui4 Ġcheng2Ġ
zhan4 Ġyu3Ġ
ye3 Ġzhan4Ġ
che1 Ġzai4Ġ
bang3 Ġdan1Ġ
zun1 Ġshou3Ġ
kui2 Ġbei3
ph a
Ġri4 Ġshi4Ġ
zuo4Ġ yong4
zhu3Ġ yi4Ġhe2Ġ
Ġbei4Ġ si1Ġ
dian4Ġ ci2Ġ
Ġke4Ġ lin2Ġ
zu3Ġ shu1Ġji4Ġ
ci2Ġ xing4Ġ
xu1Ġ ni3
zhuang1Ġ cun1Ġ
huo4Ġ wu4Ġ
Ġgao1Ġ su4Ġ
qin1Ġ wang2
xin4Ġ feng4
Ġshi3Ġ cheng1Ġ
Ġfen1 Ġbu4Ġ
Ġyi1Ġsi1Ġ lan2
jiao4Ġke1Ġ wen2Ġ
mi4Ġxi1Ġxi1Ġ bi3
Ġ ji2
Ġ guan4Ġ
Ġ 1972Ġnian2Ġ
duo1 Ġli4Ġ
can1 Ġjun1Ġ
qing3 Ġqiu2
Ġgong1Ġ bu4
Ġyuan2Ġ sheng1Ġ
dui4Ġ hua4Ġ
guan1Ġ zhu4
zhi3Ġ dao3
luo2Ġ fu1
gou4Ġ cheng2ĠdeĠ
bing1Ġ chuan1Ġ
Ġgao1Ġ du4Ġ
huan4Ġ zhe3
tui1Ġ dong4
pin2Ġ fan2Ġ
Ġnian2Ġzai4Ġ wei4Ġ
ying3Ġxiang3 ĠleĠ
Ġguo2Ġmin2Ġ zheng4Ġfu3
Ġwei4Ġyu2Ġgai1Ġguo2Ġ dong1Ġnan2Ġbu4Ġ
ĠdeĠji1Ġchu3 Ġshang4Ġ
Ġ ce4
Ġ 1938
Ġ neng2Ġgou4Ġ
Ġ pei4Ġhe2Ġ
ĠĠĠ En
ĠĠĠ mi3Ġ
ĠĠĠ she4Ġ
ĠĠĠ he2ĠĠĠ
gong1 Ġzai4Ġ
guan1 Ġjian4
ye4 Ġshi4Ġ
lie4 Ġdi4Ġ
bo1 Ġxi1Ġ
han4 Ġren2Ġ
wang4 ĠdeĠ
1980 Ġnian2Ġdai4
ĠdeĠ gui3Ġdao4Ġ
Ġbu4Ġ xing2Ġ
li3Ġ you2Ġ
Ġxian4Ġ lu4
ben3Ġ shu1Ġ
ge2Ġ lai2Ġ
hua2Ġ xue3
jin4Ġ zhan3Ġ
wei3Ġ da4ĠdeĠ
quan2Ġ zhang3Ġ
ha1Ġ sa4Ġke4Ġsi1Ġ
Ġling4Ġ yi2Ġge4Ġ
dong1Ġji4Ġ ao4Ġlin2Ġpi3Ġke4Ġyun4Ġdong4Ġhui4Ġ
yin3Ġqi3 ĠleĠ
ping2Ġlun4 Ġjia1Ġ
2019Ġguan1Ġzhuang4Ġbing4Ġdu2 Ġbing4
2 Ġhao4
6 Ġshi2Ġ
Ġ huo3
ao4 Ġde2Ġ
li3 Ġji2Ġ
jing1 Ġcheng2Ġ
suo3 Ġzhi4Ġ
sai4 Ġshang4Ġ
tai2 Ġshi4Ġ
tai2 Ġhe2Ġ
ni2 Ġji1Ġ
fei4 Ġcheng2Ġ
di3 ĠdeĠ
sai1 Ġer3
Ġshi2Ġ jia1Ġ
Ġzhi4Ġ shi3Ġ
Ġgong1Ġ yu4Ġ
Ġzhou1 Ġzhi1Ġ
xiang1Ġ tong2
shou3Ġ ying4Ġ
Ġke4Ġ hu4Ġ
luo4Ġ yang2Ġ
geng4Ġ gao1ĠdeĠ
Ġxian4ĠdeĠ cheng2Ġshi4Ġ
lian4Ġ ai4Ġ
xue4Ġ guan3Ġ
meng4Ġ xiang3Ġ
zi1Ġge2Ġ sai4Ġ
Ġzai4Ġzhe4Ġ ge
Ġdong1 Ġri4Ġben3Ġ
lan2Ġqiu2Ġ yun4Ġdong4Ġyuan2Ġ
Ġkong3Ġ tai4
C ĠĠĠ
Ġ z
Ġ 170
Ġ Ni
Ġ yun4Ġdong4Ġ
Ġ chuang4Ġli4Ġ
Ġ 1960Ġnian2Ġ
jin4 Ġqiu2Ġ
hua4 Ġji4Ġ
kai1 Ġguo2Ġ
ti3 Ġwei4Ġ
liao4 Ġli3Ġ
xie4 Ġren4Ġ
chun1 Ġjie2Ġ
col orĠ
Ġbu4Ġ fu4Ġbu4Ġzhang3Ġ
gong1Ġ zuo4
Ġqi2Ġ xia4
an4Ġ cha2Ġsi1Ġ
cai2Ġ zheng4Ġbu4Ġ
yin3Ġ ru4
jia3Ġ ban3Ġ
Ġping2Ġfang1Ġ ying1Ġli3Ġ
jie2Ġshu4 Ġshi2Ġ
Ġyi4Ġzhi2 Ġshi4Ġ
Ġniu3Ġyue1 Ġshi2Ġbao4Ġ
ĠĠĠst yleĠ
m ang3
Ġ yong1Ġ
Ġ zao3Ġqi1Ġ
ĠĠĠ fei1Ġ
ĠĠĠ dang1Ġshi2Ġ
shou3 Ġge4
wen2 Ġjian4
wei3 Ġren4Ġ
lv4 Ġhe2Ġ
jiang3 Ġzuo4Ġ
bai2 Ġgong1Ġ
ction Ġ
wei2Ġ qi1Ġ
Ġjun1Ġ qu1
wu3Ġ shu4Ġ
Ġju4Ġ jue2
shu1Ġ fa3Ġ
yue1Ġ han4
yan3Ġ xi2Ġ
ying4Ġ bi4Ġ
zi3Ġ mei4Ġ
da3Ġ bai4Ġ
han2Ġ shu4
Ġluo2Ġ ma3
ya1Ġ suo1Ġ
sĠĠĠ of
Ġxing2Ġzheng4Ġ qu1Ġhua4Ġ
Ġzui4Ġzhong1Ġ yu2Ġ
Ġhua4Ġ xue2Ġ
Ġmin2Ġ jin4Ġ
diao1Ġ su4
Ġ tui1Ġchu1Ġ
ti Ġ
shu4 Ġnian2Ġ
gai1 Ġshi4Ġ
ze2 Ġren4Ġwei2Ġ
wang2 Ġgong1Ġ
xian1 Ġshi4Ġ
zhi4Ġ shao3Ġ
si1Ġ xiang3
Ġri4 ĠĠĠ
dui4Ġ kang4
Ġer2 Ġyu3Ġ
Ġshe4 Ġshi4Ġ
qian2Ġ fang1Ġ
Ġzhan4Ġ sheng4Ġ
zui4Ġ zhang3ĠdeĠ
gai3Ġ zhuang1Ġ
mi4Ġ xie1Ġgen1
guan3Ġli3Ġ ju2
shu3ĠdeĠ dong4Ġwu4Ġ
qing4Ġ zhu4
ya3Ġ dian3Ġ
wu1Ġke4Ġlan2 ĠdeĠ
Ġjue2Ġ ding4
yi4Ġshi2Ġ dao4
Ġzhi4Ġzao4Ġ shang1Ġ
da1Ġ dang4Ġ
a1Ġgen1Ġ ting2
ĠĠĠ Ar
hou4 Ġbu4Ġ
ba1 Ġge4Ġ
sheng4 Ġxia4Ġ
yan4 Ġshi4Ġ
wang4 Ġsi1Ġ
xiong1 Ġzhang3Ġ
Ġbu4Ġ lei2Ġ
Ġguo2Ġjia1Ġ an1Ġquan2Ġ
Ġna4Ġ meĠ
xue2Ġxiao4 ĠdeĠ
- .
Ġ yao2
Ġ 1941
Ġ fa1Ġzhan3
Ġ ke3Ġyi3
Ġ gao1Ġzhong1Ġ
ĠĠĠ 2001
chu1 Ġxian4
sheng1 Ġshi2Ġ
zu3 Ġjian4
jing4 Ġwei4Ġ
gou4 Ġjian4Ġ
wei1 Ġer3Ġshi4Ġ
kun4 Ġnan2
di4Ġ shi2Ġ
yi1Ġ yang4Ġ
Ġyou3Ġ duo1Ġ
Ġgong1Ġ yue1Ġ
Ġyi3Ġ 3Ġ
ba1Ġ xi1
jia4Ġ zhi2
jiang3Ġ zhang1Ġ
zheng4Ġzhi4Ġ xie2Ġshang1Ġhui4Ġyi4Ġ
she4Ġ hui4ĠdeĠ
Ġjing1Ġ ying2Ġ
bu3Ġ chong1
xing2Ġzheng4Ġ qu1Ġ
bang1Ġzhu4Ġ xia4Ġ
cang1Ġ ku4Ġ
lei3Ġ da3Ġ
jie2Ġmu4 Ġzhong1Ġ
6 Ġgong1Ġli3Ġ
Ġ gan4
Ġ 1987
Ġ qing1Ġnian2Ġ
Ġ pang2Ġ
ĠĠĠ de2Ġ
ao4 Ġzhou1
ai2 Ġzheng4Ġ
wa3 Ġsi1Ġ
man3 Ġzhou1Ġ
qiang1 ĠdeĠ
mai3 Ġjia1Ġ
lan4 Ġ
ĠdeĠ cheng2Ġshi4Ġ
Ġshi4Ġ qian2Ġ
Ġbu4Ġ luo2Ġ
Ġzhi4Ġ xu4Ġ
Ġji2Ġ xing4Ġ
Ġyou3Ġ zheĠ
Ġli4Ġ xi1Ġ
Ġli4Ġ xian4Ġ
Ġcheng2Ġ nuo4
Ġhou4Ġ xu4Ġ
Ġdui4Ġ zhang3Ġ
Ġren4Ġ jiao4Ġ
yi2Ġ lan2
wu2Ġ xu1Ġ
zhuan1Ġ an4Ġ
ying3Ġxiang3Ġ li4ĠdeĠ
liu2Ġxing2Ġ yin1Ġyue4Ġ
wo1Ġ lun2Ġ
Ġli4Ġtao2Ġ wan3
Ġ Fi
yu n1
yi1 Ġhe2Ġ
you3 Ġwei4Ġ
si1 Ġwei4Ġ
shi3 Ġta1Ġ
zhan4 Ġjian4Ġ
dai4 Ġzai4Ġ
fu4 Ġli3Ġ
jiang1 Ġqi2
dan1 Ġshi4Ġ
wu2 Ġshi4Ġ
cai2 Ġfu4Ġ
zan4 Ġwu2Ġ
cui1 Ġhua4Ġ
yi1Ġ ji2Ġ
Ġdi4Ġ 3
Ġren2Ġ qun2Ġ
Ġyi1Ġ jiao3Ġ
li3Ġ si1Ġ
Ġyu3Ġ duo1Ġ
Ġbei4Ġ ge2Ġ
hua4Ġ ti2Ġ
la1Ġ ding1Ġ
ke1Ġ te4Ġ
gu3Ġ ge2Ġ
Ġquan2Ġ ti3Ġ
gong4Ġ xiang3Ġ
hu4Ġ zhao4Ġ
jie3Ġ mei4Ġ
Ġtong2Ġ meng2
du2Ġ xing4Ġ
shuang1Ġ fang1
wa3Ġ la1Ġ
li2Ġkai1Ġ leĠ
wai4Ġguo2Ġ ren2Ġ
gai3Ġbian1 Ġwei4Ġ
qiang3Ġ po4Ġ
Ġ 1970
Ġ 1979
Ġ fang4Ġ
zhu4 Ġshe4Ġ
ma3 Ġde2Ġ
tai4 Ġhe2Ġ
tang2 Ġdai4Ġ
Ġzai4Ġ du4
Ġri4 Ġji2Ġ
Ġyuan2Ġ xian1Ġ
Ġri4Ġ ji4Ġ
Ġxi1Ġ fang1
shu4Ġ xue2Ġjia1Ġ
lu4Ġ duan4
ge2Ġ lei1
jin1Ġ gang1Ġ
feng1Ġ bi4Ġ
yi2Ġ bu4ĠdeĠ
xuan3Ġ ba2
ba1Ġ he4
ao4Ġ fu2Ġ
gou4Ġ ru4Ġ
qian1Ġ mi3
tuo1Ġ li2
Ġtian1Ġ zhu3Ġjiao4Ġ
Ġshi4Ġdi4Ġ er4Ġ
ĠdeĠda4Ġ xing2Ġ
fan2Ġ rong2Ġ
Ġshi4Ġwei4Ġyu2Ġmei3Ġguo2Ġ mi4Ġsu1Ġli3Ġ
tian1Ġjin1 Ġshi4Ġ
r in
Ġ shan3
Ġ you3ĠdeĠ
Ġ cui1Ġ
Ġ duo2ĠdeĠ
Ġ ou1Ġyuan2Ġ
ĠĠĠ shou3Ġ
ĠĠĠ zhi3Ġ
shu4 Ġli4Ġ
duo1 Ġyu2Ġ
hua2 Ġyi4Ġ
bai4 Ġhou4Ġ
ĠdeĠ ge1Ġqu3Ġ
ming2Ġ yu4Ġ
Ġshang4Ġ su4Ġ
nei4Ġ zheng4Ġbu4Ġ
ya4Ġ ma3Ġ
Ġzhu4Ġ ce4Ġ
shu3Ġ wu4Ġzhong3Ġ
Ġjin1Ġ tian1Ġ
Ġnian2Ġ3Ġyue4Ġ 1Ġri4Ġ
leĠyi1Ġ zuo4Ġ
kai1Ġshi3 ĠdeĠ
Ġgai3Ġ bian1
chuan2Ġtong3 Ġshang4Ġ
can1Ġsai4Ġ zhe3Ġ
jie4Ġquan2Ġguo2Ġ ren2Ġda4Ġdai4Ġbiao3Ġ
Ġxiao3 Ġping2Ġ
mu4Ġbiao1 Ġshi4Ġ
fei1Ġli4Ġ pu3Ġ
m b
Ġ duan3Ġ
ĠĠĠ Ra
ĠĠĠ colspanĠ
jian4 Ġguo2Ġ
shuang1 Ġxiang4Ġ
pao4 Ġji1Ġ
Ġgong1Ġ wu4Ġyuan2Ġ
Ġdao4 Ġwei4Ġ
Ġyuan2Ġ yi4Ġ
Ġchu1 Ġwei4Ġ
Ġli3Ġ ya4
lai2Ġ shuo1
san1Ġ fen1Ġzhi1Ġ
ni2Ġ ao4Ġ
ban4Ġ chang3Ġ
shang1Ġ hai4
xi2Ġ guan4
yan2Ġjiu1 Ġzhong1Ġ
xu1Ġ ni3Ġ
tiao2Ġ yue1
jun1Ġ dui4
deng1Ġ chang2
hua2Ġren2Ġmin2Ġ gong4Ġhe2Ġ
Ġzhong1Ġyang1Ġ wei3Ġyuan2Ġhui4Ġ
ying4Ġyong4Ġ cheng2Ġshi4Ġ
ĠdeĠguan1Ġ dian3Ġ
Ġxin1Ġjia1Ġ po1Ġ
« Ġ
Ġ à
Ġ So
Ġ lou2Ġ
ĠĠĠ yi3
qian2 Ġli4Ġ
lin2 Ġhe2Ġ
se4 Ġhe2Ġ
tou2 Ġyu2Ġ
xian1 Ġzai4Ġ
ĠdeĠ zhi2Ġ
Ġbu4Ġ dui4ĠdeĠ
Ġzhi4Ġ da4Ġ
Ġyi4Ġ miao2Ġ
hou4Ġ bei4Ġ
zheng4Ġ jiao4Ġ
Ġhou4Ġ you4Ġ
dui4Ġ bi3Ġ
Ġer3 Ġjia1Ġ
jing1Ġ ling2Ġ
Ġke4Ġ lei2Ġ
Ġsheng1Ġ yin1Ġ
shan1Ġ lu4Ġ
lie4Ġ ning2Ġ
xiao4Ġ xiang4Ġ
yang2Ġ xing4Ġ
bian1Ġ jiang1Ġ
dang3Ġ wei3Ġshu1Ġji4Ġ
kong1Ġ xi2
pao4Ġ bing1Ġ
ĠĠĠzhong1Ġ hua2Ġmin2Ġguo2Ġ
Ġyi3Ġjing1 Ġbei4Ġ
Ġdi4Ġzhong1Ġ hai3Ġ
Ġfu2Ġlang3Ġ shen2Ġ
ka3Ġsi1Ġdi4Ġli4Ġ ya4Ġ
ï ¹
Ġ bo1Ġchu1Ġ
Ġ lin2Ġshi2Ġ
an1 Ġda4Ġ
jie2 Ġri4Ġ
deng3 Ġshi4Ġ
hua2 Ġnan2Ġ
chao1 Ġshi4Ġ
bu3 Ġshi2Ġ
kuan1 Ġdu4Ġ
xu2 Ġ
os Ġ
qiao4 Ġ
yuan2Ġ wai4Ġlang2Ġ
Ġguo2Ġ hui4Ġyi4Ġyuan2Ġ
Ġde2 Ġchu1Ġ
dai4Ġ ling3Ġ
yu4Ġ suan4
Ġjun1Ġ xian2Ġ
dian4Ġ zhan4Ġ
yi2Ġ dao3Ġ
zong3Ġ zhang3Ġ
Ġlu4Ġ xu4Ġ
tong2Ġ pai2Ġ
ĠdeĠyi1Ġ zuo4
Ġyin1Ġwei4Ġ zai4Ġ
hen3Ġ shao3
Ġnian2Ġ8Ġyue4Ġ 1Ġri4Ġ
Ġzhi3Ġ hui1Ġ
ĠdeĠhe2Ġ xin1Ġ
ao4Ġlin2Ġpi3Ġke4Ġ yun4Ġdong4Ġ
sa4Ġzhu1Ġ sai1
Ġback groundĠ
Ġ Pro
ĠĠĠ zhu3Ġ
zheng4 Ġren2Ġ
dui4 Ġzhong1Ġguo2Ġ
ma3 Ġzhou1Ġ
200 Ġ
qi4 Ġshi4Ġ
feng1 Ġli4Ġ
xing1 Ġren2Ġ
yang2 Ġren2Ġ
Ġzai4Ġ xiang1Ġgang3
bu4Ġ dui4Ġ
Ġdi4Ġ zhi3Ġ
Ġdao4Ġ qian4Ġ
Ġjia1Ġ zhou1
Ġta1Ġ kai1Ġshi3Ġ
shou3Ġ qiang1Ġ
dong1Ġ feng1Ġ
ding4Ġ ju1
ju1Ġ zhu4
gai4Ġ yao4Ġ
ĠĠĠA Ġ
dai4Ġbiao3 Ġda4Ġ
Ġzai4Ġyi1Ġ ci4Ġ
Ġbo1 Ġsi1Ġ
Ġzai4Ġjia1Ġ shang4Ġ
che1Ġren2Ġ ci4Ġ
2 Ġping2Ġfang1Ġgong1Ġli3Ġ
t ri
Ġ Bo
Ġ chan3Ġ
Ġ cao3Ġ
ĠĠĠ ceng2Ġ
le Ġhe2Ġ
zhan4 Ġxian4Ġ
zhu3 Ġji1Ġ
tong1 ĠdeĠ
ru2 Ġtong2Ġ
jia4 Ġwei4Ġ
1898 Ġnian2Ġ
shi2Ġ qi1ĠdeĠ
Ġbu4Ġ lun2Ġ
guan1Ġ zhi2Ġ
fen1Ġ wei2
Ġzuo4Ġ yong4
zui4Ġ xiao3Ġ
Ġlu4Ġ kou3Ġ
tu2Ġ sha1
Ġxiang4Ġ mu4
Ġqi2Ġzhong1Ġ yi2Ġge4Ġ
hui1Ġ se4Ġ
ĠdeĠshi2Ġ dai4Ġ
Ġma3 Ġsi1Ġ
zhui1Ġ sui2Ġ
Ġren4Ġwei2 Ġshi4Ġ
Ġji1Ġbai4 ĠleĠ
xin1Ġcheng2Ġ li4ĠdeĠ
Ġfei1Ġlv4Ġ bin1Ġ
R NA
i ĠĠĠ
Ġ ru3
Ġ pi1Ġping2Ġ
Ġ 1974Ġnian2Ġ
ĠĠĠ 188
ao4 Ġbu4Ġ
quan2 Ġyi4Ġ
kai1 ĠdeĠ
hai3 Ġzhan4Ġ
er4 Ġhao4Ġ
shen1 Ġke4Ġ
pai2 ĠdeĠ
jie3 Ġxi1Ġ
pi1 Ġquan2Ġguo2Ġzhong4Ġdian3Ġwen2Ġwu4Ġbao3Ġhu4Ġdan1Ġwei4Ġ
dun1 ĠdeĠ
DVD Ġ
Ġyue4Ġ kan1Ġ
Ġzhi4Ġ suo3Ġzai4Ġ
Ġda4Ġ ting1Ġ
Ġchu1 Ġshi4Ġ
shou3Ġ xi2
Ġren4Ġ nei4Ġ
bi4Ġ hua4Ġ
nv3Ġ xing4ĠdeĠ
sha1Ġ te4Ġ
Ġnian2Ġ9Ġyue4Ġ 1Ġri4Ġ
yi4Ġshi2Ġ dao4Ġ
ĠdeĠzuo4Ġ pin3
juan1Ġ zeng4
qi3Ġye4 Ġjia1Ġ
Ġkong3Ġtai4 Ġda4Ġqu1Ġ
Ġ jia1
Ġ ju2Ġ
Ġ ju3Ġxing2Ġ
Ġ ding3Ġ
e2 ĠdeĠ
ju4 Ġshi4Ġ
wen2 Ġhe2Ġ
fu2 Ġsi1Ġ
mian4 Ġyou3Ġ
jiu4 ĠdeĠ
su4 Ġwei4Ġ
gai3 Ġyou2Ġ
gang3 ĠdeĠ
ci2 Ġyu3Ġ
di1 Ġdi4Ġ
yang3 Ġhe2Ġ
pao4 ĠdeĠ
one Ġ
ation Ġ
Ġbu4Ġ lei2
Ġyi1Ġ dai4
Ġji4Ġ jie2Ġ
zhu4Ġ ru4Ġ
bo2Ġ lan3
ban4Ġ jing4Ġ
Ġye3Ġ ke3Ġ
can1Ġ ting1
qin1Ġ lve4Ġ
Ġqiang2Ġ diao4Ġ
wai4Ġjiao1Ġ guan1Ġxi4Ġ
4 Ġgong1Ġli3Ġ
w ĠĠĠ
Ġ 1984
Ġ cun2Ġzai4Ġ
ĠĠĠ ru2Ġguo3Ġ
suo3 Ġzhi1Ġ
lian2 Ġsi1Ġji1Ġ
sai4 Ġhe2Ġ
bo2 ĠdeĠ
chuan2 Ġcheng2Ġ
Ġwei4Ġ fu4Ġ
Ġdi4Ġ di
yuan2Ġ su4Ġ
Ġyi1Ġ kao4
Ġxi1Ġ yu3Ġ
ren4Ġ nei4Ġ
ping2Ġ jie4Ġ
nan2Ġ yan3Ġyuan2Ġ
Ġyin1 Ġzai4Ġ
shou3Ġ ge1Ġqu3Ġ
fen1Ġ kai1Ġ
fu2Ġ lu3Ġ
yao4Ġ sai4Ġ
yan2Ġjiu1 Ġshi4Ġ
yi3Ġ lai2
xiao1Ġ mie4
xie2Ġ hui4ĠdeĠ
tao2Ġ li2Ġ
ĠdeĠren2Ġ kou3Ġwei4Ġ
yin4Ġdu4Ġ jiao4Ġ
jue2Ġse4Ġ ban4Ġyan3
Ġji4Ġhua4 Ġzai4Ġ
guo4Ġqu4 ĠdeĠ
Ġ fa1Ġzhan3Ġ
Ġ mian4Ġdui4Ġ
ĠĠĠ hui4Ġ
zhang3 Ġshi2Ġjian1Ġ
shan1 Ġshang4Ġ
ni Ġ
chu4 Ġzai4Ġ
pei4 Ġsi1Ġ
il Ġ
1896 Ġnian2Ġ
Ġnian2 Ġshi4Ġjie4
Ġji2Ġ jie2Ġ
Ġge4 Ġshi4Ġ
Ġjun1 Ġjian4Ġ
zhe4Ġ zuo4Ġ
lian2Ġ xi4
shan1Ġ kou3Ġ
dan1Ġ dang1Ġ
bian4Ġ hua4ĠdeĠ
jian3Ġ yan4Ġ
sheng4Ġ dian4Ġ
jian4Ġ kang1
jie3Ġ pou1
ĠdeĠshi4Ġ wu4Ġ
Ġsui4 Ġdao4Ġ
Ġying1Ġ cun4Ġ
Ġbi3Ġ jiao4Ġ
jun4Ġ wang2Ġ
wan2Ġcheng2Ġ hou4Ġ
sun1Ġ ziĠ
Ġwai4Ġ jiao1
Ġren4 Ġzhong1Ġgong4Ġ
Ġ ban4
Ġ 78
Ġ Ne
Ġ 24Ġ
ĠĠĠ quan2
ĠĠĠ te4Ġ
ĠĠĠ hai3Ġ
ĠĠĠ gui3Ġdao4Ġ
ĠĠĠ 1999Ġnian2Ġ
li4 Ġnian2Ġ
fen1 Ġhui4Ġ
wu3 Ġri4Ġ
gu3 Ġji2Ġ
wei1 Ġsi1Ġ
ling2 Ġshi2Ġ
wen1 Ġhe2Ġ
che4 Ġchu1Ġ
Ġzhong1Ġ wu3Ġ
ji4Ġ yi4Ġ
zheng4Ġ wei3Ġ
zhi2Ġ jiao4Ġ
fa3Ġ ting2
fen1Ġ xi1
liu2Ġ chuan2
bao4Ġ dao3
Ġhao4 Ġshi4Ġ
bian4Ġ huan4
wu1Ġ ding3Ġ
dai4Ġbiao3Ġ tuan2
xuan2Ġ lv4Ġ
Ġguo2Ġmin2Ġ ge2Ġming4
Ġtang2Ġ chao2Ġ
Ġqi2Ġta1 Ġren2Ġ
jiao1Ġliu2 Ġdao4Ġ
Ġ bu2Ġhui4Ġ
li3 Ġwei4Ġ
sai4 Ġhui4Ġ
wu3 Ġji2Ġ
luo2 Ġyi1Ġ
89 Ġnian2Ġ
Ġzai4Ġ ju4Ġ
Ġshi2Ġ bu4Ġ
Ġyu2Ġ 2007
Ġxian4 Ġxing2Ġ
ji1Ġ hu1Ġ
Ġda4Ġ xiao3
Ġyi3Ġ ci3
Ġyu3Ġ yin1Ġ
Ġchu1Ġ shi3Ġ
bao3Ġ an1
chuan2Ġ fo2Ġjiao4Ġ
gang3Ġ kou3
Ġye3Ġ cheng1Ġwei2Ġ
zhong1ĠdeĠ yi2Ġge4Ġ
Ġluo2Ġ ne4Ġ
zhang4Ġ ai4
Ġpu3Ġ tong1Ġ
Ġao4 Ġzhou1Ġ
sun3Ġ shang1Ġ
Ġwei4Ġyu2Ġgai1Ġguo2Ġ zhong1Ġbu4Ġ
Ġxi1Ġla4 Ġ
zui4Ġhou4Ġyi1Ġ ci4Ġ
Ġping2 Ġjun1
ĠĠĠin ĠĠĠtheĠĠĠ
xiang4Ġmu4 ĠdeĠ
yin4Ġdi4Ġ an1Ġren2Ġ
Ġqi3 Ġchu1Ġ
chong2Ġqing4 Ġshi4Ġ
Ġzhi1Ġjia1Ġ ge1Ġ
ĠHR ĠĠĠ
qu1 Ġzai4Ġ
zhan4 Ġji1Ġ
fu4 Ġzai4Ġ
fa3 Ġli4Ġ
mu4 Ġji1Ġ
bei3 Ġwei4Ġ
ge1 Ġsi1Ġ
bang1 ĠdeĠ
re ĠĠĠ
Ġshi4Ġ tai2Ġwan1
Ġwei4Ġ ri4Ġben3Ġ
Ġyi1Ġ shu1Ġ
zuo4Ġ biao1Ġ
Ġer2Ġ si3Ġ
Ġbing4Ġ zhi3Ġyu2Ġ
jie1Ġ ceng2Ġ
ti3Ġ cao1Ġ
ti2Ġ jiao1
gai3Ġ liang2Ġ
Ġcheng2Ġwei2Ġ yi2Ġge4Ġ
ĠĠĠdi4Ġ ming2Ġ
Ġnian2Ġ6Ġyue4Ġ 1Ġri4Ġ
Ġzhi2Ġ ye4Ġ
dan4Ġ yao4Ġ
zao4Ġcheng2Ġ leĠ
wen1Ġ nuan3
ĠÃ ¶
tai2Ġfeng1Ġ jing3Ġbao4
Ġ zhuang4
Ġ heng1
Ġ 1978
Ġ 140
Ġ ya4Ġli4Ġshan1Ġda4Ġ
qi2 Ġxia4Ġ
ming2 Ġyu3Ġ
qu1 Ġzhi1Ġyi1Ġ
shu4 Ġzhi1Ġ
mei3 Ġren2Ġ
shou3 Ġzhi1Ġ
fan3 Ġfu4Ġ
zhuan3 Ġren4Ġ
pai4 Ġchu1
re4 Ġhe2Ġ
tui4 Ġchu1
1990 Ġnian2Ġdai4
1950 Ġnian2Ġdai4Ġ
chou3 Ġke1Ġ
MV Ġ
zhan4Ġ ting1Ġ
nan2Ġ ce4Ġ
Ġbei4Ġ sha1Ġ
Ġping2Ġ gu1Ġ
bi4Ġ ye4
bi4Ġ yao4
zi1Ġ ge2
ĠdeĠdi4Ġ xia4Ġ
chu3Ġ si3Ġ
Ġnei4Ġ rong2
jiao1Ġtong1 Ġbu4Ġ
ĠV Ġ
dong4Ġli4Ġ xue2Ġ
Ġrui4Ġ dian3Ġ
gan3Ġlan3 Ġqiu2Ġ
7 Ġming2Ġ
Ġ huo2Ġ
ao4 Ġke4Ġxi1Ġta3Ġni2Ġda4Ġqu1Ġ
er3 Ġsi1Ġ
san1 Ġhe2Ġ
zhe3 Ġzhi1Ġyi1Ġ
fang4 ĠdeĠ
zhao1 Ġmu4Ġ
Ġzai4Ġ gao1Ġ
Ġhe2Ġ yi3Ġ
Ġzhong1Ġ chang3Ġ
Ġyi4Ġ ri4Ġ
Ġer3Ġ fu1Ġ
jian1Ġ jin4Ġ
zhi2Ġ tong1Ġ
Ġbing4Ġ dan1Ġren4Ġ
Ġqi2Ġ jian1Ġ
Ġjin4 Ġcheng2Ġ
Ġzhan4Ġ chang3Ġ
ci3Ġ qian2Ġ
zhen4Ġ ya1
mei2Ġ you3Ġzai4Ġ
Ġgai1Ġ dang3
cai2Ġ pan4
fan4Ġ chou2Ġ
gu4Ġ zhang4Ġ
chong2Ġ bai4Ġ
Ġbo1Ġ lan2
cha1Ġ bie2Ġ
tong1Ġguo4 ĠdeĠ
sun3Ġ hai4Ġ
Ġshi4Ġyi4Ġ yuan2Ġ
gai3Ġbian1 Ġzi4Ġ
you3Ġbu4Ġ shao3Ġ
bo1Ġshi4Ġ dun4Ġ
n cludeĠ
Ġ 1940
Ġ 1944
hou4 Ġren2Ġ
jiang1 ĠdeĠ
zong3 Ġren2Ġkou3ĠdeĠ
mm Ġ
Ġhe2Ġ si1Ġ
Ġshi2Ġ wu3Ġ
yi4Ġ jian4Ġ
Ġdan4 Ġdao4Ġ
fu2Ġ la1Ġ
ting2Ġ liu2Ġ
yan2Ġjiu1 Ġren2Ġyuan2Ġ
ĠdeĠyi1Ġ yuan2Ġ
yin1Ġ mou2Ġ
zhen1Ġ zhu1Ġ
Ġsuo3Ġ shu3ĠdeĠ
ĠdeĠshi2Ġ wu4Ġ
song4Ġ wang3Ġ
Ġnv3Ġ xing4Ġwei4Ġ
ĠdeĠji4Ġ zai3Ġ
xia4Ġji4Ġ ao4Ġyun4Ġhui4Ġ
zhan4Ġzheng1 ĠdeĠ
huan2Ġjing4 Ġzhong1Ġ
ĠÑ Ģ
gao1Ġdeng3 Ġxue2Ġxiao4Ġ
fu2Ġlei2 Ġde2Ġ
lyi ncludeĠ
Ġon lyincludeĠ
T wit
c c
Ġ yi4
Ġ juan3
Ġ 2025Ġnian2Ġ
Ġ 1936Ġnian2Ġ
ĠĠĠ Ca
ji1 Ġwei4Ġ
bei4 Ġli4Ġ
shan1 Ġji2Ġ
cai2 Ġshi4Ġ
han3 Ġjian4Ġ
62 Ġ
sion Ġ
And ro
1895 Ġnian2Ġ
Ġshi4Ġ ji4
Ġzai4Ġ 17
Ġhe2Ġ hou4Ġ
ji1Ġ xie4Ġ
Ġzhi1 Ġren2Ġ
Ġge4 Ġji2Ġ
Ġzhou1 Ġzhi4Ġ
fa1Ġ dian4Ġji1Ġ
Ġdan4 Ġyu2Ġ
ye4Ġ zhe3Ġ
Ġtong2 Ġzhi1Ġ
ru4Ġ xue2Ġ
chang2Ġ chun1
lin2Ġ qu1Ġ
qing1Ġ chu3
kong1Ġ jian1ĠdeĠ
han2Ġ min2Ġguo2Ġ
wei3Ġyuan2Ġhui4Ġ zhu3Ġren4Ġ
chong1Ġ man3
lian4Ġ jie1Ġ
Ġqing1Ġ chao2
ning2Ġ bo1Ġ
e4Ġ lie4Ġ
Ġsan1 Ġge4Ġ
Ġyi4Ġzhi2 Ġdao4Ġ
Ġha1Ġer3Ġ bin1Ġshi4Ġ
tan4Ġxian3 Ġdui4Ġ
+ +
0 Ġbi3Ġ
8 Ġming2Ġ
Ġ tong1
Ġ chong2
Ġ xuan1
Ġ 1971Ġnian2Ġ
Ġ 1927Ġnian2Ġ
Ġ 1934Ġnian2Ġ
zhi2 Ġxian4Ġ
che1 Ġshang4Ġ
tian1 Ġdi4Ġ
qing1 Ġli3Ġ
tu2 Ġshang4Ġ
ku4 Ġsi1Ġ
ow Ġ
67 Ġ
rou2 Ġ
Ġshi2Ġ liu4
ji4Ġ zai3
Ġer3Ġ ba1Ġ
Ġfu4Ġ za2Ġ
zui4Ġ da4
an1Ġ da3Ġ
zong3Ġ jie2Ġ
Ġmei3 Ġjun1Ġ
Ġshu4Ġ zi4Ġ
rui4Ġ shi4ĠdeĠ
mou3Ġ zhong3Ġ
Ġer3Ġsi1Ġ ke4Ġ
Ġde2Ġli3Ġ ke4Ġ
Ġchu1Ġban3 ĠleĠ
Ġxin1Ġzeng1Ġ jing4Ġwai4Ġshu1Ġru4Ġ
Ġcom Ġ
Ġ To
Ġ 1933Ġnian2Ġ
li3 Ġyu2Ġ
yu4 Ġming2Ġ
ya4 Ġer3Ġ
er4 Ġge4Ġ
you4 Ġyou3Ġ
mo2 Ġer3Ġ
ji3 Ġwei4Ġ
âĢ ¢
gan3 Ġjun1Ġ
geng1 Ġdi4Ġ
sang4 Ġ
yi4Ġ zhi2Ġ
Ġyou3Ġ gong1Ġ
zhe4Ġ xiang4Ġ
tian1Ġ qiao2Ġ
Ġzhe4Ġ lei4Ġ
tai4Ġ lei1Ġ
na4Ġ ru4
bo1Ġ luo2Ġ
zheng1Ġ yi4ĠdeĠ
shuo1Ġ fu2Ġ
Ġwan4Ġ dun1Ġ
Ġgen1Ġju4Ġ 2010Ġnian2Ġmei3Ġguo2Ġren2Ġkou3Ġpu3Ġcha2Ġ
Ġgong1Ġsi1 Ġhe2Ġ
Ġwei4Ġyu2Ġgai1Ġguo2Ġ nan2Ġbu4Ġ
Ġshi4Ġjian4 Ġzhong1Ġ
sang1Ġ na4
xiu1Ġzheng4Ġ an4Ġ
na2Ġpo4Ġ lun2
min2Ġjin4Ġ dang3Ġ
Ġ pang2
Ġ 1960
Ġ lun4Ġ
Ġ xu1Ġyao4
Ġ zhan1Ġmu3Ġsi1Ġ
Ġ 1940Ġnian2Ġ
ĠĠĠ an4Ġ
ren4 Ġhou4Ġ
guan1 Ġyu3Ġ
mei3 Ġshi2Ġ
ke3 Ġgong1Ġ
liu2 Ġqiu2
shu3 ĠdeĠyi1Ġzhong3Ġ
kuo4 Ġjian4
mo2 Ġsi1Ġ
cai2 Ġbei4Ġ
wan4 Ġyuan2Ġ
ni3 ĠdeĠ
Ġshi4Ġ ying4Ġ
Ġyi4Ġ ke3Ġ
Ġyi3Ġ wai4
dui4Ġ ci3Ġ
Ġxi1Ġ bu4ĠdeĠ
xiang1Ġ cun1Ġ
zhu4Ġ yi4ĠdeĠshi4Ġ
Ġhuo4 Ġqi2Ġta1Ġ
wang2Ġ zi3
fu3Ġ bai4Ġ
Ġduo1Ġ ci4
Ġhe2Ġguo2Ġ ji4Ġ
pai4Ġ xi4Ġ
bing4Ġ fei1Ġ
leĠyi1Ġ chang2Ġ
Ġyin1Ġyue4Ġ hui4Ġ
pin2Ġ lv4
shui4Ġ mian2
Ġ2011 Ġnian2Ġ12Ġyue4Ġ31Ġri4Ġ
su1Ġlian2 ĠdeĠ
chai1Ġ chu2
zhuang1Ġwei4Ġ lin2Ġ
I ON
Ġ 1958
Ġ 1981
Ġ yuan2Ġshi4Ġ
ai1 Ġde2Ġ
yu3 Ġgong1Ġ
nan2 Ġda4Ġxue2Ġ
ban1 Ġji1Ġ
nuo4 Ġke4Ġ
bao2 Ġ
Î± Ġ
ĠdeĠ nian2
li4Ġ chang3Ġ
ji1Ġ xie4
Ġjian4 Ġzhi1Ġ
Ġbei4Ġ yu4Ġwei2Ġ
dong1Ġ hai3Ġ
zhang3Ġ zhou2
qi3Ġ fei1Ġ
mi3Ġ ya4
Ġzhong1Ġguo2Ġ gong1Ġ
mo2Ġ fang3Ġ
xiao1Ġ liang4
zhun3Ġ jue2Ġsai4Ġ
Ġnian2Ġ12Ġyue4Ġ 28Ġri4Ġ
ĠĠĠyi3Ġxia4 Ġwei4Ġ
a1Ġer3 Ġji2Ġli4Ġ
T T
Ġ gu1Ġji4Ġ
zhi4 ĠĠĠ
you3 Ġzhong1Ġ
ming2 Ġcheng2Ġ
fa3 Ġhui4Ġ
fen1 Ġzhi4Ġ
hai3 Ġdi4Ġ
lin2 Ġzai4Ġ
fei1 Ġer3Ġ
qian1 Ġnian2Ġ
hen4 Ġ
Ġzhong1Ġ yi3Ġ
Ġyi4Ġ fang1Ġmian4
fu4Ġ za2
nan2Ġ hai2Ġ
Ġshe4 Ġwei4Ġ
hua4Ġ fen1Ġwei4Ġ
Ġjian4Ġ zhu4ĠdeĠ
Ġqi2Ġ shou3Ġ
Ġzhan4Ġ bi3Ġ
jie1Ġ duan4ĠdeĠ
yi2Ġ ci4Ġshi4Ġjie4Ġda4Ġ
Ġdan4Ġ que4
Ġxiang1Ġ bi3
zhi1Ġ liu2Ġ
wei1Ġ ruan3
Ġnan2 Ġyu3Ġ
ĠdeĠzhong1Ġ xin1Ġ
shao1Ġ hui3Ġ
Ġshi2Ġzi4Ġ lv4Ġ
wai4Ġjiao1Ġ guan1Ġ
bao3Ġjia1 Ġli4Ġya4
bao1Ġkuo4Ġyi3Ġxia4Ġ wu4Ġzhong3Ġ
zhu1Ġshi4Ġhui4Ġ she4Ġ
Ġ qian3
Ġ tu3Ġdi4Ġ
Ġ 1973Ġnian2Ġ
ĠĠĠ dian4Ġying3Ġ
you2 Ġshi4Ġ
gai3 Ġcheng2Ġ
jiu3 Ġzhou1Ġ
ban3 Ġhe2Ġ
tun2 Ġmen2Ġ
ll Ġ
tiao1 Ġ
pei1 Ġ
Ġji4Ġ jun1Ġ
Ġxing2Ġ dian4Ġli4Ġ
Ġchu1 Ġxian4Ġyu2Ġ
Ġer2 Ġchu1Ġ
jie1Ġ bo2Ġ
qi3Ġ dian3Ġ
chu1Ġ lai2Ġ
zhi1Ġ jian1
jiang3Ġ hua4Ġ
hai2Ġ yao4Ġ
hai2Ġ mei2Ġyou3Ġ
zhuan1Ġ yong4
Ġzui4Ġzhong1Ġ yi3Ġ
zu2Ġqiu2Ġ jia3Ġji2Ġ
ĠdeĠyi4Ġ jian4Ġ
Ġao4Ġ men2
san1Ġshi2Ġ si4Ġnian2Ġ
yi4Ġshi2Ġ xing2Ġtai4Ġ
Ġguo2Ġwu4Ġ yuan4
Ġyi1Ġli4Ġ sha1Ġbai2Ġ
Ġyi1Ġsi1Ġlan2Ġ jiao4Ġ
tong2Ġxing4Ġ lian4Ġ
Ġhei1Ġlong2Ġjiang1Ġ sheng3Ġ
zhu3Ġjiao4Ġzuo4Ġ tang2Ġ
da2Ġke1 Ġta1Ġ
Ġ bei1
Ġ Lo
Ġ 1931Ġnian2Ġ
ĠĠĠ wan4Ġli4Ġ
mi n
ming2 Ġdi4Ġ
you2 Ġhe2Ġ
xin1 Ġyi4Ġ
te4 Ġshe4Ġ
qi4 Ġji1Ġ
du2 Ġjia1Ġ
chen2 Ġshi4Ġ
ta3 Ġli4Ġ
bai3 Ġren2Ġ
Ġbu4Ġ jian4Ġ
Ġbu4Ġ yi3Ġ
Ġli4Ġ fang1Ġ
Ġyi1Ġ tiao2
Ġqi2 Ġhe2Ġ
Ġta1Ġ hui4Ġ
Ġxi1Ġ lu4Ġ
Ġli3Ġ jie3Ġ
shou3Ġ pi1Ġ
jie2Ġ yun4Ġ
fen1Ġ jie3Ġ
Ġyin1Ġ ziĠ
Ġdai4Ġ ma3Ġ
yi2Ġ chu2Ġ
ying3Ġ ye4Ġ
sha1Ġ mo4Ġ
chu1Ġ xi2Ġ
ci2Ġ qu4Ġ
gang1Ġ tie3
Ġba1Ġ li2Ġ
Ġãģ Ħ
Ġri4Ġben3 Ġren2Ġ
ya4Ġli4Ġ sang1Ġna4
dao3Ġshi4Ġ yue4Ġtai2Ġ
Ġfu4Ġze2 Ġren2Ġ
cheng2Ġnian2Ġ ren2Ġ
Ġ xiao4
Ġ bang1Ġ
Ġ man3Ġ
Ġ nan2Ġbu4Ġ
Ġ shang1Ġye4Ġ
Ġ he4Ġer3Ġ
ĠĠĠ zhe4
ĠĠĠ feng1Ġ
lie4 Ġren2Ġ
10 Ġshi2Ġ
da2 Ġli4Ġ
zhang1 Ġcheng2Ġ
tuan2 Ġyuan2Ġ
pai4 Ġdui4Ġ
da3 Ġchu1Ġ
lian4 ĠdeĠ
hun1 Ġhou4Ġ
64 Ġ
yi1Ġ ci4Ġ
Ġli4Ġ wu4Ġ
Ġyi3 Ġshi2Ġ
Ġyi1Ġ shi4ĠdeĠ
ming2Ġ xian3ĠdeĠ
Ġjia1Ġ er3
xia4Ġ shu3
xia4Ġ xia2Ġ
Ġjin4 Ġjun1Ġ
ci3Ġ lei4Ġ
bo1Ġ li2
ceng2Ġ dan1Ġren4Ġ
wang3Ġ ye4Ġ
jian3Ġ ruo4Ġ
tang2Ġ chao2Ġ
fang2Ġ hu4Ġ
xuan1Ġbu4Ġ jiang1Ġ
zhong1Ġshi4Ġ yan3Ġ
ĠĠĠyi1Ġ xie1Ġ
zhong3Ġjia1Ġ ci2Ġ
Ġ ju1
Ġ cang2
Ġ yan1
Ġ hui2Ġdao4Ġ
Ġ 1959Ġnian2Ġ
ĠĠĠ di
mi u4
de2 Ġjun1Ġ
ma3 Ġshang4Ġ
bing1 Ġhe2Ġ
wan3 Ġhui4Ġ
77 Ġnian2Ġ
ji2Ġ tuan2Ġ
Ġgong1Ġ zhu3
Ġyi1Ġ liang4Ġ
yu4Ġ nan4Ġ
min2Ġ yong4Ġ
zhe4Ġ chang3Ġ
Ġdui4Ġ zhen4Ġ
bei3Ġ shang4Ġ
shi1Ġ ge1Ġ
jie1Ġ dai4Ġ
mi3Ġ lan2Ġ
dan1Ġ ni2Ġer3Ġ
Ġyou2 Ġji1Ġche1Ġ
ke3Ġyi3Ġ bei4Ġ
xiao1Ġ fang2
Ġmu4Ġ biao1Ġ
ĠĠĠdi4Ġ san1Ġ
ge4Ġ lei4
Ġyou3Ġyi1Ġ zuo4Ġ
tan4Ġ xian3Ġ
Ġcong2 Ġer2
Ġsu1Ġ lian2
Ġyong4Ġ hu4Ġ
zhi1Ġchi2Ġ zhe3Ġ
Ġwan4Ġren2Ġ ci4Ġ
di2Ġshi4Ġ ni2
nan2Ġsi1Ġla1Ġ fu1Ġ
Ġhua2Ġsheng4Ġ dun4
N H
Ġ jiao1
Ġ 1939
Ġ 1953Ġnian2Ġ
ĠĠĠ Bo
hou4 Ġyou3Ġ
wei2 Ġshi4Ġ
zhi3 Ġhui4Ġ
nv3 Ġsheng1Ġ
ban3 Ġshang4Ġ
guo3 Ġshi2Ġ
teng2 Ġyuan2Ġ
Ġwei4Ġ zheng4Ġ
Ġli4Ġ liang4
bei3Ġ fang1
ma3Ġ lu4Ġ
yi2Ġ ju1
lin2Ġ sheng3Ġ
ao4Ġ duo1Ġ
ting2Ġ huo3Ġ
tuan2Ġ dui4
Ġjiao4Ġ tang2Ġ
fei4Ġ zhi3Ġ
gu4Ġ shi4ĠdeĠ
nuo4Ġ fu1
Ġduo1 Ġnian2Ġ
Ġwei4Ġdi4Ġ xia4Ġ
Ġfen1Ġbu4Ġyu2Ġ nan2Ġmei3Ġzhou1Ġ
an1Ġde2Ġ lie4Ġ
Ġwei4Ġyu2Ġgai1Ġ sheng3
â ħ
Ġ zeng1
Ġ CO
Ġ fa1Ġsheng1Ġ
en sisĠ
ĠĠĠ yan2Ġ
ĠĠĠ long2Ġ
xi1 Ġri4Ġ
wen2 Ġshi4Ġ
mu4 Ġhe2Ġ
ding4 Ġshi4Ġ
zi Ġzai4Ġ
10 Ġren2Ġ
zao3 Ġyi3Ġ
Ġzai4Ġ tai2Ġwan1
Ġji2Ġ bei4Ġ
Ġli4Ġ ren4
Ġli4Ġ yuan2Ġ
Ġji4Ġ neng2Ġ
Ġer2 Ġqi2Ġ
lian2Ġ suo3Ġ
chang3Ġ shang1Ġ
er4Ġ shi4ĠdeĠ
gai3Ġ yong4Ġ
ke4Ġ lai2Ġ
qian1Ġ yi2Ġ
Ġda4Ġxue2Ġ sheng1Ġ
huo3Ġ zai1
wei3Ġyuan2Ġhui4Ġ fu4Ġzhu3Ġren4Ġ
gen1Ġju4 Ġdi4Ġ
Ġben3 Ġyu2Ġ
ĠĠĠzao3Ġnian2Ġ sheng1Ġhuo2Ġ
Ġ Ä
Ġ liao2
a1 Ġke4Ġ
qi2 Ġzhi4Ġ
wai4 Ġdi4Ġ
ge1 Ġhe2Ġ
dian3 Ġzhan4Ġ
bing1 Ġdui4Ġ
xiao1 Ġhao4Ġ
xun2 Ġqiu2
80 Ġnian2Ġdai4Ġ
guai4 Ġwu4Ġ
79 Ġnian2Ġ
76 Ġnian2Ġ
95 Ġnian2Ġ
Ġshi4Ġ yin1Ġ
yu2Ġ le4Ġ
yu3Ġ zhou4
ren4Ġ tong2Ġ
zhang3Ġ guan1
Ġzuo4Ġ wei2Ġyi1Ġ
zui4Ġ di1
tai4Ġ lang2Ġ
Ġzi4Ġ cheng1Ġ
Ġxiang1Ġ xin4
ti2Ġ qin2
Ġnan2Ġ fei1Ġ
si3Ġ qu4Ġ
lian4Ġ xi2
ĠĠĠshi4Ġ jie4Ġ
niao3Ġ lei4
cuo4Ġ wu4ĠdeĠ
zhan4Ġzheng1Ġ qi1Ġjian1Ġ
Ġji1Ġben3Ġ shang4Ġ
bu2Ġ hui4Ġzai4Ġ
ĠĠĠben3Ġshu3Ġ bao1Ġkuo4Ġyi3Ġxia4Ġwu4Ġzhong3Ġ
Ġ shang1
Ġ zao3Ġzai4Ġ
ĠĠĠ Ja
ĠĠĠ ao4Ġ
ĠĠĠ ren2Ġwu4Ġ
ĠĠĠ guang1Ġxu4Ġ
yong4 Ġyu3Ġ
san1 Ġri4Ġ
tai2 Ġhou4Ġ
gai3 Ġjian4Ġ
jiu1 Ġfen1Ġ
65 Ġ
51 Ġ
1889 Ġnian2Ġ
Ġzai4Ġ jian4Ġ
Ġbu4Ġ shu3
Ġzhi4Ġ pian4Ġren2Ġ
Ġli4Ġ zhi1Ġ
Ġxi1Ġ ni2Ġ
ju4Ġ luo4Ġ
Ġzhan4Ġ dui4Ġ
Ġzheng4Ġ wu4Ġ
ti3Ġ cao1
shou4Ġ piao4Ġ
qing1Ġ chen2Ġ
Ġxin1Ġ zhu2
dan1Ġ du2
gou4Ġ zao4
geng4Ġ hao3ĠdeĠ
po4Ġ chan3Ġ
zong1Ġ se4Ġ
Ġceng2 Ġwei4Ġ
ĠĠĠshi4Ġ jian4Ġ
hun4Ġ luan4
ĠĠĠgong1Ġ yuan2Ġ
jiang1Ġxi1Ġ sheng3Ġ
ke4Ġli3Ġ mi3Ġya4Ġ
mu4Ġni2Ġ hei1
ju4Ġfeng1 Ġzhong1Ġxin1Ġ
Ġ lao2
Ġ nu3
Ġ yi1Ġshi4Ġ
Ġ 1962Ġnian2Ġ
ĠĠĠ 20
ĠĠĠ ma
xi1 Ġdao4Ġ
lu4 Ġzhong1Ġ
che1 Ġhe2Ġ
gai1 Ġgong1Ġsi1Ġ
chuan2 Ġdao4Ġ
kong1 ĠdeĠ
di3 Ġyu4Ġ
liao4 ĠdeĠ
yang1 Ġshi4Ġ
mou3 Ġyi1Ġ
shui4 Ġwu4Ġ
pu4 Ġbu4Ġ
ore Ġ
Ġzai4Ġ guo2Ġ
Ġli4Ġ wei2Ġ
zhu3Ġ ban4
lian2Ġ tong2Ġ
chang2Ġ yong4Ġ
bi4Ġ hu4Ġ
bian4Ġ dong4Ġ
jiu4Ġ zhi2Ġ
hua2Ġ bing1Ġ
ĠdeĠgong1Ġ gong4Ġ
shao4Ġ jiang4
Ġjin3Ġguan3Ġ ru2Ġci3Ġ
t ra
Ġ kua4
Ġ My
Ġ pi1Ġ
Ġ zhu2Ġjian4Ġ
Ġ wu3Ġnian2Ġ
Ġ ji2Ġshi4Ġ
ĠĠĠ mo4Ġ
ãĢ ķ
jie4 Ġyu2Ġ
shan1 Ġzhan4Ġ
hu4 Ġli3Ġ
ta3 ĠdeĠ
zhang4 Ġhao4Ġ
duan3 Ġqi1Ġ
tiao3 Ġzhan4
99 Ġnian2Ġ
74 Ġnian2Ġ
mer i
he2Ġ yue1Ġ
bu4Ġ tong2
Ġdi4Ġ 5Ġ
Ġyu2Ġ 8Ġyue4Ġ
Ġge4Ġ ti3Ġ
xin1Ġ tai2Ġbi4Ġ
Ġdan4 Ġyou3Ġ
Ġtong2 Ġnian2Ġ7Ġyue4Ġ
yi2Ġ ti3Ġ
shou4Ġ piao4
ba1Ġ sai1Ġer3Ġ
chan3Ġ jie1Ġji2Ġ
zheng4Ġzhi4Ġ wei3Ġyuan2Ġ
qin1Ġ fan4Ġ
Ġshi1Ġ fan4
chu3Ġ fa2Ġ
ĠdeĠshi2Ġ qi1Ġ
Ġfan3 Ġer2Ġ
xiang1Ġshi4Ġ ju3Ġren2Ġ
Ġqi2Ġzhong1Ġnan2Ġ xing4Ġwei4Ġ
zhu1Ġlong2Ġ cao3Ġ
nuo4Ġman4Ġ di3
hun4Ġxiao2 Ġ
Ġ en1
Ġ tu2
Ġ zhui1
Ġ fa1Ġxing2
xin1 Ġnian2Ġ
xin1 Ġshi4Ġzhen4Ġ
tai2 Ġda4Ġ
shou4 Ġquan2
ze2 Ġhui4Ġ
bi3 Ġji4Ġ
qi4 Ġzhi4Ġ
bao4 Ġming2Ġ
mo2 ĠdeĠ
yang4 Ġshi4Ġ
tes Ġ
Ġwei4Ġ jun1Ġ
Ġdi4Ġ yi2Ġge4
Ġyu2Ġ da4Ġ
Ġren2Ġ qi4Ġ
Ġren2Ġ yuan2ĠdeĠ
shu4Ġ ji2Ġshi4Ġ
zhi2Ġ quan2Ġ
Ġzhan4Ġ shu4Ġ
Ġzheng4Ġ mian4Ġ
shan1Ġ dong1
liu2Ġ jing1Ġ
ĠdeĠyi1Ġ ming2Ġ
Ġshou3Ġ fu3
Ġmei3 Ġzhou1
leĠyi1Ġ xiang4Ġ
da4Ġbu4Ġfen4 ĠdeĠ
reng2Ġran2 Ġshi4Ġ
si1Ġdi4Ġ fen1Ġ
Ġda4Ġjiang3Ġ sai4Ġ
zhi2Ġlu4 Ġhou4Ġ
Ġ rui4
Ġ 1947
Ġ 1928Ġnian2Ġ
ãĢ Ķ
zhi1 Ġfu4Ġ
chu1 ĠdeĠ
ping2 Ġhe2Ġ
xing4 Ġxing2Ġwei4Ġ
ti3 Ġshi4Ġ
shan1 Ġcheng2Ġ
bo1 Ġji2Ġ
jin3 Ġshi4Ġ
st ra
56 Ġ
ht t
Ġshi4Ġ ji4Ġshi2Ġ
Ġzhi4Ġ an1Ġ
Ġde2Ġ guo2ĠdeĠ
dian4Ġ ya1Ġ
sai4Ġ ting3
ke1Ġ luo2Ġla1Ġ
zong3Ġ bing1Ġ
wu2Ġ xiao4Ġ
sha1Ġ shou3Ġ
shang1Ġ pin3
ĠdeĠdi4Ġ di
ĠdeĠdi4Ġ yi1Ġbu4Ġ
xiao1Ġ mie4Ġ
hui2Ġ xiang3Ġ
Ġshi4Ġjie4Ġ yi2Ġchan3Ġ
Ġmei3Ġ ci4Ġ
2001Ġnian2Ġ zong3Ġren2Ġkou3Ġ
Ġsui2Ġ hou4Ġzai4Ġ
mou3Ġ zhong3
fan3Ġying4 ĠleĠ
Ġhe2Ġbing4 Ġer2Ġcheng2Ġ
da3Ġji1Ġ lv4Ġ
ĠĠĠgai1Ġdi4Ġ 2001Ġnian2Ġzong3Ġren2Ġkou3Ġ
1 Ġgong1Ġli3Ġ
Ġ hou2
Ġ 120
Ġ à¤
Ġ 1965Ġnian2Ġ
le Ġzhong1Ġ
mei3 ĠdeĠ
dang3 Ġzhu3Ġxi2Ġ
ruo4 ĠdeĠ
niu3 Ġxi1Ġlan2Ġ
meng3 Ġgu3Ġ
83 Ġnian2Ġ
Ġyi3 Ġyi1Ġ
Ġyi1Ġ duan4
ming2Ġ ci2Ġ
guan1Ġ jie2Ġ
yu4Ġ qi1Ġ
xiang4Ġ zheng1
Ġzuo4Ġ wu4Ġ
Ġtong2 Ġming2Ġ
xing4Ġ zhi4ĠdeĠ
Ġshe4Ġ hui4ĠdeĠ
che1Ġ chang3Ġ
zong3Ġ gong4Ġ
sha1Ġ si3
sheng4Ġ bi3Ġde2Ġ
zu2Ġ gou4
wei3Ġ ren4Ġwei4Ġ
yin3Ġ dao3Ġ
bing1Ġ tuan2
bai2Ġ jin1Ġ
xun2Ġ wen4Ġ
Ġzhe4 Ġwei4Ġ
piao4Ġ fang2
Ġnian2Ġdai4 Ġwei4Ġ
Ġ6 Ġsui4Ġren2Ġkou3Ġ
Ġchong2Ġ qing4
Ġxi1 Ġri4Ġben3Ġ
gan1Ġsu4Ġ sheng3Ġ
gui1Ġlei4 Ġwei4Ġ
wu1Ġlu3Ġ mu4
Ġ yi
Ġ xia2
Ġ huan4
Ġ Ta
Ġ chan3Ġsheng1Ġ
Ġ xi1Ġbu4Ġ
Ġ zhan1Ġ
ĠĠĠ tong2Ġshi2Ġ
en1 ĠdeĠ
ju4 Ġli4Ġ
min2 Ġzai4Ġ
hong2 Ġqi2Ġ
Inter national
Ġyi3 Ġzhi4Ġyu2Ġ
Ġge4 Ġshi4Ġzhen4
Ġping2Ġ heng2Ġ
xing4Ġ xin1Ġ
xiao3Ġ zhen4Ġ
ti2Ġ qin2Ġ
bian4Ġ liang4Ġ
jiu4Ġ jin1Ġshan1Ġ
shu3Ġ shu3Ġ
Ġtong2Ġ meng2Ġ
gan3Ġ shou4Ġ
qiu2Ġ dui4ĠdeĠ
ran2Ġ shao1
xiao1Ġfei4Ġ zhe3Ġ
jiao1Ġcha1Ġ kou3Ġ
hun4Ġning2Ġ tu3Ġ
qing1Ġzhen1Ġ si4Ġ
b ur
Ġ meng2Ġgu3Ġ
Ġ 1941Ġnian2Ġ
Ġ 1951Ġnian2Ġ
ĠĠĠ 1945
ĠĠĠ zuo4Ġpin3Ġ
guan1 Ġzhong1Ġ
fa3 Ġxi1Ġsi1Ġ
fen1 Ġdui4Ġ
dian4 Ġji2Ġ
han4 Ġwei4Ġ
song4 ĠdeĠ
lou2 Ġgao1Ġ
hen2 Ġji4Ġ
wei4Ġ lai2Ġ
Ġzai4Ġ ben3Ġ
Ġhe2Ġ bei4Ġ
Ġjia1Ġ da4Ġ
ping2Ġ deng3Ġ
jing1Ġ du1
jing1Ġ que4Ġ
wen2Ġ zi4
jie2Ġ zou4
dian4Ġ chang3Ġ
ti3Ġ zhong4Ġ
shu1Ġ dian4Ġ
zong3Ġ zhi2Ġ
yin3Ġ cang2
fang2Ġ ziĠ
qiang2Ġ lie4
hu2Ġ guang3Ġ
chu3Ġ fen4Ġ
qiao2Ġ liang2
Ġmei3Ġguo2Ġ guo2Ġjia1Ġ
ju3Ġban4 ĠleĠ
lan2Ġke4Ġ lin2Ġ
can1Ġmou2 Ġbu4Ġ
Ġbei3Ġjing1 Ġshi4Ġ
Ġ po4
Ġ lai4
Ġ tong3Ġyi1Ġ
Ġ yin4Ġni2Ġ
te4 Ġyi4Ġ
zui4 Ġjin4
chang2 Ġnian2Ġ
gu3 Ġquan2Ġ
su4 Ġshi2Ġ
jing3 ĠdeĠ
fang4 Ġda4Ġ
chuan1 Ġjia1Ġ
50 Ġmi3Ġ
lo gy
cu4 Ġshi3Ġ
1930 Ġnian2Ġdai4Ġ
xia1 Ġ
Ġzai4Ġ zhe4Ġli3Ġ
Ġbu4Ġ ke3
zhi4Ġ liang4Ġ
Ġgong1Ġ wu4Ġ
Ġyi1Ġ guo2Ġ
Ġer3 Ġji1Ġ
Ġde2Ġ piao4Ġ
hua4Ġ wu4Ġ
jing1Ġ shi1Ġ
dong4Ġ ci2Ġ
Ġqi2Ġ shi1Ġ
Ġyou2Ġ mei3Ġguo2Ġ
ba1Ġ na2
Ġyi3Ġji2Ġ qi2Ġta1Ġ
ming4Ġ zhong4Ġ
gu4Ġ ti3Ġ
Ġgu4Ġ ci3Ġ
ĠdeĠhe2Ġ zuo4Ġ
ling3Ġdao3Ġ xia4Ġ
Ġwei4Ġyu2Ġfa3Ġguo2Ġ da4Ġdong1Ġbu4Ġda4Ġqu1Ġ
zuo4Ġpin3 ĠdeĠ
zhan3Ġshi4Ġ leĠ
ĠĠĠyin1Ġ ci3Ġ
3 Ġfen1Ġ
Ġ gen1
Ġ heng2
Ġ shen3
Ġ 32
Ġ 1937
Ġ zuo3Ġyou4Ġ
ĠĠĠ ha1Ġ
ming2 Ġcheng2Ġyuan2Ġ
zhou1 Ġshi4Ġ
feng1 Ġshi4Ġ
shui3 Ġwei4Ġ
jin3 Ġzai4Ġ
zhuan1 Ġxian4Ġ
pei4 Ġyin1Ġyuan2Ġ
st o
tuo3 Ġyuan2Ġxing2Ġ
93 Ġnian2Ġ
Ġzai4Ġ a1Ġ
he2Ġ zuo4Ġ
Ġzhong1Ġ suo3Ġ
Ġyou3Ġ ke1Ġ
Ġyuan2Ġ xian1
Ġli3Ġ mian4Ġ
Ġer2 Ġta1Ġ
Ġwei2Ġ ye3Ġ
Ġke4Ġ yun4
shan1Ġ gu3Ġ
chang2Ġ jiang1
Ġshe4Ġ ru4Ġ
jiao1Ġ xiang3
ban4Ġ lv3Ġ
huo4Ġ bi4
chuang4Ġ li4ĠdeĠ
Ġnian2Ġ5Ġyue4Ġ 1Ġri4Ġ
diao4Ġcha2Ġ ju2Ġ
fa2Ġ kuan3Ġ
ĠdeĠyi4Ġ yi4Ġ
zu1Ġ lin4
tian1Ġran2Ġ qi4Ġ
Ġ 1943
ĠĠĠ d
ĠĠĠ suo3Ġyou3Ġ
du4 Ġyu3Ġ
ze2 Ġshi4Ġzai4Ġ
sheng3 ĠdeĠyi2Ġge4Ġ
xiang3 Ġdao4Ġ
shou1 Ġyi4Ġ
ke Ġ
Ġbu4Ġ xu1Ġyao4Ġ
Ġli4Ġ zhi4Ġ
Ġyi4Ġ ri4
jia1Ġ su4Ġ
Ġyi1Ġ shuo1Ġ
Ġzhi1 Ġcheng2Ġ
Ġda4Ġ yuan2Ġ
Ġyi3Ġ xia4ĠdeĠ
nan2Ġ nv3Ġ
Ġdan4 Ġsheng1Ġ
gao1Ġ xiong2Ġ
Ġquan2 Ġnian2Ġ
si4Ġ ci4Ġ
qing1Ġ xiang4Ġyu2Ġ
Ġquan2Ġ shu1Ġ
gang3Ġ qu1Ġ
tang2Ġ na4Ġ
ĠdeĠdi4Ġ fang1
huang2Ġ pu3Ġ
mo2Ġ luo4Ġ
Ġshi4Ġyi1Ġ ming2
bai2Ġ e2Ġluo2Ġsi1Ġ
tu1Ġ jue2
Ġchu1Ġban3 ĠdeĠ
Ġxian4ĠdeĠyi2Ġge4 Ġcheng2Ġzhen4Ġ
zhu3Ġti2 ĠdeĠ
Ġshi4Ġwu1Ġke4Ġlan2 ĠdeĠ
Ġlu4Ġyi4Ġ si1Ġ
yi3Ġse4Ġ lie4Ġ
ĠĠĠwai4Ġbu4Ġ lian2Ġjie2Ġ
ye2Ġlu4Ġsa1Ġ leng3
ling3Ġxian2 Ġzhu3Ġyan3Ġ
f fi
t ang3
Ġ 33
Ġ ba1Ġshi4Ġ
Ġ hou2Ġ
ĠĠĠ se
ĠĠĠ tai4Ġ
ĠĠĠ han4Ġ
le Ġta1ĠmenĠdeĠ
zhang3 Ġshi4Ġ
guan3 Ġhe2Ġ
liang3 Ġdi4Ġ
hua2 Ġshi4Ġ
bian4 Ġyi4Ġ
bo2 Ġming2Ġ
na meĠ
Ġshi4Ġ luo2Ġma3Ġ
da4Ġ xi1Ġyang2Ġ
Ġgong1Ġ shu3Ġ
wei2Ġ hu4
Ġda4Ġ tong2Ġ
Ġjin4 Ġnian2Ġlai2Ġ
duo1Ġ da2Ġ
zhi3Ġ ding4Ġwei4Ġ
bi3Ġ jiao4
ya4Ġ na4Ġ
shen1Ġ shou4Ġ
dou1Ġ neng2Ġ
Ġping2Ġfang1Ġ qian1Ġmi3
chuang4Ġ ye4Ġ
chi3Ġ cun4Ġ
bei1Ġ guan4Ġjun1Ġ
Ġshi3 Ġdi4Ġ
kan4Ġ qi3Ġlai2Ġ
jiao4Ġyu4 ĠdeĠ
Ġguo2Ġjia1 Ġhe2Ġ
ge2Ġming4 Ġhou4Ġ
Ġji1Ġgou4 ĠdeĠ
si1Ġlan2Ġ jiao4Ġ
Ġ lun2
Ġ hu1
Ġ Lu
Ġ dang4Ġtian1Ġ
Ġ 1939Ġnian2Ġ
Ġ 1957Ġnian2Ġ
Ġ 1961Ġnian2Ġ
Ġ 1930Ġnian2Ġ
Ġ 1912Ġnian2Ġ
ĠĠĠ xiao3Ġxing2Ġxing1Ġ
10 Ġmi3Ġ
da2 Ġdao4
na4 Ġshi2Ġ
ling3 Ġnan2Ġ
tian2 Ġshi4Ġ
63 Ġ
feng3 Ġci4Ġ
Ġshi4Ġ yue4Ġ
you3Ġ yi1Ġ
Ġdi4Ġ wu3
wei2Ġ duo1Ġli4Ġya4Ġ
Ġli3Ġ hui4Ġ
ren4Ġ wu4
xiang1Ġ si4ĠdeĠ
shou3Ġ qiu2Ġ
zhi2Ġ lu4Ġ
zhi2Ġ neng2Ġ
ma3Ġ tou2
Ġxue2Ġ ke1Ġ
qi3Ġ yong4
Ġju4Ġ shuo1Ġ
ding4Ġ yi4ĠdeĠ
yue1Ġ 2
bian4Ġ hu4Ġ
gong4Ġ feng4
pai2Ġ xu4Ġ
ying2Ġ yang3Ġ
zhu1Ġ ru2Ġ
tie3Ġ lu4Ġxian4Ġ
si3Ġ wang2ĠdeĠ
Ġmei3 ĠdeĠ
bu3Ġ chang2Ġ
yuan3Ġ zheng1
ruo4Ġ gan1Ġ
Ġnv3Ġ xing4
Ġzhi1Ġchi2Ġ zhe3Ġ
Ġgai1Ġsheng3Ġfen4Ġwei4Ġfa3Ġguo2Ġ zhong1Ġ
gong1Ġgong4Ġ jiao1Ġtong1Ġ
nan2Ġsi1Ġla1Ġ fu1
dan4Ġshui3 Ġyu2Ġ
Ġ xue4Ġ
Ġ fa1Ġxian4
ĠĠĠ shi1Ġ
ĠĠĠ rong2Ġyu4Ġ
qian2 Ġbei4Ġ
qi3 Ġzai4Ġ
zhe3 Ġyou3Ġ
jiu4 Ġyi3Ġjing1Ġ
73 Ġnian2Ġ
di4Ġ zhi4Ġ
Ġren2Ġ wen2Ġ
Ġgong1Ġ lv4Ġ
Ġyi4Ġ tu2Ġ
Ġri4 Ġdao4Ġ
ji1Ġ bai4
Ġjia1Ġ bin1Ġ
hua4Ġ zuo4Ġ
kai1Ġ chu2Ġ
Ġzhan4Ġ che1Ġ
Ġping2Ġ gu1
chang2Ġ shu4Ġ
zhong4Ġ duo1
Ġzhe4Ġ liang3Ġ
luo2Ġ na4Ġ
ying1Ġ tian1Ġ
bo1Ġ kuan3Ġ
gong4Ġ feng4Ġ
chu1Ġ yan3Ġ
fang4Ġ ying4Ġ
Ġnian2Ġ2Ġyue4Ġ 24Ġri4Ġ
Ġwu2Ġ lun4
xian3Ġ zhu4ĠdeĠ
niu2Ġ jin1
jun1Ġshi4Ġ tan3Ġding1Ġ
Ġying1 Ġli3Ġ
jiang1Ġwei2Ġwu2Ġer3Ġ zi4Ġzhi4Ġqu1Ġ
0 Ġren2Ġ
Ġ za2
Ġ zhan1
Ġ jiao1Ġtong1Ġ
Ġ 1963Ġnian2Ġ
ĠĠĠ ge2Ġ
ĠĠĠ zhi1Ġ
ĠĠĠ xian4Ġdai4Ġ
xia4 Ġwei4Ġ
xiang4 Ġzhong1Ġ
qi1 Ġxi1Ġ
ze2 Ġyu2Ġ
bo2 Ġli3Ġ
gai3 Ġjian4Ġwei4Ġ
pai2 Ġwei4Ġ
nu3 Ġsi1Ġ
chuo4 Ġhao4Ġ
shi2Ġ shi1Ġ
li4Ġ fa3Ġ
you3Ġ xiao4Ġ
Ġyu2Ġ ming2Ġ
zuo4Ġ qu3Ġ
Ġming2Ġ xian3
xia4Ġ shui3Ġ
mu4Ġ fu3Ġ
bei3Ġ han2
ma3Ġ ni2Ġ
liu2Ġ lang4Ġ
bi4Ġ yao4ĠdeĠ
er4Ġ ceng2Ġ
Ġxiang1Ġ lian2Ġ
hua2Ġ bei3Ġ
xiao1Ġ chu2Ġ
Ġtian1Ġ qi3Ġ
ĠĠĠsheng1Ġ tai4Ġ
Ġliang3Ġ zhe3Ġ
miao2Ġ zhun3Ġ
ĠĠĠli4Ġ ru2Ġ
Ġyou2Ġxi4 Ġzhong1Ġ
chi2Ġxu4 Ġdao4Ġ
Ġzhan4Ġzheng1 ĠdeĠ
Ġ 1913Ġnian2Ġ
ĠĠĠ Di
li Ġ
qi4 Ġyou2Ġ
bo2 Ġli4Ġ
ju2 Ġzai4Ġ
ha1 Ġbu4Ġsi1Ġ
kong4 Ġgu3Ġ
pang2 ĠdeĠ
pang2 Ġda4Ġ
88 Ġnian2Ġ
Ã¡ Ġ
Ġwei4Ġ tai2Ġwan1Ġ
Ġyou3Ġ san1Ġ
Ġgong1Ġ yuan2ĠdeĠ
Ġyi1Ġ zhi1
Ġyi1Ġ la1Ġke4Ġ
Ġxing2 Ġyu3Ġ
sheng1Ġ cheng1
Ġzhi1Ġ ming2ĠdeĠ
Ġbei4Ġ lie4Ġwei4Ġ
nei4Ġ wai4Ġ
qi4Ġ wen1Ġ
qing1Ġ chun1Ġ
Ġxiang1Ġ tong2ĠdeĠ
dan1Ġ you1Ġ
zhi1Ġ ziĠ
ci2Ġ chang3Ġ
Ġshi4Ġyi1Ġ kuan3
heng2Ġ kua4
leĠyi1Ġ xi4Ġlie4Ġ
er4Ġshi2Ġ er4Ġnian2Ġ
Ġfeng1Ġ bao4Ġ
Ġling4 Ġren2Ġ
Ġzhe4Ġshi4Ġ yin1Ġwei4Ġ
huai2Ġ yi2
dong1Ġnan2Ġ ya4
shi1Ġfan4 Ġxue2Ġxiao4Ġ
Univer si
Ġã Ħ
Q Ġ
Ġ We
Ġ Car
Ġ kuang4Ġ
Ġ tu3Ġer3Ġqi2Ġ
ĠĠĠ bi3Ġ
ĠĠĠ ri4Ġben3
jian4 Ġzhi4Ġ
nan2 Ġyou3Ġ
ma3 Ġhui4Ġ
dong1 Ġshi4Ġ
can1 Ġzhan4Ġ
gang3 Ġwei4Ġ
ci2 Ġhe2Ġ
fang2 Ġdi4Ġchan3Ġ
xin4 Ġzhong1Ġ
shu2 Ġxi1Ġ
shuai1 Ġjiao1Ġ
86 Ġnian2Ġ
Ġbu4Ġ yi2Ġ
Ġren2Ġ jun1Ġ
Ġyi1Ġ wan4Ġ
Ġta1 Ġdao4Ġ
li3Ġ jie3Ġ
Ġji4Ġ zhe3
wu4Ġ ye4Ġ
yan2Ġ yong4Ġ
yong4Ġ tu2
Ġdan4 Ġyin1
Ġdan4 Ġhou4Ġlai2Ġ
jie1Ġ zhuang1Ġ
la1Ġ tuo1
yao4Ġ wu4
yao4Ġ su4Ġ
jiao1Ġ xiang3Ġ
yang2Ġ guang1Ġ
ban4Ġ zhang3Ġzhou2
jin3Ġ jin3Ġ
ci2Ġ shan4Ġ
zhuan3Ġ yi2Ġzhi4Ġ
zu2Ġqiu2Ġ chao1Ġji2Ġ
Ġãĥ Ī
zong3Ġdu1Ġ fu3Ġ
meng3Ġ hu3Ġ
Ġge2 Ġnian2Ġ
yun3Ġshi2Ġ keng1
nei4Ġmeng2Ġgu3Ġ zi4Ġzhi4Ġqu1Ġ
ping1Ġpang1 Ġqiu2Ġ
Ġlu4Ġyin1Ġshi4Ġ zhuan1Ġji2Ġ
6 000
Ġ Ha
Ġ 05
Ġ ye2Ġ
Ġ lai4Ġ
Ġ ma2Ġ
Ġ ji3Ġyu3Ġ
ĠĠĠ bo2Ġ
ke4 Ġjia1Ġ
bo2 Ġsi1Ġ
jin3 Ġwei4Ġ
wan2 Ġju4Ġ
shou1 Ġhuo4Ġ
zeng1 Ġyuan2Ġ
wa3 Ġer3Ġhe2Ġ
chang4 ĠdeĠ
fou3 Ġjue2Ġ
chou3 Ġ
la3 Ġ
Ġshi2Ġ ren2Ġ
Ġzhi4Ġ yi1Ġ
Ġji2Ġ jin1Ġ
Ġdao4Ġ de2
shang4Ġ jiang4Ġ
Ġxi1Ġ sheng1Ġ
fa1Ġ shou4
jie2Ġ ju2Ġ
dian4Ġ ti1
Ġzhou1Ġ en1Ġlai2Ġ
yi2Ġ chuan2
er4Ġ shi2Ġshi4Ġji4Ġ
dan1Ġ che1Ġ
bo1Ġ ying4Ġ
Ġjin4Ġ zhi3
tong3Ġ yi1ĠdeĠ
cai2Ġ jue2Ġ
dang3Ġ nei4Ġ
mo2Ġ ca1
ying2Ġ jie1Ġ
zhuan1Ġ shu3Ġ
han2Ġ liang4Ġ
yong3Ġ yuan3Ġ
xiang1Ġgang3Ġ dian4Ġying3Ġ
kai1Ġfa1Ġ qu1Ġ
tao3Ġ fa2
Ġjun1Ġshi4Ġ tan3Ġding1Ġ
ti3Ġyu4Ġ chang3
ĠdeĠhe2Ġ liu2Ġ
ĠW Ġ
ji4Ġlu4Ġ pian4Ġ
dong4Ġche1Ġ zu3Ġ
wei2Ġye3Ġ na4Ġ
sai1Ġbai4 Ġjiang1Ġ
ao4Ġfu2Ġ nie4Ġ
6 Ġping2Ġfang1Ġgong1Ġli3Ġ
U R
t en
Ġ zao1
Ġ He
Ġ zhuo2Ġ
ĠĠĠ yi2Ġge4Ġ
you2 Ġta1Ġ
zi4 Ġyi4Ġ
shou3 Ġyu3Ġ
tai4 Ġxue2Ġ
wu2 Ġli4Ġ
su4 Ġzhi4Ġ
hang2 Ġyuan2Ġ
85 Ġnian2Ġ
71 Ġnian2Ġ
nong4 Ġ
Ġwei4Ġ le
Ġzai4Ġ zhe4
Ġbu4Ġ dan4Ġ
Ġbu4Ġ qiang1Ġ
Ġguo2Ġ da4Ġ
Ġli4Ġ ti3Ġ
Ġyuan2Ġ shuai4Ġ
Ġchu1 Ġzhong1Ġ
qu1Ġ bie2
Ġming2Ġ gu3Ġ
xia4Ġ you2Ġ
Ġjin4 Ġbu4Ġ
Ġsheng1Ġ zhang3Ġ
Ġye3 Ġyin1Ġci3Ġ
Ġxiang1Ġ dui4Ġyu2Ġ
shang1Ġ biao1Ġ
an4Ġ sha1Ġ
wei3Ġ chang2Ġwei3Ġ
Ġyi3Ġji2Ġ yi1Ġ
qian1Ġ xi3Ġ
huo4Ġ qu3Ġ
bai2Ġ se4
zhuan3Ġ yi2
zhun3Ġ jue2Ġsai4
kan1Ġ sa4Ġsi1Ġ
Ġjin1 Ġri4Ġ
guang3Ġxi1Ġ zhuang4Ġ
yin3Ġfa1Ġ leĠ
ĠĠĠxian4 Ġshi2Ġ
bao3Ġliu2 ĠleĠ
an4Ġcha2Ġ shi3Ġ
Ġping2Ġfang1Ġqian1Ġmi3 Ġren2Ġ
7 Ġping2Ġfang1Ġgong1Ġli3Ġ
Ġ 1942
Ġ 1942Ġnian2Ġ
ĠĠĠ k
ĠĠĠ xing2Ġtai4Ġ
you2 Ġji4Ġ
yu4 Ġdao4ĠleĠ
yan2 Ġzhi1Ġ
mu4 Ġli3Ġ
gao1 Ġer3Ġfu1
ti3 Ġshang4Ġ
shen1 Ġhou4Ġ
dian3 Ġhe2Ġ
dian3 Ġji2Ġ
xian1 Ġjin4
jiang3 Ġzhong1Ġ
deng1 ĠdeĠ
guan4 Ġming2Ġ
01 Ġ
ĠdeĠ zi4Ġ
Ġhe2Ġ qi2Ġ
Ġda4Ġ bai4Ġ
Ġxing2Ġ li3Ġ
zheng4Ġ zhi4Ġbu4Ġ
Ġli3Ġ wei2Ġ
Ġming2Ġ jiao4Ġ
lai2Ġ leĠ
Ġbing4Ġ cheng1Ġ
Ġzhou1Ġ mo4Ġ
la1Ġ ge2Ġ
ke3Ġ chi2Ġxu4Ġ
Ġshe4Ġ qun2Ġ
feng1Ġ su4Ġ
luo2Ġ bo2Ġ
lan2Ġ jie2Ġ
gui1Ġ fan4
jing3Ġ fang1
jin4Ġ sheng1Ġwei4Ġ
lun2Ġ te4Ġ
dang3Ġ pai4Ġ
Ġa1Ġ gen1Ġ
zuo3Ġ pai4Ġ
ren2Ġkou3Ġshu4Ġliang4 Ġwei4Ġ
fa1Ġbiao3 Ġsheng1Ġming2Ġ
Ġer2Ġren2Ġkou3Ġmi4Ġdu4Ġwei4Ġmei3 Ġping2Ġfang1Ġqian1Ġmi3Ġren2Ġ
jie3Ġjue2Ġ fang1Ġan4Ġ
zuo4Ġpin3 Ġzhong1Ġ
¨ Ġ
Ġ Ju
ĠĠĠ Su
you2 Ġjian4Ġ
xiang4 Ġgong1Ġzhong4Ġ
san1 Ġzuo4Ġ
zi Ġji2Ġ
ying1 ĠdeĠ
gai3 Ġshe4Ġ
li2 Ġjia1Ġ
biao1 Ġshi2Ġ
chu3 Ġbei4Ġ
san4 Ġbu4Ġ
pin1 Ġyin1Ġ
ent Ġ
lao4 Ġ
Ġshi4Ġ ba1Ġxi1Ġ
Ġzai4Ġ guo2Ġji4Ġ
Ġhe2Ġ sheng1Ġ
Ġdi4Ġ yi1Ġbu4Ġ
Ġyu2Ġ 10Ġyue4Ġ
Ġzhi4Ġ ding4
Ġguo2Ġ xiao3Ġ
Ġyi1Ġ fen4Ġ
bei4Ġ po4Ġ
Ġxian4Ġ chang3
shu4Ġ ma3Ġ
Ġdan4 Ġta1ĠmenĠ
Ġye3 Ġwei4Ġ
san1Ġ xiang4Ġ
a1Ġ ken3Ġse4
zi3Ġ mei4
Ġdong1Ġ bei3Ġbu4Ġ
du1Ġ tong3Ġ
Ġbu4Ġtong2 ĠdeĠshi4Ġ
ĠĠĠjia1Ġ jing4Ġ
Ġwei4Ġyu2Ġgai1Ġguo2Ġ dong1Ġbei3Ġbu4Ġ
ba4Ġ mian3Ġ
Ġchong2Ġ zhen1Ġ
Ġci4 Ġri4Ġ
Ġ2011Ġnian2Ġ ren2Ġkou3Ġ
Ġli2 Ġxin1Ġ
Ġxing2Ġzheng4Ġzhong1Ġxin1 Ġwei4Ġ
W TA
Ġ in
Ġ wan3
Ġ chun2
ĠĠĠ La
min2 Ġhe2Ġ
jiang1 Ġjin4Ġ
wu2 Ġji1Ġ
zi1 Ġshi4Ġ
jia3 ĠdeĠ
di2 Ġnan2Ġ
zhao3 Ġze2Ġ
66 Ġ
Ġshi4Ġ zi4Ġ
Ġshi4Ġ bi4Ġlu3
Ġcheng2Ġ hua4Ġ
hou4Ġ lai2ĠdeĠ
Ġyi3Ġ shang4
Ġyu3Ġ ta1Ġ
zhan4Ġ fang2Ġ
Ġzhou1 Ġwei4Ġ
guan1Ġ nian4Ġ
chang2Ġ yong4ĠdeĠ
mian4Ġ che1Ġzhan4Ġ
ba1Ġ ba1Ġ
tu2Ġ pian4Ġ
xu4Ġ mu4Ġ
shao3Ġ qing1Ġ
Ġbei3Ġ qi3
ke3Ġneng2 Ġyou3Ġ
Ġluo2Ġ bo2Ġte4Ġ
ai1Ġ sai1Ġe2Ġ
ruo4Ġ gan1
lao2Ġ dong4
wu3Ġtai2Ġ ju4Ġ
ji4Ġcheng2Ġ ren2Ġ
Ġpo4Ġ shi3Ġ
ai4Ġhao4Ġ zhe3Ġ
E E
Ġ kan4
Ġ zong4
Ġ xie3Ġ
Ġ Ã©Ġ
Ġ 1967Ġnian2Ġ
ĠĠĠ lu4Ġ
ĠĠĠ wen2Ġ
ĠĠĠ zhi1Ġhou4Ġ
ĠĠĠ sui2Ġzhu4Ġ
jun1 Ġwei4Ġ
she4 Ġzai4Ġ
quan2 Ġshi4Ġjie4Ġ
qian2 Ġshi4Ġ
kai1 Ġji1Ġ
sai4 Ġzhi4Ġ
di2 Ġjun1Ġ
gan3 Ġdao4
tan4 Ġsuo3
ST Ġ
Ġhe2Ġ xiao3Ġ
Ġzhong1Ġ cheng2Ġ
Ġyi1Ġ bian1Ġ
xia4Ġ fang1Ġ
Ġzhe4Ġ jiang1
zi1Ġ xun2
Ġzhong1Ġguo2Ġ ren2Ġ
bian4Ġ ti3Ġ
zheng1Ġ zhao4Ġ
Ġzhu3Ġ da3Ġ
ĠdeĠyi1Ġ ke1Ġ
ju3Ġ zhong4Ġ
chu2Ġ wai4Ġ
Ġnian2Ġ12Ġyue4Ġ 1Ġri4Ġ
ge4Ġ ti3Ġ
Ġjiang1 Ġhui4Ġ
ping2Ġjun1Ġ jiang4Ġyu3Ġliang4Ġ
xi4Ġlie4Ġ sai4Ġ
gui1Ġmo2Ġ zui4Ġda4ĠdeĠ
Ġshe4Ġli4Ġ leĠ
lian2Ġhe2Ġguo2Ġ jiao4Ġke1Ġwen2Ġ
tou2Ġru4Ġ fu2Ġwu4Ġ
fei3Ġ cui4
Ġ hua4
Ġ leng3
Ġ e2Ġluo2Ġ
Ġ zun1Ġ
quan2 Ġxin1Ġ
bo1 Ġde2Ġ
zi3 Ġdi4Ġ
diao4 Ġren4Ġ
xian2 ĠdeĠ
bang3 Ġdi4Ġ
EP Ġ
Ġzhi4Ġ yuan4Ġ
Ġyuan2Ġ ben3ĠdeĠ
Ġdao4Ġ xi1Ġ
Ġxing2Ġ sheng3Ġ
Ġjun1 Ġyu3Ġ
Ġchu1Ġ tu3
qian2Ġ qi1Ġ
Ġzhan4Ġ shen2Ġ
tong1Ġ bao4Ġ
chang2Ġ zheng1Ġ
bao3Ġ lei3Ġ
qing1Ġ shui3Ġ
yue1Ġ 3
chu1Ġ fa1Ġ
Ġwan4 Ġming2Ġ
cai3Ġ na4Ġ
tu1Ġ po4
ĠĠĠben3Ġ zhan4Ġ
Ġming2 Ġyi4Ġ
zhi1Ġchi2 Ġxia4Ġ
ma3Ġke4Ġsi1Ġ zhu3Ġyi4Ġ
Ġ shao3Ġ
Ġ si4Ġnian2Ġ
Ġ 1969Ġnian2Ġ
ĠĠĠ fa1Ġzhan3Ġ
ge4 Ġji2Ġ
nan2 Ġyue4Ġ
duo1 Ġnian2ĠdeĠ
si4 Ġji4Ġ
xian1 Ġxing2Ġ
or ge
guang1 Ġming2Ġ
di3 Ġte4Ġ
zang4 Ġli3Ġ
bu4Ġ lie4Ġ
gong1Ġ ren2Ġ
Ġxian4Ġ jin1
Ġyin1 Ġyu3Ġ
fa1Ġ wen2Ġ
Ġdui4Ġ hua4Ġ
suo3Ġ shi3Ġyong4ĠdeĠ
Ġfu4Ġ za2ĠdeĠ
kou3Ġ an4Ġ
Ġtong2 Ġjin4Ġshi4Ġchu1Ġshen1Ġ
liu2Ġ tong1Ġ
qing1Ġ dao3
Ġxiang1Ġ hu4Ġ
Ġdong1Ġ hai3Ġ
chong2Ġ fan3
lu2Ġ wa3Ġer3Ġsheng3Ġ
jian3Ġcha2Ġ guan1Ġ
xiao3Ġxing2Ġxing1 Ġdai4Ġ
Ġzhou1Ġli4Ġ da4Ġxue2Ġ
jiang3Ġxue2Ġ jin1Ġ
Ġ yuan2
Ġ xu4
Ġ meng2
Ġ 1929Ġnian2Ġ
yue4 Ġwei4Ġ
yi2 Ġren2Ġ
sai4 Ġer3Ġ
dan1 Ġxing2Ġ
nv3 Ġzuo4Ġ
man4 Ġdi4Ġ
qiao2 ĠdeĠ
tan3 ĠdeĠ
gan1 Ġshe4Ġ
hen2 Ġ
Col le
shi2Ġ er4Ġyue4Ġ
Ġbu4Ġ man3
Ġzhong1Ġ zhi3
Ġzhong1Ġ da4Ġ
da4Ġ lou2Ġ
Ġguo2Ġ tu3Ġ
Ġyi1Ġ ben3Ġ
Ġda4Ġ lu4
Ġli3Ġ xiang3Ġ
Ġbei4Ġ fa1Ġxian4Ġ
jiao4Ġ xue2
fu2Ġ hao4
ying1Ġ shu3Ġ
ni2Ġ po1Ġer3Ġ
chu1Ġ shou4Ġ
wei1Ġ fen1Ġ
han4Ġ bao3Ġ
wu1Ġ zi1Ġbie2
po4Ġ hai4Ġ
ta3Ġ la1Ġ
Ġzui4Ġ hou4Ġzai4Ġ
ge4Ġ lei4Ġ
Ġdi4Ġer4Ġ tian1Ġ
tan4Ġ tao3
zi4Ġzhi4Ġ qu1
tong1Ġchang2 Ġhui4Ġ
Ġrang4 Ġta1Ġ
pu3Ġcha2Ġ gui1Ġding4Ġ
fu2Ġluo2Ġli3Ġ da2
q Ġ
Ġ Fa
Ġ tĠ
li a3
shou3 Ġhe2Ġ
zhong4 Ġyu2Ġ
guan3 Ġshi4Ġ
ta3 Ġsi1Ġ
tan1 Ġwu1Ġ
it Ġ
72 Ġnian2Ġ
Ġdi4Ġ xia4
Ġyuan2Ġ ze2
Ġyuan2Ġ chao2Ġ
Ġxing2Ġ zhuang4Ġ
Ġli3Ġ you2Ġ
Ġer2 Ġcheng2Ġwei2Ġ
xi4Ġ shu4Ġ
Ġwei2Ġ hu4
Ġwei2Ġ fan3
Ġping2Ġ ding4Ġ
Ġren4Ġ tong2Ġ
er4Ġ ci4Ġ
2Ġ mian4Ġ2
xian4Ġ jin1Ġ
zhuan3Ġ hua4Ġwei4Ġ
ji3Ġ zhong3Ġ
yan2Ġjiu1Ġ yuan4
dai4Ġbiao3 ĠdeĠ
Ġdi4Ġsan1Ġ ci4Ġ
suo1Ġ duan3
Ġjiu4 Ġhui4Ġ
Ġwei4Ġyu2Ġgai1Ġguo2Ġ xi1Ġnan2Ġbu4Ġ
pang2Ġ da4ĠdeĠ
ĠĠĠhou4Ġ xu4Ġ
Ġ lv4
Ġ tiao2
an1 Ġshi2Ġ
ĠĠĠ wai4Ġ
jia1 Ġwei4Ġ
mei3 Ġge4
qi1 Ġri4Ġ
zhe3 Ġyu3Ġ
tai4 Ġyin1Ġ
mi3 Ġli4Ġ
fei1 Ġsi1Ġ
liang3 Ġji2Ġ
pi2 Ġer3Ġ
luan2 Ġ
Ġzai4Ġ shang4Ġhai3Ġ
Ġbu4Ġ deng3Ġ
si1Ġ ma3Ġ
Ġji4Ġ sheng1Ġ
Ġming2Ġ e2Ġ
jing1Ġ ji4ĠdeĠ
fa1Ġ song4Ġ
Ġping2Ġ guo3
Ġzhou1Ġ qu1Ġ
zhi3Ġ nan2Ġ
tong1Ġ che1
Ġshe4Ġ ying3
Ġdan4Ġ que4Ġ
ge1Ġ chang4Ġ
su4Ġ lv4Ġ
nv3Ġ wang2
tong3Ġ zhi4ĠdeĠ
she4Ġ li4ĠdeĠ
ju1Ġ zhu4ĠdeĠ
tao2Ġ wang2Ġ
yin4Ġdu4Ġ yang2Ġ
geng1Ġ xin1
Ġjian1Ġ ren4Ġ
Ġbu4Ġzheng4Ġ shi3Ġ
ao4Ġdi4Ġ li4ĠdeĠ
8 Ġping2Ġfang1Ġgong1Ġli3Ġ
V IDĠ
Ġ da2Ġdao4Ġ
ĠĠĠ zhou1Ġ
ĠĠĠ ming2Ġcheng1Ġ
du4 Ġzai4Ġ
wai4 Ġyu3Ġ
na4 Ġbu4Ġ
ni2 Ġshi4Ġ
chi2 ĠdeĠ
meng2 ĠdeĠ
xiu4 Ġji2Ġ
rao4 Ġtai4Ġyang2Ġ
54 Ġ
tuo3 Ġyuan2Ġ
97 Ġnian2Ġ
cri tic
Ġhe2Ġ nei4Ġ
Ġyi1Ġ fang1Ġ
Ġyu3Ġ zhou4Ġ
Ġde2 Ġdao4ĠdeĠ
Ġwei2Ġ zhu3ĠdeĠ
jie2Ġ dian3Ġ
Ġdui4Ġ ying4
shen1Ġ ye4Ġ
ba1Ġ te4Ġ
dan1Ġ wei4ĠdeĠ
leĠyi1Ġ fen4Ġ
Ġma3 Ġke4Ġsi1Ġ
Ġyi4Ġban1 ĠdeĠ
Ġzu3 Ġji2Ġ
Ġnian2Ġchu1Ġ sheng1Ġyu2Ġ
da2Ġcheng2Ġ xie2Ġyi4Ġ
you3Ġbu4Ġ shao3
Ġc enterĠ
Ġfan1Ġ qie2
hei1Ġlong2Ġjiang1Ġ sheng3Ġ
3 Ġping2Ġfang1Ġgong1Ġli3Ġ
4 Ġhao4Ġ
7 ĠĠĠ
Ġ qie4
Ġ mao2Ġze2Ġdong1Ġ
ĠĠĠ guo2Ġjia1Ġdui4Ġ
zheng4 Ġjian4Ġ
sheng1 Ġshi4Ġ
ren4 Ġshi4Ġ
mu4 Ġzhong1Ġ
ge1 Ġji2Ġ
wan1 ĠdeĠ
cai3 ĠdeĠ
lao3 Ġnian2Ġ
mao3 Ġke1Ġ
Ġbu4Ġ lu3
si1Ġ zhang3Ġ
Ġda4Ġ lian2Ġ
Ġyuan2Ġ chuang4Ġ
ming2Ġ jiao4Ġ
you2Ġ tai4
Ġjun1 Ġji1Ġ
fu4Ġ za2ĠdeĠ
shu4Ġ zi4
Ġde2Ġ duo1Ġ
bian1Ġ xie3Ġ
zhuan3Ġ bian4Ġwei4Ġ
geng4Ġ rong2Ġyi4Ġ
po4Ġ shi3Ġ
hen3Ġ rong2Ġyi4Ġ
hua1Ġ fei4Ġ
Ġyou3Ġyi1Ġ tiao2Ġ
bo2Ġwu4Ġ yuan4Ġ
chan3Ġpin3 ĠdeĠ
la1Ġding1 Ġyu3Ġ
Ġa1Ġla1Ġ bo2
Ġzhong1Ġguo2Ġguo2Ġmin2Ġ dang3
Ġyou2Ġqi2 Ġshi4Ġzai4Ġ
5 Ġgong1Ġfen1Ġ
Ġ 44
ĠĠĠ zui4Ġ
ĠĠĠ sai4Ġshi4Ġ
zhong1 ĠdeĠdi4Ġ
jin4 Ġjun1Ġ
wen2 Ġxian4
kai1 Ġzhi1Ġ
bian4 Ġshi2Ġ
du1 Ġcheng2Ġ
Ġjun1 Ġbu4Ġ
lian2Ġ chuan4
duo1Ġ lun2Ġ
ya4Ġ re4Ġdai4Ġ
mei3Ġguo2Ġ guo2Ġ
shu1Ġ yuan4
fen4Ġ ziĠ
jiu4Ġ zhi3
gang3Ġ tie3Ġ
jin3Ġ mi4Ġ
dao4Ġ da2Ġ
Ġmian4Ġji1Ġ 1
Ġbing4Ġyu2Ġ tong2
chuang4Ġzuo4Ġ leĠ
guo2Ġmin2Ġ dang3Ġ
Ġh Ġ
ĠĠĠjin3Ġ guan3
a1Ġfu4Ġ han4Ġ
1 Ġhao4Ġxian4Ġ
Ġ ding4
Ġ ban1
Ġ kui2
Ġ Pi
Ġ qie4Ġ
Ġ zheng4Ġzai4Ġ
Ġ ke3Ġneng2Ġhui4Ġ
Ġ bi3Ġli4Ġshi2Ġ
Ġ fa3Ġyu3Ġ
Ġ 1932Ġnian2Ġ
ĠĠĠ e2Ġluo2Ġsi1Ġ
dai4 Ġhe2Ġ
lai2 Ġyu3Ġ
guan1 Ġli4Ġ
dan4 Ġsheng1Ġ
sai4 Ġcheng2Ġ
yan3 Ġchu1ĠdeĠ
shuo1 Ġdao4Ġ
pei4 Ġer3Ġ
re4 ĠdeĠ
zhao3 Ġdao4ĠleĠ
78 Ġnian2Ġ
ster Ġ
Sy ste
Ġwei4Ġ lai2ĠdeĠ
di4Ġ qu1ĠdeĠ
Ġyu2Ġ 2006
Ġyu2Ġ 188
Ġgong1Ġ ke4Ġ
Ġyi4Ġ mei3Ġyuan2ĠdeĠ
zi4Ġ cheng1Ġ
Ġbei4Ġ po4
Ġdui4Ġ kang4
Ġshang4Ġ fang1Ġ
Ġren4Ġ wu4
Ġdai4Ġ wei2Ġsi1Ġ
Ġta1ĠdeĠ ming2Ġzi4Ġ
Ġjing1Ġ shen2Ġ
Ġka3Ġ la1Ġ
Ġjing3Ġ cha2Ġ
xuan3Ġze2 ĠleĠ
ban4Ġgong1Ġ ting1Ġ
chu1Ġban3 Ġshe4Ġ
da4Ġshi3Ġ guan3Ġ
zen3Ġ meĠ
wang3Ġqiu2 Ġgong1Ġkai1Ġsai4Ġ
pu3Ġcha2Ġgui1Ġding4Ġ ju1Ġmin2Ġdian3Ġ
Ġ xian2
Ġ bao4Ġgao4Ġ
ĠĠĠ dan4Ġ
ĠĠĠ qi2Ġta1
yu4 Ġhou4Ġ
zhe4 Ġwei4Ġ
mian4 Ġyu3Ġ
ti3 Ġzai4Ġ
wai4 Ġxian4Ġ
luo2 Ġke4Ġ
pa4 Ġla1Ġ
Ġyu2Ġ 7Ġyue4Ġ
Ġyi4Ġ gang3Ġyuan2Ġ
sheng1Ġ li3Ġ
Ġta1Ġ suo3Ġ
Ġming2Ġ yu4Ġ
jiao4Ġ hui4ĠdeĠ
Ġdan4 Ġye3Ġyou3Ġ
Ġwei2Ġ ya4
Ġfu4Ġ yuan4Ġzhang3Ġ
si4Ġ miao4Ġ
tai4Ġ zong1Ġ
ge1Ġ wu3Ġ
Ġzhu3Ġ zhang1
chao2Ġ ting2
da3Ġ zao4Ġ
wu1Ġ ding3
Ġmian4Ġji1Ġ 1Ġ
Ġfa3Ġ lv4Ġ
Ġda4Ġxue2 Ġshi4Ġ
Ġren2Ġkou3 Ġwei4Ġren2Ġ
Ġxi1Ġbei3Ġ jie1Ġ
tui4Ġyi4Ġ hou4Ġ
ĠĠĠxia4Ġ shu3Ġwu4Ġzhong3Ġ
s k
Ġ Bu
Ġ lei4Ġsi4Ġ
Ġ pĠ
Ġ lun2Ġdun1
you3 ĠĠĠ
hui4 Ġshi2Ġ
qi2 Ġyu2Ġ
xing4 Ġyu2Ġlei4Ġ
12 Ġren2Ġ
diao4 ĠdeĠ
huan2 Ġjie2Ġ
fan1 Ġxin1Ġ
87 Ġnian2Ġ
va Ġ
Ġzhi4Ġ zao4ĠdeĠ
zuo4Ġ leĠ
Ġsi1Ġ wei2Ġ
dai4Ġ bu3
lu4Ġ jing4Ġ
gao1Ġ du4
qi3Ġ dan1Ġren4Ġ
deng3Ġ zhi2Ġwu4Ġ
Ġxin1Ġ tai2Ġbi4Ġ
fen4Ġ nu4Ġ
gai3Ġ zhuang1
jiu4Ġ ye4Ġ
wang3Ġ fan3
luo4Ġ fu1
ling4Ġ yi1Ġwei4Ġ
ĠdeĠyi1Ġ suo3Ġ
ying1Ġguo2Ġ huang2Ġjia1Ġ
pan4Ġ luan4
yin2Ġ pai2
jing1Ġji4Ġ gong1Ġsi1Ġ
Ġnian2Ġ3Ġyue4Ġ 31Ġri4Ġ
ri4Ġ chang2
tan2Ġ hua4Ġ
Ġzhi3Ġ hui1
er4Ġshi2Ġ yi1Ġnian2Ġ
Ġmei3Ġ tian1Ġ
Ġxing2Ġzheng4Ġ qu1Ġyu4Ġ
jian4Ġzhu4Ġ shi1Ġ
Ġhai3Ġba2Ġgao1Ġdu4Ġ 2Ġ
Ġtu2Ġ jing1Ġ
beng1Ġ kui4Ġ
ba1Ġle4 Ġsi1Ġtan3Ġ
Ġmo4Ġxi1Ġ ge1Ġ
Ġ hui2
Ġ chun2Ġ
zuo4 Ġda4Ġ
wu4 Ġsi1Ġ
lu4 Ġxian4
hua4 Ġhou4Ġ
jing3 Ġshi4Ġ
xian1 Ġjin4Ġ
shen2 Ġming2Ġ
hui2 ĠleĠ
ju2 Ġfu4Ġ
yuan3 Ġcheng2Ġ
tang1 Ġmu3Ġ
Ġshi2Ġ zhong1Ġ
cheng2Ġ ren2Ġ
Ġzhi4Ġ yi2
da4Ġ duo1Ġshu4Ġ
ming2Ġ lu4Ġ
zhi2Ġ fa3Ġ
mu4Ġ qu1Ġ
Ġdui4Ġ ci3
fen1Ġ zi3Ġ
fu2Ġ lang3Ġ
Ġdan4Ġ bai2Ġzhi4Ġ
shu1Ġ mi4Ġ
qing1Ġ xie2Ġ
yue1Ġ 1Ġ
xian1Ġ feng1Ġ
fang2Ġ zhi3
fang2Ġ kong1
da3Ġ ru4Ġ
wan2Ġ mei3Ġ
piao4Ġ jia4Ġ
pao4Ġ ta3Ġ
zui4Ġgao1Ġ dian3Ġwei4Ġ
luo2Ġdi4Ġ ya4
yin4Ġshua1 Ġ
xia4ĠdeĠyi2Ġge4Ġ shu3Ġ
Ġ tui4Ġ
ĠĠĠ 1998
wei2 Ġcheng2Ġ
xin1 Ġji4Ġshu4Ġ
ma3 Ġdi4Ġ
qing1 Ġxing2Ġ
wan2 Ġjie2Ġ
tuo1 Ġsi1Ġ
di3 Ġzhong1Ġ
pao4 Ġdan4Ġ
bang4 ĠdeĠ
diao1 Ġke4Ġ
AT Ġ
BC Ġ
Ġshi4Ġ de2Ġguo2ĠdeĠ
Ġren2Ġ wu4
hai3Ġ wan1Ġ
zi1Ġ tai4Ġ
fan3Ġ kang4
Ġjiao4Ġ shi1Ġ
Ġguo2Ġjia1Ġ zu2Ġqiu2Ġdui4Ġ
zhang4Ġ hu4Ġ
fa1Ġzhan3 Ġchu1Ġ
pao4Ġ tai2Ġ
zui4Ġgao1Ġ fa3Ġyuan4Ġ
gong1Ġbu4Ġ leĠ
Ġzai4Ġzhe4Ġ zhong3Ġ
te4Ġbie2 Ġxing2Ġzheng4Ġqu1Ġ
bao3Ġjia1 Ġli4Ġya4Ġ
zhuan1Ġke1Ġxue2Ġ xiao4Ġ
5 Ġping2Ġfang1Ġgong1Ġli3Ġ
u ro
Ġ ch
Ġ Ru
Ġ wan2Ġquan2Ġ
Ġ nong2Ġye4Ġ
Ġ 1943Ġnian2Ġ
e4 ĠdeĠ
ĠĠĠ Sa
ĠĠĠ ya4Ġ
ai1 Ġsi1Ġ
fu4 Ġxian4Ġ
mei3 Ġyi1Ġ
lian2 Ġhui4Ġ
qi3 Ġyu2Ġ
shu1 Ġji1Ġ
yue1 Ġzai4Ġ
piao4 ĠdeĠ
sou1 Ġji2Ġ
82 Ġnian2Ġ
ĠdeĠ yan2Ġjiu1Ġ
Ġhe2Ġ qi2Ġta1
Ġzhong1Ġ ye3Ġ
si1Ġ fa3
ji1Ġ yin1Ġ
Ġyu3Ġ lin2Ġ
zheng4Ġ quan2
Ġjia1Ġ qing4Ġ
Ġchu1Ġ shen1Ġyu2Ġ
Ġyin1 Ġshi4Ġ
fa1Ġ jue2
zhi2Ġ liu2Ġ
fa3Ġ ding4Ġ
xing4Ġ neng2
jue2Ġ qi3Ġ
ke1Ġ zhang3Ġ
zong3Ġ shu1Ġji4Ġ
zong3Ġ bu4Ġwei4Ġyu2Ġ
Ġben3Ġ shen1
Ġzhu3Ġ dong4Ġ
ju1Ġ min2ĠdeĠ
Ġfu2Ġ lang3
you1Ġ hua4Ġ
Ġdi4Ġer4 Ġming2Ġ
duo1Ġyang4Ġ xing4Ġ
5 Ġwan4Ġ
Ġ lie4
Ġ zong1Ġhe2Ġ
Ġ dai4Ġyou3Ġ
Ġ ying3Ġpian4
an1 Ġji1Ġ
zhi1 Ġchu1Ġ
zhan4 Ġshi2Ġqi1Ġ
jiang1 Ġyuan2Ġ
mian4 Ġhe2Ġ
wai4 Ġyuan2Ġ
ba1 Ġyi1Ġ
cha2 Ġhe2Ġ
11 Ġge4Ġ
di2 Ġer3Ġ
diao4 ĠleĠ
and ĠĠĠ
lan4 Ġyong4Ġ
la3 Ġma
Ġshi2Ġ jiu3Ġnian2Ġ
Ġyu2Ġ ke1ĠdeĠqi2Ġzhong1Ġyi1Ġzhong3Ġ
Ġren2Ġ cheng1Ġ
shang4Ġ you2Ġ
Ġzhi1Ġ nei4Ġ
zhu3Ġ yan3ĠdeĠ
Ġqi2Ġ dui4Ġ
mu4Ġ di4
zhang3Ġ wo4Ġ
Ġping2Ġ min2Ġ
fu2Ġ gang1
a1Ġ mu3Ġsi1Ġte4Ġ
Ġben3Ġ ci4Ġ
long2Ġ lei4Ġ
Ġgai1Ġ xiao3Ġxing2Ġxing1
man4Ġ lian2Ġ
lu3Ġ xiao3Ġ
sai1Ġ pu3Ġ
che4Ġ hui2Ġ
zu2Ġqiu2Ġ xie2Ġhui4Ġ
Ġãĥ ©
ti4Ġ huan4Ġ
wen2Ġhua4 Ġhe2Ġ
na2Ġ da4ĠdeĠ
Ġzhong1Ġguo2Ġren2Ġmin2Ġ jie3Ġfang4Ġjun1
la1Ġji1Ġ mi3Ġer3Ġ
Ġren2Ġda4Ġ chang2Ġwei3Ġhui4Ġ
gui3Ġdian4Ġ che1Ġ
Ġli2Ġxin1Ġ lv4Ġwei4Ġ0
Ġ or
Ġ ma2
Ġ shui2
Ġ zou1
Ġ Ka
Ġ shao1Ġ
Ġ ji1Ġji2Ġ
ĠĠĠ fen1Ġ
ĠĠĠ du4Ġ
ĠĠĠ jing1Ġguo4Ġ
le Ġshi4Ġ
jia1 Ġcheng2Ġ
ji1 Ġzhong1Ġ
zhi1 ĠdeĠ
zhi1 Ġzhong1Ġ
zhan4 Ġgong1Ġ
jie2 Ġke4
qi4 Ġji2Ġ
long2 Ġhe2Ġ
gu4 Ġyuan2Ġ
zhao4 Ġshi4Ġ
tu3 Ġsi1Ġ
kao3 Ġzheng4Ġ
ya1 ĠdeĠ
zhao1 Ġsheng1Ġ
53 Ġ
po2 Ġ
96 Ġnian2Ġ
ka Ġ
da4Ġ liang4
Ġli4Ġ yu3Ġ
Ġgong1Ġ tou2Ġ
bei4Ġ bu3Ġ
qu1Ġ zhu2Ġ
Ġhui4Ġ mian4Ġ
yan2Ġ ge2ĠdeĠ
jiang1Ġ gai1Ġ
duo1Ġ fu1Ġ
jie1Ġ kou3Ġ
Ġfu4Ġ gai4
shui3Ġ mian4Ġ
qian1Ġ ding4
she4Ġ zhi4ĠdeĠ
Ġjiao4Ġ wei2Ġ
zhu1Ġ ge3
sa4Ġ mo2Ġ
Ġzui4Ġ gao1
Ġwu2Ġ fa3
mian4Ġji1 ĠdeĠ
xuan2Ġ gua4
Ġfu2 Ġzhou1Ġ
da1Ġ ying4Ġ
Ġzheng4 Ġde2Ġ
an1Ġde2Ġ lu3Ġ
tun2Ġ men2
Ġer3Ġduo1Ġ nie4Ġ
suan1Ġjian3Ġ ce4Ġ
Ġ bing1
Ġ qu4
Ġ zou3
Ġ zao1Ġdao4Ġ
Ġ 1944Ġnian2Ġ
ĠĠĠ 1994Ġnian2Ġ
ji2 ĠĠĠ
zhan4 ĠĠĠ
wen2 Ġli3Ġ
yan2 Ġyu3Ġ
jin1 Ġhe2Ġ
ba1 ĠdeĠ
zhao4 Ġming2Ġ
na2 Ġdao4Ġ
qiang3 Ġjie2Ġ
[...]
