#version: 0.2
n g
i 4
a n
s h
z h
ng 1
j i
u 4
ng 2
Ġ Ġ
i 2
a o
x i
ng 4
an 2
i 3
i 1
d e
u 3
an 4
e 4
e n
c h
u o
u 2
ng 3
an 1
e 2
a i4
u 1
ĠĠ Ġ
o ng1
a 1
ã Ģ
sh i4
e i4
ao 4
i an2
a 4
y u
a ng1
y o
an 3
n 1
h u
a ng4
n ian2
en 2
l i
a ng3
e ng2
uo 4
uo 2
w ei4
m i
ao 3
z ai4
ãĢ ģ
b i
q i
a ng2
e 1
h e2
y i
e ng1
zh ong1
e r
b u4
o u4
a 3
e 3
n 4
sh i2
d i4
g uo2
a i2
u i4
r en2
ao 1
x u
y i1
n 2
o ng2
y u2
g u
l i4
zh i4
d i
w e
en 4
ch eng2
o ng4
y i4
g ong1
ji 2
e ng4
en 1
yu e4
yo u3
yu an2
d a4
a 2
l e
j i4
2 0
y i3
j u
a i1
p i
xi an4
o u1
ji a1
s i1
xi ng2
e i3
t i
y u3
ji 1
t a1
r i4
zh i1
h ou4
l i3
o u3
a i3
we i2
hu i4
d ao4
1 9
o ng3
q i2
u an2
zh eng4
mi ng2
xi 1
ao 2
ji an4
xu e2
ch u1
g e4
z uo4
uo 1
sh eng1
d ui4
yo u2
uo 3
q u1
sh ang4
en 3
de 2
b ei4
sh i3
zh u
zh an4
n 3
xi n1
ju n1
er 3
sh e4
r en4
f a1
w u4
bi ng4
k e4
er 2
l u4
d ai4
zh u3
y i2
sh u4
j u4
ji n4
z i4
yi n1
f u4
f ang1
ji ng1
n an2
hu a4
zh ou1
pi ng2
xi a4
l ai2
yo ng4
gu an1
t ong2
y u4
ãĢ ĭ
ãĢ Ĭ
f a3
zh u4
m ei3
Â ·
ji an1
b o
h uo4
b en3
xi ang1
zh i2
d ong4
xi ang4
mi n2
zh e4
ji ang1
q i1
f en1
sh ou3
q uan2
w en2
y an2
s uo3
ji ao4
q ian2
di an4
t e4
d uo1
z ui4
k ai1
ji e2
l ian2
zh i3
x i4
k e3
e ng3
e i1
d an4
m u4
y e4
d u4
f u2
sh u
m a3
y e3
d ong1
qi u2
b ei3
ãĢ Į
ãĢ į
g ao1
y a4
o u2
d u
ji e1
u n2
mi an4
h ai3
zh ang3
sh i1
ji n1
c i3
n ei4
s ai4
s an1
t ai2
g e2
xi ng4
g uo4
20 1
de ng3
y ao4
ch e1
c i4
s u
m o
r u4
w u3
g ai1
k u
di ng4
ch ang2
bi ao3
l a1
t i3
g ong4
ji e4
sh ou4
d ao3
sh an1
ch ang3
s i4
l v
z e2
t i2
k e1
d ang1
n eng2
er 4
w ai4
e i2
ch u
d an1
q i3
z i
k ou3
xi ao3
z u3
b a1
ju e2
li n2
li u2
n i
sh eng3
yi ng1
l an2
b i3
l uo2
t ong1
20 0
zh ong4
zh e3
sh u3
ti an1
zh en4
zh ong3
li e4
q i4
ch eng1
sh u1
yu an4
b ao3
t ai4
f u3
f eng1
m i3
qi ng1
sh en1
w ang2
yu n4
gu an3
f ei1
ji u4
g u3
li ang3
c eng2
m ei2
1 0
f en4
h ao4
y an3
we i3
z ong3
xu an3
xi ao4
d a2
n a4
li ang4
bo 1
z u2
ji ng4
b ao4
n i2
w u2
t ong3
hu a2
ji ao1
yu e1
yi ng3
bi an4
xi ng1
s u4
shu i3
y ang2
m en
b ao1
g e1
bo 2
c an1
c ong2
di an3
r u2
b an4
b i4
bi an1
w ang3
q u3
ch an3
s e4
z i1
q u
0 0
ch uan2
n v
sh eng4
r an2
t u2
zh ang1
x u4
p u3
g ai3
g ang3
nv 3
li ng4
l uo4
yo u4
t ou2
h u4
ch a2
c e4
ch i2
1 8
lv 4
qi an1
l i2
d ou1
1 2
zh eng1
k uo4
sh a1
l u
d ang3
f an3
g ou4
l ei4
x i2
ji ng3
t uan2
we i1
xi e1
li ng3
l ong2
gu i1
xi an1
r ong2
hu ang2
xi ang3
b an1
ji u3
yi ng4
m en2
sh ang1
sh en2
20 2
b an3
k a3
c u
m u3
ji n3
f u1
j u3
mo 2
gu ang3
c i2
sh uo1
qi ng2
zh an3
h ai2
zhu ang1
mo 4
c ai2
ji 3
d u2
1 1
pi n3
ti ng2
ch ao2
yi ng2
w o
ti ao2
p o
ji an3
t ang2
hu i2
du an4
ch en2
g en1
m i4
w an4
p ai2
w an1
z ao4
h ang2
w an2
bi ao1
l un2
19 9
xi e2
ji ang3
h an4
j u2
f an4
f ang2
h uo2
g u4
h an2
k ong1
ti e3
m eng2
bi e2
w u1
ji e3
zhu an1
yi n3
x u1
zh en1
ji a4
bi ng1
mi ng4
li ng2
h ong2
qi n1
z i3
lu n4
t u
o r
xi n4
ch u4
s u1
xi u1
ch u3
z ong1
1 5
h u2
qu e4
xi ao1
zh ao4
qi ang2
q u4
cu n1
ch ong2
pi an4
ji u1
f ang4
su i2
sh ou1
g eng4
â Ģ
gu ang1
j u1
ji a3
chu ang4
d i2
zhu an3
1 6
g uo3
xu n4
m an4
p ai4
f ei4
p ei4
19 8
d a3
t uo1
xu an1
ch u2
b ai2
l a
o n
zh u1
d u1
t u3
di ao4
xi a2
li u4
1 7
s ui4
hu i1
ti ng1
qi e3
t a3
qi ao2
h a1
g an3
z eng1
xi an3
m ai4
hu an2
x u3
w a3
tu i1
w en4
ch ao1
t ian2
b ai3
c ai3
li ang2
y a2
s a4
a r
b ai4
c un2
ji ao3
sh ao3
y an4
zhu ang4
d i3
h uo3
le i2
1 4
ji ang4
chu an1
yi n4
z ao3
yo ng3
s i3
de ng1
3 0
zhu n3
l e4
xu n2
n uo4
hu an4
s ong4
g ao4
l u3
1 3
19 4
b ang1
lv 3
y ang4
h en3
q un2
zh eng3
gu an4
po 4
g ang1
wo 3
19 7
hu a1
le i1
h ao3
t ao2
ku ang4
p i1
du n4
n ong2
g ei3
s ai1
shu ang1
li an4
ku ai4
i n
d i1
p an4
xi e3
19 5
k ao3
g ai4
h e4
h ei1
w ang4
li ao4
r e4
g e
z uo3
k ong4
19 6
y ang1
ch ang4
yi n2
r eng2
s en1
b ei1
l u2
pi ao4
y a1
k u4
2 5
bi n1
âĢ Ķ
r ang4
ch ong1
l ou2
b u3
l ao3
zh u2
ju n4
y ang3
r ui4
y ao1
xi an2
xi e4
ni an4
f or
yo u1
t an2
k ang1
p i2
h eng2
yu n2
k an4
ni ng2
li ao2
sh ao4
b u2
qi ng3
ch i3
2 4
m u
d ou4
mi an3
y ong1
t an3
w an3
h u1
r u
f an1
a l
t u1
g an1
su an4
di ng1
yu an3
w en1
t ui4
zh e
s t
2 1
xi u4
b a3
m an3
19 3
2 3
mu la
k ang4
for mula
2 8
t h
m ao2
r uo4
pi an1
m ao4
l ang3
qi n2
b a2
n a2
z an4
xi 3
gu i3
g ui4
r e
pi n2
wo 4
xi ong2
sh an4
2 2
xi ong1
m e
su i1
2 6
sh en3
qi ng4
mi ao2
f ang3
5 0
20 20
2 7
l ang2
o u
qi u1
s ong1
r i
d ang4
g eng1
qi ang1
f a2
z ao1
f eng4
zh ang4
ï ¼
h ao2
du n1
z ou3
h ai4
qi e4
2 9
t an4
z u
p ao4
p a4
shu n4
p eng2
xu an2
201 0
n i3
00 0
di ng3
ni u3
z ai3
zh ao1
zhu i1
lv e4
chu n1
20 19
hu n1
k ong3
ch e4
du an1
sh en4
xi ang2
du an3
g an4
r o
t e
k an1
l ao2
c ao3
201 6
s i
g u1
p ei2
de Ġ
Ġ deĠ
shi4 Ġ
Ġ shi4Ġ
Ġ nian2
Ġnian2 Ġ
wei4 Ġ
zai4 Ġ
Ġ wei4Ġ
Ġ zai4Ġ
he2 Ġ
Ġ he2Ġ
zhong1 Ġ
bu4 Ġ
di4 Ġ
shi2 Ġ
guo2 Ġ
yu2 Ġ
ren2 Ġ
Ġ bu4Ġ
yi1 Ġ
Ġ zhong1Ġ
li4 Ġ
zhi4 Ġ
gong1 Ġ
Ġ shi2Ġ
yue4 Ġ
ji2 Ġ
cheng2 Ġ
yi4 Ġ
you3 Ġ
Ġ di4Ġ
Ġ yue4Ġ
Ġ yu2Ġ
Ġ ren2Ġ
Ġ zhi4Ġ
da4 Ġ
Ġ ji2Ġ
yuan2 Ġ
Ġ you3Ġ
ji4 Ġ
Ġ guo2Ġ
Ġ li4Ġ
Ġ gong1Ġ
Ġ yi4Ġ
Ġ yi3
Ġ cheng2Ġ
jia1 Ġ
si1 Ġ
yu3 Ġ
Ġ xian4
Ġ ri4
Ġ yi1Ġ
Ġ xing2
Ġ ta1
li3 Ġ
ji1 Ġ
Ġ dao4
hou4 Ġ
wei2 Ġ
Ġ zhi1
Ġ da4Ġ
Ġ yuan2Ġ
xi1 Ġ
Ġri4 Ġ
Ġ ge4
Ġyi3 Ġ
Ġ le
xue2 Ġ
hui4 Ġ
Ġ yu3Ġ
zuo4 Ġ
Ġ ji4Ġ
ming2 Ġ
bei4 Ġ
Ġ qi2
Ġ chu1
Ġ jian4
Ġ si1Ġ
Ġ de2
Ġxing2 Ġ
sheng1 Ġ
Ġdao4 Ġ
Ġ ji1Ġ
Ġ hou4Ġ
zheng4 Ġ
Ġxian4 Ġ
dui4 Ġ
shang4 Ġ
qu1 Ġ
shi3 Ġ
Ġ jia1Ġ
Ġ er3
Ġ xi1Ġ
you2 Ġ
Ġta1 Ġ
Ġ li3Ġ
Ġ er2
Ġ jun1
zhan4 Ġ
Ġ bing4
Ġzhi1 Ġ
Ġge4 Ġ
zhu3 Ġ
Ġle Ġ
ren4 Ġ
zi4 Ġ
wu4 Ġ
fu4 Ġ
xin1 Ġ
dai4 Ġ
ju4 Ġ
ping2 Ġ
Ġ ke4
Ġ zhou1
xiang1 Ġ
Ġchu1 Ġ
Ġ hui4Ġ
nan2 Ġ
Ġ she4
Ġ bei4Ġ
shu4 Ġ
an1 Ġ
Ġ ming2Ġ
xia4 Ġ
guan1 Ġ
Ġer3 Ġ
Ġ yin1
Ġ yu4
jing1 Ġ
hua4 Ġ
yan2 Ġ
Ġjian4 Ġ
lu4 Ġ
fang1 Ġ
Ġde2 Ġ
kai1 Ġ
Ġ dan4
jian1 Ġ
Ġer2 Ġ
min2 Ġ
zhu4 Ġ
shou3 Ġ
zhe4 Ġ
fa1 Ġ
lai2 Ġ
Ġ wei2Ġ
xiang4 Ġ
wen2 Ġ
yong4 Ġ
Ġjun1 Ġ
xi4 Ġ
qian2 Ġ
ben3 Ġ
te4 Ġ
zhi2 Ġ
fa3 Ġ
qi1 Ġ
jie2 Ġ
lian2 Ġ
Ġbing4 Ġ
Ġ dong4
Ġqi2 Ġ
dian4 Ġ
Ġke4 Ġ
Ġ jin4
dong1 Ġ
Ġ dui4Ġ
Ġ huo4
mu4 Ġ
jiao4 Ġ
fen1 Ġ
tai2 Ġ
Ġ zhan4Ġ
zhang3 Ġ
du4 Ġ
Ġ qiu2
jiang1 Ġ
Ġ ping2Ġ
ye4 Ġ
gao1 Ġ
Ġzhou1 Ġ
bei3 Ġ
suo3 Ġ
shi1 Ġ
Ġyu4 Ġ
duo1 Ġ
jie1 Ġ
ge2 Ġ
Ġ shang4Ġ
jin1 Ġ
a1 Ġ
Ġ zuo4Ġ
fu2 Ġ
Ġ zheng4Ġ
an4 Ġ
kou3 Ġ
Ġ you2Ġ
zhi3 Ġ
guo4 Ġ
Ġ tong2
Ġ fu4Ġ
ma3 Ġ
tong1 Ġ
Ġ ren4Ġ
Ġ xue2Ġ
zui4 Ġ
hai3 Ġ
ci3 Ġ
quan2 Ġ
xing4 Ġ
ru4 Ġ
wai4 Ġ
nei4 Ġ
la1 Ġ
jue2 Ġ
ke3 Ġ
tian1 Ġ
deng3 Ġ
chang3 Ġ
chang2 Ġ
shan1 Ġ
wu3 Ġ
zhen4 Ġ
zi Ġ
yao4 Ġ
an3 Ġ
bi3 Ġ
qi3 Ġ
Ġyin1 Ġ
ye3 Ġ
gai1 Ġ
mi3 Ġ
ao4 Ġ
ya4 Ġ
mian4 Ġ
bao3 Ġ
ci4 Ġ
zhong4 Ġ
jie4 Ġ
shou4 Ġ
Ġshe4 Ġ
feng1 Ġ
Ġ ju4Ġ
zhong3 Ġ
che1 Ġ
Ġ zhe4Ġ
Ġ sheng1Ġ
ti3 Ġ
lin2 Ġ
1 Ġ
bao1 Ġ
sai4 Ġ
yi2 Ġge4Ġ
Ġ dai4Ġ
shen1 Ġ
ding4 Ġ
Ġdan4 Ġ
sheng3 Ġ
ai4 Ġ
luo2 Ġ
yi2 Ġ
Ġdong4 Ġ
mei3 Ġguo2Ġ
xiao3 Ġ
san1 Ġ
neng2 Ġ
qi4 Ġ
shu1 Ġ
ze2 Ġ
zhe3 Ġ
lie4 Ġ
xuan3 Ġ
liu2 Ġ
2 Ġ
si4 Ġ
Ġqiu2 Ġ
qing1 Ġ
yuan4 Ġ
jing4 Ġ
e2 Ġ
wang2 Ġ
ke1 Ġ
ba1 Ġ
tai4 Ġ
lan2 Ġ
Ġhuo4 Ġ
ying3 Ġ
bao4 Ġ
zong3 Ġ
bi4 Ġ
fu3 Ġ
dao3 Ġ
gu3 Ġ
1 Ġnian2Ġ
ying1 Ġ
Ġ xin1Ġ
fen4 Ġ
ge1 Ġ
5 Ġnian2Ġ
xiao4 Ġ
ni2 Ġ
yue1 Ġ
Ġ zi4Ġ
na4 Ġ
jiao1 Ġ
2 Ġnian2Ġ
ru2 Ġ
er4 Ġ
4 Ġnian2Ġ
zi1 Ġ
dan1 Ġ
Ġ zh
hao4 Ġ
8 Ġnian2Ġ
3 Ġnian2Ġ
liang4 Ġ
tou2 Ġ
pu3 Ġ
guan3 Ġ
biao3 Ġ
cheng1 Ġ
su4 Ġ
chuan2 Ġ
xing1 Ġ
wu2 Ġ
ti2 Ġ
Ġ mi3Ġ
nv3 Ġ
yan3 Ġ
chan3 Ġ
Ġjin4 Ġ
bo2 Ġ
fei1 Ġ
bo1 Ġ
Ġzhong1Ġ guo2Ġ
se4 Ġ
da2 Ġ
Ġ dang1
mei3 Ġ
ao3 Ġ
Ġ m
Ġwei4Ġ yu2Ġ
ceng2 Ġ
shui3 Ġ
Ġ zhu4Ġ
7 Ġnian2Ġ
wang3 Ġ
Ġ xia4Ġ
tu2 Ġ
Ġ xiang1Ġ
gui1 Ġ
bian4 Ġ
Ġ nan2Ġ
Ġ ran2
bian1 Ġ
yang2 Ġ
le Ġ
zhang1 Ġ
dian3 Ġ
Ġ t
cong2 Ġ
gai3 Ġ
jiu4 Ġ
bao1Ġ kuo4
hua2 Ġ
sheng4 Ġ
lv4 Ġ
gang3 Ġ
zu3 Ġ
Ġ c
Ġ ben3Ġ
sha1 Ġ
jing3 Ġ
jian3 Ġ
shu3 Ġ
qing2 Ġ
zu2 Ġ
liang3 Ġ
tong3 Ġ
ban4 Ġ
gong4 Ġ
shang1 Ġ
li2 Ġ
tong2 Ġ
long2 Ġ
0 Ġnian2Ġ
3 Ġ
xu4 Ġ
9 Ġnian2Ġ
luo4 Ġ
chi2 Ġ
5 Ġ
jin4 Ġ
mei2 Ġ
hu4 Ġ
ban1 Ġ
Ġ lu4Ġ
guang3 Ġ
ce4 Ġ
jin3 Ġ
Ġta1Ġ men
shen2 Ġ
zhi1 Ġ
mi4 Ġ
ai1 Ġ
zheng1 Ġ
wei1 Ġ
6 Ġnian2Ġ
you4 Ġ
a4 Ġ
Ġ gai1Ġ
fan3 Ġ
ting2 Ġ
xi2 Ġ
chu1 Ġ
ka3 Ġ
cai2 Ġ
cha2 Ġ
qu3 Ġ
shuo1 Ġ
Ġ zhu3Ġ
ci2 Ġ
xiang3 Ġ
yun4 Ġ
jiang3 Ġ
men2 Ġ
e4 Ġ
mu3 Ġ
wei3 Ġ
t Ġ
tuan2 Ġ
Ġgong1Ġ li3Ġ
ling3 Ġ
yan2Ġ jiu1
chao2 Ġ
Ġ 200
lei4 Ġ
ying4 Ġ
tang2 Ġ
pin3 Ġ
jian4 Ġ
4 Ġ
Ġyi3 Ġji2Ġ
jia4 Ġ
chen2 Ġ
xie1 Ġ
Ġ duo1Ġ
yin3 Ġ
hang2 Ġ
dong4 Ġ
Ġ you2
yi3 Ġ
jiu3 Ġ
pai2 Ġ
fu1 Ġ
gou4 Ġ
lun2 Ġ
rong2 Ġ
ling4 Ġ
jie3 Ġ
tai2Ġ wan1
qi2 Ġ
ang1 Ġ
dang3 Ġ
ĠdeĠ di4Ġ
ke3 Ġyi3Ġ
shi3Ġ yong4Ġ
xian1 Ġ
duan4 Ġ
xu1 Ġ
huang2 Ġ
ke4 Ġ
0 Ġ
ying2 Ġ
tiao2 Ġ
biao1 Ġ
ĠdeĠ yi1Ġ
qian1 Ġ
e ĠĠĠ
zhan3 Ġ
xian4 Ġ
mo2 Ġ
u2 Ġ
Ġcheng2Ġ wei2Ġ
ban3 Ġ
mei2 Ġyou3Ġ
ou1 Ġ
xiao1 Ġ
hong2 Ġ
s Ġ
han4 Ġ
wei3 Ġyuan2Ġ
ling2 Ġ
kai1Ġ shi3Ġ
su1 Ġ
zhuang1 Ġ
Ġtong2 Ġ
meng2 Ġ
ju2 Ġ
hui2 Ġ
cun1 Ġ
6 Ġ
kong1 Ġ
Ġqi2 Ġzhong1Ġ
ren2Ġ kou3Ġ
yu4 Ġ
bao1Ġkuo4 Ġ
fang2 Ġ
Ġgong1Ġ si1Ġ
dou1 Ġ
ang2 Ġ
ĠdeĠ shi4Ġ
ĠĠĠ zai4Ġ
yin1 Ġ
ao1 Ġ
n1 Ġ
qiang2 Ġ
huo4 Ġ
zhao4 Ġ
zheng4 Ġzhi4Ġ
yi2 Ġge4
du2 Ġ
mo4 Ġ
zi3 Ġ
fa3 Ġguo2Ġ
cai3 Ġ
bing1 Ġ
xin4 Ġ
Ġda4Ġ xue2Ġ
Ġshi4Ġ yi1Ġ
qin1 Ġ
Ġta1 ĠdeĠ
hai2 Ġ
chu4 Ġ
Ġ 201
lun4 Ġ
zhen1 Ġ
wan4 Ġ
hu2 Ġ
fan4 Ġ
xing2 Ġ
wen4 Ġ
ou4 Ġ
man4 Ġ
guang1 Ġ
ju1 Ġ
xun4 Ġ
biao3 Ġshi4Ġ
s ĠĠĠ
she4 Ġ
zhong1 ĠdeĠ
Ġ gao1Ġ
zhuan1 Ġ
wan2 Ġ
can1 Ġ
da3 Ġ
zong1 Ġ
bai2 Ġ
dian4 Ġshi4Ġ
yin4 Ġ
diao4 Ġ
ming4 Ġ
Ġshi4Ġ wei4Ġ
shi4 ĠdeĠ
8 Ġ
pian4 Ġ
fei4 Ġ
zhuan3 Ġ
en3 Ġ
tuo1 Ġ
ju3 Ġ
xiu1 Ġ
han2 Ġ
7 Ġ
xie2 Ġ
gu4 Ġ
Ġbu4Ġ fen4Ġ
Ġren2Ġ kou3Ġ
guo3 Ġ
ĠĠĠ 201
ta1 Ġ
Ġhe2Ġ guo2Ġ
zhong1Ġ guo2Ġ
dang1 Ġ
10 Ġyue4Ġ
Ġ ã
ou2 Ġ
e1 Ġ
zao4 Ġ
12 Ġyue4Ġ
7 Ġyue4Ġ
wu1 Ġ
9 Ġyue4Ġ
Ġ dong1Ġ
Ġ mu4Ġ
mian4 Ġji1Ġ
Ġren2Ġ min2Ġ
que4 Ġ
8 Ġyue4Ġ
Ġ zui4
di2 Ġ
Ġdi4Ġ qu1Ġ
huan2 Ġ
3 Ġyue4Ġ
Ġ hu
zhu1 Ġ
an2 Ġ
jia3 Ġ
Ġ 19
1 Ġyue4Ġ
du1 Ġ
Ġ ye3Ġ
di3 Ġ
Ġ jin1Ġ
shou1 Ġ
ou3 Ġ
ting1 Ġ
5 Ġyue4Ġ
gan3 Ġ
ying1 Ġguo2Ġ
e Ġ
dao4 Ġ
zhuang4 Ġ
ang3 Ġ
Ġ ci3Ġ
zheng4 Ġshi4Ġ
huo3 Ġ
zhou1 Ġ
chong2 Ġ
6 Ġyue4Ġ
xia2 Ġ
Ġ jiang1Ġ
geng4 Ġ
yan2Ġjiu1 Ġ
cheng2 Ġshi4Ġ
4 Ġyue4Ġ
Ġguo2Ġ jia1Ġ
yong3 Ġ
ĠĠĠ di4Ġ
fang4 Ġ
tian2 Ġ
jun1 Ġ
shu3 Ġyu2Ġ
Ġping2Ġ fang1
Ġ p
ji3 Ġ
bie2 Ġ
qun2 Ġ
Ġdi4Ġ yi1Ġ
jiang4 Ġ
a Ġ
gen1 Ġ
hui1 Ġ
n3 Ġ
11 Ġyue4Ġ
i4 Ġ
Ġ te4Ġ
Ġshi4Ġ ji4Ġ
Ġping2Ġfang1 Ġgong1Ġli3Ġ
nong2 Ġ
Ġtong2 Ġshi2Ġ
xun2 Ġ
tie3 Ġ
shuang1 Ġ
Ġ ru2Ġ
pai4 Ġ
qu4 Ġ
Ġ C
Ġ g
Ġ fen1Ġ
liang2 Ġ
dan1 Ġren4Ġ
u3 Ġ
tao2 Ġ
shao3 Ġ
ta3 Ġ
er3 Ġ
Ġ ye3
ang4 Ġ
dian4Ġ ying3Ġ
tai2Ġwan1 Ġ
jiao3 Ġ
9 Ġ
qiao2 Ġ
bai3 Ġ
en1 Ġ
chu3 Ġ
si3 Ġ
i2 Ġ
ĠdeĠ shi2Ġ
Ġ S
i1 Ġ
Ġ zhe4
gao4 Ġ
yun4 Ġdong4
gen1 Ġju4Ġ
li4Ġ shi3Ġ
pan4 Ġ
yin2 Ġ
Ġ l
Ġ 18
chao1 Ġ
yan4 Ġ
chuang4 Ġ
Ġshi4Ġ zhen4Ġ
can1 Ġjia1Ġ
ao2 Ġ
Ġyin1 Ġwei4Ġ
gang1 Ġ
ĠĠĠ S
bai4 Ġ
guo2 ĠdeĠ
che1 Ġzhan4Ġ
qi1Ġ jian1Ġ
Ġping2Ġ fang1Ġ
Ġ s
li4 ĠdeĠ
zheng4Ġ fu3Ġ
Ġri4Ġ ben3Ġ
Ġnian2 ĠdeĠ
gai4 Ġ
bing4 Ġ
wa3 Ġ
wo3 Ġ
zhun3 Ġ
huan4 Ġ
i3 Ġ
ya2 Ġ
gong4 Ġhe2Ġguo2Ġ
Ġxian4 ĠdeĠ
chuan1 Ġ
song4 Ġ
lei2 Ġ
ha1 Ġ
hei1 Ġ
formula Ġ
ai3 Ġ
qu1 ĠdeĠ
ti2 Ġgong1Ġ
qie3 Ġ
ng3 Ġ
hen3 Ġ
uo2 Ġ
2 Ġyue4Ġ
hua1 Ġ
sui2 Ġ
lei1 Ġ
deng1 Ġ
jing1 Ġji4Ġ
ĠĠĠ 200
huo2 Ġ
Ġ h
Ġzhong1Ġ yang1
kao3 Ġ
Ġguo2Ġ ji4Ġ
chu2 Ġ
n4 Ġ
shang4 ĠdeĠ
Ġ 199
tong1Ġ guo4Ġ
Ġ A
Ġyou2 Ġyu2Ġ
wei3Ġyuan2Ġ hui4Ġ
lian4 Ġ
Ġta1Ġmen Ġ
nuo4 Ġ
cheng1 Ġwei2Ġ
Ġ tian1Ġ
Ġshi4Ġ jie4Ġ
Ġ bei3Ġ
Ġyin1Ġ ci3Ġ
kuai4 Ġ
mai4 Ġ
zuo3 Ġ
d ĠĠĠ
ming2 Ġwei4Ġ
Ġ qian2Ġ
Ġshi4Ġ zai4Ġ
zhu3 Ġyi4Ġ
sa4 Ġ
tu3 Ġ
Ġzhi1 Ġhou4Ġ
Ġran2 Ġ
Ġ 3
xiang1Ġ gang3Ġ
1 Ġri4Ġ
piao4 Ġ
shi2 ĠdeĠ
a2 Ġ
chi3 Ġ
ĠĠĠ 202
xi4Ġ tong3Ġ
Ġ n
liao4 Ġ
chong1 Ġ
quan2 Ġguo2Ġ
00 Ġ
Ġ hai3Ġ
lu3 Ġ
Ġ jie2Ġ
uo4 Ġ
pei4 Ġ
po4 Ġ
xuan1 Ġ
xu3 Ġ
lu2 Ġ
ri4 Ġ
Ġxing2 ĠdeĠ
ren2 ĠdeĠ
suo3 Ġyou3Ġ
kuang4 Ġ
Ġdang1 Ġ
zeng1 Ġ
men Ġ
guan3 Ġli3Ġ
qiu2 Ġ
Ġzhi1 Ġyi1Ġ
heng2 Ġ
Ġ M
ai2 Ġ
pi1 Ġ
Ġgong1Ġ zuo4Ġ
sui4 Ġ
sen1 Ġ
yang4 Ġ
da4 ĠdeĠ
di1 Ġ
xuan1 Ġbu4Ġ
Ġzhong1Ġ xin1Ġ
liu4 Ġ
zao3 Ġ
Ġ ma3Ġ
Ġ jing1Ġ
de2 Ġ
wang4 Ġ
chang4 Ġ
bu4 ĠdeĠ
jin4 Ġxing2Ġ
uo1 Ġ
Ġ 4
he4 Ġ
fa1 Ġxian4Ġ
Ġta1 Ġzai4Ġ
qian1 Ġmi3Ġ
C Ġ
dun4 Ġ
ying3Ġ xiang3Ġ
bu3 Ġ
er2 Ġ
zu3 Ġzhi1Ġ
ĠĠĠ sheng1Ġ
yang3 Ġ
2020 Ġnian2Ġ
luo2 Ġsi1Ġ
sai1 Ġ
Ġ bao1Ġkuo4Ġ
Ġshi4Ġ jie4
cheng2 ĠdeĠ
t ĠĠĠ
xian2 Ġ
ke3Ġ neng2
pi2 Ġ
nian4 Ġ
Ġ shi3Ġ
Ġjin4 Ġxing2Ġ
bang1 Ġ
Ġ zui4Ġ
Ġcheng2Ġ li4Ġ
Ġ deng3Ġ
lao3 Ġ
bei1 Ġ
le4 Ġ
Ġ 198
Ġren4Ġ wei2Ġ
Ġ gai1
you1 Ġ
eng2 Ġ
jun4 Ġ
a ĠĠĠ
wen2Ġ hua4Ġ
hao3 Ġ
fa1Ġ zhan3Ġ
ke1 Ġxue2Ġ
Ġ k
liao2 Ġ
huo2 Ġdong4Ġ
Ġzuo4Ġ wei2Ġ
ku4 Ġ
Ġping2Ġfang1Ġ qian1Ġmi3Ġ
ge4 Ġ
qi2 Ġta1Ġ
Ġ f
hua2 Ġren2Ġmin2Ġ
tan2 Ġ
ri4 Ġben3Ġ
Ġ T
hui4 Ġyi4Ġ
miao2 Ġ
y ĠĠĠ
Ġ a1Ġ
jian1 ĠdeĠ
tie3 Ġlu4Ġ
Ġ shou3Ġ
ĠdeĠ ren2Ġ
bi3Ġ sai4Ġ
rui4 Ġ
ning2 Ġ
lou2 Ġ
yong4 Ġyu2Ġ
Ġ 202
zheng3 Ġ
2010 Ġnian2Ġ
ĠdeĠ gong1Ġ
Ġshi2Ġ jian1Ġ
xian3 Ġ
mian3 Ġ
ui4 Ġ
Ġ I
ran2 Ġ
re4 Ġ
mian4Ġ ji1
A Ġ
y a3
min2 Ġguo2Ġ
wu1 Ġke4Ġ
Ġ B
gong4 Ġyou3Ġ
ĠĠĠ li4Ġshi3Ġ
Ġ ch
yuan3 Ġ
zhu3Ġ yao4Ġ
dou4 Ġ
ge Ġ
wen4Ġ ti2Ġ
ĠĠĠsheng1Ġ ping2Ġ
hua2Ġren2Ġmin2Ġ gong4Ġhe2Ġguo2Ġ
fang1 Ġshi4Ġ
Ġ qing1Ġ
cun2 Ġ
Ġ 5
guan4 Ġjun1Ġ
Ġdi4Ġ er4Ġ
ke3Ġ neng2Ġ
di4 ĠdeĠ
10 Ġ
u1 Ġ
dao3 Ġzhi4Ġ
Ġ fu2Ġ
guan1Ġ xi4Ġ
y Ġ
Ġ mei3
Ġ P
fen1 Ġbu4Ġ
Ġgong1Ġ cheng2Ġ
wan2 Ġcheng2Ġ
dan1 Ġwei4Ġ
dai4Ġ biao3Ġ
ya1 Ġ
yi1 Ġwei4Ġ
Ġhuo4 Ġde2Ġ
tui1 Ġ
Ġbu4Ġ fen4
Ġ wu2Ġ
Ġ you4Ġ
ĠĠĠ C
Ġ 15
a m
zhi4 ĠdeĠ
Ġcheng2Ġ yuan2Ġ
2016 Ġnian2Ġ
d Ġ
ĠdeĠ cheng2Ġ
Ġ 194
zhang4 Ġ
gan1 Ġ
kai1Ġ shi3
2019 Ġnian2Ġ
lv3 Ġ
jiao4 Ġyu4Ġ
yuan2 ĠdeĠ
yong1 Ġyou3Ġ
cun2 Ġzai4Ġ
Ġ zhi2
er4 Ġshi2Ġ
ĠĠĠ M
Ġ 6
eng1 Ġ
bei3 Ġbu4Ġ
lian2 Ġhe2Ġ
bin1 Ġ
you2 Ġyu2Ġ
yun2 Ġ
hou4 ĠdeĠ
Ġ cong2Ġ
Ġjian4Ġ zhu4Ġ
Ġshi4Ġ zhong1Ġ
pian1 Ġ
xuan2 Ġ
guo2Ġ jia1Ġ
dui4 Ġyu2Ġ
niu3 Ġ
yi4 ĠdeĠ
Ġle Ġyi1Ġ
ju4 Ġyou3Ġ
xiu4 Ġ
shao4 Ġ
zheng4Ġ fu3
Ġ D
shen3 Ġ
xie4 Ġ
Ġbing4 Ġzai4Ġ
kang1 Ġ
xin1 ĠdeĠ
si1 ĠdeĠ
gui4 Ġ
gei3 Ġ
shi3Ġ yong4
e2Ġ luo2Ġsi1Ġ
yin4Ġ du4Ġ
fu2Ġ wu4Ġ
wan3 Ġ
tu1 Ġ
Ġdan4 Ġshi4Ġ
ren4 Ġhe2Ġ
sheng1 Ġyu2Ġ
ding1 Ġ
che4 Ġ
xu3 Ġduo1Ġ
rang4 Ġ
Ġ suo3
Ġ mian4Ġji1Ġ
xing2 Ġzheng4Ġ
liang3 Ġge4Ġ
qing3 Ġ
fa1Ġ sheng1Ġ
Ġzhong1Ġyang1 Ġ
Ġren2Ġkou3Ġ mi4Ġ
huo4 Ġde2Ġ
Ġ jin3Ġ
Ġ 16
zi4Ġ ji3
ĠdeĠ yi2Ġge4Ġ
nan2 Ġbu4Ġ
man3 Ġ
zhuan1 Ġji2Ġ
mian4Ġji1 Ġwei4Ġ
Ġ b
bao3Ġ hu4Ġ
Ġdao4 ĠleĠ
yun4 Ġdong4Ġ
Ġdang1 Ġshi2Ġ
Ġ mei3Ġguo2Ġ
Ġqi2 Ġta1Ġ
lai2 ĠdeĠ
Ġ ling4Ġ
Ġzheng4Ġ fu3Ġ
Ġ xiang4Ġ
Ġtong2 Ġnian2Ġ
xie3 Ġ
eng4 Ġ
ruo4 Ġ
wen1 Ġ
Ġchu1 ĠdeĠ
du2 Ġli4Ġ
jue2Ġ ding4Ġ
zhu3Ġ yao4
Ġshe4 Ġji4Ġ
fan1 Ġ
mao2 Ġ
Ġ shi3
Ġli4Ġ shi3Ġ
Ġ 195
suan4 Ġ
Ġ lian2Ġ
Ġ ying1Ġ
e l
ming2 ĠdeĠ
Ġ luo2Ġ
geng1 Ġ
Ġ zong3Ġ
qin2 Ġ
can1 Ġyu4Ġ
hai4 Ġ
tan4 Ġ
fa1 Ġxing2Ġ
Ġshi4Ġwei4Ġ yu2Ġ
jiu4 Ġshi4Ġ
fang1Ġ mian4Ġ
Ġyou3Ġ yi1Ġ
Ġyu2Ġ 201
Ġ zhi3
shu4Ġ ju4Ġ
Ġg tĠ
kan4 Ġ
zhi2Ġ wu4Ġ
Ġ 197
kan1 Ġ
a c
fang3 Ġ
ren4Ġ wei2Ġ
ti on
shan4 Ġ
Ġ ci3
pei2 Ġ
xiang1Ġ gang3
ĠĠĠ A
Ġ 7
Ġshi4Ġ di4Ġ
hu1 Ġ
tui4 Ġ
Ġl tĠ
yi4 Ġwei4Ġ
gu4 Ġshi4Ġ
Ġ ba1Ġ
Ġxian4 Ġzai4Ġ
fa1Ġ zhan3
she4 Ġhui4Ġ
Ġxing2Ġ zheng4Ġ
qu1 Ġwei4Ġ
feng4 Ġ
wan1 Ġ
qiang1 Ġ
lang3 Ġ
T Ġ
zhe Ġ
ju3 Ġxing2Ġ
Ġshi4Ġ shi4Ġ
duan3 Ġ
Ġli4Ġ ru2Ġ
lie4Ġ che1Ġ
er Ġ
Ġzui4 Ġzhong1Ġ
nei4 ĠdeĠ
shou4 Ġdao4Ġ
Ġ E
e3 Ġ
shu3 ĠdeĠ
xiao3 Ġshi2Ġ
su an1Ġ
zu2 Ġqiu2Ġ
lang2 Ġ
dian4Ġ ying3
Ġyu2Ġ 200
Ġbu4Ġ tong2
hua4 ĠdeĠ
su n1Ġ
xu1Ġ yao4Ġ
kong4 Ġ
song1 Ġ
ren2 Ġshi4Ġ
pao4 Ġ
lai2Ġ zi4Ġ
zuo4 ĠdeĠ
Ġ 8
zeng1 Ġjia1Ġ
Ġji4Ġ hua4Ġ
min2Ġ zhu3Ġ
tan3 Ġ
zuo4Ġ wei2Ġ
Ġshi2Ġ qi1Ġ
mao4 Ġ
dan4 Ġ
ĠĠĠ P
Ġ zhi3Ġ
kong4 Ġzhi4Ġ
xiang2 Ġ
Ġshi4Ġ jian4Ġ
Ġjian4 ĠdeĠ
xiong2 Ġ
Ġyin1 Ġyue4Ġ
Ġ sui1
Ġ tong1Ġ
Ġran2 Ġer2Ġ
o l
y ao2Ġ
Ġ H
zuo4Ġ pin3Ġ
Ġzai4Ġ di4Ġ
ren2Ġ min2Ġ
Ġren2Ġ yuan2Ġ
xue2Ġ yuan4Ġ
ta1 ĠdeĠ
ba3 Ġ
S Ġ
xi4Ġ tong3
zu3 Ġcheng2Ġ
Ġyi3Ġ jing1Ġ
Ġ ceng2Ġ
Ġ 17
yin1 Ġyue4Ġ
zai3 Ġ
r Ġ
a1 Ġer3Ġ
Ġhe2Ġ zuo4Ġ
chao1Ġ guo4Ġ
Ġ mei3Ġ
zong3Ġ tong3Ġ
ku an3Ġ
hui4 ĠdeĠ
Ġjian4 Ġyu2Ġ
ji4 ĠdeĠ
y e2Ġ
Ġ shu3Ġyu2Ġ
Ġhou4Ġ lai2Ġ
Ġ zhang1Ġ
Ġ san1Ġ
Ġ L
yu2 Ġshi4Ġ
qiu1 Ġ
Ġ 196
Ġli4Ġ ya4Ġ
Ġcheng2Ġ gong1Ġ
fa1 Ġbu4Ġ
yao1 Ġqiu2Ġ
da4Ġ li4Ġ
Ġ quan2Ġ
Ġzhe4Ġ xie1Ġ
Ġ 000
Ġyi4Ġ yuan2Ġ
Ġ R
Ġshe4 Ġyou3Ġ
r a
yun4Ġdong4 Ġyuan2Ġ
Ġyin1Ġ ci3
Ġ wu3Ġ
han2 Ġguo2Ġ
bu4 Ġzai4Ġ
you3 ĠdeĠ
Ġ 9
ni2Ġ ya4
un2 Ġ
zao4 Ġcheng2Ġ
ĠĠĠ B
dang1 Ġshi2Ġ
ou1 Ġzhou1Ġ
zhui1 Ġ
Ġgong1Ġ yuan2Ġ
jie2Ġ mu4Ġ
Ġ you4
jia1 ĠdeĠ
xing4 ĠdeĠ
sheng1 ĠdeĠ
ĠdeĠ yi2Ġge4
Ġri4 Ġzai4Ġ
xiao3 Ġxing2Ġ
D Ġ
ren2Ġ wu4Ġ
xi4Ġ lie4Ġ
Ġci3Ġ wai4Ġ
gong4Ġ chan3Ġ
m Ġ
chun1 Ġ
Ġzh Ġ
Ġ liu2Ġ
Ġã ĥ
ding3 Ġ
ĠĠĠ T
Ġ 1
20 Ġ
Ġ N
Ġshi4Ġ he2Ġ
Ġ jiang1
ĠĠĠ deĠ
ma3 Ġwei4Ġ
zan4 Ġ
lve4 Ġ
Ġ G
ĠdeĠ bu4Ġ
ye3 Ġshi4Ġ
ku an1Ġ
o f
xue2Ġ jia1Ġ
xu e4Ġ
san1 Ġnian2Ġ
Ġ jian3Ġ
ni3 Ġ
ĠĠĠ 199
fan4 Ġwei2Ġ
Ġ ceng2
ĠĠĠ 19
bi3Ġ sai4
qing4 Ġ
Ġbu4Ġ tong2Ġ
Ġ wo3Ġ
ĠdeĠ ji1Ġ
you2Ġ xi4Ġ
Ġ gen1Ġju4Ġ
dang4 Ġ
Ġ an1Ġ
Ġxing2 Ġcheng2Ġ
ĠĠĠdi4Ġ li3Ġ
Ġde2 Ġguo2Ġ
zi4 Ġzhi4Ġ
Ġ 0
Ġ sui2
she4 Ġji4Ġ
ĠdeĠ ji4Ġ
Ġ ling4
shu1 Ġji4Ġ
Ġ cong2
Ġ xiao3Ġ
jue2Ġ se4Ġ
Ġshe4 Ġhui4Ġ
ï¼ į
dou1 Ġshi4Ġ
ĠĠĠ shi4Ġ
dun1 Ġ
yi1 Ġnian2Ġ
Ġ 193
chong2 Ġxin1Ġ
Ġ F
z a2
li3 ĠdeĠ
bu2 Ġshi4Ġ
o 2Ġ
xiong1 Ġ
guan1 Ġyu2Ġ
Ġzhong1Ġ hua2Ġ
sai4 Ġshi4Ġ
ge1Ġ qu3Ġ
Ġsi1Ġ te4Ġ
jiao1Ġ tong1Ġ
zhong4Ġ yao4
Ġyou2Ġ xi4Ġ
da4Ġ xue2Ġ
kai1Ġ fa1Ġ
i l
ji2 ĠdeĠ
wo4 Ġ
ong3 Ġ
pin2 Ġ
duan1 Ġ
qian2Ġ wang3Ġ
Ġ jiu4Ġ
Ġda4Ġ xue2
ping2 Ġjun1Ġ
k Ġ
Ġ 1Ġ
xian3 Ġshi4Ġ
Ġ guan1Ġ
qu e1Ġ
er4 Ġnian2Ġ
Ġzhong1Ġ hua2Ġren2Ġmin2Ġgong4Ġhe2Ġguo2Ġ
cao3 Ġ
hou4 Ġzai4Ġ
Ġ yan2Ġ
zhi2Ġ ye4Ġ
pa4 Ġ
xia4 ĠdeĠ
yan3 Ġyuan2Ġ
dang1 Ġdi4Ġ
Ġke4 Ġsi1Ġ
zou3 Ġ
fa1 Ġxian4
12 Ġ
Ġjian4 Ġli4Ġ
qu1Ġ yu4Ġ
guan3Ġ xia2Ġ
xuan3Ġ ju3Ġ
wei2 Ġyi1Ġ
peng2 Ġ
guo2Ġ ji4Ġ
dui4 ĠdeĠ
z ai1Ġ
bo2Ġ wu4Ġ
Ġ 10
Ġdi4Ġ guo2Ġ
qi an3Ġ
po 1Ġ
30 Ġ
cai3Ġ yong4Ġ
qi1 ĠdeĠ
fan3 Ġdui4Ġ
Ġdai4Ġ biao3Ġ
wu4 ĠdeĠ
qie4 Ġ
kong3 Ġ
zu3 Ġzhi1
Ġxiang1Ġ gang3Ġ
qu4 Ġshi4Ġ
Ġwei4Ġ leĠ
ni u2Ġ
yi1 Ġbu4Ġfen4Ġ
chu2 ĠleĠ
Ġ 14
Ġã ģ
ba2 Ġgao1Ġ
p ai1
Ġ liang3
zhao1 Ġ
shi2 Ġnian2Ġ
xiang4Ġ mu4Ġ
yi1 Ġbu4Ġ
zui4 Ġzhong1Ġ
du4 Ġwei4Ġ
hun1 Ġ
Ġhuo4 Ġde2
ni2Ġ ya4Ġ
zheng4Ġzhi4Ġ ren2Ġwu4Ġ
Ġ J
mi ao4Ġ
ru an3Ġ
Ġã Ĥ
fa2 Ġ
yin1 Ġwei4Ġ
hai2 Ġyou3Ġ
ĠĠĠ ren2Ġkou3Ġ
jiao4Ġ shou4Ġ
ch a1Ġ
xi3 Ġ
ya3 Ġ
ĠĠĠ L
su n3Ġ
0Ġnian2Ġ dai4Ġ
Ġta1 Ġshi4Ġ
kuo4 Ġ
de2 Ġguo2Ġ
Ġzhi4Ġ zuo4Ġ
zhong4Ġ yao4Ġ
n Ġ
dai4Ġ biao3
ti3 Ġyu4Ġ
Ġdang1 Ġdi4Ġ
Ġxing2 Ġshi4Ġ
Ġbu4Ġ dui4Ġ
Ġye3 Ġshi4Ġ
ding4 ĠdeĠ
o w
kang4 Ġ
Ġ liang3Ġ
zu n1Ġ
jie1Ġ r
ba1 Ġshi4Ġ
jie1Ġ shou4Ġ
r an3Ġ
o Ġ
ĠdeĠ yuan2Ġ
Ġ ke3Ġ
Ġjun1 Ġshi4Ġ
Ġ suo3Ġ
diao4Ġ cha2Ġ
Ġzhi1Ġ jian1Ġ
jiao4 Ġyu4
bian1Ġ ma3Ġwei4Ġ
dai4 ĠdeĠ
jie2Ġ gou4Ġ
lian2Ġ meng2Ġ
guan4 Ġ
nv3Ġ zi3Ġ
Ġxue2Ġ ming2Ġ
zhu3Ġ xi2Ġ
c uo4Ġ
Ġ bi4Ġ
qu3 Ġde2Ġ
ni ao3Ġ
Ġyu2Ġ 202
ĠĠĠ R
Ġ shou4Ġ
Ġri4 Ġzhi4Ġ
gai3 Ġwei2Ġ
xue2Ġ xiao4Ġ
Ġ wang2Ġ
zhu3Ġ jiao4Ġ
Ġzai4Ġ 200
zi1Ġ liao4Ġ
Ġ ge2Ġ
w en3Ġ
f o2Ġ
fen1 Ġwei2Ġ
sheng1Ġ huo2Ġ
zhu an4Ġ
ti2 Ġchu1Ġ
zui4Ġ gao1Ġ
gong1 Ġshi4Ġ
Ġzheng4Ġ fu3
Ġren2Ġkou3Ġmi4Ġ du4Ġ
d uo2Ġ
ying3Ġ xiang3
chu3 Ġli3Ġ
fu4Ġ ze2Ġ
Ġ ma3
wu2Ġ fa3Ġ
Ġ bi3Ġ
ãĢ ī
hai3 Ġjun1Ġ
ãĢ Ī
Ġ 2Ġ
Ġri4Ġ ben3
Ġ si4Ġ
t a
shu4 ĠdeĠ
di e2Ġ
fang1Ġ fa3Ġ
wu1Ġke4Ġ lan2Ġ
Ġ gu3Ġ
ĠdeĠ da4Ġ
ĠdeĠ yi4Ġ
Ġ chang2Ġ
Ġyou3Ġ xian4
ĠĠĠ yu3Ġ
Ġge4 Ġren2Ġ
11 Ġ
ju1Ġ min2Ġ
fei1Ġ chang2Ġ
Ġ chen2Ġ
Ġji4Ġ shu4Ġ
lu4 ĠdeĠ
zi4Ġ you2Ġ
san1 Ġshi2Ġ
biao1Ġ zhun3Ġ
Ġ Ð
lian2Ġ sai4Ġ
ĠĠĠ G
Ġshi4Ġ you2Ġ
wen2Ġ hua4
wen2Ġ xue2Ġ
zhi2Ġ jie1Ġ
xie2 Ġhui4Ġ
Ġ jie2
shu4Ġ liang4
ke3 Ġyi3
yao1 Ġ
shen4 Ġzhi4Ġ
fen1Ġbu4Ġ yu2Ġ
an4 ĠdeĠ
bi3 Ġli4Ġ
ĠĠĠ D
i Ġ
p Ġ
tong3 Ġzhi4Ġ
Ġzhi1Ġ chi2Ġ
b ang3Ġ
zhu3Ġ ren4Ġ
Ġ qi1Ġ
chan3 Ġsheng1Ġ
ĠĠĠ ben3Ġ
dong1 Ġbu4Ġ
ĠdeĠyi2Ġge4 Ġshi4Ġzhen4Ġ
Ġzhong1Ġ xue2Ġ
Ġdi4Ġ san1Ġ
Ġ fu2
gu1 Ġ
gai1 Ġguo2Ġ
hui4 Ġzai4Ġ
Ġgong1Ġ si1
ch i4Ġ
fan3Ġ ying4Ġ
qi2 Ġzhong1Ġ
P Ġ
si4 Ġnian2Ġ
Ġfu4Ġ ze2Ġ
yue1Ġ han4Ġ
wen2Ġ wu4Ġ
Ġdi4Ġ shi2Ġ
ĠĠĠ xing2Ġzheng4Ġ
Ġbing4 Ġyu2Ġ
Ġ sh
e t
Ġbu4Ġ guo4Ġ
qing2Ġ kuang4Ġ
p u2Ġ
i c
Ġ 2
zhong1 Ġshi4Ġ
f an2Ġ
quan2 Ġli4Ġ
nan2Ġ ziĠ
an1Ġ quan2Ġ
Ġdao4 ĠdeĠ
Ġ sui2Ġ
z ang4Ġ
neng2 Ġli4Ġ
gong1 Ġbu4Ġ
nv3Ġ xing4Ġ
y an1Ġ
nei4Ġ rong2Ġ
Ġshi4Ġ yi2Ġge4Ġ
gui3 Ġ
xi1 Ġbu4Ġ
qing2Ġ kuang4
Ġ shi1Ġ
Ġchu1 Ġxian4Ġ
Ġ lai2Ġ
s ou1Ġ
cheng2Ġ li4Ġ
Ġ jie1Ġ
Ġ K
xue2Ġ sheng1Ġ
mian4 ĠdeĠ
Ġjin4Ġ ru4Ġ
bei3Ġ jing1Ġ
shu ai4Ġ
Ġzhu3Ġ yao4Ġ
ĠĠĠ formulaĠ
jin3Ġ biao1Ġ
yi4 Ġshi4Ġ
Ġer3 Ġsi1Ġ
lu4 Ġxian4Ġ
ni e4Ġ
th eĠĠĠ
you3 Ġshi2Ġ
huo2 Ġdong4
Ġyi4Ġ hui4Ġ
mei2Ġ ti3Ġ
guang3Ġ dong1Ġ
Ġ fa3Ġ
ĠĠĠ H
k en3Ġ
âĢ ĵ
tong1Ġ guo4
Ġ ao4Ġ
ĠĠĠ jia1Ġ
Ġxue2Ġ xiao4Ġ
d ong3
Ġ shen1Ġ
ya4 Ġzhou1Ġ
Ġ gai3Ġ
u4 Ġ
Ġ bao3Ġ
xu3Ġ duo1
Ġ shan1Ġ
Ġ pu3Ġ
dao3 ĠdeĠ
Ġguo2Ġ min2Ġ
lu an4Ġ
huo4 Ġde2
na2 Ġda4Ġ
tai4 Ġping2Ġ
mei3 Ġyuan2Ġ
p i3
fa1Ġ sheng1
Ġ ka3Ġ
ĠĠĠ 198
di4 Ġwei4Ġ
quan2 Ġbu4Ġ
shun4 Ġ
ba2Ġgao1Ġ du4Ġ
Ġ huang2Ġ
Ġzhe4 Ġshi4Ġ
li3 Ġshi4Ġ
Ġbing4Ġ qie3Ġ
zhi3 Ġyou3Ġ
a t
qing1 Ġnian2Ġ
Ġsuo3 Ġyi3Ġ
zhe3 ĠdeĠ
shou3Ġ ci4Ġ
ban3 Ġben3Ġ
Ġxi1Ġ ya4Ġ
zhu2 Ġjian4Ġ
bi ng3Ġ
ĠĠĠ I
ri4Ġ ben3
jian4 Ġzhu4Ġ
ch ou2Ġ
Ġbing4Ġ qie3
wu1Ġke4Ġ lan2
la1 Ġsi1Ġ
mi e4Ġ
yi1 Ġshi4Ġ
Ġqi2 Ġshi4Ġ
ĠĠĠ gen1Ġju4Ġ
Ġcheng2Ġ wei2
Ġ na4Ġ
dan1Ġ qu1Ġ
mo2 Ġshi4Ġ
zi4Ġji3 ĠdeĠ
ĠĠĠ F
b a4Ġ
jiang1 Ġjun1Ġ
hao2 Ġ
Ġta1Ġmen ĠdeĠ
xu e3Ġ
hang2Ġ kong1Ġ
ti ng3Ġ
Ġzhou1 ĠdeĠ
da2 Ġdao4Ġ
âĢ ¦
na2 Ġ
Ġ la1Ġ
wu3 Ġnian2Ġ
Ġzhe4Ġ geĠ
ĠĠĠ 18
Ġ lin2Ġ
deng3 Ġren2Ġ
zhe4 Ġyi1Ġ
o m
Ġqi2 Ġyu2Ġ
Ġ W
ze2 Ġshi4Ġ
Ġqiu2 Ġdui4Ġ
Ġyi4Ġ shu4Ġ
Ġ tai4Ġ
28 Ġri4Ġ
zhi3 Ġchu1Ġ
Ġ feng1Ġ
ren2Ġkou3Ġ pu3Ġ
tong2 Ġshi2Ġ
ge2Ġ lan2Ġ
yu n3Ġ
hu ai2Ġ
gai1 Ġdi4Ġ
min2Ġ zu2Ġ
Ġzai4Ġ 201
chuang4 Ġzuo4Ġ
xia4 Ġji4Ġ
Ġ zong3
ren4Ġ wei2
Ġ yu2Ġshi4Ġ
Ġzhi1Ġ jian1ĠdeĠ
me Ġ
Ġli4Ġ ya4
che1Ġ zhan4
U T
zhi2 Ġxing2Ġ
Ġ ba1
. .
ch ang1Ġ
le4 Ġbu4Ġ
Ġ ao4
Ġ Ã
Ġ ai4Ġ
Ġ hao4Ġ
Ġdang1 Ġzhong1Ġ
jing4Ġ nei4Ġ
Ġ ze2Ġ
ti3 ĠdeĠ
gong4 Ġtong2Ġ
e c
Ġzhu3Ġ yao4
zhan4Ġ zheng1Ġ
Ġ 13
yan3 Ġchu1Ġ
Ġshi4Ġ wu4Ġ
t ou4Ġ
I Ġ
huan2Ġ jing4Ġ
zhu2 Ġ
jin4Ġ ru4Ġ
Ġ zhang3Ġ
sai4 Ġji4Ġ
n ao3Ġ
Ġ xin1
Ġling4Ġ wai4Ġ
d uo2
Ġ kai1Ġ
dan1Ġ ren4
yuan2 Ġnian2Ġ
ĠĠĠ nian2
15 Ġri4Ġ
shang1Ġ ye4Ġ
fen1 Ġzhong1Ġ
qi3Ġ ye4Ġ
guan1 ĠdeĠ
Ġ 5Ġ
Ġxing2 ĠleĠ
ĠĠĠ zhe4Ġ
ĠĠĠ 194
ji1 ĠdeĠ
qian2 ĠdeĠ
Ġgong1Ġ kai1Ġ
liang4 ĠdeĠ
yin2Ġ hang2Ġ
Ġ su1Ġ
gao1 ĠdeĠ
bo2 Ġshi4Ġ
du4 ĠdeĠ
Ġchu1 ĠleĠ
4 0
Ġwei4Ġ ren2Ġ
bei3Ġ jing1
chuan2Ġ tong3Ġ
xiang1Ġ guan1Ġ
quan2 Ġqiu2Ġ
Ġji4Ġ lu4Ġ
wan2Ġ quan2Ġ
Ġji1Ġ gou4Ġ
Ġdi4Ġ er4
k ai3Ġ
jie1 Ġdao4Ġ
Ġ ke3Ġyi3Ġ
Ġwei4Ġ zhi4Ġ
Ġ sheng4Ġ
deng3 Ġdi4Ġ
can1 Ġyu4
tuan2Ġ ti3Ġ
fen1Ġ bie2
re4 Ġdai4Ġ
lin2Ġ pi3
Ġgong1Ġ lu4Ġ
cheng2 Ġzhong1Ġ
zui4 Ġhou4Ġ
ren2 Ġzai4Ġ
Ġshi2Ġ ji4Ġ
bao4Ġ gao4Ġ
xuan3Ġ ze2Ġ
Ġdan4 Ġzai4Ġ
Ġda4Ġ li4Ġ
on Ġ
zui4 Ġjia1Ġ
yun4Ġdong4 Ġhui4Ġ
zi4Ġ ji3Ġ
R Ġ
san1 Ġge4Ġ
Ġ bao1Ġkuo4
xue2 Ġwei4Ġ
ĠĠĠ ju4Ġ
Ġ hong2Ġ
jun1 Ġshi4Ġ
21 Ġ
tu3 Ġdi4Ġ
Ġshi4Ġyi1Ġ zhong3Ġ
xi4 ĠdeĠ
Ġyi1Ġ xie1Ġ
ong4 Ġ
25 Ġri4Ġ
Ġ200 1Ġnian2Ġ
E Ġ
mi n3Ġ
Ġwei4Ġ di4Ġ
ling3Ġ dao3Ġ
ming4 Ġming2Ġ
Ġdi4Ġ fang1Ġ
sh ui4Ġ
jing1 Ġli4Ġ
Ġjun1 ĠdeĠ
z ang4
sheng3 ĠdeĠyi2Ġge4Ġshi4Ġzhen4Ġ
Ġ jin1
ju an3Ġ
gui3 Ġdao4Ġ
Ġzhi1Ġ qian2Ġ
o ĠĠĠ
Ġshi4Ġwei4Ġyu2Ġ mei3Ġguo2Ġ
zong1Ġ jiao4Ġ
Ġzhong1Ġhua2Ġ min2Ġguo2Ġ
wei4 ĠdeĠ
Ġge4 Ġyue4Ġ
si3Ġ wang2Ġ
Ġzai4Ġ yi1Ġ
30 Ġri4Ġ
bo1 Ġchu1Ġ
Ġ er4Ġ
V Ġ
s an4Ġ
ĠdeĠ he2Ġ
lao2 Ġ
Ġhai3Ġ ba2Ġgao1Ġdu4Ġ
Ġmu4Ġ qian2Ġ
Ġ jian1Ġ
jie2Ġ shu4Ġ
Ġyou3Ġ guan1Ġ
20 Ġri4Ġ
Ġji4Ġ xu4Ġ
Ġ zhi2Ġ
Ġhou4Ġ lai2
Ġxing2Ġ dong4Ġ
t er
po 1
ĠĠĠ wei4Ġ
shang4 Ġwei4Ġ
ao4Ġ lin2Ġpi3
shui3 Ġyu4Ġ
Ġ 3Ġ
gan4 Ġ
t i4Ġ
bian4Ġ hua4Ġ
Ġ ke1Ġ
Ġ bo1Ġ
zhi1 Ġyi1Ġ
ji2 Ġzhong1Ġ
Ġshi2Ġ dai4Ġ
fa1Ġ biao3
UT CĠ
gong4 Ġhe2Ġ
ge2Ġ ming4Ġ
di ao1Ġ
zhi1Ġ chi2Ġ
ji1 Ġyu2Ġ
chu3 Ġyu2Ġ
Ġji2Ġ tuan2
an Ġ
guo4 Ġcheng2Ġ
Ġbu4Ġ zhang3Ġ
tai2Ġ bei3
ge1Ġ shou3Ġ
10 Ġri4Ġ
yong4 ĠdeĠ
z u1Ġ
xiao3Ġ shuo1Ġ
kong1Ġ jian1Ġ
wu4Ġ zhong3Ġ
Ġzi4Ġ ji3
a1Ġ la1Ġ
Ġyu2Ġ 199
Ġ hai2Ġ
bu2 Ġhui4Ġ
Ġji2Ġ tuan2Ġ
ĠĠĠ gai1Ġ
nei4 Ġbu4Ġ
xin1Ġ wen2Ġ
Ġer2 Ġzai4Ġ
Ġ sha1Ġ
gen1Ġ ju4
Ġyi4Ġ zhi2Ġ
jie3Ġ fang4
B Ġ
Ġzhou1 Ġshi4Ġ
Ġde2 Ġdao4Ġ
xi4Ġ lie4
reng2 Ġ
Ġ dian4Ġ
ye4 Ġyu2Ġ
di4Ġ qu1Ġ
ng Ġ
luo2Ġ ma3Ġ
l an3Ġ
zhe4Ġ xie1Ġ
Ġhe2Ġ nan2Ġ
a s
Ġyou3Ġxian4 Ġgong1Ġsi1Ġ
wan2 Ġjia1Ġ
jing1Ġ guo4Ġ
Ġyu3Ġ yan2Ġ
f ou3Ġ
Ġshi4Ġ shi2Ġ
cheng2Ġ wei2Ġ
26 Ġri4Ġ
ao4Ġlin2Ġpi3 Ġke4Ġ
li2Ġ kai1Ġ
Ġzhe4Ġ zhong3Ġ
Ġ O
zi1Ġ ge2Ġ
Ġda4Ġ hui4Ġ
Ġzhi2 Ġdao4Ġ
24 Ġri4Ġ
gui1Ġ ding4Ġ
duo1 ĠdeĠ
da4Ġ lu4Ġ
za2 Ġzhi4Ġ
zai4 ĠdeĠ
chuan2Ġ tong3
lu4 Ġdi4Ġ
hao2 Ġmi3Ġ
z a2Ġ
he2 ĠdeĠ
ying1 Ġyu3Ġ
fang1 ĠdeĠ
k ao4Ġ
Ġ 12
ku n1Ġ
hou4 Ġyi1Ġ
Ġ 6Ġ
Ġ nan2
di an1Ġ
p an2Ġ
fa3Ġ lv4Ġ
de ng4
jie2Ġ guo3Ġ
ĠĠĠ yi1Ġ
Ġcheng2Ġ qu1Ġ
se4 ĠdeĠ
Ġ han4Ġ
Ġ fei1Ġ
yi1 ĠdeĠ
m ou3Ġ
shang4Ġ hai3Ġ
Ġli3Ġ si1Ġ
Ġshi4Ġ fa3Ġguo2Ġ
Ġ tai2Ġwan1Ġ
ĠĠĠ c
xuan3Ġ ju3
18 Ġri4Ġ
Ġwei4Ġyu2Ġ gai1Ġguo2Ġ
Ġ yang2Ġ
ĠĠĠ W
zhan4 ĠdeĠ
wu4 Ġli3Ġ
6 0
shu4 Ġwei4Ġ
zhi3 Ġshi4Ġ
Ġbu4Ġtong2 ĠdeĠ
hu n4Ġ
e s
Ġ sui4
pi1 Ġping2Ġ
Ġ wu2
ta1Ġ men
ku i2Ġ
Ġshi4Ġjie4 Ġda4Ġ
Ġ jiao4Ġ
shi3 ĠdeĠ
Ġyi4Ġ ban1Ġ
sheng3 Ġji2Ġ
l a4Ġ
ch un2Ġ
guan1 Ġyuan2Ġ
ch ai1Ġ
z ou4Ġ
po4 Ġhu
fa3Ġ yuan4Ġ
bo2Ġwu4Ġ guan3Ġ
Ġ ying1Ġguo2Ġ
wen4Ġ ti2
Ġguo2Ġ jia1
Ġjia1Ġ ru4Ġ
Ġ gu4Ġ
Ġzhan4Ġ zheng1Ġ
qi2 Ġta1
zhi3Ġ hui1Ġ
ye3 Ġyou3Ġ
jie2Ġ shu4
ĠĠĠ E
Ġzhe4Ġ xie1
Ġm ei4
Ġ hu2Ġ
Ġgong1Ġ ji1Ġ
zheng4 Ġzai4Ġ
tong2 Ġnian2Ġ
jiang1 Ġqi2Ġ
ce4 Ġshi4Ġ
s uo1Ġ
t ao3Ġ
chang3 ĠdeĠ
xi1Ġ ban1Ġ
0Ġnian2Ġ dai4
Ġwei4Ġ zhong1Ġ
bu4 Ġhe2Ġ
fei1 Ġji1Ġ
Ġzui4 Ġhou4Ġ
i t
zheng1 Ġyi4Ġ
16 Ġri4Ġ
50 Ġ
27 Ġri4Ġ
Ġdi4Ġ qu1
Ġbei4Ġ cheng1Ġwei2Ġ
l ai4Ġ
Ġ da4
Ġ yin3Ġ
Ġsui2 Ġhou4Ġ
Ġ 4Ġ
21 Ġri4Ġ
zhuan1Ġ ye4Ġ
yi4 Ġshi2Ġ
xu n1Ġ
17 Ġri4Ġ
Ġ san1
12 Ġri4Ġ
dong1Ġ nan2Ġ
8 Ġri4Ġ
Ġ yi2Ġ
Ġzhong1Ġ xin1
ding4 Ġyi4Ġ
Ġda4Ġ qu1Ġ
liu4 Ġnian2Ġ
ju3Ġ ban4
biao3 Ġxian4Ġ
zong1 Ġhe2Ġ
Ġle i3Ġ
zui4Ġ da4ĠdeĠ
ji2 Ġwei4Ġ
Ġshi4Ġ yi4Ġ
xue2 ĠdeĠ
e2Ġ luo2Ġ
lian2Ġ bang1Ġ
Ġzhong1Ġ gong4
h eĠĠĠ
Ġqi2 Ġta1
h ou2Ġ
23 Ġri4Ġ
huang2 Ġdi4Ġ
20 Ġnian2Ġ
ou1 Ġzhou1
Ġshi4Ġ jian4
sheng1Ġ ya2Ġ
Ġbing4 Ġbu4Ġ
11 Ġri4Ġ
m i2Ġ
Ġ fen1Ġbu4Ġyu2Ġ
gui1Ġ mo2Ġ
fang1Ġ xiang4Ġ
tong1Ġ chang2Ġ
tui1 Ġchu1Ġ
Ġ wei1Ġ
yong1 Ġ
7 Ġri4Ġ
fen1 Ġxi1Ġ
22 Ġri4Ġ
qu an1Ġ
ĠĠĠ N
29 Ġri4Ġ
xiang4 ĠdeĠ
lian2Ġ meng2
ĠĠĠ yu2Ġ
ĠdeĠ zuo4Ġ
xu1Ġ yao4
Ġ ti3Ġ
hai2 Ġshi4Ġ
Ġsui1 Ġran2
9 Ġri4Ġ
n ai4Ġ
ling4 Ġyi1Ġ
Ġ liu2
ding4 Ġwei4Ġ
Ġli4Ġ yong4Ġ
l Ġ
ĠĠĠ ci3Ġ
wan4 Ġren2Ġ
Ġzai4Ġ zhe4Ġ
hu an1Ġ
duo1Ġ shu4Ġ
ĠĠĠ zheng4Ġzhi4Ġ
tong3 Ġji4Ġ
dong1Ġ bei3Ġ
xin4 Ġxi1Ġ
ru an3
yang4 ĠdeĠ
bao1Ġ han2Ġ
19 Ġri4Ġ
Ġ ai4
gong1 ĠdeĠ
cai3Ġ yong4
5 Ġri4Ġ
cha2 ĠdeĠ
14 Ġri4Ġ
qi ong2
chang2 Ġshi4Ġ
Ġxian4 Ġzhi4Ġ
Ġ nei4Ġ
kai1Ġ fa1
mei3Ġguo2Ġ ren2Ġkou3Ġpu3Ġ
3 Ġri4Ġ
zu3 Ġhe2Ġ
zao1 Ġdao4Ġ
Ġyu2Ġ 18
hai3Ġ ba2
30 Ġnian2Ġ
lin2 Ġshi2Ġ
niu3Ġ yue1
Ġxian4 Ġshi2Ġ
E E
wei4 Ġshi4Ġ
10 0
dong3 Ġshi4Ġ
ji1 Ġdi4Ġ
qiu2 Ġdui4Ġ
ĠdeĠshi4Ġ zhen4Ġ
6 Ġri4Ġ
Ġzhong1Ġ bu4Ġ
2 Ġri4Ġ
ĠdeĠ zhong1Ġ
Ġ ke3
Ġshe4 Ġli4Ġ
ĠĠĠ zhong1Ġ
Ġyu2Ġ 19
Ġyi4Ġ da4Ġli4Ġ
si4 Ġshi2Ġ
ge4 Ġren2Ġ
Ġ19 0
4 Ġri4Ġ
3 1Ġri4Ġ
she4 Ġyou3Ġ
neng2Ġ gou4Ġ
Ġm ou2Ġ
Ġxue2Ġ sheng1Ġ
tie3Ġ lu4
shen1Ġ fen4Ġ
r u3Ġ
yuan2 Ġhe2Ġ
Ġyi4Ġ ban1
sh ao1Ġ
suo3Ġ shu3ĠdeĠ
Ġdi4Ġ qu1ĠdeĠ
a u
guan1Ġ fang1Ġ
sheng1Ġ chan3Ġ
Ġ mei2Ġ
bang1 Ġzhu4Ġ
Ġren2Ġ kou3
Ġ ru2
Ġxue2Ġ yuan4Ġ
lie4Ġ che1
ĠĠĠ 197
chao2Ġ xian1Ġ
n an4Ġ
lian2Ġ sai4
zu2 Ġqiu2
Ġxi1Ġ ban1Ġ
zao3Ġ qi1Ġ
13 Ġri4Ġ
xiong1 Ġdi4Ġ
N S
Ġ yue1Ġ
mu4 Ġdi4Ġ
Ġshi4Ġ chang3Ġ
yuan2 Ġyu2Ġ
Ġ bai2Ġ
Ġ201 1Ġnian2Ġ
fan3Ġ ying4
ĠĠĠ 195
su1Ġ lian2Ġ
ĠĠĠ you2Ġyu2Ġ
Ġ wai4Ġ
Ġ du4Ġ
shen4 Ġ
eng3 Ġ
qing2Ġkuang4 Ġxia4Ġ
yi2 Ġbu4Ġ
xie2 Ġyi4Ġ
ge2Ġ ming4
jue2Ġ sai4
huang2 Ġjia1Ġ
ke1 Ġji4Ġ
Ġ tang2Ġ
bi4Ġ ye4Ġ
l o
r ao4Ġ
Ġgong1Ġ zuo4
Ġ lu2Ġ
ren2 Ġhe2Ġ
Ġyi3Ġ jing1
zheng3 Ġge4Ġ
g ou1Ġ
Ġ dao3Ġzhi4Ġ
mi ao4
Ġ ge1Ġ
8 0
chao1 Ġji2Ġ
mao4 Ġyi4Ġ
Ġzhe4 Ġyi1Ġ
Ġgong1Ġ chi3Ġ
wen2Ġwu4Ġ bao3Ġhu4Ġ
yue4 ĠdeĠ
s ang1Ġ
zhang3 ĠdeĠ
Ġxi1Ġ nan2Ġ
jue2Ġ sai4Ġ
Ġ zhu1Ġ
xi2 Ġji1Ġ
dong4Ġ hua4Ġ
i r
hang2Ġ kong1
Ġdi4Ġ li4Ġ
li4 Ġhe2Ġ
jie1Ġ duan4Ġ
tu2Ġ shu1Ġ
wu2 Ġxian4Ġ
Ġ bo2Ġ
xian1 Ġhou4Ġ
Ġfen1Ġ bie2
tong3 Ġyi1Ġ
qu1Ġ hua4Ġ
Ġxiang1Ġ gang3
Ġ wo3
jue2Ġ ding4
jie2 Ġhe2Ġ
xue2Ġ yuan4
yao1 Ġqiu2
Ġb rĠ
yan2Ġ zhong4Ġ
p ang2Ġ
Ġ quan2
ci4 Ġshi4Ġjie4Ġda4Ġ
Ġ jiu4
Ġ mo2Ġ
zhan4 Ġhou4Ġ
Ġ a1
shang4 Ġshi4Ġ
Ġru2Ġ guo3Ġ
Ġ shuang1Ġ
qi ang3Ġ
Ġer3Ġ sheng3Ġ
yu3 ĠdeĠ
guang3Ġ bo1Ġ
ren2Ġkou3Ġ shu4Ġliang4
xie2 Ġzhu4Ġ
xun4Ġ lian4Ġ
Ġhe2Ġ yi1Ġ
Ġ ha1
r ou4Ġ
Ġzai4Ġ ci4Ġ
gong4Ġchan3Ġ dang3Ġ
Ġ shui3Ġ
qi1 Ġnian2Ġ
shao4 Ġnian2Ġ
hua4Ġ xue2Ġ
Ġ nv3Ġ
Ġyi3Ġ lai2Ġ
M Ġ
ĠĠĠ 196
Ġta1Ġ ceng2
Ġ U
Ġ dan1Ġ
ju3Ġ ban4Ġ
hua4 Ġhe2Ġ
Ġbu4Ġ neng2Ġ
guo2 Ġhe2Ġ
Ġ gong4Ġ
shu ai1Ġ
hao4 Ġxian4Ġ
Ġyi3Ġ xia4Ġ
t eng2Ġ
te4 ĠdeĠ
yan3Ġ chang4
Ġ200 9Ġnian2Ġ
dao3Ġ yan3Ġ
zi4Ġ ran2Ġ
xia4Ġ xia2
xi4Ġ bao1Ġ
Ġ jing3Ġ
7 0
fa1Ġ biao3Ġ
w Ġ
Ġ mu3Ġ
Ġdai4Ġ biao3
Ġ 2010Ġnian2Ġ
ye4 ĠdeĠ
jiao1 Ġyi4Ġ
tiao2 Ġjian4Ġ
zi4 Ġxing2Ġ
b ang4
Ġzuo4Ġ pin3Ġ
an dĠĠĠ
zhu4 Ġzai4Ġ
Ġshi4Ġ zhong1Ġguo2Ġ
qi an4Ġ
Ġren2Ġkou3Ġmi4Ġ du4Ġwei4Ġ
chi2Ġ xu4Ġ
Ġshi4Ġ li4Ġ
Ġqi2 Ġhou4Ġ
qiu2 Ġyuan2Ġ
Ġsheng1Ġ huo2Ġ
ĠĠĠ bu4Ġ
zui4 Ġda4Ġ
wai4 ĠdeĠ
zi1 Ġyuan2Ġ
sai1 Ġer3Ġ
pin2 Ġdao4Ġ
Ġ mei2Ġyou3Ġ
you2Ġ zheng4Ġ
Ġ hei1Ġ
ke3Ġ da2Ġ
mo4 Ġxi1Ġ
gai3Ġ ge2Ġ
c ai4Ġ
ch ou2
Ġ qie3Ġ
chu1 Ġxian4Ġ
Ġbing4 Ġwei4Ġ
ch a4Ġ
Ġyi1Ġ yuan4Ġ
Ġjian4 Ġshe4Ġ
feng1Ġ ge2Ġ
n ao3
Ġ hua2Ġ
ĠĠĠ theĠĠĠ
qi4 Ġhou4Ġ
Ġle i3
su4Ġ du4Ġ
mi4Ġ shu1Ġ
zhuang4Ġ tai4Ġ
Ġwei4Ġyu2Ġ fa3Ġguo2Ġ
Ġyi1Ġ si1Ġ
3 5
Ġyi1Ġ ming2Ġ
miao2Ġ shu4Ġ
ĠĠĠ K
ku an3
ying4Ġ yong4Ġ
dian4Ġshi4Ġ ju4Ġ
zhu4 ĠdeĠ
fen4 Ġwei4Ġ
Ġgong1Ġ ye4Ġ
mu4Ġ biao1Ġ
bao4 Ġdao4Ġ
jie1Ġr ang3
ku a4Ġ
gong1Ġ si1Ġ
wang3 Ġzhan4Ġ
ĠdeĠdi4Ġ yi1Ġ
shang4Ġ hai3
tou2Ġ zi1Ġ
lu4 Ġjun1Ġ
Ġjian3Ġ cheng1Ġ
zhan4 Ġyi4Ġ
wen2Ġwu4Ġbao3Ġhu4Ġ dan1Ġwei4Ġ
ya4 Ġli4Ġ
hu2 Ġnan2Ġ
Ġwei4Ġ yi1Ġ
xiao3 Ġxue2Ġ
20 Ġshi4Ġji4Ġ
zuo3Ġ you4Ġ
15 Ġ
jian4 Ġli4Ġ
sheng4 Ġli4Ġ
ĠdeĠ fu4Ġ
Ġzhong1Ġ gong4Ġ
Ġ ben3
Ġ wen2Ġ
b ang4Ġ
zhen4Ġ qu1Ġ
zhe4Ġ geĠ
shou3Ġ ci4
sheng3Ġ fen4Ġ
yin4Ġ du4
Ġ yong4Ġ
Ġxi1Ġ bei3Ġ
Ġyi4Ġ qi3Ġ
yi2 Ġzhi4Ġ
Ġji1Ġ chang3Ġ
chan3Ġ pin3Ġ
wen2 Ġming2Ġ
hui1 Ġfu4Ġ
shi2Ġ qi1Ġ
te4Ġ zheng1Ġ
c ang2Ġ
Ġer2 Ġshi4Ġ
te4Ġ bie2Ġ
dong1Ġ jing1Ġ
gao1 Ġji2Ġ
jiao4 Ġhui4Ġ
qu3 Ġde2
y e2
jiao1Ġ tong1
Ġ fa3Ġguo2Ġ
ke1 ĠdeĠ
Ġren2Ġ wu4Ġ
guo4Ġ cheng2Ġzhong1Ġ
xuan3Ġ shou3Ġ
hao3 ĠdeĠ
dian4Ġ ziĠ
liu2 Ġxing2Ġ
zhong4Ġyao4 ĠdeĠ
bi4Ġ xu1Ġ
ye4Ġ wu4Ġ
gong4Ġyou3Ġ ren2Ġkou3Ġ
Ġxian4Ġ dai4Ġ
can1Ġ sai4Ġ
xiao3Ġxing2Ġ xing1Ġ
Ġcheng2Ġ ji4Ġ
x u2Ġ
h ong1
Ġhe2Ġ di4Ġ
m a
kai1Ġ fang4Ġ
zi ĠdeĠ
wang3Ġ luo4Ġ
Ġ ming2
n u3
u n
Ġ yao4Ġ
fa1Ġ dong4
bian4 Ġcheng2Ġ
i g
qiao2 Ġzhi4Ġ
d a1Ġ
Ġh an
i s
10 0Ġ
jie3 Ġshi4Ġ
guo2Ġ min2Ġ
shan1Ġ dong1Ġ
dian4Ġshi4Ġ tai2Ġ
ling3Ġ dao3
bao1Ġ han2
Ġdong4Ġ wu4Ġ
bi3Ġ jiao4Ġ
Ġzai4Ġ zhong1Ġ
lei4Ġ si4
zh a4Ġ
cu i1
ka3 Ġer3Ġ
hui2 Ġdao4Ġ
xing2 Ġshi4Ġ
dou1 Ġyou3Ġ
l ang4Ġ
Ġ qie3
Ġ ha1Ġ
Ġsi1Ġ ji1Ġ
zhi1 Ġhou4Ġ
zhan4 Ġshi4Ġ
duo1 Ġge4Ġ
Ġshi2Ġ jian1
pai1 Ġshe4Ġ
hui4 Ġhe2Ġ
mei3 Ġping2Ġfang1Ġgong1Ġli3Ġ
ĠĠĠ202 1Ġnian2Ġ
Ġshe4 Ġzhi4Ġ
a v
Ġ mo4Ġ
Ġgong1Ġ fen1Ġ
zhun3 Ġbei4Ġ
lai2Ġ zi4
f ei2
f ei3
Ġyi1Ġ yang4Ġ
jiu4 Ġshi4Ġzhen4Ġ
Ġ V
Ġxia4Ġ ling4
4 8
o o
zhen1 Ġdui4Ġ
Ġ shu3Ġ
yuan2 Ġshi4Ġ
Ġci3 Ġhou4Ġ
Ġ chu2Ġ
wang2 Ġguo2Ġ
wai4Ġ jiao1
zao3 Ġnian2Ġ
er4 Ġshi4Ġ
ĠĠĠ 2019Ġnian2Ġ
Ġ min2Ġ
Ġm i2Ġ
O Ġ
Ġ shen4Ġzhi4Ġ
lei4Ġ si4Ġ
Ġyi4Ġ zhi4Ġ
Ġran2 Ġhou4Ġ
X Ġ
Ġ bao4Ġ
3 6
Ġyi4Ġ zhi2
Ġli4Ġ shu3Ġyu2Ġ
Ġsui1 Ġran2Ġ
c ang1Ġ
ĠdeĠ ming2Ġ
yun2 Ġnan2Ġ
N Ġ
qu an4Ġ
xin1 Ġjia1Ġ
gao1 Ġzhong1Ġ
ma3Ġ lai2
ĠdeĠ zhu3Ġ
zhu4 Ġming2Ġ
hen3 Ġduo1Ġ
ĠĠĠ 2020Ġnian2Ġ
Ġc ang2Ġ
ĠĠĠ gong1Ġ
Ġjian4 Ġzhi4Ġ
en4 Ġ
fa1 Ġshe4Ġ
jin3Ġbiao1Ġ sai4Ġ
zong3Ġ tong3
Ġer3 ĠdeĠ
o c
zong3 Ġli3Ġ
lian2Ġ jie1Ġ
ĠĠĠ da4Ġ
ĠdeĠyi1Ġ zhong3Ġ
zhong4 ĠdeĠ
shan1 Ġxi1Ġ
ren2Ġkou3Ġshu4Ġliang4 Ġwei4Ġren2Ġ
mu4Ġ qian2Ġ
zh e2
Ġ qi3Ġ
ju4 Ġji2Ġ
fang1Ġ an4Ġ
jie3Ġ jue2Ġ
ji2 Ġhe2Ġ
jie1Ġrang3 ĠdeĠshi4Ġzhen4Ġ
ĠI NS
Ġ wu3
x Ġ
lv3 Ġyou2Ġ
gui1Ġ hua4Ġ
F Ġ
Ġ tai2Ġ
n e4Ġ
k ao4
Ġchu1Ġ ban3
ji2 Ġshi4Ġ
ĠĠĠ zhi4Ġ
lu4 Ġyi4Ġ
4 0Ġ
Ġxing2Ġ wei2Ġ
Ġshang4Ġ hai3Ġ
nv3 Ġer2Ġ
Ġzhe4Ġ ge
si1 Ġhe2Ġ
qu3 Ġdai4Ġ
wu4 Ġzhi4Ġ
ĠdeĠ li4Ġ
Ġxi1Ġ ya4
rui4 Ġshi4Ġ
l an3
b ang3
25 Ġ
ĠĠĠ201 8Ġnian2Ġ
nong2Ġ ye4Ġ
Ġ si4
ch a1
ru4 ĠleĠ
Ġ cai2Ġ
Ġda4Ġ liang4Ġ
Ġt ou4Ġ
Ġ200 8Ġnian2Ġ
Ġjin4 Ġshi4Ġ
Ġ ci4
dui4 Ġzai4Ġ
Ġ yi2Ġge4Ġ
jue2 ĠdeĠ
luo2Ġ ma3
ĠdeĠshi2Ġ hou4Ġ
Ġji4Ġ nian4Ġ
Ġ dong1
Ġt ao3Ġ
Ġ z
ju an1Ġ
ao4Ġlin2Ġpi3Ġke4Ġ yun4Ġdong4Ġhui4Ġ
wo 1Ġ
si1 Ġren2Ġ
Ġzhi4Ġ jin1Ġ
o p
zh e2Ġ
24 Ġ
ge2 ĠdeĠ
Ġzhi1Ġ wai4Ġ
Ġzhi4Ġ zao4Ġ
ru2Ġ xia4Ġ
ke3Ġneng2 Ġshi4Ġ
shi3Ġyong4 ĠdeĠ
Ġshe4Ġ shi1Ġ
Ġ fu4
hu n4
gan3Ġ ran3Ġ
jie1Ġ shou4
Ġ201 3Ġnian2Ġ
chu ang1Ġ
fei1 Ġxing2Ġ
Ġ ze2
xuan3 Ġwei4Ġ
yi2 Ġshi4Ġ
Ġ gu4
ti ao4Ġ
tu3 Ġer3
Ġzai4Ġ ci3Ġ
Ġli4Ġ si1Ġ
guang3Ġ chang3Ġ
chu i2Ġ
ĠdeĠ yi1Ġbu4Ġfen4Ġ
Ġzhi4Ġ 202
sh ang3Ġ
o v
chuang4 Ġli4Ġ
jia4Ġ zhi2Ġ
Ġ dui4Ġyu2Ġ
ĠĠĠ J
chu4 ĠdeĠ
bo2Ġ te4Ġ
k eng1Ġ
reng2 Ġran2Ġ
Ġzong3Ġ mian4Ġji1Ġ
sh e2Ġ
Ġgong1Ġ neng2Ġ
Ġ jia3Ġ
zhi4 Ġshi4Ġ
Ġde2 Ġli3Ġ
jiu3 Ġnian2Ġ
lian2 Ġhe2Ġguo2Ġ
ji2 Ġshi2Ġ
Ġyou3Ġ ren2Ġ
Ġer2Ġ qie3Ġ
geng1Ġ ming2Ġwei4Ġ
lian2Ġ bang1
xiao4 Ġli4Ġ
tong1Ġ chang2
biao3Ġ yan3Ġ
Ġ dan1Ġren4Ġ
fen1Ġ lei4Ġ
ĠINS EE
Ġgai1Ġ sheng3Ġ
qi4 ĠdeĠ
Ġzhi4Ġ zuo4
gai4Ġ nian4Ġ
2 Ġren2Ġ
Ġren2Ġkou3Ġmi4Ġdu4Ġ mei3Ġping2Ġfang1Ġgong1Ġli3Ġ
Ġren2Ġkou3Ġmi4Ġdu4Ġwei4Ġ mei3
Ġxia4Ġling4 Ġshi2Ġ
su n1
you2Ġzheng4Ġ bian1Ġma3Ġwei4Ġ
Ġzai4Ġ 199
ĠĠĠ O
shi2 Ġshi4Ġ
zu3 Ġfu4Ġ
cong2 Ġshi4Ġ
cha2ĠdeĠ shu4Ġju4Ġ
Ġshi4Ġzhen4Ġ bian1Ġma3Ġwei4Ġ
ĠINSEE Ġshi4Ġzhen4Ġbian1Ġma3Ġwei4Ġ
an3 Ġxi1Ġ
mo4 Ġsi1Ġ
ãĢ İ
ba1 Ġnian2Ġ
tian1Ġ wen2Ġ
jin4 ĠdeĠ
sheng1Ġ huo2
Ġguo2Ġ wang2Ġ
yi1Ġ zhong3Ġ
xuan3Ġ qu1Ġwei4Ġ
ãĢ ı
ĠĠĠ bei4Ġ
Ġshe4 ĠdeĠ
he2 Ġshi4Ġ
da4 Ġbu4Ġfen4
shi2ĠdeĠ ren2Ġkou3Ġshu4Ġliang4Ġwei4Ġren2Ġ
tion ĠĠĠ
Ġbu4Ġ guo4
ying1Ġ chi3Ġ
zhan3Ġ kai1Ġ
mei3Ġguo2Ġren2Ġkou3Ġpu3Ġ cha2ĠdeĠshu4Ġju4Ġ
ĠĠĠ 193
jia1 Ġli4Ġ
16 Ġ
yun4Ġ ying2Ġ
Ġ shen2Ġ
Ġer2 Ġren2Ġkou3Ġmi4Ġdu4Ġwei4Ġmei3
ĠĠĠ201 7Ġnian2Ġ
Ġdang1Ġdi4Ġ gong4Ġyou3Ġren2Ġkou3Ġ
pai2 Ġming2Ġ
xu e1Ġ
Ġ 2019Ġnian2Ġ
fu2 Ġjian4Ġ
zu2 ĠdeĠ
Ġjin3Ġ guan3Ġ
ge2Ġ lan2
Ġhuo4Ġ jiu4Ġshi4Ġzhen4Ġ
tiao2Ġ yue1Ġ
Ġ201 8Ġnian2Ġ
Ġzh a4
Ġjun1Ġ dui4Ġ
sheng3Ġji2Ġ xuan3Ġqu1Ġwei4Ġ
suo3Ġshu3ĠdeĠ sheng3Ġji2Ġxuan3Ġqu1Ġwei4Ġ
ĠĠĠ li4Ġ
ji1 Ġji2Ġ
Ġjun1 Ġzai4Ġ
che1Ġ liang4Ġ
jing3Ġ cha2Ġ
Ġte4Ġ bie2
xi1 ĠdeĠ
xuan3 Ġren2Ġ
xing1 ĠdeĠ
sheng3 Ġhe2Ġ
biao1Ġ zhun3
man4Ġ hua4Ġ
Ġ bian4Ġ
9 0
Ġbu4Ġ jiu3Ġ
fen4Ġwei4Ġ fa3Ġguo2Ġ
Ġgai1Ġsheng3Ġ fen4Ġwei4Ġfa3Ġguo2Ġ
ao4 Ġda4Ġli4Ġ
Ġ chu2ĠleĠ
Ġyu2Ġ 198
zui4Ġ hou4Ġyi1Ġ
mi3 Ġer3Ġ
Ġer3 Ġde2Ġ
hu i3Ġ
k ai3
ai4 Ġer3Ġ
Ġnian2Ġ jian1Ġ
qi3Ġ lai2Ġ
Ġ shu4Ġ
guang3 Ġzhou1Ġ
Ġzhi1 Ġxian4Ġ
h a
er2Ġ ziĠ
Ġwei4Ġ shi2Ġ
Ġyou2Ġ xi4
pai2Ġ ming2
Ġ duo1
qu1Ġ yu4
sh uo4
qun2Ġ dao3Ġ
ying2 Ġde2Ġ
dong4Ġ wu4Ġ
3 8
Ġ ye4Ġ
Ġ geng4Ġ
3 7
l a4
Ġ que4Ġ
Ġchu1Ġ sheng1Ġyu2Ġ
Ġ201 4Ġnian2Ġ
ben3 ĠdeĠ
ling3 Ġyu4Ġ
Ġdi4Ġ si4Ġ
1 Ġren2Ġ
lai2 Ġyuan2Ġ
Ġyi1Ġ xie1
Ġ 2016Ġnian2Ġ
zh ao3
Ġta1Ġ bei4Ġ
Ġdi4Ġ san1
Ġzi4Ġ ji3Ġ
ĠĠĠ 2016Ġnian2Ġ
ma3 Ġli4Ġ
ch un2
tie3 Ġdao4Ġ
di4Ġ yi1Ġ
Ġri4 ĠdeĠ
Ġji4Ġ hua4
she4 Ġli4Ġ
Ġjin4 ĠdeĠ
ao4 Ġsi1Ġ
Ġ cheng1Ġ
mei3 Ġzhou1Ġ
Ġ bian1Ġ
wei3 Ġhui4Ġ
Ġchu1Ġ ban3Ġ
zuo4Ġ pin3
Ġji1Ġ ben3Ġ
ĠĠĠ202 2Ġnian2Ġ
Ġhe2Ġ bing4
Ġ mai4
meng2Ġ gu3Ġ
Ġ 11
wu2 Ġren2Ġ
Ġ ya4Ġ
reng2 Ġran2
Ġzhi4Ġ yu2Ġ
Ġ201 2Ġnian2Ġ
mu3 Ġsi1Ġ
Ġchu1 Ġxian4
Ġren2Ġ gong1Ġ
pu2Ġ tao2Ġ
Ġ jiu3Ġ
Ġjian4 Ġyi4Ġ
sheng1Ġ wu4Ġ
u r
nan2 Ġji2Ġ
Ġwei2Ġ zhu3Ġ
Ġ201 5Ġnian2Ġ
gou4 Ġm
Ġ zhao4Ġ
Ġming2Ġ chao2Ġ
Ġ shu1Ġ
yan2Ġjiu1Ġ suo3Ġ
zao1 Ġ
li ao3Ġ
yi3 Ġji2Ġ
Ġhe2Ġ ping2Ġ
Ġzai4Ġ zhong1Ġguo2Ġ
bao4Ġ fa1Ġ
Ġshi4Ġ bu4Ġ
te4Ġ bie2
Ġzh ao3Ġ
c ao1Ġ
Ġbu4Ġ ming2Ġ
Ġxian4Ġ lu4Ġ
mi n3
guang3Ġ fan4Ġ
Ġc uo4Ġ
shuo1Ġ fa3Ġ
Ġju4Ġ le4Ġbu4Ġ
m eng4Ġ
wu3 Ġshi2Ġ
zhan4Ġ zheng1
yang1 Ġ
Ġzai4Ġ yi4Ġ
tou2Ġ piao4Ġ
Ġren4Ġ wei2
ĠdeĠ xin1Ġ
Ġ chong2Ġ
mi ao3Ġ
Ġyi1Ġ zhong3Ġ
xi1 Ġzai4Ġ
ĠdeĠdi4Ġ fang1Ġ
s e
Ġta1 Ġyu3Ġ
yun4 Ġxing2Ġ
Ġ yi4Ġwei4Ġ
yun4Ġ shu1Ġ
Ġke4 ĠdeĠ
tou4Ġ guo4Ġ
xu e3
xue2 Ġshi4Ġ
ren4Ġwei2 Ġshi4Ġ
L Ġ
k an3Ġ
sheng1Ġ chan3
mo2 Ġxing2Ġ
h u3Ġ
hai3 Ġjun1
Ġge4 Ġdi4Ġ
lie4 Ġwei4Ġ
ban4Ġ gong1Ġshi4Ġ
jie2Ġ gou4
Ġzh e2Ġ
n e
wai4 Ġguo2Ġ
po4Ġhu ai4Ġ
Ġ 10Ġyue4Ġ
yuan2 Ġwei4Ġ
shang4 Ġyou3Ġ
mei3 Ġnian2Ġ
Ġzong3 Ġren2Ġkou3Ġ
xi3 Ġhu
4 5
xuan1Ġ chuan2Ġ
Ġ200 7Ġnian2Ġ
3 Ġren2Ġ
c u4
tai4Ġ yang2Ġ
ni2 Ġsi1Ġ
lun2Ġ dun1
ch ang1
ĠdeĠ guan1Ġ
d ao1Ġ
Ġ chen2
13 Ġ
xue2Ġ xiao4
yang3Ġ hua4Ġ
4 Ġren2Ġ
Ġ zheng4Ġshi4Ġ
hua4 Ġshi2Ġ
cheng1 Ġwei4Ġ
xiao1 Ġxi1Ġ
ti e1Ġ
zhi4 Ġwei4Ġ
xuan3Ġ ze2
biao1 Ġzhi4Ġ
ao4Ġ yun4
Ġbu4Ġ men2Ġ
shu4Ġ liang4Ġ
m ei4
Ġ biao3Ġshi4Ġ
Ġxian4 Ġren2Ġ
chi2Ġ xu4
Ġju4Ġ li2Ġ
you2Ġ xi4
f en3Ġ
fu4Ġze2Ġ guan3Ġxia2Ġ
jin4 Ġxing2
jia1Ġ ru4Ġ
a3 Ġ
gong1Ġ zuo4Ġ
ĠĠĠ zh
Ġzai4Ġ mei3Ġguo2Ġ
Ġzhi1Ġ chi2
s u2Ġ
t ao4Ġ
tou2Ġ ru4Ġ
f ou3
jie4Ġ quan2Ġguo2Ġ
Ġ zhong4Ġ
shi1 ĠdeĠ
Ġ200 5Ġnian2Ġ
fen1 Ġzhi1Ġ
Ġzai4Ġ 19
jie2Ġ mu4
ta1Ġ menĠ
si4Ġ chuan1Ġ
Ġ yong3Ġ
tong2 Ġyi1Ġ
huan2Ġ jing4
Ġ Î
zai4 Ġshi4Ġ
zheng4 ĠdeĠ
dang3 ĠdeĠ
ĠĠĠ201 4Ġnian2Ġ
Ġ qing1
ku n4
bi3 Ġde2Ġ
ĠĠĠ201 5Ġnian2Ġ
Ġ201 7Ġnian2Ġ
Ġ202 1Ġnian2Ġ
zhu3Ġ jue2Ġ
u b
gou4 Ġcheng2Ġ
n i4Ġ
h i
fang1Ġ mian4
Ġ long2Ġ
Ġzai4Ġ bu4Ġ
bu4 Ġwei4Ġ
Ġ zhang1
Ġ zhen1Ġ
Ġdao4Ġ lu4Ġ
Ġshi4Ġ mei3Ġguo2Ġ
qi1Ġ jian1
Ġ han2Ġ
Ġwei2Ġ er3Ġ
ĠĠĠ yi3Ġ
peng2 Ġyou3Ġ
zh ai2Ġ
Ġbei4Ġ er3Ġ
fen1Ġ bie2Ġ
xue2Ġ xi2Ġ
ch i4
ji4Ġ shu4Ġ
Ġhuo4 Ġshi4Ġ
yin2Ġ hang2
m ou2Ġ
kang4 Ġyi4Ġ
yue1 Ġwei4Ġ
tai4 Ġguo2Ġ
Ġ jiang3Ġ
Ġzhan4Ġ zheng1
n i1Ġ
ĠĠĠ you3Ġ
jie1 Ġwei4Ġ
lie4 ĠdeĠ
ti ng3
hui4 Ġyou3Ġ
Ġ wan4Ġ
yi4 Ġhe2Ġ
xuan3Ġ qu1Ġ
jing1Ġ ying2Ġ
xiao4Ġ zhang3Ġ
ĠĠĠ201 3Ġnian2Ġ
wen2 Ġjian4Ġ
Ġgong1Ġ gong4Ġ
w a1Ġ
ian2 Ġ
cu i1Ġ
wu3Ġ qi4Ġ
t i4
U Ġ
rong2 Ġyi4Ġ
biao1 Ġwei4Ġ
Ġji2Ġ qi2Ġ
jiao4Ġ tang2Ġ
shou1Ġ ru4Ġ
gu a1Ġ
xiang1Ġ dui4Ġ
Ġ jing4Ġ
lai2Ġ shuo1Ġ
ĠĠĠ che1Ġzhan4Ġ
que4 Ġzh
jie1Ġr ang3Ġ
Ġ geng4
Ġ wu1Ġ
yan3 ĠdeĠ
bian1 Ġji2Ġ
nan2Ġ xing4Ġ
Ġ xian1Ġ
t an1Ġ
ao1 Ġzuo4Ġ
Ġ xiao1Ġ
ĠĠĠ shi2Ġ
si1 Ġdi4Ġ
Ġjin4 Ġxing2
g uo1Ġ
ti ao3
m eng4
jie3Ġfang4 Ġjun1Ġ
zhi2 ĠdeĠ
xing1 Ġjian4Ġ
zheng4Ġ ce4Ġ
Ġzhi4Ġ du4Ġ
a d
ge1Ġ qu3
f an2
shou4 Ġyu3Ġ
Ġzhong1Ġ you3Ġ
ku a4
Ġyuan2Ġ zhu4Ġ
bao3Ġ hu4
Ġ song4Ġ
Ġc ai4Ġ
a g
Ġ qi4Ġ
di e2
Ġjia1Ġ na2Ġda4Ġ
Ġ 2020Ġnian2Ġ
Ġyi3Ġ shang4Ġ
i ng
tong2 ĠdeĠ
Ġyou4Ġ cheng1Ġ
Ġshi4Ġ yi2Ġge4
ĠĠĠ ta1
Ġdi4Ġ xia4Ġ
pei4 Ġhe2Ġ
an4 Ġjian4Ġ
ĠĠĠ he2Ġ
en2 Ġ
jia1 Ġren2Ġ
Ġzai4Ġ da4Ġ
Ġ ren4
jun1 Ġdui4Ġ
di4 Ġshi4Ġ
a p
gao1 Ġyu2Ġ
hao4 Ġwei4Ġ
Ġ fei1
tian1Ġ zhu3Ġjiao4Ġ
Ġ rang4
xiang4Ġ mu4
jue2Ġ se4
Ġ fa1Ġ
Ġ di2Ġ
da2 Ġcheng2Ġ
wen3Ġ ding4Ġ
ji4 Ġzhong1Ġ
y ao2
yu3Ġ yan2Ġ
gan3 Ġdao4Ġ
jian3Ġ jie4Ġ
tiao3 Ġzhan4Ġ
quan2 ĠdeĠ
Ġer2Ġ qie3
Ġ hou4
wan4 Ġli4Ġ
shen1Ġ fen4
ĠĠĠ V
Ġxi1Ġ wang4Ġ
Ġren2Ġ lei4
Ġzhong1Ġguo2Ġ ren2Ġmin2Ġ
mei2Ġ ti3
duo2 ĠdeĠ
Ġji4Ġ cheng2Ġ
ĠĠĠ202 3Ġnian2Ġ
Â °
chong1Ġ tu1Ġ
Ġer2Ġren2Ġkou3Ġmi4Ġdu4Ġwei4Ġmei3 Ġping2Ġfang1Ġqian1Ġmi3Ġ
Ġ200 6Ġnian2Ġ
xiao3 ĠdeĠ
Ġwei4Ġ fu2
ban4Ġ dao3Ġ
zheng4 Ġshi2Ġ
ce4 ĠdeĠ
zao4 ĠdeĠ
22 Ġ
in d
Ġdi4Ġ tie3Ġ
hai3 Ġyu4Ġ
zui4Ġ zao3
zh an1Ġ
shi2 Ġzai4Ġ
ï ½
Ġ lin2
ying3Ġ pian4Ġ
ao4Ġ yun4Ġ
an1 ĠdeĠ
4 6
Ġping2Ġfang1Ġ mi3Ġ
ĠĠĠ yuan2Ġ
zhe4Ġ zhong3Ġ
lian2Ġ xu4Ġ
zi4Ġzhi4Ġ qu1Ġ
Ġ 8Ġyue4Ġ
ceng2 Ġzai4Ġ
in Ġ
biao3 Ġxian4
la1 Ġke4Ġ
Ġjian4Ġ zhu4
ting2Ġ zhi3Ġ
zh a1Ġ
Ġ guang1Ġ
ti2 Ġming2Ġ
ju3 Ġren2Ġ
ĠĠĠ zi4Ġ
xin1 Ġli3Ġ
12 Ġnian2Ġ
tuan2 Ġdui4Ġ
duo1Ġ ci4Ġ
Ġ ni2Ġ
qian2Ġ wang3
gao1Ġ su4
ke3Ġneng2 Ġhui4Ġ
ya1 Ġli4Ġ
jian3Ġ cha2Ġ
bi3Ġ ya4Ġ
ji4 Ġwei4Ġ
Ġer2 Ġbei4Ġ
fu2Ġ wu4
p ai1Ġ
14 Ġ
gong4 Ġtong2
Ġnian2Ġ du4Ġ
Ġle ng3Ġ
Ġji1Ġ bai4Ġ
xi1Ġban1Ġ ya2Ġ
Ġ yu3
Ġ hai2Ġyou3Ġ
tion Ġ
li4 Ġbu4Ġ
Ġchu1Ġ ren4Ġ
an1 Ġde2Ġ
da4 Ġbu4Ġfen4Ġ
Ġshi4Ġ tu2Ġ
Ġ er4
zhi3Ġ hui1
ĠdeĠ zhi4Ġ
chan3Ġ ye4Ġ
23 Ġ
k a1Ġ
fan1 Ġyi4Ġ
3 9
Ġ tai2Ġwan1
zhu3Ġ ti2Ġ
gai3Ġ bian4Ġ
fu2 Ġhe2Ġ
sh u2Ġ
am pĠ
202 2Ġnian2Ġ
5 Ġren2Ġ
ban4 Ġshi4Ġ
bi3Ġsai4 Ġzhong1Ġ
Ġ bei3
si1 Ġzai4Ġ
Ġji4Ġ xu4
ceng2Ġ jing1Ġ
xiang1Ġ tong2Ġ
Ġzi4Ġ you2Ġ
xiao3Ġ zu3Ġ
Ġ d
Y ou
xing2 Ġwei2Ġ
fa1 Ġxing2
c an2Ġ
shou3 ĠdeĠ
ku n4Ġ
ban4 Ġgong1Ġ
lun2Ġ dun1Ġ
g ao3Ġ
Ġ tu2Ġ
Ġ suo3Ġyou3Ġ
xia4Ġ wu3Ġ
00 Ġnian2Ġ
shao3Ġ shu4Ġ
ou1 Ġyuan2Ġ
Ġwei4Ġ neng2Ġ
Ġshi2Ġ fen1Ġ
Ġyi1Ġ ci4Ġ
K Ġ
p an1Ġ
zhong1 Ġzai4Ġ
A T
n u3Ġ
Ġhe2Ġ bei3Ġ
Ġc ang2
jian3Ġ shao3Ġ
sh ui4
kong1 Ġjun1Ġ
gong1Ġ yuan2Ġ
Ġ zi4
h an3Ġ
wei3Ġyuan2Ġ hui4
4 7
Ġ lan2Ġ
Ġyi4Ġ you3Ġ
xian4 Ġdai4Ġ
shen1 ĠdeĠ
Ġyi3Ġ se4Ġ
ai4 ĠdeĠ
gong4 Ġxian4Ġ
guo4Ġ qu4Ġ
chao2Ġ xian1
biao3 Ġming2Ġ
wei1 Ġer3Ġ
ji4Ġ hua4Ġ
ying4 ĠdeĠ
zhan3 Ġshi4Ġ
fen4Ġ zi3Ġ
f eng2Ġ
Ġ tong1Ġguo4Ġ
Ġsheng1Ġ wu4Ġ
n a
Ġshi2Ġ yan4
ming4Ġ ming2Ġwei4Ġ
ĠdeĠ shou3Ġ
Ġgong1Ġ si1ĠdeĠ
Ġshe4Ġ qu1Ġ
da3 Ġji1Ġ
ĠdeĠdi4Ġ qu1Ġ
Ġsi1Ġ ling4
Ġshi4Ġyi1Ġ ming2Ġ
jia1Ġ na2Ġda4Ġ
Ġ qian1Ġ
Ġshi4Ġ yi3Ġ
xun2Ġ hui2Ġ
Ġyou4 Ġming2Ġ
yong4Ġ lai2Ġ
shou3 Ġwei4Ġ
Ġli4Ġ ji2Ġ
wai4Ġ jiao1Ġ
jie1 Ġjin4Ġ
liang3 Ġge4
en Ġ
ren4Ġ wu4Ġ
lu4Ġdi4Ġ mian4Ġji1Ġwei4Ġ
Ġ18 9
bu4 Ġshi4Ġ
18 Ġ
shui3Ġyu4Ġ mian4Ġji1Ġwei4Ġ
xing2 Ġdong4Ġ
Ġguo2Ġ li4Ġ
ti3Ġ xi4Ġ
Ġshi2Ġ zi4Ġ
mu4 Ġsi1Ġ
ping2Ġ jia4Ġ
ying1Ġ ge2Ġlan2Ġ
Ġzai4Ġ yu2Ġ
Ġshe4 Ġbei4Ġ
gui1Ġ mo2
m a2Ġ
s an4
ju3 Ġxing2ĠdeĠ
Ġ mai4Ġ
Ġliang3 Ġren2Ġ
a k
fan3Ġ hui2Ġ
Ġ an4Ġ
chan3Ġ sheng1
jie2Ġshu4 Ġhou4Ġ
Ġti3Ġ zhang3Ġ
neng2Ġ gou4
fa3Ġ lv4
uo3 Ġ
Ġda4Ġ shi3Ġ
ï½ ŀ
zuo4Ġ jia1Ġ
guo2 Ġzai4Ġ
zhu4Ġ zuo4Ġ
dian4 Ġli4Ġ
Ġli4Ġ ru2
Ġshi3 ĠdeĠ
zhi4 Ġhe2Ġ
zhu4 Ġyi4Ġ
Ġ ampĠ
xiang4 Ġshi4Ġ
guan1Ġ zhong4Ġ
chang2Ġ qi1Ġ
xue2Ġ zhe3Ġ
Ġ kai1Ġshi3Ġ
Ġzhi1 Ġshi2Ġ
Ġdang1Ġzhong1Ġ lu4Ġdi4Ġmian4Ġji1Ġwei4Ġ
Ġsi1Ġ ling4Ġ
Ġer2Ġ shui3Ġyu4Ġmian4Ġji1Ġwei4Ġ
ling4Ġ wai4Ġ
Ġ dui4
Ġ fan4Ġ
chong2 Ġjian4Ġ
ĠĠĠ201 2Ġnian2Ġ
Ġji1Ġ du1Ġ
jia1 Ġhe2Ġ
zu3Ġ cheng2ĠdeĠ
jiao4Ġ qu1Ġ
Ġ 21Ġ
wei1Ġ lian2Ġ
Ġli4Ġ fa3Ġ
6 0Ġ
Ġ w
Ġcong2 Ġer2Ġ
z ou4
lei4 Ġxing2Ġ
Ġzhi3 Ġyou3Ġ
shui3 Ġping2Ġ
ji2 Ġzai4Ġ
ĠĠĠ xi1Ġ
kuai4Ġ su4Ġ
ĠT heĠĠĠ
bi4Ġ xu1
Ġcheng2Ġli4Ġ yu2Ġ
Ġ 9Ġyue4Ġ
feng1Ġ bao4Ġ
x u2
lv3 Ġke4Ġ
ou n
3 3
Ġ rang4Ġ
Ġp u2Ġ
Ġshi2Ġ shi1Ġ
Ġjun1 Ġwei4Ġ
ĠĠĠ of
Ġda4Ġ chen2Ġ
zong3Ġ du1Ġ
Ġ luo4Ġ
dong1 Ġxi1Ġ
qi3Ġ yong4Ġ
shou4Ġ shang1Ġ
ĠĠĠxing2Ġzheng4Ġ qu1Ġhua4Ġ
xin4Ġ hao4Ġ
jiao4 Ġwei2Ġ
dian4Ġ tai2Ġ
ai1 Ġji2Ġ
ji3 Ġyu3Ġ
yuan4Ġ zhang3Ġ
Ġ hua4Ġ
Ġyi3Ġ hou4Ġ
e v
Ġ dou1Ġ
dai4 Ġyou3Ġ
Ġyi4Ġ shu4
Ġji1Ġ gou4
ren4Ġ ming4
eng1 Ġli4Ġ
nei4Ġ rong2
wei3Ġ shu1Ġji4Ġ
Ġ deng3
dian3 ĠdeĠ
ru2 Ġhe2Ġ
xi1Ġ yang2Ġ
Ġ bei4
gu a4Ġ
Ġzh a4Ġ
min2 ĠdeĠ
r an
dao3 Ġyu3Ġ
Ġyi4Ġ ren2Ġ
Ġyuan2Ġ yin1Ġ
chu an4Ġ
sui2 Ġhou4Ġ
Ġwei4Ġfu2 Ġqi2Ġyu2Ġ
c eĠ
ĠĠĠ gai4Ġ
Ġjian4 Ġcheng2Ġ
Ġxue2Ġ xiao4
bao4Ġ fa1
Ġzhi2 Ġzhi4Ġ
Ġ 7Ġyue4Ġ
hao4 ĠdeĠ
Ġ bo1
Ġ shi3Ġyong4Ġ
Ġxin1Ġ wen2Ġ
ci4Ġshi4Ġjie4Ġda4Ġ zhan4Ġ
18 Ġnian2Ġ
can1Ġ jia1
xing4 Ġzhi4Ġ
Ġzhe4Ġ jiang1Ġ
yan3Ġchang4 Ġhui4Ġ
Ġ202 2Ġnian2Ġ
p i3Ġ
Ġshi4Ġ yi1Ġwei4Ġ
fo2Ġ jiao4Ġ
Ġ wang2
tui4 Ġyi4Ġ
hai2Ġ ziĠ
ch an2Ġ
ji1 Ġzhi4Ġ
bi4Ġ ye4Ġyu2Ġ
zhe4Ġ ge
wei4Ġ zhi4Ġ
ya4 ĠdeĠ
Ġshi4Ġ qu1Ġ
Ġ zhuan1Ġ
Ġming2Ġ cheng1Ġ
ã ĥ
Ġ gu3
10 Ġnian2Ġ
ru4Ġ kou3Ġ
ĠĠĠ yi4Ġ
Ġer3 Ġhe2Ġ
Ġ formulaĠ
Ġjia1Ġ shang4Ġ
qu3Ġ xiao1Ġ
Ġti3Ġzhang3Ġ ke3Ġda2Ġ
ju3 Ġxing2
zhuan1 Ġjia1Ġ
Ġke4 Ġli3Ġ
pu3Ġ tong1Ġ
hu n2
fu1 Ġren2Ġ
zhu4Ġ ming2ĠdeĠ
pi1Ġ zhun3Ġ
Ġjian4Ġ dui4Ġ
4 9
ĠdeĠyi1Ġ zuo4Ġ
qi4Ġ che1Ġ
Ġ ti2Ġ
hu an3Ġ
Ġru2Ġ guo3
Ġyu4 ĠdeĠ
Ġ fei4Ġ
Ġ 12Ġyue4Ġ
Ġm eng4Ġ
Ġ min2Ġguo2Ġ
zh a4
wen2Ġ zhang1Ġ
fa1Ġ dian4Ġ
bao3Ġ chi2Ġ
cun1Ġ zhuang1Ġ
Ġ tou2Ġ
zhi4 Ġzai4Ġ
Ġbu4Ġ li3Ġ
Ġyi3Ġ xia4
G Ġ
r ou4
yi2 Ġdong4Ġ
lian2Ġ xi4Ġ
di3Ġ da2Ġ
zhan4 Ġzhong1Ġ
ĠdeĠ qian2Ġ
Ġshang4Ġ hai3
Ġ 11Ġyue4Ġ
Ġfu4Ġ jin4Ġ
zh uo2Ġ
wang3Ġ lu4Ġ
yu3 Ġzhong1Ġ
xiang1Ġ dang1Ġ
ru4Ġ qin1Ġ
6 Ġren2Ġ
ye3 Ġzai4Ġ
Ġji1Ġ guan1Ġ
Ġ qu1Ġ
Ġzhi1 Ġzhong1Ġ
yan2Ġ ge2Ġ
shou4 Ġdao4
ĠĠĠ202 4Ġnian2Ġ
201 2Ġnian2Ġ
Ġde2 Ġyi3Ġ
Ġ ping2
yi4 Ġzai4Ġ
guang3Ġ bo1
wan4 Ġyuan2Ġ
Ġshi2Ġ ren4Ġ
Ġs uo1Ġ
25 Ġnian2Ġ
tong2 Ġyi4Ġ
si4 Ġge4Ġ
gu1 Ġji4Ġ
Ġzheng4Ġ ce4Ġ
gong4Ġchan3Ġ dang3
ha1 Ġer3Ġ
tai4Ġping2Ġ yang2Ġ
dao3 Ġshi4Ġ
zhe4Ġ xie1
ch i1Ġ
gu ai4Ġ
zhi2 Ġwei4Ġ
8 Ġren2Ġ
cheng2Ġ gong1Ġ
fa1Ġ dong4Ġ
Ġmu4Ġ qian2
ming2 Ġshi4Ġ
Ġping2Ġ tai2Ġ
xiao1Ġ shou4Ġ
geng4 Ġjia1Ġ
ming2Ġ cheng1Ġ
fa3 ĠdeĠ
ĠdeĠshi2Ġ qu1Ġwei4Ġ
28 Ġnian2Ġ
de2 Ġdao4Ġ
xing1Ġ qi1Ġ
cha1 Ġyi4Ġ
sheng1 Ġwei4Ġ
c o
e sĠ
fa1 Ġchu1Ġ
ĠĠĠ t
200 8Ġnian2Ġ
ind ow
yu3 Ġhe2Ġ
Ġjia1Ġ ru4
ju2Ġ zhang3Ġ
Ġyi1Ġ sheng1Ġ
xiao3Ġ shuo1
Ġshi4Ġ you3Ġ
qi1Ġ zi3Ġ
yue4Ġ tai2Ġ
Ġyu2Ġ 197
ĠdeĠshi2Ġ jian1Ġ
Ġer3Ġ te4Ġ
g Ġ
al Ġ
5 5
duo1 Ġnian2Ġ
chu1Ġ ban3
guang3 Ġxi1Ġ
Ġren2Ġ lei4Ġ
Ġxian4 Ġwei4Ġ
kuo4 Ġda4Ġ
Ġji1Ġ hu1Ġ
zhu4 Ġyu2Ġ
Ġhan sĠ
Ġ xi1
Ġ ruo4Ġ
yi4 Ġzhong1Ġ
Ġt wĠ
yue4 Ġshi2Ġ
b a4
ĠĠĠnian2 Ġ
zhi3 Ġzai4Ġ
zhong4 Ġda4Ġ
zhe4Ġ jiang1Ġ
ai1 Ġer3Ġ
deng1 Ġlu4Ġ
p ang2
Ġsi1Ġ tan3Ġ
lai2 Ġdao4Ġ
ye4 Ġhou4Ġ
Ġjin3Ġ guan3
Ġbing4Ġ mei2Ġyou3Ġ
Ġ hai2
Ġ yin4Ġdu4Ġ
Ġjin4Ġ ru4
shu4Ġ xue2Ġ
bi an3Ġ
ji4 Ġhe2Ġ
ba1Ġ li2Ġ
ĠĠĠdeĠ shi2Ġ
a b
rong2 Ġyu4Ġ
Ġhuo4Ġ zhe3Ġ
meng2Ġ gu3
che4Ġ xiao1Ġ
Ġ shang1Ġ
zui4 Ġchu1Ġ
ba1 Ġxi1Ġ
Ġshi4Ġ yan3Ġ
zh ou4Ġ
Ġzai4Ġ 18
jie2Ġ hun1Ġ
gai3Ġ bian1
mu3Ġ qin1Ġ
wan3 Ġshang4Ġ
ĠĠĠ 3
ya4Ġli4Ġ shan1
r an3
Ġguo2Ġ wu4Ġ
Ġgong1Ġ ye4
yuan4 ĠdeĠ
wen2Ġ zi4Ġ
Ġzhi1 Ġyuan2Ġ
Ġ yan3Ġ
Ġ chuang4Ġ
Ġjia1Ġ ting2Ġ
shu4Ġ zi4Ġ
17 Ġ
ï¼ ı
Ġzuo4Ġ yong4Ġ
Ġci3 Ġshi2Ġ
p an2
Ġ a1Ġer3Ġ
Ġhu i3Ġ
hun4 Ġhe2Ġ
xu1 Ġqiu2Ġ
Ġren2Ġ menĠ
Ġxue2Ġ xi2Ġ
Ġxi1Ġban1Ġ ya2
Ġ sa4Ġ
ni u2
xue2 Ġhe2Ġ
su1Ġ lian2
heng2Ġ xing1Ġ
ming2 Ġyi4Ġ
fu4 ĠdeĠ
ye3 Ġbei4Ġ
wu4Ġ zhong3
19 Ġnian2Ġ
202 1Ġnian2Ġ
Ġbing4 Ġyi3Ġ
24 Ġnian2Ġ
Ġ da3Ġ
Ġde2 ĠdeĠ
shi2 Ġwei4Ġ
zhan4 Ġdi4Ġ
xiong1Ġ ya2
201 8Ġnian2Ġ
hua2Ġ min2Ġguo2Ġ
ĠĠĠ suo3Ġshu3ĠdeĠsheng3Ġji2Ġxuan3Ġqu1Ġwei4Ġ
ru2Ġ ci3Ġ
ĠĠĠdeĠ you2Ġzheng4Ġbian1Ġma3Ġwei4Ġ
ĠĠĠyu3Ġ jie1Ġrang3ĠdeĠshi4Ġzhen4Ġ
ĠĠĠyu2Ġ shi2ĠdeĠren2Ġkou3Ġshu4Ġliang4Ġwei4Ġren2Ġ
ĠĠĠdeĠshi2Ġ qu1Ġwei4Ġ
chu ang2Ġ
zong3 Ġbu4Ġ
zhuang1 Ġzhi4Ġ
Ġsi1Ġ la1Ġ
tai2Ġ bei3Ġ
Ġ que4
Ġ 6Ġyue4Ġ
li u3Ġ
ji4Ġ nian4Ġ
que4Ġ ding4Ġ
shuo4 Ġshi4Ġ
7 Ġren2Ġ
Ġ Ñ
Ġshi2Ġ xian4Ġ
Ġ gai3
lin2 ĠdeĠ
Ġzh ao3
tu2 Ġzhong1Ġ
guan1Ġ zhu4Ġ
Ġ kuan1Ġ
min2Ġ zhong4Ġ
kai1Ġ fang4
Ġchu1 Ġxian4Ġzai4Ġ
xun4Ġ su4Ġ
ĠĠĠ 2010Ġnian2Ġ
Ġ ling2Ġ
Ġwei4Ġ le
Ġ xing4Ġ
Ġwei4Ġ sheng1Ġ
shi1Ġ fan4
guan3Ġ li3
can1Ġ kao3Ġ
Ġ pi2Ġ
Ġzhi1Ġ ming2Ġ
Ġceng2 Ġren4Ġ
liu2 Ġyu4Ġ
Ġji2Ġ qi2
Ġ qiang2Ġ
zi1Ġ xun4Ġ
Ġ fan3Ġ
ĠĠĠ ji1Ġ
Ġshi4Ġ zhang3Ġ
Ġyi1Ġ dai4Ġ
fu4Ġ qin1Ġ
wei2 ĠdeĠ
jin4 Ġshi4Ġ
xiong1Ġya2 Ġli4Ġ
sui1 Ġran2Ġ
jing1Ġ chang2Ġ
chang4Ġ pian4Ġ
chu1Ġ ban3Ġ
7 5
r u3
ti c
Ġge4Ġ zhong3Ġ
Ġdan4 Ġta1Ġ
jiang3Ġ xiang4Ġ
ĠĠĠ p
fei1 Ġjian4Ġzhi4Ġ
Ġbu4Ġ ke3Ġ
b er
tai2 ĠdeĠ
14 Ġnian2Ġ
Ġbing4 Ġli4Ġ
xu e4
lu4 Ġjun1
201 4Ġnian2Ġ
Ġh kĠ
xi4Ġ ju4Ġ
Ġxue2Ġ jia1Ġ
i v
niu3Ġ yue1Ġ
n ai3
Ġ 5Ġyue4Ġ
lu an4
Ġren2Ġ shu4Ġ
gao1Ġ du4Ġ
zhuang4Ġ kuang4Ġ
ti2 Ġchu1
Ġwei4Ġ he2Ġ
ĠĠĠ201 1Ġnian2Ġ
Ġdi4Ġ qiu2Ġ
Ġsi1Ġ te4
jing1Ġ shen2Ġ
hu ai2
kang4 Ġri4Ġ
Ġhe2Ġ bing4Ġ
wei1Ġ xie2Ġ
Ġhe2Ġ xin1Ġ
Ġ chu2
d u3Ġ
Ġzh an1Ġ
fa1Ġxian4 ĠleĠ
guo4Ġ qu4
27 Ġnian2Ġ
sh an3Ġ
jiao4 ĠdeĠ
Ġtong1Ġ chang2Ġ
Ġ che1Ġ
lan2 Ġke4Ġ
Ġnian2Ġ qing1
Ġyi4Ġ yuan4Ġ
y e1Ġ
wang2 ĠdeĠ
liang3 Ġren2Ġ
sa4 Ġke4Ġ
21 Ġnian2Ġ
s p
cai2 Ġzheng4Ġ
Ġwei2Ġ qi2Ġ
jin4Ġ ru4
Ġzhi1Ġ hou4
Ġshi4Ġ zhi3Ġ
qi3 Ġyi4Ġ
zhong4Ġ dian3Ġ
sh a4Ġ
u m
lv4 Ġwei4Ġ
Ġ huang2
Ġji4Ġ zai3Ġ
Ġye3 Ġyou3Ġ
Ġjing1Ġ guo4Ġ
de r
de ĠĠĠ
ĠĠĠ zhong1Ġguo2Ġ
Ġ ci2Ġ
li4 Ġshi4Ġ
tu2Ġshu1Ġ guan3Ġ
Ġ zu3Ġ
zhu3Ġ chi2Ġ
fei1Ġjian4Ġzhi4Ġ di4Ġqu1Ġ
Ġ gui1Ġ
shou3Ġ du1Ġ
jiang1 Ġxi1Ġ
diao4Ġ cha2
Ġ qian2
ao4 Ġdi4Ġli4Ġ
sh u2
dou1 Ġhui4Ġ
Ġyin1 Ġer2Ġ
Ġ jin3
qu an3Ġ
tai4Ġ yang2
Ġ zhu1
Ġ che1Ġzhan4Ġ
liang3 Ġnian2Ġ
xun4Ġ lian4
ĠĠĠ jie2
sui4 Ġdao4Ġ
Ġda4Ġ lou2Ġ
cu n4Ġ
shang4Ġ shu1Ġ
Ġzuo4Ġ pin3
15 Ġnian2Ġ
00Ġ wan4Ġ
Ġshi4Ġ ji2Ġ
Ġhe2Ġ zhong1Ġ
Ġbu4Ġ duan4Ġ
chan3Ġ pin3
z eng4Ġ
min2Ġ zu2
ling3Ġdao3 Ġren2Ġ
zhan4Ġ dou4
xi4Ġtong3 ĠdeĠ
xi4Ġ bao1
shan1Ġ mai4
Ġ e2Ġluo2Ġsi1Ġ
kan4 Ġdao4Ġ
Ġch i4Ġ
Ġyu2Ġ 194
Ġzhong1Ġguo2Ġ gong4Ġchan3Ġdang3Ġ
9 Ġren2Ġ
Ġ da2Ġ
ĠdeĠcheng2Ġ yuan2Ġ
Ġhe2Ġ cheng2Ġ
Ġji4Ġ suan4
Ġzai4Ġ jia1Ġ
A S
t ou
Ġda4Ġ duo1Ġ
ku ang2Ġ
guang3Ġ gao4Ġ
na4 Ġli3Ġ
Ġ 00Ġ
19 0
29 Ġnian2Ġ
Ġ 4Ġyue4Ġ
Ġ zao4Ġcheng2Ġ
hua4 Ġwei4Ġ
201 5Ġnian2Ġ
xiao4Ġ guo3Ġ
chang4Ġ pian4
Ġzheng4Ġ zhuang4Ġ
n uo2Ġ
hai3 Ġdao4Ġ
shen1 Ġwei4Ġ
yong4Ġ hu4Ġ
Ġli3Ġ lun4Ġ
jiao4Ġ lian4Ġ
Ġ200 4Ġnian2Ġ
ying2Ġ yun4Ġ
Ġzi4Ġji3 ĠdeĠ
Ġ hua1Ġ
zh ao3Ġ
sai4 ĠdeĠ
Ġ18 8
t or
Ġ chuan2Ġ
jiang1Ġ su1Ġ
chan3Ġ sheng1ĠdeĠ
shi2Ġ jian1Ġ
que4Ġzh en3
yue4 Ġzai4Ġ
22 Ġnian2Ġ
fu4Ġ jin4Ġ
ju4Ġ li2Ġ
Ġt eng2Ġ
xia4Ġji4Ġ ao4Ġlin2Ġpi3Ġke4Ġyun4Ġdong4Ġhui4Ġ
sui1 Ġran2
sun3Ġ shi1Ġ
ĠĠĠzh Ġ
3 4
wu3Ġ zhuang1Ġ
Ġ ruo4
Ġ quan2Ġguo2Ġ
Ġda4Ġ xing2Ġ
Ġzhi1Ġ xia4Ġ
shen1Ġ qing3Ġ
Ġ ke1
Ġ lv4Ġ
Ġ tuo1Ġ
ĠĠĠ U
zhi2 Ġdao4Ġ
ru n4Ġ
Ġshi4Ġ zhen4
Ġgong1Ġ ren2Ġ
ao4Ġyun4 Ġhui4Ġ
Ġ bian4
lan2 Ġqiu2Ġ
you1 Ġshi4Ġ
ĠĠĠjia1Ġ zu2Ġ
Ġshi4Ġ ren2Ġ
li2Ġ kai1
zhou1 ĠdeĠ
jiao4Ġ shi1Ġ
yin3Ġ qi3
Ġ ou1Ġ
ji4 Ġshi2Ġ
hua2 Ġren2Ġ
zhan4Ġ dou4Ġ
pin3Ġ pai2Ġ
11 Ġnian2Ġ
e dĠĠĠ
Ġmei4 Ġ
201 7Ġnian2Ġ
Ġ chang2
xian3 ĠdeĠ
ju4 ĠdeĠ
wang2Ġ chao2
Ġ wang3Ġ
han2Ġ shu4Ġ
ĠC Ġ
jie4 ĠdeĠ
Ġyue4Ġ nan2Ġ
t un2Ġ
Ġ you3Ġshi2Ġ
qi a4Ġ
jia1 Ġzhong1Ġ
su n3
6 5
bao4Ġ dao3Ġ
fang3Ġ wen4Ġ
201 1Ġnian2Ġ
ju1 Ġzhu4Ġ
gao1Ġ deng3Ġ
Ġdao4 Ġle
Ġji4Ġ zhe3Ġ
Ġdan4Ġ you2Ġyu2Ġ
tiao2Ġ zheng3Ġ
Ġ xiang3
sh an3Ġxi1Ġ
zeng1Ġ zhang3Ġ
ni ao3
ying1Ġ wen2Ġ
a i
Ġ xu3Ġduo1Ġ
jin1 ĠdeĠ
bao3Ġ chi2
Ġyue4Ġ tai2Ġ
Ġ 10Ġ
you3 Ġbu4Ġ
xi2 Ġwei4Ġ
Ġji2Ġ li4Ġ
Ġxi1Ġ wang4
ao4Ġ men2Ġ
su4 ĠdeĠ
Ġzhong1Ġ wen2Ġ
ch ai2
zhen1 Ġshi2Ġ
13 Ġnian2Ġ
Ġdi4Ġ wu3Ġ
mei3Ġ shu4Ġ
Ġhuo4Ġde2 ĠleĠ
yun3Ġ xu3Ġ
ch ou1Ġ
zhong1 Ġwei4Ġ
yin4 Ġdi4Ġ
fei1Ġ lv4Ġ
liang3Ġ zhong3Ġ
fa3Ġ an4Ġ
hui2Ġ ying4Ġ
sh e3Ġ
sheng1 Ġzai4Ġ
yi2Ġ min2Ġ
guan1Ġ xi4
2020Ġnian2Ġ mei3Ġguo2Ġren2Ġkou3Ġpu3Ġcha2ĠdeĠshu4Ġju4Ġ
jiao4Ġ xue2Ġ
wu3Ġ tai2Ġ
lei4 ĠdeĠ
Ġzhou1 Ġnian2Ġ
ma3 Ġsi1Ġ
lie4Ġ biao3Ġ
ming4Ġ ling4Ġ
bai2Ġ se4Ġ
ĠdeĠgong1Ġ zuo4Ġ
zhong1Ġ hua2Ġren2Ġmin2Ġgong4Ġhe2Ġguo2Ġ
Ġ sun1Ġ
23 Ġnian2Ġ
- -
Ġyu3Ġ yan2
Ġren4Ġ wu4Ġ
duo1 Ġren2Ġ
shen2Ġ jing1Ġ
yi2Ġ chan3Ġ
yao1Ġ qing3Ġ
hui4 Ġyuan2Ġ
wa3 Ġer3Ġ
Ġf eng2Ġ
deng3 Ġwei4Ġ
du1 Ġshi4Ġ
Ġjin4 Ġgong1Ġ
yi3Ġ lai2Ġ
1Ġyue4Ġ 1Ġri4Ġ
hua4 Ġjia1Ġ
quan2Ġ mian4Ġ
m ou3
Ġshi2Ġ yi1Ġ
Ġshi2Ġ qi1
Ġda4Ġ yue1Ġ
yi2Ġ zhi3Ġ
Ġri4Ġ jun1Ġ
ceng2Ġ jing1
h e
jie1 Ġji2Ġ
17 Ġnian2Ġ
Ġbu4Ġ men2
Ġ sheng4
ĠĠĠ zao3Ġnian2Ġ
dong1 Ġji4Ġ
shu1 ĠdeĠ
Ġhe2Ġ xi1Ġ
Ġshe4 Ġji2Ġ
ze2 Ġwei4Ġ
duan4 ĠdeĠ
jing1 Ġli3Ġ
hua1 Ġyuan2Ġ
qi4Ġ xiang4Ġ
d a
yue1 Ġyou3Ġ
mei3Ġ guo2ĠdeĠ
Ġzai4Ġ xi1Ġ
bi ng3
Ġzhi4Ġ shi2Ġ
Ġli4Ġ shi3
xia4 Ġyi1Ġ
ying2 ĠdeĠ
Ġji1Ġ che1Ġ
ling3Ġ tu3Ġ
zh ai4Ġ
ku n1
ke4 Ġli3Ġ
Ġwo3Ġ menĠ
yi4 Ġnian2Ġ
Ġzhi4Ġ li4Ġ
r ao3Ġ
Ġ zuo3Ġ
pi n4Ġ
mian4 Ġdui4Ġ
Ġmei3 Ġnian2Ġ
m ang2Ġ
yuan2 Ġji2Ġ
mi3 ĠdeĠ
Ġhe2Ġ lan2Ġ
Ġxing2Ġ zheng4
Ġsuo3 Ġyi3
wan2Ġ quan2
Ġyuan2Ġ yin1
Ġshi4Ġ da4Ġ
Ġgong1Ġ chang3Ġ
zi1Ġ jin1Ġ
fang2 Ġyu4Ġ
Ġ ai1Ġ
yuan2 Ġzai4Ġ
Ġ 3Ġyue4Ġ
jiu3Ġ dian4Ġ
Ġming2Ġchao2Ġ zheng4Ġzhi4Ġren2Ġwu4Ġ
Ġ202 3Ġnian2Ġ
cheng1 Ġzuo4Ġ
xue2Ġ shu4Ġ
Ġji4Ġ shu4
xia4Ġ ling4
Ġ qi1
Ġshi2Ġ er4Ġ
Ġren2Ġ min2
ĠĠĠ xin1Ġ
ti2 Ġsheng1Ġ
cai2Ġ liao4Ġ
s ou1
jin4 Ġgong1Ġ
Ġzhong1Ġ yu2Ġ
gui1Ġ ze2Ġ
c ui4Ġ
Ġ can1Ġjia1Ġ
da4 Ġdi4Ġ
200 9Ġnian2Ġ
26 Ġnian2Ġ
Ġ kang1
wen2 Ġxian4Ġ
e st
ĠĠĠ ta1Ġ
Ġyuan2Ġ ming2Ġ
z ong4Ġ
te4 Ġli3Ġ
Ġyi4Ġ yi4Ġ
zuo4Ġ yong4Ġ
sheng1 Ġji2Ġ
Ġhe2Ġ gong1Ġ
nei4Ġ lu4Ġ
shou1Ġ lu4
ĠĠĠ hou4Ġ
Ġguo2Ġ hui4Ġ
qi3Ġ ye4
Ġ200 2Ġnian2Ġ
e g
xi3Ġhu an1Ġ
Ġ xiao4Ġ
202 3Ġnian2Ġ
ji1Ġ chang3Ġ
k eng1
Ġgong1Ġ hui4Ġ
Ġyuan2Ġ gong1Ġ
biao3Ġ mian4Ġ
201 3Ġnian2Ġ
Ġzhi4Ġ liao2Ġ
wu2Ġ fa3
qi an3
jie2 Ġke4Ġ
can1 Ġmou2Ġ
Ġguo2Ġ fang2
Ġshi4Ġyi1Ġ zhong3
I N
ju an4Ġ
n ai3Ġ
yong4Ġ zuo4Ġ
l ai4
zhu3Ġ chi2
wei1 Ġji1Ġ
Ġdi4Ġyi1Ġ ci4Ġ
Ġnan2 Ġzhi4Ġ
ĠĠĠ you2Ġ
Ġyu2Ġ 196
jia1Ġ ru4
ĠĠĠ200 8Ġnian2Ġ
tai4 Ġren2Ġ
Ġyi4Ġ fang1Ġmian4Ġ
Ġ yang2
zhi1Ġ jian1Ġ
Ġ han2Ġguo2Ġ
19 Ġ
bei4 Ġshi4Ġwei4Ġ
wen2 Ġyi4Ġ
Ġshi4Ġ hou4Ġ
li3Ġ lun4Ġ
nv3Ġ zi3
6 8
a li
en t
Ġzai4Ġ 198
Ġxian4 Ġhe2Ġ
xiang1Ġ guan1
Ġnian2 Ġshi4Ġjie4Ġ
Ġcheng2Ġ xian4Ġ
Ġ xing1Ġ
dong1Ġ nan2Ġbu4Ġ
ge2 Ġwei4Ġ
ying2 Ġde2
da4 Ġwei4Ġ
kong1 Ġzhong1Ġ
hui1Ġ fu4
ke3Ġyi3 Ġzai4Ġ
zhu4 Ġli3Ġ
tian1 ĠdeĠ
kong3 Ġbu4Ġ
o s
dai4 Ġli3Ġ
liu2 Ġzai4Ġ
16 Ġnian2Ġ
zuo4 Ġwei4Ġ
ku i2
Ġ fan3
sh ang3
jian4 Ġshe4Ġ
shou3 Ġji1Ġ
qi2Ġzhong1Ġ yi1Ġzhong3Ġ
li4 Ġwei4Ġ
shu1 Ġji2Ġ
Ġer2 Ġcheng2Ġ
Ġxiang1Ġ guan1Ġ
Ġ zhong1ĠdeĠ
suo3 Ġzai4Ġ
gu4Ġ wen4Ġ
zi4Ġ dong4Ġ
Ġ man4Ġ
sh ao1
Ġjian4 ĠleĠ
3 1
yi3 Ġxia4Ġ
50 Ġnian2Ġ
Ġ xiao3
you3 Ġzai4Ġ
da4Ġ lu4ĠdeĠ
bo1Ġ lan2
cheng2 Ġnian2Ġ
ji1 Ġhe2Ġ
yan3 Ġyi4Ġ
hui4 Ġshi4Ġ
ku ang1Ġ
jin1Ġ shu3Ġ
4 4
t i1Ġ
tong1Ġ che1Ġ
te4Ġ shu1Ġ
Ġfu4Ġ ze2
Ġjie2 Ġzhi4Ġ
Ġ ru4Ġ
Ġzuo4Ġ wei2
c i
Ġ sĠĠĠ
fa1 ĠdeĠ
Ġ fang1Ġ
biao3Ġ da2
Ġyou3Ġ ji1Ġ
Ġjin4Ġ yi2Ġbu4Ġ
Ġ2001Ġnian2Ġ ren2Ġkou3Ġ
zhao1 Ġhe2Ġ
Ġta1Ġ ye3Ġ
ju1Ġ min2
a ng
tong1 Ġdao4Ġ
jing4 ĠdeĠ
men ĠdeĠ
shuo1 Ġming2Ġ
zhi2Ġ min2
Ġbei3Ġ qi3Ġ
Ġ 7Ġ
jiang1 Ġhui4Ġ
si3 Ġhou4Ġ
Ġdong4Ġ hua4Ġ
Ġ000 Ġ
si1 Ġli4Ġ
dao4 Ġlu4Ġ
zhu3 ĠdeĠ
wang2Ġ chao2Ġ
p er
Ġshi4Ġ wei1Ġ
ya4Ġli4Ġshan1 Ġda4Ġ
Ġ zheng4
Ġyi3Ġ bei4Ġ
Ġdao4Ġ da2Ġ
Ġzhi1Ġ jian1
Ġping2Ġ mian4Ġ
ying3Ġ pian4
a me
S TĠ
Ġzhong1Ġguo2Ġ da4Ġlu4Ġ
k ou4Ġ
Ġ ying1Ġyu3Ġ
zhu3 Ġli4Ġ
chang2 ĠdeĠ
ni2 Ġke4Ġ
Ġzai4Ġ wei4Ġ
di4Ġ er4Ġ
Ġ à
Ġyu2Ġ le4Ġ
Ġc ang1Ġ
yao4Ġ wu4Ġ
Ġxian4ĠdeĠ yi2Ġge4Ġ
202 4Ġnian2Ġ
Ġbu4Ġ bu4Ġ
Ġ200 0Ġnian2Ġ
nan2Ġ jing1Ġ
t eng2
ĠdeĠ zheng4Ġ
Ġxi1Ġ si1Ġ
Ġ jie4Ġ
ĠĠĠ202 5Ġnian2Ġ
Ġ guang3Ġ
Ġer2Ġ yan2Ġ
Ġc u4
miao2Ġ shu4
1 ĠĠĠ
Ġ hong2
jiao1 Ġhui4Ġ
bo1Ġ lan2Ġ
Ġxian4ĠdeĠ yi2Ġge4
Ġ lai2Ġzi4Ġ
shou3 Ġge4Ġ
Ġta1 Ġwei4Ġ
Ġxing2Ġ dong4
ci4Ġ shi3Ġ
lv4Ġ shi1Ġ
Ġke4 Ġcheng2Ġ
Ġyou3Ġ yi4Ġ
ye3 Ġhui4Ġ
jin1 Ġhui4Ġ
ji3 Ġge4Ġ
po 2Ġ
A R
e sĠĠĠ
m i2
Ġzhan4Ġ dou4Ġ
Ġ xuan1Ġbu4Ġ
fei1 Ġzhou1Ġ
lao2 Ġdong4Ġ
dong1Ġ bei3Ġbu4Ġ
jin1Ġ pai2Ġ
ĠĠĠ200 9Ġnian2Ġ
ya4 Ġzhou1
hai3Ġ an4Ġ
Ġ 0Ġ
ĠĠĠ xia4Ġ
Ġ200 3Ġnian2Ġ
an d
ĠdeĠ jia1Ġ
mu4Ġ biao1
Ġ bi3
fu2 Ġyi4Ġ
Ġt ang1Ġ
wo3Ġ menĠ
Ġshi4Ġ yu3Ġ
ti2 Ġdao4Ġ
Ġer2Ġshui3Ġyu4Ġmian4Ġji1Ġwei4Ġ 0
ãĥ »
g ong3Ġ
Ã Ĺ
ju4 Ġhe2Ġ
Ġguo2Ġ jia1ĠdeĠ
Ġzh a1Ġ
che1 ĠdeĠ
zi4Ġ you2
Ġfu4Ġ qin1Ġ
ben3 Ġdi4Ġ
tui1 Ġdong4Ġ
Ġzhi1 Ġwei4Ġ
kao3Ġ lv4
yun4 Ġzuo4Ġ
Ġjie2Ġ guo3Ġ
n eĠ
zhuang1Ġ jia3Ġ
shi1Ġ bai4Ġ
gou4Ġ zao4Ġ
f f
Ġ qiao2Ġ
Ġ 30Ġ
Ġbu4Ġ de2
Ġshi2Ġ yan4Ġ
ju4Ġ le4Ġbu4Ġ
dang1Ġ shi2ĠdeĠ
Ġ wu4Ġ
Ġ cheng1Ġwei2Ġ
sui4 Ġshi2Ġ
lv3 Ġxing2Ġ
Ġchu1Ġ lai2Ġ
bian1 Ġju4Ġ
tui4 Ġchu1Ġ
an1Ġ zhuang1
Ġbing4Ġ jiang1Ġ
Ġqiu2 Ġyuan2Ġ
Ġshi4Ġ jia1Ġ
t ang1Ġ
Ġhe2Ġ qi2Ġta1Ġ
ao4Ġda4Ġli4Ġ ya4Ġ
p ao3
qi e1Ġ
Ġcheng2Ġ xu4Ġ
f en3
chu ang2
zhuang1 Ġshi4Ġ
Ġyu2Ġ 195
fa3Ġ yuan4
t o
Ġ li2Ġ
Ġer2Ġ gai1Ġdi4Ġ
mu4Ġ qian2
ĠĠĠ cheng2Ġ
bian4 Ġde2Ġ
Ġbu4Ġ la1Ġ
bo1Ġ fang4Ġ
c ao1Ġzuo4Ġ
ji4Ġ lu4Ġ
fu4Ġ qin1
2 ĠĠĠ
d a1
p h
Ġ xiu1Ġ
Ġ lei2Ġ
Ġyi1Ġ ji2Ġ
jin4Ġ yi2Ġbu4Ġ
dian4Ġ nao3Ġ
Ġt ao4Ġ
mao2Ġ ze2Ġ
Ġwei4Ġ you3Ġ
Ġda4Ġ lu4Ġ
Ġbing4 Ġyu3Ġ
mo4Ġxi1Ġ ge1Ġ
t ou4
sa4 Ġsi1Ġ
jiao1Ġ liu2Ġ
yan3Ġ chang4Ġ
6 4
Ġ guan1Ġyu2Ġ
xiao4 ĠdeĠ
Ġjia1Ġ zu2Ġ
Ġ hen3Ġ
yi4Ġ da4Ġli4Ġ
gu3Ġ fen4
Ġzhong1Ġgong4 Ġzhong1Ġyang1Ġ
xian1 Ġsheng1Ġ
guan1Ġ bi4Ġ
Ġcheng2Ġwei2Ġ leĠ
tao3Ġ lun4Ġ
luo2 Ġdi4Ġ
jin3 Ġji2Ġ
qing3 Ġqiu2Ġ
Ġjin4 Ġxing2ĠleĠ
ĠĠĠ in
shou1 Ġshi4Ġ
Ġwei4Ġ lai2Ġ
Ġji1Ġ bai4
Ġ zhen4Ġ
ba1Ġ li2
Ġzhu3Ġ xi2Ġ
Ġ li3
sa4 Ġer3Ġ
ĠĠĠ s
200 7Ġnian2Ġ
bo2Ġwu4Ġ guan3
Ġfu4Ġ qin1
H Ġ
Ġ du2Ġ
Ġsi1Ġ ke4Ġ
jing3Ġ fang1Ġ
chang3 Ġhe2Ġ
hong2Ġ se4Ġ
ĠĠĠ cong2Ġ
zhi4Ġ zuo4Ġ
Ġ r
tan3 Ġke4Ġ
Ġyi4Ġ mei3Ġyuan2Ġ
jie2Ġ guo3
huo3Ġ shan1Ġ
3 5Ġ
k en3
sh e3
Ġchu1Ġ qi1Ġ
e a
chuang4Ġ ban4
Ġle Ġta1Ġ
guang3Ġ fan4
huo3 Ġjian4Ġ
bi3Ġli4Ġ shi2Ġ
tai4Ġping2Ġ yang2
ĠĠĠ b
te4Ġ se4Ġ
â Ķ
jue2 Ġdui4Ġ
Ġte4Ġbie2 Ġshi4Ġ
yu2 Ġzai4Ġ
ding4 ĠleĠ
bian1 ĠdeĠ
Ġchu1Ġ sheng1Ġ
Ġ liang2Ġ
Ġshi4Ġ ri4Ġben3Ġ
Ġyi3 Ġyou3Ġ
Ġ ci4Ġ
Ġ bai3Ġ
shang4Ġ wu3Ġ
Ġzhi4Ġ cheng2Ġ
Ġzhi1 ĠdeĠ
Ġbei4Ġ ren4Ġwei2Ġshi4Ġ
min2Ġ jian1Ġ
min2Ġzhu3Ġ dang3Ġ
nei4 Ġyou3Ġ
200 0Ġnian2Ġ
wan2 Ġgong1Ġ
Ġda4Ġ dao4Ġ
guang3Ġdong1Ġ sheng3Ġ
I n
S T
geng4 Ġduo1Ġ
shen1Ġ ti3Ġ
nan2 Ġyi3Ġ
ju4Ġ jue2Ġ
yong4Ġ tu2Ġ
zhong3Ġ zu2Ġ
zhe3 Ġzai4Ġ
tian1Ġ jin1
bao3Ġ liu2Ġ
hu2Ġ bei3Ġ
Ġqi1Ġ xi1Ġzai4Ġ
Ġ fei4
er4 Ġyue4Ġ
Ġzhi1Ġ ziĠ
mu3Ġ qin1
le Ġyi1Ġ
Ġda4Ġ duo1Ġshu4Ġ
Ġ guan1
xi2Ġ xing4
Ġ nv3Ġxing4Ġ
mei3 Ġge4Ġ
ĠdeĠ sheng1Ġ
Ġ chao2Ġ
jian4 Ġyi4Ġ
dai4Ġbiao3 Ġda4Ġhui4Ġ
Ġ shou4
Ġ meng2Ġ
wai4 Ġbu4Ġ
Ġxian4Ġ chang3Ġ
an1Ġ quan2
yan2Ġ shen1
wang3Ġ luo4
li4 Ġzai4Ġ
Ġshi4Ġ zheng4Ġ
sen1Ġ lin2Ġ
huo4Ġde2 ĠleĠ
ĠĠĠ zeng1Ġ
xiao4 Ġyuan2Ġ
Ġri4Ġ jun1
e2Ġluo2Ġ si1
Ġ yong1Ġyou3Ġ
ï¼ ħ
Ġyue4Ġ tuan2Ġ
an1Ġ na4Ġ
gao1Ġ su4Ġ
Ġ18 7
Ġyou3Ġ xian4Ġ
tian1Ġ jin1Ġ
zu i3Ġ
Ġyuan2Ġ su4Ġ
Ġshi4Ġ ye4Ġ
Ġbu4Ġ neng2
xing4Ġ qu4Ġ
Ġzh e2
Ġta1Ġmen Ġzai4Ġ
te Ġ
ma3Ġlai2 Ġxi1Ġya4Ġ
n ai4
Ġ wei3Ġ
an1Ġ pai2Ġ
tai2Ġ feng1Ġ
Ġ lao3Ġ
li2 Ġmi3Ġ
Ġ mo4
sui4 ĠdeĠ
Ġ deng4
ti2Ġ gao1Ġ
yin3Ġ qing2Ġ
5 8
Ġ gao1
ling3Ġ xiu4Ġ
zhang4Ġ ai4Ġ
âĶ Ģ
chang3 Ġdi4Ġ
Ġyi4Ġ yuan4
qian1 Ġzhi4Ġ
long2Ġ jiang1Ġ
yin3Ġ qi3Ġ
1 Ġli4Ġ
dao3 Ġdan4Ġ
zuo4Ġ zhan4Ġ
wu4 Ġyuan2Ġ
e w
v er
Ġji2Ġ bei3Ġ
suo3 ĠdeĠ
ban4 Ġli3Ġ
mi4Ġ mi4Ġ
wei4 ĠĠĠ
shang4 Ġdi4Ġ
ling3 Ġshi4Ġ
Ġbu4Ġ jiu3
Ġji4Ġ suan4Ġ
tu3Ġer3 Ġqi2Ġ
Ġ jiao1Ġ
shu a1Ġ
Ġzai4Ġ qi2Ġ
chuan2Ġ shuo1Ġ
nong2Ġ ye4
Ġqing1Ġ chao2Ġ
Ġ 8Ġ
li3 Ġgong1Ġ
chang2 Ġjian4ĠdeĠ
Ġbu4Ġ zu2Ġ
ge1Ġ lun2Ġ
3 Ġge4Ġ
Ġ jing1Ġji4Ġ
Ġhe2Ġ shi2Ġ
Ġcheng2Ġ ren4Ġ
fa3Ġ guan1Ġ
bi3Ġ ya4
Ġ zhong1Ġshi4Ġ
Ġcheng2Ġ du4Ġ
qing2Ġ bao4Ġ
ming2 Ġzhi4Ġ
shi1Ġ qu4
nu3 Ġli4Ġ
c eĠĠĠ
ren4 Ġshi2Ġ
Ġsi1Ġ tan3
hua2Ġ sheng4Ġ
gui4 Ġzhou1Ġ
xi3 Ġju4Ġ
Ġgong1Ġ zhu3Ġ
jing1Ġ yan4Ġ
dian4Ġ zi
Ġsheng1Ġ chan3Ġ
xi2Ġxing4 Ġbu4Ġming2Ġ
ren4Ġming4 Ġwei4Ġ
Ġ he4Ġ
Ġjie2Ġ mu4Ġ
c ao2Ġ
Ġ lu4
zh a1
200 6Ġnian2Ġ
zui4Ġ gao1
4 5Ġ
Ġ xiang4
zhu3 Ġshi4Ġ
zhi2Ġ dao3Ġ
Ġzai4Ġ ci3
ming2Ġ zi4Ġ
qiong2 Ġ
ji4Ġ xu4Ġ
quan2Ġ zhang3Ġ
ying4Ġ yong4
Ġ ge2
ĠĠĠ mei3Ġguo2Ġ
Ġ18 6
Ġwei4Ġ ji1Ġ
Ġta1Ġ hai2Ġ
tai2Ġbei3 Ġshi4Ġ
Ġsheng1Ġhuo2Ġ xi2Ġxing4Ġbu4Ġming2Ġ
ĠĠĠ xian4
kao3Ġ lv4Ġ
Ġhe2Ġ he2Ġ
Ġ ju4Ġyou3Ġ
di4 Ġzai4Ġ
she4 Ġzhi4Ġ
hai3Ġ wai4Ġ
zh ou4
zhi4 Ġzhong1Ġ
hen3 Ġda4Ġ
Ġhu ai2Ġ
xin1Ġjia1Ġ po1Ġ
sheng1 Ġcheng2Ġ
Ġzhi1 Ġdao4Ġ
zhi2Ġ jie1
sai4 Ġzhong1Ġ
Ġ gong4
ji4 Ġshi4Ġ
Ġshi2Ġ dai4
2 Ġge4Ġ
Ġ gang3Ġ
9 9
Ġ hui2Ġ
zhu an4
Ġqi2 Ġzai4Ġ
san1 Ġshi4Ġ
Ġer2Ġ bu2Ġshi4Ġ
hua4Ġhe2Ġ wu4Ġ
Ġbu4Ġ luo4Ġ
li an3Ġ
bao4 Ġli4Ġ
Ġwei4Ġ xing1Ġ
zhao4Ġ kai1Ġ
Ġci4 Ġnian2Ġ
Ġ gan1Ġ
Ġyi1Ġ xue2Ġ
shou4Ġ huan1Ġ
Ġtou4Ġ guo4Ġ
Ġ fang2Ġ
yu n3
shu1Ġ ru4Ġ
gai3Ġ bian4
o g
Ġ lie4Ġ
Ġ yue1Ġhan4Ġ
Ġyou3Ġ xie1Ġ
shang4Ġ ying4Ġ
fang4Ġ qi4Ġ
ĠĠĠ200 7Ġnian2Ġ
jia1Ġli4Ġ fu2Ġ
ma3 Ġli3Ġ
tui1 Ġjin4Ġ
Ġzai4Ġ nei4ĠdeĠ
Ġxian4Ġ xiang4Ġ
piao4Ġ fang2Ġ
Ġ jing1
Ġ chu3Ġyu2Ġ
ming2 Ġren2Ġ
Ġyou3Ġ yi2Ġge4Ġ
zi1Ġ chan3Ġ
tou2Ġ zi1
ĠĠĠI n
Ġ qi3
ĠĠĠ li3Ġ
h an3
fa3 Ġyu3Ġ
yuan4 Ġshi4Ġ
Ġdong1Ġ nan2Ġ
Ġye3Ġ jiu4Ġshi4Ġ
Ġ pei4
Ġshi4Ġ fou3Ġ
Ġguo2Ġ nei4Ġ
ĠĠĠci3Ġ wai4Ġ
o h
shun4 Ġli4Ġ
jia4Ġ ge2Ġ
Ġ bo2
Ġzhan4Ġ dou4
ban3Ġ ben3
mian3Ġ dian1Ġ
c ong1
lei2 Ġsi1Ġ
zhi4 Ġbu4Ġ
ze2 Ġren4Ġ
zhu3Ġ yi4ĠdeĠ
Ġyou2 Ġqi2Ġshi4Ġ
xun2Ġ yang2
Ġ gen1Ġju4
Ġzai4Ġ du4Ġ
zheng4Ġ dang3Ġ
wang3 Ġqiu2Ġ
ge4Ġ zhong3Ġ
ruan3 Ġjian4Ġ
Ġ rui4Ġ
hu ang1Ġ
ĠdeĠ fang1Ġshi4Ġ
a y
c ang1
Ġ ka3
ar i
Ġhe2Ġ bu4Ġ
fang1Ġ mian4ĠdeĠ
tai4Ġ ziĠ
u l
jiao4 Ġshi4Ġ
ying1 Ġli3Ġ
Ġde2 Ġer3Ġ
Ġjian4Ġ zao4Ġ
hai3Ġ xia2Ġ
pai2Ġming2 Ġdi4Ġ
8 0Ġ
yang2 Ġshi4Ġ
bu2 Ġ
Ġhou4Ġ xuan3Ġren2Ġ
que1Ġ fa2Ġ
c Ġ
da4 Ġzhi4Ġ
18 9
Ġyuan2Ġ ben3Ġ
bao4Ġ gao4
lun4Ġ wen2Ġ
Ġ 20
Ġ qu3Ġ
ren2Ġ da4Ġ
ying1Ġ gai1Ġ
Ġ zhuan3Ġ
yu2 ĠdeĠ
Ġli3Ġ lun4
A M
Ġ gong4Ġyou3Ġ
Ġta1 Ġhe2Ġ
Ġm ou3Ġ
Ġqi2Ġzhong1Ġ yi1Ġ
Ġyu2Ġ ren2Ġ
Ġda4Ġ fu2Ġ
c ui4
Ġda4Ġ xi1Ġyang2Ġ
jiu4Ġ du2
ĠC h
6 7
zhe4 Ġli3Ġ
shen2Ġ meĠ
ling3 Ġdi4Ġ
zhan4Ġ ling3Ġ
jie3Ġ san4Ġ
f en2
ping2Ġ lun4Ġ
Ġ sui4Ġ
xiang1 Ġshi4Ġdi4Ġ
Ġxi1Ġ la4Ġ
Ġc ao2Ġ
ĠA Ġ
ĠĠĠju4Ġ qing2Ġ
ĠĠĠ qian2Ġ
Ġshi4Ġ gu4Ġ
xing2 Ġcheng2Ġ
fa1 Ġxing2ĠdeĠ
jin4 Ġxing2ĠleĠ
Ġri4Ġ bao4Ġ
Ġshi3 Ġjian4Ġyu2Ġ
ĠĠĠ qi2Ġ
Ġ pei4Ġ
pai4 ĠdeĠ
Ġshi4Ġwei4Ġ leĠ
Ġf an2Ġ
a sĠĠĠ
e m
h ou2
Ġ can1Ġ
ĠĠĠ xian4Ġ
guan1Ġ dian3Ġ
bao4Ġ zha4Ġ
du2Ġ li4ĠdeĠ
feng1 Ġwei4Ġ
Ġhe2Ġ da4Ġ
Ġer2 Ġbu4Ġ
ac k
gao1Ġsu4 Ġgong1Ġlu4Ġ
he4 Ġer3Ġ
Ġ202 4Ġnian2Ġ
Ġ xia4
zheng4Ġ ming2Ġ
jing1Ġ chang2
ĠĠĠ a1Ġ
Ġzhong1Ġ bei4Ġ
xi1Ġban1Ġ ya2
zhe2 Ġxue2Ġ
Ġde2Ġ hua2Ġ
Ġ hua2
Ġ gang1Ġ
qu e1
Ġzhi4Ġ shao3Ġ
gu n3
ju4 Ġda4Ġ
ma3 Ġer3Ġ
jue2 Ġyi4Ġ
Ġyou3Ġ xiao4Ġ
Ġyi1Ġ xiao3Ġshi2Ġ
Ġzuo4Ġ jia1Ġ
pai2Ġ hang2Ġ
bin1 Ġhai3Ġ
pu3Ġ bian4Ġ
bian4 Ġwei4Ġ
an1Ġ hui1Ġ
nei4Ġ ge2Ġ
Ġxi1Ġban1Ġ ya2Ġ
e2 Ġguo2Ġ
que4 Ġren4Ġ
jing3Ġ cha2
c ang2
Ġ su1
dang3 Ġyuan2Ġ
zhi1Ġ chi2
fang3Ġ wen4
7 0Ġ
qu1 Ġyi4Ġhui4Ġ
Ġzh uo2Ġ
chuang4Ġ zuo4
wen1Ġ du4Ġ
lu4Ġyi4Ġ si1Ġ
Ġ ti2Ġgong1Ġ
huan4 Ġcheng2Ġ
fang1Ġ yan2Ġ
dang1Ġ xuan3Ġ
ã ģ
Ġ wo4
yu an1Ġ
xian4 Ġzhi4Ġ
qu1 Ġhe2Ġ
Ġdong1Ġ lin2Ġ
jie2 ĠdeĠ
chu1Ġ sheng1Ġyu2Ġ
ĠĠĠdi4Ġ fang1Ġ
Ġ xuan1Ġ
xiu1 Ġzheng4Ġ
Ġbing4 Ġbei4Ġ
yi2Ġ du4Ġ
tou2Ġ xiang2Ġ
Ġshi4Ġ yin1Ġwei4Ġ
ying1Ġ xiong2Ġ
yun3Ġ xu3
Ġ han4
ben3 Ġren2Ġ
ci4 ĠdeĠ
Ġde2 Ġyu3Ġ
ĠleĠ yi2Ġge4Ġ
xiang1Ġ dang1
Ġchu1Ġ zhan4Ġ
Ġbing4Ġ fei1Ġ
zhong4Ġ duo1Ġ
Ġzhong1Ġhua2Ġren2Ġmin2Ġgong4Ġhe2Ġguo2Ġ zheng4Ġzhi4Ġren2Ġwu4Ġ
4 8Ġ
Ġyi4Ġ qi3
zui4Ġ duo1Ġ
Ġling4 Ġyi1Ġ
e d
Ġ ta3Ġ
han2 Ġyou3Ġ
Ġzai4Ġ ci4
yi2Ġ ding4Ġ
ke1ĠdeĠ qi2Ġzhong1Ġyi1Ġzhong3Ġ
Ġ yin2Ġ
Ġgong1Ġ yi4Ġ
Ġ ban1Ġ
cheng2Ġ yuan2Ġ
dian3 Ġli3Ġ
dang4 Ġtian1Ġ
zhong3Ġ ziĠ
biao3Ġ yan3
f eng2
tui1 Ġchu1
Ġle Ġta1ĠdeĠ
Ġji4Ġ lu4
Ġji1Ġ jin1Ġ
jiu3Ġ long2Ġ
ya4 Ġjun1Ġ
dian4Ġ hua4Ġ
fan4Ġwei2Ġ nei4Ġ
cuo4Ġ shi1Ġ
Ġ 30
ĠĠĠ ming2Ġ
liang3 Ġming2Ġ
Ġxian4 Ġshi4Ġ
guo4Ġ du4Ġ
zhi1Ġ qian2Ġ
mi4Ġshu1Ġ zhang3Ġ
ĠĠĠ andĠĠĠ
kou3 Ġwei4Ġ
zu3 Ġjian4Ġ
wu2 Ġzheng4Ġzhuang4Ġ
tiao2 Ġli4Ġ
bao3Ġ liu2
W indow
zheng4 Ġbu4Ġ
shan1 Ġshi4Ġ
Ġyu3Ġ mao2
Ġxian4Ġ ren4Ġ
Ġbing4Ġ du2
c k
xi ng3Ġ
suo3Ġ chu4ĠdeĠ
Ġk ai3Ġ
Ġyi3Ġ ji2
xing1Ġ deng3Ġwei4Ġ
Ġgong1Ġ min2Ġ
fa1Ġ shou4Ġ
hei1Ġ se4Ġ
huang2 Ġhou4Ġ
xie3 Ġdao4Ġ
xiang1Ġ si4Ġ
Ġshi4Ġ yu2Ġ
tui4Ġ xiu1Ġ
Ġ sai1Ġ
zhang3 Ġyu2Ġ
tuan2 ĠdeĠ
Ġji1Ġ chang3
she4Ġ qu1Ġ
Ġbei3Ġ jing1Ġ
zao3Ġ qi1
w a2Ġ
Ġ zu3Ġfu4Ġ
lu3 Ġsi1Ġ
tiao2Ġ zheng3
Ġ hao4
jie1Ġ chu4Ġ
t uo4Ġ
chi2 Ġyou3Ġ
dou1 Ġzai4Ġ
or Ġ
la y
ji4Ġ cheng2Ġ
Ġyi1Ġ tong2Ġ
biao3Ġ da2Ġ
si3Ġ wang2
zheng3Ġ ti3Ġ
a st
zhu3Ġ jiao4
Ġtong2 Ġyi4Ġ
nv3Ġ xing4
kai1Ġshi3 Ġzai4Ġ
9 0Ġ
ni e4
Ġgong1Ġ ju4Ġ
feng1Ġ xian3Ġ
O S
zh ou2
deng1 Ġshang4Ġ
bao3Ġ shou3Ġ
jian3Ġ shao3
Ġg uo1Ġ
Ġ199 8Ġnian2Ġ
Ġ yong4Ġyu2Ġ
gong1Ġ cheng2Ġ
Ġming2Ġ dan1Ġ
xia4Ġxia2 ĠdeĠyi2Ġge4Ġ
p u4
duo1 Ġwei4Ġ
gu3 Ġdai4Ġ
sui2 Ġzhu4Ġ
zhen4Ġ qu1ĠdeĠ
pi1Ġ zhun3
4 3
t uo2Ġ
geng4 Ġwei2Ġ
gai3Ġ ming2Ġwei4Ġ
mou3Ġ xie1Ġ
que4Ġzhen3 Ġbing4Ġli4Ġ
Ġ sheng1Ġyu2Ġ
ch a4
lai2 Ġyue4Ġ
ni2 Ġer3Ġ
Ġzhi1Ġ fu4Ġ
tan2Ġ pan4Ġ
ĠdeĠcheng2Ġ ji4Ġ
Ġ194 9Ġnian2Ġ
i k
Ġ yan2
ĠĠĠ qi2Ġta1Ġ
zuo4 Ġshi4Ġ
ni ang2Ġ
jiao4Ġ tang2
neng2Ġ liang4Ġ
can1Ġjia1Ġ leĠ
Ġ zhuang1Ġ
Ġ ping2Ġjun1Ġ
Ġer2Ġ gai1Ġ
jiang4Ġ di1Ġ
bei3Ġjing1 Ġshi4Ġ
gou4Ġm ai3Ġ
Ġ zhao4
ĠĠĠ ji2Ġ
200 4Ġnian2Ġ
an1Ġ pai2
bo2Ġshi4Ġ xue2Ġwei4Ġ
yue4 Ġzhong1Ġ
200 1Ġnian2Ġ
ban3 ĠdeĠ
zu n1
i d
Ġji1Ġ hui4Ġ
Ġhou4Ġ zhe3Ġ
Ġqi2Ġ hou4
zhuang1 Ġbei4Ġ
Ġji1Ġ si1Ġ
nan2 ĠdeĠ
su an1
jie4Ġ shao4Ġ
Ġren2Ġmin2Ġ zheng4Ġfu3Ġ
Ġm eng4
en1Ġ sheng3Ġ
Ġs ang1Ġ
wu2Ġzheng4Ġzhuang4Ġ gan3Ġran3Ġ
n e4
Ġ hai3
shou4 ĠdeĠ
gui4Ġ zu2Ġ
Ġxiang3 Ġnian2Ġ
Ġhe2Ġ pan4Ġ
chang2Ġ wei3Ġ
she4Ġ shi1Ġ
Ġbi3Ġ ru2Ġ
s an3Ġ
huo2 Ġyue4Ġ
Ġyi1Ġ zuo4Ġ
chang2Ġ wu4Ġ
Ġ huo3Ġ
mi e4
qi ao3Ġ
ar Ġ
Ġxing2 Ġwei4Ġ
hu4Ġ lian2Ġ
zh en3Ġ
ling4 Ġren2Ġ
Ġbu4Ġ si1Ġ
an1Ġ na4
suo3Ġ you3ĠdeĠ
Ġh ong1
ke4 Ġcheng2Ġ
Ġsheng1Ġ huo2
Ġ qi1Ġjian1Ġ
shu4 Ġyu3Ġ
shou1 Ġji2Ġ
ding4Ġ ju1Ġ
long2 ĠdeĠ
Ġshi4Ġ xi1Ġ
Ġshi4Ġ min2Ġ
Ġbu4Ġ li4Ġ
lian2Ġ xu4
ru4Ġ xuan3Ġ
Ġmei3 Ġge4Ġ
5 Ġmi3Ġ
n u
ti2 Ġji2Ġ
Ġwei4Ġyu2Ġ zhong1Ġguo2Ġ
sai1Ġer3Ġ wei2Ġ
hui4 Ġzhong1Ġ
Ġli4Ġ fa3
fu4Ġ ze2
Ġbing4Ġ du2Ġ
yao1Ġ qing3
dan1 ĠdeĠ
Ġle Ġda4Ġ
ren4 Ġwei4Ġ
Ġji2Ġ ren2Ġ
Ġcheng2Ġ ren2Ġ
zu2Ġqiu2Ġ yun4Ġdong4Ġyuan2Ġ
Ġtong1Ġ chang2
kun4 Ġnan2Ġ
guan1Ġ cha2Ġ
ĠdeĠdi4Ġ er4Ġ
Ġ199 9Ġnian2Ġ
xie3 ĠdeĠ
xin4Ġ yang3Ġ
Ġtong2Ġshi2Ġ gai1Ġdi4Ġ
Ġzui4Ġ gao1Ġ
Ġer2Ġ ziĠ
bian1Ġ jie4Ġ
bei1 Ġsi1Ġ
zhui1Ġ su4
hui4 Ġzhi4Ġ
sheng3 ĠdeĠ
Ġzai4Ġ 197
Ġri4 Ġyu2Ġ
zui4Ġ gao1ĠdeĠ
Ġzhe4Ġ zhong3
yi2Ġ ding4
3 2Ġ
Ġ ban4Ġ
200 5Ġnian2Ġ
chu1Ġ shen1Ġ
shan1 Ġji1Ġ
jie3Ġ fang4Ġ
wan2Ġ zheng3
nei4Ġlu4Ġ sheng3Ġfen4Ġ
Ġdi4Ġ si4
Ġdong4 Ġli4Ġ
yi3Ġ jing1Ġ
qiang2Ġ lie4Ġ
ke1Ġxue2Ġ jia1Ġ
I I
z ong4
Ġxi1Ġ la4
fang1Ġ fa3
Ġde2Ġ zhu3Ġ
cai3Ġ qu3Ġ
zhu2 Ġbu4Ġ
al ĠĠĠ
m a1Ġ
Ġ tian1
tu2 Ġxing2Ġ
lu an3Ġ
Ġchu1Ġ kou3Ġ
ya4Ġ mei3Ġ
3 2
Ġ ju4
sui2 Ġji2Ġ
Ġyin1Ġ su4Ġ
s ang4Ġ
bei4 ĠdeĠ
shan1 ĠdeĠ
Ġke4 Ġxi1Ġ
Ġjian4Ġ zao4
Ġwei2Ġ er3
lian2Ġhe2Ġ hui4Ġ
xun1Ġ zhang1Ġ
5 7
chao1 Ġyue4Ġ
Ġzai4Ġ shi2Ġ
Ġji2Ġ di4Ġ
yin3Ġ fa1Ġ
liao2Ġ ning2Ġ
g h
Ġ Z
Ġ heng2Ġ
hai3 Ġping2Ġmian4Ġ
Ġxue2Ġ yuan4
wu3Ġ zhuang1
fan4Ġ zui4Ġ
gai4Ġ nian4
Ġ er4Ġshi2Ġ
Ġshi2Ġ qi1ĠdeĠ
Ġli4Ġ liang4Ġ
zi4Ġ ran2
zhu3Ġyao4 ĠdeĠ
xia4Ġling4 Ġshi2Ġjian1Ġ
h eng1Ġli4Ġ
san1Ġ jiao3
C O
guo4 ĠdeĠ
zhi3Ġ neng2Ġ
shu1 Ġzhong1Ġ
Ġhou4Ġ bei4Ġ
ĠĠĠ i
dang1 Ġnian2Ġ
xiang4Ġ zheng1Ġ
shan1Ġ qu1Ġ
6 6
ĠĠĠ 1Ġ
ti2 Ġyi4Ġ
dang1 Ġzhong1Ġ
xu4 Ġli4Ġya4Ġ
tai2Ġ nan2
jing4Ġnei4Ġ gong4Ġyou3Ġ
dong3Ġshi4Ġ zhang3Ġ
Ġ yao1Ġqiu2Ġ
ni2Ġya4 Ġzhou1Ġ
Ġ jiu4Ġshi4Ġ
ceng2 Ġwei4Ġ
Ġbu4Ġ shao3Ġ
duo1Ġ zhong3Ġ
ĠĠĠbei4Ġ jing3Ġ
Ġ xie2Ġ
Ġhe2Ġ yue1Ġ
Ġgong1Ġ zhong4Ġ
Ġyi1Ġ li4Ġ
zhi3Ġ dao3Ġ
zhang1Ġ zhuan1Ġji2Ġ
Ġyi3Ġ wei2Ġ
fei1Ġ chang2
ĠĠĠ200 6Ġnian2Ġ
Ġ na4
xian4 ĠdeĠ
Ġyi4Ġ qing2Ġ
Ġ jiu3
fu2 ĠdeĠ
qin1 Ġzi4Ġ
ying1Ġ ge2Ġlan2
Ġzui4 Ġchu1Ġ
shuang1Ġ fang1Ġ
g ou3Ġ
jia1 Ġyi4Ġ
bu2 Ġdao4Ġ
hui4Ġyi4Ġ yuan2Ġ
zi4 ĠdeĠ
Ġyuan2Ġ xing2Ġ
nan2Ġ bei3Ġ
guan1Ġ cha2
ĠĠĠdi4Ġfang1Ġ zi1Ġliao4Ġ
D TĠ
p en1Ġ
Ġ wan2Ġjia1Ġ
li3 Ġhe2Ġ
ping2 Ġwei4Ġ
shen1Ġ du4Ġ
Ġhu i3
Ġ ni3Ġ
lan2 ĠdeĠ
di1 Ġyu2Ġ
28 Ġ
A C
ĠĠĠ jian3Ġjie4Ġ
luo2 Ġli3Ġ
Ġta1Ġceng2 Ġdai4Ġbiao3Ġ
r ou2Ġ
er2 Ġtong2Ġ
Ġyu4 Ġji4Ġ
zhan3Ġ kai1
pai1 Ġshe4
shou1 Ġlu4Ġ
Ġcheng2Ġ zhen4Ġ
zhu4Ġ zhai2Ġ
dong4 Ġli4Ġ
shang1 Ġren2Ġ
di2 Ġshi4Ġ
Ġdi4Ġ li3Ġ
Ġyou3Ġ suo3Ġ
Ġxian4Ġ fa3Ġ
Ġdong1Ġ bei3Ġ
Ġ tian2Ġ
da4 Ġbu4Ġ
lai2 Ġyin1Ġ
tai2 Ġzhong1Ġ
Ġsi1Ġ ta3Ġ
Ġdong4 ĠdeĠ
Ġshi2Ġji4Ġ shang4Ġ
xue2Ġ hui4Ġ
di2 Ġren2Ġ
n u2
Ġyi3Ġ xi1Ġ
Ġ yue1
jiang1 Ġzai4Ġ
xuan3 Ġzhong1Ġ
Ġxi1Ġ jie1Ġ
Ġzhong1Ġguo2Ġren2Ġmin2Ġ jie3Ġfang4Ġjun1Ġ
ĠĠĠ 17
mei3 Ġzhou1
la1Ġ ding1
jia4Ġ shi3Ġ
Ġshi2Ġ xing2Ġ
suo3Ġ cai3Ġyong4
Ġyu4Ġ shi3Ġ
E R
Ġ shu3
ti2 Ġchu1ĠdeĠ
gan4 Ġbu4Ġ
shou1Ġ gou4Ġ
hai3Ġba2 Ġwei4Ġ
00 Ġmi3Ġ
al l
Ġdi4Ġ yi2Ġge4Ġ
tu1Ġ po4Ġ
Ġda4Ġxue2 ĠdeĠ
neng2 Ġyuan2Ġ
zhu3Ġ yan3Ġ
T V
biao1 Ġben3Ġ
Ġ liu4Ġ
la Ġ
zan4 Ġshi2Ġ
Ġdi4Ġ qi1Ġ
Ġli4Ġ yi4Ġ
yan2Ġ se4Ġ
ji1Ġ du1Ġ
ce4Ġ liang2Ġ
ĠdeĠshi4Ġ jie4Ġ
N B
deng3Ġ deng3Ġ
nong2Ġ min2Ġ
suo3 Ġzai4Ġdi4Ġ
que4 ĠdeĠ
Ġzhong1Ġ guo2ĠdeĠ
Ġsheng1Ġ ya2Ġ
zhu2 Ġjian4
Ġde2 Ġming2Ġ
shang1Ġ ye4
Ġh u3Ġ
Ġpu2Ġ tao2Ġ
d uo3
yi2 Ġdai4Ġ
shui3 Ġli4Ġ
gei3 ĠleĠ
chuan2Ġ bo1Ġ
a1Ġla1Ġ bo2
fa1Ġdong4 Ġji1Ġ
rong2 Ġhe2Ġ
Ġqi2 Ġwei4Ġ
tou2Ġ piao4
Ġ 25
Ġran2 Ġer2
wang2 Ġshi4Ġ
Ġm ou2
jiu4Ġ du2Ġ
5 3
zh uo2
shu ai4
jue2 Ġshi4Ġ
chang3Ġ suo3Ġ
tai4Ġ du4Ġ
Ġbei3Ġ jing1
7 8
Ġ xiang3Ġ
ĠdeĠ ying3Ġxiang3Ġ
jing1Ġ shen2
zi1Ġ ben3Ġ
zhuan3Ġ xiang4Ġ
mo4Ġxi1Ġ ge1
ban4Ġshi4Ġ chu4Ġ
kai1Ġ tong1Ġ
tao2Ġ tai4Ġ
jian1 Ġyu4Ġ
dian4 Ġji1Ġ
jiu4 Ġhui4Ġ
jing4 Ġji4Ġ
ping2Ġ tai2Ġ
xiao1Ġ fei4Ġ
shuai4Ġ ling3
ju3Ġban4 ĠdeĠ
Ġyi1Ġsi1Ġ lan2Ġ
5 6
zhong1Ġ yang1Ġ
Ġ xi4Ġ
ĠĠĠ qi2
pai4 Ġchu1Ġ
Ġyu3Ġ qi2Ġta1Ġ
ge2Ġ la1Ġ
qi1 Ġwei4Ġ
wen2 ĠdeĠ
gou4 ĠdeĠ
pei4 Ġzhi4Ġ
zhang3Ġ da2Ġ
jing4Ġ xuan3Ġ
Ġ shuo1Ġ
ch en4
qu1 Ġshi4Ġ
00 Ġren2Ġ
fu4Ġ zhu3Ġren4Ġ
diao4Ġ kuai4
hu i3
hua4 Ġzhong1Ġ
gong1Ġ gong4Ġ
Ġqi2Ġ xia4Ġ
shan1Ġ feng1Ġ
zu3Ġzhi1 ĠdeĠ
m an
Ġ ai1
cheng2 Ġhe2Ġ
26 Ġ
zhi2Ġye4Ġ sheng1Ġya2Ġ
Ġ wei1
ĠĠĠ w
shou3 Ġzhong1Ġ
Ġwei4Ġ UTCĠ
zi1Ġ liao4
Ġc nĠ
Ġqi2 Ġshi2Ġ
nan2Ġ jing1
zhe3 Ġshi4Ġ
Ġda4Ġ jiang3Ġ
bian1Ġ hao4Ġ
ti2Ġgong1Ġ leĠ
5 9
neng2 Ġzai4Ġ
liu4 Ġshi2Ġ
diao4Ġkuai4 Ġyi1Ġxiao3Ġshi2Ġ
Ġ dao3Ġ
jin1Ġ rong2Ġ
4 Ġge4Ġ
da2 Ġer3Ġ
Ġji2Ġ UTCĠ
gai3Ġ zao4Ġ
she4Ġyou3Ġ xia4Ġling4Ġshi2Ġjian1Ġ
ĠdeĠshi2Ġqu1Ġwei4Ġ UTCĠ
Ġer2Ġgai1Ġdi4Ġ suo3Ġcai3Ġyong4
Ġtong2Ġshi2Ġgai1Ġdi4Ġ she4Ġyou3Ġxia4Ġling4Ġshi2Ġjian1Ġ
Ġer2Ġgai1Ġdi4Ġsuo3Ġcai3Ġyong4 ĠdeĠshi2Ġqu1Ġwei4ĠUTCĠ
fa1Ġ qi3Ġ
zhi2Ġ min2Ġ
ta1Ġmen ĠdeĠ
qiu2 Ġji4Ġ
ba2 Ġ
fa1Ġ qi3
zhan3Ġ lan3Ġ
Ġ dian4Ġying3Ġ
you2 Ġji1Ġ
Ġgai1Ġ cun1Ġ
ke1Ġxue2Ġ yuan4Ġ
c an2
k u3Ġ
xia4 ĠleĠ
zuo4Ġ chu1Ġ
zhi1Ġ jian1ĠdeĠ
Ġ kong3Ġ
ma3 Ġke4Ġ
ti3 Ġzhi4Ġ
Ġbu4Ġ dui4
Ġzhong1Ġ shan1Ġ
Ġxi1Ġ lan2Ġ
Ġli4Ġshi3Ġ shang4Ġ
gao1Ġyu2Ġ hai3Ġping2Ġmian4Ġ
yuan2Ġ zhu4Ġ
Ġjian4 Ġshe4
Ġtong2Ġ yang4
ĠĠĠ jiao1Ġtong1Ġ
wu4 Ġshi4Ġ
hu4 Ġxiang1Ġ
Ġzh ai4Ġ
wan4Ġ mei3Ġyuan2Ġ
Ġling4 Ġyou3Ġ
u s
© Ġ
Ġ kang1Ġ
zh ou2Ġ
Ġgong1Ġ jue2Ġ
A N
ĠĠĠ gai1
bi4Ġ ye4Ġhou4Ġ
hai3Ġba2Ġwei4Ġ gao1Ġyu2Ġhai3Ġping2Ġmian4Ġ
ĠĠĠ dui4Ġ
lu4 Ġzhi4Ġ
Ġbu4Ġ ji2Ġ
Ġren2Ġ men
Ġxue2Ġ zhe3Ġ
suo3Ġchu4ĠdeĠ hai3Ġba2Ġwei4Ġgao1Ġyu2Ġhai3Ġping2Ġmian4Ġ
k u1Ġ
Ġ wa3Ġ
zhong4 Ġshi4Ġ
Ġm ang2Ġ
Ġc ui4Ġ
qiang2Ġ diao4Ġ
qi ao4Ġ
shi3 Ġjian4Ġyu2Ġ
wu4 Ġhe2Ġ
ping2 Ġyuan2Ġ
Ġshi2Ġ wu4Ġ
yun4Ġ shu1
cai3Ġ qu3
Ġjie2Ġ guo3
Ġer2Ġ tong2Ġ
dong1Ġ fang1Ġ
xing4Ġ bie2Ġ
Ġsheng1Ġ chan3
xiao4Ġ qu1Ġ
r en3Ġ
ren4 ĠdeĠ
zhu4 Ġyou3Ġ
xing4 Ġwei4Ġ
Ġxian4 Ġyu2Ġ
dian4Ġ che1Ġ
dian4Ġ qi4Ġ
fa1 Ġxian4ĠdeĠ
ke3 Ġzai4Ġ
Ġzhi1 Ġyi4Ġ
Ġyuan2Ġ ben3
Ġji1Ġ jin1Ġhui4Ġ
shou3Ġ xiang4Ġ
ĠĠĠ19 0
zhi2Ġmin2 Ġdi4Ġ
ge2 Ġshi4Ġ
er4 Ġji2Ġ
.. .
n d
w eng1Ġ
Ġ mei2
ĠĠĠ qing1Ġ
nei4 Ġdi4Ġ
luo4 Ġcheng2Ġ
Ġwei2Ġ chi2
b Ġ
k e2Ġ
deng3 Ġji2Ġ
shi2Ġ qu1Ġ
xiu1Ġ gai3Ġ
e p
z Ġ
ĠĠĠ 2Ġ
tu1 Ġran2Ġ
Ġyi1Ġ jia1Ġ
quan2 Ġqiu2
Ġli4Ġ ren4Ġ
te4Ġ ding4Ġ
Ġm i2
Ġwei4Ġyu2Ġ gai1Ġ
ĠĠĠ ran2
hou4 Ġwei4Ġ
Ġ tu3Ġ
Ġbu4Ġ jin3Ġ
Ġdi4Ġ qiu2
l an4Ġ
ĠĠĠ ben3
ĠĠĠ ma3Ġ
hun1 Ġyin1Ġ
ig h
bao1 Ġwei2Ġ
Ġ pa4
Ġzai4Ġ 196
wei2Ġ si1Ġ
Ġ199 7Ġnian2Ġ
Ġsui2 Ġzhu4Ġ
k ui4Ġ
xue2 Ġyuan2Ġ
zhen4Ġqu1ĠdeĠ mian4Ġji1Ġwei4Ġ
xia2Ġ qu1Ġ
Ġ ying2Ġ
ao4 Ġzhou1Ġ
shang4 Ġxian4Ġ
l an
Ġ ying1
Ġ zhuan3
ĠĠĠ f
ĠĠĠ yin1Ġ
fu1Ġ ka3Ġ
6 9
Ġzhi4Ġ liang4Ġ
Ġle ng3
fan3Ġ hui2
1 Ġge4Ġ
Ġ wan2Ġ
bo1 Ġsi1Ġ
Ġzhou1Ġ ci4Ġshi3Ġ
xin4Ġ yang3
jiao4Ġyu4 Ġbu4Ġ
d an3Ġ
i ch
er4 Ġren2Ġ
ju2 ĠdeĠ
yan2Ġ hai3Ġ
jing4Ġ zheng1Ġ
xuan1Ġ chuan2
Ġxing2Ġzheng4Ġ qu1Ġ
jin4 Ġbu4Ġ
ĠdeĠ xi1Ġ
Ġli3Ġ ya4Ġ
Ġdui4Ġ shou3Ġ
ru2Ġ guo3Ġ
Ġ mian4Ġ
Ġta1 Ġyi3Ġ
Ġyuan2Ġ zi4Ġ
Ġli3Ġ xi1Ġ
Ġ Y
jia1 Ġyi3Ġ
jian4 Ġcheng2Ġ
dui4 Ġqi2Ġ
liang3 Ġwei4Ġ
ping2Ġ lun4
ĠdeĠbu4Ġ fen4Ġ
zui4 Ġchu1
ci4 Ġyu2Ġ
bian1 Ġyuan2Ġ
liang3Ġ ci4Ġ
ling4Ġ yi2Ġge4Ġ
am Ġ
b aĠ
ji4 Ġyou3Ġ
mian4 Ġshang4Ġ
Ġwei2Ġ si1Ġ
cai2Ġ neng2Ġ
Ġ cha2
hai3Ġ yang2Ġ
chang2Ġ du4Ġ
zao4Ġ cheng2ĠdeĠ
ĠĠĠ 4
Ġyi1Ġ ju4Ġ
Ġzi4Ġ ran2Ġ
7 9
Ġ 9Ġ
Ġ pa4Ġ
re Ġ
Ġm ang2
tian2Ġ jing4Ġ
T ub
shi1 Ġgong1Ġ
chu i1Ġ
liang3 Ġguo2Ġ
suo3 Ġwei4Ġ
Ġwei4Ġ dui4Ġ
dang1Ġ di4ĠdeĠ
Ġ199 4Ġnian2Ġ
I S
qi3 Ġdong4Ġ
jun4 Ġgong1Ġ
fen4Ġ zi3
a1Ġla1Ġ bo2Ġ
xiao4Ġli4Ġ yu2Ġ
ĠdeĠ xing2Ġ
guo2Ġ jia1
Ġji2Ġ da4Ġ
A P
Ġ cha2Ġ
an1 Ġshi4Ġ
ka3Ġ luo2Ġ
zhan4 Ġshi2Ġ
pei4 Ġyin1Ġ
chong2Ġ qing4
Ġ199 2Ġnian2Ġ
wei3Ġyuan2Ġhui4Ġ wei3Ġyuan2Ġ
Ġ 12Ġ
na2 Ġxia4Ġ
xia4Ġ jiang4Ġ
Ġer3Ġ duo1Ġ
ti3Ġyu4Ġ chang3Ġ
r ao4
xin1 Ġcheng2Ġ
ban4 ĠdeĠ
Ġyu2Ġ le4
Ġyi4Ġ yu2Ġ
xiang1Ġ guan1ĠdeĠ
Ġjie2 Ġke4Ġ
3 1Ġ
m ian2Ġ
Ġ 2Ġyue4Ġ
xia4Ġ lai2Ġ
Ġdang1Ġ shi2ĠdeĠ
que1Ġ fa2
zai1Ġ pei2Ġ
ai4Ġer3Ġ lan2Ġ
gou4Ġm ai3
Ġwei4Ġ da4Ġ
Ġdi4Ġ liu4Ġ
Ġqi2 ĠdeĠ
jie1Ġ duan4
shu1Ġ yuan4Ġ
Ġ reng2
xi1 Ġhe2Ġ
jiao4 Ġda4Ġ
xun2 Ġzhao3Ġ
dian3 Ġshi4Ġ
Ġshi2Ġ duan4Ġ
yi4Ġ shu4Ġ
Ġsi1Ġ ke4
dong1Ġ bei3
gao1Ġ xiong2
Ġma3Ġ lai2
di ao1
zhe4 Ġshi4Ġ
s ang1
ping2 ĠdeĠ
Ġ luo2
san1 Ġming2Ġ
zhi2Ġ zheng4Ġ
jiang4Ġ ling3Ġ
ĠĠĠ200 5Ġnian2Ġ
ĠĠĠ nan2Ġ
ĠĠĠ sheng4Ġ
Ġzhi4Ġ zuo4ĠdeĠ
8 8
zhao4Ġ kai1
ĠĠĠ jin3Ġ
da4Ġ lu4
Ġnian2 ĠĠĠ
tian1Ġ ti3Ġ
Ġju4Ġ li2
Ġ199 6Ġnian2Ġ
fu4 Ġhe2Ġ
geng1 Ġxin1Ġ
Ġt i4Ġ
xi1 Ġdi4Ġ
fa1 Ġshe4
hui4Ġ zhang3Ġ
Ġji1Ġ chu3
zhu3Ġ zhang1Ġ
Ġk ai3
bo1 Ġshi4Ġ
27 Ġ
ti v
xing4 Ġhe2Ġ
zhen4 ĠdeĠ
Ġyi3Ġ wai4Ġ
qi4Ġ che1
ting2Ġ che1Ġ
chuan2Ġtong3 ĠdeĠ
p ao3Ġ
li3 Ġcheng2Ġ
c ai4
fu2 Ġli4Ġ
la1 Ġji1Ġ
te4Ġ xing4Ġ
Ġqi2Ġzhong1Ġ bao1Ġkuo4Ġ
fa1Ġsheng1 Ġzai4Ġ
zu2Ġqiu2 Ġju4Ġle4Ġbu4Ġ
Ġdi4Ġ dian3Ġ
Ġda4Ġ lou2
lian2Ġ jie1
cun1Ġ luo4Ġ
ĠĠĠdi4Ġ er4Ġ
Ġguo2Ġwu4Ġ yuan4Ġ
u Ġ
ch en4Ġ
shi1 Ġren2Ġ
tuan2Ġ ti3
Ġbu4Ġbu4Ġ zhang3Ġ
lian2 ĠdeĠ
bei4Ġ jing3Ġ
q u2Ġ
Ġ cheng1
bing4 Ġbu4Ġ
qi3 Ġyuan2Ġ
Ġzhi4Ġ zao4
Ġzhi4Ġ di4Ġ
Ġfu4Ġ jin4
Ġyou2 Ġji1Ġ
ju1Ġ zhu4Ġzai4Ġ
Ġ zheng4Ġzhi4Ġ
shu4 Ġshi2Ġ
kai1 Ġshe4Ġ
hao4 Ġxian4
zheng4Ġ ju4Ġ
dui4Ġ zhang3Ġ
dian4Ġshi4Ġ tai2
zhu an4ĠdeĠ
nei4 Ġzhan4Ġ
wei3 Ġfu4Ġ
Ġde2 Ġsi1Ġ
jie2Ġ du4Ġ
jiao1Ġ liu2
el l
Ġ yong4
Ġshi4Ġ de2Ġguo2Ġ
Ġbu4Ġ bing1Ġ
Ġyu2Ġ202 1Ġnian2Ġ
quan2 Ġxian4Ġ
jian1Ġ du1Ġ
Ġbing4Ġ you2Ġ
ao4Ġ men2
z ai1
dou1 Ġbei4Ġ
o t
Ġ rong2Ġ
Ġ feng4Ġ
chai1Ġ chu2Ġ
Ġ tao2Ġ
Ġ lu3Ġ
fu1 ĠdeĠ
lang2 Ġzhong1Ġ
Ġhe2Ġ dao4Ġ
Ġzhou1Ġ fu3Ġ
Ġyu2Ġ201 5Ġnian2Ġ
wu2Ġzheng4Ġzhuang4Ġgan3Ġran3Ġ zhe3Ġ
Ġ dan1
bai3 Ġnian2Ġ
dian4Ġ nao3
Ġzuo4Ġ chu1Ġ
luo4Ġ fa2
man3Ġ zu2Ġ
zhao3 Ġdao4Ġ
You Tub
Ġshi4Ġ gong1Ġ
Ġshi4Ġ yi1Ġbu4Ġ
wei2Ġ er3Ġ
Ġyu3Ġ yi1Ġ
Ġxing2Ġ mu4Ġ
zhuan1Ġ ye4
Ġ 11Ġ
Ġdi4Ġ dai4Ġ
Ġcheng2Ġ ke4Ġ
shi3Ġ shang4Ġ
zi4Ġ mu3Ġ
bo1Ġ li2Ġ
fei4Ġ chu2Ġ
Ġ199 3Ġnian2Ġ
si4 ĠdeĠ
Ġli3Ġ ke4Ġ
jiu4 Ġyuan2Ġ
Ġzai4Ġ he2Ġ
bang4 Ġqiu2Ġ
mu3 ĠdeĠ
Ġwei4Ġyu2Ġ mei3Ġguo2Ġ
mian3Ġ fei4Ġ
Ġ tang2
Ġyi1Ġ yuan4
Ġde2 Ġzhi1Ġ
ling2Ġ chen2Ġ
zong1Ġ jiao4
s a1Ġ
Ġ 24
Ġ nuo4Ġ
jia3 Ġdi4Ġ
dong1Ġ jing1
Ġyu2Ġ201 2Ġnian2Ġ
zong1 Ġyi4Ġ
qi1Ġ zi3
shan1Ġ mai4Ġ
hou4 Ġyi4Ġ
qi1 Ġshi2Ġ
Ġchu1 Ġdao4Ġ
ou3Ġ xiang4Ġ
ĠĠĠ ge4Ġren2Ġ
zong3 Ġren2Ġkou3Ġ
zuo4Ġ wei2
hen3Ġ kuai4Ġ
3 3Ġ
gu3 Ġli4Ġ
kao3 Ġshi4Ġ
yin4Ġ ni2Ġ
bi4Ġ mian3
su1Ġ ge2Ġlan2Ġ
zhu3Ġyi4Ġ zhe3Ġ
Ġsi1Ġling4 Ġbu4Ġ
f Ġ
Ġ an1
guan1 Ġjian4Ġ
liang4 Ġwei4Ġ
jian1Ġ ren4Ġ
Ġzuo4Ġ zhan4Ġ
Ġyu2Ġ201 8Ġnian2Ġ
ch ou3Ġ
wu3 Ġshi4Ġ
na4 ĠdeĠ
a te
Ġ 20Ġ
ch ai2Ġ
Ġji4Ġ nian4
Ġ194 5Ġnian2Ġ
chuang4Ġ zao4
c uo4
ti e1
du4 Ġhe2Ġ
Ġxian4 Ġyi3Ġ
7 7
guo2 Ġshi4Ġ
Ġzui4 Ġjia1Ġ
s eng1Ġ
Ġ yun2Ġ
yu2 Ġhe2Ġ
shi3 Ġren2Ġ
ze2 Ġzai4Ġ
tian1 Ġhou4Ġ
ar k
Ġwei4Ġfu2Ġqi2Ġyu2Ġ gang1Ġ
Ġ xian1
che1 Ġdui4Ġ
Ġdi4Ġ fang1
Ġ lv3Ġ
mai4 Ġke4Ġ
wa3 Ġer3Ġsheng3Ġ
Ġer3 Ġshi4Ġ
pai4Ġ qian3Ġ
C h
Ġ yi2
guan3Ġli3Ġ ju2Ġ
Ġming2 Ġzhi4Ġ
5 4
hu4 Ġbu4Ġ
hui2 Ġyi4Ġ
Ġgong1Ġ li3ĠdeĠ
Ġshi2Ġyan4 Ġshi4Ġ
zou3 Ġxiang4Ġ
Ġda4Ġ gong1Ġ
shao4Ġ nv3Ġ
ji1 Ġzai4Ġ
guo2Ġ wu4Ġ
guang3Ġ chang3
wang4Ġ yuan3Ġ
Ġyu2Ġ201 4Ġnian2Ġ
guan3 Ġzhi4Ġ
Ġdi4Ġ tie3
D ĠĠĠ
I C
Ġ lian2Ġhe2Ġ
Ġ za2Ġzhi4Ġ
di4 Ġhe2Ġ
xiu1 Ġdao4Ġ
xian3 Ġzhu4Ġ
Ġxian4 Ġcheng2Ġ
jing1Ġ dian3Ġ
Ġer2Ġ fei1Ġ
yun4Ġ yong4Ġ
gu a4
yan2 Ġren2Ġ
si Ġ
fu4Ġ jin4
guan1Ġ fang1
l uan2
z ei2
Ġwei4Ġ yuan2Ġ
Ġji2Ġ shi3Ġ
Ġju4Ġ jue2Ġ
Ġ e4Ġ
Ġ xu2Ġ
ao4 Ġer3Ġ
xie3 Ġzuo4Ġ
ji1Ġ gou4Ġ
che1Ġ xiang1Ġ
jiao3Ġ du4Ġ
il l
b i2Ġ
s u2
Ġ xie4
ĠĠĠ ren2Ġ
zhu a1Ġ
Ġdi4Ġ tu2Ġ
Ġ 23
Ġ zheng1Ġ
bi4 ĠdeĠ
202 5Ġnian2Ġ
zuo3 Ġyi4Ġ
i m
Ġ xie4Ġ
yan2 ĠdeĠ
Ġshi2Ġ xian4
Ġyu2Ġ 193
chao1Ġ guo4
bi an3
shang4 Ġbu4Ġ
Ġyi4Ġ jian4Ġ
Ġji1Ġ hu1
tai4Ġ kong1Ġ
yuan4 Ġyi4Ġ
Ġyue4Ġ dui4Ġ
Ġjun1Ġ qu1Ġ
Ġ yi2Ġge4
ĠĠĠ dang1Ġ
xiang1 Ġshi4Ġ
ge2Ġ li2Ġ
S ta
Ġ yi4Ġshi4Ġ
9 5
Ġ xian2Ġ
zu3 ĠdeĠ
fang4 Ġzai4Ġ
Ġcheng2Ġ ben3Ġ
Ġzheng4Ġ ming2Ġ
luo4Ġ shan1Ġji1Ġ
wai4Ġjiao1 Ġbu4Ġ
dao3 Ġshang4Ġ
shan1 Ġxian4Ġ
ti2 Ġchu1ĠleĠ
Ġke4 Ġer3Ġ
Ġc ao1Ġ
a tĠĠĠ
an4 Ġshi4Ġ
ci3 Ġtong2Ġshi2Ġ
ka3 Ġsi1Ġ
xin1Ġjia1Ġ po1
7 6
jiu3 ĠdeĠ
Ġyou3Ġ xie1
ci2Ġ zhi2Ġ
Ġwo3Ġ men
n i4
p u4Ġ
t oĠĠĠ
ĠĠĠ si1Ġ
ĠĠĠ zheng4Ġ
Ġzhi1 Ġshi4Ġ
gai3Ġ shan4Ġ
Ġ ge1
Ġ neng2Ġ
ceng2 ĠdeĠ
jing3Ġ gao4Ġ
Ġyu2Ġ201 7Ġnian2Ġ
yan2 Ġzhi4Ġ
Ġxi1Ġ er3Ġ
jin3 Ġyou3Ġ
th Ġ
cai3Ġ fang3
can1Ġ xuan3Ġ
Ġfu2 Ġjian4Ġ
e2Ġluo2Ġ si1ĠdeĠ
Ġ bao3
Ġ ba3
Ġ ku4Ġ
bei4Ġ cheng1Ġwei2Ġ
Ġde2Ġ la1Ġ
zheng4Ġfu3 ĠdeĠ
mo4Ġsi1Ġ ke1Ġ
Ġ xun2Ġ
Ġ zhao1Ġhe2Ġ
shou3Ġ du1
qin1Ġ wang2Ġ
huan4Ġ zhe3Ġ
Ġshan1Ġ dong1Ġ
g ao3
Ġ liu4
kou3 ĠdeĠ
Ġwei4Ġ zai4Ġ
Ġzai4Ġ 194
zhang3Ġ guan1Ġ
kong1Ġ jian1
mu4 ĠdeĠ
ti3 Ġyu4
zheng1 Ġyue4Ġ
chu4Ġ zhang3Ġ
shuang1Ġ da3Ġ
Ġ199 5Ġnian2Ġ
v i
qiang2 Ġzhi4Ġ
Ġyin1 Ġshi4Ġ
chuang4Ġ zuo4ĠdeĠ
Ġyu2Ġ202 2Ġnian2Ġ
Ġ sha1
Ġ jia3
ying3 Ġshi4Ġ
18 8
Ġ 29
xue2 Ġzhong1Ġ
fu4 Ġshi4Ġ
xiu1 Ġfu4Ġ
Ġge4 Ġguo2Ġ
a1Ġ gen1Ġ
chong1Ġ tu1
00Ġ mi3
Ġluo2Ġ ma3Ġ
shan1 Ġdi4Ġ
ci2 ĠdeĠ
Ġ ba3Ġ
si1 Ġshi4Ġ
Ġxian4 Ġji2Ġ
Ġying1Ġ wen2Ġ
9 8
zhao4Ġ pian1Ġ
ĠĠĠC h
ma3Ġlai2 Ġxi1Ġya4
she4 Ġbei4Ġ
ĠĠĠ gu4Ġshi4Ġ
kai1 Ġgong1Ġ
sheng4 Ġchu1Ġ
guan4 Ġjun1
Ġsi1Ġ ma3Ġ
bo2Ġ lin2Ġ
Ġ xu1Ġ
ĠĠĠ chu1Ġ
Ġcheng2Ġ xian4
fa1Ġ sheng1ĠdeĠ
Ġdan4Ġ bai2Ġ
pu3Ġ bian4
Ġyu2Ġ201 3Ġnian2Ġ
yong4 ĠleĠ
bu4ĠdeĠ cun1Ġzhuang1Ġ
Ġhe2Ġ liu2Ġ
jia1Ġ ting2Ġ
Ġ 00
xia4 Ġzai4Ġ
qian1Ġ shu3Ġ
Ġ198 5Ġnian2Ġ
Ġ kao3Ġ
dong4 Ġzuo4Ġ
Ġyu2Ġ 2019Ġnian2Ġ
li3Ġ lun4
Ġ tie3Ġ
su1 Ġwei2Ġ
jiang4 Ġyu3Ġ
Ġyue4Ġ lai2Ġyue4Ġ
gu3Ġ lao3
xiao3Ġxing2Ġ xing1
t i1
guan3 ĠdeĠ
Ġyu2Ġ 2020Ġnian2Ġ
Ġyu2Ġ 2016Ġnian2Ġ
Ġgong1Ġ ying4Ġ
qiang2Ġ du4Ġ
jia1 Ġzai4Ġ
Ġren2Ġ da4Ġ
Ġzhi1 Ġdi4Ġ
Ġzhi1 Ġjia1Ġ
yun3 Ġshi2Ġ
qiang2 ĠdeĠ
Ġshi2Ġ hou4Ġ
yue4Ġ nan2Ġ
Ġke4 Ġhe2Ġ
Ġjian4Ġ kang1Ġ
fei1 Ġxing2
ting2Ġ kao4Ġ
Ġ202 5Ġnian2Ġ
3 8Ġ
z eng4
tong1 Ġzhi1Ġ
chuang4 Ġjian4Ġ
Ġji4Ġ yi4Ġ
Ġ199 0Ġnian2Ġ
Ġlei3 Ġji4Ġ
ĠĠĠzeng1Ġ zu3Ġ
Ġ Q
shi4 ĠĠĠ
san1 Ġda4Ġ
Ġfu4Ġ jin4ĠdeĠ
ĠĠĠ ba1Ġ
zao3 Ġshang4Ġ
Ġbu4Ġ man3Ġ
wo3Ġ men
Ġfu4Ġze2Ġ guan3Ġxia2Ġ
po4Ġhu ai4
lie4Ġ ru4Ġ
xuan3Ġju3 Ġzhong1Ġ
ĠĠĠyi3Ġ xia4
Ġyi1Ġ zhi2Ġ
zhi3Ġ kong4Ġ
Ġp ai1
di1Ġ qi4Ġ
ĠĠĠ wei2Ġ
duo1 Ġming2Ġ
jing1Ġ guo4
Ġm a2Ġ
shen2Ġ me
Ġ lai2
Ġge4Ġ zhong3
zhu3Ġ ti2
sen1Ġ lin2
guang3 Ġzhou1
Ġjun1 Ġdi4Ġ
tong2Ġ xing4Ġ
qu3Ġ xiao1
yin2Ġ pai2Ġ
ĠB Ġ
shang4 ĠleĠ
la1 Ġde2Ġ
Ġ wan4Ġli4Ġ
la1 ĠdeĠ
bian1 Ġwei4Ġ
Ġwei4Ġ neng2
Ġji1Ġ chu3Ġ
gu3Ġ la1Ġ
Ġzhu3Ġ yan3Ġ
3 6Ġ
dun4 ĠdeĠ
ming2Ġ dan1Ġ
zhan4Ġ tai2Ġ
Ġer2Ġgai1Ġ di4ĠdeĠ
Ġ gen1Ġ
Ġ fa1Ġxian4Ġ
shu1 Ġchu1Ġ
bi4Ġ mian3Ġ
B S
Ġ shen2
qian2 Ġhou4Ġ
lan2 Ġxi1Ġ
mo4 Ġer3Ġ
zhi4Ġ 199
tian1Ġ ran2Ġ
hui2Ġ gui1Ġ
o ng
shi2 Ġhe2Ġ
bo2Ġ jue2Ġ
Ġ199 1Ġnian2Ġ
zao3Ġ qi1ĠdeĠ
Ġ chuan1Ġ
shou1 Ġdao4Ġ
Ġjia1Ġ la1Ġ
Ġdui4Ġ ci3Ġ
jing4Ġ nei4
mei3Ġ yuan2ĠdeĠ
kong1Ġ qi4Ġ
min2Ġzhu3Ġ dang3
n u4Ġ
san1 Ġren2Ġ
ban4 Ġnian2Ġ
Ġyi3Ġ qian2Ġ
Ġjia1Ġ ting2
Ġke4 Ġli4Ġ
Ġwei2Ġ zhi3Ġ
Ġt eng2
shan1Ġdong1Ġ sheng3Ġ
Ġyi3Ġse4Ġ lie4Ġ
dui4 Ġyuan2Ġ
200 2Ġnian2Ġ
bao3 ĠdeĠ
ma3Ġ la1Ġ
Ġ ding4Ġ
zhi1 Ġshi2Ġ
te4 Ġli4Ġ
duo1 Ġge4
san1 Ġge4
guo2Ġ wang2Ġ
xing1Ġ qi1
fang2Ġ wu1Ġ
5 ĠĠĠ
lian2Ġ ren4Ġ
s ao3Ġ
Ġhe2Ġ gu3Ġ
Ġxian4Ġ shang4Ġ
xiang1Ġ bi3Ġ
Ġchu1Ġ yan3Ġ
cai2Ġ liao4
huang2Ġ se4Ġ
p p
Ġ ì
qiu2 Ġhui4Ġ
Ġp an1Ġ
Ġ jue2Ġding4Ġ
zh a2Ġ
tu2 ĠdeĠ
sheng1Ġ ya2
ĠĠĠgai4Ġ yao4Ġ
200 3Ġnian2Ġ
liao3Ġ jie3Ġ
feng1 Ġfu4Ġ
zhan4Ġ ling3
Ġwei2Ġ rao4Ġ
7 4
ĠĠĠ fu4Ġ
fen1 ĠdeĠ
Ġji4Ġ zai3
bei3Ġ fang1Ġ
pu3Ġ cha2Ġ
Ġyu2Ġ202 3Ġnian2Ġ
fen1 Ġcheng2Ġ
ta3 Ġer3Ġ
ĠdeĠ ju4Ġ
Ġshi2Ġ bao4Ġ
shou4Ġ quan2Ġ
wan2Ġ zheng3Ġ
i sĠĠĠ
s s
pi ao1Ġ
Ġbei4Ġ er3
te4Ġ la1Ġ
qing1Ġ shao4Ġnian2Ġ
ling3Ġ dao3ĠdeĠ
Ġ195 0Ġnian2Ġ
Ġ bing1Ġ
wang3 Ġshang4Ġ
shou3Ġ bo1Ġ
qi4Ġ xuan2Ġ
Ġ198 8Ġnian2Ġ
b u
t un2
Ġ qin1Ġ
te4 Ġer3Ġ
wu1 Ġsi1Ġ
hao3 Ġping2Ġ
Ġzai4Ġ xin1Ġ
Ġgong1Ġ neng2
jie1Ġ ren4Ġ
chang3Ġ bi3Ġsai4Ġ
fang4Ġ qi4
Ġs ec
Ġ15 Ġ
zan4 Ġzhu4Ġ
Ġbu4Ġ shao3
Ġyu3Ġ qi2Ġ
Ġjin4Ġ zhi3Ġ
yan2Ġjiu1 Ġsheng1Ġ
Ġ tai4
xiang1Ġ tong2ĠdeĠ
te4Ġ zheng1
ya4Ġ mu4Ġ
Ġt i1Ġ
lv4Ġ se4Ġ
e ar
te4 Ġyou3Ġ
duo1Ġ ci4
ĠĠĠ 16
gu n3Ġ
Ġxing2 Ġbu4Ġ
fu4Ġ jin4ĠdeĠ
Ġping2Ġ lun4Ġ
Ġzhe4Ġ yang4Ġ
2Ġ mi3Ġ
qing1Ġ chao2Ġ
ĠĠĠ de
di an1
xin1 Ġshi4Ġ
wen2 Ġzhong1Ġ
da2 Ġzhou1Ġ
Ġyi1Ġ liao2Ġ
gai3Ġ zhi4Ġwei4Ġ
can1Ġ shu4Ġ
5 00Ġ
o d
Ġ jue2Ġ
shi1Ġ qu4Ġ
xing2Ġ tai4Ġ
ĠĠĠdi4Ġ yi1Ġ
9 6
o k
tong2 Ġming2Ġ
gang3 Ġyuan2Ġ
zhang3Ġ zi3Ġ
B C
Ġ shou3
he2 Ġzai4Ġ
la1 Ġhe2Ġ
an1Ġ zhuang1Ġ
she4Ġ hui4
fei4Ġ yan2Ġ
Ġzhong1Ġ jian1Ġ
bao3Ġ luo2Ġ
can1Ġ ting1Ġ
rui4Ġ dian3Ġ
Ġzai4Ġyi4Ġ qi3Ġ
Ġ fa3
ĠĠĠ 10
wu3 Ġge4Ġ
shen1 Ġshi4Ġ
fang1Ġ mi3Ġ
fen1Ġ pei4Ġ
shen1Ġ qing3
Ġ hu4Ġ
fu2 Ġli3Ġ
mi4 ĠdeĠ
cun2 ĠdeĠ
Ġsi1Ġ ke1Ġ
fei4Ġ yong4Ġ
zan4Ġ ting2Ġ
si4 Ġshi4Ġ
qing2 ĠdeĠ
da4Ġ qu1Ġ
xing4Ġ neng2Ġ
sheng3Ġ jie1Ġrang3Ġ
Ġ re
cong2 Ġwei4Ġ
xu4 Ġli4Ġya4
zhi2Ġ sheng1Ġ
Ġzh en3Ġ
qi ao3
san1 Ġji2Ġ
zhe3 Ġhe2Ġ
jian4Ġ zhu4
xiao1Ġ shi1Ġ
Ġshe4Ġhui4Ġ zhu3Ġyi4Ġ
Ġ xuan3Ġ
Ġ guang3Ġdong1Ġ
ying3Ġ xiang4Ġ
gu4Ġ ding4Ġ
wu2Ġxian4Ġ dian4Ġshi4Ġ
W Ġ
you2 Ġxing2Ġ
Ġxian4 Ġyou3Ġ
jing4Ġ zheng1
Ġt an1Ġ
xiao1Ġ liang4Ġ
7Ġyue4Ġ 1Ġri4Ġ
Ġfen1Ġ bie2Ġ
Ġgong1Ġ gong4
m a2
Ġ xian1Ġhou4Ġ
ma3 Ġke4Ġsi1Ġ
Ġquan2Ġ zhang3Ġ
deng3 ĠdeĠ
zhe3 Ġhui4Ġ
tai4 ĠdeĠ
hu1 Ġyu4Ġ
hai3Ġ an4
Ġwu2Ġ fa3Ġ
m ai3Ġ
hui2 Ġguo2Ġ
Ġshi4Ġyi1Ġ ke1Ġ
Ġmai4 Ġke4Ġ
t ong4
Ġ e2Ġ
Ġ po4Ġ
ĠĠĠ jin1Ġ
wang2 Ġwei4Ġ
Ġgong1Ġ qing3Ġ
xin1Ġ wen2
te4Ġ dian3Ġ
wu1Ġ ran3Ġ
tui1Ġ guang3Ġ
hong1 Ġzha4
e x
zhi3 ĠdeĠ
ying4 Ġji2Ġ
Ġshi4Ġ you2
Ġzhi4Ġ yi2Ġ
Ġji2Ġ hou4Ġ
ji4Ġ suan4
lian2Ġ jie2Ġ
suo3Ġ shu3
fu2Ġ luo2Ġli3Ġ
jiang1 Ġta1Ġ
Ġli4Ġ shi2Ġ
Ġbei4Ġ po4Ġ
Ġguo2Ġjia1Ġ dui4Ġ
Ġ18 5
Ġf ou3Ġ
tie3Ġlu4Ġ che1Ġzhan4Ġ
ch Ġ
li3 Ġbu4Ġ
luo4 Ġsi1Ġ
Ġjia1Ġ zu2
Ġn ai3
Ġ yao2Ġ
Ġzai4Ġ ta1ĠdeĠ
Ġshe4 Ġyu2Ġ
guan1Ġ ce4Ġ
zhuan3Ġ yi2
geng4Ġ duo1ĠdeĠ
w en3
w ar
Ġta1Ġ ceng2Ġ
gao1Ġ da2Ġ
Ġjiang1Ġ su1Ġ
8 5
Ġ Ï
Ġ bai2
Ġ shen3Ġ
ji2 Ġbu4Ġ
quan2 Ġshi4Ġ
lei4 Ġxing2ĠdeĠ
Ġdi4Ġ zhi4Ġ
che1Ġ liang4
yin3Ġ ru4Ġ
xie2Ġ ding4Ġ
nong2Ġ cun1Ġ
Ġk en3Ġ
Ġ xu3Ġduo1
ĠdeĠ zhu3Ġyao4Ġ
wei2Ġ zhu3Ġ
Ġshi4Ġzhong1Ġ hua2Ġren2Ġmin2Ġgong4Ġhe2Ġguo2Ġ
ying3Ġxiang3 Ġli4Ġ
3 7Ġ
an4 Ġzhong1Ġ
chong1 Ġji1Ġ
Ġnian2Ġ ling2Ġ
Ġzi4Ġ you2
Ġwei1Ġ lian2Ġ
Ġ 28
xi a1Ġ
zui4 Ġwei4Ġ
Ġchu1Ġ fa1Ġ
wen2Ġ hua4ĠdeĠ
Ġzui4 Ġda4Ġ
bang1Ġ zhu4
kuo4Ġ zhan3
Ġ li
Ġ yong3
si4 Ġda4Ġ
zi Ġhe2Ġ
zong3 Ġhui4Ġ
jing1Ġ ji4
fang1Ġ xiang4
Ġtong2Ġ yang4Ġ
Ġshi4Ġjie4Ġ bei1Ġ
Ġ198 9Ġnian2Ġ
ĠĠĠjia1Ġ ting2Ġ
g a1Ġ
n u2Ġ
p u1Ġ
Ġ X
Ġ song4
Ġyi1Ġ ren2Ġ
zhi2Ġ ye4
Ġnan2Ġ ziĠ
Ġzhi3 Ġzai4Ġ
n i1
na4 Ġde2Ġ
ĠdeĠ hua4Ġ
Ġdi4Ġ zhen4Ġ
mei3Ġguo2Ġ ren2Ġ
ĠdeĠzuo4Ġ biao1Ġwei4Ġ
m er
Ġbu4Ġ lai2Ġ
yan2Ġ zhong4ĠdeĠ
Ġsec tionĠĠĠ
h u3
y p
Ġ dang3Ġ
xue2 Ġbu4Ġ
mu4Ġ ni2Ġ
ying1Ġ gai1
ci3 Ġshi2Ġ
Ġshi4Ġ hui4Ġ
Ġji2Ġ bing4Ġ
h eng1Ġ
Ġ xing1
lie4 Ġchu1Ġ
hai2 Ġzai4Ġ
Ġshi2Ġ zhi4Ġ
jiang4Ġ di1
Ġ su4Ġ
lv4 ĠdeĠ
Ġshi4Ġ ji4ĠdeĠ
ye3Ġ ke3Ġyi3Ġ
3 00
Ġ zhong4
a1 Ġer3
Ġnian2Ġ qing1Ġ
Ġli4Ġ yong4
Ġdao4 Ġhe2Ġ
wu3Ġ qi4
gai3Ġ ge2
Ġ198 3Ġnian2Ġ
Ġceng2Ġ ren4
Ġ wai4
Ġ 50
fu4 Ġjia1Ġ
ban1 ĠdeĠ
Ġdao4 Ġyi1Ġ
Ġta1Ġ ren4Ġwei2Ġ
liu2Ġ xia4Ġ
Ġxin1Ġ zeng1Ġ
pi1Ġ ping2
Ġshuang1Ġ fang1Ġ
c a
Ġ hu2Ġnan2Ġ
hai3 Ġshang4Ġ
Ġshi4Ġ fou3
guo2Ġ hui4Ġ
se4Ġ fu1Ġ
jian3Ġ ce4Ġ
Ġtong2Ġ pai2Ġ
3 4Ġ
c ao2
Ġyou3Ġ da4Ġ
Ġyu2Ġ202 4Ġnian2Ġ
ĠĠĠgen1Ġju4Ġ 2020Ġnian2Ġmei3Ġguo2Ġren2Ġkou3Ġpu3Ġcha2ĠdeĠshu4Ġju4Ġ
can1Ġyu4 ĠleĠ
xi4Ġlie4 ĠdeĠ
yi4 Ġbu4Ġ
sheng1 Ġzhi4Ġ
guo2Ġ li4Ġ
Ġgong1Ġ kai1
â Ĩ
bing4 Ġwei4Ġ
mei3 Ġjun1Ġ
wu3 Ġyue4Ġ
Ġyi1Ġ zhi4Ġ
xi1Ġ nan2Ġ
ba1 Ġer3Ġ
hui2 Ġhe2Ġ
zheng4Ġ xie2Ġ
Ġta1Ġ dui4Ġ
ban1Ġ jiang3Ġ
qian1Ġ yue1Ġ
qun2Ġ dao3
you1Ġ xiu4
shang4Ġhai3 Ġshi4Ġ
chan3Ġsheng1 ĠleĠ
xin1 Ġren2Ġ
xiang1 Ġji4Ġ
dan1 Ġyuan2Ġ
liu2 ĠdeĠ
si3 Ġxing2Ġ
reng2 Ġzai4Ġ
qie4 Ġer3Ġ
Ġyi3 Ġzai4Ġ
tao3Ġ lun4
O N
xuan3 Ġchu1Ġ
Ġyu2Ġ lei4Ġ
tu3Ġer3 Ġqi2
a h
jia1 Ġgong1Ġ
Ġli4Ġ shu3Ġ
Ġda4Ġ liang4
sheng1Ġ ming2Ġ
shang4 Ġyi1Ġ
xing4 Ġshi4Ġ
guo4 Ġyu2Ġ
Ġda4Ġ qiao2Ġ
hai3Ġ ba2Ġgao1Ġ
Ġc an2Ġ
can1Ġmou2Ġ zhang3Ġ
sh uo4Ġ
ĠĠĠ shi3Ġyong4Ġ
fang2 Ġwei4Ġ
Ġbu4Ġ yi1Ġ
Ġli4Ġ ziĠ
deng1Ġ chang2Ġ
8 7
Ġ dai4
Ġ ke3Ġneng2Ġ
Ġzai4Ġ ta1Ġ
Ġyou3Ġ zhu4Ġ
ben3Ġ tu3Ġ
Ġyu2Ġ201 1Ġnian2Ġ
ĠdeĠji4Ġ lu4Ġ
s uo1
Ġ lei2
Ġdi4Ġ 1Ġ
Ġda4Ġ dao4
zhang4Ġ fu1Ġ
Ġ000 Ġren2Ġ
e2 Ġwei4Ġ
po 3
Ġji2Ġ xing2Ġzheng4Ġ
lu4Ġ zhan4Ġ
jiao1Ġ cha1Ġ
xun2Ġ huan2Ġ
lei4Ġsi4 ĠdeĠ
fei1 Ġzhou1
yang2 Ġxian4Ġ
Ġyi1Ġ ci2Ġ
dui4Ġ shou3Ġ
shi1Ġ bai4
Ġt un2
qian1Ġ shu3
ĠS Ġ
cun2Ġ zai4ĠdeĠ
e tĠ
ji3 Ġnian2Ġ
zhuang4 Ġji1Ġ
ou r
yi2Ġ chan3
zhuan1Ġ men2Ġ
nan2Ġji2Ġ zhou1ĠdeĠ
m eng3Ġ
Ġ li2
qing4 Ġzhu4Ġ
lao2 Ġgong1Ġ
d ao1
zh ai1Ġ
zhi2 Ġzhi4Ġ
Ġzai4Ġ gai1Ġ
Ġyu2Ġ di4Ġ
Ġgong1Ġ lu4
Ġshe4Ġ ji4ĠdeĠ
k an3
Ġ qin2Ġ
ĠĠĠ dan4
xi1 Ġshi4Ġ
sheng3 Ġdao4Ġ
Ġyou2Ġ ci3Ġ
Ġ198 4Ġnian2Ġ
Ġhan tĠ
ĠĠĠran2 Ġer2Ġ
chuan2 Ġzhi1Ġ
15 0
Ġzhi1Ġ zhan4Ġ
Ġwei2Ġ chi2Ġ
Ġbing4Ġ ru4Ġ
sh eng2Ġ
pi n1Ġ
Ġxian4 Ġzhi1Ġxian4Ġ
shu3ĠdeĠ zhi2Ġwu4Ġ
Ġsi4Ġ chuan1Ġ
Ġzai4Ġ yu3Ġ
Ġbu4Ġ er3Ġ
Ġyou3Ġ guan1
Ġyi3 Ġzhi4Ġ
shou3Ġ xi2Ġ
gu3Ġfen4 Ġyou3Ġxian4Ġgong1Ġsi1Ġ
l l
m ian2
Ġ luo4
Ġ chong1Ġ
po r
mi4 Ġsi1Ġ
Ġxi1Ġ an1Ġ
Ġzhi1Ġ liu2Ġ
Ġke4Ġ yun4Ġ
ĠĠĠ200 4Ġnian2Ġ
Ġn ai3Ġ
Ġ mi4Ġ
he2 Ġwei4Ġ
zuo4 ĠleĠ
jian1 Ġshi4Ġ
chuang4 Ġxin1Ġ
zong3Ġ cai2Ġ
4 6Ġ
dian4 ĠdeĠ
yao4 ĠdeĠ
Ġgong1Ġ chi3
Ġjian4 Ġshi4Ġ
Ġzuo4Ġ chu1
b eng1
ĠĠĠ 0
xu an4Ġ
tou2 Ġbu4Ġ
zheng3 Ġge4
xiao4Ġ ying4Ġ
om p
9 7
i st
n ang2Ġ
o b
hui4 Ġyi3Ġ
18 7
si3 Ġyu2Ġ
pan4Ġ luan4Ġ
Ġshi4Ġyi4Ġ da4Ġli4Ġ
Ġ mo2
Ġ huan2Ġ
hei1 Ġren2Ġ
Ġnian2 Ġnian2Ġ
bu4Ġ fen4Ġ
chu1Ġ qi1Ġ
yun4Ġdong4 ĠdeĠ
hui4 Ġshi4Ġdi4Ġ
yan2 Ġshi2Ġ
zhang3 Ġda4Ġ
chang2 Ġjian4Ġ
Ġda4Ġ sha4Ġ
zhu3Ġ xi2
jiao4Ġ shou4
zhi3Ġ ding4Ġ
jie4Ġ shao4
Ġ ku4
Ġ ni3
ling3 Ġyu4
huan2 Ġxing2Ġ
Ġling4Ġ wai4
na2Ġ po4Ġ
Ġ pu3
guo2Ġ nei4Ġ
xi1Ġ bei3Ġbu4Ġ
di3Ġ kang4Ġ
xia4Ġxia2 Ġyi3Ġxia4
e tĠĠĠ
Ġ han2
ĠĠĠ 3Ġyue4Ġ
Ġshi4Ġyi1Ġ zuo4Ġ
luo2 Ġde2Ġ
fa3Ġ ting2Ġ
Ġzhe4Ġ shou3Ġ
chuan2Ġ mei2Ġ
yin3Ġ yong4Ġ
Ġ ce4Ġ
Ġ xin4Ġ
zi4 Ġwei4Ġ
ge2 Ġer3Ġ
Ġji2Ġ lin2Ġ
ma3Ġ tou2Ġ
zhou1Ġ bian1Ġ
fen1Ġbie2 Ġwei4Ġ
5 00
yi1 Ġbu4Ġfen4
le ng3Ġ
zhu4 Ġdi4Ġ
pian4 ĠdeĠ
Ġhou4Ġ qi1Ġ
dui4Ġ wu3Ġ
jing4Ġ sai4Ġ
hang2Ġ tian1Ġ
Ġ huan4Ġ
er ĠĠĠ
Ġbu4Ġ di2Ġ
yan2Ġ zhong4
Ġqiu2 Ġhui4Ġ
ba1Ġ la1Ġ
zu3Ġ zhi3Ġ
Ġ sai4Ġ
ai4 Ġguo2Ġ
ta1 Ġzai4Ġ
zhan4 Ġwei4Ġyu2Ġ
zhi2 Ġli4Ġ
zhi2 Ġyuan2Ġ
Ġshi4Ġ bing1Ġ
xue2Ġ xi2
sheng1Ġ tai4Ġ
tong1Ġ xun4Ġ
shuai4Ġ ling3Ġ
mo4Ġsi1Ġ ke1
hai3Ġba2Ġgao1Ġ du4Ġwei4Ġ
Ġ ruan3Ġ
xi1Ġ nan2Ġbu4Ġ
qu3Ġ dai4
Ġg ou1Ġ
mu4Ġsi1Ġ lin2Ġ
d ong3Ġ
ĠĠĠ 3Ġ
tui1 Ġjian4Ġ
nuo4 Ġyi1Ġ
Ġzhong1Ġguo2Ġ guo2Ġmin2Ġ
a1 Ġli3Ġ
du i1Ġ
dan1 Ġyi1Ġ
luo4 ĠdeĠ
18 6
ri c
Ġdi4Ġ mian4Ġ
Ġxin1Ġ zeng1
jian3Ġ dan1Ġ
Ġa1Ġ la1Ġ
jie1Ġ shou1Ġ
Ġxiang1Ġ dang1
Ġc ao2
sha1Ġ si3Ġ
guang1Ġ xu4Ġ
ĠdeĠcheng2Ġ zhen4Ġ
ye3 Ġbu4Ġ
la1 Ġer3Ġ
shang1 ĠdeĠ
yi1Ġ xie1Ġ
Ġxian4Ġ jin1Ġ
Ġxi1Ġ xi1Ġ
Ġke4Ġ la1Ġ
yin3Ġ zhong3Ġ
Ġsui2Ġ zhe
g r
xun2 Ġqiu2Ġ
luo2Ġ bo2Ġte4Ġ
ĠI n
Ġwei4Ġfu2Ġqi2Ġyu2Ġ gang1
Ġ che1Ġzhan4
Ġhe2Ġ li3Ġ
Ġxing2Ġ xiang4Ġ
Ġshe4Ġ hui4
yin3Ġ fa1
ying2Ġ ye4Ġ
Ġhu ai4Ġ
ĠĠĠ 5Ġyue4Ġ
bie2 ĠdeĠ
wei3Ġfu4Ġ shu1Ġji4Ġ
ge1 Ġju4Ġ
Ġwei4Ġ ci3Ġ
Ġguo2Ġ min2
Ġer3 Ġde2
wu3 Ġdi4Ġ
Ġqiu2Ġ chang3Ġ
bian1Ġ hao4Ġwei4Ġ
li2Ġ ziĠ
Ġ chu3Ġ
ming2 ĠleĠ
you2 Ġqi2Ġ
you2Ġ tai4Ġren2Ġ
Ġqi2Ġzhong1Ġ nan2Ġxing4Ġ
kuai4Ġ su4
Ġyu2Ġ200 9Ġnian2Ġ
fa1Ġsheng1 ĠleĠ
yu3 Ġshi4Ġ
zhe3 Ġwei4Ġ
ceng2Ġ shui3Ġyu4Ġ
xun2Ġyang2 Ġjian4Ġ
zhuan4ĠdeĠ xiao3Ġxing2Ġxing1Ġ
Ġ xu4Ġ
Ġ wu1Ġke4Ġlan2Ġ
ĠĠĠ ping2Ġjia4Ġ
men2 ĠdeĠ
zuo4Ġ chu1
Ġchu1 Ġyi1Ġ
Ġxing2Ġ shi3Ġ
Ġshe4 Ġji1Ġ
Ġke4Ġ lai2Ġ
wei1Ġ xian3Ġ
liao3Ġ jie3
A O
a mi
Ġ dian4Ġshi4Ġ
yun4 Ġhe2Ġ
liang2 Ġshi2Ġ
bu2 Ġyao4Ġ
rong2Ġ na4Ġ
Ġ198 6Ġnian2Ġ
you2 Ġren2Ġgong1Ġ
Ġzai4Ġ bei3Ġ
gui1Ġ fan4Ġ
Ġ18 4
B CĠ
tui1 Ġchu1ĠdeĠ
Ġjin4 Ġnian2Ġ
bao3Ġ cun2Ġ
Ġsheng1Ġ zhang3Ġyu2Ġ
fu3Ġ zhu4Ġ
t erĠ
Ġzai4Ġ ri4Ġben3Ġ
xi1Ġ bei3Ġ
gang3Ġ kou3Ġ
4 2
ci4 Ġwei4Ġ
bian1 Ġcheng2Ġ
du1Ġ du1Ġ
cuo4Ġ wu4Ġ
6 3
g uo1
zhang3 Ġwei4Ġ
ci4 Ġda4Ġ
Ġji1Ġ yin1Ġ
tu2Ġ xiang4Ġ
fei3 Ġ
s ao1Ġ
Ġ can1Ġyu4Ġ
ben3 Ġxian4Ġ
xiu1 Ġjian4Ġ
shun4 Ġshi2Ġ
ru4Ġ qin1
shao4Ġ jiang4Ġ
Ġ chao2Ġxian1Ġ
zhi1 Ġyuan2Ġ
dui4 Ġhe2Ġ
nan2Ġ fang1Ġ
Ġdang1 Ġnian2Ġ
Ġdong1Ġ jing1Ġ
Ġren2Ġmin2Ġ bi4Ġ
Ġhu ai2
gan3Ġ lan3
ac e
4 2Ġ
s a1
Ġ niu2Ġ
ge4 Ġdi4Ġ
ĠdeĠ gu4Ġshi4Ġ
Ġyu2Ġ 2010Ġnian2Ġ
fu2Ġ hao4Ġ
Ġs u2Ġ
Ġdi4Ġer4Ġ ci4Ġ
Ġgong1Ġcheng2Ġ shi1Ġ
Ġ195 8Ġnian2Ġ
ĠĠĠ jing1Ġji4Ġ
Ġshi4Ġ nei4Ġ
Ġji2Ġ shi3
fa3Ġ lan2Ġ
zong3Ġ jian1Ġ
na4Ġ cui4
Ġtong1Ġ guo4
Ġzai4Ġdi4Ġ er4Ġ
ping2Ġjun1Ġ hai3Ġba2Ġgao1Ġdu4Ġwei4Ġ
Ġ ye4
Ġ bao1Ġhan2Ġ
lai2 ĠleĠ
Ġsi1Ġ xiang3Ġ
9 3
L E
l ang4
zu2 Ġqiu2Ġdui4Ġ
Ġhe2Ġ ji2Ġ
ĠdeĠdi4Ġ er4
lao3Ġ shi1Ġ
f a4Ġ
chu2 Ġle
Ġshi2Ġ xing4Ġ
ji4Ġ nian4
si1Ġ lan2Ġ
Ġzh uo2
jie3Ġ jue2
dang1Ġ ju2Ġ
Ġer2Ġgai1Ġdi4ĠdeĠ ping2Ġjun1Ġhai3Ġba2Ġgao1Ġdu4Ġwei4Ġ
wu4 Ġzhong1Ġ
fen1 Ġzhi1Ġyi1Ġ
ni2 Ġxi1Ġya4Ġ
meng2 Ġjun1Ġ
zhong1Ġ xin1Ġ
Ġyou3Ġ li4Ġ
Ġzhi1Ġ qian2
Ġchu1Ġ shen1Ġ
kai1Ġ zhan3Ġ
ru4Ġ xuan3
mian4Ġ lin2Ġ
na4Ġ xie1Ġ
Ġ e2
Ġ bao4
mi ao3
kong1 Ġjun1
Ġjian4 Ġwei4Ġ
2010Ġnian2Ġ mei3Ġguo2Ġren2Ġkou3Ġpu3Ġcha2ĠdeĠshu4Ġju4Ġ
han3Ġ mo4
a w
mi3Ġ ya4Ġ
sheng3Ġ wei3Ġ
fei1Ġ fa3Ġ
qun2Ġ ti3Ġ
Ġs an4Ġ
Ġ194 6Ġnian2Ġ
yin3Ġzhong3Ġ zai1Ġpei2Ġ
7 5Ġ
ĠĠĠ tian1Ġ
ji1 Ġshi4Ġ
Ġwei4Ġ ming2Ġ
Ġshi2Ġ yong4Ġ
qing2Ġ xu4Ġ
can1Ġ sai4
pin2Ġ lv4Ġ
5 Ġge4Ġ
ĠĠĠ 12
zhang1 ĠdeĠ
Ġzai4Ġ gong1Ġ
chuang4Ġ zao4Ġ
ka3Ġluo2Ġ lai2Ġ
yuan2 Ġdi4Ġ
ze2 Ġyou3Ġ
feng1 ĠdeĠ
shen1 Ġshang4Ġ
chang3Ġ jing3Ġ
jiao1Ġ huan4Ġ
Ġyi3Ġse4Ġ lie4
jiao4 Ġyu2Ġ
si4 Ġming2Ġ
zu2 Ġyi3Ġ
ying4 Ġdui4Ġ
ji1Ġ bai3Ġ
Ġde2 Ġdao4ĠleĠ
Ġf an2
you2Ġren2Ġgong1Ġ yin3Ġzhong3Ġzai1Ġpei2Ġ
Ġ liang3Ġge4Ġ
Ġ dian4Ġying3
Ġ yun2Ġnan2Ġ
li4 Ġzhong1Ġ
yan3 Ġchu1
ge1 ĠdeĠ
qu an1
Ġzhi4Ġ shao3
1Ġ hao4Ġ
ke1Ġ hui4Ġshi4Ġdi4Ġ
shen3Ġ cha2Ġ
ju1Ġmin2Ġ dian3Ġ
shuo1 Ġshi4Ġ
dan1Ġ da3Ġ
Ġzhi1Ġ fu3Ġ
Ġwei2Ġ ya4Ġ
gai3Ġ shan4
Ġ man3
ji4 Ġji2Ġ
qing2 Ġxing2Ġ
bing1 Ġbu4Ġ
Ġyi3Ġ shang4ĠdeĠ
Ġyu3Ġ ci3Ġtong2Ġshi2Ġ
Ġqiu2 ĠdeĠ
Ġhan4Ġ zu2Ġ
Ġ zhan4
Ġxi1Ġ yin3
fen1Ġ lei4
fen1Ġ qu1Ġ
zu3Ġ cheng2
re4Ġdai4Ġ feng1Ġbao4Ġ
d ou3Ġ
an1 Ġren2Ġ
hou4 Ġyu2Ġ
zhe4 Ġbu4Ġ
jie4 Ġshi2Ġ
lu3 Ġke4Ġ
ke1Ġ fu1
yi3 Ġhou4Ġ
yu3 Ġyi3Ġ
ge2 Ġli4Ġ
Ġping2Ġ jia4Ġ
shou4Ġ hai4Ġ
Ġzhong1Ġguo2Ġ da4Ġlu4ĠdeĠ
bian1Ġ jing4Ġ
gao4Ġ su4Ġ
zhi3Ġhui1Ġ guan1Ġ
ĠĠĠjie2 Ġzhi4Ġ202
xia4Ġxia2Ġyi3Ġxia4 Ġdi4Ġqu1Ġ
Ġ sa4
chu1 Ġxian4
ceng2 Ġshi4Ġ
deng1 Ġji4Ġ
Ġbu4Ġ jia1Ġ
da4Ġ shi3Ġ
Ġt uo2Ġ
cai2Ġ chan3Ġ
wu2Ġren2Ġ ji1Ġ
Ġ i
Ġ zheng3Ġ
Ġ qiu1Ġ
ĠĠĠ ji4Ġ
xiang4 Ġxi1Ġ
chuan2Ġ bo1
gai3Ġ bian1Ġ
12Ġyue4Ġ 31Ġri4Ġ
fa1Ġzhan3 ĠdeĠ
Ġ10 0
Ġliu2 Ġyu4Ġ
jie2Ġdu4Ġ shi3Ġ
fa1 Ġming2Ġ
ju4Ġ qing2Ġ
Ġtong2 Ġyi1Ġ
Ġqi2Ġzhong1Ġ nan2Ġ
hen3Ġ duo1
you1Ġ xiu4Ġ
shi1 Ġdi4Ġ
bai2 Ġzhi4Ġ
Ġda4Ġ zhong4Ġ
fa3Ġ ling4Ġ
duo1Ġ yang4Ġ
gan3Ġ jue2Ġ
lai2Ġzi4 Ġyu2Ġ
Ġjin4Ġshi4Ġ chu1Ġshen1Ġ
zhan1Ġ mu3Ġsi1Ġ
t ao4
Ġ mi3
Ġ ziĠ
lu3 Ġshi4Ġ
jiao4Ġ zuo4Ġ
pan4Ġ jue2Ġ
wen4Ġti2 ĠdeĠ
1 20
ch i1
ĠĠĠ 10Ġyue4Ġ
zi1Ġ sheng3Ġ
yong3Ġ jiu3Ġ
gan1Ġ su4Ġ
zi4Ġxing2Ġ che1Ġ
b en1Ġ
m ang2
Ġ ji3Ġ
Ġ xu1Ġyao4Ġ
ma3 ĠdeĠ
zu2 Ġren2Ġ
chao2 ĠdeĠ
Ġdi4Ġ si1Ġ
sha1Ġ hai4Ġ
Ġãĥ ¼
fei1 Ġli4Ġ
Ġbu4Ġ bian4Ġ
Ġbei4Ġ qi2Ġ
an4Ġ zhao4Ġ
ban4Ġ yan3Ġ
cai2Ġ wu4Ġ
ju2Ġ ju2Ġzhang3Ġ
gong4Ġchan3Ġ zhu3Ġyi4Ġ
Ġgong1Ġkai1Ġ sai4Ġ
6 Ġge4Ġ
â Ī
shu4 Ġshi4Ġ
Ġyi1Ġ tiao2Ġ
nan2Ġ zi
zhu4Ġ ce4Ġ
Ġsheng1Ġ ming2Ġ
bao4Ġ zhi3Ġ
ai1Ġ na4Ġ
ĠdeĠyi1Ġ xie1Ġ
zi3Ġ nv3Ġ
xiu1Ġ gai3
que4Ġ ding4
Ġ198 2Ġnian2Ġ
tou4Ġ guo4
Ġ 26
ku i1Ġ
qu3 Ġjia1Ġ
tie3 Ġdao4
ĠdeĠ xian4Ġ
Ġzhong1Ġ zui4Ġ
shen1Ġ zhen4
ying1Ġ guo2ĠdeĠ
shang1Ġ wang2Ġ
Ġbu4Ġ zhi4Ġ
Ġda4Ġ xing2
ĠdeĠming2Ġ zi4Ġ
Ġ 27
ĠĠĠ bei3Ġ
ĠĠĠ chu2ĠleĠ
ĠĠĠ ling4Ġwai4Ġ
fu2 Ġde2Ġ
Ġda4Ġ jia1Ġ
shou3Ġ fu3Ġ
Ġshi4Ġzhong1Ġ xin1Ġ
jin3Ġbiao1Ġ sai4
Ġgong1Ġzuo4 Ġshi4Ġ
mao2Ġze2Ġ dong1Ġ
hua2Ġsheng4Ġ dun4
gu a1
Ġshi4Ġ wu1Ġke4Ġlan2
Ġzhi1 Ġji4Ġ
Ġqian2Ġ wang3Ġ
Ġ198 7Ġnian2Ġ
r ao3
Ġ dou1
yin3 Ġshi2Ġ
zao1 Ġyu4Ġ
dang4Ġ an4Ġ
Ġao4 Ġda4Ġli4Ġ
Ġhe2Ġbing4 Ġwei4Ġ
shuo4Ġshi4Ġ xue2Ġwei4Ġ
fang1 Ġcheng2Ġ
er4 Ġzhan4Ġ
Ġsi1Ġ ka3Ġ
Ġc ai4
Ġ zhen1
chu1 Ġren4Ġ
ji3 Ġhe2Ġ
Ġjian4 Ġhe2Ġ
Ġnan2Ġ bei3Ġ
zeng1Ġjia1Ġ leĠ
m eng3
n u4
t t
Ġ he4
on ĠĠĠ
Ġyi1Ġ zhi1Ġ
gui1Ġ hua4
kao4 Ġjin4Ġ
Ġ cai2
ĠĠĠ yue4Ġ
zhi1 Ġming2Ġ
wai4 Ġwei2Ġ
zheng3 Ġhe2Ġ
Ġzhe4Ġ ci4Ġ
san1Ġ ci4Ġ
Ġn Ġ
Ġyu2Ġ19 0
Ġ xu3Ġ
luo2 Ġji2Ġ
Ġzai4Ġ 195
Ġji1Ġ xie4Ġ
fen1Ġ li2Ġ
jie1Ġ chu4
Ġzhe4 Ġbu4Ġ
che4Ġ di3Ġ
c an3Ġ
Ġ ou1Ġzhou1Ġ
fu2 Ġer3Ġ
Ġdi4Ġ guo2ĠdeĠ
zhang3Ġ yue1Ġ
ba1Ġ fa2
6 5Ġ
k mĠ
l ou4Ġ
Ġ pei2Ġ
sh a4
ci3 Ġzhi1Ġwai4Ġ
da2 ĠdeĠ
bo1 Ġer3Ġ
Ġcheng2Ġ leĠ
Ġyi3Ġ nan2Ġ
Ġxing2Ġ cheng2ĠdeĠ
Ġjian4Ġli4Ġ leĠ
Ġsu1Ġ lian2Ġ
f en2Ġ
cheng1Ġ hao4Ġ
ng ĠĠĠ
ji1 Ġbu4Ġ
chu1 Ġsheng1Ġ
gong4 Ġshi2Ġ
ling2 ĠdeĠ
Ġyi1Ġ mei2Ġ
ji1Ġ ben3Ġ
tian1Ġ huang2Ġ
zu2Ġ xie2Ġ
Ġ mu4
Ġ lu2
xia4 ĠdeĠyi2Ġge4Ġ
lie4 Ġshi4Ġ
sheng4 Ġdi4Ġ
Ġzai4Ġ ying1Ġguo2Ġ
Ġda4Ġ shi1Ġ
sheng1Ġ ming4Ġ
ĠĠĠ200 3Ġnian2Ġ
Ġ197 8Ġnian2Ġ
n eĠĠĠ
Ġ xi4Ġlie4Ġ
ru4 ĠdeĠ
Ġshi4Ġ yan4Ġ
xue2Ġ sheng1
Ġdan4 Ġyin1Ġ
jing3Ġ guan1Ġ
shen2Ġ hua4Ġ
bing4Ġ mei2Ġyou3Ġ
qun2 ĠdeĠ
Ġyuan2Ġ shi3Ġ
Ġxian4Ġ ru4Ġ
shou3Ġ duan4Ġ
zhuang4Ġ kuang4
Ġdi4Ġyi1Ġ ci4
Ġling4 Ġyi4Ġfang1Ġmian4Ġ
6 4Ġ
zhan4 Ġzhi4Ġ
199 9Ġnian2Ġ
ro s
Ġyue4Ġ tai2
mian4Ġ ti3Ġ
guang3Ġ gao4
yan2Ġjiu1Ġ yuan4Ġ
Ġyu2Ġ200 8Ġnian2Ġ
â Ħ
an4 Ġshi2Ġ
ju an3
hou4 Ġshi4Ġ
wan4 Ġnian2Ġ
tui1 Ġdong4
nuo4 Ġsi1Ġ
si1Ġ xiang3Ġ
chang2Ġ qi1
shang1Ġ dian4Ġ
dang1Ġ xuan3
âĨ Ĵ
Ġsheng1Ġzhang3Ġyu2Ġ hai3Ġba2
8 9
I IĠ
a la
Ġ wen2Ġhua4Ġ
gao1 Ġyuan2Ġ
bo1 Ġchu1
dou4Ġ zheng1Ġ
Ġ guo4Ġ
Ġwei4Ġ you2Ġ
qu1Ġ jian1Ġ
an1Ġ dong1Ġ
Ġping2Ġ lun4
Ġt ong4
Ġ198 0Ġnian2Ġ
Ġ194 8Ġnian2Ġ
tao2 Ġyuan2Ġ
Ġshi2Ġ dai4ĠdeĠ
yan2Ġ shen1Ġ
Ġdang1Ġ xuan3Ġ
Ġ4 0
Ġ niu3Ġyue1
a1 Ġji1Ġ
jie1 Ġjin4
Ġwei4Ġ bei4Ġ
Ġhe2Ġ suan1Ġ
Ġyi4Ġ si
zheng4Ġ quan2Ġ
wu3Ġ han4
shui3Ġ ku4Ġ
ĠĠĠ 6Ġ
tian1 Ġjia1Ġ
Ġbu4Ġ de2Ġ
Ġshang4Ġ shu1Ġ
Ġm ai3Ġ
hang2Ġ ye4Ġ
Ġmu4Ġqian2Ġ shang4Ġwei4Ġ
p en2
guan1Ġ fei4Ġyan2Ġ
zi1Ġ zhu4Ġ
cai2Ġ pan4Ġ
tuan2Ġ zhang3Ġ
fang2Ġ zhi3Ġ
ming4Ġ ling4
ĠĠĠS t
Ġ hu2
Ġ wan2Ġcheng2Ġ
Ġhe2Ġ fa3Ġ
Ġyi3 Ġshi4Ġ
Ġyuan2Ġ ze2Ġ
qu1Ġ fen1Ġ
Ġchu1Ġ xi2Ġ
lie4Ġ ru4
Ġxian4ĠdeĠyi2Ġge4Ġ fei1Ġjian4Ġzhi4Ġdi4Ġqu1Ġ
ĠĠĠ v
zhan4 Ġji4Ġ
jiang1 Ġshi4Ġ
qi3 ĠleĠ
Ġzhong1Ġ shu1Ġ
Ġyi4Ġ ming2Ġ
qing2Ġ jie2Ġ
sai1Ġ na4Ġ
Ġbi4Ġ ye4Ġyu2Ġ
Ġ shan4Ġ
ku an1
Ġyu3Ġ da4Ġ
ju4Ġ feng1Ġ
fu2Ġ hua4Ġ
zeng1Ġ qiang2Ġ
wu4Ġzhong3 ĠdeĠ
ĠĠĠ 2
dian3 Ġwei4Ġ
Ġhe2Ġ ta1ĠdeĠ
Ġyin1 ĠdeĠ
ma3Ġ lai2Ġ
hong2 Ġjun1Ġ
hao3 Ġyou3Ġ
tong1Ġ xin4Ġ
deng3Ġ zhi2Ġ
xiang3Ġ fa3Ġ
kao3Ġ gu3Ġ
Ġzhi3 Ġshi4Ġ
i th
yuan2 Ġzhong1Ġ
Ġzhi1Ġ chu4Ġ
ping2Ġ min2Ġ
Ġ19 20Ġnian2Ġ
Ġji1Ġdu1Ġ jiao4Ġ
fen3 Ġsi1Ġ
1 Ġnian2ĠdeĠ
ĠĠĠ st
199 6Ġnian2Ġ
Ġtong2 Ġri4Ġ
N AĠ
tu1 Ġchu1Ġ
Ġli4Ġ ke4Ġ
Ġde2 Ġdao4
zui4Ġ zao3Ġ
Ġzhe4Ġ yang4ĠdeĠ
cheng1Ġ wei2
ao4Ġsi1Ġ ka3Ġ
N A
lai2 Ġsi1Ġ
mian4 Ġshi4Ġ
Ġwei4Ġ qi2Ġ
chang2Ġ jiang1Ġ
chan3Ġ ye4
Ġxing2Ġzheng4Ġ zhen4Ġqu1Ġ
5 Ġgong1Ġli3Ġ
ĠĠĠ zhu3Ġyao4Ġ
cheng1 Ġzhi1Ġwei4Ġ
Ġzai4Ġ ji1Ġ
lu4Ġ xu4Ġ
ce4Ġ lve4Ġ
zhu1Ġ long2Ġ
Ġshi4Ġ nan2Ġji2Ġzhou1ĠdeĠ
Ġzuo4Ġ biao1Ġwei4Ġ
Ġren4Ġ ming4
yi2Ġ zhi3
fei1Ġlv4Ġ bin1
5 2
shi3 Ġzhong1Ġ
ni2 ĠdeĠ
âĢ §
Ġgong1Ġ jin1Ġ
Ġ ding1Ġ
Ġ xiong2Ġ
hui4 Ġji2Ġ
fu2 Ġzhou1Ġ
Ġyi4Ġ dian3Ġ
qi4Ġ ti3Ġ
ti2Ġ gao1
niao3Ġ lei4Ġ
Ġfen1Ġbie2 Ġshi4Ġ
Ġji4Ġsuan4 Ġji1Ġ
ĠĠĠ sui2Ġ
bei3 Ġshi4Ġ
ge1 Ġer3Ġ
Ġt ong4Ġ
Ġcheng2Ġwei2Ġ le
1 Ġming2Ġ
I T
i f
ĠĠĠ er2
ĠĠĠ zhu4Ġ
hang2 Ġxian4Ġ
bin1 Ġshi4Ġ
Ġgong1Ġ zuo4ĠdeĠ
zhu3Ġ chang3Ġ
Ġchu1Ġ ru4Ġkou3Ġ
lu4Ġ shang4Ġ
Ġchu1Ġxian4 ĠleĠ
a yĠ
zhi3 Ġyu2Ġ
Ġdan4 Ġbu4Ġ
Ġzhu3Ġ chi2Ġ
chuang4Ġ ban4Ġ
jing1Ġji4Ġ xue2Ġ
jiang1Ġsu1Ġ sheng3Ġ
Ġ min2
dui4 Ġyou3Ġ
dong1 Ġxian4Ġ
wu3 Ġming2Ġ
chang3 Ġshang4Ġ
ban1 Ġbu4Ġ
pin3 Ġzhi4Ġ
Ġzai4Ġ nan2Ġ
yan2Ġ chang2
Ġyou2Ġ yong3Ġ
nv3Ġ yan3Ġyuan2Ġ
huo3Ġ ban4Ġ
. &
Ġ gai3Ġwei2Ġ
ai4 Ġde2Ġhua2Ġ
zhong1 Ġshi4Ġji4Ġ
dui4 Ġta1Ġ
huo4 Ġshi4Ġ
shi1 Ġhe2Ġ
ling3Ġ xian1Ġ
she4Ġhui4Ġ zhu3Ġyi4Ġ
ren2Ġmin2Ġ dai4Ġbiao3Ġda4Ġhui4Ġ
Ġjiang1 Ġqi2Ġ
ti4 Ġdai4Ġ
Ġ cai3Ġyong4Ġ
ĠĠĠ zhan4Ġ
Ġming2Ġ zi4Ġ
geng4Ġ duo1
zui4Ġzao3 ĠdeĠ
b ao2Ġ
di3 Ġzhi4Ġ
ti2Ġ gong1ĠdeĠ
zu2Ġ zi4Ġzhi4Ġ
ĠĠĠT heĠĠĠ
zu1Ġ jie4Ġ
J Ġ
Ġ chun1Ġ
chu1 Ġdao4Ġ
fu4 Ġzhi4Ġ
Ġcheng2Ġ xu4
ai4Ġ qing2Ġ
dao3Ġ yan3
Ġdang1Ġ xuan3
pu2Ġtao2Ġ ya2Ġ
8 6
Ġ shen4Ġ
de n
kuo4 Ġzhang1Ġ
feng1Ġ ge2
xian4Ġ fa3Ġ
Ġh ou2Ġ
Ġbu4Ġde2 Ġbu4Ġ
a in
Ġ pi2
Ġ cheng2Ġshi4Ġ
ĠĠĠ dui4Ġyu2Ġ
da4 Ġhe2Ġ
xi1 Ġyuan2Ġ
jie1 Ġshi4Ġ
su1 Ġli3Ġ
hou4Ġ xuan3Ġren2Ġ
shou1Ġ gou4
Ġyu2Ġ200 7Ġnian2Ġ
Ġxin1 Ġjia1Ġ
lei4Ġsi4 Ġyu2Ġ
lu4 Ġyu3Ġ
qi3 ĠdeĠ
cu n4
han4 Ġzi4Ġ
Ġyi4Ġ ji2Ġ
Ġxian4Ġ dai4
Ġjia1Ġ jing4Ġ
Ġ wei2
er i
Ġdi4Ġ 2Ġ
Ġcheng2Ġ shi4ĠdeĠ
qi3Ġ su4Ġ
hai4Ġ e2
Ġ197 9Ġnian2Ġ
gong4Ġhe2Ġ guo2ĠdeĠ
Ġxi1Ġban1Ġya2 Ġyu3Ġ
qi ao1
ji4 Ġzai4Ġ
fu4 Ġyou3Ġ
kai1 Ġshe4
199 8Ġnian2Ġ
reng2 Ġyou3Ġ
ĠdeĠ li3Ġ
zhi2Ġ bo1Ġ
yan2Ġjiu1 Ġyuan2Ġ
pin3Ġ pai2
ban3Ġ ben3ĠdeĠ
xie2Ġ tiao2
Ġshi4Ġdi4Ġ yi1Ġ
s eĠ
Ġ wu1
xian4 Ġshi2Ġ
tai4 Ġhou4Ġ
mian4Ġji1 Ġhe2Ġ
Ġ bai3
qi an4
fen1 Ġwei4Ġ
jin1 Ġri4Ġ
ti3 Ġxing2Ġ
ke1 Ġer3Ġ
qi4 Ġhe2Ġ
pai2 Ġde2Ġzhu3Ġ
jiang3 ĠdeĠ
lang3 Ġde2Ġ
Ġxue2Ġ xi2
Ġfen1Ġbie2 Ġwei4Ġ
ĠĠĠ ke4Ġ
bai4 Ġzhan4Ġ
Ġjian4 Ġyou3Ġ
shou3Ġ shu4Ġ
gui1Ġmo2 ĠdeĠ
b i1Ġ
Ġ zhuan1Ġji2Ġ
Ġ san1Ġshi2Ġ
xu n1
hang2 Ġzhou1Ġ
han4 Ġyu3Ġ
bing1 Ġli4Ġ
rang4 Ġta1Ġ
Ġhui4Ġ bei4Ġ
Ġgai1Ġ di4ĠdeĠ
shi3Ġyong4 ĠleĠ
Ġ shun4
Ġzi4Ġ dong4Ġ
d u3
s onĠ
ti ao1Ġ
li4Ġ yong4Ġ
Ġzhe4Ġ ye3Ġshi4Ġ
ke1Ġ fu1Ġ
ban1Ġ ci4Ġ
Ġf o2Ġ
Ġgong1Ġyuan2Ġ qian2Ġ
Ġdi4Ġshi2Ġ yi1Ġ
mou3Ġ xie1
Ġ men2Ġ
yi3 Ġshang4Ġ
zhan4 Ġwei4Ġ
nan2 Ġsi1Ġla1Ġ
mei3 Ġri4Ġ
tu n1
jiao4Ġ ke1Ġ
hai3Ġ yang2
1Ġ mi3Ġ
Ġqiu2Ġ yun4Ġdong4Ġyuan2Ġ
Ġm ao1Ġ
Ġzhi3 Ġchu1Ġ
wu4Ġli3Ġ xue2Ġ
ye1Ġ su1
Ġmu4Ġqian2Ġshang4Ġwei4Ġ you2Ġren2Ġgong1Ġyin3Ġzhong3Ġzai1Ġpei2Ġ
Ġ shang4
sh e2
tou2 ĠdeĠ
Ġzai4Ġ yuan2Ġ
ding4Ġ qi1Ġ
gai3Ġ wei2
ka3Ġ la1Ġ
ch ong3Ġ
an1 Ġxian4Ġ
ĠĠĠ 4Ġyue4Ġ
di ceĠ
hua2 Ġda4Ġxue2Ġ
Ġhe2Ġ lan2
ben3Ġ shen1Ġ
zui4Ġ duo1ĠdeĠ
zhong4Ġ zhi2Ġ
ling3Ġ xiu4
qian1Ġ ding4Ġ
fei1Ġlv4Ġ bin1Ġ
oh n
e b
p u1
Ġ guan3Ġ
ren2 Ġwei4Ġ
yuan2 Ġshi2Ġ
jing1 ĠdeĠ
fa3 Ġshi4Ġ
jian1 Ġzhi4Ġ
duo1 Ġer3Ġ
che1 Ġdao4Ġ
min2Ġ jin4Ġ
Ġzhong1Ġguo2Ġ gong4Ġchan3Ġdang3
Ġc o
l ong3Ġ
s ti
Ġ deng1Ġ
000 Ġ
Ġji2Ġ yi1Ġ
bian1Ġ ma3Ġ
q u2
Ġ pai4Ġ
Ġbu4Ġ er3
Ġdao4 Ġshi4Ġ
Ġjia1Ġ meng2Ġ
shu4Ġ mu4Ġ
bao3Ġ cun2
ĠD Ġ
shou3 Ġbu4Ġ
wo4 Ġer3Ġ
Ġwei4Ġ zhong1Ġguo2Ġ
shen1Ġ zhen4Ġ
wei3Ġyuan2Ġ hui4ĠdeĠ
xia4Ġxia2ĠdeĠyi2Ġge4Ġ xiang1Ġ
Ġ kai1Ġshi3
bao3 Ġzheng4Ġ
zhong1Ġ bu4Ġ
te4Ġ qu1Ġ
huang2Ġ jin1
ĠĠĠ194 9Ġnian2Ġ
Ġzhi4Ġzuo4 Ġren2Ġ
jiu4Ġdu2 Ġyu2Ġ
ĠĠĠ 1
wang3 ĠdeĠ
hou4Ġ lai2Ġ
Ġda4Ġ yue1
Ġxi1Ġ zang4Ġ
Ġming2Ġ cheng1
zuo3Ġ you4
oo g
pu2Ġtao2Ġ ya2
Ġ 1Ġyue4Ġ
Ġ dan1Ġren4
ĠĠĠ 6
te4 Ġhe2Ġ
te4 Ġji2Ġ
gong1Ġ kai1Ġ
Ġyu2Ġ tong2Ġnian2Ġ
dui4Ġ wai4Ġ
ce4Ġ liang2
hu2Ġ po1Ġ
di3Ġ da2
ĠĠĠge4Ġren2Ġ sheng1Ġhuo2Ġ
I P
Ġ hao3Ġ
Ġ wan3Ġ
dong1 ĠdeĠ
jia3 Ġji1Ġ
Ġ193 8Ġnian2Ġ
Ġ bao1Ġ
Ġ yan2Ġjiu1Ġ
bei4 Ġshi4Ġ
lin2 Ġsi1Ġ
zhuan3 Ġwei2Ġ
Ġke4 Ġli3Ġsi1Ġ
Ġdong4 Ġzuo4Ġ
tai2Ġ bi4Ġ
tian1Ġ tang2Ġ
Ġt ou4
ka3Ġluo2Ġlai2Ġ na4
n o
Ġ ning2Ġ
shu4 Ġhe2Ġ
ru4 Ġwei2Ġ
zi Ġgong1Ġsi1Ġ
qi4 Ġren2Ġ
zhong4Ġ dian3
miao2Ġ shu4Ġwei4Ġ
Ġkang1 Ġxi1Ġ
Ġ xia2Ġ
Ġ mao2Ġ
xiu1 Ġsi1Ġ
xiang1Ġ hu4Ġ
kai1Ġ mu4Ġ
fen1Ġ lan2Ġ
Ġm ian2
zao1 Ġshou4Ġ
Ġshi4Ġ xiang1Ġgang3Ġ
Ġxi1Ġ yin3Ġ
min2Ġ zhu3
yi2Ġ min2
hong1 Ġzha4Ġ
Ġà ¸
âĦ ĥ
3 Ġmi3Ġ
D V
g ou1
m ou2
w ang1Ġ
Ġ ting2Ġ
zh ai2
199 2Ġnian2Ġ
zhen1 ĠdeĠ
Ġcheng2Ġ bao3Ġ
ĠĠĠ200 2Ġnian2Ġ
Ġ194 7Ġnian2Ġ
nuo2Ġ wei1
xing1 Ġjian4
fu1 Ġfu4Ġ
29 Ġ
Ġchu1Ġ ren4
jing4Ġ nei4ĠdeĠ
ba1Ġ n
jiang3Ġ zui4Ġjia1Ġ
qiu2Ġ dui4
ĠdeĠji1Ġ hui4Ġ
Ġguo2Ġmin2Ġ dang3Ġ
lay Sta
na4 Ġsi1Ġ
hang2 Ġzhan4Ġ
zhuang4 Ġbing4Ġdu2
gan4 Ġxian4Ġ
Ġge4 Ġda4Ġ
shang1Ġ pin3Ġ
tai2Ġwan1 ĠdeĠ
fan4Ġ wei2
zhu3Ġchi2 Ġren2Ġ
ying2Ġde2 ĠleĠ
Ġ wo4Ġ
ĠĠĠ xiang1Ġgang3Ġ
Ġbu4Ġ zheng4Ġ
Ġguo2Ġ gong1Ġ
jing1Ġ you2Ġ
wen2Ġ zhang1
Ġbing4Ġ jiang1
Ġnan2Ġ jing1Ġ
Ġt ao3
xie2Ġ shang1Ġ
qun2Ġ zhong4Ġ
kai1Ġfa1 ĠdeĠ
5 5Ġ
i re
p u2
Ġ can1
Ġ pai2Ġ
ĠĠĠ fu2Ġ
ĠĠĠ sui1Ġran2Ġ
Ġzhong1Ġ fa1Ġxian4Ġ
Ġcheng2Ġ wei2Ġyi1Ġ
Ġta1Ġ hai2
jing1Ġ ying2
Ġqi2Ġ bing1Ġ
Ġyou3Ġyi1Ġ xie1Ġ
Ġ bai4Ġ
ma3 Ġshi4Ġ
san1 Ġwei4Ġ
Ġqi2 Ġta1ĠdeĠ
qian2Ġ ting3Ġ
nei4Ġ meng2Ġgu3Ġ
Ġzh a2Ġ
du2Ġ te4ĠdeĠ
ge1Ġlun2Ġ bi3Ġya4Ġ
Ġ fa1Ġxing2Ġ
e4 Ġer3Ġ
zuo4 Ġzhong1Ġ
nan2 Ġren2Ġ
wu2 Ġer3Ġ
Ġhe2Ġ tong2Ġ
dui4Ġ xiang4Ġ
Ġhui4Ġ shang4Ġ
Ġjin4 Ġji2Ġ
gao1Ġ deng3
han4Ġ lin2Ġ
Ġ song1Ġ
ĠĠĠ 15
ĠĠĠ la1Ġ
zhi2Ġ wu4
Ġxiang1Ġ dui4Ġ
Ġtong2Ġshi2Ġ ye3Ġ
Ġyu2Ġ200 6Ġnian2Ġ
wen2Ġhua4 Ġda4Ġ
Ġha1 Ġer3Ġ
ju4 Ġzhong1Ġ
mu4 Ġshi4Ġ
ci3 Ġshi4Ġ
shu1 Ġshi4Ġ
198 8Ġnian2Ġ
Ġzhi4Ġ liao2
zhun3Ġ bei4
Ġma3Ġlai2 Ġxi1Ġya4Ġ
Ġ re4Ġ
Ġ fan3Ġdui4Ġ
Ġguo2Ġ yu3Ġ
Ġri4Ġ qi1Ġ
sheng1Ġ yin1Ġ
Ġming2Ġ xing1Ġ
shen1Ġ wang2Ġ
yin4Ġ xiang4Ġ
huai2Ġ yi2Ġ
t sĠ
Ġ ci2
ĠĠĠ 8Ġyue4Ġ
ci4 Ġji1Ġ
Ġwei2Ġ qi2
Ġsh an3Ġxi1Ġ
huo2Ġdong4 ĠdeĠ
Ġ zu3
jin4 Ġji2Ġ
wang2 Ġhou4Ġ
Ġshi4Ġ nan2Ġ
zong3Ġ jing1Ġli3Ġ
Ġzui4 Ġchu1
duo1 Ġbu4Ġ
tu i3Ġ
chuan1 Ġyue4Ġ
Ġzhou1 Ġren2Ġ
fa1Ġ hui1
ĠĠĠP ro
t yĠĠĠ
jiu4 Ġyou3Ġ
ĠdeĠ xiao3Ġ
Ġri4 Ġyi4Ġ
Ġbing4Ġ biao3Ġshi4Ġ
zhao4Ġ pian1
B SĠ
ĠĠĠ 8
ge2 Ġsi1Ġ
Ġdi4Ġ ba1Ġ
da4Ġ xue2
Ġxi1Ġ li3Ġ
nv3Ġ hai2Ġ
Ġ tui1Ġ
Ġ gu4Ġshi4Ġ
Ġ zhao1Ġ
fu4 Ġyu3Ġ
shang4Ġ shu4Ġ
Ġjun1Ġ guan1Ġ
cai2Ġ zheng4
he4Ġ se4Ġ
kuo4Ġ zhan3Ġ
jie1Ġwei4Ġ zhi1Ġ
Ġshi4Ġyi2Ġge4 Ġwei4Ġyu2Ġmei3Ġguo2Ġ
mian4Ġji1Ġhe2Ġ ren2Ġkou3Ġ
z u1
Ġ jiao4Ġyu4Ġ
Ġ yao1Ġqiu2
cheng2 Ġshi2Ġ
qu1 Ġji2Ġ
fu2 Ġshe4Ġ
xiang3 ĠdeĠ
you2Ġ tai4Ġ
liang4Ġ zi3Ġ
bo1Ġ fang4
zhuang1Ġ jia3
Ġ198 1Ġnian2Ġ
Ġ you1Ġ
bi3 Ġer3Ġ
re s
Ġzhi1Ġ cheng1Ġ
Ġqi2Ġzhong1Ġ you3Ġ
fan4Ġ zui4
Ġ yuan3Ġ
Ġ peng2Ġ
zhi2 Ġxing2
duo1 Ġyuan2Ġ
dan1 Ġxin1Ġ
cha2 Ġli3Ġ
guo2Ġ fang2
Ġyuan2Ġ you3Ġ
dai4Ġ bu3Ġ
Ġm ian2Ġ
chuang4Ġ shi3Ġren2Ġ
hang2Ġkong1 Ġgong1Ġsi1Ġ
Ġgai1Ġdi4ĠdeĠ mian4Ġji1Ġhe2Ġren2Ġkou3Ġ
Ġgai1Ġdi4ĠdeĠmian4Ġji1Ġhe2Ġren2Ġkou3Ġ jie1Ġwei4Ġzhi1Ġ
2 Ġnian2ĠdeĠ
bo1 Ġli4Ġ
Ġzhong1Ġ zhi3Ġ
Ġyi1Ġ tong2
Ġta1Ġ jiang1Ġ
ju4Ġ jue2
xiao3Ġ zu3
Ġp ang2Ġ
Ġzhi4Ġli4Ġ yu2Ġ
Ġ ren4Ġhe2Ġ
yue4 Ġhe2Ġ
xiang1 ĠdeĠ
mu4 Ġzhi4Ġ
na4 Ġhe2Ġ
Ġshi2Ġ yue4Ġ
shang4Ġ xia4Ġ
ju4Ġ da4ĠdeĠ
Ġke4Ġ luo2Ġ
ke1Ġ xue2
Ġ193 7Ġnian2Ġ
4 4Ġ
e li
r ou2
Ġ zhan4Ġdi4Ġ
yi2 Ġji4Ġ
yun4 Ġxing2
ju1 Ġyu2Ġ
Ġde2 Ġli4Ġ
Ġm ai3
Ġqian2Ġ long2Ġ
ping2 Ġjun1
bo Ġ
ying1 Ġjun1Ġ
Ġshi4Ġ yuan2Ġ
Ġyue4Ġ tuan2
Ġyi1Ġ tian1Ġ
ji1Ġ chu3Ġ
bao3Ġ zhang4Ġ
ge1Ġ ci2Ġ
wang3Ġ wang3Ġ
ban4Ġ yan3
hui4Ġyi4Ġ shang4Ġ
Ġ15 7
cun2Ġzai4Ġ yu2Ġ
Ġ kou3Ġ
Ġ shao4Ġ
dian3 Ġxing2ĠdeĠ
zhong1Ġ yang1
Ġji2Ġ yi3Ġ
xi1Ġ yang2
ĠdeĠyuan2Ġ yin1Ġ
ao4Ġda4Ġli4Ġ ya4
tou4 Ġlu4Ġ
5 Ġnian2ĠdeĠ
t ou1Ġ
Ġ Ø
di Ġ
biao1 Ġji4Ġ
gei3 Ġta1Ġ
Ġchu1Ġ shou4Ġ
guan1Ġ ce4
fa1Ġ yan2Ġren2Ġ
gao1Ġ jia4Ġ
4 0Ġnian2Ġ
pin3 ĠdeĠ
Ġge4Ġ zi4Ġ
zhe4Ġ zhong3
Ġzhu3Ġ ren4Ġ
Ġguo2Ġmin2Ġ zheng4Ġfu3Ġ
ĠĠĠ 7Ġyue4Ġ
ĠĠĠ 9Ġyue4Ġ
fang1 Ġwei4Ġ
zhuang4 ĠdeĠ
Ġzai4Ġ xian4Ġ
Ġyi4Ġ wai4Ġ
Ġda4Ġ gui1Ġmo2Ġ
Ġyi3Ġ 1Ġ
tong2Ġ yang4
que4Ġ bao3Ġ
shu4 ĠleĠ
xu4 Ġji2Ġ
jian3 Ġli4Ġ
Ġzai4Ġ qi2
Ġzhong1Ġ dui4Ġ
jing4Ġ tou2Ġ
da3Ġ suan4Ġ
bai3Ġ wan4Ġ
hei1Ġ long2Ġjiang1Ġ
man3Ġ zu2
Ġ195 6Ġnian2Ġ
Ġ gan3Ġ
Ġ shou4Ġdao4Ġ
Ġnian2Ġ dai4Ġ
rui4Ġ dian3
hun2 Ġ
Ġ chao1
Ġ fu3Ġ
ĠĠĠ qi2Ġzhong1Ġ
hu4 Ġdong4Ġ
pei4 Ġbei4Ġ
ting1 ĠdeĠ
Ġshi2Ġ jian1ĠdeĠ
wang2Ġ zi3Ġ
ĠdeĠji4Ġ hua4Ġ
2 Ġli4Ġ
r ang3Ġ
Ġ ling3Ġ
shi3 Ġdi4Ġ
xi4 Ġjun1Ġ
qian1 Ġren2Ġ
diao4 Ġyu2Ġ
Ġzhou1 Ġwei2Ġ
duo1Ġ shu4
jin4Ġ zhi3Ġ
fang2Ġ jian1Ġ
Ġs ou1Ġ
il li
Ġguo2Ġmin2Ġ dang3
fu2Ġjian4Ġ sheng3Ġ
san1 Ġyue4Ġ
tang2 ĠdeĠ
jiu1 Ġ
Ġyin1 Ġqi2Ġ
fa1Ġ bu4ĠdeĠ
Ġsui2Ġ zheĠ
ĠĠĠzhi4Ġ zuo4Ġ
3 5Ġnian2Ġ
zh uo1Ġ
zhong1 Ġhe2Ġ
shui3 Ġhe2Ġ
Ġzhi4Ġ ding4Ġ
Ġchu2 Ġle
ĠĠĠ dong1Ġ
ĠĠĠ mu4Ġqian2Ġ
duan4 Ġshi2Ġjian1Ġ
ji4Ġ xu4
Ġyi3Ġ lai2
Ġyin1 Ġyuan2Ġ
yan2Ġ chang2Ġ
tuan2Ġ jie2Ġ
gao4Ġ su4
ĠĠĠche1Ġzhan4Ġ jie2Ġgou4Ġ
a th
gu ai4
jia1 Ġshi4Ġ
19 Ġshi4Ġji4Ġ
you3Ġ guan1Ġ
Ġyi1Ġ chang2Ġ
liang4Ġ xiang4Ġ
ban1Ġ fa1Ġ
hang2Ġ ban1Ġ
Ġ19 Ġ
che4Ġ tui4Ġ
chou2 Ġbei4Ġ
xi ng3
ĠĠĠ can1Ġkao3Ġ
Ġer2Ġ lai2Ġ
bao3Ġ zhang4
jing4Ġ wai4Ġ
ting2Ġ yun4Ġ
Ġzhu3Ġ chi2
chao2Ġ ting2Ġ
suan4Ġ fa3Ġ
qu4Ġshi4Ġ hou4Ġ
P ro
ru n4
st Ġ
pu3Ġ tong1
xing1Ġ xi4Ġ
ĠdeĠdi4Ġ yi2Ġge4Ġ
a1Ġer3Ġ ba1Ġ
ni2Ġya4 ĠdeĠ
ti3Ġyu4Ġ guan3Ġ
k i
tou2Ġ xian2Ġ
meng2Ġ te4Ġ
Ġl ai4Ġ
bu3Ġ chong1Ġ
Ġshi4Ġjie4 ĠdeĠ
tan4Ġ suo3Ġ
7 3
Ġ biao3Ġ
lie4 Ġsi1Ġ
du1 Ġhui4Ġ
Ġsi1Ġ fa3Ġ
san1Ġ zhong3Ġ
ba1Ġ le4
qiang2Ġ da4ĠdeĠ
chong2Ġ xin1
e di
e le
p en
Ġ zhu3
ĠĠĠ 6Ġyue4Ġ
zhan4 Ġhe2Ġ
zhe3 Ġren4Ġwei2Ġ
shen2 ĠdeĠ
shou1 Ġcang2
Ġguo2Ġ wang2
sai4Ġ che1Ġ
liu2Ġ liang4Ġ
e2Ġ hai4Ġe2
jian4Ġ zao4Ġ
guo2Ġjia1Ġ dui4Ġ
5 2Ġ
Ġ fa1
Ġ nei4
Ġ lv3
cheng2 Ġzai4Ġ
wan3 Ġnian2Ġ
Ġguo2Ġ jun1Ġ
fu4Ġ zhu3Ġxi2Ġ
tong1Ġ wang3Ġ
wai4Ġ guan1Ġ
Ġzh ou4Ġ
se4Ġ cai3Ġ
Ġm ou3
sha1Ġ si3
Ġguan1Ġ fang1Ġ
bu4 Ġwei4Ġyu2Ġ
qian2 Ġzai4Ġ
ling3 Ġyu4ĠdeĠ
Ġshi4Ġ ge4Ġ
Ġdi4Ġ zhong1Ġ
Ġgong1Ġ zhan4Ġ
zheng4Ġ chang2Ġ
yan2Ġ lun4Ġ
Ġhu n4Ġ
Ġ195 5Ġnian2Ġ
tan4Ġ ce4Ġ
ma3 Ġli4Ġya4Ġ
pin2 Ġdao4
Ġhe2Ġ li4Ġ
xi1Ġ ya4Ġ
Ġxi1Ġ fang1Ġ
Ġfu4Ġ gai4Ġ
wu3Ġ dao3Ġ
gui1Ġ ding4
Ġh eng1Ġli4Ġ
Ġfu2Ġ wu4Ġ
4 ĠĠĠ
ĠĠĠ ci3
di e1Ġ
ben3 Ġbu4Ġ
ba1 Ġshi2Ġ
qu an4
da4Ġ liang4Ġ
qu1Ġ zhu2
tong1Ġ xun4
lan2Ġ se4Ġ
na4Ġ ru4Ġ
gui1Ġ ze2
Ġsui4 ĠdeĠ
cui1 Ġhui3Ġ
cui1 Ġhui3
cu4 Ġjin4Ġ
T VĠ
Ġ chang3Ġ
fu4 Ġbu4Ġzhang3Ġ
qi1 Ġshi4Ġ
sheng3 Ġzheng4Ġfu3Ġ
bo1 Ġchu1ĠdeĠ
xie2 Ġdai4Ġ
Ġjia1Ġ si1Ġ
Ġbing4 Ġyou3Ġ
qian2Ġ jin4Ġ
Ġzhan4Ġ ling3Ġ
gai3Ġ cheng1Ġ
xu4Ġ lie4Ġ
kong1Ġ xi2Ġ
ta3Ġ ni2
ĠĠĠ200 1Ġnian2Ġ
tan4Ġ xian3
7 Ġnian2ĠdeĠ
² Ġ
Ġ xuan2Ġ
Ġ an1Ġde2Ġ
ren4 Ġyi4Ġ
wang3 Ġqiu2
dou1 Ġbu4Ġ
yi1Ġ li4Ġ
cheng2Ġ ji4Ġ
Ġji2Ġ si1Ġ
Ġer3 Ġyu3Ġ
dian4Ġ zi3
yi2Ġ du4
zu2Ġ qun2Ġ
cun1Ġ min2Ġ
shou1Ġ ru4
ĠleĠyi1Ġ xie1Ġ
o li
o ni
ti ao4
199 7Ġnian2Ġ
zhen1 Ġzheng4Ġ
Ġming2Ġ xian3Ġ
a tion
Ġ 22
wo r
duan1 ĠdeĠ
Ġshi4Ġ dui4Ġ
Ġli4Ġ shu3
Ġri4Ġ hou4Ġ
Ġbei4Ġ jing3Ġ
fen1Ġ lie4Ġ
qiang2Ġ diao4
Ġ qiu1
Ġ nong2Ġ
ĠĠĠ gen1Ġju4
jin4 Ġxing2ĠdeĠ
Ġbu4Ġ jin3
Ġda4Ġ sai4Ġ
Ġri4Ġ yu3Ġ
chang2Ġ wei3Ġhui4Ġ
Ġt ai1Ġ
ban4Ġ dao3
shou1Ġ fei4Ġ
ĠĠĠ18 9
3 00Ġ
h Ġ
p i4
u t
ĠĠĠ jian4Ġzhu4Ġ
Ġshi4Ġ zhi3
te4Ġ lang3Ġ
fa3Ġ guo2ĠdeĠ
Ġt un2Ġ
deng1Ġ lu4
ĠĠĠ200 0Ġnian2Ġ
Ġguo2Ġji4Ġ ji1Ġchang3Ġ
C DĠ
Ġ da2
li u3
ding4 Ġli3Ġ
liu2 Ġxue2Ġ
194 5Ġnian2Ġ
Ġye3Ġ ke3Ġyi3Ġ
ĠĠĠgen1Ġju4Ġ 2010Ġnian2Ġmei3Ġguo2Ġren2Ġkou3Ġpu3Ġcha2ĠdeĠshu4Ġju4Ġ
zhe4Ġjiang1Ġ sheng3Ġ
t uo3
Ġ xiong1
an i
a1 Ġke4Ġ
qi ang3
hou4 Ġbu4Ġjiu3Ġ
xiao4 Ġshe4Ġ
Ġer3 Ġzai4Ġ
xu4Ġ shu4Ġ
d uo3Ġ
m aĠ
Ġ yi4Ġnian2Ġ
wu4 Ġyu3Ġ
mei3 ĠdeĠ
su4 Ġshe4Ġ
15 0Ġ
di1 ĠdeĠ
Ġchu1 Ġxian4ĠdeĠ
bo1Ġ luo2Ġ
nuo4Ġ man4Ġ
Ġ15 8
ren2Ġkou3Ġpu3Ġ cha2Ġ
nuo2Ġ wei1Ġ
u sĠ
zh ui4Ġ
ĠĠĠ xiang1Ġ
jue2 Ġyu2Ġ
bao3 Ġwei4Ġ
Ġzhou1 Ġhe2Ġ
xue2Ġshi4Ġ xue2Ġwei4Ġ
xiao4 Ġyou3Ġ
dang3 Ġji2Ġ
shou1 Ġcang2Ġ
Ġta1Ġ shuo1Ġ
shui3Ġ shen1Ġ
Ġxiang1Ġ tong2Ġ
fan3Ġ dui4
wan2Ġzheng3 ĠdeĠ
Ġ di2
Ġ diao4Ġ
chu1 Ġzhan4Ġ
kang1 Ġxi1Ġ
ren2Ġ min2
Ġxian4Ġ zai4ĠdeĠ
zhe4Ġ yang4ĠdeĠ
Ġke4Ġ sa4Ġsi1Ġ
zang4 Ġyu2Ġ
han3Ġmo4 Ġde2Ġ
l a3
n ĠĠĠ
Ġ yi1Ġwei4Ġ
jiang3 Ġzhong1Ġ
yi4Ġ bai3Ġ
Ġda4Ġ cheng2Ġ
tiao2Ġ wen2Ġ
zhuan3Ġ yi2Ġ
Ġtong2Ġshi2Ġ ye3Ġshi4Ġ
qiao2Ġ liang2Ġ
Ġhe2Ġnan2Ġ sheng3Ġ
nan4Ġ min2Ġ
2 Ġming2Ġ
Ġ feng1
19 00
fu2 Ġshi4Ġ
san1 Ġbu4Ġ
si4 Ġyue4Ġ
zhen1 Ġyu3Ġ
Ġji2Ġ jiang1Ġ
Ġzhi1 Ġbu4Ġ
Ġyi3Ġ 2Ġ
lu4Ġ kou3Ġ
zhi3Ġ shu4Ġ
la1Ġ te4Ġ
fang2Ġ kong1Ġ
yin4Ġ shua1Ġ
Ġ gong1Ġbu4Ġ
ĠĠĠ fa3Ġguo2Ġ
gai3 Ġming2Ġ
li2 Ġshi4Ġ
Ġyu3Ġ xi1Ġ
li3Ġshi4Ġ hui4Ġ
0 Ġren2Ġ
Ġ yan4Ġ
Ġ qing3Ġ
zhang3 Ġhe2Ġ
ci2 Ġhui4Ġ
ban4Ġ fa3Ġ
zhuan1Ġ men2
pan4Ġ chu3Ġ
Ġguan1 Ġzhi4Ġ
ren2Ġda4Ġ dai4Ġbiao3Ġ
9 4
zhi4Ġ zuo4
Ġdan4 Ġqi2Ġ
jin1Ġ rong2
Ġm eng3Ġ
ming4Ġ ming2ĠdeĠ
Ġshou3Ġ ci4Ġ
mao4Ġ xian3Ġ
za2 ĠdeĠ
M A
ĠĠĠ ri4Ġben3Ġ
wei2 Ġren2Ġ
xin1 Ġxing2Ġ
chuan2 Ġqi2Ġ
jia3 Ġshe4Ġ
Ġji2Ġ er3Ġ
suo3Ġ xu1
ru2Ġ guo3
chui2Ġ zhi2Ġ
t ai1Ġ
Ġ ta3
Ġ dou1Ġshi4Ġ
le i3
ti ao3Ġ
zong3 Ġzhan4Ġ
ying3 Ġdai4Ġ
chong2 Ġfu4Ġ
Ġzai4Ġ bei4Ġ
Ġhe2Ġ dong1Ġ
fang1Ġ cheng2Ġshi4Ġ
fu2Ġ lei2
hui2Ġ gui1
ĠM Ġ
Ġshi4Ġshi4Ġ jie4
Ġzhu3Ġyao4 Ġshi4Ġ
jue2Ġsai4 Ġzhong1Ġ
luo2Ġma3 Ġdi4Ġguo2Ġ
Ġxian4ĠdeĠyi2Ġge4 Ġxing2Ġzheng4Ġzhen4Ġqu1Ġ
zhi1 Ġdao4Ġ
zi3 Ġdan4Ġ
liu4 Ġge4Ġ
Ġzhi1Ġ hou4Ġzai4Ġ
Ġdui4Ġ wu3Ġ
Ġzheng4Ġ quan2Ġ
zong3Ġ mian4Ġji1Ġ
gai3Ġ zao4
mi4Ġ du4Ġ
shan1Ġxi1Ġ sheng3Ġ
4 3Ġ
xu e1
che1 Ġren2Ġ
song4 Ġdao4Ġ
Ġji2Ġ bing4
ren4Ġ zhi2Ġ
yan3Ġ zou4Ġ
Ġ lan2
Ġ yin3
Ġ hua1
Ġ gai4Ġ
ĠĠĠ yan2Ġge2Ġ
ĠĠĠ yi3Ġxia4Ġ
hu4 Ġshi4Ġ
Ġshi4Ġ zheng4Ġfu3Ġ
ren4Ġ ming4Ġ
jiao4Ġ gao1Ġ
Ġren4Ġ zhi2Ġ
shou4Ġ sun3Ġ
Ġri4Ġben3 ĠdeĠ
a ch
ĠĠĠ gao1Ġ
ti3 Ġji1Ġ
ju2 Ġshi4Ġ
mian3 Ġyi4Ġ
Ġjia1Ġ ru4ĠleĠ
bao3Ġ jia1
jiao1Ġ jie4Ġ
Ġliu2Ġyu4Ġ mian4Ġji1Ġ
6 Ġmi3Ġ
d uo4Ġ
Ġ cai3Ġ
ĠĠĠ he2
fu2 Ġyin1Ġ
chuan2 Ġdi4Ġ
cha2 Ġer3Ġsi1Ġ
Ġda4Ġ fu1Ġ
fen1Ġ pei4
Ġzh uo1Ġ
yan3Ġ jiang3Ġ
shang1Ġ chang3Ġ
ke4Ġ yun4Ġ
Ġgen1Ġju4Ġ 2020Ġnian2Ġmei3Ġguo2Ġren2Ġkou3Ġpu3Ġcha2ĠdeĠshu4Ġju4Ġ
Ġ lao3
chao2 Ġshi2Ġ
jian3Ġ ce4
dai4Ġbiao3Ġ tuan2Ġ
tui4Ġ xiu1
5 1
w it
jin1Ġ shan1Ġ
Ġshe4Ġ ying3Ġ
wei3Ġyuan2Ġhui4Ġ zhu3Ġxi2Ġ
ĠP Ġ
guang3Ġfan4 ĠdeĠ
yan2Ġshen1 Ġzhi4Ġ
8 Ġge4Ġ
Ġ chuang4
Ġ ji1Ġyu2Ġ
sh i
a1 Ġbu4Ġ
shuo1 ĠdeĠ
hui2 Ġdao4
cun1 ĠdeĠ
Ġshi4Ġ bei4Ġ
Ġshi2Ġ shi1
Ġji1Ġ xie4
Ġdan4 ĠdeĠ
Ġdui4Ġ wai4Ġ
che4Ġ xiao1
fan2Ġ zhi2Ġ
hang2Ġkong1Ġ mu3
3 Ġming2Ġ
T A
qi ao1Ġ
dang4 Ġzuo4Ġ
Ġzhong1Ġ qi1Ġ
Ġjun1Ġ tuan2Ġ
nv3Ġ zhu3Ġjue2Ġ
bian1Ġ jie4
mo2Ġ te4
el Ġ
Ġren2Ġkou3 ĠdeĠ
tou Ġ
O R
er2 Ġtong2
jiu4 Ġbei4Ġ
jing3 Ġyuan2Ġ
199 4Ġnian2Ġ
Ġshi2Ġ you2Ġ
Ġxian4 Ġzhong1Ġ
you2Ġ yong3Ġ
Ġchu1Ġ xi2
Ġde2Ġ wei2Ġ
Ġyou2Ġ xi4ĠdeĠ
gui1Ġ lei4
zheng1Ġ qu3Ġ
Ġhai3Ġ ba2
pei2Ġ xun4Ġ
di1Ġqi4Ġ ya1Ġ
3 9Ġ
Ġ zhui1Ġ
ĠĠĠ tai2Ġwan1Ġ
you3 Ġhe2Ġ
gao1 Ġdi4Ġ
ceng2 Ġbei4Ġ
shui3 ĠdeĠ
dang4 ĠdeĠ
Ġbu4Ġ shi2Ġ
Ġcheng2Ġ li4ĠdeĠ
shen3Ġ pan4Ġ
hu4Ġlian2Ġ wang3Ġ
4 1
Ġ deng1
Ġ gui4Ġ
bian4 Ġshi4Ġ
Ġzhi1Ġ shang4Ġ
luo2Ġ la1Ġ
wei1Ġ xie2
Ġying1Ġ chi3Ġ
duan3Ġ zan4
Window sĠĠĠ
yi2Ġ ci4Ġshi4Ġjie4Ġda4Ġzhan4Ġ
Ġna4Ġ me
huan1Ġ ying2Ġ
Ġ wen1
an4 Ġli4Ġ
ĠĠĠ 4Ġ
ĠĠĠ xiang1Ġgang3
jin4 Ġnian2Ġ
ge2 Ġli3Ġ
chu i2
jiao1 ĠdeĠ
Ġshi4Ġ xi1Ġban1Ġya2Ġ
Ġwei4Ġ wei4Ġ
yi1Ġ yuan4Ġ
li3Ġ lan2Ġ
Ġge4 Ġbu4Ġ
Ġzhou1 Ġli4Ġ
lian2Ġ luo4Ġ
Ġjin4 Ġer2Ġ
Ġli4Ġshi3Ġ xue2Ġjia1Ġ
xiang2Ġ xi4Ġ
a1Ġer3Ġ bei1Ġsi1Ġ
f i
ĠĠĠ chen2Ġ
gu3 Ġji4Ġ
nv3 Ġren2Ġ
sha1 ĠdeĠ
gen1 Ġben3Ġ
Ġgong1Ġ gao4Ġ
Ġguang1Ġ xu4Ġ
zhi2Ġsheng1Ġ ji1Ġ
p eng1Ġ
Ġ ke3Ġneng2
kuo4 Ġjian4Ġ
bu4Ġ tong2Ġ
xuan3Ġ qu1
2Ġ hao4Ġ
sa4Ġ la1Ġ
24Ġ xiao3Ġshi2Ġ
jie4 Ġyou2Ġ
199 1Ġnian2Ġ
si c
Ġhe2Ġ ji4Ġ
Ġyi1Ġ zhong3
qing2Ġ bao4
yi3Ġ se4Ġ
Ġ195 2Ġnian2Ġ
dian4Ġying3 ĠdeĠ
Ġjiang1 Ġxi1Ġ
qu3Ġde2 ĠleĠ
Ġyi4Ġshu4 Ġjia1Ġ
3 Ġnian2ĠdeĠ
Ġ quan2Ġqiu2Ġ
ĠĠĠ dao4
wu3 Ġde2Ġ
bian4 ĠdeĠ
xie3 ĠleĠ
tu2Ġ sha1Ġ
jian4Ġ kang1Ġ
ĠA l
Ġzui4Ġ hou4
Ġjie2 Ġzhi4Ġ202
cai3Ġyong4 ĠleĠ
zhong4Ġdian3Ġ wen2Ġwu4Ġbao3Ġhu4Ġdan1Ġwei4Ġ
jia1Ġli4Ġfu2Ġ ni2Ġya4Ġzhou1Ġ
gu3Ġlao3 ĠdeĠ
an3 ĠdeĠ
pi ng1
bian1 Ġzhi4Ġ
zhuan3 Ġcheng2Ġ
Ġyuan2Ġ ziĠ
kai1Ġ zhan3
ying2Ġ yun4
qian3Ġ ze2Ġ
5 8Ġ
t r
gong1 Ġhe2Ġ
cheng1 Ġshi4Ġ
luo4 Ġke4Ġ
Ġshi2Ġ li4Ġ
Ġguo2Ġ shi2Ġ
Ġyi4Ġ da4Ġ
mei3Ġ tian1Ġ
su1Ġ dan1Ġ
8 4
U S
Ġ zao3
Ġ zeng1Ġ
hua4 Ġshi4Ġ
lai2 Ġke4Ġ
luo4 Ġzai4Ġ
tui1 Ġxing2Ġ
Ġzai4Ġ xiang1Ġgang3Ġ
ji1Ġ chu3
Ġxue2Ġ hui4Ġ
tou2Ġ shou3Ġ
mo2Ġ fa3Ġ
Ġshi4Ġyi1Ġ ke1
Ġfen1Ġ bu4Ġzai4Ġ
Ġ18 Ġ
Ġmian4Ġji1Ġ 0
n c
Ġ xiong1Ġ
jie1 ĠdeĠ
Ġjun1 Ġyou3Ġ
Ġzhi1Ġ hou4ĠdeĠ
tan3Ġ ding1Ġ
Ġbing4Ġqie3 Ġzai4Ġ
k u3
Ġ luo2Ġsi1Ġ
ya4 Ġsi1Ġ
guang3 Ġzhou1Ġshi4Ġ
hui2 Ġjia1Ġ
ju2 Ġbu4Ġ
chong2 Ġjian4
xue2Ġ xi4Ġ
jiao4Ġ lian4
Ġxue2Ġ shu4Ġ
Ġsheng1Ġ cheng1Ġ
yi2Ġ ding4ĠdeĠ
zi1Ġ xun2Ġ
Ġdong1Ġ bei3
dian4Ġying3Ġ jie2Ġ
cheng2Ġli4Ġ hou4Ġ
w a1
Ġ v
da4 Ġyu2Ġ
lu4 Ġyin1Ġ
gong4 Ġji4Ġ
Ġshi4Ġ xing1Ġdeng3Ġwei4Ġ
Ġji2Ġ xian4Ġ
Ġxian4 Ġyu3Ġ
Ġxing2 Ġhe2Ġ
xia4Ġ lai2ĠdeĠ
bao4Ġ zha4
ge1Ġ ge1Ġ
pu3Ġ luo2Ġ
gong4Ġhe2Ġ dang3Ġ
nu2 Ġli4Ġ
Ġ wen1Ġ
Ġ sun1
ĠĠĠ 7
zhuan1 Ġli4Ġ
198 0Ġnian2Ġ
wei2Ġ zhi3Ġ
Ġde2 Ġjun1Ġ
Ġta1Ġ ye3
xin1Ġ jiang1Ġ
yan2Ġjiu1 Ġzhong1Ġxin1Ġ
jia4Ġ gou4Ġ
tiao2Ġ kuan3Ġ
zhu3Ġyao4 Ġshi4Ġ
Ġke3 Ġshi4Ġ
tu2Ġshu1Ġ guan3
s eĠĠĠ
ze2 Ġbei4Ġ
Ġshi2Ġ ke4Ġ
Ġta1 Ġcheng2Ġwei2Ġ
Ġyi3Ġ bei3Ġ
Ġxing2Ġ rong2
xia4Ġ ling4Ġ
fang1Ġ xiang4ĠdeĠ
bei3Ġ bu4ĠdeĠ
tu2Ġ an4Ġ
wei3Ġ tuo1Ġ
ĠÐ °
8 Ġnian2ĠdeĠ
9 2
chang2 Ġbei4Ġ
gu3 ĠdeĠ
lun2 Ġsi1Ġ
ying1Ġ xiong2
oc k
fa3Ġlan2Ġ xi1
t ao1Ġ
ch o
ĠĠĠ Y
pi n4
jiang1 Ġjun1
guan1Ġ kan4Ġ
Ġc ui4
zhuan3Ġ huan4Ġ
Ġda4 Ġbu4Ġfen4
1 10
O M
Ġ bu4Ġzai4Ġ
zh a2
pi n1
jian1 Ġwei4Ġ
ke3 Ġjian4Ġ
ni ao4Ġ
qu3 Ġzi4Ġ
kai1Ġ tong1
zhong3Ġ lei4Ġ
shi3Ġyong4Ġ zhe3Ġ
huang2Ġ jin1Ġ
Ġnian2Ġqing1 ĠdeĠ
duo1 Ġli4Ġya4Ġ
geng4 Ġshi4Ġ
zuo4Ġ zhe3Ġ
Ġbing4 Ġshi4Ġ
wu4Ġ pin3Ġ
a1Ġ fu4Ġ
zhi3Ġ kong4
ge1Ġ shou3
ni2Ġ ao4Ġ
jian3Ġ dan1ĠdeĠ
zhuan3Ġ huan4
Ġpu2Ġtao2Ġ ya2
Ġ sheng1
ĠĠĠ liu2Ġ
zhi1 Ġjia1Ġ
gao4 Ġshi4Ġ
Ġri4 Ġhe2Ġ
nei4Ġ rui4Ġ
qing1Ġ chu3Ġ
gu3Ġ dian3Ġ
Ġzi4Ġ mu3Ġ
Ġshi4Ġshi2Ġ shang4Ġ
sai1Ġer3Ġwei2Ġ ya4Ġ
6 1
Ġ bi3Ġsai4Ġ
deng3 Ġyu2Ġ
ru4 Ġqiu2Ġ
ba1 Ġbu4Ġ
tan2 Ġhe2Ġ
Ġshi4Ġ ying1Ġguo2Ġ
zhu3Ġ ban4Ġ
fu4Ġ shi3Ġ
ge4Ġ zhong3
I DĠ
s eng1
ming2 Ġhe2Ġ
jiu4 Ġzai4Ġ
wang3 Ġyou3Ġ
17 9
Ġda4Ġ qiao2
zhan4Ġ lve4Ġ
Ġzhou1Ġ qi1Ġ
an4Ġ zhao4
Ġtong2 Ġzhi4Ġ
mei2Ġyou3Ġ ren4Ġhe2Ġ
de2Ġ guo2ĠdeĠ
mei3Ġguo2Ġren2Ġkou3Ġpu3Ġ cha2Ġ
N H
Ġ shi1
Ġ liang2
a1 Ġsi1Ġ
suo3 Ġyi3Ġ
ar dĠĠĠ
kuai4 ĠdeĠ
zhi4Ġ du4Ġ
Ġyu2Ġ shi2ĠdeĠren2Ġkou3Ġshu4Ġliang4Ġwei4Ġren2Ġ
fa3Ġ lan2Ġke4Ġ
ye3Ġ sheng1Ġ
tai4Ġ shou3Ġ
Ġhuo4Ġ zhe3
chan3Ġ wu4Ġ
Ġm eng3
Ġ197 0Ġnian2Ġ
shun4Ġ xu4Ġ
ri4Ġben3 ĠdeĠ
Ġlu2Ġ wa3Ġer3Ġsheng3Ġ
bao4Ġfa1 Ġhou4Ġ
zhan4 Ġyou3Ġ
ke4 Ġsi1Ġ
nan2 Ġshi4Ġ
Ġta1 Ġren2Ġ
Ġdao4 Ġzhong1Ġ
er4Ġ shi2Ġnian2Ġ
Ġt i1
Ġshi3Ġ yong4
ke3Ġneng2Ġ xing4Ġ
t uo3Ġ
Ġ zu2
men tĠ
Ġshi2Ġ pin3Ġ
qu1Ġ nei4Ġ
ĠleĠ dui4Ġ
jin1Ġ shu3
shui3Ġ liang4Ġ
Ġshi4Ġjie4 Ġshang4Ġ
Ġ194 1Ġnian2Ġ
si4Ġchuan1Ġ sheng3Ġ
m ai2Ġ
Ġ lao2Ġ
qian2 Ġxian4Ġ
mo n
zhen4Ġ rong2Ġ
shen1Ġ ti3
Ġm a1Ġ
mao2Ġ dun4Ġ
lin2 Ġjin4Ġ
po 3Ġ
Ġwei4Ġ li4Ġ
Ġzai4Ġ fa3Ġguo2Ġ
Ġshi2Ġ da4Ġ
ju4Ġ li2
Ġzhe4Ġ zuo4Ġ
qu3Ġ mu4Ġ
Ġte4Ġ bie2Ġ
Ġwei4Ġyu2Ġgai1Ġguo2Ġ xi1Ġbu4Ġ
shou4Ġhuan1Ġ ying2Ġ
3 7Ġnian2Ġ
¡ Ġ
Ġ chong2Ġxin1Ġ
ĠĠĠ X
lu4 Ġshi4Ġ
200 Ġ
fei1 Ġdan4Ġ
pu3 Ġji2Ġ
zhen1 Ġren2Ġ
ha1 Ġli3Ġ
Ġshi4Ġ ji4Ġzhong1Ġ
jiao4Ġ zong1Ġ
jiang1Ġ hu4
Ġqiu2Ġ dui4
Ġjing3Ġ fang1Ġ
Ġyuan2Ġzhu4Ġ min2Ġ
can1 Ġyi4Ġyuan2Ġ
199 5Ġnian2Ġ
xun2 Ġzhao3
bu3 Ġzhu4Ġ
xi4Ġ jie2Ġ
hai3Ġ nan2Ġ
Ġjian4Ġzhu4Ġ wu4Ġ
fei2 Ġ
t sĠĠĠ
w eng1
y st
Ġ ka3Ġer3Ġ
chuan1 Ġxian4Ġ
Ġzhong1Ġ xin1ĠdeĠ
Ġdi4Ġ yi1Ġwei4Ġ
Ġyou3Ġ liang3Ġ
ji4Ġ zai3Ġ
yu3Ġ mao2
Ġjian4 Ġzai4Ġ
Ġxing2Ġ rong2Ġ
yong4Ġ hu4
qiu2Ġ chang3Ġ
4 7Ġ
s ang4
ĠĠĠ hong2Ġ
zhan3 Ġxian4
Ġli4Ġ tao2Ġ
feng1Ġ ge2ĠdeĠ
pian4Ġ duan4Ġ
jie4Ġquan2Ġguo2Ġ zheng4Ġxie2Ġ
p i4Ġ
Ġ bao1Ġhan2
yuan2 Ġbu4Ġ
jia3 Ġji2Ġ
Ġta1 Ġyu2Ġ
Ġbei4Ġ ren4Ġming4Ġwei4Ġ
guan1Ġ xi4ĠdeĠ
xie2Ġ tiao2Ġ
chi4Ġ jing1Ġ
E C
zhong1 ĠdeĠyi1Ġ
che1 Ġxing2Ġ
Ġzai4Ġ qian2Ġ
sheng1Ġ ge2Ġwei4Ġ
min2Ġ zhong4
lian2Ġ luo4
ge2Ġ la1Ġsi1Ġ
Ġzhu3Ġ ti2Ġ
xuan1Ġ yan2Ġ
Ġ195 4Ġnian2Ġ
Ġyu2Ġ200 5Ġnian2Ġ
ĠR Ġ
Ġyou3Ġxian4 Ġgong1Ġsi1
wang4Ġyuan3Ġ jing4Ġ
5 1Ġ
Ġ ji3
ĠĠĠ you2Ġxi4Ġ
bei4Ġ jing3
dan1Ġ mai4
Ġchu2Ġ ci3Ġzhi1Ġwai4Ġ
± Ġ
ĠĠĠ er4Ġ
shu4 Ġjia1Ġ
qu3 ĠdeĠ
Ġji2Ġ wei2Ġ
Ġda4Ġ xiao3Ġ
Ġyi3Ġ bian4Ġ
Ġyou2Ġ tai4Ġ
Ġjin1Ġ shu3Ġ
4Ġyue4Ġ 1Ġri4Ġ
xuan1Ġ cheng1Ġ
ĠH R
Ġceng2Ġ jing1Ġ
Ġyu2Ġ202 5Ġnian2Ġ
lian2Ġmeng2 ĠdeĠ
i dĠĠĠ
hua4 Ġyu3Ġ
bo1 ĠdeĠ
pian4 Ġzhong1Ġ
la s
dian4Ġshi4Ġ dong4Ġhua4Ġ
bing4Ġ ru4Ġ
Ġ197 5Ġnian2Ġ
zhuan4Ġ xie3Ġ
pai2Ġhang2Ġ bang3
shu i2Ġ
reng2 Ġwei4Ġ
hu1 Ġxi1Ġ
Ġda4Ġ li3Ġ
Ġdui4Ġ xiang4Ġ
tian1Ġ qi4Ġ
bi4Ġ yao4Ġ
pu3Ġ la1Ġ
huo3Ġ che1Ġzhan4Ġ
hen3Ġ da4ĠdeĠ
ruan3Ġ ti3Ġ
Ġchi4Ġ wei3Ġ
ĠĠĠjin3Ġ guan3Ġ
l yĠĠĠ
huo3 Ġli4Ġ
wo3 ĠdeĠ
Ġchu1Ġ chang3Ġ
nong2Ġ chang3Ġ
xu3Ġ ke3Ġ
Ġfu2Ġ lang3Ġ
kua4 Ġyue4Ġ
D S
Ġ qin2
Ġ jie3Ġ
ĠĠĠ m
ĠĠĠ jian3Ġli4Ġ
yi2 Ġdong4
Ġren2Ġ dui4Ġ
sheng3Ġ zhang3Ġ
mei3Ġ xiao3Ġshi2Ġ
huo3Ġ che1Ġ
nuo4Ġ fu1Ġ
ka1Ġ fei1Ġ
h e1Ġ
t yĠ
qi2 Ġshi4Ġ
hai3 ĠdeĠ
mo4 Ġnian2Ġ
ting2 ĠdeĠ
tu1 Ġji1Ġ
wen1 Ġdai4Ġ
si sĠ
Ġzhong1Ġ jiang4Ġ
Ġxing2 Ġren2Ġ
Ġxing2Ġ tai4Ġ
xiao4Ġ lv4Ġ
gan3Ġ ran3
Ġcheng2Ġli4Ġ leĠ
g i
Ġ ë
jie2 Ġshi2Ġ
sheng4 Ġdan4Ġ
du2 ĠdeĠ
198 4Ġnian2Ġ
Ġshi4Ġ e2Ġluo2Ġsi1Ġ
yi4Ġ ming2Ġ
Ġyi3 Ġbu4Ġ
Ġyi1Ġ lang3
Ġdao4Ġ da2
ni2Ġ su1Ġ
cheng1Ġ hu1Ġ
jian3Ġ cha2
ĠdeĠdi4Ġ san1Ġ
Ġ18 0
Ġ6 0
bi3Ġsai4 ĠdeĠ
Ġ193 9Ġnian2Ġ
Ġfei1Ġ lv4Ġ
4 1Ġ
o me
jun4 ĠdeĠ
Ġhe2Ġ shang4Ġ
Ġji2Ġ gong1Ġ
zheng1Ġ fu2Ġ
Ġf eng2
fa1Ġbiao3 ĠdeĠ
8 Ġmi3Ġ
p ao1Ġ
suo3 Ġshi4Ġ
sha1 Ġren2Ġ
lun4 ĠdeĠ
Ġda4Ġ ban3Ġ
Ġchu1Ġ lai2ĠdeĠ
long2Ġ sheng3Ġ
tiao2Ġ jie2Ġ
Ġ194 4Ġnian2Ġ
sp anĠ
4 00
V i
ĠĠĠ jing1Ġli4Ġ
le ĠĠĠ
Ġyin1 Ġer2
Ġbing4Ġ fei1
jiao4Ġ di1Ġ
si4Ġ hu1
dan1Ġ mai4Ġ
ling3Ġ tu3
Ġ19 30Ġnian2Ġ
gen1Ġ sui2Ġ
ĠS AO
Ġtian1Ġ jin1Ġ
Ġmei3 Ġzhou1Ġ
ĠE Ġ
Ġxian4Ġshi2Ġ you2Ġ
4 Ġnian2ĠdeĠ
zhan4 Ġzai4Ġ
na4 Ġer3Ġ
liu4 Ġming2Ġ
ba3 Ġta1Ġ
Ġji2Ġ qi2Ġta1Ġ
Ġguo2Ġ you3Ġ
wu4Ġ ti3Ġ
Ġjin4 ĠleĠ
pai2Ġ lie4Ġ
geng4Ġ da4ĠdeĠ
yin2Ġ jing1Ġ
Ġ194 0Ġnian2Ġ
Ġ17 Ġ
ze2 Ġyou2Ġ
yan3 Ġsheng1Ġ
Ġji2Ġ hui4Ġ
Ġji2Ġ ti3Ġ
Ġqi2Ġ B
fen1Ġ li2
zhi3Ġ ding4
wu3Ġ han4Ġ
yi2Ġ ban4Ġ
ju3Ġ zhen4Ġ
xiu1Ġ ding4Ġ
Ġtian1Ġ jin1
sheng1Ġchan3 ĠdeĠ
Ġli4Ġfa3 Ġhui4Ġ
3 8Ġnian2Ġ
5 4Ġ
7 Ġge4Ġ
E N
zui4 Ġyou3Ġ
Ġdi4Ġ 3Ġ
jiu3Ġ long2
Ġzhe4 Ġshi2Ġ
A L
e e
xu4 ĠdeĠ
zhu3Ġ quan2Ġ
Ġjian4Ġ kang1
jiao1Ġ gei3Ġ
jiang3Ġ jin1Ġ
yin1Ġ su4Ġ
shi1Ġfan4 Ġda4Ġxue2Ġ
nu an3Ġ
Ġji2Ġxing2Ġzheng4Ġ dan1Ġwei4Ġ
K B
ĠĠĠ lin2Ġ
ji4 Ġzhi4Ġ
shui3 Ġdao4Ġ
sheng4 ĠdeĠ
ji1Ġ che1Ġ
bei4Ġ er3Ġ
ĠleĠ zhe4Ġ
ou1Ġ meng2Ġ
ren2Ġmin2Ġ zheng4Ġfu3Ġ
Ġ196 0Ġnian2Ġ
Ġ13 Ġ
Ġyin2Ġ wei3Ġ
0 Ġzuo4Ġbiao1Ġwei4Ġ
g en3
s on
xing2 Ġdong4
xiang4 Ġji1Ġ
zhuang1 Ġwei4Ġ
2019 Ġguan1Ġ
Ġcheng2Ġ yi1Ġ
wei2Ġ er3
Ġdan4 Ġshi4Ġzai4Ġ
qian2Ġ lai2Ġ
dian4Ġ chi2Ġ
Ġren4Ġ ming4Ġ
Ġdan4Ġ zui4Ġzhong1Ġ
liu2Ġ chuan2Ġ
dan1Ġ du2Ġ
Ġwei4Ġyu2Ġ yin2Ġjing1Ġ
tong2Ġ yang4Ġ
yun4Ġ ying2
xiao1Ġ fang2Ġ
ĠT Ġ
Ġjian4Ġzhu4Ġ mian4Ġji1Ġ
Ġqi2ĠB 1900
0Ġzuo4Ġbiao1Ġwei4Ġ chi4Ġjing1Ġ
ĠĠĠ san1Ġ
ĠĠĠ 11Ġyue4Ġ
zhang3 Ġzai4Ġ
bo2 Ġer3Ġ
hu4 Ġwei4Ġ
yin3 Ġli4Ġ
ï¼ İ
Ġshi2Ġ ren4
Ġsi1Ġ zhi2Ġ
fu2Ġ zhuang1Ġ
bian1Ġ zu3Ġ
Ġc ang1
zhong1Ġguo2Ġ da4Ġlu4Ġ
kong4Ġ zhi4ĠdeĠ
Ġ kuai4Ġ
Ġ ke1Ġxue2Ġ
ĠĠĠ ka3Ġ
ĠĠĠ fen1Ġbu4Ġ
xing2 ĠdeĠ
fen1 Ġqi2Ġ
la1 Ġwei2Ġ
zi Ġshi4Ġ
fen4 ĠdeĠ
xian1 Ġwei2Ġ
lun4 Ġshi4Ġ
Ġer2 Ġhou4Ġ
dai4Ġ lai2Ġ
jian1Ġ cha2
ci4Ġ shu4Ġ
tan2Ġ pan4
Ġãĥ ³
jie3Ġfang4 Ġjun1
Ġqing1Ġchao2Ġ zheng4Ġzhi4Ġren2Ġwu4Ġ
5 6Ġ
jiao1 Ġzhan4Ġ
lun2 ĠdeĠ
Ġzai4Ġ you3Ġ
Ġyi1Ġ qie4Ġ
jiao4Ġ da4ĠdeĠ
duo1Ġ zhong3
zui4Ġ zhong4Ġyao4ĠdeĠ
zhong4Ġ liang4Ġ
Ġ16 Ġ
Ġma3 Ġli4Ġ
Ġ guang1
ya4 Ġhe2Ġ
dao3 Ġhe2Ġ
ba1 Ġsi1Ġ
hao4 Ġhe2Ġ
zhong1Ġ hua2Ġmin2Ġguo2Ġ
jian1Ġ chi2Ġ
suo3Ġ wei4ĠdeĠ
jue2Ġ se4ĠdeĠ
jin3Ġ zhang1Ġ
ĠĠĠche1Ġzhan4Ġ gou4Ġzao4Ġ
mu4Ġsi1Ġ lin2
luo4Ġfa2 Ġke4Ġ
O SĠ
er sĠ
lian2 Ġjun1Ġ
shi1 Ġji2Ġ
zao4 Ġxing2Ġ
Ġren2Ġ zhi4Ġ
Ġda4Ġ jie1Ġ
Ġju4Ġ qing2Ġ
ding4Ġ yi4Ġwei4Ġ
Ġxiang1Ġ dang1Ġ
zhen1Ġ zheng4ĠdeĠ
fa1Ġbiao3 ĠleĠ
7 2
y an1
ĠĠĠ shang4Ġ
wu4 Ġbu4Ġ
man4 ĠdeĠ
Ġji2Ġ bie2Ġ
Ġyu3Ġ qi2
Ġ194 2Ġnian2Ġ
Ġ196 6Ġnian2Ġ
A r
Ġ zi1Ġ
fang1 Ġzai4Ġ
nei4 Ġsi1Ġ
ni ang4Ġ
18 0
xie3 Ġwei4Ġ
Ġshi4Ġ tai2Ġwan1Ġ
Ġshi4Ġ lang2Ġ
Ġji2Ġ cheng2Ġ
fa3Ġ lan2Ġxi1Ġ
quan2Ġ ti3Ġ
sai4Ġ guan4Ġjun1Ġ
qing1Ġ xiang4Ġ
ting2Ġ zhi3
Ġhu2Ġ bei3Ġ
2019Ġguan1Ġ zhuang4Ġbing4Ġdu2
Ġ wen2
kang4 Ġzhan4Ġ
Ġyu2Ġ lei2Ġ
mi4Ġ qie4
shun4Ġshi2Ġ zhen1Ġyu3Ġ
4 Ġmi3Ġ
k u1
Ġ ting1Ġ
Ġ wu1Ġke4Ġlan2
Ġ zheng3Ġge4Ġ
ĠĠĠ guo2Ġji4Ġ
shu4 Ġren2Ġ
fang1 Ġxing2Ġ
hua2 ĠdeĠ
198 9Ġnian2Ġ
Ġyi1Ġ shi2Ġ
Ġda4Ġ chen2
zhu3Ġ da3Ġ
fang1Ġ bian4Ġ
dian4Ġ liu2Ġ
jiang1Ġ nan2Ġ
chong2Ġ fan3Ġ
Ġp ao3Ġ
tie1Ġ mu4
u mĠ
er n
lai2 Ġshi4Ġ
you4 Ġyi4Ġ
Ġzhong1Ġ yi1Ġ
Ġyi4Ġ xi2Ġ
Ġxian4Ġ zhang3Ġ
fu4Ġ mu3Ġ
tian1Ġ wen2Ġxue2Ġ
ai4Ġ hao4Ġ
liang2Ġ hao3Ġ
ai4Ġer3Ġ lan2
YouTub eĠ
ĠĠĠ xiao3Ġ
ĠĠĠ ta1ĠdeĠ
zhen4 Ġji2Ġxing2Ġzheng4Ġdan1Ġwei4Ġ
yin2 Ġhe2Ġ
Ġzai4Ġ 193
Ġshi2Ġ san1Ġ
Ġren2Ġ quan2Ġ
Ġda4Ġ dui4Ġ
xiang3Ġ yao4Ġ
Ġ197 6Ġnian2Ġ
Ġ193 5Ġnian2Ġ
mei4 Ġ
Ġguo2Ġfang2 Ġbu4Ġ
Ġao4Ġda4Ġli4Ġ ya4Ġ
ĠĠĠ er2Ġ
ni ao4
199 0Ġnian2Ġ
jiang3 Ġli4Ġ
jia4 ĠdeĠ
rong2Ġ liang4Ġ
chong2Ġ qing4Ġ
Ġan1Ġ hui1Ġ
re4Ġdai4Ġ qi4Ġxuan2Ġ
kang4Ġri4Ġ zhan4Ġzheng1Ġ
Ġ ding1
ĠĠĠ gu3Ġ
sui2 Ġji1Ġ
Ġzai4Ġ cheng2Ġ
xi1Ġ wang4Ġ
Ġyi3Ġ dong1Ġ
jing1Ġ yan4
qian2Ġ shen1Ġ
Ġzhou1Ġ kan1Ġ
Ġm aĠ
kan4Ġ fa3Ġ
Ġsui4 Ġshi2Ġ
Ġ wei1Ġer3Ġ
Ġzhi4Ġ yuan2Ġ
hua4Ġ mian4Ġ
zhu4Ġ shou3Ġ
Ġshang4Ġ ying4Ġ
su4Ġ song4Ġ
tuo1Ġ li2Ġ
Ġren2Ġkou3 Ġwei4Ġ
di2Ġshi4Ġ ni2Ġ
o y
r yĠĠĠ
ĠĠĠ ping2Ġ
xun4 Ġxi1Ġ
Ġzhong1Ġ duan4Ġ
Ġshi2Ġ ba1Ġ
yi4Ġ hui4Ġ
shou3Ġ xian1Ġ
jie1Ġ ti4Ġ
pin3Ġ zhong3Ġ
ol Ġ
Ġ14 Ġ
6 2
Ġ rong2
zu an1Ġ
Ġguo2Ġ an1Ġ
Ġcheng2Ġ du1Ġ
qu1Ġ zhu2Ġjian4Ġ
hua4Ġ gui1Ġ
Ġzhou1Ġ zhang3Ġ
ti3Ġ cao1Ġ
liang3Ġ an4Ġ
zhan3Ġ lan3
Ġ196 8Ġnian2Ġ
shan1Ġmai4 ĠdeĠyi1Ġbu4Ġfen4Ġ
tong2 Ġwei4Ġ
quan2 Ġyi4Ġ
ba1 Ġji1Ġsi1Ġ
jing3 Ġwei4Ġ
Ġyu3Ġ wen2Ġ
Ġzuo4Ġ zhe3Ġ
wai4Ġ lang2Ġ
jiang3Ġ pai2Ġ
qun2Ġ dao3ĠdeĠ
Ġ15 6
Ġzheng4Ġfu3 ĠdeĠ
c u1Ġ
Ġ tai4Ġguo2Ġ
Ġ guang3Ġxi1Ġ
ĠĠĠ zuo4Ġwei2Ġ
dui4 Ġdi4Ġ
liang3 Ġzuo4Ġ
mo4 ĠdeĠ
Ġchu1 Ġbu4Ġ
qu1Ġ bie2Ġ
you2Ġ xi4ĠdeĠ
bao3Ġ xian3Ġ
ji3Ġ nei4Ġ
Ġ16 4
3 000
r in
ĠĠĠ luo2Ġ
ceng2 Ġren4Ġ
bian1 Ġxing2Ġ
fu4Ġ za2Ġ
Ġzhou1Ġ fu4Ġze2Ġguan3Ġxia2Ġ
Ġyou2Ġ zheng4Ġ
xing4Ġ bie2
Ġ17 9
tiao2Ġyue1Ġ ti3Ġxi4Ġ
ĠĠĠ 14
que4 Ġshi2Ġ
Ġshi4Ġ pin2Ġ
Ġzai4Ġ na4Ġ
Ġji1Ġ fen1Ġ
xuan3Ġ min2Ġ
eĠĠĠ S
huo3Ġ zai1Ġ
ĠdeĠshi2Ġ jian1
er v
ji4 Ġbu4Ġ
yu3 Ġdi4Ġ
xing4 Ġming2Ġ
fei1 ĠdeĠ
xiang3 Ġyou3Ġ
Ġren2Ġ yu3Ġ
zi4Ġ wo3Ġ
pai4Ġ qian3
E S
h er
t ai1
u sĠĠĠ
Ġ se4Ġ
te4 Ġshi4Ġ
ke1 Ġli4Ġ
kan4 Ġdao4
hou4Ġ qi1Ġ
Ġyi3Ġ ci3Ġ
you2Ġ ju2
zhu3Ġ dao3Ġ
qian2Ġ feng1Ġ
xiang1Ġgang3 ĠdeĠ
shen1 Ġyu2Ġ
mei2 Ġtong2Ġpai2Ġ
Ġbu4Ġ lu3Ġ
Ġjia1Ġ li3Ġ
Ġwei2Ġ wu2Ġer3Ġ
mian4Ġ xiang4Ġ
su4Ġ du4
qing2Ġ gan3Ġ
shang1Ġ hai4Ġ
xun4Ġ su4
nan2Ġji2Ġ tiao2Ġyue1Ġti3Ġxi4Ġ
3 4Ġnian2Ġ
hou4 Ġta1Ġ
Ġzai4Ġ shang4Ġ
Ġde2Ġ luo2Ġ
Ġn ai4Ġ
Ġda4 Ġbu4Ġfen4Ġ
Ġping2 Ġcheng2Ġ
Ġgai1Ġcun1Ġ shi3Ġjian4Ġyu2Ġ
3 6Ġnian2Ġ
e i
ĠĠĠ wang2Ġ
zheng4 Ġyi4Ġ
jue2 Ġwei4Ġ
luo4 Ġyi1Ġ
Ġzhong1Ġ shan1
yan2Ġ fa1Ġ
tong1Ġ yong4Ġ
lei2Ġ da2Ġ
quan2Ġguo2Ġ zhong4Ġdian3Ġwen2Ġwu4Ġbao3Ġhu4Ġdan1Ġwei4Ġ
re4Ġ dai4
Ġai4 Ġer3Ġ
biao3Ġxian4 Ġchu1Ġ
xia4Ġxia2ĠdeĠyi2Ġge4Ġxiang1Ġ zhen4Ġji2Ġxing2Ġzheng4Ġdan1Ġwei4Ġ
8 9Ġnian2Ġ
U ni
yu2 Ġwei4Ġ
xiang4 Ġwei4Ġ
dian4 Ġdong4Ġ
lu an3
Ġzai4Ġ nei4Ġ
Ġshi2Ġ er4Ġnian2Ġ
sheng1Ġ cheng1Ġ
Ġxi1Ġ te4Ġ
Ġfu4Ġ zhu3Ġxi2Ġ
ti2Ġ qian2Ġ
sha1Ġ bai2Ġ
Ġyou2 Ġqi2Ġ
mo4Ġ qi1Ġ
qi2Ġzhong1Ġ yi1Ġ
3 3Ġnian2Ġ
6 2Ġ
Ġ hei1
ai4 Ġli4Ġ
dong4 Ġgong1Ġ
ze2 Ġyi3Ġ
18 5
ta3 Ġji1Ġ
197 2Ġnian2Ġ
Ġhe2Ġ liu2Ġyu4Ġ
Ġcheng2Ġ gong1ĠdeĠ
Ġyuan2Ġ xian1
hui4Ġ shang4Ġ
zi4Ġ sha1Ġ
bo1Ġ te4Ġ
e4Ġ hua4Ġ
Ġ195 9Ġnian2Ġ
Ġsi1Ġling4 Ġyuan2Ġ
4 Ġming2Ġ
m ai3
si4 Ġwei4Ġ
zhen4 Ġdi4Ġ
nong2 Ġli4Ġ
gong1Ġ min2Ġ
Ġgong1Ġ da3Ġ
Ġcheng2Ġ fen4Ġ
Ġri4 Ġyi3Ġ
Ġyi1Ġ ran2Ġ
Ġji1Ġ ben3
Ġke4 Ġyu3Ġ
lian2Ġ zai3Ġ
Ġzheng4Ġ chang2Ġ
Ġhuo4Ġ cheng1Ġ
Ġp an2Ġ
Ġyin1Ġci3 Ġzai4Ġ
ĠĠĠwei4Ġ leĠ
r ou
Ġ ya3
Ġ si4Ġshi2Ġ
ceng2 Ġyou3Ġ
qu4 ĠdeĠ
Ġshi2Ġ ti3Ġ
Ġyue4Ġ yu3Ġ
Ġda4Ġ qi4Ġ
Ġbing4Ġ bu2Ġshi4Ġ
dang1Ġ xuan3Ġwei4Ġ
Ġhu ang1Ġ
kao3Ġ cha2Ġ
Ġ195 3Ġnian2Ġ
tian1Ġwen2Ġ tai2Ġ
5 3Ġ
a yĠĠĠ
m ao1Ġ
Ġ wa3
wei2 Ġgong1Ġ
199 3Ġnian2Ġ
Ġxing2Ġ hao4Ġ
lai2Ġ kan4Ġ
ti3Ġ yan4Ġ
tou2Ġ ru4
xi2Ġ ji1
xie2Ġ hui4
pi1Ġ pan4Ġ
shao4Ġ nv3
Ġlian2Ġ jie1Ġ
xiao3Ġxing2Ġ xing1ĠdeĠ
min2Ġzu2Ġ zhu3Ġyi4Ġ
kuang1Ġ jia4Ġ
nan2Ġji2Ġtiao2Ġyue1Ġti3Ġxi4Ġ guan3Ġli3Ġ
7 Ġmi3Ġ
a di
h o
Ġ qian1
du i1
hai3 Ġshi4Ġ
shui3 Ġshang4Ġ
ci2 Ġji1Ġ
sa4 Ġke4Ġsi1Ġ
Ġdi4Ġ chan3Ġ
fa3Ġ xue2Ġ
yue1Ġ 1
yan3Ġ hua4Ġ
jiu4Ġ zhi3Ġ
Ġtong2Ġ xing4Ġ
yi2Ġge4 Ġyue4Ġ
gu4Ġ ding4
Ġ15 9
duan3Ġ zan4Ġ
Ġ fan4
ĠĠĠ zhi2Ġye4Ġsheng1Ġya2Ġ
dui4 Ġzhong1Ġ
sheng3 Ġfu4Ġze2Ġguan3Ġxia2Ġ
shi2Ġ yi1Ġ
xi1Ġ la4Ġ
Ġdan4Ġ ye3Ġ
Ġxiang1Ġ bi3Ġ
xi2Ġ guan4Ġ
hui2Ġ da2Ġ
Ġzong3Ġ tong3Ġ
Ġmu3Ġ qin1
Ġji2Ġbei3Ġ mei3Ġ
gen3 Ġdi4Ġ
l eng2Ġ
an ĠĠĠ
yong4 Ġzai4Ġ
wei2Ġ yi1ĠdeĠ
Ġzhi1 Ġli3Ġ
Ġyuan2Ġ li3Ġ
shou3Ġ ling3Ġ
xiang4Ġ bei3Ġ
qi1Ġ jian1ĠdeĠ
Ġqi2Ġ zhong1ĠdeĠ
dian4Ġ che1
fen1Ġ xiao4Ġ
hai3Ġ ba2Ġgao1Ġdu4Ġ
zheng4Ġzhi4Ġ jia1Ġ
Ġs ang1
pei2Ġ xun4
Ġ wei3
Ġ kong1Ġ
yu3 Ġyi4Ġ
jian3 Ġyi4Ġ
Ġhe2Ġ ji1Ġ
Ġyu3Ġ zhou4Ġ
jian1Ġ cha2Ġ
xuan3Ġ xiu4
pu3Ġ lu3Ġshi4Ġ
tong2Ġ meng2
yi3Ġ jing1
dian4Ġshi4Ġ jie2Ġmu4Ġ
chong1Ġ man3Ġ
ĠdeĠgong1Ġ neng2Ġ
Ġ197 2Ġnian2Ġ
pei2Ġ yang3
wei2Ġyi1Ġ yi1Ġ
ĠJ Ġ
r en
s k
mi c
ci4 Ġshi4Ġ
Ġwei4Ġ ji2Ġ
sai4Ġ ting3Ġ
Ġxiang1Ġ si4Ġ
Ġzui4Ġ zao3
Ġ194 3Ġnian2Ġ
Ġbi4Ġ xu1Ġ
fo2Ġ jiao4
3 1Ġnian2Ġ
Ġ yao4
ĠĠĠ wai4Ġbu4Ġ
bei3 Ġji2Ġ
fei1 Ġer3Ġde2Ġ
bing1 ĠdeĠ
ĠdeĠ gu3Ġ
Ġgong1Ġ an1Ġ
Ġyi1Ġ shi1Ġ
Ġdui4Ġ fang1Ġ
zhen4Ġ ya1Ġ
Ġc u4Ġ
tang2Ġ qu1Ġ
Ġren2Ġmin2Ġ zheng4Ġfu3
Ġci3Ġ ci4Ġ
ĠĠĠ199 9Ġnian2Ġ
Ġsh ao1Ġ
ĠĠĠzhong1Ġ hua2Ġren2Ġmin2Ġgong4Ġhe2Ġguo2Ġ
can1Ġsai4Ġ zi1Ġge2Ġ
ya4Ġmei3Ġ ni2Ġya4Ġ
7 2Ġ
h eng1
Ġ sĠ
ĠĠĠ sui1Ġran2
liu2 Ġqiu2Ġ
ren2Ġ kou3Ġwei4Ġ
wei2Ġ ye3Ġ
Ġchu1 Ġyu2Ġ
zhu3Ġ dong4Ġ
nan2Ġ bu4ĠdeĠ
lu4Ġ ying3Ġdai4Ġ
na4Ġ xie1
wang3Ġ wang3
sheng4Ġ mu3Ġ
mo2Ġ ni3Ġ
mie4Ġ jue2Ġ
Ġge4Ġyue4Ġ hou4Ġ
fou3 Ġren4Ġ
1 Ġjia1Ġ
3 9Ġnian2Ġ
or l
Ġhe2Ġ yi4Ġ
Ġguo2Ġ dao4Ġ
yan2Ġ an4Ġ
lu4Ġ duan4Ġ
fen1Ġ bu4Ġzai4Ġ
nei4Ġ ge2
ci2Ġ dian3Ġ
xiu1Ġdao4Ġ yuan4Ġ
Ġ 21
fen1 Ġji2Ġ
jie2 Ġchu1Ġ
Ġta1 Ġyou3Ġ
Ġdao4 Ġde2Ġ
Ġer2Ġ tong2
Ġwei4Ġyu2Ġ zhong1Ġhua2Ġren2Ġmin2Ġgong4Ġhe2Ġguo2Ġ
yin4Ġ ni2
Ġxing2Ġcheng2Ġ leĠ
wen3Ġ ding4ĠdeĠ
tai4Ġyang2 Ġgong1Ġ
t uo2
t ong4Ġ
Ġ geng1Ġ
Ġ jie1Ġwei4Ġ
ĠĠĠ jie2Ġ
ri4 Ġjun1Ġ
shou4 Ġdao4ĠleĠ
ba1 Ġli3Ġ
200 0
luo4 Ġshi2Ġ
Ġyou3Ġ ming2Ġ
ji4Ġ hua4
Ġcheng2Ġ ren4
Ġchu1 Ġnian2Ġ
Ġhou4Ġ zhe3
guan1Ġ guang1Ġ
jiao4Ġ tu2Ġ
yan3Ġ zou4
ban3Ġ quan2Ġ
qi2Ġzhong1Ġ yi2Ġge4Ġ
shui3 Ġzhong1Ġ
xin4 Ġren4Ġ
Ġshi4Ġ cheng2Ġ
Ġbu4Ġ cheng2Ġ
Ġli4Ġ ao4Ġ
dai4Ġ ma3Ġ
te4Ġ shu1
Ġzhe4Ġ yang4
dao3Ġ shi1Ġ
shang1Ġ wu4Ġ
Ġ197 7Ġnian2Ġ
ent erĠ
d o
Ġ bin1Ġ
gai3 Ġjin4Ġ
tui1 Ġli3Ġ
Ġda4Ġ lian2Ġmeng2Ġ
la1Ġ ding1Ġ
Ġzi4Ġ ran2
shen2Ġ sheng4Ġ
Ġyou2 Ġqi2
Ġxing2Ġzheng4Ġ yuan4Ġ
Ġ zhan4Ġhou4Ġ
bao3 Ġhe2Ġ
bai2 Ġren2Ġ
huan2 Ġqiu2Ġ
ĠdeĠ zhi1Ġchi2Ġ
ye4Ġ jian1Ġ
ru4Ġ jing4Ġ
Ġm a2
ju1Ġ liu2Ġ
lian2Ġsai4 ĠdeĠ
Ġhua2Ġ sheng4Ġ
Ġ gan1
ch ai1
ĠĠĠ min2Ġguo2Ġ
ye4 Ġhe2Ġ
si4 Ġren2Ġ
hun1 Ġli3Ġ
Ġzheng4Ġ ce4
su1Ġ ge2Ġlan2
ĠF Ġ
p eng4Ġ
Ġ bu3Ġ
Ġ qiao2Ġzhi4Ġ
ping2 Ġren2Ġ
bei3 ĠdeĠ
chuan2 ĠdeĠ
pian4 Ġren2Ġ
tui1 Ġchu1ĠleĠ
Ġshi4Ġ zhi4Ġ
Ġxing2Ġ shi4ĠdeĠ
fu4Ġ xing1Ġ
dian4Ġ tai2
you4Ġ cheng1Ġ
gui4Ġ zu2
I V
z en3Ġ
Ġ ni2
Ġ tan2Ġ
sh eng2
fang2 Ġxian4Ġ
tu1 Ġran2
Ġdi4Ġ shang4Ġ
Ġdi4Ġ jiu3Ġ
Ġsi1Ġ da4Ġ
zheng4Ġ ce4
suo3Ġ shu3Ġ
Ġdai4Ġ ma3Ġwei4Ġ
jing3Ġ dian3Ġ
li4Ġshi3Ġ shang4Ġ
Ġn uo2Ġ
xiao3Ġshi2Ġ hou4Ġ
Ġ196 4Ġnian2Ġ
Ġxian4Ġshi2Ġyou2Ġ nan2Ġji2Ġtiao2Ġyue1Ġti3Ġxi4Ġguan3Ġli3Ġ
ĠĠĠ che1Ġzhan4
hao4 Ġshi4Ġ
ting2 Ġzhan4Ġ
ding3 Ġji2Ġ
Ġhe2Ġ yuan2Ġ
Ġzhi4Ġ du4
Ġdao4 Ġshi2Ġ
Ġyu3Ġ zhi1Ġ
Ġji4Ġ hua4ĠdeĠ
Ġxian4Ġ xing4Ġ
Ġge4Ġ lei4Ġ
ju4Ġ yuan4Ġ
guan1Ġ lian2Ġ
fa1Ġ jue2Ġ
Ġping2Ġ jie4Ġ
mian4Ġ 2
feng1Ġ fu4ĠdeĠ
Ġzh ou2Ġ
zhen1Ġ cha2Ġ
Ġyu2Ġ200 4Ġnian2Ġ
Ġ193 6Ġnian2Ġ
0Ġnian2Ġdai4 Ġchu1Ġ
Ġ ti2Ġchu1Ġ
ĠĠĠ wu2Ġ
gong1Ġ ji1Ġ
Ġta1 Ġbu4Ġ
te4Ġ ding4
shi1Ġ ti3Ġ
qi3Ġ yuan2Ġyu2Ġ
yi2Ġ mian4Ġ
tou2Ġ xiang2
li2Ġ ba1Ġn
Ġye3 Ġbu4Ġ
ĠdeĠji4Ġ shu4Ġ
tong3Ġzhi4Ġ zhe3Ġ
ĠĠĠ194 5Ġnian2Ġ
Ġcuo4Ġ shi1Ġ
Ġ shou1Ġ
ĠĠĠ wu3Ġ
qi1 Ġyue4Ġ
te4 Ġren2Ġ
jiang3 Ġxue2Ġ
Ġgong1Ġ jiao1Ġ
ju4Ġ ben3Ġ
qian2Ġ ting3
10Ġyue4Ġ 1Ġri4Ġ
du1Ġ cha2Ġ
Ġ195 1Ġnian2Ġ
guan1Ġfei4Ġyan2Ġ que4Ġzhen3Ġbing4Ġli4Ġ
U N
Ġ si3Ġ
ĠĠĠ yin1Ġyue4Ġ
lu4 Ġyin1Ġshi4Ġ
man4 Ġdi4Ġguo2Ġ
zheng3 Ġli3Ġ
Ġshi4Ġ chu1Ġ
Ġzai4Ġ li4Ġ
shu4Ġ ju4
Ġqi2Ġ xia4ĠdeĠ
lun4Ġ tan2Ġ
zao4Ġ chuan2Ġ
Ġ8 0
Ġzai4Ġdi4Ġ yi1Ġ
fa1Ġbu4Ġ leĠ
ruan3Ġ tiao2Ġ
ĠĠĠzhe4Ġ ke1Ġ
3 2Ġnian2Ġ
Y Ġ
f eng3Ġ
Ġ jie1
ĠĠĠ huo4Ġ
jian4 Ġshe4
sheng1 Ġhe2Ġ
ze2 Ġxi1Ġ
ting1 Ġdao4Ġ
zeng1 Ġshe4Ġ
zhui1 Ġqiu2Ġ
Ġzai4Ġ ta1
Ġzai4Ġ ren2Ġ
Ġyou3Ġ guan1ĠdeĠ
Ġyi1Ġ er3Ġ
zhu3Ġ liu2Ġ
Ġzai4Ġ200 8Ġnian2Ġ
âĪ Ĵ
Ġ di1Ġ
ri4 Ġzhi4Ġ
jiao1 Ġyou2Ġ
bei1 ĠdeĠ
Ġcheng2Ġ zuo4Ġ
zui4Ġ di1Ġ
zong3Ġ shu1Ġji4Ġ
bian4Ġ huan4Ġ
jing3Ġ qu1Ġ
tong2Ġ meng2Ġ
3Ġ hao4Ġ
ĠA n
zha4 Ġdan4Ġ
Ġxiang1Ġdang1 Ġyu2Ġ
l i1Ġ
ĠĠĠ zhang1Ġ
ji2 Ġzhong1Ġxue2Ġ
sheng3 Ġhui4Ġ
geng4 Ġgao1Ġ
le4 Ġyuan2Ġ
ku4 Ġer3Ġ
Ġshi4Ġ xia4Ġxia2ĠdeĠyi2Ġge4Ġxiang1Ġzhen4Ġji2Ġxing2Ġzheng4Ġdan1Ġwei4Ġ
Ġren2Ġ li4Ġ
Ġcheng2Ġ jiu4Ġ
Ġyu3Ġ zhou4
Ġqi2 Ġzhi4Ġ
hua4Ġ ru4Ġ
feng1Ġ bao4
jiang3Ġ shu4Ġ
zhuan1Ġ yong4Ġ
ol spanĠ
Ġ10 0Ġ
ĠÐ ¾
P S
w a2
ĠĠĠ Ð
ĠĠĠ fen1Ġlei4Ġ
liu2 Ġdong4Ġ
tu r
jiang4 Ġji2Ġ
miao2 Ġhui4Ġ
Ġjun1 Ġren2Ġ
Ġdan4Ġ mei2Ġyou3Ġ
xiao3Ġ jie3Ġ
shu1Ġ niu3Ġ
bo2Ġ ge2Ġ
yan2Ġjiu1 ĠdeĠ
zhuang1Ġ bei4
ĠdeĠshi4Ġ jie4
ĠU Ġ
a z
xiang4 Ġyu2Ġ
tong1 Ġxing2Ġ
luo4 Ġyu2Ġ
xie1 Ġer3Ġ
qiu1 Ġji4Ġ
ji4Ġ shu4
wei2Ġ chi2
Ġge4 Ġguo2Ġjia1Ġ
Ġyi3Ġ bian4
Ġjian4 Ġdao4Ġ
Ġbei4Ġ ren4Ġwei2Ġ
dong1Ġ qu1Ġ
bo2Ġ la1Ġ
Ġt ao4
zhuang4Ġ tai4
Ġyin1Ġwei4Ġ ta1Ġ
E T
b i1
Ġ zi3Ġ
ĠĠĠ aĠĠĠ
ke1 Ġjin4Ġshi4Ġ
10 00Ġ
xuan1 Ġshi4Ġ
Ġgong1Ġ she4Ġ
ji1Ġ hui4Ġ
qu1Ġ fu4Ġze2Ġguan3Ġxia2Ġ
Ġjia1Ġ qiang2Ġ
nan2Ġ mei3Ġzhou1Ġ
chuan2Ġ shuo1
Ġc ong1
ĠM ar
Ġ197 3Ġnian2Ġ
an n
shi3 Ġyu2Ġ
min2 Ġyi4Ġ
chu ang3Ġ
da4Ġ xing2Ġ
xue2Ġ ke1Ġ
shan1Ġ hu2Ġ
nv3Ġ wang2Ġ
liang3Ġ ce4Ġ
mi4Ġ su1Ġli3Ġ
wu2Ġxian4Ġ dian4Ġ
Ġhei1Ġ long2Ġjiang1Ġ
Ġhe2Ġdao4Ġ quan2Ġzhang3Ġ
Ġ shu4
ĠĠĠ zheng1Ġyi4Ġ
zhi3 Ġchu1
fan3 Ġji1Ġ
yuan3 ĠdeĠ
Ġzai4Ġ dang1Ġshi2Ġ
Ġbei4Ġ bu3Ġ
Ġnan2Ġ xing4Ġ
ĠI ST
ĠdeĠji1Ġ chu3
dong1Ġbu4Ġ shi2Ġqu1Ġ
ye2 Ġer3Ġ
ĠĠĠjie2 Ġzhi4Ġ
guo2Ġwu4Ġ yuan4Ġ
Ġ bang1Ġzhu4Ġ
yu3 Ġzhong1Ġguo2Ġ
zui4 Ġchu1ĠdeĠ
tuo1 Ġer3Ġ
Ġhe2Ġ zhi4Ġ
ren2Ġ yuan2Ġ
gong1Ġ ye4Ġ
ben3Ġ ke1Ġ
dong1Ġ ce4Ġ
sha1Ġ tian2Ġ
xing2Ġ zheng4
Ġf ei2
zhi3Ġhui1 Ġbu4Ġ
t en
Ġ du4
Ġ chao1Ġguo4Ġ
qi a4
jiang1 Ġyu2Ġ
duo1 Ġsi1Ġ
ci3 Ġdi4Ġ
lin2 Ġzhong1Ġ
can1 Ġyi4Ġ
can1 Ġyi4Ġyuan4Ġ
qian1 Ġming2Ġ
jiu3 Ġshi2Ġ
guang3 Ġyi4Ġ
198 6Ġnian2Ġ
liu4 Ġshi4Ġ
di4Ġ guo2Ġ
Ġbei4Ġ jing3
ke3Ġ yong4Ġ
hua2Ġ xue3Ġ
dou1Ġ mei2Ġyou3Ġ
gang1Ġ qin2Ġ
Ġ197 4Ġnian2Ġ
la1Ġsi1Ġ jia1Ġ
oc i
8 8Ġ
c ai1Ġ
Ġ lei4Ġ
Ġ biao1Ġ
xi1 Ġxian4Ġ
zong3 Ġsi1Ġling4Ġ
tu2Ġ jing4Ġ
bao1Ġkuo4 Ġyi3Ġxia4Ġ
luo4Ġ te4Ġ
mi4Ġ qie4Ġ
Ġzhu3Ġ zhang1Ġ
Ġshi4Ġyi1Ġ zuo4
Ġhu n2
zhun3Ġ que4Ġ
ĠE STĠ
gong1Ġyuan2Ġ qian2Ġ
Ġ mao2
Ġ yan1Ġ
le sĠĠĠ
dai4 Ġwei4Ġ
te4 Ġgong1Ġ
fu2 Ġji2Ġ
chun1 Ġji4Ġ
te dĠĠĠ
Ġyi1Ġ ran2
Ġqi2 Ġyu3Ġ
qu1Ġ dong4Ġ
ju4Ġ feng1
zhang1Ġ dan1Ġqu1Ġ
tiao2Ġ mu4Ġ
she4Ġ ying3Ġ
hen3Ġ shao3Ġ
xi4Ġtong3 Ġzhong1Ġ
shou1Ġshi4Ġ lv4Ġ
ai1Ġna4Ġ sheng3Ġ
Ġ sheng3Ġ
xi1 Ġyu2Ġ
jian4 ĠdeĠ
ke4 Ġli3Ġsi1Ġ
lu4 Ġhe2Ġ
Ġde2 Ġhe2Ġ
zhong3Ġ zu2
zong3Ġ ling3Ġshi4Ġ
ying1Ġ bang4Ġ
dong4Ġ hua4
dou1Ġ ke3Ġyi3Ġ
Ġzai4Ġ201 2Ġnian2Ġ
I R
Ġ yu2
Ġ jiao3Ġ
ĠĠĠ 9
dui4 Ġli4Ġ
ren4 Ġzhi1Ġ
nv e4
zhi2Ġ jing4Ġ
bei3Ġ hai3Ġdao4Ġ
jiao1Ġ gei3
lv4Ġ hua4Ġ
miao2Ġ hui4
Ġ zong1Ġ
Ġ lian4Ġ
Ġ fan1Ġ
en dĠ
li3 Ġren2Ġ
guang1 ĠdeĠ
xiang4Ġ nan2Ġ
xiang4Ġ liang4Ġ
Ġzhan4Ġ ling3
zhong1Ġguo2Ġ da4Ġlu4ĠdeĠ
chuan1Ġ guo4Ġ
Ġn i4Ġ
Ġdang1Ġ di4ĠdeĠ
Ġshi4Ġyi1Ġke1 Ġwei2Ġrao4Ġ
Ġ shu1
Ġ tian2
ao4 Ġke4Ġ
yu3 Ġwei4Ġ
li3 Ġshi2Ġ
sheng3 Ġli4Ġ
liang3 Ġda4Ġ
rong2 ĠdeĠ
zhuang1 ĠdeĠ
guan1Ġ zhong4
jie2Ġ lun4Ġ
can1Ġjia1Ġ le
Ġ15 0
Ġyou4 Ġyi4Ġ
tian1Ġwen2Ġ xue2Ġjia1Ġ
jue2Ġdui4Ġ xing1Ġdeng3Ġwei4Ġ
ping1 Ġp
jie4Ġquan2Ġguo2Ġzheng4Ġxie2Ġ wei3Ġyuan2Ġ
3 ĠĠĠ
8 0Ġnian2Ġ
Ġ guan3Ġli3Ġ
jin1 Ġsi1Ġ
dang1 Ġri4Ġ
ying2 Ġli4Ġ
biao1 Ġshi4Ġ
you1 Ġhui4Ġ
Ġzhong1Ġ yuan2Ġ
Ġgong1Ġ chang3
Ġcheng2Ġ zhang3Ġ
Ġxing2Ġ xing1Ġ
zi4Ġ shen1Ġ
guan1Ġ zheng4Ġ
sheng4Ġ jing1Ġ
Ġben3Ġ tu3Ġ
fang2Ġ wu1
Ġl ang4Ġ
4 9Ġ
di u1Ġ
chuan2 Ġyuan2Ġ
you3Ġ yi4Ġ
Ġyou3Ġ xu3Ġduo1Ġ
shou3Ġ ren4Ġ
Ġzhou1Ġ bian1
yin1Ġ ci3Ġ
can1Ġ guan1Ġ
ke3Ġneng2 ĠdeĠ
ĠE DTĠ
Ġ5Ġ diao4Ġkuai4Ġyi1Ġxiao3Ġshi2Ġ
hun4Ġ ning2Ġ
Ġji2Ġbei3Ġmei3Ġ dong1Ġbu4Ġshi2Ġqu1Ġ
tai4Ġyang2Ġgong1Ġ zhuan4ĠdeĠxiao3Ġxing2Ġxing1Ġ
Ġshi4Ġyi1Ġke1Ġwei2Ġrao4Ġ tai4Ġyang2Ġgong1Ġzhuan4ĠdeĠxiao3Ġxing2Ġxing1Ġ
8 2
Ġ dou4Ġ
han2 Ġyi4Ġ
Ġcheng2Ġ nuo4Ġ
ben3Ġ zhan4Ġ
fu2Ġ wu4ĠdeĠ
Ġch a1Ġ
Ġ197 1Ġnian2Ġ
xiao3Ġxing2Ġxing1ĠdeĠ jue2Ġdui4Ġxing1Ġdeng3Ġwei4Ġ
l ou4
ĠĠĠ wen2Ġhua4Ġ
xin1 Ġjian4Ġ
te4 Ġzai4Ġ
liang4 Ġji2Ġ
nv3 Ġer2
ling3 Ġdui4Ġ
zhuan1 Ġyuan2Ġ
Ġhe2Ġ yu3Ġ
Ġzhong1Ġ wen2
Ġli4Ġ xue2Ġ
Ġzhi1 Ġchu1Ġ
ti2Ġ cai2Ġ
Ġk u3Ġ
wan1Ġ qu1Ġ
ĠH Ġ
niu2 Ġsi1Ġ
en1 Ġsi1Ġ
men tĠĠĠ
he2Ġ liu2Ġ
Ġzhong1Ġ li4Ġ
Ġxi1Ġ ce4Ġ
duo1Ġ xiang4Ġ
Ġjing1Ġ guo4
Ġmei3 Ġyuan2Ġ
Ġxiang4Ġ mu4Ġ
ĠĠĠzhe4Ġke1Ġ xiao3Ġxing2Ġxing1ĠdeĠjue2Ġdui4Ġxing1Ġdeng3Ġwei4Ġ
yong4 Ġdi4Ġ
yun4 Ġzai4Ġ
wan4 Ġping2Ġfang1Ġmi3Ġ
chan3Ġ liang4Ġ
Ġc ao1Ġzuo4Ġ
zu2Ġ lian2Ġ
zhuan1Ġ ji2ĠdeĠ
Ġtong2Ġnian2Ġ 12Ġyue4Ġ
ĠĠĠ199 8Ġnian2Ġ
miao4 Ġyu3Ġ
ne4Ġ sheng3Ġ
ace bo
she4 Ġji2Ġ
wei1 Ġli4Ġ
198 7Ġnian2Ġ
hun1 Ġyin1
Ġshi4Ġ yi3
Ġshi4Ġ xia4Ġ
Ġbu4Ġ duan4
zhen4Ġ wang2Ġ
ĠdeĠyi1Ġ xiang4Ġ
zhui1Ġsu4 Ġdao4Ġ
zu3Ġcheng2 Ġbu4Ġfen4Ġ
Ġ chi2Ġ
ĠĠĠ 13
ĠĠĠ guan1Ġyu2Ġ
hu ang3Ġ
xin1 Ġyi1Ġ
lai2 Ġer3Ġ
zhong3 ĠdeĠ
han4 Ġguo2Ġ
sheng1Ġ ren4Ġ
zhan4Ġ lve4
Ġzuo4Ġ qu3Ġ
Ġt i4
qu3Ġ jue2Ġyu2Ġ
Ġzhi2 Ġli4Ġ
Ġ16 0
p eng1
Ġ xian3Ġshi4Ġ
Ġ fen1Ġwei2Ġ
qian2 Ġxi1Ġ
guo4 Ġhou4Ġ
00 Ġping2Ġfang1Ġqian1Ġmi3Ġ
tu n1Ġ
Ġzai4Ġ dui4Ġ
Ġyi1Ġ yang4
Ġdao4 Ġji2Ġ
wei2Ġ chi2Ġ
jing1Ġ du1Ġ
gao1Ġ xiao4Ġ
zui4Ġ hou4ĠdeĠ
ci3Ġ tian1Ġti3Ġ
Ġshe4Ġ shi1
shen1Ġ ru4Ġ
qing1Ġ zhen1Ġ
ĠdeĠyi1Ġ tiao2Ġ
mo2Ġ tuo1Ġ
bing1Ġ tuan2Ġ
que4Ġ ren4
Ġ zai4
ĠĠĠ guo2Ġ
ĠĠĠ quan2Ġ
ĠĠĠ 5Ġ
ben3 Ġzhi4Ġ
ni2 Ġxi1Ġya4
man3 Ġyi4Ġ
Ġshi4Ġ xin1Ġ
Ġyi1Ġ xiang4Ġ
shang4Ġ ying4ĠdeĠ
ping2Ġ heng2Ġ
shi1Ġ zhang3Ġ
chang2Ġ an1Ġ
zong3Ġ ju2Ġ
Ġzh ai1Ġ
Ġ196 9Ġnian2Ġ
Ġshi4Ġwu4Ġ suo3Ġ
ge1Ġlun2Ġ bi3Ġya4
C A
ĠĠĠ zao3Ġqi1Ġ
xia4 Ġshi4Ġ
tong2 Ġzhi4Ġ
ke1 Ġyi1Ġsheng1Ġ
zong1 ĠdeĠ
yan2Ġ xu4
Ġdan4 Ġbei4Ġ
jie1Ġ guan3Ġ
ge2Ġ lei2Ġ
bao3Ġ an1Ġ
zong3Ġ e2Ġwei4Ġ
da3Ġ suan4
tui1Ġ guang3
6 0Ġnian2Ġ
8 3Ġnian2Ġ
Ġ ming2Ġwei4Ġ
Ġ zu3Ġcheng2Ġ
Ġ ze2Ġshi4Ġ
ch an2
ĠĠĠ ge4Ġ
dui4 Ġshi4Ġ
fu4 Ġyu2Ġ
sheng4 Ġyu2Ġ
cha2 Ġde2Ġ
Ġwei4Ġ guo2Ġ
Ġyou3Ġ xiao4
Ġda4Ġ duo1
Ġyuan2Ġ lai2Ġ
Ġyi3Ġ wai4ĠdeĠ
Ġsi1Ġ dun4Ġ
xiang4Ġ dong1Ġ
Ġbing4Ġ wu2Ġ
er4Ġ bai3Ġ
zi1Ġ xun4
da2Ġ ni2Ġ
wan2Ġcheng2Ġ leĠ
1 Ġri4
Ġ du2Ġli4Ġ
Ġ lie4Ġche1Ġ
ben3 Ġdi4Ġqu1Ġ
zi Ġli3Ġ
fu3 Ġzhi1Ġfu3Ġ
xia2 ĠdeĠ
Ġnian2 Ġshi4Ġ
Ġwei4Ġ xin1Ġ
Ġta1Ġmen Ġshi4Ġ
ĠA r
pei2Ġ chang2Ġ
Ġjian3Ġ cheng1
Ġ193 3Ġnian2Ġ
Ġyu2Ġ18 9
NB AĠ
fei1Ġxing2 Ġyuan2Ġ
A l
y ĠĠĠS
Ġ zu2Ġ
fa3 Ġer3Ġ
mei3 Ġli4Ġ
zhan3 Ġchu1Ġ
sui2 Ġzhi1Ġ
197 6Ġnian2Ġ
in u
geng1 Ġming2Ġ
dai4Ġ ling3
shu1Ġ xie3Ġ
liang3Ġ tiao2Ġ
she4Ġ jiao1Ġ
bai3Ġ xing4Ġ
ĠĠĠt oĠĠĠ
Ġ you3
Ġ gong4Ġtong2Ġ
Ġ shan1Ġxi1Ġ
nan2 Ġxi1Ġ
ba1 Ġming2Ġ
cai2 ĠdeĠ
lun2 Ġli3Ġ
Ġjian4 Ġzhong1Ġ
san1Ġ jiao3Ġ
guan3Ġ kong4
qian1Ġ yin3Ġ
heng2Ġ xing1
Ġ195 7Ġnian2Ġ
bi3Ġli4Ġ niu2Ġsi1Ġ
Ġji2Ġtuan2 Ġjun1Ġ
Ġ nuo4
Ġ kan1Ġ
Ġ 22Ġ
ĠĠĠ yin1Ġwei4Ġ
qu1 Ġzhong1Ġ
dai4 Ġdao4Ġ
zhuan3 Ġhui4Ġ
lei1 Ġsi1Ġ
pa4 Ġer3Ġ
Ġshi2Ġ bei4Ġ
Ġdi4Ġ 2
Ġzheng4Ġ ju4Ġ
Ġfu4Ġ mu3Ġ
qing1Ġ dao3Ġ
Ġxiang1Ġ guan1ĠdeĠ
ke3Ġyi3Ġ tong1Ġguo4Ġ
ĠdeĠyi1Ġ ci4Ġ
tu1Ġ po4
duan3Ġ pian4Ġ
Ġyu2Ġ200 0Ġnian2Ġ
guang3Ġbo1 Ġgong1Ġsi1Ġ
c on
Ġ xĠ
Ġ gui4Ġzhou1Ġ
xing2 Ġren2Ġ
mei3 Ġzhong1Ġbu4Ġ
Ġyuan2Ġ qu1Ġ
Ġjun1 Ġyi3Ġ
Ġzhi1Ġ qian2ĠdeĠ
zhun3Ġ jue2Ġsai4
Ġceng2 Ġzai4Ġ
li3Ġshi4Ġ zhang3Ġ
jiao1Ġyi4Ġ suo3Ġ
jie4Ġquan2Ġguo2Ġ ren2Ġmin2Ġdai4Ġbiao3Ġda4Ġhui4Ġ
jiang4Ġyu3Ġ liang4Ġ
Ġ bie2Ġ
ru4 Ġyu4Ġ
qing1 Ġdai4Ġ
shui3 Ġyu2Ġ
dang3 Ġbu4Ġ
tian1Ġ shi3Ġ
Ġn ai4
zeng1Ġ qiang2
ĠdeĠgong1Ġ si1Ġ
Ġ196 5Ġnian2Ġ
Ġao4Ġ men2Ġ
chang4Ġpian4 Ġgong1Ġsi1Ġ
Ġsu2Ġ cheng1Ġ
c e
zao1 Ġdao4
Ġyi4Ġ mei3Ġguo2Ġren2Ġ
xi1Ġ zang4Ġ
Ġde2 Ġyi4Ġzhi4Ġ
zhu3Ġ jue2
fang1Ġ an4
Ġci3Ġ wai4
yan2Ġjiu1Ġ suo3
Ġn u3
oun dĠ
t uo4
t ar
ĠĠĠ jian4Ġ
si1 Ġdi4Ġli4Ġ
te4 Ġsi1Ġ
ba1 Ġyue4Ġ
cheng1 ĠdeĠ
mu3 Ġsi1Ġte4Ġ
qing4 Ġxia4Ġ
Ġwei4Ġ si1Ġ
Ġwei4Ġ mei3Ġguo2Ġ
Ġge4 Ġge4Ġ
suo3Ġ zai4ĠdeĠ
ge2Ġ lin2Ġ
Ġju4Ġ ben3Ġ
Ġju4Ġ ti3Ġ
Ġt uo4Ġ
liang3Ġ zhong3
ĠdeĠyi1Ġ jia1Ġ
di3Ġ ceng2Ġshui3Ġyu4Ġ
Ġdi4Ġshi2Ġ san1Ġ
Ġsan1 Ġyue4Ġ
ĠdeĠzuo4Ġ yong4Ġ
ping1Ġp ang1
6 1Ġ
Z Ġ
Ġ chao1Ġ
Ġ zeng1Ġjia1Ġ
Ġ 23Ġ
ti2 Ġwei4Ġ
ĠdeĠ qing2Ġkuang4Ġxia4Ġ
Ġshi4Ġ yin4Ġdu4Ġ
bu4Ġ fen4
Ġdi4Ġ yu4Ġ
Ġyi3Ġ ji2Ġzai4Ġ
you2Ġ ke4Ġ
fa1Ġ sheng1Ġyu2Ġ
ru4Ġ kou3
Ġben3Ġ zhan4Ġ
xun4Ġ hao4Ġ
ĠĠĠ199 7Ġnian2Ġ
ĠdeĠji1Ġ chu3Ġ
Ġa1Ġer3Ġ bei1Ġsi1Ġ
Ġtun2 Ġqi2Ġ
y n
Ġ dao3Ġyan3Ġ
ĠĠĠ yu4Ġ
ĠĠĠ ri4Ġ
yuan2 Ġren2Ġmin2Ġbi4Ġ
zhang3 Ġji2Ġ
Ġshi4Ġ chang3
Ġhe2Ġ jin1Ġ
Ġxi1Ġ fa3Ġ
Ġzhou1 ĠdeĠyi2Ġge4Ġshi4Ġzhen4Ġ
zhuan1Ġ qu1Ġ
Ġ19 27Ġnian2Ġ
Ġzhong1Ġyang1 Ġjun1Ġ
Ġzai4Ġ200 9Ġnian2Ġ
Ġshang4Ġhai3 Ġshi4Ġ
Ġ gei3
Ġ duan4Ġ
Ġ zao3Ġ
Ġ zun1Ġ
Ġ XĠ
an1 Ġzhi4Ġ
ping2 Ġxian4Ġ
zhang1 Ġshi4Ġ
wei1 ĠdeĠ
ha1 Ġli4Ġ
Ġhe2Ġ chang4Ġ
wu4Ġ zi1Ġ
xiang1Ġ xin4Ġ
ying1Ġ cun4Ġ
yue1Ġ se4Ġfu1Ġ
Ġzi4Ġ ci3Ġ
chuan2Ġ mei2
Ġte4Ġ lie4Ġ
liang2Ġ hao3ĠdeĠ
you1Ġ xian1Ġ
dan4Ġ shui3Ġ
zhong4Ġyao4Ġ xing4Ġ
a ngĠ
Ġ zan4Ġ
hui4 Ġyu2Ġ
chu ang1
mi3 Ġer3
30 Ġfen1Ġ
fu4Ġ nv3Ġ
Ġke4 Ġjia1Ġ
Ġjin4 Ġxing2ĠdeĠ
dong1Ġ ya4Ġ
bian4Ġ hua4
Ġnan2Ġ jing1
eĠĠĠ M
ĠdeĠshi4Ġ qing2Ġ
chu3Ġ jue2Ġ
Ġn u
Ġsui2 Ġji2Ġ
ĠJ RĠ
yin4Ġdi4Ġ an1Ġna4
a f
ã Ĥ
Ġ xiong1Ġya2Ġli4Ġ
ĠĠĠ huang2Ġ
ĠĠĠ dao4Ġ
zuo4 Ġzai4Ġ
198 5Ġnian2Ġ
liu4 Ġyue4Ġ
xie4 Ġer3Ġ
zu an4Ġshi2Ġ
ĠdeĠ xing2Ġshi4Ġ
Ġshi2Ġ yi1Ġnian2Ġ
Ġji2Ġ er3
Ġyi4Ġ bei4Ġ
Ġji4Ġ hou4Ġ
Ġbei4Ġ ke4Ġ
tai2Ġ zhong1Ġshi4Ġ
tong1Ġ xin4
ye3Ġ mei2Ġyou3Ġ
tai4Ġ kong1
Ġm Ġ
long2Ġ ke1Ġ
huo3Ġ pao4Ġ
xun2Ġ fu3Ġ
lian2Ġsai4Ġ guan4Ġjun1Ġ
Ġta1Ġceng2 Ġdai4Ġbiao3
ting2Ġche1Ġ chang3Ġ
M P
f li
Ġ shan1
10 00
Ġqi2Ġ fu4Ġ
jin1Ġ xiang4Ġ
tian1Ġ zhu3Ġjiao4
Ġxia4Ġ wu3Ġ
chen2Ġ mo4Ġ
zhuan3Ġ bian4Ġ
Ġzhi2 Ġdao4
ĠG Ġ
cao3Ġ an4Ġ
6 6Ġ
Ġ hui1Ġ
Ġ reng2Ġ
zhi2 Ġyu2Ġ
fu1 Ġsi1Ġ
shao3 ĠdeĠ
zhui1 Ġji1Ġ
ĠdeĠ hou4Ġ
Ġshi4Ġ zui4Ġ
Ġwei4Ġ jing1Ġ
yi4Ġ qi3Ġ
Ġyuan2Ġ zi4
Ġshang4Ġ shu4Ġ
zu3Ġ xian1Ġ
xiao1Ġ shou4
Ġqi2Ġzhong1Ġ bao1Ġkuo4
Ġyi3Ġji2 Ġzhong1Ġguo2Ġda4Ġlu4ĠdeĠ
mei3Ġzhong1Ġbu4Ġ shi2Ġqu1Ġ
S S
Ġ zu3Ġzhi1Ġ
Ġ bing3Ġ
zhong1 Ġnian2Ġ
ming2 Ġyu2Ġ
jun1 Ġzhu3Ġ
ze2 Ġer3Ġsheng3Ġ
ha1 Ġde2Ġ
shi2Ġ qi1
Ġyi1Ġ liao2
Ġer2Ġ wen2Ġming2Ġ
lai2Ġ yuan2Ġyu2Ġ
te4Ġ ding4ĠdeĠ
tian1Ġ xia4Ġ
Ġju4Ġ jue2
xuan3Ġ shou3
ke1Ġ huan4Ġ
guang1Ġ pu3Ġ
Ġcong2Ġ ci3Ġ
Ġyu2Ġ200 3Ġnian2Ġ
Ġ196 1Ġnian2Ġ
ic k
8 5Ġ
8 6Ġ
Ġ xi2Ġ
Ġ qu4Ġ
ming2 Ġcheng2Ġ
yao4 Ġzai4Ġ
ni ang2
que4 Ġli4Ġ
huan2 Ġyuan2Ġ
Ġwei4Ġ cheng2Ġ
Ġzhou1Ġ bian1Ġ
wang3Ġ lai2Ġ
Ġt ai1
cai2Ġ neng2
Ġshi4Ġyi1Ġ jia1Ġ
tuo1Ġ ma3Ġsi1Ġ
Ġhu an1Ġ
ĠC STĠ
ĠC DTĠ
Ġlai2Ġ zi4
Ġ6Ġ diao4Ġkuai4Ġyi1Ġxiao3Ġshi2Ġ
Ġji2Ġbei3Ġ mei3Ġzhong1Ġbu4Ġshi2Ġqu1Ġ
9 Ġnian2ĠdeĠ
Ġ xi3Ġ
qiang2 Ġda4Ġ
196 0Ġnian2Ġ
Ġren2Ġ bei4Ġ
Ġzhi4Ġ jin1
ben3Ġ tu3
Ġzhan4Ġ tai2Ġ
zhi3Ġ neng2
wang2Ġ guo2ĠdeĠ
Ġduo1Ġ ci4Ġ
ou1Ġ meng2
yin4Ġ du4ĠdeĠ
chi3Ġ cun4Ġ
6 7Ġ
Ġ yan2Ġjiu1
Ġ rui4Ġshi4Ġ
ji1 Ġshi2Ġ
19 30Ġnian2Ġ
xiang4 Ġhe2Ġ
qi1 Ġzhi4Ġ
jiao4 Ġyou3Ġ
mei2 Ġer3Ġ
wei3 ĠdeĠ
luo4 Ġhou4Ġ
li4Ġ shi3
Ġsi1Ġ fa3
Ġxi1Ġ er3
zhe4Ġ yang4Ġ
suo3Ġ zhang3Ġ
Ġzuo4Ġ ye4Ġ
Ġqiu2Ġ bi3Ġsai4Ġ
na4Ġ yang4Ġ
Ġxiang1Ġ guan1
wei3Ġ nei4Ġrui4Ġ
zheng4Ġzhi4Ġ ju2Ġ
Ġ196 2Ġnian2Ġ
ĠN Ġ
Ġ193 1Ġnian2Ġ
Ġ jue2
Ġ lian2Ġhe2Ġguo2Ġ
ying1 Ġer2Ġ
pei4 Ġyue4Ġ
Ġdi4Ġ ming2Ġ
ji1Ġ bai4Ġ
sheng1Ġ zhang3Ġ
Ġbing4 Ġcheng2Ġwei2Ġ
shou3Ġ ge1Ġqu3Ġ
zhi2Ġ dao3ĠdeĠ
zhi2Ġ bang4
du4Ġ guo4Ġ
guang3Ġ dong1
duan3Ġ pian1Ġ
ĠĠĠ199 1Ġnian2Ġ
Ġda4 Ġzhi4Ġ
5 000
f a4
m an2Ġ
Ġ zhu4
shi2 Ġshi4Ġji4Ġ
suo3 Ġbu4Ġ
qi3 Ġshi4Ġ
xuan3 ĠdeĠ
Ġwei2Ġ qi1Ġ
feng1Ġ suo3Ġ
Ġzh uo1
bo2Ġ gen3Ġdi4Ġ
Ġt ou
luo4Ġ bai4Ġ
ling2Ġ gan3Ġ
zheng3Ġ ti3
Ġ9 0
hu2Ġbei3Ġ sheng3Ġ
yan2Ġhai3Ġ sheng3Ġfen4Ġ
hong1Ġzha4 Ġji1Ġ
6 8Ġ
8 3
ĠĠĠ gai1Ġdi4Ġ
19 20Ġnian2Ġ
liu2 Ġshi4Ġ
bao4 Ġfu4Ġ
jiao3 ĠdeĠ
Ġgong1Ġ dian4Ġ
zhan4Ġ shu4Ġ
xing4Ġ ge2Ġ
tian1Ġ huang2
guan3Ġ li3ĠdeĠ
ti2Ġ an4Ġ
xie2Ġ zhu4
pi2Ġ fu1Ġ
cha1Ġ ju4Ġ
ying3Ġxiang3 ĠdeĠ
Ġzai4Ġ201 4Ġnian2Ġ
ĠÃ ©Ġ
Ġqi1 Ġxi1Ġ
an1Ġhui1Ġ sheng3Ġ
ya4Ġmei3Ġ ni2Ġya4
7 1
a ge
p en1
Ġ te
ĠĠĠ ying1Ġguo2Ġ
cheng2 Ġwei4Ġ
ma3 Ġqi2Ġ
jin1 Ġri4
Ġzai4Ġ jin1Ġ
Ġhe2Ġ shui3Ġ
Ġshi2Ġ jian4Ġ
Ġdi4Ġ er4Ġshi2Ġ
Ġgong1Ġ li4Ġ
Ġjia1Ġ la1
ge2Ġ luo2Ġ
Ġyou2Ġ tai4Ġren2Ġ
Ġzhe4Ġ xiang4Ġ
si4Ġ chuan1
Ġhuo4Ġ wu4Ġ
Ġxia4Ġ lai2Ġ
ĠL Ġ
ĠĠĠ199 4Ġnian2Ġ
zhu3Ġjiao4Ġ lian4Ġ
zhuan3Ġyi2 Ġdao4Ġ
m anĠ
Ġ zao4Ġ
Ġ shi2Ġnian2Ġ
ĠĠĠ mei3Ġ
shu4 Ġge4Ġ
shi1 Ġshi4Ġ
dang1 Ġdai4Ġ
di2 Ġsi1Ġ
hen3 Ġnan2Ġ
Ġhe2Ġ kou3Ġ
Ġyu2Ġ yi1Ġ
yu3Ġ yan2
Ġyi1Ġ lu4Ġ
sheng1Ġ wu4
Ġjia1Ġ qiang2
tong1Ġ chang2Ġshi4Ġ
Ġdong4Ġ wu4
Ġ19 28Ġnian2Ġ
Ġqi1Ġ jian1
Ġzai4Ġ201 3Ġnian2Ġ
gong4Ġhe2Ġ dang3
diao1Ġ xiang4Ġ
mou2Ġ sha1Ġ
sheng1 Ġbu4Ġ
yu4 Ġwei2Ġ
la1 Ġke4
gu3 Ġcheng2Ġ
pu3 ĠdeĠ
geng4 Ġda4Ġ
huan4 Ġyou3Ġ
cheng2Ġ wei2
Ġji2Ġ ke3Ġ
Ġli4Ġ chang3Ġ
Ġyi3 Ġzhi1Ġ
sheng1Ġ ming4
fen1Ġ lan2
luo2Ġ xuan2Ġ
huo4Ġ zhe3Ġ
qu1ĠdeĠ fu4Ġze2Ġguan3Ġxia2Ġ
Ġ ju1Ġ
hu an3
pu3 Ġer3Ġ
Ġshi4Ġ yi2Ġ
Ġyu3Ġ yuan2Ġ
Ġxian4Ġ ming2Ġ
fen1Ġ zu3Ġ
feng1Ġ xian3
bo2Ġ lin2
hang2Ġ tian1
xin4Ġ tu2Ġ
zhou1Ġ bian1
tie3Ġ lu4ĠdeĠ
ran2Ġ liao4Ġ
Ġ7 0
hun4Ġ luan4Ġ
Ġshi4Ġjian4 ĠdeĠ
5 7Ġ
I D
Ġ Ù
ĠĠĠ te4Ġzheng1Ġ
guo4 ĠleĠ
18 4
du2 Ġzi4Ġ
di4Ġ fang1Ġ
Ġli4Ġ yu2Ġ
Ġji1Ġ guan1
Ġer3 Ġxi1Ġ
Ġjun1Ġ zhu3Ġ
deng3Ġ dai4Ġ
Ġdang1 Ġri4Ġ
Ġt ou1Ġ
jian3Ġ cheng1Ġ
wei1Ġ bo2Ġ
xiang3Ġ ying4Ġ
Ġran2Ġ hou4Ġzai4Ġ
zhang4Ġ fu1
wan3Ġ jian1Ġ
Ġzai4Ġ201 1Ġnian2Ġ
Ġa1 Ġli3Ġ
ĠdeĠfu4Ġ qin1Ġ
Ġz eng4Ġ
Ġ gui3
ĠĠĠ tong2Ġnian2Ġ
wen2 Ġji2Ġ
qian2 Ġwei4Ġ
che1 Ġshi4Ġ
xiao3 Ġyu2Ġ
bo1 Ġyin1Ġ
qian1 Ġzheng4Ġ
tu re
liang2 ĠdeĠ
194 9Ġnian2Ġ
lv3 Ġyou2
Ġshi4Ġ yong4Ġyu2Ġ
Ġer3 Ġbei4Ġ
ren4Ġ zheng4Ġ
Ġchu1Ġ kou3
Ġjian4Ġ dui4
ĠI Ġ
Ġzhi2 Ġxing2Ġ
diao1Ġ su4Ġ
a1Ġgen1Ġ ting2Ġ
G B
o sĠ
Ġ chao1Ġji2Ġ
yi4 ĠdeĠshi4Ġ
de2 Ġyi4Ġzhi4Ġ
fu1 Ġsi1Ġji1Ġ
lei1 ĠdeĠ
Ġxing2Ġ chai2
Ġjun1Ġ dui4
Ġbing4Ġ huo4Ġde2Ġ
1Ġ hao4
6Ġnian2Ġ 1Ġyue4Ġ
ying4Ġ yong4Ġyu2Ġ
ting1Ġ zhang3Ġ
Ġg a1Ġ
kuang4Ġ wu4Ġ
dan4Ġ bai2Ġ
Ġ196 7Ġnian2Ġ
wu4Ġli3Ġ xue2Ġjia1Ġ
pao3 Ġdao4Ġ
sheng3Ġdao4Ġ tai2Ġ
laySta tionĠĠĠ
8 1
r ang3
s an3
Ġ qu3
ĠĠĠ mu4Ġ
ĠĠĠ ke1Ġ
ĠĠĠ sha1Ġ
ĠĠĠ tang2Ġ
tong2 Ġxue2Ġ
huang2 Ġshi4Ġ
ĠdeĠ gao1Ġ
Ġshe4 Ġzai4Ġ
jiao4Ġ shao3Ġ
bei3Ġ mei3Ġ
Ġzh e1Ġ
zheng1Ġ duo2Ġ
du2Ġ zhe3Ġ
sĠĠĠ of
en1Ġ lai2Ġ
huo2Ġ xing4Ġ
wan3Ġ qi1Ġ
Ġmu3Ġ qin1Ġ
5 8Ġnian2Ġ
t on
Ġ peng2
Ġ yin4Ġdu4
ji1 Ġli4Ġ
gu3 Ġsi1Ġ
Ġshi2Ġ xing2
Ġda4Ġ zheng4Ġ
zhu4Ġ ming2
Ġsheng1Ġ tai4Ġ
Ġyin1Ġwei4Ġ ta1
pai1 Ġshe4ĠdeĠ
po1 Ġer3Ġ
Ġ lu3
sh ai1Ġ
zuo4 Ġyi3Ġ
liu2 Ġcheng2Ġ
dian3 Ġxing2Ġ
ce4 Ġwei4Ġ
198 2Ġnian2Ġ
Ġyi1Ġ kai1Ġshi3Ġ
Ġjian4 Ġguo2Ġ
jia4Ġ shi3
Ġguo2Ġjia1 Ġgong1Ġyuan2Ġ
lv3Ġke4Ġ tie3Ġdao4Ġ
Ġyuan2Ġyin1 Ġshi4Ġ
jia1Ġru4 Ġzhong1Ġguo2Ġgong4Ġchan3Ġdang3Ġ
5 Ġming2Ġ
Ġ sai1
Ġ chao2Ġxian1
qu1 Ġxian4Ġ
na4 Ġxi1Ġ
Ġren2Ġ sheng1Ġ
Ġer2 Ġyi3Ġ
Ġchu1Ġ sai4Ġ
Ġer2Ġ zhe4Ġ
tian1Ġ zhu3Ġ
yi2Ġ qi4Ġ
eĠĠĠ C
Ġshi3Ġ mi4Ġsi1Ġ
mian3Ġ dian1
cu4 Ġjin4
cong1 Ġ
t ang1
Ġ ya3Ġ
zh ui4
ĠĠĠ 12Ġyue4Ġ
jian4 Ġdui4Ġ
wu3 ĠdeĠ
bao3 Ġshi2Ġ
ceng2 Ġyu3Ġ
zhu1 Ġshi4Ġhui4Ġ
zeng1 Ġzhi4Ġ
Ġyi1Ġ lang3Ġ
Ġqi2Ġ ziĠ
Ġm ao3Ġ
bian1Ġ qu1Ġ
fang4Ġ song4Ġ
cun2Ġ chu3Ġ
kong3Ġ long2Ġ
Ġzhan1Ġ mu3Ġsi1Ġ
Ġ di3Ġ
ĠĠĠ jiao4Ġyu4Ġ
yu3 Ġji2Ġ
jiu3 Ġyue4Ġ
Ġbu4Ġ zhi1Ġ
Ġshi2Ġ liu4Ġnian2Ġ
Ġda4Ġ zhan4Ġ
quan2Ġ wei1Ġ
mei3Ġguo2Ġ zong3Ġtong3Ġ
nv3Ġ shen2Ġ
yan3Ġ jing1Ġ
li2Ġ hun1Ġ
huan4Ġ xiang3Ġ
Ġxian4ĠdeĠ fei1Ġjian4Ġzhi4Ġdi4Ġqu1Ġ
Ġk an3Ġ
Ġ193 4Ġnian2Ġ
pen2 Ġdi4Ġ
sang4 Ġsheng1Ġ
7 7Ġ
Ġ mo
Ġ long2
Ġ bu2Ġshi4Ġ
Ġ hou4Ġzai4Ġ
ĠĠĠ pu3Ġ
yi2 ĠdeĠ
Ġcheng2Ġ dan1Ġ
shou3Ġ du4Ġ
qi1Ġ xi1Ġdi4Ġ
zui4Ġ hao3ĠdeĠ
xin4Ġ yong4Ġ
jun1Ġ guan1Ġ
Ġshi4Ġwei4Ġyu2Ġ wu1Ġke4Ġlan2Ġ
yao2Ġ gun3
wen3Ġ ding4
ĠdeĠyi4Ġ siĠ
Ġzai4Ġ201 5Ġnian2Ġ
hu2Ġnan2Ġ sheng3Ġ
M V
b eg
r ao2Ġ
Ġ tai2
Ġ lei1Ġ
ĠĠĠ for
ming2 Ġzai4Ġ
jin4 Ġdai4Ġ
gao1 Ġer3Ġ
jie4 Ġxian4Ġ
jiao1 Ġfu4Ġ
la r
xia2 Ġshi4Ġ
ji1Ġ chang3
Ġda4Ġ da4Ġ
Ġjia1Ġ su4Ġ
Ġzhi1Ġ dui4Ġ
ren4Ġ ke3Ġ
Ġxia4Ġ ling4Ġ
Ġben3Ġ pian4
Ġgai1Ġ zhuang1Ġ
yi2Ġge4 Ġren2Ġ
rou4 Ġshi2Ġxing4Ġ
ban1Ġjiang3Ġ dian3Ġli3Ġ
8 8Ġnian2Ġ
Ä ģ
Ġ zuo3
Ġ yi1Ġnian2Ġ
Ġ gu1Ġ
ĠĠĠ h
fen1 Ġzhi4Ġ
liu2 Ġyu4
ceng2 Ġyu2Ġ
you4 Ġzai4Ġ
xie3 Ġcheng2Ġ
Ġzhi4Ġ ci3Ġ
Ġyou3Ġ liang3Ġge4Ġ
Ġyi1Ġ duan4Ġ
xi1Ġ la4
xia4Ġ xun2Ġ
jiao4Ġ xiao3Ġ
tai2Ġ nan2Ġ
jie1Ġ shou1
Ġzai4Ġ200 7Ġnian2Ġ
qu1Ġyi4Ġhui4Ġ xuan3Ġju3Ġ
wen2Ġhua4Ġda4Ġ ge2Ġming4Ġ
D R
g en
n an4
Ġ qu3Ġde2Ġ
jia1 Ġji2Ġ
xin1 Ġji1Ġ
zui4 Ġjin4ĠdeĠ
kai1 Ġyuan2Ġ
ci3 Ġzhan4Ġ
pai4 Ġren2Ġ
hao2 Ġwu2Ġ
Ġyi1Ġ ci4
Ġle Ġzai4Ġ
ren4Ġ qi1Ġ
Ġshang4Ġ zhen4Ġ
zu3Ġ zhi3
ha1Ġ la1Ġ
kao3Ġ gu3
Ġbu4Ġfen4 ĠdeĠ
Ġao4 Ġsi1Ġ
que4Ġzh en3Ġ
Ġzhan4Ġdou4 Ġji1Ġ
a1Ġji1Ġ tan3
5 6Ġnian2Ġ
Ġ zhen1Ġdui4Ġ
ĠĠĠ shui3Ġ
wu3 Ġgong1Ġ
pi1 Ġfu4Ġ
Ġnian2Ġ hou4Ġ
Ġyi4Ġ bai3Ġ
xin1Ġ qu1Ġ
nan2Ġ fei1Ġ
fa1Ġ hui1Ġ
te4Ġ se4
mian4Ġ qian2Ġ
fu1Ġ lei1Ġ
Ġhu n4
xu3Ġ ke3
Ġjin3Ġ ci4Ġyu2Ġ
Ġhuo4Ġde2 Ġdi4Ġ
Ġw ang1Ġ
R e
d sĠ
Ġ te4
Ġ zhuan1
Ġ ling2
ming2 Ġzhong1Ġ
shang4 Ġji2Ġ
er4 Ġming2Ġ
pu3 Ġli3Ġ
shen2 Ġshe4Ġ
qu4 ĠleĠ
fang4 Ġshe4Ġ
hen3 Ġyou3Ġ
ĠdeĠ ji2Ġ
qi1Ġ tu2Ġxing2Ġ
chang2Ġ gui1Ġ
guo2ĠdeĠ te4Ġyou3Ġ
Ġs uo1
ĠĠĠM o
Ġ196 3Ġnian2Ġ
ic ros
f o
o kĠ
ĠĠĠ xing2Ġ
hua4 Ġgong1Ġ
yang2 Ġzhou1Ġ
sha1 Ġshi4Ġ
ju4Ġ bei4Ġ
lai2Ġ wang3Ġ
jiu3Ġ dian4
Ġtong2Ġnian2Ġ 10Ġyue4Ġ
zhu3Ġjiao4Ġ zuo4Ġ
fan2 Ġmang2
Ġfou3Ġ ze2Ġ
7 5Ġnian2Ġ
S M
Ġ yun4Ġ
Ġ xie2Ġzhu4Ġ
Ġ cui1Ġ
Ġ xu2
200 0Ġ
shui3 Ġyuan2Ġ
han4 ĠdeĠ
ya1 Ġsuo1Ġ
cao3 Ġyuan2Ġ
Ġwei4Ġ ta1Ġ
Ġdi4Ġ xing2Ġ
Ġge4Ġ di4ĠdeĠ
zhu3Ġ ti3Ġ
jie2Ġ hun1
kou3Ġ hao4Ġ
ya4Ġ ke1Ġ
Ġshe4Ġ xian2Ġ
chuan2Ġ shu1Ġ
xian4Ġ xiang4Ġ
fang2Ġ shou3Ġ
ĠdeĠshi4Ġ jian4Ġ
Ġ193 2Ġnian2Ġ
Ġchang2Ġ qi1Ġ
Ġzai4Ġ201 8Ġnian2Ġ
xiang4Ġmu4 ĠdeĠ
ji4Ġsuan4 Ġji1Ġ
A G
guo2 Ġwei4Ġ
hou4 Ġyi3Ġ
sheng3 Ġren2Ġmin2Ġzheng4Ġfu3Ġ
fei4 Ġer3Ġ
Ġer2 Ġyuan2Ġ
Ġhui4Ġ dao3Ġzhi4Ġ
hua4Ġ fen1Ġ
gao1Ġ shan1Ġ
ti2Ġ sheng1
ke3Ġyi3 Ġshi4Ġ
Ġyu3Ġmao2 Ġqiu2
6 3Ġ
g nĠ
Ġ xiao3Ġshi2Ġ
dian4 Ġyuan2Ġ
can1 Ġmou2
fang4 Ġzhi4Ġ
Ġzai4Ġ na4Ġli3Ġ
wen2Ġ ben3Ġ
pei4Ġ jue2Ġ
Ġyou4Ġ cheng1
dong3Ġshi4Ġ hui4Ġ
Ġhong1 Ġzha4
Ġ fa1Ġxian4
Ġ 20Ġshi4Ġji4Ġ
Ġ bi3Ġde2Ġ
ĠĠĠ jin4Ġ
duo1 Ġjia1Ġ
qi3 Ġdong4
wan4 Ġming2Ġ
16 0
da4Ġ hui4Ġ
Ġji2Ġ zhong1Ġzai4Ġ
Ġyi1Ġ qie4
Ġdao4Ġ fu1Ġ
Ġxi1Ġ bei3
zhu3Ġ chang3
xiang1Ġ xin4
an1Ġ da3Ġ
man4Ġ hua4
pei2Ġ yang3Ġ
ĠĠĠ199 5Ġnian2Ġ
a tionĠ
Ġ xue1Ġ
zhong4 Ġren2Ġ
guang1 Ġxue2Ġ
gan3 Ġdao4
Ġyue4Ġ nan2
Ġyu3Ġ xin1Ġ
Ġjia1Ġ er3Ġ
Ġtong2 Ġwei4Ġ
shou4Ġ ming4Ġ
Ġm an2Ġ
chu1Ġban3 ĠdeĠ
fa1Ġxian4ĠleĠ ci3Ġtian1Ġti3Ġ
fa3Ġlan2Ġxi1 Ġda4Ġqu1Ġ
e mĠ
i de
Ġ jian1
Ġ hui4Ġyi4Ġ
zhong4 Ġyi4Ġyuan4
you4 Ġbei4Ġ
ar dĠ
Ġri4 Ġshi2Ġ
Ġli3Ġ ao4Ġ
ping2Ġ gu1Ġ
dian4Ġ lu4Ġ
ying1Ġ wu3Ġ
ĠdeĠgong1Ġ ji1Ġ
Ġyu2Ġ200 2Ġnian2Ġ
Ġzai4Ġ201 7Ġnian2Ġ
su1Ġwei2Ġ ai1
jing4Ġwai4Ġ shu1Ġru4Ġ
Ġ ou3
197 9Ġnian2Ġ
sen1 ĠdeĠ
Ġshi4Ġ bi4Ġ
Ġzai4Ġ dang1Ġdi4Ġ
Ġle Ġqi2Ġ
xin1Ġ zeng1
xia4Ġ wei1Ġ
Ġdan4 Ġwei4Ġ
Ġyou2Ġ ke4Ġ
quan2Ġ shu4Ġ
yin3Ġ qing2
can1Ġ kao3
nong2Ġ cun1
pan4Ġ duan4Ġ
Ġgai1 Ġdi4Ġ
icros of
N et
f ĠĠĠ
ĠĠĠ ai4Ġ
dong1 Ġri4Ġben3Ġ
bei3 Ġping2Ġ
chan3 ĠdeĠ
lv4 Ġbu4Ġ
âĢ ĭ
gao4 Ġzhi1Ġ
Ġshi4Ġ yong4Ġ
Ġhe2Ġ jia1Ġ
Ġer2 Ġde2Ġming2Ġ
xiang1Ġ hu4
jiao1Ġ qu1Ġ
Ġma3Ġ la1Ġ
ye2Ġ lu4Ġ
lie4Ġche1 ĠdeĠ
Ġchu1Ġban3 Ġshe4Ġ
kun1 Ġming2Ġ
Ġwei4Ġji1Ġ chu3Ġ
huo2Ġyue4Ġ yu2Ġ
ta3Ġni2 Ġda4Ġqu1Ġ
5 7Ġnian2Ġ
Ġ kai1Ġfa1Ġ
ĠĠĠ shi3Ġ
zhu3 Ġren2Ġ
hua4 Ġcheng2Ġ
ku ang2
lv 2Ġ
chen2 Ġji1Ġ
hang2 Ġxing2Ġ
si on
Ġshi4Ġ pin2
li4Ġ liang4Ġ
Ġshi2Ġ you3Ġ
xue2Ġ zhe3
Ġxi1Ġ bei3Ġbu4Ġ
Ġchu1Ġ zi4Ġ
kai1Ġ ye4Ġ
mu4Ġ shi1Ġ
hai3Ġ guan1Ġ
Ġzhe4Ġ shi3ĠdeĠ
e2Ġ wai4Ġ
xiao4Ġ guo3
fen1Ġbie2 Ġshi4Ġ
zong1Ġyi4Ġ jie2Ġmu4Ġ
g ong3
ĠĠĠ she4Ġji4Ġ
zheng4 Ġsi1Ġ
zhou1 Ġwei2Ġ
yue1 ĠdeĠ
bai3 Ġren2Ġ
Ġzai4Ġ hou4Ġ
Ġbu4Ġ lan2Ġ
guan1Ġ dian3
ci3Ġ ci4Ġ
shui3Ġ ku4
huo4Ġ bi4Ġ
zhao4Ġ gu4Ġ
ya2Ġ chi3Ġ
xuan2Ġ zhuan3Ġ
Ġyu2Ġ200 1Ġnian2Ġ
Ġbei3Ġqi3Ġ shun4Ġshi2Ġzhen1Ġyu3Ġ
U R
l y
Ġ sai4
Ġ tong3Ġ
ji1 Ġxing2Ġ
xue2 Ġji2Ġ
fa1 Ġxing2ĠleĠ
guan1 Ġzhi4Ġ
wu3 Ġli4Ġ
ding1 Ġmu4Ġ
Ġji4Ġ gong1Ġ
jie1Ġ tou2Ġ
jin1Ġ pai2
Ġsheng1Ġ ming4Ġ
er4Ġ yang3Ġhua4Ġ
am p
ow Ġ
Ġshi2Ġjian1 Ġwei4Ġ
xun2Ġhui2Ġ sai4Ġ
8 5Ġnian2Ġ
9 Ġshi2Ġ
p an1
Ġ hai3Ġjun1Ġ
yang2 ĠdeĠ
Ġshi4Ġ cong2Ġ
Ġxing2 Ġzhong1Ġ
fu4Ġ gai4Ġ
yi2Ġ chuan2Ġ
gu3Ġ dong1Ġ
qiang2Ġ hua4Ġ
Ġb a4Ġ
Ġceng2Ġ jing1
xue4Ġ ye4Ġ
ba1Ġfa2 Ġli4Ġya4
e or
Ġ an4
Ġ gei3Ġ
tong2 Ġshi4Ġ
can1 Ġzheng4Ġ
yin3 Ġjin4Ġ
Ġshi2Ġ qi4
sheng1Ġ xiao4Ġ
jing1Ġ fei4Ġ
wai4Ġ jie4Ġ
jie4Ġ sai4Ġshi4Ġ
mo2Ġ ni3
ye2Ġlu4Ġ sa1
E M
s ch
t a4Ġ
wei2 Ġli4Ġ
Ġji2Ġ ju4Ġ
Ġguo2Ġ zhong1Ġ
Ġcheng2Ġ xiang4Ġ
Ġda4Ġ liang4ĠdeĠ
Ġji4Ġ shu4ĠdeĠ
Ġzhi1Ġ lu4Ġ
jing1Ġ ti3Ġ
Ġjian4Ġ li4ĠdeĠ
ke3Ġ qian2Ġwang3Ġ
shan1Ġ ding3Ġ
Ġzhe4Ġ chang3Ġ
jian3Ġ dan1
huo3Ġ xing1Ġ
zai1Ġ nan4Ġ
gou1Ġ tong1Ġ
ba4 Ġgong1Ġ
pai2Ġhang2Ġ bang3Ġ
7 0Ġnian2Ġ
8 Ġshi2Ġ
a dĠ
Ġ á
Ġ zhen4
Ġ tao2
Ġ bei1Ġ
sh e1Ġ
chu1 Ġxian4Ġzai4Ġ
fa1 ĠleĠ
tong2 Ġbu4Ġ
ti2 Ġshi4Ġ
gai3 Ġzhi4Ġ
tui1 Ġjin4
cao3 Ġdi4Ġ
kou3Ġ jing4Ġ
gu3Ġ dian3
Ġp ao3
Ġyi4Ġsi Ġshi4Ġ
1 30
7 6Ġ
T e
Ġ ying4Ġ
Ġ hang2Ġ
Ġ nei4Ġrong2Ġ
le i3Ġ
jiang1 Ġwei2Ġwu2Ġer3Ġ
zui4 Ġxing2Ġ
liang4 Ġhe2Ġ
xu4 Ġshi4Ġ
ju3 Ġxing2ĠleĠ
ya1 Ġzhi4Ġ
Ġyi4Ġ miao2Ġ
shang4Ġ fa3Ġlan2Ġxi1Ġda4Ġqu1Ġ
Ġxi1Ġ nan2Ġbu4Ġ
Ġshe4 Ġxian4Ġ
Ġming2Ġ que4Ġ
Ġwei2Ġ yi1ĠdeĠ
jiao1Ġ huan4
qiang2Ġ lie4ĠdeĠ
ĠdeĠming2Ġ cheng1Ġ
beng1 Ġk
ĠĠĠ k
bei4 Ġyi1Ġ
zhu4 ĠleĠ
nei4 Ġshe4Ġyou3Ġ
zhong4 Ġyi4Ġyuan4Ġ
wu2 Ġyi4Ġ
fan3 Ġshe4Ġ
di4Ġ er4
Ġbing4Ġ dui4Ġ
zhi3Ġ ze2Ġ
Ġgao1Ġ xiong2
zeng1Ġ jia1
ĠĠĠwei4Ġ yu2Ġ
ĠĠĠ ying3Ġxiang3Ġ
hu ai4Ġ
ke4 ĠdeĠ
fu3 ĠdeĠ
xi1Ġ wang4
Ġqi2 Ġyi4Ġ
Ġdan4 Ġyin1Ġwei4Ġ
zhi2Ġ ze2Ġ
Ġdan4Ġ shui3Ġ
dang1Ġ ju2
dan4Ġ bai2Ġzhi4Ġ
Ġge2Ġ lan2Ġ
chu3Ġli3Ġ qi4Ġ
Ġgong1Ġzuo4 Ġren2Ġyuan2Ġ
juan1Ġ zeng4Ġ
can2 Ġji2Ġren2Ġ
6 5Ġnian2Ġ
e2 ĠdeĠ
ai4 Ġhe2Ġ
ao4 Ġdi4Ġ
hui4 Ġwei4Ġ
sheng1 Ġri4Ġ
yan2 Ġxian4Ġ
qi4 Ġshi4Ġ
liang3 Ġbu4Ġ
tu2 Ġer3Ġ
hu1 Ġyu4
zu an3Ġ
Ġshi2Ġ yi4Ġ
Ġgong1Ġ shang1Ġ
Ġjin4 Ġping2Ġ
bei3Ġ ce4Ġ
zhong4Ġ shang1Ġ
jie3Ġ chu2Ġ
she4Ġ ji4ĠdeĠ
xue4Ġ tong3Ġ
biao1Ġzhun3 ĠdeĠ
Ġ xiang1
Ġ si
ĠĠĠ an1Ġ
yun4 Ġhui4Ġ
zhen1 Ġjun1Ġ
hu2 ĠdeĠ
kuai4 Ġji4Ġ
Ġzhong1Ġ ji2Ġ
guan1Ġ yin1Ġ
jian1Ġ chi2
lai2Ġ wu4Ġ
zu2Ġ zi4Ġzhi4Ġqu1Ġ
huo4Ġ yun4Ġ
mian3Ġ fei4
7 1Ġnian2Ġ
Ġ xiong2
ju an1
yong4 Ġyi3Ġ
ze2 Ġer3Ġ
gu4 Ġyi4Ġ
bin1 Ġxi1Ġfa3Ġ
shi2Ġ dai4Ġ
Ġji2Ġ yu2Ġ
Ġli4Ġ cheng2Ġ
Ġta1 Ġyi4Ġ
sha1Ġ hai4
xuan1Ġ gao4Ġ
ĠĠĠA r
9 Ġmi3Ġ
Ġ la1
Ġ zhu2
fu4 Ġchu1Ġ
zhen4 Ġxian4Ġ
qi4 Ġzhong1Ġ
fan4 ĠdeĠ
xu1 Ġqiu2
Ġhou4Ġ fang1Ġ
wei1Ġ ni2Ġsi1Ġ
Ġgai1Ġ wu4Ġzhong3ĠdeĠ
Ġgai1 Ġgong1Ġsi1Ġ
Ġzai4Ġ200 5Ġnian2Ġ
mo2Ġshi4Ġ chan3Ġ
Ġben3 Ġming2Ġ
fa1Ġdian4Ġ chang3Ġ
yue4Ġzhong1Ġ xun2Ġ
5 9Ġ
Ġ zhi2Ġjie1Ġ
Ġ zhu4Ġyou3Ġ
de2 Ġyi3Ġ
bi3 ĠdeĠ
ji3 Ġge4
Ġshi4Ġ wu1Ġke4Ġlan2Ġ
Ġhe2Ġ ping2
Ġshi2Ġ biao3Ġshi4Ġ
Ġhou4Ġ lai2ĠdeĠ
la1Ġ fu1Ġ
ĠdeĠyi1Ġ tiao2
Ġye3 Ġbei4Ġ
che4Ġ li2Ġ
wen1Ġ quan2Ġ
dong1Ġbu4Ġ da4Ġqu1Ġ
ĠdeĠzhu3Ġ ti2Ġ
Ġda4Ġduo1Ġ shu4
ji1Ġdu1Ġ jiao4Ġ
yu3 Ġzai4Ġ
bie2 Ġming2Ġ
xie4 Ġl
Ġshi4Ġ fang4Ġ
Ġshi2Ġ wu3Ġnian2Ġ
Ġyu2Ġ zhong1Ġ
Ġjun1 Ġbei4Ġ
Ġke4 Ġren2Ġ
jian1Ġ du1
qi3Ġ tu2Ġ
Ġwo3 ĠdeĠ
1 20Ġ
8 2Ġ
8 7Ġnian2Ġ
yuan2 Ġzhi4Ġ
ge2 Ġhe2Ġ
huang2 Ġhe2Ġ
diao4 Ġren4Ġ
qing3 Ġqiu2
jing1Ġ dian3
min2Ġ zheng4Ġ
te4Ġ shu1ĠdeĠ
hong2Ġ shui3Ġ
wan2Ġ cheng2ĠdeĠ
di2Ġ ya4Ġ
lian4Ġ xi2Ġ
che4Ġ tui4
ĠĠĠ199 3Ġnian2Ġ
luo2Ġdi4Ġ ya4Ġ
hang2Ġkong1Ġmu3 Ġjian4Ġ
9 Ġge4Ġ
fa1 Ġyu4Ġ
zhu4 Ġshi4Ġ
jiu4 Ġyi3Ġ
xia2 Ġzh
yi4Ġ yuan2Ġ
Ġcheng2Ġ ji2Ġ
Ġjun1 Ġji2Ġ
Ġyu4 Ġdao4Ġ
zhi2Ġ lu4
jin1Ġ qu3Ġ
fu2Ġ te4Ġ
zong3Ġ du1
Ġ19 12Ġnian2Ġ
gen1Ġ sui2
Ġtian1Ġ wen2Ġ
j ec
y leĠ
Ġ shen1
Ġ in
sh Ġ
de l
ĠĠĠ re
gu a3
xin1 Ġhe2Ġ
jiang1 Ġbei4Ġ
jie1 Ġli4Ġ
wu3 Ġwei4Ġ
zong3 Ġshi4Ġ
qu3 ĠleĠ
ban1 Ġdao4Ġ
zhan3 Ġxian4Ġ
shen3 Ġli3Ġ
Ġzai4Ġ tai2Ġwan1Ġ
Ġyou3Ġ zhu4Ġyu2Ġ
Ġguo2Ġ ji2Ġ
Ġzhi1 Ġhe2Ġ
Ġta1Ġ biao3Ġshi4Ġ
xia4Ġ tian1Ġ
Ġsheng1Ġ ren4Ġ
ti3Ġ xi4
luo2Ġ men2Ġ
si4Ġ hu1Ġ
qing1Ġ chun1Ġ
Ġgai1Ġ pian4
jian4Ġ zao4
ĠdeĠyi1Ġ xie1
wu1Ġ lu3Ġ
Ġ000 Ġming2Ġ
wang2Ġchao2 ĠdeĠ
Ġbu4Ġjiu3 Ġhou4Ġ
Ġwei4Ġyu2Ġgai1Ġ sheng3Ġ
yun3Ġshi2Ġ keng1Ġ
Ġxin1Ġjia1Ġ po1Ġ
8 7Ġ
O V
P C
a le
Ġ kan4Ġ
fa3 Ġzhong1Ġ
xing4 Ġyu3Ġ
ti3 Ġhe2Ġ
liu2 Ġyi4Ġ
tai4 Ġyuan2Ġ
ka3 ĠdeĠ
Ġbu4Ġ lie4Ġ
Ġguo2Ġ gong4Ġ
Ġyi1Ġ wan4Ġ
ming2Ġ ni2Ġsu1Ġ
Ġer3 Ġdi4Ġ
fu2Ġ lang3Ġ
ge1Ġ chang4
biao1Ġ ti2Ġ
piao4Ġ fang2
Ġzhong1Ġgong4 Ġzhong1Ġyang1
jie1Ġshou4 ĠleĠ
Ġhe2Ġbei3Ġ sheng3Ġ
Ġ dang4Ġ
ĠĠĠ cong2
dui4 Ġta1ĠdeĠ
lan2 Ġzhou1Ġ
tai4 Ġji2Ġ
yan3 ĠleĠ
lou2 ĠdeĠ
Ġyi4Ġ qing2
ming2Ġ xian3Ġ
Ġjia1Ġ shang4
ju4Ġ ti3Ġ
Ġzheng4Ġ quan4Ġ
jiu3Ġ ba1Ġ
Ġshi3 Ġqi2Ġ
ĠĠĠ199 6Ġnian2Ġ
tong1Ġguo4 ĠleĠ
xue2Ġyuan4 ĠdeĠ
san1Ġjiao3 Ġxing2Ġ
bai4Ġzhan4Ġ ting2
8 1Ġ
Ġ shuang1
Ġ ning2
Ġ yong1
Ġ aĠ
Ġ 25Ġ
sheng1 Ġyuan2Ġ
you2 ĠdeĠ
jiu3 Ġming2Ġ
Ġbu4Ġ gong1Ġ
zhi4Ġ jin1Ġ
fa1Ġ yan2Ġ
zhang3Ġ wo4
na4Ġ cui4Ġ
luo4Ġ shan1Ġ
ci2Ġ shan4
ling3Ġ xian2
Ġ19 29Ġnian2Ġ
sui2Ġ zhe
Ġshi4Ġshi4Ġ jie4Ġ
hua2Ġsheng4Ġ dun4Ġ
liao2Ġning2Ġ sheng3Ġ
gao4 Ġzhong1Ġ
196 8Ġnian2Ġ
reng2 Ġshi4Ġ
gan1 Ġyu4Ġ
da4Ġ yue1Ġ
Ġyi3Ġ qi2Ġ
dai4Ġ lai2ĠdeĠ
Ġde2Ġ lan2Ġ
che1Ġ shou3Ġ
gui1Ġ ge2Ġ
nong2Ġ du4Ġ
Ġba1 Ġyue4Ġ
Ġda4Ġshi3Ġ guan3Ġ
1 Ġzhi4Ġ
6 2Ġnian2Ġ
7 8Ġ
t an1
Ġ min2Ġzhu3Ġ
Ġ nei4Ġbu4Ġ
Ġ jue2Ġding4
ji a2Ġ
ĠĠĠ 2Ġyue4Ġ
duo1 Ġli4Ġya4
ye4 Ġzhong1Ġ
zu3 Ġwei4Ġ
ba1 Ġke4Ġ
shen2 Ġfu4Ġ
xiu1 Ġshi4Ġ
gei3 Ġshi4Ġzhong1Ġ
lao2 Ġdong4
Ġzai4Ġ ji2Ġ
Ġzai4Ġ yi2Ġge4Ġ
Ġguo2Ġ ji4
Ġri4Ġ er3Ġ
Ġji4Ġ si4Ġ
Ġtong2 Ġyue4Ġ
qi4Ġ guan1Ġ
Ġch un2Ġ
bao1Ġhan2 ĠleĠ
Ġhua4Ġ xue2
9 9Ġ
ch i
qu1 Ġyi4Ġyuan2Ġ
fa3 Ġzhi4Ġ
shou3 Ġer3Ġ
quan2 Ġji1Ġ
jiu4 Ġren4Ġ
zhu1 Ġduo1Ġ
yuan2Ġ yin1Ġ
ji1Ġ hu1Ġ
Ġzhi1Ġ qiu2Ġdui4Ġ
Ġke4 Ġshi4Ġ
Ġke4 Ġzai4Ġ
nan2Ġ zhu3Ġjue2Ġ
Ġyin1 Ġhe2Ġ
lu4Ġ xu4
bi3Ġ 2Ġ
bao3Ġ xian3
yi3Ġ qian2Ġ
qian1Ġ wang3Ġ
chong2Ġ zu3Ġ
Ġzui4Ġ hou4Ġyi1Ġ
suan1Ġ yan2Ġ
Ġ190 9Ġnian2Ġ
dong1Ġjing1Ġ du1Ġ
lian2Ġxu4 Ġju4Ġ
M o
sheng1 Ġyi4Ġ
wu3 Ġda4Ġ
lin2 Ġjin4ĠdeĠ
bian4 Ġli4Ġ
197 8Ġnian2Ġ
lu2 Ġxing2Ġmu4Ġ
yi1Ġ ming2Ġ
zhi4Ġ zao4Ġ
cheng2Ġ du4Ġ
Ġyou3Ġ hao3Ġ
Ġdao4Ġ lu4
Ġjun1 Ġgong1Ġ
shu4Ġ zhi2Ġ
jing1Ġ ying1Ġ
zui4Ġ xin1Ġ
zu2Ġ xie2
yin3Ġ ru4
tui1Ġ ce4Ġ
sou1Ġ suo3Ġ
Ġhou4Ġlai2 Ġbei4Ġ
da1Ġ pei4Ġ
Ġnian2Ġshi4Ġjie4Ġ bei1Ġ
6 4Ġnian2Ġ
7 4Ġ
x ĠĠĠ
Ġ fu1Ġ
Ġ lun2Ġ
gu n4
she4 Ġyu2Ġ
nv e4Ġ
kan4 Ġjian4Ġ
Ġzhong1Ġ yi4Ġ
Ġshi2Ġ san1Ġnian2Ġ
Ġxing2Ġ wei2
xiang1Ġ lian2Ġ
Ġde2Ġ fen1Ġ
qi1Ġ kan1Ġ
jiao4Ġ duo1Ġ
Ġqiu2 Ġji4Ġ
xing4Ġ cun2Ġ
ai4Ġ sha1Ġ
ba1Ġ he4Ġ
lv4Ġ shi1
xi2Ġ su2Ġ
ka3Ġ si1Ġdi4Ġli4Ġ
zhuan3Ġ bo1Ġ
ĠdeĠcheng2Ġ gong1Ġ
zhi2Ġye4Ġ sheng1Ġya2
Ġwu3 Ġyue4Ġ
7 9Ġnian2Ġ
U C
Ġ zhan3Ġ
dui4 Ġcheng2Ġyuan2Ġ
meng2 Ġde2Ġ
ĠdeĠ wei4Ġ
Ġji2Ġ yu3Ġ
Ġgong1Ġ an1
wei2Ġ ke4Ġ
Ġxing2Ġ zou3Ġ
shi3Ġ zhe3Ġ
Ġwei2Ġ fan3Ġ
mu4Ġ di4Ġshi4Ġ
jiao4Ġ gao1ĠdeĠ
ge2Ġ lei1Ġ
jue2Ġ ce4Ġ
mao4Ġ xian3
ba1Ġshi4Ġ lu4Ġxian4Ġ
ken3Ġ ding4Ġ
lian2Ġsai4 Ġqiu2Ġdui4Ġ
guang3Ġbo1Ġ dian4Ġtai2Ġ
ĠĠĠgai4Ġ shu4Ġ
3 Ġgong1Ġli3Ġ
8 4Ġnian2Ġ
9 5Ġ
e dĠ
Ġ bo2Ġshi4Ġ
dao4 Ġde2Ġ
fa3 Ġren2Ġ
zhi2 Ġren2Ġyuan2Ġ
wen2 Ġdi4Ġ
te4 Ġyu3Ġ
ke3 Ġyou2Ġ
198 3Ġnian2Ġ
ĠdeĠ you3Ġ
yi1Ġ xie1
Ġdi4Ġ 4Ġ
ji4Ġ lu4
Ġta1Ġ ye3Ġshi4Ġ
Ġshe4Ġ bei4
che1Ġ zu3Ġ
yi2Ġ ju1Ġ
Ġhuo4Ġ sheng4Ġ
ce4Ġ lve4
du2Ġ shu1Ġ
Ġp ang2
11Ġyue4Ġ 1Ġri4Ġ
le4Ġ bi3Ġ
Ġmei3 Ġri4Ġ
ĠsectionĠĠĠ beg
ĠsectionĠĠĠbeg inĠ
7 6Ġnian2Ġ
A I
Ġ qian3Ġ
Ġ hai2Ġshi4Ġ
ĠĠĠ ling4
de2 Ġzhi1Ġ
shou3 Ġshi4Ġ
du4 Ġshi4Ġ
tuo1 Ġke4Ġ
ar t
Ġshi2Ġ hui4Ġ
Ġyi3 Ġcheng2Ġwei2Ġ
Ġri4 Ġyuan2Ġ
jiao1Ġ dian3Ġ
gan3Ġ qing2Ġ
zheng4Ġshi4Ġ cheng2Ġli4Ġ
dong1Ġnan2Ġ ya4Ġ
ge1Ġqu3 ĠdeĠ
Ġer4 Ġren2Ġ
mei3Ġshu4Ġ guan3Ġ
chuang4Ġban4 Ġren2Ġ
5 3Ġnian2Ġ
Q u
a ti
Ġ pan4Ġ
Ġ ya4Ġzhou1Ġ
kai1 Ġxing2Ġ
hai3 Ġjun1ĠdeĠ
guo4 Ġshi4Ġ
Ġbu4Ġ da4Ġ
Ġyi1Ġ gong4Ġ
Ġyuan2Ġ lai2ĠdeĠ
jie1Ġ xia4Ġlai2ĠdeĠ
ci4Ġ ziĠ
si4Ġ yuan4Ġ
Ġc an2
xing2Ġ xiang4Ġ
Ġdong1Ġ fang1Ġ
ĠĠĠben3Ġ shu3Ġ
ken3Ġ ta3Ġji1Ġ
Ġsi4 Ġyue4Ġ
xi3Ġhu an1
si1Ġdi4Ġ an1Ġ
da1 Ġzai4Ġ
fu4Ġze2 Ġren2Ġ
ĠĠĠqi2 Ġhou4Ġ
Ġdai4Ġma3Ġwei4Ġ 0
r aĠ
Ġ jing3
you3 Ġbu4Ġtong2Ġ
dai4 Ġer3Ġ
guan1 Ġhe2Ġ
wen2 Ġsi1Ġ
lian2 Ġxian4Ġ
shen2 Ġxue2Ġ
chuang4 Ġyi4Ġ
Ġyi4Ġ cheng2Ġ
Ġyi1Ġ ci2
Ġer3 Ġke4Ġ
an1Ġ fu3Ġ
Ġwei2Ġ ke4Ġ
bi3Ġ ci3Ġ
ci4Ġ lie4Ġche1Ġ
san1Ġ shi2Ġnian2Ġ
Ġhuo4Ġ yun4Ġ
liang4Ġ zi3
ming4Ġ yun4Ġ
hen3Ġ kuai4
kong4Ġ gu3
ĠdeĠbu4Ġ fen4
ĠdeĠji1Ġ ben3Ġ
xun2Ġhui2Ġ yan3Ġchang4Ġhui4Ġ
Ġsuo1Ġ xie3Ġ
guo4Ġqu4 ĠdeĠ
B DĠ
o la
Ġ tan2
ĠĠĠ 7Ġ
ge4 Ġge4Ġ
mu4 Ġzhong1Ġ
197 0Ġnian2Ġ
Ġwei4Ġ bu4Ġ
Ġhe2Ġ mei3Ġguo2Ġ
Ġshi2Ġ bie2Ġ
Ġcheng2Ġ guo3Ġ
Ġde2 Ġyi4Ġ
Ġji1Ġ qi4Ġ
Ġdan4 Ġzhe4Ġ
Ġxue2Ġ sheng1
qing1Ġ hai3Ġ
jing3Ġ bao4Ġ
zu2Ġ gou4Ġ
Ġs a1Ġ
Ġshou3Ġ xian1Ġ
ni3Ġ zhuan1Ġji2Ġ
Ġqi1 Ġyue4Ġ
Ġyong4 Ġyi3Ġ
7 7Ġnian2Ġ
9 1
m p
r on
Ġ ying2Ġde2Ġ
gai1 Ġnian2Ġ
lie4 Ġjian4Ġ
hao4 Ġzai4Ġ
ban4 Ġbu4Ġ
Ġbu4Ġ luo4
Ġyi1Ġ dui4Ġ
Ġjun1Ġ zhang3Ġ
dian4Ġ rong2Ġ
chang3Ġ jing3
zi1Ġ jin1
xian1Ġ qian2Ġ
cai3Ġ fang3Ġ
tu1Ġ jue2Ġ
bao3Ġhu4Ġ qu1Ġ
Ġbu4Ġtong2 Ġyu2Ġ
ĠĠĠ199 2Ġnian2Ġ
zu1Ġ jie4
Ġ san1Ġnian2Ġ
Ġ gan4Ġ
shang4 Ġyu3Ġ
dao3 Ġxian4Ġ
lin2 Ġshi4Ġ
shen2 Ġqi2Ġ
wo 1
kong3 Ġju4Ġ
ro w
Ġguo2Ġ fang2Ġ
Ġcheng2Ġ zhen4
Ġyi1Ġ xi4Ġlie4Ġ
wei2Ġ ji1Ġbai3Ġ
Ġjian4 Ġjian4Ġ
Ġsi1Ġ xiang3
Ġren4Ġ qi1Ġ
chang2Ġ zhu4
chang2Ġ sha1Ġ
chuan2Ġ jiao4Ġshi4Ġ
nv3Ġ ge1Ġshou3Ġ
Ġyou3Ġyi1Ġ xie1
ye2Ġ fu1Ġ
na2Ġpo4Ġ lun2Ġ
A D
Ġ yuan2Ġwei4Ġ
yu3 Ġren2Ġ
xi2 Ġjin4Ġping2Ġ
196 4Ġnian2Ġ
gui4 ĠdeĠ
zai3 Ġxiang4Ġ
Ġwei4Ġ zhi1Ġ
Ġbu4Ġ bing1
zhi4Ġ liao2Ġ
Ġyi4Ġ zuo4Ġ
Ġming2Ġ lu4Ġ
ze2Ġ ren4
Ġxin1Ġ jiang1Ġ
8Ġyue4Ġ 1Ġri4Ġ
Ġru2Ġ ci3Ġ
tie3Ġlu4 Ġgong1Ġsi1Ġ
Ġyu3Ġyan2 ĠdeĠ
mao2Ġze2Ġ dong1
han4Ġlin2Ġ yuan4Ġ
gao4Ġshi4Ġ pai2Ġ
6 Ġnian2ĠdeĠ
liu2 Ġxing2ĠdeĠ
guan3 Ġdao4Ġ
ying2 Ġdi4Ġ
ar d
Ġzhong1Ġ shi2Ġ
jia1Ġ zu2Ġ
yan2Ġ lun4
Ġshe4Ġ ding4Ġ
cai2Ġ ding4Ġ
qian1Ġ ding4
da3Ġ po4
Ġye3Ġ cheng1Ġ
ti2Ġgong1Ġ le
tou2Ġru4Ġ shi3Ġyong4Ġ
zhuan4 Ġji4Ġ
Ġ qiang3Ġ
ou1 Ġzhou1ĠdeĠ
ma3 Ġdi4Ġ
luo2 ĠdeĠ
yang4 Ġben3Ġ
Ġnian2Ġ ling2
Ġwei4Ġ gai1Ġ
Ġhe2Ġ ren2Ġ
yi4Ġ ban1Ġ
Ġyuan2Ġ su4
zhu3Ġ guan3Ġ
shou3Ġ fa3Ġ
shi1Ġ zong1Ġ
Ġzheng4Ġ dang3Ġ
ke3Ġ fen1Ġwei2Ġ
jie4Ġ mian4Ġ
yuan4Ġ xiao4Ġ
ni2Ġ gu3Ġla1Ġ
du2Ġ te4Ġ
Ġda4Ġxue2Ġ jiao4Ġshou4Ġ
kan1Ġ wu4Ġ
duo2Ġ qu3Ġ
p a2
Ġ yang3Ġ
ĠĠĠ 1Ġyue4Ġ
ping2 Ġji2Ġ
bao3 Ġyu4Ġ
zhuang1 Ġyou3Ġ
25 0Ġ
ĠdeĠ shuo1Ġfa3Ġ
Ġyuan2Ġ you3ĠdeĠ
ya4Ġ te4Ġ
xing1Ġ qi3Ġ
yan3Ġ hua4
yun4Ġ suan4Ġ
Ġshi4Ġwei4Ġ le
que4Ġ bao3
Ġsh an3Ġ
ĠsectionĠĠĠ endĠ
n ong4Ġ
sh ao2Ġ
si1 Ġji2Ġ
bei4 Ġren2Ġ
qian2 Ġyi1Ġ
lan2 Ġde2Ġ
mi4 Ġxi1Ġxi1Ġ
Ġshi4Ġ qi2Ġ
Ġji1Ġ zhong4Ġ
you2Ġ lai2Ġ
wen2Ġ shu1Ġ
cheng1Ġ hu1
wang3Ġ min2Ġ
Ġt ao1Ġ
chu1Ġ kou3Ġ
yin1Ġ ci3
chu3Ġ li3
Ġzhe4 Ġli3Ġ
shen3Ġ yang2Ġ
Ġliang3 Ġguo2Ġ
Ġhuo4Ġde2 Ġyi1Ġmei2Ġ
Ġzai4Ġzhong1Ġguo2Ġ da4Ġlu4Ġ
Ġ bai4
Ġ quan2Ġbu4Ġ
ĠĠĠ dai4Ġ
fu4 Ġbu4Ġ
xiang4 Ġta1Ġ
shan1 Ġhe2Ġ
yue1 Ġke4Ġ
yang2 Ġji1Ġ
rang4 Ġren2Ġ
Ġyi3 Ġgong1Ġ
Ġxing2 Ġyu2Ġ
Ġji1Ġ qi4Ġren2Ġ
lu4Ġ ying3Ġ
Ġdui4Ġ ying4Ġ
tu2Ġ jing1Ġ
zhuan1Ġ ke1Ġxue2Ġ
ĠK Ġ
zhui1Ġsu4 Ġzhi4Ġ
G C
G oog
b e
Ġ kun1Ġ
jun1 Ġren2Ġ
shi1 Ġxing2Ġ
tai2 Ġji2Ġ
zu3 Ġjian4
10 Ġge4Ġ
jia4 Ġri4Ġ
197 5Ġnian2Ġ
rui4 Ġke4Ġ
kai1Ġ bo1Ġ
lian2Ġ xi4
jian3Ġ pu3
shen2Ġ jing1
e4Ġ tu2Ġ
dang3Ġ wei3Ġ
Ġye3 Ġzai4Ġ
er2Ġ zi
Ġyu2Ġ199 8Ġnian2Ġ
Ġzai4Ġci3Ġ qi1Ġjian1Ġ
zhan4Ġzheng1 Ġzhong1Ġ
xiang1Ġdang1 Ġyu2Ġ
dian4Ġzi3 Ġyou2Ġxi4Ġ
suo3Ġxu1 ĠdeĠ
6 8Ġnian2Ġ
7 8Ġnian2Ġ
c c
you3 Ġshi4Ġ
zhong4 Ġyi4Ġyuan2Ġ
bian4 Ġde2
nv3 Ġshi4Ġ
mu3 Ġshi4Ġ
chuan1 Ġzhu4Ġ
Ġshi2Ġ zi4
Ġyue4Ġ qi4Ġ
ji4Ġ suan4Ġ
xin1Ġ zeng1Ġ
Ġdong4 Ġyuan2Ġ
Ġdui4Ġ kang4Ġ
Ġdan4Ġ yao4Ġ
jing3Ġ bao4
Ġren2Ġkou3Ġ pu3Ġcha2Ġ
Ġdong1 Ġxi1Ġ
su1Ġwei2Ġ ai1Ġ
Ġjie1Ġwei4Ġ lu4Ġdi4Ġ
7 3Ġ
D e
Ġ tu3
ĠĠĠ zhan4Ġhou4Ġ
ĠĠĠ zhu4Ġzuo4Ġ
shang4 Ġyi3Ġ
jie1 Ġdao4
sai4 Ġshi4Ġzhong1Ġ
hong2 Ġshi2Ġzi4Ġ
shun4 Ġtian1Ġ
Ġbu4Ġ zu2
cheng2Ġ zhen4Ġ
Ġyi1Ġ hao4Ġ
zi4Ġ zhu3Ġ
Ġfu4Ġ za2Ġ
Ġju4Ġ chang3Ġ
jiu4Ġ ke3Ġyi3Ġ
jian3Ġ hua4Ġ
qian1Ġ ru4Ġ
Ġ19 24Ġnian2Ġ
Ġtong2Ġnian2Ġ 9Ġyue4Ġ
zu2Ġqiu2Ġ lian2Ġsai4Ġ
ta in
C R
a sĠ
b eng1Ġ
s ĠdeĠ
Ġ hu4
Ġ kao3
xian4 Ġzai4Ġ
fa1 Ġyin1Ġ
zhang3 Ġli3Ġ
jin1 Ġzhong1Ġ
mu3 Ġyu3Ġ
gan3 ĠdeĠ
Ġbu4Ġ yu3Ġ
dui4Ġ kang4Ġ
ke3Ġ yong4Ġyu2Ġ
zu2Ġ gou4ĠdeĠ
Ġduo1Ġ shu4Ġ
sui2Ġ zhu4
ĠĠĠA l
Ġ14 9
Ġsui2Ġ hou4
li3Ġgong1Ġ da4Ġxue2Ġ
Ġshi4Ġshi4Ġjie4 Ġshang4Ġ
B M
u d
Ġ chu4Ġ
Ġ jiang4Ġ
ĠĠĠ Z
nan2 Ġzhi4Ġ
jiao4 Ġyi4Ġ
zhong3 Ġjia1Ġ
da2 Ġhe2Ġ
qian1 Ġshi4Ġ
dang3 Ġzai4Ġ
wo4 Ġsi1Ġ
Ġwei4Ġ re4Ġdai4Ġ
gong1Ġ zuo4
jiao4Ġ xiao3ĠdeĠ
fen1Ġ lie4
jie1Ġ qu1Ġ
xiao3Ġ xiang4Ġ
neng2Ġ li4ĠdeĠ
xuan3Ġ piao4Ġ
shen2Ġ mi4Ġ
ju2Ġ mian4Ġ
Ġdi4Ġshi2Ġ er4Ġ
mo2Ġte4 Ġer2Ġ
5 5Ġnian2Ġ
I G
you3 Ġbu4Ġtong2ĠdeĠ
ping2 Ġxi1Ġ
quan2 Ġlei3Ġ
tai4 Ġer3Ġ
shou1 Ġfu4Ġ
lu3 Ġji2Ġ
Ġyi1Ġ xue2Ġyuan4Ġ
Ġyi1Ġ lai4Ġ
Ġer2Ġ fei1
Ġjun1Ġ tuan2
lian2Ġ bo1Ġ
zi1Ġ bie2
Ġdang1Ġ ju2Ġ
ĠĠĠli4Ġshi3Ġ yan2Ġge2Ġ
Ġ5 00
fa1Ġsheng1Ġ hou4Ġ
min3Ġ gan3Ġ
Ġli4Ġfa3Ġ wei3Ġyuan2Ġ
T E
k ou4
ĠĠĠ duo1Ġ
li3 Ġyou3Ġ
shi3 Ġsi1Ġ
jie2 Ġzhi4Ġ
fu2 Ġke4Ġ
wu3 Ġren2Ġ
qian1 Ġnian2Ġ
Ġyu3Ġ li3Ġ
shang4Ġ sheng1Ġ
Ġzhou1 Ġguo2Ġ
yan2Ġ hai3
Ġbing4Ġ jiang1Ġqi2Ġ
gao1Ġ feng1Ġ
bei3Ġ lu4Ġ
xian1Ġ fa1Ġ
Ġshi4Ġjie4 Ġge4Ġdi4Ġ
geng1Ġ huan4
Ġzhi3Ġ yao4Ġ
you2Ġxi4 Ġzhong1Ġ
shan3Ġxi1Ġ sheng3Ġ
ĠIST AT
Ġ shuo1
Ġ ying3Ġ
Ġ ke3Ġneng2Ġshi4Ġ
ĠĠĠ d
xiang1 Ġdao4Ġ
ci3 Ġyi1Ġ
ku a1Ġ
shen3 Ġyi4Ġ
ĠdeĠ guan1Ġxi4Ġ
Ġzai4Ġ 2010Ġnian2Ġ
da4Ġ dong1Ġbu4Ġda4Ġqu1Ġ
si1Ġ te4Ġ
Ġda4Ġ yu3Ġ
Ġta1Ġ cong2Ġ
fu4Ġ xing1
pai2Ġ fang4Ġ
xu1Ġ ni3
Ġhe2Ġguo2Ġ jia1Ġ
Ġye3Ġ mei2Ġyou3Ġ
ji3Ġ zhui1
Ġshou3Ġ ci4
shen3Ġ cha2
ol og
ĠR o
ĠdeĠyuan2Ġ yin1
Ġdian4Ġ ziĠ
Ġ chuan2
Ġ fa1Ġbu4Ġ
ju4 Ġren2Ġ
jin4 Ġcheng2Ġ
lai2 Ġde2Ġ
fa3 Ġhe2Ġ
shi1 Ġli4Ġ
jiu3 Ġzhou1Ġ
Ġzai4Ġ bei3Ġjing1Ġ
Ġshi2Ġ shi2Ġ
dong1Ġ bu4ĠdeĠ
Ġfu4Ġ nv3Ġ
hai3Ġ wai4
ye3Ġ zhan4
Ġju4Ġ feng1Ġ
zong3Ġ zhang3Ġ
fan4Ġ dian4Ġ
Ġjing1Ġ chang2Ġ
niu3Ġyue1 Ġshi4Ġ
4 00Ġ
l ong3
Ġ pian4Ġ
Ġ xin1ĠdeĠ
Ġ zao3Ġnian2Ġ
ĠĠĠ jiang1Ġ
hui4 Ġcheng2Ġyuan2Ġ
dao3 Ġdan4
hua2 Ġyu3Ġ
dou1 Ġyi3Ġ
xiu1 Ġxi1Ġ
Ġbu4Ġ lang3Ġ
ji4Ġ zhe3Ġ
Ġer2 Ġyou3Ġ
fen1Ġ fen1Ġ
Ġshe4Ġ ding4
Ġxia4Ġ xia2Ġ
jie3Ġ san4
da3Ġ po4Ġ
sai1Ġ bai4
Ġf ei3
Ġbao3Ġ luo2Ġ
Ġda4 Ġwei4Ġ
Ġyin3Ġ qi3Ġ
ke1Ġji4Ġ da4Ġxue2Ġ
jia1Ġli4Ġfu2Ġ ni2Ġya4
gu n4Ġ
jia1 Ġshi2Ġ
ke3 Ġxing2Ġ
ci4 Ġri4Ġ
zi1 ĠdeĠ
cun2 Ġyu2Ġ
th er
di4Ġ san1Ġ
Ġzhi1Ġ nv3Ġ
Ġbing4Ġ xiang4Ġ
zhi3Ġ biao1Ġ
lin2Ġ na4Ġ
Ġg ong3Ġ
Ġzui4Ġ zhong1Ġzai4Ġ
xin1Ġli3Ġ xue2Ġ
Ġshi4Ġyi1Ġke1Ġ heng2Ġxing1Ġ
4 2Ġnian2Ġ
6 00
n a3Ġ
Ġ fen1
Ġ ou1Ġzhou1
Ġ qiong2
Ġ guang3Ġzhou1Ġ
yu2 Ġnian2Ġ
jian4 Ġyu2Ġ
san1 Ġguo2Ġ
ti3 Ġzhong1Ġ
194 4Ġnian2Ġ
195 0Ġnian2Ġ
fang3 Ġzhi1Ġ
Ġhe2Ġ ma3Ġ
Ġji4Ġ zhe3Ġhui4Ġ
Ġli3Ġ xue2Ġ
xin1Ġ sheng1Ġ
Ġke4Ġ lu3Ġ
fen1Ġ shu4Ġ
ci4Ġ quan2Ġguo2Ġ
ke3Ġyi3Ġ yong4Ġ
Ġg uo1
Ġb ang4Ġ
xi3Ġ ai4Ġ
h en2
Ġ che4Ġxiao1Ġ
ĠĠĠ qi4Ġhou4Ġ
hua4 Ġxian4Ġ
xiang4 Ġyu3Ġ
da3 Ġjin4Ġ
on eĠĠĠ
194 8Ġnian2Ġ
Ġshi4Ġ tu2
Ġgong1Ġ guo2Ġ
guan1Ġ bi4
shou3Ġ qiang1Ġ
Ġzh a1
Ġzh a2
gou4Ġ wu4Ġ
6Ġyue4Ġ 30Ġri4Ġ
wo3Ġ menĠdeĠ
sa4Ġ zhu1Ġ
chong1Ġ fen4Ġ
fan1Ġ chuan2Ġ
Ġlian2Ġ meng2Ġ
dian4Ġying3 Ġzhong1Ġ
Ġdi4Ġer4 Ġge4Ġ
luo2Ġma3Ġ ni2Ġya4Ġ
yun2Ġnan2Ġ sheng3Ġ
ĠdeĠli4Ġ shi3
8 4Ġ
P h
i p
r ac
Ġ zheng1Ġyue4Ġ
lin2 Ġjin4
zhong4 Ġxing2Ġ
bao3 Ġshi4Ġ
dou1 Ġyu4Ġshi3Ġ
tiao2 Ġjian4
tu i3
14 0
zan4 Ġcheng2Ġ
Ġzai4Ġ ba1Ġ
Ġshi2Ġ si4Ġnian2Ġ
Ġren2Ġ shu4
Ġren2Ġ bu4Ġ
ju4Ġ chang3Ġ
fa1Ġ da2Ġ
Ġju4Ġ le4Ġ
pai2Ġ hang2
tian2Ġ xin4Ġ
rĠ Ã
Ġlei3 Ġji1Ġ
Ġer4 Ġyue4Ġ
Ġqi1Ġxi1Ġ shen1Ġdu4Ġ
C P
a tĠ
c u4Ġ
Ġ en1Ġ
zhan4 Ġjian4Ġ
xin1 Ġxi1Ġlan2Ġ
dian3 Ġwei4Ġyu2Ġ
qian1 Ġxia4Ġ
Ġzai4Ġ yue4Ġ
Ġgong1Ġ yue1Ġ
Ġyu4 Ġbei4Ġ
yan2Ġ fa1
jue2Ġ xin1Ġ
bian1Ġ jing4
Ġc u1Ġ
xie1Ġ gen1
Ġte4Ġ lang3Ġ
Ġru2Ġ jin1Ġ
shao3Ġ liang4Ġ
Ġdeng3Ġ deng3Ġ
duo2Ġ guan4Ġ
Ġao4 Ġdi4Ġli4Ġ
na tion
00Ġmi3 ĠdeĠdi4Ġqu1Ġ
5 4Ġnian2Ġ
Ġ jie1Ġshou4Ġ
ĠĠĠ g
ĠĠĠ wan4Ġli4Ġ
dai4 Ġshi2Ġ
yan2 Ġhe2Ġ
wai4 Ġxing2Ġ
zhong4 Ġzhi4Ġ
qu an3
ji3 Ġnan2Ġ
deng1 Ġji1Ġ
ĠdeĠ qing2Ġkuang4Ġ
Ġshi4Ġ ri4Ġben3
Ġhe2Ġ zhong1Ġguo2Ġ
li4Ġ ziĠ
zuo4Ġ yong4
Ġqi2 Ġdi4Ġ
kai1Ġ ban4Ġ
ye4Ġ wu4
ge2Ġ li2
feng1Ġ mian4Ġ
fei1Ġ ji1
zu2Ġ zong3Ġ
liang3Ġ ce4
liang3Ġ zhe3Ġ
9Ġyue4Ġ 1Ġri4Ġ
Ġ19 14Ġnian2Ġ
ĠĠĠS ta
Ġdi4Ġer4Ġ ci4
Ġtong2Ġnian2Ġ 11Ġyue4Ġ
6 9Ġnian2Ġ
7 Ġgong1Ġli3Ġ
H DĠĠĠ
ch ao3Ġ
zuo4 Ġyou3Ġ
shi3 Ġqi2Ġ
she4 Ġji1Ġ
ping2 Ġxing2Ġ
shou3 Ġbei4Ġ
Ġzai4Ġ xia4Ġ
Ġyue4Ġ qiu2Ġ
Ġji1Ġ dong4Ġ
Ġxi1Ġ de2Ġ
Ġjian4Ġ zao4ĠdeĠ
zhu4Ġ fang2Ġ
shou3Ġ hu4Ġ
wai4Ġ jie4
ban1Ġ dian3Ġ
Ġ19 26Ġnian2Ġ
Ġshi4Ġjie4Ġ bei1
aĠĠĠ M
Ġzai4Ġ200 6Ġnian2Ġ
Ġxing2Ġzheng4 Ġzhong1Ġxin1
5 2Ġnian2Ġ
6 1Ġnian2Ġ
7 2Ġnian2Ġ
8 Ġgong1Ġli3Ġ
R o
da4 Ġshi4Ġ
12 Ġge4Ġ
gui1 ĠdeĠ
meng2 Ġyou3Ġ
qin1 Ġshi2Ġ
pin2 Ġfan2Ġ
Ġzai4Ġ ke4Ġ
Ġbu4Ġ shu3Ġ
Ġli4Ġ jing1Ġ
Ġgong1Ġ jin1
Ġgong1Ġ bu4ĠdeĠ
Ġyi4Ġ ti2Ġ
Ġdao4Ġ guang1Ġ
xiang4Ġ qian2Ġ
Ġzhan4Ġ lve4Ġ
gao1Ġ ceng2Ġ
Ġdai4Ġ lai2Ġ
zong3Ġ jiao4Ġqu1Ġ
zhen1Ġ dui4
Ġdong1Ġ lin2
tui1Ġ fan1Ġ
Ġgai1Ġsheng3Ġfen4Ġwei4Ġfa3Ġguo2Ġ bei3Ġbu4Ġ
Ġfei1 Ġli4Ġ
zhan4Ġdou4 Ġji1Ġ
ali gnĠ
guo2ĠdeĠte4Ġyou3Ġ zhi2Ġwu4Ġ
4 7Ġnian2Ġ
ĠĠĠ dang1
ĠĠĠ chu2Ġ
you3 Ġbu4Ġfen4Ġ
zhu4 Ġgong1Ġ
suo3 Ġzhi4Ġ
wai4 Ġji2Ġ
sheng3 Ġzheng4Ġ
gu4 ĠdeĠ
bai4 ĠdeĠ
yong3 Ġshi4Ġ
te l
Ġyue4Ġ du2Ġ
da4Ġ chen2Ġ
Ġyi3Ġ 3Ġ
ĠleĠ xu3Ġduo1Ġ
jie2Ġ zou4Ġ
Ġtong2 Ġbu4Ġ
se4Ġ qing2Ġ
bian4Ġ geng1
zhen1Ġ cha2
xun2Ġ yan3Ġ
aĠĠĠ C
nie4Ġ ci2
ĠĠĠ198 8Ġnian2Ġ
sai1Ġer3Ġwei2Ġ ya4
illi am
8 6Ġnian2Ġ
I F
I M
t ro
ĠĠĠ 5
gai1 Ġdi4Ġqu1Ġ
qi3 Ġchu1Ġ
bo2 Ġke4Ġ
men2 Ġshi4Ġ
yan4 Ġzheng4Ġ
nuo4 Ġbei4Ġer3Ġ
194 1Ġnian2Ġ
al lĠ
Ġyuan2Ġ xing2
yan2Ġ se4
mi4Ġ mi4
ling2Ġ shou4Ġ
zhuan1Ġ zhu4Ġyu2Ġ
Ġshi4Ġji4Ġ chu1Ġ
ran3Ġ se4Ġ
Ġjie1Ġ zhu4Ġ
Ġjiu3 Ġyue4Ġ
ji3Ġnei4Ġ ya4Ġ
8 1Ġnian2Ġ
Ġ e4
Ġ fu3
ĠĠĠ she4Ġhui4Ġ
zheng4 Ġhou4Ġ
er2 Ġcheng2Ġ
guan1 Ġjian4
jie4 Ġyu2Ġ
qing1 Ġxi1Ġ
mei2 Ġli4Ġ
195 8Ġnian2Ġ
Ġyu2Ġ jia1Ġ
Ġxian4 Ġli4Ġ
Ġdao4Ġ qian4Ġ
ping2Ġ mian4Ġ
ti3Ġ nei4Ġ
Ġben3Ġ tu3
xin4Ġ hao4
Ġhu an3Ġ
Ġ19 18Ġnian2Ġ
xun2Ġ luo2Ġ
ĠdeĠbu4Ġ tong2Ġ
ĠÐ ½
Ġya4Ġ mei3Ġ
guan3Ġkong4 Ġzhong1Ġfa1Ġxian4Ġ
Ġ wang4Ġ
Ġ miao4Ġ
qi e2Ġ
qu1 Ġyi4Ġ
jie1 Ġyou3Ġ
ci4 Ġnian2Ġ
fan3 Ġgong1Ġ
xi2 ĠdeĠ
shang1 Ġhui4Ġ
qing2 Ġren2Ġ
zhao4 Ġji2Ġ
si1Ġ fa3Ġ
Ġda4Ġ sha4
Ġyuan2Ġ ding4
ding4Ġ lv4Ġ
liu2Ġ lang4Ġ
Ġzhong1Ġguo2Ġ guo2Ġjia1Ġ
zheng1Ġ lun4Ġ
fan3Ġ kang4Ġ
zun1Ġ zhong4Ġ
Ġyu3Ġmao2 Ġqiu2Ġ
4 1Ġnian2Ġ
7 9Ġ
p en2Ġ
Ġ yuan4Ġ
de rĠ
ao4 Ġli4Ġ
xue2 Ġli4Ġ
zhan4 Ġji2Ġ
min2 Ġshi4Ġ
jiang1 Ġxian4Ġ
hu4 ĠdeĠ
Ġshi4Ġ dang1Ġdi4Ġ
Ġwei4Ġ gong1Ġ
Ġda4Ġ zi4Ġ
Ġda4Ġ jiang1Ġjun1Ġ
Ġyu3Ġ qian2Ġ
shi3Ġ guan3Ġ
Ġbei4Ġ pan4Ġ
shan1Ġ lu4Ġ
qi3Ġ hua4Ġ
xiao1Ġ mie4Ġ
she4Ġ ding4Ġ
Ġ19 13Ġnian2Ġ
Ġshe4Ġji4Ġ shi1Ġ
zhuan4Ġ xie3
Ġji2Ġtuan2 Ġyou3Ġxian4Ġgong1Ġsi1Ġ
yin3Ġqi3 ĠdeĠ
shi1Ġqu4 ĠleĠ
Ġpu2Ġtao2Ġya2 Ġyu3Ġ
6 Ġming2Ġ
a dĠĠĠ
l uo3
s c
w a4Ġ
Ġ zhao1
Ġ le4Ġ
zheng4 Ġhe2Ġ
shang4 Ġzai4Ġ
de2 Ġke4Ġsa4Ġsi1Ġ
ma3 Ġde2Ġli3Ġ
bao4 ĠdeĠ
bian4 Ġxing2Ġ
cong2 Ġzhong1Ġ
ruo4 ĠdeĠ
Ġdi4Ġ chu3Ġ
Ġxing2 Ġzhi4Ġ
Ġyuan2Ġ shuai4Ġ
Ġji1Ġ qiang1Ġ
zhi3Ġ ling4Ġ
ma3Ġ chang3Ġ
qing1Ġ chao2
ying3Ġ zhan3Ġ
ĠdeĠyi1Ġ zhong3
lu2Ġ wa3Ġ
Ġge1Ġ qu3
shou4Ġhuan1Ġ ying2ĠdeĠ
jian1Ġcha2 Ġyu4Ġshi3Ġ
2019Ġguan1Ġzhuang4Ġbing4Ġdu2 Ġbing4
5 9Ġnian2Ġ
Ġ ni
ĠĠĠ ge4
ĠĠĠ huo4
li4 Ġnian2Ġ
yue4 ĠĠĠ
du c
hui2 Ġfu4Ġ
in eĠ
Ġbu4Ġ yi4Ġ
Ġzhong1Ġ xue2
zheng4Ġ wu4Ġ
zhu3Ġ zhang1
ju4Ġ dian3Ġ
hai3Ġ di3Ġ
Ġzhong1Ġguo2Ġ da4Ġlu4
mei3Ġ guo2Ġhe2Ġ
Ġgong1Ġzuo4Ġ zhe3Ġ
Ġma3Ġ ding1Ġ
2010Ġnian2Ġ mei3Ġguo2Ġren2Ġkou3Ġpu3Ġcha2Ġ
re4Ġ men2Ġ
ĠO Ġ
Ġguo2Ġjia1 Ġji2Ġ
jie2Ġshu4 Ġshi2Ġ
Ġwei4Ġzhong1Ġ xin1Ġ
Ġsan1 Ġguo2Ġ
Ġmin2 Ġji2Ġ
qiao1 Ġchu1Ġ
L i
S O
a j
i ni
r am
Ġ zhang3
Ġ lei4
Ġ ban3Ġ
quan2 Ġcheng2Ġ
mu4 Ġhou4Ġ
Ġshi4Ġ xiang1Ġgang3
Ġshi2Ġ chang2Ġ
Ġyi4Ġ li4Ġ
Ġda4Ġ jun1Ġ
Ġjia1Ġ meng2
zi4Ġ dong4
suo3Ġ en1Ġ
ya4Ġ zhong3Ġ
lie4Ġ biao3
Ġt a4Ġ
Ġben3Ġ shen1Ġ
jian3Ġ yan4Ġ
zheng1Ġ qu3
zheng1Ġ qi4Ġ
da3Ġ kai1Ġ
jian4Ġzhu4Ġ wu4Ġ
ye1Ġ su1Ġ
4 3Ġnian2Ġ
Ġ zhun3Ġbei4Ġ
Ġ xiang4Ġshi4Ġ
ĠĠĠ jing1Ġ
yan2 Ġshi4Ġ
cha2 Ġsi1Ġ
tu di
su1 Ġzhou1Ġ
tan3 Ġke4
2010 Ġ
ĠdeĠ er2ĠziĠ
ĠdeĠ wei4Ġzhi4Ġ
Ġshi4Ġ jiang1Ġ
Ġbu4Ġ xia4Ġ
Ġzhi4Ġ pian4Ġ
Ġli4Ġ an1Ġ
Ġji4Ġ ren4Ġ
hua4Ġ xue2
suo3Ġ mu3Ġ
Ġju4Ġ qing4Ġxia4Ġ
qing1Ġ hua2Ġda4Ġxue2Ġ
bo1Ġ luo2Ġdi4Ġ
shui3Ġ zhun3Ġ
Ġp ai1Ġ
wen2Ġhua4Ġ yi2Ġchan3Ġ
hao2Ġ mi3
gui3Ġdao4Ġ jiao1Ġtong1Ġ
Ġwei4Ġfu2Ġqi2Ġyu2Ġgang1Ġ lu2Ġxing2Ġmu4Ġ
i sĠ
p ei1
Ġ zhong3Ġ
Ġ jiao4Ġyu4
zh e1Ġ
shang4 Ġhe2Ġ
quan2 Ġhe2Ġ
zhi3 Ġwei4Ġ
zhi3 ĠdeĠshi4Ġ
shi1 ĠleĠ
la1 Ġli4Ġ
ying3 Ġji2Ġ
zhong1Ġ xue2Ġ
Ġbu4Ġ xiang2Ġ
cheng2Ġ ren4Ġ
Ġyi4Ġ chang2Ġ
zhe4Ġ ci4Ġ
bei3Ġ ka3Ġluo2Ġlai2Ġna4
ke3Ġ kao4Ġ
Ġdan4Ġ reng2
tai4Ġ lang2Ġ
ling2Ġ mu4Ġ
Ġjie2Ġ hun1Ġ
Ġlian2Ġ xu4Ġ
Ġke1 Ġer3Ġ
2 Ġgong1Ġli3Ġ
5 1Ġnian2Ġ
t ao3
Ġ tai2Ġbei3
gao1 Ġjia1Ġ
se4 Ġhuo4Ġ
lu deĠ
hai2 Ġhui4Ġ
Ġshi4Ġ han2Ġguo2Ġ
Ġbu4Ġ lu3Ġke4Ġ
Ġshi2Ġ shang4Ġ
Ġda4Ġ ming2Ġ
Ġke4Ġ lun2Ġ
Ġzhan4Ġ yi4Ġzhong1Ġ
ge2Ġ lu3Ġ
sai4Ġ shi4ĠdeĠ
ti2Ġ jiao1
jiu3Ġ jing1Ġ
han2Ġ gai4Ġ
er2Ġ yan2Ġ
Ġbi4Ġ ye4Ġhou4Ġ
zhu3Ġti2Ġ qu1Ġ
Ġ qiao2
Ġ zhu2Ġ
Ġ zong1Ġjiao4Ġ
mei3 Ġren2Ġ
xiang4 Ġqi2Ġ
si4 Ġge4
dan1 Ġren2Ġ
ban4 Ġxue2Ġ
sai1 Ġsi1Ġ
gan4 Ġshi4Ġ
Ġyu2Ġ 9Ġyue4Ġ
ji4Ġ hou4Ġ
zuo4Ġ qu3Ġjia1Ġ
Ġbei4Ġ ren4Ġwei2
wu3Ġ ke1Ġ
mei2Ġ ti3ĠdeĠ
huan2Ġ bao3Ġ
ĠĠĠ199 0Ġnian2Ġ
ĠãĤ ĵ
huan2Ġxing2Ġ shan1Ġ
shou4Ġhai4Ġ zhe3Ġ
Ġ ya4
yu an1
yun4 ĠdeĠ
shui3 Ġxian4Ġ
jiang3 Ġzuo4Ġ
Ġxi1Ġ fang1
Ġming2Ġ chao2
Ġwei2Ġ hu4Ġ
zhi2Ġ wu4ĠdeĠ
Ġzhe4Ġ ye3Ġ
Ġxin1Ġ wen2
jiao1Ġ wang3Ġ
yang2Ġ xing4Ġ
kong1Ġ tiao2Ġ
ĠdeĠshi4Ġ li4Ġ
Ġye3 Ġhui4Ġ
ĠĠĠS h
qu1ĠdeĠ yi2Ġge4Ġ
tie3Ġlu4Ġ ju2Ġ
wen1Ġ ge1Ġ
min2Ġzhu3Ġ zhu3Ġyi4Ġ
cheng2Ġli4Ġ yu2Ġ
bian4Ġcheng2Ġ leĠ
Ġgai1Ġwu4Ġzhong3ĠdeĠ mo2Ġshi4Ġchan3Ġ
Ġ xu3
nan2 Ġdao4Ġ
xia4 Ġxing2Ġ
lian2 Ġsi1Ġ
nv3 ĠdeĠ
zong1 Ġzuo4Ġ
guan4 Ġjun1ĠdeĠ
Ġzhi1Ġ yi1ĠdeĠ
fang1Ġ zhen1Ġ
mei3Ġguo2Ġ guo2Ġjia1Ġ
han2Ġ gai4
chu3Ġ cun2Ġ
Ġs ao3Ġ
chi3Ġ cun4
bu3Ġ ru3
mei4 Ġmei4
Ġpai1 Ġshe4Ġ
you1Ġxiu4 ĠdeĠ
Ġzhong1Ġguo2Ġguo2Ġmin2Ġ dang3Ġ
Ġ qing2Ġ
ji ong3Ġ
si1 Ġyou3Ġ
zhu a1
zui4 Ġming2Ġ
lin2 Ġxian4Ġ
zhong4 Ġli4Ġ
2020 Ġ
Ġshi4Ġ xian4Ġ
Ġwei4Ġ qi2
Ġshi2Ġ yu2Ġ
Ġdi4Ġ 5Ġ
Ġhui4Ġ hua4Ġ
dian4Ġ xin4Ġ
bi3Ġ jiao4
e2Ġ wai4ĠdeĠ
dao3Ġ zhi4ĠdeĠ
5Ġ wan4Ġ
fan3Ġ xiang3Ġ
ling2Ġ hun2
huo4Ġ sheng4Ġ
guang1Ġ xu4
ĠC o
sui2Ġ zheĠ
ri4Ġ chang2Ġ
ke1Ġxue2Ġ yuan4
Ġdi4Ġer4Ġ ci4Ġshi4Ġjie4Ġda4Ġzhan4Ġ
Ġba1 Ġxi1Ġ
ĠĠĠzhe4Ġ geĠ
Ġzhan4Ġzheng1 Ġzhong1Ġ
ĠĠĠben3 Ġyu2Ġ
Ġ gai4
cai2 Ġhui4Ġ
jie3 ĠdeĠ
zu i3
Ġzhi1 Ġyu2Ġ
Ġli3Ġ cha2Ġ
xiang1Ġ tong2
jing1Ġ ling2Ġ
kai1Ġ qi3Ġ
Ġbing4Ġ kai1Ġshi3Ġ
ma3Ġ ding1Ġ
ti2Ġ jiao1Ġ
bo2Ġ luo2Ġ
liang3Ġ ci4
luo4Ġ fu1Ġ
mi4Ġ ma3Ġ
Ġ19 25Ġnian2Ġ
6Ġyue4Ġ 1Ġri4Ġ
Ġ5 00Ġ
kai1Ġshi3 ĠleĠ
Ġzhi3Ġ neng2Ġ
hai3Ġjun1Ġ lu4Ġzhan4Ġ
mie4Ġ wang2Ġ
ban4Ġshi4Ġ chu4
ĠĠĠof ĠĠĠtheĠĠĠ
dian4Ġqi4Ġ hua4Ġ
A TĠ
g ou3
Ġ feng4
xi ao2Ġ
yu4 ĠdeĠ
zhi2 Ġbei4Ġ
qi1 Ġge4Ġ
quan2 Ġshi4Ġjie4Ġ
deng3 Ġzhan4Ġ
shu3 ĠdeĠyi1Ġzhong3Ġ
sha1 ĠleĠ
guan4 Ġmu4Ġ
2019 Ġ
ĠdeĠ she4Ġji4Ġ
Ġhe2Ġ xian4Ġ
Ġyou3Ġ zheĠ
dui4Ġ fang1Ġ
Ġxi1Ġ lan2
fu4Ġ shu3
dai4Ġ ling3Ġ
Ġming2Ġ dan1
shou3Ġ xian1
qian2Ġ long2Ġ
Ġqi2Ġ bing1
Ġren4Ġ zheng4Ġ
zui4Ġ xiao3Ġ
nei4Ġ bu4ĠdeĠ
shan1Ġ chu2Ġ
Ġshe4Ġ li4ĠdeĠ
pao4Ġ bing1Ġ
Ġna4Ġ meĠ
Ġwei4Ġdi4Ġ yi1Ġ
Ġyin3Ġ fa1Ġ
Ġren2Ġlei4 ĠdeĠ
D NAĠ
zhan4 Ġli4Ġ
jiang4 Ġzhi4Ġ
Ġbu4Ġ shou4Ġ
Ġzhi4Ġ hui4Ġ
Ġshang4Ġ sheng1Ġ
ma3Ġ en1Ġsheng3Ġ
wang3Ġ fan3Ġ
wei3Ġ tuo1
jia3Ġ zu3Ġ
Ġ19 11Ġnian2Ġ
dou4Ġ zheng1
dai4Ġbiao3 Ġda4Ġ
bi4Ġye4Ġ sheng1Ġ
guang3Ġbo1Ġ dian4Ġshi4Ġ
Ġtao3Ġ lun4Ġ
Ġbian1Ġ hao4Ġ
C D
Ġ on
Ġ yan3Ġyuan2Ġ
Ġ iĠ
Ġ za2Ġ
Ġ liu3Ġ
gong1 Ġwei4Ġ
zhi2 Ġgong1Ġ
liu2 Ġdan4Ġ
hua2 Ġwei4Ġ
bo2 Ġli4Ġya4Ġ
cai3 Ġji2Ġ
qiang1 Ġji1Ġ
Ġnian2Ġ du4
Ġwei4Ġ 2
Ġhe2Ġ hou4Ġ
Ġhe2Ġ zuo4ĠdeĠ
shi2Ġ yue4Ġ
Ġzhong1Ġ hua2
Ġdi4Ġ 1
Ġdi4Ġ liu4
jian1Ġ guan3Ġ
jie1Ġ shang4Ġ
bao1Ġkuo4 ĠleĠ
liang3Ġ ceng2Ġ
Ġg ou3Ġ
Ġn ao3Ġ
Ġjian4Ġzhu4Ġ shi1Ġ
kuo4Ġ zhang1
yong1Ġ you3ĠdeĠ
Ġzhong1Ġshi4Ġ yan3Ġ
Ġ liao2Ġ
ĠĠĠ ying1Ġ
zhi1 Ġxia4Ġ
lun2 Ġduo1Ġ
mai4 Ġke4Ġer3Ġ
chang4 Ġyi4Ġ
Ġzai4Ġ dong1Ġ
Ġren2Ġ ji2Ġ
Ġguo2Ġ nei4
Ġyi1Ġ yi1Ġ
shang4Ġ su4Ġ
chang2Ġ chang2Ġ
ling4Ġ wai4
ĠdeĠdi4Ġ tie3Ġ
bing1Ġ chuan1Ġ
hai2Ġ zi
zhuan1Ġ an4Ġ
3Ġyue4Ġ 1Ġri4Ġ
shu4Ġliang4 ĠdeĠ
Ġgong4 Ġji4Ġ
p ro
li an3
lu4 Ġxian4
da2 Ġdao4ĠleĠ
bo2 ĠdeĠ
Ġren2Ġ cai2Ġ
Ġzhi4Ġ ding4
Ġsi1Ġ li3Ġlan2Ġ
Ġhou4Ġ yin1Ġ
Ġshang4Ġ wu3Ġ
zui4Ġ zhu4Ġming2ĠdeĠ
tai4Ġ luo2Ġ
Ġzi4Ġ sha1Ġ
wu2Ġ guan1Ġ
Ġshi4Ġji4Ġ mo4Ġ
Ġ3 9
dun4Ġ nie4Ġci2
ĠÐ ¸
Ġzhe2 Ġxue2Ġ
Ġge2 Ġnian2Ġ
shuai4Ġling3 ĠdeĠ
zhu1Ġlong2Ġ cao3
4 8Ġnian2Ġ
5 Ġshi2Ġ
C o
Ġ xi4Ġtong3Ġ
Ġ ge1Ġqu3Ġ
e2 Ġjun1Ġ
fu4 Ġwei4Ġ
qing1 ĠdeĠ
pu3 Ġli4Ġ
wei1 Ġer3Ġsi1Ġ
long2 Ġshi4Ġ
zong1 Ġshi4Ġ
ding3 Ġbu4Ġ
Ġzhi4Ġ li3Ġ
Ġyou3Ġ san1Ġ
Ġyi4Ġ zhang3Ġ
Ġyi1Ġ shou3Ġ
Ġda4Ġ xuan3Ġ
Ġqi2 Ġren2Ġ
Ġjia1Ġ zu2ĠdeĠ
Ġjun1 Ġhe2Ġ
min2Ġ dang3Ġ
xiang4Ġ zheng1
ben3Ġ shen1
Ġhuo4 Ġer3Ġ
suo3Ġ xia2
jin1Ġ tian1Ġ
quan2Ġ xin1Ġ
Ġhuo4Ġ bi4Ġ
zong3Ġ guan3Ġ
gu3Ġ dai4
cheng1Ġ zan4
Ġxiang1Ġ fan3Ġ
bian4Ġ geng1Ġ
Ġc uo4
ĠdeĠyi1Ġ zuo4
man4Ġ hua4Ġjia1Ġ
Ġk ao4
ĠĠĠ198 9Ġnian2Ġ
Ġyu2Ġ199 7Ġnian2Ġ
u st
ai4 Ġli4Ġsi1Ġ
zhou1 Ġnian2Ġ
ze2 Ġren4Ġwei2Ġ
bao4 Ġdong4Ġ
zhang1 Ġjia1Ġ
lao3 Ġhui4Ġ
Ġcheng2Ġ qiang2Ġ
jia1Ġ meng2Ġ
Ġyu3Ġ zhi1
Ġde2 Ġshi4Ġ
zong3Ġ ti3Ġ
zu3Ġ zhang3Ġ
wei1Ġ fu1Ġ
jia4Ġ zhi2ĠdeĠ
chong1Ġ man3
Ġjie2Ġ shu4Ġ
of ĠĠĠtheĠĠĠ
shou1Ġlu4 ĠleĠ
na4Ġcui4 Ġde2Ġguo2Ġ
3 Ġli4Ġ
l yi
Ġ qun2Ġ
ĠĠĠ fa1Ġxing2Ġ
yi1 Ġzai4Ġ
lao3 Ġren2Ġ
ming2Ġ chao2Ġ
nan2Ġ xing4
xia4Ġ lang3Ġde2Ġ
zhe4Ġ yang4
mu4Ġ han3Ġmo4Ġde2Ġ
zui4Ġ duo1
jie3Ġ jie3Ġ
can1Ġ yan3Ġ
Ġ19 22Ġnian2Ġ
ĠS u
kao3Ġ ru4Ġ
ĠdeĠren2Ġ wu4Ġ
geng1Ġ gai3Ġ
ĠÐ µ
Ġguo2Ġmin2Ġ zheng4Ġfu3
Ġshu3Ġ rou4Ġshi2Ġxing4Ġ
Ġliu4 Ġyue4Ġ
Ġco mĠ
6 ĠĠĠ
v en
zhan4 Ġyu3Ġ
jiang1 Ġqi2
zui4 Ġjin4Ġ
zu3 Ġcheng2Ġyuan2Ġ
Ġji2Ġ you3Ġ
Ġta1Ġ ke3Ġyi3Ġ
Ġbei4Ġ ji1Ġ
Ġdai4Ġ wei2Ġ
xian1Ġ qu1Ġ
fei4Ġ qi4Ġ
Ġch i4
ĠĠĠR e
huo2Ġdong4 Ġzhong1Ġ
ĠĠĠ193 7Ġnian2Ġ
mu4Ġni2Ġ hei1Ġ
yi1Ġli4Ġ nuo4Ġyi1Ġ
p sĠ
Ġ xue3Ġ
lu4 Ġde2Ġ
bo Ġdu4Ġ
xing4 Ġdi4Ġ
zhuang1 Ġyuan2Ġ
xin4 Ġzhong1Ġ
yan4 ĠdeĠ
Ġbu4Ġ bei4Ġ
li4Ġ yi4Ġ
Ġji2Ġ zhi4Ġ
Ġxing2Ġ che1Ġ
Ġxian4Ġ ren4
ben3Ġ shu1Ġ
Ġyin1Ġ su4
Ġzhe4Ġ ci4
Ġzhe4Ġ yi4Ġwei4Ġ
san1Ġ ceng2Ġ
Ġzhu4Ġ ming2ĠdeĠ
bian1Ġ ru4Ġ
jiang3Ġ shi1Ġ
lei4Ġ bie2Ġ
lei4Ġ an4Ġjian4Ġ
hui2Ġ ying4
Ġgao1Ġ su4
Ġqian2Ġ long2
Ġxing2Ġzheng4Ġ zhang3Ġguan1Ġ
ol orĠ
ĠdeĠbu4Ġ dui4Ġ
ling4Ġyi1Ġ zhong3Ġ
ya4Ġli4Ġ sang1Ġ
Ġhua4Ġxue2 Ġshi4Ġwei4Ġ
8 9Ġ
b yĠĠĠ
Ġ gui1
Ġ shan4
Ġ kong4Ġzhi4Ġ
ĠĠĠ xiao4Ġ
ĠĠĠ miao2Ġshu4Ġ
ti n
hou4 Ġcheng2Ġwei2Ġ
wei2 Ġji2Ġ
yin1 Ġmou2Ġ
ben3 Ġshi4Ġ
quan2 Ġnian2Ġ
duo1 Ġnian2ĠdeĠ
198 1Ġnian2Ġ
ro m
zai4Ġ wei4Ġ
Ġbu4Ġ shu3
yi4Ġ yi4Ġ
Ġgong1Ġ zhong4
guan1Ġ qi
fa3Ġ gui1Ġ
ba1Ġ da2Ġ
tui1Ġ fan1
Ġzhi3 ĠdeĠshi4Ġ
Ġtai4Ġ yang2Ġ
Ġyu2Ġ199 9Ġnian2Ġ
Ġxian4Ġlu4Ġ kou3Ġ
co diceĠ
a1Ġgen1Ġ ting2
1 Ġyi4Ġ
2 ĠdeĠ
7 4Ġnian2Ġ
Ġ dian3Ġ
Ġ fei1Ġchang2Ġ
ĠĠĠ 20Ġshi4Ġji4Ġ
li n
ai1 Ġde2Ġ
zhan4 Ġji1Ġ
fu4 Ġyuan2Ġ
fang1 Ġji4Ġ
ping2 Ġshi4Ġ
wen2 Ġjian4
te4 Ġzhi4Ġ
ying1 Ġshi4Ġ
xun4 ĠdeĠ
195 2Ġnian2Ġ
Ġwei4Ġ xing1
wei2Ġ hu4Ġ
Ġchu1 Ġle
Ġhou4Ġ xu4Ġ
shang4Ġ zhen4Ġ
Ġer2 Ġwei4Ġ
dong1Ġ lu4Ġ
zui4Ġ ju4Ġ
jin3Ġ ci4Ġyu2Ġ
zhi1Ġ hou4ĠdeĠ
zhuang1Ġ cun1Ġ
ju1Ġ bu3Ġ
Ġ3 5Ġ
aĠĠĠ P
zai1Ġ hai4Ġ
shuai4Ġ xian1Ġ
tiao2Ġjian4Ġ xia4Ġ
e2Ġhai4Ġe2 Ġzhou1Ġ
Ġ wang3
Ġ tuan2Ġ
Ġ kui2Ġ
Ġ huang2Ġjia1Ġ
an c
ĠĠĠ tai2Ġwan1
ming2 Ġcheng2Ġyuan2Ġ
shu4 Ġnian2Ġ
ti2 ĠdeĠ
pu3 Ġsi1Ġ
chu3 Ġguo2Ġ
ren2Ġ lei4Ġ
Ġfu4Ġ gai4
Ġdan4Ġ bai2
shu3Ġ xing4Ġ
jia4Ġ zhi2
fan4Ġ chou2Ġ
tuo1Ġ li2
ĠJ ohn
niu3Ġyue1 Ġzhou1Ġ
lv4Ġwei4Ġ 0
shou1Ġlu4 Ġyu2Ġ
6 9Ġ
T T
Ġ st
Ġ xue4Ġ
Ġ gui1Ġding4Ġ
Ġ huang2Ġdi4Ġ
Ġ hen3Ġduo1Ġ
tai2 Ġyu3Ġ
chu an4
lang3 Ġxi1Ġsi1Ġ
Ġbu4Ġ lei2Ġ
cheng2Ġ li4ĠdeĠ
Ġguo2Ġ jun1
ming2Ġ cheng1
Ġchu1Ġ ju2Ġ
Ġchu1Ġ sheng1Ġzai4Ġ
kai1Ġ pu3Ġ
jian1Ġ jin4Ġ
jie4Ġ ru4Ġ
gu3Ġ ba1Ġ
Ġzh ai2Ġ
bo1Ġ li2
bian4Ġ lun4Ġ
Ġran2 Ġer2Ġzai4Ġ
qian1Ġ xi3
di3Ġ kang4
ĠdeĠshi2Ġ ji4Ġ
sai1Ġ e2Ġ
ĠãĤ ¹
Ġha1 Ġli4Ġ
Ġyi4Ġzhi2 Ġzai4Ġ
Ġchao2Ġ ting2Ġ
di2Ġshi4Ġ ni2
DV DĠ
hang2Ġzhan4Ġ lou2Ġ
2 Ġshi2Ġ
4 4Ġnian2Ġ
F acebo
k ui4
Ġ qiang1Ġ
ĠĠĠ bai2Ġ
qi1 Ġming2Ġ
quan2 Ġzhou1Ġ
bao3 Ġjian4Ġ
xiao4 Ġzhong1Ġ
mu3 Ġhe2Ġ
on eĠ
ar eĠĠĠ
ku4 ĠdeĠ
Ġcheng2Ġ du4ĠdeĠ
ji1Ġ guan1Ġ
Ġri4Ġ chang2Ġ
Ġli3Ġ jia1Ġ
Ġbei4Ġ xuan3Ġwei4Ġ
jin1Ġ gang1Ġ
sai4Ġ ju1Ġ
Ġzh ui4Ġ
ce4Ġ hua4Ġ
Ġ19 21Ġnian2Ġ
xun2Ġ hang2Ġ
lu2Ġ sen1Ġ
lao3Ġ ban3Ġ
ĠT h
Ġcheng2Ġyuan2Ġ guo2Ġ
miao4 ĠdeĠ
fei2 Ġte4Ġlie4Ġ
icrosof tĠĠĠ
6 6Ġnian2Ġ
6 Ġgong1Ġli3Ġ
z ou1Ġ
Ġ biao1Ġzhun3Ġ
gong1 Ġzhong1Ġ
le sĠ
su i3Ġ
ru4 Ġxue2Ġ
da2 Ġdao4
11 Ġshi2Ġ
fang2 ĠdeĠ
si3 ĠdeĠ
Ġji2Ġ ta1Ġ
Ġxi1Ġ shou1Ġ
zhan4Ġ chang3Ġ
Ġwei2Ġ xiu1Ġ
gao1Ġ xiong2Ġ
zhen4Ġ ying2Ġ
bian1Ġ fu2Ġ
chu4Ġ chu4Ġzhang3Ġ
sĠĠĠ S
Ġzai4Ġ200 4Ġnian2Ġ
Ġwu2 Ġxian4Ġ
mu4Ġdi4Ġ di4Ġ
zhai4Ġ wu4Ġ
xie2Ġshang1Ġ hui4Ġyi4Ġ
ĠĠĠ xiang1Ġguan1Ġ
fa3 Ġjun1Ġ
er4 Ġge4Ġ
geng4 Ġyou3Ġ
âĢ »
guan4 Ġli4Ġ
st ĠĠĠ
Ġbu4Ġ ke3
Ġbu4Ġ xing2Ġ
Ġren2Ġ yi4Ġ
Ġyu3Ġ mei3Ġguo2Ġ
Ġxi1Ġ lin2Ġ
Ġzhi1Ġ yong4Ġ
ren4Ġ jiao4Ġ
dian4Ġ ci2Ġ
ge2Ġ lai2Ġ
Ġzhe4Ġ liang3Ġge4Ġ
ba1Ġ sai1Ġ
mei3Ġ la1Ġ
zhi1Ġ wai4Ġ
ken3Ġ se4
huan3Ġ man4Ġ
ĠĠĠhou4Ġ lai2Ġ
Ġshi4Ġwei1Ġ zhe3Ġ
fu2Ġluo2Ġli3Ġ da2Ġzhou1Ġ
7 ĠĠĠ
7 1Ġ
H E
c or
i ngĠ
t ao1
Ġ jiao1
Ġ ding3Ġ
Ġ juan3Ġ
ĠĠĠ yang2Ġ
yu3 Ġshi2Ġ
chu1 Ġxian4ĠdeĠ
yan2 Ġli4Ġ
duo1 Ġli4Ġ
fu2 Ġda4Ġxue2Ġ
nei4 Ġhe2Ġ
neng2 ĠdeĠ
song4 Ġzhi4Ġ
ren2Ġ lei4
Ġyuan2Ġ sheng1Ġ
qian2Ġ fang1Ġ
Ġqi2Ġ xia4
hai3Ġ xia2
gu3Ġ fen4Ġ
bo1Ġ kuan3Ġ
tiao2Ġ yue1
xin4Ġ feng4
Ġ19 19Ġnian2Ġ
chong2Ġ xiu1Ġ
Ġfen1Ġ lan2Ġ
kai1Ġshi3 Ġhou4Ġ
Ġlian2Ġ bang1Ġ
geng1Ġ huan4Ġ
ya3Ġ dian3Ġ
Ġsui2Ġ zhu4
ĠÃ ©
bei3Ġjing1 Ġda4Ġxue2Ġ
Ġhou4Ġlai2 Ġzai4Ġ
ou1Ġzhou1 Ġguo2Ġjia1Ġ
li4Ġhe2Ġ wu2Ġzheng4Ġzhuang4Ġgan3Ġran3Ġzhe3Ġ
Ġshi2Ġyi1Ġ yue4Ġ
Ġgan1Ġ su4Ġ
que1 Ġxian4Ġ
Ġ xi3
Ġ meng2Ġgu3
yi1 Ġnian2ĠdeĠ
hou4 Ġji2Ġ
er2 Ġbei4Ġ
lu4 Ġsi1Ġ
ze2 Ġhui4Ġ
Ġxian4Ġ ding4Ġ
xin1Ġ a1Ġji1Ġtan3
hua4Ġ ti2Ġ
min2Ġ jian1
liang3Ġ xiang4Ġ
gu4Ġ wen4
zhou1Ġ qi1Ġ
ĠĠĠS p
zui4Ġhou4Ġ yi2Ġge4Ġ
Ġbo1Ġ lan2Ġ
Ġyou4Ġming2Ġ BDĠ
4 Ġgong1Ġli3Ġ
Ġ miao2Ġ
ĠĠĠ ao4Ġ
qu1 Ġyu3Ġ
suo3 Ġbu4Ġtong2Ġ
jie3 Ġmei4Ġ
197 4Ġnian2Ġ
Ġcheng2Ġ ke4
ren4Ġ tian1Ġtang2Ġ
xin1Ġ zhu2
nan2Ġ hai3Ġ
fen1Ġ wei2
an4Ġ cha2Ġ
Ġdai4Ġ ling3Ġ
chuan2Ġ jiao4Ġ
Ġnan2Ġ fang1Ġ
qian1Ġ mi3
qin1Ġ wang2
lun4Ġ shu4Ġ
han2Ġ shu4
shuang1Ġ fang1
ĠS h
mai4Ġ a1Ġ
bu3Ġ ji3Ġ
Ġfu2 Ġli3Ġ
jie1Ġdao4Ġ ban4Ġshi4Ġchu4Ġ
Ġwei4Ġyu2Ġgai1Ġguo2Ġ bei3Ġbu4Ġ
Ġyi1Ġsi1Ġ lan2
gr oundĠ
4 6Ġnian2Ġ
7 3Ġnian2Ġ
d uo4
k a1
Ġ mian3Ġdian1Ġ
hou4 Ġgong1Ġ
dui4 Ġzhi4Ġ
shou3 Ġge4
mian4 Ġwei4Ġ
mi4 Ġji2Ġ
wan1 Ġdao4Ġ
ren2Ġ kou3
Ġshi2Ġ si4Ġ
guan1Ġ kan4
yan2Ġ xu4Ġ
ye4Ġ ti3Ġ
fu2Ġ lu3Ġ
Ġdong4Ġ wu4ĠdeĠ
xuan3Ġ ba2
ying4Ġ bi4Ġ
Ġ19 23Ġnian2Ġ
gan1Ġ rao3Ġ
ĠãĤ ¤
kao3Ġlv4 Ġdao4Ġ
Ġke4Ġxi1Ġ ta3Ġni2Ġda4Ġqu1Ġ
lu4Ġyin1Ġshi4Ġ zhuan1Ġji2Ġ
8 ĠĠĠ
Ġ wan4
Ġ geng1Ġming2Ġwei4Ġ
ao4 Ġde2Ġ
qu1 Ġwei4Ġyu2Ġ
dian4 Ġdong4
nv3 Ġyou3Ġ
mi4 Ġer3Ġ
Ġli4Ġ wei3Ġ
Ġdao4 Ġta1Ġ
dui4Ġ ying4Ġ
shu1Ġ niu3
dan1Ġ dang1Ġ
da2Ġ ke1
Ġxiang1Ġ xin4Ġ
jiang3Ġ zhang1Ġ
4Ġ hao4Ġ
yu4Ġ suan4Ġ
man4Ġ ha1Ġ
xuan1Ġ cheng1
ĠĠĠM ar
re4Ġdai4Ġ di1Ġqi4Ġya1Ġ
shuai4 Ġjun1Ġ
nd ro
Ġ ju3
ĠĠĠ wu1Ġke4Ġlan2Ġ
fen1 Ġdui4Ġ
lv4 Ġdi4Ġ
rong2 Ġyu2Ġ
rong2 Ġhuo4Ġ
qiang2 Ġxing2Ġ
194 0Ġnian2Ġ
hen3 Ġgao1Ġ
197 1Ġnian2Ġ
25 0
ĠdeĠ yin1Ġyue4Ġ
Ġri4 Ġshi4Ġ
Ġxian4Ġ lu4
guan1Ġ zhu4
Ġwei2Ġ lai2Ġ
Ġyu4Ġ ce4Ġ
ge2Ġ lei1
huan2Ġ rao4Ġ
jia3Ġ ban3Ġ
wa3Ġ sheng3Ġ
Ġ4 5Ġ
Ġluo2Ġ bo2Ġ
Ġan1Ġ dong1Ġ
jiao1Ġhui4Ġ chu4Ġ
Ġ huan2
Ġ bi3Ġsai4
gong4 Ġzhong1Ġyang1Ġ
shi2Ġ ji4Ġ
yi1Ġ yang4Ġ
Ġshi2Ġ er4Ġyue4Ġ
Ġsi1Ġ ta3
zheng4Ġ dang3
Ġsheng1Ġ cheng1
Ġt u4Ġ
zhen1Ġ xiang4Ġ
huan4Ġ zhe3
lian4Ġ ai4Ġ
Ġshi4Ġzhong1Ġ xin1
Ġtong2Ġnian2Ġ 8Ġyue4Ġ
Ġshen1Ġ du4Ġ
Ġzhi2Ġ jing4Ġ
Ġai4 Ġde2Ġhua2Ġ
jie2Ġmu4 Ġzhong1Ġ
zi1Ġben3Ġ zhu3Ġyi4Ġ
4 000
E D
g eng3Ġ
Ġ lian2
Ġ ding4
Ġ niu3Ġ
an1 Ġda4Ġ
ĠĠĠ bi3Ġsai4Ġ
ao4 Ġbu4Ġ
zuo4 Ġhe2Ġ
shi3 Ġta1Ġ
zhu3 Ġji1Ġ
Ġshi4Ġ dai4Ġ
Ġbu4Ġ fu4Ġbu4Ġzhang3Ġ
Ġshi2Ġ qi1Ġnian2Ġ
you3Ġ xian4Ġ
Ġyou3Ġ leĠ
li3Ġ you2Ġ
zhu3Ġ yi4Ġhe2Ġ
shu4Ġ xue2Ġjia1Ġ
shou3Ġ xi2
zui4Ġ zhang3ĠdeĠ
ba1Ġ xi1
ba1Ġ he4
jing3Ġ wu4Ġ
kong1Ġ jiang4Ġ
Ġk u3
wan4Ġren2Ġ ci4Ġ
zhan4Ġdou4 Ġzhong1Ġ
Ġ xiao1
li3 Ġzhi4Ġ
dai4 Ġhe2Ġ
jin4 Ġqiu2Ġ
bi3 Ġsi1Ġ
bian4 Ġhou4Ġ
han4 Ġren2Ġ
di3 Ġbu4Ġ
196 6Ġnian2Ġ
lang2 ĠdeĠ
Ġhe2Ġ M
Ġcheng2Ġ yuan2ĠdeĠ
xi1Ġ fang1Ġ
hui4Ġ hua4Ġ
Ġke4Ġ lin2Ġ
Ġshang4Ġ xia4Ġ
hai2Ġ bao1Ġkuo4Ġ
wan2Ġ fa3Ġ
Ġci3Ġ qian2Ġ
Ġshi4Ġshi4Ġ zhang3Ġ
qing4Ġ zhu4
Ġxi1 Ġyuan2Ġ
miao2Ġshu4 ĠleĠ
tai2Ġnan2 Ġshi4Ġ
jiao4Ġke1Ġ wen2Ġ
8 2Ġnian2Ġ
n a3
yu3 ĠĠĠ
jiang1 ĠdeĠ
fen1 Ġhui4Ġ
tai2 Ġshi4Ġ
Ġshi2Ġ ba1Ġnian2Ġ
Ġren2Ġ qun2Ġ
Ġge4 Ġchu1Ġru4Ġkou3Ġ
Ġbei4Ġ si1Ġ
zhu4Ġ ru4Ġ
shou3Ġ ying4Ġ
Ġjun1Ġ qu1
Ġzhan4Ġ ju4Ġ
zhi3Ġ dao3
2Ġ hao4
yue1Ġ han4
zu3Ġ shu1Ġji4Ġ
pai2Ġ chu2
Ġshi3Ġ cheng1Ġ
tan4Ġ xian3Ġ
wu1Ġke4Ġlan2 ĠdeĠ
Ġtai2Ġ bei3Ġ
dong1Ġji4Ġ ao4Ġlin2Ġpi3Ġke4Ġyun4Ġdong4Ġhui4Ġ
r y
r yĠ
ĠĠĠ zuo4Ġ
xian4 Ġlu4Ġ
dai4 Ġzai4Ġ
mei3 Ġshi2Ġ
qian1 Ġdao4Ġ
ĠdeĠ zuo4Ġpin3Ġ
zhi4Ġ shao3Ġ
Ġgong1Ġ bu4
Ġyi1Ġ fu2Ġ
Ġyi1Ġ zhao4Ġ
hou4Ġ bei4Ġ
lu4Ġ duan4
fen1Ġ xi1
Ġju4Ġ bei4Ġ
Ġdong4Ġ hua4
cai2Ġ zheng4Ġbu4Ġ
ci2Ġ xing4Ġ
wei3Ġ da4ĠdeĠ
qiang2Ġ lie4
huo4Ġ wu4Ġ
Ġguo2Ġjia1Ġ an1Ġquan2Ġ
ha1Ġ sa4Ġke4Ġsi1Ġ
ke3Ġneng2 Ġzai4Ġ
Ġb ack
ĠdeĠyi4Ġ shu4Ġ
fou3Ġ jue2Ġ
Ġwei4Ġyu2Ġgai1Ġguo2Ġ dong1Ġnan2Ġbu4Ġ
Ġte4Ġbie2 Ġshi4Ġzai4Ġ
Ġan4Ġ zhao4Ġ
ĠdeĠji1Ġchu3 Ġshang4Ġ
mi4Ġxi1Ġxi1Ġ bi3
i dĠ
Ġ xiu1
ĠĠĠ th
li3 Ġji2Ġ
mian4 Ġyou3Ġ
wang2 Ġgong1Ġ
bo1 Ġxi1Ġ
jing4 Ġwei4Ġ
fei4 Ġcheng2Ġ
sai1 Ġer3
195 4Ġnian2Ġ
wang4 ĠdeĠ
ĠdeĠ guo2Ġji4Ġ
Ġzai4Ġ du4
Ġbu4Ġ lun2Ġ
Ġzhi4Ġ shi3Ġ
Ġyi1Ġ duan4
Ġle Ġzhong1Ġguo2Ġ
Ġyu3Ġ duo1Ġ
Ġer3 Ġjia1Ġ
xia4Ġ shui3Ġ
fa1Ġ shou4
an4Ġ cha2Ġsi1Ġ
shan1Ġ kou3Ġ
feng1Ġ bi4Ġ
wang2Ġ zi3
ba1Ġ ma3
tu2Ġ sha1
gong4Ġ xiang3Ġ
hu4Ġ zhao4Ġ
gou4Ġ cheng2ĠdeĠ
Ġqi2Ġzhong1Ġ yi2Ġge4Ġ
Ġs an4
zheng3Ġ shu4Ġ
ol le
qu1Ġyu4 ĠdeĠ
8 3Ġ
t ou1
Ġ ti3
Ġ yan3
Ġ zheng3
jing1 Ġcheng2Ġ
suo3 Ġzhi1Ġ
lv4 Ġhe2Ġ
bie2 Ġren2Ġ
xu1 Ġzai4Ġ
sui4 Ġren2Ġkou3Ġ
di3 ĠdeĠ
yuan3 Ġdong1Ġ
Ġshi4Ġ jue2Ġ
Ġyi1Ġ kao4Ġ
Ġta1Ġ you4Ġ
ping2Ġ gu1
Ġchu1Ġ sheng1
zhe4Ġ shou3Ġ
zhi2Ġ tong1Ġ
jiao4Ġ hui4ĠdeĠ
shi1Ġ ge1Ġ
luo4Ġ yang2Ġ
yu4Ġ shi3Ġ
geng4Ġ gao1ĠdeĠ
Ġp u1
xun2Ġ huan2
Ġxian4ĠdeĠ cheng2Ġshi4Ġ
bu3Ġ chong1
ruan3Ġ ti3
Ġzai4Ġyi1Ġ ci4Ġ
zi1Ġge2Ġ sai4Ġ
Ġtou4Ġ guo4
Ġzhi4Ġzao4Ġ shang1Ġ
lan2Ġqiu2Ġ yun4Ġdong4Ġyuan2Ġ
tian1Ġjin1 Ġshi4Ġ
Ġkong3Ġ tai4
ĠĠĠst yleĠ
ba1Ġle4 Ġsi1Ġtan3
C H
Ġ bi4
ĠĠĠ yi3
ĠĠĠ fei1Ġ
ĠĠĠ she4Ġ
nan2 Ġyu3Ġ
kai1 Ġguo2Ġ
mu4 Ġhe2Ġ
yang2 Ġren2Ġ
liao4 Ġli3Ġ
ning2 Ġxian4Ġ
chun1 Ġjie2Ġ
Ġbu4Ġ lang3
Ġge4 Ġxian4Ġ
Ġyu3Ġ ta1
Ġzhou1 Ġzhi1Ġ
duo1Ġ da2Ġ
wu3Ġ shu4Ġ
Ġdai4Ġ ling3
shu1Ġ fa3Ġ
si4Ġ miao4Ġ
yan3Ġ xi2Ġ
bo1Ġ ying4Ġ
Ġm ao1
Ġxiang1Ġ jiao4Ġyu2Ġ
shu3Ġ wu4Ġzhong3Ġ
Ġping2Ġfang1Ġ ying1Ġli3Ġ
Ġch ou3Ġ
wen2Ġhua4 Ġhe2Ġ
liu2Ġxing2Ġ yin1Ġyue4Ġ
zong4 Ġdui4Ġ
Ġniu3Ġyue1 Ġshi2Ġbao4Ġ
h en4Ġ
x tĠ
Ġ shui3
Ġ xiu4Ġ
ĠĠĠ dang1Ġshi2Ġ
hua4 Ġji4Ġ
wen2 Ġhe2Ġ
shi1 Ġzai4Ġ
ba1 Ġge4Ġ
dang3 Ġzhong1Ġyang1Ġ
wei1 Ġer3Ġshi4Ġ
bai2 Ġgong1Ġ
chao1 Ġshi4Ġ
xie4 Ġren4Ġ
si onĠ
Ġzai4Ġ jian4Ġ
Ġdi4Ġ yi2Ġge4
Ġyu2Ġ 17
Ġde2Ġ piao4Ġ
Ġke4Ġ hu4Ġ
fen1Ġ kai1Ġ
Ġping2Ġ gu1Ġ
ti3Ġ zhong4Ġ
yi2Ġ dao3Ġ
wu2Ġ xu1Ġ
5Ġyue4Ġ 1Ġri4Ġ
bie2Ġ shu4Ġ
ĠĠĠC on
Ġxing2Ġzheng4Ġ qu1Ġhua4Ġ
ĠĠĠzhe4Ġ xie1Ġ
Ġyi4Ġzhi2 Ġshi4Ġ
ĠdeĠguan1Ġ dian3Ġ
mei4 Ġmei4Ġ
ping2Ġlun4 Ġjia1Ġ
6 7Ġnian2Ġ
g a2Ġ
Ġ lu4Ġyi4Ġ
Ġ 24Ġ
ao4 Ġzhou1
wu4 Ġji2Ġ
fu2 Ġsi1Ġ
jiu4 ĠdeĠ
can1 Ġyi4Ġyuan4
195 6Ġnian2Ġ
zou3 ĠleĠ
Ġdi4Ġ di
Ġyi1Ġ jiao3Ġ
Ġshe4 Ġshi4Ġ
guan1Ġ jie2Ġ
shou3Ġ pi1Ġ
nei4Ġ zheng4Ġbu4Ġ
qi3Ġ dian3Ġ
qi4Ġ xuan2
ke1Ġ te4Ġ
nv3Ġ xing4ĠdeĠ
Ġt ang1
gai3Ġ zhuang1Ġ
sheng4Ġ dian4Ġ
gong4Ġ feng4Ġ
mi4Ġ xie1Ġgen1
jiang3Ġ shu4
Ġjie2Ġ gou4Ġ
shu3ĠdeĠ dong4Ġwu4Ġ
jiao4Ġyu4 ĠdeĠ
kai3 Ġer3Ġ
mu4Ġni2Ġ hei1
Ġgai1Ġwu4Ġzhong3ĠdeĠmo2Ġshi4Ġchan3Ġ di4Ġzai4Ġ
T O
T heĠĠĠ
y u1Ġ
Ġ ji2
ĠĠĠ suo3Ġ
li3 Ġzai4Ġ
xing1 Ġren2Ġ
bang1 ĠdeĠ
wang4 Ġsi1Ġ
zan4 Ġwu2Ġ
Ġbu4Ġ luo2Ġ
Ġzhi4Ġ an1Ġ
ji1Ġ bai4
ming2Ġ que4Ġ
guo4Ġ lai2Ġ
zui4Ġ di1
bi4Ġ hua4Ġ
jin4Ġ zhan3Ġ
Ġn u2Ġ
Ġzai4Ġ200 3Ġnian2Ġ
ĠĠĠ198 4Ġnian2Ġ
suo1Ġ xie3Ġ
gai3Ġbian1 Ġwei4Ġ
Ġmou3Ġ xie1Ġ
- .
o st
Ġ liao2
Ġ fa1Ġzhan3
Ġ hao2Ġ
Ġ bao4Ġdao4Ġ
hu ang1
you3 Ġwei4Ġ
ye4 Ġshi4Ġ
ma3 Ġde2Ġ
wu2 Ġshi4Ġ
zi3 Ġmei4
yan4 Ġshi4Ġ
194 2Ġnian2Ġ
gei3 Ġchu1Ġ
di4Ġ shi2Ġ
Ġji2Ġ xing4Ġ
Ġer2 Ġyu3Ġ
Ġshang4Ġ su4Ġ
fu2Ġ nie4Ġ
ya4Ġ ma3Ġ
Ġsheng1Ġ ming4
yi2Ġ lan2
xiao3Ġ ti2Ġ
lie4Ġ ning2Ġ
ying1Ġ chao1Ġ
zu2Ġ qun2
zheng4Ġzhi4Ġ xie2Ġshang1Ġhui4Ġyi4Ġ
deng1Ġ chang2
kuan1Ġ du4Ġ
Ġge2Ġ lei2Ġ
Ġbi3Ġ ru2
diao1Ġ su4
Ġqi2Ġta1 Ġren2Ġ
bang1Ġzhu4Ġ xia4Ġ
da1Ġ dang4Ġ
zui4Ġhou4Ġyi1Ġ ci4Ġ
sang4Ġ shi1Ġ
ming2 Ġyu3Ġ
xi1 Ġdao4Ġ
xi1 Ġri4Ġben3Ġ
bei4 Ġli4Ġ
fu4 Ġli3Ġ
bao4 Ġyu3Ġ
sheng4 Ġxia4Ġ
wa3 Ġsi1Ġ
man3 Ġzhou1Ġ
Ġbu4Ġ jian4Ġ
Ġxian4 Ġyi4Ġ
Ġge4 Ġyou3Ġ
Ġji1Ġ yin1
ĠleĠ gai1Ġ
dian4Ġ zhan4Ġ
suo3Ġ zuo4ĠdeĠ
Ġyu4Ġ gao4Ġ
Ġren4Ġ jiao4Ġ
mi3Ġ lan2Ġ
leĠ yi2Ġge4Ġ
du2Ġ xing4Ġ
ju1Ġ zhu4
ying3Ġxiang3Ġ li4ĠdeĠ
tu1Ġ jue2
xing2Ġzheng4Ġ qu1Ġ
xiong1Ġ zhang3Ġ
ao4Ġlin2Ġpi3Ġke4Ġ yun4Ġdong4Ġ
ĠĠĠc olspanĠ
mu4Ġbiao1 Ġshi4Ġ
bo1Ġshi4Ġ dun4Ġ
fei1Ġli4Ġ pu3Ġ
I A
S P
Ġ po
Ġ tuo1
Ġ zao3Ġqi1Ġ
Ġ pei4Ġhe2Ġ
ĠĠĠ de2Ġ
ao4 ĠdeĠ
dui4 Ġzhong1Ġguo2Ġ
qian2 Ġli4Ġ
duo1 Ġyu2Ġ
dan1 Ġshi4Ġ
cai2 Ġfu4Ġ
ri p
ri v
Ġshi4Ġ qian2Ġ
Ġzai4Ġ xiang1Ġgang3
Ġzhi4Ġ xu4Ġ
Ġda4Ġ ting1Ġ
Ġbei4Ġ ge2Ġ
zui4Ġ hou4
zhen4Ġ ya1
wa3Ġ la1Ġ
Ġk eng1Ġ
Ġling4Ġ yi2Ġge4Ġ
Ġzui4Ġzhong1Ġ yu2Ġ
can1Ġsai4Ġ zhe3Ġ
wai4Ġguo2Ġ ren2Ġ
I L
e u
Ġ neng2
Ġ kong3
Ġ chan3Ġ
Ġ shun4Ġ
yi1 Ġhe2Ġ
zheng4 Ġren2Ġ
xiang4 Ġzai4Ġ
deng3 Ġshi4Ġ
hua2 Ġyi4Ġ
tang2 Ġdai4Ġ
193 9Ġnian2Ġ
ri tic
qiang1 ĠdeĠ
Ġri4 Ġji2Ġ
Ġyuan2Ġ yi4Ġ
Ġri4Ġ ji4Ġ
Ġchu1Ġ shi3Ġ
guan1Ġ zhi2Ġ
Ġjun1Ġ xian2Ġ
zhi2Ġ jiao4Ġ
yi2Ġ bu4ĠdeĠ
bi4Ġ ye4
xiao4Ġ xiang4Ġ
ban4Ġ chang3Ġ
gu4Ġ zhang4Ġ
12Ġyue4Ġ 28Ġri4Ġ
Ġh eng1
Ġshi4Ġdi4Ġ er4Ġ
ti3Ġyu4Ġ chang3
Ġma3 Ġke4Ġ
Ġshi4Ġwei4Ġyu2Ġmei3Ġguo2Ġ mi4Ġsu1Ġli3Ġ
yi4Ġshi2Ġ dao4
lang4Ġ man4Ġ
fei3 Ġcui4Ġ
m ar
Ġ guo3Ġ
Ġ you3ĠdeĠ
Ġ guo4Ġqu4Ġ
ĠĠĠ si4Ġ
zhan4 Ġxian4Ġ
shu4 Ġli4Ġ
zhu4 Ġshe4Ġ
dong4 ĠdeĠ
wei3 Ġren4Ġ
zhuang1 Ġzai4Ġ
cai2 Ġshi4Ġ
Ġshi4Ġ ji4
yi1Ġ ji2Ġ
Ġdi4Ġ yi1Ġbu4Ġ
Ġli4Ġ xi1Ġ
Ġyuan2Ġ xian1Ġ
nan2Ġ yan3Ġyuan2Ġ
fu2Ġ la1Ġ
yao4Ġ sai4Ġ
Ġzhu4Ġ zuo4Ġ
sha1Ġ mo4Ġ
shang1Ġ hai4
yan2Ġjiu1 Ġzhong1Ġ
qin1Ġ lve4Ġ
she4Ġ hui4ĠdeĠ
pei4Ġ bei4
Ġci3 Ġzhan4Ġ
fa1Ġxian4 Ġyu2Ġ
chuan2Ġtong3 Ġshang4Ġ
jie4Ġquan2Ġguo2Ġ ren2Ġda4Ġdai4Ġbiao3Ġ
qi3Ġye4 Ġjia1Ġ
gan3Ġlan3 Ġqiu2Ġ
ka3Ġsi1Ġdi4Ġli4Ġ ya4Ġ
9 6Ġ
Ġ cun1Ġ
Ġ xi4Ġlie4
zhi2 Ġxian4Ġ
pai2 Ġqiu2Ġ
bu3 Ġshi2Ġ
pao4 Ġji1Ġ
Ġgong1Ġ yu4Ġ
Ġgong1Ġ wu4Ġyuan2Ġ
dui4Ġ hua4Ġ
dong1Ġ feng1Ġ
ye4Ġ zhe3Ġ
jie1Ġ ceng2Ġ
Ġzuo4Ġ yong4
xuan3Ġ xiu4Ġ
tai4Ġ lei1Ġ
bian1Ġ jiang1Ġ
ban4Ġ jing4Ġ
gou4Ġ ru4Ġ
kong1Ġ xi2
Ġ19 17Ġnian2Ġ
Ġjin1Ġ tian1Ġ
hua2Ġren2Ġmin2Ġ gong4Ġhe2Ġ
kai1Ġshi3 ĠdeĠ
shen3Ġ pan4
ĠĠĠA n
fan2Ġ rong2Ġ
yi4Ġshi2Ġ dao4Ġ
ying4Ġyong4Ġ cheng2Ġshi4Ġ
Ġfei1Ġlv4Ġ bin1Ġ
l or
Ġ biao1Ġzhi4Ġ
hai3 Ġzhan4Ġ
tai2 Ġhe2Ġ
gu3 Ġji2Ġ
ni2 Ġji1Ġ
hua2 Ġnan2Ġ
lu3 ĠdeĠ
194 3Ġnian2Ġ
tan4 Ġtao3Ġ
shi2Ġ qi1ĠdeĠ
sheng1Ġ yu4Ġ
Ġhou4Ġ you4Ġ
ping2Ġ jie4Ġ
er4Ġ hao4Ġ
Ġzhu4Ġ ce4Ġ
tong2Ġ pai2Ġ
dang3Ġ wei3Ġshu1Ġji4Ġ
hong2Ġ se4
xie2Ġ hui4ĠdeĠ
jun1Ġ dui4
hui1Ġ se4Ġ
Ġyin1Ġwei4Ġ zai4Ġ
song4Ġ wang3Ġ
ĠR e
ĠĠĠzhong1Ġ hua2Ġmin2Ġguo2Ġ
cui1Ġ hua4Ġ
Ġzhi1Ġjia1Ġ ge1Ġ
Ġdi4Ġzhong1Ġ hai3Ġ
Ġfu2Ġlang3Ġ shen2Ġ
6 3Ġnian2Ġ
ï ¹
Ġ chuang4Ġli4Ġ
ĠĠĠ zhi3Ġ
feng1 Ġli4Ġ
10 Ġren2Ġ
zi3 Ġmei4Ġ
Ġdi4Ġ zhi3Ġ
Ġzhi4Ġ da4Ġ
yuan2Ġ su4Ġ
Ġguo2Ġ hui4Ġyi4Ġyuan2Ġ
Ġli3Ġ ya4
ren4Ġ nei4Ġ
qi3Ġ fa1Ġ
shu3Ġ shu3Ġ
fei4Ġ chu2
gai4Ġ yao4Ġ
ĠleĠyi1Ġ xie1
Ġtong1Ġ chang2Ġshi4Ġ
ĠĠĠ195 0Ġnian2Ġ
Ġyi3Ġjing1 Ġbei4Ġ
Ġxiao3 Ġping2Ġ
xin1Ġcheng2Ġ li4ĠdeĠ
tong2Ġxing4Ġ lian4Ġ
Ġback groundĠ
J RĠ
Ġ VĠ
an k
zuo4 Ġcheng2Ġ
jie2 Ġri4Ġ
mu4 Ġji1Ġ
tai2 Ġhou4Ġ
qi4 Ġji1Ġ
gang3 ĠdeĠ
mo2 ĠdeĠ
que4 Ġshi4Ġ
ĠdeĠ wen4Ġti2Ġ
Ġwei4Ġ jun1Ġ
Ġzai4Ġ ju4Ġ
yuan2Ġ wai4Ġlang2Ġ
Ġjun1 Ġjian4Ġ
Ġyu4 Ġshi4Ġ
liu2Ġ lan3Ġ
zi1Ġ ge2
ci2Ġ qu4Ġ
Ġtong2Ġ shi2Ġzai4Ġ
zhen1Ġ zhu1Ġ
hen3Ġ shao3
guan3Ġli3Ġ ju2
Ġch un2
zhui1Ġ sui2Ġ
ding3Ġ dian3Ġ
Ġcong2 Ġshi4Ġ
50Ġ wan4Ġ
Ġmin2Ġ jin4Ġ
zhe2 Ġxue2Ġjia1Ġ
Ġren4Ġwei2 Ġshi4Ġ
che1Ġren2Ġ ci4Ġ
G P
Ġ hao3
en ĠĠĠ
ĠĠĠ ru2Ġguo3Ġ
si1 Ġwei4Ġ
li3 Ġwei4Ġ
ke3 Ġgong1Ġ
wu3 Ġji2Ġ
gai3 Ġyou2Ġ
xian1 ĠdeĠ
pai4 Ġchu1
bu4Ġ dui4Ġ
Ġshi2Ġ jia1Ġ
si1Ġ xiang3
Ġyi3Ġ ci3
Ġji4Ġ jie2Ġ
Ġxing2Ġ zhuang4Ġ
nan2Ġ hai2Ġ
Ġjin4 Ġcheng2Ġ
zui4Ġ da4
tian1Ġ qiao2Ġ
ceng2Ġ dan1Ġren4Ġ
Ġc a1Ġ
sha1Ġ te4Ġ
yi3Ġ lai2
chong2Ġ bai4Ġ
ĠdeĠshi2Ġ dai4Ġ
Ġ4 0Ġ
ac eĠĠĠ
Ġgai3Ġ bian1
tiv eĠĠĠ
8 Ġming2Ġ
9 8Ġ
M S
b le
b eng4Ġ
e y
t aĠ
Ġ ming4Ġ
Ġ ju3Ġ
ĠĠĠ 20
ju an4
ju4 Ġshi4Ġ
ma3 Ġshang4Ġ
ye3 Ġwei4Ġ
bao3 Ġlei3Ġ
tai4 Ġhe2Ġ
shen1 Ġke4Ġ
can1 Ġjun1Ġ
ci2 Ġyu3Ġ
jie3 Ġxi1Ġ
jia4 Ġwei4Ġ
tui4 Ġchu1
193 6Ġnian2Ġ
dun1 ĠdeĠ
ĠdeĠ ge1Ġqu3Ġ
Ġbu4Ġ dui4ĠdeĠ
Ġyi4Ġ ri4Ġ
Ġyi1Ġ shu1Ġ
nan2Ġ ce4Ġ
wen2Ġ zi4
jie2Ġ yun4Ġ
quan2Ġ mian4
yan3Ġ sheng1
kong1Ġ jian1ĠdeĠ
han2Ġ liang4Ġ
shuang1Ġ xiang4Ġ
pi1Ġ quan2Ġguo2Ġzhong4Ġdian3Ġwen2Ġwu4Ġbao3Ġhu4Ġdan1Ġwei4Ġ
Ġzai4Ġjia1Ġ shang4Ġ
xiu1Ġzheng4Ġ an4Ġ
gao1Ġdeng3 Ġxue2Ġxiao4Ġ
Ġkong3Ġtai4 Ġda4Ġqu1Ġ
5 Ġzhi4Ġ
C E
F or
R O
t an
t u4Ġ
Ġ ke3Ġyi3
Ġ qing1Ġnian2Ġ
Ġ ru3Ġ
ai2 Ġzheng4Ġ
shan1 Ġshang4Ġ
chuan2 Ġcheng2Ġ
pai2 ĠdeĠ
di1 Ġdi4Ġ
pao4 ĠdeĠ
Ġri4 ĠĠĠ
hou4Ġ lai2
Ġchu1 Ġshi4Ġ
Ġchu1 Ġwei4Ġ
dui4Ġ bi3Ġ
jie2Ġ ju2Ġ
lian2Ġ tong2Ġ
suo3Ġ shi3Ġyong4ĠdeĠ
chang2Ġ chun1
qi3Ġ fei1Ġ
ding4Ġ ju1
luo2Ġ fu1
bi4Ġ yao4
bian4Ġ hua4ĠdeĠ
yan2Ġjiu1 Ġshi4Ġ
Ġtong2Ġ meng2
zhong1ĠdeĠ yi2Ġge4Ġ
can1Ġ ting1
jun4Ġ wang2Ġ
sun1Ġ ziĠ
Ġjian4Ġli4Ġ le
fa2Ġ kuan3Ġ
Ġzai4Ġ200 0Ġnian2Ġ
ĠdeĠda4Ġ xing2Ġ
Ġyong4Ġ lai2Ġ
wai4Ġjiao1Ġ guan1Ġxi4Ġ
Ġ ya1Ġ
Ġ min3Ġ
Ġ lin2Ġshi2Ġ
Ġ duo2ĠdeĠ
ch uo4Ġ
ĠĠĠ zhu3Ġ
ĠĠĠ an4Ġ
zhan4 Ġshi2Ġqi1Ġ
lian2 Ġsi1Ġji1Ġ
sai4 Ġshang4Ġ
gai1 Ġshi4Ġ
su4 Ġwei4Ġ
kuo4 Ġjian4
zhuan3 Ġren4Ġ
194 6Ġnian2Ġ
Ġzhi4Ġ suo3Ġzai4Ġ
Ġjia1Ġ na2Ġ
zhan4Ġ ting1Ġ
xin1Ġ tai2Ġbi4Ġ
zhi2Ġ quan2Ġ
fa3Ġ ting2
qing1Ġ chu3
jie3Ġ p
hui2Ġ lai2Ġ
piao4Ġ jia4Ġ
ĠdeĠren2Ġ kou3Ġwei4Ġ
wan2Ġcheng2Ġ hou4Ġ
il Ġ
wo1Ġ lun2Ġ
jiao1Ġliu2 Ġdao4Ġ
sa4Ġzhu1Ġ sai1
4 5Ġnian2Ġ
B AĠ
C T
u sic
Ġ chao2
Ġ jiang3
Ġ fang4Ġ
Ġ bang1Ġ
Ġ ming4Ġming2Ġ
zh uo1
ĠĠĠ hai3Ġ
hou4 Ġzhi4Ġ
qi2 Ġta1ĠdeĠ
jian4 Ġguo2Ġ
you2 Ġhe2Ġ
zhang3 Ġshi2Ġjian1Ġ
lin2 Ġhe2Ġ
luo2 Ġyi1Ġ
ru2 Ġtong2Ġ
wei1 Ġsi1Ġ
pei4 Ġsi1Ġ
wa3 Ġer3
wen1 Ġhe2Ġ
ĠdeĠ zhu4Ġ
Ġzhong1Ġ wu3Ġ
Ġjian4 Ġzhi1Ġ
Ġde2 Ġchu1Ġ
zheng4Ġ wei3Ġ
shang4Ġ jiang4Ġ
Ġta1Ġ dan1Ġren4Ġ
ping2Ġ deng3Ġ
shu4Ġ zi4
Ġke4Ġ lei2Ġ
quan2Ġ li4ĠdeĠ
yue1Ġ 3
bian4Ġ huan4
Ġgai1Ġ dang3
ĠdeĠshi4Ġ wu4Ġ
jue2Ġse4Ġ ban4Ġyan3
sun3Ġ shang1Ġ
Ġma3 Ġer3Ġ
jiao1Ġtong1 Ġbu4Ġ
zhu1Ġlong2Ġ cao3Ġ
i li
u ni
Ġ ye2Ġ
Ġ neng2Ġgou4Ġ
ĠĠĠ gui3Ġdao4Ġ
shu4 Ġzhi1Ġ
shou3 Ġzhi1Ġ
wu3 Ġri4Ġ
chang2 Ġnian2Ġ
ti3 Ġwei4Ġ
Ġwei4Ġ ri4Ġben3Ġ
Ġshi2Ġ bu4Ġ
li3Ġ si1Ġ
Ġda4Ġ xiao3
sheng1Ġ cheng1
Ġxi1Ġ ni2Ġ
wu4Ġ ye4Ġ
Ġyu4 Ġyou3Ġ
lu4Ġ jing4Ġ
shou3Ġ qiu2Ġ
fen1Ġ jie3Ġ
Ġren4Ġ nei4Ġ
ci4Ġ hui4Ġyi4Ġ
bao4Ġ dao3
gu3Ġ ge2Ġ
bo2Ġ lan3
sha1Ġ shou3Ġ
fang2Ġ kong1
hai2Ġ yao4Ġ
hai2Ġ mei2Ġyou3Ġ
zhuan1Ġ yong4
da3Ġ bai4Ġ
wu1Ġ ding3Ġ
dao3Ġzhi4Ġ leĠ
ĠP ro
yin4Ġdu4Ġ jiao4Ġ
Ġ2 ĠĠĠ
chai2 Ġyou2Ġ
ver si
fu2Ġlei2 Ġde2Ġ
1 Ġgong1Ġli3Ġ
F C
g e3Ġ
Ġ gao1Ġzhong1Ġ
ĠĠĠ 11
di ng
you3 Ġzhong1Ġ
le ng3
ming2 Ġdi4Ġ
qi4 Ġzhi4Ġ
qing1 Ġli3Ġ
gai3 Ġcheng2Ġ
you4 Ġyou3Ġ
197 7Ġnian2Ġ
ku4 Ġsi1Ġ
tan4 Ġsuo3
Ġyu2Ġ 8Ġyue4Ġ
Ġren2Ġ wei2Ġ
jia1Ġ qiang2Ġ
wei2Ġ qi1Ġ
jing1Ġ shi1Ġ
Ġer2Ġ si3Ġ
fa1Ġ dian4Ġji1Ġ
Ġqi2Ġ shou3Ġ
Ġjin4 Ġjun1Ġ
yue1Ġ 2
Ġc an3Ġ
yan2Ġjiu1 Ġren2Ġyuan2Ġ
Ġcheng2Ġwei2Ġ yi2Ġge4Ġ
lian4Ġ jie1Ġ
ning2Ġ bo1Ġ
dai4Ġbiao3Ġ tuan2
Ġer3Ġsi1Ġ ke4Ġ
Ġguo2Ġmin2Ġ ge2Ġming4
ter nation
Ġwei4Ġyu2Ġgai1Ġguo2Ġ zhong1Ġbu4Ġ
gai3Ġbian1 Ġzi4Ġ
yin4Ġdi4Ġ an1Ġren2Ġ
Ġrui4Ġ dian3Ġ
min2Ġjin4Ġ dang3Ġ
6 Ġshi2Ġ
t onĠ
Ġ tong1
fa3 Ġli4Ġ
qi4 Ġyou2Ġ
ling2 Ġshi2Ġ
wen1 Ġnu
ĠdeĠ gui3Ġdao4Ġ
ju4Ġ luo4Ġ
Ġbing4Ġ zhi3Ġyu2Ġ
lin2Ġ qu1Ġ
ĠĠĠdi4Ġ ming2Ġ
chu3Ġ si3Ġ
xuan2Ġ lv4Ġ
ĠdeĠji4Ġ zai3Ġ
Ġtang2Ġ chao2Ġ
G D
h en4
Ġ guan4Ġ
Ġ mian4Ġdui4Ġ
ĠĠĠ hui4Ġ
qu1 Ġzhi1Ġyi1Ġ
er3 Ġsi1Ġ
kai1 ĠdeĠ
zhi3 Ġhui4Ġ
shan1 Ġji2Ġ
zhe3 Ġzhi1Ġyi1Ġ
ge1 Ġsi1Ġ
fan3 Ġfu4Ġ
xiu1 Ġjian4
ni3 ĠdeĠ
Ġnian2 Ġshi4Ġjie4
Ġwei4Ġ fu4Ġ
Ġzai4Ġ a1Ġ
jia1Ġ ting2
Ġyi1Ġ lai4
Ġyu3Ġ yin1Ġ
Ġta1Ġ kai1Ġshi3Ġ
xiang1Ġ cun1Ġ
zhi2Ġ neng2Ġ
Ġqi2Ġ jian1Ġ
dian4Ġ ya1Ġ
jie1Ġ bo2Ġ
chang3Ġ shang1Ġ
bing4Ġ fei1Ġ
Ġluo2Ġ ne4Ġ
pao4Ġ ta3Ġ
yao2Ġ gun3Ġ
tai2Ġfeng1Ġ jing3Ġbao4
chong2Ġqing4 Ġshi4Ġ
M ar
m ao1
y c
Ġ fa1Ġbiao3Ġ
Ġ ya4Ġli4Ġshan1Ġda4Ġ
ao4 Ġke4Ġxi1Ġta3Ġni2Ġda4Ġqu1Ġ
fu4 Ġzai4Ġ
re4 Ġhe2Ġ
yang3 Ġhe2Ġ
che4 Ġchu1Ġ
Ġzhong1Ġ chang3Ġ
Ġgong1Ġ zhu3
Ġyi4Ġ ke3Ġ
Ġyi3 Ġshi2Ġ
Ġge4 Ġji2Ġ
Ġji4Ġ jun1Ġ
Ġjian4Ġ zhu4ĠdeĠ
Ġdui4Ġ zhang3Ġ
Ġhuo4 Ġqi2Ġta1Ġ
bei3Ġ shang4Ġ
Ġyin1Ġ ziĠ
chuan2Ġ fo2Ġjiao4Ġ
Ġzhong1Ġguo2Ġ gong1Ġ
mei2Ġ you3Ġzai4Ġ
ting2Ġ liu2Ġ
xi2Ġ guan4
gang1Ġ qin2
ĠĠĠS u
kun1Ġ chong2Ġ
Ġshi4Ġyi4Ġ yuan2Ġ
ĠdeĠzhong1Ġ xin1Ġ
sheng1Ġchan3Ġ zong3Ġ
ub li
meng4 Ġjia1Ġla1Ġ
Ġren4 Ġzhong1Ġgong4Ġ
Ġping2 Ġjun1
Ġhong1Ġzha4 Ġji1Ġ
6 00Ġ
T wit
Ġ xiang2
Ġ hua4Ġxue2Ġ
xin1 Ġnian2Ġ
wen2 Ġshi4Ġ
sai4 Ġhui4Ġ
liu2 Ġqiu2
zong3 Ġren2Ġkou3ĠdeĠ
tou2 Ġyu2Ġ
197 3Ġnian2Ġ
50 Ġmi3Ġ
Ġhe2Ġ yi3Ġ
yi4Ġ jian4Ġ
Ġbei4Ġ sha1Ġ
jing1Ġ que4Ġ
Ġzhan4Ġ chang3Ġ
Ġzhan4Ġ sheng4Ġ
ma3Ġ lu4Ġ
ci3Ġ qian2Ġ
qi3Ġ yong4
dan1Ġ du2
e4Ġ lie4Ġ
ĠdeĠyi1Ġ yuan2Ġ
yong3Ġ yuan3Ġ
ĠdeĠshi2Ġ wu4Ġ
Ġch an2Ġ
Ġãģ Ħ
Ġjun1Ġshi4Ġ tan3Ġding1Ġ
xia4Ġji4Ġ ao4Ġyun4Ġhui4Ġ
Ġao4 Ġzhou1Ġ
huan2Ġjing4 Ġzhong1Ġ
ĠÑ Ģ
ber tĠĠĠ
tor Ġ
nc ludeĠ
zhu1Ġshi4Ġhui4Ġ she4Ġ
Ġon lyi
Ġonlyi ncludeĠ
A n
T AĠ
gong1 Ġzai4Ġ
ren4 Ġhou4Ġ
sai4 Ġhe2Ġ
tong1 ĠdeĠ
tian1 Ġdi4Ġ
yuan4 Ġhe2Ġ
196 5Ġnian2Ġ
Ġnian2 ĠĠĠ201
Ġbu4Ġ qiang1Ġ
ji2Ġ tuan2Ġ
Ġyu2Ġ 10Ġyue4Ġ
Ġyou3Ġ gong1Ġ
Ġcheng2Ġ nuo4
Ġzhi1 Ġren2Ġ
xi1Ġ li3Ġ
Ġge4 Ġshi4Ġ
Ġde2Ġ guo2ĠdeĠ
fa1Ġ jue2
fa3Ġ an4
lian2Ġ suo3Ġ
dong1Ġ hai3Ġ
bei3Ġ fang1
jie1Ġ duan4ĠdeĠ
ma3Ġ ni2Ġ
fu3Ġ bai4Ġ
gai3Ġ liang2Ġ
ĠdeĠdi4Ġ di
6Ġ hao4Ġ
han2Ġ min2Ġguo2Ġ
wei3Ġyuan2Ġhui4Ġ zhu3Ġren4Ġ
xuan1Ġbu4Ġ jiang1Ġ
Ġyin1Ġyue4Ġ hui4Ġ
Ġnv3Ġ xing4Ġwei4Ġ
sheng1Ġhuo2 ĠdeĠ
xue2Ġxiao4 ĠdeĠ
yin3Ġqi3 ĠleĠ
Ġyi1Ġli4Ġ sha1Ġbai2Ġ
Ġha1Ġer3Ġ bin1Ġshi4Ġ
tan4Ġxian3 Ġdui4Ġ
bao3Ġjia1 Ġli4Ġya4
+ +
9 2Ġ
k e2
Ġ hu1Ġ
Ġ yong1Ġ
ya4 Ġer3Ġ
chu i1
wan4 ĠdeĠ
geng1 Ġdi4Ġ
2016 Ġ
Ġxi1Ġ bu4ĠdeĠ
hai3Ġ tan1Ġ
chang2Ġ jiang1
yi2Ġ ju1
na4Ġ ru4
wang3Ġ ye4Ġ
qian1Ġ yi2
pai4Ġ xi4Ġ
tao2Ġ li2Ġ
2Ġyue4Ġ 24Ġri4Ġ
Ġh eng1Ġ
rui4Ġ shi4ĠdeĠ
geng1Ġ xin1
gen1Ġju4 Ġdi4Ġ
yi4Ġshi2Ġ xing2Ġtai4Ġ
Ġde2Ġli3Ġ ke4Ġ
wai4Ġjiao1Ġ guan1Ġ
you3Ġbu4Ġ shao3Ġ
Ġxin1Ġzeng1Ġ jing4Ġwai4Ġshu1Ġru4Ġ
na2Ġpo4Ġ lun2
li2Ġba1Ġn en4
2 Ġping2Ġfang1Ġgong1Ġli3Ġ
7 Ġming2Ġ
g a
Ġ tu2
you2 Ġshi4Ġ
xin1 Ġyi4Ġ
fa3 Ġhui4Ġ
fei1 Ġer3Ġ
gou4 Ġjian4Ġ
mo2 Ġer3Ġ
cai2 Ġbei4Ġ
ji3 Ġwei4Ġ
âĢ ¢
guang1 Ġnian2Ġ
gan3 Ġjun1Ġ
si3 ĠleĠ
196 7Ġnian2Ġ
Ġzai4Ġ guo2Ġ
Ġzai4Ġ 2020Ġnian2Ġ
Ġli4Ġ zhi1Ġ
Ġcheng2Ġ shu2Ġ
Ġji4Ġ neng2Ġ
xia4Ġ fang1Ġ
ma3Ġ pi3Ġ
xiao3Ġ zhen4Ġ
dan1Ġ che1Ġ
biao3Ġ mian4
5Ġ hao4Ġ
zheng1Ġ yi4ĠdeĠ
tuan2Ġ dui4
ke3Ġyi3Ġ bei4Ġ
Ġhe2Ġguo2Ġ ji4Ġ
ĠC ar
ĠM o
Ġgen1Ġju4Ġ 2010Ġnian2Ġmei3Ġguo2Ġren2Ġkou3Ġpu3Ġcha2Ġ
pin2Ġ kun4
ĠĠĠ198 5Ġnian2Ġ
ĠĠĠ198 2Ġnian2Ġ
zhi1Ġchi2Ġ zhe3Ġ
Ġwei4Ġyu2Ġgai1Ġguo2Ġ nan2Ġbu4Ġ
ĠĠĠE n
Ġshi4Ġjian4 Ġzhong1Ġ
Ġqi3 Ġchu1Ġ
xiao1Ġfei4Ġ zhe3Ġ
zei2 Ġ
b a
Ġ huo2Ġdong4Ġ
Ġ bu2Ġhui4Ġ
en1 ĠdeĠ
yu3 Ġgong1Ġ
nan2 Ġda4Ġxue2Ġ
bei3 Ġwei4Ġ
che1 Ġshang4Ġ
fang4 ĠdeĠ
Ġbu4Ġ lei2
yi4Ġ zhi2Ġ
Ġdi4Ġ yu4
Ġli4Ġ xian4Ġ
Ġge4 Ġshi4Ġzhen4
Ġle Ġyu3Ġ
Ġxi1Ġ yu3Ġ
hua4Ġ fen1Ġwei4Ġ
lai2Ġ shuo1
Ġwei2Ġ fan3
shou4Ġ piao4Ġ
Ġdai4Ġ bu3Ġ
fen4Ġ nu4Ġ
hua2Ġ bing1Ġ
Ġzhu3Ġ jiao4Ġ
fang2Ġ ziĠ
wan2Ġcheng2Ġ le
zun1Ġ shou3Ġ
Ġgong1Ġsi1 Ġhe2Ġ
tong1Ġguo4 ĠdeĠ
Ġ2011Ġnian2Ġ 12Ġyue4Ġ31Ġri4Ġ
jie2Ġgou4 ĠdeĠ
sun3 Ġhuai4Ġ
zhuang1Ġwei4Ġ lin2Ġ
S h
T S
Ġ cun2Ġzai4Ġ
ĠĠĠ mi3Ġ
ĠĠĠ ceng2Ġ
mei3 Ġyi1Ġ
10 Ġshi2Ġ
da2 Ġli4Ġ
mo2 Ġsi1Ġ
du2 Ġjia1Ġ
chen2 Ġshi4Ġ
chuang4 Ġjian4
ta3 Ġli4Ġ
nuo4 Ġke4Ġ
Ġshi4Ġ tai2Ġwan1
yu2Ġ le4Ġ
Ġyi1Ġ liang4Ġ
Ġdao4 Ġwei4Ġ
Ġbei4Ġ yu4Ġwei2Ġ
xia4Ġ shu3
Ġyin1 Ġzai4Ġ
Ġbing4Ġ dan1Ġren4Ġ
zhang3Ġ guan1
ziĠ ke1Ġ
yi2Ġ ci4Ġshi4Ġjie4Ġda4Ġ
san1Ġ fen1Ġzhi1Ġ
dan1Ġ ni2Ġer3Ġ
wu2Ġ xiao4Ġ
jian3Ġ ruo4Ġ
xian4Ġ chang3Ġ
bing1Ġ tuan2
Ġgao1Ġ deng3Ġ
gu4Ġ shi4ĠdeĠ
zhun3Ġ jue2Ġsai4Ġ
Ġh u3
tu3Ġ rang3Ġ
Ġcong2 Ġer2
Ġyi4Ġzhi2 Ġdao4Ġ
su1Ġlian2 ĠdeĠ
Ġyi1Ġsi1Ġlan2Ġ jiao4Ġ
a1Ġer3 Ġji2Ġli4Ġ
zhu3Ġjiao4Ġzuo4Ġ tang2Ġ
A ĠdeĠ
sheng1 ĠleĠ
hai3 Ġdi4Ġ
lie4 Ġdi4Ġ
lie4 Ġren2Ġ
ban1 Ġji1Ġ
Ġhe2Ġ si1Ġ
Ġda4Ġ xi1Ġyang2
Ġji4Ġ zhe3
dui4Ġ ci3Ġ
Ġshe4 Ġwei4Ġ
Ġdui4Ġ zhen4Ġ
mu4Ġ fu3Ġ
Ġzhan4Ġ bi3Ġ
mi3Ġ ya4
ying3Ġ ye4Ġ
gang3Ġ kou3
zu2Ġ gou4
ting2Ġ huo3Ġ
dong4Ġ tai4Ġ
yu4Ġ ce4Ġ
Ġgao1Ġ du4Ġ
8Ġ hao4Ġ
xiu1Ġ fu4
Ġl an3Ġ
lian4Ġ xi2
10Ġ wan4Ġ
zhang4Ġ hao4Ġ
ĠdeĠyi4Ġ jian4Ġ
zhong1Ġshi4Ġ yan3Ġ
Ġshi2Ġzi4Ġ lv4Ġ
da1 Ġcheng2Ġ
ĠĠĠyi3Ġxia4 Ġwei4Ġ
nan2Ġsi1Ġla1Ġ fu1Ġ
bao1Ġkuo4Ġyi3Ġxia4Ġ wu4Ġzhong3Ġ
C C
Ġ bing1
Ġ jia4Ġ
xiang4 Ġzhong1Ġ
shu a1
zhang1 Ġcheng2Ġ
Ġxing2Ġ dian4Ġli4Ġ
xia4Ġ xia2Ġ
guan1Ġ shang3
Ġtong2 Ġzhi1Ġ
bi4Ġ hu4Ġ
zhi1Ġ jian1
zhi1Ġ liu2Ġ
jiang3Ġ hua4Ġ
xiao1Ġ fang2
si3Ġ qu4Ġ
Ġlian2Ġ bang1
zu2Ġqiu2Ġ jia3Ġji2Ġ
0Ġnian2Ġdai4Ġ mo4Ġ
zui4Ġgao1Ġ fa3Ġyuan4Ġ
san1Ġshi2Ġ si4Ġnian2Ġ
indow sĠĠĠ
Ġqiang2Ġ diao4Ġ
da2Ġke1 Ġta1Ġ
5 Ġping2Ġfang1Ġgong1Ġli3Ġ
e an
Ġ ou1
Ġ duan3Ġ
Ġ wu3Ġnian2Ġ
ĠĠĠ ha1Ġ
mi n
qi n3Ġ
zhan4 ĠleĠ
san1 Ġhe2Ġ
ba1 ĠdeĠ
bian1 Ġyi4Ġ
nv3 Ġsheng1Ġ
zao3 Ġzai4Ġ
195 5Ġnian2Ġ
zao1 Ġyu4
Ġle Ġda4Ġliang4Ġ
sheng1Ġ li3Ġ
Ġta1Ġ hui4Ġ
Ġli3Ġ jie3Ġ
shu4Ġ ma3Ġ
min2Ġ yong4Ġ
1Ġ wan4Ġ
yi2Ġ ti3Ġ
yi2Ġ chu2Ġ
qing1Ġ chen2Ġ
Ġzh ou2
tang2Ġ chao2Ġ
ying2Ġ yang3Ġ
Ġshi4Ġzhen4Ġ fan4Ġwei2Ġnei4Ġ
Ġqing1Ġ chao2
kong4Ġ gu3Ġ
xue4Ġ guan3Ġ
ĠĠĠ198 6Ġnian2Ġ
Ġzai4Ġzhe4Ġ geĠ
Ġwai4Ġ jiao1
Ġzha4 Ġdan4Ġ
Ġji1Ġgou4 ĠdeĠ
dao3Ġshi4Ġ yue4Ġtai2Ġ
cheng2Ġnian2Ġ ren2Ġ
Ġhei1Ġlong2Ġjiang1Ġ sheng3Ġ
qing1Ġzhen1Ġ si4Ġ
n ong4
Ġ meng2
Ġ cui1
ĠĠĠ feng1Ġ
hou4 Ġren2Ġ
wei2 Ġshi4Ġ
jian1 Ġyu4
bi3 Ġji4Ġ
pai4 Ġdui4Ġ
wa3 Ġer3Ġhe2Ġ
Ġzhong1Ġ yi3Ġ
li4Ġ chang3Ġ
Ġyuan2Ġ ben3ĠdeĠ
Ġjia1Ġ er3
Ġxi1Ġ shou1
an1Ġ ni1Ġ
jie2Ġ dian3Ġ
deng3Ġ ren2ĠdeĠ
shan1Ġ gu3Ġ
liu2Ġ jing1Ġ
bian4Ġ liang4Ġ
Ġt uo2
huang2Ġ pu3Ġ
qian1Ġ yi2Ġ
Ġk a1Ġ
Ġyou3Ġyi1Ġ zuo4Ġ
sun3Ġ hai4Ġ
Ġri4Ġben3 Ġren2Ġ
ĠdeĠhe2Ġ xin1Ġ
ya4Ġli4Ġsang1Ġ na4
y ao3Ġ
Ġ he4Ġer3Ġ
ĠĠĠ zhe4
qi2 Ġxia4Ġ
san1 Ġri4Ġ
ze2 Ġshi4Ġzai4Ġ
bian4 Ġyi4Ġ
gai3 Ġjian4Ġ
12 Ġren2Ġ
lian4 ĠdeĠ
wan3 Ġhui4Ġ
Ġshi4Ġ ying4Ġ
Ġbu4Ġ dan4Ġ
Ġji2Ġ bei4Ġ
yuan2Ġ yin1
Ġli4Ġ wu4Ġ
Ġli3Ġ mian4Ġ
Ġwei2Ġ ye3Ġ
lian2Ġ dui4Ġ
Ġqi2Ġ dui4Ġ
jiao4Ġ xue2
jie1Ġ ti4
er4Ġ shi4ĠdeĠ
gai3Ġ yong4Ġ
jiu4Ġ zhi2Ġ
long2Ġ lei4Ġ
jin3Ġ jin3
Ġyou2 Ġji1Ġche1Ġ
mo2Ġ fang3Ġ
xiao1Ġ hao4Ġ
Ġshi4Ġyi1Ġ ming2
12Ġyue4Ġ 1Ġri4Ġ
di2Ġ ao4Ġ
ĠĠĠdi4Ġ san1Ġ
chu3Ġ fa2Ġ
Ġ1 ĠĠĠ
ĠĠĠL i
ĠĠĠ198 3Ġnian2Ġ
ĠĠĠ198 7Ġnian2Ġ
fa1Ġbiao3 Ġsheng1Ġming2Ġ
Ġyu2Ġ199 5Ġnian2Ġ
au l
sheng1Ġhuo2 Ġzai4Ġ
reng2Ġran2 Ġshi4Ġ
an1Ġde2Ġ lie4Ġ
Ġ xian3
Ġ pi1Ġping2Ġ
Ġ xu1Ġyao4
Ġ hui1Ġfu4Ġ
Ġ gu1Ġji4Ġ
en sisĠ
xi1 Ġri4Ġ
qu1 Ġyi1Ġ
lu4 Ġzhong1Ġ
guan1 Ġyu3Ġ
gai1 Ġgong1Ġsi1Ġ
shou4 ĠleĠ
ban3 Ġshang4Ġ
zao3 Ġyi3Ġ
yuan3 Ġcheng2Ġ
Ġli4Ġ zhi4Ġ
Ġli4Ġ fang1Ġ
Ġyi1Ġ shi4ĠdeĠ
dian4Ġ chang3Ġ
shan1Ġ dong1
lin2Ġ sheng3Ġ
Ġdai4Ġ ma3Ġ
jiao1Ġ xiang3
Ġzh ou4
ban4Ġ lv3Ġ
gou4Ġ zao4
xian4Ġ dai4
bai2Ġ se4
fei4Ġ zhi3Ġ
geng4Ġ hao3ĠdeĠ
chu3Ġ fen4Ġ
po4Ġ chan3Ġ
ĠĠĠshi4Ġ jie4Ġ
Ġwei4Ġdi4Ġ xia4Ġ
Ġfen1Ġbu4Ġyu2Ġ nan2Ġmei3Ġzhou1Ġ
da4Ġbu4Ġfen4 ĠdeĠ
Ġguo2Ġwu4Ġ yuan4
Ġwei4Ġyu2Ġgai1Ġ sheng3
tian1Ġran2Ġ qi4Ġ
zhong3Ġjia1Ġ ci2Ġ
4 9Ġnian2Ġ
8 Ġping2Ġfang1Ġgong1Ġli3Ġ
S te
c u1
e k
l eng2
â ħ
Ġ jing4
zh ai1
ĠĠĠ ri4
ĠĠĠ dian4Ġying3Ġ
bo x
jiang1 Ġjin4Ġ
che1 Ġzai4Ġ
chuan2 Ġdao4Ġ
guo3 Ġshi2Ġ
xun2 Ġqiu2
Ġdi4Ġ 3
ji4Ġ zai3
Ġli4Ġ ren4
Ġli4Ġ yuan2Ġ
Ġyi3Ġ wai4
zhu4Ġ zhai2
Ġzuo4Ġ wei2Ġyi1Ġ
ma3Ġ tou2
ci3Ġ lei4Ġ
zong3Ġ gong4Ġ
Ġzhu4Ġ zhai2Ġ
Ġnan2Ġ fei1Ġ
shang1Ġ biao1Ġ
ke4Ġ lai2Ġ
hu2Ġ guang3Ġ
bai2Ġ jin1Ġ
7Ġ hao4Ġ
3Ġyue4Ġ 31Ġri4Ġ
wei3Ġyuan2Ġhui4Ġ fu4Ġzhu3Ġren4Ġ
ge4Ġ lei4
xi4Ġlie4Ġ sai4Ġ
ĠdeĠzuo4Ġ pin3
Ġji1Ġben3Ġ shang4Ġ
Ġzai4Ġ19 0
da3Ġji1Ġ lv4Ġ
ĠĠĠzao3Ġnian2Ġ sheng1Ġhuo2Ġ
Ġji1Ġbai4 ĠleĠ
Ġ tou2
Ġ ju2Ġ
Ġ fan3Ġying4
ĠĠĠ yan2Ġ
ji1 Ġwei4Ġ
tong2 Ġri4Ġ
kai1 ĠleĠ
tuan2 Ġyuan2Ġ
ĠdeĠ ping2Ġ
he2Ġ zuo4Ġ
Ġyu2Ġ da4Ġ
Ġzhi4Ġ pian4Ġren2Ġ
ji4Ġ yi4Ġ
Ġle Ġdi4Ġyi1Ġ
Ġer2 Ġchu1Ġ
ren4Ġ tong2Ġ
xi4Ġ shu4Ġ
Ġzhan4Ġ dui4Ġ
zhang3Ġ zhou2
xing4Ġ zhi4ĠdeĠ
nei4Ġ wai4Ġ
chang2Ġ shu4Ġ
Ġzhe4Ġ lei4Ġ
Ġsheng1Ġ ya2
ba1Ġ sai1Ġer3Ġ
xu1Ġ ni3Ġ
zong1Ġ se4Ġ
Ġ19 16Ġnian2Ġ
sui4Ġ pian4Ġ
Ġzui4Ġzhong1Ġ yi3Ġ
ĠĠĠshi4Ġ jian4Ġ
jing1Ġli4Ġ leĠ
ĠĠĠyi1Ġ xie1Ġ
00Ġmi3 Ġzhi4Ġ
ĠĠĠben3Ġshu3Ġ bao1Ġkuo4Ġyi3Ġxia4Ġwu4Ġzhong3Ġ
ĠĠĠ ren2Ġwu4Ġ
ĠĠĠ guang1Ġxu4Ġ
li n4Ġ
ti Ġ
jing1 Ġwei4Ġ
yong4 Ġyu3Ġ
ye3 Ġyi3Ġ
tai2 Ġda4Ġ
shan1 Ġzhan4Ġ
cu an4Ġ
chu4 Ġzai4Ġ
hun1 Ġhou4Ġ
Ġzai4Ġ gao1Ġ
Ġzai4Ġ zhe4Ġli3Ġ
zhi4Ġ 19
Ġshi2Ġ wu3Ġ
Ġli4Ġ wei2Ġ
fa1Ġ wen2Ġ
Ġke4Ġ yun4
shuo1Ġ fu2Ġ
pai2Ġ xu4Ġ
xiao1Ġ liang4
dou1Ġ neng2Ġ
man3Ġ guan4Ġ
cha1Ġ bie2Ġ
Ġbing4Ġyu2Ġ tong2Ġnian2Ġ
Ġben3 Ġyu2Ġ
ĠdeĠzhi4Ġ zuo4Ġ
bu2Ġ hui4Ġzai4Ġ
ju4Ġfeng1 Ġzhong1Ġxin1Ġ
ĠISTAT Ġdai4Ġma3Ġwei4Ġ0
9 4Ġ
Ġ pi1Ġ
Ġ qu3Ġdai4Ġ
ĠĠĠ long2Ġ
hou4 Ġbu4Ġ
10 Ġmi3Ġ
dian3 Ġzhan4Ġ
xian1 Ġshi4Ġ
jiu1 Ġfen1Ġ
da3 Ġchu1Ġ
ta3 ĠdeĠ
yang1 Ġshi4Ġ
niu3 Ġxi1Ġlan2Ġ
Ġwei4Ġ tai2Ġwan1Ġ
he2Ġ yue1Ġ
Ġyi3Ġ 0Ġ
Ġyi3Ġ xia4ĠdeĠ
shu4Ġ bai3Ġ
hua4Ġ wu4Ġ
jie1Ġ kou3Ġ
Ġzheng4Ġ wu4Ġ
Ġshe4Ġ hui4ĠdeĠ
ke1Ġ luo2Ġla1Ġ
shang1Ġ pin3
dang3Ġ pai4Ġ
