#version: 0.2
n g
i 4
a n
s h
z h
ng 1
j i
u 4
ng 2
Ġ Ġ
i 2
a o
x i
ng 4
an 2
i 3
i 1
d e
u 3
an 4
e 4
e n
c h
u o
u 2
ng 3
an 1
e 2
a i4
u 1
ĠĠ Ġ
o ng1
a 1
ã Ģ
sh i4
e i4
ao 4
i an2
a 4
y u
a ng1
y o
an 3
n 1
h u
a ng4
n ian2
en 2
l i
a ng3
e ng2
uo 4
uo 2
w ei4
m i
ao 3
z ai4
ãĢ ģ
b i
q i
a ng2
e 1
h e2
y i
e ng1
zh ong1
e r
b u4
o u4
a 3
e 3
n 4
sh i2
d i4
g uo2
a i2
u i4
r en2
ao 1
x u
y i1
n 2
o ng2
y u2
g u
l i4
zh i4
d i
w e
en 4
ch eng2
o ng4
y i4
g ong1
ji 2
e ng4
en 1
yu e4
yo u3
yu an2
d a4
a 2
l e
j i4
2 0
y i3
j u
a i1
p i
xi an4
o u1
ji a1
s i1
xi ng2
e i3
t i
y u3
ji 1
t a1
r i4
zh i1
h ou4
l i3
o u3
a i3
we i2
hu i4
d ao4
1 9
o ng3
q i2
u an2
zh eng4
mi ng2
xi 1
ao 2
ji an4
xu e2
ch u1
g e4
z uo4
uo 1
sh eng1
d ui4
yo u2
uo 3
q u1
sh ang4
en 3
de 2
b ei4
sh i3
zh u
zh an4
n 3
xi n1
ju n1
er 3
sh e4
r en4
f a1
w u4
bi ng4
k e4
er 2
l u4
d ai4
zh u3
y i2
sh u4
j u4
ji n4
z i4
yi n1
f u4
f ang1
ji ng1
n an2
hu a4
zh ou1
pi ng2
xi a4
l ai2
yo ng4
gu an1
t ong2
y u4
ãĢ ĭ
ãĢ Ĭ
f a3
zh u4
m ei3
Â ·
ji an1
b o
h uo4
b en3
xi ang1
zh i2
d ong4
xi ang4
mi n2
zh e4
ji ang1
q i1
f en1
sh ou3
q uan2
w en2
y an2
s uo3
ji ao4
q ian2
di an4
t e4
d uo1
z ui4
k ai1
ji e2
l ian2
zh i3
x i4
k e3
e ng3
e i1
d an4
m u4
y e4
d u4
f u2
sh u
m a3
y e3
d ong1
qi u2
b ei3
ãĢ Į
ãĢ į
g ao1
y a4
o u2
d u
ji e1
u n2
mi an4
h ai3
zh ang3
sh i1
ji n1
c i3
n ei4
s ai4
s an1
t ai2
g e2
xi ng4
g uo4
20 1
de ng3
y ao4
ch e1
c i4
s u
m o
r u4
w u3
g ai1
k u
di ng4
ch ang2
bi ao3
l a1
t i3
g ong4
ji e4
sh ou4
d ao3
sh an1
ch ang3
s i4
l v
z e2
t i2
k e1
d ang1
n eng2
er 4
w ai4
e i2
ch u
d an1
q i3
z i
k ou3
xi ao3
z u3
b a1
ju e2
li n2
li u2
n i
sh eng3
yi ng1
l an2
b i3
l uo2
t ong1
20 0
zh ong4
zh e3
sh u3
ti an1
zh en4
zh ong3
li e4
q i4
ch eng1
sh u1
yu an4
b ao3
t ai4
f u3
f eng1
m i3
qi ng1
sh en1
w ang2
yu n4
gu an3
f ei1
ji u4
g u3
li ang3
c eng2
m ei2
1 0
f en4
h ao4
y an3
we i3
z ong3
xu an3
xi ao4
d a2
n a4
li ang4
bo 1
z u2
ji ng4
b ao4
n i2
w u2
t ong3
hu a2
ji ao1
yu e1
yi ng3
bi an4
xi ng1
s u4
shu i3
y ang2
m en
b ao1
g e1
bo 2
c an1
c ong2
di an3
r u2
b an4
b i4
bi an1
w ang3
q u3
ch an3
s e4
z i1
q u
0 0
ch uan2
n v
sh eng4
r an2
t u2
zh ang1
x u4
p u3
g ai3
g ang3
nv 3
li ng4
l uo4
yo u4
t ou2
h u4
ch a2
c e4
ch i2
1 8
lv 4
qi an1
l i2
d ou1
1 2
zh eng1
k uo4
sh a1
l u
d ang3
f an3
g ou4
l ei4
x i2
ji ng3
t uan2
we i1
xi e1
li ng3
l ong2
gu i1
xi an1
r ong2
hu ang2
xi ang3
b an1
ji u3
yi ng4
m en2
sh ang1
sh en2
20 2
b an3
k a3
c u
m u3
ji n3
f u1
j u3
mo 2
gu ang3
c i2
sh uo1
qi ng2
zh an3
h ai2
zhu ang1
mo 4
c ai2
ji 3
d u2
1 1
pi n3
ti ng2
ch ao2
yi ng2
w o
ti ao2
p o
ji an3
t ang2
hu i2
du an4
ch en2
g en1
m i4
w an4
p ai2
w an1
z ao4
h ang2
w an2
bi ao1
l un2
19 9
xi e2
ji ang3
h an4
j u2
f an4
f ang2
h uo2
g u4
h an2
k ong1
ti e3
m eng2
bi e2
w u1
ji e3
zhu an1
yi n3
x u1
zh en1
ji a4
bi ng1
mi ng4
li ng2
h ong2
qi n1
z i3
lu n4
t u
o r
xi n4
ch u4
s u1
xi u1
ch u3
z ong1
1 5
h u2
qu e4
xi ao1
zh ao4
qi ang2
q u4
cu n1
ch ong2
pi an4
ji u1
f ang4
su i2
sh ou1
g eng4
â Ģ
gu ang1
j u1
ji a3
chu ang4
d i2
zhu an3
1 6
g uo3
xu n4
m an4
p ai4
f ei4
p ei4
19 8
d a3
t uo1
xu an1
ch u2
b ai2
l a
o n
zh u1
d u1
t u3
di ao4
xi a2
li u4
1 7
s ui4
hu i1
ti ng1
qi e3
t a3
qi ao2
h a1
g an3
z eng1
xi an3
m ai4
hu an2
x u3
w a3
tu i1
w en4
ch ao1
t ian2
b ai3
c ai3
li ang2
y a2
s a4
a r
b ai4
c un2
ji ao3
sh ao3
y an4
zhu ang4
d i3
h uo3
le i2
1 4
ji ang4
chu an1
yi n4
z ao3
yo ng3
s i3
de ng1
3 0
zhu n3
l e4
xu n2
n uo4
hu an4
s ong4
g ao4
l u3
1 3
19 4
b ang1
lv 3
y ang4
h en3
q un2
zh eng3
gu an4
po 4
g ang1
wo 3
19 7
hu a1
le i1
h ao3
t ao2
ku ang4
p i1
du n4
n ong2
g ei3
s ai1
shu ang1
li an4
ku ai4
i n
d i1
p an4
xi e3
19 5
k ao3
g ai4
h e4
h ei1
w ang4
li ao4
r e4
g e
z uo3
k ong4
19 6
y ang1
ch ang4
yi n2
r eng2
s en1
b ei1
l u2
pi ao4
y a1
k u4
2 5
bi n1
âĢ Ķ
r ang4
ch ong1
l ou2
b u3
l ao3
zh u2
ju n4
y ang3
r ui4
y ao1
xi an2
xi e4
ni an4
f or
yo u1
t an2
k ang1
p i2
h eng2
yu n2
k an4
ni ng2
li ao2
sh ao4
b u2
qi ng3
ch i3
2 4
m u
d ou4
mi an3
y ong1
t an3
w an3
h u1
r u
f an1
a l
t u1
g an1
su an4
di ng1
yu an3
w en1
t ui4
zh e
s t
2 1
xi u4
b a3
m an3
19 3
2 3
mu la
k ang4
for mula
2 8
t h
m ao2
r uo4
pi an1
m ao4
l ang3
qi n2
b a2
n a2
z an4
xi 3
gu i3
g ui4
r e
pi n2
wo 4
xi ong2
sh an4
2 2
xi ong1
m e
su i1
2 6
sh en3
qi ng4
mi ao2
f ang3
5 0
20 20
2 7
l ang2
o u
qi u1
s ong1
r i
d ang4
g eng1
qi ang1
f a2
z ao1
f eng4
zh ang4
ï ¼
h ao2
du n1
z ou3
h ai4
qi e4
2 9
t an4
z u
p ao4
p a4
shu n4
p eng2
xu an2
201 0
n i3
00 0
di ng3
ni u3
z ai3
zh ao1
zhu i1
lv e4
chu n1
20 19
hu n1
k ong3
ch e4
du an1
sh en4
xi ang2
du an3
g an4
r o
t e
k an1
l ao2
c ao3
201 6
s i
g u1
p ei2
ku an3
z a2
201 8
su n1
y e2
y a3
r a
po 1
202 1
zh a4
ch i4
d uo2
201 4
f an2
201 1
201 5
c uo4
201 7
zh e2
y ao2
p ai1
t ou4
c ang2
201 2
4 0
k ai3
201 3
202 2
m i2
ru an3
su an1
ch a1
z ang4
mi ao4
l t
200 9
zh ao3
200 8
hu ai2
ã ĥ
c e
6 0
xu e4
ch ou2
s e
b ang3
a m
m eng4
10 0
t i4
p u2
n ao3
202 3
zhu an4
g t
le i3
19 0
3 1
c ai4
s an4
m ou2
ti on
hu n4
ku an1
200 7
t a
ni u2
m ou3
t ao3
di e2
200 1
t eng2
s ou1
k en3
qi an3
ch ang1
r an3
qu e1
f ou3
su n3
f o
b a4
200 0
8 0
k ao4
s uo1
200 6
ni ao3
p i3
ch un2
202 4
l an3
ã ģ
z ai1
c o
xu e3
hu i3
e l
m a
lu an4
ti ng3
200 5
zu n1
b ang4
l a4
hu an1
r ang3
sh ui4
mi n3
3 5
l ai4
c ang1
7 0
fo 2
p an2
n ai4
w en3
n e
c ao1
o f
s ang1
p ang2
9 0
bi ng3
ï¼ į
t er
zh a1
ã Ĥ
shu ai4
ni e4
h ou2
m ei4
sh ao1
n u3
d ong3
i l
f eng2
mi e4
yu n3
z ou4
m ai3
hu ai4
200 4
4 5
l o
y an1
th e
h e
4 8
zh uo2
a t
an d
t ao4
n ai3
ku n1
202 5
zh en3
c k
r u3
ku a4
ku i2
ãĢ ī
ãĢ Ī
g ou1
3 6
e t
cu i1
e s
3 8
c u4
sh an3
r ou4
di ao1
200 3
h u3
g uo1
3 7
c ui4
x u2
i s
m ang2
ju an3
t o
c an2
di an1
zh an1
c ao2
18 9
I N
200 2
k eng1
T C
m a2
3 4
le ng3
a s
z u1
ch a4
7 5
âĢ ĵ
o w
s u2
qu an1
d a1
ch ai1
l ang4
ku n4
4 6
t un2
f en3
199 0
âĢ ¦
o l
v e
zh ou4
sh ang3
r ao4
h eng1
t i1
xu n1
3 9
n e4
. .
n an4
p an1
6 5
h ong1
sh u2
t an1
t ang1
k an3
M a
n i4
C h
3 2
i t
S T
h an3
4 7
U TC
qi an4
199 9
199 8
I n
198 0
18 8
5 00
3 3
6 4
qi ang3
sh e2
sh uo4
p ao3
b e
k a1
zh ai2
S E
5 5
qu an4
n i1
de ng4
199 7
T he
C o
m ian2
4 9
g ao3
I I
6 8
h an
sh e3
z eng4
zh ou2
zh ai4
R e
199 6
4 4
n a
ti e1
d ao1
a d
b r
199 4
f ei2
z ong4
i r
qi ong2
ti ao4
chu ang2
n d
199 2
chu i2
ju an1
c i
ch ai2
mi ao3
b a
gu a1
xu e1
t ong4
199 5
f ei3
ch i1
m eng3
wo 1
6 7
shu ai1
t uo2
chu ang1
hu an3
v i
199 1
197 0
5 8
195 0
gu a4
ch an2
c a
3 00
w a1
199 3
18 7
194 9
a y
p e
s a1
ti ao3
zh a2
A T
196 0
bi an3
4 2
194 5
v er
u s
gu ai4
k u3
n u2
198 8
d u3
o o
198 9
i g
p u4
6 9
li u3
i ng
u r
s s
g ong3
SE E
t uo4
c t
li ao3
IN SEE
5 9
sh a4
t ai1
4 3
6 6
chu an4
am p
ch en4
5 7
198 5
hu ang1
R o
9 9
S A
ãĢ İ
cu n4
ãĢ ı
198 4
hu n2
4 1
u m
p u1
k ou4
p h
8 8
f en2
198 6
r ao3
S t
a u
i d
ru n4
T V
15 0
zh uo1
in d
4 00
s an3
198 7
7 8
5 6
198 2
ar d
L i
n uo2
M e
198 3
D e
N A
gu n3
m a1
t ou
pi n4
u n
C D
ch ou1
b er
g ou3
qu an3
7 7
M i
zh ai1
qi a4
p er
m ao1
qi ao3
M ar
k u1
ku ang2
e d
a ng
r ou2
9 8
de r
l ou4
O S
Â °
k ui4
s ang4
ï ½
l y
18 0
B C
5 4
6 1
A l
197 9
19 20
t y
7 9
p en1
s eng1
t w
5 2
Y ou
197 8
n u4
6 2
w eng1
y e1
d uo3
L e
5 3
xi ng3
ju an4
ï½ ŀ
B A
t s
a k
194 6
C O
M o
c tion
5 1
195 8
S h
198 1
V i
m an
197 2
194 8
zh ui4
c ong1
t ou1
A M
6 3
A R
J o
194 1
W ind
w a2
B S
li an3
19 30
P ro
lu an3
ow s
ku ang1
k e2
q u2
t uo3
7 6
han s
194 0
p i4
193 7
197 6
zu i3
194 4
8 9
197 5
r y
ï¼ ı
196 8
ni ang2
po 2
shu a1
h k
c on
r an
T e
yu an1
t ao1
w ang1
10 00
Wind ows
9 5
p a
N e
n o
b i2
s ao3
8 7
d a
196 6
8 5
f a4
p eng1
6 00
g a1
l an4
1 20
194 7
A r
S ta
195 6
A C
196 4
d an3
c u1
194 2
Ã ©
195 5
S e
R a
ch ou3
195 2
193 9
193 8
7 2
I S
v a
7 4
G a
g a
h t
n u
la y
r en3
197 3
197 4
195 4
f i
qi e1
E D
19 00
- -
J a
A P
194 3
b i1
T u
k e
o s
197 7
B e
197 1
pi n1
m an2
o p
po 3
en t
196 7
sh eng2
men t
m p
I C
8 00
L a
E R
i a
8 6
195 9
b eng1
S a
196 5
s on
J R
196 9
du i1
L o
p en2
in e
S o
ãĥ »
Ã Ĺ
qi ao4
chu i1
I D
qi ao1
S u
193 6
9 7
16 0
b en1
zhu a1
D a
F a
195 3
196 2
M A
d o
196 1
ti c
l ong3
â Ķ
193 5
t a4
r ou
m ai2
9 6
O N
D i
ï¼ ħ
195 1
195 7
196 3
C a
h a
âĶ Ģ
o k
8 4
202 6
c an3
or e
8 2
N a
h i
b u
7 3
9 4
tu n1
9 2
p p
I P
A N
B o
st a
m er
193 3
on e
M u
193 1
n ang2
le s
ni ao4
7 1
b ao2
h o
nu an3
g i
A n
l eng2
p a2
P a
9 3
s o
8 3
al l
W e
d ou3
8 1
19 18
H D
S i
s ao1
w i
U ni
19 28
l uan2
193 2
n en4
l l
ar a
in t
B a
M V
S S
1 10
19 12
I T
k i
19 29
tu i3
d uo4
19 27
co m
t u4
193 4
ar e
7 00
g a2
c n
a li
9 1
ch e
te d
st er
f f
b y
hu ang3
co l
il l
o t
25 0
s a
ar t
z ei2
19 24
R i
.. .
19 19
ku i1
xu an4
1 30
pi ao1
19 25
P S
p ao1
xi a1
14 0
P lay
S M
P C
me s
19 14
st e
zh ai3
k m
H e
D V
p an
zh e1
You Tu
h e1
en d
H a
F i
an a
di e1
b le
C on
W i
l a3
A S
19 11
B u
k a
sh i
o d
g ra
nv e4
l d
19 26
G e
T i
de n
ou r
19 22
n a3
h en4
19 17
si on
E T
N BA
I V
shu i2
c ai1
r ao2
E N
19 23
19 21
p eng4
f e
ku a1
G oo
th er
T a
ch ong3
17 0
à ¸
E C
m ao3
n ong4
m m
A L
M S
H o
se ction
YouTu be
E P
N i
B L
19 13
h n
ti ao1
p en
H K
E n
â Ĩ
han t
gu n4
190 9
g in
In ter
c ro
P e
S te
M P
A I
T o
g eng3
W or
n ao4
ri s
f eng3
an t
l uo3
U S
y a
po r
DV D
g o
ar i
z ou1
P i
3 000
T h
c a1
D o
P o
g n
19 10
F or
R O
D S
1 12
A K
R E
p ro
19 16
C ar
ãĥ ¼
ch uo4
N et
Î ±
a tion
S ch
K i
N o
an i
tu re
el l
L in
M y
C P
U N
W il
ar k
â Ī
Sta tion
h en2
19 15
g le
ni ang4
190 5
F C
v en
er s
m y
C N
â Ħ
âĨ Ĵ
190 1
tion al
L u
w a
ti ng
A u
D NA
E x
f a
p u
âĢ §
si c
di a
9 00
H R
P h
di ce
ar y
si s
Ne w
. &
t on
C H
z en3
T A
T O
190 6
190 4
chu ang3
A V
J u
Q u
ou n
K a
g en3
p s
Jo hn
er e
A nd
M O
co dice
ch ao3
ji ong3
di ng
âĦ ĥ
k o
er i
w a4
b eng4
0 5
f u
C C
di u1
190 7
190 8
Goo gle
A G
E ST
M I
v o
zu an4
S O
te s
L E
ji a2
zu an3
Play Station
en ter
B O
B BC
ch i
Co m
A D
I G
c al
le y
l i1
G u
en ce
II I
of t
R u
15 00
c y
5 000
c ri
wo r
zu an1
I ST
sh e1
lv 2
C ol
or y
M E
S y
ti ve
w it
C R
3 D
rou nd
I A
l an
gu a3
10 5
j e
m a4
Ð °
t t
li n
190 3
10 1
G B
pi ng1
re e
C u
c an
0 9
in a
c an4
F e
c en2
190 2
B D
N C
l and
T E
ch a
p ang1
x t
3 50
Ã ¡
z e
SA O
sh ao2
g en
D C
de s
s pan
p t
mo n
A d
Î ²
g ht
re s
li n4
B 1900
de l
bo ok
E S
B M
r on
ï¼ İ
ãĥ ³
189 8
0 6
1 18
H i
l a2
ãģ ®
m s
qi n3
c or
te l
D R
3 60
0 1
D A
O pen
189 5
l ao4
12 5
m u2
z a
la r
b en4
H O
an ce
ti n
M C
AT P
Mi cro
K o
g y
Ð ¾
10 8
K e
s y
li ne
di o
N G
ig h
p ou1
ne t
y le
G o
c lu
lo w
qi e2
gra m
C or
I F
f t
F ran
O ne
n er
A pp
0 7
âĪ Ĵ
0 8
2 30
g h
Fa ce
H u
10 4
pa ce
P u
S er
re a
Wor ld
s oft
ED T
IST AT
M on
S tu
j a
sh ai1
s ong3
à ¤
N O
189 6
L L
ni ng
10 9
D P
f li
g er
la s
d y
y u1
A A
lu s
ow n
B i
it y
g e3
R I
ct or
W a
D u
S P
R T
su i3
xi ao2
qi a3
E X
r e3
B ri
ber t
B 48
M an
v el
li ng
10 6
18 90
S an
C ST
M L
or i
B ar
CD T
Lo ve
z ang1
D O
wi th
H E
w ard
P er
p ei1
ro w
ta in
0 4
4 000
p ri
u x
cu an4
11 5
ig ht
d s
1 200
M 1
0 3
H ar
G P
p ao2
C E
r en
Ä ģ
ba ck
188 9
be gin
P ar
189 9
J e
Ma c
col span
187 1
E d
R S
mi c
Face book
Wil li
Micro soft
âĢ ĭ
24 0
tu r
Co mp
o ol
16 00
L O
G i
de Ġ
Ġ deĠ
shi4 Ġ
Ġ shi4Ġ
Ġ nian2
Ġnian2 Ġ
wei4 Ġ
zai4 Ġ
Ġ wei4Ġ
Ġ zai4Ġ
he2 Ġ
Ġ he2Ġ
zhong1 Ġ
bu4 Ġ
di4 Ġ
shi2 Ġ
guo2 Ġ
yu2 Ġ
ren2 Ġ
Ġ bu4Ġ
yi1 Ġ
Ġ zhong1Ġ
li4 Ġ
zhi4 Ġ
gong1 Ġ
Ġ shi2Ġ
yue4 Ġ
ji2 Ġ
cheng2 Ġ
yi4 Ġ
you3 Ġ
Ġ di4Ġ
Ġ yue4Ġ
Ġ yu2Ġ
Ġ ren2Ġ
Ġ zhi4Ġ
da4 Ġ
Ġ ji2Ġ
yuan2 Ġ
Ġ you3Ġ
ji4 Ġ
Ġ guo2Ġ
Ġ li4Ġ
Ġ gong1Ġ
Ġ yi4Ġ
Ġ yi3
Ġ cheng2Ġ
jia1 Ġ
si1 Ġ
yu3 Ġ
Ġ xian4
Ġ ri4
Ġ yi1Ġ
Ġ xing2
Ġ ta1
li3 Ġ
ji1 Ġ
Ġ dao4
hou4 Ġ
wei2 Ġ
Ġ zhi1
Ġ da4Ġ
Ġ yuan2Ġ
xi1 Ġ
Ġri4 Ġ
Ġ ge4
Ġyi3 Ġ
xue2 Ġ
hui4 Ġ
le Ġ
zuo4 Ġ
Ġ yu3Ġ
Ġdao4 Ġ
ming2 Ġ
Ġ ji4Ġ
bei4 Ġ
Ġxing2 Ġ
sheng1 Ġ
Ġ jian4
Ġ chu1
Ġ qi2
Ġ si1Ġ
Ġ de2
zheng4 Ġ
Ġxian4 Ġ
Ġ hou4Ġ
Ġ ji1Ġ
dui4 Ġ
shang4 Ġ
qu1 Ġ
shi3 Ġ
Ġ er3
Ġ jia1Ġ
you2 Ġ
Ġta1 Ġ
Ġ xi1Ġ
Ġ li3Ġ
Ġ er2
zhan4 Ġ
Ġ jun1
Ġ bing4
Ġzhi1 Ġ
Ġge4 Ġ
zhu3 Ġ
ren4 Ġ
fu4 Ġ
zi4 Ġ
wu4 Ġ
xin1 Ġ
dai4 Ġ
ju4 Ġ
ping2 Ġ
Ġchu1 Ġ
Ġ ke4
Ġ zhou1
xiang1 Ġ
Ġ hui4Ġ
shu4 Ġ
nan2 Ġ
Ġ she4
Ġ bei4Ġ
Ġ ming2Ġ
xia4 Ġ
guan1 Ġ
Ġer3 Ġ
Ġde2 Ġ
lu4 Ġ
yu4 Ġ
hua4 Ġ
Ġjian4 Ġ
jing1 Ġ
yan2 Ġ
fang1 Ġ
Ġ yin1
kai1 Ġ
jian1 Ġ
jiao4 Ġ
fa1 Ġ
yong4 Ġ
Ġ dan4
Ġer2 Ġ
zhu4 Ġ
lai2 Ġ
min2 Ġ
shou3 Ġ
zhe4 Ġ
xiang4 Ġ
wen2 Ġ
Ġjun1 Ġ
xi4 Ġ
qian2 Ġ
ben3 Ġ
te4 Ġ
Ġ wei2Ġ
zhi2 Ġ
fa3 Ġ
qi1 Ġ
jie2 Ġ
lian2 Ġ
Ġbing4 Ġ
dong4 Ġ
dian4 Ġ
Ġqi2 Ġ
Ġke4 Ġ
dong1 Ġ
mu4 Ġ
Ġ jin4
Ġ dui4Ġ
Ġ huo4
Ġ zhan4Ġ
fen1 Ġ
tai2 Ġ
zhang3 Ġ
du4 Ġ
jiang1 Ġ
Ġ qiu2
Ġ ping2Ġ
gao1 Ġ
ye4 Ġ
suo3 Ġ
bei3 Ġ
Ġzhou1 Ġ
shi1 Ġ
Ġ leĠ
duo1 Ġ
jie1 Ġ
ge2 Ġ
Ġ shang4Ġ
jin1 Ġ
Ġ zheng4Ġ
fu2 Ġ
Ġ zuo4Ġ
Ġ you2Ġ
Ġ fu4Ġ
kou3 Ġ
guo4 Ġ
zhi3 Ġ
Ġ tong2
hai3 Ġ
Ġ ren4Ġ
Ġ quan2
ma3 Ġ
tong1 Ġ
ru4 Ġ
zui4 Ġ
Ġ sheng1Ġ
Ġ xue2Ġ
ci3 Ġ
xing4 Ġ
wai4 Ġ
nei4 Ġ
la1 Ġ
ti3 Ġ
jue2 Ġ
ke3 Ġ
qi3 Ġ
shan1 Ġ
tian1 Ġ
chang3 Ġ
deng3 Ġ
zhen4 Ġ
wu3 Ġ
chang2 Ġ
zi Ġ
yao4 Ġ
bi3 Ġ
Ġ ju4Ġ
bao3 Ġ
mi3 Ġ
ya4 Ġ
Ġ ye3
gai1 Ġ
Ġyin1 Ġ
Ġ dai4Ġ
mian4 Ġ
zhong4 Ġ
Ġshe4 Ġ
feng1 Ġ
Ġ zhe4Ġ
zhong3 Ġ
ci4 Ġ
yun4 Ġ
yi2 Ġ
liu2 Ġ
che1 Ġ
shou4 Ġ
lin2 Ġ
bao1 Ġ
yi2 Ġge4Ġ
sai4 Ġ
jie4 Ġ
ding4 Ġ
shen1 Ġ
sheng3 Ġ
luo2 Ġ
mei3 Ġguo2Ġ
san1 Ġ
qi4 Ġ
xiao3 Ġ
Ġdan4 Ġ
neng2 Ġ
shu1 Ġ
ze2 Ġ
lie4 Ġ
xuan3 Ġ
si4 Ġ
qing1 Ġ
zhe3 Ġ
Ġqiu2 Ġ
jing4 Ġ
yuan4 Ġ
ba1 Ġ
wang2 Ġ
ke1 Ġ
tai4 Ġ
lan2 Ġ
bao4 Ġ
an1 Ġ
zong3 Ġ
ying3 Ġ
Ġhuo4 Ġ
bi4 Ġ
fu3 Ġ
dao3 Ġ
Ġ xin1Ġ
gu3 Ġ
ying1 Ġ
Ġ hao4
Ġ xia4Ġ
Ġ zi4Ġ
ge1 Ġ
fen4 Ġ
xiao4 Ġ
yue1 Ġ
ni2 Ġ
jiao1 Ġ
na4 Ġ
Ġ yu4Ġ
Ġ mi3Ġ
zi1 Ġ
er4 Ġ
Ġ xiang1Ġ
pu3 Ġ
dan1 Ġ
Ġ zhu4Ġ
biao3 Ġ
guan3 Ġ
tou2 Ġ
liang4 Ġ
chuan2 Ġ
Ġ lu4Ġ
su4 Ġ
wu2 Ġ
Ġ dang1
bo1 Ġ
ru2 Ġ
yan3 Ġ
nv3 Ġ
bo2 Ġ
Ġzhong1Ġ guo2Ġ
xing1 Ġ
ti2 Ġ
fei1 Ġ
da2 Ġ
se4 Ġ
cheng1 Ġ
mei3 Ġ
Ġwei4Ġ yu2Ġ
Ġjin4 Ġ
ceng2 Ġ
chan3 Ġ
Ġ nan2Ġ
shui3 Ġ
tu2 Ġ
bian4 Ġ
gui1 Ġ
Ġ ran2
yang2 Ġ
zhang1 Ġ
a1 Ġ
gai3 Ġ
dian3 Ġ
cong2 Ġ
jiu4 Ġ
Ġ ben3Ġ
Ġquan2 Ġ
sha1 Ġ
bao1Ġ kuo4
wang3 Ġ
jian3 Ġ
sheng4 Ġ
zu3 Ġ
shu3 Ġ
gang3 Ġ
hua2 Ġ
lv4 Ġ
qing2 Ġ
jing3 Ġ
liang3 Ġ
zu2 Ġ
ban4 Ġ
tong3 Ġ
gong4 Ġ
shang1 Ġ
li2 Ġ
hu4 Ġ
an4 Ġ
tong2 Ġ
bian1 Ġ
jin4 Ġ
long2 Ġ
luo4 Ġ
xu4 Ġ
chi2 Ġ
ao4 Ġ
mei2 Ġ
1 Ġ
jin3 Ġ
ban1 Ġ
guang3 Ġ
chu1 Ġ
ce4 Ġ
mi4 Ġ
shen2 Ġ
Ġta1Ġ men
zheng1 Ġ
zhi1 Ġ
ling3 Ġ
you4 Ġ
fan3 Ġ
wei1 Ġ
Ġ zhu3Ġ
huo2 Ġ
xi2 Ġ
ting2 Ġ
ka3 Ġ
cha2 Ġ
Ġ gai1Ġ
Ġ xiang4Ġ
cai2 Ġ
gou4 Ġ
shuo1 Ġ
men2 Ġ
ci2 Ġ
xiang3 Ġ
mu3 Ġ
2 Ġ
lei4 Ġ
wei3 Ġ
qu3 Ġ
Ġgong1Ġ li3Ġ
yan2Ġ jiu1
Ġ duo1Ġ
tuan2 Ġ
yin3 Ġ
jian4 Ġ
Ġye3 Ġ
chao2 Ġ
ying4 Ġ
chen2 Ġ
tang2 Ġ
xie1 Ġ
qi2 Ġ
pin3 Ġ
Ġyi3 Ġji2Ġ
jia4 Ġ
shi3Ġ yong4Ġ
jie3 Ġ
hang2 Ġ
yi3 Ġ
lun2 Ġ
rong2 Ġ
jiang3 Ġ
Ġ you2
pai2 Ġ
fu1 Ġ
jiu3 Ġ
ling4 Ġ
tai2Ġ wan1
Ġhao4 Ġ
Ġ wan4
ĠdeĠ di4Ġ
xu1 Ġ
ke3 Ġyi3Ġ
huang2 Ġ
xian1 Ġ
duan4 Ġ
ke4 Ġ
dang3 Ġ
mo2 Ġ
can1 Ġ
ying2 Ġ
tiao2 Ġ
biao1 Ġ
ĠdeĠ yi1Ġ
kai1Ġ shi3Ġ
quan2 Ġ
zhan3 Ġ
Ġcheng2Ġ wei2Ġ
ye3 Ġ
hong2 Ġ
mei2 Ġyou3Ġ
han4 Ġ
e2 Ġ
yin1 Ġ
wei3 Ġyuan2Ġ
qian1 Ġ
ban3 Ġ
xian4 Ġ
ling2 Ġ
xiao1 Ġ
Ġtong2 Ġ
hui2 Ġ
su1 Ġ
fang2 Ġ
meng2 Ġ
zhuang1 Ġ
kong1 Ġ
ju2 Ġ
cun1 Ġ
bao1Ġkuo4 Ġ
ren2Ġ kou3Ġ
Ġqi2 Ġzhong1Ġ
Ġgong1Ġ si1Ġ
huo4 Ġ
zi3 Ġ
xing2 Ġ
dou1 Ġ
ĠdeĠ shi4Ġ
ĠĠĠ zai4Ġ
qiang2 Ġ
zhao4 Ġ
du2 Ġ
zheng4 Ġzhi4Ġ
yi2 Ġge4
mo4 Ġ
bing1 Ġ
cai3 Ġ
fa3 Ġguo2Ġ
Ġ fen1Ġ
Ġ gao1Ġ
Ġda4Ġ xue2Ġ
Ġshi4Ġ yi1Ġ
hai2 Ġ
Ġta1 ĠdeĠ
hu2 Ġ
chu4 Ġ
qin1 Ġ
3 Ġ
lun4 Ġ
fan4 Ġ
zhen1 Ġ
guang1 Ġ
wen4 Ġ
man4 Ġ
ai4 Ġ
she4 Ġ
Ġ jie2Ġ
biao3 Ġshi4Ġ
zhong1 ĠdeĠ
ju1 Ġ
Ġ jiao4Ġ
zhuan1 Ġ
diao4 Ġ
bai2 Ġ
da3 Ġ
que4 Ġ
dian4 Ġshi4Ġ
Ġ dong1Ġ
fei4 Ġ
Ġshi4Ġ wei4Ġ
Ġ du4Ġ
Ġ mu4Ġ
han2 Ġ
shi4 ĠdeĠ
Ġ te4Ġ
xun4 Ġ
Ġ jin1Ġ
pian4 Ġ
ming4 Ġ
ju3 Ġ
Ġ jiang1Ġ
tuo1 Ġ
gu4 Ġ
Ġren2Ġ kou3Ġ
xiu1 Ġ
Ġbu4Ġ fen4Ġ
xie2 Ġ
zao4 Ġ
Ġhe2Ġ guo2Ġ
zhong1Ġ guo2Ġ
guo3 Ġ
10 Ġyue4Ġ
shou1 Ġ
Ġ zui4
xin4 Ġ
12 Ġyue4Ġ
7 Ġyue4Ġ
9 Ġyue4Ġ
zhuan3 Ġ
ta1 Ġ
Ġ shi1Ġ
dang1 Ġ
mian4 Ġji1Ġ
Ġren2Ġ min2Ġ
8 Ġyue4Ġ
xun2 Ġ
Ġdi4Ġ qu1Ġ
wu1 Ġ
3 Ġyue4Ġ
Ġ guo4Ġ
1 Ġyue4Ġ
Ġ jing1Ġ
Ġ suo3Ġ
Ġ shou3Ġ
gan3 Ġ
huan2 Ġ
di2 Ġ
xia2 Ġ
jia3 Ġ
5 Ġyue4Ġ
ying1 Ġguo2Ġ
Ġ ci3Ġ
dao4 Ġ
di3 Ġ
zhu1 Ġ
ting1 Ġ
zheng4 Ġshi4Ġ
chong2 Ġ
huo3 Ġ
zhou1 Ġ
6 Ġyue4Ġ
4 Ġ
zhuang4 Ġ
5 Ġ
cheng2 Ġshi4Ġ
4 Ġyue4Ġ
Ġguo2Ġ jia1Ġ
tian2 Ġ
geng4 Ġ
ĠĠĠ di4Ġ
fang4 Ġ
yong3 Ġ
shu3 Ġyu2Ġ
Ġping2Ġ fang1
po4 Ġ
jun1 Ġ
Ġdi4Ġ yi1Ġ
Ġ qian2Ġ
11 Ġyue4Ġ
qun2 Ġ
qu4 Ġ
jiang4 Ġ
tao2 Ġ
Ġshi4Ġ ji4Ġ
Ġping2Ġfang1 Ġgong1Ġli3Ġ
Ġtong2 Ġshi2Ġ
dan1 Ġren4Ġ
gen1 Ġ
Ġ ma3Ġ
Ġ ru2Ġ
Ġ deng3Ġ
ji3 Ġ
bie2 Ġ
pai4 Ġ
du1 Ġ
liang2 Ġ
shao3 Ġ
hui1 Ġ
tie3 Ġ
nong2 Ġ
Ġnian2Ġ 1Ġyue4Ġ
ta3 Ġ
dian4Ġ ying3Ġ
zong1 Ġ
chu3 Ġ
Ġ qi1Ġ
Ġ zhe4
si3 Ġ
Ġ tian1Ġ
er3 Ġ
ĠdeĠ shi2Ġ
shuang1 Ġ
qiao2 Ġ
tai2Ġwan1 Ġ
Ġ sui4
gen1 Ġju4Ġ
li4Ġ shi3Ġ
chu2 Ġ
Ġshi4Ġ zhen4Ġ
gao4 Ġ
bai4 Ġ
can1 Ġjia1Ġ
yun4Ġ dong4
gang1 Ġ
che1 Ġzhan4Ġ
guo2 ĠdeĠ
jiao3 Ġ
Ġyin1 Ġwei4Ġ
Ġri4Ġ ben3Ġ
Ġping2Ġ fang1Ġ
li4 ĠdeĠ
Ġnian2 ĠdeĠ
gai4 Ġ
pan4 Ġ
Ġ wen2Ġ
Ġ hai3Ġ
zheng4Ġ fu3Ġ
bing4 Ġ
zhun3 Ġ
Ġnian2Ġ 12Ġyue4Ġ
wa3 Ġ
yan4 Ġ
wo3 Ġ
Ġ fu2Ġ
gong4 Ġhe2Ġguo2Ġ
Ġxian4 ĠdeĠ
ya2 Ġ
yin2 Ġ
fa1 Ġxian4Ġ
formula Ġ
chuang4 Ġ
hei1 Ġ
huan4 Ġ
qu1 ĠdeĠ
song4 Ġ
ha1 Ġ
hen3 Ġ
ti2 Ġgong1Ġ
Ġ suo3
jin4 Ġxing2Ġ
Ġ bei3Ġ
lei2 Ġ
2 Ġyue4Ġ
jing1 Ġji4Ġ
tong1Ġ guo4Ġ
Ġnian2Ġ 3Ġyue4Ġ
Ġ mei3
sui2 Ġ
chuan1 Ġ
Ġzhong1Ġ yang1
Ġguo2Ġ ji4Ġ
hua1 Ġ
6 Ġ
shang4 ĠdeĠ
Ġyou2 Ġyu2Ġ
Ġ you4Ġ
lei1 Ġ
wei3Ġyuan2Ġ hui4Ġ
qie3 Ġ
kao3 Ġ
Ġnian2Ġ 7Ġyue4Ġ
cheng1 Ġwei2Ġ
Ġnian2Ġ 10Ġyue4Ġ
deng1 Ġ
bai3 Ġ
Ġshi4Ġ jie4Ġ
Ġ ying1Ġ
Ġyin1Ġ ci3Ġ
ming2 Ġwei4Ġ
Ġjin4 Ġxing2Ġ
nuo4 Ġ
Ġshi4Ġ zai4Ġ
chong1 Ġ
zhu3 Ġyi4Ġ
wan2 Ġ
Ġran2 Ġ
Ġnian2Ġ 9Ġyue4Ġ
kuai4 Ġ
tu3 Ġ
Ġzhi1 Ġhou4Ġ
yan2Ġjiu1 Ġ
qiu2 Ġ
Ġta1Ġmen Ġ
mai4 Ġ
shi2 ĠdeĠ
lian4 Ġ
hao4 Ġ
Ġnian2Ġ 5Ġyue4Ġ
sa4 Ġ
lu2 Ġ
xi4Ġ tong3Ġ
Ġ zui4Ġ
pei4 Ġ
lu3 Ġ
Ġnian2Ġ 4Ġyue4Ġ
chi3 Ġ
liao4 Ġ
Ġdang1 Ġ
Ġnian2Ġ 8Ġyue4Ġ
Ġ lian2Ġ
Ġnian2Ġ 6Ġyue4Ġ
Ġxing2 ĠdeĠ
zeng1 Ġ
ren2 ĠdeĠ
Ġ shi3Ġ
xiang1Ġ gang3Ġ
qi1Ġ jian1Ġ
xuan1 Ġ
en1 Ġ
de2 Ġ
kuang4 Ġ
guan3 Ġli3Ġ
Ġgong1Ġ zuo4Ġ
piao4 Ġ
Ġzhi1 Ġyi1Ġ
xu3 Ġ
di1 Ġ
heng2 Ġ
da4 ĠdeĠ
bu3 Ġ
yang4 Ġ
Ġzhong1Ġ xin1Ġ
xuan1 Ġbu4Ġ
sen1 Ġ
tui1 Ġ
Ġnian2Ġ 11Ġyue4Ġ
zu3 Ġzhi1Ġ
ri4 Ġ
wang4 Ġ
bu4 ĠdeĠ
pi2 Ġ
men Ġ
Ġ bao1Ġkuo4Ġ
chang4 Ġ
ying3Ġ xiang3Ġ
yang3 Ġ
Ġta1 Ġzai4Ġ
qian1 Ġmi3Ġ
sai1 Ġ
er2 Ġ
ĠĠĠ sheng1Ġ
Ġhuo4 Ġde2Ġ
pi1 Ġ
Ġshi4Ġ jie4
Ġwan4 Ġ
luo2 Ġsi1Ġ
he4 Ġ
ke3Ġ neng2
cheng2 ĠdeĠ
Ġ gai1
Ġ qing1Ġ
nian4 Ġ
dun4 Ġ
xian2 Ġ
s Ġ
lou2 Ġ
qi2 Ġta1Ġ
Ġnian2Ġ 2Ġyue4Ġ
bang1 Ġ
Ġcheng2Ġ li4Ġ
le Ġyi1Ġ
huo2Ġ dong4Ġ
Ġren4Ġ wei2Ġ
liu4 Ġ
Ġ lai2Ġ
you1 Ġ
Ġ bi3Ġ
Ġ shu4Ġ
ke1 Ġxue2Ġ
Ġ fen1
fa1Ġ zhan3Ġ
huo4 Ġde2Ġ
jun4 Ġ
Ġ luo2Ġ
Ġzuo4Ġ wei2Ġ
ya1 Ġ
Ġping2Ġfang1Ġ qian1Ġmi3Ġ
Ġ a1Ġ
hua2 Ġren2Ġmin2Ġ
Ġ wu2Ġ
ri4 Ġben3Ġ
bei1 Ġ
lao3 Ġ
hui4 Ġyi4Ġ
re4 Ġ
Ġ zhi2
ku4 Ġ
tan2 Ġ
jian1 ĠdeĠ
tie3 Ġlu4Ġ
Ġ liu2Ġ
ĠdeĠ ren2Ġ
yong4 Ġyu2Ġ
liao2 Ġ
ning2 Ġ
Ġshi2Ġ jian1Ġ
ĠdeĠ gong1Ġ
ge4 Ġ
Ġ shan1Ġ
Ġ zhang1Ġ
mian3 Ġ
mian4Ġ ji1
Ġ yan2Ġ
min2 Ġguo2Ġ
rui4 Ġ
wu1 Ġke4Ġ
yin4 Ġ
xian3 Ġ
le4 Ġ
zuo3 Ġ
gong4 Ġyou3Ġ
ĠĠĠ li4Ġshi3Ġ
hao3 Ġ
ĠĠĠsheng1Ġ ping2Ġ
hua2Ġren2Ġmin2Ġ gong4Ġhe2Ġguo2Ġ
fang1 Ġshi4Ġ
fa1Ġ sheng1Ġ
gan1 Ġ
Ġ cong2Ġ
dou4 Ġ
wen4Ġ ti2Ġ
Ġ zhi2Ġ
guan4 Ġjun1Ġ
zhu3Ġ yao4Ġ
ran2 Ġ
di4 ĠdeĠ
Ġdi4Ġ er4Ġ
dao3 Ġzhi4Ġ
guan1Ġ xi4Ġ
cun2 Ġ
Ġ xiao3Ġ
kang1 Ġ
can1 Ġyu4Ġ
yuan3 Ġ
Ġbu4Ġ fen4
Ġ jin3Ġ
zheng3 Ġ
Ġgong1Ġ cheng2Ġ
wan2 Ġcheng2Ġ
dan1 Ġwei4Ġ
ke3Ġ neng2Ġ
Ġ wu3Ġ
yi1 Ġwei4Ġ
Ġ zhi3Ġ
7 Ġ
1 Ġri4Ġ
xie4 Ġ
ge Ġ
Ġ ze2Ġ
suo3 Ġyou3Ġ
zhi4 ĠdeĠ
wen2Ġ hua4Ġ
Ġ zong3Ġ
Ġcheng2Ġ yuan2Ġ
ĠdeĠ cheng2Ġ
gei3 Ġ
lv3 Ġ
Ġ ba1Ġ
yuan2 ĠdeĠ
yong1 Ġyou3Ġ
cun2 Ġzai4Ġ
er4 Ġshi2Ġ
Ġ tong1Ġ
bei3 Ġbu4Ġ
lian2 Ġhe2Ġ
hou4 ĠdeĠ
niu3 Ġ
s ĠĠĠ
Ġshi4Ġ zhong1Ġ
zheng4Ġ fu3
you2 Ġyu2Ġ
guo2Ġ jia1Ġ
dui4 Ġyu2Ġ
Ġnian2Ġ zhi4Ġ
fa1 Ġxing2Ġ
yi4 ĠdeĠ
Ġ 18
ju4 Ġyou3Ġ
Ġjian4Ġ zhu4Ġ
bi3Ġ sai4Ġ
Ġbing4 Ġzai4Ġ
Ġ zhi3
Ġdao4Ġ leĠ
ou1 Ġ
xin1 ĠdeĠ
si1 ĠdeĠ
shen3 Ġ
yun2 Ġ
zi4Ġ ji3
yun4Ġ dong4Ġ
xing2 Ġzheng4Ġ
yin4 Ġdu4Ġ
e2Ġ luo2Ġsi1Ġ
bin1 Ġ
Ġ mian4Ġji1Ġ
dai4Ġ biao3Ġ
shao4 Ġ
Ġ mei3Ġguo2Ġ
Ġ ling4Ġ
xu3 Ġduo1Ġ
Ġdan4 Ġshi4Ġ
ren4 Ġhe2Ġ
sheng1 Ġyu2Ġ
tu1 Ġ
gui4 Ġ
Ġ 15
Ġ jian3Ġ
Ġnian2Ġ dai4Ġ
ding1 Ġ
8 Ġ
liang3 Ġge4Ġ
che4 Ġ
bao3Ġ hu4Ġ
Ġren2Ġkou3Ġ mi4Ġ
Ġ shi3
xiu4 Ġ
man3 Ġ
zh Ġ
e4 Ġ
xuan2 Ġ
Ġdang1 Ġshi2Ġ
zhang4 Ġ
ĠdeĠ yi2Ġge4Ġ
nan2 Ġbu4Ġ
ju3 Ġxing2Ġ
zhuan1 Ġji2Ġ
mian4Ġji1 Ġwei4Ġ
Ġ xi4Ġ
Ġ dian4Ġ
lai2 ĠdeĠ
ai1 Ġ
fan1 Ġ
Ġ guan1Ġ
zao3 Ġ
Ġzheng4Ġ fu3Ġ
du2 Ġli4Ġ
fu2Ġ wu4Ġ
jue2Ġ ding4Ġ
xie3 Ġ
Ġchu1 ĠdeĠ
ruo4 Ġ
zhu3Ġ yao4
Ġ C
kai1Ġ shi3
Ġli4Ġ shi3Ġ
qing3 Ġ
Ġ ceng2Ġ
Ġshe4 Ġji4Ġ
Ġ san1Ġ
rang4 Ġ
ming2 ĠdeĠ
Ġ wang2Ġ
Ġ mei3Ġ
hai4 Ġ
Ġshi4Ġwei4Ġ yu2Ġ
jiu4 Ġshi4Ġ
Ġyou3Ġ yi1Ġ
geng1 Ġ
gt Ġ
Ġ ci3
Ġ gtĠ
xi3 Ġ
Ġ jiang1
tan4 Ġ
Ġqi2 Ġta1Ġ
Ġxing2Ġ zheng4Ġ
Ġ fa3Ġ
Ġ A
pei2 Ġ
jiao4Ġ yu4Ġ
shou4 Ġdao4Ġ
lt Ġ
Ġ feng1Ġ
ren4Ġ wei2Ġ
fang3 Ġ
Ġshi4Ġ di4Ġ
fa1Ġ zhan3
wan3 Ġ
kan1 Ġ
she4 Ġhui4Ġ
Ġ ltĠ
shan4 Ġ
Ġ 16
yi4 Ġwei4Ġ
gu4 Ġshi4Ġ
pian1 Ġ
fang1Ġ mian4Ġ
Ġxian4 Ġzai4Ġ
Ġ jie1Ġ
qu1 Ġwei4Ġ
Ġzui4 Ġzhong1Ġ
qin2 Ġ
Ġ bi4Ġ
Ġzhong1Ġyang1 Ġ
Ġshi4Ġ shi4Ġ
tui4 Ġ
pao4 Ġ
zhe Ġ
nei4 ĠdeĠ
Ġ jiu4Ġ
shu3 ĠdeĠ
xiang1Ġ gang3
xiao3 Ġshi2Ġ
dan4 Ġ
Ġli4Ġ ru2Ġ
zu2 Ġqiu2Ġ
shu4Ġ ju4Ġ
Ġbu4Ġ tong2
lie4Ġ che1Ġ
xu1Ġ yao4Ġ
hua4 ĠdeĠ
zhi2Ġ wu4Ġ
qiang1 Ġ
Ġ sui1
ren2 Ġshi4Ġ
zuo4 ĠdeĠ
shi3Ġ yong4
zeng1 Ġjia1Ġ
Ġji4Ġ hua4Ġ
Ġ qu1Ġ
min2Ġ zhu3Ġ
Ġshi2Ġ qi1Ġ
Ġ dong4Ġ
zuo4Ġ wei2Ġ
Ġ gu3Ġ
kong4 Ġzhi4Ġ
Ġye3 Ġshi4Ġ
duan3 Ġ
tan3 Ġ
Ġjian4 ĠdeĠ
yin1 Ġyue4Ġ
Ġran2 Ġer2Ġ
Ġ an1Ġ
lang2 Ġ
Ġyi3Ġ jing1Ġ
Ġ shu3Ġyu2Ġ
Ġhe2Ġ zuo4Ġ
Ġzai4Ġ di4Ġ
ren2Ġ min2Ġ
Ġshi4Ġ jian4Ġ
Ġren2Ġ yuan2Ġ
Ġ you4
ta1 ĠdeĠ
Ġjian4 Ġyu2Ġ
xue2Ġ yuan4Ġ
Ġ ceng2
zu3 Ġcheng2Ġ
chao1 Ġguo4Ġ
zuo4Ġ pin3Ġ
Ġ ma3
Ġ ge2Ġ
Ġyin1 Ġyue4Ġ
mao4 Ġ
Ġ ke1Ġ
Ġquan2 Ġguo2Ġ
xiong2 Ġ
zai3 Ġ
Ġ S
hu1 Ġ
hui4 ĠdeĠ
ji4 ĠdeĠ
zong3Ġ tong3Ġ
Ġ si4Ġ
suan4 Ġ
Ġzhe4Ġ xie1Ġ
Ġwei4Ġ leĠ
Ġhou4Ġ lai2Ġ
yu2 Ġshi4Ġ
ĠĠĠ S
Ġ pu3Ġ
Ġ zhang3Ġ
Ġ shou4Ġ
10 Ġ
Ġcheng2Ġ gong1Ġ
Ġ tai4Ġ
fa1 Ġbu4Ġ
da4Ġ li4Ġ
ti2 Ġchu1Ġ
Ġli4Ġ ya4Ġ
Ġ 000
Ġyi4Ġ yuan2Ġ
Ġshe4 Ġyou3Ġ
Ġyin1Ġ ci3
yun4Ġdong4 Ġyuan2Ġ
yao1 Ġqiu2Ġ
han2 Ġguo2Ġ
bu4 Ġzai4Ġ
ni2Ġ ya4
you3 ĠdeĠ
pin2 Ġ
ĠĠĠ deĠ
pu2 Ġ
zao4 Ġcheng2Ġ
Ġ 17
ou1 Ġzhou1Ġ
qiu1 Ġ
cai3Ġ yong4Ġ
xiao3 Ġxing2Ġ
Ġgong1Ġ yuan2Ġ
jia1 ĠdeĠ
xing4 ĠdeĠ
sheng1 ĠdeĠ
9 Ġ
ĠdeĠ yi2Ġge4
Ġri4 Ġzai4Ġ
dang1 Ġshi2Ġ
ba3 Ġ
kong4 Ġ
ren2Ġ wu4Ġ
feng4 Ġ
Ġci3Ġ wai4Ġ
Ġ sui2
gong4Ġ chan3Ġ
Ġ la1Ġ
Ġ zhĠ
kan4 Ġ
Ġ cong2
Ġ wo3Ġ
wan1 Ġ
Ġshi4Ġ he2Ġ
2010 Ġnian2Ġ
Ġ ling4
Ġ sha1Ġ
Ġ gen1Ġju4Ġ
ĠdeĠ bu4Ġ
ma3 Ġwei4Ġ
xue2Ġ jia1Ġ
you2Ġ xi4Ġ
Ġ B
Ġ nv3Ġ
Ġ ti3Ġ
song1 Ġ
fan4 Ġwei2Ġ
Ġbu4Ġ tong2Ġ
kai1Ġ fa1Ġ
dun1 Ġ
she4 Ġji4Ġ
mao2 Ġ
san1 Ġnian2Ġ
chao1 Ġ
qu3 Ġde2Ġ
Ġ ke3Ġ
ĠdeĠ ji1Ġ
sai4 Ġshi4Ġ
xiong1 Ġ
Ġxing2 Ġcheng2Ġ
ĠĠĠdi4Ġ li3Ġ
ĠĠĠ shi4Ġ
Ġ yi2Ġ
zi4 Ġzhi4Ġ
chan3 Ġsheng1Ġ
Ġ wu4Ġ
ĠĠĠ A
a1 Ġer3Ġ
Ġsui4 Ġ
yao2 Ġ
ding3 Ġ
wen1 Ġ
ĠdeĠ ji4Ġ
jie2Ġ mu4Ġ
shu1 Ġji4Ġ
Ġbing4 Ġyu2Ġ
Ġ 0
dou1 Ġshi4Ġ
ni3 Ġ
chong2 Ġxin1Ġ
xi4Ġ tong3
ĠĠĠ C
zan4 Ġ
lve4 Ġ
Ġshe4 Ġhui4Ġ
zhong4Ġ yao4
Ġ liang3Ġ
chun1 Ġ
li3 ĠdeĠ
bu2 Ġshi4Ġ
Ġdai4Ġ biao3Ġ
yi1 Ġnian2Ġ
Ġxiang1Ġ gang3Ġ
dian4Ġ ying3
Ġsi1Ġ te4Ġ
guan1 Ġyu2Ġ
zhui1 Ġ
dang4 Ġ
Ġ na4Ġ
jue2Ġ se4Ġ
Ġ fu2
jiao1Ġ tong1Ġ
lang3 Ġ
Ġyou2Ġ xi4Ġ
da4Ġ xue2Ġ
ji2 ĠdeĠ
mi2 Ġ
ge1Ġ qu3Ġ
chu2 ĠleĠ
Ġchu1 Ġxian4Ġ
2020 Ġnian2Ġ
tao3 Ġ
Ġ jie2
Ġzhi4Ġ zuo4Ġ
Ġda4Ġ xue2
ping2 Ġjun1Ġ
Ġde2 Ġguo2Ġ
xian3 Ġshi4Ġ
Ġ chen2Ġ
hua2Ġ min2Ġguo2Ġ
Ġ shen1Ġ
Ġnian2Ġ zai4Ġ
Ġzhong1Ġ hua2Ġren2Ġmin2Ġgong4Ġhe2Ġguo2Ġ
kuo4 Ġ
kong3 Ġ
Ġ P
hou4 Ġzai4Ġ
miao2 Ġ
Ġnian2Ġ dai4
Ġ jian1Ġ
Ġ liang3
er4 Ġnian2Ġ
xia4 ĠdeĠ
yan3 Ġyuan2Ġ
Ġke4 Ġsi1Ġ
de2 Ġguo2Ġ
xiang2 Ġ
Ġ 1Ġ
wei2 Ġyi1Ġ
qing4 Ġ
cao3 Ġ
Ġ bao3Ġ
dang1 Ġdi4Ġ
guo2Ġ ji4Ġ
dui4 ĠdeĠ
bo2Ġ wu4Ġ
hun1 Ġ
Ġjian4 Ġli4Ġ
Ġdi4Ġ guo2Ġ
Ġ fei1Ġ
Ġbu4Ġ yu2Ġ
fan3 Ġdui4Ġ
qi1 ĠdeĠ
duan1 Ġ
wu4 ĠdeĠ
zou3 Ġ
xue4 Ġ
yin1 Ġwei4Ġ
qu1Ġ yu4Ġ
qu4 Ġshi4Ġ
Ġ 1
yi1 Ġbu4Ġfen4Ġ
ba2 Ġgao1Ġ
wo4 Ġ
que1 Ġ
Ġ chang2Ġ
2001 Ġnian2Ġ
guan3Ġ xia2Ġ
du4 Ġwei4Ġ
zheng4Ġzhi4Ġ ren2Ġwu4Ġ
kuan3 Ġ
ĠĠĠ P
ni2Ġ ya4Ġ
Ġ ka3Ġ
hai2 Ġyou3Ġ
peng2 Ġ
ĠĠĠ ren2Ġkou3Ġ
Ġdang1 Ġdi4Ġ
zui4 Ġzhong1Ġ
Ġ ãĤ
Ġ 2
Ġta1 Ġshi4Ġ
chi4 Ġ
Ġbu4Ġ dui4Ġ
lai2Ġ zi4Ġ
Ġ yue1Ġ
Ġ D
Ġ dan1Ġ
bi3Ġ sai4
Ġxing2 Ġshi4Ġ
zhi2Ġ ye4Ġ
qian2Ġ wang3Ġ
ding4 ĠdeĠ
Ġ wei1Ġ
Ġ fa1Ġ
quan2 Ġguo2Ġ
ba1 Ġshi4Ġ
yi1 Ġbu4Ġ
ĠdeĠ yuan2Ġ
Ġzheng4Ġ fu3
zhong4Ġ yao4Ġ
Ġ T
diao4Ġ cha2Ġ
Ġ chu2Ġ
Ġ lin2Ġ
Ġzhi1Ġ jian1Ġ
bian1Ġ ma3Ġwei4Ġ
Ġ huang2Ġ
Ġnian2Ġ jian1Ġ
Ġxue2Ġ ming2Ġ
Ġ 14
xue2Ġ xiao4Ġ
zhao1 Ġ
zhu3Ġ xi2Ġ
xuan3Ġ ju3Ġ
Ġri4 Ġzhi4Ġ
gai3 Ġwei2Ġ
zu3 Ġzhi1
Ġ nei4Ġ
zhu3Ġ jiao4Ġ
ĠĠĠ B
fa2 Ġ
zi1Ġ liao4Ġ
hai3 Ġjun1Ġ
Ġ jing4Ġ
gong1 Ġshi4Ġ
Ġjun1 Ġshi4Ġ
ĠdeĠ da4Ġ
Ġren2Ġkou3Ġmi4Ġ du4Ġ
chu3 Ġli3Ġ
sun1 Ġ
zai1 Ġ
ĠdeĠ yi4Ġ
kang4 Ġ
fang1Ġ fa3Ġ
Ġ duo1
Ġ ãģ
fu4Ġ ze2Ġ
Ġri4Ġ ben3
wu1Ġke4Ġ lan2Ġ
ĠĠĠ yu3Ġ
Ġ bo1Ġ
guan4 Ġ
shu4 ĠdeĠ
Ġyou3Ġ xian4
dai4Ġ biao3
Ġge4 Ġren2Ġ
Ġ san1
wu2Ġ fa3Ġ
ying3Ġ xiang3
Ġji4Ġ shu4Ġ
Ġ sheng4Ġ
Ġshi4Ġ you2Ġ
jie1Ġ rang3
zui4Ġ gao1Ġ
ju1Ġ min2Ġ
Ġ mei2Ġ
Ġ hua4Ġ
Ġ kai1Ġ
pa4 Ġ
xi4Ġ lie4Ġ
qi2 Ġzhong1Ġ
Ġ gai3Ġ
lu4 ĠdeĠ
Ġ jie4Ġ
Ġ hong2Ġ
Ġ 2Ġ
xue2Ġ sheng1Ġ
Ġzhi1Ġ chi2Ġ
zi4Ġ you2Ġ
wen3 Ġ
biao1Ġ zhun3Ġ
Ġ ze2
xie2 Ġhui4Ġ
shu4Ġ liang4
an1 Ġquan2Ġ
fan3Ġ ying4Ġ
ke3 Ġyi3
qie4 Ġ
hui4 Ġzai4Ġ
yao1 Ġ
ken3 Ġ
shen4 Ġzhi4Ġ
bi3 Ġli4Ġ
ye2 Ġ
tong3 Ġzhi4Ġ
lian2Ġ meng2Ġ
chuang4 Ġzuo4Ġ
zhu3Ġ ren4Ġ
Ġ sui2Ġ
ĠĠĠ ben3Ġ
Ġ xin1
Ġ M
dong1 Ġbu4Ġ
ĠdeĠyi2Ġge4 Ġshi4Ġzhen4Ġ
Ġ ãĥ
Ġshi4Ġ yi2Ġge4Ġ
Ġ nan2
Ġgong1Ġ si1
gai1 Ġguo2Ġ
Ġfu4Ġ ze2Ġ
kai3 Ġ
fan2 Ġ
ya3 Ġ
Ġdi4Ġ san1Ġ
Ġ qi3Ġ
ti3Ġ yu4Ġ
Ġdi4Ġ shi2Ġ
Ġ 12
ĠĠĠ xing2Ġzheng4Ġ
jie2Ġ gou4Ġ
Ġ su1Ġ
Ġbu4Ġ guo4Ġ
Ġ 3
Ġdao4 ĠdeĠ
shi2 Ġnian2Ġ
niu2 Ġ
qing2Ġ kuang4Ġ
neng2 Ġli4Ġ
mou3 Ġ
nan2Ġ ziĠ
zhong1 Ġshi4Ġ
qing2Ġ kuang4
suo1 Ġ
si4 Ġnian2Ġ
xi1 Ġbu4Ġ
gong1 Ġbu4Ġ
sheng1Ġ huo2Ġ
jie1Ġ shou4Ġ
Ġ ge1Ġ
Ġ shui3Ġ
nv3Ġ zi3Ġ
Ġ ao4
lu4 Ġxian4Ġ
cheng2Ġ li4Ġ
Ġ yang2Ġ
Ġzhong1Ġ xue2Ġ
ĠĠĠ formulaĠ
gu1 Ġ
wan4 Ġ
mian4 ĠdeĠ
huan1 Ġ
Ġjin4Ġ ru4Ġ
A Ġ
yi4 Ġshi4Ġ
Ġer3 Ġsi1Ġ
Ġzhu3Ġ yao4Ġ
lian2Ġ sai4Ġ
bei3Ġ jing1Ġ
Ġ E
Ġ ba1
you3 Ġshi2Ġ
Ġ ao4Ġ
Ġyi4Ġ hui4Ġ
Ġ ming2
guang3Ġ dong1Ġ
Ġ ke3Ġyi3Ġ
duo2 Ġ
hao2 Ġ
ĠĠĠ jia1Ġ
lao2 Ġ
jian4 Ġzhu4Ġ
ĠĠĠ the
ya4 Ġzhou1Ġ
dao3 ĠdeĠ
Ġguo2Ġ min2Ġ
ye3 Ġshi4Ġ
Ġbing4Ġ qie3
ĠĠĠ G
Ġ tai2Ġ
na2 Ġda4Ġ
dong4Ġ wu4Ġ
tai4 Ġping2Ġ
Ġsuo3 Ġyi3Ġ
di4 Ġwei4Ġ
Ġzhe4 Ġshi4Ġ
ba2Ġgao1Ġ du4Ġ
da2 Ġdao4Ġ
zi4Ġji3 ĠdeĠ
li3 Ġshi4Ġ
zhu2 Ġjian4Ġ
zhuan4 Ġ
ran3 Ġ
dai4 ĠdeĠ
gui3 Ġ
ban3 Ġben3Ġ
xiang4Ġ mu4Ġ
xu3Ġ duo1
zhe3 ĠdeĠ
jiao4Ġ shou4Ġ
2008 Ġnian2Ġ
Ġ hai2Ġ
Ġxue2Ġ xiao4Ġ
Ġ da4
fei1Ġ chang2Ġ
wu1Ġke4Ġ lan2
2009 Ġnian2Ġ
Ġxi1Ġ ya4Ġ
qing1 Ġnian2Ġ
Ġ er4Ġ
Ġ zong3
Ġ hu2Ġ
Ġzhu3Ġ yao4
Ġ Ã
la1 Ġsi1Ġ
ĠĠĠ gen1Ġju4Ġ
yi1 Ġshi4Ġ
Ġcheng2Ġ wei2
ri4Ġ ben3
mo2 Ġshi4Ġ
zhe2 Ġ
niao3 Ġ
wen2Ġ wu4Ġ
Ġta1Ġmen ĠdeĠ
Ġ G
sui4 Ġ
Ġyi4Ġ shu4Ġ
Ġbing4Ġ qie3Ġ
Ġ mu3Ġ
zhi3 Ġyou3Ġ
cha1 Ġ
Ġ 4
Ġji4Ġ lu4Ġ
Ġ F
Ġ ai4Ġ
Ġzhou1 ĠdeĠ
ĠĠĠ T
hang2Ġ kong1Ġ
Ġ yu2Ġshi4Ġ
wen2Ġ xue2Ġ
fen1 Ġwei2Ġ
ĠĠĠ of
Ġ bo2Ġ
Ġ min2Ġ
Ġqi2 Ġshi4Ġ
Ġqi2 Ġyu2Ġ
suan1 Ġ
tong1Ġ guo4
deng3 Ġren2Ġ
zhi3 Ġchu1Ġ
hui3 Ġ
28 Ġri4Ġ
cang2 Ġ
cuo4 Ġ
shuai4 Ġ
ren2Ġkou3Ġ pu3Ġ
zhi2 Ġxing2Ġ
tong2 Ġshi2Ġ
hun4 Ġ
zha4 Ġ
zhi2Ġ jie1Ġ
Ġqiu2 Ġdui4Ġ
Ġli4Ġ ya4
yan3 Ġchu1Ġ
jin3Ġ biao1Ġ
a Ġ
Ġ jin1
gai1 Ġdi4Ġ
m Ġ
Ġ 13
ge2Ġ lan2Ġ
2016 Ġnian2Ġ
huo2Ġ dong4
zhe4 Ġyi1Ġ
ren4Ġ wei2
jin4Ġ ru4Ġ
Ġzhi1Ġ jian1ĠdeĠ
Ġgong1Ġ kai1Ġ
Ġdang1 Ġzhong1Ġ
gong4 Ġtong2Ġ
Ġ ci4Ġ
Ġ yong4Ġ
xia4 Ġji4Ġ
Ġdan4 Ġzai4Ġ
zhan4Ġ zheng1Ġ
wu3 Ġnian2Ġ
jiang1 Ġjun1Ġ
chou2 Ġ
ĠĠĠ F
le4 Ġbu4Ġ
mei2Ġ ti3Ġ
ti3 ĠdeĠ
ĠĠĠ M
che1Ġ zhan4
Ġ 5
tui1 Ġchu1Ġ
jiao4Ġ yu4
yun3 Ġ
zhe4Ġ xie1Ġ
meng4 Ġ
die2 Ġ
Ġshi4Ġ wu4Ġ
ti4 Ġ
po1 Ġ
miao4 Ġ
li2Ġ kai1Ġ
Ġling4Ġ wai4Ġ
Ġ 6
huan2Ġ jing4Ġ
2012 Ġnian2Ġ
lin2Ġ pi3
teng2 Ġ
Ġdi4Ġ er4
shang1Ġ ye4Ġ
zhu2 Ġ
2011 Ġnian2Ġ
chuan2Ġ tong3Ġ
ĠĠĠ nian2
15 Ġri4Ġ
guan1 ĠdeĠ
dan1Ġ qu1Ġ
Ġ yin3Ġ
san1 Ġshi2Ġ
jun1 Ġshi4Ġ
liang4 ĠdeĠ
jie1 Ġdao4Ġ
san4 Ġ
Ġzhe4Ġ geĠ
ji1 ĠdeĠ
qian2 ĠdeĠ
ren2 Ġzai4Ġ
nei4Ġ rong2Ġ
zang4 Ġ
dong4Ġ hua4Ġ
sai4 Ġji4Ġ
gao1 ĠdeĠ
bo2 Ġshi4Ġ
du4 ĠdeĠ
me Ġ
Ġwei4Ġ ren2Ġ
yin2Ġ hang2Ġ
xuan3Ġ ju3
Ġwei4Ġ zhi4Ġ
cheng2 Ġzhong1Ġ
ming4 Ġming2Ġ
deng3 Ġdi4Ġ
Ġgong1Ġ lu4Ġ
Ġ gu4Ġ
sun3 Ġ
re4 Ġdai4Ġ
bei3Ġ jing1
Ġshi2Ġ ji4Ġ
yun4Ġdong4 Ġhui4Ġ
xuan3Ġ ze2Ġ
Ġda4Ġ li4Ġ
Ġer2 Ġzai4Ġ
yuan2 Ġnian2Ġ
Ġ han4Ġ
bao4Ġ gao4Ġ
Ġmu4Ġ qian2Ġ
ĠdeĠ he2Ġ
Ġ wu2
bo1 Ġchu1Ġ
bang3 Ġ
zui4 Ġjia1Ġ
ĠĠĠ ju4Ġ
zong1 Ġjiao4Ġ
xue2 Ġwei4Ġ
tu3 Ġdi4Ġ
Ġde2 Ġdao4Ġ
zui4 Ġhou4Ġ
wen2Ġ hua4
tuan2Ġ ti3Ġ
25 Ġri4Ġ
Ġ H
e Ġ
Ġdi4Ġ fang1Ġ
gui3 Ġdao4Ġ
luan4 Ġ
Ġwei4Ġ di4Ġ
jing1 Ġli4Ġ
xi4 ĠdeĠ
Ġzhi1Ġ qian2Ġ
Ġ 5Ġ
sheng3 ĠdeĠyi2Ġge4Ġshi4Ġzhen4Ġ
Ġ zhan4
Ġ ye4Ġ
Ġshi4Ġyi1Ġ zhong3Ġ
Ġshi4Ġwei4Ġyu2Ġ mei3Ġguo2Ġ
Ġ mo2Ġ
ĠĠĠ H
Ġ qi4Ġ
ji2 Ġzhong1Ġ
Ġge4 Ġyue4Ġ
Ġjun1 ĠdeĠ
si3Ġ wang2Ġ
xiang1Ġ guan1Ġ
30 Ġri4Ġ
fen1Ġ bie2
Ġ bao1Ġkuo4
Ġji1Ġ gou4Ġ
Ġ mi3
wei4 ĠdeĠ
shou3Ġ ci4Ġ
Ġ xing4Ġ
ao4Ġ lin2Ġpi3
ling3Ġ dao3Ġ
Ġyou3Ġ guan1Ġ
Ġhai3Ġ ba2Ġgao1Ġdu4Ġ
Ġyi1Ġ xie1Ġ
Ġtong2 Ġnian2Ġ
huai2 Ġ
2014 Ġnian2Ġ
yong4 ĠdeĠ
ĠĠĠ wei4Ġ
Ġ jue2Ġ
20 Ġri4Ġ
Ġxing2Ġ dong4Ġ
Ġzai4Ġ yi1Ġ
ji1 Ġyu2Ġ
xue3 Ġ
Ġ zhong4Ġ
Ġzhong1Ġ hua2Ġmin2Ġguo2Ġ
shui3 Ġyu4Ġ
11 Ġ
10 Ġri4Ġ
bian4Ġ hua4Ġ
shang4 Ġwei4Ġ
Ġji2Ġ tuan2
2018 Ġnian2Ġ
Ġji4Ġ xu4Ġ
zhi1 Ġyi1Ġ
Ġshi2Ġ dai4Ġ
chu3 Ġyu2Ġ
UTC Ġ
gong4 Ġhe2Ġ
Ġbu4Ġ zhang3Ġ
zi4Ġ ji3Ġ
jie2Ġ shu4Ġ
2019 Ġnian2Ġ
Ġzi4Ġ ji3
zhi1Ġ chi2Ġ
2005 Ġnian2Ġ
guo4 Ġcheng2Ġ
Ġhou4Ġ lai2
Ġ bai2Ġ
Ġ wai4Ġ
shun4 Ġ
min2Ġ zu2Ġ
2015 Ġnian2Ġ
kong1Ġ jian1Ġ
Ġ 8
shui4 Ġ
bu2 Ġhui4Ġ
ye4 Ġyu2Ġ
Ġ ziĠ
Ġ ru2
tou4 Ġguo4Ġ
nei4 Ġbu4Ġ
mei4 Ġ
2013 Ġnian2Ġ
Ġ cheng1Ġ
jie3Ġ fang4
Ġ 7
Ġzhi2 Ġdao4Ġ
Ġyi4Ġ zhi2Ġ
Ġ si4
xin1Ġ wen2Ġ
fen1 Ġbu4Ġ
Ġ jing3Ġ
gen1Ġ ju4
Ġzhou1 Ġshi4Ġ
pi1 Ġping2Ġ
ĠĠĠthe ĠĠĠ
Ġji2Ġ tuan2Ġ
2007 Ġnian2Ġ
Ġ ai4
di4Ġ qu1Ġ
Ġ jiu4
ĠĠĠ zhe4Ġ
ta1Ġ men
Ġ shu3Ġ
Ġhe2Ġ nan2Ġ
Ġshi4Ġ shi2Ġ
Ġyou3Ġxian4 Ġgong1Ġsi1Ġ
wan2 Ġjia1Ġ
gui1Ġ ding4Ġ
20 Ġ
ge2Ġ ming4Ġ
Ġjia1Ġ ru4Ġ
wan2 Ġquan2Ġ
Ġ shen2Ġ
cheng2Ġ wei2Ġ
Ġ tang2Ġ
xi1Ġ ban1Ġ
Ġ Ð
zi1Ġ ge2Ġ
t Ġ
26 Ġri4Ġ
da4Ġ lu4Ġ
ĠĠĠ gai1Ġ
2017 Ġnian2Ġ
ao4Ġlin2Ġpi3 Ġke4Ġ
Ġda4Ġ hui4Ġ
24 Ġri4Ġ
kuan1 Ġ
Ġ K
zai4 ĠdeĠ
za2 Ġzhi4Ġ
Ġ mo4Ġ
Ġzhe4Ġ zhong3Ġ
ying1 Ġyu3Ġ
pu2Ġ tao2Ġ
lu4 Ġdi4Ġ
ĠĠĠ yi1Ġ
he2 ĠdeĠ
shang4Ġ hai3Ġ
Ġ ying1Ġguo2Ġ
hao2 Ġmi3Ġ
Ġyu3Ġ yan2Ġ
qi3Ġ ye4Ġ
qi2 Ġta1
fang1 ĠdeĠ
Ġ 3Ġ
hou4 Ġyi1Ġ
luo2Ġ ma3Ġ
d ĠĠĠ
wen4Ġ ti2
Ġ ke3
san1 Ġge4Ġ
Ġcheng2Ġ qu1Ġ
se4 ĠdeĠ
2006 Ġnian2Ġ
chuan2Ġ tong3
Ġshi4Ġ fa3Ġguo2Ġ
yi1 ĠdeĠ
18 Ġri4Ġ
Ġ tou2Ġ
wu4Ġ zhong3Ġ
Ġ N
Ġwei4Ġyu2Ġ gai1Ġguo2Ġ
Ġli3Ġ si1Ġ
jing4Ġ nei4Ġ
Ġ tai2Ġwan1Ġ
Ġ ha1Ġ
Ġbu4Ġtong2 ĠdeĠ
Ġ 9
wu4 Ġli3Ġ
Ġ mo4
duo1 ĠdeĠ
shu4 Ġwei4Ġ
Ġdai4Ġ biao3
biao3 Ġxian4Ġ
ĠĠĠ D
Ġshi4Ġjie4 Ġda4Ġ
Ġ yao4Ġ
sheng3 Ġji2Ġ
fa3Ġ lv4Ġ
miao2 Ġshu4Ġ
guan1 Ġyuan2Ġ
gan4 Ġ
jing1Ġ guo4Ġ
Ġ lu2Ġ
ba4 Ġ
chang1 Ġ
Ġzui4 Ġhou4Ġ
Ġyi4Ġ ban1Ġ
po4Ġ huai4
Ġ a1
Ġguo2Ġ jia1
ying2 Ġde2Ġ
Ġsui2 Ġhou4Ġ
cai4 Ġ
zheng4 Ġzai4Ġ
bao1Ġ han2Ġ
y Ġ
Ġshi4Ġ jian4
bo2Ġwu4Ġ guan3Ġ
Ġgong1Ġ ji1Ġ
shen4 Ġ
a ĠĠĠ
ce4 Ġshi4Ġ
chang3 ĠdeĠ
21 Ġ
Ġwei4Ġ zhong1Ġ
Ġli4Ġ yong4Ġ
bu4 Ġhe2Ġ
na2 Ġ
ze2 Ġshi4Ġ
Ġ chao2Ġ
nie4 Ġ
fei1 Ġji1Ġ
Ġfen1 Ġbu4Ġyu2Ġ
chun2 Ġ
zhuan1Ġ ye4Ġ
shi3 ĠdeĠ
zheng1 Ġyi4Ġ
27 Ġri4Ġ
16 Ġri4Ġ
fa3Ġ yuan4Ġ
Ġsui1 Ġran2
Ġ 2001Ġnian2Ġ
Ġdi4Ġ qu1
21 Ġri4Ġ
yi4 Ġshi2Ġ
yong1 Ġ
17 Ġri4Ġ
zao1 Ġdao4Ġ
Ġshi4Ġ yi4Ġ
Ġsheng1Ġ huo2Ġ
12 Ġri4Ġ
Ġbei4Ġ cheng1Ġwei2Ġ
Ġ chong2Ġ
ding4 Ġyi4Ġ
Ġzhong1Ġ xin1
Ġda4Ġ qu1Ġ
8 Ġri4Ġ
zong1 Ġhe2Ġ
Ġzhan4Ġ zheng1Ġ
xue2 ĠdeĠ
Ġxian4 Ġshi2Ġ
Ġzhong1Ġ gong4
19 Ġri4Ġ
sou1 Ġ
ji2 Ġwei4Ġ
Ġ L
23 Ġri4Ġ
2021 Ġnian2Ġ
huang2 Ġdi4Ġ
ĠdeĠ zuo4Ġ
zhi3 Ġshi4Ġ
2022 Ġnian2Ġ
a1Ġ la1Ġ
11 Ġri4Ġ
Ġ zhu1Ġ
ou1 Ġzhou1
jiang1 Ġqi2Ġ
Ġbing4 Ġbu4Ġ
yuan2 Ġyu2Ġ
fang1Ġ xiang4Ġ
liu4 Ġnian2Ġ
zhan4 ĠdeĠ
e2Ġ luo2Ġ
ĠĠĠ yu2Ġ
chu1 Ġxian4Ġ
quan2 Ġli4Ġ
nao3 Ġ
lie4Ġ che1
gui1Ġ mo2Ġ
22 Ġri4Ġ
7 Ġri4Ġ
29 Ġri4Ġ
lie4 ĠdeĠ
zui4Ġ da4ĠdeĠ
duo1Ġ shu4Ġ
Ġ ci4
xiang4 ĠdeĠ
xu1Ġ yao4
hai2 Ġshi4Ġ
Ġ long2Ġ
yu4 ĠdeĠ
neng2Ġ gou4Ġ
yue1Ġ han4Ġ
ĠĠĠ ci3Ġ
Ġzhe4Ġ xie1
ding4 Ġwei4Ġ
9 Ġri4Ġ
tong3 Ġji4Ġ
Ġxiang1Ġ gang3
Ġ zu3Ġ
sang1 Ġ
ĠĠĠ zheng4Ġzhi4Ġ
Ġzai4Ġ zhe4Ġ
xin4 Ġxi1Ġ
lian2Ġ meng2
yang4 ĠdeĠ
Ġxian4 Ġzhi4Ġ
gong1 ĠdeĠ
ju3Ġ ban4
Ġfen1Ġ bie2
qiu2 Ġdui4Ġ
hong1 Ġ
cha2 ĠdeĠ
14 Ġri4Ġ
ling4 Ġyi1Ġ
chang2 Ġshi4Ġ
mei3Ġguo2Ġ ren2Ġkou3Ġpu3Ġ
Ġ zhang1
5 Ġri4Ġ
Ġ lu4
niu3Ġ yue1
zu3 Ġhe2Ġ
Ġhuo4 Ġde2
Ġ 10
de ĠĠĠ
lin2 Ġshi2Ġ
3 Ġri4Ġ
31 Ġri4Ġ
Ġzhong1Ġ bu4Ġ
wei4 Ġshi4Ġ
dong3 Ġshi4Ġ
ji1 Ġdi4Ġ
ge1Ġ shou3Ġ
dong1Ġ nan2Ġ
hai3Ġ ba2
bang1 Ġzhu4Ġ
ĠdeĠshi4Ġ zhen4Ġ
ĠĠĠ zhong1Ġ
Ġ ru4Ġ
Ġ bao4Ġ
6 Ġri4Ġ
pai1 Ġshe4Ġ
mou2 Ġ
Ġ hua2Ġ
Ġyi4Ġ da4Ġli4Ġ
Ġ gong4Ġ
2000 Ġnian2Ġ
Ġshe4 Ġli4Ġ
2 Ġri4Ġ
Ġ liu2
Ġyi4Ġ ban1
Ġren2Ġ kou3
ge4 Ġren2Ġ
she4 Ġyou3Ġ
ĠdeĠ zhong1Ġ
4 Ġri4Ġ
Ġ 4Ġ
sheng1Ġ ya2Ġ
30 Ġ
Ġ O
yuan2 Ġhe2Ġ
2004 Ġnian2Ġ
Ġdi4Ġ qu1ĠdeĠ
Ġxue2Ġ sheng1Ġ
Ġ dao3Ġzhi4Ġ
tie3Ġ lu4
zu2 Ġqiu2
zao3 Ġqi1Ġ
Ġqi2 Ġta1
feng2 Ġ
cang1 Ġ
13 Ġri4Ġ
xiong1 Ġdi4Ġ
sheng1 Ġzai4Ġ
dong1Ġ bei3Ġ
mu4 Ġdi4Ġ
tong1Ġ chang2Ġ
hui1 Ġfu4Ġ
ruan3 Ġ
Ġ I
Ġshi4Ġ chang3Ġ
Ġxue2Ġ yuan4Ġ
Ġzhe4 Ġyi1Ġ
Ġ wo3
shao1 Ġ
B Ġ
shen1Ġ fen4Ġ
ĠĠĠ you2Ġyu2Ġ
qu3 Ġdai4Ġ
lian2Ġ bang1Ġ
ge2Ġ ming4
zhi3Ġ hui1Ġ
Ġ bian4Ġ
Ġ mei2Ġyou3Ġ
qing2Ġkuang4 Ġxia4Ġ
ĠĠĠ E
yi2 Ġbu4Ġ
su1Ġ lian2Ġ
Ġ fu4
xie2 Ġyi4Ġ
huang2 Ġjia1Ġ
ke1 Ġji4Ġ
bing3 Ġ
fa1 Ġxian4
zheng3 Ġge4Ġ
ren2 Ġhe2Ġ
Ġgong1Ġ chi3Ġ
yao1 Ġqiu2
pang2 Ġ
d Ġ
yan1 Ġ
zhan1 Ġ
chao1 Ġji2Ġ
pan2 Ġ
mao4 Ġyi4Ġ
er Ġ
yue4 ĠdeĠ
zhang3 ĠdeĠ
xue2Ġ yuan4
fan3Ġ ying4
ju3Ġ ban4Ġ
hang2Ġ kong1
xi2 Ġji1Ġ
cui1 Ġ
Ġye3 Ġyou3Ġ
hua4 Ġhe2Ġ
xiao3Ġ shuo1Ġ
Ġdi4Ġ li4Ġ
guan1Ġ fang1Ġ
li4 Ġhe2Ġ
nv3Ġ xing4Ġ
Ġxi1Ġ nan2Ġ
tu2Ġ shu1Ġ
xian1 Ġhou4Ġ
bi4Ġ ye4Ġ
tong3 Ġyi1Ġ
Ġ ha1
Ġ shu1Ġ
Ġ gu4
Ġ hei1Ġ
sai4 ĠdeĠ
Ġ br
hou2 Ġ
Ġyi3Ġ jing1
Ġ man4Ġ
za2 Ġ
zun1 Ġ
Ġ wei1
Ġ que4Ġ
Ġ shuang1Ġ
Ġ dong1
Ġbr Ġ
xie2 Ġzhu4Ġ
ci4 Ġshi4Ġjie4Ġda4Ġ
lan3 Ġ
Ġru2Ġ guo3Ġ
shang4 Ġshi4Ġ
Ġ 6Ġ
qu1Ġ hua4Ġ
fen1 Ġxi1Ġ
yu3 ĠdeĠ
Ġer3Ġ sheng3Ġ
ren2Ġkou3Ġ shu4Ġliang4
wen2Ġwu4Ġ bao3Ġhu4Ġ
Ġhe2Ġ yi1Ġ
Ġbu4Ġ neng2Ġ
zi4 Ġxing2Ġ
ting3 Ġ
12 Ġ
jie1Ġ duan4Ġ
wu2 Ġxian4Ġ
guang3Ġ bo1Ġ
Ġ ben3
Ġyi3Ġ lai2Ġ
Ġxi1Ġ ban1Ġ
Ġ R
dan1Ġ ren4
Ġta1Ġ ceng2
chi2Ġ xu4Ġ
tai2Ġ bei3
Ġ wu3
Ġ cai2Ġ
gong4Ġchan3Ġ dang3Ġ
guo2 Ġhe2Ġ
Ġyi3Ġ xia4Ġ
qi1 Ġnian2Ġ
te4 ĠdeĠ
dao3Ġ yan3Ġ
Ġ qie3
reng2 Ġ
hou4 Ġyu2Ġ
fa1Ġ biao3
yan3Ġ chang4
zhu4 Ġzai4Ġ
xia4Ġ xia2
Ġ qie3Ġ
tiao2 Ġjian4Ġ
pin2 Ġdao4Ġ
Ġgong1Ġ zuo4
ye4 ĠdeĠ
jiao1 Ġyi4Ġ
hu3 Ġ
Ġzai4Ġ ci4Ġ
shao4 Ġnian2Ġ
lai4 Ġ
jie2Ġ shu4
Ġshi4Ġ zhong1Ġguo2Ġ
Ġ jiu3Ġ
bao4 Ġdao4Ġ
Ġren2Ġkou3Ġmi4Ġ du4Ġwei4Ġ
qiu2 Ġyuan2Ġ
0 Ġ
Ġshi4Ġ li4Ġ
ĠĠĠ bu4Ġ
zao1 Ġ
jue2Ġ sai4Ġ
ying4Ġ yong4Ġ
wai4 ĠdeĠ
you2Ġ zheng4Ġ
jian4 Ġli4Ġ
zi1 Ġyuan2Ġ
sai1 Ġer3Ġ
n Ġ
Ġ ya4Ġ
Ġqi2 Ġhou4Ġ
Ġ qian1Ġ
zui4 Ġda4Ġ
Ġ xi1
Ġbing4 Ġwei4Ġ
hui2 Ġdao4Ġ
cao1 Ġ
su4Ġ du4Ġ
al ĠĠĠ
qi4 Ġhou4Ġ
ke3Ġ da2Ġ
Ġwei4Ġyu2Ġ fa3Ġguo2Ġ
gai3Ġ ge2Ġ
mi4Ġ shu1Ġ
Ġ luo4Ġ
Ġyi1Ġ yuan4Ġ
dian4Ġshi4Ġ ju4Ġ
zhuang4Ġ tai4Ġ
zhu4 ĠdeĠ
fen4 Ġwei4Ġ
Ġgong1Ġ ye4Ġ
wang3 Ġzhan4Ġ
Ġ zhao4Ġ
gong1Ġ si1Ġ
jie2Ġ guo3Ġ
suo3Ġ shu3ĠdeĠ
Ġ jie3Ġ
ĠdeĠdi4Ġ yi1Ġ
Ġ lan2Ġ
hu2 Ġnan2Ġ
Ġyi1Ġ si1Ġ
ya4 Ġli4Ġ
Ġwei4Ġ yi1Ġ
shang4Ġ hai3
Ġ mai4
20 Ġshi4Ġji4Ġ
Ġzhe4Ġ ge
jie2 Ġhe2Ġ
Ġzuo4Ġ pin3Ġ
zuo3 Ġyou4Ġ
xiao3 Ġxue2Ġ
sheng4 Ġli4Ġ
Ġzhong1Ġ gong4Ġ
shou3Ġ ci4
U Ġ
Ġhao4 Ġxian4Ġ
zhen4Ġ qu1Ġ
ĠdeĠ fu4Ġ
kai1Ġ fa1
wen2 Ġming2Ġ
Ġjian3Ġ cheng1Ġ
Ġsuo3 Ġyou3Ġ
yi2 Ġzhi4Ġ
jiao4 Ġhui4Ġ
sheng3Ġ fen4Ġ
zhan3Ġ kai1Ġ
yin4Ġ du4
shi2Ġ qi1Ġ
Ġ fa3Ġguo2Ġ
ling3Ġ dao3
mu4Ġ biao1Ġ
Ġer2 Ġshi4Ġ
gao1 Ġji2Ġ
zhun3 Ġbei4Ġ
wang3Ġ luo4Ġ
Ġmei3 Ġyuan2Ġ
Ġjian4 Ġshe4Ġ
xun4Ġ lian4Ġ
fa1Ġ biao3Ġ
Ġ fei1
ke1 ĠdeĠ
Ġren2Ġ wu4Ġ
xuan3Ġ shou3Ġ
jiao1Ġ tong1
hao3 ĠdeĠ
zi4Ġ ran2Ġ
zhong4Ġyao4 ĠdeĠ
dong1Ġ jing1Ġ
chan3Ġ pin3Ġ
gong4Ġyou3Ġ ren2Ġkou3Ġ
Ġxian4Ġ dai4Ġ
Ġyi1Ġ ming2Ġ
Ġ jia3Ġ
Ġxi1Ġ bei3Ġ
feng1Ġ ge2Ġ
Ġcheng2Ġ ji4Ġ
lei3 Ġ
zou4 Ġ
Ġhe2Ġ di4Ġ
xiao3Ġxing2Ġ xing1Ġ
yan2Ġ zhong4Ġ
juan3 Ġ
zi ĠdeĠ
mu4Ġ qian2Ġ
wen2Ġwu4Ġbao3Ġhu4Ġ dan1Ġwei4Ġ
liu2 Ġxing2Ġ
Ġji1Ġ chang3Ġ
e ĠĠĠ
bian4 Ġcheng2Ġ
qiao2 Ġzhi4Ġ
mie4 Ġ
Ġ guang1Ġ
lei4Ġ si4
dian4Ġshi4Ġ tai2Ġ
jie3 Ġshi4Ġ
guo2Ġ min2Ġ
Ġyi4Ġ qi3Ġ
Ġ yong3Ġ
kai1Ġ fang4Ġ
Ġ mai4Ġ
y ĠĠĠ
Ġ shen4Ġzhi4Ġ
Ġxia4Ġ ling4
Ġ dan1Ġren4Ġ
ka3 Ġer3Ġ
Ġ yi2Ġge4Ġ
2003 Ġnian2Ġ
xing2 Ġshi4Ġ
dou1 Ġyou3Ġ
2002 Ġnian2Ġ
Ġ chu2ĠleĠ
zhi1 Ġhou4Ġ
hui4 Ġhe2Ġ
mei3 Ġping2Ġfang1Ġgong1Ġli3Ġ
ru4 ĠleĠ
Ġyi1Ġ yang4Ġ
Ġgong1Ġ fen1Ġ
Ġshe4 Ġzhi4Ġ
te4Ġ zheng1Ġ
can1Ġ sai4Ġ
Ġsi1Ġ ji1Ġ
Ġ jia4Ġ
ru2 Ġxia4Ġ
Ġ wu1Ġ
zhen1 Ġdui4Ġ
zhe4Ġ geĠ
jiu4 Ġshi4Ġzhen4Ġ
Ġshi4Ġ fou3
Ġshi2Ġ jian1
gao1 Ġzhong1Ġ
Ġci3 Ġhou4Ġ
Ġzai4Ġ zhong1Ġ
bi4Ġ xu1Ġ
wang2 Ġguo2Ġ
bi3Ġ jiao4Ġ
Ġ 00
er4 Ġshi4Ġ
wai4Ġ jiao1
gui1Ġ hua4Ġ
diao1 Ġ
bang4 Ġ
Ġyi4Ġ zhi4Ġ
lei4Ġ si4Ġ
shan1Ġ dong1Ġ
Ġran2 Ġhou4Ġ
Ġyi4Ġ zhi2
Ġ yu3
Ġli4Ġ shu3Ġyu2Ġ
Ġ W
yuan2 Ġshi4Ġ
dui4 Ġzai4Ġ
zhu4 Ġming2Ġ
yun2 Ġnan2Ġ
ĠĠĠ L
hen3 Ġduo1Ġ
Ġ deng3
Ġer3 ĠdeĠ
huo4 Ġde2
sheng1Ġ chan3Ġ
Ġ che1Ġ
ĠĠĠ gong1Ġ
zhan4 Ġyi4Ġ
Ġsui1 Ġran2Ġ
Ġ bei3
dian4Ġ ziĠ
zhong4 ĠdeĠ
Ġjian4 Ġzhi4Ġ
ĠĠĠ da4Ġ
xin1 Ġjia1Ġ
Ġ shang1Ġ
Ġ biao3Ġshi4Ġ
lai2Ġ zi4
zhi4Ġ zuo4Ġ
Ġ tu2Ġ
shan1 Ġxi1Ġ
ren2Ġkou3Ġshu4Ġliang4 Ġwei4Ġren2Ġ
Ġ gu3
ju4 Ġji2Ġ
ĠdeĠyi1Ġ zhong3Ġ
ĠdeĠ ming2Ġ
ji2 Ġhe2Ġ
Ġxi1Ġ ya4
Ġ zu3
lv3 Ġyou2Ġ
Ġzhi4Ġ zao4Ġ
Ġxing2Ġ wei2Ġ
ma3Ġ lai2
Ġ ren4
bao4Ġ fa1Ġ
nv3 Ġer2Ġ
Ġ INSEE
tao4 Ġ
zong3 Ġli3Ġ
quan2 Ġqiu2Ġ
si1 Ġhe2Ġ
ĠĠĠ K
ĠdeĠ zhu3Ġ
Ġshang4Ġ hai3Ġ
sai4 Ġzhong1Ġ
Ġ dui4Ġyu2Ġ
fa1 Ġshe4Ġ
rui4 Ġshi4Ġ
bao1Ġ han2
nong2Ġ ye4Ġ
ye4Ġ wu4Ġ
tou2Ġ zi1Ġ
lu4 Ġjun1Ġ
wu4 Ġzhi4Ġ
jue2 ĠdeĠ
nai4 Ġ
te4Ġ bie2Ġ
Ġjin4 Ġshi4Ġ
ĠdeĠshi2Ġ hou4Ġ
ao4Ġlin2Ġpi3Ġke4Ġ yun4Ġdong4Ġhui4Ġ
ge2 ĠdeĠ
Ġzhi4Ġ jin1Ġ
fang1Ġ an4Ġ
si1 Ġren2Ġ
hua4Ġ xue2Ġ
Ġte4Ġ bie2
Ġda4Ġ liang4Ġ
ji2 Ġshi4Ġ
min3 Ġ
ke3Ġneng2 Ġshi4Ġ
cha4 Ġ
Ġnian2Ġ du4Ġ
lian2Ġ jie1Ġ
Ġ ni2Ġ
jin4 ĠdeĠ
Ġzhi1Ġ wai4Ġ
si4 Ġshi2Ġ
cao2 Ġ
fa1Ġ dong4Ġ
Ġ V
qian3 Ġ
T Ġ
xuan3 Ġwei4Ġ
Ġshe4Ġ shi1Ġ
chu4 ĠdeĠ
tu3 Ġer3
Ġli4Ġ si1Ġ
bo2Ġ te4Ġ
Ġzong3Ġ mian4Ġji1Ġ
luo2Ġ ma3
chuang4 Ġli4Ġ
ĠdeĠ li4Ġ
Ġnian2Ġ hou4Ġ
Ġde2 Ġli3Ġ
Ġ geng4Ġ
guang3Ġ chang3Ġ
lian2 Ġhe2Ġguo2Ġ
ji2 Ġshi2Ġ
geng1Ġ ming2Ġwei4Ġ
t ĠĠĠ
Ġ 11
zao3 Ġnian2Ġ
xiao4 Ġli4Ġ
qi4 ĠdeĠ
Ġ zheng4Ġshi4Ġ
biao3Ġ yan3Ġ
yi2 Ġshi4Ġ
Ġjun1 Ġzai4Ġ
fang1Ġ mian4
jue2Ġ ding4
Ġgai1Ġ sheng3Ġ
Ġ zhen1Ġ
reng2 Ġran2Ġ
da1 Ġ
zhi4 Ġshi4Ġ
Ġgong1Ġ neng2Ġ
zong3Ġ tong3
Ġren2Ġkou3Ġmi4Ġdu4Ġ mei3Ġping2Ġfang1Ġgong1Ġli3Ġ
Ġren2Ġkou3Ġmi4Ġdu4Ġwei4Ġ mei3
Ġxia4Ġling4 Ġshi2Ġ
you2Ġzheng4Ġ bian1Ġma3Ġwei4Ġ
Ġ xian1Ġ
cha2ĠdeĠ shu4Ġju4Ġ
Ġju4Ġ le4Ġbu4Ġ
Ġshi4Ġzhen4Ġ bian1Ġma3Ġwei4Ġ
ĠINSEE Ġshi4Ġzhen4Ġbian1Ġma3Ġwei4Ġ
ĠĠĠ bei4Ġ
biao1Ġ zhun3
Ġ han2Ġ
Ġshe4 ĠdeĠ
xuan3Ġ qu1Ġwei4Ġ
Ġzai4Ġ ci3Ġ
Ġbu4Ġ guo4
pai2 Ġming2Ġ
Ġguo2Ġ wang2Ġ
dong4 Ġli4Ġ
shi2ĠdeĠ ren2Ġkou3Ġshu4Ġliang4Ġwei4Ġren2Ġ
Ġfen1 Ġzhong1Ġ
2023 Ġnian2Ġ
jie1Ġrang3 ĠdeĠshi4Ġzhen4Ġ
mei3Ġguo2Ġren2Ġkou3Ġpu3Ġ cha2ĠdeĠshu4Ġju4Ġ
cong2 Ġshi4Ġ
jia1 Ġli4Ġ
Ġer2 Ġren2Ġkou3Ġmi4Ġdu4Ġwei4Ġmei3
ge2Ġ lan2
Ġdang1Ġdi4Ġ gong4Ġyou3Ġren2Ġkou3Ġ
jie3Ġ jue2Ġ
fen1Ġ lei4Ġ
3 Ġnian2Ġ
zu2 ĠdeĠ
Ġ xiang4
Ġ xiao1Ġ
shi3Ġyong4 ĠdeĠ
da4 Ġbu4Ġfen4
yi1Ġ zhong3Ġ
ling3 Ġyu4Ġ
Ġhuo4Ġ jiu4Ġshi4Ġzhen4Ġ
he2 Ġshi4Ġ
ĠĠĠ li4Ġ
Ġchu1Ġ ban3Ġ
Ġ jiang3Ġ
gou1 Ġ
yun4Ġ ying2Ġ
sheng3Ġji2Ġ xuan3Ġqu1Ġwei4Ġ
ji1 Ġji2Ġ
ĠdeĠ yi1Ġbu4Ġfen4Ġ
shi2 Ġshi4Ġ
C Ġ
er2Ġ ziĠ
jiu3 Ġnian2Ġ
zuo4Ġ pin3
xuan3 Ġren2Ġ
gai4Ġ nian4Ġ
S Ġ
xing1 ĠdeĠ
Ġer3 Ġde2Ġ
sheng3 Ġhe2Ġ
jie1Ġ shou4
tiao2Ġ yue1Ġ
Ġjin3Ġ guan3Ġ
fen4Ġwei4Ġ fa3Ġguo2Ġ
Ġgai1Ġsheng3Ġ fen4Ġwei4Ġfa3Ġguo2Ġ
Ġchu1Ġ ban3
Ġzhi1 Ġxian4Ġ
tie3 Ġdao4Ġ
lian2Ġ bang1
ĠĠĠ O
Ġdi4Ġ san1
Ġ song4Ġ
Ġjun1Ġ dui4Ġ
guang3 Ġzhou1Ġ
Ġbu4Ġ jiu3Ġ
Ġ qing1
ao4 Ġda4Ġli4Ġ
Ġwei4Ġ shi2Ġ
Ġxi1Ġ la4
fu2 Ġjian4Ġ
p Ġ
Ġ kai1Ġshi3Ġ
Ġhe2Ġ bing4
E Ġ
zhan4Ġ zheng1
Ġyou3Ġ ren2Ġ
pai2Ġ ming2
Ġ dui4
zhan4 Ġshi4Ġ
jin3Ġbiao1Ġ sai4Ġ
Ġnian2Ġ chu1Ġ
zui4Ġ hou4Ġyi1Ġ
jing3Ġ cha2Ġ
qun2Ġ dao3Ġ
lai2 Ġyuan2Ġ
te4Ġ bie2
Ġta1Ġ bei4Ġ
Ġer2Ġ qie3Ġ
xing1 Ġjian4Ġ
Ġwan4 Ġren2Ġ
reng2 Ġran2
ba1 Ġnian2Ġ
Ġchu1Ġ sheng1Ġyu2Ġ
she4 Ġli4Ġ
Ġ ruo4Ġ
4 Ġnian2Ġ
di4Ġ yi1Ġ
Ġri4 ĠdeĠ
lun2Ġ dun1
F Ġ
Ġ yi4Ġwei4Ġ
ben3 ĠdeĠ
wei3 Ġhui4Ġ
X Ġ
Ġyou2Ġ xi4
Ġren2Ġ gong1Ġ
xue2Ġ xiao4
Ġ geng4
shan3 Ġxi1Ġ
tong1Ġ chang2
Ġzhi4Ġ yu2Ġ
lie4 Ġwei4Ġ
Ġbu4Ġ ming2Ġ
ceng2 Ġzai4Ġ
mu3 Ġsi1Ġ
Ġming2Ġ chao2Ġ
tian1Ġ wen2Ġ
yun4 Ġxing2Ġ
cai3Ġ yong4
Ġdi4Ġ si4Ġ
ang2 Ġ
Ġ J
rou4 Ġ
yan2Ġjiu1 Ġsuo3Ġ
guang3Ġ fan4Ġ
ĠĠĠ 18
ao4 Ġsi1Ġ
Ġxian4Ġ lu4Ġ
mei3 Ġzhou1Ġ
meng2Ġ gu3Ġ
Ġshi4Ġ bu4Ġ
gan3Ġ ran3Ġ
yi3 Ġji2Ġ
Ġhe2Ġ ping2Ġ
Ġ fan4Ġ
hua4 Ġshi2Ġ
jia1Ġ ru4Ġ
ĠĠĠ W
ĠĠĠ ta1
zhan4 Ġhou4Ġ
nan2 Ġji2Ġ
shuo1Ġ fa3Ġ
Ġ jiao1Ġ
xi1 Ġzai4Ġ
Ġjin4 ĠdeĠ
Ġren4Ġ wei2
Ġji1Ġ ben3Ġ
Ġju4Ġ li2Ġ
Ġ fei4Ġ
Ġ di2Ġ
mo2 Ġxing2Ġ
guo4Ġ cheng2Ġzhong1Ġ
ĠdeĠdi4Ġ fang1Ġ
P Ġ
wu2 Ġren2Ġ
ĠdeĠ xin1Ġ
ji4Ġ shu4Ġ
Ġ rang4
Ġjian4 Ġyi4Ġ
Ġta1 Ġyu3Ġ
Ġ da2Ġ
yun4Ġ shu1Ġ
gou4Ġ mai3
wan2 Ġquan2
wu3 Ġshi2Ġ
Ġke4 ĠdeĠ
ĠĠĠof ĠĠĠ
ren4Ġwei2 Ġshi4Ġ
Ġzai4Ġ yi4Ġ
Ġ can1Ġ
Ġge4 Ġdi4Ġ
2 Ġnian2Ġ
Ġ chen2
ban4Ġ gong1Ġshi4Ġ
Ġ 10Ġyue4Ġ
tong2 Ġyi1Ġ
duo1 Ġge4Ġ
wai4 Ġguo2Ġ
Ġzong3 Ġren2Ġkou3Ġ
Ġ shi3Ġyong4Ġ
xue2 Ġshi4Ġ
shang4 Ġyou3Ġ
Ġ shou4
yuan2 Ġwei4Ġ
jia4Ġ zhi2Ġ
gong1Ġ zuo4Ġ
Ġzi4Ġ ji3Ġ
ni2 Ġsi1Ġ
zhao3 Ġ
Ġzai4Ġ zhong1Ġguo2Ġ
xue2Ġ xi2Ġ
ĠĠĠ R
yang3Ġ hua4Ġ
Ġ ai1
fei1 Ġxing2Ġ
quan1 Ġ
xuan1Ġ chuan2Ġ
mo4 Ġxi1Ġ
Ġyi1Ġ xie1
qi3Ġ lai2Ġ
xuan3Ġ ze2
cheng1 Ġwei4Ġ
xiao1 Ġxi1Ġ
Ġxian4 Ġren2Ġ
ĠdeĠ guan1Ġ
hai3 Ġjun1
Ġ xing1Ġ
biao1 Ġzhi4Ġ
Ġbu4Ġ men2Ġ
zhi4 Ġwei4Ġ
you2Ġ xi4
ma2 Ġ
huan2Ġ jing4
ĠĠĠ V
fu4Ġze2Ġ guan3Ġxia2Ġ
19 Ġ
Ġwei2Ġ zhu3Ġ
jie4 Ġquan2Ġguo2Ġ
xi4Ġ bao1Ġ
gou4 Ġcheng2Ġ
shi1 ĠdeĠ
che1Ġ liang4Ġ
ĠĠĠ yi3Ġ
zhe2 Ġxue2Ġ
keng1 Ġ
Ġji4Ġ hua4
Ġ an4Ġ
si1 Ġzai4Ġ
Ġ ke1
Ġ lin2
zheng4 ĠdeĠ
an1 Ġquan2
dang3 ĠdeĠ
i Ġ
bi3 Ġde2Ġ
Ġdao4Ġ lu4Ġ
chao2Ġ xian1Ġ
Ġer2Ġ qie3
Ġ da3Ġ
yin2Ġ hang2
Ġ hua1Ġ
Ġying1Ġ chi3Ġ
xi1 ĠdeĠ
Ġshi4Ġ mei3Ġguo2Ġ
Ġshi4Ġ tu2Ġ
zhong1 Ġzai4Ġ
Ġji4Ġ nian4Ġ
zhu3Ġ jue2Ġ
an4 ĠdeĠ
Ġ er4
si4Ġ chuan1Ġ
bu4 Ġwei4Ġ
Ġji2Ġ qi2Ġ
peng2 Ġyou3Ġ
1999 Ġnian2Ġ
x Ġ
chi2Ġ xu4
ai4 Ġer3Ġ
24 Ġ
Ġ dou1Ġ
ĠĠĠ you3Ġ
Ġgong1Ġ gong4Ġ
Ġzhi1Ġ chi2
kang4 Ġyi4Ġ
yue1 Ġwei4Ġ
tai4 Ġguo2Ġ
Ġ fan3Ġ
jie1 Ġwei4Ġ
xuan3Ġ qu1Ġ
shi2 Ġzai4Ġ
yi4 Ġhe2Ġ
hui4 Ġyou3Ġ
sheng1Ġ wu4Ġ
xiao4Ġ zhang3Ġ
wen2 Ġjian4Ġ
Ġ tai2Ġwan1
ĠĠĠ he2Ġ
Ġbei4Ġ er3Ġ
ge1Ġ qu3
shou1Ġ ru4Ġ
Ġjie2 Ġzhi4Ġ
biao1 Ġwei4Ġ
fo2 Ġjiao4Ġ
rong2 Ġyi4Ġ
Ġ jie4
ĠĠĠ shi2Ġ
ao4Ġ yun4
ĠĠĠ che1Ġzhan4Ġ
Ġsheng1Ġ wu4Ġ
suo3Ġshu3ĠdeĠ sheng3Ġji2Ġxuan3Ġqu1Ġwei4Ġ
yan3 ĠdeĠ
bian1 Ġji2Ġ
Ġyuan2Ġ zhu4Ġ
qian4 Ġ
Ġzhan4Ġ zheng1
si1 Ġdi4Ġ
ye3 Ġyou3Ġ
qian2Ġ wang3
yu3Ġ yan2Ġ
zheng4Ġ ce4Ġ
Ġ qiang2Ġ
ji4 Ġzhong1Ġ
mi3 Ġer3Ġ
Ġ ruo4
jun1 Ġdui4Ġ
jie3Ġfang4 Ġjun1Ġ
tiao3 Ġzhan4Ġ
Ġchu1Ġ leĠ
Ġyou4Ġ cheng1Ġ
g Ġ
ao4Ġ yun4Ġ
Ġzhi4Ġ du4Ġ
Ġ chang3Ġ
gao1 Ġyu2Ġ
Ġshi4Ġ yi2Ġge4
Ġhuo4 Ġshi4Ġ
7 Ġnian2Ġ
gan3 Ġdao4Ġ
nan2Ġ xing4Ġ
kun1 Ġ
Ġyi3Ġ shang4Ġ
man4Ġ hua4Ġ
gai3Ġ bian4Ġ
ma3 Ġli4Ġ
ĠĠĠ 2021
Ġdi4Ġ xia4Ġ
fo2 Ġ
jie1Ġrang3 Ġ
pei4 Ġhe2Ġ
tou2Ġ ru4Ġ
mei3 Ġyuan2Ġ
zhi3Ġ hui1
Ġ yu4
jia1 Ġren2Ġ
Ġ yan3Ġ
wen3Ġ ding4Ġ
1998 Ġnian2Ġ
Ġzhong1Ġ you3Ġ
Ġ que4
zha1 Ġ
Ġzai4Ġ bu4Ġ
ti2 Ġming2Ġ
da2 Ġcheng2Ġ
Ġyi1Ġ zhong3Ġ
ru3 Ġ
ne4 Ġ
mo4 Ġsi1Ġ
fen1 Ġzhi1Ġ
Ġ tong1Ġguo4Ġ
zai4 Ġshi4Ġ
tong2 ĠdeĠ
jian3Ġ jie4Ġ
shen1Ġ fen4
tian1Ġ zhu3Ġjiao4Ġ
Ġzhong1Ġguo2Ġ ren2Ġmin2Ġ
Ġ zi4
biao3 Ġming2Ġ
duo2 ĠdeĠ
ting2Ġ zhi3Ġ
Ġ hai2Ġyou3Ġ
Ġer2Ġren2Ġkou3Ġmi4Ġdu4Ġwei4Ġmei3 Ġping2Ġfang1Ġqian1Ġmi3Ġ
Ġ ti2Ġ
xiao3 ĠdeĠ
zheng4 Ġshi2Ġ
ce4 ĠdeĠ
zao4 ĠdeĠ
Ġwei4Ġ fu2
juan1 Ġ
que4Ġ zhen3
2024 Ġnian2Ġ
Ġ ping2
Ġji1Ġ bai4Ġ
ĠĠĠ 2020
ban4Ġ dao3Ġ
ĠĠĠ yuan2Ġ
guo2 Ġzai4Ġ
wu3Ġ qi4Ġ
Ġ li2Ġ
Ġjia1Ġ na2Ġda4Ġ
Ġping2Ġfang1Ġ mi3Ġ
zi4Ġzhi4Ġ qu1Ġ
Ġ 8Ġyue4Ġ
Ġ pi2Ġ
la1 Ġke4Ġ
lei4 ĠdeĠ
ta1Ġ menĠ
hun4 Ġhe2Ġ
Ġzi4Ġ you2Ġ
ĠĠĠ zi4Ġ
Ġzai4Ġ mei3Ġguo2Ġ
Ġshi2Ġ yan4
zui4Ġ zao3
ju3 Ġren2Ġ
tuan2 Ġdui4Ġ
di4 Ġshi4Ġ
Ġ bo1
ke3Ġneng2 Ġhui4Ġ
Ġ zhuan1Ġ
ya1 Ġli4Ġ
quan2 Ġbu4Ġ
Ġ su1
ji4 Ġwei4Ġ
Ġer2 Ġbei4Ġ
Ġji4Ġ cheng2Ġ
gong4 Ġxian4Ġ
ji4Ġ hua4Ġ
xi1Ġban1Ġ ya2Ġ
Ġshi2Ġ shi1Ġ
jie2Ġ mu4
Ġjie2Ġ guo3Ġ
Ġ The
Ġdi4Ġ tie3Ġ
sheng1Ġ chan3
lai2Ġ shuo1Ġ
li4 Ġbu4Ġ
zhe4Ġ zhong3Ġ
chan3Ġ ye4Ġ
Ġ wang2
xing2Ġ dong4Ġ
fan1 Ġyi4Ġ
Ġqi1Ġ jian1Ġ
Ġchu1Ġ ren4Ġ
shao3Ġ shu4Ġ
Ġ bei4
cao1 Ġzuo4Ġ
jian3Ġ cha2Ġ
ban4 Ġshi4Ġ
jia1Ġ na2Ġda4Ġ
ying3Ġ pian4Ġ
chong1Ġ tu1Ġ
Ġzai4Ġ da4Ġ
Ġta1 Ġyu2Ġ
bao3Ġ hu4
an4 Ġjian4Ġ
ji4Ġ nian4Ġ
chong2 Ġjian4Ġ
shou3 ĠdeĠ
amp Ġ
Ġ hai2
ĠĠĠ in
D Ġ
Ġ mu4
Ġjian4Ġ zhu4
ceng2Ġ jing1Ġ
on Ġ
Ġshi2Ġ fen1Ġ
Ġshi4Ġ yi3Ġ
Ġ an1
xin1 Ġli3Ġ
xing2 Ġwei2Ġ
gong4 Ġtong2
dong4 ĠdeĠ
kong1 Ġjun1Ġ
nan4 Ġ
Ġshi3 ĠdeĠ
ban4 Ġgong1Ġ
Ġzhi3 Ġyou3Ġ
Ġ men2Ġ
Ġxian4 Ġwei4Ġ
qi1Ġ jian1
da4 Ġbu4Ġfen4Ġ
Ġzhi4Ġ zuo4
jie2Ġ gou4
fen1Ġ bie2Ġ
yang1 Ġ
lian2Ġ sai4
jue2Ġ se4
Ġ hu4Ġ
Ġyi4Ġ you3Ġ
Ġli4Ġ ru2
lian2Ġ xu4Ġ
ji2 Ġzai4Ġ
shen1 ĠdeĠ
Ġhe2Ġ bei3Ġ
Ġwei4Ġ neng2Ġ
Ġ chuan2Ġ
xiang1Ġ dui4Ġ
mei2Ġ ti3
zhu3Ġ ti2Ġ
Ġ bian1Ġ
jian3Ġ shao3Ġ
Ġhe2Ġ liu2Ġ
gong1Ġ yuan2Ġ
xiao3Ġ zu3Ġ
tou4 Ġ
ĠĠĠ I
Ġyou4 Ġming2Ġ
tong4 Ġ
Ġyi3Ġ se4Ġ
fen4Ġ zi3Ġ
xian4 Ġdai4Ġ
Ġshi4Ġyi1Ġ ming2Ġ
Ġti3Ġ zhang3Ġ
ĠĠĠ 2019
Ġxi1Ġ wang4Ġ
ying4 ĠdeĠ
wei3Ġyuan2Ġ hui4
ming4Ġ ming2Ġwei4Ġ
k Ġ
ou1 Ġyuan2Ġ
Ġgong1Ġ si1ĠdeĠ
Ġliang3 Ġren2Ġ
yi4 Ġzai4Ġ
dong4 Ġji1Ġ
da3 Ġji1Ġ
ĠdeĠdi4Ġ qu1Ġ
zhan3 Ġshi4Ġ
zhe4Ġ ge
zhuo2 Ġ
Ġzhi2 Ġzhi4Ġ
Ġshe4Ġ qu1Ġ
Ġji4Ġ xu4
gui1Ġ mo2
shou3 Ġwei4Ġ
xun2Ġ hui2Ġ
Ġsi1Ġ ling4
shu4Ġ liang4Ġ
xia4Ġ wu3Ġ
1996 Ġnian2Ġ
lu4Ġdi4Ġ mian4Ġji1Ġwei4Ġ
yong4Ġ lai2Ġ
shui3Ġyu4Ġ mian4Ġji1Ġwei4Ġ
Ġli4Ġ ji2Ġ
qi3Ġ yong4Ġ
lei4 Ġxing2Ġ
ren4Ġ wu4Ġ
Ġguo2Ġ li4Ġ
Ġshi2Ġ zi4Ġ
Ġyi1Ġ ci4Ġ
duo1Ġ ci4Ġ
ping2Ġ jia4Ġ
bu4 Ġshi4Ġ
M Ġ
Ġ zhen4Ġ
Ġ ling2Ġ
ĠĠĠ and
Ġ 2009Ġnian2Ġ
ĠdeĠ shou3Ġ
Ġfu4Ġ jin4Ġ
ju3 Ġxing2ĠdeĠ
ĠĠĠ 2018
fu2 Ġhe2Ġ
wai4Ġ jiao1Ġ
ti3Ġ xi4Ġ
Ġzhe4Ġ jiang1Ġ
Ġ lie4Ġ
1997 Ġnian2Ġ
Ġda4Ġ shi3Ġ
zuo4Ġ jia1Ġ
Ġshe4 Ġbei4Ġ
liang3 Ġge4
Ġli4Ġ fa3Ġ
zhu4 Ġyi4Ġ
Ġ ampĠ
dian4 Ġli4Ġ
Ġ bian4
de2 Ġdao4Ġ
kui2 Ġ
Ġsi1Ġ ling4Ġ
Ġcong2 Ġer2Ġ
kao4 Ġ
fa3Ġ lv4
jiao4Ġ tang2Ġ
Ġdang1Ġzhong1Ġ lu4Ġdi4Ġmian4Ġji1Ġwei4Ġ
zhi4 Ġhe2Ġ
zhi2 ĠdeĠ
Ġer2Ġ shui3Ġyu4Ġmian4Ġji1Ġwei4Ġ
qu3Ġ xiao1Ġ
jie2 Ġzhi4Ġ
sheng1Ġ huo2
fu2Ġ wu4
ĠĠĠ xi1Ġ
xue2Ġ zhe3Ġ
lun2Ġ dun1Ġ
dian1 Ġ
ĠĠĠ 2022
r Ġ
shui3 Ġping2Ġ
hai3Ġ yu4Ġ
nei4Ġ rong2
Ġ xiao4Ġ
Ġzhi1 Ġshi2Ġ
zhu4Ġ zuo4Ġ
Ġ 9Ġyue4Ġ
ying1Ġ ge2Ġlan2Ġ
an ĠĠĠ
Ġda4Ġ chen2Ġ
Ġcheng2Ġli4Ġ yu2Ġ
ĠĠĠ gai4Ġ
tuo4 Ġ
c Ġ
lv3 Ġke4Ġ
zhi4 Ġzai4Ġ
Ġ guang3Ġ
jie1 Ġjin4Ġ
Ġxin1Ġ wen2Ġ
chang2Ġ qi1Ġ
Ġwei2Ġ er3Ġ
ling4Ġ wai4Ġ
ĠĠĠxing2Ġzheng4Ġ qu1Ġhua4Ġ
ren4Ġ ming4
gao1Ġ su4
tai4Ġ yang2Ġ
Ġjia1Ġ shang4Ġ
bi3Ġsai4 Ġzhong1Ġ
yuan4Ġ zhang3Ġ
dian3 ĠdeĠ
ji3 Ġyu3Ġ
xi1Ġ yang2Ġ
Ġyi3Ġ hou4Ġ
Ġjun1 Ġwei4Ġ
min2 ĠdeĠ
shuo4 Ġshi4Ġ
Ġde2 ĠdeĠ
wei1Ġ lian2Ġ
wei3Ġ shu1Ġji4Ġ
Ġyi4Ġ ren2Ġ
jia1 Ġhe2Ġ
1992 Ġnian2Ġ
dao3 Ġyu3Ġ
pi1Ġ zhun3Ġ
dai4 Ġyou3Ġ
guo1 Ġ
heng1 Ġli4Ġ
Ġshi4Ġ yi1Ġwei4Ġ
Ġxue2Ġ xiao4
Ġwei4Ġfu2 Ġqi2Ġyu2Ġ
l Ġ
can1Ġ yu4
Ġ 7Ġyue4Ġ
6 Ġnian2Ġ
ci4Ġshi4Ġjie4Ġda4Ġ zhan4Ġ
mei3 Ġnian2Ġ
Ġshi4Ġ qu1Ġ
fa1 Ġchu1Ġ
quan4 Ġ
xing4 Ġzhi4Ġ
yan3Ġchang4 Ġhui4Ġ
Ġyuan2Ġ yin1Ġ
tao3Ġ lun4Ġ
Ġ formulaĠ
tui4 Ġyi4Ġ
feng1Ġ bao4Ġ
bi3Ġ ya4Ġ
ĠĠĠ yi4Ġ
ji1 Ġzhi4Ġ
xin4 Ġhao4Ġ
ya4 ĠdeĠ
neng2Ġ gou4
shou4Ġ shang1Ġ
Ġ hui2Ġ
Ġjian4 Ġcheng2Ġ
Ġ meng2Ġ
Ġ tuo1Ġ
lian2Ġ xi4Ġ
wei4Ġ zhi4Ġ
ĠĠĠ 2017
o Ġ
bi4Ġ xu1
Ġru2Ġ guo3
R Ġ
ru2 Ġhe2Ġ
Ġti3Ġzhang3Ġ ke3Ġda2Ġ
Ġ ci2Ġ
Ġer3Ġ te4Ġ
bao3Ġ chi2Ġ
zhuan1 Ġjia1Ġ
Ġ gui1Ġ
an Ġ
fu1 Ġren2Ġ
jiang3 Ġxiang4Ġ
cha1 Ġyi4Ġ
wo1 Ġ
Ġjing1Ġ guo4Ġ
Ġji1Ġ gou4
shou4 Ġyu3Ġ
Ġzai4Ġ yu2Ġ
ĠdeĠyi1Ġ zuo4Ġ
Ġtong1Ġ chang2Ġ
Ġ 2010Ġnian2Ġ
wang3 Ġlu4Ġ
jing1Ġ ying2Ġ
Ġ 12Ġyue4Ġ
Ġ min2Ġguo2Ġ
gong4Ġchan3Ġ dang3
tan1 Ġ
dian4Ġ tai2Ġ
dong1 Ġxi1Ġ
Ġke4 Ġli3Ġ
Ġsheng1Ġ chan3Ġ
Ġbu4Ġ li3Ġ
Ġ 21Ġ
Ġyi3Ġ xia4
cun1Ġ zhuang1Ġ
Ġ huo3Ġ
Ġ 11Ġyue4Ġ
Ġ rang4Ġ
lai2 Ġdao4Ġ
sui2 Ġhou4Ġ
Ġzhi1 Ġzhong1Ġ
lang4 Ġ
Ġ gai3
bi4Ġ ye4Ġyu2Ġ
xun4Ġ lian4
cuo4 Ġshi1Ġ
miao3 Ġ
fa3 ĠdeĠ
Ġyi4Ġ shu4
zong3Ġ du1Ġ
zhu4Ġ ming2ĠdeĠ
xi4Ġ lie4
Ġshi4Ġ you3Ġ
Ġjian4Ġ dui4Ġ
kuai4Ġ su4Ġ
5 Ġnian2Ġ
zhu4 Ġyu2Ġ
Ġ chang2
she2 Ġ
1994 Ġnian2Ġ
Ġshi2Ġ ren4Ġ
Ġyi1Ġ sheng1Ġ
Ġ zhu1
gu1 Ġji4Ġ
hai2Ġ ziĠ
Ġer3 Ġhe2Ġ
tai4Ġping2Ġ yang2Ġ
ĠĠĠ 2016
yan2Ġ ge2Ġ
Ġ zhong1ĠdeĠ
tong2 Ġyi4Ġ
le Ġda4Ġ
sheng1 Ġwei4Ġ
dao3 Ġshi4Ġ
cheng2Ġ gong1Ġ
si4 Ġge4Ġ
fa1Ġ dian4Ġ
Ġjie2Ġ mu4Ġ
Ġshang4Ġ hai3
zhan4 Ġzhong1Ġ
ĠdeĠ qian2Ġ
Ġren2Ġ lei4Ġ
shang3 Ġ
jie2Ġshu4 Ġhou4Ġ
Ġde2 Ġyi3Ġ
pu3Ġ tong1Ġ
Ġ xiang3
ĠdeĠshi2Ġ qu1Ġwei4Ġ
Ġzheng4Ġ ce4Ġ
Ġming2Ġ cheng1Ġ
che4Ġ xiao1Ġ
yu3 Ġzhong1Ġ
Ġ sheng4
ĠĠĠ zhi4Ġ
Ġ tw
Ġ fang1Ġ
tou2Ġ piao4Ġ
Ġ yang2
Ġ wang3Ġ
di3Ġ da2Ġ
Ġ yin4Ġdu4Ġ
Ġjin3Ġ guan3
fa1 ĠdeĠ
15 Ġ
ju2Ġ zhang3Ġ
ĠdeĠshi2Ġ jian1Ġ
geng4 Ġjia1Ġ
1995 Ġnian2Ġ
zhe4Ġ xie1
Ġwei4Ġ sheng1Ġ
yue4Ġ tai2Ġ
Ġping2Ġ tai2Ġ
fan3Ġ hui2Ġ
guang3 Ġxi1Ġ
zhai2 Ġ
fei3 Ġ
hans Ġ
kuo4 Ġda4Ġ
ha1 Ġer3Ġ
Ġ hansĠ
yi4 Ġzhong1Ġ
deng1 Ġlu4Ġ
rong2 Ġyu4Ġ
Ġtw Ġ
Ġ qian2
yue4 Ġshi2Ġ
zhong4 Ġda4Ġ
Ġ qi1
lu4 Ġyi4Ġ
zu3Ġ cheng2ĠdeĠ
zhi3 Ġzai4Ġ
que4Ġ ding4Ġ
25 Ġ
Ġshi4Ġ yan3Ġ
ye4 Ġhou4Ġ
Ġbu4Ġ ke3Ġ
Ġ sa4Ġ
Ġbing4Ġ mei2Ġyou3Ġ
Ġ cheng1
Ġci3 Ġshi2Ġ
ĠĠĠdeĠ shi2Ġ
jin4 Ġxing2
Ġ a1Ġer3Ġ
Ġxue2Ġ xi2Ġ
wan3 Ġshang4Ġ
jiao4Ġ qu1Ġ
qi4Ġ che1Ġ
Ġmu4Ġ qian2
ming2Ġ cheng1Ġ
ya4Ġli4Ġ shan1
gai3Ġ bian1
Ġ lv4Ġ
wu4Ġ zhong3
guan1Ġ zhong4Ġ
xiao1Ġ shou4Ġ
ĠĠĠ 2023
Ġguo2Ġ wu4Ġ
Ġzhi1 Ġyuan2Ġ
yuan4 ĠdeĠ
ba1 Ġxi1Ġ
Ġgong1Ġ ye4
Ġhuo4Ġ zhe3Ġ
ru4Ġ kou3Ġ
xiang1Ġ tong2Ġ
ba1Ġ li2Ġ
ban3 ĠdeĠ
po4Ġhuai4 Ġ
Ġ xia4
xue2 Ġhe2Ġ
sun3 Ġshi1Ġ
biao3 Ġxian4
pan1 Ġ
Ġshi2Ġ xian4Ġ
xi1Ġ la4
fa1Ġxian4Ġ leĠ
ĠĠĠ 2014
kan4 Ġdao4Ġ
nai3 Ġ
qi1Ġ zi3Ġ
guan1Ġ zhu4Ġ
Ġceng2 Ġren4Ġ
Ġbing4 Ġyi3Ġ
Ġ Ñ
qiang3 Ġ
xiong1Ġ ya2
Ġ 6Ġyue4Ġ
Ġ chuang4Ġ
ĠĠĠ suo3Ġshu3ĠdeĠsheng3Ġji2Ġxuan3Ġqu1Ġwei4Ġ
ĠĠĠdeĠ you2Ġzheng4Ġbian1Ġma3Ġwei4Ġ
ĠĠĠyu3Ġ jie1Ġrang3ĠdeĠshi4Ġzhen4Ġ
ĠĠĠyu2Ġ shi2ĠdeĠren2Ġkou3Ġshu4Ġliang4Ġwei4Ġren2Ġ
ĠĠĠdeĠshi2Ġ qu1Ġwei4Ġ
zhuang1 Ġzhi4Ġ
Ġ xuan1Ġbu4Ġ
zhi2 Ġwei4Ġ
22 Ġ
Ġ 2011
Ġ U
ji4 Ġhe2Ġ
Ġzuo4Ġ yong4Ġ
Ġquan2Ġ zhang3Ġ
tu2 Ġzhong1Ġ
su1Ġ lian2
ĠĠĠ N
kai1Ġ fang4
xu1 Ġqiu2Ġ
can2 Ġ
Ġzhi1Ġ ming2Ġ
Ġ Î
lin2 ĠdeĠ
Ġsi1Ġ la1Ġ
shi2 Ġwei4Ġ
heng2Ġ xing1Ġ
tui1Ġ dong4Ġ
ĠĠĠ ji1Ġ
wei2 ĠdeĠ
Ġshi4Ġ zhang3Ġ
Ġquan2 Ġbu4Ġ
Ġnian2Ġ qing1
guan3Ġ li3
Ġ 2019
Ġjia1Ġ ting2Ġ
ru4Ġ qin1Ġ
ru2Ġ ci3Ġ
Ġ hk
tai2Ġ bei3Ġ
yu3 Ġhe2Ġ
yi2Ġ dong4Ġ
Ġyi1Ġ dai4Ġ
jin4 Ġshi4Ġ
fu4 ĠdeĠ
Ġchu1 Ġxian4Ġzai4Ġ
zhe4Ġ jiang1Ġ
mu3Ġ qin1Ġ
xiong1Ġya2 Ġli4Ġ
mu4 Ġsi1Ġ
1991 Ġnian2Ġ
Ġren2Ġ shu4Ġ
fu4Ġ qin1Ġ
Ġdan4 Ġta1Ġ
Ġxi1Ġban1Ġ ya2
Ġ mian4Ġ
ĠĠĠ 2015
min2Ġ zu2
guang3Ġ bo1
zui4 Ġchu1Ġ
tai2 ĠdeĠ
Ġdi4Ġ qiu2Ġ
Ġ gan1Ġ
Ġshi4Ġ zhi3Ġ
1 Ġnian2Ġ
le ĠĠĠ
ti2 Ġsheng1Ġ
fei1 Ġjian4Ġzhi4Ġ
Ġ duan4Ġ
Ġ che1Ġzhan4Ġ
Ġ 5Ġyue4Ġ
shu4Ġ xue2Ġ
xun4Ġ su4Ġ
Ġhk Ġ
Ġ jin3
ĠĠĠ 2013
Ġsi1Ġ tan3Ġ
Ġwei4Ġ he2Ġ
Ġbing4 Ġli4Ġ
Ġcheng2Ġwei2Ġ leĠ
Ġ zhuan3Ġ
niu3Ġ yue1Ġ
Ġ jing1
fa1 Ġxing2
Ġjin4Ġ ru4
te4 Ġli3Ġ
kang4 Ġri4Ġ
Ġhe2Ġ xin1Ġ
Ġge4Ġ zhong3Ġ
zong3 Ġbu4Ġ
Ġji2Ġ qi2
fa1Ġ sheng1
shou1 Ġlu4Ġ
Ġshi4Ġ ren2Ġ
jiao4 ĠdeĠ
gao3 Ġ
lan2 Ġke4Ġ
mang2 Ġ
ming2 Ġyi4Ġ
cai2 Ġzheng4Ġ
chang4Ġ pian4Ġ
ĠĠĠnian2 Ġ
Ġzuo4Ġ pin3
sa4 Ġke4Ġ
Ġji4Ġ zai3Ġ
50 Ġ
Ġzhong1Ġ wen2Ġ
8 Ġnian2Ġ
jue2Ġ sai4
16 Ġ
jin4 Ġgong1Ġ
Ġshi4Ġ ji2Ġ
qi3 Ġyi4Ġ
can1 Ġyi4Ġ
zhuang4Ġ kuang4Ġ
Ġ zao4Ġcheng2Ġ
Ġxian4 Ġyu2Ġ
lv4 Ġwei4Ġ
ĠĠĠ zhong1Ġguo2Ġ
le Ġta1Ġ
zeng1Ġ zhang3Ġ
gao1Ġ du4Ġ
chan3Ġ pin3
can1Ġ kao3Ġ
fei1Ġjian4Ġzhi4Ġ di4Ġqu1Ġ
Ġji4Ġ suan4
zhan4Ġ dou4Ġ
dou1 Ġhui4Ġ
Ġhe2Ġ bing4Ġ
Ġsheng1Ġ huo2
wang2 ĠdeĠ
I Ġ
Ġ huang2
Ġ e2Ġluo2Ġsi1Ġ
zhong4Ġ dian3Ġ
diao4Ġ cha2
chai1 Ġ
Ġda4Ġ lou2Ġ
hai3 Ġdao4Ġ
chang4Ġ pian4
Ġren2Ġ menĠ
wei1Ġ xie2Ġ
ao4 Ġdi4Ġli4Ġ
Ġhe2Ġ zhong1Ġ
shang4Ġ shu1Ġ
Ġwei2Ġ qi2Ġ
ling3Ġdao3 Ġren2Ġ
kan3 Ġ
Ġ hou4
Ġ dao3Ġ
jing1Ġ shen2Ġ
Ġxiang1Ġ guan1Ġ
jia1 Ġzhong1Ġ
sui1 Ġran2Ġ
Ġyin1 Ġer2Ġ
yue4 Ġzai4Ġ
liang3 Ġren2Ġ
Ġbu4Ġ duan4Ġ
can1Ġjia1Ġ leĠ
Ġ fang2Ġ
ying2Ġ yun4Ġ
hua4 Ġwei4Ġ
jiang1 Ġxi1Ġ
ĠdeĠcheng2Ġ yuan2Ġ
jie2 Ġke4Ġ
23 Ġ
tu2Ġshu1Ġ guan3Ġ
Ġhe2Ġ cheng2Ġ
zhu3Ġ chi2Ġ
Ġzhong1Ġguo2Ġ gong4Ġchan3Ġdang3Ġ
ju4 ĠdeĠ
na4 Ġli3Ġ
Ġ 4Ġyue4Ġ
min2Ġ zhong4Ġ
1988 Ġnian2Ġ
jin4Ġ ru4
mou3Ġ xie1Ġ
Ġ hua2
shen1 Ġwei4Ġ
ju1 Ġzhu4Ġ
zi4Ġ dong4Ġ
xia4Ġji4Ġ ao4Ġlin2Ġpi3Ġke4Ġyun4Ġdong4Ġhui4Ġ
yin1 Ġshi4Ġ
Ġ xiao3
zhan4Ġ dou4
shi2Ġ jian1Ġ
Ġ you3Ġshi2Ġ
chan3Ġ sheng1ĠdeĠ
ĠĠĠ zhĠ
Ġzai4Ġ jia1Ġ
Ġ tian1
shuo1 Ġming2Ġ
Ġ zuo3Ġ
Ġzheng4Ġ zhuang4Ġ
yin3Ġ fa1Ġ
Ġ wei3Ġ
Ġ qiao2Ġ
jiang1Ġ su1Ġ
dao1 Ġ
Ġ 20
1993 Ġnian2Ġ
Ġhuo4Ġde2Ġ leĠ
Ġzhi1Ġ xia4Ġ
Ġshi4Ġ wei1Ġ
xiao3Ġ shuo1
Ġ xu3Ġduo1Ġ
Ġ s
ĠĠĠjia1Ġ zu2Ġ
al Ġ
Ġshi4Ġ zhen4
Ġgong1Ġ ren2Ġ
ding4 ĠleĠ
you1 Ġshi4Ġ
lan2 Ġqiu2Ġ
Ġda4Ġ duo1Ġ
zhou1 ĠdeĠ
sui1 Ġran2
ji4 Ġshi2Ġ
Ġxiang4Ġ mu4Ġ
xian3 ĠdeĠ
cui4 Ġ
zi1Ġ xun4Ġ
ao4Ġyun4 Ġhui4Ġ
su4 ĠdeĠ
Ġda4Ġ xing2Ġ
Ġ 2018
13 Ġ
Ġyue4Ġ nan2Ġ
chuang1 Ġ
xiang4Ġ mu4
Ġji2Ġ li4Ġ
Ġzhong1Ġ hua2Ġ
L Ġ
qu3 Ġde2
jie2Ġ hun1Ġ
yuan2 Ġzai4Ġ
Ġbu4Ġ men2
Ġlai2Ġ zi4Ġ
xiang1Ġ dang1Ġ
Ġdan4Ġ you2Ġyu2Ġ
fang3Ġ wen4Ġ
zhi2 Ġdao4Ġ
jiao4Ġ wei2Ġ
Ġshi4Ġwei4Ġ leĠ
Ġ du2Ġ
Ġli3Ġ lun4Ġ
pin3Ġ pai2Ġ
can1Ġ jia1
xi2 Ġwei4Ġ
Ġdi4Ġ wu3Ġ
Ġ pei4Ġ
Ġyue4Ġ tai2Ġ
zhong1 Ġwei4Ġ
b Ġ
Ġ xuan3Ġ
zhen1 Ġshi2Ġ
zhong1Ġ hua2Ġren2Ġmin2Ġgong4Ġhe2Ġguo2Ġ
you3 Ġbu4Ġ
yin4 Ġdi4Ġ
zhou4 Ġ
mei3Ġ shu4Ġ
xing1Ġ qi1Ġ
ming4Ġ ling4Ġ
xue2Ġ shu4Ġ
ĠdeĠgong1Ġ zuo4Ġ
ĠC Ġ
2020Ġnian2Ġ mei3Ġguo2Ġren2Ġkou3Ġpu3Ġcha2ĠdeĠshu4Ġju4Ġ
Ġ lao3Ġ
jian4 Ġshe4Ġ
ju3 Ġxing2
ĠĠĠ 2025
fang2 Ġyu4Ġ
Ġren4Ġ wu4Ġ
wu3Ġ zhuang1Ġ
ba2 Ġ
Ġ bian1
yi2Ġ chan3Ġ
ao4Ġ men2Ġ
tiao2Ġ zheng3Ġ
Ġshi2Ġ yi1Ġ
m ĠĠĠ
Ġ zheng4
bao4Ġ dao3Ġ
en Ġ
ti2Ġ gao1Ġ
Ġ wen2
Ġjia1Ġ ru4
Ġzhi1Ġ hou4
1990 Ġnian2Ġ
fei1Ġ lv4Ġ
wa3 Ġer3Ġ
yi3Ġ lai2Ġ
Ġ tian2Ġ
le Ġta1ĠdeĠ
hui4 Ġyuan2Ġ
Ġshi2Ġ qi1
ji4Ġ lu4Ġ
Ġji1Ġ guan1Ġ
shu4Ġ zi4Ġ
yun3Ġ xu3Ġ
du1 Ġshi4Ġ
leĠ yi2Ġge4Ġ
hua4 Ġjia1Ġ
ji1Ġ chang3Ġ
yi2Ġ min2Ġ
shu1 ĠdeĠ
ju4Ġ li2Ġ
Ġfu4Ġ ze2
Ġ zhuang1Ġ
Ġshi4Ġyi1Ġ zhong3
jin1 ĠdeĠ
Ġren2Ġ lei4
Ġ jiu3
ĠĠĠ 2024
Ġzhou1 Ġnian2Ġ
Ġzi4Ġji3 ĠdeĠ
jie1 Ġji2Ġ
duan4 ĠdeĠ
du1 Ġjiao4Ġ
hong1Ġ zha4
n ĠĠĠ
li4 Ġshi4Ġ
ke4 Ġli3Ġ
yan2 ĠdeĠ
yao1Ġ qing3Ġ
Ġ xie2Ġ
ying2 ĠdeĠ
hua1 Ġyuan2Ġ
yong4Ġ hu4Ġ
shan1Ġ mai4
Ġ liang2Ġ
sheng1 Ġji2Ġ
yue1 Ġyou3Ġ
Ġshi4Ġ da4Ġ
wen2Ġ zi4Ġ
Ġ hong2
Ġ ding4Ġ
mian4 Ġdui4Ġ
Ġ 2011Ġnian2Ġ
dong1 Ġji4Ġ
han2Ġ shu4Ġ
zi1Ġ jin1Ġ
deng3 Ġwei4Ġ
su2 Ġ
Ġ cheng1Ġwei2Ġ
Ġli4Ġ shi3
wu3Ġ tai2Ġ
Ġsui4 ĠdeĠ
Ġ xu2
Ġshe4 Ġji2Ġ
Ġ zhuan3
Ġzhi4Ġ shi2Ġ
Ġ guan1
Ġzhi4Ġ li4Ġ
gao1Ġ deng3Ġ
Ġ shang4
Ġ 2016
xiao4Ġ guo3Ġ
Ġsuo3 Ġyi3
yuan2 Ġji2Ġ
Ġren2Ġ min2
shen1Ġ qing3Ġ
Ġhe2Ġ lan2Ġ
Ġ 2005Ġnian2Ġ
dong4Ġ zuo4Ġ
Ġ ou1Ġ
Ġxian4 Ġhe2Ġ
Ġ 3Ġyue4Ġ
mei3Ġ guo2ĠdeĠ
Ġ 2008Ġnian2Ġ
19 Ġshi4Ġji4Ġ
Ġming2Ġchao2Ġ zheng4Ġzhi4Ġren2Ġwu4Ġ
ĠĠĠ xin1Ġ
ĠĠĠ zao3Ġnian2Ġ
wei4 ĠĠĠ
liang3Ġ zhong3Ġ
Ġwan4 Ġmei3Ġyuan2Ġ
Ġ han2Ġguo2Ġ
Ġri4Ġ jun1Ġ
xia4Ġ ling4
jiao4Ġ lian4Ġ
ling3Ġ tu3Ġ
Ġ ju4
Ġ shi1
nu3 Ġli4Ġ
Ġyuan2Ġ ming2Ġ
zheng4Ġ ming2Ġ
Ġ 30
Ġ zhao1
ĠĠĠ hou4Ġ
lie4Ġ biao3Ġ
lu4 Ġjun1
Ġzhong1Ġ yu2Ġ
zuo4Ġ yong4Ġ
jing1Ġ chang2Ġ
qu1Ġ yu4
you3 Ġzai4Ġ
Ġyi4Ġ yi4Ġ
ying3Ġ pian4
Ġ xiu1Ġ
Ġjin4 Ġxing2
Ġnan2 Ġzhi4Ġ
ĠĠĠ you2Ġ
Ġguo2Ġ hui4Ġ
Ġgong1Ġ hui4Ġ
Ġyuan2Ġ gong1Ġ
guan1Ġ xi4
G Ġ
Ġ chi4Ġ
Ġji4Ġ zhe3Ġ
nei4Ġ lu4Ġ
2 Ġren2Ġ
Ġ pei4
zhao3 Ġdao4Ġ
1984 Ġnian2Ġ
wang2Ġ chao2
hui2Ġ ying4Ġ
jing1 Ġli3Ġ
lv3 Ġxing2Ġ
yong4Ġ zuo4Ġ
shen2Ġ jing1Ġ
Ġshi4Ġ hou4Ġ
Ġ li3
li3Ġ lun4Ġ
Ġ ying1
Ġgong1Ġ chang3Ġ
fu4Ġ jin4Ġ
Ġ bo2
yu2 Ġzai4Ġ
on ĠĠĠ
Ġ jue2
tai4 Ġren2Ġ
Ġhe2Ġ gong1Ġ
chu1Ġ ban3Ġ
ke3Ġyi3 Ġzai4Ġ
sui4 Ġdao4Ġ
bao3Ġ chi2
zhi1Ġ jian1Ġ
ti2 Ġdao4Ġ
jiu3Ġ dian4Ġ
Ġ Ch
Ġ zhong3Ġ
Ġcheng2Ġ xian4Ġ
Ġnian2Ġ1Ġyue4Ġ 1Ġri4Ġ
Ġji1Ġ che1Ġ
Ġshi2Ġ er4Ġ
gui1Ġ ze2Ġ
wo3Ġ men
Ġ luo2
ai1 Ġji2Ġ
1989 Ġnian2Ġ
qi4Ġ xiang4Ġ
Ġ bi3
ge2 Ġwei4Ġ
ti1 Ġ
shou3 Ġji1Ġ
Ġguo2Ġ fang2
kong1 Ġzhong1Ġ
Ġnian2 Ġshi4Ġjie4Ġ
zhu4 Ġli3Ġ
Ġyu2Ġ 18
bei4 Ġshi4Ġwei4Ġ
tong1 Ġdao4Ġ
kong3 Ġbu4Ġ
qi2Ġzhong1Ġ yi1Ġzhong3Ġ
Ġ hen3Ġ
zuo4 Ġwei4Ġ
shou3Ġ du1Ġ
ĠdeĠ zhi4Ġ
li4 Ġwei4Ġ
shu1 Ġji2Ġ
Ġer2 Ġcheng2Ġ
ji1 Ġhe2Ġ
to ĠĠĠ
dong1Ġ nan2Ġbu4Ġ
Ġwo3Ġ menĠ
yi3 Ġxia4Ġ
Ġxi1Ġ wang4
Ġmei3 Ġnian2Ġ
yan3 Ġyi4Ġ
xin1Ġjia1Ġ po1
da4Ġ lu4ĠdeĠ
Ġ fan3
Ġ lei2Ġ
qi3Ġ ye4
meng3 Ġ
Ġzuo4Ġ wei2
dai4 Ġli3Ġ
ĠdeĠ jia1Ġ
jin1Ġ shu3Ġ
jin4Ġ yi2Ġbu4Ġ
lao2 Ġdong4Ġ
zhu3Ġ chi2
jiao4Ġ xue2Ġ
biao3Ġ mian4Ġ
gu4Ġ wen4Ġ
Ġ ying1Ġyu3Ġ
Ġ sĠĠĠ
ni1 Ġ
Ġhe2Ġ xi1Ġ
Ġbu4Ġ bu4Ġ
cai2Ġ liao4Ġ
Ġhe2Ġ shi2Ġ
Ġyou3Ġ ji1Ġ
chao2Ġ xian1
Ġ2001Ġnian2Ġ ren2Ġkou3Ġ
dao4 Ġlu4Ġ
fen1 Ġzhong1Ġ
hua2 Ġren2Ġ
Ġzai4Ġ wei4Ġ
Ġbei3Ġ qi3Ġ
jing4 ĠdeĠ
si3 Ġhou4Ġ
bao3Ġ liu2Ġ
bo1Ġ lan2
tong1Ġ che1Ġ
si1 Ġli4Ġ
14 Ġ
Ġzhong1Ġguo2Ġ da4Ġlu4Ġ
bai2Ġ se4Ġ
ya4Ġli4Ġshan1 Ġda4Ġ
Ġ tu3Ġ
hui4 Ġshi4Ġ
Ġyi3Ġ bei4Ġ
K Ġ
Ġwan4 Ġyuan2Ġ
ju1Ġ min2
zhu3 Ġli4Ġ
Ġping2Ġ mian4Ġ
ni2 Ġke4Ġ
Ġta1 Ġwei4Ġ
Ġ 2021
ĠĠĠ J
zhu3 ĠdeĠ
Ġzhi1Ġ jian1
zhai4 Ġ
Ġsi1Ġ te4
fa3Ġ an4Ġ
yin3Ġ qi3Ġ
nv3Ġ zi3
yin3Ġ qi3
Ġxian4ĠdeĠ yi2Ġge4Ġ
Ġdao4Ġ da2Ġ
zhao4Ġ kai1Ġ
Ġnv3Ġ xing4Ġ
Ġdong1Ġ nan2Ġ
yun4 Ġzuo4Ġ
jiao1 Ġhui4Ġ
shou3 Ġge4Ġ
tui4 Ġchu1Ġ
di4Ġ er4Ġ
Ġer2Ġ yan2Ġ
Ġxian4ĠdeĠ yi2Ġge4
Ġbei4Ġ ren4Ġwei2Ġshi4Ġ
ĠĠĠ 2012
li4 Ġzai4Ġ
zha2 Ġ
Ġji1Ġ hu1
Ġke4 Ġcheng2Ġ
wen2Ġ zhang1Ġ
ceng2Ġ jing1
Ġ cha2Ġ
jie4 ĠdeĠ
ji3 Ġge4Ġ
Ġshi4Ġ jia1Ġ
Ġyou3Ġ yi4Ġ
te4Ġ shu1Ġ
Ġxi1Ġ si1Ġ
xiang1Ġ guan1
shi1Ġ fan4
Ġfu4Ġ qin1Ġ
wu2Ġ fa3
3 Ġren2Ġ
can1Ġ mou2
jin1 Ġhui4Ġ
1985 Ġnian2Ġ
jiao4Ġ shi1Ġ
Ġ gang3Ġ
ĠĠĠ xia4Ġ
lv4Ġ shi1Ġ
fei1 Ġzhou1Ġ
Ġshi4Ġ yu3Ġ
xi1Ġban1Ġ ya2
Ġ ju4Ġyou3Ġ
da4 Ġwei4Ġ
Ġyi1Ġ ji2Ġ
Ġ ge2
ng Ġ
chang2 ĠdeĠ
Ġbu4Ġ de2
Ġta1Ġmen Ġzai4Ġ
Ġ ban1Ġ
Ġ qu3Ġ
wei1 Ġji1Ġ
yi2Ġ zhi3Ġ
Ġyi4Ġ fang1Ġmian4Ġ
fa3Ġ yuan4
Ġer2Ġshui3Ġyu4Ġmian4Ġji1Ġwei4Ġ 0
Ġ feng2Ġ
leng3 Ġ
Ġguo2Ġ jia1ĠdeĠ
zhe3 Ġzai4Ġ
Ġhe2Ġ qi2Ġta1Ġ
xi4Ġtong3 ĠdeĠ
Ġ li2
ya4 Ġzhou1
che1 ĠdeĠ
jin1Ġ pai2Ġ
duo1 Ġnian2Ġ
Ġzhi1 Ġwei4Ġ
Ġbing4Ġ jiang1Ġ
Ġzhu3Ġ xi2Ġ
kang1 Ġxi1Ġ
yao4Ġ wu4Ġ
Ġ hai3
Ġcheng2Ġ xu4Ġ
Ġwei4Ġ you3Ġ
biao3Ġ da2
Ġ00 Ġ
da4 Ġdi4Ġ
bian4 Ġde2Ġ
in Ġ
Ġcheng2Ġ ren4Ġ
zhi2Ġ min2
guo4Ġ qu4Ġ
pu2Ġtao2Ġ ya2
Ġ yong1Ġyou3Ġ
ĠĠĠ cheng2Ġ
Ġzhi4Ġ liao2Ġ
huan1Ġ ying2Ġ
wen2 Ġxian4Ġ
Ġsi1Ġ ke4Ġ
Ġjin4Ġxing2Ġ leĠ
mu4Ġ biao1
fu2 Ġyi4Ġ
zhuang1 Ġshi4Ġ
dong1Ġ bei3Ġbu4Ġ
gou4Ġ zao4Ġ
huo4Ġde2Ġ leĠ
bo2Ġwu4Ġ guan3
ao4Ġda4Ġli4Ġ ya4Ġ
Ġ fei4
Ġ guan1Ġyu2Ġ
Ġqiu2 Ġyuan2Ġ
Ġ 100
jiang1 Ġhui4Ġ
Ġ bai3Ġ
ben3 Ġdi4Ġ
Ġer2Ġ gai1Ġdi4Ġ
xian1 Ġsheng1Ġ
Ġbu4Ġ la1Ġ
bo1Ġ lan2Ġ
Ġ ti2Ġgong1Ġ
1949 Ġnian2Ġ
Ġyu2Ġ le4Ġ
jia1Ġ ru4
fang4Ġ qi4Ġ
jian4 Ġyi4Ġ
Ġ 2015
yi4Ġ da4Ġli4Ġ
dang1Ġ shi2ĠdeĠ
Ġqi1Ġ xi1Ġzai4Ġ
Ġ ban4Ġ
ze2 Ġwei4Ġ
mao2 Ġze2Ġ
liang3 Ġnian2Ġ
xiao4 ĠdeĠ
sa4 Ġsi1Ġ
Ġbing4 Ġyu3Ġ
Ġ zhu4
Ġda4Ġ lu4Ġ
O Ġ
Ġ qi3
fu4Ġ qin1
Ġwei4Ġ lai2Ġ
Ġ 2007Ġnian2Ġ
st ĠĠĠ
zi4Ġ you2
guang3Ġ gao4Ġ
ĠĠĠ cong2Ġ
Ġjian4Ġ zao4Ġ
Ġjin4Ġ yi2Ġbu4Ġ
liu2 Ġzai4Ġ
cheng1 Ġzuo4Ġ
shou1 Ġshi4Ġ
ĠdeĠ zheng4Ġ
nan2Ġ jing1Ġ
Ġjin4 Ġgong1Ġ
jin3 Ġji2Ġ
sa4 Ġer3Ġ
luo2 Ġdi4Ġ
Ġshi4Ġ zheng4Ġ
Ġfu4Ġ qin1
Ġji4Ġ shu4
Ġhao4 Ġwei4Ġ
Ġ c
ji4Ġ xu4Ġ
xi4Ġ ju4Ġ
tan3 Ġke4Ġ
es Ġ
ĠdeĠ sheng1Ġ
Ġren2Ġ men
Ġri4Ġ jun1
9 Ġnian2Ġ
Ġyi4Ġ mei3Ġyuan2Ġ
ci4Ġ shi3Ġ
Ġ 2013
Ġ bing1Ġ
Ġzai4Ġ ci3
Ġ gao1
Ġte4Ġbie2 Ġshi4Ġ
huo3 Ġjian4Ġ
Ġjia1Ġ zu2Ġ
piao4Ġ fang2Ġ
or Ġ
qing3 Ġqiu2Ġ
jing3Ġ fang1Ġ
kao3Ġ lv4
bi3Ġli4Ġ shi2Ġ
1986 Ġnian2Ġ
Ġshi4Ġ ri4Ġben3Ġ
Ġsi1Ġ tan3
Ġjie2Ġ guo3
tai4Ġping2Ġ yang2
zhan1Ġ mu3Ġsi1Ġ
que4 Ġren4Ġ
Ġ 2014
Ġchu1Ġ sheng1Ġ
Ġxi4Ġ lie4Ġ
di4 Ġzai4Ġ
tian1 ĠdeĠ
pai1 Ġ
Ġyi3 Ġyou3Ġ
bian1 ĠdeĠ
shang4Ġ wu3Ġ
tou2Ġ piao4
ba1Ġ li2
wang2Ġ chao2Ġ
nei4 Ġyou3Ġ
wan2 Ġgong1Ġ
Ġzhi4Ġ cheng2Ġ
guang3Ġdong1Ġ sheng3Ġ
ĠĠĠ jie2Ġzhi4Ġ
pai1 Ġshe4
Ġyuan2Ġ ben3Ġ
cheng2 Ġnian2Ġ
fen3 Ġ
chang3 Ġhe2Ġ
Ġqi2 Ġzai4Ġ
Ġzhi1Ġ ziĠ
mu3Ġ qin1
shen1Ġ ti3Ġ
meng2Ġ gu3
Ġ sai4Ġji4Ġ
Ġda4Ġ yue1Ġ
Ġzhan4Ġ dou4Ġ
Ġzhi1 ĠdeĠ
gu3Ġ fen4
xi2Ġ xing4
geng4 Ġduo1Ġ
hu2Ġ bei3Ġ
Ġyue1Ġ han4Ġ
Ġ he4Ġ
deng1 Ġshang4Ġ
Ġxian4Ġ chang3Ġ
Ġ deng4
ĠĠĠ zeng1Ġ
suo3 Ġzai4Ġ
qing2Ġ bao4Ġ
Ġying1Ġ wen2Ġ
Ġ jing1Ġji4Ġ
ĠĠĠ 2
ĠĠĠ U
wai4 Ġbu4Ġ
zhong4 Ġyi4Ġ
min2Ġ jian1Ġ
yan3Ġ chang4Ġ
mi4Ġ mi4Ġ
guan1Ġ bi4Ġ
guang3Ġ fan4
Ġ ce4Ġ
xiao4 Ġyuan2Ġ
Ġshi4Ġ ye4Ġ
Ġzai4Ġ qi2Ġ
1 Ġren2Ġ
kao3Ġ lv4Ġ
e2Ġluo2Ġ si1
Ġ liang4Ġ
te4Ġ se4Ġ
Ġwo3Ġ men
Ġ shou1Ġ
Ġyou3Ġ xian4Ġ
sen1Ġ lin2Ġ
ma3 Ġsi1Ġ
Ġnian2 ĠĠĠ
Ġ 2020
Ġ lv3Ġ
Ġ ai1Ġ
wu4 Ġyuan2Ġ
an1Ġ pai2Ġ
Ġquan2 Ġqiu2Ġ
Ġ xiang3Ġ
Ġ xun2Ġ
Ġ hao2Ġmi3Ġ
xia4 Ġyi1Ġ
er4 Ġyue4Ġ
Ġda4Ġ duo1Ġshu4Ġ
Ġbu4Ġ jiu3
zhuang1 Ġbei4Ġ
chi1 Ġ
Ġ heng2Ġ
huan3 Ġ
Ġda4Ġ dao4Ġ
Ġ wo4
neng2 Ġzai4Ġ
zeng4 Ġ
Ġji1Ġ bai4
tu3Ġer3 Ġqi2Ġ
Ġ can1Ġjia1Ġ
Ġ 10Ġ
qian1 Ġzhi4Ġ
Ġdi4Ġyi1Ġ ci4Ġ
Ġzui4Ġ gao1Ġ
ng ĠĠĠ
chang3 Ġdi4Ġ
cun4 Ġ
min2Ġzhu3Ġ dang3Ġ
Ġ yan2
xing4Ġ qu4Ġ
Ġshi2Ġ yan4Ġ
zuo4Ġ zhan4Ġ
nan2 Ġyi3Ġ
Ġji2Ġ bei3Ġ
Ġchu1Ġ lai2Ġ
tai2Ġ feng1Ġ
tian1Ġ jin1Ġ
Ġ 2017
Ġ zhong1Ġshi4Ġ
ban4 Ġli3Ġ
Ã© Ġ
Ġzhi1 Ġdao4Ġ
tian1Ġ jin1
Ġ gang1Ġ
long2Ġ jiang1Ġ
ling3 Ġshi4Ġ
Ġbu4Ġ zu2Ġ
yong4Ġ tu2Ġ
li3 Ġgong1Ġ
Ġtong1Ġ chang2
Ġ kang1Ġ
Ġyuan2Ġ su4Ġ
wei1 Ġer3Ġ
nong2Ġ ye4
Ġqing1Ġ chao2Ġ
ai1 Ġer3Ġ
chang2 Ġjian4ĠdeĠ
Ġcheng2Ġ du4Ġ
zhan4Ġ ling3Ġ
Ġnian2Ġ bei4Ġ
jin4Ġxing2Ġ leĠ
Ġshi3 Ġjian4Ġyu2Ġ
ĠĠĠ ming2Ġ
dao3 Ġdan4Ġ
xiu1 Ġzheng4Ġ
Ġyue4Ġ tuan2Ġ
ĠĠĠ xian4
gui4 Ġzhou1Ġ
ma Ġ
fen1 Ġbu4Ġyu2Ġ
ma3Ġlai2 Ġxi1Ġya4Ġ
zu3 Ġjian4Ġ
xi3 Ġju4Ġ
Ġgong1Ġ zhu3Ġ
Ġta1Ġ hai2Ġ
zhang4Ġ ai4Ġ
xi2Ġxing4 Ġbu4Ġming2Ġ
Ġshi2Ġ dai4
xiang4 Ġshi4Ġ
Ġwen2Ġ hua4Ġ
Ġchu1Ġ qi1Ġ
Ġzhan4Ġ dou4
hua2Ġ sheng4Ġ
sheng1 Ġcheng2Ġ
te Ġ
Ġyou3Ġ xie1Ġ
jiao1Ġ liu2Ġ
ren4Ġming4 Ġwei4Ġ
Ġsheng1Ġ chan3
ĠĠĠ ta1Ġ
Ġyi4Ġ qi3
fa3Ġ guan1Ġ
Ġye3Ġ jiu4Ġshi4Ġ
ĠdeĠ fang1Ġshi4Ġ
Ġhe2Ġ he2Ġ
Ġsheng1Ġhuo2Ġ xi2Ġxing4Ġbu4Ġming2Ġ
she4 Ġzhi4Ġ
shou4 Ġdao4
ti2 Ġchu1
Ġ chu3Ġyu2Ġ
ji1Ġ chu3Ġ
Ġta1Ġ ye3Ġ
Ġ tao2Ġ
4 Ġren2Ġ
Ġ luo4
hen3 Ġda4Ġ
zhi4 Ġzhong1Ġ
ku3 Ġ
bao4Ġ fa1
zhu3 Ġshi4Ġ
Ġwan4 Ġli4Ġ
Ġ gen1Ġju4
ĠĠĠ mei3Ġguo2Ġ
se Ġ
ju4Ġ jue2Ġ
ling3Ġ xiu4Ġ
Ġ yin2Ġ
Ġ gong4Ġyou3Ġ
la1Ġ ding1
chuan2Ġ shuo1Ġ
hua4Ġhe2Ġ wu4Ġ
Ġ gong4
Ġ han4
Ġer2Ġ bu2Ġshi4Ġ
an1Ġ zhuang1
Ġ zhao4
Ġ rui4Ġ
ren4 Ġshi2Ġ
1987 Ġnian2Ġ
chuang4Ġ ban4
Ġ xuan1Ġ
Ġ kong3Ġ
bao4 Ġli4Ġ
an1Ġ na4Ġ
Ġyi1Ġ xue2Ġ
Ġ pa4
zhi4 Ġbu4Ġ
ĠA Ġ
jia1Ġli4Ġ fu2Ġ
qiong2 Ġ
Ġyou3Ġ yi2Ġge4Ġ
Ġxian4Ġ xiang4Ġ
shang4Ġ ying4Ġ
ĠĠĠ li3Ġ
fa3 Ġyu3Ġ
wen2 Ġyi4Ġ
shu2 Ġ
Ġzai4Ġ nei4ĠdeĠ
gao1Ġ su4Ġ
Ġzai4Ġ du4Ġ
Ġer2 Ġbu4Ġ
ji4 Ġshi4Ġ
yuan4 Ġshi4Ġ
Ġwei4Ġ xing1Ġ
Ġli3Ġ lun4
wo3Ġ menĠ
Ġ ka3
yan2Ġ shen1
hai3Ġ an4Ġ
Ġ rong2Ġ
chuang4 Ġjian4Ġ
bin1 Ġhai3Ġ
shun4 Ġli4Ġ
1980 Ġnian2Ġ
Ġdong1Ġ bei3Ġ
ĠĠĠci3Ġ wai4Ġ
Ġ 2013Ġnian2Ġ
mei3 Ġge4Ġ
lei2 Ġsi1Ġ
ruan3 Ġjian4Ġ
Ġsheng1Ġ zhang3
Ġyou2 Ġqi2Ġshi4Ġ
tui1 Ġjin4Ġ
Ġhe2Ġ bu4Ġ
shu1Ġ ru4Ġ
zi1Ġ chan3Ġ
nv3Ġ xing4
lun4Ġ wen2Ġ
Ġxing2Ġ zheng4
wang3 Ġqiu2Ġ
hai3Ġ wai4Ġ
tong2 Ġnian2Ġ
Ġ ta3Ġ
Ġ shu3
Ġ na4
Ġbu4Ġ luo4Ġ
Ġda4Ġ sha4
zhu3Ġ yi4ĠdeĠ
ping2Ġ lun4Ġ
Ġ 2010
zui4Ġ gao1
ying4Ġ yong4
cai3Ġ qu3Ġ
Ġ 2012
Ġ wa3Ġ
jiao4 Ġshi4Ġ
ban3Ġ ben3
pai2Ġming2 Ġdi4Ġ
Ġ sai1Ġ
bian4 Ġwei4Ġ
Ġ 2006Ġnian2Ġ
zu1 Ġ
bao4Ġ gao4
Ġbei3Ġ jing1Ġ
ĠĠĠ qi2Ġ
yu2 ĠdeĠ
ju4 Ġhe2Ġ
bo1Ġ fang4Ġ
san1 Ġshi4Ġ
Ġzai4Ġ xi1Ġ
ren2Ġ da4Ġ
Ġde2 Ġer3Ġ
Ġhou4Ġ xuan3Ġren2Ġ
tou2Ġ zi1
wang3Ġ luo4
1982 Ġnian2Ġ
ma3 Ġli3Ġ
ze2 Ġren4Ġ
fang1Ġ mian4ĠdeĠ
ĠĠĠ Re
ge4Ġ zhong3Ġ
Ġ sai4Ġ
Ġshi4Ġ min2Ġ
Ġhe2Ġ da4Ġ
dian4Ġ zi
ling3 Ġdi4Ġ
rao3 Ġ
Ġzai4Ġ ci4
fan4Ġwei2Ġ nei4Ġ
ĠĠĠju4Ġ qing2Ġ
ĠĠĠ qian2Ġ
xiang1 Ġshi4Ġdi4Ġ
zhe4 Ġli3Ġ
Ġyu2Ġ ren2Ġ
zheng4Ġ dang3Ġ
yin3Ġ qing2Ġ
Ġri4Ġ bao4Ġ
Ġling4 Ġyi1Ġ
xing2 Ġcheng2Ġ
fa1 Ġxing2ĠdeĠ
1983 Ġnian2Ġ
Ġji1Ġ hu1Ġ
Ġ 188
zhi2Ġ jie1
feng1 Ġwei4Ġ
pai4 ĠdeĠ
Ġshi4Ġ gu4Ġ
Ġmei3 Ġge4Ġ
Ġ h
Ġzhi4Ġ shao3Ġ
xi4Ġ bao1
biao3Ġ da2Ġ
yuan4 Ġyi4Ġ
17 Ġ
1945 Ġnian2Ġ
Ġta1 Ġhe2Ġ
ju4Ġ le4Ġbu4Ġ
du2Ġ li4ĠdeĠ
e2 Ġguo2Ġ
Ġzhi1Ġ fu4Ġ
dian4Ġ nao3
jiu3Ġ long2Ġ
dang1Ġ xuan3Ġ
yun3Ġ xu3
f Ġ
he4 Ġer3Ġ
mian2 Ġ
zi4Ġ ran2
ĠĠĠ xian4Ġ
Ġyou3Ġ xiao4Ġ
ĠĠĠ chu1Ġ
Ġ lai2
bu2 Ġ
wen1 Ġdu4Ġ
ji4Ġ cheng2Ġ
Ġ ying2Ġ
Ġ yong4Ġyu2Ġ
Ġyi1Ġ xiao3Ġshi2Ġ
huo3Ġ shan1Ġ
Ġda4Ġ xi1Ġyang2Ġ
guo4Ġ qu4
pai2Ġ hang2Ġ
an1 Ġde2Ġ
jiu4Ġ du2
Ġdong1Ġ lin2Ġ
zhi1Ġ chi2
fang3Ġ wen4
ming2Ġ zi4Ġ
Ġzuo4Ġ jia1Ġ
jing3Ġ cha2
dang3 Ġyuan2Ġ
xi3Ġ huan1
qu1 Ġyi4Ġhui4Ġ
Ġda4Ġ fu2Ġ
Ġde2Ġ hua2Ġ
Ġ 2012Ġnian2Ġ
huan4 Ġcheng2Ġ
biao3Ġ yan3
ĠĠĠand ĠĠĠ
xian4 Ġzhi4Ġ
dou1 Ġzai4Ġ
Ġdi4Ġ yi2Ġge4Ġ
Ġyu3Ġ mao2
Ġchu1Ġ zhan4Ġ
fang1Ġ yan2Ġ
bi3Ġ ya4
ĠĠĠdi4Ġ fang1Ġ
xiang1Ġ dang1
1 Ġli4Ġ
40 Ġ
Ġbing4 Ġbei4Ġ
tiao2Ġ zheng3
qu1 Ġhe2Ġ
Ġyi1Ġ tong2Ġ
Ġzhong1Ġhua2Ġren2Ġmin2Ġgong4Ġhe2Ġguo2Ġ zheng4Ġzhi4Ġren2Ġwu4Ġ
Ġshi4Ġ yu2Ġ
jing1Ġ yan4Ġ
xun2Ġ yang2
pu3Ġ bian4Ġ
Ġ dian4Ġying3Ġ
Ġzhong1Ġ bei4Ġ
guan1Ġ dian3Ġ
ke1ĠdeĠ qi2Ġzhong1Ġyi1Ġzhong3Ġ
Ġ sheng1Ġyu2Ġ
Ġgong1Ġ yi4Ġ
Ġ shuo1Ġ
han2 Ġyou3Ġ
Ġji4Ġ suan4Ġ
liang3 Ġming2Ġ
dian3 Ġli3Ġ
Ġshi4Ġ gong1Ġ
zhong4Ġ duo1Ġ
jiang4Ġ di1Ġ
da4 Ġzhi4Ġ
Ġ jiu4Ġshi4Ġ
Ġbing4Ġ du2
Ġqi2Ġzhong1Ġ yi1Ġ
ya4 Ġjun1Ġ
she4Ġ qu1Ġ
Ġ fan1Ġ
kou3 Ġwei4Ġ
cheng2Ġ yuan2Ġ
Ġxian4 Ġshi4Ġ
zhi1Ġ qian2Ġ
mi4Ġshu1Ġ zhang3Ġ
Ġ 7Ġ
Ġdi4Ġ si4
Ġ reng2
zuo4 Ġshi4Ġ
tiao2 Ġli4Ġ
nei4Ġ ge2Ġ
shu4 Ġyu3Ġ
wu2 Ġzheng4Ġzhuang4Ġ
she3 Ġ
Ġxian4Ġ ren4Ġ
tu1Ġ po4Ġ
xie3 Ġdao4Ġ
dang4 Ġtian1Ġ
yi2Ġ du4Ġ
Ġzu3 Ġfu4Ġ
Ġ neng2Ġ
Ġ ping2Ġjun1Ġ
ĠĠĠ 3
gua4 Ġ
Ġxing2 Ġwei4Ġ
Ġgong1Ġ min2Ġ
xing1Ġ deng3Ġwei4Ġ
Ġtong2 Ġyi4Ġ
Ġ liu4
ĠĠĠ ji2Ġ
hong2Ġ se4Ġ
shan1 Ġshi4Ġ
Ġbi3Ġ sai4Ġ
kai1Ġshi3 Ġzai4Ġ
Ġ0 Ġ
tuan2 ĠdeĠ
gei3 ĠleĠ
Ġji1Ġ jin1Ġ
si3Ġ wang2
zheng3Ġ ti3Ġ
Ġ 500
lu3 Ġsi1Ġ
is ĠĠĠ
wan2Ġ zheng3
jue2 Ġdui4Ġ
Ġquan2 Ġli4Ġ
dai4Ġbiao3 Ġda4Ġhui4Ġ
chi2 Ġyou3Ġ
ying1Ġ wen2Ġ
5 Ġren2Ġ
zheng4 Ġbu4Ġ
Ġshi4Ġ bing1Ġ
gai4Ġ nian4
ĠĠĠ 2011
ben3 Ġren2Ġ
Ġgong1Ġ ju4Ġ
she4Ġ shi1Ġ
Ġzui4 Ġchu1Ġ
Ġ sun1
er ĠĠĠ
Ġ 30Ġ
yang2 Ġshi4Ġ
Ġzhe4Ġ zhong3
xia4Ġxia2 ĠdeĠyi2Ġge4Ġ
z Ġ
huang2 Ġhou4Ġ
ĠĠĠ a1Ġ
zhong3Ġ zu2Ġ
Ġsui4 Ġshi2Ġ
Ġ xin4Ġ
ĠĠĠ 2010
ni2 Ġer3Ġ
zhi2Ġ dao3Ġ
ĠdeĠcheng2Ġ ji4Ġ
lai2 Ġyue4Ġ
Ġji2Ġ ren2Ġ
yi2Ġ ding4Ġ
Ġ da2
bao3Ġ shou3Ġ
jie4Ġ shao4Ġ
tou2Ġ xiang2Ġ
gui4Ġ zu2Ġ
ĠĠĠ 1Ġ
yi4 Ġnian2Ġ
yue4 Ġzhong1Ġ
zhen4Ġ qu1ĠdeĠ
zao3Ġ qi1
bo2Ġshi4Ġ xue2Ġwei4Ġ
ĠĠĠ qi2Ġta1Ġ
shan1 Ġji1Ġ
kui4 Ġ
qi3Ġ dong4Ġ
tang1 Ġ
Ġwei2Ġ er3
gu3 Ġdai4Ġ
zhen3 Ġ
Ġming2Ġ dan1Ġ
ming2 Ġren2Ġ
Ġde2 Ġyu3Ġ
shen2Ġ meĠ
Ġyi1Ġ zuo4Ġ
Ġyi3Ġ ji2
Ġer2Ġ gai1Ġ
hei1Ġ se4Ġ
yao1Ġ qing3
Ġren2Ġmin2Ġ zheng4Ġfu3Ġ
en1Ġ sheng3Ġ
tou4Ġ guo4
Ġxiang3 Ġnian2Ġ
wu2Ġzheng4Ġzhuang4Ġ gan3Ġran3Ġ
3 Ġge4Ġ
sui2 Ġzhu4Ġ
sa1 Ġ
mu4Ġ qian2
huo2 Ġyue4Ġ
chang2Ġ wu4Ġ
chang2Ġ wei3Ġ
que4Ġzhen3 Ġbing4Ġli4Ġ
ming2 Ġzhi4Ġ
te ĠĠĠ
Ġri4 Ġyu2Ġ
gai3Ġ ming2Ġwei4Ġ
chu1Ġ shen1Ġ
dian4Ġ hua4Ġ
Ġ 2022
tun2 Ġ
Ġbu4Ġ si1Ġ
Ġji1Ġ si1Ġ
tai4Ġ ziĠ
18 Ġ
Ġbi3Ġ ru2Ġ
gao1Ġsu4 Ġgong1Ġlu4Ġ
ĠĠĠ gai1
ke4 Ġcheng2Ġ
kun4 Ġnan2Ġ
Ġbu4Ġ li4Ġ
zui4Ġ duo1Ġ
que1Ġ fa2
Ġ er4Ġshi2Ġ
dan1 ĠdeĠ
long2 ĠdeĠ
geng4 Ġwei2Ġ
yi3Ġ jing1Ġ
ti2 Ġji2Ġ
ru4Ġ xuan3Ġ
Ġwei4Ġyu2Ġ zhong1Ġguo2Ġ
sai1Ġer3Ġ wei2Ġ
7 Ġren2Ġ
hui4 Ġzhong1Ġ
shou1 Ġji2Ġ
Ġli4Ġ fa3
xue2Ġ hui4Ġ
Ġbing4Ġ fei1Ġ
hai3Ġ xia2Ġ
gou4 ĠdeĠ
gong1Ġ cheng2Ġ
Ġxi1Ġ jie1Ġ
ge1Ġ lun2Ġ
Ġji1Ġ chang3
Ġ yong4
ju4 Ġda4Ġ
duo1 Ġren2Ġ
Ġcheng2Ġ ren2Ġ
fu4Ġ ze2
an1Ġ na4
zu2Ġqiu2Ġ yun4Ġdong4Ġyuan2Ġ
xie3 ĠdeĠ
zhui1Ġ su4
Ġ 2014Ġnian2Ġ
Ġtong2Ġshi2Ġ gai1Ġdi4Ġ
zuo4Ġ chu1Ġ
bei1 Ġsi1Ġ
Ġye3 Ġzai4Ġ
sheng3 ĠdeĠ
ling4 Ġren2Ġ
fan4Ġ zui4Ġ
Ġ yao1Ġqiu2Ġ
hui4 Ġzhi4Ġ
Ġde2Ġ zhu3Ġ
tao3Ġ lun4
Ġji2Ġ di4Ġ
nei4Ġlu4Ġ sheng3Ġfen4Ġ
Ġ yue1
tiao4 Ġ
an1Ġ hui1Ġ
ke1Ġxue2Ġ jia1Ġ
Ġ Z
tu2 Ġxing2Ġ
pi1Ġ zhun3
jiang1 Ġzai4Ġ
Ġbing4Ġ du2Ġ
ci4 ĠdeĠ
zhu2 Ġbu4Ġ
ĠdeĠdi4Ġ er4Ġ
shi4 ĠĠĠ
shou4 ĠdeĠ
shan1 ĠdeĠ
Ġshi4Ġ yin1Ġwei4Ġ
Ġke4 Ġxi1Ġ
qiang2Ġ lie4Ġ
lian2Ġhe2Ġ hui4Ġ
Ġ po4Ġ
chao1 Ġyue4Ġ
1972 Ġnian2Ġ
jie2Ġ guo3
tai2Ġ nan2
jian3Ġ shao3
H Ġ
di1 Ġyu2Ġ
o ĠĠĠ
xia4Ġling4 Ġshi2Ġjian1Ġ
hai3 Ġping2Ġmian4Ġ
bu2 Ġdao4Ġ
Ġshi2Ġ qi1ĠdeĠ
Ġyuan2Ġ xing2Ġ
Ġ wan2Ġjia1Ġ
ye3 Ġzai4Ġ
Ġji1Ġ hui4Ġ
Ġxue2Ġ yuan4
yi2Ġ ding4
hui1Ġ fu4
guo4 ĠdeĠ
ya4Ġ mei3Ġ
pai4Ġ qian3
tou1 Ġ
Ġguo2Ġ nei4Ġ
bian1Ġ jie4Ġ
ti2Ġgong1Ġ leĠ
dong3Ġshi4Ġ zhang3Ġ
Ġ cha2
1978 Ġnian2Ġ
jia4Ġ ge2Ġ
ti2 Ġyi4Ġ
shu1 Ġzhong1Ġ
xun1 Ġzhang1Ġ
fang1Ġ fa3
shi1Ġ bai4Ġ
Ġjiao4Ġ yu4Ġ
zhu3Ġyao4 ĠdeĠ
N Ġ
zhu3Ġ jiao4
Ġhao4 ĠdeĠ
ni2Ġya4 Ġzhou1Ġ
1979 Ġnian2Ġ
Ġhou4Ġ bei4Ġ
guan1Ġ cha2Ġ
Ġxue2Ġ jia1Ġ
liu2Ġ xia4Ġ
shuang1Ġ fang1Ġ
ĠĠĠbei4Ġ jing3Ġ
er2 Ġtong2Ġ
Ġyi1Ġ li4Ġ
jia1 Ġyi4Ġ
Ġbu4Ġ dui4
Ġyi3Ġ wei2Ġ
Ġzai4Ġ shi2Ġ
lian2Ġ xu4
xian4 ĠdeĠ
qin1 Ġzi4Ġ
Ġer2Ġ ziĠ
bei3Ġjing1 Ġshi4Ġ
Ġ 1950
ĠĠĠ 2Ġ
Ġyou3Ġ suo3Ġ
zui4Ġ gao1ĠdeĠ
hui4Ġyi4Ġ yuan2Ġ
san1Ġ jiao3
zhuang1Ġ jia3Ġ
ĠĠĠdi4Ġfang1Ġ zi1Ġliao4Ġ
6 Ġren2Ġ
le Ġzai4Ġ
ren4 Ġwei4Ġ
ma3 Ġer3Ġ
lan2 ĠdeĠ
na2 Ġxia4Ġ
ping2Ġ tai2Ġ
fei1Ġ chang2
ĠĠĠ jian3Ġjie4Ġ
duo1 Ġwei4Ġ
zu3 Ġfu4Ġ
ar Ġ
Ġhe2Ġ yue1Ġ
bei4 ĠdeĠ
1976 Ġnian2Ġ
Ġli4Ġ liang4Ġ
Ġchu1Ġ kou3Ġ
Ġta1Ġceng2 Ġdai4Ġbiao3Ġ
bian3 Ġ
Ġdi4Ġ li3Ġ
nan2Ġ bei3Ġ
gai3Ġ bian4
Ġ Ma
ĠĠĠ Ch
neng2 Ġyuan2Ġ
la Ġ
pi3 Ġ
Ġdi4Ġ qi1Ġ
Ġxian4Ġ fa3Ġ
Ġhou4Ġ zhe3Ġ
zi4 ĠdeĠ
tai2 Ġzhong1Ġ
di2 Ġshi4Ġ
Ġzheng4Ġ ming2Ġ
Ġshi2Ġji4Ġ shang4Ġ
Ġcheng2Ġ zhen4Ġ
que1Ġ fa2Ġ
Ġ mei2
Ġ 2015Ġnian2Ġ
xuan3 Ġzhong1Ġ
di2 Ġren2Ġ
Ġli4Ġ yi4Ġ
Ġ 28
li3 Ġhe2Ġ
liao3 Ġ
pai4 Ġchu1Ġ
Ġzhong1Ġguo2Ġren2Ġmin2Ġ jie3Ġfang4Ġjun1Ġ
duo1Ġ zhong3Ġ
tan2Ġ pan4Ġ
liao2Ġ ning2Ġ
ping2 Ġwei4Ġ
Ġbu4Ġ shao3Ġ
Ġsi1Ġ ta3Ġ
ti2 Ġchu1ĠdeĠ
sui2 Ġji2Ġ
Ġ lu3Ġ
mian3Ġ dian1
tui4Ġ xiu1Ġ
Ġda4Ġxue2 ĠdeĠ
hai3Ġba2 Ġwei4Ġ
Ġ su4Ġ
gan4 Ġbu4Ġ
lei3 Ġji4Ġ
Ġshi2Ġ xing2Ġ
ying1Ġ ge2Ġlan2
dang1 Ġzhong1Ġ
jue2 Ġyi4Ġ
xu4 Ġli4Ġya4Ġ
shang1 Ġren2Ġ
biao1 Ġben3Ġ
fa1Ġ sheng1Ġzai4Ġ
suo3Ġ cai3Ġyong4
zhi3Ġ dao3Ġ
Ġju4Ġ jue2Ġ
Ġ p
hua4 Ġzhong1Ġ
zan4 Ġshi2Ġ
1958 Ġnian2Ġ
Ġfu4Ġ jin4
Ġzhong1Ġgong4 Ġzhong1Ġyang1Ġ
Ġyi4Ġ qing2Ġ
nong2Ġ min2Ġ
ci4 Ġyu2Ġ
ceng2 Ġwei4Ġ
ĠĠĠ 1
yi2 Ġdai4Ġ
chan2 Ġ
Ġde2 Ġming2Ġ
xiu1Ġ gai3Ġ
ĠĠĠ yin1Ġ
shui3 Ġli4Ġ
rong2 Ġhe2Ġ
st Ġ
Ġzhong1Ġ guo2ĠdeĠ
fa1 Ġming2Ġ
mei3 Ġzhou1
zhuan3 Ġxiang4Ġ
Ġqi2 Ġwei4Ġ
zhi3Ġ neng2Ġ
zi1Ġ liao4
Ġming2 Ġzhi4Ġ
Ġgong1Ġ zhong4Ġ
zhong3Ġ ziĠ
zhu3Ġ yan3Ġ
zi1Ġ ben3Ġ
a1Ġla1Ġ bo2
tion Ġ
xiang1Ġ si4Ġ
jie1Ġ chu4Ġ
Ġbei3Ġ jing1
kai1 Ġshe4Ġ
xiu1 Ġjian4Ġ
guan1Ġ cha2
jing4 Ġji4Ġ
ĠdeĠshi4Ġ jie4Ġ
Ġ ba3
Ġ dian4Ġshi4Ġ
Ġ 2016Ġnian2Ġ
wu3Ġ zhuang1
bao4Ġ zha4Ġ
jie3Ġ san4Ġ
x ĠĠĠ
Ġ cn
dian4 Ġji1Ġ
chai1 Ġchu2Ġ
kai1Ġ tong1Ġ
fa1Ġ qi3Ġ
fa1Ġ shou4Ġ
ju3Ġban4 ĠdeĠ
shen1Ġ du4Ġ
an1Ġ pai2
qu1 Ġshi4Ġ
nu3 Ġ
2025 Ġnian2Ġ
wei2Ġ si1Ġ
tuan2Ġ ti3
ji1Ġ gou4Ġ
fu4Ġ zhu3Ġren4Ġ
zu3Ġzhi1 ĠdeĠ
Ġ tang2
feng1Ġ xian3Ġ
diao4Ġ kuai4
ĠĠĠ qi2
cheng2 Ġhe2Ġ
bian1 Ġju4Ġ
Ġyu3Ġ qi2Ġta1Ġ
ĠĠĠ dui4Ġ
zhang1Ġ zhuan1Ġji2Ġ
jie2 ĠdeĠ
zao4 ĠleĠ
Ġwei4Ġ UTCĠ
Ġbu4Ġ ji2Ġ
Ġzhong1Ġ shan1Ġ
neng2Ġ liang4Ġ
shuai4Ġ ling3
Ġcn Ġ
shou3 Ġzhong1Ġ
ban4Ġshi4Ġ chu4Ġ
Ġ ge1
qiu2 Ġji4Ġ
ying1Ġ gai1Ġ
Ġxi1Ġban1Ġ ya2Ġ
you2 Ġji1Ġ
luo2 Ġli3Ġ
ge2Ġ la1Ġ
jiu4Ġ du2Ġ
shang1Ġ ye4
qiang2Ġ diao4Ġ
diao4Ġkuai4 Ġyi1Ġxiao3Ġshi2Ġ
ze2 Ġzai4Ġ
ĠdeĠ ying3Ġxiang3Ġ
Ġnian2Ġ lai2Ġ
Ġ 19
kun4 Ġ
Ġwei4Ġ da4Ġ
Ġji2Ġ UTCĠ
ying1Ġ xiong2Ġ
Ġtong2Ġ yang4
ke1Ġxue2Ġ yuan4Ġ
she4Ġyou3Ġ xia4Ġling4Ġshi2Ġjian1Ġ
ĠdeĠshi2Ġqu1Ġwei4Ġ UTCĠ
Ġer2Ġgai1Ġdi4Ġ suo3Ġcai3Ġyong4
Ġtong2Ġshi2Ġgai1Ġdi4Ġ she4Ġyou3Ġxia4Ġling4Ġshi2Ġjian1Ġ
Ġer2Ġgai1Ġdi4Ġsuo3Ġcai3Ġyong4 ĠdeĠshi2Ġqu1Ġwei4ĠUTCĠ
bao3Ġ liu2
xiao1Ġ fei4Ġ
xin4Ġ yang3Ġ
ta1Ġmen ĠdeĠ
shuai1 Ġ
Ġda4Ġ jiang3Ġ
jiao4Ġ tang2
Ġling4 Ġyou3Ġ
Ġyi1Ġsi1Ġ lan2Ġ
yuan2Ġ zhu4Ġ
tai4Ġ du4Ġ
chuan2Ġ bo1Ġ
Ġgai1Ġ cun1Ġ
Ġ jia3
suo3 Ġzai4Ġdi4Ġ
que4 ĠdeĠ
pei4 Ġzhi4Ġ
zhi1Ġ jian1ĠdeĠ
ĠĠĠ jiao1Ġtong1Ġ
fa1 Ġshe4
Ġshi2Ġ wu4Ġ
ding4Ġ ju1Ġ
Ġli4Ġshi3Ġ shang4Ġ
gao1Ġyu2Ġ hai3Ġping2Ġmian4Ġ
ou3 Ġ
Ġwei4Ġfu2Ġqi2Ġyu2Ġ gang1Ġ
xing4 Ġwei4Ġ
zhu2 Ġjian4
Ġbu4Ġ neng2
Ġgong1Ġ jue2Ġ
Ġer3Ġ duo1Ġ
Ġma3Ġ lai2
wu4 Ġhe2Ġ
hu4 Ġxiang1Ġ
Ġqi2Ġ xia4Ġ
Ġ zheng1Ġ
ĠĠĠ qing1Ġ
chu4ĠdeĠ hai3Ġba2Ġwei4Ġ
chu4ĠdeĠhai3Ġba2Ġwei4Ġ gao1Ġyu2Ġhai3Ġping2Ġmian4Ġ
hou4 Ġwei4Ġ
Ġyu2Ġ le4
Ġyin1Ġ su4Ġ
Ġ 23
Ġ kuan1
ti3 Ġzhi4Ġ
qia4 Ġ
jing4Ġ xuan3Ġ
wu4 Ġshi4Ġ
chang3Ġ suo3Ġ
ĠĠĠ 17
Ġzhi1 Ġyi4Ġ
Ġ dan1
Ġhe2Ġ pan4Ġ
Ġbu4Ġ jin3Ġ
Ġyi3Ġ xi1Ġ
Ġ chu2
fa1 Ġxian4ĠdeĠ
zhong4 Ġshi4Ġ
kuang2 Ġ
Ġqi2 Ġshi2Ġ
Ġsui2 Ġzhu4Ġ
Ġ xie4Ġ
nan2Ġ jing1
zhang3Ġ da2Ġ
yun4Ġ shu1
Ġ 2008
Ġ 2017Ġnian2Ġ
shu4 Ġshi2Ġ
nei4 Ġdi4Ġ
8 Ġren2Ġ
Ġ 8Ġ
ĠĠĠ ma3Ġ
lu4 Ġzhi4Ġ
shi2Ġ qu1Ġ
gao1Ġ xiong2
chong2Ġ qing4
Ġ ni3Ġ
jian4 Ġcheng2Ġ
geng1 Ġxin1Ġ
Ġyi1Ġ jia1Ġ
Ġxi1Ġ lan2Ġ
yun4Ġ yong4Ġ
Ġzi4Ġ ran2Ġ
bian1 Ġhao4Ġ
bi4Ġ ye4Ġhou4Ġ
ĠĠĠ ran2
er4 Ġji2Ġ
Ġli4Ġ ren4Ġ
dian4Ġ qi4Ġ
shan1Ġ feng1Ġ
Ġwei4Ġyu2Ġ gai1Ġ
Ġ xu1Ġ
Ġ zheng4Ġzhi4Ġ
wei2Ġ er3Ġ
zhi2Ġ zheng4Ġ
xiao4Ġ qu1Ġ
Ġ hu2
Ġ huan4Ġ
zhe3 Ġshi4Ġ
wang2 Ġshi4Ġ
Ġzuo4Ġ chu1Ġ
xia2Ġ qu1Ġ
ĠĠĠ ben3
bao1 Ġwei2Ġ
bang4 Ġqiu2Ġ
Ġdi4Ġ qiu2
xuan1Ġ chuan2
xue2 Ġyuan2Ġ
jiu4 Ġhui4Ġ
cuo4 Ġwu4Ġ
jin1Ġ rong2Ġ
Ġyu4Ġ shi3Ġ
Ġ lian2Ġhe2Ġ
dong1Ġ fang1Ġ
Ġ yi2
hou4 Ġyi4Ġ
bei3 Ġshi4Ġ
jing1Ġ chang2
Ġran2 Ġer2
Ġ dai4
Ġjie2 Ġke4Ġ
hui4 Ġyu2Ġ
Ġsi1Ġ ke1Ġ
Ġdui4Ġ shou3Ġ
Ġxing2Ġzheng4Ġ qu1Ġ
zhen4Ġqu1ĠdeĠ mian4Ġji1Ġwei4Ġ
ming2 Ġshi4Ġ
Ġzhou1Ġ ci4Ġshi3Ġ
Ġsheng1Ġ ya2Ġ
jia1 Ġyi3Ġ
ju2 ĠdeĠ
pao3 Ġ
fu2 ĠdeĠ
ma3 Ġke4Ġ
Ġta1 Ġyi3Ġ
Ġyuan2Ġ zi4Ġ
zao4Ġ cheng2ĠdeĠ
Ġ Y
ke3 Ġzai4Ġ
Ġli3Ġ xi1Ġ
zhi2Ġ min2Ġ
Ġ 2023
ping2Ġ lun4
fu1Ġ ka3Ġ
Ġfu2Ġ wu4Ġ
Ġdang1Ġ shi2ĠdeĠ
Ġ qin1Ġ
ao4 Ġzhou1Ġ
Ġyi1Ġ ju4Ġ
ji4 Ġyou3Ġ
shi3 Ġjian4Ġyu2Ġ
ren4 ĠdeĠ
ye3 Ġbei4Ġ
mian4 Ġshang4Ġ
gong1Ġ gong4Ġ
Ġsi1Ġ ke4
Ġer2Ġ tong2Ġ
Ġci4 Ġnian2Ġ
Ġ 2018Ġnian2Ġ
Ġxue2Ġ zhe3Ġ
Ġjian4 Ġshe4
Ġwei2Ġ rao4
Ġye3 Ġbei4Ġ
qian1Ġ shu3Ġ
Ġqi2Ġzhong1Ġ bao1Ġkuo4Ġ
Ġ ting2Ġ
jia1 Ġzai4Ġ
ban4 ĠdeĠ
Ġ 2009
ĠĠĠ In
hai3Ġ yang2Ġ
ji1 Ġzai4Ġ
lai2 Ġyin1Ġ
jun4 Ġgong1Ġ
tu1 Ġran2Ġ
Ġji2Ġ da4Ġ
ji4Ġ nian4
Ġde2 Ġzhi1Ġ
Ġji1Ġ jin1Ġhui4Ġ
qi4Ġ che1
xiao4Ġli4Ġ yu2Ġ
Ġ ban3Ġ
Ġ 2019Ġnian2Ġ
ru2Ġ guo3Ġ
ling4Ġ yi2Ġge4Ġ
xiao1Ġ shi1Ġ
tian2Ġ jing4Ġ
tao2Ġ tai4Ġ
Ġ gan3Ġ
Ġwei4Ġ dui4Ġ
dang1Ġ di4ĠdeĠ
jiang4Ġ ling3Ġ
Ġ bai3
yan2Ġ hai3Ġ
wei3Ġyuan2Ġhui4Ġ wei3Ġyuan2Ġ
1968 Ġnian2Ġ
Ġli3Ġ ya4Ġ
Ġ 2Ġyue4Ġ
ĠĠĠ jin3Ġ
ping2 Ġyuan2Ġ
deng3 Ġji2Ġ
er4 Ġren2Ġ
bei4Ġ jing3Ġ
ka3Ġ luo2Ġ
Ġ bai4Ġ
ĠĠĠ sheng4Ġ
dui4 Ġqi2Ġ
jin4 Ġbu4Ġ
liang3 Ġguo2Ġ
te4Ġ ding4Ġ
fen4Ġ zi3
Ġ yun2Ġ
da4 Ġbu4Ġ
ding4 Ġyu2Ġ
Ġqi2 ĠdeĠ
ĠdeĠbu4Ġ fen4Ġ
zhi2Ġmin2 Ġdi4Ġ
Ġ 26
Ġ xian1
Ġ fa1Ġxian4Ġ
Ġ e4Ġ
jiao4 Ġda4Ġ
Ġzhi4Ġ zuo4ĠdeĠ
Ġji1Ġ du1Ġ
gai3Ġ zao4Ġ
chuan2Ġtong3 ĠdeĠ
sheng1Ġ ya2
dian4Ġ nao3Ġ
Ġbu4Ġbu4Ġ zhang3Ġ
guan1 Ġjian4Ġ
jing1Ġ shen2
Ġqian2Ġ wang3Ġ
dian3 Ġshi4Ġ
yi4Ġ shu4Ġ
li2Ġ kai1
quan2Ġ mian4Ġ
mo4Ġxi1Ġ ge1Ġ
Ġ shou3
ch Ġ
zhen4 ĠdeĠ
tui1 Ġchu1
gou3 Ġ
guo2Ġ jia1
Ġdi4Ġ tie3
Ġxian4 Ġyi3Ġ
Ġji1Ġ chu3
Ġju4Ġ li2
Ġ xian2Ġ
Ġluo2Ġ ma3Ġ
Ġ sha1
ĠĠĠ 4
tou Ġ
Ġshi2Ġ duan4Ġ
jie1Ġ duan4
liang3Ġ ci4Ġ
ai4Ġer3Ġ lan2Ġ
wen2 ĠdeĠ
san1 Ġming2Ġ
hun1 Ġyin1Ġ
da4Ġ lu4
Ġyi4Ġ yu2Ġ
shu1Ġ yuan4Ġ
Ġshan1Ġ dong1Ġ
a1Ġla1Ġ bo2Ġ
Ġ xing1
mu4 ĠdeĠ
ge2 Ġshi4Ġ
ĠĠĠ nan2Ġ
bo1 Ġsi1Ġ
hui4Ġ zhang3Ġ
man3Ġ zu2Ġ
Ġdian4Ġ ying3
qi1 Ġwei4Ġ
liang3 Ġwei4Ġ
pei4 Ġyin1Ġ
Ġdi4Ġ dian3Ġ
jing4Ġ zheng1Ġ
cai2Ġ neng2Ġ
xin1 Ġcheng2Ġ
1970 Ġnian2Ġ
zheng4Ġ ju4Ġ
lian2 ĠdeĠ
xiu1 Ġfu4Ġ
ne Ġ
Ġbing4Ġ you2Ġ
hu4Ġ lian2Ġ
chu1Ġ ban3
Ġyou2 Ġji1Ġ
Ġwu2Ġ fa3Ġ
la1 Ġji1Ġ
kao4 Ġjin4Ġ
Ġdi4Ġ dai4Ġ
Ġli4Ġ shi2Ġ
jie3Ġ fang4Ġ
nei4 Ġzhan4Ġ
bo1 Ġshi4Ġ
Ġwei2Ġ chi2
zai1Ġ pei2Ġ
V Ġ
Ġ chong1Ġ
dui4Ġ zhang3Ġ
fa1Ġ qi3
ju1Ġ zhu4Ġzai4Ġ
shou1Ġ gou4Ġ
Ġ liu4Ġ
zhe4 Ġshi4Ġ
zao3 Ġzai4Ġ
Ġ wan2Ġ
bing4 Ġbu4Ġ
shou3Ġ xiang4Ġ
shan1Ġ qu1Ġ
jiao1Ġ liu2
zu2Ġqiu2 Ġju4Ġle4Ġbu4Ġ
Ġ gen1Ġ
li3 Ġcheng2Ġ
Ġguo2Ġwu4Ġ yuan4Ġ
wei3 Ġfu4Ġ
qi3 Ġyuan2Ġ
Ġshi4Ġ de2Ġguo2Ġ
cun1Ġ luo4Ġ
fu1 ĠdeĠ
ji1Ġ chu3
Ġda4Ġ lou2
yan2Ġ se4Ġ
xiang4Ġ zheng1Ġ
Ġwei2Ġ si1Ġ
tian1Ġ ti3Ġ
dou1 Ġbei4Ġ
Ġbu4Ġ bing1Ġ
Ġyu3Ġ yan2
ĠĠĠdi4Ġ er4Ġ
Ġ 2004Ġnian2Ġ
liu4 Ġshi2Ġ
Ġzhi4Ġ liang4Ġ
Ġzhou1Ġ fu3Ġ
lang2 Ġzhong1Ġ
Ġyi1Ġ yuan4
Ġxing2Ġ mu4Ġ
chang2Ġ du4Ġ
xing4 Ġhe2Ġ
Ġyi3Ġ wai4Ġ
luo4Ġ fa2
Ġ ding1Ġ
1956 Ġnian2Ġ
Ġzhi4Ġ di4Ġ
Ġyu3Ġ yi1Ġ
tai4Ġ yang2
wu2Ġzheng4Ġzhuang4Ġgan3Ġran3Ġ zhe3Ġ
ĠĠĠ 2008
liang4 Ġwei4Ġ
mu3 ĠdeĠ
juan4 Ġ
Ġde2 Ġsi1Ġ
shi1Ġ qu4
Ġ 2020Ġnian2Ġ
ĠĠĠ Ma
zui4 Ġchu1
Ġ yi4Ġshi4Ġ
xie3 Ġzuo4Ġ
meng4 Ġjia1Ġ
te4Ġ xing4Ġ
Ġwei4Ġyu2Ġ mei3Ġguo2Ġ
Ġ bao3
Ġ za2Ġzhi4Ġ
jia3 Ġdi4Ġ
ao4Ġ men2
Ġzui4 Ġjia1Ġ
2 Ġge4Ġ
1981 Ġnian2Ġ
zhi2Ġye4Ġ sheng1Ġya2Ġ
suo3 ĠdeĠ
fu2 Ġli4Ġ
1920 Ġnian2Ġ
Ġxian4 Ġji2Ġ
fu4 Ġhe2Ġ
zhuan4 ĠdeĠ
1960 Ġnian2Ġ
zong1 Ġyi4Ġ
chuang2 Ġ
zi4Ġ mu3Ġ
ling2Ġ chen2Ġ
Ġ can1Ġyu4Ġ
suo3 Ġwei4Ġ
tou4 Ġlu4Ġ
dong1Ġ bei3
Ġ fa1Ġxing2Ġ
jue2 Ġshi4Ġ
ou3 Ġxiang4Ġ
ping2 ĠdeĠ
kao3 Ġshi4Ġ
Ġfu2 Ġjian4Ġ
9 Ġren2Ġ
Ġ yi2Ġge4
ĠĠĠ ge4Ġren2Ġ
zong3 Ġren2Ġkou3Ġ
1964 Ġnian2Ġ
Ġdi4Ġ fang1
Ġxian4 Ġcheng2Ġ
Ġli3Ġ ke4Ġ
Ġde2Ġ la1Ġ
kong1Ġ qi4Ġ
Ġ 50
Ġ nuo4Ġ
na4 ĠdeĠ
zuo4Ġ wei2
zhu3Ġ zhang1Ġ
xi1 Ġhe2Ġ
xi1Ġ nan2Ġ
hui2 Ġyi4Ġ
fen2 Ġ
Ġyi3 Ġzai4Ġ
Ġye3Ġ ke3Ġyi3Ġ
pu2Ġtao2Ġ ya2Ġ
ĠĠĠ ren2Ġ
Ġzuo4Ġ zhan4Ġ
Ġ tai4
qi1 Ġshi2Ġ
zou3 Ġxiang4Ġ
Ġcheng2Ġ ke4Ġ
su1Ġ ge2Ġlan2Ġ
Ġ ku4Ġ
che1 Ġdui4Ġ
Ġer3 Ġshi4Ġ
nan2 ĠdeĠ
guo4 ĠleĠ
hu4 Ġbu4Ġ
Ġdi4Ġ tu2Ġ
Ġyuan2Ġ ben3
Ġchu1 Ġdao4Ġ
xun2Ġ zhao3
yin4Ġ ni2Ġ
Ġ 2007
Ġ 35
Ġ sun1Ġ
Ġ 2021Ġnian2Ġ
wu3 Ġshi4Ġ
shou1 Ġdao4Ġ
wa3 Ġer3Ġsheng3Ġ
xin4Ġ yang3
Ġ zhen1
guan3 Ġzhi4Ġ
gu3 Ġli4Ġ
Ġgong1Ġ li3ĠdeĠ
shi3Ġ shang4Ġ
zhu3Ġyi4Ġ zhe3Ġ
Ġ kai3
1948 Ġnian2Ġ
Ġwei4Ġ yuan2Ġ
Ġyi3 Ġyu2Ġ
guo4Ġ du4Ġ
yan2 Ġren2Ġ
luo4 Ġcheng2Ġ
xian3 Ġzhu4Ġ
si Ġ
1975 Ġnian2Ġ
guo2Ġ wu4Ġ
guang3Ġ chang3
Ġshi2Ġyan4 Ġshi4Ġ
Ġsi1Ġling4 Ġbu4Ġ
5 Ġmi3Ġ
shi3 Ġren2Ġ
jiang1 Ġyu2Ġ
du4 Ġhe2Ġ
bi4 ĠdeĠ
mai4 Ġke4Ġ
Ġdi4Ġ liu4Ġ
wang4Ġ yuan3Ġ
xi1 Ġdi4Ġ
si4 ĠdeĠ
xiu1 Ġdao4Ġ
ba Ġ
Ġda4Ġ gong1Ġ
Ġfu4Ġ jin4ĠdeĠ
zhuan1Ġ ye4
Ġ kou3Ġ
shou3Ġ du1
ge2Ġ li2Ġ
shao4Ġ nv3Ġ
ĠĠĠ yue4Ġ
shang4 Ġxian4Ġ
yan2 Ġzhi4Ġ
Ġ 24
Ġ tiao2Ġ
yu2 Ġhe2Ġ
xiang1Ġ guan1ĠdeĠ
dong1Ġ jing1
deng3Ġ deng3Ġ
Ġ xiao3Ġshi2Ġ
di4 Ġhe2Ġ
fang4 Ġzai4Ġ
Ġji2Ġ shi3Ġ
jian1Ġ yu4Ġ
mian3Ġ fei4Ġ
Ġ dang3Ġ
jiao3 Ġdu4Ġ
zuo3 Ġyi4Ġ
Ġcheng2Ġ ben3Ġ
wei2Ġ zhu3Ġ
fan3Ġ hui2
bei4Ġ cheng1Ġwei2Ġ
Ġxing2Ġ dong4
cai3Ġ qu3
guan3Ġli3Ġ ju2Ġ
Ġ diao4Ġ
hun2 Ġ
1952 Ġnian2Ġ
tai2Ġbei3 Ġshi4Ġ
Ġ 29
Ġyue4Ġ dui4Ġ
Ġjun1Ġ qu1Ġ
bi4Ġ mian3
kong1Ġ jian1
xing2Ġ tai4Ġ
ĠĠĠ dang1Ġ
she4 Ġbei4Ġ
xiang1 Ġshi4Ġ
ka3 Ġsi1Ġ
cai3Ġ fang3
Ġ 25
Ġ se4Ġ
ĠĠĠ 2009
shan1 Ġxian4Ġ
li3Ġ lun4
Ġer2Ġ fei1Ġ
gai3Ġ shan4Ġ
fei4Ġ chu2Ġ
xi1Ġ bei3Ġ
jia4Ġ shi3Ġ
zheng4Ġfu3 ĠdeĠ
k ĠĠĠ
shang4 Ġdi4Ġ
dao3 Ġshang4Ġ
th Ġ
Ġzai4Ġ he2Ġ
Ġke4 Ġer3Ġ
Ġshe4 Ġyu2Ġ
luo4Ġ shan1Ġji1Ġ
Ġ 27
Ġ zu2Ġ
ci3 Ġtong2Ġshi2Ġ
Ġ shen2
Ġ xie4
Ġ feng4Ġ
Ġ 2002Ġnian2Ġ
kai1 Ġgong1Ġ
tong1 Ġzhi1Ġ
bo1Ġ li2Ġ
Ġ jue2Ġding4Ġ
ĠĠĠ si1Ġ
hen3Ġ kuai4Ġ
Ġ cai4
jiu4 Ġyuan2Ġ
ci2 ĠdeĠ
Ġdi4Ġyi1Ġ ci4
Ġ yong3
he2 Ġzai4Ġ
ye3 Ġhui4Ġ
huai4 Ġ
wa2 Ġ
Ġzhi1 Ġshi4Ġ
hai3Ġ an4
ci2Ġ zhi2Ġ
e2Ġluo2Ġ si1ĠdeĠ
Ġ pu3
kou3 ĠdeĠ
Ġyi4Ġ jian4Ġ
Ġ suo1Ġ
ĠĠĠ zheng4Ġ
Ġwei4Ġ zai4Ġ
shen2Ġ me
ĠĠĠ w
Ġ 60
zheng1 Ġyue4Ġ
ti4 Ġdai4Ġ
Ġren2Ġ da4Ġ
Ġfen1Ġ bie2Ġ
chu4Ġ zhang3Ġ
chong1Ġ tu1
jiu3 ĠdeĠ
qiang2 Ġzhi4Ġ
Ġshi2Ġ xian4
jian1Ġ du1Ġ
ying3 Ġshi4Ġ
yin3Ġ yong4Ġ
ti2Ġchu1Ġ leĠ
wai4Ġjiao1 Ġbu4Ġ
4 Ġge4Ġ
Ġ mi4Ġ
Ġ kai3Ġ
xue2 Ġzhong1Ġ
qiang2 ĠdeĠ
Ġge4 Ġguo2Ġ
min2Ġzhu3Ġ dang3
shan1 Ġdi4Ġ
jin3 Ġyou3Ġ
ji4Ġ suan4
ĠĠĠ ba1Ġ
feng1 Ġfu4Ġ
Ġzhu3Ġ yan3Ġ
xi3Ġ huan1Ġ
si1 Ġshi4Ġ
nuo2 Ġwei1
Ġ xi2Ġ
Ġ e2Ġ
ĠĠĠ gu4Ġshi4Ġ
Ġsi1Ġ ma3Ġ
Ġhao4 Ġxian4
tian1 Ġhou4Ġ
ceng2 Ġyu2Ġ
Ġge4Ġ zhong3
zhang3Ġ guan1Ġ
zong1Ġ jiao4
xiao3Ġxing2Ġ xing1
Ġshi2Ġ hou4Ġ
mo4Ġxi1Ġ ge1
Ġyou3Ġ xie1
pu3Ġ bian4
bu4ĠdeĠ cun1Ġzhuang1Ġ
ĠĠĠyi3Ġ xia4
Ġ lei2
ĠĠĠ fu4Ġ
guan3 ĠdeĠ
zan4 Ġzhu4Ġ
yin4Ġ shua1
Ġ chuan1Ġ
cu4 Ġjin4Ġ
Ġyue4Ġ lai2Ġyue4Ġ
liu2Ġ yu4Ġ
Ġ fa3
1966 Ġnian2Ġ
gu3Ġ lao3
a1Ġ gen1Ġ
ma3Ġlai2 Ġxi1Ġya4
Ġ pa4Ġ
ĠĠĠ wei2Ġ
ta1 Ġzai4Ġ
jiang4 Ġyu3Ġ
liao3 Ġjie3Ġ
kou4 Ġ
jia1Ġ ting2Ġ
ce4Ġ liang2Ġ
Ġ xu4Ġ
fu4 Ġshi4Ġ
lie4 Ġchu1Ġ
ĠdeĠ ju4Ġ
Ġcheng2Ġ xian4
Ġzhi1 Ġdi4Ġ
jing1Ġ dian3Ġ
che1Ġ xiang1Ġ
Ġdan4Ġ bai2Ġ
yun3 Ġshi2Ġ
Ġxian4Ġ shang4Ġ
lie4Ġ ru4Ġ
qiang2Ġ du4Ġ
su1 Ġwei2Ġ
guan4 Ġjun1
Ġbu4Ġ shao3
Ġzhi1 Ġjia1Ġ
fa1Ġ dong4Ġji1Ġ
can1Ġ xuan3Ġ
Ġ zu2
Ġke4 Ġhe2Ġ
bi4Ġ mian3Ġ
ting2Ġ che1Ġ
Ġ ni3
Ġxiang1Ġ dang1
tong2Ġ xing4Ġ
zao3 Ġshang4Ġ
1937 Ġnian2Ġ
zhu3Ġ ti2
chuang4Ġ zuo4ĠdeĠ
sen1Ġ lin2
Ġfu4Ġze2Ġ guan3Ġxia2Ġ
Ġ ì
ao4 Ġer3Ġ
la1 ĠdeĠ
1974 Ġnian2Ġ
ming2Ġ dan1Ġ
zhan4Ġ tai2Ġ
guo2 Ġshi4Ġ
hu1 Ġyu4Ġ
Ġgong1Ġ ying4Ġ
jian1Ġ ren4Ġ
xuan3Ġju3 Ġzhong1Ġ
ĠĠĠ s
1946 Ġnian2Ġ
Ġyi1Ġ zhi2Ġ
guan1Ġ fang1
suo3Ġ you3ĠdeĠ
bo2Ġ lin2Ġ
jian4Ġ zhu4
di1Ġ qi4Ġ
li2 Ġmi3Ġ
jing3Ġ gao4Ġ
cai2Ġ liao4
ĠĠĠzeng1Ġ zu3Ġ
Ġ kao3Ġ
sao1 Ġ
nan2Ġ zi
ti3Ġyu4Ġ chang3Ġ
guang3 Ġzhou1
lian2Ġ jie1
la1 Ġde2Ġ
shu1 Ġchu1Ġ
Ġbu4Ġ man3Ġ
Ġgong1Ġ neng2
zhao4Ġ pian1Ġ
xia4 Ġzai4Ġ
lan2 Ġxi1Ġ
dun4 ĠdeĠ
Ġqiu2 ĠdeĠ
yin3Ġ ru4Ġ
yin2Ġ pai2Ġ
yao2Ġ gun3
hai2 Ġzai4Ġ
Ġer2Ġgai1Ġ di4ĠdeĠ
Ġ t
ying1 Ġli3Ġ
nuo2 Ġwei1Ġ
guo2Ġ wang2Ġ
Ġyu3Ġ qi2Ġ
qi1Ġ zi3
an1Ġ zhuang1Ġ
xu4 Ġli4Ġya4
zao3Ġ qi1ĠdeĠ
shi2 Ġhe2Ġ
tu2 ĠdeĠ
1954 Ġnian2Ġ
mou3Ġ xie1
ceng2 ĠdeĠ
Ġji4Ġ lu4
Ġchu1Ġ yan3Ġ
zhi1 Ġshi2Ġ
zhan4 Ġdi4Ġ
qiu2 Ġhui4Ġ
Ġbei4Ġ er3
Ġ shun4
Ġ ba3Ġ
zhan4 Ġshi2Ġ
fei1 Ġxing2
zao1 Ġyu4Ġ
Ġnian2Ġ qing1Ġ
Ġwei4Ġ neng2
xia4Ġ lai2Ġ
shen1Ġ qing3
Ġhe2Ġ gu3Ġ
Ġcheng2Ġ leĠ
Ġyi3Ġ qian2Ġ
Ġji4Ġ yi4Ġ
Ġke4 Ġli4Ġ
fa1Ġ sheng1ĠdeĠ
shi1Ġ qu4Ġ
gu3Ġ la1Ġ
Ġ jie1
qian2 Ġhou4Ġ
10 Ġnian2Ġ
bian1 Ġyuan2Ġ
mo4 Ġer3Ġ
zhong1Ġ yang1Ġ
Ġjia1Ġ ting2
Ġxiang1Ġ tong2Ġ
you1Ġ xiu4
Ġyi3Ġse4Ġ lie4Ġ
te4 Ġli4Ġ
Ġshi2Ġ bao4Ġ
xing1Ġ qi1
Ġ qing3Ġ
shan1Ġdong1Ġ sheng3Ġ
Ġzhao1 Ġhe2Ġ
Ġ ye4
dui4 Ġyuan2Ġ
zu3 ĠdeĠ
Ġdui4Ġ ci3Ġ
ĠĠĠgai4Ġ yao4Ġ
Ġ 2006
san1 Ġda4Ġ
ĠdeĠ zhu3Ġyao4Ġ
tai4Ġ kong1Ġ
Ġzi4Ġ you2
Ġ fou3
Ġjun1 Ġdi4Ġ
Ġsheng1Ġ ming2Ġ
Ġzhi3 Ġzai4Ġ
Ġ 2000Ġnian2Ġ
zha4 Ġdan4Ġ
niang2 Ġ
Ġ Re
ĠĠĠ The
wang3 Ġshang4Ġ
ta3 Ġer3Ġ
Ġdi4Ġ zhen4Ġ
xia4Ġ jiang4Ġ
Ġ wai4
Ġ song4
ce Ġ
ling3Ġ dao3ĠdeĠ
yan2Ġjiu1 Ġsheng1Ġ
Ġ shui3
te4 Ġer3Ġ
bao3 ĠdeĠ
Ġxian4 Ġyou3Ġ
Ġyuan2Ġ yin1
dian4Ġshi4Ġ tai2
Ġ000 Ġ
Ġ cai2
Ġ 40
wu1 Ġsi1Ġ
hao3 Ġping2Ġ
zhai1 Ġ
1955 Ġnian2Ġ
Ġzhong1Ġ jian1Ġ
pu3Ġ cha2Ġ
Ġshou3Ġ ci4Ġ
duo1Ġ ci4
hui2Ġ gui1Ġ
ĠB Ġ
1 Ġge4Ġ
Ġ cai3Ġyong4Ġ
tong2 Ġming2Ġ
te4 Ġyou3Ġ
bian1 Ġwei4Ġ
Ġji2Ġ bing4Ġ
bo2Ġ jue2Ġ
Ġwei1Ġ lian2Ġ
Ġ re
mi3 ĠdeĠ
Ġxing2 Ġbu4Ġ
qin1Ġ wang2Ġ
kuai4Ġ su4
zan4Ġ ting2Ġ
Ġ mo2
cun2 ĠdeĠ
Ġ guang3Ġdong1Ġ
Ġ xian1Ġhou4Ġ
