{"!":0,"\"":1,"#":2,"$":3,"%":4,"&":5,"'":6,"(":7,")":8,"*":9,"+":10,",":11,"-":12,".":13,"/":14,"0":15,"1":16,"2":17,"3":18,"4":19,"5":20,"6":21,"7":22,"8":23,"9":24,":":25,";":26,"=":27,"?":28,"@":29,"A":30,"B":31,"C":32,"D":33,"E":34,"F":35,"G":36,"H":37,"I":38,"J":39,"K":40,"L":41,"M":42,"N":43,"O":44,"P":45,"Q":46,"R":47,"S":48,"T":49,"U":50,"V":51,"W":52,"X":53,"Y":54,"Z":55,"[":56,"\\":57,"]":58,"^":59,"_":60,"`":61,"a":62,"b":63,"c":64,"d":65,"e":66,"f":67,"g":68,"h":69,"i":70,"j":71,"k":72,"l":73,"m":74,"n":75,"o":76,"p":77,"q":78,"r":79,"s":80,"t":81,"u":82,"v":83,"w":84,"x":85,"y":86,"z":87,"|":88,"~":89,"¡":90,"¢":91,"£":92,"¤":93,"¥":94,"¦":95,"§":96,"¨":97,"©":98,"ª":99,"«":100,"¬":101,"®":102,"¯":103,"°":104,"±":105,"²":106,"³":107,"´":108,"µ":109,"¶":110,"·":111,"¸":112,"¹":113,"º":114,"»":115,"¼":116,"½":117,"¾":118,"¿":119,"Â":120,"Ã":121,"Ä":122,"Å":123,"Æ":124,"Ç":125,"È":126,"É":127,"Ê":128,"Ë":129,"Ì":130,"Í":131,"Î":132,"Ï":133,"Ð":134,"Ñ":135,"Ò":136,"Ó":137,"Ô":138,"Õ":139,"Ö":140,"×":141,"Ø":142,"Ù":143,"Ú":144,"Û":145,"Ü":146,"Þ":147,"ß":148,"à":149,"á":150,"â":151,"ã":152,"ä":153,"ê":154,"ë":155,"ì":156,"í":157,"î":158,"ï":159,"ð":160,"ñ":161,"Ċ":162,"Ġ":163,"ġ":164,"Ģ":165,"ģ":166,"Ĥ":167,"ĥ":168,"Ħ":169,"ħ":170,"Ĩ":171,"ĩ":172,"Ī":173,"ī":174,"Ĭ":175,"ĭ":176,"Į":177,"į":178,"İ":179,"ı":180,"Ĳ":181,"ĳ":182,"Ĵ":183,"ĵ":184,"Ķ":185,"ķ":186,"ĸ":187,"Ĺ":188,"ĺ":189,"Ļ":190,"ļ":191,"Ľ":192,"ľ":193,"Ŀ":194,"ŀ":195,"Ł":196,"ł":197,"Ń":198,"ng":199,"i4":200,"an":201,"sh":202,"zh":203,"ng1":204,"ji":205,"u4":206,"ng2":207,"ĠĠ":208,"i2":209,"ao":210,"xi":211,"ng4":212,"an2":213,"i3":214,"i1":215,"de":216,"u3":217,"an4":218,"e4":219,"en":220,"ch":221,"uo":222,"u2":223,"ng3":224,"an1":225,"e2":226,"ai4":227,"u1":228,"ĠĠĠ":229,"ong1":230,"a1":231,"ãĢ":232,"shi4":233,"ei4":234,"ao4":235,"ian2":236,"a4":237,"yu":238,"ang1":239,"yo":240,"an3":241,"n1":242,"hu":243,"ang4":244,"nian2":245,"en2":246,"li":247,"ang3":248,"eng2":249,"uo4":250,"uo2":251,"wei4":252,"mi":253,"ao3":254,"zai4":255,"ãĢģ":256,"bi":257,"qi":258,"ang2":259,"e1":260,"he2":261,"yi":262,"eng1":263,"zhong1":264,"er":265,"bu4":266,"ou4":267,"a3":268,"e3":269,"n4":270,"shi2":271,"di4":272,"guo2":273,"ai2":274,"ui4":275,"ren2":276,"ao1":277,"xu":278,"yi1":279,"n2":280,"ong2":281,"yu2":282,"gu":283,"li4":284,"zhi4":285,"di":286,"we":287,"en4":288,"cheng2":289,"ong4":290,"yi4":291,"gong1":292,"ji2":293,"eng4":294,"en1":295,"yue4":296,"you3":297,"yuan2":298,"da4":299,"a2":300,"le":301,"ji4":302,"20":303,"yi3":304,"ju":305,"ai1":306,"pi":307,"xian4":308,"ou1":309,"jia1":310,"si1":311,"xing2":312,"ei3":313,"ti":314,"yu3":315,"ji1":316,"ta1":317,"ri4":318,"zhi1":319,"hou4":320,"li3":321,"ou3":322,"ai3":323,"wei2":324,"hui4":325,"dao4":326,"19":327,"ong3":328,"qi2":329,"uan2":330,"zheng4":331,"ming2":332,"xi1":333,"ao2":334,"jian4":335,"xue2":336,"chu1":337,"ge4":338,"zuo4":339,"uo1":340,"sheng1":341,"dui4":342,"you2":343,"uo3":344,"qu1":345,"shang4":346,"en3":347,"de2":348,"bei4":349,"shi3":350,"zhu":351,"zhan4":352,"n3":353,"xin1":354,"jun1":355,"er3":356,"she4":357,"ren4":358,"fa1":359,"wu4":360,"bing4":361,"ke4":362,"er2":363,"lu4":364,"dai4":365,"zhu3":366,"yi2":367,"shu4":368,"ju4":369,"jin4":370,"zi4":371,"yin1":372,"fu4":373,"fang1":374,"jing1":375,"nan2":376,"hua4":377,"zhou1":378,"ping2":379,"xia4":380,"lai2":381,"yong4":382,"guan1":383,"tong2":384,"yu4":385,"ãĢĭ":386,"ãĢĬ":387,"fa3":388,"zhu4":389,"mei3":390,"Â·":391,"jian1":392,"bo":393,"huo4":394,"ben3":395,"xiang1":396,"zhi2":397,"dong4":398,"xiang4":399,"min2":400,"zhe4":401,"jiang1":402,"qi1":403,"fen1":404,"shou3":405,"quan2":406,"wen2":407,"yan2":408,"suo3":409,"jiao4":410,"qian2":411,"dian4":412,"te4":413,"duo1":414,"zui4":415,"kai1":416,"jie2":417,"lian2":418,"zhi3":419,"xi4":420,"ke3":421,"eng3":422,"ei1":423,"dan4":424,"mu4":425,"ye4":426,"du4":427,"fu2":428,"shu":429,"ma3":430,"ye3":431,"dong1":432,"qiu2":433,"bei3":434,"ãĢĮ":435,"ãĢį":436,"gao1":437,"ya4":438,"ou2":439,"du":440,"jie1":441,"un2":442,"mian4":443,"hai3":444,"zhang3":445,"shi1":446,"jin1":447,"ci3":448,"nei4":449,"sai4":450,"san1":451,"tai2":452,"ge2":453,"xing4":454,"guo4":455,"201":456,"deng3":457,"yao4":458,"che1":459,"ci4":460,"su":461,"mo":462,"ru4":463,"wu3":464,"gai1":465,"ku":466,"ding4":467,"chang2":468,"biao3":469,"la1":470,"ti3":471,"gong4":472,"jie4":473,"shou4":474,"dao3":475,"shan1":476,"chang3":477,"si4":478,"lv":479,"ze2":480,"ti2":481,"ke1":482,"dang1":483,"neng2":484,"er4":485,"wai4":486,"ei2":487,"chu":488,"dan1":489,"qi3":490,"zi":491,"kou3":492,"xiao3":493,"zu3":494,"ba1":495,"jue2":496,"lin2":497,"liu2":498,"ni":499,"sheng3":500,"ying1":501,"lan2":502,"bi3":503,"luo2":504,"tong1":505,"200":506,"zhong4":507,"zhe3":508,"shu3":509,"tian1":510,"zhen4":511,"zhong3":512,"lie4":513,"qi4":514,"cheng1":515,"shu1":516,"yuan4":517,"bao3":518,"tai4":519,"fu3":520,"feng1":521,"mi3":522,"qing1":523,"shen1":524,"wang2":525,"yun4":526,"guan3":527,"fei1":528,"jiu4":529,"gu3":530,"liang3":531,"ceng2":532,"mei2":533,"10":534,"fen4":535,"hao4":536,"yan3":537,"wei3":538,"zong3":539,"xuan3":540,"xiao4":541,"da2":542,"na4":543,"liang4":544,"bo1":545,"zu2":546,"jing4":547,"bao4":548,"ni2":549,"wu2":550,"tong3":551,"hua2":552,"jiao1":553,"yue1":554,"ying3":555,"bian4":556,"xing1":557,"su4":558,"shui3":559,"yang2":560,"men":561,"bao1":562,"ge1":563,"bo2":564,"can1":565,"cong2":566,"dian3":567,"ru2":568,"ban4":569,"bi4":570,"bian1":571,"wang3":572,"qu3":573,"chan3":574,"se4":575,"zi1":576,"qu":577,"00":578,"chuan2":579,"nv":580,"sheng4":581,"ran2":582,"tu2":583,"zhang1":584,"xu4":585,"pu3":586,"gai3":587,"gang3":588,"nv3":589,"ling4":590,"luo4":591,"you4":592,"tou2":593,"hu4":594,"cha2":595,"ce4":596,"chi2":597,"18":598,"lv4":599,"qian1":600,"li2":601,"dou1":602,"12":603,"zheng1":604,"kuo4":605,"sha1":606,"lu":607,"dang3":608,"fan3":609,"gou4":610,"lei4":611,"xi2":612,"jing3":613,"tuan2":614,"wei1":615,"xie1":616,"ling3":617,"long2":618,"gui1":619,"xian1":620,"rong2":621,"huang2":622,"xiang3":623,"ban1":624,"jiu3":625,"ying4":626,"men2":627,"shang1":628,"shen2":629,"202":630,"ban3":631,"ka3":632,"cu":633,"mu3":634,"jin3":635,"fu1":636,"ju3":637,"mo2":638,"guang3":639,"ci2":640,"shuo1":641,"qing2":642,"zhan3":643,"hai2":644,"zhuang1":645,"mo4":646,"cai2":647,"ji3":648,"du2":649,"11":650,"pin3":651,"ting2":652,"chao2":653,"ying2":654,"wo":655,"tiao2":656,"po":657,"jian3":658,"tang2":659,"hui2":660,"duan4":661,"chen2":662,"gen1":663,"mi4":664,"wan4":665,"pai2":666,"wan1":667,"zao4":668,"hang2":669,"wan2":670,"biao1":671,"lun2":672,"199":673,"xie2":674,"jiang3":675,"han4":676,"ju2":677,"fan4":678,"fang2":679,"huo2":680,"gu4":681,"han2":682,"kong1":683,"tie3":684,"meng2":685,"bie2":686,"wu1":687,"jie3":688,"zhuan1":689,"yin3":690,"xu1":691,"zhen1":692,"jia4":693,"bing1":694,"ming4":695,"ling2":696,"hong2":697,"qin1":698,"zi3":699,"lun4":700,"tu":701,"or":702,"xin4":703,"chu4":704,"su1":705,"xiu1":706,"chu3":707,"zong1":708,"15":709,"hu2":710,"que4":711,"xiao1":712,"zhao4":713,"qiang2":714,"qu4":715,"cun1":716,"chong2":717,"pian4":718,"jiu1":719,"fang4":720,"sui2":721,"shou1":722,"geng4":723,"âĢ":724,"guang1":725,"ju1":726,"jia3":727,"chuang4":728,"di2":729,"zhuan3":730,"16":731,"guo3":732,"xun4":733,"man4":734,"pai4":735,"fei4":736,"pei4":737,"198":738,"da3":739,"tuo1":740,"xuan1":741,"chu2":742,"bai2":743,"la":744,"on":745,"zhu1":746,"du1":747,"tu3":748,"diao4":749,"xia2":750,"liu4":751,"17":752,"sui4":753,"hui1":754,"ting1":755,"qie3":756,"ta3":757,"qiao2":758,"ha1":759,"gan3":760,"zeng1":761,"xian3":762,"mai4":763,"huan2":764,"xu3":765,"wa3":766,"tui1":767,"wen4":768,"chao1":769,"tian2":770,"bai3":771,"cai3":772,"liang2":773,"ya2":774,"sa4":775,"ar":776,"bai4":777,"cun2":778,"jiao3":779,"shao3":780,"yan4":781,"zhuang4":782,"di3":783,"huo3":784,"lei2":785,"14":786,"jiang4":787,"chuan1":788,"yin4":789,"zao3":790,"yong3":791,"si3":792,"deng1":793,"30":794,"zhun3":795,"le4":796,"xun2":797,"nuo4":798,"huan4":799,"song4":800,"gao4":801,"lu3":802,"13":803,"194":804,"bang1":805,"lv3":806,"yang4":807,"hen3":808,"qun2":809,"zheng3":810,"guan4":811,"po4":812,"gang1":813,"wo3":814,"197":815,"hua1":816,"lei1":817,"hao3":818,"tao2":819,"kuang4":820,"pi1":821,"dun4":822,"nong2":823,"gei3":824,"sai1":825,"shuang1":826,"lian4":827,"kuai4":828,"in":829,"di1":830,"pan4":831,"xie3":832,"195":833,"kao3":834,"gai4":835,"he4":836,"hei1":837,"wang4":838,"liao4":839,"re4":840,"ge":841,"zuo3":842,"kong4":843,"196":844,"yang1":845,"chang4":846,"yin2":847,"reng2":848,"sen1":849,"bei1":850,"lu2":851,"piao4":852,"ya1":853,"ku4":854,"25":855,"bin1":856,"âĢĶ":857,"rang4":858,"chong1":859,"lou2":860,"bu3":861,"lao3":862,"zhu2":863,"jun4":864,"yang3":865,"rui4":866,"yao1":867,"xian2":868,"xie4":869,"nian4":870,"for":871,"you1":872,"tan2":873,"kang1":874,"pi2":875,"heng2":876,"yun2":877,"kan4":878,"ning2":879,"liao2":880,"shao4":881,"bu2":882,"qing3":883,"chi3":884,"24":885,"mu":886,"dou4":887,"mian3":888,"yong1":889,"tan3":890,"wan3":891,"hu1":892,"ru":893,"fan1":894,"al":895,"tu1":896,"gan1":897,"suan4":898,"ding1":899,"yuan3":900,"wen1":901,"tui4":902,"zhe":903,"st":904,"21":905,"xiu4":906,"ba3":907,"man3":908,"193":909,"23":910,"mula":911,"kang4":912,"formula":913,"28":914,"th":915,"mao2":916,"ruo4":917,"pian1":918,"mao4":919,"lang3":920,"qin2":921,"ba2":922,"na2":923,"zan4":924,"xi3":925,"gui3":926,"gui4":927,"re":928,"pin2":929,"wo4":930,"xiong2":931,"shan4":932,"22":933,"xiong1":934,"me":935,"sui1":936,"26":937,"shen3":938,"qing4":939,"miao2":940,"fang3":941,"50":942,"2020":943,"27":944,"lang2":945,"ou":946,"qiu1":947,"song1":948,"ri":949,"dang4":950,"geng1":951,"qiang1":952,"fa2":953,"zao1":954,"feng4":955,"zhang4":956,"ï¼":957,"hao2":958,"dun1":959,"zou3":960,"hai4":961,"qie4":962,"29":963,"tan4":964,"zu":965,"pao4":966,"pa4":967,"shun4":968,"peng2":969,"xuan2":970,"2010":971,"ni3":972,"000":973,"ding3":974,"niu3":975,"zai3":976,"zhao1":977,"zhui1":978,"lve4":979,"chun1":980,"2019":981,"hun1":982,"kong3":983,"che4":984,"duan1":985,"shen4":986,"xiang2":987,"duan3":988,"gan4":989,"ro":990,"te":991,"kan1":992,"lao2":993,"cao3":994,"2016":995,"si":996,"gu1":997,"pei2":998,"kuan3":999,"za2":1000,"2018":1001,"sun1":1002,"ye2":1003,"ya3":1004,"ra":1005,"po1":1006,"2021":1007,"zha4":1008,"chi4":1009,"duo2":1010,"2014":1011,"fan2":1012,"2011":1013,"2015":1014,"cuo4":1015,"2017":1016,"zhe2":1017,"yao2":1018,"pai1":1019,"tou4":1020,"cang2":1021,"2012":1022,"40":1023,"kai3":1024,"2013":1025,"2022":1026,"mi2":1027,"ruan3":1028,"suan1":1029,"cha1":1030,"zang4":1031,"miao4":1032,"lt":1033,"2009":1034,"zhao3":1035,"2008":1036,"huai2":1037,"ãĥ":1038,"ce":1039,"60":1040,"xue4":1041,"chou2":1042,"se":1043,"bang3":1044,"am":1045,"meng4":1046,"100":1047,"ti4":1048,"pu2":1049,"nao3":1050,"2023":1051,"zhuan4":1052,"gt":1053,"lei3":1054,"190":1055,"31":1056,"cai4":1057,"san4":1058,"mou2":1059,"tion":1060,"hun4":1061,"kuan1":1062,"2007":1063,"ta":1064,"niu2":1065,"mou3":1066,"tao3":1067,"die2":1068,"2001":1069,"teng2":1070,"sou1":1071,"ken3":1072,"qian3":1073,"chang1":1074,"ran3":1075,"que1":1076,"fou3":1077,"sun3":1078,"fo":1079,"ba4":1080,"2000":1081,"80":1082,"kao4":1083,"suo1":1084,"2006":1085,"niao3":1086,"pi3":1087,"chun2":1088,"2024":1089,"lan3":1090,"ãģ":1091,"zai1":1092,"co":1093,"xue3":1094,"hui3":1095,"el":1096,"ma":1097,"luan4":1098,"ting3":1099,"2005":1100,"zun1":1101,"bang4":1102,"la4":1103,"huan1":1104,"rang3":1105,"shui4":1106,"min3":1107,"35":1108,"lai4":1109,"cang1":1110,"70":1111,"fo2":1112,"pan2":1113,"nai4":1114,"wen3":1115,"ne":1116,"cao1":1117,"of":1118,"sang1":1119,"pang2":1120,"90":1121,"bing3":1122,"ï¼į":1123,"ter":1124,"zha1":1125,"ãĤ":1126,"shuai4":1127,"nie4":1128,"hou2":1129,"mei4":1130,"shao1":1131,"nu3":1132,"dong3":1133,"il":1134,"feng2":1135,"mie4":1136,"yun3":1137,"zou4":1138,"mai3":1139,"huai4":1140,"2004":1141,"45":1142,"lo":1143,"yan1":1144,"the":1145,"he":1146,"48":1147,"zhuo2":1148,"at":1149,"and":1150,"tao4":1151,"nai3":1152,"kun1":1153,"2025":1154,"zhen3":1155,"ck":1156,"ru3":1157,"kua4":1158,"kui2":1159,"ãĢī":1160,"ãĢĪ":1161,"gou1":1162,"36":1163,"et":1164,"cui1":1165,"es":1166,"38":1167,"cu4":1168,"shan3":1169,"rou4":1170,"diao1":1171,"2003":1172,"hu3":1173,"guo1":1174,"37":1175,"cui4":1176,"xu2":1177,"is":1178,"mang2":1179,"juan3":1180,"to":1181,"can2":1182,"dian1":1183,"zhan1":1184,"cao2":1185,"189":1186,"IN":1187,"2002":1188,"keng1":1189,"TC":1190,"ma2":1191,"34":1192,"leng3":1193,"as":1194,"zu1":1195,"cha4":1196,"75":1197,"âĢĵ":1198,"ow":1199,"su2":1200,"quan1":1201,"da1":1202,"chai1":1203,"lang4":1204,"kun4":1205,"46":1206,"tun2":1207,"fen3":1208,"1990":1209,"âĢ¦":1210,"ol":1211,"ve":1212,"zhou4":1213,"shang3":1214,"rao4":1215,"heng1":1216,"ti1":1217,"xun1":1218,"39":1219,"ne4":1220,"..":1221,"nan4":1222,"pan1":1223,"65":1224,"hong1":1225,"shu2":1226,"tan1":1227,"tang1":1228,"kan3":1229,"Ma":1230,"ni4":1231,"Ch":1232,"32":1233,"it":1234,"ST":1235,"han3":1236,"47":1237,"UTC":1238,"qian4":1239,"1999":1240,"1998":1241,"In":1242,"1980":1243,"188":1244,"500":1245,"33":1246,"64":1247,"qiang3":1248,"she2":1249,"shuo4":1250,"pao3":1251,"be":1252,"ka1":1253,"zhai2":1254,"SE":1255,"55":1256,"quan4":1257,"ni1":1258,"deng4":1259,"1997":1260,"The":1261,"Co":1262,"mian2":1263,"49":1264,"gao3":1265,"II":1266,"68":1267,"han":1268,"she3":1269,"zeng4":1270,"zhou2":1271,"zhai4":1272,"Re":1273,"1996":1274,"44":1275,"na":1276,"tie1":1277,"dao1":1278,"ad":1279,"br":1280,"1994":1281,"fei2":1282,"zong4":1283,"ir":1284,"qiong2":1285,"tiao4":1286,"chuang2":1287,"nd":1288,"1992":1289,"chui2":1290,"juan1":1291,"ci":1292,"chai2":1293,"miao3":1294,"ba":1295,"gua1":1296,"xue1":1297,"tong4":1298,"1995":1299,"fei3":1300,"chi1":1301,"meng3":1302,"wo1":1303,"67":1304,"shuai1":1305,"tuo2":1306,"chuang1":1307,"huan3":1308,"vi":1309,"1991":1310,"1970":1311,"58":1312,"1950":1313,"gua4":1314,"chan2":1315,"ca":1316,"300":1317,"wa1":1318,"1993":1319,"187":1320,"1949":1321,"ay":1322,"pe":1323,"sa1":1324,"tiao3":1325,"zha2":1326,"AT":1327,"1960":1328,"bian3":1329,"42":1330,"1945":1331,"ver":1332,"us":1333,"guai4":1334,"ku3":1335,"nu2":1336,"1988":1337,"du3":1338,"oo":1339,"1989":1340,"ig":1341,"pu4":1342,"69":1343,"liu3":1344,"ing":1345,"ur":1346,"ss":1347,"gong3":1348,"SEE":1349,"tuo4":1350,"ct":1351,"liao3":1352,"INSEE":1353,"59":1354,"sha4":1355,"tai1":1356,"43":1357,"66":1358,"chuan4":1359,"amp":1360,"chen4":1361,"57":1362,"1985":1363,"huang1":1364,"Ro":1365,"99":1366,"SA":1367,"ãĢİ":1368,"cun4":1369,"ãĢı":1370,"1984":1371,"hun2":1372,"41":1373,"um":1374,"pu1":1375,"kou4":1376,"ph":1377,"88":1378,"fen2":1379,"1986":1380,"rao3":1381,"St":1382,"au":1383,"id":1384,"run4":1385,"TV":1386,"150":1387,"zhuo1":1388,"ind":1389,"400":1390,"san3":1391,"1987":1392,"78":1393,"56":1394,"1982":1395,"ard":1396,"Li":1397,"nuo2":1398,"Me":1399,"1983":1400,"De":1401,"NA":1402,"gun3":1403,"ma1":1404,"tou":1405,"pin4":1406,"un":1407,"CD":1408,"chou1":1409,"ber":1410,"gou3":1411,"quan3":1412,"77":1413,"Mi":1414,"zhai1":1415,"qia4":1416,"per":1417,"mao1":1418,"qiao3":1419,"Mar":1420,"ku1":1421,"kuang2":1422,"ed":1423,"ang":1424,"rou2":1425,"98":1426,"der":1427,"lou4":1428,"OS":1429,"Â°":1430,"kui4":1431,"sang4":1432,"ï½":1433,"ly":1434,"180":1435,"BC":1436,"54":1437,"61":1438,"Al":1439,"1979":1440,"1920":1441,"ty":1442,"79":1443,"pen1":1444,"seng1":1445,"tw":1446,"52":1447,"You":1448,"1978":1449,"nu4":1450,"62":1451,"weng1":1452,"ye1":1453,"duo3":1454,"Le":1455,"53":1456,"xing3":1457,"juan4":1458,"ï½ŀ":1459,"BA":1460,"ts":1461,"ak":1462,"1946":1463,"CO":1464,"Mo":1465,"ction":1466,"51":1467,"1958":1468,"Sh":1469,"1981":1470,"Vi":1471,"man":1472,"1972":1473,"1948":1474,"zhui4":1475,"cong1":1476,"tou1":1477,"AM":1478,"63":1479,"AR":1480,"Jo":1481,"1941":1482,"Wind":1483,"wa2":1484,"BS":1485,"lian3":1486,"1930":1487,"Pro":1488,"luan3":1489,"ows":1490,"kuang1":1491,"ke2":1492,"qu2":1493,"tuo3":1494,"76":1495,"hans":1496,"1940":1497,"pi4":1498,"1937":1499,"1976":1500,"zui3":1501,"1944":1502,"89":1503,"1975":1504,"ry":1505,"ï¼ı":1506,"1968":1507,"niang2":1508,"po2":1509,"shua1":1510,"hk":1511,"con":1512,"ran":1513,"Te":1514,"yuan1":1515,"tao1":1516,"wang1":1517,"1000":1518,"Windows":1519,"95":1520,"pa":1521,"Ne":1522,"no":1523,"bi2":1524,"sao3":1525,"87":1526,"da":1527,"1966":1528,"85":1529,"fa4":1530,"peng1":1531,"600":1532,"ga1":1533,"lan4":1534,"120":1535,"1947":1536,"Ar":1537,"Sta":1538,"1956":1539,"AC":1540,"1964":1541,"dan3":1542,"cu1":1543,"1942":1544,"Ã©":1545,"1955":1546,"Se":1547,"Ra":1548,"chou3":1549,"1952":1550,"1939":1551,"1938":1552,"72":1553,"IS":1554,"va":1555,"74":1556,"Ga":1557,"ga":1558,"ht":1559,"nu":1560,"lay":1561,"ren3":1562,"1973":1563,"1974":1564,"1954":1565,"fi":1566,"qie1":1567,"ED":1568,"1900":1569,"--":1570,"Ja":1571,"AP":1572,"1943":1573,"bi1":1574,"Tu":1575,"ke":1576,"os":1577,"1977":1578,"Be":1579,"1971":1580,"pin1":1581,"man2":1582,"op":1583,"po3":1584,"ent":1585,"1967":1586,"sheng2":1587,"ment":1588,"mp":1589,"IC":1590,"800":1591,"La":1592,"ER":1593,"ia":1594,"86":1595,"1959":1596,"beng1":1597,"Sa":1598,"1965":1599,"son":1600,"JR":1601,"1969":1602,"dui1":1603,"Lo":1604,"pen2":1605,"ine":1606,"So":1607,"ãĥ»":1608,"ÃĹ":1609,"qiao4":1610,"chui1":1611,"ID":1612,"qiao1":1613,"Su":1614,"1936":1615,"97":1616,"160":1617,"ben1":1618,"zhua1":1619,"Da":1620,"Fa":1621,"1953":1622,"1962":1623,"MA":1624,"do":1625,"1961":1626,"tic":1627,"long3":1628,"âĶ":1629,"1935":1630,"ta4":1631,"rou":1632,"mai2":1633,"96":1634,"ON":1635,"Di":1636,"ï¼ħ":1637,"1951":1638,"1957":1639,"1963":1640,"Ca":1641,"ha":1642,"âĶĢ":1643,"ok":1644,"84":1645,"2026":1646,"can3":1647,"ore":1648,"82":1649,"Na":1650,"hi":1651,"bu":1652,"73":1653,"94":1654,"tun1":1655,"92":1656,"pp":1657,"IP":1658,"AN":1659,"Bo":1660,"sta":1661,"mer":1662,"1933":1663,"one":1664,"Mu":1665,"1931":1666,"nang2":1667,"les":1668,"niao4":1669,"71":1670,"bao2":1671,"ho":1672,"nuan3":1673,"gi":1674,"An":1675,"leng2":1676,"pa2":1677,"Pa":1678,"93":1679,"so":1680,"83":1681,"all":1682,"We":1683,"dou3":1684,"81":1685,"1918":1686,"HD":1687,"Si":1688,"sao1":1689,"wi":1690,"Uni":1691,"1928":1692,"luan2":1693,"1932":1694,"nen4":1695,"ll":1696,"ara":1697,"int":1698,"Ba":1699,"MV":1700,"SS":1701,"110":1702,"1912":1703,"IT":1704,"ki":1705,"1929":1706,"tui3":1707,"duo4":1708,"1927":1709,"com":1710,"tu4":1711,"1934":1712,"are":1713,"700":1714,"ga2":1715,"cn":1716,"ali":1717,"91":1718,"che":1719,"ted":1720,"ster":1721,"ff":1722,"by":1723,"huang3":1724,"col":1725,"ill":1726,"ot":1727,"250":1728,"sa":1729,"art":1730,"zei2":1731,"1924":1732,"Ri":1733,"...":1734,"1919":1735,"kui1":1736,"xuan4":1737,"130":1738,"piao1":1739,"1925":1740,"PS":1741,"pao1":1742,"xia1":1743,"140":1744,"Play":1745,"SM":1746,"PC":1747,"mes":1748,"1914":1749,"ste":1750,"zhai3":1751,"km":1752,"He":1753,"DV":1754,"pan":1755,"zhe1":1756,"YouTu":1757,"he1":1758,"end":1759,"Ha":1760,"Fi":1761,"ana":1762,"die1":1763,"ble":1764,"Con":1765,"Wi":1766,"la3":1767,"AS":1768,"1911":1769,"Bu":1770,"ka":1771,"shi":1772,"od":1773,"gra":1774,"nve4":1775,"ld":1776,"1926":1777,"Ge":1778,"Ti":1779,"den":1780,"our":1781,"1922":1782,"na3":1783,"hen4":1784,"1917":1785,"sion":1786,"ET":1787,"NBA":1788,"IV":1789,"shui2":1790,"cai1":1791,"rao2":1792,"EN":1793,"1923":1794,"1921":1795,"peng4":1796,"fe":1797,"kua1":1798,"Goo":1799,"ther":1800,"Ta":1801,"chong3":1802,"170":1803,"à¸":1804,"EC":1805,"mao3":1806,"nong4":1807,"mm":1808,"AL":1809,"MS":1810,"Ho":1811,"section":1812,"YouTube":1813,"EP":1814,"Ni":1815,"BL":1816,"1913":1817,"hn":1818,"tiao1":1819,"pen":1820,"HK":1821,"En":1822,"âĨ":1823,"hant":1824,"gun4":1825,"1909":1826,"gin":1827,"Inter":1828,"cro":1829,"Pe":1830,"Ste":1831,"MP":1832,"AI":1833,"To":1834,"geng3":1835,"Wor":1836,"nao4":1837,"ris":1838,"feng3":1839,"ant":1840,"luo3":1841,"US":1842,"ya":1843,"por":1844,"DVD":1845,"go":1846,"ari":1847,"zou1":1848,"Pi":1849,"3000":1850,"Th":1851,"ca1":1852,"Do":1853,"Po":1854,"gn":1855,"1910":1856,"For":1857,"RO":1858,"DS":1859,"112":1860,"AK":1861,"RE":1862,"pro":1863,"1916":1864,"Car":1865,"ãĥ¼":1866,"chuo4":1867,"Net":1868,"Î±":1869,"ation":1870,"Sch":1871,"Ki":1872,"No":1873,"ani":1874,"ture":1875,"ell":1876,"Lin":1877,"My":1878,"CP":1879,"UN":1880,"Wil":1881,"ark":1882,"âĪ":1883,"Station":1884,"hen2":1885,"1915":1886,"gle":1887,"niang4":1888,"1905":1889,"FC":1890,"ven":1891,"ers":1892,"my":1893,"CN":1894,"âĦ":1895,"âĨĴ":1896,"1901":1897,"tional":1898,"Lu":1899,"wa":1900,"ting":1901,"Au":1902,"DNA":1903,"Ex":1904,"fa":1905,"pu":1906,"âĢ§":1907,"sic":1908,"dia":1909,"900":1910,"HR":1911,"Ph":1912,"dice":1913,"ary":1914,"sis":1915,"New":1916,".&":1917,"ton":1918,"CH":1919,"zen3":1920,"TA":1921,"TO":1922,"1906":1923,"1904":1924,"chuang3":1925,"AV":1926,"Ju":1927,"Qu":1928,"oun":1929,"Ka":1930,"gen3":1931,"ps":1932,"John":1933,"ere":1934,"And":1935,"MO":1936,"codice":1937,"chao3":1938,"jiong3":1939,"ding":1940,"âĦĥ":1941,"ko":1942,"eri":1943,"wa4":1944,"beng4":1945,"05":1946,"fu":1947,"CC":1948,"diu1":1949,"1907":1950,"1908":1951,"Google":1952,"AG":1953,"EST":1954,"MI":1955,"vo":1956,"zuan4":1957,"SO":1958,"tes":1959,"LE":1960,"jia2":1961,"zuan3":1962,"PlayStation":1963,"enter":1964,"BO":1965,"BBC":1966,"chi":1967,"Com":1968,"AD":1969,"IG":1970,"cal":1971,"ley":1972,"li1":1973,"Gu":1974,"ence":1975,"III":1976,"oft":1977,"Ru":1978,"1500":1979,"cy":1980,"5000":1981,"cri":1982,"wor":1983,"zuan1":1984,"IST":1985,"she1":1986,"lv2":1987,"Col":1988,"ory":1989,"ME":1990,"Sy":1991,"tive":1992,"wit":1993,"CR":1994,"3D":1995,"round":1996,"IA":1997,"lan":1998,"gua3":1999,"105":2000,"je":2001,"ma4":2002,"Ð°":2003,"tt":2004,"lin":2005,"1903":2006,"101":2007,"GB":2008,"ping1":2009,"ree":2010,"Cu":2011,"can":2012,"09":2013,"ina":2014,"can4":2015,"Fe":2016,"cen2":2017,"1902":2018,"BD":2019,"NC":2020,"land":2021,"TE":2022,"cha":2023,"pang1":2024,"xt":2025,"350":2026,"Ã¡":2027,"ze":2028,"SAO":2029,"shao2":2030,"gen":2031,"DC":2032,"des":2033,"span":2034,"pt":2035,"mon":2036,"Ad":2037,"Î²":2038,"ght":2039,"res":2040,"lin4":2041,"B1900":2042,"del":2043,"book":2044,"ES":2045,"BM":2046,"ron":2047,"ï¼İ":2048,"ãĥ³":2049,"1898":2050,"06":2051,"118":2052,"Hi":2053,"la2":2054,"ãģ®":2055,"ms":2056,"qin3":2057,"cor":2058,"tel":2059,"DR":2060,"360":2061,"01":2062,"DA":2063,"Open":2064,"1895":2065,"lao4":2066,"125":2067,"mu2":2068,"za":2069,"lar":2070,"ben4":2071,"HO":2072,"ance":2073,"tin":2074,"MC":2075,"ATP":2076,"Micro":2077,"Ko":2078,"gy":2079,"Ð¾":2080,"108":2081,"Ke":2082,"sy":2083,"line":2084,"dio":2085,"NG":2086,"igh":2087,"pou1":2088,"net":2089,"yle":2090,"Go":2091,"clu":2092,"low":2093,"qie2":2094,"gram":2095,"Cor":2096,"IF":2097,"ft":2098,"Fran":2099,"One":2100,"ner":2101,"App":2102,"07":2103,"âĪĴ":2104,"08":2105,"230":2106,"gh":2107,"Face":2108,"Hu":2109,"104":2110,"pace":2111,"Pu":2112,"Ser":2113,"rea":2114,"World":2115,"soft":2116,"EDT":2117,"ISTAT":2118,"Mon":2119,"Stu":2120,"ja":2121,"shai1":2122,"song3":2123,"à¤":2124,"NO":2125,"1896":2126,"LL":2127,"ning":2128,"109":2129,"DP":2130,"fli":2131,"ger":2132,"las":2133,"dy":2134,"yu1":2135,"AA":2136,"lus":2137,"own":2138,"Bi":2139,"ity":2140,"ge3":2141,"RI":2142,"ctor":2143,"Wa":2144,"Du":2145,"SP":2146,"RT":2147,"sui3":2148,"xiao2":2149,"qia3":2150,"EX":2151,"re3":2152,"Bri":2153,"bert":2154,"B48":2155,"Man":2156,"vel":2157,"ling":2158,"106":2159,"1890":2160,"San":2161,"CST":2162,"ML":2163,"ori":2164,"Bar":2165,"CDT":2166,"Love":2167,"zang1":2168,"DO":2169,"with":2170,"HE":2171,"ward":2172,"Per":2173,"pei1":2174,"row":2175,"tain":2176,"04":2177,"4000":2178,"pri":2179,"ux":2180,"cuan4":2181,"115":2182,"ight":2183,"ds":2184,"1200":2185,"M1":2186,"03":2187,"Har":2188,"GP":2189,"pao2":2190,"CE":2191,"ren":2192,"Äģ":2193,"back":2194,"1889":2195,"begin":2196,"Par":2197,"1899":2198,"Je":2199,"Mac":2200,"colspan":2201,"1871":2202,"Ed":2203,"RS":2204,"mic":2205,"Facebook":2206,"Willi":2207,"Microsoft":2208,"âĢĭ":2209,"240":2210,"tur":2211,"Comp":2212,"ool":2213,"1600":2214,"LO":2215,"Gi":2216,"deĠ":2217,"ĠdeĠ":2218,"shi4Ġ":2219,"Ġshi4Ġ":2220,"Ġnian2":2221,"Ġnian2Ġ":2222,"wei4Ġ":2223,"zai4Ġ":2224,"Ġwei4Ġ":2225,"Ġzai4Ġ":2226,"he2Ġ":2227,"Ġhe2Ġ":2228,"zhong1Ġ":2229,"bu4Ġ":2230,"di4Ġ":2231,"shi2Ġ":2232,"guo2Ġ":2233,"yu2Ġ":2234,"ren2Ġ":2235,"Ġbu4Ġ":2236,"yi1Ġ":2237,"Ġzhong1Ġ":2238,"li4Ġ":2239,"zhi4Ġ":2240,"gong1Ġ":2241,"Ġshi2Ġ":2242,"yue4Ġ":2243,"ji2Ġ":2244,"cheng2Ġ":2245,"yi4Ġ":2246,"you3Ġ":2247,"Ġdi4Ġ":2248,"Ġyue4Ġ":2249,"Ġyu2Ġ":2250,"Ġren2Ġ":2251,"Ġzhi4Ġ":2252,"da4Ġ":2253,"Ġji2Ġ":2254,"yuan2Ġ":2255,"Ġyou3Ġ":2256,"ji4Ġ":2257,"Ġguo2Ġ":2258,"Ġli4Ġ":2259,"Ġgong1Ġ":2260,"Ġyi4Ġ":2261,"Ġyi3":2262,"Ġcheng2Ġ":2263,"jia1Ġ":2264,"si1Ġ":2265,"yu3Ġ":2266,"Ġxian4":2267,"Ġri4":2268,"Ġyi1Ġ":2269,"Ġxing2":2270,"Ġta1":2271,"li3Ġ":2272,"ji1Ġ":2273,"Ġdao4":2274,"hou4Ġ":2275,"wei2Ġ":2276,"Ġzhi1":2277,"Ġda4Ġ":2278,"Ġyuan2Ġ":2279,"xi1Ġ":2280,"Ġri4Ġ":2281,"Ġge4":2282,"Ġyi3Ġ":2283,"xue2Ġ":2284,"hui4Ġ":2285,"leĠ":2286,"zuo4Ġ":2287,"Ġyu3Ġ":2288,"Ġdao4Ġ":2289,"ming2Ġ":2290,"Ġji4Ġ":2291,"bei4Ġ":2292,"Ġxing2Ġ":2293,"sheng1Ġ":2294,"Ġjian4":2295,"Ġchu1":2296,"Ġqi2":2297,"Ġsi1Ġ":2298,"Ġde2":2299,"zheng4Ġ":2300,"Ġxian4Ġ":2301,"Ġhou4Ġ":2302,"Ġji1Ġ":2303,"dui4Ġ":2304,"shang4Ġ":2305,"qu1Ġ":2306,"shi3Ġ":2307,"Ġer3":2308,"Ġjia1Ġ":2309,"you2Ġ":2310,"Ġta1Ġ":2311,"Ġxi1Ġ":2312,"Ġli3Ġ":2313,"Ġer2":2314,"zhan4Ġ":2315,"Ġjun1":2316,"Ġbing4":2317,"Ġzhi1Ġ":2318,"Ġge4Ġ":2319,"zhu3Ġ":2320,"ren4Ġ":2321,"fu4Ġ":2322,"zi4Ġ":2323,"wu4Ġ":2324,"xin1Ġ":2325,"dai4Ġ":2326,"ju4Ġ":2327,"ping2Ġ":2328,"Ġchu1Ġ":2329,"Ġke4":2330,"Ġzhou1":2331,"xiang1Ġ":2332,"Ġhui4Ġ":2333,"shu4Ġ":2334,"nan2Ġ":2335,"Ġshe4":2336,"Ġbei4Ġ":2337,"Ġming2Ġ":2338,"xia4Ġ":2339,"guan1Ġ":2340,"Ġer3Ġ":2341,"Ġde2Ġ":2342,"lu4Ġ":2343,"yu4Ġ":2344,"hua4Ġ":2345,"Ġjian4Ġ":2346,"jing1Ġ":2347,"yan2Ġ":2348,"fang1Ġ":2349,"Ġyin1":2350,"kai1Ġ":2351,"jian1Ġ":2352,"jiao4Ġ":2353,"fa1Ġ":2354,"yong4Ġ":2355,"Ġdan4":2356,"Ġer2Ġ":2357,"zhu4Ġ":2358,"lai2Ġ":2359,"min2Ġ":2360,"shou3Ġ":2361,"zhe4Ġ":2362,"xiang4Ġ":2363,"wen2Ġ":2364,"Ġjun1Ġ":2365,"xi4Ġ":2366,"qian2Ġ":2367,"ben3Ġ":2368,"te4Ġ":2369,"Ġwei2Ġ":2370,"zhi2Ġ":2371,"fa3Ġ":2372,"qi1Ġ":2373,"jie2Ġ":2374,"lian2Ġ":2375,"Ġbing4Ġ":2376,"dong4Ġ":2377,"dian4Ġ":2378,"Ġqi2Ġ":2379,"Ġke4Ġ":2380,"dong1Ġ":2381,"mu4Ġ":2382,"Ġjin4":2383,"Ġdui4Ġ":2384,"Ġhuo4":2385,"Ġzhan4Ġ":2386,"fen1Ġ":2387,"tai2Ġ":2388,"zhang3Ġ":2389,"du4Ġ":2390,"jiang1Ġ":2391,"Ġqiu2":2392,"Ġping2Ġ":2393,"gao1Ġ":2394,"ye4Ġ":2395,"suo3Ġ":2396,"bei3Ġ":2397,"Ġzhou1Ġ":2398,"shi1Ġ":2399,"ĠleĠ":2400,"duo1Ġ":2401,"jie1Ġ":2402,"ge2Ġ":2403,"Ġshang4Ġ":2404,"jin1Ġ":2405,"Ġzheng4Ġ":2406,"fu2Ġ":2407,"Ġzuo4Ġ":2408,"Ġyou2Ġ":2409,"Ġfu4Ġ":2410,"kou3Ġ":2411,"guo4Ġ":2412,"zhi3Ġ":2413,"Ġtong2":2414,"hai3Ġ":2415,"Ġren4Ġ":2416,"Ġquan2":2417,"ma3Ġ":2418,"tong1Ġ":2419,"ru4Ġ":2420,"zui4Ġ":2421,"Ġsheng1Ġ":2422,"Ġxue2Ġ":2423,"ci3Ġ":2424,"xing4Ġ":2425,"wai4Ġ":2426,"nei4Ġ":2427,"la1Ġ":2428,"ti3Ġ":2429,"jue2Ġ":2430,"ke3Ġ":2431,"qi3Ġ":2432,"shan1Ġ":2433,"tian1Ġ":2434,"chang3Ġ":2435,"deng3Ġ":2436,"zhen4Ġ":2437,"wu3Ġ":2438,"chang2Ġ":2439,"ziĠ":2440,"yao4Ġ":2441,"bi3Ġ":2442,"Ġju4Ġ":2443,"bao3Ġ":2444,"mi3Ġ":2445,"ya4Ġ":2446,"Ġye3":2447,"gai1Ġ":2448,"Ġyin1Ġ":2449,"Ġdai4Ġ":2450,"mian4Ġ":2451,"zhong4Ġ":2452,"Ġshe4Ġ":2453,"feng1Ġ":2454,"Ġzhe4Ġ":2455,"zhong3Ġ":2456,"ci4Ġ":2457,"yun4Ġ":2458,"yi2Ġ":2459,"liu2Ġ":2460,"che1Ġ":2461,"shou4Ġ":2462,"lin2Ġ":2463,"bao1Ġ":2464,"yi2Ġge4Ġ":2465,"sai4Ġ":2466,"jie4Ġ":2467,"ding4Ġ":2468,"shen1Ġ":2469,"sheng3Ġ":2470,"luo2Ġ":2471,"mei3Ġguo2Ġ":2472,"san1Ġ":2473,"qi4Ġ":2474,"xiao3Ġ":2475,"Ġdan4Ġ":2476,"neng2Ġ":2477,"shu1Ġ":2478,"ze2Ġ":2479,"lie4Ġ":2480,"xuan3Ġ":2481,"si4Ġ":2482,"qing1Ġ":2483,"zhe3Ġ":2484,"Ġqiu2Ġ":2485,"jing4Ġ":2486,"yuan4Ġ":2487,"ba1Ġ":2488,"wang2Ġ":2489,"ke1Ġ":2490,"tai4Ġ":2491,"lan2Ġ":2492,"bao4Ġ":2493,"an1Ġ":2494,"zong3Ġ":2495,"ying3Ġ":2496,"Ġhuo4Ġ":2497,"bi4Ġ":2498,"fu3Ġ":2499,"dao3Ġ":2500,"Ġxin1Ġ":2501,"gu3Ġ":2502,"ying1Ġ":2503,"Ġhao4":2504,"Ġxia4Ġ":2505,"Ġzi4Ġ":2506,"ge1Ġ":2507,"fen4Ġ":2508,"xiao4Ġ":2509,"yue1Ġ":2510,"ni2Ġ":2511,"jiao1Ġ":2512,"na4Ġ":2513,"Ġyu4Ġ":2514,"Ġmi3Ġ":2515,"zi1Ġ":2516,"er4Ġ":2517,"Ġxiang1Ġ":2518,"pu3Ġ":2519,"dan1Ġ":2520,"Ġzhu4Ġ":2521,"biao3Ġ":2522,"guan3Ġ":2523,"tou2Ġ":2524,"liang4Ġ":2525,"chuan2Ġ":2526,"Ġlu4Ġ":2527,"su4Ġ":2528,"wu2Ġ":2529,"Ġdang1":2530,"bo1Ġ":2531,"ru2Ġ":2532,"yan3Ġ":2533,"nv3Ġ":2534,"bo2Ġ":2535,"Ġzhong1Ġguo2Ġ":2536,"xing1Ġ":2537,"ti2Ġ":2538,"fei1Ġ":2539,"da2Ġ":2540,"se4Ġ":2541,"cheng1Ġ":2542,"mei3Ġ":2543,"Ġwei4Ġyu2Ġ":2544,"Ġjin4Ġ":2545,"ceng2Ġ":2546,"chan3Ġ":2547,"Ġnan2Ġ":2548,"shui3Ġ":2549,"tu2Ġ":2550,"bian4Ġ":2551,"gui1Ġ":2552,"Ġran2":2553,"yang2Ġ":2554,"zhang1Ġ":2555,"a1Ġ":2556,"gai3Ġ":2557,"dian3Ġ":2558,"cong2Ġ":2559,"jiu4Ġ":2560,"Ġben3Ġ":2561,"Ġquan2Ġ":2562,"sha1Ġ":2563,"bao1Ġkuo4":2564,"wang3Ġ":2565,"jian3Ġ":2566,"sheng4Ġ":2567,"zu3Ġ":2568,"shu3Ġ":2569,"gang3Ġ":2570,"hua2Ġ":2571,"lv4Ġ":2572,"qing2Ġ":2573,"jing3Ġ":2574,"liang3Ġ":2575,"zu2Ġ":2576,"ban4Ġ":2577,"tong3Ġ":2578,"gong4Ġ":2579,"shang1Ġ":2580,"li2Ġ":2581,"hu4Ġ":2582,"an4Ġ":2583,"tong2Ġ":2584,"bian1Ġ":2585,"jin4Ġ":2586,"long2Ġ":2587,"luo4Ġ":2588,"xu4Ġ":2589,"chi2Ġ":2590,"ao4Ġ":2591,"mei2Ġ":2592,"1Ġ":2593,"jin3Ġ":2594,"ban1Ġ":2595,"guang3Ġ":2596,"chu1Ġ":2597,"ce4Ġ":2598,"mi4Ġ":2599,"shen2Ġ":2600,"Ġta1Ġmen":2601,"zheng1Ġ":2602,"zhi1Ġ":2603,"ling3Ġ":2604,"you4Ġ":2605,"fan3Ġ":2606,"wei1Ġ":2607,"Ġzhu3Ġ":2608,"huo2Ġ":2609,"xi2Ġ":2610,"ting2Ġ":2611,"ka3Ġ":2612,"cha2Ġ":2613,"Ġgai1Ġ":2614,"Ġxiang4Ġ":2615,"cai2Ġ":2616,"gou4Ġ":2617,"shuo1Ġ":2618,"men2Ġ":2619,"ci2Ġ":2620,"xiang3Ġ":2621,"mu3Ġ":2622,"2Ġ":2623,"lei4Ġ":2624,"wei3Ġ":2625,"qu3Ġ":2626,"Ġgong1Ġli3Ġ":2627,"yan2Ġjiu1":2628,"Ġduo1Ġ":2629,"tuan2Ġ":2630,"yin3Ġ":2631,"jian4Ġ":2632,"Ġye3Ġ":2633,"chao2Ġ":2634,"ying4Ġ":2635,"chen2Ġ":2636,"tang2Ġ":2637,"xie1Ġ":2638,"qi2Ġ":2639,"pin3Ġ":2640,"Ġyi3Ġji2Ġ":2641,"jia4Ġ":2642,"shi3Ġyong4Ġ":2643,"jie3Ġ":2644,"hang2Ġ":2645,"yi3Ġ":2646,"lun2Ġ":2647,"rong2Ġ":2648,"jiang3Ġ":2649,"Ġyou2":2650,"pai2Ġ":2651,"fu1Ġ":2652,"jiu3Ġ":2653,"ling4Ġ":2654,"tai2Ġwan1":2655,"Ġhao4Ġ":2656,"Ġwan4":2657,"ĠdeĠdi4Ġ":2658,"xu1Ġ":2659,"ke3Ġyi3Ġ":2660,"huang2Ġ":2661,"xian1Ġ":2662,"duan4Ġ":2663,"ke4Ġ":2664,"dang3Ġ":2665,"mo2Ġ":2666,"can1Ġ":2667,"ying2Ġ":2668,"tiao2Ġ":2669,"biao1Ġ":2670,"ĠdeĠyi1Ġ":2671,"kai1Ġshi3Ġ":2672,"quan2Ġ":2673,"zhan3Ġ":2674,"Ġcheng2Ġwei2Ġ":2675,"ye3Ġ":2676,"hong2Ġ":2677,"mei2Ġyou3Ġ":2678,"han4Ġ":2679,"e2Ġ":2680,"yin1Ġ":2681,"wei3Ġyuan2Ġ":2682,"qian1Ġ":2683,"ban3Ġ":2684,"xian4Ġ":2685,"ling2Ġ":2686,"xiao1Ġ":2687,"Ġtong2Ġ":2688,"hui2Ġ":2689,"su1Ġ":2690,"fang2Ġ":2691,"meng2Ġ":2692,"zhuang1Ġ":2693,"kong1Ġ":2694,"ju2Ġ":2695,"cun1Ġ":2696,"bao1Ġkuo4Ġ":2697,"ren2Ġkou3Ġ":2698,"Ġqi2Ġzhong1Ġ":2699,"Ġgong1Ġsi1Ġ":2700,"huo4Ġ":2701,"zi3Ġ":2702,"xing2Ġ":2703,"dou1Ġ":2704,"ĠdeĠshi4Ġ":2705,"ĠĠĠzai4Ġ":2706,"qiang2Ġ":2707,"zhao4Ġ":2708,"du2Ġ":2709,"zheng4Ġzhi4Ġ":2710,"yi2Ġge4":2711,"mo4Ġ":2712,"bing1Ġ":2713,"cai3Ġ":2714,"fa3Ġguo2Ġ":2715,"Ġfen1Ġ":2716,"Ġgao1Ġ":2717,"Ġda4Ġxue2Ġ":2718,"Ġshi4Ġyi1Ġ":2719,"hai2Ġ":2720,"Ġta1ĠdeĠ":2721,"hu2Ġ":2722,"chu4Ġ":2723,"qin1Ġ":2724,"3Ġ":2725,"lun4Ġ":2726,"fan4Ġ":2727,"zhen1Ġ":2728,"guang1Ġ":2729,"wen4Ġ":2730,"man4Ġ":2731,"ai4Ġ":2732,"she4Ġ":2733,"Ġjie2Ġ":2734,"biao3Ġshi4Ġ":2735,"zhong1ĠdeĠ":2736,"ju1Ġ":2737,"Ġjiao4Ġ":2738,"zhuan1Ġ":2739,"diao4Ġ":2740,"bai2Ġ":2741,"da3Ġ":2742,"que4Ġ":2743,"dian4Ġshi4Ġ":2744,"Ġdong1Ġ":2745,"fei4Ġ":2746,"Ġshi4Ġwei4Ġ":2747,"Ġdu4Ġ":2748,"Ġmu4Ġ":2749,"han2Ġ":2750,"shi4ĠdeĠ":2751,"Ġte4Ġ":2752,"xun4Ġ":2753,"Ġjin1Ġ":2754,"pian4Ġ":2755,"ming4Ġ":2756,"ju3Ġ":2757,"Ġjiang1Ġ":2758,"tuo1Ġ":2759,"gu4Ġ":2760,"Ġren2Ġkou3Ġ":2761,"xiu1Ġ":2762,"Ġbu4Ġfen4Ġ":2763,"xie2Ġ":2764,"zao4Ġ":2765,"Ġhe2Ġguo2Ġ":2766,"zhong1Ġguo2Ġ":2767,"guo3Ġ":2768,"10Ġyue4Ġ":2769,"shou1Ġ":2770,"Ġzui4":2771,"xin4Ġ":2772,"12Ġyue4Ġ":2773,"7Ġyue4Ġ":2774,"9Ġyue4Ġ":2775,"zhuan3Ġ":2776,"ta1Ġ":2777,"Ġshi1Ġ":2778,"dang1Ġ":2779,"mian4Ġji1Ġ":2780,"Ġren2Ġmin2Ġ":2781,"8Ġyue4Ġ":2782,"xun2Ġ":2783,"Ġdi4Ġqu1Ġ":2784,"wu1Ġ":2785,"3Ġyue4Ġ":2786,"Ġguo4Ġ":2787,"1Ġyue4Ġ":2788,"Ġjing1Ġ":2789,"Ġsuo3Ġ":2790,"Ġshou3Ġ":2791,"gan3Ġ":2792,"huan2Ġ":2793,"di2Ġ":2794,"xia2Ġ":2795,"jia3Ġ":2796,"5Ġyue4Ġ":2797,"ying1Ġguo2Ġ":2798,"Ġci3Ġ":2799,"dao4Ġ":2800,"di3Ġ":2801,"zhu1Ġ":2802,"ting1Ġ":2803,"zheng4Ġshi4Ġ":2804,"chong2Ġ":2805,"huo3Ġ":2806,"zhou1Ġ":2807,"6Ġyue4Ġ":2808,"4Ġ":2809,"zhuang4Ġ":2810,"5Ġ":2811,"cheng2Ġshi4Ġ":2812,"4Ġyue4Ġ":2813,"Ġguo2Ġjia1Ġ":2814,"tian2Ġ":2815,"geng4Ġ":2816,"ĠĠĠdi4Ġ":2817,"fang4Ġ":2818,"yong3Ġ":2819,"shu3Ġyu2Ġ":2820,"Ġping2Ġfang1":2821,"po4Ġ":2822,"jun1Ġ":2823,"Ġdi4Ġyi1Ġ":2824,"Ġqian2Ġ":2825,"11Ġyue4Ġ":2826,"qun2Ġ":2827,"qu4Ġ":2828,"jiang4Ġ":2829,"tao2Ġ":2830,"Ġshi4Ġji4Ġ":2831,"Ġping2Ġfang1Ġgong1Ġli3Ġ":2832,"Ġtong2Ġshi2Ġ":2833,"dan1Ġren4Ġ":2834,"gen1Ġ":2835,"Ġma3Ġ":2836,"Ġru2Ġ":2837,"Ġdeng3Ġ":2838,"ji3Ġ":2839,"bie2Ġ":2840,"pai4Ġ":2841,"du1Ġ":2842,"liang2Ġ":2843,"shao3Ġ":2844,"hui1Ġ":2845,"tie3Ġ":2846,"nong2Ġ":2847,"Ġnian2Ġ1Ġyue4Ġ":2848,"ta3Ġ":2849,"dian4Ġying3Ġ":2850,"zong1Ġ":2851,"chu3Ġ":2852,"Ġqi1Ġ":2853,"Ġzhe4":2854,"si3Ġ":2855,"Ġtian1Ġ":2856,"er3Ġ":2857,"ĠdeĠshi2Ġ":2858,"shuang1Ġ":2859,"qiao2Ġ":2860,"tai2Ġwan1Ġ":2861,"Ġsui4":2862,"gen1Ġju4Ġ":2863,"li4Ġshi3Ġ":2864,"chu2Ġ":2865,"Ġshi4Ġzhen4Ġ":2866,"gao4Ġ":2867,"bai4Ġ":2868,"can1Ġjia1Ġ":2869,"yun4Ġdong4":2870,"gang1Ġ":2871,"che1Ġzhan4Ġ":2872,"guo2ĠdeĠ":2873,"jiao3Ġ":2874,"Ġyin1Ġwei4Ġ":2875,"Ġri4Ġben3Ġ":2876,"Ġping2Ġfang1Ġ":2877,"li4ĠdeĠ":2878,"Ġnian2ĠdeĠ":2879,"gai4Ġ":2880,"pan4Ġ":2881,"Ġwen2Ġ":2882,"Ġhai3Ġ":2883,"zheng4Ġfu3Ġ":2884,"bing4Ġ":2885,"zhun3Ġ":2886,"Ġnian2Ġ12Ġyue4Ġ":2887,"wa3Ġ":2888,"yan4Ġ":2889,"wo3Ġ":2890,"Ġfu2Ġ":2891,"gong4Ġhe2Ġguo2Ġ":2892,"Ġxian4ĠdeĠ":2893,"ya2Ġ":2894,"yin2Ġ":2895,"fa1Ġxian4Ġ":2896,"formulaĠ":2897,"chuang4Ġ":2898,"hei1Ġ":2899,"huan4Ġ":2900,"qu1ĠdeĠ":2901,"song4Ġ":2902,"ha1Ġ":2903,"hen3Ġ":2904,"ti2Ġgong1Ġ":2905,"Ġsuo3":2906,"jin4Ġxing2Ġ":2907,"Ġbei3Ġ":2908,"lei2Ġ":2909,"2Ġyue4Ġ":2910,"jing1Ġji4Ġ":2911,"tong1Ġguo4Ġ":2912,"Ġnian2Ġ3Ġyue4Ġ":2913,"Ġmei3":2914,"sui2Ġ":2915,"chuan1Ġ":2916,"Ġzhong1Ġyang1":2917,"Ġguo2Ġji4Ġ":2918,"hua1Ġ":2919,"6Ġ":2920,"shang4ĠdeĠ":2921,"Ġyou2Ġyu2Ġ":2922,"Ġyou4Ġ":2923,"lei1Ġ":2924,"wei3Ġyuan2Ġhui4Ġ":2925,"qie3Ġ":2926,"kao3Ġ":2927,"Ġnian2Ġ7Ġyue4Ġ":2928,"cheng1Ġwei2Ġ":2929,"Ġnian2Ġ10Ġyue4Ġ":2930,"deng1Ġ":2931,"bai3Ġ":2932,"Ġshi4Ġjie4Ġ":2933,"Ġying1Ġ":2934,"Ġyin1Ġci3Ġ":2935,"ming2Ġwei4Ġ":2936,"Ġjin4Ġxing2Ġ":2937,"nuo4Ġ":2938,"Ġshi4Ġzai4Ġ":2939,"chong1Ġ":2940,"zhu3Ġyi4Ġ":2941,"wan2Ġ":2942,"Ġran2Ġ":2943,"Ġnian2Ġ9Ġyue4Ġ":2944,"kuai4Ġ":2945,"tu3Ġ":2946,"Ġzhi1Ġhou4Ġ":2947,"yan2Ġjiu1Ġ":2948,"qiu2Ġ":2949,"Ġta1ĠmenĠ":2950,"mai4Ġ":2951,"shi2ĠdeĠ":2952,"lian4Ġ":2953,"hao4Ġ":2954,"Ġnian2Ġ5Ġyue4Ġ":2955,"sa4Ġ":2956,"lu2Ġ":2957,"xi4Ġtong3Ġ":2958,"Ġzui4Ġ":2959,"pei4Ġ":2960,"lu3Ġ":2961,"Ġnian2Ġ4Ġyue4Ġ":2962,"chi3Ġ":2963,"liao4Ġ":2964,"Ġdang1Ġ":2965,"Ġnian2Ġ8Ġyue4Ġ":2966,"Ġlian2Ġ":2967,"Ġnian2Ġ6Ġyue4Ġ":2968,"Ġxing2ĠdeĠ":2969,"zeng1Ġ":2970,"ren2ĠdeĠ":2971,"Ġshi3Ġ":2972,"xiang1Ġgang3Ġ":2973,"qi1Ġjian1Ġ":2974,"xuan1Ġ":2975,"en1Ġ":2976,"de2Ġ":2977,"kuang4Ġ":2978,"guan3Ġli3Ġ":2979,"Ġgong1Ġzuo4Ġ":2980,"piao4Ġ":2981,"Ġzhi1Ġyi1Ġ":2982,"xu3Ġ":2983,"di1Ġ":2984,"heng2Ġ":2985,"da4ĠdeĠ":2986,"bu3Ġ":2987,"yang4Ġ":2988,"Ġzhong1Ġxin1Ġ":2989,"xuan1Ġbu4Ġ":2990,"sen1Ġ":2991,"tui1Ġ":2992,"Ġnian2Ġ11Ġyue4Ġ":2993,"zu3Ġzhi1Ġ":2994,"ri4Ġ":2995,"wang4Ġ":2996,"bu4ĠdeĠ":2997,"pi2Ġ":2998,"menĠ":2999,"Ġbao1Ġkuo4Ġ":3000,"chang4Ġ":3001,"ying3Ġxiang3Ġ":3002,"yang3Ġ":3003,"Ġta1Ġzai4Ġ":3004,"qian1Ġmi3Ġ":3005,"sai1Ġ":3006,"er2Ġ":3007,"ĠĠĠsheng1Ġ":3008,"Ġhuo4Ġde2Ġ":3009,"pi1Ġ":3010,"Ġshi4Ġjie4":3011,"Ġwan4Ġ":3012,"luo2Ġsi1Ġ":3013,"he4Ġ":3014,"ke3Ġneng2":3015,"cheng2ĠdeĠ":3016,"Ġgai1":3017,"Ġqing1Ġ":3018,"nian4Ġ":3019,"dun4Ġ":3020,"xian2Ġ":3021,"sĠ":3022,"lou2Ġ":3023,"qi2Ġta1Ġ":3024,"Ġnian2Ġ2Ġyue4Ġ":3025,"bang1Ġ":3026,"Ġcheng2Ġli4Ġ":3027,"leĠyi1Ġ":3028,"huo2Ġdong4Ġ":3029,"Ġren4Ġwei2Ġ":3030,"liu4Ġ":3031,"Ġlai2Ġ":3032,"you1Ġ":3033,"Ġbi3Ġ":3034,"Ġshu4Ġ":3035,"ke1Ġxue2Ġ":3036,"Ġfen1":3037,"fa1Ġzhan3Ġ":3038,"huo4Ġde2Ġ":3039,"jun4Ġ":3040,"Ġluo2Ġ":3041,"Ġzuo4Ġwei2Ġ":3042,"ya1Ġ":3043,"Ġping2Ġfang1Ġqian1Ġmi3Ġ":3044,"Ġa1Ġ":3045,"hua2Ġren2Ġmin2Ġ":3046,"Ġwu2Ġ":3047,"ri4Ġben3Ġ":3048,"bei1Ġ":3049,"lao3Ġ":3050,"hui4Ġyi4Ġ":3051,"re4Ġ":3052,"Ġzhi2":3053,"ku4Ġ":3054,"tan2Ġ":3055,"jian1ĠdeĠ":3056,"tie3Ġlu4Ġ":3057,"Ġliu2Ġ":3058,"ĠdeĠren2Ġ":3059,"yong4Ġyu2Ġ":3060,"liao2Ġ":3061,"ning2Ġ":3062,"Ġshi2Ġjian1Ġ":3063,"ĠdeĠgong1Ġ":3064,"ge4Ġ":3065,"Ġshan1Ġ":3066,"Ġzhang1Ġ":3067,"mian3Ġ":3068,"mian4Ġji1":3069,"Ġyan2Ġ":3070,"min2Ġguo2Ġ":3071,"rui4Ġ":3072,"wu1Ġke4Ġ":3073,"yin4Ġ":3074,"xian3Ġ":3075,"le4Ġ":3076,"zuo3Ġ":3077,"gong4Ġyou3Ġ":3078,"ĠĠĠli4Ġshi3Ġ":3079,"hao3Ġ":3080,"ĠĠĠsheng1Ġping2Ġ":3081,"hua2Ġren2Ġmin2Ġgong4Ġhe2Ġguo2Ġ":3082,"fang1Ġshi4Ġ":3083,"fa1Ġsheng1Ġ":3084,"gan1Ġ":3085,"Ġcong2Ġ":3086,"dou4Ġ":3087,"wen4Ġti2Ġ":3088,"Ġzhi2Ġ":3089,"guan4Ġjun1Ġ":3090,"zhu3Ġyao4Ġ":3091,"ran2Ġ":3092,"di4ĠdeĠ":3093,"Ġdi4Ġer4Ġ":3094,"dao3Ġzhi4Ġ":3095,"guan1Ġxi4Ġ":3096,"cun2Ġ":3097,"Ġxiao3Ġ":3098,"kang1Ġ":3099,"can1Ġyu4Ġ":3100,"yuan3Ġ":3101,"Ġbu4Ġfen4":3102,"Ġjin3Ġ":3103,"zheng3Ġ":3104,"Ġgong1Ġcheng2Ġ":3105,"wan2Ġcheng2Ġ":3106,"dan1Ġwei4Ġ":3107,"ke3Ġneng2Ġ":3108,"Ġwu3Ġ":3109,"yi1Ġwei4Ġ":3110,"Ġzhi3Ġ":3111,"7Ġ":3112,"1Ġri4Ġ":3113,"xie4Ġ":3114,"geĠ":3115,"Ġze2Ġ":3116,"suo3Ġyou3Ġ":3117,"zhi4ĠdeĠ":3118,"wen2Ġhua4Ġ":3119,"Ġzong3Ġ":3120,"Ġcheng2Ġyuan2Ġ":3121,"ĠdeĠcheng2Ġ":3122,"gei3Ġ":3123,"lv3Ġ":3124,"Ġba1Ġ":3125,"yuan2ĠdeĠ":3126,"yong1Ġyou3Ġ":3127,"cun2Ġzai4Ġ":3128,"er4Ġshi2Ġ":3129,"Ġtong1Ġ":3130,"bei3Ġbu4Ġ":3131,"lian2Ġhe2Ġ":3132,"hou4ĠdeĠ":3133,"niu3Ġ":3134,"sĠĠĠ":3135,"Ġshi4Ġzhong1Ġ":3136,"zheng4Ġfu3":3137,"you2Ġyu2Ġ":3138,"guo2Ġjia1Ġ":3139,"dui4Ġyu2Ġ":3140,"Ġnian2Ġzhi4Ġ":3141,"fa1Ġxing2Ġ":3142,"yi4ĠdeĠ":3143,"Ġ18":3144,"ju4Ġyou3Ġ":3145,"Ġjian4Ġzhu4Ġ":3146,"bi3Ġsai4Ġ":3147,"Ġbing4Ġzai4Ġ":3148,"Ġzhi3":3149,"Ġdao4ĠleĠ":3150,"ou1Ġ":3151,"xin1ĠdeĠ":3152,"si1ĠdeĠ":3153,"shen3Ġ":3154,"yun2Ġ":3155,"zi4Ġji3":3156,"yun4Ġdong4Ġ":3157,"xing2Ġzheng4Ġ":3158,"yin4Ġdu4Ġ":3159,"e2Ġluo2Ġsi1Ġ":3160,"bin1Ġ":3161,"Ġmian4Ġji1Ġ":3162,"dai4Ġbiao3Ġ":3163,"shao4Ġ":3164,"Ġmei3Ġguo2Ġ":3165,"Ġling4Ġ":3166,"xu3Ġduo1Ġ":3167,"Ġdan4Ġshi4Ġ":3168,"ren4Ġhe2Ġ":3169,"sheng1Ġyu2Ġ":3170,"tu1Ġ":3171,"gui4Ġ":3172,"Ġ15":3173,"Ġjian3Ġ":3174,"Ġnian2Ġdai4Ġ":3175,"ding1Ġ":3176,"8Ġ":3177,"liang3Ġge4Ġ":3178,"che4Ġ":3179,"bao3Ġhu4Ġ":3180,"Ġren2Ġkou3Ġmi4Ġ":3181,"Ġshi3":3182,"xiu4Ġ":3183,"man3Ġ":3184,"zhĠ":3185,"e4Ġ":3186,"xuan2Ġ":3187,"Ġdang1Ġshi2Ġ":3188,"zhang4Ġ":3189,"ĠdeĠyi2Ġge4Ġ":3190,"nan2Ġbu4Ġ":3191,"ju3Ġxing2Ġ":3192,"zhuan1Ġji2Ġ":3193,"mian4Ġji1Ġwei4Ġ":3194,"Ġxi4Ġ":3195,"Ġdian4Ġ":3196,"lai2ĠdeĠ":3197,"ai1Ġ":3198,"fan1Ġ":3199,"Ġguan1Ġ":3200,"zao3Ġ":3201,"Ġzheng4Ġfu3Ġ":3202,"du2Ġli4Ġ":3203,"fu2Ġwu4Ġ":3204,"jue2Ġding4Ġ":3205,"xie3Ġ":3206,"Ġchu1ĠdeĠ":3207,"ruo4Ġ":3208,"zhu3Ġyao4":3209,"ĠC":3210,"kai1Ġshi3":3211,"Ġli4Ġshi3Ġ":3212,"qing3Ġ":3213,"Ġceng2Ġ":3214,"Ġshe4Ġji4Ġ":3215,"Ġsan1Ġ":3216,"rang4Ġ":3217,"ming2ĠdeĠ":3218,"Ġwang2Ġ":3219,"Ġmei3Ġ":3220,"hai4Ġ":3221,"Ġshi4Ġwei4Ġyu2Ġ":3222,"jiu4Ġshi4Ġ":3223,"Ġyou3Ġyi1Ġ":3224,"geng1Ġ":3225,"gtĠ":3226,"Ġci3":3227,"ĠgtĠ":3228,"xi3Ġ":3229,"Ġjiang1":3230,"tan4Ġ":3231,"Ġqi2Ġta1Ġ":3232,"Ġxing2Ġzheng4Ġ":3233,"Ġfa3Ġ":3234,"ĠA":3235,"pei2Ġ":3236,"jiao4Ġyu4Ġ":3237,"shou4Ġdao4Ġ":3238,"ltĠ":3239,"Ġfeng1Ġ":3240,"ren4Ġwei2Ġ":3241,"fang3Ġ":3242,"Ġshi4Ġdi4Ġ":3243,"fa1Ġzhan3":3244,"wan3Ġ":3245,"kan1Ġ":3246,"she4Ġhui4Ġ":3247,"ĠltĠ":3248,"shan4Ġ":3249,"Ġ16":3250,"yi4Ġwei4Ġ":3251,"gu4Ġshi4Ġ":3252,"pian1Ġ":3253,"fang1Ġmian4Ġ":3254,"Ġxian4Ġzai4Ġ":3255,"Ġjie1Ġ":3256,"qu1Ġwei4Ġ":3257,"Ġzui4Ġzhong1Ġ":3258,"qin2Ġ":3259,"Ġbi4Ġ":3260,"Ġzhong1Ġyang1Ġ":3261,"Ġshi4Ġshi4Ġ":3262,"tui4Ġ":3263,"pao4Ġ":3264,"zheĠ":3265,"nei4ĠdeĠ":3266,"Ġjiu4Ġ":3267,"shu3ĠdeĠ":3268,"xiang1Ġgang3":3269,"xiao3Ġshi2Ġ":3270,"dan4Ġ":3271,"Ġli4Ġru2Ġ":3272,"zu2Ġqiu2Ġ":3273,"shu4Ġju4Ġ":3274,"Ġbu4Ġtong2":3275,"lie4Ġche1Ġ":3276,"xu1Ġyao4Ġ":3277,"hua4ĠdeĠ":3278,"zhi2Ġwu4Ġ":3279,"qiang1Ġ":3280,"Ġsui1":3281,"ren2Ġshi4Ġ":3282,"zuo4ĠdeĠ":3283,"shi3Ġyong4":3284,"zeng1Ġjia1Ġ":3285,"Ġji4Ġhua4Ġ":3286,"Ġqu1Ġ":3287,"min2Ġzhu3Ġ":3288,"Ġshi2Ġqi1Ġ":3289,"Ġdong4Ġ":3290,"zuo4Ġwei2Ġ":3291,"Ġgu3Ġ":3292,"kong4Ġzhi4Ġ":3293,"Ġye3Ġshi4Ġ":3294,"duan3Ġ":3295,"tan3Ġ":3296,"Ġjian4ĠdeĠ":3297,"yin1Ġyue4Ġ":3298,"Ġran2Ġer2Ġ":3299,"Ġan1Ġ":3300,"lang2Ġ":3301,"Ġyi3Ġjing1Ġ":3302,"Ġshu3Ġyu2Ġ":3303,"Ġhe2Ġzuo4Ġ":3304,"Ġzai4Ġdi4Ġ":3305,"ren2Ġmin2Ġ":3306,"Ġshi4Ġjian4Ġ":3307,"Ġren2Ġyuan2Ġ":3308,"Ġyou4":3309,"ta1ĠdeĠ":3310,"Ġjian4Ġyu2Ġ":3311,"xue2Ġyuan4Ġ":3312,"Ġceng2":3313,"zu3Ġcheng2Ġ":3314,"chao1Ġguo4Ġ":3315,"zuo4Ġpin3Ġ":3316,"Ġma3":3317,"Ġge2Ġ":3318,"Ġyin1Ġyue4Ġ":3319,"mao4Ġ":3320,"Ġke1Ġ":3321,"Ġquan2Ġguo2Ġ":3322,"xiong2Ġ":3323,"zai3Ġ":3324,"ĠS":3325,"hu1Ġ":3326,"hui4ĠdeĠ":3327,"ji4ĠdeĠ":3328,"zong3Ġtong3Ġ":3329,"Ġsi4Ġ":3330,"suan4Ġ":3331,"Ġzhe4Ġxie1Ġ":3332,"Ġwei4ĠleĠ":3333,"Ġhou4Ġlai2Ġ":3334,"yu2Ġshi4Ġ":3335,"ĠĠĠS":3336,"Ġpu3Ġ":3337,"Ġzhang3Ġ":3338,"Ġshou4Ġ":3339,"10Ġ":3340,"Ġcheng2Ġgong1Ġ":3341,"Ġtai4Ġ":3342,"fa1Ġbu4Ġ":3343,"da4Ġli4Ġ":3344,"ti2Ġchu1Ġ":3345,"Ġli4Ġya4Ġ":3346,"Ġ000":3347,"Ġyi4Ġyuan2Ġ":3348,"Ġshe4Ġyou3Ġ":3349,"Ġyin1Ġci3":3350,"yun4Ġdong4Ġyuan2Ġ":3351,"yao1Ġqiu2Ġ":3352,"han2Ġguo2Ġ":3353,"bu4Ġzai4Ġ":3354,"ni2Ġya4":3355,"you3ĠdeĠ":3356,"pin2Ġ":3357,"ĠĠĠdeĠ":3358,"pu2Ġ":3359,"zao4Ġcheng2Ġ":3360,"Ġ17":3361,"ou1Ġzhou1Ġ":3362,"qiu1Ġ":3363,"cai3Ġyong4Ġ":3364,"xiao3Ġxing2Ġ":3365,"Ġgong1Ġyuan2Ġ":3366,"jia1ĠdeĠ":3367,"xing4ĠdeĠ":3368,"sheng1ĠdeĠ":3369,"9Ġ":3370,"ĠdeĠyi2Ġge4":3371,"Ġri4Ġzai4Ġ":3372,"dang1Ġshi2Ġ":3373,"ba3Ġ":3374,"kong4Ġ":3375,"ren2Ġwu4Ġ":3376,"feng4Ġ":3377,"Ġci3Ġwai4Ġ":3378,"Ġsui2":3379,"gong4Ġchan3Ġ":3380,"Ġla1Ġ":3381,"ĠzhĠ":3382,"kan4Ġ":3383,"Ġcong2":3384,"Ġwo3Ġ":3385,"wan1Ġ":3386,"Ġshi4Ġhe2Ġ":3387,"2010Ġnian2Ġ":3388,"Ġling4":3389,"Ġsha1Ġ":3390,"Ġgen1Ġju4Ġ":3391,"ĠdeĠbu4Ġ":3392,"ma3Ġwei4Ġ":3393,"xue2Ġjia1Ġ":3394,"you2Ġxi4Ġ":3395,"ĠB":3396,"Ġnv3Ġ":3397,"Ġti3Ġ":3398,"song1Ġ":3399,"fan4Ġwei2Ġ":3400,"Ġbu4Ġtong2Ġ":3401,"kai1Ġfa1Ġ":3402,"dun1Ġ":3403,"she4Ġji4Ġ":3404,"mao2Ġ":3405,"san1Ġnian2Ġ":3406,"chao1Ġ":3407,"qu3Ġde2Ġ":3408,"Ġke3Ġ":3409,"ĠdeĠji1Ġ":3410,"sai4Ġshi4Ġ":3411,"xiong1Ġ":3412,"Ġxing2Ġcheng2Ġ":3413,"ĠĠĠdi4Ġli3Ġ":3414,"ĠĠĠshi4Ġ":3415,"Ġyi2Ġ":3416,"zi4Ġzhi4Ġ":3417,"chan3Ġsheng1Ġ":3418,"Ġwu4Ġ":3419,"ĠĠĠA":3420,"a1Ġer3Ġ":3421,"Ġsui4Ġ":3422,"yao2Ġ":3423,"ding3Ġ":3424,"wen1Ġ":3425,"ĠdeĠji4Ġ":3426,"jie2Ġmu4Ġ":3427,"shu1Ġji4Ġ":3428,"Ġbing4Ġyu2Ġ":3429,"Ġ0":3430,"dou1Ġshi4Ġ":3431,"ni3Ġ":3432,"chong2Ġxin1Ġ":3433,"xi4Ġtong3":3434,"ĠĠĠC":3435,"zan4Ġ":3436,"lve4Ġ":3437,"Ġshe4Ġhui4Ġ":3438,"zhong4Ġyao4":3439,"Ġliang3Ġ":3440,"chun1Ġ":3441,"li3ĠdeĠ":3442,"bu2Ġshi4Ġ":3443,"Ġdai4Ġbiao3Ġ":3444,"yi1Ġnian2Ġ":3445,"Ġxiang1Ġgang3Ġ":3446,"dian4Ġying3":3447,"Ġsi1Ġte4Ġ":3448,"guan1Ġyu2Ġ":3449,"zhui1Ġ":3450,"dang4Ġ":3451,"Ġna4Ġ":3452,"jue2Ġse4Ġ":3453,"Ġfu2":3454,"jiao1Ġtong1Ġ":3455,"lang3Ġ":3456,"Ġyou2Ġxi4Ġ":3457,"da4Ġxue2Ġ":3458,"ji2ĠdeĠ":3459,"mi2Ġ":3460,"ge1Ġqu3Ġ":3461,"chu2ĠleĠ":3462,"Ġchu1Ġxian4Ġ":3463,"2020Ġnian2Ġ":3464,"tao3Ġ":3465,"Ġjie2":3466,"Ġzhi4Ġzuo4Ġ":3467,"Ġda4Ġxue2":3468,"ping2Ġjun1Ġ":3469,"Ġde2Ġguo2Ġ":3470,"xian3Ġshi4Ġ":3471,"Ġchen2Ġ":3472,"hua2Ġmin2Ġguo2Ġ":3473,"Ġshen1Ġ":3474,"Ġnian2Ġzai4Ġ":3475,"Ġzhong1Ġhua2Ġren2Ġmin2Ġgong4Ġhe2Ġguo2Ġ":3476,"kuo4Ġ":3477,"kong3Ġ":3478,"ĠP":3479,"hou4Ġzai4Ġ":3480,"miao2Ġ":3481,"Ġnian2Ġdai4":3482,"Ġjian1Ġ":3483,"Ġliang3":3484,"er4Ġnian2Ġ":3485,"xia4ĠdeĠ":3486,"yan3Ġyuan2Ġ":3487,"Ġke4Ġsi1Ġ":3488,"de2Ġguo2Ġ":3489,"xiang2Ġ":3490,"Ġ1Ġ":3491,"wei2Ġyi1Ġ":3492,"qing4Ġ":3493,"cao3Ġ":3494,"Ġbao3Ġ":3495,"dang1Ġdi4Ġ":3496,"guo2Ġji4Ġ":3497,"dui4ĠdeĠ":3498,"bo2Ġwu4Ġ":3499,"hun1Ġ":3500,"Ġjian4Ġli4Ġ":3501,"Ġdi4Ġguo2Ġ":3502,"Ġfei1Ġ":3503,"Ġbu4Ġyu2Ġ":3504,"fan3Ġdui4Ġ":3505,"qi1ĠdeĠ":3506,"duan1Ġ":3507,"wu4ĠdeĠ":3508,"zou3Ġ":3509,"xue4Ġ":3510,"yin1Ġwei4Ġ":3511,"qu1Ġyu4Ġ":3512,"qu4Ġshi4Ġ":3513,"Ġ1":3514,"yi1Ġbu4Ġfen4Ġ":3515,"ba2Ġgao1Ġ":3516,"wo4Ġ":3517,"que1Ġ":3518,"Ġchang2Ġ":3519,"2001Ġnian2Ġ":3520,"guan3Ġxia2Ġ":3521,"du4Ġwei4Ġ":3522,"zheng4Ġzhi4Ġren2Ġwu4Ġ":3523,"kuan3Ġ":3524,"ĠĠĠP":3525,"ni2Ġya4Ġ":3526,"Ġka3Ġ":3527,"hai2Ġyou3Ġ":3528,"peng2Ġ":3529,"ĠĠĠren2Ġkou3Ġ":3530,"Ġdang1Ġdi4Ġ":3531,"zui4Ġzhong1Ġ":3532,"ĠãĤ":3533,"Ġ2":3534,"Ġta1Ġshi4Ġ":3535,"chi4Ġ":3536,"Ġbu4Ġdui4Ġ":3537,"lai2Ġzi4Ġ":3538,"Ġyue1Ġ":3539,"ĠD":3540,"Ġdan1Ġ":3541,"bi3Ġsai4":3542,"Ġxing2Ġshi4Ġ":3543,"zhi2Ġye4Ġ":3544,"qian2Ġwang3Ġ":3545,"ding4ĠdeĠ":3546,"Ġwei1Ġ":3547,"Ġfa1Ġ":3548,"quan2Ġguo2Ġ":3549,"ba1Ġshi4Ġ":3550,"yi1Ġbu4Ġ":3551,"ĠdeĠyuan2Ġ":3552,"Ġzheng4Ġfu3":3553,"zhong4Ġyao4Ġ":3554,"ĠT":3555,"diao4Ġcha2Ġ":3556,"Ġchu2Ġ":3557,"Ġlin2Ġ":3558,"Ġzhi1Ġjian1Ġ":3559,"bian1Ġma3Ġwei4Ġ":3560,"Ġhuang2Ġ":3561,"Ġnian2Ġjian1Ġ":3562,"Ġxue2Ġming2Ġ":3563,"Ġ14":3564,"xue2Ġxiao4Ġ":3565,"zhao1Ġ":3566,"zhu3Ġxi2Ġ":3567,"xuan3Ġju3Ġ":3568,"Ġri4Ġzhi4Ġ":3569,"gai3Ġwei2Ġ":3570,"zu3Ġzhi1":3571,"Ġnei4Ġ":3572,"zhu3Ġjiao4Ġ":3573,"ĠĠĠB":3574,"fa2Ġ":3575,"zi1Ġliao4Ġ":3576,"hai3Ġjun1Ġ":3577,"Ġjing4Ġ":3578,"gong1Ġshi4Ġ":3579,"Ġjun1Ġshi4Ġ":3580,"ĠdeĠda4Ġ":3581,"Ġren2Ġkou3Ġmi4Ġdu4Ġ":3582,"chu3Ġli3Ġ":3583,"sun1Ġ":3584,"zai1Ġ":3585,"ĠdeĠyi4Ġ":3586,"kang4Ġ":3587,"fang1Ġfa3Ġ":3588,"Ġduo1":3589,"Ġãģ":3590,"fu4Ġze2Ġ":3591,"Ġri4Ġben3":3592,"wu1Ġke4Ġlan2Ġ":3593,"ĠĠĠyu3Ġ":3594,"Ġbo1Ġ":3595,"guan4Ġ":3596,"shu4ĠdeĠ":3597,"Ġyou3Ġxian4":3598,"dai4Ġbiao3":3599,"Ġge4Ġren2Ġ":3600,"Ġsan1":3601,"wu2Ġfa3Ġ":3602,"ying3Ġxiang3":3603,"Ġji4Ġshu4Ġ":3604,"Ġsheng4Ġ":3605,"Ġshi4Ġyou2Ġ":3606,"jie1Ġrang3":3607,"zui4Ġgao1Ġ":3608,"ju1Ġmin2Ġ":3609,"Ġmei2Ġ":3610,"Ġhua4Ġ":3611,"Ġkai1Ġ":3612,"pa4Ġ":3613,"xi4Ġlie4Ġ":3614,"qi2Ġzhong1Ġ":3615,"Ġgai3Ġ":3616,"lu4ĠdeĠ":3617,"Ġjie4Ġ":3618,"Ġhong2Ġ":3619,"Ġ2Ġ":3620,"xue2Ġsheng1Ġ":3621,"Ġzhi1Ġchi2Ġ":3622,"zi4Ġyou2Ġ":3623,"wen3Ġ":3624,"biao1Ġzhun3Ġ":3625,"Ġze2":3626,"xie2Ġhui4Ġ":3627,"shu4Ġliang4":3628,"an1Ġquan2Ġ":3629,"fan3Ġying4Ġ":3630,"ke3Ġyi3":3631,"qie4Ġ":3632,"hui4Ġzai4Ġ":3633,"yao1Ġ":3634,"ken3Ġ":3635,"shen4Ġzhi4Ġ":3636,"bi3Ġli4Ġ":3637,"ye2Ġ":3638,"tong3Ġzhi4Ġ":3639,"lian2Ġmeng2Ġ":3640,"chuang4Ġzuo4Ġ":3641,"zhu3Ġren4Ġ":3642,"Ġsui2Ġ":3643,"ĠĠĠben3Ġ":3644,"Ġxin1":3645,"ĠM":3646,"dong1Ġbu4Ġ":3647,"ĠdeĠyi2Ġge4Ġshi4Ġzhen4Ġ":3648,"Ġãĥ":3649,"Ġshi4Ġyi2Ġge4Ġ":3650,"Ġnan2":3651,"Ġgong1Ġsi1":3652,"gai1Ġguo2Ġ":3653,"Ġfu4Ġze2Ġ":3654,"kai3Ġ":3655,"fan2Ġ":3656,"ya3Ġ":3657,"Ġdi4Ġsan1Ġ":3658,"Ġqi3Ġ":3659,"ti3Ġyu4Ġ":3660,"Ġdi4Ġshi2Ġ":3661,"Ġ12":3662,"ĠĠĠxing2Ġzheng4Ġ":3663,"jie2Ġgou4Ġ":3664,"Ġsu1Ġ":3665,"Ġbu4Ġguo4Ġ":3666,"Ġ3":3667,"Ġdao4ĠdeĠ":3668,"shi2Ġnian2Ġ":3669,"niu2Ġ":3670,"qing2Ġkuang4Ġ":3671,"neng2Ġli4Ġ":3672,"mou3Ġ":3673,"nan2ĠziĠ":3674,"zhong1Ġshi4Ġ":3675,"qing2Ġkuang4":3676,"suo1Ġ":3677,"si4Ġnian2Ġ":3678,"xi1Ġbu4Ġ":3679,"gong1Ġbu4Ġ":3680,"sheng1Ġhuo2Ġ":3681,"jie1Ġshou4Ġ":3682,"Ġge1Ġ":3683,"Ġshui3Ġ":3684,"nv3Ġzi3Ġ":3685,"Ġao4":3686,"lu4Ġxian4Ġ":3687,"cheng2Ġli4Ġ":3688,"Ġyang2Ġ":3689,"Ġzhong1Ġxue2Ġ":3690,"ĠĠĠformulaĠ":3691,"gu1Ġ":3692,"wan4Ġ":3693,"mian4ĠdeĠ":3694,"huan1Ġ":3695,"Ġjin4Ġru4Ġ":3696,"AĠ":3697,"yi4Ġshi4Ġ":3698,"Ġer3Ġsi1Ġ":3699,"Ġzhu3Ġyao4Ġ":3700,"lian2Ġsai4Ġ":3701,"bei3Ġjing1Ġ":3702,"ĠE":3703,"Ġba1":3704,"you3Ġshi2Ġ":3705,"Ġao4Ġ":3706,"Ġyi4Ġhui4Ġ":3707,"Ġming2":3708,"guang3Ġdong1Ġ":3709,"Ġke3Ġyi3Ġ":3710,"duo2Ġ":3711,"hao2Ġ":3712,"ĠĠĠjia1Ġ":3713,"lao2Ġ":3714,"jian4Ġzhu4Ġ":3715,"ĠĠĠthe":3716,"ya4Ġzhou1Ġ":3717,"dao3ĠdeĠ":3718,"Ġguo2Ġmin2Ġ":3719,"ye3Ġshi4Ġ":3720,"Ġbing4Ġqie3":3721,"ĠĠĠG":3722,"Ġtai2Ġ":3723,"na2Ġda4Ġ":3724,"dong4Ġwu4Ġ":3725,"tai4Ġping2Ġ":3726,"Ġsuo3Ġyi3Ġ":3727,"di4Ġwei4Ġ":3728,"Ġzhe4Ġshi4Ġ":3729,"ba2Ġgao1Ġdu4Ġ":3730,"da2Ġdao4Ġ":3731,"zi4Ġji3ĠdeĠ":3732,"li3Ġshi4Ġ":3733,"zhu2Ġjian4Ġ":3734,"zhuan4Ġ":3735,"ran3Ġ":3736,"dai4ĠdeĠ":3737,"gui3Ġ":3738,"ban3Ġben3Ġ":3739,"xiang4Ġmu4Ġ":3740,"xu3Ġduo1":3741,"zhe3ĠdeĠ":3742,"jiao4Ġshou4Ġ":3743,"2008Ġnian2Ġ":3744,"Ġhai2Ġ":3745,"Ġxue2Ġxiao4Ġ":3746,"Ġda4":3747,"fei1Ġchang2Ġ":3748,"wu1Ġke4Ġlan2":3749,"2009Ġnian2Ġ":3750,"Ġxi1Ġya4Ġ":3751,"qing1Ġnian2Ġ":3752,"Ġer4Ġ":3753,"Ġzong3":3754,"Ġhu2Ġ":3755,"Ġzhu3Ġyao4":3756,"ĠÃ":3757,"la1Ġsi1Ġ":3758,"ĠĠĠgen1Ġju4Ġ":3759,"yi1Ġshi4Ġ":3760,"Ġcheng2Ġwei2":3761,"ri4Ġben3":3762,"mo2Ġshi4Ġ":3763,"zhe2Ġ":3764,"niao3Ġ":3765,"wen2Ġwu4Ġ":3766,"Ġta1ĠmenĠdeĠ":3767,"ĠG":3768,"sui4Ġ":3769,"Ġyi4Ġshu4Ġ":3770,"Ġbing4Ġqie3Ġ":3771,"Ġmu3Ġ":3772,"zhi3Ġyou3Ġ":3773,"cha1Ġ":3774,"Ġ4":3775,"Ġji4Ġlu4Ġ":3776,"ĠF":3777,"Ġai4Ġ":3778,"Ġzhou1ĠdeĠ":3779,"ĠĠĠT":3780,"hang2Ġkong1Ġ":3781,"Ġyu2Ġshi4Ġ":3782,"wen2Ġxue2Ġ":3783,"fen1Ġwei2Ġ":3784,"ĠĠĠof":3785,"Ġbo2Ġ":3786,"Ġmin2Ġ":3787,"Ġqi2Ġshi4Ġ":3788,"Ġqi2Ġyu2Ġ":3789,"suan1Ġ":3790,"tong1Ġguo4":3791,"deng3Ġren2Ġ":3792,"zhi3Ġchu1Ġ":3793,"hui3Ġ":3794,"28Ġri4Ġ":3795,"cang2Ġ":3796,"cuo4Ġ":3797,"shuai4Ġ":3798,"ren2Ġkou3Ġpu3Ġ":3799,"zhi2Ġxing2Ġ":3800,"tong2Ġshi2Ġ":3801,"hun4Ġ":3802,"zha4Ġ":3803,"zhi2Ġjie1Ġ":3804,"Ġqiu2Ġdui4Ġ":3805,"Ġli4Ġya4":3806,"yan3Ġchu1Ġ":3807,"jin3Ġbiao1Ġ":3808,"aĠ":3809,"Ġjin1":3810,"gai1Ġdi4Ġ":3811,"mĠ":3812,"Ġ13":3813,"ge2Ġlan2Ġ":3814,"2016Ġnian2Ġ":3815,"huo2Ġdong4":3816,"zhe4Ġyi1Ġ":3817,"ren4Ġwei2":3818,"jin4Ġru4Ġ":3819,"Ġzhi1Ġjian1ĠdeĠ":3820,"Ġgong1Ġkai1Ġ":3821,"Ġdang1Ġzhong1Ġ":3822,"gong4Ġtong2Ġ":3823,"Ġci4Ġ":3824,"Ġyong4Ġ":3825,"xia4Ġji4Ġ":3826,"Ġdan4Ġzai4Ġ":3827,"zhan4Ġzheng1Ġ":3828,"wu3Ġnian2Ġ":3829,"jiang1Ġjun1Ġ":3830,"chou2Ġ":3831,"ĠĠĠF":3832,"le4Ġbu4Ġ":3833,"mei2Ġti3Ġ":3834,"ti3ĠdeĠ":3835,"ĠĠĠM":3836,"che1Ġzhan4":3837,"Ġ5":3838,"tui1Ġchu1Ġ":3839,"jiao4Ġyu4":3840,"yun3Ġ":3841,"zhe4Ġxie1Ġ":3842,"meng4Ġ":3843,"die2Ġ":3844,"Ġshi4Ġwu4Ġ":3845,"ti4Ġ":3846,"po1Ġ":3847,"miao4Ġ":3848,"li2Ġkai1Ġ":3849,"Ġling4Ġwai4Ġ":3850,"Ġ6":3851,"huan2Ġjing4Ġ":3852,"2012Ġnian2Ġ":3853,"lin2Ġpi3":3854,"teng2Ġ":3855,"Ġdi4Ġer4":3856,"shang1Ġye4Ġ":3857,"zhu2Ġ":3858,"2011Ġnian2Ġ":3859,"chuan2Ġtong3Ġ":3860,"ĠĠĠnian2":3861,"15Ġri4Ġ":3862,"guan1ĠdeĠ":3863,"dan1Ġqu1Ġ":3864,"Ġyin3Ġ":3865,"san1Ġshi2Ġ":3866,"jun1Ġshi4Ġ":3867,"liang4ĠdeĠ":3868,"jie1Ġdao4Ġ":3869,"san4Ġ":3870,"Ġzhe4ĠgeĠ":3871,"ji1ĠdeĠ":3872,"qian2ĠdeĠ":3873,"ren2Ġzai4Ġ":3874,"nei4Ġrong2Ġ":3875,"zang4Ġ":3876,"dong4Ġhua4Ġ":3877,"sai4Ġji4Ġ":3878,"gao1ĠdeĠ":3879,"bo2Ġshi4Ġ":3880,"du4ĠdeĠ":3881,"meĠ":3882,"Ġwei4Ġren2Ġ":3883,"yin2Ġhang2Ġ":3884,"xuan3Ġju3":3885,"Ġwei4Ġzhi4Ġ":3886,"cheng2Ġzhong1Ġ":3887,"ming4Ġming2Ġ":3888,"deng3Ġdi4Ġ":3889,"Ġgong1Ġlu4Ġ":3890,"Ġgu4Ġ":3891,"sun3Ġ":3892,"re4Ġdai4Ġ":3893,"bei3Ġjing1":3894,"Ġshi2Ġji4Ġ":3895,"yun4Ġdong4Ġhui4Ġ":3896,"xuan3Ġze2Ġ":3897,"Ġda4Ġli4Ġ":3898,"Ġer2Ġzai4Ġ":3899,"yuan2Ġnian2Ġ":3900,"Ġhan4Ġ":3901,"bao4Ġgao4Ġ":3902,"Ġmu4Ġqian2Ġ":3903,"ĠdeĠhe2Ġ":3904,"Ġwu2":3905,"bo1Ġchu1Ġ":3906,"bang3Ġ":3907,"zui4Ġjia1Ġ":3908,"ĠĠĠju4Ġ":3909,"zong1Ġjiao4Ġ":3910,"xue2Ġwei4Ġ":3911,"tu3Ġdi4Ġ":3912,"Ġde2Ġdao4Ġ":3913,"zui4Ġhou4Ġ":3914,"wen2Ġhua4":3915,"tuan2Ġti3Ġ":3916,"25Ġri4Ġ":3917,"ĠH":3918,"eĠ":3919,"Ġdi4Ġfang1Ġ":3920,"gui3Ġdao4Ġ":3921,"luan4Ġ":3922,"Ġwei4Ġdi4Ġ":3923,"jing1Ġli4Ġ":3924,"xi4ĠdeĠ":3925,"Ġzhi1Ġqian2Ġ":3926,"Ġ5Ġ":3927,"sheng3ĠdeĠyi2Ġge4Ġshi4Ġzhen4Ġ":3928,"Ġzhan4":3929,"Ġye4Ġ":3930,"Ġshi4Ġyi1Ġzhong3Ġ":3931,"Ġshi4Ġwei4Ġyu2Ġmei3Ġguo2Ġ":3932,"Ġmo2Ġ":3933,"ĠĠĠH":3934,"Ġqi4Ġ":3935,"ji2Ġzhong1Ġ":3936,"Ġge4Ġyue4Ġ":3937,"Ġjun1ĠdeĠ":3938,"si3Ġwang2Ġ":3939,"xiang1Ġguan1Ġ":3940,"30Ġri4Ġ":3941,"fen1Ġbie2":3942,"Ġbao1Ġkuo4":3943,"Ġji1Ġgou4Ġ":3944,"Ġmi3":3945,"wei4ĠdeĠ":3946,"shou3Ġci4Ġ":3947,"Ġxing4Ġ":3948,"ao4Ġlin2Ġpi3":3949,"ling3Ġdao3Ġ":3950,"Ġyou3Ġguan1Ġ":3951,"Ġhai3Ġba2Ġgao1Ġdu4Ġ":3952,"Ġyi1Ġxie1Ġ":3953,"Ġtong2Ġnian2Ġ":3954,"huai2Ġ":3955,"2014Ġnian2Ġ":3956,"yong4ĠdeĠ":3957,"ĠĠĠwei4Ġ":3958,"Ġjue2Ġ":3959,"20Ġri4Ġ":3960,"Ġxing2Ġdong4Ġ":3961,"Ġzai4Ġyi1Ġ":3962,"ji1Ġyu2Ġ":3963,"xue3Ġ":3964,"Ġzhong4Ġ":3965,"Ġzhong1Ġhua2Ġmin2Ġguo2Ġ":3966,"shui3Ġyu4Ġ":3967,"11Ġ":3968,"10Ġri4Ġ":3969,"bian4Ġhua4Ġ":3970,"shang4Ġwei4Ġ":3971,"Ġji2Ġtuan2":3972,"2018Ġnian2Ġ":3973,"Ġji4Ġxu4Ġ":3974,"zhi1Ġyi1Ġ":3975,"Ġshi2Ġdai4Ġ":3976,"chu3Ġyu2Ġ":3977,"UTCĠ":3978,"gong4Ġhe2Ġ":3979,"Ġbu4Ġzhang3Ġ":3980,"zi4Ġji3Ġ":3981,"jie2Ġshu4Ġ":3982,"2019Ġnian2Ġ":3983,"Ġzi4Ġji3":3984,"zhi1Ġchi2Ġ":3985,"2005Ġnian2Ġ":3986,"guo4Ġcheng2Ġ":3987,"Ġhou4Ġlai2":3988,"Ġbai2Ġ":3989,"Ġwai4Ġ":3990,"shun4Ġ":3991,"min2Ġzu2Ġ":3992,"2015Ġnian2Ġ":3993,"kong1Ġjian1Ġ":3994,"Ġ8":3995,"shui4Ġ":3996,"bu2Ġhui4Ġ":3997,"ye4Ġyu2Ġ":3998,"ĠziĠ":3999,"Ġru2":4000,"tou4Ġguo4Ġ":4001,"nei4Ġbu4Ġ":4002,"mei4Ġ":4003,"2013Ġnian2Ġ":4004,"Ġcheng1Ġ":4005,"jie3Ġfang4":4006,"Ġ7":4007,"Ġzhi2Ġdao4Ġ":4008,"Ġyi4Ġzhi2Ġ":4009,"Ġsi4":4010,"xin1Ġwen2Ġ":4011,"fen1Ġbu4Ġ":4012,"Ġjing3Ġ":4013,"gen1Ġju4":4014,"Ġzhou1Ġshi4Ġ":4015,"pi1Ġping2Ġ":4016,"ĠĠĠtheĠĠĠ":4017,"Ġji2Ġtuan2Ġ":4018,"2007Ġnian2Ġ":4019,"Ġai4":4020,"di4Ġqu1Ġ":4021,"Ġjiu4":4022,"ĠĠĠzhe4Ġ":4023,"ta1Ġmen":4024,"Ġshu3Ġ":4025,"Ġhe2Ġnan2Ġ":4026,"Ġshi4Ġshi2Ġ":4027,"Ġyou3Ġxian4Ġgong1Ġsi1Ġ":4028,"wan2Ġjia1Ġ":4029,"gui1Ġding4Ġ":4030,"20Ġ":4031,"ge2Ġming4Ġ":4032,"Ġjia1Ġru4Ġ":4033,"wan2Ġquan2Ġ":4034,"Ġshen2Ġ":4035,"cheng2Ġwei2Ġ":4036,"Ġtang2Ġ":4037,"xi1Ġban1Ġ":4038,"ĠÐ":4039,"zi1Ġge2Ġ":4040,"tĠ":4041,"26Ġri4Ġ":4042,"da4Ġlu4Ġ":4043,"ĠĠĠgai1Ġ":4044,"2017Ġnian2Ġ":4045,"ao4Ġlin2Ġpi3Ġke4Ġ":4046,"Ġda4Ġhui4Ġ":4047,"24Ġri4Ġ":4048,"kuan1Ġ":4049,"ĠK":4050,"zai4ĠdeĠ":4051,"za2Ġzhi4Ġ":4052,"Ġmo4Ġ":4053,"Ġzhe4Ġzhong3Ġ":4054,"ying1Ġyu3Ġ":4055,"pu2Ġtao2Ġ":4056,"lu4Ġdi4Ġ":4057,"ĠĠĠyi1Ġ":4058,"he2ĠdeĠ":4059,"shang4Ġhai3Ġ":4060,"Ġying1Ġguo2Ġ":4061,"hao2Ġmi3Ġ":4062,"Ġyu3Ġyan2Ġ":4063,"qi3Ġye4Ġ":4064,"qi2Ġta1":4065,"fang1ĠdeĠ":4066,"Ġ3Ġ":4067,"hou4Ġyi1Ġ":4068,"luo2Ġma3Ġ":4069,"dĠĠĠ":4070,"wen4Ġti2":4071,"Ġke3":4072,"san1Ġge4Ġ":4073,"Ġcheng2Ġqu1Ġ":4074,"se4ĠdeĠ":4075,"2006Ġnian2Ġ":4076,"chuan2Ġtong3":4077,"Ġshi4Ġfa3Ġguo2Ġ":4078,"yi1ĠdeĠ":4079,"18Ġri4Ġ":4080,"Ġtou2Ġ":4081,"wu4Ġzhong3Ġ":4082,"ĠN":4083,"Ġwei4Ġyu2Ġgai1Ġguo2Ġ":4084,"Ġli3Ġsi1Ġ":4085,"jing4Ġnei4Ġ":4086,"Ġtai2Ġwan1Ġ":4087,"Ġha1Ġ":4088,"Ġbu4Ġtong2ĠdeĠ":4089,"Ġ9":4090,"wu4Ġli3Ġ":4091,"Ġmo4":4092,"duo1ĠdeĠ":4093,"shu4Ġwei4Ġ":4094,"Ġdai4Ġbiao3":4095,"biao3Ġxian4Ġ":4096,"ĠĠĠD":4097,"Ġshi4Ġjie4Ġda4Ġ":4098,"Ġyao4Ġ":4099,"sheng3Ġji2Ġ":4100,"fa3Ġlv4Ġ":4101,"miao2Ġshu4Ġ":4102,"guan1Ġyuan2Ġ":4103,"gan4Ġ":4104,"jing1Ġguo4Ġ":4105,"Ġlu2Ġ":4106,"ba4Ġ":4107,"chang1Ġ":4108,"Ġzui4Ġhou4Ġ":4109,"Ġyi4Ġban1Ġ":4110,"po4Ġhuai4":4111,"Ġa1":4112,"Ġguo2Ġjia1":4113,"ying2Ġde2Ġ":4114,"Ġsui2Ġhou4Ġ":4115,"cai4Ġ":4116,"zheng4Ġzai4Ġ":4117,"bao1Ġhan2Ġ":4118,"yĠ":4119,"Ġshi4Ġjian4":4120,"bo2Ġwu4Ġguan3Ġ":4121,"Ġgong1Ġji1Ġ":4122,"shen4Ġ":4123,"aĠĠĠ":4124,"ce4Ġshi4Ġ":4125,"chang3ĠdeĠ":4126,"21Ġ":4127,"Ġwei4Ġzhong1Ġ":4128,"Ġli4Ġyong4Ġ":4129,"bu4Ġhe2Ġ":4130,"na2Ġ":4131,"ze2Ġshi4Ġ":4132,"Ġchao2Ġ":4133,"nie4Ġ":4134,"fei1Ġji1Ġ":4135,"Ġfen1Ġbu4Ġyu2Ġ":4136,"chun2Ġ":4137,"zhuan1Ġye4Ġ":4138,"shi3ĠdeĠ":4139,"zheng1Ġyi4Ġ":4140,"27Ġri4Ġ":4141,"16Ġri4Ġ":4142,"fa3Ġyuan4Ġ":4143,"Ġsui1Ġran2":4144,"Ġ2001Ġnian2Ġ":4145,"Ġdi4Ġqu1":4146,"21Ġri4Ġ":4147,"yi4Ġshi2Ġ":4148,"yong1Ġ":4149,"17Ġri4Ġ":4150,"zao1Ġdao4Ġ":4151,"Ġshi4Ġyi4Ġ":4152,"Ġsheng1Ġhuo2Ġ":4153,"12Ġri4Ġ":4154,"Ġbei4Ġcheng1Ġwei2Ġ":4155,"Ġchong2Ġ":4156,"ding4Ġyi4Ġ":4157,"Ġzhong1Ġxin1":4158,"Ġda4Ġqu1Ġ":4159,"8Ġri4Ġ":4160,"zong1Ġhe2Ġ":4161,"Ġzhan4Ġzheng1Ġ":4162,"xue2ĠdeĠ":4163,"Ġxian4Ġshi2Ġ":4164,"Ġzhong1Ġgong4":4165,"19Ġri4Ġ":4166,"sou1Ġ":4167,"ji2Ġwei4Ġ":4168,"ĠL":4169,"23Ġri4Ġ":4170,"2021Ġnian2Ġ":4171,"huang2Ġdi4Ġ":4172,"ĠdeĠzuo4Ġ":4173,"zhi3Ġshi4Ġ":4174,"2022Ġnian2Ġ":4175,"a1Ġla1Ġ":4176,"11Ġri4Ġ":4177,"Ġzhu1Ġ":4178,"ou1Ġzhou1":4179,"jiang1Ġqi2Ġ":4180,"Ġbing4Ġbu4Ġ":4181,"yuan2Ġyu2Ġ":4182,"fang1Ġxiang4Ġ":4183,"liu4Ġnian2Ġ":4184,"zhan4ĠdeĠ":4185,"e2Ġluo2Ġ":4186,"ĠĠĠyu2Ġ":4187,"chu1Ġxian4Ġ":4188,"quan2Ġli4Ġ":4189,"nao3Ġ":4190,"lie4Ġche1":4191,"gui1Ġmo2Ġ":4192,"22Ġri4Ġ":4193,"7Ġri4Ġ":4194,"29Ġri4Ġ":4195,"lie4ĠdeĠ":4196,"zui4Ġda4ĠdeĠ":4197,"duo1Ġshu4Ġ":4198,"Ġci4":4199,"xiang4ĠdeĠ":4200,"xu1Ġyao4":4201,"hai2Ġshi4Ġ":4202,"Ġlong2Ġ":4203,"yu4ĠdeĠ":4204,"neng2Ġgou4Ġ":4205,"yue1Ġhan4Ġ":4206,"ĠĠĠci3Ġ":4207,"Ġzhe4Ġxie1":4208,"ding4Ġwei4Ġ":4209,"9Ġri4Ġ":4210,"tong3Ġji4Ġ":4211,"Ġxiang1Ġgang3":4212,"Ġzu3Ġ":4213,"sang1Ġ":4214,"ĠĠĠzheng4Ġzhi4Ġ":4215,"Ġzai4Ġzhe4Ġ":4216,"xin4Ġxi1Ġ":4217,"lian2Ġmeng2":4218,"yang4ĠdeĠ":4219,"Ġxian4Ġzhi4Ġ":4220,"gong1ĠdeĠ":4221,"ju3Ġban4":4222,"Ġfen1Ġbie2":4223,"qiu2Ġdui4Ġ":4224,"hong1Ġ":4225,"cha2ĠdeĠ":4226,"14Ġri4Ġ":4227,"ling4Ġyi1Ġ":4228,"chang2Ġshi4Ġ":4229,"mei3Ġguo2Ġren2Ġkou3Ġpu3Ġ":4230,"Ġzhang1":4231,"5Ġri4Ġ":4232,"Ġlu4":4233,"niu3Ġyue1":4234,"zu3Ġhe2Ġ":4235,"Ġhuo4Ġde2":4236,"Ġ10":4237,"deĠĠĠ":4238,"lin2Ġshi2Ġ":4239,"3Ġri4Ġ":4240,"31Ġri4Ġ":4241,"Ġzhong1Ġbu4Ġ":4242,"wei4Ġshi4Ġ":4243,"dong3Ġshi4Ġ":4244,"ji1Ġdi4Ġ":4245,"ge1Ġshou3Ġ":4246,"dong1Ġnan2Ġ":4247,"hai3Ġba2":4248,"bang1Ġzhu4Ġ":4249,"ĠdeĠshi4Ġzhen4Ġ":4250,"ĠĠĠzhong1Ġ":4251,"Ġru4Ġ":4252,"Ġbao4Ġ":4253,"6Ġri4Ġ":4254,"pai1Ġshe4Ġ":4255,"mou2Ġ":4256,"Ġhua2Ġ":4257,"Ġyi4Ġda4Ġli4Ġ":4258,"Ġgong4Ġ":4259,"2000Ġnian2Ġ":4260,"Ġshe4Ġli4Ġ":4261,"2Ġri4Ġ":4262,"Ġliu2":4263,"Ġyi4Ġban1":4264,"Ġren2Ġkou3":4265,"ge4Ġren2Ġ":4266,"she4Ġyou3Ġ":4267,"ĠdeĠzhong1Ġ":4268,"4Ġri4Ġ":4269,"Ġ4Ġ":4270,"sheng1Ġya2Ġ":4271,"30Ġ":4272,"ĠO":4273,"yuan2Ġhe2Ġ":4274,"2004Ġnian2Ġ":4275,"Ġdi4Ġqu1ĠdeĠ":4276,"Ġxue2Ġsheng1Ġ":4277,"Ġdao3Ġzhi4Ġ":4278,"tie3Ġlu4":4279,"zu2Ġqiu2":4280,"zao3Ġqi1Ġ":4281,"Ġqi2Ġta1":4282,"feng2Ġ":4283,"cang1Ġ":4284,"13Ġri4Ġ":4285,"xiong1Ġdi4Ġ":4286,"sheng1Ġzai4Ġ":4287,"dong1Ġbei3Ġ":4288,"mu4Ġdi4Ġ":4289,"tong1Ġchang2Ġ":4290,"hui1Ġfu4Ġ":4291,"ruan3Ġ":4292,"ĠI":4293,"Ġshi4Ġchang3Ġ":4294,"Ġxue2Ġyuan4Ġ":4295,"Ġzhe4Ġyi1Ġ":4296,"Ġwo3":4297,"shao1Ġ":4298,"BĠ":4299,"shen1Ġfen4Ġ":4300,"ĠĠĠyou2Ġyu2Ġ":4301,"qu3Ġdai4Ġ":4302,"lian2Ġbang1Ġ":4303,"ge2Ġming4":4304,"zhi3Ġhui1Ġ":4305,"Ġbian4Ġ":4306,"Ġmei2Ġyou3Ġ":4307,"qing2Ġkuang4Ġxia4Ġ":4308,"ĠĠĠE":4309,"yi2Ġbu4Ġ":4310,"su1Ġlian2Ġ":4311,"Ġfu4":4312,"xie2Ġyi4Ġ":4313,"huang2Ġjia1Ġ":4314,"ke1Ġji4Ġ":4315,"bing3Ġ":4316,"fa1Ġxian4":4317,"zheng3Ġge4Ġ":4318,"ren2Ġhe2Ġ":4319,"Ġgong1Ġchi3Ġ":4320,"yao1Ġqiu2":4321,"pang2Ġ":4322,"dĠ":4323,"yan1Ġ":4324,"zhan1Ġ":4325,"chao1Ġji2Ġ":4326,"pan2Ġ":4327,"mao4Ġyi4Ġ":4328,"erĠ":4329,"yue4ĠdeĠ":4330,"zhang3ĠdeĠ":4331,"xue2Ġyuan4":4332,"fan3Ġying4":4333,"ju3Ġban4Ġ":4334,"hang2Ġkong1":4335,"xi2Ġji1Ġ":4336,"cui1Ġ":4337,"Ġye3Ġyou3Ġ":4338,"hua4Ġhe2Ġ":4339,"xiao3Ġshuo1Ġ":4340,"Ġdi4Ġli4Ġ":4341,"guan1Ġfang1Ġ":4342,"li4Ġhe2Ġ":4343,"nv3Ġxing4Ġ":4344,"Ġxi1Ġnan2Ġ":4345,"tu2Ġshu1Ġ":4346,"xian1Ġhou4Ġ":4347,"bi4Ġye4Ġ":4348,"tong3Ġyi1Ġ":4349,"Ġha1":4350,"Ġshu1Ġ":4351,"Ġgu4":4352,"Ġhei1Ġ":4353,"sai4ĠdeĠ":4354,"Ġbr":4355,"hou2Ġ":4356,"Ġyi3Ġjing1":4357,"Ġman4Ġ":4358,"za2Ġ":4359,"zun1Ġ":4360,"Ġwei1":4361,"Ġque4Ġ":4362,"Ġshuang1Ġ":4363,"Ġdong1":4364,"ĠbrĠ":4365,"xie2Ġzhu4Ġ":4366,"ci4Ġshi4Ġjie4Ġda4Ġ":4367,"lan3Ġ":4368,"Ġru2Ġguo3Ġ":4369,"shang4Ġshi4Ġ":4370,"Ġ6Ġ":4371,"qu1Ġhua4Ġ":4372,"fen1Ġxi1Ġ":4373,"yu3ĠdeĠ":4374,"Ġer3Ġsheng3Ġ":4375,"ren2Ġkou3Ġshu4Ġliang4":4376,"wen2Ġwu4Ġbao3Ġhu4Ġ":4377,"Ġhe2Ġyi1Ġ":4378,"Ġbu4Ġneng2Ġ":4379,"zi4Ġxing2Ġ":4380,"ting3Ġ":4381,"12Ġ":4382,"jie1Ġduan4Ġ":4383,"wu2Ġxian4Ġ":4384,"guang3Ġbo1Ġ":4385,"Ġben3":4386,"Ġyi3Ġlai2Ġ":4387,"Ġxi1Ġban1Ġ":4388,"ĠR":4389,"dan1Ġren4":4390,"Ġta1Ġceng2":4391,"chi2Ġxu4Ġ":4392,"tai2Ġbei3":4393,"Ġwu3":4394,"Ġcai2Ġ":4395,"gong4Ġchan3Ġdang3Ġ":4396,"guo2Ġhe2Ġ":4397,"Ġyi3Ġxia4Ġ":4398,"qi1Ġnian2Ġ":4399,"te4ĠdeĠ":4400,"dao3Ġyan3Ġ":4401,"Ġqie3":4402,"reng2Ġ":4403,"hou4Ġyu2Ġ":4404,"fa1Ġbiao3":4405,"yan3Ġchang4":4406,"zhu4Ġzai4Ġ":4407,"xia4Ġxia2":4408,"Ġqie3Ġ":4409,"tiao2Ġjian4Ġ":4410,"pin2Ġdao4Ġ":4411,"Ġgong1Ġzuo4":4412,"ye4ĠdeĠ":4413,"jiao1Ġyi4Ġ":4414,"hu3Ġ":4415,"Ġzai4Ġci4Ġ":4416,"shao4Ġnian2Ġ":4417,"lai4Ġ":4418,"jie2Ġshu4":4419,"Ġshi4Ġzhong1Ġguo2Ġ":4420,"Ġjiu3Ġ":4421,"bao4Ġdao4Ġ":4422,"Ġren2Ġkou3Ġmi4Ġdu4Ġwei4Ġ":4423,"qiu2Ġyuan2Ġ":4424,"0Ġ":4425,"Ġshi4Ġli4Ġ":4426,"ĠĠĠbu4Ġ":4427,"zao1Ġ":4428,"jue2Ġsai4Ġ":4429,"ying4Ġyong4Ġ":4430,"wai4ĠdeĠ":4431,"you2Ġzheng4Ġ":4432,"jian4Ġli4Ġ":4433,"zi1Ġyuan2Ġ":4434,"sai1Ġer3Ġ":4435,"nĠ":4436,"Ġya4Ġ":4437,"Ġqi2Ġhou4Ġ":4438,"Ġqian1Ġ":4439,"zui4Ġda4Ġ":4440,"Ġxi1":4441,"Ġbing4Ġwei4Ġ":4442,"hui2Ġdao4Ġ":4443,"cao1Ġ":4444,"su4Ġdu4Ġ":4445,"alĠĠĠ":4446,"qi4Ġhou4Ġ":4447,"ke3Ġda2Ġ":4448,"Ġwei4Ġyu2Ġfa3Ġguo2Ġ":4449,"gai3Ġge2Ġ":4450,"mi4Ġshu1Ġ":4451,"Ġluo4Ġ":4452,"Ġyi1Ġyuan4Ġ":4453,"dian4Ġshi4Ġju4Ġ":4454,"zhuang4Ġtai4Ġ":4455,"zhu4ĠdeĠ":4456,"fen4Ġwei4Ġ":4457,"Ġgong1Ġye4Ġ":4458,"wang3Ġzhan4Ġ":4459,"Ġzhao4Ġ":4460,"gong1Ġsi1Ġ":4461,"jie2Ġguo3Ġ":4462,"suo3Ġshu3ĠdeĠ":4463,"Ġjie3Ġ":4464,"ĠdeĠdi4Ġyi1Ġ":4465,"Ġlan2Ġ":4466,"hu2Ġnan2Ġ":4467,"Ġyi1Ġsi1Ġ":4468,"ya4Ġli4Ġ":4469,"Ġwei4Ġyi1Ġ":4470,"shang4Ġhai3":4471,"Ġmai4":4472,"20Ġshi4Ġji4Ġ":4473,"Ġzhe4Ġge":4474,"jie2Ġhe2Ġ":4475,"Ġzuo4Ġpin3Ġ":4476,"zuo3Ġyou4Ġ":4477,"xiao3Ġxue2Ġ":4478,"sheng4Ġli4Ġ":4479,"Ġzhong1Ġgong4Ġ":4480,"shou3Ġci4":4481,"UĠ":4482,"Ġhao4Ġxian4Ġ":4483,"zhen4Ġqu1Ġ":4484,"ĠdeĠfu4Ġ":4485,"kai1Ġfa1":4486,"wen2Ġming2Ġ":4487,"Ġjian3Ġcheng1Ġ":4488,"Ġsuo3Ġyou3Ġ":4489,"yi2Ġzhi4Ġ":4490,"jiao4Ġhui4Ġ":4491,"sheng3Ġfen4Ġ":4492,"zhan3Ġkai1Ġ":4493,"yin4Ġdu4":4494,"shi2Ġqi1Ġ":4495,"Ġfa3Ġguo2Ġ":4496,"ling3Ġdao3":4497,"mu4Ġbiao1Ġ":4498,"Ġer2Ġshi4Ġ":4499,"gao1Ġji2Ġ":4500,"zhun3Ġbei4Ġ":4501,"wang3Ġluo4Ġ":4502,"Ġmei3Ġyuan2Ġ":4503,"Ġjian4Ġshe4Ġ":4504,"xun4Ġlian4Ġ":4505,"fa1Ġbiao3Ġ":4506,"Ġfei1":4507,"ke1ĠdeĠ":4508,"Ġren2Ġwu4Ġ":4509,"xuan3Ġshou3Ġ":4510,"jiao1Ġtong1":4511,"hao3ĠdeĠ":4512,"zi4Ġran2Ġ":4513,"zhong4Ġyao4ĠdeĠ":4514,"dong1Ġjing1Ġ":4515,"chan3Ġpin3Ġ":4516,"gong4Ġyou3Ġren2Ġkou3Ġ":4517,"Ġxian4Ġdai4Ġ":4518,"Ġyi1Ġming2Ġ":4519,"Ġjia3Ġ":4520,"Ġxi1Ġbei3Ġ":4521,"feng1Ġge2Ġ":4522,"Ġcheng2Ġji4Ġ":4523,"lei3Ġ":4524,"zou4Ġ":4525,"Ġhe2Ġdi4Ġ":4526,"xiao3Ġxing2Ġxing1Ġ":4527,"yan2Ġzhong4Ġ":4528,"juan3Ġ":4529,"ziĠdeĠ":4530,"mu4Ġqian2Ġ":4531,"wen2Ġwu4Ġbao3Ġhu4Ġdan1Ġwei4Ġ":4532,"liu2Ġxing2Ġ":4533,"Ġji1Ġchang3Ġ":4534,"eĠĠĠ":4535,"bian4Ġcheng2Ġ":4536,"qiao2Ġzhi4Ġ":4537,"mie4Ġ":4538,"Ġguang1Ġ":4539,"lei4Ġsi4":4540,"dian4Ġshi4Ġtai2Ġ":4541,"jie3Ġshi4Ġ":4542,"guo2Ġmin2Ġ":4543,"Ġyi4Ġqi3Ġ":4544,"Ġyong3Ġ":4545,"kai1Ġfang4Ġ":4546,"Ġmai4Ġ":4547,"yĠĠĠ":4548,"Ġshen4Ġzhi4Ġ":4549,"Ġxia4Ġling4":4550,"Ġdan1Ġren4Ġ":4551,"ka3Ġer3Ġ":4552,"Ġyi2Ġge4Ġ":4553,"2003Ġnian2Ġ":4554,"xing2Ġshi4Ġ":4555,"dou1Ġyou3Ġ":4556,"2002Ġnian2Ġ":4557,"Ġchu2ĠleĠ":4558,"zhi1Ġhou4Ġ":4559,"hui4Ġhe2Ġ":4560,"mei3Ġping2Ġfang1Ġgong1Ġli3Ġ":4561,"ru4ĠleĠ":4562,"Ġyi1Ġyang4Ġ":4563,"Ġgong1Ġfen1Ġ":4564,"Ġshe4Ġzhi4Ġ":4565,"te4Ġzheng1Ġ":4566,"can1Ġsai4Ġ":4567,"Ġsi1Ġji1Ġ":4568,"Ġjia4Ġ":4569,"ru2Ġxia4Ġ":4570,"Ġwu1Ġ":4571,"zhen1Ġdui4Ġ":4572,"zhe4ĠgeĠ":4573,"jiu4Ġshi4Ġzhen4Ġ":4574,"Ġshi4Ġfou3":4575,"Ġshi2Ġjian1":4576,"gao1Ġzhong1Ġ":4577,"Ġci3Ġhou4Ġ":4578,"Ġzai4Ġzhong1Ġ":4579,"bi4Ġxu1Ġ":4580,"wang2Ġguo2Ġ":4581,"bi3Ġjiao4Ġ":4582,"Ġ00":4583,"er4Ġshi4Ġ":4584,"wai4Ġjiao1":4585,"gui1Ġhua4Ġ":4586,"diao1Ġ":4587,"bang4Ġ":4588,"Ġyi4Ġzhi4Ġ":4589,"lei4Ġsi4Ġ":4590,"shan1Ġdong1Ġ":4591,"Ġran2Ġhou4Ġ":4592,"Ġyi4Ġzhi2":4593,"Ġyu3":4594,"Ġli4Ġshu3Ġyu2Ġ":4595,"ĠW":4596,"yuan2Ġshi4Ġ":4597,"dui4Ġzai4Ġ":4598,"zhu4Ġming2Ġ":4599,"yun2Ġnan2Ġ":4600,"ĠĠĠL":4601,"hen3Ġduo1Ġ":4602,"Ġdeng3":4603,"Ġer3ĠdeĠ":4604,"huo4Ġde2":4605,"sheng1Ġchan3Ġ":4606,"Ġche1Ġ":4607,"ĠĠĠgong1Ġ":4608,"zhan4Ġyi4Ġ":4609,"Ġsui1Ġran2Ġ":4610,"Ġbei3":4611,"dian4ĠziĠ":4612,"zhong4ĠdeĠ":4613,"Ġjian4Ġzhi4Ġ":4614,"ĠĠĠda4Ġ":4615,"xin1Ġjia1Ġ":4616,"Ġshang1Ġ":4617,"Ġbiao3Ġshi4Ġ":4618,"lai2Ġzi4":4619,"zhi4Ġzuo4Ġ":4620,"Ġtu2Ġ":4621,"shan1Ġxi1Ġ":4622,"ren2Ġkou3Ġshu4Ġliang4Ġwei4Ġren2Ġ":4623,"Ġgu3":4624,"ju4Ġji2Ġ":4625,"ĠdeĠyi1Ġzhong3Ġ":4626,"ĠdeĠming2Ġ":4627,"ji2Ġhe2Ġ":4628,"Ġxi1Ġya4":4629,"Ġzu3":4630,"lv3Ġyou2Ġ":4631,"Ġzhi4Ġzao4Ġ":4632,"Ġxing2Ġwei2Ġ":4633,"ma3Ġlai2":4634,"Ġren4":4635,"bao4Ġfa1Ġ":4636,"nv3Ġer2Ġ":4637,"ĠINSEE":4638,"tao4Ġ":4639,"zong3Ġli3Ġ":4640,"quan2Ġqiu2Ġ":4641,"si1Ġhe2Ġ":4642,"ĠĠĠK":4643,"ĠdeĠzhu3Ġ":4644,"Ġshang4Ġhai3Ġ":4645,"sai4Ġzhong1Ġ":4646,"Ġdui4Ġyu2Ġ":4647,"fa1Ġshe4Ġ":4648,"rui4Ġshi4Ġ":4649,"bao1Ġhan2":4650,"nong2Ġye4Ġ":4651,"ye4Ġwu4Ġ":4652,"tou2Ġzi1Ġ":4653,"lu4Ġjun1Ġ":4654,"wu4Ġzhi4Ġ":4655,"jue2ĠdeĠ":4656,"nai4Ġ":4657,"te4Ġbie2Ġ":4658,"Ġjin4Ġshi4Ġ":4659,"ĠdeĠshi2Ġhou4Ġ":4660,"ao4Ġlin2Ġpi3Ġke4Ġyun4Ġdong4Ġhui4Ġ":4661,"ge2ĠdeĠ":4662,"Ġzhi4Ġjin1Ġ":4663,"fang1Ġan4Ġ":4664,"si1Ġren2Ġ":4665,"hua4Ġxue2Ġ":4666,"Ġte4Ġbie2":4667,"Ġda4Ġliang4Ġ":4668,"ji2Ġshi4Ġ":4669,"min3Ġ":4670,"ke3Ġneng2Ġshi4Ġ":4671,"cha4Ġ":4672,"Ġnian2Ġdu4Ġ":4673,"lian2Ġjie1Ġ":4674,"Ġni2Ġ":4675,"jin4ĠdeĠ":4676,"Ġzhi1Ġwai4Ġ":4677,"si4Ġshi2Ġ":4678,"cao2Ġ":4679,"fa1Ġdong4Ġ":4680,"ĠV":4681,"qian3Ġ":4682,"TĠ":4683,"xuan3Ġwei4Ġ":4684,"Ġshe4Ġshi1Ġ":4685,"chu4ĠdeĠ":4686,"tu3Ġer3":4687,"Ġli4Ġsi1Ġ":4688,"bo2Ġte4Ġ":4689,"Ġzong3Ġmian4Ġji1Ġ":4690,"luo2Ġma3":4691,"chuang4Ġli4Ġ":4692,"ĠdeĠli4Ġ":4693,"Ġnian2Ġhou4Ġ":4694,"Ġde2Ġli3Ġ":4695,"Ġgeng4Ġ":4696,"guang3Ġchang3Ġ":4697,"lian2Ġhe2Ġguo2Ġ":4698,"ji2Ġshi2Ġ":4699,"geng1Ġming2Ġwei4Ġ":4700,"tĠĠĠ":4701,"Ġ11":4702,"zao3Ġnian2Ġ":4703,"xiao4Ġli4Ġ":4704,"qi4ĠdeĠ":4705,"Ġzheng4Ġshi4Ġ":4706,"biao3Ġyan3Ġ":4707,"yi2Ġshi4Ġ":4708,"Ġjun1Ġzai4Ġ":4709,"fang1Ġmian4":4710,"jue2Ġding4":4711,"Ġgai1Ġsheng3Ġ":4712,"Ġzhen1Ġ":4713,"reng2Ġran2Ġ":4714,"da1Ġ":4715,"zhi4Ġshi4Ġ":4716,"Ġgong1Ġneng2Ġ":4717,"zong3Ġtong3":4718,"Ġren2Ġkou3Ġmi4Ġdu4Ġmei3Ġping2Ġfang1Ġgong1Ġli3Ġ":4719,"Ġren2Ġkou3Ġmi4Ġdu4Ġwei4Ġmei3":4720,"Ġxia4Ġling4Ġshi2Ġ":4721,"you2Ġzheng4Ġbian1Ġma3Ġwei4Ġ":4722,"Ġxian1Ġ":4723,"cha2ĠdeĠshu4Ġju4Ġ":4724,"Ġju4Ġle4Ġbu4Ġ":4725,"Ġshi4Ġzhen4Ġbian1Ġma3Ġwei4Ġ":4726,"ĠINSEEĠshi4Ġzhen4Ġbian1Ġma3Ġwei4Ġ":4727,"ĠĠĠbei4Ġ":4728,"biao1Ġzhun3":4729,"Ġhan2Ġ":4730,"Ġshe4ĠdeĠ":4731,"xuan3Ġqu1Ġwei4Ġ":4732,"Ġzai4Ġci3Ġ":4733,"Ġbu4Ġguo4":4734,"pai2Ġming2Ġ":4735,"Ġguo2Ġwang2Ġ":4736,"dong4Ġli4Ġ":4737,"shi2ĠdeĠren2Ġkou3Ġshu4Ġliang4Ġwei4Ġren2Ġ":4738,"Ġfen1Ġzhong1Ġ":4739,"2023Ġnian2Ġ":4740,"jie1Ġrang3ĠdeĠshi4Ġzhen4Ġ":4741,"mei3Ġguo2Ġren2Ġkou3Ġpu3Ġcha2ĠdeĠshu4Ġju4Ġ":4742,"cong2Ġshi4Ġ":4743,"jia1Ġli4Ġ":4744,"Ġer2Ġren2Ġkou3Ġmi4Ġdu4Ġwei4Ġmei3":4745,"ge2Ġlan2":4746,"Ġdang1Ġdi4Ġgong4Ġyou3Ġren2Ġkou3Ġ":4747,"jie3Ġjue2Ġ":4748,"fen1Ġlei4Ġ":4749,"3Ġnian2Ġ":4750,"zu2ĠdeĠ":4751,"Ġxiang4":4752,"Ġxiao1Ġ":4753,"shi3Ġyong4ĠdeĠ":4754,"da4Ġbu4Ġfen4":4755,"yi1Ġzhong3Ġ":4756,"ling3Ġyu4Ġ":4757,"Ġhuo4Ġjiu4Ġshi4Ġzhen4Ġ":4758,"he2Ġshi4Ġ":4759,"ĠĠĠli4Ġ":4760,"Ġchu1Ġban3Ġ":4761,"Ġjiang3Ġ":4762,"gou1Ġ":4763,"yun4Ġying2Ġ":4764,"sheng3Ġji2Ġxuan3Ġqu1Ġwei4Ġ":4765,"ji1Ġji2Ġ":4766,"ĠdeĠyi1Ġbu4Ġfen4Ġ":4767,"shi2Ġshi4Ġ":4768,"CĠ":4769,"er2ĠziĠ":4770,"jiu3Ġnian2Ġ":4771,"zuo4Ġpin3":4772,"xuan3Ġren2Ġ":4773,"gai4Ġnian4Ġ":4774,"SĠ":4775,"xing1ĠdeĠ":4776,"Ġer3Ġde2Ġ":4777,"sheng3Ġhe2Ġ":4778,"jie1Ġshou4":4779,"tiao2Ġyue1Ġ":4780,"Ġjin3Ġguan3Ġ":4781,"fen4Ġwei4Ġfa3Ġguo2Ġ":4782,"Ġgai1Ġsheng3Ġfen4Ġwei4Ġfa3Ġguo2Ġ":4783,"Ġchu1Ġban3":4784,"Ġzhi1Ġxian4Ġ":4785,"tie3Ġdao4Ġ":4786,"lian2Ġbang1":4787,"ĠĠĠO":4788,"Ġdi4Ġsan1":4789,"Ġsong4Ġ":4790,"Ġjun1Ġdui4Ġ":4791,"guang3Ġzhou1Ġ":4792,"Ġbu4Ġjiu3Ġ":4793,"Ġqing1":4794,"ao4Ġda4Ġli4Ġ":4795,"Ġwei4Ġshi2Ġ":4796,"Ġxi1Ġla4":4797,"fu2Ġjian4Ġ":4798,"pĠ":4799,"Ġkai1Ġshi3Ġ":4800,"Ġhe2Ġbing4":4801,"EĠ":4802,"zhan4Ġzheng1":4803,"Ġyou3Ġren2Ġ":4804,"pai2Ġming2":4805,"Ġdui4":4806,"zhan4Ġshi4Ġ":4807,"jin3Ġbiao1Ġsai4Ġ":4808,"Ġnian2Ġchu1Ġ":4809,"zui4Ġhou4Ġyi1Ġ":4810,"jing3Ġcha2Ġ":4811,"qun2Ġdao3Ġ":4812,"lai2Ġyuan2Ġ":4813,"te4Ġbie2":4814,"Ġta1Ġbei4Ġ":4815,"Ġer2Ġqie3Ġ":4816,"xing1Ġjian4Ġ":4817,"Ġwan4Ġren2Ġ":4818,"reng2Ġran2":4819,"ba1Ġnian2Ġ":4820,"Ġchu1Ġsheng1Ġyu2Ġ":4821,"she4Ġli4Ġ":4822,"Ġruo4Ġ":4823,"4Ġnian2Ġ":4824,"di4Ġyi1Ġ":4825,"Ġri4ĠdeĠ":4826,"lun2Ġdun1":4827,"FĠ":4828,"Ġyi4Ġwei4Ġ":4829,"ben3ĠdeĠ":4830,"wei3Ġhui4Ġ":4831,"XĠ":4832,"Ġyou2Ġxi4":4833,"Ġren2Ġgong1Ġ":4834,"xue2Ġxiao4":4835,"Ġgeng4":4836,"shan3Ġxi1Ġ":4837,"tong1Ġchang2":4838,"Ġzhi4Ġyu2Ġ":4839,"lie4Ġwei4Ġ":4840,"Ġbu4Ġming2Ġ":4841,"ceng2Ġzai4Ġ":4842,"mu3Ġsi1Ġ":4843,"Ġming2Ġchao2Ġ":4844,"tian1Ġwen2Ġ":4845,"yun4Ġxing2Ġ":4846,"cai3Ġyong4":4847,"Ġdi4Ġsi4Ġ":4848,"ang2Ġ":4849,"ĠJ":4850,"rou4Ġ":4851,"yan2Ġjiu1Ġsuo3Ġ":4852,"guang3Ġfan4Ġ":4853,"ĠĠĠ18":4854,"ao4Ġsi1Ġ":4855,"Ġxian4Ġlu4Ġ":4856,"mei3Ġzhou1Ġ":4857,"meng2Ġgu3Ġ":4858,"Ġshi4Ġbu4Ġ":4859,"gan3Ġran3Ġ":4860,"yi3Ġji2Ġ":4861,"Ġhe2Ġping2Ġ":4862,"Ġfan4Ġ":4863,"hua4Ġshi2Ġ":4864,"jia1Ġru4Ġ":4865,"ĠĠĠW":4866,"ĠĠĠta1":4867,"zhan4Ġhou4Ġ":4868,"nan2Ġji2Ġ":4869,"shuo1Ġfa3Ġ":4870,"Ġjiao1Ġ":4871,"xi1Ġzai4Ġ":4872,"Ġjin4ĠdeĠ":4873,"Ġren4Ġwei2":4874,"Ġji1Ġben3Ġ":4875,"Ġju4Ġli2Ġ":4876,"Ġfei4Ġ":4877,"Ġdi2Ġ":4878,"mo2Ġxing2Ġ":4879,"guo4Ġcheng2Ġzhong1Ġ":4880,"ĠdeĠdi4Ġfang1Ġ":4881,"PĠ":4882,"wu2Ġren2Ġ":4883,"ĠdeĠxin1Ġ":4884,"ji4Ġshu4Ġ":4885,"Ġrang4":4886,"Ġjian4Ġyi4Ġ":4887,"Ġta1Ġyu3Ġ":4888,"Ġda2Ġ":4889,"yun4Ġshu1Ġ":4890,"gou4Ġmai3":4891,"wan2Ġquan2":4892,"wu3Ġshi2Ġ":4893,"Ġke4ĠdeĠ":4894,"ĠĠĠofĠĠĠ":4895,"ren4Ġwei2Ġshi4Ġ":4896,"Ġzai4Ġyi4Ġ":4897,"Ġcan1Ġ":4898,"Ġge4Ġdi4Ġ":4899,"2Ġnian2Ġ":4900,"Ġchen2":4901,"ban4Ġgong1Ġshi4Ġ":4902,"Ġ10Ġyue4Ġ":4903,"tong2Ġyi1Ġ":4904,"duo1Ġge4Ġ":4905,"wai4Ġguo2Ġ":4906,"Ġzong3Ġren2Ġkou3Ġ":4907,"Ġshi3Ġyong4Ġ":4908,"xue2Ġshi4Ġ":4909,"shang4Ġyou3Ġ":4910,"Ġshou4":4911,"yuan2Ġwei4Ġ":4912,"jia4Ġzhi2Ġ":4913,"gong1Ġzuo4Ġ":4914,"Ġzi4Ġji3Ġ":4915,"ni2Ġsi1Ġ":4916,"zhao3Ġ":4917,"Ġzai4Ġzhong1Ġguo2Ġ":4918,"xue2Ġxi2Ġ":4919,"ĠĠĠR":4920,"yang3Ġhua4Ġ":4921,"Ġai1":4922,"fei1Ġxing2Ġ":4923,"quan1Ġ":4924,"xuan1Ġchuan2Ġ":4925,"mo4Ġxi1Ġ":4926,"Ġyi1Ġxie1":4927,"qi3Ġlai2Ġ":4928,"xuan3Ġze2":4929,"cheng1Ġwei4Ġ":4930,"xiao1Ġxi1Ġ":4931,"Ġxian4Ġren2Ġ":4932,"ĠdeĠguan1Ġ":4933,"hai3Ġjun1":4934,"Ġxing1Ġ":4935,"biao1Ġzhi4Ġ":4936,"Ġbu4Ġmen2Ġ":4937,"zhi4Ġwei4Ġ":4938,"you2Ġxi4":4939,"ma2Ġ":4940,"huan2Ġjing4":4941,"ĠĠĠV":4942,"fu4Ġze2Ġguan3Ġxia2Ġ":4943,"19Ġ":4944,"Ġwei2Ġzhu3Ġ":4945,"jie4Ġquan2Ġguo2Ġ":4946,"xi4Ġbao1Ġ":4947,"gou4Ġcheng2Ġ":4948,"shi1ĠdeĠ":4949,"che1Ġliang4Ġ":4950,"ĠĠĠyi3Ġ":4951,"zhe2Ġxue2Ġ":4952,"keng1Ġ":4953,"Ġji4Ġhua4":4954,"Ġan4Ġ":4955,"si1Ġzai4Ġ":4956,"Ġke1":4957,"Ġlin2":4958,"zheng4ĠdeĠ":4959,"an1Ġquan2":4960,"dang3ĠdeĠ":4961,"iĠ":4962,"bi3Ġde2Ġ":4963,"Ġdao4Ġlu4Ġ":4964,"chao2Ġxian1Ġ":4965,"Ġer2Ġqie3":4966,"Ġda3Ġ":4967,"yin2Ġhang2":4968,"Ġhua1Ġ":4969,"Ġying1Ġchi3Ġ":4970,"xi1ĠdeĠ":4971,"Ġshi4Ġmei3Ġguo2Ġ":4972,"Ġshi4Ġtu2Ġ":4973,"zhong1Ġzai4Ġ":4974,"Ġji4Ġnian4Ġ":4975,"zhu3Ġjue2Ġ":4976,"an4ĠdeĠ":4977,"Ġer4":4978,"si4Ġchuan1Ġ":4979,"bu4Ġwei4Ġ":4980,"Ġji2Ġqi2Ġ":4981,"peng2Ġyou3Ġ":4982,"1999Ġnian2Ġ":4983,"xĠ":4984,"chi2Ġxu4":4985,"ai4Ġer3Ġ":4986,"24Ġ":4987,"Ġdou1Ġ":4988,"ĠĠĠyou3Ġ":4989,"Ġgong1Ġgong4Ġ":4990,"Ġzhi1Ġchi2":4991,"kang4Ġyi4Ġ":4992,"yue1Ġwei4Ġ":4993,"tai4Ġguo2Ġ":4994,"Ġfan3Ġ":4995,"jie1Ġwei4Ġ":4996,"xuan3Ġqu1Ġ":4997,"shi2Ġzai4Ġ":4998,"yi4Ġhe2Ġ":4999,"hui4Ġyou3Ġ":5000,"sheng1Ġwu4Ġ":5001,"xiao4Ġzhang3Ġ":5002,"wen2Ġjian4Ġ":5003,"Ġtai2Ġwan1":5004,"ĠĠĠhe2Ġ":5005,"Ġbei4Ġer3Ġ":5006,"ge1Ġqu3":5007,"shou1Ġru4Ġ":5008,"Ġjie2Ġzhi4Ġ":5009,"biao1Ġwei4Ġ":5010,"fo2Ġjiao4Ġ":5011,"rong2Ġyi4Ġ":5012,"Ġjie4":5013,"ĠĠĠshi2Ġ":5014,"ao4Ġyun4":5015,"ĠĠĠche1Ġzhan4Ġ":5016,"Ġsheng1Ġwu4Ġ":5017,"suo3Ġshu3ĠdeĠsheng3Ġji2Ġxuan3Ġqu1Ġwei4Ġ":5018,"yan3ĠdeĠ":5019,"bian1Ġji2Ġ":5020,"Ġyuan2Ġzhu4Ġ":5021,"qian4Ġ":5022,"Ġzhan4Ġzheng1":5023,"si1Ġdi4Ġ":5024,"ye3Ġyou3Ġ":5025,"qian2Ġwang3":5026,"yu3Ġyan2Ġ":5027,"zheng4Ġce4Ġ":5028,"Ġqiang2Ġ":5029,"ji4Ġzhong1Ġ":5030,"mi3Ġer3Ġ":5031,"Ġruo4":5032,"jun1Ġdui4Ġ":5033,"jie3Ġfang4Ġjun1Ġ":5034,"tiao3Ġzhan4Ġ":5035,"Ġchu1ĠleĠ":5036,"Ġyou4Ġcheng1Ġ":5037,"gĠ":5038,"ao4Ġyun4Ġ":5039,"Ġzhi4Ġdu4Ġ":5040,"Ġchang3Ġ":5041,"gao1Ġyu2Ġ":5042,"Ġshi4Ġyi2Ġge4":5043,"Ġhuo4Ġshi4Ġ":5044,"7Ġnian2Ġ":5045,"gan3Ġdao4Ġ":5046,"nan2Ġxing4Ġ":5047,"kun1Ġ":5048,"Ġyi3Ġshang4Ġ":5049,"man4Ġhua4Ġ":5050,"gai3Ġbian4Ġ":5051,"ma3Ġli4Ġ":5052,"ĠĠĠ2021":5053,"Ġdi4Ġxia4Ġ":5054,"fo2Ġ":5055,"jie1Ġrang3Ġ":5056,"pei4Ġhe2Ġ":5057,"tou2Ġru4Ġ":5058,"mei3Ġyuan2Ġ":5059,"zhi3Ġhui1":5060,"Ġyu4":5061,"jia1Ġren2Ġ":5062,"Ġyan3Ġ":5063,"wen3Ġding4Ġ":5064,"1998Ġnian2Ġ":5065,"Ġzhong1Ġyou3Ġ":5066,"Ġque4":5067,"zha1Ġ":5068,"Ġzai4Ġbu4Ġ":5069,"ti2Ġming2Ġ":5070,"da2Ġcheng2Ġ":5071,"Ġyi1Ġzhong3Ġ":5072,"ru3Ġ":5073,"ne4Ġ":5074,"mo4Ġsi1Ġ":5075,"fen1Ġzhi1Ġ":5076,"Ġtong1Ġguo4Ġ":5077,"zai4Ġshi4Ġ":5078,"tong2ĠdeĠ":5079,"jian3Ġjie4Ġ":5080,"shen1Ġfen4":5081,"tian1Ġzhu3Ġjiao4Ġ":5082,"Ġzhong1Ġguo2Ġren2Ġmin2Ġ":5083,"Ġzi4":5084,"biao3Ġming2Ġ":5085,"duo2ĠdeĠ":5086,"ting2Ġzhi3Ġ":5087,"Ġhai2Ġyou3Ġ":5088,"Ġer2Ġren2Ġkou3Ġmi4Ġdu4Ġwei4Ġmei3Ġping2Ġfang1Ġqian1Ġmi3Ġ":5089,"Ġti2Ġ":5090,"xiao3ĠdeĠ":5091,"zheng4Ġshi2Ġ":5092,"ce4ĠdeĠ":5093,"zao4ĠdeĠ":5094,"Ġwei4Ġfu2":5095,"juan1Ġ":5096,"que4Ġzhen3":5097,"2024Ġnian2Ġ":5098,"Ġping2":5099,"Ġji1Ġbai4Ġ":5100,"ĠĠĠ2020":5101,"ban4Ġdao3Ġ":5102,"ĠĠĠyuan2Ġ":5103,"guo2Ġzai4Ġ":5104,"wu3Ġqi4Ġ":5105,"Ġli2Ġ":5106,"Ġjia1Ġna2Ġda4Ġ":5107,"Ġping2Ġfang1Ġmi3Ġ":5108,"zi4Ġzhi4Ġqu1Ġ":5109,"Ġ8Ġyue4Ġ":5110,"Ġpi2Ġ":5111,"la1Ġke4Ġ":5112,"lei4ĠdeĠ":5113,"ta1ĠmenĠ":5114,"hun4Ġhe2Ġ":5115,"Ġzi4Ġyou2Ġ":5116,"ĠĠĠzi4Ġ":5117,"Ġzai4Ġmei3Ġguo2Ġ":5118,"Ġshi2Ġyan4":5119,"zui4Ġzao3":5120,"ju3Ġren2Ġ":5121,"tuan2Ġdui4Ġ":5122,"di4Ġshi4Ġ":5123,"Ġbo1":5124,"ke3Ġneng2Ġhui4Ġ":5125,"Ġzhuan1Ġ":5126,"ya1Ġli4Ġ":5127,"quan2Ġbu4Ġ":5128,"Ġsu1":5129,"ji4Ġwei4Ġ":5130,"Ġer2Ġbei4Ġ":5131,"Ġji4Ġcheng2Ġ":5132,"gong4Ġxian4Ġ":5133,"ji4Ġhua4Ġ":5134,"xi1Ġban1Ġya2Ġ":5135,"Ġshi2Ġshi1Ġ":5136,"jie2Ġmu4":5137,"Ġjie2Ġguo3Ġ":5138,"ĠThe":5139,"Ġdi4Ġtie3Ġ":5140,"sheng1Ġchan3":5141,"lai2Ġshuo1Ġ":5142,"li4Ġbu4Ġ":5143,"zhe4Ġzhong3Ġ":5144,"chan3Ġye4Ġ":5145,"Ġwang2":5146,"xing2Ġdong4Ġ":5147,"fan1Ġyi4Ġ":5148,"Ġqi1Ġjian1Ġ":5149,"Ġchu1Ġren4Ġ":5150,"shao3Ġshu4Ġ":5151,"Ġbei4":5152,"cao1Ġzuo4Ġ":5153,"jian3Ġcha2Ġ":5154,"ban4Ġshi4Ġ":5155,"jia1Ġna2Ġda4Ġ":5156,"ying3Ġpian4Ġ":5157,"chong1Ġtu1Ġ":5158,"Ġzai4Ġda4Ġ":5159,"Ġta1Ġyu2Ġ":5160,"bao3Ġhu4":5161,"an4Ġjian4Ġ":5162,"ji4Ġnian4Ġ":5163,"chong2Ġjian4Ġ":5164,"shou3ĠdeĠ":5165,"ampĠ":5166,"Ġhai2":5167,"ĠĠĠin":5168,"DĠ":5169,"Ġmu4":5170,"Ġjian4Ġzhu4":5171,"ceng2Ġjing1Ġ":5172,"onĠ":5173,"Ġshi2Ġfen1Ġ":5174,"Ġshi4Ġyi3Ġ":5175,"Ġan1":5176,"xin1Ġli3Ġ":5177,"xing2Ġwei2Ġ":5178,"gong4Ġtong2":5179,"dong4ĠdeĠ":5180,"kong1Ġjun1Ġ":5181,"nan4Ġ":5182,"Ġshi3ĠdeĠ":5183,"ban4Ġgong1Ġ":5184,"Ġzhi3Ġyou3Ġ":5185,"Ġmen2Ġ":5186,"Ġxian4Ġwei4Ġ":5187,"qi1Ġjian1":5188,"da4Ġbu4Ġfen4Ġ":5189,"Ġzhi4Ġzuo4":5190,"jie2Ġgou4":5191,"fen1Ġbie2Ġ":5192,"yang1Ġ":5193,"lian2Ġsai4":5194,"jue2Ġse4":5195,"Ġhu4Ġ":5196,"Ġyi4Ġyou3Ġ":5197,"Ġli4Ġru2":5198,"lian2Ġxu4Ġ":5199,"ji2Ġzai4Ġ":5200,"shen1ĠdeĠ":5201,"Ġhe2Ġbei3Ġ":5202,"Ġwei4Ġneng2Ġ":5203,"Ġchuan2Ġ":5204,"xiang1Ġdui4Ġ":5205,"mei2Ġti3":5206,"zhu3Ġti2Ġ":5207,"Ġbian1Ġ":5208,"jian3Ġshao3Ġ":5209,"Ġhe2Ġliu2Ġ":5210,"gong1Ġyuan2Ġ":5211,"xiao3Ġzu3Ġ":5212,"tou4Ġ":5213,"ĠĠĠI":5214,"Ġyou4Ġming2Ġ":5215,"tong4Ġ":5216,"Ġyi3Ġse4Ġ":5217,"fen4Ġzi3Ġ":5218,"xian4Ġdai4Ġ":5219,"Ġshi4Ġyi1Ġming2Ġ":5220,"Ġti3Ġzhang3Ġ":5221,"ĠĠĠ2019":5222,"Ġxi1Ġwang4Ġ":5223,"ying4ĠdeĠ":5224,"wei3Ġyuan2Ġhui4":5225,"ming4Ġming2Ġwei4Ġ":5226,"kĠ":5227,"ou1Ġyuan2Ġ":5228,"Ġgong1Ġsi1ĠdeĠ":5229,"Ġliang3Ġren2Ġ":5230,"yi4Ġzai4Ġ":5231,"dong4Ġji1Ġ":5232,"da3Ġji1Ġ":5233,"ĠdeĠdi4Ġqu1Ġ":5234,"zhan3Ġshi4Ġ":5235,"zhe4Ġge":5236,"zhuo2Ġ":5237,"Ġzhi2Ġzhi4Ġ":5238,"Ġshe4Ġqu1Ġ":5239,"Ġji4Ġxu4":5240,"gui1Ġmo2":5241,"shou3Ġwei4Ġ":5242,"xun2Ġhui2Ġ":5243,"Ġsi1Ġling4":5244,"shu4Ġliang4Ġ":5245,"xia4Ġwu3Ġ":5246,"1996Ġnian2Ġ":5247,"lu4Ġdi4Ġmian4Ġji1Ġwei4Ġ":5248,"yong4Ġlai2Ġ":5249,"shui3Ġyu4Ġmian4Ġji1Ġwei4Ġ":5250,"Ġli4Ġji2Ġ":5251,"qi3Ġyong4Ġ":5252,"lei4Ġxing2Ġ":5253,"ren4Ġwu4Ġ":5254,"Ġguo2Ġli4Ġ":5255,"Ġshi2Ġzi4Ġ":5256,"Ġyi1Ġci4Ġ":5257,"duo1Ġci4Ġ":5258,"ping2Ġjia4Ġ":5259,"bu4Ġshi4Ġ":5260,"MĠ":5261,"Ġzhen4Ġ":5262,"Ġling2Ġ":5263,"ĠĠĠand":5264,"Ġ2009Ġnian2Ġ":5265,"ĠdeĠshou3Ġ":5266,"Ġfu4Ġjin4Ġ":5267,"ju3Ġxing2ĠdeĠ":5268,"ĠĠĠ2018":5269,"fu2Ġhe2Ġ":5270,"wai4Ġjiao1Ġ":5271,"ti3Ġxi4Ġ":5272,"Ġzhe4Ġjiang1Ġ":5273,"Ġlie4Ġ":5274,"1997Ġnian2Ġ":5275,"Ġda4Ġshi3Ġ":5276,"zuo4Ġjia1Ġ":5277,"Ġshe4Ġbei4Ġ":5278,"liang3Ġge4":5279,"Ġli4Ġfa3Ġ":5280,"zhu4Ġyi4Ġ":5281,"ĠampĠ":5282,"dian4Ġli4Ġ":5283,"Ġbian4":5284,"de2Ġdao4Ġ":5285,"kui2Ġ":5286,"Ġsi1Ġling4Ġ":5287,"Ġcong2Ġer2Ġ":5288,"kao4Ġ":5289,"fa3Ġlv4":5290,"jiao4Ġtang2Ġ":5291,"Ġdang1Ġzhong1Ġlu4Ġdi4Ġmian4Ġji1Ġwei4Ġ":5292,"zhi4Ġhe2Ġ":5293,"zhi2ĠdeĠ":5294,"Ġer2Ġshui3Ġyu4Ġmian4Ġji1Ġwei4Ġ":5295,"qu3Ġxiao1Ġ":5296,"jie2Ġzhi4Ġ":5297,"sheng1Ġhuo2":5298,"fu2Ġwu4":5299,"ĠĠĠxi1Ġ":5300,"xue2Ġzhe3Ġ":5301,"lun2Ġdun1Ġ":5302,"dian1Ġ":5303,"ĠĠĠ2022":5304,"rĠ":5305,"shui3Ġping2Ġ":5306,"hai3Ġyu4Ġ":5307,"nei4Ġrong2":5308,"Ġxiao4Ġ":5309,"Ġzhi1Ġshi2Ġ":5310,"zhu4Ġzuo4Ġ":5311,"Ġ9Ġyue4Ġ":5312,"ying1Ġge2Ġlan2Ġ":5313,"anĠĠĠ":5314,"Ġda4Ġchen2Ġ":5315,"Ġcheng2Ġli4Ġyu2Ġ":5316,"ĠĠĠgai4Ġ":5317,"tuo4Ġ":5318,"cĠ":5319,"lv3Ġke4Ġ":5320,"zhi4Ġzai4Ġ":5321,"Ġguang3Ġ":5322,"jie1Ġjin4Ġ":5323,"Ġxin1Ġwen2Ġ":5324,"chang2Ġqi1Ġ":5325,"Ġwei2Ġer3Ġ":5326,"ling4Ġwai4Ġ":5327,"ĠĠĠxing2Ġzheng4Ġqu1Ġhua4Ġ":5328,"ren4Ġming4":5329,"gao1Ġsu4":5330,"tai4Ġyang2Ġ":5331,"Ġjia1Ġshang4Ġ":5332,"bi3Ġsai4Ġzhong1Ġ":5333,"yuan4Ġzhang3Ġ":5334,"dian3ĠdeĠ":5335,"ji3Ġyu3Ġ":5336,"xi1Ġyang2Ġ":5337,"Ġyi3Ġhou4Ġ":5338,"Ġjun1Ġwei4Ġ":5339,"min2ĠdeĠ":5340,"shuo4Ġshi4Ġ":5341,"Ġde2ĠdeĠ":5342,"wei1Ġlian2Ġ":5343,"wei3Ġshu1Ġji4Ġ":5344,"Ġyi4Ġren2Ġ":5345,"jia1Ġhe2Ġ":5346,"1992Ġnian2Ġ":5347,"dao3Ġyu3Ġ":5348,"pi1Ġzhun3Ġ":5349,"dai4Ġyou3Ġ":5350,"guo1Ġ":5351,"heng1Ġli4Ġ":5352,"Ġshi4Ġyi1Ġwei4Ġ":5353,"Ġxue2Ġxiao4":5354,"Ġwei4Ġfu2Ġqi2Ġyu2Ġ":5355,"lĠ":5356,"can1Ġyu4":5357,"Ġ7Ġyue4Ġ":5358,"6Ġnian2Ġ":5359,"ci4Ġshi4Ġjie4Ġda4Ġzhan4Ġ":5360,"mei3Ġnian2Ġ":5361,"Ġshi4Ġqu1Ġ":5362,"fa1Ġchu1Ġ":5363,"quan4Ġ":5364,"xing4Ġzhi4Ġ":5365,"yan3Ġchang4Ġhui4Ġ":5366,"Ġyuan2Ġyin1Ġ":5367,"tao3Ġlun4Ġ":5368,"ĠformulaĠ":5369,"tui4Ġyi4Ġ":5370,"feng1Ġbao4Ġ":5371,"bi3Ġya4Ġ":5372,"ĠĠĠyi4Ġ":5373,"ji1Ġzhi4Ġ":5374,"xin4Ġhao4Ġ":5375,"ya4ĠdeĠ":5376,"neng2Ġgou4":5377,"shou4Ġshang1Ġ":5378,"Ġhui2Ġ":5379,"Ġjian4Ġcheng2Ġ":5380,"Ġmeng2Ġ":5381,"Ġtuo1Ġ":5382,"lian2Ġxi4Ġ":5383,"wei4Ġzhi4Ġ":5384,"ĠĠĠ2017":5385,"oĠ":5386,"bi4Ġxu1":5387,"Ġru2Ġguo3":5388,"RĠ":5389,"ru2Ġhe2Ġ":5390,"Ġti3Ġzhang3Ġke3Ġda2Ġ":5391,"Ġci2Ġ":5392,"Ġer3Ġte4Ġ":5393,"bao3Ġchi2Ġ":5394,"zhuan1Ġjia1Ġ":5395,"Ġgui1Ġ":5396,"anĠ":5397,"fu1Ġren2Ġ":5398,"jiang3Ġxiang4Ġ":5399,"cha1Ġyi4Ġ":5400,"wo1Ġ":5401,"Ġjing1Ġguo4Ġ":5402,"Ġji1Ġgou4":5403,"shou4Ġyu3Ġ":5404,"Ġzai4Ġyu2Ġ":5405,"ĠdeĠyi1Ġzuo4Ġ":5406,"Ġtong1Ġchang2Ġ":5407,"Ġ2010Ġnian2Ġ":5408,"wang3Ġlu4Ġ":5409,"jing1Ġying2Ġ":5410,"Ġ12Ġyue4Ġ":5411,"Ġmin2Ġguo2Ġ":5412,"gong4Ġchan3Ġdang3":5413,"tan1Ġ":5414,"dian4Ġtai2Ġ":5415,"dong1Ġxi1Ġ":5416,"Ġke4Ġli3Ġ":5417,"Ġsheng1Ġchan3Ġ":5418,"Ġbu4Ġli3Ġ":5419,"Ġ21Ġ":5420,"Ġyi3Ġxia4":5421,"cun1Ġzhuang1Ġ":5422,"Ġhuo3Ġ":5423,"Ġ11Ġyue4Ġ":5424,"Ġrang4Ġ":5425,"lai2Ġdao4Ġ":5426,"sui2Ġhou4Ġ":5427,"Ġzhi1Ġzhong1Ġ":5428,"lang4Ġ":5429,"Ġgai3":5430,"bi4Ġye4Ġyu2Ġ":5431,"xun4Ġlian4":5432,"cuo4Ġshi1Ġ":5433,"miao3Ġ":5434,"fa3ĠdeĠ":5435,"Ġyi4Ġshu4":5436,"zong3Ġdu1Ġ":5437,"zhu4Ġming2ĠdeĠ":5438,"xi4Ġlie4":5439,"Ġshi4Ġyou3Ġ":5440,"Ġjian4Ġdui4Ġ":5441,"kuai4Ġsu4Ġ":5442,"5Ġnian2Ġ":5443,"zhu4Ġyu2Ġ":5444,"Ġchang2":5445,"she2Ġ":5446,"1994Ġnian2Ġ":5447,"Ġshi2Ġren4Ġ":5448,"Ġyi1Ġsheng1Ġ":5449,"Ġzhu1":5450,"gu1Ġji4Ġ":5451,"hai2ĠziĠ":5452,"Ġer3Ġhe2Ġ":5453,"tai4Ġping2Ġyang2Ġ":5454,"ĠĠĠ2016":5455,"yan2Ġge2Ġ":5456,"Ġzhong1ĠdeĠ":5457,"tong2Ġyi4Ġ":5458,"leĠda4Ġ":5459,"sheng1Ġwei4Ġ":5460,"dao3Ġshi4Ġ":5461,"cheng2Ġgong1Ġ":5462,"si4Ġge4Ġ":5463,"fa1Ġdian4Ġ":5464,"Ġjie2Ġmu4Ġ":5465,"Ġshang4Ġhai3":5466,"zhan4Ġzhong1Ġ":5467,"ĠdeĠqian2Ġ":5468,"Ġren2Ġlei4Ġ":5469,"shang3Ġ":5470,"jie2Ġshu4Ġhou4Ġ":5471,"Ġde2Ġyi3Ġ":5472,"pu3Ġtong1Ġ":5473,"Ġxiang3":5474,"ĠdeĠshi2Ġqu1Ġwei4Ġ":5475,"Ġzheng4Ġce4Ġ":5476,"Ġming2Ġcheng1Ġ":5477,"che4Ġxiao1Ġ":5478,"yu3Ġzhong1Ġ":5479,"Ġsheng4":5480,"ĠĠĠzhi4Ġ":5481,"Ġtw":5482,"Ġfang1Ġ":5483,"tou2Ġpiao4Ġ":5484,"Ġyang2":5485,"Ġwang3Ġ":5486,"di3Ġda2Ġ":5487,"Ġyin4Ġdu4Ġ":5488,"Ġjin3Ġguan3":5489,"fa1ĠdeĠ":5490,"15Ġ":5491,"ju2Ġzhang3Ġ":5492,"ĠdeĠshi2Ġjian1Ġ":5493,"geng4Ġjia1Ġ":5494,"1995Ġnian2Ġ":5495,"zhe4Ġxie1":5496,"Ġwei4Ġsheng1Ġ":5497,"yue4Ġtai2Ġ":5498,"Ġping2Ġtai2Ġ":5499,"fan3Ġhui2Ġ":5500,"guang3Ġxi1Ġ":5501,"zhai2Ġ":5502,"fei3Ġ":5503,"hansĠ":5504,"kuo4Ġda4Ġ":5505,"ha1Ġer3Ġ":5506,"ĠhansĠ":5507,"yi4Ġzhong1Ġ":5508,"deng1Ġlu4Ġ":5509,"rong2Ġyu4Ġ":5510,"ĠtwĠ":5511,"Ġqian2":5512,"yue4Ġshi2Ġ":5513,"zhong4Ġda4Ġ":5514,"Ġqi1":5515,"lu4Ġyi4Ġ":5516,"zu3Ġcheng2ĠdeĠ":5517,"zhi3Ġzai4Ġ":5518,"que4Ġding4Ġ":5519,"25Ġ":5520,"Ġshi4Ġyan3Ġ":5521,"ye4Ġhou4Ġ":5522,"Ġbu4Ġke3Ġ":5523,"Ġsa4Ġ":5524,"Ġbing4Ġmei2Ġyou3Ġ":5525,"Ġcheng1":5526,"Ġci3Ġshi2Ġ":5527,"ĠĠĠdeĠshi2Ġ":5528,"jin4Ġxing2":5529,"Ġa1Ġer3Ġ":5530,"Ġxue2Ġxi2Ġ":5531,"wan3Ġshang4Ġ":5532,"jiao4Ġqu1Ġ":5533,"qi4Ġche1Ġ":5534,"Ġmu4Ġqian2":5535,"ming2Ġcheng1Ġ":5536,"ya4Ġli4Ġshan1":5537,"gai3Ġbian1":5538,"Ġlv4Ġ":5539,"wu4Ġzhong3":5540,"guan1Ġzhong4Ġ":5541,"xiao1Ġshou4Ġ":5542,"ĠĠĠ2023":5543,"Ġguo2Ġwu4Ġ":5544,"Ġzhi1Ġyuan2Ġ":5545,"yuan4ĠdeĠ":5546,"ba1Ġxi1Ġ":5547,"Ġgong1Ġye4":5548,"Ġhuo4Ġzhe3Ġ":5549,"ru4Ġkou3Ġ":5550,"xiang1Ġtong2Ġ":5551,"ba1Ġli2Ġ":5552,"ban3ĠdeĠ":5553,"po4Ġhuai4Ġ":5554,"Ġxia4":5555,"xue2Ġhe2Ġ":5556,"sun3Ġshi1Ġ":5557,"biao3Ġxian4":5558,"pan1Ġ":5559,"Ġshi2Ġxian4Ġ":5560,"xi1Ġla4":5561,"fa1Ġxian4ĠleĠ":5562,"ĠĠĠ2014":5563,"kan4Ġdao4Ġ":5564,"nai3Ġ":5565,"qi1Ġzi3Ġ":5566,"guan1Ġzhu4Ġ":5567,"Ġceng2Ġren4Ġ":5568,"Ġbing4Ġyi3Ġ":5569,"ĠÑ":5570,"qiang3Ġ":5571,"xiong1Ġya2":5572,"Ġ6Ġyue4Ġ":5573,"Ġchuang4Ġ":5574,"ĠĠĠsuo3Ġshu3ĠdeĠsheng3Ġji2Ġxuan3Ġqu1Ġwei4Ġ":5575,"ĠĠĠdeĠyou2Ġzheng4Ġbian1Ġma3Ġwei4Ġ":5576,"ĠĠĠyu3Ġjie1Ġrang3ĠdeĠshi4Ġzhen4Ġ":5577,"ĠĠĠyu2Ġshi2ĠdeĠren2Ġkou3Ġshu4Ġliang4Ġwei4Ġren2Ġ":5578,"ĠĠĠdeĠshi2Ġqu1Ġwei4Ġ":5579,"zhuang1Ġzhi4Ġ":5580,"Ġxuan1Ġbu4Ġ":5581,"zhi2Ġwei4Ġ":5582,"22Ġ":5583,"Ġ2011":5584,"ĠU":5585,"ji4Ġhe2Ġ":5586,"Ġzuo4Ġyong4Ġ":5587,"Ġquan2Ġzhang3Ġ":5588,"tu2Ġzhong1Ġ":5589,"su1Ġlian2":5590,"ĠĠĠN":5591,"kai1Ġfang4":5592,"xu1Ġqiu2Ġ":5593,"can2Ġ":5594,"Ġzhi1Ġming2Ġ":5595,"ĠÎ":5596,"lin2ĠdeĠ":5597,"Ġsi1Ġla1Ġ":5598,"shi2Ġwei4Ġ":5599,"heng2Ġxing1Ġ":5600,"tui1Ġdong4Ġ":5601,"ĠĠĠji1Ġ":5602,"wei2ĠdeĠ":5603,"Ġshi4Ġzhang3Ġ":5604,"Ġquan2Ġbu4Ġ":5605,"Ġnian2Ġqing1":5606,"guan3Ġli3":5607,"Ġ2019":5608,"Ġjia1Ġting2Ġ":5609,"ru4Ġqin1Ġ":5610,"ru2Ġci3Ġ":5611,"Ġhk":5612,"tai2Ġbei3Ġ":5613,"yu3Ġhe2Ġ":5614,"yi2Ġdong4Ġ":5615,"Ġyi1Ġdai4Ġ":5616,"jin4Ġshi4Ġ":5617,"fu4ĠdeĠ":5618,"Ġchu1Ġxian4Ġzai4Ġ":5619,"zhe4Ġjiang1Ġ":5620,"mu3Ġqin1Ġ":5621,"xiong1Ġya2Ġli4Ġ":5622,"mu4Ġsi1Ġ":5623,"1991Ġnian2Ġ":5624,"Ġren2Ġshu4Ġ":5625,"fu4Ġqin1Ġ":5626,"Ġdan4Ġta1Ġ":5627,"Ġxi1Ġban1Ġya2":5628,"Ġmian4Ġ":5629,"ĠĠĠ2015":5630,"min2Ġzu2":5631,"guang3Ġbo1":5632,"zui4Ġchu1Ġ":5633,"tai2ĠdeĠ":5634,"Ġdi4Ġqiu2Ġ":5635,"Ġgan1Ġ":5636,"Ġshi4Ġzhi3Ġ":5637,"1Ġnian2Ġ":5638,"leĠĠĠ":5639,"ti2Ġsheng1Ġ":5640,"fei1Ġjian4Ġzhi4Ġ":5641,"Ġduan4Ġ":5642,"Ġche1Ġzhan4Ġ":5643,"Ġ5Ġyue4Ġ":5644,"shu4Ġxue2Ġ":5645,"xun4Ġsu4Ġ":5646,"ĠhkĠ":5647,"Ġjin3":5648,"ĠĠĠ2013":5649,"Ġsi1Ġtan3Ġ":5650,"Ġwei4Ġhe2Ġ":5651,"Ġbing4Ġli4Ġ":5652,"Ġcheng2Ġwei2ĠleĠ":5653,"Ġzhuan3Ġ":5654,"niu3Ġyue1Ġ":5655,"Ġjing1":5656,"fa1Ġxing2":5657,"Ġjin4Ġru4":5658,"te4Ġli3Ġ":5659,"kang4Ġri4Ġ":5660,"Ġhe2Ġxin1Ġ":5661,"Ġge4Ġzhong3Ġ":5662,"zong3Ġbu4Ġ":5663,"Ġji2Ġqi2":5664,"fa1Ġsheng1":5665,"shou1Ġlu4Ġ":5666,"Ġshi4Ġren2Ġ":5667,"jiao4ĠdeĠ":5668,"gao3Ġ":5669,"lan2Ġke4Ġ":5670,"mang2Ġ":5671,"ming2Ġyi4Ġ":5672,"cai2Ġzheng4Ġ":5673,"chang4Ġpian4Ġ":5674,"ĠĠĠnian2Ġ":5675,"Ġzuo4Ġpin3":5676,"sa4Ġke4Ġ":5677,"Ġji4Ġzai3Ġ":5678,"50Ġ":5679,"Ġzhong1Ġwen2Ġ":5680,"8Ġnian2Ġ":5681,"jue2Ġsai4":5682,"16Ġ":5683,"jin4Ġgong1Ġ":5684,"Ġshi4Ġji2Ġ":5685,"qi3Ġyi4Ġ":5686,"can1Ġyi4Ġ":5687,"zhuang4Ġkuang4Ġ":5688,"Ġzao4Ġcheng2Ġ":5689,"Ġxian4Ġyu2Ġ":5690,"lv4Ġwei4Ġ":5691,"ĠĠĠzhong1Ġguo2Ġ":5692,"leĠta1Ġ":5693,"zeng1Ġzhang3Ġ":5694,"gao1Ġdu4Ġ":5695,"chan3Ġpin3":5696,"can1Ġkao3Ġ":5697,"fei1Ġjian4Ġzhi4Ġdi4Ġqu1Ġ":5698,"Ġji4Ġsuan4":5699,"zhan4Ġdou4Ġ":5700,"dou1Ġhui4Ġ":5701,"Ġhe2Ġbing4Ġ":5702,"Ġsheng1Ġhuo2":5703,"wang2ĠdeĠ":5704,"IĠ":5705,"Ġhuang2":5706,"Ġe2Ġluo2Ġsi1Ġ":5707,"zhong4Ġdian3Ġ":5708,"diao4Ġcha2":5709,"chai1Ġ":5710,"Ġda4Ġlou2Ġ":5711,"hai3Ġdao4Ġ":5712,"chang4Ġpian4":5713,"Ġren2ĠmenĠ":5714,"wei1Ġxie2Ġ":5715,"ao4Ġdi4Ġli4Ġ":5716,"Ġhe2Ġzhong1Ġ":5717,"shang4Ġshu1Ġ":5718,"Ġwei2Ġqi2Ġ":5719,"ling3Ġdao3Ġren2Ġ":5720,"kan3Ġ":5721,"Ġhou4":5722,"Ġdao3Ġ":5723,"jing1Ġshen2Ġ":5724,"Ġxiang1Ġguan1Ġ":5725,"jia1Ġzhong1Ġ":5726,"sui1Ġran2Ġ":5727,"Ġyin1Ġer2Ġ":5728,"yue4Ġzai4Ġ":5729,"liang3Ġren2Ġ":5730,"Ġbu4Ġduan4Ġ":5731,"can1Ġjia1ĠleĠ":5732,"Ġfang2Ġ":5733,"ying2Ġyun4Ġ":5734,"hua4Ġwei4Ġ":5735,"jiang1Ġxi1Ġ":5736,"ĠdeĠcheng2Ġyuan2Ġ":5737,"jie2Ġke4Ġ":5738,"23Ġ":5739,"tu2Ġshu1Ġguan3Ġ":5740,"Ġhe2Ġcheng2Ġ":5741,"zhu3Ġchi2Ġ":5742,"Ġzhong1Ġguo2Ġgong4Ġchan3Ġdang3Ġ":5743,"ju4ĠdeĠ":5744,"na4Ġli3Ġ":5745,"Ġ4Ġyue4Ġ":5746,"min2Ġzhong4Ġ":5747,"1988Ġnian2Ġ":5748,"jin4Ġru4":5749,"mou3Ġxie1Ġ":5750,"Ġhua2":5751,"shen1Ġwei4Ġ":5752,"ju1Ġzhu4Ġ":5753,"zi4Ġdong4Ġ":5754,"xia4Ġji4Ġao4Ġlin2Ġpi3Ġke4Ġyun4Ġdong4Ġhui4Ġ":5755,"yin1Ġshi4Ġ":5756,"Ġxiao3":5757,"zhan4Ġdou4":5758,"shi2Ġjian1Ġ":5759,"Ġyou3Ġshi2Ġ":5760,"chan3Ġsheng1ĠdeĠ":5761,"ĠĠĠzhĠ":5762,"Ġzai4Ġjia1Ġ":5763,"Ġtian1":5764,"shuo1Ġming2Ġ":5765,"Ġzuo3Ġ":5766,"Ġzheng4Ġzhuang4Ġ":5767,"yin3Ġfa1Ġ":5768,"Ġwei3Ġ":5769,"Ġqiao2Ġ":5770,"jiang1Ġsu1Ġ":5771,"dao1Ġ":5772,"Ġ20":5773,"1993Ġnian2Ġ":5774,"Ġhuo4Ġde2ĠleĠ":5775,"Ġzhi1Ġxia4Ġ":5776,"Ġshi4Ġwei1Ġ":5777,"xiao3Ġshuo1":5778,"Ġxu3Ġduo1Ġ":5779,"Ġs":5780,"ĠĠĠjia1Ġzu2Ġ":5781,"alĠ":5782,"Ġshi4Ġzhen4":5783,"Ġgong1Ġren2Ġ":5784,"ding4ĠleĠ":5785,"you1Ġshi4Ġ":5786,"lan2Ġqiu2Ġ":5787,"Ġda4Ġduo1Ġ":5788,"zhou1ĠdeĠ":5789,"sui1Ġran2":5790,"ji4Ġshi2Ġ":5791,"Ġxiang4Ġmu4Ġ":5792,"xian3ĠdeĠ":5793,"cui4Ġ":5794,"zi1Ġxun4Ġ":5795,"ao4Ġyun4Ġhui4Ġ":5796,"su4ĠdeĠ":5797,"Ġda4Ġxing2Ġ":5798,"Ġ2018":5799,"13Ġ":5800,"Ġyue4Ġnan2Ġ":5801,"chuang1Ġ":5802,"xiang4Ġmu4":5803,"Ġji2Ġli4Ġ":5804,"Ġzhong1Ġhua2Ġ":5805,"LĠ":5806,"qu3Ġde2":5807,"jie2Ġhun1Ġ":5808,"yuan2Ġzai4Ġ":5809,"Ġbu4Ġmen2":5810,"Ġlai2Ġzi4Ġ":5811,"xiang1Ġdang1Ġ":5812,"Ġdan4Ġyou2Ġyu2Ġ":5813,"fang3Ġwen4Ġ":5814,"zhi2Ġdao4Ġ":5815,"jiao4Ġwei2Ġ":5816,"Ġshi4Ġwei4ĠleĠ":5817,"Ġdu2Ġ":5818,"Ġli3Ġlun4Ġ":5819,"pin3Ġpai2Ġ":5820,"can1Ġjia1":5821,"xi2Ġwei4Ġ":5822,"Ġdi4Ġwu3Ġ":5823,"Ġpei4Ġ":5824,"Ġyue4Ġtai2Ġ":5825,"zhong1Ġwei4Ġ":5826,"bĠ":5827,"Ġxuan3Ġ":5828,"zhen1Ġshi2Ġ":5829,"zhong1Ġhua2Ġren2Ġmin2Ġgong4Ġhe2Ġguo2Ġ":5830,"you3Ġbu4Ġ":5831,"yin4Ġdi4Ġ":5832,"zhou4Ġ":5833,"mei3Ġshu4Ġ":5834,"xing1Ġqi1Ġ":5835,"ming4Ġling4Ġ":5836,"xue2Ġshu4Ġ":5837,"ĠdeĠgong1Ġzuo4Ġ":5838,"ĠCĠ":5839,"2020Ġnian2Ġmei3Ġguo2Ġren2Ġkou3Ġpu3Ġcha2ĠdeĠshu4Ġju4Ġ":5840,"Ġlao3Ġ":5841,"jian4Ġshe4Ġ":5842,"ju3Ġxing2":5843,"ĠĠĠ2025":5844,"fang2Ġyu4Ġ":5845,"Ġren4Ġwu4Ġ":5846,"wu3Ġzhuang1Ġ":5847,"ba2Ġ":5848,"Ġbian1":5849,"yi2Ġchan3Ġ":5850,"ao4Ġmen2Ġ":5851,"tiao2Ġzheng3Ġ":5852,"Ġshi2Ġyi1Ġ":5853,"mĠĠĠ":5854,"Ġzheng4":5855,"bao4Ġdao3Ġ":5856,"enĠ":5857,"ti2Ġgao1Ġ":5858,"Ġwen2":5859,"Ġjia1Ġru4":5860,"Ġzhi1Ġhou4":5861,"1990Ġnian2Ġ":5862,"fei1Ġlv4Ġ":5863,"wa3Ġer3Ġ":5864,"yi3Ġlai2Ġ":5865,"Ġtian2Ġ":5866,"leĠta1ĠdeĠ":5867,"hui4Ġyuan2Ġ":5868,"Ġshi2Ġqi1":5869,"ji4Ġlu4Ġ":5870,"Ġji1Ġguan1Ġ":5871,"shu4Ġzi4Ġ":5872,"yun3Ġxu3Ġ":5873,"du1Ġshi4Ġ":5874,"leĠyi2Ġge4Ġ":5875,"hua4Ġjia1Ġ":5876,"ji1Ġchang3Ġ":5877,"yi2Ġmin2Ġ":5878,"shu1ĠdeĠ":5879,"ju4Ġli2Ġ":5880,"Ġfu4Ġze2":5881,"Ġzhuang1Ġ":5882,"Ġshi4Ġyi1Ġzhong3":5883,"jin1ĠdeĠ":5884,"Ġren2Ġlei4":5885,"Ġjiu3":5886,"ĠĠĠ2024":5887,"Ġzhou1Ġnian2Ġ":5888,"Ġzi4Ġji3ĠdeĠ":5889,"jie1Ġji2Ġ":5890,"duan4ĠdeĠ":5891,"du1Ġjiao4Ġ":5892,"hong1Ġzha4":5893,"nĠĠĠ":5894,"li4Ġshi4Ġ":5895,"ke4Ġli3Ġ":5896,"yan2ĠdeĠ":5897,"yao1Ġqing3Ġ":5898,"Ġxie2Ġ":5899,"ying2ĠdeĠ":5900,"hua1Ġyuan2Ġ":5901,"yong4Ġhu4Ġ":5902,"shan1Ġmai4":5903,"Ġliang2Ġ":5904,"sheng1Ġji2Ġ":5905,"yue1Ġyou3Ġ":5906,"Ġshi4Ġda4Ġ":5907,"wen2Ġzi4Ġ":5908,"Ġhong2":5909,"Ġding4Ġ":5910,"mian4Ġdui4Ġ":5911,"Ġ2011Ġnian2Ġ":5912,"dong1Ġji4Ġ":5913,"han2Ġshu4Ġ":5914,"zi1Ġjin1Ġ":5915,"deng3Ġwei4Ġ":5916,"su2Ġ":5917,"Ġcheng1Ġwei2Ġ":5918,"Ġli4Ġshi3":5919,"wu3Ġtai2Ġ":5920,"Ġsui4ĠdeĠ":5921,"Ġxu2":5922,"Ġshe4Ġji2Ġ":5923,"Ġzhuan3":5924,"Ġzhi4Ġshi2Ġ":5925,"Ġguan1":5926,"Ġzhi4Ġli4Ġ":5927,"gao1Ġdeng3Ġ":5928,"Ġshang4":5929,"Ġ2016":5930,"xiao4Ġguo3Ġ":5931,"Ġsuo3Ġyi3":5932,"yuan2Ġji2Ġ":5933,"Ġren2Ġmin2":5934,"shen1Ġqing3Ġ":5935,"Ġhe2Ġlan2Ġ":5936,"Ġ2005Ġnian2Ġ":5937,"dong4Ġzuo4Ġ":5938,"Ġou1Ġ":5939,"Ġxian4Ġhe2Ġ":5940,"Ġ3Ġyue4Ġ":5941,"mei3Ġguo2ĠdeĠ":5942,"Ġ2008Ġnian2Ġ":5943,"19Ġshi4Ġji4Ġ":5944,"Ġming2Ġchao2Ġzheng4Ġzhi4Ġren2Ġwu4Ġ":5945,"ĠĠĠxin1Ġ":5946,"ĠĠĠzao3Ġnian2Ġ":5947,"wei4ĠĠĠ":5948,"liang3Ġzhong3Ġ":5949,"Ġwan4Ġmei3Ġyuan2Ġ":5950,"Ġhan2Ġguo2Ġ":5951,"Ġri4Ġjun1Ġ":5952,"xia4Ġling4":5953,"jiao4Ġlian4Ġ":5954,"ling3Ġtu3Ġ":5955,"Ġju4":5956,"Ġshi1":5957,"nu3Ġli4Ġ":5958,"Ġyuan2Ġming2Ġ":5959,"zheng4Ġming2Ġ":5960,"Ġ30":5961,"Ġzhao1":5962,"ĠĠĠhou4Ġ":5963,"lie4Ġbiao3Ġ":5964,"lu4Ġjun1":5965,"Ġzhong1Ġyu2Ġ":5966,"zuo4Ġyong4Ġ":5967,"jing1Ġchang2Ġ":5968,"qu1Ġyu4":5969,"you3Ġzai4Ġ":5970,"Ġyi4Ġyi4Ġ":5971,"ying3Ġpian4":5972,"Ġxiu1Ġ":5973,"Ġjin4Ġxing2":5974,"Ġnan2Ġzhi4Ġ":5975,"ĠĠĠyou2Ġ":5976,"Ġguo2Ġhui4Ġ":5977,"Ġgong1Ġhui4Ġ":5978,"Ġyuan2Ġgong1Ġ":5979,"guan1Ġxi4":5980,"GĠ":5981,"Ġchi4Ġ":5982,"Ġji4Ġzhe3Ġ":5983,"nei4Ġlu4Ġ":5984,"2Ġren2Ġ":5985,"Ġpei4":5986,"zhao3Ġdao4Ġ":5987,"1984Ġnian2Ġ":5988,"wang2Ġchao2":5989,"hui2Ġying4Ġ":5990,"jing1Ġli3Ġ":5991,"lv3Ġxing2Ġ":5992,"yong4Ġzuo4Ġ":5993,"shen2Ġjing1Ġ":5994,"Ġshi4Ġhou4Ġ":5995,"Ġli3":5996,"li3Ġlun4Ġ":5997,"Ġying1":5998,"Ġgong1Ġchang3Ġ":5999,"fu4Ġjin4Ġ":6000,"Ġbo2":6001,"yu2Ġzai4Ġ":6002,"onĠĠĠ":6003,"Ġjue2":6004,"tai4Ġren2Ġ":6005,"Ġhe2Ġgong1Ġ":6006,"chu1Ġban3Ġ":6007,"ke3Ġyi3Ġzai4Ġ":6008,"sui4Ġdao4Ġ":6009,"bao3Ġchi2":6010,"zhi1Ġjian1Ġ":6011,"ti2Ġdao4Ġ":6012,"jiu3Ġdian4Ġ":6013,"ĠCh":6014,"Ġzhong3Ġ":6015,"Ġcheng2Ġxian4Ġ":6016,"Ġnian2Ġ1Ġyue4Ġ1Ġri4Ġ":6017,"Ġji1Ġche1Ġ":6018,"Ġshi2Ġer4Ġ":6019,"gui1Ġze2Ġ":6020,"wo3Ġmen":6021,"Ġluo2":6022,"ai1Ġji2Ġ":6023,"1989Ġnian2Ġ":6024,"qi4Ġxiang4Ġ":6025,"Ġbi3":6026,"ge2Ġwei4Ġ":6027,"ti1Ġ":6028,"shou3Ġji1Ġ":6029,"Ġguo2Ġfang2":6030,"kong1Ġzhong1Ġ":6031,"Ġnian2Ġshi4Ġjie4Ġ":6032,"zhu4Ġli3Ġ":6033,"Ġyu2Ġ18":6034,"bei4Ġshi4Ġwei4Ġ":6035,"tong1Ġdao4Ġ":6036,"kong3Ġbu4Ġ":6037,"qi2Ġzhong1Ġyi1Ġzhong3Ġ":6038,"Ġhen3Ġ":6039,"zuo4Ġwei4Ġ":6040,"shou3Ġdu1Ġ":6041,"ĠdeĠzhi4Ġ":6042,"li4Ġwei4Ġ":6043,"shu1Ġji2Ġ":6044,"Ġer2Ġcheng2Ġ":6045,"ji1Ġhe2Ġ":6046,"toĠĠĠ":6047,"dong1Ġnan2Ġbu4Ġ":6048,"Ġwo3ĠmenĠ":6049,"yi3Ġxia4Ġ":6050,"Ġxi1Ġwang4":6051,"Ġmei3Ġnian2Ġ":6052,"yan3Ġyi4Ġ":6053,"xin1Ġjia1Ġpo1":6054,"da4Ġlu4ĠdeĠ":6055,"Ġfan3":6056,"Ġlei2Ġ":6057,"qi3Ġye4":6058,"meng3Ġ":6059,"Ġzuo4Ġwei2":6060,"dai4Ġli3Ġ":6061,"ĠdeĠjia1Ġ":6062,"jin1Ġshu3Ġ":6063,"jin4Ġyi2Ġbu4Ġ":6064,"lao2Ġdong4Ġ":6065,"zhu3Ġchi2":6066,"jiao4Ġxue2Ġ":6067,"biao3Ġmian4Ġ":6068,"gu4Ġwen4Ġ":6069,"Ġying1Ġyu3Ġ":6070,"ĠsĠĠĠ":6071,"ni1Ġ":6072,"Ġhe2Ġxi1Ġ":6073,"Ġbu4Ġbu4Ġ":6074,"cai2Ġliao4Ġ":6075,"Ġhe2Ġshi2Ġ":6076,"Ġyou3Ġji1Ġ":6077,"chao2Ġxian1":6078,"Ġ2001Ġnian2Ġren2Ġkou3Ġ":6079,"dao4Ġlu4Ġ":6080,"fen1Ġzhong1Ġ":6081,"hua2Ġren2Ġ":6082,"Ġzai4Ġwei4Ġ":6083,"Ġbei3Ġqi3Ġ":6084,"jing4ĠdeĠ":6085,"si3Ġhou4Ġ":6086,"bao3Ġliu2Ġ":6087,"bo1Ġlan2":6088,"tong1Ġche1Ġ":6089,"si1Ġli4Ġ":6090,"14Ġ":6091,"Ġzhong1Ġguo2Ġda4Ġlu4Ġ":6092,"bai2Ġse4Ġ":6093,"ya4Ġli4Ġshan1Ġda4Ġ":6094,"Ġtu3Ġ":6095,"hui4Ġshi4Ġ":6096,"Ġyi3Ġbei4Ġ":6097,"KĠ":6098,"Ġwan4Ġyuan2Ġ":6099,"ju1Ġmin2":6100,"zhu3Ġli4Ġ":6101,"Ġping2Ġmian4Ġ":6102,"ni2Ġke4Ġ":6103,"Ġta1Ġwei4Ġ":6104,"Ġ2021":6105,"ĠĠĠJ":6106,"zhu3ĠdeĠ":6107,"Ġzhi1Ġjian1":6108,"zhai4Ġ":6109,"Ġsi1Ġte4":6110,"fa3Ġan4Ġ":6111,"yin3Ġqi3Ġ":6112,"nv3Ġzi3":6113,"yin3Ġqi3":6114,"Ġxian4ĠdeĠyi2Ġge4Ġ":6115,"Ġdao4Ġda2Ġ":6116,"zhao4Ġkai1Ġ":6117,"Ġnv3Ġxing4Ġ":6118,"Ġdong1Ġnan2Ġ":6119,"yun4Ġzuo4Ġ":6120,"jiao1Ġhui4Ġ":6121,"shou3Ġge4Ġ":6122,"tui4Ġchu1Ġ":6123,"di4Ġer4Ġ":6124,"Ġer2Ġyan2Ġ":6125,"Ġxian4ĠdeĠyi2Ġge4":6126,"Ġbei4Ġren4Ġwei2Ġshi4Ġ":6127,"ĠĠĠ2012":6128,"li4Ġzai4Ġ":6129,"zha2Ġ":6130,"Ġji1Ġhu1":6131,"Ġke4Ġcheng2Ġ":6132,"wen2Ġzhang1Ġ":6133,"ceng2Ġjing1":6134,"Ġcha2Ġ":6135,"jie4ĠdeĠ":6136,"ji3Ġge4Ġ":6137,"Ġshi4Ġjia1Ġ":6138,"Ġyou3Ġyi4Ġ":6139,"te4Ġshu1Ġ":6140,"Ġxi1Ġsi1Ġ":6141,"xiang1Ġguan1":6142,"shi1Ġfan4":6143,"Ġfu4Ġqin1Ġ":6144,"wu2Ġfa3":6145,"3Ġren2Ġ":6146,"can1Ġmou2":6147,"jin1Ġhui4Ġ":6148,"1985Ġnian2Ġ":6149,"jiao4Ġshi1Ġ":6150,"Ġgang3Ġ":6151,"ĠĠĠxia4Ġ":6152,"lv4Ġshi1Ġ":6153,"fei1Ġzhou1Ġ":6154,"Ġshi4Ġyu3Ġ":6155,"xi1Ġban1Ġya2":6156,"Ġju4Ġyou3Ġ":6157,"da4Ġwei4Ġ":6158,"Ġyi1Ġji2Ġ":6159,"Ġge2":6160,"ngĠ":6161,"chang2ĠdeĠ":6162,"Ġbu4Ġde2":6163,"Ġta1ĠmenĠzai4Ġ":6164,"Ġban1Ġ":6165,"Ġqu3Ġ":6166,"wei1Ġji1Ġ":6167,"yi2Ġzhi3Ġ":6168,"Ġyi4Ġfang1Ġmian4Ġ":6169,"fa3Ġyuan4":6170,"Ġer2Ġshui3Ġyu4Ġmian4Ġji1Ġwei4Ġ0":6171,"Ġfeng2Ġ":6172,"leng3Ġ":6173,"Ġguo2Ġjia1ĠdeĠ":6174,"zhe3Ġzai4Ġ":6175,"Ġhe2Ġqi2Ġta1Ġ":6176,"xi4Ġtong3ĠdeĠ":6177,"Ġli2":6178,"ya4Ġzhou1":6179,"che1ĠdeĠ":6180,"jin1Ġpai2Ġ":6181,"duo1Ġnian2Ġ":6182,"Ġzhi1Ġwei4Ġ":6183,"Ġbing4Ġjiang1Ġ":6184,"Ġzhu3Ġxi2Ġ":6185,"kang1Ġxi1Ġ":6186,"yao4Ġwu4Ġ":6187,"Ġhai3":6188,"Ġcheng2Ġxu4Ġ":6189,"Ġwei4Ġyou3Ġ":6190,"biao3Ġda2":6191,"Ġ00Ġ":6192,"da4Ġdi4Ġ":6193,"bian4Ġde2Ġ":6194,"inĠ":6195,"Ġcheng2Ġren4Ġ":6196,"zhi2Ġmin2":6197,"guo4Ġqu4Ġ":6198,"pu2Ġtao2Ġya2":6199,"Ġyong1Ġyou3Ġ":6200,"ĠĠĠcheng2Ġ":6201,"Ġzhi4Ġliao2Ġ":6202,"huan1Ġying2Ġ":6203,"wen2Ġxian4Ġ":6204,"Ġsi1Ġke4Ġ":6205,"Ġjin4Ġxing2ĠleĠ":6206,"mu4Ġbiao1":6207,"fu2Ġyi4Ġ":6208,"zhuang1Ġshi4Ġ":6209,"dong1Ġbei3Ġbu4Ġ":6210,"gou4Ġzao4Ġ":6211,"huo4Ġde2ĠleĠ":6212,"bo2Ġwu4Ġguan3":6213,"ao4Ġda4Ġli4Ġya4Ġ":6214,"Ġfei4":6215,"Ġguan1Ġyu2Ġ":6216,"Ġqiu2Ġyuan2Ġ":6217,"Ġ100":6218,"jiang1Ġhui4Ġ":6219,"Ġbai3Ġ":6220,"ben3Ġdi4Ġ":6221,"Ġer2Ġgai1Ġdi4Ġ":6222,"xian1Ġsheng1Ġ":6223,"Ġbu4Ġla1Ġ":6224,"bo1Ġlan2Ġ":6225,"Ġti2Ġgong1Ġ":6226,"1949Ġnian2Ġ":6227,"Ġyu2Ġle4Ġ":6228,"jia1Ġru4":6229,"fang4Ġqi4Ġ":6230,"jian4Ġyi4Ġ":6231,"Ġ2015":6232,"yi4Ġda4Ġli4Ġ":6233,"dang1Ġshi2ĠdeĠ":6234,"Ġqi1Ġxi1Ġzai4Ġ":6235,"Ġban4Ġ":6236,"ze2Ġwei4Ġ":6237,"mao2Ġze2Ġ":6238,"liang3Ġnian2Ġ":6239,"xiao4ĠdeĠ":6240,"sa4Ġsi1Ġ":6241,"Ġbing4Ġyu3Ġ":6242,"Ġzhu4":6243,"Ġda4Ġlu4Ġ":6244,"OĠ":6245,"Ġqi3":6246,"fu4Ġqin1":6247,"Ġwei4Ġlai2Ġ":6248,"Ġ2007Ġnian2Ġ":6249,"stĠĠĠ":6250,"zi4Ġyou2":6251,"guang3Ġgao4Ġ":6252,"ĠĠĠcong2Ġ":6253,"Ġjian4Ġzao4Ġ":6254,"Ġjin4Ġyi2Ġbu4Ġ":6255,"liu2Ġzai4Ġ":6256,"cheng1Ġzuo4Ġ":6257,"shou1Ġshi4Ġ":6258,"ĠdeĠzheng4Ġ":6259,"nan2Ġjing1Ġ":6260,"Ġjin4Ġgong1Ġ":6261,"jin3Ġji2Ġ":6262,"sa4Ġer3Ġ":6263,"luo2Ġdi4Ġ":6264,"Ġshi4Ġzheng4Ġ":6265,"Ġfu4Ġqin1":6266,"Ġji4Ġshu4":6267,"Ġhao4Ġwei4Ġ":6268,"Ġc":6269,"ji4Ġxu4Ġ":6270,"xi4Ġju4Ġ":6271,"tan3Ġke4Ġ":6272,"esĠ":6273,"ĠdeĠsheng1Ġ":6274,"Ġren2Ġmen":6275,"Ġri4Ġjun1":6276,"9Ġnian2Ġ":6277,"Ġyi4Ġmei3Ġyuan2Ġ":6278,"ci4Ġshi3Ġ":6279,"Ġ2013":6280,"Ġbing1Ġ":6281,"Ġzai4Ġci3":6282,"Ġgao1":6283,"Ġte4Ġbie2Ġshi4Ġ":6284,"huo3Ġjian4Ġ":6285,"Ġjia1Ġzu2Ġ":6286,"piao4Ġfang2Ġ":6287,"orĠ":6288,"qing3Ġqiu2Ġ":6289,"jing3Ġfang1Ġ":6290,"kao3Ġlv4":6291,"bi3Ġli4Ġshi2Ġ":6292,"1986Ġnian2Ġ":6293,"Ġshi4Ġri4Ġben3Ġ":6294,"Ġsi1Ġtan3":6295,"Ġjie2Ġguo3":6296,"tai4Ġping2Ġyang2":6297,"zhan1Ġmu3Ġsi1Ġ":6298,"que4Ġren4Ġ":6299,"Ġ2014":6300,"Ġchu1Ġsheng1Ġ":6301,"Ġxi4Ġlie4Ġ":6302,"di4Ġzai4Ġ":6303,"tian1ĠdeĠ":6304,"pai1Ġ":6305,"Ġyi3Ġyou3Ġ":6306,"bian1ĠdeĠ":6307,"shang4Ġwu3Ġ":6308,"tou2Ġpiao4":6309,"ba1Ġli2":6310,"wang2Ġchao2Ġ":6311,"nei4Ġyou3Ġ":6312,"wan2Ġgong1Ġ":6313,"Ġzhi4Ġcheng2Ġ":6314,"guang3Ġdong1Ġsheng3Ġ":6315,"ĠĠĠjie2Ġzhi4Ġ":6316,"pai1Ġshe4":6317,"Ġyuan2Ġben3Ġ":6318,"cheng2Ġnian2Ġ":6319,"fen3Ġ":6320,"chang3Ġhe2Ġ":6321,"Ġqi2Ġzai4Ġ":6322,"Ġzhi1ĠziĠ":6323,"mu3Ġqin1":6324,"shen1Ġti3Ġ":6325,"meng2Ġgu3":6326,"Ġsai4Ġji4Ġ":6327,"Ġda4Ġyue1Ġ":6328,"Ġzhan4Ġdou4Ġ":6329,"Ġzhi1ĠdeĠ":6330,"gu3Ġfen4":6331,"xi2Ġxing4":6332,"geng4Ġduo1Ġ":6333,"hu2Ġbei3Ġ":6334,"Ġyue1Ġhan4Ġ":6335,"Ġhe4Ġ":6336,"deng1Ġshang4Ġ":6337,"Ġxian4Ġchang3Ġ":6338,"Ġdeng4":6339,"ĠĠĠzeng1Ġ":6340,"suo3Ġzai4Ġ":6341,"qing2Ġbao4Ġ":6342,"Ġying1Ġwen2Ġ":6343,"Ġjing1Ġji4Ġ":6344,"ĠĠĠ2":6345,"ĠĠĠU":6346,"wai4Ġbu4Ġ":6347,"zhong4Ġyi4Ġ":6348,"min2Ġjian1Ġ":6349,"yan3Ġchang4Ġ":6350,"mi4Ġmi4Ġ":6351,"guan1Ġbi4Ġ":6352,"guang3Ġfan4":6353,"Ġce4Ġ":6354,"xiao4Ġyuan2Ġ":6355,"Ġshi4Ġye4Ġ":6356,"Ġzai4Ġqi2Ġ":6357,"1Ġren2Ġ":6358,"kao3Ġlv4Ġ":6359,"e2Ġluo2Ġsi1":6360,"Ġliang4Ġ":6361,"te4Ġse4Ġ":6362,"Ġwo3Ġmen":6363,"Ġshou1Ġ":6364,"Ġyou3Ġxian4Ġ":6365,"sen1Ġlin2Ġ":6366,"ma3Ġsi1Ġ":6367,"Ġnian2ĠĠĠ":6368,"Ġ2020":6369,"Ġlv3Ġ":6370,"Ġai1Ġ":6371,"wu4Ġyuan2Ġ":6372,"an1Ġpai2Ġ":6373,"Ġquan2Ġqiu2Ġ":6374,"Ġxiang3Ġ":6375,"Ġxun2Ġ":6376,"Ġhao2Ġmi3Ġ":6377,"xia4Ġyi1Ġ":6378,"er4Ġyue4Ġ":6379,"Ġda4Ġduo1Ġshu4Ġ":6380,"Ġbu4Ġjiu3":6381,"zhuang1Ġbei4Ġ":6382,"chi1Ġ":6383,"Ġheng2Ġ":6384,"huan3Ġ":6385,"Ġda4Ġdao4Ġ":6386,"Ġwo4":6387,"neng2Ġzai4Ġ":6388,"zeng4Ġ":6389,"Ġji1Ġbai4":6390,"tu3Ġer3Ġqi2Ġ":6391,"Ġcan1Ġjia1Ġ":6392,"Ġ10Ġ":6393,"qian1Ġzhi4Ġ":6394,"Ġdi4Ġyi1Ġci4Ġ":6395,"Ġzui4Ġgao1Ġ":6396,"ngĠĠĠ":6397,"chang3Ġdi4Ġ":6398,"cun4Ġ":6399,"min2Ġzhu3Ġdang3Ġ":6400,"Ġyan2":6401,"xing4Ġqu4Ġ":6402,"Ġshi2Ġyan4Ġ":6403,"zuo4Ġzhan4Ġ":6404,"nan2Ġyi3Ġ":6405,"Ġji2Ġbei3Ġ":6406,"Ġchu1Ġlai2Ġ":6407,"tai2Ġfeng1Ġ":6408,"tian1Ġjin1Ġ":6409,"Ġ2017":6410,"Ġzhong1Ġshi4Ġ":6411,"ban4Ġli3Ġ":6412,"Ã©Ġ":6413,"Ġzhi1Ġdao4Ġ":6414,"tian1Ġjin1":6415,"Ġgang1Ġ":6416,"long2Ġjiang1Ġ":6417,"ling3Ġshi4Ġ":6418,"Ġbu4Ġzu2Ġ":6419,"yong4Ġtu2Ġ":6420,"li3Ġgong1Ġ":6421,"Ġtong1Ġchang2":6422,"Ġkang1Ġ":6423,"Ġyuan2Ġsu4Ġ":6424,"wei1Ġer3Ġ":6425,"nong2Ġye4":6426,"Ġqing1Ġchao2Ġ":6427,"ai1Ġer3Ġ":6428,"chang2Ġjian4ĠdeĠ":6429,"Ġcheng2Ġdu4Ġ":6430,"zhan4Ġling3Ġ":6431,"Ġnian2Ġbei4Ġ":6432,"jin4Ġxing2ĠleĠ":6433,"Ġshi3Ġjian4Ġyu2Ġ":6434,"ĠĠĠming2Ġ":6435,"dao3Ġdan4Ġ":6436,"xiu1Ġzheng4Ġ":6437,"Ġyue4Ġtuan2Ġ":6438,"ĠĠĠxian4":6439,"gui4Ġzhou1Ġ":6440,"maĠ":6441,"fen1Ġbu4Ġyu2Ġ":6442,"ma3Ġlai2Ġxi1Ġya4Ġ":6443,"zu3Ġjian4Ġ":6444,"xi3Ġju4Ġ":6445,"Ġgong1Ġzhu3Ġ":6446,"Ġta1Ġhai2Ġ":6447,"zhang4Ġai4Ġ":6448,"xi2Ġxing4Ġbu4Ġming2Ġ":6449,"Ġshi2Ġdai4":6450,"xiang4Ġshi4Ġ":6451,"Ġwen2Ġhua4Ġ":6452,"Ġchu1Ġqi1Ġ":6453,"Ġzhan4Ġdou4":6454,"hua2Ġsheng4Ġ":6455,"sheng1Ġcheng2Ġ":6456,"teĠ":6457,"Ġyou3Ġxie1Ġ":6458,"jiao1Ġliu2Ġ":6459,"ren4Ġming4Ġwei4Ġ":6460,"Ġsheng1Ġchan3":6461,"ĠĠĠta1Ġ":6462,"Ġyi4Ġqi3":6463,"fa3Ġguan1Ġ":6464,"Ġye3Ġjiu4Ġshi4Ġ":6465,"ĠdeĠfang1Ġshi4Ġ":6466,"Ġhe2Ġhe2Ġ":6467,"Ġsheng1Ġhuo2Ġxi2Ġxing4Ġbu4Ġming2Ġ":6468,"she4Ġzhi4Ġ":6469,"shou4Ġdao4":6470,"ti2Ġchu1":6471,"Ġchu3Ġyu2Ġ":6472,"ji1Ġchu3Ġ":6473,"Ġta1Ġye3Ġ":6474,"Ġtao2Ġ":6475,"4Ġren2Ġ":6476,"Ġluo4":6477,"hen3Ġda4Ġ":6478,"zhi4Ġzhong1Ġ":6479,"ku3Ġ":6480,"bao4Ġfa1":6481,"zhu3Ġshi4Ġ":6482,"Ġwan4Ġli4Ġ":6483,"Ġgen1Ġju4":6484,"ĠĠĠmei3Ġguo2Ġ":6485,"seĠ":6486,"ju4Ġjue2Ġ":6487,"ling3Ġxiu4Ġ":6488,"Ġyin2Ġ":6489,"Ġgong4Ġyou3Ġ":6490,"la1Ġding1":6491,"chuan2Ġshuo1Ġ":6492,"hua4Ġhe2Ġwu4Ġ":6493,"Ġgong4":6494,"Ġhan4":6495,"Ġer2Ġbu2Ġshi4Ġ":6496,"an1Ġzhuang1":6497,"Ġzhao4":6498,"Ġrui4Ġ":6499,"ren4Ġshi2Ġ":6500,"1987Ġnian2Ġ":6501,"chuang4Ġban4":6502,"Ġxuan1Ġ":6503,"Ġkong3Ġ":6504,"bao4Ġli4Ġ":6505,"an1Ġna4Ġ":6506,"Ġyi1Ġxue2Ġ":6507,"Ġpa4":6508,"zhi4Ġbu4Ġ":6509,"ĠAĠ":6510,"jia1Ġli4Ġfu2Ġ":6511,"qiong2Ġ":6512,"Ġyou3Ġyi2Ġge4Ġ":6513,"Ġxian4Ġxiang4Ġ":6514,"shang4Ġying4Ġ":6515,"ĠĠĠli3Ġ":6516,"fa3Ġyu3Ġ":6517,"wen2Ġyi4Ġ":6518,"shu2Ġ":6519,"Ġzai4Ġnei4ĠdeĠ":6520,"gao1Ġsu4Ġ":6521,"Ġzai4Ġdu4Ġ":6522,"Ġer2Ġbu4Ġ":6523,"ji4Ġshi4Ġ":6524,"yuan4Ġshi4Ġ":6525,"Ġwei4Ġxing1Ġ":6526,"Ġli3Ġlun4":6527,"wo3ĠmenĠ":6528,"Ġka3":6529,"yan2Ġshen1":6530,"hai3Ġan4Ġ":6531,"Ġrong2Ġ":6532,"chuang4Ġjian4Ġ":6533,"bin1Ġhai3Ġ":6534,"shun4Ġli4Ġ":6535,"1980Ġnian2Ġ":6536,"Ġdong1Ġbei3Ġ":6537,"ĠĠĠci3Ġwai4Ġ":6538,"Ġ2013Ġnian2Ġ":6539,"mei3Ġge4Ġ":6540,"lei2Ġsi1Ġ":6541,"ruan3Ġjian4Ġ":6542,"Ġsheng1Ġzhang3":6543,"Ġyou2Ġqi2Ġshi4Ġ":6544,"tui1Ġjin4Ġ":6545,"Ġhe2Ġbu4Ġ":6546,"shu1Ġru4Ġ":6547,"zi1Ġchan3Ġ":6548,"nv3Ġxing4":6549,"lun4Ġwen2Ġ":6550,"Ġxing2Ġzheng4":6551,"wang3Ġqiu2Ġ":6552,"hai3Ġwai4Ġ":6553,"tong2Ġnian2Ġ":6554,"Ġta3Ġ":6555,"Ġshu3":6556,"Ġna4":6557,"Ġbu4Ġluo4Ġ":6558,"Ġda4Ġsha4":6559,"zhu3Ġyi4ĠdeĠ":6560,"ping2Ġlun4Ġ":6561,"Ġ2010":6562,"zui4Ġgao1":6563,"ying4Ġyong4":6564,"cai3Ġqu3Ġ":6565,"Ġ2012":6566,"Ġwa3Ġ":6567,"jiao4Ġshi4Ġ":6568,"ban3Ġben3":6569,"pai2Ġming2Ġdi4Ġ":6570,"Ġsai1Ġ":6571,"bian4Ġwei4Ġ":6572,"Ġ2006Ġnian2Ġ":6573,"zu1Ġ":6574,"bao4Ġgao4":6575,"Ġbei3Ġjing1Ġ":6576,"ĠĠĠqi2Ġ":6577,"yu2ĠdeĠ":6578,"ju4Ġhe2Ġ":6579,"bo1Ġfang4Ġ":6580,"san1Ġshi4Ġ":6581,"Ġzai4Ġxi1Ġ":6582,"ren2Ġda4Ġ":6583,"Ġde2Ġer3Ġ":6584,"Ġhou4Ġxuan3Ġren2Ġ":6585,"tou2Ġzi1":6586,"wang3Ġluo4":6587,"1982Ġnian2Ġ":6588,"ma3Ġli3Ġ":6589,"ze2Ġren4Ġ":6590,"fang1Ġmian4ĠdeĠ":6591,"ĠĠĠRe":6592,"ge4Ġzhong3Ġ":6593,"Ġsai4Ġ":6594,"Ġshi4Ġmin2Ġ":6595,"Ġhe2Ġda4Ġ":6596,"dian4Ġzi":6597,"ling3Ġdi4Ġ":6598,"rao3Ġ":6599,"Ġzai4Ġci4":6600,"fan4Ġwei2Ġnei4Ġ":6601,"ĠĠĠju4Ġqing2Ġ":6602,"ĠĠĠqian2Ġ":6603,"xiang1Ġshi4Ġdi4Ġ":6604,"zhe4Ġli3Ġ":6605,"Ġyu2Ġren2Ġ":6606,"zheng4Ġdang3Ġ":6607,"yin3Ġqing2Ġ":6608,"Ġri4Ġbao4Ġ":6609,"Ġling4Ġyi1Ġ":6610,"xing2Ġcheng2Ġ":6611,"fa1Ġxing2ĠdeĠ":6612,"1983Ġnian2Ġ":6613,"Ġji1Ġhu1Ġ":6614,"Ġ188":6615,"zhi2Ġjie1":6616,"feng1Ġwei4Ġ":6617,"pai4ĠdeĠ":6618,"Ġshi4Ġgu4Ġ":6619,"Ġmei3Ġge4Ġ":6620,"Ġh":6621,"Ġzhi4Ġshao3Ġ":6622,"xi4Ġbao1":6623,"biao3Ġda2Ġ":6624,"yuan4Ġyi4Ġ":6625,"17Ġ":6626,"1945Ġnian2Ġ":6627,"Ġta1Ġhe2Ġ":6628,"ju4Ġle4Ġbu4Ġ":6629,"du2Ġli4ĠdeĠ":6630,"e2Ġguo2Ġ":6631,"Ġzhi1Ġfu4Ġ":6632,"dian4Ġnao3":6633,"jiu3Ġlong2Ġ":6634,"dang1Ġxuan3Ġ":6635,"yun3Ġxu3":6636,"fĠ":6637,"he4Ġer3Ġ":6638,"mian2Ġ":6639,"zi4Ġran2":6640,"ĠĠĠxian4Ġ":6641,"Ġyou3Ġxiao4Ġ":6642,"ĠĠĠchu1Ġ":6643,"Ġlai2":6644,"bu2Ġ":6645,"wen1Ġdu4Ġ":6646,"ji4Ġcheng2Ġ":6647,"Ġying2Ġ":6648,"Ġyong4Ġyu2Ġ":6649,"Ġyi1Ġxiao3Ġshi2Ġ":6650,"huo3Ġshan1Ġ":6651,"Ġda4Ġxi1Ġyang2Ġ":6652,"guo4Ġqu4":6653,"pai2Ġhang2Ġ":6654,"an1Ġde2Ġ":6655,"jiu4Ġdu2":6656,"Ġdong1Ġlin2Ġ":6657,"zhi1Ġchi2":6658,"fang3Ġwen4":6659,"ming2Ġzi4Ġ":6660,"Ġzuo4Ġjia1Ġ":6661,"jing3Ġcha2":6662,"dang3Ġyuan2Ġ":6663,"xi3Ġhuan1":6664,"qu1Ġyi4Ġhui4Ġ":6665,"Ġda4Ġfu2Ġ":6666,"Ġde2Ġhua2Ġ":6667,"Ġ2012Ġnian2Ġ":6668,"huan4Ġcheng2Ġ":6669,"biao3Ġyan3":6670,"ĠĠĠandĠĠĠ":6671,"xian4Ġzhi4Ġ":6672,"dou1Ġzai4Ġ":6673,"Ġdi4Ġyi2Ġge4Ġ":6674,"Ġyu3Ġmao2":6675,"Ġchu1Ġzhan4Ġ":6676,"fang1Ġyan2Ġ":6677,"bi3Ġya4":6678,"ĠĠĠdi4Ġfang1Ġ":6679,"xiang1Ġdang1":6680,"1Ġli4Ġ":6681,"40Ġ":6682,"Ġbing4Ġbei4Ġ":6683,"tiao2Ġzheng3":6684,"qu1Ġhe2Ġ":6685,"Ġyi1Ġtong2Ġ":6686,"Ġzhong1Ġhua2Ġren2Ġmin2Ġgong4Ġhe2Ġguo2Ġzheng4Ġzhi4Ġren2Ġwu4Ġ":6687,"Ġshi4Ġyu2Ġ":6688,"jing1Ġyan4Ġ":6689,"xun2Ġyang2":6690,"pu3Ġbian4Ġ":6691,"Ġdian4Ġying3Ġ":6692,"Ġzhong1Ġbei4Ġ":6693,"guan1Ġdian3Ġ":6694,"ke1ĠdeĠqi2Ġzhong1Ġyi1Ġzhong3Ġ":6695,"Ġsheng1Ġyu2Ġ":6696,"Ġgong1Ġyi4Ġ":6697,"Ġshuo1Ġ":6698,"han2Ġyou3Ġ":6699,"Ġji4Ġsuan4Ġ":6700,"liang3Ġming2Ġ":6701,"dian3Ġli3Ġ":6702,"Ġshi4Ġgong1Ġ":6703,"zhong4Ġduo1Ġ":6704,"jiang4Ġdi1Ġ":6705,"da4Ġzhi4Ġ":6706,"Ġjiu4Ġshi4Ġ":6707,"Ġbing4Ġdu2":6708,"Ġqi2Ġzhong1Ġyi1Ġ":6709,"ya4Ġjun1Ġ":6710,"she4Ġqu1Ġ":6711,"Ġfan1Ġ":6712,"kou3Ġwei4Ġ":6713,"cheng2Ġyuan2Ġ":6714,"Ġxian4Ġshi4Ġ":6715,"zhi1Ġqian2Ġ":6716,"mi4Ġshu1Ġzhang3Ġ":6717,"Ġ7Ġ":6718,"Ġdi4Ġsi4":6719,"Ġreng2":6720,"zuo4Ġshi4Ġ":6721,"tiao2Ġli4Ġ":6722,"nei4Ġge2Ġ":6723,"shu4Ġyu3Ġ":6724,"wu2Ġzheng4Ġzhuang4Ġ":6725,"she3Ġ":6726,"Ġxian4Ġren4Ġ":6727,"tu1Ġpo4Ġ":6728,"xie3Ġdao4Ġ":6729,"dang4Ġtian1Ġ":6730,"yi2Ġdu4Ġ":6731,"Ġzu3Ġfu4Ġ":6732,"Ġneng2Ġ":6733,"Ġping2Ġjun1Ġ":6734,"ĠĠĠ3":6735,"gua4Ġ":6736,"Ġxing2Ġwei4Ġ":6737,"Ġgong1Ġmin2Ġ":6738,"xing1Ġdeng3Ġwei4Ġ":6739,"Ġtong2Ġyi4Ġ":6740,"Ġliu4":6741,"ĠĠĠji2Ġ":6742,"hong2Ġse4Ġ":6743,"shan1Ġshi4Ġ":6744,"Ġbi3Ġsai4Ġ":6745,"kai1Ġshi3Ġzai4Ġ":6746,"Ġ0Ġ":6747,"tuan2ĠdeĠ":6748,"gei3ĠleĠ":6749,"Ġji1Ġjin1Ġ":6750,"si3Ġwang2":6751,"zheng3Ġti3Ġ":6752,"Ġ500":6753,"lu3Ġsi1Ġ":6754,"isĠĠĠ":6755,"wan2Ġzheng3":6756,"jue2Ġdui4Ġ":6757,"Ġquan2Ġli4Ġ":6758,"dai4Ġbiao3Ġda4Ġhui4Ġ":6759,"chi2Ġyou3Ġ":6760,"ying1Ġwen2Ġ":6761,"5Ġren2Ġ":6762,"zheng4Ġbu4Ġ":6763,"Ġshi4Ġbing1Ġ":6764,"gai4Ġnian4":6765,"ĠĠĠ2011":6766,"ben3Ġren2Ġ":6767,"Ġgong1Ġju4Ġ":6768,"she4Ġshi1Ġ":6769,"Ġzui4Ġchu1Ġ":6770,"Ġsun1":6771,"erĠĠĠ":6772,"Ġ30Ġ":6773,"yang2Ġshi4Ġ":6774,"Ġzhe4Ġzhong3":6775,"xia4Ġxia2ĠdeĠyi2Ġge4Ġ":6776,"zĠ":6777,"huang2Ġhou4Ġ":6778,"ĠĠĠa1Ġ":6779,"zhong3Ġzu2Ġ":6780,"Ġsui4Ġshi2Ġ":6781,"Ġxin4Ġ":6782,"ĠĠĠ2010":6783,"ni2Ġer3Ġ":6784,"zhi2Ġdao3Ġ":6785,"ĠdeĠcheng2Ġji4Ġ":6786,"lai2Ġyue4Ġ":6787,"Ġji2Ġren2Ġ":6788,"yi2Ġding4Ġ":6789,"Ġda2":6790,"bao3Ġshou3Ġ":6791,"jie4Ġshao4Ġ":6792,"tou2Ġxiang2Ġ":6793,"gui4Ġzu2Ġ":6794,"ĠĠĠ1Ġ":6795,"yi4Ġnian2Ġ":6796,"yue4Ġzhong1Ġ":6797,"zhen4Ġqu1ĠdeĠ":6798,"zao3Ġqi1":6799,"bo2Ġshi4Ġxue2Ġwei4Ġ":6800,"ĠĠĠqi2Ġta1Ġ":6801,"shan1Ġji1Ġ":6802,"kui4Ġ":6803,"qi3Ġdong4Ġ":6804,"tang1Ġ":6805,"Ġwei2Ġer3":6806,"gu3Ġdai4Ġ":6807,"zhen3Ġ":6808,"Ġming2Ġdan1Ġ":6809,"ming2Ġren2Ġ":6810,"Ġde2Ġyu3Ġ":6811,"shen2ĠmeĠ":6812,"Ġyi1Ġzuo4Ġ":6813,"Ġyi3Ġji2":6814,"Ġer2Ġgai1Ġ":6815,"hei1Ġse4Ġ":6816,"yao1Ġqing3":6817,"Ġren2Ġmin2Ġzheng4Ġfu3Ġ":6818,"en1Ġsheng3Ġ":6819,"tou4Ġguo4":6820,"Ġxiang3Ġnian2Ġ":6821,"wu2Ġzheng4Ġzhuang4Ġgan3Ġran3Ġ":6822,"3Ġge4Ġ":6823,"sui2Ġzhu4Ġ":6824,"sa1Ġ":6825,"mu4Ġqian2":6826,"huo2Ġyue4Ġ":6827,"chang2Ġwu4Ġ":6828,"chang2Ġwei3Ġ":6829,"que4Ġzhen3Ġbing4Ġli4Ġ":6830,"ming2Ġzhi4Ġ":6831,"teĠĠĠ":6832,"Ġri4Ġyu2Ġ":6833,"gai3Ġming2Ġwei4Ġ":6834,"chu1Ġshen1Ġ":6835,"dian4Ġhua4Ġ":6836,"Ġ2022":6837,"tun2Ġ":6838,"Ġbu4Ġsi1Ġ":6839,"Ġji1Ġsi1Ġ":6840,"tai4ĠziĠ":6841,"18Ġ":6842,"Ġbi3Ġru2Ġ":6843,"gao1Ġsu4Ġgong1Ġlu4Ġ":6844,"ĠĠĠgai1":6845,"ke4Ġcheng2Ġ":6846,"kun4Ġnan2Ġ":6847,"Ġbu4Ġli4Ġ":6848,"zui4Ġduo1Ġ":6849,"que1Ġfa2":6850,"Ġer4Ġshi2Ġ":6851,"dan1ĠdeĠ":6852,"long2ĠdeĠ":6853,"geng4Ġwei2Ġ":6854,"yi3Ġjing1Ġ":6855,"ti2Ġji2Ġ":6856,"ru4Ġxuan3Ġ":6857,"Ġwei4Ġyu2Ġzhong1Ġguo2Ġ":6858,"sai1Ġer3Ġwei2Ġ":6859,"7Ġren2Ġ":6860,"hui4Ġzhong1Ġ":6861,"shou1Ġji2Ġ":6862,"Ġli4Ġfa3":6863,"xue2Ġhui4Ġ":6864,"Ġbing4Ġfei1Ġ":6865,"hai3Ġxia2Ġ":6866,"gou4ĠdeĠ":6867,"gong1Ġcheng2Ġ":6868,"Ġxi1Ġjie1Ġ":6869,"ge1Ġlun2Ġ":6870,"Ġji1Ġchang3":6871,"Ġyong4":6872,"ju4Ġda4Ġ":6873,"duo1Ġren2Ġ":6874,"Ġcheng2Ġren2Ġ":6875,"fu4Ġze2":6876,"an1Ġna4":6877,"zu2Ġqiu2Ġyun4Ġdong4Ġyuan2Ġ":6878,"xie3ĠdeĠ":6879,"zhui1Ġsu4":6880,"Ġ2014Ġnian2Ġ":6881,"Ġtong2Ġshi2Ġgai1Ġdi4Ġ":6882,"zuo4Ġchu1Ġ":6883,"bei1Ġsi1Ġ":6884,"Ġye3Ġzai4Ġ":6885,"sheng3ĠdeĠ":6886,"ling4Ġren2Ġ":6887,"fan4Ġzui4Ġ":6888,"Ġyao1Ġqiu2Ġ":6889,"hui4Ġzhi4Ġ":6890,"Ġde2Ġzhu3Ġ":6891,"tao3Ġlun4":6892,"Ġji2Ġdi4Ġ":6893,"nei4Ġlu4Ġsheng3Ġfen4Ġ":6894,"Ġyue1":6895,"tiao4Ġ":6896,"an1Ġhui1Ġ":6897,"ke1Ġxue2Ġjia1Ġ":6898,"ĠZ":6899,"tu2Ġxing2Ġ":6900,"pi1Ġzhun3":6901,"jiang1Ġzai4Ġ":6902,"Ġbing4Ġdu2Ġ":6903,"ci4ĠdeĠ":6904,"zhu2Ġbu4Ġ":6905,"ĠdeĠdi4Ġer4Ġ":6906,"shi4ĠĠĠ":6907,"shou4ĠdeĠ":6908,"shan1ĠdeĠ":6909,"Ġshi4Ġyin1Ġwei4Ġ":6910,"Ġke4Ġxi1Ġ":6911,"qiang2Ġlie4Ġ":6912,"lian2Ġhe2Ġhui4Ġ":6913,"Ġpo4Ġ":6914,"chao1Ġyue4Ġ":6915,"1972Ġnian2Ġ":6916,"jie2Ġguo3":6917,"tai2Ġnan2":6918,"jian3Ġshao3":6919,"HĠ":6920,"di1Ġyu2Ġ":6921,"oĠĠĠ":6922,"xia4Ġling4Ġshi2Ġjian1Ġ":6923,"hai3Ġping2Ġmian4Ġ":6924,"bu2Ġdao4Ġ":6925,"Ġshi2Ġqi1ĠdeĠ":6926,"Ġyuan2Ġxing2Ġ":6927,"Ġwan2Ġjia1Ġ":6928,"ye3Ġzai4Ġ":6929,"Ġji1Ġhui4Ġ":6930,"Ġxue2Ġyuan4":6931,"yi2Ġding4":6932,"hui1Ġfu4":6933,"guo4ĠdeĠ":6934,"ya4Ġmei3Ġ":6935,"pai4Ġqian3":6936,"tou1Ġ":6937,"Ġguo2Ġnei4Ġ":6938,"bian1Ġjie4Ġ":6939,"ti2Ġgong1ĠleĠ":6940,"dong3Ġshi4Ġzhang3Ġ":6941,"Ġcha2":6942,"1978Ġnian2Ġ":6943,"jia4Ġge2Ġ":6944,"ti2Ġyi4Ġ":6945,"shu1Ġzhong1Ġ":6946,"xun1Ġzhang1Ġ":6947,"fang1Ġfa3":6948,"shi1Ġbai4Ġ":6949,"Ġjiao4Ġyu4Ġ":6950,"zhu3Ġyao4ĠdeĠ":6951,"NĠ":6952,"zhu3Ġjiao4":6953,"Ġhao4ĠdeĠ":6954,"ni2Ġya4Ġzhou1Ġ":6955,"1979Ġnian2Ġ":6956,"Ġhou4Ġbei4Ġ":6957,"guan1Ġcha2Ġ":6958,"Ġxue2Ġjia1Ġ":6959,"liu2Ġxia4Ġ":6960,"shuang1Ġfang1Ġ":6961,"ĠĠĠbei4Ġjing3Ġ":6962,"er2Ġtong2Ġ":6963,"Ġyi1Ġli4Ġ":6964,"jia1Ġyi4Ġ":6965,"Ġbu4Ġdui4":6966,"Ġyi3Ġwei2Ġ":6967,"Ġzai4Ġshi2Ġ":6968,"lian2Ġxu4":6969,"xian4ĠdeĠ":6970,"qin1Ġzi4Ġ":6971,"Ġer2ĠziĠ":6972,"bei3Ġjing1Ġshi4Ġ":6973,"Ġ1950":6974,"ĠĠĠ2Ġ":6975,"Ġyou3Ġsuo3Ġ":6976,"zui4Ġgao1ĠdeĠ":6977,"hui4Ġyi4Ġyuan2Ġ":6978,"san1Ġjiao3":6979,"zhuang1Ġjia3Ġ":6980,"ĠĠĠdi4Ġfang1Ġzi1Ġliao4Ġ":6981,"6Ġren2Ġ":6982,"leĠzai4Ġ":6983,"ren4Ġwei4Ġ":6984,"ma3Ġer3Ġ":6985,"lan2ĠdeĠ":6986,"na2Ġxia4Ġ":6987,"ping2Ġtai2Ġ":6988,"fei1Ġchang2":6989,"ĠĠĠjian3Ġjie4Ġ":6990,"duo1Ġwei4Ġ":6991,"zu3Ġfu4Ġ":6992,"arĠ":6993,"Ġhe2Ġyue1Ġ":6994,"bei4ĠdeĠ":6995,"1976Ġnian2Ġ":6996,"Ġli4Ġliang4Ġ":6997,"Ġchu1Ġkou3Ġ":6998,"Ġta1Ġceng2Ġdai4Ġbiao3Ġ":6999,"bian3Ġ":7000,"Ġdi4Ġli3Ġ":7001,"nan2Ġbei3Ġ":7002,"gai3Ġbian4":7003,"ĠMa":7004,"ĠĠĠCh":7005,"neng2Ġyuan2Ġ":7006,"laĠ":7007,"pi3Ġ":7008,"Ġdi4Ġqi1Ġ":7009,"Ġxian4Ġfa3Ġ":7010,"Ġhou4Ġzhe3Ġ":7011,"zi4ĠdeĠ":7012,"tai2Ġzhong1Ġ":7013,"di2Ġshi4Ġ":7014,"Ġzheng4Ġming2Ġ":7015,"Ġshi2Ġji4Ġshang4Ġ":7016,"Ġcheng2Ġzhen4Ġ":7017,"que1Ġfa2Ġ":7018,"Ġmei2":7019,"Ġ2015Ġnian2Ġ":7020,"xuan3Ġzhong1Ġ":7021,"di2Ġren2Ġ":7022,"Ġli4Ġyi4Ġ":7023,"Ġ28":7024,"li3Ġhe2Ġ":7025,"liao3Ġ":7026,"pai4Ġchu1Ġ":7027,"Ġzhong1Ġguo2Ġren2Ġmin2Ġjie3Ġfang4Ġjun1Ġ":7028,"duo1Ġzhong3Ġ":7029,"tan2Ġpan4Ġ":7030,"liao2Ġning2Ġ":7031,"ping2Ġwei4Ġ":7032,"Ġbu4Ġshao3Ġ":7033,"Ġsi1Ġta3Ġ":7034,"ti2Ġchu1ĠdeĠ":7035,"sui2Ġji2Ġ":7036,"Ġlu3Ġ":7037,"mian3Ġdian1":7038,"tui4Ġxiu1Ġ":7039,"Ġda4Ġxue2ĠdeĠ":7040,"hai3Ġba2Ġwei4Ġ":7041,"Ġsu4Ġ":7042,"gan4Ġbu4Ġ":7043,"lei3Ġji4Ġ":7044,"Ġshi2Ġxing2Ġ":7045,"ying1Ġge2Ġlan2":7046,"dang1Ġzhong1Ġ":7047,"jue2Ġyi4Ġ":7048,"xu4Ġli4Ġya4Ġ":7049,"shang1Ġren2Ġ":7050,"biao1Ġben3Ġ":7051,"fa1Ġsheng1Ġzai4Ġ":7052,"suo3Ġcai3Ġyong4":7053,"zhi3Ġdao3Ġ":7054,"Ġju4Ġjue2Ġ":7055,"Ġp":7056,"hua4Ġzhong1Ġ":7057,"zan4Ġshi2Ġ":7058,"1958Ġnian2Ġ":7059,"Ġfu4Ġjin4":7060,"Ġzhong1Ġgong4Ġzhong1Ġyang1Ġ":7061,"Ġyi4Ġqing2Ġ":7062,"nong2Ġmin2Ġ":7063,"ci4Ġyu2Ġ":7064,"ceng2Ġwei4Ġ":7065,"ĠĠĠ1":7066,"yi2Ġdai4Ġ":7067,"chan2Ġ":7068,"Ġde2Ġming2Ġ":7069,"xiu1Ġgai3Ġ":7070,"ĠĠĠyin1Ġ":7071,"shui3Ġli4Ġ":7072,"rong2Ġhe2Ġ":7073,"stĠ":7074,"Ġzhong1Ġguo2ĠdeĠ":7075,"fa1Ġming2Ġ":7076,"mei3Ġzhou1":7077,"zhuan3Ġxiang4Ġ":7078,"Ġqi2Ġwei4Ġ":7079,"zhi3Ġneng2Ġ":7080,"zi1Ġliao4":7081,"Ġming2Ġzhi4Ġ":7082,"Ġgong1Ġzhong4Ġ":7083,"zhong3ĠziĠ":7084,"zhu3Ġyan3Ġ":7085,"zi1Ġben3Ġ":7086,"a1Ġla1Ġbo2":7087,"tionĠ":7088,"xiang1Ġsi4Ġ":7089,"jie1Ġchu4Ġ":7090,"Ġbei3Ġjing1":7091,"kai1Ġshe4Ġ":7092,"xiu1Ġjian4Ġ":7093,"guan1Ġcha2":7094,"jing4Ġji4Ġ":7095,"ĠdeĠshi4Ġjie4Ġ":7096,"Ġba3":7097,"Ġdian4Ġshi4Ġ":7098,"Ġ2016Ġnian2Ġ":7099,"wu3Ġzhuang1":7100,"bao4Ġzha4Ġ":7101,"jie3Ġsan4Ġ":7102,"xĠĠĠ":7103,"Ġcn":7104,"dian4Ġji1Ġ":7105,"chai1Ġchu2Ġ":7106,"kai1Ġtong1Ġ":7107,"fa1Ġqi3Ġ":7108,"fa1Ġshou4Ġ":7109,"ju3Ġban4ĠdeĠ":7110,"shen1Ġdu4Ġ":7111,"an1Ġpai2":7112,"qu1Ġshi4Ġ":7113,"nu3Ġ":7114,"2025Ġnian2Ġ":7115,"wei2Ġsi1Ġ":7116,"tuan2Ġti3":7117,"ji1Ġgou4Ġ":7118,"fu4Ġzhu3Ġren4Ġ":7119,"zu3Ġzhi1ĠdeĠ":7120,"Ġtang2":7121,"feng1Ġxian3Ġ":7122,"diao4Ġkuai4":7123,"ĠĠĠqi2":7124,"cheng2Ġhe2Ġ":7125,"bian1Ġju4Ġ":7126,"Ġyu3Ġqi2Ġta1Ġ":7127,"ĠĠĠdui4Ġ":7128,"zhang1Ġzhuan1Ġji2Ġ":7129,"jie2ĠdeĠ":7130,"zao4ĠleĠ":7131,"Ġwei4ĠUTCĠ":7132,"Ġbu4Ġji2Ġ":7133,"Ġzhong1Ġshan1Ġ":7134,"neng2Ġliang4Ġ":7135,"shuai4Ġling3":7136,"ĠcnĠ":7137,"shou3Ġzhong1Ġ":7138,"ban4Ġshi4Ġchu4Ġ":7139,"Ġge1":7140,"qiu2Ġji4Ġ":7141,"ying1Ġgai1Ġ":7142,"Ġxi1Ġban1Ġya2Ġ":7143,"you2Ġji1Ġ":7144,"luo2Ġli3Ġ":7145,"ge2Ġla1Ġ":7146,"jiu4Ġdu2Ġ":7147,"shang1Ġye4":7148,"qiang2Ġdiao4Ġ":7149,"diao4Ġkuai4Ġyi1Ġxiao3Ġshi2Ġ":7150,"ze2Ġzai4Ġ":7151,"ĠdeĠying3Ġxiang3Ġ":7152,"Ġnian2Ġlai2Ġ":7153,"Ġ19":7154,"kun4Ġ":7155,"Ġwei4Ġda4Ġ":7156,"Ġji2ĠUTCĠ":7157,"ying1Ġxiong2Ġ":7158,"Ġtong2Ġyang4":7159,"ke1Ġxue2Ġyuan4Ġ":7160,"she4Ġyou3Ġxia4Ġling4Ġshi2Ġjian1Ġ":7161,"ĠdeĠshi2Ġqu1Ġwei4ĠUTCĠ":7162,"Ġer2Ġgai1Ġdi4Ġsuo3Ġcai3Ġyong4":7163,"Ġtong2Ġshi2Ġgai1Ġdi4Ġshe4Ġyou3Ġxia4Ġling4Ġshi2Ġjian1Ġ":7164,"Ġer2Ġgai1Ġdi4Ġsuo3Ġcai3Ġyong4ĠdeĠshi2Ġqu1Ġwei4ĠUTCĠ":7165,"bao3Ġliu2":7166,"xiao1Ġfei4Ġ":7167,"xin4Ġyang3Ġ":7168,"ta1ĠmenĠdeĠ":7169,"shuai1Ġ":7170,"Ġda4Ġjiang3Ġ":7171,"jiao4Ġtang2":7172,"Ġling4Ġyou3Ġ":7173,"Ġyi1Ġsi1Ġlan2Ġ":7174,"yuan2Ġzhu4Ġ":7175,"tai4Ġdu4Ġ":7176,"chuan2Ġbo1Ġ":7177,"Ġgai1Ġcun1Ġ":7178,"Ġjia3":7179,"suo3Ġzai4Ġdi4Ġ":7180,"que4ĠdeĠ":7181,"pei4Ġzhi4Ġ":7182,"zhi1Ġjian1ĠdeĠ":7183,"ĠĠĠjiao1Ġtong1Ġ":7184,"fa1Ġshe4":7185,"Ġshi2Ġwu4Ġ":7186,"ding4Ġju1Ġ":7187,"Ġli4Ġshi3Ġshang4Ġ":7188,"gao1Ġyu2Ġhai3Ġping2Ġmian4Ġ":7189,"ou3Ġ":7190,"Ġwei4Ġfu2Ġqi2Ġyu2Ġgang1Ġ":7191,"xing4Ġwei4Ġ":7192,"zhu2Ġjian4":7193,"Ġbu4Ġneng2":7194,"Ġgong1Ġjue2Ġ":7195,"Ġer3Ġduo1Ġ":7196,"Ġma3Ġlai2":7197,"wu4Ġhe2Ġ":7198,"hu4Ġxiang1Ġ":7199,"Ġqi2Ġxia4Ġ":7200,"Ġzheng1Ġ":7201,"ĠĠĠqing1Ġ":7202,"chu4ĠdeĠhai3Ġba2Ġwei4Ġ":7203,"chu4ĠdeĠhai3Ġba2Ġwei4Ġgao1Ġyu2Ġhai3Ġping2Ġmian4Ġ":7204,"hou4Ġwei4Ġ":7205,"Ġyu2Ġle4":7206,"Ġyin1Ġsu4Ġ":7207,"Ġ23":7208,"Ġkuan1":7209,"ti3Ġzhi4Ġ":7210,"qia4Ġ":7211,"jing4Ġxuan3Ġ":7212,"wu4Ġshi4Ġ":7213,"chang3Ġsuo3Ġ":7214,"ĠĠĠ17":7215,"Ġzhi1Ġyi4Ġ":7216,"Ġdan1":7217,"Ġhe2Ġpan4Ġ":7218,"Ġbu4Ġjin3Ġ":7219,"Ġyi3Ġxi1Ġ":7220,"Ġchu2":7221,"fa1Ġxian4ĠdeĠ":7222,"zhong4Ġshi4Ġ":7223,"kuang2Ġ":7224,"Ġqi2Ġshi2Ġ":7225,"Ġsui2Ġzhu4Ġ":7226,"Ġxie4Ġ":7227,"nan2Ġjing1":7228,"zhang3Ġda2Ġ":7229,"yun4Ġshu1":7230,"Ġ2008":7231,"Ġ2017Ġnian2Ġ":7232,"shu4Ġshi2Ġ":7233,"nei4Ġdi4Ġ":7234,"8Ġren2Ġ":7235,"Ġ8Ġ":7236,"ĠĠĠma3Ġ":7237,"lu4Ġzhi4Ġ":7238,"shi2Ġqu1Ġ":7239,"gao1Ġxiong2":7240,"chong2Ġqing4":7241,"Ġni3Ġ":7242,"jian4Ġcheng2Ġ":7243,"geng1Ġxin1Ġ":7244,"Ġyi1Ġjia1Ġ":7245,"Ġxi1Ġlan2Ġ":7246,"yun4Ġyong4Ġ":7247,"Ġzi4Ġran2Ġ":7248,"bian1Ġhao4Ġ":7249,"bi4Ġye4Ġhou4Ġ":7250,"ĠĠĠran2":7251,"er4Ġji2Ġ":7252,"Ġli4Ġren4Ġ":7253,"dian4Ġqi4Ġ":7254,"shan1Ġfeng1Ġ":7255,"Ġwei4Ġyu2Ġgai1Ġ":7256,"Ġxu1Ġ":7257,"Ġzheng4Ġzhi4Ġ":7258,"wei2Ġer3Ġ":7259,"zhi2Ġzheng4Ġ":7260,"xiao4Ġqu1Ġ":7261,"Ġhu2":7262,"Ġhuan4Ġ":7263,"zhe3Ġshi4Ġ":7264,"wang2Ġshi4Ġ":7265,"Ġzuo4Ġchu1Ġ":7266,"xia2Ġqu1Ġ":7267,"ĠĠĠben3":7268,"bao1Ġwei2Ġ":7269,"bang4Ġqiu2Ġ":7270,"Ġdi4Ġqiu2":7271,"xuan1Ġchuan2":7272,"xue2Ġyuan2Ġ":7273,"jiu4Ġhui4Ġ":7274,"cuo4Ġwu4Ġ":7275,"jin1Ġrong2Ġ":7276,"Ġyu4Ġshi3Ġ":7277,"Ġlian2Ġhe2Ġ":7278,"dong1Ġfang1Ġ":7279,"Ġyi2":7280,"hou4Ġyi4Ġ":7281,"bei3Ġshi4Ġ":7282,"jing1Ġchang2":7283,"Ġran2Ġer2":7284,"Ġdai4":7285,"Ġjie2Ġke4Ġ":7286,"hui4Ġyu2Ġ":7287,"Ġsi1Ġke1Ġ":7288,"Ġdui4Ġshou3Ġ":7289,"Ġxing2Ġzheng4Ġqu1Ġ":7290,"zhen4Ġqu1ĠdeĠmian4Ġji1Ġwei4Ġ":7291,"ming2Ġshi4Ġ":7292,"Ġzhou1Ġci4Ġshi3Ġ":7293,"Ġsheng1Ġya2Ġ":7294,"jia1Ġyi3Ġ":7295,"ju2ĠdeĠ":7296,"pao3Ġ":7297,"fu2ĠdeĠ":7298,"ma3Ġke4Ġ":7299,"Ġta1Ġyi3Ġ":7300,"Ġyuan2Ġzi4Ġ":7301,"zao4Ġcheng2ĠdeĠ":7302,"ĠY":7303,"ke3Ġzai4Ġ":7304,"Ġli3Ġxi1Ġ":7305,"zhi2Ġmin2Ġ":7306,"Ġ2023":7307,"ping2Ġlun4":7308,"fu1Ġka3Ġ":7309,"Ġfu2Ġwu4Ġ":7310,"Ġdang1Ġshi2ĠdeĠ":7311,"Ġqin1Ġ":7312,"ao4Ġzhou1Ġ":7313,"Ġyi1Ġju4Ġ":7314,"ji4Ġyou3Ġ":7315,"shi3Ġjian4Ġyu2Ġ":7316,"ren4ĠdeĠ":7317,"ye3Ġbei4Ġ":7318,"mian4Ġshang4Ġ":7319,"gong1Ġgong4Ġ":7320,"Ġsi1Ġke4":7321,"Ġer2Ġtong2Ġ":7322,"Ġci4Ġnian2Ġ":7323,"Ġ2018Ġnian2Ġ":7324,"Ġxue2Ġzhe3Ġ":7325,"Ġjian4Ġshe4":7326,"Ġwei2Ġrao4":7327,"Ġye3Ġbei4Ġ":7328,"qian1Ġshu3Ġ":7329,"Ġqi2Ġzhong1Ġbao1Ġkuo4Ġ":7330,"Ġting2Ġ":7331,"jia1Ġzai4Ġ":7332,"ban4ĠdeĠ":7333,"Ġ2009":7334,"ĠĠĠIn":7335,"hai3Ġyang2Ġ":7336,"ji1Ġzai4Ġ":7337,"lai2Ġyin1Ġ":7338,"jun4Ġgong1Ġ":7339,"tu1Ġran2Ġ":7340,"Ġji2Ġda4Ġ":7341,"ji4Ġnian4":7342,"Ġde2Ġzhi1Ġ":7343,"Ġji1Ġjin1Ġhui4Ġ":7344,"qi4Ġche1":7345,"xiao4Ġli4Ġyu2Ġ":7346,"Ġban3Ġ":7347,"Ġ2019Ġnian2Ġ":7348,"ru2Ġguo3Ġ":7349,"ling4Ġyi2Ġge4Ġ":7350,"xiao1Ġshi1Ġ":7351,"tian2Ġjing4Ġ":7352,"tao2Ġtai4Ġ":7353,"Ġgan3Ġ":7354,"Ġwei4Ġdui4Ġ":7355,"dang1Ġdi4ĠdeĠ":7356,"jiang4Ġling3Ġ":7357,"Ġbai3":7358,"yan2Ġhai3Ġ":7359,"wei3Ġyuan2Ġhui4Ġwei3Ġyuan2Ġ":7360,"1968Ġnian2Ġ":7361,"Ġli3Ġya4Ġ":7362,"Ġ2Ġyue4Ġ":7363,"ĠĠĠjin3Ġ":7364,"ping2Ġyuan2Ġ":7365,"deng3Ġji2Ġ":7366,"er4Ġren2Ġ":7367,"bei4Ġjing3Ġ":7368,"ka3Ġluo2Ġ":7369,"Ġbai4Ġ":7370,"ĠĠĠsheng4Ġ":7371,"dui4Ġqi2Ġ":7372,"jin4Ġbu4Ġ":7373,"liang3Ġguo2Ġ":7374,"te4Ġding4Ġ":7375,"fen4Ġzi3":7376,"Ġyun2Ġ":7377,"da4Ġbu4Ġ":7378,"ding4Ġyu2Ġ":7379,"Ġqi2ĠdeĠ":7380,"ĠdeĠbu4Ġfen4Ġ":7381,"zhi2Ġmin2Ġdi4Ġ":7382,"Ġ26":7383,"Ġxian1":7384,"Ġfa1Ġxian4Ġ":7385,"Ġe4Ġ":7386,"jiao4Ġda4Ġ":7387,"Ġzhi4Ġzuo4ĠdeĠ":7388,"Ġji1Ġdu1Ġ":7389,"gai3Ġzao4Ġ":7390,"chuan2Ġtong3ĠdeĠ":7391,"sheng1Ġya2":7392,"dian4Ġnao3Ġ":7393,"Ġbu4Ġbu4Ġzhang3Ġ":7394,"guan1Ġjian4Ġ":7395,"jing1Ġshen2":7396,"Ġqian2Ġwang3Ġ":7397,"dian3Ġshi4Ġ":7398,"yi4Ġshu4Ġ":7399,"li2Ġkai1":7400,"quan2Ġmian4Ġ":7401,"mo4Ġxi1Ġge1Ġ":7402,"Ġshou3":7403,"chĠ":7404,"zhen4ĠdeĠ":7405,"tui1Ġchu1":7406,"gou3Ġ":7407,"guo2Ġjia1":7408,"Ġdi4Ġtie3":7409,"Ġxian4Ġyi3Ġ":7410,"Ġji1Ġchu3":7411,"Ġju4Ġli2":7412,"Ġxian2Ġ":7413,"Ġluo2Ġma3Ġ":7414,"Ġsha1":7415,"ĠĠĠ4":7416,"touĠ":7417,"Ġshi2Ġduan4Ġ":7418,"jie1Ġduan4":7419,"liang3Ġci4Ġ":7420,"ai4Ġer3Ġlan2Ġ":7421,"wen2ĠdeĠ":7422,"san1Ġming2Ġ":7423,"hun1Ġyin1Ġ":7424,"da4Ġlu4":7425,"Ġyi4Ġyu2Ġ":7426,"shu1Ġyuan4Ġ":7427,"Ġshan1Ġdong1Ġ":7428,"a1Ġla1Ġbo2Ġ":7429,"Ġxing1":7430,"mu4ĠdeĠ":7431,"ge2Ġshi4Ġ":7432,"ĠĠĠnan2Ġ":7433,"bo1Ġsi1Ġ":7434,"hui4Ġzhang3Ġ":7435,"man3Ġzu2Ġ":7436,"Ġdian4Ġying3":7437,"qi1Ġwei4Ġ":7438,"liang3Ġwei4Ġ":7439,"pei4Ġyin1Ġ":7440,"Ġdi4Ġdian3Ġ":7441,"jing4Ġzheng1Ġ":7442,"cai2Ġneng2Ġ":7443,"xin1Ġcheng2Ġ":7444,"1970Ġnian2Ġ":7445,"zheng4Ġju4Ġ":7446,"lian2ĠdeĠ":7447,"xiu1Ġfu4Ġ":7448,"neĠ":7449,"Ġbing4Ġyou2Ġ":7450,"hu4Ġlian2Ġ":7451,"chu1Ġban3":7452,"Ġyou2Ġji1Ġ":7453,"Ġwu2Ġfa3Ġ":7454,"la1Ġji1Ġ":7455,"kao4Ġjin4Ġ":7456,"Ġdi4Ġdai4Ġ":7457,"Ġli4Ġshi2Ġ":7458,"jie3Ġfang4Ġ":7459,"nei4Ġzhan4Ġ":7460,"bo1Ġshi4Ġ":7461,"Ġwei2Ġchi2":7462,"zai1Ġpei2Ġ":7463,"VĠ":7464,"Ġchong1Ġ":7465,"dui4Ġzhang3Ġ":7466,"fa1Ġqi3":7467,"ju1Ġzhu4Ġzai4Ġ":7468,"shou1Ġgou4Ġ":7469,"Ġliu4Ġ":7470,"zhe4Ġshi4Ġ":7471,"zao3Ġzai4Ġ":7472,"Ġwan2Ġ":7473,"bing4Ġbu4Ġ":7474,"shou3Ġxiang4Ġ":7475,"shan1Ġqu1Ġ":7476,"jiao1Ġliu2":7477,"zu2Ġqiu2Ġju4Ġle4Ġbu4Ġ":7478,"Ġgen1Ġ":7479,"li3Ġcheng2Ġ":7480,"Ġguo2Ġwu4Ġyuan4Ġ":7481,"wei3Ġfu4Ġ":7482,"qi3Ġyuan2Ġ":7483,"Ġshi4Ġde2Ġguo2Ġ":7484,"cun1Ġluo4Ġ":7485,"fu1ĠdeĠ":7486,"ji1Ġchu3":7487,"Ġda4Ġlou2":7488,"yan2Ġse4Ġ":7489,"xiang4Ġzheng1Ġ":7490,"Ġwei2Ġsi1Ġ":7491,"tian1Ġti3Ġ":7492,"dou1Ġbei4Ġ":7493,"Ġbu4Ġbing1Ġ":7494,"Ġyu3Ġyan2":7495,"ĠĠĠdi4Ġer4Ġ":7496,"Ġ2004Ġnian2Ġ":7497,"liu4Ġshi2Ġ":7498,"Ġzhi4Ġliang4Ġ":7499,"Ġzhou1Ġfu3Ġ":7500,"lang2Ġzhong1Ġ":7501,"Ġyi1Ġyuan4":7502,"Ġxing2Ġmu4Ġ":7503,"chang2Ġdu4Ġ":7504,"xing4Ġhe2Ġ":7505,"Ġyi3Ġwai4Ġ":7506,"luo4Ġfa2":7507,"Ġding1Ġ":7508,"1956Ġnian2Ġ":7509,"Ġzhi4Ġdi4Ġ":7510,"Ġyu3Ġyi1Ġ":7511,"tai4Ġyang2":7512,"wu2Ġzheng4Ġzhuang4Ġgan3Ġran3Ġzhe3Ġ":7513,"ĠĠĠ2008":7514,"liang4Ġwei4Ġ":7515,"mu3ĠdeĠ":7516,"juan4Ġ":7517,"Ġde2Ġsi1Ġ":7518,"shi1Ġqu4":7519,"Ġ2020Ġnian2Ġ":7520,"ĠĠĠMa":7521,"zui4Ġchu1":7522,"Ġyi4Ġshi4Ġ":7523,"xie3Ġzuo4Ġ":7524,"meng4Ġjia1Ġ":7525,"te4Ġxing4Ġ":7526,"Ġwei4Ġyu2Ġmei3Ġguo2Ġ":7527,"Ġbao3":7528,"Ġza2Ġzhi4Ġ":7529,"jia3Ġdi4Ġ":7530,"ao4Ġmen2":7531,"Ġzui4Ġjia1Ġ":7532,"2Ġge4Ġ":7533,"1981Ġnian2Ġ":7534,"zhi2Ġye4Ġsheng1Ġya2Ġ":7535,"suo3ĠdeĠ":7536,"fu2Ġli4Ġ":7537,"1920Ġnian2Ġ":7538,"Ġxian4Ġji2Ġ":7539,"fu4Ġhe2Ġ":7540,"zhuan4ĠdeĠ":7541,"1960Ġnian2Ġ":7542,"zong1Ġyi4Ġ":7543,"chuang2Ġ":7544,"zi4Ġmu3Ġ":7545,"ling2Ġchen2Ġ":7546,"Ġcan1Ġyu4Ġ":7547,"suo3Ġwei4Ġ":7548,"tou4Ġlu4Ġ":7549,"dong1Ġbei3":7550,"Ġfa1Ġxing2Ġ":7551,"jue2Ġshi4Ġ":7552,"ou3Ġxiang4Ġ":7553,"ping2ĠdeĠ":7554,"kao3Ġshi4Ġ":7555,"Ġfu2Ġjian4Ġ":7556,"9Ġren2Ġ":7557,"Ġyi2Ġge4":7558,"ĠĠĠge4Ġren2Ġ":7559,"zong3Ġren2Ġkou3Ġ":7560,"1964Ġnian2Ġ":7561,"Ġdi4Ġfang1":7562,"Ġxian4Ġcheng2Ġ":7563,"Ġli3Ġke4Ġ":7564,"Ġde2Ġla1Ġ":7565,"kong1Ġqi4Ġ":7566,"Ġ50":7567,"Ġnuo4Ġ":7568,"na4ĠdeĠ":7569,"zuo4Ġwei2":7570,"zhu3Ġzhang1Ġ":7571,"xi1Ġhe2Ġ":7572,"xi1Ġnan2Ġ":7573,"hui2Ġyi4Ġ":7574,"fen2Ġ":7575,"Ġyi3Ġzai4Ġ":7576,"Ġye3Ġke3Ġyi3Ġ":7577,"pu2Ġtao2Ġya2Ġ":7578,"ĠĠĠren2Ġ":7579,"Ġzuo4Ġzhan4Ġ":7580,"Ġtai4":7581,"qi1Ġshi2Ġ":7582,"zou3Ġxiang4Ġ":7583,"Ġcheng2Ġke4Ġ":7584,"su1Ġge2Ġlan2Ġ":7585,"Ġku4Ġ":7586,"che1Ġdui4Ġ":7587,"Ġer3Ġshi4Ġ":7588,"nan2ĠdeĠ":7589,"guo4ĠleĠ":7590,"hu4Ġbu4Ġ":7591,"Ġdi4Ġtu2Ġ":7592,"Ġyuan2Ġben3":7593,"Ġchu1Ġdao4Ġ":7594,"xun2Ġzhao3":7595,"yin4Ġni2Ġ":7596,"Ġ2007":7597,"Ġ35":7598,"Ġsun1Ġ":7599,"Ġ2021Ġnian2Ġ":7600,"wu3Ġshi4Ġ":7601,"shou1Ġdao4Ġ":7602,"wa3Ġer3Ġsheng3Ġ":7603,"xin4Ġyang3":7604,"Ġzhen1":7605,"guan3Ġzhi4Ġ":7606,"gu3Ġli4Ġ":7607,"Ġgong1Ġli3ĠdeĠ":7608,"shi3Ġshang4Ġ":7609,"zhu3Ġyi4Ġzhe3Ġ":7610,"Ġkai3":7611,"1948Ġnian2Ġ":7612,"Ġwei4Ġyuan2Ġ":7613,"Ġyi3Ġyu2Ġ":7614,"guo4Ġdu4Ġ":7615,"yan2Ġren2Ġ":7616,"luo4Ġcheng2Ġ":7617,"xian3Ġzhu4Ġ":7618,"siĠ":7619,"1975Ġnian2Ġ":7620,"guo2Ġwu4Ġ":7621,"guang3Ġchang3":7622,"Ġshi2Ġyan4Ġshi4Ġ":7623,"Ġsi1Ġling4Ġbu4Ġ":7624,"5Ġmi3Ġ":7625,"shi3Ġren2Ġ":7626,"jiang1Ġyu2Ġ":7627,"du4Ġhe2Ġ":7628,"bi4ĠdeĠ":7629,"mai4Ġke4Ġ":7630,"Ġdi4Ġliu4Ġ":7631,"wang4Ġyuan3Ġ":7632,"xi1Ġdi4Ġ":7633,"si4ĠdeĠ":7634,"xiu1Ġdao4Ġ":7635,"baĠ":7636,"Ġda4Ġgong1Ġ":7637,"Ġfu4Ġjin4ĠdeĠ":7638,"zhuan1Ġye4":7639,"Ġkou3Ġ":7640,"shou3Ġdu1":7641,"ge2Ġli2Ġ":7642,"shao4Ġnv3Ġ":7643,"ĠĠĠyue4Ġ":7644,"shang4Ġxian4Ġ":7645,"yan2Ġzhi4Ġ":7646,"Ġ24":7647,"Ġtiao2Ġ":7648,"yu2Ġhe2Ġ":7649,"xiang1Ġguan1ĠdeĠ":7650,"dong1Ġjing1":7651,"deng3Ġdeng3Ġ":7652,"Ġxiao3Ġshi2Ġ":7653,"di4Ġhe2Ġ":7654,"fang4Ġzai4Ġ":7655,"Ġji2Ġshi3Ġ":7656,"jian1Ġyu4Ġ":7657,"mian3Ġfei4Ġ":7658,"Ġdang3Ġ":7659,"jiao3Ġdu4Ġ":7660,"zuo3Ġyi4Ġ":7661,"Ġcheng2Ġben3Ġ":7662,"wei2Ġzhu3Ġ":7663,"fan3Ġhui2":7664,"bei4Ġcheng1Ġwei2Ġ":7665,"Ġxing2Ġdong4":7666,"cai3Ġqu3":7667,"guan3Ġli3Ġju2Ġ":7668,"Ġdiao4Ġ":7669,"hun2Ġ":7670,"1952Ġnian2Ġ":7671,"tai2Ġbei3Ġshi4Ġ":7672,"Ġ29":7673,"Ġyue4Ġdui4Ġ":7674,"Ġjun1Ġqu1Ġ":7675,"bi4Ġmian3":7676,"kong1Ġjian1":7677,"xing2Ġtai4Ġ":7678,"ĠĠĠdang1Ġ":7679,"she4Ġbei4Ġ":7680,"xiang1Ġshi4Ġ":7681,"ka3Ġsi1Ġ":7682,"cai3Ġfang3":7683,"Ġ25":7684,"Ġse4Ġ":7685,"ĠĠĠ2009":7686,"shan1Ġxian4Ġ":7687,"li3Ġlun4":7688,"Ġer2Ġfei1Ġ":7689,"gai3Ġshan4Ġ":7690,"fei4Ġchu2Ġ":7691,"xi1Ġbei3Ġ":7692,"jia4Ġshi3Ġ":7693,"zheng4Ġfu3ĠdeĠ":7694,"kĠĠĠ":7695,"shang4Ġdi4Ġ":7696,"dao3Ġshang4Ġ":7697,"thĠ":7698,"Ġzai4Ġhe2Ġ":7699,"Ġke4Ġer3Ġ":7700,"Ġshe4Ġyu2Ġ":7701,"luo4Ġshan1Ġji1Ġ":7702,"Ġ27":7703,"Ġzu2Ġ":7704,"ci3Ġtong2Ġshi2Ġ":7705,"Ġshen2":7706,"Ġxie4":7707,"Ġfeng4Ġ":7708,"Ġ2002Ġnian2Ġ":7709,"kai1Ġgong1Ġ":7710,"tong1Ġzhi1Ġ":7711,"bo1Ġli2Ġ":7712,"Ġjue2Ġding4Ġ":7713,"ĠĠĠsi1Ġ":7714,"hen3Ġkuai4Ġ":7715,"Ġcai4":7716,"jiu4Ġyuan2Ġ":7717,"ci2ĠdeĠ":7718,"Ġdi4Ġyi1Ġci4":7719,"Ġyong3":7720,"he2Ġzai4Ġ":7721,"ye3Ġhui4Ġ":7722,"huai4Ġ":7723,"wa2Ġ":7724,"Ġzhi1Ġshi4Ġ":7725,"hai3Ġan4":7726,"ci2Ġzhi2Ġ":7727,"e2Ġluo2Ġsi1ĠdeĠ":7728,"Ġpu3":7729,"kou3ĠdeĠ":7730,"Ġyi4Ġjian4Ġ":7731,"Ġsuo1Ġ":7732,"ĠĠĠzheng4Ġ":7733,"Ġwei4Ġzai4Ġ":7734,"shen2Ġme":7735,"ĠĠĠw":7736,"Ġ60":7737,"zheng1Ġyue4Ġ":7738,"ti4Ġdai4Ġ":7739,"Ġren2Ġda4Ġ":7740,"Ġfen1Ġbie2Ġ":7741,"chu4Ġzhang3Ġ":7742,"chong1Ġtu1":7743,"jiu3ĠdeĠ":7744,"qiang2Ġzhi4Ġ":7745,"Ġshi2Ġxian4":7746,"jian1Ġdu1Ġ":7747,"ying3Ġshi4Ġ":7748,"yin3Ġyong4Ġ":7749,"ti2Ġchu1ĠleĠ":7750,"wai4Ġjiao1Ġbu4Ġ":7751,"4Ġge4Ġ":7752,"Ġmi4Ġ":7753,"Ġkai3Ġ":7754,"xue2Ġzhong1Ġ":7755,"qiang2ĠdeĠ":7756,"Ġge4Ġguo2Ġ":7757,"min2Ġzhu3Ġdang3":7758,"shan1Ġdi4Ġ":7759,"jin3Ġyou3Ġ":7760,"ji4Ġsuan4":7761,"ĠĠĠba1Ġ":7762,"feng1Ġfu4Ġ":7763,"Ġzhu3Ġyan3Ġ":7764,"xi3Ġhuan1Ġ":7765,"si1Ġshi4Ġ":7766,"nuo2Ġwei1":7767,"Ġxi2Ġ":7768,"Ġe2Ġ":7769,"ĠĠĠgu4Ġshi4Ġ":7770,"Ġsi1Ġma3Ġ":7771,"Ġhao4Ġxian4":7772,"tian1Ġhou4Ġ":7773,"ceng2Ġyu2Ġ":7774,"Ġge4Ġzhong3":7775,"zhang3Ġguan1Ġ":7776,"zong1Ġjiao4":7777,"xiao3Ġxing2Ġxing1":7778,"Ġshi2Ġhou4Ġ":7779,"mo4Ġxi1Ġge1":7780,"Ġyou3Ġxie1":7781,"pu3Ġbian4":7782,"bu4ĠdeĠcun1Ġzhuang1Ġ":7783,"ĠĠĠyi3Ġxia4":7784,"Ġlei2":7785,"ĠĠĠfu4Ġ":7786,"guan3ĠdeĠ":7787,"zan4Ġzhu4Ġ":7788,"yin4Ġshua1":7789,"Ġchuan1Ġ":7790,"cu4Ġjin4Ġ":7791,"Ġyue4Ġlai2Ġyue4Ġ":7792,"liu2Ġyu4Ġ":7793,"Ġfa3":7794,"1966Ġnian2Ġ":7795,"gu3Ġlao3":7796,"a1Ġgen1Ġ":7797,"ma3Ġlai2Ġxi1Ġya4":7798,"Ġpa4Ġ":7799,"ĠĠĠwei2Ġ":7800,"ta1Ġzai4Ġ":7801,"jiang4Ġyu3Ġ":7802,"liao3Ġjie3Ġ":7803,"kou4Ġ":7804,"jia1Ġting2Ġ":7805,"ce4Ġliang2Ġ":7806,"Ġxu4Ġ":7807,"fu4Ġshi4Ġ":7808,"lie4Ġchu1Ġ":7809,"ĠdeĠju4Ġ":7810,"Ġcheng2Ġxian4":7811,"Ġzhi1Ġdi4Ġ":7812,"jing1Ġdian3Ġ":7813,"che1Ġxiang1Ġ":7814,"Ġdan4Ġbai2Ġ":7815,"yun3Ġshi2Ġ":7816,"Ġxian4Ġshang4Ġ":7817,"lie4Ġru4Ġ":7818,"qiang2Ġdu4Ġ":7819,"su1Ġwei2Ġ":7820,"guan4Ġjun1":7821,"Ġbu4Ġshao3":7822,"Ġzhi1Ġjia1Ġ":7823,"fa1Ġdong4Ġji1Ġ":7824,"can1Ġxuan3Ġ":7825,"Ġzu2":7826,"Ġke4Ġhe2Ġ":7827,"bi4Ġmian3Ġ":7828,"ting2Ġche1Ġ":7829,"Ġni3":7830,"Ġxiang1Ġdang1":7831,"tong2Ġxing4Ġ":7832,"zao3Ġshang4Ġ":7833,"1937Ġnian2Ġ":7834,"zhu3Ġti2":7835,"chuang4Ġzuo4ĠdeĠ":7836,"sen1Ġlin2":7837,"Ġfu4Ġze2Ġguan3Ġxia2Ġ":7838,"Ġì":7839,"ao4Ġer3Ġ":7840,"la1ĠdeĠ":7841,"1974Ġnian2Ġ":7842,"ming2Ġdan1Ġ":7843,"zhan4Ġtai2Ġ":7844,"guo2Ġshi4Ġ":7845,"hu1Ġyu4Ġ":7846,"Ġgong1Ġying4Ġ":7847,"jian1Ġren4Ġ":7848,"xuan3Ġju3Ġzhong1Ġ":7849,"ĠĠĠs":7850,"1946Ġnian2Ġ":7851,"Ġyi1Ġzhi2Ġ":7852,"guan1Ġfang1":7853,"suo3Ġyou3ĠdeĠ":7854,"bo2Ġlin2Ġ":7855,"jian4Ġzhu4":7856,"di1Ġqi4Ġ":7857,"li2Ġmi3Ġ":7858,"jing3Ġgao4Ġ":7859,"cai2Ġliao4":7860,"ĠĠĠzeng1Ġzu3Ġ":7861,"Ġkao3Ġ":7862,"sao1Ġ":7863,"nan2Ġzi":7864,"ti3Ġyu4Ġchang3Ġ":7865,"guang3Ġzhou1":7866,"lian2Ġjie1":7867,"la1Ġde2Ġ":7868,"shu1Ġchu1Ġ":7869,"Ġbu4Ġman3Ġ":7870,"Ġgong1Ġneng2":7871,"zhao4Ġpian1Ġ":7872,"xia4Ġzai4Ġ":7873,"lan2Ġxi1Ġ":7874,"dun4ĠdeĠ":7875,"Ġqiu2ĠdeĠ":7876,"yin3Ġru4Ġ":7877,"yin2Ġpai2Ġ":7878,"yao2Ġgun3":7879,"hai2Ġzai4Ġ":7880,"Ġer2Ġgai1Ġdi4ĠdeĠ":7881,"Ġt":7882,"ying1Ġli3Ġ":7883,"nuo2Ġwei1Ġ":7884,"guo2Ġwang2Ġ":7885,"Ġyu3Ġqi2Ġ":7886,"qi1Ġzi3":7887,"an1Ġzhuang1Ġ":7888,"xu4Ġli4Ġya4":7889,"zao3Ġqi1ĠdeĠ":7890,"shi2Ġhe2Ġ":7891,"tu2ĠdeĠ":7892,"1954Ġnian2Ġ":7893,"mou3Ġxie1":7894,"ceng2ĠdeĠ":7895,"Ġji4Ġlu4":7896,"Ġchu1Ġyan3Ġ":7897,"zhi1Ġshi2Ġ":7898,"zhan4Ġdi4Ġ":7899,"qiu2Ġhui4Ġ":7900,"Ġbei4Ġer3":7901,"Ġshun4":7902,"Ġba3Ġ":7903,"zhan4Ġshi2Ġ":7904,"fei1Ġxing2":7905,"zao1Ġyu4Ġ":7906,"Ġnian2Ġqing1Ġ":7907,"Ġwei4Ġneng2":7908,"xia4Ġlai2Ġ":7909,"shen1Ġqing3":7910,"Ġhe2Ġgu3Ġ":7911,"Ġcheng2ĠleĠ":7912,"Ġyi3Ġqian2Ġ":7913,"Ġji4Ġyi4Ġ":7914,"Ġke4Ġli4Ġ":7915,"fa1Ġsheng1ĠdeĠ":7916,"shi1Ġqu4Ġ":7917,"gu3Ġla1Ġ":7918,"Ġjie1":7919,"qian2Ġhou4Ġ":7920,"10Ġnian2Ġ":7921,"bian1Ġyuan2Ġ":7922,"mo4Ġer3Ġ":7923,"zhong1Ġyang1Ġ":7924,"Ġjia1Ġting2":7925,"Ġxiang1Ġtong2Ġ":7926,"you1Ġxiu4":7927,"Ġyi3Ġse4Ġlie4Ġ":7928,"te4Ġli4Ġ":7929,"Ġshi2Ġbao4Ġ":7930,"xing1Ġqi1":7931,"Ġqing3Ġ":7932,"shan1Ġdong1Ġsheng3Ġ":7933,"Ġzhao1Ġhe2Ġ":7934,"Ġye4":7935,"dui4Ġyuan2Ġ":7936,"zu3ĠdeĠ":7937,"Ġdui4Ġci3Ġ":7938,"ĠĠĠgai4Ġyao4Ġ":7939,"Ġ2006":7940,"san1Ġda4Ġ":7941,"ĠdeĠzhu3Ġyao4Ġ":7942,"tai4Ġkong1Ġ":7943,"Ġzi4Ġyou2":7944,"Ġfou3":7945,"Ġjun1Ġdi4Ġ":7946,"Ġsheng1Ġming2Ġ":7947,"Ġzhi3Ġzai4Ġ":7948,"Ġ2000Ġnian2Ġ":7949,"zha4Ġdan4Ġ":7950,"niang2Ġ":7951,"ĠRe":7952,"ĠĠĠThe":7953,"wang3Ġshang4Ġ":7954,"ta3Ġer3Ġ":7955,"Ġdi4Ġzhen4Ġ":7956,"xia4Ġjiang4Ġ":7957,"Ġwai4":7958,"Ġsong4":7959,"ceĠ":7960,"ling3Ġdao3ĠdeĠ":7961,"yan2Ġjiu1Ġsheng1Ġ":7962,"Ġshui3":7963,"te4Ġer3Ġ":7964,"bao3ĠdeĠ":7965,"Ġxian4Ġyou3Ġ":7966,"Ġyuan2Ġyin1":7967,"dian4Ġshi4Ġtai2":7968,"Ġ000Ġ":7969,"Ġcai2":7970,"Ġ40":7971,"wu1Ġsi1Ġ":7972,"hao3Ġping2Ġ":7973,"zhai1Ġ":7974,"1955Ġnian2Ġ":7975,"Ġzhong1Ġjian1Ġ":7976,"pu3Ġcha2Ġ":7977,"Ġshou3Ġci4Ġ":7978,"duo1Ġci4":7979,"hui2Ġgui1Ġ":7980,"ĠBĠ":7981,"1Ġge4Ġ":7982,"Ġcai3Ġyong4Ġ":7983,"tong2Ġming2Ġ":7984,"te4Ġyou3Ġ":7985,"bian1Ġwei4Ġ":7986,"Ġji2Ġbing4Ġ":7987,"bo2Ġjue2Ġ":7988,"Ġwei1Ġlian2Ġ":7989,"Ġre":7990,"mi3ĠdeĠ":7991,"Ġxing2Ġbu4Ġ":7992,"qin1Ġwang2Ġ":7993,"kuai4Ġsu4":7994,"zan4Ġting2Ġ":7995,"Ġmo2":7996,"cun2ĠdeĠ":7997,"Ġguang3Ġdong1Ġ":7998,"Ġxian1Ġhou4Ġ":7999}