{"!":0,"\"":1,"#":2,"$":3,"%":4,"&":5,"'":6,"(":7,")":8,"*":9,"+":10,",":11,"-":12,".":13,"/":14,"0":15,"1":16,"2":17,"3":18,"4":19,"5":20,"6":21,"7":22,"8":23,"9":24,":":25,";":26,"=":27,"?":28,"@":29,"A":30,"B":31,"C":32,"D":33,"E":34,"F":35,"G":36,"H":37,"I":38,"J":39,"K":40,"L":41,"M":42,"N":43,"O":44,"P":45,"Q":46,"R":47,"S":48,"T":49,"U":50,"V":51,"W":52,"X":53,"Y":54,"Z":55,"[":56,"\\":57,"]":58,"^":59,"_":60,"`":61,"a":62,"b":63,"c":64,"d":65,"e":66,"f":67,"g":68,"h":69,"i":70,"j":71,"k":72,"l":73,"m":74,"n":75,"o":76,"p":77,"q":78,"r":79,"s":80,"t":81,"u":82,"v":83,"w":84,"x":85,"y":86,"z":87,"|":88,"~":89,"¡":90,"¢":91,"£":92,"¤":93,"¥":94,"¦":95,"§":96,"¨":97,"©":98,"ª":99,"«":100,"¬":101,"®":102,"¯":103,"°":104,"±":105,"²":106,"³":107,"´":108,"µ":109,"¶":110,"·":111,"¸":112,"¹":113,"º":114,"»":115,"¼":116,"½":117,"¾":118,"¿":119,"Â":120,"Ã":121,"Ä":122,"Å":123,"Æ":124,"Ç":125,"È":126,"É":127,"Ê":128,"Ë":129,"Ì":130,"Í":131,"Î":132,"Ï":133,"Ð":134,"Ñ":135,"Ò":136,"Ó":137,"Ô":138,"Õ":139,"Ö":140,"×":141,"Ø":142,"Ù":143,"Ú":144,"Û":145,"Ü":146,"Þ":147,"ß":148,"à":149,"á":150,"â":151,"ã":152,"ä":153,"ê":154,"ë":155,"ì":156,"í":157,"î":158,"ï":159,"ð":160,"ñ":161,"Ċ":162,"Ġ":163,"ġ":164,"Ģ":165,"ģ":166,"Ĥ":167,"ĥ":168,"Ħ":169,"ħ":170,"Ĩ":171,"ĩ":172,"Ī":173,"ī":174,"Ĭ":175,"ĭ":176,"Į":177,"į":178,"İ":179,"ı":180,"Ĳ":181,"ĳ":182,"Ĵ":183,"ĵ":184,"Ķ":185,"ķ":186,"ĸ":187,"Ĺ":188,"ĺ":189,"Ļ":190,"ļ":191,"Ľ":192,"ľ":193,"Ŀ":194,"ŀ":195,"Ł":196,"ł":197,"Ń":198,"ng":199,"an":200,"sh":201,"zh":202,"ji":203,"ang":204,"ĠĠ":205,"ong":206,"xi":207,"ao":208,"ai":209,"de":210,"ei":211,"shi":212,"yu":213,"ou":214,"yi":215,"en":216,"ch":217,"ian":218,"uo":219,"eng":220,"li":221,"ĠĠĠ":222,"ãĢ":223,"ing":224,"ui":225,"wei":226,"uan":227,"zhi":228,"qi":229,"nian":230,"zhong":231,"you":232,"ren":233,"un":234,"zai":235,"di":236,"guo":237,"ãĢģ":238,"he":239,"bu":240,"er":241,"gong":242,"xing":243,"cheng":244,"da":245,"zhu":246,"hu":247,"yuan":248,"si":249,"jian":250,"yue":251,"ge":252,"fu":253,"xian":254,"ue":255,"ke":256,"wu":257,"chu":258,"shu":259,"sheng":260,"jie":261,"jia":262,"bi":263,"dao":264,"zi":265,"bei":266,"hui":267,"fa":268,"xiang":269,"ti":270,"zheng":271,"mi":272,"ta":273,"jin":274,"qu":275,"20":276,"tong":277,"ri":278,"ju":279,"jing":280,"ming":281,"le":282,"hou":283,"shang":284,"shou":285,"dong":286,"ci":287,"fang":288,"19":289,"hua":290,"yin":291,"xue":292,"guan":293,"zhan":294,"ye":295,"ying":296,"zuo":297,"zhe":298,"yan":299,"mei":300,"jiao":301,"gu":302,"chang":303,"xin":304,"dui":305,"lu":306,"bing":307,"bao":308,"fen":309,"dan":310,"huo":311,"jun":312,"jiang":313,"du":314,"xiao":315,"dian":316,"yong":317,"qian":318,"she":319,"tai":320,"xia":321,"mu":322,"wen":323,"gai":324,"zhang":325,"liang":326,"ya":327,"ru":328,"dai":329,"hai":330,"nan":331,"zhou":332,"zu":333,"wang":334,"lai":335,"ban":336,"jiu":337,"dang":338,"qing":339,"ping":340,"shen":341,"ãĢĭ":342,"ãĢĬ":343,"wan":344,"lian":345,"ling":346,"luo":347,"Â·":348,"min":349,"quan":350,"pi":351,"ni":352,"bo":353,"duo":354,"te":355,"ben":356,"gao":357,"biao":358,"suo":359,"la":360,"ma":361,"kai":362,"ba":363,"xie":364,"xu":365,"bian":366,"deng":367,"yao":368,"yang":369,"mian":370,"zhen":371,"ding":372,"qiu":373,"zui":374,"sai":375,"liu":376,"fan":377,"xuan":378,"fei":379,"san":380,"shan":381,"che":382,"zong":383,"men":384,"ãĢĮ":385,"ãĢį":386,"tu":387,"tian":388,"hao":389,"su":390,"lei":391,"nei":392,"yun":393,"201":394,"lan":395,"feng":396,"mo":397,"na":398,"ze":399,"lv":400,"han":401,"kou":402,"wai":403,"neng":404,"lin":405,"chuan":406,"chi":407,"jue":408,"bai":409,"pai":410,"200":411,"ku":412,"cai":413,"zao":414,"ting":415,"zhuan":416,"gang":417,"lie":418,"guang":419,"gui":420,"lun":421,"sui":422,"pu":423,"ceng":424,"kong":425,"shui":426,"10":427,"chao":428,"zhuang":429,"cha":430,"dou":431,"can":432,"tou":433,"ran":434,"se":435,"duan":436,"cun":437,"huan":438,"cong":439,"pin":440,"ce":441,"chan":442,"xun":443,"gou":444,"00":445,"nv":446,"zhao":447,"gan":448,"chong":449,"sha":450,"tan":451,"18":452,"qin":453,"ka":454,"meng":455,"qiang":456,"huang":457,"xiu":458,"12":459,"tiao":460,"man":461,"shao":462,"kuo":463,"long":464,"pian":465,"shuo":466,"tuan":467,"tang":468,"rong":469,"geng":470,"202":471,"chen":472,"tui":473,"gen":474,"que":475,"tie":476,"11":477,"qie":478,"wo":479,"po":480,"pei":481,"hang":482,"hong":483,"199":484,"bang":485,"liao":486,"chuang":487,"bie":488,"re":489,"tuo":490,"tao":491,"song":492,"wa":493,"mai":494,"ha":495,"15":496,"pan":497,"dun":498,"diao":499,"qiao":500,"sa":501,"mao":502,"lang":503,"kan":504,"kang":505,"âĢ":506,"or":507,"lao":508,"zeng":509,"16":510,"198":511,"kao":512,"xiong":513,"17":514,"on":515,"nuo":516,"miao":517,"rang":518,"kuang":519,"hen":520,"suan":521,"14":522,"30":523,"zhun":524,"13":525,"194":526,"cao":527,"hun":528,"qun":529,"nong":530,"197":531,"heng":532,"shuang":533,"lou":534,"gei":535,"kuai":536,"piao":537,"zha":538,"hei":539,"niu":540,"195":541,"sen":542,"bin":543,"reng":544,"zou":545,"196":546,"chun":547,"kuan":548,"25":549,"âĢĶ":550,"rui":551,"sun":552,"pao":553,"ning":554,"for":555,"pa":556,"cang":557,"mou":558,"24":559,"peng":560,"huai":561,"21":562,"193":563,"23":564,"mula":565,"formula":566,"28":567,"zan":568,"ruo":569,"in":570,"22":571,"chou":572,"zhui":573,"ar":574,"me":575,"26":576,"50":577,"2020":578,"27":579,"nai":580,"nu":581,"ï¼":582,"29":583,"shun":584,"2010":585,"za":586,"000":587,"lve":588,"zhai":589,"2019":590,"ne":591,"ro":592,"juan":593,"st":594,"ra":595,"cui":596,"kun":597,"2016":598,"luan":599,"2018":600,"cuo":601,"2021":602,".5":603,"zang":604,"2014":605,"shuai":606,"2011":607,"2015":608,"2017":609,"2012":610,"40":611,"2013":612,"nao":613,"2022":614,"die":615,"ruan":616,"kui":617,"lt":618,"rou":619,"cu":620,"sang":621,"2009":622,"2008":623,"ãĥ":624,"60":625,"niao":626,"al":627,"rao":628,"chai":629,"100":630,"zhuo":631,"2023":632,"gt":633,"sou":634,"190":635,"31":636,"ken":637,"2007":638,"2001":639,"teng":640,"pang":641,"0.":642,"fou":643,"co":644,"fo":645,"gua":646,"2000":647,"80":648,"2006":649,"2024":650,"ãģ":651,"1.":652,"2005":653,"zun":654,"tion":655,"kua":656,"the":657,"35":658,"70":659,"nie":660,"lo":661,"of":662,"90":663,"2.":664,"leng":665,"ï¼į":666,"ãĤ":667,"am":668,"tun":669,"ter":670,"mie":671,"2004":672,"th":673,"to":674,"45":675,"48":676,"mang":677,"2025":678,"ve":679,"ga":680,"ãĢī":681,"ãĢĪ":682,"36":683,"38":684,"2003":685,"37":686,"Ma":687,"chui":688,"pen":689,"ll":690,"189":691,"IN":692,"2002":693,"3.":694,"keng":695,"TC":696,"do":697,"34":698,"75":699,"âĢĵ":700,"Co":701,"46":702,"ca":703,"1990":704,"âĢ¦":705,"ck":706,"39":707,"..":708,"be":709,"65":710,"32":711,"ST":712,"47":713,"UTC":714,"1999":715,"1998":716,"1980":717,"188":718,"500":719,"33":720,"In":721,"64":722,"ss":723,"The":724,"vi":725,".8":726,"SE":727,"55":728,"1997":729,"Re":730,"hi":731,"49":732,"II":733,"el":734,"68":735,"et":736,"44":737,"1996":738,"oo":739,"qiong":740,"1994":741,"gun":742,"br":743,"guai":744,".0":745,".7":746,"1992":747,"1995":748,".9":749,"Mi":750,"67":751,"and":752,"sao":753,"es":754,"1991":755,"1970":756,"58":757,"1950":758,"300":759,"1993":760,"187":761,"1949":762,".6":763,"at":764,"AT":765,"pe":766,"1960":767,"42":768,"1945":769,"Li":770,"ver":771,"qia":772,"1988":773,"ty":774,"1989":775,"69":776,"Ro":777,"is":778,"run":779,"SEE":780,"niang":781,"INSEE":782,"ho":783,"59":784,"43":785,"66":786,"57":787,"1985":788,"99":789,"SA":790,"ãĢİ":791,"ãĢı":792,"ct":793,"1984":794,"41":795,"88":796,"1986":797,"wi":798,"ol":799,"ws":800,"TV":801,"ry":802,"150":803,"Me":804,"nd":805,"400":806,"1987":807,"78":808,"1982":809,"56":810,"beng":811,"Vi":812,"Pa":813,"ts":814,"1983":815,"amp":816,"NA":817,"De":818,"CD":819,"gh":820,"fi":821,"weng":822,"ber":823,"77":824,"Win":825,"per":826,"zuan":827,"Sta":828,"79":829,"OS":830,"Wi":831,"Â°":832,"ï½":833,"der":834,"180":835,"BC":836,"54":837,"1979":838,"61":839,"1920":840,".2":841,"as":842,"Mo":843,"seng":844,"98":845,"52":846,"You":847,"1978":848,".1":849,"no":850,"62":851,"53":852,"ly":853,"shua":854,"La":855,"ï½ŀ":856,"BA":857,"1946":858,"CO":859,"51":860,"1958":861,"gi":862,"Jo":863,"1981":864,".3":865,"1972":866,"1948":867,".4":868,"Le":869,"tw":870,"AM":871,"63":872,"AR":873,"ction":874,"1941":875,"BS":876,"Ga":877,"1930":878,"Da":879,"Pro":880,"Te":881,"76":882,"hans":883,"1940":884,"1937":885,"1976":886,"1944":887,"Ja":888,"89":889,"us":890,"Di":891,"Windo":892,"1975":893,"ï¼ı":894,"1968":895,"hk":896,"con":897,"Fi":898,"um":899,"Si":900,"1000":901,"Windows":902,"95":903,"87":904,"nal":905,"Mar":906,"1966":907,"rd":908,"85":909,"Ne":910,"Ra":911,"ki":912,"600":913,"120":914,"1947":915,"Se":916,"AC":917,"1956":918,"1964":919,"Be":920,"1942":921,"Ã©":922,"1955":923,"1952":924,"IS":925,"ad":926,"1939":927,"1938":928,"72":929,"ur":930,"74":931,"Ca":932,"va":933,"1973":934,"1974":935,"1954":936,"Ar":937,"Al":938,"ED":939,"1900":940,"--":941,"AP":942,"1943":943,"To":944,"1977":945,"ld":946,"1971":947,"cen":948,"lay":949,"1967":950,"Ba":951,"IC":952,"800":953,"Po":954,"Lo":955,"ER":956,"zhua":957,"sta":958,"86":959,"1959":960,"Bo":961,"tt":962,"1965":963,"JR":964,"1969":965,"Fa":966,"ãĥ»":967,"ÃĹ":968,"ID":969,"Bi":970,"son":971,"1936":972,"160":973,"97":974,"1953":975,"Sa":976,"MA":977,"1962":978,"1961":979,"nen":980,"Na":981,"âĶ":982,"So":983,"1935":984,"com":985,"Ho":986,"tic":987,"96":988,"ON":989,"ï¼ħ":990,"1951":991,"St":992,"1957":993,"1963":994,"Tu":995,"âĶĢ":996,"fe":997,"so":998,"ment":999,"84":1000,"Hi":1001,"2026":1002,"82":1003,"Do":1004,"mer":1005,"Ri":1006,"73":1007,"nt":1008,"94":1009,"92":1010,"Ki":1011,"Ha":1012,"nang":1013,"one":1014,"IP":1015,"AN":1016,"ls":1017,"1933":1018,"1931":1019,"les":1020,"71":1021,"nuan":1022,"Com":1023,"83":1024,"93":1025,"ted":1026,"Su":1027,"81":1028,"Ti":1029,"Mu":1030,"1918":1031,"Ni":1032,"HD":1033,"Uni":1034,"1928":1035,"pp":1036,"1932":1037,"Cha":1038,"We":1039,"ys":1040,"MV":1041,"SS":1042,"110":1043,"IT":1044,"1912":1045,"No":1046,"1929":1047,"1927":1048,"1934":1049,"cn":1050,"700":1051,"go":1052,"1.5":1053,"zei":1054,"ght":1055,"ster":1056,"250":1057,"91":1058,"rt":1059,"lli":1060,"1924":1061,"ris":1062,"...":1063,"1919":1064,"nve":1065,"130":1066,"Pi":1067,"1925":1068,"Gi":1069,"PS":1070,"by":1071,"ed":1072,"mes":1073,"An":1074,"PC":1075,"140":1076,"AS":1077,"Play":1078,"1914":1079,"km":1080,"DV":1081,"tio":1082,"YouTu":1083,"SM":1084,"ble":1085,"gra":1086,"ko":1087,"1911":1088,"Con":1089,"Ch":1090,"lla":1091,"1926":1092,"lle":1093,"Ge":1094,"Par":1095,"id":1096,"Ta":1097,"1922":1098,"Lin":1099,"mp":1100,"1917":1101,"He":1102,"Ka":1103,"ET":1104,"NBA":1105,"wn":1106,"IV":1107,"EN":1108,"1923":1109,"1921":1110,"shai":1111,"Goo":1112,"chuo":1113,"0.0":1114,"170":1115,"à¸":1116,"EC":1117,"MS":1118,"ali":1119,"AL":1120,"ph":1121,"section":1122,"YouTube":1123,"EP":1124,"BL":1125,"1913":1126,"Car":1127,"Bu":1128,"zen":1129,"HK":1130,"we":1131,"hn":1132,"mm":1133,"ven":1134,"hant":1135,"2.5":1136,"âĨ":1137,"1909":1138,"sion":1139,"Inter":1140,"cro":1141,"MP":1142,"AI":1143,"Wor":1144,"Pe":1145,"ds":1146,"US":1147,"pro":1148,"DVD":1149,"ok":1150,"3000":1151,"En":1152,"1910":1153,"DS":1154,"RO":1155,"cou":1156,"Ste":1157,"sis":1158,"112":1159,"Go":1160,"rk":1161,"AK":1162,"RE":1163,"1916":1164,"Wa":1165,"lia":1166,"ãĥ¼":1167,"Station":1168,"For":1169,"Net":1170,"ff":1171,"Î±":1172,"oft":1173,"ine":1174,"den":1175,"lor":1176,"rea":1177,"tional":1178,"gn":1179,"ture":1180,"gle":1181,"CP":1182,"UN":1183,"âĪ":1184,"ard":1185,"1915":1186,"gin":1187,"1905":1188,"ps":1189,"FC":1190,"cal":1191,"vo":1192,"dia":1193,"My":1194,"CN":1195,"âĦ":1196,"âĨĴ":1197,"our":1198,"ers":1199,"1901":1200,"ent":1201,"Au":1202,"DNA":1203,"Ex":1204,"âĢ§":1205,"900":1206,"end":1207,"HR":1208,"dice":1209,".&":1210,"ther":1211,"tal":1212,"CH":1213,"TA":1214,"TO":1215,"1906":1216,"1904":1217,"2.0":1218,"AV":1219,"tes":1220,"MO":1221,"jiong":1222,"John":1223,"my":1224,"eri":1225,"codice":1226,"Man":1227,"âĦĥ":1228,"dy":1229,"PlayStation":1230,"Chi":1231,"05":1232,"CC":1233,"tive":1234,"diu":1235,"And":1236,"1907":1237,"dio":1238,"1908":1239,"Google":1240,"AG":1241,"Ci":1242,"EST":1243,"0.5":1244,"MI":1245,"SO":1246,"LE":1247,"sic":1248,"ree":1249,"BO":1250,"int":1251,"wit":1252,"BBC":1253,"Sch":1254,"AD":1255,"IG":1256,"land":1257,"III":1258,"cri":1259,"4.":1260,"ton":1261,"1500":1262,"5000":1263,"cy":1264,"round":1265,"wer":1266,"IST":1267,"ms":1268,"ron":1269,"ME":1270,"CR":1271,"ul":1272,"3D":1273,"je":1274,"6.":1275,"IA":1276,"ley":1277,"105":1278,"au":1279,"Ð°":1280,"ria":1281,"101":1282,"1903":1283,"tor":1284,"GB":1285,"van":1286,"09":1287,"TE":1288,"Lu":1289,"1902":1290,"BD":1291,"NC":1292,"Pri":1293,"Fe":1294,"xt":1295,"350":1296,"pou":1297,"Ã¡":1298,"SAO":1299,"5.":1300,"des":1301,"DC":1302,"ja":1303,"Î²":1304,"cke":1305,"B1900":1306,"B1900.0":1307,"book":1308,"hat":1309,"ES":1310,"all":1311,"BM":1312,"ï¼İ":1313,"ãĥ³":1314,"Ru":1315,"ner":1316,"1898":1317,"res":1318,"06":1319,"118":1320,"op":1321,"ãģ®":1322,"360":1323,"DR":1324,"New":1325,"01":1326,"DA":1327,"Hu":1328,"Open":1329,"1895":1330,"ger":1331,"125":1332,"Sho":1333,"3.5":1334,"HO":1335,"MC":1336,"1%":1337,"San":1338,"ATP":1339,"Micro":1340,"ctor":1341,"Ð¾":1342,"108":1343,"ft":1344,"2%":1345,"cor":1346,"os":1347,"NG":1348,"Ke":1349,"clu":1350,"gy":1351,"gram":1352,"pri":1353,"ward":1354,"sty":1355,"IF":1356,"Cu":1357,"Fran":1358,"One":1359,"net":1360,"soft":1361,"ker":1362,"pt":1363,"âĪĴ":1364,"07":1365,"08":1366,"230":1367,"Face":1368,"104":1369,"pace":1370,"lspan":1371,"Cor":1372,"Per":1373,"Bar":1374,"World":1375,"App":1376,"EDT":1377,"ISTAT":1378,"cuan":1379,"Love":1380,".5%":1381,"Ko":1382,"à¤":1383,"Har":1384,"NO":1385,"Stu":1386,"1896":1387,"LL":1388,"ux":1389,"109":1390,"DP":1391,"las":1392,"AA":1393,"fli":1394,"RI":1395,"Ju":1396,"pha":1397,"Ser":1398,"lus":1399,"line":1400,"RT":1401,"tri":1402,"SP":1403,"EX":1404,"B48":1405,"106":1406,"1890":1407,"rai":1408,"sti":1409,"mon":1410,"CST":1411,"ML":1412,"od":1413,"uni":1414,"CDT":1415,"bert":1416,"Je":1417,"rs":1418,"rus":1419,"red":1420,"3%":1421,"DO":1422,"Pu":1423,"ky":1424,"HE":1425,"Cou":1426,"ation":1427,"Mon":1428,"04":1429,"4000":1430,"115":1431,"1200":1432,"M1":1433,"Pre":1434,"50%":1435,"03":1436,"ler":1437,"GP":1438,"del":1439,"CE":1440,"Äģ":1441,"Live":1442,"begin":1443,"1889":1444,"ool":1445,"Davi":1446,"with":1447,"6%":1448,"ara":1449,"1899":1450,"colspan":1451,"tain":1452,"back":1453,"1871":1454,"RS":1455,"sto":1456,"Facebook":1457,"Ed":1458,"Sha":1459,"Microsoft":1460,"mic":1461,"tem":1462,"âĢĭ":1463,"240":1464,"1600":1465,"LO":1466,"Tri":1467,"ten":1468,"tin":1469,"BE":1470,"low":1471,"102":1472,"box":1473,"10%":1474,"clude":1475,"Ad":1476,"TT":1477,"1897":1478,"Sou":1479,"ser":1480,"NH":1481,"EE":1482,"Du":1483,"ces":1484,"PP":1485,"117":1486,"SC":1487,"4%":1488,"val":1489,"02":1490,"por":1491,"5%":1492,"cm":1493,"Mac":1494,"style":1495,"Che":1496,"rst":1497,"103":1498,"AKB48":1499,"Dan":1500,"MD":1501,"Nor":1502,"Ph":1503,"107":1504,"ral":1505,"Her":1506,"On":1507,"pre":1508,"ring":1509,"As":1510,"are":1511,"Willi":1512,"tel":1513,"0.00":1514,"Linux":1515,"lis":1516,"Ori":1517,"ww":1518,"8%":1519,"Dis":1520,"shuan":1521,"gue":1522,"mas":1523,"450":1524,"Ber":1525,"VID":1526,"127":1527,"Music":1528,"Is":1529,"Ai":1530,"Gre":1531,"cer":1532,"Ã¼":1533,"tus":1534,"Vo":1535,"tra":1536,"128":1537,"4.5":1538,"1.2":1539,"flix":1540,"9%":1541,"CL":1542,"Netflix":1543,"Bro":1544,"yo":1545,"1894":1546,"Game":1547,"220":1548,"Can":1549,"Gra":1550,"nin":1551,"ref":1552,"Ð½":1553,"William":1554,"Bri":1555,"IL":1556,"align":1557,"SH":1558,"bli":1559,"ory":1560,"Or":1561,"Twit":1562,"1880":1563,"Red":1564,"old":1565,"ÃŃ":1566,"RNA":1567,"136":1568,"PG":1569,"Ð¸":1570,"ãģĦ":1571,"rom":1572,"TR":1573,"20%":1574,"Team":1575,"7%":1576,"1800":1577,"ãĤ¹":1578,"Univer":1579,"ground":1580,"ia":1581,"1885":1582,"len":1583,"114":1584,"ãĤĵ":1585,"Hz":1586,"color":1587,"Gen":1588,"Ty":1589,"116":1590,"280":1591,"UR":1592,"ple":1593,"Ðµ":1594,"113":1595,"1886":1596,"7.":1597,"ein":1598,"ãĤ¤":1599,"TS":1600,"PO":1601,"1893":1602,"lar":1603,".9%":1604,"ex":1605,"rn":1606,"yn":1607,"1.8":1608,"Mc":1609,"name":1610,"111":1611,"SL":1612,"ãĦ":1613,".8%":1614,"Super":1615,"She":1616,"stra":1617,".4%":1618,"All":1619,"Gu":1620,"cial":1621,"lass":1622,".3%":1623,"âĢ»":1624,"David":1625,"135":1626,".7%":1627,"ject":1628,"Ac":1629,"260":1630,"Cen":1631,"Eu":1632,"lf":1633,"1860":1634,"port":1635,"ham":1636,"90%":1637,"Geor":1638,"cho":1639,"national":1640,"Char":1641,"5.5":1642,"Un":1643,"WTA":1644,"lver":1645,"dge":1646,"work":1647,".1%":1648,"HC":1649,"Th":1650,"80%":1651,"8.":1652,"tro":1653,"School":1654,"Ban":1655,"ks":1656,"sso":1657,"tch":1658,"tis":1659,"1888":1660,".2%":1661,"Mor":1662,"qui":1663,"text":1664,".6%":1665,"SD":1666,"Ã³":1667,"-.":1668,"UA":1669,"roup":1670,"lly":1671,"cation":1672,"ony":1673,"1.6":1674,"background":1675,"Meta":1676,"roid":1677,"ac":1678,"meri":1679,"Tra":1680,"129":1681,"GO":1682,"Sto":1683,"dis":1684,"1870":1685,"GN":1686,"ï¹":1687,"ream":1688,"30%":1689,"1887":1690,"Show":1691,"Qu":1692,"cle":1693,"1868":1694,"6000":1695,"Ã¶":1696,"ÑĢ":1697,"1883":1698,"NF":1699,"VA":1700,"mar":1701,"Ver":1702,"day":1703,"320":1704,"Xbox":1705,"CS":1706,"was":1707,"Ang":1708,"NHK":1709,"Tho":1710,"AF":1711,"Fo":1712,"Twitter":1713,"DD":1714,"lyin":1715,"onlyin":1716,"onlyinclude":1717,"++":1718,"KP":1719,"don":1720,"1864":1721,"âĢ¢":1722,"Gir":1723,"ION":1724,"1884":1725,"119":1726,"Bla":1727,"RC":1728,"UE":1729,"ain":1730,"miu":1731,"122":1732,"Va":1733,"2500":1734,"1892":1735,"210":1736,"6.5":1737,"A1":1738,"center":1739,"cket":1740,"155":1741,"ISO":1742,"âħ":1743,"145":1744,"stri":1745,"1891":1746,"650":1747,"7.5":1748,"9.":1749,"way":1750,"Android":1751,"NS":1752,"Clu":1753,"ãĢķ":1754,"OR":1755,"ffi":1756,"htt":1757,"mber":1758,"ãĢĶ":1759,"1850":1760,"Fu":1761,"Phi":1762,"age":1763,"mb":1764,"win":1765,"xy":1766,"Cy":1767,"Ku":1768,"king":1769,"International":1770,"sia":1771,"1867":1772,"logy":1773,"Ce":1774,"IM":1775,"ãĥĪ":1776,"1879":1777,"Star":1778,"rie":1779,"James":1780,"Enter":1781,"cc":1782,"ller":1783,"380":1784,"AB":1785,"UP":1786,"ney":1787,"Eng":1788,"40%":1789,"1876":1790,"Spe":1791,"War":1792,"ny":1793,"1.4":1794,"Studio":1795,"zo":1796,"George":1797,"Ab":1798,"Ani":1799,"1875":1800,"1861":1801,"270":1802,"Universi":1803,"Games":1804,"Bra":1805,"IR":1806,"126":1807,"2.4":1808,"NT":1809,"Ã¨":1810,"time":1811,"art":1812,"Es":1813,"Por":1814,"NGC":1815,"stru":1816,"ãĥ«":1817,"1873":1818,"Hen":1819,"MG":1820,"phi":1821,"ero":1822,"123":1823,"ãĥ©":1824,"PV":1825,"ns":1826,"100%":1827,"Ben":1828,"Dra":1829,"HT":1830,"Colle":1831,"Group":1832,"Pan":1833,"car":1834,"mpi":1835,"rans":1836,"Sun":1837,"it":1838,"ut":1839,"168":1840,"cus":1841,"COVID":1842,"Blo":1843,"FM":1844,"MB":1845,"Sys":1846,"ous":1847,"sed":1848,"1865":1849,"Club":1850,"AO":1851,"Ameri":1852,"PL":1853,"her":1854,"im":1855,"121":1856,"DE":1857,"Don":1858,"that":1859,"1.0":1860,"Air":1861,"Center":1862,"175":1863,"ary":1864,"ãģĨ":1865,"Web":1866,"H2":1867,"YP":1868,"from":1869,"Ã¤":1870,"1400":1871,"MAX":1872,"critic":1873,"Ale":1874,"tz":1875,"138":1876,"228":1877,"Han":1878,"TP":1879,"1848":1880,"1.3":1881,"1862":1882,"60%":1883,"330":1884,"124":1885,"ãĤ¢":1886,"1881":1887,"1882":1888,"737":1889,"Lea":1890,"Ali":1891,"UC":1892,"hy":1893,"1878":1894,"550":1895,"Ve":1896,"sau":1897,"bri":1898,"bit":1899,"1872":1900,"El":1901,"LC":1902,"Insta":1903,"Min":1904,"ration":1905,"70%":1906,"INK":1907,"Metacritic":1908,"eld":1909,"Oricon":1910,"Sai":1911,"Whi":1912,"sco":1913,"156":1914,"Boo":1915,"MTV":1916,"sp":1917,"165":1918,"LED":1919,"1840":1920,"IVE":1921,"Ya":1922,"cre":1923,"kin":1924,"750":1925,"ãĥĥ":1926,"1300":1927,"ãģĹ":1928,"Hy":1929,"137":1930,"Micha":1931,"Mark":1932,"7000":1933,"Hel":1934,"era":1935,"1.1":1936,"93.":1937,"DOS":1938,"SQ":1939,"UB":1940,"229":1941,"IU":1942,"GDP":1943,"King":1944,"OK":1945,"Ñģ":1946,"2.2":1947,"type":1948,"Gran":1949,"nic":1950,"High":1951,"Tai":1952,"ast":1953,"152":1954,"TVB":1955,"Chris":1956,"159":1957,"1877":1958,"Robert":1959,"Chan":1960,"py":1961,"sy":1962,"tle":1963,"âĹ":1964,"cien":1965,"1866":1966,"Hou":1967,"iOS":1968,"ot":1969,"Ð»":1970,"Produ":1971,"SK":1972,"Shi":1973,"silver":1974,"1869":1975,"âĢ²":1976,"thi":1977,"THE":1978,"Up":1979,"Day":1980,"4.0":1981,"Cro":1982,"DM":1983,"Ele":1984,"15%":1985,"Stre":1986,"Peter":1987,"It":1988,"NET":1989,"tter":1990,"2.8":1991,"Free":1992,"Jan":1993,"Ðº":1994,"139":1995,"Phone":1996,"Instagram":1997,"At":1998,"BI":1999,"C++":2000,"Sur":2001,"pla":2002,"BLAC":2003,"Type":2004,"Ð²":2005,"ora":2006,"Apple":2007,"DJ":2008,"Sy":2009,"Wal":2010,"0.3":2011,"CG":2012,"WE":2013,"code":2014,"ãĤ¯":2015,"Michael":2016,"DF":2017,"Sh":2018,"ï¸":2019,"1100":2020,"cia":2021,"158":2022,"ness":2023,"Big":2024,"225":2025,"Pla":2026,"Pat":2027,"Sam":2028,"Ye":2029,"vin":2030,"nia":2031,"305":2032,"133":2033,"INE":2034,"Paul":2035,"Tech":2036,"National":2037,"tte":2038,"oun":2039,"nis":2040,"ãĥª":2041,"Award":2042,"RA":2043,"YO":2044,"132":2045,"Steam":2046,"205":2047,"1863":2048,"ray":2049,"IE":2050,"pany":2051,"25%":2052,"1.7":2053,"Media":2054,"tainment":2055,"215":2056,"Br":2057,"University":2058,"FO":2059,"Lou":2060,"Val":2061,"ensis":2062,"tions":2063,"3.6":2064,"Bill":2065,"phy":2066,"CA":2067,"F1":2068,"KBS":2069,"bur":2070,"148":2071,"131":2072,"Smi":2073,"kg":2074,"166":2075,"2.7":2076,"1874":2077,"XX":2078,"deo":2079,"1858":2080,"par":2081,"EF":2082,"sor":2083,"rin":2084,"rum":2085,"Cho":2086,"clo":2087,"147":2088,"2.6":2089,"Hol":2090,"mini":2091,"Fri":2092,"256":2093,"ãģĭ":2094,"M2":2095,"1830":2096,"2.3":2097,"CBS":2098,"UT":2099,"gon":2100,"lm":2101,"1851":2102,"Lee":2103,"BN":2104,"GA":2105,"HI":2106,"UI":2107,"lip":2108,"ric":2109,"192":2110,"Park":2111,"td":2112,"Î¼":2113,"8000":2114,"Mer":2115,"3.0":2116,"now":2117,"Entertainment":2118,"310":2119,"4.8":2120,"143":2121,"his":2122,"Mk":2123,"1855":2124,"City":2125,"Black":2126,"Wil":2127,"Power":2128,"Chu":2129,"EM":2130,"IX":2131,"Space":2132,"gar":2133,"whi":2134,"GM":2135,"RAM":2136,"ð«":2137,"185":2138,"1859":2139,"tho":2140,"STAR":2141,"Jack":2142,"Charles":2143,"134":2144,"Java":2145,"Dire":2146,"ABC":2147,"Gar":2148,"Ter":2149,"spe":2150,"ship":2151,"1854":2152,"146":2153,"301":2154,"1700":2155,"inter":2156,"Viu":2157,"stitu":2158,"370":2159,"Fla":2160,"Ken":2161,"1857":2162,"Alpha":2163,"Lan":2164,"Stan":2165,"out":2166,"los":2167,"Dar":2168,"Ø§":2169,"10.":2170,"290":2171,"ãģª":2172,"Life":2173,"ï¸°":2174,"vs":2175,"Î³":2176,"214":2177,"420":2178,"Cam":2179,"ÑĤ":2180,"1.9":2181,"Recor":2182,"Company":2183,"Fun":2184,"Î¿":2185,"ãĢľ":2186,"1856":2187,"1853":2188,"Project":2189,"Dream":2190,"Fan":2191,"Sen":2192,"dium":2193,"ãģŁ":2194,"first":2195,"Time":2196,"Thomas":2197,"House":2198,"Pen":2199,"144":2200,"Saint":2201,"FA":2202,"OVA":2203,"Py":2204,"Spi":2205,"75%":2206,"Cent":2207,"VO":2208,"ek":2209,"face":2210,"A2":2211,"IO":2212,"dd":2213,"von":2214,"167":2215,"Japan":2216,"Street":2217,"3A":2218,"Cla":2219,"HS":2220,"SBS":2221,"rence":2222,"bili":2223,"rist":2224,"chard":2225,"1841":2226,"very":2227,"Euro":2228,"LP":2229,"Plan":2230,"ak":2231,"ie":2232,"rp":2233,"bal":2234,"ety":2235,"Alex":2236,"340":2237,"PM":2238,"bun":2239,"if":2240,"lue":2241,"BLACKP":2242,"7.6":2243,"92.":2244,"Sco":2245,"Tal":2246,"dra":2247,"cher":2248,"208":2249,"ses":2250,"1815":2251,"178":2252,"Soci":2253,"CPU":2254,"BLACKPINK":2255,"223":2256,"33.":2257,"space":2258,"850":2259,"LGB":2260,"Sing":2261,"Spo":2262,"ew":2263,"tta":2264,"cess":2265,"ood":2266,"www":2267,"IBM":2268,"zer":2269,"mis":2270,"Art":2271,"ports":2272,"Bat":2273,"Bur":2274,"SF":2275,"207":2276,"mation":2277,"wor":2278,"171":2279,"235":2280,"ãģ¨":2281,"ãģ¾":2282,"LIVE":2283,"SU":2284,"Soft":2285,"203":2286,"B2":2287,"Fer":2288,"VE":2289,"SQL":2290,"tha":2291,"1846":2292,"164":2293,"College":2294,"Am":2295,"cra":2296,"157":2297,"lter":2298,"vice":2299,"berg":2300,"American":2301,"BR":2302,"LT":2303,"NE":2304,"Pol":2305,"141":2306,"ford":2307,"ICE":2308,"4.7":2309,"4.6":2310,"8.5":2311,"Ama":2312,"B1":2313,"PE":2314,"nvi":2315,"176":2316,"ING":2317,"Girls":2318,"Asso":2319,"Ger":2320,"LS":2321,"ste":2322,"Â²":2323,"turn":2324,"publi":2325,"self":2326,"1812":2327,"1845":2328,"1844":2329,"stro":2330,"3.2":2331,"Road":2332,"not":2333,"Offi":2334,"Wo":2335,"dro":2336,"ball":2337,"231":2338,"arch":2339,"cture":2340,"class":2341,"lon":2342,"esti":2343,"Rock":2344,"Cl":2345,"HF":2346,"Ltd":2347,"M3":2348,"play":2349,"lea":2350,"board":2351,"ãĤĬ":2352,"witch":2353,"LGBT":2354,"llo":2355,"sg":2356,"here":2357,"209":2358,"ãģį":2359,"2.1":2360,"2.9":2361,"NASA":2362,"Tele":2363,"GNU":2364,"LA":2365,"Van":2366,"gs":2367,"tation":2368,"Jose":2369,"well":2370,"Tour":2371,"IUCN":2372,"Smith":2373,"216":2374,"PN":2375,"Rou":2376,"Îº":2377,"1849":2378,"153":2379,"CT":2380,"NBC":2381,"204":2382,"238":2383,"nes":2384,"Good":2385,"Production":2386,"BB":2387,"Cal":2388,"GT":2389,"bra":2390,"ded":2391,"Video":2392,"O2":2393,"ep":2394,"fer":2395,"Ïĥ":2396,"mited":2397,"pie":2398,"row":2399,"Hall":2400,"PR":2401,"dae":2402,"206":2403,"thy":2404,"Pad":2405,"Gala":2406,"Boy":2407,"eries":2408,"460":2409,"5.0":2410,"Af":2411,"Tor":2412,"set":2413,"1814":2414,"vel":2415,"ders":2416,"saurus":2417,"218":2418,"Eli":2419,"Tur":2420,"wood":2421,"Jean":2422,"SI":2423,"Ten":2424,"nel":2425,"vision":2426,"IGN":2427,"5.8":2428,"Act":2429,"LD":2430,"PA":2431,"fra":2432,"âĸ":2433,"Richard":2434,"FF":2435,"Kar":2436,"WS":2437,"om":2438,"ÏĢ":2439,"tar":2440,"1847":2441,"154":2442,"ved":2443,"3.4":2444,"580":2445,"6.0":2446,"MBC":2447,"side":2448,"mac":2449,"chem":2450,"1843":2451,"Best":2452,"ptr":2453,"System":2454,"430":2455,"Sky":2456,"Zi":2457,"rich":2458,"cis":2459,"177":2460,"401":2461,"lls":2462,"410":2463,"Fle":2464,"sin":2465,"mann":2466,"ãĤ·":2467,"NFL":2468,"ViuTV":2469,"Switch":2470,"dar":2471,"163":2472,"0.2":2473,"AMD":2474,"Digi":2475,"API":2476,"Para":2477,"ICO":2478,"Sma":2479,"data":2480,"ments":2481,"1852":2482,"162":2483,"thon":2484,"Max":2485,"VII":2486,"ced":2487,"1820":2488,"11.":2489,"ãģı":2490,"West":2491,"Ag":2492,"Glo":2493,"Tun":2494,"Vol":2495,"ach":2496,"zon":2497,"142":2498,"234":2499,"star":2500,"cript":2501,"5.7":2502,"VR":2503,"sys":2504,"sign":2505,"max":2506,"172":2507,"ãģĬ":2508,"ãģķ":2509,"Core":2510,"Records":2511,"640":2512,"Met":2513,"lti":2514,"169":2515,"3500":2516,"this":2517,"Limited":2518,"Blue":2519,"KC":2520,"Ran":2521,"T1":2522,"cto":2523,"Â±":2524,"1839":2525,"232":2526,"3.7":2527,"Coun":2528,"480":2529,"CM":2530,"179":2531,"cade":2532,"Inc":2533,"Green":2534,"use":2535,"2030":2536,"rio":2537,"org":2538,"149":2539,"0.1":2540,"365":2541,"3.3":2542,"Institu":2543,"Lau":2544,"lum":2545,"tube":2546,"1821":2547,"war":2548,"ãĥŃ":2549,"ãģ¿":2550,"Vir":2551,"Unicode":2552,"ROM":2553,"CCTV":2554,"390":2555,"BU":2556,"bus":2557,"tia":2558,"306":2559,"222":2560,"601":2561,"0.4":2562,"5.9":2563,"ona":2564,"173":2565,"Bob":2566,"EA":2567,"Far":2568,"Gui":2569,"Ji":2570,"PF":2571,"Yu":2572,"Ze":2573,"kh":2574,"rue":2575,"bar":2576,"12.":2577,"ware":2578,"247":2579,"oot":2580,"Hea":2581,"Prin":2582,"mpion":2583,"Er":2584,"KK":2585,"Mr":2586,"Ven":2587,"XP":2588,"gna":2589,"jo":2590,"1790":2591,"ump":2592,"211":2593,"560":2594,"OH":2595,"SN":2596,"zy":2597,"ket":2598,"ciation":2599,"orn":2600,"new":2601,"ãĥ¬":2602,"BF":2603,"Pra":2604,"VM":2605,"tv":2606,"off":2607,"velo":2608,"3.8":2609,"MU":2610,"PD":2611,"Ren":2612,"Squ":2613,"Scien":2614,"183":2615,"1795":2616,"303":2617,"Force":2618,"âĹĭ":2619,"PH":2620,"Tan":2621,"233":2622,"ãģ¡":2623,"1801":2624,"213":2625,"Trans":2626,"tary":2627,"ãĥŀ":2628,".0%":2629,"Heart":2630,"USB":2631,"Men":2632,"bro":2633,"174":2634,"3.1":2635,"Pop":2636,"ttle":2637,"MVP":2638,"Bel":2639,"CK":2640,"oper":2641,"Ïģ":2642,"áĢ":2643,"ìĿ":2644,"key":2645,"186":2646,"1838":2647,"ors":2648,"Fire":2649,"Store":2650,"520":2651,"Cri":2652,"DDR":2653,"stan":2654,"mily":2655,"har":2656,"cker":2657,"Christ":2658,"610":2659,"Lon":2660,"ab":2661,"up":2662,"161":2663,"501":2664,"ãĥī":2665,"http":2666,"224":2667,"CF":2668,"em":2669,"iPad":2670,"tto":2671,"bile":2672,"sub":2673,"1813":2674,"ãĤī":2675,"Mag":2676,"Data":2677,"GE":2678,"ÏĦ":2679,"rity":2680,"mor":2681,"182":2682,"1832":2683,"1842":2684,"255":2685,"logi":2686,"ason":2687,"Society":2688,"AE":2689,"dth":2690,"iPhone":2691,"sur":2692,"184":2693,"ties":2694,"0.6":2695,"ãĤ«":2696,"dom":2697,"Mini":2698,"720":2699,"KI":2700,"Que":2701,"Script":2702,"ele":2703,"gre":2704,"âĺ":2705,"late":2706,"1836":2707,"1793":2708,"ãĤª":2709,"Comic":2710,"Intel":2711,"KiHa":2712,"Muse":2713,"buntu":2714,"221":2715,"HBO":2716,"MT":2717,"Pin":2718,"ffe":2719,"mus":2720,"1833":2721,"1789":2722,"cent":2723,"Home":2724,"tics":2725,"River":2726,"https":2727,"Direct":2728,"Association":2729,"Galaxy":2730,"Bal":2731,"Dr":2732,"DAM":2733,"M4":2734,"QQ":2735,"ae":2736,"search":2737,"1835":2738,"151":2739,"ars":2740,"ãĤ¿":2741,"width":2742,"peri":2743,"tical":2744,"League":2745,"219":2746,"217":2747,"338":2748,"5.6":2749,"6.7":2750,"FT":2751,"JYP":2752,"Qui":2753,"Rai":2754,"SR":2755,"Ubuntu":2756,"WA":2757,"mg":2758,"ðĲ":2759,"ful":2760,"âĢ°":2761,"down":2762,"1804":2763,"ONE":2764,"CEO":2765,"470":2766,"740":2767,"830":2768,"Bui":2769,"fun":2770,"ssi":2771,"ving":2772,"ned":2773,"Martin":2774,"Bank":2775,"Henry":2776,"Mai":2777,"YG":2778,"ÏĤ":2779,"Ð´":2780,"âī":2781,"light":2782,"bor":2783,"mat":2784,"Master":2785,".81":2786,"Top":2787,"Champion":2788,"Dy":2789,"Ear":2790,"LINE":2791,"MW":2792,"Î½":2793,"mal":2794,"bel":2795,"ART":2796,"News":2797,"China":2798,"212":2799,"DK":2800,"Dou":2801,"Em":2802,"Sp":2803,"Ñĥ":2804,"unch":2805,"1828":2806,"0.7":2807,"core":2808,"ãĤ³":2809,"APAN":2810,"Hot":2811,"Part":2812,"Network":2813,"Gener":2814,"0%":2815,"FR":2816,"Flo":2817,"Long":2818,"dor":2819,"cil":2820,"191":2821,"rew":2822,"302":2823,"0.8":2824,"Young":2825,"95%":2826,"Billboard":2827,"Office":2828,"680":2829,"Ada":2830,"Epi":2831,"Fra":2832,"Gold":2833,"MHz":2834,"PI":2835,"Song":2836,"SNH":2837,"nm":2838,"plo":2839,"Î¹":2840,"table":2841,"ries":2842,"181":2843,"1624":2844,"237":2845,"ãĤĭ":2846,"Night":2847,"Note":2848,"Joseph":2849,"SNH48":2850,"4.9":2851,"FDA":2852,"JAPAN":2853,"PK":2854,"à¹":2855,"á¹":2856,"pur":2857,"1644":2858,"308":2859,"0.9":2860,"Code":2861,"COM":2862,"440":2863,"Cra":2864,"DB":2865,"GR":2866,"zz":2867,"list":2868,"tial":2869,"led":2870,"less":2871,"10000":2872,"1837":2873,"part":2874,"239":2875,"ston":2876,"1806":2877,"Sir":2878,"Radio":2879,"United":2880,"macOS":2881,"CV":2882,"U21":2883,"Vis":2884,"sing":2885,"Ã¢":2886,"Ã®":2887,"Î´":2888,"à¥":2889,"âĳ":2890,"def":2891,"sus":2892,"1819":2893,"299":2894,"3.9":2895,"346":2896,"Regi":2897,"HTML":2898,"780":2899,"East":2900,"cs":2901,"und":2902,"1825":2903,"245":2904,"236":2905,"505":2906,"279":2907,"ãģ«":2908,"Mari":2909,"540":2910,"7.8":2911,"EV":2912,"Gam":2913,"H5":2914,"Pal":2915,"muni":2916,"13.":2917,"rpm":2918,"325":2919,"7.9":2920,"Yo":2921,"tre":2922,"right":2923,"001":2924,"1776":2925,"ãģĺ":2926,"Child":2927,"NCAA":2928,"Server":2929,"Digital":2930,"FAT":2931,"Kong":2932,"tea":2933,"1818":2934,"pon":2935,"main":2936,"14.":2937,"para":2938,"265":2939,"ãģĵ":2940,"esta":2941,"Hello":2942,"GS":2943,"Lang":2944,"air":2945,"telli":2946,"1824":2947,"1831":2948,"2027":2949,"rey":2950,"Down":2951,"Dri":2952,"Ob":2953,"RPG":2954,"pho":2955,"spi":2956,"Ã§":2957,"Ã´":2958,"lio":2959,"sio":2960,"rick":2961,"lation":2962,"386":2963,"Mat":2964,"Service":2965,"âħ¡":2966,"Techno":2967,"51.":2968,"Ana":2969,"Ado":2970,"UM":2971,"non":2972,"rent":2973,"ges":2974,"temp":2975,"BSD":2976,"Python":2977,"1A":2978,"CW":2979,"Den":2980,"XML":2981,"Î»":2982,"sho":2983,"275":2984,"2700":2985,"Youtube":2986,"Edward":2987,"White":2988,"312":2989,"5G":2990,"730":2991,"Des":2992,"HL":2993,"OM":2994,"TBS":2995,"ena":2996,"has":2997,"med":2998,"264":2999,"295":3000,"1802":3001,"First":3002,"BLUE":3003,"burg":3004,"public":3005,"Institute":3006,"32.":3007,"630":3008,"Envi":3009,"Gro":3010,"TM":3011,"ori":3012,"yer":3013,"Ãº":3014,"Ãł":3015,"sual":3016,"1822":3017,"288":3018,"ãĤ¸":3019,"Poly":3020,"4.2":3021,"6.8":3022,"JT":3023,"Out":3024,"Sum":3025,"ÙĦ":3026,"mond":3027,"244":3028,"ãĥķ":3029,"vate":3030,"Tom":3031,"ITF":3032,"2D":3033,"6.9":3034,"OT":3035,"ise":3036,"var":3037,"xel":3038,"return":3039,"249":3040,"35%":3041,"903":3042,"ves":3043,"Cap":3044,"Square":3045,"6.6":3046,"Hong":3047,"PID":3048,"Series":3049,"This":3050,"Za":3051,"Ä«":3052,"Å¡":3053,"yal":3054,"tum":3055,"tual":3056,"243":3057,"2800":3058,"Rap":3059,"Cup":3060,"91.":3061,"Del":3062,"FX":3063,"Jen":3064,"Jump":3065,"NP":3066,"__":3067,"sch":3068,"sig":3069,"chuai":3070,"1810":3071,"15.":3072,"1622":3073,"1792":3074,"307":3075,"sts":3076,"701":3077,"SARS":3078,"Frank":3079,"POP":3080,"Grand":3081,"5.1":3082,"960":3083,"Kin":3084,"SHO":3085,"VV":3086,"sca":3087,"Îµ":3088,"dit":3089,"tur":3090,"1650":3091,"801":3092,"Pala":3093,"Chro":3094,"MIUI":3095,"Count":3096,"Tunes":3097,"2100":3098,"Cur":3099,"Hor":3100,"cci":3101,"Ð¼":3102,"1826":3103,"have":3104,"1573":3105,"story":3106,"Step":3107,"Under":3108,"747":3109,"Jour":3110,"yon":3111,"but":3112,"tems":3113,"1834":3114,"304":3115,"226":3116,"278":3117,"ãĥŁ":3118,"ãĤĤ":3119,"teri":3120,"375":3121,"1805":3122,"Die":3123,"ACT":3124,"APP":3125,"AIR":3126,"Auto":3127,"North":3128,"Bran":3129,"HA":3130,"Kan":3131,"cing":3132,"ice":3133,"pus":3134,"007":3135,"296":3136,"298":3137,"385":3138,"ATA":3139,"Block":3140,"335":3141,"590":3142,"9000":3143,"Bor":3144,"CU":3145,"Sports":3146,"WN":3147,"ml":3148,"rei":3149,"Ïī":3150,"âĭ":3151,"let":3152,"dings":3153,"12%":3154,"had":3155,"1780":3156,"13%":3157,"227":3158,"ãĥł":3159,"Your":3160,"IFA":3161,"315":3162,"63.":3163,"Les":3164,"Os":3165,"Pho":3166,"Rei":3167,"ii":3168,"iTunes":3169,"pH":3170,"Â»":3171,"gain":3172,"251":3173,"277":3174,"Real":3175,"ghts":3176,"CNN":3177,"2A":3178,"Op":3179,"Over":3180,"RFC":3181,"din":3182,"dition":3183,"zine":3184,"mad":3185,"map":3186,"more":3187,"18.":3188,"1582":3189,"1799":3190,"259":3191,"246":3192,"248":3193,"1809":3194,"Dani":3195,"Engine":3196,"530":3197,"C2":3198,"Cas":3199,"DLC":3200,"Ei":3201,"Â«":3202,"ere":3203,"1823":3204,"1621":3205,"272":3206,"405":3207,"ville":3208,"ATION":3209,"State":3210,"1803":3211,"Internet":3212,"EEE":3213,"value":3214,"press":3215,"334":3216,"620":3217,"770":3218,"Bou":3219,"Clo":3220,"Class":3221,"Gol":3222,"Hal":3223,"SG":3224,"Wat":3225,"app":3226,"bre":3227,"rch":3228,"1625":3229,"284":3230,"285":3231,"ino":3232,"lton":3233,"ãĤµ":3234,"Mit":3235,"cond":3236,"311":3237,"880":3238,"Cle":3239,"Sony":3240,"Ur":3241,"VI":3242,"vy":3243,"Ãī":3244,"á»":3245,"258":3246,"form":3247,"276":3248,"ãģĮ":3249,"Wii":3250,"Moon":3251,"Mobile":3252,"Bay":3253,"Gri":3254,"KO":3255,"Oper":3256,"Tru":3257,"XT":3258,"than":3259,"à¦":3260,"get":3261,"ork":3262,"253":3263,"357":3264,"ters":3265,"Maria":3266,"Ray":3267,"Publi":3268,"660":3269,"Bon":3270,"Cli":3271,"Im":3272,"NM":3273,"SV":3274,"UL":3275,"ee":3276,"ung":3277,"Ð¹":3278,"uel":3279,"ãĥĹ":3280,"STA":3281,"via":3282,"Alf":3283,"Dot":3284,"IPv":3285,"Nico":3286,"Unix":3287,"South":3288,"Ange":3289,"Book":3290,"Europe":3291,"570":3292,"Get":3293,"U19":3294,"WF":3295,"blo":3296,"hr":3297,"Ð³":3298,"1827":3299,"1570":3300,"ãģĤ":3301,"gazine":3302,"cks":3303,"sson":3304,"view":3305,"Pier":3306,"0.01":3307,"314":3308,"3DS":3309,"690":3310,"BBS":3311,"C6":3312,"DSM":3313,"IEEE":3314,"Mou":3315,"Mal":3316,"SB":3317,"WWE":3318,"trans":3319,"tas":3320,"1817":3321,"1640":3322,"1636":3323,"range":3324,"268":3325,"402":3326,"404":3327,"ãģ¯":3328,"Sound":3329,"which":3330,"4G":3331,"7.7":3332,"AX":3333,"TW":3334,"fy":3335,"fri":3336,"gal":3337,"dei":3338,"1775":3339,"254":3340,"465":3341,"ator":3342,"85%":3343,"323":3344,"7.0":3345,"Gal":3346,"HP":3347,"OP":3348,"Tre":3349,"dea":3350,"tina":3351,"lution":3352,"1750":3353,"309":3354,"vis":3355,"Now":3356,"329":3357,"670":3358,"6.1":3359,"8.1":3360,"Jon":3361,"Nu":3362,"Plus":3363,"shing":3364,"tude":3365,"1816":3366,"kar":3367,"poli":3368,"17.":3369,"zation":3370,"ãĥģ":3371,"ãĤ£":3372,"4500":3373,"field":3374,"CON":3375,"Beau":3376,"Poli":3377,"TOP":3378,"print":3379,"Cube":3380,".-":3381,"710":3382,"910":3383,"950":3384,"DI":3385,"Ham":3386,"MK":3387,"ap":3388,"other":3389,"laris":3390,"16%":3391,"loud":3392,"241":3393,"2300":3394,"cur":3395,"Medi":3396,"Film":3397,"ISBN":3398,"Way":3399,"tvN":3400,"326":3401,"Asia":3402,"Fin":3403,"Ly":3404,"T2":3405,"ctive":3406,"tti":3407,"à½":3408,"ence":3409,"char":3410,"1592":3411,"45%":3412,"347":3413,"758":3414,"Gil":3415,"ople":3416,"61.":3417,"Ara":3418,"DT":3419,"Tro":3420,"cti":3421,"even":3422,"mark":3423,"tural":3424,"10.5":3425,"12.5":3426,"sal":3427,"1628":3428,"1788":3429,"252":3430,"242":3431,"269":3432,"ãĥĭ":3433,"May":3434,"nald":3435,"fea":3436,"Tik":3437,"Channel":3438,"318":3439,"336":3440,"53.":3441,"9.5":3442,"978":3443,"CB":3444,"DL":3445,"Festi":3446,"MUS":3447,"N2":3448,"O3":3449,"Run":3450,"áĥ":3451,"hur":3452,"lam":3453,"1627":3454,"1783":3455,"1791":3456,"289":3457,"406":3458,"354":3459,"INN":3460,"Joy":3461,"Tok":3462,"Pixel":3463,"Disney":3464,"âĸ¡":3465,"velop":3466,"Vista":3467,"73.":3468,"90.":3469,"Acade":3470,"EL":3471,"F4":3472,"IB":3473,"LAN":3474,"LTE":3475,"Nan":3476,"PT":3477,"Wan":3478,"16.":3479,"1797":3480,"num":3481,"ï¼»":3482,"ï¼½":3483,"65%":3484,"556":3485,"Research":3486,"Beat":3487,"Cir":3488,"Girl":3489,"Louis":3490,"Software":3491,"DMS":3492,"Fre":3493,"OF":3494,"TH":3495,"ag":3496,"gis":3497,"tr":3498,"1779":3499,"1796":3500,"607":3501,"ãģ¤":3502,"ãģł":3503,"352":3504,"1808":3505,"cono":3506,"ERT":3507,"ference":3508,"km2":3509,"mple":3510,"Works":3511,"NCT":3512,"Alice":3513,"Christian":3514,"âĭ¯":3515,"321":3516,"337":3517,"4.3":3518,"A4":3519,"Cer":3520,"Cry":3521,"T3":3522,"dri":3523,"night":3524,"1829":3525,"sar":3526,"1778":3527,"1794":3528,"283":3529,"mega":3530,"273":3531,"ãĥ£":3532,"ãĥĲ":3533,"ãĤ¨":3534,"thing":3535,"cast":3536,"oom":3537,"ctro":3538,"Visual":3539,"Johan":3540,"ASC":3541,"YouTuber":3542,"Chine":3543,"Island":3544,"Battle":3545,"world":3546,"313":3547,"510":3548,"840":3549,"860":3550,"Il":3551,"Mnet":3552,"Rain":3553,"Sin":3554,"Ã±":3555,"Î¸":3556,"eni":3557,"1798":3558,"22%":3559,"ãģ¦":3560,"456":3561,"372":3562,"ECT":3563,"ctory":3564,"agement":3565,"Awards":3566,"system":3567,".00":3568,"448":3569,"870":3570,"ror":3571,"mit":3572,"18%":3573,"ress":3574,"read":3575,"1580":3576,"1612":3577,"1634":3578,"1787":3579,"281":3580,"267":3581,"ãĥĩ":3582,"fore":3583,"ãģ£":3584,"lost":3585,"ãĤ¦":3586,"vil":3587,"vern":3588,"Royal":3589,"Hill":3590,"web":3591,"mmy":3592,"Premi":3593,"Fore":3594,"Global":3595,"62.":3596,"911":3597,"DG":3598,"Dai":3599,"Foot":3600,"MF":3601,"TN":3602,"âĩ":3603,"like":3604,"rena":3605,"1567":3606,"1648":3607,"271":3608,"ltra":3609,"pedia":3610,"Mary":3611,"Arts":3612,"BOX":3613,"rain":3614,"Special":3615,"Science":3616,"Enviro":3617,"42.":3618,"52.":3619,"72.":3620,"AH":3621,"Der":3622,"E3":3623,"Hun":3624,"Let":3625,"MM":3626,"Wei":3627,"York":3628,"oi":3629,"sche":3630,"19.":3631,"pop":3632,"ret":3633,"262":3634,"367":3635,"cky":3636,"OSHI":3637,"gic":3638,"ACE":3639,"Kim":3640,"Compu":3641,"ENT":3642,"AGA":3643,"Great":3644,"Qua":3645,"-&":3646,"322":3647,"43.":3648,"Gor":3649,"MON":3650,"Oli":3651,"OTT":3652,"Sal":3653,"VB":3654,"fla":3655,"hus":3656,"size":3657,"tifi":3658,"nica":3659,"bon":3660,"posi":3661,"1550":3662,"1568":3663,"ord":3664,"1615":3665,"1630":3666,"14%":3667,"formation":3668,"286":3669,"arr":3670,"ãĥĸ":3671,"col":3672,"Magazine":3673,"Model":3674,"CH3":3675,"Brown":3676,"Amazon":3677,"Museum":3678,"Daniel":3679,"Festival":3680,"CAS":3681,"End":3682,"Fro":3683,"FBI":3684,"LG":3685,"O4":3686,"SIG":3687,"Tou":3688,"USA":3689,"dt":3690,"ole":3691,"plan":3692,"dent":3693,"lina":3694,"kes":3695,"ches":3696,"12.7":3697,"1645":3698,"1646":3699,"28%":3700,"ãĤŃ":3701,"333":3702,".95":3703,"andy":3704,"COLL":3705,"ARD":3706,"Secre":3707,"Communi":3708,"Encore":3709,"God":3710,"tures":3711,"Online":3712,"Taiwan":3713,"Queen":3714,"TikTok":3715,"MUSIC":3716,"9.8":3717,"9.7":3718,"Ah":3719,"Ami":3720,"Cat":3721,"Thun":3722,"cka":3723,"gg":3724,"Ø±":3725,"ani":3726,"1626":3727,"261":3728,"297":3729,"lth":3730,"355":3731,"49%":3732,"Anto":3733,"Dark":3734,"General":3735,"Chinese":3736,"328":3737,"820":3738,"Crea":3739,"Mur":3740,"PRO":3741,"S2":3742,"Son":3743,"over":3744,"pra":3745,"dal":3746,"1637":3747,"2400":3748,"705":3749,"901":3750,"364":3751,"384":3752,"378":3753,"33%":3754,"442":3755,"Memo":3756,"Wiki":3757,"gio":3758,"Point":3759,"VIDIA":3760,"618":3761,"70.":3762,"71.":3763,"AU":3764,"CBC":3765,"HB":3766,"NVIDIA":3767,"T48":3768,"Ð¡":3769,"Ñĭ":3770,"rine":3771,"ques":3772,"1610":3773,"1642":3774,"257":3775,"282":3776,"met":3777,"2600":3778,"Stadium":3779,"Sea":3780,"Capi":3781,"Base":3782,"1609":3783,"oney":3784,"llion":3785,"Redmi":3786,"Year":3787,"Talk":3788,"Adobe":3789,"5.4":3790,"760":3791,"767":3792,"CAN":3793,"Pet":3794,"Set":3795,"U17":3796,"VC":3797,"Won":3798,"Who":3799,"What":3800,"af":3801,"bps":3802,"lk":3803,"ÑĮ":3804,"deon":3805,"cio":3806,"tech":3807,"poration":3808,"1585":3809,"1583":3810,"say":3811,"13.5":3812,"ãĤĦ":3813,"Col":3814,"cas":3815,"583":3816,"wiki":3817,"1807":3818,"ARM":3819,"TeX":3820,"thern":3821,"Cyclo":3822,"Systems":3823,"Metro":3824,"930":3825,"Fal":3826,"FIFA":3827,"JU":3828,"KE":3829,"Lei":3830,"Mel":3831,"OD":3832,"Sche":3833,"ate":3834,"bs":3835,"house":3836,"11%":3837,"1623":3838,"274":3839,".04":3840,"Pay":3841,"Archi":3842,"Town":3843,"Niko":3844,"Geo":3845,"ï¹ĳ":3846,"H2O":3847,"Bru":3848,"Chang":3849,"Eye":3850,"EOS":3851,"FIN":3852,"IEC":3853,"Juni":3854,"pes":3855,"tium":3856,"11.5":3857,"1571":3858,"17%":3859,"1784":3860,"263":3861,"509":3862,"293":3863,"stein":3864,"dies":3865,"rough":3866,"351":3867,"dos":3868,"999":3869,"Deep":3870,"const":3871,"Neo":3872,"Union":3873,"stern":3874,"Key":3875,"rstea":3876,"plex":3877,"ounda":3878,".10":3879,"2200":3880,"428":3881,"5.2":3882,"AJ":3883,"Dun":3884,"GUN":3885,"pto":3886,"uts":3887,"wing":3888,"xx":3889,"cht":3890,"1620":3891,"1723":3892,"1786":3893,"504":3894,"ãĥ¥":3895,"353":3896,"vey":3897,"395":3898,"Mike":3899,"43%":3900,"Solaris":3901,"Stra":3902,"some":3903,"private":3904,"Philip":3905,"Cross":3906,"Journal":3907,"DotA":3908,"419":3909,"432":3910,"A3":3911,"Cloud":3912,"FN":3913,"GL":3914,"Has":3915,"SW":3916,"Åį":3917,"ìķ":3918,"ander":3919,"1450":3920,"ãģĻ":3921,"Mau":3922,"Little":3923,"cts":3924,"coun":3925,"Studios":3926,"427":3927,"4.1":3928,"Cine":3929,"FE":3930,"HIV":3931,"Ima":3932,"K6":3933,"Vin":3934,"VPN":3935,"ace":3936,"hoo":3937,"Äį":3938,"gel":3939,"zilla":3940,"1577":3941,"1618":3942,"1643":3943,"387":3944,"399":3945,"beth":3946,".82":3947,".83":3948,"Line":3949,"LOVE":3950,"Fleet":3951,"Technology":3952,"317":3953,"331":3954,"345":3955,"512":3956,"565":3957,"Aven":3958,"Bai":3959,"Cr":3960,"FI":3961,"H1":3962,"MY":3963,"R2":3964,"S1":3965,"U18":3966,"USS":3967,"Ultra":3968,"Ñı":3969,"live":3970,"mia":3971,"test":3972,"base":3973,"mol":3974,"hard":3975,"1586":3976,"1777":3977,"1453":3978,"21%":3979,"806":3980,"lot":3981,"CDMA":3982,"Stage":3983,"Radeon":3984,"ALL":3985,"Exp":3986,"Valve":3987,"Children":3988,"327":3989,"411":3990,"490":3991,"445":3992,"446":3993,"535":3994,"Ath":3995,"M87":3996,"Of":3997,"Ram":3998,"U23":3999,"Wol":4000,"where":4001,"Ãª":4002,"lic":4003,"city":4004,"mate":4005,"model":4006,"chie":4007,"sey":4008,"cell":4009,"1521":4010,"oro":4011,"1765":4012,"1774":4013,"ono":4014,"398":4015,"47%":4016,"499":4017,"Post":4018,"Multi":4019,"Tay":4020,"BMW":4021,"Centre":4022,"Academy":4023,"Junior":4024,"416":4025,"EMI":4026,"HTC":4027,"KB":4028,"Omega":4029,"kW":4030,"m3":4031,"pter":4032,"stu":4033,"Å«":4034,"dina":4035,"das":4036,"1616":4037,"26%":4038,"nus":4039,"707":4040,"369":4041,"397":4042,"Pass":4043,"States":4044,"Wire":4045,"Joe":4046,"tiona":4047,"Fede":4048,"GPU":4049,"bility":4050,"Dyna":4051,"613":4052,"6.4":4053,"Gun":4054,"NR":4055,"WO":4056,"WOR":4057,"ZA":4058,"nor":4059,"Î·":4060,"ÎĶ":4061,"ÐĲ":4062,"dard":4063,"rana":4064,"gani":4065,"1564":4066,"1785":4067,"22.":4068,"cul":4069,"368":4070,".08":4071,"67%":4072,"TVBS":4073,"Demo":4074,"Market":4075,"Bio":4076,"Link":4077,"MySQL":4078,"mission":4079,"3C":4080,"810":4081,"BT":4082,"Jr":4083,"Kh":4084,"Lar":4085,"Sara":4086,"WI":4087,"brea":4088,"eu":4089,"gni":4090,"io":4091,"jor":4092,"ÐĶ":4093,"head":4094,"cin":4095,"cifi":4096,"bas":4097,"1662":4098,"include":4099,"266":4100,"291":4101,"588":4102,"Distri":4103,"Next":4104,"Beta":4105,"void":4106,"MOD":4107,"Corporation":4108,"M1A1":4109,"GUNDAM":4110,"316":4111,"537":4112,"621":4113,"742":4114,"CI":4115,"E48":4116,"Eric":4117,"ND":4118,"TI":4119,"cted":4120,"hl":4121,"il":4122,"open":4123,"Ã«":4124,"ÙĨ":4125,"qua":4126,"point":4127,"1540":4128,"1574":4129,"1772":4130,"24.":4131,"287":4132,"605":4133,"454":4134,"388":4135,"343":4136,"bes":4137,".86":4138,"888":4139,"Law":4140,"Sub":4141,"0.02":4142,"Management":4143,"Fried":4144,"Alexander":4145,"425":4146,"475":4147,"9.9":4148,"9.6":4149,"MX":4150,"Other":4151,"Sui":4152,"Sar":4153,"flo":4154,"ob":4155,"tine":4156,"19%":4157,"lant":4158,"1250":4159,"1619":4160,"1629":4161,"1683":4162,"27%":4163,"29%":4164,"292":4165,"ros":4166,"363":4167,"376":4168,"STS":4169,"552":4170,"686":4171,"Miss":4172,"Lady":4173,"Final":4174,"add":4175,"Arc":4176,"How":4177,"Augu":4178,"were":4179,"Draw":4180,"Scott":4181,"London":4182,"Cyclol":4183,"627":4184,"BRT":4185,"Dol":4186,"FL":4187,"Tar":4188,"ht":4189,"Ð±":4190,"nico":4191,"14.5":4192,"24%":4193,"ï¼Ĥ":4194,"std":4195,"31%":4196,"tos":4197,"488":4198,"Mas":4199,".84":4200,".88":4201,"99%":4202,"Pas":4203,"fini":4204,"Spot":4205,"ðĲŃ":4206,"Spring":4207,"449":4208,"5A":4209,"625":4210,"738":4211,"81.":4212,"83.":4213,"Cul":4214,"Fron":4215,"HER":4216,"Land":4217,"PB":4218,"Rue":4219,"Sc":4220,"Tony":4221,"VER":4222,"Wing":4223,"ea":4224,"pper":4225,"sky":4226,"tran":4227,"Ðļ":4228,"ana":4229,"rina":4230,"put":4231,"shared":4232,"1590":4233,"1579":4234,"1633":4235,"ãĥĬ":4236,"fox":4237,"log":4238,"ãĤ°":4239,"32%":4240,"Light":4241,"Rose":4242,"1507":4243,"Design":4244,"Lake":4245,"CH2":4246,"Animax":4247,"Earth":4248,"412":4249,"8.7":4250,"LF":4251,"LR":4252,"Smo":4253,"Sca":4254,"SON":4255,"V8":4256,"Ð¿":4257,"íķ":4258,"ens":4259,"mix":4260,"body":4261,"launch":4262,"1631":4263,"1680":4264,"1773":4265,"21.":4266,"294":4267,"407":4268,"cum":4269,"ãĤĮ":4270,"396":4271,"3300":4272,"42%":4273,"Leo":4274,"Family":4275,"1604":4276,"Hami":4277,"Ander":4278,"Party":4279,"PGA":4280,"Drive":4281,"41.":4282,"7.1":4283,"82.":4284,"8.6":4285,"980":4286,"Are":4287,"C4":4288,"Fold":4289,"GC":4290,"Hon":4291,"Kat":4292,"LM":4293,"ada":4294,"cla":4295,"ir":4296,"ini":4297,"yl":4298,"Äĩ":4299,"ÉĻ":4300,"ked":4301,"rial":4302,"rius":4303,"1575":4304,"1697":4305,"1755":4306,"1492":4307,"805":4308,"3600":4309,"Mad":4310,"467":4311,"471":4312,"Theo":4313,"Simon":4314,"Secu":4315,"ppy":4316,"mics":4317,"Advan":4318,"ï¹Ĳ":4319,"SKE48":4320,"Round":4321,"Summer":4322,"Thunder":4323,"0x":4324,"319":4325,"Hei":4326,"J2":4327,"Sti":4328,"Swe":4329,"Thi":4330,"XC":4331,"bio":4332,"matic":4333,"1561":4334,"1589":4335,"1595":4336,"1781":4337,"1465":4338,"508":4339,"stre":4340,"ãĥĨ":4341,"ãģ²":4342,"344":4343,".85":4344,"44%":4345,".99":4346,"589":4347,"1603":4348,"1606":4349,"1607":4350,"kov":4351,"CNBLUE":4352,"Ruby":4353,"Epic":4354,"velopment":4355,"415":4356,"855":4357,"940":4358,"970":4359,"Ir":4360,"Lun":4361,"uage":4362,"x86":4363,"Ã¸":4364,"Ãħ":4365,"ÃŁ":4366,"à®":4367,"mani":4368,"1522":4369,"1526":4370,"1556":4371,"1613":4372,"1660":4373,"502":4374,"506":4375,"ãĥĢ":4376,"377":4377,"478":4378,"554":4379,".07":4380,"Miche":4381,"Vita":4382,"mercial":4383,"Tim":4384,"TOUR":4385,"Williams":4386,"cations":4387,"Hyper":4388,"ountain":4389,"Brian":4390,"ìĿ´":4391,"âĺĨ":4392,"Angela":4393,"Football":4394,"417":4395,"525":4396,"7.4":4397,"920":4398,"925":4399,"LU":4400,"Moo":4401,"Pon":4402,"UK":4403,"URI":4404,"Wel":4405,"card":4406,"lding":4407,"who":4408,"zzo":4409,"Ùħ":4410,"mir":4411,"nio":4412,"baby":4413,"ched":4414,"sure":4415,"second":4416,"1525":4417,"1591":4418,"1667":4419,".55":4420,"408":4421,"485":4422,"46%":4423,"64%":4424,"643":4425,"AMO":4426,"Fiesta":4427,"Back":4428,"tten":4429,"Steve":4430,"DOHC":4431,"Mont":4432,"Port":4433,"After":4434,"324":4435,"422":4436,"515":4437,"538":4438,"534":4439,"Founda":4440,"Gao":4441,"QS":4442,"Rang":4443,"S4":4444,"Shan":4445,"Syn":4446,"VT":4447,"ah":4448,"mRNA":4449,"xe":4450,"zza":4451,"Äĵ":4452,"âĤ":4453,"1510":4454,"1638":4455,"1730":4456,"only":4457,"pal":4458,"media":4459,"ãĥĳ":4460,"342":4461,"393":4462,"479":4463,".02":4464,".06":4465,"1508":4466,"Villa":4467,"Mozilla":4468,"Last":4469,"HKT48":4470,"Water":4471,"Walter":4472,"volution":4473,"America":4474,"Surface":4475,"Church":4476,"7.62":4477,".25":4478,"3200":4479,"531":4480,"546":4481,"7.2":4482,"Camp":4483,"Clas":4484,"EG":4485,"GHz":4486,"ITV":4487,"Jer":4488,"Mei":4489,"MBA":4490,"TG":4491,"Too":4492,"VS":4493,"bles":4494,"iPS":4495,"phe":4496,"ud":4497,"lish":4498,"mont":4499,"tana":4500,"2028":4501,"1543":4502,"1457":4503,".52":4504,"366":4505,"381":4506,"392":4507,"vie":4508,".78":4509,"History":4510,"Jeff":4511,"place":4512,".12":4513,"1st":4514,"413":4515,"426":4516,"6.3":4517,"Edu":4518,"F3":4519,"GPS":4520,"Kha":4521,"LZ":4522,"NI":4523,"Rus":4524,"Sor":4525,"Than":4526,"U20":4527,"Wnt":4528,"fb":4529,"ÙĬ":4530,"left":4531,"gent":4532,"1565":4533,"1559":4534,"1587":4535,"1597":4536,"âĢł":4537,"1635":4538,"1688":4539,"1733":4540,"1782":4541,"stry":4542,"rat":4543,".53":4544,"606":4545,"ald":4546,"come":4547,"ãģĳ":4548,"373":4549,"Indu":4550,"ella":4551,"Will":4552,"Albert":4553,"Times":4554,"Austra":4555,"Johnson":4556,"tory":4557,"score":4558,"Jane":4559,"Council":4560,".11":4561,"524":4562,"612":4563,"6.2":4564,"890":4565,"By":4566,"FS":4567,"Jim":4568,"MR":4569,"Sol":4570,"Tran":4571,"UD":4572,"its":4573,"llow":4574,"Â£":4575,"ÐŁ":4576,"Ñĩ":4577,"tex":4578,"lva":4579,"1588":4580,"1598":4581,"507":4582,"also":4583,"34%":4584,"Cos":4585,"641":4586,"Rep":4587,"495":4588,"68%":4589,"682":4590,".97":4591,".69":4592,"666":4593,"ample":4594,"Common":4595,"0.05":4596,"CLA":4597,"scope":4598,"Place":4599,"Telegram":4600,"Pierre":4601,"Foundation":4602,"332":4603,"4A":4604,"4K":4605,"435":4606,"575":4607,"790":4608,"Astro":4609,"Bad":4610,"TMA":4611,"ese":4612,"ola":4613,"ans":4614,"endo":4615,"lity":4616,"bird":4617,"tish":4618,"tica":4619,"nar":4620,"1523":4621,"1535":4622,"1649":4623,"1661":4624,"1770":4625,"1499":4626,"23%":4627,"number":4628,"ram":4629,"0.25":4630,"ãĤ¬":4631,"ãĤı":4632,"361":4633,"466":4634,"391":4635,"....":4636,"vices":4637,"551":4638,".01":4639,"final":4640,"Moder":4641,"Pod":4642,"1601":4643,"PCI":4644,"ality":4645,"TOK":4646,"Francis":4647,"AcFun":4648,"trol":4649,"Flash":4650,"worth":4651,"craft":4652,"Wonder":4653,"528":4654,"5500":4655,"990":4656,"Ant":4657,"Bang":4658,"HTT":4659,"gne":4660,"mitte":4661,"master":4662,"mental":4663,"12.8":4664,"word":4665,"1511":4666,"1760":4667,"1769":4668,"indu":4669,"sour":4670,"358":4671,"36%":4672,"371":4673,"469":4674,"ellow":4675,"684":4676,"587":4677,"Dia":4678,"Story":4679,"94.":4680,"ppm":4681,"SMAP":4682,"0.03":4683,"Andrew":4684,"tribu":4685,"Edge":4686,"active":4687,"Golden":4688,"Explor":4689,"548":4690,"AW":4691,"Kai":4692,"Lui":4693,"Loo":4694,"MAC":4695,"ext":4696,"oni":4697,"sma":4698,"then":4699,"eil":4700,"chy":4701,"20000":4702,"1080":4703,"15000":4704,"1576":4705,"1594":4706,"1689":4707,"362":4708,"383":4709,"llen":4710,"TCP":4711,"341":4712,"Mis":4713,"41%":4714,"NASL":4715,"98%":4716,"Program":4717,"kia":4718,"Seven":4719,"count":4720,"Soul":4721,"Bridge":4722,"Angel":4723,"kins":4724,"Matthe":4725,"European":4726,"80.":4727,"921":4728,"Bun":4729,"L1":4730,"MMC":4731,"NEX":4732,"RB":4733,"Tas":4734,"UFO":4735,"VF":4736,"ef":4737,"zar":4738,"ðª":4739,"20.":4740,"rit":4741,"lius":4742,"tour":4743,"cep":4744,"1811":4745,"1517":4746,"1514":4747,"1578":4748,"1552":4749,"âĢķ":4750,"1639":4751,"1684":4752,".51":4753,"608":4754,"cos":4755,"top":4756,"38%":4757,"349":4758,"644":4759,"557":4760,".05":4761,".76":4762,".79":4763,".92":4764,"585":4765,"597":4766,"Some":4767,"Not":4768,"gins":4769,"thers":4770,"Dance":4771,"Eliza":4772,"Gamer":4773,"template":4774,"Stephen":4775,"Taylor":4776,"348":4777,"436":4778,"549":4779,"8.2":4780,"AST":4781,"Bet":4782,"Cre":4783,"DNS":4784,"Fred":4785,"Lam":4786,"RN":4787,"Spa":4788,"TF":4789,"bla":4790,"ic":4791,"sit":4792,"poly":4793,"1763":4794,"1350":4795,"inte":4796,"ï¼ĭ":4797,"403":4798,"908":4799,"Marie":4800,"dore":4801,"6500":4802,"Roman":4803,"1505":4804,"Mega":4805,"View":4806,"777":4807,"Gaga":4808,"Test":4809,"kie":4810,"Cast":4811,"Conne":4812,"MG42":4813,"Christop":4814,"yond":4815,"vernment":4816,"547":4817,"567":4818,"668":4819,"Apo":4820,"C5":4821,"Fai":4822,"FAN":4823,"Jus":4824,"Kon":4825,"NK":4826,"T4":4827,"YOSHI":4828,"fis":4829,"pel":4830,"ppe":4831,"Â³":4832,"Ñĸ":4833,"tec":4834,"nas":4835,"1050":4836,"sel":4837,"tant":4838,"pos":4839,"1614":4840,"1720":4841,"27.":4842,"1.25":4843,"374":4844,"CoV":4845,"494":4846,".03":4847,".73":4848,"verse":4849,"lyn":4850,"Never":4851,"Arti":4852,"IDE":4853,"Hit":4854,"Kit":4855,"IPS":4856,"PSP":4857,"People":4858,"UNIX":4859,"Santa":4860,"Just":4861,"âħł":4862,"Phil":4863,"Frame":4864,"IPv4":4865,"Explorer":4866,"4.4":4867,"514":4868,"522":4869,"545":4870,"568":4871,"5.3":4872,"619":4873,"675":4874,"Blu":4875,"CSS":4876,"D1":4877,"EBU":4878,"Jor":4879,"KT":4880,"Mountain":4881,"bn":4882,"une":4883,"sie":4884,"siness":4885,"lau":4886,"sea":4887,"1516":4888,"1513":4889,"1534":4890,"1547":4891,"1569":4892,"16V":4893,"1460":4894,"26.":4895,"stone":4896,"cula":4897,"ãģ§":4898,"359":4899,"tera":4900,"757":4901,"642":4902,".89":4903,".93":4904,"581":4905,"1502":4906,"51%":4907,"ctions":4908,"Raw":4909,"Solo":4910,"GeForce":4911,"à¸£":4912,"SOHC":4913,"Phy":4914,"Sunday":4915,"Arthur":4916,"Karl":4917,"COLLAR":4918,"mittee":4919,"418":4920,"414":4921,"424":4922,"433":4923,"544":4924,"Alan":4925,"CJ":4926,"DTS":4927,"F2":4928,"Inv":4929,"JO":4930,"MMO":4931,"PEN":4932,"Two":4933,"True":4934,"XIV":4935,"rian":4936,"wy":4937,"ÐĴ":4938,"ering":4939,"sive":4940,"cine":4941,"lands":4942,"mand":4943,"1731":4944,"1768":4945,"1771":4946,"1490":4947,"heir":4948,"news":4949,"409":4950,"ãĥı":4951,"604":4952,"802":4953,"ãĤ±":4954,"ãĤĩ":4955,"ãĤį":4956,"389":4957,"7500":4958,"394":4959,"been":4960,"476":4961,".87":4962,"493":4963,".74":4964,".66":4965,"Mod":4966,"usta":4967,"Bell":4968,"ERO":4969,"Box":4970,"Hip":4971,"Rift":4972,"Work":4973,"AGE":4974,"Prime":4975,"presen":4976,"FOX":4977,"sort":4978,"while":4979,"JTBC":4980,"âĩĶ":4981,"Cinema":4982,"Avenue":4983,"431":4984,"539":4985,"745":4986,"Ari":4987,"ABS":4988,"Bre":4989,"Dro":4990,"EO":4991,"Ever":4992,"Ita":4993,"Ker":4994,"Lord":4995,"Oh":4996,"V6":4997,"jq":4998,"sk":4999,"ska":5000,"Ä±":5001,"lica":5002,"bow":5003,"mos":5004,"1593":5005,"1724":5006,"1752":5007,"1469":5008,"1498":5009,"1370":5010,"rows":5011,"ãģĪ":5012,"48%":5013,"gate":5014,"382":5015,"755":5016,"464":5017,"444":5018,"571":5019,"1501":5020,"Victor":5021,"Development":5022,"Mode":5023,"nova":5024,"ginal":5025,"Name":5026,"Kids":5027,"PS3":5028,"prot":5029,"Express":5030,"Court":5031,"British":5032,"Dragon":5033,"AGASA":5034,"Friedrich":5035,"646":5036,"667":5037,"Ash":5038,"Alt":5039,"CIA":5040,"D2":5041,"GW":5042,"Hard":5043,"IRT":5044,"Kei":5045,"M6":5046,"XF":5047,"ZJ":5048,"apo":5049,"bour":5050,"cz":5051,"cca":5052,"est":5053,"free":5054,"dex":5055,"ould":5056,"tify":5057,"shed":5058,"mine":5059,"nament":5060,"1520":5061,"1560":5062,"1553":5063,"1651":5064,"1740":5065,"1493":5066,"23.":5067,"602":5068,"904":5069,"town":5070,"cking":5071,"Intelli":5072,"Rea":5073,"496":5074,"498":5075,"443":5076,".72":5077,".96":5078,".62":5079,"Via":5080,"With":5081,"user":5082,"Boys":5083,"Fami":5084,"MAN":5085,"Hotel":5086,"Donald":5087,"Anna":5088,"UNG":5089,"AGUE":5090,"LEAGUE":5091,"quid":5092,"Firefox":5093,"Doug":5094,"à¥į":5095,"Athlon":5096,"611":5097,"645":5098,"945":5099,"Apa":5100,"Again":5101,"C1":5102,"CBA":5103,"DEC":5104,"Ea":5105,"Nat":5106,"Old":5107,"QU":5108,"Tel":5109,"TAM":5110,"U2":5111,"two":5112,"ute":5113,"wis":5114,"xa":5115,"Ã¥":5116,"áº":5117,"ais":5118,"ergy":5119,"bia":5120,"change":5121,"made":5122,"1596":5123,"1632":5124,"1679":5125,"1718":5126,"1735":5127,"1745":5128,"1758":5129,"25G":5130,"ï¼Ŀ":5131,"lty":5132,"culus":5133,"ãĥ¡":5134,"907":5135,"ãĤģ":5136,"ãĤĨ":5137,"Machi":5138,"584":5139,"1506":5140,"Dear":5141,"Wild":5142,"Side":5143,"Neu":5144,"Baby":5145,"1605":5146,"Week":5147,"nvest":5148,"produ":5149,"REAM":5150,"Electro":5151,"Standard":5152,"Central":5153,"Health":5154,"Adam":5155,"sional":5156,"Christopher":5157,"YOSHIKI":5158,"050":5159,"439":5160,"533":5161,"731":5162,"732":5163,"741":5164,"762":5165,"962":5166,"Cree":5167,"Dal":5168,"Eve":5169,"Gin":5170,"H3":5171,"ICD":5172,"NU":5173,"Num":5174,"RCP":5175,"Shu":5176,"Sand":5177,"TL":5178,"Tha":5179,"UCLA":5180,"Wood":5181,"ay":5182,"jan":5183,"Ïħ":5184,"âĻ":5185,"ert":5186,"tice":5187,"zed":5188,"1260":5189,"1566":5190,"16.5":5191,"1725":5192,"1748":5193,"ãĥĦ":5194,"0.10":5195,"706":5196,"ãĤĪ":5197,"ãĤĴ":5198,"457":5199,"379":5200,"door":5201,"756":5202,"case":5203,"Info":5204,"ssor":5205,"553":5206,"673":5207,"List":5208,"Liber":5209,"574":5210,"576":5211,"Vision":5212,"985":5213,"gia":5214,"Bir":5215,"973":5216,"prise":5217,"Jackson":5218,"AlphaFold":5219,"Mitche":5220,"Capital":5221,"Fleetline":5222,"Angelababy":5223,"Matthew":5224,"516":5225,"617":5226,"639":5227,"722":5228,"735":5229,"DU":5230,"Econo":5231,"HMS":5232,"P2":5233,"Sty":5234,"cter":5235,"eb":5236,"glo":5237,"np":5238,"á¸":5239,"2050":5240,"cel":5241,"1528":5242,"1572":5243,"1652":5244,"1727":5245,"1761":5246,"1368":5247,"ras":5248,".59":5249,"ãĥ¯":5250,"ãĥİ":5251,"als":5252,"356":5253,"704":5254,"482":5255,"37%":5256,"655":5257,"55.":5258,"brary":5259,".98":5260,"Robin":5261,"ARE":5262,"Fish":5263,"Tower":5264,"state":5265,"Committee":5266,"Pie":5267,"mpson":5268,"BLE":5269,"Harry":5270,"Press":5271,"Mind":5272,"Jones":5273,"Anderson":5274,"Gaon":5275,"Elizabeth":5276,"447":5277,"863":5278,"926":5279,"961":5280,"Cru":5281,"Juan":5282,"LX":5283,"RATP":5284,"Sel":5285,"Sport":5286,"Twin":5287,"VP":5288,"WW":5289,"crea":5290,"gor":5291,"ners":5292,"vor":5293,"wel":5294,"zing":5295,"defea":5296,"lad":5297,"lade":5298,"mod":5299,"1531":5300,"1538":5301,"1647":5302,"1681":5303,"into":5304,"803":5305,"they":5306,"708":5307,"ãĤĥ":5308,"452":5309,"453":5310,"Colspan":5311,"bed":5312,"651":5313,".09":5314,"586":5315,"572":5316,"1504":5317,"Leon":5318,"Beyond":5319,"EDG":5320,"APG":5321,"Basic":5322,"ICA":5323,"fessor":5324,"1701":5325,"alis":5326,"HOME":5327,"Disco":5328,"ccff":5329,"ccccff":5330,"English":5331,"Patrick":5332,"Garden":5333,"Women":5334,"frame":5335,"FINAL":5336,"3M":5337,"438":5338,"511":5339,"933":5340,"ILE":5341,"Jam":5342,"Swi":5343,"Sour":5344,"SNC":5345,"cta":5346,"Î©":5347,"Ð·":5348,"Øª":5349,"ìļ":5350,"shop":5351,"lit":5352,"xus":5353,"sum":5354,"link":5355,"1530":5356,"1537":5357,"1736":5358,"ï¼Ĩ":5359,"603":5360,"808":5361,"Color":5362,"461":5363,"468":5364,"vity":5365,"681":5366,"kit":5367,"ONG":5368,"1709":5369,"Carl":5370,"Kevin":5371,"Southern":5372,"GameSpot":5373,"Twitch":5374,"Abdu":5375,"JavaScript":5376,"DirectX":5377,"Modern":5378,"3G":5379,"541":5380,"629":5381,"648":5382,"725":5383,"CAR":5384,"ELE":5385,"Main":5386,"NN":5387,"NPC":5388,"P4":5389,"Rh":5390,"URE":5391,"ami":5392,"gran":5393,"mbo":5394,"ovan":5395,"vat":5396,"Ñħ":5397,"xis":5398,"dire":5399,"ery":5400,"team":5401,"sul":5402,"super":5403,"redo":5404,"1519":5405,"1529":5406,"1555":5407,"1687":5408,"1728":5409,"mel":5410,"meter":5411,".56":5412,"ãĥĿ":5413,"loca":5414,"905":5415,"484":5416,"Maker":5417,"before":5418,"653":5419,"55%":5420,"559":5421,"491":5422,".94":5423,"679":5424,".63":5425,"Roy":5426,"fish":5427,"796":5428,"OSS":5429,"Silver":5430,"tton":5431,"Sau":5432,"MAD":5433,"Concer":5434,"ckett":5435,"URL":5436,"AOA":5437,"Yahoo":5438,"Spotify":5439,"ctures":5440,"Prince":5441,"ASCII":5442,"OmegaT":5443,"Framework":5444,"protein":5445,"Mitchell":5446,"423":5447,"536":5448,"632":5449,"715":5450,"825":5451,"833":5452,"Aus":5453,"Area":5454,"B3":5455,"Brea":5456,"CAL":5457,"D9":5458,"Flow":5459,"GRO":5460,"Jes":5461,"K2":5462,"Money":5463,"Mbps":5464,"Nar":5465,"RDS":5466,"That":5467,"df":5468,"pl":5469,"lib":5470,"lim":5471,"sible":5472,"sical":5473,"2035":5474,"rium":5475,"seu":5476,"1120":5477,"wart":5478,"1767":5479,"50.":5480,".57":5481,"love":5482,"473":5483,"49.":5484,"492":5485,".61":5486,"661":5487,"562":5488,"Viole":5489,"Debian":5490,"Dead":5491,"aso":5492,"Bird":5493,"PS2":5494,"Anne":5495,"Eddie":5496,"Hero":5497,"TRA":5498,"Zico":5499,"signed":5500,"Chrome":5501,"Countdown":5502,"Operation":5503,"Secret":5504,"TOKYO":5505,"Violetta":5506,"339":5507,"429":5508,"532":5509,"665":5510,"775":5511,"769":5512,"Band":5513,"D5":5514,"Fon":5515,"JI":5516,"Off":5517,"R1":5518,"RF":5519,"Ring":5520,"Ron":5521,"SNS":5522,"Tol":5523,"Yan":5524,"gma":5525,"Õ¡":5526,"della":5527,"ound":5528,"tier":5529,"bat":5530,"mentary":5531,"such":5532,"lvin":5533,"see":5534,"1220":5535,"1545":5536,"1664":5537,"1659":5538,"1719":5539,"1495":5540,"1496":5541,"1388":5542,"stor":5543,".58":5544,"702":5545,"703":5546,"dow":5547,"STATION":5548,"vir":5549,"him":5550,"689":5551,".91":5552,"Mil":5553,"Mix":5554,"Like":5555,"692":5556,"798":5557,"Jaco":5558,"Fil":5559,"74%":5560,"ERS":5561,"stal":5562,"Stor":5563,"AND":5564,"Anti":5565,"Anth":5566,"SM.81":5567,"graphy":5568,"Steven":5569,"Feli":5570,"IFF":5571,"Henri":5572,"Rail":5573,"cific":5574,"Classic":5575,"010":5576,"434":5577,"636":5578,"729":5579,"761":5580,"878":5581,"Action":5582,"Bus":5583,"E1":5584,"Eri":5585,"E231":5586,"GEN":5587,"Hand":5588,"Iso":5589,"Kur":5590,"L2":5591,"Len":5592,"Mang":5593,"Mus":5594,"PAGASA":5595,"RK":5596,"ZERO":5597,"bble":5598,"ois":5599,"pres":5600,"Ðĳ":5601,"Ðľ":5602,"ÑĨ":5603,"ìĹ":5604,"shion":5605,"iana":5606,"rite":5607,"lair":5608,"sell":5609,"gene":5610,"1546":5611,"1549":5612,"1562":5613,"1670":5614,"1690":5615,"1654":5616,"1653":5617,"1694":5618,"1759":5619,"1466":5620,"artic":5621,"ãĥ¢":5622,"807":5623,"709":5624,"458":5625,"game":5626,"463":5627,"555":5628,"high":5629,"596":5630,"662":5631,"Paris":5632,"gie":5633,"constru":5634,"See":5635,"Stri":5636,"Happy":5637,"Chal":5638,"Interactive":5639,"Johnny":5640,"flight":5641,"Voice":5642,"Guard":5643,"Fox":5644,"Kenne":5645,"FAST":5646,"Build":5647,"HTTP":5648,".39":5649,"12000":5650,"527":5651,"638":5652,"669":5653,"712":5654,"711":5655,"9.4":5656,"BP":5657,"DREAM":5658,"Hein":5659,"Ing":5660,"IMAX":5661,"K11":5662,"LV":5663,"M5":5664,"NCC":5665,"RSA":5666,"Zen":5667,"kon":5668,"ov":5669,"oli":5670,"pet":5671,"Î¬":5672,"dica":5673,"rish":5674,"lee":5675,"last":5676,"sung":5677,"cept":5678,"won":5679,"1558":5680,"1581":5681,"1738":5682,"1474":5683,"1375":5684,"pass":5685,"STAT":5686,"477":5687,"Inte":5688,"There":5689,"68000":5690,"ATE":5691,"595":5692,"598":5693,"599":5694,"578":5695,"Stars":5696,"More":5697,"Galant":5698,"stars":5699,"1608":5700,"Chart":5701,"EPA":5702,"program":5703,"dence":5704,"0.5%":5705,"auto":5706,"EXILE":5707,"GPL":5708,"Samuel":5709,"NMB48":5710,"521":5711,"628":5712,"622":5713,"721":5714,"867":5715,"877":5716,"8.3":5717,"965":5718,"BY":5719,"F5":5720,"Gon":5721,"Jet":5722,"OST":5723,"RX":5724,"Sr":5725,"Schi":5726,"SUP":5727,"VEN":5728,"WP":5729,"ZZ":5730,"ath":5731,"ez":5732,"fin":5733,"fes":5734,"depen":5735,"ril":5736,"lem":5737,"shell":5738,"bora":5739,"lati":5740,"1280":5741,"âĢ³":5742,"1665":5743,"1732":5744,"1744":5745,"1756":5746,"1489":5747,"1487":5748,"1340":5749,"29.":5750,"000rpm":5751,"cular":5752,"ãĥĵ":5753,"906":5754,"ãĤº":5755,"451":5756,".71":5757,"997":5758,"wski":5759,"gina":5760,"Proto":5761,"Jac":5762,"Stru":5763,"Player":5764,"Business":5765,"Chill":5766,"ckets":5767,"prin":5768,"Anime":5769,"Wilson":5770,"SHOW":5771,"Mount":5772,"Forever":5773,"Security":5774,"Source":5775,"2nd":5776,"519":5777,"517":5778,"624":5779,"623":5780,"835":5781,"876":5782,"938":5783,"954":5784,"951":5785,"Ap":5786,"B9":5787,"CAP":5788,"D3":5789,"EU":5790,"Fw":5791,"Fly":5792,"GDDR":5793,"IMD":5794,"LCD":5795,"Ner":5796,"NIC":5797,"Qt":5798,"Ryan":5799,"YF":5800,"hin":5801,"sse":5802,"vas":5803,"would":5804,"yd":5805,"Ðĺ":5806,"ð¤":5807,"life":5808,"dine":5809,"far":5810,"leu":5811,"year":5812,"mum":5813,"tura":5814,"mode":5815,"seed":5816,"mail":5817,"1524":5818,"1532":5819,"1584":5820,"1658":5821,"1657":5822,"1699":5823,"1762":5824,"1337":5825,"ï¼ŀ":5826,".54":5827,"tero":5828,"472":5829,"474":5830,"649":5831,"497":5832,"687":5833,"688":5834,"698":5835,"Rober":5836,"579":5837,"88%":5838,"784":5839,"Jona":5840,"Dave":5841,"72%":5842,"Bike":5843,"Holly":5844,"1406":5845,"Carlos":5846,"DSP":5847,"à¤¾":5848,"SHIN":5849,"Clau":5850,"Smack":5851,"âĺħ":5852,"Public":5853,"Computer":5854,"MONSTA":5855,"Touch":5856,"html":5857,"Smosh":5858,"Apache":5859,"054":5860,"616":5861,"719":5862,"865":5863,"946":5864,"988":5865,"DH":5866,"G1":5867,"H4":5868,"H10":5869,"Ky":5870,"Pha":5871,"S3":5872,"Sb":5873,"WHO":5874,"XG":5875,"Zo":5876,"bb":5877,"eg":5878,"used":5879,"Ã¦":5880,"ÏĨ":5881,"micro":5882,"cid":5883,"law":5884,"sana":5885,"11.2":5886,"power":5887,"rel":5888,"ways":5889,"sage":5890,"1668":5891,"1739":5892,"1764":5893,"format":5894,"28.":5895,"follow":5896,"dox":5897,"Res":5898,"30000":5899,"Library":5900,"will":5901,"787":5902,"File":5903,"Albu":5904,"PSV":5905,"Take":5906,"1702":5907,"Human":5908,"LLVM":5909,"trie":5910,"Mercu":5911,"Sense":5912,"rowspan":5913,"SmackDown":5914,"052":5915,"421":5916,"437":5917,"614":5918,"626":5919,"637":5920,"815":5921,"816":5922,"975":5923,"Bin":5924,"Echo":5925,"GF":5926,"If":5927,"Ice":5928,"JP":5929,"Mes":5930,"YA":5931,"ZO":5932,"cli":5933,"dley":5934,"kha":5935,"Ðł":5936,"ë°":5937,"ene":5938,"bis":5939,"til":5940,"rison":5941,"lein":5942,"most":5943,"0000":5944,"1275":5945,"11.3":5946,"1536":5947,"pani":5948,"1675":5949,"1464":5950,"rate":5951,"455":5952,"IND":5953,"64.":5954,".77":5955,"671":5956,"678":5957,"Jos":5958,"Professor":5959,"Tex":5960,"Cata":5961,"Fashion":5962,"Bit":5963,"97%":5964,"Stone":5965,"Histo":5966,"Giovan":5967,"Liner":5968,"1705":5969,"TOWN":5970,"Appli":5971,"Sheet":5972,"lease":5973,"KKBOX":5974,"Christmas":5975,"function":5976,"Championship":5977,"Language":5978,"scape":5979,"Alfredo":5980,"after":5981,"542":5982,"634":5983,"821":5984,"912":5985,"CIT":5986,"Cfb":5987,"DX":5988,"Dur":5989,"Edi":5990,"Hat":5991,"HPV":5992,"MOS":5993,"MIT":5994,"NXT":5995,"SY":5996,"Spin":5997,"SIM":5998,"WH":5999,"Wong":6000,"cam":6001,"fle":6002,"ghe":6003,"group":6004,"vai":6005,"Ïĩ":6006,"âģ":6007,"ãħ":6008,"ìĦ":6009,"hea":6010,"liance":6011,"lative":6012,"may":6013,"gency":6014,"rec":6015,"1563":6016,"ort":6017,"1617":6018,"1663":6019,"1685":6020,"17.5":6021,"1753":6022,"ons":6023,"1477":6024,"1380":6025,"503":6026,"809":6027,"ãģİ":6028,"there":6029,"lock":6030,"ãĤ½":6031,"483":6032,"486":6033,"Mach":6034,"Make":6035,"Mate":6036,"754":6037,"cat":6038,"beca":6039,"beat":6040,"656":6041,"Theat":6042,"Rev":6043,"Mid":6044,"676":6045,"ATX":6046,"66%":6047,"99.":6048,"SAN":6049,"785":6050,"561":6051,"NAS":6052,"61%":6053,"ARK":6054,"ARP":6055,"Field":6056,"Siri":6057,"Mars":6058,"kiyo":6059,"ACH":6060,"Board":6061,"Socket":6062,"84%":6063,"IPTV":6064,"ANG":6065,"Western":6066,"à¸²":6067,"UNES":6068,"Audio":6069,"rono":6070,"Frances":6071,"Morning":6072,"RCA":6073,"Collection":6074,"Hans":6075,"SpaceX":6076,"Fanta":6077,"Afri":6078,"TWICE":6079,"Circle":6080,"Creative":6081,"Melon":6082,"Wolf":6083,"Industri":6084,"SUPER":6085,"2DS":6086,"518":6087,"526":6088,"566":6089,"716":6090,"714":6091,"765":6092,"764":6093,"744":6094,"7.3":6095,"826":6096,"847":6097,"918":6098,"936":6099,"Abu":6100,"Ace":6101,"Bei":6102,"BNO":6103,"Cin":6104,"Every":6105,"GI":6106,"Ian":6107,"Kra":6108,"MRI":6109,"Nam":6110,"RP":6111,"SUN":6112,"VIP":6113,"WTT":6114,"Yi":6115,"hp":6116,"inv":6117,"own":6118,"ÅĤ":6119,"ÙĪ":6120,"âĬ":6121,"ë¦":6122,"ð¬":6123,"ant":6124,"cious":6125,"dus":6126,"multi":6127,"teen":6128,"mary":6129,"1024":6130,"1669":6131,"1656":6132,"1672":6133,"1692":6134,"1754":6135,"1420":6136,"1480":6137,"ink":6138,"lvet":6139,"31.":6140,"0.15":6141,"751":6142,"cap":6143,"65.":6144,"658":6145,"vio":6146,"594":6147,"wick":6148,"791":6149,"Wit":6150,"AMC":6151,"AMP":6152,"Cathe":6153,"Right":6154,"Sul":6155,"ITA":6156,"1704":6157,"1708":6158,"Ware":6159,"Wave":6160,"Fort":6161,"AGP":6162,"MLB":6163,"Here":6164,"Future":6165,"DMR":6166,"Shine":6167,"Clark":6168,"Planet":6169,"logical":6170,"partment":6171,"Front":6172,"Moore":6173,"2B":6174,"713":6175,"727":6176,"748":6177,"768":6178,"875":6179,"8.8":6180,"915":6181,"929":6182,"947":6183,"BIG":6184,"CYP":6185,"EBS":6186,"From":6187,"Gian":6188,"Isa":6189,"ISA":6190,"Jason":6191,"NICO":6192,"OME":6193,"R3":6194,"Ster":6195,"Trai":6196,"UF":6197,"VIS":6198,"XIII":6199,"aw":6200,"ior":6201,"ski":6202,"syn":6203,"uer":6204,"xc":6205,"Ð¢":6206,"Ø³":6207,"anti":6208,"under":6209,"bury":6210,"chus":6211,"hout":6212,"teau":6213,"mari":6214,"1075":6215,"1277":6216,"1279":6217,"1276":6218,"1111":6219,"1440":6220,"1488":6221,"1472":6222,"1371":6223,"road":6224,"ãĥ§":6225,"902":6226,"489":6227,"Indian":6228,"699":6229,"992":6230,"881":6231,"986":6232,"twe":6233,"Jay":6234,"confi":6235,"contribu":6236,"APM":6237,"1602":6238,"commercial":6239,"gos":6240,"Bug":6241,"Interplay":6242,"cross":6243,"AIM":6244,"REAS":6245,"CRH5":6246,"Greg":6247,"Vogue":6248,"Version":6249,"Walker":6250,"Wilhe":6251,"ddle":6252,"Jimmy":6253,"Building":6254,"Opera":6255,"District":6256,"Thunderbird":6257,"Sweet":6258,"Films":6259,"030":6260,"633":6261,"778":6262,"812":6263,"955":6264,"957":6265,"9.3":6266,"C3":6267,"C14":6268,"EY":6269,"Fol":6270,"LNG":6271,"LIF":6272,"MIC":6273,"NY":6274,"Nint":6275,"POS":6276,"RSS":6277,"SAT":6278,"Tam":6279,"TNT":6280,"Var":6281,"Where":6282,"ato":6283,"cco":6284,"d4":6285,"gli":6286,"spo":6287,"tsu":6288,"their":6289,"Ã½":6290,"Ø¨":6291,"Ø¯":6292,"shire":6293,"ends":6294,"dad":6295,"tino":6296,"rice":6297,"cies":6298,"lain":6299,"band":6300,"minal":6301,"laun":6302,"tury":6303,"10.6":6304,"002":6305,"004":6306,"1230":6307,"longi":6308,"1527":6309,"15.5":6310,"1611":6311,"ãģĽ":6312,"487":6313,"vement":6314,"INT":6315,"46.":6316,"Information":6317,"vich":6318,"vier":6319,"558":6320,"685":6321,"hol":6322,"577":6323,"781":6324,"Page":6325,"pert":6326,"792":6327,"794":6328,"WiMAX":6329,"981":6330,"CO2":6331,"ARC":6332,"Jalan":6333,"Six":6334,"Say":6335,"fect":6336,"mers":6337,"Nick":6338,"Gemini":6339,"Energy":6340,"Stewart":6341,"1122":6342,"RES":6343,"ESPN":6344,"Trickett":6345,"Asian":6346,"Allen":6347,"Stop":6348,"Thompson":6349,"Portable":6350,"Velvet":6351,"Quin":6352,"show":6353,"ìķĦ":6354,"Jonathan":6355,"ð¬ĵ":6356,"Nintendo":6357,"070":6358,"543":6359,"615":6360,"717":6361,"828":6362,"839":6363,"939":6364,"Azu":6365,"Bas":6366,"Cel":6367,"E2":6368,"FD":6369,"G2":6370,"GG":6371,"Gy":6372,"KS":6373,"MED":6374,"N1":6375,"Pur":6376,"Quan":6377,"RY":6378,"S7":6379,"UFC":6380,"V1":6381,"V2":6382,"Xi":6383,"ave":6384,"bui":6385,"esa":6386,"m2":6387,"ppa":6388,"tent":6389,"ãİ":6390,"ê°":6391,"dale":6392,"tiful":6393,"pis":6394,"major":6395,"based":6396,"water":6397,"1512":6398,"1541":6399,"1666":6400,"1721":6401,"1726":6402,"1737":6403,"1747":6404,"1743":6405,"1741":6406,"1430":6407,"30.":6408,"25000":6409,"medi":6410,"rad":6411,"0.1%":6412,"481":6413,"Match":6414,"47.":6415,"674":6416,"Liquid":6417,"697":6418,"host":6419,"889":6420,"Deuts":6421,"fit":6422,"77%":6423,"982":6424,"989":6425,"74.":6426,"96%":6427,"81%":6428,"Titan":6429,"PCR":6430,"0.04":6431,"à¸Ļ":6432,"AVE":6433,"Hub":6434,"Adven":6435,"NHS":6436,"Grace":6437,"Sher":6438,"Enterprise":6439,"hyth":6440,"Productions":6441,"Bruce":6442,"Douglas":6443,"2TV":6444,"513":6445,"846":6446,"866":6447,"857":6448,"B12":6449,"Cong":6450,"Fair":6451,"Gary":6452,"HY":6453,"J1":6454,"JXG":6455,"Oculus":6456,"TD":6457,"WM":6458,"again":6459,"ey":6460,"kHz":6461,"nge":6462,"kee":6463,"mium":6464,"quali":6465,"bov":6466,"bach":6467,"nae":6468,"1217":6469,"1274":6470,"gener":6471,"ponen":6472,"1515":6473,"1542":6474,"1712":6475,"1711":6476,"1715":6477,"1435":6478,"1456":6479,"1328":6480,"1385":6481,"forman":6482,"pas":6483,"cola":6484,"ãģ¶":6485,"1.05":6486,"48.":6487,"4800":6488,"dol":6489,"3400":6490,"IIT":6491,"Rosa":6492,"Roger":6493,"1509":6494,"Staff":6495,"asy":6496,"gir":6497,"Dick":6498,"Window":6499,"ISC":6500,"971":6501,"Kill":6502,"Hay":6503,"Nove":6504,"ASH":6505,"Netscape":6506,"talk":6507,"IGHT":6508,"Shop":6509,"GP40":6510,"Drama":6511,"hydro":6512,"bridge":6513,"nics":6514,"Surf":6515,"Pentium":6516,"facebook":6517,"Tennis":6518,"Princess":6519,"Pink":6520,"Delta":6521,"SHINee":6522,"055":6523,"647":6524,"728":6525,"726":6526,"811":6527,"8.4":6528,"913":6529,"Brun":6530,"CZ":6531,"CCD":6532,"COS":6533,"Hai":6534,"Ia":6535,"Mg":6536,"Pr":6537,"Sang":6538,"Snow":6539,"TAI":6540,"Uta":6541,"Wai":6542,"Wer":6543,"Woo":6544,"Zero":6545,"ctus":6546,"done":6547,"kra":6548,"oc":6549,"pr":6550,"zzi":6551,"Î¯":6552,"Î¶":6553,"iano":6554,"tage":6555,"cision":6556,"pia":6557,"nity":6558,"10.1":6559,"shark":6560,"1150":6561,"1544":6562,"1757":6563,"1424":6564,"1470":6565,"1454":6566,"array":6567,"2900":6568,"room":6569,"909":6570,"459":6571,"38.":6572,"3700":6573,"34.":6574,"759":6575,"Coo":6576,"bet":6577,"STER":6578,"672":6579,"582":6580,"ATS":6581,"vers":6582,"69.":6583,"home":6584,"591":6585,"993":6586,"SAP":6587,"56.":6588,"gion":6589,"Division":6590,"Lost":6591,"Bow":6592,"meral":6593,"Kir":6594,"93%":6595,"Nicho":6596,"Tac":6597,"project":6598,"DSL":6599,"eria":6600,"France":6601,"unique":6602,"Universal":6603,"Gene":6604,"hammad":6605,"dget":6606,"works":6607,"âħ¢":6608,"IMF":6609,"England":6610,"struct":6611,"Benja":6612,"brid":6613,"CGTN":6614,"Louise":6615,"Antonio":6616,"Archite":6617,"CDMA2000":6618,"WORLD":6619,"RepRap":6620,"Mission":6621,"seudo":6622,"Hollywood":6623,"823":6624,"829":6625,"8.9":6626,"927":6627,"935":6628,"9.2":6629,"A5":6630,"Aer":6631,"Ball":6632,"Emi":6633,"F7":6634,"Fl":6635,"Four":6636,"GIS":6637,"JC":6638,"KN":6639,"Know":6640,"LMS":6641,"LPL":6642,"Ral":6643,"TB":6644,"USE":6645,"WD":6646,"bran":6647,"cken":6648,"ev":6649,"fts":6650,"mun":6651,"og":6652,"scien":6653,"vard":6654,"lier":6655,"licon":6656,"big":6657,"being":6658,"mical":6659,"rier":6660,"sets":6661,"ceae":6662,"1235":6663,"1264":6664,"1554":6665,"order":6666,"1722":6667,"1734":6668,"1766":6669,"1471":6670,"1330":6671,"1390":6672,"neu":6673,"ãĥį":6674,"60.":6675,"609":6676,"them":6677,"Makiyo":6678,"llon":6679,"beta":6680,"652":6681,"659":6682,"sser":6683,"Remix":6684,"ped":6685,"695":6686,"573":6687,"783":6688,"Victo":6689,"Dean":6690,"ghter":6691,"fied":6692,"berry":6693,"771":6694,"Wind":6695,"Motor":6696,"Gate":6697,"Sie":6698,"Care":6699,"Alliance":6700,"Hop":6701,"82%":6702,"92%":6703,"sters":6704,"Buzz":6705,"âĪĪ":6706,"Shot":6707,"Kelly":6708,"AAA":6709,"DOCO":6710,"serva":6711,"Original":6712,"Brothers":6713,"Organi":6714,"Active":6715,"Philli":6716,"AlphaGo":6717,"Paradox":6718,"Virgi":6719,"about":6720,"Engineering":6721,"ECTION":6722,"tournament":6723,"Creek":6724,"defeated":6725,"Concert":6726,"trieved":6727,"Surfshark":6728,"1180":6729,"3100":6730,"529":6731,"724":6732,"736":6733,"832":6734,"932":6735,"967":6736,"976":6737,"Arena":6738,"BEST":6739,"DN":6740,"F6":6741,"FG":6742,"Gas":6743,"HM":6744,"HQ":6745,"Hoo":6746,"Jar":6747,"KA":6748,"Kun":6749,"Kam":6750,"Mun":6751,"N3":6752,"NON":6753,"OL":6754,"Ol":6755,"Oly":6756,"PRE":6757,"RAD":6758,"SRAM":6759,"U16":6760,"VCD":6761,"XY":6762,"gers":6763,"good":6764,"ides":6765,"kt":6766,"pm":6767,"xon":6768,"Â½":6769,"Ã£":6770,"ÏĮ":6771,"Ðŀ":6772,"×Ļ":6773,"ð¡":6774,"deri":6775,"enger":6776,"ledge":6777,"mina":6778,"boot":6779,"teo":6780,"tua":6781,"tance":6782,"12.6":6783,"1557":6784,"1551":6785,"1655":6786,"1678":6787,"1696":6788,"1746":6789,"1749":6790,"1475":6791,"1441":6792,"1484":6793,"1399":6794,"25.":6795,"string":6796,"rap":6797,"Maxi":6798,"752":6799,"Cooper":6800,"683":6801,"Rod":6802,"Ross":6803,"Tea":6804,"87%":6805,"874":6806,"Marga":6807,"ACS":6808,"static":6809,"86%":6810,"Str":6811,"Unit":6812,"1402":6813,"à¸¡":6814,"Peace":6815,"Mana":6816,"cyclo":6817,"CRH":6818,"Prize":6819,"BMT":6820,"Hulu":6821,"Broad":6822,"Brook":6823,"Reddit":6824,"Allstars":6825,"Morgan":6826,"Valley":6827,"Holdings":6828,"GMMTV":6829,"VOCAL":6830,"origin":6831,"Palazzo":6832,"Urban":6833,"IPv6":6834,"Rainbow":6835,"Premier":6836,"small":6837,"PENOME":6838,"fessional":6839,"Mercury":6840,"DOCOMO":6841,"PENOMECO":6842,"635":6843,"864":6844,"931":6845,"937":6846,"956":6847,"972":6848,"Edition":6849,"Fren":6850,"Fall":6851,"FIR":6852,"Jin":6853,"Kw":6854,"Kor":6855,"Lyn":6856,"NAT":6857,"PRI":6858,"Sue":6859,"Tang":6860,"bber":6861,"flow":6862,"hon":6863,"mme":6864,"thu":6865,"Ãĸ":6866,"Åĭ":6867,"ÑĪ":6868,"ð°":6869,"enne":6870,"chs":6871,"distri":6872,"gus":6873,"nical":6874,"lav":6875,"match":6876,"nard":6877,"1020":6878,"1010":6879,"rance":6880,"1266":6881,"1261":6882,"poem":6883,"1641":6884,"1751":6885,"1346":6886,"path":6887,"nest":6888,"0.12":6889,"0.65":6890,"ãģŃ":6891,"three":6892,"through":6893,"gas":6894,"38.5":6895,"TCH":6896,"cau":6897,"Mir":6898,"Mira":6899,"Miller":6900,"995":6901,"884":6902,"885":6903,"886":6904,"Pau":6905,"54.":6906,"YouBike":6907,"Leona":6908,"Ted":6909,"89%":6910,"Sid":6911,"Sig":6912,"Sep":6913,"ISP":6914,"ISS":6915,"Lock":6916,"Hig":6917,"83%":6918,"Ann":6919,"Head":6920,"Word":6921,"AGM":6922,"M1A2":6923,"CLOS":6924,"CSI":6925,"phic":6926,"Samsung":6927,"YOU":6928,"Small":6929,"County":6930,"Watch":6931,"Beautiful":6932,"Daily":6933,"August":6934,"username":6935,"Twins":6936,"Giovanni":6937,"Theatre":6938,"Wilhelm":6939,"Benjamin":6940,"060":6941,"564":6942,"664":6943,"817":6944,"831":6945,"853":6946,"919":6947,"958":6948,"942":6949,"959":6950,"979":6951,"BW":6952,"Chen":6953,"Ec":6954,"FK":6955,"FNC":6956,"GUI":6957,"Hg":6958,"IATA":6959,"Invest":6960,"JB":6961,"NL":6962,"Nel":6963,"OC":6964,"PU":6965,"PX":6966,"PDF":6967,"QR":6968,"UCC":6969,"ama":6970,"cry":6971,"gb":6972,"gger":6973,"hor":6974,"mba":6975,"thus":6976,"Î£":6977,"ÐĿ":6978,"xit":6979,"eron":6980,"site":6981,"fari":6982,"family":6983,"motion":6984,"pine":6985,"1284":6986,"2029":6987,"1673":6988,"1713":6989,"1425":6990,"1468":6991,"1382":6992,"former":6993,"archi":6994,"member":6995,"ãĥľ":6996,"0.20":6997,"804":6998,"802.":6999,"ãģ©":7000,"1.75":7001,"36.":7002,"3800":7003,"Made":7004,"Colo":7005,"657":7006,"ATI":7007,"57.":7008,"Department":7009,"CONC":7010,"AMX":7011,"ARI":7012,"Gau":7013,"873":7014,"1204":7015,"varia":7016,"ICC":7017,"Factory":7018,"Howard":7019,"Hil":7020,"Docu":7021,"Haw":7022,"Pia":7023,"0.09":7024,"à¸±":7025,"Caro":7026,"CR400":7027,"Services":7028,"SPA":7029,"odon":7030,"Nord":7031,"Disc":7032,"5.56":7033,"creen":7034,"Flag":7035,"Trust":7036,"LAND":7037,"Hunter":7038,"Federation":7039,"break":7040,"Education":7041,"Jordan":7042,"contributor":7043,"569":7044,"631":7045,"788":7046,"827":7047,"845":7048,"852":7049,"9.1":7050,"A330":7051,"B7":7052,"BMP":7053,"Evan":7054,"G6":7055,"GIR":7056,"IQ":7057,"Kris":7058,"Pel":7059,"RER":7060,"Swing":7061,"TTC":7062,"YS":7063,"feld":7064,"gam":7065,"ibn":7066,"kno":7067,"lling":7068,"Äĥ":7069,"ìĭ":7070,"hel":7071,"sil":7072,"tara":7073,"yes":7074,"mur":7075,"lines":7076,"child":7077,"10.0":7078,"chaft":7079,"1227":7080,"1283":7081,"1291":7082,"hau":7083,"haus":7084,"1539":7085,"1695":7086,"1682":7087,"1710":7088,"1481":7089,"1356":7090,"meo":7091,"nett":7092,"ãĥĻ":7093,"0.28":7094,"0.3%":7095,"ãģµ":7096,"Mala":7097,"39%":7098,"39.":7099,"India":7100,"virus":7101,"Regu":7102,"68.":7103,"441":7104,"677":7105,"691":7106,"Rob":7107,"Robo":7108,"991":7109,"56%":7110,"Def":7111,"797":7112,"53%":7113,"897":7114,"87.":7115,"Raja":7116,"ACG":7117,"ady":7118,"Cali":7119,"APS":7120,"nensis":7121,"Hope":7122,"Kiss":7123,"Kiwi":7124,"Nike":7125,"Nokia":7126,"1405":7127,"Gem":7128,"END":7129,"1707":7130,"Card":7131,"1124":7132,"MIR":7133,"crip":7134,"cked":7135,"à¤°":7136,"Hart":7137,"trix":7138,"EXO":7139,"Access":7140,"Esmeral":7141,"mpic":7142,"losing":7143,"HSCR":7144,"Single":7145,"Associa":7146,"Smart":7147,"Virtual":7148,"DKZ":7149,"Double":7150,"Songs":7151,"Premium":7152,"Change":7153,"counter":7154,"WireGuard":7155,"Russell":7156,"Number":7157,"Style":7158,"Discovery":7159,"tween":7160,"Nicholas":7161,"020":7162,"2K":7163,"3166":7164,"523":7165,"842":7166,"841":7167,"977":7168,"AY":7169,"Ae":7170,"A320":7171,"Bour":7172,"C#":7173,"Chai":7174,"Crai":7175,"D4":7176,"EB":7177,"Even":7178,"GRE":7179,"Ini":7180,"JDG":7181,"Khan":7182,"Ou":7183,"O305":7184,"Pun":7185,"P10":7186,"Pres":7187,"RMS":7188,"Ryo":7189,"TEP":7190,"VHS":7191,"Wri":7192,"Wall":7193,"Wright":7194,"W3C":7195,"XM":7196,"Zn":7197,"dl":7198,"edu":7199,"fai":7200,"hd":7201,"ire":7202,"ome":7203,"what":7204,"Âµ":7205,"Ã°":7206,"Ã»":7207,"Ðĵ":7208,"jito":7209,"dele":7210,"eign":7211,"your":7212,"dam":7213,"date":7214,"human":7215,"sir":7216,"bina":7217,"zie":7218,"fau":7219,"tau":7220,"tax":7221,"tale":7222,"cir":7223,"19.7":7224,"yed":7225,"nik":7226,"lae":7227,"mothy":7228,"1066":7229,"double":7230,"seo":7231,"18.5":7232,"1241":7233,"1295":7234,"quet":7235,"1130":7236,"1433":7237,"1449":7238,"1376":7239,"1001":7240,"0.75":7241,"ãģ°":7242,"ãģĶ":7243,"ãĤ»":7244,"thro":7245,"Maj":7246,"462":7247,"between":7248,"58.":7249,"696":7250,"SAE":7251,"786":7252,"563":7253,"peria":7254,"nos":7255,"62%":7256,"95.":7257,"Array":7258,"Alber":7259,"stamp":7260,"Hospi":7261,"fee":7262,"feat":7263,"Domini":7264,"Pictures":7265,"PCS":7266,"0.07":7267,"0.08":7268,"1703":7269,"ECE":7270,"sions":7271,"CHO":7272,"Andy":7273,"ADA":7274,"Order":7275,"Guy":7276,"march":7277,"timestamp":7278,"Blood":7279,"typedef":7280,"Taipei":7281,"Ship":7282,"third":7283,"FreeBSD":7284,"Valen":7285,"Stand":7286,"Talking":7287,"Cl2":7288,"Memorial":7289,"Stadiums":7290,"Advanced":7291,"Drop":7292,"Jacob":7293,"Anthony":7294,"Challeng":7295,"Esmeralda":7296,"4D":7297,"749":7298,"766":7299,"799":7300,"838":7301,"844":7302,"843":7303,"854":7304,"968":7305,"Ay":7306,"Ave":7307,"B6":7308,"Call":7309,"Candy":7310,"FB":7311,"G3":7312,"IZ":7313,"Iron":7314,"Non":7315,"OBE":7316,"Rd":7317,"Ris":7318,"RIA":7319,"Sei":7320,"Tin":7321,"TREAS":7322,"WB":7323,"ata":7324,"aes":7325,"bye":7326,"ech":7327,"ear":7328,"series":7329,"true":7330,"¸©":7331,"ìĤ":7332,"any":7333,"diffe":7334,"bital":7335,"mid":7336,"rid":7337,"muse":7338,"mala":7339,"nam":7340,"10.7":7341,"10.2":7342,"1290":7343,"1265":7344,"1262":7345,"1286":7346,"post":7347,"hara":7348,"1729":7349,"1742":7350,"1438":7351,"1459":7352,"14.4":7353,"height":7354,"21.5":7355,"ï¼ĳ":7356,"rome":7357,"str":7358,"ãĤ§":7359,"ãĤħ":7360,"75.":7361,"Cole":7362,"ReMi":7363,"ette":7364,"Lip":7365,"Lisa":7366,"663":7367,"Med":7368,"Mee":7369,"79%":7370,"Mojito":7371,"63%":7372,"ARS":7373,"76.":7374,"Diplo":7375,"Finan":7376,"APEC":7377,"Faker":7378,"Nature":7379,"DoReMi":7380,"71%":7381,"Nova":7382,"0.06":7383,"ROR":7384,"Government":7385,"vant":7386,"service":7387,"exe":7388,"âĹı":7389,"BLACK":7390,"parti":7391,"Score":7392,"Country":7393,"friDay":7394,"Johann":7395,"metry":7396,"Australian":7397,"ðª¸©":7398,"SNCF":7399,"Jacques":7400,"B9TL":7401,"TREASURE":7402,"1190":7403,"718":7404,"733":7405,"837":7406,"8.0":7407,"879":7408,"928":7409,"922":7410,"948":7411,"966":7412,"A9":7413,"AZ":7414,"Ala":7415,"B5":7416,"Blen":7417,"C7":7418,"Cour":7419,"CBD":7420,"Ern":7421,"FOR":7422,"Gai":7423,"KL":7424,"Llo":7425,"LSA":7426,"Mn":7427,"Mam":7428,"NRA":7429,"Neil":7430,"Oce":7431,"OBC":7432,"PET":7433,"PDP":7434,"RED":7435,"Schu":7436,"S22":7437,"Tes":7438,"UHF":7439,"ari":7440,"eli":7441,"ffa":7442,"ova":7443,"âŁ":7444,"ìł":7445,"dic":7446,"sity":7447,"tit":7448,"title":7449,"19.5":7450,"boy":7451,"lins":7452,"lies":7453,"1040":7454,"1240":7455,"1270":7456,"gence":7457,"pointer":7458,"wal":7459,"1599":7460,"1717":7461,"1447":7462,"1369":7463,"1373":7464,"ãĥļ":7465,"0.11":7466,"look":7467,"ãĤ¶":7468,"37.":7469,"Map":7470,"Matt":7471,"753":7472,"care":7473,"villa":7474,"Living":7475,"882":7476,"Defen":7477,"fire":7478,"983":7479,"BAS":7480,"BANG":7481,"Level":7482,"Lewis":7483,"89.":7484,"conne":7485,"Second":7486,"---":7487,"MAG":7488,"Mul":7489,"1403":7490,"ASP":7491,"Chin":7492,"llah":7493,"llar":7494,"MPEG":7495,"1121":7496,"ffer":7497,"Price":7498,"Russ":7499,"IFPI":7500,"Franci":7501,"YOUNG":7502,"Spirit":7503,"PEG":7504,"ICOCA":7505,"Farms":7506,"Ventures":7507,"green":7508,"DAMP":7509,"Analy":7510,"tionary":7511,"asonic":7512,"dependent":7513,"1x":7514,"1198":7515,"4x":7516,"746":7517,"819":7518,"814":7519,"813":7520,"824":7521,"851":7522,"964":7523,"Aero":7524,"CERT":7525,"Dor":7526,"Ep":7527,"Emer":7528,"Fr":7529,"Hin":7530,"Mbit":7531,"Psy":7532,"Rat":7533,"Spy":7534,"Us":7535,"VL":7536,"WC":7537,"Wu":7538,"aco":7539,"dding":7540,"jar":7541,"osu":7542,"áŀ":7543,"ê¸":7544,"ìŀ":7545,"dera":7546,"rene":7547,"geo":7548,"tab":7549,"quen":7550,"music":7551,"dain":7552,"nanensis":7553,"tek":7554,"later":7555,"sup":7556,"cepha":7557,"1219":7558,"1254":7559,"11.9":7560,"11.4":7561,"sation":7562,"1676":7563,"1714":7564,"1429":7565,"1434":7566,"1444":7567,"1462":7568,"1451":7569,"1483":7570,"1364":7571,"22.5":7572,"ï¼¡":7573,"sten":7574,"cut":7575,"0.13":7576,"0.24":7577,"1.35":7578,"load":7579,"offi":7580,"Mah":7581,"Cook":7582,"SEN":7583,"IIc":7584,"Lite":7585,"593":7586,"996":7587,"883":7588,"Melo":7589,"Pacific":7590,"CDR":7591,"774":7592,"Winter":7593,"Wise":7594,"Lega":7595,"Professional":7596,"892":7597,"895":7598,"Season":7599,"ISIL":7600,"urs":7601,"Sophi":7602,"Strong":7603,"HiME":7604,"Rick":7605,"Have":7606,"Gib":7607,"1407":7608,"graph":7609,"Conference":7610,"Karen":7611,"à¸Ń":7612,"process":7613,"Andrea":7614,"Fea":7615,"Mono":7616,"Adrian":7617,"Chee":7618,"Display":7619,"example":7620,"ãĦ§":7621,"ãĦĽ":7622,"DD53":7623,"structure":7624,"Helen":7625,"Crown":7626,"Elect":7627,"ministra":7628,"Fund":7629,"PHP":7630,"harma":7631,"single":7632,"Object":7633,"Captain":7634,"mapframe":7635,"Getchu":7636,"Quasi":7637,"Gordon":7638,"NEXT":7639,"integer":7640,"Abdul":7641,"Azure":7642,"VOCALO":7643,"2S":7644,"3rd":7645,"862":7646,"9.0":7647,"Ano":7648,"E5":7649,"Gr":7650,"JAK":7651,"K10":7652,"Kis":7653,"N64":7654,"Pai":7655,"PAS":7656,"RD":7657,"Swan":7658,"Sna":7659,"Sat":7660,"SOS":7661,"T7":7662,"VG":7663,"aa":7664,"away":7665,"ging":7666,"gro":7667,"jn":7668,"ore":7669,"sv":7670,"det":7671,"eis":7672,"ians":7673,"zhuai":7674,"sii":7675,"tii":7676,"miR":7677,"mili":7678,"rical":7679,"leb":7680,"mage":7681,"1086":7682,"rane":7683,"kara":7684,"1225":7685,"1224":7686,"1258":7687,"pot":7688,"sary":7689,"ordina":7690,"1686":7691,"1486":7692,"1497":7693,"1310":7694,"1329":7695,"13.6":7696,"1391":7697,"ï¼Ĵ":7698,"alloca":7699,"0.18":7700,"0.30":7701,"0.2%":7702,"theory":7703,"cki":7704,"Republic":7705,"hicle":7706,"58%":7707,"ATH":7708,"people":7709,"Lisp":7710,"69%":7711,"693":7712,"Death":7713,"77.":7714,"987":7715,"BAC":7716,"ARA":7717,"Gaming":7718,"896":7719,"Fit":7720,"Sim":7721,"Ness":7722,"Nexus":7723,"Sean":7724,"comment":7725,"socket":7726,"73%":7727,"1108":7728,"gov":7729,"1404":7730,"Control":7731,"mph":7732,"phone":7733,"Pear":7734,"Formation":7735,"âĪŀ":7736,"Extra":7737,"AVC":7738,"Prix":7739,"DCT":7740,"Franz":7741,"Person":7742,"NOME":7743,"Dual":7744,"SDK":7745,"splay":7746,"Sym":7747,"Lane":7748,"âī¥":7749,"position":7750,"Scala":7751,"Castle":7752,"apore":7753,"Nerf":7754,"LIFE":7755,"Victoria":7756,"French":7757,"Francisco":7758,"VOCALOID":7759,"040":7760,"080":7761,"6A":7762,"723":7763,"8500":7764,"858":7765,"859":7766,"914":7767,"934":7768,"944":7769,"969":7770,"953":7771,"BGM":7772,"Blair":7773,"Eva":7774,"Elli":7775,"EMD":7776,"Flor":7777,"FRAM":7778,"Glen":7779,"GNOME":7780,"His":7781,"HIG":7782,"Kno":7783,"Kara":7784,"Las":7785,"N4":7786,"OG":7787,"OZ":7788,"Plu":7789,"PST":7790,"PAL":7791,"RR":7792,"RGB":7793,"Slo":7794,"Xperia":7795,"Yellow":7796,"Zu":7797,"ZICO":7798,"ame":7799,"dle":7800,"dron":7801,"pti":7802,"Ã¯":7803,"ÅĽ":7804,"Ëĭ":7805,"á¼":7806,"ings":7807,"uint":7808,"error":7809,"times":7810,"tail":7811,"pid":7812,"nig":7813,"bol":7814,"10.9":7815,"doubles":7816,"003":7817,"1236":7818,"1278":7819,"12.1":7820,"1263":7821,"1140":7822,"hal":7823,"sat":7824,"âĢĮ":7825,"1716":7826,"1442":7827,"1478":7828,"1360":7829,"1365":7830,"1333":7831,"1341":7832,"13.2":7833,"pay":7834,"24.5":7835,"stream":7836,"0.26":7837,"0.35":7838,"local":7839,"2.75":7840,"45.":7841,"Come":7842,"STEM":7843,"ATM":7844,"66.":7845,"782":7846,"fication":7847,"772":7848,"779":7849,"pers":7850,"lys":7851,"Days":7852,"76%":7853,"891":7854,"Mart":7855,"March":7856,"Racing":7857,"1208":7858,"Sex":7859,"ISIS":7860,"start":7861,"Bili":7862,"Billy":7863,"Social":7864,"Rich":7865,"Kiii":7866,"Commission":7867,"Conti":7868,"à¸ŀ":7869,"Carter":7870,"Carol":7871,"AIL":7872,"sistant":7873,"Experi":7874,"Andre":7875,"SO3":7876,"BORN":7877,"aux":7878,"TEEN":7879,"PPP":7880,"plete":7881,"Century":7882,"clear":7883,"mbH":7884,"Hybrid":7885,"OKA":7886,"Atlan":7887,"BIOS":7888,"Terry":7889,"LGBTQ":7890,"Quick":7891,"Partners":7892,"Brand":7893,"Photo":7894,"Alfred":7895,"Forest":7896,"Frollo":7897,"ckage":7898,"WISE":7899,"Advance":7900,"Fantasy":7901,"Ernst":7902,"1a":7903,"1194":7904,"834":7905,"849":7906,"941":7907,"Ax":7908,"Bye":7909,"BWF":7910,"BOSS":7911,"CAT":7912,"DAI":7913,"Ent":7914,"FRE":7915,"FIA":7916,"GU":7917,"Ivan":7918,"JJ":7919,"Kal":7920,"M24":7921,"Our":7922,"Pb":7923,"Spen":7924,"Ski":7925,"Ul":7926,"Wang":7927,"Wha":7928,"WAN":7929,"ating":7930,"cty":7931,"dr":7932,"fx":7933,"omp":7934,"ua":7935,"wri":7936,"ÅĦ":7937,"×ķ":7938,"Ø©":7939,"à¼":7940,"ëĭ":7941,"ìĺ":7942,"dez":7943,"ships":7944,"lien":7945,"digi":7946,"burn":7947,"bucket":7948,"tius":7949,"quar":7950,"bara":7951,"chester":7952,"pul":7953,"1030":7954,"1099":7955,"cans":7956,"1221":7957,"12.2":7958,"1272":7959,"rest":7960,"recor":7961,"1533":7962,"1698":7963,"1671":7964,"1413":7965,"1443":7966,"1358":7967,"1396":7968,"Matter":7969,"59.":7970,"998":7971,"ryo":7972,"789":7973,"CDK":7974,"773":7975,"Rab":7976,"Razer":7977,"kien":7978,"1206":7979,"Arn":7980,"Basi":7981,"Low":7982,"Body":7983,"Sorana":7984,"EPHE":7985,"HKIFF":7986,"MPI":7987,"proper":7988,"dyna":7989,"Kota":7990,"Davis":7991,"SCI":7992,"Charlie":7993,"Full":7994,"import":7995,"Minute":7996,"UTF":7997,"Stanley":7998,"Plane":7999,"Singapore":8000,"Tensor":8001,"Bobby":8002,"ðĲ°":8003,"âī¤":8004,"event":8005,"Dynamics":8006,"Suite":8007,"íķľ":8008,"AMOLED":8009,"Application":8010,"UNESCO":8011,"Craig":8012,"OBCs":8013,"1189":8014,"818":8015,"848":8016,"869":8017,"899":8018,"916":8019,"917":8020,"949":8021,"Blan":8022,"Cs":8023,"Cream":8024,"D7":8025,"Dong":8026,"Dino":8027,"Dcard":8028,"Empi":8029,"GmbH":8030,"Imp":8031,"Mol":8032,"Mine":8033,"Mrs":8034,"NEC":8035,"Ora":8036,"RM":8037,"Ras":8038,"RID":8039,"Sm":8040,"Screen":8041,"TER":8042,"VAL":8043,"X2":8044,"gno":8045,"jour":8046,"phan":8047,"tru":8048,"vol":8049,"zone":8050,"Â¥":8051,"ÅŁ":8052,"ÛĮ":8053,"à¨":8054,"ê¹":8055,"ëĤ":8056,"ëŀ":8057,"ì§":8058,"ail":8059,"enter":8060,"chei":8061,"lid":8062,"ues":8063,"rious":8064,"cipal":8065,"born":8066,"mato":8067,"bad":8068,"waii":8069,"1060":8070,"10.4":8071,"shall":8072,"kas":8073,"1211":8074,"1234":8075,"1246":8076,"1110":8077,"1147":8078,"11.1":8079,"pol":8080,"possi":8081,"reg":8082,"real":8083,"wald":8084,"1548":8085,"14.8":8086,"1458":8087,"13.8":8088,"nium":8089,"24.3":8090,"meta":8091,"rost":8092,"four":8093,"length":8094,"ãĤ¡":8095,"thor":8096,"Magic":8097,"Cool":8098,"500rpm":8099,"SEM":8100,"Revolution":8101,"Retrieved":8102,"hibi":8103,"887":8104,"1503":8105,"793":8106,"Movie":8107,"BSI":8108,"Sele":8109,"ED79":8110,"----":8111,"ICS":8112,"Logic":8113,"IDS":8114,"Sala":8115,"Stray":8116,"sole":8117,"Hills":8118,"94%":8119,"Chat":8120,"ITZ":8121,"91%":8122,"Git":8123,"à¸´":8124,"provi":8125,"ROCK":8126,"1123":8127,"MOON":8128,"myTV":8129,"Andr":8130,"CR300":8131,"Lucas":8132,"BDSM":8133,"ospace":8134,"tric":8135,"store":8136,"PPTP":8137,"Berg":8138,"large":8139,"Shell":8140,"1192":8141,"Panasonic":8142,"Plat":8143,"sorted":8144,"thal":8145,"NEWS":8146,"logies":8147,"shington":8148,"Quake":8149,"Amiga":8150,"finity":8151,"Culture":8152,"source":8153,"Diamond":8154,"Keith":8155,"Machine":8156,"ð¬ĵĭ":8157,"ãİ¡":8158,"formance":8159,"Ocean":8160,"012":8161,"868":8162,"974":8163,"Astra":8164,"BV":8165,"Bb":8166,"Bam":8167,"C96":8168,"E9":8169,"Flip":8170,"G4":8171,"G9":8172,"GSM":8173,"Io":8174,"Jun":8175,"KF":8176,"Kas":8177,"KEN":8178,"LMP":8179,"PER":8180,"Ped":8181,"RG":8182,"Scor":8183,"VEn":8184,"VIE":8185,"Yang":8186,"ZE":8187,"Zone":8188,"ash":8189,"acid":8190,"eV":8191,"fying":8192,"fran":8193,"fre":8194,"gge":8195,"tty":8196,"vian":8197,"âĴ":8198,"rung":8199,"laus":8200,"mara":8201,"mento":8202,"modo":8203,"lvad":8204,"1027":8205,"1070":8206,"1049":8207,"006":8208,"1232":8209,"many":8210,"relative":8211,"1674":8212,"1448":8213,"1439":8214,"1467":8215,"1345":8216,"13.4":8217,"1386":8218,"1392":8219,"1393":8220,"mouth":8221,"mea":8222,"ï¼ľ":8223,"0.29":8224,"cover":8225,"ãģļ":8226,"thema":8227,"Malay":8228,"bell":8229,"654":8230,"Rebe":8231,"44.":8232,"LiTV":8233,"994":8234,"78.":8235,"Vilade":8236,"Lab":8237,"AMR":8238,"Silicon":8239,"ISH":8240,"ISM":8241,"Army":8242,"Baker":8243,"Los":8244,"Boi":8245,"String":8246,"solo":8247,"IPA":8248,"IPO":8249,"rism":8250,"PS4":8251,"Kakao":8252,"à¸ª":8253,"ALA":8254,"wee":8255,"MP3":8256,"USH":8257,"Washington":8258,"Exchange":8259,"MIL":8260,"TEE":8261,"Lud":8262,"BMG":8263,"DR2700":8264,"Harold":8265,"10646":8266,"Cher":8267,"Norman":8268,"plet":8269,"TSB":8270,"Three":8271,"Morris":8272,"UCI":8273,"LCK":8274,"Boom":8275,"Grant":8276,"Patri":8277,"Holland":8278,"LPDDR":8279,"Fernan":8280,"LTTE":8281,"LSST":8282,"Calli":8283,"Turbo":8284,"operator":8285,"marker":8286,"reads":8287,"schema":8288,"Scheme":8289,"street":8290,"Village":8291,"Infocom":8292,"ELEVEn":8293,"article":8294,"GDDR5":8295,"F7F":8296,"NONO":8297,"Strv":8298,"Viladecans":8299,"4200":8300,"963":8301,"Age":8302,"ATC":8303,"Avi":8304,"CAM":8305,"CBE":8306,"Dang":8307,"H6":8308,"H9":8309,"JK":8310,"JIS":8311,"KV":8312,"Lai":8313,"Ling":8314,"M60":8315,"Muni":8316,"Ny":8317,"NTT":8318,"Ox":8319,"Own":8320,"ORI":8321,"P5":8322,"Pao":8323,"R9":8324,"Scha":8325,"Shang":8326,"VY":8327,"Vla":8328,"VCR":8329,"Wen":8330,"cl":8331,"cchi":8332,"cles":8333,"fly":8334,"hman":8335,"ide":8336,"ina":8337,"jk":8338,"kle":8339,"obov":8340,"vre":8341,"xml":8342,"zoom":8343,"ÄĽ":8344,"ëĿ":8345,"ough":8346,"chro":8347,"lik":8348,"did":8349,"bug":8350,"zio":8351,"rim":8352,"dance":8353,"dule":8354,"mino":8355,"lamb":8356,"make":8357,"male":8358,"chel":8359,"zel":8360,"lind":8361,"1012":8362,"1017":8363,"10.3":8364,"1063":8365,"semi":8366,"1214":8367,"1229":8368,"1268":8369,"1242":8370,"1253":8371,"1271":8372,"1160":8373,"1135":8374,"rell":8375,"1677":8376,"1691":8377,"1419":8378,"1324":8379,"pak":8380,"paren":8381,"nell":8382,"root":8383,"ãĥ´":8384,"ãĥĴ":8385,"aly":8386,"0.45":8387,"cogni":8388,"foot":8389,"1.45":8390,"thod":8391,"gau":8392,"ckers":8393,"3900":8394,"vic":8395,"SET":8396,"ools":8397,"pex":8398,"version":8399,"Roth":8400,"79.":8401,"54%":8402,"Jois":8403,"Dale":8404,"871":8405,"872":8406,"Radar":8407,"Beach":8408,"vage":8409,"EDA":8410,"cense":8411,"Safari":8412,"Natural":8413,"Doctor":8414,"ANSI":8415,"Compa":8416,"Tiger":8417,"Nik":8418,"Nim":8419,"ITU":8420,"1.5%":8421,"1307":8422,"1409":8423,"SMO":8424,"Kate":8425,"à¸ģ":8426,"MOMO":8427,"Feed":8428,"DR2800":8429,"Julia":8430,"CEMS":8431,"Cana":8432,"Canada":8433,"Graphi":8434,"Quar":8435,"Quali":8436,"Philo":8437,"kings":8438,"Shin":8439,"Alexand":8440,"Singh":8441,"sident":8442,"DirectShow":8443,"Clear":8444,"politan":8445,"Medical":8446,"Certifi":8447,"Oliver":8448,"JUMP":8449,"Vincent":8450,"Michel":8451,"following":8452,"ë¦¬":8453,"HIGH":8454,"à¼ĭ":8455,"2n":8456,"734":8457,"9K":8458,"943":8459,"952":8460,"A7":8461,"Ade":8462,"Apri":8463,"A380":8464,"Bf":8465,"Bis":8466,"Bol":8467,"C9":8468,"Cai":8469,"D6":8470,"Ground":8471,"Gusta":8472,"Hur":8473,"JS":8474,"JY":8475,"M9":8476,"Ms":8477,"M10":8478,"NFC":8479,"Owen":8480,"Ore":8481,"Otto":8482,"Peri":8483,"Ry":8484,"Roo":8485,"SBL":8486,"Sain":8487,"Ts":8488,"Twi":8489,"Uk":8490,"XI":8491,"Xe":8492,"YE":8493,"Yes":8494,"bg":8495,"eo":8496,"hyn":8497,"tja":8498,"when":8499,"x2":8500,"Åł":8501,"ÎĽ":8502,"êµ":8503,"ë¹":8504,"Ĭ¸":8505,"angle":8506,"erra":8507,"fas":8508,"tique":8509,"tiva":8510,"rup":8511,"bank":8512,"both":8513,"lium":8514,"tung":8515,"paign":8516,"lied":8517,"1059":8518,"1056":8519,"1054":8520,"rano":8521,"cea":8522,"005":8523,"1259":8524,"1252":8525,"1282":8526,"11.8":8527,"11.7":8528,"polis":8529,"15.9":8530,"15.4":8531,"1415":8532,"1426":8533,"14.6":8534,"1476":8535,"1349":8536,"1363":8537,"1397":8538,"bino":8539,"arning":8540,"27.5":8541,"neo":8542,"strong":8543,"40.":8544,"0.39":8545,"colle":8546,"1.09":8547,"thera":8548,"lov":8549,"gation":8550,"dows":8551,"Colum":8552,"bear":8553,"Indie":8554,"vid":8555,"Reg":8556,"694":8557,"Ros":8558,"wie":8559,"wich":8560,"Deli":8561,"ï½£":8562,"AMA":8563,"AMG":8564,"Temple":8565,"Five":8566,"Marcus":8567,"kita":8568,"ICT":8569,"Navi":8570,"complex":8571,"96.":8572,"84.":8573,"ANN":8574,"Wea":8575,"1308":8576,"Give":8577,"Table":8578,"Intermarch":8579,"Stefan":8580,"CNJ":8581,"Example":8582,"0.55":8583,"MIX":8584,"Feel":8585,"Harris":8586,"240ZJ":8587,"EEZ":8588,"Bernard":8589,"yoga":8590,"SHIP":8591,"Genie":8592,"Thor":8593,"Quad":8594,"Speed":8595,"Porta":8596,"Kingdom":8597,"Friends":8598,"IOC":8599,"drop":8600,"Heaven":8601,"Belle":8602,"plot":8603,"á¹£":8604,"Chromium":8605,"Eidos":8606,"Raymond":8607,"Schema":8608,"livedoor":8609,"Scrum":8610,"TGV":8611,"sources":8612,"Look":8613,"ebly":8614,"Tolkien":8615,"Kenneth":8616,"Roberts":8617,"Virginia":8618,"Hospital":8619,"Legacy":8620,"1195":8621,"898":8622,"Ak":8623,"Adi":8624,"AIC":8625,"Aff":8626,"Bha":8627,"CAD":8628,"CBN":8629,"Din":8630,"Hum":8631,"Had":8632,"JD":8633,"KTV":8634,"KSK":8635,"M12":8636,"MET":8637,"Meri":8638,"Nf":8639,"Orange":8640,"Room":8641,"Rhyth":8642,"UG":8643,"UH":8644,"U15":8645,"Veri":8646,"WDF":8647,"ala":8648,"fs":8649,"g4":8650,"lma":8651,"quo":8652,"try":8653,"ÂŃ":8654,"ðł":8655,"eno":8656,"uis":8657,"zin":8658,"fal":8659,"tico":8660,"tity":8661,"20.5":8662,"years":8663,"yam":8664,"mination":8665,"modore":8666,"nah":8667,"hana":8668,"1019":8669,"1011":8670,"1015":8671,"1016":8672,"1032":8673,"1047":8674,"chani":8675,"008":8676,"1212":8677,"1297":8678,"rett":8679,"1412":8680,"1314":8681,"1313":8682,"13.7":8683,"13.3":8684,"1394":8685,"sent":8686,"23.5":8687,"26.5":8688,"ltz":8689,"alpha":8690,"1006":8691,"0.23":8692,"0.40":8693,"0.60":8694,"cole":8695,"foo":8696,"ãģ³":8697,"ãģ»":8698,"1.23":8699,"ãĤĢ":8700,"tol":8701,"Macro":8702,"Cover":8703,"4600":8704,"39.2":8705,"STD":8706,".02%":8707,"Lie":8708,"how":8709,"wig":8710,"Mess":8711,"Victory":8712,"pera":8713,"Wide":8714,"9800":8715,"Legen":8716,"AME":8717,"control":8718,"Cau":8719,"Today":8720,"station":8721,"Fate":8722,"Soda":8723,"Rive":8724,"Comman":8725,"Nice":8726,"Weebly":8727,"à¸Ķ":8728,"proto":8729,"cout":8730,"1127":8731,"AKE":8732,"Forth":8733,"SO2":8734,"TE1":8735,"TEAM":8736,"Lucky":8737,"Lumia":8738,"NO2":8739,"tember":8740,"Danny":8741,"GameCube":8742,"ILD":8743,"280ZJ":8744,"Georg":8745,"AFI":8746,"1191":8747,"Cyber":8748,"Bracket":8749,"Whit":8750,"Produce":8751,"Plaza":8752,"lipse":8753,"Television":8754,"Farm":8755,"à¹Ģ":8756,"Crazy":8757,"VVVF":8758,"terial":8759,"Frede":8760,"Illu":8761,"Sarah":8762,"Luis":8763,"16V280ZJ":8764,"Fisher":8765,"Heinrich":8766,"latitude":8767,"IMDb":8768,"Album":8769,"longitude":8770,"ê°Ģ":8771,"Flying":8772,"Margaret":8773,"TTCN":8774,"known":8775,"Ryona":8776,"Blender":8777,"+.":8778,"7100":8779,"822":8780,"836":8781,"861":8782,"924":8783,"923":8784,"Agency":8785,"B4":8786,"B8":8787,"FPS":8788,"Gan":8789,"Gul":8790,"HH":8791,"Jere":8792,"Kang":8793,"KING":8794,"Klein":8795,"LW":8796,"M1895":8797,"PART":8798,"Vul":8799,"X1":8800,"XS":8801,"ZFC":8802,"emo":8803,"ees":8804,"effe":8805,"flu":8806,"fron":8807,"jp":8808,"kV":8809,"mys":8810,"pta":8811,"ssa":8812,"x3":8813,"xys":8814,"Ïį":8815,"Ð£":8816,"à§":8817,"à¯":8818,"ð£":8819,"dell":8820,"design":8821,"lini":8822,"una":8823,"sim":8824,"zip":8825,"tari":8826,"2031":8827,"cina":8828,"lung":8829,"during":8830,"yama":8831,"pic":8832,"pio":8833,"lace":8834,"mosa":8835,"1018":8836,"1035":8837,"10.8":8838,"1072":8839,"chara":8840,"sele":8841,"1244":8842,"1299":8843,"1170":8844,"1139":8845,"11.6":8846,"pool":8847,"remo":8848,"wave":8849,"organi":8850,"16.8":8851,"1421":8852,"1455":8853,"14.9":8854,"1461":8855,"1485":8856,"13000":8857,"1355":8858,"1343":8859,"1387":8860,"1372":8861,"sens":8862,"pat":8863,"methy":8864,"0.21":8865,"0.22":8866,"0.27":8867,"0.46":8868,"0.32":8869,"0.33":8870,"0.49":8871,"0.41":8872,"0.95":8873,"ãģĿ":8874,"1.36":8875,"1.44":8876,"1.42":8877,"tosh":8878,"Conv":8879,"STs":8880,"They":8881,"SEP":8882,"hill":8883,"4400":8884,"Mili":8885,"atten":8886,"4217":8887,"wicz":8888,"78%":8889,"Ville":8890,"Pack":8891,"Mona":8892,"Dass":8893,"Dawn":8894,"Proper":8895,"Marc":8896,"ACP":8897,"Bee":8898,"Casa":8899,"Calvin":8900,"Arch":8901,"ICAO":8902,"ICHI":8903,"Loren":8904,"97.":8905,"componen":8906,"Hoy":8907,"Kirk":8908,"Commodore":8909,"Susan":8910,"Chamber":8911,"1304":8912,"PSY":8913,"1408":8914,"ETS":8915,"ENU":8916,"1125":8917,"erie":8918,"Sant":8919,"styles":8920,"à¤®":8921,"Stuart":8922,"EXIT":8923,"delta":8924,"stock":8925,"micron":8926,"Duke":8927,"MDT":8928,"Only":8929,"Asse":8930,"URN":8931,"Cell":8932,"Abra":8933,"Alive":8934,"Freedom":8935,"Friend":8936,"nowledge":8937,"EMU":8938,"GMM":8939,"Director":8940,"Rant":8941,"gnature":8942,"Sciences":8943,"Generation":8944,"PIECE":8945,"Yoshi":8946,"Technologies":8947,"Rapper":8948,"Horse":8949,"Haml":8950,"float":8951,"object":8952,"Dolby":8953,"Pascal":8954,"Wings":8955,"finals":8956,"Kaiser":8957,"Taste":8958,"UCLASS":8959,"Austin":8960,"GROUP":8961,"Storm":8962,"Protocol":8963,"Claude":8964,"FashionTV":8965,"BIGBANG":8966,"Aerospace":8967,"Ralph":8968,"September":8969,"Dropbox":8970,"Bilibili":8971,"ëĿ¼":8972,"090":8973,"067":8974,"11000":8975,"9F":8976,"AFC":8977,"Cm":8978,"Cris":8979,"Das":8980,"Fine":8981,"Fellow":8982,"GTE":8983,"Ghost":8984,"HSD":8985,"K3":8986,"KM":8987,"KAD":8988,"KDE":8989,"LI":8990,"MST":8991,"NTSB":8992,"OE":8993,"P1":8994,"PW":8995,"PBS":8996,"PIE":8997,"Pseudo":8998,"RET":8999,"Sd":9000,"Sk":9001,"Sla":9002,"Tr":9003,"TARD":9004,"WRC":9005,"YES":9006,"ated":9007,"bha":9008,"c2":9009,"c4":9010,"dg":9011,"edi":9012,"every":9013,"each":9014,"horn":9015,"ity":9016,"nou":9017,"psi":9018,"t2":9019,"trai":9020,"wers":9021,"Åļ":9022,"Ëĩ":9023,"ÎŃ":9024,"ÙĤ":9025,"â¼":9026,"ðĴ":9027,"dinan":9028,"gee":9029,"tiger":9030,"2040":9031,"2047":9032,"ridae":9033,"19.6":9034,"rug":9035,"lah":9036,"mentation":9037,"mono":9038,"chin":9039,"1046":9040,"tani":9041,"tano":9042,"kal":9043,"kawa":9044,"1218":9045,"1215":9046,"1247":9047,"1243":9048,"1256":9049,"1138":9050,"1137":9051,"1168":9052,"rez":9053,"reti":9054,"watch":9055,"sad":9056,"sam":9057,"1693":9058,"1414":9059,"1427":9060,"1432":9061,"1491":9062,"1378":9063,"1351":9064,"fornia":9065,"2758":9066,"ï¼ķ":9067,"nez":9068,".52%":9069,"lts":9070,"ãĥĺ":9071,"1002":9072,"0.14":9073,"0.000":9074,"0.68":9075,"0.4%":9076,"coin":9077,"1.04":9078,"35.":9079,"2.25":9080,"Maya":9081,"Cosplay":9082,"capi":9083,"cate":9084,"Instru":9085,"SEC":9086,"Review":9087,"else":9088,"ett":9089,"Miami":9090,"592":9091,"SAS":9092,"Devil":9093,"file":9094,"filter":9095,"ï½¢":9096,"98.":9097,"984":9098,"52%":9099,"Youth":9100,"Joan":9101,"Gay":9102,"Marco":9103,"1207":9104,"Arm":9105,"Local":9106,"Savage":9107,"Tuber":9108,"solu":9109,"sock":9110,"IPCC":9111,"1106":9112,"gori":9113,"government":9114,"1.52":9115,"stery":9116,"1309":9117,"Anni":9118,"Ansible":9119,"Hell":9120,"1706":9121,"à¸§":9122,"à¸µ":9123,"ALX":9124,"âĨĲ":9125,"1129":9126,"psy":9127,"Exe":9128,"Exten":9129,"Chief":9130,"SO4":9131,"BOT":9132,"ckey":9133,"1185":9134,"IFT":9135,"Cortex":9136,"à¤¿":9137,"NOW":9138,"LLC":9139,"mons":9140,"Monte":9141,"Precision":9142,"Northern":9143,"Superia":9144,"market":9145,"mbly":9146,"Bloo":9147,"hypo":9148,"XXX":9149,"ð«ļ":9150,"SUV":9151,"Boyz":9152,"Paradi":9153,"SNK":9154,"Masters":9155,"Championships":9156,"dorf":9157,"âĳł":9158,"Marine":9159,"Palmer":9160,"tellite":9161,"Niconico":9162,"Wanna":9163,"Democra":9164,"Larry":9165,"Faith":9166,"Artists":9167,"Intelligent":9168,"ìļ°":9169,"recei":9170,"Olympic":9171,"Investment":9172,"802.11":9173,"MIRROR":9174,"ìĤ¬":9175,"Quasimodo":9176,"OKAWA":9177,"bgcolor":9178,"Frederick":9179,"TARDIS":9180,"013":9181,"065":9182,"1N":9183,"1202":9184,"4B":9185,"5100":9186,"5400":9187,"743":9188,"9600":9189,"A8":9190,"Ato":9191,"Clai":9192,"CSP":9193,"CUB":9194,"CIE":9195,"Emily":9196,"Evolution":9197,"Easy":9198,"FIL":9199,"Food":9200,"Gue":9201,"Gall":9202,"GHC":9203,"JM":9204,"KW":9205,"Kol":9206,"Kent":9207,"Knight":9208,"MPC":9209,"Nei":9210,"NIST":9211,"OLED":9212,"Phen":9213,"Pul":9214,"PDA":9215,"Q3":9216,"Rho":9217,"Sprint":9218,"T5":9219,"Thai":9220,"Ton":9221,"Vor":9222,"Zoo":9223,"area":9224,"bou":9225,"bby":9226,"clas":9227,"ccer":9228,"dral":9229,"ela":9230,"js":9231,"mund":9232,"ppi":9233,"sport":9234,"xo":9235,"Ã¹":9236,"ÄĮ":9237,"Å¾":9238,"ËĬ":9239,"ìĸ":9240,"nga":9241,"sher":9242,"deca":9243,"bution":9244,"days":9245,"sica":9246,"siden":9247,"gether":9248,"kel":9249,"tid":9250,"tif":9251,"cient":9252,"yar":9253,"tection":9254,"lated":9255,"mag":9256,"math":9257,"tuplet":9258,"tings":9259,"1037":9260,"1067":9261,"ceo":9262,"009":9263,"1216":9264,"1226":9265,"1255":9266,"mana":9267,"1155":9268,"1158":9269,"1142":9270,"1143":9271,"1154":9272,"woo":9273,"rex":9274,"1418":9275,"1494":9276,"1347":9277,"1367":9278,"1374":9279,"heim":9280,"force":9281,"index":9282,"ï¼Ĳ":9283,"rot":9284,"alo":9285,"0.17":9286,"0.48":9287,"0.34":9288,"0.42":9289,"0.98":9290,"0.8%":9291,"coc":9292,"conv":9293,"ãģĲ":9294,"1.37":9295,"2.36":9296,"ãĤ®":9297,"Mason":9298,"Major":9299,"SEL":9300,"Reference":9301,"els":9302,"ello":9303,"etro":9304,"Mill":9305,"67.":9306,"ATENU":9307,"peti":9308,"ism":9309,"iso":9310,"wide":9311,"Visa":9312,"Pak":9313,"Paper":9314,"film":9315,"Stadia":9316,"Moni":9317,"Gap":9318,"using":9319,"conda":9320,"kina":9321,"Belie":9322,"Case":9323,"Bak":9324,"Sales":9325,"Nation":9326,"Naver":9327,"Hori":9328,"Stein":9329,"Dog":9330,"Riot":9331,"Complex":9332,"Commercial":9333,"Nix":9334,"Unity":9335,"1107":9336,"Pitch":9337,"eds":9338,"ETF":9339,"Foreign":9340,"ffin":9341,"reau":9342,"UND":9343,"âĪ¶":9344,"AVBW":9345,"ADHD":9346,"tors":9347,"jave":9348,"DAY":9349,"Hughe":9350,"OpenMP":9351,"Performance":9352,"Barry":9353,"Studies":9354,"kyo":9355,"Shah":9356,"SCs":9357,"Vocal":9358,"Canon":9359,"Universe":9360,"lena":9361,"Eugene":9362,"WTA1000":9363,"ï¹Ķ":9364,"wind":9365,"YPE":9366,"Markdown":9367,"STARSHIP":9368,"vsky":9369,"Spiri":9370,"Japanese":9371,"NEW":9372,"Zip":9373,"Lauren":9374,"stance":9375,"Dennis":9376,"Phoe":9377,".00%":9378,"Crye":9379,"culture":9380,"TIME":9381,"ArcGIS":9382,"LUNA":9383,"Synthe":9384,"Podcast":9385,"16V240ZJ":9386,"Electronic":9387,"Economic":9388,"Isoxys":9389,"Integra":9390,"vaila":9391,"Congress":9392,"CRH380":9393,"California":9394,"Challenge":9395,"Empire":9396,"KADOKAWA":9397,"023":9398,"062":9399,"1B":9400,"739":9401,"763":9402,"7.5%":9403,"Av":9404,"Alv":9405,"Aar":9406,"Aga":9407,"AIT":9408,"Brain":9409,"Eni":9410,"Fis":9411,"June":9412,"K1":9413,"Kri":9414,"KCON":9415,"SVO":9416,"VAR":9417,"VTuber":9418,"WTO":9419,"WRK":9420,"bru":9421,"d8":9422,"dz":9423,"eh":9424,"fon":9425,"fera":9426,"ggy":9427,"hof":9428,"kei":9429,"oth":9430,"qa":9431,"sc":9432,"uk":9433,"uu":9434,"ular":9435,"v2":9436,"ËĲ":9437,"Ìģ":9438,"ØŃ":9439,"ê³":9440,"eira":9441,"unsigned":9442,"hedron":9443,"miss":9444,"20.8":9445,"rix":9446,"ride":9447,"leh":9448,"guration":9449,"lur":9450,"nant":9451,"minor":9452,"lac":9453,"turing":9454,"10H":9455,"1014":9456,"cana":9457,"1228":9458,"1285":9459,"1273":9460,"1119":9461,"1162":9462,"pora":9463,"15.8":9464,"15.6":9465,"1428":9466,"1445":9467,"14.7":9468,"1320":9469,"1312":9470,"13.9":9471,"1377":9472,"1352":9473,"1389":9474,"21.3":9475,"stol":9476,"1008":9477,"0.36":9478,"0.63":9479,"ternal":9480,"Maple":9481,"INA":9482,"SEA":9483,"Ready":9484,"ely":9485,"ATR":9486,"pea":9487,"Rosen":9488,"Ronald":9489,"hos":9490,"57%":9491,"88.":9492,"Pari":9493,"776":9494,"Lec":9495,"Lepto":9496,"Gag":9497,"Dame":9498,"kir":9499,"Search":9500,"APT":9501,"ToHeart":9502,"Tommy":9503,"compu":9504,"Kick":9505,"Well":9506,"1102":9507,"1103":9508,"ITS":9509,"got":9510,"1401":9511,"blem":9512,"kom":9513,"lled":9514,"Hey":9515,"MSP":9516,"Butter":9517,"DSR":9518,"REAL":9519,"Audi":9520,"0.52":9521,"Private":9522,"OpenGL":9523,"Perry":9524,"Korea":9525,"à¤¤":9526,"Julian":9527,"SPARC":9528,"Pure":9529,"GPT":9530,"Dura":9531,"Herbert":9532,"Islands":9533,"WTA125":9534,"Trade":9535,"Showcase":9536,"About":9537,"Bradley":9538,"DEET":9539,"Leader":9540,"CGI":9541,"close":9542,"ð«Ł":9543,"Senior":9544,"bilibili":9545,"spaceflight":9546,"Laura":9547,"CF3":9548,"Magnum":9549,"Emma":9550,"Environ":9551,"Grove":9552,"INNER":9553,"Collins":9554,"JUST":9555,"Federal":9556,"XC60":9557,"Shane":9558,"C5H5":9559,"Justice":9560,"MMORPG":9561,"Alto":9562,"BLEACH":9563,"Texas":9564,"Francesco":9565,"STEREO":9566,"Smalltalk":9567,"Documentary":9568,"Lloyd":9569,"svg":9570,"allocator":9571,"ORICON":9572,"lambda":9573,"Graphics":9574,"CUBRID":9575,"Hughes":9576,"ToHeart2":9577,"021":9578,"033":9579,"043":9580,"053":9581,"1b":9582,"4300":9583,"8X":9584,"A6":9585,"Alo":9586,"Amy":9587,"BG":9588,"C8":9589,"C13":9590,"DASH":9591,"Eat":9592,"FU":9593,"FAA":9594,"Gang":9595,"Ire":9596,"Invi":9597,"Lol":9598,"LET":9599,"MH":9600,"Mw":9601,"Ng":9602,"Nes":9603,"NER":9604,"OO":9605,"Octo":9606,"Pt":9607,"PAD":9608,"PTT":9609,"Ptr":9610,"QT":9611,"Root":9612,"S6":9613,"Sri":9614,"S26":9615,"Sus":9616,"SDR":9617,"Tong":9618,"THC":9619,"TOSHI":9620,"VWF":9621,"WG":9622,"Wes":9623,"adi":9624,"ase":9625,"availa":9626,"bl":9627,"blue":9628,"fety":9629,"grou":9630,"ita":9631,"kDa":9632,"lder":9633,"nn":9634,"onal":9635,"sz":9636,"tone":9637,"Ã²":9638,"Ð¶":9639,"Ø´":9640,"ë³":9641,"ëı":9642,"lix":9643,"lich":9644,"reno":9645,"sier":9646,"fur":9647,"mistry":9648,"tative":9649,"rica":9650,"lations":9651,"maxi":9652,"1076":9653,"1095":9654,"rand":9655,"randa":9656,"kam":9657,"1248":9658,"mans":9659,"1118":9660,"1131":9661,"1145":9662,"1178":9663,"regu":9664,"requi":9665,"sas":9666,"16.7":9667,"ones":9668,"1423":9669,"1422":9670,"1479":9671,"14.1":9672,"1482":9673,"1327":9674,"1357":9675,"1398":9676,"13.1":9677,"1383":9678,"1381":9679,"formo":9680,"pala":9681,"information":9682,"arn":9683,"ï¼¢":9684,"rock":9685,".56%":9686,"1003":9687,"0.38":9688,"0.67":9689,"0.61":9690,"1.00":9691,"1.02":9692,"logue":9693,"Mak":9694,"Maha":9695,"Cow":9696,"best":9697,"Infan":9698,"Infra":9699,"Report":9700,"elle":9701,".92%":9702,"Middle":9703,"Libre":9704,"Rocket":9705,"SAAB":9706,"Member":9707,"tsch":9708,"WiFi":9709,"Mojave":9710,"Joint":9711,"AMMA":9712,"Gabri":9713,"Dau":9714,"Dash":9715,"Tem":9716,"Tell":9717,"893":9718,"Beam":9719,"Alco":9720,"Popu":9721,"communi":9722,"Rio":9723,"pple":9724,"MVV":9725,"SSP":9726,"1101":9727,"1109":9728,"llis":9729,"ASO":9730,"Parti":9731,"Tau":9732,"IVER":9733,"BLS":9734,"But":9735,"Bubble":9736,"weak":9737,"2.5%":9738,"Huang":9739,"Kee":9740,"Perl":9741,"Perfect":9742,"à¤¨":9743,"à¤Ĥ":9744,"Harrison":9745,"NO3":9746,"Julie":9747,"stin":9748,"EEEE":9749,"Orien":9750,"Graph":9751,"ï¹ķ":9752,"Thom":9753,"Forum":9754,"Phili":9755,"Warri":9756,"Esports":9757,"737MAX":9758,"Walk":9759,"ï¸ģ":9760,"Smile":9761,"Chuck":9762,"special":9763,"Woman":9764,"Elite":9765,"frac":9766,"Blues":9767,"CMOS":9768,"gregate":9769,"âīĪ":9770,"á¹Ń":9771,"FAT32":9772,"Obser":9773,"Desk":9774,"scale":9775,"Opti":9776,"Medicine":9777,"CASH":9778,"COLLECTION":9779,"Community":9780,"Cultural":9781,"Australia":9782,"Spark":9783,"Connect":9784,"alism":9785,"African":9786,"Cathedral":9787,"archive":9788,"Evans":9789,"gamer":9790,"TEP70":9791,"Analysis":9792,"Melody":9793,"Kotaku":9794,"rostris":9795,"GitHub":9796,"Danger":9797,"Shanghai":9798,"Execu":9799,"018":9800,"046":9801,"032":9802,"073":9803,"093":9804,"2O":9805,"2PM":9806,"4.5%":9807,"5200":9808,"Az":9809,"Clay":9810,"Duo":9811,"DIN":9812,"E6":9813,"ESA":9814,"EH10":9815,"G7":9816,"G10":9817,"G11":9818,"Grea":9819,"HIS":9820,"IMI":9821,"JST":9822,"JUN":9823,"KG":9824,"Kr":9825,"LPGA":9826,"M8":9827,"Ober":9828,"Pine":9829,"R4":9830,"S8":9831,"SIL":9832,"Trou":9833,"Tree":9834,"VIII":9835,"Wy":9836,"WAVE":9837,"YU":9838,"Zan":9839,"ZIP":9840,"dB":9841,"ess":9842,"echo":9843,"glio":9844,"pf":9845,"sr":9846,"ure":9847,"ume":9848,"ÄŁ":9849,"á½":9850,"ë§":9851,"ìĨ":9852,"dec":9853,"eing":9854,"lil":9855,"lion":9856,"dier":9857,"sik":9858,"full":9859,"kell":9860,"bike":9861,"mil":9862,"leg":9863,"lez":9864,"cip":9865,"nier":9866,"bot":9867,"mak":9868,"mote":9869,"kus":9870,"kura":9871,"102.":9872,"1065":9873,"1055":9874,"1057":9875,"1094":9876,"rant":9877,"18.3":9878,"1238":9879,"1239":9880,"12.9":9881,"1293":9882,"1115":9883,"1157":9884,"1179":9885,"popu":9886,"resu":9887,"1518":9888,"language":9889,"16.6":9890,"17.8":9891,"1452":9892,"1325":9893,"bine":9894,"inclu":9895,"22.3":9896,"aro":9897,"next":9898,"roe":9899,"race":9900,"cube":9901,"ãĥ¤":9902,"ally":9903,"0.19":9904,"0.66":9905,"0.99":9906,"0.62":9907,"0.87":9908,"0.7%":9909,"1.38":9910,"1.06":9911,"1.07":9912,"1.08":9913,"thes":9914,"offee":9915,"ãĤ²":9916,"Magi":9917,"Cohen":9918,"Cold":9919,"bee":9920,"Intro":9921,"SEVEN":9922,"Return":9923,"ATT":9924,"ndrome":9925,"Dece":9926,"Destru":9927,"fishing":9928,"Mos":9929,"Moha":9930,"Most":9931,"Josh":9932,"Promotion":9933,"contra":9934,"Fitz":9935,"Radi":9936,"ISL":9937,"Cape":9938,"Toyo":9939,"Tokyo":9940,"86.":9941,"JRA":9942,"Factor":9943,"Biz":9944,"Saba":9945,"Nate":9946,"Sonic":9947,"compa":9948,"Howe":9949,"IPC":9950,"ANET":9951,"Muhammad":9952,"Wells":9953,"1.55":9954,"1.57":9955,"Gior":9956,"Any":9957,"SMRT":9958,"kos":9959,"Gear":9960,"IVB":9961,"Bush":9962,"Bull":9963,"Enri":9964,"could":9965,"1126":9966,"AKB":9967,"REM":9968,"Ford":9969,"Fortran":9970,"call":9971,"SOLO":9972,"Schmi":9973,"IAU":9974,"japo":9975,"respon":9976,"1184":9977,"Hua":9978,"OpenAI":9979,"HOL":9980,"RISE":9981,"Julius":9982,"EXID":9983,"odd":9984,"Jesus":9985,"Shake":9986,"Administra":9987,"NHL":9988,"Origin":9989,"Disk":9990,"ãĦľ":9991,"Thorn":9992,"troff":9993,"Kura":9994,"Universit":9995,"GamesRadar":9996,"Hanteo":9997,"crew":9998,"Hydro":9999,"âĹİ":10000,"Freestyle":10001,"Holmes":10002,"Willie":10003,"WoRMS":10004,"GTX":10005,"Turtle":10006,"since":10007,"Agri":10008,"Rankings":10009,"CMAMMA":10010,"tiative":10011,"Render":10012,"Comics":10013,"Earl":10014,"Flower":10015,"partner":10016,"âĳ¡":10017,"Truth":10018,"OPEN":10019,"âĩĴ":10020,"techno":10021,"Falcom":10022,"Image":10023,"Lawrence":10024,"Range":10025,"âĤ¬":10026,"LZ77":10027,"Wonderful":10028,"Justin":10029,"sease":10030,"P2P":10031,"metery":10032,"WHIP":10033,"config":10034,"Higgins":10035,"PXA":10036,"Associates":10037,"1xEV":10038,"Spencer":10039,"April":10040,"016":10041,"056":10042,"1D":10043,"1199":10044,"8.3%":10045,"Amp":10046,"BK":10047,"BET":10048,"BTR":10049,"Born":10050,"BERT":10051,"Cyan":10052,"Chun":10053,"Dum":10054,"Deri":10055,"DATA":10056,"Ev":10057,"ETC":10058,"Fen":10059,"Flu":10060,"Foo":10061,"Fur":10062,"Gring":10063,"IAL":10064,"Iden":10065,"JA":10066,"JSON":10067,"KON":10068,"Mys":10069,"M110":10070,"NSA":10071,"NTO":10072,"NME":10073,"OMG":10074,"OEM":10075,"RV":10076,"RLE":10077,"RNC":10078,"Sci":10079,"Scan":10080,"SNA":10081,"S.4":10082,"SCP":10083,"SING":10084,"TX":10085,"TAS":10086,"Vas":10087,"WR":10088,"Whe":10089,"WINNER":10090,"XL":10091,"Y2":10092,"YON":10093,"Zim":10094,"a2":10095,"alt":10096,"cara":10097,"equi":10098,"gly":10099,"oid":10100,"osaurus":10101,"pun":10102,"sm":10103,"tland":10104,"vine":10105,"Ðķ":10106,"ÐĽ":10107,"Õ¶":10108,"Ø¹":10109,"Ùĩ":10110,"ð¨":10111,"xiv":10112,"deg":10113,"yung":10114,"ense":10115,"iant":10116,"divi":10117,"dah":10118,"bil":10119,"tizen":10120,"mira":10121,"tak":10122,"20S":10123,"level":10124,"levard":10125,"yet":10126,"hail":10127,"pical":10128,"lag":10129,"lak":10130,"lat":10131,"mae":10132,"bass":10133,"yunnanensis":10134,"lana":10135,"lvi":10136,"liner":10137,"1022":10138,"1090":10139,"1085":10140,"channel":10141,"1213":10142,"1257":10143,"1294":10144,"1292":10145,"poin":10146,"posed":10147,"15.3":10148,"orbit":10149,"1431":10150,"1323":10151,"1362":10152,"mount":10153,"ï¼Ĭ":10154,"near":10155,"never":10156,"roll":10157,"cuit":10158,"1004":10159,"0.37":10160,"0.47":10161,"0.78":10162,"0.85":10163,"0.72":10164,"found":10165,"coordina":10166,"ãģ¸":10167,"1.82":10168,"2.14":10169,"2.37":10170,"2.78":10171,"ãĤ´":10172,"45.5":10173,"vector":10174,"INAX":10175,"belle":10176,"50000":10177,"Independent":10178,"6400":10179,"hir":10180,"histo":10181,"6800":10182,"etra":10183,"Mii":10184,"Lili":10185,"versary":10186,"Rodri":10187,"59%":10188,"Pale":10189,"Develo":10190,"Stay":10191,"795":10192,"OSI":10193,"Labora":10194,"COO":10195,"COUN":10196,"Levi":10197,"Tee":10198,"Dio":10199,"Signature":10200,"85.":10201,"Need":10202,"Rare":10203,"60000":10204,"ACM":10205,"Tonight":10206,"Logo":10207,"stage":10208,"Dota":10209,"Rights":10210,"Hau":10211,"Compi":10212,"Sugar":10213,"Chara":10214,"ITE":10215,"ITY":10216,"ITIL":10217,"ITION":10218,"1305":10219,"ASV":10220,"Content":10221,"Linked":10222,"à¸¥":10223,"à¸Ħ":10224,"EPROM":10225,"Cara":10226,"cous":10227,"Got":10228,"RECO":10229,"volu":10230,"entry":10231,"endy":10232,"2.08":10233,"MOVIE":10234,"Manuel":10235,"SOHR":10236,"Luke":10237,"5.00":10238,"Rush":10239,"Ruth":10240,"NGO":10241,"Perez":10242,"Harvey":10243,"Add":10244,"services":10245,"Chey":10246,"lene":10247,"URR":10248,"quin":10249,"Travis":10250,"Cele":10251,"Essen":10252,"PLUS":10253,"Shir":10254,"Eleven":10255,"Survey":10256,"GAINAX":10257,"ddr":10258,"SUMM":10259,"German":10260,"Gerald":10261,"Agda":10262,"Virgin":10263,"Ernest":10264,"GEO":10265,"electro":10266,"à¹Ī":10267,"Regional":10268,"OMON":10269,"school":10270,"Beauty":10271,"Police":10272,"oire":10273,"Secretary":10274,"Ahmad":10275,"Philippe":10276,"Maurice":10277,"Bailey":10278,"FIBA":10279,"íķĺ":10280,"Ranger":10281,"CinemaScore":10282,"Crush":10283,"Break":10284,"hind":10285,"because":10286,"NICONICO":10287,"Gregory":10288,"POSIX":10289,"Utada":10290,"Piazza":10291,"fault":10292,"Mamba":10293,"Russian":10294,"Psycho":10295,"Sophie":10296,"DisplayPort":10297,"Another":10298,"TensorFlow":10299,"ê¹Ģ":10300,"Pedro":10301,"Calligra":10302,"Paradise":10303,"October":10304,"December":10305,"Gringoire":10306,"015":10307,"024":10308,"048":10309,"047":10310,"058":10311,"069":10312,"3S":10313,"Abi":10314,"Bli":10315,"BED":10316,"Bron":10317,"CY":10318,"Cheng":10319,"Crui":10320,"Cum":10321,"Crew":10322,"DONG":10323,"Eco":10324,"Ella":10325,"Fed":10326,"Ft2":10327,"FIVB":10328,"Gru":10329,"GTA":10330,"GCC":10331,"Glass":10332,"GLP":10333,"HU":10334,"Hya":10335,"Hindu":10336,"IK":10337,"K230":10338,"Lor":10339,"LSD":10340,"Mong":10341,"M113":10342,"MENT":10343,"N6":10344,"Oo":10345,"PAC":10346,"QF":10347,"Qi":10348,"Ryu":10349,"Sli":10350,"UV":10351,"Was":10352,"Xa":10353,"XDC":10354,"Zy":10355,"Zin":10356,"ale":10357,"ack":10358,"asso":10359,"c3":10360,"cp":10361,"d3":10362,"fr":10363,"ix":10364,"lb":10365,"mpa":10366,"rdo":10367,"sei":10368,"tree":10369,"wes":10370,"zero":10371,"Â®":10372,"â½":10373,"ëª":10374,"ano":10375,"deli":10376,"demo":10377,"enos":10378,"lici":10379,"young":10380,"dak":10381,"dara":10382,"dacty":10383,"gem":10384,"tivity":10385,"talis":10386,"2032":10387,"20.7":10388,"rik":10389,"dum":10390,"duction":10391,"tet":10392,"mab":10393,"mah":10394,"bac":10395,"meni":10396,"tuber":10397,"surance":10398,"mona":10399,"money":10400,"nau":10401,"1034":10402,"1044":10403,"1087":10404,"1093":10405,"sec":10406,"secu":10407,"tane":10408,"1210":10409,"1249":10410,"1251":10411,"1152":10412,"revision":10413,"15.2":10414,"onto":10415,"onso":10416,"1410":10417,"1411":10418,"1336":10419,"1344":10420,"1359":10421,"1361":10422,"1395":10423,"25K":10424,"25T":10425,"fort":10426,"instru":10427,"ardo":10428,"mean":10429,"null":10430,"ï¼ĥ":10431,"rov":10432,"roy":10433,"rose":10434,".55%":10435,".59%":10436,"1007":10437,"1009":10438,"0.16":10439,"0.44":10440,"0.76":10441,"1.18":10442,"1.12":10443,"1.17":10444,"1.27":10445,"1.29":10446,"1.63":10447,"35000":10448,"thia":10449,"Macin":10450,"3.7%":10451,"46A":10452,"bella":10453,"4700":10454,"Insi":10455,"Index":10456,"Reser":10457,".95%":10458,".99%":10459,"5800":10460,".69%":10461,"atta":10462,"veri":10463,"Mea":10464,"40000":10465,"Path":10466,"Package":10467,"Dee":10468,"Dem":10469,"Dev":10470,"CDC":10471,"98A":10472,"Lama":10473,"gil":10474,"Provin":10475,"1205":10476,"1209":10477,"APH":10478,"Total":10479,"Bahn":10480,"Pocket":10481,"Soccer":10482,"Command":10483,"Sung":10484,"HDR":10485,"Wee":10486,"SSD":10487,"1.54":10488,"1.58":10489,"Giu":10490,"SMTOWN":10491,"Ching":10492,"llation":10493,"Heller":10494,"ENCE":10495,"à¸¢":10496,"Bul":10497,"Interface":10498,"MyRadio":10499,"2.02":10500,"Manu":10501,"AGB":10502,"0.51":10503,"sics":10504,"Scho":10505,"jective":10506,"Luck":10507,"DRT":10508,"DAO":10509,"MCA":10510,"cording":10511,"Franco":10512,"Perfu":10513,"à¤¦":10514,"Triple":10515,"Chemical":10516,"Dancing":10517,"Normal":10518,"Isra":10519,"Grey":10520,"track":10521,"Think":10522,"ï¹ŀ":10523,"UEFA":10524,"Brad":10525,"Panzer":10526,"Chow":10527,"white":10528,"Official":10529,"FFT":10530,"elect":10531,"SRP":10532,"OMR":10533,"orien":10534,"Palace":10535,"Stephan":10536,"Clostri":10537,"Mitchie":10538,"AXN":10539,"DIY":10540,"Gilbert":10541,"Communications":10542,"Eyes":10543,"Lunar":10544,"S4N4":10545,"Jeffrey":10546,"Transit":10547,"vatory":10548,"Manga":10549,"Kennedy":10550,"Industries":10551,"VISION":10552,"Adventure":10553,"Phillips":10554,"Nelson":10555,"Financial":10556,"possible":10557,"Vladi":10558,"Canadian":10559,"coccus":10560,"AVBWU":10561,"Phoebus":10562,"Aaron":10563,"Ireland":10564,"available":10565,"COUNT":10566,"LinkedIn":10567,"Macintosh":10568,"035":10569,"086":10570,"1201":10571,"5300":10572,"6K":10573,"856":10574,"Aki":10575,"Aur":10576,"BER":10577,"Chao":10578,"C12":10579,"Coffee":10580,"DMA":10581,"EI":10582,"Ery":10583,"ENA":10584,"E5%":10585,"Estate":10586,"FW":10587,"Fei":10588,"FAD":10589,"FDG":10590,"Grun":10591,"H8":10592,"Hang":10593,"H12":10594,"Honey":10595,"Ide":10596,"ILO":10597,"Irish":10598,"Joo":10599,"JIT":10600,"M7":10601,"M16":10602,"M41":10603,"Mall":10604,"NV":10605,"PQ":10606,"Prai":10607,"Pool":10608,"Pain":10609,"PAO":10610,"Rin":10611,"RAC":10612,"Swa":10613,"Sandy":10614,"Ulti":10615,"Ves":10616,"Ward":10617,"Why":10618,"action":10619,"ctic":10620,"dson":10621,"exit":10622,"goo":10623,"kor":10624,"phen":10625,"pth":10626,"plus":10627,"whe":10628,"ÄĹ":10629,"ÉĽ":10630,"Î¦":10631,"Î¾":10632,"Îļ":10633,"Ø¬":10634,"ãĪ":10635,"ì¤":10636,"ìĬ":10637,"íĺ":10638,"ï»":10639,"dem":10640,"dev":10641,"dead":10642,"oura":10643,"ching":10644,"unders":10645,"div":10646,"dino":10647,"buckets":10648,"dall":10649,"sinensis":10650,"factor":10651,"titude":10652,"miya":10653,"tag":10654,"tam":10655,"tape":10656,"20.3":10657,"rii":10658,"rita":10659,"least":10660,"cie":10661,"lington":10662,"nii":10663,"nial":10664,"tele":10665,"sula":10666,"lano":10667,"lino":10668,"rani":10669,"sex":10670,"sequ":10671,"tanga":10672,"1116":10673,"113.":10674,"1141":10675,"1177":10676,"reu":10677,"wall":10678,"1416":10679,"1335":10680,"1338":10681,"1332":10682,"1384":10683,"lous":10684,"hein":10685,"nius":10686,"senet":10687,"25.5":10688,"25.6":10689,"mour":10690,"mous":10691,"numeri":10692,"0001":10693,"nea":10694,"stle":10695,"ãĥĶ":10696,"0.50":10697,"0.71":10698,"1.15":10699,"1.13":10700,"1.80":10701,"1.68":10702,"1.3%":10703,"loa":10704,"loo":10705,"2.15":10706,"2.17":10707,"2.24":10708,"2.28":10709,"ãĤ¼":10710,"tune":10711,"terator":10712,"tok":10713,"Math":10714,"cata":10715,"cape":10716,"STEP":10717,"Inno":10718,"Informer":10719,"64BV":10720,"video":10721,"Reed":10722,"elds":10723,".01%":10724,"Mile":10725,"Lion":10726,"hop":10727,"Metal":10728,"Vil":10729,"PaK":10730,"noinclude":10731,"Launch":10732,"COP":10733,"Leu":10734,"Process":10735,"Silva":10736,"8700":10737,"Bear":10738,"advan":10739,"Cafe":10740,"Arcade":10741,"Alpert":10742,"EDM":10743,"ED60":10744,"cence":10745,"ERA":10746,"Bil":10747,"Nations":10748,"Stream":10749,"socka":10750,"Sulli":10751,"Nie":10752,"SSR":10753,"PS5":10754,"graphic":10755,"Confi":10756,"Confe":10757,"Concept":10758,"Parker":10759,"Lind":10760,"ETSI":10761,"EPUB":10762,"âĨĶ":10763,"Peak":10764,"1128":10765,"dens":10766,"called":10767,"CNBC":10768,"TAG":10769,"2.03":10770,"AGC":10771,"Schools":10772,"NCE":10773,"1181":10774,"HOUSE":10775,"club":10776,"Corne":10777,"NOAA":10778,"stice":10779,"Davies":10780,"Edwin":10781,"NH2":10782,"Hermann":10783,"CLI":10784,"Gram":10785,"Gray":10786,"Graham":10787,"Tyler":10788,"ãĦı":10789,"Guar":10790,"BanG":10791,"Track":10792,"ï¹Ŀ":10793,"Georges":10794,"Animation":10795,"AO3":10796,"Leaf":10797,"symbo":10798,"DMZ":10799,"Wally":10800,"3A4":10801,"Plant":10802,"Ferdinan":10803,"database":10804,"ctoid":10805,"Guide":10806,"broad":10807,"perial":10808,"à¥ģ":10809,"EVER":10810,"7.92":10811,"Oblast":10812,"Publishing":10813,"NMDA":10814,"SVT":10815,"THQ":10816,"Cervo":10817,"Johannes":10818,"Computing":10819,"tific":10820,"PRODU":10821,"Haskell":10822,"studio":10823,"Roundcube":10824,"Intelligence":10825,"Nathan":10826,"GROW":10827,"Railway":10828,"launches":10829,"Gym":10830,"HYBE":10831,"Architecture":10832,"district":10833,"Leonard":10834,"Eclipse":10835,"GIRL":10836,"hausen":10837,"Gibson":10838,"Atlantic":10839,"Oracle":10840,"Malaysia":10841,"9K37":10842,"Jeremy":10843,"Military":10844,"Anniversary":10845,"condary":10846,"Executive":10847,"Destructoid":10848,"XDCAM":10849,"Perfume":10850,"sockaddr":10851,"PRODUCE":10852,".2005":10853,"017":10854,"029":10855,"088":10856,"094":10857,"091":10858,"2C":10859,"4C":10860,"4Minute":10861,"7k":10862,"Amen":10863,"ADV":10864,"AES":10865,"Axe":10866,"Bing":10867,"CX":10868,"C15":10869,"C60":10870,"CES":10871,"C10H":10872,"Dam":10873,"DIS":10874,"E4":10875,"EVA":10876,"E233":10877,"FP":10878,"Fat":10879,"FTT":10880,"Gli":10881,"GSh":10882,"GHQ":10883,"HIDE":10884,"IRES":10885,"J48":10886,"L5":10887,"LUS":10888,"LIM":10889,"LAB":10890,"MID":10891,"MWe":10892,"MRT":10893,"MBE":10894,"NBS":10895,"OW":10896,"OAD":10897,"Omicron":10898,"Ple":10899,"Phan":10900,"PDC":10901,"PINK":10902,"Rao":10903,"Rein":10904,"Shen":10905,"Scu":10906,"Ses":10907,"Teng":10908,"TED":10909,"TFT":10910,"U22":10911,"UAL":10912,"WNBA":10913,"YZ":10914,"a4":10915,"ater":10916,"cian":10917,"ctional":10918,"ctionary":10919,"d6":10920,"db":10921,"dha":10922,"eling":10923,"f8":10924,"fford":10925,"gla":10926,"mL":10927,"noun":10928,"vu":10929,"ÏĪ":10930,"ê·":10931,"ð§":10932,"analy":10933,"aire":10934,"youtube":10935,"heart":10936,"six":10937,"fast":10938,"tah":10939,"2077":10940,"rion":10941,"hough":10942,"dur":10943,"mau":10944,"mati":10945,"matan":10946,"bau":10947,"nay":10948,"nalis":10949,"hand":10950,"1021":10951,"1069":10952,"1088":10953,"1061":10954,"1062":10955,"1097":10956,"1096":10957,"sexu":10958,"selen":10959,"cedu":10960,"18.8":10961,"18.7":10962,"kaya":10963,"1237":10964,"1267":10965,"12.3":10966,"1287":10967,"1175":10968,"1133":10969,"half":10970,"pana":10971,"saw":10972,"kane":10973,"1417":10974,"1446":10975,"1348":10976,"25.4":10977,"formes":10978,"21.9":10979,"22.6":10980,"memo":10981,"zas":10982,"rage":10983,".53%":10984,".54%":10985,"0.79":10986,"0.81":10987,"colo":10988,"fold":10989,"ãģĴ":10990,"ãģĸ":10991,"1.19":10992,"1.11":10993,"1.22":10994,"1.65":10995,"1.2%":10996,"1.03":10997,"1.4%":10998,"2.35":10999,"2.38":11000,"2.65":11001,"2.62":11002,"2.92":11003,"games":11004,"37.5":11005,"Mario":11006,"INI":11007,"3.98":11008,"3.06":11009,"3.8%":11010,"CoA":11011,"Cop":11012,"Cox":11013,"Coin":11014,"STOR":11015,"ssue":11016,"visi":11017,"vities":11018,"Reco":11019,"ets":11020,".06%":11021,".96%":11022,"Migue":11023,"veral":11024,"Roma":11025,"MeV":11026,"Meyer":11027,"7800":11028,"5600":11029,"Vik":11030,"Desi":11031,"ghting":11032,"fier":11033,"Start":11034,"Moto":11035,"noon":11036,"Latin":11037,"BABY":11038,"Gare":11039,"Tess":11040,"Filter":11041,"Sil":11042,"Marty":11043,"Semi":11044,"ACAF":11045,"APA":11046,"Bala":11047,"ICK":11048,"Sac":11049,"company":11050,"som":11051,"Dogs":11052,"Ticket":11053,"ppel":11054,"Chapel":11055,"SS2":11056,"ITH":11057,"ITX":11058,"Pit":11059,"Giuse":11060,"ENG":11061,"phin":11062,"wea":11063,"Form":11064,"ffy":11065,"reached":11066,"CHI":11067,"Chiesa":11068,"SOAP":11069,"Rule":11070,"MCT":11071,"Santos":11072,"Cut":11073,"phase":11074,"mony":11075,"stown":11076,"cm3":11077,"Bernar":11078,"Bright":11079,"PO4":11080,"access":11081,"ORF":11082,"Cemetery":11083,"Anima":11084,"impor":11085,"Aircraft":11086,"tzer":11087,"Croquet":11088,"Atta":11089,"played":11090,"WEB":11091,"Choice":11092,"ð«Ĭ¸":11093,"output":11094,"Eurogamer":11095,"step":11096,"LAY":11097,"âĸ³":11098,"cism":11099,"starter":11100,"systems":11101,"Counter":11102,"Venus":11103,"PDT":11104,"ìĿĺ":11105,"DDR3":11106,"Maggie":11107,"Minix":11108,"Mail":11109,"à¹ī":11110,"Franklin":11111,"Journey":11112,"C6H5":11113,"Treo":11114,"ctice":11115,"Petro":11116,"DeepMind":11117,"WOW":11118,"Hamilton":11119,"Theodore":11120,"Luna":11121,"Michelle":11122,"ception":11123,"black":11124,"Italian":11125,"Models":11126,"Ashley":11127,"âĻ¯":11128,"Robinson":11129,"Self":11130,"Felix":11131,"articles":11132,"Sultan":11133,"launched":11134,"avex":11135,"against":11136,"girl":11137,"servation":11138,"KwK":11139,"CONCACAF":11140,"Caroline":11141,"CR400AF":11142,"cription":11143,"Initiative":11144,"early":11145,"BASIC":11146,"cephalus":11147,"Electric":11148,"BACnet":11149,"Rabbit":11150,"Arnold":11151,"Platform":11152,"Oxford":11153,"Gustav":11154,"Nf6":11155,"OECD":11156,"ALX500":11157,"FILM":11158,"Alcohol":11159,"CheyTac":11160,".18":11161,"039":11162,"066":11163,"077":11164,"1G":11165,"22000":11166,"7400":11167,"9100":11168,"9500":11169,"Aka":11170,"Ast":11171,"AAC":11172,"ADS":11173,"Clin":11174,"C16":11175,"CID":11176,"CET":11177,"Effe":11178,"Fm":11179,"Fel":11180,"FAM":11181,"FAC":11182,"FAI":11183,"FRS":11184,"GY":11185,"G20":11186,"GAS":11187,"HIT":11188,"HSPA":11189,"IUP":11190,"Ibra":11191,"Igna":11192,"JW":11193,"JScript":11194,"KU":11195,"Lat":11196,"MJ":11197,"MN":11198,"MAR":11199,"MIPS":11200,"Nou":11201,"Nas":11202,"OV":11203,"Omar":11204,"OUT":11205,"Pang":11206,"PTC":11207,"Pris":11208,"PDS":11209,"Plas":11210,"Pharma":11211,"R7":11212,"S5":11213,"Ske":11214,"SDO":11215,"TRI":11216,"TBF":11217,"Train":11218,"UDP":11219,"Vu":11220,"VMS":11221,"Vali":11222,"When":11223,"X100":11224,"Yun":11225,"Yau":11226,"Z99":11227,"az":11228,"achie":11229,"bh":11230,"d2":11231,"effi":11232,"ik":11233,"ima":11234,"iden":11235,"iPod":11236,"jang":11237,"nh":11238,"ology":11239,"s1":11240,"ske":11241,"wd":11242,"Ãģ":11243,"ÎĴ":11244,"×¨":11245,"×ľ":11246,"Ùģ":11247,"Ùĥ":11248,"á¿":11249,"ãĨ":11250,"ê²":11251,"ìľ":11252,"anor":11253,"airs":11254,"shin":11255,"oul":11256,"ener":11257,"chr":11258,"lii":11259,"lico":11260,"liday":11261,"dish":11262,"erse":11263,"sine":11264,"sizer":11265,"quad":11266,"20.1":11267,"rida":11268,"19.8":11269,"gure":11270,"dult":11271,"yasa":11272,"lari":11273,"mali":11274,"bacter":11275,"chez":11276,"menta":11277,"suc":11278,"nationa":11279,"1023":11280,"1036":11281,"1033":11282,"18000":11283,"kay":11284,"1298":11285,"1117":11286,"1134":11287,"1132":11288,"1149":11289,"1172":11290,"pold":11291,"reference":11292,"wagon":11293,"hack":11294,"15.7":11295,"15.1":11296,"orang":11297,"ornis":11298,"orbital":11299,"16000":11300,"16.2":11301,"16GB":11302,"17000":11303,"17.7":11304,"17.1":11305,"1437":11306,"1334":11307,"send":11308,"24.7":11309,"28.6":11310,"input":11311,"22.8":11312,"22.7":11313,"method":11314,"rocket":11315,"stria":11316,".58%":11317,"culty":11318,"ãĥĽ":11319,"0.80":11320,"cott":11321,"1.16":11322,"1.30":11323,"1.47":11324,"1.66":11325,"1.76":11326,"1.1%":11327,"these":11328,"2.18":11329,"term":11330,"thin":11331,"too":11332,"today":11333,"gade":11334,"Maz":11335,"Mathema":11336,"3.14":11337,"TCHA":11338,"32.5":11339,"STAGE":11340,"Theory":11341,"Thelma":11342,"Retro":11343,"Resort":11344,"Resources":11345,"bring":11346,"Lily":11347,"Lidl":11348,"wson":11349,"78X":11350,"NAD":11351,"NAL":11352,"Widget":11353,"ï½ľ":11354,"Lami":11355,"Laza":11356,"COMP":11357,"Joshua":11358,"Gaze":11359,"Jake":11360,"Jazz":11361,"Dictionary":11362,"umph":11363,"Marshall":11364,"ACC":11365,"Beck":11366,"Boss":11367,"Stro":11368,"sonal":11369,"IPB":11370,"Mule":11371,"1104":11372,"PSR":11373,"Console":11374,"Chri":11375,"Kala":11376,"MSI":11377,"EPR":11378,"Cardi":11379,"Carlo":11380,"Buck":11381,"MP5":11382,"often":11383,"dents":11384,"Expo":11385,"Chica":11386,"0.53":11387,"0.54":11388,"SOHO":11389,"4.25":11390,"cycle":11391,"Fears":11392,"5.25":11393,"5.45":11394,"jay":11395,"optera":11396,"Hung":11397,"MCB":11398,"Baron":11399,"Barbara":11400,"NOAH":11401,"Study":11402,"SPE":11403,"DOWN":11404,"Monkey":11405,"Presen":11406,"President":11407,"stoma":11408,"Shaun":11409,"Shadow":11410,"tents":11411,"tinue":11412,"BEJ48":11413,"Berry":11414,"URA":11415,"Supernova":11416,"Thin":11417,"Bandar":11418,"accu":11419,"GOT7":11420,"Stock":11421,"âħ£":11422,"NSF":11423,"Speak":11424,"img":11425,"Airport":11426,"kinson":11427,"229E":11428,"DMM":11429,"Value":11430,"GABA":11431,"Chung":11432,"species":11433,"Lantis":11434,"Spir":11435,"PM2.5":11436,"Spoon":11437,"LTD":11438,"nville":11439,"Turner":11440,"KKTV":11441,"Tank":11442,"Critic":11443,"AEG":11444,"KIZ":11445,"Partner":11446,"Adams":11447,"CodeCamp":11448,"Register":11449,"UMTS":11450,"Jennie":11451,"Diego":11452,"values":11453,"Treat":11454,"death":11455,"Crystal":11456,"CANopen":11457,"KEY":11458,"ìķ¼":11459,"MultiCam":11460,"Suica":11461,"addr":11462,"address":11463,"ylent":11464,"Pont":11465,"Welcome":11466,"Jerry":11467,"Sort":11468,"Transi":11469,"onical":11470,"Apogee":11471,"freeCodeCamp":11472,"Swift":11473,"ELEVEN":11474,"models":11475,"âģµ":11476,"VISUAL":11477,"science":11478,"FIRST":11479,"B7RLE":11480,"delete":11481,"connect":11482,"Basilica":11483,"24.310":11484,"hibition":11485,"Ludwig":11486,"Patricia":11487,"parentid":11488,"methyl":11489,"Hoyts":11490,"Abraham":11491,"gorith":11492,"LUNAR":11493,"technology":11494,"RECORDS":11495,"Clostridium":11496,"Miguel":11497,"Giuseppe":11498,"011":11499,"014":11500,"025":11501,"028":11502,"026":11503,"084":11504,"082":11505,"1197":11506,"5D":11507,"6200":11508,"Aa":11509,"Apex":11510,"BJ":11511,"Bren":11512,"BEC":11513,"Cp":11514,"CRE":11515,"CSL":11516,"DY":11517,"DSS":11518,"Diana":11519,"Eo":11520,"Et":11521,"EAS":11522,"FSB":11523,"GQ":11524,"Grou":11525,"Gur":11526,"Gard":11527,"Gree":11528,"Grow":11529,"HG":11530,"HV":11531,"Hes":11532,"IES":11533,"JE":11534,"JIN":11535,"Khu":11536,"Kine":11537,"Lao":11538,"MAT":11539,"NX":11540,"Noo":11541,"Piano":11542,"RW":11543,"SIV":11544,"SCN":11545,"SHR":11546,"TZ":11547,"Tg":11548,"Tei":11549,"Tum":11550,"TYPE":11551,"UART":11552,"Usenet":11553,"Wis":11554,"WEC":11555,"WCT":11556,"WWF":11557,"XR":11558,"X200":11559,"YC":11560,"Z17":11561,"a1":11562,"ares":11563,"dden":11564,"ddy":11565,"ever":11566,"f1":11567,"fz":11568,"gri":11569,"ist":11570,"jer":11571,"kla":11572,"ln":11573,"mble":11574,"mAh":11575,"o3":11576,"pc":11577,"px":11578,"rm":11579,"sper":11580,"spha":11581,"tei":11582,"v1":11583,"wl":11584,"Äħ":11585,"ÅĻ":11586,"ÑĦ":11587,"Ñĳ":11588,"ë¬":11589,"ìĽ":11590,"ente":11591,"chol":11592,"enge":11593,"bubble":11594,"simi":11595,"bic":11596,"bilis":11597,"fall":11598,"tima":11599,"tat":11600,"tato":11601,"just":11602,"cipa":11603,"19.2":11604,"guar":11605,"dual":11606,"mul":11607,"much":11608,"yah":11609,"lais":11610,"borough":11611,"check":11612,"lane":11613,"lani":11614,"nation":11615,"1031":11616,"1073":11617,"1071":11618,"1091":11619,"1222":11620,"1245":11621,"12.4":11622,"1113":11623,"1148":11624,"1161":11625,"1171":11626,"rean":11627,"reus":11628,"restri":11629,"research":11630,"same":11631,"sara":11632,"online":11633,"1366":11634,"formed":11635,"pad":11636,"paper":11637,"22.2":11638,"arti":11639,"arts":11640,"mex":11641,"ï¼ĵ":11642,"lves":11643,"6061":11644,"1005":11645,"0.70":11646,"0.88":11647,"0.93":11648,"como":11649,"folia":11650,"1.26":11651,"1.90":11652,"1.33":11653,"1.67":11654,"1.84":11655,"1.92":11656,"1.93":11657,"2.12":11658,"2.23":11659,"2.29":11660,"2.39":11661,"2.77":11662,"2.9%":11663,"48.8":11664,"3.6%":11665,"doc":11666,"docu":11667,"Colt":11668,"33A":11669,"Innova":11670,"Thera":11671,".71%":11672,".94%":11673,".97%":11674,"Mika":11675,".66%":11676,"Liu":11677,"Role":11678,"hoc":11679,"6600":11680,"SAD":11681,"8800":11682,"NADP":11683,"derma":11684,"Mohammad":11685,"CO3":11686,"given":11687,"JoJo":11688,"Protection":11689,"894":11690,"Dir":11691,"Filip":11692,"Sign":11693,"Sierra":11694,"Rad":11695,"Rama":11696,"Race":11697,"Rachel":11698,"600V":11699,"1203":11700,"120km":11701,"Begin":11702,"Alfa":11703,"Alle":11704,"Bau":11705,"Baba":11706,"Powell":11707,"Lover":11708,"ERM":11709,"Bos":11710,"IDC":11711,"IDF":11712,"sons":11713,"Same":11714,"Strai":11715,"Him":11716,"Hide":11717,"Hika":11718,"Dome":11719,"mera":11720,"Ride":11721,"Haven":11722,"Combina":11723,"Sula":11724,"SSL":11725,"1302":11726,"Pietro":11727,"Gill":11728,"kob":11729,"Taq":11730,"Kabu":11731,"à¸Ľ":11732,"phra":11733,"Budd":11734,"ween":11735,"crown":11736,"Pew":11737,"court":11738,"sistance":11739,"Format":11740,"lory":11741,"reaming":11742,"UNO":11743,"CHILD":11744,"TOG":11745,"AG600":11746,"0.58":11747,"Schwei":11748,"Pride":11749,"1183":11750,"MC.":11751,"Corp":11752,"à¤µ":11753,"Serge":11754,"unit":11755,"DOI":11756,"Put":11757,"lerc":11758,"Share":11759,"Sharp":11760,"PPT":11761,"SCAR":11762,"SCAP":11763,"Assistant":11764,"Isla":11765,"Canal":11766,"donna":11767,"Starship":11768,"Warren":11769,"Blog":11770,"herty":11771,"Vevo":11772,"Vehicle":11773,"thic":11774,"Janet":11775,"Years":11776,"Bryan":11777,"Chorus":11778,"thority":11779,"Campus":11780,"Campaign":11781,"Spike":11782,"Josef":11783,"Torrent":11784,"Jeans":11785,"Skype":11786,"warm":11787,"Guin":11788,"PHA":11789,"Transport":11790,"USB4":11791,"ttom":11792,"Database":11793,"morrow":11794,"AEW":11795,"treme":11796,"Leslie":11797,"Reich":11798,"Boulevard":11799,"appro":11800,"Nicolas":11801,"current":11802,"Fresh":11803,"ENTER":11804,"Frost":11805,"Antoine":11806,"Murray":11807,"Murphy":11808,"wikitext":11809,"niconico":11810,"HERE":11811,"Scale":11812,"Cosmo":11813,"Anton":11814,"Italia":11815,"Eagle":11816,"á¸¥":11817,"Cruz":11818,"create":11819,"Deadline":11820,"TRAIN":11821,"virtual":11822,"EchoLink":11823,"CYP3A4":11824,"syntax":11825,"xc3":11826,"Follow":11827,"Titanic":11828,"Bruno":11829,"Alberto":11830,"museum":11831,"Defense":11832,"ëĤĺ":11833,"Aviation":11834,"Qualifying":11835,"Affairs":11836,"false":11837,"Legend":11838,"front":11839,"à¯į":11840,"Assembly":11841,"Claire":11842,"WRKY":11843,"Observatory":11844,"coustic":11845,"acknowledge":11846,"Sullivan":11847,"Ferdinand":11848,"Ticketmaster":11849,"s1mple":11850,"Chicago":11851,"022":11852,"036":11853,"037":11854,"034":11855,"049":11856,"042":11857,"098":11858,"085":11859,"097":11860,"2P":11861,"4.8%":11862,"4.4%":11863,"7A":11864,"9M":11865,"Asa":11866,"A24":11867,"Away":11868,"Alter":11869,"Abel":11870,"Beng":11871,"Blow":11872,"Cres":11873,"DQ":11874,"Dry":11875,"DKP":11876,"Est":11877,"E6%":11878,"Equi":11879,"EGO":11880,"Fas":11881,"FET":11882,"FUN":11883,"FTA":11884,"Fos":11885,"FRI":11886,"GTO":11887,"HAR":11888,"Horn":11889,"Jas":11890,"JVC":11891,"KH":11892,"KID":11893,"KHL":11894,"LTS":11895,"L129":11896,"Ming":11897,"MHC":11898,"M686":11899,"Nut":11900,"PJ":11901,"Phu":11902,"PAG":11903,"Q4":11904,"QTE":11905,"RISC":11906,"S10":11907,"T6":11908,"Thu":11909,"TION":11910,"User":11911,"V3":11912,"VK":11913,"Vau":11914,"Xin":11915,"ZIS":11916,"Zoom":11917,"camp":11918,"dney":11919,"e5":11920,"ec":11921,"epi":11922,"eth":11923,"emp":11924,"econo":11925,"f2":11926,"hood":11927,"ius":11928,"invest":11929,"oke":11930,"ppo":11931,"pton":11932,"r2":11933,"sn":11934,"uf":11935,"vul":11936,"wc":11937,"¹¬":11938,"Â¬":11939,"Äĳ":11940,"×Ł":11941,"àª":11942,"ëĮ":11943,"ì£":11944,"íĥ":11945,"ane":11946,"ance":11947,"delle":11948,"default":11949,"ention":11950,"chth":11951,"ãĢħ":11952,"weight":11953,"dil":11954,"dial":11955,"ditional":11956,"buty":11957,"dau":11958,"fusion":11959,"chung":11960,"zia":11961,"tivo":11962,"mik":11963,"mile":11964,"mise":11965,"million":11966,"2038":11967,"20.4":11968,"riya":11969,"should":11970,"19S":11971,"nance":11972,"laine":11973,"minus":11974,"pit":11975,"nit":11976,"teur":11977,"lach":11978,"chelys":11979,"mens":11980,"tula":11981,"chia":11982,"10A":11983,"1028":11984,"1089":11985,"seg":11986,"season":11987,"tanding":11988,"18.1":11989,"1223":11990,"1231":11991,"1176":11992,"1174":11993,"pole":11994,"pose":11995,"regi":11996,"relation":11997,"wara":11998,"habi":11999,"1321":12000,"heimer":12001,"park":12002,"24.9":12003,"21.2":12004,"21.1":12005,"around":12006,"27.8":12007,"nucle":12008,"rod":12009,"rol":12010,"sound":12011,"0.43":12012,"0.74":12013,"0.97":12014,"cock":12015,"foglio":12016,"1.95":12017,"2.26":12018,"2.27":12019,"2.60":12020,"2.34":12021,"2.43":12022,"2.87":12023,"2.1%":12024,"2.6%":12025,"2.8%":12026,"tore":12027,"gat":12028,"pename":12029,"INLW":12030,"3.15":12031,"3.75":12032,"3.04":12033,"domain":12034,"Colin":12035,"camatan":12036,"STAF":12037,"64DD":12038,"Rex":12039,"ooting":12040,".08%":12041,".07%":12042,".79%":12043,"Million":12044,"atro":12045,"Liver":12046,"License":12047,"ctly":12048,"ryso":12049,"Meh":12050,"Pablo":12051,"fina":12052,"BCG":12053,"Learning":12054,"AML":12055,"ARTS":12056,"Teen":12057,"Temp":12058,"Text":12059,"Silv":12060,"Simple":12061,"Sirius":12062,"Raj":12063,"Bed":12064,"Cash":12065,"vari":12066,"Arche":12067,"APER":12068,"cena":12069,"cene":12070,"Bab":12071,"Bap":12072,"Lobo":12073,"Bishop":12074,"Saga":12075,"âĶģ":12076,"compani":12077,"soli":12078,"Dock":12079,"ANGE":12080,"Sup":12081,"Nitro":12082,"Chase":12083,"Weverse":12084,"1105":12085,"Notes":12086,"1.53":12087,"1301":12088,"1303":12089,"Giba":12090,"edge":12091,"PCA":12092,"llet":12093,"Geoff":12094,"Taman":12095,"à¸¸":12096,"à¸ĩ":12097,"2.54":12098,"âĨĳ":12099,"MP7":12100,"USD":12101,"Ensign":12102,"AKS":12103,"gner":12104,"UNIQ":12105,"2.05":12106,"AVO":12107,"0.59":12108,"MIME":12109,"SOD":12110,"LEI":12111,"reement":12112,"cyc":12113,"CR200":12114,"Fe2":12115,"5.75":12116,"Rubber":12117,"Openstreet":12118,"Shock":12119,"Koh":12120,"Harper":12121,"NOT":12122,"109.":12123,"Jung":12124,"RTX":12125,"EXR":12126,"Pub":12127,"HELL":12128,"LOW":12129,"Trinity":12130,"Triumph":12131,"PPI":12132,"portation":12133,"Norton":12134,"rington":12135,"cere":12136,"Voya":12137,"trax":12138,"POVM":12139,"tism":12140,"Stories":12141,"Showtime":12142,"clef":12143,"Fuji":12144,"ABCD":12145,"zog":12146,"Aniplex":12147,"PLG":12148,"1.0%":12149,"Books":12150,"closed":12151,"Holy":12152,"GAZ":12153,"3.0%":12154,"Blackbear":12155,"garh":12156,"GMRES":12157,"ð«Ľ":12158,"spect":12159,"Campo":12160,"Rocky":12161,"Elisa":12162,"frag":12163,"BUM":12164,"Bella":12165,"KILL":12166,"element":12167,"MTU":12168,"Palm":12169,"Objective":12170,"Gross":12171,"Outlook":12172,"SHOOT":12173,"terium":12174,"Policy":12175,"Wayne":12176,"DLU":12177,"Joyce":12178,"Nano":12179,"Want":12180,"Beatles":12181,"aggregate":12182,"sizeof":12183,"Create":12184,"cional":12185,"wikipedia":12186,"Metropolitan":12187,"Imagina":12188,"cultural":12189,"Frontier":12190,"Afternoon":12191,"ITV4":12192,"country":12193,"plc":12194,"Heroes":12195,"highlight":12196,"constructor":12197,"Strike":12198,"BitTorrent":12199,"Without":12200,"Matchday":12201,"Deutsch":12202,"NATO":12203,"ð°¹¬":12204,"Leonardo":12205,"Teddy":12206,"Mullvad":12207,"Feature":12208,"Snap":12209,"Whats":12210,"quarter":12211,"properties":12212,"Municipal":12213,"Philoso":12214,"Ukrai":12215,"hynchus":12216,"Rivella":12217,"Armstrong":12218,"Synthesizer":12219,"Integrated":12220,"Leclerc":12221,"Gabriel":12222,"SEVENTEEN":12223,"Derived":12224,"Essential":12225,"DONGKIZ":12226,"Israel":12227,"numeric":12228,"cedure":12229,"Ibrahim":12230,"Lamigo":12231,"SHRDLU":12232,"syntaxhighlight":12233,"Openstreetmap":12234,".2020":12235,"019":12236,"044":12237,"059":12238,"092":12239,"5.7%":12240,"7.8%":12241,"7.4%":12242,"8A":12243,"9.5%":12244,"9.6%":12245,"Azi":12246,"Aya":12247,"Actor":12248,"Aqua":12249,"Acid":12250,"Bong":12251,"Bring":12252,"CMP":12253,"DW":12254,"Exi":12255,"ECO":12256,"Esta":12257,"Frea":12258,"Frie":12259,"G5":12260,"GJ":12261,"GPa":12262,"Glas":12263,"GCM":12264,"GDB":12265,"Hus":12266,"HAP":12267,"Hour":12268,"HAPP":12269,"IETF":12270,"KR":12271,"Kwan":12272,"Kryo":12273,"LJ":12274,"MPa":12275,"MCO":12276,"MIP":12277,"NW":12278,"OB":12279,"OFF":12280,"PSA":12281,"PH2":12282,"PFA":12283,"Q2":12284,"RH":12285,"R16":12286,"RNG":12287,"RAF":12288,"S9":12289,"Ska":12290,"Sad":12291,"Scar":12292,"Skin":12293,"TK":12294,"Tat":12295,"Ut":12296,"UTA":12297,"UFS":12298,"W3":12299,"ax":12300,"acu":12301,"c1":12302,"d1":12303,"dh":12304,"exi":12305,"equ":12306,"eHow":12307,"fluo":12308,"fro":12309,"flor":12310,"fps":12311,"festi":12312,"g2":12313,"gr":12314,"ghi":12315,"iu":12316,"idea":12317,"jara":12318,"lers":12319,"ott":12320,"squ":12321,"vn":12322,"xton":12323,"yx":12324,"É£":12325,"×ĳ":12326,"ë¡":12327,"ë¯":12328,"ì²":12329,"announ":12330,"dee":12331,"dere":12332,"shift":12333,"chor":12334,"lization":12335,"uno":12336,"dig":12337,"dir":12338,"dilla":12339,"bul":12340,"erry":12341,"sina":12342,"geon":12343,"zil":12344,"fare":12345,"tiali":12346,"take":12347,"2033":12348,"leen":12349,"19.9":12350,"gul":12351,"duce":12352,"yat":12353,"rule":12354,"nite":12355,"nion":12356,"nifer":12357,"lab":12358,"lapa":12359,"latt":12360,"macro":12361,"sant":12362,"mora":12363,"moto":12364,"kur":12365,"puk":12366,"pura":12367,"1048":12368,"1058":12369,"1077":12370,"1098":12371,"1084":12372,"sep":12373,"celo":12374,"1233":12375,"manu":12376,"mania":12377,"1112":12378,"1146":12379,"1164":12380,"1167":12381,"1156":12382,"havi":12383,"sale":12384,"17.6":12385,"17.3":12386,"14000":12387,"1436":12388,"14.2":12389,"14.3":12390,"1473":12391,"1322":12392,"1339":12393,"13.0":12394,"1379":12395,"1353":12396,"fork":12397,"pard":12398,"patter":12399,"28.5":12400,"mee":12401,"stei":12402,"rath":12403,"100m":12404,"0.90":12405,"0.64":12406,"0.77":12407,"0.86":12408,"0.83":12409,"cost":12410,"1.20":12411,"1.21":12412,"1.28":12413,"1.50":12414,"1.32":12415,"1.78":12416,"1.61":12417,"1.01":12418,"1.8%":12419,"theore":12420,"loon":12421,"loss":12422,"2.31":12423,"2.45":12424,"2.63":12425,"tolo":12426,"Mali":12427,"Mama":12428,"INV":12429,"3.33":12430,"3.1%":12431,"Coco":12432,"Coast":12433,"Copy":12434,"capa":12435,"caster":12436,"bey":12437,"STUD":12438,"These":12439,"vita":12440,"vivo":12441,"SEGA":12442,"Rec":12443,"history":12444,".73%":12445,"MiG":12446,"ats":12447,"42V":12448,"typename":12449,"hot":12450,"5700":12451,"SAC":12452,"wish":12453,"Mechani":12454,"Papa":12455,"DeO":12456,"WinZip":12457,"Stat":12458,"9860":12459,"node":12460,"Lay":12461,"Late":12462,"Ladies":12463,"BAE":12464,"COB":12465,"gium":12466,"giving":12467,"Jolin":12468,"Joker":12469,"Teach":12470,"Fighter":12471,"Sight":12472,"100000":12473,"nals":12474,"Marsh":12475,"Marti":12476,"Rafa":12477,"Sexy":12478,"ACA":12479,"Bever":12480,"Caf":12481,"Armen":12482,"Argen":12483,"Allan":12484,"Todd":12485,"ICLEI":12486,"stack":12487,"Safety":12488,"complete":12489,"Homo":12490,"Holo":12491,"ONT":12492,"solution":12493,"merce":12494,"Hap":12495,"Combat":12496,"Tidal":12497,"Weber":12498,"SSRI":12499,"steri":12500,"Contro":12501,"llard":12502,"llable":12503,"Tawan":12504,"Kali":12505,"IVPP":12506,"ENS":12507,"ALBUM":12508,"BLG":12509,"Carr":12510,"2.59":12511,"ROCm":12512,"cour":12513,"AKA":12514,"REAPER":12515,"âĪĩ":12516,"Myki":12517,"CHA":12518,"2.09":12519,"myr":12520,"SOI":12521,"without":12522,"ADP":12523,"4.38":12524,"6.11":12525,"GBU":12526,"Lucy":12527,"Prison":12528,"5.27":12529,"BMC":12530,"opsis":12531,"3.53":12532,"Santo":12533,"Santhal":12534,"network":12535,"Corps":12536,"Barnes":12537,"à¤ª":12538,"à¤¸":12539,"Jules":12540,"SPEC":12541,"Monu":12542,"within":12543,"stom":12544,"tempo":12545,"Trino":12546,"Trilogy":12547,"EEG":12548,"Chemistry":12549,"Bern":12550,"Berlin":12551,"12747":12552,"cera":12553,"CLR":12554,"Brow":12555,"exp":12556,"experi":12557,"display":12558,"Fusion":12559,"ABB":12560,"Wars":12561,"Porter":12562,"PVC":12563,"FMEDA":12564,"UCIL":12565,"Grande":12566,"Highway":12567,"Atlas":12568,"Wallace":12569,"Short":12570,"KBS2":12571,"EMBA":12572,"Jackie":12573,"specific":12574,"TimeSignature":12575,"PyQt":12576,"Spider":12577,"Centro":12578,"VOD":12579,"Scotland":12580,"SUGO":12581,"Amazing":12582,"Tournament":12583,"Route":12584,"WSBL":12585,"Flex":12586,"Virtua":12587,"Heath":12588,"KKday":12589,"MUK":12590,"Tanfoglio":12591,"áĢº":12592,"LonWorks":12593,"Builder":12594,"Florence":12595,"à¹Į":12596,"zzle":12597,"Regiment":12598,"32.4%":12599,"Curtis":12600,"DiePie":12601,"Blockberry":12602,"reis":12603,"Oscar":12604,"Really":12605,"printf":12606,"Runaway":12607,"áĥĲ":12608,"CASP":12609,"Ahmed":12610,"Wikipedia":12611,"KELT":12612,"aceae":12613,"Athle":12614,"Wireless":12615,"WOWOW":12616,"MarketAxe":12617,"included":12618,"Rounds":12619,"Still":12620,"âĤĤ":12621,"Campbell":12622,"Sorry":12623,"extra":12624,"Kitty":12625,"presentation":12626,"Standards":12627,"Birth":12628,"Swiss":12629,"MakerVille":12630,"Hands":12631,"Gonza":12632,"Structure":12633,"IMDB":12634,"052D":12635,"Morningstar":12636,"Industrial":12637,"ownCloud":12638,"building":12639,"medical":12640,"Adventures":12641,"Cookie":12642,"Phillip":12643,"Manager":12644,"ð°¾":12645,"CR400BF":12646,"Writer":12647,"different":12648,"âŁ¨":12649,"âŁ©":12650,"ê¸°":12651,"ëĭ¤":12652,"Matters":12653,"Minecraft":12654,"ashtanga":12655,"Messenger":12656,"PARTY":12657,"solute":12658,"ð«ļª":12659,"Kickstarter":12660,"JUSTHIS":12661,"Toyota":12662,"BizTalk":12663,"However":12664,"Giorgio":12665,"Kuraki":12666,"analysis":12667,"Yautja":12668,"Hikaru":12669,"PewDiePie":12670,"ëĮĢ":12671,"numericTimeSignature":12672,"VirtuaReal":12673,"MarketAxess":12674,"027":12675,"031":12676,"1196":12677,"1193":12678,"1187":12679,"1UP":12680,"2G":12681,"2H":12682,"7200":12683,"8300":12684,"8.9%":12685,"9200":12686,"Ao":12687,"Alu":12688,"Ate":12689,"A10":12690,"Aber":12691,"Around":12692,"AQU":12693,"Brou":12694,"Bent":12695,"BMI":12696,"Bump":12697,"Blind":12698,"Bc4":12699,"C20":12700,"Clan":12701,"C79":12702,"CSM":12703,"Cera":12704,"DARK":12705,"EAC":12706,"EMC":12707,"Fing":12708,"FEC":12709,"Fara":12710,"FTP":12711,"G.7":12712,"GAR":12713,"Gara":12714,"GAME":12715,"Hui":12716,"Id":12717,"Ira":12718,"Jou":12719,"Jing":12720,"Kao":12721,"Kyi":12722,"K12":12723,"Korn":12724,"LY":12725,"M20":12726,"M14":12727,"MEN":12728,"NTV":12729,"NVS":12730,"Oro":12731,"OBS":12732,"OLE":12733,"OVER":12734,"Pz":12735,"PON":12736,"P450":12737,"Q1":12738,"RAIL":12739,"Sw":12740,"Sof":12741,"Seri":12742,"SDP":12743,"Spar":12744,"TAP":12745,"Trea":12746,"UBA":12747,"Vel":12748,"WIN":12749,"WMI":12750,"WCF":12751,"WADA":12752,"XII":12753,"XHTML":12754,"Ying":12755,"Yer":12756,"Z1":12757,"Z48":12758,"ZK6":12759,"a8":12760,"aka":12761,"able":12762,"cd":12763,"d5":12764,"due":12765,"e4":12766,"elo":12767,"fMRI":12768,"gl":12769,"ggle":12770,"gold":12771,"hm":12772,"hya":12773,"hPa":12774,"imp":12775,"khe":12776,"kis":12777,"kine":12778,"mmol":12779,"nc":12780,"ndez":12781,"osa":12782,"pour":12783,"plas":12784,"rma":12785,"spin":12786,"swa":12787,"tl":12788,"tmp":12789,"ula":12790,"usa":12791,"vus":12792,"xs":12793,"Ã¬":12794,"ÄĲ":12795,"ÄĻ":12796,"Æ°":12797,"Éĳ":12798,"Ê°":12799,"Î®":12800,"Îĳ":12801,"×ª":12802,"Øµ":12803,"Ùī":12804,"ìĥ":12805,"ìĪ":12806,"ð©":12807,"shei":12808,"dest":12809,"chts":12810,"chos":12811,"until":12812,"disease":12813,"bum":12814,"bula":12815,"dation":12816,"sius":12817,"fac":12818,"tik":12819,"mii":12820,"mier":12821,"quer":12822,"2048":12823,"rise":12824,"lek":12825,"cius":12826,"cilia":12827,"cilis":12828,"yas":12829,"ruk":12830,"minton":12831,"pil":12832,"nish":12833,"bore":12834,"bove":12835,"saic":12836,"sand":12837,"modu":12838,"naya":12839,"kul":12840,"1013":12841,"1039":12842,"1068":12843,"1053":12844,"1083":12845,"touch":12846,"00%":12847,"shaw":12848,"tandings":12849,"kasa":12850,"12V":12851,"1288":12852,"1136":12853,"1169":12854,"region":12855,"wat":12856,"hab":12857,"14.0":12858,"1316":12859,"1326":12860,"1331":12861,"25.8":12862,"forms":12863,"pathy":12864,"24K":12865,"21.8":12866,"insta":12867,"meda":12868,"route":12869,"0.69":12870,"0.89":12871,"0.6%":12872,"coo":12873,"1.40":12874,"1.70":12875,"1.46":12876,"1.49":12877,"1.69":12878,"1.43":12879,"1.99":12880,"1.72":12881,"1.74":12882,"1.97":12883,"1.91":12884,"loe":12885,"loop":12886,"offer":12887,"2.47":12888,"2.69":12889,"2.66":12890,"2.72":12891,"2.82":12892,"2.2%":12893,"2.4%":12894,"ths":12895,"tom":12896,"gama":12897,"Mack":12898,"Mass":12899,"Madonna":12900,"3.10":12901,"3.35":12902,"3.45":12903,"3.65":12904,"STE":12905,"33.5":12906,"Include":12907,"Infinity":12908,"SES":12909,"Ree":12910,"brai":12911,"Mik":12912,"Miz":12913,"Mina":12914,"Lil":12915,"Roche":12916,"Roll":12917,"Rogue":12918,"Rogers":12919,"hold":12920,"43.5":12921,"Mela":12922,"Pac":12923,"Dec":12924,"Dele":12925,"CDRI":12926,"berger":12927,"OSCAR":12928,"notes":12929,"BAR":12930,"COLO":12931,"AMPV":12932,"BSAT":12933,"Gab":12934,"Tears":12935,"cone":12936,"cons":12937,"content":12938,"continue":12939,"NeXT":12940,"Nexon":12941,"Cake":12942,"Cami":12943,"Arrow":12944,"Alli":12945,"Bauer":12946,"Save":12947,"MAO":12948,"nental":12949,"SoC":12950,"Solu":12951,"common":12952,"Doc":12953,"Ricky":12954,"Hawaii":12955,"Complete":12956,"Timothy":12957,"HDMI":12958,"Chapter":12959,"SSH":12960,"1.59":12961,"ASIA":12962,"DVB":12963,"SME":12964,"SMP":12965,"Tap":12966,"Kath":12967,"IVA":12968,"à¸ļ":12969,"Bugs":12970,"week":12971,"AIBA":12972,"Petit":12973,"USGS":12974,"Encyclo":12975,"Govern":12976,"Mystery":12977,"CNS":12978,"CNET":12979,"Aud":12980,"Excel":12981,"endl":12982,"Mani":12983,"Civil":12984,"4.13":12985,"tons":12986,"IAST":12987,"auf":12988,"TEA":12989,"Feeling":12990,"java":12991,"nerf":12992,"DRM":12993,"cord":12994,"Corner":12995,"Harmo":12996,"flights":12997,"July":12998,"RTM":12999,"SPO":13000,"DOM":13001,"ations":13002,"GP2":13003,"LOV":13004,"tiny":13005,"BEA":13006,"PPA":13007,"Chess":13008,"guez":13009,"CLUB":13010,"Orche":13011,"hammed":13012,"Things":13013,"tcher":13014,"Travel":13015,"GOOD":13016,"GNZ48":13017,"CSX":13018,"ABP":13019,"PLAY":13020,"Vector":13021,"sault":13022,"Yama":13023,"SQU":13024,"Christine":13025,"Upper":13026,"Athen":13027,"plash":13028,"EF52":13029,"ChoCo":13030,"Fritz":13031,"Terra":13032,"stitution":13033,"published":13034,"Telecom":13035,"6.09":13036,"Greene":13037,"Laurent":13038,"BUG":13039,"PDW":13040,"Crime":13041,"stant":13042,"âī¡":13043,"Networks":13044,"á¹ĥ":13045,"COMIC":13046,"âĳ¢":13047,"Regina":13048,"enable":13049,"VVV":13050,"Casti":13051,"Imperial":13052,"PTFE":13053,"Beats":13054,"Derek":13055,"flag":13056,"Frog":13057,"plane":13058,"Sons":13059,"FINA":13060,"Strate":13061,"Massa":13062,"Passion":13063,"SONY":13064,"industri":13065,"1080p":13066,"Artist":13067,"Eastern":13068,"Jessica":13069,"Storage":13070,"pression":13071,"Kyle":13072,"Albums":13073,"CITY":13074,"CITES":13075,"Being":13076,"Namco":13077,"xcb":13078,"BugBug":13079,"CRH5A":13080,"MEDLINE":13081,"general":13082,"Kirara":13083,"Organization":13084,"Brooks":13085,"CONCERT":13086,"variable":13087,"GIRLS":13088,"education":13089,"aespa":13090,"ìŀĲ":13091,"geometry":13092,"Cheems":13093,"Elliott":13094,"CR300AF":13095,"E9E9":13096,"therapy":13097,"plotlib":13098,"Property":13099,"received":13100,"Gallery":13101,"Phenom":13102,"Believe":13103,"Spirits":13104,"kirche":13105,"Leadership":13106,"Libreboot":13107,"including":13108,"Schmidt":13109,"Developer":13110,"Shirley":13111,"SUMMER":13112,"bacterium":13113,"Vladimir":13114,"COUNTDOWN":13115,"Ultimate":13116,"ìĬ¤":13117,"symbol":13118,"ENGINE":13119,"MCBMSP":13120,"Guinness":13121,"ì£¼":13122,"ð«Ľļ":13123,"WhatsApp":13124,"HAPPY":13125,"announced":13126,"Kyiv":13127,"NVSRAM":13128,"075":13129,"057":13130,"051":13131,"074":13132,"1da":13133,"2M":13134,"2250":13135,"2GB":13136,"4S":13137,"4.3%":13138,"5.5%":13139,"6300":13140,"8600":13141,"8.4%":13142,"Ata":13143,"Amo":13144,"Ava":13145,"Avery":13146,"Bes":13147,"CTC":13148,"CRO":13149,"Clar":13150,"D32":13151,"DAC":13152,"DIC":13153,"Ek":13154,"Eun":13155,"E130":13156,"EPS":13157,"Evo":13158,"FBC":13159,"Ful":13160,"FVP":13161,"Ging":13162,"Ges":13163,"Gly":13164,"Gent":13165,"HAL":13166,"HMC":13167,"HALL":13168,"IWI":13169,"JAS":13170,"Kru":13171,"Kre":13172,"Krish":13173,"Kfz":13174,"LCS":13175,"M50":13176,"MAM":13177,"MRS":13178,"NZ":13179,"Nai":13180,"NDS":13181,"NSC":13182,"Nero":13183,"O5":13184,"Od":13185,"Ola":13186,"OUR":13187,"P3":13188,"P6":13189,"PZ":13190,"Pei":13191,"Ping":13192,"PTS":13193,"Please":13194,"PTCH":13195,"Qa":13196,"Rand":13197,"Sn":13198,"Sis":13199,"SPS":13200,"TJ":13201,"TON":13202,"Tsing":13203,"TASC":13204,"Tetra":13205,"UZ":13206,"Um":13207,"USM":13208,"Von":13209,"VAD":13210,"XSD":13211,"Zei":13212,"Zhang":13213,"ZARD":13214,"aq":13215,"aga":13216,"ass":13217,"act":13218,"award":13219,"bly":13220,"eX":13221,"fine":13222,"gren":13223,"glu":13224,"gine":13225,"iHeart":13226,"kJ":13227,"kho":13228,"nter":13229,"ow":13230,"ovi":13231,"pler":13232,"pher":13233,"pseudo":13234,"rr":13235,"why":13236,"write":13237,"xd4":13238,"yy":13239,"yen":13240,"Ãĩ":13241,"Ãľ":13242,"Îł":13243,"Ð¤":13244,"ÐĹ":13245,"ÑĬ":13246,"Ñį":13247,"×Ķ":13248,"à¶":13249,"ëĵ":13250,"ìĻ":13251,"íĻ":13252,"short":13253,"little":13254,"dini":13255,"hee":13256,"held":13257,"gedit":13258,"tite":13259,"mien":13260,"tario":13261,"2046":13262,"mington":13263,"leo":13264,"letter":13265,"19.3":13266,"yev":13267,"lub":13268,"yava":13269,"mind":13270,"minary":13271,"bolt":13272,"lago":13273,"matrix":13274,"said":13275,"shanensis":13276,"tup":13277,"lance":13278,"lander":13279,"mov":13280,"mobile":13281,"nate":13282,"native":13283,"zeu":13284,"lvo":13285,"10W":13286,"1045":13287,"champion":13288,"sector":13289,"18F":13290,"18.4":13291,"kawaii":13292,"1289":13293,"1296":13294,"1281":13295,"quest":13296,"11.0":13297,"1151":13298,"pomo":13299,"release":13300,"hall":13301,"sae":13302,"saka":13303,"1354":13304,"bins":13305,"page":13306,"paten":13307,"24.8":13308,"23.3":13309,"ins":13310,"2222":13311,"arg":13312,"argu":13313,"mela":13314,"50.8":13315,"29.8":13316,"strai":13317,"stler":13318,"rae":13319,"rale":13320,"40.5":13321,"lters":13322,"ãĥ¦":13323,"100.":13324,"0.31":13325,"0.96":13326,"coding":13327,"1.39":13328,"1.64":13329,"1.41":13330,"1.79":13331,"1.81":13332,"1.7%":13333,"thea":13334,"lose":13335,"logo":13336,"2.20":13337,"2.13":13338,"2.40":13339,"2.44":13340,"2.67":13341,"2.93":13342,"2.3%":13343,"toon":13344,"token":13345,"vest":13346,"vehicle":13347,"Mathi":13348,"Material":13349,"INET":13350,"INAH":13351,"3.41":13352,"3.61":13353,"3.63":13354,"3.05":13355,"does":13356,"dodeca":13357,"Coon":13358,"belie":13359,"beck":13360,"Into":13361,"Inside":13362,"64BM":13363,"Theater":13364,"vii":13365,"Rey":13366,"Reason":13367,"Release":13368,"hide":13369,"Miles":13370,".62%":13371,"Lim":13372,"ryn":13373,"derson":13374,"BCI":13375,"Movi":13376,"Mother":13377,"Movement":13378,"Mosaic":13379,"53K":13380,"Lev":13381,"Divi":13382,"conds":13383,"condition":13384,"Raz":13385,"Rapid":13386,"Rahman":13387,"kill":13388,"kies":13389,"Section":13390,"Bea":13391,"Arkane":13392,"cens":13393,"Bac":13394,"ICEF":13395,"stad":13396,"statis":13397,"stadt":13398,"Bom":13399,"Boeing":13400,"Fay":13401,"Faculty":13402,"Nau":13403,"Nata":13404,"Naval":13405,"Som":13406,"comb":13407,"commit":13408,"sode":13409,"mero":13410,"Kiha":13411,"KiRo":13412,"Hari":13413,"Comp":13414,"Commerce":13415,"Sumo":13416,"Much":13417,"Nina":13418,"Nigel":13419,"Champ":13420,"ITER":13421,"Node":13422,"byte":13423,"Ans":13424,"SMN":13425,"graphi":13426,"gracilis":13427,"kok":13428,"kova":13429,"Contra":13430,"Conservation":13431,"Kappa":13432,"à¸ķ":13433,"BLO":13434,"BLITZ":13435,"2.52":13436,"2.58":13437,"MPA":13438,"AIK":13439,"Pete":13440,"Gott":13441,"CPAP":13442,"UNICEF":13443,"MyVideo":13444,"Audition":13445,"Excell":13446,"Exhibition":13447,"2.04":13448,"2.07":13449,"AVN":13450,"myces":13451,"Manda":13452,"CCC":13453,"0.57":13454,"LEE":13455,"LEO":13456,"BOYS":13457,"witz":13458,"IGM":13459,"4.15":13460,"cyto":13461,"jection":13462,"6.25":13463,"IANA":13464,"BMNH":13465,"NewJeans":13466,"Hut":13467,"Hugh":13468,"Hudson":13469,"OpenNIC":13470,"à¤¯":13471,"LLM":13472,"rail":13473,"still":13474,"union":13475,"Tribun":13476,"Addi":13477,"NH3":13478,"PPPo":13479,"porting":13480,"porter":13481,"Check":13482,"Phra":13483,"VoLTE":13484,"CLC":13485,"Canonical":13486,"Bristol":13487,"SHISH":13488,"ãĦ¨":13489,"AllMusic":13490,"HCl":13491,"Thing":13492,"Mora":13493,"Tracker":13494,"disc":13495,"VAX":13496,"DDK":13497,"KPL":13498,"window":13499,"xygen":13500,"ABBA":13501,"Spect":13502,"Species":13503,"Warner":13504,"Pana":13505,"Webb":13506,"rations":13507,"kind":13508,"SKT":13509,"SKY":13510,"Shining":13511,"Shift":13512,"Peters":13513,"placed":13514,"Sylv":13515,"FOMA":13516,"physical":13517,"parte":13518,"party":13519,"sortium":13520,"UT1":13521,"Cambridge":13522,"Cameron":13523,"Record":13524,"Function":13525,"Alexa":13526,"LTM":13527,"NEO":13528,"player":13529,"Vani":13530,"Richardson":13531,"tarian":13532,"Random":13533,"joy":13534,"Transform":13535,"ìĿ¸":13536,"mg%":13537,"ðĲİ":13538,"Early":13539,"Emper":13540,"CVT":13541,"à¥Ģ":13542,"HTML5":13543,"Gambas":13544,"Edwards":13545,"Destiny":13546,"varman":13547,"KinKi":13548,"Phoeni":13549,"Watson":13550,"apple":13551,"tastic":13552,"friend":13553,"Arab":13554,"DLSS":13555,"Nancy":13556,"DMSO":13557,"Olivia":13558,"Queendom":13559,"anima":13560,"Darkness":13561,"study":13562,"PBPK":13563,"Leopold":13564,"Honoura":13565,"Secure":13566,"0x5":13567,"mediate":13568,"EGFR":13569,"Badminton":13570,"exten":13571,"Jorge":13572,"cularia":13573,"Investi":13574,"Economics":13575,"Abdullah":13576,"Schiff":13577,"Wolfgang":13578,"Catherine":13579,"Giant":13580,"Stern":13581,"MICH":13582,"girls":13583,"Signal":13584,"Seasons":13585,"KiiiKiii":13586,"Experience":13587,"FREE":13588,"Quake3":13589,"LMP1":13590,"Fernando":13591,"Paolo":13592,"Feedly":13593,"fascia":13594,"Verizon":13595,"B8L":13596,"à§į":13597,"remove":13598,"Pitchfork":13599,"required":13600,"Thomson":13601,"Dangerous":13602,"src":13603,"ð¨¥":13604,"Laboratory":13605,"Celebri":13606,"advanced":13607,"Astrono":13608,"IUPAC":13609,"Gardner":13610,"Kabupaten":13611,"STUDIO":13612,"SUGOCA":13613,"Solutions":13614,"SHISHAMO":13615,"Honourable":13616,".14":13617,".32":13618,"064":13619,"063":13620,"089":13621,"072":13622,"1s":13623,"2187":13624,"3B":13625,"3E":13626,"4th":13627,"6.5%":13628,"6.9%":13629,"6LX":13630,"7.1%":13631,"Aru":13632,"Anan":13633,"Aid":13634,"Adult":13635,"Brai":13636,"C11":13637,"CIS":13638,"CTO":13639,"DLE":13640,"DIG":13641,"D3D":13642,"Doro":13643,"Eh":13644,"Era":13645,"EAN":13646,"ESET":13647,"FIS":13648,"FSS":13649,"GX":13650,"Gone":13651,"H7":13652,"HTV":13653,"Hoff":13654,"I2":13655,"IMP":13656,"Ivy":13657,"KY":13658,"KAT":13659,"Ln":13660,"LIT":13661,"LTR":13662,"LINK":13663,"M18":13664,"Mint":13665,"MNH":13666,"Nun":13667,"Nin":13668,"Nis":13669,"NBL":13670,"Nine":13671,"OX":13672,"Ohi":13673,"OIC":13674,"PIN":13675,"Pry":13676,"PUA":13677,"Ptero":13678,"PUSH":13679,"Q6":13680,"QAM":13681,"Rui":13682,"RST":13683,"RAR":13684,"SJ":13685,"Soo":13686,"SMA":13687,"SIP":13688,"SBD":13689,"Tc":13690,"Thou":13691,"Tsu":13692,"Try":13693,"TGM":13694,"VAN":13695,"WBC":13696,"XV":13697,"Z4":13698,"ati":13699,"aster":13700,"aland":13701,"bbe":13702,"css":13703,"dwell":13704,"eBay":13705,"eMule":13706,"f3":13707,"ghan":13708,"gha":13709,"hlen":13710,"ida":13711,"ile":13712,"ite":13713,"kk":13714,"kl":13715,"kker":13716,"know":13717,"mper":13718,"nya":13719,"plu":13720,"r4":13721,"sq":13722,"tRNA":13723,"vara":13724,"wx":13725,"x64":13726,"zers":13727,"Åĵ":13728,"ÊĤ":13729,"Ìį":13730,"Ñİ":13731,"à·":13732,"àº":13733,"â¾":13734,"ë©":13735,"ëĬ":13736,"deter":13737,"deus":13738,"develo":13739,"shine":13740,"engine":13741,"lite":13742,"yout":13743,"hello":13744,"sien":13745,"sili":13746,"sist":13747,"church":13748,"tata":13749,"tate":13750,"rini":13751,"rias":13752,"ridge":13753,"ciali":13754,"ciple":13755,"cident":13756,"gur":13757,"gung":13758,"lume":13759,"dana":13760,"dung":13761,"tair":13762,"tained":13763,"boo":13764,"lal":13765,"lazy":13766,"sume":13767,"modi":13768,"nap":13769,"puri":13770,"1029":13771,"1038":13772,"1064":13773,"1041":13774,"1052":13775,"1074":13776,"1092":13777,"seseo":13778,"sham":13779,"shape":13780,"18.2":13781,"11Z":13782,"1165":13783,"1144":13784,"11.4%":13785,"11.7%":13786,"bies":13787,"rek":13788,"reli":13789,"recur":13790,"recogni":13791,"wagen":13792,"satellite":13793,"16.9":13794,"1318":13795,"1311":13796,"bind":13797,"ruit":13798,"21.7":13799,"23.7":13800,"23.2":13801,"22.9":13802,"22.1":13803,"arc":13804,"ï¼£":13805,"ï¼¯":13806,"ï¼ĸ":13807,"29.5":13808,"nee":13809,"roi":13810,"stop":13811,"strom":13812,"allo":13813,"allow":13814,"100km":13815,"coming":13816,"food":13817,"ãģ¼":13818,"1.10":13819,"1.34":13820,"1.98":13821,"1.89":13822,"1.85":13823,"1.86":13824,"1.96":13825,"therine":13826,"2.10":13827,"2.70":13828,"2.48":13829,"2.42":13830,"2.61":13831,"2.73":13832,"tov":13833,"vet":13834,"gaard":13835,"3750":13836,"Mae":13837,"Mada":13838,"Masa":13839,"Macross":13840,"3.11":13841,"3.99":13842,"3.76":13843,"3.3%":13844,"dot":13845,"cko":13846,"STO":13847,"64GB":13848,"visor":13849,"etc":13850,".09%":13851,"Miya":13852,"peu":13853,"Lis":13854,"Rome":13855,"Roland":13856,"59A":13857,"wii":13858,"Mexi":13859,"Vic":13860,"Vice":13861,"Depu":13862,"five":13863,"7700":13864,"WinWin":13865,"persky":13866,"Wiz":13867,"Mori":13868,"note":13869,"Label":13870,"BAD":13871,"BAND":13872,"COR":13873,"Lecture":13874,"AMN":13875,"ARIN":13876,"Jakob":13877,"Diver":13878,"conti":13879,"condu":13880,"Siren":13881,"Marve":13882,"Rau":13883,"Seat":13884,"Capri":13885,"Casio":13886,"Argo":13887,"Al2":13888,"Toys":13889,"Bag":13890,"Baha":13891,"stay":13892,"Boa":13893,"Fame":13894,"Fabri":13895,"Saw":13896,"Saman":13897,"Sock":13898,"Sobol":13899,"comm":13900,"Doherty":13901,"Kid":13902,"Haru":13903,"Competi":13904,"Supre":13905,"Sumade":13906,"Til":13907,"Nichol":13908,"pply":13909,"gow":13910,"PCB":13911,"SMS":13912,"kovi":13913,"Gese":13914,"Tales":13915,"Heat":13916,"Kaza":13917,"ETA":13918,"ECS":13919,"MSN":13920,"Cars":13921,"MPLS":13922,"problem":13923,"Steel":13924,"REFL":13925,"Wadi":13926,"Wales":13927,"Formosa":13928,"reach":13929,"Exping":13930,"CH4":13931,"TAIN":13932,"2.0%":13933,"Mano":13934,"Cider":13935,"0.56":13936,"BOY":13937,"ADD":13938,"ADL":13939,"6.28":13940,"Luc":13941,"ESB":13942,"Rudo":13943,"ression":13944,"1186":13945,"Hugo":13946,"OpenCritic":13947,"3.5%":13948,"3.54":13949,"ATP500":13950,"ATP250":13951,"primary":13952,"Pere":13953,"Kom":13954,"Koch":13955,"Koha":13956,"à¤Ĺ":13957,"linear":13958,"triple":13959,"odor":13960,"CESS":13961,"Davichi":13962,"Shaw":13963,"tempor":13964,"tens":13965,"Admi":13966,"NH4":13967,"NHMUK":13968,"PPD":13969,"SCSI":13970,"Cheer":13971,"predi":13972,"gues":13973,"cerato":13974,"Voi":13975,"128GB":13976,"Brother":13977,"Graf":13978,"Britain":13979,"blio":13980,"Orni":13981,"POW":13982,"strate":13983,"5.55":13984,"Threads":13985,"tiste":13986,"Tram":13987,"Qual":13988,"Foster":13989,"Focus":13990,"RC5":13991,"mberg":13992,"winter":13993,"Cevio":13994,"IRAL":13995,"Portu":13996,"MGH":13997,"eroy":13998,"Benz":13999,"MBT":14000,"Donut":14001,"Airlines":14002,"TPU":14003,"Hyde":14004,"Kings":14005,"Product":14006,"Sydney":14007,"Walking":14008,"Pattab":14009,"Technical":14010,"Friday":14011,"Garcia":14012,"Teresa":14013,"ifconfig":14014,"Scope":14015,"spacecraft":14016,"SF2":14017,"B2B":14018,"Ferra":14019,"BRB":14020,"stead":14021,"league":14022,"Router":14023,"CTU":14024,"Goodbye":14025,"GTK":14026,"PRISM":14027,"Torre":14028,"Turn":14029,"PASS":14030,"VRDK":14031,"signs":14032,"khof":14033,"gnathus":14034,"MUD":14035,"áĢ¯":14036,"standard":14037,"surface":14038,"cillus":14039,"á¹ĩ":14040,"JTB":14041,"signal":14042,"SHOCK":14043,"âĭħ":14044,"Overture":14045,"Close":14046,"Half":14047,"Watcha":14048,"Cleve":14049,"hrer":14050,"fried":14051,"charge":14052,"Troy":14053,"eventual":14054,"CBT":14055,"IBNS":14056,"castle":14057,"Since":14058,"Hunt":14059,"Communication":14060,"Baseball":14061,"Township":14062,"PostScript":14063,"Dynamic":14064,"initial":14065,"strel":14066,"Jersey":14067,"Thank":14068,"Seventeen":14069,"templatestyles":14070,"Better":14071,"polymer":14072,"terature":14073,"bourne":14074,"production":14075,"Electronics":14076,"Shuttle":14077,"defeating":14078,"Erik":14079,"Heinz":14080,"Respon":14081,"ìĦ±":14082,"became":14083,"âĬĨ":14084,"capsu":14085,"November":14086,"occur":14087,"XYZ":14088,"Lynn":14089,"Pelkey":14090,"Regular":14091,"Majlis":14092,"Ayyava":14093,"Rising":14094,"quency":14095,"Pearson":14096,"Dinosa":14097,"Selection":14098,"ITZY":14099,"Kaspersky":14100,"Rebecca":14101,"Cherry":14102,"xmlns":14103,"Certified":14104,"Oreo":14105,"êµŃ":14106,"Columbia":14107,"effect":14108,"component":14109,"Pulse":14110,"formosana":14111,"Trouble":14112,"Enrique":14113,"japonica":14114,"Administration":14115,"YONEX":14116,"Zimmer":14117,"Lilith":14118,"Address":14119,"Reserve":14120,"ï»¿":14121,"sequence":14122,"Configuration":14123,"Amend":14124,"companies":14125,"CR200J":14126,"SHOOTER":14127,"flora":14128,"square":14129,"SPECIAL":14130,"Allison":14131,"Orchestra":14132,"Clarke":14133,"Coonley":14134,"Pattabhi":14135,"Ayyavazhi":14136,".17":14137,".2016":14138,".2012":14139,".33":14140,".42":14141,"068":14142,"071":14143,"1C":14144,"33.6":14145,"4100":14146,"4.2%":14147,"5.2%":14148,"7300":14149,"7.6%":14150,"70.3":14151,"8400":14152,"8.7%":14153,"9.8%":14154,"Agu":14155,"Acan":14156,"Aman":14157,"Ain":14158,"Aza":14159,"Aver":14160,"Ales":14161,"Amuse":14162,"BPM":14163,"Brew":14164,"Cun":14165,"Chong":14166,"C17":14167,"C24":14168,"CSA":14169,"D8":14170,"Dian":14171,"DTC":14172,"DAN":14173,"DBE":14174,"Drum":14175,"EH":14176,"Emo":14177,"Ein":14178,"Emp":14179,"EWS":14180,"FNA":14181,"FAR":14182,"Frei":14183,"G41":14184,"Glory":14185,"Hf":14186,"Hr":14187,"HIP":14188,"HSS":14189,"ILL":14190,"Idea":14191,"Iterator":14192,"JED":14193,"Kt":14194,"KST":14195,"KAN":14196,"K101":14197,"Klaus":14198,"L3":14199,"LAC":14200,"Lys":14201,"Lens":14202,"MQ":14203,"Mt":14204,"Mand":14205,"MAP":14206,"MER":14207,"MSM":14208,"M1917":14209,"MTA":14210,"Nc3":14211,"O6":14212,"Oa":14213,"Om":14214,"Omo":14215,"Oil":14216,"Poo":14217,"Pers":14218,"RJ":14219,"R11":14220,"Rum":14221,"REC":14222,"Rous":14223,"Skou":14224,"Samp":14225,"Scri":14226,"SWE":14227,"Tian":14228,"Tren":14229,"T3A":14230,"TLS":14231,"Their":14232,"TUNES":14233,"Ui":14234,"Utri":14235,"V60":14236,"VIA":14237,"WASP":14238,"X3":14239,"YY":14240,"Yar":14241,"Z3":14242,"ZF":14243,"Zeni":14244,"asa":14245,"b8":14246,"bt":14247,"dora":14248,"e1":14249,"elong":14250,"fl":14251,"ffen":14252,"ffan":14253,"fone":14254,"gby":14255,"gham":14256,"iv":14257,"iKON":14258,"kN":14259,"kb":14260,"kka":14261,"oria":14262,"rho":14263,"thou":14264,"txt":14265,"v3":14266,"yr":14267,"yle":14268,"Â¹":14269,"Âº":14270,"Å½":14271,"Ð¦":14272,"Õµ":14273,"another":14274,"shot":14275,"shima":14276,"lift":14277,"libre":14278,"rences":14279,"damo":14280,"dacity":14281,"hurst":14282,"siw":14283,"sini":14284,"sition":14285,"bir":14286,"tista":14287,"tienne":14288,"miRNA":14289,"tact":14290,"tational":14291,"quality":14292,"2036":14293,"rino":14294,"ricum":14295,"19.4":14296,"shes":14297,"mura":14298,"zum":14299,"zur":14300,"bana":14301,"lings":14302,"minate":14303,"pilot":14304,"bone":14305,"tee":14306,"tels":14307,"tella":14308,"lax":14309,"mata":14310,"machi":14311,"mass":14312,"macula":14313,"baum":14314,"leine":14315,"moon":14316,"mone":14317,"chis":14318,"suit":14319,"1026":14320,"10th":14321,"1079":14322,"1082":14323,"cant":14324,"cey":14325,"gano":14326,"12.0":14327,"1269":14328,"quez":14329,"1159":14330,"1163":14331,"pod":14332,"remai":14333,"16.1":14334,"16.4":14335,"17.2":14336,"1463":14337,"30.9":14338,"1342":14339,"fora":14340,"forming":14341,"pati":14342,"moun":14343,"21.6":14344,"21.4":14345,"23.8":14346,"23.6":14347,"26.8":14348,"26.3":14349,"ï¼ĺ":14350,"rop":14351,"racy":14352,"died":14353,"lten":14354,"copy":14355,"colum":14356,"folk":14357,"ãģľ":14358,"1.31":14359,"1.94":14360,"35.5":14361,"loway":14362,"2.00":14363,"2.22":14364,"2.32":14365,"2.64":14366,"2.76":14367,"2.95":14368,"2.94":14369,"tery":14370,"threads":14371,"Madi":14372,"Massi":14373,"Madri":14374,"Matrix":14375,"3.36":14376,"3.88":14377,"3.09":14378,"dog":14379,"cated":14380,"ckle":14381,"began":14382,"better":14383,"Int":14384,"Insurance":14385,"Ther":14386,"vidence":14387,".87%":14388,"Ref":14389,"Rel":14390,"Reality":14391,"bry":14392,".04%":14393,".74%":14394,"6700":14395,"3001":14396,".61%":14397,"attribu":14398,"ATV":14399,"pez":14400,"types":14401,"holo":14402,"41.5":14403,"wire":14404,"Meet":14405,"56.5":14406,"NAVER":14407,"Deck":14408,"Devi":14409,"ghty":14410,"fir":14411,"OSD":14412,"OSPF":14413,"Witch":14414,"Moment":14415,"Monica":14416,"Molina":14417,"Motif":14418,"Mohammed":14419,"53E":14420,"gift":14421,"Joa":14422,"Leary":14423,"Jaguar":14424,"Dimen":14425,"Figure":14426,"Sisters":14427,"Martha":14428,"Rag":14429,"Se2":14430,"Sey":14431,"ISN":14432,"uron":14433,"EDITION":14434,"Tomorrow":14435,"Basin":14436,"Lowe":14437,"Boston":14438,"Fau":14439,"Fast":14440,"Favo":14441,"Safe":14442,"Salva":14443,"Natura":14444,"feel":14445,"Does":14446,"Domeni":14447,"Killer":14448,"Hash":14449,"ANT":14450,"Musa":14451,"Chap":14452,"No.1":14453,"Novo":14454,"1.56":14455,"1306":14456,"Pil":14457,"Giaco":14458,"message":14459,"Annie":14460,"SMART":14461,"gration":14462,"Contents":14463,"Consortium":14464,"llaume":14465,"Linda":14466,"Kakita":14467,"à¸«":14468,"phon":14469,"Bukit":14470,"Words":14471,"Peer":14472,"Stella":14473,"UNIVER":14474,"FCS":14475,"âĦ¢":14476,"Authority":14477,"Audacity":14478,"MORE":14479,"MOVE":14480,"MIM":14481,"SOV":14482,"SOUND":14483,"LESS":14484,"Schlatt":14485,"4.22":14486,"4.36":14487,"rond":14488,"6.22":14489,"6.27":14490,"6.75":14491,"6.32":14492,"auri":14493,"TEU":14494,"Lux":14495,"Fear":14496,"jah":14497,"1182":14498,"DAHL":14499,"OpenCL":14500,"OpenSolaris":14501,"HOY":14502,"ATP1000":14503,"Kecamatan":14504,"Kepler":14505,"nette":14506,"à¤ķ":14507,"EXE":14508,"MLS":14509,"Jeep":14510,"DOME":14511,"Monta":14512,"Edgar":14513,"Edmund":14514,"Sharon":14515,"server":14516,"Dutch":14517,"MacBook":14518,"Chel":14519,"Assault":14520,"Willis":14521,"Berkhof":14522,"Volun":14523,"GameSpy":14524,"GameRankings":14525,"Canyon":14526,"Grade":14527,"Gravity":14528,"McKen":14529,"AllStar":14530,"5.54":14531,"WTA250":14532,"HCV":14533,"acti":14534,"Angular":14535,"AFS":14536,"AFT":14537,"Varia":14538,"Cesa":14539,"Engel":14540,"Henderson":14541,"MG34":14542,"phia":14543,"cargo":14544,"TPMT":14545,"Minor":14546,"sphe":14547,"crete":14548,"Hypo":14549,"Eleanor":14550,"Janus":14551,"RAID":14552,"CASE":14553,"256GB":14554,"M2A4":14555,"HIRO":14556,"GMT":14557,"ð«Ħ":14558,"ð«ĵ":14559,"Lancer":14560,"draco":14561,"Singles":14562,"Burger":14563,"Burns":14564,"Gerard":14565,"Officer":14566,"PRIN":14567,"2186":14568,"Zion":14569,"XPCOM":14570,"Prada":14571,"VMware":14572,"Mental":14573,"Criminal":14574,"subject":14575,"borg":14576,"Fraser":14577,"GRAIL":14578,"CVS":14579,"Adolf":14580,"Denis":14581,"Polygon":14582,"Capcon":14583,"Jenkins":14584,"Kinder":14585,"Curry":14586,"Currie":14587,"Borland":14588,"Reid":14589,"Eight":14590,"Climate":14591,"Nicole":14592,"transport":14593,"TWh":14594,"Galli":14595,"Political":14596,"Lyco":14597,"featuring":14598,"Circuit":14599,"Amir":14600,"Memories":14601,"Setting":14602,"Duncan":14603,"counts":14604,"dinary":14605,"WORD":14606,"Distribution":14607,"finition":14608,"ðĲŃł":14609,"rinae":14610,"Honor":14611,"85512":14612,"Montju":14613,"Cosmic":14614,"PCIe":14615,"RBW":14616,"Task":14617,"Somewhere":14618,"TestB":14619,"Physics":14620,"bourg":14621,"Neuro":14622,"Dallas":14623,"Listen":14624,"Liberty":14625,"Liberation":14626,"Jesse":14627,"Birds":14628,"Kurt":14629,"RSASS":14630,"CAPCOM":14631,"Message":14632,"Historical":14633,"Applications":14634,"SocketFD":14635,"Africa":14636,"âĬĹ":14637,"Isaac":14638,"brand":14639,"Sidney":14640,"help":14641,"Numbers":14642,"ê¸Ģ":14643,"Simmons":14644,"ìĺ¤":14645,"gged":14646,"measure":14647,"MOMOLAND":14648,"Delicious":14649,"Commander":14650,"senschaft":14651,"Lorenzo":14652,"ìĸ´":14653,"sidential":14654,"Fischer":14655,"Duratec":14656,"Philips":14657,"Warriors":14658,"Mohamed":14659,"Radical":14660,"HOLBORN":14661,"SINGLE":14662,"coordinates":14663,"Character":14664,"associa":14665,"MIDI":14666,"Viktor":14667,"Spoonz":14668,"TOGAF":14669,"ENTERTAIN":14670,"butyricum":14671,"ARTSVISION":14672,"Baptiste":14673,"Voyage":14674,"Elisabeth":14675,"ë¡ľ":14676,"theorem":14677,"swap":14678,"Audrey":14679,"Gentle":14680,"PPPoE":14681,"Emperor":14682,"Deputy":14683,"REFLECTION":14684,"Utricularia":14685,"Giacomo":14686,"DAHLIA":14687,"ENTERTAINMENT":14688,".2021":14689,".2009":14690,"038":14691,"095":14692,"0641":14693,"1188":14694,"2185":14695,"2H2O":14696,"4GB":14697,"4.7%":14698,"5.3%":14699,"5.1%":14700,"6.2%":14701,"7R":14702,"7.9%":14703,"8.5%":14704,"9.9%":14705,"A27":14706,"Abe":14707,"ASA":14708,"Ako":14709,"ABL":14710,"AWS":14711,"ADSL":14712,"Atara":14713,"BMA":14714,"BTO":14715,"BTS":14716,"Bhd":14717,"Cd":14718,"Cand":14719,"CTV":14720,"Cly":14721,"CEN":14722,"DBC":14723,"Droid":14724,"DNF":14725,"EW":14726,"Ey":14727,"Ene":14728,"E40":14729,"Ethi":14730,"FPGA":14731,"Gb":14732,"Gel":14733,"GMP":14734,"Gbit":14735,"H14":14736,"Hof":14737,"Hmm":14738,"Hend":14739,"Heri":14740,"Hold":14741,"HMG":14742,"HONG":14743,"Iu":14744,"IMS":14745,"Item":14746,"Jong":14747,"Jero":14748,"JECT":14749,"K5":14750,"K7":14751,"K8":14752,"K15":14753,"Knu":14754,"Kro":14755,"Kry":14756,"KAI":14757,"KBE":14758,"Krist":14759,"K232":14760,"K308":14761,"KISS":14762,"LLE":14763,"Lunch":14764,"Mone":14765,"M1911":14766,"MCP":14767,"MISL":14768,"Ngu":14769,"Nvi":14770,"NII":14771,"ORO":14772,"OCP":14773,"Pv":14774,"Pren":14775,"P15":14776,"PME":14777,"Plea":14778,"Phar":14779,"PABP":14780,"RL":14781,"RIF":14782,"RPM":14783,"Seng":14784,"Shei":14785,"Sven":14786,"SIX":14787,"Slate":14788,"SATA":14789,"Slot":14790,"Then":14791,"TMS":14792,"Uti":14793,"VJ":14794,"Vy":14795,"W52":14796,"WAP":14797,"Wein":14798,"Wendy":14799,"WITH":14800,"YR":14801,"Yao":14802,"Yum":14803,"YLE":14804,"Zr":14805,"ade":14806,"alter":14807,"acade":14808,"bhu":14809,"clay":14810,"cers":14811,"fth":14812,"hla":14813,"ip":14814,"imm":14815,"itation":14816,"ox":14817,"phus":14818,"rhyth":14819,"s2":14820,"uss":14821,"vain":14822,"Ãĺ":14823,"Ãŀ":14824,"Å©":14825,"ÆĴ":14826,"Ê»":14827,"ÎŁ":14828,"Ð§":14829,"ÖĢ":14830,"à¾":14831,"âķ":14832,"ì°":14833,"ð¥":14834,"deci":14835,"defen":14836,"dend":14837,"demon":14838,"develop":14839,"deuts":14840,"eight":14841,"chon":14842,"rens":14843,"dii":14844,"dion":14845,"bull":14846,"err":14847,"dari":14848,"hut":14849,"fully":14850,"bill":14851,"fat":14852,"ticus":14853,"mio":14854,"20.6":14855,"20.2":14856,"lec":14857,"lead":14858,"lecular":14859,"cilio":14860,"changed":14861,"dua":14862,"dula":14863,"mut":14864,"yard":14865,"minster":14866,"pina":14867,"piter":14868,"pido":14869,"pipe":14870,"nix":14871,"bench":14872,"lard":14873,"mam":14874,"mada":14875,"magazine":14876,"bag":14877,"bay":14878,"baba":14879,"sandro":14880,"chee":14881,"moni":14882,"nati":14883,"nata":14884,"nagar":14885,"nauts":14886,"lining":14887,"chinensis":14888,"paid":14889,"push":14890,"1043":14891,"1081":14892,"10.3%":14893,"sequen":14894,"several":14895,"sedamo":14896,"cester":14897,"cells":14898,"18.6":14899,"12.1%":14900,"12.2%":14901,"mano":14902,"management":14903,"1153":14904,"11.5%":14905,"11.2%":14906,"pola":14907,"pology":14908,"rep":14909,"resi":14910,"hay":14911,"hart":14912,"30.3":14913,"30.4":14914,"1319":14915,"1315":14916,"lough":14917,"25.2":14918,"nings":14919,"forma":14920,"formis":14921,"patch":14922,"2350":14923,"mulator":14924,"28.8":14925,"28.9":14926,"indica":14927,"means":14928,"nung":14929,"ï¼Ķ":14930,"0002":14931,"album":14932,"100.00%":14933,"0.9%":14934,"thesis":14935,"35.6":14936,"location":14937,"2.16":14938,"2.21":14939,"2.90":14940,"2.98":14941,"2.85":14942,"tern":14943,"terms":14944,"thra":14945,"tona":14946,"pent":14947,"3.20":14948,"3.25":14949,"3.22":14950,"3.27":14951,"3.46":14952,"3.86":14953,"3.82":14954,"3.83":14955,"3.08":14956,"3.03":14957,"doi":14958,"doo":14959,"docomo":14960,"34.5":14961,"34.7":14962,"Colon":14963,"Covid":14964,"cali":14965,"cale":14966,"bec":14967,"beau":14968,"32GB":14969,"Inspi":14970,"ssy":14971,".82%":14972,".84%":14973,"SECL":14974,"Refu":14975,"hil":14976,"4900":14977,"eler":14978,"etti":14979,"brain":14980,"pedi":14981,"peta":14982,"Lips":14983,"Roa":14984,"Row":14985,"Rovio":14986,"Rozas":14987,"wild":14988,"ols":14989,"rys":14990,"Viet":14991,"fia":14992,"Winnie":14993,"Winds":14994,"ï½¡":14995,"BCR":14996,"asse":14997,"Motion":14998,"BASE":14999,"AMI":15000,"BSP":15001,"Dae":15002,"Date":15003,"Proleague":15004,"7600":15005,"Did":15006,"Dim":15007,"Dior":15008,"Diet":15009,"Ditto":15010,"conso":15011,"concer":15012,"Size":15013,"SiO2":15014,"Sigma":15015,"Marcel":15016,"Sect":15017,"ACK":15018,"Beast":15019,"Ars":15020,"Arms":15021,"Toon":15022,"Toll":15023,"80000":15024,"Polo":15025,"Bona":15026,"Father":15027,"9700":15028,"Naka":15029,"Soli":15030,"social":15031,"Hits":15032,"mere":15033,"Kil":15034,"Kita":15035,"Kiri":15036,"Kiev":15037,"Hae":15038,"ANY":15039,"SSB":15040,"ITED":15041,"goni":15042,"rton":15043,"Pilot":15044,"bytes":15045,"SMG":15046,"Constru":15047,"Connor":15048,"Consul":15049,"Conrad":15050,"Gecko":15051,"Tag":15052,"Tari":15053,"Taku":15054,"Heyo":15055,"Kay":15056,"à¸Ĺ":15057,"ALn":15058,"php":15059,"phora":15060,"Carver":15061,"Bureau":15062,"Buenos":15063,"HKU":15064,"vention":15065,"2.57":15066,"MPK":15067,"Wake":15068,"voca":15069,"MySpace":15070,"Myself":15071,"External":15072,"MOA":15073,"Citizen":15074,"SOA":15075,"SOFT":15076,"IGP":15077,"cribed":15078,"4.19":15079,"4.26":15080,"6.12":15081,"6.30":15082,"6.26":15083,"vani":15084,"DC600V":15085,"ESI":15086,"DRS":15087,"Newrite":15088,"OpenEXR":15089,"gery":15090,"MCU":15091,"Santi":15092,"cluster":15093,"prises":15094,"Corn":15095,"Cortina":15096,"Korean":15097,"NOC":15098,"Student":15099,"RTS":15100,"Jess":15101,"DOALA":15102,"HEY":15103,"HEART":15104,"Monster":15105,"beginning":15106,"Shape":15107,"BEV":15108,"BEAT":15109,"MDB":15110,"Herzog":15111,"pread":15112,"Ask":15113,"tello":15114,"Vox":15115,"CLAN":15116,"expe":15117,"McCar":15118,"McCan":15119,"straat":15120,"Georgia":15121,"WTA500":15122,"8.75":15123,"Morph":15124,"acfun":15125,"Tracy":15126,"DDI":15127,"mbre":15128,"Speech":15129,"Porsche":15130,"Sunny":15131,"PLANET":15132,"Hannah":15133,"hyper":15134,"credi":15135,"IUAV":15136,"4.04":15137,"Crow":15138,"Elements":15139,"DFT":15140,"Br2":15141,"Choerry":15142,"Holding":15143,"4.89":15144,"PowerBook":15145,"ð«Ķ":15146,"Garrett":15147,"Terminal":15148,"Alphabet":15149,"Fans":15150,"Fant":15151,"Spie":15152,"VOL":15153,"dragon":15154,"Burn":15155,"SF3":15156,"SFX":15157,"4.74":15158,"Cl3":15159,"PRPP":15160,"6.06":15161,"Paramount":15162,"Maxwell":15163,"Yuri":15164,"Zealand":15165,"KKA":15166,"BFG":15167,"Scientific":15168,"opera":15169,"logie":15170,"gress":15171,"Museo":15172,"Ballad":15173,"period":15174,"Champions":15175,"Dylan":15176,"DK1":15177,"Codex":15178,"GR.1":15179,"GRAPH":15180,"singles":15181,"âĳ£":15182,"Marina":15183,"Marion":15184,"Palo":15185,"FAT16":15186,"RPGFan":15187,"Jenny":15188,"Jennifer":15189,"____":15190,"turer":15191,"Automatic":15192,"CUDA":15193,"Clopin":15194,"appli":15195,"brevi":15196,"Grill":15197,"Bond":15198,"ULAS":15199,"blog":15200,"AXA":15201,"Gillian":15202,"feature":15203,"Sally":15204,"posium":15205,"Murder":15206,"Memory":15207,"techni":15208,"technical":15209,"casting":15210,"FIRE":15211,"includeonly":15212,"Dolce":15213,"XC40":15214,"Tools":15215,"NIH":15216,"TOKIO":15217,"Angels":15218,"Betty":15219,"Between":15220,"Apollo":15221,"KTX":15222,"QUAKE":15223,"product":15224,"Felipe":15225,"Phase":15226,"Catalogue":15227,"Editor":15228,"Beit":15229,"invo":15230,"Sterling":15231,"glise":15232,"ð¬ĵĳ":15233,"Quantum":15234,"GP40PH":15235,"hydroxy":15236,"Architects":15237,"Knowledge":15238,"Hook":15239,"FIRA":15240,"Mirror":15241,"RIAA":15242,"Course":15243,"village":15244,"processing":15245,"Glenn":15246,"LGBTQIA":15247,"ëŀĺ":15248,"Scorpio":15249,"Nimtz":15250,"Sainte":15251,"Robertson":15252,"Bharat":15253,"Whitney":15254,"components":15255,"Horizon":15256,"font":15257,"Environment":15258,"Rootkit":15259,"result":15260,"Evang":15261,"security":15262,"Insider":15263,"FTTH":15264,"STORY":15265,"success":15266,"nationale":15267,"CpG":15268,"EGOIST":15269,"STAFF":15270,"PubMed":15271,"Imagination":15272,"Glasgow":15273,"INVECS":15274,"course":15275,"PzB":15276,"SQUARE":15277,"MRSWS":15278,"Supreme":15279,"temporary":15280,"JEDEC":15281,"Skousen":15282,"Kakitaan":15283,"Nvidia":15284,".13":15285,".2015":15286,"079":15287,"076":15288,"096":15289,"1K":15290,"1R":15291,"4.1%":15292,"4WD":15293,"5V":15294,"6G":15295,"6.7%":15296,"8100":15297,"8.1%":15298,"9A":15299,"9.2%":15300,"Ame":15301,"Aes":15302,"A95":15303,"Att":15304,"Aqui":15305,"Amber":15306,"Alvin":15307,"B0":15308,"Bj":15309,"Buo":15310,"B10":15311,"BON":15312,"CMA":15313,"CIP":15314,"CEST":15315,"Clip":15316,"Dru":15317,"DTV":15318,"DBA":15319,"Dus":15320,"DAV":15321,"Dharma":15322,"DENCE":15323,"Ena":15324,"E.5":15325,"Edie":15326,"Egy":15327,"E9%":15328,"Elena":15329,"EEPROM":15330,"F8":15331,"FH":15332,"Fang":15333,"FAS":15334,"FAL":15335,"Flight":15336,"GV":15337,"GIA":15338,"GCS":15339,"GDF":15340,"GEM":15341,"Hao":15342,"H11":15343,"Hamp":15344,"HBL":15345,"HHT":15346,"HYP":15347,"IY":15348,"Ib":15349,"Ig":15350,"Isi":15351,"ISE":15352,"IMA":15353,"JF":15354,"Jai":15355,"J300":15356,"Jis":15357,"JET":15358,"J1120":15359,"Kp":15360,"Kou":15361,"Kni":15362,"Kwo":15363,"Koo":15364,"KIC":15365,"KBM":15366,"LTA":15367,"LCR":15368,"LHC":15369,"Mb":15370,"M198":15371,"M13":15372,"M32":15373,"MBS":15374,"M73":15375,"MDS":15376,"NSM":15377,"NPO":15378,"NECT":15379,"Oi":15380,"Oz":15381,"Opi":15382,"Oak":15383,"OCLC":15384,"PBA":15385,"PAR":15386,"PPC":15387,"PWM":15388,"Q5":15389,"Rhi":15390,"RAP":15391,"RAN":15392,"SX":15393,"Sino":15394,"Slim":15395,"Slee":15396,"Tse":15397,"TAC":15398,"TEC":15399,"Ubi":15400,"VGA":15401,"WIM":15402,"WLAN":15403,"X5":15404,"XB":15405,"Xpress":15406,"Xposed":15407,"Yue":15408,"Zai":15409,"ado":15410,"above":15411,"bc":15412,"bound":15413,"c8":15414,"eta":15415,"eye":15416,"eus":15417,"fd":15418,"fony":15419,"g1":15420,"ggs":15421,"hler":15422,"image":15423,"kri":15424,"kbit":15425,"oh":15426,"pping":15427,"ppen":15428,"spa":15429,"stem":15430,"tsi":15431,"trun":15432,"uary":15433,"Â´":15434,"ÃĦ":15435,"Îķ":15436,"Îĺ":15437,"ÐŃ":15438,"ÑĹ":15439,"Õ«":15440,"×©":15441,"Ú©":15442,"à°":15443,"ì¹":15444,"ania":15445,"anga":15446,"aise":15447,"deep":15448,"development":15449,"chka":15450,"liga":15451,"limited":15452,"lities":15453,"ãĢĸ":15454,"ãĢĹ":15455,"ãĢĿ":15456,"ãĢŀ":15457,"uil":15458,"dich":15459,"hear":15460,"eru":15461,"hue":15462,"sino":15463,"sium":15464,"sibility":15465,"gese":15466,"gebra":15467,"keV":15468,"keley":15469,"chule":15470,"fami":15471,"faci":15472,"tiv":15473,"mith":15474,"2060":15475,"rig":15476,"riel":15477,"ried":15478,"mingham":15479,"lett":15480,"lepis":15481,"cino":15482,"yant":15483,"duin":15484,"lure":15485,"duk":15486,"sheet":15487,"rush":15488,"daily":15489,"bool":15490,"teer":15491,"bene":15492,"lato":15493,"maker":15494,"making":15495,"bah":15496,"bari":15497,"bard":15498,"basis":15499,"mena":15500,"tul":15501,"sua":15502,"suchus":15503,"neider":15504,"mori":15505,"names":15506,"china":15507,"200m":15508,"kup":15509,"tingui":15510,"pula":15511,"puram":15512,"chal":15513,"cano":15514,"ceceo":15515,"kau":15516,"kada":15517,"manuel":15518,"geni":15519,"1173":15520,"pond":15521,"porate":15522,"reverse":15523,"hari":15524,"saki":15525,"16.3":15526,"17.4":15527,"onka":15528,"30.5":15529,"13.5%":15530,"sena":15531,"pact":15532,"patri":15533,"24.2":15534,"24.4":15535,"23.1":15536,"28.4":15537,"ined":15538,"instance":15539,"22.4":15540,"melo":15541,"memb":15542,"27.7":15543,"ï¼¸":15544,"ï¼Ļ":15545,"zam":15546,"000K":15547,"need":15548,"rote":15549,"rah":15550,"radi":15551,"rame":15552,"40.1":15553,"lto":15554,"culi":15555,"culation":15556,"alle":15557,"alla":15558,"31.6":15559,"0.84":15560,"0.73":15561,"0.94":15562,"0.91":15563,"foun":15564,"cope":15565,"colla":15566,"fotable":15567,"80km":15568,"1.14":15569,"1.24":15570,"1.88":15571,"1.87":15572,"1.73":15573,"1.9%":15574,"35.9":15575,"lotte":15576,"2.88":15577,"2.79":15578,"2.89":15579,"2.74":15580,"2.86":15581,"2.97":15582,"2.96":15583,"2.83":15584,"2.7%":15585,"ampi":15586,"terson":15587,"mies":15588,"thos":15589,"think":15590,"total":15591,"gae":15592,"gata":15593,"gative":15594,"36.8":15595,"37.2":15596,"Mash":15597,"Mayer":15598,"Mamiya":15599,"penter":15600,"INS":15601,"3.12":15602,"3.24":15603,"3.23":15604,"3.50":15605,"3.38":15606,"3.47":15607,"3.68":15608,"3.89":15609,"TCB":15610,"dori":15611,"Cost":15612,"Cock":15613,"Colla":15614,"Coven":15615,"cae":15616,"cause":15617,"behavi":15618,"STR":15619,"Indone":15620,"vious":15621,".83%":15622,".86%":15623,".88%":15624,"SER":15625,"SENS":15626,"Revi":15627,"Replay":15628,"Recht":15629,"Remember":15630,"Remote":15631,"Re.2005":15632,"hicles":15633,".98%":15634,"Mills":15635,"Milk":15636,"pee":15637,"LiC":15638,"Liz":15639,"vere":15640,"Rolf":15641,"SAR":15642,"SANA":15643,"SASS":15644,"wser":15645,"TV4":15646,"ryl":15647,"MeToo":15648,"Vivi":15649,"Palais":15650,"NAMCO":15651,"Dell":15652,"Defrag":15653,"CDM":15654,"Winchester":15655,"Statis":15656,"Wish":15657,"Witt":15658,"Wiener":15659,"BCA":15660,"Modi":15661,"Lago":15662,"Labs":15663,"gifts":15664,"Leung":15665,"Legal":15666,"Tek":15667,"Jaya":15668,"Jawa":15669,"conside":15670,"Nep":15671,"Rate":15672,"kim":15673,"Sebas":15674,"Before":15675,"ISU":15676,"Cari":15677,"Capo":15678,"Came":15679,"Cable":15680,"Arte":15681,"Together":15682,"centra":15683,"ICU":15684,"Poe":15685,"Pom":15686,"Logan":15687,"stau":15688,"stable":15689,"Both":15690,"IDTM":15691,"Saka":15692,"Salvad":15693,"Satellite":15694,"Naz":15695,"Nagar":15696,"Nacional":15697,"Hos":15698,"Hots":15699,"Holiday":15700,"sov":15701,"Dow":15702,"Dolo":15703,"Rider":15704,"Ridge":15705,"Ricci":15706,"Tina":15707,"Tiffan":15708,"Musical":15709,"Nishi":15710,"Chad":15711,"SSM":15712,"Notre":15713,"Nothing":15714,"Anders":15715,"PCV":15716,"DVI":15717,"kot":15718,"kowski":15719,"Tale":15720,"mpton":15721,"Hemi":15722,"Katherine":15723,"ETtoday":15724,"0.0%":15725,"0.02%":15726,"à¸Ĭ":15727,"alization":15728,"Buy":15729,"Button":15730,"2.51":15731,"2.56":15732,"prote":15733,"DSLR":15734,"Stellar":15735,"Going":15736,"Wagon":15737,"Forge":15738,"Formula":15739,"CPL":15740,"UNB":15741,"UNI":15742,"âĪ¼":15743,"FCC":15744,"vowel":15745,"Myco":15746,"MyClass":15747,"Extreme":15748,"TOW":15749,"MOR":15750,"Cit":15751,"SOM":15752,"SOCK":15753,"SOUL":15754,"LEED":15755,"BOOK":15756,"BOCU":15757,"Schwar":15758,"ADE":15759,"ADO":15760,"IGO":15761,"4.12":15762,"4.11":15763,"4.17":15764,"4.31":15765,"4.35":15766,"4.34":15767,"4.75":15768,"4.47":15769,"4.43":15770,"tono":15771,"MEA":15772,"CRM":15773,"CRT":15774,"CRIS":15775,"6.20":15776,"6.18":15777,"6.21":15778,"6.43":15779,"TEMP":15780,"Lua":15781,"Primary":15782,"Fest":15783,"3501":15784,"5.26":15785,"jaya":15786,"books":15787,"optional":15788,"Newman":15789,"Newtype":15790,"OpenType":15791,"HOLiC":15792,"Sana":15793,"corona":15794,"Personal":15795,"Baro":15796,"Barrett":15797,"à¤ħ":15798,"Harmony":15799,"LLION":15800,"lask":15801,"AAAA":15802,"Jupiter":15803,"Sera":15804,"univer":15805,"Pura":15806,"Couch":15807,"Presto":15808,"Pretty":15809,"Edna":15810,"TTL":15811,"PPIs":15812,"SCUM":15813,"Dana":15814,"Nordic":15815,"Asy":15816,"Aires":15817,"VoIP":15818,"4.52":15819,"Cancer":15820,"ILY":15821,"SHI":15822,"Ortho":15823,"PGC":15824,"PORT":15825,"SL9":15826,"ãĦĩ":15827,"5.52":15828,"Unpa":15829,"Unter":15830,"Trading":15831,"GND":15832,"GNS":15833,"Vera":15834,"Very":15835,"DDT":15836,"6.52":15837,"Starry":15838,"zona":15839,"Abdel":15840,"NTFS":15841,"Escape":15842,"strum":15843,"Bene":15844,"Bloom":15845,"Alexis":15846,"Else":15847,"Mink":15848,"Boot":15849,"spring":15850,"sphere":15851,"Helena":15852,"syndrome":15853,"Shield":15854,"Freeman":15855,"Survi":15856,"vinyasa":15857,"Lounge":15858,"EF15":15859,"rics":15860,"PowerPC":15861,"garo":15862,"garten":15863,"Term":15864,"Terri":15865,"spective":15866,"Landing":15867,"Darren":15868,"vski":15869,"Dreams":15870,"Dreamcast":15871,"Fantastic":15872,"33.9":15873,"Fergu":15874,"Amman":15875,"NESS":15876,"LAST":15877,"SIMD":15878,"5.84":15879,"6.02":15880,"6.05":15881,"llschaft":15882,"ICOMOS":15883,"Tune":15884,"Institut":15885,"Guillaume":15886,"subsp":15887,"Minister":15888,"Quest":15889,"âīł":15890,"à¹ģ":15891,"Codemaster":15892,"temps":15893,"TMX":15894,"original":15895,"Kane":15896,"á»ĩ":15897,"MobileMe":15898,"Griffi":15899,"Griffin":15900,"ULTRA":15901,"STAYC":15902,"Alfonso":15903,"Mouse":15904,"Nuclear":15905,"Hammer":15906,"Trophy":15907,"CryENGINE":15908,"ready":15909,"Enviro500":15910,"oides":15911,"tification":15912,"positive":15913,"Catch":15914,"PROJECT":15915,"practice":15916,"HBX":15917,"ODAP":15918,"Nikola":15919,"Fleetwood":15920,"Crying":15921,"Password":15922,"Dollar":15923,"Target":15924,"Honne":15925,"init":15926,"Heights":15927,"XCX":15928,"âĤĩ":15929,"NIKE":15930,"Thana":15931,"Solstice":15932,"industry":15933,"ASTRO":15934,"Romance":15935,"Connection":15936,"Solomon":15937,"Ariel":15938,"Evergreen":15939,"Reading":15940,"DECA":15941,"Babylon":15942,"H3O":15943,"NULL":15944,"âĻŃ":15945,"WWC":15946,"creation":15947,"mod7":15948,"Rhino":15949,"Anthro":15950,"Stevens":15951,"NCCs":15952,"Integer":15953,"DHCP":15954,"Binding":15955,"client":15956,"Everybody":15957,"Trail":15958,"Quinn":15959,"Basket":15960,"Sherman":15961,"qualifier":15962,"TAIJI":15963,"Tactical":15964,"Genesis":15965,"Emil":15966,"Motorola":15967,"ð¡İ":15968,"cauda":15969,"ìĭľ":15970,"DKZ4":15971,"Event":15972,"Oude":15973,"failed":15974,"Finance":15975,"particular":15976,"PETA":15977,"Priceline":15978,"Symposium":15979,"Flora":15980,"PSTN":15981,"Continental":15982,"property":15983,"ì§Ģ":15984,"provide":15985,"CR300BF":15986,"KENTA":15987,"covered":15988,"LPDDR5":15989,"Alexandra":15990,"Macromedia":15991,"Illustra":15992,"â¼Ģ":15993,"ð«Ł»":15994,"groups":15995,"EEEEEE":15996,"Greatest":15997,"ìĨĮ":15998,"ciples":15999}