{"!":0,"\"":1,"#":2,"$":3,"%":4,"&":5,"'":6,"(":7,")":8,"*":9,"+":10,",":11,"-":12,".":13,"/":14,"0":15,"1":16,"2":17,"3":18,"4":19,"5":20,"6":21,"7":22,"8":23,"9":24,":":25,";":26,"=":27,"?":28,"@":29,"A":30,"B":31,"C":32,"D":33,"E":34,"F":35,"G":36,"H":37,"I":38,"J":39,"K":40,"L":41,"M":42,"N":43,"O":44,"P":45,"Q":46,"R":47,"S":48,"T":49,"U":50,"V":51,"W":52,"X":53,"Y":54,"Z":55,"[":56,"\\":57,"]":58,"^":59,"_":60,"`":61,"a":62,"b":63,"c":64,"d":65,"e":66,"f":67,"g":68,"h":69,"i":70,"j":71,"k":72,"l":73,"m":74,"n":75,"o":76,"p":77,"q":78,"r":79,"s":80,"t":81,"u":82,"v":83,"w":84,"x":85,"y":86,"z":87,"|":88,"~":89,"¡":90,"¢":91,"£":92,"¤":93,"¥":94,"¦":95,"§":96,"¨":97,"©":98,"ª":99,"«":100,"¬":101,"®":102,"¯":103,"°":104,"±":105,"²":106,"³":107,"´":108,"µ":109,"¶":110,"·":111,"¸":112,"¹":113,"º":114,"»":115,"¼":116,"½":117,"¾":118,"¿":119,"Â":120,"Ã":121,"Ä":122,"Å":123,"Æ":124,"Ç":125,"È":126,"É":127,"Ê":128,"Ë":129,"Ì":130,"Í":131,"Î":132,"Ï":133,"Ð":134,"Ñ":135,"Ò":136,"Ó":137,"Ô":138,"Õ":139,"Ö":140,"×":141,"Ø":142,"Ù":143,"Ú":144,"Û":145,"Ü":146,"Þ":147,"ß":148,"à":149,"á":150,"â":151,"ã":152,"ä":153,"ê":154,"ë":155,"ì":156,"í":157,"î":158,"ï":159,"ð":160,"ñ":161,"Ċ":162,"Ġ":163,"ġ":164,"Ģ":165,"ģ":166,"Ĥ":167,"ĥ":168,"Ħ":169,"ħ":170,"Ĩ":171,"ĩ":172,"Ī":173,"ī":174,"Ĭ":175,"ĭ":176,"Į":177,"į":178,"İ":179,"ı":180,"Ĳ":181,"ĳ":182,"Ĵ":183,"ĵ":184,"Ķ":185,"ķ":186,"ĸ":187,"Ĺ":188,"ĺ":189,"Ļ":190,"ļ":191,"Ľ":192,"ľ":193,"Ŀ":194,"ŀ":195,"Ł":196,"ł":197,"Ń":198,"ng":199,"i4":200,"an":201,"sh":202,"zh":203,"ng1":204,"ji":205,"u4":206,"ng2":207,"ĠĠ":208,"i2":209,"ao":210,"xi":211,"ng4":212,"an2":213,"i3":214,"i1":215,"de":216,"u3":217,"an4":218,"e4":219,"en":220,"ch":221,"uo":222,"u2":223,"ng3":224,"an1":225,"e2":226,"ai4":227,"u1":228,"ĠĠĠ":229,"ong1":230,"a1":231,"ãĢ":232,"shi4":233,"ei4":234,"ao4":235,"ian2":236,"a4":237,"yu":238,"ang1":239,"yo":240,"an3":241,"n1":242,"hu":243,"ang4":244,"nian2":245,"en2":246,"li":247,"ang3":248,"eng2":249,"uo4":250,"uo2":251,"wei4":252,"mi":253,"ao3":254,"zai4":255,"ãĢģ":256,"bi":257,"qi":258,"ang2":259,"e1":260,"he2":261,"yi":262,"eng1":263,"zhong1":264,"er":265,"bu4":266,"ou4":267,"a3":268,"e3":269,"n4":270,"shi2":271,"di4":272,"guo2":273,"ai2":274,"ui4":275,"ren2":276,"ao1":277,"xu":278,"yi1":279,"n2":280,"ong2":281,"yu2":282,"gu":283,"li4":284,"zhi4":285,"di":286,"we":287,"en4":288,"cheng2":289,"ong4":290,"yi4":291,"gong1":292,"ji2":293,"eng4":294,"en1":295,"yue4":296,"you3":297,"yuan2":298,"da4":299,"a2":300,"le":301,"ji4":302,"20":303,"yi3":304,"ju":305,"ai1":306,"pi":307,"xian4":308,"ou1":309,"jia1":310,"si1":311,"xing2":312,"ei3":313,"ti":314,"yu3":315,"ji1":316,"ta1":317,"ri4":318,"zhi1":319,"hou4":320,"li3":321,"ou3":322,"ai3":323,"wei2":324,"hui4":325,"dao4":326,"19":327,"ong3":328,"qi2":329,"uan2":330,"zheng4":331,"ming2":332,"xi1":333,"ao2":334,"jian4":335,"xue2":336,"chu1":337,"ge4":338,"zuo4":339,"uo1":340,"sheng1":341,"dui4":342,"you2":343,"uo3":344,"qu1":345,"shang4":346,"en3":347,"de2":348,"bei4":349,"shi3":350,"zhu":351,"zhan4":352,"n3":353,"xin1":354,"jun1":355,"er3":356,"she4":357,"ren4":358,"fa1":359,"wu4":360,"bing4":361,"ke4":362,"er2":363,"lu4":364,"dai4":365,"zhu3":366,"yi2":367,"shu4":368,"ju4":369,"jin4":370,"zi4":371,"yin1":372,"fu4":373,"fang1":374,"jing1":375,"nan2":376,"hua4":377,"zhou1":378,"ping2":379,"xia4":380,"lai2":381,"yong4":382,"guan1":383,"tong2":384,"yu4":385,"ãĢĭ":386,"ãĢĬ":387,"fa3":388,"zhu4":389,"mei3":390,"Â·":391,"jian1":392,"bo":393,"huo4":394,"ben3":395,"xiang1":396,"zhi2":397,"dong4":398,"xiang4":399,"min2":400,"zhe4":401,"jiang1":402,"qi1":403,"fen1":404,"shou3":405,"quan2":406,"wen2":407,"yan2":408,"suo3":409,"jiao4":410,"qian2":411,"dian4":412,"te4":413,"duo1":414,"zui4":415,"kai1":416,"jie2":417,"lian2":418,"zhi3":419,"xi4":420,"ke3":421,"eng3":422,"ei1":423,"dan4":424,"mu4":425,"ye4":426,"du4":427,"fu2":428,"shu":429,"ma3":430,"ye3":431,"dong1":432,"qiu2":433,"bei3":434,"ãĢĮ":435,"ãĢį":436,"gao1":437,"ya4":438,"ou2":439,"du":440,"jie1":441,"un2":442,"mian4":443,"hai3":444,"zhang3":445,"shi1":446,"jin1":447,"ci3":448,"nei4":449,"sai4":450,"san1":451,"tai2":452,"ge2":453,"xing4":454,"guo4":455,"201":456,"deng3":457,"yao4":458,"che1":459,"ci4":460,"su":461,"mo":462,"ru4":463,"wu3":464,"gai1":465,"ku":466,"ding4":467,"chang2":468,"biao3":469,"la1":470,"ti3":471,"gong4":472,"jie4":473,"shou4":474,"dao3":475,"shan1":476,"chang3":477,"si4":478,"lv":479,"ze2":480,"ti2":481,"ke1":482,"dang1":483,"neng2":484,"er4":485,"wai4":486,"ei2":487,"chu":488,"dan1":489,"qi3":490,"zi":491,"kou3":492,"xiao3":493,"zu3":494,"ba1":495,"jue2":496,"lin2":497,"liu2":498,"ni":499,"sheng3":500,"ying1":501,"lan2":502,"bi3":503,"luo2":504,"tong1":505,"200":506,"zhong4":507,"zhe3":508,"shu3":509,"tian1":510,"zhen4":511,"zhong3":512,"lie4":513,"qi4":514,"cheng1":515,"shu1":516,"yuan4":517,"bao3":518,"tai4":519,"fu3":520,"feng1":521,"mi3":522,"qing1":523,"shen1":524,"wang2":525,"yun4":526,"guan3":527,"fei1":528,"jiu4":529,"gu3":530,"liang3":531,"ceng2":532,"mei2":533,"10":534,"fen4":535,"hao4":536,"yan3":537,"wei3":538,"zong3":539,"xuan3":540,"xiao4":541,"da2":542,"na4":543,"liang4":544,"bo1":545,"zu2":546,"jing4":547,"bao4":548,"ni2":549,"wu2":550,"tong3":551,"hua2":552,"jiao1":553,"yue1":554,"ying3":555,"bian4":556,"xing1":557,"su4":558,"shui3":559,"yang2":560,"men":561,"bao1":562,"ge1":563,"bo2":564,"can1":565,"cong2":566,"dian3":567,"ru2":568,"ban4":569,"bi4":570,"bian1":571,"wang3":572,"qu3":573,"chan3":574,"se4":575,"zi1":576,"qu":577,"00":578,"chuan2":579,"nv":580,"sheng4":581,"ran2":582,"tu2":583,"zhang1":584,"xu4":585,"pu3":586,"gai3":587,"gang3":588,"nv3":589,"ling4":590,"luo4":591,"you4":592,"tou2":593,"hu4":594,"cha2":595,"ce4":596,"chi2":597,"18":598,"lv4":599,"qian1":600,"li2":601,"dou1":602,"12":603,"zheng1":604,"kuo4":605,"sha1":606,"lu":607,"dang3":608,"fan3":609,"gou4":610,"lei4":611,"xi2":612,"jing3":613,"tuan2":614,"wei1":615,"xie1":616,"ling3":617,"long2":618,"gui1":619,"xian1":620,"rong2":621,"huang2":622,"xiang3":623,"ban1":624,"jiu3":625,"ying4":626,"men2":627,"shang1":628,"shen2":629,"202":630,"ban3":631,"ka3":632,"cu":633,"mu3":634,"jin3":635,"fu1":636,"ju3":637,"mo2":638,"guang3":639,"ci2":640,"shuo1":641,"qing2":642,"zhan3":643,"hai2":644,"zhuang1":645,"mo4":646,"cai2":647,"ji3":648,"du2":649,"11":650,"pin3":651,"ting2":652,"chao2":653,"ying2":654,"wo":655,"tiao2":656,"po":657,"jian3":658,"tang2":659,"hui2":660,"duan4":661,"chen2":662,"gen1":663,"mi4":664,"wan4":665,"pai2":666,"wan1":667,"zao4":668,"hang2":669,"wan2":670,"biao1":671,"lun2":672,"199":673,"xie2":674,"jiang3":675,"han4":676,"ju2":677,"fan4":678,"fang2":679,"huo2":680,"gu4":681,"han2":682,"kong1":683,"tie3":684,"meng2":685,"bie2":686,"wu1":687,"jie3":688,"zhuan1":689,"yin3":690,"xu1":691,"zhen1":692,"jia4":693,"bing1":694,"ming4":695,"ling2":696,"hong2":697,"qin1":698,"zi3":699,"lun4":700,"tu":701,"or":702,"xin4":703,"chu4":704,"su1":705,"xiu1":706,"chu3":707,"zong1":708,"15":709,"hu2":710,"que4":711,"xiao1":712,"zhao4":713,"qiang2":714,"qu4":715,"cun1":716,"chong2":717,"pian4":718,"jiu1":719,"fang4":720,"sui2":721,"shou1":722,"geng4":723,"âĢ":724,"guang1":725,"ju1":726,"jia3":727,"chuang4":728,"di2":729,"zhuan3":730,"16":731,"guo3":732,"xun4":733,"man4":734,"pai4":735,"fei4":736,"pei4":737,"198":738,"da3":739,"tuo1":740,"xuan1":741,"chu2":742,"bai2":743,"la":744,"on":745,"zhu1":746,"du1":747,"tu3":748,"diao4":749,"xia2":750,"liu4":751,"17":752,"sui4":753,"hui1":754,"ting1":755,"qie3":756,"ta3":757,"qiao2":758,"ha1":759,"gan3":760,"zeng1":761,"xian3":762,"mai4":763,"huan2":764,"xu3":765,"wa3":766,"tui1":767,"wen4":768,"chao1":769,"tian2":770,"bai3":771,"cai3":772,"liang2":773,"ya2":774,"sa4":775,"ar":776,"bai4":777,"cun2":778,"jiao3":779,"shao3":780,"yan4":781,"zhuang4":782,"di3":783,"huo3":784,"lei2":785,"14":786,"jiang4":787,"chuan1":788,"yin4":789,"zao3":790,"yong3":791,"si3":792,"deng1":793,"30":794,"zhun3":795,"le4":796,"xun2":797,"nuo4":798,"huan4":799,"song4":800,"gao4":801,"lu3":802,"13":803,"194":804,"bang1":805,"lv3":806,"yang4":807,"hen3":808,"qun2":809,"zheng3":810,"guan4":811,"po4":812,"gang1":813,"wo3":814,"197":815,"hua1":816,"lei1":817,"hao3":818,"tao2":819,"kuang4":820,"pi1":821,"dun4":822,"nong2":823,"gei3":824,"sai1":825,"shuang1":826,"lian4":827,"kuai4":828,"in":829,"di1":830,"pan4":831,"xie3":832,"195":833,"kao3":834,"gai4":835,"he4":836,"hei1":837,"wang4":838,"liao4":839,"re4":840,"ge":841,"zuo3":842,"kong4":843,"196":844,"yang1":845,"chang4":846,"yin2":847,"reng2":848,"sen1":849,"bei1":850,"lu2":851,"piao4":852,"ya1":853,"ku4":854,"25":855,"bin1":856,"âĢĶ":857,"rang4":858,"chong1":859,"lou2":860,"bu3":861,"lao3":862,"zhu2":863,"jun4":864,"yang3":865,"rui4":866,"yao1":867,"xian2":868,"xie4":869,"nian4":870,"for":871,"you1":872,"tan2":873,"kang1":874,"pi2":875,"heng2":876,"yun2":877,"kan4":878,"ning2":879,"liao2":880,"shao4":881,"bu2":882,"qing3":883,"chi3":884,"24":885,"mu":886,"dou4":887,"mian3":888,"yong1":889,"tan3":890,"wan3":891,"hu1":892,"ru":893,"fan1":894,"al":895,"tu1":896,"gan1":897,"suan4":898,"ding1":899,"yuan3":900,"wen1":901,"tui4":902,"zhe":903,"st":904,"21":905,"xiu4":906,"ba3":907,"man3":908,"193":909,"23":910,"mula":911,"kang4":912,"formula":913,"28":914,"th":915,"mao2":916,"ruo4":917,"pian1":918,"mao4":919,"lang3":920,"qin2":921,"ba2":922,"na2":923,"zan4":924,"xi3":925,"gui3":926,"gui4":927,"re":928,"pin2":929,"wo4":930,"xiong2":931,"shan4":932,"22":933,"xiong1":934,"me":935,"sui1":936,"26":937,"shen3":938,"qing4":939,"miao2":940,"fang3":941,"50":942,"2020":943,"27":944,"lang2":945,"ou":946,"qiu1":947,"song1":948,"ri":949,"dang4":950,"geng1":951,"qiang1":952,"fa2":953,"zao1":954,"feng4":955,"zhang4":956,"ï¼":957,"hao2":958,"dun1":959,"zou3":960,"hai4":961,"qie4":962,"29":963,"tan4":964,"zu":965,"pao4":966,"pa4":967,"shun4":968,"peng2":969,"xuan2":970,"2010":971,"ni3":972,"000":973,"ding3":974,"niu3":975,"zai3":976,"zhao1":977,"zhui1":978,"lve4":979,"chun1":980,"2019":981,"hun1":982,"kong3":983,"che4":984,"duan1":985,"shen4":986,"xiang2":987,"duan3":988,"gan4":989,"ro":990,"te":991,"kan1":992,"lao2":993,"cao3":994,"2016":995,"si":996,"gu1":997,"pei2":998,"kuan3":999,"za2":1000,"2018":1001,"sun1":1002,"ye2":1003,"ya3":1004,"ra":1005,"po1":1006,"2021":1007,".5":1008,"zha4":1009,"chi4":1010,"duo2":1011,"2014":1012,"fan2":1013,"2011":1014,"2015":1015,"cuo4":1016,"2017":1017,"zhe2":1018,"yao2":1019,"pai1":1020,"tou4":1021,"cang2":1022,"2012":1023,"40":1024,"kai3":1025,"2013":1026,"2022":1027,"mi2":1028,"ruan3":1029,"suan1":1030,"cha1":1031,"zang4":1032,"miao4":1033,"lt":1034,"2009":1035,"zhao3":1036,"2008":1037,"huai2":1038,"ãĥ":1039,"ce":1040,"60":1041,"xue4":1042,"chou2":1043,"se":1044,"bang3":1045,"am":1046,"meng4":1047,"100":1048,"ti4":1049,"pu2":1050,"nao3":1051,"2023":1052,"zhuan4":1053,"gt":1054,"lei3":1055,"190":1056,"31":1057,"cai4":1058,"san4":1059,"mou2":1060,"tion":1061,"hun4":1062,"kuan1":1063,"2007":1064,"ta":1065,"niu2":1066,"mou3":1067,"tao3":1068,"die2":1069,"2001":1070,"teng2":1071,"sou1":1072,"ken3":1073,"0.":1074,"qian3":1075,"chang1":1076,"ran3":1077,"que1":1078,"fou3":1079,"sun3":1080,"fo":1081,"ba4":1082,"2000":1083,"80":1084,"kao4":1085,"suo1":1086,"2006":1087,"niao3":1088,"pi3":1089,"chun2":1090,"2024":1091,"lan3":1092,"ãģ":1093,"zai1":1094,"co":1095,"xue3":1096,"hui3":1097,"el":1098,"ma":1099,"luan4":1100,"1.":1101,"ting3":1102,"2005":1103,"zun1":1104,"bang4":1105,"la4":1106,"huan1":1107,"rang3":1108,"shui4":1109,"min3":1110,"35":1111,"lai4":1112,"cang1":1113,"70":1114,"fo2":1115,"pan2":1116,"nai4":1117,"wen3":1118,"ne":1119,"cao1":1120,"of":1121,"sang1":1122,"pang2":1123,"90":1124,"2.":1125,"bing3":1126,"ï¼į":1127,"ter":1128,"zha1":1129,"ãĤ":1130,"shuai4":1131,"nie4":1132,"hou2":1133,"mei4":1134,"shao1":1135,"nu3":1136,"dong3":1137,"il":1138,"feng2":1139,"mie4":1140,"yun3":1141,"zou4":1142,"mai3":1143,"huai4":1144,"2004":1145,"45":1146,"lo":1147,"yan1":1148,"the":1149,"he":1150,"48":1151,"zhuo2":1152,"at":1153,"and":1154,"tao4":1155,"nai3":1156,"kun1":1157,"2025":1158,"zhen3":1159,"ck":1160,"ru3":1161,"kua4":1162,"kui2":1163,"ãĢī":1164,"ãĢĪ":1165,"gou1":1166,"36":1167,"et":1168,"cui1":1169,"es":1170,"38":1171,"cu4":1172,"shan3":1173,"rou4":1174,"diao1":1175,"2003":1176,"hu3":1177,"guo1":1178,"37":1179,"cui4":1180,"xu2":1181,"is":1182,"mang2":1183,"juan3":1184,"to":1185,"can2":1186,"dian1":1187,"zhan1":1188,"cao2":1189,"189":1190,"IN":1191,"2002":1192,"3.":1193,"keng1":1194,"TC":1195,"ma2":1196,"34":1197,"leng3":1198,"as":1199,"zu1":1200,"cha4":1201,"75":1202,"âĢĵ":1203,"ow":1204,"su2":1205,"quan1":1206,"da1":1207,"chai1":1208,"lang4":1209,"kun4":1210,"46":1211,"tun2":1212,"fen3":1213,"1990":1214,"âĢ¦":1215,"ol":1216,"ve":1217,"zhou4":1218,"shang3":1219,"rao4":1220,"heng1":1221,"ti1":1222,"xun1":1223,"39":1224,"ne4":1225,"..":1226,"nan4":1227,"pan1":1228,"65":1229,"hong1":1230,"shu2":1231,"tan1":1232,"tang1":1233,"kan3":1234,"Ma":1235,"ni4":1236,"Ch":1237,"32":1238,"it":1239,"ST":1240,"han3":1241,"47":1242,"UTC":1243,"qian4":1244,"1999":1245,"1998":1246,"In":1247,"1980":1248,"188":1249,"500":1250,"33":1251,"64":1252,"qiang3":1253,"she2":1254,"shuo4":1255,"pao3":1256,"be":1257,"ka1":1258,"zhai2":1259,".8":1260,"SE":1261,"55":1262,"quan4":1263,"ni1":1264,"deng4":1265,"1997":1266,"The":1267,"Co":1268,"mian2":1269,"49":1270,"gao3":1271,"II":1272,"68":1273,"han":1274,"she3":1275,"zeng4":1276,"zhou2":1277,"zhai4":1278,"Re":1279,"1996":1280,"44":1281,"na":1282,"tie1":1283,"dao1":1284,"ad":1285,"br":1286,"1994":1287,"fei2":1288,"zong4":1289,"ir":1290,"qiong2":1291,"tiao4":1292,"chuang2":1293,".0":1294,".7":1295,"nd":1296,"1992":1297,"chui2":1298,"juan1":1299,"ci":1300,"chai2":1301,"miao3":1302,"ba":1303,"gua1":1304,"xue1":1305,"tong4":1306,"1995":1307,"fei3":1308,".9":1309,"chi1":1310,"meng3":1311,"wo1":1312,"67":1313,"shuai1":1314,"tuo2":1315,"chuang1":1316,"huan3":1317,"vi":1318,"1991":1319,"1970":1320,"58":1321,"1950":1322,"gua4":1323,"chan2":1324,"ca":1325,"300":1326,"wa1":1327,"1993":1328,"187":1329,"1949":1330,".6":1331,"ay":1332,"pe":1333,"sa1":1334,"tiao3":1335,"zha2":1336,"AT":1337,"1960":1338,"bian3":1339,"42":1340,"1945":1341,"ver":1342,"us":1343,"guai4":1344,"ku3":1345,"nu2":1346,"1988":1347,"du3":1348,"oo":1349,"1989":1350,"ig":1351,"pu4":1352,"69":1353,"liu3":1354,"ing":1355,"ur":1356,"ss":1357,"gong3":1358,"SEE":1359,"tuo4":1360,"ct":1361,"liao3":1362,"INSEE":1363,"59":1364,"sha4":1365,"tai1":1366,"43":1367,"66":1368,"chuan4":1369,"amp":1370,"chen4":1371,"57":1372,"1985":1373,"huang1":1374,"Ro":1375,"99":1376,"SA":1377,"ãĢİ":1378,"cun4":1379,"ãĢı":1380,"1984":1381,"hun2":1382,"41":1383,"um":1384,"pu1":1385,"kou4":1386,"ph":1387,"88":1388,"fen2":1389,"1986":1390,"rao3":1391,"St":1392,"au":1393,"id":1394,"run4":1395,"TV":1396,"150":1397,"zhuo1":1398,"ind":1399,"400":1400,"san3":1401,"1987":1402,"78":1403,"56":1404,"1982":1405,"ard":1406,"Li":1407,"nuo2":1408,"Me":1409,"1983":1410,"De":1411,"NA":1412,"gun3":1413,"ma1":1414,"tou":1415,"pin4":1416,"un":1417,"CD":1418,"chou1":1419,"ber":1420,"gou3":1421,"quan3":1422,"77":1423,"Mi":1424,"zhai1":1425,"qia4":1426,"per":1427,"mao1":1428,"qiao3":1429,"Mar":1430,"ku1":1431,"kuang2":1432,"ed":1433,"ang":1434,"rou2":1435,"98":1436,"der":1437,"lou4":1438,"OS":1439,"Â°":1440,"kui4":1441,"sang4":1442,"ï½":1443,"ly":1444,"180":1445,"BC":1446,"54":1447,"61":1448,"Al":1449,"1979":1450,"1920":1451,".2":1452,"ty":1453,"79":1454,"pen1":1455,"seng1":1456,"tw":1457,"52":1458,"You":1459,"1978":1460,"nu4":1461,"62":1462,".1":1463,"weng1":1464,"ye1":1465,"duo3":1466,"Le":1467,"53":1468,"xing3":1469,"juan4":1470,"ï½ŀ":1471,"BA":1472,"ts":1473,"ak":1474,"1946":1475,"CO":1476,"Mo":1477,"ction":1478,"51":1479,"1958":1480,"Sh":1481,"1981":1482,".3":1483,"Vi":1484,"man":1485,"1972":1486,"1948":1487,"zhui4":1488,".4":1489,"cong1":1490,"tou1":1491,"AM":1492,"63":1493,"AR":1494,"Jo":1495,"1941":1496,"Wind":1497,"wa2":1498,"BS":1499,"lian3":1500,"1930":1501,"Pro":1502,"luan3":1503,"ows":1504,"kuang1":1505,"ke2":1506,"qu2":1507,"tuo3":1508,"76":1509,"hans":1510,"1940":1511,"pi4":1512,"1937":1513,"1976":1514,"zui3":1515,"1944":1516,"89":1517,"1975":1518,"ry":1519,"ï¼ı":1520,"1968":1521,"niang2":1522,"po2":1523,"shua1":1524,"hk":1525,"con":1526,"ran":1527,"Te":1528,"yuan1":1529,"tao1":1530,"wang1":1531,"1000":1532,"Windows":1533,"95":1534,"pa":1535,"Ne":1536,"no":1537,"bi2":1538,"sao3":1539,"87":1540,"da":1541,"1966":1542,"85":1543,"fa4":1544,"peng1":1545,"600":1546,"ga1":1547,"lan4":1548,"120":1549,"1947":1550,"Ar":1551,"Sta":1552,"1956":1553,"AC":1554,"1964":1555,"dan3":1556,"cu1":1557,"1942":1558,"Ã©":1559,"1955":1560,"Se":1561,"Ra":1562,"chou3":1563,"1952":1564,"1939":1565,"1938":1566,"72":1567,"IS":1568,"va":1569,"74":1570,"Ga":1571,"ga":1572,"ht":1573,"nu":1574,"lay":1575,"ren3":1576,"1973":1577,"1974":1578,"1954":1579,"fi":1580,"qie1":1581,"ED":1582,"1900":1583,"--":1584,"Ja":1585,"AP":1586,"1943":1587,"bi1":1588,"Tu":1589,"ke":1590,"os":1591,"1977":1592,"Be":1593,"1971":1594,"pin1":1595,"man2":1596,"op":1597,"po3":1598,"ent":1599,"1967":1600,"sheng2":1601,"ment":1602,"mp":1603,"IC":1604,"800":1605,"La":1606,"ER":1607,"ia":1608,"86":1609,"1959":1610,"beng1":1611,"Sa":1612,"1965":1613,"son":1614,"JR":1615,"1969":1616,"dui1":1617,"Lo":1618,"pen2":1619,"ine":1620,"So":1621,"ãĥ»":1622,"ÃĹ":1623,"qiao4":1624,"chui1":1625,"ID":1626,"qiao1":1627,"Su":1628,"1936":1629,"97":1630,"160":1631,"ben1":1632,"zhua1":1633,"Da":1634,"Fa":1635,"1953":1636,"1962":1637,"MA":1638,"do":1639,"1961":1640,"tic":1641,"long3":1642,"âĶ":1643,"1935":1644,"ta4":1645,"rou":1646,"mai2":1647,"96":1648,"ON":1649,"Di":1650,"ï¼ħ":1651,"1951":1652,"1957":1653,"1963":1654,"Ca":1655,"ha":1656,"âĶĢ":1657,"ok":1658,"84":1659,"2026":1660,"can3":1661,"ore":1662,"82":1663,"Na":1664,"hi":1665,"bu":1666,"73":1667,"94":1668,"tun1":1669,"92":1670,"pp":1671,"IP":1672,"AN":1673,"Bo":1674,"sta":1675,"mer":1676,"1933":1677,"one":1678,"Mu":1679,"1931":1680,"nang2":1681,"les":1682,"niao4":1683,"71":1684,"bao2":1685,"ho":1686,"nuan3":1687,"gi":1688,"An":1689,"leng2":1690,"pa2":1691,"Pa":1692,"93":1693,"so":1694,"83":1695,"all":1696,"We":1697,"dou3":1698,"81":1699,"1918":1700,"HD":1701,"Si":1702,"sao1":1703,"wi":1704,"Uni":1705,"1928":1706,"luan2":1707,"1932":1708,"nen4":1709,"ll":1710,"ara":1711,"int":1712,"Ba":1713,"MV":1714,"SS":1715,"110":1716,"1912":1717,"IT":1718,"ki":1719,"1929":1720,"tui3":1721,"duo4":1722,"1927":1723,"com":1724,"tu4":1725,"1934":1726,"are":1727,"700":1728,"ga2":1729,"cn":1730,"ali":1731,"91":1732,"che":1733,"ted":1734,"ster":1735,"ff":1736,"by":1737,"huang3":1738,"col":1739,"ill":1740,"ot":1741,"250":1742,"1.5":1743,"sa":1744,"art":1745,"zei2":1746,"1924":1747,"Ri":1748,"...":1749,"1919":1750,"kui1":1751,"xuan4":1752,"130":1753,"piao1":1754,"1925":1755,"PS":1756,"pao1":1757,"xia1":1758,"140":1759,"Play":1760,"SM":1761,"PC":1762,"mes":1763,"1914":1764,"ste":1765,"zhai3":1766,"km":1767,"He":1768,"DV":1769,"pan":1770,"zhe1":1771,"YouTu":1772,"he1":1773,"end":1774,"Ha":1775,"Fi":1776,"ana":1777,"die1":1778,"ble":1779,"Con":1780,"Wi":1781,"la3":1782,"AS":1783,"1911":1784,"Bu":1785,"ka":1786,"shi":1787,"od":1788,"gra":1789,"nve4":1790,"ld":1791,"1926":1792,"Ge":1793,"Ti":1794,"den":1795,"our":1796,"1922":1797,"na3":1798,"hen4":1799,"1917":1800,"sion":1801,"ET":1802,"NBA":1803,"IV":1804,"shui2":1805,"cai1":1806,"rao2":1807,"EN":1808,"1923":1809,"1921":1810,"peng4":1811,"fe":1812,"kua1":1813,"Goo":1814,"ther":1815,"Ta":1816,"0.0":1817,"chong3":1818,"170":1819,"à¸":1820,"EC":1821,"mao3":1822,"nong4":1823,"mm":1824,"AL":1825,"MS":1826,"Ho":1827,"section":1828,"YouTube":1829,"EP":1830,"Ni":1831,"BL":1832,"1913":1833,"hn":1834,"tiao1":1835,"pen":1836,"HK":1837,"En":1838,"2.5":1839,"âĨ":1840,"hant":1841,"gun4":1842,"1909":1843,"gin":1844,"Inter":1845,"cro":1846,"Pe":1847,"Ste":1848,"MP":1849,"AI":1850,"To":1851,"geng3":1852,"Wor":1853,"nao4":1854,"ris":1855,"feng3":1856,"ant":1857,"luo3":1858,"US":1859,"ya":1860,"por":1861,"DVD":1862,"go":1863,"ari":1864,"zou1":1865,"Pi":1866,"3000":1867,"Th":1868,"ca1":1869,"Do":1870,"Po":1871,"gn":1872,"1910":1873,"For":1874,"RO":1875,"DS":1876,"112":1877,"AK":1878,"RE":1879,"pro":1880,"1916":1881,"Car":1882,"ãĥ¼":1883,"chuo4":1884,"Net":1885,"Î±":1886,"ation":1887,"Sch":1888,"Ki":1889,"No":1890,"ani":1891,"ture":1892,"ell":1893,"Lin":1894,"My":1895,"CP":1896,"UN":1897,"Wil":1898,"ark":1899,"âĪ":1900,"Station":1901,"hen2":1902,"1915":1903,"gle":1904,"niang4":1905,"1905":1906,"FC":1907,"ven":1908,"ers":1909,"my":1910,"CN":1911,"âĦ":1912,"âĨĴ":1913,"1901":1914,"tional":1915,"Lu":1916,"wa":1917,"ting":1918,"Au":1919,"DNA":1920,"Ex":1921,"fa":1922,"pu":1923,"âĢ§":1924,"sic":1925,"dia":1926,"900":1927,"HR":1928,"Ph":1929,"dice":1930,"ary":1931,"sis":1932,"New":1933,".&":1934,"ton":1935,"CH":1936,"zen3":1937,"TA":1938,"TO":1939,"1906":1940,"1904":1941,"chuang3":1942,"AV":1943,"Ju":1944,"Qu":1945,"oun":1946,"Ka":1947,"gen3":1948,"ps":1949,"2.0":1950,"John":1951,"ere":1952,"And":1953,"MO":1954,"codice":1955,"chao3":1956,"jiong3":1957,"ding":1958,"âĦĥ":1959,"ko":1960,"eri":1961,"wa4":1962,"beng4":1963,"05":1964,"fu":1965,"CC":1966,"diu1":1967,"1907":1968,"1908":1969,"Google":1970,"AG":1971,"EST":1972,"0.5":1973,"MI":1974,"vo":1975,"zuan4":1976,"SO":1977,"tes":1978,"LE":1979,"jia2":1980,"zuan3":1981,"PlayStation":1982,"enter":1983,"BO":1984,"BBC":1985,"chi":1986,"Com":1987,"AD":1988,"IG":1989,"cal":1990,"ley":1991,"li1":1992,"Gu":1993,"ence":1994,"III":1995,"oft":1996,"4.":1997,"Ru":1998,"1500":1999,"cy":2000,"5000":2001,"cri":2002,"wor":2003,"zuan1":2004,"IST":2005,"she1":2006,"lv2":2007,"Col":2008,"ory":2009,"ME":2010,"Sy":2011,"tive":2012,"wit":2013,"CR":2014,"3D":2015,"round":2016,"6.":2017,"IA":2018,"lan":2019,"gua3":2020,"105":2021,"je":2022,"ma4":2023,"Ð°":2024,"tt":2025,"lin":2026,"1903":2027,"101":2028,"GB":2029,"ping1":2030,"ree":2031,"Cu":2032,"can":2033,"09":2034,"ina":2035,"can4":2036,"Fe":2037,"cen2":2038,"1902":2039,"BD":2040,"NC":2041,"land":2042,"TE":2043,"cha":2044,"pang1":2045,"xt":2046,"350":2047,"Ã¡":2048,"ze":2049,"SAO":2050,"shao2":2051,"5.":2052,"gen":2053,"DC":2054,"des":2055,"span":2056,"pt":2057,"mon":2058,"Ad":2059,"Î²":2060,"ght":2061,"res":2062,"lin4":2063,"B1900":2064,"B1900.0":2065,"del":2066,"book":2067,"ES":2068,"BM":2069,"ron":2070,"ï¼İ":2071,"ãĥ³":2072,"1898":2073,"06":2074,"118":2075,"Hi":2076,"la2":2077,"ãģ®":2078,"ms":2079,"qin3":2080,"cor":2081,"tel":2082,"DR":2083,"360":2084,"01":2085,"DA":2086,"Open":2087,"1895":2088,"lao4":2089,"125":2090,"mu2":2091,"za":2092,"lar":2093,"ben4":2094,"3.5":2095,"HO":2096,"ance":2097,"tin":2098,"1%":2099,"MC":2100,"ATP":2101,"Micro":2102,"Ko":2103,"gy":2104,"Ð¾":2105,"108":2106,"2%":2107,"Ke":2108,"sy":2109,"line":2110,"dio":2111,"NG":2112,"igh":2113,"pou1":2114,"net":2115,"yle":2116,"Go":2117,"clu":2118,"low":2119,"qie2":2120,"gram":2121,"Cor":2122,"IF":2123,"ft":2124,"Fran":2125,"One":2126,"ner":2127,"App":2128,"07":2129,"âĪĴ":2130,"08":2131,"230":2132,"gh":2133,"Face":2134,"Hu":2135,"104":2136,"pace":2137,"Pu":2138,"Ser":2139,"rea":2140,"World":2141,"soft":2142,"EDT":2143,"ISTAT":2144,"Mon":2145,"Stu":2146,"ja":2147,".5%":2148,"shai1":2149,"song3":2150,"à¤":2151,"NO":2152,"1896":2153,"LL":2154,"ning":2155,"109":2156,"DP":2157,"fli":2158,"ger":2159,"las":2160,"dy":2161,"yu1":2162,"AA":2163,"lus":2164,"own":2165,"Bi":2166,"ity":2167,"ge3":2168,"RI":2169,"ctor":2170,"Wa":2171,"Du":2172,"SP":2173,"RT":2174,"sui3":2175,"xiao2":2176,"qia3":2177,"EX":2178,"re3":2179,"Bri":2180,"bert":2181,"B48":2182,"Man":2183,"vel":2184,"ling":2185,"106":2186,"1890":2187,"San":2188,"CST":2189,"ML":2190,"ori":2191,"Bar":2192,"CDT":2193,"Love":2194,"3%":2195,"zang1":2196,"DO":2197,"with":2198,"HE":2199,"ward":2200,"Per":2201,"pei1":2202,"row":2203,"tain":2204,"04":2205,"4000":2206,"pri":2207,"ux":2208,"cuan4":2209,"115":2210,"ight":2211,"ds":2212,"1200":2213,"M1":2214,"50%":2215,"03":2216,"Har":2217,"GP":2218,"pao2":2219,"CE":2220,"ren":2221,"Äģ":2222,"back":2223,"1889":2224,"begin":2225,"6%":2226,"Par":2227,"1899":2228,"Je":2229,"Mac":2230,"colspan":2231,"1871":2232,"Ed":2233,"RS":2234,"mic":2235,"Facebook":2236,"Willi":2237,"Microsoft":2238,"âĢĭ":2239,"240":2240,"tur":2241,"Comp":2242,"ool":2243,"1600":2244,"LO":2245,"Gi":2246,"ky":2247,"BE":2248,"cc":2249,"Nor":2250,"cket":2251,"102":2252,"box":2253,"10%":2254,"clude":2255,"TT":2256,"ref":2257,"1897":2258,"pha":2259,"Live":2260,"NH":2261,"Sou":2262,"EE":2263,"chou4":2264,"Tri":2265,"117":2266,"Is":2267,"Pre":2268,"PP":2269,"im":2270,"qin4":2271,"4%":2272,"ut":2273,"SC":2274,"min":2275,"02":2276,"5%":2277,"cm":2278,"shuang3":2279,"style":2280,"ie":2281,"103":2282,"AKB48":2283,"MD":2284,"yao3":2285,"Music":2286,"Pri":2287,"107":2288,"van":2289,"On":2290,"bli":2291,"cou4":2292,"tra":2293,"Gra":2294,"0.00":2295,"Or":2296,"ler":2297,"Linux":2298,"Dis":2299,"Tra":2300,"ser":2301,"ye":2302,"tang3":2303,"ww":2304,"8%":2305,"Gre":2306,"Ori":2307,"lis":2308,"old":2309,"VID":2310,"127":2311,"tus":2312,"450":2313,"Vo":2314,"sti":2315,"Davi":2316,"Ã¼":2317,"que":2318,"128":2319,"align":2320,"4.5":2321,"lao1":2322,"1.2":2323,"flix":2324,"9%":2325,"CL":2326,"Netflix":2327,"1894":2328,"Game":2329,"220":2330,"rin":2331,"Ber":2332,"Ð½":2333,"mas":2334,"William":2335,"IL":2336,"Mor":2337,"ks":2338,"SH":2339,"Twit":2340,"1880":2341,"Red":2342,"len":2343,"lla":2344,"ÃŃ":2345,"RNA":2346,"zao2":2347,"136":2348,"rus":2349,"rom":2350,"PG":2351,"nge":2352,"Ð¸":2353,"stri":2354,"ãģĦ":2355,"TR":2356,"20%":2357,"stra":2358,"Team":2359,"7%":2360,"1800":2361,"ãĤ¹":2362,"Univer":2363,"ground":2364,"1885":2365,"lia3":2366,"ero":2367,"114":2368,"ãĤĵ":2369,"Char":2370,"pian2":2371,"color":2372,"Fu":2373,"Hz":2374,"Ty":2375,"280":2376,"UR":2377,"Ðµ":2378,"113":2379,"116":2380,"tor":2381,"ano":2382,"Gen":2383,"1886":2384,"7.":2385,"sing":2386,"ãĤ¤":2387,"TS":2388,"School":2389,"PO":2390,"mang3":2391,"lass":2392,"1893":2393,"Che":2394,".9%":2395,"ex":2396,"sen":2397,"irl":2398,"Bla":2399,"lyi":2400,"mb":2401,"ten":2402,"Mc":2403,"ane":2404,"1.8":2405,"Mark":2406,"Eu":2407,"name":2408,"SL":2409,"tri":2410,"111":2411,"Star":2412,"ãĦ":2413,".8%":2414,"cial":2415,"lia":2416,"irst":2417,".4%":2418,"Super":2419,"port":2420,"Don":2421,".3%":2422,"ject":2423,"lex":2424,"mo3":2425,"âĢ»":2426,"ces":2427,"mo1":2428,"135":2429,".7%":2430,"David":2431,"260":2432,"national":2433,"ys":2434,"era":2435,"1860":2436,"90%":2437,"Geor":2438,"sto":2439,"gue":2440,"nin2":2441,"ess":2442,"5.5":2443,"Wal":2444,"WTA":2445,"ker":2446,".1%":2447,"HC":2448,"way":2449,"80%":2450,"Show":2451,"8.":2452,"lver":2453,"Ac":2454,"UA":2455,"was":2456,"Un":2457,"ham":2458,"1888":2459,".2%":2460,"text":2461,".6%":2462,"SD":2463,"ac":2464,"Ã³":2465,"roup":2466,"-.":2467,"ans":2468,"ouse":2469,"Bra":2470,"roid":2471,"1.6":2472,"cation":2473,"background":2474,"tle":2475,"yun1":2476,"dai3":2477,"Cy":2478,"pre":2479,"GO":2480,"Wh":2481,"chen1":2482,"1870":2483,"ream":2484,"GN":2485,"ï¹":2486,"129":2487,"ony":2488,"30%":2489,"1887":2490,"bur":2491,"any":2492,"dis":2493,"shuan1":2494,"1868":2495,"Meta":2496,"6000":2497,"Ã¶":2498,"ÑĢ":2499,"El":2500,"NF":2501,"VA":2502,"cle":2503,"1883":2504,"lor":2505,"ank":2506,"ous":2507,"Xbox":2508,"320":2509,"CS":2510,"Tho":2511,"NHK":2512,"AF":2513,"As":2514,"DD":2515,"Twitter":2516,"KP":2517,"nclude":2518,"onlyi":2519,"onlyinclude":2520,"piao2":2521,"++":2522,"bit":2523,"tang4":2524,"1864":2525,"âĢ¢":2526,"ION":2527,"ny":2528,"cho":2529,"1884":2530,"RC":2531,"UE":2532,"mar":2533,"ensis":2534,"119":2535,"122":2536,"2500":2537,"1892":2538,"210":2539,"6.5":2540,"A1":2541,"tis":2542,"ena":2543,"let":2544,"center":2545,"miu4":2546,"155":2547,"ins":2548,"ower":2549,"ISO":2550,"Mat":2551,"âħ":2552,"145":2553,"1891":2554,"650":2555,"7.5":2556,"9.":2557,"Clu":2558,"cer":2559,"Android":2560,"Girl":2561,"age":2562,"ãĢķ":2563,"OR":2564,"red":2565,"nes":2566,"Ku":2567,"NS":2568,"cuo1":2569,"car":2570,"ãĢĶ":2571,"1850":2572,"htt":2573,"meri":2574,"Cl":2575,"val":2576,"International":2577,"Day":2578,"xy":2579,"ound":2580,"mi1":2581,"1867":2582,"logy":2583,"stem":2584,"IM":2585,"pang4":2586,"ãĥĪ":2587,"eld":2588,"All":2589,"ffi":2590,"1879":2591,"ake":2592,"James":2593,"Enter":2594,"War":2595,"par":2596,"sel":2597,"380":2598,"AB":2599,"UP":2600,"Ver":2601,"bri":2602,"40%":2603,"ney":2604,"1876":2605,"Ani":2606,"Coun":2607,"sia":2608,"1.4":2609,"George":2610,"Can":2611,"lie":2612,"1875":2613,"1861":2614,"270":2615,"Universi":2616,"Dra":2617,"Her":2618,"Por":2619,"td":2620,"Games":2621,"Air":2622,"IR":2623,"126":2624,"2.4":2625,"NT":2626,"Ã¨":2627,"time":2628,"inter":2629,"Hol":2630,"Pau":2631,"Spe":2632,"NGC":2633,"stru":2634,"ãĥ«":2635,"1873":2636,"MG":2637,"ns":2638,"123":2639,"ãĥ©":2640,"ama":2641,"Eng":2642,"Hen":2643,"PV":2644,"100%":2645,"Ab":2646,"Group":2647,"HT":2648,"sed":2649,"rans":2650,"Colle":2651,"Ben":2652,"Hy":2653,"MB":2654,"Va":2655,"168":2656,"COVID":2657,"critic":2658,"FM":2659,"om":2660,"1865":2661,"ild":2662,"Club":2663,"AO":2664,"PL":2665,"lue":2666,"that":2667,"ass":2668,"Ameri":2669,"DE":2670,"121":2671,"Center":2672,"hy":2673,"cus":2674,"work":2675,"Blo":2676,"175":2677,"ald":2678,"ãģĨ":2679,"Web":2680,"H2":2681,"YP":2682,"from":2683,"Ã¤":2684,"1400":2685,"MAX":2686,"Ali":2687,"138":2688,"228":2689,"TP":2690,"ast":2691,"ha2":2692,"chan4":2693,"nic":2694,"1848":2695,"1.3":2696,"fer":2697,"1.0":2698,"liu1":2699,"1862":2700,"ration":2701,"60%":2702,"330":2703,"peng3":2704,"124":2705,"ãĤ¢":2706,"1881":2707,"1882":2708,"737":2709,"Park":2710,"vil":2711,"ens":2712,"ona":2713,"1878":2714,"550":2715,"guai3":2716,"Ve":2717,"rui3":2718,"1872":2719,"LC":2720,"bin4":2721,"Hel":2722,"High":2723,"70%":2724,"INK":2725,"Metacritic":2726,"zo":2727,"It":2728,"nao2":2729,"tro":2730,"Oricon":2731,"MTV":2732,"UC":2733,"wan":2734,"156":2735,"165":2736,"Boo":2737,"LED":2738,"don":2739,"nian3":2740,"1840":2741,"IVE":2742,"Spi":2743,"core":2744,"dai1":2745,"750":2746,"dge":2747,"shai4":2748,"ãĥĥ":2749,"cre":2750,"ming":2751,"137":2752,"ãģĹ":2753,"Lea":2754,"nis":2755,"1300":2756,"stagram":2757,"7000":2758,"ring":2759,"1.1":2760,"93.":2761,"Bro":2762,"DOS":2763,"SQ":2764,"UB":2765,"229":2766,"IU":2767,"She":2768,"GDP":2769,"King":2770,"OK":2771,"Ñģ":2772,"2.2":2773,"Chu":2774,"Pla":2775,"rand":2776,"152":2777,"out":2778,"TVB":2779,"Micha":2780,"Fri":2781,"day":2782,"159":2783,"1877":2784,"Robert":2785,"Stre":2786,"type":2787,"Sur":2788,"âĹ":2789,"kui3":2790,"1866":2791,"Chris":2792,"iOS":2793,"Ð»":2794,"als":2795,"Produ":2796,"SK":2797,"Up":2798,"1869":2799,"âĢ²":2800,"silver":2801,"Ele":2802,"THE":2803,"DM":2804,"xiu3":2805,"15%":2806,"star":2807,"Peter":2808,"4.0":2809,"NET":2810,"Pat":2811,"gar":2812,"pla":2813,"she":2814,"2.8":2815,"play":2816,"Ðº":2817,"Chi":2818,"Instagram":2819,"BI":2820,"C++":2821,"py":2822,"139":2823,"BLAC":2824,"Big":2825,"gan":2826,"Ð²":2827,"DJ":2828,"reng1":2829,"lip":2830,"0.3":2831,"sso":2832,"Phone":2833,"CG":2834,"WE":2835,"code":2836,"ãĤ¯":2837,"Michael":2838,"At":2839,"DF":2840,"ï¸":2841,"Apple":2842,"1100":2843,"Ci":2844,"ai":2845,"158":2846,"Tech":2847,"Paul":2848,"225":2849,"gon":2850,"ene":2851,"305":2852,"133":2853,"alk":2854,"INE":2855,"National":2856,"Type":2857,"RA":2858,"sa3":2859,"nia":2860,"ãĥª":2861,"ator":2862,"Award":2863,"HI":2864,"YO":2865,"132":2866,"Steam":2867,"Es":2868,"Ye":2869,"ral":2870,"205":2871,"1863":2872,"ray":2873,"25%":2874,"1.7":2875,"tainment":2876,"215":2877,"Bill":2878,"cia":2879,"University":2880,"Ce":2881,"FO":2882,"3.6":2883,"phy":2884,"CA":2885,"F1":2886,"KBS":2887,"148":2888,"131":2889,"2.7":2890,"Media":2891,"Kar":2892,"Lou":2893,"Mer":2894,"Smi":2895,"Wo":2896,"166":2897,"arch":2898,"new":2899,"1874":2900,"EF":2901,"XX":2902,"kg":2903,"now":2904,"deo":2905,"enti":2906,"1858":2907,"Fin":2908,"ic":2909,"147":2910,"2.6":2911,"Black":2912,"bal":2913,"vin":2914,"256":2915,"ãģĭ":2916,"GA":2917,"Gar":2918,"M2":2919,"kun3":2920,"1830":2921,"2.3":2922,"Rich":2923,"CBS":2924,"Ter":2925,"UT":2926,"ach":2927,"clo":2928,"ew":2929,"1851":2930,"ora":2931,"Lee":2932,"BN":2933,"EM":2934,"UI":2935,"192":2936,"Î¼":2937,"Cha":2938,"8000":2939,"che3":2940,"Jack":2941,"Entertainment":2942,"4.8":2943,"if":2944,"zer":2945,"ann":2946,"lin3":2947,"mini":2948,"bin":2949,"143":2950,"set":2951,"3.0":2952,"ada":2953,"City":2954,"Mk":2955,"gang4":2956,"1855":2957,"Intel":2958,"310":2959,"Power":2960,"IX":2961,"ha3":2962,"mber":2963,"IE":2964,"RAM":2965,"Space":2966,"bel":2967,"zuo2":2968,"ð«":2969,"1859":2970,"STAR":2971,"Charles":2972,"134":2973,"tions":2974,"iss":2975,"Dire":2976,"ship":2977,"Ang":2978,"ABC":2979,"185":2980,"1854":2981,"org":2982,"146":2983,"301":2984,"Fla":2985,"1700":2986,"Viu":2987,"370":2988,"space":2989,"1857":2990,"Free":2991,"GM":2992,"Win":2993,"ek":2994,"whi":2995,"stro":2996,"Er":2997,"vs":2998,"Ø§":2999,"290":3000,"ãģª":3001,"Life":3002,"Tai":3003,"ï¸°":3004,"Sam":3005,"Î³":3006,"ino":3007,"Java":3008,"214":3009,"Py":3010,"ÑĤ":3011,"mis":3012,"10.":3013,"1.9":3014,"Recor":3015,"Company":3016,"stitu":3017,"420":3018,"Dream":3019,"Pol":3020,"fang":3021,"Î¿":3022,"ãĢľ":3023,"1856":3024,"1853":3025,"Project":3026,"House":3027,"ah":3028,"first":3029,"dium":3030,"ãģŁ":3031,"ety":3032,"ood":3033,"Time":3034,"Thomas":3035,"Pan":3036,"bra":3037,"von":3038,"bo4":3039,"144":3040,"Alpha":3041,"Saint":3042,"FA":3043,"Ken":3044,"OVA":3045,"75%":3046,"Cent":3047,"VO":3048,"face":3049,"A2":3050,"IO":3051,"167":3052,"3A":3053,"HS":3054,"SBS":3055,"sha3":3056,"bili":3057,"kua3":3058,"1841":3059,"Street":3060,"Am":3061,"Alex":3062,"Bat":3063,"LP":3064,"spe":3065,"alo":3066,"Japan":3067,"340":3068,"Ag":3069,"PM":3070,"chuan3":3071,"rie":3072,"Euro":3073,"BLACKP":3074,"7.6":3075,"92.":3076,"Spo":3077,"Tor":3078,"ae":3079,"wn":3080,"za1":3081,"208":3082,"1815":3083,"178":3084,"CPU":3085,"BLACKPINK":3086,"223":3087,"33.":3088,"Bur":3089,"Tru":3090,"cis":3091,"men4":3092,"Soci":3093,"850":3094,"LGB":3095,"Sing":3096,"tal":3097,"zuo1":3098,"cher":3099,"ric":3100,"ses":3101,"Rock":3102,"Studio":3103,"www":3104,"IBM":3105,"die":3106,"mat":3107,"esti":3108,"ports":3109,"SF":3110,"Val":3111,"you":3112,"207":3113,"very":3114,"235":3115,"ãģ¨":3116,"ãģ¾":3117,"mation":3118,"Art":3119,"Dig":3120,"Fer":3121,"LIVE":3122,"Mr":3123,"Met":3124,"Pop":3125,"SU":3126,"203":3127,"ning4":3128,"171":3129,"berg":3130,"B2":3131,"VE":3132,"Whi":3133,"nal":3134,"comp":3135,"Shi":3136,"SQL":3137,"Pad":3138,"cra":3139,"sg":3140,"vis":3141,"1846":3142,"164":3143,"ford":3144,"not":3145,"College":3146,"Min":3147,"Yu":3148,"bre":3149,"lit":3150,"157":3151,"vice":3152,"publi":3153,"BR":3154,"LT":3155,"NE":3156,"Sun":3157,"141":3158,"ICE":3159,"American":3160,"4.7":3161,"4.6":3162,"B1":3163,"Cro":3164,"PE":3165,"est":3166,"board":3167,"176":3168,"sign":3169,"ING":3170,"8.5":3171,"Asso":3172,"LS":3173,"ball":3174,"han1":3175,"Â²":3176,"well":3177,"1812":3178,"1845":3179,"1844":3180,"3.2":3181,"Road":3182,"Girls":3183,"self":3184,"ple":3185,"mit":3186,"231":3187,"Offi":3188,"cture":3189,"class":3190,"HF":3191,"Ltd":3192,"M3":3193,"pm":3194,"bor":3195,"ãĤĬ":3196,"witch":3197,"LGBT":3198,"BB":3199,"209":3200,"wood":3201,"pon":3202,"cess":3203,"ãģį":3204,"2.1":3205,"2.9":3206,"NASA":3207,"GNU":3208,"Ger":3209,"LA":3210,"PA":3211,"wai1":3212,"ded":3213,"thy":3214,"Jose":3215,"Tele":3216,"Smith":3217,"Cla":3218,"Cra":3219,"Pra":3220,"ise":3221,"ampi":3222,"aurus":3223,"IUCN":3224,"216":3225,"PN":3226,"wh":3227,"Îº":3228,"1849":3229,"153":3230,"Good":3231,"CT":3232,"Fil":3233,"Hall":3234,"NBC":3235,"Tour":3236,"zhou3":3237,"204":3238,"238":3239,"Cho":3240,"ump":3241,"Production":3242,"le1":3243,"lea":3244,"tation":3245,"ness":3246,"Video":3247,"GT":3248,"O2":3249,"Sci":3250,"Ïĥ":3251,"mited":3252,"Gala":3253,"Eli":3254,"Fo":3255,"PR":3256,"war":3257,"yn":3258,"din":3259,"206":3260,"eries":3261,"5.0":3262,"Ze":3263,"1814":3264,"mac":3265,"218":3266,"fri":3267,"fra":3268,"lti":3269,"ons":3270,"ange":3271,"Richard":3272,"SI":3273,"mal":3274,"chun3":3275,"IGN":3276,"5.8":3277,"Act":3278,"LD":3279,"Sen":3280,"WS":3281,"win":3282,"âĸ":3283,"pic":3284,"qui":3285,"Chri":3286,"Boy":3287,"Plan":3288,"Sky":3289,"Tur":3290,"bun":3291,"ÏĢ":3292,"def":3293,"1847":3294,"154":3295,"tho":3296,"3.4":3297,"ved":3298,"vision":3299,"turn":3300,"460":3301,"580":3302,"6.0":3303,"Bel":3304,"FF":3305,"Far":3306,"Mas":3307,"her":3308,"iro":3309,"sch":3310,"ves":3311,"zz":3312,"mor":3313,"1843":3314,"Best":3315,"System":3316,"ptr":3317,"430":3318,"MBC":3319,"sha":3320,"401":3321,"chem":3322,"410":3323,"bar":3324,"bus":3325,"pr":3326,"led":3327,"177":3328,"rich":3329,"off":3330,"ãĤ·":3331,"los":3332,"NFL":3333,"ViuTV":3334,"Cal":3335,"Switch":3336,"163":3337,"0.2":3338,"AMD":3339,"API":3340,"West":3341,"Dan":3342,"ICO":3343,"ep":3344,"oper":3345,"ments":3346,"1852":3347,"162":3348,"cript":3349,"VII":3350,"gs":3351,"1820":3352,"this":3353,"ãģı":3354,"Max":3355,"Inc":3356,"Ama":3357,"Bor":3358,"Fre":3359,"Prin":3360,"cil":3361,"ue":3362,"142":3363,"get":3364,"234":3365,"thon":3366,"Roy":3367,"5.7":3368,"VR":3369,"172":3370,"ãģĬ":3371,"ãģķ":3372,"Records":3373,"640":3374,"Em":3375,"Gal":3376,"Squ":3377,"Vir":3378,"11.":3379,"169":3380,"3500":3381,"Limited":3382,"data":3383,"CM":3384,"Core":3385,"KC":3386,"T1":3387,"Â±":3388,"lve":3389,"1839":3390,"ars":3391,"232":3392,"3.7":3393,"480":3394,"ci1":3395,"179":3396,"cade":3397,"2030":3398,"149":3399,"0.1":3400,"max":3401,"365":3402,"3.3":3403,"Institu":3404,"mann":3405,"Res":3406,"1821":3407,"ãĥŃ":3408,"ãģ¿":3409,"ders":3410,"Unicode":3411,"ROM":3412,"CCTV":3413,"390":3414,"BU":3415,"Han":3416,"cent":3417,"lli":3418,"tv":3419,"306":3420,"222":3421,"601":3422,"0.4":3423,"unch":3424,"5.9":3425,"Fan":3426,"Vol":3427,"ii":3428,"tube":3429,"173":3430,"247":3431,"ria":3432,"itch":3433,"Bob":3434,"ful":3435,"Cri":3436,"EA":3437,"PF":3438,"king":3439,"tian":3440,"12.":3441,"ital":3442,"oot":3443,"KK":3444,"XP":3445,"1790":3446,"560":3447,"OH":3448,"SN":3449,"use":3450,"wid":3451,"lian":3452,"ping":3453,"ãĥ¬":3454,"ciation":3455,"211":3456,"BF":3457,"Fun":3458,"Trans":3459,"VM":3460,"ire":3461,"Hot":3462,"MU":3463,"PD":3464,"PH":3465,"Sco":3466,"Sir":3467,"io":3468,"var":3469,"shua3":3470,"lum":3471,"1795":3472,"303":3473,"3.8":3474,"âĹĭ":3475,"183":3476,"233":3477,"search":3478,"ãģ¡":3479,"1801":3480,"Force":3481,"213":3482,"Pen":3483,"Tok":3484,"kh":3485,"lon":3486,"weng4":3487,"run":3488,"ãĥŀ":3489,".0%":3490,"USB":3491,"Van":3492,"num":3493,"tia":3494,"sub":3495,"nie":3496,"174":3497,"rew":3498,"3.1":3499,"MVP":3500,"Heart":3501,"Fire":3502,"Jean":3503,"CK":3504,"zon":3505,"Ïģ":3506,"áĢ":3507,"ìĿ":3508,"186":3509,"1838":3510,"ord":3511,"ally":3512,"Store":3513,"520":3514,"610":3515,"Bank":3516,"DDR":3517,"Glo":3518,"Top":3519,"sor":3520,"up":3521,"nga":3522,"mily":3523,"cker":3524,"iPad":3525,"rong3":3526,"tz":3527,"sur":3528,"161":3529,"501":3530,"ãĥī":3531,"its":3532,"aya":3533,"Home":3534,"http":3535,"Direct":3536,"224":3537,"CF":3538,"Hor":3539,"Lon":3540,"ele":3541,"bile":3542,"1813":3543,"ãĤī":3544,"Phil":3545,"Dr":3546,"Fle":3547,"GE":3548,"zy":3549,"ÏĦ":3550,"182":3551,"1832":3552,"1842":3553,"lation":3554,"Society":3555,"AE":3556,"Cam":3557,"Zi":3558,"fter":3559,"184":3560,"0.6":3561,"ãĤ«":3562,"Mini":3563,"key":3564,"Data":3565,"720":3566,"KI":3567,"Mel":3568,"Script":3569,"iPhone":3570,"jo":3571,"âĺ":3572,"1836":3573,"late":3574,"1793":3575,"255":3576,"tha":3577,"ãĤª":3578,"Comic":3579,"Muse":3580,"221":3581,"HBO":3582,"MT":3583,"Sto":3584,"dro":3585,"hou3":3586,"kin":3587,"nt":3588,"1833":3589,"1789":3590,"Sha":3591,"tics":3592,"River":3593,"https":3594,"Association":3595,"Galaxy":3596,"buntu":3597,"DAM":3598,"M4":3599,"QQ":3600,"dra":3601,"fin":3602,"mg":3603,"ties":3604,"1835":3605,"151":3606,"ãĤ¿":3607,"ady":3608,"219":3609,"217":3610,"338":3611,"5.6":3612,"6.7":3613,"FT":3614,"Jan":3615,"JYP":3616,"SR":3617,"WA":3618,"em":3619,"ðĲ":3620,"shang":3621,"âĢ°":3622,"muni":3623,"1804":3624,"ONE":3625,"CEO":3626,"width":3627,"470":3628,"740":3629,"830":3630,"Ubuntu":3631,"ga4":3632,"uni":3633,"light":3634,"ella":3635,"Martin":3636,"Henry":3637,"League":3638,"Bay":3639,"YG":3640,"ban":3641,"bro":3642,"gre":3643,"ÏĤ":3644,"Ð´":3645,"âī":3646,"mus":3647,"Master":3648,"Champi":3649,".81":3650,"ving":3651,"Gener":3652,"Des":3653,"Ear":3654,"Fra":3655,"LINE":3656,"Phi":3657,"cen":3658,"Î½":3659,"less":3660,"ato":3661,"ART":3662,"Green":3663,"212":3664,"Br":3665,"DK":3666,"cti":3667,"Ñĥ":3668,"nger":3669,"hun":3670,"list":3671,"1828":3672,"ors":3673,"0.7":3674,"ãĤ³":3675,"cond":3676,"APAN":3677,"rown":3678,"0%":3679,"Dou":3680,"FR":3681,"Night":3682,"Ven":3683,"dit":3684,"191":3685,"302":3686,"table":3687,"0.8":3688,"95%":3689,"Billboard":3690,"680":3691,"Gam":3692,"Mana":3693,"MHz":3694,"PI":3695,"Pin":3696,"SNH":3697,"has":3698,"nm":3699,"Î¹":3700,"181":3701,"1624":3702,"237":3703,"side":3704,"main":3705,"ãĤĭ":3706,"China":3707,"Office":3708,"Joseph":3709,"SNH48":3710,"4.9":3711,"Bir":3712,"FDA":3713,"Gold":3714,"JAPAN":3715,"PK":3716,"à¹":3717,"á¹":3718,"1644":3719,"308":3720,"ston":3721,"0.9":3722,"Code":3723,"Stra":3724,"COM":3725,"Note":3726,"DB":3727,"Dy":3728,"Env":3729,"GR":3730,"Hill":3731,"Mil":3732,"Ob":3733,"Part":3734,"10000":3735,"1837":3736,"tui2":3737,"239":3738,"rick":3739,"logi":3740,"1806":3741,"Song":3742,"United":3743,"News":3744,"macOS":3745,"440":3746,"CV":3747,"Inv":3748,"MW":3749,"U21":3750,"har":3751,"mark":3752,"Ã¢":3753,"Ã®":3754,"Î´":3755,"à¥":3756,"âĳ":3757,"1819":3758,"299":3759,"3.9":3760,"346":3761,"Radio":3762,"Long":3763,"Pala":3764,"HTML":3765,"annel":3766,"780":3767,"East":3768,"Out":3769,"Ten":3770,"Talk":3771,"1825":3772,"245":3773,"236":3774,"than":3775,"505":3776,"279":3777,"ãģ«":3778,"ado":3779,"Young":3780,"Digital":3781,"540":3782,"7.8":3783,"Camp":3784,"EV":3785,"H5":3786,"Lau":3787,"rpm":3788,"chong4":3789,"001":3790,"13.":3791,"sian":3792,"ned":3793,"ters":3794,"but":3795,"325":3796,"7.9":3797,"Bal":3798,"plo":3799,"pur":3800,"sus":3801,"1776":3802,"ãģĺ":3803,"peri":3804,"NCAA":3805,"Server":3806,"Ban":3807,"FAT":3808,"How":3809,"Ji":3810,"1818":3811,"14.":3812,"265":3813,"right":3814,"ãģĵ":3815,"dent":3816,"Hello":3817,"Bru":3818,"Dri":3819,"Yo":3820,"app":3821,"coun":3822,"1824":3823,"1831":3824,"2027":3825,"illa":3826,"tical":3827,"Cry":3828,"GS":3829,"Les":3830,"RPG":3831,"bet":3832,"part":3833,"ul":3834,"wer":3835,"Ã§":3836,"Ã´":3837,"chel":3838,"med":3839,"rome":3840,"anda":3841,"Child":3842,"Hist":3843,"Service":3844,"âħ¡":3845,"Techno":3846,"51.":3847,"Cat":3848,"Down":3849,"Os":3850,"UM":3851,"ice":3852,"hur":3853,"mond":3854,"temp":3855,"BSD":3856,"KiHa":3857,"Frank":3858,"Island":3859,"public":3860,"Science":3861,"1A":3862,"Blue":3863,"CW":3864,"Fore":3865,"XML":3866,"ben":3867,"Î»":3868,"275":3869,"2700":3870,"long":3871,"Youtube":3872,"Kong":3873,"Edward":3874,"Under":3875,"Python":3876,"White":3877,"312":3878,"5G":3879,"730":3880,"First":3881,"Grand":3882,"HL":3883,"Lan":3884,"OM":3885,"Pas":3886,"TBS":3887,"fun":3888,"hao1":3889,"264":3890,"295":3891,"386":3892,"1802":3893,"BLUE":3894,"Institute":3895,"Champion":3896,"32.":3897,"630":3898,"Cas":3899,"Sum":3900,"TM":3901,"kar":3902,"Ãº":3903,"Ãł":3904,"nie1":3905,"1822":3906,"ared":3907,"sts":3908,"288":3909,"ãĤ¸":3910,"4.2":3911,"6.8":3912,"ÙĦ":3913,"307":3914,"244":3915,"ãĥķ":3916,"vate":3917,"Tunes":3918,"ITF":3919,"Tom":3920,"6.9":3921,"Gro":3922,"JT":3923,"xel":3924,"anti":3925,"launch":3926,"249":3927,"35%":3928,"903":3929,"ille":3930,"North":3931,"Poly":3932,"Square":3933,"6.6":3934,"OT":3935,"Pal":3936,"PID":3937,"Series":3938,"llo":3939,"try":3940,"zation":3941,"Ä«":3942,"Å¡":3943,"tum":3944,"243":3945,"2800":3946,"tas":3947,"Your":3948,"This":3949,"Cup":3950,"burg":3951,"91.":3952,"FX":3953,"Ham":3954,"Jump":3955,"Moun":3956,"NP":3957,"Sor":3958,"Sof":3959,"Ya":3960,"__":3961,"lio":3962,"1810":3963,"15.":3964,"1622":3965,"1792":3966,"return":3967,"701":3968,"SARS":3969,"Cap":3970,"Hong":3971,"POP":3972,"5.1":3973,"960":3974,"Cur":3975,"Dani":3976,"Kh":3977,"Lang":3978,"Op":3979,"Sig":3980,"SHO":3981,"VV":3982,"ich":3983,"non":3984,"pai3":3985,"Îµ":3986,"mos":3987,"1650":3988,"801":3989,"Rap":3990,"Network":3991,"MIUI":3992,"2100":3993,"Ur":3994,"ob":3995,"Ð¼":3996,"007":3997,"1826":3998,"1573":3999,"rum":4000,"cing":4001,"have":4002,"747":4003,"Jour":4004,"Ray":4005,"Wat":4006,"ken":4007,"1834":4008,"304":4009,"226":4010,"278":4011,"ãĥŁ":4012,"ãĤĤ":4013,"375":4014,"add":4015,"1805":4016,"ACT":4017,"APP":4018,"AIR":4019,"Studi":4020,"Block":4021,"Gran":4022,"HA":4023,"Im":4024,"Para":4025,"Tre":4026,"ag":4027,"pres":4028,"rd":4029,"sin":4030,"296":4031,"298":4032,"385":4033,"ATA":4034,"Model":4035,"Die":4036,"2D":4037,"335":4038,"590":4039,"9000":4040,"CU":4041,"Dot":4042,"Gil":4043,"Sports":4044,"WN":4045,"ml":4046,"vy":4047,"Ïī":4048,"âĭ":4049,"lic":4050,"12%":4051,"lang":4052,"1780":4053,"13%":4054,"ges":4055,"227":4056,"sig":4057,"lta":4058,"ãĥł":4059,"aka":4060,"dings":4061,"IFA":4062,"315":4063,"63.":4064,"Jon":4065,"Ren":4066,"Sp":4067,"fre":4068,"iTunes":4069,"Â»":4070,"sual":4071,"more":4072,"251":4073,"277":4074,"map":4075,"CNN":4076,"Auto":4077,"2A":4078,"Cle":4079,"Gol":4080,"Over":4081,"Rus":4082,"RFC":4083,"hr":4084,"pH":4085,"und":4086,"zine":4087,"18.":4088,"1582":4089,"1799":4090,"259":4091,"246":4092,"248":4093,"thi":4094,"Mag":4095,"view":4096,"1809":4097,"gain":4098,"Que":4099,"South":4100,"Engine":4101,"530":4102,"C2":4103,"DLC":4104,"Now":4105,"Sc":4106,"gen4":4107,"sang3":4108,"Â«":4109,"ander":4110,"1823":4111,"orn":4112,"1621":4113,"272":4114,"405":4115,"ATION":4116,"1803":4117,"State":4118,"stems":4119,"Internet":4120,"EEE":4121,"press":4122,"334":4123,"620":4124,"770":4125,"Class":4126,"Dar":4127,"Jen":4128,"Nu":4129,"SG":4130,"VI":4131,"had":4132,"dition":4133,"ork":4134,"1625":4135,"284":4136,"285":4137,"ãĤµ":4138,"Stan":4139,"tware":4140,"dae":4141,"Publi":4142,"311":4143,"880":4144,"Lis":4145,"NM":4146,"Sony":4147,"dor":4148,"Ãī":4149,"á»":4150,"lution":4151,"cur":4152,"258":4153,"form":4154,"276":4155,"ãģĮ":4156,"ason":4157,"Mobile":4158,"Bus":4159,"Cli":4160,"Cer":4161,"Den":4162,"KO":4163,"Oper":4164,"XT":4165,"dd":4166,"ith":4167,"sco":4168,"à¦":4169,"253":4170,"ress":4171,"357":4172,"via":4173,"Moon":4174,"Wii":4175,"Pier":4176,"660":4177,"Bon":4178,"Get":4179,"Men":4180,"SV":4181,"UL":4182,"Ð¹":4183,"chen":4184,"oud":4185,"ãĥĹ":4186,"STA":4187,"ings":4188,"Maria":4189,"IPv":4190,"Unix":4191,"What":4192,"Europe":4193,"570":4194,"Bre":4195,"U19":4196,"WF":4197,"Way":4198,"ee":4199,"pat":4200,"Ð³":4201,"1827":4202,"tuan1":4203,"1570":4204,"aly":4205,"ãģĤ":4206,"cks":4207,"gazine":4208,"0.01":4209,"Link":4210,"ville":4211,"Book":4212,"314":4213,"3DS":4214,"690":4215,"BBS":4216,"C6":4217,"DSM":4218,"IEEE":4219,"SB":4220,"WWE":4221,"blo":4222,"ini":4223,"nor":4224,"1817":4225,"1640":4226,"1636":4227,"268":4228,"402":4229,"404":4230,"ãģ¯":4231,"Medi":4232,"Rain":4233,"Beau":4234,"Sound":4235,"which":4236,"4G":4237,"7.7":4238,"AX":4239,"Dol":4240,"Gri":4241,"fy":4242,"trans":4243,"1775":4244,"254":4245,"85%":4246,"Francis":4247,"323":4248,"7.0":4249,"Cir":4250,"HP":4251,"Lit":4252,"OP":4253,"kao1":4254,"model":4255,"laris":4256,"1750":4257,"309":4258,"teri":4259,"cast":4260,"aker":4261,"Joy":4262,"fic":4263,"329":4264,"670":4265,"6.1":4266,"8.1":4267,"Ath":4268,"Clo":4269,"End":4270,"Ly":4271,"Plus":4272,"hel":4273,"ide":4274,"ung":4275,"yan":4276,"shing":4277,"guai1":4278,"1816":4279,"17.":4280,"ãĥģ":4281,"ãĤ£":4282,"4500":4283,"Channel":4284,"CON":4285,"Victor":4286,"field":4287,"Tik":4288,"TOP":4289,"Cube":4290,"Louis":4291,"print":4292,".-":4293,"710":4294,"910":4295,"950":4296,"DI":4297,"God":4298,"MK":4299,"ab":4300,"oc":4301,"dian":4302,"pin":4303,"16%":4304,"arr":4305,"241":4306,"2300":4307,"Research":4308,"ISBN":4309,"Poli":4310,"Film":4311,"tvN":4312,"326":4313,"Asia":4314,"Bou":4315,"PT":4316,"T2":4317,"rch":4318,"sp":4319,"à½":4320,"pital":4321,"1592":4322,"alle":4323,"45%":4324,"347":4325,"758":4326,"May":4327,"oom":4328,"Stand":4329,"ople":4330,"61.":4331,"Ara":4332,"DT":4333,"Tro":4334,"tr":4335,"tan":4336,"10.5":4337,"12.5":4338,"tual":4339,"1628":4340,"1788":4341,"252":4342,"242":4343,"269":4344,"ãĥĭ":4345,"andy":4346,"Leon":4347,"ffer":4348,"fea":4349,"Nico":4350,"velop":4351,"tural":4352,"318":4353,"336":4354,"53.":4355,"9.5":4356,"978":4357,"Ado":4358,"CB":4359,"DL":4360,"Festi":4361,"MUS":4362,"N2":4363,"O3":4364,"áĥ":4365,"bie1":4366,"tio":4367,"pos":4368,"1627":4369,"1783":4370,"1791":4371,"alth":4372,"406":4373,"354":4374,"INN":4375,"Regi":4376,"phi":4377,"Vista":4378,"rough":4379,"Pixel":4380,"Disney":4381,"âĸ¡":4382,"73.":4383,"90.":4384,"Acade":4385,"Cour":4386,"EL":4387,"F4":4388,"IB":4389,"LAN":4390,"LTE":4391,"Pho":4392,"Sm":4393,"pa1":4394,"tre":4395,"nica":4396,"16.":4397,"1797":4398,"289":4399,"ï¼»":4400,"ï¼½":4401,"ced":4402,"65%":4403,"Mach":4404,"556":4405,"Beat":4406,"Law":4407,"Ange":4408,"DMS":4409,"OF":4410,"TH":4411,"Tan":4412,"nan3":4413,"pop":4414,"1779":4415,"1796":4416,"607":4417,"ãģ¤":4418,"ãģł":4419,"352":4420,"465":4421,"1808":4422,"Prof":4423,"ERT":4424,"some":4425,"km2":4426,"Works":4427,"NCT":4428,"Alice":4429,"Software":4430,"âĭ¯":4431,"321":4432,"337":4433,"4.3":4434,"A4":4435,"Ami":4436,"T3":4437,"fla":4438,"gis":4439,"ls":4440,"char":4441,"huang4":4442,"night":4443,"1829":4444,"tude":4445,"1778":4446,"1794":4447,"283":4448,"273":4449,"test":4450,"ãĥ£":4451,"ãĥĲ":4452,"ãĤ¨":4453,"cky":4454,"Cos":4455,"Mary":4456,"Visual":4457,"inese":4458,"YouTuber":4459,"ASC":4460,"world":4461,"Elect":4462,"Battle":4463,"313":4464,"510":4465,"840":4466,"860":4467,"Foot":4468,"Mnet":4469,"vance":4470,"Ã±":4471,"Î¸":4472,"shuai3":4473,"1798":4474,"22%":4475,"mega":4476,"ãģ¦":4477,"456":4478,"372":4479,"Johan":4480,"ECT":4481,"system":4482,"Special":4483,"Awards":4484,".00":4485,"448":4486,"870":4487,"Blu":4488,"MF":4489,"ath":4490,"ror":4491,"sca":4492,"web":4493,"18%":4494,"1580":4495,"1612":4496,"1634":4497,"1787":4498,"281":4499,"267":4500,"ãĥĩ":4501,"ãģ£":4502,"mad":4503,"ãĤ¦":4504,"lost":4505,"mmy":4506,"Premi":4507,"Royal":4508,"Global":4509,"62.":4510,"911":4511,"DG":4512,"Fro":4513,"Mis":4514,"Oli":4515,"Set":4516,"TN":4517,"Tou":4518,"WO":4519,"âĩ":4520,"shai3":4521,"mina":4522,"1567":4523,"1648":4524,"271":4525,"tech":4526,"ltra":4527,"Real":4528,"pedia":4529,"pher":4530,"cono":4531,"Arts":4532,"BOX":4533,"Enviro":4534,"42.":4535,"43.":4536,"52.":4537,"72.":4538,"AH":4539,"Dark":4540,"E3":4541,"Gor":4542,"MM":4543,"Mur":4544,"Not":4545,"Pay":4546,"York":4547,"ev":4548,"chuo1":4549,"hus":4550,"19.":4551,"bon":4552,"367":4553,"OSHI":4554,"const":4555,"ACE":4556,"ffe":4557,"ENT":4558,"AGA":4559,"Great":4560,"TikTok":4561,"-&":4562,"322":4563,"Ah":4564,"MON":4565,"OTT":4566,"Rou":4567,"VB":4568,"cas":4569,"bian":4570,"posi":4571,"1550":4572,"1568":4573,"1615":4574,"1630":4575,"lam":4576,"14%":4577,"formation":4578,"286":4579,"ãĥĸ":4580,"Magazine":4581,"CH3":4582,"Compu":4583,"Museum":4584,"Daniel":4585,"Festival":4586,"Brown":4587,"Cru":4588,"CAS":4589,"FBI":4590,"LG":4591,"Mal":4592,"Mill":4593,"Ram":4594,"SIG":4595,"USA":4596,"ap":4597,"gg":4598,"other":4599,"zhao2":4600,"ying":4601,"pie1":4602,"12.7":4603,"1645":4604,"1646":4605,"fore":4606,"28%":4607,"262":4608,"ãĤŃ":4609,"333":4610,".95":4611,"COLL":4612,"ARD":4613,"Secre":4614,"stea":4615,"stein":4616,"Encore":4617,"tures":4618,"Cloud":4619,"MUSIC":4620,"9.8":4621,"9.7":4622,"Hun":4623,"Lar":4624,"Let":4625,"bas":4626,"dou":4627,"gal":4628,"tto":4629,"Ø±":4630,"1626":4631,"261":4632,"297":4633,"tem":4634,"355":4635,"olf":4636,"Chinese":4637,"49%":4638,"Kim":4639,"Online":4640,"328":4641,"820":4642,"Pet":4643,"PRO":4644,"S2":4645,"over":4646,"sou3":4647,"mod":4648,"ques":4649,"1637":4650,"rey":4651,"705":4652,"901":4653,"364":4654,"384":4655,"378":4656,"33%":4657,"442":4658,"Memo":4659,"gic":4660,"Point":4661,"VIDIA":4662,"618":4663,"70.":4664,"71.":4665,"AU":4666,"CBC":4667,"HB":4668,"Has":4669,"Hum":4670,"NVIDIA":4671,"T48":4672,"cto":4673,"sche":4674,"yl":4675,"ze4":4676,"Ð¡":4677,"Ñĭ":4678,"1642":4679,"257":4680,"2400":4681,"282":4682,"2600":4683,"Mad":4684,"vern":4685,"Stadium":4686,"mple":4687,"1609":4688,"oney":4689,"Redmi":4690,"Year":4691,"Taiwan":4692,"Adobe":4693,"5.4":4694,"760":4695,"767":4696,"Cou":4697,"CAN":4698,"Il":4699,"O4":4700,"Sw":4701,"U17":4702,"VC":4703,"Vin":4704,"Won":4705,"bat":4706,"bps":4707,"heng4":4708,"ÑĮ":4709,"deon":4710,"nior":4711,"poration":4712,"1585":4713,"1583":4714,"1610":4715,"13.5":4716,"thing":4717,"ãĤĦ":4718,"583":4719,"ctory":4720,"1807":4721,"aki":4722,"ARM":4723,"TeX":4724,"stern":4725,"thern":4726,"Communi":4727,"Systems":4728,"General":4729,"930":4730,"FIFA":4731,"JU":4732,"KE":4733,"OD":4734,"Sin":4735,"Town":4736,"Thun":4737,"Who":4738,"cla":4739,"cci":4740,"jor":4741,"stu":4742,"tina":4743,"mol":4744,"11%":4745,"1623":4746,"sty":4747,"274":4748,"ros":4749,"size":4750,"cell":4751,"999":4752,"Anto":4753,"Post":4754,"pring":4755,"Cyclo":4756,"ï¹ĳ":4757,"H2O":4758,"EOS":4759,"FIN":4760,"Ima":4761,"IEC":4762,"Kin":4763,"Kid":4764,"esta":4765,"sm":4766,"11.5":4767,"1571":4768,"17%":4769,"1784":4770,"stan":4771,"263":4772,"509":4773,"293":4774,"351":4775,"Chan":4776,".04":4777,"Deep":4778,"Archi":4779,"wiki":4780,".10":4781,"2200":4782,"428":4783,"5.2":4784,"AJ":4785,"GUN":4786,"Tar":4787,"pra":4788,"sk":4789,"xx":4790,"lig":4791,"nity":4792,"1620":4793,"1723":4794,"1786":4795,"stre":4796,"504":4797,"lton":4798,"ãĥ¥":4799,"353":4800,"395":4801,"beth":4802,"43%":4803,"value":4804,"Solaris":4805,"private":4806,"Christian":4807,"Metro":4808,"Manage":4809,"DotA":4810,"419":4811,"432":4812,"A3":4813,"Ari":4814,"FN":4815,"GL":4816,"Ron":4817,"bes":4818,"cat":4819,"card":4820,"ctive":4821,"pes":4822,"Åį":4823,"ìķ":4824,"curi":4825,"1450":4826,"inte":4827,"gel":4828,"rat":4829,"ãģĻ":4830,"cos":4831,"elo":4832,"Mike":4833,"hai":4834,"Key":4835,"Market":4836,"Christ":4837,"Philip":4838,"Studios":4839,"Little":4840,"345":4841,"427":4842,"4.1":4843,"Band":4844,"Cine":4845,"FE":4846,"HIV":4847,"K6":4848,"Line":4849,"VPN":4850,"Äį":4851,"like":4852,"zilla":4853,"oro":4854,"1577":4855,"1618":4856,"1643":4857,"ellow":4858,"387":4859,"399":4860,".82":4861,".83":4862,"cts":4863,"Cast":4864,"ource":4865,"LOVE":4866,"Fleet":4867,"Technology":4868,"317":4869,"331":4870,"512":4871,"565":4872,"H1":4873,"MY":4874,"R2":4875,"S1":4876,"Soft":4877,"Tay":4878,"U18":4879,"USS":4880,"Ultra":4881,"bb":4882,"his":4883,"lu1":4884,"ud":4885,"Ñı":4886,"lina":4887,"1586":4888,"1777":4889,"1453":4890,"21%":4891,"806":4892,"base":4893,"CDMA":4894,"Radeon":4895,"Union":4896,"ALL":4897,"Valve":4898,"Children":4899,"Secret":4900,"327":4901,"490":4902,"445":4903,"446":4904,"535":4905,"Alt":4906,"Aven":4907,"FI":4908,"Found":4909,"Land":4910,"Mid":4911,"M87":4912,"Sk":4913,"U23":4914,"WI":4915,"WOR":4916,"para":4917,"rstea":4918,"yer":4919,"Ãª":4920,"endo":4921,"live":4922,"1521":4923,"1765":4924,"1774":4925,"into":4926,"stal":4927,"sey":4928,"second":4929,"vey":4930,"47%":4931,"499":4932,"Stage":4933,"Multi":4934,"ller":4935,"With":4936,"Junior":4937,"BMW":4938,"Fried":4939,"Centre":4940,"where":4941,"Academy":4942,"411":4943,"416":4944,"Crea":4945,"EMI":4946,"HTC":4947,"KB":4948,"Omega":4949,"Sche":4950,"Å«":4951,"eni":4952,"cht":4953,"cul":4954,"1616":4955,"26%":4956,"sible":4957,"tai":4958,"707":4959,"ily":4960,"369":4961,"397":4962,"vers":4963,"Joe":4964,"States":4965,"Wire":4966,"Niko":4967,"GPU":4968,"bility":4969,"613":4970,"6.4":4971,"NR":4972,"Swe":4973,"TW":4974,"ZA":4975,"Î·":4976,"ÎĶ":4977,"ÐĲ":4978,"eno":4979,"mia":4980,"1564":4981,"1785":4982,"22.":4983,"lot":4984,"368":4985,"398":4986,".08":4987,"67%":4988,"pho":4989,"TVBS":4990,"Next":4991,"Sub":4992,"Wiki":4993,"Geo":4994,"MySQL":4995,"void":4996,"Origin":4997,"Amazon":4998,"3C":4999,"810":5000,"BT":5001,"Hon":5002,"Jr":5003,"Sti":5004,"Sau":5005,"Sara":5006,"house":5007,"m3":5008,"pto":5009,"ÐĶ":5010,"1662":5011,"include":5012,"266":5013,"291":5014,"sist":5015,"head":5016,"588":5017,"Demo":5018,"Distri":5019,"Base":5020,"MOD":5021,"chie":5022,"Adam":5023,"Corporation":5024,"M1A1":5025,"ference":5026,"mission":5027,"velopment":5028,"GUNDAM":5029,"316":5030,"537":5031,"621":5032,"742":5033,"CI":5034,"E48":5035,"Eric":5036,"Flow":5037,"Ir":5038,"Run":5039,"TI":5040,"cted":5041,"pter":5042,"Ã«":5043,"ÙĨ":5044,"point":5045,"1540":5046,"1574":5047,"1772":5048,"24.":5049,"std":5050,"287":5051,"tee":5052,"605":5053,"454":5054,"log":5055,"388":5056,"343":5057,"Mau":5058,".86":5059,"888":5060,"Arc":5061,"Sea":5062,"Sund":5063,"0.02":5064,"Draw":5065,"Church":5066,"Alexander":5067,"Cross":5068,"Management":5069,"425":5070,"475":5071,"9.9":5072,"9.6":5073,"Del":5074,"Lady":5075,"ND":5076,"Other":5077,"SW":5078,"kang2":5079,"pal":5080,"were":5081,"anna":5082,"aon":5083,"19%":5084,"1250":5085,"1619":5086,"1629":5087,"1683":5088,"read":5089,"27%":5090,"29%":5091,"292":5092,"matic":5093,"363":5094,"376":5095,"STS":5096,"552":5097,"686":5098,"ook":5099,"ign":5100,"ality":5101,"Augu":5102,"Scott":5103,"London":5104,"Dyna":5105,"Cyclol":5106,"627":5107,"BRT":5108,"FL":5109,"Kir":5110,"Lake":5111,"MX":5112,"Pon":5113,"Sal":5114,"Tony":5115,"ale":5116,"hard":5117,"tru":5118,"Ð±":5119,"tish":5120,"tial":5121,"14.5":5122,"24%":5123,"ough":5124,"ï¼Ĥ":5125,"sit":5126,"31%":5127,"488":5128,".84":5129,".88":5130,"99%":5131,"Design":5132,"Neo":5133,"open":5134,"Andrew":5135,"Spot":5136,"ðĲŃ":5137,"449":5138,"5A":5139,"625":5140,"738":5141,"81.":5142,"83.":5143,"Der":5144,"Fron":5145,"HER":5146,"Of":5147,"PB":5148,"Round":5149,"VER":5150,"ace":5151,"hl":5152,"oni":5153,"plan":5154,"Ðļ":5155,"shared":5156,"1590":5157,"1579":5158,"1633":5159,"ãĥĬ":5160,"fox":5161,"ãĤ°":5162,"32%":5163,"ida":5164,"1507":5165,"put":5166,"CH2":5167,"volution":5168,"mont":5169,"Animax":5170,"Earth":5171,"412":5172,"8.7":5173,"LF":5174,"LM":5175,"Smo":5176,"SON":5177,"V8":5178,"hang1":5179,"inv":5180,"nan":5181,"ong":5182,"plor":5183,"Ð¿":5184,"íķ":5185,"jia":5186,"mir":5187,"mix":5188,"body":5189,"nico":5190,"1631":5191,"1680":5192,"1773":5193,"alan":5194,"21.":5195,"294":5196,"sive":5197,"407":5198,"mate":5199,"ãĤĮ":5200,"ette":5201,"asa":5202,"396":5203,"3300":5204,"42%":5205,"Beta":5206,"1604":5207,"Family":5208,"Ander":5209,"Hami":5210,"Fort":5211,"Party":5212,"PGA":5213,"Journal":5214,"41.":5215,"7.1":5216,"82.":5217,"8.6":5218,"980":5219,"Are":5220,"Bad":5221,"C4":5222,"Dun":5223,"Fold":5224,"GC":5225,"LR":5226,"Nar":5227,"Spring":5228,"pl":5229,"Äĩ":5230,"ÉĻ":5231,"cum":5232,"1575":5233,"1697":5234,"1755":5235,"1492":5236,"805":5237,"3600":5238,"467":5239,"471":5240,"Def":5241,"Simon":5242,"mics":5243,"ï¹Ĳ":5244,"trol":5245,"SKE48":5246,"Summer":5247,"Thunder":5248,"0x":5249,"319":5250,"Epic":5251,"J2":5252,"XC":5253,"fb":5254,"pel":5255,"nio":5256,"1561":5257,"1589":5258,"1595":5259,"1781":5260,"1465":5261,"508":5262,"ãĥĨ":5263,"ãģ²":5264,"344":5265,".85":5266,"44%":5267,".99":5268,"589":5269,"1603":5270,"1606":5271,"1607":5272,"ppy":5273,"CNBLUE":5274,"Ruby":5275,"Bio":5276,"Council":5277,"Drive":5278,"Football":5279,"415":5280,"855":5281,"940":5282,"970":5283,"Clar":5284,"Fal":5285,"Miss":5286,"Son":5287,"kan":5288,"uage":5289,"x86":5290,"zen":5291,"Ã¸":5292,"Ãħ":5293,"ÃŁ":5294,"à®":5295,"bio":5296,"1522":5297,"1526":5298,"1556":5299,"1613":5300,"1660":5301,"502":5302,"506":5303,".55":5304,"ãĥĢ":5305,"377":5306,"478":5307,"554":5308,".07":5309,"ample":5310,"Alli":5311,"mercial":5312,"TOUR":5313,"Williams":5314,"cations":5315,"Hyper":5316,"ìĿ´":5317,"âĺĨ":5318,"Angela":5319,"417":5320,"525":5321,"7.4":5322,"920":5323,"925":5324,"After":5325,"Flor":5326,"Hit":5327,"LU":5328,"Ora":5329,"Sar":5330,"Sca":5331,"URI":5332,"Will":5333,"ski":5334,"Ùħ":5335,"ents":5336,"cheng4":5337,"bout":5338,"1525":5339,"1591":5340,"1667":5341,"lai":5342,"408":5343,"485":5344,"tos":5345,"46%":5346,"64%":5347,"643":5348,"baby":5349,"phen":5350,"Mari":5351,"Sho":5352,"AMO":5353,"Back":5354,"Fiesta":5355,"Steve":5356,"Rue":5357,"Advance":5358,"DOHC":5359,"Christo":5360,"324":5361,"422":5362,"515":5363,"534":5364,"Kit":5365,"Lam":5366,"Light":5367,"Mes":5368,"QS":5369,"S4":5370,"Tel":5371,"UK":5372,"VT":5373,"Wel":5374,"bles":5375,"hen":5376,"mRNA":5377,"who":5378,"zzo":5379,"Äĵ":5380,"âĤ":5381,"lish":5382,"sure":5383,"1510":5384,"1638":5385,"only":5386,"1730":5387,"media":5388,"ãĥĳ":5389,"fol":5390,"342":5391,"aso":5392,"393":5393,"479":5394,".02":5395,".06":5396,"phic":5397,"Story":5398,"1508":5399,"Mozilla":5400,"Vita":5401,"Last":5402,"HKT48":5403,"Syn":5404,"Cul":5405,"lassic":5406,"Water":5407,"Bern":5408,"Walter":5409,"America":5410,"Surface":5411,"7.62":5412,"Foundation":5413,".25":5414,"3200":5415,"531":5416,"538":5417,"546":5418,"7.2":5419,"Cre":5420,"EG":5421,"GHz":5422,"Hal":5423,"ITV":5424,"Jer":5425,"Jane":5426,"Kat":5427,"MBA":5428,"NI":5429,"Sol":5430,"TG":5431,"VS":5432,"ite":5433,"iPS":5434,"kW":5435,"pper":5436,"vir":5437,"lion":5438,"2028":5439,"1543":5440,"1457":5441,"indu":5442,".52":5443,".53":5444,"come":5445,"366":5446,"381":5447,"392":5448,"Indu":5449,".78":5450,"Buil":5451,"place":5452,"History":5453,".12":5454,"1st":5455,"413":5456,"6.3":5457,"Edu":5458,"F3":5459,"Gun":5460,"GPS":5461,"LZ":5462,"Pod":5463,"Than":5464,"U20":5465,"Wnt":5466,"down":5467,"zan3":5468,"zar":5469,"ÙĬ":5470,"bour":5471,"orig":5472,"1565":5473,"1559":5474,"1587":5475,"1597":5476,"âĢł":5477,"1635":5478,"1688":5479,"1733":5480,"1782":5481,"also":5482,"tex":5483,"sio":5484,"606":5485,"ãģĳ":5486,"373":5487,"Albert":5488,"Arti":5489,"Tim":5490,"Times":5491,"Johnson":5492,"Final":5493,".11":5494,"4A":5495,"426":5496,"524":5497,"612":5498,"6.2":5499,"890":5500,"Ash":5501,"By":5502,"Bell":5503,"FS":5504,"Jim":5505,"Tol":5506,"UD":5507,"Za":5508,"bs":5509,"ov":5510,"score":5511,"Â£":5512,"ÐŁ":5513,"Ñĩ":5514,"chy":5515,"ort":5516,"1588":5517,"1598":5518,"507":5519,"thew":5520,"34%":5521,"641":5522,"495":5523,"68%":5524,"682":5525,".97":5526,".69":5527,"666":5528,"Rod":5529,"Rose":5530,"0.05":5531,"Austra":5532,"Common":5533,"worth":5534,"Mont":5535,"Brian":5536,"CLA":5537,"Place":5538,"Telegram":5539,"Pierre":5540,"332":5541,"4K":5542,"435":5543,"575":5544,"790":5545,"990":5546,"Ai":5547,"Bet":5548,"Mus":5549,"TMA":5550,"wen":5551,"yon":5552,"tie4":5553,"bow":5554,"1523":5555,"1535":5556,"1649":5557,"1661":5558,"1770":5559,"1499":5560,"stor":5561,"stry":5562,"23%":5563,"0.25":5564,"ãĤ¬":5565,"ãĤı":5566,"361":5567,"466":5568,"391":5569,"....":5570,"551":5571,".01":5572,"vices":5573,"Med":5574,"Moder":5575,"1601":5576,"PCI":5577,"Hotel":5578,"eller":5579,"TOK":5580,"AcFun":5581,"Angel":5582,"Flash":5583,"craft":5584,"number":5585,"Wonder":5586,"528":5587,"5500":5588,"Bang":5589,"Hard":5590,"HTT":5591,"Sma":5592,"Shan":5593,"Var":5594,"ea":5595,"fis":5596,"ola":5597,"chan":5598,"mine":5599,"tica":5600,"shuan4":5601,"12.8":5602,"1511":5603,"1760":5604,"1769":5605,"358":5606,"tera":5607,"36%":5608,"371":5609,"469":5610,"684":5611,"Rep":5612,"587":5613,"View":5614,"94.":5615,"ppm":5616,"gio":5617,"Siri":5618,"SMAP":5619,"But":5620,"0.03":5621,"Explor":5622,"Edge":5623,"Soul":5624,"tribu":5625,"Golden":5626,"548":5627,"AW":5628,"Kri":5629,"Mir":5630,"MAC":5631,"air":5632,"even":5633,"huo":5634,"spi":5635,"vat":5636,"tian3":5637,"20000":5638,"1080":5639,"15000":5640,"1576":5641,"1594":5642,"1689":5643,".51":5644,"362":5645,"383":5646,"TCP":5647,"341":5648,"Mai":5649,"Roman":5650,"41%":5651,"NASL":5652,"98%":5653,"Program":5654,"Some":5655,"Bridge":5656,"active":5657,"scope":5658,"European":5659,"vernment":5660,"80.":5661,"921":5662,"Apo":5663,"Bil":5664,"Dance":5665,"Kon":5666,"L1":5667,"MR":5668,"Mind":5669,"MMC":5670,"NEX":5671,"Pass":5672,"RB":5673,"TF":5674,"UFO":5675,"VF":5676,"bum":5677,"ey":5678,"gni":5679,"hong4":5680,"rang2":5681,"sal":5682,"sky":5683,"ðª":5684,"cheng3":5685,"left":5686,"20.":5687,"1811":5688,"1517":5689,"1514":5690,"1552":5691,"âĢķ":5692,"1639":5693,"1684":5694,"then":5695,"sie":5696,"608":5697,"sell":5698,"master":5699,"38%":5700,"349":5701,"644":5702,"557":5703,"ird":5704,".05":5705,".76":5706,".79":5707,".92":5708,"585":5709,"597":5710,"ardo":5711,"Development":5712,"Mod":5713,"Seven":5714,"Raw":5715,"osa":5716,"Week":5717,"thers":5718,"Just":5719,"Matthew":5720,"Port":5721,"Eliza":5722,"Gamer":5723,"template":5724,"curity":5725,"Taylor":5726,"348":5727,"436":5728,"549":5729,"8.2":5730,"AST":5731,"Brand":5732,"Dia":5733,"Ever":5734,"Fred":5735,"Mitch":5736,"Pres":5737,"RN":5738,"Ret":5739,"Tran":5740,"Villa":5741,"cs":5742,"cuo2":5743,"ext":5744,"rent":5745,"uts":5746,"yond":5747,"1578":5748,"1763":5749,"1350":5750,"iness":5751,"ï¼ĭ":5752,"403":5753,"cept":5754,"908":5755,"ession":5756,"6500":5757,"vie":5758,"case":5759,"1505":5760,"tour":5761,"777":5762,"Marie":5763,"anger":5764,"Test":5765,"fied":5766,"fication":5767,"Pack":5768,"prote":5769,"Qui":5770,"Santa":5771,"MG42":5772,"547":5773,"567":5774,"668":5775,"C5":5776,"FAN":5777,"Lor":5778,"NK":5779,"Oh":5780,"Rol":5781,"T4":5782,"YOSHI":5783,"cou":5784,"kes":5785,"olet":5786,"pus":5787,"sao4":5788,"vor":5789,"Â³":5790,"Ñĸ":5791,"mid":5792,"ering":5793,"1050":5794,"cula":5795,"1614":5796,"1720":5797,"27.":5798,"1.25":5799,"374":5800,"CoV":5801,"494":5802,".03":5803,".73":5804,"verse":5805,"IDE":5806,"IPS":5807,"PSP":5808,"Hea":5809,"People":5810,"UNIX":5811,"Commit":5812,"âħł":5813,"Frame":5814,"Mountain":5815,"IPv4":5816,"Explorer":5817,"4.4":5818,"514":5819,"522":5820,"545":5821,"568":5822,"5.3":5823,"619":5824,"675":5825,"CSS":5826,"D1":5827,"DNS":5828,"EBU":5829,"KT":5830,"Kel":5831,"Shu":5832,"Sand":5833,"bn":5834,"bla":5835,"cin":5836,"ne2":5837,"ovan":5838,"yong2":5839,"lete":5840,"poly":5841,"1516":5842,"1513":5843,"1534":5844,"1547":5845,"1569":5846,"16V":5847,"1460":5848,"26.":5849,"ronic":5850,"rate":5851,"cel":5852,"ãģ§":5853,"359":5854,"757":5855,"itz":5856,"642":5857,".89":5858,".93":5859,"581":5860,"ssa":5861,"aux":5862,"1502":5863,"ctions":5864,"51%":5865,"à¸£":5866,"Work":5867,"SOHC":5868,"Spiri":5869,"Arthur":5870,"Queen":5871,"COLLAR":5872,"Sunday":5873,"418":5874,"414":5875,"424":5876,"433":5877,"544":5878,"Ale":5879,"CJ":5880,"DTS":5881,"F2":5882,"JO":5883,"Jus":5884,"MMO":5885,"PEN":5886,"Two":5887,"XIV":5888,"Yah":5889,"ami":5890,"bu1":5891,"ese":5892,"flo":5893,"kins":5894,"phe":5895,"will":5896,"zed":5897,"ÐĴ":5898,"1731":5899,"1768":5900,"1771":5901,"1490":5902,"stone":5903,"mel":5904,"409":5905,"lter":5906,"ãĥı":5907,"604":5908,"802":5909,"ãĤ±":5910,"ãĤĩ":5911,"ãĤį":5912,"389":5913,"7500":5914,"394":5915,"476":5916,"been":5917,".87":5918,"493":5919,".74":5920,".66":5921,"ERO":5922,"Solo":5923,"Box":5924,"Rift":5925,"GeForce":5926,"AGE":5927,"Prime":5928,"FOX":5929,"news":5930,"while":5931,"True":5932,"JTBC":5933,"âĩĶ":5934,"Cinema":5935,"431":5936,"539":5937,"745":5938,"ABS":5939,"Bit":5940,"Classic":5941,"EO":5942,"Hay":5943,"Jam":5944,"Ker":5945,"Lord":5946,"Mit":5947,"Sel":5948,"Tam":5949,"V6":5950,"hol":5951,"jq":5952,"Ä±":5953,"shed":5954,"shop":5955,"change":5956,"biao4":5957,"tice":5958,"1593":5959,"1724":5960,"1752":5961,"1469":5962,"1498":5963,"1370":5964,"sili":5965,"ãģĪ":5966,"48%":5967,"382":5968,"755":5969,"464":5970,"444":5971,"571":5972,"1501":5973,"Never":5974,"nova":5975,"Name":5976,"PS3":5977,"Express":5978,"works":5979,"British":5980,"Dragon":5981,"tdown":5982,"Karl":5983,"AGASA":5984,"Kids":5985,"Friedrich":5986,"646":5987,"667":5988,"CIA":5989,"D2":5990,"Dro":5991,"Gin":5992,"IRT":5993,"M6":5994,"Num":5995,"Old":5996,"XF":5997,"ZJ":5998,"high":5999,"ppe":6000,"zza":6001,"dex":6002,"lius":6003,"ery":6004,"dies":6005,"tine":6006,"tify":6007,"1520":6008,"1560":6009,"1553":6010,"1651":6011,"lau":6012,"law":6013,"1740":6014,"aro":6015,"1493":6016,"23.":6017,"602":6018,"sea":6019,"0.10":6020,"made":6021,"904":6022,"ism":6023,"496":6024,"498":6025,"443":6026,"nament":6027,".72":6028,"cio":6029,".96":6030,".62":6031,"user":6032,"Stor":6033,"Rail":6034,"Fami":6035,"MAN":6036,"Boys":6037,"Baby":6038,"produ":6039,"UNG":6040,"kov":6041,"AGUE":6042,"LEAGUE":6043,"Guard":6044,"Jeff":6045,"Donald":6046,"Firefox":6047,"à¥į":6048,"Athlon":6049,"Memori":6050,"origin":6051,"611":6052,"645":6053,"945":6054,"Bas":6055,"C1":6056,"Cr":6057,"Cen":6058,"CBA":6059,"DEC":6060,"Ea":6061,"GW":6062,"QU":6063,"TAM":6064,"U2":6065,"ei":6066,"two":6067,"Ã¥":6068,"áº":6069,"lim":6070,"bia":6071,"culus":6072,"1596":6073,"1632":6074,"1679":6075,"1718":6076,"1735":6077,"1745":6078,"1758":6079,"25G":6080,"ï¼Ŀ":6081,"ãĥ¡":6082,"907":6083,"ãĤģ":6084,"ãĤĨ":6085,"top":6086,"cid":6087,"584":6088,"sson":6089,"1506":6090,"Dear":6091,"985":6092,"Violet":6093,"Gaga":6094,"mental":6095,"Samu":6096,"1605":6097,"Side":6098,"Health":6099,"Fish":6100,"REAM":6101,"Wild":6102,"Central":6103,"Doug":6104,"Standard":6105,"Christopher":6106,"YOSHIKI":6107,"050":6108,"439":6109,"533":6110,"731":6111,"732":6112,"741":6113,"762":6114,"962":6115,"Astro":6116,"Again":6117,"Cree":6118,"Eye":6119,"H3":6120,"ICD":6121,"Kan":6122,"Kra":6123,"Kill":6124,"NU":6125,"Off":6126,"RCP":6127,"TL":6128,"Tit":6129,"Tod":6130,"UCLA":6131,"Wood":6132,"cine":6133,"np":6134,"ome":6135,"phan":6136,"Ïħ":6137,"âĻ":6138,"shan":6139,"dina":6140,"mou":6141,"1260":6142,"1566":6143,"16.5":6144,"1725":6145,"1748":6146,"sten":6147,"ãĥĦ":6148,"706":6149,"ãĤĪ":6150,"ãĤĴ":6151,"457":6152,"379":6153,"town":6154,"756":6155,"553":6156,"673":6157,"574":6158,"576":6159,"ault":6160,"Alan":6161,"Vision":6162,"osaurus":6163,"973":6164,"Capital":6165,"Anna":6166,"Greg":6167,"Jackson":6168,"AlphaFold":6169,"Operation":6170,"Fleetline":6171,"Avenue":6172,"Angelababy":6173,"516":6174,"617":6175,"639":6176,"722":6177,"735":6178,"Ak":6179,"Ana":6180,"Bun":6181,"DU":6182,"Econo":6183,"Gaon":6184,"HMS":6185,"Nan":6186,"P2":6187,"Tower":6188,"cter":6189,"hal":6190,"ners":6191,"sou4":6192,"say":6193,"tch":6194,"xa":6195,"á¸":6196,"lity":6197,"ergy":6198,"ween":6199,"2050":6200,"quid":6201,"1528":6202,"1572":6203,"1652":6204,"lade":6205,"1727":6206,"1761":6207,"1368":6208,".59":6209,"ãĥ¯":6210,"ãĥİ":6211,"356":6212,"704":6213,"482":6214,"37%":6215,"655":6216,"Info":6217,"55.":6218,"brary":6219,".98":6220,"ARE":6221,"gate":6222,"mpson":6223,"Bai":6224,"ends":6225,"BLE":6226,"Color":6227,"link":6228,"Harry":6229,"essor":6230,"English":6231,"Garden":6232,"Jones":6233,"Anderson":6234,"Elizabeth":6235,"Committee":6236,"010":6237,"447":6238,"863":6239,"926":6240,"961":6241,"Epi":6242,"Hero":6243,"LX":6244,"RATP":6245,"VP":6246,"WW":6247,"cta":6248,"city":6249,"ira":6250,"kit":6251,"defea":6252,"bird":6253,"lva":6254,"1531":6255,"1538":6256,"1647":6257,"1681":6258,"last":6259,"onal":6260,"ram":6261,"803":6262,"708":6263,"ãĤĥ":6264,"452":6265,"453":6266,"they":6267,"651":6268,"bed":6269,"Cook":6270,".09":6271,"586":6272,"572":6273,"Ros":6274,"Stro":6275,"1504":6276,"EDG":6277,"APG":6278,"Beyond":6279,"ICA":6280,"door":6281,"Basic":6282,"alis":6283,"1701":6284,"Stephen":6285,"Pie":6286,"Qua":6287,"word":6288,"Colspan":6289,"HOME":6290,"ights":6291,"Appli":6292,"prise":6293,"ccff":6294,"ccccff":6295,"Press":6296,"Disco":6297,"Twitch":6298,"Patrick":6299,"Women":6300,"FINAL":6301,"438":6302,"511":6303,"933":6304,"Apa":6305,"Bow":6306,"ILE":6307,"Jes":6308,"Rad":6309,"SNC":6310,"band":6311,"gas":6312,"hang4":6313,"pas":6314,"vity":6315,"Î©":6316,"Ð·":6317,"Øª":6318,"ìļ":6319,"dei3":6320,"xus":6321,"nical":6322,"1530":6323,"1537":6324,"lati":6325,"1736":6326,"ardi":6327,"ï¼Ĩ":6328,".56":6329,".57":6330,"603":6331,"808":6332,"461":6333,"468":6334,"681":6335,"Rea":6336,"Mega":6337,"Alf":6338,"fish":6339,"ONG":6340,"state":6341,"1709":6342,"Carl":6343,"Kevin":6344,"Southern":6345,"GameSpot":6346,"Abdu":6347,"JavaScript":6348,"speci":6349,"frame":6350,"Prince":6351,"DirectX":6352,"function":6353,"Modern":6354,"541":6355,"629":6356,"648":6357,"725":6358,"B3":6359,"CAR":6360,"Dor":6361,"ELE":6362,"Mbps":6363,"NN":6364,"NPC":6365,"P4":6366,"URE":6367,"ides":6368,"pet":6369,"Ñħ":6370,"ense":6371,"mie":6372,"dire":6373,"such":6374,"super":6375,"zing":6376,"cui3":6377,"1519":6378,"1529":6379,"1555":6380,"1687":6381,"1728":6382,"team":6383,".58":6384,"ãĥĿ":6385,"905":6386,"484":6387,"653":6388,"Mah":6389,"before":6390,"55%":6391,"559":6392,"491":6393,".94":6394,"679":6395,".63":6396,"OSS":6397,"796":6398,"Saf":6399,"Fair":6400,"MAD":6401,"Silver":6402,"Concer":6403,"That":6404,"Paris":6405,"ckett":6406,"URL":6407,"AOA":6408,"Spotify":6409,"ctures":6410,"Planet":6411,"ASCII":6412,"OmegaT":6413,"Mitchell":6414,"Yahoo":6415,"3G":6416,"423":6417,"536":6418,"632":6419,"715":6420,"825":6421,"833":6422,"Ala":6423,"Area":6424,"CAL":6425,"D9":6426,"Eri":6427,"Fly":6428,"GRO":6429,"K2":6430,"Money":6431,"RDS":6432,"Vis":6433,"apo":6434,"ate":6435,"bh":6436,"huo1":6437,"sci":6438,"wart":6439,"eron":6440,"2035":6441,"lvin":6442,"1120":6443,"poli":6444,"1767":6445,"50.":6446,"cking":6447,"esa":6448,"Maker":6449,"Chro":6450,"Chrome":6451,"473":6452,"49.":6453,"492":6454,".61":6455,"661":6456,"Robin":6457,"auto":6458,"562":6459,"Liber":6460,"Dead":6461,"Debian":6462,"Leo":6463,"Via":6464,"See":6465,"Laur":6466,"bucket":6467,"host":6468,"Ann":6469,"Anth":6470,"Anne":6471,"PS2":6472,"Conne":6473,"Fede":6474,"Eddie":6475,"TRA":6476,"Countdown":6477,"Zico":6478,"signed":6479,"TOKYO":6480,"Violetta":6481,"339":6482,"429":6483,"532":6484,"665":6485,"775":6486,"769":6487,"Ax":6488,"D5":6489,"Dal":6490,"Hand":6491,"JI":6492,"Pur":6493,"R1":6494,"RF":6495,"S3":6496,"SNS":6497,"eg":6498,"flow":6499,"gia":6500,"mbo":6501,"wy":6502,"wis":6503,"Õ¡":6504,"mie1":6505,"1220":6506,"1545":6507,"1664":6508,"1659":6509,"1719":6510,"artic":6511,"1495":6512,"1496":6513,"1388":6514,"thor":6515,"702":6516,"703":6517,"Main":6518,"STATION":6519,"689":6520,".91":6521,"692":6522,"under":6523,"Mix":6524,"Neu":6525,"74%":6526,"Jaco":6527,"oso":6528,"ental":6529,"mentary":6530,"ERS":6531,"haus":6532,"him":6533,"AND":6534,"Anti":6535,"SM.81":6536,"graphy":6537,"gins":6538,"Steven":6539,"Phy":6540,"Juan":6541,"gene":6542,"IFF":6543,"Anime":6544,"Henri":6545,"Fox":6546,"Human":6547,"Framework":6548,"434":6549,"636":6550,"729":6551,"761":6552,"878":6553,"Aus":6554,"Action":6555,"Din":6556,"E1":6557,"E231":6558,"Got":6559,"GEN":6560,"Jay":6561,"L2":6562,"M5":6563,"PAGASA":6564,"RK":6565,"Too":6566,"ZERO":6567,"bble":6568,"das":6569,"eb":6570,"lf":6571,"oli":6572,"yd":6573,"Ðĳ":6574,"Ðľ":6575,"ÑĨ":6576,"ìĹ":6577,"leu":6578,"tier":6579,"1546":6580,"1549":6581,"1562":6582,"1670":6583,"1690":6584,"1654":6585,"1653":6586,"1694":6587,"1759":6588,"1466":6589,"ãĥ¢":6590,"807":6591,"709":6592,"ilo":6593,"458":6594,"love":6595,"463":6596,"555":6597,"596":6598,"662":6599,"578":6600,"Stri":6601,"Like":6602,"Michel":6603,"constru":6604,"Happy":6605,"Build":6606,"shion":6607,"Interactive":6608,"Johnny":6609,"della":6610,"flight":6611,"FAST":6612,"Kenne":6613,"Court":6614,"HTTP":6615,"Samuel":6616,".39":6617,"12000":6618,"527":6619,"638":6620,"669":6621,"712":6622,"711":6623,"9.4":6624,"BP":6625,"DREAM":6626,"Gon":6627,"IMAX":6628,"K11":6629,"Kha":6630,"LV":6631,"Lind":6632,"Nam":6633,"NCC":6634,"RSA":6635,"Sr":6636,"Say":6637,"Thi":6638,"Well":6639,"cz":6640,"cli":6641,"cam":6642,"ef":6643,"kon":6644,"lle":6645,"ption":6646,"san":6647,"ui":6648,"uld":6649,"Î¬":6650,"shell":6651,"xis":6652,"qiong1":6653,"lem":6654,"sung":6655,"niu1":6656,"qua":6657,"cular":6658,"1558":6659,"1581":6660,"1738":6661,"1474":6662,"1375":6663,"ink":6664,"met":6665,"Chart":6666,"STAT":6667,"477":6668,"68000":6669,"ATE":6670,"595":6671,"598":6672,"599":6673,"997":6674,"game":6675,"Jac":6676,"1608":6677,"Hein":6678,"dence":6679,"EPA":6680,"program":6681,"0.5%":6682,"syn":6683,"EXILE":6684,"GPL":6685,"import":6686,"Voice":6687,"Stars":6688,"stars":6689,"Galant":6690,"NMB48":6691,"521":6692,"628":6693,"622":6694,"721":6695,"867":6696,"877":6697,"8.3":6698,"965":6699,"BY":6700,"Care":6701,"F5":6702,"Fon":6703,"Gy":6704,"Ita":6705,"Kur":6706,"OST":6707,"Pr":6708,"RX":6709,"Sus":6710,"SUP":6711,"Source":6712,"VEN":6713,"WP":6714,"ZZ":6715,"eng":6716,"ppi":6717,"pti":6718,"ska":6719,"yun":6720,"life":6721,"guang4":6722,"sum":6723,"1280":6724,"tura":6725,"âĢ³":6726,"1665":6727,"lad":6728,"1732":6729,"1744":6730,"1756":6731,"1489":6732,"1487":6733,"1340":6734,"thal":6735,"29.":6736,"000rpm":6737,".54":6738,"ãĥĵ":6739,"elle":6740,"906":6741,"ãĤº":6742,"451":6743,"Chill":6744,".71":6745,"Stru":6746,"idae":6747,"Alfre":6748,"Shar":6749,"Security":6750,"Dave":6751,"wick":6752,"Player":6753,"Wilson":6754,"Feli":6755,"ghts":6756,"Person":6757,"Forever":6758,"Mount":6759,"SHOW":6760,"Business":6761,"2nd":6762,"519":6763,"517":6764,"624":6765,"623":6766,"798":6767,"835":6768,"876":6769,"938":6770,"954":6771,"951":6772,"Abu":6773,"B9":6774,"CAP":6775,"D3":6776,"Fw":6777,"Flo":6778,"GDDR":6779,"Hop":6780,"Hans":6781,"IMD":6782,"LCD":6783,"Ner":6784,"NIC":6785,"Qt":6786,"Tal":6787,"YF":6788,"Zen":6789,"fan":6790,"free":6791,"hat":6792,"ude":6793,"used":6794,"Ðĺ":6795,"ð¤":6796,"dea":6797,"chuai4":6798,"won":6799,"would":6800,"1524":6801,"1532":6802,"1584":6803,"1658":6804,"1657":6805,"1699":6806,"1762":6807,"1337":6808,"mum":6809,"allo":6810,"ï¼ŀ":6811,"ras":6812,"seed":6813,"tery":6814,"472":6815,"474":6816,"649":6817,"497":6818,"687":6819,"688":6820,"698":6821,"579":6822,"Rober":6823,"88%":6824,"784":6825,"mani":6826,"Jos":6827,"Proto":6828,"72%":6829,"html":6830,"gie":6831,"1406":6832,"DSP":6833,"Carlos":6834,"telli":6835,"à¤¾":6836,"year":6837,"SHIN":6838,"Holly":6839,"âĺħ":6840,"Public":6841,"scape":6842,"Touch":6843,"MONSTA":6844,"Computer":6845,"Smosh":6846,"Smack":6847,"Apache":6848,"054":6849,"616":6850,"719":6851,"865":6852,"946":6853,"988":6854,"DH":6855,"Dur":6856,"G1":6857,"H4":6858,"H10":6859,"Hat":6860,"Jet":6861,"Jona":6862,"Ryan":6863,"Sb":6864,"Take":6865,"Wit":6866,"WHO":6867,"XG":6868,"dle":6869,"gli":6870,"gna":6871,"luo1":6872,"wri":6873,"Ã¦":6874,"ÏĨ":6875,"enne":6876,"lib":6877,"micro":6878,"dig":6879,"wel":6880,"tie":6881,"dus":6882,"lvet":6883,"11.2":6884,"power":6885,"1668":6886,"1739":6887,"1764":6888,"format":6889,"28.":6890,"mail":6891,"30000":6892,"787":6893,"Library":6894,"path":6895,"Socket":6896,"sock":6897,"PSV":6898,"1702":6899,"There":6900,"tten":6901,"LLVM":6902,"rowspan":6903,"ways":6904,"break":6905,"Sense":6906,"Fanta":6907,"SmackDown":6908,"052":6909,"421":6910,"437":6911,"614":6912,"626":6913,"637":6914,"815":6915,"816":6916,"975":6917,"Bran":6918,"Card":6919,"Echo":6920,"GF":6921,"Hos":6922,"If":6923,"Ice":6924,"JP":6925,"More":6926,"Wri":6927,"YA":6928,"ZO":6929,"after":6930,"cca":6931,"dan":6932,"done":6933,"gam":6934,"jan":6935,"nst":6936,"tar":6937,"uk":6938,"vas":6939,"Ðł":6940,"ë°":6941,"depen":6942,"most":6943,"0000":6944,"1275":6945,"11.3":6946,"1536":6947,"1675":6948,"ono":6949,"1464":6950,"rad":6951,"rai":6952,"see":6953,"major":6954,"455":6955,"lock":6956,"IND":6957,"64.":6958,".77":6959,"nda":6960,"671":6961,"678":6962,"Sher":6963,"Tex":6964,"97%":6965,"Fashion":6966,"1705":6967,"ario":6968,"Liner":6969,"TOWN":6970,"Giovan":6971,"Blood":6972,"Sheet":6973,"Intellig":6974,"KKBOX":6975,"Championship":6976,"Language":6977,"alysis":6978,"Professor":6979,"Christmas":6980,"Alfredo":6981,"542":6982,"634":6983,"821":6984,"912":6985,"CIT":6986,"Cfb":6987,"DX":6988,"HPV":6989,"MOS":6990,"MIT":6991,"NXT":6992,"SY":6993,"Ster":6994,"SIM":6995,"Tig":6996,"WH":6997,"Wer":6998,"Wing":6999,"Wolf":7000,"cl":7001,"crea":7002,"df":7003,"glo":7004,"group":7005,"ila":7006,"ima":7007,"kra":7008,"mme":7009,"wind":7010,"Ïĩ":7011,"âģ":7012,"ãħ":7013,"ìĦ":7014,"ches":7015,"miao1":7016,"bis":7017,"1563":7018,"1617":7019,"1663":7020,"1685":7021,"lak":7022,"17.5":7023,"1753":7024,"1477":7025,"1380":7026,"multi":7027,"stance":7028,"503":7029,"809":7030,"ãģİ":7031,"ãĤ½":7032,"483":7033,"486":7034,"asy":7035,"754":7036,"656":7037,"beat":7038,"beca":7039,"Theat":7040,"676":7041,"ATX":7042,"66%":7043,"99.":7044,"SAN":7045,"785":7046,"561":7047,"NAS":7048,"61%":7049,"ARK":7050,"ARP":7051,"ACH":7052,"Second":7053,"84%":7054,"IPTV":7055,"ANG":7056,"Board":7057,"Western":7058,"File":7059,"Field":7060,"odon":7061,"à¸²":7062,"anic":7063,"UNES":7064,"gency":7065,"Hip":7066,"Frances":7067,"Morning":7068,"Brad":7069,"RCA":7070,"Collection":7071,"SpaceX":7072,"lease":7073,"Melon":7074,"Circle":7075,"Mission":7076,"Creative":7077,"TWICE":7078,"Clark":7079,"Industri":7080,"SUPER":7081,"2DS":7082,"3M":7083,"518":7084,"526":7085,"566":7086,"716":7087,"714":7088,"765":7089,"764":7090,"744":7091,"7.3":7092,"826":7093,"847":7094,"918":7095,"936":7096,"Aer":7097,"Afri":7098,"Bau":7099,"Ball":7100,"BNO":7101,"EU":7102,"Eve":7103,"Fall":7104,"GI":7105,"Here":7106,"Ia":7107,"MRI":7108,"Pere":7109,"RP":7110,"Right":7111,"Rank":7112,"SUN":7113,"VIP":7114,"WTT":7115,"Zo":7116,"aw":7117,"hai1":7118,"mph":7119,"vari":7120,"ÅĤ":7121,"ÙĪ":7122,"âĬ":7123,"ë¦":7124,"ð¬":7125,"ngth":7126,"show":7127,"chin":7128,"ched":7129,"chus":7130,"1024":7131,"1669":7132,"1656":7133,"1672":7134,"1692":7135,"1754":7136,"1420":7137,"1480":7138,"teo":7139,"teen":7140,"31.":7141,"0.15":7142,"their":7143,"atan":7144,"751":7145,"65.":7146,"658":7147,"Maki":7148,"Chang":7149,"Inte":7150,"cap":7151,"594":7152,"Stone":7153,"Mei":7154,"986":7155,"791":7156,"Moore":7157,"Shine":7158,"AMC":7159,"AMP":7160,"ITA":7161,"Bug":7162,"there":7163,"1704":7164,"1708":7165,"Nick":7166,"AGP":7167,"Manu":7168,"MLB":7169,"Vogue":7170,"Future":7171,"DMR":7172,"logical":7173,"Archite":7174,"Front":7175,"713":7176,"727":7177,"748":7178,"768":7179,"875":7180,"8.8":7181,"915":7182,"929":7183,"947":7184,"BIG":7185,"CYP":7186,"EBS":7187,"From":7188,"ISA":7189,"Mol":7190,"NICO":7191,"OME":7192,"R3":7193,"Rh":7194,"Ring":7195,"UF":7196,"Ware":7197,"XIII":7198,"eu":7199,"fil":7200,"o1":7201,"xc":7202,"zan1":7203,"Ð¢":7204,"Ø³":7205,"ante":7206,"lik":7207,"bie":7208,"lev":7209,"pia":7210,"1075":7211,"002":7212,"004":7213,"1277":7214,"1279":7215,"1276":7216,"1111":7217,"1440":7218,"1488":7219,"1472":7220,"1371":7221,"story":7222,"ãĥ§":7223,"902":7224,"489":7225,"699":7226,"992":7227,"881":7228,"981":7229,"contribu":7230,"APM":7231,"1602":7232,"dom":7233,"okia":7234,"commercial":7235,"Interplay":7236,"cross":7237,"AIM":7238,"REAS":7239,"Wilhel":7240,"Audio":7241,"CRH5":7242,"Walker":7243,"bury":7244,"Version":7245,"Wong":7246,"Films":7247,"Jimmy":7248,"Sweet":7249,"District":7250,"Building":7251,"030":7252,"633":7253,"778":7254,"812":7255,"955":7256,"957":7257,"9.3":7258,"Azu":7259,"Ace":7260,"Asian":7261,"C3":7262,"C14":7263,"EY":7264,"Fol":7265,"G2":7266,"Ian":7267,"Jalan":7268,"LNG":7269,"LIF":7270,"MIC":7271,"NY":7272,"Nint":7273,"POS":7274,"Rand":7275,"RSS":7276,"Sil":7277,"SAT":7278,"Sid":7279,"Tha":7280,"TNT":7281,"VIS":7282,"Yi":7283,"cu2":7284,"cen1":7285,"d4":7286,"nar":7287,"ute":7288,"Ã½":7289,"Ø¨":7290,"Ø¯":7291,"lier":7292,"pis":7293,"bo3":7294,"bov":7295,"kuai3":7296,"10.6":7297,"1230":7298,"polit":7299,"tury":7300,"1527":7301,"15.5":7302,"1611":7303,"lat":7304,"array":7305,"rela":7306,"rix":7307,"rian":7308,"rice":7309,"road":7310,"ceae":7311,"ãģĽ":7312,"nest":7313,"487":7314,"46.":7315,"vement":7316,"Information":7317,"558":7318,"685":7319,"vio":7320,"vich":7321,"cate":7322,"ped":7323,"577":7324,"781":7325,"pert":7326,"Allen":7327,"Album":7328,"792":7329,"794":7330,"CO2":7331,"Shop":7332,"ARC":7333,"Dick":7334,"Six":7335,"WiMAX":7336,"shire":7337,"Gemini":7338,"Energy":7339,"Stewart":7340,"1122":7341,"RES":7342,"ESPN":7343,"Wave":7344,"Trickett":7345,"minal":7346,"Where":7347,"Thompson":7348,"Portable":7349,"Velvet":7350,"elect":7351,"partment":7352,"small":7353,"ìķĦ":7354,"Thunderbird":7355,"Jonathan":7356,"ð¬ĵ":7357,"Nintendo":7358,"070":7359,"543":7360,"615":7361,"717":7362,"828":7363,"839":7364,"939":7365,"Cel":7366,"E2":7367,"Edi":7368,"FD":7369,"GG":7370,"Gr":7371,"Hil":7372,"Hart":7373,"Iso":7374,"KS":7375,"Kor":7376,"Len":7377,"MED":7378,"N1":7379,"Ol":7380,"RY":7381,"S7":7382,"Sport":7383,"TD":7384,"Tw":7385,"UFC":7386,"V1":7387,"V2":7388,"Yan":7389,"ating":7390,"about":7391,"dri":7392,"gran":7393,"ik":7394,"ior":7395,"zzi":7396,"ãİ":7397,"ê°":7398,"dine":7399,"lee":7400,"til":7401,"tiful":7402,"quali":7403,"1512":7404,"1541":7405,"1666":7406,"1721":7407,"1726":7408,"1737":7409,"1747":7410,"1743":7411,"1741":7412,"1430":7413,"30.":7414,"25000":7415,"former":7416,"str":7417,"0.1%":7418,"ely":7419,"neu":7420,"tero":7421,"481":7422,"ison":7423,"47.":7424,"nation":7425,"based":7426,"674":7427,"vier":7428,"697":7429,"889":7430,"Liquid":7431,"Deuts":7432,"77%":7433,"982":7434,"989":7435,"lyn":7436,"74.":7437,"fini":7438,"ops":7439,"96%":7440,"gion":7441,"81%":7442,"PCR":7443,"0.04":7444,"à¸Ļ":7445,"AVE":7446,"ttle":7447,"NHS":7448,"Grace":7449,"Org":7450,"Gene":7451,"Match":7452,"Enterprise":7453,"hyth":7454,"Surf":7455,"entium":7456,"Productions":7457,"Stop":7458,"Pink":7459,"adox":7460,"Bruce":7461,"follow":7462,"Douglas":7463,"2TV":7464,"513":7465,"846":7466,"866":7467,"857":7468,"B12":7469,"Bin":7470,"Gau":7471,"Gary":7472,"HY":7473,"J1":7474,"JXG":7475,"Lun":7476,"Mg":7477,"Oculus":7478,"Pentium":7479,"Tr":7480,"Ts":7481,"WM":7482,"again":7483,"kHz":7484,"spo":7485,"zan2":7486,"mium":7487,"gus":7488,"zhua3":7489,"1217":7490,"1274":7491,"1515":7492,"1542":7493,"1712":7494,"1711":7495,"1715":7496,"archi":7497,"1435":7498,"1456":7499,"1328":7500,"1385":7501,"forman":7502,"medi":7503,"room":7504,"teau":7505,"ãģ¶":7506,"1.05":7507,"48.":7508,"4800":7509,"iser":7510,"INT":7511,"3400":7512,"Rev":7513,"bach":7514,"pei":7515,"Roger":7516,"1509":7517,"Lie":7518,"List":7519,"Motor":7520,"Window":7521,"Staff":7522,"ISC":7523,"Lock":7524,"971":7525,"Page":7526,"ASH":7527,"kai":7528,"fect":7529,"Netscape":7530,"IGHT":7531,"gener":7532,"GP40":7533,"brid":7534,"bridge":7535,"hydro":7536,"facebook":7537,"Princess":7538,"Tennis":7539,"SHINee":7540,"055":7541,"2B":7542,"647":7543,"728":7544,"726":7545,"811":7546,"8.4":7547,"913":7548,"CZ":7549,"CCD":7550,"COS":7551,"DN":7552,"Every":7553,"Ing":7554,"KN":7555,"Snow":7556,"TAI":7557,"Wall":7558,"Zero":7559,"fig":7560,"tran":7561,"Î¯":7562,"Î¶":7563,"shark":7564,"lein":7565,"tit":7566,"chuai3":7567,"10.1":7568,"1150":7569,"orbit":7570,"1544":7571,"1757":7572,"1424":7573,"1470":7574,"1454":7575,"through":7576,"rier":7577,"2900":7578,"sil":7579,"seu":7580,"sets":7581,"may":7582,"909":7583,"459":7584,"38.":7585,"3700":7586,"34.":7587,"759":7588,"STER":7589,"Cong":7590,"IIT":7591,"cision":7592,"672":7593,"582":7594,"ATS":7595,"69.":7596,"591":7597,"993":7598,"SAP":7599,"aun":7600,"56.":7601,"Mars":7602,"Lost":7603,"93%":7604,"Sie":7605,"Buzz":7606,"Tac":7607,"DSL":7608,"project":7609,"France":7610,"Universal":7611,"hammad":7612,"âħ¢":7613,"IMF":7614,"Drama":7615,"struct":7616,"England":7617,"CGTN":7618,"Louise":7619,"Mercu":7620,"addr":7621,"Antonio":7622,"CDMA2000":7623,"WORLD":7624,"Alliance":7625,"RepRap":7626,"Hollywood":7627,"823":7628,"829":7629,"8.9":7630,"927":7631,"935":7632,"9.2":7633,"A5":7634,"Ave":7635,"Bol":7636,"Ey":7637,"Emi":7638,"F7":7639,"Fl":7640,"Four":7641,"GIS":7642,"JC":7643,"Jason":7644,"Kam":7645,"Know":7646,"LMS":7647,"LPL":7648,"Mou":7649,"Oly":7650,"Sang":7651,"TB":7652,"USE":7653,"WD":7654,"exi":7655,"fit":7656,"fts":7657,"mand":7658,"mpic":7659,"prin":7660,"tent":7661,"wat":7662,"mical":7663,"big":7664,"ert":7665,"ledge":7666,"1235":7667,"1264":7668,"tup":7669,"order":7670,"1554":7671,"1722":7672,"1734":7673,"1766":7674,"1471":7675,"1330":7676,"1390":7677,"range":7678,"ãĥį":7679,"cei":7680,"60.":7681,"609":7682,"them":7683,"652":7684,"659":7685,"Maxi":7686,"Make":7687,"Magn":7688,"Theo":7689,"Remix":7690,"695":7691,"573":7692,"783":7693,"berry":7694,"771":7695,"peria":7696,"Lei":7697,"Shot":7698,"Arena":7699,"Gate":7700,"Division":7701,"82%":7702,"92%":7703,"Unit":7704,"sters":7705,"âĪĪ":7706,"Adven":7707,"AAA":7708,"DOCO":7709,"Paradox":7710,"Reddit":7711,"Active":7712,"parti":7713,"Benja":7714,"Brook":7715,"Brothers":7716,"AlphaGo":7717,"sort":7718,"unique":7719,"Engineering":7720,"Rainbow":7721,"ECTION":7722,"tournament":7723,"Kelly":7724,"Creek":7725,"defeated":7726,"Concert":7727,"Makiyo":7728,"Surfshark":7729,"1180":7730,"3100":7731,"529":7732,"724":7733,"736":7734,"832":7735,"932":7736,"967":7737,"976":7738,"BEST":7739,"F6":7740,"FG":7741,"HM":7742,"HQ":7743,"KA":7744,"Kr":7745,"N3":7746,"NON":7747,"OL":7748,"Pia":7749,"PRE":7750,"RAD":7751,"SRAM":7752,"U16":7753,"VCD":7754,"XY":7755,"Xi":7756,"cour":7757,"feld":7758,"good":7759,"mary":7760,"nch":7761,"nel":7762,"ois":7763,"Â½":7764,"Ã£":7765,"ÏĮ":7766,"Ðŀ":7767,"×Ļ":7768,"ð¡":7769,"deri":7770,"gun":7771,"boot":7772,"sul":7773,"nig":7774,"12.6":7775,"1557":7776,"1551":7777,"1655":7778,"1678":7779,"1696":7780,"1746":7781,"1749":7782,"arma":7783,"1475":7784,"1441":7785,"1484":7786,"1399":7787,"25.":7788,"rison":7789,"tail":7790,"752":7791,"being":7792,"Cooper":7793,"683":7794,"Rob":7795,"Str":7796,"Marsh":7797,"87%":7798,"874":7799,"ACS":7800,"86%":7801,"static":7802,"1402":7803,"graph":7804,"à¸¡":7805,"Peace":7806,"cyclo":7807,"Sym":7808,"CRH":7809,"BMT":7810,"Hulu":7811,"Allstars":7812,"Holdings":7813,"Spin":7814,"Broad":7815,"GMMTV":7816,"VOCAL":7817,"Valley":7818,"ordan":7819,"Palazzo":7820,"IPv6":7821,"Electronic":7822,"Premier":7823,"PENOME":7824,"Mercury":7825,"DOCOMO":7826,"PENOMECO":7827,"635":7828,"864":7829,"931":7830,"937":7831,"956":7832,"972":7833,"Ay":7834,"Dam":7835,"Edition":7836,"Fren":7837,"FIR":7838,"Git":7839,"Had":7840,"NL":7841,"NAT":7842,"PRI":7843,"Ted":7844,"Tang":7845,"Wid":7846,"cco":7847,"ist":7848,"kn":7849,"ket":7850,"tta":7851,"xon":7852,"Ãĸ":7853,"Åĭ":7854,"ÑĪ":7855,"ð°":7856,"sho":7857,"distri":7858,"bot":7859,"motion":7860,"nik":7861,"1020":7862,"1010":7863,"1266":7864,"1261":7865,"post":7866,"poem":7867,"1641":7868,"lav":7869,"1751":7870,"1346":7871,"mur":7872,"thod":7873,"three":7874,"oul":7875,"0.12":7876,"0.65":7877,"ãģŃ":7878,"nett":7879,"andra":7880,"cken":7881,"38.5":7882,"TCH":7883,"ols":7884,"cau":7885,"Ross":7886,"995":7887,"884":7888,"885":7889,"886":7890,"Dean":7891,"Mira":7892,"54.":7893,"YouBi":7894,"Mode":7895,"89%":7896,"ISP":7897,"ISS":7898,"Davis":7899,"Daily":7900,"meral":7901,"Paci":7902,"socket":7903,"83%":7904,"Head":7905,"Control":7906,"Word":7907,"Caro":7908,"water":7909,"AGM":7910,"ences":7911,"rono":7912,"M1A2":7913,"Nord":7914,"CLOS":7915,"Access":7916,"CSI":7917,"County":7918,"YOU":7919,"Samsung":7920,"match":7921,"varia":7922,"Bird":7923,"longi":7924,"Watch":7925,"Beautiful":7926,"Miller":7927,"Original":7928,"August":7929,"username":7930,"Giovanni":7931,"Theatre":7932,"Wilhelm":7933,"Twins":7934,"Benjamin":7935,"060":7936,"564":7937,"664":7938,"817":7939,"831":7940,"853":7941,"919":7942,"958":7943,"942":7944,"959":7945,"979":7946,"Acc":7947,"Bak":7948,"FK":7949,"FNC":7950,"Gas":7951,"GUI":7952,"Hg":7953,"Isa":7954,"IATA":7955,"JB":7956,"Kore":7957,"Nel":7958,"PU":7959,"PX":7960,"Pit":7961,"PDF":7962,"QR":7963,"Schu":7964,"UCC":7965,"Winter":7966,"Zu":7967,"ctus":7968,"fran":7969,"gb":7970,"hd":7971,"hong3":7972,"hon":7973,"rong1":7974,"wal":7975,"wing":7976,"xe":7977,"Î£":7978,"ÐĿ":7979,"det":7980,"your":7981,"differ":7982,"1284":7983,"1291":7984,"2029":7985,"1673":7986,"1713":7987,"1425":7988,"1468":7989,"1382":7990,"member":7991,"site":7992,"lty":7993,"ãĥľ":7994,"0.20":7995,"804":7996,"802.":7997,"ãģ©":7998,"cola":7999,"1.75":8000,"36.":8001,"3800":8002,"657":8003,"Made":8004,"Inf":8005,"beta":8006,"nature":8007,"cious":8008,"virus":8009,"ATI":8010,"57.":8011,"Delta":8012,"Department":8013,"CONC":8014,"AMX":8015,"ARI":8016,"873":8017,"1204":8018,"kee":8019,"ICC":8020,"Factory":8021,"mers":8022,"song":8023,"kie":8024,"0.09":8025,"à¸±":8026,"Nicho":8027,"Docu":8028,"Luis":8029,"family":8030,"CR400":8031,"Services":8032,"SPA":8033,"ories":8034,"Disc":8035,"Morgan":8036,"string":8037,"5.56":8038,"Whit":8039,"ensor":8040,"creen":8041,"Flag":8042,"Trust":8043,"final":8044,"Invest":8045,"Howard":8046,"presen":8047,"LAND":8048,"Smart":8049,"Education":8050,"essional":8051,"Federation":8052,"contributor":8053,"seudo":8054,"569":8055,"631":8056,"788":8057,"827":8058,"845":8059,"852":8060,"9.1":8061,"A330":8062,"B7":8063,"Bour":8064,"BMP":8065,"Cin":8066,"Call":8067,"Ess":8068,"Evan":8069,"G6":8070,"GIR":8071,"IQ":8072,"Lane":8073,"Nat":8074,"Nokia":8075,"RER":8076,"TTC":8077,"YS":8078,"af":8079,"bber":8080,"ela":8081,"ga3":8082,"hp":8083,"ibn":8084,"m2":8085,"nell":8086,"Äĥ":8087,"ìĭ":8088,"ngi":8089,"pie3":8090,"10.0":8091,"quet":8092,"1227":8093,"1283":8094,"1539":8095,"1695":8096,"1682":8097,"1710":8098,"aran":8099,"1481":8100,"1356":8101,"music":8102,"rue":8103,"stad":8104,"stamp":8105,"ril":8106,"sir":8107,"ãĥĻ":8108,"seo":8109,"amba":8110,"tau":8111,"0.28":8112,"0.3%":8113,"ãģµ":8114,"elli":8115,"ando":8116,"39%":8117,"39.":8118,"Mate":8119,"68.":8120,"Regu":8121,"441":8122,"677":8123,"691":8124,"urs":8125,"991":8126,"Style":8127,"56%":8128,"March":8129,"797":8130,"53%":8131,"897":8132,"87.":8133,"dale":8134,"ACG":8135,"APS":8136,"Salv":8137,"Cali":8138,"Sim":8139,"bye":8140,"1405":8141,"SMO":8142,"denti":8143,"END":8144,"1707":8145,"Nike":8146,"1124":8147,"Kiwi":8148,"eric":8149,"MIR":8150,"chaft":8151,"lines":8152,"à¤°":8153,"EXO":8154,"HSCR":8155,"Associa":8156,"what":8157,"DKZ":8158,"Double":8159,"Songs":8160,"counter":8161,"Russell":8162,"Premium":8163,"WireGuard":8164,"Number":8165,"Discovery":8166,"Nicholas":8167,"020":8168,"3166":8169,"523":8170,"842":8171,"841":8172,"977":8173,"AY":8174,"Ap":8175,"A320":8176,"C#":8177,"D4":8178,"EB":8179,"Gru":8180,"GRE":8181,"Ini":8182,"Jin":8183,"JDG":8184,"Kw":8185,"Kun":8186,"Lyn":8187,"Mn":8188,"Non":8189,"O305":8190,"P10":8191,"Pil":8192,"Ran":8193,"Ryo":8194,"RMS":8195,"Sat":8196,"TEP":8197,"VHS":8198,"WC":8199,"Wright":8200,"W3C":8201,"XM":8202,"aes":8203,"kha":8204,"Âµ":8205,"Ã°":8206,"Ã»":8207,"Ðĵ":8208,"ngo":8209,"anus":8210,"jito":8211,"human":8212,"dic":8213,"tium":8214,"19.7":8215,"mothy":8216,"nin":8217,"1066":8218,"18.5":8219,"1241":8220,"1295":8221,"1130":8222,"1433":8223,"1449":8224,"1376":8225,"thro":8226,"third":8227,"meo":8228,"simo":8229,"1001":8230,"tax":8231,"0.75":8232,"ãģ°":8233,"ãģĶ":8234,"ãĤ»":8235,"462":8236,"Maj":8237,"Cher":8238,"Chin":8239,"Change":8240,"Challe":8241,"India":8242,"bai":8243,"58.":8244,"iga":8245,"696":8246,"SAE":8247,"auri":8248,"786":8249,"563":8250,"edom":8251,"983":8252,"62%":8253,"95.":8254,"Neil":8255,"nos":8256,"Array":8257,"PCS":8258,"fee":8259,"feat":8260,"0.07":8261,"0.08":8262,"1703":8263,"ECE":8264,"Hope":8265,"gov":8266,"arius":8267,"Pictures":8268,"CHO":8269,"Andy":8270,"ADA":8271,"Guy":8272,"Government":8273,"Hub":8274,"Prize":8275,"Cl2":8276,"timestamp":8277,"typedef":8278,"Esmeral":8279,"FreeBSD":8280,"Taipei":8281,"Single":8282,"Virtual":8283,"Talking":8284,"between":8285,"Stadiums":8286,"Advanced":8287,"Drop":8288,"Memorial":8289,"Anthony":8290,"Jacob":8291,"Esmeralda":8292,"4D":8293,"749":8294,"766":8295,"799":8296,"838":8297,"844":8298,"843":8299,"854":8300,"968":8301,"B5":8302,"B6":8303,"BW":8304,"Candy":8305,"Ev":8306,"FB":8307,"Fr":8308,"Faker":8309,"G3":8310,"IZ":8311,"Imp":8312,"Iron":8313,"Jordan":8314,"Kiss":8315,"Las":8316,"Low":8317,"Loo":8318,"OBE":8319,"Pl":8320,"Rd":8321,"RIA":8322,"Score":8323,"Tas":8324,"TREAS":8325,"WB":8326,"edu":8327,"fle":8328,"gos":8329,"gger":8330,"girl":8331,"hor":8332,"pay":8333,"series":8334,"¸©":8335,"ìĤ":8336,"zha3":8337,"dec":8338,"sult":8339,"moun":8340,"10.7":8341,"10.2":8342,"1290":8343,"1265":8344,"1262":8345,"1286":8346,"cut":8347,"oria":8348,"later":8349,"1729":8350,"1742":8351,"aria":8352,"1438":8353,"1459":8354,"14.4":8355,"iner":8356,"21.5":8357,"ï¼ĳ":8358,"ãĤ§":8359,"ãĤħ":8360,"height":8361,"75.":8362,"Map":8363,"ReMi":8364,"uss":8365,"663":8366,"ido":8367,"Mee":8368,"Alber":8369,"79%":8370,"Mojito":8371,"63%":8372,"ARS":8373,"76.":8374,"Sep":8375,"APEC":8376,"Soph":8377,"Diplo":8378,"Nature":8379,"71%":8380,"Rick":8381,"Haw":8382,"0.06":8383,"Nik":8384,"DoReMi":8385,"ROR":8386,"Order":8387,"service":8388,"Fund":8389,"exe":8390,"lying":8391,"march":8392,"Country":8393,"âĹı":8394,"BLACK":8395,"Ship":8396,"friDay":8397,"Lisa":8398,"Johann":8399,"Hunter":8400,"double":8401,"Swing":8402,"true":8403,"Australian":8404,"ðª¸©":8405,"protein":8406,"SNCF":8407,"Jacques":8408,"B9TL":8409,"TREASURE":8410,"1190":8411,"2K":8412,"718":8413,"733":8414,"837":8415,"8.0":8416,"879":8417,"928":8418,"922":8419,"948":8420,"966":8421,"A9":8422,"AZ":8423,"Ada":8424,"Bos":8425,"Blen":8426,"C7":8427,"CBD":8428,"FOR":8429,"His":8430,"Hell":8431,"KL":8432,"Ky":8433,"LSA":8434,"Mun":8435,"Ness":8436,"NRA":8437,"OC":8438,"Ou":8439,"Oce":8440,"OBC":8441,"Pha":8442,"PET":8443,"PDP":8444,"RED":8445,"S22":8446,"Sant":8447,"Tin":8448,"Tes":8449,"UHF":8450,"Woo":8451,"ceng1":8452,"camp":8453,"fx":8454,"far":8455,"got":8456,"pass":8457,"âŁ":8458,"ìł":8459,"lid":8460,"lips":8461,"pid":8462,"title":8463,"19.5":8464,"boy":8465,"1040":8466,"1240":8467,"1270":8468,"pol":8469,"pointer":8470,"1599":8471,"1717":8472,"1447":8473,"1369":8474,"1373":8475,"mund":8476,"stand":8477,"ret":8478,"sity":8479,"ãĥļ":8480,"senger":8481,"amber":8482,"0.11":8483,"ãĤ¶":8484,"look":8485,"andro":8486,"37.":8487,"753":8488,"Mak":8489,"ador":8490,"996":8491,"882":8492,"883":8493,"Living":8494,"Level":8495,"Lewis":8496,"BAS":8497,"BANG":8498,"89.":8499,"conne":8500,"date":8501,"valu":8502,"fire":8503,"---":8504,"MAG":8505,"Wei":8506,"1403":8507,"Conference":8508,"ASP":8509,"MPEG":8510,"1121":8511,"Carol":8512,"lins":8513,"IFPI":8514,"Price":8515,"YOUNG":8516,"PEG":8517,"Craig":8518,"Farms":8519,"ICOCA":8520,"DAMP":8521,"green":8522,"Ventures":8523,"Urban":8524,"asonic":8525,"dependent":8526,"1x":8527,"1198":8528,"746":8529,"819":8530,"814":8531,"813":8532,"824":8533,"851":8534,"964":8535,"Ano":8536,"Cow":8537,"CERT":8538,"Ep":8539,"Emer":8540,"Hur":8541,"Kis":8542,"Khan":8543,"Llo":8544,"Mbit":8545,"Ped":8546,"Psy":8547,"Ral":8548,"Swi":8549,"Spy":8550,"VL":8551,"ave":8552,"ear":8553,"gge":8554,"gro":8555,"gers":8556,"ova":8557,"ware":8558,"áŀ":8559,"ê¸":8560,"ìŀ":8561,"dera":8562,"chang":8563,"wei":8564,"leb":8565,"zie":8566,"1219":8567,"1254":8568,"11.9":8569,"11.4":8570,"1676":8571,"lae":8572,"lah":8573,"1714":8574,"1429":8575,"1434":8576,"1444":8577,"1462":8578,"1451":8579,"1483":8580,"1364":8581,"1391":8582,"muse":8583,"sted":8584,"22.5":8585,"ï¼¡":8586,"tec":8587,"tek":8588,"sequ":8589,"tang":8590,"0.13":8591,"0.24":8592,"como":8593,"conv":8594,"1.35":8595,"lov":8596,"losing":8597,"Malay":8598,"SEN":8599,"Cole":8600,"IIc":8601,"Reich":8602,"Revolution":8603,"593":8604,"Deli":8605,"CDR":8606,"774":8607,"akh":8608,"892":8609,"895":8610,"Radi":8611,"ISIL":8612,"vation":8613,"Mul":8614,"1407":8615,"Wise":8616,"ody":8617,"à¸Ń":8618,"provi":8619,"waii":8620,"Extra":8621,"Quin":8622,"HiME":8623,"Franz":8624,"Mono":8625,"refer":8626,"Display":8627,"single":8628,"example":8629,"ãĦ§":8630,"ãĦĽ":8631,"DD53":8632,"structure":8633,"Helen":8634,"Plat":8635,"Karen":8636,"ministra":8637,"PHP":8638,"Object":8639,"Captain":8640,"mapframe":8641,"Getchu":8642,"Gordon":8643,"integer":8644,"NEXT":8645,"Spirit":8646,"Abdul":8647,"Azure":8648,"VOCALO":8649,"Pacific":8650,"3rd":8651,"862":8652,"9.0":8653,"Az":8654,"Ass":8655,"E5":8656,"Jar":8657,"JAK":8658,"K10":8659,"Kas":8660,"Los":8661,"Ny":8662,"N64":8663,"RD":8664,"SOS":8665,"T7":8666,"Twi":8667,"Us":8668,"VG":8669,"Wol":8670,"ater":8671,"cry":8672,"dol":8673,"fal":8674,"gor":8675,"jk":8676,"kir":8677,"osu":8678,"sv":8679,"miR":8680,"wed":8681,"dun3":8682,"sup":8683,"1086":8684,"1225":8685,"1224":8686,"1258":8687,"pot":8688,"polis":8689,"1686":8690,"1486":8691,"1497":8692,"1310":8693,"1329":8694,"13.6":8695,"ï¼Ĵ":8696,"tage":8697,"0.18":8698,"0.30":8699,"0.2%":8700,"theory":8701,"hed":8702,"Colo":8703,"Cool":8704,"Republic":8705,"iron":8706,"58%":8707,"people":8708,"ATH":8709,"69%":8710,"693":8711,"phone":8712,"idos":8713,"Lip":8714,"Death":8715,"77.":8716,"Mart":8717,"987":8718,"BAC":8719,"ARA":8720,"896":8721,"Nexus":8722,"Sean":8723,"Rab":8724,"Raja":8725,"Gaming":8726,"hicle":8727,"73%":8728,"1108":8729,"comment":8730,"1404":8731,"Gem":8732,"Formation":8733,"Nova":8734,"âĪŀ":8735,"mys":8736,"Experi":8737,"AVC":8738,"Fea":8739,"DCT":8740,"sys":8741,"NOME":8742,"Dual":8743,"Prix":8744,"Berg":8745,"Chee":8746,"SDK":8747,"burn":8748,"clear":8749,"Matt":8750,"villa":8751,"Patri":8752,"Virgi":8753,"âī¥":8754,"Lisp":8755,"Opera":8756,"Francisco":8757,"Victoria":8758,"Photo":8759,"Professional":8760,"Castle":8761,"Scala":8762,"apore":8763,"Nerf":8764,"LIFE":8765,"French":8766,"VOCALOID":8767,"040":8768,"080":8769,"4x":8770,"6A":8771,"723":8772,"8500":8773,"858":8774,"859":8775,"914":8776,"934":8777,"944":8778,"969":8779,"953":8780,"Ade":8781,"Bli":8782,"BGM":8783,"Cau":8784,"Crown":8785,"EMD":8786,"Fit":8787,"FRAM":8788,"Gay":8789,"Glen":8790,"GNOME":8791,"Hou":8792,"Hau":8793,"HIG":8794,"Kak":8795,"N4":8796,"OG":8797,"OZ":8798,"Our":8799,"PST":8800,"PAL":8801,"RR":8802,"Rit":8803,"RGB":8804,"Scor":8805,"Tot":8806,"Ul":8807,"Yellow":8808,"Zh":8809,"Zn":8810,"ZICO":8811,"cir":8812,"fur":8813,"ging":8814,"ix":8815,"ile":8816,"nam":8817,"rence":8818,"uint":8819,"vet":8820,"Ã¯":8821,"ÅĽ":8822,"Ëĭ":8823,"á¼":8824,"xin":8825,"mili":8826,"error":8827,"dica":8828,"tinu":8829,"times":8830,"bol":8831,"10.9":8832,"003":8833,"1236":8834,"1278":8835,"12.1":8836,"1263":8837,"1140":8838,"âĢĮ":8839,"1716":8840,"1442":8841,"1478":8842,"1360":8843,"1365":8844,"1333":8845,"1341":8846,"13.2":8847,"24.5":8848,"start":8849,"stream":8850,"ould":8851,"0.26":8852,"0.35":8853,"2.75":8854,"45.":8855,"local":8856,"Mala":8857,"STEM":8858,"Theod":8859,"adow":8860,"ATM":8861,"66.":8862,"782":8863,"Lite":8864,"772":8865,"779":8866,"Shell":8867,"76%":8868,"891":8869,"1208":8870,"Sex":8871,"Racing":8872,"ISIS":8873,"Social":8874,"Body":8875,"ott":8876,"Have":8877,"à¸ŀ":8878,"Pear":8879,"AIL":8880,"Carter":8881,"Kiii":8882,"Andrea":8883,"SO3":8884,"BORN":8885,"cans":8886,"TEEN":8887,"Add":8888,"Hug":8889,"Bili":8890,"Presi":8891,"PPP":8892,"Full":8893,"Blair":8894,"mbH":8895,"Days":8896,"Hybrid":8897,"OKA":8898,"BIOS":8899,"Atlan":8900,"Terry":8901,"Ernst":8902,"LGBTQ":8903,"German":8904,"Partners":8905,"Forest":8906,"Frollo":8907,"doubles":8908,"WISE":8909,"sistant":8910,"Billy":8911,"Retrie":8912,"Quick":8913,"Century":8914,"Alfred":8915,"Fantasy":8916,"012":8917,"1194":8918,"834":8919,"849":8920,"941":8921,"Bye":8922,"BWF":8923,"BOSS":8924,"CAT":8925,"DAI":8926,"FRE":8927,"FIA":8928,"GU":8929,"Hig":8930,"JJ":8931,"Look":8932,"Ore":8933,"Pb":8934,"Plu":8935,"Pun":8936,"Ras":8937,"Tak":8938,"Tensor":8939,"Uta":8940,"Wang":8941,"WAN":8942,"Xperia":8943,"ctu":8944,"fs":8945,"ica":8946,"nn":8947,"omp":8948,"ppa":8949,"ular":8950,"vant":8951,"ÅĦ":8952,"×ķ":8953,"Ø©":8954,"à¼":8955,"ëĭ":8956,"ìĺ":8957,"dez":8958,"zhun1":8959,"1030":8960,"1099":8961,"1221":8962,"12.2":8963,"1272":8964,"1533":8965,"1698":8966,"1671":8967,"lari":8968,"1413":8969,"1443":8970,"1358":8971,"1396":8972,"recor":8973,"cole":8974,"load":8975,"Come":8976,"59.":8977,"998":8978,"789":8979,"CDK":8980,"773":8981,"Leg":8982,"Prote":8983,"1206":8984,"Razer":8985,"figu":8986,"Suite":8987,"Paper":8988,"chester":8989,"ships":8990,"ources":8991,"EPHE":8992,"HKIFF":8993,"MPI":8994,"arian":8995,"proper":8996,"anization":8997,"Commission":8998,"lard":8999,"Kota":9000,"SCI":9001,"Charlie":9002,"UTF":9003,"Singapore":9004,"Minute":9005,"litary":9006,"Calli":9007,"operator":9008,"Bobby":9009,"ðĲ°":9010,"âī¤":9011,"Sorana":9012,"Stanley":9013,"event":9014,"position":9015,"Dynamics":9016,"íķľ":9017,"AMOLED":9018,"UNESCO":9019,"OBCs":9020,"1189":9021,"818":9022,"848":9023,"869":9024,"899":9025,"916":9026,"917":9027,"949":9028,"Bis":9029,"Cs":9030,"Cream":9031,"D7":9032,"Dcard":9033,"Ec":9034,"Fellow":9035,"GSM":9036,"GmbH":9037,"Ivan":9038,"Lol":9039,"M24":9040,"Mine":9041,"NEC":9042,"RM":9043,"Ry":9044,"RID":9045,"Sna":9046,"Swan":9047,"Screen":9048,"TER":9049,"VAL":9050,"Wu":9051,"X2":9052,"ash":9053,"adi":9054,"ala":9055,"bad":9056,"bell":9057,"care":9058,"ech":9059,"gne":9060,"gil":9061,"ining":9062,"jour":9063,"pak":9064,"rt":9065,"sar":9066,"Â¥":9067,"ÅŁ":9068,"ÛĮ":9069,"à¨":9070,"ê¹":9071,"ëĤ":9072,"ëŀ":9073,"ì§":9074,"dei":9075,"chan1":9076,"licon":9077,"wee":9078,"lear":9079,"length":9080,"1060":9081,"10.4":9082,"1211":9083,"1234":9084,"1246":9085,"1110":9086,"1147":9087,"11.1":9088,"orus":9089,"1548":9090,"14.8":9091,"1458":9092,"13.8":9093,"ines":9094,"inus":9095,"24.3":9096,"stel":9097,"store":9098,"sii":9099,"rang":9100,"semi":9101,"tab":9102,"ãĤ¡":9103,"hes":9104,"Chat":9105,"500rpm":9106,"SEM":9107,"Review":9108,"cipal":9109,"vic":9110,"vid":9111,"Roth":9112,"994":9113,"887":9114,"Stray":9115,"1503":9116,"793":9117,"Movie":9118,"BSI":9119,"control":9120,"Arn":9121,"Rai":9122,"finity":9123,"ED79":9124,"----":9125,"ospace":9126,"ICS":9127,"Logic":9128,"IDS":9129,"Nation":9130,"bug":9131,"94%":9132,"station":9133,"sole":9134,"ITZ":9135,"91%":9136,"odd":9137,"à¸´":9138,"ROCK":9139,"1123":9140,"Schi":9141,"myTV":9142,"Lud":9143,"Lucas":9144,"Andr":9145,"MOON":9146,"CR300":9147,"inae":9148,"BDSM":9149,"large":9150,"Keith":9151,"PPTP":9152,"Graphic":9153,"1192":9154,"Boom":9155,"Panasonic":9156,"Fern":9157,"Mrs":9158,"NEWS":9159,"Empi":9160,"sorted":9161,"Hills":9162,"logies":9163,"Clear":9164,"shington":9165,"Machine":9166,"Amiga":9167,"Culture":9168,"Diamond":9169,"Application":9170,"ð¬ĵĭ":9171,"ãİ¡":9172,"formance":9173,"Retrieved":9174,"868":9175,"974":9176,"Ae":9177,"Adi":9178,"Aff":9179,"Astra":9180,"BV":9181,"Bb":9182,"Blan":9183,"Baker":9184,"C96":9185,"E9":9186,"Flu":9187,"Flip":9188,"G4":9189,"G9":9190,"KF":9191,"Kara":9192,"KEN":9193,"LMP":9194,"PER":9195,"RG":9196,"Spa":9197,"VEn":9198,"VIE":9199,"Yang":9200,"ZE":9201,"Zone":9202,"aa":9203,"ais":9204,"acid":9205,"dal":9206,"eV":9207,"four":9208,"fying":9209,"gri":9210,"gang":9211,"jn":9212,"kt":9213,"lk":9214,"lao":9215,"lou3":9216,"nh":9217,"vol":9218,"âĴ":9219,"erra":9220,"lei":9221,"lection":9222,"tii":9223,"zhuai1":9224,"1027":9225,"1070":9226,"1049":9227,"mento":9228,"quar":9229,"006":9230,"1232":9231,"lun1":9232,"1674":9233,"laus":9234,"lamb":9235,"1448":9236,"1439":9237,"1467":9238,"1345":9239,"13.4":9240,"1386":9241,"1392":9242,"1393":9243,"ries":9244,"ï¼ľ":9245,"tember":9246,"0.29":9247,"ãģļ":9248,"cover":9249,"thema":9250,"654":9251,"Magic":9252,"Chen":9253,"Chie":9254,"Reg":9255,"44.":9256,"nah":9257,"String":9258,"78.":9259,"LiTV":9260,"Devil":9261,"Lega":9262,"Vilade":9263,"AMR":9264,"Arch":9265,"Army":9266,"ISH":9267,"ISM":9268,"Lab":9269,"Sue":9270,"Dale":9271,"hibi":9272,"IPA":9273,"IPO":9274,"Silicon":9275,"kien":9276,"PS4":9277,"à¸ª":9278,"ALA":9279,"MP3":9280,"USH":9281,"Three":9282,"Exchange":9283,"MIL":9284,"TEE":9285,"BMG":9286,"DR2700":9287,"dyna":9288,"Washington":9289,"10646":9290,"Harold":9291,"Morris":9292,"TSB":9293,"Holland":9294,"LCK":9295,"UCI":9296,"LPDDR":9297,"LTTE":9298,"LSST":9299,"born":9300,"Turbo":9301,"Grant":9302,"schema":9303,"street":9304,"Scheme":9305,"reads":9306,"Village":9307,"mouth":9308,"Infocom":9309,"ELEVEn":9310,"article":9311,"GDDR5":9312,"F7F":9313,"NONO":9314,"Strv":9315,"Kakao":9316,"Viladecans":9317,"4200":9318,"963":9319,"ATC":9320,"Avi":9321,"Bam":9322,"CAM":9323,"Cana":9324,"Cell":9325,"CBE":9326,"Dau":9327,"Fay":9328,"H6":9329,"H9":9330,"JK":9331,"JIS":9332,"KV":9333,"Kal":9334,"Kre":9335,"Kris":9336,"Klein":9337,"Ling":9338,"M60":9339,"Mall":9340,"NTT":9341,"ORI":9342,"Own":9343,"P5":9344,"R9":9345,"VY":9346,"VCR":9347,"cles":9348,"cator":9349,"fly":9350,"hand":9351,"hman":9352,"ita":9353,"obov":9354,"sc":9355,"vre":9356,"xml":9357,"zone":9358,"zoom":9359,"ÄĽ":9360,"ëĿ":9361,"ants":9362,"ency":9363,"bil":9364,"did":9365,"1012":9366,"1017":9367,"10.3":9368,"1063":9369,"005":9370,"1214":9371,"1229":9372,"1268":9373,"1242":9374,"1253":9375,"1271":9376,"1160":9377,"1135":9378,"1677":9379,"1691":9380,"1419":9381,"1324":9382,"ãĥ´":9383,"ãĥĴ":9384,"cep":9385,"tale":9386,"0.45":9387,"foot":9388,"cogni":9389,"male":9390,"make":9391,"1.45":9392,"3900":9393,"Major":9394,"SET":9395,"pex":9396,"Margar":9397,"angle":9398,"deral":9399,"54%":9400,"79.":9401,"ako":9402,"Shang":9403,"Shah":9404,"Jois":9405,"871":9406,"872":9407,"vage":9408,"EDA":9409,"Beach":9410,"Natural":9411,"ANSI":9412,"home":9413,"solo":9414,"ITU":9415,"1307":9416,"1409":9417,"therine":9418,"à¸ģ":9419,"Doctor":9420,"pul":9421,"Julia":9422,"Quar":9423,"Quali":9424,"Kai":9425,"Kate":9426,"Andre":9427,"MOMO":9428,"Feed":9429,"DR2800":9430,"CEMS":9431,"Norman":9432,"Canada":9433,"Singh":9434,"llion":9435,"Scot":9436,"DirectShow":9437,"cense":9438,"Obser":9439,"marker":9440,"Raymond":9441,"Certi":9442,"Break":9443,"Medical":9444,"Oliver":9445,"Vincent":9446,"JUMP":9447,"Bernard":9448,"Radar":9449,"Safari":9450,"Tiger":9451,"ë¦¬":9452,"following":9453,"Olympic":9454,"YouBike":9455,"HIGH":9456,"à¼ĭ":9457,"2n":9458,"734":9459,"9K":9460,"943":9461,"952":9462,"A7":9463,"Aar":9464,"Age":9465,"Ast":9466,"Apri":9467,"A380":9468,"Bf":9469,"Brow":9470,"C9":9471,"D6":9472,"Dir":9473,"Dass":9474,"EI":9475,"Eidos":9476,"Gall":9477,"Ground":9478,"JS":9479,"JY":9480,"Jun":9481,"KM":9482,"M9":9483,"M10":9484,"NFC":9485,"Ox":9486,"Otto":9487,"SBL":9488,"Spen":9489,"Vla":9490,"XI":9491,"YE":9492,"Yes":9493,"bg":9494,"fl":9495,"fron":9496,"ian":9497,"pad":9498,"plex":9499,"thu":9500,"wig":9501,"wald":9502,"x2":9503,"zel":9504,"Åł":9505,"ÎĽ":9506,"êµ":9507,"ë¹":9508,"Ĭ¸":9509,"ania":9510,"chs":9511,"child":9512,"yoga":9513,"lect":9514,"piao3":9515,"tius":9516,"both":9517,"dule":9518,"mode":9519,"kun":9520,"1059":9521,"1056":9522,"1054":9523,"008":9524,"1259":9525,"1252":9526,"1297":9527,"1282":9528,"11.8":9529,"11.7":9530,"15.9":9531,"15.4":9532,"1415":9533,"1426":9534,"14.6":9535,"1476":9536,"1349":9537,"1363":9538,"1397":9539,"mea":9540,"27.5":9541,"root":9542,"sik":9543,"rap":9544,"40.":9545,"cea":9546,"0.39":9547,"1.09":9548,"neo":9549,"ats":9550,"ckers":9551,"tol":9552,"Math":9553,"Mail":9554,"Macro":9555,"Indie":9556,"Indian":9557,"bear":9558,"Comm":9559,"bang":9560,"version":9561,"694":9562,"Marcus":9563,"ï½£":9564,"AMA":9565,"AMG":9566,"owski":9567,"Teach":9568,"Temple":9569,"Gabri":9570,"gation":9571,"ICT":9572,"96.":9573,"Capi":9574,"Cathe":9575,"84.":9576,"ANN":9577,"Muni":9578,"Anni":9579,"1.5%":9580,"1308":9581,"Five":9582,"thera":9583,"Table":9584,"gina":9585,"Intermarch":9586,"Dog":9587,"Nov":9588,"CNJ":9589,"Example":9590,"Juli":9591,"Quan":9592,"Quad":9593,"Kath":9594,"erie":9595,"0.55":9596,"MIX":9597,"Gusta":9598,"Feel":9599,"vely":9600,"Harris":9601,"240ZJ":9602,"Give":9603,"EEZ":9604,"minor":9605,"SHIP":9606,"Genie":9607,"stock":9608,"acti":9609,"ffici":9610,"Speed":9611,"Kingdom":9612,"Friends":9613,"Director":9614,"strong":9615,"IOC":9616,"complex":9617,"drop":9618,"á¹£":9619,"plot":9620,"count":9621,"Scrum":9622,"livedoor":9623,"Schema":9624,"TGV":9625,"Tolkien":9626,"Heaven":9627,"Chromium":9628,"ebly":9629,"Kenneth":9630,"Roberts":9631,"Hospital":9632,"politan":9633,"relative":9634,"Virginia":9635,"Legacy":9636,"1195":9637,"898":9638,"B4":9639,"CAD":9640,"CBN":9641,"Flying":9642,"JD":9643,"Kol":9644,"KTV":9645,"KSK":9646,"Ms":9647,"M12":9648,"MET":9649,"Nf":9650,"Ng":9651,"Pao":9652,"Rant":9653,"Room":9654,"Rhyth":9655,"UG":9656,"UH":9657,"U15":9658,"Vil":9659,"Vas":9660,"WDF":9661,"ava":9662,"bara":9663,"dos":9664,"eh":9665,"gr":9666,"git":9667,"kle":9668,"oid":9669,"pf":9670,"quo":9671,"rs":9672,"sat":9673,"wang":9674,"ÂŃ":9675,"ðł":9676,"jin":9677,"dell":9678,"lini":9679,"lica":9680,"bino":9681,"20.5":9682,"pio":9683,"pine":9684,"tiger":9685,"bora":9686,"zio":9687,"nian1":9688,"1019":9689,"1011":9690,"1015":9691,"1032":9692,"1047":9693,"1212":9694,"cure":9695,"lace":9696,"1412":9697,"1314":9698,"1313":9699,"13.7":9700,"13.3":9701,"1394":9702,"stris":9703,"23.5":9704,"reg":9705,"rel":9706,"rett":9707,"26.5":9708,"sim":9709,"sec":9710,"1006":9711,"0.23":9712,"0.40":9713,"0.60":9714,"ãģ³":9715,"ãģ»":9716,"1.23":9717,"nei":9718,"ãĤĢ":9719,"atten":9720,"cki":9721,"4600":9722,"39.2":9723,"STD":9724,"Indi":9725,"Conv":9726,"Cover":9727,".02%":9728,"cian":9729,"Rocket":9730,"pera":9731,"Marc":9732,"9800":9733,"Victory":9734,"manu":9735,"rance":9736,"Dai":9737,"Fate":9738,"Anton":9739,"Weebly":9740,"wich":9741,"area":9742,"à¸Ķ":9743,"Nice":9744,"Thor":9745,"Thorn":9746,"Domini":9747,"Forth":9748,"1127":9749,"AKE":9750,"proto":9751,"Lucky":9752,"Lumia":9753,"SO2":9754,"lands":9755,"TE1":9756,"TEAM":9757,"Monte":9758,"NO2":9759,"years":9760,"GameCube":9761,"ILD":9762,"280ZJ":9763,"Bracket":9764,"Cyber":9765,"AFI":9766,"1191":9767,"Porta":9768,"Plaza":9769,"lipse":9770,"ential":9771,"Television":9772,"Crazy":9773,"Farm":9774,"Danny":9775,"Frede":9776,"Generation":9777,"à¹Ģ":9778,"market":9779,"Histori":9780,"VVVF":9781,"terial":9782,"modore":9783,"Illu":9784,"Sarah":9785,"Orange":9786,"16V280ZJ":9787,"float":9788,"Fisher":9789,"Today":9790,"Strong":9791,"latitude":9792,"Heinrich":9793,"IMDb":9794,"ê°Ģ":9795,"known":9796,"longitude":9797,"TTCN":9798,"Ryona":9799,"Blender":9800,"Margaret":9801,"+.":9802,"7100":9803,"822":9804,"836":9805,"861":9806,"924":9807,"923":9808,"AIC":9809,"Aero":9810,"Agency":9811,"B8":9812,"Evolution":9813,"FPS":9814,"HH":9815,"Hoo":9816,"Jere":9817,"K3":9818,"KING":9819,"LW":9820,"M1895":9821,"Pel":9822,"Pak":9823,"Pris":9824,"Pari":9825,"PART":9826,"Roo":9827,"Sd":9828,"Smal":9829,"Vu":9830,"Vul":9831,"Ville":9832,"Wen":9833,"Wes":9834,"Wings":9835,"X1":9836,"XS":9837,"ZFC":9838,"ated":9839,"aign":9840,"bl":9841,"bson":9842,"brea":9843,"call":9844,"dar":9845,"ees":9846,"found":9847,"g4":9848,"hara":9849,"jp":9850,"jar":9851,"kV":9852,"kas":9853,"long4":9854,"pta":9855,"t2":9856,"ws":9857,"x3":9858,"Ïį":9859,"Ð£":9860,"à§":9861,"à¯":9862,"ð£":9863,"design":9864,"delta":9865,"chara":9866,"chani":9867,"bir":9868,"2031":9869,"tig":9870,"during":9871,"moni":9872,"mote":9873,"zin":9874,"zip":9875,"1018":9876,"1016":9877,"1035":9878,"10.8":9879,"1072":9880,"1244":9881,"1299":9882,"lute":9883,"1170":9884,"1139":9885,"11.6":9886,"pora":9887,"16.8":9888,"aris":9889,"1421":9890,"1455":9891,"14.9":9892,"1461":9893,"1485":9894,"13000":9895,"1355":9896,"1343":9897,"1387":9898,"1372":9899,"rung":9900,"meta":9901,"methy":9902,"rid":9903,"rish":9904,"sica":9905,"cepha":9906,"0.21":9907,"0.22":9908,"0.27":9909,"0.46":9910,"0.32":9911,"0.33":9912,"0.49":9913,"0.41":9914,"0.95":9915,"foo":9916,"ãģĿ":9917,"else":9918,"1.36":9919,"1.44":9920,"1.42":9921,"1.04":9922,"offi":9923,"att":9924,"cke":9925,"asons":9926,"Chamber":9927,"STs":9928,"SEP":9929,"They":9930,"4400":9931,"4217":9932,"592":9933,"auf":9934,"78%":9935,"eds":9936,"Lec":9937,"Lear":9938,"AME":9939,"Proper":9940,"ACP":9941,"ICAO":9942,"ICHI":9943,"Soda":9944,"97.":9945,"Dawn":9946,"Calvin":9947,"compon":9948,"1304":9949,"PSY":9950,"1408":9951,"Wide":9952,"Bul":9953,"sions":9954,"ETS":9955,"ENU":9956,"Taste":9957,"government":9958,"Dong":9959,"Forum":9960,"1125":9961,"wave":9962,"Kaiser":9963,"Compa":9964,"Commodore":9965,"Adrian":9966,"Stuart":9967,"à¤®":9968,"Duke":9969,"EXIT":9970,"micron":9971,"MDT":9972,"Only":9973,"URN":9974,"Asse":9975,"Abra":9976,"Friend":9977,"Produce":9978,"nowledge":9979,"EMU":9980,"GMM":9981,"Claude":9982,"when":9983,"Freedom":9984,"Horse":9985,"finals":9986,"PIECE":9987,"Technologies":9988,"Sciences":9989,"Pascal":9990,"Haml":9991,"Rapper":9992,"object":9993,"Dolby":9994,"styles":9995,"Kirk":9996,"Storm":9997,"UCLASS":9998,"GROUP":9999,"Austin":10000,"Protocol":10001,"FashionTV":10002,"Aerospace":10003,"BIGBANG":10004,"Dropbox":10005,"September":10006,"Ralph":10007,"Bilibili":10008,"ëĿ¼":10009,"016":10010,"013":10011,"090":10012,"067":10013,"11000":10014,"4B":10015,"9F":10016,"Abi":10017,"Agu":10018,"Alv":10019,"AFC":10020,"Bes":10021,"Cm":10022,"Fur":10023,"Fine":10024,"GTE":10025,"Ghost":10026,"HSD":10027,"Joo":10028,"Kum":10029,"Kang":10030,"Kno":10031,"Kali":10032,"KAD":10033,"KDE":10034,"LI":10035,"Lay":10036,"Lid":10037,"MST":10038,"Nut":10039,"NTSB":10040,"OE":10041,"P1":10042,"PBS":10043,"PIE":10044,"Rhe":10045,"RET":10046,"TARD":10047,"Ut":10048,"Vor":10049,"Vali":10050,"Wan":10051,"WRC":10052,"Wanna":10053,"YES":10054,"aster":10055,"bru":10056,"c4":10057,"cchi":10058,"eli":10059,"each":10060,"effe":10061,"fon":10062,"gori":10063,"how":10064,"js":10065,"nas":10066,"xys":10067,"zuo":10068,"Åļ":10069,"Ëĩ":10070,"ÎŃ":10071,"ÙĤ":10072,"â¼":10073,"ðĴ":10074,"sher":10075,"chro":10076,"2040":10077,"2047":10078,"tif":10079,"19.6":10080,"sun":10081,"mong":10082,"move":10083,"mono":10084,"1046":10085,"mentation":10086,"009":10087,"1218":10088,"1215":10089,"1247":10090,"1243":10091,"1256":10092,"lun":10093,"lung":10094,"1138":10095,"1137":10096,"1168":10097,"ordina":10098,"1693":10099,"1414":10100,"1427":10101,"1432":10102,"1491":10103,"1378":10104,"1351":10105,"gee":10106,"fornia":10107,"alpha":10108,"reti":10109,"recei":10110,"2758":10111,"rio":10112,"ï¼ķ":10113,"roy":10114,"rock":10115,".52%":10116,"ãĥĺ":10117,"aman":10118,"1002":10119,"0.14":10120,"0.000":10121,"0.68":10122,"0.4%":10123,"mato":10124,"35.":10125,"nez":10126,"2.25":10127,"tern":10128,"atta":10129,"Magi":10130,"Instru":10131,"bei":10132,"SEC":10133,"Robo":10134,"Rosa":10135,"SAS":10136,"Miami":10137,"Marco":10138,"Marine":10139,"98.":10140,"984":10141,"ï½¢":10142,"52%":10143,"Youth":10144,"Shin":10145,"1207":10146,"Ark":10147,"Arm":10148,"file":10149,"Tuber":10150,"Savage":10151,"Local":10152,"Faith":10153,"Navi":10154,"bution":10155,"IPCC":10156,"Ansible":10157,"1106":10158,"1.52":10159,"sage":10160,"1309":10161,"1706":10162,"à¸§":10163,"à¸µ":10164,"ALX":10165,"Hoy":10166,"âĨĲ":10167,"1129":10168,"Exe":10169,"Exten":10170,"SO4":10171,"BOT":10172,"mons":10173,"1185":10174,"Cortex":10175,"IFT":10176,"à¤¿":10177,"NOW":10178,"LLC":10179,"Northern":10180,"Precision":10181,"tric":10182,"Superia":10183,"Speci":10184,"hypo":10185,"Alive":10186,"XXX":10187,"ð«ļ":10188,"Japanese":10189,"SUV":10190,"Boyz":10191,"SNK":10192,"Zip":10193,"Masters":10194,"âĳł":10195,"Yoshi":10196,"Championships":10197,"Palmer":10198,"Spark":10199,"Niconico":10200,"Cosplay":10201,"Larry":10202,"Democra":10203,"Artists":10204,"Quasimo":10205,"ìļ°":10206,"tellite":10207,"Intelligent":10208,"802.11":10209,"Investment":10210,"MIRROR":10211,"ìĤ¬":10212,"OKAWA":10213,"bgcolor":10214,"Frederick":10215,"TARDIS":10216,"Quasimodo":10217,"021":10218,"065":10219,"1N":10220,"1202":10221,"5100":10222,"5400":10223,"743":10224,"9600":10225,"A8":10226,"CSP":10227,"CUB":10228,"CIE":10229,"Exi":10230,"Even":10231,"Emily":10232,"Easy":10233,"Fis":10234,"FIL":10235,"Food":10236,"GHC":10237,"Hus":10238,"Hori":10239,"JM":10240,"KW":10241,"Kent":10242,"Knight":10243,"Mw":10244,"Mand":10245,"MPC":10246,"Nit":10247,"NIST":10248,"OLED":10249,"PW":10250,"PAS":10251,"PDA":10252,"Q3":10253,"Rid":10254,"S6":10255,"Sprint":10256,"T5":10257,"Wy":10258,"ase":10259,"ata":10260,"able":10261,"bby":10262,"eo":10263,"fera":10264,"gau":10265,"gly":10266,"gren":10267,"hop":10268,"hill":10269,"o2":10270,"schaft":10271,"tty":10272,"tja":10273,"ua":10274,"Ã¹":10275,"ÄĮ":10276,"Å¾":10277,"ËĬ":10278,"ìĸ":10279,"lich":10280,"qia1":10281,"eria":10282,"dise":10283,"lec":10284,"lez":10285,"mosa":10286,"nium":10287,"1037":10288,"1067":10289,"1216":10290,"1226":10291,"1255":10292,"1155":10293,"1158":10294,"1142":10295,"1143":10296,"1154":10297,"pool":10298,"orum":10299,"ares":10300,"1418":10301,"1494":10302,"1347":10303,"1367":10304,"1374":10305,"index":10306,"gether":10307,"method":10308,"ï¼Ĳ":10309,"rot":10310,"sier":10311,"0.17":10312,"0.48":10313,"0.34":10314,"0.42":10315,"0.98":10316,"0.8%":10317,"ãģĲ":10318,"1.00":10319,"1.37":10320,"2.36":10321,"ãĤ®":10322,"etro":10323,"SEL":10324,"Reference":10325,"67.":10326,"peti":10327,"ATENU":10328,"ards":10329,"Stadia":10330,"Search":10331,"Gap":10332,"Belie":10333,"entry":10334,"Sala":10335,"Sul":10336,"Factor":10337,"oko":10338,"Naver":10339,"Boi":10340,"wide":10341,"Unity":10342,"1107":10343,"Riot":10344,"Bull":10345,"ETF":10346,"Nix":10347,"Pocket":10348,"Kick":10349,"UND":10350,"âĪ¶":10351,"tings":10352,"AVBW":10353,"psy":10354,"Comman":10355,"Commercial":10356,"ADHD":10357,"DAY":10358,"OpenMP":10359,"jave":10360,"Biz":10361,"Barry":10362,"Performance":10363,"Complex":10364,"SCs":10365,"Vocal":10366,"llah":10367,"Universe":10368,"Markdown":10369,"Eugene":10370,"Georg":10371,"WTA1000":10372,"Brain":10373,"ï¹Ķ":10374,"Canon":10375,"YPE":10376,"STARSHIP":10377,"vsky":10378,"NEW":10379,"Mason":10380,"school":10381,"Crye":10382,"Studies":10383,"Dennis":10384,"Phoe":10385,".00%":10386,"culture":10387,"TIME":10388,"ArcGIS":10389,"LUNA":10390,"Synthe":10391,"Podcast":10392,"16V240ZJ":10393,"Economic":10394,"Susan":10395,"yunnan":10396,"film":10397,"Isoxys":10398,"Congress":10399,"tuplet":10400,"CRH380":10401,"California":10402,"Challenge":10403,"Ocean":10404,"Empire":10405,"Cathed":10406,"KADOKAWA":10407,"018":10408,"023":10409,"062":10410,"1B":10411,"739":10412,"763":10413,"7.5%":10414,"Ato":10415,"Aur":10416,"AIT":10417,"Amb":10418,"About":10419,"Cris":10420,"Dru":10421,"Das":10422,"Est":10423,"Eva":10424,"Gl":10425,"Gos":10426,"Hindu":10427,"K1":10428,"KCON":10429,"Pt":10430,"Rho":10431,"SVO":10432,"Ton":10433,"Vit":10434,"VAR":10435,"VTuber":10436,"WTO":10437,"WRK":10438,"Zoo":10439,"d8":10440,"every":10441,"flu":10442,"fro":10443,"fas":10444,"horn":10445,"squ":10446,"sport":10447,"uu":10448,"ula":10449,"v2":10450,"ËĲ":10451,"Ìģ":10452,"ØŃ":10453,"ê³":10454,"lium":10455,"lization":10456,"level":10457,"20.8":10458,"jun":10459,"tik":10460,"nit":10461,"nier":10462,"10H":10463,"1014":10464,"1228":10465,"1285":10466,"1273":10467,"lur":10468,"1119":10469,"1162":10470,"tua":10471,"tun":10472,"tung":10473,"15.8":10474,"15.6":10475,"1428":10476,"1445":10477,"14.7":10478,"1320":10479,"1312":10480,"13.9":10481,"1377":10482,"1352":10483,"1389":10484,"ints":10485,"information":10486,"force":10487,"stol":10488,"21.3":10489,"regi":10490,"rocket":10491,".56%":10492,"ltalk":10493,"1008":10494,"tak":10495,"0.36":10496,"0.63":10497,"maxi":10498,"near":10499,"ternal":10500,"ils":10501,"cked":10502,"isen":10503,"INA":10504,"Maple":10505,"SEA":10506,"Ready":10507,"ATR":10508,"vere":10509,"57%":10510,"Rosen":10511,"phos":10512,"88.":10513,"Lili":10514,"Dee":10515,"unsigned":10516,"776":10517,"pers":10518,"Moni":10519,"filter":10520,"APT":10521,"Labo":10522,"Dash":10523,"Dame":10524,"Case":10525,"1102":10526,"1103":10527,"ITS":10528,"1401":10529,"blem":10530,"MSP":10531,"Nim":10532,"Peak":10533,"ToHeart":10534,"Tommy":10535,"DSR":10536,"REAL":10537,"June":10538,"0.52":10539,"Collins":10540,"Federal":10541,"ptor":10542,"OpenGL":10543,"Pul":10544,"Pure":10545,"à¤¤":10546,"Wai":10547,"SPARC":10548,"Perry":10549,"GPT":10550,"ccer":10551,"Private":10552,"Trade":10553,"WTA125":10554,"Showcase":10555,"Warri":10556,"Herbert":10557,"DEET":10558,"nics":10559,"Leader":10560,"days":10561,"CGI":10562,"close":10563,"belle":10564,"ð«Ł":10565,"spaceflight":10566,"bilibili":10567,"Senior":10568,"Emma":10569,"CF3":10570,"Laura":10571,"Islands":10572,"Foreign":10573,"Grove":10574,"idea":10575,"INNER":10576,"JUST":10577,"Ronald":10578,"Alto":10579,"XC60":10580,"Shane":10581,"C5H5":10582,"Justice":10583,"MMORPG":10584,"BLEACH":10585,"Physic":10586,"allocator":10587,"Texas":10588,"Francesco":10589,"Bradley":10590,"archive":10591,"STEREO":10592,"Magnum":10593,"Korea":10594,"Documentary":10595,"Lloyd":10596,"svg":10597,"hedron":10598,"Hughes":10599,"figuration":10600,"Graphics":10601,"lambda":10602,"ORICON":10603,"Smalltalk":10604,"CUBRID":10605,"ToHeart2":10606,"033":10607,"043":10608,"053":10609,"1a":10610,"2S":10611,"4300":10612,"8X":10613,"A6":10614,"Amy":10615,"BG":10616,"C8":10617,"C13":10618,"Cit":10619,"Cara":10620,"Cant":10621,"Dhar":10622,"Danger":10623,"DASH":10624,"Eth":10625,"Eat":10626,"FU":10627,"Figh":10628,"FAA":10629,"Io":10630,"LET":10631,"MH":10632,"NER":10633,"OO":10634,"Ober":10635,"Octo":10636,"Owen":10637,"Peri":10638,"PAD":10639,"PTT":10640,"Ptr":10641,"Pseudo":10642,"QT":10643,"Rin":10644,"Root":10645,"S26":10646,"Slo":10647,"Sad":10648,"Spor":10649,"SDR":10650,"THC":10651,"TOSHI":10652,"Veri":10653,"VWF":10654,"WG":10655,"Xe":10656,"ame":10657,"bank":10658,"c2":10659,"here":10660,"ish":10661,"ius":10662,"nen":10663,"ole":10664,"tton":10665,"Ã²":10666,"Ð¶":10667,"Ø´":10668,"ë³":10669,"ëı":10670,"anne":10671,"zhi":10672,"channel":10673,"lix":10674,"mind":10675,"miss":10676,"mistry":10677,"weak":10678,"leh":10679,"pie":10680,"tico":10681,"tique":10682,"bou":10683,"dun":10684,"kus":10685,"nian":10686,"1076":10687,"1095":10688,"quin":10689,"1248":10690,"1118":10691,"1131":10692,"1145":10693,"1178":10694,"16.7":10695,"1423":10696,"1422":10697,"1479":10698,"14.1":10699,"1482":10700,"1327":10701,"1357":10702,"1398":10703,"13.1":10704,"1383":10705,"1381":10706,"fort":10707,"regu":10708,"real":10709,"rit":10710,"rium":10711,"ï¼¢":10712,"1003":10713,"0.38":10714,"0.67":10715,"0.61":10716,"coc":10717,"cock":10718,"els":10719,"math":10720,"1.02":10721,"thes":10722,"heim":10723,"etta":10724,"asso":10725,"Mack":10726,"Maya":10727,"best":10728,"Report":10729,"nae":10730,".92%":10731,"SAAB":10732,"aud":10733,"idal":10734,"Libre":10735,"Member":10736,"Dece":10737,"Lepto":10738,"Mojave":10739,"Shir":10740,"AMMA":10741,"Josh":10742,"Joint":10743,"893":10744,"Tem":10745,"Bee":10746,"Beam":10747,"bul":10748,"ppen":10749,"Analysis":10750,"Path":10751,"llen":10752,"MVV":10753,"SSP":10754,"1101":10755,"1109":10756,"communi":10757,"Rio":10758,"Hey":10759,"endy":10760,"WiFi":10761,"ASO":10762,"Bubble":10763,"graphic":10764,"IVER":10765,"Howe":10766,"BLS":10767,"2.5%":10768,"Rush":10769,"Corne":10770,"à¤¨":10771,"à¤Ĥ":10772,"NO3":10773,"Perl":10774,"Perfect":10775,"Harrison":10776,"rene":10777,"EEEE":10778,"Graph":10779,"ï¹ķ":10780,"Universit":10781,"737MAX":10782,"Chuck":10783,"sheng":10784,"ï¸ģ":10785,"Esports":10786,"Smile":10787,"Woman":10788,"Finan":10789,"Terra":10790,"special":10791,"Agri":10792,"Elite":10793,"CMOS":10794,"Reser":10795,"Melody":10796,"gregate":10797,"âīĪ":10798,"Desk":10799,"á¹Ń":10800,"Environ":10801,"FAT32":10802,"Opti":10803,"Standings":10804,"Medicine":10805,"Blues":10806,"mination":10807,"CASH":10808,"COLLECTION":10809,"Community":10810,"Middle":10811,"Cultural":10812,"Australia":10813,"Package":10814,"Loren":10815,"Justin":10816,"Visa":10817,"Connect":10818,"gamer":10819,"African":10820,"Integra":10821,"watch":10822,"GitHub":10823,"Evans":10824,"TEP70":10825,"Plant":10826,"Kotaku":10827,"Shanghai":10828,"availa":10829,"Execu":10830,"Cathedral":10831,"046":10832,"032":10833,"073":10834,"093":10835,"2PM":10836,"4.5%":10837,"5200":10838,"Bed":10839,"Clay":10840,"Duo":10841,"DIN":10842,"Dum":10843,"E6":10844,"ESA":10845,"EH10":10846,"Fat":10847,"Fitz":10848,"G7":10849,"G10":10850,"G11":10851,"Gang":10852,"Grea":10853,"Ide":10854,"IMI":10855,"Jor":10856,"JST":10857,"JUN":10858,"KG":10859,"Lil":10860,"Lama":10861,"LPGA":10862,"M8":10863,"Moo":10864,"Ple":10865,"R4":10866,"Rat":10867,"Rig":10868,"Rang":10869,"Range":10870,"S8":10871,"Sri":10872,"Sak":10873,"SIL":10874,"Tau":10875,"Trou":10876,"Tree":10877,"VIII":10878,"WAVE":10879,"Xa":10880,"YU":10881,"ZIP":10882,"ade":10883,"cuan2":10884,"dB":10885,"glio":10886,"kDa":10887,"kara":10888,"kell":10889,"og":10890,"sr":10891,"using":10892,"xo":10893,"ÄŁ":10894,"á½":10895,"ë§":10896,"ìĨ":10897,"ancy":10898,"anensis":10899,"ente":10900,"ming3":10901,"div":10902,"kura":10903,"102.":10904,"1065":10905,"1055":10906,"1057":10907,"1094":10908,"18.3":10909,"1238":10910,"1239":10911,"12.9":10912,"1293":10913,"cube":10914,"1115":10915,"1157":10916,"1179":10917,"1518":10918,"16.6":10919,"lations":10920,"17.8":10921,"1452":10922,"1325":10923,"inclu":10924,"thia":10925,"rex":10926,"rest":10927,"rell":10928,"requi":10929,"22.3":10930,"mem":10931,"metery":10932,"roe":10933,"ãĥ¤":10934,"0.19":10935,"0.66":10936,"0.99":10937,"0.62":10938,"0.87":10939,"0.7%":10940,"mae":10941,"1.38":10942,"1.06":10943,"1.07":10944,"1.08":10945,"next":10946,"offee":10947,"ãĤ²":10948,"hea":10949,"ets":10950,"etra":10951,"Manga":10952,"Intro":10953,"bee":10954,"SEVEN":10955,"Cohen":10956,"bran":10957,"ndrome":10958,"cip":10959,"bac":10960,"ATT":10961,"cty":10962,"Destru":10963,"person":10964,"mans":10965,"Promotion":10966,"cone":10967,"contra":10968,"config":10969,"rane":10970,"Stay":10971,"Semi":10972,"ISL":10973,"Gag":10974,"fier":10975,"fishing":10976,"optera":10977,"86.":10978,"JRA":10979,"Sonic":10980,"Sult":10981,"Cape":10982,"Nate":10983,"IPC":10984,"ANET":10985,"Muhammad":10986,"Any":10987,"SMRT":10988,"Conser":10989,"Bush":10990,"Gear":10991,"IVB":10992,"Stein":10993,"Stephan":10994,"Tong":10995,"Toyo":10996,"Ford":10997,"1126":10998,"AKB":10999,"REM":11000,"ations":11001,"Nove":11002,"fai":11003,"factor":11004,"Julius":11005,"full":11006,"SOLO":11007,"Cold":11008,"IAU":11009,"Administra":11010,"respon":11011,"1184":11012,"OpenAI":11013,"HOL":11014,"Kee":11015,"Huang":11016,"japo":11017,"RISE":11018,"EXID":11019,"velo":11020,"Parti":11021,"Jesus":11022,"NHL":11023,"Disk":11024,"lism":11025,"ãĦľ":11026,"Walk":11027,"Elli":11028,"Thom":11029,"GamesRadar":11030,"Holmes":11031,"Hydro":11032,"hyn":11033,"troff":11034,"âĹİ":11035,"WoRMS":11036,"Freestyle":11037,"Truth":11038,"GTX":11039,"Turtle":11040,"Belle":11041,"CMAMMA":11042,"Hanteo":11043,"Tokyo":11044,"Comics":11045,"Earl":11046,"âĳ¡":11047,"partner":11048,"since":11049,"language":11050,"OPEN":11051,"Lawrence":11052,"âĩĴ":11053,"techno":11054,"Image":11055,"practi":11056,"intosh":11057,"Fortran":11058,"Falcom":11059,"âĤ¬":11060,"LZ77":11061,"Wonderful":11062,"Butter":11063,"could":11064,"sease":11065,"P2P":11066,"Wells":11067,"WHIP":11068,"Rankings":11069,"PXA":11070,"Associates":11071,"1xEV":11072,"Higgins":11073,"Chief":11074,"April":11075,"015":11076,"056":11077,"1D":11078,"1199":11079,"8.3%":11080,"Aki":11081,"BK":11082,"Bry":11083,"BET":11084,"BTR":11085,"BERT":11086,"Deri":11087,"DATA":11088,"ETC":11089,"Fed":11090,"Gard":11091,"Glass":11092,"Gring":11093,"Ire":11094,"IAL":11095,"JA":11096,"JSON":11097,"KON":11098,"M110":11099,"NSA":11100,"NTO":11101,"NME":11102,"OMG":11103,"OEM":11104,"Pine":11105,"Pitch":11106,"RV":11107,"Rare":11108,"RLE":11109,"RNC":11110,"Ranger":11111,"Rights":11112,"SNA":11113,"S.4":11114,"Ski":11115,"SCP":11116,"SING":11117,"TX":11118,"TAS":11119,"WR":11120,"Was":11121,"WINNER":11122,"XL":11123,"Y2":11124,"YON":11125,"Zim":11126,"blue":11127,"ctic":11128,"cara":11129,"eis":11130,"fr":11131,"fall":11132,"hof":11133,"hind":11134,"meng1":11135,"oth":11136,"oire":11137,"psi":11138,"plus":11139,"sse":11140,"tti":11141,"tana":11142,"vit":11143,"Ðķ":11144,"ÐĽ":11145,"Õ¶":11146,"Ø¹":11147,"Ùĩ":11148,"ð¨":11149,"xiv":11150,"ener":11151,"enos":11152,"yung":11153,"yor":11154,"bine":11155,"bike":11156,"bins":11157,"20S":11158,"pical":11159,"shua":11160,"dum":11161,"mous":11162,"nix":11163,"1022":11164,"1090":11165,"1085":11166,"1213":11167,"1257":11168,"1294":11169,"1292":11170,"cuit":11171,"popu":11172,"posed":11173,"tuan3":11174,"15.3":11175,"ones":11176,"onto":11177,"arti":11178,"1431":11179,"1323":11180,"1362":11181,"gem":11182,"formos":11183,"mun":11184,"rei":11185,"ï¼Ĭ":11186,"roll":11187,"ceo":11188,"amar":11189,"1004":11190,"0.37":11191,"0.47":11192,"0.78":11193,"0.85":11194,"0.72":11195,"ãģ¸":11196,"1.82":11197,"never":11198,"2.14":11199,"2.37":11200,"2.78":11201,"ãĤ´":11202,"45.5":11203,"hei":11204,"ett":11205,"iso":11206,"INAX":11207,"vector":11208,"Chas":11209,"Champ":11210,"Independent":11211,"50000":11212,"6400":11213,"Cop":11214,"Colum":11215,"6800":11216,"nay":11217,"vian":11218,"veri":11219,"59%":11220,"Dev":11221,"Mii":11222,"OSI":11223,"795":11224,"COUN":11225,"Mos":11226,"Moham":11227,"many":11228,"Tea":11229,"pack":11230,"Need":11231,"85.":11232,"60000":11233,"ACM":11234,"Saba":11235,"Sales":11236,"Logo":11237,"pple":11238,"stage":11239,"Ant":11240,"Bahn":11241,"ITE":11242,"ITY":11243,"ITIL":11244,"ITION":11245,"alism":11246,"1.55":11247,"1305":11248,"Hei":11249,"Content":11250,"ASV":11251,"à¸¥":11252,"à¸Ħ":11253,"EPROM":11254,"Enri":11255,"Tonight":11256,"yah":11257,"Think":11258,"RECO":11259,"Scho":11260,"Luci":11261,"Luke":11262,"2.08":11263,"MOVIE":11264,"SOHR":11265,"Compi":11266,"Ruth":11267,"5.00":11268,"NGO":11269,"Harvey":11270,"Willie":11271,"Travis":11272,"services":11273,"URR":11274,"Chey":11275,"Acti":11276,"Kura":11277,"PLUS":11278,"Eleven":11279,"Cele":11280,"GAINAX":11281,"white":11282,"Ernest":11283,"Agda":11284,"Digi":11285,"Metal":11286,"SUMM":11287,"Gerald":11288,"friend":11289,"Born":11290,"Virgin":11291,"à¹Ī":11292,"Crystal":11293,"OMON":11294,"Signature":11295,"Paradise":11296,"Russian":11297,"Linked":11298,"Beauty":11299,"Police":11300,"Regional":11301,"scale":11302,"Ahmad":11303,"Crush":11304,"Philippe":11305,"Secretary":11306,"FIBA":11307,"versary":11308,"Maurice":11309,"íķĺ":11310,"Rodri":11311,"Transit":11312,"CinemaScore":11313,"Gregory":11314,"Bailey":11315,"because":11316,"Perez":11317,"Manuel":11318,"NICONICO":11319,"levard":11320,"POSIX":11321,"Piazza":11322,"mount":11323,"Sophie":11324,"Another":11325,"Pedro":11326,"Psycho":11327,"DisplayPort":11328,"TensorFlow":11329,"Utada":11330,"Calligra":11331,"ê¹Ģ":11332,"Affair":11333,"Command":11334,"yunnanensis":11335,"October":11336,"December":11337,"Gringoire":11338,"024":11339,"048":11340,"047":11341,"058":11342,"069":11343,"2C":11344,"3S":11345,"BED":11346,"Bron":11347,"CY":11348,"Cum":11349,"DONG":11350,"Ella":11351,"Ft2":11352,"FIVB":11353,"Gig":11354,"Gare":11355,"GTA":11356,"GCC":11357,"GLP":11358,"HU":11359,"Hes":11360,"Heller":11361,"IK":11362,"Kay":11363,"K230":11364,"LSD":11365,"M113":11366,"MENT":11367,"Mamba":11368,"N6":11369,"PAC":11370,"QF":11371,"Ryu":11372,"Sli":11373,"UV":11374,"Ukra":11375,"Vel":11376,"XDC":11377,"Zy":11378,"ack":11379,"c3":11380,"cere":11381,"echo":11382,"gat":11383,"jay":11384,"kel":11385,"oke":11386,"rk":11387,"ure":11388,"vent":11389,"zas":11390,"zero":11391,"Â®":11392,"â½":11393,"ëª":11394,"jing":11395,"aos":11396,"dev":11397,"demo":11398,"lil":11399,"bing":11400,"dil":11401,"ditional":11402,"lett":11403,"2032":11404,"20.7":11405,"dult":11406,"duction":11407,"sue":11408,"sula":11409,"surance":11410,"money":11411,"chuai1":11412,"1034":11413,"1044":11414,"1087":11415,"1093":11416,"1210":11417,"1249":11418,"1251":11419,"1152":11420,"tune":11421,"tuber":11422,"ornis":11423,"15.2":11424,"1410":11425,"1411":11426,"1336":11427,"1344":11428,"1359":11429,"1361":11430,"1395":11431,"indi":11432,"instru":11433,"geome":11434,"25K":11435,"25T":11436,"reus":11437,"revision":11438,"mean":11439,"meter":11440,"oura":11441,"ï¼ĥ":11442,"rod":11443,"teur":11444,".55%":11445,".59%":11446,"ltz":11447,"1007":11448,"1009":11449,"tag":11450,"0.16":11451,"0.44":11452,"0.76":11453,"cohol":11454,"mag":11455,"mah":11456,"mai":11457,"1.18":11458,"1.12":11459,"1.17":11460,"1.27":11461,"1.29":11462,"1.63":11463,"35000":11464,"heel":11465,"etti":11466,"3.7%":11467,"46A":11468,"Chow":11469,"Ching":11470,"4700":11471,"Insi":11472,"Index":11473,"hana":11474,"Rein":11475,".95%":11476,".99%":11477,"5800":11478,".69%":11479,"40000":11480,"Lion":11481,"CDC":11482,"ango":11483,"98A":11484,"Leu":11485,"akes":11486,"COO":11487,"Most":11488,"ctionary":11489,"Provin":11490,"Tee":11491,"pai":11492,"1205":11493,"1209":11494,"null":11495,"APH":11496,"Soccer":11497,"Sugar":11498,"Dio":11499,"som":11500,"Wea":11501,"HDR":11502,"Basili":11503,"SSD":11504,"stery":11505,"1.57":11506,"SMTOWN":11507,"stead":11508,"Contin":11509,"dents":11510,"ENCE":11511,"à¸¢":11512,"Interface":11513,"Step":11514,"aries":11515,"process":11516,"MyRadio":11517,"Luck":11518,"2.02":11519,"AGB":11520,"0.51":11521,"liner":11522,"Cut":11523,"cording":11524,"DRT":11525,"DAO":11526,"MCA":11527,"Hua":11528,"à¤¦":11529,"vella":11530,"lington":11531,"orio":11532,"Baron":11533,"Macintosh":11534,"Gior":11535,"Normal":11536,"Triple":11537,"Isra":11538,"track":11539,"Grey":11540,"Cheng":11541,"Chemical":11542,"mbly":11543,"cessing":11544,"ï¹ŀ":11545,"UEFA":11546,"Speak":11547,"Panzer":11548,"compu":11549,"Official":11550,"Scienti":11551,"FFT":11552,"Dancing":11553,"Critic":11554,"Phillips":11555,"GEO":11556,"Stock":11557,"SRP":11558,"Palace":11559,"OMR":11560,"Casa":11561,"Gilbert":11562,"AXN":11563,"Clostri":11564,"DIY":11565,"possible":11566,"Communications":11567,"standing":11568,"Bandar":11569,"S4N4":11570,"vatory":11571,"Mitchie":11572,"Jeffrey":11573,"Kennedy":11574,"Industries":11575,"VISION":11576,"Lunar":11577,"Eyes":11578,"Adventure":11579,"Nelson":11580,"Total":11581,"Aaron":11582,"Spencer":11583,"Vladi":11584,"AVBWU":11585,"Phoebus":11586,"coccus":11587,"Financial":11588,"available":11589,"Ireland":11590,"COUNT":11591,"LinkedIn":11592,"035":11593,"086":11594,"1b":11595,"1201":11596,"5300":11597,"6K":11598,"856":11599,"BER":11600,"Brea":11601,"C12":11602,"Ces":11603,"Cano":11604,"Crew":11605,"Coffee":11606,"DMA":11607,"Dere":11608,"Eco":11609,"ENA":11610,"Ery":11611,"E5%":11612,"Estate":11613,"FW":11614,"Fen":11615,"FAD":11616,"FDG":11617,"Gur":11618,"Gill":11619,"H8":11620,"H12":11621,"Hang":11622,"Honey":11623,"I2":11624,"ILO":11625,"Irish":11626,"JIT":11627,"Kind":11628,"M7":11629,"M16":11630,"M41":11631,"Meri":11632,"NV":11633,"PQ":11634,"Pot":11635,"Pana":11636,"PAO":11637,"RAC":11638,"Sla":11639,"Sandy":11640,"Tsu":11641,"Tat":11642,"Tun":11643,"Tess":11644,"Ulti":11645,"Ves":11646,"Ward":11647,"az":11648,"action":11649,"d3":11650,"db":11651,"dt":11652,"dam":11653,"eth":11654,"fir":11655,"flor":11656,"gart":11657,"ln":11658,"pth":11659,"qa":11660,"tsu":11661,"tree":11662,"uis":11663,"ÄĹ":11664,"ÉĽ":11665,"Î¦":11666,"Î¾":11667,"Îļ":11668,"Ø¬":11669,"ãĪ":11670,"ì¤":11671,"ìĬ":11672,"íĺ":11673,"ï»":11674,"deli":11675,"dead":11676,"deca":11677,"chia":11678,"erse":11679,"gui":11680,"least":11681,"20.3":11682,"titude":11683,"mour":11684,"qun1":11685,"lutions":11686,"1116":11687,"113.":11688,"1141":11689,"1177":11690,"1416":11691,"1335":11692,"1338":11693,"1332":11694,"1384":11695,"25.5":11696,"25.6":11697,"reau":11698,"result":11699,"0001":11700,"rose":11701,".54%":11702,"ãĥĶ":11703,"sex":11704,"selen":11705,"tah":11706,"tape":11707,"tanga":11708,"0.50":11709,"0.71":11710,"colo":11711,"elds":11712,"mab":11713,"1.15":11714,"1.13":11715,"1.80":11716,"1.68":11717,"1.3%":11718,"2.15":11719,"2.17":11720,"2.24":11721,"2.28":11722,"terator":11723,"ãĤ¼":11724,"ckey":11725,"vest":11726,"Maz":11727,"Mang":11728,"Chara":11729,"STEP":11730,"Inno":11731,"Informer":11732,"64BV":11733,"Coast":11734,"Reed":11735,"irs":11736,".01%":11737,"bau":11738,"bay":11739,"video":11740,"igne":11741,"Stream":11742,"Dem":11743,"Devel":11744,"Mile":11745,"Military":11746,"edge":11747,"Alpert":11748,"COP":11749,"noinclude":11750,"8700":11751,"Arcade":11752,"nucle":11753,"EDM":11754,"ED60":11755,"Latin":11756,"ERA":11757,"Sulli":11758,"Cafe":11759,"Nations":11760,"Boss":11761,"PaK":11762,"Silva":11763,"SSR":11764,"commit":11765,"1.54":11766,"sation":11767,"PS5":11768,"PlaySta":11769,"Concept":11770,"Bud":11771,"dens":11772,"dential":11773,"ETSI":11774,"EPUB":11775,"âĨĶ":11776,"Stef":11777,"Thel":11778,"Pool":11779,"1128":11780,"anies":11781,"CNBC":11782,"TAG":11783,"2.03":11784,"fume":11785,"AGC":11786,"called":11787,"Guide":11788,"NCE":11789,"Admi":11790,"1181":11791,"Hide":11792,"HOUSE":11793,"symbo":11794,"club":11795,"NOAA":11796,"lings":11797,"Perfume":11798,"Edwin":11799,"Gibson":11800,"NH2":11801,"Gray":11802,"Graham":11803,"Track":11804,"Davies":11805,"CLI":11806,"Tyler":11807,"Schools":11808,"ãĦı":11809,"Wally":11810,"Why":11811,"ï¹Ŀ":11812,"Animation":11813,"Count":11814,"Georges":11815,"Hermann":11816,"AO3":11817,"Parker":11818,"Leaf":11819,"DMZ":11820,"physic":11821,"3A4":11822,"Ferdin":11823,"database":11824,"broad":11825,"Oblast":11826,"à¥ģ":11827,"EVER":11828,"Launch":11829,"7.92":11830,"perial":11831,"BanG":11832,"launches":11833,"sinensis":11834,"Render":11835,"Publishing":11836,"NMDA":11837,"dorf":11838,"Cervo":11839,"SVT":11840,"Leonard":11841,"THQ":11842,"Johannes":11843,"Computing":11844,"PRODU":11845,"Haskell":11846,"ctoid":11847,"Flower":11848,"Pont":11849,"Roundcube":11850,"Oracle":11851,"bourg":11852,"Railway":11853,"GROW":11854,"science":11855,"buckets":11856,"articles":11857,"hausen":11858,"Gym":11859,"sockaddr":11860,"Intelligence":11861,"Architecture":11862,"HYBE":11863,"exit":11864,"district":11865,"GIRL":11866,"Malaysia":11867,"Atlantic":11868,"Eclipse":11869,"Ludwig":11870,"Canadian":11871,"9K37":11872,"Anniversary":11873,"Jeremy":11874,"Laborat":11875,"Executive":11876,"Destructoid":11877,"XDCAM":11878,"Developer":11879,"PRODUCE":11880,".2005":11881,"011":11882,"017":11883,"029":11884,"088":11885,"094":11886,"091":11887,"4C":11888,"4Minute":11889,"7k":11890,"Amen":11891,"ADV":11892,"AES":11893,"Bing":11894,"Blow":11895,"Brew":11896,"CX":11897,"C15":11898,"C60":11899,"CES":11900,"C10H":11901,"DIS":11902,"E4":11903,"EVA":11904,"E233":11905,"FP":11906,"Foo":11907,"FTT":11908,"GSh":11909,"Gia":11910,"GHQ":11911,"HIDE":11912,"Ich":11913,"IRES":11914,"J48":11915,"Kwo":11916,"L5":11917,"LUS":11918,"LIM":11919,"LAB":11920,"MID":11921,"MWe":11922,"MRT":11923,"MBE":11924,"Nak":11925,"NBS":11926,"OW":11927,"Ok":11928,"OAD":11929,"Omar":11930,"Omicron":11931,"Phan":11932,"PDC":11933,"PINK":11934,"Rao":11935,"Tum":11936,"TED":11937,"TFT":11938,"U22":11939,"UAL":11940,"WNBA":11941,"YZ":11942,"cp":11943,"d6":11944,"edi":11945,"ever":11946,"f8":11947,"fford":11948,"gl":11949,"goo":11950,"gent":11951,"grou":11952,"iu":11953,"ico":11954,"imp":11955,"kre":11956,"kat":11957,"ktor":11958,"llar":11959,"mL":11960,"mara":11961,"nus":11962,"ology":11963,"pun":11964,"send":11965,"talk":11966,"uli":11967,"yang":11968,"ÏĪ":11969,"ê·":11970,"ð§":11971,"dem":11972,"yin":11973,"guel":11974,"dier":11975,"2077":11976,"1069":11977,"1088":11978,"1061":11979,"1062":11980,"1097":11981,"1096":11982,"18.8":11983,"18.7":11984,"1237":11985,"1267":11986,"12.3":11987,"1287":11988,"lume":11989,"1175":11990,"1133":11991,"arts":11992,"1417":11993,"1446":11994,"1348":11995,"25.4":11996,"formes":11997,"stle":11998,"21.9":11999,"research":12000,"22.6":12001,"mei":12002,"memo":12003,"ride":12004,"rol":12005,"rote":12006,"tele":12007,"six":12008,"rage":12009,".53%":12010,"cedu":12011,"sexu":12012,"tative":12013,"0.79":12014,"0.81":12015,"fold":12016,"ãģĴ":12017,"ãģĸ":12018,"coin":12019,"cott":12020,"coordina":12021,"mati":12022,"1.19":12023,"1.11":12024,"1.22":12025,"1.65":12026,"1.2%":12027,"1.03":12028,"1.4%":12029,"2.35":12030,"2.38":12031,"2.65":12032,"2.62":12033,"2.92":12034,"iler":12035,"loe":12036,"heart":12037,"37.5":12038,"isse":12039,"tok":12040,"INI":12041,"3.98":12042,"3.06":12043,"3.8%":12044,"STOR":12045,"CoA":12046,"Cox":12047,"Coin":12048,"Reco":12049,".06%":12050,"cili":12051,"bacter":12052,".96%":12053,"vities":12054,"capi":12055,"veral":12056,"ury":12057,"Roma":12058,"phra":12059,"Start":12060,"7800":12061,"5600":12062,"MeV":12063,"Meyer":12064,"Marty":12065,"Mario":12066,"Alcohol":12067,"BABY":12068,"Shake":12069,"continu":12070,"noon":12071,"dain":12072,"ACAF":12073,"Raj":12074,"games":12075,"APA":12076,"ICK":12077,"Lami":12078,"Sac":12079,"buil":12080,"Boe":12081,"Bom":12082,"Bapti":12083,"SS2":12084,"ITH":12085,"ITX":12086,"ffy":12087,"ffin":12088,"1.58":12089,"step":12090,"Filter":12091,"Confe":12092,"Wiz":12093,"Ticket":12094,"ENG":12095,"Tag":12096,"Nich":12097,"Dogs":12098,"Form":12099,"Luna":12100,"fast":12101,"kom":12102,"SOAP":12103,"Gui":12104,"Rule":12105,"cription":12106,"jective":12107,"mony":12108,"MCT":12109,"systems":12110,"ghter":12111,"Serge":12112,"reached":12113,"Bright":12114,"Santos":12115,"orien":12116,"Edmund":12117,"Giuse":12118,"phase":12119,"cm3":12120,"Train":12121,"stice":12122,"PO4":12123,"lette":12124,"ORF":12125,"Counter":12126,"Aircraft":12127,"output":12128,"starter":12129,"played":12130,"Chiesa":12131,"WEB":12132,"Cemetery":12133,"Chapel":12134,"ð«Ĭ¸":12135,"Eurogamer":12136,"youtube":12137,"company":12138,"Croquet":12139,"LAY":12140,"âĸ³":12141,"default":12142,"PDT":12143,"tiative":12144,"ìĿĺ":12145,"DDR3":12146,"Minix":12147,"à¹ī":12148,"Catalo":12149,"Franklin":12150,"launched":12151,"Journey":12152,"Treo":12153,"Models":12154,"Maggie":12155,"C6H5":12156,"Electric":12157,"WOW":12158,"appe":12159,"tempor":12160,"Petro":12161,"DeepMind":12162,"invest":12163,"Hamilton":12164,"Ashley":12165,"black":12166,"Self":12167,"âĻ¯":12168,"Robinson":12169,"Michelle":12170,"Felix":12171,"against":12172,"Caroline":12173,"CONCACAF":12174,"CR400AF":12175,"KwK":12176,"BASIC":12177,"avex":12178,"early":12179,"Platform":12180,"BACnet":12181,"Rabbit":12182,"Theodore":12183,"Legend":12184,"Arnold":12185,"Oxford":12186,"front":12187,"Gustav":12188,"Nf6":12189,"methyl":12190,"Abraham":12191,"OECD":12192,"ALX500":12193,"FILM":12194,"CheyTac":12195,".18":12196,"014":12197,"039":12198,"066":12199,"077":12200,"1G":12201,"22000":12202,"7400":12203,"9100":12204,"9500":12205,"Av":12206,"Aru":12207,"AAC":12208,"ADS":12209,"Bart":12210,"C16":12211,"CID":12212,"CET":12213,"Clin":12214,"Dit":12215,"Eo":12216,"Effe":12217,"Fm":12218,"FAM":12219,"FAC":12220,"FAI":12221,"FRS":12222,"GY":12223,"G20":12224,"Ges":12225,"Gree":12226,"Grow":12227,"HIS":12228,"HIT":12229,"HSPA":12230,"IUP":12231,"Ibra":12232,"Illi":12233,"JW":12234,"Jake":12235,"JScript":12236,"KU":12237,"Kru":12238,"Lat":12239,"Lily":12240,"MJ":12241,"MN":12242,"MAR":12243,"MIPS":12244,"Nou":12245,"Nes":12246,"Nas":12247,"OV":12248,"Oo":12249,"Ole":12250,"OUT":12251,"PTC":12252,"Pos":12253,"PDS":12254,"Plas":12255,"R7":12256,"Ris":12257,"Rhi":12258,"S5":12259,"Sn":12260,"Scu":12261,"SDO":12262,"TRI":12263,"Trin":12264,"TBF":12265,"UDP":12266,"Usen":12267,"VMS":12268,"X100":12269,"Yau":12270,"Yun":12271,"Zin":12272,"Z99":12273,"ax":12274,"achie":12275,"dad":12276,"equ":12277,"equi":12278,"fz":12279,"iPod":12280,"kk":12281,"kor":12282,"lb":12283,"px":12284,"park":12285,"rine":12286,"sam":12287,"tte":12288,"tam":12289,"tter":12290,"uri":12291,"vine":12292,"wall":12293,"Ãģ":12294,"ÎĴ":12295,"×¨":12296,"×ľ":12297,"Ùģ":12298,"Ùĥ":12299,"á¿":12300,"ãĨ":12301,"ê²":12302,"ìľ":12303,"anor":12304,"delete":12305,"chr":12306,"ching":12307,"chard":12308,"hui":12309,"liday":12310,"mik":12311,"mil":12312,"minu":12313,"miya":12314,"guar":12315,"dish":12316,"20.1":12317,"pit":12318,"19.8":12319,"bound":12320,"dur":12321,"mona":12322,"lvad":12323,"nish":12324,"1023":12325,"1036":12326,"1033":12327,"18000":12328,"1298":12329,"culty":12330,"1117":12331,"1134":12332,"1132":12333,"1149":12334,"1172":12335,"pold":12336,"15.7":12337,"15.1":12338,"16000":12339,"16.2":12340,"16GB":12341,"17000":12342,"17.7":12343,"17.1":12344,"arn":12345,"aru":12346,"argu":12347,"1437":12348,"1334":12349,"input":12350,"24.7":12351,"aland":12352,"stes":12353,"28.6":12354,"22.8":12355,"22.7":12356,"melan":12357,"ought":12358,"rite":12359,"simi":12360,"sile":12361,"sizer":12362,".58%":12363,"ãĥĽ":12364,"ception":12365,"seg":12366,"0.80":12367,"ello":12368,"mali":12369,"1.16":12370,"1.30":12371,"1.47":12372,"1.66":12373,"1.76":12374,"1.1%":12375,"2.18":12376,"term":12377,"these":12378,"today":12379,"3.14":12380,"TCHA":12381,"Mathema":12382,"32.5":12383,"iten":12384,"STAGE":12385,"Indone":12386,"Theory":12387,"Resi":12388,"Return":12389,"cape":12390,"umph":12391,"78X":12392,"NAD":12393,"NAL":12394,"Miguel":12395,"Marti":12396,"ï½ľ":12397,"COMP":12398,"Shaun":12399,"Shadow":12400,"mana":12401,"Joshua":12402,"rano":12403,"Temp":12404,"pati":12405,"pala":12406,"ACC":12407,"gade":12408,"Jazz":12409,"Bear":12410,"Beck":12411,"Lai":12412,"Sup":12413,"Suica":12414,"Dictionary":12415,"Cash":12416,"hack":12417,"hist":12418,"IPB":12419,"Mule":12420,"llon":12421,"inten":12422,"Bala":12423,"1104":12424,"alia":12425,"chez":12426,"sai":12427,"PSR":12428,"Hawaii":12429,"Console":12430,"Buck":12431,"MSI":12432,"EPR":12433,"MP5":12434,"rism":12435,"Piano":12436,"Cardi":12437,"myr":12438,"Expo":12439,"Pharma":12440,"Julie":12441,"0.53":12442,"0.54":12443,"SOHO":12444,"Guin":12445,"often":12446,"4.25":12447,"cycle":12448,"Fee":12449,"Fears":12450,"5.25":12451,"5.45":12452,"ression":12453,"Him":12454,"cord":12455,"MCB":12456,"Franco":12457,"Put":12458,"Monkey":12459,"Study":12460,"NOAH":12461,"SPE":12462,"Barbara":12463,"DOWN":12464,"BEJ48":12465,"img":12466,"trax":12467,"Berry":12468,"lene":12469,"URA":12470,"Check":12471,"Supernova":12472,"stoma":12473,"accu":12474,"access":12475,"GOT7":12476,"âħ£":12477,"NSF":12478,"parenti":12479,"bring":12480,"Airport":12481,"Value":12482,"donna":12483,"Spir":12484,"229E":12485,"Chung":12486,"DMM":12487,"Chica":12488,"Atta":12489,"GABA":12490,"PM2.5":12491,"Spoon":12492,"Valenti":12493,"LTD":12494,"Clau":12495,"Choice":12496,"Turner":12497,"Resort":12498,"Resources":12499,"KKTV":12500,"Function":12501,"AEG":12502,"KIZ":12503,"unit":12504,"Venus":12505,"CodeCamp":12506,"Partner":12507,"appli":12508,"UMTS":12509,"Lantis":12510,"Sort":12511,"Diego":12512,"Jennie":12513,"models":12514,"Register":12515,"ylent":12516,"CANopen":12517,"KEY":12518,"ìķ¼":12519,"MultiCam":12520,"Adams":12521,"Welcome":12522,"Jerry":12523,"Apogee":12524,"midt":12525,"Titan":12526,"species":12527,"ELEVEN":12528,"Lauren":12529,"freeCodeCamp":12530,"âģµ":12531,"VISUAL":12532,"Organization":12533,"orbital":12534,"Marshall":12535,"FIRST":12536,"Widget":12537,"B7RLE":12538,"stadt":12539,"Initiative":12540,"connect":12541,"values":12542,"Swift":12543,"reference":12544,"Patricia":12545,"President":12546,"24.310":12547,"hibition":12548,"fluo":12549,"Lidl":12550,"gorith":12551,"Hoyts":12552,"LUNAR":12553,"technology":12554,"RECORDS":12555,"Basilica":12556,"Clostridium":12557,"PlayStatio":12558,"Thelma":12559,"Ferdinand":12560,"Giuseppe":12561,"parentid":12562,"025":12563,"028":12564,"022":12565,"026":12566,"084":12567,"082":12568,"1197":12569,"1mple":12570,"5D":12571,"6200":12572,"Apex":12573,"BJ":12574,"BEC":12575,"Cp":12576,"CRE":12577,"CSL":12578,"DY":12579,"Did":12580,"DSS":12581,"Ek":12582,"EAS":12583,"Fe2":12584,"Fru":12585,"FSB":12586,"GQ":12587,"Grou":12588,"Gren":12589,"HG":12590,"HV":12591,"Hin":12592,"Id":12593,"IES":12594,"Igna":12595,"JE":12596,"JIN":12597,"Khu":12598,"Kil":12599,"MAT":12600,"NX":12601,"Pig":12602,"RW":12603,"SIV":12604,"SCN":12605,"Swa":12606,"SHR":12607,"Scan":12608,"Scar":12609,"TZ":12610,"Tg":12611,"Tank":12612,"TYPE":12613,"UART":12614,"WEC":12615,"WCT":12616,"WWF":12617,"XR":12618,"X200":12619,"YC":12620,"Z17":12621,"bai1":12622,"bass":12623,"cru":12624,"cana":12625,"d2":12626,"dru":12627,"e5":12628,"epi":12629,"f1":12630,"gla":12631,"hood":12632,"jer":12633,"ked":12634,"mAh":12635,"o3":12636,"sent":12637,"s1mple":12638,"v1":12639,"wd":12640,"wai3":12641,"Äħ":12642,"ÅĻ":12643,"ÑĦ":12644,"Ñĳ":12645,"ë¬":12646,"ìĽ":12647,"death":12648,"lico":12649,"bic":12650,"bilis":12651,"die4":12652,"just":12653,"tima":12654,"tizen":12655,"19.2":12656,"borough":12657,"dual":12658,"suc":12659,"1031":12660,"1073":12661,"1071":12662,"1091":12663,"1222":12664,"1245":12665,"12.4":12666,"1113":12667,"1148":12668,"1161":12669,"1171":12670,"woo":12671,"pose":12672,"lach":12673,"onso":12674,"online":12675,"arg":12676,"around":12677,"1366":12678,"formed":12679,"much":12680,"allow":12681,"tham":12682,"rez":12683,"restri":12684,"22.2":12685,"mex":12686,"ridge":12687,"ï¼ĵ":12688,"rostris":12689,"tea":12690,"6061":12691,"sein":12692,"1005":12693,"tato":12694,"talis":12695,"0.70":12696,"0.88":12697,"0.93":12698,"folia":12699,"mak":12700,"mala":12701,"1.26":12702,"1.90":12703,"1.33":12704,"1.67":12705,"1.84":12706,"1.92":12707,"1.93":12708,"2.12":12709,"2.23":12710,"2.29":12711,"2.39":12712,"2.77":12713,"2.9%":12714,"48.8":12715,"eto":12716,"3.6%":12717,"Maha":12718,"Chorus":12719,"Into":12720,"Innova":12721,"33A":12722,"Colt":12723,"Ref":12724,"brand":12725,".71%":12726,".94%":12727,".97%":12728,"viri":12729,"visi":12730,".66%":12731,"igo":12732,"ural":12733,"ssage":12734,"6600":12735,"SAD":12736,"phere":12737,"8800":12738,"Meh":12739,"NADP":12740,"Miz":12741,"derma":12742,"Alle":12743,"CO3":12744,"Mohammad":12745,"Share":12746,"Vic":12747,"JoJo":12748,"894":12749,"rys":12750,"Teng":12751,"paper":12752,"node":12753,"dah":12754,"600V":12755,"1203":12756,"120km":12757,"Armen":12758,"Race":12759,"Rachel":12760,"Begin":12761,"ERM":12762,"Same":12763,"Lover":12764,"IDC":12765,"IDF":12766,"Sula":12767,"docu":12768,"Diana":12769,"oka":12770,"orem":12771,"bubble":12772,"hoc":12773,"given":12774,"Silv":12775,"Sierra":12776,"wicz":12777,"SSL":12778,"colle":12779,"saw":12780,"Ride":12781,"1302":12782,"Budd":12783,"Taq":12784,"à¸Ľ":12785,"Pew":12786,"Pietro":12787,"Thera":12788,"Dome":12789,"Dota":12790,"Powell":12791,"Format":12792,"prof":12793,"Carlo":12794,"UNO":12795,"Phen":12796,"CHILD":12797,"TOG":12798,"Kabu":12799,"AG600":12800,"0.58":12801,"Combat":12802,"Gul":12803,"1183":12804,"MC.":12805,"Corp":12806,"reaming":12807,"à¤µ":12808,"Bishop":12809,"DOI":12810,"Jeans":12811,"Isla":12812,"PPT":12813,"SCAR":12814,"SCAP":12815,"Pride":12816,"lerc":12817,"Travel":12818,"lena":12819,"Fuji":12820,"tents":12821,"Starship":12822,"When":12823,"oustic":12824,"Assistant":12825,"Warren":12826,"Canal":12827,"Spect":12828,"Blog":12829,"Vevo":12830,"Vehicle":12831,"Spike":12832,"Chun":12833,"Survey":12834,"Years":12835,"Torrent":12836,"Josef":12837,"Claire":12838,"warm":12839,"Skype":12840,"morrow":12841,"Fresh":12842,"Transport":12843,"PHA":12844,"USB4":12845,"AEW":12846,"Database":12847,"Janet":12848,"Destin":12849,"Campus":12850,"Bruno":12851,"appro":12852,"Leslie":12853,"Palm":12854,"current":12855,"Boulevard":12856,"Troy":12857,"Nicolas":12858,"treme":12859,"Cosmo":12860,"Frost":12861,"Murray":12862,"Murphy":12863,"ENTER":12864,"Cruz":12865,"ttom":12866,"Antoine":12867,"wikitext":12868,"sistance":12869,"HERE":12870,"niconico":12871,"Defense":12872,"industri":12873,"Eagle":12874,"Titanic":12875,"á¸¥":12876,"Deadline":12877,"TRAIN":12878,"thority":12879,"syntax":12880,"Italia":12881,"Sharp":12882,"EchoLink":12883,"create":12884,"CYP3A4":12885,"xc3":12886,"Follow":12887,"museum":12888,"false":12889,"Protection":12890,"ëĤĺ":12891,"Aviation":12892,"Qualifying":12893,"Observatory":12894,"à¯į":12895,"cephalus":12896,"Assembly":12897,"WRKY":12898,"Affairs":12899,"acknowledge":12900,"Sullivan":12901,"Ticketmaster":12902,"Usenet":12903,"Chicago":12904,"036":12905,"037":12906,"034":12907,"049":12908,"042":12909,"098":12910,"085":12911,"097":12912,"4.8%":12913,"4.4%":12914,"7A":12915,"9M":12916,"A24":12917,"Aid":12918,"Away":12919,"Cres":12920,"DQ":12921,"Dry":12922,"DKP":12923,"Elv":12924,"E6%":12925,"EGO":12926,"FET":12927,"FUN":12928,"FTA":12929,"FRI":12930,"Flex":12931,"GAS":12932,"GTO":12933,"HAR":12934,"Identi":12935,"Jas":12936,"JVC":12937,"KH":12938,"Kine":12939,"KID":12940,"Kari":12941,"KHL":12942,"LTS":12943,"L129":12944,"Ming":12945,"MHC":12946,"M686":12947,"Nano":12948,"P3":12949,"PJ":12950,"Pand":12951,"PAG":12952,"Q4":12953,"QTE":12954,"Row":12955,"RISC":12956,"S10":12957,"Span":12958,"Scri":12959,"T6":12960,"Thu":12961,"Til":12962,"Tell":12963,"TION":12964,"User":12965,"V3":12966,"VK":12967,"Vill":12968,"Want":12969,"Wool":12970,"ZIS":12971,"Zoom":12972,"av":12973,"away":12974,"beng3":12975,"econo":12976,"effici":12977,"f2":12978,"hin":12979,"hall":12980,"kal":12981,"kia":12982,"kill":12983,"mble":12984,"nals":12985,"r2":12986,"sn":12987,"saurus":12988,"source":12989,"vard":12990,"vul":12991,"wak":12992,"yam":12993,"zang3":12994,"¹¬":12995,"Â¬":12996,"Äĳ":12997,"×Ł":12998,"àª":12999,"ëĮ":13000,"ì£":13001,"íĥ":13002,"analysis":13003,"sha2":13004,"shir":13005,"should":13006,"zhou":13007,"entin":13008,"enberg":13009,"ãĢħ":13010,"lien":13011,"lies":13012,"mile":13013,"mise":13014,"mino":13015,"gues":13016,"dion":13017,"weight":13018,"2038":13019,"20.4":13020,"jue1":13021,"19S":13022,"shun3":13023,"mora":13024,"chung":13025,"zia":13026,"nion":13027,"10A":13028,"1021":13029,"1028":13030,"1089":13031,"mens":13032,"quad":13033,"18.1":13034,"1223":13035,"1231":13036,"1176":13037,"1174":13038,"pole":13039,"lab":13040,"lac":13041,"lal":13042,"lator":13043,"1321":13044,"geon":13045,"24.9":13046,"mune":13047,"alla":13048,"stall":13049,"stown":13050,"21.2":13051,"21.1":13052,"relation":13053,"mee":13054,"27.8":13055,"rik":13056,"ropo":13057,"sition":13058,"sius":13059,"sium":13060,"radi":13061,"season":13062,"0.43":13063,"0.74":13064,"0.97":13065,"foglio":13066,"cost":13067,"elf":13068,"mass":13069,"mator":13070,"1.20":13071,"1.95":13072,"2.26":13073,"2.27":13074,"2.60":13075,"2.34":13076,"2.43":13077,"2.87":13078,"2.1%":13079,"2.6%":13080,"2.8%":13081,"thea":13082,"atro":13083,"INLW":13084,"3.15":13085,"3.75":13086,"3.04":13087,"STAF":13088,"64DD":13089,"Colin":13090,"Rex":13091,"Rey":13092,"Rela":13093,"advance":13094,".08%":13095,".07%":13096,".79%":13097,"cional":13098,"cata":13099,"usa":13100,"ooting":13101,"ctly":13102,"Rot":13103,"Stories":13104,"ids":13105,"Liver":13106,"License":13107,"Miche":13108,"Mika":13109,"lys":13110,"BCG":13111,"Alfa":13112,"Sham":13113,"AML":13114,"ARTS":13115,"Text":13116,"dai":13117,"Arrow":13118,"Sei":13119,"Gaz":13120,"APER":13121,"Lobo":13122,"domain":13123,"âĶģ":13124,"havi":13125,"buty":13126,"ANGE":13127,"merce":13128,"hot":13129,"Pale":13130,"Pablo":13131,"Weverse":13132,"Simple":13133,"Bac":13134,"1105":13135,"alist":13136,"check":13137,"same":13138,"Rivella":13139,"1301":13140,"1303":13141,"SME":13142,"SMP":13143,"PCA":13144,"Geoff":13145,"à¸¸":13146,"à¸ĩ":13147,"Nie":13148,"Ensign":13149,"2.54":13150,"âĨĳ":13151,"MP7":13152,"USD":13153,"portation":13154,"Thin":13155,"AKS":13156,"Notes":13157,"UNIQ":13158,"Audi":13159,"AVO":13160,"Jung":13161,"2.05":13162,"0.59":13163,"MIME":13164,"SOD":13165,"LEI":13166,"Runa":13167,"Rubber":13168,"cyc":13169,"CR200":13170,"reement":13171,"5.75":13172,"delle":13173,"Openstreet":13174,"NOT":13175,"109.":13176,"RTX":13177,"EXR":13178,"Santo":13179,"HELL":13180,"Harper":13181,"LOW":13182,"Giba":13183,"Norton":13184,"Tribu":13185,"Trinity":13186,"Triumph":13187,"PPI":13188,"minus":13189,"Voya":13190,"POVM":13191,"Showtime":13192,"clef":13193,"tism":13194,"ABCD":13195,"Aniplex":13196,"Holy":13197,"Abel":13198,"PLG":13199,"1.0%":13200,"zog":13201,"Books":13202,"rington":13203,"plash":13204,"Blackbear":13205,"GAZ":13206,"closed":13207,"Chase":13208,"3.0%":13209,"bella":13210,"ð«Ľ":13211,"GMRES":13212,"stitution":13213,"spect":13214,"Rocky":13215,"Elisa":13216,"frag":13217,"Plane":13218,"BUM":13219,"numeric":13220,"element":13221,"Philoso":13222,"Campo":13223,"KILL":13224,"MTU":13225,"Outlook":13226,"country":13227,"chelys":13228,"karu":13229,"Gross":13230,"SHOOT":13231,"address":13232,"Treat":13233,"aggregate":13234,"Wayne":13235,"terium":13236,"Joyce":13237,"Policy":13238,"Leonardo":13239,"DLU":13240,"Beatles":13241,"sizeof":13242,"wikipedia":13243,"Without":13244,"Create":13245,"cultural":13246,"Still":13247,"Frontier":13248,"plc":13249,"Afternoon":13250,"Scale":13251,"Shock":13252,"ITV4":13253,"virtual":13254,"Sirius":13255,"BitTorrent":13256,"Taman":13257,"highlight":13258,"half":13259,"Heroes":13260,"specific":13261,"Strike":13262,"constructor":13263,"camatan":13264,"Italian":13265,"Deutsch":13266,"Matchday":13267,"court":13268,"NATO":13269,"Teddy":13270,"ð°¹¬":13271,"Mullvad":13272,"Feature":13273,"properties":13274,"Snap":13275,"quarter":13276,"Gabriel":13277,"Municipal":13278,"Leclerc":13279,"Learning":13280,"Armstrong":13281,"Synthesizer":13282,"Integrated":13283,"SEVENTEEN":13284,"hynchus":13285,"Derived":13286,"DONGKIZ":13287,"Israel":13288,"Vladimir":13289,"cedure":13290,"Lamigo":13291,"Ibrahim":13292,"SHRDLU":13293,"syntaxhighlight":13294,"Openstreetmap":13295,".2020":13296,"019":13297,"044":13298,"059":13299,"092":13300,"2M":13301,"5.7%":13302,"7.8%":13303,"7.4%":13304,"8A":13305,"9.5%":13306,"9.6%":13307,"Azi":13308,"Alu":13309,"Aka":13310,"Actor":13311,"Amar":13312,"Acid":13313,"Bump":13314,"Cu2":13315,"CMP":13316,"Clan":13317,"DW":13318,"Dow":13319,"ECO":13320,"Fas":13321,"Fir":13322,"G5":13323,"GJ":13324,"Gad":13325,"GPa":13326,"Glas":13327,"GCM":13328,"GDB":13329,"HAP":13330,"HAPP":13331,"ILL":13332,"IETF":13333,"Jak":13334,"KR":13335,"Kamp":13336,"Kyle":13337,"LJ":13338,"Mig":13339,"MCO":13340,"MIP":13341,"NW":13342,"Nx":13343,"Na2":13344,"OB":13345,"OFF":13346,"Phu":13347,"PSA":13348,"PH2":13349,"PFA":13350,"Q2":13351,"Qi":13352,"RH":13353,"R16":13354,"RNG":13355,"RAF":13356,"S9":13357,"Samp":13358,"Skin":13359,"TK":13360,"Trea":13361,"Tidal":13362,"UTA":13363,"UFS":13364,"Vari":13365,"W3":13366,"Xin":13367,"acu":13368,"acc":13369,"c1":13370,"cence":13371,"d1":13372,"dh":13373,"emp":13374,"eHow":13375,"fps":13376,"g2":13377,"gara":13378,"hir":13379,"jang":13380,"jara":13381,"kind":13382,"kina":13383,"lers":13384,"man1":13385,"men1":13386,"nou4":13387,"pc":13388,"pari":13389,"sou":13390,"ske":13391,"wl":13392,"wu":13393,"xton":13394,"yet":13395,"zor":13396,"É£":13397,"×ĳ":13398,"ë¡":13399,"ë¯":13400,"ì²":13401,"chor":13402,"hub":13403,"million":13404,"erry":13405,"gul":13406,"dir":13407,"2033":13408,"tiali":13409,"19.9":13410,"duce":13411,"moto":13412,"kul":13413,"kur":13414,"zil":13415,"nial":13416,"nifer":13417,"1048":13418,"1058":13419,"1077":13420,"1098":13421,"1084":13422,"1233":13423,"1112":13424,"1146":13425,"1164":13426,"1167":13427,"1156":13428,"pour":13429,"latt":13430,"17.6":13431,"17.3":13432,"14000":13433,"1436":13434,"14.2":13435,"14.3":13436,"1473":13437,"1322":13438,"1339":13439,"13.0":13440,"1379":13441,"1353":13442,"gebra":13443,"fork":13444,"mul":13445,"stant":13446,"28.5":13447,"ths":13448,"thin":13449,"rig":13450,"rion":13451,"teng":13452,"100m":13453,"tat":13454,"take":13455,"0.90":13456,"0.64":13457,"0.77":13458,"0.86":13459,"0.83":13460,"mage":13461,"macro":13462,"1.21":13463,"1.28":13464,"1.50":13465,"1.32":13466,"1.78":13467,"1.61":13468,"1.01":13469,"1.8%":13470,"2.31":13471,"2.45":13472,"2.63":13473,"loss":13474,"too":13475,"INV":13476,"3.33":13477,"3.1%":13478,"STUD":13479,"bey":13480,"SEGA":13481,"These":13482,"Rei":13483,"Rebel":13484,"Really":13485,".73%":13486,"cipa":13487,"vivo":13488,"caster":13489,"ayan":13490,"42V":13491,"ssen":13492,"5700":13493,"Role":13494,"SAC":13495,"phal":13496,"Sty":13497,"Mechani":13498,"DeO":13499,"berger":13500,"MiG":13501,"Marce":13502,"eda":13503,"anga":13504,"9860":13505,"Allan":13506,"typen":13507,"twa":13508,"Lev":13509,"BAE":13510,"COB":13511,"Moto":13512,"Shen":13513,"Jolin":13514,"Joker":13515,"rana":13516,"100000":13517,"pathy":13518,"ACA":13519,"Section":13520,"Sexy":13521,"Rafa":13522,"Bever":13523,"ICLEI":13524,"Late":13525,"Ladies":13526,"Saga":13527,"Sung":13528,"Fav":13529,"ONT":13530,"Cami":13531,"hab":13532,"habi":13533,"Nathan":13534,"history":13535,"stack":13536,"gium":13537,"giving":13538,"Pai":13539,"Pain":13540,"Weber":13541,"wish":13542,"Bag":13543,"Baba":13544,"SSRI":13545,"common":13546,"1.53":13547,"Heath":13548,"Hai":13549,"Haven":13550,"Figu":13551,"Filip":13552,"shift":13553,"IVPP":13554,"ENS":13555,"Tap":13556,"Tawan":13557,"ALBUM":13558,"Homo":13559,"Holo":13560,"BLG":13561,"2.59":13562,"Petit":13563,"Ther":13564,"Dock":13565,"ROCm":13566,"AKA":13567,"REAPER":13568,"Carr":13569,"anie":13570,"Myki":13571,"âĪĩ":13572,"Lux":13573,"Lucy":13574,"wai":13575,"Aud":13576,"puk":13577,"CHA":13578,"July":13579,"Jules":13580,"Qual":13581,"ounced":13582,"2.09":13583,"SOI":13584,"Combi":13585,"ADP":13586,"4.38":13587,"Syd":13588,"6.11":13589,"GBU":13590,"Fei":13591,"5.27":13592,"BMC":13593,"Hikaru":13594,"zai":13595,"3.53":13596,"Kei":13597,"sylla":13598,"network":13599,"Gover":13600,"Corps":13601,"Hud":13602,"Monu":13603,"à¤ª":13604,"à¤¸":13605,"nings":13606,"ownCloud":13607,"SPEC":13608,"Bring":13609,"Santhal":13610,"orian":13611,"Barnes":13612,"within":13613,"without":13614,"EEG":13615,"Trilogy":13616,"Prison":13617,"server":13618,"12747":13619,"CLR":13620,"Fusion":13621,"Chemistry":13622,"experi":13623,"stom":13624,"Wallace":13625,"display":13626,"bital":13627,"Matters":13628,"Wars":13629,"ABB":13630,"Porter":13631,"PVC":13632,"FMEDA":13633,"Highway":13634,"UCIL":13635,"Spider":13636,"player":13637,"Atlas":13638,"ators":13639,"KBS2":13640,"EMBA":13641,"Jackie":13642,"WinZip":13643,"PyQt":13644,"TimeSignature":13645,"VOD":13646,"Ferr":13647,"SUGO":13648,"complete":13649,"Prai":13650,"Tournament":13651,"WSBL":13652,"herty":13653,"zzle":13654,"morph":13655,"Amazing":13656,"Virtua":13657,"KKday":13658,"MUK":13659,"áĢº":13660,"Horn":13661,"LonWorks":13662,"Phillip":13663,"Manager":13664,"Birth":13665,"à¹Į":13666,"Objective":13667,"Campbell":13668,"Campaign":13669,"Oscar":13670,"Passion":13671,"32.4%":13672,"Sorry":13673,"Curtis":13674,"Blockberry":13675,"Grande":13676,"DiePie":13677,"Whats":13678,"Athle":13679,"printf":13680,"occur":13681,"áĥĲ":13682,"Regiment":13683,"Tanfoglio":13684,"WOWOW":13685,"Ahmed":13686,"Route":13687,"CASP":13688,"Swiss":13689,"KELT":13690,"studio":13691,"Imagin":13692,"Metropolitan":13693,"MarketAx":13694,"Wireless":13695,"Wikipedia":13696,"included":13697,"Rounds":13698,"Florence":13699,"Kitty":13700,"Messenger":13701,"âĤĤ":13702,"Builder":13703,"extra":13704,"Standards":13705,"Todd":13706,"Cookie":13707,"Safety":13708,"MakerVille":13709,"Hands":13710,"Structure":13711,"IMDB":13712,"052D":13713,"Writer":13714,"Morningstar":13715,"Industrial":13716,"medical":13717,"Adventures":13718,"Kryo":13719,"ð°¾":13720,"different":13721,"CR400BF":13722,"presentation":13723,"Alberto":13724,"âŁ¨":13725,"âŁ©":13726,"ê¸°":13727,"Blind":13728,"ëĭ¤":13729,"Minecraft":13730,"ashtanga":13731,"Scotland":13732,"PARTY":13733,"ð«ļª":13734,"Kickstarter":13735,"BizTalk":13736,"JUSTHIS":13737,"Fighter":13738,"However":13739,"Sultan":13740,"Toyota":13741,"Kuraki":13742,"Giorgio":13743,"Admiral":13744,"building":13745,"Yautja":13746,"PewDiePie":13747,"ëĮĢ":13748,"Runaway":13749,"numericTimeSignature":13750,"typename":13751,"VirtuaReal":13752,"MarketAxess":13753,"027":13754,"031":13755,"1196":13756,"1193":13757,"1187":13758,"1UP":13759,"2G":13760,"2O3":13761,"7200":13762,"8300":13763,"8.9%":13764,"9200":13765,"A10":13766,"Ate":13767,"Aber":13768,"Aga":13769,"AQU":13770,"Bles":13771,"BMI":13772,"Bona":13773,"Bhar":13774,"Bc4":13775,"C20":13776,"C79":13777,"CSM":13778,"Cake":13779,"DARK":13780,"Equ":13781,"Ere":13782,"EAC":13783,"EMC":13784,"Fing":13785,"FEC":13786,"FTP":13787,"Gla":13788,"G.7":13789,"GAR":13790,"GAME":13791,"Hour":13792,"Ira":13793,"Jou":13794,"Jing":13795,"Kyi":13796,"K12":13797,"Korn":13798,"LY":13799,"Lao":13800,"M20":13801,"M14":13802,"MPa":13803,"MEN":13804,"NTV":13805,"NVS":13806,"Oak":13807,"OBS":13808,"OLE":13809,"OVER":13810,"Pz":13811,"PON":13812,"P450":13813,"Q1":13814,"Rau":13815,"RAIL":13816,"SDP":13817,"Sight":13818,"Spar":13819,"Sons":13820,"Session":13821,"TAP":13822,"Twin":13823,"UBA":13824,"Wis":13825,"WIN":13826,"WMI":13827,"WCF":13828,"WADA":13829,"XII":13830,"XHTML":13831,"Ying":13832,"Yama":13833,"Z1":13834,"Z48":13835,"ZK6":13836,"a8":13837,"act":13838,"cd":13839,"cout":13840,"d5":13841,"dak":13842,"ez":13843,"fare":13844,"festi":13845,"fMRI":13846,"glu":13847,"hm":13848,"hau":13849,"hPa":13850,"kaya":13851,"mmol":13852,"nc":13853,"ndez":13854,"ppo":13855,"rn":13856,"rr":13857,"ryo":13858,"sper":13859,"tmp":13860,"uer":13861,"wara":13862,"xs":13863,"yasa":13864,"Ã¬":13865,"ÄĲ":13866,"ÄĻ":13867,"Æ°":13868,"Éĳ":13869,"Ê°":13870,"Î®":13871,"Îĳ":13872,"×ª":13873,"Øµ":13874,"Ùī":13875,"ìĥ":13876,"ìĪ":13877,"ð©":13878,"ngen":13879,"dee":13880,"dest":13881,"dere":13882,"ento":13883,"champi":13884,"hua":13885,"mian":13886,"mier":13887,"bies":13888,"dini":13889,"dial":13890,"dilla":13891,"disease":13892,"week":13893,"2048":13894,"tite":13895,"tivo":13896,"boo":13897,"bore":13898,"bove":13899,"mov":13900,"modi":13901,"modu":13902,"church":13903,"nite":13904,"1013":13905,"1039":13906,"1068":13907,"1053":13908,"1083":13909,"quer":13910,"00%":13911,"nville":13912,"12V":13913,"1288":13914,"1136":13915,"1169":13916,"lain":13917,"14.0":13918,"1316":13919,"1326":13920,"1331":13921,"gets":13922,"25.8":13923,"forms":13924,"24K":13925,"rule":13926,"strom":13927,"stanti":13928,"21.8":13929,"reich":13930,"meda":13931,"message":13932,"rim":13933,"rong":13934,"sibility":13935,"rale":13936,"race":13937,"sep":13938,"amy":13939,"taan":13940,"tata":13941,"0.69":13942,"0.89":13943,"0.6%":13944,"matri":13945,"1.40":13946,"1.70":13947,"1.46":13948,"1.49":13949,"1.69":13950,"1.43":13951,"1.99":13952,"1.72":13953,"1.74":13954,"1.97":13955,"1.91":13956,"offer":13957,"2.47":13958,"2.69":13959,"2.66":13960,"2.72":13961,"2.82":13962,"2.2%":13963,"2.4%":13964,"teria":13965,"loon":13966,"loop":13967,"tolo":13968,"3.10":13969,"3.35":13970,"3.45":13971,"3.65":13972,"Mali":13973,"Madonna":13974,"Chal":13975,"Chau":13976,"STE":13977,"Include":13978,"Infinity":13979,"33.5":13980,"beck":13981,"SES":13982,"Ree":13983,"Regina":13984,"vita":13985,"cale":13986,"capa":13987,"peu":13988,"43.5":13989,"Rogers":13990,"phin":13991,"Meli":13992,"Mela":13993,"touch":13994,"until":13995,"CDRI":13996,"angu":13997,"OSCAR":13998,"BAR":13999,"COLO":14000,"Moha":14001,"Mosa":14002,"Short":14003,"manage":14004,"AMPV":14005,"BSAT":14006,"condu":14007,"contain":14008,"content":14009,"Teen":14010,"Tears":14011,"pact":14012,"NeXT":14013,"Nexon":14014,"notes":14015,"dacty":14016,"Around":14017,"Sebas":14018,"Tul":14019,"osau":14020,"Beng":14021,"enton":14022,"SoC":14023,"MAO":14024,"Caf":14025,"Bot":14026,"Pac":14027,"Papa":14028,"sode":14029,"solute":14030,"Wee":14031,"HDMI":14032,"Bab":14033,"SSH":14034,"alization":14035,"1.59":14036,"Ricky":14037,"DVB":14038,"endl":14039,"ASIA":14040,"Bugs":14041,"graci":14042,"Timothy":14043,"IVA":14044,"à¸ļ":14045,"Encyclo":14046,"crown":14047,"AIBA":14048,"USGS":14049,"Things":14050,"Doc":14051,"gnat":14052,"Networks":14053,"Schmidt":14054,"Mystery":14055,"CNS":14056,"CNET":14057,"Excel":14058,"pura":14059,"Quake":14060,"Kala":14061,"4.13":14062,"Rud":14063,"IAST":14064,"TEA":14065,"DRM":14066,"Koh":14067,"Corner":14068,"nerf":14069,"Hugh":14070,"Pub":14071,"flights":14072,"SPO":14073,"RTM":14074,"DOM":14075,"GP2":14076,"Complete":14077,"LOV":14078,"BEA":14079,"PPA":14080,"minton":14081,"Orche":14082,"Greene":14083,"CLUB":14084,"Berlin":14085,"Ful":14086,"anov":14087,"Chess":14088,"guez":14089,"predi":14090,"GOOD":14091,"GNZ48":14092,"CSX":14093,"enable":14094,"parte":14095,"ABP":14096,"PLAY":14097,"onale":14098,"Vector":14099,"SQU":14100,"Kings":14101,"Fritz":14102,"Christine":14103,"Upper":14104,"garh":14105,"placed":14106,"Civil":14107,"EF52":14108,"Chapter":14109,"announced":14110,"Centro":14111,"Minor":14112,"published":14113,"Telecom":14114,"Choco":14115,"ChoCo":14116,"league":14117,"6.09":14118,"Bella":14119,"shaw":14120,"BUG":14121,"Crime":14122,"PDW":14123,"âī¡":14124,"á¹ĥ":14125,"Strate":14126,"COMIC":14127,"Million":14128,"âĳ¢":14129,"VVV":14130,"Imperial":14131,"PTFE":14132,"Small":14133,"Beats":14134,"flag":14135,"Electro":14136,"Frog":14137,"FINA":14138,"Alter":14139,"Kirara":14140,"SONY":14141,"Artist":14142,"1080p":14143,"Spirits":14144,"Storage":14145,"Eastern":14146,"Jessica":14147,"Laurent":14148,"Namco":14149,"write":14150,"CITY":14151,"CITES":14152,"Bauer":14153,"BugBug":14154,"xcb":14155,"CRH5A":14156,"Albums":14157,"MEDLINE":14158,"Brooks":14159,"variable":14160,"CONCERT":14161,"GIRLS":14162,"aespa":14163,"education":14164,"ìŀĲ":14165,"kirche":14166,"Cheems":14167,"Schiff":14168,"CR300AF":14169,"E9E9":14170,"Gallery":14171,"therapy":14172,"plotlib":14173,"Property":14174,"received":14175,"Believe":14176,"Leadership":14177,"Libreboot":14178,"Shirley":14179,"including":14180,"bacterium":14181,"Elliott":14182,"SUMMER":14183,"geometry":14184,"COUNTDOWN":14185,"Ultimate":14186,"ìĬ¤":14187,"symbol":14188,"ENGINE":14189,"Guinness":14190,"MCBMSP":14191,"Phenom":14192,"ì£¼":14193,"ð«Ľļ":14194,"HAPPY":14195,"WhatsApp":14196,"Kyiv":14197,"NVSRAM":14198,"075":14199,"057":14200,"051":14201,"074":14202,"1da":14203,"2H":14204,"2250":14205,"2GB":14206,"3B":14207,"4.3%":14208,"5.5%":14209,"6300":14210,"8600":14211,"8.4%":14212,"Af":14213,"Awe":14214,"Ain":14215,"Alo":14216,"Avery":14217,"Adult":14218,"Bound":14219,"CTC":14220,"CRO":14221,"Crow":14222,"Dil":14223,"D32":14224,"DAC":14225,"DIC":14226,"Dana":14227,"Eun":14228,"Esta":14229,"E130":14230,"EPS":14231,"Evo":14232,"Fau":14233,"FBC":14234,"FVP":14235,"Ging":14236,"Gly":14237,"Gent":14238,"HAL":14239,"HMC":14240,"HALL":14241,"IWI":14242,"JAS":14243,"Kao":14244,"Kwan":14245,"Kfz":14246,"LCS":14247,"M50":14248,"MAM":14249,"Mani":14250,"MRS":14251,"Mama":14252,"NZ":14253,"NDS":14254,"Nina":14255,"NSC":14256,"Nero":14257,"O5":14258,"Om":14259,"Ola":14260,"OUR":14261,"P6":14262,"PZ":14263,"Pf":14264,"Ping":14265,"PTS":14266,"Please":14267,"PTCH":14268,"Rene":14269,"Se2":14270,"Sas":14271,"SPS":14272,"TJ":14273,"TON":14274,"Tari":14275,"Tsing":14276,"TASC":14277,"UZ":14278,"USM":14279,"Von":14280,"VAD":14281,"Wig":14282,"XSD":14283,"Yer":14284,"Zach":14285,"ZARD":14286,"aq":14287,"award":14288,"b1":14289,"bt":14290,"cit":14291,"clas":14292,"cens":14293,"eX":14294,"gow":14295,"ggle":14296,"hoo":14297,"hart":14298,"held":14299,"iHeart":14300,"kJ":14301,"kl":14302,"kil":14303,"nei3":14304,"nana":14305,"oph":14306,"pton":14307,"pler":14308,"phus":14309,"swa":14310,"ume":14311,"vn":14312,"wers":14313,"why":14314,"yy":14315,"yas":14316,"Ãĩ":14317,"Ãľ":14318,"Îł":14319,"Ð¤":14320,"ÐĹ":14321,"ÑĬ":14322,"Ñį":14323,"×Ķ":14324,"à¶":14325,"ëĵ":14326,"ìĻ":14327,"íĻ":14328,"shin":14329,"short":14330,"deg":14331,"chts":14332,"yo1":14333,"hut":14334,"lind":14335,"lipp":14336,"little":14337,"mimi":14338,"mira":14339,"mies":14340,"mill":14341,"bind":14342,"gur":14343,"dino":14344,"leter":14345,"2046":14346,"tista":14347,"tilla":14348,"ticus":14349,"19.3":14350,"bolt":14351,"due":14352,"sui":14353,"mobile":14354,"nii":14355,"10W":14356,"1045":14357,"18F":14358,"18.4":14359,"1289":14360,"1296":14361,"1281":14362,"lub":14363,"11.0":14364,"1151":14365,"tun4":14366,"tula":14367,"turing":14368,"orf":14369,"lated":14370,"1354":14371,"ined":14372,"gedit":14373,"24.8":14374,"album":14375,"23.3":14376,"reli":14377,"release":14378,"remove":14379,"2222":14380,"50.8":14381,"rise":14382,"rica":14383,"29.8":14384,"rah":14385,"rak":14386,"rain":14387,"rail":14388,"40.5":14389,"ãĥ¦":14390,"sector":14391,"100.":14392,"0.31":14393,"0.96":14394,"food":14395,"coding":14396,"1.39":14397,"1.64":14398,"1.41":14399,"1.79":14400,"1.81":14401,"1.7%":14402,"2.20":14403,"2.13":14404,"2.40":14405,"2.44":14406,"2.67":14407,"2.93":14408,"2.3%":14409,"loa":14410,"logo":14411,"etch":14412,"toon":14413,"INET":14414,"INAH":14415,"3.41":14416,"3.61":14417,"3.63":14418,"3.05":14419,"vehicle":14420,"Madi":14421,"Material":14422,"Inside":14423,"64BM":14424,"belie":14425,"becca":14426,"Theater":14427,"Coon":14428,"Coco":14429,"nati":14430,"cie":14431,"baum":14432,"cated":14433,".62%":14434,"Lim":14435,"Liu":14436,"Miles":14437,"Marvel":14438,"derson":14439,"BCI":14440,"Levi":14441,"53K":14442,"Movi":14443,"Mother":14444,"Movement":14445,"Viktor":14446,"mania":14447,"Joan":14448,"conds":14449,"page":14450,"daf":14451,"Stat":14452,"Secure":14453,"Seasons":14454,"Rapid":14455,"Rahman":14456,"nung":14457,"Being":14458,"opsis":14459,"ICEF":14460,"Save":14461,"sons":14462,"Solutions":14463,"Sumo":14464,"Faculty":14465,"route":14466,"Catherine":14467,"Nata":14468,"Naval":14469,"hide":14470,"Much":14471,"Ans":14472,"ITER":14473,"comb":14474,"chei":14475,"byte":14476,"iller":14477,"illon":14478,"said":14479,"SMN":14480,"Hae":14481,"kawas":14482,"kawaii":14483,"Tibet":14484,"à¸ķ":14485,"mmar":14486,"Nigel":14487,"BLO":14488,"BLITZ":14489,"2.52":14490,"2.58":14491,"Pete":14492,"MPA":14493,"AIK":14494,"anthus":14495,"porter":14496,"Thing":14497,"Scha":14498,"KiH":14499,"KiRo":14500,"Node":14501,"MyVideo":14502,"CPAP":14503,"UNICEF":14504,"myces":14505,"Luc":14506,"Audition":14507,"Excell":14508,"Exhibition":14509,"Phra":14510,"NewJeans":14511,"AVN":14512,"Julian":14513,"Kappa":14514,"2.04":14515,"2.07":14516,"CCC":14517,"0.57":14518,"LEE":14519,"LEO":14520,"BOYS":14521,"Commerce":14522,"IGM":14523,"4.15":14524,"6.25":14525,"IANA":14526,"jection":14527,"zeu":14528,"Advis":14529,"BMNH":14530,"tella":14531,"OpenNIC":14532,"Koch":14533,"nette":14534,"Mona":14535,"java":14536,"à¤¯":14537,"LLM":14538,"Wadi":14539,"Bristol":14540,"orie":14541,"Giu":14542,"Giant":14543,"NH3":14544,"PPPo":14545,"minary":14546,"Trail":14547,"Tracker":14548,"VoLTE":14549,"still":14550,"CLC":14551,"SHISH":14552,"eroy":14553,"tens":14554,"trie":14555,"ãĦ¨":14556,"HCl":14557,"disc":14558,"VAX":14559,"DDK":14560,"KPL":14561,"Matter":14562,"xygen":14563,"AllMusic":14564,"Warner":14565,"party":14566,"ABBA":14567,"Webb":14568,"rations":14569,"mington":14570,"Brother":14571,"SKT":14572,"SKY":14573,"Peters":14574,"FOMA":14575,"UT1":14576,"organi":14577,"Record":14578,"Alexand":14579,"young":14580,"Shift":14581,"Shining":14582,"LTM":14583,"NEO":14584,"fried":14585,"frastructure":14586,"Richardson":14587,"Massa":14588,"Freak":14589,"Emper":14590,"Transform":14591,"varman":14592,"ìĿ¸":14593,"sortium":14594,"Cameron":14595,"Cambridge":14596,"kinson":14597,"mg%":14598,"ðĲİ":14599,"Early":14600,"Gambas":14601,"CVT":14602,"Invi":14603,"Investi":14604,"à¥Ģ":14605,"HTML5":14606,"apple":14607,"Edwards":14608,"tastic":14609,"Signal":14610,"Watson":14611,"Queendo":14612,"paten":14613,"normal":14614,"DLSS":14615,"Phoeni":14616,"DMSO":14617,"Amir":14618,"Olivia":14619,"Darkness":14620,"KinKi":14621,"strel":14622,"WORD":14623,"Honor":14624,"Honoura":14625,"PBPK":14626,"Badminton":14627,"0x5":14628,"Lamb":14629,"mediate":14630,"EGFR":14631,"Half":14632,"bourne":14633,"Krish":14634,"Retro":14635,"Roll":14636,"cularia":14637,"shanensis":14638,"Economics":14639,"Nancy":14640,"Quake3":14641,"Abdullah":14642,"Leopold":14643,"Gonza":14644,"Stern":14645,"Wolfgang":14646,"window":14647,"MICH":14648,"Random":14649,"general":14650,"girls":14651,"Experience":14652,"Zhang":14653,"KiiiKiii":14654,"FREE":14655,"Fernando":14656,"LMP1":14657,"Feedly":14658,"Astrono":14659,"Paolo":14660,"B8L":14661,"à§į":14662,"Arkane":14663,"Species":14664,"square":14665,"Dangerous":14666,"Verizon":14667,"Jorge":14668,"src":14669,"required":14670,"Conservation":14671,"Thomson":14672,"Bryan":14673,"Gardner":14674,"Pitchfork":14675,"ð¨¥":14676,"Canonical":14677,"Laboratory":14678,"Boeing":14679,"IUPAC":14680,"Kabupaten":14681,"Destiny":14682,"advanced":14683,"STUDIO":14684,"Hudson":14685,"SUGOCA":14686,"matrix":14687,"Mosaic":14688,"gracilis":14689,"SHISHAMO":14690,"Queendom":14691,"Honourable":14692,".14":14693,".32":14694,"064":14695,"063":14696,"089":14697,"072":14698,"1s":14699,"2187":14700,"3E":14701,"4S":14702,"4th":14703,"6.5%":14704,"6.9%":14705,"6LX":14706,"7.1%":14707,"Amo":14708,"Amp":14709,"Aya":14710,"Att":14711,"Bark":14712,"C11":14713,"CIS":14714,"CTO":14715,"DLE":14716,"DIG":14717,"D3D":14718,"Ei":14719,"Et":14720,"Era":14721,"EAN":14722,"Edit":14723,"ESET":14724,"Fel":14725,"FIS":14726,"FSS":14727,"GX":14728,"Gone":14729,"Gara":14730,"H7":14731,"HTV":14732,"Hak":14733,"Hass":14734,"Hoff":14735,"Icon":14736,"IMP":14737,"Ivy":14738,"Jig":14739,"KY":14740,"KAT":14741,"Kaki":14742,"Ln":14743,"LIT":14744,"LTR":14745,"LINK":14746,"M18":14747,"Mint":14748,"MNH":14749,"Mass":14750,"Nin":14751,"Nine":14752,"NBL":14753,"O6":14754,"O7":14755,"OX":14756,"Oil":14757,"OIC":14758,"Ohi":14759,"PIN":14760,"Pow":14761,"Pir":14762,"Pok":14763,"PUA":14764,"PUSH":14765,"Q6":14766,"QAM":14767,"RST":14768,"RAR":14769,"SJ":14770,"Sit":14771,"SMA":14772,"SIP":14773,"Ska":14774,"SBD":14775,"Tc":14776,"TGM":14777,"Tetra":14778,"Vig":14779,"VAN":14780,"Wed":14781,"WBC":14782,"XV":14783,"Z4":14784,"acade":14785,"bly":14786,"bari":14787,"bene":14788,"css":14789,"cera":14790,"dding":14791,"eBay":14792,"eMule":14793,"f3":14794,"gen2":14795,"ghan":14796,"gore":14797,"gold":14798,"hang":14799,"iv":14800,"iz":14801,"identi":14802,"kla":14803,"kok":14804,"kker":14805,"know":14806,"lou":14807,"mals":14808,"nders":14809,"och":14810,"plu":14811,"pseudo":14812,"r4":14813,"rina":14814,"sq":14815,"tRNA":14816,"vu":14817,"vus":14818,"wx":14819,"winter":14820,"wski":14821,"x64":14822,"yr":14823,"yx":14824,"zers":14825,"Åĵ":14826,"ÊĤ":14827,"Ìį":14828,"Ñİ":14829,"à·":14830,"àº":14831,"â¾":14832,"ë©":14833,"ëĬ":14834,"ngle":14835,"anto":14836,"antha":14837,"sham":14838,"shine":14839,"shot":14840,"deter":14841,"deus":14842,"ention":14843,"uous":14844,"yone":14845,"yout":14846,"lii":14847,"lie3":14848,"lima":14849,"libre":14850,"pina":14851,"sume":14852,"1029":14853,"1038":14854,"1064":14855,"1041":14856,"1052":14857,"1074":14858,"1092":14859,"mension":14860,"quency":14861,"18.2":14862,"11Z":14863,"1165":14864,"1144":14865,"11.4%":14866,"11.7%":14867,"pong":14868,"pomo":14869,"16.9":14870,"lazy":14871,"arin":14872,"1318":14873,"1311":14874,"inha":14875,"mura":14876,"stay":14877,"21.7":14878,"23.7":14879,"23.2":14880,"resi":14881,"recur":14882,"recogni":14883,"22.9":14884,"22.1":14885,"mela":14886,"ï¼£":14887,"ï¼¯":14888,"ï¼ĸ":14889,"29.5":14890,"siw":14891,"seseo":14892,"100km":14893,"ãģ¼":14894,"cope":14895,"coming":14896,"copy":14897,"1.10":14898,"1.34":14899,"1.98":14900,"1.89":14901,"1.85":14902,"1.86":14903,"1.96":14904,"2.10":14905,"2.70":14906,"2.48":14907,"2.42":14908,"2.61":14909,"2.73":14910,"lose":14911,"andler":14912,"cko":14913,"etc":14914,"3750":14915,"tom":14916,"token":14917,"3.11":14918,"3.99":14919,"3.76":14920,"3.3%":14921,"asse":14922,"asana":14923,"owa":14924,"Mae":14925,"Mash":14926,"Mada":14927,"Machi":14928,"Macross":14929,"Chel":14930,"Chance":14931,"STO":14932,"Int":14933,"64GB":14934,"Reve":14935,"Release":14936,"Rebecca":14937,".09%":14938,"cion":14939,"ciple":14940,"cident":14941,"bag":14942,"vii":14943,"pez":14944,"pect":14945,"peak":14946,"59A":14947,"Rome":14948,"Rogue":14949,"phia":14950,"Listen":14951,"Mexi":14952,"Desi":14953,"Depu":14954,"7700":14955,"persky":14956,"Lecture":14957,"BAD":14958,"BAND":14959,"COR":14960,"Vice":14961,"AMN":14962,"ARIN":14963,"note":14964,"Ars":14965,"Argen":14966,"Sey":14967,"Seat":14968,"Selection":14969,"gaard":14970,"five":14971,"Laz":14972,"Label":14973,"Sav":14974,"Lot":14975,"Som":14976,"Sock":14977,"Solid":14978,"Sobol":14979,"Supre":14980,"Sumade":14981,"Daw":14982,"Fame":14983,"Fabri":14984,"dog":14985,"Diver":14986,"Capri":14987,"Casio":14988,"hain":14989,"pply":14990,"mera":14991,"holo":14992,"Bach":14993,"satellite":14994,"Rising":14995,"SMS":14996,"PCB":14997,"Heat":14998,"Hash":14999,"Configuration":15000,"ETA":15001,"Tales":15002,"ECS":15003,"MSN":15004,"Steel":15005,"MPLS":15006,"Toys":15007,"yava":15008,"Pick":15009,"Threads":15010,"Doherty":15011,"Formosa":15012,"REFL":15013,"problem":15014,"Cars":15015,"Schwei":15016,"Novel":15017,"Exping":15018,"CH4":15019,"TAIN":15020,"Kaz":15021,"2.0%":15022,"0.56":15023,"BOY":15024,"Competi":15025,"ADD":15026,"ADL":15027,"Guilla":15028,"6.28":15029,"ESB":15030,"rond":15031,"1186":15032,"OpenCritic":15033,"3.5%":15034,"3.54":15035,"ATP500":15036,"ATP250":15037,"Koha":15038,"linear":15039,"loway":15040,"gher":15041,"Hugo":15042,"Monta":15043,"Stur":15044,"à¤Ĺ":15045,"dys":15046,"Wales":15047,"Britain":15048,"Mano":15049,"veland":15050,"primary":15051,"Harmo":15052,"CESS":15053,"NH4":15054,"NHMUK":15055,"PPD":15056,"SCSI":15057,"blio":15058,"Graf":15059,"Orni":15060,"Tram":15061,"Davichi":15062,"128GB":15063,"strate":15064,"POW":15065,"Cheer":15066,"triple":15067,"Donut":15068,"5.55":15069,"Walking":15070,"RC5":15071,"Portu":15072,"Airlines":15073,"IRAL":15074,"MGH":15075,"Benz":15076,"Hyde":15077,"MBT":15078,"Bloom":15079,"TPU":15080,"Friday":15081,"Product":15082,"Pattab":15083,"Cider":15084,"Technical":15085,"Cevio":15086,"Garcia":15087,"Teresa":15088,"ifconfig":15089,"issan":15090,"spacecraft":15091,"WinWin":15092,"Alexa":15093,"SF2":15094,"B2B":15095,"companies":15096,"BRB":15097,"signs":15098,"signal":15099,"borg":15100,"PASS":15101,"Goodbye":15102,"CTU":15103,"GTK":15104,"Foster":15105,"Focus":15106,"PRISM":15107,"dinary":15108,"frac":15109,"Turn":15110,"shape":15111,"Boris":15112,"cillus":15113,"VRDK":15114,"Galli":15115,"Respon":15116,"MUD":15117,"Scope":15118,"khof":15119,"áĢ¯":15120,"surface":15121,"joy":15122,"Shaw":15123,"union":15124,"á¹ĩ":15125,"JTB":15126,"SHOCK":15127,"Watcha":15128,"âĭħ":15129,"Overture":15130,"hrer":15131,"ddle":15132,"Dollar":15133,"castle":15134,"hello":15135,"Arab":15136,"CBT":15137,"IBNS":15138,"charge":15139,"techni":15140,"Router":15141,"Hunt":15142,"Communication":15143,"Since":15144,"Township":15145,"study":15146,"PostScript":15147,"Baseball":15148,"Dynamic":15149,"Allison":15150,"Jersey":15151,"Thank":15152,"Better":15153,"terature":15154,"Seventeen":15155,"templatestyles":15156,"exten":15157,"Roland":15158,"Shuttle":15159,"polymer":15160,"production":15161,"defeating":15162,"scienti":15163,"Dinosa":15164,"Gott":15165,"Heinz":15166,"engine":15167,"ìĦ±":15168,"became":15169,"âĬĨ":15170,"Editor":15171,"XYZ":15172,"Electronics":15173,"Ayyava":15174,"Infant":15175,"Regular":15176,"Lynn":15177,"Majlis":15178,"Cherry":15179,"sequence":15180,"Kaspersky":15181,"Pearson":15182,"Oreo":15183,"ITZY":15184,"xmlns":15185,"Certified":15186,"êµŃ":15187,"Pelkey":15188,"component":15189,"effect":15190,"font":15191,"fascia":15192,"Lilith":15193,"Pulse":15194,"Reserve":15195,"Trouble":15196,"November":15197,"Administration":15198,"japonica":15199,"YONEX":15200,"Zimmer":15201,"formosana":15202,"Columbia":15203,"Enrique":15204,"Derek":15205,"flora":15206,"ï»¿":15207,"Amend":15208,"CR200J":15209,"Elisabeth":15210,"SHOOTER":15211,"Jakob":15212,"Sydney":15213,"SPECIAL":15214,"gnathus":15215,"Orchestra":15216,"Coonley":15217,"Pattabhi":15218,".17":15219,".2016":15220,".2012":15221,".33":15222,".42":15223,"068":15224,"071":15225,"1C":15226,"2P":15227,"33.6":15228,"4100":15229,"4.2%":15230,"5.2%":15231,"7300":15232,"7.6%":15233,"70.3":15234,"8400":15235,"8.7%":15236,"9.8%":15237,"Ach":15238,"Asa":15239,"ASM":15240,"Bere":15241,"BPM":15242,"Brun":15243,"Brough":15244,"Cd":15245,"C17":15246,"C24":15247,"CSA":15248,"Cun":15249,"Cari":15250,"D8":15251,"DTC":15252,"DAN":15253,"Dod":15254,"DBE":15255,"Drum":15256,"Doro":15257,"EH":15258,"Emo":15259,"Ela":15260,"Eight":15261,"EWS":15262,"FNA":15263,"FAR":15264,"Foun":15265,"Gan":15266,"G41":15267,"Glor":15268,"Hf":15269,"Hr":15270,"Hof":15271,"HIP":15272,"HSS":15273,"Hari":15274,"Hook":15275,"Iterator":15276,"JED":15277,"Kt":15278,"Kro":15279,"KST":15280,"Kry":15281,"KAN":15282,"K101":15283,"Kane":15284,"Klaus":15285,"L3":15286,"LAC":15287,"Lance":15288,"Lens":15289,"MQ":15290,"Mt":15291,"MAP":15292,"MER":15293,"MSM":15294,"M1917":15295,"MTA":15296,"Mental":15297,"Ngu":15298,"Nc3":15299,"Oz":15300,"RJ":15301,"R11":15302,"Rel":15303,"Rum":15304,"REC":15305,"Rous":15306,"Sed":15307,"Seri":15308,"SWE":15309,"Try":15310,"TWh":15311,"T3A":15312,"TLS":15313,"TUNES":15314,"Um":15315,"Utri":15316,"V60":15317,"VIA":15318,"Vera":15319,"Witch":15320,"WASP":15321,"X3":15322,"YY":15323,"Z3":15324,"ZF":15325,"aver":15326,"b8":15327,"bbe":15328,"dark":15329,"dora":15330,"egel":15331,"fau":15332,"gay":15333,"gwick":15334,"hlen":15335,"ip":15336,"imi":15337,"itu":15338,"iKON":15339,"kN":15340,"kos":15341,"kine":15342,"nter":15343,"nat":15344,"nya":15345,"oi":15346,"ocy":15347,"sound":15348,"txt":15349,"v3":15350,"vot":15351,"wc":15352,"yama":15353,"zons":15354,"Â¹":15355,"Âº":15356,"Å½":15357,"Ð¦":15358,"Õµ":15359,"shall":15360,"xie":15361,"dend":15362,"development":15363,"develo":15364,"enig":15365,"ening":15366,"enia":15367,"hum":15368,"lift":15369,"miRNA":15370,"bill":15371,"gua":15372,"gung":15373,"dich":15374,"died":15375,"lepis":15376,"2036":15377,"piter":15378,"pilot":15379,"tili":15380,"tiva":15381,"tienne":15382,"19.4":15383,"bone":15384,"duk":15385,"suit":15386,"suchus":15387,"moi":15388,"mole":15389,"moon":15390,"nine":15391,"10th":15392,"1026":15393,"1079":15394,"1082":15395,"12.0":15396,"1269":15397,"lund":15398,"1159":15399,"1163":15400,"pod":15401,"pou":15402,"tually":15403,"orang":15404,"16.1":15405,"16.4":15406,"lag":15407,"lago":15408,"17.2":15409,"aring":15410,"1463":15411,"30.9":15412,"1342":15413,"inson":15414,"geo":15415,"forming":15416,"alter":15417,"stop":15418,"stler":15419,"21.6":15420,"21.4":15421,"23.8":15422,"23.6":15423,"threads":15424,"retrie":15425,"26.8":15426,"26.3":15427,"ricum":15428,"ï¼ĺ":15429,"zum":15430,"zur":15431,"sid":15432,"sip":15433,"sien":15434,"sini":15435,"racy":15436,"sei":15437,"seda":15438,"ambi":15439,"tate":15440,"tact":15441,"ãģľ":15442,"mau":15443,"mach":15444,"mata":15445,"macula":15446,"1.31":15447,"1.94":15448,"35.5":15449,"nee":15450,"2.00":15451,"2.22":15452,"2.32":15453,"2.64":15454,"2.76":15455,"2.95":15456,"2.94":15457,"illu":15458,"illy":15459,"theorem":15460,"attribu":15461,"atops":15462,"ckle":15463,"etz":15464,"3.36":15465,"3.88":15466,"3.09":15467,"Male":15468,"Insurance":15469,"began":15470,".87%":15471,"Their":15472,"Copy":15473,"Reid":15474,"Reality":15475,"nap":15476,"naya":15477,"ads":15478,"adows":15479,"bry":15480,".04%":15481,".74%":15482,"ndy":15483,"6700":15484,"vidence":15485,"cali":15486,".61%":15487,"ATV":15488,"uron":15489,"41.5":15490,"auts":15491,"56.5":15492,"Meet":15493,"Method":15494,"Deck":15495,"NAVER":15496,"Mikha":15497,"Martha":15498,"OSD":15499,"OSPF":15500,"Alb":15501,"Allo":15502,"types":15503,"Leary":15504,"53E":15505,"Moment":15506,"Monica":15507,"Motif":15508,"Vivi":15509,"ryso":15510,"pag":15511,"dacity":15512,"Rag":15513,"ISN":15514,"filt":15515,"EDITION":15516,"Jaguar":15517,"Beth":15518,"Beit":15519,"Saw":15520,"Lowe":15521,"Fast":15522,"does":15523,"Cath":15524,"Cata":15525,"Naz":15526,"Natura":15527,"ANT":15528,"Boston":15529,"mero":15530,"hong":15531,"gian":15532,"gift":15533,"soci":15534,"Wein":15535,"Sisters":15536,"wire":15537,"steri":15538,"ffen":15539,"1306":15540,"SMART":15541,"Hav":15542,"Contra":15543,"Contents":15544,"Consortium":15545,"Bukit":15546,"Tian":15547,"feel":15548,"Taku":15549,"à¸«":15550,"Peer":15551,"Stella":15552,"Tools":15553,"Tomorrow":15554,"Words":15555,"Domen":15556,"Does":15557,"Schlatt":15558,"No.1":15559,"Novo":15560,"Mys":15561,"UNIVER":15562,"FCS":15563,"âĦ¢":15564,"Authority":15565,"Audacity":15566,"Phar":15567,"CHI":15568,"ount":15569,"MORE":15570,"MOVE":15571,"kova":15572,"MIM":15573,"SOV":15574,"SOUND":15575,"LESS":15576,"4.22":15577,"4.36":15578,"cyto":15579,"6.22":15580,"6.27":15581,"6.75":15582,"6.32":15583,"Fear":15584,"TEU":15585,"Adolf":15586,"1182":15587,"DAHL":15588,"OpenCL":15589,"OpenSolaris":15590,"HOY":15591,"ATP1000":15592,"Kecamatan":15593,"Kepler":15594,"Hung":15595,"jah":15596,"à¤ķ":15597,"NOC":15598,"Durate":15599,"Dutch":15600,"EXE":15601,"MLS":15602,"DOME":15603,"Jeep":15604,"MacBook":15605,"Edgar":15606,"Willis":15607,"turns":15608,"Gian":15609,"Grade":15610,"Gravity":15611,"sert":15612,"Orien":15613,"quez":15614,"quest":15615,"GameSpy":15616,"GameRankings":15617,"Berkhof":15618,"Mora":15619,"another":15620,"senschaft":15621,"mbar":15622,"McKen":15623,"5.54":15624,"WTA250":15625,"HCV":15626,"Whis":15627,"AFS":15628,"AFT":15629,"Matrix":15630,"cargo":15631,"AllStar":15632,"Canyon":15633,"MG34":15634,"Engel":15635,"Henderson":15636,"Hypo":15637,"Bloo":15638,"TPMT":15639,"astrome":15640,"crete":15641,"Christi":15642,"Eleanor":15643,"ganis":15644,"RAID":15645,"HIRO":15646,"CASE":15647,"256GB":15648,"M2A4":15649,"ð«Ħ":15650,"ð«ĵ":15651,"Angular":15652,"GMT":15653,"speed":15654,"Torre":15655,"Burger":15656,"Burns":15657,"Singles":15658,"Officer":15659,"Gerard":15660,"Prada":15661,"Chong":15662,"PRIN":15663,"2186":15664,"Borland":15665,"Criminal":15666,"XPCOM":15667,"VMware":15668,"Penn":15669,"subject":15670,"Zion":15671,"Janus":15672,"Fraser":15673,"Philips":15674,"Birds":15675,"GRAIL":15676,"CVS":15677,"Ballad":15678,"better":15679,"hurst":15680,"Lancer":15681,"Polygon":15682,"Capcon":15683,"Curry":15684,"Currie":15685,"pression":15686,"Jenkins":15687,"Climate":15688,"Denis":15689,"patch":15690,"transport":15691,"Circuit":15692,"Close":15693,"help":15694,"Political":15695,"featuring":15696,"Nicole":15697,"Cosmic":15698,"Setting":15699,"minate":15700,"Coup":15701,"Kinder":15702,"Distribution":15703,"Augus":15704,"ðĲŃł":15705,"aceae":15706,"plane":15707,"Duncan":15708,"85512":15709,"Clarke":15710,"Message":15711,"folk":15712,"Montju":15713,"Medal":15714,"PCIe":15715,"Varia":15716,"Somewhere":15717,"RBW":15718,"TestB":15719,"Memories":15720,"Basin":15721,"Killer":15722,"Applications":15723,"Jesse":15724,"Erik":15725,"Liberty":15726,"Liberation":15727,"Dallas":15728,"Neuro":15729,"Linda":15730,"RSASS":15731,"Kurt":15732,"Sharon":15733,"CAPCOM":15734,"SocketFD":15735,"âĬĹ":15736,"capsu":15737,"Sidney":15738,"finition":15739,"hydroxy":15740,"Isaac":15741,"Simmons":15742,"Numbers":15743,"Task":15744,"gged":15745,"ê¸Ģ":15746,"Delicious":15747,"Radical":15748,"Assault":15749,"Adela":15750,"ìĺ¤":15751,"MOMOLAND":15752,"measure":15753,"Indiana":15754,"Historical":15755,"Fischer":15756,"ìĸ´":15757,"Commander":15758,"Glory":15759,"Warriors":15760,"Physics":15761,"associa":15762,"Environment":15763,"Lorenzo":15764,"HOLBORN":15765,"SINGLE":15766,"Mohammed":15767,"Celebri":15768,"Character":15769,"physical":15770,"Giacomo":15771,"MIDI":15772,"coordinates":15773,"Baptiste":15774,"Nichol":15775,"Spoonz":15776,"TOGAF":15777,"ENTERTAIN":15778,"ARTSVISION":15779,"butyricum":15780,"Voyage":15781,"ë¡ľ":15782,"Figure":15783,"Audrey":15784,"Mohamed":15785,"Gentle":15786,"swap":15787,"PPPoE":15788,"Emperor":15789,"Deputy":15790,"REFLECTION":15791,"Ayyavazhi":15792,"Utricularia":15793,"DAHLIA":15794,"Duratec":15795,"ENTERTAINMENT":15796,".2021":15797,".2009":15798,"038":15799,"095":15800,"0641":15801,"1188":15802,"2185":15803,"2H2O":15804,"4GB":15805,"4.7%":15806,"5.3%":15807,"5.1%":15808,"6.2%":15809,"7R":15810,"7.9%":15811,"8.5%":15812,"9.9%":15813,"A27":15814,"Abe":15815,"ASA":15816,"ABL":15817,"Asy":15818,"AWS":15819,"ADSL":15820,"Amuse":15821,"Buo":15822,"Bard":15823,"BMA":15824,"Bha":15825,"BTO":15826,"BTS":15827,"Bass":15828,"Bhd":15829,"CTV":15830,"Cly":15831,"CEN":15832,"Cald":15833,"DBC":15834,"Droid":15835,"DNF":15836,"EW":15837,"Eh":15838,"E40":15839,"Ene":15840,"Emp":15841,"Evil":15842,"Fig":15843,"Fara":15844,"Fant":15845,"Fans":15846,"FPGA":15847,"Gb":15848,"Gao":15849,"GMP":15850,"Gbit":15851,"H14":15852,"Hend":15853,"Hmm":15854,"Heri":15855,"Hold":15856,"HMG":15857,"Hits":15858,"HONG":15859,"Ib":15860,"Iran":15861,"IMS":15862,"Item":15863,"Jero":15864,"Jess":15865,"JECT":15866,"K5":15867,"K7":15868,"K8":15869,"K15":15870,"Kau":15871,"Knu":15872,"KAI":15873,"KBE":15874,"K232":15875,"K308":15876,"KISS":15877,"LLE":15878,"Lys":15879,"Lunch":15880,"M1911":15881,"MCP":15882,"MISL":15883,"NII":15884,"Nvi":15885,"Nau":15886,"ORO":15887,"OCP":15888,"Pv":15889,"P15":15890,"Pis":15891,"PME":15892,"Pren":15893,"PABP":15894,"RL":15895,"RIF":15896,"Rama":15897,"RPM":15898,"SIX":15899,"Sally":15900,"Slate":15901,"SATA":15902,"Slot":15903,"Till":15904,"TMS":15905,"VJ":15906,"Vau":15907,"W52":15908,"WAP":15909,"Wake":15910,"Wendy":15911,"WITH":15912,"YR":15913,"Yao":15914,"Yar":15915,"Yum":15916,"YLE":15917,"Zr":15918,"bao":15919,"bling":15920,"cv":15921,"clay":15922,"cari":15923,"cena":15924,"dana":15925,"dance":15926,"ec":15927,"eva":15928,"eye":15929,"fru":15930,"fine":15931,"gine":15932,"gby":15933,"gory":15934,"ggy":15935,"hour":15936,"kw":15937,"kam":15938,"kau":15939,"mba":15940,"mari":15941,"pou2":15942,"ptive":15943,"rhyth":15944,"tone":15945,"vani":15946,"wild":15947,"yen":15948,"yar":15949,"zd":15950,"Ãĺ":15951,"Ãŀ":15952,"Å©":15953,"ÆĴ":15954,"Ê»":15955,"ÎŁ":15956,"Ð§":15957,"ÖĢ":15958,"à¾":15959,"âķ":15960,"ì°":15961,"ð¥":15962,"ngensis":15963,"demon":15964,"deuts":15965,"cha3":15966,"chka":15967,"lite":15968,"mith":15969,"qiang4":15970,"err":15971,"wes":15972,"leg":15973,"20.6":15974,"20.2":15975,"jum":15976,"pipe":15977,"tiz":15978,"tino":15979,"tika":15980,"tisti":15981,"dua":15982,"dula":15983,"mori":15984,"kup":15985,"lves":15986,"1043":15987,"1081":15988,"10.3%":15989,"quir":15990,"18.6":15991,"12.1%":15992,"12.2%":15993,"cult":15994,"1153":15995,"11.5%":15996,"11.2%":15997,"porium":15998,"turi":15999,"ores":16000,"labo":16001,"lato":16002,"lava":16003,"30.3":16004,"30.4":16005,"1319":16006,"1315":16007,"geme":16008,"25.2":16009,"fora":16010,"formis":16011,"mut":16012,"stral":16013,"2350":16014,"mulator":16015,"28.8":16016,"28.9":16017,"thra":16018,"think":16019,"rection":16020,"means":16021,"ousen":16022,"rill":16023,"ï¼Ķ":16024,"0002":16025,"tei":16026,"tet":16027,"teach":16028,"raw":16029,"security":16030,"several":16031,"100.00%":16032,"0.9%":16033,"colum":16034,"elsen":16035,"mated":16036,"magazine":16037,"35.6":16038,"2.16":16039,"2.21":16040,"2.90":16041,"2.98":16042,"2.85":16043,"terson":16044,"terms":16045,"thesis":16046,"hee":16047,"atory":16048,"3.20":16049,"3.25":16050,"3.22":16051,"3.27":16052,"3.46":16053,"3.86":16054,"3.82":16055,"3.83":16056,"3.08":16057,"3.03":16058,"34.5":16059,"34.7":16060,"oly":16061,"32GB":16062,"Inspi":16063,"beau":16064,".82%":16065,".84%":16066,"SECL":16067,"Comi":16068,"Covid":16069,"4900":16070,"Revo":16071,"Replay":16072,"nad":16073,"nate":16074,"names":16075,"adal":16076,"ndo":16077,"baba":16078,"3001":16079,"pee":16080,"peta":16081,"Rovio":16082,"Rozas":16083,"php":16084,"phon":16085,"indo":16086,"Liz":16087,"Lips":16088,"Dec":16089,"Devi":16090,"Mich":16091,"Marina":16092,"Marcel":16093,"ï½¡":16094,"BCR":16095,"BASE":16096,"tsa":16097,"Motion":16098,"Molina":16099,"Viet":16100,"Viva":16101,"AMI":16102,"Joa":16103,"Jong":16104,"BSP":16105,"Process":16106,"Proleague":16107,"7600":16108,"concer":16109,"paid":16110,"dation":16111,"Arms":16112,"ACK":16113,"Sect":16114,"Season":16115,"vain":16116,"fia":16117,"Bei":16118,"Beast":16119,"ently":16120,"80000":16121,"Laf":16122,"Lala":16123,"Sale":16124,"Sainte":16125,"9700":16126,"Date":16127,"Father":16128,"dot":16129,"docomo":16130,"Dior":16131,"Divi":16132,"Nagar":16133,"bull":16134,"ppel":16135,"ANY":16136,"mere":16137,"Annie":16138,"Papi":16139,"soli":16140,"sola":16141,"social":16142,"Size":16143,"SiO2":16144,"SSB":16145,"ITED":16146,"bytes":16147,"1.56":16148,"saf":16149,"SMG":16150,"Heyo":16151,"endra":16152,"Constru":16153,"Connor":16154,"Conrad":16155,"Wish":16156,"Buenos":16157,"Bureau":16158,"shima":16159,"Gecko":16160,"à¸Ĺ":16161,"ALn":16162,"HKU":16163,"Enum":16164,"2.57":16165,"MPK":16166,"Toon":16167,"goni":16168,"Pom":16169,"gner":16170,"Carver":16171,"Kiev":16172,"MySpace":16173,"Myself":16174,"vention":16175,"wagen":16176,"Auth":16177,"External":16178,"push":16179,"puri":16180,"Newrite":16181,"Quest":16182,"MOA":16183,"kovi":16184,"SOA":16185,"SOFT":16186,"Commu":16187,"IGP":16188,"4.19":16189,"4.26":16190,"cribed":16191,"Colon":16192,"6.12":16193,"6.30":16194,"6.26":16195,"DC600V":16196,"ESI":16197,"DRS":16198,"OpenEXR":16199,"tinction":16200,"MCU":16201,"cluster":16202,"Corn":16203,"Monster":16204,"gery":16205,"lask":16206,"lastic":16207,"RTS":16208,"Santi":16209,"orial":16210,"DOALA":16211,"HEY":16212,"HEART":16213,"beginning":16214,"turer":16215,"BEV":16216,"BEAT":16217,"minster":16218,"MDB":16219,"Gram":16220,"Tracy":16221,"Vox":16222,"CLAN":16223,"Morph":16224,"stria":16225,"straat":16226,"singles":16227,"McCan":16228,"Georgia":16229,"WTA500":16230,"8.75":16231,"Unter":16232,"acfun":16233,"pread":16234,"Ask":16235,"DDI":16236,"Cl3":16237,"Herzog":16238,"Porsche":16239,"Holding":16240,"Speech":16241,"Abdel":16242,"Hydra":16243,"PLANET":16244,"hyper":16245,"creation":16246,"IUAV":16247,"Plate":16248,"Frie":16249,"Elements":16250,"4.04":16251,"Atara":16252,"DFT":16253,"Garrett":16254,"Terminal":16255,"Chap":16256,"4.89":16257,"setz":16258,"adain":16259,"PowerBook":16260,"ð«Ķ":16261,"Winnie":16262,"Alphabet":16263,"VOL":16264,"SF3":16265,"SFX":16266,"Popu":16267,"Yuri":16268,"Sunny":16269,"4.74":16270,"Choerry":16271,"PRPP":16272,"Zealand":16273,"6.06":16274,"operation":16275,"Maxwell":16276,"Hannah":16277,"fully":16278,"KKA":16279,"BFG":16280,"Transformer":16281,"Siren":16282,"Museo":16283,"Shape":16284,"gress":16285,"Champions":16286,"Br2":16287,"DK1":16288,"Codex":16289,"Dylan":16290,"GR.1":16291,"GRAPH":16292,"âĳ£":16293,"period":16294,"FAT16":16295,"RPGFan":16296,"bench":16297,"____":16298,"Sigma":16299,"Paramount":16300,"CUDA":16301,"Gillian":16302,"Automatic":16303,"Jenny":16304,"Jennifer":16305,"Bond":16306,"ULAS":16307,"blog":16308,"init":16309,"AXA":16310,"Dolce":16311,"Grill":16312,"Clopin":16313,"feature":16314,"Course":16315,"technical":16316,"Murder":16317,"casting":16318,"posium":16319,"Memory":16320,"Couch":16321,"cells":16322,"elonga":16323,"FIRE":16324,"Skousen":16325,"includeonly":16326,"XC40":16327,"Marion":16328,"NIH":16329,"Toll":16330,"Betty":16331,"Between":16332,"TOKIO":16333,"Angels":16334,"Krist":16335,"Mirror":16336,"Apollo":16337,"KTX":16338,"product":16339,"QUAKE":16340,"Felipe":16341,"glise":16342,"Sterling":16343,"Africa":16344,"chinensis":16345,"Architects":16346,"electro":16347,"ð¬ĵĳ":16348,"nationale":16349,"GP40PH":16350,"Knowledge":16351,
[...]
