#version: 0.2
n g
a n
s h
z h
j i
a ng
Ġ Ġ
o ng
x i
a o
a i
d e
e i
sh i
y u
o u
y i
e n
c h
i an
u o
e ng
l i
ĠĠ Ġ
ã Ģ
i ng
u i
w ei
u an
zh i
q i
n ian
zh ong
y ou
r en
u n
z ai
d i
g uo
ãĢ ģ
h e
b u
e r
g ong
xi ng
ch eng
d a
zh u
h u
yu an
s i
ji an
yu e
g e
f u
xi an
u e
k e
w u
ch u
sh u
sh eng
ji e
ji a
b i
d ao
z i
b ei
h ui
f a
xi ang
t i
zh eng
m i
t a
ji n
q u
2 0
t ong
r i
j u
ji ng
m ing
l e
h ou
sh ang
sh ou
d ong
c i
f ang
1 9
hu a
yi n
x ue
g uan
zh an
y e
yi ng
z uo
zh e
y an
m ei
ji ao
g u
ch ang
xi n
d ui
l u
b ing
b ao
f en
d an
h uo
j un
ji ang
d u
xi ao
d ian
y ong
q ian
sh e
t ai
xi a
m u
w en
g ai
zh ang
li ang
y a
r u
d ai
h ai
n an
zh ou
z u
w ang
l ai
b an
ji u
d ang
q ing
p ing
sh en
ãĢ ĭ
ãĢ Ĭ
w an
l ian
li ng
l uo
Â ·
mi n
q uan
p i
n i
b o
d uo
t e
b en
g ao
bi ao
s uo
l a
m a
k ai
b a
xi e
x u
b ian
de ng
y ao
y ang
m ian
zh en
d ing
qi u
z ui
s ai
li u
f an
x uan
f ei
s an
sh an
ch e
z ong
m en
ãĢ Į
ãĢ į
t u
t ian
h ao
s u
l ei
n ei
yu n
20 1
l an
f eng
m o
n a
z e
l v
h an
k ou
w ai
n eng
li n
ch uan
ch i
j ue
b ai
p ai
20 0
k u
c ai
z ao
t ing
zh uan
g ang
li e
gu ang
g ui
l un
s ui
p u
c eng
k ong
sh ui
1 0
ch ao
zhu ang
ch a
d ou
c an
t ou
r an
s e
d uan
c un
h uan
c ong
pi n
c e
ch an
x un
g ou
0 0
n v
zh ao
g an
ch ong
sh a
t an
1 8
qi n
k a
m eng
qi ang
hu ang
xi u
1 2
ti ao
m an
sh ao
k uo
l ong
p ian
sh uo
t uan
t ang
r ong
g eng
20 2
ch en
t ui
g en
q ue
ti e
1 1
qi e
w o
p o
p ei
h ang
h ong
19 9
b ang
li ao
chu ang
bi e
r e
t uo
t ao
s ong
w a
m ai
h a
1 5
p an
d un
di ao
qi ao
s a
m ao
l ang
k an
k ang
â Ģ
o r
l ao
z eng
1 6
19 8
k ao
xi ong
1 7
o n
n uo
mi ao
r ang
ku ang
h en
s uan
1 4
3 0
zh un
1 3
19 4
c ao
h un
q un
n ong
19 7
h eng
shu ang
l ou
g ei
ku ai
pi ao
zh a
h ei
ni u
19 5
s en
bi n
r eng
z ou
19 6
ch un
k uan
2 5
âĢ Ķ
r ui
s un
p ao
n ing
f or
p a
c ang
m ou
2 4
p eng
hu ai
2 1
19 3
2 3
mu la
for mula
2 8
z an
r uo
i n
2 2
ch ou
zh ui
a r
m e
2 6
5 0
20 20
2 7
n ai
n u
ï ¼
2 9
sh un
201 0
z a
00 0
lv e
zh ai
20 19
n e
r o
j uan
s t
r a
c ui
k un
201 6
l uan
201 8
c uo
202 1
z ang
201 4
shu ai
201 1
201 5
201 7
201 2
4 0
201 3
n ao
202 2
di e
r uan
k ui
l t
r ou
c u
s ang
200 9
200 8
ã ĥ
6 0
ni ao
a l
r ao
ch ai
10 0
zh uo
202 3
g t
s ou
19 0
3 1
k en
200 7
200 1
t eng
p ang
f ou
c o
f o
gu a
200 0
8 0
200 6
202 4
ã ģ
200 5
z un
ti on
ku a
t he
3 5
7 0
ni e
l o
o f
9 0
l eng
ï¼ į
ã Ĥ
a m
t un
t er
mi e
200 4
t h
t o
4 5
4 8
m ang
202 5
v e
g a
ãĢ ī
ãĢ Ī
3 6
3 8
200 3
3 7
M a
ch ui
p en
l l
18 9
I N
200 2
k eng
T C
d o
3 4
7 5
âĢ ĵ
C o
4 6
c a
199 0
âĢ ¦
c k
3 9
. .
b e
6 5
3 2
S T
4 7
U TC
199 9
199 8
198 0
18 8
5 00
3 3
I n
6 4
s s
T he
v i
S E
5 5
199 7
R e
h i
4 9
I I
e l
6 8
e t
4 4
199 6
o o
qi ong
199 4
g un
b r
gu ai
199 2
199 5
M i
6 7
an d
s ao
e s
199 1
197 0
5 8
195 0
3 00
199 3
18 7
194 9
a t
A T
p e
196 0
4 2
194 5
L i
v er
qi a
198 8
t y
198 9
6 9
R o
i s
r un
SE E
ni ang
IN SEE
h o
5 9
4 3
6 6
5 7
198 5
9 9
S A
ãĢ İ
ãĢ ı
c t
198 4
4 1
8 8
198 6
w i
o l
w s
T V
r y
15 0
M e
n d
4 00
198 7
7 8
198 2
5 6
b eng
V i
P a
t s
198 3
am p
N A
D e
C D
g h
f i
w eng
b er
7 7
W in
p er
z uan
S ta
7 9
O S
W i
Â °
ï ½
de r
18 0
B C
5 4
197 9
6 1
19 20
a s
M o
s eng
9 8
5 2
Y ou
197 8
n o
6 2
5 3
l y
shu a
L a
ï½ ŀ
B A
194 6
C O
5 1
195 8
g i
J o
198 1
197 2
194 8
L e
t w
A M
6 3
A R
c tion
194 1
B S
G a
19 30
D a
P ro
T e
7 6
han s
194 0
193 7
197 6
194 4
J a
8 9
u s
D i
Win do
197 5
ï¼ ı
196 8
h k
c on
F i
u m
S i
10 00
Windo ws
9 5
8 7
na l
M ar
196 6
r d
8 5
N e
R a
k i
6 00
1 20
194 7
S e
A C
195 6
196 4
B e
194 2
Ã ©
195 5
195 2
I S
a d
193 9
193 8
7 2
u r
7 4
C a
v a
197 3
197 4
195 4
A r
A l
E D
19 00
- -
A P
194 3
T o
197 7
l d
197 1
c en
la y
196 7
B a
I C
8 00
P o
L o
E R
zhu a
s ta
8 6
195 9
B o
t t
196 5
J R
196 9
F a
ãĥ »
Ã Ĺ
I D
B i
s on
193 6
16 0
9 7
195 3
S a
M A
196 2
196 1
n en
N a
â Ķ
S o
193 5
co m
H o
ti c
9 6
O N
ï¼ ħ
195 1
S t
195 7
196 3
T u
âĶ Ģ
f e
s o
men t
8 4
H i
202 6
8 2
D o
m er
R i
7 3
n t
9 4
9 2
K i
H a
n ang
on e
I P
A N
l s
193 3
193 1
le s
7 1
n uan
Co m
8 3
9 3
te d
S u
8 1
T i
M u
19 18
N i
H D
U ni
19 28
p p
193 2
C ha
W e
y s
M V
S S
1 10
I T
19 12
N o
19 29
19 27
193 4
c n
7 00
g o
z ei
gh t
st er
25 0
9 1
r t
l li
19 24
ri s
.. .
19 19
nv e
1 30
P i
19 25
G i
P S
b y
e d
me s
A n
P C
14 0
A S
P lay
19 14
k m
D V
ti o
You Tu
S M
b le
g ra
k o
19 11
C on
C h
l la
19 26
l le
G e
P ar
i d
T a
19 22
L in
m p
19 17
H e
K a
E T
N BA
w n
I V
E N
19 23
19 21
sh ai
G oo
ch uo
17 0
à ¸
E C
M S
a li
A L
p h
se ction
YouTu be
E P
B L
19 13
C ar
B u
z en
H K
w e
h n
m m
v en
han t
â Ĩ
190 9
si on
In ter
c ro
M P
A I
W or
P e
d s
U S
p ro
DV D
o k
3 000
E n
19 10
D S
R O
c ou
S te
si s
1 12
G o
r k
A K
R E
19 16
W a
li a
ãĥ ¼
Sta tion
F or
N et
f f
Î ±
of t
in e
de n
l or
re a
tio nal
g n
tu re
g le
C P
U N
â Ī
ar d
19 15
g in
190 5
p s
F C
c al
v o
di a
M y
C N
â Ħ
âĨ Ĵ
ou r
er s
190 1
en t
A u
D NA
E x
âĢ §
9 00
en d
H R
di ce
. &
the r
ta l
C H
T A
T O
190 6
190 4
A V
te s
M O
ji ong
Jo hn
m y
er i
co dice
M an
âĦ ĥ
d y
Play Station
C hi
0 5
C C
ti ve
di u
A nd
190 7
di o
190 8
Goo gle
A G
C i
E ST
M I
S O
L E
si c
re e
B O
in t
wi t
B BC
S ch
A D
I G
lan d
II I
c ri
t on
15 00
5 000
c y
rou nd
w er
I ST
m s
r on
M E
C R
u l
3 D
j e
I A
le y
10 5
a u
Ð °
ri a
10 1
190 3
t or
G B
v an
0 9
T E
L u
190 2
B D
N C
P ri
F e
x t
3 50
p ou
Ã ¡
SA O
de s
D C
j a
Î ²
c ke
B 1900
bo ok
ha t
E S
al l
B M
ï¼ İ
ãĥ ³
R u
n er
189 8
re s
0 6
1 18
o p
ãģ ®
3 60
D R
Ne w
0 1
D A
H u
O pen
189 5
g er
12 5
S ho
H O
M C
S an
AT P
Mi cro
ct or
Ð ¾
10 8
f t
c or
o s
N G
K e
c lu
g y
gra m
p ri
wa rd
st y
I F
C u
F ran
O ne
ne t
s oft
k er
p t
âĪ Ĵ
0 7
0 8
2 30
Fa ce
10 4
pa ce
ls pan
C or
P er
B ar
Wor ld
A pp
ED T
IST AT
c uan
Lo ve
K o
à ¤
H ar
N O
S tu
189 6
L L
u x
10 9
D P
la s
A A
f li
R I
J u
p ha
S er
lu s
lin e
R T
t ri
S P
E X
B 48
10 6
18 90
r ai
s ti
mo n
C ST
M L
o d
un i
CD T
ber t
J e
r s
ru s
re d
D O
P u
k y
H E
C ou
a tion
M on
0 4
4 000
11 5
1 200
M 1
P re
0 3
l er
G P
de l
C E
Ä ģ
Li ve
be gin
188 9
oo l
Da vi
wi th
ar a
189 9
co lspan
tai n
ba ck
187 1
R S
st o
Face book
E d
S ha
Micro soft
mi c
te m
âĢ ĭ
24 0
16 00
L O
T ri
t en
ti n
B E
lo w
10 2
bo x
clu de
A d
T T
189 7
S ou
s er
N H
E E
D u
ce s
P P
11 7
S C
v al
0 2
po r
c m
Ma c
sty le
C he
r st
10 3
AK B48
D an
M D
N or
P h
10 7
ra l
H er
O n
p re
r ing
A s
a re
Wi lli
te l
Lin ux
li s
O ri
w w
D is
sh uan
g ue
ma s
4 50
B er
V ID
12 7
Mu sic
I s
A i
G re
c er
Ã ¼
tu s
V o
t ra
12 8
fli x
C L
Net flix
B ro
y o
189 4
Ga me
2 20
C an
G ra
ni n
re f
Ð ½
Willi am
B ri
I L
ali gn
S H
b li
or y
O r
T wit
18 80
Re d
ol d
Ã Ń
R NA
13 6
P G
Ð ¸
ãģ Ħ
ro m
T R
Te am
18 00
ãĤ ¹
Uni ver
g round
i a
188 5
l en
11 4
ãĤ ĵ
H z
co lor
G en
T y
11 6
28 0
U R
p le
Ð µ
11 3
188 6
ei n
ãĤ ¤
T S
P O
189 3
la r
e x
r n
y n
M c
na me
11 1
S L
ã Ħ
Su per
S he
st ra
A ll
G u
ci al
la ss
âĢ »
Davi d
13 5
je ct
A c
26 0
C en
E u
l f
18 60
po rt
ha m
Ge or
ch o
na tional
Cha r
U n
W TA
lv er
d ge
wo rk
H C
T h
t ro
Sch ool
B an
k s
ss o
t ch
ti s
188 8
M or
q ui
te xt
S D
Ã ³
- .
U A
rou p
ll y
ca tion
on y
back ground
Me ta
ro id
a c
mer i
T ra
12 9
G O
S to
di s
18 70
G N
ï ¹
re am
188 7
Sho w
Q u
c le
18 68
6 000
Ã ¶
Ñ Ģ
188 3
N F
V A
ma r
V er
da y
3 20
X box
C S
wa s
A ng
N HK
T ho
A F
F o
Twit ter
D D
l yin
on lyin
onlyin clude
+ +
K P
d on
18 64
âĢ ¢
Gi r
I ON
188 4
1 19
B la
R C
U E
ai n
mi u
12 2
V a
25 00
189 2
2 10
A 1
cen ter
cke t
15 5
IS O
â ħ
14 5
st ri
189 1
6 50
wa y
And roid
N S
C lu
ãĢ ķ
O R
f fi
h tt
m ber
ãĢ Ķ
18 50
F u
P hi
a ge
m b
w in
x y
C y
K u
k ing
Inter national
si a
18 67
lo gy
C e
I M
ãĥ Ī
187 9
Sta r
ri e
Ja mes
En ter
c c
ll er
3 80
A B
U P
ne y
E ng
187 6
S pe
W ar
n y
Stu dio
z o
Geor ge
A b
A ni
18 75
18 61
27 0
Univer si
Ga mes
B ra
I R
12 6
N T
Ã ¨
ti me
ar t
E s
P or
NG C
st ru
ãĥ «
187 3
H en
M G
p hi
er o
12 3
ãĥ ©
P V
n s
B en
D ra
H T
Co lle
G roup
P an
c ar
m pi
ran s
S un
i t
u t
16 8
cu s
CO VID
B lo
F M
M B
S ys
ou s
se d
18 65
Clu b
A O
A meri
P L
he r
i m
12 1
D E
D on
t hat
Ai r
Cen ter
17 5
ar y
ãģ Ĩ
We b
H 2
Y P
f rom
Ã ¤
14 00
MA X
cri tic
A le
t z
13 8
2 28
H an
T P
18 48
18 62
3 30
12 4
ãĤ ¢
188 1
188 2
7 37
Le a
A li
U C
h y
187 8
5 50
V e
sa u
b ri
bi t
187 2
E l
L C
In sta
M in
ra tion
IN K
Meta critic
el d
Ori con
S ai
W hi
s co
15 6
B oo
M TV
s p
16 5
L ED
18 40
IV E
Y a
c re
k in
7 50
ãĥ ĥ
13 00
ãģ Ĺ
H y
13 7
Mi cha
Mar k
7 000
H el
er a
D OS
S Q
U B
22 9
I U
G DP
K ing
O K
Ñ ģ
ty pe
G ran
ni c
Hi gh
T ai
a st
15 2
TV B
Ch ris
15 9
187 7
Ro bert
C han
p y
s y
t le
â Ĺ
ci en
18 66
H ou
i OS
o t
Ð »
Pro du
S K
S hi
si lver
18 69
âĢ ²
th i
T HE
U p
Da y
C ro
D M
E le
St re
Pe ter
I t
N ET
t ter
F ree
J an
Ð º
13 9
Ph one
Insta gram
A t
B I
S ur
p la
BL AC
Ty pe
Ð ²
or a
App le
D J
S y
W al
C G
W E
co de
ãĤ ¯
Micha el
D F
S h
ï ¸
1 100
ci a
15 8
ne ss
Bi g
2 25
P la
P at
S am
Y e
v in
ni a
30 5
13 3
IN E
Pa ul
Te ch
Na tional
t te
ou n
ni s
ãĥ ª
A ward
R A
Y O
13 2
Ste am
20 5
18 63
ra y
I E
pan y
Me dia
tain ment
2 15
B r
Universi ty
F O
L ou
V al
en sis
tion s
Bi ll
ph y
C A
F 1
K BS
bu r
14 8
13 1
S mi
k g
16 6
187 4
X X
de o
18 58
pa r
E F
s or
ri n
ru m
C ho
c lo
14 7
H ol
min i
F ri
25 6
ãģ ĭ
M 2
18 30
C BS
U T
g on
l m
18 51
Le e
B N
G A
H I
U I
li p
ri c
19 2
Par k
t d
Î ¼
8 000
M er
no w
Enter tainment
3 10
14 3
hi s
M k
18 55
Ci ty
Bla ck
Wi l
Po wer
C hu
E M
I X
S pace
g ar
w hi
G M
R AM
ð «
18 5
18 59
th o
ST AR
Ja ck
Char les
13 4
Ja va
Di re
A BC
G ar
T er
s pe
shi p
18 54
14 6
30 1
17 00
in ter
Vi u
sti tu
3 70
F la
K en
18 57
Al pha
L an
S tan
ou t
lo s
D ar
Ø §
29 0
ãģ ª
Li fe
ï¸ °
v s
Î ³
2 14
4 20
C am
Ñ Ĥ
Re cor
Com pany
F un
Î ¿
ãĢ ľ
18 56
18 53
Pro ject
D ream
F an
S en
di um
ãģ Ł
fi rst
Ti me
Tho mas
Hou se
P en
14 4
Sai nt
F A
O VA
P y
S pi
C ent
V O
e k
fa ce
A 2
I O
d d
v on
16 7
Ja pan
Stre et
3 A
C la
H S
S BS
ren ce
bi li
ri st
cha rd
18 41
ver y
Eu ro
L P
P lan
a k
i e
r p
ba l
et y
Ale x
3 40
P M
b un
i f
l ue
BLAC KP
S co
T al
d ra
ch er
20 8
se s
18 15
17 8
So ci
CP U
BLACKP INK
2 23
s pace
8 50
L GB
S ing
S po
e w
t ta
ce ss
oo d
ww w
I BM
z er
mi s
Ar t
por ts
B at
B ur
S F
20 7
ma tion
wo r
17 1
23 5
ãģ ¨
ãģ ¾
L IVE
S U
S oft
20 3
B 2
F er
V E
SQ L
t ha
18 46
16 4
Colle ge
A m
c ra
15 7
lt er
vi ce
ber g
Ameri can
B R
L T
N E
P ol
14 1
for d
IC E
A ma
B 1
P E
nv i
17 6
IN G
Gir ls
A sso
G er
L S
s te
Â ²
tu rn
pu bli
se lf
18 12
18 45
18 44
st ro
Ro ad
no t
O ffi
W o
d ro
ba ll
23 1
ar ch
c ture
c lass
l on
es ti
Ro ck
C l
H F
L td
M 3
p lay
le a
bo ard
ãĤ Ĭ
wit ch
LGB T
l lo
s g
he re
20 9
ãģ į
NA SA
Te le
GN U
L A
V an
g s
ta tion
Jo se
we ll
T our
IU CN
Smi th
2 16
P N
R ou
Î º
18 49
15 3
C T
N BC
20 4
23 8
ne s
Goo d
Produ ction
B B
C al
G T
b ra
de d
Vi deo
O 2
e p
f er
Ï ĥ
mi ted
pi e
ro w
H all
P R
da e
20 6
th y
Pa d
Ga la
Bo y
eri es
4 60
A f
T or
se t
18 14
ve l
der s
sau rus
2 18
E li
T ur
wo od
Je an
S I
T en
ne l
vi sion
IG N
A ct
L D
P A
f ra
â ĸ
Ri chard
F F
K ar
W S
o m
Ï Ģ
ta r
18 47
15 4
ve d
5 80
M BC
si de
ma c
che m
18 43
Be st
pt r
Sys tem
4 30
S ky
Z i
ri ch
ci s
17 7
40 1
ll s
4 10
F le
si n
man n
ãĤ ·
NF L
Viu TV
S witch
da r
16 3
AM D
Di gi
AP I
Par a
I CO
S ma
da ta
men ts
18 52
16 2
th on
Ma x
V II
ce d
18 20
ãģ ı
We st
A g
G lo
T un
V ol
a ch
z on
14 2
23 4
sta r
cri pt
V R
s ys
si gn
ma x
17 2
ãģ Ĭ
ãģ ķ
Co re
Recor ds
6 40
M et
l ti
16 9
35 00
th is
Li mited
B lue
K C
R an
T 1
c to
Â ±
18 39
23 2
Cou n
4 80
C M
17 9
ca de
In c
Gre en
u se
20 30
ri o
or g
14 9
36 5
In stitu
La u
lu m
tu be
18 21
wa r
ãĥ Ń
ãģ ¿
Vi r
Uni code
RO M
CC TV
3 90
B U
bu s
ti a
30 6
22 2
60 1
o na
17 3
Bo b
E A
F ar
G ui
J i
P F
Y u
Z e
k h
r ue
ba r
wa re
24 7
oo t
He a
Pri n
mpi on
E r
K K
M r
V en
X P
g na
j o
17 90
um p
2 11
5 60
O H
S N
z y
ke t
ci ation
or n
ne w
ãĥ ¬
B F
P ra
V M
t v
of f
ve lo
M U
P D
R en
S qu
S cien
18 3
17 95
30 3
For ce
âĹ ĭ
P H
T an
23 3
ãģ ¡
180 1
2 13
T rans
ta ry
ãĥ ŀ
He art
US B
M en
b ro
17 4
Po p
tt le
MV P
B el
C K
o per
Ï ģ
á Ģ
ì Ŀ
ke y
18 6
18 38
or s
Fi re
Sto re
5 20
C ri
D DR
s tan
mi ly
ha r
ck er
Ch rist
6 10
L on
a b
u p
16 1
50 1
ãĥ ī
htt p
2 24
C F
e m
i Pad
t to
bi le
su b
18 13
ãĤ ī
Ma g
Da ta
G E
Ï Ħ
ri ty
mo r
18 2
18 32
18 42
25 5
lo gi
as on
Soci ety
A E
d th
i Phone
su r
18 4
tie s
ãĤ «
do m
Mi ni
7 20
K I
Q ue
S cript
e le
g re
â ĺ
la te
18 36
17 93
ãĤ ª
Co mic
In tel
Ki Ha
Mu se
bun tu
2 21
H BO
M T
P in
f fe
mu s
18 33
17 89
cen t
Ho me
tic s
Ri ver
htt ps
Dire ct
Asso ciation
Gala xy
B al
D r
D AM
M 4
Q Q
a e
se arch
18 35
15 1
ar s
ãĤ ¿
wi dth
per i
tic al
Lea gue
2 19
2 17
3 38
F T
J YP
Q ui
R ai
S R
U buntu
W A
m g
ð Ĳ
fu l
âĢ °
do wn
180 4
ON E
CE O
4 70
7 40
8 30
B ui
f un
s si
v ing
ne d
Mar tin
Ban k
Hen ry
M ai
Y G
Ï Ĥ
Ð ´
â ī
li ght
bo r
ma t
Ma ster
To p
Cha mpion
D y
E ar
L INE
M W
Î ½
ma l
be l
AR T
Ne ws
Chi na
2 12
D K
D ou
E m
S p
Ñ ĥ
un ch
18 28
co re
ãĤ ³
AP AN
Ho t
Par t
Net work
Gen er
F R
F lo
L ong
d or
ci l
19 1
re w
30 2
You ng
Bill board
Offi ce
6 80
A da
E pi
F ra
G old
M Hz
P I
S ong
S NH
n m
p lo
Î ¹
ta ble
ri es
18 1
16 24
23 7
ãĤ ĭ
Ni ght
No te
Jose ph
SNH 48
F DA
J APAN
P K
à ¹
á ¹
pu r
16 44
30 8
Co de
CO M
4 40
C ra
D B
G R
z z
li st
ti al
le d
le ss
10 000
18 37
pa rt
23 9
st on
180 6
Si r
Ra dio
Uni ted
mac OS
C V
U 21
V is
s ing
Ã ¢
Ã ®
Î ´
à ¥
â ĳ
de f
su s
18 19
29 9
34 6
Re gi
HT ML
7 80
E ast
c s
un d
18 25
24 5
23 6
50 5
27 9
ãģ «
Ma ri
5 40
E V
G am
H 5
P al
m uni
rp m
3 25
Y o
t re
ri ght
00 1
17 76
ãģ ĺ
Chi ld
NC AA
Ser ver
Digi tal
F AT
K ong
te a
18 18
po n
mai n
pa ra
26 5
ãģ ĵ
es ta
Hel lo
G S
L ang
ai r
te lli
18 24
18 31
202 7
re y
Do wn
D ri
O b
R PG
p ho
s pi
Ã §
Ã ´
li o
si o
ri ck
la tion
38 6
Ma t
Ser vice
âħ ¡
Tech no
A na
A do
U M
n on
ren t
ge s
te mp
BS D
Py thon
1 A
C W
D en
X ML
Î »
sh o
27 5
27 00
You tube
Ed ward
Whi te
3 12
5 G
7 30
D es
H L
O M
T BS
en a
ha s
me d
26 4
29 5
180 2
Fi rst
BL UE
bur g
publi c
Institu te
6 30
E nvi
G ro
T M
o ri
y er
Ã º
Ã ł
su al
18 22
28 8
ãĤ ¸
Pol y
J T
O ut
S um
Ù Ħ
mo nd
24 4
ãĥ ķ
va te
To m
IT F
2 D
O T
i se
v ar
x el
re turn
24 9
90 3
ve s
Ca p
Squ are
H ong
P ID
S eries
T his
Z a
Ä «
Å ¡
ya l
tu m
tu al
24 3
28 00
Ra p
Cu p
D el
F X
J en
J ump
N P
_ _
s ch
si g
chu ai
18 10
16 22
17 92
30 7
st s
70 1
SA RS
Fran k
PO P
Gran d
9 60
K in
S HO
V V
s ca
Î µ
di t
tu r
16 50
80 1
Pa la
Ch ro
MI UI
Cou nt
Tun es
2 100
C ur
H or
c ci
Ð ¼
18 26
ha ve
15 73
st ory
Ste p
Un der
7 47
J our
y on
bu t
te ms
18 34
30 4
22 6
27 8
ãĥ Ł
ãĤ Ĥ
ter i
37 5
180 5
Di e
AC T
AP P
AI R
Au to
Nor th
B ran
H A
K an
c ing
i ce
pu s
00 7
29 6
29 8
38 5
AT A
Blo ck
3 35
5 90
9 000
B or
C U
S ports
W N
m l
r ei
Ï ī
â ĭ
le t
ding s
ha d
17 80
22 7
ãĥ ł
You r
IF A
3 15
L es
O s
P ho
R ei
i i
i Tunes
p H
Â »
gai n
25 1
27 7
Re al
gh ts
CN N
2 A
O p
O ver
R FC
di n
di tion
zi ne
ma d
ma p
mo re
15 82
17 99
25 9
24 6
24 8
180 9
Dan i
Eng ine
5 30
C 2
C as
D LC
E i
Â «
er e
18 23
16 21
27 2
40 5
vi lle
AT ION
Sta te
180 3
Inter net
EE E
val ue
pre ss
3 34
6 20
7 70
B ou
C lo
C lass
G ol
H al
S G
W at
a pp
b re
r ch
16 25
28 4
28 5
in o
lt on
ãĤ µ
Mi t
con d
3 11
8 80
C le
S ony
U r
V I
v y
Ã ī
á »
25 8
for m
27 6
ãģ Į
Wi i
Mo on
Mo bile
Ba y
G ri
K O
O per
T ru
X T
t han
à ¦
ge t
or k
25 3
35 7
ter s
Ma ria
Ra y
Pu bli
6 60
B on
C li
I m
N M
S V
U L
e e
u ng
Ð ¹
ue l
ãĥ Ĺ
ST A
vi a
Al f
Do t
IP v
Ni co
Uni x
Sou th
Ang e
Boo k
Euro pe
5 70
G et
U 19
W F
b lo
h r
Ð ³
18 27
15 70
ãģ Ĥ
ga zine
ck s
ss on
vi ew
Pi er
3 14
3 DS
6 90
B BS
C 6
D SM
I EEE
M ou
M al
S B
W WE
t rans
ta s
18 17
16 40
16 36
rang e
26 8
40 2
40 4
ãģ ¯
Sou nd
whi ch
4 G
A X
T W
f y
f ri
g al
de i
17 75
25 4
46 5
at or
3 23
G al
H P
O P
T re
de a
ti na
lu tion
17 50
30 9
vi s
No w
3 29
6 70
J on
N u
P lus
shi ng
tu de
18 16
ka r
po li
za tion
ãĥ ģ
ãĤ £
45 00
fi eld
CO N
Be au
Po li
TO P
pri nt
Cu be
. -
7 10
9 10
9 50
D I
H am
M K
a p
o ther
la ris
lou d
24 1
23 00
cu r
Me di
Fi lm
IS BN
Wa y
tv N
3 26
A sia
F in
L y
T 2
c tive
t ti
à ½
en ce
cha r
15 92
34 7
75 8
Gi l
op le
A ra
D T
T ro
c ti
e ven
ma rk
tu ral
sa l
16 28
17 88
25 2
24 2
26 9
ãĥ ĭ
Ma y
nal d
fe a
Ti k
Chan nel
3 18
3 36
9 78
C B
D L
F esti
M US
N 2
O 3
R un
á ĥ
hu r
la m
16 27
17 83
17 91
28 9
40 6
35 4
IN N
Jo y
To k
Pi xel
Dis ney
âĸ ¡
velo p
Vis ta
A cade
E L
F 4
I B
L AN
L TE
N an
P T
W an
17 97
nu m
ï¼ »
ï¼ ½
55 6
Re search
Be at
Ci r
Gir l
Lou is
Soft ware
D MS
F re
O F
T H
a g
g is
t r
17 79
17 96
60 7
ãģ ¤
ãģ ł
35 2
180 8
con o
ER T
fe rence
km 2
mp le
Wor ks
NC T
Ali ce
Chris tian
âĭ ¯
3 21
3 37
A 4
C er
C ry
T 3
d ri
ni ght
18 29
sa r
17 78
17 94
28 3
me ga
27 3
ãĥ £
ãĥ Ĳ
ãĤ ¨
th ing
ca st
oo m
ct ro
Vi sual
Jo han
AS C
YouTu ber
Ch ine
Is land
Bat tle
wor ld
3 13
5 10
8 40
8 60
I l
M net
R ain
S in
Ã ±
Î ¸
en i
17 98
ãģ ¦
45 6
37 2
EC T
ctor y
age ment
Award s
sys tem
4 48
8 70
r or
mi t
re ss
re ad
15 80
16 12
16 34
17 87
28 1
26 7
ãĥ ĩ
fo re
ãģ £
lo st
ãĤ ¦
vi l
ver n
Ro yal
Hi ll
we b
mm y
Pre mi
Fo re
Glo bal
9 11
D G
D ai
F oot
M F
T N
â ĩ
li ke
ren a
15 67
16 48
27 1
lt ra
pe dia
Mar y
Ar ts
BO X
rai n
Spe cial
Scien ce
Envi ro
A H
D er
E 3
H un
L et
M M
W ei
Y ork
o i
s che
po p
re t
26 2
36 7
ck y
OS HI
gi c
AC E
Ki m
Com pu
EN T
AG A
Gre at
Qu a
- &
3 22
G or
M ON
O li
O TT
S al
V B
f la
hu s
si ze
ti fi
ni ca
bo n
po si
15 50
15 68
or d
16 15
16 30
for mation
28 6
ar r
ãĥ ĸ
co l
Ma gazine
Mo del
CH 3
Bro wn
Ama zon
Muse um
Dani el
Festi val
C AS
E nd
F ro
F BI
L G
O 4
S IG
T ou
U SA
d t
o le
p lan
de nt
li na
ke s
che s
16 45
16 46
ãĤ Ń
33 3
and y
CO LL
AR D
Se cre
Com muni
En core
Go d
ture s
On line
Tai wan
Que en
Tik Tok
MUS IC
A h
A mi
C at
T hun
c ka
g g
Ø ±
an i
16 26
26 1
29 7
lt h
35 5
An to
Dar k
Gener al
Chine se
3 28
8 20
C rea
M ur
P RO
S 2
S on
o ver
p ra
da l
16 37
24 00
70 5
90 1
36 4
38 4
37 8
44 2
Me mo
Wi ki
gi o
Po int
VID IA
6 18
A U
C BC
H B
N VIDIA
T 48
Ð ¡
Ñ ĭ
ri ne
que s
16 10
16 42
25 7
28 2
me t
26 00
Sta dium
Se a
Ca pi
Ba se
160 9
one y
lli on
Red mi
Ye ar
Tal k
Ado be
7 60
7 67
C AN
P et
S et
U 17
V C
W on
W ho
W hat
a f
b ps
l k
Ñ Į
de on
ci o
te ch
po ration
15 85
15 83
sa y
ãĤ Ħ
Co l
ca s
58 3
wi ki
180 7
AR M
Te X
ther n
Cy clo
Sys tems
Met ro
9 30
F al
F IFA
J U
K E
L ei
M el
O D
S che
a te
b s
hou se
16 23
27 4
Pa y
Ar chi
To wn
Ni ko
Ge o
ï¹ ĳ
H2 O
B ru
C hang
E ye
E OS
F IN
I EC
J uni
p es
ti um
15 71
17 84
26 3
50 9
29 3
st ein
die s
rou gh
35 1
do s
99 9
De ep
con st
Ne o
Uni on
ster n
Ke y
rs tea
ple x
oun da
2 200
4 28
A J
D un
G UN
p to
u ts
w ing
x x
ch t
16 20
17 23
17 86
50 4
ãĥ ¥
35 3
ve y
39 5
Mi ke
So laris
St ra
so me
pri vate
Phi lip
Cro ss
Jour nal
Dot A
4 19
4 32
A 3
C loud
F N
G L
H as
S W
Å į
ì ķ
an der
14 50
ãģ Ļ
Ma u
Li ttle
ct s
cou n
Studio s
4 27
C ine
F E
H IV
I ma
K 6
V in
V PN
a ce
h oo
Ä į
ge l
zi lla
15 77
16 18
16 43
38 7
39 9
be th
Lin e
LO VE
Fle et
Techno logy
3 17
3 31
3 45
5 12
5 65
A ven
B ai
C r
F I
H 1
M Y
R 2
S 1
U 18
U SS
U ltra
Ñ ı
li ve
mi a
te st
ba se
mo l
ha rd
15 86
17 77
14 53
80 6
lo t
CD MA
Sta ge
Ra deon
AL L
Ex p
Va lve
Child ren
3 27
4 11
4 90
4 45
4 46
5 35
A th
M 87
O f
R am
U 23
W ol
w here
Ã ª
li c
ci ty
ma te
mo del
chi e
se y
ce ll
15 21
or o
17 65
17 74
on o
39 8
49 9
Po st
Mu lti
Ta y
BM W
Cent re
Acade my
Juni or
4 16
E MI
H TC
K B
O mega
k W
m 3
p ter
s tu
Å «
di na
da s
16 16
nu s
70 7
36 9
39 7
Pa ss
Sta tes
Wi re
Jo e
tio na
Fe de
GP U
bili ty
Dy na
6 13
G un
N R
W O
W OR
Z A
n or
Î ·
Î Ķ
Ð Ĳ
da rd
ran a
gan i
15 64
17 85
cu l
36 8
TV BS
De mo
Mar ket
Bi o
Lin k
My SQL
mis sion
3 C
8 10
B T
J r
K h
L ar
S ara
W I
b rea
e u
g ni
i o
j or
Ð Ķ
he ad
ci n
ci fi
ba s
16 62
in clude
26 6
29 1
58 8
Di stri
Ne xt
Be ta
vo id
MO D
Cor poration
M1 A1
GUN DAM
3 16
5 37
6 21
7 42
C I
E 48
E ric
N D
T I
c ted
h l
i l
o pen
Ã «
Ù Ĩ
qu a
po int
15 40
15 74
17 72
28 7
60 5
45 4
38 8
34 3
be s
88 8
La w
Su b
Man agement
Fri ed
Alex ander
4 25
4 75
M X
O ther
S ui
S ar
f lo
o b
ti ne
lan t
12 50
16 19
16 29
16 83
29 2
ro s
36 3
37 6
ST S
55 2
68 6
Mi ss
La dy
Fi nal
ad d
Ar c
Ho w
Au gu
wer e
Dra w
Sco tt
Lon don
Cyclo l
6 27
B RT
D ol
F L
T ar
h t
Ð ±
ni co
ï¼ Ĥ
st d
to s
48 8
Ma s
Pa s
fi ni
Spo t
ðĲ Ń
Sp ring
4 49
5 A
6 25
7 38
C ul
F ron
H ER
L and
P B
R ue
S c
T ony
V ER
W ing
e a
p per
s ky
t ran
Ð ļ
an a
ri na
pu t
sha red
15 90
15 79
16 33
ãĥ Ĭ
fo x
lo g
ãĤ °
Li ght
Ro se
150 7
De sign
La ke
CH 2
Ani max
Ear th
4 12
L F
L R
S mo
S ca
S ON
V 8
Ð ¿
í ķ
en s
mi x
bo dy
la unch
16 31
16 80
17 73
29 4
40 7
cu m
ãĤ Į
39 6
33 00
Le o
Fa mily
160 4
Ha mi
An der
Par ty
PG A
Dri ve
9 80
A re
C 4
F old
G C
H on
K at
L M
a da
c la
i r
i ni
y l
Ä ĩ
É Ļ
ke d
ri al
ri us
15 75
16 97
17 55
14 92
80 5
36 00
Ma d
46 7
47 1
The o
Si mon
Se cu
pp y
mic s
Ad van
ï¹ Ĳ
SK E48
Rou nd
Sum mer
Thun der
0 x
3 19
H ei
J 2
S ti
S we
T hi
X C
bi o
ma tic
15 61
15 89
15 95
17 81
14 65
50 8
st re
ãĥ Ĩ
ãģ ²
34 4
58 9
160 3
160 6
160 7
ko v
CN BLUE
Ru by
Epi c
velop ment
4 15
8 55
9 40
9 70
I r
L un
u age
x 86
Ã ¸
Ã ħ
Ã Ł
à ®
man i
15 22
15 26
15 56
16 13
16 60
50 2
50 6
ãĥ Ģ
37 7
47 8
55 4
Mi che
Vi ta
mer cial
Ti m
TO UR
William s
cation s
Hy per
oun tain
Br ian
ìĿ ´
âĺ Ĩ
Ange la
Foot ball
4 17
5 25
9 20
9 25
L U
M oo
P on
U K
U RI
W el
c ard
l ding
w ho
z zo
Ù ħ
mi r
ni o
ba by
che d
su re
se cond
15 25
15 91
16 67
40 8
48 5
64 3
AM O
Fi esta
Ba ck
tt en
Ste ve
DO HC
Mon t
Por t
Af ter
3 24
4 22
5 15
5 38
5 34
F ounda
G ao
Q S
R ang
S 4
S han
S yn
V T
a h
m RNA
x e
z za
Ä ĵ
â Ĥ
15 10
16 38
17 30
on ly
pa l
me dia
ãĥ ĳ
34 2
39 3
47 9
150 8
Vi lla
Mo zilla
La st
HK T48
Wa ter
Wa lter
vo lution
Ameri ca
Sur face
Chu rch
3 200
5 31
5 46
C amp
C las
E G
G Hz
I TV
J er
M ei
M BA
T G
T oo
V S
b les
i PS
p he
u d
li sh
mo nt
tan a
202 8
15 43
14 57
36 6
38 1
39 2
vi e
Hi story
Je ff
pla ce
1 st
4 13
4 26
E du
F 3
G PS
K ha
L Z
N I
R us
S or
T han
U 20
W nt
f b
Ù Ĭ
le ft
gen t
15 65
15 59
15 87
15 97
âĢ ł
16 35
16 88
17 33
17 82
st ry
ra t
60 6
al d
co me
ãģ ĳ
37 3
In du
el la
Wi ll
Al bert
Ti mes
Au stra
John son
tor y
sco re
Jan e
Coun cil
5 24
6 12
8 90
B y
F S
J im
M R
S ol
T ran
U D
i ts
l low
Â £
Ð Ł
Ñ ĩ
te x
lv a
15 88
15 98
50 7
al so
Co s
64 1
Re p
49 5
68 2
66 6
amp le
Com mon
CL A
sco pe
Pla ce
Tele gram
Pier re
Founda tion
3 32
4 A
4 K
4 35
5 75
7 90
A stro
B ad
T MA
e se
o la
an s
en do
li ty
bi rd
ti sh
ti ca
na r
15 23
15 35
16 49
16 61
17 70
14 99
nu mber
ra m
ãĤ ¬
ãĤ ı
36 1
46 6
39 1
.. ..
vi ces
55 1
fi nal
Mo der
Po d
160 1
PC I
ali ty
TO K
Fran cis
Ac Fun
tro l
Fla sh
wor th
cra ft
Won der
5 28
5 500
9 90
A nt
B ang
H TT
g ne
mi tte
ma ster
men tal
wo rd
15 11
17 60
17 69
in du
sou r
35 8
37 1
46 9
el low
68 4
58 7
Di a
St ory
pp m
SM AP
And rew
tri bu
Ed ge
ac tive
Gol den
Exp lor
5 48
A W
K ai
L ui
L oo
M AC
e xt
o ni
s ma
t hen
ei l
ch y
200 00
10 80
15 000
15 76
15 94
16 89
36 2
38 3
ll en
TC P
34 1
Mi s
NA SL
Pro gram
ki a
Se ven
cou nt
Sou l
Bri dge
Ang el
kin s
Mat the
Europe an
9 21
B un
L 1
M MC
N EX
R B
T as
U FO
V F
e f
z ar
ð ª
ri t
liu s
tou r
ce p
18 11
15 17
15 14
15 78
15 52
âĢ ķ
16 39
16 84
60 8
co s
to p
34 9
64 4
55 7
58 5
59 7
So me
No t
gin s
ther s
Dan ce
Eli za
Gam er
temp late
Step hen
Tay lor
3 48
4 36
5 49
A ST
B et
C re
D NS
F red
L am
R N
S pa
T F
b la
i c
si t
po ly
17 63
13 50
in te
ï¼ ĭ
40 3
90 8
Ma rie
do re
65 00
Ro man
150 5
Me ga
Vi ew
77 7
Ga ga
Te st
ki e
Ca st
Con ne
MG 42
Christ op
yon d
vern ment
5 47
5 67
6 68
A po
C 5
F ai
F AN
J us
K on
N K
T 4
Y OSHI
f is
p el
p pe
Â ³
Ñ ĸ
te c
na s
10 50
se l
tan t
po s
16 14
17 20
37 4
Co V
49 4
ver se
ly n
Ne ver
Ar ti
ID E
Hi t
Ki t
IP S
PS P
Pe ople
UN IX
San ta
Ju st
âħ ł
Phi l
Fra me
IPv 4
Explor er
5 14
5 22
5 45
5 68
6 19
6 75
B lu
C SS
D 1
E BU
J or
K T
M ountain
b n
un e
si e
si ness
la u
se a
15 16
15 13
15 34
15 47
15 69
16 V
14 60
st one
cu la
ãģ §
35 9
ter a
75 7
64 2
58 1
150 2
ction s
Ra w
So lo
Ge Force
à¸ £
SO HC
Ph y
Sun day
Art hur
Kar l
COLL AR
mitte e
4 18
4 14
4 24
4 33
5 44
A lan
C J
D TS
F 2
I nv
J O
M MO
P EN
T wo
T rue
X IV
r ian
w y
Ð Ĵ
er ing
si ve
ci ne
lan ds
man d
17 31
17 68
17 71
14 90
hei r
ne ws
40 9
ãĥ ı
60 4
80 2
ãĤ ±
ãĤ ĩ
ãĤ į
38 9
75 00
39 4
be en
47 6
49 3
Mo d
us ta
Be ll
ER O
Bo x
Hi p
Ri ft
Wor k
AG E
Pri me
pre sen
FO X
sor t
whi le
JT BC
âĩ Ķ
Cine ma
Aven ue
4 31
5 39
7 45
A ri
A BS
B re
D ro
E O
E ver
I ta
K er
L ord
O h
V 6
j q
s k
s ka
Ä ±
li ca
bo w
mo s
15 93
17 24
17 52
14 69
14 98
13 70
ro ws
ãģ Ī
ga te
38 2
75 5
46 4
44 4
57 1
150 1
Vi ctor
De velopment
Mo de
no va
gi nal
Na me
Ki ds
PS 3
pro t
Ex press
Cou rt
Bri tish
Dra gon
AGA SA
Fried rich
6 46
6 67
A sh
A lt
C IA
D 2
G W
H ard
I RT
K ei
M 6
X F
Z J
a po
b our
c z
c ca
e st
f ree
de x
ou ld
ti fy
she d
min e
na ment
15 20
15 60
15 53
16 51
17 40
14 93
60 2
90 4
to wn
ck ing
In telli
Re a
49 6
49 8
44 3
Vi a
Wi th
us er
Bo ys
Fa mi
MA N
Ho tel
Do nald
An na
UN G
AG UE
LE AGUE
qui d
Fire fox
Dou g
à¥ į
Ath lon
6 11
6 45
9 45
A pa
A gain
C 1
C BA
D EC
E a
N at
O ld
Q U
T el
T AM
U 2
t wo
u te
w is
x a
Ã ¥
á º
ai s
er gy
bi a
chang e
ma de
15 96
16 32
16 79
17 18
17 35
17 45
17 58
25 G
ï¼ Ŀ
lt y
cu lus
ãĥ ¡
90 7
ãĤ ģ
ãĤ Ĩ
Ma chi
58 4
150 6
De ar
Wi ld
Si de
Ne u
Ba by
160 5
We ek
nve st
pro du
RE AM
Ele ctro
Stan dard
Cent ral
Hea lth
Ada m
sio nal
Christop her
YOSHI KI
0 50
4 39
5 33
7 31
7 32
7 41
7 62
9 62
C ree
D al
E ve
G in
H 3
I CD
N U
N um
R CP
S hu
S and
T L
T ha
U CLA
W ood
a y
j an
Ï ħ
â Ļ
er t
ti ce
ze d
12 60
15 66
17 25
17 48
ãĥ Ħ
70 6
ãĤ Ī
ãĤ Ĵ
45 7
37 9
do or
75 6
ca se
In fo
ss or
55 3
67 3
Li st
Li ber
57 4
57 6
Vi sion
98 5
gi a
Bi r
97 3
pri se
Jack son
Alpha Fold
Mit che
Capi tal
Fleet line
Angela baby
Matthe w
5 16
6 17
6 39
7 22
7 35
D U
E cono
H MS
P 2
S ty
c ter
e b
g lo
n p
á ¸
20 50
ce l
15 28
15 72
16 52
17 27
17 61
13 68
ra s
ãĥ ¯
ãĥ İ
al s
35 6
70 4
48 2
65 5
br ary
Ro bin
AR E
Fi sh
To wer
sta te
Com mittee
Pi e
mp son
BL E
Har ry
Pre ss
Min d
Jon es
Ander son
Gao n
Eliza beth
4 47
8 63
9 26
9 61
C ru
J uan
L X
R ATP
S el
S port
T win
V P
W W
c rea
g or
n ers
v or
w el
z ing
de fea
la d
la de
mo d
15 31
15 38
16 47
16 81
in to
80 3
the y
70 8
ãĤ ĥ
45 2
45 3
Co lspan
be d
65 1
58 6
57 2
150 4
Le on
Be yond
ED G
AP G
Ba sic
IC A
fe ssor
170 1
ali s
HO ME
Dis co
cc ff
cc ccff
Eng lish
Pat rick
Gar den
Wo men
fra me
FIN AL
3 M
4 38
5 11
9 33
I LE
J am
S wi
S our
S NC
c ta
Î ©
Ð ·
Ø ª
ì ļ
sh op
li t
xu s
su m
lin k
15 30
15 37
17 36
ï¼ Ĩ
60 3
80 8
Co lor
46 1
46 8
vi ty
68 1
ki t
ON G
170 9
Car l
Ke vin
Sou thern
Game Spot
Twit ch
Ab du
Java Script
Direct X
Moder n
3 G
5 41
6 29
6 48
7 25
C AR
E LE
M ain
N N
N PC
P 4
R h
U RE
a mi
g ran
m bo
o van
v at
Ñ ħ
xi s
di re
er y
te am
su l
su per
re do
15 19
15 29
15 55
16 87
17 28
me l
me ter
ãĥ Ŀ
lo ca
90 5
48 4
Ma ker
be fore
65 3
55 9
49 1
67 9
Ro y
fi sh
79 6
OS S
Si lver
tt on
Sa u
MA D
Con cer
cke tt
UR L
AO A
Ya hoo
Spo tify
cture s
Prin ce
ASC II
Omega T
Frame work
prot ein
Mitche ll
4 23
5 36
6 32
7 15
8 25
8 33
A us
A rea
B 3
B rea
C AL
D 9
F low
G RO
J es
K 2
M oney
M bps
N ar
R DS
T hat
d f
p l
li b
li m
si ble
si cal
20 35
ri um
se u
11 20
wa rt
17 67
lo ve
47 3
49 2
66 1
56 2
Vi ole
De bian
De ad
as o
Bi rd
PS 2
An ne
Ed die
Her o
TR A
Zi co
sig ned
Chro me
Count down
Oper ation
Secre t
TOK YO
Viole tta
3 39
4 29
5 32
6 65
7 75
7 69
B and
D 5
F on
J I
O ff
R 1
R F
R ing
R on
S NS
T ol
Y an
g ma
Õ ¡
de lla
ou nd
ti er
ba t
men tary
su ch
lv in
se e
12 20
15 45
16 64
16 59
17 19
14 95
14 96
13 88
st or
70 2
70 3
do w
ST ATION
vi r
hi m
68 9
Mi l
Mi x
Li ke
69 2
79 8
Ja co
Fi l
ER S
sta l
St or
AN D
An ti
An th
gra phy
Ste ven
Fe li
IF F
Hen ri
Rai l
cifi c
Clas sic
0 10
4 34
6 36
7 29
7 61
8 78
A ction
B us
E 1
E ri
E 231
G EN
H and
I so
K ur
L 2
L en
M ang
M us
P AGASA
R K
Z ERO
b ble
o is
p res
Ð ĳ
Ð ľ
Ñ Ĩ
ì Ĺ
shi on
ian a
ri te
lai r
se ll
gen e
15 46
15 49
15 62
16 70
16 90
16 54
16 53
16 94
17 59
14 66
ar tic
ãĥ ¢
80 7
70 9
45 8
ga me
46 3
55 5
hi gh
59 6
66 2
Pa ris
gi e
con stru
Se e
St ri
Ha ppy
Cha l
Inter active
John ny
fli ght
Vo ice
Gu ard
Fo x
Ken ne
FA ST
Bui ld
HTT P
1 2000
5 27
6 38
6 69
7 12
7 11
B P
D REAM
H ein
I ng
I MAX
K 11
L V
M 5
N CC
R SA
Z en
k on
o v
o li
p et
Î ¬
di ca
ri sh
le e
la st
su ng
ce pt
wo n
15 58
15 81
17 38
14 74
13 75
pa ss
ST AT
47 7
In te
The re
68 000
AT E
59 5
59 8
59 9
57 8
Sta rs
Mo re
Ga lant
sta rs
160 8
Cha rt
EP A
pro gram
den ce
au to
EX ILE
GP L
Sam uel
NM B48
5 21
6 28
6 22
7 21
8 67
8 77
9 65
B Y
F 5
G on
J et
O ST
R X
S r
S chi
S UP
V EN
W P
Z Z
a th
e z
f in
f es
de pen
ri l
le m
she ll
bo ra
la ti
12 80
âĢ ³
16 65
17 32
17 44
17 56
14 89
14 87
13 40
000 rpm
cu lar
ãĥ ĵ
90 6
ãĤ º
45 1
99 7
ws ki
gi na
Pro to
Ja c
St ru
Play er
Bu siness
Chi ll
cke ts
pri n
Ani me
Wil son
SHO W
Mou nt
Fore ver
Secu rity
Sour ce
2 nd
5 19
5 17
6 24
6 23
8 35
8 76
9 38
9 54
9 51
A p
B 9
C AP
D 3
E U
F w
F ly
G DDR
I MD
L CD
N er
N IC
Q t
R yan
Y F
h in
s se
v as
w ould
y d
Ð ĺ
ð ¤
li fe
di ne
fa r
le u
ye ar
mu m
tu ra
mo de
se ed
mai l
15 24
15 32
15 84
16 58
16 57
16 99
17 62
13 37
ï¼ ŀ
ter o
47 2
47 4
64 9
49 7
68 7
68 8
69 8
Ro ber
57 9
78 4
Jo na
Da ve
Bi ke
Ho lly
140 6
Car los
DS P
à¤ ¾
SH IN
Cla u
Sma ck
âĺ ħ
Publi c
Compu ter
MON STA
Tou ch
ht ml
Smo sh
Apa che
0 54
6 16
7 19
8 65
9 46
9 88
D H
G 1
H 4
H 10
K y
P ha
S 3
S b
W HO
X G
Z o
b b
e g
u sed
Ã ¦
Ï Ĩ
mi cro
ci d
la w
san a
po wer
re l
wa ys
sa ge
16 68
17 39
17 64
for mat
fo llow
do x
Re s
300 00
Li brary
wi ll
78 7
Fi le
Al bu
PS V
Ta ke
170 2
Hu man
LL VM
tri e
Mer cu
Sen se
rows pan
Smack Down
0 52
4 21
4 37
6 14
6 26
6 37
8 15
8 16
9 75
B in
E cho
G F
I f
I ce
J P
M es
Y A
Z O
c li
d ley
k ha
Ð ł
ë °
en e
bi s
ti l
ri son
lei n
mo st
00 00
12 75
15 36
pan i
16 75
14 64
ra te
45 5
IN D
67 1
67 8
Jo s
Pro fessor
Te x
Ca ta
Fa shion
Bi t
St one
Hi sto
Gi ovan
Lin er
170 5
TO WN
App li
She et
lea se
KK BOX
Christ mas
fun ction
Champion ship
Lang uage
sca pe
Alf redo
af ter
5 42
6 34
8 21
9 12
C IT
C fb
D X
D ur
E di
H at
H PV
M OS
M IT
N XT
S Y
S pin
S IM
W H
W ong
c am
f le
g he
g roup
v ai
Ï ĩ
â ģ
ã ħ
ì Ħ
he a
lian ce
la tive
ma y
gen cy
re c
15 63
or t
16 17
16 63
16 85
17 53
on s
14 77
13 80
50 3
80 9
ãģ İ
the re
lo ck
ãĤ ½
48 3
48 6
Ma ch
Ma ke
Ma te
75 4
ca t
be ca
be at
65 6
The at
Re v
Mi d
67 6
AT X
SA N
78 5
56 1
NA S
AR K
AR P
Fi eld
Si ri
Mar s
ki yo
AC H
Bo ard
So cket
IP TV
AN G
We stern
à¸ ²
UN ES
Au dio
ron o
Fran ces
Mor ning
RC A
Colle ction
Han s
Space X
Fan ta
Af ri
TW ICE
Cir cle
Crea tive
Mel on
Wol f
Indu stri
SUP ER
2 DS
5 18
5 26
5 66
7 16
7 14
7 65
7 64
7 44
8 26
8 47
9 18
9 36
A bu
A ce
B ei
B NO
C in
E very
G I
I an
K ra
M RI
N am
R P
S UN
V IP
W TT
Y i
h p
i nv
o wn
Å Ĥ
Ù Ī
â Ĭ
ë ¦
ð ¬
an t
ci ous
du s
mu lti
te en
ma ry
10 24
16 69
16 56
16 72
16 92
17 54
14 20
14 80
in k
lve t
75 1
ca p
65 8
vi o
59 4
wi ck
79 1
Wi t
AM C
AM P
Ca the
Ri ght
Su l
IT A
170 4
170 8
Wa re
Wa ve
For t
AG P
ML B
Her e
Fu ture
DM R
Sh ine
Cla rk
Plan et
logi cal
part ment
Fron t
Moo re
2 B
7 13
7 27
7 48
7 68
8 75
9 15
9 29
9 47
B IG
C YP
E BS
F rom
G ian
I sa
I SA
J ason
N ICO
O ME
R 3
S ter
T rai
U F
V IS
X III
a w
i or
s ki
s yn
u er
x c
Ð ¢
Ø ³
an ti
un der
bu ry
chu s
hou t
te au
ma ri
10 75
12 77
12 79
12 76
11 11
14 40
14 88
14 72
13 71
ro ad
ãĥ §
90 2
48 9
In dian
69 9
99 2
88 1
98 6
tw e
Ja y
con fi
con tribu
AP M
160 2
com mercial
go s
Bu g
Inter play
cro ss
AI M
RE AS
CR H5
Gre g
Vo gue
Ver sion
Wal ker
Wil he
dd le
Ji mmy
Bui lding
Oper a
Distri ct
Thunder bird
Swe et
Fil ms
0 30
6 33
7 78
8 12
9 55
9 57
C 3
C 14
E Y
F ol
L NG
L IF
M IC
N Y
N int
P OS
R SS
S AT
T am
T NT
V ar
W here
a to
c co
d 4
g li
s po
t su
t heir
Ã ½
Ø ¨
Ø ¯
shi re
en ds
da d
ti no
ri ce
ci es
lai n
ban d
min al
la un
tu ry
00 2
00 4
12 30
long i
15 27
16 11
ãģ Ľ
48 7
ve ment
IN T
In formation
vi ch
vi er
55 8
68 5
ho l
57 7
78 1
Pa ge
per t
79 2
79 4
Wi MAX
98 1
CO 2
AR C
Ja lan
Si x
Sa y
fe ct
mer s
Ni ck
Ge mini
En ergy
Ste wart
112 2
RE S
ES PN
Tri ckett
As ian
All en
Sto p
Tho mpson
Por table
Ve lvet
Qui n
sho w
ìķ Ħ
Jona than
ð¬ ĵ
Nint endo
0 70
5 43
6 15
7 17
8 28
8 39
9 39
A zu
B as
C el
E 2
F D
G 2
G G
G y
K S
M ED
N 1
P ur
Q uan
R Y
S 7
U FC
V 1
V 2
X i
a ve
b ui
e sa
m 2
p pa
t ent
ã İ
ê °
da le
ti ful
pi s
ma jor
ba sed
wa ter
15 12
15 41
16 66
17 21
17 26
17 37
17 47
17 43
17 41
14 30
25 000
me di
ra d
48 1
Ma tch
67 4
Li quid
69 7
ho st
88 9
De uts
fi t
98 2
98 9
Ti tan
PC R
à¸ Ļ
AV E
Hu b
Ad ven
NH S
Gra ce
She r
Enter prise
hy th
Production s
Bru ce
Doug las
2 TV
5 13
8 46
8 66
8 57
B 12
C ong
F air
G ary
H Y
J 1
J XG
O culus
T D
W M
a gain
e y
k Hz
ng e
ke e
mi um
qu ali
bo v
ba ch
na e
12 17
12 74
gen er
po nen
15 15
15 42
17 12
17 11
17 15
14 35
14 56
13 28
13 85
for man
pa s
co la
ãģ ¶
48 00
do l
34 00
II T
Ro sa
Ro ger
150 9
Sta ff
as y
gi r
Di ck
Windo w
IS C
97 1
Ki ll
Ha y
No ve
AS H
Net scape
tal k
IG HT
Sho p
GP 40
Dra ma
hy dro
bri dge
nic s
Sur f
Pen tium
face book
Ten nis
Prin cess
Pin k
Del ta
SHIN ee
0 55
6 47
7 28
7 26
8 11
9 13
B run
C Z
C CD
C OS
H ai
I a
M g
P r
S ang
S now
T AI
U ta
W ai
W er
W oo
Z ero
c tus
d one
k ra
o c
p r
z zi
Î ¯
Î ¶
ian o
ta ge
ci sion
pi a
ni ty
sha rk
11 50
15 44
17 57
14 24
14 70
14 54
ar ray
29 00
ro om
90 9
45 9
37 00
75 9
Co o
be t
ST ER
67 2
58 2
AT S
ver s
ho me
59 1
99 3
SA P
gi on
Di vision
Lo st
Bo w
mer al
Ki r
Ni cho
Ta c
pro ject
DS L
eri a
Fran ce
uni que
Univer sal
Gen e
ham mad
dge t
work s
âħ ¢
IM F
Eng land
stru ct
Ben ja
bri d
CG TN
Lou ise
Anto nio
Archi te
CDMA 2000
WOR LD
Rep Rap
Mis sion
seu do
Holly wood
8 23
8 29
9 27
9 35
A 5
A er
B all
E mi
F 7
F l
F our
G IS
J C
K N
K now
L MS
L PL
R al
T B
U SE
W D
b ran
c ken
e v
f ts
m un
o g
s cien
v ard
li er
li con
bi g
bei ng
mi cal
ri er
se ts
ce ae
12 35
12 64
15 54
or der
17 22
17 34
17 66
14 71
13 30
13 90
ne u
ãĥ į
60 9
the m
Ma kiyo
ll on
be ta
65 2
65 9
ss er
Re mix
pe d
69 5
57 3
78 3
Vi cto
De an
gh ter
fi ed
ber ry
77 1
Win d
Mo tor
Ga te
Si e
Ca re
Al liance
Ho p
ster s
Bu zz
âĪ Ī
Sho t
Ke lly
AA A
DO CO
ser va
Ori ginal
Bro thers
Or gani
Ac tive
Phi lli
Alpha Go
Para dox
Vir gi
ab out
Engine ering
ECT ION
tour nament
Cree k
defea ted
Concer t
trie ved
Surf shark
1 180
3 100
5 29
7 24
7 36
8 32
9 32
9 67
9 76
A rena
B EST
D N
F 6
F G
G as
H M
H Q
H oo
J ar
K A
K un
K am
M un
N 3
N ON
O L
O l
O ly
P RE
R AD
S RAM
U 16
V CD
X Y
g ers
g ood
i des
k t
p m
x on
Â ½
Ã £
Ï Į
Ð ŀ
× Ļ
ð ¡
de ri
eng er
le dge
min a
bo ot
te o
tu a
tan ce
15 57
15 51
16 55
16 78
16 96
17 46
17 49
14 75
14 41
14 84
13 99
st ring
ra p
Ma xi
75 2
Co oper
68 3
Ro d
Ro ss
Te a
87 4
Mar ga
AC S
sta tic
St r
Uni t
140 2
à¸ ¡
Pe ace
Man a
cy clo
CR H
Pri ze
BM T
Hu lu
Bro ad
Bro ok
Red dit
All stars
Mor gan
Val ley
Hol dings
GM MTV
VO CAL
ori gin
Pala zzo
Ur ban
IPv 6
Rain bow
Premi er
sma ll
PEN OME
fes sional
Mercu ry
DOCO MO
PENOME CO
6 35
8 64
9 31
9 37
9 56
9 72
E dition
F ren
F all
F IR
J in
K w
K or
L yn
N AT
P RI
S ue
T ang
b ber
f low
h on
m me
t hu
Ã ĸ
Å ĭ
Ñ Ī
ð °
en ne
ch s
di stri
gu s
ni cal
la v
ma tch
na rd
10 20
10 10
ran ce
12 66
12 61
po em
16 41
17 51
13 46
pa th
ne st
ãģ Ń
th ree
th rough
ga s
TC H
ca u
Mi r
Mi ra
Mi ller
99 5
88 4
88 5
88 6
Pa u
You Bike
Le ona
Te d
Si d
Si g
Se p
IS P
IS S
Lo ck
Hi g
An n
He ad
Wor d
AG M
M1 A2
CL OS
CS I
phi c
Sam sung
YO U
Sma ll
Coun ty
Wat ch
Beau tiful
Dai ly
Augu st
user name
Twin s
Giovan ni
Theat re
Wilhe lm
Benja min
0 60
5 64
6 64
8 17
8 31
8 53
9 19
9 58
9 42
9 59
9 79
B W
C hen
E c
F K
F NC
G UI
H g
I ATA
I nvest
J B
N L
N el
O C
P U
P X
P DF
Q R
U CC
a ma
c ry
g b
g ger
h or
m ba
t hus
Î £
Ð Ŀ
xi t
er on
si te
fa ri
fa mily
mo tion
pin e
12 84
202 9
16 73
17 13
14 25
14 68
13 82
for mer
ar chi
me mber
ãĥ ľ
80 4
ãģ ©
38 00
Ma de
Co lo
65 7
AT I
De partment
CO NC
AM X
AR I
Ga u
87 3
120 4
va ria
IC C
Fa ctory
Ho ward
Hi l
Do cu
Ha w
Pi a
à¸ ±
Car o
CR 400
Ser vices
SP A
od on
Nor d
Dis c
cre en
Fla g
Tru st
LAN D
Hun ter
Fede ration
brea k
Edu cation
Jor dan
contribu tor
5 69
6 31
7 88
8 27
8 45
8 52
A 330
B 7
B MP
E van
G 6
G IR
I Q
K ris
P el
R ER
S wing
T TC
Y S
f eld
g am
i bn
k no
l ling
Ä ĥ
ì ĭ
he l
si l
ta ra
ye s
mu r
lin es
chi ld
cha ft
12 27
12 83
12 91
ha u
ha us
15 39
16 95
16 82
17 10
14 81
13 56
me o
ne tt
ãĥ Ļ
ãģ µ
Ma la
In dia
vi rus
Re gu
44 1
67 7
69 1
Ro b
Ro bo
99 1
De f
79 7
89 7
Ra ja
AC G
ad y
Ca li
AP S
nen sis
Ho pe
Ki ss
Ki wi
Ni ke
No kia
140 5
Ge m
EN D
170 7
Car d
112 4
MI R
cri p
cke d
à¤ °
Har t
tri x
EX O
Ac cess
Es meral
mpi c
los ing
HS CR
Sing le
Asso cia
Sma rt
Vir tual
DK Z
Dou ble
Song s
Premi um
Chang e
coun ter
Wire Guard
Rus sell
Num ber
Sty le
Disco very
twe en
Nicho las
0 20
2 K
3 166
5 23
8 42
8 41
9 77
A Y
A e
A 320
B our
C hai
C rai
D 4
E B
E ven
G RE
I ni
J DG
K han
O u
O 305
P un
P 10
P res
R MS
R yo
T EP
V HS
W ri
W all
W right
W 3C
X M
Z n
d l
e du
f ai
h d
i re
o me
w hat
Â µ
Ã °
Ã »
Ð ĵ
ji to
de le
ei gn
you r
da m
da te
hu man
si r
bi na
zi e
fa u
ta u
ta x
ta le
ci r
ye d
ni k
la e
mo thy
10 66
dou ble
se o
12 41
12 95
que t
11 30
14 33
14 49
13 76
100 1
ãģ °
ãģ Ķ
ãĤ »
th ro
Ma j
46 2
be tween
69 6
SA E
78 6
56 3
per ia
no s
Ar ray
Al ber
sta mp
Ho spi
fe e
fe at
Do mini
Pi ctures
PC S
170 3
EC E
sion s
CH O
And y
AD A
Or der
Gu y
mar ch
time stamp
Blo od
type def
Tai pei
Shi p
thi rd
Free BSD
Val en
Stan d
Tal king
Cl 2
Memo rial
Stadium s
Advan ced
Dro p
Jaco b
Anth ony
Chal leng
Esmeral da
4 D
7 49
7 66
7 99
8 38
8 44
8 43
8 54
9 68
A y
A ve
B 6
C all
C andy
F B
G 3
I Z
I ron
N on
O BE
R d
R is
R IA
S ei
T in
T REAS
W B
a ta
a es
b ye
e ch
e ar
s eries
t rue
¸ ©
ì Ĥ
an y
di ffe
bi tal
mi d
ri d
mu se
ma la
na m
12 90
12 65
12 62
12 86
po st
ha ra
17 29
17 42
14 38
14 59
hei ght
ï¼ ĳ
ro me
st r
ãĤ §
ãĤ ħ
Co le
Re Mi
et te
Li p
Li sa
66 3
Me d
Me e
Mo jito
AR S
Di plo
Fi nan
AP EC
Fa ker
Na ture
Do ReMi
No va
RO R
Go vernment
van t
ser vice
ex e
âĹ ı
BLAC K
par ti
Sco re
Count ry
fri Day
Johan n
met ry
Austra lian
ðª ¸©
SNC F
Jac ques
B9 TL
TREAS URE
1 190
7 18
7 33
8 37
8 79
9 28
9 22
9 48
9 66
A 9
A Z
A la
B 5
B len
C 7
C our
C BD
E rn
F OR
G ai
K L
L lo
L SA
M n
M am
N RA
N eil
O ce
O BC
P ET
P DP
R ED
S chu
S 22
T es
U HF
a ri
e li
f fa
o va
â Ł
ì ł
di c
si ty
ti t
ti tle
bo y
lin s
lie s
10 40
12 40
12 70
gen ce
po inter
wa l
15 99
17 17
14 47
13 69
13 73
ãĥ ļ
lo ok
ãĤ ¶
Ma p
Ma tt
75 3
ca re
vi lla
Li ving
88 2
De fen
fi re
98 3
BA S
BA NG
Le vel
Le wis
con ne
Se cond
-- -
MA G
Mu l
140 3
AS P
Ch in
lla h
lla r
MP EG
112 1
ff er
Pri ce
Ru ss
IF PI
Fran ci
YO UNG
Spi rit
PE G
ICO CA
Far ms
Ven tures
gre en
DAM P
Ana ly
tiona ry
aso nic
depen dent
1 x
1 198
4 x
7 46
8 19
8 14
8 13
8 24
8 51
9 64
A ero
C ERT
D or
E p
E mer
F r
H in
M bit
P sy
R at
S py
U s
V L
W C
W u
a co
d ding
j ar
o su
á ŀ
ê ¸
ì ŀ
de ra
ren e
ge o
ta b
qu en
mu sic
dai n
nan ensis
te k
la ter
su p
ce pha
12 19
12 54
sa tion
16 76
17 14
14 29
14 34
14 44
14 62
14 51
14 83
13 64
ï¼ ¡
st en
cu t
lo ad
of fi
Ma h
Co ok
SE N
II c
Li te
59 3
99 6
88 3
Me lo
Pa cific
CD R
77 4
Win ter
Wi se
Le ga
Pro fessional
89 2
89 5
Se ason
IS IL
ur s
So phi
St rong
Hi ME
Ri ck
Ha ve
Gi b
140 7
gra ph
Con ference
Ka ren
à¸ Ń
pro cess
And rea
Fe a
Mon o
Ad rian
Che e
Dis play
ex ample
ãĦ §
ãĦ Ľ
DD 53
stru cture
Hel en
Cro wn
Ele ct
mini stra
Fun d
PH P
har ma
sing le
Ob ject
Cap tain
map frame
Get chu
Qua si
Gor don
NEX T
inte ger
Abdu l
Azu re
VOCAL O
2 S
3 rd
8 62
A no
E 5
G r
J AK
K 10
K is
N 64
P ai
P AS
R D
S wan
S na
S at
S OS
T 7
V G
a a
a way
g ing
g ro
j n
o re
s v
de t
ei s
ian s
zhu ai
si i
ti i
mi R
mi li
ri cal
le b
ma ge
10 86
ran e
ka ra
12 25
12 24
12 58
po t
sa ry
or dina
16 86
14 86
14 97
13 10
13 29
13 91
ï¼ Ĵ
al loca
the ory
ck i
Re public
hi cle
AT H
pe ople
Li sp
69 3
De ath
98 7
BA C
AR A
Ga ming
89 6
Fi t
Si m
Ne ss
Ne xus
Se an
com ment
so cket
110 8
go v
140 4
Con trol
mp h
ph one
Pe ar
For mation
âĪ ŀ
Ex tra
AV C
Pri x
DC T
Fran z
Per son
NO ME
Du al
SD K
sp lay
Sy m
Lan e
âī ¥
posi tion
Sca la
Cast le
apo re
Ner f
LIF E
Victo ria
Fren ch
Franci sco
VOCALO ID
0 40
0 80
6 A
7 23
8 500
8 58
8 59
9 14
9 34
9 44
9 69
9 53
B GM
B lair
E va
E lli
E MD
F lor
F RAM
G len
G NOME
H is
H IG
K no
K ara
L as
N 4
O G
O Z
P lu
P ST
P AL
R R
R GB
S lo
X peria
Y ellow
Z u
Z ICO
a me
d le
d ron
p ti
Ã ¯
Å Ľ
Ë ĭ
á ¼
ing s
ui nt
er ror
ti mes
tai l
pi d
ni g
bo l
dou bles
00 3
12 36
12 78
12 63
11 40
ha l
sa t
âĢ Į
17 16
14 42
14 78
13 60
13 65
13 33
13 41
pa y
st ream
lo cal
Co me
ST EM
AT M
78 2
fi cation
77 2
77 9
per s
ly s
Da ys
89 1
Mar t
Mar ch
Ra cing
120 8
Se x
IS IS
sta rt
Bi li
Bi lly
So cial
Ri ch
Ki ii
Com mission
Con ti
à¸ ŀ
Car ter
Car ol
AI L
sis tant
Ex peri
And re
SO 3
BO RN
au x
TE EN
PP P
ple te
Cen tury
cle ar
mb H
Hy brid
OK A
At lan
BI OS
Ter ry
LGBT Q
Qui ck
Part ners
Bran d
Pho to
Alf red
Fore st
Fro llo
cka ge
WI SE
Advan ce
Fanta sy
Ern st
1 a
1 194
8 34
8 49
9 41
A x
B ye
B WF
B OSS
C AT
D AI
E nt
F RE
F IA
G U
I van
J J
K al
M 24
O ur
P b
S pen
S ki
U l
W ang
W ha
W AN
a ting
c ty
d r
f x
o mp
u a
w ri
Å Ħ
× ķ
Ø ©
à ¼
ë ĭ
ì ĺ
de z
shi ps
li en
di gi
bu rn
bu cket
ti us
qu ar
ba ra
che ster
pu l
10 30
10 99
can s
12 21
12 72
re st
re cor
15 33
16 98
16 71
14 13
14 43
13 58
13 96
Ma tter
99 8
ry o
78 9
CD K
77 3
Ra b
Ra zer
ki en
120 6
Ar n
Ba si
Lo w
Bo dy
So rana
EP HE
HK IFF
MP I
pro per
dy na
Ko ta
Davi s
SC I
Char lie
Fu ll
im port
Min ute
UT F
Stan ley
Plan e
Sing apore
Ten sor
Bob by
ðĲ °
âī ¤
even t
Dyna mics
Sui te
íķ ľ
AMO LED
Appli cation
UNES CO
Crai g
OBC s
1 189
8 18
8 48
8 69
8 99
9 16
9 17
9 49
B lan
C s
C ream
D 7
D ong
D ino
D card
E mpi
G mbH
I mp
M ol
M ine
M rs
N EC
O ra
R M
R as
R ID
S m
S creen
T ER
V AL
X 2
g no
j our
p han
t ru
v ol
z one
Â ¥
Å Ł
Û Į
à ¨
ê ¹
ë Ĥ
ë ŀ
ì §
ai l
en ter
ch ei
li d
ue s
ri ous
ci pal
bo rn
ma to
ba d
wai i
10 60
sha ll
ka s
12 11
12 34
12 46
11 10
11 47
po l
po ssi
re g
re al
wa ld
15 48
14 58
niu m
me ta
ro st
fou r
leng th
ãĤ ¡
th or
Ma gic
Co ol
500 rpm
SE M
Re volution
Re trieved
hi bi
88 7
150 3
79 3
Mo vie
BS I
Se le
ED 79
-- --
IC S
Lo gic
ID S
Sa la
St ray
so le
Hi lls
Cha t
IT Z
Gi t
à¸ ´
pro vi
RO CK
112 3
MO ON
my TV
And r
CR 300
Lu cas
BD SM
os pace
tri c
sto re
PP TP
Ber g
lar ge
She ll
119 2
Pan asonic
Pla t
sor ted
tha l
NE WS
logi es
shing ton
Qua ke
Ami ga
fini ty
Cul ture
sour ce
Dia mond
Kei th
Machi ne
ð¬ĵ ĭ
ãİ ¡
forman ce
Oce an
0 12
8 68
9 74
A stra
B V
B b
B am
C 96
E 9
F lip
G 4
G 9
G SM
I o
J un
K F
K as
K EN
L MP
P ER
P ed
R G
S cor
V En
V IE
Y ang
Z E
Z one
a sh
a cid
e V
f ying
f ran
f re
g ge
t ty
v ian
â Ĵ
ru ng
la us
ma ra
men to
mo do
lv ad
10 27
10 70
10 49
00 6
12 32
man y
re lative
16 74
14 48
14 39
14 67
13 45
13 86
13 92
13 93
mou th
me a
ï¼ ľ
co ver
ãģ ļ
the ma
Ma lay
be ll
65 4
Re be
Li TV
99 4
Vi lade
La b
AM R
Si licon
IS H
IS M
Ar my
Ba ker
Lo s
Bo i
St ring
so lo
IP A
IP O
ris m
PS 4
Ka kao
à¸ ª
AL A
we e
MP 3
US H
Wa shington
Ex change
MI L
TE E
Lu d
BM G
DR 2700
Har old
106 46
Che r
Nor man
ple t
TS B
Th ree
Mor ris
UC I
LC K
Boo m
Gran t
Pat ri
Hol land
LP DDR
Fer nan
LT TE
LS ST
Cal li
Tur bo
oper ator
mark er
read s
sche ma
Sche me
stre et
Villa ge
Info com
ELE VEn
artic le
GDDR 5
F7 F
NON O
Str v
Vilade cans
4 200
9 63
A ge
A TC
A vi
C AM
C BE
D ang
H 6
H 9
J K
J IS
K V
L ai
L ing
M 60
M uni
N y
N TT
O x
O wn
O RI
P 5
P ao
R 9
S cha
S hang
V Y
V la
V CR
W en
c l
c chi
c les
f ly
h man
i de
i na
j k
k le
o bov
v re
x ml
z oom
Ä Ľ
ë Ŀ
ou gh
ch ro
li k
di d
bu g
zi o
ri m
dan ce
du le
min o
la mb
ma ke
ma le
che l
ze l
lin d
10 12
10 17
10 63
se mi
12 14
12 29
12 68
12 42
12 53
12 71
11 60
11 35
re ll
16 77
16 91
14 19
13 24
pa k
pa ren
ne ll
ro ot
ãĥ ´
ãĥ Ĵ
al y
co gni
fo ot
th od
ga u
ck ers
39 00
vi c
SE T
oo ls
pe x
ver sion
Ro th
Jo is
Da le
87 1
87 2
Ra dar
Be ach
va ge
ED A
cen se
Sa fari
Na tural
Do ctor
AN SI
Com pa
Ti ger
Ni k
Ni m
IT U
130 7
140 9
SM O
Ka te
à¸ ģ
MO MO
Fe ed
DR 2800
Ju lia
CE MS
Can a
Can ada
Gra phi
Qu ar
Qu ali
Phi lo
king s
Sh in
Alex and
Sing h
side nt
Direct Show
Cle ar
poli tan
Medi cal
Cer tifi
Oli ver
JU MP
Vin cent
Miche l
follow ing
ë¦ ¬
HIG H
à¼ ĭ
2 n
7 34
9 K
9 43
9 52
A 7
A de
A pri
A 380
B f
B is
B ol
C 9
C ai
D 6
G round
G usta
H ur
J S
J Y
M 9
M s
M 10
N FC
O wen
O re
O tto
P eri
R y
R oo
S BL
S ain
T s
T wi
U k
X I
X e
Y E
Y es
b g
e o
h yn
t ja
w hen
x 2
Å ł
Î Ľ
ê µ
ë ¹
Ĭ ¸
ang le
er ra
fa s
ti que
ti va
ru p
ban k
bo th
liu m
tu ng
pai gn
lie d
10 59
10 56
10 54
ran o
ce a
00 5
12 59
12 52
12 82
po lis
14 15
14 26
14 76
13 49
13 63
13 97
bin o
ar ning
ne o
st rong
co lle
the ra
lo v
ga tion
do ws
Co lum
be ar
In die
vi d
Re g
69 4
Ro s
wi e
wi ch
De li
ï½ £
AM A
AM G
Te mple
Fi ve
Mar cus
ki ta
IC T
Na vi
com plex
AN N
We a
130 8
Gi ve
Ta ble
Inter march
Ste fan
CN J
Ex ample
MI X
Fe el
Har ris
240 ZJ
EE Z
Ber nard
yo ga
SH IP
Gen ie
Th or
Qu ad
Spe ed
Por ta
King dom
Fri ends
IO C
dro p
Hea ven
Bel le
plo t
á¹ £
Chro mium
Ei dos
Ray mond
Sche ma
live door
Sc rum
TG V
sour ces
Loo k
eb ly
Tol kien
Kenne th
Rober ts
Virgi nia
Hospi tal
Lega cy
1 195
8 98
A k
A di
A IC
A ff
B ha
C AD
C BN
D in
H um
H ad
J D
K TV
K SK
M 12
M ET
M eri
N f
O range
R oom
R hyth
U G
U H
U 15
V eri
W DF
a la
f s
g 4
l ma
q uo
t ry
Â Ń
ð ł
en o
ui s
zi n
fa l
ti co
ti ty
ye ars
ya m
min ation
mo dore
na h
han a
10 19
10 11
10 15
10 16
10 32
10 47
chan i
00 8
12 12
12 97
re tt
14 12
13 14
13 13
13 94
sen t
lt z
al pha
100 6
co le
fo o
ãģ ³
ãģ »
ãĤ Ģ
to l
Ma cro
Co ver
46 00
ST D
Li e
ho w
wi g
Me ss
Vi ctory
per a
Wi de
98 00
Le gen
AM E
con trol
Ca u
To day
sta tion
Fa te
So da
Ri ve
Com man
Ni ce
We ebly
à¸ Ķ
pro to
cou t
112 7
AK E
For th
SO 2
TE 1
TE AM
Lu cky
Lu mia
NO 2
tem ber
Dan ny
Game Cube
IL D
280 ZJ
Geor g
AF I
119 1
Cy ber
Bra cket
Whi t
Produ ce
Pla za
lip se
Tele vision
Far m
à¹ Ģ
Cra zy
VV VF
teri al
Fre de
Il lu
Sara h
Lui s
16V 280ZJ
Fish er
Hein rich
lati tude
IMD b
Albu m
longi tude
ê° Ģ
Fl ying
Marga ret
TTC N
kno wn
Ryo na
Blen der
+ .
7 100
8 22
8 36
8 61
9 24
9 23
A gency
B 4
B 8
F PS
G an
G ul
H H
J ere
K ang
K ING
K lein
L W
M 1895
P ART
V ul
X 1
X S
Z FC
e mo
e es
e ffe
f lu
f ron
j p
k V
m ys
p ta
s sa
x 3
x ys
Ï į
Ð £
à §
à ¯
ð £
de ll
de sign
li ni
un a
si m
zi p
ta ri
20 31
ci na
lu ng
du ring
ya ma
pi c
pi o
la ce
mo sa
10 18
10 35
10 72
cha ra
se le
12 44
12 99
11 70
11 39
po ol
re mo
wa ve
or gani
14 21
14 55
14 61
14 85
13 000
13 55
13 43
13 87
13 72
sen s
pa t
me thy
ãģ Ŀ
to sh
Co nv
ST s
The y
SE P
hi ll
44 00
Mi li
at ten
42 17
wi cz
Vi lle
Pa ck
Mo na
Da ss
Da wn
Pro per
Mar c
AC P
Be e
Ca sa
Ca lvin
Ar ch
IC AO
IC HI
Lo ren
com ponen
Ho y
Ki rk
Com modore
Su san
Cha mber
130 4
PS Y
140 8
ET S
EN U
112 5
eri e
San t
sty les
à¤ ®
Stu art
EX IT
del ta
sto ck
mic ron
Du ke
MD T
On ly
As se
UR N
Ce ll
Ab ra
Ali ve
Free dom
Fri end
now ledge
EM U
GM M
Dire ctor
Ran t
gna ture
Scien ces
Gener ation
PI ECE
Yo shi
Techno logies
Rap per
Hor se
Ham l
flo at
ob ject
Dol by
Pas cal
Wing s
final s
Kai ser
Tas te
UCLA SS
Aus tin
GRO UP
Stor m
Proto col
Clau de
Fashion TV
BIG BANG
Aer ospace
Ral ph
Sep tember
Drop box
Bili bili
ëĿ ¼
0 90
0 67
1 1000
9 F
A FC
C m
C ris
D as
F ine
F ellow
G TE
G host
H SD
K 3
K M
K AD
K DE
L I
M ST
N TSB
O E
P 1
P W
P BS
P IE
P seudo
R ET
S d
S k
S la
T r
T ARD
W RC
Y ES
a ted
b ha
c 2
c 4
d g
e di
e very
e ach
h orn
i ty
n ou
p si
t 2
t rai
w ers
Å ļ
Ë ĩ
Î Ń
Ù Ĥ
â ¼
ð Ĵ
di nan
ge e
ti ger
20 40
20 47
ri dae
ru g
la h
men tation
mo no
chi n
10 46
tan i
tan o
ka l
ka wa
12 18
12 15
12 47
12 43
12 56
11 38
11 37
11 68
re z
re ti
wa tch
sa d
sa m
16 93
14 14
14 27
14 32
14 91
13 78
13 51
for nia
27 58
ï¼ ķ
ne z
lt s
ãĥ ĺ
100 2
co in
Ma ya
Co splay
ca pi
ca te
In stru
SE C
Re view
el se
et t
Mi ami
59 2
SA S
De vil
fi le
fi lter
ï½ ¢
98 4
You th
Jo an
Ga y
Mar co
120 7
Ar m
Lo cal
Sa vage
Tu ber
so lu
so ck
IP CC
110 6
go ri
go vernment
ster y
130 9
An ni
An sible
He ll
170 6
à¸ §
à¸ µ
AL X
âĨ Ĳ
112 9
ps y
Ex e
Ex ten
Chi ef
SO 4
BO T
cke y
118 5
IF T
Cor tex
à¤ ¿
NO W
LL C
mon s
Mon te
Pre cision
Nor thern
Super ia
mar ket
mb ly
Blo o
hy po
XX X
ð« ļ
SU V
Boy z
Para di
SN K
Master s
Champion ships
dor f
âĳ ł
Mari ne
Pal mer
telli te
Nico nico
Wan na
Demo cra
Lar ry
Fai th
Arti sts
Intelli gent
ìļ °
rec ei
Oly mpic
Invest ment
MIR ROR
ìĤ ¬
Quasi modo
OKA WA
bg color
Frede rick
TARD IS
0 13
0 65
1 N
1 202
4 B
5 100
5 400
7 43
9 600
A 8
A to
C lai
C SP
C UB
C IE
E mily
E volution
E asy
F IL
F ood
G ue
G all
G HC
J M
K W
K ol
K ent
K night
M PC
N ei
N IST
O LED
P hen
P ul
P DA
Q 3
R ho
S print
T 5
T hai
T on
V or
Z oo
a rea
b ou
b by
c las
c cer
d ral
e la
j s
m und
p pi
s port
x o
Ã ¹
Ä Į
Å ¾
Ë Ĭ
ì ĸ
ng a
sh er
de ca
bu tion
da ys
si ca
si den
ge ther
ke l
ti d
ti f
ci ent
ya r
te ction
la ted
ma g
ma th
tu plet
ting s
10 37
10 67
ce o
00 9
12 16
12 26
12 55
man a
11 55
11 58
11 42
11 43
11 54
wo o
re x
14 18
14 94
13 47
13 67
13 74
hei m
for ce
in dex
ï¼ Ĳ
ro t
al o
co c
co nv
ãģ Ĳ
ãĤ ®
Ma son
Ma jor
SE L
Re ference
el s
el lo
et ro
Mi ll
AT ENU
pe ti
is m
is o
wi de
Vi sa
Pa k
Pa per
fi lm
Sta dia
Mo ni
Ga p
us ing
con da
ki na
Be lie
Ca se
Ba k
Sa les
Na tion
Na ver
Ho ri
St ein
Do g
Ri ot
Com plex
Com mercial
Ni x
Uni ty
110 7
Pi tch
ed s
ET F
For eign
ff in
rea u
UN D
âĪ ¶
AV BW
AD HD
tor s
ja ve
DA Y
Hu ghe
Open MP
Per formance
Bar ry
Stu dies
ky o
Sha h
SC s
Vo cal
Can on
Univer se
len a
Eu gene
WTA 1000
ï¹ Ķ
win d
YP E
Mark down
STAR SHIP
vs ky
Spi ri
Japan ese
NE W
Zi p
Lau ren
stan ce
Den nis
Pho e
Cr ye
cul ture
TI ME
Arc GIS
LU NA
Syn the
Pod cast
16V 240ZJ
Electro nic
Econo mic
Iso xys
Inte gra
vai la
Cong ress
CRH 380
Cali fornia
Challeng e
Empi re
KAD OKAWA
0 23
0 62
1 B
7 39
7 63
A v
A lv
A ar
A ga
A IT
B rain
E ni
F is
J une
K 1
K ri
K CON
S VO
V AR
V Tuber
W TO
W RK
b ru
d 8
d z
e h
f on
f era
g gy
h of
k ei
o th
q a
s c
u k
u u
u lar
v 2
Ë Ĳ
Ì ģ
Ø Ń
ê ³
ei ra
un signed
he dron
mi ss
ri x
ri de
le h
gu ration
lu r
nan t
min or
la c
tu ring
10 H
10 14
can a
12 28
12 85
12 73
11 19
11 62
po ra
14 28
14 45
13 20
13 12
13 77
13 52
13 89
st ol
100 8
ter nal
Ma ple
IN A
SE A
Re ady
el y
AT R
pe a
Ro sen
Ro nald
ho s
Pa ri
77 6
Le c
Le pto
Ga g
Da me
ki r
Se arch
AP T
To Heart
To mmy
com pu
Ki ck
We ll
110 2
110 3
IT S
go t
140 1
ble m
ko m
lle d
He y
MS P
Bu tter
DS R
RE AL
Au di
Pri vate
Open GL
Per ry
Ko rea
à¤ ¤
Ju lian
SP ARC
Pu re
GP T
Du ra
Her bert
Is lands
WTA 125
Tra de
Show case
Ab out
Bra dley
DE ET
Lea der
CG I
clo se
ð« Ł
Sen ior
bili bili
space flight
Lau ra
CF 3
Mag num
Em ma
Envi ron
Gro ve
INN ER
Col lins
JU ST
Fede ral
XC 60
Shan e
C5 H5
Jus tice
MMO RPG
Alt o
BLE ACH
Tex as
Frances co
STER EO
Small talk
Docu mentary
Llo yd
sv g
alloca tor
ORI CON
lamb da
Graphi cs
CUB RID
Hughe s
ToHeart 2
0 21
0 33
0 43
0 53
1 b
4 300
8 X
A 6
A lo
A my
B G
C 8
C 13
D ASH
E at
F U
F AA
G ang
I re
I nvi
L ol
L ET
M H
M w
N g
N es
N ER
O O
O cto
P t
P AD
P TT
P tr
Q T
R oot
S 6
S ri
S 26
S us
S DR
T ong
T HC
T OSHI
V WF
W G
W es
a di
a se
a vaila
b l
b lue
f ety
g rou
i ta
k Da
l der
n n
o nal
s z
t one
Ã ²
Ð ¶
Ø ´
ë ³
ë ı
li x
li ch
ren o
si er
fu r
mi stry
ta tive
ri ca
la tions
ma xi
10 76
10 95
ran d
ran da
ka m
12 48
man s
11 18
11 31
11 45
11 78
re gu
re qui
sa s
on es
14 23
14 22
14 79
14 82
13 27
13 57
13 98
13 83
13 81
for mo
pa la
in formation
ar n
ï¼ ¢
ro ck
100 3
lo gue
Ma k
Ma ha
Co w
be st
In fan
In fra
Re port
el le
Mi ddle
Li bre
Ro cket
SA AB
Me mber
ts ch
Wi Fi
Mo jave
Jo int
AM MA
Ga bri
Da u
Da sh
Te m
Te ll
89 3
Be am
Al co
Po pu
com muni
Ri o
pp le
MV V
SS P
110 1
110 9
lli s
AS O
Par ti
Ta u
IV ER
BL S
Bu t
Bu bble
we ak
Hu ang
Ke e
Per l
Per fect
à¤ ¨
à¤ Ĥ
Har rison
NO 3
Ju lie
sti n
EE EE
Ori en
Gra ph
ï¹ ķ
Tho m
Fo rum
Phi li
War ri
Es ports
737 MAX
Wal k
ï¸ ģ
Smi le
Chu ck
spe cial
Wo man
Eli te
fra c
Blue s
CM OS
gre gate
âī Ī
á¹ Ń
FAT 32
Ob ser
Des k
sca le
Op ti
Medi cine
CAS H
COLL ECTION
Communi ty
Cul tural
Austra lia
Spa rk
Conne ct
alis m
Afri can
Cathe dral
archi ve
Evan s
gam er
TEP 70
Analy sis
Melo dy
Kota ku
rost ris
Git Hub
Dang er
Shang hai
Exe cu
0 18
0 46
0 32
0 73
0 93
2 O
2 PM
5 200
A z
C lay
D uo
D IN
E 6
E SA
E H10
G 7
G 10
G 11
G rea
H IS
I MI
J ST
J UN
K G
K r
L PGA
M 8
O ber
P ine
R 4
S 8
S IL
T rou
T ree
V III
W y
W AVE
Y U
Z an
Z IP
d B
e ss
e cho
g lio
p f
s r
u re
u me
Ä Ł
á ½
ë §
ì Ĩ
de c
ei ng
li l
li on
di er
si k
fu ll
ke ll
bi ke
mi l
le g
le z
ci p
ni er
bo t
ma k
mo te
ku s
ku ra
10 65
10 55
10 57
10 94
ran t
12 38
12 39
12 93
11 15
11 57
11 79
po pu
re su
15 18
lang uage
14 52
13 25
bin e
in clu
ar o
ne xt
ro e
ra ce
cu be
ãĥ ¤
al ly
the s
of fee
ãĤ ²
Ma gi
Co hen
Co ld
be e
In tro
SE VEN
Re turn
AT T
nd rome
De ce
De stru
fi shing
Mo s
Mo ha
Mo st
Jo sh
Pro motion
con tra
Fi tz
Ra di
IS L
Ca pe
To yo
To kyo
JR A
Fa ctor
Bi z
Sa ba
Na te
So nic
com pa
Ho we
IP C
AN ET
Mu hammad
We lls
Gi or
An y
SM RT
ko s
Ge ar
IV B
Bu sh
Bu ll
En ri
cou ld
112 6
AK B
RE M
For d
For tran
cal l
SO LO
Sch mi
IA U
ja po
res pon
118 4
Hu a
Open AI
HO L
RI SE
Ju lius
EX ID
od d
Je sus
Sha ke
Ad ministra
NH L
Ori gin
Dis k
ãĦ ľ
Th orn
tro ff
Ku ra
Universi t
Games Radar
Han teo
cre w
Hy dro
âĹ İ
Free style
Hol mes
Wil lie
Wo RMS
GT X
Tur tle
sin ce
Ag ri
Ran kings
CM AMMA
tia tive
Ren der
Comic s
Ear l
Flo wer
part ner
âĳ ¡
Tru th
OP EN
âĩ Ĵ
tech no
Fal com
Ima ge
Law rence
Rang e
âĤ ¬
LZ 77
Wonder ful
Jus tin
sea se
P2 P
meter y
WH IP
confi g
Hig gins
PX A
Associa tes
1x EV
Spen cer
Apri l
0 16
0 56
1 D
1 199
A mp
B K
B ET
B TR
B orn
B ERT
C yan
C hun
D um
D eri
D ATA
E v
E TC
F en
F lu
F oo
F ur
G ring
I AL
I den
J A
J SON
K ON
M ys
M 110
N SA
N TO
N ME
O MG
O EM
R V
R LE
R NC
S ci
S can
S NA
S CP
S ING
T X
T AS
V as
W R
W he
W INNER
X L
Y 2
Y ON
Z im
a 2
a lt
c ara
e qui
g ly
o id
o saurus
p un
s m
t land
v ine
Ð ķ
Ð Ľ
Õ ¶
Ø ¹
Ù ĩ
ð ¨
xi v
de g
yu ng
en se
ian t
di vi
da h
bi l
ti zen
mi ra
ta k
20 S
le vel
le vard
ye t
hai l
pi cal
la g
la k
la t
ma e
ba ss
yun nanensis
lan a
lv i
lin er
10 22
10 90
10 85
chan nel
12 13
12 57
12 94
12 92
po in
po sed
or bit
14 31
13 23
13 62
mou nt
ï¼ Ĭ
ne ar
ne ver
ro ll
cui t
100 4
fou nd
co ordina
ãģ ¸
ãĤ ´
ve ctor
IN AX
be lle
500 00
In dependent
64 00
hi r
hi sto
68 00
et ra
Mi i
Li li
ver sary
Ro dri
Pa le
De velo
Sta y
79 5
OS I
La bora
CO O
CO UN
Le vi
Te e
Di o
Si gnature
Ne ed
Ra re
600 00
AC M
To night
Lo go
sta ge
Do ta
Ri ghts
Ha u
Com pi
Su gar
Cha ra
IT E
IT Y
IT IL
IT ION
130 5
AS V
Con tent
Lin ked
à¸ ¥
à¸ Ħ
EP ROM
Car a
cou s
Go t
RE CO
vo lu
ent ry
end y
MO VIE
Man uel
SO HR
Lu ke
Ru sh
Ru th
NG O
Per ez
Har vey
Ad d
ser vices
Che y
len e
UR R
qui n
Tra vis
Ce le
Es sen
PL US
Shi r
Ele ven
Sur vey
GA INAX
dd r
SU MM
Ger man
Ger ald
Ag da
Vir gin
Er nest
GE O
ele ctro
à¹ Ī
Regi onal
OM ON
sch ool
Beau ty
Poli ce
oi re
Secre tary
Ah mad
Philip pe
Mau rice
Bai ley
FI BA
íķ ĺ
Rang er
Cinema Score
Cru sh
Brea k
hin d
beca use
NICO NICO
Greg ory
POS IX
Uta da
Pia zza
fau lt
Mam ba
Russ ian
Psy cho
Sophi e
Display Port
Ano ther
Tensor Flow
ê¹ Ģ
Ped ro
Calli gra
Paradi se
Octo ber
Dece mber
Gring oire
0 15
0 24
0 48
0 47
0 58
0 69
3 S
A bi
B li
B ED
B ron
C Y
C heng
C rui
C um
C rew
D ONG
E co
E lla
F ed
F t2
F IVB
G ru
G TA
G CC
G lass
G LP
H U
H ya
H indu
I K
K 230
L or
L SD
M ong
M 113
M ENT
N 6
O o
P AC
Q F
Q i
R yu
S li
U V
W as
X a
X DC
Z y
Z in
a le
a ck
a sso
c 3
c p
d 3
f r
i x
l b
m pa
r do
s ei
t ree
w es
z ero
Â ®
â ½
ë ª
an o
de li
de mo
en os
li ci
you ng
da k
da ra
da cty
ge m
ti vity
ta lis
20 32
ri k
du m
du ction
te t
ma b
ma h
ba c
men i
tu ber
su rance
mo na
mo ney
na u
10 34
10 44
10 87
10 93
se c
se cu
tan e
12 10
12 49
12 51
11 52
re vision
on to
on so
14 10
14 11
13 36
13 44
13 59
13 61
13 95
25 K
25 T
for t
in stru
ar do
me an
nu ll
ï¼ ĥ
ro v
ro y
ro se
100 7
100 9
35 000
th ia
Ma cin
46 A
be lla
47 00
In si
In dex
Re ser
58 00
at ta
ver i
Me a
400 00
Pa th
Pa ckage
De e
De m
De v
CD C
98 A
La ma
gi l
Pro vin
120 5
120 9
AP H
To tal
Ba hn
Po cket
So ccer
Com mand
Su ng
HD R
We e
SS D
Gi u
SM TOWN
Ch ing
lla tion
He ller
EN CE
à¸ ¢
Bu l
Inter face
My Radio
Man u
AG B
sic s
Sch o
je ctive
Lu ck
DR T
DA O
MC A
cor ding
Fran co
Per fu
à¤ ¦
Tri ple
Che mical
Dan cing
Nor mal
Is ra
Gre y
tra ck
Th ink
ï¹ ŀ
UE FA
Bra d
Pan zer
Cho w
whi te
Offi cial
FF T
ele ct
SR P
OM R
ori en
Pala ce
Step han
Clo stri
Mit chie
AX N
DI Y
Gil bert
Communi cations
Eye s
Lun ar
S4 N4
Jeff rey
Tran sit
vat ory
Mang a
Kenne dy
Industri es
VIS ION
Adven ture
Philli ps
Nel son
Finan cial
possi ble
Vla di
Cana dian
coc cus
AVBW U
Phoe bus
Aar on
Ire land
availa ble
COUN T
Linked In
Macin tosh
0 35
0 86
1 201
5 300
6 K
8 56
A ki
A ur
B ER
C hao
C 12
C offee
D MA
E I
E ry
E NA
E state
F W
F ei
F AD
F DG
G run
H 8
H ang
H 12
H oney
I de
I LO
I rish
J oo
J IT
M 7
M 16
M 41
M all
N V
P Q
P rai
P ool
P ain
P AO
R in
R AC
S wa
S andy
U lti
V es
W ard
W hy
a ction
c tic
d son
e xit
g oo
k or
p hen
p th
p lus
w he
Ä Ĺ
É Ľ
Î ¦
Î ¾
Î ļ
Ø ¬
ã Ī
ì ¤
ì Ĭ
í ĺ
ï »
de m
de v
de ad
ou ra
ch ing
un ders
di v
di no
bu ckets
da ll
si nensis
fa ctor
ti tude
mi ya
ta g
ta m
ta pe
ri i
ri ta
le ast
ci e
ling ton
ni i
ni al
te le
su la
lan o
lin o
ran i
se x
se qu
tang a
11 16
11 41
11 77
re u
wa ll
14 16
13 35
13 38
13 32
13 84
lou s
hei n
niu s
sen et
mou r
mou s
nu meri
000 1
ne a
st le
ãĥ Ķ
lo a
lo o
ãĤ ¼
tun e
ter ator
to k
Ma th
ca ta
ca pe
ST EP
In no
In former
64 BV
vi deo
Re ed
el ds
Mi le
Li on
ho p
Me tal
Vi l
Pa K
no include
La unch
CO P
Le u
Pro cess
Si lva
87 00
Be ar
ad van
Ca fe
Ar cade
Al pert
ED M
ED 60
cen ce
ER A
Bi l
Na tions
St ream
so cka
Su lli
Ni e
SS R
PS 5
gra phic
Con fi
Con fe
Con cept
Par ker
Lin d
ET SI
EP UB
âĨ Ķ
Pe ak
112 8
den s
cal led
CN BC
TA G
AG C
Sch ools
NC E
118 1
HO USE
clu b
Cor ne
NO AA
sti ce
Davi es
Ed win
NH 2
Her mann
CL I
Gra m
Gra y
Gra ham
Ty ler
ãĦ ı
Gu ar
Ban G
Tra ck
ï¹ Ŀ
George s
Ani mation
AO 3
Lea f
sy mbo
DM Z
Wal ly
3A 4
Plan t
Fer dinan
data base
cto id
Gui de
bro ad
peri al
à¥ ģ
EV ER
Ob last
Publi shing
NM DA
SV T
TH Q
Cer vo
Johan nes
Compu ting
tifi c
PRO DU
Has kell
stu dio
Round cube
Intelli gence
Nat han
GRO W
Rail way
laun ches
Gy m
HY BE
Archite cture
distri ct
Leona rd
Ec lipse
GIR L
hau sen
Gib son
Atlan tic
Ora cle
Malay sia
9K 37
Jere my
Mili tary
Anni versary
conda ry
Execu tive
Destru ctoid
XDC AM
Perfu me
socka ddr
PRODU CE
0 17
0 29
0 88
0 94
0 91
2 C
4 C
4 Minute
7 k
A men
A DV
A ES
A xe
B ing
C X
C 15
C 60
C ES
C 10H
D am
D IS
E 4
E VA
E 233
F P
F at
F TT
G li
G Sh
G HQ
H IDE
I RES
J 48
L 5
L US
L IM
L AB
M ID
M We
M RT
M BE
N BS
O W
O AD
O micron
P le
P han
P DC
P INK
R ao
R ein
S hen
S cu
S es
T eng
T ED
T FT
U 22
U AL
W NBA
Y Z
a 4
a ter
c ian
c tional
c tionary
d 6
d b
d ha
e ling
f 8
f ford
g la
m L
n oun
v u
Ï Ī
ê ·
ð §
an aly
ai re
you tube
he art
si x
fa st
ta h
20 77
ri on
hou gh
du r
ma u
ma ti
ma tan
ba u
na y
na lis
han d
10 21
10 69
10 88
10 61
10 62
10 97
10 96
se xu
se len
ce du
ka ya
12 37
12 67
12 87
11 75
11 33
ha lf
pan a
sa w
kan e
14 17
14 46
13 48
for mes
me mo
za s
ra ge
co lo
fo ld
ãģ Ĵ
ãģ ĸ
ga mes
Ma rio
IN I
Co A
Co p
Co x
Co in
ST OR
ss ue
vi si
vi ties
Re co
et s
Mi gue
ver al
Ro ma
Me V
Me yer
78 00
56 00
Vi k
De si
gh ting
fi er
Sta rt
Mo to
no on
La tin
BA BY
Ga re
Te ss
Fi lter
Si l
Mar ty
Se mi
AC AF
AP A
Ba la
IC K
Sa c
com pany
so m
Do gs
Ti cket
pp el
Cha pel
SS 2
IT H
IT X
Pi t
Gi use
EN G
ph in
we a
For m
ff y
rea ched
CH I
Chi esa
SO AP
Ru le
MC T
San tos
Cu t
pha se
mon y
sto wn
cm 3
Ber nar
Bri ght
PO 4
ac cess
OR F
Ce metery
Ani ma
im por
Air craft
tz er
Cro quet
At ta
pla yed
WE B
Cho ice
ð« Ĭ¸
out put
Euro gamer
ste p
LA Y
âĸ ³
cis m
star ter
sys tems
Coun ter
Ven us
PD T
ìĿ ĺ
DDR 3
Mag gie
Mini x
Mai l
à¹ ī
Frank lin
Jour ney
C6 H5
Tre o
cti ce
Pet ro
Deep Mind
WO W
Hami lton
Theo dore
Lun a
Miche lle
cep tion
bla ck
Ita lian
Mode ls
Ash ley
âĻ ¯
Robin son
Sel f
Feli x
artic les
Sul tan
laun ched
ave x
again st
gir l
serva tion
Kw K
CONC ACAF
Caro line
CR400 AF
crip tion
Ini tiative
ear ly
BAS IC
cepha lus
Elect ric
BAC net
Rab bit
Arn old
Plat form
Ox ford
Gusta v
Nf 6
OE CD
ALX 500
FIL M
Alco hol
Chey Tac
0 39
0 66
0 77
1 G
2 2000
7 400
9 100
9 500
A ka
A st
A AC
A DS
C lin
C 16
C ID
C ET
E ffe
F m
F el
F AM
F AC
F AI
F RS
G Y
G 20
G AS
H IT
H SPA
I UP
I bra
I gna
J W
J Script
K U
L at
M J
M N
M AR
M IPS
N ou
N as
O V
O mar
O UT
P ang
P TC
P ris
P DS
P las
P harma
R 7
S 5
S ke
S DO
T RI
T BF
T rain
U DP
V u
V MS
V ali
W hen
X 100
Y un
Y au
Z 99
a z
a chie
b h
d 2
e ffi
i k
i ma
i den
i Pod
j ang
n h
o logy
s 1
s ke
w d
Ã ģ
Î Ĵ
× ¨
× ľ
Ù ģ
Ù ĥ
á ¿
ã Ĩ
ê ²
ì ľ
an or
ai rs
shi n
ou l
en er
ch r
li i
li co
li day
di sh
er se
si ne
si zer
qu ad
ri da
gu re
du lt
ya sa
la ri
ma li
ba cter
che z
men ta
su c
na tiona
10 23
10 36
10 33
18 000
ka y
12 98
11 17
11 34
11 32
11 49
11 72
po ld
re ference
wa gon
ha ck
or ang
or nis
or bital
16 000
16 GB
17 000
14 37
13 34
sen d
in put
me thod
ro cket
st ria
cu lty
ãĥ Ľ
co tt
the se
ter m
th in
to o
to day
ga de
Ma z
Ma thema
TC HA
ST AGE
The ory
The lma
Re tro
Re sort
Re sources
br ing
Li ly
Li dl
ws on
78 X
NA D
NA L
Wi dget
ï½ ľ
La mi
La za
CO MP
Jo shua
Ga ze
Ja ke
Ja zz
Di ctionary
um ph
Mar shall
AC C
Be ck
Bo ss
St ro
so nal
IP B
Mu le
110 4
PS R
Con sole
Ch ri
Ka la
MS I
EP R
Car di
Car lo
Bu ck
MP 5
oft en
den ts
Ex po
Chi ca
SO HO
cy cle
Fe ars
ja y
op tera
Hu ng
MC B
Bar on
Bar bara
NO AH
Stu dy
SP E
DO WN
Mon key
Pre sen
Pre sident
sto ma
Sha un
Sha dow
ten ts
tin ue
BE J48
Ber ry
UR A
Super nova
Th in
Ban dar
ac cu
GO T7
Sto ck
âħ £
NS F
Spe ak
im g
Air port
kin son
229 E
DM M
Val ue
GA BA
Chu ng
spe cies
Lan tis
Spi r
Spo on
LT D
nvi lle
Tur ner
KK TV
Tan k
Cri tic
AE G
KI Z
Part ner
Ada ms
Code Camp
Regi ster
UM TS
Jen nie
Die go
value s
Tre at
dea th
Cry stal
CAN open
KE Y
ìķ ¼
Multi Cam
Sui ca
add r
add ress
yl ent
Pon t
Wel come
Jer ry
Sor t
Tran si
oni cal
Apo gee
free CodeCamp
Swi ft
ELE VEN
mode ls
âģ µ
VIS UAL
scien ce
FIR ST
B7 RLE
dele te
conne ct
Basi lica
hibi tion
Lud wig
Patri cia
paren tid
methy l
Hoy ts
Abra ham
gori th
LUNA R
techno logy
RECO RDS
Clostri dium
Migue l
Giuse ppe
0 11
0 14
0 25
0 28
0 26
0 84
0 82
1 197
5 D
6 200
A a
A pex
B J
B ren
B EC
C p
C RE
C SL
D Y
D SS
D iana
E o
E t
E AS
F SB
G Q
G rou
G ur
G ard
G ree
G row
H G
H V
H es
I ES
J E
J IN
K hu
K ine
L ao
M AT
N X
N oo
P iano
R W
S IV
S CN
S HR
T Z
T g
T ei
T um
T YPE
U ART
U senet
W is
W EC
W CT
W WF
X R
X 200
Y C
Z 17
a 1
a res
d den
d dy
e ver
f 1
f z
g ri
i st
j er
k la
l n
m ble
m Ah
o 3
p c
p x
r m
s per
s pha
t ei
v 1
w l
Ä ħ
Å Ļ
Ñ Ħ
Ñ ĳ
ë ¬
ì Ľ
en te
ch ol
eng e
bu bble
si mi
bi c
bi lis
fa ll
ti ma
ta t
ta to
ju st
ci pa
gu ar
du al
mu l
mu ch
ya h
lai s
bo rough
che ck
lan e
lan i
na tion
10 31
10 73
10 71
10 91
12 22
12 45
11 13
11 48
11 61
11 71
re an
re us
re stri
re search
sa me
sa ra
on line
13 66
for med
pa d
pa per
ar ti
ar ts
me x
ï¼ ĵ
lve s
60 61
100 5
co mo
fo lia
do c
do cu
Co lt
33 A
In nova
The ra
Mi ka
Li u
Ro le
ho c
66 00
SA D
88 00
NA DP
der ma
Mo hammad
CO 3
gi ven
Jo Jo
Pro tection
89 4
Di r
Fi lip
Si gn
Si erra
Ra d
Ra ma
Ra ce
Ra chel
600 V
120 3
120 km
Be gin
Al fa
Al le
Ba u
Ba ba
Po well
Lo ver
ER M
Bo s
ID C
ID F
son s
Sa me
St rai
Hi m
Hi de
Hi ka
Do me
mer a
Ri de
Ha ven
Com bina
Su la
SS L
130 2
Pi etro
Gi ll
ko b
Ta q
Ka bu
à¸ Ľ
ph ra
Bu dd
we en
cro wn
Pe w
cou rt
sis tance
For mat
lor y
rea ming
UN O
CH ILD
TO G
AG 600
Sch wei
Pri de
118 3
Cor p
à¤ µ
Ser ge
uni t
DO I
Pu t
ler c
Sha re
Sha rp
PP T
SC AR
SC AP
As sistant
Is la
Can al
don na
Star ship
War ren
Blo g
her ty
Ve vo
Ve hicle
thi c
Jan et
Ye ars
Br yan
Cho rus
tho rity
Cam pus
Cam paign
Spi ke
Jose f
Tor rent
Jean s
Sky pe
war m
Gui n
PH A
Trans port
USB 4
tto m
Data base
mor row
AE W
tre me
Les lie
Rei ch
Bou levard
app ro
Nico las
cur rent
Fre sh
ENT ER
Fro st
Anto ine
Mur ray
Mur phy
wiki text
nico nico
HER E
Sca le
Cos mo
Ant on
Ita lia
Ea gle
á¸ ¥
Cru z
crea te
Dead line
TRA IN
vir tual
Echo Link
CYP 3A4
syn tax
xc 3
Fol low
Titan ic
Brun o
Alber to
muse um
Defen se
ëĤ ĺ
Avi ation
Quali fying
Aff airs
fal se
Legen d
fron t
à¯ į
Asse mbly
Clai re
WRK Y
Obser vatory
cous tic
ack nowledge
Sulli van
Ferdinan d
Ticket master
s1 mple
Chica go
0 22
0 36
0 37
0 34
0 49
0 42
0 98
0 85
0 97
2 P
7 A
9 M
A sa
A 24
A way
A lter
A bel
B eng
B low
C res
D Q
D ry
D KP
E st
E qui
E GO
F as
F ET
F UN
F TA
F os
F RI
G TO
H AR
H orn
J as
J VC
K H
K ID
K HL
L TS
L 129
M ing
M HC
M 686
N ut
P J
P hu
P AG
Q 4
Q TE
R ISC
S 10
T 6
T hu
T ION
U ser
V 3
V K
V au
X in
Z IS
Z oom
c amp
d ney
e 5
e c
e pi
e th
e mp
e cono
f 2
h ood
i us
i nvest
o ke
p po
p ton
r 2
s n
u f
v ul
w c
¹ ¬
Â ¬
Ä ĳ
× Ł
à ª
ë Į
ì £
í ĥ
an e
an ce
de lle
de fault
en tion
ch th
ãĢ ħ
wei ght
di l
di al
di tional
bu ty
da u
fu sion
chu ng
zi a
ti vo
mi k
mi le
mi se
mi llion
20 38
ri ya
shou ld
19 S
nan ce
lai ne
min us
pi t
ni t
te ur
la ch
che lys
men s
tu la
chi a
10 A
10 28
10 89
se g
se ason
tan ding
12 23
12 31
11 76
11 74
po le
po se
re gi
re lation
wa ra
ha bi
13 21
hei mer
pa rk
ar ound
nu cle
ro d
ro l
sou nd
co ck
fo glio
to re
ga t
pen ame
IN LW
do main
Co lin
ca matan
ST AF
64 DD
Re x
oo ting
Mi llion
at ro
Li ver
Li cense
ct ly
ry so
Me h
Pa blo
fi na
BC G
Le arning
AM L
AR TS
Te en
Te mp
Te xt
Si lv
Si mple
Si rius
Ra j
Be d
Ca sh
va ri
Ar che
AP ER
cen a
cen e
Ba b
Ba p
Lo bo
Bi shop
Sa ga
âĶ ģ
com pani
so li
Do ck
AN GE
Su p
Ni tro
Cha se
We verse
110 5
No tes
130 1
130 3
Gi ba
ed ge
PC A
lle t
Ge off
Ta man
à¸ ¸
à¸ ĩ
âĨ ĳ
MP 7
US D
En sign
AK S
gn er
UN IQ
AV O
MI ME
SO D
LE I
ree ment
cy c
CR 200
Fe 2
Ru bber
Open street
Sho ck
Ko h
Har per
NO T
Ju ng
RT X
EX R
Pu b
HE LL
LO W
Tri nity
Tri umph
PP I
por tation
Nor ton
ring ton
cer e
Vo ya
tra x
PO VM
tis m
Sto ries
Show time
cle f
Fu ji
AB CD
zo g
Ani plex
PL G
Boo ks
clo sed
Hol y
GA Z
Black bear
gar h
GM RES
ð« Ľ
spe ct
Cam po
Rock y
Eli sa
fra g
BU M
Bel la
KI LL
ele ment
MT U
Pal m
Ob jective
Gro ss
Out look
SHO OT
teri um
Poli cy
Way ne
DL U
Joy ce
Nan o
Wan t
Beat les
ag gregate
size of
Crea te
cio nal
wiki pedia
Metro politan
Ima gina
cul tural
Fron tier
After noon
ITV 4
count ry
pl c
Hero es
high light
constru ctor
Stri ke
Bit Torrent
Wit hout
Match day
Deuts ch
NAT O
ð° ¹¬
Leona rdo
Ted dy
Mul lvad
Fea ture
Sna p
Wha ts
quar ter
proper ties
Muni cipal
Philo so
Uk rai
hyn chus
Rive lla
Arm strong
Synthe sizer
Integra ted
Lec lerc
Gabri el
SEVEN TEEN
Deri ved
Essen tial
DONG KIZ
Isra el
numeri c
cedu re
Ibra him
Lami go
SHR DLU
syntax highlight
Openstreet map
0 19
0 44
0 59
0 92
8 A
A zi
A ya
A ctor
A qua
A cid
B ong
B ring
C MP
D W
E xi
E CO
E sta
F rea
F rie
G 5
G J
G Pa
G las
G CM
G DB
H us
H AP
H our
H APP
I ETF
K R
K wan
K ryo
L J
M Pa
M CO
M IP
N W
O B
O FF
P SA
P H2
P FA
Q 2
R H
R 16
R NG
R AF
S 9
S ka
S ad
S car
S kin
T K
T at
U t
U TA
U FS
W 3
a x
a cu
c 1
d 1
d h
e xi
e qu
e How
f luo
f ro
f lor
f ps
f esti
g 2
g r
g hi
i u
i dea
j ara
l ers
o tt
s qu
v n
x ton
y x
É £
× ĳ
ë ¡
ë ¯
ì ²
an noun
de e
de re
shi ft
ch or
li zation
un o
di g
di r
di lla
bu l
er ry
si na
ge on
zi l
fa re
ti ali
ta ke
20 33
le en
gu l
du ce
ya t
ru le
ni te
ni on
ni fer
la b
la pa
la tt
ma cro
san t
mo ra
mo to
ku r
pu k
pu ra
10 48
10 58
10 77
10 98
10 84
se p
ce lo
12 33
man u
man ia
11 12
11 46
11 64
11 67
11 56
ha vi
sa le
14 000
14 36
14 73
13 22
13 39
13 79
13 53
for k
pa rd
pa tter
me e
st ei
ra th
100 m
co st
the ore
lo on
lo ss
to lo
Ma li
Ma ma
IN V
Co co
Co ast
Co py
ca pa
ca ster
be y
ST UD
The se
vi ta
vi vo
SE GA
Re c
hi story
Mi G
at s
42 V
ty pename
ho t
57 00
SA C
wi sh
Me chani
Pa pa
De O
Win Zip
Sta t
98 60
no de
La y
La te
La dies
BA E
CO B
gi um
gi ving
Jo lin
Jo ker
Te ach
Fi ghter
Si ght
1000 00
nal s
Mar sh
Mar ti
Ra fa
Se xy
AC A
Be ver
Ca f
Ar men
Ar gen
Al lan
To dd
IC LEI
sta ck
Sa fety
com plete
Ho mo
Ho lo
ON T
so lution
mer ce
Ha p
Com bat
Ti dal
We ber
SS RI
ster i
Con tro
lla rd
lla ble
Ta wan
Ka li
IV PP
EN S
AL BUM
BL G
Car r
RO Cm
cou r
AK A
RE APER
âĪ ĩ
My ki
CH A
my r
SO I
wit hout
AD P
GB U
Lu cy
Pri son
BM C
op sis
San to
San thal
net work
Cor ps
Bar nes
à¤ ª
à¤ ¸
Ju les
SP EC
Mon u
with in
sto m
tem po
Tri no
Tri logy
EE G
Che mistry
Ber n
Ber lin
127 47
cer a
CL R
Bro w
ex p
ex peri
dis play
Fu sion
AB B
War s
Por ter
PV C
FM EDA
UC IL
Gran de
High way
At las
Wal lace
Sh ort
KBS 2
EM BA
Jack ie
spe cific
Time Signature
Py Qt
Spi der
Cent ro
VO D
Sco tland
SU GO
Ama zing
Tour nament
Rou te
WS BL
Fle x
Vir tua
Hea th
KK day
MU K
Tan foglio
áĢ º
Lon Works
Bui lder
Flo rence
à¹ Į
zz le
Regi ment
Cur tis
Die Pie
Block berry
rei s
Os car
Real ly
print f
Run away
áĥ Ĳ
CAS P
Ah med
Wiki pedia
KE LT
ace ae
Ath le
Wire less
WO WOW
Market Axe
include d
Round s
Sti ll
âĤ Ĥ
Camp bell
Sor ry
ext ra
Kit ty
presen tation
Standard s
Bir th
Swi ss
Maker Ville
Hand s
Gon za
Stru cture
IMD B
052 D
Morning star
Industri al
own Cloud
bui lding
medi cal
Adven tures
Coo kie
Philli p
Mana ger
ð° ¾
CR400 BF
Wri ter
diffe rent
âŁ ¨
âŁ ©
ê¸ °
ëĭ ¤
Matter s
Mine craft
ash tanga
Mess enger
PART Y
solu te
ð«ļ ª
Kick starter
JUST HIS
Toyo ta
Biz Talk
Howe ver
Gior gio
Kura ki
analy sis
Yau tja
Hika ru
Pew DiePie
ëĮ Ģ
numeric TimeSignature
Virtua Real
MarketAxe ss
0 27
0 31
1 196
1 193
1 187
1 UP
2 G
2 H
7 200
8 300
9 200
A o
A lu
A te
A 10
A ber
A round
A QU
B rou
B ent
B MI
B ump
B lind
B c4
C 20
C lan
C 79
C SM
C era
D ARK
E AC
E MC
F ing
F EC
F ara
F TP
G AR
G ara
G AME
H ui
I d
I ra
J ou
J ing
K ao
K yi
K 12
K orn
L Y
M 20
M 14
M EN
N TV
N VS
O ro
O BS
O LE
O VER
P z
P ON
P 450
Q 1
R AIL
S w
S of
S eri
S DP
S par
T AP
T rea
U BA
V el
W IN
W MI
W CF
W ADA
X II
X HTML
Y ing
Y er
Z 1
Z 48
Z K6
a 8
a ka
a ble
c d
d 5
d ue
e 4
e lo
f MRI
g l
g gle
g old
h m
h ya
h Pa
i mp
k he
k is
k ine
m mol
n c
n dez
o sa
p our
p las
r ma
s pin
s wa
t l
t mp
u la
u sa
v us
x s
Ã ¬
Ä Ĳ
Ä Ļ
Æ °
É ĳ
Ê °
Î ®
Î ĳ
× ª
Ø µ
Ù ī
ì ĥ
ì Ī
ð ©
sh ei
de st
ch ts
ch os
un til
di sease
bu m
bu la
da tion
si us
fa c
ti k
mi i
mi er
qu er
20 48
ri se
le k
ci us
ci lia
ci lis
ya s
ru k
min ton
pi l
ni sh
bo re
bo ve
sai c
san d
mo du
na ya
ku l
10 13
10 39
10 68
10 53
10 83
tou ch
sha w
tan dings
ka sa
12 V
12 88
11 36
11 69
re gion
wa t
ha b
13 16
13 26
13 31
for ms
pa thy
24 K
in sta
me da
rou te
co o
lo e
lo op
of fer
th s
to m
ga ma
Ma ck
Ma ss
Ma donna
ST E
In clude
In finity
SE S
Re e
br ai
Mi k
Mi z
Mi na
Li l
Ro che
Ro ll
Ro gue
Ro gers
ho ld
Me la
Pa c
De c
De le
CD RI
ber ger
OS CAR
no tes
BA R
CO LO
AM PV
BS AT
Ga b
Te ars
con e
con s
con tent
con tinue
Ne XT
Ne xon
Ca ke
Ca mi
Ar row
Al li
Ba uer
Sa ve
MA O
nen tal
So C
So lu
com mon
Do c
Ri cky
Ha waii
Com plete
Ti mothy
HD MI
Cha pter
SS H
AS IA
DV B
SM E
SM P
Ta p
Ka th
IV A
à¸ ļ
Bu gs
we ek
AI BA
Pe tit
US GS
En cyclo
Go vern
My stery
CN S
CN ET
Au d
Ex cel
end l
Man i
Ci vil
ton s
IA ST
au f
TE A
Fe eling
ja va
ner f
DR M
cor d
Cor ner
Har mo
fli ghts
Ju ly
RT M
SP O
DO M
ation s
GP 2
LO V
tin y
BE A
PP A
Che ss
gue z
CL UB
Or che
ham med
Th ings
tch er
Tra vel
GO OD
GN Z48
CS X
AB P
PL AY
Ve ctor
sau lt
Ya ma
SQ U
Chris tine
Up per
At hen
pla sh
EF 52
Cho Co
Fri tz
Ter ra
stitu tion
publi shed
Tele com
Green e
Lau rent
BU G
PD W
Cri me
stan t
âī ¡
Network s
á¹ ĥ
COM IC
âĳ ¢
Regi na
ena ble
VV V
Cas ti
Im perial
PT FE
Beat s
Der ek
fla g
Fro g
plan e
Son s
FIN A
Stra te
Mas sa
Pas sion
SON Y
indu stri
1080 p
Arti st
Ea stern
Jes sica
Stor age
pres sion
Ky le
Albu ms
CIT Y
CIT ES
Bei ng
Nam co
xc b
Bug Bug
CRH5 A
MED LINE
gener al
Kir ara
Organi zation
Brook s
CONC ERT
varia ble
GIR LS
edu cation
aes pa
ìŀ Ĳ
geo metry
Chee ms
Elli ott
CR300 AF
E9 E9
thera py
plot lib
Proper ty
recei ved
Gall ery
Phen om
Belie ve
Spiri ts
kir che
Leader ship
Libre boot
inclu ding
Schmi dt
Develo per
Shir ley
SUMM ER
bac terium
Vladi mir
COUNT DOWN
Ulti mate
ìĬ ¤
symbo l
ENG INE
MCB MSP
Guin ness
ì£ ¼
ð«Ľ ļ
Whats App
HAPP Y
announ ced
Kyi v
NVS RAM
0 75
0 57
0 51
0 74
1 da
2 M
2 250
2 GB
4 S
6 300
8 600
A ta
A mo
A va
A very
B es
C TC
C RO
C lar
D 32
D AC
D IC
E k
E un
E 130
E PS
E vo
F BC
F ul
F VP
G ing
G es
G ly
G ent
H AL
H MC
H ALL
I WI
J AS
K ru
K re
K rish
K fz
L CS
M 50
M AM
M RS
N Z
N ai
N DS
N SC
N ero
O 5
O d
O la
O UR
P 3
P 6
P Z
P ei
P ing
P TS
P lease
P TCH
Q a
R and
S n
S is
S PS
T J
T ON
T sing
T ASC
T etra
U Z
U m
U SM
V on
V AD
X SD
Z ei
Z hang
Z ARD
a q
a ga
a ss
a ct
a ward
b ly
e X
f ine
g ren
g lu
g ine
i Heart
k J
k ho
n ter
o w
o vi
p ler
p her
p seudo
r r
w hy
w rite
x d4
y y
y en
Ã ĩ
Ã ľ
Î ł
Ð ¤
Ð Ĺ
Ñ Ĭ
Ñ į
× Ķ
à ¶
ë ĵ
ì Ļ
í Ļ
sh ort
li ttle
di ni
he e
he ld
ge dit
ti te
mi en
ta rio
20 46
ming ton
le o
le tter
ye v
lu b
ya va
min d
min ary
bo lt
la go
ma trix
sai d
shan ensis
tu p
lan ce
lan der
mo v
mo bile
na te
na tive
ze u
lv o
10 W
10 45
cha mpion
se ctor
18 F
ka waii
12 89
12 96
12 81
que st
11 51
po mo
re lease
ha ll
sa e
sa ka
13 54
bin s
pa ge
pa ten
in s
22 22
ar g
ar gu
me la
st rai
st ler
ra e
ra le
lt ers
ãĥ ¦
co ding
the a
lo se
lo go
to on
to ken
ve st
ve hicle
Ma thi
Ma terial
IN ET
IN AH
do es
do deca
Co on
be lie
be ck
In to
In side
64 BM
The ater
vi i
Re y
Re ason
Re lease
hi de
Mi les
Li m
ry n
der son
BC I
Mo vi
Mo ther
Mo vement
Mo saic
53 K
Le v
Di vi
con ds
con dition
Ra z
Ra pid
Ra hman
ki ll
ki es
Se ction
Be a
Ar kane
cen s
Ba c
IC EF
sta d
sta tis
sta dt
Bo m
Bo eing
Fa y
Fa culty
Na u
Na ta
Na val
So m
com b
com mit
so de
mer o
Ki ha
Ki Ro
Ha ri
Com p
Com merce
Su mo
Mu ch
Ni na
Ni gel
Cha mp
IT ER
No de
by te
An s
SM N
gra phi
gra cilis
ko k
ko va
Con tra
Con servation
Ka ppa
à¸ ķ
BL O
BL ITZ
MP A
AI K
Pe te
Go tt
CP AP
UN ICEF
My Video
Au dition
Ex cell
Ex hibition
AV N
my ces
Man da
CC C
LE E
LE O
BO YS
wit z
IG M
cy to
je ction
IA NA
BM NH
New Jeans
Hu t
Hu gh
Hu dson
Open NIC
à¤ ¯
LL M
rai l
sti ll
uni on
Tri bun
Ad di
NH 3
PP Po
por ting
por ter
Che ck
Ph ra
Vo LTE
CL C
Can onical
Bri stol
SH ISH
ãĦ ¨
All Music
HC l
Th ing
Mor a
Tra cker
dis c
VA X
DD K
KP L
win dow
xy gen
AB BA
Spe ct
Spe cies
War ner
Pan a
Web b
ration s
kin d
SK T
SK Y
Shi ning
Shi ft
Peter s
pla ced
Sy lv
FO MA
phy sical
par te
par ty
sor tium
UT 1
Cam bridge
Cam eron
Recor d
Fun ction
Alex a
LT M
NE O
play er
Van i
Richard son
tar ian
Ran dom
jo y
Trans form
ìĿ ¸
ðĲ İ
Ear ly
Em per
CV T
à¥ Ģ
HTML 5
Gam bas
Edward s
Des tiny
var man
Kin Ki
Pho eni
Wat son
app le
tas tic
fri end
Ara b
DL SS
Nan cy
DMS O
Oli via
Queen dom
ani ma
Dark ness
stu dy
PB PK
Leo pold
Hon oura
Secu re
0x 5
media te
EG FR
Bad minton
ext en
Jor ge
cula ria
Inv esti
Econo mics
Abdu llah
Schi ff
Wolf gang
Cathe rine
Gian t
Ster n
MIC H
gir ls
Sig nal
Season s
Kiii Kiii
Experi ence
FRE E
Quake 3
LMP 1
Fernan do
Pao lo
Feed ly
fas cia
Veri zon
B8 L
à§ į
remo ve
Pitch fork
requi red
Thom son
Danger ous
sr c
ð¨ ¥
Labora tory
Cele bri
advan ced
Ast rono
IUP AC
Gard ner
Kabu paten
STUD IO
SUGO CA
Solu tions
SHISH AMO
Honoura ble
0 64
0 63
0 89
0 72
1 s
2 187
3 B
3 E
4 th
6 LX
A ru
A nan
A id
A dult
B rai
C 11
C IS
C TO
D LE
D IG
D 3D
D oro
E h
E ra
E AN
E SET
F IS
F SS
G X
G one
H 7
H TV
H off
I 2
I MP
I vy
K Y
K AT
L n
L IT
L TR
L INK
M 18
M int
M NH
N un
N in
N is
N BL
N ine
O X
O hi
O IC
P IN
P ry
P UA
P tero
P USH
Q 6
Q AM
R ui
R ST
R AR
S J
S oo
S MA
S IP
S BD
T c
T hou
T su
T ry
T GM
V AN
W BC
X V
Z 4
a ti
a ster
a land
b be
c ss
d well
e Bay
e Mule
f 3
g han
g ha
h len
i da
i le
i te
k k
k l
k ker
k now
m per
n ya
p lu
r 4
s q
t RNA
v ara
w x
x 64
z ers
Å ĵ
Ê Ĥ
Ì į
Ñ İ
à ·
à º
â ¾
ë ©
ë Ĭ
de ter
de us
de velo
shi ne
eng ine
li te
you t
he llo
si en
si li
si st
chu rch
ta ta
ta te
ri ni
ri as
ri dge
ci ali
ci ple
ci dent
gu r
gu ng
lu me
dan a
du ng
tai r
tai ned
bo o
la l
la zy
su me
mo di
na p
pu ri
10 29
10 38
10 64
10 41
10 52
10 74
10 92
se seo
sha m
sha pe
11 Z
11 65
11 44
bie s
re k
re li
re cur
re cogni
wa gen
sa tellite
13 18
13 11
bin d
rui t
ar c
ï¼ £
ï¼ ¯
ï¼ ĸ
ne e
ro i
st op
st rom
al lo
al low
100 km
co ming
fo od
ãģ ¼
the rine
to v
ve t
ga ard
37 50
Ma e
Ma da
Ma sa
Ma cross
do t
ck o
ST O
64 GB
vi sor
et c
Mi ya
pe u
Li s
Ro me
Ro land
59 A
wi i
Me xi
Vi c
Vi ce
De pu
fi ve
77 00
Win Win
per sky
Wi z
Mo ri
no te
La bel
BA D
BA ND
CO R
Le cture
AM N
AR IN
Ja kob
Di ver
con ti
con du
Si ren
Mar ve
Ra u
Se at
Ca pri
Ca sio
Ar go
Al 2
To ys
Ba g
Ba ha
sta y
Bo a
Fa me
Fa bri
Sa w
Sa man
So ck
So bol
com m
Do herty
Ki d
Ha ru
Com peti
Su pre
Su made
Ti l
Ni chol
pp ly
go w
PC B
SM S
ko vi
Ge se
Ta les
He at
Ka za
ET A
EC S
MS N
Car s
MP LS
pro blem
Ste el
RE FL
Wa di
Wa les
For mosa
rea ch
Ex ping
CH 4
TA IN
Man o
Ci der
BO Y
AD D
AD L
Lu c
ES B
Ru do
res sion
118 6
Hu go
Open Critic
ATP 500
ATP 250
pri mary
Per e
Ko m
Ko ch
Ko ha
à¤ Ĺ
line ar
tri ple
od or
CE SS
Davi chi
Sha w
tem por
ten s
Ad mi
NH 4
NH MUK
PP D
SC SI
Che er
pre di
gue s
cer ato
Vo i
128 GB
Bro ther
Gra f
Bri tain
bli o
Or ni
PO W
stra te
Th reads
tis te
Tra m
Qu al
Fo ster
Fo cus
RC 5
mber g
win ter
Ce vio
IR AL
Por tu
MG H
ero y
Ben z
MB T
Don ut
Air lines
TP U
Hy de
King s
Produ ct
Sy dney
Wal king
Pat tab
Tech nical
Fri day
Gar cia
Ter esa
if config
Sco pe
space craft
SF 2
B2 B
Fer ra
BR B
ste ad
lea gue
Rou ter
CT U
Good bye
GT K
PR ISM
Tor re
Tur n
PA SS
VR DK
sign s
kh of
gna thus
MU D
áĢ ¯
stan dard
sur face
cil lus
á¹ ĩ
JT B
sig nal
SHO CK
âĭ ħ
Over ture
Clo se
Hal f
Wat cha
Cle ve
hr er
fri ed
char ge
Tro y
even tual
CB T
IB NS
cast le
Sin ce
Hun t
Communi cation
Base ball
Town ship
Post Script
Dyna mic
ini tial
stre l
Jer sey
Than k
Seven teen
template styles
Bet ter
poly mer
tera ture
bour ne
produ ction
Electro nics
Shu ttle
defea ting
Eri k
Hein z
Res pon
ìĦ ±
beca me
âĬ Ĩ
cap su
Nove mber
oc cur
XY Z
Lyn n
Pel key
Regu lar
Maj lis
Ay yava
Ris ing
quen cy
Pear son
Dino sa
Sele ction
ITZ Y
Kas persky
Rebe cca
Cher ry
xml ns
Certifi ed
Ore o
êµ Ń
Colum bia
effe ct
componen t
Pul se
formo sana
Trou ble
Enri que
japo nica
Administra tion
YON EX
Zim mer
Lili th
Add ress
Reser ve
ï» ¿
sequ ence
Confi guration
Amen d
compani es
CR200 J
SHOOT ER
flor a
squ are
SPEC IAL
Alli son
Orche stra
Clar ke
Coon ley
Pattab hi
Ayyava zhi
0 68
0 71
1 C
4 100
7 300
8 400
A gu
A can
A man
A in
A za
A ver
A les
A muse
B PM
B rew
C un
C hong
C 17
C 24
C SA
D 8
D ian
D TC
D AN
D BE
D rum
E H
E mo
E in
E mp
E WS
F NA
F AR
F rei
G 41
G lory
H f
H r
H IP
H SS
I LL
I dea
I terator
J ED
K t
K ST
K AN
K 101
K laus
L 3
L AC
L ys
L ens
M Q
M t
M and
M AP
M ER
M SM
M 1917
M TA
N c3
O 6
O a
O m
O mo
O il
P oo
P ers
R J
R 11
R um
R EC
R ous
S kou
S amp
S cri
S WE
T ian
T ren
T 3A
T LS
T heir
T UNES
U i
U tri
V 60
V IA
W ASP
X 3
Y Y
Y ar
Z 3
Z F
Z eni
a sa
b 8
b t
d ora
e 1
e long
f l
f fen
f fan
f one
g by
g ham
i v
i KON
k N
k b
k ka
o ria
r ho
t hou
t xt
v 3
y r
y le
Â ¹
Â º
Å ½
Ð ¦
Õ µ
an other
sh ot
shi ma
li ft
li bre
ren ces
da mo
da city
hu rst
si w
si ni
si tion
bi r
ti sta
ti enne
mi RNA
ta ct
ta tional
qu ality
20 36
ri no
ri cum
she s
mu ra
zu m
zu r
ban a
ling s
min ate
pi lot
bo ne
te e
te ls
te lla
la x
ma ta
ma chi
ma ss
ma cula
ba um
lei ne
mo on
mo ne
chi s
sui t
10 26
10 th
10 79
10 82
can t
ce y
gan o
12 69
que z
11 59
11 63
po d
re mai
14 63
13 42
for a
for ming
pa ti
mou n
ï¼ ĺ
ro p
ra cy
die d
lt en
co py
co lum
fo lk
ãģ ľ
lo way
ter y
th reads
Ma di
Ma ssi
Ma dri
Ma trix
do g
ca ted
ck le
be gan
be tter
In t
In surance
The r
vi dence
Re f
Re l
Re ality
br y
67 00
300 1
at tribu
AT V
pe z
ty pes
ho lo
wi re
Me et
NA VER
De ck
De vi
gh ty
fi r
OS D
OS PF
Wi tch
Mo ment
Mo nica
Mo lina
Mo tif
Mo hammed
53 E
gi ft
Jo a
Le ary
Ja guar
Di men
Fi gure
Si sters
Mar tha
Ra g
Se 2
Se y
IS N
ur on
ED ITION
To morrow
Ba sin
Lo we
Bo ston
Fa u
Fa st
Fa vo
Sa fe
Sa lva
Na tura
fe el
Do es
Do meni
Ki ller
Ha sh
AN T
Mu sa
Cha p
No vo
130 6
Pi l
Gi aco
mes sage
An nie
SM ART
gra tion
Con tents
Con sortium
lla ume
Lin da
Ka kita
à¸ «
ph on
Bu kit
Wor ds
Pe er
Ste lla
UN IVER
FC S
âĦ ¢
Au thority
Au dacity
MO RE
MO VE
MI M
SO V
SO UND
LE SS
Sch latt
ron d
au ri
TE U
Lu x
Fe ar
ja h
118 2
DA HL
Open CL
Open Solaris
HO Y
ATP 1000
Ke camatan
Ke pler
net te
à¤ ķ
EX E
ML S
Je ep
DO ME
Mon ta
Ed gar
Ed mund
Sha ron
ser ver
Du tch
Mac Book
Che l
As sault
Willi s
Ber khof
Vo lun
Game Spy
Game Rankings
Can yon
Gra de
Gra vity
Mc Ken
All Star
WTA 250
HC V
ac ti
Ang ular
AF S
AF T
Va ria
Ce sa
Eng el
Hen derson
MG 34
phi a
car go
TP MT
Min or
sp he
cre te
Hy po
Ele anor
Jan us
RA ID
CA SE
256 GB
M2 A4
HI RO
GM T
ð« Ħ
ð« ĵ
Lan cer
dra co
Sing les
Bur ger
Bur ns
Ger ard
Offi cer
PR IN
218 6
Zi on
XP COM
Pra da
VM ware
Men tal
Cri minal
sub ject
bor g
Fra ser
GR AIL
CV S
Ado lf
Den is
Poly gon
Cap con
Jen kins
Kin der
Cur ry
Cur rie
Bor land
Rei d
Ei ght
Cli mate
Nico le
trans port
TW h
Gal li
Poli tical
Ly co
fea turing
shi Ġ
de Ġ
Ġ shiĠ
Ġ deĠ
yi Ġ
Ġ yiĠ
ji Ġ
wei Ġ
zhi Ġ
yu Ġ
Ġ weiĠ
Ġ jiĠ
Ġ nian
Ġ zhiĠ
Ġ yuĠ
Ġ li
Ġnian Ġ
zhong Ġ
Ġli Ġ
zai Ġ
Ġ you
ren Ġ
guo Ġ
he Ġ
qi Ġ
bu Ġ
Ġyou Ġ
di Ġ
Ġ zaiĠ
Ġ renĠ
Ġ yue
Ġ zhongĠ
Ġ heĠ
da Ġ
xi Ġ
xing Ġ
yuan Ġ
gong Ġ
er Ġ
Ġyue Ġ
fu Ġ
si Ġ
ge Ġ
jian Ġ
Ġ guoĠ
wu Ġ
jia Ġ
Ġ buĠ
jie Ġ
ke Ġ
cheng Ġ
zhu Ġ
sheng Ġ
xiang Ġ
xian Ġ
dao Ġ
bei Ġ
zi Ġ
Ġ qiĠ
fa Ġ
chu Ġ
hui Ġ
jin Ġ
Ġ diĠ
shu Ġ
Ġ erĠ
ri Ġ
Ġ xiĠ
qu Ġ
zheng Ġ
ju Ġ
hou Ġ
shou Ġ
ming Ġ
shang Ġ
dong Ġ
jing Ġ
ta Ġ
le Ġ
xue Ġ
fang Ġ
yan Ġ
zhan Ġ
ci Ġ
bao Ġ
hua Ġ
ying Ġ
Ġ daĠ
tong Ġ
ye Ġ
zuo Ġ
zhe Ġ
guan Ġ
Ġ riĠ
yin Ġ
chang Ġ
xin Ġ
jiao Ġ
lu Ġ
dui Ġ
wen Ġ
ti Ġ
fen Ġ
qian Ġ
tai Ġ
jiang Ġ
xiao Ġ
Ġ siĠ
bing Ġ
jun Ġ
dian Ġ
zhang Ġ
ping Ġ
xia Ġ
du Ġ
huo Ġ
yong Ġ
Ġ keĠ
Ġ jiaĠ
Ġ dan
gai Ġ
wang Ġ
hai Ġ
ru Ġ
dai Ġ
nan Ġ
qing Ġ
mu Ġ
bi Ġ
ban Ġ
liang Ġ
Ġ fuĠ
lai Ġ
ya Ġ
shen Ġ
mei Ġ
Ġ xingĠ
zu Ġ
wan Ġ
lian Ġ
she Ġ
min Ġ
mi Ġ
zhou Ġ
qiu Ġ
jiu Ġ
an Ġ
Ġ taĠ
zhen Ġ
ben Ġ
gao Ġ
xu Ġ
Ġ gongĠ
Ġ daoĠ
bo Ġ
luo Ġ
bian Ġ
xie Ġ
Ġ xianĠ
te Ġ
yao Ġ
duo Ġ
deng Ġ
yang Ġ
quan Ġ
che Ġ
zui Ġ
ling Ġ
tian Ġ
gu Ġ
xuan Ġ
suo Ġ
fan Ġ
yun Ġ
Ġ geĠ
Ġ bingĠ
dang Ġ
hu Ġ
shan Ġ
ĠdeĠ yiĠ
fei Ġ
sai Ġ
ding Ġ
biao Ġ
zong Ġ
kai Ġ
liu Ġ
ma Ġ
ba Ġ
hao Ġ
su Ġ
kou Ġ
tu Ġ
mian Ġ
men Ġ
you Ġ
Ġdan Ġ
lei Ġ
la Ġ
feng Ġ
nei Ġ
cai Ġ
jue Ġ
wai Ġ
Ġ beiĠ
Ġ jianĠ
Ġ jinĠ
pai Ġ
chuan Ġ
chi Ġ
ĠshiĠ yiĠ
guang Ġ
lan Ġ
san Ġ
ni Ġ
gui Ġ
bai Ġ
Ġ ziĠ
Ġ xiangĠ
Ġ zheĠ
lin Ġ
ting Ġ
pu Ġ
Ġ zhuĠ
neng Ġ
lun Ġ
gang Ġ
han Ġ
na Ġ
lie Ġ
cheng ĠweiĠ
ze Ġ
Ġ yinĠ
mo Ġ
Ġ chuĠ
ĠshiĠ deĠ
mei ĠguoĠ
chan Ġ
shui Ġ
Ġ juĠ
Ġ chengĠ
ĠdeĠ shiĠ
Ġ jieĠ
Ġ gaiĠ
Ġ wuĠ
sui Ġ
Ġ baoĠ
zhuan Ġ
xun Ġ
Ġ pingĠ
Ġ ta
lv Ġ
ao Ġ
zhuang Ġ
tou Ġ
li Ġ
duan Ġ
ĠyiĠ jiĠ
dan Ġ
huan Ġ
chong Ġ
ĠweiĠ yuĠ
se Ġ
pin Ġ
ceng Ġ
e Ġ
cong Ġ
cha Ġ
di ĠyiĠ
cun Ġ
zao Ġ
Ġ houĠ
kong Ġ
dou Ġ
zhao Ġ
gou Ġ
a Ġ
Ġ ciĠ
gan Ġ
sha Ġ
qiang Ġ
ĠshiĠ jiĠ
chao Ġ
meng Ġ
kai ĠshiĠ
man Ġ
tang Ġ
long Ġ
kuo Ġ
Ġ faĠ
Ġ yuanĠ
Ġ mingĠ
ke ĠyiĠ
ai Ġ
ĠyiĠ geĠ
Ġ yeĠ
Ġ shengĠ
tan Ġ
ce Ġ
tuan Ġ
ĠshiĠ weiĠ
gong ĠliĠ
1 Ġ
ĠzhongĠ guoĠ
ka Ġ
Ġ bing
Ġ tong
qin Ġ
tie Ġ
ĠshiĠ shiĠ
zhengĠ fuĠ
can Ġ
shao Ġ
pian Ġ
huo ĠdeĠ
mian ĠjiĠ
hang Ġ
hong Ġ
Ġ huoĠ
geng Ġ
ji ĠdeĠ
tiao Ġ
ĠshiĠ yongĠ
xiu Ġ
chen Ġ
shuo Ġ
pi Ġ
Ġ dongĠ
ren ĠweiĠ
ĠshiĠ jianĠ
Ġ ri
tao Ġ
zhi ĠyiĠ
ran Ġ
huang Ġ
zhong ĠdeĠ
zheng ĠzhiĠ
ĠyiĠ zhiĠ
ĠshiĠ jieĠ
chuang Ġ
nv Ġ
2 Ġ
zhongĠ guoĠ
yue Ġ
qu ĠdeĠ
guo ĠjiĠ
yi ĠshiĠ
ĠpingĠ fangĠ
wo Ġ
xing ĠdeĠ
po Ġ
Ġ miĠ
renĠ kouĠ
Ġ shouĠ
jinĠ xingĠ
rong Ġ
Ġ suiĠ
liao Ġ
diao Ġ
mei ĠyouĠ
tuo Ġ
song Ġ
ou Ġ
Ġli ĠdeĠ
nian Ġ
Ġli ĠshiĠ
Ġ dang
ĠweiĠ yuanĠ
Ġ fenĠ
Ġ wanĠ
pei Ġ
ĠqiĠ zhongĠ
zuo ĠweiĠ
biao ĠshiĠ
fa ĠguoĠ
Ġ er
ĠĠĠ zaiĠ
yanĠ jiuĠ
zheng ĠshiĠ
Ġ shangĠ
Ġ yin
Ġyou ĠyuĠ
ĠdeĠ jiĠ
Ġ haoĠ
pan Ġ
qie Ġ
tui Ġ
que Ġ
Ġ zhe
dian ĠshiĠ
Ġ xinĠ
yunĠ dongĠ
bang Ġ
Ġ haiĠ
Ġ taiĠ
Ġ meiĠ
ĠdeĠ diĠ
cheng ĠshiĠ
zhi ĠshiĠ
Ġ shuĠ
Ġ jingĠ
Ġ jiangĠ
jian ĠdeĠ
ta ĠdeĠ
gong ĠheĠ
shu ĠyuĠ
she ĠjiĠ
Ġ qianĠ
gongĠ siĠ
Ġ yingĠ
ĠrenĠ kouĠ
lang Ġ
ĠrenĠ minĠ
dun Ġ
zhi ĠdeĠ
qiao Ġ
10 ĠyueĠ
12 ĠyueĠ
ĠdeĠ zhiĠ
jing ĠjiĠ
7 ĠyueĠ
dianĠ yingĠ
Ġ xiaĠ
Ġ nanĠ
zu ĠzhiĠ
Ġ zhangĠ
9 ĠyueĠ
Ġ muĠ
8 ĠyueĠ
zhu ĠyiĠ
3 ĠyueĠ
Ġ zuiĠ
1 ĠyueĠ
mao Ġ
wa Ġ
ĠshiĠ qiĠ
5 ĠyueĠ
daiĠ biaoĠ
riĠ benĠ
ying ĠguoĠ
ji ĠshiĠ
kao Ġ
6 ĠyueĠ
Ġyou ĠyiĠ
kan Ġ
guo ĠdeĠ
4 ĠyueĠ
Ġ huiĠ
ĠshiĠ zhenĠ
Ġ biĠ
hen Ġ
mai Ġ
xian ĠdeĠ
Ġ tongĠ
wei ĠyiĠ
11 ĠyueĠ
jiao ĠyuĠ
cheĠ zhanĠ
gen ĠjuĠ
yi ĠdeĠ
yu ĠshiĠ
3 Ġ
ming ĠweiĠ
buĠ fenĠ
xueĠ yuanĠ
ĠyiĠ yuanĠ
ĠdeĠ guoĠ
Ġ ruĠ
li ĠshiĠ
ĠdeĠyiĠ geĠ
gen Ġ
ĠzhiĠ houĠ
ĠnianĠ 1ĠyueĠ
Ġ dengĠ
xiangĠ gangĠ
re Ġ
can ĠjiaĠ
cao Ġ
kang Ġ
ĠyiĠ weiĠ
daĠ xueĠ
sheĠ huiĠ
Ġ ye
Ġ tiĠ
xian ĠshiĠ
ĠdiĠ quĠ
Ġ qingĠ
yingĠ xiangĠ
Ġ yanĠ
shu ĠdeĠ
taiĠ wanĠ
sa Ġ
Ġ xueĠ
shang ĠdeĠ
xing ĠshiĠ
qi ĠshiĠ
formula Ġ
bie Ġ
Ġ ran
ĠyinĠ ciĠ
guan ĠliĠ
Ġ xiaoĠ
zeng Ġ
lao Ġ
le ĠyiĠ
ĠnianĠ 12ĠyueĠ
tong ĠguoĠ
bu ĠdeĠ
wei ĠshiĠ
Ġnian ĠdeĠ
xingĠ zhengĠ
gongĠheĠ guoĠ
er ĠshiĠ
Ġ liangĠ
ren ĠdeĠ
zhun Ġ
ĠliĠ yaĠ
zi ĠjiĠ
da ĠdeĠ
xiong Ġ
2 ĠyueĠ
ĠguoĠ jiaĠ
zui ĠzhongĠ
ĠnianĠ 3ĠyueĠ
hui ĠyiĠ
ĠĠĠ shengĠ
cheng ĠliĠ
ĠpingĠfangĠ gongĠliĠ
Ġ jiaoĠ
Ġ zhanĠ
ĠdaĠ xueĠ
luo ĠsiĠ
ĠnianĠ 7ĠyueĠ
5 Ġ
Ġ wangĠ
kuang Ġ
ĠnianĠ 10ĠyueĠ
ku Ġ
miao Ġ
chu ĠdeĠ
Ġ lingĠ
faĠ xianĠ
4 Ġ
ha Ġ
ĠbaoĠ kuoĠ
qi ĠdeĠ
Ġ tianĠ
gongĠ zuoĠ
faĠ zhanĠ
ĠshiĠ zhiĠ
ĠnianĠ 9ĠyueĠ
yuan ĠdeĠ
ĠnianĠ 5ĠyueĠ
ĠshiĠ zaiĠ
hei Ġ
ĠqiĠ jianĠ
piao Ġ
qiĠ taĠ
kuai Ġ
si ĠdeĠ
Ġ boĠ
ĠnianĠ 4ĠyueĠ
ĠnianĠ 6ĠyueĠ
ĠnianĠ 8ĠyueĠ
tieĠ luĠ
suo ĠyouĠ
Ġ luoĠ
dao ĠzhiĠ
dao ĠdeĠ
tong ĠdeĠ
cheng ĠdeĠ
Ġ zhengĠ
quan ĠguoĠ
ĠtaĠ menĠ
can ĠyuĠ
shuang Ġ
nuo Ġ
lou Ġ
wenĠ huaĠ
Ġ huaĠ
Ġ luĠ
Ġtong ĠshiĠ
Ġ duiĠ
di ĠliĠ
bu ĠshiĠ
zhong ĠyiĠ
ĠyouĠ xiĠ
Ġ sui
lian ĠheĠ
di ĠdeĠ
ĠnianĠ 11ĠyueĠ
ĠzhiĠ daoĠ
Ġ dangĠ
Ġ zuoĠ
baoĠ kuoĠ
Ġ shenĠ
ĠzhongĠ xinĠ
ĠĠĠ shiĠ
ĠdeĠ zhuĠ
yin ĠyueĠ
Ġ maĠ
Ġ changĠ
Ġ jiuĠ
shu ĠjiĠ
yong ĠyuĠ
ĠĠĠ yiĠ
sen Ġ
dan ĠrenĠ
bei ĠbuĠ
Ġ guĠ
zai ĠyiĠ
tiĠ gongĠ
ĠweiĠyuanĠ huiĠ
zuĠ qiuĠ
guoĠ jiaĠ
wenĠ tiĠ
Ġnian ĠzhiĠ
kuan Ġ
ĠshiĠ wuĠ
xuan ĠbuĠ
Ġyin ĠweiĠ
ĠshiĠ zhongĠ
xueĠ xiaoĠ
sheng ĠyuĠ
jian ĠyuĠ
fang ĠshiĠ
Ġ quanĠ
qianĠ miĠ
guan ĠxiĠ
gong ĠyouĠ
ĠweiĠ zhiĠ
hun Ġ
ĠnianĠ 2ĠyueĠ
rang Ġ
Ġ zongĠ
Ġ xuĠ
hua ĠrenĠminĠ
Ġ dianĠ
chengĠ yuanĠ
jianĠ zhuĠ
ying ĠdeĠ
huoĠ dongĠ
Ġ gai
biĠ saiĠ
jian ĠliĠ
Ġ xian
tong ĠshiĠ
yu ĠyiĠ
ren ĠshiĠ
suan Ġ
ĠĠĠ liĠshiĠ
ji ĠyiĠ
zi ĠyouĠ
fen ĠweiĠ
nong Ġ
heng Ġ
ĠdeĠ renĠ
guanĠ junĠ
zuoĠ pinĠ
she ĠyouĠ
Ġ benĠ
da ĠliĠ
Ġ chengĠweiĠ
en Ġ
ĠĠĠshengĠ pingĠ
ge ĠrenĠ
Ġ jie
Ġ anĠ
zhuan ĠjiĠ
jiu ĠshiĠ
ĠdiĠ erĠ
beiĠ jingĠ
xiao ĠshiĠ
ĠjiĠ huaĠ
yu ĠdeĠ
qun Ġ
gei Ġ
Ġ gongĠliĠ
yin ĠweiĠ
Ġli ĠyuĠ
ĠbuĠ fenĠ
di ĠshiĠ
dui ĠyuĠ
ĠnianĠ daiĠ
jun ĠshiĠ
Ġ congĠ
Ġ aĠ
tong ĠyiĠ
men ĠdeĠ
diĠ erĠ
ming ĠdeĠ
Ġta ĠdeĠ
qu ĠyuĠ
xi ĠdeĠ
xueĠ jiaĠ
eĠ luoĠsiĠ
zou Ġ
xin ĠdeĠ
Ġ liuĠ
Ġ ling
chun Ġ
Ġ baĠ
Ġ suo
shouĠ daoĠ
min ĠguoĠ
Ġ duoĠ
wei ĠdeĠ
zhengĠ fu
zhong ĠshiĠ
hou ĠdeĠ
6 Ġ
lai ĠdeĠ
faĠ shengĠ
gong ĠjiĠ
sheng ĠdeĠ
jin ĠshiĠ
xing ĠweiĠ
fangĠ mianĠ
er ĠdeĠ
Ġ lianĠ
ĠyiĠ jingĠ
ĠshiĠ youĠ
yong ĠyouĠ
Ġ huĠ
ĠriĠ benĠ
ĠxiĠ tongĠ
Ġ fanĠ
Ġ quĠ
bu ĠyuĠ
ĠshiĠ renĠ
Ġ mianĠjiĠ
zhuĠ yaoĠ
1 ĠriĠ
tong ĠzhiĠ
liangĠ geĠ
niĠ yaĠ
Ġ guanĠ
Ġ gaoĠ
diĠ quĠ
ju ĠyouĠ
qu ĠweiĠ
faĠ xingĠ
jueĠ dingĠ
Ġ wenĠ
ĠzhongĠ yangĠ
Ġ fengĠ
sheng ĠjiĠ
ci ĠshiĠ
chuĠ xianĠ
zh Ġ
ĠrenĠkouĠ miĠ
Ġyou ĠshiĠ
taĠ menĠ
ĠweiĠ jiĠ
qi ĠyuĠ
Ġyou ĠdeĠ
zi ĠzhiĠ
laiĠ ziĠ
Ġta ĠzaiĠ
Ġ teĠ
juĠ xingĠ
hua ĠdeĠ
ĠjiĠ yuĠ
wu ĠdeĠ
mianĠjiĠ weiĠ
xian ĠzhiĠ
Ġ feiĠ
jia ĠdeĠ
ĠshiĠ yuĠ
du ĠliĠ
ĠpingĠfangĠ qianĠmiĠ
kong ĠzhiĠ
nan ĠbuĠ
shuĠ juĠ
ĠshiĠweiĠ yuĠ
Ġdan ĠshiĠ
qu ĠshiĠ
renĠ wuĠ
ĠliĠ ruĠ
mou Ġ
ke ĠliĠ
hui ĠdeĠ
yaoĠ qiuĠ
jinĠ ruĠ
ĠĠĠ deĠ
Ġ woĠ
Ġ ceng
gt Ġ
gu ĠshiĠ
Ġ gtĠ
Ġ wan
cheng ĠjiĠ
Ġ suoĠ
Ġdan ĠrenĠ
xiangĠ gang
Ġyou ĠjiĠ
Ġ meiĠguoĠ
ye ĠshiĠ
zongĠ tongĠ
ĠgongĠ siĠ
xueĠ shengĠ
Ġ guangĠ
ĠĠĠ yuĠ
lt Ġ
ĠyiĠ buĠ
Ġ bianĠ
gong ĠshiĠ
minĠ zhuĠ
Ġran ĠerĠ
wanĠ chengĠ
Ġ ru
jin ĠdeĠ
zha Ġ
Ġ ltĠ
ĠyiĠ qiĠ
shen ĠzhiĠ
Ġbing ĠyuĠ
Ġ caiĠ
ren ĠzhiĠ
pingĠ fangĠ
Ġbing ĠzaiĠ
chao ĠguoĠ
ĠjiĠ shuĠ
ti ĠyuĠ
yuan ĠshiĠ
cang Ġ
lieĠ cheĠ
Ġ sanĠ
cun ĠzaiĠ
dang ĠshiĠ
si ĠshiĠ
ya ĠliĠ
qianĠ wangĠ
ĠdeĠyiĠ ge
xue ĠxiĠ
Ġ kaiĠ
Ġ yongĠ
ke ĠdeĠ
keĠ nengĠ
jing ĠguoĠ
yong ĠdeĠ
ĠzhiĠ weiĠ
jian ĠyiĠ
guan ĠyuĠ
ĠĠĠ diĠ
fa ĠbuĠ
guo ĠshiĠ
ĠqiĠ taĠ
wu ĠshiĠ
zhan ĠshiĠ
wuĠ keĠ
yinĠ duĠ
zhu ĠrenĠ
sun Ġ
ĠyouĠ xianĠ
zuo ĠdeĠ
Ġ hanĠ
Ġ shanĠ
zhanĠ zhengĠ
pao Ġ
nei ĠdeĠ
ĠzhiĠ jianĠ
daiĠ biao
Ġ puĠ
shengĠ huoĠ
bin Ġ
jian ĠzhiĠ
ĠjiĠ weiĠ
zhou ĠdeĠ
ĠyiĠ shuĠ
fan ĠweiĠ
ĠweiĠ erĠ
chengĠ gongĠ
ĠjiĠ qiĠ
ouĠ zhouĠ
Ġ jin
han ĠguoĠ
jieĠ shouĠ
Ġ ba
a ĠerĠ
qiuĠ duiĠ
lu ĠdeĠ
Ġ shuĠyuĠ
Ġ zai
ĠjiĠ zhongĠ
zhong ĠzhiĠ
xuĠ duoĠ
zeng ĠjiaĠ
Ġ baiĠ
fuĠ wuĠ
Ġ moĠ
zhuĠ xiĠ
xiaoĠ xingĠ
ban ĠdeĠ
zhuĠ yao
ĠĠĠ gaiĠ
he ĠyiĠ
Ġ aoĠ
hou ĠyiĠ
Ġ suĠ
ĠĠĠ zhiĠ
san ĠshiĠ
xia ĠdeĠ
duo ĠdeĠ
shangĠ haiĠ
huai Ġ
Ġ 000
ju ĠliĠ
si ĠjiĠ
zuĠ chengĠ
Ġ genĠjuĠ
ning Ġ
ĠciĠ waiĠ
yunĠdongĠ yuanĠ
ma ĠweiĠ
gaoĠ duĠ
fu ĠdeĠ
ĠzheĠ xieĠ
Ġ zhĠ
chuĠ leĠ
ĠzhiĠ zuoĠ
niu Ġ
ĠzaiĠ ciĠ
ge ĠzhongĠ
ĠbuĠ guoĠ
chang ĠdeĠ
ĠnianĠ qiĠ
chongĠ xinĠ
jueĠ seĠ
tui ĠchuĠ
Ġli ĠjiĠ
jing ĠliĠ
Ġdang ĠshiĠ
renĠ minĠ
Ġ zuiĠzhongĠ
zheĠ geĠ
ti ĠdeĠ
Ġ duĠ
da ĠshiĠ
qi ĠyiĠ
chu ĠyuĠ
xuĠ yaoĠ
ĠzhiĠ chuĠ
zheĠ xieĠ
Ġ ai
xiang ĠdeĠ
wu ĠzhongĠ
du ĠweiĠ
xuanĠ juĠ
Ġ mei
ĠzhiĠ wuĠ
ĠrenĠ heĠ
zhuĠ jiaoĠ
ĠĠĠ diĠliĠ
ĠzhiĠ chiĠ
ziĠ jiĠdeĠ
zi ĠdeĠ
Ġ huo
Ġ sheĠ
Ġ banĠ
Ġ cengĠ
ĠweiĠ leĠ
jiaoĠ tongĠ
ĠrenĠ wuĠ
ĠnianĠ jianĠ
lianĠ saiĠ
ĠĠĠ weiĠ
kaiĠ faĠ
zhe ĠyiĠ
Ġ laiĠ
Ġ ma
liang ĠweiĠ
xian ĠzaiĠ
ĠrenĠ yuanĠ
ĠweiĠ qiĠ
jieĠ shuĠ
chu ĠliĠ
rui Ġ
sai ĠshiĠ
nv ĠziĠ
dang ĠdiĠ
jieĠ muĠ
2010 ĠnianĠ
ya ĠdeĠ
gongĠ yuanĠ
ĠzhiĠ yuĠ
fanĠ yingĠ
chanĠ shengĠ
ding ĠdeĠ
juan Ġ
she ĠshiĠ
chuĠ banĠ
gongĠ chanĠ
ruo Ġ
guan ĠdeĠ
ĠyiĠ zhongĠ
lei ĠsiĠ
ba ĠshiĠ
shouĠ ciĠ
riĠ ben
jing ĠshiĠ
dongĠ wuĠ
ĠshiĠyiĠ geĠ
zhui Ġ
fuĠ zeĠ
jie ĠshiĠ
Ġ jiang
xiang ĠshiĠ
bo ĠshiĠ
ĠtaĠ men
jie ĠdeĠ
le ĠbuĠ
Ġ leiĠ
Ġ hai
geĠ quĠ
nanĠ ziĠ
Ġ daiĠ
guanĠ xiaĠ
san ĠnianĠ
dui ĠdeĠ
zao ĠchengĠ
Ġ yangĠ
ĠhouĠ laiĠ
keĠ neng
dong ĠshiĠ
Ġ aiĠ
yanĠ jiu
an ĠdeĠ
du ĠdeĠ
she ĠliĠ
Ġ naĠ
dou ĠshiĠ
yang ĠdeĠ
shan ĠxiĠ
Ġ zhenĠ
ĠjiĠ zhiĠ
ĠjiĠ xuĠ
zhong ĠyuĠ
Ġri ĠzaiĠ
Ġ yaĠ
nv ĠxingĠ
Ġsuo ĠyiĠ
guo ĠyuĠ
guo ĠyiĠ
ĠĠĠ qiĠ
ĠzhiĠ zhiĠ
Ġ fen
fangĠ faĠ
2020 ĠnianĠ
ĠheĠ zuoĠ
gongĠ chengĠ
wu ĠliĠ
meiĠ pingĠfangĠ
jiaoĠ shouĠ
zhengĠzhiĠ renĠwuĠ
ĠyiĠ siĠ
Ġ xuanĠ
zheng ĠdeĠ
lianĠ mengĠ
Ġ ranĠ
dai ĠdeĠ
di ĠweiĠ
Ġ cong
Ġ 1Ġ
jun ĠdeĠ
xiangĠ muĠ
caiĠ yongĠ
dong ĠdeĠ
fang ĠdeĠ
ĠĠĠ renĠkouĠ
liang ĠdeĠ
Ġ zong
ĠzaiĠ diĠ
yuan ĠyuĠ
Ġ hao
Ġ tuĠ
chuanĠ tongĠ
ĠĠĠ you
huaĠ minĠguoĠ
zhu ĠdeĠ
ge ĠshiĠ
2001 ĠnianĠ
Ġdan ĠweiĠ
Ġ bei
taiĠ wan
Ġnian ĠyiĠ
xinĠ wenĠ
zhan ĠdeĠ
yanĠ yuanĠ
xiĠ tongĠ
fu ĠshiĠ
ĠĠĠ jiĠ
ĠliĠ siĠ
jiaĠ ruĠ
ĠzhiĠ youĠ
daoĠ leĠ
xi ĠjiĠ
dao ĠshiĠ
fa ĠdeĠ
he ĠshiĠ
ying ĠyuĠ
bianĠ maĠweiĠ
ĠyiĠ huiĠ
xiangĠ guanĠ
Ġ guiĠ
boĠ wuĠ
hou ĠzaiĠ
Ġ zeĠ
ĠjiĠ jiĠ
ĠjiĠ luĠ
ĠweiĠ fuĠ
ĠyiĠ yiĠ
baoĠ kuo
lianĠ jieĠ
ĠxueĠ mingĠ
zui ĠjiaĠ
hai ĠshiĠ
tiĠ chuĠ
mu ĠsiĠ
Ġzhe ĠshiĠ
Ġ zhouĠ
ĠxiĠ yaĠ
xue ĠdeĠ
ĠweiĠ zhuĠ
ĠjiĠ zaiĠ
er ĠnianĠ
ĠrenĠkouĠmiĠ duĠ
mingĠ chengĠ
jia ĠzhiĠ
ĠyiĠ xieĠ
ĠĠĠ jiaĠ
Ġ junĠ
xiao ĠdeĠ
mian ĠdeĠ
ĠshiĠyiĠ zhongĠ
zuiĠ gaoĠ
Ġ ci
ĠzhongĠ huaĠrenĠminĠ
dong ĠjiĠ
ge ĠdeĠ
Ġ yuĠshiĠ
Ġli ĠyiĠ
Ġ kaĠ
Ġ fangĠ
shu ĠshiĠ
ĠnianĠ zaiĠ
ling ĠshiĠ
xia ĠjiĠ
Ġ liang
gai ĠweiĠ
ĠzhiĠ jieĠ
haiĠ junĠ
qingĠ kuang
zhe ĠzhongĠ
chang ĠshiĠ
hui ĠshiĠ
ĠzheĠ geĠ
Ġ laĠ
Ġ zuoĠweiĠ
yao ĠdeĠ
zhu ĠshiĠ
zhai Ġ
zai ĠdeĠ
yan ĠdeĠ
shengĠ wuĠ
yan ĠzhongĠ
na ĠdaĠ
Ġ mi
qi ĠzhiĠ
ye ĠyuĠ
gai ĠguoĠ
huiĠ fuĠ
luan Ġ
zai ĠyuĠ
meiĠ tiĠ
Ġye ĠshiĠ
zheng ĠyiĠ
Ġ xieĠ
bian ĠdeĠ
ke ĠjiĠ
wenĠ wuĠ
peng Ġ
jian ĠshiĠ
xin ĠxiĠ
gao ĠdeĠ
ĠzhiĠ qianĠ
jie ĠguoĠ
minĠ zuĠ
shui ĠyuĠ
ĠbuĠ tongĠ
cheng ĠrenĠ
Ġ keĠyiĠ
ĠkeĠ siĠ
yanĠ changĠ
fanĠ duiĠ
neng ĠliĠ
ĠĠĠ xingĠzhengĠ
hua ĠshiĠ
he ĠdeĠ
qian ĠdeĠ
ge ĠliĠ
xing ĠzhiĠ
chou Ġ
Ġ niĠ
si ĠyuĠ
hao ĠdeĠ
bei ĠshiĠ
jiangĠ junĠ
Ġ chongĠ
lei ĠdeĠ
jieĠ gouĠ
huanĠ jingĠ
Ġ ming
of ĠĠĠ
xian ĠyuĠ
baoĠ hu
ĠĠĠ formulaĠ
zhuĠ jianĠ
zan Ġ
sai ĠjiĠ
mo ĠshiĠ
ĠĠĠ benĠ
Ġ hongĠ
Ġ 2Ġ
ĠyiĠ banĠ
Ġ diĠyiĠ
ĠĠĠ ofĠĠĠ
chuangĠ zuoĠ
zhang ĠdeĠ
Ġ liu
baoĠ huĠ
Ġli ĠweiĠ
ĠzhuĠ yaoĠ
tong ĠjiĠ
the ĠĠĠ
san ĠgeĠ
Ġ chenĠ
junĠ duiĠ
ĠxiangĠ gangĠ
biao ĠxianĠ
zhu ĠliĠ
biaoĠ zhunĠ
Ġnian ĠshiĠ
Ġ tangĠ
ge ĠyueĠ
sheng ĠliĠ
zhou ĠshiĠ
quan ĠliĠ
zhe ĠdeĠ
buĠ fen
daĠ luĠ
zongĠ jiaoĠ
shengĠ yaĠ
shangĠ yeĠ
ĠyiĠ ciĠ
si ĠnianĠ
diaoĠ chaĠ
Ġ yunĠ
wuĠ faĠ
hangĠ kongĠ
Ġ gu
ĠĠĠ genĠjuĠ
ĠĠĠ ciĠ
dong ĠbuĠ
hui ĠzaiĠ
biĠ yeĠ
shenĠ fenĠ
di ĠzhiĠ
Ġ a
tou ĠguoĠ
ĠdeĠyiĠ buĠfenĠ
faĠ yuanĠ
bu ĠyiĠ
7 Ġ
di ĠyuĠ
jia ĠliĠ
geĠ mingĠ
cheng ĠzhongĠ
jin ĠjiĠ
Ġdang ĠdiĠ
Ġ yaoĠ
baĠ gaoĠduĠ
jiao ĠshiĠ
ĠjinĠ xingĠ
ĠtaiĠ wanĠ
ĠjiĠ tuanĠ
Ġ huangĠ
xieĠ huiĠ
dongĠ huaĠ
qiuĠ yuanĠ
ĠzhiĠ xingĠ
feiĠ changĠ
Ġ zhuanĠ
dan ĠweiĠ
cha ĠdeĠ
fen ĠbuĠ
bi ĠdeĠ
ziĠ liaoĠ
biĠ sai
jie ĠzhiĠ
ĠyouĠ guanĠ
tuanĠ tiĠ
bing ĠbuĠ
fu ĠheĠ
bei ĠrenĠ
shengĠ chanĠ
fenĠ bie
Ġ zuĠ
chao ĠxianĠ
ding ĠyiĠ
xia ĠyiĠ
quan ĠbuĠ
gai ĠdiĠ
jing ĠdeĠ
neiĠ rongĠ
pingĠ junĠ
wenĠ xueĠ
du ĠshiĠ
dongĠ beiĠ
anĠ quanĠ
renĠkouĠ puĠ
ĠbingĠ qie
jia ĠjiĠ
la ĠsiĠ
luoĠ maĠ
Ġ 1
jieĠ fangĠ
Ġ linĠ
ĠzhiĠ yuanĠ
ling ĠdaoĠ
jinĠ biaoĠ
xingĠ dongĠ
juĠ minĠ
shang ĠshiĠ
qingĠ kuangĠ
ĠyuĠ jiĠ
ĠzhiĠ huiĠ
ĠbaoĠ kuo
10 Ġ
gongĠ kaiĠ
she ĠzhiĠ
ĠqiĠ houĠ
shou ĠdeĠ
ĠjiĠ diĠ
yuan ĠyiĠ
yan ĠshiĠ
yanĠ chuĠ
Ġ wo
zuo ĠyouĠ
zuoĠ pin
Ġ nan
keĠ xueĠ
ren ĠyiĠ
Ġ da
8 Ġ
shang ĠweiĠ
ĠfuĠ zeĠ
Ġru ĠguoĠ
ĠkeĠ nengĠ
jia ĠshiĠ
zai ĠshiĠ
er ĠjiĠ
wu ĠzhiĠ
xing ĠjiĠ
Ġri ĠzhiĠ
28 ĠriĠ
kong ĠjianĠ
Ġer ĠshiĠ
fang ĠzhiĠ
Ġ zhaoĠ
gaiĠ bianĠ
Ġ jiu
aoĠ yunĠ
shu ĠweiĠ
xue ĠshiĠ
Ġ qiuĠ
ĠdiĠ guoĠ
ĠyuĠ qiĠ
ĠbingĠ qieĠ
deng ĠdiĠ
ze ĠshiĠ
guan ĠzhongĠ
luĠ xianĠ
xue ĠweiĠ
yuan ĠheĠ
Ġ huoĠdeĠ
qi ĠweiĠ
ĠdaĠ daoĠ
lan ĠdeĠ
ĠyiĠ mingĠ
Ġli ĠzhiĠ
deng ĠrenĠ
15 ĠriĠ
Ġ cheĠ
he ĠjiĠ
ĠĠĠ youĠ
ĠlingĠ waiĠ
baoĠ daoĠ
2008 ĠnianĠ
ju ĠdeĠ
qing ĠnianĠ
guo ĠliĠ
lve Ġ
aoĠ linĠ
bang ĠzhuĠ
faĠ biaoĠ
ĠĠĠ zhongĠ
2016 ĠnianĠ
pi ĠkeĠ
chu ĠrenĠ
zuoĠ yongĠ
ai ĠerĠ
zao ĠdaoĠ
ĠyuĠ yanĠ
gongĠ zuo
gong ĠdeĠ
ju ĠjiĠ
lu ĠdiĠ
gui ĠdaoĠ
ye ĠyouĠ
tongĠ changĠ
zu ĠdeĠ
jiang ĠqiĠ
ĠyiĠ yuĠ
shou ĠjiĠ
fei ĠjiĠ
sheng ĠdeĠyiĠge
gongĠ gongĠ
2009 ĠnianĠ
Ġ shuiĠ
yuan ĠnianĠ
ma ĠliĠ
ĠzhiĠ jianĠdeĠ
bianĠ huaĠ
jia ĠyiĠ
tu ĠdiĠ
taĠ men
yaĠ zhouĠ
pa Ġ
ĠĠĠ juĠ
xiĠ banĠ
buĠ tongĠ
ĠshiĠ xingĠ
wu ĠnianĠ
taiĠ pingĠ
ĠmuĠ qianĠ
jie ĠheĠ
2011 ĠnianĠ
hou ĠyuĠ
2012 ĠnianĠ
ĠsiĠ keĠ
banĠ benĠ
Ġdan ĠzaiĠ
Ġ paiĠ
hui ĠheĠ
zhan ĠyiĠ
jiao ĠyiĠ
ĠweiĠ zhongĠ
jueĠ saiĠ
xian ĠrenĠ
ĠbuĠ duiĠ
Ġ chuanĠ
pi ĠpingĠ
ĠhaiĠ baĠgaoĠduĠ
25 ĠriĠ
ta ĠzaiĠ
jiaoĠ huiĠ
Ġ dingĠ
xingĠ chengĠ
miao ĠshuĠ
zao ĠqiĠ
zhengĠ ceĠ
meiĠ yuanĠ
UTC Ġ
Ġta ĠyuĠ
bo ĠliĠ
ĠyouĠ qiĠ
yuanĠ yinĠ
er ĠweiĠ
ĠerĠ siĠ
ĠdeĠ daoĠ
ĠzhiĠ yeĠ
chu ĠshiĠ
Ġ san
ĠheĠ wuĠ
Ġ renĠweiĠ
xie ĠyiĠ
xuanĠ zeĠ
zao ĠdeĠ
xiaoĠ shuoĠ
wanĠ quanĠ
yunĠdongĠ huiĠ
lianĠ bangĠ
Ġ neiĠ
ling ĠyiĠ
Ġyue ĠdeĠ
Ġ ha
wenĠ hua
ĠsiĠ teĠ
ĠjianĠ chengĠ
jianĠ sheĠ
Ġta ĠshiĠ
Ġdang ĠzhongĠ
de ĠĠĠ
30 ĠriĠ
beiĠ chengĠweiĠ
ĠyouĠ chengĠ
10 ĠriĠ
chang ĠqiĠ
Ġ eĠ
zui ĠdaĠ
20 ĠriĠ
Ġ 2
Ġ xunĠ
xianĠ daiĠ
chiĠ xuĠ
jingĠ neiĠ
yuanĠ zhuĠ
lin ĠshiĠ
dianĠ ziĠ
xing ĠyuĠ
zu ĠheĠ
ĠweiĠ diĠ
A Ġ
Ġ mo
2014 ĠnianĠ
duoĠ shuĠ
mingĠ mingĠ
se ĠdeĠ
sai ĠdeĠ
bu ĠliĠ
ĠdiĠ sanĠ
Ġ 5Ġ
wuĠ yuanĠ
fu ĠzhiĠ
ba ĠliĠ
sheng ĠheĠ
zhuanĠ yeĠ
gongĠ tongĠ
jieĠ daoĠ
ziĠ geĠ
2018 ĠnianĠ
ĠshiĠ yanĠ
Ġ si
bu ĠjiĠ
2019 ĠnianĠ
dongĠ nanĠ
gao ĠzhongĠ
Ġ qie
houĠ laiĠ
faĠ lvĠ
ĠdiĠ siĠ
ĠjiĠ jinĠ
Ġ mengĠ
za ĠzhiĠ
wuĠkeĠ lanĠ
faĠ zhan
danĠ quĠ
0 Ġ
ĠjiĠ gouĠ
ĠyuĠ zhongĠ
erĠ ziĠ
ĠguoĠ minĠ
2013 ĠnianĠ
ĠweiĠyuĠ gaiĠguoĠ
sheng ĠweiĠ
Ġyue ĠzhiĠ
kui Ġ
dao ĠyiĠ
chu ĠqiĠ
Ġ mianĠ
bing ĠweiĠ
ĠliĠ keĠ
zhong ĠjiĠ
tu ĠerĠ
ĠshiĠjieĠ daĠ
18 ĠriĠ
ĠyuĠ zhiĠ
24 ĠriĠ
2015 ĠnianĠ
baoĠ gaoĠ
guangĠ dongĠ
ĠdeĠ zhongĠ
fangĠ xiangĠ
ĠliĠ yongĠ
guoĠ minĠ
ĠbuĠ zaiĠ
Ġ gengĠ
Ġyue ĠshiĠ
die Ġ
ĠdeĠ weiĠ
26 ĠriĠ
boĠwuĠ guanĠ
ĠjinĠ guanĠ
ĠsuiĠ houĠ
2007 ĠnianĠ
daĠ daoĠ
dian ĠliĠ
guan ĠzhiĠ
Ġtong ĠnianĠ
Ġ ke
xian ĠyiĠ
2005 ĠnianĠ
guiĠ dingĠ
Ġ duo
sheĠ quĠ
Ġ fei
Ġ yingĠguoĠ
Ġzhe ĠzhongĠ
fu ĠliĠ
canĠ saiĠ
feng ĠgeĠ
ĠweiĠ siĠ
luo ĠdeĠ
mingĠ ziĠ
teĠ bie
lian ĠxiĠ
ĠfenĠ buĠyuĠ
aoĠlinĠ piĠkeĠ
yingĠ geĠ
Ġ waiĠ
16 ĠriĠ
you ĠxiĠ
Ġ shaĠ
muĠ biaoĠ
wang ĠdeĠ
chang ĠweiĠ
ĠchuĠ leĠ
Ġ 2001ĠnianĠ
17 ĠriĠ
ĠxiĠ lieĠ
Ġ ganĠ
ding ĠweiĠ
ĠjiĠ changĠ
bi ĠliĠ
zhe ĠshiĠ
ĠjiĠ heĠ
ĠerĠ shengĠ
tou ĠziĠ
taĠ menĠdeĠ
wuĠ xianĠ
nei ĠbuĠ
2017 ĠnianĠ
juĠ banĠ
yinĠ hangĠ
quanĠ qiuĠ
ĠyouĠxianĠ gongĠsiĠ
ĠshiĠ heĠ
fu ĠyiĠ
gongĠchanĠ dangĠ
dongĠ jingĠ
guo ĠzhiĠ
shangĠ shuĠ
dao ĠyuĠ
jun ĠweiĠ
ĠliĠ kaiĠ
12 ĠriĠ
mu ĠdeĠ
mu ĠdiĠ
lie ĠdeĠ
Ġ qieĠ
bu ĠzhiĠ
shen ĠdeĠ
ĠyinĠ ci
ĠshiĠ ziĠ
zi ĠyuĠ
8 ĠriĠ
huaĠ xueĠ
kaiĠ fangĠ
shou ĠyuĠ
ĠĠĠ zhengĠzhiĠ
guanĠ fangĠ
ĠdeĠshiĠ zhenĠ
21 ĠriĠ
Ġ minĠ
gai ĠnianĠ
paiĠ sheĠ
ĠĠĠ theĠĠĠ
ĠzhongĠ xueĠ
ka ĠerĠ
7 ĠriĠ
ĠfuĠ wuĠ
27 ĠriĠ
aĠ laĠ
baoĠ faĠ
2006 ĠnianĠ
ĠhaoĠ miĠ
19 ĠriĠ
ĠliĠ faĠ
Ġ que
11 ĠriĠ
23 ĠriĠ
yingĠ yongĠ
Ġ songĠ
C Ġ
ce ĠshiĠ
xian ĠweiĠ
si ĠheĠ
xuĠ duo
ĠzhiĠ jiĠ
shuĠ liangĠweiĠ
yin ĠshiĠ
boĠ chuĠ
suĠ lianĠ
9 ĠriĠ
fu ĠyuĠ
xueĠ zheĠ
shang ĠyouĠ
ban ĠshiĠ
qi ĠjiĠ
qiĠ jianĠ
chu ĠyiĠ
hui ĠyuĠ
2021 ĠnianĠ
ĠzhuĠ yao
Ġ 3Ġ
ye ĠdeĠ
lieĠ che
juĠ leĠbuĠ
huang ĠdiĠ
ĠshiĠ faĠguoĠ
22 ĠriĠ
14 ĠriĠ
kun Ġ
ying ĠshiĠ
dang ĠdeĠ
ĠyueĠ hanĠ
guiĠ moĠ
ling ĠyuĠ
shanĠ dongĠ
5 ĠriĠ
29 ĠriĠ
3 ĠriĠ
zuiĠ daĠdeĠ
zheng ĠzaiĠ
guanĠ yuanĠ
ting ĠzhiĠ
yuan ĠjiĠ
2022 ĠnianĠ
biĠ xuĠ
Ġ piĠ
jingĠ yingĠ
xiĠ lieĠ
Ġ lvĠ
yin ĠqiĠ
suoĠ shuĠdeĠ
ĠdaĠ huiĠ
pingĠ jiaĠ
xi ĠshiĠ
xunĠ lianĠ
zhu ĠzaiĠ
shou ĠshiĠ
nengĠ gouĠ
Ġ saiĠ
The ĠĠĠ
gongĠ yeĠ
qingĠkuang ĠxiaĠ
sheng ĠzaiĠ
quĠ huaĠ
tiao ĠjianĠ
shengĠ mingĠ
shengĠ chan
Ġ kaiĠshiĠ
qian ĠyiĠ
13 ĠriĠ
jin ĠzhiĠ
mai ĠkeĠ
tai ĠdeĠ
ya ĠyuĠ
yuan ĠzhiĠ
lianĠ meng
4 ĠriĠ
ĠjiĠ baiĠ
Ġ daoĠzhiĠ
6 ĠriĠ
jiao ĠdeĠ
te ĠdeĠ
31 ĠriĠ
she ĠdeĠ
jieĠ chuĠ
xiaoĠxingĠ xingĠ
nai Ġ
ĠnianĠ dai
ĠbuĠ jiuĠ
zang Ġ
chao ĠjiĠ
ĠrenĠ zhongĠ
2 ĠriĠ
ĠgongĠ chiĠ
ge ĠjiĠ
ĠsuiĠ ranĠ
da ĠjiĠ
ĠzhongĠ yang
liu ĠxingĠ
nanĠ xingĠ
ĠzuiĠ houĠ
gongĠ buĠ
teĠ zhengĠ
xiong ĠdiĠ
dian ĠdeĠ
ge ĠweiĠ
Ġ qiangĠ
wu ĠjiĠ
ren ĠjiĠ
you ĠyiĠ
manĠ huaĠ
Ġ fan
jian ĠweiĠ
ĠyouĠ mingĠ
fuĠ jinĠ
zuoĠ jiaĠ
Ġ jueĠ
si ĠzaiĠ
si ĠrenĠ
zhong ĠweiĠ
keĠ daĠ
ouĠ zhou
Ġ shenĠzhiĠ
boĠ teĠ
lv ĠyouĠ
Ġ xin
fen ĠxiĠ
huang ĠjiaĠ
Ġtong ĠguoĠ
br Ġ
zong ĠheĠ
shengĠ fenĠ
yinĠ ciĠ
Ġ ze
cheng ĠyiĠ
B Ġ
ĠgongĠ zuoĠ
bian ĠweiĠ
niu ĠyueĠ
ĠĠĠ jinĠ
wenĠwuĠ baoĠhu
Ġ brĠ
Ġri ĠqiĠ
zai ĠweiĠ
si ĠweiĠ
ju ĠrenĠ
ĠriĠ ben
ĠgongĠ luĠ
guangĠ boĠ
ci ĠshiĠjieĠdaĠ
banĠ daoĠ
mao ĠyiĠ
Ġ tian
Ġ geng
zhuangĠ taiĠ
ĠsuiĠ ran
Ġ hou
qi ĠnianĠ
ĠyingĠ chiĠ
ĠrenĠ kou
pin ĠdaoĠ
he ĠliĠ
20 ĠshiĠjiĠ
ĠzhiĠ zhongĠ
ĠkeĠ neng
ĠĠĠyou ĠyuĠ
buĠ zhangĠ
fenĠ ziĠ
ao ĠsiĠ
shuo ĠshiĠ
2004 ĠnianĠ
Ġ zhou
Ġ 4Ġ
ĠyouĠ renĠ
duoĠ geĠ
ĠzhongĠ buĠ
jieĠ duanĠ
Ġ douĠ
fa ĠshiĠ
gao ĠjiĠ
xuanĠ shouĠ
9 Ġ
zhun ĠbeiĠ
fang ĠyuĠ
ĠzaiĠ qiĠ
bing ĠliĠ
mi ĠerĠ
duoĠ ciĠ
Ġ chen
fangĠ anĠ
ĠĠĠ liĠ
wai ĠdeĠ
yuan ĠweiĠ
ĠheĠ nanĠ
huiĠ daoĠ
ju ĠzhongĠ
shang ĠyiĠ
bu ĠweiĠ
Ġyou ĠzhiĠ
ĠĠĠ ziĠ
chengĠ duĠ
Ġ touĠ
Ġ xianĠshiĠ
ci ĠdeĠ
hai ĠyuĠ
fen ĠzhiĠ
2000 ĠnianĠ
ci ĠzhiĠ
ĠdiĠ fangĠ
wangĠ luoĠ
ĠĠĠ daĠ
mo ĠdeĠ
liu ĠnianĠ
jie ĠjiĠ
bei ĠdeĠ
zi ĠshiĠ
ĠtaĠ cengĠ
jun ĠzaiĠ
Ġ gangĠ
fei ĠxingĠ
dianĠshiĠ taiĠ
ju ĠshiĠ
ĠyiĠ laiĠ
ĠdeĠyiĠ zhongĠ
le ĠyiĠgeĠ
deng ĠjiĠ
xuan ĠweiĠ
Ġ 3
Ġ yiĠshiĠ
shuĠ guanĠ
ĠgongĠ yuanĠ
Ġ chaoĠ
Ġ xiang
hai ĠyouĠ
hui ĠyouĠ
gaiĠ geĠ
Ġ chiĠ
qiu ĠjiĠ
luĠ junĠ
wuĠ qiĠ
zheĠ jiangĠ
biaoĠ yanĠ
ĠweiĠyuĠ faĠguoĠ
zuiĠ houĠ
Ġ zhao
xiangĠ tongĠ
ĠxiĠ banĠ
dianĠshiĠ juĠ
sheĠ beiĠ
21 Ġ
xing ĠheĠ
ĠzhiĠ jinĠ
gu ĠjiĠ
liu ĠshiĠ
meiĠ zhouĠ
zhu ĠyuĠ
zai ĠjiĠ
Ġ lanĠ
ai ĠdeĠ
ĠjiaĠ ruĠ
guangĠ changĠ
ĠshiĠ daiĠ
ĠyiĠ renĠ
fa ĠyuĠ
Ġ meiĠyouĠ
jia ĠheĠ
nu Ġ
ĠĠĠ zhuĠ
xieĠ zhuĠ
tiao ĠyueĠ
ĠyiĠ beiĠ
yang ĠshiĠ
suĠ duĠ
siĠ wangĠ
ĠzhiĠ liĠ
Ġ 6Ġ
chanĠ pinĠ
hangĠ kong
Ġ tiaoĠ
baoĠ hanĠ
bianĠ chengĠ
ĠfenĠ bie
ying ĠjiĠ
Ġ zu
ren ĠyuĠ
jiang ĠyuĠ
fuĠ jianĠ
gongĠyouĠ renĠkouĠ
ĠxingĠ zhengĠ
ĠzhiĠ zaiĠ
Ġ zhang
xi ĠweiĠ
huoĠdeĠ leĠ
qing ĠdeĠ
qun ĠdaoĠ
duan ĠdeĠ
haiĠ baĠ
ĠzhongĠ huaĠminĠguoĠ
zhanĠ zheng
zhenĠ quĠ
ĠbeiĠ qiĠ
muĠ qianĠ
ĠĠĠ jianĠ
qu ĠyiĠ
cuo Ġ
Ġzhe ĠyiĠ
shouĠ duĠ
ĠgongĠ fenĠ
ĠqiĠ yeĠ
biĠ jiaoĠ
guiĠ huaĠ
zhanĠ kaiĠ
ju ĠyuĠ
ĠĠĠ xiĠ
ĠzaiĠ zhongĠ
nv ĠerĠ
diĠyiĠ geĠ
jinĠ gongĠ
qiao ĠzhiĠ
ĠxiĠ wangĠ
biaoĠ zhun
rong ĠyuĠ
ĠliĠ ziĠ
nao Ġ
zhanĠ douĠ
jiu ĠshiĠzhenĠ
ĠbuĠ huiĠ
dong ĠliĠ
dong ĠxiĠ
Ġ faĠguoĠ
geĠ diĠ
ĠdeĠshiĠ jianĠ
Ġ nvĠ
youĠ zhengĠ
ĠchengĠ quĠ
ĠrenĠ zaiĠ
daĠ xingĠ
xiĠ buĠ
ken Ġ
fenĠ leiĠ
maĠ lai
ĠyuĠ weiĠ
dou ĠyouĠ
ruĠ xiaĠ
geĠ shouĠ
la ĠkeĠ
Ġ kongĠ
nong ĠyeĠ
taiĠ beiĠ
la ĠdeĠ
quĠ daiĠ
daĠ liangĠ
shangĠ wuĠ
yu ĠshiĠdeĠ
mi ĠdeĠ
ĠyiĠ youĠ
ĠzhongĠ xin
zong ĠliĠ
ĠciĠ houĠ
Ġyou ĠyiĠgeĠ
cui Ġ
Ġ manĠ
ĠĠĠ fuĠ
ze ĠrenĠ
ĠĠĠ zheĠ
min ĠzhongĠ
xiao ĠxiĠ
renĠ heĠ
miĠ shuĠ
lianĠ xuĠ
reng Ġran
reĠ dai
xiangĠ duiĠ
zuiĠ houĠyiĠ
zhengĠ geĠ
jieĠ rang
wu ĠyiĠ
wang ĠguoĠ
tie ĠdaoĠ
cheĠ liangĠ
shuĠliangĠweiĠ renĠ
ci ĠjiĠ
fu ĠrenĠ
jue ĠdeĠ
waiĠ jiaoĠ
jian ĠyouĠ
zhen ĠshiĠ
quan ĠdeĠ
xinĠ jiaĠ
jinĠbiaoĠ saiĠ
ĠliĠ shuĠyuĠ
gaoĠ su
tianĠ zhuĠjiaoĠ
yeĠ wuĠ
Ġ INSEE
jiao ĠweiĠ
henĠ duoĠ
ĠyiĠ xiaĠ
chengĠ zhenĠ
Ġnian ĠjiĠ
Ġ heiĠ
ci ĠyuĠ
niao Ġ
zhanĠ lingĠ
12 Ġ
gong ĠzhongĠ
ceng ĠzaiĠ
jianĠ chaĠ
jiaĠ naĠdaĠ
ĠdeĠ yuĠ
quĠ xiaoĠ
Ġran ĠhouĠ
shouĠ geĠ
nan ĠjiĠ
Ġ zhengĠshiĠ
ĠyiĠ yangĠ
gaoĠ suĠ
gongĠ nengĠ
xian ĠdeĠyiĠgeĠ
lu ĠshiĠ
ĠheĠ beiĠ
Ġ s
ni ĠsiĠ
ĠdeĠshiĠ houĠ
diĠ fangĠ
shengĠ chengĠ
ĠqiĠ ta
ĠdaoĠ leĠ
yuan ĠyouĠ
zuoĠ chuĠ
ti ĠjiĠ
dianĠ ying
Ġ bai
Ġjie ĠzhiĠ
dian ĠjiĠ
sheng ĠzhiĠ
he ĠweiĠ
diĠ sanĠ
ĠxingĠ chengĠ
ĠgaiĠ shengĠ
ĠjianĠ zhuĠ
he ĠzhiĠ
dui ĠzaiĠ
zhongĠ huaĠrenĠminĠ
Ġ hu
juĠ jueĠ
Ġ duiĠyuĠ
yingĠ xiang
le ĠjiĠ
lan ĠxiĠ
Ġer ĠzaiĠ
ĠzongĠ mianĠjiĠ
da ĠliĠyaĠ
qiĠ ta
ĠdeĠ liĠ
shu ĠzhiĠ
niĠ ya
shou ĠweiĠ
2002 ĠnianĠ
ĠshiĠ changĠ
ziĠ xingĠ
gong ĠyiĠ
Ġ rang
2003 ĠnianĠ
tianĠ wenĠ
yunĠ yingĠ
mo ĠxiĠ
zhengĠ quanĠ
zuo ĠyiĠ
wangĠ zhanĠ
zhen ĠdeĠ
ĠdiĠ qiĠ
hui ĠzhiĠ
ĠerĠ qieĠ
Ġling ĠyiĠ
xiaoĠ xueĠ
mu ĠshiĠ
qing ĠshiĠ
chaĠdeĠ shuĠjuĠ
puĠ taoĠ
Ġ biaoĠshiĠ
te ĠliĠ
ĠINSEE ĠshiĠzhenĠ
ben ĠdeĠ
ĠĠĠ buĠ
ĠxiaĠ lingĠshiĠ
Ġ shuangĠ
xi ĠliĠ
Ġ bian
lei ĠjiĠ
xuanĠ quĠweiĠ
wu ĠrenĠ
gao ĠyuĠ
zhuo Ġ
jieĠ jueĠ
diĠyiĠ ciĠ
lu ĠyiĠ
Ġer ĠrenĠkouĠmiĠ
Ġ ruo
xi ĠyuĠ
jiang ĠshiĠ
faĠ dongĠ
ĠteĠ bie
ĠweiĠ youĠ
Ġ huanĠ
ĠhuoĠ jiuĠshiĠzhenĠ
er ĠzaiĠ
yun ĠxingĠ
xin ĠliĠ
zhongĠ xinĠ
zhuĠ tiĠ
bao ĠdeĠ
ĠĠĠ nianĠ
zuoĠ zhanĠ
mengĠ guĠ
yuanĠ ziĠ
gan ĠdaoĠ
Ġ deng
jingĠ changĠ
cong ĠshiĠ
shao ĠnianĠ
chong ĠjianĠ
fenĠweiĠ faĠguoĠ
si ĠliĠ
ĠnianĠ chuĠ
daĠ xue
Ġnian ĠyuĠ
ĠĠĠ and
cheng ĠliĠyuĠ
ĠbuĠ fen
ye ĠzaiĠ
shuo ĠfaĠ
jia ĠzhongĠ
sheng ĠrenĠ
yangĠ huaĠ
Ġ guoĠjiĠ
ĠĠĠ heĠ
zhanĠ dou
lunĠ dun
lianĠheĠ guoĠ
zhengĠ mingĠ
fa ĠqiĠ
gou ĠdeĠ
ming ĠyiĠ
fang ĠqiĠ
jin ĠyiĠbuĠ
daĠ quĠ
huo ĠshiĠ
fanĠ huiĠ
zi ĠweiĠ
xiang ĠjiĠ
tai ĠguoĠ
Ġ bo
11 Ġ
na ĠdeĠ
yuan ĠliĠ
2023 ĠnianĠ
ziĠ ran
yunĠ shuĠ
ĠxiĠ beiĠ
gaoĠ dengĠ
biao ĠweiĠ
na ĠliĠ
gong ĠrenĠ
hua ĠweiĠ
jianĠ chengĠ
xi ĠzaiĠ
guo ĠyouĠ
Ġ huang
ti ĠxiĠ
ziĠ yuanĠ
Ġ zaoĠ
Ġ chuangĠ
xingĠ qiĠ
daoĠ luĠ
xiaĠ wuĠ
luo ĠfuĠ
ĠzhongĠ gongĠ
Ġ haĠ
dao ĠrenĠ
sou Ġ
ĠdiĠ quĠdeĠ
xiĠbanĠ yaĠ
bei ĠyiĠ
diaoĠ cha
sheng ĠshiĠ
jin ĠyiĠ
ni ĠkeĠ
ĠzhiĠ chengĠ
20 Ġ
Ġ 30
boĠ lanĠ
ĠĠĠ cheĠzhanĠ
wenĠ mingĠ
an ĠshiĠ
faĠ sheĠ
Ġ peiĠ
feng ĠxianĠ
ĠĠĠ chuĠ
ĠnianĠ houĠ
Ġ kang
wan ĠjiaĠ
xuĠ yao
ĠgongĠ chengĠ
lanĠ qiuĠ
pai ĠdeĠ
jian ĠjiĠ
ĠdaĠ xue
ĠweiĠ shengĠ
guanĠ zhuĠ
ĠshiĠyiĠ weiĠ
ĠshiĠyiĠ mingĠ
ying ĠliĠ
lv ĠshiĠ
nanĠ shengĠ
15 Ġ
chanĠ yeĠ
bei ĠjiĠ
shouĠ shangĠ
ce ĠdeĠ
mie Ġ
Ġ 4
zi ĠheĠ
jingĠ shenĠ
fuĠ qinĠ
jinĠxingĠ leĠ
Ġ 00
ĠbuĠ nengĠ
tongĠ xingĠ
lie ĠweiĠ
xiangĠ dangĠ
shu ĠzhongĠ
lian ĠdeĠ
qiĠ zhongĠyiĠ
ĠshiĠ xianĠ
paiĠ mingĠ
sai ĠerĠ
ĠĠĠ taĠ
ĠmingĠ chaoĠ
Ġyue ĠzaiĠ
Ġ ben
fo ĠjiaoĠ
yanĠjiuĠ suoĠ
liu ĠyuĠ
za Ġ
zhanĠ houĠ
