{
  "version": "1.0",
  "truncation": null,
  "padding": null,
  "added_tokens": [],
  "normalizer": null,
  "pre_tokenizer": {
    "type": "Sequence",
    "pretokenizers": [
      {
        "type": "Split",
        "pattern": {
          "Regex": "[^\\p{L}\\p{N}\\s]+|[\\r\\n]+"
        },
        "behavior": "Isolated",
        "invert": false
      },
      {
        "type": "ByteLevel",
        "add_prefix_space": false,
        "trim_offsets": true,
        "use_regex": false
      }
    ]
  },
  "post_processor": null,
  "decoder": null,
  "model": {
    "type": "BPE",
    "dropout": null,
    "unk_token": null,
    "continuing_subword_prefix": null,
    "end_of_word_suffix": null,
    "fuse_unk": false,
    "byte_fallback": false,
    "ignore_merges": false,
    "vocab": {
      "!": 0,
      "\"": 1,
      "#": 2,
      "$": 3,
      "%": 4,
      "&": 5,
      "'": 6,
      "(": 7,
      ")": 8,
      "*": 9,
      "+": 10,
      ",": 11,
      "-": 12,
      ".": 13,
      "/": 14,
      "0": 15,
      "1": 16,
      "2": 17,
      "3": 18,
      "4": 19,
      "5": 20,
      "6": 21,
      "7": 22,
      "8": 23,
      "9": 24,
      ":": 25,
      ";": 26,
      "=": 27,
      "?": 28,
      "@": 29,
      "A": 30,
      "B": 31,
      "C": 32,
      "D": 33,
      "E": 34,
      "F": 35,
      "G": 36,
      "H": 37,
      "I": 38,
      "J": 39,
      "K": 40,
      "L": 41,
      "M": 42,
      "N": 43,
      "O": 44,
      "P": 45,
      "Q": 46,
      "R": 47,
      "S": 48,
      "T": 49,
      "U": 50,
      "V": 51,
      "W": 52,
      "X": 53,
      "Y": 54,
      "Z": 55,
      "[": 56,
      "\\": 57,
      "]": 58,
      "^": 59,
      "_": 60,
      "`": 61,
      "a": 62,
      "b": 63,
      "c": 64,
      "d": 65,
      "e": 66,
      "f": 67,
      "g": 68,
      "h": 69,
      "i": 70,
      "j": 71,
      "k": 72,
      "l": 73,
      "m": 74,
      "n": 75,
      "o": 76,
      "p": 77,
      "q": 78,
      "r": 79,
      "s": 80,
      "t": 81,
      "u": 82,
      "v": 83,
      "w": 84,
      "x": 85,
      "y": 86,
      "z": 87,
      "|": 88,
      "~": 89,
      "¡": 90,
      "¢": 91,
      "£": 92,
      "¤": 93,
      "¥": 94,
      "¦": 95,
      "§": 96,
      "¨": 97,
      "©": 98,
      "ª": 99,
      "«": 100,
      "¬": 101,
      "®": 102,
      "¯": 103,
      "°": 104,
      "±": 105,
      "²": 106,
      "³": 107,
      "´": 108,
      "µ": 109,
      "¶": 110,
      "·": 111,
      "¸": 112,
      "¹": 113,
      "º": 114,
      "»": 115,
      "¼": 116,
      "½": 117,
      "¾": 118,
      "¿": 119,
      "Â": 120,
      "Ã": 121,
      "Ä": 122,
      "Å": 123,
      "Æ": 124,
      "Ç": 125,
      "È": 126,
      "É": 127,
      "Ê": 128,
      "Ë": 129,
      "Ì": 130,
      "Í": 131,
      "Î": 132,
      "Ï": 133,
      "Ð": 134,
      "Ñ": 135,
      "Ò": 136,
      "Ó": 137,
      "Ô": 138,
      "Õ": 139,
      "Ö": 140,
      "×": 141,
      "Ø": 142,
      "Ù": 143,
      "Ú": 144,
      "Û": 145,
      "Ü": 146,
      "Þ": 147,
      "ß": 148,
      "à": 149,
      "á": 150,
      "â": 151,
      "ã": 152,
      "ä": 153,
      "ê": 154,
      "ë": 155,
      "ì": 156,
      "í": 157,
      "î": 158,
      "ï": 159,
      "ð": 160,
      "ñ": 161,
      "Ċ": 162,
      "Ġ": 163,
      "ġ": 164,
      "Ģ": 165,
      "ģ": 166,
      "Ĥ": 167,
      "ĥ": 168,
      "Ħ": 169,
      "ħ": 170,
      "Ĩ": 171,
      "ĩ": 172,
      "Ī": 173,
      "ī": 174,
      "Ĭ": 175,
      "ĭ": 176,
      "Į": 177,
      "į": 178,
      "İ": 179,
      "ı": 180,
      "Ĳ": 181,
      "ĳ": 182,
      "Ĵ": 183,
      "ĵ": 184,
      "Ķ": 185,
      "ķ": 186,
      "ĸ": 187,
      "Ĺ": 188,
      "ĺ": 189,
      "Ļ": 190,
      "ļ": 191,
      "Ľ": 192,
      "ľ": 193,
      "Ŀ": 194,
      "ŀ": 195,
      "Ł": 196,
      "ł": 197,
      "Ń": 198,
      "ng": 199,
      "an": 200,
      "sh": 201,
      "zh": 202,
      "ji": 203,
      "ang": 204,
      "ĠĠ": 205,
      "ong": 206,
      "xi": 207,
      "ao": 208,
      "ai": 209,
      "de": 210,
      "ei": 211,
      "shi": 212,
      "yu": 213,
      "ou": 214,
      "yi": 215,
      "en": 216,
      "ch": 217,
      "ian": 218,
      "uo": 219,
      "eng": 220,
      "li": 221,
      "ĠĠĠ": 222,
      "ãĢ": 223,
      "ing": 224,
      "ui": 225,
      "wei": 226,
      "uan": 227,
      "zhi": 228,
      "qi": 229,
      "nian": 230,
      "zhong": 231,
      "you": 232,
      "ren": 233,
      "un": 234,
      "zai": 235,
      "di": 236,
      "guo": 237,
      "ãĢģ": 238,
      "he": 239,
      "bu": 240,
      "er": 241,
      "gong": 242,
      "xing": 243,
      "cheng": 244,
      "da": 245,
      "zhu": 246,
      "hu": 247,
      "yuan": 248,
      "si": 249,
      "jian": 250,
      "yue": 251,
      "ge": 252,
      "fu": 253,
      "xian": 254,
      "ue": 255,
      "ke": 256,
      "wu": 257,
      "chu": 258,
      "shu": 259,
      "sheng": 260,
      "jie": 261,
      "jia": 262,
      "bi": 263,
      "dao": 264,
      "zi": 265,
      "bei": 266,
      "hui": 267,
      "fa": 268,
      "xiang": 269,
      "ti": 270,
      "zheng": 271,
      "mi": 272,
      "ta": 273,
      "jin": 274,
      "qu": 275,
      "20": 276,
      "tong": 277,
      "ri": 278,
      "ju": 279,
      "jing": 280,
      "ming": 281,
      "le": 282,
      "hou": 283,
      "shang": 284,
      "shou": 285,
      "dong": 286,
      "ci": 287,
      "fang": 288,
      "19": 289,
      "hua": 290,
      "yin": 291,
      "xue": 292,
      "guan": 293,
      "zhan": 294,
      "ye": 295,
      "ying": 296,
      "zuo": 297,
      "zhe": 298,
      "yan": 299,
      "mei": 300,
      "jiao": 301,
      "gu": 302,
      "chang": 303,
      "xin": 304,
      "dui": 305,
      "lu": 306,
      "bing": 307,
      "bao": 308,
      "fen": 309,
      "dan": 310,
      "huo": 311,
      "jun": 312,
      "jiang": 313,
      "du": 314,
      "xiao": 315,
      "dian": 316,
      "yong": 317,
      "qian": 318,
      "she": 319,
      "tai": 320,
      "xia": 321,
      "mu": 322,
      "wen": 323,
      "gai": 324,
      "zhang": 325,
      "liang": 326,
      "ya": 327,
      "ru": 328,
      "dai": 329,
      "hai": 330,
      "nan": 331,
      "zhou": 332,
      "zu": 333,
      "wang": 334,
      "lai": 335,
      "ban": 336,
      "jiu": 337,
      "dang": 338,
      "qing": 339,
      "ping": 340,
      "shen": 341,
      "ãĢĭ": 342,
      "ãĢĬ": 343,
      "wan": 344,
      "lian": 345,
      "ling": 346,
      "luo": 347,
      "Â·": 348,
      "min": 349,
      "quan": 350,
      "pi": 351,
      "ni": 352,
      "bo": 353,
      "duo": 354,
      "te": 355,
      "ben": 356,
      "gao": 357,
      "biao": 358,
      "suo": 359,
      "la": 360,
      "ma": 361,
      "kai": 362,
      "ba": 363,
      "xie": 364,
      "xu": 365,
      "bian": 366,
      "deng": 367,
      "yao": 368,
      "yang": 369,
      "mian": 370,
      "zhen": 371,
      "ding": 372,
      "qiu": 373,
      "zui": 374,
      "sai": 375,
      "liu": 376,
      "fan": 377,
      "xuan": 378,
      "fei": 379,
      "san": 380,
      "shan": 381,
      "che": 382,
      "zong": 383,
      "men": 384,
      "ãĢĮ": 385,
      "ãĢį": 386,
      "tu": 387,
      "tian": 388,
      "hao": 389,
      "su": 390,
      "lei": 391,
      "nei": 392,
      "yun": 393,
      "201": 394,
      "lan": 395,
      "feng": 396,
      "mo": 397,
      "na": 398,
      "ze": 399,
      "lv": 400,
      "han": 401,
      "kou": 402,
      "wai": 403,
      "neng": 404,
      "lin": 405,
      "chuan": 406,
      "chi": 407,
      "jue": 408,
      "bai": 409,
      "pai": 410,
      "200": 411,
      "ku": 412,
      "cai": 413,
      "zao": 414,
      "ting": 415,
      "zhuan": 416,
      "gang": 417,
      "lie": 418,
      "guang": 419,
      "gui": 420,
      "lun": 421,
      "sui": 422,
      "pu": 423,
      "ceng": 424,
      "kong": 425,
      "shui": 426,
      "10": 427,
      "chao": 428,
      "zhuang": 429,
      "cha": 430,
      "dou": 431,
      "can": 432,
      "tou": 433,
      "ran": 434,
      "se": 435,
      "duan": 436,
      "cun": 437,
      "huan": 438,
      "cong": 439,
      "pin": 440,
      "ce": 441,
      "chan": 442,
      "xun": 443,
      "gou": 444,
      "00": 445,
      "nv": 446,
      "zhao": 447,
      "gan": 448,
      "chong": 449,
      "sha": 450,
      "tan": 451,
      "18": 452,
      "qin": 453,
      "ka": 454,
      "meng": 455,
      "qiang": 456,
      "huang": 457,
      "xiu": 458,
      "12": 459,
      "tiao": 460,
      "man": 461,
      "shao": 462,
      "kuo": 463,
      "long": 464,
      "pian": 465,
      "shuo": 466,
      "tuan": 467,
      "tang": 468,
      "rong": 469,
      "geng": 470,
      "202": 471,
      "chen": 472,
      "tui": 473,
      "gen": 474,
      "que": 475,
      "tie": 476,
      "11": 477,
      "qie": 478,
      "wo": 479,
      "po": 480,
      "pei": 481,
      "hang": 482,
      "hong": 483,
      "199": 484,
      "bang": 485,
      "liao": 486,
      "chuang": 487,
      "bie": 488,
      "re": 489,
      "tuo": 490,
      "tao": 491,
      "song": 492,
      "wa": 493,
      "mai": 494,
      "ha": 495,
      "15": 496,
      "pan": 497,
      "dun": 498,
      "diao": 499,
      "qiao": 500,
      "sa": 501,
      "mao": 502,
      "lang": 503,
      "kan": 504,
      "kang": 505,
      "âĢ": 506,
      "or": 507,
      "lao": 508,
      "zeng": 509,
      "16": 510,
      "198": 511,
      "kao": 512,
      "xiong": 513,
      "17": 514,
      "on": 515,
      "nuo": 516,
      "miao": 517,
      "rang": 518,
      "kuang": 519,
      "hen": 520,
      "suan": 521,
      "14": 522,
      "30": 523,
      "zhun": 524,
      "13": 525,
      "194": 526,
      "cao": 527,
      "hun": 528,
      "qun": 529,
      "nong": 530,
      "197": 531,
      "heng": 532,
      "shuang": 533,
      "lou": 534,
      "gei": 535,
      "kuai": 536,
      "piao": 537,
      "zha": 538,
      "hei": 539,
      "niu": 540,
      "195": 541,
      "sen": 542,
      "bin": 543,
      "reng": 544,
      "zou": 545,
      "196": 546,
      "chun": 547,
      "kuan": 548,
      "25": 549,
      "âĢĶ": 550,
      "rui": 551,
      "sun": 552,
      "pao": 553,
      "ning": 554,
      "for": 555,
      "pa": 556,
      "cang": 557,
      "mou": 558,
      "24": 559,
      "peng": 560,
      "huai": 561,
      "21": 562,
      "193": 563,
      "23": 564,
      "mula": 565,
      "formula": 566,
      "28": 567,
      "zan": 568,
      "ruo": 569,
      "in": 570,
      "22": 571,
      "chou": 572,
      "zhui": 573,
      "ar": 574,
      "me": 575,
      "26": 576,
      "50": 577,
      "2020": 578,
      "27": 579,
      "nai": 580,
      "nu": 581,
      "ï¼": 582,
      "29": 583,
      "shun": 584,
      "2010": 585,
      "za": 586,
      "000": 587,
      "lve": 588,
      "zhai": 589,
      "2019": 590,
      "ne": 591,
      "ro": 592,
      "juan": 593,
      "st": 594,
      "ra": 595,
      "cui": 596,
      "kun": 597,
      "2016": 598,
      "luan": 599,
      "2018": 600,
      "cuo": 601,
      "2021": 602,
      "zang": 603,
      "2014": 604,
      "shuai": 605,
      "2011": 606,
      "2015": 607,
      "2017": 608,
      "2012": 609,
      "40": 610,
      "2013": 611,
      "nao": 612,
      "2022": 613,
      "die": 614,
      "ruan": 615,
      "kui": 616,
      "lt": 617,
      "rou": 618,
      "cu": 619,
      "sang": 620,
      "2009": 621,
      "2008": 622,
      "ãĥ": 623,
      "60": 624,
      "niao": 625,
      "al": 626,
      "rao": 627,
      "chai": 628,
      "100": 629,
      "zhuo": 630,
      "2023": 631,
      "gt": 632,
      "sou": 633,
      "190": 634,
      "31": 635,
      "ken": 636,
      "2007": 637,
      "2001": 638,
      "teng": 639,
      "pang": 640,
      "fou": 641,
      "co": 642,
      "fo": 643,
      "gua": 644,
      "2000": 645,
      "80": 646,
      "2006": 647,
      "2024": 648,
      "ãģ": 649,
      "2005": 650,
      "zun": 651,
      "tion": 652,
      "kua": 653,
      "the": 654,
      "35": 655,
      "70": 656,
      "nie": 657,
      "lo": 658,
      "of": 659,
      "90": 660,
      "leng": 661,
      "ï¼į": 662,
      "ãĤ": 663,
      "am": 664,
      "tun": 665,
      "ter": 666,
      "mie": 667,
      "2004": 668,
      "th": 669,
      "to": 670,
      "45": 671,
      "48": 672,
      "mang": 673,
      "2025": 674,
      "ve": 675,
      "ga": 676,
      "ãĢī": 677,
      "ãĢĪ": 678,
      "36": 679,
      "38": 680,
      "2003": 681,
      "37": 682,
      "Ma": 683,
      "chui": 684,
      "pen": 685,
      "ll": 686,
      "189": 687,
      "IN": 688,
      "2002": 689,
      "keng": 690,
      "TC": 691,
      "do": 692,
      "34": 693,
      "75": 694,
      "âĢĵ": 695,
      "Co": 696,
      "46": 697,
      "ca": 698,
      "1990": 699,
      "âĢ¦": 700,
      "ck": 701,
      "39": 702,
      "..": 703,
      "be": 704,
      "65": 705,
      "32": 706,
      "ST": 707,
      "47": 708,
      "UTC": 709,
      "1999": 710,
      "1998": 711,
      "1980": 712,
      "188": 713,
      "500": 714,
      "33": 715,
      "In": 716,
      "64": 717,
      "ss": 718,
      "The": 719,
      "vi": 720,
      "SE": 721,
      "55": 722,
      "1997": 723,
      "Re": 724,
      "hi": 725,
      "49": 726,
      "II": 727,
      "el": 728,
      "68": 729,
      "et": 730,
      "44": 731,
      "1996": 732,
      "oo": 733,
      "qiong": 734,
      "1994": 735,
      "gun": 736,
      "br": 737,
      "guai": 738,
      "1992": 739,
      "1995": 740,
      "Mi": 741,
      "67": 742,
      "and": 743,
      "sao": 744,
      "es": 745,
      "1991": 746,
      "1970": 747,
      "58": 748,
      "1950": 749,
      "300": 750,
      "1993": 751,
      "187": 752,
      "1949": 753,
      "at": 754,
      "AT": 755,
      "pe": 756,
      "1960": 757,
      "42": 758,
      "1945": 759,
      "Li": 760,
      "ver": 761,
      "qia": 762,
      "1988": 763,
      "ty": 764,
      "1989": 765,
      "69": 766,
      "Ro": 767,
      "is": 768,
      "run": 769,
      "SEE": 770,
      "niang": 771,
      "INSEE": 772,
      "ho": 773,
      "59": 774,
      "43": 775,
      "66": 776,
      "57": 777,
      "1985": 778,
      "99": 779,
      "SA": 780,
      "ãĢİ": 781,
      "ãĢı": 782,
      "ct": 783,
      "1984": 784,
      "41": 785,
      "88": 786,
      "1986": 787,
      "wi": 788,
      "ol": 789,
      "ws": 790,
      "TV": 791,
      "ry": 792,
      "150": 793,
      "Me": 794,
      "nd": 795,
      "400": 796,
      "1987": 797,
      "78": 798,
      "1982": 799,
      "56": 800,
      "beng": 801,
      "Vi": 802,
      "Pa": 803,
      "ts": 804,
      "1983": 805,
      "amp": 806,
      "NA": 807,
      "De": 808,
      "CD": 809,
      "gh": 810,
      "fi": 811,
      "weng": 812,
      "ber": 813,
      "77": 814,
      "Win": 815,
      "per": 816,
      "zuan": 817,
      "Sta": 818,
      "79": 819,
      "OS": 820,
      "Wi": 821,
      "Â°": 822,
      "ï½": 823,
      "der": 824,
      "180": 825,
      "BC": 826,
      "54": 827,
      "1979": 828,
      "61": 829,
      "1920": 830,
      "as": 831,
      "Mo": 832,
      "seng": 833,
      "98": 834,
      "52": 835,
      "You": 836,
      "1978": 837,
      "no": 838,
      "62": 839,
      "53": 840,
      "ly": 841,
      "shua": 842,
      "La": 843,
      "ï½ŀ": 844,
      "BA": 845,
      "1946": 846,
      "CO": 847,
      "51": 848,
      "1958": 849,
      "gi": 850,
      "Jo": 851,
      "1981": 852,
      "1972": 853,
      "1948": 854,
      "Le": 855,
      "tw": 856,
      "AM": 857,
      "63": 858,
      "AR": 859,
      "ction": 860,
      "1941": 861,
      "BS": 862,
      "Ga": 863,
      "1930": 864,
      "Da": 865,
      "Pro": 866,
      "Te": 867,
      "76": 868,
      "hans": 869,
      "1940": 870,
      "1937": 871,
      "1976": 872,
      "1944": 873,
      "Ja": 874,
      "89": 875,
      "us": 876,
      "Di": 877,
      "Windo": 878,
      "1975": 879,
      "ï¼ı": 880,
      "1968": 881,
      "hk": 882,
      "con": 883,
      "Fi": 884,
      "um": 885,
      "Si": 886,
      "1000": 887,
      "Windows": 888,
      "95": 889,
      "87": 890,
      "nal": 891,
      "Mar": 892,
      "1966": 893,
      "rd": 894,
      "85": 895,
      "Ne": 896,
      "Ra": 897,
      "ki": 898,
      "600": 899,
      "120": 900,
      "1947": 901,
      "Se": 902,
      "AC": 903,
      "1956": 904,
      "1964": 905,
      "Be": 906,
      "1942": 907,
      "Ã©": 908,
      "1955": 909,
      "1952": 910,
      "IS": 911,
      "ad": 912,
      "1939": 913,
      "1938": 914,
      "72": 915,
      "ur": 916,
      "74": 917,
      "Ca": 918,
      "va": 919,
      "1973": 920,
      "1974": 921,
      "1954": 922,
      "Ar": 923,
      "Al": 924,
      "ED": 925,
      "1900": 926,
      "--": 927,
      "AP": 928,
      "1943": 929,
      "To": 930,
      "1977": 931,
      "ld": 932,
      "1971": 933,
      "cen": 934,
      "lay": 935,
      "1967": 936,
      "Ba": 937,
      "IC": 938,
      "800": 939,
      "Po": 940,
      "Lo": 941,
      "ER": 942,
      "zhua": 943,
      "sta": 944,
      "86": 945,
      "1959": 946,
      "Bo": 947,
      "tt": 948,
      "1965": 949,
      "JR": 950,
      "1969": 951,
      "Fa": 952,
      "ãĥ»": 953,
      "ÃĹ": 954,
      "ID": 955,
      "Bi": 956,
      "son": 957,
      "1936": 958,
      "160": 959,
      "97": 960,
      "1953": 961,
      "Sa": 962,
      "MA": 963,
      "1962": 964,
      "1961": 965,
      "nen": 966,
      "Na": 967,
      "âĶ": 968,
      "So": 969,
      "1935": 970,
      "com": 971,
      "Ho": 972,
      "tic": 973,
      "96": 974,
      "ON": 975,
      "ï¼ħ": 976,
      "1951": 977,
      "St": 978,
      "1957": 979,
      "1963": 980,
      "Tu": 981,
      "âĶĢ": 982,
      "fe": 983,
      "so": 984,
      "ment": 985,
      "84": 986,
      "Hi": 987,
      "2026": 988,
      "82": 989,
      "Do": 990,
      "mer": 991,
      "Ri": 992,
      "73": 993,
      "nt": 994,
      "94": 995,
      "92": 996,
      "Ki": 997,
      "Ha": 998,
      "nang": 999,
      "one": 1000,
      "IP": 1001,
      "AN": 1002,
      "ls": 1003,
      "1933": 1004,
      "1931": 1005,
      "les": 1006,
      "71": 1007,
      "nuan": 1008,
      "Com": 1009,
      "83": 1010,
      "93": 1011,
      "ted": 1012,
      "Su": 1013,
      "81": 1014,
      "Ti": 1015,
      "Mu": 1016,
      "1918": 1017,
      "Ni": 1018,
      "HD": 1019,
      "Uni": 1020,
      "1928": 1021,
      "pp": 1022,
      "1932": 1023,
      "Cha": 1024,
      "We": 1025,
      "ys": 1026,
      "MV": 1027,
      "SS": 1028,
      "110": 1029,
      "IT": 1030,
      "1912": 1031,
      "No": 1032,
      "1929": 1033,
      "1927": 1034,
      "1934": 1035,
      "cn": 1036,
      "700": 1037,
      "go": 1038,
      "zei": 1039,
      "ght": 1040,
      "ster": 1041,
      "250": 1042,
      "91": 1043,
      "rt": 1044,
      "lli": 1045,
      "1924": 1046,
      "ris": 1047,
      "...": 1048,
      "1919": 1049,
      "nve": 1050,
      "130": 1051,
      "Pi": 1052,
      "1925": 1053,
      "Gi": 1054,
      "PS": 1055,
      "by": 1056,
      "ed": 1057,
      "mes": 1058,
      "An": 1059,
      "PC": 1060,
      "140": 1061,
      "AS": 1062,
      "Play": 1063,
      "1914": 1064,
      "km": 1065,
      "DV": 1066,
      "tio": 1067,
      "YouTu": 1068,
      "SM": 1069,
      "ble": 1070,
      "gra": 1071,
      "ko": 1072,
      "1911": 1073,
      "Con": 1074,
      "Ch": 1075,
      "lla": 1076,
      "1926": 1077,
      "lle": 1078,
      "Ge": 1079,
      "Par": 1080,
      "id": 1081,
      "Ta": 1082,
      "1922": 1083,
      "Lin": 1084,
      "mp": 1085,
      "1917": 1086,
      "He": 1087,
      "Ka": 1088,
      "ET": 1089,
      "NBA": 1090,
      "wn": 1091,
      "IV": 1092,
      "EN": 1093,
      "1923": 1094,
      "1921": 1095,
      "shai": 1096,
      "Goo": 1097,
      "chuo": 1098,
      "170": 1099,
      "à¸": 1100,
      "EC": 1101,
      "MS": 1102,
      "ali": 1103,
      "AL": 1104,
      "ph": 1105,
      "section": 1106,
      "YouTube": 1107,
      "EP": 1108,
      "BL": 1109,
      "1913": 1110,
      "Car": 1111,
      "Bu": 1112,
      "zen": 1113,
      "HK": 1114,
      "we": 1115,
      "hn": 1116,
      "mm": 1117,
      "ven": 1118,
      "hant": 1119,
      "âĨ": 1120,
      "1909": 1121,
      "sion": 1122,
      "Inter": 1123,
      "cro": 1124,
      "MP": 1125,
      "AI": 1126,
      "Wor": 1127,
      "Pe": 1128,
      "ds": 1129,
      "US": 1130,
      "pro": 1131,
      "DVD": 1132,
      "ok": 1133,
      "3000": 1134,
      "En": 1135,
      "1910": 1136,
      "DS": 1137,
      "RO": 1138,
      "cou": 1139,
      "Ste": 1140,
      "sis": 1141,
      "112": 1142,
      "Go": 1143,
      "rk": 1144,
      "AK": 1145,
      "RE": 1146,
      "1916": 1147,
      "Wa": 1148,
      "lia": 1149,
      "ãĥ¼": 1150,
      "Station": 1151,
      "For": 1152,
      "Net": 1153,
      "ff": 1154,
      "Î±": 1155,
      "oft": 1156,
      "ine": 1157,
      "den": 1158,
      "lor": 1159,
      "rea": 1160,
      "tional": 1161,
      "gn": 1162,
      "ture": 1163,
      "gle": 1164,
      "CP": 1165,
      "UN": 1166,
      "âĪ": 1167,
      "ard": 1168,
      "1915": 1169,
      "gin": 1170,
      "1905": 1171,
      "ps": 1172,
      "FC": 1173,
      "cal": 1174,
      "vo": 1175,
      "dia": 1176,
      "My": 1177,
      "CN": 1178,
      "âĦ": 1179,
      "âĨĴ": 1180,
      "our": 1181,
      "ers": 1182,
      "1901": 1183,
      "ent": 1184,
      "Au": 1185,
      "DNA": 1186,
      "Ex": 1187,
      "âĢ§": 1188,
      "900": 1189,
      "end": 1190,
      "HR": 1191,
      "dice": 1192,
      ".&": 1193,
      "ther": 1194,
      "tal": 1195,
      "CH": 1196,
      "TA": 1197,
      "TO": 1198,
      "1906": 1199,
      "1904": 1200,
      "AV": 1201,
      "tes": 1202,
      "MO": 1203,
      "jiong": 1204,
      "John": 1205,
      "my": 1206,
      "eri": 1207,
      "codice": 1208,
      "Man": 1209,
      "âĦĥ": 1210,
      "dy": 1211,
      "PlayStation": 1212,
      "Chi": 1213,
      "05": 1214,
      "CC": 1215,
      "tive": 1216,
      "diu": 1217,
      "And": 1218,
      "1907": 1219,
      "dio": 1220,
      "1908": 1221,
      "Google": 1222,
      "AG": 1223,
      "Ci": 1224,
      "EST": 1225,
      "MI": 1226,
      "SO": 1227,
      "LE": 1228,
      "sic": 1229,
      "ree": 1230,
      "BO": 1231,
      "int": 1232,
      "wit": 1233,
      "BBC": 1234,
      "Sch": 1235,
      "AD": 1236,
      "IG": 1237,
      "land": 1238,
      "III": 1239,
      "cri": 1240,
      "ton": 1241,
      "1500": 1242,
      "5000": 1243,
      "cy": 1244,
      "round": 1245,
      "wer": 1246,
      "IST": 1247,
      "ms": 1248,
      "ron": 1249,
      "ME": 1250,
      "CR": 1251,
      "ul": 1252,
      "3D": 1253,
      "je": 1254,
      "IA": 1255,
      "ley": 1256,
      "105": 1257,
      "au": 1258,
      "Ð°": 1259,
      "ria": 1260,
      "101": 1261,
      "1903": 1262,
      "tor": 1263,
      "GB": 1264,
      "van": 1265,
      "09": 1266,
      "TE": 1267,
      "Lu": 1268,
      "1902": 1269,
      "BD": 1270,
      "NC": 1271,
      "Pri": 1272,
      "Fe": 1273,
      "xt": 1274,
      "350": 1275,
      "pou": 1276,
      "Ã¡": 1277,
      "SAO": 1278,
      "des": 1279,
      "DC": 1280,
      "ja": 1281,
      "Î²": 1282,
      "cke": 1283,
      "B1900": 1284,
      "book": 1285,
      "hat": 1286,
      "ES": 1287,
      "all": 1288,
      "BM": 1289,
      "ï¼İ": 1290,
      "ãĥ³": 1291,
      "Ru": 1292,
      "ner": 1293,
      "1898": 1294,
      "res": 1295,
      "06": 1296,
      "118": 1297,
      "op": 1298,
      "ãģ®": 1299,
      "360": 1300,
      "DR": 1301,
      "New": 1302,
      "01": 1303,
      "DA": 1304,
      "Hu": 1305,
      "Open": 1306,
      "1895": 1307,
      "ger": 1308,
      "125": 1309,
      "Sho": 1310,
      "HO": 1311,
      "MC": 1312,
      "San": 1313,
      "ATP": 1314,
      "Micro": 1315,
      "ctor": 1316,
      "Ð¾": 1317,
      "108": 1318,
      "ft": 1319,
      "cor": 1320,
      "os": 1321,
      "NG": 1322,
      "Ke": 1323,
      "clu": 1324,
      "gy": 1325,
      "gram": 1326,
      "pri": 1327,
      "ward": 1328,
      "sty": 1329,
      "IF": 1330,
      "Cu": 1331,
      "Fran": 1332,
      "One": 1333,
      "net": 1334,
      "soft": 1335,
      "ker": 1336,
      "pt": 1337,
      "âĪĴ": 1338,
      "07": 1339,
      "08": 1340,
      "230": 1341,
      "Face": 1342,
      "104": 1343,
      "pace": 1344,
      "lspan": 1345,
      "Cor": 1346,
      "Per": 1347,
      "Bar": 1348,
      "World": 1349,
      "App": 1350,
      "EDT": 1351,
      "ISTAT": 1352,
      "cuan": 1353,
      "Love": 1354,
      "Ko": 1355,
      "à¤": 1356,
      "Har": 1357,
      "NO": 1358,
      "Stu": 1359,
      "1896": 1360,
      "LL": 1361,
      "ux": 1362,
      "109": 1363,
      "DP": 1364,
      "las": 1365,
      "AA": 1366,
      "fli": 1367,
      "RI": 1368,
      "Ju": 1369,
      "pha": 1370,
      "Ser": 1371,
      "lus": 1372,
      "line": 1373,
      "RT": 1374,
      "tri": 1375,
      "SP": 1376,
      "EX": 1377,
      "B48": 1378,
      "106": 1379,
      "1890": 1380,
      "rai": 1381,
      "sti": 1382,
      "mon": 1383,
      "CST": 1384,
      "ML": 1385,
      "od": 1386,
      "uni": 1387,
      "CDT": 1388,
      "bert": 1389,
      "Je": 1390,
      "rs": 1391,
      "rus": 1392,
      "red": 1393,
      "DO": 1394,
      "Pu": 1395,
      "ky": 1396,
      "HE": 1397,
      "Cou": 1398,
      "ation": 1399,
      "Mon": 1400,
      "04": 1401,
      "4000": 1402,
      "115": 1403,
      "1200": 1404,
      "M1": 1405,
      "Pre": 1406,
      "03": 1407,
      "ler": 1408,
      "GP": 1409,
      "del": 1410,
      "CE": 1411,
      "Äģ": 1412,
      "Live": 1413,
      "begin": 1414,
      "1889": 1415,
      "ool": 1416,
      "Davi": 1417,
      "with": 1418,
      "ara": 1419,
      "1899": 1420,
      "colspan": 1421,
      "tain": 1422,
      "back": 1423,
      "1871": 1424,
      "RS": 1425,
      "sto": 1426,
      "Facebook": 1427,
      "Ed": 1428,
      "Sha": 1429,
      "Microsoft": 1430,
      "mic": 1431,
      "tem": 1432,
      "âĢĭ": 1433,
      "240": 1434,
      "1600": 1435,
      "LO": 1436,
      "Tri": 1437,
      "ten": 1438,
      "tin": 1439,
      "BE": 1440,
      "low": 1441,
      "102": 1442,
      "box": 1443,
      "clude": 1444,
      "Ad": 1445,
      "TT": 1446,
      "1897": 1447,
      "Sou": 1448,
      "ser": 1449,
      "NH": 1450,
      "EE": 1451,
      "Du": 1452,
      "ces": 1453,
      "PP": 1454,
      "117": 1455,
      "SC": 1456,
      "val": 1457,
      "02": 1458,
      "por": 1459,
      "cm": 1460,
      "Mac": 1461,
      "style": 1462,
      "Che": 1463,
      "rst": 1464,
      "103": 1465,
      "AKB48": 1466,
      "Dan": 1467,
      "MD": 1468,
      "Nor": 1469,
      "Ph": 1470,
      "107": 1471,
      "ral": 1472,
      "Her": 1473,
      "On": 1474,
      "pre": 1475,
      "ring": 1476,
      "As": 1477,
      "are": 1478,
      "Willi": 1479,
      "tel": 1480,
      "Linux": 1481,
      "lis": 1482,
      "Ori": 1483,
      "ww": 1484,
      "Dis": 1485,
      "shuan": 1486,
      "gue": 1487,
      "mas": 1488,
      "450": 1489,
      "Ber": 1490,
      "VID": 1491,
      "127": 1492,
      "Music": 1493,
      "Is": 1494,
      "Ai": 1495,
      "Gre": 1496,
      "cer": 1497,
      "Ã¼": 1498,
      "tus": 1499,
      "Vo": 1500,
      "tra": 1501,
      "128": 1502,
      "flix": 1503,
      "CL": 1504,
      "Netflix": 1505,
      "Bro": 1506,
      "yo": 1507,
      "1894": 1508,
      "Game": 1509,
      "220": 1510,
      "Can": 1511,
      "Gra": 1512,
      "nin": 1513,
      "ref": 1514,
      "Ð½": 1515,
      "William": 1516,
      "Bri": 1517,
      "IL": 1518,
      "align": 1519,
      "SH": 1520,
      "bli": 1521,
      "ory": 1522,
      "Or": 1523,
      "Twit": 1524,
      "1880": 1525,
      "Red": 1526,
      "old": 1527,
      "ÃŃ": 1528,
      "RNA": 1529,
      "136": 1530,
      "PG": 1531,
      "Ð¸": 1532,
      "ãģĦ": 1533,
      "rom": 1534,
      "TR": 1535,
      "Team": 1536,
      "1800": 1537,
      "ãĤ¹": 1538,
      "Univer": 1539,
      "ground": 1540,
      "ia": 1541,
      "1885": 1542,
      "len": 1543,
      "114": 1544,
      "ãĤĵ": 1545,
      "Hz": 1546,
      "color": 1547,
      "Gen": 1548,
      "Ty": 1549,
      "116": 1550,
      "280": 1551,
      "UR": 1552,
      "ple": 1553,
      "Ðµ": 1554,
      "113": 1555,
      "1886": 1556,
      "ein": 1557,
      "ãĤ¤": 1558,
      "TS": 1559,
      "PO": 1560,
      "1893": 1561,
      "lar": 1562,
      "ex": 1563,
      "rn": 1564,
      "yn": 1565,
      "Mc": 1566,
      "name": 1567,
      "111": 1568,
      "SL": 1569,
      "ãĦ": 1570,
      "Super": 1571,
      "She": 1572,
      "stra": 1573,
      "All": 1574,
      "Gu": 1575,
      "cial": 1576,
      "lass": 1577,
      "âĢ»": 1578,
      "David": 1579,
      "135": 1580,
      "ject": 1581,
      "Ac": 1582,
      "260": 1583,
      "Cen": 1584,
      "Eu": 1585,
      "lf": 1586,
      "1860": 1587,
      "port": 1588,
      "ham": 1589,
      "Geor": 1590,
      "cho": 1591,
      "national": 1592,
      "Char": 1593,
      "Un": 1594,
      "WTA": 1595,
      "lver": 1596,
      "dge": 1597,
      "work": 1598,
      "HC": 1599,
      "Th": 1600,
      "tro": 1601,
      "School": 1602,
      "Ban": 1603,
      "ks": 1604,
      "sso": 1605,
      "tch": 1606,
      "tis": 1607,
      "1888": 1608,
      "Mor": 1609,
      "qui": 1610,
      "text": 1611,
      "SD": 1612,
      "Ã³": 1613,
      "-.": 1614,
      "UA": 1615,
      "roup": 1616,
      "lly": 1617,
      "cation": 1618,
      "ony": 1619,
      "background": 1620,
      "Meta": 1621,
      "roid": 1622,
      "ac": 1623,
      "meri": 1624,
      "Tra": 1625,
      "129": 1626,
      "GO": 1627,
      "Sto": 1628,
      "dis": 1629,
      "1870": 1630,
      "GN": 1631,
      "ï¹": 1632,
      "ream": 1633,
      "1887": 1634,
      "Show": 1635,
      "Qu": 1636,
      "cle": 1637,
      "1868": 1638,
      "6000": 1639,
      "Ã¶": 1640,
      "ÑĢ": 1641,
      "1883": 1642,
      "NF": 1643,
      "VA": 1644,
      "mar": 1645,
      "Ver": 1646,
      "day": 1647,
      "320": 1648,
      "Xbox": 1649,
      "CS": 1650,
      "was": 1651,
      "Ang": 1652,
      "NHK": 1653,
      "Tho": 1654,
      "AF": 1655,
      "Fo": 1656,
      "Twitter": 1657,
      "DD": 1658,
      "lyin": 1659,
      "onlyin": 1660,
      "onlyinclude": 1661,
      "++": 1662,
      "KP": 1663,
      "don": 1664,
      "1864": 1665,
      "âĢ¢": 1666,
      "Gir": 1667,
      "ION": 1668,
      "1884": 1669,
      "119": 1670,
      "Bla": 1671,
      "RC": 1672,
      "UE": 1673,
      "ain": 1674,
      "miu": 1675,
      "122": 1676,
      "Va": 1677,
      "2500": 1678,
      "1892": 1679,
      "210": 1680,
      "A1": 1681,
      "center": 1682,
      "cket": 1683,
      "155": 1684,
      "ISO": 1685,
      "âħ": 1686,
      "145": 1687,
      "stri": 1688,
      "1891": 1689,
      "650": 1690,
      "way": 1691,
      "Android": 1692,
      "NS": 1693,
      "Clu": 1694,
      "ãĢķ": 1695,
      "OR": 1696,
      "ffi": 1697,
      "htt": 1698,
      "mber": 1699,
      "ãĢĶ": 1700,
      "1850": 1701,
      "Fu": 1702,
      "Phi": 1703,
      "age": 1704,
      "mb": 1705,
      "win": 1706,
      "xy": 1707,
      "Cy": 1708,
      "Ku": 1709,
      "king": 1710,
      "International": 1711,
      "sia": 1712,
      "1867": 1713,
      "logy": 1714,
      "Ce": 1715,
      "IM": 1716,
      "ãĥĪ": 1717,
      "1879": 1718,
      "Star": 1719,
      "rie": 1720,
      "James": 1721,
      "Enter": 1722,
      "cc": 1723,
      "ller": 1724,
      "380": 1725,
      "AB": 1726,
      "UP": 1727,
      "ney": 1728,
      "Eng": 1729,
      "1876": 1730,
      "Spe": 1731,
      "War": 1732,
      "ny": 1733,
      "Studio": 1734,
      "zo": 1735,
      "George": 1736,
      "Ab": 1737,
      "shiĠ": 1738,
      "deĠ": 1739,
      "ĠshiĠ": 1740,
      "ĠdeĠ": 1741,
      "yiĠ": 1742,
      "ĠyiĠ": 1743,
      "jiĠ": 1744,
      "weiĠ": 1745,
      "zhiĠ": 1746,
      "yuĠ": 1747,
      "ĠweiĠ": 1748,
      "ĠjiĠ": 1749,
      "Ġnian": 1750,
      "ĠzhiĠ": 1751,
      "ĠyuĠ": 1752,
      "Ġli": 1753,
      "ĠnianĠ": 1754,
      "zhongĠ": 1755,
      "ĠliĠ": 1756,
      "zaiĠ": 1757,
      "renĠ": 1758,
      "youĠ": 1759,
      "guoĠ": 1760,
      "heĠ": 1761,
      "qiĠ": 1762,
      "buĠ": 1763,
      "diĠ": 1764,
      "ĠyouĠ": 1765,
      "ĠzaiĠ": 1766,
      "ĠrenĠ": 1767,
      "Ġyue": 1768,
      "ĠzhongĠ": 1769,
      "ĠheĠ": 1770,
      "daĠ": 1771,
      "xiĠ": 1772,
      "xingĠ": 1773,
      "yuanĠ": 1774,
      "erĠ": 1775,
      "gongĠ": 1776,
      "ĠyueĠ": 1777,
      "fuĠ": 1778,
      "siĠ": 1779,
      "geĠ": 1780,
      "jianĠ": 1781,
      "ĠguoĠ": 1782,
      "wuĠ": 1783,
      "jiaĠ": 1784,
      "ĠbuĠ": 1785,
      "jieĠ": 1786,
      "keĠ": 1787,
      "chengĠ": 1788,
      "zhuĠ": 1789,
      "shengĠ": 1790,
      "xiangĠ": 1791,
      "xianĠ": 1792,
      "daoĠ": 1793,
      "beiĠ": 1794,
      "ziĠ": 1795,
      "ĠqiĠ": 1796,
      "faĠ": 1797,
      "huiĠ": 1798,
      "chuĠ": 1799,
      "jinĠ": 1800,
      "ĠdiĠ": 1801,
      "shuĠ": 1802,
      "ĠerĠ": 1803,
      "riĠ": 1804,
      "ĠxiĠ": 1805,
      "juĠ": 1806,
      "quĠ": 1807,
      "zhengĠ": 1808,
      "houĠ": 1809,
      "shouĠ": 1810,
      "mingĠ": 1811,
      "shangĠ": 1812,
      "dongĠ": 1813,
      "taĠ": 1814,
      "jingĠ": 1815,
      "leĠ": 1816,
      "xueĠ": 1817,
      "fangĠ": 1818,
      "yanĠ": 1819,
      "zhanĠ": 1820,
      "ciĠ": 1821,
      "baoĠ": 1822,
      "huaĠ": 1823,
      "yingĠ": 1824,
      "yeĠ": 1825,
      "tongĠ": 1826,
      "zuoĠ": 1827,
      "zheĠ": 1828,
      "guanĠ": 1829,
      "ĠdaĠ": 1830,
      "ĠriĠ": 1831,
      "yinĠ": 1832,
      "changĠ": 1833,
      "xinĠ": 1834,
      "jiaoĠ": 1835,
      "luĠ": 1836,
      "duiĠ": 1837,
      "wenĠ": 1838,
      "tiĠ": 1839,
      "fenĠ": 1840,
      "qianĠ": 1841,
      "taiĠ": 1842,
      "jiangĠ": 1843,
      "xiaoĠ": 1844,
      "bingĠ": 1845,
      "ĠsiĠ": 1846,
      "junĠ": 1847,
      "dianĠ": 1848,
      "zhangĠ": 1849,
      "pingĠ": 1850,
      "xiaĠ": 1851,
      "duĠ": 1852,
      "huoĠ": 1853,
      "yongĠ": 1854,
      "danĠ": 1855,
      "ĠkeĠ": 1856,
      "ĠjiaĠ": 1857,
      "haiĠ": 1858,
      "gaiĠ": 1859,
      "wangĠ": 1860,
      "daiĠ": 1861,
      "nanĠ": 1862,
      "ruĠ": 1863,
      "qingĠ": 1864,
      "muĠ": 1865,
      "biĠ": 1866,
      "banĠ": 1867,
      "liangĠ": 1868,
      "laiĠ": 1869,
      "meiĠ": 1870,
      "yaĠ": 1871,
      "shenĠ": 1872,
      "ĠfuĠ": 1873,
      "ĠxingĠ": 1874,
      "zuĠ": 1875,
      "wanĠ": 1876,
      "sheĠ": 1877,
      "lianĠ": 1878,
      "minĠ": 1879,
      "miĠ": 1880,
      "zhouĠ": 1881,
      "jiuĠ": 1882,
      "qiuĠ": 1883,
      "anĠ": 1884,
      "zhenĠ": 1885,
      "benĠ": 1886,
      "xuĠ": 1887,
      "gaoĠ": 1888,
      "ĠtaĠ": 1889,
      "boĠ": 1890,
      "xieĠ": 1891,
      "teĠ": 1892,
      "bianĠ": 1893,
      "lingĠ": 1894,
      "luoĠ": 1895,
      "yaoĠ": 1896,
      "dengĠ": 1897,
      "duoĠ": 1898,
      "yangĠ": 1899,
      "quanĠ": 1900,
      "cheĠ": 1901,
      "suoĠ": 1902,
      "zuiĠ": 1903,
      "tianĠ": 1904,
      "guĠ": 1905,
      "biaoĠ": 1906,
      "fanĠ": 1907,
      "huĠ": 1908,
      "yunĠ": 1909,
      "xuanĠ": 1910,
      "suĠ": 1911,
      "shanĠ": 1912,
      "feiĠ": 1913,
      "dingĠ": 1914,
      "liuĠ": 1915,
      "zongĠ": 1916,
      "saiĠ": 1917,
      "dangĠ": 1918,
      "maĠ": 1919,
      "kaiĠ": 1920,
      "baĠ": 1921,
      "haoĠ": 1922,
      "ĠdeĠyiĠ": 1923,
      "ĠbingĠ": 1924,
      "ĠdaoĠ": 1925,
      "fengĠ": 1926,
      "kouĠ": 1927,
      "tuĠ": 1928,
      "mianĠ": 1929,
      "menĠ": 1930,
      "neiĠ": 1931,
      "laĠ": 1932,
      "leiĠ": 1933,
      "sanĠ": 1934,
      "caiĠ": 1935,
      "waiĠ": 1936,
      "chuanĠ": 1937,
      "jueĠ": 1938,
      "paiĠ": 1939,
      "chiĠ": 1940,
      "ĠdanĠ": 1941,
      "ĠjinĠ": 1942,
      "ĠbeiĠ": 1943,
      "ĠgongĠ": 1944,
      "ĠjianĠ": 1945,
      "guangĠ": 1946,
      "ĠshiĠyiĠ": 1947,
      "lanĠ": 1948,
      "niĠ": 1949,
      "guiĠ": 1950,
      "baiĠ": 1951,
      "ĠziĠ": 1952,
      "linĠ": 1953,
      "tingĠ": 1954,
      "ĠzheĠ": 1955,
      "puĠ": 1956,
      "ĠxiangĠ": 1957,
      "naĠ": 1958,
      "gangĠ": 1959,
      "lunĠ": 1960,
      "nengĠ": 1961,
      "hanĠ": 1962,
      "lieĠ": 1963,
      "zeĠ": 1964,
      "ĠzhuĠ": 1965,
      "chengĠweiĠ": 1966,
      "moĠ": 1967,
      "ĠyinĠ": 1968,
      "ĠgeĠ": 1969,
      "ĠxianĠ": 1970,
      "ĠchuĠ": 1971,
      "ĠshiĠdeĠ": 1972,
      "meiĠguoĠ": 1973,
      "chanĠ": 1974,
      "shuiĠ": 1975,
      "ĠjuĠ": 1976,
      "ĠchengĠ": 1977,
      "ĠdeĠshiĠ": 1978,
      "ĠjieĠ": 1979,
      "ĠgaiĠ": 1980,
      "ĠwuĠ": 1981,
      "suiĠ": 1982,
      "xunĠ": 1983,
      "zhuanĠ": 1984,
      "ĠbaoĠ": 1985,
      "ĠpingĠ": 1986,
      "lvĠ": 1987,
      "Ġta": 1988,
      "aoĠ": 1989,
      "zhuangĠ": 1990,
      "liĠ": 1991,
      "touĠ": 1992,
      "duanĠ": 1993,
      "ĠyiĠjiĠ": 1994,
      "seĠ": 1995,
      "eĠ": 1996,
      "huanĠ": 1997,
      "chongĠ": 1998,
      "ĠweiĠyuĠ": 1999,
      "cengĠ": 2000,
      "pinĠ": 2001,
      "congĠ": 2002,
      "chaĠ": 2003,
      "1Ġ": 2004,
      "aĠ": 2005,
      "diĠyiĠ": 2006,
      "cunĠ": 2007,
      "douĠ": 2008,
      "zaoĠ": 2009,
      "ĠhouĠ": 2010,
      "kongĠ": 2011,
      "zhaoĠ": 2012,
      "gouĠ": 2013,
      "ganĠ": 2014,
      "ĠciĠ": 2015,
      "shaĠ": 2016,
      "qiangĠ": 2017,
      "ĠshiĠjiĠ": 2018,
      "chaoĠ": 2019,
      "mengĠ": 2020,
      "ĠyeĠ": 2021,
      "kaiĠshiĠ": 2022,
      "manĠ": 2023,
      "ceĠ": 2024,
      "tangĠ": 2025,
      "longĠ": 2026,
      "2Ġ": 2027,
      "aiĠ": 2028,
      "Ġdan": 2029,
      "kuoĠ": 2030,
      "keĠyiĠ": 2031,
      "ĠfaĠ": 2032,
      "ĠyuanĠ": 2033,
      "ĠyiĠgeĠ": 2034,
      "tanĠ": 2035,
      "tuanĠ": 2036,
      "ĠshengĠ": 2037,
      "ĠshiĠweiĠ": 2038,
      "kaĠ": 2039,
      "gongĠliĠ": 2040,
      "ĠzhongĠguoĠ": 2041,
      "qinĠ": 2042,
      "Ġtong": 2043,
      "tieĠ": 2044,
      "ĠshiĠshiĠ": 2045,
      "Ġbing": 2046,
      "zhengĠfuĠ": 2047,
      "ĠmingĠ": 2048,
      "shaoĠ": 2049,
      "canĠ": 2050,
      "pianĠ": 2051,
      "Ġyou": 2052,
      "huoĠdeĠ": 2053,
      "mianĠjiĠ": 2054,
      "hangĠ": 2055,
      "hongĠ": 2056,
      "gengĠ": 2057,
      "ĠhuoĠ": 2058,
      "jiĠdeĠ": 2059,
      "ĠshiĠyongĠ": 2060,
      "tiaoĠ": 2061,
      "xiuĠ": 2062,
      "chenĠ": 2063,
      "shuoĠ": 2064,
      "piĠ": 2065,
      "ĠdongĠ": 2066,
      "renĠweiĠ": 2067,
      "ĠshiĠjianĠ": 2068,
      "taoĠ": 2069,
      "zhiĠyiĠ": 2070,
      "zhongĠdeĠ": 2071,
      "zhengĠzhiĠ": 2072,
      "huangĠ": 2073,
      "ranĠ": 2074,
      "ĠyiĠzhiĠ": 2075,
      "ĠshiĠjieĠ": 2076,
      "zhongĠguoĠ": 2077,
      "Ġri": 2078,
      "yueĠ": 2079,
      "chuangĠ": 2080,
      "nvĠ": 2081,
      "quĠdeĠ": 2082,
      "guoĠjiĠ": 2083,
      "yiĠshiĠ": 2084,
      "ĠpingĠfangĠ": 2085,
      "woĠ": 2086,
      "renĠkouĠ": 2087,
      "xingĠdeĠ": 2088,
      "poĠ": 2089,
      "ĠshouĠ": 2090,
      "jinĠxingĠ": 2091,
      "rongĠ": 2092,
      "ĠsuiĠ": 2093,
      "liaoĠ": 2094,
      "diaoĠ": 2095,
      "tuoĠ": 2096,
      "meiĠyouĠ": 2097,
      "ĠhaoĠ": 2098,
      "songĠ": 2099,
      "ouĠ": 2100,
      "ĠliĠdeĠ": 2101,
      "ĠmiĠ": 2102,
      "ĠliĠshiĠ": 2103,
      "nianĠ": 2104,
      "Ġdang": 2105,
      "ĠweiĠyuanĠ": 2106,
      "ĠfenĠ": 2107,
      "ĠwanĠ": 2108,
      "peiĠ": 2109,
      "ĠqiĠzhongĠ": 2110,
      "zuoĠweiĠ": 2111,
      "gongĠsiĠ": 2112,
      "faĠguoĠ": 2113,
      "biaoĠshiĠ": 2114,
      "ĠĠĠzaiĠ": 2115,
      "yanĠjiuĠ": 2116,
      "Ġer": 2117,
      "zhengĠshiĠ": 2118,
      "ĠshangĠ": 2119,
      "ĠhaiĠ": 2120,
      "Ġyin": 2121,
      "panĠ": 2122,
      "ĠdeĠjiĠ": 2123,
      "tuiĠ": 2124,
      "ĠmeiĠ": 2125,
      "ĠxinĠ": 2126,
      "Ġzhe": 2127,
      "dianĠshiĠ": 2128,
      "yunĠdongĠ": 2129,
      "queĠ": 2130,
      "bangĠ": 2131,
      "qieĠ": 2132,
      "ĠtaiĠ": 2133,
      "ĠdeĠdiĠ": 2134,
      "chengĠshiĠ": 2135,
      "3Ġ": 2136,
      "zhiĠshiĠ": 2137,
      "ĠjiangĠ": 2138,
      "ĠjingĠ": 2139,
      "ĠshuĠ": 2140,
      "jianĠdeĠ": 2141,
      "taĠdeĠ": 2142,
      "gongĠheĠ": 2143,
      "shuĠyuĠ": 2144,
      "sheĠjiĠ": 2145,
      "ĠqianĠ": 2146,
      "langĠ": 2147,
      "ĠrenĠminĠ": 2148,
      "dunĠ": 2149,
      "ĠrenĠkouĠ": 2150,
      "zhiĠdeĠ": 2151,
      "qiaoĠ": 2152,
      "10ĠyueĠ": 2153,
      "12ĠyueĠ": 2154,
      "ĠdeĠzhiĠ": 2155,
      "ĠyingĠ": 2156,
      "jingĠjiĠ": 2157,
      "dianĠyingĠ": 2158,
      "7ĠyueĠ": 2159,
      "ĠxiaĠ": 2160,
      "ĠnanĠ": 2161,
      "zuĠzhiĠ": 2162,
      "ĠmuĠ": 2163,
      "9ĠyueĠ": 2164,
      "ĠzhangĠ": 2165,
      "8ĠyueĠ": 2166,
      "zhuĠyiĠ": 2167,
      "3ĠyueĠ": 2168,
      "ĠzuiĠ": 2169,
      "1ĠyueĠ": 2170,
      "maoĠ": 2171,
      "ĠshiĠqiĠ": 2172,
      "daiĠbiaoĠ": 2173,
      "waĠ": 2174,
      "riĠbenĠ": 2175,
      "yingĠguoĠ": 2176,
      "5ĠyueĠ": 2177,
      "youĠyiĠ": 2178,
      "jiĠshiĠ": 2179,
      "kaoĠ": 2180,
      "6ĠyueĠ": 2181,
      "guoĠdeĠ": 2182,
      "kanĠ": 2183,
      "4ĠyueĠ": 2184,
      "ĠhuiĠ": 2185,
      "ĠshiĠzhenĠ": 2186,
      "reĠ": 2187,
      "henĠ": 2188,
      "maiĠ": 2189,
      "xianĠdeĠ": 2190,
      "ĠbiĠ": 2191,
      "weiĠyiĠ": 2192,
      "11ĠyueĠ": 2193,
      "cheĠzhanĠ": 2194,
      "jiaoĠyuĠ": 2195,
      "ĠtongĠ": 2196,
      "genĠjuĠ": 2197,
      "buĠfenĠ": 2198,
      "yiĠdeĠ": 2199,
      "daĠxueĠ": 2200,
      "yuĠshiĠ": 2201,
      "4Ġ": 2202,
      "xiangĠgangĠ": 2203,
      "mingĠweiĠ": 2204,
      "xueĠyuanĠ": 2205,
      "ĠdeĠguoĠ": 2206,
      "5Ġ": 2207,
      "ĠyiĠyuanĠ": 2208,
      "liĠshiĠ": 2209,
      "ĠdeĠyiĠgeĠ": 2210,
      "ĠzhiĠhouĠ": 2211,
      "ĠruĠ": 2212,
      "genĠ": 2213,
      "danĠrenĠ": 2214,
      "ĠnianĠ1ĠyueĠ": 2215,
      "ĠdengĠ": 2216,
      "canĠjiaĠ": 2217,
      "ĠyiĠweiĠ": 2218,
      "caoĠ": 2219,
      "kangĠ": 2220,
      "sheĠhuiĠ": 2221,
      "ĠtiĠ": 2222,
      "xianĠshiĠ": 2223,
      "ĠdiĠquĠ": 2224,
      "ĠqingĠ": 2225,
      "saĠ": 2226,
      "yingĠxiangĠ": 2227,
      "taiĠwanĠ": 2228,
      "shuĠdeĠ": 2229,
      "Ġran": 2230,
      "ĠyanĠ": 2231,
      "ĠyouĠyuĠ": 2232,
      "shangĠdeĠ": 2233,
      "xingĠshiĠ": 2234,
      "yeĠshiĠ": 2235,
      "ĠxueĠ": 2236,
      "qiĠshiĠ": 2237,
      "ĠyinĠciĠ": 2238,
      "formulaĠ": 2239,
      "bieĠ": 2240,
      "guanĠliĠ": 2241,
      "laoĠ": 2242,
      "zengĠ": 2243,
      "gongĠzuoĠ": 2244,
      "tongĠguoĠ": 2245,
      "leĠyiĠ": 2246,
      "ĠnianĠ12ĠyueĠ": 2247,
      "ĠxiaoĠ": 2248,
      "ĠlingĠ": 2249,
      "xingĠzhengĠ": 2250,
      "buĠdeĠ": 2251,
      "gongĠheĠguoĠ": 2252,
      "weiĠshiĠ": 2253,
      "ĠliĠyaĠ": 2254,
      "ĠnianĠdeĠ": 2255,
      "erĠshiĠ": 2256,
      "renĠdeĠ": 2257,
      "zhunĠ": 2258,
      "ziĠjiĠ": 2259,
      "daĠdeĠ": 2260,
      "2ĠyueĠ": 2261,
      "xiongĠ": 2262,
      "ĠguoĠjiaĠ": 2263,
      "zuiĠzhongĠ": 2264,
      "ĠliangĠ": 2265,
      "ĠnianĠ3ĠyueĠ": 2266,
      "huiĠyiĠ": 2267,
      "kuangĠ": 2268,
      "ĠĠĠshengĠ": 2269,
      "chengĠliĠ": 2270,
      "nongĠ": 2271,
      "ĠpingĠfangĠgongĠliĠ": 2272,
      "luoĠsiĠ": 2273,
      "kuĠ": 2274,
      "ĠnianĠ7ĠyueĠ": 2275,
      "ĠjiaoĠ": 2276,
      "ĠnianĠ10ĠyueĠ": 2277,
      "faĠxianĠ": 2278,
      "ĠwangĠ": 2279,
      "chuĠdeĠ": 2280,
      "miaoĠ": 2281,
      "ĠzhanĠ": 2282,
      "haĠ": 2283,
      "6Ġ": 2284,
      "qiĠdeĠ": 2285,
      "ĠbaoĠkuoĠ": 2286,
      "faĠzhanĠ": 2287,
      "ĠnianĠ9ĠyueĠ": 2288,
      "heiĠ": 2289,
      "yuanĠdeĠ": 2290,
      "ĠshiĠyouĠ": 2291,
      "ĠshiĠzhiĠ": 2292,
      "qiĠtaĠ": 2293,
      "ĠnianĠ5ĠyueĠ": 2294,
      "ĠqiĠjianĠ": 2295,
      "ĠtianĠ": 2296,
      "piaoĠ": 2297,
      "suoĠyouĠ": 2298,
      "kuaiĠ": 2299,
      "siĠdeĠ": 2300,
      "ĠboĠ": 2301,
      "ĠnianĠ4ĠyueĠ": 2302,
      "ĠnianĠ6ĠyueĠ": 2303,
      "ĠnianĠ8ĠyueĠ": 2304,
      "youĠyuĠ": 2305,
      "ĠluoĠ": 2306,
      "tieĠluĠ": 2307,
      "ĠdaĠxueĠ": 2308,
      "quanĠguoĠ": 2309,
      "ĠshiĠzaiĠ": 2310,
      "daoĠzhiĠ": 2311,
      "daoĠdeĠ": 2312,
      "tongĠdeĠ": 2313,
      "zhuĠyaoĠ": 2314,
      "chengĠdeĠ": 2315,
      "canĠyuĠ": 2316,
      "louĠ": 2317,
      "nuoĠ": 2318,
      "shuangĠ": 2319,
      "ĠzhengĠ": 2320,
      "wenĠhuaĠ": 2321,
      "ĠmaĠ": 2322,
      "ĠhuaĠ": 2323,
      "diĠliĠ": 2324,
      "ĠduiĠ": 2325,
      "ĠtaĠmenĠ": 2326,
      "ĠluĠ": 2327,
      "zhongĠyiĠ": 2328,
      "lianĠheĠ": 2329,
      "diĠdeĠ": 2330,
      "ĠzhiĠdaoĠ": 2331,
      "ĠdangĠ": 2332,
      "ĠguĠ": 2333,
      "ĠnianĠ11ĠyueĠ": 2334,
      "ĠtongĠshiĠ": 2335,
      "ĠshenĠ": 2336,
      "baoĠkuoĠ": 2337,
      "buĠshiĠ": 2338,
      "ĠzhongĠxinĠ": 2339,
      "ĠĠĠshiĠ": 2340,
      "yinĠyueĠ": 2341,
      "beiĠbuĠ": 2342,
      "ĠjiuĠ": 2343,
      "shuĠjiĠ": 2344,
      "yongĠyuĠ": 2345,
      "senĠ": 2346,
      "ĠĠĠyiĠ": 2347,
      "tiĠgongĠ": 2348,
      "ĠquanĠ": 2349,
      "zaiĠyiĠ": 2350,
      "xuanĠbuĠ": 2351,
      "ĠzongĠ": 2352,
      "guoĠjiaĠ": 2353,
      "ĠweiĠyuanĠhuiĠ": 2354,
      "zuĠqiuĠ": 2355,
      "Ġsui": 2356,
      "wenĠtiĠ": 2357,
      "kuanĠ": 2358,
      "ĠnianĠzhiĠ": 2359,
      "ĠzuoĠ": 2360,
      "ĠyinĠweiĠ": 2361,
      "xueĠxiaoĠ": 2362,
      "shengĠyuĠ": 2363,
      "ĠshiĠwuĠ": 2364,
      "jianĠyuĠ": 2365,
      "ziĠyouĠ": 2366,
      "qianĠmiĠ": 2367,
      "gongĠyouĠ": 2368,
      "guanĠxiĠ": 2369,
      "fangĠshiĠ": 2370,
      "ĠweiĠzhiĠ": 2371,
      "enĠ": 2372,
      "ĠshiĠzhongĠ": 2373,
      "hunĠ": 2374,
      "ĠnianĠ2ĠyueĠ": 2375,
      "ĠxuĠ": 2376,
      "biĠsaiĠ": 2377,
      "huaĠrenĠminĠ": 2378,
      "yingĠdeĠ": 2379,
      "rangĠ": 2380,
      "chengĠyuanĠ": 2381,
      "jianĠzhuĠ": 2382,
      "huoĠdongĠ": 2383,
      "jianĠliĠ": 2384,
      "Ġgai": 2385,
      "hengĠ": 2386,
      "suanĠ": 2387,
      "yuĠyiĠ": 2388,
      "ĠĠĠliĠshiĠ": 2389,
      "jiĠyiĠ": 2390,
      "fenĠweiĠ": 2391,
      "ĠdeĠrenĠ": 2392,
      "zuoĠpinĠ": 2393,
      "sheĠyouĠ": 2394,
      "renĠshiĠ": 2395,
      "ĠdianĠ": 2396,
      "tongĠshiĠ": 2397,
      "guanĠjunĠ": 2398,
      "ĠchangĠ": 2399,
      "ĠbenĠ": 2400,
      "daĠliĠ": 2401,
      "geĠrenĠ": 2402,
      "ĠchengĠweiĠ": 2403,
      "ĠĠĠshengĠpingĠ": 2404,
      "Ġjie": 2405,
      "ĠanĠ": 2406,
      "zhuanĠjiĠ": 2407,
      "Ġxian": 2408,
      "yuĠdeĠ": 2409,
      "ĠdiĠerĠ": 2410,
      "beiĠjingĠ": 2411,
      "ĠjiĠhuaĠ": 2412,
      "ĠyouĠxiĠ": 2413,
      "jiuĠshiĠ": 2414,
      "xiaoĠshiĠ": 2415,
      "ĠliuĠ": 2416,
      "huaĠrenĠminĠgongĠheĠguoĠ": 2417,
      "yinĠweiĠ": 2418,
      "geiĠ": 2419,
      "ĠtaĠdeĠ": 2420,
      "menĠdeĠ": 2421,
      "ĠliĠyuĠ": 2422,
      "qunĠ": 2423,
      "ĠnianĠdaiĠ": 2424,
      "ĠbaĠ": 2425,
      "duiĠyuĠ": 2426,
      "xiĠdeĠ": 2427,
      "mingĠdeĠ": 2428,
      "ĠaĠ": 2429,
      "junĠshiĠ": 2430,
      "ĠcongĠ": 2431,
      "diĠshiĠ": 2432,
      "tongĠyiĠ": 2433,
      "diĠerĠ": 2434,
      "xinĠdeĠ": 2435,
      "quĠyuĠ": 2436,
      "ĠbuĠfenĠ": 2437,
      "xueĠjiaĠ": 2438,
      "eĠluoĠsiĠ": 2439,
      "zouĠ": 2440,
      "taĠmenĠ": 2441,
      "sĠ": 2442,
      "chunĠ": 2443,
      "ĠduoĠ": 2444,
      "weiĠdeĠ": 2445,
      "shouĠdaoĠ": 2446,
      "minĠguoĠ": 2447,
      "houĠdeĠ": 2448,
      "erĠdeĠ": 2449,
      "shengĠdeĠ": 2450,
      "laiĠdeĠ": 2451,
      "fangĠmianĠ": 2452,
      "faĠshengĠ": 2453,
      "zhengĠfu": 2454,
      "gongĠjiĠ": 2455,
      "danĠweiĠ": 2456,
      "xingĠweiĠ": 2457,
      "ĠshiĠrenĠ": 2458,
      "ĠyiĠjingĠ": 2459,
      "ĠfengĠ": 2460,
      "ĠhuĠ": 2461,
      "yongĠyouĠ": 2462,
      "ĠfanĠ": 2463,
      "zhongĠshiĠ": 2464,
      "jinĠshiĠ": 2465,
      "ĠxiĠtongĠ": 2466,
      "ĠlianĠ": 2467,
      "jueĠdingĠ": 2468,
      "buĠyuĠ": 2469,
      "ĠzhongĠyangĠ": 2470,
      "juĠyouĠ": 2471,
      "ĠmianĠjiĠ": 2472,
      "ĠquĠ": 2473,
      "1ĠriĠ": 2474,
      "tongĠzhiĠ": 2475,
      "diĠquĠ": 2476,
      "niĠyaĠ": 2477,
      "liangĠgeĠ": 2478,
      "faĠxingĠ": 2479,
      "ĠguanĠ": 2480,
      "quĠweiĠ": 2481,
      "ĠriĠbenĠ": 2482,
      "ĠgongĠliĠ": 2483,
      "ĠgaoĠ": 2484,
      "ĠfeiĠ": 2485,
      "youĠdeĠ": 2486,
      "chuĠxianĠ": 2487,
      "shengĠjiĠ": 2488,
      "ĠwenĠ": 2489,
      "ĠteĠ": 2490,
      "ĠsuoĠ": 2491,
      "zhĠ": 2492,
      "huaĠdeĠ": 2493,
      "ĠrenĠkouĠmiĠ": 2494,
      "ciĠshiĠ": 2495,
      "qiĠyuĠ": 2496,
      "ziĠzhiĠ": 2497,
      "wuĠdeĠ": 2498,
      "juĠxingĠ": 2499,
      "laiĠziĠ": 2500,
      "ĠtaĠzaiĠ": 2501,
      "lingĠyiĠ": 2502,
      "jiaĠdeĠ": 2503,
      "ĠjiĠyuĠ": 2504,
      "xianĠzhiĠ": 2505,
      "Ġsuo": 2506,
      "ĠweiĠjiĠ": 2507,
      "mianĠjiĠweiĠ": 2508,
      "ĠsuĠ": 2509,
      "huiĠdeĠ": 2510,
      "Ġ15": 2511,
      "baoĠhuĠ": 2512,
      "ĠsanĠ": 2513,
      "nanĠbuĠ": 2514,
      "duĠliĠ": 2515,
      "ĠpingĠfangĠqianĠmiĠ": 2516,
      "shuĠjuĠ": 2517,
      "kongĠzhiĠ": 2518,
      "ĠshiĠyuĠ": 2519,
      "sĠĠĠ": 2520,
      "zongĠtongĠ": 2521,
      "jinĠruĠ": 2522,
      "ĠshiĠweiĠyuĠ": 2523,
      "ĠliĠruĠ": 2524,
      "renĠwuĠ": 2525,
      "quĠshiĠ": 2526,
      "keĠliĠ": 2527,
      "yaoĠqiuĠ": 2528,
      "mouĠ": 2529,
      "ĠwoĠ": 2530,
      "ĠĠĠdeĠ": 2531,
      "ĠmeiĠguoĠ": 2532,
      "gtĠ": 2533,
      "ĠgtĠ": 2534,
      "guĠshiĠ": 2535,
      "chengĠjiĠ": 2536,
      "ĠranĠerĠ": 2537,
      "ĠguangĠ": 2538,
      "ltĠ": 2539,
      "Ġru": 2540,
      "xueĠshengĠ": 2541,
      "ĠĠĠyuĠ": 2542,
      "ĠbianĠ": 2543,
      "jinĠdeĠ": 2544,
      "ĠdanĠshiĠ": 2545,
      "Ġwan": 2546,
      "minĠzhuĠ": 2547,
      "gongĠshiĠ": 2548,
      "wanĠchengĠ": 2549,
      "ĠcaiĠ": 2550,
      "ĠyiĠqiĠ": 2551,
      "lieĠcheĠ": 2552,
      "youĠjiĠ": 2553,
      "keĠnengĠ": 2554,
      "ĠltĠ": 2555,
      "ĠyiĠbuĠ": 2556,
      "shenĠzhiĠ": 2557,
      "ĠbingĠyuĠ": 2558,
      "zhaĠ": 2559,
      "renĠzhiĠ": 2560,
      "pingĠfangĠ": 2561,
      "youĠshiĠ": 2562,
      "ĠyongĠ": 2563,
      "ĠbingĠzaiĠ": 2564,
      "ĠjiĠshuĠ": 2565,
      "chaoĠguoĠ": 2566,
      "tiĠyuĠ": 2567,
      "yuanĠshiĠ": 2568,
      "Ġ16": 2569,
      "cangĠ": 2570,
      "cunĠzaiĠ": 2571,
      "qianĠwangĠ": 2572,
      "keĠdeĠ": 2573,
      "yaĠliĠ": 2574,
      "dangĠshiĠ": 2575,
      "siĠshiĠ": 2576,
      "xueĠxiĠ": 2577,
      "yongĠdeĠ": 2578,
      "ĠdeĠyiĠge": 2579,
      "Ġ18": 2580,
      "jingĠguoĠ": 2581,
      "Ġceng": 2582,
      "neiĠdeĠ": 2583,
      "ĠkaiĠ": 2584,
      "faĠbuĠ": 2585,
      "ĠshanĠ": 2586,
      "Ġa": 2587,
      "zuoĠdeĠ": 2588,
      "ĠzhiĠweiĠ": 2589,
      "jianĠyiĠ": 2590,
      "ĠhanĠ": 2591,
      "guanĠyuĠ": 2592,
      "ĠĠĠdiĠ": 2593,
      "wuĠkeĠ": 2594,
      "wuĠshiĠ": 2595,
      "xiangĠgang": 2596,
      "zhuĠrenĠ": 2597,
      "ĠzhiĠjianĠ": 2598,
      "yinĠduĠ": 2599,
      "ĠpuĠ": 2600,
      "zhanĠshiĠ": 2601,
      "zhanĠzhengĠ": 2602,
      "ĠqiĠtaĠ": 2603,
      "guoĠshiĠ": 2604,
      "sunĠ": 2605,
      "paoĠ": 2606,
      "zhuĠyao": 2607,
      "shengĠhuoĠ": 2608,
      "zhouĠdeĠ": 2609,
      "xuĠduoĠ": 2610,
      "jianĠzhiĠ": 2611,
      "ĠjiĠweiĠ": 2612,
      "fanĠweiĠ": 2613,
      "binĠ": 2614,
      "ĠyiĠshuĠ": 2615,
      "ĠjiĠqiĠ": 2616,
      "ĠweiĠerĠ": 2617,
      "chengĠgongĠ": 2618,
      "hanĠguoĠ": 2619,
      "ĠĠĠS": 2620,
      "ouĠzhouĠ": 2621,
      "zhuĠxiĠ": 2622,
      "luĠdeĠ": 2623,
      "jieĠshouĠ": 2624,
      "7Ġ": 2625,
      "qiuĠduiĠ": 2626,
      "ĠzhiĠyouĠ": 2627,
      "ĠshuĠyuĠ": 2628,
      "daiĠbiao": 2629,
      "Ġzai": 2630,
      "ĠjiĠzhongĠ": 2631,
      "fuĠwuĠ": 2632,
      "Ġjin": 2633,
      "zengĠjiaĠ": 2634,
      "ĠbuĠguoĠ": 2635,
      "banĠdeĠ": 2636,
      "gongĠyuanĠ": 2637,
      "ĠA": 2638,
      "ĠyouĠxianĠ": 2639,
      "ĠC": 2640,
      "ĠmoĠ": 2641,
      "Ġ000": 2642,
      "xiaoĠxingĠ": 2643,
      "xiaĠdeĠ": 2644,
      "ĠĠĠgaiĠ": 2645,
      "ĠbaiĠ": 2646,
      "ĠzheĠxieĠ": 2647,
      "ĠzhiĠchuĠ": 2648,
      "heĠyiĠ": 2649,
      "shangĠhaiĠ": 2650,
      "duoĠdeĠ": 2651,
      "ĠaoĠ": 2652,
      "houĠyiĠ": 2653,
      "sanĠshiĠ": 2654,
      "ĠĠĠzhiĠ": 2655,
      "ningĠ": 2656,
      "ĠciĠwaiĠ": 2657,
      "fuĠdeĠ": 2658,
      "juĠliĠ": 2659,
      "huaiĠ": 2660,
      "siĠjiĠ": 2661,
      "zuĠchengĠ": 2662,
      "Ġba": 2663,
      "ĠgenĠjuĠ": 2664,
      "yunĠdongĠyuanĠ": 2665,
      "jiaoĠtongĠ": 2666,
      "ĠzhiĠzuoĠ": 2667,
      "ĠzhiĠchiĠ": 2668,
      "maĠweiĠ": 2669,
      "gaoĠduĠ": 2670,
      "changĠdeĠ": 2671,
      "ĠnianĠqiĠ": 2672,
      "zhuĠjiaoĠ": 2673,
      "ĠzhĠ": 2674,
      "Ġ17": 2675,
      "zheĠxieĠ": 2676,
      "niuĠ": 2677,
      "geĠzhongĠ": 2678,
      "ĠcengĠ": 2679,
      "ĠzhiĠwuĠ": 2680,
      "xuĠyaoĠ": 2681,
      "ĠzaiĠciĠ": 2682,
      "jueĠseĠ": 2683,
      "chongĠxinĠ": 2684,
      "chuĠleĠ": 2685,
      "ĠS": 2686,
      "tiĠdeĠ": 2687,
      "tuiĠchuĠ": 2688,
      "ĠliĠjiĠ": 2689,
      "zheĠgeĠ": 2690,
      "jingĠliĠ": 2691,
      "xiangĠdeĠ": 2692,
      "ĠzuiĠzhongĠ": 2693,
      "gongĠchengĠ": 2694,
      "ĠdangĠshiĠ": 2695,
      "qiĠyiĠ": 2696,
      "daĠshiĠ": 2697,
      "chuĠyuĠ": 2698,
      "ĠrenĠheĠ": 2699,
      "Ġai": 2700,
      "wuĠzhongĠ": 2701,
      "duĠweiĠ": 2702,
      "renĠminĠ": 2703,
      "ĠsheĠ": 2704,
      "ziĠdeĠ": 2705,
      "xuanĠjuĠ": 2706,
      "ĠduĠ": 2707,
      "lianĠsaiĠ": 2708,
      "ĠĠĠdiĠliĠ": 2709,
      "ziĠjiĠdeĠ": 2710,
      "8Ġ": 2711,
      "Ġye": 2712,
      "ĠweiĠleĠ": 2713,
      "ĠrenĠwuĠ": 2714,
      "geĠquĠ": 2715,
      "Ġhuo": 2716,
      "ĠnianĠjianĠ": 2717,
      "dangĠdiĠ": 2718,
      "kaiĠfaĠ": 2719,
      "ĠlaiĠ": 2720,
      "fuĠzeĠ": 2721,
      "ĠĠĠweiĠ": 2722,
      "ĠweiĠqiĠ": 2723,
      "gongĠchanĠ": 2724,
      "xianĠzaiĠ": 2725,
      "ĠzhiĠyuĠ": 2726,
      "ĠrenĠyuanĠ": 2727,
      "Ġma": 2728,
      "zheĠyiĠ": 2729,
      "liangĠweiĠ": 2730,
      "jieĠshuĠ": 2731,
      "yaĠdeĠ": 2732,
      "chuĠliĠ": 2733,
      "jieĠmuĠ": 2734,
      "guanĠdeĠ": 2735,
      "ĠleiĠ": 2736,
      "nvĠziĠ": 2737,
      "saiĠshiĠ": 2738,
      "2010ĠnianĠ": 2739,
      "dingĠdeĠ": 2740,
      "ruiĠ": 2741,
      "duiĠdeĠ": 2742,
      "ĠbanĠ": 2743,
      "riĠben": 2744,
      "ĠhouĠlaiĠ": 2745,
      "fanĠyingĠ": 2746,
      "chuĠbanĠ": 2747,
      "jieĠdeĠ": 2748,
      "chanĠshengĠ": 2749,
      "shouĠciĠ": 2750,
      "juanĠ": 2751,
      "sheĠshiĠ": 2752,
      "leiĠsiĠ": 2753,
      "ĠshiĠyiĠgeĠ": 2754,
      "baĠshiĠ": 2755,
      "dongĠwuĠ": 2756,
      "ĠyangĠ": 2757,
      "jingĠshiĠ": 2758,
      "ĠjiĠxuĠ": 2759,
      "leĠbuĠ": 2760,
      "ĠnaĠ": 2761,
      "jieĠshiĠ": 2762,
      "xiangĠshiĠ": 2763,
      "boĠshiĠ": 2764,
      "ruoĠ": 2765,
      "anĠdeĠ": 2766,
      "keĠneng": 2767,
      "ĠdaiĠ": 2768,
      "nanĠziĠ": 2769,
      "duĠdeĠ": 2770,
      "Ġjiang": 2771,
      "guanĠxiaĠ": 2772,
      "sanĠnianĠ": 2773,
      "ĠaiĠ": 2774,
      "zaoĠchengĠ": 2775,
      "Ġmei": 2776,
      "haiĠshiĠ": 2777,
      "yangĠdeĠ": 2778,
      "dongĠshiĠ": 2779,
      "sheĠliĠ": 2780,
      "Ġ1Ġ": 2781,
      "zhongĠzhiĠ": 2782,
      "yanĠjiu": 2783,
      "daoĠleĠ": 2784,
      "shanĠxiĠ": 2785,
      "Ġ0": 2786,
      "guoĠyiĠ": 2787,
      "ĠzhenĠ": 2788,
      "ĠyaĠ": 2789,
      "ĠsuoĠyiĠ": 2790,
      "ĠjiĠzhiĠ": 2791,
      "zhongĠyuĠ": 2792,
      "fenĠbuĠ": 2793,
      "nvĠxingĠ": 2794,
      "ĠheĠzuoĠ": 2795,
      "douĠshiĠ": 2796,
      "junĠdeĠ": 2797,
      "ĠĠĠqiĠ": 2798,
      "guoĠyuĠ": 2799,
      "dongĠdeĠ": 2800,
      "lianĠmengĠ": 2801,
      "daiĠdeĠ": 2802,
      "zhengĠdeĠ": 2803,
      "fangĠfaĠ": 2804,
      "ĠzhiĠzhiĠ": 2805,
      "2020ĠnianĠ": 2806,
      "ĠyiĠsiĠ": 2807,
      "wuĠliĠ": 2808,
      "xiangĠmuĠ": 2809,
      "jiaoĠshouĠ": 2810,
      "fangĠdeĠ": 2811,
      "meiĠpingĠfangĠ": 2812,
      "zhengĠzhiĠrenĠwuĠ": 2813,
      "caiĠyongĠ": 2814,
      "diĠweiĠ": 2815,
      "ĠtuĠ": 2816,
      "Ġcong": 2817,
      "liangĠdeĠ": 2818,
      "ĠzaiĠdiĠ": 2819,
      "ĠĠĠrenĠkouĠ": 2820,
      "ĠxuanĠ": 2821,
      "chuanĠtongĠ": 2822,
      "yuanĠyuĠ": 2823,
      "zhanĠdeĠ": 2824,
      "zhuĠdeĠ": 2825,
      "ĠĠĠyouĠ": 2826,
      "huaĠminĠguoĠ": 2827,
      "xiĠtongĠ": 2828,
      "chengĠrenĠ": 2829,
      "ĠriĠzaiĠ": 2830,
      "ĠzeĠ": 2831,
      "ĠguiĠ": 2832,
      "jiaĠruĠ": 2833,
      "ĠĠĠA": 2834,
      "faĠdeĠ": 2835,
      "2001ĠnianĠ": 2836,
      "geĠshiĠ": 2837,
      "ĠnianĠyiĠ": 2838,
      "xinĠwenĠ": 2839,
      "ĠranĠ": 2840,
      "yanĠyuanĠ": 2841,
      "haoĠdeĠ": 2842,
      "10Ġ": 2843,
      "ĠliĠsiĠ": 2844,
      "ĠĠĠjiĠ": 2845,
      "ĠjiĠjiĠ": 2846,
      "fuĠshiĠ": 2847,
      "ĠyiĠhuiĠ": 2848,
      "xiangĠguanĠ": 2849,
      "Ġbei": 2850,
      "yingĠyuĠ": 2851,
      "daoĠshiĠ": 2852,
      "bianĠmaĠweiĠ": 2853,
      "taiĠwan": 2854,
      "heĠshiĠ": 2855,
      "ĠjiĠluĠ": 2856,
      "boĠwuĠ": 2857,
      "xueĠdeĠ": 2858,
      "houĠzaiĠ": 2859,
      "ĠweiĠfuĠ": 2860,
      "ĠtaĠmen": 2861,
      "lianĠjieĠ": 2862,
      "ĠdeĠyiĠgeĠshiĠzhenĠ": 2863,
      "baoĠkuo": 2864,
      "ĠyiĠyiĠ": 2865,
      "ĠxueĠmingĠ": 2866,
      "xiĠjiĠ": 2867,
      "zuiĠjiaĠ": 2868,
      "mingĠchengĠ": 2869,
      "ĠxiĠyaĠ": 2870,
      "tiĠchuĠ": 2871,
      "muĠsiĠ": 2872,
      "ĠxieĠ": 2873,
      "lingĠshiĠ": 2874,
      "ĠzheĠshiĠ": 2875,
      "erĠnianĠ": 2876,
      "xiaoĠdeĠ": 2877,
      "haiĠyouĠ": 2878,
      "mianĠdeĠ": 2879,
      "ĠweiĠzhuĠ": 2880,
      "ĠrenĠkouĠmiĠduĠ": 2881,
      "ĠliĠyiĠ": 2882,
      "Ġzong": 2883,
      "geĠdeĠ": 2884,
      "ĠzhiĠjieĠ": 2885,
      "zuiĠgaoĠ": 2886,
      "ĠlaĠ": 2887,
      "dongĠjiĠ": 2888,
      "ĠzhouĠ": 2889,
      "ĠĠĠjiaĠ": 2890,
      "ĠyeĠshiĠ": 2891,
      "ĠshiĠyiĠzhongĠ": 2892,
      "Ġ14": 2893,
      "yanĠdeĠ": 2894,
      "xiaĠjiĠ": 2895,
      "ĠyuĠshiĠ": 2896,
      "geĠmingĠ": 2897,
      "yeĠyuĠ": 2898,
      "Ġci": 2899,
      "ĠgongĠsiĠ": 2900,
      "ĠnianĠzaiĠ": 2901,
      "yaoĠdeĠ": 2902,
      "ĠfangĠ": 2903,
      "ĠqiuĠ": 2904,
      "gaiĠweiĠ": 2905,
      "ĠB": 2906,
      "ĠyiĠxieĠ": 2907,
      "zaiĠdeĠ": 2908,
      "shuĠshiĠ": 2909,
      "haiĠjunĠ": 2910,
      "ĠjunĠ": 2911,
      "ĠkaĠ": 2912,
      "jiaĠzhiĠ": 2913,
      "shengĠwuĠ": 2914,
      "zheĠzhongĠ": 2915,
      "changĠshiĠ": 2916,
      "huiĠshiĠ": 2917,
      "Ġliang": 2918,
      "yanĠzhongĠ": 2919,
      "gaiĠguoĠ": 2920,
      "naĠdaĠ": 2921,
      "zhuĠshiĠ": 2922,
      "qingĠkuang": 2923,
      "zhengĠyiĠ": 2924,
      "zhaiĠ": 2925,
      "bianĠdeĠ": 2926,
      "keĠjiĠ": 2927,
      "huiĠfuĠ": 2928,
      "ĠzuoĠweiĠ": 2929,
      "ĠzhiĠqianĠ": 2930,
      "meiĠtiĠ": 2931,
      "zaiĠyuĠ": 2932,
      "luanĠ": 2933,
      "xinĠxiĠ": 2934,
      "ĠyiĠzhongĠ": 2935,
      "jieĠguoĠ": 2936,
      "gaoĠdeĠ": 2937,
      "wenĠwuĠ": 2938,
      "jianĠshiĠ": 2939,
      "qiĠzhiĠ": 2940,
      "ĠjiĠzaiĠ": 2941,
      "minĠzuĠ": 2942,
      "shuiĠyuĠ": 2943,
      "qianĠdeĠ": 2944,
      "heĠdeĠ": 2945,
      "yanĠchangĠ": 2946,
      "ĠniĠ": 2947,
      "Ġ2Ġ": 2948,
      "zhuĠjianĠ": 2949,
      "chouĠ": 2950,
      "fanĠduiĠ": 2951,
      "nengĠliĠ": 2952,
      "ĠweiĠyouĠ": 2953,
      "ĠkeĠsiĠ": 2954,
      "ĠĠĠxingĠzhengĠ": 2955,
      "ĠkeĠyiĠ": 2956,
      "geĠliĠ": 2957,
      "gongĠkaiĠ": 2958,
      "huaĠshiĠ": 2959,
      "ĠbuĠtongĠ": 2960,
      "xingĠzhiĠ": 2961,
      "siĠyuĠ": 2962,
      "leiĠdeĠ": 2963,
      "ĠzhuĠyaoĠ": 2964,
      "pengĠ": 2965,
      "beiĠshiĠ": 2966,
      "huanĠjingĠ": 2967,
      "Ġmi": 2968,
      "jieĠgouĠ": 2969,
      "jiangĠjunĠ": 2970,
      "zhangĠdeĠ": 2971,
      "tĠ": 2972,
      "ĠchongĠ": 2973,
      "ĠxiangĠgangĠ": 2974,
      "chuangĠzuoĠ": 2975,
      "xianĠyuĠ": 2976,
      "shangĠyeĠ": 2977,
      "ĠĠĠbenĠ": 2978,
      "zanĠ": 2979,
      "gaoĠsuĠ": 2980,
      "ĠĠĠformulaĠ": 2981,
      "Ġãģ": 2982,
      "ĠzheĠgeĠ": 2983,
      "saiĠjiĠ": 2984,
      "moĠshiĠ": 2985,
      "aĠerĠ": 2986,
      "ĠdiĠyiĠ": 2987,
      "zheĠdeĠ": 2988,
      "biaoĠxianĠ": 2989,
      "9Ġ": 2990,
      "Ġ2": 2991,
      "ĠzhongĠhuaĠrenĠminĠgongĠheĠguoĠ": 2992,
      "tongĠjiĠ": 2993,
      "junĠduiĠ": 2994,
      "Ġling": 2995,
      "ĠhongĠ": 2996,
      "ĠliĠweiĠ": 2997,
      "daĠluĠ": 2998,
      "ĠchenĠ": 2999,
      "shengĠyaĠ": 3000,
      "zhuĠliĠ": 3001,
      "geĠyueĠ": 3002,
      "shengĠliĠ": 3003,
      "ĠyunĠ": 3004,
      "quanĠliĠ": 3005,
      "wuĠfaĠ": 3006,
      "ĠtangĠ": 3007,
      "dongĠbuĠ": 3008,
      "zhouĠshiĠ": 3009,
      "zongĠjiaoĠ": 3010,
      "geĠlanĠ": 3011,
      "ĠnianĠshiĠ": 3012,
      "diaoĠchaĠ": 3013,
      "siĠnianĠ": 3014,
      "touĠguoĠ": 3015,
      "ĠĠĠthe": 3016,
      "Ġ1": 3017,
      "ĠyiĠbanĠ": 3018,
      "buĠfen": 3019,
      "ĠD": 3020,
      "biaoĠzhunĠ": 3021,
      "ĠĠĠgenĠjuĠ": 3022,
      "hangĠkongĠ": 3023,
      "biĠyeĠ": 3024,
      "huiĠzaiĠ": 3025,
      "ĠĠĠciĠ": 3026,
      "ĠyiĠciĠ": 3027,
      "ĠdangĠdiĠ": 3028,
      "shenĠfenĠ": 3029,
      "ĠyaoĠ": 3030,
      "diĠzhiĠ": 3031,
      "Ġ3": 3032,
      "gongĠluĠ": 3033,
      "faĠyuanĠ": 3034,
      "ĠneiĠ": 3035,
      "ĠdeĠyiĠbuĠfenĠ": 3036,
      "buĠyiĠ": 3037,
      "Ġãĥ": 3038,
      "diĠyuĠ": 3039,
      "jiaĠliĠ": 3040,
      "gongĠzuo": 3041,
      "jinĠjiĠ": 3042,
      "chengĠzhongĠ": 3043,
      "bingĠbuĠ": 3044,
      "saiĠdeĠ": 3045,
      "ĠtaiĠwanĠ": 3046,
      "quanĠbuĠ": 3047,
      "baĠgaoĠduĠ": 3048,
      "ĠbingĠqie": 3049,
      "ĠjiĠtuanĠ": 3050,
      "xieĠhuiĠ": 3051,
      "feiĠchangĠ": 3052,
      "jiaoĠshiĠ": 3053,
      "dongĠhuaĠ": 3054,
      "anĠquanĠ": 3055,
      "ĠzhiĠxingĠ": 3056,
      "biĠdeĠ": 3057,
      "ĠhuangĠ": 3058,
      "chaĠdeĠ": 3059,
      "ĠĠĠof": 3060,
      "ĠlinĠ": 3061,
      "shengĠchanĠ": 3062,
      "ziĠliaoĠ": 3063,
      "fuĠheĠ": 3064,
      "jingĠdeĠ": 3065,
      "tuanĠtiĠ": 3066,
      "jieĠzhiĠ": 3067,
      "luoĠmaĠ": 3068,
      "beiĠrenĠ": 3069,
      "fenĠbie": 3070,
      "Ġming": 3071,
      "chaoĠxianĠ": 3072,
      "ĠĠĠC": 3073,
      "gaiĠdiĠ": 3074,
      "ĠzhuanĠ": 3075,
      "dingĠyiĠ": 3076,
      "xingĠdongĠ": 3077,
      "xiaĠyiĠ": 3078,
      "jinĠbiaoĠ": 3079,
      "pingĠjunĠ": 3080,
      "Ġliu": 3081,
      "ĠjinĠxingĠ": 3082,
      "wenĠxueĠ": 3083,
      "duĠshiĠ": 3084,
      "ĠruĠguoĠ": 3085,
      "renĠkouĠpuĠ": 3086,
      "laĠsiĠ": 3087,
      "qingĠkuangĠ": 3088,
      "jiaĠjiĠ": 3089,
      "gongĠgongĠ": 3090,
      "jieĠfangĠ": 3091,
      "ĠzhiĠyuanĠ": 3092,
      "ĠE": 3093,
      "juĠminĠ": 3094,
      "ĠP": 3095,
      "ĠzhiĠhuiĠ": 3096,
      "ĠqiĠhouĠ": 3097,
      "dongĠbeiĠ": 3098,
      "Ġgu": 3099,
      "shouĠdeĠ": 3100,
      "ĠzuĠ": 3101,
      "ĠbaoĠkuo": 3102,
      "Ġ5": 3103,
      "Ġ12": 3104,
      "shangĠshiĠ": 3105,
      "Ġ4": 3106,
      "ĠjiĠdiĠ": 3107,
      "sheĠzhiĠ": 3108,
      "dĠĠĠ": 3109,
      "Ġwo": 3110,
      "yanĠchuĠ": 3111,
      "qiuĠyuanĠ": 3112,
      "yuanĠyiĠ": 3113,
      "ĠyuĠjiĠ": 3114,
      "saiĠzhongĠ": 3115,
      "keĠxueĠ": 3116,
      "yanĠshiĠ": 3117,
      "Ġda": 3118,
      "gongĠtongĠ": 3119,
      "lingĠdaoĠ": 3120,
      "ĠchuanĠ": 3121,
      "renĠyiĠ": 3122,
      "tĠĠĠ": 3123,
      "zuoĠpin": 3124,
      "zuoĠyouĠ": 3125,
      "Ġnan": 3126,
      "ĠT": 3127,
      "erĠjiĠ": 3128,
      "Ġsi": 3129,
      "ĠdeĠzhuĠ": 3130,
      "faĠbiaoĠ": 3131,
      "zaiĠshiĠ": 3132,
      "28ĠriĠ": 3133,
      "aoĠyunĠ": 3134,
      "kongĠjianĠ": 3135,
      "xingĠjiĠ": 3136,
      "gaiĠbianĠ": 3137,
      "yeĠyouĠ": 3138,
      "sanĠgeĠ": 3139,
      "wuĠzhiĠ": 3140,
      "dengĠdiĠ": 3141,
      "ĠlingĠwaiĠ": 3142,
      "jiaĠshiĠ": 3143,
      "ĠdiĠguoĠ": 3144,
      "Ġfen": 3145,
      "youĠxiĠ": 3146,
      "ĠĠĠtheĠĠĠ": 3147,
      "yuanĠheĠ": 3148,
      "fangĠzhiĠ": 3149,
      "Ġjiu": 3150,
      "ĠzhaoĠ": 3151,
      "dengĠrenĠ": 3152,
      "ĠerĠshiĠ": 3153,
      "xueĠshiĠ": 3154,
      "guanĠzhongĠ": 3155,
      "ĠãĤ": 3156,
      "lanĠdeĠ": 3157,
      "luĠxianĠ": 3158,
      "ĠdanĠrenĠ": 3159,
      "mĠ": 3160,
      "xueĠweiĠ": 3161,
      "shuĠweiĠ": 3162,
      "zeĠshiĠ": 3163,
      "juĠdeĠ": 3164,
      "baoĠdaoĠ": 3165,
      "ĠliĠzhiĠ": 3166,
      "qiĠweiĠ": 3167,
      "ĠhuoĠdeĠ": 3168,
      "heĠjiĠ": 3169,
      "chuĠrenĠ": 3170,
      "zhuiĠ": 3171,
      "buĠtongĠ": 3172,
      "qingĠnianĠ": 3173,
      "2008ĠnianĠ": 3174,
      "lveĠ": 3175,
      "guoĠliĠ": 3176,
      "zuoĠyongĠ": 3177,
      "aoĠlinĠ": 3178,
      "bangĠzhuĠ": 3179,
      "piĠkeĠ": 3180,
      "ĠcheĠ": 3181,
      "deĠĠĠ": 3182,
      "2016ĠnianĠ": 3183,
      "gongĠdeĠ": 3184,
      "zaoĠdaoĠ": 3185,
      "ĠkeĠnengĠ": 3186,
      "aiĠerĠ": 3187,
      "ĠyuĠqiĠ": 3188,
      "ĠriĠzhiĠ": 3189,
      "ĠfuĠzeĠ": 3190,
      "ĠĠĠzhongĠ": 3191,
      "zuĠdeĠ": 3192,
      "danĠquĠ": 3193,
      "jiangĠqiĠ": 3194,
      "ĠyuĠyanĠ": 3195,
      "ĠM": 3196,
      "juĠjiĠ": 3197,
      "luĠdiĠ": 3198,
      "ĠdaĠdaoĠ": 3199,
      "guiĠdaoĠ": 3200,
      "ĠyouĠguanĠ": 3201,
      "tongĠchangĠ": 3202,
      "15ĠriĠ": 3203,
      "shouĠjiĠ": 3204,
      "banĠbenĠ": 3205,
      "ĠyiĠyouĠ": 3206,
      "taĠmen": 3207,
      "feiĠjiĠ": 3208,
      "ĠyiĠyuĠ": 3209,
      "tuĠdiĠ": 3210,
      "xianĠdaiĠ": 3211,
      "yuanĠnianĠ": 3212,
      "2009ĠnianĠ": 3213,
      "maĠliĠ": 3214,
      "shengĠdeĠyiĠgeĠshiĠzhenĠ": 3215,
      "ĠzhiĠjianĠdeĠ": 3216,
      "yaĠzhouĠ": 3217,
      "xiĠbanĠ": 3218,
      "ĠmuĠqianĠ": 3219,
      "bianĠhuaĠ": 3220,
      "ĠĠĠjuĠ": 3221,
      "ĠshuiĠ": 3222,
      "jingĠneiĠ": 3223,
      "jieĠheĠ": 3224,
      "ĠshiĠxingĠ": 3225,
      "gongĠyeĠ": 3226,
      "huiĠheĠ": 3227,
      "jueĠsaiĠ": 3228,
      "wuĠnianĠ": 3229,
      "taiĠpingĠ": 3230,
      "jiaĠyiĠ": 3231,
      "ĠdingĠ": 3232,
      "houĠyuĠ": 3233,
      "ĠbingĠqieĠ": 3234,
      "2011ĠnianĠ": 3235,
      "ĠsiĠkeĠ": 3236,
      "ĠpaiĠ": 3237,
      "2012ĠnianĠ": 3238,
      "zaoĠqiĠ": 3239,
      "neiĠrongĠ": 3240,
      "zhengĠceĠ": 3241,
      "Ġ8": 3242,
      "ĠweiĠzhongĠ": 3243,
      "guangĠboĠ": 3244,
      "zhanĠyiĠ": 3245,
      "Ġ13": 3246,
      "Ġmo": 3247,
      "xianĠrenĠ": 3248,
      "Ġha": 3249,
      "taĠzaiĠ": 3250,
      "meiĠyuanĠ": 3251,
      "jiaoĠyiĠ": 3252,
      "piĠpingĠ": 3253,
      "xingĠchengĠ": 3254,
      "ĠhaiĠbaĠgaoĠduĠ": 3255,
      "25ĠriĠ": 3256,
      "jiaoĠhuiĠ": 3257,
      "miaoĠshuĠ": 3258,
      "ĠbuĠduiĠ": 3259,
      "ĠzhiĠyeĠ": 3260,
      "ĠerĠsiĠ": 3261,
      "wanĠquanĠ": 3262,
      "ĠdanĠzaiĠ": 3263,
      "xuanĠzeĠ": 3264,
      "yuanĠyinĠ": 3265,
      "ĠsiĠteĠ": 3266,
      "ĠF": 3267,
      "ĠtaĠyuĠ": 3268,
      "UTCĠ": 3269,
      "paĠ": 3270,
      "Ġ7": 3271,
      "boĠliĠ": 3272,
      "zaoĠdeĠ": 3273,
      "ĠheĠwuĠ": 3274,
      "jianĠsheĠ": 3275,
      "ĠyueĠdeĠ": 3276,
      "xieĠyiĠ": 3277,
      "chuĠshiĠ": 3278,
      "xiaoĠshuoĠ": 3279,
      "wuĠkeĠlanĠ": 3280,
      "changĠqiĠ": 3281,
      "yunĠdongĠhuiĠ": 3282,
      "beiĠchengĠweiĠ": 3283,
      "lianĠbangĠ": 3284,
      "ĠdiĠsanĠ": 3285,
      "ĠweiĠdiĠ": 3286,
      "30ĠriĠ": 3287,
      "ĠjianĠchengĠ": 3288,
      "ĠdangĠzhongĠ": 3289,
      "10ĠriĠ": 3290,
      "ĠshiĠyanĠ": 3291,
      "ĠdeĠdaoĠ": 3292,
      "chiĠxuĠ": 3293,
      "AĠ": 3294,
      "zuiĠdaĠ": 3295,
      "wenĠhua": 3296,
      "ĠrenĠweiĠ": 3297,
      "Ġqie": 3298,
      "ĠeĠ": 3299,
      "20ĠriĠ": 3300,
      "mingĠmingĠ": 3301,
      "zuĠheĠ": 3302,
      "yuanĠzhuĠ": 3303,
      "duoĠshuĠ": 3304,
      "seĠdeĠ": 3305,
      "dianĠziĠ": 3306,
      "zhuanĠyeĠ": 3307,
      "Ġ9": 3308,
      "ĠtaĠshiĠ": 3309,
      "xingĠyuĠ": 3310,
      "ĠyiĠmingĠ": 3311,
      "2014ĠnianĠ": 3312,
      "houĠlaiĠ": 3313,
      "linĠshiĠ": 3314,
      "gongĠsi": 3315,
      "ĠxunĠ": 3316,
      "shengĠheĠ": 3317,
      "ĠyouĠchengĠ": 3318,
      "erĠweiĠ": 3319,
      "wuĠyuanĠ": 3320,
      "buĠliĠ": 3321,
      "jieĠdaoĠ": 3322,
      "fuĠzhiĠ": 3323,
      "baĠliĠ": 3324,
      "ziĠgeĠ": 3325,
      "chuĠqiĠ": 3326,
      "2018ĠnianĠ": 3327,
      "buĠjiĠ": 3328,
      "2019ĠnianĠ": 3329,
      "erĠziĠ": 3330,
      "Ġ5Ġ": 3331,
      "dongĠnanĠ": 3332,
      "gaoĠzhongĠ": 3333,
      "Ġ6": 3334,
      "faĠlvĠ": 3335,
      "taĠmenĠdeĠ": 3336,
      "ĠmengĠ": 3337,
      "ĠjiĠgouĠ": 3338,
      "zaĠzhiĠ": 3339,
      "ĠjiĠjinĠ": 3340,
      "ĠdiĠsiĠ": 3341,
      "ĠmianĠ": 3342,
      "ĠshiĠweiĠyuĠmeiĠguoĠ": 3343,
      "daĠdaoĠ": 3344,
      "yeĠdeĠ": 3345,
      "ĠjinĠguanĠ": 3346,
      "2013ĠnianĠ": 3347,
      "ĠweiĠyuĠgaiĠguoĠ": 3348,
      "ĠguoĠminĠ": 3349,
      "faĠzhan": 3350,
      "aĠlaĠ": 3351,
      "kuiĠ": 3352,
      "ĠyueĠzhiĠ": 3353,
      "ĠliĠkeĠ": 3354,
      "ĠG": 3355,
      "dĠ": 3356,
      "tuĠerĠ": 3357,
      "shengĠweiĠ": 3358,
      "ĠshiĠjieĠdaĠ": 3359,
      "baoĠgaoĠ": 3360,
      "zhongĠjiĠ": 3361,
      "24ĠriĠ": 3362,
      "Ġsan": 3363,
      "daoĠyiĠ": 3364,
      "2015ĠnianĠ": 3365,
      "ĠliĠyongĠ": 3366,
      "ĠliĠkaiĠ": 3367,
      "fangĠxiangĠ": 3368,
      "ĠsuiĠhouĠ": 3369,
      "guiĠdingĠ": 3370,
      "neiĠbuĠ": 3371,
      "ĠyuĠzhongĠ": 3372,
      "guoĠminĠ": 3373,
      "guangĠdongĠ": 3374,
      "wangĠdeĠ": 3375,
      "boĠwuĠguanĠ": 3376,
      "luoĠdeĠ": 3377,
      "Ġke": 3378,
      "26ĠriĠ": 3379,
      "ĠgengĠ": 3380,
      "canĠsaiĠ": 3381,
      "ĠyueĠshiĠ": 3382,
      "ĠzheĠzhongĠ": 3383,
      "ĠyingĠguoĠ": 3384,
      "2007ĠnianĠ": 3385,
      "muĠbiaoĠ": 3386,
      "ĠweiĠsiĠ": 3387,
      "sheĠquĠ": 3388,
      "ĠyuĠzhiĠ": 3389,
      "guanĠzhiĠ": 3390,
      "ĠtongĠnianĠ": 3391,
      "dianĠliĠ": 3392,
      "2005ĠnianĠ": 3393,
      "gongĠchanĠdangĠ": 3394,
      "ĠĠĠB": 3395,
      "18ĠriĠ": 3396,
      "dieĠ": 3397,
      "ĠyouĠqiĠ": 3398,
      "xianĠyiĠ": 3399,
      "ĠxiĠlieĠ": 3400,
      "ĠwaiĠ": 3401,
      "teĠbie": 3402,
      "ĠfenĠbuĠyuĠ": 3403,
      "aoĠlinĠpiĠkeĠ": 3404,
      "bingĠweiĠ": 3405,
      "lianĠxiĠ": 3406,
      "gongĠbuĠ": 3407,
      "ĠjiĠchangĠ": 3408,
      "fuĠliĠ": 3409,
      "juĠbanĠ": 3410,
      "ĠshaĠ": 3411,
      "muĠdeĠ": 3412,
      "ĠchuĠleĠ": 3413,
      "Ġ2001ĠnianĠ": 3414,
      "lieĠdeĠ": 3415,
      "ĠshiĠheĠ": 3416,
      "ĠganĠ": 3417,
      "changĠweiĠ": 3418,
      "wuĠxianĠ": 3419,
      "ĠerĠshengĠ": 3420,
      "biĠliĠ": 3421,
      "quanĠqiuĠ": 3422,
      "shenĠdeĠ": 3423,
      "touĠziĠ": 3424,
      "ĠshiĠziĠ": 3425,
      "2017ĠnianĠ": 3426,
      "muĠdiĠ": 3427,
      "yĠ": 3428,
      "16ĠriĠ": 3429,
      "ĠjiĠheĠ": 3430,
      "yinĠhangĠ": 3431,
      "dingĠweiĠ": 3432,
      "Ġduo": 3433,
      "dongĠjingĠ": 3434,
      "shangĠshuĠ": 3435,
      "Ġque": 3436,
      "guanĠfangĠ": 3437,
      "fuĠyiĠ": 3438,
      "daoĠyuĠ": 3439,
      "dangĠdeĠ": 3440,
      "guoĠzhiĠ": 3441,
      "17ĠriĠ": 3442,
      "ĠĠĠP": 3443,
      "paiĠsheĠ": 3444,
      "ziĠyuĠ": 3445,
      "huaĠxueĠ": 3446,
      "shouĠyuĠ": 3447,
      "kaiĠfangĠ": 3448,
      "ĠyouĠxianĠgongĠsiĠ": 3449,
      "ĠĠĠzhengĠzhiĠ": 3450,
      "ĠminĠ": 3451,
      "21ĠriĠ": 3452,
      "buĠzhiĠ": 3453,
      "ĠdeĠshiĠzhenĠ": 3454,
      "gaiĠnianĠ": 3455,
      "ĠĠĠF": 3456,
      "27ĠriĠ": 3457,
      "baoĠfaĠ": 3458,
      "ĠzhongĠxueĠ": 3459,
      "zheĠshiĠ": 3460,
      "kaĠerĠ": 3461,
      "19ĠriĠ": 3462,
      "2006ĠnianĠ": 3463,
      "8ĠriĠ": 3464,
      "mingĠziĠ": 3465,
      "junĠweiĠ": 3466,
      "11ĠriĠ": 3467,
      "ĠliĠfaĠ": 3468,
      "yingĠyongĠ": 3469,
      "12ĠriĠ": 3470,
      "23ĠriĠ": 3471,
      "shangĠyouĠ": 3472,
      "ceĠshiĠ": 3473,
      "ĠsongĠ": 3474,
      "ĠH": 3475,
      "ĠfuĠwuĠ": 3476,
      "ĠyinĠci": 3477,
      "suĠlianĠ": 3478,
      "meiĠguoĠrenĠkouĠpuĠ": 3479,
      "xianĠweiĠ": 3480,
      "ĠdeĠweiĠ": 3481,
      "feiĠxingĠ": 3482,
      "ĠzhiĠjiĠ": 3483,
      "shuĠliangĠweiĠ": 3484,
      "ĠĠĠT": 3485,
      "7ĠriĠ": 3486,
      "qiĠjianĠ": 3487,
      "ĠhaoĠmiĠ": 3488,
      "juĠleĠbuĠ": 3489,
      "fuĠyuĠ": 3490,
      "yinĠshiĠ": 3491,
      "xueĠzheĠ": 3492,
      "huangĠdiĠ": 3493,
      "boĠchuĠ": 3494,
      "huiĠyuĠ": 3495,
      "qiĠjiĠ": 3496,
      "2021ĠnianĠ": 3497,
      "banĠshiĠ": 3498,
      "xiĠlieĠ": 3499,
      "ĠdeĠzhongĠ": 3500,
      "22ĠriĠ": 3501,
      "guiĠmoĠ": 3502,
      "ĠqieĠ": 3503,
      "ĠshiĠfaĠguoĠ": 3504,
      "Ġ3Ġ": 3505,
      "rĠ": 3506,
      "biĠxuĠ": 3507,
      "9ĠriĠ": 3508,
      "lingĠyuĠ": 3509,
      "shanĠdongĠ": 3510,
      "Ġ6Ġ": 3511,
      "gongĠnengĠ": 3512,
      "ĠsaiĠ": 3513,
      "29ĠriĠ": 3514,
      "chuĠyiĠ": 3515,
      "yinĠqiĠ": 3516,
      "guanĠyuanĠ": 3517,
      "yingĠshiĠ": 3518,
      "teĠdeĠ": 3519,
      "zuiĠdaĠdeĠ": 3520,
      "zhengĠzaiĠ": 3521,
      "xunĠlianĠ": 3522,
      "ĠyueĠhanĠ": 3523,
      "fengĠgeĠ": 3524,
      "kunĠ": 3525,
      "ĠjiĠbaiĠ": 3526,
      "jingĠyingĠ": 3527,
      "2022ĠnianĠ": 3528,
      "fuĠjinĠ": 3529,
      "tingĠzhiĠ": 3530,
      "suoĠshuĠdeĠ": 3531,
      "nengĠgouĠ": 3532,
      "pingĠjiaĠ": 3533,
      "3ĠriĠ": 3534,
      "shengĠmingĠ": 3535,
      "14ĠriĠ": 3536,
      "geĠdiĠ": 3537,
      "zhuĠzaiĠ": 3538,
      "qingĠkuangĠxiaĠ": 3539,
      "yuanĠjiĠ": 3540,
      "shouĠshiĠ": 3541,
      "tiaoĠjianĠ": 3542,
      "jiaoĠdeĠ": 3543,
      "21Ġ": 3544,
      "5ĠriĠ": 3545,
      "shengĠzaiĠ": 3546,
      "quĠhuaĠ": 3547,
      "shengĠchan": 3548,
      "taiĠdeĠ": 3549,
      "xiĠshiĠ": 3550,
      "shangĠweiĠ": 3551,
      "sheĠdeĠ": 3552,
      "maiĠkeĠ": 3553,
      "ĠĠĠyouĠyuĠ": 3554,
      "yaĠyuĠ": 3555,
      "jinĠzhiĠ": 3556,
      "ĠdaoĠzhiĠ": 3557,
      "31ĠriĠ": 3558,
      "ĠbuĠjiuĠ": 3559,
      "jieĠchuĠ": 3560,
      "ĠK": 3561,
      "yuanĠzhiĠ": 3562,
      "ĠpiĠ": 3563,
      "ĠdaĠhuiĠ": 3564,
      "lianĠmeng": 3565,
      "ĠlvĠ": 3566,
      "xiaoĠxingĠxingĠ": 3567,
      "4ĠriĠ": 3568,
      "ĠkaiĠshiĠ": 3569,
      "chaoĠjiĠ": 3570,
      "2ĠriĠ": 3571,
      "xiongĠdiĠ": 3572,
      "daĠjiĠ": 3573,
      "ĠrenĠzhongĠ": 3574,
      "ĠzuiĠhouĠ": 3575,
      "dianĠdeĠ": 3576,
      "6ĠriĠ": 3577,
      "ĠĠĠG": 3578,
      "haiĠyuĠ": 3579,
      "zangĠ": 3580,
      "boĠteĠ": 3581,
      "ĠgongĠchiĠ": 3582,
      "liuĠxingĠ": 3583,
      "geĠjiĠ": 3584,
      "13ĠriĠ": 3585,
      "nanĠxingĠ": 3586,
      "ĠsuiĠranĠ": 3587,
      "wenĠwuĠbaoĠhuĠ": 3588,
      "ĠnianĠdai": 3589,
      "teĠzhengĠ": 3590,
      "renĠheĠ": 3591,
      "wuĠjiĠ": 3592,
      "geĠweiĠ": 3593,
      "renĠjiĠ": 3594,
      "ĠqiangĠ": 3595,
      "manĠhuaĠ": 3596,
      "lvĠyouĠ": 3597,
      "zuoĠjiaĠ": 3598,
      "keĠdaĠ": 3599,
      "siĠrenĠ": 3600,
      "ĠtongĠguoĠ": 3601,
      "geĠshouĠ": 3602,
      "Ġxin": 3603,
      "ĠjueĠ": 3604,
      "ĠshenĠzhiĠ": 3605,
      "yinĠciĠ": 3606,
      "fenĠxiĠ": 3607,
      "huangĠjiaĠ": 3608,
      "ouĠzhou": 3609,
      "brĠ": 3610,
      "jianĠweiĠ": 3611,
      "shengĠfenĠ": 3612,
      "ĠL": 3613,
      "ĠlingĠyiĠ": 3614,
      "zongĠheĠ": 3615,
      "xuĠduo": 3616,
      "lieĠche": 3617,
      "juĠrenĠ": 3618,
      "niuĠyueĠ": 3619,
      "ĠbrĠ": 3620,
      "ĠĠĠjinĠ": 3621,
      "ciĠshiĠjieĠdaĠ": 3622,
      "banĠdaoĠ": 3623,
      "zhuĠtiĠ": 3624,
      "zhongĠweiĠ": 3625,
      "chengĠyiĠ": 3626,
      "Ġ10": 3627,
      "zaiĠweiĠ": 3628,
      "zhuangĠtaiĠ": 3629,
      "ĠsuiĠran": 3630,
      "ĠyouĠmingĠ": 3631,
      "qiĠnianĠ": 3632,
      "ĠtaĠcengĠ": 3633,
      "benĠdeĠ": 3634,
      "bianĠweiĠ": 3635,
      "pinĠdaoĠ": 3636,
      "ĠzaiĠqiĠ": 3637,
      "youĠyiĠgeĠ": 3638,
      "fenĠziĠ": 3639,
      "juĠzhongĠ": 3640,
      "heĠliĠ": 3641,
      "maoĠyiĠ": 3642,
      "ĠdouĠ": 3643,
      "20ĠshiĠjiĠ": 3644,
      "ĠzhiĠzhongĠ": 3645,
      "buĠzhangĠ": 3646,
      "renĠkouĠshuĠliangĠweiĠ": 3647,
      "wangĠluoĠ": 3648,
      "ĠchiĠ": 3649,
      "huiĠyouĠ": 3650,
      "qianĠyiĠ": 3651,
      "ĠI": 3652,
      "aoĠsiĠ": 3653,
      "2004ĠnianĠ": 3654,
      "shuoĠshiĠ": 3655,
      "ĠĠĠziĠ": 3656,
      "jieĠduanĠ": 3657,
      "xuanĠshouĠ": 3658,
      "Ġgeng": 3659,
      "gaoĠjiĠ": 3660,
      "zhunĠbeiĠ": 3661,
      "faĠshiĠ": 3662,
      "ciĠdeĠ": 3663,
      "ĠheĠnanĠ": 3664,
      "fangĠanĠ": 3665,
      "fangĠyuĠ": 3666,
      "miĠerĠ": 3667,
      "waiĠdeĠ": 3668,
      "daĠxingĠ": 3669,
      "beiĠdeĠ": 3670,
      "duoĠciĠ": 3671,
      "Ġchen": 3672,
      "bingĠliĠ": 3673,
      "gongĠzhongĠ": 3674,
      "Ġzhou": 3675,
      "huiĠdaoĠ": 3676,
      "ĠĠĠliĠ": 3677,
      "Ġ4Ġ": 3678,
      "moĠdeĠ": 3679,
      "ĠyiĠlaiĠ": 3680,
      "fenĠzhiĠ": 3681,
      "ĠriĠqiĠ": 3682,
      "chengĠduĠ": 3683,
      "ciĠzhiĠ": 3684,
      "ĠlanĠ": 3685,
      "buĠweiĠ": 3686,
      "2000ĠnianĠ": 3687,
      "ĠgangĠ": 3688,
      "shuĠguanĠ": 3689,
      "liuĠnianĠ": 3690,
      "11Ġ": 3691,
      "ĠzhongĠbuĠ": 3692,
      "wuĠqiĠ": 3693,
      "jieĠjiĠ": 3694,
      "leĠyiĠgeĠ": 3695,
      "yuanĠweiĠ": 3696,
      "baoĠhanĠ": 3697,
      "junĠzaiĠ": 3698,
      "ĠdiĠfangĠ": 3699,
      "dianĠshiĠtaiĠ": 3700,
      "Ġfan": 3701,
      "youĠzhiĠ": 3702,
      "ziĠshiĠ": 3703,
      "ĠdeĠyiĠzhongĠ": 3704,
      "xingĠheĠ": 3705,
      "ĠrenĠkou": 3706,
      "ĠrenĠkouĠmiĠduĠweiĠ": 3707,
      "juĠshiĠ": 3708,
      "dengĠjiĠ": 3709,
      "ĠyiĠshiĠ": 3710,
      "luĠjunĠ": 3711,
      "xuanĠweiĠ": 3712,
      "xiangĠtongĠ": 3713,
      "aĠĠĠ": 3714,
      "ĠchaoĠ": 3715,
      "lĠ": 3716,
      "zheĠjiangĠ": 3717,
      "ĠĠĠofĠĠĠ": 3718,
      "zuiĠhouĠ": 3719,
      "biaoĠyanĠ": 3720,
      "qiuĠjiĠ": 3721,
      "Ġze": 3722,
      "siĠwangĠ": 3723,
      "gaiĠgeĠ": 3724,
      "ĠzhuĠyao": 3725,
      "ĠweiĠyuĠfaĠguoĠ": 3726,
      "sheĠbeiĠ": 3727,
      "nongĠyeĠ": 3728,
      "daĠliangĠ": 3729,
      "duoĠgeĠ": 3730,
      "meiĠzhouĠ": 3731,
      "ĠtouĠ": 3732,
      "ĠzhiĠjinĠ": 3733,
      "dianĠshiĠjuĠ": 3734,
      "houĠyouĠ": 3735,
      "ĠshiĠdaiĠ": 3736,
      "Ġzu": 3737,
      "ĠxiĠbanĠ": 3738,
      "Ġzhao": 3739,
      "guĠjiĠ": 3740,
      "shangĠyiĠ": 3741,
      "aiĠdeĠ": 3742,
      "yangĠshiĠ": 3743,
      "ĠxianĠshiĠ": 3744,
      "zhuĠyuĠ": 3745,
      "guangĠchangĠ": 3746,
      "yĠĠĠ": 3747,
      "liuĠshiĠ": 3748,
      "zaiĠjiĠ": 3749,
      "zhanĠdouĠ": 3750,
      "Ġxiang": 3751,
      "ĠN": 3752,
      "faĠyuĠ": 3753,
      "Ġfei": 3754,
      "wenĠwuĠbaoĠhuĠdanĠweiĠ": 3755,
      "ĠĠĠdaĠ": 3756,
      "zhanĠkaiĠ": 3757,
      "ĠzhiĠliĠ": 3758,
      "ĠmeiĠyouĠ": 3759,
      "jiaĠheĠ": 3760,
      "tiaoĠyueĠ": 3761,
      "ĠjiaĠruĠ": 3762,
      "fuĠjianĠ": 3763,
      "xieĠzhuĠ": 3764,
      "ĠyiĠbeiĠ": 3765,
      "ĠbuĠzaiĠ": 3766,
      "chanĠpinĠ": 3767,
      "muĠqianĠ": 3768,
      "bianĠchengĠ": 3769,
      "hangĠkong": 3770,
      "nuĠ": 3771,
      "Ġ30": 3772,
      "jiangĠyuĠ": 3773,
      "youĠzhengĠ": 3774,
      "miĠdeĠ": 3775,
      "huoĠdeĠleĠ": 3776,
      "ĠfenĠbie": 3777,
      "renĠyuĠ": 3778,
      "20Ġ": 3779,
      "fenĠleiĠ": 3780,
      "daoĠluĠ": 3781,
      "gongĠyouĠrenĠkouĠ": 3782,
      "yingĠjiĠ": 3783,
      "duanĠdeĠ": 3784,
      "ĠzhiĠzaiĠ": 3785,
      "qunĠdaoĠ": 3786,
      "qingĠdeĠ": 3787,
      "naiĠ": 3788,
      "biaoĠzhun": 3789,
      "zhenĠquĠ": 3790,
      "ĠbeiĠqiĠ": 3791,
      "ĠzheĠyiĠ": 3792,
      "haiĠbaĠ": 3793,
      "naoĠ": 3794,
      "ĠĠĠjianĠ": 3795,
      "biĠjiaoĠ": 3796,
      "ĠqiĠyeĠ": 3797,
      "ĠR": 3798,
      "guiĠhuaĠ": 3799,
      "zhanĠzheng": 3800,
      "cuoĠ": 3801,
      "ĠO": 3802,
      "ĠliĠziĠ": 3803,
      "ĠkeĠneng": 3804,
      "ĠxiĠwangĠ": 3805,
      "ĠxingĠzhengĠ": 3806,
      "suĠduĠ": 3807,
      "juĠyuĠ": 3808,
      "nvĠerĠ": 3809,
      "xiĠbuĠ": 3810,
      "ĠzhongĠhuaĠminĠguoĠ": 3811,
      "shouĠduĠ": 3812,
      "xiĠweiĠ": 3813,
      "ĠbuĠhuiĠ": 3814,
      "ĠfaĠguoĠ": 3815,
      "ĠyiĠrenĠ": 3816,
      "BĠ": 3817,
      "qiaoĠzhiĠ": 3818,
      "ĠgongĠfenĠ": 3819,
      "ĠzaiĠzhongĠ": 3820,
      "Ġzhang": 3821,
      "meiĠpingĠfangĠgongĠliĠ": 3822,
      "rongĠyuĠ": 3823,
      "dongĠxiĠ": 3824,
      "jiuĠshiĠzhenĠ": 3825,
      "dongĠliĠ": 3826,
      "ĠyiĠyangĠ": 3827,
      "ĠdeĠshiĠjianĠ": 3828,
      "jinĠgongĠ": 3829,
      "diĠyiĠgeĠ": 3830,
      "douĠyouĠ": 3831,
      "UĠ": 3832,
      "siĠheĠ": 3833,
      "ĠĠĠxiĠ": 3834,
      "ĠchengĠquĠ": 3835,
      "maĠlai": 3836,
      "henĠduoĠ": 3837,
      "siĠweiĠ": 3838,
      "laĠdeĠ": 3839,
      "Ġ00": 3840,
      "ĠnvĠ": 3841,
      "kenĠ": 3842,
      "ruĠxiaĠ": 3843,
      "taiĠbeiĠ": 3844,
      "zeĠrenĠ": 3845,
      "fuĠrenĠ": 3846,
      "laĠkeĠ": 3847,
      "quĠdaiĠ": 3848,
      "xianĠdeĠyiĠgeĠ": 3849,
      "ĠciĠhouĠ": 3850,
      "jinĠbiaoĠsaiĠ": 3851,
      "ĠyiĠxiaĠ": 3852,
      "shangĠwuĠ": 3853,
      "yuĠshiĠdeĠ": 3854,
      "ĠyuĠweiĠ": 3855,
      "jianĠyouĠ": 3856,
      "TheĠĠĠ": 3857,
      "ĠerĠbeiĠ": 3858,
      "zongĠliĠ": 3859,
      "ĠkongĠ": 3860,
      "wangĠguoĠ": 3861,
      "lianĠxuĠ": 3862,
      "Ġtian": 3863,
      "xiangĠduiĠ": 3864,
      "nĠ": 3865,
      "ĠmanĠ": 3866,
      "ĠĠĠfuĠ": 3867,
      "quĠyiĠ": 3868,
      "minĠzhongĠ": 3869,
      "jieĠrang": 3870,
      "rengĠran": 3871,
      "xiaoĠxiĠ": 3872,
      "miĠshuĠ": 3873,
      "tieĠdaoĠ": 3874,
      "zhengĠgeĠ": 3875,
      "ĠĠĠzheĠ": 3876,
      "zuiĠhouĠyiĠ": 3877,
      "ciĠjiĠ": 3878,
      "Ġruo": 3879,
      "jueĠdeĠ": 3880,
      "renĠkouĠshuĠliangĠweiĠrenĠ": 3881,
      "ĠheiĠ": 3882,
      "ĠzhongĠxin": 3883,
      "quanĠdeĠ": 3884,
      "ĠĠĠzhuĠ": 3885,
      "zhanĠlingĠ": 3886,
      "xinĠjiaĠ": 3887,
      "waiĠjiaoĠ": 3888,
      "diĠsanĠ": 3889,
      "jiaĠnaĠdaĠ": 3890,
      "ĠliĠshuĠyuĠ": 3891,
      "ĠrenĠzaiĠ": 3892,
      "tianĠzhuĠjiaoĠ": 3893,
      "zhenĠshiĠ": 3894,
      "ĠINSEE": 3895,
      "yeĠwuĠ": 3896,
      "meĠ": 3897,
      "chengĠzhenĠ": 3898,
      "ĠyingĠchiĠ": 3899,
      "ciĠyuĠ": 3900,
      "qiĠta": 3901,
      "niaoĠ": 3902,
      "ĠnianĠjiĠ": 3903,
      "ĠranĠhouĠ": 3904,
      "ĠĠĠE": 3905,
      "Ġwu": 3906,
      "yuanĠyouĠ": 3907,
      "ĠyouĠyiĠ": 3908,
      "ĠĠĠM": 3909,
      "cengĠzaiĠ": 3910,
      "daĠxue": 3911,
      "jianĠchaĠ": 3912,
      "zhengĠquanĠ": 3913,
      "shengĠchengĠ": 3914,
      "shouĠgeĠ": 3915,
      "zuoĠchuĠ": 3916,
      "nanĠjiĠ": 3917,
      "ĠdeĠshiĠhouĠ": 3918,
      "ĠheĠbeiĠ": 3919,
      "niĠsiĠ": 3920,
      "juĠjueĠ": 3921,
      "luĠshiĠ": 3922,
      "Ġhao": 3923,
      "jiaoĠweiĠ": 3924,
      "quĠxiaoĠ": 3925,
      "tiĠjiĠ": 3926,
      "ĠtiaoĠ": 3927,
      "ĠdeĠyuĠ": 3928,
      "ĠjieĠzhiĠ": 3929,
      "dianĠjiĠ": 3930,
      "Ġrang": 3931,
      "shengĠzhiĠ": 3932,
      "cheĠliangĠ": 3933,
      "ĠgaiĠshengĠ": 3934,
      "wangĠzhanĠ": 3935,
      "heĠweiĠ": 3936,
      "daĠliĠyaĠ": 3937,
      "zhongĠxinĠ": 3938,
      "duiĠzaiĠ": 3939,
      "xianĠfaĠ": 3940,
      "leĠjiĠ": 3941,
      "Ġbai": 3942,
      "heĠzhiĠ": 3943,
      "diĠfangĠ": 3944,
      "ziĠxingĠ": 3945,
      "zhenĠdeĠ": 3946,
      "lanĠxiĠ": 3947,
      "ĠqiĠta": 3948,
      "ĠerĠzaiĠ": 3949,
      "ĠzongĠmianĠjiĠ": 3950,
      "tianĠwenĠ": 3951,
      "yunĠyingĠ": 3952,
      "ĠdeĠliĠ": 3953,
      "jieĠjueĠ": 3954,
      "2002ĠnianĠ": 3955,
      "ĠzhengĠshiĠ": 3956,
      "ĠriĠben": 3957,
      "2003ĠnianĠ": 3958,
      "ĠduiĠyuĠ": 3959,
      "moĠxiĠ": 3960,
      "ĠshiĠchangĠ": 3961,
      "gongĠyiĠ": 3962,
      "shuĠzhiĠ": 3963,
      "yeĠzaiĠ": 3964,
      "ĠdiĠqiĠ": 3965,
      "ĠjianĠzhuĠ": 3966,
      "shouĠweiĠ": 3967,
      "dianĠying": 3968,
      "ĠrenĠkouĠmiĠduĠmeiĠpingĠfangĠgongĠliĠ": 3969,
      "xiaoĠxueĠ": 3970,
      "yingĠxiang": 3971,
      "chaĠdeĠshuĠjuĠ": 3972,
      "youĠzhengĠbianĠmaĠweiĠ": 3973,
      "huiĠzhiĠ": 3974,
      "puĠtaoĠ": 3975,
      "ganĠdaoĠ": 3976,
      "ĠxingĠchengĠ": 3977,
      "ĠshiĠzhenĠbianĠmaĠweiĠ": 3978,
      "ĠINSEEĠshiĠzhenĠbianĠmaĠweiĠ": 3979,
      "qingĠshiĠ": 3980,
      "teĠliĠ": 3981,
      "ĠrenĠkouĠmiĠduĠweiĠmeiĠpingĠfangĠ": 3982,
      "mengĠguĠ": 3983,
      "ĠĠĠbuĠ": 3984,
      "muĠshiĠ": 3985,
      "ĠxiaĠlingĠshiĠ": 3986,
      "diĠyiĠciĠ": 3987,
      "xiĠliĠ": 3988,
      "erĠzaiĠ": 3989,
      "zhuoĠ": 3990,
      "xuanĠquĠweiĠ": 3991,
      "leiĠjiĠ": 3992,
      "zuoĠzhanĠ": 3993,
      "gaoĠyuĠ": 3994,
      "niĠya": 3995,
      "yuĠshiĠdeĠrenĠkouĠshuĠliangĠweiĠrenĠ": 3996,
      "baoĠdeĠ": 3997,
      "siĠzaiĠ": 3998,
      "meiĠguoĠrenĠkouĠpuĠchaĠdeĠshuĠjuĠ": 3999,
      "zuoĠyiĠ": 4000,
      "luĠyiĠ": 4001,
      "ĠerĠrenĠkouĠmiĠduĠweiĠmeiĠpingĠfangĠ": 4002,
      "ĠdangĠdiĠgongĠyouĠrenĠkouĠ": 4003,
      "xiĠyuĠ": 4004,
      "ĠteĠbie": 4005,
      "yunĠxingĠ": 4006,
      "ĠhuoĠjiuĠshiĠzhenĠ": 4007,
      "ĠhuanĠ": 4008,
      "jingĠchangĠ": 4009,
      "xinĠliĠ": 4010,
      "yuanĠziĠ": 4011,
      "shengĠjiĠxuanĠquĠweiĠ": 4012,
      "jiangĠshiĠ": 4013,
      "ĠshuangĠ": 4014,
      "faĠdongĠ": 4015,
      "kuaiĠsuĠ": 4016,
      "ĠĠĠH": 4017,
      "ĠzhongĠyang": 4018,
      "Ġbo": 4019,
      "shaoĠnianĠ": 4020,
      "shengĠrenĠ": 4021,
      "bianĠjiĠ": 4022,
      "chongĠjianĠ": 4023,
      "fenĠweiĠfaĠguoĠ": 4024,
      "ĠgaiĠshengĠfenĠweiĠfaĠguoĠ": 4025,
      "faĠqiĠ": 4026,
      "ĠĠĠnianĠ": 4027,
      "mingĠyiĠ": 4028,
      "gaoĠdengĠ": 4029,
      "congĠshiĠ": 4030,
      "yangĠhuaĠ": 4031,
      "shuoĠfaĠ": 4032,
      "ĠnianĠchuĠ": 4033,
      "ĠyouĠrenĠ": 4034,
      "ĠnianĠyuĠ": 4035,
      "chengĠliĠyuĠ": 4036,
      "jiaĠzhongĠ": 4037,
      "jinĠyiĠbuĠ": 4038,
      "naĠdeĠ": 4039,
      "lianĠheĠguoĠ": 4040,
      "ĠerĠqie": 4041,
      "yanĠjiuĠsuoĠ": 4042,
      "zhengĠmingĠ": 4043,
      "fangĠqiĠ": 4044,
      "daĠquĠ": 4045,
      "taiĠguoĠ": 4046,
      "ĠbiaoĠshiĠ": 4047,
      "gongĠxianĠ": 4048,
      "gouĠdeĠ": 4049,
      "ĠĠĠD": 4050,
      "lunĠdun": 4051,
      "fanĠhuiĠ": 4052,
      "aoĠlinĠpiĠkeĠyunĠdongĠhuiĠ": 4053,
      "ĠĠĠheĠ": 4054,
      "jieĠrangĠdeĠshiĠzhenĠ": 4055,
      "ziĠweiĠ": 4056,
      "gongĠrenĠ": 4057,
      "yunĠshuĠ": 4058,
      "suoĠshuĠdeĠshengĠjiĠxuanĠquĠweiĠ": 4059,
      "xiangĠjiĠ": 4060,
      "huoĠshiĠ": 4061,
      "ĠguoĠjiĠ": 4062,
      "neĠ": 4063,
      "ziĠran": 4064,
      "yuanĠliĠ": 4065,
      "2023ĠnianĠ": 4066,
      "siĠliĠ": 4067,
      "tiĠxiĠ": 4068,
      "jianĠchengĠ": 4069,
      "biaoĠweiĠ": 4070,
      "naĠliĠ": 4071,
      "zhuĠchiĠ": 4072,
      "ziĠyuanĠ": 4073,
      "xingĠqiĠ": 4074,
      "zhongĠhuaĠrenĠminĠgongĠheĠguoĠ": 4075,
      "mingĠdanĠ": 4076,
      "boĠlanĠ": 4077,
      "ceĠdeĠ": 4078,
      "Ġhuang": 4079,
      "xiĠzaiĠ": 4080,
      "daoĠrenĠ": 4081,
      "reĠdaiĠ": 4082,
      "xiĠbanĠyaĠ": 4083,
      "huaĠweiĠ": 4084,
      "cuiĠ": 4085,
      "luoĠfuĠ": 4086,
      "fuĠqinĠ": 4087,
      "ĠxiĠbeiĠ": 4088,
      "xiaĠwuĠ": 4089,
      "fenĠdeĠ": 4090,
      "zhanĠdou": 4091,
      "erĠheĠ": 4092,
      "beiĠyiĠ": 4093,
      "paiĠdeĠ": 4094,
      "ĠnianĠyouĠ": 4095,
      "faĠsheĠ": 4096,
      "ĠdiĠquĠdeĠ": 4097,
      "niĠkeĠ": 4098,
      "ĠhaĠ": 4099,
      "wenĠmingĠ": 4100,
      "Ġhu": 4101,
      "ĠĠĠcheĠzhanĠ": 4102,
      "ĠzhiĠchengĠ": 4103,
      "ĠheĠbingĠ": 4104,
      "diaoĠcha": 4105,
      "chanĠyeĠ": 4106,
      "ĠnianĠhouĠ": 4107,
      "Ġbi": 4108,
      "ĠshiĠyiĠmingĠ": 4109,
      "anĠshiĠ": 4110,
      "wanĠjiaĠ": 4111,
      "xiangĠdangĠ": 4112,
      "ĠyouĠshiĠ": 4113,
      "ĠĠĠchuĠ": 4114,
      "shengĠshiĠ": 4115,
      "chaoĠzhengĠzhiĠrenĠwuĠ": 4116,
      "Ġkang": 4117,
      "suĠdeĠ": 4118,
      "jinĠxingĠleĠ": 4119,
      "ĠweiĠshengĠ": 4120,
      "ĠzaoĠ": 4121,
      "ĠĠĠtaĠ": 4122,
      "jianĠjiĠ": 4123,
      "ĠbuĠnengĠ": 4124,
      "nanĠshengĠ": 4125,
      "jinĠyiĠ": 4126,
      "xuanĠchuanĠ": 4127,
      "ĠshiĠyiĠweiĠ": 4128,
      "ĠchuangĠ": 4129,
      "ĠpeiĠ": 4130,
      "yingĠliĠ": 4131,
      "jingĠshenĠ": 4132,
      "beiĠjiĠ": 4133,
      "lvĠshiĠ": 4134,
      "xianĠxiangĠ": 4135,
      "zaĠ": 4136,
      "shouĠshangĠ": 4137,
      "shuĠzhongĠ": 4138,
      "pĠ": 4139,
      "ziĠheĠ": 4140,
      "xiĠyangĠ": 4141,
      "guanĠzhuĠ": 4142,
      "fuĠzeĠguanĠxiaĠ": 4143,
      "lianĠdeĠ": 4144,
      "qiĠzhongĠyiĠ": 4145,
      "paiĠmingĠ": 4146,
      "mieĠ": 4147,
      "jiaĠtingĠ": 4148,
      "tongĠxingĠ": 4149,
      "lieĠweiĠ": 4150,
      "ĠÐ": 4151,
      "saiĠerĠ": 4152,
      "ĠyueĠzaiĠ": 4153,
      "zhanĠhouĠ": 4154,
      "xuanĠrenĠ": 4155,
      "kĠ": 4156,
      "liuĠyuĠ": 4157,
      "shuĠliangĠ": 4158,
      "xiaoĠzuĠ": 4159,
      "foĠjiaoĠ": 4160,
      "lanĠqiuĠ": 4161,
      "keĠweiĠ": 4162,
      "shuaiĠ": 4163,
      "jieĠyiĠ": 4164,
      "daoĠyanĠ": 4165,
      "zhengĠjuĠ": 4166,
      "qiuĠdeĠ": 4167,
      "ĠxiĠnanĠ": 4168,
      "daĠweiĠ": 4169,
      "taoĠlunĠ": 4170,
      "baĠnianĠ": 4171,
      "wangĠshiĠ": 4172,
      "duĠjiaoĠ": 4173,
      "yanĠyiĠ": 4174,
      "ĠW": 4175,
      "ĠlongĠ": 4176,
      "reĠdai": 4177,
      "ĠzhongĠgongĠ": 4178,
      "zhengĠdangĠ": 4179,
      "ĠĠĠbeiĠ": 4180,
      "laiĠyuanĠ": 4181,
      "mingĠshiĠ": 4182,
      "genĠju": 4183,
      "wenĠjianĠ": 4184,
      "gĠ": 4185,
      "baoĠchiĠ": 4186,
      "ĠtuoĠ": 4187,
      "0Ġ": 4188,
      "ĠyiĠjianĠ": 4189,
      "houĠqiĠ": 4190,
      "ĠnianĠduĠ": 4191,
      "ĠerĠqieĠ": 4192,
      "zhongĠyangĠ": 4193,
      "ĠzhiĠxianĠ": 4194,
      "ruiĠshiĠ": 4195,
      "Ġben": 4196,
      "ĠdaoĠleĠ": 4197,
      "rengĠranĠ": 4198,
      "Ġ10ĠyueĠ": 4199,
      "ĠyiĠxiĠ": 4200,
      "lvĠkeĠ": 4201,
      "ĠĠĠK": 4202,
      "ĠjiĠsiĠ": 4203,
      "pingĠlunĠ": 4204,
      "ĠJ": 4205,
      "ĠshiĠxianĠ": 4206,
      "ĠcanĠ": 4207,
      "ziĠdongĠ": 4208,
      "ĠzongĠrenĠkouĠ": 4209,
      "xiaĠdeĠyiĠgeĠ": 4210,
      "fanĠdeĠ": 4211,
      "ĠwuĠkeĠ": 4212,
      "diĠsiĠ": 4213,
      "zaoĠnianĠ": 4214,
      "biaoĠmingĠ": 4215,
      "xuĠdeĠ": 4216,
      "luĠyuĠ": 4217,
      "ĠzhiĠmingĠ": 4218,
      "ĠĠĠL": 4219,
      "haiĠdeĠ": 4220,
      "ĠjiĠhuĠ": 4221,
      "pingĠtaiĠ": 4222,
      "luoĠma": 4223,
      "keĠliĠsiĠ": 4224,
      "ĠshiĠjianĠyuĠ": 4225,
      "haoĠweiĠ": 4226,
      "cengĠjingĠ": 4227,
      "xuĠyao": 4228,
      "pengĠyouĠ": 4229,
      "ĠliĠrenĠ": 4230,
      "daĠyueĠ": 4231,
      "raoĠ": 4232,
      "yinĠhang": 4233,
      "fengĠxianĠ": 4234,
      "eĠluoĠ": 4235,
      "nanĠjingĠ": 4236,
      "ĠbeiĠjingĠ": 4237,
      "ĠdeĠdiĠfangĠ": 4238,
      "ĠciĠshiĠ": 4239,
      "shengĠyiĠ": 4240,
      "gongĠzhongĠyangĠ": 4241,
      "taiĠpingĠyangĠ": 4242,
      "jiaoĠtangĠ": 4243,
      "zhengĠbuĠ": 4244,
      "lianĠbang": 4245,
      "keĠzaiĠ": 4246,
      "jiaoĠbuĠ": 4247,
      "xuanĠquĠ": 4248,
      "xingĠbuĠ": 4249,
      "jingĠyouĠ": 4250,
      "yanĠgeĠ": 4251,
      "queĠdingĠ": 4252,
      "yuanĠzaiĠ": 4253,
      "ĠguoĠwangĠ": 4254,
      "daoĠdaĠ": 4255,
      "shenĠweiĠ": 4256,
      "jianĠduiĠ": 4257,
      "chongĠtuĠ": 4258,
      "ĠouĠ": 4259,
      "souĠ": 4260,
      "ĠĠĠxianĠ": 4261,
      "wuĠrenĠ": 4262,
      "jianĠrenĠ": 4263,
      "moĠxingĠ": 4264,
      "tuiĠyiĠ": 4265,
      "ĠĠĠ2021": 4266,
      "biaoĠzhiĠ": 4267,
      "huaĠyuĠ": 4268,
      "ruĠheĠ": 4269,
      "qianĠshiĠ": 4270,
      "keĠshiĠ": 4271,
      "Ġlin": 4272,
      "qianĠzhiĠ": 4273,
      "TĠ": 4274,
      "xiaoĠguoĠ": 4275,
      "zhangĠdaĠ": 4276,
      "shangĠyingĠ": 4277,
      "XĠ": 4278,
      "ĠyiĠshangĠ": 4279,
      "daoĠheĠ": 4280,
      "keĠsiĠ": 4281,
      "ĠgongĠyuanĠ": 4282,
      "ĠmiaoĠ": 4283,
      "jingĠweiĠ": 4284,
      "ĠĠĠsuiĠ": 4285,
      "leiĠxingĠ": 4286,
      "ĠyiĠliĠ": 4287,
      "ĠdaĠxue": 4288,
      "zhouĠweiĠ": 4289,
      "xianĠjiĠ": 4290,
      "queĠzhenĠ": 4291,
      "yeĠbuĠ": 4292,
      "biaoĠdaĠ": 4293,
      "fengĠbaoĠ": 4294,
      "guangĠzhouĠ": 4295,
      "ĠĠĠ2020": 4296,
      "xiaĠshiĠ": 4297,
      "dangĠxuanĠ": 4298,
      "xieĠdeĠ": 4299,
      "xianĠheĠ": 4300,
      "biĠyaĠ": 4301,
      "shengĠhuo": 4302,
      "liangĠzhongĠ": 4303,
      "dingĠyuĠ": 4304,
      "pangĠ": 4305,
      "qiĠyeĠ": 4306,
      "ĠcengĠrenĠ": 4307,
      "ĠtanĠ": 4308,
      "ĠjiĠbeiĠ": 4309,
      "jiaoĠquĠ": 4310,
      "pingĠmianĠ": 4311,
      "shenĠqingĠ": 4312,
      "anĠjianĠ": 4313,
      "chengĠxianĠ": 4314,
      "luĠsiĠ": 4315,
      "xingĠyiĠ": 4316,
      "ĠzhiĠfuĠ": 4317,
      "tuanĠduiĠ": 4318,
      "ĠerĠrenĠkouĠmiĠduĠweiĠmeiĠpingĠfangĠqianĠmiĠ": 4319,
      "ĠjinĠruĠ": 4320,
      "ĠliĠdaĠ": 4321,
      "chaĠyiĠ": 4322,
      "ĠliĠlunĠ": 4323,
      "yingĠgeĠlanĠ": 4324,
      "yaoĠqingĠ": 4325,
      "neiĠrong": 4326,
      "puĠtongĠ": 4327,
      "ĠqinĠ": 4328,
      "yuanĠzhangĠ": 4329,
      "yuanĠsuĠ": 4330,
      "ĠzhongĠyouĠ": 4331,
      "xingĠrenĠ": 4332,
      "jiuĠnianĠ": 4333,
      "xiĠheĠ": 4334,
      "ĠtaĠmenĠdeĠ": 4335,
      "ĠjieĠguoĠ": 4336,
      "riĠqiĠ": 4337,
      "rouĠ": 4338,
      "qiuĠchangĠ": 4339,
      "lĠĠĠ": 4340,
      "xiaoĠshouĠ": 4341,
      "Ġzheng": 4342,
      "Ġgao": 4343,
      "zhongĠyaoĠ": 4344,
      "yanĠzhiĠ": 4345,
      "hengĠxingĠ": 4346,
      "ziĠyiĠ": 4347,
      "ruĠciĠ": 4348,
      "duiĠshouĠ": 4349,
      "laĠfuĠ": 4350,
      "fenĠbieĠ": 4351,
      "tiaoĠzhanĠ": 4352,
      "zuoĠshiĠ": 4353,
      "baoĠweiĠ": 4354,
      "chengĠyuĠ": 4355,
      "laiĠshuoĠ": 4356,
      "shuĠyiĠ": 4357,
      "FĠ": 4358,
      "ĠqiĠyuĠ": 4359,
      "huiĠjiĠ": 4360,
      "ĠyueĠyuĠ": 4361,
      "Ġ19": 4362,
      "ruĠguoĠ": 4363,
      "ĠzhiĠzaoĠ": 4364,
      "Ġdeng": 4365,
      "xueĠshuĠ": 4366,
      "heĠyuĠ": 4367,
      "anĠnaĠ": 4368,
      "12Ġ": 4369,
      "ĠzhongĠhuaĠ": 4370,
      "wangĠluĠ": 4371,
      "ĠĠĠin": 4372,
      "lunĠdeĠ": 4373,
      "nuĠliĠ": 4374,
      "niĠdeĠ": 4375,
      "ĠshiĠdiĠ": 4376,
      "wuĠyiĠ": 4377,
      "shunĠ": 4378,
      "Ġ8ĠyueĠ": 4379,
      "zhengĠzhuangĠ": 4380,
      "caiĠyong": 4381,
      "jiaĠrenĠ": 4382,
      "tingĠdeĠ": 4383,
      "nengĠgou": 4384,
      "ziĠzhiĠquĠ": 4385,
      "Ġ11": 4386,
      "jieĠfangĠjunĠ": 4387,
      "xiaoĠzhangĠ": 4388,
      "dianĠtaiĠ": 4389,
      "teĠbieĠ": 4390,
      "ĠhaoĠxianĠ": 4391,
      "ĠmaiĠ": 4392,
      "ĠĠĠand": 4393,
      "minĠdeĠ": 4394,
      "haiĠziĠ": 4395,
      "ĠtongĠchangĠ": 4396,
      "youĠliĠ": 4397,
      "taĠshiĠ": 4398,
      "lanĠkeĠ": 4399,
      "shuĠziĠ": 4400,
      "gengĠmingĠweiĠ": 4401,
      "xiangĠyuĠ": 4402,
      "quĠheĠ": 4403,
      "chuangĠliĠ": 4404,
      "quanĠshiĠ": 4405,
      "fanĠyiĠ": 4406,
      "2024ĠnianĠ": 4407,
      "zongĠduĠ": 4408,
      "ĠĠĠ2019": 4409,
      "xuĠshiĠ": 4410,
      "duoĠzhongĠ": 4411,
      "fuĠqin": 4412,
      "zhuĠyanĠ": 4413,
      "geĠyouĠ": 4414,
      "sheĠyuĠ": 4415,
      "jiaĠgeĠ": 4416,
      "chuĠshenĠ": 4417,
      "Ġe": 4418,
      "huoĠdong": 4419,
      "jiangĠxiĠ": 4420,
      "xinĠshiĠ": 4421,
      "boĠdeĠ": 4422,
      "huĠshiĠ": 4423,
      "Ġdai": 4424,
      "ĠzaiĠyiĠ": 4425,
      "mingĠyuĠ": 4426,
      "jiangĠxiangĠ": 4427,
      "banĠgongĠshiĠ": 4428,
      "danĠdeĠ": 4429,
      "sunĠshiĠ": 4430,
      "shouĠruĠ": 4431,
      "linĠdeĠ": 4432,
      "ĠzhongĠyaoĠ": 4433,
      "juĠxingĠdeĠ": 4434,
      "ĠsuoĠyouĠ": 4435,
      "ĠĠĠwuĠ": 4436,
      "CĠ": 4437,
      "duiĠyiĠ": 4438,
      "jingĠchaĠ": 4439,
      "saĠkeĠ": 4440,
      "jieĠjinĠ": 4441,
      "ĠweiĠlianĠ": 4442,
      "ĠjiĠbenĠ": 4443,
      "jieĠweiĠ": 4444,
      "jieĠyuĠ": 4445,
      "kaĠsiĠ": 4446,
      "ĠĠĠxiaĠ": 4447,
      "guanĠdianĠ": 4448,
      "Ġpei": 4449,
      "ĠlaoĠ": 4450,
      "ĠdeĠyiĠzuoĠ": 4451,
      "ĠĠĠ2018": 4452,
      "1999ĠnianĠ": 4453,
      "ĠliĠheĠ": 4454,
      "ĠĠĠR": 4455,
      "jiangĠdiĠ": 4456,
      "shaoĠshuĠ": 4457,
      "wenĠzhangĠ": 4458,
      "kanĠdaoĠ": 4459,
      "ĠjiĠzheĠ": 4460,
      "lunĠdunĠ": 4461,
      "touĠxiangĠ": 4462,
      "huiĠshangĠ": 4463,
      "luĠdiĠmianĠjiĠweiĠ": 4464,
      "ĠĠĠgeĠ": 4465,
      "ampĠ": 4466,
      "shuiĠyuĠmianĠjiĠweiĠ": 4467,
      "Ġhan": 4468,
      "jieĠquanĠguoĠ": 4469,
      "ĠdaĠquĠ": 4470,
      "wenĠziĠ": 4471,
      "zhanĠjiĠ": 4472,
      "xingĠjianĠ": 4473,
      "ĠdeĠdiĠquĠ": 4474,
      "sangĠ": 4475,
      "Ġzhuan": 4476,
      "aoĠmenĠ": 4477,
      "zaiĠzhiĠ": 4478,
      "wenĠyiĠ": 4479,
      "ĠcheĠzhanĠ": 4480,
      "zhangĠshiĠ": 4481,
      "kangĠyiĠ": 4482,
      "lengĠ": 4483,
      "xiĠbeiĠ": 4484,
      "haiĠanĠ": 4485,
      "ruĠkouĠ": 4486,
      "waiĠguoĠ": 4487,
      "wenĠdeĠ": 4488,
      "chuĠshengĠ": 4489,
      "jiaoĠliuĠ": 4490,
      "ĠxiongĠ": 4491,
      "ĠĠĠkeĠ": 4492,
      "mingĠdiĠ": 4493,
      "24Ġ": 4494,
      "ĠjiĠtuan": 4495,
      "xingĠxingĠ": 4496,
      "xiĠzhiĠ": 4497,
      "zhenĠduiĠ": 4498,
      "tiaoĠzhengĠ": 4499,
      "Ġpa": 4500,
      "xinĠrenĠ": 4501,
      "duĠyuĠ": 4502,
      "tianĠjinĠ": 4503,
      "ĠampĠ": 4504,
      "ĠĠĠ2022": 4505,
      "cuoĠshiĠ": 4506,
      "zhangĠkeĠdaĠ": 4507,
      "ĠxianĠzaiĠ": 4508,
      "fangĠzaiĠ": 4509,
      "poĠhuaiĠ": 4510,
      "junĠdiĠ": 4511,
      "tiĠmingĠ": 4512,
      "xuanĠze": 4513,
      "ĠdangĠzhongĠluĠdiĠmianĠjiĠweiĠ": 4514,
      "ĠerĠshuiĠyuĠmianĠjiĠweiĠ": 4515,
      "1998ĠnianĠ": 4516,
      "rongĠyiĠ": 4517,
      "chuĠfaĠ": 4518,
      "ĠbeiĠerĠ": 4519,
      "zaoĠyuĠ": 4520,
      "jingĠdianĠ": 4521,
      "chiĠdeĠ": 4522,
      "baĠxiĠ": 4523,
      "ĠjuĠliĠ": 4524,
      "ĠhaiĠyouĠ": 4525,
      "guangĠxiĠ": 4526,
      "yuĠĠĠ": 4527,
      "luoĠdiĠ": 4528,
      "gouĠchengĠ": 4529,
      "bianĠjieĠ": 4530,
      "ĠjiĠshiĠ": 4531,
      "ouĠyuanĠ": 4532,
      "xianĠyouĠ": 4533,
      "xianĠchangĠ": 4534,
      "ĠxiangĠgang": 4535,
      "xiĠyiĠ": 4536,
      "shanĠjiĠ": 4537,
      "taiĠyangĠ": 4538,
      "fuĠjiĠ": 4539,
      "daoĠjiĠ": 4540,
      "ĠfaĠxianĠ": 4541,
      "ĠdeĠzhiĠchiĠ": 4542,
      "ĠyueĠyouĠ": 4543,
      "ĠV": 4544,
      "mingĠzhiĠ": 4545,
      "siĠchuanĠ": 4546,
      "yueĠtaiĠ": 4547,
      "ĠĠĠxingĠzhengĠquĠhuaĠ": 4548,
      "Ġao": 4549,
      "ĠyuĠciĠ": 4550,
      "ĠzaiĠzheĠ": 4551,
      "duiĠwuĠ": 4552,
      "tengĠ": 4553,
      "touĠruĠ": 4554,
      "cunĠzhuangĠ": 4555,
      "ĠjingĠguoĠ": 4556,
      "ĠcongĠerĠ": 4557,
      "PĠ": 4558,
      "daĠzhongĠ": 4559,
      "kengĠ": 4560,
      "haĠerĠ": 4561,
      "ĠnianĠbeiĠ": 4562,
      "ĠfenĠzhongĠ": 4563,
      "Ġshou": 4564,
      "youĠweiĠ": 4565,
      "cunĠdeĠ": 4566,
      "ĠsaĠ": 4567,
      "dengĠluĠ": 4568,
      "Ġ9ĠyueĠ": 4569,
      "Ġhou": 4570,
      "daĠzhiĠ": 4571,
      "touĠpiaoĠ": 4572,
      "ĠshiĠliĠ": 4573,
      "geĠleiĠ": 4574,
      "yuanĠhuiĠ": 4575,
      "changĠyiĠ": 4576,
      "ĠyueĠweiĠ": 4577,
      "ĠĠĠ2017": 4578,
      "ĠzhiĠxiaĠ": 4579,
      "gongĠminĠ": 4580,
      "yinĠfaĠ": 4581,
      "biĠyeĠyuĠ": 4582,
      "jianĠzhongĠ": 4583,
      "zhangĠyuĠ": 4584,
      "nuoĠweiĠ": 4585,
      "onĠ": 4586,
      "tuĠerĠqiĠ": 4587,
      "jiaĠyuĠ": 4588,
      "fangĠweiĠ": 4589,
      "tuĠdeĠ": 4590,
      "tuiĠdongĠ": 4591,
      "ĠshiĠzhongĠguoĠ": 4592,
      "gongĠyuĠ": 4593,
      "geĠyiĠ": 4594,
      "zhanĠdiĠ": 4595,
      "hunĠheĠ": 4596,
      "ĠrenĠmenĠ": 4597,
      "juĠzhuĠ": 4598,
      "baoĠliuĠ": 4599,
      "qianĠshuĠ": 4600,
      "jinĠru": 4601,
      "wenĠdingĠ": 4602,
      "haiĠdaoĠ": 4603,
      "leĠsiĠ": 4604,
      "ganĠran": 4605,
      "shuĠheĠ": 4606,
      "biĠsaiĠzhongĠ": 4607,
      "ĠtiĠzhangĠkeĠdaĠ": 4608,
      "ĠformulaĠ": 4609,
      "erĠrenĠ": 4610,
      "SĠ": 4611,
      "ĠzaiĠbeiĠ": 4612,
      "ziĠranĠ": 4613,
      "xiĠzhongĠ": 4614,
      "ĠbuĠfen": 4615,
      "daĠfuĠ": 4616,
      "2ĠnianĠ": 4617,
      "Ġ7ĠyueĠ": 4618,
      "ĠĠĠO": 4619,
      "wuĠyuĠ": 4620,
      "ziĠliĠ": 4621,
      "nanĠbeiĠ": 4622,
      "junĠyiĠ": 4623,
      "ĠĠĠ18": 4624,
      "piĠzhunĠ": 4625,
      "yongĠhuĠ": 4626,
      "keĠyuĠ": 4627,
      "chuĠjiĠ": 4628,
      "qiĠziĠ": 4629,
      "ĠweiĠfuĠqiĠyuĠ": 4630,
      "hengĠliĠ": 4631,
      "fangĠwenĠ": 4632,
      "zhuangĠjiaĠ": 4633,
      "tiĠgaoĠ": 4634,
      "ĠyouĠjiĠ": 4635,
      "ĠwoĠmenĠ": 4636,
      "diĠjiĠ": 4637,
      "maĠkeĠ": 4638,
      "ĠshiĠquĠ": 4639,
      "chengĠzuoĠ": 4640,
      "ĠĠĠ2016": 4641,
      "erĠyuĠ": 4642,
      "jianĠheĠ": 4643,
      "angĠ": 4644,
      "ĠyiĠdaĠliĠ": 4645,
      "ĠyinĠduĠ": 4646,
      "xunĠsuĠ": 4647,
      "benĠtuĠ": 4648,
      "Ġbian": 4649,
      "ziĠjinĠ": 4650,
      "houĠxuanĠrenĠ": 4651,
      "xinĠhaoĠ": 4652,
      "zhanĠzhongĠ": 4653,
      "Ġan": 4654,
      "xiaoĠliĠ": 4655,
      "weiĠĠĠ": 4656,
      "xianĠluĠ": 4657,
      "pinĠpaiĠ": 4658,
      "moĠerĠ": 4659,
      "jinĠshuĠ": 4660,
      "ciĠweiĠ": 4661,
      "ĠnianĠheĠ": 4662,
      "jieĠshuĠhouĠ": 4663,
      "Ġ12ĠyueĠ": 4664,
      "geĠgeĠ": 4665,
      "ĠtaĠyiĠ": 4666,
      "guangĠfanĠ": 4667,
      "EĠ": 4668,
      "xinĠyiĠ": 4669,
      "zhuĠmingĠdeĠ": 4670,
      "zhongĠliĠ": 4671,
      "shangĠrenĠ": 4672,
      "yongĠyiĠ": 4673,
      "xianĠhouĠ": 4674,
      "zuiĠchuĠ": 4675,
      "yingĠpianĠ": 4676,
      "zhuĠmingĠ": 4677,
      "cengĠyuĠ": 4678,
      "mouĠxieĠ": 4679,
      "ĠxiuĠ": 4680,
      "chengĠzhiĠ": 4681,
      "ĠbiaoĠ": 4682,
      "Ġ11ĠyueĠ": 4683,
      "ĠdeĠyiĠzhiĠ": 4684,
      "cĠ": 4685,
      "ĠtingĠ": 4686,
      "wuĠweiĠ": 4687,
      "jianĠzaoĠ": 4688,
      "jianĠzaiĠ": 4689,
      "jieĠyouĠ": 4690,
      "lingĠwaiĠ": 4691,
      "ĠdeĠshiĠquĠweiĠ": 4692,
      "chuĠzhanĠ": 4693,
      "xiaĠlaiĠ": 4694,
      "ĠĠĠdeĠshiĠ": 4695,
      "ĠzhiĠnengĠ": 4696,
      "xueĠhuiĠ": 4697,
      "Ġhai": 4698,
      "Ġhong": 4699,
      "buĠtongĠdeĠ": 4700,
      "ĠbingĠyiĠ": 4701,
      "Ġtw": 4702,
      "heĠzuoĠ": 4703,
      "jiangĠsuĠ": 4704,
      "saĠerĠ": 4705,
      "ĠzhongĠguoĠgongĠchanĠdangĠ": 4706,
      "buĠduiĠ": 4707,
      "ĠjiaĠshangĠ": 4708,
      "fenĠzhongĠ": 4709,
      "dangĠshiĠdeĠ": 4710,
      "shuiĠpingĠ": 4711,
      "zhuĠbuĠ": 4712,
      "shanĠdaĠ": 4713,
      "Ġ21Ġ": 4714,
      "hansĠ": 4715,
      "ĠĠĠerĠ": 4716,
      "boĠerĠ": 4717,
      "ĠhansĠ": 4718,
      "keĠheĠ": 4719,
      "ĠdiĠqu": 4720,
      "ĠĠĠli": 4721,
      "meiĠnianĠ": 4722,
      "xuĠqiuĠ": 4723,
      "ĠjiĠchengĠ": 4724,
      "jianĠshaoĠ": 4725,
      "teĠshuĠ": 4726,
      "ĠtwĠ": 4727,
      "daĠchengĠ": 4728,
      "xĠ": 4729,
      "shanĠdeĠ": 4730,
      "jiaĠzuĠ": 4731,
      "Ġ2011": 4732,
      "ĠzheĠxie": 4733,
      "lvĠweiĠ": 4734,
      "ĠrenĠleiĠ": 4735,
      "paiĠchuĠ": 4736,
      "ĠzhongĠdeĠ": 4737,
      "ĠĠĠqingĠ": 4738,
      "xiaoĠshuo": 4739,
      "aoĠdaĠliĠyaĠ": 4740,
      "ĠriĠyuĠ": 4741,
      "nanĠyiĠ": 4742,
      "jieĠrangĠ": 4743,
      "gongĠchangĠ": 4744,
      "siĠkeĠ": 4745,
      "ĠdanĠtaĠ": 4746,
      "ĠchengĠyuanĠ": 4747,
      "changĠheĠ": 4748,
      "jieĠkeĠ": 4749,
      "ziĠxunĠ": 4750,
      "ĠjiĠguanĠ": 4751,
      "jueĠding": 4752,
      "ĠzaiĠzhongĠguoĠ": 4753,
      "sheĠhuiĠzhuĠyiĠ": 4754,
      "ĠĠĠ2023": 4755,
      "ĠyuĠrenĠ": 4756,
      "zhuĠyouĠ": 4757,
      "MĠ": 4758,
      "ĠĠĠW": 4759,
      "zhuangĠzhiĠ": 4760,
      "faĠchuĠ": 4761,
      "ĠxiĠbaoĠ": 4762,
      "jingĠyanĠ": 4763,
      "Ġ2010ĠnianĠ": 4764,
      "ĠĠĠ2014": 4765,
      "waĠerĠ": 4766,
      "ĠjiĠrenĠ": 4767,
      "yinĠsuĠ": 4768,
      "suoĠdeĠ": 4769,
      "rengĠ": 4770,
      "ĠjieĠmuĠ": 4771,
      "tiĠshiĠ": 4772,
      "1997ĠnianĠ": 4773,
      "yingĠwenĠ": 4774,
      "luĠzhiĠ": 4775,
      "ĠhouĠlai": 4776,
      "ĠeĠluoĠsiĠ": 4777,
      "beiĠzhiĠ": 4778,
      "ĠxuĠduoĠ": 4779,
      "ĠĠĠyuanĠ": 4780,
      "tuĠzhongĠ": 4781,
      "kongĠzhongĠ": 4782,
      "chuĠshengĠyuĠ": 4783,
      "suiĠdaoĠ": 4784,
      "huaĠheĠ": 4785,
      "shaĠsiĠ": 4786,
      "yongĠshiĠ": 4787,
      "lingĠtuĠ": 4788,
      "meiĠgeĠ": 4789,
      "ĠÎ": 4790,
      "ĠĠĠyuĠshiĠdeĠrenĠkouĠshuĠliangĠweiĠrenĠ": 4791,
      "ĠĠĠsuoĠshuĠdeĠshengĠjiĠxuanĠquĠweiĠ": 4792,
      "minĠjianĠ": 4793,
      "ĠĠĠdeĠyouĠzhengĠbianĠmaĠweiĠ": 4794,
      "ĠĠĠyuĠjieĠrangĠdeĠshiĠzhenĠ": 4795,
      "ĠĠĠdeĠshiĠquĠweiĠ": 4796,
      "3ĠnianĠ": 4797,
      "gengĠjiaĠ": 4798,
      "ĠguoĠchengĠ": 4799,
      "xiangĠsiĠ": 4800,
      "Ġ2019": 4801,
      "ĠjingĠjiĠ": 4802,
      "ĠĠĠ2015": 4803,
      "ĠmenĠ": 4804,
      "zengĠzhangĠ": 4805,
      "nanĠdeĠ": 4806,
      "ĠzaiĠdaĠ": 4807,
      "keĠchengĠ": 4808,
      "jiangĠdeĠ": 4809,
      "kongĠjunĠ": 4810,
      "huiĠyingĠ": 4811,
      "ĠfaĠxingĠ": 4812,
      "Ġ2009ĠnianĠ": 4813,
      "leĠshiĠ": 4814,
      "ĠĠĠV": 4815,
      "erĠyiĠ": 4816,
      "guĠwenĠ": 4817,
      "ĠheĠxiĠ": 4818,
      "ĠtaĠyeĠ": 4819,
      "ciĠyiĠ": 4820,
      "guangĠgaoĠ": 4821,
      "teĠerĠ": 4822,
      "ĠshiĠmeiĠguoĠ": 4823,
      "1996ĠnianĠ": 4824,
      "Ġhk": 4825,
      "zhouĠfuĠ": 4826,
      "ĠshengĠhuo": 4827,
      "Ġwang": 4828,
      "tiĠyiĠ": 4829,
      "ĠjiĠyouĠ": 4830,
      "ĠdiĠdaĠ": 4831,
      "jueĠse": 4832,
      "anĠpaiĠ": 4833,
      "xianĠxingĠ": 4834,
      "guanĠbiĠ": 4835,
      "ĠbingĠjiangĠ": 4836,
      "chaoĠshiĠ": 4837,
      "zongĠbuĠ": 4838,
      "hanĠshuĠ": 4839,
      "ĠĠĠ2013": 4840,
      "tiĠshengĠ": 4841,
      "feiĠjianĠzhiĠ": 4842,
      "woĠmenĠ": 4843,
      "ĠĠĠxinĠ": 4844,
      "fangĠbuĠ": 4845,
      "daĠyuĠ": 4846,
      "xuĠkeĠ": 4847,
      "ĠzhuangĠ": 4848,
      "langĠdeĠ": 4849,
      "zhengĠfuĠdeĠ": 4850,
      "minĠzhuĠdangĠ": 4851,
      "Ġ6ĠyueĠ": 4852,
      "zhuangĠshiĠ": 4853,
      "jiaĠru": 4854,
      "ĠbingĠyouĠ": 4855,
      "quanĠmianĠ": 4856,
      "ĠhkĠ": 4857,
      "banĠgongĠ": 4858,
      "ĠdeĠguoĠjiaĠ": 4859,
      "junĠjiĠ": 4860,
      "xingĠtaiĠ": 4861,
      "cheĠzhan": 4862,
      "ĠerĠgaiĠ": 4863,
      "Ġfeng": 4864,
      "ĠzhiĠshiĠ": 4865,
      "ĠheĠerĠ": 4866,
      "baoĠliĠ": 4867,
      "diĠguoĠ": 4868,
      "jieĠgou": 4869,
      "tianĠdeĠ": 4870,
      "duiĠshiĠ": 4871,
      "shanĠmai": 4872,
      "juĠbuĠ": 4873,
      "lingĠdeĠ": 4874,
      "foĠ": 4875,
      "ruiĠdianĠ": 4876,
      "dangĠyuĠ": 4877,
      "luoĠkeĠ": 4878,
      "IĠ": 4879,
      "weiĠyiĠgeĠ": 4880,
      "junĠgongĠ": 4881,
      "dangĠzhongĠ": 4882,
      "weiĠzhiĠ": 4883,
      "tuĠshuĠguanĠ": 4884,
      "neiĠluĠ": 4885,
      "huaĠzhongĠ": 4886,
      "zhuanĠjiaĠ": 4887,
      "ĠjiĠnianĠ": 4888,
      "chengĠxuĠ": 4889,
      "ĠyueĠtaiĠ": 4890,
      "ĠÃ": 4891,
      "ĠlaiĠziĠ": 4892,
      "huiĠbeiĠ": 4893,
      "seĠlieĠ": 4894,
      "shanĠshiĠ": 4895,
      "yunĠxuĠ": 4896,
      "4ĠnianĠ": 4897,
      "leĠĠĠ": 4898,
      "bingĠmeiĠyouĠ": 4899,
      "jiuĠdianĠ": 4900,
      "geĠzhiĠ": 4901,
      "ĠkeĠxueĠ": 4902,
      "Ġ20": 4903,
      "ĠĠĠxiangĠ": 4904,
      "ĠqiĠzhongĠyiĠ": 4905,
      "1992ĠnianĠ": 4906,
      "siĠxiangĠ": 4907,
      "feiĠjianĠzhiĠdiĠquĠ": 4908,
      "Ġ5ĠyueĠ": 4909,
      "daiĠyouĠ": 4910,
      "zuĠchengĠdeĠ": 4911,
      "baĠweiĠ": 4912,
      "faĠlv": 4913,
      "ĠxiĠjieĠ": 4914,
      "dianĠnao": 4915,
      "jingĠzhengĠ": 4916,
      "sanĠjiaoĠ": 4917,
      "ĠmaoĠ": 4918,
      "ĠyiĠjiaĠ": 4919,
      "guoĠweiĠ": 4920,
      "xunĠhuiĠ": 4921,
      "jinĠpaiĠ": 4922,
      "changĠyuĠ": 4923,
      "tanĠkeĠ": 4924,
      "ĠliĠbuĠ": 4925,
      "ĠyouĠqiĠshiĠ": 4926,
      "muĠqinĠ": 4927,
      "tongĠyuĠ": 4928,
      "bingĠshiĠ": 4929,
      "huanĠyingĠ": 4930,
      "Ġ2018": 4931,
      "maĠerĠ": 4932,
      "xiaĠjiangĠ": 4933,
      "moĠxiĠgeĠ": 4934,
      "geĠlan": 4935,
      "ĠzhengĠfuĠ": 4936,
      "yanĠjiuĠyuanĠ": 4937,
      "shuĠxueĠ": 4938,
      "jiuĠdeĠ": 4939,
      "zhuanĠyiĠ": 4940,
      "neiĠgeĠ": 4941,
      "ĠshiĠjieĠbeiĠ": 4942,
      "ĠliĠya": 4943,
      "gongĠsiĠdeĠ": 4944,
      "huaĠrenĠ": 4945,
      "ĠgongĠzuoĠ": 4946,
      "Ġqian": 4947,
      "junĠyouĠ": 4948,
      "jiuĠzhiĠ": 4949,
      "ĠheĠdiĠ": 4950,
      "mingĠmingĠweiĠ": 4951,
      "ĠĠĠjiaĠzuĠ": 4952,
      "ĠjiĠchuĠ": 4953,
      "shengĠzhangĠ": 4954,
      "laiĠdaoĠ": 4955,
      "dengĠweiĠ": 4956,
      "ĠdiĠxiaĠ": 4957,
      "beiĠrenĠweiĠshiĠ": 4958,
      "yingĠyunĠ": 4959,
      "xiuĠgaiĠ": 4960,
      "mingĠlingĠ": 4961,
      "shuoĠmingĠ": 4962,
      "queĠfaĠ": 4963,
      "huiĠzhangĠ": 4964,
      "ĠchuĠyuĠ": 4965,
      "yongĠlaiĠ": 4966,
      "ĠwanĠrenĠ": 4967,
      "ĠlieĠ": 4968,
      "Ġna": 4969,
      "huĠdeĠ": 4970,
      "duiĠqiĠ": 4971,
      "ruanĠ": 4972,
      "ĠĠĠJ": 4973,
      "ziĠmuĠ": 4974,
      "shouĠfuĠ": 4975,
      "ĠchaĠ": 4976,
      "daiĠliĠ": 4977,
      "ĠdanĠyouĠyuĠ": 4978,
      "wenĠshiĠ": 4979,
      "ĠbuĠtongĠdeĠ": 4980,
      "ĠĠĠzhĠ": 4981,
      "maoĠqiuĠ": 4982,
      "ĠminĠguoĠ": 4983,
      "ĠzaiĠmeiĠguoĠ": 4984,
      "ĠshiĠyiĠge": 4985,
      "ĠdeĠdiĠerĠ": 4986,
      "ĠweiĠweiĠ": 4987,
      "zhuĠjiĠ": 4988,
      "ĠrangĠ": 4989,
      "gongĠjuĠ": 4990,
      "shiĠĠĠ": 4991,
      "taĠyuĠ": 4992,
      "chengĠweiĠleĠ": 4993,
      "Ġ4ĠyueĠ": 4994,
      "liaoĠjieĠ": 4995,
      "ĠtaĠbeiĠ": 4996,
      "queĠrenĠ": 4997,
      "15Ġ": 4998,
      "yeĠbeiĠ": 4999,
      "ĠyinĠyueĠ": 5000,
      "yinĠdeĠ": 5001,
      "changĠdiĠ": 5002,
      "faĠanĠ": 5003,
      "feiĠlvĠ": 5004,
      "ĠxuanĠbuĠ": 5005,
      "juĠzhangĠ": 5006,
      "ĠĠĠjieĠzhiĠ": 5007,
      "caiĠquĠ": 5008,
      "shenĠtiĠ": 5009,
      "beiĠerĠ": 5010,
      "changĠpianĠ": 5011,
      "ĠtaĠhaiĠ": 5012,
      "ĠshangĠhaiĠ": 5013,
      "ĠzhongĠguoĠrenĠminĠ": 5014,
      "ĠTheĠĠĠ": 5015,
      "cheĠxiaoĠ": 5016,
      "shouĠzhongĠ": 5017,
      "canĠjiaĠleĠ": 5018,
      "ĠkangĠ": 5019,
      "onĠĠĠ": 5020,
      "1995ĠnianĠ": 5021,
      "Ġ2016": 5022,
      "ĠkuanĠ": 5023,
      "boĠfangĠ": 5024,
      "chanĠpin": 5025,
      "ĠerĠfuĠ": 5026,
      "jiaoĠlianĠ": 5027,
      "xieĠrenĠ": 5028,
      "cheĠdeĠ": 5029,
      "zhuĠzuoĠ": 5030,
      "banĠfaĠ": 5031,
      "chuanĠboĠ": 5032,
      "fuĠyouĠ": 5033,
      "suĠweiĠ": 5034,
      "Ġ23": 5035,
      "ĠyiĠjuĠ": 5036,
      "ĠyiĠnianĠ": 5037,
      "zheĠliĠ": 5038,
      "maĠsiĠ": 5039,
      "1994ĠnianĠ": 5040,
      "ĠweiĠrenĠ": 5041,
      "ĠquanĠguoĠ": 5042,
      "ĠĠĠzhongĠguoĠ": 5043,
      "suiĠjiĠ": 5044,
      "ĠliĠru": 5045,
      "tieĠlu": 5046,
      "dianĠqiĠ": 5047,
      "liangĠshiĠ": 5048,
      "qiuĠhuiĠ": 5049,
      "ĠweiĠyuanĠhui": 5050,
      "maĠdeĠ": 5051,
      "ĠqiĠlaiĠ": 5052,
      "faĠdianĠ": 5053,
      "wangĠqiuĠ": 5054,
      "zeĠyouĠ": 5055,
      "baiĠseĠ": 5056,
      "ĠshiĠyiĠnianĠ": 5057,
      "yueĠhanĠ": 5058,
      "juĠheĠ": 5059,
      "guĠdeĠ": 5060,
      "taiĠjiĠ": 5061,
      "jieĠhunĠ": 5062,
      "huaĠyuanĠ": 5063,
      "shenĠjingĠ": 5064,
      "chuĠxiĠ": 5065,
      "zhanĠtaiĠ": 5066,
      "wanĠshangĠ": 5067,
      "mĠĠĠ": 5068,
      "ĠdiĠtieĠ": 5069,
      "lingĠbuĠ": 5070,
      "ĠzhiĠdiĠ": 5071,
      "ĠyouĠxieĠ": 5072,
      "ĠyiĠzaiĠ": 5073,
      "ziĠzhuĠ": 5074,
      "ĠqueĠ": 5075,
      "yeĠheĠ": 5076,
      "huaĠshengĠ": 5077,
      "ĠxingĠdongĠ": 5078,
      "zuĠjianĠ": 5079,
      "ĠweiĠnengĠ": 5080,
      "chanĠshengĠdeĠ": 5081,
      "ĠrenĠminĠzhengĠfuĠ": 5082,
      "liangĠrenĠ": 5083,
      "ĠyouĠxiaoĠ": 5084,
      "lingĠxianĠ": 5085,
      "zhaoĠkaiĠ": 5086,
      "2020ĠnianĠmeiĠguoĠrenĠkouĠpuĠchaĠdeĠshuĠjuĠ": 5087,
      "maĠlaiĠxiĠyaĠ": 5088,
      "xueĠheĠ": 5089,
      "leĠtaĠ": 5090,
      "huoĠjianĠ": 5091,
      "chaoĠdeĠ": 5092,
      "ĠerĠbuĠ": 5093,
      "tongĠcheĠ": 5094,
      "yanĠchangĠhuiĠ": 5095,
      "Ġka": 5096,
      "xuĠliĠyaĠ": 5097,
      "changĠzaiĠ": 5098,
      "yaoĠwuĠ": 5099,
      "qinĠshiĠ": 5100,
      "RĠ": 5101,
      "tiĠzhongĠ": 5102,
      "ruĠxuanĠ": 5103,
      "ĠsheĠjiĠ": 5104,
      "ĠcaoĠ": 5105,
      "kuoĠdaĠ": 5106,
      "ĠzaiĠxiĠ": 5107,
      "ĠxiĠlaĠ": 5108,
      "lieĠbiaoĠ": 5109,
      "ĠdaiĠbiaoĠ": 5110,
      "chuĠxianĠzaiĠ": 5111,
      "yinĠdu": 5112,
      "ĠyingĠyuĠ": 5113,
      "ĠĠĠnian": 5114,
      "ĠĠĠ2025": 5115,
      "toĠĠĠ": 5116,
      "ĠliĠshuĠ": 5117,
      "geĠdaĠ": 5118,
      "geĠerĠ": 5119,
      "xueĠxiao": 5120,
      "xiangĠxiĠ": 5121,
      "ĠĠĠ2024": 5122,
      "ĠgongĠchengĠ": 5123,
      "xinĠjiĠ": 5124,
      "ĠfuĠjinĠ": 5125,
      "ĠĠĠqianĠ": 5126,
      "ĠdaĠbuĠfenĠ": 5127,
      "shanĠxiĠshengĠ": 5128,
      "xingĠzhongĠ": 5129,
      "daiĠbuĠ": 5130,
      "guaĠ": 5131,
      "taiĠshiĠ": 5132,
      "siĠteĠ": 5133,
      "changĠpian": 5134,
      "kongĠbuĠ": 5135,
      "ĠshiĠdeĠyiĠ": 5136,
      "ĠtaoĠ": 5137,
      "ĠzhiĠduĠ": 5138,
      "huĠbeiĠ": 5139,
      "lvĠxingĠ": 5140,
      "tuoĠliĠ": 5141,
      "gongĠhuiĠ": 5142,
      "shenĠshiĠ": 5143,
      "chengĠliĠdeĠ": 5144,
      "daĠbuĠfenĠ": 5145,
      "ĠweiĠliĠ": 5146,
      "aoĠdiĠliĠ": 5147,
      "guiĠzeĠ": 5148,
      "ĠliangĠrenĠ": 5149,
      "daĠluĠdeĠ": 5150,
      "shangĠhai": 5151,
      "laoĠdongĠ": 5152,
      "1991ĠnianĠ": 5153,
      "ĠyiĠtongĠ": 5154,
      "zhouĠbianĠ": 5155,
      "jingĠyuĠ": 5156,
      "zhuangĠdeĠ": 5157,
      "peiĠyinĠ": 5158,
      "cuĠjinĠ": 5159,
      "tongĠbuĠ": 5160,
      "ĠqiaoĠ": 5161,
      "xingĠxiangĠ": 5162,
      "ciĠzaiĠ": 5163,
      "fenĠliĠ": 5164,
      "zhuangĠkuangĠ": 5165,
      "ĠliĠshiĠshangĠ": 5166,
      "wanĠrenĠ": 5167,
      "ĠCĠ": 5168,
      "longĠdeĠ": 5169,
      "suanĠjiĠ": 5170,
      "xingĠquĠ": 5171,
      "ĠmingĠchaoĠzhengĠzhiĠrenĠwuĠ": 5172,
      "Ġlu": 5173,
      "wuĠkeĠlan": 5174,
      "jinĠbuĠ": 5175,
      "baoĠshiĠ": 5176,
      "daiĠbiaoĠdaĠhuiĠ": 5177,
      "wuĠheĠ": 5178,
      "zeĠweiĠ": 5179,
      "ĠzhiĠziĠ": 5180,
      "nanĠshiĠ": 5181,
      "peiĠheĠ": 5182,
      "zhuĠchangĠ": 5183,
      "ĠzheĠjiangĠ": 5184,
      "pingĠweiĠ": 5185,
      "teĠseĠ": 5186,
      "suiĠhouĠ": 5187,
      "xiaĠjiĠaoĠlinĠpiĠkeĠyunĠdongĠhuiĠ": 5188,
      "22Ġ": 5189,
      "jiaoĠxueĠ": 5190,
      "DĠ": 5191,
      "ĠjiĠerĠ": 5192,
      "xieĠshiĠ": 5193,
      "puĠbianĠ": 5194,
      "daĠheĠ": 5195,
      "zheĠzaiĠ": 5196,
      "bĠ": 5197,
      "piaoĠfangĠ": 5198,
      "ĠĠĠa": 5199,
      "laĠjiĠ": 5200,
      "ĠshiĠtuĠ": 5201,
      "Ġ3ĠyueĠ": 5202,
      "wenĠxianĠ": 5203,
      "luoĠjiĠ": 5204,
      "feiĠzhouĠ": 5205,
      "ĠyaoĠqiuĠ": 5206,
      "ĠĠĠxiaoĠ": 5207,
      "lianĠrenĠ": 5208,
      "zhuanĠxiangĠ": 5209,
      "ĠxiĠjuĠ": 5210,
      "saĠsiĠ": 5211,
      "25Ġ": 5212,
      "ĠweiĠheĠ": 5213,
      "anĠquan": 5214,
      "Ġ2011ĠnianĠ": 5215,
      "daoĠzhongĠ": 5216,
      "iĠ": 5217,
      "ĠfuĠjianĠ": 5218,
      "sheĠjiĠdeĠ": 5219,
      "kaoĠlvĠ": 5220,
      "wangĠchaoĠ": 5221,
      "teĠĠĠ": 5222,
      "jieĠrenĠ": 5223,
      "mingĠxianĠ": 5224,
      "ĠweiĠwuĠ": 5225,
      "ĠpanĠ": 5226,
      "zhuĠzhangĠ": 5227,
      "gongĠzhiĠ": 5228,
      "16Ġ": 5229,
      "ĠbuĠkeĠ": 5230,
      "ĠxiĠbuĠ": 5231,
      "zhengĠheĠ": 5232,
      "tongĠdaoĠ": 5233,
      "Ġsun": 5234,
      "ĠweiĠxingĠ": 5235,
      "xuĠzaiĠ": 5236,
      "biaoĠmianĠ": 5237,
      "Ġmai": 5238,
      "ĠnvĠxingĠ": 5239,
      "Ġnai": 5240,
      "ĠĠĠguoĠ": 5241,
      "kouĠweiĠ": 5242,
      "meiĠguoĠdeĠ": 5243,
      "lingĠdaoĠrenĠ": 5244,
      "biĠsai": 5245,
      "huĠyuĠ": 5246,
      "ĠweiĠlaiĠ": 5247,
      "qiĠzhongĠyiĠzhongĠ": 5248,
      "Ġ2021": 5249,
      "zhaoĠdaoĠ": 5250,
      "siĠlingĠ": 5251,
      "hongĠseĠ": 5252,
      "1993ĠnianĠ": 5253,
      "jingĠcha": 5254,
      "fangĠwuĠ": 5255,
      "ĠsĠĠĠ": 5256,
      "1988ĠnianĠ": 5257,
      "ĠliĠmiĠ": 5258,
      "ĠjiaoĠyuĠ": 5259,
      "ĠyuĠleĠ": 5260,
      "yuanĠgongĠ": 5261,
      "zuiĠhou": 5262,
      "1ĠhaoĠ": 5263,
      "ĠshiĠweiĠleĠ": 5264,
      "ĠdeĠzhiĠwuĠ": 5265,
      "ĠĠĠcongĠ": 5266,
      "hunĠyinĠ": 5267,
      "yunĠdong": 5268,
      "caiĠliaoĠ": 5269,
      "ĠchengĠgongĠ": 5270,
      "ĠweiĠhuiĠ": 5271,
      "ĠxiĠya": 5272,
      "ĠjiĠhuiĠ": 5273,
      "Ġ2001ĠnianĠrenĠkouĠ": 5274,
      "dongĠnanĠbuĠ": 5275,
      "ĠyouĠbuĠ": 5276,
      "dongĠbeiĠbuĠ": 5277,
      "Ġ2015": 5278,
      "huaĠjiĠ": 5279,
      "fenĠbuĠyuĠ": 5280,
      "junĠyuĠ": 5281,
      "shouĠzhiĠ": 5282,
      "bianĠshiĠ": 5283,
      "yingĠgaiĠ": 5284,
      "ĠxingĠqiĠ": 5285,
      "fuĠzaiĠ": 5286,
      "tiĠzhiĠ": 5287,
      "ĠnianĠqianĠ": 5288,
      "ĠĠĠ2012": 5289,
      "ĠrenĠshuĠ": 5290,
      "daĠchenĠ": 5291,
      "baoĠzhiĠ": 5292,
      "siĠgeĠ": 5293,
      "feiĠchuĠ": 5294,
      "ĠhanĠguoĠ": 5295,
      "Ġ2005ĠnianĠ": 5296,
      "jinĠyouĠ": 5297,
      "dianĠhuaĠ": 5298,
      "ĠtiĠgongĠ": 5299,
      "ĠtuiĠ": 5300,
      "geĠheĠ": 5301,
      "ĠbuĠmenĠ": 5302,
      "baoĠyuĠ": 5303,
      "ĠyiĠban": 5304,
      "ĠMa": 5305,
      "ruanĠjianĠ": 5306,
      "saoĠ": 5307,
      "yuanĠxingĠ": 5308,
      "ĠguanĠyuĠ": 5309,
      "wuĠtaiĠ": 5310,
      "Ġzhong": 5311,
      "lingĠdiĠ": 5312,
      "chiĠyouĠ": 5313,
      "duiĠzhangĠ": 5314,
      "tuiĠjinĠ": 5315,
      "zhuĠjueĠ": 5316,
      "gengĠduoĠ": 5317,
      "ĠyinĠerĠ": 5318,
      "faĠxianĠleĠ": 5319,
      "ĠsuiĠdeĠ": 5320,
      "Ġquan": 5321,
      "chuĠlaiĠ": 5322,
      "tiĠdaoĠ": 5323,
      "yongĠzuoĠ": 5324,
      "suoĠzaiĠ": 5325,
      "zhengĠchangĠ": 5326,
      "jueĠshiĠ": 5327,
      "ĠnianĠdiĠ": 5328,
      "wuĠzhuangĠ": 5329,
      "guoĠjiĠjiĠ": 5330,
      "rĠĠĠ": 5331,
      "meiĠdeĠ": 5332,
      "yaĠliĠshanĠdaĠ": 5333,
      "benĠdiĠ": 5334,
      "bianĠxingĠ": 5335,
      "ĠdaĠchengĠ": 5336,
      "guiĠdeĠ": 5337,
      "ĠĠĠandĠĠĠ": 5338,
      "ĠerĠshuiĠyuĠmianĠjiĠweiĠ0": 5339,
      "riĠjunĠ": 5340,
      "oĠ": 5341,
      "ĠzaoĠchengĠ": 5342,
      "yinĠdiĠ": 5343,
      "jiaoĠyouĠ": 5344,
      "douĠhuiĠ": 5345,
      "boĠsiĠ": 5346,
      "poĠhuai": 5347,
      "taiĠrenĠ": 5348,
      "dongĠfangĠ": 5349,
      "tongĠyangĠ": 5350,
      "jiaoĠdaĠ": 5351,
      "huoĠzheĠ": 5352,
      "ĠpingĠfangĠmiĠ": 5353,
      "ĠzaiĠjiaĠ": 5354,
      "ĠdaĠliangĠ": 5355,
      "haiĠwaiĠ": 5356,
      "mingĠxingĠ": 5357,
      "tuanĠdeĠ": 5358,
      "qingĠbaoĠ": 5359,
      "anĠhuiĠ": 5360,
      "caoĠzuoĠ": 5361,
      "neiĠyouĠ": 5362,
      "duiĠwaiĠ": 5363,
      "qianĠwang": 5364,
      "jieĠshaoĠ": 5365,
      "ĠsuiĠzheĠ": 5366,
      "ĠU": 5367,
      "Ġreng": 5368,
      "Ġ2017": 5369,
      "jieĠmu": 5370,
      "yeĠhuiĠ": 5371,
      "xiaĠyouĠ": 5372,
      "ĠheĠpingĠ": 5373,
      "ĠerĠgaiĠdiĠ": 5374,
      "canĠmou": 5375,
      "Ġ2020": 5376,
      "Ġ2014": 5377,
      "ĠĠĠzaoĠnianĠ": 5378,
      "xiangĠyiĠ": 5379,
      "yongĠtuĠ": 5380,
      "7ĠnianĠ": 5381,
      "Ġ2013": 5382,
      "qiangĠdeĠ": 5383,
      "ĠyuĠheĠ": 5384,
      "chuĠkouĠ": 5385,
      "ĠyiĠduĠ": 5386,
      "ĠzhiĠdingĠ": 5387,
      "Ġdou": 5388,
      "gaiĠshanĠ": 5389,
      "aoĠyunĠhuiĠ": 5390,
      "biaoĠdeĠ": 5391,
      "laĠheĠ": 5392,
      "ĠxiĠtong": 5393,
      "ĠdeĠshiĠjieĠ": 5394,
      "gaoĠjiaĠ": 5395,
      "xiĠnanĠ": 5396,
      "ĠyueĠnanĠ": 5397,
      "duiĠxiangĠ": 5398,
      "sanĠjiĠ": 5399,
      "xianĠjinĠ": 5400,
      "yanĠshenĠ": 5401,
      "zuoĠquĠ": 5402,
      "queĠzhenĠbingĠliĠ": 5403,
      "dunĠdeĠ": 5404,
      "ĠjiaĠnaĠdaĠ": 5405,
      "ĠbaoĠhanĠ": 5406,
      "meiĠliĠ": 5407,
      "ĠshiĠdaĠ": 5408,
      "leĠdaĠ": 5409,
      "xiaoĠquĠ": 5410,
      "junĠquĠ": 5411,
      "dengĠshangĠ": 5412,
      "zhengĠtiĠ": 5413,
      "Ġxiu": 5414,
      "ĠshengĠyuĠ": 5415,
      "jiaĠzaiĠ": 5416,
      "changĠyouĠ": 5417,
      "leĠtaĠdeĠ": 5418,
      "xiaĠxiaĠdeĠyiĠgeĠ": 5419,
      "longĠjiangĠ": 5420,
      "duoĠrenĠ": 5421,
      "geĠlunĠ": 5422,
      "ĠyeĠyouĠ": 5423,
      "jueĠyiĠ": 5424,
      "shuĠruĠ": 5425,
      "haiĠxiaĠ": 5426,
      "guanĠshiĠ": 5427,
      "suiĠzhuĠ": 5428,
      "nieĠ": 5429,
      "ĠxianĠrenĠ": 5430,
      "5ĠnianĠ": 5431,
      "yunĠshiĠ": 5432,
      "ĠqiĠzaiĠ": 5433,
      "yunĠzuoĠ": 5434,
      "kĠĠĠ": 5435,
      "19ĠshiĠjiĠ": 5436,
      "ĠriĠdeĠ": 5437,
      "gaoĠsuĠgongĠluĠ": 5438,
      "juĠyiĠ": 5439,
      "gouĠzaoĠ": 5440,
      "13Ġ": 5441,
      "ĠweiĠkeĠ": 5442,
      "banĠshiĠchuĠ": 5443,
      "ĠerĠyanĠ": 5444,
      "ĠnanĠzhiĠ": 5445,
      "zhanĠzhiĠ": 5446,
      "liuĠzaiĠ": 5447,
      "ĠĠĠzengĠ": 5448,
      "zuoĠrenĠ": 5449,
      "faĠshouĠ": 5450,
      "dianĠcheĠ": 5451,
      "ĠdianĠyingĠ": 5452,
      "kangĠriĠ": 5453,
      "1990ĠnianĠ": 5454,
      "shuĠyuanĠ": 5455,
      "ĠsaiĠjiĠ": 5456,
      "jiaĠyouĠ": 5457,
      "duĠheĠ": 5458,
      "feiĠliĠ": 5459,
      "junĠguanĠ": 5460,
      "miĠmiĠ": 5461,
      "kaiĠzhanĠ": 5462,
      "ĠshiĠwuĠkeĠ": 5463,
      "renĠdaĠ": 5464,
      "ĠzhongĠzaiĠ": 5465,
      "Ġ100": 5466,
      "shangĠyuĠ": 5467,
      "reĠĠĠ": 5468,
      "binĠhaiĠ": 5469,
      "ĠdongĠlinĠ": 5470,
      "Ġ2010": 5471,
      "ĠÑ": 5472,
      "ĠshaoĠ": 5473,
      "jiangĠhuiĠ": 5474,
      "xiaĠling": 5475,
      "liangĠciĠ": 5476,
      "tianĠshiĠ": 5477,
      "chuangĠjianĠ": 5478,
      "lingĠxiuĠ": 5479,
      "ĠwanĠmeiĠyuanĠ": 5480,
      "zhuangĠbeiĠ": 5481,
      "ĠnianĠlaiĠ": 5482,
      "dongĠzuoĠ": 5483,
      "Ġniu": 5484,
      "chuanĠzhiĠ": 5485,
      "chaiĠchuĠ": 5486,
      "senĠlinĠ": 5487,
      "anĠdaĠ": 5488,
      "shouĠyiĠ": 5489,
      "ĠqiĠxiangĠ": 5490,
      "shouĠzhangĠ": 5491,
      "ĠtaiĠwan": 5492,
      "caiĠzhengĠ": 5493,
      "yaĠkeĠ": 5494,
      "biĠmianĠ": 5495,
      "touĠpiao": 5496,
      "3ĠgeĠ": 5497,
      "guĠliĠ": 5498,
      "ĠqiĠziĠ": 5499,
      "shenĠme": 5500,
      "shanĠquĠ": 5501,
      "2ĠrenĠ": 5502,
      "ĠzhengĠzhiĠ": 5503,
      "ĠchengĠliĠ": 5504,
      "huiĠyuanĠ": 5505,
      "ĠĠĠsiĠ": 5506,
      "ĠjianĠyuĠ": 5507,
      "beiĠshiĠweiĠ": 5508,
      "ĠjuĠxingĠ": 5509,
      "tuĠxingĠ": 5510,
      "qinĠziĠ": 5511,
      "ĠerĠtongĠ": 5512,
      "juĠqingĠ": 5513,
      "shouĠluĠ": 5514,
      "kaĠluoĠ": 5515,
      "Ġqi": 5516,
      "Ġpo": 5517,
      "ĠnianĠ1ĠyueĠ1ĠriĠ": 5518,
      "ĠhengĠ": 5519,
      "wuĠsiĠ": 5520,
      "ĠtaiĠyangĠ": 5521,
      "dengĠdeĠ": 5522,
      "zuiĠgao": 5523,
      "houĠshiĠ": 5524,
      "zheĠbuĠ": 5525,
      "waiĠjiaoĠbuĠ": 5526,
      "ĠyiĠmeiĠyuanĠ": 5527,
      "liuĠdeĠ": 5528,
      "ĠsiĠlingĠ": 5529,
      "ceĠliangĠ": 5530,
      "1989ĠnianĠ": 5531,
      "jingĠxuanĠ": 5532,
      "ĠmeiĠgeĠ": 5533,
      "huiĠzhongĠ": 5534,
      "zhangĠguanĠ": 5535,
      "fanĠzuiĠ": 5536,
      "ĠjieĠshouĠ": 5537,
      "3ĠrenĠ": 5538,
      "banĠliĠ": 5539,
      "Ġ2007ĠnianĠ": 5540,
      "ĠĠĠdangĠ": 5541,
      "fuĠweiĠ": 5542,
      "suoĠshiĠ": 5543,
      "bingĠruĠ": 5544,
      "Ġhuan": 5545,
      "siĠyiĠ": 5546,
      "mingĠzhongĠ": 5547,
      "ĠyouĠkeĠ": 5548,
      "xiangĠzhengĠ": 5549,
      "ĠerĠziĠ": 5550,
      "eĠĠĠ": 5551,
      "shouĠxiĠ": 5552,
      "gengĠweiĠ": 5553,
      "daiĠlaiĠ": 5554,
      "baoĠshouĠ": 5555,
      "ĠdongĠbeiĠ": 5556,
      "fanĠweiĠneiĠ": 5557,
      "pianĠdeĠ": 5558,
      "mianĠshiĠ": 5559,
      "mengĠdeĠ": 5560,
      "guoĠwangĠ": 5561,
      "taiĠfengĠ": 5562,
      "riĠzhiĠ": 5563,
      "ĠerĠchengĠ": 5564,
      "huĠnanĠ": 5565,
      "Ġ2008ĠnianĠ": 5566,
      "ĠqiĠxiaĠ": 5567,
      "chuĠdaoĠ": 5568,
      "zunĠ": 5569,
      "ĠzaiĠduĠ": 5570,
      "ĠsheĠhuiĠ": 5571,
      "ĠyiĠhouĠ": 5572,
      "ĠjieĠkeĠ": 5573,
      "ĠshengĠhuoĠxiĠ": 5574,
      "yanĠxiĠ": 5575,
      "fangĠmianĠdeĠ": 5576,
      "renĠliĠ": 5577,
      "canĠyiĠyuanĠ": 5578,
      "kaiĠtongĠ": 5579,
      "taiĠziĠ": 5580,
      "junĠzhuĠ": 5581,
      "qingĠchuĠ": 5582,
      "dingĠjuĠ": 5583,
      "gongĠzhuĠ": 5584,
      "shengĠyinĠ": 5585,
      "ĠsheĠyouĠ": 5586,
      "huaĠheĠwuĠ": 5587,
      "zhanĠqiĠjianĠ": 5588,
      "Ġ2012": 5589,
      "ĠyongĠyouĠ": 5590,
      "jinĠweiĠ": 5591,
      "1984ĠnianĠ": 5592,
      "zhouĠqiĠ": 5593,
      "zuĠfuĠ": 5594,
      "jianĠjieĠ": 5595,
      "yingĠyeĠ": 5596,
      "ĠsiĠwangĠ": 5597,
      "liangĠjiĠ": 5598,
      "piĠfuĠ": 5599,
      "feiĠdeĠ": 5600,
      "waiĠbuĠ": 5601,
      "xiangĠhuĠ": 5602,
      "guanĠchaĠ": 5603,
      "xingĠbuĠmingĠ": 5604,
      "duiĠyouĠ": 5605,
      "zhuĠyaoĠdeĠ": 5606,
      "leiĠdaĠ": 5607,
      "Ġni": 5608,
      "ceĠĠĠ": 5609,
      "30Ġ": 5610,
      "duĠliĠdeĠ": 5611,
      "Ġsha": 5612,
      "zhuanĠdeĠ": 5613,
      "Ġlao": 5614,
      "lvĠdeĠ": 5615,
      "xiĠjuĠ": 5616,
      "ĠcanĠjiaĠ": 5617,
      "ĠĠĠmingĠ": 5618,
      "bingĠdeĠ": 5619,
      "jiangĠjiĠ": 5620,
      "maĠlaĠ": 5621,
      "erĠyueĠ": 5622,
      "changĠzhiĠ": 5623,
      "gouĠmaiĠ": 5624,
      "ĠshengĠhuoĠxiĠxingĠbuĠmingĠ": 5625,
      "ĠyiĠdaiĠ": 5626,
      "tianĠqiĠ": 5627,
      "ĠjuĠyouĠ": 5628,
      "queĠdeĠ": 5629,
      "tongĠpaiĠ": 5630,
      "xinĠyangĠ": 5631,
      "faĠxingĠdeĠ": 5632,
      "zuoĠbiaoĠweiĠ": 5633,
      "jiangĠlingĠ": 5634,
      "touĠluĠ": 5635,
      "jiuĠlongĠ": 5636,
      "anĠzhuangĠ": 5637,
      "ĠwuĠfaĠ": 5638,
      "ĠĠĠbeiĠjingĠ": 5639,
      "liangĠxiangĠ": 5640,
      "8ĠnianĠ": 5641,
      "jiaĠliĠfuĠ": 5642,
      "1ĠnianĠ": 5643,
      "xinĠxingĠ": 5644,
      "huoĠshanĠ": 5645,
      "zuĠzhiĠdeĠ": 5646,
      "keĠnengĠshiĠ": 5647,
      "jingĠzhongĠ": 5648,
      "chengĠheĠ": 5649,
      "luĠjiĠ": 5650,
      "guanĠjianĠ": 5651,
      "taiĠbeiĠshiĠ": 5652,
      "jiuĠduĠ": 5653,
      "ĠĠĠciĠwaiĠ": 5654,
      "Ġdong": 5655,
      "ĠnianĠĠĠ": 5656,
      "jieĠsanĠ": 5657,
      "ruĠqinĠ": 5658,
      "ĠgongĠyouĠ": 5659,
      "ĠyongĠyuĠ": 5660,
      "ĠĠĠMa": 5661,
      "kongĠqiĠ": 5662,
      "ĠzaiĠci": 5663,
      "ĠyueĠzhongĠ": 5664,
      "liangĠzhiĠ": 5665,
      "baiĠrenĠ": 5666,
      "fangĠyanĠ": 5667,
      "lunĠwenĠ": 5668,
      "Ġxiao": 5669,
      "erĠzhiĠ": 5670,
      "zhuĠyiĠdeĠ": 5671,
      "ĠzhongĠguoĠdaĠluĠ": 5672,
      "ĠzhongĠshiĠ": 5673,
      "shangĠbuĠ": 5674,
      "zheĠxie": 5675,
      "chuanĠshuoĠ": 5676,
      "keĠyiĠzaiĠ": 5677,
      "1985ĠnianĠ": 5678,
      "kaoĠguĠ": 5679,
      "houĠbeiĠ": 5680,
      "ĠchuĠxianĠ": 5681,
      "Ġs": 5682,
      "quĠjiĠ": 5683,
      "fuĠjinĠdeĠ": 5684,
      "Ġ2009": 5685,
      "zhangĠaiĠ": 5686,
      "Ġyang": 5687,
      "Ġcha": 5688,
      "aiĠjiĠ": 5689,
      "chuĠbuĠ": 5690,
      "ĠyinĠqiĠ": 5691,
      "tongĠnianĠ": 5692,
      "manĠdeĠ": 5693,
      "jingĠfangĠ": 5694,
      "ĠshiĠshiĠjieĠ": 5695,
      "xinĠjiaĠpoĠ": 5696,
      "1ĠliĠ": 5697,
      "moĠsiĠkeĠ": 5698,
      "ĠĠĠjuĠqingĠ": 5699,
      "lianĠzaiĠ": 5700,
      "yuĠyanĠ": 5701,
      "ĠbiĠruĠ": 5702,
      "ĠĠĠI": 5703,
      "chengĠnianĠ": 5704,
      "kaoĠjinĠ": 5705,
      "mingĠrenĠ": 5706,
      "qianĠrenĠ": 5707,
      "ĠcanĠyuĠ": 5708,
      "ĠweiĠciĠ": 5709,
      "zhanĠtingĠ": 5710,
      "guiĠzuĠ": 5711,
      "Ġkai": 5712,
      "ĠduanĠ": 5713,
      "ĠdiĠshiĠ": 5714,
      "yunĠnanĠ": 5715,
      "zhongĠdianĠ": 5716,
      "zuoĠzheĠ": 5717,
      "guangĠdongĠshengĠ": 5718,
      "ĠshiĠriĠbenĠ": 5719,
      "muĠqin": 5720,
      "ĠqiĠshiĠ": 5721,
      "ĠsiĠchuanĠ": 5722,
      "ĠgongĠtongĠ": 5723,
      "Ġ2008": 5724,
      "quĠleĠ": 5725,
      "zheĠweiĠ": 5726,
      "ĠguoĠchengĠzhongĠ": 5727,
      "baoĠzhangĠ": 5728,
      "taiĠduĠ": 5729,
      "suoĠshuĠ": 5730,
      "14Ġ": 5731,
      "ĠteĠbieĠshiĠ": 5732,
      "Ġ1949": 5733,
      "Ġ2013ĠnianĠ": 5734,
      "zhouĠjiĠ": 5735,
      "gaoĠdaĠ": 5736,
      "ĠrenĠmingĠ": 5737,
      "ĠchuĠshengĠyuĠ": 5738,
      "ĠĠĠben": 5739,
      "zongĠshiĠ": 5740,
      "ĠshiĠjiĠshangĠ": 5741,
      "yinĠqingĠ": 5742,
      "changĠjianĠdeĠ": 5743,
      "shuangĠfangĠ": 5744,
      "quĠyiĠhuiĠ": 5745,
      "yinĠheĠ": 5746,
      "jiangĠzaiĠ": 5747,
      "ĠyouĠciĠ": 5748,
      "quanĠzhangĠ": 5749,
      "ĠĠĠRe": 5750,
      "xunĠyangĠ": 5751,
      "faĠhuiĠ": 5752,
      "ĠdiĠwuĠ": 5753,
      "yingĠxiongĠ": 5754,
      "Ġ50": 5755,
      "ĠĠĠ3": 5756,
      "huaĠyiĠ": 5757,
      "xiuĠzhengĠ": 5758,
      "1ĠrenĠ": 5759,
      "leĠyuĠ": 5760,
      "huaĠzhiĠ": 5761,
      "ganĠbuĠ": 5762,
      "ĠshiĠdeĠguoĠ": 5763,
      "fangĠyiĠ": 5764,
      "youĠxianĠ": 5765,
      "ĠqiĠxiĠ": 5766,
      "tiaoĠliĠ": 5767,
      "chuĠzaiĠ": 5768,
      "xiangĠguanĠdeĠ": 5769,
      "cuoĠwuĠ": 5770,
      "ĠjiaĠtingĠ": 5771,
      "chuĠyanĠ": 5772,
      "ĠĠĠdiĠfangĠ": 5773,
      "ĠguoĠhuiĠ": 5774,
      "bianĠjuĠ": 5775,
      "Ġcai": 5776,
      "suiĠshiĠ": 5777,
      "ĠyiĠxiaoĠshiĠ": 5778,
      "ĠzengĠ": 5779,
      "shengĠtaiĠ": 5780,
      "ĠbingĠduĠ": 5781,
      "ĠxueĠxiaoĠ": 5782,
      "shouĠxiangĠ": 5783,
      "4ĠrenĠ": 5784,
      "6ĠnianĠ": 5785,
      "wanĠgongĠ": 5786,
      "nengĠliangĠ": 5787,
      "taoĠtaiĠ": 5788,
      "huĠbuĠ": 5789,
      "banĠbuĠ": 5790,
      "yuanĠzeĠ": 5791,
      "faĠlanĠxiĠ": 5792,
      "ĠwuĠkeĠlanĠ": 5793,
      "Ġsu": 5794,
      "laoĠdeĠ": 5795,
      "ĠyueĠtuanĠ": 5796,
      "zhouĠciĠshiĠ": 5797,
      "ĠĠĠqiĠtaĠ": 5798,
      "shuĠliĠ": 5799,
      "chuĠzhiĠ": 5800,
      "zuiĠyouĠ": 5801,
      "fengĠweiĠ": 5802,
      "KĠ": 5803,
      "luĠkouĠ": 5804,
      "Ġdui": 5805,
      "luĠyingĠ": 5806,
      "qingĠhuaĠ": 5807,
      "ĠpingĠjunĠ": 5808,
      "wĠ": 5809,
      "ĠĠĠdiĠerĠ": 5810,
      "guĠfen": 5811,
      "ĠwanĠyuanĠ": 5812,
      "keĠdeĠqiĠzhongĠyiĠzhongĠ": 5813,
      "ĠĠĠmeiĠguoĠ": 5814,
      "huiĠbuĠ": 5815,
      "ĠweiĠchiĠ": 5816,
      "qingĠqiuĠ": 5817,
      "zhiĠdeĠshiĠ": 5818,
      "faĠguanĠ": 5819,
      "yaoĠqiu": 5820,
      "dangĠdiĠdeĠ": 5821,
      "kaiĠsheĠ": 5822,
      "ĠĠĠ2010": 5823,
      "huanĠchengĠ": 5824,
      "18Ġ": 5825,
      "ĠzhongĠhuaĠrenĠminĠgongĠheĠguoĠzhengĠzhiĠrenĠwuĠ": 5826,
      "siĠzhiĠ": 5827,
      "ĠjiĠnian": 5828,
      "huoĠxingĠ": 5829,
      "gaiĠchengĠ": 5830,
      "ĠshiĠyong": 5831,
      "ĠheĠxinĠ": 5832,
      "lingĠrenĠ": 5833,
      "heĠxinĠ": 5834,
      "hanĠyuĠ": 5835,
      "Ġ2022": 5836,
      "hanĠyouĠ": 5837,
      "henĠdaĠ": 5838,
      "ĠheĠzhongĠ": 5839,
      "meiĠshuĠ": 5840,
      "daoĠbuĠ": 5841,
      "zhuangĠjiĠ": 5842,
      "cuiĠhuiĠ": 5843,
      "luĠkeĠ": 5844,
      "ĠĠĠdanĠ": 5845,
      "chengĠkeĠ": 5846,
      "ĠwanĠjiaĠ": 5847,
      "ĠshiĠgeĠ": 5848,
      "paiĠmingĠdiĠ": 5849,
      "ĠĠĠ2011": 5850,
      "xiaĠweiĠ": 5851,
      "qiangĠdiaoĠ": 5852,
      "Ġ2006ĠnianĠ": 5853,
      "enĠshengĠ": 5854,
      "dangĠweiĠ": 5855,
      "ĠmaiĠkeĠ": 5856,
      "zhengĠweiĠ": 5857,
      "xiĠlaĠ": 5858,
      "yaĠjunĠ": 5859,
      "yuanĠzhongĠ": 5860,
      "beiĠweiĠ": 5861,
      "ĠyiĠzuoĠ": 5862,
      "zuiĠgaoĠdeĠ": 5863,
      "tianĠjingĠ": 5864,
      "niĠyaĠzhouĠ": 5865,
      "Ġxiong": 5866,
      "nengĠzaiĠ": 5867,
      "gongĠyingĠ": 5868,
      "canĠkaoĠ": 5869,
      "ĠnianĠkaiĠshiĠ": 5870,
      "xiaĠquĠ": 5871,
      "suoĠchuĠdeĠ": 5872,
      "yaĠyiĠ": 5873,
      "chengĠbenĠ": 5874,
      "qingĠxingĠ": 5875,
      "dangĠjuĠ": 5876,
      "tiĠyuĠchangĠ": 5877,
      "ĠhenĠ": 5878,
      "ĠĠĠ17": 5879,
      "suoĠzhiĠ": 5880,
      "xieĠerĠ": 5881,
      "shangĠhaiĠshiĠ": 5882,
      "ĠĠĠ2": 5883,
      "shengĠyouĠ": 5884,
      "ĠjiĠbuĠ": 5885,
      "dengĠdengĠ": 5886,
      "tuĠpoĠ": 5887,
      "ĠyeĠjiuĠshiĠ": 5888,
      "ĠAĠ": 5889,
      "ĠdaĠduoĠ": 5890,
      "teĠdingĠ": 5891,
      "kunĠnanĠ": 5892,
      "renĠyuanĠ": 5893,
      "xianĠshengĠ": 5894,
      "ĠdaĠxingĠ": 5895,
      "yinĠruĠ": 5896,
      "aĠlaĠboĠ": 5897,
      "Ġqing": 5898,
      "ĠĠĠ1Ġ": 5899,
      "taiĠzhongĠ": 5900,
      "baiĠdeĠ": 5901,
      "xieĠdaoĠ": 5902,
      "xiangĠyouĠ": 5903,
      "fouĠ": 5904,
      "ĠyiĠfuĠ": 5905,
      "Ġmeng": 5906,
      "jingĠzhiĠ": 5907,
      "ĠjiĠduĠ": 5908,
      "keĠxueĠyuanĠ": 5909,
      "xiangĠweiĠ": 5910,
      "tanĠdeĠ": 5911,
      "shunĠliĠ": 5912,
      "huoĠbanĠ": 5913,
      "fenĠbuĠzaiĠ": 5914,
      "ĠwenĠhuaĠ": 5915,
      "huanĠdeĠ": 5916,
      "xiuĠfuĠ": 5917,
      "stĠĠĠ": 5918,
      "ĠdaĠfuĠ": 5919,
      "laĠdingĠ": 5920,
      "ĠsuiĠzhuĠ": 5921,
      "xiĠbaoĠ": 5922,
      "zhanĠxianĠ": 5923,
      "chengĠguoĠ": 5924,
      "leĠqiĠ": 5925,
      "junĠzhiĠ": 5926,
      "ĠxiĠbanĠyaĠ": 5927,
      "laiĠshiĠ": 5928,
      "daĠhuiĠ": 5929,
      "ĠxiangĠnianĠ": 5930,
      "GĠ": 5931,
      "wangĠyuanĠ": 5932,
      "4ĠgeĠ": 5933,
      "ĠxiĠerĠ": 5934,
      "ruĠqin": 5935,
      "ĠĠĠaĠ": 5936,
      "ĠbuĠjinĠ": 5937,
      "ĠkeĠerĠ": 5938,
      "Ġ2012ĠnianĠ": 5939,
      "wuĠziĠ": 5940,
      "keĠyouĠ": 5941,
      "duoĠweiĠ": 5942,
      "chuanĠdeĠ": 5943,
      "haiĠyangĠ": 5944,
      "jingĠheĠ": 5945,
      "xiaoĠyuanĠ": 5946,
      "kaiĠfa": 5947,
      "zhongĠguoĠdaĠluĠdeĠ": 5948,
      "haiĠpingĠmianĠ": 5949,
      "gaiĠshiĠ": 5950,
      "suoĠweiĠ": 5951,
      "xiuĠjianĠ": 5952,
      "shengĠchuĠ": 5953,
      "ĠtaĠcengĠdaiĠbiaoĠ": 5954,
      "ganĠranĠzheĠ": 5955,
      "ĠĠĠyinĠ": 5956,
      "zeĠzaiĠ": 5957,
      "ĠheĠlanĠ": 5958,
      "tongĠmengĠ": 5959,
      "qiangĠlieĠ": 5960,
      "heiĠseĠ": 5961,
      "shouĠgouĠ": 5962,
      "ĠriĠjunĠ": 5963,
      "hongĠzha": 5964,
      "xueĠyuĠ": 5965,
      "laiĠyueĠ": 5966,
      "1980ĠnianĠ": 5967,
      "ĠzuĠfuĠ": 5968,
      "Ġ00Ġ": 5969,
      "ciĠshiĠjieĠdaĠzhanĠ": 5970,
      "jiaĠweiĠ": 5971,
      "leĠzaiĠ": 5972,
      "taiĠyuĠ": 5973,
      "zuiĠweiĠ": 5974,
      "zhaoĠpianĠ": 5975,
      "liĠyuĠ": 5976,
      "yinĠliĠ": 5977,
      "chuiĠ": 5978,
      "yaĠmeiĠ": 5979,
      "zhouĠzhiĠ": 5980,
      "zhenĠyuĠ": 5981,
      "jingĠyiĠ": 5982,
      "guĠdaiĠ": 5983,
      "manĠzuĠ": 5984,
      "geiĠleĠ": 5985,
      "zhuĠzhiĠ": 5986,
      "jiangĠzhiĠ": 5987,
      "zuĠyiĠ": 5988,
      "huangĠhouĠ": 5989,
      "1986ĠnianĠ": 5990,
      "renĠleiĠ": 5991,
      "dangĠyuanĠ": 5992,
      "ĠtongĠshiĠgaiĠdiĠ": 5993,
      "beiĠyuĠ": 5994,
      "zhangĠweiĠ": 5995,
      "teĠxingĠ": 5996,
      "daĠjiangĠ": 5997,
      "ĠdeĠjiĠchuĠ": 5998,
      "ĠguangĠdongĠ": 5999,
      "houĠweiĠ": 6000,
      "dingĠqiĠ": 6001,
      "ĠliaoĠ": 6002,
      "zuĠqiuĠyunĠdongĠyuanĠ": 6003,
      "boĠshiĠxueĠweiĠ": 6004,
      "qiangĠzhiĠ": 6005,
      "bengĠ": 6006,
      "beiĠjingĠshiĠ": 6007,
      "shangĠchangĠ": 6008,
      "nongĠminĠ": 6009,
      "neiĠluĠshengĠfenĠ": 6010,
      "ĠkuĠ": 6011,
      "xiangĠheĠ": 6012,
      "jiaoĠzhiĠ": 6013,
      "liangĠguoĠ": 6014,
      "chengĠbaoĠ": 6015,
      "jiuĠhuiĠ": 6016,
      "benĠshenĠ": 6017,
      "chengĠshiĠdeĠ": 6018,
      "zhenĠjiĠ": 6019,
      "keĠfuĠ": 6020,
      "ĠaĠerĠ": 6021,
      "chuĠyouĠ": 6022,
      "ĠhuoĠzheĠ": 6023,
      "hĠ": 6024,
      "bangĠdeĠ": 6025,
      "LĠ": 6026,
      "ĠzhongĠziĠ": 6027,
      "xunĠzhangĠ": 6028,
      "chuangĠbanĠ": 6029,
      "xiaĠlingĠshiĠjianĠ": 6030,
      "Ġpu": 6031,
      "tongĠweiĠ": 6032,
      "jingĠzaiĠ": 6033,
      "duanĠshiĠ": 6034,
      "ĠZ": 6035,
      "ĠtieĠ": 6036,
      "leĠyouĠ": 6037,
      "bianĠhaoĠ": 6038,
      "ĠmuĠqian": 6039,
      "ĠbuĠdiĠ": 6040,
      "keĠzhiĠ": 6041,
      "riĠdeĠ": 6042,
      "2ĠhaoĠ": 6043,
      "kuoĠzhanĠ": 6044,
      "ĠmeiĠnianĠ": 6045,
      "tangĠdeĠ": 6046,
      "xiangĠxinĠ": 6047,
      "luĠxuĠ": 6048,
      "19Ġ": 6049,
      "minĠdiĠ": 6050,
      "moĠsiĠ": 6051,
      "ĠrenĠqiĠ": 6052,
      "shangĠxiaĠ": 6053,
      "Ġ10Ġ": 6054,
      "jiuĠyiĠ": 6055,
      "zaoĠzaiĠ": 6056,
      "diĠqiuĠ": 6057,
      "Ġdi": 6058,
      "woĠdeĠ": 6059,
      "wuĠdaoĠ": 6060,
      "ĠbuĠluoĠ": 6061,
      "taĠweiĠ": 6062,
      "junĠheĠ": 6063,
      "wanĠdeĠ": 6064,
      "juĠdaĠ": 6065,
      "ĠĠĠjianĠjieĠ": 6066,
      "muĠzhiĠ": 6067,
      "gaoĠzhiĠ": 6068,
      "ĠjiĠfuĠ": 6069,
      "renĠgongĠ": 6070,
      "tianĠtiĠ": 6071,
      "ĠzhiĠyiĠ": 6072,
      "fanĠzhiĠ": 6073,
      "xuanĠdeĠ": 6074,
      "xiĠwangĠ": 6075,
      "weiĠyiĠyiĠ": 6076,
      "ĠkanĠ": 6077,
      "chiĠrenĠ": 6078,
      "muĠniĠ": 6079,
      "Ġ500": 6080,
      "1945ĠnianĠ": 6081,
      "ĠĠĠjieĠ": 6082,
      "geĠming": 6083,
      "wuĠzhengĠzhuangĠ": 6084,
      "ĠqiĠcheĠ": 6085,
      "zheĠxueĠ": 6086,
      "suoĠyouĠdeĠ": 6087,
      "tanĠpanĠ": 6088,
      "ĠshiĠyiĠgeĠweiĠyuĠ": 6089,
      "huiĠguoĠ": 6090,
      "niĠerĠ": 6091,
      "nanĠfangĠ": 6092,
      "liangĠmingĠ": 6093,
      "miĠyaĠ": 6094,
      "ĠxianĠhouĠ": 6095,
      "ziĠzhongĠ": 6096,
      "haoĠshiĠ": 6097,
      "tionĠ": 6098,
      "Ġ1950": 6099,
      "quĠzhiĠ": 6100,
      "xiĠyaĠ": 6101,
      "jiangĠjinĠ": 6102,
      "yueĠnanĠ": 6103,
      "ĠĠĠdiĠfangĠziĠliaoĠ": 6104,
      "dianĠheĠ": 6105,
      "yaĠheĠ": 6106,
      "rongĠheĠ": 6107,
      "xiangĠbiĠ": 6108,
      "shaĠhaiĠ": 6109,
      "Ġ2014ĠnianĠ": 6110,
      "lingĠyiĠgeĠ": 6111,
      "feiĠerĠ": 6112,
      "fengĠfuĠ": 6113,
      "wenĠduĠ": 6114,
      "diĠyiĠweiĠ": 6115,
      "jiĠĠĠ": 6116,
      "yanĠyuĠ": 6117,
      "bingĠyiĠ": 6118,
      "ĠwaĠ": 6119,
      "duiĠciĠ": 6120,
      "NĠ": 6121,
      "Ġsong": 6122,
      "daiĠshiĠ": 6123,
      "pingĠdeĠ": 6124,
      "nuoĠfuĠ": 6125,
      "ĠguoĠquĠ": 6126,
      "chuĠshouĠ": 6127,
      "fangĠjianĠ": 6128,
      "ziĠzaiĠ": 6129,
      "yinĠpaiĠ": 6130,
      "changĠjianĠ": 6131,
      "aoĠzhouĠ": 6132,
      "cengĠweiĠ": 6133,
      "gaoĠxiong": 6134,
      "paiĠhangĠ": 6135,
      "heĠĠĠ": 6136,
      "40Ġ": 6137,
      "ĠyiĠsiĠlanĠ": 6138,
      "ĠjiuĠshiĠ": 6139,
      "yeĠjiĠ": 6140,
      "ĠyiĠwuĠ": 6141,
      "shenĠduĠ": 6142,
      "nĠĠĠ": 6143,
      "liangĠnianĠ": 6144,
      "ĠnianĠweiĠ": 6145,
      "qinĠwangĠ": 6146,
      "sanĠjiaĠ": 6147,
      "nvĠzhuĠ": 6148,
      "Ġ0Ġ": 6149,
      "ĠĠĠyingĠ": 6150,
      "zhouĠheĠ": 6151,
      "xiuĠdeĠ": 6152,
      "1987ĠnianĠ": 6153,
      "naĠcui": 6154,
      "guanĠliĠjuĠ": 6155,
      "dingĠshiĠ": 6156,
      "daĠxiĠyangĠ": 6157,
      "Ġxu": 6158,
      "haiĠbaĠweiĠ": 6159,
      "tiĠweiĠ": 6160,
      "ĠjiĠhouĠ": 6161,
      "zhengĠce": 6162,
      "ĠkeĠxiĠ": 6163,
      "shanĠfengĠ": 6164,
      "tongĠmingĠ": 6165,
      "ĠjiaĠzuĠ": 6166,
      "dongĠshiĠzhangĠ": 6167,
      "yeĠyiĠ": 6168,
      "peiĠzhiĠ": 6169,
      "zouĠxiangĠ": 6170,
      "ĠyouĠzhongĠ": 6171,
      "xiaoĠfangĠ": 6172,
      "zaiĠliĠ": 6173,
      "zhuĠweiĠ": 6174,
      "ĠruoĠ": 6175,
      "liangĠdaĠ": 6176,
      "hanĠdeĠ": 6177,
      "ĠxiĠlie": 6178,
      "suoĠcaiĠyong": 6179,
      "jieĠzhongĠ": 6180,
      "ĠbingĠweiĠ": 6181,
      "ĠbuĠduanĠ": 6182,
      "ĠshiĠyiĠbuĠ": 6183,
      "huanĠzheĠ": 6184,
      "ĠbuĠerĠ": 6185,
      "ĠdaĠduoĠshuĠ": 6186,
      "gaiĠzaoĠ": 6187,
      "nengĠyuanĠ": 6188,
      "leĠzhongĠ": 6189,
      "zhanĠlve": 6190,
      "huĠweiĠ": 6191,
      "shouĠrenĠ": 6192,
      "junĠrenĠ": 6193,
      "1983ĠnianĠ": 6194,
      "kaoĠlv": 6195,
      "1982ĠnianĠ": 6196,
      "zhiĠshiĠqiĠ": 6197,
      "wenĠzhongĠ": 6198,
      "mangĠ": 6199,
      "jieĠtiĠ": 6200,
      "zhanĠlanĠ": 6201,
      "gongĠchengĠshiĠ": 6202,
      "Ġku": 6203,
      "junĠzhongĠ": 6204,
      "ganĠranĠ": 6205,
      "mengĠgu": 6206,
      "baĠheĠ": 6207,
      "manĠdiĠ": 6208,
      "ĠshiĠyeĠ": 6209,
      "erĠtongĠ": 6210,
      "guĠdingĠ": 6211,
      "ĠĠĠjingĠ": 6212,
      "ĠzaiĠyouĠ": 6213,
      "geĠjuĠ": 6214,
      "ĠgenĠ": 6215,
      "taiĠheĠ": 6216,
      "Ġcn": 6217,
      "leĠzheĠ": 6218,
      "2ĠgeĠ": 6219,
      "huanĠxingĠ": 6220,
      "ĠguoĠneiĠ": 6221,
      "ĠweiĠyuĠgaiĠ": 6222,
      "lunĠshiĠ": 6223,
      "zhengĠxie": 6224,
      "shangĠshengĠ": 6225,
      "boĠlinĠ": 6226,
      "jueĠduiĠ": 6227,
      "geĠyuĠ": 6228,
      "jieĠliĠ": 6229,
      "huiĠyiĠyuanĠ": 6230,
      "gongĠliĠdeĠ": 6231,
      "kouĠdeĠ": 6232,
      "ĠerĠfeiĠ": 6233,
      "muĠqian": 6234,
      "diaoĠkuai": 6235,
      "aiĠerĠlanĠ": 6236,
      "daoĠweiĠ": 6237,
      "xiaoĠfeiĠ": 6238,
      "xiaĠlingĠ": 6239,
      "ĠfuĠqinĠ": 6240,
      "ĠdeĠyiĠshuĠ": 6241,
      "mianĠduiĠ": 6242,
      "kaiĠshiĠshiĠ": 6243,
      "ĠdongĠnanĠ": 6244,
      "ĠweiĠUTCĠ": 6245,
      "shengĠdiĠ": 6246,
      "zhuĠyiĠzheĠ": 6247,
      "lianĠheĠhuiĠ": 6248,
      "yanĠhaiĠ": 6249,
      "xiongĠyaĠliĠ": 6250,
      "ĠcnĠ": 6251,
      "ĠĠĠzhengĠ": 6252,
      "ĠĠĠjiaoĠtongĠ": 6253,
      "zhuĠheĠ": 6254,
      "wenĠheĠ": 6255,
      "sanĠweiĠ": 6256,
      "sanĠdaĠ": 6257,
      "ĠerĠqiĠ": 6258,
      "ĠĠĠmaĠ": 6259,
      "zhouĠyiĠ": 6260,
      "ziĠshenĠ": 6261,
      "diaoĠkuaiĠyiĠxiaoĠshiĠ": 6262,
      "Ġluo": 6263,
      "chengĠyouĠ": 6264,
      "chongĠjiĠ": 6265,
      "guoĠhuiĠ": 6266,
      "liuĠxiaĠ": 6267,
      "laoĠshiĠ": 6268,
      "ĠjiĠUTCĠ": 6269,
      "paiĠqianĠ": 6270,
      "ĠmeiĠyuanĠ": 6271,
      "sheĠyouĠxiaĠlingĠshiĠjianĠ": 6272,
      "ĠdeĠshiĠquĠweiĠUTCĠ": 6273,
      "ĠerĠgaiĠdiĠsuoĠcaiĠyong": 6274,
      "ĠtongĠshiĠgaiĠdiĠsheĠyouĠxiaĠlingĠshiĠjianĠ": 6275,
      "ĠerĠgaiĠdiĠsuoĠcaiĠyongĠdeĠshiĠquĠweiĠUTCĠ": 6276,
      "shuĠrenĠ": 6277,
      "zhangĠyueĠ": 6278,
      "jingĠgaoĠ": 6279,
      "nanĠhaiĠ": 6280,
      "ĠlingĠyouĠ": 6281,
      "Ġchi": 6282,
      "chuangĠzaoĠ": 6283,
      "jianĠliĠleĠ": 6284,
      "ĠĠĠ2Ġ": 6285,
      "miĠshuĠzhangĠ": 6286,
      "xiangĠtongĠdeĠ": 6287,
      "bingĠfeiĠ": 6288,
      "guanĠheĠ": 6289,
      "caiĠdeĠ": 6290,
      "biĠyeĠhouĠ": 6291,
      "gaoĠyuĠhaiĠpingĠmianĠ": 6292,
      "ĠĠĠIn": 6293,
      "dangĠjiĠ": 6294,
      "qunĠzhongĠ": 6295,
      "ruĠdeĠ": 6296,
      "ĠqiĠfuĠ": 6297,
      "Ġsa": 6298,
      "ĠshiĠbeiĠ": 6299,
      "quĠdeĠmianĠjiĠweiĠ": 6300,
      "haiĠbaĠweiĠgaoĠyuĠhaiĠpingĠmianĠ": 6301,
      "zhangĠheĠ": 6302,
      "jinĠxingĠdeĠ": 6303,
      "gaiĠmingĠweiĠ": 6304,
      "faĠzhiĠ": 6305,
      "xuanĠzhongĠ": 6306,
      "jingĠduĠ": 6307,
      "changĠsuoĠ": 6308,
      "lieĠruĠ": 6309,
      "ĠgeĠquĠ": 6310,
      "ĠziĠyouĠ": 6311,
      "tanĠxianĠ": 6312,
      "ĠzhongĠshanĠ": 6313,
      "daĠbuĠfen": 6314,
      "guanĠcha": 6315,
      "ĠqiĠzhongĠbaoĠkuoĠ": 6316,
      "ĠwanĠliĠ": 6317,
      "zhanĠyuĠ": 6318,
      "buĠshiĠquĠ": 6319,
      "fangĠjiĠ": 6320,
      "daĠlouĠ": 6321,
      "biaoĠbenĠ": 6322,
      "5ĠrenĠ": 6323,
      "ĠrongĠ": 6324,
      "daĠyiĠ": 6325,
      "ĠyueĠyiĠ": 6326,
      "ĠshanĠxiĠ": 6327,
      "shangĠdiĠ": 6328,
      "chaoĠyueĠ": 6329,
      "Ġ2025": 6330,
      "ĠshuoĠ": 6331,
      "Ġ2015ĠnianĠ": 6332,
      "ĠĠĠ4": 6333,
      "pingĠguĠ": 6334,
      "ĠĠĠyanĠ": 6335,
      "bianĠyiĠ": 6336,
      "tiaoĠjieĠ": 6337,
      "zhangĠfuĠ": 6338,
      "cunĠluoĠ": 6339,
      "kaiĠshiĠzaiĠ": 6340,
      "ĠhuoĠdongĠ": 6341,
      "shouĠxianĠ": 6342,
      "tuĠjingĠ": 6343,
      "yiĠshiĠdeĠ": 6344,
      "teĠjiĠ": 6345,
      "suoĠzaiĠdiĠ": 6346,
      "douĠzaiĠ": 6347,
      "shuangĠdaĠ": 6348,
      "ĠluoĠmaĠ": 6349,
      "ĠdaĠluĠ": 6350,
      "banĠben": 6351,
      "cheĠxiangĠ": 6352,
      "7ĠrenĠ": 6353,
      "liĠdeĠ": 6354,
      "benĠrenĠ": 6355,
      "gongĠweiĠ": 6356,
      "gongĠneng": 6357,
      "suoĠchuĠdeĠhaiĠbaĠweiĠgaoĠyuĠhaiĠpingĠmianĠ": 6358,
      "ĠxiaoĠshiĠ": 6359,
      "changĠjingĠ": 6360,
      "danĠbaiĠ": 6361,
      "6ĠrenĠ": 6362,
      "qianĠdingĠ": 6363,
      "feiĠerĠdeĠ": 6364,
      "dengĠzhiĠ": 6365,
      "ĠbuĠxiangĠ": 6366,
      "sheĠxianĠ": 6367,
      "duanĠshiĠjianĠ": 6368,
      "ĠzaiĠtaĠ": 6369,
      "tuiĠxiuĠ": 6370,
      "xiaoĠyuĠ": 6371,
      "laiĠsiĠ": 6372,
      "yangĠjiĠ": 6373,
      "seĠfuĠ": 6374,
      "jianĠkangĠ": 6375,
      "shenĠhuaĠ": 6376,
      "luoĠfaĠ": 6377,
      "ĠerĠdeĠ": 6378,
      "8ĠrenĠ": 6379,
      "ĠĠĠanĠ": 6380,
      "sanĠrenĠ": 6381,
      "huiĠguiĠ": 6382,
      "ĠerĠbuĠshiĠ": 6383,
      "tiĠxingĠ": 6384,
      "yinĠxiangĠ": 6385,
      "ĠdeĠjiĠluĠ": 6386,
      "ouĠxiangĠ": 6387,
      "yanĠrenĠ": 6388,
      "yanĠheĠ": 6389,
      "caiĠnengĠ": 6390,
      "juĠleĠ": 6391,
      "quĠzhuĠ": 6392,
      "yongĠleĠ": 6393,
      "naĠxieĠ": 6394,
      "ĠsuiĠshiĠ": 6395,
      "ĠY": 6396,
      "yinĠyuĠ": 6397,
      "zuĠqiuĠduiĠ": 6398,
      "mianĠyiĠ": 6399,
      "shuaiĠlingĠ": 6400,
      "ĠqiĠxuanĠ": 6401,
      "diĠxiaĠ": 6402,
      "zuĠcheng": 6403,
      "boĠlan": 6404,
      "9ĠnianĠ": 6405,
      "ĠkouĠ": 6406,
      "ĠĠĠCo": 6407,
      "ĠyiĠshengĠ": 6408,
      "ĠluĠwa": 6409,
      "keĠnengĠhuiĠ": 6410,
      "ĠheĠdaoĠ": 6411,
      "canĠxuanĠ": 6412,
      "Ġge": 6413,
      "ĠĠĠdiĠyiĠ": 6414,
      "chuĠzhongĠ": 6415,
      "kongĠxiĠ": 6416,
      "ĠnianĠshiĠjieĠ": 6417,
      "quanĠyiĠ": 6418,
      "lianĠluoĠ": 6419,
      "huĠxiangĠ": 6420,
      "Ġ2023": 6421,
      "qingĠjieĠ": 6422,
      "danĠshiĠ": 6423,
      "zhouĠliĠ": 6424,
      "ĠzhongĠgongĠzhongĠyangĠ": 6425,
      "changĠshangĠ": 6426,
      "Ġ2016ĠnianĠ": 6427,
      "tuĠjiĠ": 6428,
      "stĠ": 6429,
      "zaiĠyiĠqiĠ": 6430,
      "yanĠzhongĠdeĠ": 6431,
      "ĠyuĠbeiĠ": 6432,
      "ĠchaoĠxianĠ": 6433,
      "guanĠyiĠ": 6434,
      "muĠerĠ": 6435,
      "kaiĠdeĠ": 6436,
      "huaĠjiaĠ": 6437,
      "ĠmaĠlai": 6438,
      "tiĠgongĠleĠ": 6439,
      "Ġ2007": 6440,
      "ĠĠĠmeiĠ": 6441,
      "shuĠbuĠ": 6442,
      "faĠyiĠ": 6443,
      "dingĠliĠ": 6444,
      "duiĠyingĠ": 6445,
      "zhenĠquĠdeĠmianĠjiĠweiĠ": 6446,
      "HĠ": 6447,
      "ĠzhiĠshuĠ": 6448,
      "ziĠchanĠ": 6449,
      "faĠshengĠzaiĠ": 6450,
      "ĠshouĠdaoĠ": 6451,
      "ĠshouĠciĠ": 6452,
      "ĠĠĠ2008": 6453,
      "zhongĠyiĠyuanĠ": 6454,
      "zhuĠzhongĠ": 6455,
      "daiĠweiĠ": 6456,
      "neiĠdiĠ": 6457,
      "ĠĠĠxingĠ": 6458,
      "queĠshiĠ": 6459,
      "zhengĠbianĠ": 6460,
      "1978ĠnianĠ": 6461,
      "ĠyuĠxiĠ": 6462,
      "heĠliuĠ": 6463,
      "fuĠxingĠ": 6464,
      "xianĠzhuĠ": 6465,
      "beiĠsiĠ": 6466,
      "yanĠseĠ": 6467,
      "zuĠqiuĠjuĠleĠbuĠ": 6468,
      "qianĠxiĠ": 6469,
      "kaoĠshiĠ": 6470,
      "diĠquĠdeĠ": 6471,
      "geĠguoĠ": 6472,
      "baoĠluoĠ": 6473,
      "zuiĠduoĠ": 6474,
      "suĠgeĠlanĠ": 6475,
      "tiĠheĠ": 6476,
      "shangĠjiĠ": 6477,
      "yanĠjiĠ": 6478,
      "sheĠzaiĠ": 6479,
      "ziĠxun": 6480,
      "mianĠfeiĠ": 6481,
      "muĠsiĠlinĠ": 6482,
      "daiĠlingĠ": 6483,
      "zhuanĠmenĠ": 6484,
      "kaĠlaĠ": 6485,
      "ruĠweiĠ": 6486,
      "ĠshiĠjiaĠ": 6487,
      "ĠyuanĠmingĠ": 6488,
      "shenĠyiĠ": 6489,
      "wuĠguanĠ": 6490,
      "guanĠceĠ": 6491,
      "sheĠjiĠshiĠ": 6492,
      "Ġ2ĠyueĠ": 6493,
      "qianĠyueĠ": 6494,
      "sanĠbuĠ": 6495,
      "zhongĠyao": 6496,
      "beiĠfangĠ": 6497,
      "baoĠcunĠ": 6498,
      "tianĠhouĠ": 6499,
      "zhongĠguoĠdaĠluĠ": 6500,
      "yangĠxingĠ": 6501,
      "ĠbuĠlaĠ": 6502,
      "feiĠyanĠ": 6503,
      "zaoĠshangĠ": 6504,
      "mianĠdianĠ": 6505,
      "cengĠdeĠ": 6506,
      "1ĠĠĠ": 6507,
      "Ġkan": 6508,
      "ĠĠĠran": 6509,
      "xueĠzhongĠ": 6510,
      "Ġ24": 6511,
      "chuĠweiĠ": 6512,
      "bingĠyuĠ": 6513,
      "qingĠrenĠ": 6514,
      "pingĠguoĠ": 6515,
      "tuiĠjianĠ": 6516,
      "liaoĠdeĠ": 6517,
      "quanĠxianĠ": 6518,
      "guoĠneiĠ": 6519,
      "chuanĠtongĠdeĠ": 6520,
      "ĠbeiĠchengĠweiĠ": 6521,
      "Ġlv": 6522,
      "leĠdeĠ": 6523,
      "juĠfengĠ": 6524,
      "gengĠxinĠ": 6525,
      "Ġshao": 6526,
      "ĠjueĠdingĠ": 6527,
      "duoĠnianĠ": 6528,
      "langĠzhongĠ": 6529,
      "diĠwuĠ": 6530,
      "ĠxiangĠguanĠ": 6531,
      "shuĠzaiĠ": 6532,
      "gaoĠshiĠ": 6533,
      "pianĠzhongĠ": 6534,
      "tongĠxunĠ": 6535,
      "wanĠzhengĠ": 6536,
      "huaĠzaiĠ": 6537,
      "bianĠjingĠ": 6538,
      "shanĠxianĠ": 6539,
      "ĠlianĠheĠ": 6540,
      "fengĠdeĠ": 6541,
      "miaoĠhuiĠ": 6542,
      "yuanĠxianĠ": 6543,
      "xieĠzuoĠ": 6544,
      "shouĠquanĠ": 6545,
      "zanĠzhuĠ": 6546,
      "chengĠzaiĠ": 6547,
      "ĠliĠchengĠ": 6548,
      "guiĠmo": 6549,
      "juĠzaiĠ": 6550,
      "muĠyuĠ": 6551,
      "baĠdaĠ": 6552,
      "baĠsiĠ": 6553,
      "jueĠyuĠ": 6554,
      "geĠlaĠ": 6555,
      "faĠmingĠ": 6556,
      "luoĠshanĠjiĠ": 6557,
      "Ġ2019ĠnianĠ": 6558,
      "liĠziĠ": 6559,
      "ĠĠĠgongĠ": 6560,
      "tuĠshuĠ": 6561,
      "ĠlunĠ": 6562,
      "xingĠmuĠ": 6563,
      "ĠdiĠqiuĠ": 6564,
      "ĠĠĠrenĠ": 6565,
      "ĠzhiĠwaiĠ": 6566,
      "zhangĠzhuanĠjiĠ": 6567,
      "xianĠruĠ": 6568,
      "jinĠriĠ": 6569,
      "cheĠchangĠ": 6570,
      "ĠzuiĠgaoĠ": 6571,
      "Ġhei": 6572,
      "Ġ7Ġ": 6573,
      "quĠjianĠ": 6574,
      "tunĠ": 6575,
      "fuĠzhuĠ": 6576,
      "ĠdunĠ": 6577,
      "xingĠzaiĠ": 6578,
      "xianĠzhongĠ": 6579,
      "ĠbiĠsaiĠ": 6580,
      "beiĠrenĠmingĠweiĠ": 6581,
      "ĠnuoĠ": 6582,
      "yinĠyue": 6583,
      "zhouĠrenĠ": 6584,
      "ĠshiĠtaĠ": 6585,
      "Ġ28": 6586,
      "duiĠzhongĠ": 6587,
      "ĠshanĠdongĠ": 6588,
      "guoĠminĠdangĠ": 6589,
      "liangĠheĠ": 6590,
      "ĠshiĠerĠ": 6591,
      "ĠyouĠzaiĠ": 6592,
      "pingĠlun": 6593,
      "jiuĠyuanĠ": 6594,
      "ĠdeĠshiĠyongĠ": 6595,
      "Ġsang": 6596,
      "jiangĠyiĠ": 6597,
      "gaiĠzhiĠweiĠ": 6598,
      "bianĠzhiĠ": 6599,
      "ĠshiĠchengĠ": 6600,
      "ĠliĠliangĠ": 6601,
      "chuĠzhangĠ": 6602,
      "linĠsiĠ": 6603,
      "juĠbenĠ": 6604,
      "jiaoĠduĠ": 6605,
      "tianĠzhuĠ": 6606,
      "piĠzhun": 6607,
      "Ġshuang": 6608,
      "Ġ2017ĠnianĠ": 6609,
      "luoĠliĠdaĠ": 6610,
      "ĠdiĠdiĠ": 6611,
      "xiaoĠyingĠ": 6612,
      "ĠzuĠzhiĠ": 6613,
      "1958ĠnianĠ": 6614,
      "ĠĠĠdongĠ": 6615,
      "suĠliĠ": 6616,
      "shangĠxianĠ": 6617,
      "zaoĠchengĠdeĠ": 6618,
      "ĠshiĠjianĠzhuĠ": 6619,
      "banĠjiĠ": 6620,
      "shouĠboĠ": 6621,
      "zhangĠziĠ": 6622,
      "huĠlianĠ": 6623,
      "Ġtang": 6624,
      "Ġ2018ĠnianĠ": 6625,
      "ĠzaĠzhiĠ": 6626,
      "aoĠerĠ": 6627,
      "zhanĠmuĠsiĠ": 6628,
      "aiĠliĠ": 6629,
      "1979ĠnianĠ": 6630,
      "fuĠshuĠ": 6631,
      "yunĠdeĠ": 6632,
      "touĠxianĠ": 6633,
      "1972ĠnianĠ": 6634,
      "luĠzhanĠ": 6635,
      "ĠhouĠzheĠ": 6636,
      "ĠĠĠgeĠrenĠ": 6637,
      "dingĠjiĠ": 6638,
      "ĠweiĠbeiĠ": 6639,
      "yunĠyongĠ": 6640,
      "ĠhuoĠshiĠ": 6641,
      "ĠĠĠduiĠ": 6642,
      "ĠĠĠnanĠ": 6643,
      "baĠerĠ": 6644,
      "ĠpuĠtaoĠ": 6645,
      "Ġpeng": 6646,
      "maĠshiĠ": 6647,
      "huaiĠyiĠ": 6648,
      "ĠdianĠshiĠ": 6649,
      "ĠĠĠbaĠ": 6650,
      "xiaĠzaiĠ": 6651,
      "xuĠjiĠ": 6652,
      "ĠyiĠdongĠ": 6653,
      "ĠweiĠyuĠzhongĠguoĠ": 6654,
      "guanĠjiĠ": 6655,
      "baoĠhu": 6656,
      "ĠyingĠwenĠ": 6657,
      "canĠyiĠ": 6658,
      "huoĠcheĠ": 6659,
      "qiangĠduĠ": 6660,
      "ĠciĠnianĠ": 6661,
      "chaiĠ": 6662,
      "ĠdiĠyaĠ": 6663,
      "miĠniĠ": 6664,
      "ĠaiĠerĠ": 6665,
      "shaoĠdeĠ": 6666,
      "ĠzhiĠbuĠ": 6667,
      "xinĠguanĠ": 6668,
      "huoĠbiĠ": 6669,
      "ĠchunĠ": 6670,
      "zhaĠdanĠ": 6671,
      "cuĠ": 6672,
      "jiaoĠchaĠ": 6673,
      "leiĠsiĠdeĠ": 6674,
      "chuanĠmeiĠ": 6675,
      "Ġ25": 6676,
      "juĠbanĠdeĠ": 6677,
      "minĠzu": 6678,
      "ĠgaiĠbianĠ": 6679,
      "ĠxuĠyaoĠ": 6680,
      "ĠhangĠ": 6681,
      "ĠyanĠjiuĠ": 6682,
      "daoĠzaiĠ": 6683,
      "luoĠshiĠ": 6684,
      "xueĠkeĠ": 6685,
      "naĠxiaĠ": 6686,
      "ĠĠĠN": 6687,
      "diĠqiĠ": 6688,
      "bingĠduĠ": 6689,
      "ĠxinĠwenĠ": 6690,
      "xingĠzhengĠquĠ": 6691,
      "Ã©Ġ": 6692,
      "ĠĠĠzengĠzuĠ": 6693,
      "lieĠshiĠ": 6694,
      "17Ġ": 6695,
      "ĠzhongĠxingĠ": 6696,
      "xiĠnanĠbuĠ": 6697,
      "taiĠhouĠ": 6698,
      "zuiĠzao": 6699,
      "ĠĠĠ2009": 6700,
      "ĠmingĠzhiĠ": 6701,
      "wuĠyueĠ": 6702,
      "zhengĠjiĠ": 6703,
      "ĠshiĠyiĠkeĠ": 6704,
      "xinĠjiaĠpo": 6705,
      "yaoĠshiĠ": 6706,
      "ganĠyuĠ": 6707,
      "xiangĠfaĠ": 6708,
      "tiĠchuĠdeĠ": 6709,
      "canĠtingĠ": 6710,
      "Ġ35": 6711,
      "faĠliĠ": 6712,
      "luoĠyuĠ": 6713,
      "ĠdaĠbuĠfen": 6714,
      "pinĠdeĠ": 6715,
      "ĠrenĠweiĠshiĠ": 6716,
      "juĠban": 6717,
      "taiĠkongĠ": 6718,
      "Ġ2006": 6719,
      "xiĠyouĠ": 6720,
      "chuĠguoĠ": 6721,
      "xueĠliĠ": 6722,
      "zheĠheĠ": 6723,
      "baiĠyuĠ": 6724,
      "jueĠsai": 6725,
      "ĠshiĠshiĠyongĠ": 6726,
      "zongĠyiĠ": 6727,
      "zongĠrenĠkouĠ": 6728,
      "teĠquĠ": 6729,
      "zhuanĠxieĠ": 6730,
      "qingĠzhuĠ": 6731,
      "ĠbingĠbeiĠ": 6732,
      "faĠxianĠdeĠ": 6733,
      "jinĠrong": 6734,
      "ĠxiĠyinĠ": 6735,
      "1ĠgeĠ": 6736,
      "Ġ29": 6737,
      "ĠĠĠhouĠ": 6738,
      "jiangĠliĠ": 6739,
      "ĠzhongĠdianĠ": 6740,
      "zhuĠdaoĠ": 6741,
      "OĠ": 6742,
      "ĠĠĠs": 6743,
      "xueĠjiĠ": 6744,
      "tongĠxinĠ": 6745,
      "meiĠjunĠ": 6746,
      "suiĠran": 6747,
      "aĠgenĠ": 6748,
      "Ġ2004ĠnianĠ": 6749,
      "shangĠwangĠ": 6750,
      "Ġmao": 6751,
      "baĠdeĠ": 6752,
      "chengĠleĠ": 6753,
      "jiaoĠhuanĠ": 6754,
      "wuĠzhengĠzhuangĠganĠranĠzheĠ": 6755,
      "Ġ2021ĠnianĠ": 6756,
      "xingĠshiĠdeĠ": 6757,
      "miĠsiĠ": 6758,
      "suĠzhiĠ": 6759,
      "touĠdeĠ": 6760,
      "ĠmaĠliĠ": 6761,
      "sheĠjiaoĠ": 6762,
      "llĠ": 6763,
      "ĠyiĠgongĠ": 6764,
      "ĠchuĠbanĠ": 6765,
      "9ĠrenĠ": 6766,
      "suiĠzheĠ": 6767,
      "ĠĠĠliuĠ": 6768,
      "ĠyiĠqianĠ": 6769,
      "ĠdiĠzaiĠ": 6770,
      "xinĠjianĠ": 6771,
      "zuĠjieĠ": 6772,
      "ĠdeĠyiĠyuanĠ": 6773,
      "Ġshui": 6774,
      "Ġshun": 6775,
      "juĠzhiĠ": 6776,
      "dianĠweiĠ": 6777,
      "shenĠyuĠ": 6778,
      "ĠshiĠrenĠminĠ": 6779,
      "xianĠzhiĠxianĠ": 6780,
      "xianĠliĠ": 6781,
      "duiĠjiĠ": 6782,
      "daĠxiaoĠ": 6783,
      "geĠziĠ": 6784,
      "Ġ27": 6785,
      "ĠweiĠyiĠ": 6786,
      "ĠĠĠtianĠ": 6787,
      "cheĠdiĠ": 6788,
      "qiĠzhongĠ": 6789,
      "fangĠmian": 6790,
      "duanĠpianĠ": 6791,
      "teĠheĠ": 6792,
      "chuanĠqiĠ": 6793,
      "faĠsheng": 6794,
      "guĠlaĠ": 6795,
      "huangĠseĠ": 6796,
      "minĠyiĠ": 6797,
      "zhengĠquĠ": 6798,
      "biĠxu": 6799,
      "ĠĠĠshiĠyongĠ": 6800,
      "yongĠzaiĠ": 6801,
      "ĠdeĠhuaĠ": 6802,
      "huoĠshengĠ": 6803,
      "teĠdianĠ": 6804,
      "ĠtaĠheĠ": 6805,
      "Ġ60": 6806,
      "Ġ2020ĠnianĠ": 6807,
      "shouĠbuĠ": 6808,
      "duĠguoĠ": 6809,
      "zhangĠzhiĠ": 6810,
      "zanĠshiĠ": 6811,
      "1960ĠnianĠ": 6812,
      "qiĠlaiĠ": 6813,
      "xiĠbeiĠbuĠ": 6814,
      "zuiĠdiĠ": 6815,
      "siĠdaĠ": 6816,
      "luoĠchengĠ": 6817,
      "zuiĠzaoĠ": 6818,
      "yunĠdongĠdeĠ": 6819,
      "bangĠqiuĠ": 6820,
      "buĠdeĠcunĠzhuangĠ": 6821,
      "5ĠmiĠ": 6822,
      "linĠjinĠ": 6823,
      "gaoĠduĠweiĠ": 6824,
      "ĠyouĠzhuĠ": 6825,
      "ĠnengĠ": 6826,
      "laiĠyuĠ": 6827,
      "leĠyuanĠ": 6828,
      "gangĠkouĠ": 6829,
      "xunĠlian": 6830,
      "gongĠyuanĠqianĠ": 6831,
      "ciĠdiĠ": 6832,
      "alĠĠĠ": 6833,
      "1976ĠnianĠ": 6834,
      "ĠshiĠhouĠ": 6835,
      "wuĠdiĠ": 6836,
      "xinĠjiangĠ": 6837,
      "anĠzhiĠ": 6838,
      "chengĠjiuĠ": 6839,
      "gongĠzuoĠshiĠ": 6840,
      "ĠshuangĠfangĠ": 6841,
      "ĠgongĠyeĠ": 6842,
      "lingĠchenĠ": 6843,
      "danĠdaĠ": 6844,
      "yongĠjiĠ": 6845,
      "1980ĠnianĠdaiĠ": 6846,
      "ĠyiĠbianĠ": 6847,
      "qiĠcheĠ": 6848,
      "faĠtingĠ": 6849,
      "zĠ": 6850,
      "23Ġ": 6851,
      "zhongĠhuaĠminĠguoĠ": 6852,
      "xianĠchengĠ": 6853,
      "shanĠmaiĠ": 6854,
      "ĠdeĠyiĠxieĠ": 6855,
      "chuĠbanĠsheĠ": 6856,
      "jingĠneiĠgongĠyouĠ": 6857,
      "dangĠnianĠ": 6858,
      "sanĠzhongĠ": 6859,
      "hanĠziĠ": 6860,
      "ĠgeĠshouĠ": 6861,
      "Ġì": 6862,
      "ĠceĠ": 6863,
      "huiĠweiĠ": 6864,
      "1920ĠnianĠ": 6865,
      "jiangĠshuĠ": 6866,
      "sanĠmingĠ": 6867,
      "Ġ26": 6868,
      "daoĠyouĠ": 6869,
      "xinĠjieĠ": 6870,
      "ĠxiangĠmuĠ": 6871,
      "houĠjiĠ": 6872,
      "xiaoĠliĠyuĠ": 6873,
      "shengĠdaoĠ": 6874,
      "ĠjiaĠlaĠ": 6875,
      "ĠcaiĠyongĠ": 6876,
      "ĠzhuanĠjiĠ": 6877,
      "qiĠhouĠ": 6878,
      "daĠdiĠ": 6879,
      "xianĠshangĠ": 6880,
      "chengĠzhiĠweiĠ": 6881,
      "lieĠchuĠ": 6882,
      "ĠzhaoĠheĠ": 6883,
      "xiuĠdaoĠ": 6884,
      "ĠdaĠjiaĠ": 6885,
      "changĠbiĠsaiĠ": 6886,
      "ĠheĠliuĠ": 6887,
      "zanĠtingĠ": 6888,
      "ĠĠĠdaoĠ": 6889,
      "biĠliĠshiĠ": 6890,
      "haiĠzaiĠ": 6891,
      "baiĠkeĠ": 6892,
      "VĠ": 6893,
      "ruanĠtiĠ": 6894,
      "jianĠduĠ": 6895,
      "yeĠfuĠ": 6896,
      "laiĠyinĠ": 6897,
      "ĠtaĠyouĠ": 6898,
      "ĠliangĠgeĠ": 6899,
      "ĠerĠgaiĠdiĠdeĠ": 6900,
      "tongĠheĠ": 6901,
      "ĠdaĠjiangĠ": 6902,
      "ĠdanĠyinĠ": 6903,
      "henĠkuaiĠ": 6904,
      "jinĠyuĠ": 6905,
      "ĠtongĠyiĠ": 6906,
      "Ġi": 6907,
      "Ġtao": 6908,
      "huoĠzaiĠ": 6909,
      "duiĠheĠ": 6910,
      "tiĠdaiĠ": 6911,
      "qianĠtingĠ": 6912,
      "ĠĠĠgaiĠyaoĠ": 6913,
      "thĠ": 6914,
      "ĠbuĠdaoĠ": 6915,
      "xiangĠyingĠ": 6916,
      "ĠqiĠbingĠ": 6917,
      "ĠweiĠfuĠqiĠyuĠgang": 6918,
      "faĠjiĠ": 6919,
      "yaĠrenĠ": 6920,
      "1990ĠnianĠdaiĠ": 6921,
      "ĠliĠfuĠ": 6922,
      "jingĠguanĠ": 6923,
      "qianĠjinĠ": 6924,
      "ĠtaĠmenĠzaiĠ": 6925,
      "aoĠdeĠ": 6926,
      "duiĠdiĠ": 6927,
      "tanĠheĠ": 6928,
      "chengĠquĠ": 6929,
      "wangĠwangĠ": 6930,
      "ĠzuiĠchuĠ": 6931,
      "Ġguang": 6932,
      "queĠbaoĠ": 6933,
      "faĠdongĠjiĠ": 6934,
      "maĠtouĠ": 6935,
      "anĠliĠ": 6936,
      "xingĠyouĠ": 6937,
      "taĠyiĠ": 6938,
      "pinĠzhongĠ": 6939,
      "qunĠtiĠ": 6940,
      "ĠqiĠheĠ": 6941,
      "bianĠyuanĠ": 6942,
      "cĠĠĠ": 6943,
      "buĠmenĠ": 6944,
      "yunĠheĠ": 6945,
      "naĠheĠ": 6946,
      "fuĠhaoĠ": 6947,
      "pingĠyuanĠ": 6948,
      "ĠdeĠshiĠjiĠ": 6949,
      "ĠnongĠ": 6950,
      "shuĠchuĠ": 6951,
      "oĠĠĠ": 6952,
      "ĠjinĠshiĠ": 6953,
      "changĠjiĠ": 6954,
      "kuoĠjianĠ": 6955,
      "ĠyueĠduiĠ": 6956,
      "ĠtaĠrenĠweiĠ": 6957,
      "dianĠshiĠjieĠ": 6958,
      "siĠlanĠ": 6959,
      "ĠĠĠjiaĠtingĠ": 6960,
      "ĠxiĠtongĠdeĠ": 6961,
      "juĠyuanĠ": 6962,
      "eĠguoĠ": 6963,
      "Ġ2002ĠnianĠ": 6964,
      "yeĠkeĠyiĠ": 6965,
      "guiĠfanĠ": 6966,
      "fuĠza": 6967,
      "wuĠshuĠ": 6968,
      "quĠfenĠ": 6969,
      "sheĠdingĠ": 6970,
      "leĠyiĠxieĠ": 6971,
      "Ġ40": 6972,
      "ĠĠĠi": 6973,
      "ĠĠĠshouĠ": 6974,
      "jiuĠzaiĠ": 6975,
      "ĠxianĠweiĠ": 6976,
      "daĠshiĠguanĠ": 6977,
      "riĠbenĠdeĠ": 6978,
      "danĠyiĠ": 6979,
      "ĠliĠliĠ": 6980,
      "jiaoĠtang": 6981,
      "senĠlin": 6982,
      "ĠRo": 6983,
      "maĠkeĠsiĠ": 6984,
      "qiuĠshiĠ": 6985,
      "ĠnianĠqingĠ": 6986,
      "jieĠduan": 6987,
      "tuiĠguangĠ": 6988,
      "ĠzhongĠguoĠrenĠminĠjieĠfangĠjunĠ": 6989,
      "xuanĠshiĠ": 6990,
      "fuĠmuĠ": 6991,
      "wuĠzhuang": 6992,
      "saiĠerĠweiĠ": 6993,
      "gengĠduoĠdeĠ": 6994,
      "changĠduĠ": 6995,
      "canĠshuĠ": 6996,
      "tieĠluĠcheĠzhanĠ": 6997,
      "ĠMi": 6998,
      "ĠĠĠwangĠ": 6999,
      "wangĠweiĠ": 7000,
      "laĠweiĠ": 7001,
      "peiĠbeiĠ": 7002,
      "fenĠpeiĠ": 7003,
      "yaĠmuĠ": 7004,
      "ĠcunĠ": 7005,
      "ĠyiĠmeiĠ": 7006,
      "ĠyouĠliangĠ": 7007,
      "ĠzhongĠjianĠ": 7008,
      "beiĠjing": 7009,
      "qianĠshenĠ": 7010,
      "chuangĠzuoĠdeĠ": 7011,
      "duoĠerĠ": 7012,
      "zhongĠbuĠ": 7013,
      "beiĠdaĠ": 7014,
      "ĠqiĠzhong": 7015,
      "suiĠranĠ": 7016,
      "Ġ1970": 7017,
      "ĠbuĠsiĠ": 7018,
      "shangĠzhenĠ": 7019,
      "baoĠhan": 7020,
      "yeĠjianĠ": 7021,
      "yeĠshengĠyaĠ": 7022,
      "duiĠfangĠ": 7023,
      "maiĠdeĠ": 7024,
      "zeĠdongĠ": 7025,
      "zhangĠjiĠ": 7026,
      "dengĠyuĠ": 7027,
      "chengĠweiĠyiĠ": 7028,
      "chĠ": 7029,
      "yanĠjingĠ": 7030,
      "banĠjiangĠ": 7031,
      "buĠdeĠbuĠ": 7032,
      "cengĠshiĠ": 7033,
      "douĠbeiĠ": 7034,
      "ĠzaiĠneiĠdeĠ": 7035,
      "dengĠchangĠ": 7036,
      "Ġ30Ġ": 7037,
      "ĠsunĠ": 7038,
      "shanĠdiĠ": 7039,
      "chuĠziĠ": 7040,
      "tuĠxiangĠ": 7041,
      "ĠgongĠqingĠ": 7042,
      "anĠjiĠ": 7043,
      "wenĠjiĠ": 7044,
      "touĠbuĠ": 7045,
      "junĠbuĠ": 7046,
      "keĠyunĠ": 7047,
      "teĠlaĠ": 7048,
      "suĠlian": 7049,
      "congĠweiĠ": 7050,
      "huangĠjinĠ": 7051,
      "ĠjieĠshuĠ": 7052,
      "lvĠseĠ": 7053,
      "ĠBĠ": 7054,
      "vĠ": 7055,
      "xingĠliĠ": 7056,
      "yeĠshengĠ": 7057,
      "zheĠyangĠ": 7058,
      "banĠyanĠ": 7059,
      "kaiĠgongĠ": 7060,
      "Ġsai": 7061,
      "duĠjiĠ": 7062,
      "nanĠsiĠ": 7063,
      "1956ĠnianĠ": 7064,
      "Ġ45": 7065,
      "ĠshiĠshiĠshangĠ": 7066,
      "aĠlaĠbo": 7067,
      "shenĠkeĠ": 7068,
      "chenĠjiĠ": 7069,
      "ĠzaiĠheĠ": 7070,
      "riĠbaoĠ": 7071,
      "dangĠtianĠ": 7072,
      "ĠziĠyuanĠ": 7073,
      "beiĠliĠ": 7074,
      "zheĠzhiĠ": 7075,
      "cheĠshiĠ": 7076,
      "1964ĠnianĠ": 7077,
      "zhuĠceĠ": 7078,
      "ĠxiĠanĠ": 7079,
      "xieĠshangĠ": 7080,
      "chiĠxu": 7081,
      "Ġtun": 7082,
      "leĠdiĠ": 7083,
      "xianĠdai": 7084,
      "jinĠquĠ": 7085,
      "fenĠzhiĠyiĠ": 7086,
      "ĠdeĠjiĠhuaĠ": 7087,
      "quĠyouĠ": 7088,
      "luĠshangĠ": 7089,
      "haoĠyouĠ": 7090,
      "ĠqiĠdongĠ": 7091,
      "seĠlie": 7092,
      "ĠfuĠzeĠguanĠxiaĠ": 7093,
      "Ġbao": 7094,
      "muĠheĠ": 7095,
      "waiĠweiĠ": 7096,
      "ĠshiĠshiĠjiĠ": 7097,
      "ĠÏ": 7098,
      "quanĠjiĠ": 7099,
      "dengĠshiĠ": 7100,
      "zhuanĠweiĠ": 7101,
      "ĠyiĠkeĠ": 7102,
      "dongĠxianĠ": 7103,
      "xiaoĠjieĠ": 7104,
      "wanĠliĠ": 7105,
      "weiĠyuanĠ": 7106,
      "ĠĠĠchengĠ": 7107,
      "ĠĠĠzhangĠ": 7108,
      "zeĠyuĠ": 7109,
      "ĠyiĠnian": 7110,
      "xiangĠqiĠ": 7111,
      "qingĠchaoĠ": 7112,
      "haoĠpingĠ": 7113,
      "Ġpi": 7114,
      "ĠĠĠguĠ": 7115,
      "1968ĠnianĠ": 7116,
      "sectionĠĠĠ": 7117,
      "fuĠerĠ": 7118,
      "zhengĠshuĠ": 7119,
      "cheĠduiĠ": 7120,
      "quĠzhongĠ": 7121,
      "duiĠzhiĠ": 7122,
      "shaĠdeĠ": 7123,
      "daĠduoĠ": 7124,
      "fanĠying": 7125,
      "zongĠjianĠ": 7126,
      "bingĠzaiĠ": 7127,
      "ĠqiĠxiĠzaiĠ": 7128,
      "mianĠtiĠ": 7129,
      "ĠzhongĠqiĠ": 7130,
      "xiaoĠliangĠ": 7131,
      "hangĠyeĠ": 7132,
      "teĠleiĠ": 7133,
      "xuanĠchengĠ": 7134,
      "ĠbaoĠhuĠ": 7135,
      "ĠbingĠbuĠ": 7136,
      "ĠsectionĠĠĠ": 7137,
      "biaoĠjiĠ": 7138,
      "lieĠsiĠ": 7139,
      "yuanĠbenĠ": 7140,
      "shouĠshuĠ": 7141,
      "laiĠnaĠ": 7142,
      "ĠgeĠleiĠ": 7143,
      "feiĠlvĠbin": 7144,
      "zhanĠweiĠyuĠ": 7145,
      "fengĠshiĠ": 7146,
      "zongĠzhiĠ": 7147,
      "ĠheĠqiĠtaĠ": 7148,
      "haiĠshangĠ": 7149,
      "tuĠchuĠ": 7150,
      "ĠgongĠkaiĠ": 7151,
      "canĠjia": 7152,
      "ĠfenĠbieĠ": 7153,
      "daiĠbiaoĠtuanĠ": 7154,
      "ĠlianĠjieĠ": 7155,
      "ĠĠĠranĠerĠ": 7156,
      "changĠdaĠ": 7157,
      "jiangĠyouĠ": 7158,
      "baiĠzhiĠ": 7159,
      "50Ġ": 7160,
      "niaoĠleiĠ": 7161,
      "ĠĠĠguangĠ": 7162,
      "zhanĠyouĠ": 7163,
      "ĠshiĠxiĠ": 7164,
      "ĠqiĠzhongĠnanĠxingĠ": 7165,
      "ĠjiangĠsuĠ": 7166,
      "niĠxiĠyaĠ": 7167,
      "1981ĠnianĠ": 7168,
      "jinĠzhanĠ": 7169,
      "baoĠzha": 7170,
      "fenĠsiĠ": 7171,
      "ĠsiĠdaĠ": 7172,
      "baiĠwanĠ": 7173,
      "haiĠdiĠ": 7174,
      "xieĠweiĠ": 7175,
      "moĠniĠ": 7176,
      "zhongĠguoĠrenĠminĠ": 7177,
      "Ġwa": 7178,
      "ĠjianĠliĠ": 7179,
      "Ġ8Ġ": 7180,
      "liangĠbuĠ": 7181,
      "yanĠanĠ": 7182,
      "shenĠzhenĠ": 7183,
      "puĠtaoĠyaĠ": 7184,
      "terĠ": 7185,
      "xingĠdong": 7186,
      "gongĠdaĠ": 7187,
      "ĠĠĠgenĠjuĠ2020ĠnianĠmeiĠguoĠrenĠkouĠpuĠchaĠdeĠshuĠjuĠ": 7188,
      "juĠweiĠ": 7189,
      "luĠyiĠsiĠ": 7190,
      "xiaĠdiĠquĠ": 7191,
      "dingĠxingĠ": 7192,
      "seĠĠĠ": 7193,
      "ĠshiĠbuĠ": 7194,
      "geĠbuĠ": 7195,
      "changĠjiangĠ": 7196,
      "ĠzuiĠjiaĠ": 7197,
      "zaiĠyiĠgeĠ": 7198,
      "zhanĠweiĠ": 7199,
      "ĠguoĠwuĠyuanĠ": 7200,
      "daoĠdanĠ": 7201,
      "laiĠziĠyuĠ": 7202,
      "feiĠyongĠ": 7203,
      "ĠliuĠyuĠ": 7204,
      "Ġfou": 7205,
      "Ġ2024": 7206,
      "ĠCo": 7207,
      "ĠĠĠjingĠjiĠ": 7208,
      "houĠzhiĠ": 7209,
      "1948ĠnianĠ": 7210,
      "xiaoĠxiangĠ": 7211,
      "ĠĠĠ2019ĠnianĠ": 7212,
      "gongĠyueĠ": 7213,
      "jiaoĠdiĠ": 7214,
      "chuĠxianĠdeĠ": 7215,
      "ĠSĠ": 7216,
      "biĠerĠ": 7217,
      "luĠheĠ": 7218,
      "ĠyouĠsuoĠ": 7219,
      "zhengĠmianĠ": 7220,
      "gongĠkaiĠsaiĠ": 7221,
      "Ġ2000ĠnianĠ": 7222,
      "haĠliĠ": 7223,
      "ĠguoĠjiaĠdeĠ": 7224,
      "ziĠbenĠ": 7225,
      "ĠjinĠshuĠ": 7226,
      "kuoĠzhangĠ": 7227,
      "erĠĠĠ": 7228,
      "dangĠzaiĠ": 7229,
      "ĠyiĠheĠ": 7230,
      "Ġ2005": 7231,
      "tianĠjiaĠ": 7232,
      "qiongĠ": 7233,
      "xueĠyeĠ": 7234,
      "houĠbuĠ": 7235,
      "fuĠzhouĠ": 7236,
      "yuanĠzhuĠminĠ": 7237,
      "ĠweiĠyuanĠhuiĠweiĠyuanĠ": 7238,
      "eĠdeĠ": 7239,
      "Ġ200": 7240,
      "shuĠdeĠzhiĠwuĠ": 7241,
      "wangĠjiĠ": 7242,
      "keĠerĠ": 7243,
      "taiĠnanĠ": 7244,
      "xuanĠjuĠzhongĠ": 7245,
      "ĠĠĠqiĠzhongĠ": 7246,
      "beiĠyueĠ": 7247,
      "faĠheĠ": 7248,
      "huoĠliĠ": 7249,
      "shuiĠdeĠ": 7250,
      "ganĠxianĠ": 7251,
      "juĠmin": 7252,
      "leĠduiĠ": 7253,
      "yanĠjiangĠ": 7254,
      "zhanĠshuĠ": 7255,
      "ĠshiĠyiĠzuoĠ": 7256,
      "Ġ1946": 7257,
      "duoĠshiĠ": 7258,
      "chaĠshiĠ": 7259,
      "ĠshiĠdeĠshiĠ": 7260,
      "ĠjiĠjinĠhuiĠ": 7261,
      "ĠkaoĠ": 7262,
      "zuĠrenĠ": 7263,
      "laiĠkeĠ": 7264,
      "hantĠ": 7265,
      "ĠzaiĠbuĠ": 7266,
      "zheĠyangĠdeĠ": 7267,
      "nanĠjiĠzhouĠdeĠ": 7268,
      "ganĠdeĠ": 7269,
      "woĠerĠ": 7270,
      "guĠdianĠ": 7271,
      "shaoĠnvĠ": 7272,
      "chengĠliĠhouĠ": 7273,
      "guĠfenĠyouĠxianĠgongĠsiĠ": 7274,
      "daĠguiĠmoĠ": 7275,
      "jianĠkang": 7276,
      "beiĠpoĠ": 7277,
      "ĠdiĠtuĠ": 7278,
      "wenĠtiĠdeĠ": 7279,
      "meiĠguo": 7280,
      "ĠqianĠwangĠ": 7281,
      "ĠweiĠfuĠqiĠyuĠgangĠ": 7282,
      "Ġlei": 7283,
      "ĠhantĠ": 7284,
      "duoĠliĠyaĠ": 7285,
      "gongĠanĠ": 7286,
      "ĠguoĠgongĠ": 7287,
      "huiĠdaĠ": 7288,
      "chuĠchangĠ": 7289,
      "zongĠcaiĠ": 7290,
      "ĠniuĠ": 7291,
      "yaĠzhongĠ": 7292,
      "yangĠheĠ": 7293,
      "1952ĠnianĠ": 7294,
      "ĠzhongĠwenĠ": 7295,
      "keĠluoĠ": 7296,
      "canĠkao": 7297,
      "reĠdaiĠfengĠbaoĠ": 7298,
      "huĠxiĠ": 7299,
      "zuoĠzhiĠ": 7300,
      "shuaiĠling": 7301,
      "ĠyuĠdiĠ": 7302,
      "ĠtaĠjiĠ": 7303,
      "ĠĠĠzhuĠyaoĠ": 7304,
      "bieĠdeĠ": 7305,
      "xinĠtaiĠ": 7306,
      "ĠguanĠfangĠ": 7307,
      "ĠtouĠguoĠ": 7308,
      "luoĠyiĠ": 7309,
      "menĠshiĠ": 7310,
      "1975ĠnianĠ": 7311,
      "gongĠjiaoĠ": 7312,
      "zhuĠbanĠ": 7313,
      "ĠshiĠyiĠzhiĠ": 7314,
      "1966ĠnianĠ": 7315,
      "zuoĠfaĠ": 7316,
      "ĠdaĠerĠ": 7317,
      "naĠshengĠ": 7318,
      "meiĠguoĠrenĠ": 7319,
      "zhuanĠyongĠ": 7320,
      "cunĠzaiĠdeĠ": 7321,
      "100Ġ": 7322,
      "ĠjinĠru": 7323,
      "xianĠdeĠyiĠgeĠfeiĠjianĠzhiĠdiĠquĠ": 7324,
      "xĠĠĠ": 7325,
      "Ġ2022ĠnianĠ": 7326,
      "ĠĠĠfanĠ": 7327,
      "nuoĠyiĠ": 7328,
      "ĠshiĠfaĠ": 7329,
      "ĠzhiĠshaoĠ": 7330,
      "fangĠmiĠ": 7331,
      "hangĠtianĠ": 7332,
      "dingĠzaiĠ": 7333,
      "qunĠdeĠ": 7334,
      "ĠzhiĠjingĠ": 7335,
      "1Ġri": 7336,
      "youĠyiĠxieĠ": 7337,
      "ĠlingĠwai": 7338,
      "niangĠ": 7339,
      "luĠwa": 7340,
      "ĠxingĠjianĠ": 7341,
      "ĠĠĠ2007": 7342,
      "xueĠbuĠ": 7343,
      "meiĠshiĠ": 7344,
      "lanĠyuĠ": 7345,
      "ĠyiĠxueĠ": 7346,
      "raoĠtaiĠyangĠ": 7347,
      "liangĠziĠ": 7348,
      "maĠlaiĠ": 7349,
      "ĠnianĠyiĠlaiĠ": 7350,
      "5ĠgeĠ": 7351,
      "eĠweiĠ": 7352,
      "Ġyong": 7353,
      "shangĠweiĠyouĠ": 7354,
      "baoĠheĠ": 7355,
      "duiĠkangĠ": 7356,
      "Ġ2003ĠnianĠ": 7357,
      "yingĠerĠ": 7358,
      "jiuĠyouĠ": 7359,
      "ĠĠĠ16": 7360,
      "ĠĠĠjiangĠ": 7361,
      "taĠrenĠ": 7362,
      "ĠyiĠdaĠ": 7363,
      "ĠyiĠxiangĠ": 7364,
      "ĠyueĠheĠ": 7365,
      "ciĠquĠ": 7366,
      "duĠhuiĠ": 7367,
      "xieĠdingĠ": 7368,
      "banĠrenĠ": 7369,
      "chuanĠguoĠ": 7370,
      "1947ĠnianĠ": 7371,
      "wuĠgeĠ": 7372,
      "sanĠciĠ": 7373,
      "ĠzheĠyangĠ": 7374,
      "shangĠheĠ": 7375,
      "zongĠhuiĠ": 7376,
      "ĠfaĠzhanĠ": 7377,
      "ĠĠĠ3ĠyueĠ": 7378,
      "IIĠ": 7379,
      "boĠjueĠ": 7380,
      "xuanĠchuĠ": 7381,
      "ĠriĠyouĠ": 7382,
      "ĠxinĠzengĠ": 7383,
      "guoĠjiaĠduiĠ": 7384,
      "ĠĠĠqiĠhouĠ": 7385,
      "fĠ": 7386,
      "1937ĠnianĠ": 7387,
      "ĠshiĠbingĠ": 7388,
      "jiaoĠjieĠ": 7389,
      "haiĠbaĠgaoĠduĠweiĠ": 7390,
      "guangĠdeĠ": 7391,
      "ĠyiĠwaiĠ": 7392,
      "ĠshiĠyongĠleĠ": 7393,
      "ĠdangĠshiĠdeĠ": 7394,
      "jiaoĠyuĠbuĠ": 7395,
      "wuĠyouĠ": 7396,
      "wenĠti": 7397,
      "ĠfuĠqin": 7398,
      "leiĠxingĠdeĠ": 7399,
      "zhuangĠkuang": 7400,
      "ĠdanĠqiĠ": 7401,
      "ĠouĠzhouĠ": 7402,
      "geĠzaiĠ": 7403,
      "wangĠyuĠ": 7404,
      "waiĠxingĠ": 7405,
      "genĠsuiĠ": 7406,
      "ĠyiĠchanĠ": 7407,
      "xingĠzheng": 7408,
      "gongĠjueĠ": 7409,
      "yanĠlunĠ": 7410,
      "ĠsiĠtaĠ": 7411,
      "ĠrenĠminĠbiĠ": 7412,
      "fenĠbieĠweiĠ": 7413,
      "taĠheĠ": 7414,
      "jinĠzaiĠ": 7415,
      "wangĠzhiĠ": 7416,
      "ĠdaoĠyanĠ": 7417,
      "nongĠcun": 7418,
      "ĠdiaoĠ": 7419,
      "ĠbangĠ": 7420,
      "ĠziĠjiĠ": 7421,
      "ĠĠĠyueĠ": 7422,
      "sheĠyingĠ": 7423,
      "lianĠsai": 7424,
      "gaoĠxiaoĠ": 7425,
      "jianĠzhuĠwuĠ": 7426,
      "ĠĠĠfaĠ": 7427,
      "zhanĠchangĠ": 7428,
      "xuanĠju": 7429,
      "ĠpingĠtaiĠ": 7430,
      "ĠdeĠjiĠhuiĠ": 7431,
      "ĠjiangĠqiĠ": 7432,
      "ĠĠĠpingĠjiaĠ": 7433,
      "shuĠmuĠ": 7434,
      "jingĠsaiĠ": 7435,
      "duanĠzan": 7436,
      "ĠdanĠweiĠ": 7437,
      "qiaoĠliangĠ": 7438,
      "xunĠyangĠjianĠ": 7439,
      "ĠpinĠ": 7440,
      "ĠchengĠliĠyuĠ": 7441,
      "ĠĠĠluoĠ": 7442,
      "tuanĠjieĠ": 7443,
      "songĠdaoĠ": 7444,
      "guoĠchengĠ": 7445,
      "shouĠfaĠ": 7446,
      "fenĠjieĠ": 7447,
      "quanĠshuĠ": 7448,
      "ĠdeĠyiĠmeiĠ": 7449,
      "ĠshiĠyiĠdaĠliĠ": 7450,
      "ĠpianĠ": 7451,
      "zhangĠyiĠ": 7452,
      "ĠkeĠluoĠ": 7453,
      "zuiĠzaoĠdeĠ": 7454,
      "cengĠshuiĠyuĠ": 7455,
      "aĠfuĠ": 7456,
      "Ġchao": 7457,
      "ĠĠĠchuĠleĠ": 7458,
      "xinĠzhongĠ": 7459,
      "ĠnianĠlingĠ": 7460,
      "xiaĠyiĠxiaĠdiĠquĠ": 7461,
      "yingĠxiangĠliĠ": 7462,
      "guoĠshiĠqiĠ": 7463,
      "puĠliĠ": 7464,
      "shouĠduanĠ": 7465,
      "pingĠjieĠ": 7466,
      "ĠQ": 7467,
      "ĠleĠ": 7468,
      "ciĠzhongĠ": 7469,
      "xunĠzhaoĠ": 7470,
      "zhuanĠdeĠxiaoĠxingĠxingĠ": 7471,
      "ĠquĠdeĠ": 7472,
      "beiĠheĠ": 7473,
      "faĠweiĠ": 7474,
      "jiangĠbeiĠ": 7475,
      "guoĠjiĠjiĠchangĠ": 7476,
      "huaĠerĠ": 7477,
      "wangĠsiĠ": 7478,
      "1954ĠnianĠ": 7479,
      "ĠyiĠerĠ": 7480,
      "guoĠwuĠyuanĠ": 7481,
      "wuĠzhongĠdeĠ": 7482,
      "ĠdiĠdianĠ": 7483,
      "ĠdiĠliuĠ": 7484,
      "juĠdaĠdeĠ": 7485,
      "ruĠyuĠ": 7486,
      "ĠliĠgongĠ": 7487,
      "wangĠziĠ": 7488,
      "ĠdeĠshiĠwuĠ": 7489,
      "zheĠjiangĠshengĠ": 7490,
      "ĠĠĠ5ĠyueĠ": 7491,
      "zheĠyuĠ": 7492,
      "ĠjiĠxingĠ": 7493,
      "zhengĠqiĠ": 7494,
      "huangĠshiĠ": 7495,
      "Ġshen": 7496,
      "yaĠzhiĠ": 7497,
      "ruĠyiĠ": 7498,
      "ĠzaiĠjinĠ": 7499,
      "jiaĠmengĠ": 7500,
      "wangĠshangĠ": 7501,
      "zuĠxieĠ": 7502,
      "zhengĠshiĠqiĠ": 7503,
      "shanĠdongĠshengĠ": 7504,
      "ĠshiĠbaĠ": 7505,
      "guangĠfan": 7506,
      "aĠliĠ": 7507,
      "Ġmin": 7508,
      "ĠkeĠliĠ": 7509,
      "ĠchuĠrenĠ": 7510,
      "mingĠjuĠrenĠ": 7511,
      "tiĠchuĠleĠ": 7512,
      "anĠzhuang": 7513,
      "Ġhuai": 7514,
      "songĠdeĠ": 7515,
      "llĠĠĠ": 7516,
      "huoĠyunĠ": 7517,
      "lianĠtongĠ": 7518,
      "yaoĠgun": 7519,
      "pĠĠĠ": 7520,
      "shengĠbuĠ": 7521,
      "xiaoĠyouĠ": 7522,
      "laĠerĠ": 7523,
      "guaiĠ": 7524,
      "xianĠzhangĠ": 7525,
      "faĠshengĠdeĠ": 7526,
      "baoĠzhaĠ": 7527,
      "yinĠyongĠ": 7528,
      "ĠsanĠshiĠ": 7529,
      "haoĠyuĠ": 7530,
      "ĠshiĠjiĠdeĠ": 7531,
      "pingĠminĠ": 7532,
      "pingĠjunĠhaiĠbaĠgaoĠduĠweiĠ": 7533,
      "ĠĠĠshenĠ": 7534,
      "xunĠqiuĠ": 7535,
      "liĠlunĠ": 7536,
      "zaoĠshouĠ": 7537,
      "siĠyouĠ": 7538,
      "zhanĠzaiĠ": 7539,
      "gaoĠdiĠ": 7540,
      "duĠduĠ": 7541,
      "danĠshuiĠ": 7542,
      "yangĠxianĠ": 7543,
      "neiĠzhanĠ": 7544,
      "shaoĠjiangĠ": 7545,
      "WĠ": 7546,
      "yinĠzhongĠzaiĠ": 7547,
      "taiĠerĠ": 7548,
      "ruĠshiĠ": 7549,
      "shuoĠdeĠ": 7550,
      "tyĠ": 7551,
      "shenĠmeĠ": 7552,
      "guĠfenĠ": 7553,
      "ĠzheĠciĠ": 7554,
      "ganĠsuĠ": 7555,
      "ĠnianĠqiĠjianĠ": 7556,
      "ĠerĠgaiĠdiĠdeĠpingĠjunĠhaiĠbaĠgaoĠduĠweiĠ": 7557,
      "daĠzaiĠ": 7558,
      "jiangĠzhongĠ": 7559,
      "10ĠnianĠ": 7560,
      "ĠliĠxueĠ": 7561,
      "luoĠzaiĠ": 7562,
      "maĠliĠyaĠ": 7563,
      "chaiĠyouĠjiĠ": 7564,
      "ĠhanĠzuĠ": 7565,
      "2010ĠnianĠmeiĠguoĠrenĠkouĠpuĠchaĠdeĠshuĠjuĠ": 7566,
      "shuoĠshiĠxueĠweiĠ": 7567,
      "yinĠzhongĠzaiĠpeiĠ": 7568,
      "yangĠzhiĠ": 7569,
      "qieĠerĠ": 7570,
      "shunĠshiĠ": 7571,
      "chengĠhuĠ": 7572,
      "juĠtiĠ": 7573,
      "jiaoĠfuĠ": 7574,
      "wenĠhuaĠdeĠ": 7575,
      "boĠluoĠ": 7576,
      "ĠfaĠshengĠ": 7577,
      "ĠbiĠyeĠ": 7578,
      "ĠxueĠshengĠ": 7579,
      "yingĠdiĠ": 7580,
      "daiĠyuĠ": 7581,
      "faĠlingĠ": 7582,
      "baoĠxianĠ": 7583,
      "yingĠzhanĠ": 7584,
      "qingĠxiangĠ": 7585,
      "ĠgaiĠweiĠ": 7586,
      "ĠanĠdeĠ": 7587,
      "zuoĠyuĠ": 7588,
      "suĠshiĠ": 7589,
      "ckĠ": 7590,
      "ĠbuĠneng": 7591,
      "shangĠdianĠ": 7592,
      "ĠdaĠxiĠyangĠ": 7593,
      "zengĠqiangĠ": 7594,
      "ĠX": 7595,
      "Ġchun": 7596,
      "ĠĠĠ2018ĠnianĠ": 7597,
      "banĠyuĠ": 7598,
      "1955ĠnianĠ": 7599,
      "ĠgongĠbuĠ": 7600,
      "renĠgongĠyinĠzhongĠzaiĠpeiĠ": 7601,
      "Ġcu": 7602,
      "anĠzhongĠ": 7603,
      "yiĠshiĠyongĠ": 7604,
      "maoĠxianĠ": 7605,
      "jiangĠtaĠ": 7606,
      "ĠkangĠxiĠ": 7607,
      "Ġ2000": 7608,
      "qingĠyiĠ": 7609,
      "suoĠyiĠ": 7610,
      "naĠruĠ": 7611,
      "ĠbaoĠdaoĠ": 7612,
      "xiangĠshiĠdiĠ": 7613,
      "Ġmu": 7614,
      "Ġcui": 7615,
      "ĠĠĠ2006": 7616,
      "daiĠmaĠ": 7617,
      "banĠciĠ": 7618,
      "Ġruan": 7619,
      "ĠjiĠliĠ": 7620,
      "ĠheĠyueĠ": 7621,
      "mingĠjinĠshiĠ": 7622,
      "jiaoĠzuoĠ": 7623,
      "dianĠyingĠdeĠ": 7624,
      "ĠquanĠzhangĠ": 7625,
      "ĠyuĠciĠtongĠshiĠ": 7626,
      "quĠzaiĠ": 7627,
      "rengĠyouĠ": 7628,
      "1974ĠnianĠ": 7629,
      "chengĠfenĠ": 7630,
      "ĠdaĠlouĠ": 7631,
      "lingĠdaoĠdeĠ": 7632,
      "guiĠzhouĠ": 7633,
      "ĠxianĠdaiĠ": 7634,
      "xunĠhuanĠ": 7635,
      "panĠjueĠ": 7636,
      "ĠĠĠtaiĠwanĠ": 7637,
      "xiangĠzhiĠ": 7638,
      "zhengĠyueĠ": 7639,
      "yeĠzhiĠ": 7640,
      "zhangĠzaiĠ": 7641,
      "zhuĠzhai": 7642,
      "baoĠchi": 7643,
      "diĠyiĠrenĠ": 7644,
      "yanĠjiuĠshengĠ": 7645,
      "ĠnĠ": 7646,
      "fuĠgaiĠ": 7647,
      "faĠzhanĠdeĠ": 7648,
      "zhengĠyuĠ": 7649,
      "duiĠyuanĠ": 7650,
      "caiĠchanĠ": 7651,
      "tuiĠchuĠdeĠ": 7652,
      "Ġxia": 7653,
      "zhuĠruĠ": 7654,
      "benĠxianĠ": 7655,
      "ĠjuĠminĠ": 7656,
      "ĠshengĠzhangĠyuĠ": 7657,
      "canĠguanĠ": 7658,
      "hongĠjunĠ": 7659,
      "chanĠshengĠleĠ": 7660,
      "duoĠfuĠ": 7661,
      "biĠshiĠ": 7662,
      "zhanĠheĠ": 7663,
      "mianĠyuĠ": 7664,
      "zhenĠrenĠ": 7665,
      "junĠtuanĠ": 7666,
      "dianĠziĠyouĠ": 7667,
      "huoĠwuĠ": 7668,
      "xuĠshuĠ": 7669,
      "chĠĠĠ": 7670,
      "teĠshiĠ": 7671,
      "teĠyuĠ": 7672,
      "zhenĠheĠ": 7673,
      "fuĠze": 7674,
      "wanĠquan": 7675,
      "teĠlangĠ": 7676,
      "tanĠdingĠ": 7677,
      "ĠnaĠme": 7678,
      "ĠĠĠX": 7679,
      "yaĠshiĠ": 7680,
      "rangĠtaĠ": 7681,
      "shengĠmuĠ": 7682,
      "tiĠjiaoĠ": 7683,
      "suĠweiĠaiĠ": 7684,
      "shuĠqiĠ": 7685,
      "changĠbeiĠ": 7686,
      "douĠzhengĠ": 7687,
      "Ġãĥ¼": 7688,
      "ĠĠĠ10ĠyueĠ": 7689,
      "luĠzaiĠ": 7690,
      "zhuangĠbingĠduĠ": 7691,
      "zhiĠchiĠ": 7692,
      "jieĠduĠshiĠ": 7693,
      "ĠbeiĠkeĠ": 7694,
      "Ġ000ĠrenĠ": 7695,
      "ĠgongĠjiĠ": 7696,
      "ciĠyouĠ": 7697,
      "yinĠjingĠ": 7698,
      "shangĠzhiĠ": 7699,
      "pingĠshiĠ": 7700,
      "qiangĠjiĠ": 7701,
      "30ĠnianĠ": 7702,
      "kmĠ": 7703,
      "ĠheĠpanĠ": 7704,
      "daĠbuĠ": 7705,
      "jianĠshe": 7706,
      "yingĠduiĠ": 7707,
      "ĠjiaĠjingĠ": 7708,
      "ĠjuĠqingĠ": 7709,
      "ĠsuĠlianĠ": 7710,
      "zhengĠliĠ": 7711,
      "dongĠniĠ": 7712,
      "jiaoĠkeĠ": 7713,
      "ĠfuĠleiĠ": 7714,
      "chuĠxianĠleĠ": 7715,
      "huaĠshengĠdunĠ": 7716,
      "dongĠcheĠ": 7717,
      "yanĠhuaĠ": 7718,
      "leĠweiĠ": 7719,
      "aiĠguoĠ": 7720,
      "shengĠzhongĠ": 7721,
      "kuĠdeĠ": 7722,
      "huanĠjieĠ": 7723,
      "fuĠsheĠ": 7724,
      "duiĠhuaĠ": 7725,
      "ĠfaĠbiaoĠ": 7726,
      "gongĠheĠdangĠ": 7727,
      "ĠyouĠtaiĠ": 7728,
      "jianĠzao": 7729,
      "daoĠshangĠ": 7730,
      "chuĠruĠkouĠ": 7731,
      "baoĠzhengĠ": 7732,
      "aiĠqingĠ": 7733,
      "ciĠzhiĠwaiĠ": 7734,
      "ĠĠĠU": 7735,
      "zhuĠguoĠ": 7736,
      "zuĠyuĠ": 7737,
      "ĠrenĠzhongĠgongĠ": 7738,
      "ĠRe": 7739,
      "baĠyueĠ": 7740,
      "moĠqiĠ": 7741,
      "ĠzaiĠgaiĠ": 7742,
      "ĠheĠqiĠ": 7743,
      "yuanĠben": 7744,
      "jinĠqiuĠ": 7745,
      "chongĠqingĠ": 7746,
      "riĠyiĠ": 7747,
      "1977ĠnianĠ": 7748,
      "youĠguanĠ": 7749,
      "shenĠshengĠ": 7750,
      "ĠyinĠfaĠ": 7751,
      "ĠshiĠzhongĠhuaĠrenĠminĠgongĠheĠguoĠ": 7752,
      "zengĠjiaĠleĠ": 7753,
      "renĠminĠdaiĠbiaoĠdaĠhuiĠ": 7754,
      "shengĠchanĠdeĠ": 7755,
      "Ġ80": 7756,
      "ĠĠĠlingĠwaiĠ": 7757,
      "keĠrenĠ": 7758,
      "juĠbeiĠ": 7759,
      "Ġre": 7760,
      "yinĠerĠ": 7761,
      "laĠyuĠ": 7762,
      "buĠluoĠ": 7763,
      "xiaĠfangĠ": 7764,
      "ĠguoĠjiaĠduiĠ": 7765,
      "shouĠheĠ": 7766,
      "chuanĠdiĠ": 7767,
      "siĠtanĠ": 7768,
      "shenĠwangĠ": 7769,
      "baĠlaĠ": 7770,
      "gouĠmai": 7771,
      "aiĠdeĠhuaĠ": 7772,
      "leiĠweiĠ": 7773,
      "kangĠxiĠ": 7774,
      "chaoĠtingĠ": 7775,
      "ĠĠĠ5": 7776,
      "ĠĠĠ2017ĠnianĠ": 7777,
      "yueĠweiĠ": 7778,
      "ĠshiĠyueĠ": 7779,
      "xiangĠmu": 7780,
      "dongĠgongĠ": 7781,
      "fenĠquĠ": 7782,
      "luoĠboĠteĠ": 7783,
      "ĠzhuĠjianĠ": 7784,
      "6ĠgeĠ": 7785,
      "duanĠyuĠ": 7786,
      "hangĠxianĠ": 7787,
      "kanĠdeĠ": 7788,
      "ĠnianĠliĠ": 7789,
      "zongĠtong": 7790,
      "hanĠmoĠdeĠ": 7791,
      "ĠlangĠ": 7792,
      "ĠĠĠdeĠĠĠ": 7793,
      "wangĠyouĠ": 7794,
      "ssĠ": 7795,
      "ĠyiĠxingĠ": 7796,
      "shouĠhaiĠ": 7797,
      "xieĠtiao": 7798,
      "ĠĠĠxiangĠgangĠ": 7799,
      "fenĠqiĠ": 7800,
      "dingĠzhiĠ": 7801,
      "ĠyiĠriĠ": 7802,
      "geĠsiĠ": 7803,
      "jiaoĠdaoĠ": 7804,
      "pinĠlvĠ": 7805,
      "Ġju": 7806,
      "ĠchengĠshiĠ": 7807,
      "longĠshiĠ": 7808,
      "zhuĠdiĠ": 7809,
      "ziĠliao": 7810,
      "ĠerĠhouĠ": 7811,
      "ĠkeĠnengĠshiĠ": 7812,
      "Ġqiao": 7813,
      "ĠĠĠ2016ĠnianĠ": 7814,
      "ĠyouĠyouĠ": 7815,
      "shouĠfeiĠ": 7816,
      "caiĠliao": 7817,
      "canĠmouĠzhangĠ": 7818,
      "xunĠfuĠ": 7819,
      "jianĠguoĠ": 7820,
      "mianĠshangĠ": 7821,
      "ĠxinĠjiaĠ": 7822,
      "ĠbiĠyeĠyuĠ": 7823,
      "ĠaĠlaĠ": 7824,
      "chengĠhaoĠ": 7825,
      "ciĠdaĠ": 7826,
      "meiĠzhou": 7827,
      "ĠlingĠyiĠfangĠmianĠ": 7828,
      "Ġcao": 7829,
      "ĠĠĠshangĠ": 7830,
      "ĠzhiĠluĠ": 7831,
      "ĠliĠxinĠ": 7832,
      "ĠĠĠzhanĠ": 7833,
      "diĠyiĠjiĠ": 7834,
      "kongĠdeĠ": 7835,
      "mingĠluĠ": 7836,
      "huaĠrenĠminĠgongĠheĠ": 7837,
      "nvĠzhuĠjueĠ": 7838,
      "Ġ1938": 7839,
      "jiaoĠheĠ": 7840,
      "naĠsiĠ": 7841,
      "ĠxiĠhuanĠ": 7842,
      "longĠshengĠ": 7843,
      "ĠshengĠzhangĠyuĠhaiĠbaĠ": 7844,
      "pinĠzhiĠ": 7845,
      "zhuiĠsuĠ": 7846,
      "huiĠxiangĠ": 7847,
      "changĠwu": 7848,
      "qianĠhouĠ": 7849,
      "gaoĠyuanĠ": 7850,
      "Ġpan": 7851,
      "fenĠjiĠ": 7852,
      "qianĠzaiĠ": 7853,
      "paiĠdeĠzhuĠ": 7854,
      "ĠshiĠjingĠ": 7855,
      "jieĠguanĠ": 7856,
      "dongĠyuanĠ": 7857,
      "ĠzaiĠyuĠ": 7858,
      "ĠĠĠsuiĠranĠ": 7859,
      "duĠdaĠ": 7860,
      "benĠkeĠ": 7861,
      "louĠdeĠ": 7862,
      "ĠheĠchengĠ": 7863,
      "ĠqiĠchuĠ": 7864,
      "qingĠxuĠ": 7865,
      "ĠmiĠdeĠdiĠquĠ": 7866,
      "1962ĠnianĠ": 7867,
      "zaiĠciĠ": 7868,
      "fuĠyinĠ": 7869,
      "ĠkaiĠfaĠ": 7870,
      "binĠshiĠ": 7871,
      "1971ĠnianĠ": 7872,
      "fenĠxiaoĠ": 7873,
      "haiĠeĠ": 7874,
      "huĠpoĠ": 7875,
      "ĠjianĠsheĠ": 7876,
      "ĠĠĠofĠĠĠtheĠĠĠ": 7877,
      "zhanĠzhengĠzhongĠ": 7878,
      "riĠjiĠ": 7879,
      "yeĠerĠ": 7880,
      "zhuĠliuĠ": 7881,
      "moĠluoĠ": 7882,
      "ĠtianĠjinĠ": 7883,
      "yinĠzhiĠ": 7884,
      "guoĠquĠ": 7885,
      "ĠbuĠdaĠ": 7886,
      "rongĠnaĠ": 7887,
      "xingĠzhengĠzhenĠquĠ": 7888,
      "hanĠyiĠ": 7889,
      "daĠqiĠ": 7890,
      "ĠshiĠzhangĠ": 7891,
      "ĠliĠshiĠdeĠ": 7892,
      "mingĠqueĠ": 7893,
      "ĠdongĠwuĠ": 7894,
      "eĠluoĠsiĠdeĠ": 7895,
      "ĠmaĠlaiĠxiĠyaĠ": 7896,
      "ĠgenĠju": 7897,
      "ĠĠĠtaiĠ": 7898,
      "zhongĠdeĠyiĠ": 7899,
      "20ĠnianĠ": 7900,
      "yeĠzhongĠ": 7901,
      "buĠkeĠ": 7902,
      "shangĠjiaĠ": 7903,
      "qingĠdaoĠ": 7904,
      "anĠzhaoĠ": 7905,
      "xiangĠzhongĠ": 7906,
      "quanĠweiĠ": 7907,
      "leiĠshiĠ": 7908,
      "duiĠzhenĠ": 7909,
      "huĠdongĠ": 7910,
      "ĠshiĠyongĠzheĠ": 7911,
      "ĠboĠchuĠ": 7912,
      "ĠĠĠzongĠ": 7913,
      "shangĠleĠ": 7914,
      "yingĠjunĠ": 7915,
      "zhouĠzhangĠ": 7916,
      "wĠĠĠ": 7917,
      "xunĠdeĠ": 7918,
      "fuĠzhuĠrenĠ": 7919,
      "xiangĠzaiĠ": 7920,
      "feiĠyiĠ": 7921,
      "cengĠrenĠ": 7922,
      "isĠĠĠ": 7923,
      "shengĠjingĠ": 7924,
      "tiĠyanĠ": 7925,
      "fenĠlieĠ": 7926,
      "mingĠyouĠ": 7927,
      "houĠbuĠjiuĠ": 7928,
      "yongĠzhiĠ": 7929,
      "ĠweiĠyaĠ": 7930,
      "gongĠgaoĠ": 7931,
      "zhengĠduoĠ": 7932,
      "ĠwuĠxianĠ": 7933,
      "nvĠhaiĠ": 7934,
      "peiĠyangĠ": 7935,
      "ĠquanĠqiuĠ": 7936,
      "riĠyuĠ": 7937,
      "boĠkeĠ": 7938,
      "zaoĠxingĠ": 7939,
      "guiĠmoĠdeĠ": 7940,
      "tuanĠzhangĠ": 7941,
      "jiuĠrenĠ": 7942,
      "gongĠshangĠ": 7943,
      "zhuĠdongĠ": 7944,
      "xiangĠguan": 7945,
      "huiĠhuaĠ": 7946,
      "shangĠpinĠ": 7947,
      "liangĠceĠ": 7948,
      "yeĠweiĠ": 7949,
      "zuoĠzhongĠ": 7950,
      "qingĠxiĠ": 7951,
      "zhenĠdiĠ": 7952,
      "shengĠfuĠ": 7953,
      "yinĠshua": 7954,
      "Ġning": 7955,
      "chuĠnianĠ": 7956,
      "faĠliĠyaĠ": 7957,
      "daiĠyiĠ": 7958,
      "suanĠfaĠ": 7959,
      "fenĠlanĠ": 7960,
      "shuiĠkuĠ": 7961,
      "ĠqiĠzhongĠnanĠ": 7962,
      "taiĠwanĠdeĠ": 7963,
      "ĠpoĠ": 7964,
      "miaoĠdeĠ": 7965,
      "ĠyuĠqiĠtaĠ": 7966,
      "ĠqiĠyouĠ": 7967,
      "tongĠwangĠ": 7968,
      "tianĠtangĠ": 7969,
      "mianĠlinĠ": 7970,
      "gangĠyuanĠ": 7971,
      "ĠdeĠrenĠwuĠ": 7972,
      "ĠĠĠ6": 7973,
      "meiĠriĠ": 7974,
      "huoĠyueĠ": 7975,
      "esĠ": 7976,
      "yanĠwuĠ": 7977,
      "sheĠhui": 7978,
      "ĠshiĠyiĠjiĠ": 7979,
      "ĠhuĠnanĠ": 7980,
      "ĠkeĠshiĠ": 7981,
      "ĠĠĠ1949": 7982,
      "houĠrenĠ": 7983,
      "dongĠyiĠ": 7984,
      "chengĠzhangĠ": 7985,
      "leĠgaiĠ": 7986,
      "ganĠjueĠ": 7987,
      "Ġlai": 7988,
      "ĠĠĠluĠ": 7989,
      "erĠyouĠ": 7990,
      "tongĠzhongĠ": 7991,
      "duĠyiĠ": 7992,
      "ĠbuĠlaiĠ": 7993,
      "qingĠshaoĠnianĠ": 7994,
      "zhenĠyaĠ": 7995,
      "tiĠyuĠguanĠ": 7996,
      "Ġgan": 7997,
      "Ġ22": 7998,
      "yiĠshiĠjianĠ": 7999,
      "jianĠliĠdeĠ": 8000,
      "ĠbuĠzuĠ": 8001,
      "qianĠruĠ": 8002,
      "suĠdanĠ": 8003,
      "Ġ15Ġ": 8004,
      "ĠxiĠbanĠyaĠyuĠ": 8005,
      "ĠĠĠfeiĠ": 8006,
      "dangĠheĠ": 8007,
      "naĠerĠ": 8008,
      "fouĠrenĠ": 8009,
      "1973ĠnianĠ": 8010,
      "ĠheĠheĠ": 8011,
      "shenĠchaĠ": 8012,
      "mianĠjiĠheĠ": 8013,
      "ĠdongĠjingĠ": 8014,
      "ĠsheĠliĠ": 8015,
      "duiĠliĠ": 8016,
      "12ĠnianĠ": 8017,
      "meiĠmeiĠ": 8018,
      "aĠjiĠ": 8019,
      "ĠchanĠ": 8020,
      "anĠrenĠ": 8021,
      "ĠĠĠ8": 8022,
      "jieĠzaiĠ": 8023,
      "jieĠweiĠzhiĠ": 8024,
      "faĠzhongĠ": 8025,
      "tsĠ": 8026,
      "daĠduoĠshuĠ": 8027,
      "shengĠxiaĠ": 8028,
      "nvĠyanĠyuanĠ": 8029,
      "ĠguoĠminĠdangĠ": 8030,
      "xiaĠxiaĠdeĠyiĠgeĠxiangĠ": 8031,
      "Ġ2004": 8032,
      "ĠzuiĠdaĠ": 8033,
      "ĠĠĠriĠ": 8034,
      "chaĠliĠ": 8035,
      "weiĠyuĠ": 8036,
      "shouĠlingĠ": 8037,
      "duoĠmingĠ": 8038,
      "quanĠqiu": 8039,
      "guĠdongĠ": 8040,
      "kaiĠmuĠ": 8041,
      "ĠdeĠyiĠsiĠ": 8042,
      "mouĠshaĠ": 8043,
      "ĠhaĠerĠ": 8044,
      "Ġdiao": 8045,
      "ĠJR": 8046,
      "ĠguĠshiĠ": 8047,
      "shuĠyouĠ": 8048,
      "chanĠdeĠ": 8049,
      "1936ĠnianĠ": 8050,
      "ĠyuĠyouĠ": 8051,
      "yongĠjiuĠ": 8052,
      "ĠreĠ": 8053,
      "ĠĠĠ10": 8054,
      "ĠzhiĠzhengĠ": 8055,
      "nanĠfeiĠ": 8056,
      "shenĠshangĠ": 8057,
      "ĠtiĠchuĠ": 8058,
      "ĠmuĠqianĠshangĠweiĠyouĠ": 8059,
      "Ġxie": 8060,
      "Ġ36": 8061,
      "Ġ1998ĠnianĠ": 8062,
      "laĠliĠ": 8063,
      "suĠdaĠ": 8064,
      "jianĠdaoĠ": 8065,
      "danĠyuanĠ": 8066,
      "ĠnianĠ12ĠyueĠ31ĠriĠ": 8067,
      "ĠshiĠzhongĠxinĠ": 8068,
      "xiangĠgangĠdeĠ": 8069,
      "Ġ1ĠyueĠ": 8070,
      "ĠĠĠtongĠ": 8071,
      "ĠĠĠgaoĠ": 8072,
      "ĠĠĠ3Ġ": 8073,
      "ĠĠĠ2021ĠnianĠ": 8074,
      "zeĠyiĠ": 8075,
      "chuangĠshiĠrenĠ": 8076,
      "ĠshiĠguĠ": 8077,
      "ĠyouĠxingĠ": 8078,
      "xiĠsiĠ": 8079,
      "shengĠgeĠweiĠ": 8080,
      "tianĠran": 8081,
      "Ġou": 8082,
      "1941ĠnianĠ": 8083,
      "1959ĠnianĠ": 8084,
      "1963ĠnianĠ": 8085,
      "huoĠdongĠdeĠ": 8086,
      "haiĠjun": 8087,
      "ĠbaoĠgaoĠ": 8088,
      "leĠliangĠ": 8089,
      "laĠteĠ": 8090,
      "hanĠlinĠ": 8091,
      "diĠyiĠbuĠ": 8092,
      "fuĠluoĠliĠdaĠ": 8093,
      "ĠdanĠyiĠ": 8094,
      "ĠbaĠliĠ": 8095,
      "ĠmuĠqianĠshangĠweiĠyouĠrenĠgongĠyinĠzhongĠzaiĠpeiĠ": 8096,
      "alĠ": 8097,
      "waiĠguanĠ": 8098,
      "ĠziĠliaoĠ": 8099,
      "canĠyuĠleĠ": 8100,
      "xianĠdeĠyiĠgeĠxingĠzhengĠzhenĠquĠ": 8101,
      "ĠĠĠinĠĠĠ": 8102,
      "mingĠheĠ": 8103,
      "shenĠjiĠ": 8104,
      "ĠyiĠchengĠ": 8105,
      "biĠya": 8106,
      "ingĠĠĠ": 8107,
      "keĠxue": 8108,
      "anĠpai": 8109,
      "tianĠhuangĠ": 8110,
      "chuangĠxinĠ": 8111,
      "Ġcan": 8112,
      "ĠĠĠboĠ": 8113,
      "wuĠzaiĠ": 8114,
      "ĠzaiĠnaĠliĠ": 8115,
      "ĠrenĠjiaoĠ": 8116,
      "zhuĠdaĠ": 8117,
      "ĠqiĠqiĠ": 8118,
      "fangĠchengĠ": 8119,
      "bianĠhaoĠweiĠ": 8120,
      "caiĠwuĠ": 8121,
      "ĠwanĠpingĠfangĠ": 8122,
      "wuĠliĠxueĠ": 8123,
      "zhangĠliĠ": 8124,
      "chouĠbeiĠ": 8125,
      "Ġ21": 8126,
      "ĠĠĠ4ĠyueĠ": 8127,
      "1939ĠnianĠ": 8128,
      "daoĠqianĠ": 8129,
      "mingĠciĠ": 8130,
      "chongĠmanĠ": 8131,
      "Ġbu": 8132,
      "heĠyiĠgeĠ": 8133,
      "tuiĠxingĠ": 8134,
      "31Ġ": 8135,
      "heĠpingĠ": 8136,
      "yuanĠquĠ": 8137,
      "juĠchangĠ": 8138,
      "kaiĠfaĠdeĠ": 8139,
      "ĠgaiĠdiĠdeĠ": 8140,
      "ĠĠĠ12": 8141,
      "bianĠyuĠ": 8142,
      "ĠxiĠjinĠ": 8143,
      "jiaoĠzongĠ": 8144,
      "duĠjiaĠ": 8145,
      "ĠzheĠyeĠshiĠ": 8146,
      "ĠzheĠbuĠ": 8147,
      "lianĠmengĠdeĠ": 8148,
      "ĠzhouĠnianĠ": 8149,
      "ĠĠĠpuĠ": 8150,
      "taiĠdaĠ": 8151,
      "kanĠfaĠ": 8152,
      "cheĠdaoĠ": 8153,
      "saiĠbaiĠ": 8154,
      "zaoĠqiĠdeĠ": 8155,
      "jingĠjiĠxueĠ": 8156,
      "ĠkeĠnengĠhuiĠ": 8157,
      "ĠseĠ": 8158,
      "ĠĠĠ7": 8159,
      "miĠshiĠ": 8160,
      "yinĠjiĠ": 8161,
      "xunĠshiĠ": 8162,
      "ĠzaiĠrenĠ": 8163,
      "ĠdaĠchenĠ": 8164,
      "yinĠziĠ": 8165,
      "guĠwuĠ": 8166,
      "neiĠmengĠguĠ": 8167,
      "laĠgeĠ": 8168,
      "Ġgui": 8169,
      "ĠbuĠshiĠ": 8170,
      "ĠĠĠ15": 8171,
      "dianĠyuĠ": 8172,
      "zhouĠfuĠzeĠguanĠxiaĠ": 8173,
      "ĠrenĠmin": 8174,
      "ĠerĠzheĠ": 8175,
      "shouĠhuiĠ": 8176,
      "ruĠjingĠ": 8177,
      "ĠgongĠjinĠ": 8178,
      "ĠĠĠgeĠrenĠshengĠhuoĠ": 8179,
      "Ġà¸": 8180,
      "Ġ1999ĠnianĠ": 8181,
      "zengĠzhiĠ": 8182,
      "codiceĠ": 8183,
      "ĠdanĠyeĠ": 8184,
      "lunĠsiĠ": 8185,
      "buĠmanĠ": 8186,
      "xiangĠbeiĠ": 8187,
      "ĠnianĠ7ĠyueĠ1ĠriĠ": 8188,
      "ĠĠĠ7ĠyueĠ": 8189,
      "xiaĠyuĠ": 8190,
      "tuoĠfuĠ": 8191,
      "ĠshiĠxiangĠgangĠ": 8192,
      "shengĠxiaoĠ": 8193,
      "tiĠgongĠdeĠ": 8194,
      "wangĠchao": 8195,
      "jiaoĠyuĠjiĠ": 8196,
      "Ġ34": 8197,
      "ĠkaĠerĠ": 8198,
      "ĠkeĠliĠsiĠ": 8199,
      "buĠweiĠyuĠ": 8200,
      "xiaĠzhiĠ": 8201,
      "suiĠdeĠ": 8202,
      "niuĠsiĠ": 8203,
      "neĠshengĠ": 8204,
      "xueĠyuanĠdeĠ": 8205,
      "xinĠzengĠ": 8206,
      "jinĠzhongĠ": 8207,
      "duanĠqiĠ": 8208,
      "1965ĠnianĠ": 8209,
      "1953ĠnianĠ": 8210,
      "ĠzhiĠyaoĠ": 8211,
      "zhuĠyaoĠshiĠ": 8212,
      "ĠĠĠyeĠ": 8213,
      "fangĠheĠ": 8214,
      "tianĠfuĠ": 8215,
      "ĠliĠyouĠ": 8216,
      "ĠxiĠyuanĠ": 8217,
      "tingĠyunĠ": 8218,
      "1967ĠnianĠ": 8219,
      "ĠliĠqiĠ": 8220,
      "ĠbingĠmeiĠyouĠ": 8221,
      "ĠĠĠjinĠguanĠ": 8222,
      "Ġyuan": 8223,
      "xinĠshengĠ": 8224,
      "duiĠtaĠ": 8225,
      "shuiĠshenĠ": 8226,
      "jiangĠheĠ": 8227,
      "nuoĠsiĠ": 8228,
      "1944ĠnianĠ": 8229,
      "fuĠhuaĠ": 8230,
      "jinĠxing": 8231,
      "gaiĠmingĠ": 8232,
      "baĠnen": 8233,
      "kaĠluoĠlaiĠnaĠ": 8234,
      "Ġ90": 8235,
      "xinĠyuĠ": 8236,
      "laoĠgongĠ": 8237,
      "ĠzaiĠtaĠdeĠ": 8238,
      "ĠqingĠchaoĠ": 8239,
      "ĠshiĠnanĠjiĠzhouĠdeĠ": 8240,
      "ĠyiĠxie": 8241,
      "zhuĠlongĠ": 8242,
      "ĠyanĠchangĠ": 8243,
      "zhongĠshiĠjiĠ": 8244,
      "qianĠweiĠ": 8245,
      "hanĠshiĠ": 8246,
      "ĠyueĠlaiĠyueĠ": 8247,
      "xiangĠlianĠ": 8248,
      "ĠĠĠPro": 8249,
      "ĠĠĠquanĠ": 8250,
      "ĠzhiĠchi": 8251,
      "gongĠzuoĠdeĠ": 8252,
      "jiaĠzhouĠ": 8253,
      "zhanĠzhengĠdeĠ": 8254,
      "ciĠhuiĠ": 8255,
      "zongĠduiĠ": 8256,
      "shouĠdaoĠleĠ": 8257,
      "Ġzha": 8258,
      "houĠguoĠ": 8259,
      "yanĠliĠ": 8260,
      "huoĠyiĠ": 8261,
      "liangĠjiaĠ": 8262,
      "waiĠjiĠ": 8263,
      "huanĠxiangĠ": 8264,
      "siĠxingĠ": 8265,
      "siĠfaĠ": 8266,
      "minĠjinĠ": 8267,
      "niĠyaĠdeĠ": 8268,
      "liĠyongĠ": 8269,
      "5ĠgongĠliĠ": 8270,
      "Ġ55": 8271,
      "ĠĠĠ8ĠyueĠ": 8272,
      "ĠjieĠweiĠ": 8273,
      "jingĠxiĠ": 8274,
      "chaĠjuĠ": 8275,
      "jinĠshanĠ": 8276,
      "yaĠzhou": 8277,
      "zuiĠduoĠdeĠ": 8278,
      "ĠliĠshiĠxueĠjiaĠ": 8279,
      "peiĠxunĠ": 8280,
      "ĠhuiĠyiĠ": 8281,
      "ĠĠĠguĠshiĠ": 8282,
      "duĠzhiĠ": 8283,
      "qianĠyuĠ": 8284,
      "fengĠyuĠ": 8285,
      "fuĠjiaĠ": 8286,
      "ziĠgongĠsiĠ": 8287,
      "dianĠchiĠ": 8288,
      "dianĠnaoĠ": 8289,
      "baĠsaiĠ": 8290,
      "meĠĠĠ": 8291,
      "faĠbiao": 8292,
      "houĠfangĠ": 8293,
      "yanĠxuĠ": 8294,
      "boĠlaĠ": 8295,
      "lingĠyuĠdeĠ": 8296,
      "ĠgongĠgongĠ": 8297,
      "ĠyuanĠxingĠ": 8298,
      "yingĠdeĠleĠ": 8299,
      "mianĠjiĠheĠrenĠkouĠ": 8300,
      "ĠĠĠjiuĠ": 8301,
      "ĠĠĠlaĠ": 8302,
      "daoĠliĠ": 8303,
      "qianĠliĠ": 8304,
      "sheĠliĠdeĠ": 8305,
      "1930ĠnianĠ": 8306,
      "nianĠdaiĠ": 8307,
      "zhanĠzhengĠqiĠjianĠ": 8308,
      "ĠØ": 8309,
      "ĠxingĠshiĠ": 8310,
      "ĠĠĠduiĠyuĠ": 8311,
      "niĠshiĠ": 8312,
      "daĠxueĠdeĠ": 8313,
      "geĠciĠ": 8314,
      "ĠdeĠjiĠshuĠ": 8315,
      "jiangĠsuĠshengĠ": 8316,
      "Ġ38": 8317,
      "nanĠrenĠ": 8318,
      "wangĠyiĠ": 8319,
      "laĠdiĠ": 8320,
      "lanĠseĠ": 8321,
      "Ġ75": 8322,
      "ĠPa": 8323,
      "gaiĠzhiĠ": 8324,
      "cheĠliĠ": 8325,
      "ceĠqiĠ": 8326,
      "hangĠxingĠ": 8327,
      "haĠdeĠ": 8328,
      "32Ġ": 8329,
      "ĠdaĠbuĠ": 8330,
      "ĠgaiĠcun": 8331,
      "ĠjingĠneiĠ": 8332,
      "ĠboĠluoĠ": 8333,
      "ĠgaiĠdiĠdeĠmianĠjiĠheĠrenĠkouĠ": 8334,
      "ĠgaiĠdiĠdeĠmianĠjiĠheĠrenĠkouĠjieĠweiĠzhiĠ": 8335,
      "ĠpaĠ": 8336,
      "Ġ11Ġ": 8337,
      "weiĠjiĠ": 8338,
      "houĠlai": 8339,
      "ciĠshuĠ": 8340,
      "heiĠlongĠjiangĠ": 8341,
      "ĠyiĠshuĠjiaĠ": 8342,
      "ĠĠĠyouĠxiĠ": 8343,
      "ĠĠĠmuĠqianĠ": 8344,
      "peiĠdeĠ": 8345,
      "zhongĠxueĠ": 8346,
      "xuanĠchuan": 8347,
      "dangĠxuanĠweiĠ": 8348,
      "ĠqianĠmiĠ": 8349,
      "ĠĠĠ2015ĠnianĠ": 8350,
      "weiĠshiĠjieĠ": 8351,
      "ĠshiĠzhengĠ": 8352,
      "erĠbeiĠ": 8353,
      "ĠfuĠze": 8354,
      "saiĠcheĠ": 8355,
      "ĠmingĠchaoĠ": 8356,
      "ĠLa": 8357,
      "shouĠerĠ": 8358,
      "luĠweiĠ": 8359,
      "leiĠheĠ": 8360,
      "jiangĠzuiĠjiaĠ": 8361,
      "zongĠjingĠliĠ": 8362,
      "tuĠanĠ": 8363,
      "tingĠkaoĠ": 8364,
      "ĠqianĠlongĠ": 8365,
      "zhengĠxieĠweiĠyuanĠ": 8366,
      "ĠguanĠzhiĠ": 8367,
      "anĠfuĠ": 8368,
      "ĠĠĠjianĠliĠ": 8369,
      "zhuangĠweiĠ": 8370,
      "chuiĠzhiĠ": 8371,
      "tongĠchang": 8372,
      "ĠleiĠjiĠ": 8373,
      "ĠĠĠY": 8374,
      "ĠĠĠMe": 8375,
      "1935ĠnianĠ": 8376,
      "diĠliuĠ": 8377,
      "jiaĠqiangĠ": 8378,
      "ĠbuĠluĠ": 8379,
      "quĠdongĠ": 8380,
      "jiangĠzheĠ": 8381,
      "dangĠanĠ": 8382,
      "zhengĠfuĠyuĠ": 8383,
      "meiĠerĠ": 8384,
      "suiĠzhiĠ": 8385,
      "shangĠsuĠ": 8386,
      "zongĠshuĠ": 8387,
      "ĠwanĠmeiĠ": 8388,
      "ĠtongĠriĠ": 8389,
      "ĠĠĠyiĠxiaĠ": 8390,
      "ĠfanĠduiĠ": 8391,
      "ĠfenĠbieĠweiĠ": 8392,
      "jiaĠliĠfuĠniĠyaĠzhouĠ": 8393,
      "Ġding": 8394,
      "Ġcom": 8395,
      "ĠzhanĠdiĠ": 8396,
      "ĠyiĠtiĠ": 8397,
      "yanĠshengĠ": 8398,
      "gaiĠjinĠ": 8399,
      "anĠxianĠ": 8400,
      "ĠciĠciĠ": 8401,
      "ĠwanĠchengĠ": 8402,
      "siĠzhongĠ": 8403,
      "teĠzaiĠ": 8404,
      "chuanĠyueĠ": 8405,
      "jiaĠnaĠ": 8406,
      "quĠziĠ": 8407,
      "luĠduanĠ": 8408,
      "ĠhaiĠjunĠ": 8409,
      "nongĠchangĠ": 8410,
      "Ġ2003": 8411,
      "ĠĠĠe": 8412,
      "ĠĠĠRo": 8413,
      "ĠĠĠ2014ĠnianĠ": 8414,
      "fuĠzhongĠ": 8415,
      "dongĠzhiĠ": 8416,
      "meiĠyiĠ": 8417,
      "kuaiĠdeĠ": 8418,
      "jiuĠduĠyuĠ": 8419,
      "ĠshiĠjiĠyuĠ": 8420,
      "ĠtongĠzhiĠ": 8421,
      "hangĠzhanĠ": 8422,
      "xiuĠdingĠ": 8423,
      "faĠshengĠleĠ": 8424,
      "ĠĠĠjianĠzhuĠ": 8425,
      "xinĠheĠ": 8426,
      "ĠqiĠyongĠ": 8427,
      "tongĠxueĠ": 8428,
      "zhouĠbian": 8429,
      "guĠlaoĠdeĠ": 8430,
      "ziĠxingĠcheĠ": 8431,
      "Ġ1940": 8432,
      "ĠpiaoĠ": 8433,
      "Ġ9Ġ": 8434,
      "liĠyiĠ": 8435,
      "chengĠyiĠgeĠ": 8436,
      "riĠshiĠ": 8437,
      "jiaoĠjiĠ": 8438,
      "15ĠnianĠ": 8439,
      "jianĠdanĠ": 8440,
      "xiangĠdaoĠ": 8441,
      "fenĠchengĠ": 8442,
      "ĠkeĠlaiĠ": 8443,
      "liuĠliangĠ": 8444,
      "puĠchaĠ": 8445,
      "zuiĠzhongĠyaoĠdeĠ": 8446,
      "Ġ70": 8447,
      "ĠVi": 8448,
      "ĠjunĠshiĠ": 8449,
      "ĠĠĠ9ĠyueĠ": 8450,
      "shanĠyuĠ": 8451,
      "zhuĠshouĠ": 8452,
      "xiangĠjiaoĠ": 8453,
      "nanĠminĠ": 8454,
      "geĠyueĠhouĠ": 8455,
      "ĠĠĠ2020ĠnianĠ": 8456,
      "zheĠjiĠ": 8457,
      "jingĠquĠ": 8458,
      "ĠbiĠxuĠ": 8459,
      "ĠhuaĠshengĠ": 8460,
      "baĠtaĠ": 8461,
      "suanĠdeĠ": 8462,
      "zhuĠguanĠ": 8463,
      "yinĠniĠ": 8464,
      "pingĠhengĠ": 8465,
      "duĠteĠdeĠ": 8466,
      "miĠduĠ": 8467,
      "chiĠjingĠ": 8468,
      "eĠhaiĠeĠ": 8469,
      "ĠĠĠcheĠzhanĠjieĠgouĠ": 8470,
      "siĠyueĠ": 8471,
      "xiaĠerĠ": 8472,
      "ĠbuĠheĠ": 8473,
      "shangĠfangĠ": 8474,
      "linĠshengĠ": 8475,
      "kaĠfeiĠ": 8476,
      "ĠMĠ": 8477,
      "ĠĠĠfor": 8478,
      "jinĠchengĠ": 8479,
      "zhengĠjiaoĠ": 8480,
      "ĠshengĠchengĠ": 8481,
      "huiĠyiĠshangĠ": 8482,
      "ĠcengĠjingĠ": 8483,
      "ĠĠĠyue": 8484,
      "ziĠshaĠ": 8485,
      "touĠru": 8486,
      "ĠdanĠbuĠ": 8487,
      "ĠerĠheĠ": 8488,
      "ĠĠĠzhiĠzuoĠ": 8489,
      "jinĠnianĠ": 8490,
      "fangĠdiĠ": 8491,
      "muĠjiĠ": 8492,
      "2025ĠnianĠ": 8493,
      "ĠzaiĠriĠbenĠ": 8494,
      "jinĠrongĠ": 8495,
      "yingĠgeĠlan": 8496,
      "ĠdaĠqiaoĠ": 8497,
      "ĠliĠfaĠhuiĠ": 8498,
      "Ġzhuo": 8499,
      "Ġga": 8500,
      "shengĠrenĠminĠzhengĠfuĠ": 8501,
      "mingĠjiĠ": 8502,
      "zuoĠheĠ": 8503,
      "1969ĠnianĠ": 8504,
      "1961ĠnianĠ": 8505,
      "jianĠchiĠ": 8506,
      "2ĠmiĠ": 8507,
      "ĠĠĠLi": 8508,
      "ĠĠĠmuĠ": 8509,
      "yaĠsiĠ": 8510,
      "penĠ": 8511,
      "ĠzaiĠnanĠ": 8512,
      "fuĠbuĠzhangĠ": 8513,
      "beiĠmeiĠ": 8514,
      "fangĠxingĠ": 8515,
      "baoĠfuĠ": 8516,
      "mianĠqianĠ": 8517,
      "luoĠfaĠkeĠ": 8518,
      "ĠĠĠMo": 8519,
      "1931ĠnianĠ": 8520,
      "juĠfeng": 8521,
      "ĠqiĠzhongĠyouĠ": 8522,
      "ĠRĠ": 8523,
      "Ġheng": 8524,
      "banĠnianĠ": 8525,
      "kuangĠjiaĠ": 8526,
      "jinĠzhangĠ": 8527,
      "yingĠguoĠdeĠ": 8528,
      "ĠdeĠshiĠshiĠ": 8529,
      "JĠ": 8530,
      "ĠĠĠ6ĠyueĠ": 8531,
      "jinĠqiĠ": 8532,
      "duiĠweiĠ": 8533,
      "zhuanĠzhiĠ": 8534,
      "huiĠjiaĠ": 8535,
      "juĠzhuĠzaiĠ": 8536,
      "juĠjuĠzhangĠ": 8537,
      "jiuĠbeiĠ": 8538,
      "chongĠzuĠ": 8539,
      "tuiĠfanĠ": 8540,
      "Ġman": 8541,
      "Ġ2002": 8542,
      "Ġ20Ġ": 8543,
      "ĠĠĠriĠbenĠ": 8544,
      "ĠĠĠ2013ĠnianĠ": 8545,
      "baoĠjiĠ": 8546,
      "duoĠbuĠ": 8547,
      "yanĠfaĠ": 8548,
      "gongĠchanĠzhuĠyiĠ": 8549,
      "ĠmiĠzhiĠ": 8550,
      "liĠkeĠ": 8551,
      "ĠĠĠ6Ġ": 8552,
      "ciĠheĠ": 8553,
      "luĠxiĠ": 8554,
      "luoĠweiĠ": 8555,
      "kuĠerĠ": 8556,
      "1957ĠnianĠ": 8557,
      "ĠshiĠtaiĠwanĠ": 8558,
      "ĠdeĠyiĠjianĠ": 8559,
      "chengĠliĠleĠ": 8560,
      "ĠzhengĠgeĠ": 8561,
      "ĠbingĠqieĠzaiĠ": 8562,
      "Ġ46": 8563,
      "ĠĠĠhuoĠ": 8564,
      "ĠĠĠyongĠ": 8565,
      "daiĠzhiĠ": 8566,
      "yaoĠzaiĠ": 8567,
      "feiĠzhiĠ": 8568,
      "kaĠdeĠ": 8569,
      "runĠ": 8570,
      "ĠshiĠsiĠ": 8571,
      "zhanĠjuĠ": 8572,
      "ĠzhuĠxiĠ": 8573,
      "liĠliangĠ": 8574,
      "hangĠbanĠ": 8575,
      "ĠtaiĠpingĠ": 8576,
      "wuĠxianĠdianĠshiĠ": 8577,
      "taiĠweiĠ": 8578,
      "laiĠerĠ": 8579,
      "panĠdeĠ": 8580,
      "keĠxueĠjiaĠ": 8581,
      "fangĠbianĠ": 8582,
      "yanĠshenĠzhiĠ": 8583,
      "zuoĠleĠ": 8584,
      "ĠdaĠxueĠdeĠ": 8585,
      "ĠfuĠgaiĠ": 8586,
      "wanĠzhengĠdeĠ": 8587,
      "luoĠxuanĠ": 8588,
      "Ġ150": 8589,
      "ĠĠĠ2010ĠnianĠ": 8590,
      "ĠyouĠheĠ": 8591,
      "wenĠgeĠ": 8592,
      "ĠchongĠxinĠ": 8593,
      "yanĠqiĠ": 8594,
      "neiĠsiĠ": 8595,
      "rengĠzaiĠ": 8596,
      "ĠguoĠfangĠ": 8597,
      "ĠxiĠxiĠ": 8598,
      "junĠbeiĠ": 8599,
      "Ġ000Ġ": 8600,
      "shouĠliĠ": 8601,
      "zuĠweiĠ": 8602,
      "ĠshiĠfuĠ": 8603,
      "guoĠfangĠbuĠ": 8604,
      "yuanĠwaiĠ": 8605,
      "ĠkeĠlaĠ": 8606,
      "muĠjianĠ": 8607,
      "zhenĠzhengĠ": 8608,
      "cheĠtuiĠ": 8609,
      "feiĠchang": 8610,
      "baĠleĠsiĠ": 8611,
      "ĠguanĠliĠ": 8612,
      "meiĠzhongĠ": 8613,
      "1951ĠnianĠ": 8614,
      "ĠyueĠrenĠ": 8615,
      "shuĠshuĠ": 8616,
      "mengĠteĠ": 8617,
      "ĠĠĠgenĠjuĠ2010ĠnianĠmeiĠguoĠrenĠkouĠpuĠchaĠdeĠshuĠjuĠ": 8618,
      "ĠĠĠ2012ĠnianĠ": 8619,
      "shenĠliĠ": 8620,
      "kaĠliĠ": 8621,
      "poĠerĠ": 8622,
      "liuĠxueĠ": 8623,
      "wangĠhouĠ": 8624,
      "zuĠziĠzhiĠ": 8625,
      "ĠxianĠjinĠ": 8626,
      "ĠcengĠzaiĠ": 8627,
      "jiangĠweiĠ": 8628,
      "qianĠqiĠ": 8629,
      "benĠzhiĠ": 8630,
      "tuiĠliĠ": 8631,
      "heiĠrenĠ": 8632,
      "sonĠ": 8633,
      "shengĠjieĠrangĠ": 8634,
      "qianĠxianĠ": 8635,
      "ĠmiĠdeĠ": 8636,
      "8ĠgeĠ": 8637,
      "Ġzhui": 8638,
      "taĠerĠ": 8639,
      "chongĠfuĠ": 8640,
      "1942ĠnianĠ": 8641,
      "taiĠshouĠ": 8642,
      "meiĠtianĠ": 8643,
      "zhuanĠhuanĠ": 8644,
      "ĠDĠ": 8645,
      "ĠfeiĠliĠ": 8646,
      "Ġlong": 8647,
      "ĠyuĠyiĠ": 8648,
      "xiaoĠyiĠ": 8649,
      "chenĠdeĠ": 8650,
      "ĠshiĠshangĠ": 8651,
      "zhengĠwuĠ": 8652,
      "ĠriĠbaoĠ": 8653,
      "liuĠchuanĠ": 8654,
      "tuĠranĠ": 8655,
      "quĠshiĠhouĠ": 8656,
      "ĠjiangĠxiĠ": 8657,
      "ĠgouĠ": 8658,
      "ĠĠĠtangĠ": 8659,
      "miĠjiĠ": 8660,
      "dangĠriĠ": 8661,
      "duoĠliĠ": 8662,
      "jianĠzhuĠshiĠ": 8663,
      "jieĠjieĠ": 8664,
      "qianĠlaiĠ": 8665,
      "ĠkeĠchengĠ": 8666,
      "feiĠfaĠ": 8667,
      "ĠdaoĠdaĠ": 8668,
      "liaoĠning": 8669,
      "zhengĠfuĠzaiĠ": 8670,
      "3ĠmiĠ": 8671,
      "quĠneiĠ": 8672,
      "quanĠtiĠ": 8673,
      "guangĠfanĠdeĠ": 8674,
      "ĠweiĠyuanĠhuiĠdeĠ": 8675,
      "ĠPĠ": 8676,
      "eĠerĠ": 8677,
      "Ġzao": 8678,
      "Ġ180": 8679,
      "ĠĠĠyanĠgeĠ": 8680,
      "jinĠheĠ": 8681,
      "riĠerĠ": 8682,
      "nanĠyuĠ": 8683,
[...]
