#version: 0.2
ä ¸
ä º
ç ļ
çļ Ħ
å ħ
å ı
æ ľ
ã Ģ
å ¹
ä »
å ¤
å ľ
å Ĳ
å Ī
å Ľ
å ®
å¹ ´
ä ½
æ Ĺ
ç Ķ
å į
æ ĸ
è ¿
å °
æ ĺ
ä ¹
ç »
ãĢ ģ
åľ ¨
ä¸ º
å Ĭ
æ Ī
ä ¼
ä¸ Ģ
å Ń
å Į
å ¸
è ¯
è ®
ä¸ Ń
å Ĩ
åĽ ½
äº º
æĺ ¯
å º
æ Ŀ
å ¼
å ·
äº İ
å ¾
é ĩ
ç ī
ç §
è ¡
ç º
å¤ §
æ ī
é Ģ
æľ ī
å ±
æ Ķ
å ĩ
å Ĵ
åĴ Į
2 0
æ Ń
é ĥ
è µ
è Ģ
æ ķ
å ½
å İ
æľ Ī
å ¯
æ °
é Ļ
æ ĭ
æĹ ¥
ç Ľ
è ĩ
æ ³
å ¥
æ ł
ç İ
1 9
é ĺ
ä» ¥
åĲ İ
æĹ ¶
â Ģ
å ĳ
äº Ĩ
åľ °
æ ²
ç «
æ µ
ä¼ ļ
åŃ ¦
è §
æ Ģ
è ¾
è ´
æĪ Ĳ
é Ĺ
è ½
é Ŀ
å Ł
ä¸ ª
ç Ĳ
ä¸ Ĭ
éĥ ¨
å ī
æĸ ¯
é ķ
ä¸ İ
è¡ Į
ä» ĸ
åĩ º
ä¸ į
æ ¯
åĮ º
æ ´
æ ŀ
æ Ĭ
æ İ
åħ ¬
ç ¬
åħ ¶
åı ĳ
æ ¸
ç ½
ä½ ľ
çĶ Ł
æ Ľ
å° Ķ
åĲ į
ä ¿
ä¸ »
åĪ Ĩ
è ¢
ç Ń
è ĥ
ä¹ ĭ
é ģ
æĸ ¹
ç¬ ¬
çĶ ¨
å® ¶
å §
ãĢ ĭ
ãĢ Ĭ
è ¥
å¹ ¶
ç ¾
è¥ ¿
æ³ ķ
åĪ °
å ¿
èĢ Į
Â ·
æ ¬
é ¢
åĨ Ľ
å »
åı Ĭ
è¢ «
ä ¾
æĶ ¿
ä½ į
ç ±
çĶ ±
æ Į
æľ ¬
ç ľ
æ ±
æ° ĳ
è ·
é Ľ
é ¦
ä¸ ĭ
å¸ Ĥ
å ĵ
å¯ ¹
åĲ Į
è ģ
è ĭ
åħ ĭ
åĬ ¨
æĿ ¥
çī ¹
éķ ¿
è¿ Ļ
å¤ ļ
ä» »
èĩ ª
å¼ Ģ
éĩ Į
åĳ ĺ
åį Ĺ
é ©
åŃ Ĳ
åı ¯
æĸ °
å¹ ³
è ī
å Ŀ
è İ
åĬ ł
å¾ ·
åĮ Ĺ
ãĢ Į
ãĢ į
æľ Ģ
æĸ ĩ
å £
åĪ ©
æ Ļ
ç¾ İ
é «
åī į
ä¸ ľ
ä» £
é« ĺ
äº ļ
éĿ ¢
æµ ·
æī Ģ
¦ ģ
å¾ Ĺ
èĩ ³
ç ¤
å» º
è Ī
éĹ ´
æŃ ¤
åĨ ħ
åĽ ł
äº ĭ
âĢ ľ
ä¸ ī
âĢ Ŀ
çİ °
è¿ Ľ
çĶ µ
) ,
ä¹ Ł
çī ©
è¿ ĩ
èµ Ľ
20 1
çŃ ī
åı °
åº ¦
è½ ¦
åħ ¥
è¯ ¥
ç» ı
å½ ĵ
éģ ĵ
ç ¥
è ¦ģ
ç« ĭ
æĪ ĺ
å° Ĩ
çĲ Ĩ
ç ©
è¡ ¨
ä½ ĵ
ç Ł
ç ķ
æĭ ī
é ¡
å ¦
è °
å ²
æľ º
æķ Ļ
æľ Ł
ä¸ ĸ
è Ĳ
é ļ
æ ı
å· ¥
åĪ ¶
ç ®
èĥ ½
äº Į
å¤ ĸ
åĲ Ī
æ į
è· ¯
å® ļ
åı £
çľ ģ
å¸ ĥ
æ¬ ¡
æ Ħ
é© ¬
è® ¾
åħ ±
æĢ §
éĺ Ł
åľ º
éĢ ļ
ä¸ ļ
å± ±
å° ı
20 0
çĲ ĥ
ä½ Ĩ
è Ĭ
ä½ ¿
é ĵ
è ¶
åį ģ
ä¸Ģ ä¸ª
èĢ ħ
å· ŀ
åĮ ĸ
åħ ¨
æ ĥ
ç ³
æķ °
ç§ į
é £
ç§ °
å¤ ©
è Ĥ
ç½ Ĺ
ç§ ĳ
ç ł
æ Ł
çº ¿
ç Ļ
å¼ ı
ç± ³
ç« Ļ
éĩ į
å® ī
é Ł
èģ Ķ
æ ģ
ç Ĥ
ä¸ ¤
é Ĥ
ç³ »
æ¯ Ķ
æ ¼
ç ¼
1 0
ç Ī
æ ¡
ç ¦
ç ¨
å ¢
æĢ »
éĢ ī
è¿ Ĳ
åĬ Ľ
åİ ¿
åħ °
å£ «
çĽ ¸
éĻ ¢
æ ¹
åŁ º
åħ ³
ä¸Ń åĽ½
éĥ ½
æ² »
åİ Ł
è¾ ¾
åŁ İ
ç» Ł
å ģ
æł ¼
èµ ·
ç» Ħ
æŃ £
æĺ İ
é »
çº ¦
åı ·
èĭ ±
æ° ´
å½ ±
å° ¼
æĪ ĸ
å± ŀ
åº ľ
å ¡
æİ ¥
åı ¸
è® ¡
éĩ ĳ
çĽ ®
é¦ ĸ
çİ ĭ
è® ®
æı Ĳ
åį İ
ç Ħ
ä» ¬
éĺ ¿
åĽ Ľ
ä» İ
åĪ Ĺ
åħ ĥ
ç ģ
æ¼ Ķ
å· ´
ç¾İ åĽ½
è ĳ
0 0
å¦ Ĥ
äº §
è¯ Ń
å Ģ
é ħ
åı Ĥ
åı ²
éĩ ı
å ŀ
æĶ ¹
å¸ ¸
å¥ ³
æ ®
æ ¶
éķ ĩ
åĲ ĳ
è £
è į
åĬ ¡
æŀ Ĺ
1 8
åĮ ħ
æ¸ ¯
å ¨
) .
æĽ ¾
æĹ ł
èİ ·
äºº åı£
çĦ ¶
äº ¤
å Ķ
å® ŀ
å¿ ĥ
é Ķ
åı Ĺ
é ľ
1 2
ä½į äºİ
ç» ´
æĦ ı
åİ Ĩ
ç» ĵ
èī ²
çķ Į
çº §
ä¹ Ĳ
æī ĭ
å§ ĭ
ä¿ Ŀ
å§ Ķ
åĪ Ļ
ä¹ ī
æ Ĵ
å¤ Ħ
åħ ļ
è§ Ĩ
ä¹ ¦
ç ´
åĽ ¢
0 å¹´
ç® ¡
å½ ¢
ç¨ ĭ
æ £
å¯ ¼
å ĭ
1 å¹´
è® ¤
æį ®
ç± »
æ² ³
å° ±
åį ¡
éĹ ¨
æ ·
æĮ ĩ
æľĪ 2
çĽ ´
20 2
5 å¹´
åį ķ
é Ĵ
ç ĥ
è¯ ´
éŁ ³
äº Ľ
å¹ ¿
åŀ ĭ
å· ²
åº Ķ
4 å¹´
æĺ Ł
éĽ Ĩ
ç¤ º
å¥ ¥
æµ ģ
é¢ Ĩ
ç¤ ¾
å ł
ä¼ ł
æ º
æĮ ģ
é ²
åĵ ģ
çĤ ¹
è º
æł ¡
æĽ ´
2 å¹´
å± ķ
å¤ «
3 å¹´
e r
ç ĭ
åĽ ŀ
è Į
ä¸ ¾
æĻ ®
1 1
æ¸ ¸
ä¸ ĩ
ç§ ¯
8 å¹´
èº «
6 å¹´
æ ¢
ç© º
åı į
é ª
èµ Ħ
æĶ¿ åºľ
æĥ ħ
å® ĺ
ç ¡
çº ª
äº Ķ
æ´ »
è¿ ĺ
é ¾
åĩ »
a n
æĶ ¯
é¦ Ļ
æł ĩ
æĬ ¥
æ »
o r
å¸ Ī
åĲ Ħ
æ¹ ¾
éĵ ģ
åĪ «
7 å¹´
è Ĵ
éĢ ł
å¤§ åŃ¦
çº ³
è Ļ
åı ĸ
ä½¿ çĶ¨
ç Ĭ
åı ¤
å² Ľ
ç ĸ
æĪĲ ä¸º
å¤ ª
æĹ¥ æľ¬
i n
åī §
å± Ģ
åħ¬ åı¸
åı ĺ
æĭ ¬
ç ı
æľ ¯
åŃ Ĺ
å ķ
å¥ ¹
ç Ŀ
æĹ ı
ä¸ ĵ
åĳ ½
åĮħ æĭ¬
åľ° åĮº
éĿ ŀ
å¸ ¦
èĳ Ĺ
åĽ½ å®¶
å¼ ł
è® º
è¿ ĳ
åį ³
å¼Ģ å§ĭ
çł Ķ
æľ Ŀ
æ± Ł
åĨ ³
ä¿ ¡
è§ £
æ´ ²
æĽ ²
èĬ Ĥ
ç Ĺ
ç¥ ŀ
é£ İ
o n
çī ĩ
å° ĳ
èģ Į
ä» ¶
ç ²
è¿Ľ è¡Į
ä¼ Ĭ
åĽ ¾
è Ħ
æľ ª
ç ĵ
è® °
åı ª
ç ¿
å¹³ æĸ¹
å® ĥ
æľĪ 1
æł ¹
æĿ ĥ
æ² ¡
çŁ ³
éĻ ħ
ç¬¬ ä¸Ģ
èĭ ı
æ¯ ı
ç¼ ĸ
è§ Ĵ
è½ ¬
åı¯ ä»¥
æĶ ¾
æ³ ¢
æ ¨
äº ¬
ä¾ ĭ
19 9
æĶ ¶
æĿ ¡
çļĦ ä¸Ģ
åĪ Ĵ
è° ĥ
é¾ Ļ
åħ¬ éĩĮ
é¦Ļ æ¸¯
åĳ ¨
åħ ī
åķ Ĩ
åĪ Ľ
æ¸ ħ
è¿ ŀ
åĪ Ŀ
9 å¹´
æ° Ķ
æŃ Į
ç¦ »
æĿ ĳ
å ĸ
æ ĳ
çī Ī
éĻ Ĩ
éĥ¨ åĪĨ
ç© ¶
å Ļ
å¾ Ģ
äºº æ°ĳ
å¤ ´
èİ· å¾Ĺ
è ±
åŃ £
çŁ ¥
ä¸ĸ çķĮ
åı Ī
éĿ¢ ç§¯
åħ Ī
çłĶ ç©¶
åİ »
å¯ Ĩ
æŀ Ħ
åŁ Ł
æ´ ¾
ä» ¤
æī ĵ
ç» Ń
æŀ ľ
åĬ ŀ
å¼ º
éļ ı
æŁ ¥
å¨ ģ
ä¸» è¦ģ
çĻ ½
åĨ į
åħ µ
äº ī
åº §
æŃ ¦
ä»ĸ ä»¬
ç¦ ı
å¤ į
è§ Ĥ
èĤ ²
è£ ħ
åİĨ åı²
å® Į
åħ Ń
l a
åĻ ¨
è®¤ ä¸º
å¼ ķ
é¡ ¹
æ® µ
æ ļ
é¢ ĺ
è¶ ³
åı° æ¹¾
åĵ Ī
æ²¡ æľī
ä¸ Ķ
æĿ İ
ç ĳ
å¡ Ķ
æľ į
éĻ ¤
å± ħ
å® £
æ¬ §
1 5
æĪ ı
ç½ ĳ
æĴ Ń
ç» Ī
è§ Ħ
æĭ ħ
åį ı
èĲ ¥
äº ¦
è® ¸
æİ ¨
è ı
çĵ ¦
åľ £
ä» ½
å§Ķ åĳĺ
å¥ ĸ
åľ Ł
æ¡ Ī
ç½ ®
å½ ķ
ä¿ ®
è´ ¨
è ¨
äº ²
èĲ ¨
è¨ Ģ
çĶ ·
å Ħ
a r
æº Ĳ
ç¬¬ äºĮ
åŃ ĺ
å¸ Ŀ
ä»£ è¡¨
éĹ ®
åĭ Ĵ
ä» Ĭ
è¯ Ħ
åĽ Ń
æ ¥
e n
åħ ·
ç» Ļ
æĬ ¤
ä¾ Ľ
éĽ ·
è¿Ĳ åĬ¨
é¦ Ĩ
æŃ »
æĬ ķ
åħ «
çĪ ±
æĶ¿ æ²»
çĶ± äºİ
æ³ķ åĽ½
éĢ Ł
åħ¶ ä»ĸ
åį ĥ
åĩ Ĩ
å® Ĺ
åį °
å¢ ŀ
è¾ ĥ
è¶ ħ
ä¼ ¯
å¢ ĥ
æ´ Ľ
å¸ Į
æ± Ĥ
åĬ Ł
è§ ģ
çĶµ å½±
çĶ »
çļĦ ä¸Ģä¸ª
æ± ī
1 6
èĩ ´
( ),
åĿ ĩ
åį ĩ
å¤ ĩ
åı ¦
è¯ º
åĬ ©
åį «
å·¥ ä½ľ
åį ļ
ç Į
çİ ĩ
èİ ±
éĺ ³
åĦ ¿
è¾ ¹
ä¼ Ĺ
å¥ ½
è Ĺ
é ¥
å ĥ
å® ¢
å® ¹
èĪ ª
ä¼ ¦
åĳ Ĭ
19 8
æĹ ©
æ¨ ¡
ç ª
ä¹ Į
åĲ ī
è¯ ķ
ä¿ Ħ
ä½ľ ä¸º
ä»¥ åıĬ
æİ Ĵ
åī ¯
èī º
æł ·
æµ İ
å¾ Ī
çģ «
çİ ¯
æķ ħ
å¡ ŀ
æĪ ĳ
æĶ »
åĽ½ éĻħ
é» Ħ
çĶ °
ç¾ ¤
å· ±
èĬ ±
åı¯ èĥ½
æ¯ į
ä¹ Ŀ
çĪ ¶
æĸ ½
åĵ į
çı Ń
è ħ
åĽ ´
ä¸Ń å¿ĥ
è¡¨ ç¤º
1 7
æĬ Ģ
æķ ´
é² ģ
æ² Ļ
ç» §
åĮ »
æĭħ ä»»
3 0
å¤ ±
å¸Ĥ éķĩ
çŃ ĳ
èĲ ½
çĹ ħ
ä¸Ń åįİ
åħ ´
è¯ ģ
ç» ĩ
) ãĢģ
ç³» ç»Ł
æ ¦
è´ £
ä¹ ¡
å¿ Ĺ
å¸ Ń
éĩ ĩ
éĺ ²
èĪ °
å® ¤
è Ń
å± Ĥ
æī ĺ
ä¸Ń çļĦ
éĿ Ĵ
çĽ Ł
ä¸ ĥ
æĦ Ł
èŃ ¦
éľ Ģ
çĻ »
åĨ ł
æĹ¶ éĹ´
çĭ ¬
èĭ± åĽ½
è´ Ł
åį Ĭ
é º
æ¹ ĸ
æ¸¸ æĪı
éĢļ è¿ĩ
å£ °
çĶµ è§Ĩ
å§ Ĩ
éĤ £
çĻ ¾
éħ į
ç ¢
èĩª å·±
åı Į
è½¦ ç«Ļ
éĻ Ī
æł¹ æį®
a l
åł Ĥ
é» ĳ
åıĳ çİ°
æĺ ĵ
çĥ Ń
çļ ĩ
åĨ Ļ
å½ĵ æĹ¶
è¡Į æĶ¿
( ,
ç¡ ®
çº ¢
çĬ ¶
é£ ŀ
åıĳ å±ķ
æĪĲ ç«ĭ
æģ ©
ä½ ķ
å¤ ı
æľŁ éĹ´
æ· ±
ä» į
èĢ ĥ
æŀ ģ
ä½ ı
åį ł
ç ħ
é ±
åħ± åĴĮ
æ£ ®
è¡ Ĺ
1 4
è¶ Ĭ
éĻ Ĳ
å¤ ®
å° Ħ
é ¸
é± ¼
çĶ ²
åĲĮ æĹ¶
æŃ ¥
a t
è®¾ è®¡
ç¤¾ ä¼ļ
âĢ Ķ
é£ Ł
è® ©
å»º çŃĳ
äºİ 19
åĥ ı
åŁ ĥ
è± ¡
ä¹ĭ ä¸Ģ
æĽ ¼
æĿ Ģ
å¯ Ł
è´ ¹
èĮ ĥ
å± Ĭ
æİ §
æī ¹
ç¥ ¨
ä» ħ
æ ½
è´ Ŀ
æĻ ¯
ç»Ħ ç»ĩ
æĸ Ļ
æ Ĥ
åŃ¦ éĻ¢
å¥ ĩ
e s
ä¸į åĲĮ
æ´ ĭ
å² ģ
åıĤ åĬł
æµ ĭ
çķ Ļ
èĢ ģ
ä¸Ń å¤®
å§Ķåĳĺ ä¼ļ
è¿ ª
åĨ ľ
æ¥ ¼
æĸĩ åĮĸ
ä½ İ
æŃ ¢
ä¸ĸ çºª
å· Ŀ
å½± åĵį
æ¯Ķ èµĽ
èĥ ľ
éĿ ©
è¯ į
åĵ ¥
ç§° ä¸º
å¾ ĭ
çī Į
é¡ ¿
æĥ ³
å±ŀ äºİ
æİ Ī
f or
æķ Ī
1 3
å ĺ
æ³ °
è¾ ĸ
ä¾ ¿
å¹³æĸ¹ åħ¬éĩĮ
æ ¤
æľ ¨
éĻ į
åĩ ł
ç§ »
è¿ °
çľ Ł
i c
æ ħ
åģ ľ
æī į
æ° ı
éĵ ¶
æ¡ ¥
( )
èĴ Ļ
æĪ ¿
å¿ µ
æĺ ¾
éŁ³ ä¹Ĳ
æī ¿
æĢ ģ
çĿ Ģ
è´ ¥
âĢĿ .
å ©
ç´ ¢
æ ¾
åħ±åĴĮ åĽ½
åº ķ
åº ·
åº ĵ
é¢ Ħ
ä¸» ä¹ī
é Ń
m u
åŃ¦ æł¡
å¾ ģ
ç´ ł
æ´» åĬ¨
çī Ļ
è¾ ĳ
çľ ĭ
å¼ ¹
åĶ ±
åħ ¸
ä½ľ åĵģ
æŃ£ å¼ı
æ¶ Ī
æıĲ ä¾Ľ
åĪ© äºļ
ç® Ģ
è®¡ åĪĴ
åĩº çİ°
ç½Ĺ æĸ¯
è½ ½
ä¹ ł
ä»ĸ çļĦ
æīĢ æľī
æģ ¯
ä» ·
å ³
ä¹ĭ éĹ´
éĻ Ħ
ç»ı æµİ
ç®¡ çĲĨ
åıĳ çĶŁ
æľĢ ç»Ī
éĵģ è·¯
çł ģ
ãĢį .
çĳ ŀ
æī §
æĹ¶ æľŁ
è¿ ľ
i s
åĿ ¦
æĪ ·
ä¸Ģ ç§į
å¹ ²
åı ĭ
åŁİ å¸Ĥ
åĨ µ
ç® Ĺ
ä¾ §
æķĻ èĤ²
ç¥ ĸ
éĢ Ģ
éŁ ©
å® Ī
æ» ¡
åĲİ æĿ¥
äº ĳ
æ³ ¨
èĪ ¹
mu la
å½ĵ åľ°
è¯ ·
è¯ Ŀ
æ¸ ©
éĤ ¦
for mula
åĢ Ļ
ä½ Ļ
ä½ Ľ
æ Ĳ
æĬ Ĭ
ç« ł
ä¸ ģ
ç² ¾
i t
æĬ Ĺ
å® ģ
çĽ ĳ
19 7
åĪ¶ ä½ľ
åł ¡
19 4
20 å¹´
æľ Ľ
a m
æĹ §
è´Ł è´£
å¾· åĽ½
å· ¦
æĪĲ åĳĺ
ä¸Ĭ çļĦ
æĭ ¿
éĹ® é¢ĺ
æľ Ĺ
éª Į
h e
åĬ ¿
è¿Ľ åħ¥
æĢ Ŀ
ä¸ ´
è®¸ å¤ļ
åĪ ĺ
å ´
çª ģ
é ¹
çł ´
å¿ «
å® «
æĹ ħ
ä¾ Ŀ
åİ ĭ
åº Ħ
ç¬¬ ä¸ī
åĲį ä¸º
èİ «
æľĢ åĲİ
ä¼ ¼
æĪĺ äºī
å¯ Į
ä¸Ģ äºĽ
æ¢ ħ
çĿ £
åĢ ¼
åģ ļ
åħ¨ åĽ½
æĶ¯ æĮģ
å° ģ
èĹ ı
æ° ¸
åĲ «
å» ¶
æĸ Ĺ
èĴ Ĥ
5 0
æĭ Ķ
çĶŁ æ´»
åĽł ä¸º
åİ ħ
ä¹ĭ åĲİ
åį ¢
äºº çļĦ
çħ §
äº ¡
æľį åĬ¡
å¼ Ĺ
éļ ¾
l e
åİ Ĥ
ç» Ĩ
æ¾ ³
åĪ ¤
æ ĵ
æł ¸
æŀ ¶
ä¸ ¹
å¤§ çļĦ
éģ Ĺ
ä¼ ¤
å°¼ äºļ
å®£ å¸ĥ
çļ ®
èĻ ½
å½ Ĵ
åį° åº¦
åı ³
ä¿Ħ ç½Ĺæĸ¯
å·² ç»ı
è¯ Ĩ
åº Ĩ
åıĤ ä¸İ
åľ° æĸ¹
ä¸¾ è¡Į
æĸ Ń
åħ³ ç³»
åıĳ è¡Į
éĹ »
19 6
ç Ĩ
è½ ®
é ½
åı ¶
ä¸ ½
æĿ °
åº Ĺ
æĸ¹ éĿ¢
ç¤ ¼
åĶ Ĳ
åĨ³ å®ļ
å·¥ ç¨ĭ
ï ¼
éĩį è¦ģ
è Ľ
è¶³ çĲĥ
r o
åĮĹ äº¬
åĪ ĩ
ä¸¤ ä¸ª
ä¼ ĺ
çŃ ĸ
ä¸ ¥
ä¸Ĭ æµ·
åº Ń
èµ °
ãĢį ,
å¿ ħ
è¯ »
æĭ ¥
ç» Ŀ
éģ Ń
0å¹´ ä»£
å° ļ
èģĶ åĲĪ
äºº çī©
å¼ Ĥ
r e
åĺ ī
éĥ ¡
äºĭ ä»¶
ç» ĥ
æį ¢
åĮĹ éĥ¨
åĨł åĨĽ
é© »
å½ ¹
èµ «
åŃ¦ å®¶
èĬĤ çĽ®
æ¤ į
å² ¸
éº ¦
éĩ İ
åŃ¦ çĶŁ
å¼ Ł
ä¼ļ è®®
19 5
æ² ¹
äººæ°ĳ åħ±åĴĮåĽ½
æĬĢ æľ¯
éĢ Ĳ
åĶ ®
èĥ Į
æ¯ ķ
æĿ ¾
åĪ° äºĨ
åĬł åħ¥
é ³
å¯ º
00 0
èī ¾
è ĵ
åį ´
ä¿Ŀ æĬ¤
e l
åĪĹ è½¦
ä¹ ħ
æĢ» ç»Ł
æ¬§ æ´²
ç½ ²
20 19
èı ²
éļ Ĩ
è®¾ æľī
æĻ ļ
é ¼
å¹³æĸ¹ åįĥ
èĪ ¬
s t
å ª
åĪĨ åĪ«
æĿ¥ èĩª
ç« ¯
20 20å¹´
çĽ® åīį
ç ¯
æĺ ¥
çŁ Ń
éĢ ģ
åħ ¹
åĪĨ å¸ĥ
åħĭ åħ°
éľĢ è¦ģ
ç³» åĪĹ
ä¹ ĺ
ä½ ³
å° ½
æĿ Ł
å® Ŀ
å®Į æĪĲ
ä¸Ńåįİ äººæ°ĳåħ±åĴĮåĽ½
éĢļ å¸¸
é¡ º
æ°ĳ åĽ½
ä» Ģ
åĲĮ å¹´
æ² ¿
æľ «
æĹ Ĺ
å»º ç«ĭ
åĲ ¯
èį ī
åįĹ éĥ¨
åº ı
åŃĺ åľ¨
éĺ ¶
éĺ µ
èį ¯
å¯¼ èĩ´
èĢ ¶
éĽ Ħ
éħ Ĵ
æļ ´
æĸ¯ çī¹
æ¯ Ľ
æĪĲ åĬŁ
i on
æ³ ½
åħ ¼
é¢ ĳ
äºİ 201
åħ± æľī
åĨ ²
è½ »
è¦ģ æ±Ĥ
æĳ Ħ
çĭ¬ ç«ĭ
è· Ŀ
çĦ¶ èĢĮ
2 5
ç»Ħ æĪĲ
ä¾ĭ å¦Ĥ
æĳ ©
è¿Ļ äºĽ
æľĢ é«ĺ
éĶ Ģ
æ¬ ¾
è¿Ļ ä¸ª
è¾ ĵ
åįķ ä½į
èĻ½ çĦ¶
æµ· æĭĶ
12 æľĪ
å¼Ģ åıĳ
æĭ¥ æľī
å¸ ķ
èĩª çĶ±
ãĢĭ (
ãĢĭ ãĢģ
çģ µ
åŃ Ļ
ä¸ĵ è¾ĳ
æĺ¯ åľ¨
çŃ ¾
åª Ĵ
çĽ¸ åħ³
ä¹Į åħĭåħ°
ç± į
å© ļ
çİ Ľ
æĥħ åĨµ
çĶ¨ äºİ
ç½ ª
19 3
é¡ »
èīº æľ¯
æĺ¯ ä¸Ģ
æĿ Ĥ
äºº åĳĺ
çº ½
é¥ °
æ£ Ģ
éĽ ħ
e t
é¡ ¶
çĲĥ éĺŁ
âĢĿ ,
éĢī ä¸¾
å¯Ĩ åº¦
æĿ ¨
èģĶ çĽŁ
éĩĩ çĶ¨
æŀ ª
i l
å Ĥ
æıĲ åĩº
2 4
ä» ĭ
äºĨ ä¸Ģ
åīį å¾Ģ
åĬ ³
ç§ Ģ
åħ į
o u
7 æľĪ
çķ ¥
åıĹ åĪ°
æ² ĥ
å· ®
æĭ į
éĢ ı
è¿ ½
å® ³
äº ¿
æ ¿
ãĢĭ ,
å· ¡
o l
æĸ¹ å¼ı
9 æľĪ
çĽ ĸ
åĩ ı
èĭ ¥
è§Ĵ èī²
è´ ¢
ä¸º äºĨ
10 æľĪ
éĴ Ł
è¢ Ń
8 æľĪ
è¿ ģ
éĩ Ĭ
åĽ½ æ°ĳ
äºĮ åįģ
æĿ ¿
èī ¯
a c
å° ¾
åĲ ´
å¤§ éĻĨ
è® Ń
è ŀ
åħ· æľī
èį £
æĿ ¯
åĲĪ ä½ľ
3 æľĪ
è° ·
çĪ Ĩ
éħ ¸
äº¤ éĢļ
æķ £
æı ´
æł ĳ
æŃĮ æĽ²
åĩº çīĪ
éĽĨ åĽ¢
èģĶ èµĽ
äº§ çĶŁ
ç £
æĺ ł
çļĦ å¤§
é¦ĸ æ¬¡
å® ĭ
ä¼ ģ
è¯ ĳ
è´ Ń
äº Ī
æķ° æį®
åĸ Ħ
± ä¹Ĳ
å¾ ®
é» İ
æ´ ¥
åħ¶ ä¸Ń
èĤ ¡
å° º
è¡ ¥
çī¹ åĪ«
æ¯ķ ä¸ļ
è® ¿
å± ĭ
ç»§ ç»Ń
å® ¡
è´ µ
äº Ĵ
è¡ Ģ
é«ĺ åº¦
é¡¹ çĽ®
ç»ĵ æĿŁ
6 æľĪ
æĻ ĭ
è½ ¨
çĶŁ äº§
çĥ Ī
åģ ĩ
åĽł æŃ¤
è® ¯
éŁ ¦
ã ĥ
ãĢĭãĢģ ãĢĬ
åħ »
éĻ ©
ç»ĵ æŀĦ
èĩ £
5 æľĪ
å¸Ŀ åĽ½
é¢ Ŀ
æı ı
æī ©
2 3
éĥ¨ éĺŁ
è¥¿ äºļ
ä¸ª äºº
è¯Ń è¨Ģ
æķ ĳ
äººåı£ å¯Ĩåº¦
æ¯ Ĵ
æİ§ åĪ¶
é² ľ
å¯¹ äºİ
åĸ ľ
ç§ĳ åŃ¦
æİ¥ åıĹ
å½¢ æĪĲ
ç« ŀ
1 æľĪ
åıĸ å¾Ĺ
ä»» ä½ķ
æĹ¶ ä»£
æµ· åĨĽ
è¡Į åĬ¨
ä¸» å¸Ń
åĮº åŁŁ
æĮ ¥
å³ °
éĿ¢ç§¯ ä¸º
æķħ äºĭ
å¤ º
æĿ ľ
æ°ĳ ä¸»
èĪ ŀ
æ¦ Ĥ
éĶ ¦
è¯ Ĺ
åĩº çĶŁ
æĹł æ³ķ
è® ²
4 æľĪ
éĢ Ĥ
11 æľĪ
éĢ Ķ
çļĦ æĺ¯
ä¹Ł æĺ¯
æĭ ľ
ä¸ °
æľº æŀĦ
çİ ©
çĶ ļ
å¢ŀ åĬł
åĮº çļĦ
éĢł æĪĲ
4 0
2019 å¹´
æľ ±
å¸ ģ
çĸ Ĺ
é½ Ĳ
æ¢ ģ
èį ·
è¾ Ĩ
éĻĦ è¿ĳ
ä¸» æķĻ
è¶ħ è¿ĩ
çļĦ äºº
ç§ ĺ
å» ·
é¢Ĩ å¯¼
æĮ ī
ä¼ł ç»Ł
ç»ĵ æŀľ
ç½Ĺ é©¬
å¾ Ħ
ä»¥ ä¸ĭ
ç ĩ
å® ¾
éļ ¶
202 1å¹´
ç ¦ģ
æĴ ¤
ä¸Ń åħ±
åĿ Ģ
æĿ Ĳ
åį Ī
in g
è´ §
åĩ ¯
åĬ¨ çī©
æ¸ Ĳ
çĬ ¯
èĥ ¡
202 2å¹´
a s
åĨĽ äºĭ
2 1
ç« ¥
æķ ¦
èĪª ç©º
åľ Ĩ
ä½ ©
çĽ Ĭ
çļĦ æĹ¶
ä» ª
å¤ Ł
æłĩ åĩĨ
o m
åıĳ å¸ĥ
5 æĹ¥
èģ ļ
è° ¢
10 0
æĸ° éĹ»
6 0
éª ¨
æ· ·
çĮ ®
çĽ Ľ
åĨħ çļĦ
è¿ Ķ
åıª æľī
ãĢĭ .
ä» ģ
éĥ İ
çī Ľ
çļ Ĩ
æķ° éĩı
æŁ Ĳ
è® ¨
å°± æĺ¯
ç¿ °
åĪ ĳ
ç© Ĩ
çĤ ¸
æį ķ
éĺ¿ å°Ķ
å¨ ľ
éĿ© åĳ½
èĮĥ åĽ´
äºİ 200
c h
å¤§ åĪ©
å¸ ®
åªĴ ä½ĵ
e d
éĻ¤ äºĨ
å® ½
å¾Ĺ åĪ°
æľº åľº
å¥³ æĢ§
èĮ ¨
å®ī åħ¨
è°ĥ æŁ¥
è¿ĩ ç¨ĭ
è§ ī
æİ ¢
ä¹ĭ åīį
æł¼ åħ°
ç»ı è¿ĩ
çĤ ®
æĻ º
åº Ļ
åĨħ å®¹
åħ¬ åĽŃ
çĪ¶ äº²
å¹ ķ
æĪ ª
åĲ ¦
éģ ĩ
å¤ ľ
: âĢľ
(, ),
éŁ© åĽ½
çĶ· åŃĲ
ä¹ Ķ
åįģ äºĮ
éľ į
èµ ŀ
åħ ħ
è Ķ
æĭ ©
2 2
è½ ¯
éĩį æĸ°
å¥³ åŃĲ
å¹³æĸ¹åįĥ ç±³
åĪ »
æīĢ ä»¥
éľ ²
èµĽ äºĭ
æĽ ¿
7 æĹ¥
ä¼ ĳ
å° ¤
ç§ ģ
åĪ º
ä½į ç½®
å¹³ åĿĩ
è ĸ
å «
èĩªå·± çļĦ
çİ ī
è¿ĲåĬ¨ åĳĺ
æŁ ĵ
çºª å¿µ
å±ħ æ°ĳ
6 æĹ¥
201 0å¹´
ä¸Ģ èĪ¬
é¸ Ł
åĪĽ ä½ľ
åıĳ è¡¨
åº Ł
ä¸Ģ åĲį
ç¼ º
éĿ ł
u s
ä¸ Ŀ
ã ģ
éĴ Ī
æķ Į
åĢ Ł
æĺ Į
çİ° ä»£
è®¾ ç«ĭ
ç» ©
è¯ ī
æº ª
æĬ µ
éĤ ®
æľī éĻĲ
èģĶ éĤ¦
åĲ Ľ
å· ¨
è ľ
åĲ ¸
å® ĩ
è¥¿ çıŃ
è· Ł
çĪ µ
ä¹ ±
å±ŀ çļĦ
èĵ Ŀ
è¥¿çıŃ çīĻ
éª ĳ
å¾ ¡
2 8
å® ª
æĹ¶ çļĦ
3 1
çľ ¼
è®® ä¼ļ
åıį å¯¹
æ¼Ķ åĳĺ
æ¤į çī©
ä¸Ģ çĽ´
åĿ ¡
æ® ¿
åħ± äº§
æķĻ æİĪ
æį Ł
å¾ Ĵ
éĽ ª
æĿ¥ çļĦ
å·¥ ä¸ļ
åĽ º
æ°ĳ æĹı
è¯ ¸
ä¾ µ
åĪ Ĭ
çīĪ æľ¬
åĮ ¹
æľī åħ³
ç¬¬ åĽĽ
éĢ ĥ
åħ¬ è·¯
çĽ´ æİ¥
çİ° åľ¨
éļ Ķ
202 3å¹´
è ª
å»º è®¾
4 æĹ¥
èģĮ ä¸ļ
æī ¾
çİ¯ å¢ĥ
è° ĭ
ä¸¾ åĬŀ
èĦ ĳ
æ¶ ¯
éļı åĲİ
ä¸Ń åŃ¦
3 æĹ¥
ä¹ İ
éĢī æĭ©
åĨĽ éĺŁ
çĹ ĩ
è¿ĺ æľī
éĿŀ å¸¸
ç¿ »
æ¬ ¢
èĭı èģĶ
åıį åºĶ
ç¼ĸ çłģ
ä½ ł
çĶ ³
åħ¬ å¼Ģ
d e
ä½ĵ èĤ²
å£ ¤
éĥ ĳ
å² ©
éĵ¶ è¡Į
æ¦ ľ
è£ ģ
èµĦ æĸĻ
åħ± åĲĮ
æ± ĩ
å½¢ å¼ı
åĨ³ èµĽ
ç© ¿
æĪĺ æĸĹ
è¡Į æĺŁ
åħ Ħ
åı ¬
éĥ½ æĺ¯
åĨ °
æĺ¾ ç¤º
éĤ »
æ¼ «
åįı ä¼ļ
2 æľĪ
æĢ ¥
æ¿ Ģ
åĲį ç§°
. âĢĿ
è·Ŀ ç¦»
2 7
o f
å¥ ī
æĸ¹ æ³ķ
ç» ľ
éķ ľ
æĪ Ī
åŁ ¹
u n
åĶ ¯
æİ¨ åĩº
åĲį çļĦ
è¯ ¾
å°ı è¯´
ç¬ ¦
èĥ ŀ
åĪ© çĶ¨
å¤ļ æķ°
åĲ ¬
çĶŁ æ¶¯
æ¯ ģ
è®® åĳĺ
èĬ ¬
è¿ «
ç¾İ åħĥ
çĽ´ åĪ°
æĸ¯ åĿ¦
ä¹¦ è®°
ä¼ģ ä¸ļ
è® ¢
è° Ī
åĳ ¼
é» ĺ
åĮħ åĲ«
èĩª æ²»
å¾ ħ
æ³ķ å¾ĭ
éĽ ¨
é Ĩ
ä¸Ģ èµ·
ç®¡ è¾ĸ
æĮĩ æĮ¥
åĳ Ī
èĤ ¯
S t
è¿Ļ ä¸Ģ
åģ ¥
å®Į åħ¨
ä¸» ä»»
æĢ Ģ
èĢ ³
åı° åĮĹ
ä¸Ńåįİ æ°ĳåĽ½
çĶŁ çī©
æĸ° çļĦ
ï¼ į
çĸ ĳ
æ³ Ľ
å®¶ åºŃ
èµ µ
åĿ ļ
ä¸ľ åĮĹ
ä¸į æĺ¯
2 6
æ³ķ éĻ¢
äºº ç±»
èİ ī
éĻ µ
æĦ ¿
en t
âĢĶ âĢĶ
ã Ĥ
an d
æĵ į
æĹ ĭ
æĪĳ ä»¬
å®¶ æĹı
èĩª çĦ¶
å§ ĵ
åı¦ ä¸Ģ
æľī ä¸Ģ
åŃ¦ ä¹ł
åľ° çļĦ
åĨį æ¬¡
r i
202 4å¹´
æ¶ ī
çĶµ åŃĲ
å¤§ éĩı
æŀ ļ
æĮĩ åĩº
é¢ Ĺ
æĶ¿ çŃĸ
åħ³ äºİ
æĪ ´
æ¯ «
åŃ ©
èĦ ±
æī§ è¡Į
åĬ¨ çĶ»
çĶļ èĩ³
åĪĨ ä¸º
201 6å¹´
çĲĨ è®º
3 5
è¡¨ çİ°
èŀ į
: ãĢĮ
æľĪ1 æĹ¥
åĲİ çļĦ
å¿ħ é¡»
åĮ» éĻ¢
2 9
æļ Ĥ
åŁº ç¡
åį ±
ç» ¿
ä»¥ æĿ¥
è¡Į ä¸º
å°Ĩ åĨĽ
å¦ »
ç§ ĭ
ä¸ľ éĥ¨
çĽ ĺ
æľĢ ä½³
æģ Ĵ
å¢ĥ åĨħ
å°½ ç®¡
201 1å¹´
èĪ į
o w
æī İ
æĢ§ çļĦ
æľĢ åĪĿ
åĿ Ĳ
è Ŀ
é¡ ¾
æĸĩ åŃ¦
åŁºç¡ Ģ
æĶ¹ ä¸º
åį ·
æ¨ ª
201 8å¹´
ç¾ ½
æŁ ı
ä¸ŃåĽ½ å¤§éĻĨ
ä¹ Ī
åĬ ª
å®ĺ æĸ¹
ç¿ ¼
ç´ §
åįļ çī©
èī ĩ
åķĨ ä¸ļ
ç¯ ĩ
çľģ ä»½
è¾ Ľ
æĶ» åĩ»
æ» ¨
æĦı å¤§åĪ©
è´ ¡
åħ¬ åħ±
å¥ ı
ä¹ °
çī© ç§į
æŃ» äº¡
æĴŃ åĩº
u r
æ¡ ĳ
éĴ ±
æĬ¥ åĳĬ
ç±» ä¼¼
åĿ ı
æĻ® æŁ¥
éŃ Ķ
ç¼ ©
æľĿ é²ľ
æĶ¿æ²» äººçī©
æ´ ª
å¸Ĥ åľº
201 4å¹´
æĹ© æľŁ
èĥ½ åĬĽ
¤ Ĳ
æ½ ľ
å®ŀ éĻħ
äºļ æ´²
è Ĩ
æıı è¿°
å¢ ĵ
a d
è¯ ¯
æ¼Ķ åĩº
è§Ħ æ¨¡
8 0
çº¦ ç¿°
åĽ¢ ä½ĵ
åĬł æĭ¿
éģ ¿
å¿ ł
åħ¨ çĲĥ
ç» į
æ® ĸ
åİ» ä¸ĸ
æĭį æĳĦ
å¤Ħ çĲĨ
æĺ¯ ä¸Ģä¸ª
æł ĸ
æµ·æĭĶ é«ĺåº¦
çģ Ń
ä¹ĭéĹ´ çļĦ
è¥¿ éĥ¨
å¤ĸ äº¤
å¹¿ ä¸ľ
ä¸ĭ çļĦ
éľ ĩ
æµ Ļ
201 7å¹´
201 2å¹´
åĪ¶ éĢł
éĵ ľ
201 5å¹´
èĥ½ å¤Ł
ä¸¥ éĩį
å¤§ ä¼ļ
å» ī
ç¦» å¼Ģ
ç« ¹
çļĦ åľ°
çĸ «
åŁº æľ¬
ãĢį (
å®Ĺ æķĻ
æģ ¶
æ± ½
å® ľ
è¿ ·
i g
ä¼ į
çºª å½ķ
é³ į
ä¸º ä¸»
ä½ľ çĶ¨
è¿ ¹
è¿Ļ ç§į
éĹ Ń
å¥ Ĺ
200 1å¹´
æĮģ ç»Ń
åĿ Ĺ
åģ ı
å°ı æĹ¶
ä» ĺ
è®¡ ç®Ĺ
201 3å¹´
è·¯ çº¿
200 9å¹´
18 9
t h
æī ¬
åħ±äº§ åħļ
äºĭ åĬ¡
åŃ Ķ
è¯¥ åĽ½
ç©º éĹ´
çļĦä¸Ģä¸ª å¸Ĥéķĩ
èµ ĸ
è¡ £
8 æĹ¥
è¿ İ
7 0
å°Ķ æĸ¯
æ³ ī
åĪ ļ
è¾ ħ
t he
å¸Į æľĽ
ä»» åĬ¡
çĽ® æłĩ
æŀ Ĳ
èĦ ī
ä¸ī ä¸ª
å¥¹ çļĦ
æ± ł
ç»Ł æ²»
æİ¥ å£¤
èª ī
ä¼ °
åı¦ å¤ĸ
æĸ¹ åĲĳ
æ¸ ¡
æģ Ĳ
ç¼ ĺ
æĸĩ çī©
ç¬¬ åįģ
ä¸ľ åįĹ
åĬŁ èĥ½
èĳ £
éļ ľ
å¼ ĥ
å¹´ çļĦ
åįķ æĽ²
éĺ¿ æĭī
ãĢ ī
ãĢ Ī
åĬłæĭ¿ å¤§
çº½ çº¦
å¢ ¨
éĶ¦ æłĩ
æĭ Ľ
äº «
è· ¨
è®¾ æĸ½
æľĪ åı°
èµ ¤
å¯ »
19 2
èµĽ åŃ£
èħ Ĭ
æĺ¯ çĶ±
åī ĳ
éĢı è¿ĩ
çĶ ĺ
äº ķ
ä¿ ±ä¹Ĳ
è§Ħ å®ļ
ä¸» æĮģ
éĶ ¡
éŃ ı
çĲĥ åĳĺ
éĢ Ĭ
ä¿±ä¹Ĳ éĥ¨
éĺ »
åĪĨå¸ĥ äºİ
ä»į çĦ¶
åįļçī© é¦Ĩ
éĢī åĮº
åıĺ åĮĸ
æĥ ł
åĲĪ å¹¶
è´ ¸
è§£ æĶ¾
åĽ½ çİĭ
çĳ Ł
ä¸Ģ æ¬¡
é¢ ģ
åħ¬ å¸ĥ
å·´ å£«
å¼Ģ æĶ¾
å¹¿ æĴŃ
åĨ ¬
åħĭ æĸ¯
ç» ĺ
å¦Ĥ æŀľ
åħĭ éĩĮ
äº ®
200 8å¹´
ä»ĸ åľ¨
èĤ ī
è¾¾ åĪ°
å®ŀ éªĮ
èµ ¢
ä¹Ł æľī
åĶ¯ ä¸Ģ
åİŁ åĽł
è ¸
å½ĵ ä¸Ń
éĢĲ æ¸Ĳ
æį ·
èı Į
åıĳ åĬ¨
éĥ¨ éķ¿
äººåı£ æĻ®æŁ¥
çĥŃ å¸¦
çº ²
åĦ¿ åŃĲ
ç» ¼
é©¬ æĿ¥
åĵ ²
çŁ ¿
è¿ŀ æİ¥
å½ĵ éĢī
4 5
æ¨¡ å¼ı
å¾ Ĳ
ç ¹
å¤§ åĮº
è¾ ŀ
ç¬¬ä¸Ģ æ¬¡
ä¸ľ äº¬
åı· çº¿
çģ ¾
èĴĻ åı¤
è¿ĲåĬ¨ ä¼ļ
å®ļ ä¹ī
i d
æľīéĻĲ åħ¬åı¸
o s
çĽ¸ å½ĵ
éĺ ´
èĽ ĭ
åĲĦ ç§į
è®Ń ç»ĥ
æ´ ŀ
ç¨ ³
ç»Ĩ èĥŀ
æ½ ®
çĽ¸ åĲĮ
r a
åĩ» è´¥
å¦ ĩ
åı Ļ
æ¼Ķ åĶ±
é£İ æł¼
å¤ª å¹³
çĬ ¹
å¤ª éĺ³
å¦ ¹
19 0
èĢħ çļĦ
ç¹ ģ
I N
æ° §
éģĵ è·¯
ä½ Ĳ
c t
æĪĲ ç»©
4 8
æļ Ĺ
æŃĮ æīĭ
æİ Į
T C
æĭ Ĵ
å¥¥ è¿Ĳ
æ» ĳ
åı¸ ä»¤
æģ ¢
çİ© å®¶
ä¸ĵ ä¸ļ
å¹¶ ä¸į
éĺ¶ æ®µ
äºº å£«
t er
éĴ ¢
è¥¿ åįĹ
åĢ Ĵ
202 5å¹´
åĨ ·
åĨ Į
æī¹ è¯Ħ
. ãĢį
è¥¿ åĮĹ
èĻ İ
çĲ ´
ä¸įåĲĮ çļĦ
ç§ Ł
å»º éĢł
ä¸Ģ æł·
è®¾ ç½®
äº§ åĵģ
ä¼ Ĳ
âĢ ĵ
åĬŀ åħ¬
è½¨ éģĵ
æĺ Ĥ
ç¨ İ
é© ±
ä¿ Ĺ
å¾ ½
äºİ 199
ä¸į è¿ĩ
è¡ĮæĶ¿ åĮº
çı ł
è¢« ç§°ä¸º
éº »
èī ĺ
å¥ Ī
éĶ Ļ
ç¡ ¬
åĿ ĳ
èĥĮ æĻ¯
åľ Ī
å®ļ çļĦ
å¹ ¼
åĳ ³
çĶ º
çĪĨ åıĳ
å½ ¼
æµĻ æ±Ł
åĪĨ éĴŁ
å°ı è¡ĮæĺŁ
æĤ £
çļĦä¸Ģ éĥ¨åĪĨ
éĺ ģ
èĳ ¡
å¢ Ļ
å½ ©
ä¼¦ æķ¦
ä¹ Ļ
9 0
åŃ¦ èĢħ
å¤§ æĪĺ
æµ ¦
æģ¢ å¤į
åºĶ çĶ¨
å¸Į èħĬ
ä¸ī åįģ
æĶ¹ éĿ©
çļĦ ä¸»
åį ĸ
æ¯į äº²
è§ ¦
9 æĹ¥
èº« ä»½
çº ¸
å¯ ¿
u m
3 6
éĥ¨ éĹ¨
èŃ¦ å¯Ł
æİĴ åĲį
ç¬ Ķ
å±± ä¸ľ
è± ª
åĽ °
æ® ĭ
é£ŀ æľº
i m
åĪ¶ åº¦
åī Ĥ
ä¸Ģ ä½į
éĿĴ å¹´
ä¸į èĥ½
èİ İ
è ķ
ä¿ ĥ
ä¸ĭ è¾ĸ
è¯Ħ è®º
è¿Ľ å£«
ç² ī
æĽ¾ ç»ı
æľĢ å¤§
âĢ ¦
æĬķ èµĦ
èĦ ļ
éĢ Ŀ
é«ĺ éĢŁ
ç½ĳ ç»ľ
i r
å¤ı åŃ£
o t
è£ Ĥ
è®° è½½
æ¡ £
æ¥ ļ
æµ ª
èµ ı
æ¢ ¦
å°Ĩ åħ¶
å¯¼ æ¼Ķ
3 8
åĮĸ åŃ¦
æ² ī
èµĦ æł¼
éĽ ¶
å¤© æ´¥
o d
å¹¿ å·ŀ
æĺ Ń
äº ¨
ãĢį ãĢģ
æŁ ±
æĭ Ł
å¾Ī å¤ļ
åģ ¶
åĨ Ī
å° Ĭ
çĶµè§Ĩ åı°
å¸® åĬ©
åįļ å£«
éĤ Ģ
çļĦ æĸ°
çĽ Ĳ
200 7å¹´
å¼ ±
è® ·
çĸ Ĩ
åı «
ç¬¬ äºĶ
éĻ ·
åħ¨ éĥ¨
åĪĨ åŃĲ
å´ ĩ
æģ ĭ
ä» Ļ
æ¶ ħ
çĭ ±
ç Ĵ
è¯ Ĭ
at ion
3 7
ç¾¤ å²Ľ
äºİ 18
éĿ Ļ
å¥¥ æŀĹ
ä»» åĳ½
éĻĨ åĨĽ
åĨľ ä¸ļ
æĿĤ å¿Ĺ
æ± Ĺ
ç» ķ
åŁº çĿ£
é ¤Ĳ
I n
çļĦ çī¹
ä¸į ä¼ļ
åħ¬ å°º
æķ´ ä¸ª
åĲį åŃĹ
è£ Ķ
v e
åĲ ķ
ç®Ģ ç§°
çĶ· æĢ§
ç«ĭ æ³ķ
æ¶ ²
è ļ
å¤ļ æ¬¡
ç¥ Ń
é¢Ĩ åŁŁ
èµ¢ å¾Ĺ
å»º è®®
åıĬ åħ¶
è´Ŀ å°Ķ
ä½ľ å®¶
é¼ ĵ
ç¬¬äºĮ æ¬¡
ä¾ ¯
æ ©
è¿ŀ ç»Ń
åĪĨ æŀĲ
è¡¨ æ¼Ķ
çĸ ¾
ä¼ ´
ä¼ Ł
åįĹ äº¬
i a
ä»ĸä»¬ çļĦ
éĶ¦æłĩ èµĽ
åĲĮ æł·
èĻ ĳ
å¹¿ åľº
å¥¥æŀĹ åĮ¹
æĢ» äººåı£
ç»ı å¸¸
åĩº çļĦ
åĪĻ æĺ¯
ä¸ ĺ
åĽĽ å·Ŀ
åĮº ä¸º
åħĪ åĲİ
åıĳ å°Ħ
ä¸Ń éĥ¨
äºī è®®
5 00
åĩ ¤
å¹ ħ
åľ° ä¸ĭ
é¢ ľ
éĥ Ń
åľ° çĲĥ
æĭ Ĩ
çī §
çŃī äºº
éĢŁ åº¦
æĪª èĩ³
è®° å½ķ
è®¾ å¤ĩ
é© ¶
ç¦ı å»º
äºº ä»¬
ç»´ å°Ķ
æĲ Ń
åĩº ä»»
ä¿Ŀ æĮģ
åľ°åĮº çļĦ
æĿ¡ ä»¶
å¼ķ èµ·
æ°´ åŁŁ
200 6å¹´
ç» ª
æĭī æĸ¯
çľģ çļĦä¸Ģä¸ªå¸Ĥéķĩ
è§Ħ åĪĴ
æĹ¥ åĨĽ
ä¼Ĭ æĸ¯
æŁ ¯
æ²³ åįĹ
åıĤ èµĽ
ä¿¡ æģ¯
éģŃ åĪ°
å¹³ åı°
å±ħ ä½ı
å¤ı ä»¤
å¤ļ çļĦ
è¯¥ åľ°
é£ŀ è¡Į
U TC
åĤ ¨
ç»Ł è®¡
è¢Ń åĩ»
åĨħ éĥ¨
çĽ¸ å¯¹
å¹¿ æ³Ľ
èĻ «
çī© çĲĨ
è¿ĩ åİ»
æķĻ åłĤ
å®ĺ åĳĺ
è¶Ĭ åįĹ
S T
èĩ³ ä»Ĭ
ä¸Ģ æŃ¥
æĪĺ å½¹
200 5å¹´
æĭĴ ç»Ŀ
èĶ ¡
æĸ¯ ç§ĳ
å¤ļ ä¸ª
æ£ Ĵ
èĭ± æĸĩ
è´¸ æĺĵ
åħ ģ
è§ Ī
æłĸ æģ¯
çĵ¦ å°Ķ
å¥¥æŀĹåĮ¹ åħĭ
åŁİ åĮº
èĲ Ħ
æ¯Ķ äºļ
èĳ¡ èĲĦ
å¹ ¸
æĺİ æľĿ
ç³ ĸ
åĦ¿ ç«¥
a g
æµģ è¡Į
æľĢ æĹ©
åĩ ½
å¡ŀ å°Ķ
ç§ ¦
æ· ¡
åıĸ ä»£
æľĪ2 1
æĹ ģ
é¢ĳ éģĵ
æ¼« çĶ»
é¥° æ¼Ķ
éĻ ¶
è¿ Ŀ
ç¾İ æ´²
æľª èĥ½
æ³¢ åħ°
ç»ı åİĨ
è¡Ĺ éģĵ
æ± ¤
ç¢ ĳ
çļĦ ä¸»è¦ģ
æľĪ2 2
åĩł ä¹İ
æĮ ĳ
å·´ é»İ
æ¦Ĥ å¿µ
èĻ ļ
é ŀ
å®ŀ çİ°
æĮ ¯
âĢĿ (
ç½ĳ ç«Ļ
å¤Ħ äºİ
æľĢ å¤§çļĦ
å·¦ åı³
é¾ Ħ
çĦ¶ åĲİ
è®° èĢħ
å®ŀ æĸ½
åįı åĬ©
å® ¿
åĩı å°ĳ
æĶ¹ åıĺ
èİ·å¾Ĺ äºĨ
è§Ĩ ä¸º
è· ĳ
ä¾ į
è¿ Ī
æ® Ĭ
è½¦ è¾Ĩ
èĳ ¬
åľ° éĵģ
ä¼ ¸
éķ¿ æľŁ
å±ķ å¼Ģ
çĨ Ļ
åĪĨ ç±»
çļĩ å¸Ŀ
è¿Ĳ è¾ĵ
æĺ Ĩ
ç§ĳ æĬĢ
å¤§ éĥ¨åĪĨ
èĭ± æł¼åħ°
åĩºçĶŁ äºİ
éķ¿ çļĦ
å½± çīĩ
ç±» åŀĭ
o p
ä¼ļ åľ¨
ä¹ ĥ
èĮ ¶
çĬ¶ æĢģ
çļĦæĹ¶ åĮºä¸º
æ¯Ķ è¾ĥ
éģ į
ç¬¬ ä¸Ģä¸ª
ç»ı èĲ¥
åįł é¢Ĩ
åİ¿ çļĦ
åī§ æĥħ
æ¾³ éĹ¨
çº¿ çļĦ
æĬķ ç¥¨
ç»§ æī¿
å® ħ
ä½ľ æĪĺ
çĥ §
åĽ½ çļĦ
æ²» çĸĹ
æŃ¦ åĻ¨
éĻĲ åĪ¶
3 4
åįģ ä¸Ģ
b r
ä¸ļ åĬ¡
åŁº äºİ
èį· åħ°
çŃ ¹
è§£ åĨ³
çº ¯
å¤© ä¸»æķĻ
çĩ ĥ
èĪ° éĺŁ
å¨ģ å»ī
è½ °
åĴĮ å¹³
å¦ ®
éĶ ®
å®£ ä¼ł
l i
çº¿ è·¯
åĭ ĭ
çı į
S E
çģ ¯
åľŁ åľ°
åİ ¦
åĩĨ å¤ĩ
u b
ç´ ¯
éĽ ķ
å² Ń
åĿ Ľ
èµĦ æºĲ
T he
è¾ ½
éļ Ĳ
æĬ ĺ
çļĦ æķ°æį®
åĭ ĩ
3 9
åĩº äºĨ
è¡ ¡
s e
ä½ĵ çļĦ
a y
æĸ¹ æ¡Ī
èı ľ
æĿ¥ æºĲ
ç»Ł ä¸Ģ
è¯Ħ ä»·
çĤ İ
è¯ķ åĽ¾
é½ ¿
æ¸ħ æľĿ
çĶµè§Ĩ åī§
å³ ¡
æ±½ è½¦
åİŁ æľ¬
I I
æ¾³ å¤§
å¤§ çº¦
å®ĥ ä»¬
æĸ¯ çļĦ
åħ´ å»º
åŃ Ł
åħĦ å¼Ł
çļĦ æĥħåĨµ
éĵģ éģĵ
éĢī æīĭ
äºº åľ¨
çł´ åĿı
ãĢįãĢģ ãĢĮ
éģ £
é©¬æĿ¥ è¥¿äºļ
åįı è®®
ç£ ģ
æīĢ åľ¨
èĲ §
éĤ® æĶ¿
7 5
çĲ ³
åĽŀ åĪ°
C h
è½ ´
æķ ¬
éļı èĳĹ
åĶ± çīĩ
ä¸º æ¯ı
è¿Ľ ä¸ĢæŃ¥
å£ ģ
åĪĿ æľŁ
çļĦ å½±åĵį
è¿Ĳ è¡Į
. .
4 6
é¥ ®
ä¸» è§Ĵ
æĽ ¹
è ¦
æĶ¹ ç¼ĸ
çĬ¹ å¤ª
æħ Ī
ç® Ń
è¿Ľ æĶ»
èĩª åĬ¨
å¹ »
è¡ Ķ
å¨ ±ä¹Ĳ
è¿ĺ æĺ¯
ç²¾ ç¥ŀ
æķ ı
å°ı åŃ¦
èµ ł
ç»´ æĮģ
éĴĪ å¯¹
ä¸Ń æĸĩ
è§Ĥ ä¼Ĺ
æ¢ °
åŁº éĩĳ
e m
è´ ¤
æ² Ī
åı Ľ
è¿Ľè¡Į äºĨ
åŁİ éķĩ
æľº è½¦
18 8
å¤§ æ¥¼
çĶŁ äºİ
ç»Ħ åĲĪ
ä» Ķ
æĢ» éĿ¢ç§¯
è¿Ĳ èĲ¥
è´ ¾
ä¸» é¢ĺ
äººåı£ æķ°éĩı
åľ¨ æŃ¤
è¾ Ĳ
ä¸į ä¹ħ
éĶ ĭ
ç¯ ®
çī¹ å¾ģ
çľģ çº§
å§ Ĳ
æŃ£ åľ¨
çº ¹
å¤ªå¹³ æ´ĭ
. ãĢĬ
éĥ¨ ä»½
åĬł ä¸Ĭ
å·ŀ çļĦ
èĹ ¤
è¢« è®¤ä¸º
çģ °
äº¤ æĺĵ
o c
v er
éĿ¢ çļĦ
ç©º åĨĽ
ç»¼ åĲĪ
åĨ ¯
å¤§ åŀĭ
è´Łè´£ ç®¡è¾ĸ
åıĮ æĸ¹
éĤ ĵ
ç¡® å®ļ
éĻ ķ
æ¾³å¤§ åĪ©äºļ
èµ ´
æķĻ ä¼ļ
% .
çŃ Ķ
æľī çļĦ
è§£ éĩĬ
ç¾İåĽ½ äººåı£æĻ®æŁ¥
è¯ģ æĺİ
åĽ¾ ä¹¦
ä»· åĢ¼
è¿Ķ åĽŀ
èĳ£ äºĭ
è¦ Ĩ
åĲį åįķ
åİ ļ
æīĢ å±ŀçļĦ
å¾· éĩĮ
æĦŁ æŁĵ
åĪ Ģ
ç¨ĭ åº¦
äºĳ åįĹ
ä» °
3 2
æ³ ³
è° ±
æ¹ĸ åįĹ
æ³ķ åħ°
ä¸» æ¼Ķ
çļĩ å®¶
æ²³ æµģ
çĥ Ł
åĢ į
å°ı ç»Ħ
çİĭ æľĿ
çļĦ åīį
åħĥ ç´ł
å¼ķ åıĳ
å°Ķ å¾·
å¥³ åĦ¿
åĩ Ń
ä¿Ŀ çķĻ
çº µ
a p
æĹħ æ¸¸
æľ ĭ
æ¨¡ åŀĭ
é¦ĸ éĥ½
åħ¬ åħĥ
å¸¸ è§ģ
è¶ħ çº§
é ¬
æĺ¯ ä¸Ģç§į
è´¢ æĶ¿
èĴ ĭ
æ² Ł
ä¸´ æĹ¶
äººåı£æķ°éĩı ä¸º
åĩº èº«
çķ ª
åĬł åĿ¡
u t
å¤© æĸĩ
æī¹ åĩĨ
é«ĺ çº§
åĨ² çªģ
åĽ½ éĺ²
ç½ ķ
è®¨ è®º
å° ĸ
åĬĽ éĩı
æĺ¯ åĲ¦
ç¬¬ åħŃ
20 ä¸ĸçºª
ä½Ľ æķĻ
åĽ½ ä¼ļ
çĳŀ å£«
åĲĮ æĦı
åĽ½æ°ĳ åħļ
åĽ½ åĨħ
æ¯ı å¹´
éĩįè¦ģ çļĦ
äºĨ ä¸Ģä¸ª
çłĶç©¶ æīĢ
åı ¥
éĿ ĸ
æľº åħ³
3 00
è¶ £
é© ¾
å¹´ è½»
å¤§ èĩ£
æ¡ ĥ
è®® éĻ¢
200 4å¹´
ç»ĵ åĲĪ
çļĦä¸Ģ ç§į
åĩ ¡
äº§ ä¸ļ
å·ŀ å¸Ĥ
è¾ ī
äºĮ ä¸ĸ
è· ³
æĸĩçī© ä¿ĿæĬ¤
åĬĽ çļĦ
æĸ° åĬłåĿ¡
æŁ ´
è¿ ħ
æĽ¾ åľ¨
å¤ĸ çļĦ
åİ¿ çļĦä¸Ģä¸ª
æŃ¦ è£ħ
æĹ º
åĽ½ ç«ĭ
æĻ® éĢļ
ä¸Ĭ æĺł
200 0å¹´
ç¼ ĵ
çĨ Ł
ä¸ª æľĪ
éĽĨ ä¸Ń
ç§ĺ ä¹¦
å»º æĪĲ
ä¸Ģ å¹´
åŁ Ķ
æ°Ķ åĢĻ
åįģ ä¸ī
æİ ª
æĸ¯ åŁº
è§£æĶ¾ åĨĽ
å¤§ ä½¿
ç¥ ¥
éģ Ĥ
æĺŁ æľŁ
å¥½ çļĦ
æ §
æĶ¶ åħ¥
åıĸ æ¶Ī
ç¼ĸ åı·
äºº æķ°
åľ¨ ç¾İåĽ½
æ½ ĺ
å°Ķ çļĦ
ä¸ĸçķĮ å¤§æĪĺ
æĸĩ ä»¶
æĬķ åħ¥
å¿« éĢŁ
æī¿ è®¤
an s
è¥¿ æ´ĭ
åı¯ è¾¾
èŃ¦ æĸ¹
an t
éĿŀ æ´²
( "
æĢ» éĥ¨
å·´ è¥¿
ç»´ äºļ
ãĢģ ãĢģ
èĩ³ å°ĳ
æł¸ å¿ĥ
é¹ ¿
å¿ Ĩ
å¤§ å¤ļæķ°
éļı çĿĢ
æĸĩçī©ä¿ĿæĬ¤ åįķä½į
è ©
6 5
ä» ĵ
æĿ¡ çº¦
4 7
åĭ ¤
é£İ æļ´
åĽ½ åĬ¡
ä¹ ı
èĭ Ĺ
ä¸į æĸŃ
èĥľ åĪ©
è¿Ļ æł·
ä¸į å°ĳ
èī² åĪĹ
æĢ» çĲĨ
èĭ± è¯Ń
æĸ¯ åħĭ
èĳĹ ä½ľ
c e
åŃ Ŀ
åİ Ħ
19 1
ç¼ ħ
åĪĽ ç«ĭ
æ³ Ĭ
åŃĲ çļĦ
éĩį å»º
9 æľĪ2
10 æľĪ2
è© ¹
æĹ¶ ä»»
ç§ Ĵ
ä»İ äºĭ
å¥¥æŀĹåĮ¹åħĭ è¿ĲåĬ¨ä¼ļ
æľª æĿ¥
æľī æķĪ
å¥¥ æĸ¯
è®¿ éĹ®
åĽ¢ éĺŁ
o g
è´ ¯
çĮ İ
çĹħ æ¯Ĵ
åħ¬ æ°ĳ
è¥¿ çľģ
æ°ĳ ä¼Ĺ
åįĬ å²Ľ
æ±Ł èĭı
ä¸Ģ åº§
çļĦ å¸Ĥéķĩ
èİ ²
ä¸ŃåĽ½ äººæ°ĳ
æĶ¶ å½ķ
æħ ķ
åħģ è®¸
é©¬ åħĭ
å¹´ åº¦
æĴ Ĵ
èĳĹ åĲį
3 3
ç ŀ
æµĭ è¯ķ
èĳ Ľ
è°ĥ æķ´
åĮĸ çļĦ
æĻ ¨
ä¼ ı
ç¨ĭ åºı
çĵ ľ
éĥ½ ä¼ļ
å°ĳ å¹´
ä¹Ĳ åĽ¢
åĢ ¾
18 7
ä¸Ģ ä¸ĸ
æµ· å²¸
çİĭ åĽ½
èĽĭ çĻ½
ç»ĵ å©ļ
éļ¶ å±ŀäºİ
æĻ ¶
éĥ½ æľī
u l
ç¬¬ ä¸ĥ
çĶµ èĦĳ
åģľ æŃ¢
çĶ¨ æĿ¥
æ¢ ¯
é«ĺ çŃī
ä»¥ ä¸Ĭ
æħ ¢
åĵĪ å°Ķ
çļĦ çłĶç©¶
am p
éĺ¿æĭī ä¼¯
èĥ ģ
æİ¥ è¿ĳ
ä¸ĭ åįĪ
èĢĥ èĻĳ
è¡ĮæĶ¿åĮº åĪĴ
å±± èĦī
äºİ 198
è´ º
å°¤ åħ¶
æ®ĸ æ°ĳ
åĩ Į
æĢĿ æĥ³
çĶµ åı°
ä¸ŃåĽ½ åħ±äº§åħļ
çĽ´ èĩ³
èĹ ©
åĳ¨ è¾¹
æĸ° å¢ŀ
ä¸Ģ å¸¦
éĤĢ è¯·
æµ ®
å§Ķ ä¼ļ
åĮ» çĸĹ
ä¸į åı¯
èµ· æĿ¥
åħ³ æ³¨
ä½¿çĶ¨ çļĦ
ç´ «
åįģ åħŃ
ç¡ ķ
é¬ ¼
6 4
å¦Ĥ ä¸ĭ
çĶ³ è¯·
æĥ Ĭ
èħ ¹
in d
è§Ĥ å¯Ł
åĿ İ
åįģ äºĶ
æĺİ æĺ¾
åĨį åº¦
ç¥ĸ çĪ¶
æĶ¿ åħļ
5 5
åįģ åĪĨ
çĽ¸ ä¼¼
è¯¾ ç¨ĭ
å¡ ĳ
èĬ Ŀ
ä¹Ķ æ²»
åĮ Ī
æĢ ª
ä¿ Ĭ
åĲĪ çī©
å®ª æ³ķ
è¡¨ è¾¾
åħ±æľī äººåı£
åħ¥ ä¾µ
å£« åħµ
ä» ²
å®ī æİĴ
æĴ °
åĲ ¨
èĭ ¦
æ¯ķä¸ļ äºİ
a k
åĬ ±
ç½ ļ
åĪ° è¾¾
äººæ°ĳ æĶ¿åºľ
A T
å¨ģ å°Ķ
å¥ ´
æĶ¯ æı´
ç§» åĬ¨
åŃ¦ æľ¯
æ³ ¥
æĴ ŀ
ä¸į åĨį
18 6
3 æľĪ2
éĶĢ åĶ®
å± ¿
åĢĻ éĢī
æĿ ī
è·¯ æĺĵ
çĽ Ĺ
% ,
æĭī åħĭ
ç¦ Ħ
éĩį çĤ¹
çĶ¨ çļĦ
æĹł çº¿
è¯ ¦
ä¸ §
ä¼Ĭæĸ¯ åħ°
å Ĺ
12 æľĪ2
åºĶ è¯¥
çĨ Ĭ
âĢĿ ãĢģ
, ãĢĬ
æĹ ¨
è¥¿ åĵ¥
çī¹ çļĦ
8 æľĪ2
ä»¥ èī²åĪĹ
ç¢ į
çļĦæĹ¶ åĢĻ
çİ° è±¡
å¦» åŃĲ
éģĹ åĿĢ
çĹ Ľ
ä¸º æ³ķåĽ½
çĶ¨ æĪ·
åıĺ æĪĲ
ç² Ĵ
åľ° åĪ©
èī² çļĦ
çĮ ª
å°± è¯»
åı¯èĥ½ æĺ¯
éĩĳ å±ŀ
æĹ§ å¸Ĥéķĩ
6 æľĪ2
æĬµ è¾¾
åįģ åĽĽ
æĿĲ æĸĻ
æĹ© å¹´
é ī
éĤ®æĶ¿ ç¼ĸçłģ
ä¹ ³
æĢ» çĿ£
è´¨ éĩı
éĺ ħ
æıĲ åįĩ
ä¸į æĺİ
çĦ ¦
4 9
æŀĦ æĪĲ
å°ĳ æķ°
åįģ åħ«
åīį çļĦ
èģĮ åĬ¡
a b
åº Ĭ
è· ĥ
çĩ ķ
å®ī è£ħ
æŁ ³
ç¨³ å®ļ
åį« æĺŁ
å½ Ń
20 æĹ¥
æ± ¡
äººåı£å¯Ĩåº¦ ä¸ºæ¯ı
é«ĺ çļĦ
éĢĿ ä¸ĸ
å·¥ åİĤ
ar d
æŁĲ äºĽ
æ¯Ķ åĪ©
30 æĹ¥
å± ı
å¹´ ä»£
æ¡ Ĥ
é Ħ
èĪ Ĵ
ä½ĵ ç³»
æģĴ æĺŁ
æĬ ļ
çī© è´¨
åĴ ¸
é¡ µ
å¡ ĺ
å»º äºİ
å¤± åİ»
ä»ª å¼ı
åĿ Ĭ
SE E
å¥¥ åľ°åĪ©
éī ´
200 3å¹´
éĻĨ åľ°
äºİ19 7
åĩ½ æķ°
åĩº åı£
ç¤¾ åĮº
çĶ ¸
ç§ĳ çļĦ
åĪĽ åĬŀ
ãĢģ (
æİ ī
éĶ ģ
éĺŁ çļĦ
å¢¨ è¥¿åĵ¥
æĸ¹ çļĦ
å»º åĪ¶
ä½¿ å¾Ĺ
åĲ ĥ
æľĭ åıĭ
è° ĵ
æĲ ľ
æĵį ä½ľ
æİ¥å£¤ çļĦå¸Ĥéķĩ
è¯ ļ
æĸ ĳ
æĸĩ ç«ł
èĲ¨ åħĭ
IN SEE
äºĭ ä¸ļ
æĦı è¯Ĩ
æĻ® éģį
æ°§ åĮĸ
, âĢľ
çº ¬
ç ĺ
çļĦ å°ı
ç§» æ°ĳ
æ¯ı å¹³æĸ¹åħ¬éĩĮ
ç¿» è¯ĳ
4 æľĪ2
å¨ģ èĥģ
æ¯ı ä¸ª
å¾Ĺ ä»¥
èĤ ĥ
å°ļ æľª
åĬŀåħ¬ å®¤
æľĪ1 5æĹ¥
å¹¿ åĳĬ
7 æľĪ2
åħ¥ åı£
æĹł äºº
æ¡Ī ä»¶
è¯ ŀ
åŀ Ĵ
æĹ ¢
æĮ Ĥ
æľº æ¢°
t o
èĥ ¶
éļ §
å¹³ éĿ¢
æĪĸ èĢħ
( ;
çĬ¶ åĨµ
æ¶Ī æģ¯
å¦Ĥ æŃ¤
ä¼ļ çļĦ
éģĹ äº§
åı¬ å¼Ģ
4 4
ä¸¤ äºº
äº¤ æµģ
å¾ ª
è¡¨ æĺİ
æĦı ä¹ī
æ°ĳä¸» åħļ
æĮĳ æĪĺ
200 2å¹´
10 æĹ¥
å¯¹ æīĭ
æıĲ é«ĺ
å¼ ĺ
èģĶåĲĪ åĽ½
çľĭ åĪ°
åĭ ĥ
è¯´ æ³ķ
æķ° åŃĹ
èģĶ ç³»
çķ Ķ
åĽ¾ä¹¦ é¦Ĩ
æħ §
ç¦ģ æŃ¢
åħ¥ éĢī
åĮĹ ç¾İ
ä¸į è¶³
èº« ä½ĵ
æłĩ å¿Ĺ
ç¬¬ 1
å¤Ħ çļĦ
çĲĥ åľº
åģ¥ åº·
æĭ ĵ
å² ³
å¸ĥ æĭī
åĪĽ éĢł
å± ¯
èĳ¡èĲĦ çīĻ
ç¥ Ŀ
ç±³ å°Ķ
è¢ ĸ
åıĳ çĶµ
åľŁ èĢ³
ä¹ ¾
çº ·
ä¸¤ ç§į
æ£® æŀĹ
æĪ Ĵ
äººåı£å¯Ĩåº¦ æ¯ıå¹³æĸ¹åħ¬éĩĮ
åľŁèĢ³ åħ¶
n e
åŃĹ æ¯į
æį Ĳ
æ° ¢
i e
ç® ±
èĩªæ²» åĮº
å¤± è´¥
å¸Ĥéķĩ ç¼ĸçłģ
ãĢ İ
çī¹ æ®Ĭ
åĮ» åŃ¦
ãĢ ı
åħ ½
çĳŀ åħ¸
çļĦ é¦ĸ
åį ĳ
äºİ æĹ¶çļĦ
ç±³ çļĦ
åĪĹ ä¸º
æ£ ĭ
ä¸Ģ åĲĮ
äººåı£å¯Ĩåº¦ä¸ºæ¯ı å¹³æĸ¹åįĥç±³
åĲĮ ä¸Ģ
æĻ ĵ
å½ĵåľ° åħ±æľīäººåı£
çĶŁ åĳ½
æ²³ åĮĹ
äºº å¤§
åľ ³
èĩª è¡Į
åį ¿
æµ ħ
ä¸ľ è¥¿
é«ĺ ä¸Ń
å»¶ ä¼¸
å¼º è°ĥ
éħĴ åºĹ
çľģçº§ éĢīåĮº
æīĢå±ŀçļĦ çľģçº§éĢīåĮº
å¸ĥ é²ģ
åį« çĶŁ
å¹¶ æ²¡æľī
çľģ åĴĮ
åĬ¨ åĬĽ
åĲĦ åľ°
ç¼ĸ è¾ĳ
å¥ĸ é¡¹
ä¸Ń å±±
11 æľĪ2
çĽ® çļĦ
éľĢ æ±Ĥ
åĳ½ ä»¤
éģ¿ åħį
6 8
æĬ¥ å¯¼
åıĹ ä¼¤
èĲ¥ è¿Ĳ
ä¼° è®¡
è½° çĤ¸
åıĪ ç§°
ç¼º ä¹ı
æľ¬ åľŁ
è¿ħ éĢŁ
æĹ ¦
åıĳ èµ·
ä¸Ģ å®¶
æµ· åŁŁ
R e
æī °
18 æĹ¥
æĲ ¬
æ³¨ æĦı
æ¬¢ è¿İ
æĶ¿ æĿĥ
éĩĮ çļĦ
ä¸» å¼ł
åİĨåı² ä¸Ĭ
å¹¶ æľª
éĥ Ĭ
åī ©
äºİ19 4
è¾¾ æĪĲ
æĸ¯ å¡Ķ
åĲ¸ å¼ķ
çĹĩ çĬ¶
ä¿¡ åı·
æı Ĵ
é² į
åĸ Ģ
å¤ĸ åĽ½
çŁ¥ éģĵ
è§Ħ åĪĻ
åĽĽ ä¸ª
ä»ĭ ç»į
S A
äºº åĴĮ
å®ī å¾·
ä¹ĺ å®¢
éĩĳ èŀį
æķĻ ç»ĥ
å¿ĥ çĲĨ
æĿ Ĩ
æĴ¤ éĶĢ
çİ »
ä¾ ¦
éľ ¸
ä¸ ²
is t
å°¼ æĸ¯
è´ ŀ
åı¯èĥ½ ä¼ļ
æķ° åŃ¦
éĥ¨ èĲ½
å´ İ
å¸Ĥ çļĦ
ä¹Ł åľ¨
æĽ´ åĲįä¸º
31 æĹ¥
T V
an g
ç¬¬ 2
5 æľĪ2
éĵ ¾
æĦŁ åĪ°
åħ¬ ä¼Ĺ
æ¬ ²
å½¼ å¾Ĺ
èĥ İ
æķĪ åĬĽ
A n
äºĭ å®ŀ
4 00
çĶŁ éķ¿
å°Ķ åħ°
æķĻ å¸Ī
ä» ¿
éĩĩ åıĸ
æİ¨ åĬ¨
æķĻ åŃ¦
es t
æµ ĵ
è ¹
åįĹ åĮĹ
èĳĹ åĲįçļĦ
å¤§ è¥¿æ´ĭ
èµĦ è®¯
è´Ń ä¹°
ä¿¡ ä»°
æī§ å¯¼
æŀ ¢
é¼ ł
ä¸Ńåħ± ä¸Ńå¤®
æĸ¯ èĴĤ
çļĦä¸Ģ åº§
è¯ ¢
çļĦ æĸ¹å¼ı
ä¼ Ļ
ç¥ŀ ç»ı
åľ¨ 199
å½ »
èĽ ĩ
åį ĵ
æĶ¾ å¼ĥ
åŁº åľ°
çİ° åľº
æĬ¥ éģĵ
12 æĹ¥
æĴŃ æĶ¾
19 æĹ¥
éĩį åºĨ
åĵģ çīĮ
çļĦ åĲĮ
2 æľĪ2
åįģ åŃĹ
âĢĿãĢģ âĢľ
å¤§ éģĵ
æ³ķ æ¡Ī
ç¨ĭ å¼ı
åıĤ èĢĥ
çļĦ ç¬¬ä¸Ģ
è´¡ çĮ®
æĭ ³
ç½ĳ è·¯
åĩº æĪĺ
æīĵ åĩ»
åĳ½ åĲį
å£ ®
èĭ± éĽĦ
å®¹ æĺĵ
) ;
11 æĹ¥
ç¬ ĳ
åİ ĺ
åĨĽ çļĦ
æ³° åĽ½
åįĹ æŀģ
ç§¯ æŀģ
æĵ İ
æĬĹ è®®
åĸľ æ¬¢
åĽ½åĬ¡ éĻ¢
ä¸Ģ åº¦
æı Ń
åī ²
äºĭ æķħ
ä¸Ģ æĿ¡
ä¹Ŀ é¾Ļ
å¤º å¾Ĺ
çī ł
è¯ģ æį®
äºİ19 6
æĢ§ è´¨
æİ¥ è§¦
äº Ń
éĺŁ ä¼į
N A
æ´ Ĺ
åį ľ
è£ħ çĶ²
æī ®
å° Ŀ
èµ Ĳ
å¤ļ ç§į
çŁ¥ è¯Ĩ
å±Ĭ åħ¨åĽ½
åį¡ å°Ķ
èĤ º
äºİ19 5
çĶŁ æĢģ
å¼º çĥĪ
æ¹ĸ åĮĹ
çª Ĺ
èĬ ³
æĮ ª
å®ī å¾½
å±ķ ç¤º
çĸ ı
å¤į æĿĤ
èĢĮ è¢«
æ¶ī åıĬ
æĽ´ å¤ļ
æľ¬ èº«
ä¸ĸçķĮ æĿ¯
çł ²
å®Į æķ´
èı² å¾ĭ
æĿĥ åĬĽ
çļĦ åİŁ
éĩĮ äºļ
èı²å¾ĭ å®¾
äºº å·¥
æĿ Ń
è¥¿ æĸ¹
å¸Ĥ åĮº
ç»´ å¥ĩ
ç¾½ æ¯Ľ
çİ Ħ
ä¸ĩ ç¾İåħĥ
åħ¬ ä¸»
çĪ± å°Ķåħ°
è´ «
èį¯ çī©
æĬ ¢
åħ¶ å®ĥ
ç¾İ æľ¯
åħī ç»ª
ä¸į å¾Ĺ
èĢĮ æĪĲ
æĸĩ çĮ®
æĿĳ åºĦ
æĦı è§ģ
è± Ĩ
éĢ Ĵ
ä¸ī å¹´
éĵ º
5 8
ä»Ģ ä¹Ī
1 æľĪ2
æ¸ Ķ
å¸Ĥ æ°ĳ
å¼ķ æĵİ
éĢ Ĩ
åĨħ éĺģ
in e
åŁĥ åıĬ
å£ ³
æĿĥ åĪ©
æĹħ å®¢
å« Į
è´ ´
é«ĺ éĽĦ
çļĦ éĩįè¦ģ
åŃ¦ ä½į
æ¹ ¿
t e
æĬ ½
é¢Ĩ åľŁ
çĬ ¬
å®¢ è¿Ĳ
çĪ¶ æ¯į
ç®Ģ åįķ
çļĦ æµ·
å¾ĭ å¸Ī
æº ¶
æİĪ äºĪ
æİª æĸ½
è¡¨ éĿ¢
æĭī ä¸ģ
éĽ ĩ
æľº ä¼ļ
çĮ «
æľĢåĲİ ä¸Ģ
ç®Ģ ä»ĭ
æ°ĳ éĹ´
å¦ ĥ
ä¹¾ éļĨ
åĴĮ åħ¶ä»ĸ
éķ¿ åº¦
èŀ º
èĤ¡ ä»½
æķĪ æŀľ
çŃ¾ ç½²
èģ ĺ
è±¡ å¾ģ
å¯ Ħ
ç² ®
åıĳ åĶ®
èį£ èªī
æĸ¯ æĭī
åľ° éľĩ
ä¼ł è¯´
å° ī
éĻį ä½İ
å£° ç§°
o b
é£ ĵ
æ·± åľ³
æĤ ¬
å½¢ è±¡
åħĭ ç½Ĺ
l y
äºļ åİĨ
ç¡® è®¤
ç¡® è¯Ĭ
4 2
ä¹Ł è¢«
å¦Ĥ ä½ķ
å· §
åĽł ç´ł
æĿ¥ åĪ°
åħ¨ éĿ¢
æ°´ å¹³
ç¢ ³
æĮī çħ§
çĬ¯ ç½ª
é£ĵ é£İ
çĽ ¾
åıĳ åĩº
çĪĨ çĤ¸
åı Ķ
è¿ Ł
æľĪ1 6æĹ¥
å°ı çļĦ
é¢Ĩ è¢ĸ
åĮ» çĶŁ
ç«ŀ äºī
è¢ ģ
çħ ¤
t w
æľī æīĢ
åĩºçİ° åľ¨
å·® å¼Ĥ
åŃ¦ ä¼ļ
ä¼ł æĴŃ
ç¨ ¿
å® ı
æ´ ģ
ä¸ĵ éĹ¨
æľĪ1 7æĹ¥
6 7
ä¸ Ī
æĸ ľ
æĸĩ åŃĹ
ä¼Ĭ æľĹ
åıĻ åĪ©äºļ
ç¾ Ĭ
åı¤ ä»£
æ°Ķ è±¡
ä¸ Ļ
å·¥ åħ·
ä¹¡ è¯ķ
åŁºçĿ£ æķĻ
O S
åĲİ æľŁ
æ¯« ç±³
èµĦ éĩĳ
Â °
åı° åįĹ
éļ§ éģĵ
= "
æĪı åī§
çī µ
èĨ ľ
èħ ¾
å½ĵæĹ¶ çļĦ
é«ĺ äºİ
èµ· æºĲ
æĬ ¼
å° ¸
åıª æĺ¯
å°ļ ä¹¦
æ²³ çķĶ
æįŁ å¤±
æľĪ22 æĹ¥
ï ½
çļĦ åľ°æĸ¹
åĨ Ĵ
å¡ «
ç»Ļ äºĪ
åıª èĥ½
è¾¹ çķĮ
åı°åĮĹ å¸Ĥ
é³į é±¼
å¸Ī èĮĥ
çĸ¾ çĹħ
è¾ ©
ä¸º ä¸Ģ
çĽ¸ æ¯Ķ
åĿ¦ åħĭ
ä¸į æ»¡
ç»ı éªĮ
å°Ķ çī¹
éĿ¢ å¯¹
çĲĨ äºĭ
è¡ į
å¹¶ éĿŀ
18 5
o k
å¥ ĳ
è£ ķ
éĴ ¦
B C
a v
ä½ľ æĽ²
äº¨ åĪ©
ä» ĳ
è¡ °
å§ »
ä¸ľ åĮĹéĥ¨
åĩº å¸Ń
æ° Ł
ç½ ¢
æľ¬ ç«Ļ
è¸ ª
åĪĹ è¡¨
éĢĢ å½¹
å·¡ åĽŀ
æľĪ1 4æĹ¥
å²ģ çļĦ
åĪĽ å»º
é¸ ¡
æĺİ æ²»
çĻ» éĻĨ
æĢ§ åĪ«
æĪĲä¸º äºĨ
èĮ Ĥ
ä½ı å®ħ
9 9
è ²
çĲ ī
åľ° éĿ¢
åŃ© åŃĲ
åĪĹ åħ¥
åĽŀ åºĶ
åħĭ èİ±
æľĪ21 æĹ¥
å® Ļ
ç«Ļ åı°
åı¸ æ³ķ
çİĩ é¢Ĩ
è´µ æĹı
èĪŀ åı°
åĩł ä¸ª
è½¬ ç§»
ç¤¾ä¼ļ ä¸»ä¹ī
å¦ Ī
å®ŀ è¡Į
å£° æĺİ
åĨ¬ åŃ£
åŁº åĽł
ä¸¾è¡Į çļĦ
ç² ¹
æĪĺ åĲİ
èĭ± å°º
çĶµ è½¦
ç§į æĹı
æ¾³ æ´²
æµ· æ´ĭ
èĤ ¥
çļĦ é«ĺ
äºİ æĺ¯
å°ı åŀĭ
çº¦ ä¸º
åıĤ è°ĭ
åĸ ·
åħ³ éĹŃ
æĽ´ åĬł
ç¬¬ åħ«
åĳ½ åĲįä¸º
èį Ĵ
æµģ åŁŁ
åĥ §
3 ä¸ª
ä¸ľ æĸ¹
æĪĲ æľ¬
Y ou
åįģ ä¸ĥ
7 8
è£ħ ç½®
ä¿® æĶ¹
è¾ĥ ä¸º
æ ĩ
éģ µ
çĭ Ħ
ç¤º å¨ģ
åį¢ çĵ¦å°Ķ
A l
ä¸Ģ å®ļ
å½¢ æĢģ
çĸ« æĥħ
éĹ´ çļĦ
æµ ©
ar t
æīį èĥ½
åıĺ å¾Ĺ
ç¡ķ å£«
å½ĵ å±Ģ
åıĤåĬł äºĨ
èĬ¬ åħ°
é¸ ¿
å´ Ķ
çİĽ ä¸½
ç¬¦ åĲĪ
é©± éĢĲ
æĦı æĢĿ
æľĪ1 3æĹ¥
é«ĺéĢŁ åħ¬è·¯
æľº åĻ¨
æµĭ éĩı
h a
é³įé±¼ çº²
æŃ£ å¸¸
å¸ ħ
éĢļ è½¦
æĮĩ å®ļ
èİ« æĸ¯ç§ĳ
æĸ° çĸĨ
çļĦ ä¸ī
å² Ĺ
çļĦ åĽ½å®¶
åı¦ ä¸Ģä¸ª
é¥ Ń
é¡¾ éĹ®
å¼Ģ è®¾
æĥħ æĬ¥
6 6
èĭı æł¼åħ°
å¼ ¥
åįģ ä¹Ŀ
ä¸Ń æľī
éħį åĲĪ
é£Ł çī©
æ·· åĲĪ
æĢ Ĵ
æĶ¹ éĢł
æ¶ µ
å§Ķ ä¹¦è®°
æĶ¶ è´Ń
åĵ² åŃ¦
ä¿ ĺ
å¾Ī å¿«
åħ¬åı¸ çļĦ
è¾Ĳ é³įé±¼çº²
èĢ Ĺ
çģ« ç®Ń
éĻĨåľ° éĿ¢ç§¯ä¸º
9 5
åĪĨ éħį
æ°´åŁŁ éĿ¢ç§¯ä¸º
æ¬ £
æ¶ ¦
u p
è¯´ æĺİ
åŃ ¤
ä¹Ł ä¼ļ
éħį éŁ³
èĢ Ģ
h t
å¼Ģ éĢļ
åĮĪ çīĻ
æŃ ĩ
éķĩ åĮº
è¥¿ èĹı
åıĳçİ° äºĨ
ä½ľ èĢħ
çŁ ¶
çĭ Ĥ
æķ´ ä½ĵ
æ³ķ å®ĺ
éĻĦè¿ĳ çļĦ
èµ ¶
å¯¼ å¼¹
æĮª å¨ģ
åĮĪçīĻ åĪ©
es s
8 8
éķ¿ åı¯è¾¾
15 0
åĤ ħ
èĢĮ è¨Ģ
å¯¹ è±¡
ç¥ Ģ
æĥ ¯
è£ħ å¤ĩ
çĭ ®
éĻ Ģ
åº· çĨĻ
å¯ ¸
ç¿ Į
ï½ ŀ
æµ· å¤ĸ
åħĭ æĭī
è¯· æ±Ĥ
æıĲ åĪ°
æĶ¹ åĸĦ
æģĲ æĢ
i k
å¯¹ æŃ¤
çĶ¨ ä½ľ
åĬ¨ ä½ľ
æµ· å³¡
åŀ Ĥ
æĪĺ çķ¥
ç¥¨ æĪ¿
å½ĵä¸Ń éĻĨåľ°éĿ¢ç§¯ä¸º
åľ¨ åħ¶
ä¸Ģ éĥ¨
ç§ĺ å¯Ĩ
ä¸ĭ éĻį
çĶµ åĬĽ
çĹħ ä¾ĭ
ç½Ĺ ä¼¯
èĦ Ĥ
er s
å¤ ·
åİ ¢
æŁ Ķ
ç² ¤
äºļåİĨ å±±
åĬ³ åĬ¨
åľ° çĲĨ
ä¸ľ åįĹéĥ¨
æłĩ ä¸º
æŃ¦ æ±ī
æĤ ī
ç¼ħ çĶ¸
åįİ çĽĽ
çĭ Ĺ
éĤ£ éĩĮ
éĢĢ ä¼ĳ
i p
åľ° ä½į
å®¶ çļĦ
å¸Ĥ éķ¿
äº¦ æľī
å¹¿ä¸ľ çľģ
å¸ĥ å°Ķ
åĩº æ¼Ķ
å§ ļ
èµ· ä¹ī
åĽŀ å½Ĵ
æ» ļ
æŃ¥ åħµ
è¦Ĩ çĽĸ
ç¼ĸ åī§
ç¢ İ
éĢ ¢
è§Ĥ æµĭ
ç§ģ äºº
æľĢ è¿ĳ
å°Ĩ ä¼ļ
çĮ Ľ
æī¾ åĪ°
åľ¨ æĹ¥æľ¬
æ¯Ķ ä¾ĭ
u e
åľ° åĽ¾
B A
çĲĥ ä¼ļ
æ·± åº¦
åľº æ¯ĶèµĽ
çģ Į
æİ¨ è¿Ľ
åįİçĽĽ é¡¿
é¢Ħ è®¡
å½ °
ä»» èģĮ
èĬ Ĵ
åĲĪ çº¦
åħ´ è¶£
æĳ ĩ
å®ŀéĻħ ä¸Ĭ
åĪ ¸
æľī ä¸Ģä¸ª
ä¸ĩ äºº
çľŁ æŃ£
ç»ı åħ¸
éĥ¨ çļĦ
ç¬¬ 5
å¹¿ è¥¿
è¯ķ éªĮ
åº ŀ
ç»Ħ å»º
åĳ¨ åĽ´
éĩį å¤§
é£İ éĻ©
æºĲ èĩª
å°Ŀ è¯ķ
ä¿Ŀ åŃĺ
å®ĥ çļĦ
åĬł çĽŁ
å¼ķ åħ¥
æĬķ éĻį
éĺ² å¾¡
å¾¡ åı²
æłĸæģ¯ åľ¨
ow s
å¹¶ åħ¥
æ» ©
èĬ± åĽŃ
æĿĢ æŃ»
i f
ç¬ ¼
å¹¶ ä¸Ķ
å» Ĭ
, ãĢĮ
ä¼ ª
åĳ İ
çĶŁ çļĦ
ç¬¬ 3
ç¾İ åĨĽ
åģ ·
å²Ľ å±¿
åĪ¶ çļĦ
åĮĹäº¬ å¸Ĥ
âĢ¦ âĢ¦
éĺ ª
å¸¦ æĿ¥
æľī æĹ¶
èį Ĳ
éļı åį³
å¹´ éĹ´
æľĢ å¤ļ
ä¸Ĭ åįĪ
å¥ İ
åĬŀ äºĭ
è´£ ä»»
è©¹ å§Ĩ
ä»£è¡¨ å¤§ä¼ļ
éĢ »
èĤ ĸ
å£° éŁ³
ä¸º æŃ¢
éħ ¶
å¹´ é¾Ħ
è®º æĸĩ
çĶ¨ éĢĶ
éĩĮ æĸ¯
åİĭ åĬĽ
çı Ĭ
ä¾ ł
è¿Ļ æĺ¯
æ¸© åº¦
è®² è¿°
åĲ ¾
äº¿ ç¾İåħĥ
çħ§ çīĩ
çļĦ ä¸Ń
çļĦ æĹ¶éĹ´
æľī äºº
æŀ Ŀ
è¿Ĳ ä½ľ
ä¿ĥ è¿Ľ
ä»£ çłģ
åľ¨ è¿Ļ
ä¼ĺ åĬ¿
W ind
å¤§ è§Ħæ¨¡
å¾Ĺ çŁ¥
æĮĩ å¯¼
è½¯ ä»¶
è§£ æķ£
è¢«è®¤ä¸º æĺ¯
åĲĮ çĽŁ
æ¹ ĺ
ç¿ ģ
è°Ī åĪ¤
çĴ ĥ
èµ ĭ
éļľ ç¢į
åĲį ä¹ī
; -
18 0
å¨ ĥ
åĵ¥ ä¼¦
å¤ıåŃ£ å¥¥æŀĹåĮ¹åħĭè¿ĲåĬ¨ä¼ļ
å¤ļ å¹´
ä¸ŃåĽ½äººæ°ĳ è§£æĶ¾åĨĽ
æŀĦ éĢł
éĺ Ķ
èĥ ¸
çº¢ èī²
éļ¾ ä»¥
4 3
å¼ ¦
æģĲæĢ ĸ
çļĦ ä¸¤
æĮĩ æİ§
éŃ Ĥ
åį µ
æľī äºĽ
æł ı
äºĨ è§£
A R
ä¸ĩ åİĨ
A M
ä» ĩ
ic e
çŁ¥ åĲį
9 8
ä¸Ĭæµ· å¸Ĥ
el l
åİĨ ä»»
åĲ Ĳ
B S
æ±Ł è¥¿
I C
g e
æľ ´
é©¾ é©¶
éĤ£ äºĽ
åĲ ı
ä¸ī è§Ĵ
è¯Ń çļĦ
éĩı çļĦ
åı ł
æ· ĺ
ç½ĳ çĲĥ
æĹĹ ä¸ĭ
( ).
7 6
éĤ ¨
æ³¨ åĨĮ
å©ļ å§»
ä¸Ģ é¢Ĺ
æĪĸ æĺ¯
å®ĩ å®Ļ
æī® æ¼Ķ
åı° ä¸Ń
å± ł
åĮĸ çŁ³
åĬł å¼º
æĳĦ å½±
ç¡ «
é©¬ æĭī
èħ Ĳ
éĶĻ è¯¯
é©¬ å°Ķ
æĲ º
æ¼ĶåĶ± ä¼ļ
èĪ ±
åı° é£İ
æķĻ åĮº
æ·¡ æ°´
s p
å½ ¦
å¤ª ç©º
ç³»ç»Ł çļĦ
è¥¿ åįĹéĥ¨
æŁı æŀĹ
b o
åħĭ çļĦ
èĦ Ĭ
æľį å½¹
åĲĪ æĪĲ
éĻĨ ç»Ń
éĢ ®
è² Į
æī© å¤§
æĺ¯ æĮĩ
åĺ ´
18 4
é¹ °
åĬł åĪ©
è§Ĥ çĤ¹
çļĦ å±±
æĶ¿ åįı
éļ¶ å±ŀ
u d
æŃ §
ä½ľ åĩº
" )
æĽ¾ ä»»
å¸¦ æľī
æĹ ¬
ç¨ į
åı ī
çĻ½ èī²
çĲĥ åŃ£
äººåı£ ä¸º
ä»· æł¼
éĩĬ æĶ¾
æĶ¿åºľ çļĦ
åľ¨ ä¸ŃåĽ½
ï¼ ı
åĳĪ çİ°
å®ļ å±ħ
çĽ¸ ä¿¡
æīĢ å±ŀ
é¦ĸ åħĪ
å¨ ĺ
ä¿Ŀ ç½Ĺ
åĪ ·
ç¿ ł
åħ¼ ä»»
åĽº å®ļ
æİĴ è¡Į
éĹ ½
æģ °
éĺ¶ çº§
è¥¿ åĮĹéĥ¨
æł¡ éķ¿
èĿ ¶
ct ion
ç¯® çĲĥ
çļĦ åİĨåı²
æ¸¸ æ³³
æı ¡
çĽ¸ äºĴ
åħ³ éĶ®
è¥¿ å®ī
ç«ĭ åį³
åŀĭ çļĦ
4 ä¸ª
7 7
éĢļ è®¯
åįģ å¹´
è®¾ å®ļ
èĸ Ħ
éªĳ å£«
åĿ ª
ä½ı æ°ĳ
å¯¹ å¤ĸ
æ¯Ķ å¦Ĥ
æ· »
éªĳ åħµ
å© Ĩ
æĸ¯ æŀĹ
éĽ Ģ
çİ° æĹ¶
å¸¦ é¢Ĩ
éĵ Ń
æĸ¹ è¨Ģ
ä¸Ģ èĩ´
10 00
ä¿® å»º
ä¸° å¯Į
å¿ §
è¶ ĭ
ä¼ĺ ç§Ģ
éĨ Ĵ
ç¬¬äºĮæ¬¡ ä¸ĸçķĮå¤§æĪĺ
2 ä¸ª
6 00
å· «
æ· ®
å±ķ è§Ī
al l
åľ° çĤ¹
åĪ¶ å®ļ
åĨħ éĻĨ
ä¾Ľ åºĶ
çľŁ å®ŀ
è¯ ı
éĿŀ å»ºåĪ¶
ç¾½æ¯Ľ çĲĥ
ä¼Ĺ å¤ļ
æĺ¯ ä»¥
æĦı å¿Ĺ
å¤ª åŃĲ
é¸ £
åĬ¿ åĬĽ
è¾ĵ åħ¥
Wind ows
ä»»åĳ½ ä¸º
ä¸¤ æ¬¡
æĬĹ æĹ¥
çļĦ å¤ĸ
æİ ĺ
en d
åħ· ä½ĵ
åį° å°¼
èĩª èº«
å·ŀ åºľ
æľĿ å»·
éĺ ®
å·¥ äºº
å·² è¢«
æ´¾ éģ£
å µ
å¤ļ å°Ķ
å±± è¥¿
æĹ¶æľŁ çļĦ
å¾Ģ å¾Ģ
æ£Ģ æµĭ
å§ ¬
å¯» æī¾
ä¸İ åħ¶ä»ĸ
å¯¹ åºĶ
P ro
äºİ19 3
æľº çļĦ
é»Ħ éĩĳ
ä»£è¡¨ åĽ¢
çªģ çł´
é¼ »
æĿ° åħĭ
ç»ĦæĪĲ çļĦ
åľ¨ è¯¥
ä¹Ĳ éĺŁ
ä¹ĭ æĪĺ
ãĢĬ ãĢĭ
çģ« å±±
çĽĳ çĿ£
åĹ £
å¼Ģ å±ķ
æĦ Ī
æĿī çŁ¶
S p
éĩĳ çīĮ
æ´Ľ æĿīçŁ¶
çĽ¸åħ³ çļĦ
æ° ¯
çĶµ è¯Ŀ
è¿ĩç¨ĭ ä¸Ń
æĸ ¤
è¢« è¿«
æıĲ åĲį
æ³¢ æĸ¯
åĦ Ĵ
çĻ» ä¸Ĭ
åħ Ĩ
èĭ ĳ
çªģ çĦ¶
åĮĹ æµ·
çİ° ä»»
ä¸¹ éº¦
å®ŀéªĮ å®¤
æĺ¯ ä¸ŃåĽ½
èĮ µ
åĽ½å®¶ çļĦ
ä¾Ŀ æį®
åħ¶ åĲİ
éĢĢ åĩº
i o
çī¹ å®ļ
åģ ¿
åįĹ æĸ¹
ä¸Ģ çº§
ä¸Ģ æ®µ
åħ¬ çĪµ
æĳ Ĩ
åį Ĵ
æ± ª
ä¸ī ä¸ĸ
il l
åĳĺ å·¥
æĻļ ä¸Ĭ
åĲĽ ä¸»
å¯ ¨
åĨĽ å®ĺ
åľº çļĦ
å°ĳ å¥³
ac e
r y
å¦ĩ å¥³
æĺİ ç¡®
æ²¿ æµ·
åĳ¨ å¹´
å¤§ æ¡¥
æĪ¿ å±ĭ
éĢ® æįķ
åĨĽ åĮº
è½¬ åĲĳ
å¥¥è¿Ĳ ä¼ļ
æī© å±ķ
å¤ ķ
ä¾ ¨
éĥ½ å¸Ĥ
èµĦ äº§
7 9
èĦ ı
éĻ ¨
4 1
ä»£ çĲĨ
è¯ģ å®ŀ
ç»Ŀ å¯¹
æ¬§ åħĥ
S h
åľ¨ é¦Ļæ¸¯
åĬ Ŀ
åĩ Ģ
å¯¹ æĬĹ
å¤§ åİ¦
la y
8 5
ä¸ Ľ
è¾ °
æ£Ģ æŁ¥
on g
äºļ ç¾İ
è§Ĩ é¢ĳ
åĽ½å®¶ éĺŁ
a in
åĮĸ åĲĪçī©
ç² Ĺ
åĲ¯ åĬ¨
çī¹åĪ« æĺ¯
Ã ©
æ³ķåħ° è¥¿
åĪĨ ç¦»
U n
éĵ ¸
åİŁ åĪĻ
å¤§ èµĽ
åī§ æľ¬
ç´§ æĢ¥
è¯Ħ ä¼°
ä¸ĵ å®¶
åĮĹ æĸ¹
ä¸¤ å¹´
åĨľ æ°ĳ
åĵ¥ä¼¦ æ¯Ķäºļ
6 9
éĻķ è¥¿
åĬł æĭī
æ¶ Ĥ
åĿĩ ä¸º
ä¸ ĳ
çŃī ä¸º
è®¡ç®Ĺ æľº
æĽ´ ä¸º
b e
ç§ĳ å¤«
A C
ä¿Ŀ å®Ī
åī§ éĻ¢
åºŁ éĻ¤
åĬ «
ä¸Ń è¢«
ç»ı çĲĨ
L e
çŁ ©
åĢ ¡
çķĻ ä¸ĭ
I S
æī «
è´ ©
æ± °
è´¨ çĸĳ
çŃ¾ è®¢
åı² ä¸Ĭ
é¦ĸ ä¸ª
åħĪ çĶŁ
æ± Ģ
1 ä¸ª
åĨĽ åĽ¢
å½¢ å®¹
ä¸ĭ ä»¤
ä¸Ĭ è¿°
èĲ¨ æĸ¯
éĦ Ĥ
1 20
æĹ¶ æ®µ
å¼ ¯
ç±³ äºļ
ç»´ æĬ¤
O N
çīł ä»¬
åŃ¦ å£«
ä¸į ä»ħ
èĥ½ éĩı
éĢī ä¸º
æĭ ĺ
éĽ Į
ä¸»è¦ģ çļĦ
åįĩ çº§
çİĩ ä¸º
åĲ¯ çĶ¨
é© ³
åİŁ åŃĲ
æ½ Ń
a st
åħļ çļĦ
é¾ Ł
éĺ» æŃ¢
åŁİ åł¡
å½ĵ å¹´
å¤© çļĦ
ä¿Ŀ éļľ
åĭĭ ç«ł
æłĩ æľ¬
ç©Ĩ æĸ¯æŀĹ
åĽ° éļ¾
çŃī åľ°
ç§ĳ åŃ¦éĻ¢
æ¶ Į
äºļç¾İ å°¼äºļ
åľ¨ å¤§
or t
åħ¨ éķ¿
åł ª
ç£ ¨
æıĲä¾Ľ äºĨ
åı· çļĦ
çł ĸ
ç»Ļ äºĨ
èĵ ¬
éĨ ĩ
å¯ Ĵ
åĪ© çĽĬ
æ»¡ è¶³
åĢĻéĢī äºº
åĺī éĿĸ
å¥¥ å°Ķ
p h
å¿ ½
æĿ¥ è¯´
é©¬ éĩĮ
æĥ Ł
åĢ º
å¤§åŃ¦ çļĦ
åįĹ éĿŀ
æ¸¸ è¡Į
åıĤ éĢī
æķ ¢
åľ¨ äºİ
ä¸ĸçķĮ ä¸Ĭ
æĶ¶ è§Ĩ
åĪº åı²
å° ¹
20 20
å¼Ĺ æľĹ
åħ¬ å®ī
åĳ¨ æľŁ
æ¶Ī è´¹
å¥ Ķ
åĭ Ł
æ°Ķ æĹĭ
éº¦ åħĭ
æĬ ĳ
- -
çļĦ æķħäºĭ
æº ¯
å¤į åħ´
éĹ ª
çº³ ç²¹
æĸ¯ é¡¿
æ´» è·ĥ
ä¿® æŃ£
éĤ» è¿ĳ
å¤« äºº
ç©º æ°Ķ
åıį æĺł
é¢ ĩ
å½¢ çĽ®
é¤Ĳ åİħ
6 2
199 8å¹´
æī ¶
199 9å¹´
åĳĬ è¯ī
ç¢ Ł
å°¼äºļ å·ŀ
æł¼ æĭī
æĻĭ çº§
çļĦ æ°´
ä¸Ń æľŁ
ä¸Ĭ æľī
æĽ´ æĸ°
ac k
åįı è°ĥ
åħ¶ä¸Ń ä¸Ģç§į
çİ» çĴĥ
çļĦ ä½ľåĵģ
19 ä¸ĸçºª
å½ķ éŁ³
æĤ ²
å¢ŀ éķ¿
è Ł
ä¼ł åªĴ
ç¿ ħ
çĽĳ çĭ±
å®¶ äºº
æĭ ¼
æĭ ĸ
åĩº åıĳ
ä¹¦ éĻ¢
åı¦ æľī
200 0
æİ¥ æĶ¶
æ¸ħ åįİ
èĲ¨ å°Ķ
åħ¸ ç¤¼
èķ ¾
æ·ĺ æ±°
æĹ¥ æľŁ
çĶŁ æĪĲ
æľ¬ åľ°
éĢ ¼
194 5å¹´
åįĩ ä»»
å¤© çļĩ
é£Ł åĵģ
æĸ Ĳ
å¯ ĵ
åıĳ æĺİ
è¢« è§Ĩä¸º
C D
ç«ĭ æĸ¹
å¤§ å¥ĸ
å¸ĥ èİ±
æĹ¥ æ²»
å·² æľī
æĳ §
å· ¢
ä¹Ł åı¯ä»¥
åħį è´¹
é¢ľ èī²
åĬł å·ŀ
ç§° ä½ľ
ä¸¤ åĲį
ç¨ »
é±¼ ç±»
çļĦ åĲİ
æİ¨ å¹¿
æı´ åĬ©
çİ° å®ŀ
åľ¨ åĨħçļĦ
ç»´ åŁĥ
äº² çİĭ
äºļåİĨå±± å¤§
æĸ¯ æīĺ
èĢĥ åı¤
ä¸» åĬŀ
åº¦ çļĦ
åī¯ ä¸»ä»»
åĿ Ŀ
ç¥ ł
çĻ Į
ç«ŀ éĢī
å¹³ åİŁ
æīĢ è°ĵ
åī¯ ä¸»å¸Ń
æĺ¾ èĳĹ
å½ĵåľ° çļĦ
è¿Ļ æ¬¡
åı¸ é©¬
it y
ç» ³
è¥¿ åħ°
åŁºéĩĳ ä¼ļ
çĲ ¼
å¿ į
äºĮ æĪĺ
åħ¬åħĥ åīį
çĲĨ è§£
ä¾Ŀ çĦ¶
M A
ä¸Ģ è¯į
æł ĭ
è£ħ é¥°
åĨľ æĿĳ
æĺŃ åĴĮ
åĨħ æĪĺ
8 00
è½¬ æį¢
é¾Ļ æ±Ł
åį± éĻ©
ç»Ī äºİ
D e
åľ Ń
ä¸į åĪ°
éĤ£ ä¹Ī
éĿł è¿ĳ
å¿ Ļ
é¹ ¤
å¾· çļĦ
å®Į å·¥
è´§ å¸ģ
E n
ä¿® å¤į
éļĶ ç¦»
åĩ Ŀ
åľ° å¸¦
ä¸Ī å¤«
æł¡ åĽŃ
ç¡® ä¿Ŀ
è¿Ľ æŃ¥
èĥ½ æºĲ
éĩĩ è®¿
æļ´ åĬĽ
æīĵ ç®Ĺ
æ½ľ èīĩ
å¾· åįİ
åİŁ å§ĭ
çĿ ¡
å¢ŀ å¼º
æīĢæľī çļĦ
ä¸¤ åĽ½
i ve
çŁ Ľ
èĴ ¸
èº« ä¸º
åİŁ ä½ıæ°ĳ
A r
æ°´ åºĵ
åį¡ ç½Ĺ
çłģ å¤´
æĹħ è¡Į
ä¹ī å¤§åĪ©
é² ¤
æ´¾ åĩº
æĴ° åĨĻ
å¤§ å¹ħ
èĻ ¹
194 9å¹´
éĢļ ä¿¡
åĬª åĬĽ
æł ½
æī§ æĶ¿
éĢĤ åĲĪ
2001å¹´ äººåı£
æĭĨ éĻ¤
å§ Ĭ
çļĦ æ¯ĶèµĽ
åĬ© çĲĨ
ä¸İ åħ¶
åĩº éģĵ
åĲ ģ
E R
o v
èµĦ æľ¬
çŁ³ æ²¹
5 9
èĢ Ĳ
æ³¢ ç½Ĺ
å²ģ æĹ¶
åľ¨ 198
ä¹¦ ç±į
æĮĩ ç¤º
çķĻ åľ¨
åĽ´ ç»ķ
åī Ĭ
å¸Ĥ ä¸Ńå¿ĥ
ç¿ Ķ
ä½Ľ ç½Ĺ
çļĦ è®¾è®¡
è®¤ è¯Ĩ
æ³ ¡
æ³ķ åºŃ
å¤© çĦ¶
çļĦ åıĳå±ķ
æľī æľº
åĩº åħ¥åı£
ä¸ĩ åħĥ
å¤§ å¤ļ
èĸ Ľ
s h
é¦ĸ çĽ¸
ç®¡çĲĨ å±Ģ
è¿ĳ å¹´
é»ĳ èī²
åľĨ å½¢
c om
å¤§ ä¼Ĺ
äº ¥
åł Ĩ
è¾¹ å¢ĥ
æĿĢ å®³
æĭ¿ ä¸ĭ
æ¯ĶåĪ© æĹ¶
N e
åįİ äºº
æīĭ æľº
éĶĢ éĩı
å¤« åį¡
å¤§ éĢī
æĶ¶ éĽĨ
ãĥ »
I D
Ã Ĺ
éĹ ¸
æĦı åĳ³
çĽ Ĩ
æĺİ æĺŁ
or e
åĲĦ èĩª
è¾½ å®ģ
ä¸Ģ åľº
åĪĨ æĶ¯
ä»¤ äºº
ç¡®è¯Ĭ çĹħä¾ĭ
" ,
æľĢ ä½İ
è®° å¿Ĩ
un d
b er
ç©º ä¸Ń
åĿļ æĮģ
åĲī æŀĹ
ä¸Ģ æŀļ
åĪĨ è£Ĥ
ç»´ æĸ¯
12 å¹´
èĴĻ çī¹
å°± ä¼ļ
å±±ä¸ľ çľģ
æĸ ĭ
èĩª æĿĢ
èŃ¦ åĳĬ
çļĩ åĲİ
çļĦ æĶ¯æĮģ
ä¹ł æĢ§
åĽ½æ°ĳ æĶ¿åºľ
åī§ éĽĨ
ä¸ĭè¾ĸ çļĦä¸Ģä¸ª
ä»¥ åįĹ
æĬ ĵ
æ± Ŀ
199 7å¹´
å»ºç«ĭ äºĨ
7 2
æĪĲ å¹´
èĥ º
å¹³ æ°ĳ
èĮĥåĽ´ åĨħ
æŁ´ æ²¹
åĲĦ ç±»
æĹ¨ åľ¨
èĪ Ł
ç§ĳ åŃ¦å®¶
å¼ı çļĦ
å¼Ł å¼Ł
7 4
ä¸ ŀ
çŃī çº§
6 3
o h
æł ª
å± Ī
D T
åĲĮ æĢ§
å¾· å°Ķ
æĶ¯ æµģ
åħĭ æŀĹ
i an
âĢ Ļ
äº² èĩª
æ¯Ľ æ³½
ç¤ ģ
èİ± èĮµ
äº§çĶŁ çļĦ
æ»¨ æµ·
æĬ ±
äº¤ æį¢
C O
æĭ ¨
æĸ¯ æ´Ľ
éĴ »
è§Ħ èĮĥ
m an
ä¸Ĭ ä¸ĭ
å´ ©
i v
æĹ¶ åĢĻ
å¹ ½
æ¶Ī å¤±
å® °
ç¬¬ ä¹Ŀ
é»ĳ é¾Ļæ±Ł
æ³ķ çļĦ
çł Ĥ
è¿Ŀ åıį
åĳ¼ åĲģ
æµĻæ±Ł çľģ
æĳ§ æ¯ģ
åĪ© æĸ¯
äºĮ äºº
çº§ åĪ«
å¸¸è§ģ çļĦ
ä»¥ åīį
ç§į æ¤į
â Ķ
çĭ ¼
æĶ¶ èĹı
çŃ¾ çº¦
T e
è¿ ¦
å¯¹ æĸ¹
è¾¾ å°Ķ
æ¬§ çĽŁ
æºĲ äºİ
at e
å»¶ éķ¿
r ic
æ ª
çī¹ æĭī
è¡Į çļĦ
å°¼ è¥¿äºļ
æİĪ æĿĥ
éĻ ª
è½¦ åİ¢
è¿Ĳ çĶ¨
å© ´
å¿ħ è¦ģ
ä»» æľŁ
æ¸¯ åı£
æ¦ Ħ
å¦ Ļ
199 6å¹´
åįł åľ°
æ¯Ľæ³½ ä¸ľ
æŃĮ è¯į
é¦ĸ å¸Ń
èĦ ¸
å¾ª çİ¯
åį ¸
åŃ¦ çļĦ
å°Ħ åĩ»
é¦ĸ åºľ
åį± æľº
æĤ£ èĢħ
èĪª å¤©
å¾Ĺ åĪ°äºĨ
æĶ¹ åĲįä¸º
æĬ «
åı¤ åħ¸
åĬŀ çĲĨ
èµ° åĲĳ
éĢļ éģĵ
æİ¥ æĽ¿
æ¼Ķ å¥ı
æĶ¹ åĪ¶
åįĩ ä¸º
am e
åľº æīĢ
ä¼ ½
æĢ§ èĥ½
çĭ Ń
199 2å¹´
ï¼ ħ
é¡º åĪ©
åĴ ĸ
åĪĻ ä¸º
å·¥ä½ľ å®¤
å®¡ æŁ¥
éĺ² æŃ¢
åĮº è®®ä¼ļ
ç¦ ħ
åĽ ļ
å¯ ®
è¢ ĭ
å·ŀ åĪºåı²
åĽĽ å¹´
ç¥ŀ è¯Ŀ
å« ģ
éķ¿ å®ĺ
æ³¢ å°Ķ
ä» ķ
éĺ¿ æł¹
ç´¯ è®¡
âĶ Ģ
æĭ ±
é¦ĸ æĴŃ
åķĨ åĵģ
è·Ł éļı
å® Ľ
éĽ į
å¾Ĺ ä¸»
èģĶåĲĪ ä¼ļ
å¤ĸäº¤ éĥ¨
ä»¥ åĮĹ
åŁĥ å°Ķ
ou n
åŁ¹ è®Ń
æıĲ åıĬ
äºĶ å¹´
å¸Ĥ æĶ¿åºľ
(, ;
ç¼© åĨĻ
å¸ĥ éĩĮ
çĤ ī
åıĹ æ¬¢è¿İ
åį¡ æĭī
éĺ¿æł¹ å»·
A P
s s
å°¼ åħĭ
çĶŁæ´» ä¹łæĢ§
18 å¹´
èĤ Į
ä¸ŃåĽ½ çļĦ
åģľ éĿł
q u
åĲ ¹
åĩº æĿ¥
æķ° ä½į
èĭ± åĨĽ
199 4å¹´
æ¸¸æĪı çļĦ
1 åı·
ä¸Ĭ åįĩ
éĿ¢ ä¸´
G o
éĻ· åħ¥
çĶŁæ´»ä¹łæĢ§ ä¸įæĺİ
è¾ Ł
æĮģ æľī
é¼ İ
C om
18 3
æ´¾ çļĦ
å¤§ èĩ´
è¾ ¨
éŁ µ
çĤ¹ çļĦ
åĩºçīĪ ç¤¾
åĸľ åī§
èĢ ķ
æľĪ çĲĥ
æ£ ĺ
åĲĦ åĽ½
ç½Ĺé©¬ å°¼äºļ
çİ° ä»Ĭ
æĥ ¨
c on
å°Ĩ åľ¨
ä½ĵèĤ² åľº
åŁ ĭ
èĭ ¯
ç¾İåĽ½ çļĦ
çĶĺ èĤĥ
)ãĢģ ãĢĬ
éĩĮ è¾¾
åľº æĻ¯
åı¸ä»¤ éĥ¨
çĶ «
å®ļ ä¸º
æķ° çļĦ
M ar
ç °
éģĵ å¾·
çļĦä¸Ģ äºĽ
æĸ¯æĭī å¤«
ä¸Ģ é¡¹
è¢« æįķ
æī¿ è¯º
ä¼¼ ä¹İ
çĤ¸ å¼¹
éģ ¥
éĽ ¾
çłĶ åıĳ
åĲĦ ä¸ª
é¦ĸ æŃĮ
å·´ å°Ķ
æĿĳ èĲ½
åħ¬ æĸ¤
çĶŁ åŃĺ
åĲī å°Ķ
å¸ Ĳ
ä»Ĭ æĹ¥
èĢĥ è¯ķ
éĥ½ åľ¨
éħį å¤ĩ
8 7
è¾¹ ç¼ĺ
åĬłåĪ© ç¦ı
å±Ģ éķ¿
ub e
è¹ Ī
éķ¿ æ±Ł
éħ ·
çĪ± æĥħ
åľ° è´¨
æľ¬ çīĩ
æ¡ Ĩ
å¸¸ åĬ¡
æĶ¯ ä»ĺ
äººæ°ĳ å¸ģ
èı Ĭ
æ²¿ éĿ©
æĬµ æĬĹ
çļĦ åĦ¿åŃĲ
æĸĩ æĺİ
åĮħ åĽ´
çĽĳ å¯Ł
å¤ ¹
å°Ĩ é¢Ĩ
å¹³ è¡¡
æĢĢ çĸĳ
çļĦ ç¬¬
äºī åıĸ
å¼Ģ å¹ķ
è¨Ģ è®º
17 9
èĥ Ĩ
ä¸ŃåĽ½å¤§éĻĨ çļĦ
èµ« å°Ķ
æ±Łèĭı çľģ
åĿ Ĥ
èĤ ł
åı¯ä»¥ åľ¨
è ¤
è®¾ äºİ
å¼ı æľĪåı°
ou r
å·¡ æ´ĭ
åŃ ķ
æīĭ æľ¯
ä¼¯ çĪµ
åºĨ ç¥Ŀ
çĲī çĲĥ
åĲ« æľī
æī £
éķ¿ è¾¾
æ±¡ æŁĵ
åıĳ æĮ¥
å¯¹ åħ¶
æľĢ ä¸º
æīĢ éĩĩçĶ¨
å¥ ĭ
æĬ¥ çº¸
æ² ª
æ£Ģ å¯Ł
è ¤Ĳ
æī ģ
åıĳ è¨Ģ
åĻ¨ çļĦ
çŃĸ çķ¥
åĤ ¬
é¼ĵ åĬ±
å¤§ èģĶçĽŁ
çŁŃ æļĤ
éļ ĭ
çı Ģ
è¶³ å¤Ł
é¡ ·
æıĲ è®®
æİ¨ èįĲ
çĪ± å¾·åįİ
åĲ §
I P
T h
è¥ Ħ
æĪĳ çļĦ
å¾· åĨĽ
è° Ń
é¢ģ åıĳ
åĩĮ æĻ¨
è¯ ±
19 00
æľª æľī
éĹ ²
åĩº åĶ®
æĸ¹éĿ¢ çļĦ
é¢ĳ çİĩ
éĻ¢ éķ¿
å§ĭ å»ºäºİ
åįķ çĭ¬
æĮ ĸ
çº ¤
åıĪ åĲį
éĢı éľ²
çļĦ ä½įç½®
åĩ ī
çº¦ æľī
åĶĲ æľĿ
æĪĲ å°±
æµ· å¹³éĿ¢
æĪĺ å£«
æ²³ çļĦ
æĿ¡ ä¾ĭ
éĻĦ å±ŀ
å·¥ç¨ĭ å¸Ī
æĪĲç«ĭ çļĦ
éĢĤ åºĶ
èµŀ åĬ©
å¢ĥåĨħ åħ±æľī
ä½į çļĦ
äºļ çĽ®
äºĭ æĥħ
åĨĻ ä½ľ
åıĳåĬ¨ æľº
6 1
åĮº åĨħ
çĽ´ å¾Ħ
è¿½ æº¯
åĩŃ åĢŁ
5 2
éĿĴ å²Ľ
A N
é¢ Ī
ä¸ĭ æĿ¥
åĪ¶ çīĩ
æīĢ å¤ĦçļĦ
åı² å¯Ĩ
é¢Ĩå¯¼ äºº
æĽ¿ ä»£
8 9
èģĶ ç»ľ
èĸ ª
é¹ ħ
æ° ¨
åħ¬ äº¤
f f
åĢ¾ åĲĳ
åĲ ŀ
æĪĲ äºº
æĻ® é²ģ
199 1å¹´
èħ Ķ
æ£ ķ
ç«Ļ çļĦ
æĹł çĹĩçĬ¶
æµ·æĭĶ ä¸º
åħ¬å¼Ģ èµĽ
æĽ °
æĹ¥æľ¬ çļĦ
en s
éĽĨ åĲĪ
æ¸¸ åĩ»
è¶³ åįı
æĸ ¥
å¥ ¶
ä»¥ åĲİ
æŃ£ ç¡®
åĬ ²
å¿ ĺ
é¦ĸ ä½į
æĦı å¤ĸ
å·¡æ´ĭ èĪ°
èĭ± éĩĮ
é¢Ħ ç®Ĺ
åĲ¸ æĶ¶
æĽ¾ ç¥ĸ
åıĳçĶŁ åľ¨
æī© å¼ł
çļĦ éĥ¨åĪĨ
åĨ ķ
S e
å¤§ å°ı
æĸĩ èīº
åı¤ èĢģ
éº Ł
æ²ĥ å°Ķ
é¢ģ å¥ĸ
å»ºçŃĳ çī©
æĦŁæŁĵ èĢħ
ç§ĳçļĦ åħ¶ä¸Ńä¸Ģç§į
åĽ Ĭ
5 3
çļĦ éĹ®é¢ĺ
åŁ¹ åħ»
çĲ ª
åħ¬ åĳĬ
éĿŀ æ³ķ
æ°Ķ åİĭ
åĲ »
å·² çŁ¥
èĪŀ è¹Ī
å½ĵéĢī ä¸º
éĴ ĵ
åĨ³ è®®
èľ ľ
ç¢ §
it h
æĺŁ çŃīä¸º
ä¿Ħ åĽ½
è± «
ç¢ ±
éŃ ģ
ä¸¥ æł¼
éģŃ éģĩ
åĲİ ç»Ń
å¾· æĭī
æķĪ åºĶ
å® ´
ä¸Ń éĹ´
ç§ĳ å°Ķ
èĪ¹ åıª
äºĴ çĽ¸
å®ī ä¸ľ
æł¼ ä¸º
ç»Ħç»ĩ çļĦ
çĶµ æ°Ķ
ä¸»è¦ģ æĺ¯
åĩºçİ° äºĨ
äº« å¹´
æĸ¯ åį¡
éĢĲ æŃ¥
é¸Ł ç±»
æĪĲ äºĨ
åī ª
å¤ĸ éĥ¨
æ¬¡ å¹´
åĪĽ å§ĭ
çļĦ ç¬¬äºĮ
æĪĲ éĥ½
æİ ł
æ¼ ı
199 5å¹´
L E
ä¹ĭ å¤ĸ
è¶ħ è¶Ĭ
çļĦ å¥³
å§ ľ
åĬł éĢŁ
å§ĭ å»º
è§Ĩ è§ī
ä¸Ģ åĪĩ
ä¹ĭ åŃĲ
å¸Ĥ æĶ¿
è¶³çĲĥ ä¿±ä¹Ĳéĥ¨
åģ¶ åĥı
ç© ·
p e
åĪĻ åľ¨
å½¢ çĬ¶
å®¡ åĪ¤
å¡Ķ å°Ķ
å½ķ å½±
åıĮ æīĵ
æ£ ī
æļ ¨
é¢Ħ æµĭ
æıı ç»ĺ
æł½ åŁ¹
æĿ¥ è¶Ĭ
éķ¿ æ²Ļ
çĽ´ éļ¶
åıĺ ä¸º
è´µ å·ŀ
è°¢ å°Ķ
åĴ ¨
ç¦» åŃĲ
å¼º åº¦
å¾Ī å¤§
è¿Ļæł· çļĦ
åĪĽ æĸ°
æķĳ æı´
åħħ æ»¡
åĵĪå°Ķ æ»¨
åĪ ł
ä¸Ģ ç³»åĪĹ
å¤§ åį«
éĶ Ĳ
æ¸¸ å®¢
å¼Ģå§ĭ åľ¨
æļ ĸ
éĥ¨ çĶµå½±
èĭı ä¸¹
è· µ
æŃ£ éĿ¢
æº ĥ
æĵ ħ
åģĩ è®¾
æ²³åįĹ çľģ
å¤ıä»¤ æĹ¶éĹ´
çĲĨ å·¥
æģ Ń
éĤ ª
on e
å¯» æ±Ĥ
éĥ¨ ç½²
ä¸» åľº
åİ¿ çŁ¥
æĶ¶ åĪ°
æ¨¡ æĭŁ
è¶Ĭ æĿ¥è¶Ĭ
ä¸»ä¹ī çļĦ
æĸĹ äºī
æĸ ©
åľ¨ ä¸Ģèµ·
æ¯ ħ
æļĤ åģľ
5 6
å½± åĥı
èĮ ħ
æĹı ç¾¤
èģĶ ç½ĳ
æĺ¯ä¸Ģ åĲį
è¿ģ èĩ³
éĺ¿å°Ķ åįĳ
å¸ ½
ç¬¬ 4
é«ĺ è¾¾
çĲĨ æĥ³
åĲĪ æ³ķ
çĻ¾ ä¸ĩ
éħį ç½®
æĢģ åº¦
å·¥ èīº
ç¨ Ģ
åĽ½éĻħ æľºåľº
æļĤ æĹ¶
ç§ ©
æĹ¶ åĮº
å¸¸ å§Ķ
é¢Ĩ äºĭ
åĽ¾ åĥı
å·´ æĭī
ç¦ı å·ŀ
c k
è¡Į ä¸ļ
æīĭ æ®µ
Ġ åľ¨
Ġ M
Ġ S
Ġ C
çĶŁ å¹³
Ġ åİĨåı²
Ġ çĶŁå¹³
Ġ B
Ġ P
æŃ¤ å¤ĸ
ä½Ĩ æĺ¯
z h
å¹¶ åľ¨
l t
g t
æĺ¯ ä½įäºİ
Ġ A
a Ġ
e Ġ
Ġ L
Ġ H
Ġ åľ°çĲĨ
Ġ G
Ġ D
Ġ F
Ġ R
Ġ T
Ġ äººåı£
åŃ¦ åĲį
Ġ æł¹æį®
s Ġ
Ġ è¯¥
èĢĮ ä¸Ķ
Ġ æľ¬
(, )
Ġ formula
Ġ ä¸İ
Ġ W
Ġ 198
Ġ the
Ġ çļĦ
æŃ¤ åĲİ
Ġ of
ä½Ĩ åľ¨
åħĥ å¹´
æĺ¯ä½įäºİ ç¾İåĽ½
Ġ E
æĺ¯ æ³ķåĽ½
äºĮ å¹´
Ġ K
Ġ N
ä½įäºİ è¯¥åĽ½
: )
Ġ å¹´
å¹¶ äºİ
Ġ æĶ¿æ²»
y Ġ
Ġ çĶ±äºİ
èĢĮ åľ¨
Ġ 197
Ġ J
Ġ 195
Ġ V
Ġ O
Ġ c
Ġ 196
Ġ 2
Ġ 1
åħ¬ åĪĨ
ä½įäºİ æ³ķåĽ½
Ġ 2021å¹´
Ġ d
Ġ 2019å¹´
Ġ p
Ġ è½¦ç«Ļ
Ġ 193
Ġ 3
Ġ è¡ĮæĶ¿
ä»ĸ æĽ¾
Ġ 2020å¹´
Ġ s
æŃ¤ æĹ¶
Ġ 2018å¹´
ä»İ èĢĮ
Ġ 194
: .
æĺ¯ ç¾İåĽ½
äººåı£æķ°éĩıä¸º äºº
Ġ m
åĽł èĢĮ
éĤ®æĶ¿ç¼ĸçłģ ä¸º
Ġ è¿Ļ
Ġ 2017å¹´
èĢĮ æĺ¯
ä»ĸ æĺ¯
åİ¿ äºº
Ġ 2016å¹´
å¤ıä»¤ æĹ¶
Ġ in
INSEE å¸Ĥéķĩç¼ĸçłģ
INSEEå¸Ĥéķĩç¼ĸçłģ ä¸º
äºİæĹ¶çļĦ äººåı£æķ°éĩıä¸ºäºº
ç¾İåĽ½äººåı£æĻ®æŁ¥ çļĦæķ°æį®
èĢĮ äººåı£å¯Ĩåº¦ä¸ºæ¯ıå¹³æĸ¹åįĥç±³
è¯¥ çľģä»½
æĪĸ æĹ§å¸Ĥéķĩ
æīĢå±ŀçļĦçľģçº§éĢīåĮº ä¸º
ãĢĭ ()
Ġ 2022å¹´
è¯¥çľģä»½ ä¸ºæ³ķåĽ½
åĲİ èĢħ
åħŃ å¹´
Ġ St
Ġ 2014å¹´
åħ¶ ä½Ļ
Ġ 2015å¹´
ä¹ĭ ä¸ĭ
Ġ 2013å¹´
å¹¶ å°Ĩ
æĺ¯ä¸Ģ ä½į
Ġ æŃ¤
å¹³æĸ¹ ç±³
ç»ĵæĿŁ åĲİ
Ġ 2023å¹´
æĦı ä¸º
Ġ w
199 3å¹´
Ġ b
Ġ I
: "
ä¸¾ äºº
ä¸ĥ å¹´
Ġ 4
æĺ¯ æĹ¥æľ¬
Ġ f
ä¹ĭ ä¸Ń
Ġ 2012å¹´
åį³ ä½¿
199 0å¹´
å¹¶ ä»¥
äº¿ åħĥ
Ġ èĩª
Ġ and
å¥¹ åľ¨
èĢĮ æ°´åŁŁéĿ¢ç§¯ä¸º
Ġ è¡ĮæĶ¿åĮºåĪĴ
åħ« å¹´
ä¸º è¾Ĳé³įé±¼çº²
ä½ĵ éķ¿åı¯è¾¾
ä¹Ŀ å¹´
åĮĹ èµ·
Ġ 2024å¹´
10 å¹´
Ġ ä»İ
Ġ In
çļĦæĥħåĨµ ä¸ĭ
1 äºº
Ġ å¤§
Ġ æ¦Ĥ
Ġ 5
ä»ĸ è¿ĺ
æ¯ķä¸ļ åĲİ
Ġ 2011å¹´
çŃī çŃī
h ans
19 å¹´
2 äºº
è¯¥ åľ°çļĦ
3 äºº
h k
Ġ 6
Ġ 2010å¹´
ä»ĸ è¢«
Ġ åĴĮ
åĪĨåĪ« ä¸º
Ġ 201
Ġ çļĦæĹ¶åĮºä¸º
Ġ äºİæĹ¶çļĦäººåı£æķ°éĩıä¸ºäºº
Ġ æīĢå±ŀçļĦçľģçº§éĢīåĮºä¸º
Ġä¸İ æİ¥å£¤çļĦå¸Ĥéķĩ
ĠçļĦ éĤ®æĶ¿ç¼ĸçłģä¸º
Ġ 192
1 æľĪ1æĹ¥
Ġ U
èīº äºº
éĺŁ éķ¿
4 äºº
éĿŀå»ºåĪ¶ åľ°åĮº
Ġ ä»¥ä¸ĭ
ä»ĸ ä¸İ
ä½Ĩ çĶ±äºİ
çī¹ èī²
19 20å¹´
ä¾ĭ åŃĲ
æĹ¥ æĬ¥
Ġ å®¶æĹı
åįĹ èĩ³
: ),
Ġ Ch
å®ĥ æĺ¯
éĵľ çīĮ
æľº åĪ¶
æŃ¤ æ¬¡
Ġ zh
çļĦ çĶµå½±
èĢĮ éĿŀ
å½ĵ å¤©
Ġ éĺ¿
åħ¶ä¸Ń åĮħæĭ¬
èģĮä¸ļ çĶŁæ¶¯
Ġ 10
æĥħåĨµ ä¸ĭ
ä¼ļ éķ¿
æŃ» åĲİ
Ġ 2008å¹´
æĺ¯ä¸Ģ é¢Ĺ
äº¦ æĺ¯
198 8å¹´
ç§į åŃĲ
2020å¹´ ç¾İåĽ½äººåı£æĻ®æŁ¥çļĦæķ°æį®
Ġ æĹ©å¹´
o Ġ
ä¹Ł ä¸į
èĩ³ äºİ
å¹¶ ä¸İ
åĬŀäºĭ å¤Ħ
5 7
ä»¥ å¤ĸ
æĺİæľĿ æĶ¿æ²»äººçī©
çļĦ å·¥ä½ľ
ä¸ľ ä¸´
åİŁ åĲį
Ġ 2009å¹´
å¸Ń ä½į
åįģäºĮ å¹´
éĵ¶ çīĮ
ä¼ļ ä¸Ĭ
ä»ĸ ä¹Ł
Ġ å½ĵ
èĢĮ ä¸įæĺ¯
å¼ł ä¸ĵè¾ĳ
çĶ± æŃ¤
Ġ t
æĺ¯ å¾·åĽ½
Ġ 2025å¹´
5 4
ä¼¯ çī¹
Ġ 7
å±± åĮº
äºĶ æľĪ
çļĦ åħ³ç³»
ä¼ļ åĳĺ
1 Ġ
å¾Ĺ åĲį
ä¹Ł å°±æĺ¯
è©¹å§Ĩ æĸ¯
åľ¨ ä¸Ń
Ġ æĸ°
æĺ¯ä¸Ģ åº§
åİĺ ç±³
Ġ åħ¶ä»ĸ
ç»¿ èī²
198 9å¹´
èĢĮæ°´åŁŁéĿ¢ç§¯ä¸º 0
16 0
6 äºº
èģĮ ä½į
198 4å¹´
1 ä¾ĭ
çĬ¹å¤ª äºº
198 5å¹´
èĢĮ è¯¥åľ°
è¿ŀ ä»»
å®¶ ä¸Ń
ä»¥ ä¸º
åĪĨåĪ« æĺ¯
Ġ 200
å¥¹ ä»¬
Ġ é¦Ļæ¸¯
çļĦ æĪĲåĳĺ
Ġ 8
al Ġ
æĺ¯ é¦Ļæ¸¯
å¹¶ è¢«
é»Ħ èī²
Ġ ä»ĸ
Ġ ç¾İåĽ½
Ġ æĪªèĩ³
å°¤åħ¶ æĺ¯
ä¸º æŃ¤
ä¸Ĭ å¸Ĥ
2 Ġ
Ġ åī§æĥħ
5 äºº
Ġ 2007å¹´
éķ¿ åŃĲ
5 1
å®ī å¨ľ
æĺ¯ä¸Ģ éĥ¨
195 0å¹´
åħ¶ å®ŀ
Ġ æŃ¤å¤ĸ
å°Ķ çľģ
äºļ åĨĽ
t Ġ
ç§ĺä¹¦ éķ¿
J R
èĳ£äºĭ éķ¿
åľ¨ 197
æł¡ åĮº
è¿Ļ éĩĮ
é©¬ æĸ¯
ä¸»ä¹ī èĢħ
æĪĲ éķ¿
ç«ĭ åľº
er Ġ
éĢĶ ä¸Ń
7 äºº
198 6å¹´
ä½Ĩ ä»ĸ
ä¸¤ èĢħ
å°¼ å°Ķ
ä½¿ åħ¶
Ġthe Ġ
ä¸º åħ¶
å¾· è¯Ń
èĢĮ ä¸į
è¯¥ æĿĳ
ä¸º 1
ä»ħ æľī
çī¹ éĩĮ
å¤© ä½ĵ
åħļ åĳĺ
198 0å¹´
Ġ èĻ½çĦ¶
" .
æ¯ı æĹ¥
æĺ¯ ä¹Įåħĭåħ°
åīį åĲİ
ä¸Ģ å°ıæĹ¶
éĽ· æĸ¯
ä¼ļè®® åĳĺ
å¹¶ çĶ±
ä¸¤ ä¾§
ç§¯ åĪĨ
Ġ èĥĮæĻ¯
çļĦ éŁ³ä¹Ĳ
åįģ æľĪ
æľ¬ äºº
è¥¿ ä¾§
äºİ19 2
ä¸º 2
å¤ļ äºº
åı¦ä¸Ģ æĸ¹éĿ¢
è¾ŀ èģĮ
Ġ 19
çļĦ è§Ĵèī²
Ġ 9
é¢Ĩ åľ°
Ġ ä¸ŃåĽ½
åı¯ è§ģ
198 3å¹´
åľ° åĲį
åľ¨ åı°æ¹¾
èĥľ åĩº
17 8
çº¿ ä¸Ĭ
éĺ¿ éĩĮ
åľ¨ èĭ±åĽ½
Ġ æį®
ä¸ľ ä¾§
ç¬¦ åı·
Ġ æľī
åħĭ å°Ķ
èĵĿ èī²
åħ¶ä¸Ń çĶ·æĢ§
Ġ åľ°æĸ¹
ä¸ī æľĪ
çĻ» åľº
åľº åľ°
Ġ n
ä½įäºİ ä¸ŃåĽ½
Ġ to
Ġ 0
198 7å¹´
è¥¿ æİ¥
æ®ĸæ°ĳ åľ°
ä»ĸä»¬ åľ¨
å¼Ĺ éĩĮ
195 8å¹´
è½¦ éĺŁ
èº« åĪĨ
äºİ201 6å¹´
åĽĽ æľĪ
åľ¨ 196
ä¸Ńåįİäººæ°ĳåħ±åĴĮåĽ½ æĶ¿æ²»äººçī©
çļĦ å½¢å¼ı
194 8å¹´
åįļå£« åŃ¦ä½į
å®£ ç§°
å½ĵ æĹ¥
æ±ī æĹı
" ),
9 3
198 2å¹´
èīºæľ¯ å®¶
å¤© åĲİ
ç«ŀ èµĽ
Ġ ç¬¬
Ġ 2006å¹´
åĽ½ åĨĽ
9 2
æĺ¯ åĽłä¸º
æ³ķ è¯Ń
000 äºº
è¥¿ éĩĮ
åī§ åľº
åľ¨ ä»ĸ
è¶³çĲĥ éĺŁ
ä¸¤ ä½į
å¹² éĥ¨
åĪ¶ä½ľ çļĦ
Ġ åľ£
æģ© çľģ
çļĦ æĸ¹æ³ķ
Ġ æĺ¯
7 3
æĹł è®º
è¶³çĲĥ è¿ĲåĬ¨åĳĺ
è¿Ļ é¡¹
è®¾è®¡ çļĦ
åĲĮ æĹ¥
Ġ ä¸Ń
åľ¨ æĸ°
åĪĨ åĮº
èĢģ å¸Ī
å¤§ å¸Ī
çļĦ æĢ»
åĽł åħ¶
8 6
äºİ201 5å¹´
ä»İ æŃ¤
194 6å¹´
å¤§ éĺª
æıĲåĩº äºĨ
202 6å¹´
ä»ĸæĽ¾ ä»£è¡¨
Ġ de
æİ¥ ä»»
ç¾¤ ä½ĵ
æĺ¯ ä¸º
ä¸ī äºº
ç¦ıå»º çľģ
åĽĽå·Ŀ çľģ
âĢĿ )
åĬłåħ¥ äºĨ
ç§° åĳ¼
Ġ ä¸ĭ
ä¸º äºº
ä¸¾åĬŀ çļĦ
197 9å¹´
åıĳè¡Į çļĦ
è§Ĵ åº¦
ä»¥ ä¾¿
åĲİ è¢«
è¾ĵ åĩº
æ¯ı å¤©
èª ĵ
åĩ ¶
å» ĸ
å±ł æĿĢ
ä¸ľ æµ·
çĽ´ æĴŃ
ä¼Ĭ åĪ©
ä¾Ŀ èµĸ
äºİ201 4å¹´
èģļ éĽĨ
åģľ è½¦
æĹłçĹĩçĬ¶ æĦŁæŁĵèĢħ
éĺ¿å°Ķåįĳ æĸ¯
ä½İ äºİ
æĢ ķ
äºİ19 0
æīĢåľ¨ åľ°
ç¼ ´
ç¹ģ æ®ĸ
èĤº çĤİ
è·¯æĺĵ æĸ¯
ä¼ļ æľī
åĪ¶ä½ľ äºº
éĹ» åĲį
ç« Ł
æķĻ å®Ĺ
äºĮ æľĪ
èĤ ¤
8 2
å¸ ĸ
Ġ 12
åħ±åĴĮ åħļ
åĲĮæĹ¶ è¯¥åľ°
ãĢĭ ãĢĬ
ä¾ £
å·¨ å¤§
åĪ¶ æĪĲ
ç»´ å¤ļ
èĲ½ æĪĲ
éŀ ĭ
5 ç±³
çļĦ åİŁåĽł
åľ¨ åĮĹäº¬
äºİ201 2å¹´
çĽ¸åĲĮ çļĦ
åĨħéĻĨ çľģä»½
åŃ¦ ç§ĳ
æ¼ ł
å®¤ åĨħ
äºİ201 8å¹´
Ġ ä¸º
ä¿Ŀ éĻ©
èĴ ²
çĶ° å¾Ħ
çº¢ åĨĽ
çļĦ ç¾İåĽ½
æľª çŁ¥
å¯Ĩ åĪĩ
è´¹ çĶ¨
å° ¿
è®¤ åı¯
æ¶Ī éĺ²
197 8å¹´
çļĦ åĲįåŃĹ
å¤© åłĤ
éĺ² ç©º
è¾ħ åĬ©
è½ ©
ä¸» äºĭ
èĭ± åĳİ
äº¤ ç»Ļ
çłĶç©¶ éĻ¢
è§Ĥ çľĭ
ç½Ĺä¼¯ çī¹
éĤ ±
æīĵ çł´
æ¡¥ æ¢ģ
çĭ¬ç«ĭ çļĦ
ä¸»æĮģ äºº
| |
çļĦ è¯Ŀ
ä¸Ģ èģĮ
ç½Ĺ å¾·
ç¨ £
è®¤ è¯ģ
äºº æĿĥ
è·¯ æ®µ
åĨĴ éĻ©
çĲĨ çĶ±
å§Ķ æīĺ
äºĶ ä¸ª
åķĨ åºĹ
å« ©
ä¼ļ è¯ķ
éĥ¨ éĥ¨éķ¿
çī¹ åĮº
äºİ201 7å¹´
æ£Ĵ çĲĥ
ä¸º æĸ°
âĢ ĺ
èĢ¶ ç¨£
å¡ŀå°Ķ ç»´äºļ
å¥ ł
æĪĺ éĺŁ
æľĢé«ĺ çļĦ
åľ¨ ä¸Ģ
éĩı åŃĲ
åī¯ ä¹¦è®°
èģļ èĲ½
èĩª æĪĳ
å¤© æ°Ķ
æ¼Ķ åĮĸ
èµĦ åĬ©
èĬĤ åº¦
æŃ¤ ç«Ļ
æĶ¹ è¿Ľ
å¼Ĺ éĽ·
Ġ ç®Ģä»ĭ
ä»¥ ä¸ĬçļĦ
æĶ¹ ç§°
é£Ł çĶ¨
æĴ¤ éĢĢ
å¤©æĸĩ åı°
5 ä¸ª
æľ¬ ä½ľ
åĬł åĵ¥
å½± è§Ĩ
æī© å»º
çļĦ æĥħ
æł Ĺ
åħ¶ä¸Ń ä¸Ģä¸ª
èĬĿ åĬłåĵ¥
ç© ´
éĢļ çŁ¥
åİŁ åħĪ
è¯Ħ ä¸º
çļĨ ä¸º
Ġ æĽ¾ç¥ĸ
é©¬ ä¸ģ
çĤ ¼
åº§ æłĩä¸º
è´§ è¿Ĳ
a i
çļĦ æĹ¥
ä¸į æķĮ
æł¼ å°Ķ
ä½įäºİ è¯¥
Ġåľ°æĸ¹ èµĦæĸĻ
äººæ°ĳ ä»£è¡¨å¤§ä¼ļ
æ´Ľ åħĭ
æ¤ İ
äºİ201 3å¹´
çļĦ æĿĳåºĦ
å¤§ å¤«
èĭ ¹
å±ķ çİ°
çĶ» å®¶
çº³ åħ¥
è®¸ åı¯
ç» ¥
çľ ł
çī¹ æľĹ
è´§ çī©
çİĭ åŃĲ
åıª è¦ģ
é¸ Ń
æĹ¶ æĬ¥
ä¼Ĺ è®®éĻ¢
èħ ¿
æ¶µ çĽĸ
7 00
Ġ äº¤éĢļ
8 äºº
éľ ŀ
c n
è¿Ļ åº§
çº¦ çĳŁ
åį³ å°Ĩ
åħ« æľĪ
æĥ³ è¦ģ
è½°çĤ¸ æľº
æŃ» åĪĳ
äºİ 2019å¹´
è´¢ äº§
9 6
éª ļ
å· ·
ä¸į è¦ģ
ä¸ĥ æľĪ
åģļ åĩº
åıĽ ä¹±
ä¸Ĭ éĺµ
æľ¬ çº¿
åĨħ èĴĻåı¤
ç«ŀ æĬĢ
ç§° åı·
ä¹¦ ä¸Ń
194 1å¹´
æĪĺæĸĹ æľº
ä¸ ¸
äºİ 2020å¹´
æľī è®¸å¤ļ
æĸ¹ ä¾¿
å¨ ħ
èħ º
è½¯ ä½ĵ
åįģä¸Ģ å¹´
å¤ļ åĲį
æľį è£ħ
éģŃ åıĹ
m ent
åįķ åħĥ
ç¬¬ä¸Ģ ä½į
èħ ĵ
åĮº éĹ´
æ°ĳ è¿Ľ
ä»Ĭ å¤©
åĲĮæĹ¶ ä¹Ł
, ),
æ¶ Ľ
æŁ¥ çĲĨ
å·¦ ç¿¼
å¤§ä½¿ é¦Ĩ
çī¹ å°Ķ
éĩį éĩı
åĽŀ å¿Ĩ
èį ¡
oc k
ä¸ľ äºļ
è° Ĭ
éĩĳ å±±
è£ģ åĪ¤
åĮº åĪĨ
èµ· åĪĿ
å¨ ¶
çĽ´ åįĩ
ç¤¾ ç¾¤
åĮĹæµ· éģĵ
ä»¥ æŃ¤
è°ĥ å¿«
194 4å¹´
ä¹ĭ ä¸º
æ²³ è°·
åį« éĺŁ
åĨĻ éģĵ
æ¯ĶèµĽ ä¸Ń
åĪĨå¸ĥ åľ¨
æ¶ī å«Į
èĲ¥ ä¸ļ
é±¼ éĽ·
è® ¼
è¿Ľè¡Į çļĦ
éĺ³ å¸Ĥ
æķĮ äºº
a h
ç©º è¢Ń
åįı å®ļ
16 2
ä¸º UTC
è¾Ĳ å°Ħ
æĺ¯ åı°æ¹¾
ä»¥ ä¸ľ
è¯¥ çīĩ
éĵ ĥ
åł ¤
å¾ģ æľį
ä¼łç»Ł çļĦ
æ³ķ ä»¤
ä½Ĩ åĽł
æł¼ éĽ·
åĺī ä¹ī
èŀį åĲĪ
æ¯ Ĺ
æĬ Ħ
æİ ©
è¿ŀ è½½
åĻ ¶
éĿĴ å°ĳå¹´
åıĤ æķ°
åıĤ è®®éĻ¢
æ¯ı åĳ¨
æĪĺ æľ¯
éķ¿ çº¦
è½¬ çļĦ
Ġ åħ¶
éĩį è§Ĩ
) :
åı¯ åľ¨
æĭī çī¹
ç»Ī çĤ¹
ç£ ·
è§ī å¾Ĺ
å¦Ĥ ä»Ĭ
æ³ķåħ° åħĭ
1 10
èĪ Į
æħ °
è°ĥå¿« ä¸Ģå°ıæĹ¶
9 äºº
ç Ģ
éĥ ģ
é¢Ĩ åħĪ
å§Ķåĳĺä¼ļ å§Ķåĳĺ
æ¿ Ĵ
ä¾į éĥİ
èĩ Ĥ
æĪĲ çĨŁ
å¸ĥ æľĹ
ç¤¾ äº¤
åį³ UTC
è®¾æľī å¤ıä»¤æĹ¶éĹ´
çļĦæĹ¶åĮºä¸º UTC
æīĢéĩĩçĶ¨ çļĦæĹ¶åĮºä¸ºUTC
èĢĮè¯¥åľ° æīĢéĩĩçĶ¨çļĦæĹ¶åĮºä¸ºUTC
åĲĮæĹ¶è¯¥åľ° è®¾æľīå¤ıä»¤æĹ¶éĹ´
æ¼Ķ è®²
197 2å¹´
éķĩ åĮºçļĦ
äº¤ æ±ĩ
ä½¿çĶ¨ äºĨ
æ»¡ æ´²
å»¶ ç»Ń
Ġ 2005å¹´
è¥¿ æĸ¯
å½ĵ ä»£
éĢļ å¾Ģ
çĥ ¯
çĪµ å£«
ä»İ æľª
åį¡ æĸ¯
åįķ ä¸Ģ
è´ ·
å·¥ ä¼ļ
åŀĭ åı·
17 7
æĦŁ è§ī
ç²ī ä¸Ŀ
é«ĺäºİ æµ·å¹³éĿ¢
M V
u re
çļĦ æĶ¿æ²»
æĢ» çĽĳ
æį· åħĭ
7 æľĪ1æĹ¥
æĮ ¡
ä½Ļ äºº
æİĴè¡Į æ¦ľ
åİ¿çŁ¥ åİ¿
1 5å¹´
ä¼ļ è¢«
15 8
çĽ¸å½ĵ äºİ
æīĢå¤ĦçļĦ æµ·æĭĶä¸º
æīĢå¤ĦçļĦæµ·æĭĶä¸º é«ĺäºİæµ·å¹³éĿ¢
Ġ 190
ä¹ĭ å¤Ħ
è¯¥ åħ¬åı¸
éĥ½ è¢«
æŃ£ æľĪ
è¡¥ åħħ
ä¸Ń æľĢ
åº ¶
æľī èĳĹ
çİ ²
åŃĲ å¥³
ä¸» å¯¼
éª Ĺ
æķĻèĤ² éĥ¨
ä¼¤ äº¡
å®īå¾½ çľģ
æĸ° åĨł
å¸ Ĩ
å²Ľ çļĦ
S S
Ġ v
å¤§ éĿ©åĳ½
èģ ª
æĦ ¤
åŁİ çļĦ
ä¿Ŀ è¯ģ
æĻ® ç½Ĺ
åıĤä¸İ äºĨ
æĹłäºº æľº
Ġ åı°æ¹¾
å¼ ĵ
åľ° å½¢
çİ° åŃĺ
æ°¸ ä¹ħ
u g
æĪĺ åľº
åĲĪ åĲĮ
é² ¸
æĹ© ä¸Ĭ
197 6å¹´
è¯¦ ç»Ĩ
ç»´å¤ļ åĪ©äºļ
a w
æµ· ä¸Ĭ
èį Ĩ
åķĨ äºº
äºİ201 0å¹´
èĦ± ç¦»
ç»ĺ çĶ»
å·ŀ éķ¿
åħ· å¤ĩ
å¾Ī å°ĳ
åħ¶ä¸Ń ä¸Ģ
äºĴ åĬ¨
çİ°åľ¨ çļĦ
æł¼ éĩĮ
å°¼ åı¤
or d
å²Ľ ä¸Ĭ
çĵ ¶
çĻ» è®°
195 6å¹´
éĿ¢ ä½ĵ
æ¡ Į
ä¼ł æķĻ
åį³ åĮĹç¾İ
æĮĩæĮ¥ å®ĺ
r an
æĺ¯ ä¿Ħç½Ĺæĸ¯
äºİ 2021å¹´
ç¥ ¯
è·¯ åı£
äº¬ éĥ½
è¯º å¤«
æ¾ Ħ
æ© Ħ
éħ ®
èİ· èĥľ
åºı åĪĹ
èĤ¡ä»½ æľīéĻĲåħ¬åı¸
åľ° äºļ
éĽĨ ä½ĵ
çļĦ æľĢ
æ¸ ł
æ²³ éģĵ
æİ¢ éĻ©
éķĩåĮºçļĦ éĿ¢ç§¯ä¸º
äº ©
çļĦ æŃĮæĽ²
. âĢľ
ä»¥ è¥¿
ä½ľ ä¸ļ
ä¸ĭ ä¸Ģ
18 2
æĽ´ å¤ļçļĦ
æĸ½ å·¥
14 0
åĪĩ å°Ķ
åº ĩ
åĪĨ ä¹ĭä¸Ģ
æĢ» è£ģ
æµģ ä¼ł
ç¿Į å¹´
äºĨ ä»ĸ
éĢī åĩº
èļ Ģ
ä¼Ĭæĸ¯åħ° æķĻ
ä¼ ŀ
å§ ¿
è¿Ļ åľº
èĩª ç§°
åĬł å°Ķ
åĽĽ ä¸ĸ
è¾ĸ åĮº
193 7å¹´
æķĪåĬĽ äºİ
. (
å§ ĳ
å¤ļ æł·
å¾· æĦıå¿Ĺ
éĤ ĳ
åįģä¸ī å¹´
I T
åįĹæŀģ æ´²
9 7
æ Ĩ
çļĦ åıį
åĽ½ éģĵ
åħ¬ é¡·
8 4
çļĦ ä¸į
ä¸» åĬ¨
èĬ Ń
å¤Ħ éķ¿
16 4
æ©Ħ æ¦Ħ
ç» ĳ
çļĦ ç¥ŀ
åĲİ åľ¨
è¡Į äºº
èĩ´ åĬĽ
çģŃ ç»Ŀ
6 ä¸ª
çļĦ è¡Įä¸º
çļĦ åŁºç¡Ģ
ç»´ åŁº
ä½Ľç½Ĺ éĩĮè¾¾
ä» Ĩ
åº ļ
æ³ Ħ
ä»ĸ ä¸º
ç§į ç±»
æ» ķ
éŃĶ æ³ķ
æĿŃ å·ŀ
åĨħ åľ°
äºĮ çº§
æ¤ ħ
äºĴ èģĶç½ĳ
ä¹Ł æ²¡æľī
å®¹ çº³
198 1å¹´
ç»ı çĶ±
å·´ åĭĴ
çŁ¥ åİ¿
195 2å¹´
ä¸ľåįĹ äºļ
æ±ī åŃĹ
ç¥ Ī
éĢļ çĶ¨
çĽ¸ åıį
çıŃ æ¬¡
çĪ ·
å°ĳ å°Ĩ
Ġ çĶ±
æĶ¿ åıĺ
æ°Ķ ä½ĵ
193 8å¹´
éĥ¨ å°ļä¹¦
åĩº åľº
è¢« åĳĬ
æĶ¹ å»º
æ²¿ å²¸
ä¸İ æŃ¤
194 7å¹´
çĸ« èĭĹ
å±± è¥¿çľģ
åķĨ åľº
åħŃ æľĪ
ç¾¤ ä¼Ĺ
9 4
k m
åŃ¦ ç³»
ç½ ©
è¿ĳ ä»£
åį« è§Ĩ
æ¡£ æ¡Ī
æ¼Ķ èīº
15 7
195 5å¹´
èĭ¹ æŀľ
ä»¥ 1
å¹¶ æĹł
æ¸¯ åħĥ
åķ ¡
åĬ £
æĺ¯ ä¸ª
æĭħ å¿ĥ
æĶ» åįł
8 3
å¸ĥ éĽ·
çº§ èģĶèµĽ
æħ İ
Ġ ä¸ªäºº
çļĦ ç»ĵæŀľ
åį³ ä½į
ãĢĭ( "
Ġ X
çļĦ çĶµ
éĢ ¸
å®ŀ ä½ĵ
è¿ŀ ç»ĵ
äºİ201 1å¹´
å¹³ çŃī
å±± åİ¿
æĥ §
æ¸ħ æ¥ļ
é¹ ı
æİ¢ ç´¢
8 1
o y
éķĩ åİĭ
æĻ®é²ģ å£«
ð «
éķ ĳ
çİ° ä¸º
16 3
æł¸ éħ¸
æŀ¶ æŀĦ
è´ ª
çŁ ®
çľģ çļĦ
åįķ æīĵ
çĥ ·
å¼ķ çĶ¨
è¡ĮæĶ¿ éĻ¢
åĢ¼ å¾Ĺ
åĪ¤ åĨ³
ig n
æıĲåĩº çļĦ
èľ Ĥ
æĺ¯ä¸Ģä¸ª ä½įäºİ
ä¸Ń å°Ĩ
é³ ŀ
æ°ĳè¿Ľ åħļ
æľŁ çļĦ
åİŁ ä¸º
å¤« å¦ĩ
å¥³ çİĭ
Ġ ä¸»è¦ģ
æī ĳ
åĨĽ äºº
ç»´ åħĭ
æ¨ ±
çļĦä¸Ģ æĿ¡
æ¸ħ ä»£
æĪĲç«ĭ äºĨ
éĴ¢ çĲ´
.. .
Ġ å¯¹
è´ ¼
åħ± è®¡
æł¼ æŀĹ
åĲį äºº
è° ´
æĢ» ä¼ļ
çº³ å·ŀ
æĶ¾ åľ¨
ç¦ı å¾·
å±Ĥ çļĦ
196 8å¹´
è¸ ı
å½» åºķ
äºİ 2022å¹´
åĮĹ ä¾§
å®ŀ è·µ
å»ºçŃĳ å¸Ī
åı²å¯Ĩ æĸ¯
H D
éĢ ¾
åĪ© çļĦ
æĺŁ ç³»
ä¿® éģĵ
å¸Į å°Ķ
ä¿Ħ åĨĽ
ä¹¡ éķĩ
i re
éĩį è¿Ķ
ä¿® è®¢
ä¸ĭ äºĨ
ä¹Ŀ æľĪ
u st
åľ¨ ä½į
åĪĨ æł¡
æ±Ł æĪ·
åĬ³ å·¥
ig ht
Ġ è¥¿
åħ¶ ä¸º
ä¸» åĬĽ
åĪ° çļĦ
åĵ ª
è¿ª å£«
çŃ Ĵ
æĸ° å»º
æµ· åįĹ
åĪĹ åĩº
æ¡ĥ åĽŃ
You T
è¡Į èµ°
çª Ħ
Ġ èĢĮ
Ġ é©¬
èµ Ķ
åľ° ä¸Ń
åįĹ ä¾§
æł¼ é²ģ
193 9å¹´
çĶ» éĿ¢
éĻ¨ çŁ³
Ġ çĽ®åīį
å¤´ è¡Ķ
å¼ķ è¿Ľ
æķ´ åĲĪ
äº§çĶŁ äºĨ
äºĭå®ŀ ä¸Ĭ
æķ ²
ä¸» æĿĥ
èĤ ¢
å½ķ åĪ¶
æ²³åĮĹ çľģ
Ġ å®¶åºŃ
åıĹ å®³
å¥½ è¯Ħ
194 0å¹´
çº ł
æĬ Ľ
è¿ĩ çļĦ
èĹ »
ä¼¤ å®³
Ġ st
çĲĨ æŁ¥
å§Ķ ä»»
è¯ģ åĪ¸
åį¢çĵ¦å°Ķ çľģ
P S
è¯¥ åħļ
åĵĪ èĲ¨åħĭ
è¿ªå£« å°¼
/ &
æĽ¾ æĺ¯
ç»´ ä¿®
ä¸Ĭ äºĨ
è¾ĥ ä½İ
ä»į åľ¨
196 0å¹´
s on
åĲ Ĭ
è° ¥
å¤© ä¸ĭ
195 4å¹´
åĨ Ģ
äºİ 2023å¹´
çĽŁ åĨĽ
Ġ æĹ¥æľ¬
æŃ¤ åīį
èµ· è¯ī
è®® å¸Ń
194 2å¹´
èĩªè¡Į è½¦
åĿ Ł
ä¼Ĭ æĭīåħĭ
çĻ¾ å¹´
åĩ ¸
åĮº åĪ«
éģ ®
ä½¿çĶ¨ èĢħ
åįł æį®
æĹ¥ åĲİ
å¤ļ é¡¹
æĥ ©
å®ĺ èĩ³
åĶ¯ä¸Ģ çļĦ
Ġ éĻ¤äºĨ
ãĢģ ãĢĬ
åĲİ æĸ¹
ä»» æķĻ
i b
Ġ æĿİ
åľ¨ åĮĹ
çĽ® çļĦæĺ¯
åĸ ĩ
åİĨåı² åŃ¦å®¶
2 åı·
æĴŀ åĩ»
å°ģ ä¸º
è¯Ĺ äºº
æŃ ī
è¯º æĽ¼
æĥ³ æ³ķ
æľĽ è¿ľ
ä¹ĭåĲİ çļĦ
Ġ åīį
Ġ çĦ¶èĢĮ
Ġ æķħäºĭ
æĪĺ åĪĹ
è®¤ åĲĮ
197 5å¹´
èĥĮ é³į
ç¬¬ä¸Ģæ¬¡ ä¸ĸçķĮå¤§æĪĺ
çĩĥ æĸĻ
i z
è¢« ä»»åĳ½ä¸º
æĹłçº¿ çĶµè§Ĩ
p er
çĶ ľ
èµ £
åĪĻ æľī
æĥħ ç»ª
æŃ¦ å¸Ŀ
194 3å¹´
æľ µ
æĶ» æīĵ
197 0å¹´
å± ¥
æłĩ è®°
çĶ· å¥³
å®ĮæĪĲ äºĨ
æĸ¯ åł¡
æ¬¡ äºİ
çķĮ çļĦ
é£Ł æĢ§
ed Ġ
æĲº å¸¦
åħ¬ åĬ¡
é¢ ł
èĭı ç»´åŁĥ
ing Ġ
7 1
è®® é¢ĺ
æĤ ł
å¢ŀåĬł äºĨ
äºİ200 9å¹´
çļĦ åŁİå¸Ĥ
ç» µ
åŁİ å¢Ļ
èĽĭçĻ½ è´¨
çļĦ è¯´æ³ķ
äºº æ¬¡
åİ ¥
ä¸Ĭ è¯ī
äº¤ åıī
åħĪ è¿Ľ
æ¨¡ çī¹
å¡ŀ çº³
è°´ è´£
çļĦ æĹ¥æľ¬
åľ¨ æ³ķåĽ½
æ¸ Ĭ
éĻ¤ æŃ¤
åį° ç¬¬
æĦ¿ æĦı
å®ļ æľŁ
èĬ Ļ
æ¢ ¨
ç»ıæµİ åŃ¦
15 9
æ¹ĸ æ³Ĭ
ä¸ĭè¾ĸ ä»¥ä¸ĭ
çŁĽ çĽ¾
åį §
çī© åĵģ
çī¹æľĹ æĻ®
çļĦ æīĢæľī
åīį è¿Ľ
éĤ µ
éĵģè·¯ è½¦ç«Ļ
æĻº æħ§
å²© çŁ³
æĺ¯ ä¸Ńåįİäººæ°ĳåħ±åĴĮåĽ½
ç½Ĺ å¤«
åĽ¢ ç»ĵ
åºĶ å¯¹
15 6
éĺ³ åİ¿
è°ĭ æĿĢ
12æľĪ 31æĹ¥
çĶŁéķ¿ äºİ
ä¼Ļ ä¼´
çĽ´åįĩ æľº
Ġ ä½¿çĶ¨
å¼Ģ å·¥
åĿ ł
çĤ Ń
ä¸ŃåĽ½ åĽ½æ°ĳåħļ
è¿ĺ åľ¨
åī ¥
åĲĮ åĲį
ä»£ æĽ¿
éģĵ åħī
æ²Ļ çĶ°
ä¸ª ä½ĵ
è¯¥ æł¡
æĶ¶ è´¹
ç«ĭæ³ķ ä¼ļ
æľĢæĹ© çļĦ
ä¸º 0
èµĽ çļĦ
æĶ¹åĪ¶ ä¸º
éĥ½ çĿ£
æıĲ äº¤
å¸¸ å¸¸
ä»į æľī
éĢīä¸¾ ä¸Ń
å¦¹ å¦¹
æľĽè¿ľ éķľ
A S
i es
çº¿ æĢ§
åĽĽ å¤§
å¥ ¸
çĲĨ å¿µ
çķ ħ
æĽ´ æį¢
199 0å¹´ä»£
æĤ ¦
åıĳçĶŁ äºĨ
èı² åĪ©
å·¨ å¤§çļĦ
å¼Ģ åĬŀ
çº³ å¾·
ä¸ĵ çĶ¨
åĵĪ åĪ©
éļ¾ æ°ĳ
é¢ģ å¸ĥ
æŀ¢ çº½
éĢ» è¾ĳ
åį°ç¬¬ å®ī
o st
æĮĩ æķ°
æĹ¶ä»£ çļĦ
éĩĮ åħĭ
æĶ¹ åĲį
éĻį éĽ¨
a z
æĹ ±
æ±Ł åįĹ
ä¸» ç®¡
æĶ¿ åĬ¡
å¯¹ éĺµ
æīĢ éľĢ
å¼º åĪ¶
çĪ± åĽ½
åħ¨ ä½ĵ
è¯Ń éŁ³
èģĮ åĳĺ
æ´Ľ æĸ¯
ic h
æ© ¡
ä»¥ 2
å¤§ éĺŁ
è¡Į é©¶
æİĴ åĪĹ
æµİ åįĹ
åıĳçİ° çļĦ
196 4å¹´
(; ),
V D
ä¸º åŁºç¡Ģ
èĤ ©
ction Ġ
ä¸Ģ äºº
è½¬ ä¸º
åįı åķĨ
ä¹ł æĥ¯
å´ ĸ
åıĤè°ĭ éķ¿
æĹ¥ å¸¸
å¯¹ ç§°
çİ° æľī
è° ģ
éĢī ç§Ģ
è¿· ä½ł
ä¸įå¾Ĺ ä¸į
çļĦ åĨħå®¹
å° ĺ
ä¸ī åĽ½
èµĽ ä¸Ń
å¤ĸ è§Ĥ
æĥ ľ
æł¼ åĭĴ
é¦ĸ æŃĮæĽ²
ä¹¦ åĨĻ
ç½Ĺé©¬ å¸ĿåĽ½
åĪĳ äºĭ
èĸ ĩ
c he
åĲį è¯į
åĲĪ åĶ±
æĢ§ åĴĮ
æİ¥ èĳĹ
æł¹ æľ¬
å¤´ éĥ¨
å¥ĸ éĩĳ
åį° åĪ·
è¥¿çıŃçīĻ è¯Ń
åĴ¨ è¯¢
æĺ¯ ä¸ºäºĨ
ç«ĭ éĻ¶
1 30
çī ²
æģ ¨
; /
l d
äºĨ ä»ĸçļĦ
ãĢĮ ãĢį
èµĽ è½¦
æ¢ µ
è½¬ ä¼ļ
å¡Ķ å°¼
èĬĤåº¦ ä½¿
å¯¹ è¯Ŀ
è° į
èħ °
åįģåĽĽ å¹´
çĪ ª
åĽ¾ æ¡Ī
è®© ä»ĸ
ä¼Ĳ åĪ©äºļ
ä¸Ģ å¤©
è° Ĳ
åĩĨ ç¡®
åĨł çĬ¶
åĵ Ģ
èĩª æŃ¤
ä¸¤ å²¸
é¦ĸ åº¦
é¢ĺ æĿĲ
ä½ı æĪ¿
çļĦ åľ°åĮº
çĽ Ī
çĶ¨ ä»¥
æŃ¤ äºĭ
ç«Ļ æĪ¿
ç»¼ èīº
åľ¨ è¥¿
æĢ ¡
ä¹Ł æĽ¾
è§Ĥ åħī
çģ« è½¦
ä»ĸ è®¤ä¸º
èī² å½©
å¼¹ èį¯
æĻº èĥ½
éķľ å¤´
çĥŃå¸¦ é£İæļ´
åŃŁ åĬłæĭī
æ¹ĸåįĹ çľģ
é«ĺ åİŁ
éĵ İ
èĻ ı
æĪĲç«ĭ åĲİ
æİ¢ æµĭ
å½ķå½± å¸¦
2 50
èĩ Ģ
äºĨ è®¸å¤ļ
ä¸Ĭ å¸Ŀ
åĬ¨ è½¦
è° ¦
äºİ200 8å¹´
é©¬åħĭ æĢĿ
çĽ¸ åºĶ
ç« £
ç»´ ä¹Ł
ç»§ ä»»
åıĭ å¥½
ç«ĭéĻ¶ å®Ľ
æĪĲ æŀľ
ä½ĵ åĪ¶
åįĩ æł¼ä¸º
a la
ä½ĵ éªĮ
çĿ Ľ
é¾Ļ çļĦ
çĻ¾ ç§ĳ
è¡į çĶŁ
å¼ Ħ
ç§ĳ ä¼ļè¯ķ
17 0
åĲĮæĹ¶ ä¹Łæĺ¯
è¯Ĩ åĪ«
çºªå½ķ çīĩ
æĳĩ æ»ļ
å°Ķ å¤«
èĢĮ è¯¥åľ°çļĦ
çĳ ľ
ç¢ °
åĨľ åľº
è´Łè´£ äºº
193 6å¹´
æİĮ æı¡
åĴĸ åķ¡
ä¸Ģ æĶ¯
åİŁ æĿ¥
æ· ĳ
æ±ī è¯Ń
éĿĴ æĺ¥
æŃ¥ æŀª
çŃ¹ å¤ĩ
Ġ å¤©
æ² ¼
ä¸» æīĵ
èĤ Ŀ
çŁ¥ åºľ
æĻ¯ è§Ĥ
çº¦çĳŁ å¤«
ç¼ Ŀ
æľ Ń
ç±³ åħ°
åĪ¤ å¤Ħ
èļ ģ
ç¼ĸåı· ä¸º
æ¹ĸåĮĹ çľģ
Ġ ç¬¬ä¸Ģ
å¤ ¸
çłĶç©¶ çĶŁ
åįĥ ç±³
ä¸» æµģ
èĪ Ĩ
Ġæ¦Ĥ è¦ģ
æĺ¯ ä¸į
åľ° äº§
è´ ¬
åħ¨ çº¿
åıĳçĶŁ çļĦ
åĲ¦ è®¤
åľ° ä¸Ĭ
çī¹ åħ°
åĬł åĪ©äºļ
é©±éĢĲ èĪ°
(,; )
åĨħ æĶ¿
æİ¥ ç®¡
å®¹ éĩı
èĪª çıŃ
åįĬ å¹´
åĵ¥ åĵ¥
196 6å¹´
åĽ½éĺ² éĥ¨
çŁ© éĺµ
, )
åľ¨ éĤ£éĩĮ
çľģ éģĵ
åħĥ æľĿ
èĿ ł
å¥¥æĸ¯ åį¡
ä¸º ä¸ŃåĽ½
æľ¬ å±Ĭ
è¯¥ å¸Ĥ
çĽ¸ ç»§
åħµ åĽ¢
æ³° åĭĴ
é¢Ħ å¤ĩ
D S
å® ł
å¼Ģ åĲ¯
ç®Ĺ æ³ķ
m er
çļĦ åľ£
æĪĺ èĥľ
æĳ Ķ
å§Ĩ æĸ¯
æµ Ĩ
åįģäºĶ å¹´
ç¥ Ĳ
æĶ¹ è£ħ
Ġ ç¬¬äºĮ
éĻķ è¥¿çľģ
Ġ å°½ç®¡
ä¹ĭ éĻħ
çģ« çģ¾
æĪ¿ éĹ´
åĲį è¿Ľå£«
çī© ä½ĵ
å±ħä½ı åľ¨
i Ġ
çļĦ æ¦Ĥå¿µ
à ¸
æ¼ Ĩ
æİ¨ ç¿»
å¿Ĺ æĦ¿
çĻ¾ å§ĵ
æĪĲ åĪĨ
é¢ ĸ
ä¸ī ç§į
èĭ± éķĳ
åĽŀ åĽ½
å®¢ æĪ·
æĹ§ åĿĢ
äºİ200 7å¹´
çĮ ľ
åŀĤ çĽ´
è¿Ļ ç±»
åįĹ æµ·
åĽł åºĶ
åĭ ĺ
æ²³æµģ åŁŁ
Ġ åı¦å¤ĸ
åħ Ķ
æĺ¯ ä»İ
äºİ æŃ¤
æĸ° åĮĹ
åħ¥ åĽ´
å·´ ä¼ĲåĪ©äºļ
æł¡ èĪį
åģļ æ³ķ
ä¼ģ åĽ¾
ç¥Ń ç¥Ģ
çļĦ ä¸ŃåĽ½
å¿ Į
æĸ° ç«¹
éĿ¢ åĲĳ
çĶµ æ±ł
ç§° ä¹ĭä¸º
éĢī æ°ĳ
Ġ The
è· Į
ä¿Ŀ å®ī
éĢłæĪĲ çļĦ
p t
Ġ 2004å¹´
äºİ åĲĮå¹´
æľ¬ ç§ĳ
éĩį å¤į
èĽ Ľ
195 9å¹´
è¿ģ ç§»
ä¼Ĳ åħĭ
Ġ Re
è¾ Ī
åıĺ æį¢
ä¹Į æĸ¯
ç§© åºı
åĲĮ æŃ¥
è¿« ä½¿
å¤§éĩı çļĦ
ç¬¬åįģ ä¸ī
éĺħ è¯»
c l
æ° ®
å°º å¯¸
ä¸ºè¾Ĳé³įé±¼çº² é²
Ġ æ¸¸æĪı
å¤§ è¡Ĺ
ä¸Ń é¥°æ¼Ķ
åĲį ä¸¾äºº
çī© çļĦ
(; )
M S
å±± çļĦ
äº¤ çķĮ
çªģ åĩº
èı² å°Ķå¾·
äºº ä¸º
ä»ĸ åĴĮ
åıĳ æİĺ
ä¸» ä½ĵ
èĢĮ æĿ¥
å±± å¸Ĥ
åĵĪ éĩĮ
ä½ı åľ¨
éĥİ ä¸Ń
åİ¦ éĹ¨
çī¹ æĢ§
åĮĸ ä¸º
ç¼ĸ ç»Ħ
YouT ube
P C
åİ ī
åħ¬ ä¼ļ
ä¸º æľŁ
ä»ĸ å¯¹
åĿ ŀ
æŁ¥ å°Ķæĸ¯
æħķ å°¼
ä½ ĳ
åĮ ł
å¸ĥ åħ°
æĽ´ æĺ¯
å¹² çº¿
éģĹ ä¼ł
é©± åĬ¨
èµ¢å¾Ĺ äºĨ
äºİ 2024å¹´
èĤ ĩ
çľ¼ çĿĽ
çĺ ¤
æĬĳ åĪ¶
a u
å¤§ åħ¬
çľģ æİ¥å£¤
å·´ èµ«
åĵģ è´¨
è¾¹ çļĦ
çĹħ éĢĿ
åĲİæĿ¥ çļĦ
æĪĺäºī æľŁéĹ´
æŃ§ è§Ĩ
" (
æ¡ Ĳ
æıĲ åīį
æµģ éĩı
èľ Ģ
ç±»ä¼¼ çļĦ
Ġ éĻĪ
çļĦ åŃ¦çĶŁ
æµ ¸
æĮ º
èŃ¦ æĬ¥
äºĭåĬ¡ æīĢ
ä¸ľäº¬ éĥ½
åķĨ åĬ¡
æĪĺäºī ä¸Ń
ç©¿ è¿ĩ
Ġ 16
èµ Į
ä»» åĨħ
é© ¹
äºĭ åĲİ
åĩĨ åĨ³èµĽ
æĹ¥ è¯Ń
ä¸¤ æĿ¡
æĥħ èĬĤ
åı¤ å·´
åįģåħŃ å¹´
ä¹Ł åı¯
å®ŀ åĬĽ
åİ¿çļĦä¸Ģä¸ª éĿŀå»ºåĪ¶åľ°åĮº
è¤Ĳ èī²
æħķå°¼ é»ĳ
æĪ Ĭ
å¤§ å®¶
å®¶ ä¹¡
çĵ ·
åĩł ä½ķ
éĽķ å¡ĳ
åĨłçĬ¶ çĹħæ¯Ĵ
Ġ 191
æľ¬ ä¹¦
çī¹ çĤ¹
æ´Ľ å¤«
èİ± æĸ¯
197 4å¹´
ä¾Ŀ çħ§
æĿ¥èĩª äºİ
çīµ å¼ķ
ç»´ä¹Ł çº³
èº« ä¸Ĭ
se ctionĠ
. )
åİŁ çĲĨ
å¢ŀ è®¾
ä»ħ æ¬¡äºİ
ç«£ å·¥
9 1
åıĬ åħ¶ä»ĸ
åįĹ ç¾İæ´²
ç»ı çºª
éĻ¢ å£«
195 3å¹´
ä¸¥éĩį çļĦ
Ġ åĮĹ
ä¸º çĶ±
æķĪ çİĩ
ä¿Ĺ ç§°
åįĹ æĸ¯æĭīå¤«
æ» ¤
æ» ĭ
åĪĴ å½Ĵ
é¢Ĩå¯¼ çļĦ
å¹ķ åºľ
æŁ Ħ
èģĶ åĨĽ
æľ¯ è¯Ń
ä½įäºİ ä¸Ńåįİäººæ°ĳåħ±åĴĮåĽ½
èĮ Ħ
åĮ» åŃ¦éĻ¢
æ·» åĬł
çļĦ éķ¿
åĨħ æľī
çĶ² åŁº
ç»ĥ ä¹ł
èĬ ¦
çĸ ¯
åľ£ ç»ı
è¾ĥ å¤§
ç»Ĩ èıĮ
h ant
çļĦ éĺ¿
å¤§ çĲĨ
æī Ń
éħ ¯
æĿĳ æ°ĳ
at h
ä¿®éģĵ éĻ¢
å¦Ĥ åĲĮ
æĮĩ è´£
æ¿Ģ çĥĪ
ä¸Ĭ æĸ¹
ç§° èµŀ
ä¿Ŀ åĬłåĪ©äºļ
åĽŀ åĲĪ
an n
æĹ© åľ¨
èĢĥ å¯Ł
éĢĶ ç»ı
èĻļ æĭŁ
Ġæł¹æį® 2020å¹´ç¾İåĽ½äººåı£æĻ®æŁ¥çļĦæķ°æį®
å¤§ æ°Ķ
åŁİ åİ¿
çº¦ 1
èİ· å¥ĸ
äºī å¤º
åįģäºĮ æľĪ
I V
r am
â Ĩ
æĶ» åĬ¿
æī¿ æĭħ
197 3å¹´
çļ® èĤ¤
éģĩ åĪ°
çļĦ åĽ½éĻħ
å¤ļ åħĥ
æ£ į
åŃ£ åĲİ
åĪĨ æĪĲ
æĸ¹ ç¨ĭ
åīį èº«
è¶ ģ
ç¾İåĽ½ äºº
åĽ¢ éķ¿
æ£ ±
å°± åľ¨
çļĦ æĪĲç»©
éĺŁ åĳĺ
ä½Ĩ åħ¶
æķ° åįģ
åĲĳ åĮĹ
èİ· åıĸ
çĽ´ è·¯
ä¹¡ æĿĳ
197 7å¹´
é¡º åºı
æľ« æľŁ
è¸ ¢
8 ä¸ª
æĻ ´
åħĥ éŁ³
å¥³ åŃ©
Ġ è¯Ħä»·
åı¸ èģĮ
åĩºçİ° çļĦ
193 5å¹´
åħ¬åħ± äº¤éĢļ
Ġ e
å¸ ľ
æ» ¥
åľ°ä¸Ń æµ·
E T
çļĦ çĶŁæ´»
æĢ» ç«Ļ
åıĹ æįŁ
è± ¹
15 5
é»ĳ äºº
è¡ĮæĶ¿ ä¸Ńå¿ĥ
195 7å¹´
ä½ľæĽ² å®¶
1 4å¹´
N BA
Ġ g
åĿ ¤
å£« é¡¿
å±Ģ å±Ģéķ¿
åĳ¨ åĪĬ
èĲ¨ æĭī
ä¸Ń åıĳçİ°
ç¥ ¸
Ġ åħ¶ä¸Ń
åĩº èµĽ
å¥³ ä¸»è§Ĵ
é¥ ¶
åĩł å¹´
å®ģ æ³¢
æĺ¯ æĦıå¤§åĪ©
åĵģ ç§į
åĵĪ æĭī
ç¥ĸ åħĪ
æĲ ŀ
éĺ´ è°ĭ
äºĳåįĹ çľģ
å¤ª åĲİ
æĿ¡ æ¬¾
15 2
çĮ ´
å©´ åĦ¿
çļĦ çĪ¶äº²
è¿Ļ ä¹Łæĺ¯
çĶ· åŃ©
æ·· ä¹±
å±ŀçļĦ æ¤įçī©
æ§ ½
çļĦ æ¸¸æĪı
å·´ åŁº
éĽ· è¾¾
è´Ŀ åħĭ
å¦ ¥
æĻ® æĭī
ä¿¡ å¾Ĵ
æŃ» äºİ
ä½ĵèĤ² é¦Ĩ
äº® çĽ¸
åĬłåĪ©ç¦ı å°¼äºļå·ŀ
å¯ ĩ
æľĢ å¤ļçļĦ
èĲ Ŀ
æİ¨ æµĭ
æ¤ Ń
ç»Ĩ èĬĤ
Ġ aĠ
åľ¨ ä¸Ĭæµ·
åĬł ä»¥
éĩį ç»Ħ
åĽ½å®¶ åħ¬åĽŃ
æİ¨ è¡Į
äºİ200 6å¹´
å·´åĭĴ æĸ¯åĿ¦
åıĸ èĩª
è®º åĿĽ
æĳ© å°Ķ
çļĦä¸» é¢ĺ
æ¡Ĩ æŀ¶
ä¸ľ åĮº
å±± åľ°
çĽ¸ è¿ŀ
è¯ī è®¼
åĳ¼ åĲ¸
é¥® é£Ł
ç¤ºå¨ģ èĢħ
é»ĳé¾Ļæ±Ł çľģ
i x
Ġ 11
å¾ Ļ
è¢« åıĳçİ°
è¿Ļ é¦ĸæŃĮ
çĤ ³
éĢģ åĪ°
éĢĶ å¾Ħ
å¤ľ éĹ´
å· ©
åĪĨ è§£
197 1å¹´
åı¯ä»¥ éĢļè¿ĩ
å¼ķ ç§į
é¥ ¼
éĻĦ åĬł
å¯Į æ±Ĺ
An d
çļĦ éĿ¢ç§¯ä¸º
æ¬ ł
æ°´ éĩı
æĸ°åĨł èĤºçĤİ
æŃĮ åĶ±
ç§» å±ħ
æĭ¿ çł´
è¿½ æ±Ĥ
ac h
å±ĭ é¡¶
å°±è¯» äºİ
èĩ´åĬĽ äºİ
çļĦ åŁİéķĩ
è® ½
æĺ¯ è¥¿çıŃçīĻ
æľº æŀª
çĽ¸ éĤ»
æĿ°åħĭ éĢĬ
æľī çĿĢ
ä»ĸ äºº
è¯Ĭ æĸŃ
ç«ĭæĸ¹ ç±³
æĭ¿çł´ ä»ĳ
. ãĢĮ
p p
é«ĺ æŀ¶
å¤ĸ åĽ´
ç¾İåĽ½ æĢ»ç»Ł
çİ¯ å½¢
æī¹ åĪ¤
195 1å¹´
èĪªç©º åħ¬åı¸
æĢ» ç»ıçĲĨ
æ£ ļ
æµģ åĬ¨
ç¬¬åįģ ä¸Ģ
æ»ĳ éĽª
Ġ ä¸Ģ
çļĦ ä¸ĸçķĮ
æĺ¯ èĭ±åĽ½
å¾· åħĭ
çī© èµĦ
å¦ ĸ
æ¯Ķ å°Ķ
ç»Ī æŃ¢
æħĪ åĸĦ
H K
æī ĩ
ä¸ī å¤§
ä¸ī çĶ²
è° £
æ¡ ĵ
17 5
åºķ å±Ĥ
éĽĨåĽ¢ åĨĽ
å´ĩ ç¥¯
åĨ »
åı¸ æľº
èĳ µ
å§ĭ ç»Ī
æłĩ é¢ĺ
åħµ åĬĽ
æ²Ī éĺ³
g in
ä¸Ń å¼ı
åĩº èĩª
è¿ĩ æ¸¡
å±± é¡¶
ç¦ §
åĬĽ åŃ¦
åĪĻ çĶ±
éĴ ©
åħ¬éĩĮ çļĦ
å·¥ä½ľ çļĦ
1 3å¹´
c i
å®ļ çĲĨ
åľ£ æ¯į
è¿ĲåĬ¨ çļĦ
4 æľĪ1æĹ¥
ä¸Ń ä¸ĸçºª
ä¸ĭ æĸ¹
çĪ ¬
è£ ´
ä¸Ńå¿ĥ çļĦ
ç§ĺ é²ģ
å±ħæ°ĳ çĤ¹
æĸ Į
ä»£ çļĦ
æŁ ľ
åħĥ å¸ħ
å§Ķ åī¯ä¹¦è®°
æ²³ åı£
çģ« è½¦ç«Ļ
é³ Ħ
éŁ¦ å°Ķ
å½¼ æŃ¤
ç²Ĵ åŃĲ
Ġ l
åħ¥ å¢ĥ
èĤ ¿
æ¼ Ĥ
ol d
Ġ æľĪ
å·¥ åķĨ
æĴ ĳ
æ·± åħ¥
åĥı æĺ¯
ç¬¬ä¸ī æ¬¡
000 åĲį
r is
åħ¬ å¯ĵ
çĲĥ è¿·
ç»ĵ è®º
å½¢ çļĦ
ç¡ķå£« åŃ¦ä½į
å± ¡
è¾ ±
éĨ ī
åİ Į
çĦ ļ
æĽ¾ ä¸º
æīĭ ä¸Ń
ar k
çİ¯ çĲĥ
èĵ Ħ
è¯ĳ ä¸º
äºĨ å¯¹
åħ¶ åľ¨
èĭı éĩĮ
ç¦ı éŁ³
çª ĥ
æĵ ¦
å¤©æ´¥ å¸Ĥ
å®ĥä»¬ çļĦ
åľ¨ ä»ĸçļĦ
çŃī å¾ħ
å±Ģ çļĦ
çªģ åİ¥
å¼Ĺ æĭī
ä¼ĺ åħĪ
èģ Ĥ
åĮĹ éŁ©
çīĪ çļĦ
åį° è±¡
åį°åº¦ æķĻ
æ© Ļ
è½¬çļĦ å°ıè¡ĮæĺŁ
ä¸º é¦ĸ
çĶ± äººå·¥
è¶³çĲĥ èģĶèµĽ
æĽ² çĽ®
é¢Ħ åĳĬ
æĹ©æľŁ çļĦ
E C
æĹ Ń
æĺ¯ åįĹæŀģæ´²
åıĳ éŁ³
åĬł åĭĴ
ä¸ī æ¬¡
00 å¹´
èģĮ æ£Ĵ
ç¦ı åĪ©
ä½İ æ°Ķåİĭ
ç¿° æŀĹ
çļĦ èĥ½åĬĽ
è¿ĩ äºİ
è¯¥ åī§
ç³ ķ
æł¼ å¼ı
èĳĹ æľī
çĪ± çļĦ
å¾® è½¯
å¹³åĿĩ æµ·æĭĶé«ĺåº¦
çĥŃå¸¦ æ°ĶæĹĭ
çĲĨäºĭ ä¼ļ
çİĭ ä½į
ç¬¼ èįī
æł¼ æĭīæĸ¯
è¯º ä¼Ĭ
åĪº æ¿Ģ
çĮª ç¬¼èįī
0 5
åİ Ŀ
è´ ¿
å¾· æĸ¯
åı² èĴĤ
åī¯ ä½¿
åµ Į
å¹¶ ä¸įæĺ¯
åıĸå¾Ĺ äºĨ
åħħ åĪĨ
E N
ä¸Ģ çĻ¾
çº º
åİ¿ åŁİ
on t
å¼º åĮĸ
éĢĤ çĶ¨äºİ
åľ¨ ä¸Ģä¸ª
ç¼ Ķ
çº§ çļĦ
åĭ ¾
å°± æľī
èº ²
çīĩ æ®µ
ä¸ģ åł¡
åħ±äº§ ä¸»ä¹ī
ç½ķ é»ĺ
åħĭç½Ĺ åľ°äºļ
å°¸ ä½ĵ
Ġ h
çļĦ å¥³åĦ¿
åĴĮ å¤§
åĲį èªī
ä¸ĭ è½½
çĶµ åĬ¨
å¥½ åıĭ
é¥ ¥
å»º åĽ½
åıĤ è§Ĥ
å¥³ æ¼Ķåĳĺ
æ¯ı æ¬¡
åĲİ åıĪ
çİĭ å®¤
é£ŀ å¼¹
å½¢æĪĲ çļĦ
A L
Ġ 2003å¹´
äºº ç§°
è¿Ļ ä¸¤ä¸ª
è¯¥ åľ°åĮº
æİ§ èĤ¡
åģļ ä¸º
196 7å¹´
åħ¹ çľģ
ãĥ ¼
åıĻ è¿°
èĢĮè¯¥åľ°çļĦ å¹³åĿĩæµ·æĭĶé«ĺåº¦
å·´åŁº æĸ¯åĿ¦
å¼ķç§į æł½åŁ¹
åı° å¸ģ
å¸¸ å§Ķä¼ļ
èº« äº¡
è®¾è®¡ å¸Ī
å¼Ĥ å¸¸
è´¢ åĬ¡
Ġ ç»ıæµİ
æĺ ı
è¿Ľ åı£
éĿ¢ç§¯ 1
2010å¹´ ç¾İåĽ½äººåı£æĻ®æŁ¥çļĦæķ°æį®
åĢŁ çĶ±
ä¸İæŃ¤ åĲĮæĹ¶
ä»» å¤©åłĤ
æ¬¡ æĹ¥
éģĹ è¿¹
E P
r it
éķ¿ å®ī
éģĵ çļĦ
è£ ¸
èĪª çº¿
çģ« æĺŁ
ä¹ĺ åĿĲ
çĶŁäº§ çļĦ
è¿Ľå£« åĩºèº«
Î ±
ãĢį ;
å»º æľī
æĿĥ çļĦ
åĸ ī
å®£ åĳĬ
ä¿Ħ äº¥
196 5å¹´
éĻ¤æŃ¤ ä¹ĭå¤ĸ
ä¿Ħäº¥ ä¿Ħ
ç§ĳ å¹»
çº³ å°Ķ
ç¥ŀ åľ£
ç¬¬ä¸Ģ å±Ĭ
çħ§ é¡¾
P lay
æĸ¯ éĩĮ
å¤© ä½¿
10 æľĪ1æĹ¥
è½¬ ä»»
åĪĿ å¹´
çĭ¬ çī¹çļĦ
çĶ±äººå·¥ å¼ķç§įæł½åŁ¹
e ct
ç¼ĸ åĨĻ
éĤ£ æł·
å¥´ éļ¶
æķ° çĻ¾
è¿Ĳ æ²³
æīĭ æŀª
å®£ è¨Ģ
åľ¨ åĨħ
ä¼Ĭ å°Ķ
åŃĺåľ¨ çļĦ
ä¸Ĭ æ¸¸
åŃĲ å¼¹
åŁº è¾ħ
er t
çĶµè§Ĩ åĬ¨çĶ»
çļĦå¤§ åŀĭ
ä¸ĭè¾ĸä»¥ä¸ĭ åľ°åĮº
1 6å¹´
åĲĮ åŃ¦
åı· ä¸º
å·´ å¡ŀå°Ķ
èį ĥ
èĻ Ĳ
åįģä¸Ģ æľĪ
" ).
åİ ¨
åīį çº¿
æ¶ ¡
åĪĴ åĪĨ
åĮ» å¸Ī
çºªå¿µ ç¢ĳ
ä¸Ģ éĥ¨åĪĨ
ä¸Ń ä¹¦
ä¹ĭ åĲį
æĹł éĻĲ
ç½ĳ ä¸Ĭ
196 9å¹´
i de
Ġ ä»¥
Ġ æĭī
Ġ Pro
æĭ ¦
æĸ° äºº
çķ ľ
æµģ ç»ı
è°ĥ èĬĤ
å½¢æĪĲ äºĨ
ä¸º 3
æĿ¥ å¾Ģ
å°¼ å¥¥
éĩĳ åĪļ
èĤ¯ å®ļ
æĸĩ æľ¬
æĢ» é¢Ŀ
è¯º æĸ¯
ä»¥ å¤ĸçļĦ
å°Ķ é¡¿
åı£ å¾Ħ
åįģ å¤§
å¸¸ è§Ħ
åĽŀ çŃĶ
èİ·å¾Ĺ ä¸Ģæŀļ
é²ģ æĸ¯
æĶ¹ç¼ĸ èĩª
åĮº åĴĮ
åŁº éļĨ
éĺ¿ å¯Įæ±Ĺ
æĶ¯æĮģ èĢħ
éĺµ å®¹
æ®ĭ çĸ¾
å¹¸ åŃĺ
å¥¥æĸ¯ æĽ¼
åĽ½ è¯Ń
åİŁ åĪĽ
è®¤ å®ļ
æŀģ ç«¯
M P
æľī åı¯èĥ½
çĽ ²
ä¸į åıĺ
éķ¿ å¤§
ç»´ åĲ¾
èĭı å·ŀ
éĿ¢ç§¯ 0
ä¾Ľ å¥ī
èĢ¶ å¤«
193 3å¹´
éĩĩçĶ¨ äºĨ
æĮī å¯Ł
ç©Ĩ ç½ķé»ĺ
è¯ŀ çĶŁ
æĮ ¤
åħ³ èģĶ
åĲĳ åįĹ
ç®¡ åĪ¶
è®¤ çŁ¥
è¿ĺ åĮħæĭ¬
åĬŀ æ³ķ
åī¯ éĥ¨éķ¿
åĪ¤ æĸŃ
ç´§ å¼ł
ä½įäºİè¯¥ çľģ
1 1å¹´
â Ī
æĶ Ģ
å¾Ĺ åĪĨ
ä¹Ł åĽłæŃ¤
åĸ »
è¯į æ±ĩ
çĽ®åīį å°ļæľª
åĲĮæĢ§ æģĭ
Ġ 18
åĴĮ ä»ĸçļĦ
è¿Ļ éĥ¨
å² Ĳ
çĹ ķ
æ°Ķ æ¸©
ç©¿ è¶Ĭ
ç»´åĲ¾ å°Ķ
y n
äºĨ ä¸ĢäºĽ
æį ī
é» Ľ
éħ ĭ
åħļ ç»Ħ
åī© ä½Ļ
1 7å¹´
å¿ĥ èĦı
éª ı
éĹ®é¢ĺ çļĦ
ç²® é£Ł
æ¬ º
å¤ĸ çķĮ
å·´ å¸ĥ
éħ ¿
la t
æĬķ æīĭ
çĶµè§Ĩ èĬĤçĽ®
æľĹ å¾·
çĩĥ çĥ§
7 ä¸ª
M ic
x t
ä¸ĭ æĿ¥çļĦ
è¿Ļ æ®µ
çĶµ æµģ
ç¾İåĽ½ åĽ½å®¶
16 8
193 0å¹´
å®¿ èĪį
åŁ ł
ç¬¬ 6
åĬł å·¥
åİŁ æľī
ç±» çļĦ
æĬĹ æĪĺ
æį¢ ä¹ĺ
éľį å°Ķ
oh n
D VD
çĶŁ æķĪ
é¢ Ĥ
åĵĪ å¾·
çªģ åĩ»
åĨ² åĩ»
åĲĪå¹¶ ä¸º
åĩº äºİ
åŃĲ åħ¬åı¸
æĪĺ è½¦
ç«Ļ åİħ
äºĶ åįģ
çĶŁæ´» åľ¨
çļĦå¤§ éĥ¨åĪĨ
åħĭéĩĮ æĸ¯
æľºåĻ¨ äºº
Ġ é«ĺ
åı¯ åīįå¾Ģ
åıį èĢĮ
ç¥ŀ ç§ĺ
æ²¡æľī ä»»ä½ķ
17 6
ä¸´ åºĬ
çī©ç§į çļĦ
æģĲ é¾Ļ
åĪĽå§ĭ äºº
ä¸ī åĲį
æ¬¡ æķ°
ç³ Ĭ
æĹı äºº
çļĦå±± å³°
Ġ æľ¬ç«Ļ
æĸ° çķĮ
å¾Ĺ ç¥¨
åħ° å·ŀ
éħ ī
å¥ĸ çīĮ
è¾ĥ é«ĺ
æĹĹ å¸ľ
åįģä¸ĥ å¹´
éĢļ è¡Į
å¡ Į
ç¾İåĽ½ æµ·åĨĽ
æĽ¾ è¢«
åıĹ åĪ°äºĨ
æĦı åĽ¾
èĬĤ å¥ı
åŃĺ åĤ¨
198 0å¹´ä»£
193 1å¹´
å¤º åıĸ
æĪĪ å°Ķ
ç±»ä¼¼ äºİ
åĨĽ åľ¨
å¼Ģ ä¸ļ
æĺİ å°¼
å¤ª éĥİ
å®Ī æĬ¤
O R
åĽ½ æľī
å¹¶ ä¸º
è¾ĥ å°ĳ
çĶµå½± èĬĤ
åıĳå±ķ çļĦ
æ°¸ è¿ľ
çĶŁéķ¿äºİ æµ·æĭĶ
æ³ ª
æŃ¤ ä¸¾
éĢļå¸¸ æĺ¯
æľī ä¸¤ä¸ª
è° ¨
æŃ£ ä¹ī
ä¼ł å¥ĩ
èĻ ¾
ç¬¬äºĮ ä¸ª
å§Ķåĳĺä¼ļ ä¸»å¸Ń
è¿ª äºļ
æĹĭ è½¬
åĿĲ èĲ½
çī©çĲĨ åŃ¦
Ġ åįĹ
æĺ Ķ
åĬ¨ åĳĺ
åŀ ¦
è¶³ èģĶ
æīĺ é©¬æĸ¯
åĩºçīĪ çļĦ
çļĦ äºĭ
ä¸Ń æĸŃ
è¿Ľ èĢĮ
éĢī ä¸Ń
in t
T A
â Ħ
æĹ¶ éĴĪ
ç¡® å®ŀ
ç±³çļĦ åľ°åĮº
âĨ Ĵ
4 Ġ
Ġ çİĭ
Ġ åĪ¶ä½ľ
åħ¬ çº¦
æĸ° è¥¿åħ°
åħ¥ çĲĥ
åħ¨ ä¸ĸçķĮ
å®ĥ åľ¨
åħī è°±
æıı åĨĻ
e b
æĪ Į
æķĻ ç§ĳ
é¦ĸ é¢Ĩ
å·´ åħĭ
äº§ éĩı
ä¿Ŀ åį«
åĩ» ä¸Ń
éĻĲ äºİ
æ¶Ī çģŃ
èĻļ æŀĦ
å¹¶ä¸Ķ åľ¨
ãĢĭ (),
æĢ§ æł¼
çĳ Ļ
16 5
åĿĩ æľī
14 5
ro m
åĿĲ æłĩä¸º
ä¸ĭ å±ŀ
å¢ĥ å¤ĸ
æĬĢ èĥ½
æ¸© å¸¦
åĺī åºĨ
Ġ å¯¹äºİ
è¢« åĪĹä¸º
ä¿¡ ä»»
åį¢ çĵ¦
åį°åº¦ å°¼è¥¿äºļ
åıĳçĶµ åİĤ
3 åı·
å¤§ æī¹
åĲĳ ä¸ľ
196 2å¹´
å¸ķ å°Ķ
éĴ¢ éĵģ
æĢ ¨
åīį èĢħ
çº¿ åĴĮ
èµ· çĤ¹
ä¹Ĳ åĻ¨
16 6
å®¢ å®¶
åı¯èĥ½ æĢ§
çº¤ ç»´
Ġ 13
è· ĭ
çī¹ åĭĴ
éķ¿ æĺ¥
å¤ļ ä¸º
è¿ĩ åº¦
æĢ» å±Ģ
çª Ŀ
çģµ éŃĤ
éĢı æĺİ
å¸ĿåĽ½ çļĦ
Ġ ç®Ģ
åĴĮ äººåı£
ä»¥ å¾Ģ
åįİ åĮĹ
äºĮ æ¬¡
å¥¹ æĽ¾
æĤ ¼
r u
ä¸Ń æŃ£
åĽ½ æĹĹ
ä»¥ åħ¶
åĲį å½ķ
ä½Ĩ ä¸į
er n
or k
è§£ éĻ¤
éļı ä¹ĭ
èı ±
è¡ĮæĶ¿ éķĩåĮº
ç¡® ç«ĭ
æĻļ æľŁ
çļĦåľ° ä½į
Ġ æĹ¥
Ġ éĩĳ
å¤§ è¿ŀ
ä»ĸ å°Ĩ
æ¸¯ éĵģ
å¥¥ åħĭ
åĸ Ŀ
å¾Ģ è¿Ķ
åħŃ ä¸ª
éĢī ç¥¨
éĶ ħ
çº³ æĸ¯
åħĭéĩĮ ç±³äºļ
æ²Ł éĢļ
Ġ ä¸ºäºĨ
éĹ ¹
è¿Ļ ä¸¤
åĶ ¤
è¾ŀ åİ»
æĲŃ è½½
é£ŀè¡Į åĳĺ
çļĦ éģĵè·¯
éĺ ľ
é»ĳ æļĹ
é¸ ¦
Ne w
0 1
U S
çļĦ é©¬
åĽ½ å®ī
å®ļ ä½į
æıĲä¾Ľ çļĦ
æ¢ħ å°Ķ
ç±»åŀĭ çļĦ
åİ¿çļĦä¸Ģä¸ª è¡ĮæĶ¿éķĩåĮº
æĺ¯ å¯¹
çĽ Ĵ
ä¹ĭ åľ°
å¸ĥ æĶ¿
çĽ¸ è¾ĥ
æīĵ å¼Ģ
ä¹Į æĭī
; &
Ġ for
æľī ä¸¤
âĢ §
åıĬ åĲİ
12 5
äººå¤§ ä»£è¡¨
B L
O M
U N
å° §
ä¸ĭ çļĦä¸Ģä¸ª
å£« åĿ¦
äº§ çī©
ç¥ŀ ç¤¾
æĶ¾ éĢģ
æ³¢ çī¹
åĵį åºĶ
193 2å¹´
èī¯ å¥½
Ġ En
åĮ ª
äºĭ åıĺ
ç«ĭ å¤§åŃ¦
æĺİ ä»£
åĲĳ éĩı
æµģ æµª
åħĪ åīį
æ¸¸æĪı ä¸Ń
å¼Ģåıĳ çļĦ
èĲ¨æĸ¯ å·ŀ
H R
åľ° å¤Ħ
ä¼į å¾·
192 8å¹´
åĪ© å¥¥
äº§ åľ°
ä¹¦ æ³ķ
åıĳå¸ĥ äºĨ
æįĲ èµł
å¸ĪèĮĥ å¤§åŃ¦
i ver
å·¥ åħļ
åį³ åı¯
æ¯į èĪ°
è¯» ä¹¦
ä¼ļè®® ä¸Ĭ
å·¡ éĢ»
Ġ 2002å¹´
çļĦ å¼Ģ
äºº æīį
åĮĹ å¹³
éĹ´ è°į
çĥ Ĥ
åºĵ å°Ķ
ä¸»æķĻ ç»ĥ
ç§Ł çķĮ
èķ ĥ
å°Ĭ éĩį
æ°ĳ æĶ¿
æľĢ éĩįè¦ģçļĦ
åĲĳ è¥¿
çłĶç©¶ ä¸Ńå¿ĥ
196 1å¹´
æĺ¯ä¸Ģ å®¶
æŃ¤ ç±»
ic k
æĺĨ æĺİ
æ§ Ł
3 0å¹´
Ġ ä¸ī
Ġ ä½ľä¸º
å¤§ åĲĮ
æĢ İ
ç¼ Ģ
æĪĸ ç§°
æ® ·
èĮ İ
çłĶç©¶ åĳĺ
å¼º å¤§çļĦ
ç²¾ çģµ
åĤ¨ åŃĺ
å»¶ä¼¸ èĩ³
å¤§ åŃĹ
çŃī äºİ
çŃī èģĮ
åİŁ å®ļ
ä¼¯ æł¼
èĽ Ļ
å°¼åı¤ æĭī
A K
åĬ ¾
ä¸Ĭ éĿ¢
ä»ĸ è¯´
æ³ķ åŃ¦
æĺ¥ ç§ĭ
çº· çº·
è¯ Ī
åħ¬ ç¤¾
åĬ¨ æĢģ
éĥ½ ä¸į
åİŁ åŀĭ
ä¹Ŀ å·ŀ
éĺ² å®Ī
åģľ è¿Ĳ
St ation
å§ĵ æ°ı
çļĦ è®¡åĪĴ
åıĳ è¾¾
çŃī çļĦ
ç®¡ æİ§
å¼ł åįķæĽ²
å¼º çļĦ
äºİ200 5å¹´
åĲĽ å£«åĿ¦
F C
äºº ç¾¤
éĴ ł
on d
èı ©
å°ģ éĹŃ
çļĦ ä»£è¡¨
çļĦ åĲįç§°
æĮĩ çļĦæĺ¯
å¥ĸ æľĢä½³
å¢ĥ åĨħçļĦ
åı¦ ä¸Ģç§į
is h
æĪ· éĥ¨
å¾® åįļ
çļĦ åº§æłĩä¸º
éĹ ¯
è¿Ļ æĹ¶
æ´»åĬ¨ çļĦ
èĽ ®
åĳĺ å¤ĸ
çĲĨ åŃ¦
åıĤ è®®åĳĺ
æĿĢ äºº
æĻ¯ çĤ¹
å·Ŀ åİ¿
å°ģ éĶģ
ä½ £
åħ¬ å¼ı
åħĭ éĽ·
åĬł æĸ¯
æ³¨ åħ¥
æŃĩ å°Ķ
è¿Ľ çĲĥ
æĺŁ çļĦ
éĢł åŀĭ
è½¬ åıĺ
æ³¢ å£«é¡¿
çľĭ è§ģ
ä¸»é¢ĺ æĽ²
/ /
åŀ £
æĶ¹ èī¯
ä¸ĵ ç§ĳ
ä¸ĵ æ³¨
åħ¶ä»ĸ çļĦ
éĩİ çĶŁ
å±¯ éĹ¨
Ġ Al
ç¦ ¾
çĦ °
åıĤ æ¼Ķ
è°ĥ ä»»
æŀģ ä¸º
çĽ®åīįå°ļæľª çĶ±äººå·¥å¼ķç§įæł½åŁ¹
o ve
Ġ å»ºçŃĳ
åĪĨ äº«
ä»» æĦı
èī ®
åīį æĿ¥
æľŁ åĪĬ
ç½Ĺ è®·
éĺ¿ åŁº
å¯¼ å¸Ī
çľŁæŃ£ çļĦ
I R
é«ĺ å±Ĥ
ç»ı è´¹
å°¼ æ³Ĭ
éĺ¿ å§Ĩ
åİĭ ç¼©
å·¡ æĬļ
éŀ į
åıĳè¨Ģ äºº
ç©Ĩç½ķé»ĺ å¾·
) (
Ġ 189
éĺ Ģ
é«ĺ æł¡
å°Ĩ ä»ĸ
ä½ĵ æĵį
éĺŁ åľ¨
ç²¾ ç¡®
åı³ ç¿¼
éĺµ äº¡
ter n
Ġ 1949å¹´
èĭ į
196 3å¹´
è¯» èĢħ
éĽħ åħ¸
å®ľ åħ°
äºİ18 8
Ġä¸ªäºº çĶŁæ´»
a x
è®¾ åľ¨
æ¶ ¨
éļı æľº
çķĻ åŃ¦
èĤ¡ ä¸ľ
3 Ġ
ä¸Ń åİŁ
åīį éĶĭ
è·¯ å¾Ħ
é¦ĸ å°Ķ
åı¤ å¸ĮèħĬ
çİĩ åĨĽ
åħį çĸ«
è¶ĭ åĬ¿
C N
çķ ı
æĽ¾ æĭħä»»
æĥħ æĦŁ
åĪĿ æŃ¥
è´Ń çī©
æ´ª æ°´
ç»Łæ²» èĢħ
å¤©æĸĩ åŃ¦å®¶
çº¦ åħĭ
æıĲ æ¡Ī
åĬłåħ¥ ä¸ŃåĽ½åħ±äº§åħļ
äºº æĸĩ
æĺ¯ ä¸ĭè¾ĸçļĦä¸Ģä¸ª
æĹ¶ åĪ»
å°ı å§Ĳ
æĦŁ æĥħ
æ²¿ çĶ¨
éĤ® å±Ģ
å§Ĭ å¦¹
C P
m m
çļĦ æľī
äºº ä¸İ
åıĳ èĤ²
ãĢĬ ãĢĭ(
æľ¬ æ¬¡
åı¯ éĿł
ç¼ Ĩ
æ°´ ä¸Ĭ
æ°´ æ·±
é¦ĸ æī¹
å±Ģ åĬ¿
è®¤ä¸º æĺ¯
æĬĢ å·§
èĭ±åĽ½ çļĦ
èĢĥ åħ¥
èį£ èİ·
è®¨ ä¼Ĳ
æĪª æŃ¢
è¡¨çİ° åĩº
äººå¤§ å¸¸å§Ķä¼ļ
ä¸Ģ å¼Ģå§ĭ
èĥ Ģ
å½ĵ ä½ľ
éĢī æĭĶ
åĸ Ļ
ä»ħ ä»ħ
å½Ĵ ç±»
æĻļ éĹ´
åĽłæŃ¤ åľ¨
æĭľ åįł
Ġ Y
ä¸Ģ åı·
ä¼ļ ç¤¾
å¹¶ è¡¨ç¤º
éĿ¢ ä¸Ĭ
ç¦» å©ļ
å·¥ä½ľ äººåĳĺ
åĶ® ç¥¨
od ice
ä¸ļ ä½Ļ
éĤ ¹
äº¤ æĪĺ
å¤Ħ åĨ³
çļĦä¸Ģ æ¬¡
çħ Į
èµĭ äºĪ
E S
åĴ ı
æĹ¥ çļĦ
å®ī å¦®
å·´ æĸ¯
åº§ åłĤ
å®¢ è½¦
èŀº æĹĭ
æĶ¿åįı å§Ķåĳĺ
éĻ¨çŁ³ åĿĳ
âĦ ĥ
åĩº åľŁ
ä¸į çŁ¥
ä¹ĭ ä¸Ĭ
ä½ĵ éĩį
ç¼ ¸
åİ¿ éķ¿
åĨ³ çŃĸ
åĽŃ åĮº
å½±åĵį åĬĽ
am es
åİ»ä¸ĸ åĲİ
ä¸į ä½³
åĨĽ æĸ¹
å¤ļ ä¼¦
å¤© åºľ
éĽĨ çļĦ
çļĦ ç¤¾ä¼ļ
å¹¶ æľī
æ¬¡ åĪĹè½¦
å¤ª å®Ī
193 4å¹´
çī§ å¸Ī
éĽķ åĥı
æĦıæĢĿ æĺ¯
E ST
åŃ ļ
åĲİ åĽł
è§Ĥ éŁ³
ä¼¦ æĸ¯
å¤± è¸ª
æ£® åł¡
çĨ Ķ
åĺī å®¾
åĲ¦ åĪĻ
åıĳè¡¨ äºĨ
æĪĺ ç»©
æľĢç»Ī åľ¨
éĩĬ åĩº
192 9å¹´
èİİ çĻ½
çļĦ èº«ä»½
åľ¨ å½ĵæĹ¶
äºĨ è¯¥
çĶµ è·¯
å·´ å«©
ç¦ı å°Ķ
æ½ľ åľ¨
ä¿ĥ ä½¿
æ°Ł åĮĸ
D A
åľ¨ ä¸İ
è§Ħ æł¼
è§ģ äºİ
çĥŃ éĹ¨
è¢ ľ
ä¹Ĳ åĽŃ
éĴ §
æĶ¯ çº¿
é¹ ¦
æľĢé«ĺ æ³ķéĻ¢
å®Įæķ´ çļĦ
æĬĹæĹ¥ æĪĺäºī
èŁ ¹
Ġ æ³ķåĽ½
Ġ åıĤèĢĥ
ä¸º åı°æ¹¾
ä»¥ 3
15 4
æľĢé«ĺ çĤ¹
og le
5 åħ¬éĩĮ
çļĦ ç»ıæµİ
æĭ ¯
èĩª ä¸»
éĽĨ ç»ĵ
ä¼ł éĢĴ
å¨ģ å°¼æĸ¯
èĪª ç«Ļ
14 9
ä¾¦ å¯Ł
èı²åĪ© æĻ®
åľ¨ æ¬§æ´²
é¢ Į
ä½ĵ ç§¯
é»İ å·´å«©
æ¸ħåįİ å¤§åŃ¦
3 ç±³
l es
ç¬¬ 10
åı¤ è¿¹
ç½® äºİ
èŃ¦ åĳĺ
äºĮåįģ å¹´
æĲľ ç´¢
çļĦ ç¬¬ä¸ī
åı¯ æĺ¯
æĪĺ åĽ½
æį® è¯´
å¤ª åİŁ
çłĶ åĪ¶
éĿ¢ç§¯ åĴĮäººåı£
è§Ĥ èµı
æ¸© æ³ī
ac t
æĴ¤ ç¦»
ç²¤ è¯Ń
èĢĮè¯¥åľ°çļĦå¹³åĿĩæµ·æĭĶé«ĺåº¦ ä¸º
çļĦ åħ¨
åĵ º
ä½Ĩ ä»į
ç±» åĪ«
ç¡ ħ
ç¡¬ å¸ģ
å·¡åĽŀ èµĽ
çļĦ åĪĨ
å£ ¬
éĺŁ åıĭ
é¦ĸ ä»»
äº¤ åĵį
éĽĨ ä¼ļ
è§Ĥ å¿µ
éº ĵ
æ²¿ çº¿
é¢Ŀ å¤ĸ
192 7å¹´
æĲŃ éħį
c o
çļĦ ä¼łç»Ł
æĪ İ
19 12å¹´
è¯¥ åºĦ
é©¬ åĬĽ
æİĴ éĻ¤
æĺ¯ä¸Ģä¸ªä½įäºİ ç¾İåĽ½
2 ç±³
çļĦ ä¸Ĭ
åº ¸
ç¥ ·
æĹĹ ä¸ĭçļĦ
æııè¿° ä¸º
192 4å¹´
Ġ 2001å¹´
çļĦ æ´»åĬ¨
å¹³ æĪĲ
æĢ» åħ±
å°± åı¯ä»¥
ä¸ĩ å¹´
æĶ¿æ²» å®¶
è¾ĥ å¤§çļĦ
æĪĲåĬŁ çļĦ
éĴĵ é±¼
D NA
ð ¬
æŃ ¼
åĨħ äºļ
æķĻ å¾Ĵ
ä¼ł è¾ĵ
æĳ ĺ
çļĨ æľªçŁ¥
èĿ Ļ
è¯¥åľ°çļĦ éĿ¢ç§¯åĴĮäººåı£
è¯¥åľ°çļĦéĿ¢ç§¯åĴĮäººåı£ çļĨæľªçŁ¥
æľ¬ åľ°åĮº
ä¹Ł ç§°
æ´Ľ çī¹
æĿ° åĩº
æĭľåįł åºŃ
ä¸ ¢
å°± ä»»
åĭĴ æĸ¯
æĸĩåĮĸ å¤§éĿ©åĳ½
ä¾Ŀ éĿł
é¡º æĹ¶éĴĪ
æĦıè¯Ĩ åĪ°
Go ogle
åĨ ¢
é«ĺ å±±
èĩ³ æŃ¤
åĳ½ åĲįçļĦ
åĪĴ åħ¥
çŃĸ åĪĴ
èĿĻ èĿł
i um
è´ ¦
åĩº æĿ¥çļĦ
å¼Ģ æĴŃ
ç¾İ ä¸½
è¿Ľ åĨĽ
è° ķ
åĪ¶ åĵģ
å±± åı£
ç«Ļ èĩ³
ç½ĳ åıĭ
æ¨¡ ä»¿
éĺ² åį«
å©ļ ç¤¼
ç´¯ ç§¯
æĹłçº¿ çĶµ
æľ¬ æĿ¥
åĲĪ çĲĨ
è¯Ħè®º å®¶
è¾½å®ģ çľģ
( )ãĢģ
çļĦ åĽĽ
æ° Ľ
æĹ¥ çĽĬ
æ» ŀ
å¡ŀ æĭľ
Ġ åħ¨
Ġ 17
Ġ 2000å¹´
çļĦ æ²³æµģ
ç§ ī
æĸ¹ ç¨ĭå¼ı
æŃ£ æĺ¯
åĥ ļ
åħ¬åĬ¡ åĳĺ
ä¸Ģ ä»½
åĪĨ ä¹ĭ
é» ı
åıĤ è§ģ
å¥³ ç¥ŀ
æ²Ļ æ¼ł
å¤ı å¨ģ
å¯º éĻ¢
è®¯ æģ¯
æ± ¶
æĪĺ ä¸Ń
ä½ĵ åŀĭ
éĵ Ŀ
åĶ ĩ
æĮĩ ä»¤
åıį æĬĹ
æĸĩåĮĸ éģĹäº§
å¼Ĺ åħ°
è¡Ģ æ¶²
åŁºæľ¬ ä¸Ĭ
Ġ ä¸ľ
å¾· ç½Ĺ
ãĢį )
çĻ½ ä¿Ħç½Ĺæĸ¯
æĹ¶éĹ´ çļĦ
éħį ä¹Ĳ
ä¼ĳ æģ¯
æ¯« æĹł
I A
éķ ¶
åĲį åı«
ç¬¬ åįģäºĮ
åįİ ä¸º
æĿĥ å¨ģ
ç¼ĸ åĪ¶
åħ´ èµ·
çľŁ äºº
åŁİå¸Ĥ çļĦ
èĢ¶ å°Ķ
åĮħåĲ« äºĨ
äº¤æĺĵ æīĢ
ä¸º è¯¥
æĪĲ çļĦ
è¡Į è½¦
ä¹ĭ æĹ¶
å¹¶ èİ·å¾Ĺ
åł µ
ç¬¬ä¸Ģ çĻ¾
äºĪ ä»¥
çº½çº¦ å¸Ĥ
p en
ä¸į åıĹ
ä¿ ±
åĬ¨ å·¥
è¿Ĳ ç®Ĺ
è¯Ń ä¸Ń
ä¹ī åĬ¡
åĬ© äºİ
çİ¯ ä¿Ŀ
åı¬ éĽĨ
çģŃ äº¡
å¹» æĥ³
Ġè½¦ç«Ļ ç»ĵæŀĦ
9 00
Ġ re
çļĦ çĽ®æłĩ
åı° ä¸ľ
èĥ½ åľ¨
æķ° åįĥ
æĢ» æĺ¯
èĭ± è¶ħ
å½± è¯Ħ
æĿ¡ çĽ®
æİ¢ è®¨
éļĶ å¹´
åĵ Ń
æŃ¤ åľ°
åħ° åį¡
è¯´ æľį
åĽ½å®¶ å®īåħ¨
åĳ¨ æľ«
åī¯ æĢ»ç»Ł
å§Ķåĳĺä¼ļ çļĦ
æ¾ İ
ro und
åİĦ å°Ķ
åıĹå®³ èĢħ
çļĦ æīĭ
çļĦ åĲĮæĹ¶
ä½ĵ çİ°
å¸ĥ å±Ģ
è¯Ń åĴĮ
æķ´ çĲĨ
éĿĴ æµ·
è´¹ å°Ķ
æł¼åħ° çī¹
çīĪæľ¬ çļĦ
è·ĳ éģĵ
æĺİæĺ¾ çļĦ
1 12
C C
Ġ æĹ©æľŁ
åĴĮ ç¾İåĽ½
åľ° åĿĢ
ç¬¬ 7
çĶ± æĿ¥
ä¸ĭ æ¸¸
éĩĮ éĿ¢
çİ° å·²
æīĵ è´¥
è§ģ åĪ°
çīĻ é½¿
åĨ° å·Ŀ
åŁºçĿ£ å¾Ĵ
æ¸ħæľĿ æĶ¿æ²»äººçī©
åįģåħ« å¹´
æľº åĬ¨
å¸Ī éķ¿
ä¸ĵ åĪ©
ç»Ī èº«
çģµ æĦŁ
ç¾İæľ¯ é¦Ĩ
Play Station
ä¸º å¤§
åĵ ©
æĿ¥ çľĭ
æĭī å¾·
åĪ¶ è£ģ
è¿ĳ å¹³
æ±ī åł¡
çľĭ æ³ķ
ro s
éĿ©åĳ½ åĨĽ
åĪĽä½ľ çļĦ
ä¾µ çĬ¯
Ġ é»Ħ
åĲ ĵ
ä»ĸ ä»¥
å¹¶ æĪĲä¸º
éĵ ħ
æīĵ éĢł
è´Ŀ æł¼
åıĭ è°Ĭ
å¯º åºĻ
åĪł éĻ¤
çļĦ å¯¹
èĥ ĥ
ç¬¬ 8
ä¸ī çº§
å¤© æĸĩåŃ¦
åıĺ æĽ´
çĪ± å¥½
åĿĩ åľ¨
æ¦ ´
t on
Ġ å°ı
åľ° åŁŁ
åĲį é¢Ŀ
æ¬¡ åŃĲ
æŃĮ åī§
å®£å¸ĥ å°Ĩ
èĭ¥ å¹²
II I
P h
çļĦ è¥¿
èĢĮ éĹ»åĲį
å·ŀ è´Łè´£ç®¡è¾ĸ
çĭ Ĳ
é¦Ļæ¸¯ çļĦ
çŁŃ çīĩ
un g
åĿĲ æłĩ
å®ļä¹ī ä¸º
æĦıåĳ³ çĿĢ
åģľè½¦ åľº
Ġ æŃ£
çļĦ å»ºçŃĳ
çī º
åĨĽ å§Ķ
æĢ» åı¸ä»¤
åĪĻ ä»¥
è¡ĮæĶ¿ åįķä½į
åĨ³èµĽ ä¸Ń
Ġ åį¡
ä¸º é£Ł
ä¸Ģ æĹ¦
æ¢ Ń
å¼Ģå§ĭ äºĨ
åľŁ å£¤
é¡º æ²»
æį· è¿Ĳ
åľ¨è¿Ļ éĩĮ
èĪªç«Ļ æ¥¼
å¤ıå¨ģ å¤·
çļĦ æľºä¼ļ
åľ¨ åīį
æĪ ļ
çĻ ¸
å°± åĥı
éŁ³ èĬĤ
æ´» æĢ§
ä¸ĵ åĳĺ
ä¾¿ æĺ¯
æİ¨åĩº çļĦ
ãĢī ãĢģ
ç½ķ è§ģ
åĲīæŀĹ çľģ
å¹³ å®ī
èĤ ¾
éĺµ èĲ¥
æŁĲ ç§į
å´ĩ æĭľ
æ±Ł è¥¿çľģ
æĽ¼ èģĶ
ä¹ł è¿ĳå¹³
æĻļ å¹´
åŃĺåľ¨ äºİ
èĩĢ é³į
. &
a e
k e
åĨĽ èĪ°
éĩĮ æĺĤ
éĢł èĪ¹
çĳ ļ
èĲ½ åĲİ
çº½çº¦ å·ŀ
è·¨ è¶Ĭ
æ¢¦ æĥ³
æĻ¶ ä½ĵ
æĺ¯ä½įäºİ ä¹Įåħĭåħ°
I ST
åĲį ç§°ä¸º
éĶ ¥
åĽ¾ å½¢
ç¼ĸ åħ¥
è½¬ ä¹ĺ
åı°æ¹¾ çļĦ
èĲ½ è´¥
éĩįçĤ¹ æĸĩçī©ä¿ĿæĬ¤åįķä½į
çļĦ å¤ļ
éĥ½ åı¯ä»¥
éĩĳ éĹ¨
ä¸ĸçķĮ éģĹäº§
çĶ· ä¸»è§Ĵ
çª ĳ
çģ« åĬĽ
äº« æľī
o ol
åĽĽ äºº
åĳ¨ æģ©
ä¼¯ åĪ©äºļ
å·¡ æ¼Ķ
è¡¥ ç»Ļ
éŀ Ń
Ġæł¹æį® 2010å¹´ç¾İåĽ½äººåı£æĻ®æŁ¥çļĦæķ°æį®
åĴĮ ç¤¾ä¼ļ
æľ¬ è´¨
ç«ĭ å§Ķ
ä½Ĩ æľĢç»Ī
æĽ¾ æľī
è¯Ħ å®¡
èĪª è¡Į
é¢ĳ ç¹ģ
åı« åģļ
Ġ 202
ãĢĬ ãĢĭ,
èĭ± å¯¸
çīº çī²
Ġ Le
åį ¯
ä¸Ń çŃī
èĩ³ 2
æ°´ åĪ©
è¡ĮæĶ¿ éķ¿å®ĺ
åħ¸ åŀĭ
å¹¿å·ŀ å¸Ĥ
å¹¿æ³Ľ çļĦ
æĺĨ èĻ«
S M
å®Į ç¾İ
èĲ¥ åħ»
197 0å¹´ä»£
i le
19 18å¹´
åŃ¦ åłĤ
æ³ķ åĨĽ
å¹³ å®ļ
æķ° ä¸ª
æĶ¹ ç»Ħ
åŃ£ èĬĤ
æ¹ĸ å¹¿
24 å°ıæĹ¶
ç¿Į æĹ¥
Ġ 14
ä¸į ä½Ĩ
è¢« æĿĢ
æĥ ĳ
äº¤ ä»ĺ
en ce
å½° åĮĸ
6 ç±³
ä¸Ģ è·¯
æľ¬ åĲį
ç«ĭ ä½ĵ
çķ ´
åį³ ä¸º
èģĮ è´£
å¾Ģ æĿ¥
åıĪ åľ¨
æĸĩåĮĸ çļĦ
æ¸ Ĺ
å®¶ å±ŀ
æĪĺ è´¥
ç¦ ¹
æĢ» ä½ĵ
å½± å±ķ
æıĲ çĲ´
é£İ æĻ¯
åħī åŃ¦
æĹ§ éĩĳå±±
éĢĥ ç¦»
çĪĨåıĳ åĲİ
æĶ¶è§Ĩ çİĩ
å°¼æ³Ĭ å°Ķ
3 åĲį
çļĦ éĿŀ
ä¸» äºº
ä¸ī ä½į
é©¬ æģ©çľģ
çĲĥ è¿ĲåĬ¨åĳĺ
éĻ¢ æł¡
è¡¥ åĬ©
as s
èµ¤ çº¬
ä¸Ģ åħ±
ç¬¬ 11
å¥¹ ä¸İ
å¸¦ æĿ¥çļĦ
ç½ĳ æ°ĳ
æľĢåĲİ ä¸Ģæ¬¡
å±ı ä¸ľ
0 9
ä¸Ģ èĩ³
æľī çº¿
éĺ Ĳ
ä¸Ģä¸ª æľĪ
å°± è¢«
é¾Ļ ç§ĳ
äº¦ ä¸º
çİ¯ ç»ķ
æĵħ éķ¿
æĸ¯ åľ¨
æĸ¯ åĴĮ
å¹¶ åĲĳ
è¿Ļ ä½į
éģĵ æŃī
åĨľ åİĨ
ä¸ĸçºª çļĦ
ç´¢ æģ©
åĲ¬ åĪ°
é¢ģå¥ĸ åħ¸ç¤¼
ç»´åŁº çĻ¾ç§ĳ
A V
u de
ä»» ä¸Ńåħ±
è¿Ľ å±ķ
è½¬ åŀĭ
å¯Ĩ èĭıéĩĮ
çĻ½ äºº
è¯º è´Ŀå°Ķ
éĺ¿å°Ķ å·´
ä¹ĭåīį çļĦ
æĻº åĪ©
ä¿ĺ èĻı
æ¯Ĺ éĤ»
æ¹ Ľ
è®® éķ¿
æ· Ģ
æĶ» åħ¥
å¤ı å¤©
ent er
éĽ¶ åĶ®
èĳ£äºĭ ä¼ļ
æīĢè°ĵ çļĦ
éĽį æŃ£
0 6
Ġ æ²¿éĿ©
å¤§ å¸Ŀ
ä¸Ĭ å°Ĩ
éĩĮ å¥¥
æĸ° åı°å¸ģ
å·ŀ çļĦä¸Ģä¸ªå¸Ĥéķĩ
åİ¿ æ²»
å¸¸ ä½ı
è§Ĩ æĺŁçŃīä¸º
æĻ® æŀĹ
or ld
åĲĦ åľ°çļĦ
çģ« çĤ®
è´Ł éĿ¢
åĢĻ è½¦
è¿½æº¯ åĪ°
æĺ¯ æľī
çī ¢
åħ¶ åŃĲ
äºļ ç§ĳ
10 5
æĢ» ä¹¦è®°
12 7
æĽ´ æĶ¹
æĽ´ å¤§çļĦ
ä¿¡ çĶ¨
ç¦ı çī¹
æĭħ å½ĵ
ä¹Į é²ģ
ä¹ĺ è½¦
G B
åĴĮ 1
èī °
é¥ ²
æł¹æį® 2020å¹´ç¾İåĽ½äººåı£æĻ®æŁ¥çļĦæķ°æį®
æī§ æ³ķ
äºİ200 4å¹´
ç«ĭæ³ķ å§Ķåĳĺ
é«ĺéĽĦ å¸Ĥ
çĭ® åŃĲ
æ¨¡çī¹ åĦ¿
çļĦ è¡¨çİ°
çļĦ åľŁåľ°
åĮ ¿
ä¸Ń æĹ¬
åĩ °
åħ¶ ä¸ŃçļĦ
ä¸ĭ åįĬ
åĲĮ å¿Ĺ
æĸ° åŁİ
åħ± è¯Ĩ
æľĢåĲİ çļĦ
æĻĭ åįĩ
èĴ¸ æ±½
% ;
C H
w it
çļĦ æłĩåĩĨ
å¾· åĪ©
æĻ® åıĬ
15 3
èİ± æĺĤ
30 åĪĨ
åĭĩ å£«
191 4å¹´
èµĶ åģ¿
2 ä¾ĭ
çļĦ åĨĽäºĭ
äºİ 2025å¹´
æľī äºĨ
æİ ·
è½¦ éģĵ
éħ ¬
éª ¸
å±Ģ éĥ¨
åı°æ¹¾ çľģ
åľ£ è¯ŀ
å®« å»·
ç§ģ ç«ĭ
è¯¢ éĹ®
æĪĺåĪĹ èĪ°
l and
çī¹ éĽ·
éĩį ä¿®
çīĪ æĿĥ
æĪĺäºī çļĦ
èĪªç©º æ¯įèĪ°
èªī ä¸º
æĹ¥æ²» æĹ¶æľŁ
çļĦ åħ¶ä»ĸ
äºİ 189
è¾ £
éª ¤
é¢Ħ å®ļ
B BC
æĺ¯ æľĢ
åĪĨ ç»Ħ
æµ· åħ³
å½± ä¸ļ
çĽ´ è¾ĸ
æĶ¯ çĲĥéĺŁ
çĵ £
çĭ¬ çī¹
å·¦ æ´¾
å°ģ éĿ¢
åıĳè¡Į äºĨ
è¯¸ å¤ļ
æĭĽ åĭŁ
åħ¬å¸ĥ ä¸º
0 8
å¤§ å°ĨåĨĽ
æĸ¯ å¤§
çľ ī
æ± ķ
éľ ĸ
åĨ³ äºİ
ä¼Ĺ äºº
ow n
åĶ±çīĩ åħ¬åı¸
å¹´è½» çļĦ
å±Ĭåħ¨åĽ½ äººæ°ĳä»£è¡¨å¤§ä¼ļ
Ð °
çļĦ æľĢé«ĺ
è¿ Ħ
çº Ĥ
åī ¿
ä½ľ çī©
çļĦä¸Ģ é¡¹
å¤į æ´»
åħ¸ åŀĭçļĦ
çĽĳ åĪ¶
a f
ä¸Ģ æĸ¹
äºº çĶŁ
äºº æ°Ķ
å¤§ åŁĶ
è¢« éĢīä¸º
æ¡Ī ä¾ĭ
ç³»åĪĹ çļĦ
æĽ¿ æį¢
æģ¶ åĮĸ
è¿ĳå¹´ æĿ¥
d u
çļĦ åĮºåŁŁ
çľģ éķ¿
æŁ ¬
å¨ ¥
äº¤ çĶ±
æĻ® äº¬
èĪ¹ åĳĺ
åĬłåĭĴ æ¯Ķ
çī Ł
ä¸Ĭ ä»»
ä¾ Ħ
åī§ ä¸Ń
çĶ² æĿ¿
ä¹ł ä¿Ĺ
çĳŀ æĭī
å¹¿æĴŃ åħ¬åı¸
i er
Ġ å¼ł
æľī å¤ļ
å¯ ¡
ç½Ĺ å§Ĩ
åĪĿ çº§
æļ´ åĬ¨
è½¯ æĿ¡
I G
Ġ ä¹Įåħĭåħ°
çļĦ åŃĺåľ¨
ä¸į è¯¦
åĽł åŃĲ
æĭī å¤ļ
ä½Ĩ åį´
ä¸¤ åº§
å±ķ åĩº
æ²Ļ çī¹
å¼Ł åŃĲ
åĸľ çĪ±
è£ģ å®ļ
æģĲ æĥ§
çģ¾ éļ¾
ç¨ĭåº¦ ä¸Ĭ
æµģåŁŁ éĿ¢ç§¯
åı¤èĢģ çļĦ
0 2
l o
ä½ľ çļĦ
å¾· å·Ŀ
ä¸ĸ çļĦ
é¢Ħ éĺ²
æľĢè¿ĳ çļĦ
èĪĨ è®º
æĭ¯ æķĳ
åĽ½ ä¼ļè®®åĳĺ
æĹ¥ è®°
æ³ķ å°Ķ
é© °
æ²» å®ī
åĽ¢ çļĦ
æŃ¢ äºİ
è¾© è®º
èµ ¦
åħĭ åĬ³
å®ī ç½®
éĺ¿ å¸ĥ
åį¡ çī¹
åıį å°Ħ
åĲĦ é¡¹
äºī è®º
çĽĳ ç®¡
é¹ ī
çļĦ ç»Ŀå¯¹
åĽ½ åħ±
ç³» çļĦ
å·² åľ¨
çĭ ©
è½¬ æĴŃ
è¡Ģ ç»Ł
æİ¨åĩº äºĨ
çļĦçī¹ å¾ģ
æĹ¶ å¸¸
åĬł é¾Ļ
æµ· æ°´
æľŁ æľĽ
åĪĹ å®ģ
æ¸ħ çľŁ
å·® è·Ŀ
è®¯ åı·
çĶµåŃĲ æ¸¸æĪı
é«ĺ å³°
çŁ³ åĻ¨
æ¯ı ä¸Ģ
èĮ¨ åħĭ
åįĹ å®ĭ
å¹³ è¡Į
åīį æĸ¹
æŃ£ è§Ħ
éħ °
ç§ĭ åŃ£
èµ¤ ç»ı
ç¼ĵ æħ¢
åĵº ä¹³
ä¹ĭ å¥³
æ± ģ
å¤ļ å¤«
éĥ½ æ²¡æľī
åĮħæĭ¬ äºĨ
å¾Ī éļ¾
æ·± åĪ»
å¹² é¢Ħ
é©» æīİ
è¿ģ å¾Ģ
æİ¥åıĹ äºĨ
æ½ľ æ°´
çļĦåīį èº«
0 7
3 000
Ġ å®ĥ
Ġ åĪĨç±»
çļĦ åıĮ
èĥ °
äºļ å½ĵ
æ· ³
æĹı èĩªæ²»
èĭı è¾¾
çĭ¬ èĩª
å£° ä¼ĺ
æŀģ å¤§
è¡Ĺ å¤´
è¿ľ ä¸ľ
æĸ¯éĩĮ åħ°åį¡
çļĦ éĩĳ
çļĦ è¦ģæ±Ĥ
æľī åĪ©
æĸ¯ åĽ¾
éĩĮ ç¨ĭ
åĮĹ çº¦
è½¦ æīĭ
è½¦ åŀĭ
æł¡ åıĭ
æ» ´
æ´Ľ éĺ³
13 6
é©» åľ°
åıĤèµĽ èµĦæł¼
åı°åįĹ å¸Ĥ
Ġ åĽ½éĻħ
åĴĮ ä¸Ń
å®ī åİ¿
æ²» çĲĨ
å¹¿ ä¹ī
äººæ°ĳ æ³ķéĻ¢
å¨ģ å°Ķæĸ¯
å¤į åĲĪ
çİĩ åħĪ
åīĳ æ¡¥
èµ·æºĲ äºİ
èħĵ çī¹
åĲİ åį«
æĸ¹ å½¢
å®ļ å¾ĭ
æĶ¹ çĶ±
æĶ¯ éĺŁ
åĲĦ å¤§
ä¸ĵ æ¡Ī
åĻ¨ å®ĺ
åŃĻ ä¸Ńå±±
æ£Ģ éªĮ
ä»ª åĻ¨
N et
r es
Ġ Z
åĲ Ĺ
æĪĲ åĮĸ
æ³ķ å®ļ
åħĭ åĪ©
åħ± äº«
å¢ ħ
æīĵ è¿Ľ
æĤ Ł
å¹² æī°
æĪĳä»¬ çļĦ
æľĢåĪĿ çļĦ
å¤ĦçĲĨ åĻ¨
èĳ¬ äºİ
ç½¢ å·¥
è½¬ç§» åĪ°
ä¸º æĹ¥æľ¬
åįĹ æĺĮ
å·´ é©¬
å§Ķ åĨħ
å¤§åŃ¦ æķĻæİĪ
æĶ¾ ç½®
æ¤ Ĵ
é¢Ħ æľŁ
è¿ľ å¾ģ
å¤º åĨł
å¹¿æĴŃ çĶµåı°
ä¿Ħäº¥ä¿Ħ å·ŀ
èħĵçī¹ çĥĪ
ä¸Ĭ çº¿
åħĭ é²ģ
çĶµ ä¿¡
èµĽ èīĩ
æķ° åĢ¼
åİ¿ æĶ¿åºľ
åĳ½ è¿Ĳ
ç®Ģ åĮĸ
ä½Ľç½ĹéĩĮè¾¾ å·ŀ
åĳĺå¤ĸ éĥİ
å§ĶåĨħ çĳŀæĭī
ä½Ĩ æĺ¯åľ¨
ä½¿ èĢħ
éĤ ¸
åĪĻ è¢«
é»Ħ æ²³
èĬ± èİ²
å¯Į å£«
ä»ĭ çŁ³
åĭĥ èī®
å¤§ åİħ
æŀ «
ä½ľ è¯į
æīĢ å¾Ĺ
è¯¥ ç»Ħç»ĩ
åį³ æĹ¶
æ¸ħ æ°´
çĩ ¥
æĭĺ æįķ
å¤ļä¼¦ å¤ļ
. "
ä¸į èī¯
ä¸ĭ æĹ¬
ä¸ľ è·¯
æĽ¾ äºİ
å§Ķ å¸¸å§Ķ
åİĤ åķĨ
èįī æ¡Ī
äºİ200 0å¹´
æµĵ åº¦
æĢ» è®¡
çº¦ 2
å°¼ æĹ¥
ç¥ŀ çĪ¶
ç»ĩ çĶ°
ç¹ģ å¿Ļ
ä½įäºİè¯¥åĽ½ è¥¿éĥ¨
é¹¦ é¹ī
ä¹ Ĵ
ç½ Ĳ
è½¦ çļĦ
äºĮ å±Ĥ
éħ ±
éħ µ
åĬŁ çİĩ
çĶµå½± çļĦ
ç²¾ èĭ±
åıĳå¸ĥ çļĦ
ä¾µ çķ¥
å§Ĳ å¦¹
ç®Ģåįķ çļĦ
èħĲ è´¥
åĽļ çĬ¯
ĠS ch
Ġ äºīè®®
å¤§ æŃ£
æĸ° ä¸Ģ
åĽŀ å®¶
åıĸ åĨ³äºİ
è½¬ èĢĮ
åĲī ä»ĸ
å¾Ī å¤§çļĦ
æĹ¶éĹ´ ä¸º
ç§» æ¤į
æľ« å¹´
èįī åİŁ
å« ¡
åı¸ä»¤ åĳĺ
çİ°æĹ¶ çĶ±
çĽĨ åľ°
æĸ°åĮĹ å¸Ĥ
c ol
Ã ¡
ç» ħ
19 19å¹´
åįĹ ç«¯
å½ĵ æĻļ
éĩį çļĦ
å°± ä¸ļ
æĮĩ æłĩ
å¥ĸ åĬ±
ç»§ ä½į
åĪĬ çĻ»
çĶŁçī© åŃ¦
çıĬ çĳļ
æĦ¤ æĢĴ
ä¼ļ éĿ¢
åıĳ çļĦ
åĬ¨ è¯į
ç«ĭ æ³ķéĻ¢
èĲ ¤
åľº åĲĪ
æķħ æĦı
è¯Ĺ æŃĮ
äºİ200 3å¹´
åĩ¤ åĩ°
åĢº åĬ¡
éĻįéĽ¨ éĩı
ä¸Ĭ ä¸Ģ
è½¦ èº«
åĸ Ĭ
æĶ¿æ²» å±Ģ
é¥ ±
çĽĳ ç¦ģ
è¡Ģ ç®¡
åİŁåĽł æĺ¯
çļĦæ¯ĶèµĽ ä¸Ń
a de
Ġ åĪĨå¸ĥ
ä»ĸ æĪĲä¸º
åħ¬ å¹³
åĮĹ éŃı
ç»Ī ç»ĵ
åĶĲ ä»£
åĪ¶éĢł åķĨ
èĴĭ ä»ĭçŁ³
è´« åĽ°
åĲı éĥ¨
0 3
C R
æĶ¿ å§Ķ
åĬł çĥŃ
åİŁ æĿ¥çļĦ
ä½įäºİ éĵ¶
æ¯ı å°ıæĹ¶
çŃ¾ è¯ģ
SA O
Ġ Com
å¯¹ ä»ĸ
æľĢ æľī
åı£ åı·
æķ° ä¸º
æĪĸ åħ¶ä»ĸ
æµģ äº¡
æĮĩæĮ¥ éĥ¨
åį¸ ä»»
1 åĲį
Ġ éŁ³ä¹Ĳ
äºº ä½ĵ
æľº ç»Ħ
ar e
æĬ¤ çħ§
åįĬ å¾Ħ
åŃ¦æł¡ çļĦ
is s
æĳ© æīĺ
æįŁ å®³
æµª æ¼«
åŃ¦å£« åŃ¦ä½į
å¤§å¥ĸ èµĽ
ä¸Ģ åįĬ
åŃ¦ åĳĺ
å¯¹ æ¯Ķ
æµ· çĽĹ
ä¹Ł åı¯èĥ½
é¦ĸ æĺł
åĭ ī
å¼¹ åĬ¾
æ¸Ĳ æ¸Ĳ
åĪĳ éĥ¨
æ°ĳæĹı ä¸»ä¹ī
A D
o la
æ³ Į
åħĭ æĭīåħĭ
çº§ è¡ĮæĶ¿åįķä½į
åĩł åĨħäºļ
æľīåħ³ çļĦ
åĤ¬ åĮĸ
ä¼ļ å¯¼èĩ´
å¤ļ æĸ¯
ä»£ è°¢
10 ä¸ª
è¶ħ äºº
il li
çīĽ æ´¥
192 6å¹´
ç¹ģ èį£
å¼ĺ æ²»
åľ¨ ä¸ŃåĽ½å¤§éĻĨ
å¡Ķ åŁº
å·¥ä½ľ èĢħ
çħ ®
åİ¿çļĦ éĿŀå»ºåĪ¶åľ°åĮº
sp an
è¤ Ĵ
é¢Ĩäºĭ é¦Ĩ
çļĦ åĨħ
åľ¨ å½ĵåľ°
ç¬ ĥ
æ°ĳ åħļ
ä¸ĭ åĪĹ
å®ī æīĵ
å¸¦ èĳĹ
å»ºçŃĳ éĿ¢ç§¯
æ¦ľ åįķ
ç¯ĩ å°ıè¯´
192 5å¹´
ç»ĺ åĪ¶
åĮĸåŃ¦ å¼ı
å¤±åİ» äºĨ
0 4
Î ²
æĺ¯ åį°åº¦
éĹ µ
ä¹Ł èĥ½
åŁİ éĻħ
åįİ ä¸ľ
èī² æĥħ
æł· æľ¬
åłĤ åĮº
ä¸ĸçºª åĪĿ
åħ¨åĽ½ éĩįçĤ¹æĸĩçī©ä¿ĿæĬ¤åįķä½į
å¯¼èĩ´ äºĨ
ä»ĺ è´¹
çļĦçī¹ æľī
æĲŃ æ¡£
é¡ºæĹ¶éĴĪ ä¸İ
e ar
åĩ» éĢĢ
æĶ¿æ²» éĥ¨
éª¨ éª
ç»§æī¿ äºº
Ġ al
å² ĳ
åĪ¶ å¤ĩ
çł į
å¥¥ åı¤
æĶ¯ æĴĳ
æİ¨ çĲĨ
æĵ ¢
äºİ200 2å¹´
åŃ£åĲİ èµĽ
åĴ Ĵ
éģĵ å¤«
æĽ¾ ä¸İ
åĲĦ çº§
äº¦ åı¯
å®« æ®¿
190 9å¹´
è¶ħçº§ èģĶèµĽ
æ³ķ è§Ħ
èĢĮ åĲİ
ä»£ æķ°
çĲĥ æ¯ĶèµĽ
ä½Ĩ æ²¡æľī
æŃ£ ç»Ł
èį «
åºĶ å½ĵ
çº³ çľģ
åı¯ä»¥ çĶ¨
çĳ ¶
åĶĲ çº³
æŁĲ ä¸ª
æļĹ ç¤º
åĭĥèī® ç¬¬
u x
åĽ½ å¤ĸ
ç§ĳ çłĶ
éĺ¿ åĪĹ
çĽ´ å±ŀ
éĺ² çº¿
æ´ĭ åŁº
ä¸ģ çĽ®
æĺ¯ä¸Ģ æ¬¾
å¾Ĵ åĪĳ
ç¨³ å®ļçļĦ
æĪĺå½¹ ä¸Ń
Ġç®Ģ åİĨ
B 1900
e e
Ġ Sp
çī¹ å®ļçļĦ
ä¸ľ æĹ¥æľ¬
é«ĺ éĵģ
âĢĿ ;
è¯¥ ç«Ļ
å¥¹ æĺ¯
æĹı çļĦ
åĽ½å®¶ è¶³çĲĥéĺŁ
å¼ķ å¯¼
17 2
éĵ¶ çº¬
192 2å¹´
äºİ18 7
æĸ°å¢ŀ æľ¬åľŁ
Ġè½¦ç«Ļ æŀĦéĢł
5 ä¸ĩ
åħ¬ ç«ĭ
çŃ ĭ
çĶ± åħ¶
çĶµ åİĭ
è·¯ åĨĽ
åĪĹ æĸ¯
åı¤ å±ĭ
ç¬¬ä¸Ģ æī¹
æĶ¾ å°Ħ
åĩı å¼±
ä¼ĬåĪ© è¯ºä¼Ĭ
éª¨éª ¼
T E
Ġ 15
Ġ th
Ġ ç»ıåİĨ
çļĦ æ¶Īæģ¯
ä¸İ å¤§
10 8
éŃ ħ
éģĹ ä½ĵ
éĢģ å¾Ģ
æĿ¥æºĲ äºİ
åĳ¨æģ© æĿ¥
0 åĿĲæłĩä¸º
L in
y st
ä¹ ŀ
å¥ ķ
åħ¶ B1900
è¿Ľ ç¨ĭ
æĭī å§Ĩ
å¢ ©
åŀ ĥ
å¥¥ å¾·
é² ·
æĹı èĩªæ²»åĮº
2019 åĨłçĬ¶çĹħæ¯Ĵ
ä½įäºİéĵ¶ ç»ı
0åĿĲæłĩä¸º èµ¤ç»ı
, "
ä¿ ŀ
çĪ ¸
å¥¥ å¤ļ
ï¼ İ
å°ĳæķ° æ°ĳæĹı
å¤įæĿĤ çļĦ
bo ok
èĤĮ èĤī
4 ç±³
Ġ 20
è¿ĩ åĲİ
ä¿¡ å¥ī
å¯Ĩ è¥¿
ãĥ ³
æ²ī ç§¯
ation al
åįĹæŀģ æĿ¡çº¦
æĩ ¿
éĴ» çŁ³
çļĦ ä½¿çĶ¨
è¯¥ å¹´
çŁ ¢
ç»´ æĭī
é¢Ĩ éĺŁ
éħ¸ çĽĲ
åĲ¦ åĨ³
éĢĥ äº¡
å¸ĥæĭī æł¼
éĢ¢ æĺŁæľŁ
å½ķéŁ³ å®¤
Ġ å·´
ä¸Ĭ æł¡
è¯´ æĺ¯
åį³ æĺ¯
éĤ£ ä¸ª
14 6
æ³½ è¥¿
çİ°ä»£ åĮĸ
ä¸įä¹ħ åĲİ
æĺİå°¼ èĭıè¾¾
I L
Ġ 1999å¹´
åľ¨ å¾·åĽ½
æĻ ·
åįİ åįĹ
æĽ´ é«ĺ
11 æľĪ1æĹ¥
ç»Ń éĽĨ
èī¾ ä¼¦
åĩ»è´¥ äºĨ
è´· æ¬¾
I M
Q u
S c
m e
å½ ¬
åħ¬ ç½²
åı¯ çĶ¨
é«ĺ åľ°
æīĢ è¾ĸ
ä¸ĸ ä»£
æľ¨ åĦ¿
è´¢ å¯Į
ä¸ºä¸» é¢ĺ
æĢ»éĥ¨ ä½įäºİ
191 1å¹´
å¦Ī ç¥ĸ
ç« ĸ
æľª ç»ı
æľª æĿ¥çļĦ
14 8
èĤ¡ æĿĥ
ãģ ®
çĶĺèĤĥ çľģ
i i
Ġ ä¸Ńåįİäººæ°ĳåħ±åĴĮåĽ½
åľ ¾
å½ Ĺ
åĮĹ å®ĭ
ãĢį ()
æ¯Ķ 2
æĶ¹ ä»»
æĶ¿åºľ åľ¨
or n
èİ± åĿŀ
çĥĪ å£«
ãĢīãĢģ ãĢĪ
åŀĥ åľ¾
ä¸ľ é£İ
èĪ° èīĩ
åĨ² ç»³
ç£ ħ
åºĻ å®ĩ
è®¾ç«ĭ çļĦ
é¥Ń åºĹ
c odice
Ġ æĸĩåĮĸ
åįĹ ä¸ĭ
å¾· åħ°
å¼º è¿«
æŀģ éĻĲ
èľ ¥
ç©¿ èĳĹ
éĩįåºĨ å¸Ĥ
æĸ¯æ´Ľ ä¼Ĳåħĭ
å®° çĽ¸
å¡ŀæĭľ çĸĨ
1 åı·çº¿
æĺ¯ å¤§
åĲİ æīį
åħ¶ çĪ¶
å¸Ĥ åĨħ
å¸ĥ åĪĹ
é©¬ è¾¾
åİ¿ çº§
ç»ĵ å±Ģ
è¿ĺ è¦ģ
æ´Ľ ä¼Ĭ
ä¾Ŀ æĹ§
ä¸¾è¡Į äºĨ
éħĴ ç²¾
æĴŃåĩº çļĦ
192 1å¹´
å§Ĳ å§Ĳ
ä¹¡éķĩ çº§è¡ĮæĶ¿åįķä½į
æĹ¶ ä¼ļ
ä¹ĭ æĦı
ç¬¬ 9
åħ³ ä¸ľ
é¢Ĩ è¡Ķ
å¤ª å®Ĺ
æĿĥ çĽĬ
æ³¢ éŁ³
æ³ī å·ŀ
åı°ä¸Ń å¸Ĥ
å¤©çĦ¶ æ°Ķ
çļĦ ä½ľçĶ¨
ä¸Ģ çĶŁ
åĴĮ æĸ°
åı¯ åĪĨä¸º
çī© æµ¦
é©¬ å¾·éĩĮ
åħļ ç±į
ä¸ĵ åĮº
çļĦä¸Ģ ä½į
è´¹ åŁİ
æ¶Ī éĻ¤
æĺ¥ åŃ£
æ·· åĩĿ
æ´ª æŃ¦
æĸ¹åĲĳ çļĦ
å¼ķèµ· äºĨ
B M
ç¬¬äºĮ è½®
èİ« å°Ķ
ä¸»æķĻ åº§åłĤ
æķı æĦŁ
1 ç±³
2 åĲį
Ġ è¿Ļä¸ª
Ġ çĽ¸åħ³
ç» °
å¤§ éĥ¨ä»½
æĹ¶ è¢«
èĢĮ å¾ĹåĲį
10 9
12 ä¸ª
åĽ´ æĶ»
æĹ¶éĹ´ åĨħ
çİĽä¸½ äºļ
æľ Ķ
æ² ¦
ä¸į åıĬ
å°ı å¹³
æł¼ æĸ¯
å¤§åŃ¦ çĶŁ
æ¯ı ä¸Ģä¸ª
æķħ éļľ
ç»ĦæĪĲ éĥ¨åĪĨ
èĮ¨ åŁº
çŀ Ħ
å±±èĦī çļĦä¸Ģéĥ¨åĪĨ
å¿ĥçĲĨ åŃ¦
8 æľĪ1æĹ¥
9 æľĪ1æĹ¥
o x
Ġ ç¤¾ä¼ļ
åľ¨ è¿Ļä¸ª
åº µ
å¤§ è´¥
åĴĮ ä¸Ģä¸ª
æ° °
ä¸» ç¼ĸ
åĪĨ æķ£
éĿ¢ åīį
èµ· äºĨ
15 00
å°Ħ åħ¥
âĢĿ, âĢľ
è½¨éģĵ äº¤éĢļ
çº³ç²¹ å¾·åĽ½
æĸ°åĨłèĤºçĤİ ç¡®è¯ĬçĹħä¾ĭ
r on
u k
Ġ çĶµå½±
ç» £
çº ±
å¤§ äºİ
æ¼ ³
æį® çĤ¹
æŃ¥ è¡Į
æ¿ ĳ
åĽ½æ°ĳ éĿ©åĳ½åĨĽ
æ© ĺ
è¿ŀç»Ń åī§
åŁĶ å¯¨
èĦĤ é²¤
ä¸Ģ è§Ĵ
åŃ ¢
çĶµ å®¹
çĶµ æ¢¯
åıª åľ¨
åĪĽ æĦı
16 7
St e
æ²ī æ²¡
ä¼łæķĻ å£«
çºº ç»ĩ
Ġ Sh
äºº è®¤ä¸º
å¯ Ŀ
éĺ İ
åı¯ çĶ±
åĪ© çī©æµ¦
çĥ ¦
17 3
ä½ľåĵģ çļĦ
éĽħ åĲĦ
äººç±» çļĦ
åĵ² åŃ¦å®¶
æŁ¬ åŁĶå¯¨
åĪĨ å¼Ģ
éĹ´ æİ¥
éĩĳ æĽ²
åł ķ
é² ¨
åĪĽ ä¸ĭ
è¿ŀ åĲĮ
ä¸ĸçķĮ çļĦ
è¶³ ä»¥
åŃ¦éĻ¢ çļĦ
ç´¢ å°¼
æļ´ éľ²
çİ¯å½¢ å±±
èįĥ æ¹¾
åįĹæŀģæĿ¡çº¦ ä½ĵç³»
çļĦ çİ¯å¢ĥ
ä¸į å¦Ĥ
ä½į åĪĹ
æľĢ å¥½çļĦ
ä¹Ł æĪĲä¸º
12 8
ç©º è°ĥ
æĥħ å½¢
en n
éĩİ æĪĺ
åĲ¯ åıĳ
äºİ199 8å¹´
æłĸæģ¯ åľ°
ç¿°æŀĹ éĻ¢
l l
åİ ķ
èĬ ¯
åħ¨ åı°
åĮħæĭ¬ ä»¥ä¸ĭ
èĬ± è´¹
at t
åĲİæĿ¥ è¢«
è¿ģ å¾Ļ
èī¯ å¥½çļĦ
ç´§ å¯Ĩ
4 åĲį
i al
Ġ å®ī
æµ ı
ä¸¤ å¤§
èµ· é£ŀ
æĺİ çļĦ
åģľ çķĻ
åĩºçĶŁ åľ¨
AT P
æ··åĩĿ åľŁ
å® ¦
ä¸Ń åľº
å¹¶ å¯¹
å¹¶ ç§°
äºĭ ä¸Ń
è·¯ å¾·
èĬ ½
æķ° çĽ®
çļĦä¸Ģ å®¶
åľ£ æ®¿
åįł æĢ»äººåı£
èĮĥ çķ´
éŁ³ä¹Ĳ ä¼ļ
æ¿Ģ è¿Ľ
192 3å¹´
191 3å¹´
åĵĪå°Ķæ»¨ å¸Ĥ
D C
çļĦ è¡ĮåĬ¨
ä¸Ģ åıª
ä¸į åľ¨
ä¹ĭ è·¯
å¾· çĶ²
æľĢ å°ı
äºĭ å®ľ
è¾¾ å°¼
ç»´ èİ±
åĽŀ å¤į
ç©º éĻį
çº³ è¥¿
åº§ ä½į
èĩªçĶ± åħļ
äºİ200 1å¹´
æļĹ æĿĢ
Ġ De
æº ´
ä¼ĺ æĥł
A G
Ġ ç¬¬ä¸ī
ä¸º ä»ĸ
é¢ ħ
æĸĩ çļĦ
ç¤º èĮĥ
èĻ ŀ
éªĮ è¯ģ
åĮĹäº¬ å¤§åŃ¦
èĤ¡ ç¥¨
æ±Ĺ åĽ½
D R
Ð ¾
Ġ èģĮä¸ļçĶŁæ¶¯
å® µ
ä¸į éľĢè¦ģ
äºĮ æ°§åĮĸ
å¤© ç©º
è¿Ĳ éĢģ
æ¼Ķ ä¹ł
åĳĬ çŁ¥
æ³½ å°Ķ
è¯¸ å¦Ĥ
ä¸§ å¤±
2019åĨłçĬ¶çĹħæ¯Ĵ çĹħ
o de
Ġ Th
ä½ ¥
åŃ ľ
åī Į
ä¸İ ç¾İåĽ½
äºĮ çĶ²
å§ĭ äºİ
æŃ¦ æľ¯
çĵ¦ æĭī
çĪ± æ²Ļ
èĢģ æĿ¿
ä½ł ä»¬
é¢Ĺ å°ıè¡ĮæĺŁ
åįĹæŀģæĿ¡çº¦ä½ĵç³» ç®¡çĲĨ
5 Ġ
S O
Ġ å¤ĸéĥ¨
ä¸İ ä¸ŃåĽ½
âĢľ âĢĿ
ç«ĭ åĪ»
ä½Ĩ è¿Ļ
åĽĽ åįģ
åıį åĩ»
ç¬¬ä¸Ģ éĥ¨
ç¦ı åĨĪ
åįļ å°Ķ
çľŁ çļĦ
æ°¸ ä¹Ĳ
195 0å¹´ä»£
åħ¶ä¸Ń æľī
ç»į åħ´
æģĭ çĪ±
åľ¨æŃ¤ æľŁéĹ´
çĦ¦ çĤ¹
æłª å¼ı
çĪ±æ²Ļ å°¼äºļ
åĲį åı¤å±ĭ
ç¾ Į
æĽ´ åĲį
åĩ» èĲ½
çīĩ ä¸Ń
le y
å»ºç«ĭ çļĦ
å¹¸ ç¦ı
æłªå¼ı ä¼ļç¤¾
æµ ĳ
çĶ± ç¾İåĽ½
æĸ° çĶŁ
è° ľ
åħ¨ æķ°
åı² æĸĻ
å°± å·²ç»ı
åĻ ª
èĴĻ å¾·
æ®ĭçĸ¾ äºº
æĺ¯ å½ĵåľ°
åī ĸ
éļ Ļ
èĤ Ĩ
ç¼ ł
æĢ» ç»ĵ
å¿ĥ çļĦ
éĶ ¯
åıĪ æľī
æĸ½ è¡Į
ç³»ç»Ł ä¸Ń
éĢĤ å½ĵ
ä¸ĺ éĻµ
éĽĨä¸Ń åľ¨
æħķ å®¹
åĮºè®®ä¼ļ éĢīä¸¾
U R
éĩį ä¼¤
åŁİ éĹ¨
æĻ® å°Ķ
ç»Ļ ä»ĸ
è¾ĥ å°ı
éĻį çº§
äºĭä»¶ çļĦ
ä»ĭ åħ¥
èĨ ¨
åħĭéĩĮ æĸ¯èĴĤ
ä¼´ ä¾£
å¸ĸ æľ¨åĦ¿
Ġ ç½Ĺ
æ² §
åĲĮ æ²»
é©¬ åľº
å·´ éĩĮ
ç¡ Ŀ
è¿ĺ ä¼ļ
åĽ½å®¶ çº§
åħŃ ä¸ĸ
å®¢ ä¸²
æİĴ æĶ¾
å¹² çĩ¥
ä¸¹ å°¼å°Ķ
éĺµ çº¿
ç½ª åĲį
å¨ģå°Ķ å£«
åľ¨ åįĹ
åĩ ¹
æµ· åºķ
åŁİ åĨħ
æīĭ æ³ķ
ä¿Ŀ èĤ²
æ· ¹
éĢļè¿ĩ äºĨ
ç£ģ åľº
èĲ¨åħĭ æ£®
ä¸īè§Ĵ å½¢
Ġ èĭ±åĽ½
Ġ æķĻèĤ²
åĽ½ åľŁ
ä¸Ĭ å±Ĥ
æĸ¹ éĴĪ
å¦ ĵ
åİŁ åĿĢ
å¤į ä»ĩ
æ¥ ł
åįĥ äºº
åĳĬ ç¤º
14 7
éĺµ åľ°
æĪ´ ç»´æĸ¯
æĦıè¯Ĩ å½¢æĢģ
1900 å¹´
c c
ç» Ĵ
åº Ĳ
ä¹ĭ ä¹±
åħ¨ å¹´
ç¨ ļ
çº¦ 3
or y
åĨĻ çļĦ
å¯¿ åĳ½
äºİ18 6
ä¸Ģ éĹ´
ä¸Ĭ ç©º
å·¥ éĥ¨
æĹł éĶ¡
éĴ ¥
åħĪ åıĳ
å®Į åĸĦ
çĽĳ è§Ĩ
çĴ ĭ
191 7å¹´
N C
ä¸Ģ æĹ¥
ä¸Ģ æīĢ
ä¸į å¤ļ
åħ¨ å¢ĥ
å¼º å¤§
16 9
èĨ Ģ
æĤł ä¹ħ
B O
Ġ è¿ĻäºĽ
çļĦ å¥³æĢ§
åĮĹ ç¾İæ´²
éĿ¢ 2
èµĽ åĨłåĨĽ
åħĥ é¦ĸ
è®© äºº
éĵ¶ æ²³
è¿½ åĩ»
çī©çĲĨ åŃ¦å®¶
åĵĪå°Ķ ç§ĳå¤«
Ġ æ°ĳåĽ½
åĽ½ ç±į
ä¸į åĪ©
è¥¿ æ¯Ķ
äºĮ åı·
å®ļ äºĨ
æĢ§ è¡Įä¸º
æĹł åħ³
æ· «
è§ģ è¯ģ
è´Ń åħ¥
6æľĪ 30æĹ¥
çıį çıł
çºµ éĺŁ
çİ°æĹ¶çĶ± åįĹæŀģæĿ¡çº¦ä½ĵç³»ç®¡çĲĨ
3 D
? âĢĿ
p s
Ġ k
Ġ 199
Ġ 1945å¹´
åĲİ ä»£
æĮ Ŀ
ç§ĳ è¿Ľå£«
çĽ¸ å¯¹äºİ
äºĶ ä¸ĸ
èģĮ äººåĳĺ
åĽ¾ æĽ¼
çŁ³ å¤´
éħį è§Ĵ
åŁĥ å¾·
åįĹéĥ¨ çļĦ
é¡¹çĽ® çļĦ
å§ĵ åĲį
èģĺ è¯·
J ohn
çļĦ è½¨éģĵ
ä¼ļ ä»¥
æĻ °
éĿ¢ åĮħ
å¦ Ĩ
æŃ» èĢħ
èĵ ī
åĢŁ æŃ¤
èı© èĲ¨
å¼ §
äºİ é¦Ļæ¸¯
åĮĹ æŀģ
è¿ĩ äºĨ
æŀĹ èĤ¯
åİĨ ç»ı
æĴŃ æĺł
å¥ĸ ç«ł
åıĳè¡¨ çļĦ
å®ĩ æĸĩ
èĦĬ æ¤İ
Ġ ä½Ĩ
Ġ æĽ¾
çļĦ è¿ĩç¨ĭ
ä¸Ģ åĳ¨
ä¸Ģ è¾Ĩ
æµ ´
æĪĺ æĹ¶
ç© Ĺ
åŀ «
17 4
ç½ª è¡Į
èĢ³ æĽ¼
åĬŀåħ¬ åİħ
é¢ĨåŁŁ çļĦ
æ¸ħçľŁ å¯º
6 æľĪ1æĹ¥
8 ç±³
E D
Ġ åı¤
ä¸į åı¯èĥ½
å¼Ģ è¾Ł
åĪĹ é¢ł
è¯´ çļĦ
æ¨ Ł
æŃ» åİ»
èĶ ½
ç¼© çŁŃ
çģ° èī²
Ġ æ°´
ä¹ ĵ
æµģ éĢļ
åıĪ è¢«
åį¢ æ£®åł¡
å®īå¾· çĥĪ
æº¶ æ¶²
è¥¿ å¾·
æĸ° åŀĭ
æ°´ éĿ¢
ç¤¾ åĽ¢
åį° åľ°
ro w
æĳ© æł¹
æłĳ æľ¨
å½¢å¼ı çļĦ
é«ĺçŃī æķĻèĤ²
æ©¡ èĥ¶
Ġ Ar
å¹´ åºķ
ä¸º ç¾İåĽ½
ä¸Ģ ç¾¤
åľ° åĬ¿
å¹¶ å¼Ģå§ĭ
å» ¿
æľ¬ åī§
ä¹Ł å°Ĩ
çľģ è´Łè´£ç®¡è¾ĸ
ç½Ĺ éĹ¨
ç§ĳ åĮ»çĶŁ
å°ĳ éĩı
å¤į åĪ¶
çĳ °
è´¨ çļĦ
è¡ĮæĶ¿ åĮºåŁŁ
å¤ªéĺ³ åħ¬
çĹĽ èĭ¦
æ¶Īè´¹ èĢħ
âĪ Ĵ
1 å®¶
B D
I F
ä¸» åĶ±
å¤© æ¡¥
è¿ĺ åİŁ
æİ¨ è¿Ł
å© ·
æľĢåĲİ ä¸Ģä¸ª
å¹¼ åĦ¿
éģµ å¾ª
ç»¼èīº èĬĤçĽ®
Ġ An
çļĦ å®ĺæĸ¹
ä¸İ æĹ¥æľ¬
çĶŁ åīį
ä½Ĩ ä¹Ł
é¦ĸ å¼ł
æĬ¥ å¤į
è¯Ĩ åŃĹ
il d
æ¯Ĵ åĵģ
å®½ åº¦
çģ¾ å®³
è£Ķ ç¾İåĽ½äºº
éļĲ èĹı
s k
y le
å¤§ å¤§
åĲį åĪĹ
å¹¶ å°Ĩåħ¶
è¥¿ è·¯
æľ¬ éĥ¨
è¯¥ ä¹¦
ç»Ħ çļĦ
å®ĺ èģĮ
è¾¹ å½¢
åĮĹéĥ¨ çļĦ
9 ä¸ª
çļĦ M
çļĦ éĩį
ä¸Ń æīĢ
ä¸İ ä»ĸ
åĮº è´Łè´£ç®¡è¾ĸ
ç¬¬ 13
åĪ© å®ī
é«ĺ ä¸½
èģĶ éĺŁ
è¿ĳ ä¼¼
æģ© æĸ¯
æ³½ å°Ķçľģ
æ²³éģĵ åħ¨éķ¿
E DT
Ġ 1998å¹´
ä¸Ń ä¸ľ
åĲİ ä¸įä¹ħ
æĹ¶ å°ļ
ä¸Ĭ åľº
åħ¬ åĽ½
äº¤ å¾Ģ
å°± èĥ½
æĪĲä¸º ä¸Ģä¸ª
åķ ¤
èĢģ æĮĿ
éĵģè·¯ åħ¬åı¸
è®½ åĪº
1 18
9 0å¹´ä»£
æĭ ¾
è¥¿ èĴĻ
åİĨ ä»£
åħµ éĥ¨
ç¬¬äºĮ åŃ£
åĲİæĿ¥ åľ¨
åł¡ åŀĴ
åºŁ å¼ĥ
æĺ¯ä¸ĭè¾ĸçļĦä¸Ģä¸ª ä¹¡éķĩçº§è¡ĮæĶ¿åįķä½į
è¿Ħ ä»Ĭ
å¤§ åĨĽ
åĪĨ æŃ§
æĪĺ èĪ°
196 0å¹´ä»£
çīĽ æĸ¯
ä¸ľéĥ¨ æĹ¶åĮº
Ġof Ġthe
C l
çļĦ çĥŃ
ä¸Ĭ èİ·å¾Ĺ
èī ³
æĸĩ éĿ©
æĶ¹ çĶ¨
æľª è¢«
çª Ł
æľĢç»Ī ä»¥
çĳŀ åħĭ
åİħ éķ¿
æ¨ª æ»¨
æĩ Ĥ
ä¸Ģ å¯¹
æľī ä¸ī
æľī æĦı
æľī ä¸ĢäºĽ
åĲĮ ä¸º
å¼Ģ è¡Į
å¾Ĺ åĩº
æ¡ ¨
åĪĻ è®¤ä¸º
ä¹¦ åºĹ
éĻĲ å®ļ
æĺł å°Ħ
åĪĽåĬŀ äºº
8 0å¹´ä»£
Ġ åĪĺ
Ġ åħ³äºİ
åħ¬ æĬķ
å¼Ģ æĻ®
èµĽ é©¬
æĶ¶ å¤į
éĻĨ æĪĺéĺŁ
æĤ Ķ
éĻį èĲ½
å·´å£« è·¯çº¿
çĨŁ æĤī
éĦĤ åĽ¾æĽ¼
æĭĺ çķĻ
Ġ æ¯ĶèµĽ
çļĦ æĹł
çļĦ ä¸¤ä¸ª
ç¬¬ 12
è¥¿ ä¼¯åĪ©äºļ
å½ĵ åīį
in a
åıĪ è¯ĳ
åĺ Ľ
æ¨ª è·¨
è¿Ī åħĭå°Ķ
å±Ĭåħ¨åĽ½ æĶ¿åįıå§Ķåĳĺ
ä¸Ń èİ·å¾Ĺ
å¯ ħ
çİ «
è¢« åĪ¤
åİŁ æľīçļĦ
åį¡ æĸ¯èĴĤ
å¤« çī¹
ç² ĺ
ç¼ĸ æĽ²
å»ºéĢł çļĦ
çĲĨäºĭ éķ¿
éģµ å®Ī
IST AT
m a
çļĦ å®ļä¹ī
äºº æīĢ
æĹ¶ ç©º
ä¼ļ å°Ĩ
ä¸ª åĪ«
å±± åĿ¡
ç¤¾ éķ¿
èĲ½ å®ŀ
çī¹åĪ« è¡ĮæĶ¿åĮº
åįģä¹Ŀ å¹´
çĿ¡ çľł
y pe
çļĦ æĦıæĢĿ
å¹ ¢
ä¸Ģ å±Ĥ
çĶŁ æĹ¥
çĶ¨ åľ°
æ°ĳ çĶ¨
çľģ ä¼ļ
æıĲ åĢ¡
åĽŀ æĿ¥
ä¸ĩ åĲį
æłĩ ç¤º
åĽ¾ å°Ķ
æ¸ħ åĨĽ
æĪ¿ åŃĲ
ä¼ģ åĪĴ
äºİ199 9å¹´
ä»ĵ åºĵ
æĺ¯ä¸Ģé¢Ĺ åĽ´ç»ķ
5 000
à ¤
ä¸º ä½ķ
ä¸Ĭ åįĬ
ä¸İ åīį
æĬ ¬
æĽ Ŀ
çŃ Ľ
å°Ĩ äºİ
å¸ĥ æĸ¯
åĢ ª
æĺŁ éĻħ
çľĭ èµ·æĿ¥
å®Ī å¤ĩ
Ġè¿Ļ é¢Ĺå°ıè¡ĮæĺŁ
ä¹Ĵ ä¹ĵ
Ġ ä¸ĢäºĽ
ä¸Ń æ¯Ĵ
ä¸İ ä¹ĭ
åıĬ æĹ¶
éĢļ æĬ¥
æł¼ èİ±
å±ŀ æĢ§
åĽ¾ çīĩ
è§Ĵ éĢĲ
çº¢ åįģåŃĹ
è¡Ĺ åĮº
æĻĭ åįĩä¸º
åĪ¶çīĩ äºº
5 è°ĥå¿«ä¸Ģå°ıæĹ¶
Ġ 1997å¹´
ä¸Ģ å¼ł
äºº äºĭ
æķ° å¹´
æķ° çłģ
ç§ĳ ç½Ĺ
åħĥ æľĹ
éª Ĥ
æļ ĳ
åį« åĨķ
çĻ» å½ķ
é©» å®Ī
æĹĭ å¾ĭ
è¡£ æľį
äºİ18 5
æĢ»çĿ£ åºľ
åį³åĮĹç¾İ ä¸ľéĥ¨æĹ¶åĮº
å¤ªéĺ³åħ¬ è½¬çļĦå°ıè¡ĮæĺŁ
æĺ¯ä¸Ģé¢ĹåĽ´ç»ķ å¤ªéĺ³åħ¬è½¬çļĦå°ıè¡ĮæĺŁ
7 ç±³
åĴĮ éĺ¿
è° ı
é©¬ åĪ©
åįļ è§Ī
æ³° å°Ķ
å·® åĪ«
æ¯ĶåĪ© çīĽæĸ¯
éĹ½ åįĹ
çļĦç»Ŀå¯¹ æĺŁçŃīä¸º
Ġ åĽłä¸º
ä¸º ä¸Ńå¿ĥ
ä¸Ń éĺŁ
æĿ ı
æķ ·
äºĨ ä¸¤
åıĬ åĪ©äºļ
è¦ģ å¡ŀ
ç«Ļ åľ¨
æĻ® éĩĮ
èº« é«ĺ
ä¸»è¦ģ çĶ±
æīĺ å°Ķ
èŃ¦ åĬ¡
æ°¸ åº·
çŁŃ æľŁ
æ¯ģ çģŃ
çļĦ ä¿¡
10 4
å®ŀ ä¸ļ
æ¶Ī èĢĹ
éĵģè·¯ å±Ģ
Ġè¿Ļé¢Ĺå°ıè¡ĮæĺŁ çļĦç»Ŀå¯¹æĺŁçŃīä¸º
Ġ å¦Ĥæŀľ
çļĦ ç¾İ
æĻ ¤
éĥ½ èĥ½
ar y
åĲī äºļ
ä»¥åıĬ åľ¨
é¡¶ çĤ¹
æ¸Ķ ä¸ļ
æĸ¯å¤§ æŀĹ
Ġ Ð
åľ¨ ä»Ĭ
åĽ½ ä¸Ń
åĴĮ çļĦ
ä¹ĭ åĨħ
æĸĩ å¸Ŀ
ä¸ī å±Ĥ
å¸¸ è¢«
åĪ« å¢ħ
æ¸ħ æĻ°
çľŁ çĽ¸
æ³¨ å°Ħ
æ¶² ä½ĵ
çĥ§ æ¯ģ
éĽķ åĪ»
ace book
è´µå·ŀ çľģ
N G
i el
Ġ 188
è¢« åĪĹåħ¥
äºļ ç§į
æµ· æ¹¾
æŃ¤ å¤©ä½ĵ
ä¸ŃåĽ½ ç§ĳåŃ¦éĻ¢
çİĭ çļĦ
çĥ ¹
å¤« åĭĴ
åıĺ å½¢
èĪ° åıª
åģļ äºĨ
é³ ĥ
å¥ī åĳ½
çļĦ ä¸Ńå¿ĥ
ç» İ
ä»¥ æĿ¥çļĦ
ä¸į ä¸Ģ
èĪ ħ
æİ¥ ä¸ĭæĿ¥çļĦ
å·´ çī¹
åıį å¤į
å¯Ĩ çłģ
en g
æĬ¤ åį«
ç¢ ĺ
åĲ« ä¹ī
ç¿» æĸ°
ä¸°å¯Į çļĦ
ä¸º ä¸Ń
æĺ¯ è¯¥
å¤§ éĹ¨
æľī åĬ©äºİ
åĲİ è£Ķ
ä¸į åĪĹé¢ł
åĬ¨ æľº
ä¸ľ æ±ī
è½¦ ä½ĵ
å¸ĥ ç½Ĺ
è¿Ĳ è½½
éĺ¿ å¯Ĩ
la r
ç½ĳ é¡µ
å¤± ä¸ļ
ä¸įåĲĮ äºİ
å»¶ è¿Ł
æĵ Ĵ
éĺ¶ å±Ĥ
å£ģ çĶ»
3 æľĪ1æĹ¥
çļĦ å®¶
çļĦ åįķ
çļĦ æķ°éĩı
è¡Į çľģ
åĪ© çī¹
åįİ ä¾¨
åıĤ æĶ¿
æ® ī
åķĨ æłĩ
è¾ĥ å¤ļ
éĺ³ åħī
ç§» äº¤
ag e
è®°èĢħ ä¼ļ
Ġ åĽł
Ġ çİ°
çļĦ åħī
åľ¨ éĺ¿
ä¸Ģ è¾¹
ä¸Ģ èīĺ
åĽ½ åħ¬
çĽ¸ æľº
åī§ ç»Ħ
èģĮ èĥ½
æĶ¾ æĺł
å© ī
ä¸§ çĶŁ
å¸Ĩ èĪ¹
D P
åĨ ¶
æĮ «
ä¸ĭ æ°´
è¿ĩ ä¸ĸ
åħ¥ çĭ±
12 9
13 8
åĲĮå¹´ 12æľĪ
ç¼º éĻ·
è®¾ç«ĭ äºĨ
å¢ĵ èĳ¬
å¤ĸäº¤ å®ĺ
åĪļ æŀľ
æĤ£ æľī
è¿Ŀ æ³ķ
æ¹¿ åľ°
å·© åĽº
Ġ 1994å¹´
Ľ èµ·
åĮ £
æĹ¶ è¡¨ç¤º
æ°ĳ åħµ
åīį èº«ä¸º
æīĢ éķ¿
ä¸ī éĥ¨
ç¼ ª
åĢ Ń
åıĺ éĩı
çľŁ èıĮ
æŃ£å¼ı æĪĲç«ĭ
æī© æķ£
è¯ºæĽ¼ åºķ
çĽ¸è¾ĥ äºİ
æ¾İ æ¹ĸ
çļĦ æĬĢæľ¯
è¡ ·
åĴĮ å°ı
åĵ ĩ
å£ ¶
å·ŀ äºº
åħļ åĨħ
åĪĽ ä¸ļ
æ¸ħ å»·
è®¡åĪĴ çļĦ
èµ° å»Ĭ
åĲĮå¹´ 10æľĪ
æľ« ç«¯
è¯¸ èĳĽ
äºİ199 7å¹´
åĴ¸ ä¸°
3 50
åĲİ ä¸ĸ
åĩº å±Ģ
åĮĹ æ´ĭ
æĸĩ ä¸Ń
æŃ¤ ä¸Ģ
æ°´ åĩĨ
åĪĻ ä¼ļ
éĩĩ çº³
æģ¶ åĬ£
é£İæł¼ çļĦ
æĹħå®¢ éĵģéģĵ
åĬ¨è½¦ ç»Ħ
2 åı·çº¿
m y
è ł
Ġ æŀĹ
Ġ å½±åĵį
çļĦ äººåı£
ä¸Ģ çŃī
è¡Į ä½¿
è¿Ļ ä½¿å¾Ĺ
è¯¥ èĪ°
è·¯ ç«Ļ
çİĭ åĲİ
00 å¹³æĸ¹åįĥç±³
å¥³ äºº
éĺ³ æĢ§
çĻ» è¿Ľå£«
èŀį åħ¥
å°Ķæĸ¯ åħĭ
èĢĥèĻĳ åĪ°
ä¸ĵæ³¨ äºİ
Ġ è®¾è®¡
Ġ Mar
åħ ĳ
ä¸Ģ åįĥ
ç½ ¹
ä»£ åı·
å°¼ çļĦ
åĵĪ ä½Ľ
è¾ĥ é«ĺçļĦ
ç¤¾ä¼ļ çļĦ
è¿ľ ç¦»
ç¥ĸ ç±į
èĤ¯ å¡ĶåŁº
èĤī é£ŁæĢ§
æ±¤ å§Ĩ
éĥĬ åĮº
9 æĹ¶
Ġ Te
ç« Ń
å¾· åĭĴ
å¥³ æŃĮæīĭ
å®ŀ ä¹ł
èĭı åĨĽ
äº¦ åľ¨
çĶ· æ¼Ķåĳĺ
å¥½ èİ±åĿŀ
éĤ£ å·ŀ
æ·± åıĹ
çĥŃå¸¦ ä½İæ°Ķåİĭ
191 6å¹´
ä¿®æŃ£ æ¡Ī
éĺ¿åŁº åĿ¦
çļ ĸ
çļĦ ä¸įåĲĮ
åĨĽ éķ¿
ä¹Ł ç§°ä¸º
å¸ĥ ç½®
10 6
åŁº å°Ķ
é¦ĸ å±Ĭ
çļĩ å®¤
ä»į æĺ¯
13 9
æľįåĬ¡ çļĦ
å¸ķ æĭī
çŃ¾ ä¸ĭ
å²Ń åįĹ
éĤĵ å°ıå¹³
åºķå±Ĥ æ°´åŁŁ
è¿Ļ æĿ¡
é« ĵ
çī© ä¸ļ
æĪĺ åĮº
éĩĳ é¢Ŀ
æµģ æĶ¾
èµĦ æ·±
å±ħ äºİ
çĹħ äºº
ç¢ Ĺ
æĿĢ æīĭ
åģ¶ å°Ķ
å¡Ķå°¼ å¤§åĮº
å¸ĥæĶ¿ ä½¿
8 æĹ¶
C ST
ä¸Ń ç«ĭ
éķ °
æĸ° æĿĳ
çł Į
å°¼ åŁº
ä¼Ĭ ä¸½
ä¹Į å°Ķ
ä¿ĿæĬ¤ åĮº
åĩºçīĪ äºĨ
å·¨ äºº
å¼ķåıĳ äºĨ
A A
A d
Ġ æĪĺåĲİ
åľ¨ æł¡
è¥¿ åĮº
æľĢ åħ·
åīį å¤ķ
èĢħ åĴĮ
çĽ¸ è¿ĳ
èĭ± å±ŀ
å·² æĪĲä¸º
åºĶ çĶ¨äºİ
ä¼ł æī¿
æĶ¯ éĥ¨
ç¥ŀ åºĻ
æ¦ Ĩ
ä¸Ńå¤® å§Ķåĳĺä¼ļ
ç§» éĻ¤
åį°åº¦ æ´ĭ
åħ³ç³» çļĦ
ç¤¼ æĭľ
èĶ ĵ
åħĦ éķ¿
èħ¹ éĥ¨
åīĬ å¼±
æĭ¨ æ¬¾
æł¸éħ¸ æ£Ģæµĭ
B 48
Ġ 1991å¹´
çļĦ éĢŁåº¦
æĸ° åįİ
åĨħ æĸ¯
è¿Ľ é©»
çĦ ķ
è¯Ń æ³ķ
å¤Ħ ç½ļ
éģĩ éļ¾
æįŁ åĿı
æ²¼ æ³½
o th
åľ¨ 2008å¹´
å· ¾
å¯ Ĥ
ç¥ ĩ
éĽĨåĽ¢ æľīéĻĲåħ¬åı¸
çŁ¿ çī©
æĲ¬ åĪ°
åħ¶ é¡¿
è¥¿ æĹ¥æľ¬
éĤ ¢
å·´ å¡ŀ
å¸¸ çĶ¨
è£ ¤
er v
åŃĹ ç¬¦
èĪª æµ·
å¹ķ åĲİ
ç¡¬ æ£ĺ
èµĦæł¼ èµĽ
è¿Ī éĺ¿å¯Ĩ
å·¡åĽŀ æ¼ĶåĶ±ä¼ļ
è´© åįĸ
è¿Ľ åĮĸ
æľŁ å¾ĴåĪĳ
æĦ ļ
12 6
æ¢ ĵ
åĩ» æ²ī
an ce
ä¼Ĺ è®®åĳĺ
al d
æ¥¼ æ¢¯
æī§ æķĻ
å»¶ å®ī
ä¸¹ å°¼
çº½ è¥¿åħ°
æĿ¿ åĿĹ
çĤ® åħµ
ä¸īåįģ å¹´
ä¸Ńéĥ¨ æĹ¶åĮº
äº ı
ä¸º ä¸Ģä¸ª
å¯¹ è¯¥
å¼Ģ åĪĽ
åĲĦ çķĮ
è´Ŀ æĭī
èī¾ å°Ķ
æłĳ æŀĹ
è¯Ńè¨Ģ çļĦ
ul t
oun t
æ¸¸åĩ» éĺŁ
6 è°ĥå¿«ä¸Ģå°ıæĹ¶
O P
çļĦ å¤´
åĮ ¾
è¿Ļ ä¹Ł
åĲĪ èĤ¥
å°ı éķĩ
æİ¥ åĬĽ
18 ä¸ĸçºª
11 5
ä¸ĩ å¼ł
ç¡ Ĵ
or g
æĬ¤ å£«
çļĩå®¶ æµ·åĨĽ
ä¾¦ æİ¢
æ²¿æµ· çľģä»½
CD T
åį³åĮĹç¾İ ä¸Ńéĥ¨æĹ¶åĮº
Ġ åħ¶åĲİ
è¿ Ń
åĮº è®®åĳĺ
å¤ļ ä½į
å°Ĩ è¯¥
ä½ĵ åĨħ
éŁ ¶
æİ¥ å¾ħ
åı¸ éķ¿
çĽ´ éĢļ
çĥ ¤
å¸¦ åĪ°
é¦Ļæ¸¯ çĶµå½±
æ»¡ æĦı
å´ Ľèµ·
ç¤¼ éĥ¨
å« Ķ
ä¸º åĲį
å¤ļ å®¶
æľĢ æĸ°
æľĢ èĳĹåĲįçļĦ
æĽ´ å¤§
åĲĦ çľģ
æĿ¡ çº¹
çłĶç©¶ äººåĳĺ
å¿« ä¹Ĳ
æ¯ķä¸ļ çĶŁ
åıįå¯¹ æ´¾
o od
çļĦ åŁºæľ¬
åĴĮ è§£
æĸ¯ å¨ģ
åĮĹ åį¡ç½Ĺ
è¿ĩ å¾Ģ
åı° çļĦ
ä¼ł è®°
èĮ ¹
ä»ĸçļĦ çĪ¶äº²
åŃĻ åŃĲ
èĸ ¯
å¯Ħ çĶŁ
ĠM us
ä¼ĬåĪ©è¯ºä¼Ĭ å·ŀ
E E
åı ¹
åľ¨ 2010å¹´
å» ĵ
åĮĹ ä¼Ĳ
æķĻ å¯¼
å¤ĸ ç±į
å·´ æĭ¿
åħļ æ´¾
ç¬¬ä¸Ģ è½®
æľį é¥°
ç»Ļ äºĭä¸Ń
åĨĻ æĪĲ
åŁĥ å¡ŀ
æī¹ å¤į
è¿ģ åħ¥
éĢłæĪĲ äºĨ
åĪĬ çī©
ä¸Ńåįİæ°ĳåĽ½ æĶ¿åºľ
èĳ¡èĲĦçīĻ è¯Ń
çĸ¯ çĭĤ
éĺ¿å°Ķå·´ å°¼äºļ
Ġ ä¸Ĭ
Ġ çī¹å¾ģ
çļĦ æ³ķå¾ĭ
å½ Ŀ
ä½į å±ħ
æĸ° åĮº
ç¼ ī
ç®¡ éģĵ
æĽ´ æľī
æ¨¡ ç³Ĭ
ä¹ĭä¸Ģ çļĦ
ç³»åĪĹ èµĽ
èįī åľ°
Ġ åİŁ
çļĦ æ¯įäº²
çļĦ æł¸å¿ĥ
ä¸º 4
åīį ä»»
æŃ£ å¾·
è§ģ éĿ¢
åįĩ éĻį
ä½ľåĵģ ä¸Ń
çļ® å°Ķ
éĨ Ľ
åī© ä¸ĭ
æĭ³ åĩ»
ç½¢ åħį
M C
r ist
Ġ be
å¼ ¼
æĹ¥ èĢ³æĽ¼
å¼Ģ éĻ¤
åĲĪ éĢĤ
æĹł æķĪ
é£İ éĢŁ
åįł æ¯Ķ
çıł æµ·
å¢ĥå¤ĸ è¾ĵåħ¥
çŀĦ åĩĨ
M et
Ġ é¥°
åĨ ¥
èĩ³ 1
ç«Ļ åĨħ
è¾¾ åĪ°äºĨ
åįİ çº³
éĥ¨åĪĨ çļĦ
å®ģ å¤ı
å·¡ èĪª
åģĩ æĹ¥
åĮºçļĦ è´Łè´£ç®¡è¾ĸ
æĪĺæĸĹ ä¸Ń
è¿« å®³
ig h
åıĤèµĽ èĢħ
çĲ³ å¨ľ
æĸĳ çĤ¹
æŁ´æ²¹ æľºè½¦
çĶµæ°Ķ åĮĸ
ç»ĳ æŀ¶
! âĢĿ
B e
Ġ Se
åĴĮ é«ĺ
åĴĮ ä¸ŃåĽ½
éĽ ģ
äºĮ çĻ¾
çĽ¸ ä¼ł
æ£ ł
å¹¿ å²Ľ
åĨ³ å¿ĥ
æīĵ åħ¥
è¾ĥ å°ıçļĦ
å®ģ åİ¿
å¼Ĺ åĲī
åĩı è½»
ä¿Ŀå®Ī åħļ
çĲĨå·¥ å¤§åŃ¦
: ãĢĬ
çļĦ è§ĤçĤ¹
ä¸Ģ å¤Ħ
ä¸Ģ è¯´
æĹ¶ éĢŁ
äºĨ åħ¶
åı¯ å®¹çº³
è¡¨ å½°
æİ¥ é©³
æ¸¯ åĮº
å®ŀ è´¨
ä¿Ŀ åģ¥
åħī æĺİ
åĲī æĸ¯
åıĮ åĲĳ
13 7
æ³° åĽł
ä¾µ èļĢ
éī´ äºİ
Ġ åıĳå±ķ
ä¸Ģ çĤ¹
åĩº èµĦ
åħ¬ æŃ£
æ¸ ´
éķ¿ èĢģ
éĩĮ å¥ĩ
æĻ® æ£®
è§£ ä½ĵ
ä¾ĭ å¤ĸ
è± ļ
çĽŁ åıĭ
å¹² äºĭ
2010å¹´ ç¾İåĽ½äººåı£æĻ®æŁ¥
æ®¿ è¯ķ
åĽ½ç«ĭ åı°æ¹¾
oun d
çľģéģĵ åı°
å¯ĨèĭıéĩĮ å·ŀ
y l
Ġ 1995å¹´
åľ¨ ä¼¦æķ¦
æĺ¯ å°Ĩ
æľĪ åĪĬ
ä¹ĭ åĪĿ
åħĭ ä¼¦
ä¸Ģä¸ª äºº
éĩĳ æĸ¯
éĶ £
æ²³ åĨħ
æĺŁ äºĳ
ä¸ĩ åĲ¨
æ» ĩ
èĬĤ æĹ¥
éĺ² æĬ¤
æĥ© ç½ļ
åį¡æĸ¯èĴĤ åĪ©äºļ
5 æľĪ1æĹ¥
M L
æĺ¯ ä»ĸ
æĺ¯ éŁ©åĽ½
åħ¥ åŃ¦
åħ° å¾·
å¥¥ æīĺ
11 7
è¿ĺ åı¯ä»¥
è®º è¿°
ç¥ŀ çļĦ
æ´¾ ç³»
ç»Ļ åĩº
éĿĴ éĵľ
è®² è¯Ŀ
100 ç±³
çºªå¿µ é¦Ĩ
åĲĽå£«åĿ¦ ä¸ģåł¡
å½Ĺ æĺŁ
çļĦ ä¸ĭ
åĽ½ å°ı
åĴĮ è¥¿
æķ ķ
ä¼ļ è®¡
è¡Į ç¨ĭ
åĩº åħµ
èĥ ļ
äºļ çĥŃå¸¦
èĪ ¶
åľº ä¸Ĭ
å°ı é¡¹
10 1
çİĭ å®ī
an k
å±Ģ éĿ¢
åĽ½å®¶ åĴĮ
ç¥ŀ åŃ¦
å¼ķ åĬĽ
æĬķ å½±
åºĦ åĽŃ
ä¼ĳ éĹ²
å¾·éĩĮ å¸Į
åľ¨ ä¸ľ
ä½Ĩ è¢«
æİ¥ ä¸ĭæĿ¥
çĬ ģ
æ¸ħ çĲĨ
é¥ ¿
æł· çļĦ
æķħ æŃ¤
éĢĤ çĶ¨
æĶ¹ç¼ĸ ä¸º
å¤§ ä¸ľéĥ¨
æľī å¾Īå¤ļ
èµ İ
åıĳ éĢģ
æĭī å°Ķ
è·¯ ä¸Ĭ
å½¢ åĬ¿
ä¸ĩ å¹³æĸ¹ç±³
åĪ« åĲį
åİĨåı² å»ºçŃĳ
çİ¯ èĬĤ
åı³ ä¾§
ç»Ŀ å¤§å¤ļæķ°
æİ§åĪ¶ çļĦ
èľ ¡
æįŁ ä¼¤
æĻ®ç½Ĺ æĹº
G e
ä¸į è®º
ä¸į æĦ¿
åı£ å²¸
æ¬¡ çļĦ
æĢ» ç®¡
æµģ ç¨ĭ
åī§ åĽ¢
é¦Ļæ¸¯ æĶ¿åºľ
æĺ¾ å¾Ĺ
åģļ çļĦ
èĥĮ éĿ¢
è¿½ éļı
çİ© æ³ķ
æĤ¬ æĮĤ
åĸĩ åĺĽ
çİ« çĳ°
4 åı·
w ard
Ġ II
èµ ļ
éĥ¨ åī¯éĥ¨éķ¿
ãĢĬ ãĢĭ.
åı¯ ä¾Ľ
æĢ» æķĻåĮº
çļĦä¸Ģ åĲį
åĪĿ å§ĭ
la ss
æĢĿ èĢĥ
åºŁ æŃ¢
åĮĹèµ· é¡ºæĹ¶éĴĪä¸İ
) ãĢį
çļĦ å¿ĥ
åĲİ åĭ¤
è¿Ľ ä¿®
éģĵ æķĻ
11 3
å®ĺ åħµ
é¾Ļ ç±»
å®£ èªĵ
è½¨ çĶµè½¦
ä¹Ķæ²» äºļ
çĻĮ çĹĩ
Ġ 1996å¹´
éĥ¨ ä½į
ä¹ĭ ç§°
è¥¿ åħĥ
åĲĮ äºĭ
åĲĮ çŁ¥
åĽŀ æĶ¶
å¸¦ çĿĢ
å·¦ ä¾§
è¿Ľåħ¥ äºĨ
å®ª åħµ
æĢĢ åŃķ
åı¦ä¸Ģ ä½į
çģĮ æľ¨
æ±ŁæĪ· æĹ¶ä»£
Ä ģ
çļĦ åĪ¶ä½ľ
åĮ Ģ
é©¬ åĮ¹
ç«Ļ ä½įäºİ
ç¨ ½
æĶ¿åºľ åĨĽ
åĨį åĬłä¸Ĭ
è¶³ æĢ»
æİĴ åºı
ç´¢ å§Ĩ
åıĤä¸İ èĢħ
æ³½ è¿ŀ
é¡¶ éĥ¨
äº« åıĹ
åĢ¾ æĸľ
ç¢İ çīĩ
èĤĸ åĥı
åºĩ æĬ¤
åĳĬç¤º çīĮ
åĪĨ åī²
çĶ¨ äºĨ
æ°ĳ èĪª
200 ç±³
éĵ Ģ
æĢ» éķ¿
éĩĳ åĥı
æ· ĭ
å½ĵåľ° å±ħæ°ĳ
è¿½ è¸ª
3æľĪ 31æĹ¥
ç½Ĺé©¬ å¤©ä¸»æķĻ
åŁºç¡Ģ è®¾æĸ½
191 5å¹´
10æľĪ2 5æĹ¥
åŀĴ æīĵ
Ġ åĪ°
Ġ åıĳè¡Į
ä» Ĺ
ä»ĸ äºİ
ä¹ĭ çĪ¶
è¢« è¯Ħä¸º
çĶµ æľº
é©¬ åħ¶é¡¿
è£ Ļ
ä¼ł åħ¥
èĬĤ çĤ¹
åŃ£ åĨĽ
è§Ĥ æĶ¿
çĻ¾ è´§
æĪĲåĳĺ åĽ½
æ¿Ģ ç´ł
æııè¿° äºĨ
æ¨¡å¼ı äº§åľ°
çŀ ¬
éĻ¨ åĿĳ
åī¥ å¤º
åľ¨ é«ĺ
è¯ ł
ä»ĸ åıĪ
ç¾ Ł
éķ¿ å¾ģ
åįĹ è·¯
äºĮ çŃī
ç«Ļ æĺ¯
åĮħ è£ħ
èİ· é¢ģ
æ¬§ éĺ³
ç¥¨ ä»·
it e
24 0
è§Ĵèī² çļĦ
Ġæľ¬ å±ŀ
T T
a ur
Ġ äºİ
Ġ åħīç»ª
åĲ ¡
ä¸Ń æĹ¥
ä¸Ń ä¹Ł
æı ½
åĪ¶ æľį
åİŁ æĸĻ
åħļ éĥ¨
ç¦» å¿ĥ
åħĪ éĶĭ
è¾¹ çĸĨ
åįĬ çĲĥ
åĲ« éĩı
çĶŁæ´» çļĦ
éĢļå¸¸ ä¼ļ
çº¦ç¿° éĢĬ
æ³ķåħ°è¥¿ å¤§åĮº
å´© æºĥ
âĶĢ âĶĢ
Ġ ä½įäºİ
çļĦ åĬŁèĥ½
ä¸Ģ ä¹¦
äºº éĥ½
ä¸Ĭ æ³ķåħ°è¥¿å¤§åĮº
éĥ¨ ä»¶
å¼Ģ å°ģ
åİ¿ éģĵ
å¤ª ç¥ĸ
æĢĢ çī¹
é¢Ĺ ç²Ĵ
æ³ķåħ°åħĭ ç¦ı
çĭ© çĮİ
Ġ è¯¥åľ°
çļĦ ä¸ľ
ç¬ Ľ
è¥¿ å°Ķ
åı¯ æ±Ĺ
å°ı äºİ
èĢħ ä¸º
çİĭ åĽ½çļĦ
è£ ¹
æĹ¥æľ¬ æĶ¿åºľ
ç¿ ¡
æĭħ å¿§
å¸Į çī¹åĭĴ
èĢģ èĻİ
190 5å¹´
é«ĺçŃī åŃ¦æł¡
Ġ ä¼Ĭ
åľ¨ 2013å¹´
ä¸º é¦Ļæ¸¯
åĴ Ģ
ä¸ª æĢ§
ä¸į åĬ¨
åħ¬ æ¼Ķ
è¥¿ éĹ¨
åĲĮ æľĪ
åı¯ çĶ¨äºİ
çĶµ ç£ģ
å½ĵ åĪĿ
æĪĺ æŃ»
å·¥ èµĦ
æķ° åŃ¦å®¶
åĵĪ çī¹
æŁĵ èī²
ros of
ä¼Ĭä¸½ èİİçĻ½
E M
Ġ Un
èĩ Ń
ä¸į çŃī
æĭī çļĦ
æķĻ ä¹ī
å·ŀ åĴĮ
æķ´ æķ°
å®¾ å¤ķ
å®¶æĹı çļĦ
ä¸ºä¸» çļĦ
è¶³å¤Ł çļĦ
åĵĪèĲ¨åħĭ æĸ¯åĿ¦
Ġ äºĮ
åĳ ¢
å½ĵ çĦ¶
å±± è°·
è¿Ĳ ä¼ļ
ä¼ł ä½ĽæķĻ
çĤ¹ æĺ¯
åĲĦ æľī
æĶ¶ èİ·
å¤´ çļĦ
çĻ½ éĵ¶
æīį ä¼ļ
ä¸½ ä¸Ŀ
é»İ æĺİ
å³¡ è°·
æĴĴ åĨ·
åıĳçİ°äºĨ æŃ¤å¤©ä½ĵ
æĮĸ æİĺ
çĢ ĳ
åľ¨ çº¿
åħ¬ è½¦
çĶŁ æĦı
åı· åĴĮ
èĩ´ åĳ½
ä¸ĥ ä¸ª
13 5
èĢ¶ è·¯
as h
æµģè¡Į éŁ³ä¹Ĳ
æŃ¦è£ħ éĥ¨éĺŁ
æ¡Ĥ æŀĹ
éĺ¿å§Ĩ æĸ¯çī¹
èĨ¨ èĥĢ
S P
Ġ æĺİ
çļĦ èĭ±åĽ½
ä¸į å¹¸
è¯¥ çī©ç§įçļĦ
æĦŁ è°¢
èģĶèµĽ åĨłåĨĽ
ç§ĳæĬĢ å¤§åŃ¦
äºİ ç¾İåĽ½
å¤§ åĬĽ
âĢ ĭ
æ² Ľ
èĲ Į
æ°´ çļĦ
åı² ç§°
12 æľĪ1æĹ¥
æĻ® éĽ·
ç¬¬äºĮ å¤©
éħį å¥Ĺ
çł´ äº§
éħĴ åĲ§
æĴ¤ åĽŀ
ä¸ĢçĽ´ åľ¨
äºİ199 5å¹´
æĻ®ç½ĹæĹº æĸ¯
æ³½è¿ŀ æĸ¯åŁº
H E
Ġ ä¸ĢèĪ¬
åľ¨ ä¸Ĭ
ä¼ļ è§ģ
ä»ĸ æĭħä»»
èĪ ·
å½ĵ å¹´çļĦ
ä½Ĩ åĽłä¸º
åħ³ æĬ¼
èĹ ī
åı¯èĥ½ çļĦ
çĶ² ç»Ħ
å®¡ çĲĨ
åĬ¨çī© çļĦ
èģĶéĤ¦ æĶ¿åºľ
è£ģ åĨ³
Ġ 1993å¹´
æ³ķ å¸Ī
åįĹ åĮº
èĩ³ 3
å¢ Ł
éĺ¿ å¡ŀæĭľçĸĨ
ç»ĵ è¯Ĩ
çĻ½ å®«
ç®Ģ æĺĵ
èµŀ æī¬
çĪµ ä½į
ä¼ģä¸ļ å®¶
æıŃ éľ²
è¿·ä½ł ä¸ĵè¾ĳ
Ġ æ¸ħ
ä¸į å¤ª
åĪĨ æķ°
èµĽ é©¹
åħļ å§Ķ
å¸Ī åĽ¢
è½¬ åħ¥
åħŃ åįģ
ä¸Ńå¤® åĨĽå§Ķ
ic al
è®¡åĪĴ åľ¨
çªģ è¢Ń
åĲĪä½ľ çļĦ
åıĸä»£ äºĨ
oc i
Ġ æµ·
å½ ª
è¿Ļ éĥ¨çĶµå½±
ä½¿ ä»ĸ
çĤ Ĵ
äºĶ çĻ¾
ä¸ĵ æłı
äº¦ è¢«
å¥ĸ çļĦ
å¹² æ¶ī
å®ĭ æľĿ
éĺ¿æĭī æĸ¯
äº¤æµģ éģĵ
æ³¨æĦı åĪ°
æ°Ķè±¡ å±Ģ
åķ¤ éħĴ
åĲ ĭ
ä¸º ä¸»è¦ģ
æĹ¥ æĸĩ
æ¯ Ļ
æĪĺ äºĭ
éŁ §
é¦ĸ éĥ¨
çĸ ²
äº¬ å¸Ī
ä¸ĸçķĮ åĲĦåľ°
çłĶç©¶ çļĦ
è¯º åħĭ
åĲī ç¥¥
ä¸Ńå¤® çĶµè§Ĩåı°
èı² å°Ķ
è°ĥæŁ¥ å±Ģ
ä¸ĢçĽ´ æĺ¯
190 4å¹´
èĢ¶è·¯ æĴĴåĨ·
1 æĹ¥
r ess
çļĦ åĨ³å®ļ
å¤§ çģ«
è¿Ļ ä¹Ī
æľĢ å°ĳ
åı° å¤§
æ¯Ķ 0
10 7
åı· åľ¨
æ®µ çļĦ
ä»¥åıĬ åħ¶ä»ĸ
å½±åĵį çļĦ
åľ°æĸ¹ æĶ¿åºľ
èĶ ¬
ç§Ł åĢŁ
æĬķåħ¥ ä½¿çĶ¨
æĦıåĳ³ èĳĹ
æµı è§Ī
O C
çļĦ éľĢæ±Ĥ
åľ¨ åĽ½éĻħ
æ°ĳ ç±į
é©¬ å°¼
æĢ» åĢ¼
æ¼Ķ è¯´
æ´¾ äºº
8æľĪ 31æĹ¥
ç¬¬åįģ åĽĽ
åĢ¡ è®®
! ãĢį
6 Ġ
O V
u c
ä¸Ń ä»¥
åĮĹ éĿ¢
ä¹Ł å¼Ģå§ĭ
åħ¨ å¸Ĥ
ç±³ çī¹
æ°´ ä¸Ń
ä»İ å°ı
æ¹¾ ä»Ķ
æĳ Ĭ
éĩĩ è´Ń
å¯Į æľī
åĤ ²
è¯¯ å·®
è¾ħ éŁ³
æĶ¶å½ķ äºĨ
å®īä¸ľ å°¼
. ,
r in
çļĦ èĩª
ä¸Ģ æĸ¹éĿ¢
äºİ æĹ¥æľ¬
å¹¶ æĭħä»»
æ³ķ äºº
èģ Ĭ
ä¹Ł è¢«ç§°ä¸º
ç»ĵ çĽŁ
åħļ å§Ķä¹¦è®°
å¤« çļĦ
çºª å¾ĭ
é¾ ļ
æĶ¯ åĩº
æĽ² çº¿
çļĦä¸Ģ æīĢ
çĶ· äºº
èīº åĲį
æ³° ç±³å°Ķ
ä¾¿ åĪ©
ç®¡çĲĨ çļĦ
ä¿ĿçķĻ äºĨ
æĸ ¼
åħ¬ çĽĬ
èĢĮ æŃ»
æĸĩ ä¹¦
åĽł çĹħ
æĪĺ ä¿ĺ
æķ° æ¬¡
10 3
æ¼Ķ åıĺ
ä¹Ĳ åĿĽ
éĴ ¾
éĿ¢ç§¯ 2
å¸ķ åħĭ
å®ĺæĸ¹ ç½ĳç«Ļ
è¿İ æİ¥
æ¼«çĶ» å®¶
æ¦´ å¼¹
Ġ å¤ļ
Ġ å¥¥
Ġ åĲİæĿ¥
æĺ¯ åħ¶
éĩ ľ
åĩº ç§Ł
çī¹ ç§į
åĮĹ è·¯
æĻ ĸ
çķ ¿
åı· çłģ
åĪ« åħĭ
å¡Ķ æĭī
äºĳ æŀĹ
re f
äºĨä¸Ģ åľº
è¯¸ ä¾¯
çĲĨæŁ¥ å¾·
ç¿¡ ç¿ł
äºº åĿĩ
æľī 1
ä¸ĭ åİ»
æĸ° åħ´
èĪ ĸ
åĮĸ çī©
éĩĳ é©¬
çĭ ¸
åľŁ èĳĹ
è®² å¸Ī
å¾ħ éģĩ
æµ·æĭĶé«ĺåº¦ 2
ä¼Ł å¤§çļĦ
bo x
ĠC on
C ar
Ġ åĲİ
Ī å½¢çĽ®
åľ¨ åį°åº¦
åĴĮ æŃĮ
ä¼ļ è°Ī
éĹ´ éļĶ
å¤© çİĭ
åħ³ èĬĤ
å¥³ å£«
ä¼ł éĢģ
11 4
æĹ¥æľ¬ äºº
æ´¾ å¾Ģ
éĩĩ éĽĨ
æĦŁ åıĹ
ç´¢ å°Ķ
å¾ģ åı¬
æĵį çºµ
åĪ¶éĢł çļĦ
çļĦåľ° éĵģ
li x
çİĭæľĿ çļĦ
æĸ°çĸĨ ç»´åĲ¾å°Ķ
äº¤åıī åı£
å®¾å¤ķ æ³ķ
çļĦ èµĦæĸĻ
éĻ ĩ
éķ¿ æĹ¶éĹ´
éĢļ åĭ¤
åħ¨ ä¹¦
ç½Ĺ æĿ°
åįİ è¯Ń
æĹł éľĢ
14 4
ç¬¬äºĮæ¬¡ä¸ĸçķĮå¤§æĪĺ æľŁéĹ´
åľ¨ åľ°
åľ¨ å¯¹
æ³ µ
ä¹ĭ çĶ¨
åĵ ¨
åĮĹ ä¸Ĭ
çĶ» ä½ľ
èİ± çī¹
ä»¥åıĬ ä¸ŃåĽ½å¤§éĻĨçļĦ
17 ä¸ĸçºª
æľ¨ æĿĲ
çİĽ æł¼
éħĭ éķ¿
Ġ èĳĹä½ľ
çļĦ äº²
åľ¨ 2020å¹´
äºº æĺ¯
ä¹ĭ äºĭ
åı¤ åŁİ
åĪĿ ä¸Ń
å¤ĩ åıĹ
èĢĥ éĩı
çĶ² çº§èģĶèµĽ
æĸĻ çĲĨ
äºĨä¸Ģ ç³»åĪĹ
ç§ĳåŃ¦ æĬĢæľ¯
æĭľ ä»ģ
åĨ° å²Ľ
æľĿé²ľ åįĬå²Ľ
å®īå¾· é²ģ
æķ² åĩº
åĨħæĶ¿ éĥ¨
æ¶¡ è½®
å¥¹æĽ¾ ä»£è¡¨
I U
åľ¨ 2009å¹´
ä¸Ģ æŀ¶
åĲĮ æľŁ
æµ· æ»©
åħ¨ ç¨ĭ
ä¸¤ é¡¹
äº¤ ä¼ļ
èº« è¾¹
èĲ¥ éĢł
è´Ł æĭħ
åĺ İ
æĺ¾ çĦ¶
é¢Ħ èŃ¦
æ¸© åĵ¥
äºĮåįģ ä¸ĸçºª
ä½© æĸ¯
è¿Ļä¸Ģ çĤ¹
çŃĶ åºĶ
be gin
çĭŃ çªĦ
yst em
y s
çļĦ åĲįä¹ī
ä»¥ 0
201 8
ä½Ĩ åĲİæĿ¥
å°± æŃ¤
çĸ ¼
å¤ª æŀģ
ç¬¬ä¸Ģ åĲį
çĽĳ æµĭ
æĸ¯çī¹ æĭī
èµŀ æĪĲ
èĶ ļ
éĥĳ å·ŀ
åŁºç¡Ģ ä¸Ĭ
ç½ĳçĲĥ åħ¬å¼ĢèµĽ
o o
Ġ 1992å¹´
çļĦ åıĺåĮĸ
åħĭ æ´Ľ
âĢĿ ()
æĪĺ çļĦ
å°ı åŃ©
ç½Ĺ å®¾
å°± èģĮ
è½¬ æĬķ
èĪª è¿Ĳ
éĤ£ æĹ¶
èĢģ äºº
æ»¡ è´¯
èĶ¡ èĭ±æĸĩ
å¼¯ æĽ²
ĠB e
æĭ¦ æĪª
æ¸©åĵ¥ åįİ
çļĦ æľº
çļĦ å®¶åºŃ
æµ· å§Ĩ
éĩį åĬĽ
å®ŀ çĶ¨
éĻ¤ éĿŀ
èĲ¥ åľ°
ä¾Ŀ æ³ķ
å®¡ è®®
æĭįæĳĦ çļĦ
äºİ199 6å¹´
æĲŃ ä¹ĺ
æĿĨ èıĮ
ç»ıçºª åħ¬åı¸
Ġ åĵĪ
çļĦ å¦»åŃĲ
åľ¨ 2012å¹´
æķ ĸ
æ² ģ
åŃ¦ æ´¾
è¢« æİĪäºĪ
çĶ± èĭ±åĽ½
çĽ® å½ķ
çİĭ æľ±
å·´ å·´
èŃ¦ åį«
çº¢ æĹĹ
å°Ħ çº¿
åĩł ç§į
åĨ³å®ļ å°Ĩ
è´¢ ç»ı
ç»ĵæĿŁ æĹ¶
çĪ¶äº² çļĦ
ãĢī ,
å¥Ī å°Ķ
12æľĪ2 8æĹ¥
çħ¤ çŁ¿
çĽ¸äºĴ ä½ľçĶ¨
çļĦ å£°éŁ³
çļĦ éĤ®æĶ¿ç¼ĸçłģä¸º
åĬł åī§
å¯Ĩ æŃĩ
æĬ¤ çĲĨ
éĢŁ çİĩ
åıĮ éĩį
è¿ª æĸ¯
æĳĦ æĶ¿
et h
ç«¥ å¹´
190 6å¹´
çĶµåĬĽ æľºè½¦
åĴĮ æ°´
åıĳ æĶ¾
èĩª æĦ¿
å¹³ åĿ¦
æĭī èĲ¨
å®ī è¾¾
æ¯Ķ åĪĨ
ç¦ı åħĭ
ä¸īä¸ª æľĪ
æĭīä¸ģ è¯Ń
åµ ©
è¿½æº¯ èĩ³
æĽĿ åħī
E X
e v
l ic
Ġ èĩ³
Ġ 5æľĪ
Ġ 187
ä¸Ģ äºĭ
ä¸Ĭ æ¼Ķ
çİ° éĩĳ
è¦ģ ç´ł
ç¼ ®
ä¸ŃåĽ½ åĽ½å®¶
å¤Ħ æŃ»
å²Ľ å¼ı
åķ ¦
åķ ¸
æŃ¦ åĬŁ
åħ¶ä»ĸ äºº
å¾Ī æľī
å¥ĩ å¹»
éļ¾ åº¦
å·²ç»ı è¢«
äºĨä¸Ģ ä»½
é¤Ĳ é¥®
æ£ķ èī²
Ġæ¦Ĥ è¿°
å¯ĨæŃĩ æł¹
F acebook
çļĦ åı¯
çļĦ ç»ĵæŀĦ
åŃ¦ åİĨ
ä¸į æķ¢
åĨħ å¤ĸ
å±ŀ çļĦä¸Ģç§į
åį¡ æ´Ľæĸ¯
å¥¥ åĪ©
åıį åĵį
çĬ Ģ
åģľ çģ«
ä¸¥ åİī
éĥ¡ çļĦ
ur n
çº½çº¦ æĹ¶æĬ¥
æłĸæģ¯ æ·±åº¦
åİļ çļĦ
åıĺæĪĲ äºĨ
æĭĵ è·ĭ
ä¸ĩç¾İåħĥ çļĦ
éĵ¸ éĢł
çĽĳå¯Ł å¾¡åı²
æ°¨ éħ¸
ç£· éħ¸
äº¤æ±ĩ å¤Ħ
åľ¨ 2014å¹´
è¡ Ļ
å¤§ æ³ķå®ĺ
åŃ¦ éĩĳ
åĪĨ çº§
201 6
æĢ» æķ°
æ±Ł å¸Ĥ
åĮ» èį¯
æ·± å¤ľ
å¼¹ éģĵ
å¤§ä¸ľéĥ¨ å¤§åĮº
N H
T R
çļĦ å»ºè®®
åľ¨ 2018å¹´
ä¸İ æĸ°
æ°ĳ æĦı
å¯¹ ç«ĭ
åĲĮ ä¸Ģä¸ª
ä¸ī éĩį
âĢĿ âĢľ
èģĶ æĴŃ
åħ³ ç¨İ
æ· Ĩ
ç¼ĸ ç¨ĭ
æ¸ħ æĻ¨
æŀĦ å»º
ä»£è¡¨ ä½ľ
åıĳçĶŁ åĲİ
ol og
ç£ º
é¥® æĸĻ
èĪŀåı° åī§
éħī ç§ĳ
3 60
W h
Ġ è®¸å¤ļ
çļĦ å¤©
çļĦ ç»Ħç»ĩ
ä½į åľ¨
éķ¿ å´İ
åĬł éĩĮ
åĲĪ éĩĳ
èİ· åĩĨ
æĶ¶ åĽŀ
çŁ¥ åĲįçļĦ
ä»ħ åľ¨
å²ģ ä»¥ä¸ĭ
æľįåĬ¡ åĻ¨
é¢Ŀ å¤ĸçļĦ
éĤ® ä»¶
éĺ» ç¢į
ĠæĹ©å¹´ çĶŁæ´»
çļĦ å®īåħ¨
çļĦ æĿĥåĪ©
æĺ¯ è¢«
æľī åĽĽ
âĢĿ ),
ç«Ļ åĴĮ
åıĤ è®®
åĬŀ åŃ¦
æŃ¦ å£«
äº¦ ä¼ļ
æ³¨ éĩį
è¯Ŀ é¢ĺ
ä¼łç»Ł ä¸Ĭ
æĴ¤ åĩº
åĨ· åį´
æĿ¡ä»¶ ä¸ĭ
æįĲ æ¬¾
ä»£çłģ ä¸º0
æ³¢ç½Ĺ çļĦæµ·
Ġc ol
sectionĠ begin
Ġ æ²Ļ
åľ¨ 2015å¹´
ãĢĭ )
çľ ·
çī¹ åĴĮ
åĮĸ å·¥
ç»Ħ éķ¿
ç»´ æĸ°
è§Ĩ è§Ĵ
å³ »
æį¢ åıĸ
é³ ļ
æ·· æ·Ĩ
åİ¿çļĦ åŁİå¸Ĥ
éªļ æī°
åľ¨ 2011å¹´
ä¸Ģ æľŁ
ä¸Ń éĢĶ
å¼ Ĭ
è¥¿ å²¸
å¼Ģ éĩĩ
èİ ŀ
èµĽ åĲİ
ä¸ļ èĢħ
å°ı æĹ¶çļĦ
ç»Ħ ä»¶
è¯´ è¯Ŀ
ä¼ł æŁĵ
å®Į ç»ĵ
ä»£è¡¨ éĺŁ
å¢ŀ èĩ³
æĶ» åħĭ
éŁ³ä¹Ĳ å®¶
åİĭ åĪ¶
å¯Į åħ°
æĸŃ å±Ĥ
ä¸Ģå¹´ åĲİ
æľīæķĪ çļĦ
éĵ¾ æİ¥
åĨħèĴĻåı¤ èĩªæ²»åĮº
cl ude
iver s
1 çļĦ
A m
19 10å¹´
åŃ¦ çķĮ
é©¬ æģ©
è¶ ¾
éĩį æĴŃ
ä¼ł è¾¾
ä¿¡ éķ¿
ç¬¬ä¸Ģ ä»»
æ³¢ åĪ©
æŀľ å®ŀ
14 3
èģĶçĽŁ çļĦ
åįķæĽ² æ¦ľ
åıĻ äºĭ
äºİ199 4å¹´
è§£åĨ³ æĸ¹æ¡Ī
çļĦ è¿ĩç¨ĭä¸Ń
ä¸Ń çİ¯
åĽ½ åŃĲ
è¯¥ å¸Ĥéķĩ
å¤© åĲ¯
æ® ´
æ²³ ä¸ľ
å¨ģ æĸ¯
è¯Ħ åĪĨ
åĬ© æĶ»
è¾¹ ä¸º
é£ŀ èĪ¹
ä¿Ħç½Ĺæĸ¯ çļĦ
å®Ŀ çŁ³
9æľĪ 30æĹ¥
åį± å®³
æĸ°å¢ŀ å¢ĥå¤ĸè¾ĵåħ¥
åĨ¬åŃ£ å¥¥æŀĹåĮ¹åħĭè¿ĲåĬ¨ä¼ļ
è´© åĶ®
ä¹Įé²ģ æľ¨
G P
Ġ çĻ½
çļĦ åįĹ
éĥ¨ ä¸ĭ
ä¸į åºĶ
åĪĨ å±Ģ
å®¶ åºĦ
åĬł æ²¹
ç±³ åĵĪ
æ¡ ¶
æµģ åħ¥
é£İ åĬĽ
ä¼¦ çĲĨ
å½±åĵį äºĨ
éģĩ åĪ°äºĨ
åŁ¹ èĤ²
èĤ¯ å°¼
éħįéŁ³ åĳĺ
éĵ¸ å¸ģ
è´ª æ±¡
C E
èĢ »
è° İ
åıĹ ä½ĵ
12 2
ä¼Ĭ ä¸ĩ
æĬ¤ èĪª
çĮ ©
for m
èĪ¹ èĪ¶
çĤ® å¡Ķ
ri d
æģ¶ éŃĶ
190 8å¹´
åįłé¢Ĩ äºĨ
åĪĽéĢł äºĨ
åĬ¨åĬĽ åŃ¦
çºł çº·
3 ä¾ĭ
çļĦ åĨĽéĺŁ
åľ¨ ç¬¬
ä¸º éĤ»
ä¸Ń æİĴåĲį
å¤§ èĦĳ
æĹ¶ æľī
çĶŁ çĲĨ
å¤ļ è¾¾
ç¾İ èģĶ
æŃ¤ å¤Ħ
è·¯ è½¨
11 6
èµ° äºĨ
èĨ Ľ
æİĮ ç®¡
åįłåľ° éĿ¢ç§¯
ĠC ol
Ġæľ¬ é±¼
çļĦåŁºç¡Ģ ä¸Ĭ
çļĦ è¯Ńè¨Ģ
çļĦ ä»»åĬ¡
åľ¨ åħ¨çĲĥ
åĽ½ éĵģ
åĨħ åĬ¡
å°Ĩ è¢«
éĥ½ å¾¡åı²
æİ¥ æīĭ
éľ ľ
åĵĪ å¸ĥ
re d
æĹĹ èĪ°
æĭīä¸ģ ç¾İæ´²
çħ¤ çĤŃ
æĤī å°¼
l in
ä¸º 5
éĥ¨ åĴĮ
å¸ĥ ä¼¦
ä¸ŃåĽ½ æĶ¿åºľ
on ly
èģĮ å·¥
èİ·å¾Ĺ çļĦ
çłĶç©¶ èĢħ
ä¸»è¦ģ ä¸º
æŃ¦ åĬĽ
è§Ĥ å¡ĺ
le x
193 0å¹´ä»£
ä»ĭ äºİ
æ¼« å¨ģ
è¡Ĺéģĵ åĬŀäºĭå¤Ħ
ç½ļ æ¬¾
çĲĨå·¥ åŃ¦éĻ¢
é©¬åħĭæĢĿ ä¸»ä¹ī
æĢİ ä¹Ī
å¯Įåħ° åħĭæŀĹ
çļĦ ä¸ªäºº
çļĦ çĲĥåĳĺ
ä¸º ä»Ģä¹Ī
ä¸» æĴŃ
åĬ¨ èĦī
éĩĮ çº¦
çĽ® çļĦåľ°
åĲĳ åīį
æ¸¯ æ¾³
12 4
åıª å¥½
ä¹Į åħ¹
åŃ¦çĶŁ ä¼ļ
æ°ĳä¸» æ´¾
å®ĩ èĪª
ç¥Ī ç¥·
sectionĠ end
ä¹Įé²ģæľ¨ é½Ĳ
a j
b ack
çļĦ æŃ£
å¹¶ ä»İ
æľĢ éķ¿çļĦ
é©¬ ä¸Ĭ
11 ä¸ª
ar i
16 ä¸ĸçºª
åĲī éļĨ
éĥ¡ çİĭ
å¼Ģåıĳ åĮº
æłĩåĩĨ çļĦ
èģļ ä¼ļ
æ¬£ èµı
éĽĮ æĢ§
èĲ¨å°Ķ çĵ¦
èµĦæľ¬ ä¸»ä¹ī
çļĨä¸º éĻĨåľ°
èĤ¿ çĺ¤
åĪĨ åĮĸ
å¯¹ å¾ħ
10 2
æĶ¹ æĪĲ
éķĩ å®Ī
äºĶ äºº
æľĿ éĺ³
çļĦä¸Ģ åľº
æ±ī äºº
å¸Ĥéķĩ èĮĥåĽ´åĨħ
æŃ¥ éª¤
50 ç±³
åĲĮå¹´ 11æľĪ
åĤ į
æ²ĥ å¤«
ed ia
çĪ¶äº² æĺ¯
è¯¸ å¡ŀ
æīĢåľ¨ çļĦ
ä¸»æ¼Ķ çļĦ
è¾© æĬ¤
æĥ¯ ä¾ĭ
9 ç±³
E d
Ã ¼
Ġ èĭ¥
Ġ çİ°ä»£
æĹ¶ ä¸º
ä¸ĭ è¡Į
äºļ çļĦ
ä¸ī æĺŁ
ä¿Ŀ å®ļ
åŀĭ æĢģ
æ°Ķ çĲĥ
åħĪ é©±
è¡¥ åģ¿
å¤º åĽŀ
çļĦçī¹ æ®Ĭ
æª Ĳ
S H
j ect
åĩ ĳ
åĨĽ çĶ¨
åĮĹ ç«¯
201 7
çº¦ è®·
æĽ´ å¥½
åıĺ åĬ¨
è¶ħ å¸Ĥ
åĥ µ
ä¸įè¿ĩ åľ¨
é«ĺéĢŁ éĵģè·¯
å¹´è½» äºº
æ·±åľ³ å¸Ĥ
é¥² åħ»
å¯Ĩè¥¿ è¥¿æ¯Ķ
, ,
Ġ æĪĸ
ä¼ º
åĩº åĵģ
èĢĮ æľī
å¾· åł¡
äºļ åĪ©
çĪ ½
çº¦ æĿŁ
åıį æĶ»
åıĳå±ķ åĩº
éŁ³ä¹Ĳ å½ķå½±å¸¦
æ¤į è¢«
èķ ´
çī¹æ®Ĭ çļĦ
åľ¨ åħ¨åĽ½
å¤§ çº²
éĥ¨ ä½ľåĵģ
ä¸ĸ å®Ĺ
é©¬ è·¯
åħ¨ ç¾İ
æĶ¹ è®¾
202 1
11 æĹ¶
ar eĠ
çº¢ å¤ĸ
å°ļ æľī
å±ĭ èĭĳ
åįĪ ç§ĳ
2æľĪ2 4æĹ¥
è¯ł éĩĬ
S C
çļĦ æİ§åĪ¶
ä¸Ń åįĪ
ä»ĸ ä»İ
å¹¶ æŃ¢äºİ
ç¾ ŀ
æĮ ½
âĢľ "
ä¸ī çĻ¾
æį ŀ
èĤ ª
äº¤ äºĴ
æ¢ §
å¸Ī ä»İ
çĻ½ éĩĳ
al e
æĪ¿ åľ°äº§
ç¤¼ ä»ª
éĢļå¸¸ åľ¨
å·¨ æĺŁ
äºİ199 2å¹´
å¸®åĬ© ä¸ĭ
èĦĤ èĤª
f lix
Ġ æ°ĶåĢĻ
çļĦ åı¯èĥ½æĢ§
åıĳ æĸĩ
æ¸ Ŀ
äºĭ åıĳ
äºĭ è¿¹
åĲĪ åħ±
æ²» æĦĪ
æį® ç§°
æĶ¾ å¤§
ä¸¤ä¸ª æľĪ
é¢Ĺ æģĴæĺŁ
ĠåİĨåı² æ²¿éĿ©
Ġ198 8å¹´
å§¿ æĢģ
èĻĲ å¾ħ
éĺ¿åŁºåĿ¦ å¤§åĮº
çļĦ çĽ¸åħ³
çĲ ¦
ä¸ĭ è¯ı
å±± å¯º
åħ³ åį¡
å¢ŀ æı´
åĢĻ è¡¥
åĲĮå¹´ 9æľĪ
äºĮåįģ äºĮå¹´
çļĦå¤§ å°ı
çİ© åħ·
è®¾ç½® çļĦ
å¼ķèµ· çļĦ
ç»ıåİĨ äºĨ
éĺħ åħµ
çĦ¦ èĻĳ
æĭĵ å±ķ
éĽĩ ä½£
ĠM e
åĮĸåŃ¦å¼ı ä¸º
çļĦçī¹æľī æ¤įçī©
çĢĳ å¸ĥ
æĸ°çĸĨç»´åĲ¾å°Ķ èĩªæ²»åĮº
Ġ 20ä¸ĸçºª
ä¸Ģ æĹ¶
è¢« èªīä¸º
è¿ĩ å¤ļ
æĪĺ æľº
ç±³ åĭĴ
éĩį åıł
æł¼ ç½Ĺ
éĵģ è¾¾å°¼
åıª ä¼ļ
æŃĮ èĪŀ
è¯Ħ éĢī
èĬĤçĽ® ä¸Ń
çĸĳ ä¼¼
æ¥ļ åĽ½
æĽ¹ æĵį
å¸ĪèĮĥ åŃ¦æł¡
å¤ļå¹´ æĿ¥
åĢ¡ å¯¼
æĸĩèīº å¤įåħ´
åįıåķĨ ä¼ļè®®
illi am
B E
w w
Ġ å¥¹
Ġ ä¸ĩåİĨ
åľ¨ 20ä¸ĸçºª
äºº æŃ»äº¡
æĹ¥ åĨħ
åĲİ éĿ¢
è½ ¶
ä¸ī çŃī
åħ¨ æĹ¥
éĺ¿ æĸ¯
åįķ è½¦
å¤« æĸ¯åŁº
èĳĹ çļĦ
æ±Ł åİ¿
æ²¡ æĶ¶
æŀĦ æĥ³
èĲ¨ æĳ©
æĹ© å·²
å¾·åĽ½ çļĦ
éĽĦ æĢ§
et t
å®³ æĢķ
ç¿» åĶ±
æ»ĳ åĨ°
æĹģ è¾¹
çĪ±å¥½ èĢħ
åİķ æīĢ
6 å²ģ
è¯ µ
ä¸į åĲ«
ä¿ ©
åĪĨ æ³Į
åĨĽ æĶ¿
åĮĹ åĮº
çĶµ ç«Ļ
èĤ ½
åħĥ èĢģ
æīĭ çļĦ
éĴ ŀ
äºĶ ä»£
éĥ¨åĪĨ åľ°åĮº
å®Ĺ åº§
æ¾ ľ
æĲ ģ
ä¹ĭåĲİ åľ¨
æĺ¯ä¸Ģ æĿ¡
è¿ģ åĪ°
çīĽ é¡¿
çļĨ æľī
èĿ ´
190 7å¹´
éī´ å®ļ
6 æĹ¶
Ġ 10æľĪ
çļĦ æĸĩç«ł
æĸ¯ å¾·
ä¸į çŁ¥éģĵ
è¢« æĮĩ
éĽ ı
åĬł ç´¢
201 2
å¤© åľ°
æ¡ ¦
è¾¾ ç§ĳ
é» Ķ
èģĮ æĿĥ
èĦ Ĩ
å¯Ĩ éĽĨ
èĩ´ ä½¿
æ¯ĶèµĽ çļĦ
le t
ro p
è¯ĳ ä½ľ
9æľĪ2 8æĹ¥
æĺ¯ä¸Ģé¢Ĺ æģĴæĺŁ
æİ© æĬ¤
çķħ éĶĢ
ä¸ĵç§ĳ åŃ¦æł¡
èĿ´ èĿ¶
Ġ éļıèĳĹ
æĹ¥ åľ¨
æ³ ¼
åŃ¦ ä¸ļ
åħ¶ éĹ´
æ³ķ æĭī
æĸ° éĺ¿åŁºåĿ¦å¤§åĮº
åĮĹ æ¬§
å±± ä¸Ĭ
æĢ» åĨ³èµĽ
åıĺ å¼Ĥ
ä¼ĺ åĮĸ
ä¸ĢçĽ´ åĪ°
ç¦»å¼Ģ äºĨ
å¦Ī å¦Ī
æĳĨ èĦ±
æīĢéľĢ çļĦ
? ãĢį
Ġ åĲĦ
Ġ åŃ¦æł¡
åľ¨ è¿ĻäºĽ
äºº éģĵ
åĲİ å¤ĩ
é«ĺ å°Ķå¤«
ä¸¤ åľ°
ä¸¤ å±Ĥ
çº¦ 4
åħĥ çļĦ
è¯Ń ç³»
æĽ´ é«ĺçļĦ
æ¯ı æľĪ
åı¯ä»¥ ä½¿çĶ¨
åħ« ä¸ª
å®Ĺ å®¤
éĿĴ å±±
å¤ı æľĹå¾·
æĥ³ åĪ°
åĽłä¸º å®ĥ
èµ« é²ģ
è®² åº§
as e
çĶŁçī© åŃ¦å®¶
æ´ŀ ç©´
æª Ģ
å«ģ ç»Ļ
å±¥ è¡Į
C o
V ID
å ļ
åĨ ¤
çī ¡
ä»¥ 4
æ± ¾
åįĹ éĿ¢
éĺ¿ èĲ¨
éĴ ī
éĽ· è¯º
èİ± åħĭ
åĽ½éĻħ èµĽ
æĳ© æ´Ľ
æŀª ç®¡
äºĨä¸Ģ é¡¹
éĺ¿å°Ķ åıĬåĪ©äºļ
èµĽäºĭ ä¸Ń
å¾·åħĭ èĲ¨æĸ¯å·ŀ
å·´æĭ¿ é©¬
Ġ åĲįç§°
Ġ éļıçĿĢ
åĴĮ æĹ¥æľ¬
åŃĲ åĴĮ
èİ º
é«ĺ å®Ĺ
äºļ é©¬
è¿ĩ æĿ¥
è½¦ äººæ¬¡
ç³ Ł
çº¿ æĺ¯
æ¸¯ åı°
in i
åıĪ ç§°ä¸º
åİ» äºĨ
å¾Ī å®¹æĺĵ
è¯ģ ä¹¦
ä¹¡ éģĵ
es Ġ
åĺ ²
æĬĢæľ¯ çļĦ
æķĮ åĨĽ
åĽº ä½ĵ
å¢ĵ åľ°
è±ª åįİ
æĺİå°¼èĭıè¾¾ å·ŀ
e p
çļĦ é¦Ļæ¸¯
è¡Į æĿİ
æĬ ¹
å¯¹ æĪĺ
èĩª ä»İ
æľĢ å¿«
èĪ ľ
åı° éĵģ
åº¦ è¿ĩ
åħ¨ æ°ĳ
èĲ¨ è¯¸å¡ŀ
æ³° å±±
äºĨä¸Ģ åº§
ç¨İ åĬ¡
è´¢æĶ¿ éĥ¨
5 æĹ¶
Ġ 186
çļĦ çĬ¶æĢģ
ä¸Ĭ æĺ¯
æŀ ķ
ä¹ĭ æīĢä»¥
æĸ° ä¼ļ
201 0
å²Ľ å¼ıæľĪåı°
åĳ½ ä¸Ń
ä»Ĭ å±ŀ
æ¤ °
èľ ĺ
èĿ ĩ
çªĹ åı£
å«Į çĸĳ
åĬłåĪ©ç¦ı å°¼äºļ
ĠE x
èĥ° å²Ľ
P P
Ð ½
çļĦ çİ°è±¡
æĿ ĸ
åĲİ äºİ
åĩº èī²
åĪĨ è¾¨
é¦ Ī
åŃĲ ç§ĳ
æĪĺ ç¥ŀ
éĩį åŀĭ
å®ī å®ļ
ç³» æķ°
æİ¥ çº³
æŀĹ ä¸ļ
æīĭ æĮģ
å¤Ħ åĪĨ
ç¬¬ä¸Ģ åŃ£
æ¸ħ æ´ģ
æĿĳ çļĦ
æ¬§ ç¾İ
æ¡Ī çļĦ
å»ºçŃĳ ç¾¤
åģĩ è¯´
åŃĶ åŃĲ
æ´»è·ĥ äºİ
è¯¥çľģä»½ä¸ºæ³ķåĽ½ åĮĹéĥ¨
åĬłåĭĴæ¯Ķ æµ·
E Ġ
Ã Ń
åĪ° æĿ¥
åĪ© æ¶¦
çĶµ æºĲ
åº¦ åģĩ
å¤ĸ æĺŁ
ç±³ æĭī
æİ¥ åı£
éĩĳ éĴ±
é¦ĸ è½®
å¼ł åŃ¦
ä¿® çŃĳ
ä¼¯ æģ©
æ½ Ł
è¿ľ çļĦ
æĺ¥ èĬĤ
åįĹåĮĹ æľĿ
å¼ºçĥĪ çļĦ
é£ĵé£İ ä¸Ńå¿ĥ
èħ¾ è®¯
Ġ la
çļĦ çĲĨè®º
åľ¨ åľ£
åľ¨ 2005å¹´
è¯ Ľ
åĩ ¿
èĢ ¿
ä¸» æľº
ä»£ è¨Ģ
çŃī äººçļĦ
ç§į åĬł
æ°´ åĬĽ
å·´ è¾¾
å·´ åĵĪ
èį Ķ
ç»´ çī¹
åİĨ ç¨ĭ
è¿ĺ æ²¡æľī
an c
çļĦä¸Ģ ç³»åĪĹ
æĿİ æ°ı
ä¾Ľ æ°´
çĪ¶ åŃĲ
å³ Ļ
åĲĮå¹´ 8æľĪ
çģµ é¡¿
æķ°æį® åºĵ
æī© åħħ
æ°ĳä¸» ä¸»ä¹ī
åįļçī© éĻ¢
å¤ĸäº¤ åħ³ç³»
çĽ¸å¯¹ è®º
ä¹ĥ èĩ³
å¾·éĩĮ åħĭ
AK B48
çİĭå®ī çŁ³
Ġ 1990å¹´
åĪ ĥ
ä¸į åĲĪ
åı¯ æĮģç»Ń
ç¾İ æĭī
æİ¥ åĪ°
äººåı£ çļĦ
å¤Ħ å¤Ħéķ¿
ä¸ĵ å±ŀ
å¤į åĩº
åĽŃ æŀĹ
æ¥ ·
å¡ŀ æĸ¯
éŁ³ä¹Ĳ èĬĤ
æ²¿ èĳĹ
æĽ¿ è¡¥
æºª æµģ
æĪ´ ç»´
ç¡¬ ä»¶
æ£Ģå¯Ł å®ĺ
Ġ198 9å¹´
ä¸ºè¾Ĳé³įé±¼çº²é² Īå½¢çĽ®
ç®¡æİ§ ä¸Ńåıĳçİ°
8 æľĪ15æĹ¥
çļĦ åī¯
çļĦ é¢Ĩå¯¼
ä¸º çĥŃå¸¦
æĺ¯ å·´è¥¿
åĴĮ åľ£
çĶ¨ åľ¨
æīĢ ä½¿çĶ¨çļĦ
èĬ ľ
åŀ Ħ
å¥¥ å§Ķä¼ļ
å¾Ī é«ĺ
ä½ı æīĢ
æĽ¼ åĵĪ
åĩł ä¸ªæľĪ
åĪĹè½¦ çļĦ
å®ĮæĪĲ åĲİ
æķĮ å¯¹
æ¤Ń åľĨå½¢
å¤ĸåĽ´ èµĽ
) )
7 0å¹´ä»£
çļĦ çĲĥéĺŁ
åľ¨ æľ¬
åľ¨ ä¹Įåħĭåħ°
åľ¨ 2016å¹´
äºº è¢«
åĴĮ é©¬
äºĨ èĩªå·±çļĦ
åĪĨ éĺŁ
ç¬¬ 15
in clude
å¼ł å®¶
åĪĴ åĪĨä¸º
è¿ŀ ä¸²
ä¾Ľ çĶµ
æ´Ľ æŀĹ
çĶµå½± éĻ¢
çĻ» åł¡
è¿ª å°Ķ
æ¬§æ´² åĽ½å®¶
ãģ Ħ
ow er
å½© èĻ¹
èİ² èĬ±
é«ĺçŃī æ³ķéĻ¢
æĹ¢ æľī
å¤ļæł· æĢ§
Net flix
å½ķéŁ³å®¤ ä¸ĵè¾ĳ
çļĦ é»ĳ
çļĦ çīĪæľ¬
å¤§ å±łæĿĢ
èĢ Ĩ
ä¸į æ¸ħæ¥ļ
æ°ĳ äºĭ
æĥ ¹
10 æĹ¶
10 ä¸ĩ
äºĶ å¤§
æĬ¥ åĲį
ä¿Ħ è¯Ń
13 4
éĵģè·¯ çļĦ
æ¸© åĴĮ
åºĨ ä¸ĭ
é³ Ĺ
äºĮåįģ ä¸Ģå¹´
èµŀ èµı
190 3å¹´
å±ı å¹ķ
ä¸Ģæ®µ æĹ¶éĹ´
èľĺ èĽĽ
çļĦ æĶ¿çŃĸ
ä¸Ģ çīĩ
ä¹ĭ å®¶
å°Ĩ æĿ¥
æ°´ æ³¥
çĽ® åĩ»
æıĲ éĨĴ
åıĸ åĲĳ
åħĪ è¡Į
æ´¾ å¯¹
è¿ª åħĭ
ic a
åºķ éĥ¨
21 ä¸ĸçºª
èĨ Ŀ
ä¹ĭéĹ´çļĦ åħ³ç³»
ä¸ŀ çĽ¸
A pp
r ans
Ġ 3æľĪ
å¹´ ä»½
ä¸Ģ çº¿
äºº å¯¹
çŃī åĲĮ
åħ¨ æĸ°
ä»¬ çļĦ
æĻ® é¡¿
é¥ ·
æŀģ åħ¶
æļ´ éĽ¨
åĨ² éĶĭ
op h
av id
å¼ĹéĽ· å¾·
æ¿Ĵ åį±
% )
ä¸Ģ å¥Ĺ
äºº åĬĽ
æĺ¯ çĳŀå£«
è§ ħ
ä¸į å¤Ł
è·¯ ä¸İ
ç«Ļ åīį
èµ· èįī
æŃ¦ çĶ°
å®Į æ¯ķ
14 2
åģľ åĬŀ
å¹² æĹ±
ro up
ãĤ ¹
ri g
äºİ18 4
çº¿è·¯ åı£
æĴŀåĩ» åĿĳ
R S
g round
Ġ åĺīéĿĸ
åľ¨ 2007å¹´
ä¸Ģ åĿĹ
åŃ µ
åĮ ¡
èĭ ·
ä¹Ł ä¸İ
åħ¨ åŀĴæīĵ
æĢ» åħµ
åİ¿ å¸Ĥ
å°¼ ç§ĳ
ä¿¡ æīĺ
æ¨ Ĭ
åħī çļĦ
åĨį çĶŁ
æŃ¦ æĺĮ
åħ· åºĨä¸ĭ
é¡¿ æ¶ħ
åĪĩ æĸŃ
ä½© å°Ķ
èĤ¯ èī²
ir l
æĢª çī©
å¸¦æĿ¥ äºĨ
èĿĻèĿł ä¾ł
M y
çļĦ æľĢå¤§
åĪ° è®¿
çĶ± ä¸ŃåĽ½
åĬł å¯Ĩ
éĢļ ç§°
åįİ æ²Ļ
æīĭ ä¸ĭ
éĹ¨ å¤ĸ
åŃĹ ä½ĵ
çĿ ¿
åı¯ä»¥ è¢«
æĶ» éĻ·
åįĬ åĨ³èµĽ
åį´ è¢«
ãĤ ĵ
èĩªåĬ¨ åĮĸ
æ°¯ åĮĸ
æ¸Ĺ éĢı
æĳ©æ´Ľ åĵ¥
5 åı·
Ġ ä¿Ħç½Ĺæĸ¯
Ġ åĶĲ
çļĦ ç¬¬ä¸Ģä¸ª
ä¸º Ġ
æ² «
åĩº å¢ĥ
ä¿ ¯
é© ¿
å¹³ åİ¿
èİ ¹
æĢ» ç½²
éĥ½ è¦ģ
éĺ¿ åįľ
åŀ ©
å¨ Ħ
å¯¼ ä½ĵ
é² ¶
åħ« å¼º
åįł æľī
åį¢ æ¯Ķ
äºĭä»¶ ä¸Ń
ãĢī .
è¿ĩåİ» çļĦ
å¸ĥé²ģ æĸ¯
ĠC o
Ġw ith
å¥¥åħĭ è¥¿
è¯¥çī©ç§įçļĦ æ¨¡å¼ıäº§åľ°
çļĦ å¼Ģåıĳ
ä¸Ń ä½¿çĶ¨
æĺ¯ éĢļè¿ĩ
å¹¶ éĢļè¿ĩ
å¸ĥ è¾¾
æ¯Ķ 1
åı· åı¬
åįķ è¯į
å¤« å¦»
è¿ĳ æľŁ
è½¬ è¿Ĳ
å¥ĸ åŃ¦éĩĳ
åĨĻ äºĨ
å¤® è§Ĩ
æħ Į
å¼Ĺ èİ±
èģļ å±ħ
åĪĽä½ľ äºĨ
æĬµ åĪ¶
èĦ± ç»´äºļ
èĴĭ ä¸ŃæŃ£
å¹¿è¥¿ å£®
æķĻç§ĳ æĸĩ
èĤ¯å¡ĶåŁº å·ŀ
s c
å ¬
Ġ èī¾
çļĦ åıįåºĶ
åľ¨ 2019å¹´
åľ¨ 2017å¹´
å¥ ¢
æĹ¶ è£ħ
æ² ¾
æµ Ĭ
è½ ¿
åĪĨ ä¼ļ
å¤ļ ç±³
åŃĲ åŃĻ
åĽĽ åĲį
è¿ĺ å°Ĩ
ä¸ĸçķĮ å¤§èµĽ
å¼º è¡Į
å®Į é¢ľ
æİĴ çĲĥ
ä¾¿ ä¼ļ
æ¯Ĵ æĢ§
éĢĥ èĦ±
ä¸ľåįĹ æİ¥
çķª èĮĦ
çİ» åĪ©
åį°åľ° å®ī
æĽ¼åĵĪ é¡¿
T wit
Ġ ä¸Ģä¸ª
çļĦ ç»Łæ²»
ä¸ĭ å±ŀçļĦ
å¸Ĥ çº§
éĩĮ å°Ķ
æľĢ éķ¿
äºĭ çī©
è½¦ åİĤ
12 3
çĽ´ æµģ
èĳĹ ç§°
æ³¢ å¾·
è¶³ åĪ©
æķħ å±ħ
æ·± æ°´
å°Ħ æīĭ
åŁĥ æĸ¯
å¼Ĥ æĢ§
èį· é©¬
è®¢ è´Ń
èĨ ı
æī¬ å·ŀ
èĹ¤ åİŁ
ä¸ĩäºº æ¬¡
çĲ¼ æĸ¯
å¹½ é»ĺ
ç° §
å·´æĭī åľŃ
Ð ¸
çļĦ èĢģ
è¡ ŀ
å¤§ çķ¥
æī ³
åĴ ¬
åĴĮ æĶ¿æ²»
æĿ¥ äºĨ
æĪĺ çº¿
èĢħ åľ¨
åħ³ å¿ĥ
åĽĽ åĳ¨
éľ ī
çĭ Ļ
æłĩ çŃ¾
å¼Ģå§ĭ åĲİ
åħī å¤į
è£ħ æľī
ä»£è¡¨ æĢ§
æĶ¿æ²» åįıåķĨä¼ļè®®
åī¯ éĻ¢éķ¿
è¡Ĺ åºĦ
ä¸Ńå¤® æĶ¿åºľ
æī¿ åıĹ
åħħ å½ĵ
æī¾ åĪ°äºĨ
éģ¿ éļ¾
éĤª æģ¶
p ort
Ġ æııè¿°
ä»ĸ å·ŀ
201 4
æŃ£ å½ĵ
202 2
ç¼ĸ æĪĲ
åĪĽ åĪĬ
å¾® åĪĨ
5æľĪ 20æĹ¥
å¤ĸäº¤ éĥ¨éķ¿
ç¼ĵ è§£
åĲĲ èķĥ
åı°é£İ èŃ¦æĬ¥
M ac
Ġ åħĥ
åľ¨ æŁĲäºĽ
ä¸Ģ ç»Ħ
ä¼ļ åĲĪ
ä½ľ å®¢
åĪĨ éĥ¨
å¤ļ éĿ¢ä½ĵ
çŃī ä»·
è·¯ éĿ¢
åĽĽ ä½į
æ¼Ķ ç»İ
åĭ ¿
åħ¬éĩĮ å¤Ħ
å¨ģ çī¹
çª ¦
çħ ½
è¿ª åįĹ
è½» åŀĭ
4æľĪ 30æĹ¥
çļĦäºº å£«
æįķ èİ·
æĶ¶å½ķ äºİ
12æľĪ2 5æĹ¥
6æľĪ2 8æĹ¥
çĶŁéķ¿ åľ¨
ä¸¤å¹´ åĲİ
ĠC l
ç¢° æĴŀ
çļĦ åĴĮ
å¤§ å°Ĩ
åĴĮ åħ¶
å¤ļ æĿ¡
åĪ© æ¯Ķäºļ
å°Ĩ æŃ¤
åľº é¦Ĩ
èĭ± èģĶéĤ¦
ç¾İåĽ½ éĻĨåĨĽ
åıĤ æĪĺ
å¸¸ æķ°
çķĮ éĿ¢
æº ¢
ç¬¬ä¸Ģ ä»£
æĿİ åħĭ
è¯Ħ çº§
çĭ¬ è£ģ
åıĳçİ° äºİ
èĴĤ äºļ
æľºæŀĦ çļĦ
åĪº æĿĢ
ãĤ ¤
åıĭå¥½ åŁİå¸Ĥ
v el
Ð µ
åħ ĸ
ä¸Ģ æī¹
åĴĮ æĹłçĹĩçĬ¶æĦŁæŁĵèĢħ
ä¸į çĶ¨
æ´ ¼
åħ¬ æīĢ
å¼Ģ æĭĵ
åı¯ æĥľ
å°ı æıĲçĲ´
éĩĳ éĴŁ
äº§ éĺ¶çº§
éĹ¨ çļĦ
éĴ Ļ
èĮ ľ
çļĦä¸Ģ åĳĺ
ä½ľä¸º ä¸Ģä¸ª
æķħ ä¹¡
æ³° ç½Ĺ
æł¸ ç³ĸ
ä¸¾åĬŀ äºĨ
æĪĴ ä¸¥
åįĵ è¶Ĭ
åĽ½å®¶éĺŁ åıĤåĬł
æŃ£ç¡® çļĦ
Mic rosof
åĲīéļĨ åĿ¡
Ġ éķ¿
æĺ¯ å¥¥åľ°åĪ©
åľ° è¡¨
æ¸ ¤
æ³ķ è¥¿æĸ¯
æ°ĳ çĶŁ
åĽł åľ¨
ä¸ī åı·
201 5
ç§į ç§į
é¦ĸ éķ¿
äº¦ æĽ¾
çļĦä¸Ģä¸ª åĮº
ä¼ĺ å¼Ĥ
10æľĪ 10æĹ¥
å®ĭ ä»£
éŁ¦ ä¼¯
åºĶçĶ¨ ç¨ĭå¼ı
æĬĺ åıł
å®īè£ħ åľ¨
å¤§è§Ħæ¨¡ çļĦ
æŁ´æ²¹ æľº
Ġ193 7å¹´
è°¥ åı·
æĮīå¯Ł åı¸
ä¹Įåħ¹ åĪ«åħĭ
( ãĢģ
2 æľĪ1æĹ¥
r en
çļĦ çºªå½ķ
çļĦ é£İéĻ©
çĶ Ħ
çİ º
ä¼ļ ä¸İ
çĶŁ ç´ł
å¹¶ è¦ģæ±Ĥ
å¤ļ çĵ¦
æīĢ çŁ¥
ä½Ĩ æľª
æ¯Ķ èµ·
ç»ĵ æĻ¶
å¸Ī çĶŁ
å®Ī åĨĽ
ç§Ģ åĲī
ç»ĵæĿŁ äºĨ
èµ¤ éģĵ
ç¨İ æĶ¶
ir st
åı¥ è¯Ŀ
çĽ¸ä¼¼ çļĦ
æĸ¯èĴĤ èĬ¬
ç° ¿
ç¦ıå°Ķ æĳ©
ç§ĳç½Ĺ æĭīå¤ļ
èĥ°å²Ľ ç´ł
C Ġ
O K
çļ Ĥ
æł Ī
ä¸į å½ĵ
å¾· å·ŀ
å±ŀ çī©ç§į
æİ¥ çĿĢ
åħĥ ä»¶
æ¸¯ å²Ľ
ç»ĵ å°¾
al k
ç¬¬åĽĽ æ¬¡
ç¬Ķ åĲį
å¤ıåŃ£ å¥¥è¿Ĳä¼ļ
åİļ åº¦
åĽ½åħ± åĨħæĪĺ
çŁ³åĻ¨ æĹ¶ä»£
ä½¥ äºĭ
çİĽæł¼ ä¸½
è¾ ľ
çĶŁ èĤ²
å¤ļ å¹´çļĦ
åīį æľŁ
ä¸ī æĿ¡
ç¥ ģ
ä¸¤ èīĺ
åİ¿ åĴĮ
åİŁ ä½ľ
å±ŀ èĤīé£ŁæĢ§
åıĤ åĨĽ
æĦı æĦ¿
çĻ» å±±
çĬ¶ çļĦ
è´¥ ç»Ļ
å½Ĵ è¿ĺ
éº¦ éĩĳ
il la
èİī ä¸Ŀ
çĽ®æłĩ æĺ¯
ĠP h
çļĦ ä»·æł¼
å¹´ ä»ħ
åĩº åħ¥
åīį åİ»
è¯¥ å»ºçŃĳ
åİĨ æĹ¶
æĮĩ åįĹ
æº ī
æĻ® åĪ©
æ®µ æĹ¶éĹ´
æĪı éĻ¢
ç¤¼ åłĤ
å¸ĥèİ± æģ©
åĢ¾åĲĳ äºİ
ĠH e
Ġp ro
Ġ å¤ĸ
ä¸º çķĮ
ä¸Ń çļĦä¸Ģä¸ª
åŃ¦ è¯´
æ¸ £
è¢« ä¿ĺ
ç¾İ é£Ł
è½¦ è·¯
åħ¨ èº«
æ¸¸ çİ©
å¹³æĸ¹ èĭ±éĩĮ
ä¸»è¦ģ ä»¥
èĩ´ æķ¬
æľŁéĹ´ çļĦ
æ¸© æļĸ
çĽĳ æİ§
è½» æĿ¾
7æľĪ 7æĹ¥
éĢĥ å¾Ģ
è¡° èĲ½
æĭ¼ éŁ³
ens is
, (
A I
çļĦ å±ħæ°ĳ
æĺ¯ ä¸ĸçķĮä¸Ĭ
ä¹ĭ æĹħ
å¹¶ æĬĬ
èĢĮ å·²
è¯¥ é¡¹çĽ®
åºľ çŁ¥åºľ
éĺ¿ åĭĴ
ä»İ ä¸Ń
æ¶ ©
æ¢ Ĺ
æīĵ åĩº
åįĥ å¹´
çĮ ¿
åħ¬å¸ĥ çļĦ
å¹¿æĴŃ çĶµè§Ĩ
ä¸īåįģ åĽĽå¹´
åĩ¡ å°Ķ
çİĩä¸º 0
ç¥ŀåľ£ ç½Ĺé©¬å¸ĿåĽ½
èĶ¬ èıľ
H e
çļĦ è®°è½½
çļĦ æĢģåº¦
åľ¨ éŁ©åĽ½
ä¸Ĭ è¡Į
å®¶ éķ¿
èĢĮ åĩº
åįķ çº¯
éĽĨ æĪĲ
å¥¥ å¼Ĺ
è§£ æŀĲ
ç¦» èģĮ
çłĶç©¶ å®¤
ç¦ı åħĭæĸ¯
æīĺ åĭĴ
é¢Ħ èµĽ
å»¶ æľŁ
çļ® åŁĥå°Ķ
re am
è¯ĳ åĲį
å¥³æĢ§ ä¸º
ot t
ab le
è¹ Ħ
ç«ŀæĬĢ åľº
å½Ĵç±» ä¸º
ç§įåĬł è¯į
M e
P G
ã Ħ
ä¸Ń æĸ¹
ä¹ĭ äºº
è¥¿ æ±ī
ä¸ĭ è®®éĻ¢
éĩĮ å¸Į
æĸĩ æĸ¯
è¯¥ å¤Ħ
ç±» æ¡Īä»¶
åı¯ä»¥ è¿½æº¯åĪ°
æ¸ħ éĻ¤
è¿ŀ éĶģ
è®¤ä¸º è¿Ļ
ä¿® ç¼®
çļĦä¸Ģä¸ª åİ¿
ç¾¤ çļĦ
å© ¿
æĺ¯ä¸Ģ æīĢ
11æľĪ 11æĹ¥
ç»§æī¿ äºĨ
åıĹæ¬¢è¿İ çļĦ
! !
Ġ éĻ¤
Ġ ä¹ĭåĲİ
åĴĮ æĸĩåĮĸ
å¸Ĥ äººæ°ĳæĶ¿åºľ
èµĽ ä¼ļ
ç¦ ½
åĽĽ å¼º
åı² éĥ½
æĽ´ å¥½çļĦ
ä¸ĩ èĭ±éķĳ
an a
ç»Ń çº¦
å¼º å¥¸
è§Ħ å¾ĭ
ä¿® æĸ¯
è§ģ çļĦ
çĶµå½± ä¸Ń
ä¿Ħ æ¯Ķäºļ
å¾Ī åı¯èĥ½
at a
å¾ģ æĶ¶
éŁ© æ°ĳåĽ½
çī¹åĪ« æĺ¯åľ¨
ç©Ĩ å°Ķ
å¥ī å¤©
äºİ199 1å¹´
æĬ¢ åĬ«
è®²è¿° äºĨ
æĳ©æīĺ è½¦
åŁĥå¡ŀ ä¿Ħæ¯Ķäºļ
% ãĢģ
6 0å¹´ä»£
çļĦ æ¼Ķåĩº
åĩº åİ»
åĪĨ åıĳ
ä¸ĭ è®¾
å¯¹ æµģ
å¼Ģ å¾Ģ
ç¾İ çļĦ
äºļ ä¼¯
ä¸¤ å®¶
åºĶ æĢ¥
åıĺ ä½ĵ
çĻ½ åŀ©
æĦŁ åħ´è¶£
æ°ı çļĦ
éŁ³ä¹Ĳ åī§
åº· å¥Īå°Ķ
åºĦ æĿĳ
è½» è½¨
äºĮåįģ ä¸īå¹´
28 0
è°Ī è¯Ŀ
ĠW orld
å¾Ĺç¥¨ çİĩ
å¥¥åħĭè¥¿ å¡Ķå°¼å¤§åĮº
8 åħ¬éĩĮ
q ue
çļĦ æĸĩåĮĸ
äºº åıĹä¼¤
æ³ Ĺ
åĬ¨ çļĦ
éĩĮ å£«
åĬł è£ħ
æľĢ å¥½
æį į
éĺ¿ åħĭ
è¿ĳ åį«
ä»¶ äºĭ
å®¢ åľº
æ¦ ķ
ç²¾ éĢī
è¶³çĲĥ åįıä¼ļ
åĩ¯ çī¹
189 8å¹´
ç»¼åĲĪ æĢ§
åı²èĴĤ èĬ¬
äºļåĪ© æ¡ĳ
å¹¿è¥¿å£® æĹıèĩªæ²»åĮº
O W
R NA
S D
æĺ¯ ä¸İ
å¤§ éĥ½ä¼ļ
åĲİ åĨį
âĢ »
ä½į ç´ł
æĸ° æķĻ
é«ĺ åİĭ
å¾Ĺ å¥ĸ
æĭī èĦ±ç»´äºļ
é¡ ½
ä½Ĩ ä¹Łæľī
èĭ± ä¹Ŀ
æŀĹ ä¸Ń
çĽ´ çº¿
åķĨ ä¼ļ
å¤± è¯¯
æĻ¯ åĮº
ç¤¼ çī©
æķ£ æĸĩ
ä¸ĢèĪ¬ çļĦ
æļĤ æĹł
åŃĶ æ³°
è·¨ æĢ§åĪ«
åĽ° å¢ĥ
çļĦçī¹ æĢ§
è§Ĥå¯Ł åĪ°
å¡ĳ éĢł
æ°¨ åŁº
éĹ¯ åħ¥
é¡¿æ¶ħ èĮ¨åħĭ
3 åı·çº¿
çļĦ æĢ§
çļĦ çŁ³
éĥ Ŀ
åħ¬ åŃĲ
ç¬¬ 14
ç¾ ģ
èĩ³ 4
åįģ ä½Ļ
åįİ å·ŀ
å¸¸ çĶ¨çļĦ
çģ« çĦ°
ä½İ åľ°
æĢ»ç»Ł éĢīä¸¾
åĪĨåĪ« åľ¨
çĶŁäº§ æĢ»åĢ¼
æĭĽ çĶŁ
åĽ° æī°
æĭĴç»Ŀ äºĨ
æĮĳ éĢī
æłĩå¿Ĺ çĿĢ
å½» æĸ¯çī¹
æĬ½ è±¡
æĬ« éľ²
æĶ¹å»º ä¸º
b le
n et
u al
Ġ ç§ĳ
ä¸İ åĲĮ
è½¦ æ¬¡
ä¸¤ åº¦
å½± éĽĨ
éĩı äº§
å¥¥ å¸ĥ
æł¡ æĸ¹
åĪ« äºº
æĳ ¸
å¸Į ä¼¯
åī¯ æķĻæİĪ
æĶ» è¯»
ä»į æľª
é¢Ħ è¨Ģ
ç¥ĸ åĽ½
é¦ĸæ¬¡ åľ¨
éªĳ å¸Ī
èŃ¦å¯Ł å±Ģ
åĪĽç«ĭ äºĨ
å¿½ çķ¥
åıĪåĲį BD
ä¸»æīĵ æŃĮ
B R
Ġ èĭı
Ġ 100
æĹ¥ åľĨ
çĶŁ æ®ĸ
ä½Ĩ ä»ĸä»¬
ä½¿ é¦Ĩ
ç§ĳ ç»´å¥ĩ
åįİ ä¸Ń
è§Ĩ éĩİ
æĥħ äºº
èĻ Ķ
æ¸ħ æľ«
åľŁ æľ¨
åŃĻ æĿĥ
åĲĪå¹¶ èĢĮæĪĲ
os e
å¡« è¯į
éªĳå£« åĽ¢
ä½įäºİè¯¥åĽ½ åĮĹéĥ¨
åĵĪå¸ĥ æĸ¯åł¡
Ġ å½ĵæĹ¶
ä¸º formula
æľī æĿĥ
ä¸ľ æŃ£
ä¸ľ åį°åº¦
201 1
èĲ į
åŁº éĥ¨
çº¦ 5
çº¦ æĹ¦
æĪĸ è®¸
æŀ¶ é£ŀæľº
æĿ¯ åĨłåĨĽ
åºĶçĶ¨ ç¨ĭåºı
im e
åİŁæľ¬ çļĦ
å±ķç¤º äºĨ
åŃ¤ ç«ĭ
ä¸ĳ éĹ»
å¼Ĺæĭī åŁº
2 æĹ¶
L L
M 1
b it
Ġ æ±ī
Ġ 25
Ġ æĿ¨
åľ¨ å¤ĸ
ä¸Ń åı¶
åĴĮ ä¸ī
20 ä¸ª
ä¸į åŃĺåľ¨
æŀ ¯
æ¸ Ń
å¼Ģ æŀª
å¹³ æĹ¥
æİ¥ ç§į
åĮħ è£¹
åı¤ ç½Ĺé©¬
ç¼ĸ è¯ĳ
æ³ķåĽ½ çļĦ
å¤± åĪ©
å¤± æľĽ
is Ġ
åıĳè¡¨ å£°æĺİ
è¥¿éĥ¨ çļĦ
è¿Ļæĺ¯ åĽłä¸º
å¯¹åºĶ çļĦ
æł¼é²ģ åĲīäºļ
Lin ux
èĦĬæ¤İ åĬ¨çī©
- ,
5 åĲį
Ġ çłĶç©¶
Ġ ä»ĸçļĦ
åį ¤
å¤§ åĲį
æķĻ åıĭ
çģ ¶
åįķ è¡Į
çīĩ çļĦ
ä»½ åŃĲ
ar a
èĩªå·± æĺ¯
éĻĪ åĪĹ
æĤ ¨
æīį æĺ¯
æ°ı æĹı
æ£Ģ è®¨
éĶ¦ èµĽ
çī§ åľº
å½¼å¾Ĺ åł¡
åį¯ ç§ĳ
S L
n g
Ġ ä¸ĸçķĮ
Ġ äºĭä»¶
åĴĮ åįĹ
ãĢĭ ;
èģ ĭ
åĬł çļĦ
å¾Ĺ å¤ļ
åħ¥ è¯»
ç«ĭ éĿ¢
é¦ĸ åĳ¨
éĶ Į
å°± å¼Ģå§ĭ
åį¡ æ´Ľ
ä¼ł åĩº
æĶ¿æ²» å§Ķåĳĺ
çĽĽ è¡Į
ç¼º å¸Ń
éĵľ éĶ£
èĭĹ æłĹ
9æľĪ2 9æĹ¥
up er
åıįæĺł äºĨ
å¥¥æĸ¯æĽ¼ å¸ĿåĽ½
åħļç»Ħ ä¹¦è®°
2 ä¸ĩ
M O
ä¸į å¤§
æµ· æĪĺ
å°Ĩ è¿ĳ
å±± ç«Ļ
ç§ĳ å¤ļå°Ķ
å¼ı å»ºçŃĳ
éĥ½ ç»Ł
æĽ¾ å¤ļæ¬¡
æ¸¸ ä¹Ĳ
æĶ¶ çĽĬ
åº§ æ¤ħ
æĬķ è¯ī
åĬ© æīĭ
å¡ŀ çī¹
çĻ¾ å¼º
ç¤¾ä¼ļ ç§ĳåŃ¦
çķĻ å®Ī
æĪĲåĳĺ çļĦ
å·¡ è§Ĩ
ç¨ĭåº¦ çļĦ
4æľĪ2 8æĹ¥
ð« ļ
5 æľĪ15æĹ¥
Ġ ä½ľåĵģ
æ³ķ åħ¸
èĢĮ åıĹåĪ°
çī¹ ç½Ĺ
å¤ļ åªĴä½ĵ
æĸĩ åĩŃ
å°± å·²
æĶ¯ éħį
è½¬ åıĺä¸º
åĽ´ æ£ĭ
åħ´ å¥ĭ
è´¹ åĪ©
çľĭ åı°
å½Ĵ åħ¥
ro id
re t
èĪ¬ çļĦ
éĴŁ æ¥¼
çļĦåľ° ä¸ĭ
äºİ199 3å¹´
ap p
çªĹ æĪ·
çİĩé¢Ĩ çļĦ
ç¯®çĲĥ è¿ĲåĬ¨åĳĺ
å¼ĹæľĹ ä»Ģ
Ġ198 4å¹´
æĺĶ æĹ¥
åĬłé¾Ļ çľģ
1æĹ¥ å¹³åĿĩ
éĺ¿åįľ æĿľ
2 30
3 åħ¬éĩĮ
åľ¨ åľº
ä¸Ń æŃ¢
åĪĨ éļĶ
ç¾ ļ
å¼Ģ åĽ½
æīĢ ç¤º
çĲĥ è¡£
ä¸¤ ç«¯
éĤ ¯
å±ŀ åĲį
æ¼Ķ æĬĢ
åĲĳ åħ¬ä¼Ĺ
åıĹ éĤĢ
å¹¿ å¤§
åıĸ æĻ¯
ä¸ĵ çº¿
æİ¨ ä¸¾
ä¼¯ æĺİ
æĶ» ä¸ĭ
ä¾§ éĿ¢
æ²¿ éĢĶ
æŃĮæĽ² çļĦ
æīĵåĩ» çİĩ
éĢĨ è½¬
æº¶ äºİ
éŃģ åĮĹ
ç¤¾äº¤ åªĴä½ĵ
æĨ ¾
0 Ġ
a il
o on
çļĦ å¹³åĿĩ
æĺ¯ èĩª
æ³ķ åŃ¦éĻ¢
å¸Ĥ è®®ä¼ļ
å¯¹ ä¸ŃåĽ½
é«ĺ æ¸©
æĦ ī
åħ¨ åĬĽ
åİ¿ åĲį
ç² Ł
ç¬¬äºĮ åĲį
å±Ĥ éĿ¢
èŃ¦ å¤ĩ
at or
ä¾Ŀ æ¬¡
èĴĤ æĸ¯
æĸ¹éĿ¢ åĨĽ
è§Ĵèī² æī®æ¼Ķ
è´µ çļĦ
us Ġ
çıį å¦®
æ°ĶåĢĻ åıĺåĮĸ
ä½įäºİè¯¥åĽ½ ä¸ľåįĹéĥ¨
æİ¢éĻ© éĺŁ
æĮīå¯Ł ä½¿
8 Ġ
R ob
l an
p an
« çĹ
Ġ åĽĽ
æĺ¯ çĶ¨
å¤§ åľ°
åĴĮ åĽ½å®¶
å¹¶ åĪĹ
åĨħ å°Ķ
æķĻ å®¤
éĶ ¤
å¼Ģå§ĭ è¿Ľè¡Į
èı ĩ
å±Ĥ æ¬¡
æĿĢ äºĨ
ç®¡çĲĨ å§Ķåĳĺä¼ļ
åĲİæĿ¥ æĪĲä¸º
it ion
ä¸½ çļĦ
æŀª åĩ»
äº¤éĢļ éĥ¨
èģļ åĲĪçī©
ç¼º å°ĳ
åĨ¬ å¤©
éĺ´ æĢ§
çļĦåĲĮ åĲį
Ġst yle
åĽ½å®ī æ³ķ
; "
çļĦ é£İ
çļĦ è§Ħå®ļ
åħ Ģ
åľ¨ ä¸ĢäºĽ
ä¸Ģ åı°
äºĨ å¤§éĩı
è¢« ç§°ä½ľ
æĻ ĥ
çī© ä»¶
ä¸ĸ ä¿Ĺ
å¤ĸ ä¾§
åįİ è£Ķ
å·´ æ¯Ķ
æĹł åĬĽ
åĵĪ å¯Ĩ
å¡Ķ æĸ¯
ar m
åŃĺ æ´»
ic t
åĩºçİ° äºİ
èĥĮ åıĽ
7æľĪ 20æĹ¥
æĬµ å¾¡
èĳ¬ ç¤¼
çŁ¥åĲį åº¦
çĭĻ åĩ»
Ġ è¿Ļç§į
Ġ You
ä¸Ń åįĹéĥ¨
çĶŁ æ¯į
ä¸ľ éĿ¢
éģĵ åħ·
è·¯ æĸ¯
æ°´ æŀľ
åĪĻ æĺ¯åľ¨
åį¡ è½¦
å¸¦ åĽŀ
è§£ åīĸ
å¡Ķ åħĭ
åįĥ åı¶
æ¢ħ åĪ©
æĻļ ä¼ļ
æ¦Ĥ è¦ģ
æķ°éĩı çļĦ
å¹³åı° ä¸Ĭ
æĵįä½ľ ç³»ç»Ł
åįĴ äºİ
æİ¢æµĭ åĻ¨
V i
çļĦ è½¦ç«Ļ
åľ¨ æµ·
åľ¨ 2006å¹´
ä¸Ń åħ´
è¡Į æĢ§
åĩº åĬ¨
æĭī å¤«
åħ± çĶ¨
é£ ĺ
ç½Ĺ æĽ¼
åºĶ ä»ĺ
äº¦ ç§°
å±ŀçļĦ åĬ¨çī©
æłĸæģ¯ äºİ
ç²¾ç¥ŀ çĹħ
ç¯® æĿ¿
æĬķåħ¥ æľįåĬ¡
é©¬åħĭ è¥¿
å±Ĭåħ¨åĽ½ äººå¤§ä»£è¡¨
çļĦéĩįè¦ģ æĢ§
çģĮ æºī
æ»¡æ´² åĽ½
éĩİçĶŁ åĬ¨çī©
å°¼æĹ¥ åĪ©äºļ
) ãĢĭ
çļĦ çĶŁäº§
ä¸Ģ é¦ĸ
æĺ¯ å½ĵæĹ¶
ä»¥ èĩ´
æĹ¶ æīĢ
èĢĮ åħ¶
è¿Ļ ä»½
ä»£ ä»·
å¦ ¾
å¤© æ°´
æ¯Ķ åĪ©äºļ
æ£ µ
åį¡ æĻ®
éĹ¨ ç¥¨
ç¼ĸ ä¸º
ç¬¬äºĮ ä»£
)ãĢģ (
é¢Ħ çķĻ
åħ¼ èģĮ
éģĩ ä¸Ĭ
çĴ §
åĤ¨ å¤ĩ
è´« ç©·
éĻª åĲĮ
å¥ł åŁº
è¯ģåĪ¸ äº¤æĺĵæīĢ
æ¤Ń åľĨ
B r
G N
H z
Ã ³
Ġ åĲİç»Ń
ä¸Ģ å®ļçļĦ
ä¸Ń å±Ĥ
åĴĮ è°Ĳ
ä¼ļ å¯¹
éķ¿ è½´
è¿Ļ å¯¹
æĸĩ æ¡£
èĪ µ
åı° åĲİ
è¡¨ åĨ³
ä½Ĩ è¯¥
åŁİ å·´
æĮĩ åĲĳ
æ°Ķ æ°Ľ
è®© ä»ĸä»¬
åºĨ åħ¸
æ²¹ çĶ»
é¡º ä½į
7æľĪ 31æĹ¥
åĪļ åĪļ
è¥¿åĮĹ æİ¥
ç¨³å®ļ æĢ§
æĬ½ çŃ¾
éĽĩ åĳĺ
è¥¿èĹı èĩªæ²»åĮº
ç¡« éħ¸
" ãĢģ
çļĦ è¯Ħä»·
çļĦ æĿĳèĲ½
åįĹ ç«Ļ
åĮĹ èĩ³
æ²» æīĢåľ¨
åĲĦ æĸ¹
çīĩ å°¾
å¨ģ åĬĽ
å½ķ åıĸ
çĭ¬ å®¶
åĺī åħ´
æĢ»ç»Ł åºľ
éļıåĲİ åľ¨
åĨĮ å°ģ
èģĶåĲĪåĽ½ æķĻç§ĳæĸĩ
éĢĢå½¹ åĲİ
äºĮæ°§åĮĸ ç¢³
E l
Ġ å¸ĥ
Ġ åį°åº¦
åĴĮ èĭ±åĽ½
åľ° çĭ±
å¤ļ éĥ¨
å¤ļ å°ĳ
å½ĵ äºĭ
éĩĳ çļĦ
æ¸¯ åºľ
æ±ī åı£
çĶ° çº³è¥¿
æł¹æį® åľ°
çľŁ çĲĨ
å¯Į è£ķ
åĽłä¸º ä»ĸ
åį´ åľ¨
ç¼º çĤ¹
é©¬æĿ¥ äºļ
ä»·åĢ¼ çļĦ
æŀ¢ å¯Ĩ
åĽļ ç¦ģ
äºļé©¬ éĢĬ
7 åħ¬éĩĮ
Ġ ç±³
Ġ ç»ıè¿ĩ
åĲİ ä¾¿
çĲ µ
åįĹ æľĿ
åħ¨ æĸ°çļĦ
è¿Ĳ è½¬
ç»Ł çŃ¹
åį³ ä¾¿
éĿ¢ç§¯ çº¦ä¸º
ç¦ı æĸ¯
èĢĥ è¯ģ
æ´»åĬ¨ ä¸Ń
çľĭ ä½ľ
åĬ³ ä¼¦æĸ¯
ou se
å°¾ å·´
æ¦Ĥ çİĩ
ç¼© å°ı
åĪĨç±» æ³ķ
Ġw h
ä¸ºé¦ĸ çļĦ
å¥¥å¼Ĺ æ¶ħ
è· ¤
æĸ° æĺŁ
ä¸ī é¡¹
çŃī éĹ®é¢ĺ
ç«ĭ å®ª
è° ħ
é©¬ åĵĪ
ç§° åħ¶ä¸º
æ°´ éģĵ
åı¸ å¾Ĵ
éĺ¿ èĤ¯èī²
æĹł ç¼ĺ
æĽ´ å®¹æĺĵ
åķ ¶
å°ĳ æŀĹ
ç¬¬äºĮ å¤§
å®¹ è®¸
åī¯ å¸Ĥéķ¿
éĿĴ åĽ¢
åĢŁ çĶ¨
ä»įçĦ¶ æĺ¯
190 2å¹´
åĽ½éĺ² éĥ¨éķ¿
çĸı æķ£
çĮĽ çĥĪ
æĺ¯ä½įäºİç¾İåĽ½ å¯ĨèĭıéĩĮå·ŀ
ä¸ºäºº çŁ¥
åĩ¶ æīĭ
åĵºä¹³ åĬ¨çī©
å®¦ å®ĺ
å¹¼åĦ¿ åĽŃ
C L
P a
Ġ æ³¨
çļĦ éĥ¨éĺŁ
çļĦ è°ĥæŁ¥
çļĦ å½¢è±¡
åľ¨ è¢«
ä¸Ģ åĽ½
ä¸į æĥ³
å¤ļ å¤Ħ
å² ļ
é©¬ åĭĴ
ä¸ļ ä¸»
ç«Ļ åĲį
éĴ ®
ä¸ĵ é¢ĺ
ä¸»è¦ģ æľī
è¾ĥ æĹ©
16 ä¸ª
åĿĩ åĮĢ
å®¢ æľº
é»ĳ æ´ŀ
éĵģè·¯ çº¿
ou t
éľį å¤«
å®ĩ å¤ļ
åĲ¬ ä¼Ĺ
åħ¬å¸ĥ äºĨ
ãĢģãĢģ ãĢģãĢģ
äºİ198 5å¹´
æ³¨æĦı çļĦæĺ¯
çĸ¼ çĹĽ
Ġcol span
( ãĢĬ
1 åħ¬éĩĮ
9 æľĪ15æĹ¥
Ġ æīĢæľī
åħ¶ æ¬¡
ä¿ ¸
å¹¶ çĶ¨
èĭ Ķ
å£ ¹
ä¸ī èı±
æķĻ æĿĲ
å·¥ åĨľ
è®¾ æ³ķ
éħ ļ
æº ¥
åı¤ å°Ķ
è§£ éĽĩ
è½¬ åĮĸä¸º
çļĦä¸Ģ éĥ¨
åĪĴ ä¸º
å®Ĺ æĹ¨
æīĺ å¤«
13 3
ä¸´ è¿ĳ
re e
è½» å¾®
om e
æľºåľº çļĦ
æ·ĺæ±° èµĽ
Ġ198 2å¹´
B l
Ġ 9æľĪ
çļĦ éŁ³
ä¸Ń æĭħä»»
åĴ ½
å¥ ļ
ä¸İ æĿİ
åĩº èī²çļĦ
åĵ ī
çī¹ åĬ¡
æ°´ æºĲ
ç¾İåĽ½ æĶ¿åºľ
è®¤ å®ļä¸º
æĺŁ çĲĥ
å°Ħ ç¨ĭ
ic s
et er
6æľĪ 10æĹ¥
ä½© éĩĮ
å¸ĮèħĬ è¯Ń
å¡ĳ æĸĻ
åºŀ å¤§
èĢķ åľ°
Ġ198 6å¹´
éĻĦåĬł èµĽ
back ground
åŃĶæ³° å¤§åĮº
6 åĲį
O pen
ï ¹
çļĦ åħ¬åı¸
æľī æľŁå¾ĴåĪĳ
æ² Ĥ
æ°ĳ ä¿Ĺ
åįĹ éŁ©
åĬĽ åĴĮ
çĽ¸ éģĩ
åı¸ éĵİ
ä¸¾ éĩį
æłĩ è¯Ĩ
åĪĿ æ¬¡
15 ä¸ª
æķħ å®«
13 ä¸ª
æĹħ é¦Ĩ
æķĳ æĬ¤
åĪĨå¸ĥäºİ åįĹç¾İæ´²
ç«ŀäºī å¯¹æīĭ
æĪĲäºº æ¸¸æĪı
å¦¥ åįı
æįį åį«
éŃģåĮĹ åħĭ
" âĢĿ
1 200
a ve
Ġ èµĽ
Ġ ç»´
Ġ åĽłæŃ¤
Ġ è½¨éģĵ
ä¸Ģ éĿ¢
éĿ ¶
ç¬ ł
é©¬ èĭ±ä¹Ŀ
èĢħ æĺ¯
èµ· æĭħä»»
ä»ĸä»¬ è®¤ä¸º
åľŁ åı¸
14 ä¸ª
åħ¼ å®¹
åĿļ åĨ³
æİĮ æİ§
ç³ĸ å°¿
ä»·åĢ¼ è§Ĥ
åĽ½éĺ² åĨĽ
åıĸæ¶Ī äºĨ
Ġä»¥ä¸ĭ ä¸º
ä¹Łå°±æĺ¯ è¯´
åįļè§Ī ä¼ļ
c m
Ġ çº¢
Ġ 4æľĪ
Ġ åķĨä¸ļ
åľ¨ 2022å¹´
åľ¨ ä¸Ģæ¬¡
èĩ³ åħĥ
ç«ĭ ä¸º
çŁ £
éķĩ çļĦ
èİ· éĩĬ
ä½įäºİ åı°æ¹¾
ä¹¦ éĿ¢
åıį æ´¾
æĹ¥æľ¬ å¸ĿåĽ½
é¦Ļæ¸¯ å¤§åŃ¦
çĶ±äºİ åħ¶
ä¾§ å¼ıæľĪåı°
ç¥ĸ æ¯į
é¡¶ çº§
æ¦ľ é¦ĸ
éĽ¶ ä»¶
åĩłä¹İ æ²¡æľī
é«ĺçº§ ä¸ŃåŃ¦
10æľĪ2 8æĹ¥
ä»² è£ģ
Ġ195 0å¹´
1 19
Ã ¶
Ñ Ģ
Ġ åĲ´
çļĦ èĬĤçĽ®
éķ į
å¹¶ è®¤ä¸º
âĢĿ ).
çĶµ èį·
å®ī èĳ¬
åıĹ è®¿
äººæ°ĳ åħļ
é±¼ ç§ĳçļĦåħ¶ä¸Ńä¸Ģç§į
èĹı ä¹¦
çħ§ æĺİ
è½¨ è¿¹
çĸĹ æ³ķ
éĢĥ åĪ°
èĭıèģĶ çļĦ
åį· åħ¥
åħĭéĩĮ å¤«
å¹¼ ç¨ļ
å°ıç»Ħ èµĽ
8æľĪ2 4æĹ¥
åıĤè°ĭ éĥ¨
åīĬ åĩı
l or
w e
ä¸Ģ éģĵ
äºº éĢī
çĽ Ķ
åĪĨ è¡Į
æĸ° ä»»
æĸ° åĩłåĨħäºļ
ä¸ī åįĥ
æľº èº«
åĲĪ è®¡
çģ ¿
æŀĹ æĸ¯
åł Ģ
é² Ī
åħī ç¦Ħ
çĵ¦ åħ¹
æł· å¼ı
æĽ¼ è°·
è½½ å®¢
æĹħ éķ¿
æĸŃ è£Ĥ
èĥĮ åĲİ
èį¯ åĵģ
11æľĪ 30æĹ¥
éĤ® æĬ¥
é¡¾ å®¢
æĮģç»Ń åĪ°
åĩºèº« äºİ
å¸ĪèĮĥ åŃ¦éĻ¢
é©¬æĭī æĿ¾
æ·¡æ°´ é±¼
éĵĥ æľ¨
çĽ¸åºĶ çļĦ
æ»¥ çĶ¨
è¯ĨåŃĹ çİĩ
ä¹Ĵä¹ĵ çĲĥ
( âĢľ
v en
Ġ èį£èªī
ä¸Ń åįĹ
è¡ ¬
èµ ģ
åħ¬ å¢ĵ
åĪĨ åºĹ
è¢« çĶ¨äºİ
å·¥ åŃ¦éĻ¢
åĲĪ èµĦ
10 ç±³
éĢī é¡¹
åŁº åĩĨ
éĥ½ ä»¥
åİŁ å±ŀ
èµ· çļĦ
é¢Ĩ ä¸»
æĻ® æľĹ
å¤ª ä¿Ŀ
çĶ° ä¸Ń
åĨłåĨĽ èģĶèµĽ
æĿ¾ å±±
è¿Ļä¸ª è¯į
çĤ® å¼¹
190 1å¹´
æħ¢ æħ¢
å¹´ä»£ ä¸º
å¤ĸåĽ½ äºº
sĠ of
èģĤ ä¼¯
æĺ¯åįĹæŀģæ´² çļĦ
1 ä¸ĩ
çļĦ çĭ¬ç«ĭ
å¤§ åĴĮ
ä»ĸ è¡¨ç¤º
çĶŁ ä¸ĭ
ç¬¬ 16
çĶ¨ åĵģ
201 3
å¤© é¹ħ
æŀĹ åĮº
æĴ ķ
æ£ º
ä¼Ĭ åĭĴ
ç¼ĸ çºĤ
çİĩ åħµ
åī¯ å±Ģéķ¿
ç§» èĩ³
åĲĮå¹´ 7æľĪ
äº¿ æ¸¯åħĥ
è¿ģ å±ħ
åģĩ æľŁ
çļĦäºº ç±»
å¹¼ å¹´
åŃ¦èĢħ è®¤ä¸º
æŀ¢ æľº
éĺ¿å°Ķåįĳæĸ¯ å¤§åĮº
ç»° åı·
K i
Ġ ä¸Ńåįİæ°ĳåĽ½
Ġ åľ°åĲį
ä¸Ń äºļ
åŃ¦ çłĶç©¶
çĲ ħ
è¥¿ è´¡
èĢĮ æĪĲä¸º
å¼Ģ æĶ¯
åįĹ æ´ĭ
è¯¥ åĮº
äºĮ æľŁ
è·¯ çļĦ
å¥³ åıĭ
å¯Ĩ çļĦ
é¸ ł
ä¸Ńå¤® å§Ķåĳĺ
éĤ¦ èģĶ
å®ĮæĪĲ çļĦ
12æľĪ 8æĹ¥
èĪŀ æĽ²
å°½ç®¡ å¦ĤæŃ¤
åĬª æĸ¯
æĲľ å¯»
è¡° éĢĢ
ĠF or
ä½įäºİè¯¥åĽ½ ä¸Ńéĥ¨
éªļ ä¹±
æĳĶ è·¤
çº¢åįģåŃĹ ä¼ļ
éĵģè¾¾å°¼ åı·
Ġ a
Ġ ä¾ĭå¦Ĥ
Ġ ä¸įè¿ĩ
Ġ çĶŁæĢģ
çļĦ å¼Łå¼Ł
åľ¨ æİ¥åıĹ
ä¸º çºªå¿µ
ä¸Ģ ä½ĵ
åĨĽ ä¸Ń
å»º çļĦ
å¤ĸ æĿ¥
10 äºº
æł¼ çº³
æŃ£ åĢ¼
å²Ľ åĴĮ
èĤ² æľī
åĩł å¤©
åº· å¤į
è®¸å¤ļ äºº
æĹħ ç¨ĭ
æİ§åĪ¶ åĻ¨
ä¸ľéĥ¨ çļĦ
å¥ĳ çº¦
åŁºåĽł ç»Ħ
Ġ198 7å¹´
çĹķ è¿¹
åı²éĥ½ åįİ
W TA
n er
çļĦ æĶ»åĩ»
ä¸Ń è¶ħ
èĢĮ æĿ¥çļĦ
è¿Ļ å°±æĺ¯
ä¸ľ æ¬§
é«ĺ æ¸ħ
ä¹Ł ä¸º
çŃī æĸ¹éĿ¢
ç¥ Ĥ
æľŁ å¾ħ
ç§ĳ çī¹
åħ³ è¥¿
å¤Ħ åľ¨
åħļ éŃģ
åħ« åįģ
åĿĩ çĶ±
çİĩ éĥ¨
å¾Ī å¥½
åĲĮæĹ¶ åľ¨
çĿĢ éĻĨ
ç»ıæµİ åıĳå±ķ
èĪ¹ éķ¿
è¿Ľåħ¥ çĽ´è·¯
æĺ¥ å¤©
12æľĪ 30æĹ¥
8æľĪ 4æĹ¥
è´µ å¦ĥ
åľĨ æŁ±
è¯ī æ±Ĥ
éĢīæĭ© äºĨ
æ±½ æ²¹
189 5å¹´
3æľĪ2 6æĹ¥
å¾Īå¿« å°±
åĲŀ å¹¶
Ġ198 3å¹´
Ġ194 6å¹´
èĬŃ èķ¾
7 æľĪ15æĹ¥
g a
Ġ ä¸į
çļĦ äºĶ
çļĦ æľĢåĲİ
çļĦ åĪĹè½¦
æľī è¶£
æ¯ ĵ
æĸ° æĪĲç«ĭçļĦ
ä»£ å°Ķ
åİŁ å£°
æıĲ åıĸ
åĪĻ è¡¨ç¤º
åĲī å£«
å½±åĵį åĬĽçļĦ
è¯· æĦ¿
it ed
æĪĺäºī çĪĨåıĳ
åŃ¦çĶŁ çļĦ
éĢģ ç»Ļ
æĭį åįĸ
åĪ» æľī
å¿ł è¯ļ
åĢĴ å¡Į
æĸ¯ç§ĳ çī¹
9æľĪ2 5æĹ¥
10æľĪ2 6æĹ¥
Ġ198 5å¹´
è¡ĮæĶ¿ä¸Ńå¿ĥ ä¸º
i y
u ck
å¹´ å¹¼
æĺ¯ æĿ¥èĩª
æĬ ¨
åĪ° åľº
æµ· é»ĺ
è¿Ľ åº¦
æĢ» éĺŁ
å¡ ¾
å¯¼ æķ°
æ³¢ åĬ¨
å¡Ķ åĪ©
äº² å±ŀ
èĩ´ ä»ķ
è¯º äºļ
å»¶ èĩ³
é©» åĨĽ
æĿ¾ æ±Ł
5æľĪ 31æĹ¥
æŁĲ ä¸Ģ
æįķ æįī
å°ıè¯´ å®¶
èİī äºļ
åĬª å°Ķ
æį· åħĭæĸ¯
è½¬ç§» èĩ³
éļĭ æľĿ
æľīçº¿ çĶµè§Ĩ
é Ĭ
Ġ x
çļĦ åĬĽéĩı
ä¸º åľ°ä¸ĭ
éĢ Ĺ
åĴĮ ä»ĸ
éĹ °
çĶ¨ æ³ķ
å®¶ èĩ£
æľ¬ é±¼
ä¸ĭ éĿ¢
å½ĵ åľº
è¦ģ åľ¨
é©¬ å£«
éĺ¿ æł¼
æ³¢ å¸Į
ä¾ĭ è¡Į
éĻ¤ å¤ĸ
èĲ¨ çĵ¦
è¶Ĭ è¿ĩ
ä»ħ åŃĺ
åģľ æ³Ĭ
èĩªçĶ± å¼ı
ç£ ¡
1æľĪ 31æĹ¥
ç©¿ çĿĢ
æıĴ åħ¥
te xt
åĪĩå°Ķ å°¼
ĠSch ool
é¢Ĩè¡Ķ ä¸»æ¼Ķ
æ¸´ æľĽ
only include
F ran
æĺ Ĭ
ä¸Ń åŃ¦æł¡
æľī ä¸įå°ĳ
åľ° ä¸»
æ¸ ¥
éĽ ¯
æĸ° æ³½è¥¿
åĬł åĨķ
åīį ä½ľ
å² ±
éĩį åĪĽ
12 æľĪ15æĹ¥
ä¸ĩ æ¸¯åħĥ
åĲĦ å¼ı
çłĶ è®¨
åįı åĲĮ
æĸ½ æĶ¿
çļĩ å®«
å§Ķåĳĺä¼ļ ä¸»ä»»
åĺ ±
å¼¹ æĢ§
çł´ è£Ĥ
æ°¸ æģĴ
æ²¿ çĿĢ
éĥ¨éĺŁ çļĦ
å¢ŀåĬł åĪ°
åĬ¨çī© åĽŃ
æ·· è¡Ģ
åģ¥ èº«
æĶ¹éĿ© å¼ĢæĶ¾
æĹħæ¸¸ ä¸ļ
3æľĪ2 8æĹ¥
çĺ ¦
æĬ¥éģĵ ç§°
è®¸åı¯ è¯ģ
çĪª åĵĩ
éĢłèĪ¹ åİĤ
2019åĨłçĬ¶çĹħæ¯ĴçĹħ çĸ«æĥħ
æį·åħĭæĸ¯ æ´Ľ
+ +
7 æĹ¶
b y
h am
t ain
çļ ĵ
åĲİ ä»»
ä¹ĭ åŃĻ
é©¬ èµĽ
æİ¥ è¿ŀ
æīĭ åĨĮ
åį¡ æĸ¯çī¹
åįĬ éĥ¨
åıĮ è¾¹
æł¹æį® 2010å¹´ç¾İåĽ½äººåı£æĻ®æŁ¥
åİĭ è¿«
è¶³çĲĥ éĶ¦æłĩèµĽ
åĲ¸ è¡Ģ
2011å¹´ 12æľĪ31æĹ¥
In st
åĻ¶ å°Ķ
col or
I ON
T S
çļĦ 1
ä¸Ń è¡¨ç¤º
âĢ ¢
æĶ¿ äºĭ
çĲĨ ä¼ļ
ç§ĳ éķ¿
æ¯Ķ çī¹
æĢ» æķĻç»ĥ
æ°´ æĻ¶
éª Ĩ
é£İ äºĳ
åıª å¾Ĺ
åĵĪ æł¹
åĨĻ ä¿¡
ç¡® åĪĩ
åĵ¥ çī¹
åħ¶ä¸Ń çĶ·
æĵį æİ§
å°ıæĹ¶ åĲİ
å¢¨ å°Ķ
è´¯ ç©¿
éĺ¿æĭīä¼¯ è¯Ń
äºİ198 9å¹´
æľīæīĢ ä¸įåĲĮ
ä½įäºİè¯¥åĽ½ åįĹéĥ¨
ç½Ĺå§Ĩ å°¼
åĮħæĭ¬ä»¥ä¸ĭ çī©ç§į
åŀĦ æĸŃ
æĬ¨ åĩ»
6 åħ¬éĩĮ
7 æľĪ16æĹ¥
Ġ çī¹
çļĦ äºĮ
çļĦ èĮĥåĽ´
åĪ ¹
ä¸Ń è¥¿éĥ¨
äºĨ åľ¨
è¥¿ æ¬§
åıĬ é¦Ļæ¸¯
è¿Ľ åĩº
èµ· åħµ
çº¦ åįł
åħļ æł¡
çĿ ¦
æĶ¶ ç¼©
ä¸»è¦ģ çĶ¨äºİ
ä¸»è¦ģ åĪĨå¸ĥäºİ
åħŃ çĶ²
æĪı æĽ²
æİ¨ æĸŃ
åĭĴ å§Ĩ
è¯º ç»´å¥ĩ
æī¹ åħ¨åĽ½éĩįçĤ¹æĸĩçī©ä¿ĿæĬ¤åįķä½į
åºĦ ä¸ºéĤ»
å¿ħ çĦ¶
èģĶåĲĪ åı°é£İèŃ¦æĬ¥
åĲ¦ å®ļ
éĢĥ è·ĳ
è¾Ľ åŁº
å¯» å¸¸
åĲĮæł· çļĦ
æĩ ĭ
é©³ åĽŀ
ĠA d
JR ä¸ľæĹ¥æľ¬
èģĶåĲĪåı°é£İèŃ¦æĬ¥ ä¸Ńå¿ĥ
X box
Ġ äººçī©
çļĦ æĹ§
çļĦ ä¾ĭåŃĲ
åľ¨ åħ¶ä»ĸ
åľ¨ å·´é»İ
æł ħ
ä¸į æĺĵ
æĸ¹ ç´¢
åĮĹ ç«Ļ
æľº åŀĭ
é©¬ åı¯
è®© å¥¹
èĢģ å¹´
it t
éº¦ åı¯
éĽħ åħĭ
èģļ åĲĪ
ä¼ĳ åħ»
å½© èī²
è¾½ ä¸ľ
æĢª åħ½
éĵº è®¾
B N
m in
Ġ æľ¬çīĩ
çļĦ æĪĺæĸĹ
åĲİ äºº
ä¸İ ç¤¾ä¼ļ
ä»ĸ å¼Ģå§ĭ
åĬł çī¹
äºļ å¤ª
èĤ ļ
ä¸¤ éĥ¨
åŁº å±Ĥ
202 3
åĪĿ éĢī
åľ£ åľ°
ä¼¯ åĪ©
èĲ½ åħ¥
èĩªå·± åľ¨
è½¦ç«Ļ å¤§æ¥¼
åºķ çĽĺ
çĽĸ å°Ķ
ä»ģ å®Ĺ
èĥ½å¤Ł åľ¨
ç¼ĺ æķħ
çŁ¿ ä¸ļ
æĹº è§Ĵ
7æľĪ2 8æĹ¥
ä¾¦ æŁ¥
æ±Ŀ æĭī
æĸ¯å¨ģ å¤«çī¹
çħ½ åĬ¨
2 5å¹´
7 Ġ
C S
F or
Ġ èĲ¨
Ġ èİ«
çļĦ æĿĥåĬĽ
æĸ §
ä¸Ģ ä¸ĩ
åĽ½ èĲ¥
åŃ¦ åĴĮ
åĮĹ ä¸İ
æµ· åĽł
å¸ĥ æŀĹ
ä¸ļ çķĮ
çĽ¸ å®¹
éĴ Ŀ
çŁ³ çģ°
åķĨ èĪ¹
åľŁ åºĵ
åĲī åĪ©
çīĻ ä¹°
æ»¡ åĪĨ
è¿Ļä¸Ģ æĹ¶æľŁ
9æľĪ2 3æĹ¥
äºİ198 8å¹´
8æľĪ2 8æĹ¥
æĸ¯å¡Ķ å¤«
è¿Ĳè½½ çģ«ç®Ń
ç³ĸå°¿ çĹħ
H C
N HK
Ġ åĲĮå¹´
ä¸Ń åĴĮ
å¤§ èĭ±
æľī è¿ĩ
ä»¥ çºªå¿µ
ä¹ĭ å£°
é«ĺ åĬłç´¢
äºļ å°Ķ
æķĻ æ´¾
éĥ½ åŁİ
åĽĽ åĨĽ
æĹł æĦı
er e
en Ġ
åıĳçĶŁ äºİ
ä¿Ħç½Ĺæĸ¯ èģĶéĤ¦
el la
il ver
åĩ¯ æĸĩ
æľīä¸Ģ å®ļ
ç¿¼ é¾Ļ
äº® çļĦ
äºİ199 0å¹´
æĲľ éĽĨ
æ¶Ĥ è£ħ
å¼ĹæĭīåŁº ç±³å°Ķ
Ġ åĳ¨
Ġ æĪĲç«ĭ
Ġ è´Ŀ
åľ¨ è¿Ļç§į
æľī äººåı£
ä¸ª äººçļĦ
ä¸į è¢«
æĽ Ļ
çī¹ å·¥
åı¯ ä½ľä¸º
æĸ° å¹²çº¿
ä¸ľ èİŀ
åı° è¯Ń
ç¥ º
æĭī åĽ¾
å±± åŁİ
å·´ é¡¿
åįķ äºº
æľĿ æĹ¥
ç¥ŀ ç¥ĩ
åħī å¹´
ç¬¬äºĮ å±Ĭ
åĦ¿ å²Ľ
ä¹Ŀ å·´
åĨł åĲį
ä½İ æ¸©
é©» åįİ
çĲĥéĺŁ çļĦ
èĥ¡ å®ī
è¾ħ å¯¼
åĨ· æĪĺ
è±ª æ£®
10æľĪ2 3æĹ¥
2æľĪ2 8æĹ¥
åºŀ å¤§çļĦ
åĳ¨å¹´ çºªå¿µ
ĠM an
ĠC ar
ç»ĪçĤ¹ ç«Ļ
rit ic
G ame
K P
ä¸Ĭ ä¹¦
ä¸į äºĨ
åıĳ éħµ
èĥ ¤
å¯¹ ä»ĺ
æīĢ ä½ľ
è° ¬
æ¬¡ åħ¨åĽ½
èĤ ĭ
ç»Ł é¢Ĩ
åį¡ éĢļ
éĹ¨ ä¸ĭ
çĽ´ è¾¾
åī¯ æł¡éķ¿
èĲ½ åľ¨
çĻ» åŁº
ä½ı éĻ¢
is ion
éŁ¦ æĸ¯
5æľĪ 10æĹ¥
è´§ è½¦
ä½ł çļĦ
èķ ī
éĻ¶ çĵ·
æī§å¯¼ çļĦ
åħĭç½Ĺ åŁĥ
æĭ¼ åĨĻ
æĺİæĺŁ èµĽ
å¸¸åĬ¡ å§Ķåĳĺä¼ļ
åĺīä¹ī åİ¿
åħĭéĩĮæĸ¯èĴĤ å®ī
åįķè¡Į æľ¬
v i
åľ¨ çº½çº¦
æĺ¯ æł¹æį®
æĺ¯ ç§ĺé²ģ
åĴĮ çº¦
æĹ¥ æĻ·
éĺ ī
ä¼ļ æĪĺ
ä¸į è®¾
è¥¿ è¥¿éĩĮ
âĢĿ (),
çİ° å½¹
è½¦ éĹ¨
è¦ģ ä¹Ī
é©¬ åħĭæĸ¯
åĲĳ ä¸Ĭ
æĽ¾ åıĤä¸İ
er eĠ
ç¤¾ä¼ļ åħļ
ç´¢ çĵ¦
æĪ· å¤ĸ
åģļ åĩºäºĨ
å°½ å¿«
äºĮåįģ åĽĽå¹´
å¹³åĿĩ éĻįéĽ¨éĩı
un t
ç¬Ķ è®°
åİ¿çļĦä¸Ģä¸ª åŁİéķĩ
ä½ıå®ħ åĮº
å¿½ è§Ĩ
ĠS er
çļĦæĥħ å½¢
æ±ķ å¤´
Twit ter
åħĭç½ĹåŁĥ è¥¿äºļ
" -
3 ä¸ĩ
C ol
â ħ
Ġ å¼Ģåıĳ
è® ³
å¤§ èµı
éĥ ¸
äºĨ è¿Ļä¸Ģ
åĩº å®¶
ä¸į å®ī
çĶ¨ æ°´
é© ¼
åħ¨ çľģ
10 æľĪ15æĹ¥
æ²³ å·Ŀ
å²Ľ ä¸ĬçļĦ
å±Ģ éĽĨåĽ¢
ä¸»è¦ģ åľ¨
åįĬ éķ¿è½´
é±¼ äºļçĽ®
ä¸ĸçºª æľ«
åĩł æ¬¡
çľĭ æĿ¥
ç«ł èĬĤ
è¶³çĲĥ çĶ²çº§èģĶèµĽ
æĳ© æĵ¦
8æľĪ 10æĹ¥
çĮ® ç»Ļ
æ±ĩ æĬ¥
æľīä¸Ģ æĿ¡
æµ·æĭĶé«ĺåº¦ 1
2001å¹´ æĢ»äººåı£
åįĹäº¬ å¸Ĥ
3æľĪ2 5æĹ¥
å¸ĥé²ģ åħĭ
5æľĪ2 5æĹ¥
æĮĩå®ļ ä¸º
èµ¶ åĪ°
æĳĦå½± å¸Ī
IS O
å¼¯ éģĵ
å°¼åħĭ æĿ¾
Ġä»¥ä¸ĭ æĺ¯
1920å¹´ ä»£
éĺĲ è¿°
Ġæľ¬å±ŀ åĮħæĭ¬ä»¥ä¸ĭçī©ç§į
Ġ åĨħ
çļĦ ç³»ç»Ł
å¤§ æķĻåłĤ
åĲİ æĪĲä¸º
ç¬¬ 20
ä¸ľ å²¸
ä¸ī å¤©
å¦ Ħ
çľģ æĶ¿åºľ
ä½Ĩ å¥¹
æ¯Ķ æĸ¯
åĽĽ ç§į
çº³ ç±³
åı¯ä»¥ å¾ĹåĪ°
åħ« è¾¾
çĪ± ä¸½ä¸Ŀ
æŀģ å¤§çļĦ
æĸĩåĮĸ åĴĮ
å·¦ å²¸
å¯¼èĩ´ çļĦ
æĺ¯ä¸Ģ é¡¹
3æľĪ 18æĹ¥
ç»ĵæŀĦ çļĦ
åĩ¯ æĹĭ
å·¥ä¸ļ åĮº
éļıåĲİ çļĦ
äºļæ´² è¿ĲåĬ¨ä¼ļ
åħĪåĲİ åľ¨
é¡µ å²©
åľ°éĿ¢ è½¦ç«Ļ
åħ¬å®ī å±Ģ
èµ«å°Ķ è¾ĽåŁº
åº¶ åĲīå£«
åĲĪåĶ± åĽ¢
å®ĩå¤ļ çĶ°
Ġ è¢«
çļĦ åĨłåĨĽ
çļĦ èĩªçĶ±
æĺ¯ åŁºäºİ
æľī æľºä¼ļ
åĲİ çĶ±
ä¸ª åĽ½å®¶
ä¸į éĶĻ
æ´ ½
åħĭ åĭĴ
åĪ© å°Ķ
ä½ĵ åŃĹ
é©¬ æŀĹ
åĽĽ åĽ½
éħ ª
å°ĳ åį¿
èĲ¥ åĪ©
ä»Ĭ å¤©çļĦ
åįĩ èĩ³
6æľĪ 20æĹ¥
5æľĪ2 8æĹ¥
æĬĹè®® æ´»åĬ¨
And roid
é¸¦ çīĩ
æĶ¾å°Ħ æĢ§
ISTAT ä»£çłģä¸º0
1 åº§
2 åħ¬éĩĮ
3 æľĪ15æĹ¥
l er
Ġ ä»ĸåľ¨
çļĦ æĦıè§ģ
åľ¨ ä¸ľäº¬
å¤§ æ¦Ĥ
æľī åĬŁ
ä¼ļ äº§çĶŁ
å¹³ æģ¯
è¯¥ éķĩ
å¤ĸ ç§ĳ
åħ± éĿĴåĽ¢
200 9
åħ¨ æ¸¯
æ°´ æīĭ
è§Ĩ ä½ľ
ä¼ł åĬ¨
ä¼ł éĹ»
çº³ çļĦ
çĿ ¹
ä¼Ĭ çī¹
è½¬ è®©
æĬķ èº«
åĲī æĭī
åĲī ç±³
çĻ¾ èĢģ
çľŁ ç©º
æīį å¼Ģå§ĭ
åħ» æ®ĸ
çļĦåľ° çĤ¹
çŃ¹ å»º
åıĳçĶµ æľº
æĿĢæŃ» äºĨ
éĤ»è¿ĳ çļĦ
åħ¬åĳĬ çīĮ
çİĽæł¼ä¸½ çī¹
r ad
Ġ ä¸»
çļĦ èĬ±
ãĢ ķ
åĽ½ èģĶ
å¤§ åľ°éľĩ
éĻ ¡
åĲİ ä¸º
ä¼ļ é¦Ĩ
åıĳ æºĲäºİ
ä¹ĭ æĺŁ
ä¹ĭ å¤ĸçļĦ
èĢĮ è¿Ļ
å»º äº¤
çĶµ æĬ¥
ä½Ĩ å®ĥ
çº¿ ç´¢
å®ī å¤§çķ¥
æł¼ ä¼¦
å±ŀ ä¸ĭçļĦä¸Ģä¸ª
ç² ª
åı¯ä»¥ å°Ĩ
å¼ķ è¿°
åŃĺ æĶ¾
en c
é»Ħ åŁĶ
éĺ² çĸ«
æ·± æµ·
åĩł ä½į
éŁ³ä¹Ĳ åŃ¦éĻ¢
çĳŀ å®ī
éĢĢ ä¼į
ç¬¬ä¸ī çĶ²
èĥ¡ åĲĮ
æī§è¡Į å®ĺ
æ±¤ çİĽ
ç±»åŀĭ ä¸º
çŀ »
åĹ ľ
ä¹¡è¯ķ ä¸¾äºº
ht t
åħ¶ä¸ŃçĶ·æĢ§ ä¸º
éĩİæĪĺ åĨĽ
æ³¢å¸Į ç±³äºļ
çĻ¾èĢģ æ±ĩ
w ork
Ġ 24
æľī è½¨çĶµè½¦
è¢« äºº
æĸ° é²ľ
ãĢį (),
äºļ æĸ¯
200 0å¹´ä»£
åĢ ļ
æĹł ç½ª
å¤§åŃ¦ åĴĮ
åŃĹ æł·
çļĦä¸Ģ å¤Ħ
ä¿® è¡Į
å®¢ è§Ĥ
ç¬¬ä¸ī ä¸ª
å½Ĵ å±ŀ
çŃ¾ åĲį
åĪ» æĦı
éĺ´ å½±
ä¼´ éļı
èĳ¡èĲĦ éħĴ
è¿Ŀ èĥĮ
6æľĪ2 5æĹ¥
çĺ Ł
çĮĽ èĻİ
å¿ħè¦ģ çļĦ
æ£Ģå¯Ł éĻ¢
æ£ī èĬ±
ĠL ove
2 20
4 åı·çº¿
m p
Ġ åĭĴ
Ġ åĨħå®¹
çļĦ çļĦ
ãĢ Ķ
åĲ Ł
ä¸Ń è·¯
å®¶ åº·
è¥¿ å°¼
è¢« å¹¿æ³Ľ
èģ Ĩ
åĮĹ å²¸
ç§į ç¾¤
éĩį çĶ³
åįİ å¾·
å¯¼ èĪª
æ²³ æ°´
åı¯ä»¥ æĺ¯
çĪ± åĽł
å®Ī åį«
åį´ æĺ¯
12æľĪ 18æĹ¥
7æľĪ 18æĹ¥
100 ä¸ĩ
éĤ® è½®
åĨĽéĺŁ çļĦ
ç»¿ åħļ
189 6å¹´
ä¿ĥ æĪĲ
åĸ· å°Ħ
Ġ197 9å¹´
Ġè¯¥åľ° 2001å¹´æĢ»äººåı£
å¸Įä¼¯ æĿ¥
; )
D D
l ine
åľ¨ 2003å¹´
åŃ¦ éĥ¨
ä¸į ç¡®å®ļ
å®¶ éĩĮ
è¥¿ ä¸´
éķ¿ éĢĶ
èĩª åį«
æĸ° å¹´
å¹³ å£¤
éģĵ æł¼æĭīæĸ¯
å·¥ äºĭ
åĲĪ ä¼Ļ
æĢ§ ä¸İ
åĮĸ å¦Ĩ
æķ° æľĪ
æģ ¼
æŃ£ å¦Ĥ
ç»´ å¸Į
æīĭ ç¨¿
éĹ¨ åı£
ç¥ŀ æĪ·
ç¥ŀ å¥Ī
åħī ç¢Ł
ä¸ĸçķĮ æİĴåĲį
çĳ Ľ
åĽ½éĻħ è¶³èģĶ
åĨĻ çľŁ
æ¶Ī åĮĸ
èĥĮ éĥ¨
ç½ª çĬ¯
è´¢ åĽ¢
æķ£ å¸ĥ
6æľĪ 12æĹ¥
æĭľ è®¿
çĤ® åı°
éģĩ è§ģ
éľĩ æĥĬ
éĵģéģĵ åħµ
ä¸ªæľĪ çļĦ
éĽĨä¸Ń èĲ¥
æµ·å²¸ çº¿
æıŃ ç¤º
ä¼ª éĢł
ä¹Įæĭī åľŃ
çĽ´è¾ĸ å¸Ĥ
ä¸īéĥ¨ æĽ²
6å²ģ äººåı£
P R
u la
Ġ çİ°æĹ¶
Ġ con
çļĦ åı¤
çļĦ è¯ģæį®
ä¸Ģ ä»£
ä»¥ èĩ³
æ± Ĳ
è¿Ļ æĺ¯ä¸Ģä¸ª
ä¸ľ èĩ³
ä¸ľ ç«Ļ
è¿Ľ äºĨ
èµĽ éģĵ
ç© ¹
å¸ĥ ä»Ģ
èģĶ ä¼ļ
éĩĳ æĹ¥
çİĭ åºľ
ä»£è¡¨ çļĦ
åī¯ ä¼ļéķ¿
å£° èªī
æīį è¢«
åĪ¶ä½ľ äºĨ
ç¬¬ä¸ī åĲį
8æľĪ 8æĹ¥
äºĮåįģ äºĶå¹´
åĽº å®ļçļĦ
27 0
ç¯ĩ æĸĩç«ł
è¾Ľ äº¥
çº¸ å¸ģ
è¯Ħè®º åĳĺ
æĭĵ æīĳ
æıŃ å¹ķ
æ©Ħæ¦Ħ çĲĥ
è¯ ¬
äºº å¿ĥ
æĺ¯ ä¸Ń
æİ Ģ
çĶ± åİŁ
é¦ ¨
äºĭ é¡¹
ä¹Ł ä»¥
ä¸ĸ åĩ¯
çľģ å§Ķ
ä¸¤ éĥ¨åĪĨ
ç¼ ļ
æł¼ å±Ģ
çº¦ 6
çİĭ æ°ı
åı² è¯Ĺ
æīĭ æĮĩ
è®° è¿°
æ²¡ èĥ½
åī¯ æĢ»çĲĨ
åı¯èĥ½ æľī
æĦŁ åºĶ
å§Ķåĳĺä¼ļ åī¯ä¸»ä»»
ç®Ģ ç§°ä¸º
æĶ¯æĮģ çļĦ
10æľĪ 31æĹ¥
8æľĪ 5æĹ¥
è®¿ è°Ī
æīİ å°Ķ
æĸĩåŃ¦ å¥ĸ
äºļæ´² çĶµè§Ĩ
æĭĽ æĶ¶
9æľĪ2 7æĹ¥
10æľĪ2 4æĹ¥
3æľĪ2 7æĹ¥
åĥ§ ä¾£
åĤį æĻļ
èģĶåĲĪåĽ½æķĻç§ĳæĸĩ ç»Ħç»ĩ
çĪ±åĽł æĸ¯åĿ¦
1 æľĪ15æĹ¥
4 000
7 åı·
e c
Ġ ä½Ĩæĺ¯
çļĦ æĬ¥åĳĬ
çļĦ æī¹è¯Ħ
ç» ¸
åľ¨ è¿ĩåİ»
ä¸İ ä¸Ĭ
æĸ¹ æµİ
äºļ çī¹åħ°
ç§ĳ çĽ®
æĢ» åĨłåĨĽ
é¦ĸ æĶ¯
åł °
åĩ» åĩº
ç¦ı å·ŀå¸Ĥ
åĻ¨ åĴĮ
åħ« è·¯åĨĽ
æĽ¼ æģ©
50 ä¸ĩ
1æľĪ 20æĹ¥
éĢĥ èµ°
èģĮä¸ļ è¶³çĲĥ
è§Ħæ¨¡ æľĢå¤§çļĦ
è¿¹ è±¡
æµ¦ ä¸ľ
æĶ¹åıĺ äºĨ
éģį å¸ĥ
åıĽ åĨĽ
6æľĪ2 4æĹ¥
æ±¡ æ°´
çŃ¾ç½² äºĨ
ä¼ĺç§Ģ çļĦ
ä½įäºİæ³ķåĽ½ å¤§ä¸ľéĥ¨å¤§åĮº
Ġ194 8å¹´
Ġå¤ĸéĥ¨ è¿ŀç»ĵ
è½¦è·¯ å£«
è¿Ľåħ¥çĽ´è·¯ åĲİ
2 çļĦ
c enter
Ġ æł¡
Ġ å¾·åĽ½
Ġ å°ıè¡ĮæĺŁ
çļĦ åħ³éĶ®
çļĦ æĥ³æ³ķ
å¹´ åĪĿ
åľ¨ ä»»
æĪ į
ä¸Ń åħ¨
è¢ į
èĥ ĸ
ä¹ĭ ä¹ħ
åĲĮ è¿Ľå£«åĩºèº«
ä¸ľ ä¸İ
æµ· åľ°
æķĻ å£«
ä¸ĸ è¢Ń
å±± å³°
åŁİ ä¸Ń
ç»Ł å¸ħ
æµģ æ´¾
çº³ ç¨İ
è§£ è¯»
ç¬¬äºĮ çĻ¾
éĽ· å¾·
éº ¾
éĻĪ è¿°
çķĻ ä¸ĭçļĦ
æĲ ı
é¡º å¤©åºľ
12æľĪ 20æĹ¥
å¼Ģåıĳ èĢħ
7æľĪ 10æĹ¥
ãĥ Ī
ç§Ł èµģ
é¤Ĳ é¦Ĩ
ç¤¾ä¼ļä¸»ä¹ī åħ±åĴĮåĽ½
æĪĲå¹´ äºº
åĲįäºº åłĤ
æ¸¤ æµ·
3 æ¬¡
6 åı·
F i
ç į
çļĦ é£İæł¼
åľ¨ 2004å¹´
ä¸º ä¾ĭ
åĽ½ æŃĮ
æķ Ľ
ä»¥ ç¡®ä¿Ŀ
ç¬¬ 22
èĢĮ ä¸İ
åı¯ è¿½æº¯èĩ³
æīĢ è¿°
åħ¥ åľº
åı¸ åı¸éķ¿
åĽĽ æ¬¡
å·´ æŀĹ
åı² ä»¥æĿ¥
å¤ª å¤ļ
çļĦä¸Ģ åĪĩ
ä¸ĸçķĮ åĨłåĨĽ
ä¼¯ éĩĮ
åı¯èĥ½ åľ¨
èĪ° è½½
åıĮ å±Ĥ
å¯Ł éĻ¢
æ¥¼ é«ĺ
åį¢ åį¡
ç½² éķ¿
11æľĪ 8æĹ¥
ä¹° ä¸ĭ
9æľĪ2 4æĹ¥
8æľĪ2 6æĹ¥
åįģåŃĹ åĨĽ
åŃŁåĬłæĭī åĽ½
èĲ¤ å¹ķ
æ®ĭçĸ¾äºº å¥¥æŀĹåĮ¹åħĭè¿ĲåĬ¨ä¼ļ
: //
A F
é ĳ
Ġ åĲĮæĹ¶
çļĦ æľįåĬ¡
äºİ åħ¶
æ¯ ¯
å¹¶ èİ·
ä¸ĭ å±Ĥ
è¿Ļ å¼łä¸ĵè¾ĳ
æµ· åı£
ä¸ī éĹ´
çĶµ åİĤ
çº¿ è½¦ç«Ļ
æģ ¤
æģ ª
ä¸¤ åĳ¨
å§ĭ åıĳ
åħļ åĽ¢
ä¸¾ åĬ¨
åŃ£ é£İ
æļ ±
åĳĬ ç»Ī
æļ´ é£İ
8æľĪ 6æĹ¥
åĩ¯ å°Ķ
ä½© æĪ´
åĲ¬ è¯´
å°ıè¡ĮæĺŁ å¸¦
ä¾į ä¸ĭ
11æľĪ2 8æĹ¥
æ·® åįĹ
å§Ķä»» ä¸º
m i
çĽ İ
åįĹ åįİ
çİ° æľīçļĦ
ä½Ĩ æľī
åŁº äºļ
é¦ĸ èĦĳ
ç±» åĬ¨çī©
æİ¨ ç§»
ä½İ åİĭ
æĥ³ åĥı
è¿ľ ç¨ĭ
å¹² éģĵ
åĮºåŁŁ çļĦ
4æľĪ 18æĹ¥
åĩ¯ å°Ķçī¹
ãĢį( ).
åģ¶ çĦ¶
åĨħéĥ¨ çļĦ
çģ¯ å¡Ķ
3æľĪ2 9æĹ¥
12æľĪ2 6æĹ¥
è¾¾æĪĲ åįıè®®
ç½Ĺä¼¯ éĢĬ
å½±è¯Ħ äºº
éĤ¯ éĥ¸
4 æľĪ15æĹ¥
9 åı·
C on
U E
Ġ åŁĥ
Ġ èµĽäºĭ
çļĦ äºĭä»¶
ä¹ į
åĮº çļĦä¸Ģä¸ª
è¥¿ å¤ªå¹³æ´ĭ
æ°ĳ èĲ¥
åħĭ æľį
åĨħ è®¾æľī
æľŁ éĻĲ
an e
çļĦä¸Ģ ä»½
çļĦä¸Ģ éĥ¨ä»½
æľį çĶ¨
å½ķ å¾Ĺ
åĩĨ åĪĻ
ä¼¦ çī¹
è¶Ĭ éĩİ
æŃ£å¼ı çļĦ
ä»ĸçļĦ åĦ¿åŃĲ
æ¸© å·ŀ
çĨ ¹
éļĨ åºĨ
å®¡ è®¯
è´¯ éĢļ
æĤ² åī§
æ¾Ħ æ¸ħ
æĻ¤ å£«
A åŀĭ
D avid
çļĦ è½¦
å¹ Į
åľ¨ ä¸ī
20 3
æ³ »
éĩĮ å¤«
ä¸¤ äººçļĦ
éĺ¿ å¾·
in s
èĭı æ¢ħ
çĶ· åıĭ
çº¢ è¢ľ
ç«ł Ġ
å»ºç«ĭ ä¸Ģä¸ª
25 00
12æľĪ 7æĹ¥
æ®ĭ çķĻ
æĺŁæľŁ åħŃ
ä¸įè¶³ ä»¥
æľīæľº åĮĸåĲĪçī©
åħĭæŀĹ é¡¿
çĮľ æµĭ
ĠMus ic
8 åĲį
Ġ r
å¤§ ä¸º
åŁ ķ
ä¸Ĭ ä¸İ
ä¸Ĭ ä¼ł
åĨĽ ç±į
æĶ¿ æ³ķ
çĶ± è¯¥
æĢ§ åľ°
çĽ¸ éļĶ
éĥ½ å¯ŁéĻ¢
åı² åŃ¦å®¶
è§Ĩ å¯Ł
å®ĥ ä¸İ
ç»Ń ä½ľ
çĻ½ å¤©
æľį ä»İ
é¦Ĩ éķ¿
å®¹ åĻ¨
çĻ¾ åĲĪ
at ch
åĥı ç´ł
æ³° æĻ¤å£«
ä¾¿ å®ľ
å¯Į è±ª
12æľĪ 12æĹ¥
å¸ĮæľĽ èĥ½
å¾Ĳ å·ŀ
æİī äºĨ
æĮĳæĪĺ èµĽ
å¸ĥé²ģ åħĭæŀĹ
éĺ® ç¦ı
éĺ´è°ĭ è®º
é¢ĦåĳĬ çīĩ
Ġ å°Ĩ
çļĦ æ¹ĸæ³Ĭ
çļĦ éĤ®å±Ģ
åľ¨ åĲĮä¸Ģ
åĴ ª
ç¬¬ 17
åĨĽ éĺĢ
åįĹ å¼Ģ
åĮĹ çĪ±å°Ķåħ°
æľĢ åı¤èĢģçļĦ
çĶµ è½¦ç«Ļ
å®ī æĬļ
10 æľĪ17æĹ¥
æł¼ è¾¾
æĶ¹ ä»¥
åĬ¡ å±Ģ
çĥ Ľ
åŀĭ æŁ´æ²¹æľºè½¦
11 æľĪ15æĹ¥
çĪ± ä¸ģåł¡
ç²¾ åº¦
è¶³çĲĥ è¶ħçº§èģĶèµĽ
åª Ľ
ä¸Ńåįİäººæ°ĳåħ±åĴĮåĽ½ é©»
å°¾ é³į
åĪĳ æ³ķ
åĮ¹ éħį
æĢ¥ æĢ§
æ½ľ åĬĽ
èĽĭçĻ½ éħ¶
äºİ198 2å¹´
åĮĪ å¥´
åĸĢ å°Ķ
èİ·å¾Ĺä¸Ģæŀļ éĩĳçīĮ
æķĻç§ĳ ä¹¦
æľĢé«ĺçĤ¹ ä¸º
å¸ĥåĪĹ å¡Ķå°¼
2 æľĪ14æĹ¥
7 åĲį
S m
o ok
çļĦ ç²¾ç¥ŀ
åħĭ åĴĮ
çİ° åĿĢ
ä¹Ł å¯¹
èĬ ¸
ä¸¤ åľº
æł¼ æĸĹ
æıĲ ç¤º
æĦı æĮĩ
æ²³ åĴĮ
202 4
å·² æķħ
äºĶ åįĥ
åıĸ èĥľ
åıĺ ç§į
çĹ ´
æ²Ļ å°Ķ
æ¥¼ çļĦ
ç½Ĺæĸ¯ ç¦ı
éģĹ æĨ¾
çŁŃ ç¼º
å·¡ æĮī
1æľĪ 10æĹ¥
æľīä¸Ģ åº§
å°ĨåĨĽ æ¾³
åŁºæľ¬ æ³ķ
10æľĪ2 7æĹ¥
èĪĴ éĢĤ
4æľĪ2 9æĹ¥
7æľĪ2 6æĹ¥
7æľĪ2 3æĹ¥
æľ¬å±Ĭ èµĽäºĭ
å²Ľå¼ı ç«Ļåı°
æīĺåĭĴ å¯Ĩ
éĬ ®
æį·åħĭæĸ¯æ´Ľ ä¼Ĳåħĭ
çīĻä¹° åĬł
o z
Ġ on
Ġ 30
Ġ æ¬§æ´²
çļĦ èĩªçĦ¶
çļĦ çĽ®çļĦ
æĪĲ åĲį
åħ¶ ä¸»è¦ģ
åĪ° åºķ
åĨĽ è¡Ķ
å¾· åİ¿
ä»£ ä¹ĭ
200 7
çº¦ 10
åı² è®°
ç»´ åĲī
ç»ĵ ä¸ļ
æ· ¤
er g
or ge
ç¬¬ä¸Ģ åº§
æīĵ çĤ¹
å§Ķåĳĺ éķ¿
å¸Ŀ çİĭ
åĽ½éĻħ è¶³åįı
çĶµè§Ĩ ç½ĳ
al ign
è´Ŀ éĩĮ
æľĢç»Ī è¢«
èĪ¹ ä¸Ĭ
äºĨä¸Ģ æ¬¡
çķ¥ æľī
6æľĪ 6æĹ¥
5æľĪ 8æĹ¥
2011å¹´ äººåı£
å¤§ä¼ļ ä¸Ĭ
æ°§ æ°Ķ
çº¯ ç²¹
åľ¨199 9å¹´
å»¶éķ¿ èĩ³
é¢ħ éª¨
4 åħ¬éĩĮ
A 1
c ord
çļĦ èīºæľ¯
åį ¦
æĹ¥ åħĥ
ç¬¬ èģĤä¼¯
è¢« æ¯ģ
å¤ļ äºİ
ä¹Ł åĽł
åĲĳ å¤ĸ
æĹł éļľç¢į
æ³¢ å¤ļ
ç¬¬äºĮ ä½į
çĥŃ æĥħ
ä¸įåĲĮ çļĦæĺ¯
æķĪ çĽĬ
æĬĬ ä»ĸ
åĽłä¸º åľ¨
8æľĪ 20æĹ¥
åĨĽäºĭ è¡ĮåĬ¨
åıįå¯¹ åħļ
æ±ĩ åħ¥
èŀį èµĦ
çļĦçī¹ èī²
åľ¨æŃ¤ ä¹ĭåīį
å°¤åħ¶ æĺ¯åľ¨
åĸ· åıĳ
èĢĮäººåı£å¯Ĩåº¦ä¸ºæ¯ıå¹³æĸ¹åįĥç±³ äºº
f t
Ã ¨
çļĦ è·Ŀç¦»
ä¸Ń çº§
æĺ¯ åĶ¯ä¸Ģ
æľī 3
æľī ä¸ª
ä¸Ĭ éĻĲ
æµ· æĬ¥
å°ı çĶ°
çº¿ ä¸İ
æĬ¥ åĪĬ
å¸Ī çļĦ
in k
ä¿¡ ä¹ī
éļı æĹ¶
å¤į æķ°
åİĨåı² çļĦ
å½ķ åĥı
æ¯į è¯Ń
éĢģ èĩ³
åĲĪä½ľ ä¼Ļä¼´
æİ§åĪ¶ äºĨ
åĿļ å®Ī
å»ºéĢł äºĨ
5æľĪ2 4æĹ¥
è¢ģ ä¸ĸåĩ¯
åŃ¤ åĦ¿
å¸ĤæĶ¿ åİħ
Ġæľ¬ å±Ĭ
ä½įäºİè¯¥åĽ½ ä¸ľåĮĹéĥ¨
æ°Ľ åĽ´
åĪĨç»Ħ èµĽ
çī¡ ä¸¹
5 0å¹´
Ġ æĻ®
çļĦ æķĻèĤ²
å¹´ åĿĩ
åľ¨ å¤©
äºº éĢł
å¤§ ä¸ĵ
æĹ¥ éĹ´
æ³ ¸
ä¿ Ń
èĬ ®
éĩį åĲ¯
10 æľĪ21æĹ¥
ä¸ŃåĽ½ äºº
åĲĳ ä»ĸ
æŀĹ éĥĳ
å¥¥ åĮĪ
åĲĦ å·ŀ
åİ» éĻ¤
èı ģ
ä»Ĭ å¹´
çĪ± èį·
èīº åĳĺ
æīĺ ç®¡
èĭ±åĽ½ æĶ¿åºľ
éħį åģ¶
æ·± è¿ľ
çħ ŀ
åºķ æłĸ
å½Ĵ åĽ½
æĭ¥ æĬ¤
7æľĪ 12æĹ¥
9æľĪ 20æĹ¥
5æľĪ 5æĹ¥
æ°ĳä¸» è¿ĽæŃ¥
æĢ¥ è¡Į
æĶ¹ç¼ĸ æĪĲ
çĥŁ éĽ¾
ä¸´æĹ¶ æĶ¿åºľ
ä¸ªæľĪ åĲİ
10æľĪ2 9æĹ¥
Ġæľ¬ ä½ľ
åĪĹæĸ¯ èģĶ
æĹ¥åĨħ çĵ¦
éĺ¿èĤ¯èī² å·ŀ
çļ ĭ
çļĦ æĪĺäºī
ä¸º ä¸ī
åĴĮ åľ¨
ä¸İ éĺ¿
é¢ ļ
çł ¾
èģĶ æīĭ
èĭ± çļĩ
é£İ æ³¢
èĭı å°Ķ
åĳ¨ æĹ¥
åįĥ çĵ¦
åı¦ ä¸ĢåĲį
åī¯ ç§ĺä¹¦éķ¿
åįĬ å¯¼ä½ĵ
å½ĵåľ° äºº
åı³ æ´¾
6æľĪ 18æĹ¥
ãĥ «
è®¢ åįķ
å¤ªéĺ³ èĥ½
8æľĪ2 9æĹ¥
ä¾ĽåºĶ åķĨ
å¤ļå°Ķ å¤ļ
èĮħ æĸ¯
æ©Ļ èī²
éĩĳåĥı å¥ĸ
6 æľĪ15æĹ¥
L C
N F
R ed
çļĦ æ³ķåĽ½
çļĦ ç©ºéĹ´
å¤§ æ´ĭ
åıĳ åĩºçļĦ
å¹¶ åıĳ
å¯¹ ä¹Įåħĭåħ°
æŃ¤ ç§į
ç»ı è´¸
é©¬ éŀį
åľº éĿ¢
ç½Ĺ éĤ£
æŃ£ æķĻä¼ļ
åı· ç§°
é¦ĸ åľº
12 äºº
å¤´ è§Ĵ
ç»Ī æŀģ
çİ¯ çĬ¶
æķ´ ä¿®
éº Ĵ
13 2
is e
åį°åº¦ çļĦ
åĨ³å®ļ åľ¨
ä¼ĺ çĤ¹
éĥ¡ å¤ªå®Ī
9æľĪ 18æĹ¥
8æľĪ 9æĹ¥
åĸĦ äºİ
éŁ¦ æģ©
ãĥ ©
æŀļ éĩĳçīĮ
æ½® æ¹¿
åīĤ éĩı
æ²ī é»ĺ
ç«ĭæ³ķ ä¼ļè®®åĳĺ
12æľĪ2 9æĹ¥
8æľĪ2 3æĹ¥
æĬļ åħ»
å¸½ åŃĲ
åĵĪä½Ľ å¤§åŃ¦
4 50
9 æľĪ17æĹ¥
Ġ å»º
æľī 2
ä»¥ èĩ³äºİ
çĶµ è®¯
ä¹Ł è®¸
çī© æµģ
éĺŁ åı²
é» ľ
äº¤ éħį
éĶ Ī
ä¹Ĳ æĽ²
å¯¼ åĲĳ
åĽŀ é¡¾
çı Ĥ
åķ Ĭ
å¥¹ åĴĮ
åıĪ ä»¥
æ±ī æľĿ
çİĩ çļĦ
åĳĬ åĪ«
æ¨¡ ç»Ħ
è±¡ æ£ĭ
éĻį æ°´éĩı
åºĵ æĸ¯
èĹı ä¼łä½ĽæķĻ
å·¥ç¨ĭ åŃ¦éĻ¢
èĽ ¤
äºĮåįģ ä¹Ŀå¹´
1æľĪ 12æĹ¥
è§Ħå®ļ å±ħæ°ĳçĤ¹
è¥¿åįĹ æİ¥
ç¾¤å²Ľ çļĦ
æĭĨ åį¸
èĩ³ä»Ĭ ä»į
ä¸Ńæĸĩ å¤§åŃ¦
6æľĪ2 7æĹ¥
ä¹¾éļĨ å¸Ŀ
å¯¹å¤ĸ å¼ĢæĶ¾
åŁĭ èĳ¬
ä½įäºİè¯¥åĽ½ è¥¿åįĹéĥ¨
éħ¿ éħĴ
, -
åľ¨ æ°´
å¤§ èĥľ
æ³ ¾
åĲİ æŀľ
åľ° æłĩ
ä¼ļ åĴĮ
åĪĨ æīĭ
è¥¿ æ¹ĸ
çī¹ å¾ĭ
æľĢ åħĪ
ä¹Ł å°±
ä»İ æĿ¥
èİ· éĢī
12 æľĪ16æĹ¥
åĽŀ åĪ°äºĨ
å°ĳ æł¡
æ¯ı ä¸ªäºº
è± ģ
åħ¶ä»ĸ åľ°åĮº
åıĤåĬł è¿ĩ
ç«ł ç¨ĭ
æ°¸ å®ī
çļĦå¤§ éĩı
å°º åº¦
4æľĪ 6æĹ¥
çļĦäºº ä»¬
å¿ħé¡» åľ¨
æĻ®æŁ¥ è§Ħå®ļå±ħæ°ĳçĤ¹
æ®ĭ éª¸
æĽ¾ç»ı æĺ¯
ç»ķ å¤ªéĺ³
éĶ® çĽĺ
çĬ¹å¤ª æķĻ
éľ¸ çİĭ
æº¶ åīĤ
æŁĶ éģĵ
Ġ198 1å¹´
Ġ194 1å¹´
è¥¿éĩĮ è¥¿äºļ
æ¡ĥåĽŃ å¸Ĥ
å¹¸åŃĺ èĢħ
æ¬º éªĹ
èĤ¯å°¼ è¿ª
ä¸Ń åŀĭ
æĿ ł
æľī è¶ħè¿ĩ
åĪĨ çļĦ
è¿Ļ æ¬¾
è®¾ çļĦ
ç»Ħ è£ħ
æĺİ æ¸ħ
çº¦ 20
æıĲ çĿ£
æĽ¾ åŃĻ
å¿ĥ çģµ
åıĹ çĽĬ
çĸ ¹
åıĺ è¿ģ
å¸¦ åĬ¨
on y
ä¼Ĭ å¤«
èİ·å¾Ĺ çĶ·åŃĲ
åħµ åĻ¨
åİĨåı² ä¸ĬçļĦ
åģľ æĪĺ
åºĵ åħĭ
åĶ± æŃĮ
re at
ä»Ģ ç»´åħĭ
7æľĪ 6æĹ¥
9æľĪ 7æĹ¥
æĭĽ å¾ħ
os h
Ch ar
é¹¿ åĦ¿å²Ľ
ä¼ı å°Ķ
æŀĦæĪĲ çļĦ
å®īå¾· æ£®
æĬĽ å¼ĥ
éĿĴæµ· çľģ
åįĩéĻį æľº
ä¼º æľį
6 æľĪ22æĹ¥
Ġ åĽ½å®¶éĺŁ
çļĦ åĶ¯ä¸Ģ
æĹ¶ åľ¨
æĹ¶ æĽ¾
ä¸Ĭ å¥ı
ä¸į ç¬¦åĲĪ
æľ¬ åŃ£
ãĢį ),
æľĢ å°ıçļĦ
èĲ ĥ
èİ· éĢīä¸º
å¤§åŃ¦ å£«
åıĺ éĿ©
åŃĹ å½¢
è¿ŀ çº¿
äºī æī§
åľ£ åħ¬ä¼ļ
çĶ² çĥ·
åį¢ çĶĺ
12æľĪ 10æĹ¥
7æľĪ 19æĹ¥
ç§ĳåŃ¦ ä¸İ
åªĴä½ĵ çļĦ
em p
çĮİ äºº
å¹´åº¦ æľĢä½³
7æľĪ2 5æĹ¥
åĳ¨åĽ´ çļĦ
ud io
æī« æıı
CO VID
èº² éģ¿
åĮĹåį¡ç½Ĺ èİ±
8 æľĪ16æĹ¥
å¹´ çºª
åĮ Ļ
ç« ¿
åĲį å£°
éĩĮ å°¼
åįĹ å®ģ
åŃĲ å¼Ł
10 æľĪ16æĹ¥
åİŁ è®¡åĪĴ
éľ Ĩ
ç¬¬ä¸Ģ å®¶
åŁŁ åĲį
æ¥ ŀ
åı¯èĥ½ å¯¼èĩ´
è´Ŀ æĸ¯
åĪ¤ å®ļ
7æľĪ 8æĹ¥
8æľĪ 19æĹ¥
æĿ¿ æ¡¥
åĩºçīĪ çī©
éĿ©åĳ½ åħļ
æįŁ æ¯ģ
ç¾½ çĲĥ
æĮ¯ åħ´
æĻ®éĢļ è¯Ŀ
æĸ¯åħĭ å·ŀ
9æľĪ2 æĹ¥
å»¶ä¼¸ åĪ°
èĢĮæĪĲ çļĦ
éĽĩ ä¸»
éĢ¼ è¿ĳ
è¯¥æĿĳ å§ĭå»ºäºİ
æĸ°å¢ŀå¢ĥå¤ĸè¾ĵåħ¥ æĢ§
3 æľĪ17æĹ¥
8 åı·
s ch
çļĦ å¯¹è±¡
åľ¨ 2000å¹´
å¤§ åħ´
åĴĮ å¯¹
åŃ¦ åĽŃ
åĪĨ èĪ°éĺŁ
ä¹ĭ å¤ľ
åı¯ éĢļè¿ĩ
åĮĹ éĿŀ
æĸĩ äºº
çĶµ ç¦»
è¯¥ å±ŀ
å°Ĩ çĶ±
åħ¨ å®¶
åħ¨ åĨĽ
æģ ķ
ä¸¤ æłĸ
åįİ çī¹
åĽ¢ åĳĺ
ç®¡ å¼¦
å¼Ģå§ĭ çļĦ
çŁ¥ å·ŀ
åı°æ¹¾ æĢ»çĿ£åºľ
å®£ ç»Ł
æīĺ æĸ¯
æīĺ å°¼
æŀģ åº¦
ä½ı äºĨ
å²ģ åıĬ
ä¸Ńå¤® éĵ¶è¡Į
èĥľ è´Ł
åºĵ å°Ķå¾·
il le
äºĮåįģ åĽĽ
æ°ĳä¸» åħ±åĴĮåĽ½
å¤ľ æĻļ
ç§ģ èĲ¥
èĻļ åģĩ
çŃĶ æ¡Ī
7æľĪ2 9æĹ¥
åĲ¸å¼ķ äºĨ
400 ç±³
åĲĮæĢ§ å©ļå§»
åīª è¾ĳ
Ġ198 0å¹´
Ġ197 8å¹´
ĠO ne
æ²Ļçī¹ éĺ¿æĭīä¼¯
çıĬçĳļ ç¤ģ
4 ä¾ĭ
Ġ New
åľ¨ å°ı
æĺ¯ çĶ±äºİ
å¤§ åłĤ
åĴĮ å¾·åĽ½
ä¼ļ ä½¿çĶ¨
ãĢĮ -
çİ° åĲį
å¸ĥ åĲķ
å·ŀ è®®ä¼ļ
è¾¾ åħĭ
éĩĳ æŃ£
åĬ¡ æ®µ
ä¿Ŀ å¯Ĩ
åĽ¾ ç¤º
çļĦä¸Ģ æĶ¯
åľ£ ä¿Ŀç½Ĺ
ä¼¯ å°Ķ
é»ĳ å¸®
é¢Ħ åħĪ
éģŃ åĪ°äºĨ
ç«¯ çļĦ
8æľĪ 30æĹ¥
3æľĪ 10æĹ¥
11æľĪ 5æĹ¥
11æľĪ 3æĹ¥
ç¬¬åĽĽ åĲį
éĺ» æĮ¡
åħĭéĩĮ æĸ¯æīĺ
os s
ä¼´ å¥ı
æµģè¡Į çļĦ
éĵģéģĵ éĥ¨
20ä¸ĸçºª åĪĿ
åı¥ ä¸½
ãĢģãĢģ ãĢģ
ak e
8æľĪ2 7æĹ¥
éĻª å®¡
äº¤çķĮ å¤Ħ
R I
l ow
u ro
Ġ y
çļĦ è·¯çº¿
åħ ľ
åľ¨ æķ´ä¸ª
ä¸į éĢĤ
å¼Ģ çģ«
è¯¥ èĬĤçĽ®
ä½¿ åĳ½
åĮĸ åĴĮ
è¾¾ èµĸ
éĩĳ åįİ
åıĹ åĳ½
æ²³ ä¸Ń
åħ¬åı¸ åľ¨
å¸¦ èµ°
æĶ¶ åıĸ
åĻ ¬
é£ŀ å¾Ģ
å¥ĩ æĢª
åĺ »
åºķ çī¹å¾ĭ
èİ« æĸ¯
å¼Ĺ æ´Ľ
è½® èĥİ
çŁŃ ç¯ĩå°ıè¯´
å°½ éĩı
æĳ© æ³½å°Ķçľģ
æĿĤ äº¤
è¿½ åĬł
8æľĪ 12æĹ¥
11æľĪ 18æĹ¥
å¹³åĿĩ æ°´å¹³
åĬ¨çĶ» çĶµå½±
çļĦçī¹ çĤ¹
çī§ åĮº
é¥® éħĴ
çķª åı°
4æľĪ2 5æĹ¥
åī© ä¸ĭçļĦ
2æľĪ2 5æĹ¥
åį¡å°Ķ çĵ¦
Mar k
é¥¥ é¥¿
ç¦»å¿ĥ çİĩä¸º0
éº¦éĩĳ èİ±
å¤ļå°Ķå¤ļ æ¶ħ
5 åħ¬åĪĨ
Ġ 185
ä¸Ģ å°ı
äºº é©¬
è¡ «
å¤§ æ»¡è´¯
ä¸Ĭ ä»¥
ä»ĸ ä¹Łæĺ¯
ç¬ ¨
ä¹ĭ ç¥ŀ
å¹¶ è®¾æľī
åĨĽ æĶ¿åºľ
ä¾ ®
åĬł æ³°ç½Ĺ
å±ŀ ä¸ĭ
ä¿Ŀ éĩĬ
çĥ ĥ
ç§¯ ç´¯
çºª å§Ķ
åıª éľĢ
é¦Ļæ¸¯ å²Ľ
æ¸ħ åįķ
æ´Ľ å°¼
é¸ ¾
è´¹ å°Ķå¾·
ç¥¨ éĢī
é¹ Ń
æľĢåĲİ åľ¨
åħ¨åĽ½ äººå¤§ä»£è¡¨
å°ģ å»º
æķĳ æµİ
11æľĪ 7æĹ¥
éľ² å¤©
æ¿Ģ æ´»
äººç±» åŃ¦
åĿĲ åľ¨
éŃĶ æľ¯
èĥ½åĬĽ çļĦ
åģı å¥½
å¹¸ è¿Ĳ
éŀ ĳ
æ§ Ľ
9æľĪ2 6æĹ¥
3æľĪ2 4æĹ¥
6æľĪ2 9æĹ¥
é¡µ éĿ¢
åįĳ è¯Ĺ
Ġä¸ĭ å±ŀçī©ç§į
æ»¤ æ³¢
å®ĩèĪª åĳĺ
p ro
äºİ ä¸Ń
äºİ åı°æ¹¾
æµ ļ
çĲ ¶
è¢« åĳ½åĲįä¸º
è¯¥ å°ıè¡ĮæĺŁ
200 8
ç§ĳ æĻ®
æŃ£ å¥½
åı¸ ä¸»äºĭ
å·´ çĻ»
åıĤ çħ§
å·² å©ļ
çĵ¦ è§£
ä¾Ľ ç»Ļ
ä¼¦ å·´
æĪĳ æĺ¯
æĸ½ åĬł
è®¾è®¡ äºĨ
å³ Ń
he l
éĽħ åĽ¾
è¿½ èµł
9æľĪ 3æĹ¥
10æľĪ 30æĹ¥
äºĮåįģ åİħ
5æľĪ 3æĹ¥
è¯Ĺ éĽĨ
æĿĲ è´¨
ãģ Ĩ
äºİ198 7å¹´
å¸ĥé²ģ å¡ŀå°Ķ
åŃ©åŃĲ ä»¬
åĽŀå¿Ĩ å½ķ
åĿł æ¯ģ
æ§Ł åŁİ
åĶ®ç¥¨ æľº
è§ĨæĺŁçŃīä¸º 6
åĬłæ³°ç½Ĺ å°¼äºļ
8 æľĪ21æĹ¥
9 æľĪ22æĹ¥
M E
w ay
Ã ¤
Ġ å¼Ģ
çļĦ æĪĲåĬŁ
çļĦ æĹ©æľŁ
å¹´ å¹³åĿĩ
åľ¨ æ²¡æľī
åľ¨ è®¸å¤ļ
ä¸º åĽĽ
ä¸Ģ çıŃ
ä¸Ń åĮĹéĥ¨
ä»ĸ æīĢ
åĩº ä½¿
åĬ¨ èį¡
çī¹ é²ģ
æĸ° å¨ĺ
åħ¥ ä¼į
åįģ ä¸ª
10 æľĪ14æĹ¥
éĥ½ å¾Ī
å¨ Ł
èº ¯
äºĶ åĲį
or th
åı¤ å»ºçŃĳ
å¼Ģå§ĭ æĹ¶
æŃ¦ å°Ĩ
æĭ¿ åĪ°
9æľĪ 9æĹ¥
11æľĪ 9æĹ¥
åįĪ å¤ľ
çīĽ èĤī
å¥³åŃĲ åĽ¢ä½ĵ
åı¬ åĽŀ
æĬķèµĦ èĢħ
åİ¿çļĦä¸Ģä¸ª éķĩåĮº
ä¸Ńå±± å¤§åŃ¦
æ¸¸æ³³ æ±ł
ä¿Ŀå®Ī æ´¾
æĺ¯ä½įäºİ æĹ¥æľ¬
å·´å¸ĥ äºļ
tern ational
! ãĢĭ
3 æĹ¶
W illiam
m o
Ġ sp
çļĦ ä¹¦
çļĦ å®ĹæķĻ
ä¸º 6
å· ħ
ä»¥ åīįçļĦ
ä¸į è¶ħè¿ĩ
åħ¬ åİĺ
ä½ľ çĶ»
ä¸» çº¿
çī¹ èī²çļĦ
å¤ļ åįĬ
åĬł å¾·
æľĢ å¸¸è§ģçļĦ
çĶµ éĵģ
å¦ ¨
ä¸ĸ éĶ¦èµĽ
ä½Ĩ å®ŀéĻħä¸Ĭ
ä¸¤ å¤©
åĽĽ å¤Ħ
æĽ¾ ä¸Ģåº¦
12 æľĪ17æĹ¥
çº³ åħĭ
æĽ² æ£į
ç¥ŀ å®Ĺ
èĭı æĭī
äº¬ åŁİ
ä¼¯ åħĭ
å¡ŀ æµ¦
æ¦ Ī
(, ,
æ¥¼ å®ĩ
è¯į åħ¸
åĵ¥ æĭī
èĹı åĵģ
æĺ¥ æĻļ
çŁŃ éĢĶ
7æľĪ 11æĹ¥
1æľĪ 9æĹ¥
åħħ è¶³
2010å¹´ äººåı£
æ¿Ģ åıĳ
è¯Ĭ æīĢ
å®ŀçİ° äºĨ
äºİ198 6å¹´
åĲ¸å¼ķ åĬĽ
æ¹ĺ æ¶Ľ
MA X
Ġ195 8å¹´
æĺ¯ä¸Ģä½į ç¾İåĽ½
HR Ġ
ä¸ĩå¹´ åīį
å¹¼ç¨ļ åĽŃ
e x
r al
Ġ å½¢æĢģ
çļĦ å®ī
çļĦ åı°æ¹¾
çļĦ èĳĹä½ľ
çļĦ æķĪæŀľ
ä¸Ģ éĥİ
ä¸Ń åŃĲ
åĲİ åįĬ
ä»ĸ åĽł
å®¶ åĽŃ
çī¹ è®¸
éķ¿ èĢħ
åĪ© åŁĥ
æĻ ķ
ç¾İ äºº
å½ĵ ä¸ŃçļĦ
åħ¨ èĥ½
çĤ «
å¤Ħ ä»¥
æĮĩ å¼ķ
åıª åī©ä¸ĭ
æ¯ı ç§Ĵ
åķĨ åŃ¦éĻ¢
æŃĮ è¿·
åıĮ äºº
æķĪ å¿ł
æľĢç»Ī å¹»æĥ³
æķĻèĤ² å®¶
ç¬¬ä¸ī åŃ£
ç¯ ·
12æľĪ 5æĹ¥
12æľĪ 4æĹ¥
å¾ĹåĪ° çļĦ
ä¹° åįĸ
æ¯įäº² æĺ¯
ç»ıå¸¸ è¢«
åĭĩ æķ¢
6æľĪ2 6æĹ¥
çļĦåİŁ å§ĭ
èŁ ¾
æ¼ı æ´ŀ
æ¯ĶåĪ©çīĽæĸ¯ çľģ
çŀ¬ éĹ´
çİ»åĪ© ç»´äºļ
Y P
r ing
Ġ åı¯
Ġ èµ·æºĲ
å± ĳ
æ² Į
åıĳ æĢ§
æ³ķ çİĭ
æĶ¿ åĿĽ
ä½į åħĥ
çĶ± æĹ¥æľ¬
ä¸ĭ æĶ¾
èĩª ä¼ł
çī© è¯Ń
è½¦ ç¥¨
çĲĨ æĢ§
è¡¨ è¿°
ä¸ĸ ç¥ĸ
éļ ħ
è¾¾ æĸ¯
åģ ķ
å¸Ī å¸Īéķ¿
å®ĥ åı¯ä»¥
çļĦä¸Ģ å±ŀ
å¨ģ æĸ¯çī¹
ä¿® å¥³
æ¨¡ æłĩæľ¬
åŁĥ éĩĮåħĭ
ä½İ éŁ³
åı¶ çīĩ
åĶ® åĩº
èįī æľ¬
èĢ¶ å¾ĭ
7æľĪ 30æĹ¥
10æľĪ 7æĹ¥
10æľĪ 20æĹ¥
äºĮåįģ åħ«å¹´
æĿ¯ åĨ³èµĽ
éĽĨåĽ¢ çļĦ
6æľĪ 9æĹ¥
çļĦä¸» åĬĽ
ä¸ŃåĽ½äººæ°ĳ æĶ¿æ²»åįıåķĨä¼ļè®®
187 1å¹´
çļĦå°ı åŀĭ
èµ«å°Ķ æĽ¼
å®ł çī©
çļĦè½¨éģĵ åįĬéķ¿è½´
ç¿¡ç¿ł åı°
èµ«é²ģ æĻĵ
5 0å¹´ä»£
N S
O r
Ġ æĹł
çļĦ çº¢
ä¸º 7
äºİ æĺ¯åľ¨
æľī ä¸īä¸ª
åĴĮ é»ĳ
æĢ ľ
æĪĲ åĥı
ä¸İ åı°æ¹¾
ä¸» å§Ķ
èĢĮ èİ·å¾Ĺ
æĿ¥ è¿Ľè¡Į
æĿ¥ è¡¨ç¤º
å¤ļ æľī
çŃī èģĮåĬ¡
å±± æĿĳ
å¤© åĽ½
æĢ» åıĤè°ĭéĥ¨
æĺŁ åº§
å¥¥ ä¼ļ
æº ľ
åĽŀ åĵį
ä¿¡ å¿ĥ
çŁ³ ç¢ĳ
è½¬ åĪ°
å¢ŀ åİĭ
åĿĩ ä»¥
è¯º å°Ķ
å¡ŀ æĭī
åºķ è´¨
èİ« éĩĮæĸ¯
èīºæľ¯ åŃ¦éĻ¢
4æľĪ 19æĹ¥
è¶ħè¿ĩ äºĨ
è·Ł è¸ª
æ¸¡ è½®
å¢Ļ å£ģ
åİĦ çĵľ
äºİ198 4å¹´
ç´« èī²
3æľĪ2 3æĹ¥
8æľĪ2 æĹ¥
åĬłå·ŀ å¤§åŃ¦
æ£ķ æ¦Ī
C T
çļ Ī
çļĦ çİĭ
çļĦ è±¡å¾ģ
ä¸Ģ å¹¶
è¥¿ éĿ¢
åĬ¨ æ¼«
åĪ© æ²ĥå¤«
ç¾İ å®¹
ä¸ī åº§
ä¸¤ æĶ¯
è¿Ĳ è½¬çļĦå°ıè¡ĮæĺŁ
éĺ¿ æ³¢ç½Ĺ
å¼ł åĽ½
çĳ ¾
æŃ» äºĨ
åħ« ä¸Ģ
èĪª åİ¦
åĲī å®ī
çĥŃ åĪº
çļĩ å¤ªåĲİ
æĤ ļ
ä¸»ä¹ī åĴĮ
åı³ å²¸
åľ°æĸ¹ æ³ķéĻ¢
å¸ķ çī¹
5æľĪ 12æĹ¥
ç»Łæ²» æĹ¶æľŁ
æļĹ ä¸Ń
çĮİ çī©
4æľĪ2 7æĹ¥
æĶ¾å¼ĥ äºĨ
åĪ¶å®ļ äºĨ
åħ¬æĸ¤ çº§
ĠL ive
ä½įäºİæ³ķåĽ½ æĸ°éĺ¿åŁºåĿ¦å¤§åĮº
æĺ¯ä¸Ģé¢Ĺ ç»ķå¤ªéĺ³
è¶ģ æľº
éĵľéĶ£ æ¹¾
ä¸Ńå±Ĥ æ°´åŁŁ
Ġè½¨éģĵ åıĤæķ°
æĺ¯ä¸Ģé¢Ĺç»ķå¤ªéĺ³ è¿Ĳè½¬çļĦå°ıè¡ĮæĺŁ
8 æľĪ17æĹ¥
k a
r at
Ġ as
Ġ è·Ŀç¦»
åľ¨ ä¸ĸçķĮ
åľ¨ ä¿Ħç½Ĺæĸ¯
åĽ½ åĨħçļĦ
æľĪ å¨¥
ä»¥ ç¤º
ä¸į èµ·
ä¹ĭ çİĭ
ä¹ĭ å½¹
å¯¹ å³Ļ
çī¹ æĢ¥
åįĹ æĬķ
åĬł å¿«
åĮĹ çº¬
åĪ© æĸĩ
æŃ¤ åī§
ä¹Ł åĽłä¸º
å½ĵ ä»ĸ
å°Ĩ æĪĲä¸º
åĪ¶ åĬ¨
åĲĪ ç§°
æį §
ç§į å§ĵ
çĦ ī
æīĭ è¯Ń
å®ĥ è¢«
ç¼ĸ ä¿®
æ¸ħ æ´Ĺ
ç¦» ä»»
çĵ¦ åħ¹çľģ
èĪª éĢŁ
æŃ£å¼ı å®£å¸ĥ
æī§ çħ§
æī§ æĶ¿åħļ
å·²ç»ı åľ¨
èĢ¶ é²ģ
ç»ĦæĪĲ äºĨ
äºĮåįģ åħŃå¹´
åģĩ åĲį
åıªæľī ä¸Ģä¸ª
ãĤ ¢
ç»¿ åľ°
èĿ ī
åĬłæĭ¿ å¤§çļĦ
å¤ĸäº¤ æĶ¿çŃĸ
çļĦåľ° éĿ¢
ä¸ºä¸» å°ıè¡ĮæĺŁå¸¦
æ¨¡å¼ı ç§į
è®¾ç½® äºĨ
é¼ĵ æ¥¼
çĽĹ çªĥ
8æľĪ2 5æĹ¥
ä¸ľè¥¿ åĲĳ
5æľĪ2 7æĹ¥
5æľĪ2 6æĹ¥
æĿŃ å·ŀå¸Ĥ
LE D
ĠM c
äº¤åĵį æĽ²
ä¸ºä¸»å°ıè¡ĮæĺŁå¸¦ å°ıè¡ĮæĺŁ
1 çº¿
1 æľĪ16æĹ¥
2 å®¶
2 60
D O
çļĦ çĪ±
æ² ¥
è¡Į éĶĢ
ç¬¬ 24
å¹¶ æľĢç»Ī
åĲĮ è¡Į
åĲĮ æĥħ
æĸ° æ¸¯
æµ· æ»¨
å¸ĥ éĩĮæĸ¯
ç§° åħ¶
æĺİ çĻ½
è®® ä¼ļè®®åĳĺ
åĳ¨ åħŃ
æ¸ħ æ²»
è¿ŀ èĥľ
åįĩ é«ĺ
å¤ĩ å¿ĺ
ä¸Ńå¤® äººæ°ĳæĶ¿åºľ
æķĻèĤ² å±Ģ
it al
12æľĪ 11æĹ¥
æ´¥ è´´
1æľĪ 11æĹ¥
çĶļèĩ³ æĺ¯
æ¯ıå¹´ å¹³åĿĩéĻįéĽ¨éĩı
æĮĤ çīĮ
19ä¸ĸçºª æľ«
ä¸ºè¾Ĳé³įé±¼çº² é²¤
ĠU A
æĺ¯ä¹Įåħĭåħ° çļĦæĿĳèĲ½
çĢ Ľ
åīĳæ¡¥ å¤§åŃ¦
Ð¾ Ð
èĲ¨å°Ķçĵ¦ å¤ļ
å¢¨å°Ķ æľ¬
åĺ» åĵĪ
1 äº¿
k y
Ġ éĵģè·¯
Ġ ç»ĵæŀĦ
Ġ 23
æ² ½
éķ ģ
çĶ± é¦Ļæ¸¯
åŃĲ åĹ£
åı£ ç½©
å±± æ°´
ç¨ ł
äº¤ æ¶ī
å°± è¦ģ
å¥¥ åħ°
åıį æģĲ
å®ĺ ç½ĳ
åħī çº¿
æ´¾ åħµ
æħ ¨
æł¸ æŃ¦åĻ¨
éº¦ è¿ª
æĳ© å¤©
çģµ æ´»
3æľĪ 11æĹ¥
è¯ĳ æľ¬
åģı ç¦»
å¼± çļĦ
ç»ıèĲ¥ çļĦ
éĦ ŀ
å¯Ĵ åĨ·
æĺ¯ä½įäºİç¾İåĽ½ ä¼ĬåĪ©è¯ºä¼Ĭå·ŀ
å¾·æĦıå¿Ĺ å¸ĿåĽ½
è´¹å°Ķ åįĹ
åĢĻè½¦ å®¤
è½¶ äºĭ
1 å¹³æĸ¹åħ¬éĩĮ
5 æľĪ13æĹ¥
Ġ æĿľ
Ġ åªĴä½ĵ
çļĦ æľĢåĲİä¸Ģ
ä¸Ģ ä¸Ģ
äºº æł¼
åĴĮ åĽ½éĻħ
æĭ Ĳ
ä»¥ åħį
è¡Į åĪĹ
ç¬¬ 21
ä¾ ı
åĲĮ å±ŀ
ç³» ä¸»ä»»
æŀĹ çļĦ
12 æĹ¶
å¥¥ æľ¬
å¥¹ è¿ĺ
è½¬ åĮĸ
éĿ¢ç§¯ 3
çĻ¾ åĪĨ
ä»į ä¸º
è´Ŀ åĭĴ
è½» æĺĵ
12æľĪ 6æĹ¥
12æľĪ 19æĹ¥
é¦ĸæ¬¡ äº®çĽ¸
ä¼ģ é¹ħ
å®¡ è®¡
5æľĪ 9æĹ¥
å·¥ä¸ļ å¤§åŃ¦
189 0å¹´
189 7å¹´
çıł å®Ŀ
äºİ18 3
åĩºèº« çļĦ
åĽ½åĬ¡ åį¿
èĢĹ èµĦ
éº¦åħĭ åĶĲçº³
éĹª çĶµ
Ġ194 4å¹´
Ġ194 2å¹´
æīŃ æĽ²
èģĮæ£Ĵ å¤§èģĶçĽŁ
éŃħ åĬĽ
H T
d er
Ġ å®ļä¹ī
Ġ 184
çļĦ è¯į
åľ¨ ä¸įåĲĮ
åĴĮ åīį
ä¸į è§ĦåĪĻ
åħ¬ ä½¿
ç¬¬ 18
æľ¬ åĵĪæł¹
å¸Ĥ å§Ķä¹¦è®°
å¤ļ çĳĻ
åĮĹ éĹ¨
è¯¥ å²Ľ
åĲĪ ä¸Ģ
ç½Ĺ ç´ł
ç«Ļ çĤ¹
è¾¾ çļĦ
å°¼ åħĭæĸ¯
å¸¸ é©»
éĶ ļ
åĩ» åīĳ
ç¥ŀ å¥ĩ
èĭı é»İ
ç¬¬äºĮ æī¹
æ±ī åĨĽ
é¥ ª
èĪª æ¯į
éĢļè¿ĩ çļĦ
åĲİæĿ¥ åıĪ
æ²ĥ çī¹
ac ritic
3æľĪ 20æĹ¥
1æľĪ 30æĹ¥
åįģäºĮ åİħ
ç§ģ æľī
å®ª ç«ł
æĦ¿ æľĽ
è§¦ åıĳ
è¿Ŀ è§Ħ
å¨ģå»ī å§Ĩæĸ¯
çº¹ ç«ł
è·³ èĪŀ
éĽĨä¸Ń éļĶç¦»
3æľĪ2 æĹ¥
å¤±è´¥ åĲİ
å¼ķåħ¥ äºĨ
è½¬åĲĳ æŀ¶
æ³¢ç½Ĺ çĥŃ
å¤§å¸Ī èµĽ
å¿ĥèĦı çĹħ
ä¸ĭçļĦä¸Ģä¸ª å±ŀ
çĥ¹ é¥ª
ä¸ľæŃ£ æķĻ
åį¡å°Ķçĵ¦ å¤ļæĸ¯
7 å¹³æĸ¹åħ¬éĩĮ
9 æľĪ16æĹ¥
ç µ
Ġ æ¯Ķ
Ġ åı²
Ġ æ°¸
ä¸Ń åĩºçİ°
åĴĮ ç»ıæµİ
æł ĵ
ä¼ļ å½±åĵį
ä¸İ å°ı
ä¸İ é¦Ļæ¸¯
ä¸į è§ģ
ä¸į åĥı
éĽ ³
å¯¹ ä»ĸçļĦ
åĲĮ ä½įç´ł
é© ¯
æµ· è±ļ
èĩ³ åħ³
ç® ķ
å¤ĸ åĢŁ
æ¬¡ éĥİ
å·ŀ åĮº
åĮĸ åŃ¦å®¶
ç§į çļĦ
å®ī çľģ
ä¸¤ äººåľ¨
æĢ» é¢Ĩäºĭé¦Ĩ
èµ· äºİ
åıį é©³
æ´² éĻħ
èĬĤ çľģ
çŁ³ åĭĴ
æĿ¡ æĸĩ
éĻĨ ä¸Ĭ
ç»Ī å¹´
æ±ī æĸ¯
éĻį èĩ³
åŁİå¸Ĥ åħ¬åħ±äº¤éĢļ
æĭ¥æľī çļĦ
æ²ĥ åħĭ
3æľĪ 4æĹ¥
3æľĪ 19æĹ¥
5æľĪ 18æĹ¥
ç¦ģ ä»¤
æķĮ æĸ¹
äº® åº¦
æŁ± åĽ½
èļ Į
èĹ© ä¸»
4æľĪ2 6æĹ¥
ãĢı ,
çļĦä¸Ģåº§ åŁİå¸Ĥ
èİ±èĮµ çľģ
ric on
è¥Ħ éĺ³
å¥ł å®ļäºĨ
æ°ĳä¸»ä¸»ä¹ī äººæ°ĳåħ±åĴĮåĽ½
å¤ĩå¿ĺ å½ķ
- ãĢģ
J e
m b
Ġ äºĶ
åľ¨ åı°
åľ¨ éĤ£
åľ¨ åĬłæĭ¿å¤§
è¿Ļ æľ¬ä¹¦
æĸĩ åºĵ
ä½ĵ éķ¿
ä¸ĸ å®¶
æĢ§ é±¼ç±»
å·ŀ éĻħ
æĢ» é¢Ĩäºĭ
å·´ æ´Ľåħĭ
18 å²ģ
éĹ¨ å°Ĩ
ç¥ŀ çģµ
la ck
åĲī æĢĿ
æİĴ æ°´éĩı
åĽ½éĻħ çĶµå½±èĬĤ
å¥ĩ è¿¹
ãĢį, ãĢĮ
æľ« æĹ¥
çĦ¶èĢĮ åľ¨
æŀª æ¢°
3æľĪ 9æĹ¥
äº¤éĢļ å¤§åŃ¦
åħ» èĢģ
1æľĪ 6æĹ¥
4æľĪ 10æĹ¥
éģĩ å®³
æľĿé²ľ æ°ĳä¸»ä¸»ä¹īäººæ°ĳåħ±åĴĮåĽ½
ra g
IN K
æ¹ĸåįĹ åį«è§Ĩ
11æľĪ2 5æĹ¥
åĵ¥ä¼¦æ¯Ķäºļ å¤§åŃ¦
ç¿ħ èĨĢ
è·¯æĺĵæĸ¯ å®ī
æ³ķå°Ķ èĮ¨
æĹıèĩªæ²» å·ŀ
èĶĵ å»¶
6 å¹³æĸ¹åħ¬éĩĮ
T P
Ġ é»ĳ
Ġ se
çļĦ 2
æĺ¯ ä¸ĸçķĮ
åľ° é©¬æĭī
ç« º
ä¸İ èĭ±åĽ½
åĪ° åıĳ
èĢĮ æĹłæ³ķ
ä¸ī æĹ¥
çĶµ åĻ¨
å®ī å¹³
æĺİ æľ«
åħĥ åĴĮ
æĹł ç©·
åıĹ è´¿
åĪĻ åı¯
åį¡ å¡Ķå°Ķ
éĹ¨ æ§Ľ
æĶ¯ éĤ£
åı¯ä»¥ ä»İ
å¤´ åıĳ
æĿİ ç»´
æīĺ åħĭ
åĨĻ ä¸ĭ
åıĳçĶŁ åĨ²çªģ
å°½ åı¯èĥ½
12æľĪ 9æĹ¥
ou s
8æľĪ 7æĹ¥
3æľĪ 3æĹ¥
æłĩåĩĨ åĮĸ
æ¿Ģ åħī
11æľĪ2 æĹ¥
11æľĪ2 6æĹ¥
åľ¨199 8å¹´
æ¹¿ æ¶¦
å¸ĥèİ± åħĭ
æ»¨æµ· å¡ŀçº³
å®īä¸ľ å°¼å¥¥
çĶ°å¾Ħ è¿ĲåĬ¨åĳĺ
æł¼æĭīæĸ¯ åĵ¥
çĶµåĬ¨ æľº
çļĪ ä¾Ŀ
7 æľĪ14æĹ¥
O n
t a
Ġ äºļ
Ġ æ¢ħ
åľ¨ åİŁ
ä¸Ń å¯¹
ä¸Ń æıĲåĪ°
æĺ¯ å±ŀäºİ
å¤§ æĪĲ
åĴĮ M
åľ° å±Ĥ
ä¸į åĮħæĭ¬
ä¸į ä¾¿
åħ¬ é¦Ĩ
åħ¶ æīĢ
åĪĨ éĻ¢
æ³ķ ä¾ĭ
æ°ĳ å»º
çī¹ æľī
åĿ ľ
å¾· ç±³
çİ° çĬ¶
ç«ĭ äº¤
å¤© èĬ±
ç§ĳ å¨ģçī¹
å®ŀ åľ¨
æ· ŀ
åĽŀ æĬ¥
åıĺ éĢŁ
å¼ł å½ķéŁ³å®¤ä¸ĵè¾ĳ
ç¥ŀ æĺİ
æľª å©ļ
æ¯ı å¹´çļĦ
é£ŀ ç¢Ł
å®Ī éĹ¨
è®¾æľī 1
6æľĪ 4æĹ¥
åĽłæŃ¤ è¢«
èĥŀ èĥİ
ç¾½ èģĶ
ç¼© åĩı
å¤©ä¸»æķĻ ä¼ļ
å»ºæĪĲ éĢļè½¦
æĲľ æŁ¥
11æľĪ2 4æĹ¥
æº¶ è§£
åıĮæīĵ åĨłåĨĽ
Ġ194 7å¹´
æĹłè®º æĺ¯
åĿĲèĲ½ äºİ
ç½¹ æĤ£
éķ° ä»ĵ
) âĢĿ
1 æľĪ13æĹ¥
: ,
O L
çļĦ ç®¡çĲĨ
çļĦ é¢ľèī²
åľ¨ 2021å¹´
ä¸Ģ æ¬¾
åĽ½ äºº
æĺ¯ çļĦ
åĴĮ ä¸ĢäºĽ
è¥¿ åŁŁ
èĢĮ è¿ĻäºĽ
å¾· æĽ¼
ç¾İ æµĵ
ä»£ ä»Ģ
çŃī åĽłç´ł
æĭī æł¼
äºĮ èĢħ
é©¬ èĢ¶
ä¸¤ åı°
åĢ ©
è®¤ çľŁ
11 äºº
å¥¹ è¢«
åĽ½å®¶ ç»Łè®¡
å¾Ģ åĲİ
æŃ¦ å¾·
äº¦ äºİ
è´¨ åŃĲ
åĽŃ èīº
æĬ¤ éĢģ
åħ« å¤§
ç»§ èĢĮ
æīĺ ç±³å°Ķ
è´Ł äºİ
å£° æı´
æĻ¯ æ³°
éĩįè¦ģ ä½ľçĶ¨
8æľĪ 3æĹ¥
2æľĪ 10æĹ¥
åģı è¥¿
éŀ ĺ
æĪĸèĢħ æĺ¯
5æľĪ2 æĹ¥
å·§ åħĭ
æŃ¥åħµ å¸Ī
é©¬æĭī éĽħ
å·« å¸Ī
éĩĩè®¿ æĹ¶
Ġ196 6å¹´
æĳĶ è§Ĵ
éĺ¿å§Ĩæĸ¯çī¹ ä¸¹
å¯ĨæŃĩæł¹ å·ŀ
9 æľĪ21æĹ¥
y th
çļĦ 3
çļĦ ä¿ĿæĬ¤
çļĦ æ¯Ķä¾ĭ
åľ¨ é©¬
åľ¨ éĩİ
ä¸Ģ çĲĥ
å¤§ éĥ½
èµ Ĥ
åħ¬ èģĮ
è¥¿ ç«Ļ
æ³ķ åĪ¶
æ°ĳ æĿĥ
åĬ¨ æ¤įçī©
åĨħ ä¾§
å°ı åĮº
10 åĲį
10 æľĪ22æĹ¥
çĽ¸ æİ¥
èĭ± å®Ĺ
å°¼ ç½Ĺ
é¦ĸ åįķæĽ²
è¯Ń æĸĩ
æĹł æĶ¿åºľ
éľ ¹
çķĮ çº¿
æĻ® æ³ķå°ĶèĮ¨
èº« ç©¿
åıĸ äºĨ
æ¸ħ æĶ¿åºľ
åĵĪ å§Ĩ
ar s
å¸Į æĭī
åĿĩ è¢«
è¯º å¨ģ
èĬ± å²Ĺ
ä¸ĥ ä¸ĸ
æĦŁ çŁ¥
åıĳå±ķ æĪĲ
æ£® çļĦ
åĵ¥ èĲ¨åħĭ
3æľĪ 12æĹ¥
åģĩ å¦Ĥ
é²ľ æĺİ
ä¸° èĩ£
æīİ æ³¢ç½ĹçĥŃ
åķĨä¸ļ éĵ¶è¡Į
éĿĴå¹´ åĽ¢
å¤§éĥ¨åĪĨ çļĦ
åĽ½åĨħ å¤ĸ
5æľĪ2 3æĹ¥
åľ¨199 6å¹´
åľ¨199 7å¹´
çŁ¥è¯Ĩ åĪĨåŃĲ
åı°åĮĹå¸Ĥ æĶ¿åºľ
ha el
æľīæĹ¶ ä¼ļ
å¥¥å°Ķ èī¯
å¤§éĢī ä¸Ń
è¯± å¯¼
æľīåĪ© äºİ
æ®´ æīĵ
èĲ¨è¯¸å¡ŀ å·ŀ
% )ãĢģ
6 æľĪ16æĹ¥
f er
Ġ æľīäºĽ
åŃ¦ ä¸Ń
ä¸Ĭ å°ī
å¯¹ éĿ¢
è¿Ļ ä¸¤ç§į
èĩª å¹¼
åĮĹ å¤§
æīĢ ç»ĦæĪĲ
æīĢ åıĸä»£
è¯¥ è®¡åĪĴ
çĽ¸ æľĽ
æ°´ æīģ
æıĲ æĹ©
åľ°åĮº ä»£è¡¨
é£İ ä¿Ĺ
æĿĥ éĻĲ
çŁ³ åĪ»
ç¬¬äºĮ å¹´
åī¯ çľģéķ¿
èĢģ é¼ł
åĵ¥ æľ¬åĵĪæł¹
éº¦ åį¡
èĻ½çĦ¶ åľ¨
9æľĪ 11æĹ¥
6æľĪ 19æĹ¥
1æľĪ 8æĹ¥
æµ·åĨĽ éĻĨæĪĺéĺŁ
æ·· éŁ³
æįķ é£Ł
çİ¯å¢ĥ ä¸Ń
éĤ» å±ħ
åĲ¬ è§ī
è·¨ åĽ½
è¾ŀ åħ¸
ag ram
èĮ¶ åı¶
æĺŁæľŁ æĹ¥
åħ¥ä¾µ ä¹Įåħĭåħ°
11æľĪ2 3æĹ¥
1æľĪ2 5æĹ¥
è¯¥çľģä»½ä¸ºæ³ķåĽ½ è¥¿åĮĹéĥ¨
éĩľ å±±
2 æ¬¡
4 æľĪ17æĹ¥
5 æľĪ17æĹ¥
6 åı·çº¿
H ar
Ġ çİ°åľ¨
ä¸ ķ
çļĦ è¿ĲåĬ¨
çļĦ ä¸ľè¥¿
ä¸Ģ å¹´çļĦ
æĺ¯ ç½Ĺé©¬å°¼äºļ
æĻ Ĵ
ä¸ī åĪĨä¹ĭä¸Ģ
æĪĺ åĬŁ
åĪ¶ å®ļçļĦ
çĤ ¬
èµ· éĻį
æĶ¹ æŃ£
åİĨ å¹´
ä¹¦ çļĦ
æ¸¸ çī§
åĩ» æºĥ
ä¸ĵ åĪ¶
è¿ĳ æµ·
ä¿¡ ä»¶
æŁ¥ è¯¢
ä¿® è¯»
åī¯ ä½ľçĶ¨
æĬĢ èīº
å¥ĩ å¼Ĥ
æıĲä¾Ľ æľįåĬ¡
å·²ç»ı æľī
æĪĲåĬŁ åľ°
9æľĪ èĩ³
ãĥ ĥ
åĩ¯ æĴĴ
çİī ç±³
ä»Ļ å¥³
è¯ģæĺİ äºĨ
12æľĪ2 7æĹ¥
æĳ§æ¯ģ äºĨ
èĢĮè¯¥åľ° æľĢé«ĺçĤ¹ä¸º
æīĵçł´ äºĨ
æĬ¤åį« èĪ°
å¼ĹåĲī å°¼äºļ
éĩĳæĹ¥ æĪĲ
éº¦è¿ª éĢĬ
5 åı·çº¿
o ot
y p
Ġ id
ãĢģ ãĢĮ
æĺ¯ éĿŀ
å¤§ ä»Ļ
æľī åı²ä»¥æĿ¥
åĴĮ æ¬§æ´²
è¡Į åĨĽ
å°Ķ æĽ¼
å¸Ĥ åĮºçļĦ
å¹³ åıį
æĸĩ åºĻ
æĻ ı
åĨħ å¿ĥ
éĥ½ å°ī
æł¼ éĻµ
æĺİ å¸Ŀ
12 æľĪ22æĹ¥
æ²³ å¸Ĥ
an Ġ
å¤´ çĽ®
çĵ¦ æĸ¯
çļĦä¸Ģä¸ª æĿĳ
æ¨¡ èĮĥ
èĬ± äºĨ
çľĭ åĩº
å³ ¨
æĬĹ äºī
6æľĪ 11æĹ¥
è¡ĮåĬ¨ ä¸Ń
11æľĪ 19æĹ¥
æ·· åıĮ
çĤ® åĩ»
ãģ Ĺ
ç¬¬åįģ äºĶ
å®ļä¹ī çļĦ
çıį å®Ŀ
å¦Ĥä¸ĭ è¡¨
å®īè£ħ äºĨ
4æľĪ2 æĹ¥
äº¿åħĥ äººæ°ĳå¸ģ
æĬĦ è¢Ń
åŃļ æĹ¥
ç³Ł ç³ķ
éľ¹ éĽ³
7 æľĪ17æĹ¥
8 å¹³æĸ¹åħ¬éĩĮ
M M
Ġ å¥ĸé¡¹
çļĦ B
åľ¨ å¥¹
ä»¥ 6
éĿ ¼
ä¸Ĭ çº§
ä¸Ĭ è¯¾
è¡Į è¿Ľ
æĬ Ĵ
å¼Ģ äºĨ
å¹³ æĹ¶
çķ ¸
å°ı å·´
èĢħ ä¹ĭä¸Ģ
å®ī éĹ¨
éĺ¿ æĸ¹ç´¢
å¸¸ ä¾į
æŀĹ åľ°
çļĦä¸Ģ æ®µ
æŀĦ æĢĿ
åľ£ å½¼å¾Ĺåł¡
çıŃ æľº
å§Ĩ çļĦ
éħį æľī
çĿ£ å¯Ł
le ct
7æľĪ 3æĹ¥
9æľĪ 10æĹ¥
æķĳ åĩº
æ¦Ĥ åĨµ
å°ĶçļĦ æĳ©
12æľĪ2 æĹ¥
6æľĪ2 æĹ¥
æĹħå®¢ åĪĹè½¦
åıĶ çĪ¶
åĲĮçĽŁ ä¼ļ
èĩªèº« çļĦ
åĬĿ è¯´
ç»´åŁĥ çº³çľģ
æ²ĥå°Ķ å¤«
è¾¾ç§ĳ ä»ĸå·ŀ
å¤ıæľĹå¾· çľģ
D on
O T
çļĦ æĸ¹åĲĳ
åĩº åĩ»
åĪĨ åĩº
ä¹ĭ å¼Ł
æĸ¹ ä½į
ç¬¬ 25
çĶ¨ è¯Ń
ä¸ĭ ä¸Ģä¸ª
ç¾İ å¥ĸ
åīį éĿ¢
é«ĺ åĩº
é«ĺ æ½®
ä¹Ł å¾Ī
è¿ĩ æ»¤
å°Ĩ ä»¥
æľº å¯Ĩ
æł¼ åĪ©
é¦ĸ åıĳ
å¤Ħ å¥³
èĭı åĮº
åħī èį£
å¨ģ åĪ©
è£ħ ä¿®
ä»Ĭ æ²³åįĹçľģ
åįĩ ä¸Ĭ
å¥½ å¤Ħ
æĭħä»» è¿ĩ
éĿĴ è¡£
çĶ² å£³
åĨľ çĶ°
ä¾§ çº¿
æĢĿ ç»´
åĽłä¸º åħ¶
æĬĢæľ¯ åŃ¦éĻ¢
çŁŃ ç¯ĩ
è¾ĵ ç»Ļ
çİĽ åĪ©äºļ
åħį äºİ
äº¿ ç«ĭæĸ¹ç±³
èį£ èĢĢ
ç»§ç»Ń åľ¨
ä¸° çĶ°
æķ¦ ä¿ĥ
èģļ çĦ¦
ä¼° ç®Ĺ
ä½Ĳ æ²»
å¨ģå°Ķ éĢĬ
7æľĪ2 7æĹ¥
1æľĪ2 8æĹ¥
å¼Ģè®¾ äºĨ
å·´å¡ŀ ç½ĹéĤ£
ç§ĳå¤ļå°Ķ çľģ
æł¼éĻµ åħ°
7 æľĪ22æĹ¥
Ġ æĮī
Ġ æľĪåı°
çļĦ çĻ½
çļĦ åĩºçİ°
çļĦ ä¿¡æģ¯
åľ¨ è¿Ľè¡Į
äºº éĺŁ
åĴĮ ä¸ľ
æķ ŀ
éĺ Ļ
èĢĮ è¯¥
å»º æŀĦ
è½¦ ç¥¸
å±± ä¸ĭ
å°ı å¿ĥ
å°ı åŃ¦æł¡
æİ¥ åħ¥
åĽĽ åįģäºĮå¹´
åĽĽ åĪĨä¹ĭä¸Ģ
éŁ³ éĢŁ
æº º
åĮħæĭ¬ åľ¨
æ±Ł æ¹ĸ
æ³¢ åĪ©æĸ¯
è¿ŀ éĢļ
ic o
el f
è¿½ æįķ
å¥³æĢ§ çļĦ
éľį æĻ®
éĨ ļ
æµ·æĭĶé«ĺåº¦ 3
189 4å¹´
éļĲ å±ħ
6æľĪ2 3æĹ¥
çļĦé¦ĸ å¸Ń
åıĳæĺİ äºĨ
äºĮæĪĺ æľŁéĹ´
å·²çŁ¥ çļĦ
ä½įäºİæ³ķåĽ½ å¥¥åħĭè¥¿å¡Ķå°¼å¤§åĮº
å¼ĹéĩĮ å¾·éĩĮå¸Į
åį°ç¬¬å®ī çº³
æ¡ĵ åħ¬
åİ¨ æĪ¿
éŀĳ éĿ¼
1 æ¬¡
3 æľĪ21æĹ¥
5 æľĪ22æĹ¥
Ġ æĸ¯
Ġ æŃ¤åĲİ
çļĦ éĤ£
å¤§ æµ·
æĹ¥ æ¸Ĳ
ä¸į ç®¡
ä¸į ç¨³å®ļ
åĪĨ åħ¬åı¸
æĪĺ åīį
å°Ĩ ä¹ĭ
è¡¨ æĢģ
è®¾ æĥ³
200 5
å¤© åŃĲ
10 åĪĨ
åĽĽ åįģå¹´
å¹¿ çĶµ
åºĶ åıĺ
åıĸ åĲį
å¤ª å¸¸
åŃĹ åŃĲ
ä¼Ĭ åĬ¿
è§Ĵ é¾Ļ
è°ĥ è§£
æ´¾ åĳĺ
åħµ å½¹
æ¬§ äºļ
è¾¹ åĮº
ä»ħ ä¸º
èĪ¹ åİĤ
åģļ å¥½
ä¸¥ èĤĥ
è¿Ļä¸ª åĲįåŃĹ
ing s
è¿ĺæľī ä¸Ģä¸ª
éĹŃ çİ¯
åģı è§ģ
éĺ¿æĭī è´¡
åĩıå°ĳ äºĨ
çļĦåİŁ åĪĻ
çİĦ å®Ĺ
æ¸Ķ æ°ĳ
æŁĶ ä½Ľ
èĦ¸ ä¹¦
åľ£è¯ŀ èĬĤ
Met acritic
æł¸ç³ĸ æł¸éħ¸
ä¼¯æĺİ ç¿°
2 å¹³æĸ¹åħ¬éĩĮ
A B
O ricon
f e
Ñ ģ
Ġ éļıåĲİ
Ġ æľĢåĪĿ
Ġ æ¯ķä¸ļäºİ
çļĦ åĽ½
çļĦ éģĹ
çļĦ åĪĽä½ľ
çļĦ åı¦ä¸Ģ
ãĢ ĩ
æĺ¯ æĸ°
å¤§ éŁ©æ°ĳåĽ½
åĴĮ æ³ķåĽ½
ä¸İ ä¿Ħç½Ĺæĸ¯
ä¸» æĶ»
ä¸» çĤ®
çī¹ åĪ©
å¼Ģ ä¼ļ
ä¸ī åı¸
çİ° è¡Į
çŃī åĽ½
å½ĵ ä»Ĭ
åħ¨ åľº
éĥ½ æĺ¯åľ¨
ä¹Ĳ ç«ł
æłĩ è¯Ń
æĬ¥ ç¤¾
ar n
åħ¶ä»ĸ åĽ½å®¶
æ±ī ä¸Ń
ä½ı å®¿
åºķ ä¸Ńå±Ĥæ°´åŁŁ
è¾ĵ éĢģ
èīºæľ¯ åĵģ
9æľĪ 19æĹ¥
10æľĪ 5æĹ¥
6æľĪ 8æĹ¥
éľ² åĩº
è·Ł èĳĹ
ur g
å¸Ĥåľº çļĦ
ä¹Ļ çĥ¯
æ®ĭ ä½Ļ
èķ Ĭ
å¸¸è§ģ äºİ
èĩ³å°ĳ æľī
TV B
åħĭæĭī èį·é©¬
æłĸæģ¯åľ¨ åºķå±Ĥæ°´åŁŁ
ä¼ª è£ħ
è°¢å°Ķ çľģ
% ).
; ),
E x
R E
z e
Ġ åºĶçĶ¨
çļĦ T
çļĦ æĶ¿åºľ
æĪ ®
ä¸Ń æī®æ¼Ķ
ä¸į é¡¾
æŀ £
åĲĮ èĥŀ
éķ¿ ä¹ħ
åı¯ ä½¿çĶ¨
å¾· åĴĮ
ç¾İ å¼ı
ç¾İ å°ĳå¥³
ä¸ī éĿ¢
ç»ı åĽ½
éģĵ å¥ĩ
å±± è·¯
å±± åºĦ
200 6
å¤© çº¿
èģĶ è½¦
æ°´ ä½į
äº¤ æĽ¿
è¿ĺ èĥ½
åŃĹ å¹ķ
ç¬¬ä¸Ģ æľŁ
åĳ¨ äºĶ
åħĪ çŁ¥
è¾ĥ çŁŃ
16 00
æ¨¡ åĿĹ
é²ģ è¿ħ
ä¸ĥ åįģ
é»ĳ æµ·
am b
å¿« è½¦
ä¹ĭåĲİ åıĪ
æ¯Ľ åĪ©
é¡¶ å°ĸ
7æľĪ 9æĹ¥
10æľĪ 18æĹ¥
6æľĪ 7æĹ¥
é²ľ èĬ±
1æľĪ 18æĹ¥
11æľĪ 6æĹ¥
11æľĪ 20æĹ¥
ä½© å¾·ç½Ĺ
çľ¼ éķľ
å°ıæĹ¶ åĨħ
å¾½ ç«ł
æĽ¾ç»ı åľ¨
4æľĪ2 3æĹ¥
7æľĪ2 4æĹ¥
æ°¢ æ°Ķ
å¡« æµ·
åĿĤ 46
äº¤åĵį ä¹ĲåĽ¢
6 æľĪ21æĹ¥
9 æľĪ13æĹ¥
Ġ Q
Ġ i
Ġ ä¸ŃåĽ½å¤§éĻĨ
çļĦ åĮĹ
çļĦ éĻĲåĪ¶
çļĦ éĢīç¥¨
åĴĮ S
æĹ¶ å¹´
åĲį å£«åħµ
åĪĨ æ²»
æĸ° æĬĢæľ¯
åĬł æĿ¥
è¯¥ ç³»ç»Ł
å®ļ åĲįä¸º
ç§ĳ éļĨ
éĶ »
å¼ł æ°ı
çŁ³ å®¶åºĦ
åķĨ è®®
åķĨ è®¨
æļ ¹
çĵ¦ åĭĴ
en er
16 äºº
å¿Ĺ æĺİ
æľ¨ æĺŁ
4æľĪ 8æĹ¥
4æľĪ 20æĹ¥
å®ĹæķĻ ä¿¡ä»°
ç»ĺ åħ¥
å°Ĩåħ¶ åįĩæł¼ä¸º
åľ°éĵģ ç«Ļ
çĩĥ æ²¹
çºµ åĲĳ
çĺ ¾
ç¿»è¯ĳ æĪĲ
æĲ¬ è¿ģ
1æľĪ2 6æĹ¥
åı²ä¸Ĭ æľĢ
Ġ193 9å¹´
ä¾Ħ åŃĲ
èµ¦ åħį
äºļåĪ©æ¡ĳ éĤ£å·ŀ
J ames
m on
o ver
Ġ 22
çĲ Ľ
ä¸Ĭ çıŃ
ç¬¬ 23
å§ ¨
èĢĮ æ²¡æľī
æĮ £
è· ª
éķ¿ åŁİ
é«ĺ åı¥ä¸½
å½ĵ æĪĲ
å°Ĩ è¿ĻäºĽ
å¤ĸ è¯Ń
éĩį çĶŁ
æĢ» ç¼ĸè¾ĳ
çĽ¸ äº¤
ç»Ħ åĪ«
çº¦ å®ļ
çº¦ 30
æıĲ èµ·
æµģ æĺŁ
ä¸¾ ä¾ĭ
åı¤ åħ°
æĪĲä¸º ä¸ŃåĽ½
è¿ĳ äº²
èĬĤ è½¦åİ¢
ç¦» ä¸ĸ
ç¬¬äºĮ éĺ¶æ®µ
ä¹¡ æ°ĳ
èĪ° éķ¿
ä½ķ å¡ŀ
æĸĩåĮĸ ä¸Ńå¿ĥ
mu n
ç²¾ éĢļ
åİĭ åĢĴ
åı³ ä¾įéĥİ
å¿ħ éľĢ
äºĭä»¶ åĲİ
st e
å©ļ åĲİ
1æľĪ 3æĹ¥
ç«¥ åĨĽ
å·¨ åŀĭ
åı¬ åĶ¤
ç¼ĺ åħ³ç³»
æµª è´¹
éĿĻ èĦī
åĽ½ç«ĭ å¤§åŃ¦
æĶ¿åįı åī¯ä¸»å¸Ń
ber g
Ġ196 0å¹´
Ġw as
äºļå½ĵ æĸ¯
" &
" |
) -
1 èĩ³
3 20
â Ĺ
Ġ åŃ¦æľ¯
çļĦ åħĥç´ł
äºº éĹ´
çº ¶
è´ ®
ä»ĸ äº¦
ä¸į åĪĨ
åĨĽ æł¡
å¸Ĥ å§Ķ
å¯¹ åĨ³
çī¹ æľīçļĦ
çİ° èº«
åĲĪ æł¼
å°ı éĺŁ
åĽĽ åŃ£
äº§ äºİ
æĶ¹ åĬ¨
å¼Ģå§ĭ å¯¹
è¿ŀ çİ¯
åį° æ¬§
èĬ± åºı
èŃ¦ ç½²
é¢Ħ éĢī
re g
èı² äºļ
æ°ĳåĽ½ 3
åĨ² åĪº
æĺ¯ä¸Ģ é¦ĸ
7æľĪ 5æĹ¥
6æľĪ 5æĹ¥
åħ» åŃĲ
é½Ĳ åĽ½
æĺ¾ç¤º åĻ¨
èĦ± æ°§
è®Ńç»ĥ çıŃ
çĦ¶åĲİ åľ¨
å¤§çº¦ åľ¨
4æľĪ2 4æĹ¥
æıŃ åıĳ
æĬ¢ æķĳ
åĸ· æ³ī
åĪ· æĸ°
éĵľçīĮ å¾Ĺä¸»
åĪ¶æĪĲ çļĦ
æ¨± èĬ±
åĪ©å¥¥ æ³¢å¾·
çĻ½åŀ© çºª
çĲµ çĲ¶
1 æľĪ21æĹ¥
3 æľĪ16æĹ¥
3 æľĪ14æĹ¥
5 å¹³æĸ¹åħ¬éĩĮ
D is
I s
Ġ æľĢç»Ī
æĺ ¼
åľ¨ å¹¿å·ŀ
ä¸º çĽ®æłĩ
å¤§ æ®¿
éķ Ģ
åĩº çĭ±
ä¸į ä¸Ģå®ļ
åıĳ æºĲèĩª
ä¹ĭ å¿ĥ
ä¹ĭ æŃĮ
å¹¶ è¡Į
å¸Ĥ åĴĮ
å¾· æ¯Ķ
äºļ è¶³èģĶ
èĩ³ 2021å¹´
å°ı ç±³
ç§ĳ å¤§åŃ¦
çĦ Ĭ
åħļ ä¸»å¸Ń
åį¡ éĩĮ
åį¡ å¡Ķ
åį¡ è¿ª
å¹¿ éĺĶ
å®ĺ åĲı
å¤ª çĽĳ
é¦Ļæ¸¯ çĶµåı°
ä¸ĸçķĮ çºªå½ķ
çłĶç©¶ ä¸Ń
çĶ· çĪµ
çĥŃ çĥĪ
çº¢ ç£¡
åŁĥ çº³çľģ
çļ® çī¹
000 ç¾İåħĥ
èı² æĸ¯
åĲ¯ ç¤º
é¡¶ ç«¯
9æľĪ 5æĹ¥
äºĮåįģ äºĶ
3æľĪ 30æĹ¥
è¡¥ è´´
4æľĪ 3æĹ¥
æľ± åħĥ
ch n
æĬµ æĬ¼
éŃĶ é¬¼
çļĦåľ° çĲĨ
å°Ĭ ä¸¥
åī² è®©
æ°Ķè±¡ åİħ
åĥ§ äºº
å²Ĺ ä½į
äº¿ç¾İåħĥ çļĦ
çīłä»¬ çļĦ
ĠS m
ä½įäºİè¯¥åĽ½ è¥¿åĮĹéĥ¨
é©¬å°¼ æĭī
è¯¥çľģä»½ä¸ºæ³ķåĽ½åĮĹéĥ¨ åĨħéĻĨçľģä»½
è§Ĵèī²æī®æ¼Ķ æ¸¸æĪı
å±ŀä¸ĭçļĦä¸Ģä¸ª ç§į
è¾Ľäº¥ éĿ©åĳ½
7 37
Ġ åįļ
çļĦ æľ¬
çļĦ äºĭæĥħ
ä¸º æŃ£
äºº åĲį
ä»¥ éģ¿åħį
âĢ ²
ä¸İ æ³ķåĽ½
çĶŁ åŃĲ
å°Ķ åĴĮ
ä¹ĭ åıĺ
è¥¿ åĽŃ
é©¬ çī¹
ç§ĳ éĽ·
çĤ ¯
çº¦ 7
èĳ ±
åį¡ çļĦ
çº³ æ£®
æĪĲä¸º è¯¥
å¼Ģå§ĭ ä½¿çĶ¨
å¡Ķ çī¹
æ±ī æĸĩ
æŃ¥ éģĵ
13 äºº
æĳĦ åıĸ
12æľĪ 3æĹ¥
10æľĪ 19æĹ¥
éĢĥ éģ¿
åıįåºĶ çĤī
2æľĪ 11æĹ¥
èĪį äºº
å¤§ä¼ļ åłĤ
189 9å¹´
å¼ĢæĶ¾ å¼ı
èķ ¨
ç¥Ń åı¸
æĹģ çļĦ
èĲ§ æĿ¡
åĪĽç«ĭ çļĦ
äºİ194 5å¹´
éĢĴ äº¤
é¢ĩ ä¸º
æĥ¨ éĩį
èģª æĺİ
çŁ® æĺŁ
èĥĮé³į è½¯æĿ¡
è°¨ æħİ
ä¸»äºº åħ¬
æĹıèĩªæ²» åİ¿
ivers ity
è¯¥çī©ç§įçļĦæ¨¡å¼ıäº§åľ° åľ¨
2 O
5 æľĪ16æĹ¥
P V
ä¸º åīį
ä¸Ģ æıĲ
å¤§ çİĭ
ä¾ ¬
å¼Ģ åħĥ
æĭī æĭī
è° Ł
åĪ¶ è®¢
çĽ® çĿ¹
äº§ æĿĥ
æĮĩ æ´¾
ä¼ł æİĪ
æĽ´ åħ·
æĽ´ å¿«
è§£ è¯´
è§Ĵ çļĦ
åĳ¨ æ°¸åº·
ç¦» åİ»
äº¦ åį³
en e
åı¯èĥ½ ä¸İ
å¸Ĥéķĩ éĿ¢ç§¯ä¸º
éĩĩ æł·
åº· æĸ¯åĿ¦
å¾ģ æĪĺ
ç¬¬ä¸ī ä»£
ä¸Ńåįİäººæ°ĳåħ±åĴĮåĽ½ æĶ¿åºľ
åĲĮå¹´ äºĶæľĪ
åħį åıĹ
äºĴ éĢļ
5æľĪ 7æĹ¥
åıªæľī åľ¨
æĢ¥ åī§
ra y
æĺĨ ä»ĳ
ä¾¦ æµĭ
æľīæĹ¶ åĢĻ
ain t
Ġåī§æĥħ ç®Ģä»ĭ
è¯¥æĿĳ å§ĭå»º
å¿ĹæĦ¿ åĨĽ
é©¬è¾¾ åĬłæĸ¯
åĮĹåį¡ç½Ĺèİ± çº³å·ŀ
I X
M D
M G
S i
s ilver
Ġ é¾Ļ
çļĦ æĿİ
çļĦ åģļæ³ķ
ç» ŀ
ä¸Ń éĥ½
è¥¿ è¾¹
æ³ķ åĪĻ
å¼Ģ æĭį
å¾· èĲ¨
ç±³ æŃĩå°Ķ
èµ· åľ¨
èĭ± åĨł
éĺ¿ çº³
éŁ³ æºĲ
11 æľĪ17æĹ¥
çŁ³ éĹ¨
åħŃ åĲį
æºĲ å¤´
ä»£è¡¨ äºĨ
æĹ© æĻ¨
éĺ² æļ´
å£° è°ĥ
è¡ĮæĶ¿ æĿĳ
è¡Ĺ çļĦ
åŁĥ ç±³å°Ķ
å¼¹ åĮ£
11æľĪ 12æĹ¥
èĪªç©º éĺŁ
èĮĥåĽ´ åĨħçļĦ
æŃ»äº¡ çļĦ
æģĲ æħĮ
500 ç±³
èĳ¡èĲĦ ç³ĸ
æ°§åĮĸ çī©
çº¬ åº¦
çİĦ æŃ¦
éĶĻè¯¯ çļĦ
å®ļå±ħ çĤ¹
ĠB l
Ġ195 2å¹´
Ġand Ġ
é£ŁçĶ¨ é±¼
èħĵ åĬĽ
çļĦåľ°éĵģ è½¦ç«Ļ
ä¾® è¾±
8 æľĪ14æĹ¥
9 Ġ
Ġ ä¸¤
Ġ ä¸ĵè¾ĳ
çļĦ è¶ħ
çļĦ é»Ħ
çļĦ çĶµåŃĲ
åľ¨ è¿Ļä¸Ģ
å¤§ ä¹ĺ
åĴĮ åįİ
æĹ¥ çħ§
åĳ Ĩ
ä¸İ ä»ĸçļĦ
è¡Į äºĭ
åĳĺ çļĦ
åįĹ è¶Ĭ
äºĮ åįĥ
ä¸ŃåĽ½ é©»
ç¾İåĽ½ ç©ºåĨĽ
12 æľĪ13æĹ¥
æ²³ å²¸
éĴ Ĭ
èĮ ±
é¢ĺ ä¸º
è´Ŀ èĴĤ
åģľ æĴŃ
éŁ© è¯Ń
æĶ¯æĮģ ä¸ĭ
èĭ¥ æľĽ
å°¾ éĥ¨
11æľĪ 10æĹ¥
æ·· æ²Į
ç§ģ ä¸ĭ
èľ Ĺ
éĻµ å¢ĵ
èĩªçĦ¶ ç§ĳåŃ¦
è¿Ļç§į æĥħåĨµ
å¥Ī èī¯
å°Ĭ æķ¬
èļ ķ
é¼ĵ æīĭ
æĭĨ è§£
ç¼©åĨĻ ä¸º
é¢ģå¥ĸ ç¤¼
åįłæĢ»äººåı£ çļĦ
å¼łåŃ¦ èī¯
8 æľĪ13æĹ¥
G DP
k i
Ġ èĬĤçĽ®
Ġ 21
çļĦ å°ıè¯´
çļĦ é¢ĨåľŁ
åı ±
ä¸Ń å°ī
åĴĮ 2
åĴĮ æĿİ
åŃ¦ å¹´
å¹¶ æıĲä¾Ľ
æĸ° ç§Ģ
ãĢĮ ãĢį,
æµ· ä¼¦
ç½Ĺ çĲ³
å¥³ çĶŁ
éķĩ ä¸ĭè¾ĸä»¥ä¸ĭåľ°åĮº
è½¬ æĪĺ
çļĦä¸Ģ åįĬ
å¤´ éª¨
æ´¾ åĩºçļĦ
ä»¥åıĬ å¯¹
æ²Ļ åĴĢ
èĪ° ä¸Ĭ
å²ģ ä»¥ä¸Ĭ
æĪĺäºī ç»ĵæĿŁåĲİ
çĽ®åīį å·²
ç»ıè¿ĩ æľ¬åľ°åĮº
éŃĶ å¥³
éĺ¿æĭī å·´é©¬
um p
éĿĻ æĢģ
å¤©ä¸»æķĻ å¾Ĵ
äºİ197 9å¹´
å¸ĥå°Ķ ä»Ģç»´åħĭ
æī©å±ķ åĪ°
ä½įäºİæ³ķåĽ½ åĭĥèī®ç¬¬
å¾ĹåĲį äºİ
åµĮ åħ¥
âĦĥ ,
åĪĨä¹ĭ äºĮ
èĩĢé³į è½¯æĿ¡
æ·¹ æ²¡
èĭıé»İ ä¸ĸ
ç»ĺåħ¥ åľ°åĽ¾
1 å¤Ħ
3 80
3 æľĪ22æĹ¥
g ram
ç» «
å¤§ åŁİå¸Ĥ
åĴĮ å¼¦
ä¼ļ ä½¿
ãĢĬ -
åħĭ æĭīæĸ¯
çī¹ æĿĥ
æīĢ ä¸º
çŁ ½
äºĮ æ¥¼
æ¯Ķ åħĭ
è®® æ¡Ī
æıĲ æĭĶ
åĲĳ ä¸ľåįĹ
åĲĳ è¥¿åĮĹ
ä½įäºİ ç¾İåĽ½
æµģ ä½ĵ
er o
æ´¾ é©»
åĬŁ å¤«
æ²Ļ çļĩ
éĺ² æİ§
æ£® çī¹
åŃ¦éĻ¢ éĻ¢éķ¿
æľ¨ åĪ¶
å¼¹ å¤´
åıĭ äºº
çªģ åıĺ
ä¾ĭå¦Ĥ åľ¨
èĩªçĶ± æĦıå¿Ĺ
ç±į è´¯
äºĮåįģ ä¸ĥå¹´
1æľĪ 5æĹ¥
11æľĪ 4æĹ¥
éª¨ å¤´
è§Ħæ¨¡ çļĦ
å½ĵä¸Ń åĮħæĭ¬
ç»Ĩèĥŀ çļĦ
æĿĤå¿Ĺ çļĦ
æĬĺ è¿Ķ
è¿Ľä¸ĢæŃ¥ çļĦ
ç¼ĵ åĨ²
äºİ198 0å¹´
åıĶ åıĶ
åįĩçº§ ä¸º
åłª èĲ¨æĸ¯å·ŀ
æĶ¿æ²»éĥ¨ ä¸»ä»»
éĿ¢2 çº¿çļĦ
å®¾å¤ķæ³ķ å°¼äºļå·ŀ
èµ«é²ģæĻĵ å¤«
9 å¹³æĸ¹åħ¬éĩĮ
N ET
P ar
r and
z z
Ġ j
Ġ ä¸ĩ
çļĦ çĬ¶åĨµ
åľ¨ æĦıå¤§åĪ©
æĺ¯ åĮĪçīĻåĪ©
å¤§ åĮºçļĦ
æĹ¶ éļĶ
åħ¶ åĲįç§°
ä½ľ åĩºäºĨ
ç¬¬ 19
è¥¿ å±±
è¢« åıĸæ¶Ī
æĿ¥ çº³å·ŀ
åįĹ äºļ
åįĹ éģĵ
ç¾İ åŃ¦
äºļ çĳŁ
ä¹Ł éĥ½
è¾¾ å§Ĩ
éĩĳ æĺŁ
éĹ¨ åºĹ
æĶ¶ åħ»
åĪĽ ä¼¤
èĩ´ æŃ»
èİ± æ¯Ķ
ä¹Ŀ ä¸ª
éĺ² æ²»
èĭ±åĽ½ äºº
çĶµè§Ĩ é¢ĳéģĵ
éĻĪ æ°´æīģ
åģľ äº§
é¢Ħ æĬ¥
ä»ĸçļĦ åĲįåŃĹ
è¿ľ æ´ĭ
éĤ¦ çļĦ
äºĨä¸Ģ æ®µ
7æľĪ 4æĹ¥
5æľĪ 11æĹ¥
æī¾ åĩº
ä¸ľåĮĹ ä¸İ
å°ıæĹ¶ åĢĻ
2007å¹´ äººåı£
188 6å¹´
10æľĪ2 æĹ¥
2æľĪ2 æĹ¥
2æľĪ2 7æĹ¥
ä¹Ŀé¾Ļ å·´å£«
åıĳåĶ® çļĦ
äººåı£ä¸º äºº
å¾Īå¤§ ç¨ĭåº¦ä¸Ĭ
Ġin Ġthe
æ³Ħ éľ²
åħ«è¾¾ éĢļ
4 æľĪ16æĹ¥
E F
Ġ çŃī
æľ ½
åľ¨ çĶµå½±
åľ¨ æ¸¸æĪı
åľ¨ 2023å¹´
æī Ķ
æľī ä¸¤ç§į
ä¸Ĭ åıĳè¡¨
åıĳ åħī
åĲį èĥľ
ä¹ĭ ä½į
é¢ Ĳ
è¿Ļ ä¸İ
å¼Ģ åħ³
å£ ķ
ç¾İ é¾Ħ
åĪ¶ å¾Ĺ
éĢļ é£İ
ç«Ļ ä¸º
åĬĽ å£«
çģ ¸
åİĨ å±Ĭ
åıį åħ±
æłĩ æ³¨
è®¤ä¸º åħ¶
ç¬¬äºĮ ä»»
æ²Ļ æ»©
æĿĢ éĿĴ
ä¸ĸçºª æĹ¶
æīį æľī
ä½Ľ åĥı
åĢ¼ çļĦ
åı³ æīĭ
re et
éĢļå¸¸ çĶ±
åĽ½æ°ĳ è®®ä¼ļ
ç£ Ĳ
4æľĪ 4æĹ¥
çĶ·åŃĲ åĽ¢ä½ĵ
èµŀ èªī
æĺ¾ç¤º åĩº
çĲĨè®º çļĦ
å¤§çº¦ æľī
çļĦå½±åĵį åĬĽ
5æľĪ2 9æĹ¥
å¡« è¡¥
åĪĨéħį åĪ°
çŃ¾è®¢ äºĨ
com p
Te am
å¼Ģå¹ķ å¼ı
Ġ195 4å¹´
Ġ193 8å¹´
Ġé¦Ļæ¸¯ æĹ¶éĹ´
æµıè§Ī åĻ¨
4 æĹ¶
5 æľĪ14æĹ¥
Ġ ä¿±ä¹Ĳéĥ¨
çļĦ ä¹¡
çļĦ å¨ģèĥģ
ä¸Ń ä¸º
ä¸Ń å¤ĸ
ä¸Ĭ åŃ¦
ä¸İ çİĭ
ä¹ĭ ä½ľ
å¹¶ ä½¿çĶ¨
éķ¿ åı²
ä¹Ł åĮħæĭ¬
åı° å±±
ä½Ĩ ä»įçĦ¶
åĮĸ èº«
ç±³ å¾·
å£« æ°Ķ
éĥ½ å°Ĩ
åİŁ çīĪ
åŀĭ çĶµåĬĽæľºè½¦
æĺŁ åĽ¢
æĮģ ä¹ħ
11 æľĪ21æĹ¥
æ¹¾ åĮº
è½¬ å½ķ
æ³ķåĽ½ å¤§éĿ©åĳ½
å¤± æķĪ
ä½ľåĵģ æľī
ç»ıæµİ åŃ¦å®¶
ç»ĥ é©¬
9æľĪ 8æĹ¥
è°· åı·
æĻĭ èº«
ä¸»æķĻ ä¸º
é¢Ĩå¯¼ å°ıç»Ħ
å¸® å¿Ļ
éľį åįİå¾·
ä½įç½® æĺ¯
å¥ī è¡Į
ãĤ ¯
æģ¢å¤į äºĨ
çļĦä¸» å¼ł
od el
2005å¹´ äººåı£
ç§¦ åĽ½
åĭĩ æ°Ķ
äºĳåįĹ çŃīåľ°
ä¸Ĭæĺł çļĦ
äºİ198 3å¹´
åĬ³åĬ¨ åħļ
è¾¨ è¯Ĩ
Ġ1 Ġ
å¤§éĺª åºľ
åĵĪéĩĮ åıĳ
çīĽæ´¥ å¤§åŃ¦
ç¾Ł åŁº
7 æľĪ21æĹ¥
ï ¸
Ġ æ¬§
Ġ å®ĭ
Ġ 2026å¹´
å¹ ¡
ç» ¶
éĺ ±
ä»ĸ æĽ¾åľ¨
ä¸ĭ è¾¾
å¤ļ å¾·
åįĹ éĺ³
çŃī åľ°çļĦ
åįģ ä¸ĩ
éŁ ¬
10 æľĪ13æĹ¥
æ¡ ©
æ°´ åİ¿
åĪĻ ç§°
æ²³ ä¸Ĭ
åį¡ èĲ¨
æ¢ ³
éª Ħ
æ°Ķ æµģ
èħ ¥
é²ģ çī¹
çĹħ æĥħ
çĻ¾ ä½Ļ
çĬ¶ åħĥ
èĴĻ åĵ¥
æī¿ åĬŀ
æĪĲåĳĺ ä¹ĭä¸Ģ
ç«¯ çĤ¹
é¡º å¤©
éĽĦ é±¼
ãĢĭ( ).
äºĨä¸Ģ åĲį
éŁ¦ åħĭ
5æľĪ 4æĹ¥
1æľĪ 4æĹ¥
çĤ¸ èį¯
å·¥ä¸ļ éĥ¨
2æľĪ 8æĹ¥
å¥ī çĮ®
æĪĪ çĻ»
åĢĴ æķ°
åĢĴ éĹŃ
å®¿ ä¸»
188 9å¹´
æµħ äºķ
å¥ĳ ä¸¹
åĦĴ å®¶
å¼ĹæľĹ ç´¢çĵ¦
ĠR o
åħ¶å®ŀ æĺ¯
çĽ¸éĤ» çļĦ
1 æľĪ22æĹ¥
4 æľĪ21æĹ¥
çļĦ äººçī©
å¹´ åı·
æĺ ķ
ä¸Ń åĮº
æĺ¯ åīį
ä¸İ ç»ıæµİ
åĪĨ æĭĨ
å®¶ åĴĮ
ä¸ĭ åı°
ä¸ĭ åįĬå¹´
ä¸ľ æĻĭ
çŃī å¤Ħ
å² Ķ
å¤ĸ å½¢
é©¬ çļĦ
åľº æ¬¡
å¤© ä¸»
çº¿ æĿ¡
å®ī åĵ¥æĭī
æģ º
æĢ» éĿ¢ç§¯ä¸º
éĻ¢ çļĦ
èĭ± ç¾İ
å·´ æĸ¯åħĭ
äº¤ åĩº
12 æľĪ21æĹ¥
åıį ä¹ĭ
ç¿ Ł
æĿ¡ è§Ħå®ļ
äºī éľ¸
15 äºº
éĽ· çī¹
è¯ģ äºº
è¡ĮæĶ¿ ç®¡çĲĨ
çīĮ çħ§
ç²¾ åį«
åĲ¯ èĴĻ
åĤ Ģ
6æľĪ 3æĹ¥
åħħ çĶµ
ä¸Ŀ ç»¸
çº² é¢Ĩ
ç§Ł éĩĳ
åĪĨéĴŁ åĨħ
ä¸īåįģ åħŃå¹´
æ®ĭ éħ·
12æľĪ2 3æĹ¥
çļĦé¦ĸ ä¸ª
åįģåŃĹ æŀ¶
1æľĪ2 7æĹ¥
1æľĪ2 9æĹ¥
å®ŀéĻħä¸Ĭ æĺ¯
ç¨į åĲİ
ç¨Ģ å°ĳ
é¥¥ èįĴ
æĶ¹ç»Ħ ä¸º
åĽ½ç«ĭåı°æ¹¾ å¤§åŃ¦
ä¸ºçĥŃå¸¦ æ·¡æ°´é±¼
5 äº¿
O D
Ġ éĿŀ
Ġ åı¦ä¸Ģæĸ¹éĿ¢
æĸ¯ è¾¾
ä¿ ¾
èĥ ±
åŃĲ å®«
èİ ½
ä¹Ł è¦ģ
å¤ĸ åĩº
é©¬ ä»Ģ
è®¾ ä¸º
çĽ¸ ä½į
åįİ æĸĩ
å·´ å¾·
å·´ å°ĶçļĦæĳ©
ç¾İåĽ½ åĽ½ä¼ļ
æĽ¾ çĶ¨
ä½įäºİ åįĹ
å§ĭ ç¥ĸ
åĪĻ ä¸İ
æ¸ħ åĪĿ
å¼ķ çĪĨ
æ²¡æľī è¢«
çĵ¦ éĩĮ
åĦ ¡
èİ± æģ©
æİĴ æ°´
çıŃ çº§
ä¸ĥ äºº
at er
ç¤¾ä¼ļ åŃ¦
æŃ£å¼ı æĪĲä¸º
çĶŁæ´» äºİ
è½® å»ĵ
éĢīä¸¾ ç»ĵæŀľ
åĽ½æ°ĳ å¤§ä¼ļ
ä¸ĢèĪ¬ æĿ¥è¯´
ç¬¬åĽĽ åŃ£
åįıä¼ļ çļĦ
2æľĪ 6æĹ¥
æ¸¡ è¿ĩ
è±ª æĸ¯
éģ£ ä½¿
1æľĪ2 3æĹ¥
èħ¾ åł¡
åĪĽå»º äºĨ
ä¸īè§Ĵ æ´²
æĤ² ä¼¤
ĠM y
ĠG roup
Ġ195 5å¹´
Ġ195 6å¹´
æ¶µçĽĸ äºĨ
å¥¥åı¤ æĸ¯
éĦĤåĽ¾æĽ¼ å¸ĿåĽ½
äºļçī¹åħ° å¤§
" )ãĢģ
3 å¹³æĸ¹åħ¬éĩĮ
9 æľĪ14æĹ¥
p ha
s g
å ¶
Ġ is
çļĦ éĢīæīĭ
åľ¨ æĹ¥
ä¸Ģ ä¾§
æľī çĤ¹
åĴ İ
ä¼ļ åĩºçİ°
ä¸į åłª
åĲį åŃ¦çĶŁ
æ³ķ å±ŀ
èĢĮ ä»ĸ
æ°ĳ å±ħ
å¤ļ ä»¥
çŃī ç«Ļ
åı° è¯į
å¤ĸ å¢Ļ
éĩį åĽŀ
èģĶ æĺŁ
çº¦ åľ¨
éĩĳ å¸ģ
å¨ ĩ
æĻ® åħ°
ä¸ĩ éĩĮ
äºĶ ä½į
æ´» å¡ŀ
in o
åħī æ»ĳ
éļı æĦı
æ±Ĥ åŃ¦
åįĩ çıŃ
å¡ŀ åĨħ
at es
ç¤¾ä¼ļ ç§ĳåŃ¦éĻ¢
æ³° åĿ¦
çľŁ ä¸»
000 Ġ
ç¯ ¡
éĢģ åĽŀ
è¿ĻäºĽ äºº
åªĴ ä»ĭ
9æľĪ 4æĹ¥
9æľĪ 12æĹ¥
8æľĪ 18æĹ¥
ãĥ ª
æĸ°éĹ» åıĳå¸ĥ
ä¼ĳ æĸ¯
åĪĽåĬŀ äºĨ
æĦıä¹ī çļĦ
2æľĪ2 6æĹ¥
æĶ¶è´Ń äºĨ
éĺĶ åı¶
å½¢å®¹ è¯į
å¢ĥåĨħåħ±æľī åĲĦç±»
æİł å¤º
Ġ197 2å¹´
çī¹åĮº æĶ¿åºľ
å±¡ æ¬¡
"ãĢģ "
èĢĮè¯¥åľ°æľĢé«ĺçĤ¹ä¸º æµ·æĭĶé«ĺåº¦
4 å¹³æĸ¹åħ¬éĩĮ
i j
Ġ éĽ·
çļĦ åķĨä¸ļ
çļĦ è®°å½ķ
çļĦ ä½ľèĢħ
ãĢģ âĢľ
ä¸º èĥĮæĻ¯
ä¸Ń ç¾İ
å¤§ åĽ½
ä¼ļ æīĢ
ä¸İ åĮĹ
åĨĽ åĪĨåĮº
è¢« çĶ¨ä½ľ
çī¹ äºº
å¼Ģ åľº
åĨħ åŃĺ
è¿Ľ åĪ¶
èµĽ åīį
çŃī åĪ°
å°Ĩ ä»ĸä»¬
æĭī æ¯Ķ
è° ¤
å¸ĥ éĩĮäºļ
éĤ º
åİŁ èĳĹ
é¦ĸ æ¼Ķ
å¤Ħ ç½®
æĮĩ ç§°
ä¼Ĭ åĬª
äººæ°ĳ çļĦ
å¾ģ è®¨
çľĭ å®Ī
èī¾ èİī
æĻļ æĬ¥
æ¬¾ é¡¹
ol y
2æľĪ 7æĹ¥
æ¿Ģ æĪĺ
çŁ¿ äº§
éĺ¶æ®µ çļĦ
åįĸ ç»Ļ
å¡ĳ èĥ¶
11æľĪ2 7æĹ¥
èĥİ åĦ¿
éĢĢä¼ĳ åĲİ
æĹ¥å¸¸ çĶŁæ´»
Ġé¦Ļæ¸¯æĹ¶éĹ´ éĢ¢æĺŁæľŁ
åĤĢ åĦ¡
8 æľĪ22æĹ¥
Ġ åĪ©çĶ¨
åľ¨ å®¶
äºº ç§į
åĴĮ æķĻèĤ²
æ² ®
æĪĲ åĲīæĢĿ
ä¸ª æ¡Ī
ä¸İ è¥¿
ä¸į æĹ¶
åħ¬ è®¤
éķ¿ éĩİ
èĩª æ°ĳåħļ
æĸ° å¸Ĥéķĩ
ä¸ľ ç»ı
æīĢ ç½ĹéĹ¨
çŃī å¤ļ
æľº çİĩ
ä½Ĩ æľªèĥ½
ç§ĳ ä¸ĭçļĦä¸Ģä¸ªå±ŀ
å®ī æģ¯
èģĶ åĲĮ
åİ¿ ç«ĭ
18 ä¸ª
ä½įäºİ æĹ¥æľ¬
202 5
åŀĭ æľºè½¦
ç¤¾ çļĦ
11 æľĪ22æĹ¥
11 æľĪ13æĹ¥
ç¥ŀ åĥı
åįĥ ä¸ĩ
é»ĳ çĻ½
åıĳå±ķ ä¸º
æŀģ åħ·
å¯Ł è§ī
æ¥¼ å±Ĥ
æĥ³ è±¡
èĢ¶ ç»´å¥ĩ
æ²ĥ æĸ¯
10æľĪ 8æĹ¥
æķ£ éªĳ
1æľĪ 19æĹ¥
2æľĪ 4æĹ¥
æ¿Ģ åĬ±
åı¸ä»¤ å®ĺ
çİ©å®¶ åı¯ä»¥
åĳ³ éģĵ
éĽ¶ æĹ¶
è£Ķ ç¾İåĽ½
æĥĬ æĤļ
æŃ¦æ±ī å¸Ĥ
éĵŃ æĸĩ
æ±ª ç²¾åį«
çļĦåĲİ è£Ķ
èĻ¹ æ¡¥
çĭŃ ä¹ī
ire ct
éĶħ çĤī
1 åĪĨ
a ir
è ĺ
Ġ åıĮ
Ġ ä½ĵèĤ²
çļĦ æľĢä½³
ä¼ ¶
ä¸Ģ å¤§
åħ¶ ä¸»
è¢« æīĵ
è¢« æİ§
æ± ²
èĩª åį«éĺŁ
å¼Ģ åĩº
æīĢ äº§çĶŁçļĦ
è¯¥ çī©ç§į
å±± æľ¬
å±± ä¹¡
å®ī çļĦ
æ°´ åĴĮ
éĩĳ æľĿ
æ´» ä½Ľ
ç¬¬ä¸Ģ åľº
æĶ¾ åħ¥
æ³¢ ç¾İæĭī
çłĶç©¶ ä¼ļ
æĬķ æİ·
è¾¹ éĺ²
å®¢ äºº
å¸Ń æ¬¡
æ¹ĸ åĮº
è½¦ç«Ļ ç¼ĸåı·ä¸º
æĸĩåĮĸ éĥ¨
è´¥ äºİ
is m
åĪ¶ä½ľ åħ¬åı¸
æĹ§ ç§°
åĽłä¸º ä»ĸä»¬
æĸŃ ç»Ŀ
ä¼ĺ èĥľ
åĶ® ä»·
é³ ħ
å¼Ģåıĳ åķĨ
åŃĻ æĿ¨
ou g
è´¢ çī©
åĨĽäºĭ å§Ķåĳĺä¼ļ
åģı åĲĳ
è¿İ æĪĺ
åĬŁèĥ½ çļĦ
å·´å£« ç«Ļ
éĴ¢ çŃĭ
æĤ£ èĢħçļĦ
åľ°çĲĥ ä¸Ĭ
å°ĸ æ²ĻåĴĢ
éĢĿä¸ĸ åĲİ
11æľĪ2 9æĹ¥
è´ŀ è§Ĥ
åľ°åĽ¾ ä¸Ĭ
èĥ¸ éĥ¨
ä¸»åĬŀ çļĦ
åĲĦèĩª çļĦ
æĬĵ ä½ı
çİ°ä»Ĭ çļĦ
Ġ197 3å¹´
ä½įäºİæ³ķåĽ½ å¥¥å¼Ĺæ¶ħ
ä¸ľä¸´ ä¸Ĭ
æĺ¯è¥¿çıŃçīĻ åį¡æĸ¯èĴĤåĪ©äºļ
iel d
åĲ¸è¡Ģ é¬¼
æŀĹéĥĳ æľĪå¨¥
æĸ°å¢ŀå¢ĥå¤ĸè¾ĵåħ¥æĢ§ æĸ°åĨłèĤºçĤİç¡®è¯ĬçĹħä¾ĭ
å¡ŀæµ¦ è·¯æĸ¯
0 äºº
1 æľĪ17æĹ¥
4 æľĪ13æĹ¥
L a
Ġ å®ĹæķĻ
çļĦ åĳ½ä»¤
ä¸Ģ æľ¬
ä¸Ń æł¡
åĲİ è½¬
åĬł å¤§
ãĢĮ ãĢį.
åĪ© ç»´
æīĢ èĩ´
éĵ ²
å®ī åºĨ
åİ¿ è´Łè´£ç®¡è¾ĸ
åħ³ å²Ľ
éĺ¿ æĽ¼
æ¸¸ è¯´
æ´» åĬĽ
å¤§åŃ¦ åŃ¦ä¹ł
ä¼Ĭ æĸ¯åĿ¦
å¤į æĹ¦
å±ħ å§Ķä¼ļ
çĵ¦ è¥¿
å¸Į å¾·
å¾Ī å°ı
é»ĳ æ£®
é±¼ çĽ®
æ½ ¼
æ´ĭ è¡Į
éĩįè¦ģ æĢ§
èī¾ åĪ©æĸ¯
ou th
çİī çİ¯
çİ°ä»£ çļĦ
2æľĪ 20æĹ¥
çıł æ±Ł
7æľĪ2 æĹ¥
åľ¨199 1å¹´
è§Ĥæµĭ åĪ°
æĿ°åħĭ æ£®
ast er
çº§åĪ« çļĦ
ĠåıĤèĢĥ èµĦæĸĻ
ç´¢å§Ĩ çľģ
æĪĲåĲīæĢĿ æ±Ĺ
P L
U C
çļĦ èµ·æºĲ
åľ¨ åĲİ
ä¸º çİĭ
å¯ °
éĻ ĭ
æĪĲ ä»½
å¹¶ è¿Ľè¡Į
åįĹ è¾¹
èĩ³ 2013å¹´
ä¹Ł éļıä¹ĭ
200 4
ä½Ĩ äºİ
å¤© åĨħ
ä¸¤ åĪ¶
åİ¿ å§Ķ
åįİ å°Ķ
å¥³ çļĩ
æĹł æķ°
åĪĻ å°Ĩ
ä¸¾ æĬ¥
æĶ¯ æŁ±
åıĸ ç¼Ķ
åħī çĶµ
å®¹ ç§¯
æİĴ æĸ¥
å¡ŀ åħĭæĸ¯
ä»ħ èĥ½
éĿ© æĸ°
è¯į æĽ²
éĻĦ æľī
è¿ľ è¿ľ
ç®Ĺ æĺ¯
åį¢ åį¡æĸ¯
ç»Ŀ å¤§éĥ¨åĪĨ
éľĢè¦ģ çļĦ
3æľĪ 5æĹ¥
çļĦäºº æķ°
ä¾µ åħ¥
2æľĪ 12æĹ¥
æ¨ª åĲĳ
èĴĻåı¤ åĽ½
éĥ¨éĹ¨ çļĦ
ç©ºåĨĽ åŁºåľ°
ä¸Ģå¸¦ çļĦ
ne w
ä¸ĬåįĪ 9æĹ¶
éĩĮæĸ¯ æľ¬
å¨ĥ å¨ĥ
æĸ© é¦ĸ
ĠG irl
Ġ196 8å¹´
å¤§çĲĨ çŁ³
æĸ°å¢ŀæľ¬åľŁ æĸ°åĨłèĤºçĤİç¡®è¯ĬçĹħä¾ĭ
2 åĪĨ
R C
W i
t d
Ġ Windows
çļĦ çľŁå®ŀ
åľ¨ ç¤¾ä¼ļ
äºº ä¹ĭ
æĺ¯ çĽ®åīį
æĺ¯ åĬłæĭ¿å¤§
ç§ ĥ
éĻ Ľ
æĹ¥ åŃĲ
ä¸Ĭ åı°
åıĳ ä½ľ
åĲį å°Ĩ
å¿ Ĵ
èĭ ŀ
åīį åĪĹ
åīį æĢ»ç»Ł
ä¸ľ è¾¹
ä¹Ł æĹłæ³ķ
å² ¬
å±± å§Ĩ
ç§ĳ ç´¢
éĩį äºİ
åİ¿ åĨħ
12 æľĪ14æĹ¥
æīĭ åĬ¨
ä¿Ŀ æľī
æµģ å¤±
æł¡ åĨħ
è®º çĤ¹
ä¿¡ ä¸Ń
æľª æĽ¾
äººæ°ĳ æ£Ģå¯ŁéĻ¢
çĻ½ æ²Ļ
æ±ī è¯ºå¨ģ
16 å²ģ
14 äºº
å°Ħ ç®Ń
æŃ£å¼ı åĩºéģĵ
å¾·åĽ½ äºº
éĹ®é¢ĺ ä¸Ĭ
çļ® äºļ
åĪĩ æį¢
10æľĪ 9æĹ¥
5æľĪ 30æĹ¥
éľ² è¥¿
çİ¯å¢ĥ ä¿ĿæĬ¤
éĴ± å¸ģ
èĨ ³
æģ¶ æĦı
ut ion
é©¾ å´©
æ³¡ æ²«
ĠåıĤèĢĥ æĸĩçĮ®
å¼ĢæĻ® åĭĴ
è¶³åĪ© ä¹ī
æķħå®« åįļçī©éĻ¢
C y
D F
N T
S K
i OS
åĲ µ
äºº è´¨
åľ° è¯´
åŁ ¼
èĢĮ å¯¼èĩ´
èİ Ĵ
å¾· éĽ·
ä¸ľ å¾ģ
åĽł ä¸İ
ä¸ŃåĽ½ ä¼łç»Ł
éĥ½ çĶ±
çİĭ å®¶
ä¼ł è¨Ģ
åĩ» æ¯Ļ
æĬ¥ ç«ł
ä¼Ĭ æ¯ĶåĪ©äºļ
é¾Ļ çľģ
30 ç±³
å»ºçŃĳ çļĦ
è¾ĸ å¢ĥ
åģľ åĪĬ
æ¡¥ å¤´
åħ±åĴĮåĽ½ çļĦ
çľĭ ä¼¼
æĪ· ç±į
çªģ åĽ´
åģļ åĪ°
èµ° ç§ģ
éº¦ éļĨ
çĲĥéĺŁ åľ¨
è¿½ éĢĲ
å®¡ æł¸
å®¾ é¦Ĩ
æĭĽ æłĩ
æ½® å·ŀ
èº«ä»½ è¯ģ
æµª æ½®
ç¥Ń åħ¸
ä¾į ä¸Ń
è¿Ī åħĭ
ä¸ŃåĽ½åħ±äº§åħļ åħļåĳĺ
äºİ197 5å¹´
å¤ĸåĽ½ è¯Ń
av a
ä¾¨ æ°ĳ
åĲīå°Ķ åĲīæĸ¯
ç»´èİ± è®·
åĻª éŁ³
å¨ģæĸ¯ åº·
8 åı·çº¿
9 åħ¬éĩĮ
G u
çļĦ éĵģè·¯
ä¸º 10
ä¸Ģ ç¯ĩ
è¾ Ĺ
åĩº äº§
æİ ¸
å®¶ åħ·
è¥¿ èĩ³
æĮ ł
çİ° æķĪåĬĽäºİ
è¡¨ æī¬
æľº ä¸Ĭ
å±± å½¢
ä½Ĩ å¯¹
ä½Ĩ è¿ĻäºĽ
æ¡ ħ
æıĲ æĸ¯
éĺ¿ çĻ»
åĽĽ æĸ¹
åĪĹ ä¸¾
åĲĳ ä¸ĭ
æĽ¾ ä»¥
æĽ¾ åıĤåĬł
ä¹Ĳ éĺŁçļĦ
çĤ¹ çĲĥ
11 1
å®ĺ åĥļ
åı¤ æĭī
å°ĳ äºİ
æĶ¶ åĪ°äºĨ
åĪĴ èīĩ
çĵ¦ å°¼
çĵ¦ å¤«
å¢ŀ å¤ļ
èİ± å°Ķ
é»Ħ æĺı
åĽ´ åŁİ
å·Ŀ æĻ®
ä¸ģ å¿§
ç¬¬ä¸ī è½®
èĮ¨ åł¡
2æľĪ 18æĹ¥
è°Ī è®º
åĿļ åĽº
æī§è¡Į éķ¿
189 3å¹´
æ½® æµģ
åĪĨéĴŁ çļĦ
ä¼Ł å¤§
åĩłä¹İ æīĢæľī
ç½ĳç«Ļ ä¸Ĭ
åŃ¦æľ¯ çķĮ
æĹłäºº è½¦ç«Ļ
ne y
ie w
æĥħæĬ¥ å±Ģ
éĩĳçīĮ å¾Ĺä¸»
é©¬éĩĮ åħ°å·ŀ
Ġè½¦ç«Ļ åĳ¨è¾¹
åĪĿçº§ ä¸ŃåŃ¦
åĲīä»ĸ æīĭ
è§ħ é£Ł
2 æľĪ15æĹ¥
D OS
Q L
V al
t s
Ġ æľ±
çļĦ èĥľåĪ©
è¢« åĪ¤å¤Ħ
è¿Ļ æĶ¯
æĸ° ä¸ĸ
ä¸¤ è¾¹
éĶ Ĥ
ç»ĵ ä¸º
å¹¿ åŁŁ
æĺŁ çŃī
11 æľĪ16æĹ¥
åı¤ åĿŁ
åī§ çĥĪ
éĿŀ çī©è´¨
ç¬¬ä¸Ģ ä¹¦è®°
æŃ¦ å®Ĺ
èĪª èĪ°
èŃ¦ æĪĴ
åĵ¥ å°Ķ
èĹı äºİ
50 äºº
ç«ŀ éĢĲ
éĿ©åĳ½ å§Ķåĳĺä¼ļ
2æľĪ 9æĹ¥
çĲĨè®º ä¸Ĭ
å¥Ĺ ä»¶
ç¬¬åįģ åħŃ
å¹¼ èĻ«
In t
äººä»¬ å¯¹
äºİ197 0å¹´
ä»ĩ æģ¨
æ¸¸æ³³ è¿ĲåĬ¨åĳĺ
åĪ¶çīĩ åİĤ
æĺ¯ä½įäºİç¾İåĽ½ ä¿Ħäº¥ä¿Ħå·ŀ
èµĮ åįļ
æŃ¼ çģŃ
æ²¦ éĻ·
åŃµ åĮĸ
å¸ĥè¾¾ ä½©æĸ¯
æ±Ŀæĭī çľģ
å®ĪéĹ¨ åĳĺ
æľ±åħĥ çĴĭ
6 æľĪ14æĹ¥
F e
G A
i us
Ġ æ¯ı
Ġ 27
çĶ ¥
åľ¨ åı°åĮĹ
è¯ ħ
ä¸İ ä¸ľ
è¢« åĽ½éĻħ
åı¯ åı¯
èĩ³ 2018å¹´
çĶµ ç¼Ĩ
ä¹Ł è®©
é©¬ èµ«
å±± éķĩ
åŁİ ä¹¡
èĭ± æ³ķ
å¹¿ ä¸º
æĺŁ åħī
éĽĨ èµĦ
ç¤¾ åĮºçļĦ
æł¡ åĿĢ
ç©º éļ¾
é¾Ļ éĹ¨
è¡¨ç¤º èĩªå·±
å±Ĥ çº§
åı¶ åŃĲ
éľĢè¦ģ åľ¨
æĳĦ æ°ı
ä¸ĵè¾ĳ æ¦ľ
æ¿ ł
äºĮåįģ åħ«
åĸľ é©¬æĭīéĽħ
4æľĪ 12æĹ¥
è§ī éĨĴ
éĥ½æĺ¯ çĶ±
2æľĪ 5æĹ¥
èĦī åĨ²
èĽĭ ç³ķ
æµ¦ æ±Ł
åľ°çĲĥ çļĦ
é½¿ è½®
éĽĨä¸Ń äºİ
åįĹåĮĹ åĲĳ
å¼¥ è¡¥
çļĦæĶ¯æĮģ èĢħ
çļĦæĶ¯æĮģ çİĩ
å¸Ĳ æĪ·
Ġ195 1å¹´
Ġ193 1å¹´
çĦļ çĥ§
è¯Ī éªĹ
Ste am
è¿Ħä»Ĭ ä¸ºæŃ¢
1 Ġå¹´
2 Ġå¹´
7 æľĪ13æĹ¥
R A
Ġ åıª
Ġ æ³¢
Ġ åıįåºĶ
Ġ åĮ»çĸĹ
çļĦ è¯Ħè®º
ä¸Ń è¥¿
æĺ¯ æ¬¡
æľī å¤§
åĴ ¤
åĴĮ å®ī
ä»¥ åĨħ
åŃ¦ æľŁ
ä¸į åĩº
ä¸į å¥½
ä¸į å±ŀäºİ
æŃ¤ ä¸º
æŃ¤ ä¹¦
äºĭ åħĪ
ä¸ī çľģ
ä¹Ł ä¸įä¼ļ
å°ı éº¦
ç§ĳ ç»Ļäºĭä¸Ń
éĩĳ çĲĥ
åĲĳ ä¸ľåĮĹ
ç®¡ æ²»
å±ķ åİħ
åİ» å¹´
ä»ĸä»¬ å°Ĩ
å¤į åİŁ
åįı çº¦
ä¿® çĲĨ
çİ¯ çº¿
æĶ» çł´
ç³»ç»Ł åĴĮ
èŃ¦ åį«éĺŁ
çĥŃ çļĦ
çĥŃ çĪ±
ç§» äº¤ç»Ļ
æī¿ å»º
re en
åŃĻ æĸĩ
æľīéĻĲ è´£ä»»
ç»¿ åĮĸ
å®ľ è¯ºæĸ¯
éĻ¶ åĻ¨
æµ® éĽķ
æ³¨æĦı åĬĽ
åĸĢ ä»Ģ
ç¨į å¾®
ä¸Ģçº§ æĸ¹ç¨ĭå¼ı
åħ¬å®ī éĥ¨
æĸ¯æīĺ åħĭ
é¦ĸå¸Ń æī§è¡Įå®ĺ
ĠS ystem
ĠA ss
å§¿ åĬ¿
åĿŁ å¢ĵ
éķ¶ åµĮ
åĮ¿ åĲį
æī¹å¤į åĲĮæĦı
æĻ®æľĹ åħĭ
éĳ «
N O
ä¸º åįķ
è¯ ĥ
åĽ½ å¤§
åĴĮ ä¿Ħç½Ĺæĸ¯
éĻ Į
åĲİ ä»¥
åĪĨ æ®µ
å¹¶ æĮĩåĩº
è¢« åĬ¨
æµ· äºĭ
ä¸ī ç»´
å¦ Ĭ
ç½Ĺ ä¼Ĭ
çĽ¸ çŃī
å°¼ æĺĤ
è¯Ń æĶ¯
åı² åŃ¦
æĹł æľº
éĹ¨ æĪ·
åıĸ èĢĮ
ç¥ŀ åŃ¦éĻ¢
å¹³æĸ¹ åĳİ
çłĶç©¶ åıĳçİ°
å®£ æī¬
ä¼¯ åĭĴ
å¸Į çī¹
åį« æĸ¯
æĸ½ çĵ¦
èĲ½ éĢī
çĻ» è¾ī
è®¾è®¡ åĴĮ
åĨłåĨĽ èµĽ
éļĨ å¤´
æ²ĥ ä¼¦
10æľĪ 6æĹ¥
10æľĪ 3æĹ¥
å®ĭ ç¾İé¾Ħ
åĩºçĶŁ çļĦ
4æľĪ 5æĹ¥
om as
ãģ ĭ
ä¹ĥ æľ¨
åľ¨199 0å¹´ä»£
äºİ195 8å¹´
éĩĮäºļ çº³
ç»Ħå»º äºĨ
ç½ĳçĲĥ è¿ĲåĬ¨åĳĺ
ä¸ĳ ç§ĳä¼ļè¯ķ
èĢĲ åħĭ
éģ¥ æİ§
çĶŁåŃĺ äºİ
ĠA ward
ĠW h
ä½įäºİæ³ķåĽ½ ä¸Ĭæ³ķåħ°è¥¿å¤§åĮº
æİ¢éĻ© å®¶
å¼Ĺåħ° åħĭ
çĮĽèĻİ ç»Ħç»ĩ
èİ±æ¯Ķ éĶ¡
K BS
L i
Ġ åıĤèµĽ
çļĦ æ¬§æ´²
çļĦ æııè¿°
çļĦ ç§°åı·
æĹ¥ é£Ł
ä¸İ åıĳå±ķ
çĶŁ æŃ»
åĨĽ èĲ¥
å¼Ģ çļĩ
ä¸ī åĪĨ
ä¸ī åįģäºĮå¹´
æĪĺ ä¹±
åı£ å¤´
æĢ§ äº¤
çĲĥ èıĮ
æ°´ æ±ł
å°¼ å¯Ł
å¸¸ è®¾
èį Ģ
éľ Ħ
ä¸ĩ æ¬§åħĥ
èº« åĲİ
æĹ¥æľ¬ æµ·åĨĽ
åķĨ éĵº
æŃĮ å£°
ç¦» æķ£
åħµ é©¬
åİĨåı² æĤłä¹ħ
å¼ķ æ¸¡
ç»Ļ åĩºäºĨ
éĺ³ æĺİ
å¤ı å°Ķ
14 00
æİĪ è¯¾
å¼¹ ç°§
åħ¸ èĮĥ
èĵ Ł
èĩªçĶ± æ³³
5æľĪ 19æĹ¥
4æľĪ 9æĹ¥
çĶ³ æĬ¥
åĲ¬ ä»İ
åĲ¬ éĹ»
æŁı æĭīåĽ¾
åħĭéĩĮ åħĭ
ä¹Ļ éħ¸
åįļå£« çĶŁ
ä»Ļ å¥´
ub lic
è¡¡ éĩı
æħĪ ä¾įä¸ĭ
è¡Ķ æİ¥
188 5å¹´
æĺ¯åĲ¦ æľī
äºİ197 8å¹´
éĿĴå²Ľ å¸Ĥ
ĠC or
ĠR es
Ġ197 6å¹´
å½ĵäºĭ äºº
Inst agram
å·ħ å³°
5 æ¯«ç±³
H O
Ġ åº·çĨĻ
ä¸Ģ å¥³
çİ ®
ä¸İ éĻĪ
å¼Ģ åŀ¦
æĸĩ å°¼äºļ
ä¸ľ åįİ
æµ· åķ¸
è¯¥ ç³»åĪĹ
ç»ı æĸĩ
å·¥ å§Ķ
ä½Ĩ æľĢåĲİ
å®ī åĮº
æ°´ ä¸ĭ
éĩĳ èī²
éĺ¿ ç¾İ
åı² é¦Ĩ
è¯´ éģĵ
åĽŀ ä¹¡
æĥħ æĻ¯
å¤§åŃ¦ æł¡éķ¿
åĽ¾ æĭī
æ³¢ éķ¿
èİ·å¾Ĺ åĨłåĨĽ
è§Ĥ çļĦ
è¶ħ åĩº
åĲī ä¼¦çī¹
çİ¯ æµģ
ä¸įåĲĮ æĦı
ä¾¿ äºİ
éĻį è§£
æī¿ åĮħ
éĻĦ è®¾
æĿ° æĺİ
çĽ®åīį çļĦ
ä»Ģ åı¶
ãĢĭ, ãĢĬ
è¯Ńè¨Ģ åŃ¦
us h
åį· é£İ
è¾Ľ æĻ®æ£®
éĶ¡ å®ī
éº» çĥ¦
èİİ æĭī
åĲįåįķ ä¸Ń
æħ¢ æĢ§
12æľĪ2 4æĹ¥
æĢ§è´¨ çļĦ
åĨľæĿĳ å±ħæ°ĳçĤ¹
æĸ¯æ´Ľ æĸĩå°¼äºļ
IV E
è¯ºæĽ¼åºķ å¤§åĮº
æ»¤æ³¢ åĻ¨
- .
0 åĩ»è´¥
C G
Ġ çŁ³
Ġ éĺ¿å°Ķ
Ġ æĹħæ¸¸
çļĦ ä»»ä½ķ
çļĦ æĿ¡ä»¶
çļĦ æĿ¥æºĲ
çļĦ åĬ¨ä½ľ
åľ¨ èģĮ
æ² ¸
ä¸į ä¿Ĺ
ç¬¬ 27
åĲĮ çĲĨ
åĲĮ ä¼´
å¾· æĸĩ
é«ĺ èĢĥ
åĨħ æł¸
ä¸ī å®¶
ä¹Ł ä»İ
çł ¸
éĩį å¿ĥ
æ¼ ķ
æŃ£ éĢī
æıĲ äºļ
æīĭ èĩĤ
æ²³ åľ°åĮº
èº« æĿĲ
çĿ ¢
å¼Ģå§ĭ äºİ
ç¼ĸ å¹´
çĻ½ äºĳ
çĶµå½± åħ¬åı¸
åĵ¥ ç½Ĺå¾·
èĴĻ å¤§
ç´¢ é©¬éĩĮ
ç®¡çĲĨ å¤Ħ
æĬĬ å®ĥ
è´Łè´£ ç®¡çĲĨ
èİ« éĩĮ
ä¸ĢäºĽ äºº
åħ¨åĽ½ æĢ§
çļ® è´¨
å·²ç»ı æĪĲä¸º
è¶³çĲĥ æ¯ĶèµĽ
éº¦ åħĭæĸ¯
è®¾æľī 2
åŃĻ å¥³
ä¸ĵè¾ĳ çļĦ
10æľĪ 12æĹ¥
éĩĬ è¿¦
çļĦå¤§ è§Ħæ¨¡
as on
å°¤ ä¸º
éĻµ åĽŃ
äºļæ´² æĿ¯
äºĭåĬ¡ çĶ±åħ¶
ter tain
éº» éĨī
èµı è¯Ĩ
ä¾į åį«
ä¸įä¹ħ ä¹ĭåĲİ
ul l
åľ¨199 5å¹´
èµĦäº§ éĺ¶çº§
ĠB u
åī§åľº çīĪ
che m
çĥĤ çķªèĮĦ
è§Ĥèµı é±¼
è§ĨæĺŁçŃīä¸º 5
éĿ¢2 çº¿
æŁĵèī² ä½ĵ
B I
U P
Î ¼
ç ¸
Ġ åĪĿ
Ġ åħ«
Ġ æ´»åĬ¨
ä¸º 8
ä¸Ģ éĹ¨
è¯ °
è® ¶
åĴĮ å¤ļ
åĲİ æĶ¹ä¸º
éĥ¨ æĹı
åħ¬ ä¿¡
åħ¬ åŃĻ
ä½ľ æ³ķ
ä¸ĭ æ»ĳ
å¾· é²ģ
åĮĹ æĿ¡
æīĢ çļĦ
æľº ç¿¼
å®ī å¸Ĥ
åħ³ æĢĢ
èµ· åĽł
åıĤ èµŀ
åŃĹ çļĦ
åĽ½å®¶ åħĥé¦ĸ
ä¼Ĭ èİī
åİĨåı² æĸĩåĮĸ
è®¤ä¸º è¿Ļæĺ¯
æİ¨ è®º
ç»§ æ¯į
çĻ¾ å¤§
ä½ı æĪ·
çīĮ åŃĲ
åģľ ç«Ļ
åľ°æĸ¹ çļĦ
éľį æģ©
åĢŁ åĬ©
è¯¾ é¢ĺ
è®¢ éĺħ
éĵľ åĥı
ä¸Ģæł· çļĦ
èĥĮæĻ¯ ä¸ĭ
èĦļ ç±»
éĻ· éĺ±
ç»Łä¸Ģ çļĦ
çĥŁ èįī
åĬŀåħ¬å®¤ ä¸»ä»»
æĲ¬ è¿ģèĩ³
æ¬² æľĽ
å©Ĩ ç½Ĺ
é¢ģåıĳ çļĦ
Ġ190 1å¹´
BL AC
å¸¸ä½ı äººåı£
èī° éļ¾
é¥± åĴĮ
éĺ¿æĭīæĸ¯ åĬł
èĬŃèķ¾ èĪŀ
æĸ°æ³½è¥¿ å·ŀ
2 10
4 æľĪ22æĹ¥
4 æľĪ14æĹ¥
Ġ åĪ°äºĨ
Ġ æĪªæŃ¢
çļĦ çħ§çīĩ
æĺ¯ æ¬§æ´²
æŃ Ļ
åŁ Ĺ
ä¸İ é«ĺ
åĮº éķ¿
çĶŁ åľ¨
è¢« æĭĨéĻ¤
èĭ Ľ
è¿Ļ ä½¿
åįĹ ç¾İ
æīĢ è¯´
åº¦ éĩı
è½¦ ä¸Ĭ
ä½¿ ä¹ĭ
åįģ åĲį
åħ¨ åİ¿
ä¸¤ å±Ĭ
æĢ» åħ¬åı¸
æ°´ ç³»
éĺ¿ åħ°
æĹł çķı
äººåı£ åıĺåĮĸ
å®ŀ æĹ¶
ç»´ åĪ©
ç»´ èĮ¨
æĮĩ å®ļçļĦ
äºĽ æĹ¶åĢĻ
11 æľĪ14æĹ¥
in n
çīĩ å¤´
å®ĥ çĶ±
ç»Ī ç«¯
èĲ¥ æķĳ
äº² æĪļ
èĲ¨ å°Ķçī¹
æŃ» åĽł
åĬŁ èĩ£
åĲī å§Ĩ
è¯ķ éķľ
åī¯ æĢ»è£ģ
ä½ı æ°ĳæĹı
çķĻ åŃ¦çĶŁ
èĴĻ å½¼
ä½Ľ éĻĢ
ä¸¹ ä½Ľ
åĲ¯ å¾·
25 æĹ¥
3æľĪ 7æĹ¥
èĶ Ĺ
å±ħæ°ĳ åĮº
éļıåĲİ è¢«
åĪĨå¸ĥäºİ ä¸ŃåĽ½å¤§éĻĨçļĦ
å·´å£« æĢ»ç«Ļ
åĪĨéĴŁ åĲİ
èļ Ĭ
åľ°ä¸ĭ éĵģ
å±ħä½ı çļĦ
çĺ «çĹ
åĭĥ åħ°
ä¸² æµģ
ä¸Ńåħ±ä¸Ńå¤® æĢ»ä¹¦è®°
çļĦåİŁ åŀĭ
1æľĪ2 æĹ¥
é©¾é©¶ åĳĺ
æ³ķåħ°è¥¿ å²Ľ
åľ¨198 0å¹´ä»£
ĠS c
eĠ of
Ġ197 0å¹´
è¯¥çľģä»½ä¸ºæ³ķåĽ½ è¥¿åįĹéĥ¨
æ¸ł éģĵ
YouTube é¢ĳéģĵ
æĬĳåĪ¶ åīĤ
èİ·å¾Ĺä¸Ģæŀļ éĵ¶çīĮ
å¥¥åı¤ æĸ¯çī¹
ä¹Ķæ²»äºļ å·ŀ
åħĸ å·ŀ
æļ± ç§°
tertain ment
çĺ«çĹ ª
" "
3 åĪĨ
3 æľĪ13æĹ¥
p o
Ġ ä¸ª
Ġ éĢļè¿ĩ
Ġ åıĳçİ°
çļĦ äº§åĵģ
è¯ «
æĭ ¢
æĹ¶ å·²
æ² Ĳ
åĩº ä¸º
ä¸į è¿ľ
åħ¶ å¯¹
å¸Ĥ ç«ĭ
éķ¿ å¥³
å¤ļ åħĭ
åħ¥ æľĿ
è¯¥ æ³ķæ¡Ī
åħ± æĮ¯
åħ¨ èģĮ
æķ° ä»¥
æĢ» åħ±æľī
æ°´ æµģ
çİĭ å»º
åı² è¿¹
åĶ ĳ
åį¡ å¤«åį¡
çĤ¹ çĩĥ
åº§ çļĦ
è£ħ è½½
èĲ¥ éĶĢ
æİ¨ çī¹
åľ£ äºº
å¥ĸ å¾Ĺä¸»
æŃ» ä¼¤
çĪ± çŁ¥åİ¿
å¢ŀ å¤§
åįļ æł¼
çĶ° ç«Ļ
èŃ¦ å®ĺ
åįĬ æķ°
çº¢ èī²çļĦ
æŀģ åĬĽ
ä¸Ńå¤® æĶ¿æ²»å±Ģ
æī¿ è¢Ń
å®« å´İ
il m
è¾Ľ æł¼
è¯¯ è§£
45 åĪĨ
è¿ĲèĲ¥ åķĨ
èĥľåĪ© åĲİ
è¿Ļæł· åģļ
éĥ½ä¼ļ åĮº
äºİ197 2å¹´
çķĻä¸ĭ äºĨ
æĭĸ å»¶
Ġè¯¥ å°ıè¡ĮæĺŁ
Ġ194 3å¹´
ä½ľä¸ļ ç³»ç»Ł
èĥĮé³į ç¡¬æ£ĺ
åīįèº« æĺ¯
åħĭä¼¦ åł¡
å®ªåħµ éĺŁ
è¶³æĢ» æĿ¯
äºĳæŀĹ åİ¿
å¼¹éģĵ å¯¼å¼¹
æĲģ ç½®
æĸ¯å¾· åĵ¥å°Ķ
èĬľ æ¹ĸ
æĸ¯å¾·åĵ¥å°Ķ æĳ©
1 æľĪ14æĹ¥
5 æľĪ21æĹ¥
F A
a ut
w an
Ġ Ne
åŃ¦ å¹´åº¦
åĩº éĿ¢
æ´ Ĵ
åħ¬ æĬ¥
ä¸» ä¿®
æ³ķ ç½Ĺ
é¢ ¤
åıĬ å¤§
æĿ¥ åı°
å¤ļ å§Ĩ
åĮĹ åĳ¨
è¿Ľ é£Ł
å¸ĥ æĭīæĸ¯
é©¬ åħŃçĶ²
çĽ¸ å·®
è¯Ń æĹı
æĽ¾ èİ·
ä¿Ŀ ç¦Ħ
åĽŀ æĹı
çĿ Ĳ
ç¼ĸ æİĴ
æŃĮ åī§éĻ¢
ä»ĸä»¬ æĺ¯
å®Į èµĽ
åĻ¨ æĿĲ
åĵĪ è¿Ī
çĵ¦ ä¼¦
æ±ī å¯Ĩ
åĽ´ å¢Ļ
éĿĴ çĿĲ
éħį å¯¹
åĨĻ ä¸º
le d
çŃĸ éªĳ
åĮĹéĥ¨ çļĦæĿĳåºĦ
ä¸Ńåįİäººæ°ĳåħ±åĴĮåĽ½ æĪĲç«ĭåĲİ
é¡¶ å³°
23 äºº
èľ ¿
æ¯ģ åĿı
ri v
å°ĨåĨĽ è¡Ķ
åĪĨå¸ĥäºİ éĿŀæ´²
åıĳåĬ¨ äºĨ
åĨĪ å±±
èµł éĢģ
åºĶè¯¥ æĺ¯
éĥĬ éĩİ
äºİ194 1å¹´
äºİ194 4å¹´
åľ¨199 4å¹´
æĬĹè®® èĢħ
ä¸Ģçº§ èµĽ
ä¸Ľ ä¹¦
ï¼ħ .
ĠP lay
ä¾Ŀèµĸ äºİ
å¥¥æľ¬ æµ·é»ĺ
åĬłæĿ¥ æµ·å³¡
èĴĻå½¼ åĪ©åŁĥ
6 ä¸ĩ
9 åĲį
J o
S R
U T
c ur
Ġ éĢļå¸¸
çļĦ æ¯Ķ
çļĦ ä½İ
çļĦ ç§ĺå¯Ĩ
ä½ ¬
æľī 4
æľī åĪ«
åĴĮ åıĳå±ķ
ä¼ļ çĶ¨
ä¸İ å¼ł
ä¹ĭ åŁİ
æľ¬ å¹´
ãĢį ).
è¯¥ åİ¿
é©¬ æł¼
æĢ§ åıĸåĲĳ
ç§ĳ ä¸¾
ç±³ é«ĺ
éĢī å®ļ
åİŁ æĸĩ
è¾¾ åĪ©çī¹
åħĥ ä»£
äº¤ éģĵ
å®ŀ åľ°
éĹ¨ åīį
åıĸ æĿĲ
å¤ª åĴĮ
äº¬ åī§
åĵĪ éĩĮæĸ¯
çĵ¦ åħĭ
èĲ¨ å§Ĩ
ç»Ļ å®ļ
è¿ĲåĬ¨ åľº
æ±ī ä¹¦
æ²Ļ æĭī
ä»ħ åī©
è´Ŀ åĪ©
å²ģ æľĪ
éĻį æ°´
æ¶Ī æķ£
ç®¡çĲĨ åĳĺ
åĪĩ éĻ¤
ä¸¥ è°¨
å¾® çĶŁçī©
è¯Ńè¨Ģ åŃ¦å®¶
æĿľ å°Ķ
çİī å±±
ad d
çļĦä¸» è§Ĵ
æĪªèĩ³ 2020å¹´
åįıåĬ© ä¸ĭ
å±ķå¼Ģ äºĨ
è¶ħçº§ èĭ±éĽĦ
æıĲé«ĺ äºĨ
ä¸Ńåħ±ä¸Ńå¤® æĶ¿æ²»å±Ģ
ç½ĳè·¯ ä¸Ĭ
èģĺ ä¸º
èĬĴ ä»Ģ
æºĲèĩª äºİ
åıĳæĮ¥ äºĨ
Ġ195 3å¹´
Ġ195 9å¹´
å¤¸ åħĭ
æĲŀ ç¬ĳ
6 æľĪ17æĹ¥
Ġ æŃĮæĽ²
Ġ åľ¨ç¾İåĽ½
åľ¨ èĭ±æł¼åħ°
åĽ½ åºĨ
äºº èº«
æľī å¤§éĩı
æĸ¯ å·´è¾¾
è¢« çĶ¨æĿ¥
æ°ĳ éĢī
å¼Ģ æľº
å¹³ éĺ³
èİ ĵ
å®ļ ç½ª
é©¬ æľ¯
è¾¾ å¾·
å½± éŁ³
è¯Ń ä¹ī
æĶ¹ å±ŀ
åį¡ çº³
ç¥ŀ æ®¿
æľª èİ·
èĭı çĽĬ
åħĪ å¤©
æļ ®
å¡Ķ æģ©
è¿ĲåĬ¨ ä¸Ń
æĬķ éĿł
åĩĨ è®¸
çļĩ å¤ªæŀģ
äºİ19 20å¹´
èĪ¹ éĺŁ
25 äºº
åĬ³ åĬ¨åĬĽ
9æľĪ 6æĹ¥
é»İ åĬł
ç§ĳåŃ¦ çłĶç©¶
4æľĪ 11æĹ¥
çĤ¸ æ¯ģ
èĸ °
us s
2æľĪ 19æĹ¥
ri b
å¸Ĥåľº ä¸Ĭ
åģı åįĹ
æĺĤ è´µ
æ¯įäº² çļĦ
è®°å½ķ äºĨ
åİŁæľ¬ æĺ¯
æıĴ æĽ²
é²į å°Ķ
åľºæ¯ĶèµĽ ä¸Ń
Ġ196 1å¹´
Ġ196 5å¹´
åį³ä½į åĲİ
çļĦä¸»é¢ĺ æĽ²
çĦļ æ¯ģ
æĺı è¿·
çĪ¸ çĪ¸
åŃ¢ åŃĲ
ç¡Ŀ éħ¸
é©¬èĢ¶ è®·
å·§åħĭ åĬĽ
é©¬è¾¾åĬłæĸ¯ åĬł
2 3å¹´
: (
g u
Ġ ST
äº µ
çļĦ è´¨éĩı
åľ¨ æīĢæľī
æľī éĥ¨åĪĨ
åĴĮ C
åľ° æĿ¿
æĽ ľ
æ°ĳ è°ĥ
è¿Ļ é¦ĸæŃĮæĽ²
åĬł æĹ¶
æľĢ æĸ°çļĦ
é«ĺ åħ´
è¯¥ å¸Ī
çľģ çļĦä¸Ģä¸ª
å¸ĥ å®ľè¯ºæĸ¯
èµ· äºĭ
èµ· å¼Ģå§ĭ
æİ¥ è§ģ
ç»´ å°¼
ä¹ī åĭĩ
å·² çģŃç»Ŀ
é¢Ĩ åĨĽ
æĻ® æĸ¯
æĬ¥ åºŁ
åı¤ åŁĥåıĬ
å¤ª ä»Ĩ
è®º è¯ģ
ç¥ŀ èģĮäººåĳĺ
ä¼Ĭ è¾¾
èĲ¨ éĩĮ
ar yĠ
åıĮ æīĭ
æµĭ å®ļ
åĪĺ å¤ĩ
å®« çļĦ
éº¦ èĤ¯
æŀª æĶ¯
ä»»ä½ķ äºº
é¢Ĩå¯¼ ä¸ĭ
åįģäºĮ çłģ
èģĶéĤ¦ ä¼Ĺè®®åĳĺ
éĽ¨ éĩı
æĮĩæĮ¥ ä½¿
æī§è¡Į å§Ķåĳĺä¼ļ
å¤ªéĺ³ ç³»
ä¹Ļ çº§èģĶèµĽ
çļĦä¸» åľº
é©¶ åħ¥
æĬĺ å°Ħ
æľīæķĪ åľ°
æĴ° æĸĩ
å·« æľ¯
èıĬ èĬ±
è°¢å°Ķ çĽĸ
ĠG e
åį³ä½¿ åľ¨
éĺ²ç©º ç³»ç»Ł
åĢ¼å¾Ĺ ä¸ĢæıĲ
æŃĮåĶ± å¤§èµĽ
è´¿ èµĤ
æĪĮ ç§ĳä¼ļè¯ķ
ĠCl ub
ä¼¦å·´ ç¬¬
è¥¿åĽŃ å¯º
) "
3 Ġå¹´
6 000
O ne
Ġ ä¸ĭè¾ĸ
çļĦ çī©ç§į
æĹ ·
å¸ Ľ
åĴĮ é¦Ļæ¸¯
æ³ ·
åĲİ å°Ĩ
ä¸İ ä¸Ń
éģ ı
æĶ¿ åı¸
æľĢ ä¸»è¦ģçļĦ
èĩ³ 2015å¹´
ä¸ī åı°
çŃī è®¾æĸ½
æį Ĩ
å±± åįĹ
éĩį åĪ¶
æ°´ è´¨
æĴ ¼
æ²³ è¥¿
å¹¿ åıĹ
çºª åħĥ
ä¸ĵ è®¿
ç¦ı æ²»
å®Į å¤ĩ
å¡Ķ éĩĮ
å¢ŀ å»º
åĿĩ åı¯
åĽ´ åī¿
çĹħ çļĦ
çĶµè§Ĩ å¹¿æĴŃ
æķĻèĤ² çļĦ
am i
æ¢ħ åħĭä¼¦åł¡
æĺ¯ä¸Ģ åľº
å±ĭ éĤ¨
5æľĪ 6æĹ¥
æķ¦ çħĮ
è¡Įä¸º çļĦ
æĬ¥åĳĬ ä¸Ń
å¢ĵ ç¢ĳ
ra ph
æ¶ħ å¤«åĭĴ
å®ĥä»¬ æĺ¯
æī° åĬ¨
æıĴ çĶ»
ç¡« åĮĸ
Sh ow
è®°å¿Ĩ ä½ĵ
ber t
our n
èµŀåĬ© åķĨ
å¹¶äºİ åĲĮå¹´
mer ic
æĺ¯åįĹæŀģæ´² çļĦå±±å³°
ä¸Ģèĩ³ äºĶ
æķĸ å¾·èĲ¨
ĠCol le
æľīéĻĲè´£ä»» åħ¬åı¸
åį«æĸ¯ çĲĨ
äºĭåĬ¡çĶ±åħ¶ æīĢå±ŀçļĦ
èľ¿ èľ
èĭıçĽĬ æł¼
t r
y d
Ġ åľ°
Ġ æĸĩ
Ġ åĨ³èµĽ
çļĦ ä¸ĵè¾ĳ
çļĦ è¡¨æ¼Ķ
è¡ ¢
æľī ä¸įåĲĮçļĦ
æľī å¤ļç§į
åĴĮ å°ļ
æ³ £
ä¸į åħģè®¸
åħ¶ èĮĥåĽ´
åĪ° å¤Ħ
è¢« æĮĩæİ§
ä½į å¤Ħ
ä¸ĭ è·Į
å¼Ģ æĿ¥
èµĽ åĪ¶
æĭī èµ«
æķĻ çļĩ
èĲ ±
å°ı å²Ľ
å£« å®ĺ
è¾¾ æĭīæĸ¯
èµ· åĪ°
æıĲ åĪ°äºĨ
åºĶ å¤©åºľ
ä¼Ĭ èİİ
åĽ¾ çļĦ
åĽ¾ æĸ¯
çĻ½ èī²çļĦ
è¨Ģ è¯Ń
é¦Ĩ èĹı
æķ´ ç¼ĸ
æ²Ļ ä¸ĺ
æ·± çļĦ
æĽ¼ å½»æĸ¯çī¹
æŃ£å¼ı åĲ¯çĶ¨
åĪĨåĪ« çĶ±
å¼Ģåıĳ äºĨ
æģĲ åĲĵ
ç¬¬åįģ ä¹Ŀ
åĳ¨è¾¹ åľ°åĮº
ç¢³ éħ¸
èĥ¸ é³į
ç¨» çĶ°
ĠO r
Ġ196 4å¹´
æĬĦ æľ¬
ru ct
é©»æīİ åľ¨
ä»¥0 æ¯Ķ2
æŀ¢å¯Ĩ éĻ¢
çłĶè®¨ ä¼ļ
èĦ±æ°§ æł¸ç³ĸæł¸éħ¸
åıĸèĢĮ ä»£ä¹ĭ
4 æ¬¡
D J
Ġ çĪ±
Ġ çĻ»åľº
çļĦ åĲĪä½ľ
çļĦ é«ĺåº¦
ä¸º éŁ©åĽ½
ä¸Ģ å¾ĭ
å¤§ ä½ĵ
éĹ ¾
ä¸į éĢĤåĲĪ
åħ¶ ä¸İ
å¹¶ åı¯
è¥¿ å¤ı
åĨĽ æ°ĳ
åıĬ çĽ¸åħ³
ãĢį ãĢĮ
æķĻ åĳĺ
äºĮ åħ«
å¤ĸ åĬ¡
ç³ Ļ
éĢī çĶ¨
å¥³ ä¼ĺ
å¯¼ åħ¥
é¾ Ľ
éĵģ çŁ¿
å¸¦ çļĦ
åĨ³ æĪĺ
åĽ¾ ä¸Ń
ç¿ Ĭ
åıĪ ä½ľ
åħŃ äºº
åħŃ åĽĽ
15 ä¸ĸçºª
æİ¨ å®ĺ
æ¡Ī åıĳ
é»Ħ å¤§ä»Ļ
éĤ£ ä¸į
åįł çĶ¨
æīį å¾Ĺä»¥
æīĢæľī æĿĥ
æĹħ é¡º
ç¬¬ä¸ī å±Ĭ
å»¶ è¯¯
åĶĲ å±±
åĪĩ åī²
24 æĹ¥
éĿł èĳĹ
ç¬¬åĽĽ å±Ĭ
åı°åĮĹ åİ¿
èİī å¨ħ
èĿ İ
å¢ĵ å¿Ĺ
åĪ¶éĢł ä¸ļ
ä¸īåįģ ä¸Ģå¹´
ä¸īåįģ ä¸īå¹´
ers on
ä¸¥æł¼ çļĦ
Ġ198 0å¹´ä»£
æĺ¯ä½įäºİç¾İåĽ½ åĬłåĪ©ç¦ıå°¼äºļå·ŀ
ç«Ł çĦ¶
æ¿Ĵ ä¸´
æµ·åįĹ çľģ
éĥ½çĿ£ åºľ
åħ¨ä½ĵ ä¼ļè®®
åħļç»Ħ æĪĲåĳĺ
è´¦ åı·
æ·ĭ å·´
éĵ¸å¸ģ å±Ģ
çŁ³åĭĴ èĭıçĽĬæł¼
èĴĻå¤§ æĭ¿
S F
n a
¶ å½¢çĽ®
Ġ ä¿ĿæĬ¤
Ġ éĥĳ
åľ¨ éĥ¨åĪĨ
ä¸Ģ éĺŁ
ä¸İ ä¼ļ
åĮº åĨħçļĦ
å¹¶ ç»§ç»Ń
è· Ĩ
è¿Ļ åľ¨
æĸ° å®¿
è¯¥ å±Ĭ
äºĮ æĪĺåĲİ
åħ± è®¾
å±± ä¸ĺ
ç½Ĺ å°Ķ
åĪĻ äºİ
0å¹´ èĩ³
åį¡ åĪ©
æ¸¸ è®°
æĶ¿åºľ åĴĮ
æĪĲä¸º ä¸ĢåĲį
ä¼Ĭ èĹ¤
çļĦä¸Ģ æ¬¾
è°ĥ åĪ°
éĿ¢ç§¯ 4
åİĨåı² åįļçī©é¦Ĩ
çĵ¦ çī¹
æ´Ľ ä¼¦
èĲ½ çļĦ
æĪĲç«ĭ äºİ
æ·± èī²
åģľ çĶ¨
è®¡åĪĴ ä¸Ń
æķĻèĤ² åŃ¦éĻ¢
èĴĤ å°Ķ
æł¸ åĩĨ
åĶĲ ä¹¦
éĢļå¸¸ ä¸º
10æľĪ 4æĹ¥
çĬ¯ äºº
èµµ åĽ½
åŃ© åŃĲçļĦ
åŃĶ éĽĢ
éĺ´ éĺ³
è·³ è·ĥ
è°ĥæķ´ ä¸º
åºĬ ä½į
éĺ²å¾¡ çİĩ
å¹½ çģµ
å®´ ä¼ļ
Ġ197 5å¹´
Ġä½¿çĶ¨ çĬ¶åĨµ
ä¸ºè¾Ĳé³įé±¼çº²é² ¶å½¢çĽ®
å·¥åķĨ ç®¡çĲĨ
äºĮæ¬¡ å¤§æĪĺ
å¯¡ å¦ĩ
äºı æįŁ
æ°ĳä¸»è¿ĽæŃ¥ åħļ
æ°ĳå»º èģĶ
å¾·ç±³ çī¹éĩĮ
è¯ħ åĴĴ
èľ¿èľ Ĵ
3 çļĦ
A b
i or
v ent
Ġ åħ¬è·¯
çļĦ æŃ£å¼ı
ä¸Ń æĢ§
ä¸Ń æ®µ
æĪĲ æķĪ
çĶŁ è¿ĺ
åĪĨ æīĵçĤ¹
æľ¬ åĽ½
çī© ä½ĵçļĦ
æĭī èĴĻ
åĮĸ åĲį
èµ· æŃ¥
å·´ åĪ©
å¥³ å·«
æĹł åı¯
æĹł æīĢ
æĮĩ ä»£
åĽŀ åİ»
æĶ¿åºľ ç»Ħç»ĩ
in al
å¥¹ ä¹Ł
åĨį è½¬
ç¦ı å¸ĥæĸ¯
ä»£è¡¨ æĢ§çļĦ
åħ· ä½ĵçļĦ
çĶ» åĥı
æł¹æį® ç¾İåĽ½
åıĤåĬł å·¥ä½ľ
ä¾§ æīģ
å½ĵåľ° æĹ¶éĹ´
ä¼ĺ èī¯
åĺī å®ļ
åĶ® åįĸ
æ¬§æ´² çļĦ
8æľĪ 11æĹ¥
3æľĪ 6æĹ¥
åģĩ éĿ¢
å½¢æĪĲ ä¸Ģä¸ª
ä»¥ä¸ĭ çļĦ
åľĨ éĶ¥
åºŁ å¢Ł
æľīéĻĲ çļĦ
ç¬¦ èħ¾åł¡
åĿļ å®ļ
å»ī ä»·
åŁºæľ¬ çļĦ
ç©ºéĹ´ çļĦ
è¿İ æĿ¥
äº§åĵģ çļĦ
æĹģ éģ®
è´¢æĶ¿ éĥ¨éķ¿
èĴĭ ç»ıåĽ½
æĻ®éģį è®¤ä¸º
æ·¡æ°´ æµģåŁŁ
è¯ı ä¹¦
æĸĲ è¿ªåįĹ
éĵ¶çīĮ å¾Ĺä¸»
ä¸Ĭå¸Ĥ åħ¬åı¸
Ġn ame
æĺ¯ä¿Ħç½Ĺæĸ¯ èģĶéĤ¦
ä»Ĩ å°Ħ
é³ŀ çīĩ
æĪĺåĪĹ å·¡æ´ĭèĪ°
åİ¨ å¸Ī
du ction
æ²¦ ä¸º
ç¦ıå°Ķæĳ© æĸ¯
åı¤åħ° ç»ı
äººåı£åıĺåĮĸ åĽ¾ç¤º
Ġè¯¥å°ıè¡ĮæĺŁ ä»¥
æĹģéģ® æĻ®
Ø §
Ġ å¾·
ä¸Ģ æĪĺ
ä¸Ń ä¸İ
åŃ¦ çĶ²
ä¸İ è¥¿çıŃçīĻ
ä»ĸ åĲĳ
åĮº æ®µ
åħ¬ åĲ¨
å®¶ åįıä¼ļ
åĨĽ æľº
çī¹ å¿«
å¼Ģ å¤´
åĪ¶ èį¯
æŁ ł
æ¡ ¢
ä¸ŃåĽ½ åĨħåľ°
ç»Ł ç§°
åİĨ æĿ¥
æĮĩ çļĦ
åıį åıĽ
å¤ª å¤§
æľĿ åĲĳ
è½¬ åĬ¨
åĸ ±
åĵĪ æ¡ĳ
å±ħ çķĻ
åĬŁ ç»©
17 äºº
30 äºº
èŃ ¬
æĦŁ åĬ¨
èŃ¦ éĺŁ
13 00
å´ ģ
çł´ ç¢İ
å¼Ĥ è®®
èĩªçĶ± çļĦ
çī¹åĪ« çļĦ
é¸Ł çļĦ
ãģ ª
æ¤įçī© çļĦ
çĸĳ éĹ®
æ¯« ä¸į
29 0
è´Ŀå°Ķ ç¦ı
è§£åĨ³ äºĨ
em ent
æĥĬ è®¶
äºİ197 3å¹´
äºİ197 6å¹´
æľºæ¢° åĮĸ
çĮľ æĥ³
å¥¥åĮĪ å¸ĿåĽ½
ï¸ °
2 æľĪ21æĹ¥
5 èĩ³
M B
Î ³
Ġ è¿ĳ
Ġ è¿Ļæĺ¯
ä¸º çĶŁ
æĺ¯ ä½¿çĶ¨
æī ¯
æľĪ äº®
ä¸Ĭ éĥ¨
ä¸Ĭ çĸı
åĪ° æľŁ
è¿Ļ æĦıåĳ³çĿĢ
æĸ° åĽĽåĨĽ
é©¬ ä¿®
ä½Ĩ å½ĵ
å¤© å±±
å¤© æīį
æŁ ĳ
ä¸¤ ç»Ħ
äº¤ è°Ī
å®ŀ çļĦ
æµģ æĦŁ
å±ķ åĵģ
åıį æ½ľ
å¥¹ ä¸º
èĳĹ æīĭ
åı¯ä»¥ çľĭåĪ°
äººæ°ĳ æĹ¥æĬ¥
éĿ¢ç§¯ çº¦
ä¸Ķ åľ¨
åį° æľī
è§ģ è§£
èİ± å¾·
å®¢ åº§
æĹ© åīį
çİ¯ ç¤ģ
ä¸ĥ æĺŁ
å°ļ ä¸įæ¸ħæ¥ļ
æ¯Ľ éĩĮ
æ²ĥ æĢĿ
æı´ åĨĽ
æķĳ çĶŁ
æĪĪ å¤«
åīĳ æ³ķ
ä¸Ńæĸĩ çīĪ
ap an
æŁ´ æ¹¾
éĺ¿æĭīä¼¯ äºº
äºİ194 6å¹´
éĻĢ ç½Ĺ
å¿į èĢħ
åłĨ ç§¯
æ³¢å°Ķ å¤ļ
è¶³åįı æĿ¯
éĺī åī²
3 èĩ³
5 ä¾ĭ
R O
Ð º
Ñ Ĥ
Ġ ç»Ħç»ĩ
Ġ è¿Ľåħ¥
Ġ ä¹¾éļĨ
çļĦ éĻĪ
çļĦ ç»Łè®¡
å¹´ åīį
åľ¨ ä¸į
ä¸Ģ è¡Į
å¤§ ä¸Ń
äºĨ ä¸ŃåĽ½
ä¸Ĭ æĹ¬
ä»ĸ ä¸į
ä»ĸ æĬĬ
å¹¶ å®£å¸ĥ
è¢« æ´¾å¾Ģ
æ± ŀ
åĲĮ æºĲ
çī¹ æķĪ
åı¯ åģļä¸º
æĸĩ åĵ²
çŃī é¢ĨåŁŁ
æ¬¡ ä¼ļè®®
ç½Ĺ åħ°
æĢ» æĬķèµĦ
å½± åŃĲ
å°¼ èĮ¨åŁº
åĪĹ å¤«
æ¶ §
åıĹ å½±åĵį
12 ç±³
æľª ç§ĳä¼ļè¯ķ
æĶ¶ å®¹
è°ĥ åº¦
ç¦» éĺŁ
åŃ£ çļĦ
åĵĪ èµ¤
å¡Ķ çļĦ
æ¬§ æĸĩ
æĴŃ éŁ³
å¥ĸ æĿ¯
å¯Ł åĲĪ
åĨľ ä½ľçī©
è½½ äºº
æī§ ä¸ļ
ç²¾ å½©
è¯» éŁ³
éĺµ åĪĹ
æ²ĥ å¾·
çīĽ å¥¶
æ½ľ åħ¥
éĹŃ å¹ķ
äºīè®® çļĦ
çıį è´µ
çŀ Ĵ
åĿİ è´Ŀå°Ķ
æĮĩå®ļ åľ°åĮº
è¾¾å°Ķ æĸĩ
å¸¸åĬ¡ å§Ķåĳĺ
ĠG ames
Ġ196 7å¹´
æĨ ©
é¢ł è¦Ĩ
å¥¥æĸ¯åį¡ æľĢä½³
å±ıä¸ľ åİ¿
çĪ±èį· åįİå·ŀ
ç»ĥé©¬ å¸Ī
% (
2 æľĪ22æĹ¥
p lay
Î ¿
Ġ åĬłæĭ¿å¤§
çļĦ åĲį
çļĦ åĲĦç§į
ãĢ ľ
ä¸Ń ç¾İæ´²
èµ Ī
è¡Į ç»ı
æľ¬ èĲ¥
çī¹ åľ¨
æĸ° åħļ
åĮĹ è¾¹
é«ĺ ç¥ĸ
èµĽ åĴĮ
æĢ§ æ°ĶåĢĻ
ç»Ł æĪĺ
å®ŀ æķ°
æĽ´ åľ¨
ä¸ĩ æĪ·
or s
æĶ¶ çľĭ
æ´¾ åĪ«
å¼º ç¡¬
ä»ĸä»¬ å¯¹
èĲ¨ åĪ©
æĶ¿æ²» åŃ¦
çĶµå½± åĴĮ
å®¤ å¤ĸ
çļĩ å¤ªåŃĲ
èĢģ åŁİ
åº· ä¹Ĳ
å¹² è¾¾
çĽĳ æĬ¤
èī¾ ç±³
èį· å°Ķæĸ¯
ä¸ĢèĪ¬ è®¤ä¸º
è®®ä¼ļ éĢīä¸¾
å¤ıåŃ£ æ®ĭçĸ¾äººå¥¥æŀĹåĮ¹åħĭè¿ĲåĬ¨ä¼ļ
çĽĲ æ°´
éļĲ ç§ģ
äºİ198 1å¹´
å®īå¾· å°Ķ
Ġof Ġ
Ġof ĠtheĠ
Ġ197 7å¹´
æ³Ħ æ¼ı
å¿ĹæĦ¿ èĢħ
çķľ çī§
å½°åĮĸ åİ¿
èµĽèīĩ è¿ĲåĬ¨åĳĺ
èĥļ èĥİ
æĳ©å¤© å¤§æ¥¼
A c
C BS
K e
Ġ æľĢåĲİ
ä½ ļ
20 äºº
ä»¥ 5
æĹ¶ å°±
ä¼ļ æĺ¯
è´ »
æĪĲ éĥ½å¸Ĥ
å¹¶ åĬłåħ¥
è¥¿ éĽħåĽ¾
åĲĮ ç±»
èĩ³ 2012å¹´
çĶµ éĺ»
éĢļ è´§
èĬ ·
åħ¨ æĿĥ
ç½Ĺ æ±ī
å®ī æıĲ
éĥ½ ä¸İ
åİŁ çĶŁ
èĭ± åĲīåĪ©
éĺ¿ çī¹
æĶ¹ ç§°ä¸º
å¸¸ å¹´
æ¸¯ çļĦ
12 åĲį
éĴ µ
éŁ³ é¢ĳ
è®º çļĦ
çŁ³ çļĦ
è½¬ èĩ³
åı¯ä»¥ çĶ±
æ³¢ åıĬ
æŁ¥ çľĭ
å¼ķ äºº
æ²¡æľī äºº
æŃ» ç¥ŀ
åĽ´ åĽ°
é²ģ èĥ½
åħ´ çĽĽ
éĿĴ è®Ń
é¸ ½
ç¥¨ æķ°
å·Ŀ å´İ
æī¿ è½½
èĹı æĸĩ
è¶³çĲĥ ä¼ļ
æ£Ģ æł¡
éĢı éķľ
10æľĪ 11æĹ¥
æķĳ åĬ©
21 äºº
ãģ Ł
è°ĭ åıį
åĨĽéĺŁ åľ¨
æŃ»äº¡ äººæķ°
åģı åĮĹ
æģĭ ç«¥
çŃ¹ éĽĨ
åŃŁ ä¹°
ç¿»è¯ĳ ä¸º
äºİ194 9å¹´
åħĭèİ± å°Ķ
éģµ ä¹ī
ç¾½æ¯ĽçĲĥ éĶ¦æłĩèµĽ
èĢĥåı¤ åŃ¦å®¶
ä½Ľç½Ĺ ä¼¦
æĺ¯æ³ķåĽ½ ä¸Ĭ
åħĪè¿Ľ çļĦ
åĲĽå£«åĿ¦ ä¸ģ
éĴ¥ åĮĻ
èµĽé©¬ ä¼ļ
è·Ĩ æĭ³
èį·å°Ķæĸ¯ æ³°åĽł
2 2å¹´
2 æľĪ13æĹ¥
æĺ¯ åĽł
åĴĮ formula
éĥ¨ å°Ĩ
æ¯ ĭ
ä¹ĭ äºī
å¹¶ æĪĲåĬŁ
èĩª æĪĲ
éĩĮ å¾·
èĩ³ 2014å¹´
åĨħ åľ¨
åĨħ çī¹
ä¹Ł ä¸įèĥ½
è¯¥ å·ŀ
ç«ĭ æ¡Ī
æĭī ç±³
å¸ĥ æ´Ľ
é©¬ ä½į
éĩį æķ´
çĤ ½
ä¸ŃåĽ½ éĵģè·¯
éĥ½ å¿ħé¡»
å¸¸ ç»¿
å¹¿ æ·±
èº« å¿ĥ
æ±Ł å±±
ä¿¡ çļĦ
æ¯ı ä½į
æ³¢ çļĦ
åŃĺ æľī
åī¯ åı¸ä»¤åĳĺ
å¡ŀ çĲī
èĬ± æł·
ä¹Ŀ åįģ
æķ´ é¡¿
èĭ±åĽ½ ä¼¦æķ¦
å½ĵæĹ¶ åľ¨
ä»ħ éĻĲäºİ
åºĨ éķ¿
åĶĲ çº³å¾·
å¸ķ çī¹éĩĮ
çİĽ éĽħ
3æľĪ 8æĹ¥
äº¤éĢļ è¿Ĳè¾ĵ
éĽĨåĽ¢ åħ¬åı¸
æĻĭ åĽ½
1æľĪ 7æĹ¥
é½Ĳ å¥¥
æ¤įçī© åĽŃ
è¿ĺæľī ä¸ĢäºĽ
æĶ¿çŃĸ çļĦ
ç¬¬åįģ åħ«
åħĭéĩĮ å¥¥å°Ķ
ä¸īåįģ ä¸ĥå¹´
æ¼«çĶ» ä½ľåĵģ
æıĲåįĩ èĩ³
ç¾İæľ¯ åŃ¦éĻ¢
çĭĦ æĽ´
å¸¦é¢Ĩ ä¸ĭ
å¼ĹæľĹ èĮ¨
è½¬æį¢ ä¸º
ï¼ħ ,
æĺ¯ä½įäºİç¾İåĽ½ æĺİå°¼èĭıè¾¾å·ŀ
Ġ197 1å¹´
Ġ197 4å¹´
Ġd es
ĠåĴĮ Ġ
èĲ¥ä¸ļ é¢Ŀ
åĵĪéĩĮ æ£®
åİĮ æģ¶
åłķ èĥİ
èģĭ äºº
6 æľĪ13æĹ¥
B åŀĭ
Ġ or
Ġ çļ®
çļĦ èµĦæł¼
çļĦ èģĮåĬ¡
åľ¨ åĲĮå¹´
åľ¨ æİ¥ä¸ĭæĿ¥çļĦ
ä¸Ģ åħ«
ä¸Ģ è´¯
è¯ ½
åĨ ī
å¤§ éĽ¨
åĴĮ ä¸į
åĴĮ å£°
åĴĮ ä¸Ģæŀļ
åĮº åıĬ
åħ¬ çĲĨ
æ¸ İ
ä¹ĭ æĹ¥
çĶ± æĸ°
æĸĩ éĽĨ
ç¾İ éĩĳ
åīį ä¸¤
ä¸ľ å¾·
è¯¥ å¯º
äºĮ ä¸ª
çİĭ æĿİ
18 00
ä½įäºİ ä»Ĭ
æį® æĬ¥éģĵ
éŁ³ è¯ĳ
æł¡ å°ī
åıį éĿ©åĳ½
ä¿¡ å¿µ
ç¬¬ä¸Ģ éĺ¶æ®µ
åĸ Ĥ
åħµ å¤ĩ
æĭħ ä¿Ŀ
äº² å¯Ĩ
çļĦä¸Ģä¸ª å±ŀ
èĹ Ķ
è¯ķ åīĤ
å¾Ī é«ĺçļĦ
æĦŁ åıĹåĪ°
åĲĮæĹ¶ è¿ĺ
æĺ¾ å¾®
æ´»åĬ¨ å®¶
èĹı æĹı
è½® æµģ
åħ¶ä¸Ń æľĢ
ä»ģ å·Ŀ
çĶ·åŃĲ åįķæīĵ
ir d
In ter
è´Ŀå°Ķ çº³
è½´ å¿ĥ
æ§ Ĳ
åĳĪçİ° åĩº
æĸ© æĿĢ
ç»ıçºª äºº
çŃĽ æŁ¥
è¯¸èĳĽ äº®
olog y
å·´æ¯Ķ ä¼¦
è±ģ åħį
å·ŀéĻħ åħ¬è·¯
éĿŀçī©è´¨ æĸĩåĮĸéģĹäº§
2 æľĪ17æĹ¥
4 ä¸ĩ
A BC
u ri
Ð »
Ġ éĥ¨åĪĨ
Ġ åİĨä»»
Ġ 1920å¹´
åĪ ®
åľ¨ 2024å¹´
ä¸Ģ æĺ¯
ä¸Ģ ä¸ĭ
æĿ ŀ
å¼ Ī
å¼ ĭ
ä»¥ éĺ²æŃ¢
åĮº åĿĹ
çĶŁ åĮĸ
èĢĮ å°Ĩ
è¿Ļ æĺ¯ä¸Ģç§į
åīį æīĢ
æīĢ èĳĹ
åı° è§Ĩ
è¡¨ éĿ¢çļĦ
æľº åĴĮ
èģĶ éħĭ
è¿Ĳ å¾Ģ
èĭ± äº©
æ²³ ä¸İ
æ¸¸ è§Ī
ç¡ ¼
æĹ¥æľ¬ æ°Ķè±¡åİħ
åıĺ èº«
ä¸»è¦ģ ä»İäºĭ
å¡Ķ æ¥¼
éĻ¤ åİ»
åħ« æĹĹ
17 ä¸ª
æ¦ ¨
éŁ³ä¹Ĳ åİħ
å½Ĵ äºİ
åĮĹéĥ¨ çľģ
åħ¹ åł¡
çİĽ èİī
100 åħ¬å°º
æ·· åĲĪçī©
å¸ĮèħĬ ç¥ŀè¯Ŀ
éĿĻ åĨĪ
åħĥç´ł çļĦ
æĸĳ é©¬
åº·çĨĻ å¸Ŀ
èħĲ èļĢ
ĠE d
ä½įäºİä¸ŃåĽ½ å¹¿ä¸ľçľģ
é¥¶ èĪĮ
åĨ» ç»ĵ
è´¦ æĪ·
æ²īç§¯ çī©
è¡Ļ éĹ¨
6 Ġå¹´
B ill
M ag
W eb
Ġ åĽ½å®¶
Ġ çİ¯å¢ĥ
çļĦ æłĩå¿Ĺ
åľ¨ 2001å¹´
20 ç±³
å¥ Ħ
éķ ĸ
ä»ĸ å°±
åıĳ æºĲ
ä½ľ äºĨ
èĩª å®¶
å¹³ ç«ł
åĬł çº³
åĮĹ æĬķ
äºļ è¿Ĳä¼ļ
çŃī æĸ¹å¼ı
è¡¨ æł¼
æĭī ç½ķ
å¤ĸ è¡¨
è·¯ çĶ±
å®ī åįĹ
éĺ¿ åį¡
ç¾İåĽ½ åĴĮ
äº§ åĢ¼
åı² åħĭ
æ· ĩ
å¥¹ å¯¹
æĿĥ åĬĽçļĦ
æ¡Ī ä¸Ń
æ³ķåĽ½ å¹³åĿĩæ°´å¹³
ä¼¦ åł¡
æł· åŃĲ
ç¡® å®ļçļĦ
åįł äºĨ
è¶Ĭ åħ±
ç»Ħç»ĩ åĴĮ
åģľ æ»ŀ
æĺ¾ çİ°
çīĻ åĮ»
æīĢæľī äºº
éĢĢ åĮĸ
å·¦ æīĭ
ä¸´ æµ·
åĪ¤ å®ĺ
æĿ° æ£®
å¿ħ å®ļ
å¼Ĥ æŀĦ
é³ ī
çĭ¬ç«ĭ åĲİ
çĶ¨äºİ æ²»çĸĹ
æ²ĥ å°Ķçī¹
éĥ¨éĺŁ åľ¨
4æľĪ 7æĹ¥
40 åĪĨ
ç½Ĺé©¬ äºº
åĩ¯ çĳŁ
éª¨ å¹²
è¾Ľ è¾Ľ
è¸ ©
æµģè¡Į æĸĩåĮĸ
çģ¯ åħī
å¤§åŀĭ çļĦ
è¾ī çħĮ
åĩ½æķ° çļĦ
äºİ194 2å¹´
ä»ĭç»į äºĨ
çģĮ ä¸Ľ
çļĦåĲİ ä»£
é²¤ é±¼
èµ«å°Ķ æĿ¾
ĠP ark
ĠA ir
ĠO pen
Ġ196 9å¹´
çĪ±åĽ½ ä¸»ä¹ī
è¯¥å¸Ĥ æľīäººåı£
è´Ńçī© ä¸Ńå¿ĥ
æ·Ģ ç²ī
è·¯å¾· ç»´å¸Į
åįİçº³ åħĦå¼Ł
éĺ¿æł¼ çº½
% ),
u ch
Ġ éĢī
Ġ æ¢ģ
Ġ çĶŁæ¶¯
çļĦ è®¸å¤ļ
çļĦ æĹ¶ä»£
ä¸º éħįåĲĪ
ä¸Ģ ä¸¾
ä¸Ģ ä»¶
ä¸Ģ è¿ŀä¸²
å¸ §
éĩ ī
æľī 5
æľī æ¯Ĵ
åĴĮ T
åĮº éģĵ
åıĳ å£°
åĵ ĳ
èĭ Ł
èĩª åı¤
å¼Ģ é¦Ĩ
åĮĹ è§Ĵ
ä¹Ł è¡¨ç¤º
æľº éĺŁ
åı£ çļĦ
å±± åĴĮ
ä½¿ ä»ĸä»¬
æĢ» åı¸ä»¤éĥ¨
åİ¿ ä»¤
èµ· å§ĭ
çİĭ åħ¬
åįİ ä¸½
åŀ ®
å¥³ åıĮ
æĹł äº§éĺ¶çº§
åħļ æĶ¿
è¯´ åĩº
äºĶ è§Ĵ
å¼Ģå§ĭ åĩºçİ°
åĽ¾ åį¢
äº¬ åħĨ
ä¸ĸçķĮ ç¾½èģĶ
æĿİ é¸¿
ar ch
èĢĥ éªĮ
æŃ¢ æŃ¥
åıĳçĶŁ è¿ĩ
æķĻèĤ² åĴĮ
ä½Ļ ä¸ĭ
æĪĺäºī åĲİ
æĪĺäºī ç»ĵæĿŁ
åİħ åİħéķ¿
è½® æ¤ħ
èĽ ¾
åĮĹéĥ¨ åĴĮ
ä¼ļè®® çļĦ
åį´ åĽł
åºı æķ°
è¿ģ éĥ½
åħ¶ä¸Ń ä¸ĢåĲį
ç«¥ è¯Ŀ
å¸® æ´¾
éĴĪ çģ¸
åĨ° çĲĥ
2æľĪ 3æĹ¥
æľĢåĪĿ çĶ±
2009å¹´ æĹ¶çļĦ
çĪĨåıĳ äºĨ
å¸®åĬ© çĲĥéĺŁ
æģĭ äºº
åıĽ åıĺ
186 8å¹´
èĪĴ æĽ¼
äºİ194 7å¹´
äºİ196 6å¹´
åį¢çĵ¦å°Ķ çľģåĴĮ
ĠB ar
ä½įäºİæ³ķåĽ½ è¯ºæĽ¼åºķå¤§åĮº
å¼ĹéĽ· å¾·éĩĮåħĭ
åĢ¼å¾Ĺ æ³¨æĦıçļĦæĺ¯
å¤§çĲĨ å¯º
èİ·å¾Ĺä¸Ģæŀļ éĵľçīĮ
ç¹ģå¿Ļ æĹ¶éĹ´
Ġå¤ĸéĥ¨ éĵ¾æİ¥
App le
3 0å¹´ä»£
M an
U B
Ġ åĪ©
Ġ è¿Ļä¸Ģ
åľ¨ åĮĹç¾İ
20 ä¸ĩ
19 äºº
ä¼ļ è®©
åŃ¦ ç¤¾
èĢĮ å¯¹
è¢« åĪĴåħ¥
çī¹ çº³
éķ¿ å¯¿
åįĹ å®ī
æľĢ å¼º
é«ĺ æ¡¥
èĩ³ 2017å¹´
å·¥ åĮł
ä½Ĩ ä¸İ
éĵ ¨
å¤© çĶŁ
å¤© èµĭ
æ¯Ķ å®ī
èµ· ä¼ı
æĪĸ åľ¨
è®® ç¨ĭ
éĺ¿ ç±³
å¸¸ åľ¨
18 äºº
å®ĺ åºľ
å¤ª å¤ª
ç¼ĸ éĺŁ
è°ĥ åĬ¨
äºī ç«¯
ç¦ı å²Ľ
åĵĪ ç»´
çĵ¦ è¥¿éĩĮ
åįĥ ä»£
æīĺ æ´Ľ
åıĳçİ° èĩªå·±
çĥŃ åĨħ
çĥŃ æ½®
å»ºçŃĳ é£İæł¼
ä¾¿ åľ¨
éĻį ä¸º
å³ ĩ
é¹ «
æ°¸ åĴĮ
åį´ æ²¡æľī
åĤ »
è¡Ģ åİĭ
è¡ĮåĬ¨ çļĦ
çĩ ®
éªĳ é©¬
åĪĨå¸ĥäºİ äºļæ´²
äººåı£æĻ®æŁ¥ æĮĩå®ļåľ°åĮº
ç¡¬ ä½ĵ
åĪ¶åº¦ çļĦ
è¿Ī å°Ķ
èĩªåĬ¨ åĶ®ç¥¨æľº
ç¼ĵ åĴĮ
åĪĽåĬŀ çļĦ
å¼ºçĥĪ åıįå¯¹
æľ¬èº« çļĦ
éħįå¤ĩ äºĨ
ĠG u
å°ĺ åŁĥ
åĴĸåķ¡ é¦Ĩ
å®īå¤§çķ¥ çľģ
ç§ĳç´¢ æ²ĥ
G O
m Ġ
Ġ åħ¬åı¸
Ġ èµµ
Ġ åĳ½åĲį
æĹ¥ æīĺç±³å°Ķ
ä»¥ å¤§
åĩº å¾ģ
ä¸į å¿ħ
ä½ľ ä¹ī
æĽ ¦
è¥¿ æ¹¾
åĬ¨ éĩı
è¿Ļ ä»¶äºĭ
å°Ĩ å£«
éĢļ ç¼ī
ä½Ĩ å¹¶æľª
ä¸¤ éĺŁ
æ¹ Ħ
åİŁ ä½ıæ°ĳæĹı
çİĭ åĪĺ
çİĭ èı²
éĺ¿ éŁ¦
åĲĳ åĲİ
æŀĹ æł¹
åıĹ è¿ĩ
åį¡ è¥¿
åı¤ è£ħ
æ±Ł éĹ¨
ç¬¬ä¸Ģ æĿ¡
è½¬ å¾Ģ
åĪĽ è®¾
åħĪ åľ¨
çłĶç©¶ åĴĮ
å¡Ķ å°¼äºļ
å®£ å¾·
ä¼¯ å¡Ķ
åįĩ æł¼
ä¼Ĺ å¤ļçļĦ
å¾Ī å¥½çļĦ
ä¸Ńå¿ĥ åŁİå¸Ĥ
çĶ² èģĶèµĽ
è¯į è¯Ń
ä¾¿ å¼Ģå§ĭ
æľįåĬ¡ ä¸Ńå¿ĥ
ä¼ĺ è´¨
åĪĹè½¦ æľįåĬ¡
çĭ¬ç«ĭ äºİ
è¿Ļä¸ª éĹ®é¢ĺ
èīºæľ¯ åįļçī©é¦Ĩ
24 äºº
äº¤éĢļ äºĭæķħ
æµ·åĨĽ çļĦ
åĽº éĨĩ
å¥ı è¯·
å¤ªéĺ³ çļĦ
çĵ¦å°Ķ å¾·
å¨ģå»ī æĸ¯
åĸĢ éº¦éļĨ
if ic
åĲĮçĽŁ åĽ½
ĠA ct
Ġæ¦Ĥ åĨµ
çĽĪ åĪ©
åĤ¬åĮĸ åīĤ
è¿½éļı èĢħ
ä¼ºæľį åĻ¨
è·Ĩæĭ³ éģĵ
3 å®¶
8 ä¸ĩ
I E
S uper
W E
o id
Ġ æĬĢæľ¯
Ġ ç¬¬äºĮæ¬¡ä¸ĸçķĮå¤§æĪĺ
çļĦ åħ³æ³¨
ä¸İ åĽ½éĻħ
ä¸İ æĸĩåĮĸ
åĩº çº¿
ç¬¬ 30
å¹¶ æĽ¾
å¼Ģ æºĲ
æĸĩ å®Ĺ
åīį ç§°
äºļ æĭī
åĨħ ç½®
æķĻ å»·
å¤ĸ åŀĭ
è¶ Ł
éĩį çİ°
æĢ» åĬ¡
éĢī åĮºçļĦ
çĽ¸ ç»ĵåĲĪ
ä¸ŃåĽ½ åı¤ä»£
æŃ£ çº¿
åįķ ä¸ª
çłĶç©¶ è¡¨æĺİ
äº¦ æĶ¹åĪ¶ä¸º
å®¢ æµģ
åĲī å¸ĥ
æĸ½ åİĭ
è´Ŀ çī¹
for d
éŁ³ä¹Ĳ çļĦ
ä¿Ħç½Ĺæĸ¯ å¸ĿåĽ½
åı¶ åīĳ
æĿ° åĩºçļĦ
æ¯Ĵ ç´ł
çĸĹ åħ»
è¿· å®«
å¹¿æĴŃ åī§
èĦļ æľ¬
äºİ197 1å¹´
äºİ197 7å¹´
æīĢå±ŀ è¡ĮæĶ¿åĮºåŁŁ
çļĦåİĨåı² å¹´ä»£ä¸º
å¥ĭ æĸĹ
ĠA m
Ġ196 3å¹´
Ġ193 5å¹´
åĪĨå¸ĥåľ¨ ä¸ŃåĽ½å¤§éĻĨçļĦ
GB T
æ·±æ°´ åŁĹ
åĩ¡å°Ķ èµĽ
Vi u
åľŁåºĵ æĽ¼
KP INK
å¤ļå°Ķå¤ļæ¶ħ çľģ
R T
S ch
y e
Ġ åıĹ
Ġ èĪªç©º
Ġ å¤§å¤ļæķ°
Ġ åĩºåħ¥åı£
Ġ è½¶äºĭ
æĺ¯ ç»§
å¤§ éº»
ä»¥ ä¸Ģ
ä¸Ĭ åīį
è¡Į éģĵ
æ¯ ĺ
æĮ Ł
éĽ ī
åĬ¨ çĶ¨
èĩª åĪ¶
èĩ³ 2023å¹´
çŃī å¤ļä¸ª
å®ļ åĲĳ
æĦ ģ
åŁº åº§
æ°´ å¸Ī
æİ¥ èİ·
çİĭ æĺŁ
å¤Ħ å¢ĥ
ç±» æ¯Ķ
åºĶ åĬĽ
er ry
ç©º ç¼º
å¼ķ èĩ´
å±ħ å®¶
æŃ» çļĦ
æł· åĵģ
åıĮ èĥŀèĥİ
éĻĪ æ°ı
åħ¸ ç±į
æĿ° å¤«
èµ° åĪ°
èī¾ åĵĪè¿Ī
éĢīä¸¾ äº§çĶŁ
éŁ¦ æĸ¯çī¹
éĶ¦ å·ŀ
å®īåħ¨ æĢ§
å¥³åŃĲ åįķæīĵ
èģĮä¸ļ è¶³çĲĥè¿ĲåĬ¨åĳĺ
æ¨ª çĲ´
éĶ¡ åħĭ
åĪĨå¸ĥäºİ åį°åº¦
åī§æĥħ çīĩ
188 4å¹´
è´¢æĶ¿ æĶ¶åħ¥
æ°ĳä¼Ĺ åħļ
ä¸Ģä¸ĸ çļĦ
æĲ¬ åĪ°äºĨ
2æľĪ2 3æĹ¥
çĶŁæĢģ ç³»ç»Ł
æĸĩçĮ® ä¸Ń
çĲī çĴĥ
å½¢å®¹ ä¸º
çļĦæĶ¯æĮģ ä¸ĭ
æĬ± æĢ¨
å¸Ĳ åı·
ãĥ¼ ãĥ
åŁİéĻħ éĵģè·¯
æĸ¼ ä¼¦æķ¦
ç¬¬èģĤä¼¯ ç½Ĺ
éĹŃçİ¯ ç®¡æİ§ä¸Ńåıĳçİ°
ä¼Ĭèİī èİİçĻ½
ä½Ľç½Ĺä¼¦ èĲ¨
è¯½ è°¤
D M
M 2
M us
X X
Ġ æĶ¿åºľ
Ġ çĲĥä¼ļ
çļĦ C
çļĦ é¡¹çĽ®
åľ¨ ä½¿çĶ¨
ä¸Ģ åħ±æľī
åŃ º
ä¸Ń è§Ĩ
æĺ¯ ä»ĸçļĦ
æĺ¯ éĿŀå¸¸
åĴĮ éĿŀ
ä¸į æĿ¥
æ± ´
è¿Ļ å°Ĩ
è¿Ļ é¦ĸ
å¼Ģ æĪĺ
åįĹ å±±
åįĹ å²¸
åĮĹ æľĿ
ä¸ľ éĹ¨
çŃī åĢĻ
å°Ĩ ä¸İ
æĭī æĽ¼
ç§ĳ æĸ¯
èģĶ è§ī
èµ· æĿ¥çļĦ
å½± éĻ¢
è®® äºĭ
éĺ¿ åħ¹
å¥³ å©¿
å¹¿ ä¸ºäººçŁ¥
å¥¥ æĭī
å¥¥ å·´é©¬
å¡Ķ åĲī
èħ ķ
çº¢ çĻ½
åĲĮæĹ¶ æľŁ
è¾ĸ ä¸ĭ
åĪĩ æĸ¯çī¹
éĢĲ åĩº
æ¿ ®
éħ¸ æĢ§
23 æĹ¥
æĸ°éĹ» èģĶæĴŃ
å®ª æĶ¿
åĲ¬ è¯ģ
ç§ĭ å¤©
åģı ä¸ľ
èĻİ å°¾
æħĪ ç¦§
çļĩå®¶ ç©ºåĨĽ
186 4å¹´
æŀĦæĪĲ äºĨ
äºİ195 0å¹´
æĹ¥æ²» åĪĿæľŁ
åľ¨198 9å¹´
Ġ193 6å¹´
Ġ192 5å¹´
å¥ł å®ļ
Ġæķħäºĭ ç®Ģä»ĭ
åĽ½å®¶åĴĮ åľ°åĮº
æķ£éªĳ å¸¸ä¾į
6 èĩ³
7 ä¸ĩ
A O
o le
o ch
x y
Ġ èİ±
çļĦ åįĬ
çļĦ çĶ·åŃĲ
çļĦ çĶŁçī©
çļĦ æĦŁè§ī
æĸ ¡
åľ¨ åįĹäº¬
ä¸Ģ ä¸Ń
ä¸Ģ æ¥¼
æĹ¶ æľº
è½ ¼
ä¸Ĭ è¡¨
ä¸į èĤ¯
æĸ¹ èĪŁ
ãĢĭ ),
åĬ¨ ä¹±
çī¹ è´¨
åı¯ ä¸İ
æĸ° åºĦ
æĸ° æ½Ł
ä¹Ł éĹ¨
æĭī æĸĲ
éĢļ åħ³
é¦ĸ ç§Ģ
åı² ä¹¦
å®ŀ å½ķ
åĮħæĭ¬ æľī
åı¯ä»¥ åĪĨä¸º
æīĵ åį°
èĤ² æľīä¸Ģ
åħŃ ä¸ªæľĪ
è®¤ä¸º ä»ĸ
æĿİ çĻ»è¾ī
ä½ľä¸º ä¸Ģç§į
éĺ² èĪ°
èĪ° èĪ¹
å£° æľĽ
åıĮ æºª
é£ŀ èīĩ
ä»į ä»¥
ä¸Ńå¤® çłĶç©¶éĻ¢
æľ¨ åħ°
å³ ª
éĢĢ èµĽ
å®« åĨħ
èĬĤçĽ® çļĦ
èī¾ è¿ª
æĳĦ åĥı
å¸ķ æĸ¯
è¡¥ éĢī
çĶŁäº§ äºĨ
æĮī éĴ®
ä¹Ķ ä¸¹
ç¼º å¤±
åĢŁ åı£
ri m
çĶļèĩ³ åľ¨
å¥ı æĽ²
æ¸¡ è¾¹
ä¹Łæľī ä¸ĢäºĽ
im eĠ
æĴĴ åĵĪæĭī
å¿ĥçĲĨ åŃ¦å®¶
é¼ł çĸ«
ç¥ŀç»ı ç³»ç»Ł
åľ¨199 2å¹´
äºİ195 2å¹´
1æľĪ2 4æĹ¥
åŃ¤ çĭ¬
åľ¨è¿Ļ æ¬¡
ĠA b
Ġ195 7å¹´
ĠI s
åĵĢ æĤ¼
åı²èĴĤ å¤«
åį°åľ°å®ī çº³å·ŀ
pan y
åİŁå£° å¸¦
åĬªå°Ķ åĵĪèµ¤
çĺŁ çĸ«
ä¼ıå°Ķ åĬł
W e
d i
i os
Ġ åĬł
Ġ ä¸ĭè¾ĸä»¥ä¸ĭåľ°åĮº
Ġ åĪ¶å¤ĩ
çļĦ æ³ķ
çļĦ å¾·åĽ½
çļĦ è¾¹çķĮ
ãĢģ -
åº ł
å· ³
åĴĮ å®ĹæķĻ
ä¼ļ éĢłæĪĲ
å¹³ åĩ¡
ä¸ľ éģĵ
èĩ³ 2019å¹´
èĩ³ 2009å¹´
æŃ¤ æ¡Ī
ç«ĭ çļĦ
å¦ Ĵ
å·ŀ æĶ¿åºľ
å¤© åı°
æĺİ çıł
èĭ± åĭĩ
å°¼ åĬłæĭī
éĩĳ éĻµ
éĺ¿ éĥ½
åĽ¢ åĽ¢éķ¿
æĽ´ æĹ©
æ´» åĮĸ
åıĸ åĲįä¸º
åı¤ æĸ¯å¡Ķå¤«
åį³ ä»Ĭ
ä¼Ĭ çİĽ
ä¼Ĭ çĬģ
èĭı åħ±
ä»¤ ä»ĸ
çĻ½ çŁ³
æĿİ æĸĩ
åįı åĴĮ
åī¯ å¤Ħéķ¿
å¤± æİ§
å®¤ çļĦ
çļĩ åŃĲ
æ¢ħ åħĭ
re m
ç½² çĲĨ
æĿĤ è´§
äººåĳĺ çļĦ
å¢ŀåĬł èĩ³
ç¦ģ å¿Į
éĺ¿å°Ķ ä»£ä»Ģ
ä¹Ķ æľ¨
ç§ģ å®¶
éĽª å±±
èģĮä¸ļ èģĶèµĽ
of f
un ch
æľĢåĪĿ æĺ¯
éº» çľģ
ä¹Ļ ç»Ħ
çĴ ĩ
ç»ıå¸¸ åľ¨
åľ°ä¸ĭ ä¸Ģå±Ĥ
å±ħä½ı äºİ
188 8å¹´
çºµ çģ«
ç¼ħ åĽł
æ´Ĺ æīĭ
éĽĩ çĶ¨
Al l
ä»»èģĮ äºİ
éĺª ç¥ŀ
å¿½ å¿ħ
é¢ĩ æľī
ç»¥ è¿ľ
å²Ĳ éĺľ
Mic hael
èŀºæĹĭ æ¡¨
ç¿°æŀĹéĻ¢ åº¶åĲīå£«
éº¾ ä¸ĭ
ä¸Ńçº§ äººæ°ĳæ³ķéĻ¢
åŁ¼ çİī
çļĦ èµĽäºĭ
çļĦ åĬ¨çĶ»
çļĦ è§£éĩĬ
ç» Ľ
å¸ ĺ
å¤§ ç¢Ł
åĴĮ æµ·
åľ° è²Į
æĪĲ ä¹¦
é¢ į
åĨĽ èĬĤåº¦ä½¿
æľ¬ ä½ĵ
å¯¹ æĸ¹çļĦ
å¾· æ£®
æīĢ æĿĢ
æŃ¤ é¡¹
çŁ «
æľº èĥ½
ç³» æķĻæİĪ
éĢī åĿĢ
è£ ĺ
æīĭ ä¸Ĭ
ä¹¦ çĶ»
çĤ¹ åĩ»
èĭı èı²
è°ĥ çĶ¨
è°ĥ å¾Ģ
è°ĥ æİ§
åĪĿ æ®µ
åĵĪ æģ©
åľŁ åľ°çļĦ
åįĥ æĪ·
çĶ² åįĪ
ç´ł é£Ł
çľĭ åĪ°äºĨ
æ³¨ éĩĬ
å®£å¸ĥ ä¸İ
ä¸½ èİİ
re w
ãģ ¨
ãģ ¾
éĵ¶è¡Į çļĦ
é»ĺ å°Ķçī¹
ä¸¥éĩį çł´åĿı
å¹¶ä¸į èĥ½
åĩ¤ å±±
Ch rist
æŃ¦è£ħ åĬĽéĩı
è´Ńä¹° äºĨ
åľ¨199 0å¹´
æ°Ķè±¡ ç«Ļ
ik e
æ²¿æµ· åľ°åĮº
çŁŃæļĤ çļĦ
ĠæŃ¤ ç«Ļ
åį°ç¬¬å®ī äºº
ç±³åĵĪ ä¼Ĭå°Ķ
æĺ¯ç½Ĺé©¬å°¼äºļ çļĦä¹¡
ä»Ģåı¶ æ´¾
ç¦ıæ²» è°·åı·
2009å¹´æĹ¶çļĦ äººåı£ä¸º
æĺ¯ç½Ĺé©¬å°¼äºļçļĦä¹¡ ä»½
4 0å¹´
n ow
Ġ èĥ¡
Ġ çĶ¨éĢĶ
çļĦ èĥ½éĩı
åľ¨ æĶ¿æ²»
å¤§ ä¸ļ
å¤§ æ¸ħ
å¤§ æĢĴ
åĴĮ æĬĢæľ¯
æĸ¯ æĹº
ç¬¬ 38
è¢« éĩįæĸ°
èĭ ĩ
çī¹ èķ¾
è¿Ļ æī¹
å¼Ģ èĬ±
å¹³ åľ°
åĮĹ éģĵ
å»º çī©
éĵ Ĥ
åħ¨ ç§°
éĻ¢ éĻ¢å£«
ä¸ŃåĽ½ æ°ĳä¸»
åĽĽ åįģä¸Ģå¹´
çķĮ éĻĲ
çĤ¹ æķ°
äººæ°ĳ å§Ķåĳĺä¼ļ
ä»£è¡¨ äººçī©
éĽ· æģ©
çĶ° éĩİ
æķ´ æ²»
æ²Ļ å·´
30 ä¸ĩ
çĹħ æĤ£
ä¸Ńåįİ åı°åĮĹ
è¡ĮæĶ¿ æľºåħ³
æŀģ å°ĳ
at Ġ
ä¹ĭä¸Ģ æĺ¯
ç»Ħç»ĩ äºĨ
æĤ ĸ
ä¾¿ åı¯
he d
åį¢ æĸ¯
é¼ ¬
é¡» è´º
è¶ħè¿ĩ 100
æīĢä»¥ åľ¨
28 äºº
28 æĹ¥
æ¬¢ ä¹Ĳ
è·Ŀç¦» åľ°çĲĥ
æ¯ģ äºİ
åĲĪå¹¶ ä¸ºæĸ°
ç§Ł çĶ¨
ä¿Ĺ åĲį
èļ Ĥ
æĬĺ ç£¨
è´¾ æĸ¯
ç»ĵåĲĪ äºĨ
å»ºåĪ¶ æ´¾
åĽ½åĬ¡éĻ¢ æĢ»çĲĨ
äºİ196 4å¹´
äºİ195 5å¹´
è¾¹çķĮ åľ°å¸¦
è¡į çĶŁçī©
åĤħ ä½ľä¹ī
æĺ¾èĳĹ çļĦ
Ġ192 8å¹´
Ġ192 7å¹´
æĺ¯ä¹Įåħĭåħ° è¥¿éĥ¨
èĢ¶ç¨£ ä¼ļ
è´§è¿Ĳ ä¸ļåĬ¡
å°¼åı¤æĭī èĢ¶å¤«
ä¹ĺè½¦ äººæ¬¡
ä¸ĭåįĬ åľº
ç§ĳç½Ĺæĭīå¤ļ å·ŀ
Rob ert
åı¶åīĳ èĭ±
å¿½å¿ħ çĥĪ
2 æĪĲ
ä¸º ä»£è¡¨
ä¸º æł¸å¿ĥ
ä¸Ģ ä¹¦ä¸Ń
ä¸Ń ä½į
äºº å¯¿
æĺ¯ è¥¿
æĺ¯ æĹł
æĭ ·
åĲİ éĥ¨
æĹ¶ æīį
åŁ ¤
æĸ¯ éĢļ
åĲį æ¬¡
åĪĨ ç«Ļ
çī¹ æ´Ľä¼Ĭ
ä¹Ł åıĹåĪ°
éģĵ å°Ķ
å°Ĩ åİŁ
å¤ĸ åį¡
èĬ ¹
ç§° è°ĵ
çº¿ åľ¨
åŁº åľ°çļĦ
éĺ¿ çĳŁ
åĽĽ æµ·
äº¤ æīĢ
ä¼ł æĦŁ
æĮģ èĬĤ
æ¯ı äºº
é¦Ļæ¸¯ çī¹åĪ«è¡ĮæĶ¿åĮº
æŃ¦ ä¾ł
å®£ æĪĺ
ä¿® é¥°
ç¬¬äºĮ åįģ
åĽ½éĻħ å¥¥å§Ķä¼ļ
è¯ģ ä»¶
æĹ¶éĹ´ éĩĮ
æĤ Ħ
æł¸ èĥ½
7æľĪ èĩ³
è¿½ æĿĢ
è¡Ģ ç³ĸ
21 æĹ¥
æ±ĩ åĲĪ
æĸĩåŃ¦ ä½ľåĵģ
éģ¿ å¼Ģ
ä¸īåįģ åħ«å¹´
çĭ± ä¸Ń
æŁ¯ æľ¬
ag eĠ
å®ĥä»¬ åľ¨
æĸĳ çº¹
é²į åĭĥ
äºİ196 0å¹´
ä¸ľåĮĹéĥ¨ åĨħéĻĨçľģä»½
åıĺå¾Ĺ æĽ´åĬł
ä¿ĺ èİ·
èĢĹ å°½
è©¹å§Ĩ å£«
å§Ĭ å§Ĭ
Ġ196 2å¹´
è¯¥çľģä»½ä¸ºæ³ķåĽ½ ä¸ľåĮĹéĥ¨åĨħéĻĨçľģä»½
ug h
èĲĿ æĭī
åĭ¾ ç»ĵ
é©¬åĬĽ è¯º
æĸ°å¢ŀæľ¬åľŁ æĹłçĹĩçĬ¶æĦŁæŁĵèĢħ
æļĳ åģĩ
çĶ±è¯¥ éģĵè·¯
2 1å¹´
2 åº§
5 æ¬¡
6 ä¸ªæľĪ
S BS
g er
çļĦ éĢīæĭ©
çļĦ å¸®åĬ©ä¸ĭ
ä¸Ń é¦ĸæ¬¡
æĺ¯ ç§į
æĺ¯ ä¸Ńåįİæ°ĳåĽ½
è¡ ħ
æī Ī
æĪĲ åĽł
éĿ ¡
æĸ¯ è¯º
ç¬ ĭ
å®¶ æĿĳ
ãĢĭ (,
è¥¿ çļĦ
ä¸ĭ è½¦
åı¯ è¢«
çĶµ è§£
åħ¥ ä½ı
é©¬ è½¦
éĢļ åķĨ
å·ŀ çŁ¥å·ŀ
ç½Ĺ å¾·éĩĮ
çĽ¸ å¤Ħ
éĩĳ æ£®
æıĲ éĹ®
æīĭ å·¥
æ´» æ³¼
in es
éĿŀ èĲ¥åĪ©
åı¯ä»¥ çĶ¨æĿ¥
çļĦä¸Ģ èĪ¬
åĵĪ åº·
æĹ© äºİ
çĶ° æĿĳ
èĲ½ åľ°
ä»į æĹ§
ç´¢ æģ©çľģ
it a
è¿Ļä¸ª è§Ĵèī²
æķĳ çģ¾
ä½© åĭĴ
è£ģ æĴ¤
éĽ¨ æŀĹ
èİī èİī
åİ¿çļĦ æĻ®æŁ¥è§Ħå®ļå±ħæ°ĳçĤ¹
å¼ķåıĳ çļĦ
çºµ è´¯
å¿«éĢŁ åĪĹè½¦
çĵľ åĪĨ
çĨĬ çĮ«
äºİ197 4å¹´
åı¬å¼Ģ çļĦ
äºİ196 2å¹´
åı°åįĹ åİ¿
ç§įæĹı éļĶç¦»
åįİçĽĽé¡¿ å·ŀ
æ´¾åĩº æīĢ
å§ĳ å¨ĺ
ç»§ä»» èĢħ
åī©ä½Ļ çļĦ
é¹¦é¹ī åĺ´
é²¨ é±¼
å·¥åĨľ çº¢åĨĽ
æĸ¹æµİ åĲĦ
çµ ®
èĭ±åĲīåĪ© æµ·å³¡
å°¼åĬłæĭī çĵľ
F M
H S
a ĠP
çļĦ å¥½
çļĦ åĬ¨çī©
ç» ®
åľ¨ 2002å¹´
ä¸º çĭ¬ç«ĭ
ä¸Ń åĿľ
æĺ¯ è¶ĬåįĹ
å¤§ ä¸»æķĻ
å¤§ å°ıçļĦ
åĲİ ä¼ļ
åĲİ éĩĳ
åĲİ å°±
æĸ¯ æ³°
æĬ ĸ
å¸Ĥ è¾ĸåĮº
åĬ¨ è®®
è¿Ļ çīĩ
åı¯ æĢķ
ç¾İ åĪ©
åĽł äºİ
è½¦ èĩ£
è·¯ äº¤åıīåı£
ç«Ļ ä¹ĭéĹ´
éĩį çĶ¨
å®ī çº³
é¦ĸ åº§
åįİ å±±
é¦Ļ æĸĻ
çŁ³ çªŁ
ä¸Ķ æľī
ç½ĳ éĻħ
åħ« åį¦
å¸Į å§Ĩ
æ±ī åŁİ
åį« åħµ
çĹħ åİŁ
çĻ» é¡¶
åıĳå±ķ æĪĲä¸º
æģ© æĸ¯çī¹
æ¥¼ éĿ¢
13 ä¸ĸçºª
è¾ĸ ä¸ĭçļĦ
çĿĢ æīĭ
åŁİå¸Ĥ è§ĦåĪĴ
æľĢåĲİ ä¸Ģä½į
åį¢ è¥¿å®ī
èģĶåĲĪ æĶ¿åºľ
äº¤éĢļ æŀ¢çº½
é»İ åĲĦ
ä¼ģä¸ļ çļĦ
éĨ ĭ
èĤ¯ å°¼äºļ
èĩªçĦ¶ èµĦæºĲ
æ»¨ æĿ¾
ç»į å°Ķ
ç¬¬äºĮæ¬¡ åĽ½åħ±åĨħæĪĺ
çļĩå¸Ŀ çļĦ
188 0å¹´
188 7å¹´
äºİ196 7å¹´
çļĦå¤ĸ è§Ĥ
æĺ¯ä¸ŃåĽ½ çļĦçī¹æľīæ¤įçī©
æĬĳ éĥģ
éĻª ä¼´
ä½Ĩæĺ¯ çĶ±äºİ
çĶ°å¾Ħ éĶ¦æłĩèµĽ
æ»ĭ çĹħ
æĳ©å°Ķ å¤ļçĵ¦
Pa ul
ä¸ĢåĽ½ ä¸¤åĪ¶
ç¥ŀå¥Ī å·Ŀåİ¿
åĭĥåħ° çĻ»åł¡
å¸ĥå®ľè¯ºæĸ¯ èī¾åĪ©æĸ¯
åĽ¾åį¢ åħ¹
1 æĹ¶
7 èĩ³
8 Ġå¹´
B o
M on
P e
u li
çļĦ æľĭåıĭ
åľ¨ 19ä¸ĸçºª
ä¸į ä¸Ĭ
ãĢĭ ).
å¹¶ è®©
æĶ¿ å±Ģ
åĲĮ æŀĦ
è¿Ļ éĩĮçļĦ
åįĹ éĹ¨
æĸĩ æĺĮ
åīį ç«¯
é«ĺ å°Ħ
äºļ è¿°
éĿ¢ åħ·
ä¸ī æ²³
åı° çĭ¬
èĲ İ
åĪ¶ å®ª
åı£ æľį
æ¯Ķ åħ¶ä»ĸ
ç¦ º
æĢ» éĩı
åŁº åºķ
åŁİ æ±ł
èµ· çģ«
æ°´ åĮº
æĶ¹ éļ¶
å¥³ çľŁ
æ¸¯ çĿ£
ç»´ åº¦
è¯´ ä»ĸ
æĺŁ çº§
æĽ´ æĶ¹ä¸º
çīĪ ä¸Ń
ä¸»è¦ģ åĮħæĭ¬
è´¨ ç´ł
æĬķ å¥Ķ
å®Ĺ çļĦ
å¾Ī éķ¿
çħ İ
åĨľ äº§åĵģ
éĢĢ ä½į
éĢīä¸¾ å§Ķåĳĺä¼ļ
æĿ¿ ä¸Ĭ
åħ¶ä¸Ń ä»¥
æįķ é±¼
åĶ¯ æľī
é¢Ĺ æĺŁ
èµĽåŃ£ ä¸Ń
æİĮ æĿĥ
çĶµè§Ĩåı° çļĦ
éķ¿æľŁ ä»¥æĿ¥
çŃ¹ æ¬¾
ä¼Ĭæĸ¯åħ° åĽ½
åĽ½åĬ¡éĻ¢ æī¹åĩĨ
è¥¿æĸ¹ åĽ½å®¶
éĺ²å¾¡ å·¥äºĭ
ric k
æª ¬
Go od
æĥ¨ è´¥
aĠ R
Ġf rom
JR è¥¿æĹ¥æľ¬
éĺ¿å°Ķåįĳæĸ¯ çľģ
è¿Ļåº§ åŁİå¸Ĥ
å¼Ģå·¥ å»ºè®¾
ci al
å¤©æ°´ åĽ´
æľ¬é±¼ ä½ĵ
æ³¢å¤ļ é»İåĲĦ
3 A
4 èĩ³
y a
Ġ äºº
Ġ éŁ©åĽ½
Ġ è¿ĩåİ»
Ġ åĪ«åĲį
çļĦ Ġ
å¤ Ń
æľī ä»¥ä¸ĭ
åĲİ ç»ı
å¹¶ åĽłæŃ¤
åĪ° ç¾İåĽ½
åı¯ çŁ¥
æĸ° è®¾
åīį è¿°
èĩ³ å¤§
èĩ³ æŃ£
å·¥ åľº
å±± çĶ°
æ¯Ķ ä¸Ĭ
èµ· çĶ¨
éĴ °
æµģ çļĦ
åĽŀ éģ¿
åŃĹ éĿ¢
é£İ çĲ´
åħī åº¦
å¯Ĩ çī¹
æ®µ èĲ½
æĿİ åĽ½
è¨Ģ ä¹ĭ
çĶ· æŃĮæīĭ
éĽ· å°Ķ
åħ« åı·
åıĮ åŃĲ
çĶ² çĬ¶
æķĪ èĥ½
åºķ ä¸ĭ
ç´ł æĿĲ
åİĤ æĪ¿
éĢģ åħ¥
è·Ŀ ä»Ĭ
äºĨä¸Ģ ä½į
è¡Ģ èħ¥
è½¯ éª¨
éĢĥ çĬ¯
ä½ĵèĤ² ä¸Ńå¿ĥ
æ±ĩ çİĩ
éĤ» åĽ½
éĻµ åİ¿
IN G
æľĢå¤§ æ°´æ·±
ä¾¯ çĪµ
æŁ¯ æĸĩåĵ²
è¢Ńåĩ» äºĭä»¶
äºĮä¸ĸ çļĦ
åį«çĶŁ ç»Ħç»ĩ
æıĴ åĽ¾
æĭīä¸ģ æĸĩ
çīµ è¿ŀ
çĽ¸æ¯Ķ ä¹ĭä¸ĭ
å¿§ éĥģ
è¶ĬæĿ¥è¶Ĭ å¤ļ
ä¸¢ å¤±
wit ch
è¤Ĵ è´¬
æĭľä»ģ æħķå°¼é»ĳ
ä»£è¨Ģ äºº
èĻĶ è¯ļ
è¾Ľè¾Ľ éĤ£
- ãĢį
A Ġ
E L
H I
Â ²
Ġ åıįåĵį
çļĦ åŃ¦æł¡
çļĦ å½±çīĩ
çļĦ ç«ĭåľº
åĲ ł
åį ī
åĳ ķ
åŃ¦ å¾Ĵ
åĩº æ²¡
å¹¶ èĩª
è¥¿ æĭī
åĪ° é¦Ļæ¸¯
çĶ± æ³ķåĽ½
åĲĮ ä¹¡
å¾· åľ¨
è½¦ åĨħ
ç¥ ļ
å°ı å±ĭ
å®ī äºº
10 åı·
è¾¾ æĭī
çº¦ åĲĪ
è®¡ ç¨ĭ
éĩı çº§
æĺŁ ç©º
æĶ¿åºľ éĥ¨éĹ¨
é¦Ļ å±±
ç¬¬ä¸Ģ å¼ł
åı¯ä»¥ è®©
æ°Ķ è´¨
ç©¶ ç«Ł
ä¸ĸçķĮ åĲĦåľ°çļĦ
15 æĹ¥
çĶµå½± åŃ¦éĻ¢
è¯º æĭī
åĥ ĸ
çģ« çł²
çģ« çĤ¬
æĹ¶éĹ´ è¡¨
æ·± éĢł
æ¡¥ æ®µ
è½½ åħ·
ç»Ĩ éķ¿
å¼Ĥ æ¯į
ä¸ªäºº ä¸ĵè¾ĳ
189 2å¹´
éĺ» åĬĽ
ä¹Ļ éĨĩ
å¾Īå¤ļ äºº
å¼± åĬ¿
åĤ¨ éĩı
âĢĿ( ).
å®¢è¿Ĳ ä¸ļåĬ¡
äºİ193 9å¹´
æ³¢æĸ¯ å°¼äºļ
åĴĸ åĸ±
è¤ ¶
Ġ193 3å¹´
å°¼åı¤ æĭīæĸ¯
HD Ġ
æľŃ å¹Į
çĶŁéķ¿äºİæµ·æĭĶ 1
å®ľåħ° åİ¿
çŃīåĲĮ äºİ
åįĹå¼Ģ å¤§åŃ¦
' ,
B ar
Ġ å¦Ĥ
çļĦ 4
çļĦ åĦ¿ç«¥
å¹´ å°ĳ
åľ¨ ç»ıè¿ĩ
åľ¨ è¥¿çıŃçīĻ
æĪ Ł
ä¸Ń é£İ
ä¼ļ åłĤ
æĪĲ ç¥ĸ
ä¸İ é©¬
å¹¶ åıĸå¾Ĺ
è¿Ļ å¯¼èĩ´
èİ Ĩ
å¾· å¡ŀ
å¾Ĺ çļĦ
ä¸ī æĮ¯
èµĽ ç¨ĭ
è¡¨ æĥħ
å±± èĦļ
èĢħ æľī
åĮĸ å¸Ĥ
æķ° åįģå¹´
å¤© å®Ŀ
å±ŀ åľ°
é¦ĸ æĪĺ
äº¤ æīĭ
é¢Ĩ åıĸ
åĳ½ é¢ĺ
è®º èĢħ
ä¼Ĭ åĩ¡
æ³¢ æµª
åķĨ ä¸ĺ
æŃ¦ èŃ¦
é¢ĺ çĽ®
èĲ¥ éķ¿
æİ¨ å¯¼
å¸Į å¤«
åĬŁ åĬ³
éĺ³ äºº
éĺ³ éĥ¡
å®¢ éĩı
ä¸Ńåįİ èģĮæ£Ĵ
çķĻ è¨Ģ
æľĢç»Ī äºİ
çĳŀ æĸ¯
çļ® åħĭ
ä¸½ åħ¹
é©» æ¸¯
æĿŁ ç¼ļ
æĹĹ äºº
åįķä½į çļĦ
ä»ĭ éĿ¢
äºĨä¸Ģ æĿ¡
çĶŁäº§ åķĨ
èĪªç©º èĪªå¤©
åĪ» çĶ»
è®¢ å©ļ
æ³Ľ æ»¥
åĨįæ¬¡ è¢«
åĭĭ çĪµ
çĬ¹å¤ª äººçļĦ
äºİ195 4å¹´
bo ard
ĠB oy
æĺ¯æ³ķåĽ½ ä¸Ĭæ³ķåħ°è¥¿å¤§åĮº
çļĦæĹ¥ åŃĲ
å±ķçİ° åĩº
lat ion
å¸ĥæĶ¿ åı¸
ç¼Ĩ è½¦
èĩĢé³į ç¡¬æ£ĺ
æĻ®æŀĹ æĸ¯é¡¿
Ge orge
rig ht
çĽİ æł¼é²ģ
ĠåĽ½å®¶éĺŁ çĶŁæ¶¯
ä¸ºè¾Ĳé³įé±¼çº²é²¤ å½¢çĽ®
3 10
5 Ġå¹´
F 1
v in
Ġ æĢ»
Ġ ç¬¬åĽĽ
Ġ æĢ§è´¨
ä¸Ģ å¤ľ
å½ ¤
åĲİ ä¸İ
æĹ¶ äºĭ
éĿ ´
ä¸Ĭ æ¶¨
æ³ķ æ²»
åĨĽ åĴĮ
åıĬ æĸĩåĮĸ
æľĢ åıĹæ¬¢è¿İ
ä¸ľ ç«¯
æµ· çļĦ
æīĢ çĶ¨çļĦ
è¿ĩ å¢ĥ
è·¯ éļľ
å¸ĥ åį¢
å¤© é¡º
å®ī æīĺ
çĤ Ķ
10 å¹³æĸ¹åįĥç±³
éĺ¿ ä¼ĬåĬª
éķĩ æ±Ł
ä½įäºİ é¦Ļæ¸¯
ä¹Ĳ è¯Ħ
åįķ äºİ
å·² è¾¾
èº ģ
è¿ĺ è®¾æľī
éĢł ä»·
å¤ª å°ī
å¼Ģå§ĭ åīį
çĵ¦ çº³
ç¬¬äºĮ æľŁ
ä½ľä¸º åħ¶
)ãĢģ ãĢĮ
èĪ¹ ä½ĵ
am il
000 ä¸ª
èī¾ æ£®
èĩªçĶ± ä¸»ä¹ī
ä¸ºäºĨ éģ¿åħį
åĸľ å¥½
çĶ·åŃĲ è¶³çĲĥè¿ĲåĬ¨åĳĺ
å·¨ é¢Ŀ
æĢ¥ æķĳ
æľīä¸Ģ å®ļçļĦ
æĺĨ å£«
æ²Ī éĺ³å¸Ĥ
187 6å¹´
çĽĹ è´¼
éĶģ å®ļ
åľ¨199 3å¹´
ell o
éĢļè®¯ ç¤¾
åĦĴ åŃ¦
ä¸Ĭä¸ĭ è½¦äººæ¬¡
è¿¦ å¤ª
é¢Ī éĥ¨
å¿ĺ è®°
ĠP art
æ¶Īéĺ² åĳĺ
ç¾İåĽ½åĽ½å®¶ é£ĵé£İä¸Ńå¿ĥ
èĬ¯ çīĩ
åį«åĨķ åĨłåĨĽ
å¼ĹåĲī å°¼äºļå·ŀ
âĢĭ âĢĭ
å¯ŁåĲĪ åı°
åĩ¯çĳŁ çĲ³
A s
Ġ ç¦ı
Ġ èĮĥ
Ġ ä¸ĸçºª
çļĦ æ¼Ķåĳĺ
çļĦ è¨Ģè®º
åľ¨ ä¸ĭ
ä¸Ģ åĲĳ
æĺ¯ è¦ģ
ä»¥ åĲİçļĦ
è§ Ĳ
ä¸į åĬŀçĲĨ
ç¬¬ æĪİ
ãĢĭ :âĢľ
å¯¹ ç¾İåĽ½
çī¹ æĬĢ
çī¹ èģĺ
èİ ª
æĭī å°¼
æĢ§ æĦŁ
éĥ½ æĭīæĸ¯
åı¸ ç©º
æ¼Ķ åıĺæĪĲ
å·´ å°¼
æ® ¡
å®ŀ è¯ģ
åħļ å§Ķåī¯ä¹¦è®°
äºĶ æ¬¡
an i
æĬ¥ èŃ¦
éĿŀ æŃ£å¼ı
æ±Ł åĮº
åıĪ å°Ĩ
å®£ å®Ĺ
ä»½ é¢Ŀ
äº² è¿ĳ
åįĥ éĩĮ
èĩ´ çĶµ
åĨĻ æ³ķ
at ic
ä»ħ æľīçļĦ
åĨľ æŀĹ
éĻį æł¼ä¸º
æīį åįİ
åıĳçĶŁ æĹ¶
è¯· è¾ŀ
æ¸© å®¤
ä¼¤ åı£
è½® æ¸¡
èģĶåĲĪ å£°æĺİ
èµ« çī¹
æĢ»ç»Ł åĢĻéĢīäºº
çļĦå¤§ å¤ļæķ°
è¡ĮåĬ¨ åħļ
æĭľ çĻ»
èį· å±ŀ
100 åĲį
èĮĥåĽ´ åĮħæĭ¬
åĨħå®¹ çļĦ
22 äºº
ç©¿ ä¸Ĭ
26 äºº
ãĤ Ĭ
ç´§ éĤ»
ç»Łæ²» çļĦ
ç¬¬åįģ ä¸ĥ
è§Ħå®ļ çļĦ
èıĮ å±ŀ
èŃ¦å¯Ł éĥ¨éĺŁ
äº¨ çī¹
è´Ŀå°Ķ æł¼èİ±
æ¹ĸåįĹ æ¹ĺæ¶Ľ
å¨ģå°Ķ ç¬¬
186 7å¹´
èµĲ äºĪ
äºİ195 9å¹´
æ¶¦ æ»ĳ
æĮĩå¯¼ ä¸ĭ
å©Ĩ ç½ĹéĹ¨
åĢº åĪ¸
èĤł éģĵ
æŃ¤å¤ĸ è¿ĺæľī
Ġ19 18å¹´
åī¥ åīĬ
ä¸ºä¸ŃåĽ½ çļĦçī¹æľīæ¤įçī©
å®ģæ³¢ å¸Ĥ
æĺ¯ä¸Ģæ¬¾ çĶ±
èŃ¦åĬ¡ å¤Ħ
ä¼łæŁĵ çĹħ
å¥¥å¸ĥ çľģ
èįīæľ¬ æ¤įçī©
åĢ¼å¾Ĺä¸ĢæıĲ çļĦæĺ¯
æŁł æª¬
2 èĩ³
l ight
çļĦ è½¬
çļĦ çĶ·æĢ§
åľ¨ çİ°ä»£
åľ¨ èĭıèģĶ
ä¸º é«ĺ
æĺ¯ åįĹ
è¾ į
ä¸İ åįĹ
æİ ³
å¤ļ ç½Ĺ
ç¾İ å°Ķ
éĿ¢ 1
ä¸ī éĥİ
çŃī åħ¶ä»ĸ
å®ļ ä»·
ç§į åĲį
çĽ¸ è¯Ĩ
æŃ£ éĿ¢çļĦ
å°¼ å¾·
éĺ¿ ä»Ģ
åı² åīį
éĩı æµĭ
å¸¸ æľī
åį¡ è¯º
å¥¥ æģ©çľģ
æĶ¿åºľ å®ĺåĳĺ
è¿ĺ æľª
å±Ģ ä¸Ĭ
åħ¬åı¸ åĴĮ
æĽ² é£İ
æŃĮ è°£
å¤´ çŃī
ä¸ĸçķĮ ç¬¬ä¸Ģ
åħĪ æĺ¯
è£ħ ç®±
åı°æ¹¾ äºº
å§Ķåĳĺä¼ļ æĪĲåĳĺ
ç´¢ å¤«
æŃ£å¼ı åıĳè¡Į
ç²¾ åĩĨ
æŀ¶ ç©º
ro ss
æĺ¯ä¸Ģ æĶ¯
10æľĪ èĩ³
åģĩ è£ħ
å¤º ä¸ĭ
è¶ħè¿ĩ 1
60 äºº
éĺ¿å°Ķ å¼ĹéĽ·å¾·
å®īåħ¨ çļĦ
ãģ į
æºª åİ¿
åį± åľ°é©¬æĭī
ä½Ĳ èĹ¤
ç¬¬äºĶ æ¬¡
ç¥Ń åĿĽ
ub er
çľģçº§ æĸĩçī©ä¿ĿæĬ¤åįķä½į
æķĻä¼ļ çļĦ
æŃ¦è£ħ åĪĨåŃĲ
çŀ ³
äºİ194 3å¹´
NA SA
è±Ĩ èħĲ
ä¿®å»º äºĨ
sh ip
é¦ĸåºľ è®¾äºİ
Com p
ĠC ent
ĠA g
ĠL im
Ġ193 2å¹´
ä¼Ĺè®®éĻ¢ è®®åĳĺ
ç¬¬ä¸Ģæ¬¡ä¸ĸçķĮå¤§æĪĺ æľŁéĹ´
åĽŀåĽ½ åĲİ
æĤ¼ å¿µ
åĮ¾ é¢Ŀ
åĽ½åŃĲ çĽĳ
ww w
éľī ç´ł
Microsof tĠ
äºļä¼¯ æĭīç½ķ
éĺ¿åįľæĿľ åĭĴ
è·¯æĺĵæĸ¯å®ī éĤ£å·ŀ
åı± åĴ¤
BLAC KPINK
è¿¦å¤ª åŁº
I BM
N a
P er
Ġ ä»ĸä»¬
Ġ åĲī
Ġ æ¼Ķåĩº
Ġ æ¸ħæľĿ
Ġ ä¹¡éģĵ
çļĦ åıĳçĶŁ
çļĦ æĮĩæĮ¥
æĸ Ľ
åľ¨ ä¸¤
ä¸Ń æĺ¯
ä¸Ń çļĦä¸Ģ
åĽ½ äº§
åħ¶ ä¸ĭè¾ĸ
ä¹ĭ éģĵ
ä¹ĭ ä½Ļ
å®¶ çĶ¨
è¢« å®³
å¯¹ å¥¹
åħĭ éļĨ
éķ¿ çīĩ
åŃĲ ä¸Ĭ
åĬł ä¹ĭ
æľĢ çŁŃ
ä»£ è¯į
éļ ĺ
æı Ĩ
äºĮ åħĥ
å¤© æŃ£
ç½Ĺ èĲ¨
éĩį å¤§çļĦ
çº¦ 40
åįİ è¾¾
éĺ¿ è¯º
åĽĽ éĿ¢
æŀĹ å®¶
ç®¡ åĮº
çº³ è¾¾
æľª å¿ħ
å®ĥ è¿ĺ
é¦Ļæ¸¯ ä¸Ńæĸĩå¤§åŃ¦
åķĨ çĶ¨
åħµ åºĵ
åħŃ æĹ¥
åħŃ è§Ĵ
å¼ķ æĿ¥
äº¦ ä¸į
ä¿® å£«
en a
çĶ° åĮº
è¡¨ç¤º ä¸º
èĲ½ äºİ
ä¸Ńåįİ åħ¨åĽ½
éĿĴ é¾Ļ
çĻ¾ äºº
é¸ ¥
å¥ĩ çļĦ
å·Ŀ å¸Ĥ
å½±åĵį åĪ°
æ°¸ æĺĮ
å½Ĵ æĿ¥
éĩįè¦ģ çļĦæĺ¯
èµ« åĭĴ
åĲ´ åĽ½
çĹĩ åĢĻ
ç¯ĩ è®ºæĸĩ
è¿ŀæİ¥ åĪ°
ä¸īåįģ äºĶå¹´
çº¿çļĦ éĵģè·¯è½¦ç«Ļ
çļĦåīį æıĲ
å¡« åħħ
è¡° æľŁ
åįģä¹Ŀ ä¸ĸçºª
åĮĪçīĻåĪ© è¯Ń
å¼ĹæľĹ è¥¿
çī² çķľ
ç¬¬åįģä¸ī å±Ĭåħ¨åĽ½äººæ°ĳä»£è¡¨å¤§ä¼ļ
ĠAl l
ð¬ ¶
ç»ĩçĶ° ä¿¡éķ¿
æ¤° åŃĲ
åį¢çĶĺ æĸ¯åħĭ
éĻĽ ä¸ĭ
k g
Ġ åĲĮ
Ġ èĢĮåľ¨
çļ ±
çļĦ åŃ©åŃĲ
åľ¨ ç¬¬ä¸Ģ
ä¸º å¦»
æĺ¯ æ³¢åħ°
å¤§ èĥĨ
æµ £
æĪĲ ä¸Ģä¸ª
éĹ ·
éķ Ĳ
åĩº è¡Į
åħ¬ åºĻ
éķ¿ ä¹Ĳ
åŃĲ ç¾¤
åı¯ ä»İ
å¹³ éĿĻ
æīĢ çĶ¨
èµĽ åĮº
è¯¥ æĬ¥
æĪĺ åľ°
æķĻ çļĦ
èĥ½ åĲ¦
æ¬¡ è¦ģ
åħ± åıĳçĶŁ
ç§° å¸Ŀ
å®ī ä¹Ĳ
è®¡ éĩı
æĹł æĿ¡ä»¶
ç»´ èĢ¶
çĽ´ åĪĹ
å·² æĺ¯
å¥¥ åĭĴ
éª ĩ
æĶ¯ éĺŁä¼į
åī§ ä½ľå®¶
æľĿ åľ£
åĪĴ åĩº
å¯Ĩ éĴ¥
å®£ åĪ¤
ç½ĳ çĲĥåľº
åŃĺ æ¬¾
æĪĳ æĥ³
æ¯į åħ¬åı¸
ç¤¾ä¼ļ æ°ĳä¸»åħļ
å±ŀäºİ æ¸©å¸¦
æıĲä¾Ľ ç»Ļ
ç¬¬ä¸ī ä½į
çĶŁæ´» æĸ¹å¼ı
åħ³ç³» å¯ĨåĪĩ
æĿ¥èĩª ç¾İåĽ½
ou l
æİ¥åıĹ çļĦ
çĶļ å°ĳ
èĵĿ æľ¬
åĳ¼ åºĶ
èĤ¯ çī¹
St ar
çĶº æĿĳ
åı« å£°
æģĭ æĥħ
èį·åħ° è¯Ń
åİ¿çļĦä¸Ģä¸ª äººåı£æĻ®æŁ¥æĮĩå®ļåľ°åĮº
æĺŁæľŁ äºĶ
æĶ¶å½ķ åľ¨
çŀ ©
äºİ196 3å¹´
åį¢çĵ¦å°Ķ æ²³è°·
ä¸Ľ æŀĹ
èĤĿ èĦı
NBA éĢīç§Ģ
åı¯éĿł æĢ§
24å°ıæĹ¶ åĨħ
éĩĮç¨ĭ ç¢ĳ
éĶ¯ é½¿
æĸ°åįİ ç¤¾
åħĥèĢģ éĻ¢
åĲĳåħ¬ä¼Ĺ å¼ĢæĶ¾
æµ·åĽł éĩĮå¸Į
çļĦè½¨éģĵåįĬéķ¿è½´ ä¸º2
åİĦçĵľ å¤ļå°Ķ
å¤įæĹ¦ å¤§åŃ¦
ç¼ĸå¹´ åı²
çĶ²çĬ¶ èħº
4 Ġå¹´
6 50
Î º
Ġ ä½ķ
Ġ åĪĽä½ľ
ä¸Ģ æľĪ
ä¸Ń èĭ±
äºİ 2026å¹´
å¤§ æĺİ
åĩº è¡Ģ
èĢĮ å®ļ
å¯¹ æİ¥
è¿Ļ èµ·
å¤ļ éĩį
åı¯ å°Ĩ
è¿ĩ æķı
éļ ¼
å¤ĸ è¡ĮæĺŁ
å°ı æŀĹ
ä¸¤ åħļ
æ¯Ķ åĸ»
åı¸ éĥİä¸Ń
æĽ¾ èİ·å¾Ĺ
æĹł æķĮ
äº¤ éĶĻ
æĦı åį³
çĥ ĺ
è¯´ åĶ±
æ¯ı ç»Ħ
åĪĿ åĽŀ
ä»£è¡¨ å¤Ħ
çĶ» å»Ĭ
çĮ ¬
é»Ħ å¸Ŀ
éĿĴ æ£®
é»ĳ èī²çļĦ
æĬĹ åİŁ
çªģ åıĳ
é¹ ĥ
ç»Ĩ å·Ŀ
åºĹ éĵº
åĶĲ å¤ªå®Ĺ
è¯» åıĸ
åį´ ä¸į
åĨ² ç§¯
ä¸ºäºĨ è®©
åģĩ å®ļ
èĪŀ èĢħ
ç´§ åĩĳ
ç»ķ è¿ĩ
çĨŁ çŁ¥
è¡° ç«Ń
å¼ĹæľĹ è¥¿æĸ¯
ric h
Ġf irst
ich ard
ç¼ª å°Ķ
é©¬å£« éĿ©
æļ¹ ç½Ĺ
åį¢è¥¿å®ī è¯º
F O
L P
P ad
r um
Ġ æĻļå¹´
çļĦ åħ±åĲĮ
çļĦ è§Ĵåº¦
è¯ ¡
äºº ä»¥
æľī åĲį
ä¼ļ åĲİ
åĩº åĽ½
å®¶ çĿ£
æ³ķ åĴĮ
èĢĮ åħ¶ä»ĸ
è¢« æĴ¤éĶĢ
èĩª ç«ĭ
æµ· å°Ķ
èĩ³ 2020å¹´
èĩ³ 2008å¹´
éĹ´ è·Ŀ
åĽł æ¶īå«Į
ä¸ī æ®µ
è½¦ å¤´
å°Ĩ èĩªå·±
è° ļ
åı£ åĳ³
ä½¿ å¾Ĵ
æĢ» æĮĩæĮ¥
çº¦ 15
åºľ åİ¿
éĩĳ åŃĹ
åĽĽ åįģä¸īå¹´
ä¹Ĳ è§Ĥ
çĽ´ éĢī
å¥¥ çī¹
åŃĹ åħ¸
æ±Ł æ³½
åħī æ³½
å¼º é£İ
åĨį ä¸Ģæ¬¡
åħµ éĥ¨å°ļä¹¦
åº§ çļĦä¸Ģ
æŃ¦ å¨ģ
è®¤ä¸º è¯¥
çĵ¦ åĪ©
ä¿® è¾ŀ
åĿĩ æľª
å·¥ä½ľ ç»Ħ
æİĴ ä½į
éĩĩ çŁ¿
é£Ł æĿĲ
åŁĥ æĿ¾
åĵ¥ æĸ¯è¾¾
æľ¨ ç»ĵæŀĦ
åĩł åįģå¹´
ä»ĸçļĦ å¦»åŃĲ
ä¾Ŀ éĻĦ
åħ¨åĽ½ äººæ°ĳä»£è¡¨å¤§ä¼ļ
åĪ¤ åĪĳ
ä¸¹ å°¼æĸ¯
éģĹ éª¸
è¶³çĲĥ èµĽ
æ²¹ ç®±
æĢ»ç»Ł çļĦ
ç½² åĲį
æŀª æĿĢ
çĶļ ä¹Ī
å®½ 0
åħ¬åĽŃ çļĦ
å¹ķ éĹ¨
æĪª çĦ¶
ä¾µ è¢Ń
çīĪæľ¬ ä¸Ń
éĽ¨ æ°´
èĴĻåı¤ æĹı
æĤ£ çĹħ
éĿĻ æŃ¢
çī§ é¦ĸ
åİĦ å°Ķçľģ
ç´« èįĨ
äºİ196 9å¹´
äºİ195 6å¹´
ä¸īå¹´ åĲİ
è¡¨éĿ¢ ä¸Ĭ
IC E
èĵ¬ åĭĥ
ä¸Ĭä¸ĭ è¡Į
con d
ĠP ar
sĠ and
ĠO n
Ġ194 0å¹´
å¤ļé¡¹ å¼ı
ç½Ĺå¤« æĸ¯åħĭ
çĻ¾ç§ĳ åħ¨ä¹¦
é¢Ħå¤ĩ éĺŁ
è°£ è¨Ģ
çĨĶ å²©
æĪĺåĽ½ æĹ¶ä»£
åĿĩåľ¨ éĹŃçİ¯ç®¡æİ§ä¸Ńåıĳçİ°
Ġä¸Ńåįİäººæ°ĳåħ±åĴĮåĽ½ æĪĲç«ĭåĲİ
ç½¹ éļ¾
IU CN
çĮ© çĮ©
å¤ĸæĺŁ äºº
ç¾ģ æĬ¼
è¾Ĺ è½¬
è¾Ľè¾ĽéĤ£ æıĲ
2 4å¹´
2 æľĪ16æĹ¥
A t
X å°Ħçº¿
Y O
c a
i ra
p or
Ġ å¤§åŃ¦
Ġ æĹ§
Ġ æ¼Ķèīº
çļĦ ç¼ĸè¾ĳ
å¹ Ĥ
ä¸Ģ åĵ©
æľī ä¸º
åĲİ è¿Ľåħ¥
äºĨ å¥¹
äºĨ è¿Ļä¸ª
ä¼ļ äºİ
ä¸Ĭ æŀ¶
ä¸į è¾¾
ä¸į ç¬¦
åħ¶ æĹ¶
æ¸ ²
ä¹ĭ å¦»
è¥¿ æĻĭ
èĢĮ æľª
æĮ ļ
è¿Ļ è®©
èĩª å¼º
å¾· éŁ¦
ä¸ľ åĲ´
éĿ¢ ç²ī
ä¸ī åĪĨä¹ĭäºĮ
å½ĵ ä¸»
æ¬¡ éķ¿
éĢļ åĳĬ
å¤© å®«
æŃ£ æ®¿
çº¦ 8
åºľ åŁİ
æĹł è§Ĩ
åį¡ çīĩ
ä¼Ĭ æľ¬
æ°Ķ åĳ³
å¤į èĭı
la s
èĲ¥ çļĦ
ä¿® ä¾ĭ
å¢ŀ æ·»
ä¿Ħ ä¹Į
å¡ŀ å¥¥å¤ļ
å£° ä¹Ĳ
èĢĥ åıĸ
é¢Ħ ç§ĳ
çªģ åĩºçļĦ
åģļ è¿ĩ
èµ« æ¢ħåĪ©
åħį èģĮ
åħ¶ä¸Ń åĮħåĲ«
éĺ¿å°Ķ ä¼¯çī¹
å®½ éĺĶ
èµĦæĸĻ åºĵ
æ³Ľ æĮĩ
å°Ķæĸ¯ åŁº
è¾ħ ä½Ĳ
ç¬¬äºĶ å±Ĭ
ä»Ļ åı°
æ®Ĭ èį£
188 3å¹´
å¥¥æĸ¯ æ±Ģ
æµ® æ¸¸
äºİ194 0å¹´
è¯ģæį® è¡¨æĺİ
æłĸæģ¯åľ¨ åºķä¸Ńå±Ĥæ°´åŁŁ
å¤ļå¹´ çĶŁ
ç´§æĢ¥ çĬ¶æĢģ
ç¥ł åłĤ
åħ¬äº¤ çº¿è·¯
æ¡Į éĿ¢
ç¥Ī æ±Ĥ
èµ£ è¯Ń
æĸ°ç«¹ åİ¿
äººå¤§å¸¸å§Ķä¼ļ åī¯ä¸»ä»»
éĽħåĲĦ å¸ĥ
å¯Ĩè¥¿è¥¿æ¯Ķ å·ŀ
æ»¨æµ·å¡ŀçº³ çľģ
Ï ĥ
Ġ ç¾İ
çļĦ å£«
çļĦ æĦıä¹ī
åľ¨ åĲĦ
ä¸Ģ æĸĩ
ä¸Ģ ç±»
è¡ ®
å¤§ åĪĨ
ä¸İ å¦»åŃĲ
ä¸į å·²
çĶ¨ åĪ°
è¥¿ ç«¯
èĢĮ å¼Ĥ
è¢« å°ģä¸º
å¯¹ ä¸Ĭ
æĿ¥ å®ŀçİ°
åı¯ è¡ĮæĢ§
å¹³ äº¤éģĵ
éĿ¢ è²Į
å»º æł¡
æŃ¤ æĽ²
åĨħ çĩĥ
å°Ĩ ä»İ
ä½Ĩ æŃ¤
æĢ» å·¥ä¼ļ
åŁİ ä¸»
æŃ£ æ¨¡æłĩæľ¬
æĪĸ ä»¥ä¸Ĭ
åĪĹ åĩºäºĨ
å¸¸ çĶ¨äºİ
å¿ĥ ä¸Ń
çŁ³ å·Ŀ
ä»¤ åħ¶
æİ¨ å´ĩ
åįĥ ç¦§
åĬ© æķĻ
èĪª éģĵ
é»Ħ çŁ³
è´Ł è½½
æ¸¸æĪı æľº
æĺĵ äºİ
çļĩ æĹı
æ·± å±Ĥ
è¡Ĺ å¸Ĥ
ç¤¾ä¼ļ ä¸Ń
æ¯ĶèµĽ æĪĲç»©
éĵ¶ å¸ģ
å¯º çļĦ
el le
æľ« ä»£
åĸĦ èī¯
ri pt
å¿ł è´¤
ä»»åĬ¡ çļĦ
éĢĬ å°¼
è·³ æ°´
ç¥ŀç»ı åħĥ
å¤ºå¾Ĺ åĨłåĨĽ
äºİ195 3å¹´
æľīäºĽ äºº
èĦĬ é«ĵ
ĠF ran
æĺ¯å¾·åĽ½ çļĦæ²³æµģ
æĢ»é¢Ŀ ä¸º
æīĢè¾ĸ çļĦä¸Ģä¸ªæĿĳ
éĩĮçº¦ çĥŃåĨħ
å«Įçĸĳ äºº
è¯Ľ æĿĢ
èľĹ çīĽ
åı²åħĭ å¨ģå°Ķ
L S
g o
Ġ è¯º
Ġ km
çļĦ åıĳçİ°
çļĦ åįķæĽ²
çļĦ æĢ§è´¨
çļĦ å¦¹å¦¹
ä¸Ń å°ı
æĺ¯ ç¬¬ä¸Ģä¸ª
æľī ç½ª
ä»¥ æį¢åıĸ
åĲİ æĶ¹
ä¸Ĭ æĿī
å¹¶ ä½ľä¸º
çĶ± æĿİ
åĿ į
åīį åį«
èĩ³ 2022å¹´
ä½ĵ èī²
å¤ĸ äºĭ
çĲĥ çļĦ
æķ° åĲį
éĻ¢ åĨħ
éĻ¢ ç³»
åŁİ éĤ¦
æıĲ å°Ķ
æ¼Ķ åıĺä¸º
åįķ å¼ıæľĪåı°
å·² äºİ
æĻ® çī¹
æĶ¿åºľ å¯¹
åıĺ æĽ´ä¸º
è¿ĳ ä¹İ
ä¿¡ ä¼Ĺ
çļĦä¸Ģ éĿ¢
åıĪ æĺ¯
åħµ è´¥
åįĩ åħ¥
ä»¥åıĬ åħ¶
æĸ½ çī¹æĭī
14 ä¸ĸçºª
æĪ¿ çļĦ
ä½Ľ çĳŀ
è¿Ľåħ¥ åĩĨåĨ³èµĽ
æ¢ħ èĬ±
å½Ĵ éĻĦ
éª¨ æŀ¶
èµĽäºĭ çļĦ
å®ª å®Ĺ
ä¸ľåĮĹ æİ¥
æľīä¸Ģ å¤©
å¿ħé¡» è¦ģ
29 æĹ¥
æĦıå¤§åĪ© è¯Ń
èĨ º
åĪļ å¥½
åĶ¯ä¸Ģ ä¸Ģä¸ª
å¢Ļ ä¸Ĭ
èĬĴ æŀľ
åģ· åģ·
èĪŁ å±±
1åı· æľĪåı°
ĠL i
Ġto Ġ
åĨĴéĻ© æ¸¸æĪı
åĵª éĩĮ
ide o
å½Ĵç±» äºİ
éĴĵé±¼ å²Ľ
åı¬éĽĨ äºº
åħĳ æį¢
å¼łå®¶ åı£
çīĩå°¾ æĽ²
é©¬éŀį å±±
p ar
Ġ ä¹Į
çļĦ çĶµè§Ĩ
çļĦ ç¨ĭåº¦
çļĦ æĢĿæĥ³
å® ¸
åľ¨ ä¸ĸ
ä¸º æľ¬
æŃ ª
æĪĲ åĵģ
è½ Ń
ä¸Ĭ ä¸ĩ
ä¸Ĭ è¿Ľè¡Į
ä¸Ĭ åİ»
ãĢĭ ãĢĮ
ãĢĬ "
çĶ± éĻĪ
è¿Ļ å¥Ĺ
åĮĹ å¸Ĥ
ä¸ľ å±±
æµ· éĿ¢
æīĢ åŃ¦æł¡
ä½Ĩ ä¹ĭåĲİ
ä¸Ģä¸ª æĸ°çļĦ
å®ī è¿ª
æģ ³
å£« æ¯Ķäºļ
åŁİ åįĹ
éĺ¿ ä»Ļå¥´
å·´ ä¼¦
å·´ æł¼è¾¾
ç»ĵ æĪĲ
çº§ æĹ¶
éĽĨ è£ħç®±
äºĶ åı·
æĪĲä¸º ç¾İåĽ½
å¤ª è¿ĩ
ä¸ĵ é¡¹
æ±Ł éĻµ
åħī åŃĲ
éĿ¢ç§¯ 5
åĨį çĶ±
la ce
çĶ· çĶŁ
ä»Ĭ æ²³åĮĹçľģ
è¶ħ æĸ°æĺŁ
æİĴ åľ¨
é»Ħ èľĤ
èĪ° ä½ĵ
æŀģ é«ĺ
éĻĲ éĩı
at s
æī¹ åıĳ
ä½İ è°ĥ
è¯į æºĲ
éŁ³ä¹Ĳ äºº
éĵģè·¯ åĴĮ
åĶĲ äºº
æĭ¥ ç«ĭ
éĩİ å¿ĥ
000 ç±³
ç»§ç»Ń æĭħä»»
åĮºåŁŁ æĢ§çļĦ
éª¨ æĬĺ
189 1å¹´
åıĳå°Ħ ç®¡
ç¯® çĲĥéĺŁ
2000å¹´ äººåı£æĻ®æŁ¥
é¹¿ æ¸¯
187 9å¹´
æĭĵ å®½
æĭīä¸ģ åŃĹæ¯į
åıªèĥ½ åľ¨
åĲı éĥ¨å°ļä¹¦
å¤ªç©º äºº
å¯ĵ æĦı
å¸Ĥä¸Ńå¿ĥ çļĦ
èİ±èĮµ åħ°
Ġ193 0å¹´
å¾·å·Ŀ å®¶åº·
æ¦Ĩ æŀĹ
åħ¨æĹ¥ åĪ¶
æ¶© è°·
å®ĩå¤ļçĶ° åħī
å²ģåıĬ ä»¥ä¸Ĭ
æ¸² æŁĵ
E A
F F
P N
Ġ è¯Ńè¨Ģ
Ġ çĲĥåĳĺ
çļĦ ç§ģäºº
çļĦ çĲĨçĶ±
ä¸º åĩĨ
æĹ¶ åħī
ä¸Ĭ åįĬå¹´
ä¸İ éĩĳ
æ³ķ ä¼¦
è¢« çº³åħ¥
ä»» ä¸º
æµ· éĩĮ
ä¸ī ä¸ĩ
è° Ĵ
å®ļ åĪ¶
åħ± é¸£
ä½Ĩ å½ĵæĹ¶
çº¿ ä¸ĬçļĦ
æł¼ å°¼
åĽĽ æĿ¡
èĳ «
æ¸¯ å¸ģ
äº¤ æİ¥
éĽĨ æķ°
èĮ ī
å®ĺ éĤ¸
é¦Ļ æ§Ł
å¥¹ ä»¥
åį³ åľ¨
æ¯ı å½ĵ
é¾Ļ åį·é£İ
éĻĨ çĶŁ
å¯Ĩ å°Ķ
æ¬§ æĭī
ç¬¬äºĮ éĥ¨
æ´Ľ é©¬
èİ± å§Ĩ
è½¦ç«Ļ çļĦ
(, ,),
å¯Ł åĵĪå°Ķ
ä»ħ æĺ¯
åĵ¥ åĲīæĭī
åºĵ åŃĺ
æĬĹ çĶŁç´ł
ä¿Ħç½Ĺæĸ¯ æĢ»ç»Ł
éĩİ å¤ĸ
çŁŃ çŁŃ
å·® ä¸įå¤ļ
å¾® åŀĭ
è¯Ńè¨Ģ ä¸Ń
40 äºº
çĬ¯ ä¸ĭ
çİī ç¥¥
åĪĬ è½½
ãĢĪ ãĢī
éĶ¡ éĩĳ
çļĦä¸» ä½ĵ
éĿĴå¹´ éĺŁ
èİİ å£«æ¯Ķäºļ
åľ°ä¸ĭ æ°´
ç¢ĳ æĸĩ
ç£ģ éĵģ
ç¡®å®ļ äºĨ
ç¬¬åħŃ å±Ĭ
ç§ĺä¹¦ å¤Ħ
é«ĺä¸Ń çĶŁ
ä¸² èģĶ
åĲįä¹ī ä¸Ĭ
ĠM ic
Ġ19 19å¹´
åİŁåŀĭ æľº
å¸¸ä½ı äººåı£ä¸º
æ®¿è¯ķ çĻ»è¿Ľå£«
å®¾å¤ķæ³ķ å°¼äºļ
2 äº¿
7 åı·çº¿
g el
v a
Ġ è§Ĵèī²
Ġ ch
çļĦ åħ¬
çļĦ æĹ¶æľŁ
çļĦ åİĭåĬĽ
åľ¨ åħ¶ä¸Ń
ä¸Ń å²Ľ
åĴĮ çİĭ
åľ° åľ¨
ä¼ļ åľº
è¡Į éķ¿
ä¹ĭ åĳ½
å¸Ĥ éĥĬ
æĿ¥ åĽŀ
éķ¿ å¹´
å¼Ģ å¿ĥ
æĸ° åįĹ
ä¸ľ éĿŀ
ä¹Ł ä¸įæĺ¯
å¸ĥ èµĸ
æĢ§ æ¬²
å±± ä¸Ń
åĮĸ åİ¿
éĢī ä¾¯
æĺİ å¾·
çº¦ ä¼ļ
æ°´ çĶŁ
é¦ĸ é£ŀ
äº§ åįµ
å¸¸ å·ŀ
èİ· æİĪ
äº¤ ä»£
ç»´ äº¬
çķĮ åĪ«
æīĭ ç»Ń
å½¢ åĪ¶
å¥¥ åħĭåħ°
æĻ® çĵ¦
éĢł åĥı
éĢł è®¿
åı¤ å¢ĵ
ç¿ ĺ
ç¬¬ä¸Ģ ç§į
å¼º åĬĽ
å®Ĺ ç¥ł
è¾ĥ å·®
çĶµå½± å¯¼æ¼Ķ
åįĩ ç©º
ç¾¤ ä½ĵçļĦ
ä¸ĥ åı·
èĢĥ çī¹
è¿ª å¥¥
èĥľ åľ°
æ°ı ä¸º
ç²¾ ç»Ĩ
it eĠ
åıĳè¡Į åĲİ
èĥĮ åĲİçļĦ
ä¹ĺ éĻį
åĩı ä½İ
4æľĪ èĩ³
åĩ¯ åĪ©
22 æĹ¥
èµĽäºĭ æĪĲç»©
å¹³åĿĩ æ¯ı
åºŁ é»ľ
éĢĥ åĩº
å»ºè®¾ çļĦ
çĶ³ ç§ĳ
35 äºº
æľĿé²ľ çİĭæľĿ
è¿Ļç§į æĸ¹æ³ķ
ä¸»æĮģ çļĦ
å¦ĩ äºº
èµı èµĲ
500 ä¸ĩ
32 äºº
çĥŁ åı°
çķª ç¦º
äºİ194 8å¹´
èĢķ ä½ľ
åĲŀ åĲĲ
åľ°äºļ åĵ¥
çºł æŃ£
èµĮ åľº
å¤§æŃ£ ä¹Ŀå¹´
ç¤¼æĭľ åłĤ
åĲīç¥¥ çī©
å¹¶åıĳ çĹĩ
ç¾İåĪ© åĿļ
3 30
6 æ¬¡
A g
c es
â ĸ
Ġ èĬ±
Ġ 26
åı ¡
åľ¨ 18
æĺ¯ ä¸ŃåĽ½å¤§éĻĨ
åĴĮ B
20 å¹³æĸ¹åįĥç±³
ä¸İ åħ¶å®ĥ
åħ¶ ç§įåĬłè¯į
èĥ ¥
ä¹ĭ æŃ»
èĢĮ ä¸ĭ
åĨĽ éĥ¨
çĶ± ä¸Ģä¸ª
åĲĮ äºº
çī¹ é¦ĸ
çī¹ éģ£
å¼Ģ åı£
æľĢ åĸľæ¬¢
æĸĩ åı²
ä»£ çī§åĮº
éģĵ åıĬ
æĪĺ çģ«
äºĮ åº¦
çľģ çķ¥
é©¬ åŃ£
200 1
200 2
200 ä¸ĩ
èģĶ æį·
çĤ Ģ
ä¸¤ å¹¿
éĢī åħ¥
æł¼ æ´Ľ
åĽĽ åº§
åĢ ¦
å¨ ´
æĽ¾ åħĪåĲİ
å®ŀ åĨµ
éĶ °
12 1
ä¹¦ ä¿¡
å°± ç®Ĺ
æ· Ħ
åįķ ä½ĵ
éŁ³ çļĦ
æĮģ æľīçļĦ
çĭ ł
æĬ¥ ä»ĩ
åĲĦ æł·çļĦ
çļĦä¸Ģ å¹´
åĸ ĥ
çłĶç©¶ æĺ¾ç¤º
ä¸»è¦ģ æĿ¥èĩª
çĶ· åįķ
çĶ±äºİ å½ĵæĹ¶
å·¥ä½ľ å§Ķåĳĺä¼ļ
çª ľ
èħ »
ä¹¡ çļĦ
æīĺ åĪ©
éħį å±ŀ
ä½ı æĮģ
æİ§ æĸ¹
æµĭ éªĮ
æĥ³ èµ·
ç²¾ èĩ´
åł¡ çļĦ
åı³ æĶ¯æµģ
ç¤¼ éĥ¨å°ļä¹¦
äºĨä¸Ģ éĥ¨
äº¤éĢļ å±Ģ
å°¤ éĩĮ
åĮ¹ åħ¹åł¡
åħ±åĲĮ ä½ĵ
å¢ĵ åĽŃ
è¯¯ å¯¼
æĮģç»Ń äºĨ
éĺ´ éģĵ
åįļå£« åĲİ
æĹģ çĻ½
op e
å°ĸ éĶĲ
äºİ196 1å¹´
äºİ196 5å¹´
ä¿ĥè¿Ľ äºĨ
ç¯®çĲĥ èģĶèµĽ
éļĶç¦» ç®¡æİ§ä¸Ńåıĳçİ°
ç¦ħ å¸Ī
Ġæľ¬ ç§ĳ
Ġ193 4å¹´
æ¢µ èĴĤ
äºĭåıĺ åĲİ
æĸ°ä¸Ģ ä»£
èł ¢
åº·å¥Īå°Ķ å¤§åŃ¦
é¢ĦéĢī èµĽ
æ³ķåħ°è¥¿å²Ľ å¤§åĮº
è¯¥çľģä»½ä¸ºæ³ķåĽ½è¥¿åįĹéĥ¨ åĨħéĻĨçľģä»½
meric an
, .
2 æĿ¡
T r
l u
Ï Ģ
Ġ ä¸Ĭæµ·
çļĦ å®ŀéĻħ
çļĦ èĭ±æĸĩ
çļĦ æĸĩä»¶
çļĦ å²Ľå±¿
ä¸Ģ æĬĬ
ä¸Ń ä¿¡
æľī å®³
åĴĮ åĮĹ
åĴĮ äºĮ
æĭ Ļ
åĲİ å¼Ģå§ĭ
åĲİ èĢħçļĦ
åŃ¦ åĪ¶
ä¸į æĦ¿æĦı
ä¹ĭ è¯´
èĢĮ æĹł
åįĹ åį¡ç½Ĺ
åĬł æ²Ļ
ç¾İ æĸ¹
éĿ¢ éĺĶ
æīĢ éĥ¨
âĢľ âĢĿ(
å°Ĩ è¦ģ
å°Ĩ ä»ĸçļĦ
é©¬ åĪ©äºļ
åŁİ å¤ĸ
å¥³ æĿĥ
å¨ ±
æĽ¾ è¡¨ç¤º
çĽ´ ç«ĭ
å·² å®ĮæĪĲ
åĲĦ ç«Ļ
ä¸ĵ èĳĹ
æĶ¾ å®½
äººæ°ĳ åĨĽ
ä¸ĸçķĮ æĹ¶
æľį åĪĳ
15 åĪĨ
äº¦ ä»¥
è¯ķ çĤ¹
ä¿Ħ åįł
åī¯ å°Ĩ
æĶ» åŁİ
æĶ» åĿļ
ä¹Ŀ æ±Ł
éĺ² èĮĥ
å£° æ¯į
åıĮ è¯Ń
çº¢ æĺŁ
14 å²ģ
å°Ħ æĿĢ
æĻ¯ è±¡
ç²¾ å¿ĥ
è¶³çĲĥ åľº
å»ºç«ĭ èµ·
è¡¥ ä¹ł
å¹ķ åĥļ
åıįå¯¹ èĢħ
èĢ³ æľµ
å®ĺæĸ¹ å®£å¸ĥ
ä»ĺ æ¬¾
th er
åħ¬å°º çļĦ
ä¸ĭåįĪ 2æĹ¶
ang e
ç§¯æŀģ åıĤä¸İ
äºİ196 8å¹´
äººå·¥ æĻºèĥ½
å¼ĢéĢļ è¿ĲèĲ¥
äºİ193 7å¹´
æĹ¶æ®µ æĴŃåĩº
èĴ¸ åıĳ
èİ±èĮµ æ²³
é¼İ çĽĽ
å·´å°Ķ å¹²
æīģ å¹³
åĩºåĶ® ç»Ļ
ĠD ay
åħ¶ä¸Ńä¸Ģä¸ª ç§į
èŀįåĲĪ äºĨ
çĳľ ä¼½
ç¡®ç«ĭ äºĨ
çľŁäºº ç§Ģ
row n
æ°ĳçĶ¨ èĪªç©º
ç»ĵè¯Ĩ äºĨ
Microsof t
è´¹å°ĶåįĹ å¤ļ
å¡ŀçĲī åı¤
è¤Ĵè´¬ ä¸įä¸Ģ
A çº§
E G
F R
l ing
ð ª
Ġ æ³ķ
Ġ èĩ³äºİ
çļĦ å½¢æĪĲ
ä¸º å¥¹
åŃ Ģ
åĴĮ å¤ĸ
ä¼ļ æĬĬ
çĲ Ĳ
ä¸Ĭ è¡Ĺ
ä¸Ĭ å±Ĭ
ä¸Ĭ çĽĸ
ä¸į æī¿è®¤
åĨĽ åĮ»
è· »
è· ĸ
è¿Ļ çĤ¹
å¤ļ éĹ´
ä»» æĢ»ç»Ł
åĬł æ·±
æĸĩ æŃ¦
ä¸ī åľº
æľº ä½ĵ
æķĻ è®Ń
èĲ ¼
åĪ¶ å¼ı
æĦ §
å¤© é¾Ļ
ä¸¤ èĢħçļĦ
åıĤ æĭľ
è®¤ ç½ª
æį® æŃ¤
æį® æĬ¥å¯¼
çĽ´ èĲ½
å®ĺ è¯Ŀ
éĵģ äºº
èĭı è½¼
çļĦä¸Ģ çº§
é¾Ļ åįİ
åħĪ ç¥ĸ
æ´¾ åı°
å¼º åĬ²
åľ£ ä¹Ķæ²»
en se
è¾ĥ éķ¿
çļĦä¸Ģä¸ª éĵģè·¯è½¦ç«Ļ
æķħ åĲį
é»Ħ æ³¥
17 æĹ¥
åįĬ èĩªåĬ¨
æİ§ åĳĬ
å© º
ç®¡çĲĨ åŃ¦éĻ¢
å¹² æµģ
ä½Ľ å¯º
å®« ä¸Ń
å¼Ĺ ç½Ĺ
çĽ®åīį ä¸ºæŃ¢
å¼Ģåıĳ åĽ¢éĺŁ
et y
é¦ĸæ¬¡ ä»£è¡¨
å¾® ç¬ĳ
æ·· æĪĲ
æŀļ éĵľçīĮ
ä»»åĬ¡ æĺ¯
åĩ¤ ç¿Ķ
è¢Ńåĩ» äºĨ
å½±çīĩ ä¸Ń
æĽ¹ éŃı
åľ¨æŃ¤ æĹ¶
å»ºæĪĲ åĲİ
æĤ¬ å´ĸ
çĸ¾çĹħ çļĦ
æĺİæ²» ç»´æĸ°
åį¢çĵ¦å°Ķ æ²³åľ°åĮº
çĸ«æĥħ éĺ²æİ§
æŃ¥åħµ åĽ¢
çľŁå®ŀ çļĦ
æ¶Į åħ¥
)ãĢģãĢĬ ãĢĭ(
æĺ¯ä¸ĢåĲį ç¾İåĽ½
ä¸ľæµ· éģĵ
ç¼´ èİ·
èįĨ å·ŀ
èĹ» ç±»
æµİåįĹ å¸Ĥ
è½¬ä¼ļ èĩ³
ç»ĥä¹ł çĶŁ
æĪ·éĥ¨ ä¸»äºĭ
åĵĪå°Ķç§ĳå¤« å·ŀ
çĶ°çº³è¥¿ å·ŀ
èĢ¶é²ģ å¤§åŃ¦
ä¹ĥæľ¨ åĿĤ46
éĥĬéĩİ åħ¬åĽŃ
å¡ĶåĲī åħĭ
åºł çĶŁ
éĩĮçº¦çĥŃåĨħ åį¢
- (
Ġ åıį
Ġ 40
Ġ çĽ´åĪ°
Ġ çĶµè§ĨåĬ¨çĶ»
çļĦ D
çļĦ æĶ¶åħ¥
çļĦ åħ´è¶£
äºİ ä¸ŃåĽ½
åĴĮ åħ¶å®ĥ
æĹ¶ è®¾ç½®çļĦ
ä¸į å®ļ
ä¸į åģľ
åĮº æīĢå±ŀ
ä¹ĭ æīĭ
ä¹ĭ ç±»çļĦ
ç¬¬ 26
åĨĽ çģ«
æľ¬ å²Ľ
å¯¹ å²¸
äºļ ç»Ĩ
å»º æ¨¡
åĨħ å¸ĥæĭīæĸ¯
è¯¥ åłĤ
æķĻ èģĮ
äºĮ åŃĹ
å±± éĹ¨
æ¯Ķ æķ°
è¾¾ èį·
æ°´ å¡ĺ
é¦ĸ è¦ģ
çİĭ åĨł
éĴ ¼
èº« å¤Ħ
æĶ¯ å®īæīĵ
åı¤ ä»Ĭ
in ter
åıĪ è¢«ç§°ä¸º
æīĵ åĲ¡
æŀľ æķ¢
åĨį è§ģ
çº¢ æµ·
é±¼ ç§ĳ
äºİ19 18å¹´
ç¥¨ çļĦ
æ¯ĶèµĽ å¼Ģå§ĭåĲİ
çīĮ åĿĬ
é¡¿ çļĦ
æľ¨ è´¨
æŀ¶ æĹłäººæľº
éģĹ å¿ĺ
ä¼ĺ éĽħ
éĩİ æīĭ
é³ Ĳ
é¡º å¾·
24 ä¸ª
ä»ĭ è´¨
èĭ¥ æĺ¯
é¢Ĩå¯¼ èĢħ
è´§ æŁľ
21 ä¸ª
è®¨ åİĮ
åĨ° åİŁ
æĮĩæĮ¥ çļĦ
èĩªçĦ¶ ä¿ĿæĬ¤åĮº
ur es
æĬ¥åĳĬ ç§°
çĬ¹ è±«
äººå£« çļĦ
é£ŀæľº çļĦ
æ¶ħ å¤«
åĲķ å®ĭ
ç¾İæ´² åİŁä½ıæ°ĳ
op er
é¥® çĶ¨
æ³³ ä¸ī
186 5å¹´
éĶĢåĶ® éĩı
çĨĬ æľ¬
å¢¨è¥¿åĵ¥ æ¹¾
çº· äºī
æĪĴ å¤ĩ
è£ħçĶ² å¸Ī
ç«Ļåı° å±Ĥ
åĵ¥ä¼¦ å¸ĥ
æģĲæĢĸ ä¸»ä¹ī
ç¾½æ¯ĽçĲĥ è¿ĲåĬ¨åĳĺ
ç¾½æ¯ĽçĲĥ åĽ½éĻħèµĽ
æ²³çļĦ åı³æĶ¯æµģ
åĬ² çĪĨ
ĠA s
åį³ä½¿ æĺ¯
åĲĪéĢĤ çļĦ
åĢĻè¡¥ å§Ķåĳĺ
æİĢ èµ·
æ³¢ç¾İæĭī å°¼äºļ
æ¢µèĴĤ åĨĪ
2 æŀļ
7 50
Ġ æĢ»éĿ¢ç§¯
çļĦ å®£ä¼ł
å¹´ èĢģ
åľ¨ åįİ
ä¸º ä¹ĭ
åĽ½ åĲĽ
å¤§ æ²³
è¾ Ļ
ä¸Ĭ ä¹Ł
ä¸į ä¸¹
è¢« ç¾İåĽ½
çĶ± å¾·åĽ½
æ°ĳ è°£
åĬł è¾¾
ãĢĮ ãĢį(
ç¾İ å¥³
æīĢ ç»ĦæĪĲçļĦ
èĩ³ 2011å¹´
å»º æĿĲ
çŃī æµ·åŁŁ
å°Ĩ å¥¹
æľº çĶµ
é©¬ ä¸¹
å±± éļ§éģĵ
åħ¨ é£Ł
åħ³ ä¸Ń
ç»ĵ æł¸
ä¿Ŀ ç®¡
éŁ³ ç¬¦
èº º
å¤§åŃ¦ æł¡
åī§ ä¸Ńé¥°æ¼Ķ
å±Ģ ä¸ĭ
åŃĹ èĬĤ
on Ġ
è¿Ľè¡Į è¿ĩ
åı¯ä»¥ éĢıè¿ĩ
å¾Ģ åįĹ
æīĵ åİĭ
åĵĪ æĸ¯
åį« æĬ¥
å»ºçŃĳ è®¾è®¡
æĽ¼ å°¼
ä¹ĭéĹ´ æľī
ç²¾ éĶĲ
æ¢ħ ç«¹
æ°¸ å®ļ
èīºæľ¯ ä¸İ
èģĶèµĽ ä¸Ń
çļĦäºº çĶŁ
åĩ¯ æģ©
èĥ¡ å¿Ĺæĺİ
èĮ¨ åĿ¦
éļĶ æĹ¥
çİ¯å¢ĥ çļĦ
ãĤ ·
IN E
è£Ĥ åıĺ
åĪĨåŃĲ çļĦ
ç´« å¤ĸ
186 2å¹´
æıĲåįĩ ä¸º
æ£®æŀĹ åħ¬åĽŃ
éĩĩåıĸ äºĨ
çĶµåĬĽ åħ¬åı¸
åįİçĽĽé¡¿ çī¹åĮº
ä¹ĭæĪĺ ä¸Ń
åİŁåŃĲ å¼¹
ç° ĩ
æĵħ èĩª
ç¨Ģ æľī
ĠL td
ĠIn st
çĢ ļ
å¤§æ°Ķ å±Ĥ
åĿĲèĲ½ åľ¨
åį¢çĵ¦ éĽ·
ĠEx p
è½¿ è½¦
æĺ¾å¾® éķľ
èĳ« èĬ¦
A lex
K ar
M TV
l ob
Ġ 28
Ġ æľªæĿ¥
Ġ äºĭæķħ
Ġ OS
çļĦ æĪĺç»©
åľ¨ äºļæ´²
ä¸º ä¸ľ
ä¸º ä¸Ńå¿ĥçļĦ
åĴĮ éĩĳ
åĴĮ ä¸¤ä¸ª
èĩ ¼
åľ° å§Ķ
ä¸Ĭ é¢Į
åĩº ç¤º
ä¸į ä¸ĭ
åħ¬ åŃ¦æł¡
ç¬¬ 29
è¿Ļ å¹´
æĸ° è¡Ĺ
æĸĩ æķĻ
æĻ ¦
é«ĺ éĺ¶
çŃī å¤ļç§į
æĭī è¶Ĭ
èĥ½ è®©
å¤ĸ åľ°
åı£ è¢ĭ
éĢļ åĪ¤
ä½Ĩ å¦Ĥæŀľ
éĵ ¬
æ°´ è§£
å¥³ æİĴ
æŀĹ ä¸ĭ
åĮħ å¤´
äººåı£ æľī
in aĠ
åĪĿ ä»£
çīĪ åĽ¾
è¿ĲåĬ¨ å®¶
é¥ µ
çª ¥
ä¹Į åħ°
çģ« èį¯
ç¾¤ ç»Ħ
30 ä¸ª
é£Ł åłĤ
æĿĢ æĪ®
è¿ª çº³
ç»ıæµİ éĥ¨
æľįåĬ¡ äºİ
çĨ ı
ç³»åĪĹ ä¸Ń
ol o
åĽ½æ°ĳ å°ıåŃ¦
äº¤éĢļ å·¥åħ·
40 ç±³
å·¥ä¸ļ åĮĸ
æ½ľ èĪ°
æ±ł çĶ°
èµĽåŃ£ çļĦ
å¥¥æŀĹåĮ¹åħĭ å§Ķåĳĺä¼ļ
ç½ĳç«Ļ çļĦ
å¤§éĥ¨åĪĨ åľ°åĮº
å¤§çº¦ æĺ¯
æ¢¯ éĺŁ
é£ĵé£İ åŃ£
if t
èĤĸ æĪĺ
è¿Ļæĺ¯ ä»ĸ
AM D
è®¤è¯Ĩ åĪ°
(,; ),
AP I
æııç»ĺ äºĨ
ĠN et
ĠæĪªèĩ³ 2024å¹´
ä»¥ä¾¿ äºİ
ä½İäºİ æ³ķåĽ½å¹³åĿĩæ°´å¹³
èĭıç»´åŁĥ ç¤¾ä¼ļä¸»ä¹īåħ±åĴĮåĽ½
ä¸ĵçĶ¨ çº¿
erv ice
èįĶ æŀĿ
åį¡å°Ķçĵ¦å¤ļæĸ¯ çľģ
èŃ¬ å¦Ĥ
èµ«æ¢ħåĪ© å°¼èĮ¨åŁº
3 ä¸ªæľĪ
H en
L GBT
Ġ ä½įç½®
Ġ è·¯çº¿
çļĦ èģĶç³»
ä¸º åĽ½å®¶
ä¸Ń æŀ¢
èĩ »
ä¸į æ²»
ç¾ ²
èĢĮ å¾Ĺ
èĢĮ åİ»
èĩª å°ı
åįĹ è¥¿
æĸ° æľĪ
åĬł åĽº
äºļ éĩĮå£«
èĩ³ 20
èĩ³ 2007å¹´
ä¸ī è·¯
ä¸ī å±Ĭ
éģĵ çĲĨ
éģĵ çĽĳå¯Łå¾¡åı²
é©¬ ä¸»
ä½¿ äºº
å®ī å®ģ
æ¯Ķ çİĩ
æĺİ æĹ¥
åı· ç§įåŃĲ
æ°´ éĽ·
éĺ¿ éģĵå¤«
å·´ çº¦è®·
å®ŀ ä¾ĭ
æīĭ çĲĥ
ä¿Ŀ éĢģ
åºĶ ä¸º
éĽĨ æĿĥ
éª ł
èĭı éĹ¨
æĶ¶ æķĽ
åĸ ĺ
å¨ģ åħĭ
ç½ĳ çļĦ
ç¬¬äºĮ åľº
éĹ® ä¸ĸ
éĽ· å°Ħ
åĩĨ åĻ¶å°Ķ
æİĴ åĩº
åī¯ åı¸ä»¤
çģ« çĥ§
èĲ½ å·®
al i
æ·± å¤Ħ
çķĻ æĦı
è¿ľ ç«¯
èĪ¹ åĿŀ
åĪĺ æĺĵ
å»¶ åĲİ
ä¼ĺ è¶Ĭ
å¼Ĥ åĲį
æ²¹ çĶ°
èĩªçĶ± è´¸æĺĵ
èĩªçĶ± æ°ĳä¸»åħļ
è¿½ å°ģ
èĤ¡ ä»·
è¶ħè¿ĩ 10
åľĨ çİ¯
åĲĽ åŃĲ
åĲ¸ åħ¥
çİ°åľ¨ æĺ¯
[...]
