{"!":0,"\"":1,"#":2,"$":3,"%":4,"&":5,"'":6,"(":7,")":8,"*":9,"+":10,",":11,"-":12,".":13,"/":14,"0":15,"1":16,"2":17,"3":18,"4":19,"5":20,"6":21,"7":22,"8":23,"9":24,":":25,";":26,"=":27,"?":28,"@":29,"A":30,"B":31,"C":32,"D":33,"E":34,"F":35,"G":36,"H":37,"I":38,"J":39,"K":40,"L":41,"M":42,"N":43,"O":44,"P":45,"Q":46,"R":47,"S":48,"T":49,"U":50,"V":51,"W":52,"X":53,"Y":54,"Z":55,"[":56,"\\":57,"]":58,"^":59,"_":60,"`":61,"a":62,"b":63,"c":64,"d":65,"e":66,"f":67,"g":68,"h":69,"i":70,"j":71,"k":72,"l":73,"m":74,"n":75,"o":76,"p":77,"q":78,"r":79,"s":80,"t":81,"u":82,"v":83,"w":84,"x":85,"y":86,"z":87,"|":88,"~":89,"¡":90,"¢":91,"£":92,"¤":93,"¥":94,"¦":95,"§":96,"¨":97,"©":98,"ª":99,"«":100,"¬":101,"®":102,"¯":103,"°":104,"±":105,"²":106,"³":107,"´":108,"µ":109,"¶":110,"·":111,"¸":112,"¹":113,"º":114,"»":115,"¼":116,"½":117,"¾":118,"¿":119,"Â":120,"Ã":121,"Ä":122,"Å":123,"Æ":124,"Ç":125,"È":126,"É":127,"Ê":128,"Ë":129,"Ì":130,"Í":131,"Î":132,"Ï":133,"Ð":134,"Ñ":135,"Ò":136,"Ó":137,"Ô":138,"Õ":139,"Ö":140,"×":141,"Ø":142,"Ù":143,"Ú":144,"Û":145,"Ü":146,"Þ":147,"ß":148,"à":149,"á":150,"â":151,"ã":152,"ä":153,"å":154,"æ":155,"ç":156,"è":157,"é":158,"ê":159,"ë":160,"ì":161,"í":162,"î":163,"ï":164,"ð":165,"ñ":166,"Ċ":167,"Ġ":168,"ġ":169,"Ģ":170,"ģ":171,"Ĥ":172,"ĥ":173,"Ħ":174,"ħ":175,"Ĩ":176,"ĩ":177,"Ī":178,"ī":179,"Ĭ":180,"ĭ":181,"Į":182,"į":183,"İ":184,"ı":185,"Ĳ":186,"ĳ":187,"Ĵ":188,"ĵ":189,"Ķ":190,"ķ":191,"ĸ":192,"Ĺ":193,"ĺ":194,"Ļ":195,"ļ":196,"Ľ":197,"ľ":198,"Ŀ":199,"ŀ":200,"Ł":201,"ł":202,"Ń":203,"ä¸":204,"äº":205,"çļ":206,"çļĦ":207,"åħ":208,"åı":209,"æľ":210,"ãĢ":211,"å¹":212,"ä»":213,"å¤":214,"åľ":215,"åĲ":216,"åĪ":217,"åĽ":218,"å®":219,"å¹´":220,"ä½":221,"æĹ":222,"çĶ":223,"åį":224,"æĸ":225,"è¿":226,"å°":227,"æĺ":228,"ä¹":229,"ç»":230,"ãĢģ":231,"åľ¨":232,"ä¸º":233,"åĬ":234,"æĪ":235,"ä¼":236,"ä¸Ģ":237,"åŃ":238,"åĮ":239,"å¸":240,"è¯":241,"è®":242,"ä¸Ń":243,"åĨ":244,"åĽ½":245,"äºº":246,"æĺ¯":247,"åº":248,"æĿ":249,"å¼":250,"å·":251,"äºİ":252,"å¾":253,"éĩ":254,"çī":255,"ç§":256,"è¡":257,"çº":258,"å¤§":259,"æī":260,"éĢ":261,"æľī":262,"å±":263,"æĶ":264,"åĩ":265,"åĴ":266,"åĴĮ":267,"20":268,"æŃ":269,"éĥ":270,"èµ":271,"èĢ":272,"æķ":273,"å½":274,"åİ":275,"æľĪ":276,"å¯":277,"æ°":278,"éĻ":279,"æĭ":280,"æĹ¥":281,"çĽ":282,"èĩ":283,"æ³":284,"å¥":285,"æł":286,"çİ":287,"19":288,"éĺ":289,"ä»¥":290,"åĲİ":291,"æĹ¶":292,"âĢ":293,"åĳ":294,"äºĨ":295,"åľ°":296,"æ²":297,"ç«":298,"æµ":299,"ä¼ļ":300,"åŃ¦":301,"è§":302,"æĢ":303,"è¾":304,"è´":305,"æĪĲ":306,"éĹ":307,"è½":308,"éĿ":309,"åŁ":310,"ä¸ª":311,"çĲ":312,"ä¸Ĭ":313,"éĥ¨":314,"åī":315,"æĸ¯":316,"éķ":317,"ä¸İ":318,"è¡Į":319,"ä»ĸ":320,"åĩº":321,"ä¸į":322,"æ¯":323,"åĮº":324,"æ´":325,"æŀ":326,"æĬ":327,"æİ":328,"åħ¬":329,"ç¬":330,"åħ¶":331,"åıĳ":332,"æ¸":333,"ç½":334,"ä½ľ":335,"çĶŁ":336,"æĽ":337,"å°Ķ":338,"åĲį":339,"ä¿":340,"ä¸»":341,"åĪĨ":342,"è¢":343,"çŃ":344,"èĥ":345,"ä¹ĭ":346,"éģ":347,"æĸ¹":348,"ç¬¬":349,"çĶ¨":350,"å®¶":351,"å§":352,"ãĢĭ":353,"ãĢĬ":354,"è¥":355,"å¹¶":356,"ç¾":357,"è¥¿":358,"æ³ķ":359,"åĪ°":360,"å¿":361,"èĢĮ":362,"Â·":363,"æ¬":364,"é¢":365,"åĨĽ":366,"å»":367,"åıĬ":368,"è¢«":369,"ä¾":370,"æĶ¿":371,"ä½į":372,"ç±":373,"çĶ±":374,"æĮ":375,"æľ¬":376,"çľ":377,"æ±":378,"æ°ĳ":379,"è·":380,"éĽ":381,"é¦":382,"ä¸ĭ":383,"å¸Ĥ":384,"åĵ":385,"å¯¹":386,"åĲĮ":387,"èģ":388,"èĭ":389,"åħĭ":390,"åĬ¨":391,"æĿ¥":392,"çī¹":393,"éķ¿":394,"è¿Ļ":395,"å¤ļ":396,"ä»»":397,"èĩª":398,"å¼Ģ":399,"éĩĮ":400,"åĳĺ":401,"åįĹ":402,"é©":403,"åŃĲ":404,"åı¯":405,"æĸ°":406,"å¹³":407,"èī":408,"åĿ":409,"èİ":410,"åĬł":411,"å¾·":412,"åĮĹ":413,"ãĢĮ":414,"ãĢį":415,"æľĢ":416,"æĸĩ":417,"å£":418,"åĪ©":419,"æĻ":420,"ç¾İ":421,"é«":422,"åīį":423,"ä¸ľ":424,"ä»£":425,"é«ĺ":426,"äºļ":427,"éĿ¢":428,"æµ·":429,"æīĢ":430,"¦ģ":431,"å¾Ĺ":432,"èĩ³":433,"ç¤":434,"å»º":435,"èĪ":436,"éĹ´":437,"æŃ¤":438,"åĨħ":439,"åĽł":440,"äºĭ":441,"âĢľ":442,"ä¸ī":443,"âĢĿ":444,"çİ°":445,"è¿Ľ":446,"çĶµ":447,"),":448,"ä¹Ł":449,"çī©":450,"è¿ĩ":451,"èµĽ":452,"201":453,"çŃī":454,"åı°":455,"åº¦":456,"è½¦":457,"åħ¥":458,"è¯¥":459,"ç»ı":460,"å½ĵ":461,"éģĵ":462,"ç¥":463,"è¦ģ":464,"ç«ĭ":465,"æĪĺ":466,"å°Ĩ":467,"çĲĨ":468,"ç©":469,"è¡¨":470,"ä½ĵ":471,"çŁ":472,"çķ":473,"æĭī":474,"é¡":475,"å¦":476,"è°":477,"å²":478,"æľº":479,"æķĻ":480,"æľŁ":481,"ä¸ĸ":482,"èĲ":483,"éļ":484,"æı":485,"å·¥":486,"åĪ¶":487,"ç®":488,"èĥ½":489,"äºĮ":490,"å¤ĸ":491,"åĲĪ":492,"æį":493,"è·¯":494,"å®ļ":495,"åı£":496,"çľģ":497,"å¸ĥ":498,"æ¬¡":499,"æĦ":500,"é©¬":501,"è®¾":502,"åħ±":503,"æĢ§":504,"éĺŁ":505,"åľº":506,"éĢļ":507,"ä¸ļ":508,"å±±":509,"å°ı":510,"200":511,"çĲĥ":512,"ä½Ĩ":513,"èĬ":514,"ä½¿":515,"éĵ":516,"è¶":517,"åįģ":518,"ä¸Ģä¸ª":519,"èĢħ":520,"å·ŀ":521,"åĮĸ":522,"åħ¨":523,"æĥ":524,"ç³":525,"æķ°":526,"ç§į":527,"é£":528,"ç§°":529,"å¤©":530,"èĤ":531,"ç½Ĺ":532,"ç§ĳ":533,"çł":534,"æŁ":535,"çº¿":536,"çĻ":537,"å¼ı":538,"ç±³":539,"ç«Ļ":540,"éĩį":541,"å®ī":542,"éŁ":543,"èģĶ":544,"æģ":545,"çĤ":546,"ä¸¤":547,"éĤ":548,"ç³»":549,"æ¯Ķ":550,"æ¼":551,"ç¼":552,"10":553,"çĪ":554,"æ¡":555,"ç¦":556,"ç¨":557,"å¢":558,"æĢ»":559,"éĢī":560,"è¿Ĳ":561,"åĬĽ":562,"åİ¿":563,"åħ°":564,"å£«":565,"çĽ¸":566,"éĻ¢":567,"æ¹":568,"åŁº":569,"åħ³":570,"ä¸ŃåĽ½":571,"éĥ½":572,"æ²»":573,"åİŁ":574,"è¾¾":575,"åŁİ":576,"ç»Ł":577,"åģ":578,"æł¼":579,"èµ·":580,"ç»Ħ":581,"æŃ£":582,"æĺİ":583,"é»":584,"çº¦":585,"åı·":586,"èĭ±":587,"æ°´":588,"å½±":589,"å°¼":590,"æĪĸ":591,"å±ŀ":592,"åºľ":593,"å¡":594,"æİ¥":595,"åı¸":596,"è®¡":597,"éĩĳ":598,"çĽ®":599,"é¦ĸ":600,"çİĭ":601,"è®®":602,"æıĲ":603,"åįİ":604,"çĦ":605,"ä»¬":606,"éĺ¿":607,"åĽĽ":608,"ä»İ":609,"åĪĹ":610,"åħĥ":611,"çģ":612,"æ¼Ķ":613,"å·´":614,"ç¾İåĽ½":615,"èĳ":616,"00":617,"å¦Ĥ":618,"äº§":619,"è¯Ń":620,"åĢ":621,"éħ":622,"åıĤ":623,"åı²":624,"éĩı":625,"åŀ":626,"æĶ¹":627,"å¸¸":628,"å¥³":629,"æ®":630,"æ¶":631,"éķĩ":632,"åĲĳ":633,"è£":634,"èį":635,"åĬ¡":636,"æŀĹ":637,"18":638,"åĮħ":639,"æ¸¯":640,"å¨":641,").":642,"æĽ¾":643,"æĹł":644,"èİ·":645,"äººåı£":646,"çĦ¶":647,"äº¤":648,"åĶ":649,"å®ŀ":650,"å¿ĥ":651,"éĶ":652,"åıĹ":653,"éľ":654,"12":655,"ä½įäºİ":656,"ç»´":657,"æĦı":658,"åİĨ":659,"ç»ĵ":660,"èī²":661,"çķĮ":662,"çº§":663,"ä¹Ĳ":664,"æīĭ":665,"å§ĭ":666,"ä¿Ŀ":667,"å§Ķ":668,"åĪĻ":669,"ä¹ī":670,"æĴ":671,"å¤Ħ":672,"åħļ":673,"è§Ĩ":674,"ä¹¦":675,"ç´":676,"åĽ¢":677,"0å¹´":678,"ç®¡":679,"å½¢":680,"ç¨ĭ":681,"æ£":682,"å¯¼":683,"åĭ":684,"1å¹´":685,"è®¤":686,"æį®":687,"ç±»":688,"æ²³":689,"å°±":690,"åį¡":691,"éĹ¨":692,"æ·":693,"æĮĩ":694,"æľĪ2":695,"çĽ´":696,"202":697,"5å¹´":698,"åįķ":699,"éĴ":700,"çĥ":701,"è¯´":702,"éŁ³":703,"äºĽ":704,"å¹¿":705,"åŀĭ":706,"å·²":707,"åºĶ":708,"4å¹´":709,"æĺŁ":710,"éĽĨ":711,"ç¤º":712,"å¥¥":713,"æµģ":714,"é¢Ĩ":715,"ç¤¾":716,"åł":717,"ä¼ł":718,"æº":719,"æĮģ":720,"é²":721,"åĵģ":722,"çĤ¹":723,"èº":724,"æł¡":725,"æĽ´":726,"2å¹´":727,"å±ķ":728,"å¤«":729,"3å¹´":730,"er":731,"çĭ":732,"åĽŀ":733,"èĮ":734,"ä¸¾":735,"æĻ®":736,"11":737,"æ¸¸":738,"ä¸ĩ":739,"ç§¯":740,"8å¹´":741,"èº«":742,"6å¹´":743,"æ¢":744,"ç©º":745,"åıį":746,"éª":747,"èµĦ":748,"æĶ¿åºľ":749,"æĥħ":750,"å®ĺ":751,"ç¡":752,"çºª":753,"äºĶ":754,"æ´»":755,"è¿ĺ":756,"é¾":757,"åĩ»":758,"an":759,"æĶ¯":760,"é¦Ļ":761,"æłĩ":762,"æĬ¥":763,"æ»":764,"or":765,"å¸Ī":766,"åĲĦ":767,"æ¹¾":768,"éĵģ":769,"åĪ«":770,"7å¹´":771,"èĴ":772,"éĢł":773,"å¤§åŃ¦":774,"çº³":775,"èĻ":776,"åıĸ":777,"ä½¿çĶ¨":778,"çĬ":779,"åı¤":780,"å²Ľ":781,"çĸ":782,"æĪĲä¸º":783,"å¤ª":784,"æĹ¥æľ¬":785,"in":786,"åī§":787,"å±Ģ":788,"åħ¬åı¸":789,"åıĺ":790,"æĭ¬":791,"çı":792,"æľ¯":793,"åŃĹ":794,"åķ":795,"å¥¹":796,"çĿ":797,"æĹı":798,"ä¸ĵ":799,"åĳ½":800,"åĮħæĭ¬":801,"åľ°åĮº":802,"éĿŀ":803,"å¸¦":804,"èĳĹ":805,"åĽ½å®¶":806,"å¼ł":807,"è®º":808,"è¿ĳ":809,"åį³":810,"å¼Ģå§ĭ":811,"çłĶ":812,"æľĿ":813,"æ±Ł":814,"åĨ³":815,"ä¿¡":816,"è§£":817,"æ´²":818,"æĽ²":819,"èĬĤ":820,"çĹ":821,"ç¥ŀ":822,"é£İ":823,"on":824,"çīĩ":825,"å°ĳ":826,"èģĮ":827,"ä»¶":828,"ç²":829,"è¿Ľè¡Į":830,"ä¼Ĭ":831,"åĽ¾":832,"èĦ":833,"æľª":834,"çĵ":835,"è®°":836,"åıª":837,"ç¿":838,"å¹³æĸ¹":839,"å®ĥ":840,"æľĪ1":841,"æł¹":842,"æĿĥ":843,"æ²¡":844,"çŁ³":845,"éĻħ":846,"ç¬¬ä¸Ģ":847,"èĭı":848,"æ¯ı":849,"ç¼ĸ":850,"è§Ĵ":851,"è½¬":852,"åı¯ä»¥":853,"æĶ¾":854,"æ³¢":855,"æ¨":856,"äº¬":857,"ä¾ĭ":858,"199":859,"æĶ¶":860,"æĿ¡":861,"çļĦä¸Ģ":862,"åĪĴ":863,"è°ĥ":864,"é¾Ļ":865,"åħ¬éĩĮ":866,"é¦Ļæ¸¯":867,"åĳ¨":868,"åħī":869,"åķĨ":870,"åĪĽ":871,"æ¸ħ":872,"è¿ŀ":873,"åĪĿ":874,"9å¹´":875,"æ°Ķ":876,"æŃĮ":877,"ç¦»":878,"æĿĳ":879,"åĸ":880,"æĳ":881,"çīĪ":882,"éĻĨ":883,"éĥ¨åĪĨ":884,"ç©¶":885,"åĻ":886,"å¾Ģ":887,"äººæ°ĳ":888,"å¤´":889,"èİ·å¾Ĺ":890,"è±":891,"åŃ£":892,"çŁ¥":893,"ä¸ĸçķĮ":894,"åıĪ":895,"éĿ¢ç§¯":896,"åħĪ":897,"çłĶç©¶":898,"åİ»":899,"å¯Ĩ":900,"æŀĦ":901,"åŁŁ":902,"æ´¾":903,"ä»¤":904,"æīĵ":905,"ç»Ń":906,"æŀľ":907,"åĬŀ":908,"å¼º":909,"éļı":910,"æŁ¥":911,"å¨ģ":912,"ä¸»è¦ģ":913,"çĻ½":914,"åĨį":915,"åħµ":916,"äºī":917,"åº§":918,"æŃ¦":919,"ä»ĸä»¬":920,"ç¦ı":921,"å¤į":922,"è§Ĥ":923,"èĤ²":924,"è£ħ":925,"åİĨåı²":926,"å®Į":927,"åħŃ":928,"la":929,"åĻ¨":930,"è®¤ä¸º":931,"å¼ķ":932,"é¡¹":933,"æ®µ":934,"æļ":935,"é¢ĺ":936,"è¶³":937,"åı°æ¹¾":938,"åĵĪ":939,"æ²¡æľī":940,"ä¸Ķ":941,"æĿİ":942,"çĳ":943,"å¡Ķ":944,"æľį":945,"éĻ¤":946,"å±ħ":947,"å®£":948,"æ¬§":949,"15":950,"æĪı":951,"ç½ĳ":952,"æĴŃ":953,"ç»Ī":954,"è§Ħ":955,"æĭħ":956,"åįı":957,"èĲ¥":958,"äº¦":959,"è®¸":960,"æİ¨":961,"èı":962,"çĵ¦":963,"åľ£":964,"ä»½":965,"å§Ķåĳĺ":966,"å¥ĸ":967,"åľŁ":968,"æ¡Ī":969,"ç½®":970,"å½ķ":971,"ä¿®":972,"è´¨":973,"è¨":974,"äº²":975,"èĲ¨":976,"è¨Ģ":977,"çĶ·":978,"åĦ":979,"ar":980,"æºĲ":981,"ç¬¬äºĮ":982,"åŃĺ":983,"å¸Ŀ":984,"ä»£è¡¨":985,"éĹ®":986,"åĭĴ":987,"ä»Ĭ":988,"è¯Ħ":989,"åĽŃ":990,"æ¥":991,"en":992,"åħ·":993,"ç»Ļ":994,"æĬ¤":995,"ä¾Ľ":996,"éĽ·":997,"è¿ĲåĬ¨":998,"é¦Ĩ":999,"æŃ»":1000,"æĬķ":1001,"åħ«":1002,"çĪ±":1003,"æĶ¿æ²»":1004,"çĶ±äºİ":1005,"æ³ķåĽ½":1006,"éĢŁ":1007,"åħ¶ä»ĸ":1008,"åįĥ":1009,"åĩĨ":1010,"å®Ĺ":1011,"åį°":1012,"å¢ŀ":1013,"è¾ĥ":1014,"è¶ħ":1015,"ä¼¯":1016,"å¢ĥ":1017,"æ´Ľ":1018,"å¸Į":1019,"æ±Ĥ":1020,"åĬŁ":1021,"è§ģ":1022,"çĶµå½±":1023,"çĶ»":1024,"çļĦä¸Ģä¸ª":1025,"æ±ī":1026,"16":1027,"èĩ´":1028,"(),":1029,"åĿĩ":1030,"åįĩ":1031,"å¤ĩ":1032,"åı¦":1033,"è¯º":1034,"åĬ©":1035,"åį«":1036,"å·¥ä½ľ":1037,"åįļ":1038,"çĮ":1039,"çİĩ":1040,"èİ±":1041,"éĺ³":1042,"åĦ¿":1043,"è¾¹":1044,"ä¼Ĺ":1045,"å¥½":1046,"èĹ":1047,"é¥":1048,"åĥ":1049,"å®¢":1050,"å®¹":1051,"èĪª":1052,"ä¼¦":1053,"åĳĬ":1054,"198":1055,"æĹ©":1056,"æ¨¡":1057,"çª":1058,"ä¹Į":1059,"åĲī":1060,"è¯ķ":1061,"ä¿Ħ":1062,"ä½ľä¸º":1063,"ä»¥åıĬ":1064,"æİĴ":1065,"åī¯":1066,"èīº":1067,"æł·":1068,"æµİ":1069,"å¾Ī":1070,"çģ«":1071,"çİ¯":1072,"æķħ":1073,"å¡ŀ":1074,"æĪĳ":1075,"æĶ»":1076,"åĽ½éĻħ":1077,"é»Ħ":1078,"çĶ°":1079,"ç¾¤":1080,"å·±":1081,"èĬ±":1082,"åı¯èĥ½":1083,"æ¯į":1084,"ä¹Ŀ":1085,"çĪ¶":1086,"æĸ½":1087,"åĵį":1088,"çıŃ":1089,"èħ":1090,"åĽ´":1091,"ä¸Ńå¿ĥ":1092,"è¡¨ç¤º":1093,"17":1094,"æĬĢ":1095,"æķ´":1096,"é²ģ":1097,"æ²Ļ":1098,"ç»§":1099,"åĮ»":1100,"æĭħä»»":1101,"30":1102,"å¤±":1103,"å¸Ĥéķĩ":1104,"çŃĳ":1105,"èĲ½":1106,"çĹħ":1107,"ä¸Ńåįİ":1108,"åħ´":1109,"è¯ģ":1110,"ç»ĩ":1111,")ãĢģ":1112,"ç³»ç»Ł":1113,"æ¦":1114,"è´£":1115,"ä¹¡":1116,"å¿Ĺ":1117,"å¸Ń":1118,"éĩĩ":1119,"éĺ²":1120,"èĪ°":1121,"å®¤":1122,"èŃ":1123,"å±Ĥ":1124,"æīĺ":1125,"ä¸ŃçļĦ":1126,"éĿĴ":1127,"çĽŁ":1128,"ä¸ĥ":1129,"æĦŁ":1130,"èŃ¦":1131,"éľĢ":1132,"çĻ»":1133,"åĨł":1134,"æĹ¶éĹ´":1135,"çĭ¬":1136,"èĭ±åĽ½":1137,"è´Ł":1138,"åįĬ":1139,"éº":1140,"æ¹ĸ":1141,"æ¸¸æĪı":1142,"éĢļè¿ĩ":1143,"å£°":1144,"çĶµè§Ĩ":1145,"å§Ĩ":1146,"éĤ£":1147,"çĻ¾":1148,"éħį":1149,"ç¢":1150,"èĩªå·±":1151,"åıĮ":1152,"è½¦ç«Ļ":1153,"éĻĪ":1154,"æł¹æį®":1155,"al":1156,"åłĤ":1157,"é»ĳ":1158,"åıĳçİ°":1159,"æĺĵ":1160,"çĥŃ":1161,"çļĩ":1162,"åĨĻ":1163,"å½ĵæĹ¶":1164,"è¡ĮæĶ¿":1165,"(,":1166,"ç¡®":1167,"çº¢":1168,"çĬ¶":1169,"é£ŀ":1170,"åıĳå±ķ":1171,"æĪĲç«ĭ":1172,"æģ©":1173,"ä½ķ":1174,"å¤ı":1175,"æľŁéĹ´":1176,"æ·±":1177,"ä»į":1178,"èĢĥ":1179,"æŀģ":1180,"ä½ı":1181,"åįł":1182,"çħ":1183,"é±":1184,"åħ±åĴĮ":1185,"æ£®":1186,"è¡Ĺ":1187,"14":1188,"è¶Ĭ":1189,"éĻĲ":1190,"å¤®":1191,"å°Ħ":1192,"é¸":1193,"é±¼":1194,"çĶ²":1195,"åĲĮæĹ¶":1196,"æŃ¥":1197,"at":1198,"è®¾è®¡":1199,"ç¤¾ä¼ļ":1200,"âĢĶ":1201,"é£Ł":1202,"è®©":1203,"å»ºçŃĳ":1204,"äºİ19":1205,"åĥı":1206,"åŁĥ":1207,"è±¡":1208,"ä¹ĭä¸Ģ":1209,"æĽ¼":1210,"æĿĢ":1211,"å¯Ł":1212,"è´¹":1213,"èĮĥ":1214,"å±Ĭ":1215,"æİ§":1216,"æī¹":1217,"ç¥¨":1218,"ä»ħ":1219,"æ½":1220,"è´Ŀ":1221,"æĻ¯":1222,"ç»Ħç»ĩ":1223,"æĸĻ":1224,"æĤ":1225,"åŃ¦éĻ¢":1226,"å¥ĩ":1227,"es":1228,"ä¸įåĲĮ":1229,"æ´ĭ":1230,"å²ģ":1231,"åıĤåĬł":1232,"æµĭ":1233,"çķĻ":1234,"èĢģ":1235,"ä¸Ńå¤®":1236,"å§Ķåĳĺä¼ļ":1237,"è¿ª":1238,"åĨľ":1239,"æ¥¼":1240,"æĸĩåĮĸ":1241,"ä½İ":1242,"æŃ¢":1243,"ä¸ĸçºª":1244,"å·Ŀ":1245,"å½±åĵį":1246,"æ¯ĶèµĽ":1247,"èĥľ":1248,"éĿ©":1249,"è¯į":1250,"åĵ¥":1251,"ç§°ä¸º":1252,"å¾ĭ":1253,"çīĮ":1254,"é¡¿":1255,"æĥ³":1256,"å±ŀäºİ":1257,"æİĪ":1258,"for":1259,"æķĪ":1260,"13":1261,"åĺ":1262,"æ³°":1263,"è¾ĸ":1264,"ä¾¿":1265,"å¹³æĸ¹åħ¬éĩĮ":1266,"æ¤":1267,"æľ¨":1268,"éĻį":1269,"åĩł":1270,"ç§»":1271,"è¿°":1272,"çľŁ":1273,"ic":1274,"æħ":1275,"åģľ":1276,"æīį":1277,"æ°ı":1278,"éĵ¶":1279,"æ¡¥":1280,"()":1281,"èĴĻ":1282,"æĪ¿":1283,"å¿µ":1284,"æĺ¾":1285,"éŁ³ä¹Ĳ":1286,"æī¿":1287,"æĢģ":1288,"çĿĢ":1289,"è´¥":1290,"âĢĿ.":1291,"å©":1292,"ç´¢":1293,"æ¾":1294,"åħ±åĴĮåĽ½":1295,"åºķ":1296,"åº·":1297,"åºĵ":1298,"é¢Ħ":1299,"ä¸»ä¹ī":1300,"éŃ":1301,"mu":1302,"åŃ¦æł¡":1303,"å¾ģ":1304,"ç´ł":1305,"æ´»åĬ¨":1306,"çīĻ":1307,"è¾ĳ":1308,"çľĭ":1309,"å¼¹":1310,"åĶ±":1311,"åħ¸":1312,"ä½ľåĵģ":1313,"æŃ£å¼ı":1314,"æ¶Ī":1315,"æıĲä¾Ľ":1316,"åĪ©äºļ":1317,"ç®Ģ":1318,"è®¡åĪĴ":1319,"åĩºçİ°":1320,"ç½Ĺæĸ¯":1321,"è½½":1322,"ä¹ł":1323,"ä»ĸçļĦ":1324,"æīĢæľī":1325,"æģ¯":1326,"ä»·":1327,"å³":1328,"ä¹ĭéĹ´":1329,"éĻĦ":1330,"ç»ıæµİ":1331,"ç®¡çĲĨ":1332,"åıĳçĶŁ":1333,"æľĢç»Ī":1334,"éĵģè·¯":1335,"çłģ":1336,"ãĢį.":1337,"çĳŀ":1338,"æī§":1339,"æĹ¶æľŁ":1340,"è¿ľ":1341,"is":1342,"åĿ¦":1343,"æĪ·":1344,"ä¸Ģç§į":1345,"å¹²":1346,"åıĭ":1347,"åŁİå¸Ĥ":1348,"åĨµ":1349,"ç®Ĺ":1350,"ä¾§":1351,"æķĻèĤ²":1352,"ç¥ĸ":1353,"éĢĢ":1354,"éŁ©":1355,"å®Ī":1356,"æ»¡":1357,"åĲİæĿ¥":1358,"äºĳ":1359,"æ³¨":1360,"èĪ¹":1361,"mula":1362,"å½ĵåľ°":1363,"è¯·":1364,"è¯Ŀ":1365,"æ¸©":1366,"éĤ¦":1367,"formula":1368,"åĢĻ":1369,"ä½Ļ":1370,"ä½Ľ":1371,"æĲ":1372,"æĬĬ":1373,"ç«ł":1374,"ä¸ģ":1375,"ç²¾":1376,"it":1377,"æĬĹ":1378,"å®ģ":1379,"çĽĳ":1380,"197":1381,"åĪ¶ä½ľ":1382,"åł¡":1383,"194":1384,"20å¹´":1385,"æľĽ":1386,"am":1387,"æĹ§":1388,"è´Łè´£":1389,"å¾·åĽ½":1390,"å·¦":1391,"æĪĲåĳĺ":1392,"ä¸ĬçļĦ":1393,"æĭ¿":1394,"éĹ®é¢ĺ":1395,"æľĹ":1396,"éªĮ":1397,"he":1398,"åĬ¿":1399,"è¿Ľåħ¥":1400,"æĢĿ":1401,"ä¸´":1402,"è®¸å¤ļ":1403,"åĪĺ":1404,"å´":1405,"çªģ":1406,"é¹":1407,"çł´":1408,"å¿«":1409,"å®«":1410,"æĹħ":1411,"ä¾Ŀ":1412,"åİĭ":1413,"åºĦ":1414,"ç¬¬ä¸ī":1415,"åĲįä¸º":1416,"èİ«":1417,"æľĢåĲİ":1418,"ä¼¼":1419,"æĪĺäºī":1420,"å¯Į":1421,"ä¸ĢäºĽ":1422,"æ¢ħ":1423,"çĿ£":1424,"åĢ¼":1425,"åģļ":1426,"åħ¨åĽ½":1427,"æĶ¯æĮģ":1428,"å°ģ":1429,"èĹı":1430,"æ°¸":1431,"åĲ«":1432,"å»¶":1433,"æĸĹ":1434,"èĴĤ":1435,"50":1436,"æĭĶ":1437,"çĶŁæ´»":1438,"åĽłä¸º":1439,"åİħ":1440,"ä¹ĭåĲİ":1441,"åį¢":1442,"äººçļĦ":1443,"çħ§":1444,"äº¡":1445,"æľįåĬ¡":1446,"å¼Ĺ":1447,"éļ¾":1448,"le":1449,"åİĤ":1450,"ç»Ĩ":1451,"æ¾³":1452,"åĪ¤":1453,"æĵ":1454,"æł¸":1455,"æŀ¶":1456,"ä¸¹":1457,"å¤§çļĦ":1458,"éģĹ":1459,"ä¼¤":1460,"å°¼äºļ":1461,"å®£å¸ĥ":1462,"çļ®":1463,"èĻ½":1464,"å½Ĵ":1465,"åį°åº¦":1466,"åı³":1467,"ä¿Ħç½Ĺæĸ¯":1468,"å·²ç»ı":1469,"è¯Ĩ":1470,"åºĨ":1471,"åıĤä¸İ":1472,"åľ°æĸ¹":1473,"ä¸¾è¡Į":1474,"æĸŃ":1475,"åħ³ç³»":1476,"åıĳè¡Į":1477,"éĹ»":1478,"196":1479,"çĨ":1480,"è½®":1481,"é½":1482,"åı¶":1483,"ä¸½":1484,"æĿ°":1485,"åºĹ":1486,"æĸ¹éĿ¢":1487,"ç¤¼":1488,"åĶĲ":1489,"åĨ³å®ļ":1490,"å·¥ç¨ĭ":1491,"ï¼":1492,"éĩįè¦ģ":1493,"èĽ":1494,"è¶³çĲĥ":1495,"ro":1496,"åĮĹäº¬":1497,"åĪĩ":1498,"ä¸¤ä¸ª":1499,"ä¼ĺ":1500,"çŃĸ":1501,"ä¸¥":1502,"ä¸Ĭæµ·":1503,"åºŃ":1504,"èµ°":1505,"ãĢį,":1506,"å¿ħ":1507,"è¯»":1508,"æĭ¥":1509,"ç»Ŀ":1510,"éģŃ":1511,"0å¹´ä»£":1512,"å°ļ":1513,"èģĶåĲĪ":1514,"äººçī©":1515,"å¼Ĥ":1516,"re":1517,"åĺī":1518,"éĥ¡":1519,"äºĭä»¶":1520,"ç»ĥ":1521,"æį¢":1522,"åĮĹéĥ¨":1523,"åĨłåĨĽ":1524,"é©»":1525,"å½¹":1526,"èµ«":1527,"åŃ¦å®¶":1528,"èĬĤçĽ®":1529,"æ¤į":1530,"å²¸":1531,"éº¦":1532,"éĩİ":1533,"åŃ¦çĶŁ":1534,"å¼Ł":1535,"ä¼ļè®®":1536,"195":1537,"æ²¹":1538,"äººæ°ĳåħ±åĴĮåĽ½":1539,"æĬĢæľ¯":1540,"éĢĲ":1541,"åĶ®":1542,"èĥĮ":1543,"æ¯ķ":1544,"æĿ¾":1545,"åĪ°äºĨ":1546,"åĬłåħ¥":1547,"é³":1548,"å¯º":1549,"000":1550,"èī¾":1551,"èĵ":1552,"åį´":1553,"ä¿ĿæĬ¤":1554,"el":1555,"åĪĹè½¦":1556,"ä¹ħ":1557,"æĢ»ç»Ł":1558,"æ¬§æ´²":1559,"ç½²":1560,"2019":1561,"èı²":1562,"éļĨ":1563,"è®¾æľī":1564,"æĻļ":1565,"é¼":1566,"å¹³æĸ¹åįĥ":1567,"èĪ¬":1568,"st":1569,"åª":1570,"åĪĨåĪ«":1571,"æĿ¥èĩª":1572,"ç«¯":1573,"2020å¹´":1574,"çĽ®åīį":1575,"ç¯":1576,"æĺ¥":1577,"çŁŃ":1578,"éĢģ":1579,"åħ¹":1580,"åĪĨå¸ĥ":1581,"åħĭåħ°":1582,"éľĢè¦ģ":1583,"ç³»åĪĹ":1584,"ä¹ĺ":1585,"ä½³":1586,"å°½":1587,"æĿŁ":1588,"å®Ŀ":1589,"å®ĮæĪĲ":1590,"ä¸Ńåįİäººæ°ĳåħ±åĴĮåĽ½":1591,"éĢļå¸¸":1592,"é¡º":1593,"æ°ĳåĽ½":1594,"ä»Ģ":1595,"åĲĮå¹´":1596,"æ²¿":1597,"æľ«":1598,"æĹĹ":1599,"å»ºç«ĭ":1600,"åĲ¯":1601,"èįī":1602,"åįĹéĥ¨":1603,"åºı":1604,"åŃĺåľ¨":1605,"éĺ¶":1606,"éĺµ":1607,"èį¯":1608,"å¯¼èĩ´":1609,"èĢ¶":1610,"éĽĦ":1611,"éħĴ":1612,"æļ´":1613,"æĸ¯çī¹":1614,"æ¯Ľ":1615,"æĪĲåĬŁ":1616,"ion":1617,"æ³½":1618,"åħ¼":1619,"é¢ĳ":1620,"äºİ201":1621,"åħ±æľī":1622,"åĨ²":1623,"è½»":1624,"è¦ģæ±Ĥ":1625,"æĳĦ":1626,"çĭ¬ç«ĭ":1627,"è·Ŀ":1628,"çĦ¶èĢĮ":1629,"25":1630,"ç»ĦæĪĲ":1631,"ä¾ĭå¦Ĥ":1632,"æĳ©":1633,"è¿ĻäºĽ":1634,"æľĢé«ĺ":1635,"éĶĢ":1636,"æ¬¾":1637,"è¿Ļä¸ª":1638,"è¾ĵ":1639,"åįķä½į":1640,"èĻ½çĦ¶":1641,"æµ·æĭĶ":1642,"12æľĪ":1643,"å¼Ģåıĳ":1644,"æĭ¥æľī":1645,"å¸ķ":1646,"èĩªçĶ±":1647,"ãĢĭ(":1648,"ãĢĭãĢģ":1649,"çģµ":1650,"åŃĻ":1651,"ä¸ĵè¾ĳ":1652,"æĺ¯åľ¨":1653,"çŃ¾":1654,"åªĴ":1655,"çĽ¸åħ³":1656,"ä¹Įåħĭåħ°":1657,"ç±į":1658,"å©ļ":1659,"çİĽ":1660,"æĥħåĨµ":1661,"çĶ¨äºİ":1662,"ç½ª":1663,"193":1664,"é¡»":1665,"èīºæľ¯":1666,"æĺ¯ä¸Ģ":1667,"æĿĤ":1668,"äººåĳĺ":1669,"çº½":1670,"é¥°":1671,"æ£Ģ":1672,"éĽħ":1673,"et":1674,"é¡¶":1675,"çĲĥéĺŁ":1676,"âĢĿ,":1677,"éĢīä¸¾":1678,"å¯Ĩåº¦":1679,"æĿ¨":1680,"èģĶçĽŁ":1681,"éĩĩçĶ¨":1682,"æŀª":1683,"il":1684,"åĤ":1685,"æıĲåĩº":1686,"24":1687,"ä»ĭ":1688,"äºĨä¸Ģ":1689,"åīįå¾Ģ":1690,"åĬ³":1691,"ç§Ģ":1692,"åħį":1693,"ou":1694,"7æľĪ":1695,"çķ¥":1696,"åıĹåĪ°":1697,"æ²ĥ":1698,"å·®":1699,"æĭį":1700,"éĢı":1701,"è¿½":1702,"å®³":1703,"äº¿":1704,"æ¿":1705,"ãĢĭ,":1706,"å·¡":1707,"ol":1708,"æĸ¹å¼ı":1709,"9æľĪ":1710,"çĽĸ":1711,"åĩı":1712,"èĭ¥":1713,"è§Ĵèī²":1714,"è´¢":1715,"ä¸ºäºĨ":1716,"10æľĪ":1717,"éĴŁ":1718,"è¢Ń":1719,"8æľĪ":1720,"è¿ģ":1721,"éĩĬ":1722,"åĽ½æ°ĳ":1723,"äºĮåįģ":1724,"æĿ¿":1725,"èī¯":1726,"ac":1727,"å°¾":1728,"åĲ´":1729,"å¤§éĻĨ":1730,"è®Ń":1731,"èŀ":1732,"åħ·æľī":1733,"èį£":1734,"æĿ¯":1735,"åĲĪä½ľ":1736,"3æľĪ":1737,"è°·":1738,"çĪĨ":1739,"éħ¸":1740,"äº¤éĢļ":1741,"æķ£":1742,"æı´":1743,"æłĳ":1744,"æŃĮæĽ²":1745,"åĩºçīĪ":1746,"éĽĨåĽ¢":1747,"èģĶèµĽ":1748,"äº§çĶŁ":1749,"ç£":1750,"æĺł":1751,"çļĦå¤§":1752,"é¦ĸæ¬¡":1753,"å®ĭ":1754,"ä¼ģ":1755,"è¯ĳ":1756,"è´Ń":1757,"äºĪ":1758,"æķ°æį®":1759,"åĸĦ":1760,"±ä¹Ĳ":1761,"å¾®":1762,"é»İ":1763,"æ´¥":1764,"åħ¶ä¸Ń":1765,"èĤ¡":1766,"å°º":1767,"è¡¥":1768,"çī¹åĪ«":1769,"æ¯ķä¸ļ":1770,"è®¿":1771,"å±ĭ":1772,"ç»§ç»Ń":1773,"å®¡":1774,"è´µ":1775,"äºĴ":1776,"è¡Ģ":1777,"é«ĺåº¦":1778,"é¡¹çĽ®":1779,"ç»ĵæĿŁ":1780,"6æľĪ":1781,"æĻĭ":1782,"è½¨":1783,"çĶŁäº§":1784,"çĥĪ":1785,"åģĩ":1786,"åĽłæŃ¤":1787,"è®¯":1788,"éŁ¦":1789,"ãĥ":1790,"ãĢĭãĢģãĢĬ":1791,"åħ»":1792,"éĻ©":1793,"ç»ĵæŀĦ":1794,"èĩ£":1795,"5æľĪ":1796,"å¸ĿåĽ½":1797,"é¢Ŀ":1798,"æıı":1799,"æī©":1800,"23":1801,"éĥ¨éĺŁ":1802,"è¥¿äºļ":1803,"ä¸ªäºº":1804,"è¯Ńè¨Ģ":1805,"æķĳ":1806,"äººåı£å¯Ĩåº¦":1807,"æ¯Ĵ":1808,"æİ§åĪ¶":1809,"é²ľ":1810,"å¯¹äºİ":1811,"åĸľ":1812,"ç§ĳåŃ¦":1813,"æİ¥åıĹ":1814,"å½¢æĪĲ":1815,"ç«ŀ":1816,"1æľĪ":1817,"åıĸå¾Ĺ":1818,"ä»»ä½ķ":1819,"æĹ¶ä»£":1820,"æµ·åĨĽ":1821,"è¡ĮåĬ¨":1822,"ä¸»å¸Ń":1823,"åĮºåŁŁ":1824,"æĮ¥":1825,"å³°":1826,"éĿ¢ç§¯ä¸º":1827,"æķħäºĭ":1828,"å¤º":1829,"æĿľ":1830,"æ°ĳä¸»":1831,"èĪŀ":1832,"æ¦Ĥ":1833,"éĶ¦":1834,"è¯Ĺ":1835,"åĩºçĶŁ":1836,"æĹłæ³ķ":1837,"è®²":1838,"4æľĪ":1839,"éĢĤ":1840,"11æľĪ":1841,"éĢĶ":1842,"çļĦæĺ¯":1843,"ä¹Łæĺ¯":1844,"æĭľ":1845,"ä¸°":1846,"æľºæŀĦ":1847,"çİ©":1848,"çĶļ":1849,"å¢ŀåĬł":1850,"åĮºçļĦ":1851,"éĢłæĪĲ":1852,"40":1853,"2019å¹´":1854,"æľ±":1855,"å¸ģ":1856,"çĸĹ":1857,"é½Ĳ":1858,"æ¢ģ":1859,"èį·":1860,"è¾Ĩ":1861,"éĻĦè¿ĳ":1862,"ä¸»æķĻ":1863,"è¶ħè¿ĩ":1864,"çļĦäºº":1865,"ç§ĺ":1866,"å»·":1867,"é¢Ĩå¯¼":1868,"æĮī":1869,"ä¼łç»Ł":1870,"ç»ĵæŀľ":1871,"ç½Ĺé©¬":1872,"å¾Ħ":1873,"ä»¥ä¸ĭ":1874,"çĩ":1875,"å®¾":1876,"éļ¶":1877,"2021å¹´":1878,"ç¦ģ":1879,"æĴ¤":1880,"ä¸Ńåħ±":1881,"åĿĢ":1882,"æĿĲ":1883,"åįĪ":1884,"ing":1885,"è´§":1886,"åĩ¯":1887,"åĬ¨çī©":1888,"æ¸Ĳ":1889,"çĬ¯":1890,"èĥ¡":1891,"2022å¹´":1892,"as":1893,"åĨĽäºĭ":1894,"21":1895,"ç«¥":1896,"æķ¦":1897,"èĪªç©º":1898,"åľĨ":1899,"ä½©":1900,"çĽĬ":1901,"çļĦæĹ¶":1902,"ä»ª":1903,"å¤Ł":1904,"æłĩåĩĨ":1905,"om":1906,"åıĳå¸ĥ":1907,"5æĹ¥":1908,"èģļ":1909,"è°¢":1910,"100":1911,"æĸ°éĹ»":1912,"60":1913,"éª¨":1914,"æ··":1915,"çĮ®":1916,"çĽĽ":1917,"åĨħçļĦ":1918,"è¿Ķ":1919,"åıªæľī":1920,"ãĢĭ.":1921,"ä»ģ":1922,"éĥİ":1923,"çīĽ":1924,"çļĨ":1925,"æķ°éĩı":1926,"æŁĲ":1927,"è®¨":1928,"å°±æĺ¯":1929,"ç¿°":1930,"åĪĳ":1931,"ç©Ĩ":1932,"çĤ¸":1933,"æįķ":1934,"éĺ¿å°Ķ":1935,"å¨ľ":1936,"éĿ©åĳ½":1937,"èĮĥåĽ´":1938,"äºİ200":1939,"ch":1940,"å¤§åĪ©":1941,"å¸®":1942,"åªĴä½ĵ":1943,"ed":1944,"éĻ¤äºĨ":1945,"å®½":1946,"å¾ĹåĪ°":1947,"æľºåľº":1948,"å¥³æĢ§":1949,"èĮ¨":1950,"å®īåħ¨":1951,"è°ĥæŁ¥":1952,"è¿ĩç¨ĭ":1953,"è§ī":1954,"æİ¢":1955,"ä¹ĭåīį":1956,"æł¼åħ°":1957,"ç»ıè¿ĩ":1958,"çĤ®":1959,"æĻº":1960,"åºĻ":1961,"åĨħå®¹":1962,"åħ¬åĽŃ":1963,"çĪ¶äº²":1964,"å¹ķ":1965,"æĪª":1966,"åĲ¦":1967,"éģĩ":1968,"å¤ľ":1969,":âĢľ":1970,"(,),":1971,"éŁ©åĽ½":1972,"çĶ·åŃĲ":1973,"ä¹Ķ":1974,"åįģäºĮ":1975,"éľį":1976,"èµŀ":1977,"åħħ":1978,"èĶ":1979,"æĭ©":1980,"22":1981,"è½¯":1982,"éĩįæĸ°":1983,"å¥³åŃĲ":1984,"å¹³æĸ¹åįĥç±³":1985,"åĪ»":1986,"æīĢä»¥":1987,"éľ²":1988,"èµĽäºĭ":1989,"æĽ¿":1990,"7æĹ¥":1991,"ä¼ĳ":1992,"å°¤":1993,"ç§ģ":1994,"åĪº":1995,"ä½įç½®":1996,"å¹³åĿĩ":1997,"èĸ":1998,"å«":1999,"èĩªå·±çļĦ":2000,"çİī":2001,"è¿ĲåĬ¨åĳĺ":2002,"æŁĵ":2003,"çºªå¿µ":2004,"å±ħæ°ĳ":2005,"6æĹ¥":2006,"2010å¹´":2007,"ä¸ĢèĪ¬":2008,"é¸Ł":2009,"åĪĽä½ľ":2010,"åıĳè¡¨":2011,"åºŁ":2012,"ä¸ĢåĲį":2013,"ç¼º":2014,"éĿł":2015,"us":2016,"ä¸Ŀ":2017,"ãģ":2018,"éĴĪ":2019,"æķĮ":2020,"åĢŁ":2021,"æĺĮ":2022,"çİ°ä»£":2023,"è®¾ç«ĭ":2024,"ç»©":2025,"è¯ī":2026,"æºª":2027,"æĬµ":2028,"éĤ®":2029,"æľīéĻĲ":2030,"èģĶéĤ¦":2031,"åĲĽ":2032,"å·¨":2033,"èľ":2034,"åĲ¸":2035,"å®ĩ":2036,"è¥¿çıŃ":2037,"è·Ł":2038,"çĪµ":2039,"ä¹±":2040,"å±ŀçļĦ":2041,"èĵĿ":2042,"è¥¿çıŃçīĻ":2043,"éªĳ":2044,"å¾¡":2045,"28":2046,"å®ª":2047,"æĹ¶çļĦ":2048,"31":2049,"çľ¼":2050,"è®®ä¼ļ":2051,"åıįå¯¹":2052,"æ¼Ķåĳĺ":2053,"æ¤įçī©":2054,"ä¸ĢçĽ´":2055,"åĿ¡":2056,"æ®¿":2057,"åħ±äº§":2058,"æķĻæİĪ":2059,"æįŁ":2060,"å¾Ĵ":2061,"éĽª":2062,"æĿ¥çļĦ":2063,"å·¥ä¸ļ":2064,"åĽº":2065,"æ°ĳæĹı":2066,"è¯¸":2067,"ä¾µ":2068,"åĪĬ":2069,"çīĪæľ¬":2070,"åĮ¹":2071,"æľīåħ³":2072,"ç¬¬åĽĽ":2073,"éĢĥ":2074,"åħ¬è·¯":2075,"çĽ´æİ¥":2076,"çİ°åľ¨":2077,"éļĶ":2078,"2023å¹´":2079,"èª":2080,"å»ºè®¾":2081,"4æĹ¥":2082,"èģĮä¸ļ":2083,"æī¾":2084,"çİ¯å¢ĥ":2085,"è°ĭ":2086,"ä¸¾åĬŀ":2087,"èĦĳ":2088,"æ¶¯":2089,"éļıåĲİ":2090,"ä¸ŃåŃ¦":2091,"3æĹ¥":2092,"ä¹İ":2093,"éĢīæĭ©":2094,"åĨĽéĺŁ":2095,"çĹĩ":2096,"è¿ĺæľī":2097,"éĿŀå¸¸":2098,"ç¿»":2099,"æ¬¢":2100,"èĭıèģĶ":2101,"åıįåºĶ":2102,"ç¼ĸçłģ":2103,"ä½ł":2104,"çĶ³":2105,"åħ¬å¼Ģ":2106,"de":2107,"ä½ĵèĤ²":2108,"å£¤":2109,"éĥĳ":2110,"å²©":2111,"éĵ¶è¡Į":2112,"æ¦ľ":2113,"è£ģ":2114,"èµĦæĸĻ":2115,"åħ±åĲĮ":2116,"æ±ĩ":2117,"å½¢å¼ı":2118,"åĨ³èµĽ":2119,"ç©¿":2120,"æĪĺæĸĹ":2121,"è¡ĮæĺŁ":2122,"åħĦ":2123,"åı¬":2124,"éĥ½æĺ¯":2125,"åĨ°":2126,"æĺ¾ç¤º":2127,"éĤ»":2128,"æ¼«":2129,"åįıä¼ļ":2130,"2æľĪ":2131,"æĢ¥":2132,"æ¿Ģ":2133,"åĲįç§°":2134,".âĢĿ":2135,"è·Ŀç¦»":2136,"27":2137,"of":2138,"å¥ī":2139,"æĸ¹æ³ķ":2140,"ç»ľ":2141,"éķľ":2142,"æĪĪ":2143,"åŁ¹":2144,"un":2145,"åĶ¯":2146,"æİ¨åĩº":2147,"åĲįçļĦ":2148,"è¯¾":2149,"å°ıè¯´":2150,"ç¬¦":2151,"èĥŀ":2152,"åĪ©çĶ¨":2153,"å¤ļæķ°":2154,"åĲ¬":2155,"çĶŁæ¶¯":2156,"æ¯ģ":2157,"è®®åĳĺ":2158,"èĬ¬":2159,"è¿«":2160,"ç¾İåħĥ":2161,"çĽ´åĪ°":2162,"æĸ¯åĿ¦":2163,"ä¹¦è®°":2164,"ä¼ģä¸ļ":2165,"è®¢":2166,"è°Ī":2167,"åĳ¼":2168,"é»ĺ":2169,"åĮħåĲ«":2170,"èĩªæ²»":2171,"å¾ħ":2172,"æ³ķå¾ĭ":2173,"éĽ¨":2174,"éĨ":2175,"ä¸Ģèµ·":2176,"ç®¡è¾ĸ":2177,"æĮĩæĮ¥":2178,"åĳĪ":2179,"èĤ¯":2180,"St":2181,"è¿Ļä¸Ģ":2182,"åģ¥":2183,"å®Įåħ¨":2184,"ä¸»ä»»":2185,"æĢĢ":2186,"èĢ³":2187,"åı°åĮĹ":2188,"ä¸Ńåįİæ°ĳåĽ½":2189,"çĶŁçī©":2190,"æĸ°çļĦ":2191,"ï¼į":2192,"çĸĳ":2193,"æ³Ľ":2194,"å®¶åºŃ":2195,"èµµ":2196,"åĿļ":2197,"ä¸ľåĮĹ":2198,"ä¸įæĺ¯":2199,"26":2200,"æ³ķéĻ¢":2201,"äººç±»":2202,"èİī":2203,"éĻµ":2204,"æĦ¿":2205,"ent":2206,"âĢĶâĢĶ":2207,"ãĤ":2208,"and":2209,"æĵį":2210,"æĹĭ":2211,"æĪĳä»¬":2212,"å®¶æĹı":2213,"èĩªçĦ¶":2214,"å§ĵ":2215,"åı¦ä¸Ģ":2216,"æľīä¸Ģ":2217,"åŃ¦ä¹ł":2218,"åľ°çļĦ":2219,"åĨįæ¬¡":2220,"ri":2221,"2024å¹´":2222,"æ¶ī":2223,"çĶµåŃĲ":2224,"å¤§éĩı":2225,"æŀļ":2226,"æĮĩåĩº":2227,"é¢Ĺ":2228,"æĶ¿çŃĸ":2229,"åħ³äºİ":2230,"æĪ´":2231,"æ¯«":2232,"åŃ©":2233,"èĦ±":2234,"æī§è¡Į":2235,"åĬ¨çĶ»":2236,"çĶļèĩ³":2237,"åĪĨä¸º":2238,"2016å¹´":2239,"çĲĨè®º":2240,"35":2241,"è¡¨çİ°":2242,"èŀį":2243,":ãĢĮ":2244,"æľĪ1æĹ¥":2245,"åĲİçļĦ":2246,"å¿ħé¡»":2247,"åĮ»éĻ¢":2248,"29":2249,"æļĤ":2250,"åŁºç¡":2251,"åį±":2252,"ç»¿":2253,"ä»¥æĿ¥":2254,"è¡Įä¸º":2255,"å°ĨåĨĽ":2256,"å¦»":2257,"ç§ĭ":2258,"ä¸ľéĥ¨":2259,"çĽĺ":2260,"æľĢä½³":2261,"æģĴ":2262,"å¢ĥåĨħ":2263,"å°½ç®¡":2264,"2011å¹´":2265,"èĪį":2266,"ow":2267,"æīİ":2268,"æĢ§çļĦ":2269,"æľĢåĪĿ":2270,"åĿĲ":2271,"èĿ":2272,"é¡¾":2273,"æĸĩåŃ¦":2274,"åŁºç¡Ģ":2275,"æĶ¹ä¸º":2276,"åį·":2277,"æ¨ª":2278,"2018å¹´":2279,"ç¾½":2280,"æŁı":2281,"ä¸ŃåĽ½å¤§éĻĨ":2282,"ä¹Ī":2283,"åĬª":2284,"å®ĺæĸ¹":2285,"ç¿¼":2286,"ç´§":2287,"åįļçī©":2288,"èīĩ":2289,"åķĨä¸ļ":2290,"ç¯ĩ":2291,"çľģä»½":2292,"è¾Ľ":2293,"æĶ»åĩ»":2294,"æ»¨":2295,"æĦıå¤§åĪ©":2296,"è´¡":2297,"åħ¬åħ±":2298,"å¥ı":2299,"ä¹°":2300,"çī©ç§į":2301,"æŃ»äº¡":2302,"æĴŃåĩº":2303,"ur":2304,"æ¡ĳ":2305,"éĴ±":2306,"æĬ¥åĳĬ":2307,"ç±»ä¼¼":2308,"åĿı":2309,"æĻ®æŁ¥":2310,"éŃĶ":2311,"ç¼©":2312,"æľĿé²ľ":2313,"æĶ¿æ²»äººçī©":2314,"æ´ª":2315,"å¸Ĥåľº":2316,"2014å¹´":2317,"æĹ©æľŁ":2318,"èĥ½åĬĽ":2319,"¤Ĳ":2320,"æ½ľ":2321,"å®ŀéĻħ":2322,"äºļæ´²":2323,"èĨ":2324,"æııè¿°":2325,"å¢ĵ":2326,"ad":2327,"è¯¯":2328,"æ¼Ķåĩº":2329,"è§Ħæ¨¡":2330,"80":2331,"çº¦ç¿°":2332,"åĽ¢ä½ĵ":2333,"åĬłæĭ¿":2334,"éģ¿":2335,"å¿ł":2336,"åħ¨çĲĥ":2337,"ç»į":2338,"æ®ĸ":2339,"åİ»ä¸ĸ":2340,"æĭįæĳĦ":2341,"å¤ĦçĲĨ":2342,"æĺ¯ä¸Ģä¸ª":2343,"æłĸ":2344,"æµ·æĭĶé«ĺåº¦":2345,"çģŃ":2346,"ä¹ĭéĹ´çļĦ":2347,"è¥¿éĥ¨":2348,"å¤ĸäº¤":2349,"å¹¿ä¸ľ":2350,"ä¸ĭçļĦ":2351,"éľĩ":2352,"æµĻ":2353,"2017å¹´":2354,"2012å¹´":2355,"åĪ¶éĢł":2356,"éĵľ":2357,"2015å¹´":2358,"èĥ½å¤Ł":2359,"ä¸¥éĩį":2360,"å¤§ä¼ļ":2361,"å»ī":2362,"ç¦»å¼Ģ":2363,"ç«¹":2364,"çļĦåľ°":2365,"çĸ«":2366,"åŁºæľ¬":2367,"ãĢį(":2368,"å®ĹæķĻ":2369,"æģ¶":2370,"æ±½":2371,"å®ľ":2372,"è¿·":2373,"ig":2374,"ä¼į":2375,"çºªå½ķ":2376,"é³į":2377,"ä¸ºä¸»":2378,"ä½ľçĶ¨":2379,"è¿¹":2380,"è¿Ļç§į":2381,"éĹŃ":2382,"å¥Ĺ":2383,"2001å¹´":2384,"æĮģç»Ń":2385,"åĿĹ":2386,"åģı":2387,"å°ıæĹ¶":2388,"ä»ĺ":2389,"è®¡ç®Ĺ":2390,"2013å¹´":2391,"è·¯çº¿":2392,"2009å¹´":2393,"189":2394,"th":2395,"æī¬":2396,"åħ±äº§åħļ":2397,"äºĭåĬ¡":2398,"åŃĶ":2399,"è¯¥åĽ½":2400,"ç©ºéĹ´":2401,"çļĦä¸Ģä¸ªå¸Ĥéķĩ":2402,"èµĸ":2403,"è¡£":2404,"8æĹ¥":2405,"è¿İ":2406,"70":2407,"å°Ķæĸ¯":2408,"æ³ī":2409,"åĪļ":2410,"è¾ħ":2411,"the":2412,"å¸ĮæľĽ":2413,"ä»»åĬ¡":2414,"çĽ®æłĩ":2415,"æŀĲ":2416,"èĦī":2417,"ä¸īä¸ª":2418,"å¥¹çļĦ":2419,"æ±ł":2420,"ç»Łæ²»":2421,"æİ¥å£¤":2422,"èªī":2423,"ä¼°":2424,"åı¦å¤ĸ":2425,"æĸ¹åĲĳ":2426,"æ¸¡":2427,"æģĲ":2428,"ç¼ĺ":2429,"æĸĩçī©":2430,"ç¬¬åįģ":2431,"ä¸ľåįĹ":2432,"åĬŁèĥ½":2433,"èĳ£":2434,"éļľ":2435,"å¼ĥ":2436,"å¹´çļĦ":2437,"åįķæĽ²":2438,"éĺ¿æĭī":2439,"ãĢī":2440,"ãĢĪ":2441,"åĬłæĭ¿å¤§":2442,"çº½çº¦":2443,"å¢¨":2444,"éĶ¦æłĩ":2445,"æĭĽ":2446,"äº«":2447,"è·¨":2448,"è®¾æĸ½":2449,"æľĪåı°":2450,"èµ¤":2451,"å¯»":2452,"192":2453,"èµĽåŃ£":2454,"èħĬ":2455,"æĺ¯çĶ±":2456,"åīĳ":2457,"éĢıè¿ĩ":2458,"çĶĺ":2459,"äºķ":2460,"ä¿±ä¹Ĳ":2461,"è§Ħå®ļ":2462,"ä¸»æĮģ":2463,"éĶ¡":2464,"éŃı":2465,"çĲĥåĳĺ":2466,"éĢĬ":2467,"ä¿±ä¹Ĳéĥ¨":2468,"éĺ»":2469,"åĪĨå¸ĥäºİ":2470,"ä»įçĦ¶":2471,"åįļçī©é¦Ĩ":2472,"éĢīåĮº":2473,"åıĺåĮĸ":2474,"æĥł":2475,"åĲĪå¹¶":2476,"è´¸":2477,"è§£æĶ¾":2478,"åĽ½çİĭ":2479,"çĳŁ":2480,"ä¸Ģæ¬¡":2481,"é¢ģ":2482,"åħ¬å¸ĥ":2483,"å·´å£«":2484,"å¼ĢæĶ¾":2485,"å¹¿æĴŃ":2486,"åĨ¬":2487,"åħĭæĸ¯":2488,"ç»ĺ":2489,"å¦Ĥæŀľ":2490,"åħĭéĩĮ":2491,"äº®":2492,"2008å¹´":2493,"ä»ĸåľ¨":2494,"èĤī":2495,"è¾¾åĪ°":2496,"å®ŀéªĮ":2497,"èµ¢":2498,"ä¹Łæľī":2499,"åĶ¯ä¸Ģ":2500,"åİŁåĽł":2501,"è¸":2502,"å½ĵä¸Ń":2503,"éĢĲæ¸Ĳ":2504,"æį·":2505,"èıĮ":2506,"åıĳåĬ¨":2507,"éĥ¨éķ¿":2508,"äººåı£æĻ®æŁ¥":2509,"çĥŃå¸¦":2510,"çº²":2511,"åĦ¿åŃĲ":2512,"ç»¼":2513,"é©¬æĿ¥":2514,"åĵ²":2515,"çŁ¿":2516,"è¿ŀæİ¥":2517,"å½ĵéĢī":2518,"45":2519,"æ¨¡å¼ı":2520,"å¾Ĳ":2521,"ç¹":2522,"å¤§åĮº":2523,"è¾ŀ":2524,"ç¬¬ä¸Ģæ¬¡":2525,"ä¸ľäº¬":2526,"åı·çº¿":2527,"çģ¾":2528,"èĴĻåı¤":2529,"è¿ĲåĬ¨ä¼ļ":2530,"å®ļä¹ī":2531,"id":2532,"æľīéĻĲåħ¬åı¸":2533,"os":2534,"çĽ¸å½ĵ":2535,"éĺ´":2536,"èĽĭ":2537,"åĲĦç§į":2538,"è®Ńç»ĥ":2539,"æ´ŀ":2540,"ç¨³":2541,"ç»Ĩèĥŀ":2542,"æ½®":2543,"çĽ¸åĲĮ":2544,"ra":2545,"åĩ»è´¥":2546,"å¦ĩ":2547,"åıĻ":2548,"æ¼ĶåĶ±":2549,"é£İæł¼":2550,"å¤ªå¹³":2551,"çĬ¹":2552,"å¤ªéĺ³":2553,"å¦¹":2554,"190":2555,"èĢħçļĦ":2556,"ç¹ģ":2557,"IN":2558,"æ°§":2559,"éģĵè·¯":2560,"ä½Ĳ":2561,"ct":2562,"æĪĲç»©":2563,"48":2564,"æļĹ":2565,"æŃĮæīĭ":2566,"æİĮ":2567,"TC":2568,"æĭĴ":2569,"å¥¥è¿Ĳ":2570,"æ»ĳ":2571,"åı¸ä»¤":2572,"æģ¢":2573,"çİ©å®¶":2574,"ä¸ĵä¸ļ":2575,"å¹¶ä¸į":2576,"éĺ¶æ®µ":2577,"äººå£«":2578,"ter":2579,"éĴ¢":2580,"è¥¿åįĹ":2581,"åĢĴ":2582,"2025å¹´":2583,"åĨ·":2584,"åĨĮ":2585,"æī¹è¯Ħ":2586,".ãĢį":2587,"è¥¿åĮĹ":2588,"èĻİ":2589,"çĲ´":2590,"ä¸įåĲĮçļĦ":2591,"ç§Ł":2592,"å»ºéĢł":2593,"ä¸Ģæł·":2594,"è®¾ç½®":2595,"äº§åĵģ":2596,"ä¼Ĳ":2597,"âĢĵ":2598,"åĬŀåħ¬":2599,"è½¨éģĵ":2600,"æĺĤ":2601,"ç¨İ":2602,"é©±":2603,"ä¿Ĺ":2604,"å¾½":2605,"äºİ199":2606,"ä¸įè¿ĩ":2607,"è¡ĮæĶ¿åĮº":2608,"çıł":2609,"è¢«ç§°ä¸º":2610,"éº»":2611,"èīĺ":2612,"å¥Ī":2613,"éĶĻ":2614,"ç¡¬":2615,"åĿĳ":2616,"èĥĮæĻ¯":2617,"åľĪ":2618,"å®ļçļĦ":2619,"å¹¼":2620,"åĳ³":2621,"çĶº":2622,"çĪĨåıĳ":2623,"å½¼":2624,"æµĻæ±Ł":2625,"åĪĨéĴŁ":2626,"å°ıè¡ĮæĺŁ":2627,"æĤ£":2628,"çļĦä¸Ģéĥ¨åĪĨ":2629,"éĺģ":2630,"èĳ¡":2631,"å¢Ļ":2632,"å½©":2633,"ä¼¦æķ¦":2634,"ä¹Ļ":2635,"90":2636,"åŃ¦èĢħ":2637,"å¤§æĪĺ":2638,"æµ¦":2639,"æģ¢å¤į":2640,"åºĶçĶ¨":2641,"å¸ĮèħĬ":2642,"ä¸īåįģ":2643,"æĶ¹éĿ©":2644,"çļĦä¸»":2645,"åįĸ":2646,"æ¯įäº²":2647,"è§¦":2648,"9æĹ¥":2649,"èº«ä»½":2650,"çº¸":2651,"å¯¿":2652,"um":2653,"36":2654,"éĥ¨éĹ¨":2655,"èŃ¦å¯Ł":2656,"æİĴåĲį":2657,"ç¬Ķ":2658,"å±±ä¸ľ":2659,"è±ª":2660,"åĽ°":2661,"æ®ĭ":2662,"é£ŀæľº":2663,"im":2664,"åĪ¶åº¦":2665,"åīĤ":2666,"ä¸Ģä½į":2667,"éĿĴå¹´":2668,"ä¸įèĥ½":2669,"èİİ":2670,"èķ":2671,"ä¿ĥ":2672,"ä¸ĭè¾ĸ":2673,"è¯Ħè®º":2674,"è¿Ľå£«":2675,"ç²ī":2676,"æĽ¾ç»ı":2677,"æľĢå¤§":2678,"âĢ¦":2679,"æĬķèµĦ":2680,"èĦļ":2681,"éĢĿ":2682,"é«ĺéĢŁ":2683,"ç½ĳç»ľ":2684,"ir":2685,"å¤ıåŃ£":2686,"ot":2687,"è£Ĥ":2688,"è®°è½½":2689,"æ¡£":2690,"æ¥ļ":2691,"æµª":2692,"èµı":2693,"æ¢¦":2694,"å°Ĩåħ¶":2695,"å¯¼æ¼Ķ":2696,"38":2697,"åĮĸåŃ¦":2698,"æ²ī":2699,"èµĦæł¼":2700,"éĽ¶":2701,"å¤©æ´¥":2702,"od":2703,"å¹¿å·ŀ":2704,"æĺŃ":2705,"äº¨":2706,"ãĢįãĢģ":2707,"æŁ±":2708,"æĭŁ":2709,"å¾Īå¤ļ":2710,"åģ¶":2711,"åĨĪ":2712,"å°Ĭ":2713,"çĶµè§Ĩåı°":2714,"å¸®åĬ©":2715,"åįļå£«":2716,"éĤĢ":2717,"çļĦæĸ°":2718,"çĽĲ":2719,"2007å¹´":2720,"å¼±":2721,"è®·":2722,"çĸĨ":2723,"åı«":2724,"ç¬¬äºĶ":2725,"éĻ·":2726,"åħ¨éĥ¨":2727,"åĪĨåŃĲ":2728,"å´ĩ":2729,"æģĭ":2730,"ä»Ļ":2731,"æ¶ħ":2732,"çĭ±":2733,"çĴ":2734,"è¯Ĭ":2735,"ation":2736,"37":2737,"ç¾¤å²Ľ":2738,"äºİ18":2739,"éĿĻ":2740,"å¥¥æŀĹ":2741,"ä»»åĳ½":2742,"éĻĨåĨĽ":2743,"åĨľä¸ļ":2744,"æĿĤå¿Ĺ":2745,"æ±Ĺ":2746,"ç»ķ":2747,"åŁºçĿ£":2748,"é¤Ĳ":2749,"In":2750,"çļĦçī¹":2751,"ä¸įä¼ļ":2752,"åħ¬å°º":2753,"æķ´ä¸ª":2754,"åĲįåŃĹ":2755,"è£Ķ":2756,"ve":2757,"åĲķ":2758,"ç®Ģç§°":2759,"çĶ·æĢ§":2760,"ç«ĭæ³ķ":2761,"æ¶²":2762,"èļ":2763,"å¤ļæ¬¡":2764,"ç¥Ń":2765,"é¢ĨåŁŁ":2766,"èµ¢å¾Ĺ":2767,"å»ºè®®":2768,"åıĬåħ¶":2769,"è´Ŀå°Ķ":2770,"ä½ľå®¶":2771,"é¼ĵ":2772,"ç¬¬äºĮæ¬¡":2773,"ä¾¯":2774,"æ©":2775,"è¿ŀç»Ń":2776,"åĪĨæŀĲ":2777,"è¡¨æ¼Ķ":2778,"çĸ¾":2779,"ä¼´":2780,"ä¼Ł":2781,"åįĹäº¬":2782,"ia":2783,"ä»ĸä»¬çļĦ":2784,"éĶ¦æłĩèµĽ":2785,"åĲĮæł·":2786,"èĻĳ":2787,"å¹¿åľº":2788,"å¥¥æŀĹåĮ¹":2789,"æĢ»äººåı£":2790,"ç»ıå¸¸":2791,"åĩºçļĦ":2792,"åĪĻæĺ¯":2793,"ä¸ĺ":2794,"åĽĽå·Ŀ":2795,"åĮºä¸º":2796,"åħĪåĲİ":2797,"åıĳå°Ħ":2798,"ä¸Ńéĥ¨":2799,"äºīè®®":2800,"500":2801,"åĩ¤":2802,"å¹ħ":2803,"åľ°ä¸ĭ":2804,"é¢ľ":2805,"éĥŃ":2806,"åľ°çĲĥ":2807,"æĭĨ":2808,"çī§":2809,"çŃīäºº":2810,"éĢŁåº¦":2811,"æĪªèĩ³":2812,"è®°å½ķ":2813,"è®¾å¤ĩ":2814,"é©¶":2815,"ç¦ıå»º":2816,"äººä»¬":2817,"ç»´å°Ķ":2818,"æĲŃ":2819,"åĩºä»»":2820,"ä¿ĿæĮģ":2821,"åľ°åĮºçļĦ":2822,"æĿ¡ä»¶":2823,"å¼ķèµ·":2824,"æ°´åŁŁ":2825,"2006å¹´":2826,"ç»ª":2827,"æĭīæĸ¯":2828,"çľģçļĦä¸Ģä¸ªå¸Ĥéķĩ":2829,"è§ĦåĪĴ":2830,"æĹ¥åĨĽ":2831,"ä¼Ĭæĸ¯":2832,"æŁ¯":2833,"æ²³åįĹ":2834,"åıĤèµĽ":2835,"ä¿¡æģ¯":2836,"éģŃåĪ°":2837,"å¹³åı°":2838,"å±ħä½ı":2839,"å¤ıä»¤":2840,"å¤ļçļĦ":2841,"è¯¥åľ°":2842,"é£ŀè¡Į":2843,"UTC":2844,"åĤ¨":2845,"ç»Łè®¡":2846,"è¢Ńåĩ»":2847,"åĨħéĥ¨":2848,"çĽ¸å¯¹":2849,"å¹¿æ³Ľ":2850,"èĻ«":2851,"çī©çĲĨ":2852,"è¿ĩåİ»":2853,"æķĻåłĤ":2854,"å®ĺåĳĺ":2855,"è¶ĬåįĹ":2856,"ST":2857,"èĩ³ä»Ĭ":2858,"ä¸ĢæŃ¥":2859,"æĪĺå½¹":2860,"2005å¹´":2861,"æĭĴç»Ŀ":2862,"èĶ¡":2863,"æĸ¯ç§ĳ":2864,"å¤ļä¸ª":2865,"æ£Ĵ":2866,"èĭ±æĸĩ":2867,"è´¸æĺĵ":2868,"åħģ":2869,"è§Ī":2870,"æłĸæģ¯":2871,"çĵ¦å°Ķ":2872,"å¥¥æŀĹåĮ¹åħĭ":2873,"åŁİåĮº":2874,"èĲĦ":2875,"æ¯Ķäºļ":2876,"èĳ¡èĲĦ":2877,"å¹¸":2878,"æĺİæľĿ":2879,"ç³ĸ":2880,"åĦ¿ç«¥":2881,"ag":2882,"æµģè¡Į":2883,"æľĢæĹ©":2884,"åĩ½":2885,"å¡ŀå°Ķ":2886,"ç§¦":2887,"æ·¡":2888,"åıĸä»£":2889,"æľĪ21":2890,"æĹģ":2891,"é¢ĳéģĵ":2892,"æ¼«çĶ»":2893,"é¥°æ¼Ķ":2894,"éĻ¶":2895,"è¿Ŀ":2896,"ç¾İæ´²":2897,"æľªèĥ½":2898,"æ³¢åħ°":2899,"ç»ıåİĨ":2900,"è¡Ĺéģĵ":2901,"æ±¤":2902,"ç¢ĳ":2903,"çļĦä¸»è¦ģ":2904,"æľĪ22":2905,"åĩłä¹İ":2906,"æĮĳ":2907,"å·´é»İ":2908,"æ¦Ĥå¿µ":2909,"èĻļ":2910,"éŀ":2911,"å®ŀçİ°":2912,"æĮ¯":2913,"âĢĿ(":2914,"ç½ĳç«Ļ":2915,"å¤Ħäºİ":2916,"æľĢå¤§çļĦ":2917,"å·¦åı³":2918,"é¾Ħ":2919,"çĦ¶åĲİ":2920,"è®°èĢħ":2921,"å®ŀæĸ½":2922,"åįıåĬ©":2923,"å®¿":2924,"åĩıå°ĳ":2925,"æĶ¹åıĺ":2926,"èİ·å¾ĹäºĨ":2927,"è§Ĩä¸º":2928,"è·ĳ":2929,"ä¾į":2930,"è¿Ī":2931,"æ®Ĭ":2932,"è½¦è¾Ĩ":2933,"èĳ¬":2934,"åľ°éĵģ":2935,"ä¼¸":2936,"éķ¿æľŁ":2937,"å±ķå¼Ģ":2938,"çĨĻ":2939,"åĪĨç±»":2940,"çļĩå¸Ŀ":2941,"è¿Ĳè¾ĵ":2942,"æĺĨ":2943,"ç§ĳæĬĢ":2944,"å¤§éĥ¨åĪĨ":2945,"èĭ±æł¼åħ°":2946,"åĩºçĶŁäºİ":2947,"éķ¿çļĦ":2948,"å½±çīĩ":2949,"ç±»åŀĭ":2950,"op":2951,"ä¼ļåľ¨":2952,"ä¹ĥ":2953,"èĮ¶":2954,"çĬ¶æĢģ":2955,"çļĦæĹ¶åĮºä¸º":2956,"æ¯Ķè¾ĥ":2957,"éģį":2958,"ç¬¬ä¸Ģä¸ª":2959,"ç»ıèĲ¥":2960,"åįłé¢Ĩ":2961,"åİ¿çļĦ":2962,"åī§æĥħ":2963,"æ¾³éĹ¨":2964,"çº¿çļĦ":2965,"æĬķç¥¨":2966,"ç»§æī¿":2967,"å®ħ":2968,"ä½ľæĪĺ":2969,"çĥ§":2970,"åĽ½çļĦ":2971,"æ²»çĸĹ":2972,"æŃ¦åĻ¨":2973,"éĻĲåĪ¶":2974,"34":2975,"åįģä¸Ģ":2976,"br":2977,"ä¸ļåĬ¡":2978,"åŁºäºİ":2979,"èį·åħ°":2980,"çŃ¹":2981,"è§£åĨ³":2982,"çº¯":2983,"å¤©ä¸»æķĻ":2984,"çĩĥ":2985,"èĪ°éĺŁ":2986,"å¨ģå»ī":2987,"è½°":2988,"åĴĮå¹³":2989,"å¦®":2990,"éĶ®":2991,"å®£ä¼ł":2992,"li":2993,"çº¿è·¯":2994,"åĭĭ":2995,"çıį":2996,"SE":2997,"çģ¯":2998,"åľŁåľ°":2999,"åİ¦":3000,"åĩĨå¤ĩ":3001,"ub":3002,"ç´¯":3003,"éĽķ":3004,"å²Ń":3005,"åĿĽ":3006,"èµĦæºĲ":3007,"The":3008,"è¾½":3009,"éļĲ":3010,"æĬĺ":3011,"çļĦæķ°æį®":3012,"åĭĩ":3013,"39":3014,"åĩºäºĨ":3015,"è¡¡":3016,"se":3017,"ä½ĵçļĦ":3018,"ay":3019,"æĸ¹æ¡Ī":3020,"èıľ":3021,"æĿ¥æºĲ":3022,"ç»Łä¸Ģ":3023,"è¯Ħä»·":3024,"çĤİ":3025,"è¯ķåĽ¾":3026,"é½¿":3027,"æ¸ħæľĿ":3028,"çĶµè§Ĩåī§":3029,"å³¡":3030,"æ±½è½¦":3031,"åİŁæľ¬":3032,"II":3033,"æ¾³å¤§":3034,"å¤§çº¦":3035,"å®ĥä»¬":3036,"æĸ¯çļĦ":3037,"åħ´å»º":3038,"åŃŁ":3039,"åħĦå¼Ł":3040,"çļĦæĥħåĨµ":3041,"éĵģéģĵ":3042,"éĢīæīĭ":3043,"äººåľ¨":3044,"çł´åĿı":3045,"ãĢįãĢģãĢĮ":3046,"éģ£":3047,"é©¬æĿ¥è¥¿äºļ":3048,"åįıè®®":3049,"ç£ģ":3050,"æīĢåľ¨":3051,"èĲ§":3052,"éĤ®æĶ¿":3053,"75":3054,"çĲ³":3055,"åĽŀåĪ°":3056,"Ch":3057,"è½´":3058,"æķ¬":3059,"éļıèĳĹ":3060,"åĶ±çīĩ":3061,"ä¸ºæ¯ı":3062,"è¿Ľä¸ĢæŃ¥":3063,"å£ģ":3064,"åĪĿæľŁ":3065,"çļĦå½±åĵį":3066,"è¿Ĳè¡Į":3067,"..":3068,"46":3069,"é¥®":3070,"ä¸»è§Ĵ":3071,"æĽ¹":3072,"è¦":3073,"æĶ¹ç¼ĸ":3074,"çĬ¹å¤ª":3075,"æħĪ":3076,"ç®Ń":3077,"è¿ĽæĶ»":3078,"èĩªåĬ¨":3079,"å¹»":3080,"è¡Ķ":3081,"å¨±ä¹Ĳ":3082,"è¿ĺæĺ¯":3083,"ç²¾ç¥ŀ":3084,"æķı":3085,"å°ıåŃ¦":3086,"èµł":3087,"ç»´æĮģ":3088,"éĴĪå¯¹":3089,"ä¸Ńæĸĩ":3090,"è§Ĥä¼Ĺ":3091,"æ¢°":3092,"åŁºéĩĳ":3093,"em":3094,"è´¤":3095,"æ²Ī":3096,"åıĽ":3097,"è¿Ľè¡ĮäºĨ":3098,"åŁİéķĩ":3099,"æľºè½¦":3100,"188":3101,"å¤§æ¥¼":3102,"çĶŁäºİ":3103,"ç»ĦåĲĪ":3104,"ä»Ķ":3105,"æĢ»éĿ¢ç§¯":3106,"è¿ĲèĲ¥":3107,"è´¾":3108,"ä¸»é¢ĺ":3109,"äººåı£æķ°éĩı":3110,"åľ¨æŃ¤":3111,"è¾Ĳ":3112,"ä¸įä¹ħ":3113,"éĶĭ":3114,"ç¯®":3115,"çī¹å¾ģ":3116,"çľģçº§":3117,"å§Ĳ":3118,"æŃ£åľ¨":3119,"çº¹":3120,"å¤ªå¹³æ´ĭ":3121,".ãĢĬ":3122,"éĥ¨ä»½":3123,"åĬłä¸Ĭ":3124,"å·ŀçļĦ":3125,"èĹ¤":3126,"è¢«è®¤ä¸º":3127,"çģ°":3128,"äº¤æĺĵ":3129,"oc":3130,"ver":3131,"éĿ¢çļĦ":3132,"ç©ºåĨĽ":3133,"ç»¼åĲĪ":3134,"åĨ¯":3135,"å¤§åŀĭ":3136,"è´Łè´£ç®¡è¾ĸ":3137,"åıĮæĸ¹":3138,"éĤĵ":3139,"ç¡®å®ļ":3140,"éĻķ":3141,"æ¾³å¤§åĪ©äºļ":3142,"èµ´":3143,"æķĻä¼ļ":3144,"%.":3145,"çŃĶ":3146,"æľīçļĦ":3147,"è§£éĩĬ":3148,"ç¾İåĽ½äººåı£æĻ®æŁ¥":3149,"è¯ģæĺİ":3150,"åĽ¾ä¹¦":3151,"ä»·åĢ¼":3152,"è¿ĶåĽŀ":3153,"èĳ£äºĭ":3154,"è¦Ĩ":3155,"åĲįåįķ":3156,"åİļ":3157,"æīĢå±ŀçļĦ":3158,"å¾·éĩĮ":3159,"æĦŁæŁĵ":3160,"åĪĢ":3161,"ç¨ĭåº¦":3162,"äºĳåįĹ":3163,"ä»°":3164,"32":3165,"æ³³":3166,"è°±":3167,"æ¹ĸåįĹ":3168,"æ³ķåħ°":3169,"ä¸»æ¼Ķ":3170,"çļĩå®¶":3171,"æ²³æµģ":3172,"çĥŁ":3173,"åĢį":3174,"å°ıç»Ħ":3175,"çİĭæľĿ":3176,"çļĦåīį":3177,"åħĥç´ł":3178,"å¼ķåıĳ":3179,"å°Ķå¾·":3180,"å¥³åĦ¿":3181,"åĩŃ":3182,"ä¿ĿçķĻ":3183,"çºµ":3184,"ap":3185,"æĹħæ¸¸":3186,"æľĭ":3187,"æ¨¡åŀĭ":3188,"é¦ĸéĥ½":3189,"åħ¬åħĥ":3190,"å¸¸è§ģ":3191,"è¶ħçº§":3192,"é¬":3193,"æĺ¯ä¸Ģç§į":3194,"è´¢æĶ¿":3195,"èĴĭ":3196,"æ²Ł":3197,"ä¸´æĹ¶":3198,"äººåı£æķ°éĩıä¸º":3199,"åĩºèº«":3200,"çķª":3201,"åĬłåĿ¡":3202,"ut":3203,"å¤©æĸĩ":3204,"æī¹åĩĨ":3205,"é«ĺçº§":3206,"åĨ²çªģ":3207,"åĽ½éĺ²":3208,"ç½ķ":3209,"è®¨è®º":3210,"å°ĸ":3211,"åĬĽéĩı":3212,"æĺ¯åĲ¦":3213,"ç¬¬åħŃ":3214,"20ä¸ĸçºª":3215,"ä½ĽæķĻ":3216,"åĽ½ä¼ļ":3217,"çĳŀå£«":3218,"åĲĮæĦı":3219,"åĽ½æ°ĳåħļ":3220,"åĽ½åĨħ":3221,"æ¯ıå¹´":3222,"éĩįè¦ģçļĦ":3223,"äºĨä¸Ģä¸ª":3224,"çłĶç©¶æīĢ":3225,"åı¥":3226,"éĿĸ":3227,"æľºåħ³":3228,"300":3229,"è¶£":3230,"é©¾":3231,"å¹´è½»":3232,"å¤§èĩ£":3233,"æ¡ĥ":3234,"è®®éĻ¢":3235,"2004å¹´":3236,"ç»ĵåĲĪ":3237,"çļĦä¸Ģç§į":3238,"åĩ¡":3239,"äº§ä¸ļ":3240,"å·ŀå¸Ĥ":3241,"è¾ī":3242,"äºĮä¸ĸ":3243,"è·³":3244,"æĸĩçī©ä¿ĿæĬ¤":3245,"åĬĽçļĦ":3246,"æĸ°åĬłåĿ¡":3247,"æŁ´":3248,"è¿ħ":3249,"æĽ¾åľ¨":3250,"å¤ĸçļĦ":3251,"åİ¿çļĦä¸Ģä¸ª":3252,"æŃ¦è£ħ":3253,"æĹº":3254,"åĽ½ç«ĭ":3255,"æĻ®éĢļ":3256,"ä¸Ĭæĺł":3257,"2000å¹´":3258,"ç¼ĵ":3259,"çĨŁ":3260,"ä¸ªæľĪ":3261,"éĽĨä¸Ń":3262,"ç§ĺä¹¦":3263,"å»ºæĪĲ":3264,"ä¸Ģå¹´":3265,"åŁĶ":3266,"æ°ĶåĢĻ":3267,"åįģä¸ī":3268,"æİª":3269,"æĸ¯åŁº":3270,"è§£æĶ¾åĨĽ":3271,"å¤§ä½¿":3272,"ç¥¥":3273,"éģĤ":3274,"æĺŁæľŁ":3275,"å¥½çļĦ":3276,"æ§":3277,"æĶ¶åħ¥":3278,"åıĸæ¶Ī":3279,"ç¼ĸåı·":3280,"äººæķ°":3281,"åľ¨ç¾İåĽ½":3282,"æ½ĺ":3283,"å°ĶçļĦ":3284,"ä¸ĸçķĮå¤§æĪĺ":3285,"æĸĩä»¶":3286,"æĬķåħ¥":3287,"å¿«éĢŁ":3288,"æī¿è®¤":3289,"ans":3290,"è¥¿æ´ĭ":3291,"åı¯è¾¾":3292,"èŃ¦æĸ¹":3293,"ant":3294,"éĿŀæ´²":3295,"(\"":3296,"æĢ»éĥ¨":3297,"å·´è¥¿":3298,"ç»´äºļ":3299,"ãĢģãĢģ":3300,"èĩ³å°ĳ":3301,"æł¸å¿ĥ":3302,"é¹¿":3303,"å¿Ĩ":3304,"å¤§å¤ļæķ°":3305,"éļıçĿĢ":3306,"æĸĩçī©ä¿ĿæĬ¤åįķä½į":3307,"è©":3308,"65":3309,"ä»ĵ":3310,"æĿ¡çº¦":3311,"47":3312,"åĭ¤":3313,"é£İæļ´":3314,"åĽ½åĬ¡":3315,"ä¹ı":3316,"èĭĹ":3317,"ä¸įæĸŃ":3318,"èĥľåĪ©":3319,"è¿Ļæł·":3320,"ä¸įå°ĳ":3321,"èī²åĪĹ":3322,"æĢ»çĲĨ":3323,"èĭ±è¯Ń":3324,"æĸ¯åħĭ":3325,"èĳĹä½ľ":3326,"ce":3327,"åŃĿ":3328,"åİĦ":3329,"191":3330,"ç¼ħ":3331,"åĪĽç«ĭ":3332,"æ³Ĭ":3333,"åŃĲçļĦ":3334,"éĩįå»º":3335,"9æľĪ2":3336,"10æľĪ2":3337,"è©¹":3338,"æĹ¶ä»»":3339,"ç§Ĵ":3340,"ä»İäºĭ":3341,"å¥¥æŀĹåĮ¹åħĭè¿ĲåĬ¨ä¼ļ":3342,"æľªæĿ¥":3343,"æľīæķĪ":3344,"å¥¥æĸ¯":3345,"è®¿éĹ®":3346,"åĽ¢éĺŁ":3347,"og":3348,"è´¯":3349,"çĮİ":3350,"çĹħæ¯Ĵ":3351,"åħ¬æ°ĳ":3352,"è¥¿çľģ":3353,"æ°ĳä¼Ĺ":3354,"åįĬå²Ľ":3355,"æ±Łèĭı":3356,"ä¸Ģåº§":3357,"çļĦå¸Ĥéķĩ":3358,"èİ²":3359,"ä¸ŃåĽ½äººæ°ĳ":3360,"æĶ¶å½ķ":3361,"æħķ":3362,"åħģè®¸":3363,"é©¬åħĭ":3364,"å¹´åº¦":3365,"æĴĴ":3366,"èĳĹåĲį":3367,"33":3368,"çŀ":3369,"æµĭè¯ķ":3370,"èĳĽ":3371,"è°ĥæķ´":3372,"åĮĸçļĦ":3373,"æĻ¨":3374,"ä¼ı":3375,"ç¨ĭåºı":3376,"çĵľ":3377,"éĥ½ä¼ļ":3378,"å°ĳå¹´":3379,"ä¹ĲåĽ¢":3380,"åĢ¾":3381,"187":3382,"ä¸Ģä¸ĸ":3383,"æµ·å²¸":3384,"çİĭåĽ½":3385,"èĽĭçĻ½":3386,"ç»ĵå©ļ":3387,"éļ¶å±ŀäºİ":3388,"æĻ¶":3389,"éĥ½æľī":3390,"ul":3391,"ç¬¬ä¸ĥ":3392,"çĶµèĦĳ":3393,"åģľæŃ¢":3394,"çĶ¨æĿ¥":3395,"æ¢¯":3396,"é«ĺçŃī":3397,"ä»¥ä¸Ĭ":3398,"æħ¢":3399,"åĵĪå°Ķ":3400,"çļĦçłĶç©¶":3401,"amp":3402,"éĺ¿æĭīä¼¯":3403,"èĥģ":3404,"æİ¥è¿ĳ":3405,"ä¸ĭåįĪ":3406,"èĢĥèĻĳ":3407,"è¡ĮæĶ¿åĮºåĪĴ":3408,"å±±èĦī":3409,"äºİ198":3410,"è´º":3411,"å°¤åħ¶":3412,"æ®ĸæ°ĳ":3413,"åĩĮ":3414,"æĢĿæĥ³":3415,"çĶµåı°":3416,"ä¸ŃåĽ½åħ±äº§åħļ":3417,"çĽ´èĩ³":3418,"èĹ©":3419,"åĳ¨è¾¹":3420,"æĸ°å¢ŀ":3421,"ä¸Ģå¸¦":3422,"éĤĢè¯·":3423,"æµ®":3424,"å§Ķä¼ļ":3425,"åĮ»çĸĹ":3426,"ä¸įåı¯":3427,"èµ·æĿ¥":3428,"åħ³æ³¨":3429,"ä½¿çĶ¨çļĦ":3430,"ç´«":3431,"åįģåħŃ":3432,"ç¡ķ":3433,"é¬¼":3434,"64":3435,"å¦Ĥä¸ĭ":3436,"çĶ³è¯·":3437,"æĥĬ":3438,"èħ¹":3439,"ind":3440,"è§Ĥå¯Ł":3441,"åĿİ":3442,"åįģäºĶ":3443,"æĺİæĺ¾":3444,"åĨįåº¦":3445,"ç¥ĸçĪ¶":3446,"æĶ¿åħļ":3447,"55":3448,"åįģåĪĨ":3449,"çĽ¸ä¼¼":3450,"è¯¾ç¨ĭ":3451,"å¡ĳ":3452,"èĬĿ":3453,"ä¹Ķæ²»":3454,"åĮĪ":3455,"æĢª":3456,"ä¿Ĭ":3457,"åĲĪçī©":3458,"å®ªæ³ķ":3459,"è¡¨è¾¾":3460,"åħ±æľīäººåı£":3461,"åħ¥ä¾µ":3462,"å£«åħµ":3463,"ä»²":3464,"å®īæİĴ":3465,"æĴ°":3466,"åĲ¨":3467,"èĭ¦":3468,"æ¯ķä¸ļäºİ":3469,"ak":3470,"åĬ±":3471,"ç½ļ":3472,"åĪ°è¾¾":3473,"äººæ°ĳæĶ¿åºľ":3474,"AT":3475,"å¨ģå°Ķ":3476,"å¥´":3477,"æĶ¯æı´":3478,"ç§»åĬ¨":3479,"åŃ¦æľ¯":3480,"æ³¥":3481,"æĴŀ":3482,"ä¸įåĨį":3483,"186":3484,"3æľĪ2":3485,"éĶĢåĶ®":3486,"å±¿":3487,"åĢĻéĢī":3488,"æĿī":3489,"è·¯æĺĵ":3490,"çĽĹ":3491,"%,":3492,"æĭīåħĭ":3493,"ç¦Ħ":3494,"éĩįçĤ¹":3495,"çĶ¨çļĦ":3496,"æĹłçº¿":3497,"è¯¦":3498,"ä¸§":3499,"ä¼Ĭæĸ¯åħ°":3500,"åĹ":3501,"12æľĪ2":3502,"åºĶè¯¥":3503,"çĨĬ":3504,"âĢĿãĢģ":3505,",ãĢĬ":3506,"æĹ¨":3507,"è¥¿åĵ¥":3508,"çī¹çļĦ":3509,"8æľĪ2":3510,"ä»¥èī²åĪĹ":3511,"ç¢į":3512,"çļĦæĹ¶åĢĻ":3513,"çİ°è±¡":3514,"å¦»åŃĲ":3515,"éģĹåĿĢ":3516,"çĹĽ":3517,"ä¸ºæ³ķåĽ½":3518,"çĶ¨æĪ·":3519,"åıĺæĪĲ":3520,"ç²Ĵ":3521,"åľ°åĪ©":3522,"èī²çļĦ":3523,"çĮª":3524,"å°±è¯»":3525,"åı¯èĥ½æĺ¯":3526,"éĩĳå±ŀ":3527,"æĹ§å¸Ĥéķĩ":3528,"6æľĪ2":3529,"æĬµè¾¾":3530,"åįģåĽĽ":3531,"æĿĲæĸĻ":3532,"æĹ©å¹´":3533,"éī":3534,"éĤ®æĶ¿ç¼ĸçłģ":3535,"ä¹³":3536,"æĢ»çĿ£":3537,"è´¨éĩı":3538,"éĺħ":3539,"æıĲåįĩ":3540,"ä¸įæĺİ":3541,"çĦ¦":3542,"49":3543,"æŀĦæĪĲ":3544,"å°ĳæķ°":3545,"åįģåħ«":3546,"åīįçļĦ":3547,"èģĮåĬ¡":3548,"ab":3549,"åºĬ":3550,"è·ĥ":3551,"çĩķ":3552,"å®īè£ħ":3553,"æŁ³":3554,"ç¨³å®ļ":3555,"åį«æĺŁ":3556,"å½Ń":3557,"20æĹ¥":3558,"æ±¡":3559,"äººåı£å¯Ĩåº¦ä¸ºæ¯ı":3560,"é«ĺçļĦ":3561,"éĢĿä¸ĸ":3562,"å·¥åİĤ":3563,"ard":3564,"æŁĲäºĽ":3565,"æ¯ĶåĪ©":3566,"30æĹ¥":3567,"å±ı":3568,"å¹´ä»£":3569,"æ¡Ĥ":3570,"éĦ":3571,"èĪĴ":3572,"ä½ĵç³»":3573,"æģĴæĺŁ":3574,"æĬļ":3575,"çī©è´¨":3576,"åĴ¸":3577,"é¡µ":3578,"å¡ĺ":3579,"å»ºäºİ":3580,"å¤±åİ»":3581,"ä»ªå¼ı":3582,"åĿĬ":3583,"SEE":3584,"å¥¥åľ°åĪ©":3585,"éī´":3586,"2003å¹´":3587,"éĻĨåľ°":3588,"äºİ197":3589,"åĩ½æķ°":3590,"åĩºåı£":3591,"ç¤¾åĮº":3592,"çĶ¸":3593,"ç§ĳçļĦ":3594,"åĪĽåĬŀ":3595,"ãĢģ(":3596,"æİī":3597,"éĶģ":3598,"éĺŁçļĦ":3599,"å¢¨è¥¿åĵ¥":3600,"æĸ¹çļĦ":3601,"å»ºåĪ¶":3602,"ä½¿å¾Ĺ":3603,"åĲĥ":3604,"æľĭåıĭ":3605,"è°ĵ":3606,"æĲľ":3607,"æĵįä½ľ":3608,"æİ¥å£¤çļĦå¸Ĥéķĩ":3609,"è¯ļ":3610,"æĸĳ":3611,"æĸĩç«ł":3612,"èĲ¨åħĭ":3613,"INSEE":3614,"äºĭä¸ļ":3615,"æĦıè¯Ĩ":3616,"æĻ®éģį":3617,"æ°§åĮĸ":3618,",âĢľ":3619,"çº¬":3620,"çĺ":3621,"çļĦå°ı":3622,"ç§»æ°ĳ":3623,"æ¯ıå¹³æĸ¹åħ¬éĩĮ":3624,"ç¿»è¯ĳ":3625,"4æľĪ2":3626,"å¨ģèĥģ":3627,"æ¯ıä¸ª":3628,"å¾Ĺä»¥":3629,"èĤĥ":3630,"å°ļæľª":3631,"åĬŀåħ¬å®¤":3632,"æľĪ15æĹ¥":3633,"å¹¿åĳĬ":3634,"7æľĪ2":3635,"åħ¥åı£":3636,"æĹłäºº":3637,"æ¡Īä»¶":3638,"è¯ŀ":3639,"åŀĴ":3640,"æĹ¢":3641,"æĮĤ":3642,"æľºæ¢°":3643,"to":3644,"èĥ¶":3645,"éļ§":3646,"å¹³éĿ¢":3647,"æĪĸèĢħ":3648,"(;":3649,"çĬ¶åĨµ":3650,"æ¶Īæģ¯":3651,"å¦ĤæŃ¤":3652,"ä¼ļçļĦ":3653,"éģĹäº§":3654,"åı¬å¼Ģ":3655,"44":3656,"ä¸¤äºº":3657,"äº¤æµģ":3658,"å¾ª":3659,"è¡¨æĺİ":3660,"æĦıä¹ī":3661,"æ°ĳä¸»åħļ":3662,"æĮĳæĪĺ":3663,"2002å¹´":3664,"10æĹ¥":3665,"å¯¹æīĭ":3666,"æıĲé«ĺ":3667,"å¼ĺ":3668,"èģĶåĲĪåĽ½":3669,"çľĭåĪ°":3670,"åĭĥ":3671,"è¯´æ³ķ":3672,"æķ°åŃĹ":3673,"èģĶç³»":3674,"çķĶ":3675,"åĽ¾ä¹¦é¦Ĩ":3676,"æħ§":3677,"ç¦ģæŃ¢":3678,"åħ¥éĢī":3679,"åĮĹç¾İ":3680,"ä¸įè¶³":3681,"èº«ä½ĵ":3682,"æłĩå¿Ĺ":3683,"ç¬¬1":3684,"å¤ĦçļĦ":3685,"çĲĥåľº":3686,"åģ¥åº·":3687,"æĭĵ":3688,"å²³":3689,"å¸ĥæĭī":3690,"åĪĽéĢł":3691,"å±¯":3692,"èĳ¡èĲĦçīĻ":3693,"ç¥Ŀ":3694,"ç±³å°Ķ":3695,"è¢ĸ":3696,"åıĳçĶµ":3697,"åľŁèĢ³":3698,"ä¹¾":3699,"çº·":3700,"ä¸¤ç§į":3701,"æ£®æŀĹ":3702,"æĪĴ":3703,"äººåı£å¯Ĩåº¦æ¯ıå¹³æĸ¹åħ¬éĩĮ":3704,"åľŁèĢ³åħ¶":3705,"ne":3706,"åŃĹæ¯į":3707,"æįĲ":3708,"æ°¢":3709,"ie":3710,"ç®±":3711,"èĩªæ²»åĮº":3712,"å¤±è´¥":3713,"å¸Ĥéķĩç¼ĸçłģ":3714,"ãĢİ":3715,"çī¹æ®Ĭ":3716,"åĮ»åŃ¦":3717,"ãĢı":3718,"åħ½":3719,"çĳŀåħ¸":3720,"çļĦé¦ĸ":3721,"åįĳ":3722,"äºİæĹ¶çļĦ":3723,"ç±³çļĦ":3724,"åĪĹä¸º":3725,"æ£ĭ":3726,"ä¸ĢåĲĮ":3727,"äººåı£å¯Ĩåº¦ä¸ºæ¯ıå¹³æĸ¹åįĥç±³":3728,"åĲĮä¸Ģ":3729,"æĻĵ":3730,"å½ĵåľ°åħ±æľīäººåı£":3731,"çĶŁåĳ½":3732,"æ²³åĮĹ":3733,"äººå¤§":3734,"åľ³":3735,"èĩªè¡Į":3736,"åį¿":3737,"æµħ":3738,"ä¸ľè¥¿":3739,"é«ĺä¸Ń":3740,"å»¶ä¼¸":3741,"å¼ºè°ĥ":3742,"éħĴåºĹ":3743,"çľģçº§éĢīåĮº":3744,"æīĢå±ŀçļĦçľģçº§éĢīåĮº":3745,"å¸ĥé²ģ":3746,"åį«çĶŁ":3747,"å¹¶æ²¡æľī":3748,"çľģåĴĮ":3749,"åĬ¨åĬĽ":3750,"åĲĦåľ°":3751,"ç¼ĸè¾ĳ":3752,"å¥ĸé¡¹":3753,"ä¸Ńå±±":3754,"11æľĪ2":3755,"çĽ®çļĦ":3756,"éľĢæ±Ĥ":3757,"åĳ½ä»¤":3758,"éģ¿åħį":3759,"68":3760,"æĬ¥å¯¼":3761,"åıĹä¼¤":3762,"èĲ¥è¿Ĳ":3763,"ä¼°è®¡":3764,"è½°çĤ¸":3765,"åıĪç§°":3766,"ç¼ºä¹ı":3767,"æľ¬åľŁ":3768,"è¿ħéĢŁ":3769,"æĹ¦":3770,"åıĳèµ·":3771,"ä¸Ģå®¶":3772,"æµ·åŁŁ":3773,"Re":3774,"æī°":3775,"18æĹ¥":3776,"æĲ¬":3777,"æ³¨æĦı":3778,"æ¬¢è¿İ":3779,"æĶ¿æĿĥ":3780,"éĩĮçļĦ":3781,"ä¸»å¼ł":3782,"åİĨåı²ä¸Ĭ":3783,"å¹¶æľª":3784,"éĥĬ":3785,"åī©":3786,"äºİ194":3787,"è¾¾æĪĲ":3788,"æĸ¯å¡Ķ":3789,"åĲ¸å¼ķ":3790,"çĹĩçĬ¶":3791,"ä¿¡åı·":3792,"æıĴ":3793,"é²į":3794,"åĸĢ":3795,"å¤ĸåĽ½":3796,"çŁ¥éģĵ":3797,"è§ĦåĪĻ":3798,"åĽĽä¸ª":3799,"ä»ĭç»į":3800,"SA":3801,"äººåĴĮ":3802,"å®īå¾·":3803,"ä¹ĺå®¢":3804,"éĩĳèŀį":3805,"æķĻç»ĥ":3806,"å¿ĥçĲĨ":3807,"æĿĨ":3808,"æĴ¤éĶĢ":3809,"çİ»":3810,"ä¾¦":3811,"éľ¸":3812,"ä¸²":3813,"ist":3814,"å°¼æĸ¯":3815,"è´ŀ":3816,"åı¯èĥ½ä¼ļ":3817,"æķ°åŃ¦":3818,"éĥ¨èĲ½":3819,"å´İ":3820,"å¸ĤçļĦ":3821,"ä¹Łåľ¨":3822,"æĽ´åĲįä¸º":3823,"31æĹ¥":3824,"TV":3825,"ang":3826,"ç¬¬2":3827,"5æľĪ2":3828,"éĵ¾":3829,"æĦŁåĪ°":3830,"åħ¬ä¼Ĺ":3831,"æ¬²":3832,"å½¼å¾Ĺ":3833,"èĥİ":3834,"æķĪåĬĽ":3835,"An":3836,"äºĭå®ŀ":3837,"400":3838,"çĶŁéķ¿":3839,"å°Ķåħ°":3840,"æķĻå¸Ī":3841,"ä»¿":3842,"éĩĩåıĸ":3843,"æİ¨åĬ¨":3844,"æķĻåŃ¦":3845,"est":3846,"æµĵ":3847,"è¹":3848,"åįĹåĮĹ":3849,"èĳĹåĲįçļĦ":3850,"å¤§è¥¿æ´ĭ":3851,"èµĦè®¯":3852,"è´Ńä¹°":3853,"ä¿¡ä»°":3854,"æī§å¯¼":3855,"æŀ¢":3856,"é¼ł":3857,"ä¸Ńåħ±ä¸Ńå¤®":3858,"æĸ¯èĴĤ":3859,"çļĦä¸Ģåº§":3860,"è¯¢":3861,"çļĦæĸ¹å¼ı":3862,"ä¼Ļ":3863,"ç¥ŀç»ı":3864,"åľ¨199":3865,"å½»":3866,"èĽĩ":3867,"åįĵ":3868,"æĶ¾å¼ĥ":3869,"åŁºåľ°":3870,"çİ°åľº":3871,"æĬ¥éģĵ":3872,"12æĹ¥":3873,"æĴŃæĶ¾":3874,"19æĹ¥":3875,"éĩįåºĨ":3876,"åĵģçīĮ":3877,"çļĦåĲĮ":3878,"2æľĪ2":3879,"åįģåŃĹ":3880,"âĢĿãĢģâĢľ":3881,"å¤§éģĵ":3882,"æ³ķæ¡Ī":3883,"ç¨ĭå¼ı":3884,"åıĤèĢĥ":3885,"çļĦç¬¬ä¸Ģ":3886,"è´¡çĮ®":3887,"æĭ³":3888,"ç½ĳè·¯":3889,"åĩºæĪĺ":3890,"æīĵåĩ»":3891,"åĳ½åĲį":3892,"å£®":3893,"èĭ±éĽĦ":3894,"å®¹æĺĵ":3895,");":3896,"11æĹ¥":3897,"ç¬ĳ":3898,"åİĺ":3899,"åĨĽçļĦ":3900,"æ³°åĽ½":3901,"åįĹæŀģ":3902,"ç§¯æŀģ":3903,"æĵİ":3904,"æĬĹè®®":3905,"åĸľæ¬¢":3906,"åĽ½åĬ¡éĻ¢":3907,"ä¸Ģåº¦":3908,"æıŃ":3909,"åī²":3910,"äºĭæķħ":3911,"ä¸ĢæĿ¡":3912,"ä¹Ŀé¾Ļ":3913,"å¤ºå¾Ĺ":3914,"çīł":3915,"è¯ģæį®":3916,"äºİ196":3917,"æĢ§è´¨":3918,"æİ¥è§¦":3919,"äºŃ":3920,"éĺŁä¼į":3921,"NA":3922,"æ´Ĺ":3923,"åįľ":3924,"è£ħçĶ²":3925,"æī®":3926,"å°Ŀ":3927,"èµĲ":3928,"å¤ļç§į":3929,"çŁ¥è¯Ĩ":3930,"å±Ĭåħ¨åĽ½":3931,"åį¡å°Ķ":3932,"èĤº":3933,"äºİ195":3934,"çĶŁæĢģ":3935,"å¼ºçĥĪ":3936,"æ¹ĸåĮĹ":3937,"çªĹ":3938,"èĬ³":3939,"æĮª":3940,"å®īå¾½":3941,"å±ķç¤º":3942,"çĸı":3943,"å¤įæĿĤ":3944,"èĢĮè¢«":3945,"æ¶īåıĬ":3946,"æĽ´å¤ļ":3947,"æľ¬èº«":3948,"ä¸ĸçķĮæĿ¯":3949,"çł²":3950,"å®Įæķ´":3951,"èı²å¾ĭ":3952,"æĿĥåĬĽ":3953,"çļĦåİŁ":3954,"éĩĮäºļ":3955,"èı²å¾ĭå®¾":3956,"äººå·¥":3957,"æĿŃ":3958,"è¥¿æĸ¹":3959,"å¸ĤåĮº":3960,"ç»´å¥ĩ":3961,"ç¾½æ¯Ľ":3962,"çİĦ":3963,"ä¸ĩç¾İåħĥ":3964,"åħ¬ä¸»":3965,"çĪ±å°Ķåħ°":3966,"è´«":3967,"èį¯çī©":3968,"æĬ¢":3969,"åħ¶å®ĥ":3970,"ç¾İæľ¯":3971,"åħīç»ª":3972,"ä¸įå¾Ĺ":3973,"èĢĮæĪĲ":3974,"æĸĩçĮ®":3975,"æĿĳåºĦ":3976,"æĦıè§ģ":3977,"è±Ĩ":3978,"éĢĴ":3979,"ä¸īå¹´":3980,"éĵº":3981,"58":3982,"ä»Ģä¹Ī":3983,"1æľĪ2":3984,"æ¸Ķ":3985,"å¸Ĥæ°ĳ":3986,"å¼ķæĵİ":3987,"éĢĨ":3988,"åĨħéĺģ":3989,"ine":3990,"åŁĥåıĬ":3991,"å£³":3992,"æĿĥåĪ©":3993,"æĹħå®¢":3994,"å«Į":3995,"è´´":3996,"é«ĺéĽĦ":3997,"çļĦéĩįè¦ģ":3998,"åŃ¦ä½į":3999,"æ¹¿":4000,"te":4001,"æĬ½":4002,"é¢ĨåľŁ":4003,"çĬ¬":4004,"å®¢è¿Ĳ":4005,"çĪ¶æ¯į":4006,"ç®Ģåįķ":4007,"çļĦæµ·":4008,"å¾ĭå¸Ī":4009,"æº¶":4010,"æİĪäºĪ":4011,"æİªæĸ½":4012,"è¡¨éĿ¢":4013,"æĭīä¸ģ":4014,"éĽĩ":4015,"æľºä¼ļ":4016,"çĮ«":4017,"æľĢåĲİä¸Ģ":4018,"ç®Ģä»ĭ":4019,"æ°ĳéĹ´":4020,"å¦ĥ":4021,"ä¹¾éļĨ":4022,"åĴĮåħ¶ä»ĸ":4023,"éķ¿åº¦":4024,"èŀº":4025,"èĤ¡ä»½":4026,"æķĪæŀľ":4027,"çŃ¾ç½²":4028,"èģĺ":4029,"è±¡å¾ģ":4030,"å¯Ħ":4031,"ç²®":4032,"åıĳåĶ®":4033,"èį£èªī":4034,"æĸ¯æĭī":4035,"åľ°éľĩ":4036,"ä¼łè¯´":4037,"å°ī":4038,"éĻįä½İ":4039,"å£°ç§°":4040,"ob":4041,"é£ĵ":4042,"æ·±åľ³":4043,"æĤ¬":4044,"å½¢è±¡":4045,"åħĭç½Ĺ":4046,"ly":4047,"äºļåİĨ":4048,"ç¡®è®¤":4049,"ç¡®è¯Ĭ":4050,"42":4051,"ä¹Łè¢«":4052,"å¦Ĥä½ķ":4053,"å·§":4054,"åĽłç´ł":4055,"æĿ¥åĪ°":4056,"åħ¨éĿ¢":4057,"æ°´å¹³":4058,"ç¢³":4059,"æĮīçħ§":4060,"çĬ¯ç½ª":4061,"é£ĵé£İ":4062,"çĽ¾":4063,"åıĳåĩº":4064,"çĪĨçĤ¸":4065,"åıĶ":4066,"è¿Ł":4067,"æľĪ16æĹ¥":4068,"å°ıçļĦ":4069,"é¢Ĩè¢ĸ":4070,"åĮ»çĶŁ":4071,"ç«ŀäºī":4072,"è¢ģ":4073,"çħ¤":4074,"tw":4075,"æľīæīĢ":4076,"åĩºçİ°åľ¨":4077,"å·®å¼Ĥ":4078,"åŃ¦ä¼ļ":4079,"ä¼łæĴŃ":4080,"ç¨¿":4081,"å®ı":4082,"æ´ģ":4083,"ä¸ĵéĹ¨":4084,"æľĪ17æĹ¥":4085,"67":4086,"ä¸Ī":4087,"æĸľ":4088,"æĸĩåŃĹ":4089,"ä¼ĬæľĹ":4090,"åıĻåĪ©äºļ":4091,"ç¾Ĭ":4092,"åı¤ä»£":4093,"æ°Ķè±¡":4094,"ä¸Ļ":4095,"å·¥åħ·":4096,"ä¹¡è¯ķ":4097,"åŁºçĿ£æķĻ":4098,"OS":4099,"åĲİæľŁ":4100,"æ¯«ç±³":4101,"èµĦéĩĳ":4102,"Â°":4103,"åı°åįĹ":4104,"éļ§éģĵ":4105,"=\"":4106,"æĪıåī§":4107,"çīµ":4108,"èĨľ":4109,"èħ¾":4110,"å½ĵæĹ¶çļĦ":4111,"é«ĺäºİ":4112,"èµ·æºĲ":4113,"æĬ¼":4114,"å°¸":4115,"åıªæĺ¯":4116,"å°ļä¹¦":4117,"æ²³çķĶ":4118,"æįŁå¤±":4119,"æľĪ22æĹ¥":4120,"ï½":4121,"çļĦåľ°æĸ¹":4122,"åĨĴ":4123,"å¡«":4124,"ç»ĻäºĪ":4125,"åıªèĥ½":4126,"è¾¹çķĮ":4127,"åı°åĮĹå¸Ĥ":4128,"é³įé±¼":4129,"å¸ĪèĮĥ":4130,"çĸ¾çĹħ":4131,"è¾©":4132,"ä¸ºä¸Ģ":4133,"çĽ¸æ¯Ķ":4134,"åĿ¦åħĭ":4135,"ä¸įæ»¡":4136,"ç»ıéªĮ":4137,"å°Ķçī¹":4138,"éĿ¢å¯¹":4139,"çĲĨäºĭ":4140,"è¡į":4141,"å¹¶éĿŀ":4142,"185":4143,"ok":4144,"å¥ĳ":4145,"è£ķ":4146,"éĴ¦":4147,"BC":4148,"av":4149,"ä½ľæĽ²":4150,"äº¨åĪ©":4151,"ä»ĳ":4152,"è¡°":4153,"å§»":4154,"ä¸ľåĮĹéĥ¨":4155,"åĩºå¸Ń":4156,"æ°Ł":4157,"ç½¢":4158,"æľ¬ç«Ļ":4159,"è¸ª":4160,"åĪĹè¡¨":4161,"éĢĢå½¹":4162,"å·¡åĽŀ":4163,"æľĪ14æĹ¥":4164,"å²ģçļĦ":4165,"åĪĽå»º":4166,"é¸¡":4167,"æĺİæ²»":4168,"çĻ»éĻĨ":4169,"æĢ§åĪ«":4170,"æĪĲä¸ºäºĨ":4171,"èĮĤ":4172,"ä½ıå®ħ":4173,"99":4174,"è²":4175,"çĲī":4176,"åľ°éĿ¢":4177,"åŃ©åŃĲ":4178,"åĪĹåħ¥":4179,"åĽŀåºĶ":4180,"åħĭèİ±":4181,"æľĪ21æĹ¥":4182,"å®Ļ":4183,"ç«Ļåı°":4184,"åı¸æ³ķ":4185,"çİĩé¢Ĩ":4186,"è´µæĹı":4187,"èĪŀåı°":4188,"åĩłä¸ª":4189,"è½¬ç§»":4190,"ç¤¾ä¼ļä¸»ä¹ī":4191,"å¦Ī":4192,"å®ŀè¡Į":4193,"å£°æĺİ":4194,"åĨ¬åŃ£":4195,"åŁºåĽł":4196,"ä¸¾è¡ĮçļĦ":4197,"ç²¹":4198,"æĪĺåĲİ":4199,"èĭ±å°º":4200,"çĶµè½¦":4201,"ç§įæĹı":4202,"æ¾³æ´²":4203,"æµ·æ´ĭ":4204,"èĤ¥":4205,"çļĦé«ĺ":4206,"äºİæĺ¯":4207,"å°ıåŀĭ":4208,"çº¦ä¸º":4209,"åıĤè°ĭ":4210,"åĸ·":4211,"åħ³éĹŃ":4212,"æĽ´åĬł":4213,"ç¬¬åħ«":4214,"åĳ½åĲįä¸º":4215,"èįĴ":4216,"æµģåŁŁ":4217,"åĥ§":4218,"3ä¸ª":4219,"ä¸ľæĸ¹":4220,"æĪĲæľ¬":4221,"You":4222,"åįģä¸ĥ":4223,"78":4224,"è£ħç½®":4225,"ä¿®æĶ¹":4226,"è¾ĥä¸º":4227,"æĩ":4228,"éģµ":4229,"çĭĦ":4230,"ç¤ºå¨ģ":4231,"åį¢çĵ¦å°Ķ":4232,"Al":4233,"ä¸Ģå®ļ":4234,"å½¢æĢģ":4235,"çĸ«æĥħ":4236,"éĹ´çļĦ":4237,"æµ©":4238,"art":4239,"æīįèĥ½":4240,"åıĺå¾Ĺ":4241,"ç¡ķå£«":4242,"å½ĵå±Ģ":4243,"åıĤåĬłäºĨ":4244,"èĬ¬åħ°":4245,"é¸¿":4246,"å´Ķ":4247,"çİĽä¸½":4248,"ç¬¦åĲĪ":4249,"é©±éĢĲ":4250,"æĦıæĢĿ":4251,"æľĪ13æĹ¥":4252,"é«ĺéĢŁåħ¬è·¯":4253,"æľºåĻ¨":4254,"æµĭéĩı":4255,"ha":4256,"é³įé±¼çº²":4257,"æŃ£å¸¸":4258,"å¸ħ":4259,"éĢļè½¦":4260,"æĮĩå®ļ":4261,"èİ«æĸ¯ç§ĳ":4262,"æĸ°çĸĨ":4263,"çļĦä¸ī":4264,"å²Ĺ":4265,"çļĦåĽ½å®¶":4266,"åı¦ä¸Ģä¸ª":4267,"é¥Ń":4268,"é¡¾éĹ®":4269,"å¼Ģè®¾":4270,"æĥħæĬ¥":4271,"66":4272,"èĭıæł¼åħ°":4273,"å¼¥":4274,"åįģä¹Ŀ":4275,"ä¸Ńæľī":4276,"éħįåĲĪ":4277,"é£Łçī©":4278,"æ··åĲĪ":4279,"æĢĴ":4280,"æĶ¹éĢł":4281,"æ¶µ":4282,"å§Ķä¹¦è®°":4283,"æĶ¶è´Ń":4284,"åĵ²åŃ¦":4285,"ä¿ĺ":4286,"å¾Īå¿«":4287,"åħ¬åı¸çļĦ":4288,"è¾Ĳé³įé±¼çº²":4289,"èĢĹ":4290,"çģ«ç®Ń":4291,"éĻĨåľ°éĿ¢ç§¯ä¸º":4292,"95":4293,"åĪĨéħį":4294,"æ°´åŁŁéĿ¢ç§¯ä¸º":4295,"æ¬£":4296,"æ¶¦":4297,"up":4298,"è¯´æĺİ":4299,"åŃ¤":4300,"ä¹Łä¼ļ":4301,"éħįéŁ³":4302,"èĢĢ":4303,"ht":4304,"å¼ĢéĢļ":4305,"åĮĪçīĻ":4306,"æŃĩ":4307,"éķĩåĮº":4308,"è¥¿èĹı":4309,"åıĳçİ°äºĨ":4310,"ä½ľèĢħ":4311,"çŁ¶":4312,"çĭĤ":4313,"æķ´ä½ĵ":4314,"æ³ķå®ĺ":4315,"éĻĦè¿ĳçļĦ":4316,"èµ¶":4317,"å¯¼å¼¹":4318,"æĮªå¨ģ":4319,"åĮĪçīĻåĪ©":4320,"ess":4321,"88":4322,"éķ¿åı¯è¾¾":4323,"150":4324,"åĤħ":4325,"èĢĮè¨Ģ":4326,"å¯¹è±¡":4327,"ç¥Ģ":4328,"æĥ¯":4329,"è£ħå¤ĩ":4330,"çĭ®":4331,"éĻĢ":4332,"åº·çĨĻ":4333,"å¯¸":4334,"ç¿Į":4335,"ï½ŀ":4336,"æµ·å¤ĸ":4337,"åħĭæĭī":4338,"è¯·æ±Ĥ":4339,"æıĲåĪ°":4340,"æĶ¹åĸĦ":4341,"æģĲæĢ":4342,"ik":4343,"å¯¹æŃ¤":4344,"çĶ¨ä½ľ":4345,"åĬ¨ä½ľ":4346,"æµ·å³¡":4347,"åŀĤ":4348,"æĪĺçķ¥":4349,"ç¥¨æĪ¿":4350,"å½ĵä¸ŃéĻĨåľ°éĿ¢ç§¯ä¸º":4351,"åľ¨åħ¶":4352,"ä¸Ģéĥ¨":4353,"ç§ĺå¯Ĩ":4354,"ä¸ĭéĻį":4355,"çĶµåĬĽ":4356,"çĹħä¾ĭ":4357,"ç½Ĺä¼¯":4358,"èĦĤ":4359,"ers":4360,"å¤·":4361,"åİ¢":4362,"æŁĶ":4363,"ç²¤":4364,"äºļåİĨå±±":4365,"åĬ³åĬ¨":4366,"åľ°çĲĨ":4367,"ä¸ľåįĹéĥ¨":4368,"æłĩä¸º":4369,"æŃ¦æ±ī":4370,"æĤī":4371,"ç¼ħçĶ¸":4372,"åįİçĽĽ":4373,"çĭĹ":4374,"éĤ£éĩĮ":4375,"éĢĢä¼ĳ":4376,"ip":4377,"åľ°ä½į":4378,"å®¶çļĦ":4379,"å¸Ĥéķ¿":4380,"äº¦æľī":4381,"å¹¿ä¸ľçľģ":4382,"å¸ĥå°Ķ":4383,"åĩºæ¼Ķ":4384,"å§ļ":4385,"èµ·ä¹ī":4386,"åĽŀå½Ĵ":4387,"æ»ļ":4388,"æŃ¥åħµ":4389,"è¦ĨçĽĸ":4390,"ç¼ĸåī§":4391,"ç¢İ":4392,"éĢ¢":4393,"è§Ĥæµĭ":4394,"ç§ģäºº":4395,"æľĢè¿ĳ":4396,"å°Ĩä¼ļ":4397,"çĮĽ":4398,"æī¾åĪ°":4399,"åľ¨æĹ¥æľ¬":4400,"æ¯Ķä¾ĭ":4401,"ue":4402,"åľ°åĽ¾":4403,"BA":4404,"çĲĥä¼ļ":4405,"æ·±åº¦":4406,"åľºæ¯ĶèµĽ":4407,"çģĮ":4408,"æİ¨è¿Ľ":4409,"åįİçĽĽé¡¿":4410,"é¢Ħè®¡":4411,"å½°":4412,"ä»»èģĮ":4413,"èĬĴ":4414,"åĲĪçº¦":4415,"åħ´è¶£":4416,"æĳĩ":4417,"å®ŀéĻħä¸Ĭ":4418,"åĪ¸":4419,"æľīä¸Ģä¸ª":4420,"ä¸ĩäºº":4421,"çľŁæŃ£":4422,"ç»ıåħ¸":4423,"éĥ¨çļĦ":4424,"ç¬¬5":4425,"å¹¿è¥¿":4426,"è¯ķéªĮ":4427,"åºŀ":4428,"ç»Ħå»º":4429,"åĳ¨åĽ´":4430,"éĩįå¤§":4431,"é£İéĻ©":4432,"æºĲèĩª":4433,"å°Ŀè¯ķ":4434,"ä¿ĿåŃĺ":4435,"å®ĥçļĦ":4436,"åĬłçĽŁ":4437,"å¼ķåħ¥":4438,"æĬķéĻį":4439,"éĺ²å¾¡":4440,"å¾¡åı²":4441,"æłĸæģ¯åľ¨":4442,"ows":4443,"å¹¶åħ¥":4444,"æ»©":4445,"èĬ±åĽŃ":4446,"æĿĢæŃ»":4447,"if":4448,"ç¬¼":4449,"å¹¶ä¸Ķ":4450,"å»Ĭ":4451,",ãĢĮ":4452,"ä¼ª":4453,"åĳİ":4454,"çĶŁçļĦ":4455,"ç¬¬3":4456,"ç¾İåĨĽ":4457,"åģ·":4458,"å²Ľå±¿":4459,"åĪ¶çļĦ":4460,"åĮĹäº¬å¸Ĥ":4461,"âĢ¦âĢ¦":4462,"éĺª":4463,"å¸¦æĿ¥":4464,"æľīæĹ¶":4465,"èįĲ":4466,"éļıåį³":4467,"å¹´éĹ´":4468,"æľĢå¤ļ":4469,"ä¸ĬåįĪ":4470,"å¥İ":4471,"åĬŀäºĭ":4472,"è´£ä»»":4473,"è©¹å§Ĩ":4474,"ä»£è¡¨å¤§ä¼ļ":4475,"éĢ»":4476,"èĤĸ":4477,"å£°éŁ³":4478,"ä¸ºæŃ¢":4479,"éħ¶":4480,"å¹´é¾Ħ":4481,"è®ºæĸĩ":4482,"çĶ¨éĢĶ":4483,"éĩĮæĸ¯":4484,"åİĭåĬĽ":4485,"çıĬ":4486,"ä¾ł":4487,"è¿Ļæĺ¯":4488,"æ¸©åº¦":4489,"è®²è¿°":4490,"åĲ¾":4491,"äº¿ç¾İåħĥ":4492,"çħ§çīĩ":4493,"çļĦä¸Ń":4494,"çļĦæĹ¶éĹ´":4495,"æľīäºº":4496,"æŀĿ":4497,"è¿Ĳä½ľ":4498,"ä¿ĥè¿Ľ":4499,"ä»£çłģ":4500,"åľ¨è¿Ļ":4501,"ä¼ĺåĬ¿":4502,"Wind":4503,"å¤§è§Ħæ¨¡":4504,"å¾ĹçŁ¥":4505,"æĮĩå¯¼":4506,"è½¯ä»¶":4507,"è§£æķ£":4508,"è¢«è®¤ä¸ºæĺ¯":4509,"åĲĮçĽŁ":4510,"æ¹ĺ":4511,"ç¿ģ":4512,"è°ĪåĪ¤":4513,"çĴĥ":4514,"èµĭ":4515,"éļľç¢į":4516,"åĲįä¹ī":4517,";-":4518,"180":4519,"å¨ĥ":4520,"åĵ¥ä¼¦":4521,"å¤ıåŃ£å¥¥æŀĹåĮ¹åħĭè¿ĲåĬ¨ä¼ļ":4522,"å¤ļå¹´":4523,"ä¸ŃåĽ½äººæ°ĳè§£æĶ¾åĨĽ":4524,"æŀĦéĢł":4525,"éĺĶ":4526,"èĥ¸":4527,"çº¢èī²":4528,"éļ¾ä»¥":4529,"43":4530,"å¼¦":4531,"æģĲæĢĸ":4532,"çļĦä¸¤":4533,"æĮĩæİ§":4534,"éŃĤ":4535,"åįµ":4536,"æľīäºĽ":4537,"æłı":4538,"äºĨè§£":4539,"AR":4540,"ä¸ĩåİĨ":4541,"AM":4542,"ä»ĩ":4543,"ice":4544,"çŁ¥åĲį":4545,"98":4546,"ä¸Ĭæµ·å¸Ĥ":4547,"ell":4548,"åİĨä»»":4549,"åĲĲ":4550,"BS":4551,"æ±Łè¥¿":4552,"IC":4553,"ge":4554,"æľ´":4555,"é©¾é©¶":4556,"éĤ£äºĽ":4557,"åĲı":4558,"ä¸īè§Ĵ":4559,"è¯ŃçļĦ":4560,"éĩıçļĦ":4561,"åıł":4562,"æ·ĺ":4563,"ç½ĳçĲĥ":4564,"æĹĹä¸ĭ":4565,"().":4566,"76":4567,"éĤ¨":4568,"æ³¨åĨĮ":4569,"å©ļå§»":4570,"ä¸Ģé¢Ĺ":4571,"æĪĸæĺ¯":4572,"å®ĩå®Ļ":4573,"æī®æ¼Ķ":4574,"åı°ä¸Ń":4575,"å±ł":4576,"åĮĸçŁ³":4577,"åĬłå¼º":4578,"æĳĦå½±":4579,"ç¡«":4580,"é©¬æĭī":4581,"èħĲ":4582,"éĶĻè¯¯":4583,"é©¬å°Ķ":4584,"æĲº":4585,"æ¼ĶåĶ±ä¼ļ":4586,"èĪ±":4587,"åı°é£İ":4588,"æķĻåĮº":4589,"æ·¡æ°´":4590,"sp":4591,"å½¦":4592,"å¤ªç©º":4593,"ç³»ç»ŁçļĦ":4594,"è¥¿åįĹéĥ¨":4595,"æŁıæŀĹ":4596,"bo":4597,"åħĭçļĦ":4598,"èĦĬ":4599,"æľįå½¹":4600,"åĲĪæĪĲ":4601,"éĻĨç»Ń":4602,"éĢ®":4603,"è²Į":4604,"æī©å¤§":4605,"æĺ¯æĮĩ":4606,"åĺ´":4607,"184":4608,"é¹°":4609,"åĬłåĪ©":4610,"è§ĤçĤ¹":4611,"çļĦå±±":4612,"æĶ¿åįı":4613,"éļ¶å±ŀ":4614,"ud":4615,"æŃ§":4616,"ä½ľåĩº":4617,"\")":4618,"æĽ¾ä»»":4619,"å¸¦æľī":4620,"æĹ¬":4621,"ç¨į":4622,"åıī":4623,"çĻ½èī²":4624,"çĲĥåŃ£":4625,"äººåı£ä¸º":4626,"ä»·æł¼":4627,"éĩĬæĶ¾":4628,"æĶ¿åºľçļĦ":4629,"åľ¨ä¸ŃåĽ½":4630,"ï¼ı":4631,"åĳĪçİ°":4632,"å®ļå±ħ":4633,"çĽ¸ä¿¡":4634,"æīĢå±ŀ":4635,"é¦ĸåħĪ":4636,"å¨ĺ":4637,"ä¿Ŀç½Ĺ":4638,"åĪ·":4639,"ç¿ł":4640,"åħ¼ä»»":4641,"åĽºå®ļ":4642,"æİĴè¡Į":4643,"éĹ½":4644,"æģ°":4645,"éĺ¶çº§":4646,"è¥¿åĮĹéĥ¨":4647,"æł¡éķ¿":4648,"èĿ¶":4649,"ction":4650,"ç¯®çĲĥ":4651,"çļĦåİĨåı²":4652,"æ¸¸æ³³":4653,"æı¡":4654,"çĽ¸äºĴ":4655,"åħ³éĶ®":4656,"è¥¿å®ī":4657,"ç«ĭåį³":4658,"åŀĭçļĦ":4659,"4ä¸ª":4660,"77":4661,"éĢļè®¯":4662,"åįģå¹´":4663,"è®¾å®ļ":4664,"èĸĦ":4665,"éªĳå£«":4666,"åĿª":4667,"ä½ıæ°ĳ":4668,"å¯¹å¤ĸ":4669,"æ¯Ķå¦Ĥ":4670,"æ·»":4671,"éªĳåħµ":4672,"å©Ĩ":4673,"æĸ¯æŀĹ":4674,"éĽĢ":4675,"çİ°æĹ¶":4676,"å¸¦é¢Ĩ":4677,"éĵŃ":4678,"æĸ¹è¨Ģ":4679,"ä¸Ģèĩ´":4680,"1000":4681,"ä¿®å»º":4682,"ä¸°å¯Į":4683,"å¿§":4684,"è¶ĭ":4685,"ä¼ĺç§Ģ":4686,"éĨĴ":4687,"ç¬¬äºĮæ¬¡ä¸ĸçķĮå¤§æĪĺ":4688,"2ä¸ª":4689,"600":4690,"å·«":4691,"æ·®":4692,"å±ķè§Ī":4693,"all":4694,"åľ°çĤ¹":4695,"åĪ¶å®ļ":4696,"åĨħéĻĨ":4697,"ä¾ĽåºĶ":4698,"çľŁå®ŀ":4699,"è¯ı":4700,"éĿŀå»ºåĪ¶":4701,"ç¾½æ¯ĽçĲĥ":4702,"ä¼Ĺå¤ļ":4703,"æĺ¯ä»¥":4704,"æĦıå¿Ĺ":4705,"å¤ªåŃĲ":4706,"é¸£":4707,"åĬ¿åĬĽ":4708,"è¾ĵåħ¥":4709,"Windows":4710,"ä»»åĳ½ä¸º":4711,"ä¸¤æ¬¡":4712,"æĬĹæĹ¥":4713,"çļĦå¤ĸ":4714,"æİĺ":4715,"end":4716,"åħ·ä½ĵ":4717,"åį°å°¼":4718,"èĩªèº«":4719,"å·ŀåºľ":4720,"æľĿå»·":4721,"éĺ®":4722,"å·¥äºº":4723,"å·²è¢«":4724,"æ´¾éģ£":4725,"åµ":4726,"å¤ļå°Ķ":4727,"å±±è¥¿":4728,"æĹ¶æľŁçļĦ":4729,"å¾Ģå¾Ģ":4730,"æ£Ģæµĭ":4731,"å§¬":4732,"å¯»æī¾":4733,"ä¸İåħ¶ä»ĸ":4734,"å¯¹åºĶ":4735,"Pro":4736,"äºİ193":4737,"æľºçļĦ":4738,"é»Ħéĩĳ":4739,"ä»£è¡¨åĽ¢":4740,"çªģçł´":4741,"é¼»":4742,"æĿ°åħĭ":4743,"ç»ĦæĪĲçļĦ":4744,"åľ¨è¯¥":4745,"ä¹ĲéĺŁ":4746,"ä¹ĭæĪĺ":4747,"ãĢĬãĢĭ":4748,"çģ«å±±":4749,"çĽĳçĿ£":4750,"åĹ£":4751,"å¼Ģå±ķ":4752,"æĦĪ":4753,"æĿīçŁ¶":4754,"Sp":4755,"éĩĳçīĮ":4756,"æ´ĽæĿīçŁ¶":4757,"çĽ¸åħ³çļĦ":4758,"æ°¯":4759,"çĶµè¯Ŀ":4760,"è¿ĩç¨ĭä¸Ń":4761,"æĸ¤":4762,"è¢«è¿«":4763,"æıĲåĲį":4764,"æ³¢æĸ¯":4765,"åĦĴ":4766,"çĻ»ä¸Ĭ":4767,"åħĨ":4768,"èĭĳ":4769,"çªģçĦ¶":4770,"åĮĹæµ·":4771,"çİ°ä»»":4772,"ä¸¹éº¦":4773,"å®ŀéªĮå®¤":4774,"æĺ¯ä¸ŃåĽ½":4775,"èĮµ":4776,"åĽ½å®¶çļĦ":4777,"ä¾Ŀæį®":4778,"åħ¶åĲİ":4779,"éĢĢåĩº":4780,"io":4781,"çī¹å®ļ":4782,"åģ¿":4783,"åįĹæĸ¹":4784,"ä¸Ģçº§":4785,"ä¸Ģæ®µ":4786,"åħ¬çĪµ":4787,"æĳĨ":4788,"åįĴ":4789,"æ±ª":4790,"ä¸īä¸ĸ":4791,"ill":4792,"åĳĺå·¥":4793,"æĻļä¸Ĭ":4794,"åĲĽä¸»":4795,"å¯¨":4796,"åĨĽå®ĺ":4797,"åľºçļĦ":4798,"å°ĳå¥³":4799,"ace":4800,"ry":4801,"å¦ĩå¥³":4802,"æĺİç¡®":4803,"æ²¿æµ·":4804,"åĳ¨å¹´":4805,"å¤§æ¡¥":4806,"æĪ¿å±ĭ":4807,"éĢ®æįķ":4808,"åĨĽåĮº":4809,"è½¬åĲĳ":4810,"å¥¥è¿Ĳä¼ļ":4811,"æī©å±ķ":4812,"å¤ķ":4813,"ä¾¨":4814,"éĥ½å¸Ĥ":4815,"èµĦäº§":4816,"79":4817,"èĦı":4818,"éĻ¨":4819,"41":4820,"ä»£çĲĨ":4821,"è¯ģå®ŀ":4822,"ç»Ŀå¯¹":4823,"æ¬§åħĥ":4824,"Sh":4825,"åľ¨é¦Ļæ¸¯":4826,"åĬĿ":4827,"åĩĢ":4828,"å¯¹æĬĹ":4829,"å¤§åİ¦":4830,"lay":4831,"85":4832,"ä¸Ľ":4833,"è¾°":4834,"æ£ĢæŁ¥":4835,"ong":4836,"äºļç¾İ":4837,"è§Ĩé¢ĳ":4838,"åĽ½å®¶éĺŁ":4839,"ain":4840,"åĮĸåĲĪçī©":4841,"ç²Ĺ":4842,"åĲ¯åĬ¨":4843,"çī¹åĪ«æĺ¯":4844,"Ã©":4845,"æ³ķåħ°è¥¿":4846,"åĪĨç¦»":4847,"Un":4848,"éĵ¸":4849,"åİŁåĪĻ":4850,"å¤§èµĽ":4851,"åī§æľ¬":4852,"ç´§æĢ¥":4853,"è¯Ħä¼°":4854,"ä¸ĵå®¶":4855,"åĮĹæĸ¹":4856,"ä¸¤å¹´":4857,"åĨľæ°ĳ":4858,"åĵ¥ä¼¦æ¯Ķäºļ":4859,"69":4860,"éĻķè¥¿":4861,"åĬłæĭī":4862,"æ¶Ĥ":4863,"åĿĩä¸º":4864,"ä¸ĳ":4865,"çŃīä¸º":4866,"è®¡ç®Ĺæľº":4867,"æĽ´ä¸º":4868,"be":4869,"ç§ĳå¤«":4870,"AC":4871,"ä¿Ŀå®Ī":4872,"åī§éĻ¢":4873,"åºŁéĻ¤":4874,"åĬ«":4875,"ä¸Ńè¢«":4876,"ç»ıçĲĨ":4877,"Le":4878,"çŁ©":4879,"åĢ¡":4880,"çķĻä¸ĭ":4881,"IS":4882,"æī«":4883,"è´©":4884,"æ±°":4885,"è´¨çĸĳ":4886,"çŃ¾è®¢":4887,"åı²ä¸Ĭ":4888,"é¦ĸä¸ª":4889,"åħĪçĶŁ":4890,"æ±Ģ":4891,"1ä¸ª":4892,"åĨĽåĽ¢":4893,"å½¢å®¹":4894,"ä¸ĭä»¤":4895,"ä¸Ĭè¿°":4896,"èĲ¨æĸ¯":4897,"éĦĤ":4898,"120":4899,"æĹ¶æ®µ":4900,"å¼¯":4901,"ç±³äºļ":4902,"ç»´æĬ¤":4903,"ON":4904,"çīłä»¬":4905,"åŃ¦å£«":4906,"ä¸įä»ħ":4907,"èĥ½éĩı":4908,"éĢīä¸º":4909,"æĭĺ":4910,"éĽĮ":4911,"ä¸»è¦ģçļĦ":4912,"åįĩçº§":4913,"çİĩä¸º":4914,"åĲ¯çĶ¨":4915,"é©³":4916,"åİŁåŃĲ":4917,"æ½Ń":4918,"ast":4919,"åħļçļĦ":4920,"é¾Ł":4921,"éĺ»æŃ¢":4922,"åŁİåł¡":4923,"å½ĵå¹´":4924,"å¤©çļĦ":4925,"ä¿Ŀéļľ":4926,"åĭĭç«ł":4927,"æłĩæľ¬":4928,"ç©Ĩæĸ¯æŀĹ":4929,"åĽ°éļ¾":4930,"çŃīåľ°":4931,"ç§ĳåŃ¦éĻ¢":4932,"æ¶Į":4933,"äºļç¾İå°¼äºļ":4934,"åľ¨å¤§":4935,"ort":4936,"åħ¨éķ¿":4937,"åłª":4938,"ç£¨":4939,"æıĲä¾ĽäºĨ":4940,"åı·çļĦ":4941,"çłĸ":4942,"ç»ĻäºĨ":4943,"èĵ¬":4944,"éĨĩ":4945,"å¯Ĵ":4946,"åĪ©çĽĬ":4947,"æ»¡è¶³":4948,"åĢĻéĢīäºº":4949,"åĺīéĿĸ":4950,"å¥¥å°Ķ":4951,"ph":4952,"å¿½":4953,"æĿ¥è¯´":4954,"é©¬éĩĮ":4955,"æĥŁ":4956,"åĢº":4957,"å¤§åŃ¦çļĦ":4958,"åįĹéĿŀ":4959,"æ¸¸è¡Į":4960,"åıĤéĢī":4961,"æķ¢":4962,"åľ¨äºİ":4963,"ä¸ĸçķĮä¸Ĭ":4964,"æĶ¶è§Ĩ":4965,"åĪºåı²":4966,"å°¹":4967,"2020":4968,"å¼ĹæľĹ":4969,"åħ¬å®ī":4970,"åĳ¨æľŁ":4971,"æ¶Īè´¹":4972,"å¥Ķ":4973,"åĭŁ":4974,"æ°ĶæĹĭ":4975,"éº¦åħĭ":4976,"æĬĳ":4977,"--":4978,"çļĦæķħäºĭ":4979,"æº¯":4980,"å¤įåħ´":4981,"éĹª":4982,"çº³ç²¹":4983,"æĸ¯é¡¿":4984,"æ´»è·ĥ":4985,"ä¿®æŃ£":4986,"éĤ»è¿ĳ":4987,"å¤«äºº":4988,"ç©ºæ°Ķ":4989,"åıįæĺł":4990,"é¢ĩ":4991,"å½¢çĽ®":4992,"é¤Ĳåİħ":4993,"62":4994,"1998å¹´":4995,"æī¶":4996,"1999å¹´":4997,"åĳĬè¯ī":4998,"ç¢Ł":4999,"å°¼äºļå·ŀ":5000,"æł¼æĭī":5001,"æĻĭçº§":5002,"çļĦæ°´":5003,"ä¸ŃæľŁ":5004,"ä¸Ĭæľī":5005,"æĽ´æĸ°":5006,"ack":5007,"åįıè°ĥ":5008,"åħ¶ä¸Ńä¸Ģç§į":5009,"çİ»çĴĥ":5010,"çļĦä½ľåĵģ":5011,"19ä¸ĸçºª":5012,"å½ķéŁ³":5013,"æĤ²":5014,"å¢ŀéķ¿":5015,"èŁ":5016,"ä¼łåªĴ":5017,"ç¿ħ":5018,"çĽĳçĭ±":5019,"å®¶äºº":5020,"æĭ¼":5021,"æĭĸ":5022,"åĩºåıĳ":5023,"ä¹¦éĻ¢":5024,"åı¦æľī":5025,"2000":5026,"æİ¥æĶ¶":5027,"æ¸ħåįİ":5028,"èĲ¨å°Ķ":5029,"åħ¸ç¤¼":5030,"èķ¾":5031,"æ·ĺæ±°":5032,"æĹ¥æľŁ":5033,"çĶŁæĪĲ":5034,"æľ¬åľ°":5035,"éĢ¼":5036,"1945å¹´":5037,"åįĩä»»":5038,"å¤©çļĩ":5039,"é£Łåĵģ":5040,"æĸĲ":5041,"å¯ĵ":5042,"åıĳæĺİ":5043,"è¢«è§Ĩä¸º":5044,"CD":5045,"ç«ĭæĸ¹":5046,"å¤§å¥ĸ":5047,"å¸ĥèİ±":5048,"æĹ¥æ²»":5049,"å·²æľī":5050,"æĳ§":5051,"å·¢":5052,"ä¹Łåı¯ä»¥":5053,"åħįè´¹":5054,"é¢ľèī²":5055,"åĬłå·ŀ":5056,"ç§°ä½ľ":5057,"ä¸¤åĲį":5058,"ç¨»":5059,"é±¼ç±»":5060,"çļĦåĲİ":5061,"æİ¨å¹¿":5062,"æı´åĬ©":5063,"çİ°å®ŀ":5064,"åľ¨åĨħçļĦ":5065,"ç»´åŁĥ":5066,"äº²çİĭ":5067,"äºļåİĨå±±å¤§":5068,"æĸ¯æīĺ":5069,"èĢĥåı¤":5070,"ä¸»åĬŀ":5071,"åº¦çļĦ":5072,"åī¯ä¸»ä»»":5073,"åĿĿ":5074,"ç¥ł":5075,"çĻĮ":5076,"ç«ŀéĢī":5077,"å¹³åİŁ":5078,"æīĢè°ĵ":5079,"åī¯ä¸»å¸Ń":5080,"æĺ¾èĳĹ":5081,"å½ĵåľ°çļĦ":5082,"è¿Ļæ¬¡":5083,"åı¸é©¬":5084,"ity":5085,"ç»³":5086,"è¥¿åħ°":5087,"åŁºéĩĳä¼ļ":5088,"çĲ¼":5089,"å¿į":5090,"äºĮæĪĺ":5091,"åħ¬åħĥåīį":5092,"çĲĨè§£":5093,"ä¾ĿçĦ¶":5094,"MA":5095,"ä¸Ģè¯į":5096,"æłĭ":5097,"è£ħé¥°":5098,"åĨľæĿĳ":5099,"æĺŃåĴĮ":5100,"åĨħæĪĺ":5101,"800":5102,"è½¬æį¢":5103,"é¾Ļæ±Ł":5104,"åį±éĻ©":5105,"ç»Īäºİ":5106,"De":5107,"åľŃ":5108,"ä¸įåĪ°":5109,"éĤ£ä¹Ī":5110,"éĿłè¿ĳ":5111,"å¿Ļ":5112,"é¹¤":5113,"å¾·çļĦ":5114,"å®Įå·¥":5115,"è´§å¸ģ":5116,"En":5117,"ä¿®å¤į":5118,"éļĶç¦»":5119,"åĩĿ":5120,"åľ°å¸¦":5121,"ä¸Īå¤«":5122,"æł¡åĽŃ":5123,"ç¡®ä¿Ŀ":5124,"è¿ĽæŃ¥":5125,"èĥ½æºĲ":5126,"éĩĩè®¿":5127,"æļ´åĬĽ":5128,"æīĵç®Ĺ":5129,"æ½ľèīĩ":5130,"å¾·åįİ":5131,"åİŁå§ĭ":5132,"çĿ¡":5133,"å¢ŀå¼º":5134,"æīĢæľīçļĦ":5135,"ä¸¤åĽ½":5136,"ive":5137,"çŁĽ":5138,"èĴ¸":5139,"èº«ä¸º":5140,"åİŁä½ıæ°ĳ":5141,"Ar":5142,"æ°´åºĵ":5143,"åį¡ç½Ĺ":5144,"çłģå¤´":5145,"æĹħè¡Į":5146,"ä¹īå¤§åĪ©":5147,"é²¤":5148,"æ´¾åĩº":5149,"æĴ°åĨĻ":5150,"å¤§å¹ħ":5151,"èĻ¹":5152,"1949å¹´":5153,"éĢļä¿¡":5154,"åĬªåĬĽ":5155,"æł½":5156,"æī§æĶ¿":5157,"éĢĤåĲĪ":5158,"2001å¹´äººåı£":5159,"æĭĨéĻ¤":5160,"å§Ĭ":5161,"çļĦæ¯ĶèµĽ":5162,"åĬ©çĲĨ":5163,"ä¸İåħ¶":5164,"åĩºéģĵ":5165,"åĲģ":5166,"ER":5167,"ov":5168,"èµĦæľ¬":5169,"çŁ³æ²¹":5170,"59":5171,"èĢĲ":5172,"æ³¢ç½Ĺ":5173,"å²ģæĹ¶":5174,"åľ¨198":5175,"ä¹¦ç±į":5176,"æĮĩç¤º":5177,"çķĻåľ¨":5178,"åĽ´ç»ķ":5179,"åīĬ":5180,"å¸Ĥä¸Ńå¿ĥ":5181,"ç¿Ķ":5182,"ä½Ľç½Ĺ":5183,"çļĦè®¾è®¡":5184,"è®¤è¯Ĩ":5185,"æ³¡":5186,"æ³ķåºŃ":5187,"å¤©çĦ¶":5188,"çļĦåıĳå±ķ":5189,"æľīæľº":5190,"åĩºåħ¥åı£":5191,"ä¸ĩåħĥ":5192,"å¤§å¤ļ":5193,"èĸĽ":5194,"sh":5195,"é¦ĸçĽ¸":5196,"ç®¡çĲĨå±Ģ":5197,"è¿ĳå¹´":5198,"é»ĳèī²":5199,"åľĨå½¢":5200,"com":5201,"å¤§ä¼Ĺ":5202,"äº¥":5203,"åłĨ":5204,"è¾¹å¢ĥ":5205,"æĿĢå®³":5206,"æĭ¿ä¸ĭ":5207,"æ¯ĶåĪ©æĹ¶":5208,"Ne":5209,"åįİäºº":5210,"æīĭæľº":5211,"éĶĢéĩı":5212,"å¤«åį¡":5213,"å¤§éĢī":5214,"æĶ¶éĽĨ":5215,"ãĥ»":5216,"ID":5217,"ÃĹ":5218,"éĹ¸":5219,"æĦıåĳ³":5220,"çĽĨ":5221,"æĺİæĺŁ":5222,"ore":5223,"åĲĦèĩª":5224,"è¾½å®ģ":5225,"ä¸Ģåľº":5226,"åĪĨæĶ¯":5227,"ä»¤äºº":5228,"ç¡®è¯ĬçĹħä¾ĭ":5229,"\",":5230,"æľĢä½İ":5231,"è®°å¿Ĩ":5232,"und":5233,"ber":5234,"ç©ºä¸Ń":5235,"åĿļæĮģ":5236,"åĲīæŀĹ":5237,"ä¸Ģæŀļ":5238,"åĪĨè£Ĥ":5239,"ç»´æĸ¯":5240,"12å¹´":5241,"èĴĻçī¹":5242,"å°±ä¼ļ":5243,"å±±ä¸ľçľģ":5244,"æĸĭ":5245,"èĩªæĿĢ":5246,"èŃ¦åĳĬ":5247,"çļĩåĲİ":5248,"çļĦæĶ¯æĮģ":5249,"ä¹łæĢ§":5250,"åĽ½æ°ĳæĶ¿åºľ":5251,"åī§éĽĨ":5252,"ä¸ĭè¾ĸçļĦä¸Ģä¸ª":5253,"ä»¥åįĹ":5254,"æĬĵ":5255,"æ±Ŀ":5256,"1997å¹´":5257,"å»ºç«ĭäºĨ":5258,"72":5259,"æĪĲå¹´":5260,"èĥº":5261,"å¹³æ°ĳ":5262,"èĮĥåĽ´åĨħ":5263,"æŁ´æ²¹":5264,"åĲĦç±»":5265,"æĹ¨åľ¨":5266,"èĪŁ":5267,"ç§ĳåŃ¦å®¶":5268,"å¼ıçļĦ":5269,"å¼Łå¼Ł":5270,"74":5271,"ä¸ŀ":5272,"çŃīçº§":5273,"63":5274,"oh":5275,"æłª":5276,"å±Ī":5277,"DT":5278,"åĲĮæĢ§":5279,"å¾·å°Ķ":5280,"æĶ¯æµģ":5281,"åħĭæŀĹ":5282,"ian":5283,"âĢĻ":5284,"äº²èĩª":5285,"æ¯Ľæ³½":5286,"ç¤ģ":5287,"èİ±èĮµ":5288,"äº§çĶŁçļĦ":5289,"æ»¨æµ·":5290,"æĬ±":5291,"äº¤æį¢":5292,"CO":5293,"æĭ¨":5294,"æĸ¯æ´Ľ":5295,"éĴ»":5296,"è§ĦèĮĥ":5297,"man":5298,"ä¸Ĭä¸ĭ":5299,"å´©":5300,"iv":5301,"æĹ¶åĢĻ":5302,"å¹½":5303,"æ¶Īå¤±":5304,"å®°":5305,"ç¬¬ä¹Ŀ":5306,"é»ĳé¾Ļæ±Ł":5307,"æ³ķçļĦ":5308,"çłĤ":5309,"è¿Ŀåıį":5310,"åĳ¼åĲģ":5311,"æµĻæ±Łçľģ":5312,"æĳ§æ¯ģ":5313,"åĪ©æĸ¯":5314,"äºĮäºº":5315,"çº§åĪ«":5316,"å¸¸è§ģçļĦ":5317,"ä»¥åīį":5318,"ç§įæ¤į":5319,"âĶ":5320,"çĭ¼":5321,"æĶ¶èĹı":5322,"çŃ¾çº¦":5323,"Te":5324,"è¿¦":5325,"å¯¹æĸ¹":5326,"è¾¾å°Ķ":5327,"æ¬§çĽŁ":5328,"æºĲäºİ":5329,"ate":5330,"å»¶éķ¿":5331,"ric":5332,"æª":5333,"çī¹æĭī":5334,"è¡ĮçļĦ":5335,"å°¼è¥¿äºļ":5336,"æİĪæĿĥ":5337,"éĻª":5338,"è½¦åİ¢":5339,"è¿ĲçĶ¨":5340,"å©´":5341,"å¿ħè¦ģ":5342,"ä»»æľŁ":5343,"æ¸¯åı£":5344,"æ¦Ħ":5345,"å¦Ļ":5346,"1996å¹´":5347,"åįłåľ°":5348,"æ¯Ľæ³½ä¸ľ":5349,"æŃĮè¯į":5350,"é¦ĸå¸Ń":5351,"èĦ¸":5352,"å¾ªçİ¯":5353,"åį¸":5354,"åŃ¦çļĦ":5355,"å°Ħåĩ»":5356,"é¦ĸåºľ":5357,"åį±æľº":5358,"æĤ£èĢħ":5359,"èĪªå¤©":5360,"å¾ĹåĪ°äºĨ":5361,"æĶ¹åĲįä¸º":5362,"æĬ«":5363,"åı¤åħ¸":5364,"åĬŀçĲĨ":5365,"èµ°åĲĳ":5366,"éĢļéģĵ":5367,"æİ¥æĽ¿":5368,"æ¼Ķå¥ı":5369,"æĶ¹åĪ¶":5370,"åįĩä¸º":5371,"ame":5372,"åľºæīĢ":5373,"ä¼½":5374,"æĢ§èĥ½":5375,"çĭŃ":5376,"1992å¹´":5377,"ï¼ħ":5378,"é¡ºåĪ©":5379,"åĴĸ":5380,"åĪĻä¸º":5381,"å·¥ä½ľå®¤":5382,"å®¡æŁ¥":5383,"éĺ²æŃ¢":5384,"åĮºè®®ä¼ļ":5385,"ç¦ħ":5386,"åĽļ":5387,"å¯®":5388,"è¢ĭ":5389,"å·ŀåĪºåı²":5390,"åĽĽå¹´":5391,"ç¥ŀè¯Ŀ":5392,"å«ģ":5393,"éķ¿å®ĺ":5394,"æ³¢å°Ķ":5395,"ä»ķ":5396,"éĺ¿æł¹":5397,"ç´¯è®¡":5398,"âĶĢ":5399,"æĭ±":5400,"é¦ĸæĴŃ":5401,"åķĨåĵģ":5402,"è·Łéļı":5403,"å®Ľ":5404,"éĽį":5405,"å¾Ĺä¸»":5406,"èģĶåĲĪä¼ļ":5407,"å¤ĸäº¤éĥ¨":5408,"ä»¥åĮĹ":5409,"åŁĥå°Ķ":5410,"oun":5411,"åŁ¹è®Ń":5412,"æıĲåıĬ":5413,"äºĶå¹´":5414,"å¸ĤæĶ¿åºľ":5415,"(,;":5416,"ç¼©åĨĻ":5417,"å¸ĥéĩĮ":5418,"çĤī":5419,"åıĹæ¬¢è¿İ":5420,"åį¡æĭī":5421,"éĺ¿æł¹å»·":5422,"AP":5423,"ss":5424,"å°¼åħĭ":5425,"çĶŁæ´»ä¹łæĢ§":5426,"18å¹´":5427,"èĤĮ":5428,"ä¸ŃåĽ½çļĦ":5429,"åģľéĿł":5430,"qu":5431,"åĲ¹":5432,"åĩºæĿ¥":5433,"æķ°ä½į":5434,"èĭ±åĨĽ":5435,"1994å¹´":5436,"æ¸¸æĪıçļĦ":5437,"1åı·":5438,"ä¸Ĭåįĩ":5439,"éĿ¢ä¸´":5440,"Go":5441,"éĻ·åħ¥":5442,"çĶŁæ´»ä¹łæĢ§ä¸įæĺİ":5443,"è¾Ł":5444,"æĮģæľī":5445,"é¼İ":5446,"Com":5447,"183":5448,"æ´¾çļĦ":5449,"å¤§èĩ´":5450,"è¾¨":5451,"éŁµ":5452,"çĤ¹çļĦ":5453,"åĩºçīĪç¤¾":5454,"åĸľåī§":5455,"èĢķ":5456,"æľĪçĲĥ":5457,"æ£ĺ":5458,"åĲĦåĽ½":5459,"ç½Ĺé©¬å°¼äºļ":5460,"çİ°ä»Ĭ":5461,"æĥ¨":5462,"con":5463,"å°Ĩåľ¨":5464,"ä½ĵèĤ²åľº":5465,"åŁĭ":5466,"èĭ¯":5467,"ç¾İåĽ½çļĦ":5468,"çĶĺèĤĥ":5469,")ãĢģãĢĬ":5470,"éĩĮè¾¾":5471,"åľºæĻ¯":5472,"åı¸ä»¤éĥ¨":5473,"çĶ«":5474,"å®ļä¸º":5475,"æķ°çļĦ":5476,"Mar":5477,"ç°":5478,"éģĵå¾·":5479,"çļĦä¸ĢäºĽ":5480,"æĸ¯æĭīå¤«":5481,"ä¸Ģé¡¹":5482,"è¢«æįķ":5483,"æī¿è¯º":5484,"ä¼¼ä¹İ":5485,"çĤ¸å¼¹":5486,"éģ¥":5487,"éĽ¾":5488,"çłĶåıĳ":5489,"åĲĦä¸ª":5490,"é¦ĸæŃĮ":5491,"å·´å°Ķ":5492,"æĿĳèĲ½":5493,"åħ¬æĸ¤":5494,"çĶŁåŃĺ":5495,"åĲīå°Ķ":5496,"å¸Ĳ":5497,"ä»ĬæĹ¥":5498,"èĢĥè¯ķ":5499,"éĥ½åľ¨":5500,"éħįå¤ĩ":5501,"87":5502,"è¾¹ç¼ĺ":5503,"åĬłåĪ©ç¦ı":5504,"å±Ģéķ¿":5505,"ube":5506,"è¹Ī":5507,"éķ¿æ±Ł":5508,"éħ·":5509,"çĪ±æĥħ":5510,"åľ°è´¨":5511,"æľ¬çīĩ":5512,"æ¡Ĩ":5513,"å¸¸åĬ¡":5514,"æĶ¯ä»ĺ":5515,"äººæ°ĳå¸ģ":5516,"èıĬ":5517,"æ²¿éĿ©":5518,"æĬµæĬĹ":5519,"çļĦåĦ¿åŃĲ":5520,"æĸĩæĺİ":5521,"åĮħåĽ´":5522,"çĽĳå¯Ł":5523,"å¤¹":5524,"å°Ĩé¢Ĩ":5525,"å¹³è¡¡":5526,"æĢĢçĸĳ":5527,"çļĦç¬¬":5528,"äºīåıĸ":5529,"å¼Ģå¹ķ":5530,"è¨Ģè®º":5531,"179":5532,"èĥĨ":5533,"ä¸ŃåĽ½å¤§éĻĨçļĦ":5534,"èµ«å°Ķ":5535,"æ±Łèĭıçľģ":5536,"åĿĤ":5537,"èĤł":5538,"åı¯ä»¥åľ¨":5539,"è¤":5540,"è®¾äºİ":5541,"å¼ıæľĪåı°":5542,"our":5543,"å·¡æ´ĭ":5544,"åŃķ":5545,"æīĭæľ¯":5546,"ä¼¯çĪµ":5547,"åºĨç¥Ŀ":5548,"çĲīçĲĥ":5549,"åĲ«æľī":5550,"æī£":5551,"éķ¿è¾¾":5552,"æ±¡æŁĵ":5553,"åıĳæĮ¥":5554,"å¯¹åħ¶":5555,"æľĢä¸º":5556,"æīĢéĩĩçĶ¨":5557,"å¥ĭ":5558,"æĬ¥çº¸":5559,"æ²ª":5560,"æ£Ģå¯Ł":5561,"è¤Ĳ":5562,"æīģ":5563,"åıĳè¨Ģ":5564,"åĻ¨çļĦ":5565,"çŃĸçķ¥":5566,"åĤ¬":5567,"é¼ĵåĬ±":5568,"å¤§èģĶçĽŁ":5569,"çŁŃæļĤ":5570,"éļĭ":5571,"çıĢ":5572,"è¶³å¤Ł":5573,"é¡·":5574,"æıĲè®®":5575,"æİ¨èįĲ":5576,"çĪ±å¾·åįİ":5577,"åĲ§":5578,"IP":5579,"Th":5580,"è¥Ħ":5581,"æĪĳçļĦ":5582,"å¾·åĨĽ":5583,"è°Ń":5584,"é¢ģåıĳ":5585,"åĩĮæĻ¨":5586,"è¯±":5587,"1900":5588,"æľªæľī":5589,"éĹ²":5590,"åĩºåĶ®":5591,"æĸ¹éĿ¢çļĦ":5592,"é¢ĳçİĩ":5593,"éĻ¢éķ¿":5594,"å§ĭå»ºäºİ":5595,"åįķçĭ¬":5596,"æĮĸ":5597,"çº¤":5598,"åıĪåĲį":5599,"éĢıéľ²":5600,"çļĦä½įç½®":5601,"åĩī":5602,"çº¦æľī":5603,"åĶĲæľĿ":5604,"æĪĲå°±":5605,"æµ·å¹³éĿ¢":5606,"æĪĺå£«":5607,"æ²³çļĦ":5608,"æĿ¡ä¾ĭ":5609,"éĻĦå±ŀ":5610,"å·¥ç¨ĭå¸Ī":5611,"æĪĲç«ĭçļĦ":5612,"éĢĤåºĶ":5613,"èµŀåĬ©":5614,"å¢ĥåĨħåħ±æľī":5615,"ä½įçļĦ":5616,"äºļçĽ®":5617,"äºĭæĥħ":5618,"åĨĻä½ľ":5619,"åıĳåĬ¨æľº":5620,"61":5621,"åĮºåĨħ":5622,"çĽ´å¾Ħ":5623,"è¿½æº¯":5624,"åĩŃåĢŁ":5625,"52":5626,"éĿĴå²Ľ":5627,"AN":5628,"é¢Ī":5629,"ä¸ĭæĿ¥":5630,"åĪ¶çīĩ":5631,"æīĢå¤ĦçļĦ":5632,"åı²å¯Ĩ":5633,"é¢Ĩå¯¼äºº":5634,"æĽ¿ä»£":5635,"89":5636,"èģĶç»ľ":5637,"èĸª":5638,"é¹ħ":5639,"æ°¨":5640,"åħ¬äº¤":5641,"ff":5642,"åĢ¾åĲĳ":5643,"åĲŀ":5644,"æĪĲäºº":5645,"æĻ®é²ģ":5646,"1991å¹´":5647,"èħĶ":5648,"æ£ķ":5649,"ç«ĻçļĦ":5650,"æĹłçĹĩçĬ¶":5651,"æµ·æĭĶä¸º":5652,"åħ¬å¼ĢèµĽ":5653,"æĽ°":5654,"æĹ¥æľ¬çļĦ":5655,"ens":5656,"éĽĨåĲĪ":5657,"æ¸¸åĩ»":5658,"è¶³åįı":5659,"æĸ¥":5660,"å¥¶":5661,"ä»¥åĲİ":5662,"æŃ£ç¡®":5663,"åĬ²":5664,"å¿ĺ":5665,"é¦ĸä½į":5666,"æĦıå¤ĸ":5667,"å·¡æ´ĭèĪ°":5668,"èĭ±éĩĮ":5669,"é¢Ħç®Ĺ":5670,"åĲ¸æĶ¶":5671,"æĽ¾ç¥ĸ":5672,"åıĳçĶŁåľ¨":5673,"æī©å¼ł":5674,"çļĦéĥ¨åĪĨ":5675,"åĨķ":5676,"Se":5677,"å¤§å°ı":5678,"æĸĩèīº":5679,"åı¤èĢģ":5680,"éºŁ":5681,"æ²ĥå°Ķ":5682,"é¢ģå¥ĸ":5683,"å»ºçŃĳçī©":5684,"æĦŁæŁĵèĢħ":5685,"ç§ĳçļĦåħ¶ä¸Ńä¸Ģç§į":5686,"åĽĬ":5687,"53":5688,"çļĦéĹ®é¢ĺ":5689,"åŁ¹åħ»":5690,"çĲª":5691,"åħ¬åĳĬ":5692,"éĿŀæ³ķ":5693,"æ°Ķåİĭ":5694,"åĲ»":5695,"å·²çŁ¥":5696,"èĪŀè¹Ī":5697,"å½ĵéĢīä¸º":5698,"éĴĵ":5699,"åĨ³è®®":5700,"èľľ":5701,"ç¢§":5702,"ith":5703,"æĺŁçŃīä¸º":5704,"ä¿ĦåĽ½":5705,"è±«":5706,"ç¢±":5707,"éŃģ":5708,"ä¸¥æł¼":5709,"éģŃéģĩ":5710,"åĲİç»Ń":5711,"å¾·æĭī":5712,"æķĪåºĶ":5713,"å®´":5714,"ä¸ŃéĹ´":5715,"ç§ĳå°Ķ":5716,"èĪ¹åıª":5717,"äºĴçĽ¸":5718,"å®īä¸ľ":5719,"æł¼ä¸º":5720,"ç»Ħç»ĩçļĦ":5721,"çĶµæ°Ķ":5722,"ä¸»è¦ģæĺ¯":5723,"åĩºçİ°äºĨ":5724,"äº«å¹´":5725,"æĸ¯åį¡":5726,"éĢĲæŃ¥":5727,"é¸Łç±»":5728,"æĪĲäºĨ":5729,"åīª":5730,"å¤ĸéĥ¨":5731,"æ¬¡å¹´":5732,"åĪĽå§ĭ":5733,"çļĦç¬¬äºĮ":5734,"æĪĲéĥ½":5735,"æİł":5736,"æ¼ı":5737,"1995å¹´":5738,"LE":5739,"ä¹ĭå¤ĸ":5740,"è¶ħè¶Ĭ":5741,"çļĦå¥³":5742,"å§ľ":5743,"åĬłéĢŁ":5744,"å§ĭå»º":5745,"è§Ĩè§ī":5746,"ä¸ĢåĪĩ":5747,"ä¹ĭåŃĲ":5748,"å¸ĤæĶ¿":5749,"è¶³çĲĥä¿±ä¹Ĳéĥ¨":5750,"åģ¶åĥı":5751,"ç©·":5752,"pe":5753,"åĪĻåľ¨":5754,"å½¢çĬ¶":5755,"å®¡åĪ¤":5756,"å¡Ķå°Ķ":5757,"å½ķå½±":5758,"åıĮæīĵ":5759,"æ£ī":5760,"æļ¨":5761,"é¢Ħæµĭ":5762,"æııç»ĺ":5763,"æł½åŁ¹":5764,"æĿ¥è¶Ĭ":5765,"éķ¿æ²Ļ":5766,"çĽ´éļ¶":5767,"åıĺä¸º":5768,"è´µå·ŀ":5769,"è°¢å°Ķ":5770,"åĴ¨":5771,"ç¦»åŃĲ":5772,"å¼ºåº¦":5773,"å¾Īå¤§":5774,"è¿Ļæł·çļĦ":5775,"åĪĽæĸ°":5776,"æķĳæı´":5777,"åħħæ»¡":5778,"åĵĪå°Ķæ»¨":5779,"åĪł":5780,"ä¸Ģç³»åĪĹ":5781,"å¤§åį«":5782,"éĶĲ":5783,"æ¸¸å®¢":5784,"å¼Ģå§ĭåľ¨":5785,"æļĸ":5786,"éĥ¨çĶµå½±":5787,"èĭıä¸¹":5788,"è·µ":5789,"æŃ£éĿ¢":5790,"æºĥ":5791,"æĵħ":5792,"åģĩè®¾":5793,"æ²³åįĹçľģ":5794,"å¤ıä»¤æĹ¶éĹ´":5795,"çĲĨå·¥":5796,"æģŃ":5797,"éĤª":5798,"one":5799,"å¯»æ±Ĥ":5800,"éĥ¨ç½²":5801,"ä¸»åľº":5802,"åİ¿çŁ¥":5803,"æĶ¶åĪ°":5804,"æ¨¡æĭŁ":5805,"è¶ĬæĿ¥è¶Ĭ":5806,"ä¸»ä¹īçļĦ":5807,"æĸĹäºī":5808,"æĸ©":5809,"åľ¨ä¸Ģèµ·":5810,"æ¯ħ":5811,"æļĤåģľ":5812,"56":5813,"å½±åĥı":5814,"èĮħ":5815,"æĹıç¾¤":5816,"èģĶç½ĳ":5817,"æĺ¯ä¸ĢåĲį":5818,"è¿ģèĩ³":5819,"éĺ¿å°Ķåįĳ":5820,"å¸½":5821,"ç¬¬4":5822,"é«ĺè¾¾":5823,"çĲĨæĥ³":5824,"åĲĪæ³ķ":5825,"çĻ¾ä¸ĩ":5826,"éħįç½®":5827,"æĢģåº¦":5828,"å·¥èīº":5829,"ç¨Ģ":5830,"åĽ½éĻħæľºåľº":5831,"æļĤæĹ¶":5832,"ç§©":5833,"æĹ¶åĮº":5834,"å¸¸å§Ķ":5835,"é¢Ĩäºĭ":5836,"åĽ¾åĥı":5837,"å·´æĭī":5838,"ç¦ıå·ŀ":5839,"ck":5840,"è¡Įä¸ļ":5841,"æīĭæ®µ":5842,"Ġåľ¨":5843,"ĠM":5844,"ĠS":5845,"ĠC":5846,"çĶŁå¹³":5847,"ĠåİĨåı²":5848,"ĠçĶŁå¹³":5849,"ĠB":5850,"ĠP":5851,"æŃ¤å¤ĸ":5852,"ä½Ĩæĺ¯":5853,"zh":5854,"å¹¶åľ¨":5855,"lt":5856,"gt":5857,"æĺ¯ä½įäºİ":5858,"ĠA":5859,"aĠ":5860,"eĠ":5861,"ĠL":5862,"ĠH":5863,"Ġåľ°çĲĨ":5864,"ĠG":5865,"ĠD":5866,"ĠF":5867,"ĠR":5868,"ĠT":5869,"Ġäººåı£":5870,"åŃ¦åĲį":5871,"Ġæł¹æį®":5872,"sĠ":5873,"Ġè¯¥":5874,"èĢĮä¸Ķ":5875,"Ġæľ¬":5876,"(,)":5877,"Ġformula":5878,"Ġä¸İ":5879,"ĠW":5880,"Ġ198":5881,"Ġthe":5882,"ĠçļĦ":5883,"æŃ¤åĲİ":5884,"Ġof":5885,"ä½Ĩåľ¨":5886,"åħĥå¹´":5887,"æĺ¯ä½įäºİç¾İåĽ½":5888,"ĠE":5889,"æĺ¯æ³ķåĽ½":5890,"äºĮå¹´":5891,"ĠK":5892,"ĠN":5893,"ä½įäºİè¯¥åĽ½":5894,":)":5895,"Ġå¹´":5896,"å¹¶äºİ":5897,"ĠæĶ¿æ²»":5898,"yĠ":5899,"ĠçĶ±äºİ":5900,"èĢĮåľ¨":5901,"Ġ197":5902,"ĠJ":5903,"Ġ195":5904,"ĠV":5905,"ĠO":5906,"Ġc":5907,"Ġ196":5908,"Ġ2":5909,"Ġ1":5910,"åħ¬åĪĨ":5911,"ä½įäºİæ³ķåĽ½":5912,"Ġ2021å¹´":5913,"Ġd":5914,"Ġ2019å¹´":5915,"Ġp":5916,"Ġè½¦ç«Ļ":5917,"Ġ193":5918,"Ġ3":5919,"Ġè¡ĮæĶ¿":5920,"ä»ĸæĽ¾":5921,"Ġ2020å¹´":5922,"Ġs":5923,"æŃ¤æĹ¶":5924,"Ġ2018å¹´":5925,"ä»İèĢĮ":5926,"Ġ194":5927,":.":5928,"æĺ¯ç¾İåĽ½":5929,"äººåı£æķ°éĩıä¸ºäºº":5930,"Ġm":5931,"åĽłèĢĮ":5932,"éĤ®æĶ¿ç¼ĸçłģä¸º":5933,"Ġè¿Ļ":5934,"Ġ2017å¹´":5935,"èĢĮæĺ¯":5936,"ä»ĸæĺ¯":5937,"åİ¿äºº":5938,"Ġ2016å¹´":5939,"å¤ıä»¤æĹ¶":5940,"Ġin":5941,"INSEEå¸Ĥéķĩç¼ĸçłģ":5942,"INSEEå¸Ĥéķĩç¼ĸçłģä¸º":5943,"äºİæĹ¶çļĦäººåı£æķ°éĩıä¸ºäºº":5944,"ç¾İåĽ½äººåı£æĻ®æŁ¥çļĦæķ°æį®":5945,"èĢĮäººåı£å¯Ĩåº¦ä¸ºæ¯ıå¹³æĸ¹åįĥç±³":5946,"è¯¥çľģä»½":5947,"æĪĸæĹ§å¸Ĥéķĩ":5948,"æīĢå±ŀçļĦçľģçº§éĢīåĮºä¸º":5949,"ãĢĭ()":5950,"Ġ2022å¹´":5951,"è¯¥çľģä»½ä¸ºæ³ķåĽ½":5952,"åĲİèĢħ":5953,"åħŃå¹´":5954,"ĠSt":5955,"Ġ2014å¹´":5956,"åħ¶ä½Ļ":5957,"Ġ2015å¹´":5958,"ä¹ĭä¸ĭ":5959,"Ġ2013å¹´":5960,"å¹¶å°Ĩ":5961,"æĺ¯ä¸Ģä½į":5962,"ĠæŃ¤":5963,"å¹³æĸ¹ç±³":5964,"ç»ĵæĿŁåĲİ":5965,"Ġ2023å¹´":5966,"æĦıä¸º":5967,"Ġw":5968,"1993å¹´":5969,"Ġb":5970,"ĠI":5971,":\"":5972,"ä¸¾äºº":5973,"ä¸ĥå¹´":5974,"Ġ4":5975,"æĺ¯æĹ¥æľ¬":5976,"Ġf":5977,"ä¹ĭä¸Ń":5978,"Ġ2012å¹´":5979,"åį³ä½¿":5980,"1990å¹´":5981,"å¹¶ä»¥":5982,"äº¿åħĥ":5983,"Ġèĩª":5984,"Ġand":5985,"å¥¹åľ¨":5986,"èĢĮæ°´åŁŁéĿ¢ç§¯ä¸º":5987,"Ġè¡ĮæĶ¿åĮºåĪĴ":5988,"åħ«å¹´":5989,"ä¸ºè¾Ĳé³įé±¼çº²":5990,"ä½ĵéķ¿åı¯è¾¾":5991,"ä¹Ŀå¹´":5992,"åĮĹèµ·":5993,"Ġ2024å¹´":5994,"10å¹´":5995,"Ġä»İ":5996,"ĠIn":5997,"çļĦæĥħåĨµä¸ĭ":5998,"1äºº":5999,"Ġå¤§":6000,"Ġæ¦Ĥ":6001,"Ġ5":6002,"ä»ĸè¿ĺ":6003,"æ¯ķä¸ļåĲİ":6004,"Ġ2011å¹´":6005,"çŃīçŃī":6006,"hans":6007,"19å¹´":6008,"2äºº":6009,"è¯¥åľ°çļĦ":6010,"3äºº":6011,"hk":6012,"Ġ6":6013,"Ġ2010å¹´":6014,"ä»ĸè¢«":6015,"ĠåĴĮ":6016,"åĪĨåĪ«ä¸º":6017,"Ġ201":6018,"ĠçļĦæĹ¶åĮºä¸º":6019,"ĠäºİæĹ¶çļĦäººåı£æķ°éĩıä¸ºäºº":6020,"ĠæīĢå±ŀçļĦçľģçº§éĢīåĮºä¸º":6021,"Ġä¸İæİ¥å£¤çļĦå¸Ĥéķĩ":6022,"ĠçļĦéĤ®æĶ¿ç¼ĸçłģä¸º":6023,"Ġ192":6024,"1æľĪ1æĹ¥":6025,"ĠU":6026,"èīºäºº":6027,"éĺŁéķ¿":6028,"4äºº":6029,"éĿŀå»ºåĪ¶åľ°åĮº":6030,"Ġä»¥ä¸ĭ":6031,"ä»ĸä¸İ":6032,"ä½ĨçĶ±äºİ":6033,"çī¹èī²":6034,"1920å¹´":6035,"ä¾ĭåŃĲ":6036,"æĹ¥æĬ¥":6037,"Ġå®¶æĹı":6038,"åįĹèĩ³":6039,":),":6040,"ĠCh":6041,"å®ĥæĺ¯":6042,"éĵľçīĮ":6043,"æľºåĪ¶":6044,"æŃ¤æ¬¡":6045,"Ġzh":6046,"çļĦçĶµå½±":6047,"èĢĮéĿŀ":6048,"å½ĵå¤©":6049,"Ġéĺ¿":6050,"åħ¶ä¸ŃåĮħæĭ¬":6051,"èģĮä¸ļçĶŁæ¶¯":6052,"Ġ10":6053,"æĥħåĨµä¸ĭ":6054,"ä¼ļéķ¿":6055,"æŃ»åĲİ":6056,"Ġ2008å¹´":6057,"æĺ¯ä¸Ģé¢Ĺ":6058,"äº¦æĺ¯":6059,"1988å¹´":6060,"ç§įåŃĲ":6061,"2020å¹´ç¾İåĽ½äººåı£æĻ®æŁ¥çļĦæķ°æį®":6062,"ĠæĹ©å¹´":6063,"oĠ":6064,"ä¹Łä¸į":6065,"èĩ³äºİ":6066,"å¹¶ä¸İ":6067,"åĬŀäºĭå¤Ħ":6068,"57":6069,"ä»¥å¤ĸ":6070,"æĺİæľĿæĶ¿æ²»äººçī©":6071,"çļĦå·¥ä½ľ":6072,"ä¸ľä¸´":6073,"åİŁåĲį":6074,"Ġ2009å¹´":6075,"å¸Ńä½į":6076,"åįģäºĮå¹´":6077,"éĵ¶çīĮ":6078,"ä¼ļä¸Ĭ":6079,"ä»ĸä¹Ł":6080,"Ġå½ĵ":6081,"èĢĮä¸įæĺ¯":6082,"å¼łä¸ĵè¾ĳ":6083,"çĶ±æŃ¤":6084,"Ġt":6085,"æĺ¯å¾·åĽ½":6086,"Ġ2025å¹´":6087,"54":6088,"ä¼¯çī¹":6089,"Ġ7":6090,"å±±åĮº":6091,"äºĶæľĪ":6092,"çļĦåħ³ç³»":6093,"ä¼ļåĳĺ":6094,"1Ġ":6095,"å¾ĹåĲį":6096,"ä¹Łå°±æĺ¯":6097,"è©¹å§Ĩæĸ¯":6098,"åľ¨ä¸Ń":6099,"Ġæĸ°":6100,"æĺ¯ä¸Ģåº§":6101,"åİĺç±³":6102,"Ġåħ¶ä»ĸ":6103,"ç»¿èī²":6104,"1989å¹´":6105,"èĢĮæ°´åŁŁéĿ¢ç§¯ä¸º0":6106,"160":6107,"6äºº":6108,"èģĮä½į":6109,"1984å¹´":6110,"1ä¾ĭ":6111,"çĬ¹å¤ªäºº":6112,"1985å¹´":6113,"èĢĮè¯¥åľ°":6114,"è¿ŀä»»":6115,"å®¶ä¸Ń":6116,"ä»¥ä¸º":6117,"åĪĨåĪ«æĺ¯":6118,"Ġ200":6119,"å¥¹ä»¬":6120,"Ġé¦Ļæ¸¯":6121,"çļĦæĪĲåĳĺ":6122,"Ġ8":6123,"alĠ":6124,"æĺ¯é¦Ļæ¸¯":6125,"å¹¶è¢«":6126,"é»Ħèī²":6127,"Ġä»ĸ":6128,"Ġç¾İåĽ½":6129,"ĠæĪªèĩ³":6130,"å°¤åħ¶æĺ¯":6131,"ä¸ºæŃ¤":6132,"ä¸Ĭå¸Ĥ":6133,"2Ġ":6134,"Ġåī§æĥħ":6135,"5äºº":6136,"Ġ2007å¹´":6137,"éķ¿åŃĲ":6138,"51":6139,"å®īå¨ľ":6140,"æĺ¯ä¸Ģéĥ¨":6141,"1950å¹´":6142,"åħ¶å®ŀ":6143,"ĠæŃ¤å¤ĸ":6144,"å°Ķçľģ":6145,"äºļåĨĽ":6146,"tĠ":6147,"ç§ĺä¹¦éķ¿":6148,"JR":6149,"èĳ£äºĭéķ¿":6150,"åľ¨197":6151,"æł¡åĮº":6152,"è¿ĻéĩĮ":6153,"é©¬æĸ¯":6154,"ä¸»ä¹īèĢħ":6155,"æĪĲéķ¿":6156,"ç«ĭåľº":6157,"erĠ":6158,"éĢĶä¸Ń":6159,"7äºº":6160,"1986å¹´":6161,"ä½Ĩä»ĸ":6162,"ä¸¤èĢħ":6163,"å°¼å°Ķ":6164,"ä½¿åħ¶":6165,"ĠtheĠ":6166,"ä¸ºåħ¶":6167,"å¾·è¯Ń":6168,"èĢĮä¸į":6169,"è¯¥æĿĳ":6170,"ä¸º1":6171,"ä»ħæľī":6172,"çī¹éĩĮ":6173,"å¤©ä½ĵ":6174,"åħļåĳĺ":6175,"1980å¹´":6176,"ĠèĻ½çĦ¶":6177,"\".":6178,"æ¯ıæĹ¥":6179,"æĺ¯ä¹Įåħĭåħ°":6180,"åīįåĲİ":6181,"ä¸Ģå°ıæĹ¶":6182,"éĽ·æĸ¯":6183,"ä¼ļè®®åĳĺ":6184,"å¹¶çĶ±":6185,"ä¸¤ä¾§":6186,"ç§¯åĪĨ":6187,"ĠèĥĮæĻ¯":6188,"çļĦéŁ³ä¹Ĳ":6189,"åįģæľĪ":6190,"æľ¬äºº":6191,"è¥¿ä¾§":6192,"äºİ192":6193,"ä¸º2":6194,"å¤ļäºº":6195,"åı¦ä¸Ģæĸ¹éĿ¢":6196,"è¾ŀèģĮ":6197,"Ġ19":6198,"çļĦè§Ĵèī²":6199,"Ġ9":6200,"é¢Ĩåľ°":6201,"Ġä¸ŃåĽ½":6202,"åı¯è§ģ":6203,"1983å¹´":6204,"åľ°åĲį":6205,"åľ¨åı°æ¹¾":6206,"èĥľåĩº":6207,"178":6208,"çº¿ä¸Ĭ":6209,"éĺ¿éĩĮ":6210,"åľ¨èĭ±åĽ½":6211,"Ġæį®":6212,"ä¸ľä¾§":6213,"ç¬¦åı·":6214,"Ġæľī":6215,"åħĭå°Ķ":6216,"èĵĿèī²":6217,"åħ¶ä¸ŃçĶ·æĢ§":6218,"Ġåľ°æĸ¹":6219,"ä¸īæľĪ":6220,"çĻ»åľº":6221,"åľºåľ°":6222,"Ġn":6223,"ä½įäºİä¸ŃåĽ½":6224,"Ġto":6225,"Ġ0":6226,"1987å¹´":6227,"è¥¿æİ¥":6228,"æ®ĸæ°ĳåľ°":6229,"ä»ĸä»¬åľ¨":6230,"å¼ĹéĩĮ":6231,"1958å¹´":6232,"è½¦éĺŁ":6233,"èº«åĪĨ":6234,"äºİ2016å¹´":6235,"åĽĽæľĪ":6236,"åľ¨196":6237,"ä¸Ńåįİäººæ°ĳåħ±åĴĮåĽ½æĶ¿æ²»äººçī©":6238,"çļĦå½¢å¼ı":6239,"1948å¹´":6240,"åįļå£«åŃ¦ä½į":6241,"å®£ç§°":6242,"å½ĵæĹ¥":6243,"æ±īæĹı":6244,"\"),":6245,"93":6246,"1982å¹´":6247,"èīºæľ¯å®¶":6248,"å¤©åĲİ":6249,"ç«ŀèµĽ":6250,"Ġç¬¬":6251,"Ġ2006å¹´":6252,"åĽ½åĨĽ":6253,"92":6254,"æĺ¯åĽłä¸º":6255,"æ³ķè¯Ń":6256,"000äºº":6257,"è¥¿éĩĮ":6258,"åī§åľº":6259,"åľ¨ä»ĸ":6260,"è¶³çĲĥéĺŁ":6261,"ä¸¤ä½į":6262,"å¹²éĥ¨":6263,"åĪ¶ä½ľçļĦ":6264,"Ġåľ£":6265,"æģ©çľģ":6266,"çļĦæĸ¹æ³ķ":6267,"Ġæĺ¯":6268,"73":6269,"æĹłè®º":6270,"è¶³çĲĥè¿ĲåĬ¨åĳĺ":6271,"è¿Ļé¡¹":6272,"è®¾è®¡çļĦ":6273,"åĲĮæĹ¥":6274,"Ġä¸Ń":6275,"åľ¨æĸ°":6276,"åĪĨåĮº":6277,"èĢģå¸Ī":6278,"å¤§å¸Ī":6279,"çļĦæĢ»":6280,"åĽłåħ¶":6281,"86":6282,"äºİ2015å¹´":6283,"ä»İæŃ¤":6284,"1946å¹´":6285,"å¤§éĺª":6286,"æıĲåĩºäºĨ":6287,"2026å¹´":6288,"ä»ĸæĽ¾ä»£è¡¨":6289,"Ġde":6290,"æİ¥ä»»":6291,"ç¾¤ä½ĵ":6292,"æĺ¯ä¸º":6293,"ä¸īäºº":6294,"ç¦ıå»ºçľģ":6295,"åĽĽå·Ŀçľģ":6296,"âĢĿ)":6297,"åĬłåħ¥äºĨ":6298,"ç§°åĳ¼":6299,"Ġä¸ĭ":6300,"ä¸ºäºº":6301,"ä¸¾åĬŀçļĦ":6302,"1979å¹´":6303,"åıĳè¡ĮçļĦ":6304,"è§Ĵåº¦":6305,"ä»¥ä¾¿":6306,"åĲİè¢«":6307,"è¾ĵåĩº":6308,"æ¯ıå¤©":6309,"èªĵ":6310,"åĩ¶":6311,"å»ĸ":6312,"å±łæĿĢ":6313,"ä¸ľæµ·":6314,"çĽ´æĴŃ":6315,"ä¼ĬåĪ©":6316,"ä¾Ŀèµĸ":6317,"äºİ2014å¹´":6318,"èģļéĽĨ":6319,"åģľè½¦":6320,"æĹłçĹĩçĬ¶æĦŁæŁĵèĢħ":6321,"éĺ¿å°Ķåįĳæĸ¯":6322,"ä½İäºİ":6323,"æĢķ":6324,"äºİ190":6325,"æīĢåľ¨åľ°":6326,"ç¼´":6327,"ç¹ģæ®ĸ":6328,"èĤºçĤİ":6329,"è·¯æĺĵæĸ¯":6330,"ä¼ļæľī":6331,"åĪ¶ä½ľäºº":6332,"éĹ»åĲį":6333,"ç«Ł":6334,"æķĻå®Ĺ":6335,"äºĮæľĪ":6336,"èĤ¤":6337,"82":6338,"å¸ĸ":6339,"Ġ12":6340,"åħ±åĴĮåħļ":6341,"åĲĮæĹ¶è¯¥åľ°":6342,"ãĢĭãĢĬ":6343,"ä¾£":6344,"å·¨å¤§":6345,"åĪ¶æĪĲ":6346,"ç»´å¤ļ":6347,"èĲ½æĪĲ":6348,"éŀĭ":6349,"5ç±³":6350,"çļĦåİŁåĽł":6351,"åľ¨åĮĹäº¬":6352,"äºİ2012å¹´":6353,"çĽ¸åĲĮçļĦ":6354,"åĨħéĻĨçľģä»½":6355,"åŃ¦ç§ĳ":6356,"æ¼ł":6357,"å®¤åĨħ":6358,"äºİ2018å¹´":6359,"Ġä¸º":6360,"ä¿ĿéĻ©":6361,"èĴ²":6362,"çĶ°å¾Ħ":6363,"çº¢åĨĽ":6364,"çļĦç¾İåĽ½":6365,"æľªçŁ¥":6366,"å¯ĨåĪĩ":6367,"è´¹çĶ¨":6368,"å°¿":6369,"è®¤åı¯":6370,"æ¶Īéĺ²":6371,"1978å¹´":6372,"çļĦåĲįåŃĹ":6373,"å¤©åłĤ":6374,"éĺ²ç©º":6375,"è¾ħåĬ©":6376,"è½©":6377,"ä¸»äºĭ":6378,"èĭ±åĳİ":6379,"äº¤ç»Ļ":6380,"çłĶç©¶éĻ¢":6381,"è§Ĥçľĭ":6382,"ç½Ĺä¼¯çī¹":6383,"éĤ±":6384,"æīĵçł´":6385,"æ¡¥æ¢ģ":6386,"çĭ¬ç«ĭçļĦ":6387,"ä¸»æĮģäºº":6388,"||":6389,"çļĦè¯Ŀ":6390,"ä¸ĢèģĮ":6391,"ç½Ĺå¾·":6392,"ç¨£":6393,"è®¤è¯ģ":6394,"äººæĿĥ":6395,"è·¯æ®µ":6396,"åĨĴéĻ©":6397,"çĲĨçĶ±":6398,"å§Ķæīĺ":6399,"äºĶä¸ª":6400,"åķĨåºĹ":6401,"å«©":6402,"ä¼ļè¯ķ":6403,"éĥ¨éĥ¨éķ¿":6404,"çī¹åĮº":6405,"äºİ2017å¹´":6406,"æ£ĴçĲĥ":6407,"ä¸ºæĸ°":6408,"âĢĺ":6409,"èĢ¶ç¨£":6410,"å¡ŀå°Ķç»´äºļ":6411,"å¥ł":6412,"æĪĺéĺŁ":6413,"æľĢé«ĺçļĦ":6414,"åľ¨ä¸Ģ":6415,"éĩıåŃĲ":6416,"åī¯ä¹¦è®°":6417,"èģļèĲ½":6418,"èĩªæĪĳ":6419,"å¤©æ°Ķ":6420,"æ¼ĶåĮĸ":6421,"èµĦåĬ©":6422,"èĬĤåº¦":6423,"æŃ¤ç«Ļ":6424,"æĶ¹è¿Ľ":6425,"å¼ĹéĽ·":6426,"Ġç®Ģä»ĭ":6427,"ä»¥ä¸ĬçļĦ":6428,"æĶ¹ç§°":6429,"é£ŁçĶ¨":6430,"æĴ¤éĢĢ":6431,"å¤©æĸĩåı°":6432,"5ä¸ª":6433,"æľ¬ä½ľ":6434,"åĬłåĵ¥":6435,"å½±è§Ĩ":6436,"æī©å»º":6437,"çļĦæĥħ":6438,"æłĹ":6439,"åħ¶ä¸Ńä¸Ģä¸ª":6440,"èĬĿåĬłåĵ¥":6441,"ç©´":6442,"éĢļçŁ¥":6443,"åİŁåħĪ":6444,"è¯Ħä¸º":6445,"çļĨä¸º":6446,"ĠæĽ¾ç¥ĸ":6447,"é©¬ä¸ģ":6448,"çĤ¼":6449,"åº§æłĩä¸º":6450,"è´§è¿Ĳ":6451,"ai":6452,"çļĦæĹ¥":6453,"ä¸įæķĮ":6454,"æł¼å°Ķ":6455,"ä½įäºİè¯¥":6456,"Ġåľ°æĸ¹èµĦæĸĻ":6457,"äººæ°ĳä»£è¡¨å¤§ä¼ļ":6458,"æ´Ľåħĭ":6459,"æ¤İ":6460,"äºİ2013å¹´":6461,"çļĦæĿĳåºĦ":6462,"å¤§å¤«":6463,"èĭ¹":6464,"å±ķçİ°":6465,"çĶ»å®¶":6466,"çº³åħ¥":6467,"è®¸åı¯":6468,"ç»¥":6469,"çľł":6470,"çī¹æľĹ":6471,"è´§çī©":6472,"çİĭåŃĲ":6473,"åıªè¦ģ":6474,"é¸Ń":6475,"æĹ¶æĬ¥":6476,"ä¼Ĺè®®éĻ¢":6477,"èħ¿":6478,"æ¶µçĽĸ":6479,"700":6480,"Ġäº¤éĢļ":6481,"8äºº":6482,"éľŀ":6483,"cn":6484,"è¿Ļåº§":6485,"çº¦çĳŁ":6486,"åį³å°Ĩ":6487,"åħ«æľĪ":6488,"æĥ³è¦ģ":6489,"è½°çĤ¸æľº":6490,"æŃ»åĪĳ":6491,"äºİ2019å¹´":6492,"è´¢äº§":6493,"96":6494,"éªļ":6495,"å··":6496,"ä¸įè¦ģ":6497,"ä¸ĥæľĪ":6498,"åģļåĩº":6499,"åıĽä¹±":6500,"ä¸Ĭéĺµ":6501,"æľ¬çº¿":6502,"åĨħèĴĻåı¤":6503,"ç«ŀæĬĢ":6504,"ç§°åı·":6505,"ä¹¦ä¸Ń":6506,"1941å¹´":6507,"æĪĺæĸĹæľº":6508,"ä¸¸":6509,"äºİ2020å¹´":6510,"æľīè®¸å¤ļ":6511,"æĸ¹ä¾¿":6512,"å¨ħ":6513,"èħº":6514,"è½¯ä½ĵ":6515,"åįģä¸Ģå¹´":6516,"å¤ļåĲį":6517,"æľįè£ħ":6518,"éģŃåıĹ":6519,"ment":6520,"åįķåħĥ":6521,"ç¬¬ä¸Ģä½į":6522,"èħĵ":6523,"åĮºéĹ´":6524,"æ°ĳè¿Ľ":6525,"ä»Ĭå¤©":6526,"åĲĮæĹ¶ä¹Ł":6527,",),":6528,"æ¶Ľ":6529,"æŁ¥çĲĨ":6530,"å·¦ç¿¼":6531,"å¤§ä½¿é¦Ĩ":6532,"çī¹å°Ķ":6533,"éĩįéĩı":6534,"åĽŀå¿Ĩ":6535,"èį¡":6536,"ock":6537,"ä¸ľäºļ":6538,"è°Ĭ":6539,"éĩĳå±±":6540,"è£ģåĪ¤":6541,"åĮºåĪĨ":6542,"èµ·åĪĿ":6543,"å¨¶":6544,"çĽ´åįĩ":6545,"ç¤¾ç¾¤":6546,"åĮĹæµ·éģĵ":6547,"ä»¥æŃ¤":6548,"è°ĥå¿«":6549,"1944å¹´":6550,"ä¹ĭä¸º":6551,"æ²³è°·":6552,"åį«éĺŁ":6553,"åĨĻéģĵ":6554,"æ¯ĶèµĽä¸Ń":6555,"åĪĨå¸ĥåľ¨":6556,"æ¶īå«Į":6557,"èĲ¥ä¸ļ":6558,"é±¼éĽ·":6559,"è®¼":6560,"è¿Ľè¡ĮçļĦ":6561,"éĺ³å¸Ĥ":6562,"æķĮäºº":6563,"ah":6564,"ç©ºè¢Ń":6565,"åįıå®ļ":6566,"162":6567,"ä¸ºUTC":6568,"è¾Ĳå°Ħ":6569,"æĺ¯åı°æ¹¾":6570,"ä»¥ä¸ľ":6571,"è¯¥çīĩ":6572,"éĵĥ":6573,"åł¤":6574,"å¾ģæľį":6575,"ä¼łç»ŁçļĦ":6576,"æ³ķä»¤":6577,"ä½ĨåĽł":6578,"æł¼éĽ·":6579,"åĺīä¹ī":6580,"èŀįåĲĪ":6581,"æ¯Ĺ":6582,"æĬĦ":6583,"æİ©":6584,"è¿ŀè½½":6585,"åĻ¶":6586,"éĿĴå°ĳå¹´":6587,"åıĤæķ°":6588,"åıĤè®®éĻ¢":6589,"æ¯ıåĳ¨":6590,"æĪĺæľ¯":6591,"éķ¿çº¦":6592,"è½¬çļĦ":6593,"Ġåħ¶":6594,"éĩįè§Ĩ":6595,"):":6596,"åı¯åľ¨":6597,"æĭīçī¹":6598,"ç»ĪçĤ¹":6599,"ç£·":6600,"è§īå¾Ĺ":6601,"å¦Ĥä»Ĭ":6602,"æ³ķåħ°åħĭ":6603,"110":6604,"èĪĮ":6605,"æħ°":6606,"è°ĥå¿«ä¸Ģå°ıæĹ¶":6607,"9äºº":6608,"çĢ":6609,"éĥģ":6610,"é¢ĨåħĪ":6611,"å§Ķåĳĺä¼ļå§Ķåĳĺ":6612,"æ¿Ĵ":6613,"ä¾įéĥİ":6614,"èĩĤ":6615,"æĪĲçĨŁ":6616,"å¸ĥæľĹ":6617,"ç¤¾äº¤":6618,"åį³UTC":6619,"è®¾æľīå¤ıä»¤æĹ¶éĹ´":6620,"çļĦæĹ¶åĮºä¸ºUTC":6621,"æīĢéĩĩçĶ¨çļĦæĹ¶åĮºä¸ºUTC":6622,"èĢĮè¯¥åľ°æīĢéĩĩçĶ¨çļĦæĹ¶åĮºä¸ºUTC":6623,"åĲĮæĹ¶è¯¥åľ°è®¾æľīå¤ıä»¤æĹ¶éĹ´":6624,"æ¼Ķè®²":6625,"1972å¹´":6626,"éķĩåĮºçļĦ":6627,"äº¤æ±ĩ":6628,"ä½¿çĶ¨äºĨ":6629,"æ»¡æ´²":6630,"å»¶ç»Ń":6631,"Ġ2005å¹´":6632,"è¥¿æĸ¯":6633,"å½ĵä»£":6634,"éĢļå¾Ģ":6635,"çĥ¯":6636,"çĪµå£«":6637,"ä»İæľª":6638,"åį¡æĸ¯":6639,"åįķä¸Ģ":6640,"è´·":6641,"å·¥ä¼ļ":6642,"åŀĭåı·":6643,"177":6644,"æĦŁè§ī":6645,"ç²īä¸Ŀ":6646,"é«ĺäºİæµ·å¹³éĿ¢":6647,"MV":6648,"ure":6649,"çļĦæĶ¿æ²»":6650,"æĢ»çĽĳ":6651,"æį·åħĭ":6652,"7æľĪ1æĹ¥":6653,"æĮ¡":6654,"ä½Ļäºº":6655,"æİĴè¡Įæ¦ľ":6656,"åİ¿çŁ¥åİ¿":6657,"15å¹´":6658,"ä¼ļè¢«":6659,"158":6660,"çĽ¸å½ĵäºİ":6661,"æīĢå¤ĦçļĦæµ·æĭĶä¸º":6662,"æīĢå¤ĦçļĦæµ·æĭĶä¸ºé«ĺäºİæµ·å¹³éĿ¢":6663,"Ġ190":6664,"ä¹ĭå¤Ħ":6665,"è¯¥åħ¬åı¸":6666,"éĥ½è¢«":6667,"æŃ£æľĪ":6668,"è¡¥åħħ":6669,"ä¸ŃæľĢ":6670,"åº¶":6671,"æľīèĳĹ":6672,"çİ²":6673,"åŃĲå¥³":6674,"ä¸»å¯¼":6675,"éªĹ":6676,"æķĻèĤ²éĥ¨":6677,"ä¼¤äº¡":6678,"å®īå¾½çľģ":6679,"æĸ°åĨł":6680,"å¸Ĩ":6681,"å²ĽçļĦ":6682,"SS":6683,"Ġv":6684,"å¤§éĿ©åĳ½":6685,"èģª":6686,"æĦ¤":6687,"åŁİçļĦ":6688,"ä¿Ŀè¯ģ":6689,"æĻ®ç½Ĺ":6690,"åıĤä¸İäºĨ":6691,"æĹłäººæľº":6692,"Ġåı°æ¹¾":6693,"å¼ĵ":6694,"åľ°å½¢":6695,"çİ°åŃĺ":6696,"æ°¸ä¹ħ":6697,"ug":6698,"æĪĺåľº":6699,"åĲĪåĲĮ":6700,"é²¸":6701,"æĹ©ä¸Ĭ":6702,"1976å¹´":6703,"è¯¦ç»Ĩ":6704,"ç»´å¤ļåĪ©äºļ":6705,"aw":6706,"æµ·ä¸Ĭ":6707,"èįĨ":6708,"åķĨäºº":6709,"äºİ2010å¹´":6710,"èĦ±ç¦»":6711,"ç»ĺçĶ»":6712,"å·ŀéķ¿":6713,"åħ·å¤ĩ":6714,"å¾Īå°ĳ":6715,"åħ¶ä¸Ńä¸Ģ":6716,"äºĴåĬ¨":6717,"çİ°åľ¨çļĦ":6718,"æł¼éĩĮ":6719,"å°¼åı¤":6720,"ord":6721,"å²Ľä¸Ĭ":6722,"çĵ¶":6723,"çĻ»è®°":6724,"1956å¹´":6725,"éĿ¢ä½ĵ":6726,"æ¡Į":6727,"ä¼łæķĻ":6728,"åį³åĮĹç¾İ":6729,"æĮĩæĮ¥å®ĺ":6730,"ran":6731,"æĺ¯ä¿Ħç½Ĺæĸ¯":6732,"äºİ2021å¹´":6733,"ç¥¯":6734,"è·¯åı£":6735,"äº¬éĥ½":6736,"è¯ºå¤«":6737,"æ¾Ħ":6738,"æ©Ħ":6739,"éħ®":6740,"èİ·èĥľ":6741,"åºıåĪĹ":6742,"èĤ¡ä»½æľīéĻĲåħ¬åı¸":6743,"åľ°äºļ":6744,"éĽĨä½ĵ":6745,"çļĦæľĢ":6746,"æ¸ł":6747,"æ²³éģĵ":6748,"æİ¢éĻ©":6749,"éķĩåĮºçļĦéĿ¢ç§¯ä¸º":6750,"äº©":6751,"çļĦæŃĮæĽ²":6752,".âĢľ":6753,"ä»¥è¥¿":6754,"ä½ľä¸ļ":6755,"ä¸ĭä¸Ģ":6756,"182":6757,"æĽ´å¤ļçļĦ":6758,"æĸ½å·¥":6759,"140":6760,"åĪĩå°Ķ":6761,"åºĩ":6762,"åĪĨä¹ĭä¸Ģ":6763,"æĢ»è£ģ":6764,"æµģä¼ł":6765,"ç¿Įå¹´":6766,"äºĨä»ĸ":6767,"éĢīåĩº":6768,"èļĢ":6769,"ä¼Ĭæĸ¯åħ°æķĻ":6770,"ä¼ŀ":6771,"å§¿":6772,"è¿Ļåľº":6773,"èĩªç§°":6774,"åĬłå°Ķ":6775,"åĽĽä¸ĸ":6776,"è¾ĸåĮº":6777,"1937å¹´":6778,"æķĪåĬĽäºİ":6779,".(":6780,"å§ĳ":6781,"å¤ļæł·":6782,"å¾·æĦıå¿Ĺ":6783,"éĤĳ":6784,"åįģä¸īå¹´":6785,"IT":6786,"åįĹæŀģæ´²":6787,"97":6788,"æĨ":6789,"çļĦåıį":6790,"åĽ½éģĵ":6791,"åħ¬é¡·":6792,"84":6793,"çļĦä¸į":6794,"ä¸»åĬ¨":6795,"èĬŃ":6796,"å¤Ħéķ¿":6797,"164":6798,"æ©Ħæ¦Ħ":6799,"ç»ĳ":6800,"çļĦç¥ŀ":6801,"åĲİåľ¨":6802,"è¡Įäºº":6803,"èĩ´åĬĽ":6804,"çģŃç»Ŀ":6805,"6ä¸ª":6806,"çļĦè¡Įä¸º":6807,"çļĦåŁºç¡Ģ":6808,"ç»´åŁº":6809,"ä½Ľç½ĹéĩĮè¾¾":6810,"ä»Ĩ":6811,"åºļ":6812,"æ³Ħ":6813,"ä»ĸä¸º":6814,"ç§įç±»":6815,"æ»ķ":6816,"éŃĶæ³ķ":6817,"æĿŃå·ŀ":6818,"åĨħåľ°":6819,"äºĮçº§":6820,"æ¤ħ":6821,"äºĴèģĶç½ĳ":6822,"ä¹Łæ²¡æľī":6823,"å®¹çº³":6824,"1981å¹´":6825,"ç»ıçĶ±":6826,"å·´åĭĴ":6827,"çŁ¥åİ¿":6828,"1952å¹´":6829,"ä¸ľåįĹäºļ":6830,"æ±īåŃĹ":6831,"ç¥Ī":6832,"éĢļçĶ¨":6833,"çĽ¸åıį":6834,"çıŃæ¬¡":6835,"çĪ·":6836,"å°ĳå°Ĩ":6837,"ĠçĶ±":6838,"æĶ¿åıĺ":6839,"æ°Ķä½ĵ":6840,"1938å¹´":6841,"éĥ¨å°ļä¹¦":6842,"åĩºåľº":6843,"è¢«åĳĬ":6844,"æĶ¹å»º":6845,"æ²¿å²¸":6846,"ä¸İæŃ¤":6847,"1947å¹´":6848,"çĸ«èĭĹ":6849,"å±±è¥¿çľģ":6850,"åķĨåľº":6851,"åħŃæľĪ":6852,"ç¾¤ä¼Ĺ":6853,"94":6854,"km":6855,"åŃ¦ç³»":6856,"ç½©":6857,"è¿ĳä»£":6858,"åį«è§Ĩ":6859,"æ¡£æ¡Ī":6860,"æ¼Ķèīº":6861,"157":6862,"1955å¹´":6863,"èĭ¹æŀľ":6864,"ä»¥1":6865,"å¹¶æĹł":6866,"æ¸¯åħĥ":6867,"åķ¡":6868,"åĬ£":6869,"æĺ¯ä¸ª":6870,"æĭħå¿ĥ":6871,"æĶ»åįł":6872,"83":6873,"å¸ĥéĽ·":6874,"çº§èģĶèµĽ":6875,"æħİ":6876,"Ġä¸ªäºº":6877,"çļĦç»ĵæŀľ":6878,"åį³ä½į":6879,"ãĢĭ(\"":6880,"ĠX":6881,"çļĦçĶµ":6882,"éĢ¸":6883,"å®ŀä½ĵ":6884,"è¿ŀç»ĵ":6885,"äºİ2011å¹´":6886,"å¹³çŃī":6887,"å±±åİ¿":6888,"æĥ§":6889,"æ¸ħæ¥ļ":6890,"é¹ı":6891,"æİ¢ç´¢":6892,"81":6893,"oy":6894,"éķĩåİĭ":6895,"æĻ®é²ģå£«":6896,"ð«":6897,"éķĳ":6898,"çİ°ä¸º":6899,"163":6900,"æł¸éħ¸":6901,"æŀ¶æŀĦ":6902,"è´ª":6903,"çŁ®":6904,"çľģçļĦ":6905,"åįķæīĵ":6906,"çĥ·":6907,"å¼ķçĶ¨":6908,"è¡ĮæĶ¿éĻ¢":6909,"åĢ¼å¾Ĺ":6910,"åĪ¤åĨ³":6911,"ign":6912,"æıĲåĩºçļĦ":6913,"èľĤ":6914,"æĺ¯ä¸Ģä¸ªä½įäºİ":6915,"ä¸Ńå°Ĩ":6916,"é³ŀ":6917,"æ°ĳè¿Ľåħļ":6918,"æľŁçļĦ":6919,"åİŁä¸º":6920,"å¤«å¦ĩ":6921,"å¥³çİĭ":6922,"Ġä¸»è¦ģ":6923,"æīĳ":6924,"åĨĽäºº":6925,"ç»´åħĭ":6926,"æ¨±":6927,"çļĦä¸ĢæĿ¡":6928,"æ¸ħä»£":6929,"æĪĲç«ĭäºĨ":6930,"éĴ¢çĲ´":6931,"...":6932,"Ġå¯¹":6933,"è´¼":6934,"åħ±è®¡":6935,"æł¼æŀĹ":6936,"åĲįäºº":6937,"è°´":6938,"æĢ»ä¼ļ":6939,"çº³å·ŀ":6940,"æĶ¾åľ¨":6941,"ç¦ıå¾·":6942,"å±ĤçļĦ":6943,"1968å¹´":6944,"è¸ı":6945,"å½»åºķ":6946,"äºİ2022å¹´":6947,"åĮĹä¾§":6948,"å®ŀè·µ":6949,"å»ºçŃĳå¸Ī":6950,"åı²å¯Ĩæĸ¯":6951,"HD":6952,"éĢ¾":6953,"åĪ©çļĦ":6954,"æĺŁç³»":6955,"ä¿®éģĵ":6956,"å¸Įå°Ķ":6957,"ä¿ĦåĨĽ":6958,"ä¹¡éķĩ":6959,"ire":6960,"éĩįè¿Ķ":6961,"ä¿®è®¢":6962,"ä¸ĭäºĨ":6963,"ä¹ĿæľĪ":6964,"ust":6965,"åľ¨ä½į":6966,"åĪĨæł¡":6967,"æ±ŁæĪ·":6968,"åĬ³å·¥":6969,"ight":6970,"Ġè¥¿":6971,"åħ¶ä¸º":6972,"ä¸»åĬĽ":6973,"åĪ°çļĦ":6974,"åĵª":6975,"è¿ªå£«":6976,"çŃĴ":6977,"æĸ°å»º":6978,"æµ·åįĹ":6979,"åĪĹåĩº":6980,"æ¡ĥåĽŃ":6981,"YouT":6982,"è¡Įèµ°":6983,"çªĦ":6984,"ĠèĢĮ":6985,"Ġé©¬":6986,"èµĶ":6987,"åľ°ä¸Ń":6988,"åįĹä¾§":6989,"æł¼é²ģ":6990,"1939å¹´":6991,"çĶ»éĿ¢":6992,"éĻ¨çŁ³":6993,"ĠçĽ®åīį":6994,"å¤´è¡Ķ":6995,"å¼ķè¿Ľ":6996,"æķ´åĲĪ":6997,"äº§çĶŁäºĨ":6998,"äºĭå®ŀä¸Ĭ":6999,"æķ²":7000,"ä¸»æĿĥ":7001,"èĤ¢":7002,"å½ķåĪ¶":7003,"æ²³åĮĹçľģ":7004,"Ġå®¶åºŃ":7005,"åıĹå®³":7006,"å¥½è¯Ħ":7007,"1940å¹´":7008,"çºł":7009,"æĬĽ":7010,"è¿ĩçļĦ":7011,"èĹ»":7012,"ä¼¤å®³":7013,"Ġst":7014,"çĲĨæŁ¥":7015,"å§Ķä»»":7016,"è¯ģåĪ¸":7017,"åį¢çĵ¦å°Ķçľģ":7018,"PS":7019,"è¯¥åħļ":7020,"åĵĪèĲ¨åħĭ":7021,"è¿ªå£«å°¼":7022,"/&":7023,"æĽ¾æĺ¯":7024,"ç»´ä¿®":7025,"ä¸ĬäºĨ":7026,"è¾ĥä½İ":7027,"ä»įåľ¨":7028,"1960å¹´":7029,"son":7030,"åĲĬ":7031,"è°¥":7032,"å¤©ä¸ĭ":7033,"1954å¹´":7034,"åĨĢ":7035,"äºİ2023å¹´":7036,"çĽŁåĨĽ":7037,"ĠæĹ¥æľ¬":7038,"æŃ¤åīį":7039,"èµ·è¯ī":7040,"è®®å¸Ń":7041,"1942å¹´":7042,"èĩªè¡Įè½¦":7043,"åĿŁ":7044,"ä¼Ĭæĭīåħĭ":7045,"çĻ¾å¹´":7046,"åĩ¸":7047,"åĮºåĪ«":7048,"éģ®":7049,"ä½¿çĶ¨èĢħ":7050,"åįłæį®":7051,"æĹ¥åĲİ":7052,"å¤ļé¡¹":7053,"æĥ©":7054,"å®ĺèĩ³":7055,"åĶ¯ä¸ĢçļĦ":7056,"ĠéĻ¤äºĨ":7057,"ãĢģãĢĬ":7058,"åĲİæĸ¹":7059,"ä»»æķĻ":7060,"ib":7061,"ĠæĿİ":7062,"åľ¨åĮĹ":7063,"çĽ®çļĦæĺ¯":7064,"åĸĩ":7065,"åİĨåı²åŃ¦å®¶":7066,"2åı·":7067,"æĴŀåĩ»":7068,"å°ģä¸º":7069,"è¯Ĺäºº":7070,"æŃī":7071,"è¯ºæĽ¼":7072,"æĥ³æ³ķ":7073,"æľĽè¿ľ":7074,"ä¹ĭåĲİçļĦ":7075,"Ġåīį":7076,"ĠçĦ¶èĢĮ":7077,"Ġæķħäºĭ":7078,"æĪĺåĪĹ":7079,"è®¤åĲĮ":7080,"1975å¹´":7081,"èĥĮé³į":7082,"ç¬¬ä¸Ģæ¬¡ä¸ĸçķĮå¤§æĪĺ":7083,"çĩĥæĸĻ":7084,"iz":7085,"è¢«ä»»åĳ½ä¸º":7086,"æĹłçº¿çĶµè§Ĩ":7087,"per":7088,"çĶľ":7089,"èµ£":7090,"åĪĻæľī":7091,"æĥħç»ª":7092,"æŃ¦å¸Ŀ":7093,"1943å¹´":7094,"æľµ":7095,"æĶ»æīĵ":7096,"1970å¹´":7097,"å±¥":7098,"æłĩè®°":7099,"çĶ·å¥³":7100,"å®ĮæĪĲäºĨ":7101,"æĸ¯åł¡":7102,"æ¬¡äºİ":7103,"çķĮçļĦ":7104,"é£ŁæĢ§":7105,"edĠ":7106,"æĲºå¸¦":7107,"åħ¬åĬ¡":7108,"é¢ł":7109,"èĭıç»´åŁĥ":7110,"ingĠ":7111,"71":7112,"è®®é¢ĺ":7113,"æĤł":7114,"å¢ŀåĬłäºĨ":7115,"äºİ2009å¹´":7116,"çļĦåŁİå¸Ĥ":7117,"ç»µ":7118,"åŁİå¢Ļ":7119,"èĽĭçĻ½è´¨":7120,"çļĦè¯´æ³ķ":7121,"äººæ¬¡":7122,"åİ¥":7123,"ä¸Ĭè¯ī":7124,"äº¤åıī":7125,"åħĪè¿Ľ":7126,"æ¨¡çī¹":7127,"å¡ŀçº³":7128,"è°´è´£":7129,"çļĦæĹ¥æľ¬":7130,"åľ¨æ³ķåĽ½":7131,"æ¸Ĭ":7132,"éĻ¤æŃ¤":7133,"åį°ç¬¬":7134,"æĦ¿æĦı":7135,"å®ļæľŁ":7136,"èĬĻ":7137,"æ¢¨":7138,"ç»ıæµİåŃ¦":7139,"159":7140,"æ¹ĸæ³Ĭ":7141,"ä¸ĭè¾ĸä»¥ä¸ĭ":7142,"çŁĽçĽ¾":7143,"åį§":7144,"çī©åĵģ":7145,"çī¹æľĹæĻ®":7146,"çļĦæīĢæľī":7147,"åīįè¿Ľ":7148,"éĤµ":7149,"éĵģè·¯è½¦ç«Ļ":7150,"æĻºæħ§":7151,"å²©çŁ³":7152,"æĺ¯ä¸Ńåįİäººæ°ĳåħ±åĴĮåĽ½":7153,"ç½Ĺå¤«":7154,"åĽ¢ç»ĵ":7155,"åºĶå¯¹":7156,"156":7157,"éĺ³åİ¿":7158,"è°ĭæĿĢ":7159,"12æľĪ31æĹ¥":7160,"çĶŁéķ¿äºİ":7161,"ä¼Ļä¼´":7162,"çĽ´åįĩæľº":7163,"Ġä½¿çĶ¨":7164,"å¼Ģå·¥":7165,"åĿł":7166,"çĤŃ":7167,"ä¸ŃåĽ½åĽ½æ°ĳåħļ":7168,"è¿ĺåľ¨":7169,"åī¥":7170,"åĲĮåĲį":7171,"ä»£æĽ¿":7172,"éģĵåħī":7173,"æ²ĻçĶ°":7174,"ä¸ªä½ĵ":7175,"è¯¥æł¡":7176,"æĶ¶è´¹":7177,"ç«ĭæ³ķä¼ļ":7178,"æľĢæĹ©çļĦ":7179,"ä¸º0":7180,"èµĽçļĦ":7181,"æĶ¹åĪ¶ä¸º":7182,"éĥ½çĿ£":7183,"æıĲäº¤":7184,"å¸¸å¸¸":7185,"ä»įæľī":7186,"éĢīä¸¾ä¸Ń":7187,"å¦¹å¦¹":7188,"æľĽè¿ľéķľ":7189,"AS":7190,"ies":7191,"çº¿æĢ§":7192,"åĽĽå¤§":7193,"å¥¸":7194,"çĲĨå¿µ":7195,"çķħ":7196,"æĽ´æį¢":7197,"1990å¹´ä»£":7198,"æĤ¦":7199,"åıĳçĶŁäºĨ":7200,"èı²åĪ©":7201,"å·¨å¤§çļĦ":7202,"å¼ĢåĬŀ":7203,"çº³å¾·":7204,"ä¸ĵçĶ¨":7205,"åĵĪåĪ©":7206,"éļ¾æ°ĳ":7207,"é¢ģå¸ĥ":7208,"æŀ¢çº½":7209,"éĢ»è¾ĳ":7210,"åį°ç¬¬å®ī":7211,"ost":7212,"æĮĩæķ°":7213,"æĹ¶ä»£çļĦ":7214,"éĩĮåħĭ":7215,"æĶ¹åĲį":7216,"éĻįéĽ¨":7217,"az":7218,"æĹ±":7219,"æ±ŁåįĹ":7220,"ä¸»ç®¡":7221,"æĶ¿åĬ¡":7222,"å¯¹éĺµ":7223,"æīĢéľĢ":7224,"å¼ºåĪ¶":7225,"çĪ±åĽ½":7226,"åħ¨ä½ĵ":7227,"è¯ŃéŁ³":7228,"èģĮåĳĺ":7229,"æ´Ľæĸ¯":7230,"ich":7231,"æ©¡":7232,"ä»¥2":7233,"å¤§éĺŁ":7234,"è¡Įé©¶":7235,"æİĴåĪĹ":7236,"æµİåįĹ":7237,"åıĳçİ°çļĦ":7238,"1964å¹´":7239,"(;),":7240,"VD":7241,"ä¸ºåŁºç¡Ģ":7242,"èĤ©":7243,"ctionĠ":7244,"ä¸Ģäºº":7245,"è½¬ä¸º":7246,"åįıåķĨ":7247,"ä¹łæĥ¯":7248,"å´ĸ":7249,"åıĤè°ĭéķ¿":7250,"æĹ¥å¸¸":7251,"å¯¹ç§°":7252,"çİ°æľī":7253,"è°ģ":7254,"éĢīç§Ģ":7255,"è¿·ä½ł":7256,"ä¸įå¾Ĺä¸į":7257,"çļĦåĨħå®¹":7258,"å°ĺ":7259,"ä¸īåĽ½":7260,"èµĽä¸Ń":7261,"å¤ĸè§Ĥ":7262,"æĥľ":7263,"æł¼åĭĴ":7264,"é¦ĸæŃĮæĽ²":7265,"ä¹¦åĨĻ":7266,"ç½Ĺé©¬å¸ĿåĽ½":7267,"åĪĳäºĭ":7268,"èĸĩ":7269,"che":7270,"åĲįè¯į":7271,"åĲĪåĶ±":7272,"æĢ§åĴĮ":7273,"æİ¥èĳĹ":7274,"æł¹æľ¬":7275,"å¤´éĥ¨":7276,"å¥ĸéĩĳ":7277,"åį°åĪ·":7278,"è¥¿çıŃçīĻè¯Ń":7279,"åĴ¨è¯¢":7280,"æĺ¯ä¸ºäºĨ":7281,"ç«ĭéĻ¶":7282,"130":7283,"çī²":7284,"æģ¨":7285,";/":7286,"ld":7287,"äºĨä»ĸçļĦ":7288,"ãĢĮãĢį":7289,"èµĽè½¦":7290,"æ¢µ":7291,"è½¬ä¼ļ":7292,"å¡Ķå°¼":7293,"èĬĤåº¦ä½¿":7294,"å¯¹è¯Ŀ":7295,"è°į":7296,"èħ°":7297,"åįģåĽĽå¹´":7298,"çĪª":7299,"åĽ¾æ¡Ī":7300,"è®©ä»ĸ":7301,"ä¼ĲåĪ©äºļ":7302,"ä¸Ģå¤©":7303,"è°Ĳ":7304,"åĩĨç¡®":7305,"åĨłçĬ¶":7306,"åĵĢ":7307,"èĩªæŃ¤":7308,"ä¸¤å²¸":7309,"é¦ĸåº¦":7310,"é¢ĺæĿĲ":7311,"ä½ıæĪ¿":7312,"çļĦåľ°åĮº":7313,"çĽĪ":7314,"çĶ¨ä»¥":7315,"æŃ¤äºĭ":7316,"ç«ĻæĪ¿":7317,"ç»¼èīº":7318,"åľ¨è¥¿":7319,"æĢ¡":7320,"ä¹ŁæĽ¾":7321,"è§Ĥåħī":7322,"çģ«è½¦":7323,"ä»ĸè®¤ä¸º":7324,"èī²å½©":7325,"å¼¹èį¯":7326,"æĻºèĥ½":7327,"éķľå¤´":7328,"çĥŃå¸¦é£İæļ´":7329,"åŃŁåĬłæĭī":7330,"æ¹ĸåįĹçľģ":7331,"é«ĺåİŁ":7332,"éĵİ":7333,"èĻı":7334,"æĪĲç«ĭåĲİ":7335,"æİ¢æµĭ":7336,"å½ķå½±å¸¦":7337,"250":7338,"èĩĢ":7339,"äºĨè®¸å¤ļ":7340,"ä¸Ĭå¸Ŀ":7341,"åĬ¨è½¦":7342,"è°¦":7343,"äºİ2008å¹´":7344,"é©¬åħĭæĢĿ":7345,"çĽ¸åºĶ":7346,"ç«£":7347,"ç»´ä¹Ł":7348,"ç»§ä»»":7349,"åıĭå¥½":7350,"ç«ĭéĻ¶å®Ľ":7351,"æĪĲæŀľ":7352,"ä½ĵåĪ¶":7353,"åįĩæł¼ä¸º":7354,"ala":7355,"ä½ĵéªĮ":7356,"çĿĽ":7357,"é¾ĻçļĦ":7358,"çĻ¾ç§ĳ":7359,"è¡įçĶŁ":7360,"å¼Ħ":7361,"ç§ĳä¼ļè¯ķ":7362,"170":7363,"åĲĮæĹ¶ä¹Łæĺ¯":7364,"è¯ĨåĪ«":7365,"çºªå½ķçīĩ":7366,"æĳĩæ»ļ":7367,"å°Ķå¤«":7368,"èĢĮè¯¥åľ°çļĦ":7369,"çĳľ":7370,"ç¢°":7371,"åĨľåľº":7372,"è´Łè´£äºº":7373,"1936å¹´":7374,"æİĮæı¡":7375,"åĴĸåķ¡":7376,"ä¸ĢæĶ¯":7377,"åİŁæĿ¥":7378,"æ·ĳ":7379,"æ±īè¯Ń":7380,"éĿĴæĺ¥":7381,"æŃ¥æŀª":7382,"çŃ¹å¤ĩ":7383,"Ġå¤©":7384,"æ²¼":7385,"ä¸»æīĵ":7386,"èĤĿ":7387,"çŁ¥åºľ":7388,"æĻ¯è§Ĥ":7389,"çº¦çĳŁå¤«":7390,"ç¼Ŀ":7391,"æľŃ":7392,"ç±³åħ°":7393,"åĪ¤å¤Ħ":7394,"èļģ":7395,"ç¼ĸåı·ä¸º":7396,"æ¹ĸåĮĹçľģ":7397,"Ġç¬¬ä¸Ģ":7398,"å¤¸":7399,"çłĶç©¶çĶŁ":7400,"åįĥç±³":7401,"ä¸»æµģ":7402,"èĪĨ":7403,"Ġæ¦Ĥè¦ģ":7404,"æĺ¯ä¸į":7405,"åľ°äº§":7406,"è´¬":7407,"åħ¨çº¿":7408,"åıĳçĶŁçļĦ":7409,"åĲ¦è®¤":7410,"åľ°ä¸Ĭ":7411,"çī¹åħ°":7412,"åĬłåĪ©äºļ":7413,"é©±éĢĲèĪ°":7414,"(,;)":7415,"åĨħæĶ¿":7416,"æİ¥ç®¡":7417,"å®¹éĩı":7418,"èĪªçıŃ":7419,"åįĬå¹´":7420,"åĵ¥åĵ¥":7421,"1966å¹´":7422,"åĽ½éĺ²éĥ¨":7423,"çŁ©éĺµ":7424,",)":7425,"åľ¨éĤ£éĩĮ":7426,"çľģéģĵ":7427,"åħĥæľĿ":7428,"èĿł":7429,"å¥¥æĸ¯åį¡":7430,"ä¸ºä¸ŃåĽ½":7431,"æľ¬å±Ĭ":7432,"è¯¥å¸Ĥ":7433,"çĽ¸ç»§":7434,"åħµåĽ¢":7435,"æ³°åĭĴ":7436,"é¢Ħå¤ĩ":7437,"DS":7438,"å®ł":7439,"å¼ĢåĲ¯":7440,"ç®Ĺæ³ķ":7441,"mer":7442,"çļĦåľ£":7443,"æĪĺèĥľ":7444,"æĳĶ":7445,"å§Ĩæĸ¯":7446,"æµĨ":7447,"åįģäºĶå¹´":7448,"ç¥Ĳ":7449,"æĶ¹è£ħ":7450,"Ġç¬¬äºĮ":7451,"éĻķè¥¿çľģ":7452,"Ġå°½ç®¡":7453,"ä¹ĭéĻħ":7454,"çģ«çģ¾":7455,"æĪ¿éĹ´":7456,"åĲįè¿Ľå£«":7457,"çī©ä½ĵ":7458,"å±ħä½ıåľ¨":7459,"iĠ":7460,"çļĦæ¦Ĥå¿µ":7461,"à¸":7462,"æ¼Ĩ":7463,"æİ¨ç¿»":7464,"å¿ĹæĦ¿":7465,"çĻ¾å§ĵ":7466,"æĪĲåĪĨ":7467,"é¢ĸ":7468,"ä¸īç§į":7469,"èĭ±éķĳ":7470,"åĽŀåĽ½":7471,"å®¢æĪ·":7472,"æĹ§åĿĢ":7473,"äºİ2007å¹´":7474,"çĮľ":7475,"åŀĤçĽ´":7476,"è¿Ļç±»":7477,"åįĹæµ·":7478,"åĽłåºĶ":7479,"åĭĺ":7480,"æ²³æµģåŁŁ":7481,"Ġåı¦å¤ĸ":7482,"åħĶ":7483,"æĺ¯ä»İ":7484,"äºİæŃ¤":7485,"æĸ°åĮĹ":7486,"åħ¥åĽ´":7487,"å·´ä¼ĲåĪ©äºļ":7488,"æł¡èĪį":7489,"åģļæ³ķ":7490,"ä¼ģåĽ¾":7491,"ç¥Ńç¥Ģ":7492,"çļĦä¸ŃåĽ½":7493,"å¿Į":7494,"æĸ°ç«¹":7495,"éĿ¢åĲĳ":7496,"çĶµæ±ł":7497,"ç§°ä¹ĭä¸º":7498,"éĢīæ°ĳ":7499,"ĠThe":7500,"è·Į":7501,"ä¿Ŀå®ī":7502,"éĢłæĪĲçļĦ":7503,"pt":7504,"Ġ2004å¹´":7505,"äºİåĲĮå¹´":7506,"æľ¬ç§ĳ":7507,"éĩįå¤į":7508,"èĽĽ":7509,"1959å¹´":7510,"è¿ģç§»":7511,"ä¼Ĳåħĭ":7512,"ĠRe":7513,"è¾Ī":7514,"åıĺæį¢":7515,"ä¹Įæĸ¯":7516,"ç§©åºı":7517,"åĲĮæŃ¥":7518,"è¿«ä½¿":7519,"å¤§éĩıçļĦ":7520,"ç¬¬åįģä¸ī":7521,"éĺħè¯»":7522,"cl":7523,"æ°®":7524,"å°ºå¯¸":7525,"ä¸ºè¾Ĳé³įé±¼çº²é²":7526,"Ġæ¸¸æĪı":7527,"å¤§è¡Ĺ":7528,"ä¸Ńé¥°æ¼Ķ":7529,"åĲįä¸¾äºº":7530,"çī©çļĦ":7531,"(;)":7532,"MS":7533,"å±±çļĦ":7534,"äº¤çķĮ":7535,"çªģåĩº":7536,"èı²å°Ķå¾·":7537,"äººä¸º":7538,"ä»ĸåĴĮ":7539,"åıĳæİĺ":7540,"ä¸»ä½ĵ":7541,"èĢĮæĿ¥":7542,"å±±å¸Ĥ":7543,"åĵĪéĩĮ":7544,"ä½ıåľ¨":7545,"éĥİä¸Ń":7546,"åİ¦éĹ¨":7547,"çī¹æĢ§":7548,"åĮĸä¸º":7549,"ç¼ĸç»Ħ":7550,"YouTube":7551,"PC":7552,"åİī":7553,"åħ¬ä¼ļ":7554,"ä¸ºæľŁ":7555,"ä»ĸå¯¹":7556,"åĿŀ":7557,"æŁ¥å°Ķæĸ¯":7558,"æħķå°¼":7559,"ä½ĳ":7560,"åĮł":7561,"å¸ĥåħ°":7562,"æĽ´æĺ¯":7563,"å¹²çº¿":7564,"éģĹä¼ł":7565,"é©±åĬ¨":7566,"èµ¢å¾ĹäºĨ":7567,"äºİ2024å¹´":7568,"èĤĩ":7569,"çľ¼çĿĽ":7570,"çĺ¤":7571,"æĬĳåĪ¶":7572,"au":7573,"å¤§åħ¬":7574,"çľģæİ¥å£¤":7575,"å·´èµ«":7576,"åĵģè´¨":7577,"è¾¹çļĦ":7578,"çĹħéĢĿ":7579,"åĲİæĿ¥çļĦ":7580,"æĪĺäºīæľŁéĹ´":7581,"æŃ§è§Ĩ":7582,"\"(":7583,"æ¡Ĳ":7584,"æıĲåīį":7585,"æµģéĩı":7586,"èľĢ":7587,"ç±»ä¼¼çļĦ":7588,"ĠéĻĪ":7589,"çļĦåŃ¦çĶŁ":7590,"æµ¸":7591,"æĮº":7592,"èŃ¦æĬ¥":7593,"äºĭåĬ¡æīĢ":7594,"ä¸ľäº¬éĥ½":7595,"åķĨåĬ¡":7596,"æĪĺäºīä¸Ń":7597,"ç©¿è¿ĩ":7598,"Ġ16":7599,"èµĮ":7600,"ä»»åĨħ":7601,"é©¹":7602,"äºĭåĲİ":7603,"åĩĨåĨ³èµĽ":7604,"æĹ¥è¯Ń":7605,"ä¸¤æĿ¡":7606,"æĥħèĬĤ":7607,"åı¤å·´":7608,"åįģåħŃå¹´":7609,"ä¹Łåı¯":7610,"å®ŀåĬĽ":7611,"åİ¿çļĦä¸Ģä¸ªéĿŀå»ºåĪ¶åľ°åĮº":7612,"è¤Ĳèī²":7613,"æħķå°¼é»ĳ":7614,"æĪĬ":7615,"å¤§å®¶":7616,"å®¶ä¹¡":7617,"çĵ·":7618,"åĩłä½ķ":7619,"éĽķå¡ĳ":7620,"åĨłçĬ¶çĹħæ¯Ĵ":7621,"Ġ191":7622,"æľ¬ä¹¦":7623,"çī¹çĤ¹":7624,"æ´Ľå¤«":7625,"èİ±æĸ¯":7626,"1974å¹´":7627,"ä¾Ŀçħ§":7628,"æĿ¥èĩªäºİ":7629,"çīµå¼ķ":7630,"ç»´ä¹Łçº³":7631,"èº«ä¸Ĭ":7632,"sectionĠ":7633,".)":7634,"åİŁçĲĨ":7635,"å¢ŀè®¾":7636,"ä»ħæ¬¡äºİ":7637,"ç«£å·¥":7638,"91":7639,"åıĬåħ¶ä»ĸ":7640,"åįĹç¾İæ´²":7641,"ç»ıçºª":7642,"éĻ¢å£«":7643,"1953å¹´":7644,"ä¸¥éĩįçļĦ":7645,"ĠåĮĹ":7646,"ä¸ºçĶ±":7647,"æķĪçİĩ":7648,"ä¿Ĺç§°":7649,"åįĹæĸ¯æĭīå¤«":7650,"æ»¤":7651,"æ»ĭ":7652,"åĪĴå½Ĵ":7653,"é¢Ĩå¯¼çļĦ":7654,"å¹ķåºľ":7655,"æŁĦ":7656,"èģĶåĨĽ":7657,"æľ¯è¯Ń":7658,"ä½įäºİä¸Ńåįİäººæ°ĳåħ±åĴĮåĽ½":7659,"èĮĦ":7660,"åĮ»åŃ¦éĻ¢":7661,"æ·»åĬł":7662,"çļĦéķ¿":7663,"åĨħæľī":7664,"çĶ²åŁº":7665,"ç»ĥä¹ł":7666,"èĬ¦":7667,"çĸ¯":7668,"åľ£ç»ı":7669,"è¾ĥå¤§":7670,"ç»ĨèıĮ":7671,"hant":7672,"çļĦéĺ¿":7673,"å¤§çĲĨ":7674,"æīŃ":7675,"éħ¯":7676,"æĿĳæ°ĳ":7677,"ath":7678,"ä¿®éģĵéĻ¢":7679,"å¦ĤåĲĮ":7680,"æĮĩè´£":7681,"æ¿ĢçĥĪ":7682,"ä¸Ĭæĸ¹":7683,"ç§°èµŀ":7684,"ä¿ĿåĬłåĪ©äºļ":7685,"åĽŀåĲĪ":7686,"ann":7687,"æĹ©åľ¨":7688,"èĢĥå¯Ł":7689,"éĢĶç»ı":7690,"èĻļæĭŁ":7691,"Ġæł¹æį®2020å¹´ç¾İåĽ½äººåı£æĻ®æŁ¥çļĦæķ°æį®":7692,"å¤§æ°Ķ":7693,"åŁİåİ¿":7694,"çº¦1":7695,"èİ·å¥ĸ":7696,"äºīå¤º":7697,"åįģäºĮæľĪ":7698,"IV":7699,"ram":7700,"âĨ":7701,"æĶ»åĬ¿":7702,"æī¿æĭħ":7703,"1973å¹´":7704,"çļ®èĤ¤":7705,"éģĩåĪ°":7706,"çļĦåĽ½éĻħ":7707,"å¤ļåħĥ":7708,"æ£į":7709,"åŃ£åĲİ":7710,"åĪĨæĪĲ":7711,"æĸ¹ç¨ĭ":7712,"åīįèº«":7713,"è¶ģ":7714,"ç¾İåĽ½äºº":7715,"åĽ¢éķ¿":7716,"æ£±":7717,"å°±åľ¨":7718,"çļĦæĪĲç»©":7719,"éĺŁåĳĺ":7720,"ä½Ĩåħ¶":7721,"æķ°åįģ":7722,"åĲĳåĮĹ":7723,"èİ·åıĸ":7724,"çĽ´è·¯":7725,"ä¹¡æĿĳ":7726,"1977å¹´":7727,"é¡ºåºı":7728,"æľ«æľŁ":7729,"è¸¢":7730,"8ä¸ª":7731,"æĻ´":7732,"åħĥéŁ³":7733,"å¥³åŃ©":7734,"Ġè¯Ħä»·":7735,"åı¸èģĮ":7736,"åĩºçİ°çļĦ":7737,"1935å¹´":7738,"åħ¬åħ±äº¤éĢļ":7739,"Ġe":7740,"å¸ľ":7741,"æ»¥":7742,"åľ°ä¸Ńæµ·":7743,"ET":7744,"çļĦçĶŁæ´»":7745,"æĢ»ç«Ļ":7746,"åıĹæįŁ":7747,"è±¹":7748,"155":7749,"é»ĳäºº":7750,"è¡ĮæĶ¿ä¸Ńå¿ĥ":7751,"1957å¹´":7752,"ä½ľæĽ²å®¶":7753,"14å¹´":7754,"NBA":7755,"Ġg":7756,"åĿ¤":7757,"å£«é¡¿":7758,"å±Ģå±Ģéķ¿":7759,"åĳ¨åĪĬ":7760,"èĲ¨æĭī":7761,"ä¸Ńåıĳçİ°":7762,"ç¥¸":7763,"Ġåħ¶ä¸Ń":7764,"åĩºèµĽ":7765,"å¥³ä¸»è§Ĵ":7766,"é¥¶":7767,"åĩłå¹´":7768,"å®ģæ³¢":7769,"æĺ¯æĦıå¤§åĪ©":7770,"åĵģç§į":7771,"åĵĪæĭī":7772,"ç¥ĸåħĪ":7773,"æĲŀ":7774,"éĺ´è°ĭ":7775,"äºĳåįĹçľģ":7776,"å¤ªåĲİ":7777,"æĿ¡æ¬¾":7778,"152":7779,"çĮ´":7780,"å©´åĦ¿":7781,"çļĦçĪ¶äº²":7782,"è¿Ļä¹Łæĺ¯":7783,"çĶ·åŃ©":7784,"æ··ä¹±":7785,"å±ŀçļĦæ¤įçī©":7786,"æ§½":7787,"çļĦæ¸¸æĪı":7788,"å·´åŁº":7789,"éĽ·è¾¾":7790,"è´Ŀåħĭ":7791,"å¦¥":7792,"æĻ®æĭī":7793,"ä¿¡å¾Ĵ":7794,"æŃ»äºİ":7795,"ä½ĵèĤ²é¦Ĩ":7796,"äº®çĽ¸":7797,"åĬłåĪ©ç¦ıå°¼äºļå·ŀ":7798,"å¯ĩ":7799,"æľĢå¤ļçļĦ":7800,"èĲĿ":7801,"æİ¨æµĭ":7802,"æ¤Ń":7803,"ç»ĨèĬĤ":7804,"ĠaĠ":7805,"åľ¨ä¸Ĭæµ·":7806,"åĬłä»¥":7807,"éĩįç»Ħ":7808,"åĽ½å®¶åħ¬åĽŃ":7809,"æİ¨è¡Į":7810,"äºİ2006å¹´":7811,"å·´åĭĴæĸ¯åĿ¦":7812,"åıĸèĩª":7813,"è®ºåĿĽ":7814,"æĳ©å°Ķ":7815,"çļĦä¸»é¢ĺ":7816,"æ¡Ĩæŀ¶":7817,"ä¸ľåĮº":7818,"å±±åľ°":7819,"çĽ¸è¿ŀ":7820,"è¯īè®¼":7821,"åĳ¼åĲ¸":7822,"é¥®é£Ł":7823,"ç¤ºå¨ģèĢħ":7824,"é»ĳé¾Ļæ±Łçľģ":7825,"ix":7826,"Ġ11":7827,"å¾Ļ":7828,"è¢«åıĳçİ°":7829,"è¿Ļé¦ĸæŃĮ":7830,"çĤ³":7831,"éĢģåĪ°":7832,"éĢĶå¾Ħ":7833,"å¤ľéĹ´":7834,"å·©":7835,"åĪĨè§£":7836,"1971å¹´":7837,"åı¯ä»¥éĢļè¿ĩ":7838,"å¼ķç§į":7839,"é¥¼":7840,"éĻĦåĬł":7841,"å¯Įæ±Ĺ":7842,"And":7843,"çļĦéĿ¢ç§¯ä¸º":7844,"æ¬ł":7845,"æ°´éĩı":7846,"æĸ°åĨłèĤºçĤİ":7847,"æŃĮåĶ±":7848,"ç§»å±ħ":7849,"æĭ¿çł´":7850,"è¿½æ±Ĥ":7851,"ach":7852,"å±ĭé¡¶":7853,"å°±è¯»äºİ":7854,"èĩ´åĬĽäºİ":7855,"çļĦåŁİéķĩ":7856,"è®½":7857,"æĺ¯è¥¿çıŃçīĻ":7858,"æľºæŀª":7859,"çĽ¸éĤ»":7860,"æĿ°åħĭéĢĬ":7861,"æľīçĿĢ":7862,"ä»ĸäºº":7863,"è¯ĬæĸŃ":7864,"ç«ĭæĸ¹ç±³":7865,"æĭ¿çł´ä»ĳ":7866,".ãĢĮ":7867,"pp":7868,"é«ĺæŀ¶":7869,"å¤ĸåĽ´":7870,"ç¾İåĽ½æĢ»ç»Ł":7871,"çİ¯å½¢":7872,"æī¹åĪ¤":7873,"1951å¹´":7874,"èĪªç©ºåħ¬åı¸":7875,"æĢ»ç»ıçĲĨ":7876,"æ£ļ":7877,"æµģåĬ¨":7878,"ç¬¬åįģä¸Ģ":7879,"æ»ĳéĽª":7880,"Ġä¸Ģ":7881,"çļĦä¸ĸçķĮ":7882,"æĺ¯èĭ±åĽ½":7883,"å¾·åħĭ":7884,"çī©èµĦ":7885,"å¦ĸ":7886,"æ¯Ķå°Ķ":7887,"ç»ĪæŃ¢":7888,"æħĪåĸĦ":7889,"HK":7890,"æīĩ":7891,"ä¸īå¤§":7892,"ä¸īçĶ²":7893,"è°£":7894,"æ¡ĵ":7895,"175":7896,"åºķå±Ĥ":7897,"éĽĨåĽ¢åĨĽ":7898,"å´ĩç¥¯":7899,"åĨ»":7900,"åı¸æľº":7901,"èĳµ":7902,"å§ĭç»Ī":7903,"æłĩé¢ĺ":7904,"åħµåĬĽ":7905,"æ²Īéĺ³":7906,"gin":7907,"ä¸Ńå¼ı":7908,"åĩºèĩª":7909,"è¿ĩæ¸¡":7910,"å±±é¡¶":7911,"ç¦§":7912,"åĬĽåŃ¦":7913,"åĪĻçĶ±":7914,"éĴ©":7915,"åħ¬éĩĮçļĦ":7916,"å·¥ä½ľçļĦ":7917,"13å¹´":7918,"ci":7919,"å®ļçĲĨ":7920,"åľ£æ¯į":7921,"è¿ĲåĬ¨çļĦ":7922,"4æľĪ1æĹ¥":7923,"ä¸Ńä¸ĸçºª":7924,"ä¸ĭæĸ¹":7925,"çĪ¬":7926,"è£´":7927,"ä¸Ńå¿ĥçļĦ":7928,"ç§ĺé²ģ":7929,"å±ħæ°ĳçĤ¹":7930,"æĸĮ":7931,"ä»£çļĦ":7932,"æŁľ":7933,"åħĥå¸ħ":7934,"å§Ķåī¯ä¹¦è®°":7935,"æ²³åı£":7936,"çģ«è½¦ç«Ļ":7937,"é³Ħ":7938,"éŁ¦å°Ķ":7939,"å½¼æŃ¤":7940,"ç²ĴåŃĲ":7941,"Ġl":7942,"åħ¥å¢ĥ":7943,"èĤ¿":7944,"æ¼Ĥ":7945,"old":7946,"ĠæľĪ":7947,"å·¥åķĨ":7948,"æĴĳ":7949,"æ·±åħ¥":7950,"åĥıæĺ¯":7951,"ç¬¬ä¸īæ¬¡":7952,"000åĲį":7953,"ris":7954,"åħ¬å¯ĵ":7955,"çĲĥè¿·":7956,"ç»ĵè®º":7957,"å½¢çļĦ":7958,"ç¡ķå£«åŃ¦ä½į":7959,"å±¡":7960,"è¾±":7961,"éĨī":7962,"åİĮ":7963,"çĦļ":7964,"æĽ¾ä¸º":7965,"æīĭä¸Ń":7966,"ark":7967,"çİ¯çĲĥ":7968,"èĵĦ":7969,"è¯ĳä¸º":7970,"äºĨå¯¹":7971,"åħ¶åľ¨":7972,"èĭıéĩĮ":7973,"ç¦ıéŁ³":7974,"çªĥ":7975,"æĵ¦":7976,"å¤©æ´¥å¸Ĥ":7977,"å®ĥä»¬çļĦ":7978,"åľ¨ä»ĸçļĦ":7979,"çŃīå¾ħ":7980,"å±ĢçļĦ":7981,"çªģåİ¥":7982,"å¼Ĺæĭī":7983,"ä¼ĺåħĪ":7984,"èģĤ":7985,"åĮĹéŁ©":7986,"çīĪçļĦ":7987,"åį°è±¡":7988,"åį°åº¦æķĻ":7989,"æ©Ļ":7990,"è½¬çļĦå°ıè¡ĮæĺŁ":7991,"ä¸ºé¦ĸ":7992,"çĶ±äººå·¥":7993,"è¶³çĲĥèģĶèµĽ":7994,"æĽ²çĽ®":7995,"é¢ĦåĳĬ":7996,"æĹ©æľŁçļĦ":7997,"EC":7998,"æĹŃ":7999,"æĺ¯åįĹæŀģæ´²":8000,"åıĳéŁ³":8001,"åĬłåĭĴ":8002,"ä¸īæ¬¡":8003,"00å¹´":8004,"èģĮæ£Ĵ":8005,"ç¦ıåĪ©":8006,"ä½İæ°Ķåİĭ":8007,"ç¿°æŀĹ":8008,"çļĦèĥ½åĬĽ":8009,"è¿ĩäºİ":8010,"è¯¥åī§":8011,"ç³ķ":8012,"æł¼å¼ı":8013,"èĳĹæľī":8014,"çĪ±çļĦ":8015,"å¾®è½¯":8016,"å¹³åĿĩæµ·æĭĶé«ĺåº¦":8017,"çĥŃå¸¦æ°ĶæĹĭ":8018,"çĲĨäºĭä¼ļ":8019,"çİĭä½į":8020,"ç¬¼èįī":8021,"æł¼æĭīæĸ¯":8022,"è¯ºä¼Ĭ":8023,"åĪºæ¿Ģ":8024,"çĮªç¬¼èįī":8025,"05":8026,"åİĿ":8027,"è´¿":8028,"å¾·æĸ¯":8029,"åı²èĴĤ":8030,"åī¯ä½¿":8031,"åµĮ":8032,"å¹¶ä¸įæĺ¯":8033,"åıĸå¾ĹäºĨ":8034,"åħħåĪĨ":8035,"EN":8036,"ä¸ĢçĻ¾":8037,"çºº":8038,"åİ¿åŁİ":8039,"ont":8040,"å¼ºåĮĸ":8041,"éĢĤçĶ¨äºİ":8042,"åľ¨ä¸Ģä¸ª":8043,"ç¼Ķ":8044,"çº§çļĦ":8045,"åĭ¾":8046,"å°±æľī":8047,"èº²":8048,"çīĩæ®µ":8049,"ä¸ģåł¡":8050,"åħ±äº§ä¸»ä¹ī":8051,"ç½ķé»ĺ":8052,"åħĭç½Ĺåľ°äºļ":8053,"å°¸ä½ĵ":8054,"Ġh":8055,"çļĦå¥³åĦ¿":8056,"åĴĮå¤§":8057,"åĲįèªī":8058,"ä¸ĭè½½":8059,"çĶµåĬ¨":8060,"å¥½åıĭ":8061,"é¥¥":8062,"å»ºåĽ½":8063,"åıĤè§Ĥ":8064,"å¥³æ¼Ķåĳĺ":8065,"æ¯ıæ¬¡":8066,"åĲİåıĪ":8067,"çİĭå®¤":8068,"é£ŀå¼¹":8069,"å½¢æĪĲçļĦ":8070,"AL":8071,"Ġ2003å¹´":8072,"äººç§°":8073,"è¿Ļä¸¤ä¸ª":8074,"è¯¥åľ°åĮº":8075,"æİ§èĤ¡":8076,"åģļä¸º":8077,"1967å¹´":8078,"åħ¹çľģ":8079,"ãĥ¼":8080,"åıĻè¿°":8081,"èĢĮè¯¥åľ°çļĦå¹³åĿĩæµ·æĭĶé«ĺåº¦":8082,"å·´åŁºæĸ¯åĿ¦":8083,"å¼ķç§įæł½åŁ¹":8084,"åı°å¸ģ":8085,"å¸¸å§Ķä¼ļ":8086,"èº«äº¡":8087,"è®¾è®¡å¸Ī":8088,"å¼Ĥå¸¸":8089,"è´¢åĬ¡":8090,"Ġç»ıæµİ":8091,"æĺı":8092,"è¿Ľåı£":8093,"éĿ¢ç§¯1":8094,"2010å¹´ç¾İåĽ½äººåı£æĻ®æŁ¥çļĦæķ°æį®":8095,"åĢŁçĶ±":8096,"ä¸İæŃ¤åĲĮæĹ¶":8097,"ä»»å¤©åłĤ":8098,"æ¬¡æĹ¥":8099,"éģĹè¿¹":8100,"EP":8101,"rit":8102,"éķ¿å®ī":8103,"éģĵçļĦ":8104,"è£¸":8105,"èĪªçº¿":8106,"çģ«æĺŁ":8107,"ä¹ĺåĿĲ":8108,"çĶŁäº§çļĦ":8109,"è¿Ľå£«åĩºèº«":8110,"Î±":8111,"ãĢį;":8112,"å»ºæľī":8113,"æĿĥçļĦ":8114,"åĸī":8115,"å®£åĳĬ":8116,"ä¿Ħäº¥":8117,"1965å¹´":8118,"éĻ¤æŃ¤ä¹ĭå¤ĸ":8119,"ä¿Ħäº¥ä¿Ħ":8120,"ç§ĳå¹»":8121,"çº³å°Ķ":8122,"ç¥ŀåľ£":8123,"ç¬¬ä¸Ģå±Ĭ":8124,"çħ§é¡¾":8125,"Play":8126,"æĸ¯éĩĮ":8127,"å¤©ä½¿":8128,"10æľĪ1æĹ¥":8129,"è½¬ä»»":8130,"åĪĿå¹´":8131,"çĭ¬çī¹çļĦ":8132,"çĶ±äººå·¥å¼ķç§įæł½åŁ¹":8133,"ect":8134,"ç¼ĸåĨĻ":8135,"éĤ£æł·":8136,"å¥´éļ¶":8137,"æķ°çĻ¾":8138,"è¿Ĳæ²³":8139,"æīĭæŀª":8140,"å®£è¨Ģ":8141,"åľ¨åĨħ":8142,"ä¼Ĭå°Ķ":8143,"åŃĺåľ¨çļĦ":8144,"ä¸Ĭæ¸¸":8145,"åŃĲå¼¹":8146,"åŁºè¾ħ":8147,"ert":8148,"çĶµè§ĨåĬ¨çĶ»":8149,"çļĦå¤§åŀĭ":8150,"ä¸ĭè¾ĸä»¥ä¸ĭåľ°åĮº":8151,"16å¹´":8152,"åĲĮåŃ¦":8153,"åı·ä¸º":8154,"å·´å¡ŀå°Ķ":8155,"èįĥ":8156,"èĻĲ":8157,"åįģä¸ĢæľĪ":8158,"\").":8159,"åİ¨":8160,"åīįçº¿":8161,"æ¶¡":8162,"åĪĴåĪĨ":8163,"åĮ»å¸Ī":8164,"çºªå¿µç¢ĳ":8165,"ä¸Ģéĥ¨åĪĨ":8166,"ä¸Ńä¹¦":8167,"ä¹ĭåĲį":8168,"æĹłéĻĲ":8169,"ç½ĳä¸Ĭ":8170,"1969å¹´":8171,"ide":8172,"Ġä»¥":8173,"Ġæĭī":8174,"ĠPro":8175,"æĭ¦":8176,"æĸ°äºº":8177,"çķľ":8178,"æµģç»ı":8179,"è°ĥèĬĤ":8180,"å½¢æĪĲäºĨ":8181,"ä¸º3":8182,"æĿ¥å¾Ģ":8183,"å°¼å¥¥":8184,"éĩĳåĪļ":8185,"èĤ¯å®ļ":8186,"æĸĩæľ¬":8187,"æĢ»é¢Ŀ":8188,"è¯ºæĸ¯":8189,"ä»¥å¤ĸçļĦ":8190,"å°Ķé¡¿":8191,"åı£å¾Ħ":8192,"åįģå¤§":8193,"å¸¸è§Ħ":8194,"åĽŀçŃĶ":8195,"èİ·å¾Ĺä¸Ģæŀļ":8196,"é²ģæĸ¯":8197,"æĶ¹ç¼ĸèĩª":8198,"åĮºåĴĮ":8199,"åŁºéļĨ":8200,"éĺ¿å¯Įæ±Ĺ":8201,"æĶ¯æĮģèĢħ":8202,"éĺµå®¹":8203,"æ®ĭçĸ¾":8204,"å¹¸åŃĺ":8205,"å¥¥æĸ¯æĽ¼":8206,"åĽ½è¯Ń":8207,"åİŁåĪĽ":8208,"è®¤å®ļ":8209,"æŀģç«¯":8210,"MP":8211,"æľīåı¯èĥ½":8212,"çĽ²":8213,"ä¸įåıĺ":8214,"éķ¿å¤§":8215,"ç»´åĲ¾":8216,"èĭıå·ŀ":8217,"éĿ¢ç§¯0":8218,"ä¾Ľå¥ī":8219,"èĢ¶å¤«":8220,"1933å¹´":8221,"éĩĩçĶ¨äºĨ":8222,"æĮīå¯Ł":8223,"ç©Ĩç½ķé»ĺ":8224,"è¯ŀçĶŁ":8225,"æĮ¤":8226,"åħ³èģĶ":8227,"åĲĳåįĹ":8228,"ç®¡åĪ¶":8229,"è®¤çŁ¥":8230,"è¿ĺåĮħæĭ¬":8231,"åĬŀæ³ķ":8232,"åī¯éĥ¨éķ¿":8233,"åĪ¤æĸŃ":8234,"ç´§å¼ł":8235,"ä½įäºİè¯¥çľģ":8236,"11å¹´":8237,"âĪ":8238,"æĶĢ":8239,"å¾ĹåĪĨ":8240,"ä¹ŁåĽłæŃ¤":8241,"åĸ»":8242,"è¯įæ±ĩ":8243,"çĽ®åīįå°ļæľª":8244,"åĲĮæĢ§æģĭ":8245,"Ġ18":8246,"åĴĮä»ĸçļĦ":8247,"è¿Ļéĥ¨":8248,"å²Ĳ":8249,"çĹķ":8250,"æ°Ķæ¸©":8251,"ç©¿è¶Ĭ":8252,"ç»´åĲ¾å°Ķ":8253,"yn":8254,"äºĨä¸ĢäºĽ":8255,"æįī":8256,"é»Ľ":8257,"éħĭ":8258,"åħļç»Ħ":8259,"åī©ä½Ļ":8260,"17å¹´":8261,"å¿ĥèĦı":8262,"éªı":8263,"éĹ®é¢ĺçļĦ":8264,"ç²®é£Ł":8265,"æ¬º":8266,"å¤ĸçķĮ":8267,"å·´å¸ĥ":8268,"éħ¿":8269,"lat":8270,"æĬķæīĭ":8271,"çĶµè§ĨèĬĤçĽ®":8272,"æľĹå¾·":8273,"çĩĥçĥ§":8274,"7ä¸ª":8275,"Mic":8276,"xt":8277,"ä¸ĭæĿ¥çļĦ":8278,"è¿Ļæ®µ":8279,"çĶµæµģ":8280,"ç¾İåĽ½åĽ½å®¶":8281,"168":8282,"1930å¹´":8283,"å®¿èĪį":8284,"åŁł":8285,"ç¬¬6":8286,"åĬłå·¥":8287,"åİŁæľī":8288,"ç±»çļĦ":8289,"æĬĹæĪĺ":8290,"æį¢ä¹ĺ":8291,"éľįå°Ķ":8292,"ohn":8293,"DVD":8294,"çĶŁæķĪ":8295,"é¢Ĥ":8296,"åĵĪå¾·":8297,"çªģåĩ»":8298,"åĨ²åĩ»":8299,"åĲĪå¹¶ä¸º":8300,"åĩºäºİ":8301,"åŃĲåħ¬åı¸":8302,"æĪĺè½¦":8303,"ç«Ļåİħ":8304,"äºĶåįģ":8305,"çĶŁæ´»åľ¨":8306,"çļĦå¤§éĥ¨åĪĨ":8307,"åħĭéĩĮæĸ¯":8308,"æľºåĻ¨äºº":8309,"Ġé«ĺ":8310,"åı¯åīįå¾Ģ":8311,"åıįèĢĮ":8312,"ç¥ŀç§ĺ":8313,"æ²¡æľīä»»ä½ķ":8314,"176":8315,"ä¸´åºĬ":8316,"çī©ç§įçļĦ":8317,"æģĲé¾Ļ":8318,"åĪĽå§ĭäºº":8319,"ä¸īåĲį":8320,"æ¬¡æķ°":8321,"ç³Ĭ":8322,"æĹıäºº":8323,"çļĦå±±å³°":8324,"Ġæľ¬ç«Ļ":8325,"æĸ°çķĮ":8326,"å¾Ĺç¥¨":8327,"åħ°å·ŀ":8328,"éħī":8329,"å¥ĸçīĮ":8330,"è¾ĥé«ĺ":8331,"æĹĹå¸ľ":8332,"åįģä¸ĥå¹´":8333,"éĢļè¡Į":8334,"å¡Į":8335,"ç¾İåĽ½æµ·åĨĽ":8336,"æĽ¾è¢«":8337,"åıĹåĪ°äºĨ":8338,"æĦıåĽ¾":8339,"èĬĤå¥ı":8340,"åŃĺåĤ¨":8341,"1980å¹´ä»£":8342,"1931å¹´":8343,"å¤ºåıĸ":8344,"æĪĪå°Ķ":8345,"ç±»ä¼¼äºİ":8346,"åĨĽåľ¨":8347,"å¼Ģä¸ļ":8348,"æĺİå°¼":8349,"å¤ªéĥİ":8350,"å®ĪæĬ¤":8351,"OR":8352,"åĽ½æľī":8353,"å¹¶ä¸º":8354,"è¾ĥå°ĳ":8355,"çĶµå½±èĬĤ":8356,"åıĳå±ķçļĦ":8357,"æ°¸è¿ľ":8358,"çĶŁéķ¿äºİæµ·æĭĶ":8359,"æ³ª":8360,"æŃ¤ä¸¾":8361,"éĢļå¸¸æĺ¯":8362,"æľīä¸¤ä¸ª":8363,"è°¨":8364,"æŃ£ä¹ī":8365,"ä¼łå¥ĩ":8366,"èĻ¾":8367,"ç¬¬äºĮä¸ª":8368,"å§Ķåĳĺä¼ļä¸»å¸Ń":8369,"è¿ªäºļ":8370,"æĹĭè½¬":8371,"åĿĲèĲ½":8372,"çī©çĲĨåŃ¦":8373,"ĠåįĹ":8374,"æĺĶ":8375,"åĬ¨åĳĺ":8376,"åŀ¦":8377,"è¶³èģĶ":8378,"æīĺé©¬æĸ¯":8379,"åĩºçīĪçļĦ":8380,"çļĦäºĭ":8381,"ä¸ŃæĸŃ":8382,"è¿ĽèĢĮ":8383,"éĢīä¸Ń":8384,"int":8385,"TA":8386,"âĦ":8387,"æĹ¶éĴĪ":8388,"ç¡®å®ŀ":8389,"ç±³çļĦåľ°åĮº":8390,"âĨĴ":8391,"4Ġ":8392,"Ġçİĭ":8393,"ĠåĪ¶ä½ľ":8394,"åħ¬çº¦":8395,"æĸ°è¥¿åħ°":8396,"åħ¥çĲĥ":8397,"åħ¨ä¸ĸçķĮ":8398,"å®ĥåľ¨":8399,"åħīè°±":8400,"æııåĨĻ":8401,"eb":8402,"æĪĮ":8403,"æķĻç§ĳ":8404,"é¦ĸé¢Ĩ":8405,"å·´åħĭ":8406,"äº§éĩı":8407,"ä¿Ŀåį«":8408,"åĩ»ä¸Ń":8409,"éĻĲäºİ":8410,"æ¶ĪçģŃ":8411,"èĻļæŀĦ":8412,"å¹¶ä¸Ķåľ¨":8413,"ãĢĭ(),":8414,"æĢ§æł¼":8415,"çĳĻ":8416,"165":8417,"åĿĩæľī":8418,"145":8419,"rom":8420,"åĿĲæłĩä¸º":8421,"ä¸ĭå±ŀ":8422,"å¢ĥå¤ĸ":8423,"æĬĢèĥ½":8424,"æ¸©å¸¦":8425,"åĺīåºĨ":8426,"Ġå¯¹äºİ":8427,"è¢«åĪĹä¸º":8428,"ä¿¡ä»»":8429,"åį¢çĵ¦":8430,"åį°åº¦å°¼è¥¿äºļ":8431,"åıĳçĶµåİĤ":8432,"3åı·":8433,"å¤§æī¹":8434,"åĲĳä¸ľ":8435,"1962å¹´":8436,"å¸ķå°Ķ":8437,"éĴ¢éĵģ":8438,"æĢ¨":8439,"åīįèĢħ":8440,"çº¿åĴĮ":8441,"èµ·çĤ¹":8442,"ä¹ĲåĻ¨":8443,"166":8444,"å®¢å®¶":8445,"åı¯èĥ½æĢ§":8446,"çº¤ç»´":8447,"Ġ13":8448,"è·ĭ":8449,"çī¹åĭĴ":8450,"éķ¿æĺ¥":8451,"å¤ļä¸º":8452,"è¿ĩåº¦":8453,"æĢ»å±Ģ":8454,"çªĿ":8455,"çģµéŃĤ":8456,"éĢıæĺİ":8457,"å¸ĿåĽ½çļĦ":8458,"Ġç®Ģ":8459,"åĴĮäººåı£":8460,"ä»¥å¾Ģ":8461,"åįİåĮĹ":8462,"äºĮæ¬¡":8463,"å¥¹æĽ¾":8464,"æĤ¼":8465,"ru":8466,"ä¸ŃæŃ£":8467,"åĽ½æĹĹ":8468,"ä»¥åħ¶":8469,"åĲįå½ķ":8470,"ä½Ĩä¸į":8471,"ern":8472,"ork":8473,"è§£éĻ¤":8474,"éļıä¹ĭ":8475,"èı±":8476,"è¡ĮæĶ¿éķĩåĮº":8477,"ç¡®ç«ĭ":8478,"æĻļæľŁ":8479,"çļĦåľ°ä½į":8480,"ĠæĹ¥":8481,"Ġéĩĳ":8482,"å¤§è¿ŀ":8483,"ä»ĸå°Ĩ":8484,"æ¸¯éĵģ":8485,"å¥¥åħĭ":8486,"åĸĿ":8487,"å¾Ģè¿Ķ":8488,"åħŃä¸ª":8489,"éĢīç¥¨":8490,"éĶħ":8491,"çº³æĸ¯":8492,"åħĭéĩĮç±³äºļ":8493,"æ²ŁéĢļ":8494,"Ġä¸ºäºĨ":8495,"éĹ¹":8496,"è¿Ļä¸¤":8497,"åĶ¤":8498,"è¾ŀåİ»":8499,"æĲŃè½½":8500,"é£ŀè¡Įåĳĺ":8501,"çļĦéģĵè·¯":8502,"éĺľ":8503,"é»ĳæļĹ":8504,"é¸¦":8505,"New":8506,"01":8507,"US":8508,"çļĦé©¬":8509,"åĽ½å®ī":8510,"å®ļä½į":8511,"æıĲä¾ĽçļĦ":8512,"æ¢ħå°Ķ":8513,"ç±»åŀĭçļĦ":8514,"åİ¿çļĦä¸Ģä¸ªè¡ĮæĶ¿éķĩåĮº":8515,"æĺ¯å¯¹":8516,"çĽĴ":8517,"ä¹ĭåľ°":8518,"å¸ĥæĶ¿":8519,"çĽ¸è¾ĥ":8520,"æīĵå¼Ģ":8521,"ä¹Įæĭī":8522,";&":8523,"Ġfor":8524,"æľīä¸¤":8525,"âĢ§":8526,"åıĬåĲİ":8527,"125":8528,"äººå¤§ä»£è¡¨":8529,"BL":8530,"OM":8531,"UN":8532,"å°§":8533,"ä¸ĭçļĦä¸Ģä¸ª":8534,"å£«åĿ¦":8535,"äº§çī©":8536,"ç¥ŀç¤¾":8537,"æĶ¾éĢģ":8538,"æ³¢çī¹":8539,"åĵįåºĶ":8540,"1932å¹´":8541,"èī¯å¥½":8542,"ĠEn":8543,"åĮª":8544,"äºĭåıĺ":8545,"ç«ĭå¤§åŃ¦":8546,"æĺİä»£":8547,"åĲĳéĩı":8548,"æµģæµª":8549,"åħĪåīį":8550,"æ¸¸æĪıä¸Ń":8551,"å¼ĢåıĳçļĦ":8552,"èĲ¨æĸ¯å·ŀ":8553,"HR":8554,"åľ°å¤Ħ":8555,"ä¼įå¾·":8556,"1928å¹´":8557,"åĪ©å¥¥":8558,"äº§åľ°":8559,"ä¹¦æ³ķ":8560,"åıĳå¸ĥäºĨ":8561,"æįĲèµł":8562,"å¸ĪèĮĥå¤§åŃ¦":8563,"iver":8564,"å·¥åħļ":8565,"åį³åı¯":8566,"æ¯įèĪ°":8567,"è¯»ä¹¦":8568,"ä¼ļè®®ä¸Ĭ":8569,"å·¡éĢ»":8570,"Ġ2002å¹´":8571,"çļĦå¼Ģ":8572,"äººæīį":8573,"åĮĹå¹³":8574,"éĹ´è°į":8575,"çĥĤ":8576,"åºĵå°Ķ":8577,"ä¸»æķĻç»ĥ":8578,"ç§ŁçķĮ":8579,"èķĥ":8580,"å°Ĭéĩį":8581,"æ°ĳæĶ¿":8582,"æľĢéĩįè¦ģçļĦ":8583,"åĲĳè¥¿":8584,"çłĶç©¶ä¸Ńå¿ĥ":8585,"1961å¹´":8586,"æĺ¯ä¸Ģå®¶":8587,"æŃ¤ç±»":8588,"ick":8589,"æĺĨæĺİ":8590,"æ§Ł":8591,"30å¹´":8592,"Ġä¸ī":8593,"Ġä½ľä¸º":8594,"å¤§åĲĮ":8595,"æĢİ":8596,"ç¼Ģ":8597,"æĪĸç§°":8598,"æ®·":8599,"èĮİ":8600,"çłĶç©¶åĳĺ":8601,"å¼ºå¤§çļĦ":8602,"ç²¾çģµ":8603,"åĤ¨åŃĺ":8604,"å»¶ä¼¸èĩ³":8605,"å¤§åŃĹ":8606,"çŃīäºİ":8607,"çŃīèģĮ":8608,"åİŁå®ļ":8609,"ä¼¯æł¼":8610,"èĽĻ":8611,"å°¼åı¤æĭī":8612,"AK":8613,"åĬ¾":8614,"ä¸ĬéĿ¢":8615,"ä»ĸè¯´":8616,"æ³ķåŃ¦":8617,"æĺ¥ç§ĭ":8618,"çº·çº·":8619,"è¯Ī":8620,"åħ¬ç¤¾":8621,"åĬ¨æĢģ":8622,"éĥ½ä¸į":8623,"åİŁåŀĭ":8624,"ä¹Ŀå·ŀ":8625,"éĺ²å®Ī":8626,"åģľè¿Ĳ":8627,"Station":8628,"å§ĵæ°ı":8629,"çļĦè®¡åĪĴ":8630,"åıĳè¾¾":8631,"çŃīçļĦ":8632,"ç®¡æİ§":8633,"å¼łåįķæĽ²":8634,"å¼ºçļĦ":8635,"äºİ2005å¹´":8636,"åĲĽå£«åĿ¦":8637,"FC":8638,"äººç¾¤":8639,"éĴł":8640,"ond":8641,"èı©":8642,"å°ģéĹŃ":8643,"çļĦä»£è¡¨":8644,"çļĦåĲįç§°":8645,"æĮĩçļĦæĺ¯":8646,"å¥ĸæľĢä½³":8647,"å¢ĥåĨħçļĦ":8648,"åı¦ä¸Ģç§į":8649,"ish":8650,"æĪ·éĥ¨":8651,"å¾®åįļ":8652,"çļĦåº§æłĩä¸º":8653,"éĹ¯":8654,"è¿ĻæĹ¶":8655,"æ´»åĬ¨çļĦ":8656,"èĽ®":8657,"åĳĺå¤ĸ":8658,"çĲĨåŃ¦":8659,"åıĤè®®åĳĺ":8660,"æĿĢäºº":8661,"æĻ¯çĤ¹":8662,"å·Ŀåİ¿":8663,"å°ģéĶģ":8664,"ä½£":8665,"åħ¬å¼ı":8666,"åħĭéĽ·":8667,"åĬłæĸ¯":8668,"æ³¨åħ¥":8669,"æŃĩå°Ķ":8670,"è¿ĽçĲĥ":8671,"æĺŁçļĦ":8672,"éĢłåŀĭ":8673,"è½¬åıĺ":8674,"æ³¢å£«é¡¿":8675,"çľĭè§ģ":8676,"ä¸»é¢ĺæĽ²":8677,"//":8678,"åŀ£":8679,"æĶ¹èī¯":8680,"ä¸ĵç§ĳ":8681,"ä¸ĵæ³¨":8682,"åħ¶ä»ĸçļĦ":8683,"éĩİçĶŁ":8684,"å±¯éĹ¨":8685,"ĠAl":8686,"ç¦¾":8687,"çĦ°":8688,"åıĤæ¼Ķ":8689,"è°ĥä»»":8690,"æŀģä¸º":8691,"çĽ®åīįå°ļæľªçĶ±äººå·¥å¼ķç§įæł½åŁ¹":8692,"ove":8693,"Ġå»ºçŃĳ":8694,"åĪĨäº«":8695,"ä»»æĦı":8696,"èī®":8697,"åīįæĿ¥":8698,"æľŁåĪĬ":8699,"ç½Ĺè®·":8700,"éĺ¿åŁº":8701,"å¯¼å¸Ī":8702,"çľŁæŃ£çļĦ":8703,"IR":8704,"é«ĺå±Ĥ":8705,"ç»ıè´¹":8706,"å°¼æ³Ĭ":8707,"éĺ¿å§Ĩ":8708,"åİĭç¼©":8709,"å·¡æĬļ":8710,"éŀį":8711,"åıĳè¨Ģäºº":8712,"ç©Ĩç½ķé»ĺå¾·":8713,")(":8714,"Ġ189":8715,"éĺĢ":8716,"é«ĺæł¡":8717,"å°Ĩä»ĸ":8718,"ä½ĵæĵį":8719,"éĺŁåľ¨":8720,"ç²¾ç¡®":8721,"åı³ç¿¼":8722,"éĺµäº¡":8723,"tern":8724,"Ġ1949å¹´":8725,"èĭį":8726,"1963å¹´":8727,"è¯»èĢħ":8728,"éĽħåħ¸":8729,"å®ľåħ°":8730,"äºİ188":8731,"Ġä¸ªäººçĶŁæ´»":8732,"ax":8733,"è®¾åľ¨":8734,"æ¶¨":8735,"éļıæľº":8736,"çķĻåŃ¦":8737,"èĤ¡ä¸ľ":8738,"3Ġ":8739,"ä¸ŃåİŁ":8740,"åīįéĶĭ":8741,"è·¯å¾Ħ":8742,"é¦ĸå°Ķ":8743,"åı¤å¸ĮèħĬ":8744,"çİĩåĨĽ":8745,"åħįçĸ«":8746,"è¶ĭåĬ¿":8747,"CN":8748,"çķı":8749,"æĽ¾æĭħä»»":8750,"æĥħæĦŁ":8751,"åĪĿæŃ¥":8752,"è´Ńçī©":8753,"æ´ªæ°´":8754,"ç»Łæ²»èĢħ":8755,"å¤©æĸĩåŃ¦å®¶":8756,"çº¦åħĭ":8757,"æıĲæ¡Ī":8758,"åĬłåħ¥ä¸ŃåĽ½åħ±äº§åħļ":8759,"äººæĸĩ":8760,"æĺ¯ä¸ĭè¾ĸçļĦä¸Ģä¸ª":8761,"æĹ¶åĪ»":8762,"å°ıå§Ĳ":8763,"æĦŁæĥħ":8764,"æ²¿çĶ¨":8765,"éĤ®å±Ģ":8766,"å§Ĭå¦¹":8767,"CP":8768,"mm":8769,"çļĦæľī":8770,"äººä¸İ":8771,"åıĳèĤ²":8772,"ãĢĬãĢĭ(":8773,"æľ¬æ¬¡":8774,"åı¯éĿł":8775,"ç¼Ĩ":8776,"æ°´ä¸Ĭ":8777,"æ°´æ·±":8778,"é¦ĸæī¹":8779,"å±ĢåĬ¿":8780,"è®¤ä¸ºæĺ¯":8781,"æĬĢå·§":8782,"èĭ±åĽ½çļĦ":8783,"èĢĥåħ¥":8784,"èį£èİ·":8785,"è®¨ä¼Ĳ":8786,"æĪªæŃ¢":8787,"è¡¨çİ°åĩº":8788,"äººå¤§å¸¸å§Ķä¼ļ":8789,"ä¸Ģå¼Ģå§ĭ":8790,"èĥĢ":8791,"å½ĵä½ľ":8792,"éĢīæĭĶ":8793,"åĸĻ":8794,"ä»ħä»ħ":8795,"å½Ĵç±»":8796,"æĻļéĹ´":8797,"åĽłæŃ¤åľ¨":8798,"æĭľåįł":8799,"ĠY":8800,"ä¸Ģåı·":8801,"ä¼ļç¤¾":8802,"å¹¶è¡¨ç¤º":8803,"éĿ¢ä¸Ĭ":8804,"ç¦»å©ļ":8805,"å·¥ä½ľäººåĳĺ":8806,"åĶ®ç¥¨":8807,"odice":8808,"ä¸ļä½Ļ":8809,"éĤ¹":8810,"äº¤æĪĺ":8811,"å¤ĦåĨ³":8812,"çļĦä¸Ģæ¬¡":8813,"çħĮ":8814,"èµĭäºĪ":8815,"ES":8816,"åĴı":8817,"æĹ¥çļĦ":8818,"å®īå¦®":8819,"å·´æĸ¯":8820,"åº§åłĤ":8821,"å®¢è½¦":8822,"èŀºæĹĭ":8823,"æĶ¿åįıå§Ķåĳĺ":8824,"éĻ¨çŁ³åĿĳ":8825,"âĦĥ":8826,"åĩºåľŁ":8827,"ä¸įçŁ¥":8828,"ä¹ĭä¸Ĭ":8829,"ä½ĵéĩį":8830,"ç¼¸":8831,"åİ¿éķ¿":8832,"åĨ³çŃĸ":8833,"åĽŃåĮº":8834,"å½±åĵįåĬĽ":8835,"ames":8836,"åİ»ä¸ĸåĲİ":8837,"ä¸įä½³":8838,"åĨĽæĸ¹":8839,"å¤ļä¼¦":8840,"å¤©åºľ":8841,"éĽĨçļĦ":8842,"çļĦç¤¾ä¼ļ":8843,"å¹¶æľī":8844,"æ¬¡åĪĹè½¦":8845,"å¤ªå®Ī":8846,"1934å¹´":8847,"çī§å¸Ī":8848,"éĽķåĥı":8849,"æĦıæĢĿæĺ¯":8850,"EST":8851,"åŃļ":8852,"åĲİåĽł":8853,"è§ĤéŁ³":8854,"ä¼¦æĸ¯":8855,"å¤±è¸ª":8856,"æ£®åł¡":8857,"çĨĶ":8858,"åĺīå®¾":8859,"åĲ¦åĪĻ":8860,"åıĳè¡¨äºĨ":8861,"æĪĺç»©":8862,"æľĢç»Īåľ¨":8863,"éĩĬåĩº":8864,"1929å¹´":8865,"èİİçĻ½":8866,"çļĦèº«ä»½":8867,"åľ¨å½ĵæĹ¶":8868,"äºĨè¯¥":8869,"çĶµè·¯":8870,"å·´å«©":8871,"ç¦ıå°Ķ":8872,"æ½ľåľ¨":8873,"ä¿ĥä½¿":8874,"æ°ŁåĮĸ":8875,"DA":8876,"åľ¨ä¸İ":8877,"è§Ħæł¼":8878,"è§ģäºİ":8879,"çĥŃéĹ¨":8880,"è¢ľ":8881,"ä¹ĲåĽŃ":8882,"éĴ§":8883,"æĶ¯çº¿":8884,"é¹¦":8885,"æľĢé«ĺæ³ķéĻ¢":8886,"å®Įæķ´çļĦ":8887,"æĬĹæĹ¥æĪĺäºī":8888,"èŁ¹":8889,"Ġæ³ķåĽ½":8890,"ĠåıĤèĢĥ":8891,"ä¸ºåı°æ¹¾":8892,"ä»¥3":8893,"154":8894,"æľĢé«ĺçĤ¹":8895,"ogle":8896,"5åħ¬éĩĮ":8897,"çļĦç»ıæµİ":8898,"æĭ¯":8899,"èĩªä¸»":8900,"éĽĨç»ĵ":8901,"ä¼łéĢĴ":8902,"å¨ģå°¼æĸ¯":8903,"èĪªç«Ļ":8904,"149":8905,"ä¾¦å¯Ł":8906,"èı²åĪ©æĻ®":8907,"åľ¨æ¬§æ´²":8908,"é¢Į":8909,"ä½ĵç§¯":8910,"é»İå·´å«©":8911,"æ¸ħåįİå¤§åŃ¦":8912,"3ç±³":8913,"les":8914,"ç¬¬10":8915,"åı¤è¿¹":8916,"ç½®äºİ":8917,"èŃ¦åĳĺ":8918,"äºĮåįģå¹´":8919,"æĲľç´¢":8920,"çļĦç¬¬ä¸ī":8921,"åı¯æĺ¯":8922,"æĪĺåĽ½":8923,"æį®è¯´":8924,"å¤ªåİŁ":8925,"çłĶåĪ¶":8926,"éĿ¢ç§¯åĴĮäººåı£":8927,"è§Ĥèµı":8928,"æ¸©æ³ī":8929,"act":8930,"æĴ¤ç¦»":8931,"ç²¤è¯Ń":8932,"èĢĮè¯¥åľ°çļĦå¹³åĿĩæµ·æĭĶé«ĺåº¦ä¸º":8933,"çļĦåħ¨":8934,"åĵº":8935,"ä½Ĩä»į":8936,"ç±»åĪ«":8937,"ç¡ħ":8938,"ç¡¬å¸ģ":8939,"å·¡åĽŀèµĽ":8940,"çļĦåĪĨ":8941,"å£¬":8942,"éĺŁåıĭ":8943,"é¦ĸä»»":8944,"äº¤åĵį":8945,"éĽĨä¼ļ":8946,"è§Ĥå¿µ":8947,"éºĵ":8948,"æ²¿çº¿":8949,"é¢Ŀå¤ĸ":8950,"1927å¹´":8951,"æĲŃéħį":8952,"co":8953,"çļĦä¼łç»Ł":8954,"æĪİ":8955,"1912å¹´":8956,"è¯¥åºĦ":8957,"é©¬åĬĽ":8958,"æİĴéĻ¤":8959,"æĺ¯ä¸Ģä¸ªä½įäºİç¾İåĽ½":8960,"2ç±³":8961,"çļĦä¸Ĭ":8962,"åº¸":8963,"ç¥·":8964,"æĹĹä¸ĭçļĦ":8965,"æııè¿°ä¸º":8966,"1924å¹´":8967,"Ġ2001å¹´":8968,"çļĦæ´»åĬ¨":8969,"å¹³æĪĲ":8970,"æĢ»åħ±":8971,"å°±åı¯ä»¥":8972,"ä¸ĩå¹´":8973,"æĶ¿æ²»å®¶":8974,"è¾ĥå¤§çļĦ":8975,"æĪĲåĬŁçļĦ":8976,"éĴĵé±¼":8977,"DNA":8978,"ð¬":8979,"æŃ¼":8980,"åĨħäºļ":8981,"æķĻå¾Ĵ":8982,"ä¼łè¾ĵ":8983,"æĳĺ":8984,"çļĨæľªçŁ¥":8985,"èĿĻ":8986,"è¯¥åľ°çļĦéĿ¢ç§¯åĴĮäººåı£":8987,"è¯¥åľ°çļĦéĿ¢ç§¯åĴĮäººåı£çļĨæľªçŁ¥":8988,"æľ¬åľ°åĮº":8989,"ä¹Łç§°":8990,"æ´Ľçī¹":8991,"æĿ°åĩº":8992,"æĭľåįłåºŃ":8993,"ä¸¢":8994,"å°±ä»»":8995,"åĭĴæĸ¯":8996,"æĸĩåĮĸå¤§éĿ©åĳ½":8997,"ä¾ĿéĿł":8998,"é¡ºæĹ¶éĴĪ":8999,"æĦıè¯ĨåĪ°":9000,"Google":9001,"åĨ¢":9002,"é«ĺå±±":9003,"èĩ³æŃ¤":9004,"åĳ½åĲįçļĦ":9005,"åĪĴåħ¥":9006,"çŃĸåĪĴ":9007,"èĿĻèĿł":9008,"ium":9009,"è´¦":9010,"åĩºæĿ¥çļĦ":9011,"å¼ĢæĴŃ":9012,"ç¾İä¸½":9013,"è¿ĽåĨĽ":9014,"è°ķ":9015,"åĪ¶åĵģ":9016,"å±±åı£":9017,"ç«Ļèĩ³":9018,"ç½ĳåıĭ":9019,"æ¨¡ä»¿":9020,"éĺ²åį«":9021,"å©ļç¤¼":9022,"ç´¯ç§¯":9023,"æĹłçº¿çĶµ":9024,"æľ¬æĿ¥":9025,"åĲĪçĲĨ":9026,"è¯Ħè®ºå®¶":9027,"è¾½å®ģçľģ":9028,"()ãĢģ":9029,"çļĦåĽĽ":9030,"æ°Ľ":9031,"æĹ¥çĽĬ":9032,"æ»ŀ":9033,"å¡ŀæĭľ":9034,"Ġåħ¨":9035,"Ġ17":9036,"Ġ2000å¹´":9037,"çļĦæ²³æµģ":9038,"ç§ī":9039,"æĸ¹ç¨ĭå¼ı":9040,"æŃ£æĺ¯":9041,"åĥļ":9042,"åħ¬åĬ¡åĳĺ":9043,"ä¸Ģä»½":9044,"åĪĨä¹ĭ":9045,"é»ı":9046,"åıĤè§ģ":9047,"å¥³ç¥ŀ":9048,"æ²Ļæ¼ł":9049,"å¤ıå¨ģ":9050,"å¯ºéĻ¢":9051,"è®¯æģ¯":9052,"æ±¶":9053,"æĪĺä¸Ń":9054,"ä½ĵåŀĭ":9055,"éĵĿ":9056,"åĶĩ":9057,"æĮĩä»¤":9058,"åıįæĬĹ":9059,"æĸĩåĮĸéģĹäº§":9060,"å¼Ĺåħ°":9061,"è¡Ģæ¶²":9062,"åŁºæľ¬ä¸Ĭ":9063,"Ġä¸ľ":9064,"å¾·ç½Ĺ":9065,"ãĢį)":9066,"çĻ½ä¿Ħç½Ĺæĸ¯":9067,"æĹ¶éĹ´çļĦ":9068,"éħįä¹Ĳ":9069,"ä¼ĳæģ¯":9070,"æ¯«æĹł":9071,"IA":9072,"éķ¶":9073,"åĲįåı«":9074,"ç¬¬åįģäºĮ":9075,"åįİä¸º":9076,"æĿĥå¨ģ":9077,"ç¼ĸåĪ¶":9078,"åħ´èµ·":9079,"çľŁäºº":9080,"åŁİå¸ĤçļĦ":9081,"èĢ¶å°Ķ":9082,"åĮħåĲ«äºĨ":9083,"äº¤æĺĵæīĢ":9084,"ä¸ºè¯¥":9085,"æĪĲçļĦ":9086,"è¡Įè½¦":9087,"ä¹ĭæĹ¶":9088,"å¹¶èİ·å¾Ĺ":9089,"åłµ":9090,"ç¬¬ä¸ĢçĻ¾":9091,"äºĪä»¥":9092,"çº½çº¦å¸Ĥ":9093,"pen":9094,"ä¸įåıĹ":9095,"ä¿±":9096,"åĬ¨å·¥":9097,"è¿Ĳç®Ĺ":9098,"è¯Ńä¸Ń":9099,"ä¹īåĬ¡":9100,"åĬ©äºİ":9101,"çİ¯ä¿Ŀ":9102,"åı¬éĽĨ":9103,"çģŃäº¡":9104,"å¹»æĥ³":9105,"Ġè½¦ç«Ļç»ĵæŀĦ":9106,"900":9107,"Ġre":9108,"çļĦçĽ®æłĩ":9109,"åı°ä¸ľ":9110,"èĥ½åľ¨":9111,"æķ°åįĥ":9112,"æĢ»æĺ¯":9113,"èĭ±è¶ħ":9114,"å½±è¯Ħ":9115,"æĿ¡çĽ®":9116,"æİ¢è®¨":9117,"éļĶå¹´":9118,"åĵŃ":9119,"æŃ¤åľ°":9120,"åħ°åį¡":9121,"è¯´æľį":9122,"åĽ½å®¶å®īåħ¨":9123,"åĳ¨æľ«":9124,"åī¯æĢ»ç»Ł":9125,"å§Ķåĳĺä¼ļçļĦ":9126,"æ¾İ":9127,"round":9128,"åİĦå°Ķ":9129,"åıĹå®³èĢħ":9130,"çļĦæīĭ":9131,"çļĦåĲĮæĹ¶":9132,"ä½ĵçİ°":9133,"å¸ĥå±Ģ":9134,"è¯ŃåĴĮ":9135,"æķ´çĲĨ":9136,"éĿĴæµ·":9137,"è´¹å°Ķ":9138,"æł¼åħ°çī¹":9139,"çīĪæľ¬çļĦ":9140,"è·ĳéģĵ":9141,"æĺİæĺ¾çļĦ":9142,"112":9143,"CC":9144,"ĠæĹ©æľŁ":9145,"åĴĮç¾İåĽ½":9146,"åľ°åĿĢ":9147,"ç¬¬7":9148,"çĶ±æĿ¥":9149,"ä¸ĭæ¸¸":9150,"éĩĮéĿ¢":9151,"çİ°å·²":9152,"æīĵè´¥":9153,"è§ģåĪ°":9154,"çīĻé½¿":9155,"åĨ°å·Ŀ":9156,"åŁºçĿ£å¾Ĵ":9157,"æ¸ħæľĿæĶ¿æ²»äººçī©":9158,"åįģåħ«å¹´":9159,"æľºåĬ¨":9160,"å¸Īéķ¿":9161,"ä¸ĵåĪ©":9162,"ç»Īèº«":9163,"çģµæĦŁ":9164,"ç¾İæľ¯é¦Ĩ":9165,"PlayStation":9166,"ä¸ºå¤§":9167,"åĵ©":9168,"æĿ¥çľĭ":9169,"æĭīå¾·":9170,"åĪ¶è£ģ":9171,"è¿ĳå¹³":9172,"æ±īåł¡":9173,"çľĭæ³ķ":9174,"ros":9175,"éĿ©åĳ½åĨĽ":9176,"åĪĽä½ľçļĦ":9177,"ä¾µçĬ¯":9178,"Ġé»Ħ":9179,"åĲĵ":9180,"ä»ĸä»¥":9181,"å¹¶æĪĲä¸º":9182,"éĵħ":9183,"æīĵéĢł":9184,"è´Ŀæł¼":9185,"åıĭè°Ĭ":9186,"å¯ºåºĻ":9187,"åĪłéĻ¤":9188,"çļĦå¯¹":9189,"èĥĥ":9190,"ç¬¬8":9191,"ä¸īçº§":9192,"å¤©æĸĩåŃ¦":9193,"åıĺæĽ´":9194,"çĪ±å¥½":9195,"åĿĩåľ¨":9196,"æ¦´":9197,"ton":9198,"Ġå°ı":9199,"åľ°åŁŁ":9200,"åĲįé¢Ŀ":9201,"æ¬¡åŃĲ":9202,"æŃĮåī§":9203,"å®£å¸ĥå°Ĩ":9204,"èĭ¥å¹²":9205,"III":9206,"Ph":9207,"çļĦè¥¿":9208,"èĢĮéĹ»åĲį":9209,"å·ŀè´Łè´£ç®¡è¾ĸ":9210,"çĭĲ":9211,"é¦Ļæ¸¯çļĦ":9212,"çŁŃçīĩ":9213,"ung":9214,"åĿĲæłĩ":9215,"å®ļä¹īä¸º":9216,"æĦıåĳ³çĿĢ":9217,"åģľè½¦åľº":9218,"ĠæŃ£":9219,"çļĦå»ºçŃĳ":9220,"çīº":9221,"åĨĽå§Ķ":9222,"æĢ»åı¸ä»¤":9223,"åĪĻä»¥":9224,"è¡ĮæĶ¿åįķä½į":9225,"åĨ³èµĽä¸Ń":9226,"Ġåį¡":9227,"ä¸ºé£Ł":9228,"ä¸ĢæĹ¦":9229,"æ¢Ń":9230,"å¼Ģå§ĭäºĨ":9231,"åľŁå£¤":9232,"é¡ºæ²»":9233,"æį·è¿Ĳ":9234,"åľ¨è¿ĻéĩĮ":9235,"èĪªç«Ļæ¥¼":9236,"å¤ıå¨ģå¤·":9237,"çļĦæľºä¼ļ":9238,"åľ¨åīį":9239,"æĪļ":9240,"çĻ¸":9241,"å°±åĥı":9242,"éŁ³èĬĤ":9243,"æ´»æĢ§":9244,"ä¸ĵåĳĺ":9245,"ä¾¿æĺ¯":9246,"æİ¨åĩºçļĦ":9247,"ãĢīãĢģ":9248,"ç½ķè§ģ":9249,"åĲīæŀĹçľģ":9250,"å¹³å®ī":9251,"èĤ¾":9252,"éĺµèĲ¥":9253,"æŁĲç§į":9254,"å´ĩæĭľ":9255,"æ±Łè¥¿çľģ":9256,"æĽ¼èģĶ":9257,"ä¹łè¿ĳå¹³":9258,"æĻļå¹´":9259,"åŃĺåľ¨äºİ":9260,"èĩĢé³į":9261,".&":9262,"ae":9263,"ke":9264,"åĨĽèĪ°":9265,"éĩĮæĺĤ":9266,"éĢłèĪ¹":9267,"çĳļ":9268,"èĲ½åĲİ":9269,"çº½çº¦å·ŀ":9270,"è·¨è¶Ĭ":9271,"æ¢¦æĥ³":9272,"æĻ¶ä½ĵ":9273,"æĺ¯ä½įäºİä¹Įåħĭåħ°":9274,"IST":9275,"åĲįç§°ä¸º":9276,"éĶ¥":9277,"åĽ¾å½¢":9278,"ç¼ĸåħ¥":9279,"è½¬ä¹ĺ":9280,"åı°æ¹¾çļĦ":9281,"èĲ½è´¥":9282,"éĩįçĤ¹æĸĩçī©ä¿ĿæĬ¤åįķä½į":9283,"çļĦå¤ļ":9284,"éĥ½åı¯ä»¥":9285,"éĩĳéĹ¨":9286,"ä¸ĸçķĮéģĹäº§":9287,"çĶ·ä¸»è§Ĵ":9288,"çªĳ":9289,"çģ«åĬĽ":9290,"äº«æľī":9291,"ool":9292,"åĽĽäºº":9293,"åĳ¨æģ©":9294,"ä¼¯åĪ©äºļ":9295,"å·¡æ¼Ķ":9296,"è¡¥ç»Ļ":9297,"éŀŃ":9298,"Ġæł¹æį®2010å¹´ç¾İåĽ½äººåı£æĻ®æŁ¥çļĦæķ°æį®":9299,"åĴĮç¤¾ä¼ļ":9300,"æľ¬è´¨":9301,"ç«ĭå§Ķ":9302,"ä½ĨæľĢç»Ī":9303,"æĽ¾æľī":9304,"è¯Ħå®¡":9305,"èĪªè¡Į":9306,"é¢ĳç¹ģ":9307,"åı«åģļ":9308,"Ġ202":9309,"ãĢĬãĢĭ,":9310,"èĭ±å¯¸":9311,"çīºçī²":9312,"ĠLe":9313,"åį¯":9314,"ä¸ŃçŃī":9315,"èĩ³2":9316,"æ°´åĪ©":9317,"è¡ĮæĶ¿éķ¿å®ĺ":9318,"åħ¸åŀĭ":9319,"å¹¿å·ŀå¸Ĥ":9320,"å¹¿æ³ĽçļĦ":9321,"æĺĨèĻ«":9322,"SM":9323,"å®Įç¾İ":9324,"èĲ¥åħ»":9325,"1970å¹´ä»£":9326,"ile":9327,"1918å¹´":9328,"åŃ¦åłĤ":9329,"æ³ķåĨĽ":9330,"å¹³å®ļ":9331,"æķ°ä¸ª":9332,"æĶ¹ç»Ħ":9333,"åŃ£èĬĤ":9334,"æ¹ĸå¹¿":9335,"24å°ıæĹ¶":9336,"ç¿ĮæĹ¥":9337,"Ġ14":9338,"ä¸įä½Ĩ":9339,"è¢«æĿĢ":9340,"æĥĳ":9341,"äº¤ä»ĺ":9342,"ence":9343,"å½°åĮĸ":9344,"6ç±³":9345,"ä¸Ģè·¯":9346,"æľ¬åĲį":9347,"ç«ĭä½ĵ":9348,"çķ´":9349,"åį³ä¸º":9350,"èģĮè´£":9351,"å¾ĢæĿ¥":9352,"åıĪåľ¨":9353,"æĸĩåĮĸçļĦ":9354,"æ¸Ĺ":9355,"å®¶å±ŀ":9356,"æĪĺè´¥":9357,"ç¦¹":9358,"æĢ»ä½ĵ":9359,"å½±å±ķ":9360,"æıĲçĲ´":9361,"é£İæĻ¯":9362,"åħīåŃ¦":9363,"æĹ§éĩĳå±±":9364,"éĢĥç¦»":9365,"çĪĨåıĳåĲİ":9366,"æĶ¶è§Ĩçİĩ":9367,"å°¼æ³Ĭå°Ķ":9368,"3åĲį":9369,"çļĦéĿŀ":9370,"ä¸»äºº":9371,"ä¸īä½į":9372,"é©¬æģ©çľģ":9373,"çĲĥè¿ĲåĬ¨åĳĺ":9374,"éĻ¢æł¡":9375,"è¡¥åĬ©":9376,"ass":9377,"èµ¤çº¬":9378,"ä¸Ģåħ±":9379,"ç¬¬11":9380,"å¥¹ä¸İ":9381,"å¸¦æĿ¥çļĦ":9382,"ç½ĳæ°ĳ":9383,"æľĢåĲİä¸Ģæ¬¡":9384,"å±ıä¸ľ":9385,"09":9386,"ä¸Ģèĩ³":9387,"æľīçº¿":9388,"éĺĲ":9389,"ä¸Ģä¸ªæľĪ":9390,"å°±è¢«":9391,"é¾Ļç§ĳ":9392,"äº¦ä¸º":9393,"çİ¯ç»ķ":9394,"æĵħéķ¿":9395,"æĸ¯åľ¨":9396,"æĸ¯åĴĮ":9397,"å¹¶åĲĳ":9398,"è¿Ļä½į":9399,"éģĵæŃī":9400,"åĨľåİĨ":9401,"ä¸ĸçºªçļĦ":9402,"ç´¢æģ©":9403,"åĲ¬åĪ°":9404,"é¢ģå¥ĸåħ¸ç¤¼":9405,"ç»´åŁºçĻ¾ç§ĳ":9406,"AV":9407,"ude":9408,"ä»»ä¸Ńåħ±":9409,"è¿Ľå±ķ":9410,"è½¬åŀĭ":9411,"å¯ĨèĭıéĩĮ":9412,"çĻ½äºº":9413,"è¯ºè´Ŀå°Ķ":9414,"éĺ¿å°Ķå·´":9415,"ä¹ĭåīįçļĦ":9416,"æĻºåĪ©":9417,"ä¿ĺèĻı":9418,"æ¯ĹéĤ»":9419,"æ¹Ľ":9420,"è®®éķ¿":9421,"æ·Ģ":9422,"æĶ»åħ¥":9423,"å¤ıå¤©":9424,"enter":9425,"éĽ¶åĶ®":9426,"èĳ£äºĭä¼ļ":9427,"æīĢè°ĵçļĦ":9428,"éĽįæŃ£":9429,"06":9430,"Ġæ²¿éĿ©":9431,"å¤§å¸Ŀ":9432,"ä¸Ĭå°Ĩ":9433,"éĩĮå¥¥":9434,"æĸ°åı°å¸ģ":9435,"å·ŀçļĦä¸Ģä¸ªå¸Ĥéķĩ":9436,"åİ¿æ²»":9437,"å¸¸ä½ı":9438,"è§ĨæĺŁçŃīä¸º":9439,"æĻ®æŀĹ":9440,"orld":9441,"åĲĦåľ°çļĦ":9442,"çģ«çĤ®":9443,"è´ŁéĿ¢":9444,"åĢĻè½¦":9445,"è¿½æº¯åĪ°":9446,"æĺ¯æľī":9447,"çī¢":9448,"åħ¶åŃĲ":9449,"äºļç§ĳ":9450,"105":9451,"æĢ»ä¹¦è®°":9452,"127":9453,"æĽ´æĶ¹":9454,"æĽ´å¤§çļĦ":9455,"ä¿¡çĶ¨":9456,"ç¦ıçī¹":9457,"æĭħå½ĵ":9458,"ä¹Įé²ģ":9459,"ä¹ĺè½¦":9460,"GB":9461,"åĴĮ1":9462,"èī°":9463,"é¥²":9464,"æł¹æį®2020å¹´ç¾İåĽ½äººåı£æĻ®æŁ¥çļĦæķ°æį®":9465,"æī§æ³ķ":9466,"äºİ2004å¹´":9467,"ç«ĭæ³ķå§Ķåĳĺ":9468,"é«ĺéĽĦå¸Ĥ":9469,"çĭ®åŃĲ":9470,"æ¨¡çī¹åĦ¿":9471,"çļĦè¡¨çİ°":9472,"çļĦåľŁåľ°":9473,"åĮ¿":9474,"ä¸ŃæĹ¬":9475,"åĩ°":9476,"åħ¶ä¸ŃçļĦ":9477,"ä¸ĭåįĬ":9478,"åĲĮå¿Ĺ":9479,"æĸ°åŁİ":9480,"åħ±è¯Ĩ":9481,"æľĢåĲİçļĦ":9482,"æĻĭåįĩ":9483,"èĴ¸æ±½":9484,"%;":9485,"CH":9486,"wit":9487,"çļĦæłĩåĩĨ":9488,"å¾·åĪ©":9489,"æĻ®åıĬ":9490,"153":9491,"èİ±æĺĤ":9492,"30åĪĨ":9493,"åĭĩå£«":9494,"1914å¹´":9495,"èµĶåģ¿":9496,"2ä¾ĭ":9497,"çļĦåĨĽäºĭ":9498,"äºİ2025å¹´":9499,"æľīäºĨ":9500,"æİ·":9501,"è½¦éģĵ":9502,"éħ¬":9503,"éª¸":9504,"å±Ģéĥ¨":9505,"åı°æ¹¾çľģ":9506,"åľ£è¯ŀ":9507,"å®«å»·":9508,"ç§ģç«ĭ":9509,"è¯¢éĹ®":9510,"æĪĺåĪĹèĪ°":9511,"land":9512,"çī¹éĽ·":9513,"éĩįä¿®":9514,"çīĪæĿĥ":9515,"æĪĺäºīçļĦ":9516,"èĪªç©ºæ¯įèĪ°":9517,"èªīä¸º":9518,"æĹ¥æ²»æĹ¶æľŁ":9519,"çļĦåħ¶ä»ĸ":9520,"äºİ189":9521,"è¾£":9522,"éª¤":9523,"é¢Ħå®ļ":9524,"BBC":9525,"æĺ¯æľĢ":9526,"åĪĨç»Ħ":9527,"æµ·åħ³":9528,"å½±ä¸ļ":9529,"çĽ´è¾ĸ":9530,"æĶ¯çĲĥéĺŁ":9531,"çĵ£":9532,"çĭ¬çī¹":9533,"å·¦æ´¾":9534,"å°ģéĿ¢":9535,"åıĳè¡ĮäºĨ":9536,"è¯¸å¤ļ":9537,"æĭĽåĭŁ":9538,"åħ¬å¸ĥä¸º":9539,"08":9540,"å¤§å°ĨåĨĽ":9541,"æĸ¯å¤§":9542,"çľī":9543,"æ±ķ":9544,"éľĸ":9545,"åĨ³äºİ":9546,"ä¼Ĺäºº":9547,"own":9548,"åĶ±çīĩåħ¬åı¸":9549,"å¹´è½»çļĦ":9550,"å±Ĭåħ¨åĽ½äººæ°ĳä»£è¡¨å¤§ä¼ļ":9551,"Ð°":9552,"çļĦæľĢé«ĺ":9553,"è¿Ħ":9554,"çºĤ":9555,"åī¿":9556,"ä½ľçī©":9557,"çļĦä¸Ģé¡¹":9558,"å¤įæ´»":9559,"åħ¸åŀĭçļĦ":9560,"çĽĳåĪ¶":9561,"af":9562,"ä¸Ģæĸ¹":9563,"äººçĶŁ":9564,"äººæ°Ķ":9565,"å¤§åŁĶ":9566,"è¢«éĢīä¸º":9567,"æ¡Īä¾ĭ":9568,"ç³»åĪĹçļĦ":9569,"æĽ¿æį¢":9570,"æģ¶åĮĸ":9571,"è¿ĳå¹´æĿ¥":9572,"du":9573,"çļĦåĮºåŁŁ":9574,"çľģéķ¿":9575,"æŁ¬":9576,"å¨¥":9577,"äº¤çĶ±":9578,"æĻ®äº¬":9579,"èĪ¹åĳĺ":9580,"åĬłåĭĴæ¯Ķ":9581,"çīŁ":9582,"ä¸Ĭä»»":9583,"ä¾Ħ":9584,"åī§ä¸Ń":9585,"çĶ²æĿ¿":9586,"ä¹łä¿Ĺ":9587,"çĳŀæĭī":9588,"å¹¿æĴŃåħ¬åı¸":9589,"ier":9590,"Ġå¼ł":9591,"æľīå¤ļ":9592,"å¯¡":9593,"ç½Ĺå§Ĩ":9594,"åĪĿçº§":9595,"æļ´åĬ¨":9596,"è½¯æĿ¡":9597,"IG":9598,"Ġä¹Įåħĭåħ°":9599,"çļĦåŃĺåľ¨":9600,"ä¸įè¯¦":9601,"åĽłåŃĲ":9602,"æĭīå¤ļ":9603,"ä½Ĩåį´":9604,"ä¸¤åº§":9605,"å±ķåĩº":9606,"æ²Ļçī¹":9607,"å¼ŁåŃĲ":9608,"åĸľçĪ±":9609,"è£ģå®ļ":9610,"æģĲæĥ§":9611,"çģ¾éļ¾":9612,"ç¨ĭåº¦ä¸Ĭ":9613,"æµģåŁŁéĿ¢ç§¯":9614,"åı¤èĢģçļĦ":9615,"02":9616,"lo":9617,"ä½ľçļĦ":9618,"å¾·å·Ŀ":9619,"ä¸ĸçļĦ":9620,"é¢Ħéĺ²":9621,"æľĢè¿ĳçļĦ":9622,"èĪĨè®º":9623,"æĭ¯æķĳ":9624,"åĽ½ä¼ļè®®åĳĺ":9625,"æĹ¥è®°":9626,"æ³ķå°Ķ":9627,"é©°":9628,"æ²»å®ī":9629,"åĽ¢çļĦ":9630,"æŃ¢äºİ":9631,"è¾©è®º":9632,"èµ¦":9633,"åħĭåĬ³":9634,"å®īç½®":9635,"éĺ¿å¸ĥ":9636,"åį¡çī¹":9637,"åıįå°Ħ":9638,"åĲĦé¡¹":9639,"äºīè®º":9640,"çĽĳç®¡":9641,"é¹ī":9642,"çļĦç»Ŀå¯¹":9643,"åĽ½åħ±":9644,"ç³»çļĦ":9645,"å·²åľ¨":9646,"çĭ©":9647,"è½¬æĴŃ":9648,"è¡Ģç»Ł":9649,"æİ¨åĩºäºĨ":9650,"çļĦçī¹å¾ģ":9651,"æĹ¶å¸¸":9652,"åĬłé¾Ļ":9653,"æµ·æ°´":9654,"æľŁæľĽ":9655,"åĪĹå®ģ":9656,"æ¸ħçľŁ":9657,"å·®è·Ŀ":9658,"è®¯åı·":9659,"çĶµåŃĲæ¸¸æĪı":9660,"é«ĺå³°":9661,"çŁ³åĻ¨":9662,"æ¯ıä¸Ģ":9663,"èĮ¨åħĭ":9664,"åįĹå®ĭ":9665,"å¹³è¡Į":9666,"åīįæĸ¹":9667,"æŃ£è§Ħ":9668,"éħ°":9669,"ç§ĭåŃ£":9670,"èµ¤ç»ı":9671,"ç¼ĵæħ¢":9672,"åĵºä¹³":9673,"ä¹ĭå¥³":9674,"æ±ģ":9675,"å¤ļå¤«":9676,"éĥ½æ²¡æľī":9677,"åĮħæĭ¬äºĨ":9678,"å¾Īéļ¾":9679,"æ·±åĪ»":9680,"å¹²é¢Ħ":9681,"é©»æīİ":9682,"è¿ģå¾Ģ":9683,"æİ¥åıĹäºĨ":9684,"æ½ľæ°´":9685,"çļĦåīįèº«":9686,"07":9687,"3000":9688,"Ġå®ĥ":9689,"ĠåĪĨç±»":9690,"çļĦåıĮ":9691,"èĥ°":9692,"äºļå½ĵ":9693,"æ·³":9694,"æĹıèĩªæ²»":9695,"èĭıè¾¾":9696,"çĭ¬èĩª":9697,"å£°ä¼ĺ":9698,"æŀģå¤§":9699,"è¡Ĺå¤´":9700,"è¿ľä¸ľ":9701,"æĸ¯éĩĮåħ°åį¡":9702,"çļĦéĩĳ":9703,"çļĦè¦ģæ±Ĥ":9704,"æľīåĪ©":9705,"æĸ¯åĽ¾":9706,"éĩĮç¨ĭ":9707,"åĮĹçº¦":9708,"è½¦æīĭ":9709,"è½¦åŀĭ":9710,"æł¡åıĭ":9711,"æ»´":9712,"æ´Ľéĺ³":9713,"136":9714,"é©»åľ°":9715,"åıĤèµĽèµĦæł¼":9716,"åı°åįĹå¸Ĥ":9717,"ĠåĽ½éĻħ":9718,"åĴĮä¸Ń":9719,"å®īåİ¿":9720,"æ²»çĲĨ":9721,"å¹¿ä¹ī":9722,"äººæ°ĳæ³ķéĻ¢":9723,"å¨ģå°Ķæĸ¯":9724,"å¤įåĲĪ":9725,"çİĩåħĪ":9726,"åīĳæ¡¥":9727,"èµ·æºĲäºİ":9728,"èħĵçī¹":9729,"åĲİåį«":9730,"æĸ¹å½¢":9731,"å®ļå¾ĭ":9732,"æĶ¹çĶ±":9733,"æĶ¯éĺŁ":9734,"åĲĦå¤§":9735,"ä¸ĵæ¡Ī":9736,"åĻ¨å®ĺ":9737,"åŃĻä¸Ńå±±":9738,"æ£ĢéªĮ":9739,"ä»ªåĻ¨":9740,"Net":9741,"res":9742,"ĠZ":9743,"åĲĹ":9744,"æĪĲåĮĸ":9745,"æ³ķå®ļ":9746,"åħĭåĪ©":9747,"åħ±äº«":9748,"å¢ħ":9749,"æīĵè¿Ľ":9750,"æĤŁ":9751,"å¹²æī°":9752,"æĪĳä»¬çļĦ":9753,"æľĢåĪĿçļĦ":9754,"å¤ĦçĲĨåĻ¨":9755,"èĳ¬äºİ":9756,"ç½¢å·¥":9757,"è½¬ç§»åĪ°":9758,"ä¸ºæĹ¥æľ¬":9759,"åįĹæĺĮ":9760,"å·´é©¬":9761,"å§ĶåĨħ":9762,"å¤§åŃ¦æķĻæİĪ":9763,"æĶ¾ç½®":9764,"æ¤Ĵ":9765,"é¢ĦæľŁ":9766,"è¿ľå¾ģ":9767,"å¤ºåĨł":9768,"å¹¿æĴŃçĶµåı°":9769,"ä¿Ħäº¥ä¿Ħå·ŀ":9770,"èħĵçī¹çĥĪ":9771,"ä¸Ĭçº¿":9772,"åħĭé²ģ":9773,"çĶµä¿¡":9774,"èµĽèīĩ":9775,"æķ°åĢ¼":9776,"åİ¿æĶ¿åºľ":9777,"åĳ½è¿Ĳ":9778,"ç®ĢåĮĸ":9779,"ä½Ľç½ĹéĩĮè¾¾å·ŀ":9780,"åĳĺå¤ĸéĥİ":9781,"å§ĶåĨħçĳŀæĭī":9782,"ä½Ĩæĺ¯åľ¨":9783,"ä½¿èĢħ":9784,"éĤ¸":9785,"åĪĻè¢«":9786,"é»Ħæ²³":9787,"èĬ±èİ²":9788,"å¯Įå£«":9789,"ä»ĭçŁ³":9790,"åĭĥèī®":9791,"å¤§åİħ":9792,"æŀ«":9793,"ä½ľè¯į":9794,"æīĢå¾Ĺ":9795,"è¯¥ç»Ħç»ĩ":9796,"åį³æĹ¶":9797,"æ¸ħæ°´":9798,"çĩ¥":9799,"æĭĺæįķ":9800,"å¤ļä¼¦å¤ļ":9801,".\"":9802,"ä¸įèī¯":9803,"ä¸ĭæĹ¬":9804,"ä¸ľè·¯":9805,"æĽ¾äºİ":9806,"å§Ķå¸¸å§Ķ":9807,"åİĤåķĨ":9808,"èįīæ¡Ī":9809,"äºİ2000å¹´":9810,"æµĵåº¦":9811,"æĢ»è®¡":9812,"çº¦2":9813,"å°¼æĹ¥":9814,"ç¥ŀçĪ¶":9815,"ç»ĩçĶ°":9816,"ç¹ģå¿Ļ":9817,"ä½įäºİè¯¥åĽ½è¥¿éĥ¨":9818,"é¹¦é¹ī":9819,"ä¹Ĵ":9820,"ç½Ĳ":9821,"è½¦çļĦ":9822,"äºĮå±Ĥ":9823,"éħ±":9824,"éħµ":9825,"åĬŁçİĩ":9826,"çĶµå½±çļĦ":9827,"ç²¾èĭ±":9828,"åıĳå¸ĥçļĦ":9829,"ä¾µçķ¥":9830,"å§Ĳå¦¹":9831,"ç®ĢåįķçļĦ":9832,"èħĲè´¥":9833,"åĽļçĬ¯":9834,"ĠSch":9835,"Ġäºīè®®":9836,"å¤§æŃ£":9837,"æĸ°ä¸Ģ":9838,"åĽŀå®¶":9839,"åıĸåĨ³äºİ":9840,"è½¬èĢĮ":9841,"åĲīä»ĸ":9842,"å¾Īå¤§çļĦ":9843,"æĹ¶éĹ´ä¸º":9844,"ç§»æ¤į":9845,"æľ«å¹´":9846,"èįīåİŁ":9847,"å«¡":9848,"åı¸ä»¤åĳĺ":9849,"çİ°æĹ¶çĶ±":9850,"çĽĨåľ°":9851,"æĸ°åĮĹå¸Ĥ":9852,"col":9853,"Ã¡":9854,"ç»ħ":9855,"1919å¹´":9856,"åįĹç«¯":9857,"å½ĵæĻļ":9858,"éĩįçļĦ":9859,"å°±ä¸ļ":9860,"æĮĩæłĩ":9861,"å¥ĸåĬ±":9862,"ç»§ä½į":9863,"åĪĬçĻ»":9864,"çĶŁçī©åŃ¦":9865,"çıĬçĳļ":9866,"æĦ¤æĢĴ":9867,"ä¼ļéĿ¢":9868,"åıĳçļĦ":9869,"åĬ¨è¯į":9870,"ç«ĭæ³ķéĻ¢":9871,"èĲ¤":9872,"åľºåĲĪ":9873,"æķħæĦı":9874,"è¯ĹæŃĮ":9875,"äºİ2003å¹´":9876,"åĩ¤åĩ°":9877,"åĢºåĬ¡":9878,"éĻįéĽ¨éĩı":9879,"ä¸Ĭä¸Ģ":9880,"è½¦èº«":9881,"åĸĬ":9882,"æĶ¿æ²»å±Ģ":9883,"é¥±":9884,"çĽĳç¦ģ":9885,"è¡Ģç®¡":9886,"åİŁåĽłæĺ¯":9887,"çļĦæ¯ĶèµĽä¸Ń":9888,"ade":9889,"ĠåĪĨå¸ĥ":9890,"ä»ĸæĪĲä¸º":9891,"åħ¬å¹³":9892,"åĮĹéŃı":9893,"ç»Īç»ĵ":9894,"åĶĲä»£":9895,"åĪ¶éĢłåķĨ":9896,"èĴĭä»ĭçŁ³":9897,"è´«åĽ°":9898,"åĲıéĥ¨":9899,"03":9900,"CR":9901,"æĶ¿å§Ķ":9902,"åĬłçĥŃ":9903,"åİŁæĿ¥çļĦ":9904,"ä½įäºİéĵ¶":9905,"æ¯ıå°ıæĹ¶":9906,"çŃ¾è¯ģ":9907,"SAO":9908,"ĠCom":9909,"å¯¹ä»ĸ":9910,"æľĢæľī":9911,"åı£åı·":9912,"æķ°ä¸º":9913,"æĪĸåħ¶ä»ĸ":9914,"æµģäº¡":9915,"æĮĩæĮ¥éĥ¨":9916,"åį¸ä»»":9917,"1åĲį":9918,"ĠéŁ³ä¹Ĳ":9919,"äººä½ĵ":9920,"æľºç»Ħ":9921,"are":9922,"æĬ¤çħ§":9923,"åįĬå¾Ħ":9924,"åŃ¦æł¡çļĦ":9925,"iss":9926,"æĳ©æīĺ":9927,"æįŁå®³":9928,"æµªæ¼«":9929,"åŃ¦å£«åŃ¦ä½į":9930,"å¤§å¥ĸèµĽ":9931,"ä¸ĢåįĬ":9932,"åŃ¦åĳĺ":9933,"å¯¹æ¯Ķ":9934,"æµ·çĽĹ":9935,"ä¹Łåı¯èĥ½":9936,"é¦ĸæĺł":9937,"åĭī":9938,"å¼¹åĬ¾":9939,"æ¸Ĳæ¸Ĳ":9940,"åĪĳéĥ¨":9941,"æ°ĳæĹıä¸»ä¹ī":9942,"AD":9943,"ola":9944,"æ³Į":9945,"åħĭæĭīåħĭ":9946,"çº§è¡ĮæĶ¿åįķä½į":9947,"åĩłåĨħäºļ":9948,"æľīåħ³çļĦ":9949,"åĤ¬åĮĸ":9950,"ä¼ļå¯¼èĩ´":9951,"å¤ļæĸ¯":9952,"ä»£è°¢":9953,"10ä¸ª":9954,"è¶ħäºº":9955,"illi":9956,"çīĽæ´¥":9957,"1926å¹´":9958,"ç¹ģèį£":9959,"å¼ĺæ²»":9960,"åľ¨ä¸ŃåĽ½å¤§éĻĨ":9961,"å¡ĶåŁº":9962,"å·¥ä½ľèĢħ":9963,"çħ®":9964,"åİ¿çļĦéĿŀå»ºåĪ¶åľ°åĮº":9965,"span":9966,"è¤Ĵ":9967,"é¢Ĩäºĭé¦Ĩ":9968,"çļĦåĨħ":9969,"åľ¨å½ĵåľ°":9970,"ç¬ĥ":9971,"æ°ĳåħļ":9972,"ä¸ĭåĪĹ":9973,"å®īæīĵ":9974,"å¸¦èĳĹ":9975,"å»ºçŃĳéĿ¢ç§¯":9976,"æ¦ľåįķ":9977,"ç¯ĩå°ıè¯´":9978,"1925å¹´":9979,"ç»ĺåĪ¶":9980,"åĮĸåŃ¦å¼ı":9981,"å¤±åİ»äºĨ":9982,"04":9983,"Î²":9984,"æĺ¯åį°åº¦":9985,"éĹµ":9986,"ä¹Łèĥ½":9987,"åŁİéĻħ":9988,"åįİä¸ľ":9989,"èī²æĥħ":9990,"æł·æľ¬":9991,"åłĤåĮº":9992,"ä¸ĸçºªåĪĿ":9993,"åħ¨åĽ½éĩįçĤ¹æĸĩçī©ä¿ĿæĬ¤åįķä½į":9994,"å¯¼èĩ´äºĨ":9995,"ä»ĺè´¹":9996,"çļĦçī¹æľī":9997,"æĲŃæ¡£":9998,"é¡ºæĹ¶éĴĪä¸İ":9999,"ear":10000,"åĩ»éĢĢ":10001,"æĶ¿æ²»éĥ¨":10002,"éª¨éª":10003,"ç»§æī¿äºº":10004,"Ġal":10005,"å²ĳ":10006,"åĪ¶å¤ĩ":10007,"çłį":10008,"å¥¥åı¤":10009,"æĶ¯æĴĳ":10010,"æİ¨çĲĨ":10011,"æĵ¢":10012,"äºİ2002å¹´":10013,"åŃ£åĲİèµĽ":10014,"åĴĴ":10015,"éģĵå¤«":10016,"æĽ¾ä¸İ":10017,"åĲĦçº§":10018,"äº¦åı¯":10019,"å®«æ®¿":10020,"1909å¹´":10021,"è¶ħçº§èģĶèµĽ":10022,"æ³ķè§Ħ":10023,"èĢĮåĲİ":10024,"ä»£æķ°":10025,"çĲĥæ¯ĶèµĽ":10026,"ä½Ĩæ²¡æľī":10027,"æŃ£ç»Ł":10028,"èį«":10029,"åºĶå½ĵ":10030,"çº³çľģ":10031,"åı¯ä»¥çĶ¨":10032,"çĳ¶":10033,"åĶĲçº³":10034,"æŁĲä¸ª":10035,"æļĹç¤º":10036,"åĭĥèī®ç¬¬":10037,"ux":10038,"åĽ½å¤ĸ":10039,"ç§ĳçłĶ":10040,"éĺ¿åĪĹ":10041,"çĽ´å±ŀ":10042,"éĺ²çº¿":10043,"æ´ĭåŁº":10044,"ä¸ģçĽ®":10045,"æĺ¯ä¸Ģæ¬¾":10046,"å¾ĴåĪĳ":10047,"ç¨³å®ļçļĦ":10048,"æĪĺå½¹ä¸Ń":10049,"Ġç®ĢåİĨ":10050,"B1900":10051,"ee":10052,"ĠSp":10053,"çī¹å®ļçļĦ":10054,"ä¸ľæĹ¥æľ¬":10055,"é«ĺéĵģ":10056,"âĢĿ;":10057,"è¯¥ç«Ļ":10058,"å¥¹æĺ¯":10059,"æĹıçļĦ":10060,"åĽ½å®¶è¶³çĲĥéĺŁ":10061,"å¼ķå¯¼":10062,"172":10063,"éĵ¶çº¬":10064,"1922å¹´":10065,"äºİ187":10066,"æĸ°å¢ŀæľ¬åľŁ":10067,"Ġè½¦ç«ĻæŀĦéĢł":10068,"5ä¸ĩ":10069,"åħ¬ç«ĭ":10070,"çŃĭ":10071,"çĶ±åħ¶":10072,"çĶµåİĭ":10073,"è·¯åĨĽ":10074,"åĪĹæĸ¯":10075,"åı¤å±ĭ":10076,"ç¬¬ä¸Ģæī¹":10077,"æĶ¾å°Ħ":10078,"åĩıå¼±":10079,"ä¼ĬåĪ©è¯ºä¼Ĭ":10080,"éª¨éª¼":10081,"TE":10082,"Ġ15":10083,"Ġth":10084,"Ġç»ıåİĨ":10085,"çļĦæ¶Īæģ¯":10086,"ä¸İå¤§":10087,"108":10088,"éŃħ":10089,"éģĹä½ĵ":10090,"éĢģå¾Ģ":10091,"æĿ¥æºĲäºİ":10092,"åĳ¨æģ©æĿ¥":10093,"0åĿĲæłĩä¸º":10094,"Lin":10095,"yst":10096,"ä¹ŀ":10097,"å¥ķ":10098,"åħ¶B1900":10099,"è¿Ľç¨ĭ":10100,"æĭīå§Ĩ":10101,"å¢©":10102,"åŀĥ":10103,"å¥¥å¾·":10104,"é²·":10105,"æĹıèĩªæ²»åĮº":10106,"2019åĨłçĬ¶çĹħæ¯Ĵ":10107,"ä½įäºİéĵ¶ç»ı":10108,"0åĿĲæłĩä¸ºèµ¤ç»ı":10109,",\"":10110,"ä¿ŀ":10111,"çĪ¸":10112,"å¥¥å¤ļ":10113,"ï¼İ":10114,"å°ĳæķ°æ°ĳæĹı":10115,"å¤įæĿĤçļĦ":10116,"book":10117,"èĤĮèĤī":10118,"4ç±³":10119,"Ġ20":10120,"è¿ĩåĲİ":10121,"ä¿¡å¥ī":10122,"å¯Ĩè¥¿":10123,"ãĥ³":10124,"æ²īç§¯":10125,"ational":10126,"åįĹæŀģæĿ¡çº¦":10127,"æĩ¿":10128,"éĴ»çŁ³":10129,"çļĦä½¿çĶ¨":10130,"è¯¥å¹´":10131,"çŁ¢":10132,"ç»´æĭī":10133,"é¢ĨéĺŁ":10134,"éħ¸çĽĲ":10135,"åĲ¦åĨ³":10136,"éĢĥäº¡":10137,"å¸ĥæĭīæł¼":10138,"éĢ¢æĺŁæľŁ":10139,"å½ķéŁ³å®¤":10140,"Ġå·´":10141,"ä¸Ĭæł¡":10142,"è¯´æĺ¯":10143,"åį³æĺ¯":10144,"éĤ£ä¸ª":10145,"146":10146,"æ³½è¥¿":10147,"çİ°ä»£åĮĸ":10148,"ä¸įä¹ħåĲİ":10149,"æĺİå°¼èĭıè¾¾":10150,"IL":10151,"Ġ1999å¹´":10152,"åľ¨å¾·åĽ½":10153,"æĻ·":10154,"åįİåįĹ":10155,"æĽ´é«ĺ":10156,"11æľĪ1æĹ¥":10157,"ç»ŃéĽĨ":10158,"èī¾ä¼¦":10159,"åĩ»è´¥äºĨ":10160,"è´·æ¬¾":10161,"IM":10162,"Qu":10163,"Sc":10164,"me":10165,"å½¬":10166,"åħ¬ç½²":10167,"åı¯çĶ¨":10168,"é«ĺåľ°":10169,"æīĢè¾ĸ":10170,"ä¸ĸä»£":10171,"æľ¨åĦ¿":10172,"è´¢å¯Į":10173,"ä¸ºä¸»é¢ĺ":10174,"æĢ»éĥ¨ä½įäºİ":10175,"1911å¹´":10176,"å¦Īç¥ĸ":10177,"ç«ĸ":10178,"æľªç»ı":10179,"æľªæĿ¥çļĦ":10180,"148":10181,"èĤ¡æĿĥ":10182,"ãģ®":10183,"çĶĺèĤĥçľģ":10184,"ii":10185,"Ġä¸Ńåįİäººæ°ĳåħ±åĴĮåĽ½":10186,"åľ¾":10187,"å½Ĺ":10188,"åĮĹå®ĭ":10189,"ãĢį()":10190,"æ¯Ķ2":10191,"æĶ¹ä»»":10192,"æĶ¿åºľåľ¨":10193,"orn":10194,"èİ±åĿŀ":10195,"çĥĪå£«":10196,"ãĢīãĢģãĢĪ":10197,"åŀĥåľ¾":10198,"ä¸ľé£İ":10199,"èĪ°èīĩ":10200,"åĨ²ç»³":10201,"ç£ħ":10202,"åºĻå®ĩ":10203,"è®¾ç«ĭçļĦ":10204,"é¥ŃåºĹ":10205,"codice":10206,"ĠæĸĩåĮĸ":10207,"åįĹä¸ĭ":10208,"å¾·åħ°":10209,"å¼ºè¿«":10210,"æŀģéĻĲ":10211,"èľ¥":10212,"ç©¿èĳĹ":10213,"éĩįåºĨå¸Ĥ":10214,"æĸ¯æ´Ľä¼Ĳåħĭ":10215,"å®°çĽ¸":10216,"å¡ŀæĭľçĸĨ":10217,"1åı·çº¿":10218,"æĺ¯å¤§":10219,"åĲİæīį":10220,"åħ¶çĪ¶":10221,"å¸ĤåĨħ":10222,"å¸ĥåĪĹ":10223,"é©¬è¾¾":10224,"åİ¿çº§":10225,"ç»ĵå±Ģ":10226,"è¿ĺè¦ģ":10227,"æ´Ľä¼Ĭ":10228,"ä¾ĿæĹ§":10229,"ä¸¾è¡ĮäºĨ":10230,"éħĴç²¾":10231,"æĴŃåĩºçļĦ":10232,"1921å¹´":10233,"å§Ĳå§Ĳ":10234,"ä¹¡éķĩçº§è¡ĮæĶ¿åįķä½į":10235,"æĹ¶ä¼ļ":10236,"ä¹ĭæĦı":10237,"ç¬¬9":10238,"åħ³ä¸ľ":10239,"é¢Ĩè¡Ķ":10240,"å¤ªå®Ĺ":10241,"æĿĥçĽĬ":10242,"æ³¢éŁ³":10243,"æ³īå·ŀ":10244,"åı°ä¸Ńå¸Ĥ":10245,"å¤©çĦ¶æ°Ķ":10246,"çļĦä½ľçĶ¨":10247,"ä¸ĢçĶŁ":10248,"åĴĮæĸ°":10249,"åı¯åĪĨä¸º":10250,"çī©æµ¦":10251,"é©¬å¾·éĩĮ":10252,"åħļç±į":10253,"ä¸ĵåĮº":10254,"çļĦä¸Ģä½į":10255,"è´¹åŁİ":10256,"æ¶ĪéĻ¤":10257,"æĺ¥åŃ£":10258,"æ··åĩĿ":10259,"æ´ªæŃ¦":10260,"æĸ¹åĲĳçļĦ":10261,"å¼ķèµ·äºĨ":10262,"BM":10263,"ç¬¬äºĮè½®":10264,"èİ«å°Ķ":10265,"ä¸»æķĻåº§åłĤ":10266,"æķıæĦŁ":10267,"1ç±³":10268,"2åĲį":10269,"Ġè¿Ļä¸ª":10270,"ĠçĽ¸åħ³":10271,"ç»°":10272,"å¤§éĥ¨ä»½":10273,"æĹ¶è¢«":10274,"èĢĮå¾ĹåĲį":10275,"109":10276,"12ä¸ª":10277,"åĽ´æĶ»":10278,"æĹ¶éĹ´åĨħ":10279,"çİĽä¸½äºļ":10280,"æľĶ":10281,"æ²¦":10282,"ä¸įåıĬ":10283,"å°ıå¹³":10284,"æł¼æĸ¯":10285,"å¤§åŃ¦çĶŁ":10286,"æ¯ıä¸Ģä¸ª":10287,"æķħéļľ":10288,"ç»ĦæĪĲéĥ¨åĪĨ":10289,"èĮ¨åŁº":10290,"çŀĦ":10291,"å±±èĦīçļĦä¸Ģéĥ¨åĪĨ":10292,"å¿ĥçĲĨåŃ¦":10293,"8æľĪ1æĹ¥":10294,"9æľĪ1æĹ¥":10295,"ox":10296,"Ġç¤¾ä¼ļ":10297,"åľ¨è¿Ļä¸ª":10298,"åºµ":10299,"å¤§è´¥":10300,"åĴĮä¸Ģä¸ª":10301,"æ°°":10302,"ä¸»ç¼ĸ":10303,"åĪĨæķ£":10304,"éĿ¢åīį":10305,"èµ·äºĨ":10306,"1500":10307,"å°Ħåħ¥":10308,"âĢĿ,âĢľ":10309,"è½¨éģĵäº¤éĢļ":10310,"çº³ç²¹å¾·åĽ½":10311,"æĸ°åĨłèĤºçĤİç¡®è¯ĬçĹħä¾ĭ":10312,"ron":10313,"uk":10314,"ĠçĶµå½±":10315,"ç»£":10316,"çº±":10317,"å¤§äºİ":10318,"æ¼³":10319,"æį®çĤ¹":10320,"æŃ¥è¡Į":10321,"æ¿ĳ":10322,"åĽ½æ°ĳéĿ©åĳ½åĨĽ":10323,"æ©ĺ":10324,"è¿ŀç»Ńåī§":10325,"åŁĶå¯¨":10326,"èĦĤé²¤":10327,"ä¸Ģè§Ĵ":10328,"åŃ¢":10329,"çĶµå®¹":10330,"çĶµæ¢¯":10331,"åıªåľ¨":10332,"åĪĽæĦı":10333,"167":10334,"Ste":10335,"æ²īæ²¡":10336,"ä¼łæķĻå£«":10337,"çººç»ĩ":10338,"ĠSh":10339,"äººè®¤ä¸º":10340,"å¯Ŀ":10341,"éĺİ":10342,"åı¯çĶ±":10343,"åĪ©çī©æµ¦":10344,"çĥ¦":10345,"173":10346,"ä½ľåĵģçļĦ":10347,"éĽħåĲĦ":10348,"äººç±»çļĦ":10349,"åĵ²åŃ¦å®¶":10350,"æŁ¬åŁĶå¯¨":10351,"åĪĨå¼Ģ":10352,"éĹ´æİ¥":10353,"éĩĳæĽ²":10354,"åłķ":10355,"é²¨":10356,"åĪĽä¸ĭ":10357,"è¿ŀåĲĮ":10358,"ä¸ĸçķĮçļĦ":10359,"è¶³ä»¥":10360,"åŃ¦éĻ¢çļĦ":10361,"ç´¢å°¼":10362,"æļ´éľ²":10363,"çİ¯å½¢å±±":10364,"èįĥæ¹¾":10365,"åįĹæŀģæĿ¡çº¦ä½ĵç³»":10366,"çļĦçİ¯å¢ĥ":10367,"ä¸įå¦Ĥ":10368,"ä½įåĪĹ":10369,"æľĢå¥½çļĦ":10370,"ä¹ŁæĪĲä¸º":10371,"128":10372,"ç©ºè°ĥ":10373,"æĥħå½¢":10374,"enn":10375,"éĩİæĪĺ":10376,"åĲ¯åıĳ":10377,"äºİ1998å¹´":10378,"æłĸæģ¯åľ°":10379,"ç¿°æŀĹéĻ¢":10380,"ll":10381,"åİķ":10382,"èĬ¯":10383,"åħ¨åı°":10384,"åĮħæĭ¬ä»¥ä¸ĭ":10385,"èĬ±è´¹":10386,"att":10387,"åĲİæĿ¥è¢«":10388,"è¿ģå¾Ļ":10389,"èī¯å¥½çļĦ":10390,"ç´§å¯Ĩ":10391,"4åĲį":10392,"ial":10393,"Ġå®ī":10394,"æµı":10395,"ä¸¤å¤§":10396,"èµ·é£ŀ":10397,"æĺİçļĦ":10398,"åģľçķĻ":10399,"åĩºçĶŁåľ¨":10400,"ATP":10401,"æ··åĩĿåľŁ":10402,"å®¦":10403,"ä¸Ńåľº":10404,"å¹¶å¯¹":10405,"å¹¶ç§°":10406,"äºĭä¸Ń":10407,"è·¯å¾·":10408,"èĬ½":10409,"æķ°çĽ®":10410,"çļĦä¸Ģå®¶":10411,"åľ£æ®¿":10412,"åįłæĢ»äººåı£":10413,"èĮĥçķ´":10414,"éŁ³ä¹Ĳä¼ļ":10415,"æ¿Ģè¿Ľ":10416,"1923å¹´":10417,"1913å¹´":10418,"åĵĪå°Ķæ»¨å¸Ĥ":10419,"DC":10420,"çļĦè¡ĮåĬ¨":10421,"ä¸Ģåıª":10422,"ä¸įåľ¨":10423,"ä¹ĭè·¯":10424,"å¾·çĶ²":10425,"æľĢå°ı":10426,"äºĭå®ľ":10427,"è¾¾å°¼":10428,"ç»´èİ±":10429,"åĽŀå¤į":10430,"ç©ºéĻį":10431,"çº³è¥¿":10432,"åº§ä½į":10433,"èĩªçĶ±åħļ":10434,"äºİ2001å¹´":10435,"æļĹæĿĢ":10436,"ĠDe":10437,"æº´":10438,"ä¼ĺæĥł":10439,"AG":10440,"Ġç¬¬ä¸ī":10441,"ä¸ºä»ĸ":10442,"é¢ħ":10443,"æĸĩçļĦ":10444,"ç¤ºèĮĥ":10445,"èĻŀ":10446,"éªĮè¯ģ":10447,"åĮĹäº¬å¤§åŃ¦":10448,"èĤ¡ç¥¨":10449,"æ±ĹåĽ½":10450,"DR":10451,"Ð¾":10452,"ĠèģĮä¸ļçĶŁæ¶¯":10453,"å®µ":10454,"ä¸įéľĢè¦ģ":10455,"äºĮæ°§åĮĸ":10456,"å¤©ç©º":10457,"è¿ĲéĢģ":10458,"æ¼Ķä¹ł":10459,"åĳĬçŁ¥":10460,"æ³½å°Ķ":10461,"è¯¸å¦Ĥ":10462,"ä¸§å¤±":10463,"2019åĨłçĬ¶çĹħæ¯ĴçĹħ":10464,"ode":10465,"ĠTh":10466,"ä½¥":10467,"åŃľ":10468,"åīĮ":10469,"ä¸İç¾İåĽ½":10470,"äºĮçĶ²":10471,"å§ĭäºİ":10472,"æŃ¦æľ¯":10473,"çĵ¦æĭī":10474,"çĪ±æ²Ļ":10475,"èĢģæĿ¿":10476,"ä½łä»¬":10477,"é¢Ĺå°ıè¡ĮæĺŁ":10478,"åįĹæŀģæĿ¡çº¦ä½ĵç³»ç®¡çĲĨ":10479,"5Ġ":10480,"SO":10481,"Ġå¤ĸéĥ¨":10482,"ä¸İä¸ŃåĽ½":10483,"âĢľâĢĿ":10484,"ç«ĭåĪ»":10485,"ä½Ĩè¿Ļ":10486,"åĽĽåįģ":10487,"åıįåĩ»":10488,"ç¬¬ä¸Ģéĥ¨":10489,"ç¦ıåĨĪ":10490,"åįļå°Ķ":10491,"çľŁçļĦ":10492,"æ°¸ä¹Ĳ":10493,"1950å¹´ä»£":10494,"åħ¶ä¸Ńæľī":10495,"ç»įåħ´":10496,"æģĭçĪ±":10497,"åľ¨æŃ¤æľŁéĹ´":10498,"çĦ¦çĤ¹":10499,"æłªå¼ı":10500,"çĪ±æ²Ļå°¼äºļ":10501,"åĲįåı¤å±ĭ":10502,"ç¾Į":10503,"æĽ´åĲį":10504,"åĩ»èĲ½":10505,"çīĩä¸Ń":10506,"ley":10507,"å»ºç«ĭçļĦ":10508,"å¹¸ç¦ı":10509,"æłªå¼ıä¼ļç¤¾":10510,"æµĳ":10511,"çĶ±ç¾İåĽ½":10512,"æĸ°çĶŁ":10513,"è°ľ":10514,"åħ¨æķ°":10515,"åı²æĸĻ":10516,"å°±å·²ç»ı":10517,"åĻª":10518,"èĴĻå¾·":10519,"æ®ĭçĸ¾äºº":10520,"æĺ¯å½ĵåľ°":10521,"åīĸ":10522,"éļĻ":10523,"èĤĨ":10524,"ç¼ł":10525,"æĢ»ç»ĵ":10526,"å¿ĥçļĦ":10527,"éĶ¯":10528,"åıĪæľī":10529,"æĸ½è¡Į":10530,"ç³»ç»Łä¸Ń":10531,"éĢĤå½ĵ":10532,"ä¸ĺéĻµ":10533,"éĽĨä¸Ńåľ¨":10534,"æħķå®¹":10535,"åĮºè®®ä¼ļéĢīä¸¾":10536,"UR":10537,"éĩįä¼¤":10538,"åŁİéĹ¨":10539,"æĻ®å°Ķ":10540,"ç»Ļä»ĸ":10541,"è¾ĥå°ı":10542,"éĻįçº§":10543,"äºĭä»¶çļĦ":10544,"ä»ĭåħ¥":10545,"èĨ¨":10546,"åħĭéĩĮæĸ¯èĴĤ":10547,"ä¼´ä¾£":10548,"å¸ĸæľ¨åĦ¿":10549,"Ġç½Ĺ":10550,"æ²§":10551,"åĲĮæ²»":10552,"é©¬åľº":10553,"å·´éĩĮ":10554,"ç¡Ŀ":10555,"è¿ĺä¼ļ":10556,"åĽ½å®¶çº§":10557,"åħŃä¸ĸ":10558,"å®¢ä¸²":10559,"æİĴæĶ¾":10560,"å¹²çĩ¥":10561,"ä¸¹å°¼å°Ķ":10562,"éĺµçº¿":10563,"ç½ªåĲį":10564,"å¨ģå°Ķå£«":10565,"åľ¨åįĹ":10566,"åĩ¹":10567,"æµ·åºķ":10568,"åŁİåĨħ":10569,"æīĭæ³ķ":10570,"ä¿ĿèĤ²":10571,"æ·¹":10572,"éĢļè¿ĩäºĨ":10573,"ç£ģåľº":10574,"èĲ¨åħĭæ£®":10575,"ä¸īè§Ĵå½¢":10576,"Ġèĭ±åĽ½":10577,"ĠæķĻèĤ²":10578,"åĽ½åľŁ":10579,"ä¸Ĭå±Ĥ":10580,"æĸ¹éĴĪ":10581,"å¦ĵ":10582,"åİŁåĿĢ":10583,"å¤įä»ĩ":10584,"æ¥ł":10585,"åįĥäºº":10586,"åĳĬç¤º":10587,"147":10588,"éĺµåľ°":10589,"æĪ´ç»´æĸ¯":10590,"æĦıè¯Ĩå½¢æĢģ":10591,"1900å¹´":10592,"cc":10593,"ç»Ĵ":10594,"åºĲ":10595,"ä¹ĭä¹±":10596,"åħ¨å¹´":10597,"ç¨ļ":10598,"çº¦3":10599,"ory":10600,"åĨĻçļĦ":10601,"å¯¿åĳ½":10602,"äºİ186":10603,"ä¸ĢéĹ´":10604,"ä¸Ĭç©º":10605,"å·¥éĥ¨":10606,"æĹłéĶ¡":10607,"éĴ¥":10608,"åħĪåıĳ":10609,"å®ĮåĸĦ":10610,"çĽĳè§Ĩ":10611,"çĴĭ":10612,"1917å¹´":10613,"NC":10614,"ä¸ĢæĹ¥":10615,"ä¸ĢæīĢ":10616,"ä¸įå¤ļ":10617,"åħ¨å¢ĥ":10618,"å¼ºå¤§":10619,"169":10620,"èĨĢ":10621,"æĤłä¹ħ":10622,"BO":10623,"Ġè¿ĻäºĽ":10624,"çļĦå¥³æĢ§":10625,"åĮĹç¾İæ´²":10626,"éĿ¢2":10627,"èµĽåĨłåĨĽ":10628,"åħĥé¦ĸ":10629,"è®©äºº":10630,"éĵ¶æ²³":10631,"è¿½åĩ»":10632,"çī©çĲĨåŃ¦å®¶":10633,"åĵĪå°Ķç§ĳå¤«":10634,"Ġæ°ĳåĽ½":10635,"åĽ½ç±į":10636,"ä¸įåĪ©":10637,"è¥¿æ¯Ķ":10638,"äºĮåı·":10639,"å®ļäºĨ":10640,"æĢ§è¡Įä¸º":10641,"æĹłåħ³":10642,"æ·«":10643,"è§ģè¯ģ":10644,"è´Ńåħ¥":10645,"6æľĪ30æĹ¥":10646,"çıįçıł":10647,"çºµéĺŁ":10648,"çİ°æĹ¶çĶ±åįĹæŀģæĿ¡çº¦ä½ĵç³»ç®¡çĲĨ":10649,"3D":10650,"?âĢĿ":10651,"ps":10652,"Ġk":10653,"Ġ199":10654,"Ġ1945å¹´":10655,"åĲİä»£":10656,"æĮĿ":10657,"ç§ĳè¿Ľå£«":10658,"çĽ¸å¯¹äºİ":10659,"äºĶä¸ĸ":10660,"èģĮäººåĳĺ":10661,"åĽ¾æĽ¼":10662,"çŁ³å¤´":10663,"éħįè§Ĵ":10664,"åŁĥå¾·":10665,"åįĹéĥ¨çļĦ":10666,"é¡¹çĽ®çļĦ":10667,"å§ĵåĲį":10668,"èģĺè¯·":10669,"John":10670,"çļĦè½¨éģĵ":10671,"ä¼ļä»¥":10672,"æĻ°":10673,"éĿ¢åĮħ":10674,"å¦Ĩ":10675,"æŃ»èĢħ":10676,"èĵī":10677,"åĢŁæŃ¤":10678,"èı©èĲ¨":10679,"å¼§":10680,"äºİé¦Ļæ¸¯":10681,"åĮĹæŀģ":10682,"è¿ĩäºĨ":10683,"æŀĹèĤ¯":10684,"åİĨç»ı":10685,"æĴŃæĺł":10686,"å¥ĸç«ł":10687,"åıĳè¡¨çļĦ":10688,"å®ĩæĸĩ":10689,"èĦĬæ¤İ":10690,"Ġä½Ĩ":10691,"ĠæĽ¾":10692,"çļĦè¿ĩç¨ĭ":10693,"ä¸Ģåĳ¨":10694,"ä¸Ģè¾Ĩ":10695,"æµ´":10696,"æĪĺæĹ¶":10697,"ç©Ĺ":10698,"åŀ«":10699,"174":10700,"ç½ªè¡Į":10701,"èĢ³æĽ¼":10702,"åĬŀåħ¬åİħ":10703,"é¢ĨåŁŁçļĦ":10704,"æ¸ħçľŁå¯º":10705,"6æľĪ1æĹ¥":10706,"8ç±³":10707,"ED":10708,"Ġåı¤":10709,"ä¸įåı¯èĥ½":10710,"å¼Ģè¾Ł":10711,"åĪĹé¢ł":10712,"è¯´çļĦ":10713,"æ¨Ł":10714,"æŃ»åİ»":10715,"èĶ½":10716,"ç¼©çŁŃ":10717,"çģ°èī²":10718,"Ġæ°´":10719,"ä¹ĵ":10720,"æµģéĢļ":10721,"åıĪè¢«":10722,"åį¢æ£®åł¡":10723,"å®īå¾·çĥĪ":10724,"æº¶æ¶²":10725,"è¥¿å¾·":10726,"æĸ°åŀĭ":10727,"æ°´éĿ¢":10728,"ç¤¾åĽ¢":10729,"åį°åľ°":10730,"row":10731,"æĳ©æł¹":10732,"æłĳæľ¨":10733,"å½¢å¼ıçļĦ":10734,"é«ĺçŃīæķĻèĤ²":10735,"æ©¡èĥ¶":10736,"ĠAr":10737,"å¹´åºķ":10738,"ä¸ºç¾İåĽ½":10739,"ä¸Ģç¾¤":10740,"åľ°åĬ¿":10741,"å¹¶å¼Ģå§ĭ":10742,"å»¿":10743,"æľ¬åī§":10744,"ä¹Łå°Ĩ":10745,"çľģè´Łè´£ç®¡è¾ĸ":10746,"ç½ĹéĹ¨":10747,"ç§ĳåĮ»çĶŁ":10748,"å°ĳéĩı":10749,"å¤įåĪ¶":10750,"çĳ°":10751,"è´¨çļĦ":10752,"è¡ĮæĶ¿åĮºåŁŁ":10753,"å¤ªéĺ³åħ¬":10754,"çĹĽèĭ¦":10755,"æ¶Īè´¹èĢħ":10756,"âĪĴ":10757,"1å®¶":10758,"BD":10759,"IF":10760,"ä¸»åĶ±":10761,"å¤©æ¡¥":10762,"è¿ĺåİŁ":10763,"æİ¨è¿Ł":10764,"å©·":10765,"æľĢåĲİä¸Ģä¸ª":10766,"å¹¼åĦ¿":10767,"éģµå¾ª":10768,"ç»¼èīºèĬĤçĽ®":10769,"ĠAn":10770,"çļĦå®ĺæĸ¹":10771,"ä¸İæĹ¥æľ¬":10772,"çĶŁåīį":10773,"ä½Ĩä¹Ł":10774,"é¦ĸå¼ł":10775,"æĬ¥å¤į":10776,"è¯ĨåŃĹ":10777,"ild":10778,"æ¯Ĵåĵģ":10779,"å®½åº¦":10780,"çģ¾å®³":10781,"è£Ķç¾İåĽ½äºº":10782,"éļĲèĹı":10783,"sk":10784,"yle":10785,"å¤§å¤§":10786,"åĲįåĪĹ":10787,"å¹¶å°Ĩåħ¶":10788,"è¥¿è·¯":10789,"æľ¬éĥ¨":10790,"è¯¥ä¹¦":10791,"ç»ĦçļĦ":10792,"å®ĺèģĮ":10793,"è¾¹å½¢":10794,"åĮĹéĥ¨çļĦ":10795,"9ä¸ª":10796,"çļĦM":10797,"çļĦéĩį":10798,"ä¸ŃæīĢ":10799,"ä¸İä»ĸ":10800,"åĮºè´Łè´£ç®¡è¾ĸ":10801,"ç¬¬13":10802,"åĪ©å®ī":10803,"é«ĺä¸½":10804,"èģĶéĺŁ":10805,"è¿ĳä¼¼":10806,"æģ©æĸ¯":10807,"æ³½å°Ķçľģ":10808,"æ²³éģĵåħ¨éķ¿":10809,"EDT":10810,"Ġ1998å¹´":10811,"ä¸Ńä¸ľ":10812,"åĲİä¸įä¹ħ":10813,"æĹ¶å°ļ":10814,"ä¸Ĭåľº":10815,"åħ¬åĽ½":10816,"äº¤å¾Ģ":10817,"å°±èĥ½":10818,"æĪĲä¸ºä¸Ģä¸ª":10819,"åķ¤":10820,"èĢģæĮĿ":10821,"éĵģè·¯åħ¬åı¸":10822,"è®½åĪº":10823,"118":10824,"90å¹´ä»£":10825,"æĭ¾":10826,"è¥¿èĴĻ":10827,"åİĨä»£":10828,"åħµéĥ¨":10829,"ç¬¬äºĮåŃ£":10830,"åĲİæĿ¥åľ¨":10831,"åł¡åŀĴ":10832,"åºŁå¼ĥ":10833,"æĺ¯ä¸ĭè¾ĸçļĦä¸Ģä¸ªä¹¡éķĩçº§è¡ĮæĶ¿åįķä½į":10834,"è¿Ħä»Ĭ":10835,"å¤§åĨĽ":10836,"åĪĨæŃ§":10837,"æĪĺèĪ°":10838,"1960å¹´ä»£":10839,"çīĽæĸ¯":10840,"ä¸ľéĥ¨æĹ¶åĮº":10841,"ĠofĠthe":10842,"Cl":10843,"çļĦçĥŃ":10844,"ä¸Ĭèİ·å¾Ĺ":10845,"èī³":10846,"æĸĩéĿ©":10847,"æĶ¹çĶ¨":10848,"æľªè¢«":10849,"çªŁ":10850,"æľĢç»Īä»¥":10851,"çĳŀåħĭ":10852,"åİħéķ¿":10853,"æ¨ªæ»¨":10854,"æĩĤ":10855,"ä¸Ģå¯¹":10856,"æľīä¸ī":10857,"æľīæĦı":10858,"æľīä¸ĢäºĽ":10859,"åĲĮä¸º":10860,"å¼Ģè¡Į":10861,"å¾Ĺåĩº":10862,"æ¡¨":10863,"åĪĻè®¤ä¸º":10864,"ä¹¦åºĹ":10865,"éĻĲå®ļ":10866,"æĺłå°Ħ":10867,"åĪĽåĬŀäºº":10868,"80å¹´ä»£":10869,"ĠåĪĺ":10870,"Ġåħ³äºİ":10871,"åħ¬æĬķ":10872,"å¼ĢæĻ®":10873,"èµĽé©¬":10874,"æĶ¶å¤į":10875,"éĻĨæĪĺéĺŁ":10876,"æĤĶ":10877,"éĻįèĲ½":10878,"å·´å£«è·¯çº¿":10879,"çĨŁæĤī":10880,"éĦĤåĽ¾æĽ¼":10881,"æĭĺçķĻ":10882,"Ġæ¯ĶèµĽ":10883,"çļĦæĹł":10884,"çļĦä¸¤ä¸ª":10885,"ç¬¬12":10886,"è¥¿ä¼¯åĪ©äºļ":10887,"å½ĵåīį":10888,"ina":10889,"åıĪè¯ĳ":10890,"åĺĽ":10891,"æ¨ªè·¨":10892,"è¿Īåħĭå°Ķ":10893,"å±Ĭåħ¨åĽ½æĶ¿åįıå§Ķåĳĺ":10894,"ä¸Ńèİ·å¾Ĺ":10895,"å¯ħ":10896,"çİ«":10897,"è¢«åĪ¤":10898,"åİŁæľīçļĦ":10899,"åį¡æĸ¯èĴĤ":10900,"å¤«çī¹":10901,"ç²ĺ":10902,"ç¼ĸæĽ²":10903,"å»ºéĢłçļĦ":10904,"çĲĨäºĭéķ¿":10905,"éģµå®Ī":10906,"ISTAT":10907,"ma":10908,"çļĦå®ļä¹ī":10909,"äººæīĢ":10910,"æĹ¶ç©º":10911,"ä¼ļå°Ĩ":10912,"ä¸ªåĪ«":10913,"å±±åĿ¡":10914,"ç¤¾éķ¿":10915,"èĲ½å®ŀ":10916,"çī¹åĪ«è¡ĮæĶ¿åĮº":10917,"åįģä¹Ŀå¹´":10918,"çĿ¡çľł":10919,"ype":10920,"çļĦæĦıæĢĿ":10921,"å¹¢":10922,"ä¸Ģå±Ĥ":10923,"çĶŁæĹ¥":10924,"çĶ¨åľ°":10925,"æ°ĳçĶ¨":10926,"çľģä¼ļ":10927,"æıĲåĢ¡":10928,"åĽŀæĿ¥":10929,"ä¸ĩåĲį":10930,"æłĩç¤º":10931,"åĽ¾å°Ķ":10932,"æ¸ħåĨĽ":10933,"æĪ¿åŃĲ":10934,"ä¼ģåĪĴ":10935,"äºİ1999å¹´":10936,"ä»ĵåºĵ":10937,"æĺ¯ä¸Ģé¢ĹåĽ´ç»ķ":10938,"5000":10939,"à¤":10940,"ä¸ºä½ķ":10941,"ä¸ĬåįĬ":10942,"ä¸İåīį":10943,"æĬ¬":10944,"æĽĿ":10945,"çŃĽ":10946,"å°Ĩäºİ":10947,"å¸ĥæĸ¯":10948,"åĢª":10949,"æĺŁéĻħ":10950,"çľĭèµ·æĿ¥":10951,"å®Īå¤ĩ":10952,"Ġè¿Ļé¢Ĺå°ıè¡ĮæĺŁ":10953,"ä¹Ĵä¹ĵ":10954,"Ġä¸ĢäºĽ":10955,"ä¸Ńæ¯Ĵ":10956,"ä¸İä¹ĭ":10957,"åıĬæĹ¶":10958,"éĢļæĬ¥":10959,"æł¼èİ±":10960,"å±ŀæĢ§":10961,"åĽ¾çīĩ":10962,"è§ĴéĢĲ":10963,"çº¢åįģåŃĹ":10964,"è¡ĹåĮº":10965,"æĻĭåįĩä¸º":10966,"åĪ¶çīĩäºº":10967,"5è°ĥå¿«ä¸Ģå°ıæĹ¶":10968,"Ġ1997å¹´":10969,"ä¸Ģå¼ł":10970,"äººäºĭ":10971,"æķ°å¹´":10972,"æķ°çłģ":10973,"ç§ĳç½Ĺ":10974,"åħĥæľĹ":10975,"éªĤ":10976,"æļĳ":10977,"åį«åĨķ":10978,"çĻ»å½ķ":10979,"é©»å®Ī":10980,"æĹĭå¾ĭ":10981,"è¡£æľį":10982,"äºİ185":10983,"æĢ»çĿ£åºľ":10984,"åį³åĮĹç¾İä¸ľéĥ¨æĹ¶åĮº":10985,"å¤ªéĺ³åħ¬è½¬çļĦå°ıè¡ĮæĺŁ":10986,"æĺ¯ä¸Ģé¢ĹåĽ´ç»ķå¤ªéĺ³åħ¬è½¬çļĦå°ıè¡ĮæĺŁ":10987,"7ç±³":10988,"åĴĮéĺ¿":10989,"è°ı":10990,"é©¬åĪ©":10991,"åįļè§Ī":10992,"æ³°å°Ķ":10993,"å·®åĪ«":10994,"æ¯ĶåĪ©çīĽæĸ¯":10995,"éĹ½åįĹ":10996,"çļĦç»Ŀå¯¹æĺŁçŃīä¸º":10997,"ĠåĽłä¸º":10998,"ä¸ºä¸Ńå¿ĥ":10999,"ä¸ŃéĺŁ":11000,"æĿı":11001,"æķ·":11002,"äºĨä¸¤":11003,"åıĬåĪ©äºļ":11004,"è¦ģå¡ŀ":11005,"ç«Ļåľ¨":11006,"æĻ®éĩĮ":11007,"èº«é«ĺ":11008,"ä¸»è¦ģçĶ±":11009,"æīĺå°Ķ":11010,"èŃ¦åĬ¡":11011,"æ°¸åº·":11012,"çŁŃæľŁ":11013,"æ¯ģçģŃ":11014,"çļĦä¿¡":11015,"104":11016,"å®ŀä¸ļ":11017,"æ¶ĪèĢĹ":11018,"éĵģè·¯å±Ģ":11019,"Ġè¿Ļé¢Ĺå°ıè¡ĮæĺŁçļĦç»Ŀå¯¹æĺŁçŃīä¸º":11020,"Ġå¦Ĥæŀľ":11021,"çļĦç¾İ":11022,"æĻ¤":11023,"éĥ½èĥ½":11024,"ary":11025,"åĲīäºļ":11026,"ä»¥åıĬåľ¨":11027,"é¡¶çĤ¹":11028,"æ¸Ķä¸ļ":11029,"æĸ¯å¤§æŀĹ":11030,"ĠÐ":11031,"åľ¨ä»Ĭ":11032,"åĽ½ä¸Ń":11033,"åĴĮçļĦ":11034,"ä¹ĭåĨħ":11035,"æĸĩå¸Ŀ":11036,"ä¸īå±Ĥ":11037,"å¸¸è¢«":11038,"åĪ«å¢ħ":11039,"æ¸ħæĻ°":11040,"çľŁçĽ¸":11041,"æ³¨å°Ħ":11042,"æ¶²ä½ĵ":11043,"çĥ§æ¯ģ":11044,"éĽķåĪ»":11045,"acebook":11046,"è´µå·ŀçľģ":11047,"NG":11048,"iel":11049,"Ġ188":11050,"è¢«åĪĹåħ¥":11051,"äºļç§į":11052,"æµ·æ¹¾":11053,"æŃ¤å¤©ä½ĵ":11054,"ä¸ŃåĽ½ç§ĳåŃ¦éĻ¢":11055,"çİĭçļĦ":11056,"çĥ¹":11057,"å¤«åĭĴ":11058,"åıĺå½¢":11059,"èĪ°åıª":11060,"åģļäºĨ":11061,"é³ĥ":11062,"å¥īåĳ½":11063,"çļĦä¸Ńå¿ĥ":11064,"ç»İ":11065,"ä»¥æĿ¥çļĦ":11066,"ä¸įä¸Ģ":11067,"èĪħ":11068,"æİ¥ä¸ĭæĿ¥çļĦ":11069,"å·´çī¹":11070,"åıįå¤į":11071,"å¯Ĩçłģ":11072,"eng":11073,"æĬ¤åį«":11074,"ç¢ĺ":11075,"åĲ«ä¹ī":11076,"ç¿»æĸ°":11077,"ä¸°å¯ĮçļĦ":11078,"ä¸ºä¸Ń":11079,"æĺ¯è¯¥":11080,"å¤§éĹ¨":11081,"æľīåĬ©äºİ":11082,"åĲİè£Ķ":11083,"ä¸įåĪĹé¢ł":11084,"åĬ¨æľº":11085,"ä¸ľæ±ī":11086,"è½¦ä½ĵ":11087,"å¸ĥç½Ĺ":11088,"è¿Ĳè½½":11089,"éĺ¿å¯Ĩ":11090,"lar":11091,"ç½ĳé¡µ":11092,"å¤±ä¸ļ":11093,"ä¸įåĲĮäºİ":11094,"å»¶è¿Ł":11095,"æĵĴ":11096,"éĺ¶å±Ĥ":11097,"å£ģçĶ»":11098,"3æľĪ1æĹ¥":11099,"çļĦå®¶":11100,"çļĦåįķ":11101,"çļĦæķ°éĩı":11102,"è¡Įçľģ":11103,"åĪ©çī¹":11104,"åįİä¾¨":11105,"åıĤæĶ¿":11106,"æ®ī":11107,"åķĨæłĩ":11108,"è¾ĥå¤ļ":11109,"éĺ³åħī":11110,"ç§»äº¤":11111,"age":11112,"è®°èĢħä¼ļ":11113,"ĠåĽł":11114,"Ġçİ°":11115,"çļĦåħī":11116,"åľ¨éĺ¿":11117,"ä¸Ģè¾¹":11118,"ä¸Ģèīĺ":11119,"åĽ½åħ¬":11120,"çĽ¸æľº":11121,"åī§ç»Ħ":11122,"èģĮèĥ½":11123,"æĶ¾æĺł":11124,"å©ī":11125,"ä¸§çĶŁ":11126,"å¸ĨèĪ¹":11127,"DP":11128,"åĨ¶":11129,"æĮ«":11130,"ä¸ĭæ°´":11131,"è¿ĩä¸ĸ":11132,"åħ¥çĭ±":11133,"129":11134,"138":11135,"åĲĮå¹´12æľĪ":11136,"ç¼ºéĻ·":11137,"è®¾ç«ĭäºĨ":11138,"å¢ĵèĳ¬":11139,"å¤ĸäº¤å®ĺ":11140,"åĪļæŀľ":11141,"æĤ£æľī":11142,"è¿Ŀæ³ķ":11143,"æ¹¿åľ°":11144,"å·©åĽº":11145,"Ġ1994å¹´":11146,"Ľèµ·":11147,"åĮ£":11148,"æĹ¶è¡¨ç¤º":11149,"æ°ĳåħµ":11150,"åīįèº«ä¸º":11151,"æīĢéķ¿":11152,"ä¸īéĥ¨":11153,"ç¼ª":11154,"åĢŃ":11155,"åıĺéĩı":11156,"çľŁèıĮ":11157,"æŃ£å¼ıæĪĲç«ĭ":11158,"æī©æķ£":11159,"è¯ºæĽ¼åºķ":11160,"çĽ¸è¾ĥäºİ":11161,"æ¾İæ¹ĸ":11162,"çļĦæĬĢæľ¯":11163,"è¡·":11164,"åĴĮå°ı":11165,"åĵĩ":11166,"å£¶":11167,"å·ŀäºº":11168,"åħļåĨħ":11169,"åĪĽä¸ļ":11170,"æ¸ħå»·":11171,"è®¡åĪĴçļĦ":11172,"èµ°å»Ĭ":11173,"åĲĮå¹´10æľĪ":11174,"æľ«ç«¯":11175,"è¯¸èĳĽ":11176,"äºİ1997å¹´":11177,"åĴ¸ä¸°":11178,"350":11179,"åĲİä¸ĸ":11180,"åĩºå±Ģ":11181,"åĮĹæ´ĭ":11182,"æĸĩä¸Ń":11183,"æŃ¤ä¸Ģ":11184,"æ°´åĩĨ":11185,"åĪĻä¼ļ":11186,"éĩĩçº³":11187,"æģ¶åĬ£":11188,"é£İæł¼çļĦ":11189,"æĹħå®¢éĵģéģĵ":11190,"åĬ¨è½¦ç»Ħ":11191,"2åı·çº¿":11192,"my":11193,"èł":11194,"ĠæŀĹ":11195,"Ġå½±åĵį":11196,"çļĦäººåı£":11197,"ä¸ĢçŃī":11198,"è¡Įä½¿":11199,"è¿Ļä½¿å¾Ĺ":11200,"è¯¥èĪ°":11201,"è·¯ç«Ļ":11202,"çİĭåĲİ":11203,"00å¹³æĸ¹åįĥç±³":11204,"å¥³äºº":11205,"éĺ³æĢ§":11206,"çĻ»è¿Ľå£«":11207,"èŀįåħ¥":11208,"å°Ķæĸ¯åħĭ":11209,"èĢĥèĻĳåĪ°":11210,"ä¸ĵæ³¨äºİ":11211,"Ġè®¾è®¡":11212,"ĠMar":11213,"åħĳ":11214,"ä¸Ģåįĥ":11215,"ç½¹":11216,"ä»£åı·":11217,"å°¼çļĦ":11218,"åĵĪä½Ľ":11219,"è¾ĥé«ĺçļĦ":11220,"ç¤¾ä¼ļçļĦ":11221,"è¿ľç¦»":11222,"ç¥ĸç±į":11223,"èĤ¯å¡ĶåŁº":11224,"èĤīé£ŁæĢ§":11225,"æ±¤å§Ĩ":11226,"éĥĬåĮº":11227,"9æĹ¶":11228,"ĠTe":11229,"ç«Ń":11230,"å¾·åĭĴ":11231,"å¥³æŃĮæīĭ":11232,"å®ŀä¹ł":11233,"èĭıåĨĽ":11234,"äº¦åľ¨":11235,"çĶ·æ¼Ķåĳĺ":11236,"å¥½èİ±åĿŀ":11237,"éĤ£å·ŀ":11238,"æ·±åıĹ":11239,"çĥŃå¸¦ä½İæ°Ķåİĭ":11240,"1916å¹´":11241,"ä¿®æŃ£æ¡Ī":11242,"éĺ¿åŁºåĿ¦":11243,"çļĸ":11244,"çļĦä¸įåĲĮ":11245,"åĨĽéķ¿":11246,"ä¹Łç§°ä¸º":11247,"å¸ĥç½®":11248,"106":11249,"åŁºå°Ķ":11250,"é¦ĸå±Ĭ":11251,"çļĩå®¤":11252,"ä»įæĺ¯":11253,"139":11254,"æľįåĬ¡çļĦ":11255,"å¸ķæĭī":11256,"çŃ¾ä¸ĭ":11257,"å²ŃåįĹ":11258,"éĤĵå°ıå¹³":11259,"åºķå±Ĥæ°´åŁŁ":11260,"è¿ĻæĿ¡":11261,"é«ĵ":11262,"çī©ä¸ļ":11263,"æĪĺåĮº":11264,"éĩĳé¢Ŀ":11265,"æµģæĶ¾":11266,"èµĦæ·±":11267,"å±ħäºİ":11268,"çĹħäºº":11269,"ç¢Ĺ":11270,"æĿĢæīĭ":11271,"åģ¶å°Ķ":11272,"å¡Ķå°¼å¤§åĮº":11273,"å¸ĥæĶ¿ä½¿":11274,"8æĹ¶":11275,"CST":11276,"ä¸Ńç«ĭ":11277,"éķ°":11278,"æĸ°æĿĳ":11279,"çłĮ":11280,"å°¼åŁº":11281,"ä¼Ĭä¸½":11282,"ä¹Įå°Ķ":11283,"ä¿ĿæĬ¤åĮº":11284,"åĩºçīĪäºĨ":11285,"å·¨äºº":11286,"å¼ķåıĳäºĨ":11287,"AA":11288,"Ad":11289,"ĠæĪĺåĲİ":11290,"åľ¨æł¡":11291,"è¥¿åĮº":11292,"æľĢåħ·":11293,"åīįå¤ķ":11294,"èĢħåĴĮ":11295,"çĽ¸è¿ĳ":11296,"èĭ±å±ŀ":11297,"å·²æĪĲä¸º":11298,"åºĶçĶ¨äºİ":11299,"ä¼łæī¿":11300,"æĶ¯éĥ¨":11301,"ç¥ŀåºĻ":11302,"æ¦Ĩ":11303,"ä¸Ńå¤®å§Ķåĳĺä¼ļ":11304,"ç§»éĻ¤":11305,"åį°åº¦æ´ĭ":11306,"åħ³ç³»çļĦ":11307,"ç¤¼æĭľ":11308,"èĶĵ":11309,"åħĦéķ¿":11310,"èħ¹éĥ¨":11311,"åīĬå¼±":11312,"æĭ¨æ¬¾":11313,"æł¸éħ¸æ£Ģæµĭ":11314,"B48":11315,"Ġ1991å¹´":11316,"çļĦéĢŁåº¦":11317,"æĸ°åįİ":11318,"åĨħæĸ¯":11319,"è¿Ľé©»":11320,"çĦķ":11321,"è¯Ńæ³ķ":11322,"å¤Ħç½ļ":11323,"éģĩéļ¾":11324,"æįŁåĿı":11325,"æ²¼æ³½":11326,"oth":11327,"åľ¨2008å¹´":11328,"å·¾":11329,"å¯Ĥ":11330,"ç¥ĩ":11331,"éĽĨåĽ¢æľīéĻĲåħ¬åı¸":11332,"çŁ¿çī©":11333,"æĲ¬åĪ°":11334,"åħ¶é¡¿":11335,"è¥¿æĹ¥æľ¬":11336,"éĤ¢":11337,"å·´å¡ŀ":11338,"å¸¸çĶ¨":11339,"è£¤":11340,"erv":11341,"åŃĹç¬¦":11342,"èĪªæµ·":11343,"å¹ķåĲİ":11344,"ç¡¬æ£ĺ":11345,"èµĦæł¼èµĽ":11346,"è¿Īéĺ¿å¯Ĩ":11347,"å·¡åĽŀæ¼ĶåĶ±ä¼ļ":11348,"è´©åįĸ":11349,"è¿ĽåĮĸ":11350,"æľŁå¾ĴåĪĳ":11351,"æĦļ":11352,"126":11353,"æ¢ĵ":11354,"åĩ»æ²ī":11355,"ance":11356,"ä¼Ĺè®®åĳĺ":11357,"ald":11358,"æ¥¼æ¢¯":11359,"æī§æķĻ":11360,"å»¶å®ī":11361,"ä¸¹å°¼":11362,"çº½è¥¿åħ°":11363,"æĿ¿åĿĹ":11364,"çĤ®åħµ":11365,"ä¸īåįģå¹´":11366,"ä¸Ńéĥ¨æĹ¶åĮº":11367,"äºı":11368,"ä¸ºä¸Ģä¸ª":11369,"å¯¹è¯¥":11370,"å¼ĢåĪĽ":11371,"åĲĦçķĮ":11372,"è´Ŀæĭī":11373,"èī¾å°Ķ":11374,"æłĳæŀĹ":11375,"è¯Ńè¨ĢçļĦ":11376,"ult":11377,"ount":11378,"æ¸¸åĩ»éĺŁ":11379,"6è°ĥå¿«ä¸Ģå°ıæĹ¶":11380,"OP":11381,"çļĦå¤´":11382,"åĮ¾":11383,"è¿Ļä¹Ł":11384,"åĲĪèĤ¥":11385,"å°ıéķĩ":11386,"æİ¥åĬĽ":11387,"18ä¸ĸçºª":11388,"115":11389,"ä¸ĩå¼ł":11390,"ç¡Ĵ":11391,"org":11392,"æĬ¤å£«":11393,"çļĩå®¶æµ·åĨĽ":11394,"ä¾¦æİ¢":11395,"æ²¿æµ·çľģä»½":11396,"CDT":11397,"åį³åĮĹç¾İä¸Ńéĥ¨æĹ¶åĮº":11398,"Ġåħ¶åĲİ":11399,"è¿Ń":11400,"åĮºè®®åĳĺ":11401,"å¤ļä½į":11402,"å°Ĩè¯¥":11403,"ä½ĵåĨħ":11404,"éŁ¶":11405,"æİ¥å¾ħ":11406,"åı¸éķ¿":11407,"çĽ´éĢļ":11408,"çĥ¤":11409,"å¸¦åĪ°":11410,"é¦Ļæ¸¯çĶµå½±":11411,"æ»¡æĦı":11412,"å´Ľèµ·":11413,"ç¤¼éĥ¨":11414,"å«Ķ":11415,"ä¸ºåĲį":11416,"å¤ļå®¶":11417,"æľĢæĸ°":11418,"æľĢèĳĹåĲįçļĦ":11419,"æĽ´å¤§":11420,"åĲĦçľģ":11421,"æĿ¡çº¹":11422,"çłĶç©¶äººåĳĺ":11423,"å¿«ä¹Ĳ":11424,"æ¯ķä¸ļçĶŁ":11425,"åıįå¯¹æ´¾":11426,"ood":11427,"çļĦåŁºæľ¬":11428,"åĴĮè§£":11429,"æĸ¯å¨ģ":11430,"åĮĹåį¡ç½Ĺ":11431,"è¿ĩå¾Ģ":11432,"åı°çļĦ":11433,"ä¼łè®°":11434,"èĮ¹":11435,"ä»ĸçļĦçĪ¶äº²":11436,"åŃĻåŃĲ":11437,"èĸ¯":11438,"å¯ĦçĶŁ":11439,"ĠMus":11440,"ä¼ĬåĪ©è¯ºä¼Ĭå·ŀ":11441,"EE":11442,"åı¹":11443,"åľ¨2010å¹´":11444,"å»ĵ":11445,"åĮĹä¼Ĳ":11446,"æķĻå¯¼":11447,"å¤ĸç±į":11448,"å·´æĭ¿":11449,"åħļæ´¾":11450,"ç¬¬ä¸Ģè½®":11451,"æľįé¥°":11452,"ç»Ļäºĭä¸Ń":11453,"åĨĻæĪĲ":11454,"åŁĥå¡ŀ":11455,"æī¹å¤į":11456,"è¿ģåħ¥":11457,"éĢłæĪĲäºĨ":11458,"åĪĬçī©":11459,"ä¸Ńåįİæ°ĳåĽ½æĶ¿åºľ":11460,"èĳ¡èĲĦçīĻè¯Ń":11461,"çĸ¯çĭĤ":11462,"éĺ¿å°Ķå·´å°¼äºļ":11463,"Ġä¸Ĭ":11464,"Ġçī¹å¾ģ":11465,"çļĦæ³ķå¾ĭ":11466,"å½Ŀ":11467,"ä½įå±ħ":11468,"æĸ°åĮº":11469,"ç¼ī":11470,"ç®¡éģĵ":11471,"æĽ´æľī":11472,"æ¨¡ç³Ĭ":11473,"ä¹ĭä¸ĢçļĦ":11474,"ç³»åĪĹèµĽ":11475,"èįīåľ°":11476,"ĠåİŁ":11477,"çļĦæ¯įäº²":11478,"çļĦæł¸å¿ĥ":11479,"ä¸º4":11480,"åīįä»»":11481,"æŃ£å¾·":11482,"è§ģéĿ¢":11483,"åįĩéĻį":11484,"ä½ľåĵģä¸Ń":11485,"çļ®å°Ķ":11486,"éĨĽ":11487,"åī©ä¸ĭ":11488,"æĭ³åĩ»":11489,"ç½¢åħį":11490,"MC":11491,"rist":11492,"Ġbe":11493,"å¼¼":11494,"æĹ¥èĢ³æĽ¼":11495,"å¼ĢéĻ¤":11496,"åĲĪéĢĤ":11497,"æĹłæķĪ":11498,"é£İéĢŁ":11499,"åįłæ¯Ķ":11500,"çıłæµ·":11501,"å¢ĥå¤ĸè¾ĵåħ¥":11502,"çŀĦåĩĨ":11503,"Met":11504,"Ġé¥°":11505,"åĨ¥":11506,"èĩ³1":11507,"ç«ĻåĨħ":11508,"è¾¾åĪ°äºĨ":11509,"åįİçº³":11510,"éĥ¨åĪĨçļĦ":11511,"å®ģå¤ı":11512,"å·¡èĪª":11513,"åģĩæĹ¥":11514,"åĮºçļĦè´Łè´£ç®¡è¾ĸ":11515,"æĪĺæĸĹä¸Ń":11516,"è¿«å®³":11517,"igh":11518,"åıĤèµĽèĢħ":11519,"çĲ³å¨ľ":11520,"æĸĳçĤ¹":11521,"æŁ´æ²¹æľºè½¦":11522,"çĶµæ°ĶåĮĸ":11523,"ç»ĳæŀ¶":11524,"!âĢĿ":11525,"Be":11526,"ĠSe":11527,"åĴĮé«ĺ":11528,"åĴĮä¸ŃåĽ½":11529,"éĽģ":11530,"äºĮçĻ¾":11531,"çĽ¸ä¼ł":11532,"æ£ł":11533,"å¹¿å²Ľ":11534,"åĨ³å¿ĥ":11535,"æīĵåħ¥":11536,"è¾ĥå°ıçļĦ":11537,"å®ģåİ¿":11538,"å¼ĹåĲī":11539,"åĩıè½»":11540,"ä¿Ŀå®Īåħļ":11541,"çĲĨå·¥å¤§åŃ¦":11542,":ãĢĬ":11543,"çļĦè§ĤçĤ¹":11544,"ä¸Ģå¤Ħ":11545,"ä¸Ģè¯´":11546,"æĹ¶éĢŁ":11547,"äºĨåħ¶":11548,"åı¯å®¹çº³":11549,"è¡¨å½°":11550,"æİ¥é©³":11551,"æ¸¯åĮº":11552,"å®ŀè´¨":11553,"ä¿Ŀåģ¥":11554,"åħīæĺİ":11555,"åĲīæĸ¯":11556,"åıĮåĲĳ":11557,"137":11558,"æ³°åĽł":11559,"ä¾µèļĢ":11560,"éī´äºİ":11561,"Ġåıĳå±ķ":11562,"ä¸ĢçĤ¹":11563,"åĩºèµĦ":11564,"åħ¬æŃ£":11565,"æ¸´":11566,"éķ¿èĢģ":11567,"éĩĮå¥ĩ":11568,"æĻ®æ£®":11569,"è§£ä½ĵ":11570,"ä¾ĭå¤ĸ":11571,"è±ļ":11572,"çĽŁåıĭ":11573,"å¹²äºĭ":11574,"2010å¹´ç¾İåĽ½äººåı£æĻ®æŁ¥":11575,"æ®¿è¯ķ":11576,"åĽ½ç«ĭåı°æ¹¾":11577,"ound":11578,"çľģéģĵåı°":11579,"å¯ĨèĭıéĩĮå·ŀ":11580,"yl":11581,"Ġ1995å¹´":11582,"åľ¨ä¼¦æķ¦":11583,"æĺ¯å°Ĩ":11584,"æľĪåĪĬ":11585,"ä¹ĭåĪĿ":11586,"åħĭä¼¦":11587,"ä¸Ģä¸ªäºº":11588,"éĩĳæĸ¯":11589,"éĶ£":11590,"æ²³åĨħ":11591,"æĺŁäºĳ":11592,"ä¸ĩåĲ¨":11593,"æ»ĩ":11594,"èĬĤæĹ¥":11595,"éĺ²æĬ¤":11596,"æĥ©ç½ļ":11597,"åį¡æĸ¯èĴĤåĪ©äºļ":11598,"5æľĪ1æĹ¥":11599,"ML":11600,"æĺ¯ä»ĸ":11601,"æĺ¯éŁ©åĽ½":11602,"åħ¥åŃ¦":11603,"åħ°å¾·":11604,"å¥¥æīĺ":11605,"117":11606,"è¿ĺåı¯ä»¥":11607,"è®ºè¿°":11608,"ç¥ŀçļĦ":11609,"æ´¾ç³»":11610,"ç»Ļåĩº":11611,"éĿĴéĵľ":11612,"è®²è¯Ŀ":11613,"100ç±³":11614,"çºªå¿µé¦Ĩ":11615,"åĲĽå£«åĿ¦ä¸ģåł¡":11616,"å½ĹæĺŁ":11617,"çļĦä¸ĭ":11618,"åĽ½å°ı":11619,"åĴĮè¥¿":11620,"æķķ":11621,"ä¼ļè®¡":11622,"è¡Įç¨ĭ":11623,"åĩºåħµ":11624,"èĥļ":11625,"äºļçĥŃå¸¦":11626,"èĪ¶":11627,"åľºä¸Ĭ":11628,"å°ıé¡¹":11629,"101":11630,"çİĭå®ī":11631,"ank":11632,"å±ĢéĿ¢":11633,"åĽ½å®¶åĴĮ":11634,"ç¥ŀåŃ¦":11635,"å¼ķåĬĽ":11636,"æĬķå½±":11637,"åºĦåĽŃ":11638,"ä¼ĳéĹ²":11639,"å¾·éĩĮå¸Į":11640,"åľ¨ä¸ľ":11641,"ä½Ĩè¢«":11642,"æİ¥ä¸ĭæĿ¥":11643,"çĬģ":11644,"æ¸ħçĲĨ":11645,"é¥¿":11646,"æł·çļĦ":11647,"æķħæŃ¤":11648,"éĢĤçĶ¨":11649,"æĶ¹ç¼ĸä¸º":11650,"å¤§ä¸ľéĥ¨":11651,"æľīå¾Īå¤ļ":11652,"èµİ":11653,"åıĳéĢģ":11654,"æĭīå°Ķ":11655,"è·¯ä¸Ĭ":11656,"å½¢åĬ¿":11657,"ä¸ĩå¹³æĸ¹ç±³":11658,"åĪ«åĲį":11659,"åİĨåı²å»ºçŃĳ":11660,"çİ¯èĬĤ":11661,"åı³ä¾§":11662,"ç»Ŀå¤§å¤ļæķ°":11663,"æİ§åĪ¶çļĦ":11664,"èľ¡":11665,"æįŁä¼¤":11666,"æĻ®ç½ĹæĹº":11667,"Ge":11668,"ä¸įè®º":11669,"ä¸įæĦ¿":11670,"åı£å²¸":11671,"æ¬¡çļĦ":11672,"æĢ»ç®¡":11673,"æµģç¨ĭ":11674,"åī§åĽ¢":11675,"é¦Ļæ¸¯æĶ¿åºľ":11676,"æĺ¾å¾Ĺ":11677,"åģļçļĦ":11678,"èĥĮéĿ¢":11679,"è¿½éļı":11680,"çİ©æ³ķ":11681,"æĤ¬æĮĤ":11682,"åĸĩåĺĽ":11683,"çİ«çĳ°":11684,"4åı·":11685,"ward":11686,"ĠII":11687,"èµļ":11688,"éĥ¨åī¯éĥ¨éķ¿":11689,"ãĢĬãĢĭ.":11690,"åı¯ä¾Ľ":11691,"æĢ»æķĻåĮº":11692,"çļĦä¸ĢåĲį":11693,"åĪĿå§ĭ":11694,"lass":11695,"æĢĿèĢĥ":11696,"åºŁæŃ¢":11697,"åĮĹèµ·é¡ºæĹ¶éĴĪä¸İ":11698,")ãĢį":11699,"çļĦå¿ĥ":11700,"åĲİåĭ¤":11701,"è¿Ľä¿®":11702,"éģĵæķĻ":11703,"113":11704,"å®ĺåħµ":11705,"é¾Ļç±»":11706,"å®£èªĵ":11707,"è½¨çĶµè½¦":11708,"ä¹Ķæ²»äºļ":11709,"çĻĮçĹĩ":11710,"Ġ1996å¹´":11711,"éĥ¨ä½į":11712,"ä¹ĭç§°":11713,"è¥¿åħĥ":11714,"åĲĮäºĭ":11715,"åĲĮçŁ¥":11716,"åĽŀæĶ¶":11717,"å¸¦çĿĢ":11718,"å·¦ä¾§":11719,"è¿Ľåħ¥äºĨ":11720,"å®ªåħµ":11721,"æĢĢåŃķ":11722,"åı¦ä¸Ģä½į":11723,"çģĮæľ¨":11724,"æ±ŁæĪ·æĹ¶ä»£":11725,"Äģ":11726,"çļĦåĪ¶ä½ľ":11727,"åĮĢ":11728,"é©¬åĮ¹":11729,"ç«Ļä½įäºİ":11730,"ç¨½":11731,"æĶ¿åºľåĨĽ":11732,"åĨįåĬłä¸Ĭ":11733,"è¶³æĢ»":11734,"æİĴåºı":11735,"ç´¢å§Ĩ":11736,"åıĤä¸İèĢħ":11737,"æ³½è¿ŀ":11738,"é¡¶éĥ¨":11739,"äº«åıĹ":11740,"åĢ¾æĸľ":11741,"ç¢İçīĩ":11742,"èĤĸåĥı":11743,"åºĩæĬ¤":11744,"åĳĬç¤ºçīĮ":11745,"åĪĨåī²":11746,"çĶ¨äºĨ":11747,"æ°ĳèĪª":11748,"200ç±³":11749,"éĵĢ":11750,"æĢ»éķ¿":11751,"éĩĳåĥı":11752,"æ·ĭ":11753,"å½ĵåľ°å±ħæ°ĳ":11754,"è¿½è¸ª":11755,"3æľĪ31æĹ¥":11756,"ç½Ĺé©¬å¤©ä¸»æķĻ":11757,"åŁºç¡Ģè®¾æĸ½":11758,"1915å¹´":11759,"10æľĪ25æĹ¥":11760,"åŀĴæīĵ":11761,"ĠåĪ°":11762,"Ġåıĳè¡Į":11763,"ä»Ĺ":11764,"ä»ĸäºİ":11765,"ä¹ĭçĪ¶":11766,"è¢«è¯Ħä¸º":11767,"çĶµæľº":11768,"é©¬åħ¶é¡¿":11769,"è£Ļ":11770,"ä¼łåħ¥":11771,"èĬĤçĤ¹":11772,"åŃ£åĨĽ":11773,"è§ĤæĶ¿":11774,"çĻ¾è´§":11775,"æĪĲåĳĺåĽ½":11776,"æ¿Ģç´ł":11777,"æııè¿°äºĨ":11778,"æ¨¡å¼ıäº§åľ°":11779,"çŀ¬":11780,"éĻ¨åĿĳ":11781,"åī¥å¤º":11782,"åľ¨é«ĺ":11783,"è¯ł":11784,"ä»ĸåıĪ":11785,"ç¾Ł":11786,"éķ¿å¾ģ":11787,"åįĹè·¯":11788,"äºĮçŃī":11789,"ç«Ļæĺ¯":11790,"åĮħè£ħ":11791,"èİ·é¢ģ":11792,"æ¬§éĺ³":11793,"ç¥¨ä»·":11794,"ite":11795,"240":11796,"è§Ĵèī²çļĦ":11797,"Ġæľ¬å±ŀ":11798,"TT":11799,"aur":11800,"Ġäºİ":11801,"Ġåħīç»ª":11802,"åĲ¡":11803,"ä¸ŃæĹ¥":11804,"ä¸Ńä¹Ł":11805,"æı½":11806,"åĪ¶æľį":11807,"åİŁæĸĻ":11808,"åħļéĥ¨":11809,"ç¦»å¿ĥ":11810,"åħĪéĶĭ":11811,"è¾¹çĸĨ":11812,"åįĬçĲĥ":11813,"åĲ«éĩı":11814,"çĶŁæ´»çļĦ":11815,"éĢļå¸¸ä¼ļ":11816,"çº¦ç¿°éĢĬ":11817,"æ³ķåħ°è¥¿å¤§åĮº":11818,"å´©æºĥ":11819,"âĶĢâĶĢ":11820,"Ġä½įäºİ":11821,"çļĦåĬŁèĥ½":11822,"ä¸Ģä¹¦":11823,"äººéĥ½":11824,"ä¸Ĭæ³ķåħ°è¥¿å¤§åĮº":11825,"éĥ¨ä»¶":11826,"å¼Ģå°ģ":11827,"åİ¿éģĵ":11828,"å¤ªç¥ĸ":11829,"æĢĢçī¹":11830,"é¢Ĺç²Ĵ":11831,"æ³ķåħ°åħĭç¦ı":11832,"çĭ©çĮİ":11833,"Ġè¯¥åľ°":11834,"çļĦä¸ľ":11835,"ç¬Ľ":11836,"è¥¿å°Ķ":11837,"åı¯æ±Ĺ":11838,"å°ıäºİ":11839,"èĢħä¸º":11840,"çİĭåĽ½çļĦ":11841,"è£¹":11842,"æĹ¥æľ¬æĶ¿åºľ":11843,"ç¿¡":11844,"æĭħå¿§":11845,"å¸Įçī¹åĭĴ":11846,"èĢģèĻİ":11847,"1905å¹´":11848,"é«ĺçŃīåŃ¦æł¡":11849,"Ġä¼Ĭ":11850,"åľ¨2013å¹´":11851,"ä¸ºé¦Ļæ¸¯":11852,"åĴĢ":11853,"ä¸ªæĢ§":11854,"ä¸įåĬ¨":11855,"åħ¬æ¼Ķ":11856,"è¥¿éĹ¨":11857,"åĲĮæľĪ":11858,"åı¯çĶ¨äºİ":11859,"çĶµç£ģ":11860,"å½ĵåĪĿ":11861,"æĪĺæŃ»":11862,"å·¥èµĦ":11863,"æķ°åŃ¦å®¶":11864,"åĵĪçī¹":11865,"æŁĵèī²":11866,"rosof":11867,"ä¼Ĭä¸½èİİçĻ½":11868,"EM":11869,"ĠUn":11870,"èĩŃ":11871,"ä¸įçŃī":11872,"æĭīçļĦ":11873,"æķĻä¹ī":11874,"å·ŀåĴĮ":11875,"æķ´æķ°":11876,"å®¾å¤ķ":11877,"å®¶æĹıçļĦ":11878,"ä¸ºä¸»çļĦ":11879,"è¶³å¤ŁçļĦ":11880,"åĵĪèĲ¨åħĭæĸ¯åĿ¦":11881,"ĠäºĮ":11882,"åĳ¢":11883,"å½ĵçĦ¶":11884,"å±±è°·":11885,"è¿Ĳä¼ļ":11886,"ä¼łä½ĽæķĻ":11887,"çĤ¹æĺ¯":11888,"åĲĦæľī":11889,"æĶ¶èİ·":11890,"å¤´çļĦ":11891,"çĻ½éĵ¶":11892,"æīįä¼ļ":11893,"ä¸½ä¸Ŀ":11894,"é»İæĺİ":11895,"å³¡è°·":11896,"æĴĴåĨ·":11897,"åıĳçİ°äºĨæŃ¤å¤©ä½ĵ":11898,"æĮĸæİĺ":11899,"çĢĳ":11900,"åľ¨çº¿":11901,"åħ¬è½¦":11902,"çĶŁæĦı":11903,"åı·åĴĮ":11904,"èĩ´åĳ½":11905,"ä¸ĥä¸ª":11906,"135":11907,"èĢ¶è·¯":11908,"ash":11909,"æµģè¡ĮéŁ³ä¹Ĳ":11910,"æŃ¦è£ħéĥ¨éĺŁ":11911,"æ¡ĤæŀĹ":11912,"éĺ¿å§Ĩæĸ¯çī¹":11913,"èĨ¨èĥĢ":11914,"SP":11915,"Ġæĺİ":11916,"çļĦèĭ±åĽ½":11917,"ä¸įå¹¸":11918,"è¯¥çī©ç§įçļĦ":11919,"æĦŁè°¢":11920,"èģĶèµĽåĨłåĨĽ":11921,"ç§ĳæĬĢå¤§åŃ¦":11922,"äºİç¾İåĽ½":11923,"å¤§åĬĽ":11924,"âĢĭ":11925,"æ²Ľ":11926,"èĲĮ":11927,"æ°´çļĦ":11928,"åı²ç§°":11929,"12æľĪ1æĹ¥":11930,"æĻ®éĽ·":11931,"ç¬¬äºĮå¤©":11932,"éħįå¥Ĺ":11933,"çł´äº§":11934,"éħĴåĲ§":11935,"æĴ¤åĽŀ":11936,"ä¸ĢçĽ´åľ¨":11937,"äºİ1995å¹´":11938,"æĻ®ç½ĹæĹºæĸ¯":11939,"æ³½è¿ŀæĸ¯åŁº":11940,"HE":11941,"Ġä¸ĢèĪ¬":11942,"åľ¨ä¸Ĭ":11943,"ä¼ļè§ģ":11944,"ä»ĸæĭħä»»":11945,"èĪ·":11946,"å½ĵå¹´çļĦ":11947,"ä½ĨåĽłä¸º":11948,"åħ³æĬ¼":11949,"èĹī":11950,"åı¯èĥ½çļĦ":11951,"çĶ²ç»Ħ":11952,"å®¡çĲĨ":11953,"åĬ¨çī©çļĦ":11954,"èģĶéĤ¦æĶ¿åºľ":11955,"è£ģåĨ³":11956,"Ġ1993å¹´":11957,"æ³ķå¸Ī":11958,"åįĹåĮº":11959,"èĩ³3":11960,"å¢Ł":11961,"éĺ¿å¡ŀæĭľçĸĨ":11962,"ç»ĵè¯Ĩ":11963,"çĻ½å®«":11964,"ç®Ģæĺĵ":11965,"èµŀæī¬":11966,"çĪµä½į":11967,"ä¼ģä¸ļå®¶":11968,"æıŃéľ²":11969,"è¿·ä½łä¸ĵè¾ĳ":11970,"Ġæ¸ħ":11971,"ä¸įå¤ª":11972,"åĪĨæķ°":11973,"èµĽé©¹":11974,"åħļå§Ķ":11975,"å¸ĪåĽ¢":11976,"è½¬åħ¥":11977,"åħŃåįģ":11978,"ä¸Ńå¤®åĨĽå§Ķ":11979,"ical":11980,"è®¡åĪĴåľ¨":11981,"çªģè¢Ń":11982,"åĲĪä½ľçļĦ":11983,"åıĸä»£äºĨ":11984,"oci":11985,"Ġæµ·":11986,"å½ª":11987,"è¿Ļéĥ¨çĶµå½±":11988,"ä½¿ä»ĸ":11989,"çĤĴ":11990,"äºĶçĻ¾":11991,"ä¸ĵæłı":11992,"äº¦è¢«":11993,"å¥ĸçļĦ":11994,"å¹²æ¶ī":11995,"å®ĭæľĿ":11996,"éĺ¿æĭīæĸ¯":11997,"äº¤æµģéģĵ":11998,"æ³¨æĦıåĪ°":11999,"æ°Ķè±¡å±Ģ":12000,"åķ¤éħĴ":12001,"åĲĭ":12002,"ä¸ºä¸»è¦ģ":12003,"æĹ¥æĸĩ":12004,"æ¯Ļ":12005,"æĪĺäºĭ":12006,"éŁ§":12007,"é¦ĸéĥ¨":12008,"çĸ²":12009,"äº¬å¸Ī":12010,"ä¸ĸçķĮåĲĦåľ°":12011,"çłĶç©¶çļĦ":12012,"è¯ºåħĭ":12013,"åĲīç¥¥":12014,"ä¸Ńå¤®çĶµè§Ĩåı°":12015,"èı²å°Ķ":12016,"è°ĥæŁ¥å±Ģ":12017,"ä¸ĢçĽ´æĺ¯":12018,"1904å¹´":12019,"èĢ¶è·¯æĴĴåĨ·":12020,"1æĹ¥":12021,"ress":12022,"çļĦåĨ³å®ļ":12023,"å¤§çģ«":12024,"è¿Ļä¹Ī":12025,"æľĢå°ĳ":12026,"åı°å¤§":12027,"æ¯Ķ0":12028,"107":12029,"åı·åľ¨":12030,"æ®µçļĦ":12031,"ä»¥åıĬåħ¶ä»ĸ":12032,"å½±åĵįçļĦ":12033,"åľ°æĸ¹æĶ¿åºľ":12034,"èĶ¬":12035,"ç§ŁåĢŁ":12036,"æĬķåħ¥ä½¿çĶ¨":12037,"æĦıåĳ³èĳĹ":12038,"æµıè§Ī":12039,"OC":12040,"çļĦéľĢæ±Ĥ":12041,"åľ¨åĽ½éĻħ":12042,"æ°ĳç±į":12043,"é©¬å°¼":12044,"æĢ»åĢ¼":12045,"æ¼Ķè¯´":12046,"æ´¾äºº":12047,"8æľĪ31æĹ¥":12048,"ç¬¬åįģåĽĽ":12049,"åĢ¡è®®":12050,"!ãĢį":12051,"6Ġ":12052,"OV":12053,"uc":12054,"ä¸Ńä»¥":12055,"åĮĹéĿ¢":12056,"ä¹Łå¼Ģå§ĭ":12057,"åħ¨å¸Ĥ":12058,"ç±³çī¹":12059,"æ°´ä¸Ń":12060,"ä»İå°ı":12061,"æ¹¾ä»Ķ":12062,"æĳĬ":12063,"éĩĩè´Ń":12064,"å¯Įæľī":12065,"åĤ²":12066,"è¯¯å·®":12067,"è¾ħéŁ³":12068,"æĶ¶å½ķäºĨ":12069,"å®īä¸ľå°¼":12070,".,":12071,"rin":12072,"çļĦèĩª":12073,"ä¸Ģæĸ¹éĿ¢":12074,"äºİæĹ¥æľ¬":12075,"å¹¶æĭħä»»":12076,"æ³ķäºº":12077,"èģĬ":12078,"ä¹Łè¢«ç§°ä¸º":12079,"ç»ĵçĽŁ":12080,"åħļå§Ķä¹¦è®°":12081,"å¤«çļĦ":12082,"çºªå¾ĭ":12083,"é¾ļ":12084,"æĶ¯åĩº":12085,"æĽ²çº¿":12086,"çļĦä¸ĢæīĢ":12087,"çĶ·äºº":12088,"èīºåĲį":12089,"æ³°ç±³å°Ķ":12090,"ä¾¿åĪ©":12091,"ç®¡çĲĨçļĦ":12092,"ä¿ĿçķĻäºĨ":12093,"æĸ¼":12094,"åħ¬çĽĬ":12095,"èĢĮæŃ»":12096,"æĸĩä¹¦":12097,"åĽłçĹħ":12098,"æĪĺä¿ĺ":12099,"æķ°æ¬¡":12100,"103":12101,"æ¼Ķåıĺ":12102,"ä¹ĲåĿĽ":12103,"éĴ¾":12104,"éĿ¢ç§¯2":12105,"å¸ķåħĭ":12106,"å®ĺæĸ¹ç½ĳç«Ļ":12107,"è¿İæİ¥":12108,"æ¼«çĶ»å®¶":12109,"æ¦´å¼¹":12110,"Ġå¤ļ":12111,"Ġå¥¥":12112,"ĠåĲİæĿ¥":12113,"æĺ¯åħ¶":12114,"éĩľ":12115,"åĩºç§Ł":12116,"çī¹ç§į":12117,"åĮĹè·¯":12118,"æĻĸ":12119,"çķ¿":12120,"åı·çłģ":12121,"åĪ«åħĭ":12122,"å¡Ķæĭī":12123,"äºĳæŀĹ":12124,"ref":12125,"äºĨä¸Ģåľº":12126,"è¯¸ä¾¯":12127,"çĲĨæŁ¥å¾·":12128,"ç¿¡ç¿ł":12129,"äººåĿĩ":12130,"æľī1":12131,"ä¸ĭåİ»":12132,"æĸ°åħ´":12133,"èĪĸ":12134,"åĮĸçī©":12135,"éĩĳé©¬":12136,"çĭ¸":12137,"åľŁèĳĹ":12138,"è®²å¸Ī":12139,"å¾ħéģĩ":12140,"æµ·æĭĶé«ĺåº¦2":12141,"ä¼Łå¤§çļĦ":12142,"box":12143,"ĠCon":12144,"Car":12145,"ĠåĲİ":12146,"Īå½¢çĽ®":12147,"åľ¨åį°åº¦":12148,"åĴĮæŃĮ":12149,"ä¼ļè°Ī":12150,"éĹ´éļĶ":12151,"å¤©çİĭ":12152,"åħ³èĬĤ":12153,"å¥³å£«":12154,"ä¼łéĢģ":12155,"114":12156,"æĹ¥æľ¬äºº":12157,"æ´¾å¾Ģ":12158,"éĩĩéĽĨ":12159,"æĦŁåıĹ":12160,"ç´¢å°Ķ":12161,"å¾ģåı¬":12162,"æĵįçºµ":12163,"åĪ¶éĢłçļĦ":12164,"çļĦåľ°éĵģ":12165,"lix":12166,"çİĭæľĿçļĦ":12167,"æĸ°çĸĨç»´åĲ¾å°Ķ":12168,"äº¤åıīåı£":12169,"å®¾å¤ķæ³ķ":12170,"çļĦèµĦæĸĻ":12171,"éĻĩ":12172,"éķ¿æĹ¶éĹ´":12173,"éĢļåĭ¤":12174,"åħ¨ä¹¦":12175,"ç½ĹæĿ°":12176,"åįİè¯Ń":12177,"æĹłéľĢ":12178,"144":12179,"ç¬¬äºĮæ¬¡ä¸ĸçķĮå¤§æĪĺæľŁéĹ´":12180,"åľ¨åľ°":12181,"åľ¨å¯¹":12182,"æ³µ":12183,"ä¹ĭçĶ¨":12184,"åĵ¨":12185,"åĮĹä¸Ĭ":12186,"çĶ»ä½ľ":12187,"èİ±çī¹":12188,"ä»¥åıĬä¸ŃåĽ½å¤§éĻĨçļĦ":12189,"17ä¸ĸçºª":12190,"æľ¨æĿĲ":12191,"çİĽæł¼":12192,"éħĭéķ¿":12193,"ĠèĳĹä½ľ":12194,"çļĦäº²":12195,"åľ¨2020å¹´":12196,"äººæĺ¯":12197,"ä¹ĭäºĭ":12198,"åı¤åŁİ":12199,"åĪĿä¸Ń":12200,"å¤ĩåıĹ":12201,"èĢĥéĩı":12202,"çĶ²çº§èģĶèµĽ":12203,"æĸĻçĲĨ":12204,"äºĨä¸Ģç³»åĪĹ":12205,"ç§ĳåŃ¦æĬĢæľ¯":12206,"æĭľä»ģ":12207,"åĨ°å²Ľ":12208,"æľĿé²ľåįĬå²Ľ":12209,"å®īå¾·é²ģ":12210,"æķ²åĩº":12211,"åĨħæĶ¿éĥ¨":12212,"æ¶¡è½®":12213,"å¥¹æĽ¾ä»£è¡¨":12214,"IU":12215,"åľ¨2009å¹´":12216,"ä¸Ģæŀ¶":12217,"åĲĮæľŁ":12218,"æµ·æ»©":12219,"åħ¨ç¨ĭ":12220,"ä¸¤é¡¹":12221,"äº¤ä¼ļ":12222,"èº«è¾¹":12223,"èĲ¥éĢł":12224,"è´Łæĭħ":12225,"åĺİ":12226,"æĺ¾çĦ¶":12227,"é¢ĦèŃ¦":12228,"æ¸©åĵ¥":12229,"äºĮåįģä¸ĸçºª":12230,"ä½©æĸ¯":12231,"è¿Ļä¸ĢçĤ¹":12232,"çŃĶåºĶ":12233,"begin":12234,"çĭŃçªĦ":12235,"ystem":12236,"ys":12237,"çļĦåĲįä¹ī":12238,"ä»¥0":12239,"2018":12240,"ä½ĨåĲİæĿ¥":12241,"å°±æŃ¤":12242,"çĸ¼":12243,"å¤ªæŀģ":12244,"ç¬¬ä¸ĢåĲį":12245,"çĽĳæµĭ":12246,"æĸ¯çī¹æĭī":12247,"èµŀæĪĲ":12248,"èĶļ":12249,"éĥĳå·ŀ":12250,"åŁºç¡Ģä¸Ĭ":12251,"ç½ĳçĲĥåħ¬å¼ĢèµĽ":12252,"oo":12253,"Ġ1992å¹´":12254,"çļĦåıĺåĮĸ":12255,"åħĭæ´Ľ":12256,"âĢĿ()":12257,"æĪĺçļĦ":12258,"å°ıåŃ©":12259,"ç½Ĺå®¾":12260,"å°±èģĮ":12261,"è½¬æĬķ":12262,"èĪªè¿Ĳ":12263,"éĤ£æĹ¶":12264,"èĢģäºº":12265,"æ»¡è´¯":12266,"èĶ¡èĭ±æĸĩ":12267,"å¼¯æĽ²":12268,"ĠBe":12269,"æĭ¦æĪª":12270,"æ¸©åĵ¥åįİ":12271,"çļĦæľº":12272,"çļĦå®¶åºŃ":12273,"æµ·å§Ĩ":12274,"éĩįåĬĽ":12275,"å®ŀçĶ¨":12276,"éĻ¤éĿŀ":12277,"èĲ¥åľ°":12278,"ä¾Ŀæ³ķ":12279,"å®¡è®®":12280,"æĭįæĳĦçļĦ":12281,"äºİ1996å¹´":12282,"æĲŃä¹ĺ":12283,"æĿĨèıĮ":12284,"ç»ıçºªåħ¬åı¸":12285,"ĠåĵĪ":12286,"çļĦå¦»åŃĲ":12287,"åľ¨2012å¹´":12288,"æķĸ":12289,"æ²ģ":12290,"åŃ¦æ´¾":12291,"è¢«æİĪäºĪ":12292,"çĶ±èĭ±åĽ½":12293,"çĽ®å½ķ":12294,"çİĭæľ±":12295,"å·´å·´":12296,"èŃ¦åį«":12297,"çº¢æĹĹ":12298,"å°Ħçº¿":12299,"åĩłç§į":12300,"åĨ³å®ļå°Ĩ":12301,"è´¢ç»ı":12302,"ç»ĵæĿŁæĹ¶":12303,"çĪ¶äº²çļĦ":12304,"ãĢī,":12305,"å¥Īå°Ķ":12306,"12æľĪ28æĹ¥":12307,"çħ¤çŁ¿":12308,"çĽ¸äºĴä½ľçĶ¨":12309,"çļĦå£°éŁ³":12310,"çļĦéĤ®æĶ¿ç¼ĸçłģä¸º":12311,"åĬłåī§":12312,"å¯ĨæŃĩ":12313,"æĬ¤çĲĨ":12314,"éĢŁçİĩ":12315,"åıĮéĩį":12316,"è¿ªæĸ¯":12317,"æĳĦæĶ¿":12318,"eth":12319,"ç«¥å¹´":12320,"1906å¹´":12321,"çĶµåĬĽæľºè½¦":12322,"åĴĮæ°´":12323,"åıĳæĶ¾":12324,"èĩªæĦ¿":12325,"å¹³åĿ¦":12326,"æĭīèĲ¨":12327,"å®īè¾¾":12328,"æ¯ĶåĪĨ":12329,"ç¦ıåħĭ":12330,"ä¸īä¸ªæľĪ":12331,"æĭīä¸ģè¯Ń":12332,"åµ©":12333,"è¿½æº¯èĩ³":12334,"æĽĿåħī":12335,"EX":12336,"ev":12337,"lic":12338,"Ġèĩ³":12339,"Ġ5æľĪ":12340,"Ġ187":12341,"ä¸Ģäºĭ":12342,"ä¸Ĭæ¼Ķ":12343,"çİ°éĩĳ":12344,"è¦ģç´ł":12345,"ç¼®":12346,"ä¸ŃåĽ½åĽ½å®¶":12347,"å¤ĦæŃ»":12348,"å²Ľå¼ı":12349,"åķ¦":12350,"åķ¸":12351,"æŃ¦åĬŁ":12352,"åħ¶ä»ĸäºº":12353,"å¾Īæľī":12354,"å¥ĩå¹»":12355,"éļ¾åº¦":12356,"å·²ç»ıè¢«":12357,"äºĨä¸Ģä»½":12358,"é¤Ĳé¥®":12359,"æ£ķèī²":12360,"Ġæ¦Ĥè¿°":12361,"å¯ĨæŃĩæł¹":12362,"Facebook":12363,"çļĦåı¯":12364,"çļĦç»ĵæŀĦ":12365,"åŃ¦åİĨ":12366,"ä¸įæķ¢":12367,"åĨħå¤ĸ":12368,"å±ŀçļĦä¸Ģç§į":12369,"åį¡æ´Ľæĸ¯":12370,"å¥¥åĪ©":12371,"åıįåĵį":12372,"çĬĢ":12373,"åģľçģ«":12374,"ä¸¥åİī":12375,"éĥ¡çļĦ":12376,"urn":12377,"çº½çº¦æĹ¶æĬ¥":12378,"æłĸæģ¯æ·±åº¦":12379,"åİļçļĦ":12380,"åıĺæĪĲäºĨ":12381,"æĭĵè·ĭ":12382,"ä¸ĩç¾İåħĥçļĦ":12383,"éĵ¸éĢł":12384,"çĽĳå¯Łå¾¡åı²":12385,"æ°¨éħ¸":12386,"ç£·éħ¸":12387,"äº¤æ±ĩå¤Ħ":12388,"åľ¨2014å¹´":12389,"è¡Ļ":12390,"å¤§æ³ķå®ĺ":12391,"åŃ¦éĩĳ":12392,"åĪĨçº§":12393,"2016":12394,"æĢ»æķ°":12395,"æ±Łå¸Ĥ":12396,"åĮ»èį¯":12397,"æ·±å¤ľ":12398,"å¼¹éģĵ":12399,"å¤§ä¸ľéĥ¨å¤§åĮº":12400,"NH":12401,"TR":12402,"çļĦå»ºè®®":12403,"åľ¨2018å¹´":12404,"ä¸İæĸ°":12405,"æ°ĳæĦı":12406,"å¯¹ç«ĭ":12407,"åĲĮä¸Ģä¸ª":12408,"ä¸īéĩį":12409,"âĢĿâĢľ":12410,"èģĶæĴŃ":12411,"åħ³ç¨İ":12412,"æ·Ĩ":12413,"ç¼ĸç¨ĭ":12414,"æ¸ħæĻ¨":12415,"æŀĦå»º":12416,"ä»£è¡¨ä½ľ":12417,"åıĳçĶŁåĲİ":12418,"olog":12419,"ç£º":12420,"é¥®æĸĻ":12421,"èĪŀåı°åī§":12422,"éħīç§ĳ":12423,"360":12424,"Wh":12425,"Ġè®¸å¤ļ":12426,"çļĦå¤©":12427,"çļĦç»Ħç»ĩ":12428,"ä½įåľ¨":12429,"éķ¿å´İ":12430,"åĬłéĩĮ":12431,"åĲĪéĩĳ":12432,"èİ·åĩĨ":12433,"æĶ¶åĽŀ":12434,"çŁ¥åĲįçļĦ":12435,"ä»ħåľ¨":12436,"å²ģä»¥ä¸ĭ":12437,"æľįåĬ¡åĻ¨":12438,"é¢Ŀå¤ĸçļĦ":12439,"éĤ®ä»¶":12440,"éĺ»ç¢į":12441,"ĠæĹ©å¹´çĶŁæ´»":12442,"çļĦå®īåħ¨":12443,"çļĦæĿĥåĪ©":12444,"æĺ¯è¢«":12445,"æľīåĽĽ":12446,"âĢĿ),":12447,"ç«ĻåĴĮ":12448,"åıĤè®®":12449,"åĬŀåŃ¦":12450,"æŃ¦å£«":12451,"äº¦ä¼ļ":12452,"æ³¨éĩį":12453,"è¯Ŀé¢ĺ":12454,"ä¼łç»Łä¸Ĭ":12455,"æĴ¤åĩº":12456,"åĨ·åį´":12457,"æĿ¡ä»¶ä¸ĭ":12458,"æįĲæ¬¾":12459,"ä»£çłģä¸º0":12460,"æ³¢ç½ĹçļĦæµ·":12461,"Ġcol":12462,"sectionĠbegin":12463,"Ġæ²Ļ":12464,"åľ¨2015å¹´":12465,"ãĢĭ)":12466,"çľ·":12467,"çī¹åĴĮ":12468,"åĮĸå·¥":12469,"ç»Ħéķ¿":12470,"ç»´æĸ°":12471,"è§Ĩè§Ĵ":12472,"å³»":12473,"æį¢åıĸ":12474,"é³ļ":12475,"æ··æ·Ĩ":12476,"åİ¿çļĦåŁİå¸Ĥ":12477,"éªļæī°":12478,"åľ¨2011å¹´":12479,"ä¸ĢæľŁ":12480,"ä¸ŃéĢĶ":12481,"å¼Ĭ":12482,"è¥¿å²¸":12483,"å¼Ģéĩĩ":12484,"èİŀ":12485,"èµĽåĲİ":12486,"ä¸ļèĢħ":12487,"å°ıæĹ¶çļĦ":12488,"ç»Ħä»¶":12489,"è¯´è¯Ŀ":12490,"ä¼łæŁĵ":12491,"å®Įç»ĵ":12492,"ä»£è¡¨éĺŁ":12493,"å¢ŀèĩ³":12494,"æĶ»åħĭ":12495,"éŁ³ä¹Ĳå®¶":12496,"åİĭåĪ¶":12497,"å¯Įåħ°":12498,"æĸŃå±Ĥ":12499,"ä¸Ģå¹´åĲİ":12500,"æľīæķĪçļĦ":12501,"éĵ¾æİ¥":12502,"åĨħèĴĻåı¤èĩªæ²»åĮº":12503,"clude":12504,"ivers":12505,"1çļĦ":12506,"Am":12507,"1910å¹´":12508,"åŃ¦çķĮ":12509,"é©¬æģ©":12510,"è¶¾":12511,"éĩįæĴŃ":12512,"ä¼łè¾¾":12513,"ä¿¡éķ¿":12514,"ç¬¬ä¸Ģä»»":12515,"æ³¢åĪ©":12516,"æŀľå®ŀ":12517,"143":12518,"èģĶçĽŁçļĦ":12519,"åįķæĽ²æ¦ľ":12520,"åıĻäºĭ":12521,"äºİ1994å¹´":12522,"è§£åĨ³æĸ¹æ¡Ī":12523,"çļĦè¿ĩç¨ĭä¸Ń":12524,"ä¸Ńçİ¯":12525,"åĽ½åŃĲ":12526,"è¯¥å¸Ĥéķĩ":12527,"å¤©åĲ¯":12528,"æ®´":12529,"æ²³ä¸ľ":12530,"å¨ģæĸ¯":12531,"è¯ĦåĪĨ":12532,"åĬ©æĶ»":12533,"è¾¹ä¸º":12534,"é£ŀèĪ¹":12535,"ä¿Ħç½Ĺæĸ¯çļĦ":12536,"å®ĿçŁ³":12537,"9æľĪ30æĹ¥":12538,"åį±å®³":12539,"æĸ°å¢ŀå¢ĥå¤ĸè¾ĵåħ¥":12540,"åĨ¬åŃ£å¥¥æŀĹåĮ¹åħĭè¿ĲåĬ¨ä¼ļ":12541,"è´©åĶ®":12542,"ä¹Įé²ģæľ¨":12543,"GP":12544,"ĠçĻ½":12545,"çļĦåįĹ":12546,"éĥ¨ä¸ĭ":12547,"ä¸įåºĶ":12548,"åĪĨå±Ģ":12549,"å®¶åºĦ":12550,"åĬłæ²¹":12551,"ç±³åĵĪ":12552,"æ¡¶":12553,"æµģåħ¥":12554,"é£İåĬĽ":12555,"ä¼¦çĲĨ":12556,"å½±åĵįäºĨ":12557,"éģĩåĪ°äºĨ":12558,"åŁ¹èĤ²":12559,"èĤ¯å°¼":12560,"éħįéŁ³åĳĺ":12561,"éĵ¸å¸ģ":12562,"è´ªæ±¡":12563,"CE":12564,"èĢ»":12565,"è°İ":12566,"åıĹä½ĵ":12567,"122":12568,"ä¼Ĭä¸ĩ":12569,"æĬ¤èĪª":12570,"çĮ©":12571,"form":12572,"èĪ¹èĪ¶":12573,"çĤ®å¡Ķ":12574,"rid":12575,"æģ¶éŃĶ":12576,"1908å¹´":12577,"åįłé¢ĨäºĨ":12578,"åĪĽéĢłäºĨ":12579,"åĬ¨åĬĽåŃ¦":12580,"çºłçº·":12581,"3ä¾ĭ":12582,"çļĦåĨĽéĺŁ":12583,"åľ¨ç¬¬":12584,"ä¸ºéĤ»":12585,"ä¸ŃæİĴåĲį":12586,"å¤§èĦĳ":12587,"æĹ¶æľī":12588,"çĶŁçĲĨ":12589,"å¤ļè¾¾":12590,"ç¾İèģĶ":12591,"æŃ¤å¤Ħ":12592,"è·¯è½¨":12593,"116":12594,"èµ°äºĨ":12595,"èĨĽ":12596,"æİĮç®¡":12597,"åįłåľ°éĿ¢ç§¯":12598,"ĠCol":12599,"Ġæľ¬é±¼":12600,"çļĦåŁºç¡Ģä¸Ĭ":12601,"çļĦè¯Ńè¨Ģ":12602,"çļĦä»»åĬ¡":12603,"åľ¨åħ¨çĲĥ":12604,"åĽ½éĵģ":12605,"åĨħåĬ¡":12606,"å°Ĩè¢«":12607,"éĥ½å¾¡åı²":12608,"æİ¥æīĭ":12609,"éľľ":12610,"åĵĪå¸ĥ":12611,"red":12612,"æĹĹèĪ°":12613,"æĭīä¸ģç¾İæ´²":12614,"çħ¤çĤŃ":12615,"æĤīå°¼":12616,"lin":12617,"ä¸º5":12618,"éĥ¨åĴĮ":12619,"å¸ĥä¼¦":12620,"ä¸ŃåĽ½æĶ¿åºľ":12621,"only":12622,"èģĮå·¥":12623,"èİ·å¾ĹçļĦ":12624,"çłĶç©¶èĢħ":12625,"ä¸»è¦ģä¸º":12626,"æŃ¦åĬĽ":12627,"è§Ĥå¡ĺ":12628,"lex":12629,"1930å¹´ä»£":12630,"ä»ĭäºİ":12631,"æ¼«å¨ģ":12632,"è¡ĹéģĵåĬŀäºĭå¤Ħ":12633,"ç½ļæ¬¾":12634,"çĲĨå·¥åŃ¦éĻ¢":12635,"é©¬åħĭæĢĿä¸»ä¹ī":12636,"æĢİä¹Ī":12637,"å¯Įåħ°åħĭæŀĹ":12638,"çļĦä¸ªäºº":12639,"çļĦçĲĥåĳĺ":12640,"ä¸ºä»Ģä¹Ī":12641,"ä¸»æĴŃ":12642,"åĬ¨èĦī":12643,"éĩĮçº¦":12644,"çĽ®çļĦåľ°":12645,"åĲĳåīį":12646,"æ¸¯æ¾³":12647,"124":12648,"åıªå¥½":12649,"ä¹Įåħ¹":12650,"åŃ¦çĶŁä¼ļ":12651,"æ°ĳä¸»æ´¾":12652,"å®ĩèĪª":12653,"ç¥Īç¥·":12654,"sectionĠend":12655,"ä¹Įé²ģæľ¨é½Ĳ":12656,"aj":12657,"back":12658,"çļĦæŃ£":12659,"å¹¶ä»İ":12660,"æľĢéķ¿çļĦ":12661,"é©¬ä¸Ĭ":12662,"11ä¸ª":12663,"ari":12664,"16ä¸ĸçºª":12665,"åĲīéļĨ":12666,"éĥ¡çİĭ":12667,"å¼ĢåıĳåĮº":12668,"æłĩåĩĨçļĦ":12669,"èģļä¼ļ":12670,"æ¬£èµı":12671,"éĽĮæĢ§":12672,"èĲ¨å°Ķçĵ¦":12673,"èµĦæľ¬ä¸»ä¹ī":12674,"çļĨä¸ºéĻĨåľ°":12675,"èĤ¿çĺ¤":12676,"åĪĨåĮĸ":12677,"å¯¹å¾ħ":12678,"102":12679,"æĶ¹æĪĲ":12680,"éķĩå®Ī":12681,"äºĶäºº":12682,"æľĿéĺ³":12683,"çļĦä¸Ģåľº":12684,"æ±īäºº":12685,"å¸ĤéķĩèĮĥåĽ´åĨħ":12686,"æŃ¥éª¤":12687,"50ç±³":12688,"åĲĮå¹´11æľĪ":12689,"åĤį":12690,"æ²ĥå¤«":12691,"edia":12692,"çĪ¶äº²æĺ¯":12693,"è¯¸å¡ŀ":12694,"æīĢåľ¨çļĦ":12695,"ä¸»æ¼ĶçļĦ":12696,"è¾©æĬ¤":12697,"æĥ¯ä¾ĭ":12698,"9ç±³":12699,"Ed":12700,"Ã¼":12701,"Ġèĭ¥":12702,"Ġçİ°ä»£":12703,"æĹ¶ä¸º":12704,"ä¸ĭè¡Į":12705,"äºļçļĦ":12706,"ä¸īæĺŁ":12707,"ä¿Ŀå®ļ":12708,"åŀĭæĢģ":12709,"æ°ĶçĲĥ":12710,"åħĪé©±":12711,"è¡¥åģ¿":12712,"å¤ºåĽŀ":12713,"çļĦçī¹æ®Ĭ":12714,"æªĲ":12715,"SH":12716,"ject":12717,"åĩĳ":12718,"åĨĽçĶ¨":12719,"åĮĹç«¯":12720,"2017":12721,"çº¦è®·":12722,"æĽ´å¥½":12723,"åıĺåĬ¨":12724,"è¶ħå¸Ĥ":12725,"åĥµ":12726,"ä¸įè¿ĩåľ¨":12727,"é«ĺéĢŁéĵģè·¯":12728,"å¹´è½»äºº":12729,"æ·±åľ³å¸Ĥ":12730,"é¥²åħ»":12731,"å¯Ĩè¥¿è¥¿æ¯Ķ":12732,",,":12733,"ĠæĪĸ":12734,"ä¼º":12735,"åĩºåĵģ":12736,"èĢĮæľī":12737,"å¾·åł¡":12738,"äºļåĪ©":12739,"çĪ½":12740,"çº¦æĿŁ":12741,"åıįæĶ»":12742,"åıĳå±ķåĩº":12743,"éŁ³ä¹Ĳå½ķå½±å¸¦":12744,"æ¤įè¢«":12745,"èķ´":12746,"çī¹æ®ĬçļĦ":12747,"åľ¨åħ¨åĽ½":12748,"å¤§çº²":12749,"éĥ¨ä½ľåĵģ":12750,"ä¸ĸå®Ĺ":12751,"é©¬è·¯":12752,"åħ¨ç¾İ":12753,"æĶ¹è®¾":12754,"2021":12755,"11æĹ¶":12756,"areĠ":12757,"çº¢å¤ĸ":12758,"å°ļæľī":12759,"å±ĭèĭĳ":12760,"åįĪç§ĳ":12761,"2æľĪ24æĹ¥":12762,"è¯łéĩĬ":12763,"SC":12764,"çļĦæİ§åĪ¶":12765,"ä¸ŃåįĪ":12766,"ä»ĸä»İ":12767,"å¹¶æŃ¢äºİ":12768,"ç¾ŀ":12769,"æĮ½":12770,"âĢľ\"":12771,"ä¸īçĻ¾":12772,"æįŀ":12773,"èĤª":12774,"äº¤äºĴ":12775,"æ¢§":12776,"å¸Īä»İ":12777,"çĻ½éĩĳ":12778,"ale":12779,"æĪ¿åľ°äº§":12780,"ç¤¼ä»ª":12781,"éĢļå¸¸åľ¨":12782,"å·¨æĺŁ":12783,"äºİ1992å¹´":12784,"å¸®åĬ©ä¸ĭ":12785,"èĦĤèĤª":12786,"flix":12787,"Ġæ°ĶåĢĻ":12788,"çļĦåı¯èĥ½æĢ§":12789,"åıĳæĸĩ":12790,"æ¸Ŀ":12791,"äºĭåıĳ":12792,"äºĭè¿¹":12793,"åĲĪåħ±":12794,"æ²»æĦĪ":12795,"æį®ç§°":12796,"æĶ¾å¤§":12797,"ä¸¤ä¸ªæľĪ":12798,"é¢ĹæģĴæĺŁ":12799,"ĠåİĨåı²æ²¿éĿ©":12800,"Ġ1988å¹´":12801,"å§¿æĢģ":12802,"èĻĲå¾ħ":12803,"éĺ¿åŁºåĿ¦å¤§åĮº":12804,"çļĦçĽ¸åħ³":12805,"çĲ¦":12806,"ä¸ĭè¯ı":12807,"å±±å¯º":12808,"åħ³åį¡":12809,"å¢ŀæı´":12810,"åĢĻè¡¥":12811,"åĲĮå¹´9æľĪ":12812,"äºĮåįģäºĮå¹´":12813,"çļĦå¤§å°ı":12814,"çİ©åħ·":12815,"è®¾ç½®çļĦ":12816,"å¼ķèµ·çļĦ":12817,"ç»ıåİĨäºĨ":12818,"éĺħåħµ":12819,"çĦ¦èĻĳ":12820,"æĭĵå±ķ":12821,"éĽĩä½£":12822,"ĠMe":12823,"åĮĸåŃ¦å¼ıä¸º":12824,"çļĦçī¹æľīæ¤įçī©":12825,"çĢĳå¸ĥ":12826,"æĸ°çĸĨç»´åĲ¾å°Ķèĩªæ²»åĮº":12827,"Ġ20ä¸ĸçºª":12828,"ä¸ĢæĹ¶":12829,"è¢«èªīä¸º":12830,"è¿ĩå¤ļ":12831,"æĪĺæľº":12832,"ç±³åĭĴ":12833,"éĩįåıł":12834,"æł¼ç½Ĺ":12835,"éĵģè¾¾å°¼":12836,"åıªä¼ļ":12837,"æŃĮèĪŀ":12838,"è¯ĦéĢī":12839,"èĬĤçĽ®ä¸Ń":12840,"çĸĳä¼¼":12841,"æ¥ļåĽ½":12842,"æĽ¹æĵį":12843,"å¸ĪèĮĥåŃ¦æł¡":12844,"å¤ļå¹´æĿ¥":12845,"åĢ¡å¯¼":12846,"æĸĩèīºå¤įåħ´":12847,"åįıåķĨä¼ļè®®":12848,"illiam":12849,"BE":12850,"ww":12851,"Ġå¥¹":12852,"Ġä¸ĩåİĨ":12853,"åľ¨20ä¸ĸçºª":12854,"äººæŃ»äº¡":12855,"æĹ¥åĨħ":12856,"åĲİéĿ¢":12857,"è½¶":12858,"ä¸īçŃī":12859,"åħ¨æĹ¥":12860,"éĺ¿æĸ¯":12861,"åįķè½¦":12862,"å¤«æĸ¯åŁº":12863,"èĳĹçļĦ":12864,"æ±Łåİ¿":12865,"æ²¡æĶ¶":12866,"æŀĦæĥ³":12867,"èĲ¨æĳ©":12868,"æĹ©å·²":12869,"å¾·åĽ½çļĦ":12870,"éĽĦæĢ§":12871,"ett":12872,"å®³æĢķ":12873,"ç¿»åĶ±":12874,"æ»ĳåĨ°":12875,"æĹģè¾¹":12876,"çĪ±å¥½èĢħ":12877,"åİķæīĢ":12878,"6å²ģ":12879,"è¯µ":12880,"ä¸įåĲ«":12881,"ä¿©":12882,"åĪĨæ³Į":12883,"åĨĽæĶ¿":12884,"åĮĹåĮº":12885,"çĶµç«Ļ":12886,"èĤ½":12887,"åħĥèĢģ":12888,"æīĭçļĦ":12889,"éĴŀ":12890,"äºĶä»£":12891,"éĥ¨åĪĨåľ°åĮº":12892,"å®Ĺåº§":12893,"æ¾ľ":12894,"æĲģ":12895,"ä¹ĭåĲİåľ¨":12896,"æĺ¯ä¸ĢæĿ¡":12897,"è¿ģåĪ°":12898,"çīĽé¡¿":12899,"çļĨæľī":12900,"èĿ´":12901,"1907å¹´":12902,"éī´å®ļ":12903,"6æĹ¶":12904,"Ġ10æľĪ":12905,"çļĦæĸĩç«ł":12906,"æĸ¯å¾·":12907,"ä¸įçŁ¥éģĵ":12908,"è¢«æĮĩ":12909,"éĽı":12910,"åĬłç´¢":12911,"2012":12912,"å¤©åľ°":12913,"æ¡¦":12914,"è¾¾ç§ĳ":12915,"é»Ķ":12916,"èģĮæĿĥ":12917,"èĦĨ":12918,"å¯ĨéĽĨ":12919,"èĩ´ä½¿":12920,"æ¯ĶèµĽçļĦ":12921,"let":12922,"rop":12923,"è¯ĳä½ľ":12924,"9æľĪ28æĹ¥":12925,"æĺ¯ä¸Ģé¢ĹæģĴæĺŁ":12926,"æİ©æĬ¤":12927,"çķħéĶĢ":12928,"ä¸ĵç§ĳåŃ¦æł¡":12929,"èĿ´èĿ¶":12930,"ĠéļıèĳĹ":12931,"æĹ¥åľ¨":12932,"æ³¼":12933,"åŃ¦ä¸ļ":12934,"åħ¶éĹ´":12935,"æ³ķæĭī":12936,"æĸ°éĺ¿åŁºåĿ¦å¤§åĮº":12937,"åĮĹæ¬§":12938,"å±±ä¸Ĭ":12939,"æĢ»åĨ³èµĽ":12940,"åıĺå¼Ĥ":12941,"ä¼ĺåĮĸ":12942,"ä¸ĢçĽ´åĪ°":12943,"ç¦»å¼ĢäºĨ":12944,"å¦Īå¦Ī":12945,"æĳĨèĦ±":12946,"æīĢéľĢçļĦ":12947,"?ãĢį":12948,"ĠåĲĦ":12949,"ĠåŃ¦æł¡":12950,"åľ¨è¿ĻäºĽ":12951,"äººéģĵ":12952,"åĲİå¤ĩ":12953,"é«ĺå°Ķå¤«":12954,"ä¸¤åľ°":12955,"ä¸¤å±Ĥ":12956,"çº¦4":12957,"åħĥçļĦ":12958,"è¯Ńç³»":12959,"æĽ´é«ĺçļĦ":12960,"æ¯ıæľĪ":12961,"åı¯ä»¥ä½¿çĶ¨":12962,"åħ«ä¸ª":12963,"å®Ĺå®¤":12964,"éĿĴå±±":12965,"å¤ıæľĹå¾·":12966,"æĥ³åĪ°":12967,"åĽłä¸ºå®ĥ":12968,"èµ«é²ģ":12969,"è®²åº§":12970,"ase":12971,"çĶŁçī©åŃ¦å®¶":12972,"æ´ŀç©´":12973,"æªĢ":12974,"å«ģç»Ļ":12975,"å±¥è¡Į":12976,"Co":12977,"VID":12978,"åļ":12979,"åĨ¤":12980,"çī¡":12981,"ä»¥4":12982,"æ±¾":12983,"åįĹéĿ¢":12984,"éĺ¿èĲ¨":12985,"éĴī":12986,"éĽ·è¯º":12987,"èİ±åħĭ":12988,"åĽ½éĻħèµĽ":12989,"æĳ©æ´Ľ":12990,"æŀªç®¡":12991,"äºĨä¸Ģé¡¹":12992,"éĺ¿å°ĶåıĬåĪ©äºļ":12993,"èµĽäºĭä¸Ń":12994,"å¾·åħĭèĲ¨æĸ¯å·ŀ":12995,"å·´æĭ¿é©¬":12996,"ĠåĲįç§°":12997,"ĠéļıçĿĢ":12998,"åĴĮæĹ¥æľ¬":12999,"åŃĲåĴĮ":13000,"èİº":13001,"é«ĺå®Ĺ":13002,"äºļé©¬":13003,"è¿ĩæĿ¥":13004,"è½¦äººæ¬¡":13005,"ç³Ł":13006,"çº¿æĺ¯":13007,"æ¸¯åı°":13008,"ini":13009,"åıĪç§°ä¸º":13010,"åİ»äºĨ":13011,"å¾Īå®¹æĺĵ":13012,"è¯ģä¹¦":13013,"ä¹¡éģĵ":13014,"esĠ":13015,"åĺ²":13016,"æĬĢæľ¯çļĦ":13017,"æķĮåĨĽ":13018,"åĽºä½ĵ":13019,"å¢ĵåľ°":13020,"è±ªåįİ":13021,"æĺİå°¼èĭıè¾¾å·ŀ":13022,"ep":13023,"çļĦé¦Ļæ¸¯":13024,"è¡ĮæĿİ":13025,"æĬ¹":13026,"å¯¹æĪĺ":13027,"èĩªä»İ":13028,"æľĢå¿«":13029,"èĪľ":13030,"åı°éĵģ":13031,"åº¦è¿ĩ":13032,"åħ¨æ°ĳ":13033,"èĲ¨è¯¸å¡ŀ":13034,"æ³°å±±":13035,"äºĨä¸Ģåº§":13036,"ç¨İåĬ¡":13037,"è´¢æĶ¿éĥ¨":13038,"5æĹ¶":13039,"Ġ186":13040,"çļĦçĬ¶æĢģ":13041,"ä¸Ĭæĺ¯":13042,"æŀķ":13043,"ä¹ĭæīĢä»¥":13044,"æĸ°ä¼ļ":13045,"2010":13046,"å²Ľå¼ıæľĪåı°":13047,"åĳ½ä¸Ń":13048,"ä»Ĭå±ŀ":13049,"æ¤°":13050,"èľĺ":13051,"èĿĩ":13052,"çªĹåı£":13053,"å«Įçĸĳ":13054,"åĬłåĪ©ç¦ıå°¼äºļ":13055,"ĠEx":13056,"èĥ°å²Ľ":13057,"PP":13058,"Ð½":13059,"çļĦçİ°è±¡":13060,"æĿĸ":13061,"åĲİäºİ":13062,"åĩºèī²":13063,"åĪĨè¾¨":13064,"é¦Ī":13065,"åŃĲç§ĳ":13066,"æĪĺç¥ŀ":13067,"éĩįåŀĭ":13068,"å®īå®ļ":13069,"ç³»æķ°":13070,"æİ¥çº³":13071,"æŀĹä¸ļ":13072,"æīĭæĮģ":13073,"å¤ĦåĪĨ":13074,"ç¬¬ä¸ĢåŃ£":13075,"æ¸ħæ´ģ":13076,"æĿĳçļĦ":13077,"æ¬§ç¾İ":13078,"æ¡ĪçļĦ":13079,"å»ºçŃĳç¾¤":13080,"åģĩè¯´":13081,"åŃĶåŃĲ":13082,"æ´»è·ĥäºİ":13083,"è¯¥çľģä»½ä¸ºæ³ķåĽ½åĮĹéĥ¨":13084,"åĬłåĭĴæ¯Ķæµ·":13085,"EĠ":13086,"ÃŃ":13087,"åĪ°æĿ¥":13088,"åĪ©æ¶¦":13089,"çĶµæºĲ":13090,"åº¦åģĩ":13091,"å¤ĸæĺŁ":13092,"ç±³æĭī":13093,"æİ¥åı£":13094,"éĩĳéĴ±":13095,"é¦ĸè½®":13096,"å¼łåŃ¦":13097,"ä¿®çŃĳ":13098,"ä¼¯æģ©":13099,"æ½Ł":13100,"è¿ľçļĦ":13101,"æĺ¥èĬĤ":13102,"åįĹåĮĹæľĿ":13103,"å¼ºçĥĪçļĦ":13104,"é£ĵé£İä¸Ńå¿ĥ":13105,"èħ¾è®¯":13106,"Ġla":13107,"çļĦçĲĨè®º":13108,"åľ¨åľ£":13109,"åľ¨2005å¹´":13110,"è¯Ľ":13111,"åĩ¿":13112,"èĢ¿":13113,"ä¸»æľº":13114,"ä»£è¨Ģ":13115,"çŃīäººçļĦ":13116,"ç§įåĬł":13117,"æ°´åĬĽ":13118,"å·´è¾¾":13119,"å·´åĵĪ":13120,"èįĶ":13121,"ç»´çī¹":13122,"åİĨç¨ĭ":13123,"è¿ĺæ²¡æľī":13124,"anc":13125,"çļĦä¸Ģç³»åĪĹ":13126,"æĿİæ°ı":13127,"ä¾Ľæ°´":13128,"çĪ¶åŃĲ":13129,"å³Ļ":13130,"åĲĮå¹´8æľĪ":13131,"çģµé¡¿":13132,"æķ°æį®åºĵ":13133,"æī©åħħ":13134,"æ°ĳä¸»ä¸»ä¹ī":13135,"åįļçī©éĻ¢":13136,"å¤ĸäº¤åħ³ç³»":13137,"çĽ¸å¯¹è®º":13138,"ä¹ĥèĩ³":13139,"å¾·éĩĮåħĭ":13140,"AKB48":13141,"çİĭå®īçŁ³":13142,"Ġ1990å¹´":13143,"åĪĥ":13144,"ä¸įåĲĪ":13145,"åı¯æĮģç»Ń":13146,"ç¾İæĭī":13147,"æİ¥åĪ°":13148,"äººåı£çļĦ":13149,"å¤Ħå¤Ħéķ¿":13150,"ä¸ĵå±ŀ":13151,"å¤įåĩº":13152,"åĽŃæŀĹ":13153,"æ¥·":13154,"å¡ŀæĸ¯":13155,"éŁ³ä¹ĲèĬĤ":13156,"æ²¿èĳĹ":13157,"æĽ¿è¡¥":13158,"æºªæµģ":13159,"æĪ´ç»´":13160,"ç¡¬ä»¶":13161,"æ£Ģå¯Łå®ĺ":13162,"Ġ1989å¹´":13163,"ä¸ºè¾Ĳé³įé±¼çº²é²Īå½¢çĽ®":13164,"ç®¡æİ§ä¸Ńåıĳçİ°":13165,"8æľĪ15æĹ¥":13166,"çļĦåī¯":13167,"çļĦé¢Ĩå¯¼":13168,"ä¸ºçĥŃå¸¦":13169,"æĺ¯å·´è¥¿":13170,"åĴĮåľ£":13171,"çĶ¨åľ¨":13172,"æīĢä½¿çĶ¨çļĦ":13173,"èĬľ":13174,"åŀĦ":13175,"å¥¥å§Ķä¼ļ":13176,"å¾Īé«ĺ":13177,"ä½ıæīĢ":13178,"æĽ¼åĵĪ":13179,"åĩłä¸ªæľĪ":13180,"åĪĹè½¦çļĦ":13181,"å®ĮæĪĲåĲİ":13182,"æķĮå¯¹":13183,"æ¤ŃåľĨå½¢":13184,"å¤ĸåĽ´èµĽ":13185,"))":13186,"70å¹´ä»£":13187,"çļĦçĲĥéĺŁ":13188,"åľ¨æľ¬":13189,"åľ¨ä¹Įåħĭåħ°":13190,"åľ¨2016å¹´":13191,"äººè¢«":13192,"åĴĮé©¬":13193,"äºĨèĩªå·±çļĦ":13194,"åĪĨéĺŁ":13195,"ç¬¬15":13196,"include":13197,"å¼łå®¶":13198,"åĪĴåĪĨä¸º":13199,"è¿ŀä¸²":13200,"ä¾ĽçĶµ":13201,"æ´ĽæŀĹ":13202,"çĶµå½±éĻ¢":13203,"çĻ»åł¡":13204,"è¿ªå°Ķ":13205,"æ¬§æ´²åĽ½å®¶":13206,"ãģĦ":13207,"ower":13208,"å½©èĻ¹":13209,"èİ²èĬ±":13210,"é«ĺçŃīæ³ķéĻ¢":13211,"æĹ¢æľī":13212,"å¤ļæł·æĢ§":13213,"Netflix":13214,"å½ķéŁ³å®¤ä¸ĵè¾ĳ":13215,"çļĦé»ĳ":13216,"çļĦçīĪæľ¬":13217,"å¤§å±łæĿĢ":13218,"èĢĨ":13219,"ä¸įæ¸ħæ¥ļ":13220,"æ°ĳäºĭ":13221,"æĥ¹":13222,"10æĹ¶":13223,"10ä¸ĩ":13224,"äºĶå¤§":13225,"æĬ¥åĲį":13226,"ä¿Ħè¯Ń":13227,"134":13228,"éĵģè·¯çļĦ":13229,"æ¸©åĴĮ":13230,"åºĨä¸ĭ":13231,"é³Ĺ":13232,"äºĮåįģä¸Ģå¹´":13233,"èµŀèµı":13234,"1903å¹´":13235,"å±ıå¹ķ":13236,"ä¸Ģæ®µæĹ¶éĹ´":13237,"èľĺèĽĽ":13238,"çļĦæĶ¿çŃĸ":13239,"ä¸Ģçīĩ":13240,"ä¹ĭå®¶":13241,"å°ĨæĿ¥":13242,"æ°´æ³¥":13243,"çĽ®åĩ»":13244,"æıĲéĨĴ":13245,"åıĸåĲĳ":13246,"åħĪè¡Į":13247,"æ´¾å¯¹":13248,"è¿ªåħĭ":13249,"ica":13250,"åºķéĥ¨":13251,"21ä¸ĸçºª":13252,"èĨĿ":13253,"ä¹ĭéĹ´çļĦåħ³ç³»":13254,"ä¸ŀçĽ¸":13255,"App":13256,"rans":13257,"Ġ3æľĪ":13258,"å¹´ä»½":13259,"ä¸Ģçº¿":13260,"äººå¯¹":13261,"çŃīåĲĮ":13262,"åħ¨æĸ°":13263,"ä»¬çļĦ":13264,"æĻ®é¡¿":13265,"é¥·":13266,"æŀģåħ¶":13267,"æļ´éĽ¨":13268,"åĨ²éĶĭ":13269,"oph":13270,"avid":13271,"å¼ĹéĽ·å¾·":13272,"æ¿Ĵåį±":13273,"%)":13274,"ä¸Ģå¥Ĺ":13275,"äººåĬĽ":13276,"æĺ¯çĳŀå£«":13277,"è§ħ":13278,"ä¸įå¤Ł":13279,"è·¯ä¸İ":13280,"ç«Ļåīį":13281,"èµ·èįī":13282,"æŃ¦çĶ°":13283,"å®Įæ¯ķ":13284,"142":13285,"åģľåĬŀ":13286,"å¹²æĹ±":13287,"roup":13288,"ãĤ¹":13289,"rig":13290,"äºİ184":13291,"çº¿è·¯åı£":13292,"æĴŀåĩ»åĿĳ":13293,"RS":13294,"ground":13295,"ĠåĺīéĿĸ":13296,"åľ¨2007å¹´":13297,"ä¸ĢåĿĹ":13298,"åŃµ":13299,"åĮ¡":13300,"èĭ·":13301,"ä¹Łä¸İ":13302,"åħ¨åŀĴæīĵ":13303,"æĢ»åħµ":13304,"åİ¿å¸Ĥ":13305,"å°¼ç§ĳ":13306,"ä¿¡æīĺ":13307,"æ¨Ĭ":13308,"åħīçļĦ":13309,"åĨįçĶŁ":13310,"æŃ¦æĺĮ":13311,"åħ·åºĨä¸ĭ":13312,"é¡¿æ¶ħ":13313,"åĪĩæĸŃ":13314,"ä½©å°Ķ":13315,"èĤ¯èī²":13316,"irl":13317,"æĢªçī©":13318,"å¸¦æĿ¥äºĨ":13319,"èĿĻèĿłä¾ł":13320,"My":13321,"çļĦæľĢå¤§":13322,"åĪ°è®¿":13323,"çĶ±ä¸ŃåĽ½":13324,"åĬłå¯Ĩ":13325,"éĢļç§°":13326,"åįİæ²Ļ":13327,"æīĭä¸ĭ":13328,"éĹ¨å¤ĸ":13329,"åŃĹä½ĵ":13330,"çĿ¿":13331,"åı¯ä»¥è¢«":13332,"æĶ»éĻ·":13333,"åįĬåĨ³èµĽ":13334,"åį´è¢«":13335,"ãĤĵ":13336,"èĩªåĬ¨åĮĸ":13337,"æ°¯åĮĸ":13338,"æ¸ĹéĢı":13339,"æĳ©æ´Ľåĵ¥":13340,"5åı·":13341,"Ġä¿Ħç½Ĺæĸ¯":13342,"ĠåĶĲ":13343,"çļĦç¬¬ä¸Ģä¸ª":13344,"ä¸ºĠ":13345,"æ²«":13346,"åĩºå¢ĥ":13347,"ä¿¯":13348,"é©¿":13349,"å¹³åİ¿":13350,"èİ¹":13351,"æĢ»ç½²":13352,"éĥ½è¦ģ":13353,"éĺ¿åįľ":13354,"åŀ©":13355,"å¨Ħ":13356,"å¯¼ä½ĵ":13357,"é²¶":13358,"åħ«å¼º":13359,"åįłæľī":13360,"åį¢æ¯Ķ":13361,"äºĭä»¶ä¸Ń":13362,"ãĢī.":13363,"è¿ĩåİ»çļĦ":13364,"å¸ĥé²ģæĸ¯":13365,"ĠCo":13366,"Ġwith":13367,"å¥¥åħĭè¥¿":13368,"è¯¥çī©ç§įçļĦæ¨¡å¼ıäº§åľ°":13369,"çļĦå¼Ģåıĳ":13370,"ä¸Ńä½¿çĶ¨":13371,"æĺ¯éĢļè¿ĩ":13372,"å¹¶éĢļè¿ĩ":13373,"å¸ĥè¾¾":13374,"æ¯Ķ1":13375,"åı·åı¬":13376,"åįķè¯į":13377,"å¤«å¦»":13378,"è¿ĳæľŁ":13379,"è½¬è¿Ĳ":13380,"å¥ĸåŃ¦éĩĳ":13381,"åĨĻäºĨ":13382,"å¤®è§Ĩ":13383,"æħĮ":13384,"å¼Ĺèİ±":13385,"èģļå±ħ":13386,"åĪĽä½ľäºĨ":13387,"æĬµåĪ¶":13388,"èĦ±ç»´äºļ":13389,"èĴĭä¸ŃæŃ£":13390,"å¹¿è¥¿å£®":13391,"æķĻç§ĳæĸĩ":13392,"èĤ¯å¡ĶåŁºå·ŀ":13393,"sc":13394,"å¬":13395,"Ġèī¾":13396,"çļĦåıįåºĶ":13397,"åľ¨2019å¹´":13398,"åľ¨2017å¹´":13399,"å¥¢":13400,"æĹ¶è£ħ":13401,"æ²¾":13402,"æµĬ":13403,"è½¿":13404,"åĪĨä¼ļ":13405,"å¤ļç±³":13406,"åŃĲåŃĻ":13407,"åĽĽåĲį":13408,"è¿ĺå°Ĩ":13409,"ä¸ĸçķĮå¤§èµĽ":13410,"å¼ºè¡Į":13411,"å®Įé¢ľ":13412,"æİĴçĲĥ":13413,"ä¾¿ä¼ļ":13414,"æ¯ĴæĢ§":13415,"éĢĥèĦ±":13416,"ä¸ľåįĹæİ¥":13417,"çķªèĮĦ":13418,"çİ»åĪ©":13419,"åį°åľ°å®ī":13420,"æĽ¼åĵĪé¡¿":13421,"Twit":13422,"Ġä¸Ģä¸ª":13423,"çļĦç»Łæ²»":13424,"ä¸ĭå±ŀçļĦ":13425,"å¸Ĥçº§":13426,"éĩĮå°Ķ":13427,"æľĢéķ¿":13428,"äºĭçī©":13429,"è½¦åİĤ":13430,"123":13431,"çĽ´æµģ":13432,"èĳĹç§°":13433,"æ³¢å¾·":13434,"è¶³åĪ©":13435,"æķħå±ħ":13436,"æ·±æ°´":13437,"å°Ħæīĭ":13438,"åŁĥæĸ¯":13439,"å¼ĤæĢ§":13440,"èį·é©¬":13441,"è®¢è´Ń":13442,"èĨı":13443,"æī¬å·ŀ":13444,"èĹ¤åİŁ":13445,"ä¸ĩäººæ¬¡":13446,"çĲ¼æĸ¯":13447,"å¹½é»ĺ":13448,"ç°§":13449,"å·´æĭīåľŃ":13450,"Ð¸":13451,"çļĦèĢģ":13452,"è¡ŀ":13453,"å¤§çķ¥":13454,"æī³":13455,"åĴ¬":13456,"åĴĮæĶ¿æ²»":13457,"æĿ¥äºĨ":13458,"æĪĺçº¿":13459,"èĢħåľ¨":13460,"åħ³å¿ĥ":13461,"åĽĽåĳ¨":13462,"éľī":13463,"çĭĻ":13464,"æłĩçŃ¾":13465,"å¼Ģå§ĭåĲİ":13466,"åħīå¤į":13467,"è£ħæľī":13468,"ä»£è¡¨æĢ§":13469,"æĶ¿æ²»åįıåķĨä¼ļè®®":13470,"åī¯éĻ¢éķ¿":13471,"è¡ĹåºĦ":13472,"ä¸Ńå¤®æĶ¿åºľ":13473,"æī¿åıĹ":13474,"åħħå½ĵ":13475,"æī¾åĪ°äºĨ":13476,"éģ¿éļ¾":13477,"éĤªæģ¶":13478,"port":13479,"Ġæııè¿°":13480,"ä»ĸå·ŀ":13481,"2014":13482,"æŃ£å½ĵ":13483,"2022":13484,"ç¼ĸæĪĲ":13485,"åĪĽåĪĬ":13486,"å¾®åĪĨ":13487,"5æľĪ20æĹ¥":13488,"å¤ĸäº¤éĥ¨éķ¿":13489,"ç¼ĵè§£":13490,"åĲĲèķĥ":13491,"åı°é£İèŃ¦æĬ¥":13492,"Mac":13493,"Ġåħĥ":13494,"åľ¨æŁĲäºĽ":13495,"ä¸Ģç»Ħ":13496,"ä¼ļåĲĪ":13497,"ä½ľå®¢":13498,"åĪĨéĥ¨":13499,"å¤ļéĿ¢ä½ĵ":13500,"çŃīä»·":13501,"è·¯éĿ¢":13502,"åĽĽä½į":13503,"æ¼Ķç»İ":13504,"åĭ¿":13505,"åħ¬éĩĮå¤Ħ":13506,"å¨ģçī¹":13507,"çª¦":13508,"çħ½":13509,"è¿ªåįĹ":13510,"è½»åŀĭ":13511,"4æľĪ30æĹ¥":13512,"çļĦäººå£«":13513,"æįķèİ·":13514,"æĶ¶å½ķäºİ":13515,"12æľĪ25æĹ¥":13516,"6æľĪ28æĹ¥":13517,"çĶŁéķ¿åľ¨":13518,"ä¸¤å¹´åĲİ":13519,"ĠCl":13520,"ç¢°æĴŀ":13521,"çļĦåĴĮ":13522,"å¤§å°Ĩ":13523,"åĴĮåħ¶":13524,"å¤ļæĿ¡":13525,"åĪ©æ¯Ķäºļ":13526,"å°ĨæŃ¤":13527,"åľºé¦Ĩ":13528,"èĭ±èģĶéĤ¦":13529,"ç¾İåĽ½éĻĨåĨĽ":13530,"åıĤæĪĺ":13531,"å¸¸æķ°":13532,"çķĮéĿ¢":13533,"æº¢":13534,"ç¬¬ä¸Ģä»£":13535,"æĿİåħĭ":13536,"è¯Ħçº§":13537,"çĭ¬è£ģ":13538,"åıĳçİ°äºİ":13539,"èĴĤäºļ":13540,"æľºæŀĦçļĦ":13541,"åĪºæĿĢ":13542,"ãĤ¤":13543,"åıĭå¥½åŁİå¸Ĥ":13544,"vel":13545,"Ðµ":13546,"åħĸ":13547,"ä¸Ģæī¹":13548,"åĴĮæĹłçĹĩçĬ¶æĦŁæŁĵèĢħ":13549,"ä¸įçĶ¨":13550,"æ´¼":13551,"åħ¬æīĢ":13552,"å¼Ģæĭĵ":13553,"åı¯æĥľ":13554,"å°ıæıĲçĲ´":13555,"éĩĳéĴŁ":13556,"äº§éĺ¶çº§":13557,"éĹ¨çļĦ":13558,"éĴĻ":13559,"èĮľ":13560,"çļĦä¸Ģåĳĺ":13561,"ä½ľä¸ºä¸Ģä¸ª":13562,"æķħä¹¡":13563,"æ³°ç½Ĺ":13564,"æł¸ç³ĸ":13565,"ä¸¾åĬŀäºĨ":13566,"æĪĴä¸¥":13567,"åįĵè¶Ĭ":13568,"åĽ½å®¶éĺŁåıĤåĬł":13569,"æŃ£ç¡®çļĦ":13570,"Microsof":13571,"åĲīéļĨåĿ¡":13572,"Ġéķ¿":13573,"æĺ¯å¥¥åľ°åĪ©":13574,"åľ°è¡¨":13575,"æ¸¤":13576,"æ³ķè¥¿æĸ¯":13577,"æ°ĳçĶŁ":13578,"åĽłåľ¨":13579,"ä¸īåı·":13580,"2015":13581,"ç§įç§į":13582,"é¦ĸéķ¿":13583,"äº¦æĽ¾":13584,"çļĦä¸Ģä¸ªåĮº":13585,"ä¼ĺå¼Ĥ":13586,"10æľĪ10æĹ¥":13587,"å®ĭä»£":13588,"éŁ¦ä¼¯":13589,"åºĶçĶ¨ç¨ĭå¼ı":13590,"æĬĺåıł":13591,"å®īè£ħåľ¨":13592,"å¤§è§Ħæ¨¡çļĦ":13593,"æŁ´æ²¹æľº":13594,"Ġ1937å¹´":13595,"è°¥åı·":13596,"æĮīå¯Łåı¸":13597,"ä¹Įåħ¹åĪ«åħĭ":13598,"(ãĢģ":13599,"2æľĪ1æĹ¥":13600,"ren":13601,"çļĦçºªå½ķ":13602,"çļĦé£İéĻ©":13603,"çĶĦ":13604,"çİº":13605,"ä¼ļä¸İ":13606,"çĶŁç´ł":13607,"å¹¶è¦ģæ±Ĥ":13608,"å¤ļçĵ¦":13609,"æīĢçŁ¥":13610,"ä½Ĩæľª":13611,"æ¯Ķèµ·":13612,"ç»ĵæĻ¶":13613,"å¸ĪçĶŁ":13614,"å®ĪåĨĽ":13615,"ç§ĢåĲī":13616,"ç»ĵæĿŁäºĨ":13617,"èµ¤éģĵ":13618,"ç¨İæĶ¶":13619,"irst":13620,"åı¥è¯Ŀ":13621,"çĽ¸ä¼¼çļĦ":13622,"æĸ¯èĴĤèĬ¬":13623,"ç°¿":13624,"ç¦ıå°Ķæĳ©":13625,"ç§ĳç½Ĺæĭīå¤ļ":13626,"èĥ°å²Ľç´ł":13627,"CĠ":13628,"OK":13629,"çļĤ":13630,"æłĪ":13631,"ä¸įå½ĵ":13632,"å¾·å·ŀ":13633,"å±ŀçī©ç§į":13634,"æİ¥çĿĢ":13635,"åħĥä»¶":13636,"æ¸¯å²Ľ":13637,"ç»ĵå°¾":13638,"alk":13639,"ç¬¬åĽĽæ¬¡":13640,"ç¬ĶåĲį":13641,"å¤ıåŃ£å¥¥è¿Ĳä¼ļ":13642,"åİļåº¦":13643,"åĽ½åħ±åĨħæĪĺ":13644,"çŁ³åĻ¨æĹ¶ä»£":13645,"ä½¥äºĭ":13646,"çİĽæł¼ä¸½":13647,"è¾ľ":13648,"çĶŁèĤ²":13649,"å¤ļå¹´çļĦ":13650,"åīįæľŁ":13651,"ä¸īæĿ¡":13652,"ç¥ģ":13653,"ä¸¤èīĺ":13654,"åİ¿åĴĮ":13655,"åİŁä½ľ":13656,"å±ŀèĤīé£ŁæĢ§":13657,"åıĤåĨĽ":13658,"æĦıæĦ¿":13659,"çĻ»å±±":13660,"çĬ¶çļĦ":13661,"è´¥ç»Ļ":13662,"å½Ĵè¿ĺ":13663,"éº¦éĩĳ":13664,"illa":13665,"èİīä¸Ŀ":13666,"çĽ®æłĩæĺ¯":13667,"ĠPh":13668,"çļĦä»·æł¼":13669,"å¹´ä»ħ":13670,"åĩºåħ¥":13671,"åīįåİ»":13672,"è¯¥å»ºçŃĳ":13673,"åİĨæĹ¶":13674,"æĮĩåįĹ":13675,"æºī":13676,"æĻ®åĪ©":13677,"æ®µæĹ¶éĹ´":13678,"æĪıéĻ¢":13679,"ç¤¼åłĤ":13680,"å¸ĥèİ±æģ©":13681,"åĢ¾åĲĳäºİ":13682,"ĠHe":13683,"Ġpro":13684,"Ġå¤ĸ":13685,"ä¸ºçķĮ":13686,"ä¸ŃçļĦä¸Ģä¸ª":13687,"åŃ¦è¯´":13688,"æ¸£":13689,"è¢«ä¿ĺ":13690,"ç¾İé£Ł":13691,"è½¦è·¯":13692,"åħ¨èº«":13693,"æ¸¸çİ©":13694,"å¹³æĸ¹èĭ±éĩĮ":13695,"ä¸»è¦ģä»¥":13696,"èĩ´æķ¬":13697,"æľŁéĹ´çļĦ":13698,"æ¸©æļĸ":13699,"çĽĳæİ§":13700,"è½»æĿ¾":13701,"7æľĪ7æĹ¥":13702,"éĢĥå¾Ģ":13703,"è¡°èĲ½":13704,"æĭ¼éŁ³":13705,"ensis":13706,",(":13707,"AI":13708,"çļĦå±ħæ°ĳ":13709,"æĺ¯ä¸ĸçķĮä¸Ĭ":13710,"ä¹ĭæĹħ":13711,"å¹¶æĬĬ":13712,"èĢĮå·²":13713,"è¯¥é¡¹çĽ®":13714,"åºľçŁ¥åºľ":13715,"éĺ¿åĭĴ":13716,"ä»İä¸Ń":13717,"æ¶©":13718,"æ¢Ĺ":13719,"æīĵåĩº":13720,"åįĥå¹´":13721,"çĮ¿":13722,"åħ¬å¸ĥçļĦ":13723,"å¹¿æĴŃçĶµè§Ĩ":13724,"ä¸īåįģåĽĽå¹´":13725,"åĩ¡å°Ķ":13726,"çİĩä¸º0":13727,"ç¥ŀåľ£ç½Ĺé©¬å¸ĿåĽ½":13728,"èĶ¬èıľ":13729,"He":13730,"çļĦè®°è½½":13731,"çļĦæĢģåº¦":13732,"åľ¨éŁ©åĽ½":13733,"ä¸Ĭè¡Į":13734,"å®¶éķ¿":13735,"èĢĮåĩº":13736,"åįķçº¯":13737,"éĽĨæĪĲ":13738,"å¥¥å¼Ĺ":13739,"è§£æŀĲ":13740,"ç¦»èģĮ":13741,"çłĶç©¶å®¤":13742,"ç¦ıåħĭæĸ¯":13743,"æīĺåĭĴ":13744,"é¢ĦèµĽ":13745,"å»¶æľŁ":13746,"çļ®åŁĥå°Ķ":13747,"ream":13748,"è¯ĳåĲį":13749,"å¥³æĢ§ä¸º":13750,"ott":13751,"able":13752,"è¹Ħ":13753,"ç«ŀæĬĢåľº":13754,"å½Ĵç±»ä¸º":13755,"ç§įåĬłè¯į":13756,"Me":13757,"PG":13758,"ãĦ":13759,"ä¸Ńæĸ¹":13760,"ä¹ĭäºº":13761,"è¥¿æ±ī":13762,"ä¸ĭè®®éĻ¢":13763,"éĩĮå¸Į":13764,"æĸĩæĸ¯":13765,"è¯¥å¤Ħ":13766,"ç±»æ¡Īä»¶":13767,"åı¯ä»¥è¿½æº¯åĪ°":13768,"æ¸ħéĻ¤":13769,"è¿ŀéĶģ":13770,"è®¤ä¸ºè¿Ļ":13771,"ä¿®ç¼®":13772,"çļĦä¸Ģä¸ªåİ¿":13773,"ç¾¤çļĦ":13774,"å©¿":13775,"æĺ¯ä¸ĢæīĢ":13776,"11æľĪ11æĹ¥":13777,"ç»§æī¿äºĨ":13778,"åıĹæ¬¢è¿İçļĦ":13779,"!!":13780,"ĠéĻ¤":13781,"Ġä¹ĭåĲİ":13782,"åĴĮæĸĩåĮĸ":13783,"å¸Ĥäººæ°ĳæĶ¿åºľ":13784,"èµĽä¼ļ":13785,"ç¦½":13786,"åĽĽå¼º":13787,"åı²éĥ½":13788,"æĽ´å¥½çļĦ":13789,"ä¸ĩèĭ±éķĳ":13790,"ana":13791,"ç»Ńçº¦":13792,"å¼ºå¥¸":13793,"è§Ħå¾ĭ":13794,"ä¿®æĸ¯":13795,"è§ģçļĦ":13796,"çĶµå½±ä¸Ń":13797,"ä¿Ħæ¯Ķäºļ":13798,"å¾Īåı¯èĥ½":13799,"ata":13800,"å¾ģæĶ¶":13801,"éŁ©æ°ĳåĽ½":13802,"çī¹åĪ«æĺ¯åľ¨":13803,"ç©Ĩå°Ķ":13804,"å¥īå¤©":13805,"äºİ1991å¹´":13806,"æĬ¢åĬ«":13807,"è®²è¿°äºĨ":13808,"æĳ©æīĺè½¦":13809,"åŁĥå¡ŀä¿Ħæ¯Ķäºļ":13810,"%ãĢģ":13811,"60å¹´ä»£":13812,"çļĦæ¼Ķåĩº":13813,"åĩºåİ»":13814,"åĪĨåıĳ":13815,"ä¸ĭè®¾":13816,"å¯¹æµģ":13817,"å¼Ģå¾Ģ":13818,"ç¾İçļĦ":13819,"äºļä¼¯":13820,"ä¸¤å®¶":13821,"åºĶæĢ¥":13822,"åıĺä½ĵ":13823,"çĻ½åŀ©":13824,"æĦŁåħ´è¶£":13825,"æ°ıçļĦ":13826,"éŁ³ä¹Ĳåī§":13827,"åº·å¥Īå°Ķ":13828,"åºĦæĿĳ":13829,"è½»è½¨":13830,"äºĮåįģä¸īå¹´":13831,"280":13832,"è°Īè¯Ŀ":13833,"ĠWorld":13834,"å¾Ĺç¥¨çİĩ":13835,"å¥¥åħĭè¥¿å¡Ķå°¼å¤§åĮº":13836,"8åħ¬éĩĮ":13837,"que":13838,"çļĦæĸĩåĮĸ":13839,"äººåıĹä¼¤":13840,"æ³Ĺ":13841,"åĬ¨çļĦ":13842,"éĩĮå£«":13843,"åĬłè£ħ":13844,"æľĢå¥½":13845,"æįį":13846,"éĺ¿åħĭ":13847,"è¿ĳåį«":13848,"ä»¶äºĭ":13849,"å®¢åľº":13850,"æ¦ķ":13851,"ç²¾éĢī":13852,"è¶³çĲĥåįıä¼ļ":13853,"åĩ¯çī¹":13854,"1898å¹´":13855,"ç»¼åĲĪæĢ§":13856,"åı²èĴĤèĬ¬":13857,"äºļåĪ©æ¡ĳ":13858,"å¹¿è¥¿å£®æĹıèĩªæ²»åĮº":13859,"OW":13860,"RNA":13861,"SD":13862,"æĺ¯ä¸İ":13863,"å¤§éĥ½ä¼ļ":13864,"åĲİåĨį":13865,"âĢ»":13866,"ä½įç´ł":13867,"æĸ°æķĻ":13868,"é«ĺåİĭ":13869,"å¾Ĺå¥ĸ":13870,"æĭīèĦ±ç»´äºļ":13871,"é¡½":13872,"ä½Ĩä¹Łæľī":13873,"èĭ±ä¹Ŀ":13874,"æŀĹä¸Ń":13875,"çĽ´çº¿":13876,"åķĨä¼ļ":13877,"å¤±è¯¯":13878,"æĻ¯åĮº":13879,"ç¤¼çī©":13880,"æķ£æĸĩ":13881,"ä¸ĢèĪ¬çļĦ":13882,"æļĤæĹł":13883,"åŃĶæ³°":13884,"è·¨æĢ§åĪ«":13885,"åĽ°å¢ĥ":13886,"çļĦçī¹æĢ§":13887,"è§Ĥå¯ŁåĪ°":13888,"å¡ĳéĢł":13889,"æ°¨åŁº":13890,"éĹ¯åħ¥":13891,"é¡¿æ¶ħèĮ¨åħĭ":13892,"3åı·çº¿":13893,"çļĦæĢ§":13894,"çļĦçŁ³":13895,"éĥĿ":13896,"åħ¬åŃĲ":13897,"ç¬¬14":13898,"ç¾ģ":13899,"èĩ³4":13900,"åįģä½Ļ":13901,"åįİå·ŀ":13902,"å¸¸çĶ¨çļĦ":13903,"çģ«çĦ°":13904,"ä½İåľ°":13905,"æĢ»ç»ŁéĢīä¸¾":13906,"åĪĨåĪ«åľ¨":13907,"çĶŁäº§æĢ»åĢ¼":13908,"æĭĽçĶŁ":13909,"åĽ°æī°":13910,"æĭĴç»ĿäºĨ":13911,"æĮĳéĢī":13912,"æłĩå¿ĹçĿĢ":13913,"å½»æĸ¯çī¹":13914,"æĬ½è±¡":13915,"æĬ«éľ²":13916,"æĶ¹å»ºä¸º":13917,"ble":13918,"net":13919,"ual":13920,"Ġç§ĳ":13921,"ä¸İåĲĮ":13922,"è½¦æ¬¡":13923,"ä¸¤åº¦":13924,"å½±éĽĨ":13925,"éĩıäº§":13926,"å¥¥å¸ĥ":13927,"æł¡æĸ¹":13928,"åĪ«äºº":13929,"æĳ¸":13930,"å¸Įä¼¯":13931,"åī¯æķĻæİĪ":13932,"æĶ»è¯»":13933,"ä»įæľª":13934,"é¢Ħè¨Ģ":13935,"ç¥ĸåĽ½":13936,"é¦ĸæ¬¡åľ¨":13937,"éªĳå¸Ī":13938,"èŃ¦å¯Łå±Ģ":13939,"åĪĽç«ĭäºĨ":13940,"å¿½çķ¥":13941,"åıĪåĲįBD":13942,"ä¸»æīĵæŃĮ":13943,"BR":13944,"Ġèĭı":13945,"Ġ100":13946,"æĹ¥åľĨ":13947,"çĶŁæ®ĸ":13948,"ä½Ĩä»ĸä»¬":13949,"ä½¿é¦Ĩ":13950,"ç§ĳç»´å¥ĩ":13951,"åįİä¸Ń":13952,"è§Ĩéĩİ":13953,"æĥħäºº":13954,"èĻĶ":13955,"æ¸ħæľ«":13956,"åľŁæľ¨":13957,"åŃĻæĿĥ":13958,"åĲĪå¹¶èĢĮæĪĲ":13959,"ose":13960,"å¡«è¯į":13961,"éªĳå£«åĽ¢":13962,"ä½įäºİè¯¥åĽ½åĮĹéĥ¨":13963,"åĵĪå¸ĥæĸ¯åł¡":13964,"Ġå½ĵæĹ¶":13965,"ä¸ºformula":13966,"æľīæĿĥ":13967,"ä¸ľæŃ£":13968,"ä¸ľåį°åº¦":13969,"2011":13970,"èĲį":13971,"åŁºéĥ¨":13972,"çº¦5":13973,"çº¦æĹ¦":13974,"æĪĸè®¸":13975,"æŀ¶é£ŀæľº":13976,"æĿ¯åĨłåĨĽ":13977,"åºĶçĶ¨ç¨ĭåºı":13978,"ime":13979,"åİŁæľ¬çļĦ":13980,"å±ķç¤ºäºĨ":13981,"åŃ¤ç«ĭ":13982,"ä¸ĳéĹ»":13983,"å¼ĹæĭīåŁº":13984,"2æĹ¶":13985,"LL":13986,"M1":13987,"bit":13988,"Ġæ±ī":13989,"Ġ25":13990,"ĠæĿ¨":13991,"åľ¨å¤ĸ":13992,"ä¸Ńåı¶":13993,"åĴĮä¸ī":13994,"20ä¸ª":13995,"ä¸įåŃĺåľ¨":13996,"æŀ¯":13997,"æ¸Ń":13998,"å¼Ģæŀª":13999,"å¹³æĹ¥":14000,"æİ¥ç§į":14001,"åĮħè£¹":14002,"åı¤ç½Ĺé©¬":14003,"ç¼ĸè¯ĳ":14004,"æ³ķåĽ½çļĦ":14005,"å¤±åĪ©":14006,"å¤±æľĽ":14007,"isĠ":14008,"åıĳè¡¨å£°æĺİ":14009,"è¥¿éĥ¨çļĦ":14010,"è¿Ļæĺ¯åĽłä¸º":14011,"å¯¹åºĶçļĦ":14012,"æł¼é²ģåĲīäºļ":14013,"Linux":14014,"èĦĬæ¤İåĬ¨çī©":14015,"-,":14016,"5åĲį":14017,"ĠçłĶç©¶":14018,"Ġä»ĸçļĦ":14019,"åį¤":14020,"å¤§åĲį":14021,"æķĻåıĭ":14022,"çģ¶":14023,"åįķè¡Į":14024,"çīĩçļĦ":14025,"ä»½åŃĲ":14026,"ara":14027,"èĩªå·±æĺ¯":14028,"éĻĪåĪĹ":14029,"æĤ¨":14030,"æīįæĺ¯":14031,"æ°ıæĹı":14032,"æ£Ģè®¨":14033,"éĶ¦èµĽ":14034,"çī§åľº":14035,"å½¼å¾Ĺåł¡":14036,"åį¯ç§ĳ":14037,"SL":14038,"ng":14039,"Ġä¸ĸçķĮ":14040,"Ġäºĭä»¶":14041,"åĴĮåįĹ":14042,"ãĢĭ;":14043,"èģĭ":14044,"åĬłçļĦ":14045,"å¾Ĺå¤ļ":14046,"åħ¥è¯»":14047,"ç«ĭéĿ¢":14048,"é¦ĸåĳ¨":14049,"éĶĮ":14050,"å°±å¼Ģå§ĭ":14051,"åį¡æ´Ľ":14052,"ä¼łåĩº":14053,"æĶ¿æ²»å§Ķåĳĺ":14054,"çĽĽè¡Į":14055,"ç¼ºå¸Ń":14056,"éĵľéĶ£":14057,"èĭĹæłĹ":14058,"9æľĪ29æĹ¥":14059,"uper":14060,"åıįæĺłäºĨ":14061,"å¥¥æĸ¯æĽ¼å¸ĿåĽ½":14062,"åħļç»Ħä¹¦è®°":14063,"2ä¸ĩ":14064,"MO":14065,"ä¸įå¤§":14066,"æµ·æĪĺ":14067,"å°Ĩè¿ĳ":14068,"å±±ç«Ļ":14069,"ç§ĳå¤ļå°Ķ":14070,"å¼ıå»ºçŃĳ":14071,"éĥ½ç»Ł":14072,"æĽ¾å¤ļæ¬¡":14073,"æ¸¸ä¹Ĳ":14074,"æĶ¶çĽĬ":14075,"åº§æ¤ħ":14076,"æĬķè¯ī":14077,"åĬ©æīĭ":14078,"å¡ŀçī¹":14079,"çĻ¾å¼º":14080,"ç¤¾ä¼ļç§ĳåŃ¦":14081,"çķĻå®Ī":14082,"æĪĲåĳĺçļĦ":14083,"å·¡è§Ĩ":14084,"ç¨ĭåº¦çļĦ":14085,"4æľĪ28æĹ¥":14086,"ð«ļ":14087,"5æľĪ15æĹ¥":14088,"Ġä½ľåĵģ":14089,"æ³ķåħ¸":14090,"èĢĮåıĹåĪ°":14091,"çī¹ç½Ĺ":14092,"å¤ļåªĴä½ĵ":14093,"æĸĩåĩŃ":14094,"å°±å·²":14095,"æĶ¯éħį":14096,"è½¬åıĺä¸º":14097,"åĽ´æ£ĭ":14098,"åħ´å¥ĭ":14099,"è´¹åĪ©":14100,"çľĭåı°":14101,"å½Ĵåħ¥":14102,"roid":14103,"ret":14104,"èĪ¬çļĦ":14105,"éĴŁæ¥¼":14106,"çļĦåľ°ä¸ĭ":14107,"äºİ1993å¹´":14108,"app":14109,"çªĹæĪ·":14110,"çİĩé¢ĨçļĦ":14111,"ç¯®çĲĥè¿ĲåĬ¨åĳĺ":14112,"å¼ĹæľĹä»Ģ":14113,"Ġ1984å¹´":14114,"æĺĶæĹ¥":14115,"åĬłé¾Ļçľģ":14116,"1æĹ¥å¹³åĿĩ":14117,"éĺ¿åįľæĿľ":14118,"230":14119,"3åħ¬éĩĮ":14120,"åľ¨åľº":14121,"ä¸ŃæŃ¢":14122,"åĪĨéļĶ":14123,"ç¾ļ":14124,"å¼ĢåĽ½":14125,"æīĢç¤º":14126,"çĲĥè¡£":14127,"ä¸¤ç«¯":14128,"éĤ¯":14129,"å±ŀåĲį":14130,"æ¼ĶæĬĢ":14131,"åĲĳåħ¬ä¼Ĺ":14132,"åıĹéĤĢ":14133,"å¹¿å¤§":14134,"åıĸæĻ¯":14135,"ä¸ĵçº¿":14136,"æİ¨ä¸¾":14137,"ä¼¯æĺİ":14138,"æĶ»ä¸ĭ":14139,"ä¾§éĿ¢":14140,"æ²¿éĢĶ":14141,"æŃĮæĽ²çļĦ":14142,"æīĵåĩ»çİĩ":14143,"éĢĨè½¬":14144,"æº¶äºİ":14145,"éŃģåĮĹ":14146,"ç¤¾äº¤åªĴä½ĵ":14147,"æĨ¾":14148,"0Ġ":14149,"ail":14150,"oon":14151,"çļĦå¹³åĿĩ":14152,"æĺ¯èĩª":14153,"æ³ķåŃ¦éĻ¢":14154,"å¸Ĥè®®ä¼ļ":14155,"å¯¹ä¸ŃåĽ½":14156,"é«ĺæ¸©":14157,"æĦī":14158,"åħ¨åĬĽ":14159,"åİ¿åĲį":14160,"ç²Ł":14161,"ç¬¬äºĮåĲį":14162,"å±ĤéĿ¢":14163,"èŃ¦å¤ĩ":14164,"ator":14165,"ä¾Ŀæ¬¡":14166,"èĴĤæĸ¯":14167,"æĸ¹éĿ¢åĨĽ":14168,"è§Ĵèī²æī®æ¼Ķ":14169,"è´µçļĦ":14170,"usĠ":14171,"çıįå¦®":14172,"æ°ĶåĢĻåıĺåĮĸ":14173,"ä½įäºİè¯¥åĽ½ä¸ľåįĹéĥ¨":14174,"æİ¢éĻ©éĺŁ":14175,"æĮīå¯Łä½¿":14176,"8Ġ":14177,"Rob":14178,"lan":14179,"pan":14180,"«çĹ":14181,"ĠåĽĽ":14182,"æĺ¯çĶ¨":14183,"å¤§åľ°":14184,"åĴĮåĽ½å®¶":14185,"å¹¶åĪĹ":14186,"åĨħå°Ķ":14187,"æķĻå®¤":14188,"éĶ¤":14189,"å¼Ģå§ĭè¿Ľè¡Į":14190,"èıĩ":14191,"å±Ĥæ¬¡":14192,"æĿĢäºĨ":14193,"ç®¡çĲĨå§Ķåĳĺä¼ļ":14194,"åĲİæĿ¥æĪĲä¸º":14195,"ition":14196,"ä¸½çļĦ":14197,"æŀªåĩ»":14198,"äº¤éĢļéĥ¨":14199,"èģļåĲĪçī©":14200,"ç¼ºå°ĳ":14201,"åĨ¬å¤©":14202,"éĺ´æĢ§":14203,"çļĦåĲĮåĲį":14204,"Ġstyle":14205,"åĽ½å®īæ³ķ":14206,";\"":14207,"çļĦé£İ":14208,"çļĦè§Ħå®ļ":14209,"åħĢ":14210,"åľ¨ä¸ĢäºĽ":14211,"ä¸Ģåı°":14212,"äºĨå¤§éĩı":14213,"è¢«ç§°ä½ľ":14214,"æĻĥ":14215,"çī©ä»¶":14216,"ä¸ĸä¿Ĺ":14217,"å¤ĸä¾§":14218,"åįİè£Ķ":14219,"å·´æ¯Ķ":14220,"æĹłåĬĽ":14221,"åĵĪå¯Ĩ":14222,"å¡Ķæĸ¯":14223,"arm":14224,"åŃĺæ´»":14225,"ict":14226,"åĩºçİ°äºİ":14227,"èĥĮåıĽ":14228,"7æľĪ20æĹ¥":14229,"æĬµå¾¡":14230,"èĳ¬ç¤¼":14231,"çŁ¥åĲįåº¦":14232,"çĭĻåĩ»":14233,"Ġè¿Ļç§į":14234,"ĠYou":14235,"ä¸ŃåįĹéĥ¨":14236,"çĶŁæ¯į":14237,"ä¸ľéĿ¢":14238,"éģĵåħ·":14239,"è·¯æĸ¯":14240,"æ°´æŀľ":14241,"åĪĻæĺ¯åľ¨":14242,"åį¡è½¦":14243,"å¸¦åĽŀ":14244,"è§£åīĸ":14245,"å¡Ķåħĭ":14246,"åįĥåı¶":14247,"æ¢ħåĪ©":14248,"æĻļä¼ļ":14249,"æ¦Ĥè¦ģ":14250,"æķ°éĩıçļĦ":14251,"å¹³åı°ä¸Ĭ":14252,"æĵįä½ľç³»ç»Ł":14253,"åįĴäºİ":14254,"æİ¢æµĭåĻ¨":14255,"Vi":14256,"çļĦè½¦ç«Ļ":14257,"åľ¨æµ·":14258,"åľ¨2006å¹´":14259,"ä¸Ńåħ´":14260,"è¡ĮæĢ§":14261,"åĩºåĬ¨":14262,"æĭīå¤«":14263,"åħ±çĶ¨":14264,"é£ĺ":14265,"ç½ĹæĽ¼":14266,"åºĶä»ĺ":14267,"äº¦ç§°":14268,"å±ŀçļĦåĬ¨çī©":14269,"æłĸæģ¯äºİ":14270,"ç²¾ç¥ŀçĹħ":14271,"ç¯®æĿ¿":14272,"æĬķåħ¥æľįåĬ¡":14273,"é©¬åħĭè¥¿":14274,"å±Ĭåħ¨åĽ½äººå¤§ä»£è¡¨":14275,"çļĦéĩįè¦ģæĢ§":14276,"çģĮæºī":14277,"æ»¡æ´²åĽ½":14278,"éĩİçĶŁåĬ¨çī©":14279,"å°¼æĹ¥åĪ©äºļ":14280,")ãĢĭ":14281,"çļĦçĶŁäº§":14282,"ä¸Ģé¦ĸ":14283,"æĺ¯å½ĵæĹ¶":14284,"ä»¥èĩ´":14285,"æĹ¶æīĢ":14286,"èĢĮåħ¶":14287,"è¿Ļä»½":14288,"ä»£ä»·":14289,"å¦¾":14290,"å¤©æ°´":14291,"æ¯ĶåĪ©äºļ":14292,"æ£µ":14293,"åį¡æĻ®":14294,"éĹ¨ç¥¨":14295,"ç¼ĸä¸º":14296,"ç¬¬äºĮä»£":14297,")ãĢģ(":14298,"é¢ĦçķĻ":14299,"åħ¼èģĮ":14300,"éģĩä¸Ĭ":14301,"çĴ§":14302,"åĤ¨å¤ĩ":14303,"è´«ç©·":14304,"éĻªåĲĮ":14305,"å¥łåŁº":14306,"è¯ģåĪ¸äº¤æĺĵæīĢ":14307,"æ¤ŃåľĨ":14308,"Br":14309,"GN":14310,"Hz":14311,"Ã³":14312,"ĠåĲİç»Ń":14313,"ä¸Ģå®ļçļĦ":14314,"ä¸Ńå±Ĥ":14315,"åĴĮè°Ĳ":14316,"ä¼ļå¯¹":14317,"éķ¿è½´":14318,"è¿Ļå¯¹":14319,"æĸĩæ¡£":14320,"èĪµ":14321,"åı°åĲİ":14322,"è¡¨åĨ³":14323,"ä½Ĩè¯¥":14324,"åŁİå·´":14325,"æĮĩåĲĳ":14326,"æ°Ķæ°Ľ":14327,"è®©ä»ĸä»¬":14328,"åºĨåħ¸":14329,"æ²¹çĶ»":14330,"é¡ºä½į":14331,"7æľĪ31æĹ¥":14332,"åĪļåĪļ":14333,"è¥¿åĮĹæİ¥":14334,"ç¨³å®ļæĢ§":14335,"æĬ½çŃ¾":14336,"éĽĩåĳĺ":14337,"è¥¿èĹıèĩªæ²»åĮº":14338,"ç¡«éħ¸":14339,"\"ãĢģ":14340,"çļĦè¯Ħä»·":14341,"çļĦæĿĳèĲ½":14342,"åįĹç«Ļ":14343,"åĮĹèĩ³":14344,"æ²»æīĢåľ¨":14345,"åĲĦæĸ¹":14346,"çīĩå°¾":14347,"å¨ģåĬĽ":14348,"å½ķåıĸ":14349,"çĭ¬å®¶":14350,"åĺīåħ´":14351,"æĢ»ç»Łåºľ":14352,"éļıåĲİåľ¨":14353,"åĨĮå°ģ":14354,"èģĶåĲĪåĽ½æķĻç§ĳæĸĩ":14355,"éĢĢå½¹åĲİ":14356,"äºĮæ°§åĮĸç¢³":14357,"El":14358,"Ġå¸ĥ":14359,"Ġåį°åº¦":14360,"åĴĮèĭ±åĽ½":14361,"åľ°çĭ±":14362,"å¤ļéĥ¨":14363,"å¤ļå°ĳ":14364,"å½ĵäºĭ":14365,"éĩĳçļĦ":14366,"æ¸¯åºľ":14367,"æ±īåı£":14368,"çĶ°çº³è¥¿":14369,"æł¹æį®åľ°":14370,"çľŁçĲĨ":14371,"å¯Įè£ķ":14372,"åĽłä¸ºä»ĸ":14373,"åį´åľ¨":14374,"ç¼ºçĤ¹":14375,"é©¬æĿ¥äºļ":14376,"ä»·åĢ¼çļĦ":14377,"æŀ¢å¯Ĩ":14378,"åĽļç¦ģ":14379,"äºļé©¬éĢĬ":14380,"7åħ¬éĩĮ":14381,"Ġç±³":14382,"Ġç»ıè¿ĩ":14383,"åĲİä¾¿":14384,"çĲµ":14385,"åįĹæľĿ":14386,
[...]
