#version: 0.2
n g
h Ã
Ã ł
Ä ģ
Ã ¬
Ã ¡
Ä «
Ã ¨
Ç İ
Ġ Ġ
Ã ©
Ã Ń
s hÃ
Ã ¹
Ã¡ n
z h
Ç Ĳ
Å į
j i
d e
Ãł n
Ä ĵ
z hÃ
s h
Ä Ľ
Ã ³
Ç Ķ
x i
Ã ²
Ã º
Äģ n
ĠĠ Ġ
Ãł i
Å «
Åį ng
Ç Ĵ
ã Ģ
shÃ ¬
h u
Ã¨ i
g u
i Ã¡n
hÃ ©
Ãł o
Äģ ng
ÃŃ ng
y u
Çİ n
c h
n iÃ¡n
y Ä«
Çİ ng
Ã© n
ÇĴ u
Ã¬ ng
w Ã¨i
Çİ o
z Ãłi
ãĢ ģ
j Ä«
Äĵ ng
zh Åįng
x Ä«
b Ã¹
j Ã¬
Ãł ng
l i
zhÃ ¨
shÃ Ń
d Ã¬
gu Ã³
y Ãº
r Ã©n
Ã² ng
c hÃ
Äģ o
d u
c hÃ©
y ÇĲ
l Ã¬
Ã¡ ng
y Ã¬
u Ã²
Ã¡ i
zhÃ ¬
chÃ© ng
Ã© i
x u
g Åįng
j ÃŃ
² u
ÄĽ i
i Ãłn
Äĵ n
Ã³ ng
yu Ã¨
y ÇĴu
yu Ã¡n
d Ãł
q i
Åį u
l ÇĲ
2 0
Ã³ u
Äģ i
xi Ãłn
ji Äģ
s Ä«
Å« n
x ÃŃng
y ÇĶ
Ã¨ n
ÇĴ ng
ÃŃ n
t Äģ
r Ã¬
zh Ä«
hÃ ²u
Çİ i
g Ã¨
zhÃ ł
Ã© ng
l e
w Ã©i
hu Ã¬
d Ãło
1 9
b i
shÃ ł
q Ä«
q ÃŃ
shÃ ¨
s u
zhÃ¨ ng
m ÃŃng
ji Ãłn
xu Ã©
ch Å«
y Ã¹
ÄĽ ng
z uÃ²
sh Äĵng
du Ã¬
y Ã³u
q Å«
shÃł ng
ÄĽ n
d Ã©
l Ã¹
b Ã¨i
chÃ ¡
t i
sh ÇĲ
zhÃł n
zh ÇĶ
Äĵ i
q u
j Ã¹
xÄ« n
j Å«n
zh u
ÄĽ r
Ã¡ o
shÃ ¹
u Ã¬
r Ã¨n
f Äģ
w Ã¹
b Ã¬ng
k Ã¨
Ã© r
d Ãłi
y ÃŃ
jÃ¬ n
z Ã¬
yÄ« n
f Ã¹
f Äģng
jÄ« ng
n Ã¡n
hu Ãł
x Ã¬
zh Åįu
p ÃŃng
Ã² u
xi Ãł
l Ã¡i
y Ã²ng
sh u
gu Äģn
t Ã³ng
ãĢ ĭ
ãĢ Ĭ
f Çİ
zhÃ ¹
m ÄĽi
hÃ ¡
Â ·
ji Äģn
j ÇĲ
hu Ã²
d Ã¹
c hu
b ÄĽn
xi Äģng
zhÃ Ń
d Ã²ng
xi Ãłng
m ÃŃn
ji Äģng
f Äĵn
sh ÇĴu
qu Ã¡n
w Ã©n
y Ã¡n
hÃ ł
su ÇĴ
ji Ãło
q iÃ¡n
d iÃłn
t Ã¨
d i
du Åį
Ãº n
z uÃ¬
k Äģi
t u
ji Ã©
l iÃ¡n
zh ÇĲ
k ÄĽ
d Ãłn
m Ã¹
y Ã¨
f Ãº
m Çİ
y ÄĽ
d Åįng
qi Ãº
b ÄĽi
ãĢ Į
ãĢ į
g Äģo
y Ãł
q ÇĲ
ji Äĵ
m iÃłn
h Çİi
zh Çİng
sh Ä«
jÄ« n
c ÇĲ
l u
n Ã¨i
t ÇĲ
s Ãłi
s Äģn
t Ã¡i
g Ã©
x Ã¬ng
gu Ã²
r Ã¹
20 1
d ÄĽng
y Ãło
j u
ch Äĵ
c Ã¬
w ÇĶ
g Äģi
d Ã¬ng
chÃ¡ ng
bi Çİo
l Äģ
g Ã²ng
ji Ã¨
shÃ ²u
d Çİo
sh Äģn
ch Çİng
s Ã¬
b ÇĲ
z Ã©
t ÃŃ
k Äĵ
d Äģng
n Ã©ng
Ã¨ r
w Ãłi
d Äģn
x Ã¹
z i
k ÇĴu
xi Çİo
z ÇĶ
b Äģ
ju Ã©
l ÃŃn
li Ãº
sh ÄĽng
yÄ« ng
k u
l Ã¡n
lu Ã³
t Åįng
20 0
Ä« ng
² ng
m ÇĲ
zhÃ ²ng
e n
zh ÄĽ
sh ÇĶ
ti Äģn
zhÃ¨ n
Ç ļ
q Ã¬
zh ÇĴng
li Ã¨
ch Äĵng
sh Å«
yu Ãłn
b Çİo
t Ãłi
f ÇĶ
f Äĵng
g ÇĶ
qÄ« ng
sh Äĵn
w Ã¡ng
yÃ¹ n
gu Çİn
f Äĵi
ji Ã¹
li Çİng
c Ã©ng
m Ã©i
1 0
f Ã¨n
hÃł o
³ ng
y Çİn
w ÄĽi
z ÇĴng
xu Çİn
xi Ãło
d Ã¡
n Ãł
li Ãłng
b Åį
z Ãº
j Ã¬ng
b Ãło
n ÃŃ
w Ãº
t ÇĴng
hu Ã¡
ji Äģo
yu Äĵ
yÇĲ ng
b iÃłn
xÄ« ng
s Ã¹
shu ÇĲ
y Ã¡ng
hÃ ¹
m en
b Äģo
g Äĵ
b Ã³
c Äģn
c Ã³ng
di Çİn
b Ã¬
r Ãº
b Ãłn
bi Äģn
w Çİng
q ÇĶ
m i
ch Çİn
s Ã¨
z Ä«
chu Ã¡n
0 0
shÃ¨ ng
r Ã¡n
t Ãº
zh Äģng
p ÇĶ
g Çİi
g Çİng
n Çļ
l Ã¬ng
l uÃ²
y Ã²u
t Ã³u
c Ã¨
l Ç
chÃ Ń
1 8
lÇ ľ
qi Äģn
shÃ ©
l ÃŃ
d Åįu
p ÇĲ
1 2
zh Äĵng
n i
k uÃ²
sh Äģ
d Çİng
f Çİn
g Ã²u
l Ã¨i
x ÃŃ
jÇĲ ng
tu Ã¡n
w Äĵi
xi Äĵ
lÇĲ ng
l Ã³ng
gu Ä«
xi Äģn
r Ã³ng
hu Ã¡ng
xi Çİng
b Äģn
ji ÇĶ
y Ã¬ng
m Ã©n
sh Äģng
shÃ© n
20 2
b Çİn
k Çİ
m ÇĶ
jÇĲ n
f Å«
j ÇĶ
m Ã³
gu Çİng
c ÃŃ
shu Åį
q ÃŃng
zh Çİn
hÃ¡ i
zhu Äģng
m Ã²
c Ã¡i
d Ãº
1 1
pÇĲ n
t ÃŃng
chÃ¡ o
y ÃŃng
ti Ã¡o
ji Çİn
t Ã¡ng
hu ÃŃ
du Ãłn
chÃ© n
g Äĵn
m Ã¬
w Ãłn
p Ã¡i
w Äģn
z Ãło
hÃ¡ ng
w Ã¡n
bi Äģo
g Ã¹
l Ãºn
19 9
xi Ã©
ji Çİng
hÃł n
j Ãº
f Ãłn
f Ã¡ng
hu Ã³
hÃ¡ n
p i
k Åįng
o r
ti ÄĽ
m Ã©ng
bi Ã©
w Å«
ji ÄĽ
zhu Äģn
yÇĲ n
x Å«
zh Äĵn
d ÇĲ
e r
chÃ º
hÃ º
ji Ãł
b Ä«ng
m Ã¬ng
l ÃŃng
hÃ ³ng
qÄ« n
z ÇĲ
lÃ¹ n
xÃ¬ n
chÃ ¹
ch ÇĶ
s Å«
a n
xi Å«
z Åįng
1 5
qu Ã¨
xi Äģo
zhÃł o
qi Ã¡ng
q Ã¹
c Å«n
chÃ ³ng
p iÃłn
ji Å«
f Ãłng
su ÃŃ
sh Åįu
gÃ¨ ng
â Ģ
gu Äģng
Ã¨ ng
j Å«
o n
ji Çİ
chu Ãłng
d ÃŃ
1 6
zhu Çİn
gu ÇĴ
xÃ¹ n
m Ãłn
p Ãłi
f Ã¨i
p Ã¨i
19 8
d Çİ
tu Åį
l a
xu Äģn
b Ã¡i
zh Å«
d Å«
t ÇĶ
di Ãło
xi Ã¡
li Ã¹
1 7
su Ã¬
hu Ä«
t Ä«ng
qi ÄĽ
t Çİ
qi Ã¡o
h Äģ
g Çİn
z Äĵng
xi Çİn
m Ãłi
hu Ã¡n
x ÇĶ
w Çİ
tu Ä«
w Ã¨n
ch Äģo
t iÃ¡n
b Çİi
c Çİi
li Ã¡ng
y Ã¡
s Ãł
a r
b Ãłi
c Ãºn
ji Çİo
sh Çİo
y Ãłn
zhu Ãłng
hu ÇĴ
l Ã©i
1 4
z u
ji Ãłng
chu Äģn
yÃ¬ n
z Çİo
chÃ ł
y ÇĴng
s ÇĲ
d Äĵng
3 0
zhÇĶ n
l Ã¨
x Ãºn
n uÃ²
k Ã¹
hu Ãłn
s Ã²ng
g Ãło
l ÇĶ
1 3
19 4
b Äģng
l Çļ
p Ä«
y Ãłng
h ÄĽn
q Ãºn
zh ÄĽng
gu Ãłn
p Ã²
g Äģng
w ÇĴ
19 7
hu Äģ
l Äĵi
h Çİo
t Ã¡o
ku Ãłng
hÃ ¨
i n
dÃ¹ n
n Ã³ng
g ÄĽi
s Äģi
shu Äģng
li Ãłn
ku Ãłi
d Ä«
b Ä«
p Ãłn
xi ÄĽ
19 5
k Çİo
g Ãłi
h Äĵi
w Ãłng
li Ãło
r Ã¨
g e
zu ÇĴ
k Ã²ng
19 6
y Äģng
chÃł ng
y ÃŃn
³ u
r Ã©ng
s Äĵn
b Äĵi
l Ãº
pi Ãło
y Äģ
2 5
bÄ« n
âĢ Ķ
r Ãłng
ch Åįng
l Ã³u
b ÇĶ
l Çİo
zhÃ º
jÃ¹ n
y Çİng
r uÃ¬
y Äģo
xi Ã¡n
xi Ã¨
n iÃłn
f or
y Åįu
t Ã¡n
k Äģng
p ÃŃ
hÃ© ng
yÃº n
x ÇĲ
k Ãłn
n ÃŃng
li Ã¡o
shÃł o
b Ãº
2 4
qÇĲ ng
ch ÇĲ
m u
d Ã²u
mi Çİn
y Åįng
t Çİn
w Çİn
h Å«
f Äģn
a l
t Å«
g Äģn
su Ãłn
d Ä«ng
yu Çİn
w Äĵn
t uÃ¬
zh e
2 1
s t
xi Ã¹
b Çİ
m Çİn
19 3
2 3
mu la
k Ãłng
for mula
2 8
t h
m Ã¡o
r uÃ²
pi Äģn
chÃ ¨
m Ãło
l Çİng
q ÃŃn
b Ã¡
n Ã¡
z Ãłn
gu ÇĲ
gu Ã¬
o u
p ÃŃn
w Ã²
xi Ã³ng
shÃł n
r e
2 2
xi Åįng
m e
su Ä«
Ã ¼
2 6
sh ÄĽn
q Ã¬ng
mi Ã¡o
f Çİng
5 0
20 20
2 7
l Ã¡ng
r u
qi Å«
s Åįng
Ã¼ Ã¨
d Ãłng
g Äĵng
qi Äģng
r i
f Ã¡
z Äģo
f Ã¨ng
zhÃł ng
ï ¼
hÃ¡ o
d Å«n
z ÇĴu
hÃł i
qi Ã¨
2 9
t Ãłn
p Ãło
p Ãł
shÃ¹ n
p Ã©ng
xu Ã¡n
201 0
n ÇĲ
00 0
dÇĲ ng
ni ÇĶ
z Çİi
zh Äģo
zhu Ä«
l Ã¼Ã¨
ch Å«n
20 19
h Å«n
k ÇĴng
du Äģn
shÃ¨ n
xi Ã¡ng
du Çİn
g Ãłn
t e
r o
de Ġ
Ġ deĠ
shÃ¬ Ġ
Ġ shÃ¬Ġ
Ġ niÃ¡n
ĠniÃ¡n Ġ
wÃ¨i Ġ
zÃłi Ġ
Ġ wÃ¨iĠ
Ġ zÃłiĠ
hÃ© Ġ
Ġ hÃ©Ġ
zhÅįng Ġ
bÃ¹ Ġ
dÃ¬ Ġ
shÃŃ Ġ
guÃ³ Ġ
yÃº Ġ
rÃ©n Ġ
Ġ bÃ¹Ġ
yÄ« Ġ
Ġ zhÅįngĠ
lÃ¬ Ġ
zhÃ¬ Ġ
gÅįng Ġ
Ġ shÃŃĠ
yuÃ¨ Ġ
jÃŃ Ġ
chÃ©ng Ġ
yÃ¬ Ġ
yÇĴu Ġ
Ġ dÃ¬Ġ
Ġ yuÃ¨Ġ
Ġ yÃºĠ
Ġ rÃ©nĠ
Ġ zhÃ¬Ġ
dÃł Ġ
Ġ jÃŃĠ
yuÃ¡n Ġ
Ġ yÇĴuĠ
jÃ¬ Ġ
Ġ guÃ³Ġ
Ġ lÃ¬Ġ
Ġ gÅįngĠ
Ġ yÃ¬Ġ
Ġ yÇĲ
Ġ chÃ©ngĠ
jiÄģ Ġ
sÄ« Ġ
yÇĶ Ġ
Ġ xiÃłn
Ġ rÃ¬
Ġ yÄ«Ġ
Ġ xÃŃng
Ġ tÄģ
lÇĲ Ġ
jÄ« Ġ
Ġ dÃło
hÃ²u Ġ
wÃ©i Ġ
Ġ zhÄ«
Ġ dÃłĠ
Ġ yuÃ¡nĠ
xÄ« Ġ
ĠrÃ¬ Ġ
Ġ gÃ¨
ĠyÇĲ Ġ
xuÃ© Ġ
huÃ¬ Ġ
le Ġ
zuÃ² Ġ
Ġ yÇĶĠ
ĠdÃło Ġ
mÃŃng Ġ
Ġ jÃ¬Ġ
bÃ¨i Ġ
ĠxÃŃng Ġ
shÄĵng Ġ
Ġ jiÃłn
Ġ chÅ«
Ġ qÃŃ
Ġ sÄ«Ġ
Ġ dÃ©
zhÃ¨ng Ġ
ĠxiÃłn Ġ
Ġ hÃ²uĠ
Ġ jÄ«Ġ
duÃ¬ Ġ
shÃłng Ġ
qÅ« Ġ
shÇĲ Ġ
Ġ ÄĽr
Ġ jiÄģĠ
yÃ³u Ġ
ĠtÄģ Ġ
Ġ xÄ«Ġ
Ġ lÇĲĠ
Ġ Ã©r
zhÃłn Ġ
Ġ jÅ«n
Ġ bÃ¬ng
ĠzhÄ« Ġ
ĠgÃ¨ Ġ
zhÇĶ Ġ
rÃ¨n Ġ
fÃ¹ Ġ
zÃ¬ Ġ
wÃ¹ Ġ
xÄ«n Ġ
dÃłi Ġ
Äģn Ġ
jÃ¹ Ġ
pÃŃng Ġ
ĠchÅ« Ġ
Ġ kÃ¨
Ġ zhÅįu
xiÄģng Ġ
shÃ¹ Ġ
Ġ huÃ¬Ġ
nÃ¡n Ġ
Ġ shÃ¨
Ġ bÃ¨iĠ
Ġ mÃŃngĠ
xiÃł Ġ
guÄģn Ġ
ĠÄĽr Ġ
ĠdÃ© Ġ
lÃ¹ Ġ
yÃ¹ Ġ
huÃł Ġ
ĠjiÃłn Ġ
jÄ«ng Ġ
yÃ¡n Ġ
fÄģng Ġ
Ġ yÄ«n
kÄģi Ġ
jiÄģn Ġ
jiÃło Ġ
fÄģ Ġ
yÃ²ng Ġ
Ġ dÃłn
ĠÃ©r Ġ
zhÃ¹ Ġ
lÃ¡i Ġ
mÃŃn Ġ
shÇĴu Ġ
zhÃ¨ Ġ
xiÃłng Ġ
wÃ©n Ġ
ĠjÅ«n Ġ
xÃ¬ Ġ
qiÃ¡n Ġ
bÄĽn Ġ
tÃ¨ Ġ
Ġ wÃ©iĠ
zhÃŃ Ġ
fÇİ Ġ
qÄ« Ġ
jiÃ© Ġ
liÃ¡n Ġ
ĠbÃ¬ng Ġ
dÃ²ng Ġ
diÃłn Ġ
ĠqÃŃ Ġ
ĠkÃ¨ Ġ
dÅįng Ġ
mÃ¹ Ġ
Ġ jÃ¬n
Ġ duÃ¬Ġ
Ġ huÃ²
fÄĵn Ġ
tÃ¡i Ġ
Ġ zhÃłnĠ
zhÇİng Ġ
dÃ¹ Ġ
jiÄģng Ġ
Ġ qiÃº
gÄģo Ġ
yÃ¨ Ġ
bÄĽi Ġ
suÇĴ Ġ
shÄ« Ġ
ĠzhÅįu Ġ
Ġ pÃŃngĠ
Ġ leĠ
duÅį Ġ
jiÄĵ Ġ
gÃ© Ġ
Äģ Ġ
Ġ shÃłngĠ
jÄ«n Ġ
fÃº Ġ
Ġ zhÃ¨ngĠ
Ġ zuÃ²Ġ
Ġ yÃ³uĠ
kÇĴu Ġ
guÃ² Ġ
zhÇĲ Ġ
hÇİi Ġ
Ġ tÃ³ng
Ġ fÃ¹Ġ
Ġ rÃ¨nĠ
mÇİ Ġ
rÃ¹ Ġ
tÅįng Ġ
zuÃ¬ Ġ
Ãłn Ġ
quÃ¡n Ġ
cÇĲ Ġ
xÃ¬ng Ġ
Ġ xuÃ©Ġ
Ġ shÄĵngĠ
wÃłi Ġ
nÃ¨i Ġ
lÄģ Ġ
tÇĲ Ġ
juÃ© Ġ
kÄĽ Ġ
qÇĲ Ġ
shÄģn Ġ
tiÄģn Ġ
dÄĽng Ġ
chÇİng Ġ
zhÃ¨n Ġ
wÇĶ Ġ
chÃ¡ng Ġ
zi Ġ
yÃło Ġ
bÇĲ Ġ
Çİn Ġ
bÇİo Ġ
gÄģi Ġ
Ãło Ġ
mÇĲ Ġ
yÃł Ġ
miÃłn Ġ
cÃ¬ Ġ
ĠyÄ«n Ġ
n Ġ
shÃ²u Ġ
yÄĽ Ġ
jiÃ¨ Ġ
zhÃ²ng Ġ
yÃŃ Ġ
ĠshÃ¨ Ġ
fÄĵng Ġ
zhÇĴng Ġ
Ġ jÃ¹Ġ
liÃº Ġ
chÄĵ Ġ
yÃ¹n Ġ
Ġ zhÃ¨Ġ
lÃŃn Ġ
bÄģo Ġ
Ġ c
sÃłi Ġ
yÃŃ ĠgÃ¨Ġ
dÃ¬ng Ġ
shÄĵn Ġ
shÄĽng Ġ
luÃ³ Ġ
Ġ dÃłiĠ
ĠdÃłn Ġ
qÃ¬ Ġ
sÄģn Ġ
mÄĽi ĠguÃ³Ġ
nÃ©ng Ġ
xiÇİo Ġ
zÃ© Ġ
zhÄĽ Ġ
liÃ¨ Ġ
shÅ« Ġ
xuÇİn Ġ
sÃ¬ Ġ
qÄ«ng Ġ
ĠqiÃº Ġ
yuÃłn Ġ
jÃ¬ng Ġ
bÄģ Ġ
Ãłi Ġ
kÄĵ Ġ
wÃ¡ng Ġ
tÃłi Ġ
lÃ¡n Ġ
bÃło Ġ
Çİo Ġ
yÇĲng Ġ
zÇĴng Ġ
bÃ¬ Ġ
fÇĶ Ġ
ĠhuÃ² Ġ
dÇİo Ġ
gÇĶ Ġ
1 ĠniÃ¡nĠ
yÄ«ng Ġ
Ġ xÄ«nĠ
fÃ¨n Ġ
gÄĵ Ġ
5 ĠniÃ¡nĠ
1 Ġ
nÃŃ Ġ
xiÃło Ġ
Ġ xiÃłĠ
yuÄĵ Ġ
jiÄģo Ġ
2 ĠniÃ¡nĠ
Ã¨r Ġ
Ġ zÃ¬Ġ
4 ĠniÃ¡nĠ
zÄ« Ġ
shuÇĲ Ġ
hÃło Ġ
pÇĶ Ġ
8 ĠniÃ¡nĠ
dÄģn Ġ
nÃł Ġ
3 ĠniÃ¡nĠ
Ã© Ġ
biÇİo Ġ
liÃłng Ġ
Ġ mÇĲĠ
tÃ³u Ġ
chÄĵng Ġ
guÇİn Ġ
chuÃ¡n Ġ
sÃ¹ Ġ
wÃº Ġ
Ġ m
6 ĠniÃ¡nĠ
xÄ«ng Ġ
nÇļ Ġ
bÅį Ġ
rÃº Ġ
bÃ³ Ġ
yÇİn Ġ
tÃŃ Ġ
2 Ġ
fÄĵi Ġ
sÃ¨ Ġ
ĠzhÅįngĠ guÃ³Ġ
mÄĽi Ġ
dÃ¡ Ġ
ĠjÃ¬n Ġ
Ġ dÄģng
ĠwÃ¨iĠ yÃºĠ
Ġ zhÃ¹Ġ
cÃ©ng Ġ
chÇİn Ġ
7 ĠniÃ¡nĠ
wÇİng Ġ
biÃłn Ġ
tÃº Ġ
guÄ« Ġ
Ġ p
Ġ xiÄģngĠ
Ġ rÃ¡n
biÄģn Ġ
zhÄģng Ġ
yÃ¡ng Ġ
diÇİn Ġ
Ġ yÃ¹Ġ
gÇİi Ġ
cÃ³ng Ġ
huÃ¡ Ġ
jiÃ¹ Ġ
shÄģ Ġ
zÇĶ Ġ
shÃ¨ng Ġ
bÄģoĠ kuÃ²
jiÇİn Ġ
gÇİng Ġ
shÇĶ Ġ
lÇľ Ġ
zÃº Ġ
bÃłn Ġ
qÃŃng Ġ
jÇĲng Ġ
liÇİng Ġ
tÇĴng Ġ
gÃ²ng Ġ
Ġ bÄĽnĠ
shÄģng Ġ
hÃ¹ Ġ
lÃŃ Ġ
jÃ¬n Ġ
Ġ lÃ¹Ġ
tÃ³ng Ġ
luÃ² Ġ
0 ĠniÃ¡nĠ
xÃ¹ Ġ
chÃŃ Ġ
9 ĠniÃ¡nĠ
Ġ nÃ¡nĠ
5 Ġ
mÃ©i Ġ
bÄģn Ġ
guÇİng Ġ
3 Ġ
lÃ³ng Ġ
cÃ¨ Ġ
jÇĲn Ġ
chÅ« Ġ
shÃ©n Ġ
zhÄĵng Ġ
ĠtÄģĠ men
zhÄ« Ġ
lÇĲng Ġ
mÃ¬ Ġ
wÄĵi Ġ
yÃ²u Ġ
fÇİn Ġ
Ġ gÄģiĠ
tÃŃng Ġ
xÃŃ Ġ
chÃ¡ Ġ
kÇİ Ġ
huÃ³ Ġ
Ġ t
cÃ¡i Ġ
xiÇİng Ġ
shuÅį Ġ
mÃ©n Ġ
Äģi Ġ
cÃŃ Ġ
qÇĶ Ġ
jiÇİng Ġ
wÄĽi Ġ
mÇĶ Ġ
tuÃ¡n Ġ
lÃ¨i Ġ
t Ġ
Ã¨ Ġ
ĠgÅįngĠ lÇĲĠ
chÃ¡o Ġ
yÃ¡nĠ jiÅ«
jiÃłn Ġ
Ġ 200
Ġ l
yÃ¬ng Ġ
tÃ¡ng Ġ
pÇĲn Ġ
qÃŃ Ġ
xiÄĵ Ġ
chÃ©n Ġ
ĠyÇĲ ĠjÃŃĠ
jiÃł Ġ
yÇĲn Ġ
4 Ġ
Ġ duÅįĠ
shÇĲĠ yÃ²ngĠ
hÃ¡ng Ġ
Ġ zhÇĶĠ
Ġ s
rÃ³ng Ġ
pÃ¡i Ġ
jiÇĶ Ġ
yÇĲ Ġ
fÅ« Ġ
gÃ²u Ġ
lÃºn Ġ
Ġ yÃ³u
tÃ¡iĠ wÄģn
lÃ¬ng Ġ
ĠdeĠ dÃ¬Ġ
Äģng Ġ
dÇİng Ġ
kÄĽ ĠyÇĲĠ
huÃ¡ng Ġ
duÃłn Ġ
xÅ« Ġ
kÃ¨ Ġ
0 Ġ
xiÄģn Ġ
biÄģo Ġ
e ĠĠĠ
tiÃ¡o Ġ
ĠdeĠ yÄ«Ġ
kÄģiĠ shÇĲĠ
yÃŃng Ġ
xiÃłn Ġ
bÇİn Ġ
qiÄģn Ġ
ĠchÃ©ngĠ wÃ©iĠ
mÃ©i ĠyÇĴuĠ
Ġ 201
mÃ³ Ġ
hÃłn Ġ
Åįu Ġ
hÃ³ng Ġ
wÄĽi ĠyuÃ¡nĠ
xiÄģo Ġ
6 Ġ
lÃŃng Ġ
sÅ« Ġ
kÅįng Ġ
jÃº Ġ
ĠtÃ³ng Ġ
huÃŃ Ġ
mÃ©ng Ġ
yÄ«n Ġ
s Ġ
zhuÄģng Ġ
xÃŃng Ġ
cÅ«n Ġ
fÃ¡ng Ġ
rÃ©nĠ kÇĴuĠ
jiÄĽ Ġ
ĠqÃŃ ĠzhÅįngĠ
huÃ² Ġ
bÄģoĠkuÃ² Ġ
zhÇİn Ġ
ĠgÅįngĠ sÄ«Ġ
cÄģn Ġ
Ã¡ng Ġ
Äģo Ġ
ĠdeĠ shÃ¬Ġ
ĠĠĠ zÃłiĠ
dÅįu Ġ
Ãº Ġ
qiÃ¡ng Ġ
Ã³ Ġ
zhÃło Ġ
zhÃ¨ng ĠzhÃ¬Ġ
yÃŃ ĠgÃ¨
dÃº Ġ
Ã¡o Ġ
cÇİi Ġ
ĠĠĠ 201
fÇİ ĠguÃ³Ġ
bÄ«ng Ġ
mÃ² Ġ
ĠdÃłĠ xuÃ©Ġ
ĠshÃ¬Ġ yÄ«Ġ
xÃ¬n Ġ
ĠtÄģ ĠdeĠ
Å«n Ġ
qÄ«n Ġ
hÃ¡i Ġ
lÃ¹n Ġ
zÇĲ Ġ
chÃ¹ Ġ
zhÄĵn Ġ
wÃłn Ġ
wÃ¨n Ġ
Ġ gÄģoĠ
mÃłn Ġ
shÃ¨ Ġ
fÃłn Ġ
guÄģng Ġ
biÇİo ĠshÃ¬Ġ
jÅ« Ġ
xÃ¹n Ġ
zhÅįng ĠdeĠ
Åį Ġ
zhuÄģn Ġ
quÃ¨ Ġ
wÃ¡n Ġ
diÃło Ġ
zÅįng Ġ
zhuÇİn Ġ
diÃłn ĠshÃ¬Ġ
bÃ¡i Ġ
dÇİ Ġ
hÃº Ġ
ĠshÃ¬Ġ wÃ¨iĠ
yÃ¬n Ġ
fÃ¨i Ġ
shÃ¬ ĠdeĠ
mÃ¬ng Ġ
jÇĶ Ġ
8 Ġ
piÃłn Ġ
hÃ¡n Ġ
tuÅį Ġ
ÄĽn Ġ
Ãł Ġ
7 Ġ
gÃ¹ Ġ
zÃło Ġ
dÄģng Ġ
xiÅ« Ġ
s ĠĠĠ
ĠbÃ¹Ġ fÃ¨nĠ
ĠrÃ©nĠ kÇĴuĠ
guÇĴ Ġ
xiÃ© Ġ
tÄģ Ġ
ĠhÃ©Ġ guÃ³Ġ
zhÅįngĠ guÃ³Ġ
10 ĠyuÃ¨Ġ
Ġ ã
12 ĠyuÃ¨Ġ
7 ĠyuÃ¨Ġ
Äĵ Ġ
Ġ dÅįngĠ
9 ĠyuÃ¨Ġ
Ġ mÃ¹Ġ
wÅ« Ġ
miÃłn ĠjÄ«Ġ
ĠrÃ©nĠ mÃŃnĠ
8 ĠyuÃ¨Ġ
xÃºn Ġ
Ġ zuÃ¬
ĠdÃ¬Ġ qÅ«Ġ
huÃ¡n Ġ
Ã²u Ġ
dÃŃ Ġ
3 ĠyuÃ¨Ġ
zhÅ« Ġ
jiÇİ Ġ
1 ĠyuÃ¨Ġ
Ġ 19
dÅ« Ġ
xiÃ¡ Ġ
Ġ jÄ«nĠ
tÄ«ng Ġ
e Ġ
Ġ yÄĽĠ
5 ĠyuÃ¨Ġ
zhÅįu Ġ
dÇĲ Ġ
dÃło Ġ
yÄ«ng ĠguÃ³Ġ
ÇĴu Ġ
zhuÃłng Ġ
Ġ cÇĲĠ
Çİng Ġ
zhÃ¨ng ĠshÃ¬Ġ
Ġ jiÄģngĠ
6 ĠyuÃ¨Ġ
huÇĴ Ġ
chÃ³ng Ġ
yÃ¡nĠjiÅ« Ġ
shÅįu Ġ
gÃ¨ng Ġ
jÅ«n Ġ
chÃ©ng ĠshÃ¬Ġ
4 ĠyuÃ¨Ġ
ĠguÃ³Ġ jiÄģĠ
tiÃ¡n Ġ
fÃłng Ġ
yÇĴng Ġ
ĠĠĠ dÃ¬Ġ
biÃ© Ġ
shÇĶ ĠyÃºĠ
ĠpÃŃngĠ fÄģng
jÇĲ Ġ
gÇİn Ġ
Ġ tÃ¨Ġ
ĠdÃ¬Ġ yÄ«Ġ
qÃºn Ġ
pÃ² Ġ
qÃ¹ Ġ
jiÃłng Ġ
a Ġ
ÇĶ Ġ
gÄĵn Ġ
11 ĠyuÃ¨Ġ
ng Ġ
nÃ³ng Ġ
ĠshÃ¬Ġ jÃ¬Ġ
ĠpÃŃngĠfÄģng ĠgÅįngĠlÇĲĠ
shuÄģng Ġ
ĠtÃ³ng ĠshÃŃĠ
tiÄĽ Ġ
dÄģn ĠrÃ¨nĠ
huÄ« Ġ
Ã¡n Ġ
pÃłi Ġ
liÃ¡ng Ġ
Ġ C
shÇİo Ġ
tÃ¡o Ġ
jiÇİo Ġ
tÇİ Ġ
ÄĽr Ġ
bÇİi Ġ
Ġ rÃºĠ
9 Ġ
Ãłng Ġ
Å« Ġ
Ġ yÄĽ
diÃłnĠ yÇĲngĠ
ÃŃ Ġ
tÃ¡iĠwÄģn Ġ
sÇĲ Ġ
Ä« Ġ
chÇĶ Ġ
qiÃ¡o Ġ
Äĵn Ġ
Ġ g
ĠdeĠ shÃŃĠ
gÃło Ġ
chÃº Ġ
Ġ S
Ġ zhÃ¨
Ġ k
yÃŃn Ġ
gÄĵn ĠjÃ¹Ġ
pÃłn Ġ
lÃ¬Ġ shÇĲĠ
Ġ fÄĵnĠ
chÄģo Ġ
bÃłi Ġ
Ġ 18
yÃłn Ġ
ĠĠĠ S
ĠshÃ¬Ġ zhÃ¨nĠ
cÄģn ĠjiÄģĠ
yÃ¹nĠ dÃ²ng
gÄģng Ġ
chÄĵ ĠzhÃłnĠ
guÃ³ ĠdeĠ
qÄ«Ġ jiÄģnĠ
zhÃ¨ngĠ fÇĶĠ
ĠyÄ«n ĠwÃ¨iĠ
ĠrÃ¬Ġ bÄĽnĠ
ĠpÃŃngĠ fÄģngĠ
lÃ¬ ĠdeĠ
gÃłi Ġ
hÄĵi Ġ
ĠniÃ¡n ĠdeĠ
bÃ¬ng Ġ
chuÄģn Ġ
sÃ²ng Ġ
huÃłn Ġ
wÇĴ Ġ
wÇİ Ġ
zhÇĶn Ġ
gÃ²ng ĠhÃ©ĠguÃ³Ġ
yÃ¡ Ġ
ĠxiÃłn ĠdeĠ
lÃ©i Ġ
fÄģ ĠxiÃłnĠ
hÄģ Ġ
formula Ġ
Çİi Ġ
qÅ« ĠdeĠ
tÃŃ ĠgÅįngĠ
i Ġ
jÃ¬n ĠxÃŃngĠ
qiÄĽ Ġ
hÄĽn Ġ
2 ĠyuÃ¨Ġ
huÄģ Ġ
tÅįngĠ guÃ²Ġ
suÃŃ Ġ
jÄ«ng ĠjÃ¬Ġ
ĠĠĠ 200
chuÃłng Ġ
lÄĵi Ġ
dÄĵng Ġ
ĠzhÅįngĠ yÄģng
kÇİo Ġ
ĠtÄģĠmen Ġ
ĠguÃ³Ġ jÃ¬Ġ
shÃłng ĠdeĠ
Ġ 199
Ġ A
wÄĽiĠyuÃ¡nĠ huÃ¬Ġ
ĠyÃ³u ĠyÃºĠ
Ġ bÄĽiĠ
liÃłn Ġ
nuÃ² Ġ
ĠshÃ¬Ġ jiÃ¨Ġ
chÄĵng ĠwÃ©iĠ
Ġ jÄ«ngĠ
ĠyÄ«nĠ cÇĲĠ
Ġ qiÃ¡nĠ
Ġ tiÄģnĠ
kuÃłi Ġ
d ĠĠĠ
mÃŃng ĠwÃ¨iĠ
zuÇĴ Ġ
ĠshÃ¬Ġ zÃłiĠ
ĠjÃ¬n ĠxÃŃngĠ
zhÇĶ ĠyÃ¬Ġ
chÅįng Ġ
xiÄģngĠ gÇİngĠ
tÇĶ Ġ
sÃł Ġ
ĠzhÄ« ĠhÃ²uĠ
piÃło Ġ
Ġ hÇİiĠ
1 ĠrÃ¬Ġ
ĠrÃ¡n Ġ
shÃŃ ĠdeĠ
Ġ 3
mÃłi Ġ
xÃ¬Ġ tÇĴngĠ
ĠĠĠ 202
liÃło Ġ
dÃ© Ġ
lÇĶ Ġ
00 Ġ
quÃ¡n ĠguÃ³Ġ
lÃº Ġ
xuÄģn Ġ
qiÃº Ġ
ĠxÃŃng ĠdeĠ
rÃ©n ĠdeĠ
kuÃłng Ġ
suÇĴ ĠyÇĴuĠ
hÃ©ng Ġ
rÃ¬ Ġ
xÇĶ Ġ
Ġ mÇİĠ
men Ġ
pÃ¨i Ġ
guÇİn ĠlÇĲĠ
ĠgÅįngĠ zuÃ²Ġ
ĠzhÄ« ĠyÄ«Ġ
Ġ jiÃ©Ġ
Ġ M
sÄĵn Ġ
suÃ¬ Ġ
yÃłng Ġ
dÃł ĠdeĠ
zÄĵng Ġ
tuÄ« Ġ
bÇĶ Ġ
liÃ¹ Ġ
ĠdÄģng Ġ
ĠzhÅįngĠ xÄ«nĠ
xuÄģn ĠbÃ¹Ġ
zÇİo Ġ
pÄ« Ġ
wÃłng Ġ
chÇĲ Ġ
dÄ« Ġ
chÃłng Ġ
zÇĶ ĠzhÄ«Ġ
Ġ h
bÃ¹ ĠdeĠ
Ġ 4
ĠĠĠ C
hÃ¨ Ġ
Ġ zuÃ¬Ġ
yÇİng Ġ
yÇĲngĠ xiÇİngĠ
ĠtÄģ ĠzÃłiĠ
Ã©r Ġ
qiÄģn ĠmÇĲĠ
sÄģi Ġ
ĠĠĠ shÄĵngĠ
dÃ¹n Ġ
ĠhuÃ² ĠdÃ©Ġ
2020 ĠniÃ¡nĠ
luÃ³ ĠsÄ«Ġ
Ġ n
Ġ bÄģoĠkuÃ²Ġ
chÃ©ng ĠdeĠ
uÃ² Ġ
xiÃ¡n Ġ
ĠshÃ¬Ġ jiÃ¨
kÄĽĠ nÃ©ng
niÃłn Ġ
Ġ shÇĲĠ
C Ġ
qÃŃ ĠtÄģĠ
yÅįu Ġ
Ġ ÄģĠ
Ã¨ng Ġ
Ġ zh
Ġ f
ĠchÃ©ngĠ lÃ¬Ġ
le ĠyÄ«Ġ
bÄģng Ġ
huÃ³Ġ dÃ²ngĠ
bÄĵi Ġ
t ĠĠĠ
lÃ¨ Ġ
Ġ 198
ĠrÃ¨nĠ wÃ©iĠ
pÃŃ Ġ
lÇİo Ġ
hÇİo Ġ
wÃ©nĠ huÃłĠ
jÃ¹n Ġ
Ġ gÄģi
yÄģ Ġ
³u Ġ
fÄģĠ zhÇİnĠ
kÄĵ ĠxuÃ©Ġ
liÃ¡o Ġ
huÃ² ĠdÃ©Ġ
Ġ dÄĽngĠ
gÃ¨ Ġ
ĠpÃŃngĠfÄģngĠ qiÄģnĠmÇĲĠ
ĠzuÃ²Ġ wÃ©iĠ
kÃ¹ Ġ
huÃ¡ ĠrÃ©nĠmÃŃnĠ
tÃ¡n Ġ
rÃ¬ ĠbÄĽnĠ
Ġ shÇĴuĠ
Ġ T
huÃ¬ ĠyÃ¬Ġ
Ã©i Ġ
Ã¬ Ġ
jiÄģn ĠdeĠ
tiÄĽ ĠlÃ¹Ġ
miÇİn Ġ
nÃŃng Ġ
ĠdeĠ rÃ©nĠ
bÇĲĠ sÃłiĠ
ruÃ¬ Ġ
lÃ³u Ġ
yÃ²ng ĠyÃºĠ
zhÄĽng Ġ
Ġ 202
ĠshÃŃĠ jiÄģnĠ
2010 ĠniÃ¡nĠ
rÃ¡n Ġ
ĠdeĠ gÅįngĠ
xiÇİn Ġ
a ĠĠĠ
miÃ¡o Ġ
rÃ¨ Ġ
Ġ I
z Ã¡
A Ġ
miÃłnĠ jÄ«
y Çİ
mÃŃn ĠguÃ³Ġ
zhÇĶĠ yÃłoĠ
wÅ« ĠkÃ¨Ġ
ge Ġ
Ġ B
yuÇİn Ġ
gÃ²ng ĠyÇĴuĠ
ĠĠĠ lÃ¬ĠshÇĲĠ
dÃ²u Ġ
Ġ fÃºĠ
wÃ¨nĠ tÃŃĠ
ĠĠĠshÄĵngĠ pÃŃngĠ
huÃ¡ĠrÃ©nĠmÃŃnĠ gÃ²ngĠhÃ©ĠguÃ³Ġ
fÄģng ĠshÃ¬Ġ
fÄģĠ shÄĵngĠ
cÃºn Ġ
Ã©ng Ġ
chÃ ¬
y ĠĠĠ
a m
Ġ 5
guÃłn ĠjÅ«nĠ
ĠdÃ¬Ġ Ã¨rĠ
dÃłiĠ biÇİoĠ
Ġ qÄ«ngĠ
kÄĽĠ nÃ©ngĠ
dÃ¬ ĠdeĠ
10 Ġ
dÇİo ĠzhÃ¬Ġ
guÄģnĠ xÃ¬Ġ
zhÃ ©
Ġ wÃºĠ
y Ġ
cÄģn ĠyÃ¹Ġ
fÄĵn ĠbÃ¹Ġ
Ġ P
ĠgÅįngĠ chÃ©ngĠ
wÃ¡n ĠchÃ©ngĠ
dÄģn ĠwÃ¨iĠ
yÄ« ĠwÃ¨iĠ
ĠbÃ¹Ġ fÃ¨n
Ġ yÃ²uĠ
Ġ mÄĽi
Ġ 15
gÄģn Ġ
zhÃ¬ ĠdeĠ
gÄĽi Ġ
ĠyÃºĠ 201
ĠchÃ©ngĠ yuÃ¡nĠ
Ġ b
ĠdeĠ chÃ©ngĠ
d Ġ
Ġ 194
zhÃłng Ġ
Äĵng Ġ
jiÃłoĠ yÃ¹Ġ
piÄģn Ġ
2019 ĠniÃ¡nĠ
ĠĠĠ M
yuÃ¡n ĠdeĠ
o Ġ
yÅįng ĠyÇĴuĠ
lÇļ Ġ
cÃºn ĠzÃłiĠ
Ã¨r ĠshÃŃĠ
Ġ 6
bÄĽi ĠbÃ¹Ġ
liÃ¡n ĠhÃ©Ġ
yÃºn Ġ
Ġ zhÃŃ
hÃ²u ĠdeĠ
yÃ³u ĠyÃºĠ
shÃło Ġ
ĠshÃ¬Ġ zhÅįngĠ
bÄ«n Ġ
uÃ¬ Ġ
guÃ³Ġ jiÄģĠ
niÇĶ Ġ
fÄģ ĠxÃŃngĠ
Ġ cÃ³ngĠ
yÃ¬ ĠdeĠ
shÄĽn Ġ
jÃ¹ ĠyÇĴuĠ
duÃ¬ ĠyÃºĠ
zhÃ¨ngĠ fÇĶ
xiÃ¹ Ġ
dÄ«ng Ġ
ĠjiÃłnĠ zhÃ¹Ġ
kÄģng Ġ
ĠbÃ¬ng ĠzÃłiĠ
ĠdÃłoĠ leĠ
Ġ D
xuÃ¡n Ġ
guÃ¬ Ġ
xÄ«n ĠdeĠ
sÄ« ĠdeĠ
xiÃ¨ Ġ
hu Ã¡i
yÃ¹nĠ dÃ²ngĠ
zÃ¬Ġ jÇĲ
Ã©Ġ luÃ³ĠsÄ«Ġ
xÃŃng ĠzhÃ¨ngĠ
yÃ¬nĠ dÃ¹Ġ
tÅ« Ġ
fÃºĠ wÃ¹Ġ
wÇİn Ġ
xÇĶ ĠduÅįĠ
ĠdÃłn ĠshÃ¬Ġ
rÃ¨n ĠhÃ©Ġ
chÃ¨ Ġ
mÇİn Ġ
xiÄĽ Ġ
shÄĵng ĠyÃºĠ
Ġ miÃłnĠjÄ«Ġ
qÇĲng Ġ
zhÇĶĠ yÃło
rÃłng Ġ
liÇİng ĠgÃ¨Ġ
Ġ suÇĴ
ĠrÃ©nĠkÇĴuĠ mÃ¬Ġ
ĠzhÅįngĠyÄģng Ġ
bÇİoĠ hÃ¹Ġ
Ġ jÇĲnĠ
s i
wÄĵn Ġ
ĠdeĠ yÃŃĠgÃ¨Ġ
nÃ¡n ĠbÃ¹Ġ
jÇĶ ĠxÃŃngĠ
Ġ 16
Ġ xiÃłngĠ
zhuÄģn ĠjÃŃĠ
miÃłnĠjÄ« ĠwÃ¨iĠ
Ġ lÃ¬ngĠ
Ġ mÄĽiĠguÃ³Ġ
hÅ« Ġ
ruÃ² Ġ
lÃ¡i ĠdeĠ
ĠzhÃ¨ngĠ fÇĶĠ
juÃ©Ġ dÃ¬ngĠ
fÄģn Ġ
ĠdÄģng ĠshÃŃĠ
ĠtÃ³ng ĠniÃ¡nĠ
e l
dÃº ĠlÃ¬Ġ
ĠchÅ« ĠdeĠ
xÇĲ Ġ
kÄģiĠ shÇĲ
ĠlÃ¬Ġ shÇĲĠ
mÃ¡o Ġ
Ġ 195
Ġ zÇĴngĠ
gÄĵng Ġ
suÃłn Ġ
ĠshÃ¨ ĠjÃ¬Ġ
Ġ shÇĲ
hÃłi Ġ
mÃŃng ĠdeĠ
qÃŃn Ġ
a c
kÃłn Ġ
Ġ luÃ³Ġ
Ġ liÃ¡nĠ
ĠshÃ¬ĠwÃ¨iĠ yÃºĠ
jiÃ¹ ĠshÃ¬Ġ
ĠyÇĴuĠ yÄ«Ġ
shÃ¹Ġ jÃ¹Ġ
Ġ liÃºĠ
fÄģngĠ miÃłnĠ
tÃłn Ġ
Ġg tĠ
zhÃŃĠ wÃ¹Ġ
ĠqÃŃ ĠtÄģĠ
Ġ zhÇĲ
Ġ bÄģĠ
shÃłn Ġ
ĠxÃŃngĠ zhÃ¨ngĠ
Ġ 197
fÇİng Ġ
shÃ²u ĠdÃłoĠ
ti on
rÃ¨nĠ wÃ©iĠ
ĠĠĠ A
o l
tuÃ¬ Ġ
Ġ 7
Ġ yÄ«ngĠ
Ġ cÇĲ
xiÄģngĠ gÇİng
ĠshÃ¬Ġ dÃ¬Ġ
shÃ¨ ĠhuÃ¬Ġ
Ġl tĠ
yÃ¬ ĠwÃ¨iĠ
gÃ¹ ĠshÃ¬Ġ
fÃ¨ng Ġ
ĠxiÃłn ĠzÃłiĠ
duÇİn Ġ
qÅ« ĠwÃ¨iĠ
qiÄģng Ġ
fÄģĠ zhÇİn
k ÄģnĠ
zhe Ġ
T Ġ
lÇİng Ġ
wÄģn Ġ
ĠshÃ¬Ġ shÃ¬Ġ
shÇĲĠ yÃ²ng
ĠzuÃ¬ ĠzhÅįngĠ
su ÄģnĠ
ÄĽ Ġ
liÃ¨Ġ chÄĵĠ
y Ã¡oĠ
nÃ¨i ĠdeĠ
dÃłn Ġ
r Ġ
ĠlÃ¬Ġ rÃºĠ
Ġ E
shÇĶ ĠdeĠ
ÇĲ Ġ
xiÇİo ĠshÃŃĠ
zÃº ĠqiÃºĠ
lÃ¡ng Ġ
xÅ«Ġ yÃłoĠ
sÅįng Ġ
ĠyÃºĠ 200
kÃ²ng Ġ
huÃł ĠdeĠ
ĠbÃ¹Ġ tÃ³ng
pÃło Ġ
Ġ mÄĽiĠ
zuÃ²Ġ wÃ©iĠ
rÃ©n ĠshÃ¬Ġ
lÃ¡iĠ zÃ¬Ġ
Ġ 8
diÃłnĠ yÇĲng
ĠĠĠ P
zuÃ² ĠdeĠ
zÄĵng ĠjiÄģĠ
tÇİn Ġ
ĠjÃ¬Ġ huÃłĠ
mÃŃnĠ zhÇĶĠ
ÄĽng Ġ
ĠshÃŃĠ qÄ«Ġ
mÃło Ġ
xiÃ³ng Ġ
Ġ zhÇĲĠ
kÃ²ng ĠzhÃ¬Ġ
zuÃ²Ġ pÇĲnĠ
yÄ«n ĠyuÃ¨Ġ
xiÃ¡ng Ġ
ĠshÃ¬Ġ jiÃłnĠ
ĠjiÃłn ĠdeĠ
Ġ suÄ«
zhuÄ« Ġ
ĠrÃ¡n ĠÃ©rĠ
xuÃ©Ġ yuÃłnĠ
ĠyÇĲĠ jÄ«ngĠ
Ġ H
Ġ tÅįngĠ
ĠzÃłiĠ dÃ¬Ġ
rÃ©nĠ mÃŃnĠ
ĠrÃ©nĠ yuÃ¡nĠ
ĠhÃ©Ġ zuÃ²Ġ
zÇİi Ġ
tÄģ ĠdeĠ
S Ġ
bÇİ Ġ
zÇĶ ĠchÃ©ngĠ
Ġ cÃ©ngĠ
chÄģoĠ guÃ²Ġ
Ġ 17
xÃ¬Ġ tÇĴng
zÇĴngĠ tÇĴngĠ
Äģ ĠÄĽrĠ
ĠyÄ«n ĠyuÃ¨Ġ
Ġ wÇĶĠ
zhÃ ¡
Ġ zhÄģngĠ
ku ÇİnĠ
huÃ¬ ĠdeĠ
er Ġ
jÃ¬ ĠdeĠ
ĠjiÃłn ĠyÃºĠ
y Ã©Ġ
Ġ shÇĶĠyÃºĠ
Ġ sÄģnĠ
ĠwÃ¨iĠ leĠ
qiÅ« Ġ
Ġ L
ĠhÃ²uĠ lÃ¡iĠ
Ġ quÃ¡nĠ
yÃº ĠshÃ¬Ġ
Ġ 196
ĠlÃ¬Ġ yÃłĠ
ĠchÃ©ngĠ gÅįngĠ
Ġ ÄģnĠ
fÄģ ĠbÃ¹Ġ
ÇĶ nĠ
ĠzhÃ¨Ġ xiÄĵĠ
dÃłĠ lÃ¬Ġ
yÄģo ĠqiÃºĠ
tÃŃ ĠchÅ«Ġ
Ġ 000
Ġ R
ĠyÃ¬Ġ yuÃ¡nĠ
dÄģng ĠshÃŃĠ
ĠshÃ¨ ĠyÇĴuĠ
Ġ 9
ĠĠĠ B
jiÃ©Ġ mÃ¹Ġ
yÃ¹nĠdÃ²ng ĠyuÃ¡nĠ
hÃ¡n ĠguÃ³Ġ
bÃ¹ ĠzÃłiĠ
yÇĴu ĠdeĠ
nÃŃĠ yÃł
zÃło ĠchÃ©ngĠ
Åįu ĠzhÅįuĠ
cÇİiĠ yÃ²ngĠ
xiÇİo ĠxÃŃngĠ
xÃ¬Ġ liÃ¨Ġ
ĠgÅįngĠ yuÃ¡nĠ
D Ġ
zÃłn Ġ
jiÄģ ĠdeĠ
xÃ¬ng ĠdeĠ
ĠyÄ«nĠ cÇĲ
shÄĵng ĠdeĠ
Ġ yÃ²u
ĠdeĠ yÃŃĠgÃ¨
Ã³u Ġ
ĠrÃ¬ ĠzÃłiĠ
rÃ©nĠ wÃ¹Ġ
ĠcÇĲĠ wÃłiĠ
ĠĠĠ T
gÃ²ngĠ chÇİnĠ
Ġ 1
m Ġ
Ġzh Ġ
nÇĲ Ġ
dÇĲng Ġ
Ġã ĥ
20 Ġ
r a
chÅ«n Ġ
Ġ N
ĠshÃ¬Ġ hÃ©Ġ
ku ÄģnĠ
lÃ¼Ã¨ Ġ
ĠĠĠ deĠ
Ġ jiÇİnĠ
mÇİ ĠwÃ¨iĠ
yÄĽ ĠshÃ¬Ġ
o f
Ġ G
xuÃ©Ġ jiÄģĠ
ĠdeĠ bÃ¹Ġ
xu Ã¨Ġ
yÃ³uĠ xÃ¬Ġ
sÄģn ĠniÃ¡nĠ
Ġ cÃ©ng
ĠĠĠ 199
fÃłn ĠwÃ©iĠ
ĠĠĠ 19
shÃ¨ ĠjÃ¬Ġ
kÄģiĠ fÄģĠ
ĠbÃ¹Ġ tÃ³ngĠ
bÇĲĠ sÃłi
qÇĶ ĠdÃ©Ġ
Ġ jiÄģng
Ġ wÇĴĠ
qÃ¬ng Ġ
ĠdeĠ jÄ«Ġ
dÃłng Ġ
Ġ gÄĵnĠjÃ¹Ġ
i l
Ġ lÃ¬ng
ĠxÃŃng ĠchÃ©ngĠ
ĠĠĠdÃ¬Ġ lÇĲĠ
Ġ 0
zÃ¬ ĠzhÃ¬Ġ
chÇİn ĠshÄĵngĠ
Ġ suÃŃ
dÅ«n Ġ
ĠdeĠ jÃ¬Ġ
juÃ©Ġ sÃ¨Ġ
shÅ« ĠjÃ¬Ġ
ï¼ į
dÅįu ĠshÃ¬Ġ
ĠĠĠ shÃ¬Ġ
yÄ« ĠniÃ¡nĠ
ÇĴng Ġ
Ġ 193
chÃ³ng ĠxÄ«nĠ
xiÅįng Ġ
Ġ F
ch ÄģĠ
lÇĲ ĠdeĠ
bÃº ĠshÃ¬Ġ
ĠshÃ¨ ĠhuÃ¬Ġ
zhÃ²ngĠ yÃło
ĠsÄ«Ġ tÃ¨Ġ
ĠzhÅįngĠ huÃ¡Ġ
Ġ jiÃ¹Ġ
guÄģn ĠyÃºĠ
qÅ«Ġ yÃ¹Ġ
sÃłi ĠshÃ¬Ġ
gÄĵĠ qÇĶĠ
jiÄģoĠ tÅįngĠ
kÇĴng Ġ
Ġ cÃ³ng
wÃ² Ġ
dÃłĠ xuÃ©Ġ
ĠyÃ³uĠ xÃ¬Ġ
pÃŃn Ġ
jÃŃ ĠdeĠ
chÃº ĠleĠ
ĠchÅ« ĠxiÃłnĠ
Ã¡ Ġ
duÄģn Ġ
Ġ 1Ġ
ĠzhÃ¬Ġ zuÃ²Ġ
qiÃ¡nĠ wÇİngĠ
Ġ guÄģnĠ
ĠdÃłĠ xuÃ©
pÃŃng ĠjÅ«nĠ
k Ġ
ĠdÃ© ĠguÃ³Ġ
xiÇİn ĠshÃ¬Ġ
zÇĴu Ġ
Ġ yÃ¡nĠ
Ã¨r ĠniÃ¡nĠ
ĠzhÅįngĠ huÃ¡ĠrÃ©nĠmÃŃnĠgÃ²ngĠhÃ©ĠguÃ³Ġ
qu ÄĵĠ
hÃ²u ĠzÃłiĠ
dÄģng ĠdÃ¬Ġ
12 Ġ
zhÃŃĠ yÃ¨Ġ
Ġ xiÇİoĠ
xiÃł ĠdeĠ
o w
yÇİn ĠyuÃ¡nĠ
ĠkÃ¨ ĠsÄ«Ġ
dÃ© ĠguÃ³Ġ
guÇİnĠ xiÃ¡Ġ
xuÇİnĠ jÇĶĠ
pÃ©ng Ġ
wÃ©i ĠyÄ«Ġ
guÃ³Ġ jÃ¬Ġ
duÃ¬ ĠdeĠ
pÃł Ġ
bÃ³Ġ wÃ¹Ġ
qi ÇİnĠ
ĠjiÃłn ĠlÃ¬Ġ
Ġ 10
30 Ġ
ĠdÃ¬Ġ guÃ³Ġ
xiÃłngĠ mÃ¹Ġ
fÇİn ĠduÃ¬Ġ
qÄ« ĠdeĠ
qiÃ¨ Ġ
wÃ¹ ĠdeĠ
zhÇĶĠ xÃŃĠ
hu ÄģnĠ
ĠxiÄģngĠ gÇİngĠ
yÄ«n ĠwÃ¨iĠ
qÃ¹ ĠshÃ¬Ġ
Ġ 14
yÄ« ĠbÃ¹ĠfÃ¨nĠ
dÃ²ngĠ wÃ¹Ġ
bÃ¡ ĠgÄģoĠ
Ġã ģ
ni ÃºĠ
hÅ«n Ġ
ĠdÃłiĠ biÇİoĠ
shÃŃ ĠniÃ¡nĠ
zuÃ¬ ĠzhÅįngĠ
Ġ liÇİng
yÄ« ĠbÃ¹Ġ
o ĠĠĠ
dÃ¹ ĠwÃ¨iĠ
ru ÇİnĠ
jiÄĵĠ shÃ²uĠ
fÃ¡ Ġ
zhÃ¨ngĠzhÃ¬Ġ rÃ©nĠwÃ¹Ġ
nÃŃĠ yÃłĠ
mi ÃłoĠ
Ġ J
hÃ¡i ĠyÇĴuĠ
dÃłiĠ biÇİo
Ġã Ĥ
ĠĠĠ rÃ©nĠkÇĴuĠ
tÇĲĠ yÃ¹Ġ
l ÄĽi
jiÃłoĠ shÃ²uĠ
yÇİ Ġ
kuÃ² Ġ
0ĠniÃ¡nĠ dÃłiĠ
Ġ wÃ¡ngĠ
su ÅįĠ
ĠtÄģ ĠshÃ¬Ġ
ĠbÃ¹Ġ duÃ¬Ġ
ĠxÃŃng ĠshÃ¬Ġ
Ġ shÃ²uĠ
kÃłng Ġ
Ġ liÇİngĠ
dÃ¬ng ĠdeĠ
ĠdÄģng ĠdÃ¬Ġ
chÃ¬ Ġ
ĠyÄĽ ĠshÃ¬Ġ
jiÄĵĠ r
du Ã³Ġ
bÄģ ĠshÃ¬Ġ
r ÇİnĠ
z Å«nĠ
xuÃ©Ġ xiÃłoĠ
Ġ mÇİ
zhÇĶĠ jiÃłoĠ
huÃ¡i Ġ
zhÄģo Ġ
ĠdeĠ yuÃ¡nĠ
zhÃ²ngĠ yÃłoĠ
ĠĠĠ L
jiÃ©Ġ gÃ²uĠ
Ġ suÇĴĠ
diÃłoĠ chÃ¡Ġ
Ġ kÄĽĠ
ĠzhÄ«Ġ jiÄģnĠ
Ġ gÃ©Ġ
t a
Ġ bÃ¬Ġ
biÄģnĠ mÇİĠwÃ¨iĠ
dÃłi ĠdeĠ
liÃ¡nĠ mÃ©ngĠ
ni ÇİoĠ
ĠxuÃ©Ġ mÃŃngĠ
ĠyÃºĠ 202
ĠrÃ¬ ĠzhÃ¬Ġ
gÇİi ĠwÃ©iĠ
zÇĶ ĠzhÄ«
nÇļĠ zÇĲĠ
w ÄĽnĠ
zÄ«Ġ liÃłoĠ
ĠzÃłiĠ 200
zhu ÃłnĠ
jiÃłoĠ yÃ¹
guÃłn Ġ
fÄĵn ĠwÃ©iĠ
wÃºĠ fÇİĠ
Ġ bÇĲĠ
hÇİi ĠjÅ«nĠ
ĠjÅ«n ĠshÃ¬Ġ
gÅįng ĠshÃ¬Ġ
ĠrÃ©nĠkÇĴuĠmÃ¬Ġ dÃ¹Ġ
guÇĲ Ġ
fÃ¹Ġ zÃ©Ġ
chÇĶ ĠlÇĲĠ
ãĢ ī
ãĢ Ī
Ġ sÃ¬Ġ
shÃ¹ ĠdeĠ
ĠzhÃ¨ngĠ fÇĶ
zuÃ¬Ġ gÄģoĠ
fÄģngĠ fÇİĠ
f Ã³Ġ
Ġ 2Ġ
wÅ«ĠkÃ¨Ġ lÃ¡nĠ
ĠdeĠ dÃłĠ
ĠrÃ¬Ġ bÄĽn
di Ã©Ġ
ĠĠĠ R
yÄģo Ġ
ĠdeĠ yÃ¬Ġ
Ġ chÃ©nĠ
ĠyÇĴuĠ xiÃłn
c u
11 Ġ
ĠĠĠ yÇĶĠ
ĠgÃ¨ ĠrÃ©nĠ
ĠjÃ¬Ġ shÃ¹Ġ
chÃº nĠ
yÇĲngĠ xiÇİng
jÅ«Ġ mÃŃnĠ
zhÇĶĠ rÃ¨nĠ
zÃ¬Ġ yÃ³uĠ
qÃŃ ĠzhÅįngĠ
ĠshÃ¬Ġ yÃ³uĠ
fÄĵiĠ chÃ¡ngĠ
xuÃ©Ġ shÄĵngĠ
lÃ¹ ĠdeĠ
nÃ¡nĠ ziĠ
liÃ¡nĠ sÃłiĠ
sÄģn ĠshÃŃĠ
fÇİnĠ yÃ¬ngĠ
Ġ Ð
biÄģoĠ zhÇĶnĠ
ĠzÃłiĠ 201
shÃ¹Ġ liÃłng
zhÃŃĠ jiÄĵĠ
ĠzhÄ«Ġ chÃŃĠ
xiÃ© ĠhuÃ¬Ġ
Ġ qÄ«Ġ
kÄĽ ĠyÇĲ
Ġ jiÃ©
Ġ chÃ¡ngĠ
shÃ¨n ĠzhÃ¬Ġ
wÃ©nĠ xuÃ©Ġ
fÄĵnĠbÃ¹Ġ yÃºĠ
bÇĲ ĠlÃ¬Ġ
wÃ©nĠ huÃł
tÇĴng ĠzhÃ¬Ġ
chuÃłng ĠzuÃ²Ġ
p Ġ
s ÇĶnĠ
ĠĠĠ bÄĽnĠ
dÅįng ĠbÃ¹Ġ
ĠdeĠyÃŃĠgÃ¨ ĠshÃ¬ĠzhÃ¨nĠ
e t
ĠdÃ¬Ġ sÄģnĠ
gÄģi ĠguÃ³Ġ
ĠgÅįngĠ sÄ«
P Ġ
qÃŃngĠ kuÃłngĠ
sÃ¬ ĠniÃ¡nĠ
z ÃłngĠ
yuÄĵĠ hÃłnĠ
wÃ©nĠ wÃ¹Ġ
ĠfÃ¹Ġ zÃ©Ġ
Ġ 2
ĠĠĠ G
ĠdÃ¬Ġ shÃŃĠ
Ġ fÃº
Ãłn ĠdeĠ
ĠĠĠ xÃŃngĠzhÃ¨ngĠ
shÄĵngĠ huÃ³Ġ
ĠbÃ¹Ġ guÃ²Ġ
y ÄģnĠ
ÄģnĠ quÃ¡nĠ
huÃ¬ ĠzÃłiĠ
zhÅįng ĠshÃ¬Ġ
quÃ¡n ĠlÃ¬Ġ
c uÃ²Ġ
Ġc Ã¹
nÇļĠ xÃ¬ngĠ
ĠdÃło ĠdeĠ
Ġ suÃŃĠ
nÃ©ng ĠlÃ¬Ġ
gÅįng ĠbÃ¹Ġ
nÃ¨iĠ rÃ³ngĠ
ĠĠĠ D
ĠshÃ¬Ġ yÃŃĠgÃ¨Ġ
Ġ gÇĶĠ
Ġ lÃ¡iĠ
o m
xÄ« ĠbÃ¹Ġ
ĠbÃ¬ng ĠyÃºĠ
Ġ shÄ«Ġ
ĠjÃ¬nĠ rÃ¹Ġ
dÃ²ngĠ huÃłĠ
lÃ¹ ĠxiÃłnĠ
bÄĽiĠ jÄ«ngĠ
p Äģi
chÃ©ngĠ lÃ¬Ġ
Ġ jiÄĵĠ
ĠzhÅįngĠ xuÃ©Ġ
qÃŃngĠ kuÃłng
Ġ K
miÃłn ĠdeĠ
shu ÃłiĠ
yÃ¬ ĠshÃ¬Ġ
ĠĠĠ formulaĠ
ĠÄĽr ĠsÄ«Ġ
b ÇİngĠ
jÇĲnĠ biÄģoĠ
mÃ©iĠ tÇĲĠ
i c
th eĠĠĠ
Ġ fÇİĠ
yÇĴu ĠshÃŃĠ
Ġ shÄģnĠ
ĠyÃ¬Ġ huÃ¬Ġ
Ġ bÇİoĠ
guÇİngĠ dÅįngĠ
Ġ shÄĵnĠ
zÃ¬ĠjÇĲ ĠdeĠ
mÇĲ nĠ
Ġ huÃ¡ngĠ
Ġ kÇİĠ
âĢ ĵ
Ġ ÃłoĠ
bÇĲ ngĠ
ĠĠĠ jiÄģĠ
jiÃłn ĠzhÃ¹Ġ
yÃł ĠzhÅįuĠ
shÃ¹n Ġ
Ġ pÇĶĠ
a t
lu ÃłnĠ
ĠĠĠ H
ch ÄģngĠ
dÇİo ĠdeĠ
ĠguÃ³Ġ mÃŃnĠ
Åįng Ġ
ni Ã¨Ġ
l Ã¡oĠ
nÃ¡ ĠdÃłĠ
Ġ d
tÃłi ĠpÃŃngĠ
mÄĽi ĠyuÃ¡nĠ
f Ã¡nĠ
ĠĠĠ 198
quÃ¡n ĠbÃ¹Ġ
dÃ¬ ĠwÃ¨iĠ
zhÇĲ ĠyÇĴuĠ
bÃ¡ĠgÄģoĠ dÃ¹Ġ
dÃ¡ ĠdÃłoĠ
hÃ¡o Ġ
lÇĲ ĠshÃ¬Ġ
zhÃº ĠjiÃłnĠ
ĠzhÃ¨ ĠshÃ¬Ġ
ĠbÃ¬ngĠ qiÄĽĠ
bÇİn ĠbÄĽnĠ
Ġ gÇİiĠ
qÄ«ng ĠniÃ¡nĠ
ĠsuÇĴ ĠyÇĲĠ
xÇĶĠ duÅį
ĠxuÃ©Ġ xiÃłoĠ
p Ã©iĠ
zhÄĽ ĠdeĠ
hu ÇĲĠ
ĠxÄ«Ġ yÃłĠ
shÇĴuĠ cÃ¬Ġ
mi Ã¨Ġ
chÃ ³uĠ
ĠbÃ¬ngĠ qiÄĽ
xu ÄĽĠ
wÅ«ĠkÃ¨Ġ lÃ¡n
jiÄģng ĠjÅ«nĠ
g Å«Ġ
lÄģ ĠsÄ«Ġ
yÄ« ĠshÃ¬Ġ
ĠĠĠ gÄĵnĠjÃ¹Ġ
ĠchÃ©ngĠ wÃ©i
zhÇĲ ĠchÅ«Ġ
dÄģnĠ qÅ«Ġ
rÃ¬Ġ bÄĽn
mÃ³ ĠshÃ¬Ġ
tÇĲ ngĠ
t ÇİoĠ
hÃ¹ nĠ
ĠyÃ¬Ġ shÃ¹Ġ
ĠtÄģĠmen ĠdeĠ
hÃ¡ngĠ kÅįngĠ
I Ġ
ĠjÃ¬Ġ lÃ¹Ġ
zhÃŃ ĠxÃŃngĠ
tÅįngĠ guÃ²
ĠzhÅįu ĠdeĠ
âĢ ¦
zhÃ ²u
wÇĶ ĠniÃ¡nĠ
zhÃł Ġ
ĠĠĠ 18
on Ġ
zhÃ¨ ĠyÄ«Ġ
ĠqÃŃ ĠshÃ¬Ġ
ĠzhÃ¨Ġ geĠ
Ġ fÄĵngĠ
dÄĽng ĠrÃ©nĠ
Ġ lÃŃnĠ
yÇĶ nĠ
z ÄģiĠ
Ġ tÃłiĠ
k ÄĽnĠ
Ġ W
zÃ© ĠshÃ¬Ġ
jÃ¬nĠ rÃ¹Ġ
ĠzhÇĶĠ yÃłoĠ
n ÇİoĠ
tÃ³ng ĠshÃŃĠ
28 ĠrÃ¬Ġ
rÃ©nĠkÇĴuĠ pÇĶĠ
me Ġ
gÃ©Ġ lÃ¡nĠ
ĠqÃŃ ĠyÃºĠ
mÃŃnĠ zÃºĠ
gÄģi ĠdÃ¬Ġ
ĠqiÃº ĠduÃ¬Ġ
Ġ hÃłoĠ
zhÃłnĠ zhÄĵngĠ
yÇİn ĠchÅ«Ġ
b ÃłĠ
huÃ³Ġ dÃ²ng
rÃ¨nĠ wÃ©i
Ġ yÃºĠshÃ¬Ġ
Ġ zÇĴng
zhÃ© Ġ
ĠzhÄ«Ġ jiÄģnĠdeĠ
ĠgÅįngĠ kÄģiĠ
ĠĠĠ F
t Ã²uĠ
nÃ¡ Ġ
U T
ĠlÃ¬Ġ yÃł
. .
xiÃł ĠjÃ¬Ġ
lÃ¨ ĠbÃ¹Ġ
Ġ Ãło
Ġ ÃłiĠ
zhÃ¨Ġ xiÄĵĠ
jÃ¬ngĠ nÃ¨iĠ
Ġ zÃ©Ġ
ĠdÄģng ĠzhÅįngĠ
tÇĲ ĠdeĠ
e c
Ġ 13
chÄĵĠ zhÃłn
gÃ²ng ĠtÃ³ngĠ
s ÅįuĠ
tuÄ« ĠchÅ«Ġ
zhÃº Ġ
jiÃ©Ġ shÃ¹Ġ
Ġ lÄģĠ
ĠshÃ¬Ġ wÃ¹Ġ
Ġ nÃłĠ
huÃ¡nĠ jÃ¬ngĠ
lÃŃĠ kÄģiĠ
Ġ xÄ«n
sh uÃ¬Ġ
ĠlÃ¬ngĠ wÃłiĠ
ĠĠĠ I
lÃŃnĠ pÇĲ
Ġ zhÇİngĠ
shÄģngĠ yÃ¨Ġ
chuÃ¡nĠ tÇĴngĠ
yuÃ¡n ĠniÃ¡nĠ
ĠĠĠ niÃ¡n
qÇĲĠ yÃ¨Ġ
Ġ kÄģiĠ
Ġ jiÄģnĠ
15 ĠrÃ¬Ġ
yÃŃnĠ hÃ¡ngĠ
fÄĵn ĠzhÅįngĠ
guÄģn ĠdeĠ
jÅ«n ĠshÃ¬Ġ
Ġ 5Ġ
shÃ º
jiÄĵ ĠdÃłoĠ
ĠĠĠ 194
quÃ¡n ĠqiÃºĠ
xiÄģngĠ guÄģnĠ
Ġ sÅ«Ġ
jÄ« ĠdeĠ
qiÃ¡n ĠdeĠ
zÃ¬Ġ jÇĲĠ
xuÇİnĠ zÃ©Ġ
liÃłng ĠdeĠ
ĠzhÇĶĠ yÃło
Ġ kÄĽĠyÇĲĠ
gÄģo ĠdeĠ
4 0
sÃłi ĠjÃ¬Ġ
bÃ³ ĠshÃ¬Ġ
fÄĵnĠ biÃ©
dÃ¹ ĠdeĠ
p ÃºĠ
ĠwÃ¨iĠ rÃ©nĠ
Ġ bÄģ
Ġ shÃ¨ngĠ
wÃ¡nĠ quÃ¡nĠ
Ġ Ã¨rĠ
ĠwÃ¨iĠ zhÃ¬Ġ
mÃ¬ng ĠmÃŃngĠ
ĠdÃ¬Ġ Ã¨r
s Å«nĠ
tuÃ¡nĠ tÇĲĠ
bÄĽiĠ jÄ«ng
dÄĽng ĠdÃ¬Ġ
ĠgÅįngĠ lÃ¹Ġ
hÃ ³uĠ
R Ġ
rÃ¨ ĠdÃłiĠ
bÃłoĠ gÃłoĠ
zuÃ¬ ĠhÃ²uĠ
chÃ©ng ĠzhÅįngĠ
Ġ bÄģoĠkuÃ²
ĠshÃŃĠ jÃ¬Ġ
yÃ¹nĠdÃ²ng ĠhuÃ¬Ġ
rÃ©n ĠzÃłiĠ
ĠdÃłĠ lÃ¬Ġ
zuÃ¬ ĠjiÄģĠ
sÄģn ĠgÃ¨Ġ
ĠdÃłn ĠzÃłiĠ
21 Ġ
bÅį ĠchÅ«Ġ
Ġ shÄģĠ
ĠĠĠ jÃ¹Ġ
xuÃ© ĠwÃ¨iĠ
lÇĲngĠ dÇİoĠ
zÅįngĠ jiÃłoĠ
tÇĶ ĠdÃ¬Ġ
ĠdÃ© ĠdÃłoĠ
ĠshÃ¬ĠyÄ«Ġ zhÇĴngĠ
xÃ¬ ĠdeĠ
E Ġ
Ġ hÃ³ngĠ
25 ĠrÃ¬Ġ
Ġ200 1ĠniÃ¡nĠ
du Ã³
ĠdÃ¬Ġ fÄģngĠ
guÇĲ ĠdÃłoĠ
ĠwÃ¨iĠ dÃ¬Ġ
ĠmÃ¹Ġ qiÃ¡nĠ
ju ÇİnĠ
V Ġ
jÄ«ng ĠlÃ¬Ġ
ĠzhÄ«Ġ qiÃ¡nĠ
shÄĽng ĠdeĠyÃŃĠgÃ¨ĠshÃ¬ĠzhÃ¨nĠ
Ã²ng Ġ
ĠjÅ«n ĠdeĠ
o o
ĠjÄ«Ġ gÃ²uĠ
ĠshÃ¬ĠwÃ¨iĠyÃºĠ mÄĽiĠguÃ³Ġ
ĠzhÅįngĠhuÃ¡Ġ mÃŃnĠguÃ³Ġ
wÃ¨i ĠdeĠ
Ġ kÄĵĠ
sÇĲĠ wÃ¡ngĠ
ĠgÃ¨ ĠyuÃ¨Ġ
d ÇĴng
ÃłoĠ lÃŃnĠpÇĲ
q iÃłn
ĠzÃłiĠ yÄ«Ġ
Ã¹ Ġ
30 ĠrÃ¬Ġ
Ġ jÄ«n
an Ġ
dÄģnĠ rÃ¨n
z Ãłng
ĠdeĠ hÃ©Ġ
sh ÄģoĠ
Ġ bÅįĠ
ĠhÇİiĠ bÃ¡ĠgÄģoĠdÃ¹Ġ
ĠyÄ«Ġ xiÄĵĠ
ch ÄģiĠ
ĠyÇĴuĠ guÄģnĠ
Ġ diÃłnĠ
20 ĠrÃ¬Ġ
ĠxÃŃngĠ dÃ²ngĠ
t er
shuÇĲĠ yÃ¹Ġ
ĠĠĠ wÃ¨iĠ
biÃłnĠ huÃłĠ
shÃłng ĠwÃ¨iĠ
hu ÃłiĠ
zh Çİo
Ġ zhÃŃĠ
Ġ 3Ġ
zhÄ« ĠyÄ«Ġ
ĠshÃŃĠ dÃłiĠ
jÃŃ ĠzhÅįngĠ
di ÄģoĠ
ĠjÃŃĠ tuÃ¡nĠ
ĠjÃ¬Ġ xÃ¹Ġ
UT CĠ
zhÄ«Ġ chÃŃĠ
gÃłn Ġ
gÃ²ng ĠhÃ©Ġ
gÃ©Ġ mÃ¬ngĠ
gÄĵĠ shÇĴuĠ
t Ã¬Ġ
zhÃ¨Ġ geĠ
jÄ« ĠyÃºĠ
chÇĶ ĠyÃºĠ
z Å«Ġ
ĠhÃ²uĠ lÃ¡i
ĠbÃ¹Ġ zhÇİngĠ
guÃ² ĠchÃ©ngĠ
zh ÇİoĠ
yÃ²ng ĠdeĠ
tÃ¡iĠ bÄĽi
10 ĠrÃ¬Ġ
xiÇİoĠ shuÅįĠ
kÅįngĠ jiÄģnĠ
xÄ«nĠ wÃ©nĠ
B Ġ
ĠyÃºĠ 199
ĠĠĠ gÄģiĠ
bÃº ĠhuÃ¬Ġ
ÄģĠ lÄģĠ
nÃ¨i ĠbÃ¹Ġ
Ġ jiÃłoĠ
Ġ hÃ¡iĠ
ĠÃ©r ĠzÃłiĠ
ĠjÃŃĠ tuÃ¡n
ĠyÃ¬Ġ zhÃŃĠ
wÃ¹Ġ zhÇĴngĠ
gÄĵnĠ jÃ¹
jiÄĽĠ fÃłng
a s
pÄ« ĠpÃŃngĠ
ĠzhÅįu ĠshÃ¬Ġ
dÃ¬Ġ qÅ«Ġ
luÃ³Ġ mÇİĠ
yÃ¨ ĠyÃºĠ
Ġ yÃŃĠ
rÃ©ng Ġ
ĠjiÄģĠ rÃ¹Ġ
ĠhÃ©Ġ nÃ¡nĠ
guÄ«Ġ dÃ¬ngĠ
ĠzhÃŃ ĠdÃłoĠ
k ÇİiĠ
ĠyÇĴuĠxiÃłn ĠgÅįngĠsÄ«Ġ
gu ÅįĠ
wÃ¡n ĠjiÄģĠ
shÃłngĠ hÇİiĠ
jÄ«ngĠ guÃ²Ġ
r ÇĶĠ
ĠshÃ¬Ġ shÃŃĠ
chÃ©ngĠ wÃ©iĠ
xÄ«Ġ bÄģnĠ
ÃłoĠlÃŃnĠpÇĲ ĠkÃ¨Ġ
zÄ«Ġ gÃ©Ġ
26 ĠrÃ¬Ġ
xÃ¬Ġ liÃ¨
dÃłĠ lÃ¹Ġ
ĠĠĠ c
di ÄģnĠ
g Å«
ĠdÃłĠ huÃ¬Ġ
24 ĠrÃ¬Ġ
Ġ O
duÅį ĠdeĠ
zÃłi ĠdeĠ
zÃ¡ ĠzhÃ¬Ġ
yÄ«ng ĠyÇĶĠ
lÃ¹ ĠdÃ¬Ġ
hÃ© ĠdeĠ
hÃ¡o ĠmÇĲĠ
ĠyÇĶĠ yÃ¡nĠ
qÃŃ ĠtÄģ
fÄģng ĠdeĠ
ĠzhÃ¨Ġ zhÇĴngĠ
ĠĠĠ W
Ġ 12
jiÃ©Ġ guÇĴĠ
hÃ²u ĠyÄ«Ġ
k ÃłoĠ
Ġ 6Ġ
ĠĠĠ yÄ«Ġ
Ġ nÃ¡n
ĠchÃ©ngĠ qÅ«Ġ
Ġ fÄģĠ
e s
Ġ fÄĵiĠ
sÃ¨ ĠdeĠ
fÇİĠ lÇľĠ
z Ã²uĠ
Ġ hÃłnĠ
yÄ« ĠdeĠ
chuÃ¡nĠ tÇĴng
f ÇĴuĠ
ĠshÃ¬Ġ fÇİĠguÃ³Ġ
Ġ tÃ¡iĠwÄģnĠ
m ÇĴuĠ
18 ĠrÃ¬Ġ
xuÇİnĠ jÇĶ
c ÇİoĠ
ĠwÃ¨iĠyÃºĠ gÄģiĠguÃ³Ġ
ĠlÇĲĠ sÄ«Ġ
6 0
zhuÄģnĠ yÃ¨Ġ
Ġ suÃ¬
Ġ yÃ¡ngĠ
zhÃłn ĠdeĠ
wÃ¹ ĠlÇĲĠ
zhÇĲ ĠshÃ¬Ġ
shÃ¹ ĠwÃ¨iĠ
ĠbÃ¹ĠtÃ³ng ĠdeĠ
ku ÃŃĠ
biÇİo ĠxiÃłnĠ
chÃ ³u
ĠyÃ¬Ġ bÄģnĠ
ĠshÃ¬ĠjiÃ¨ ĠdÃłĠ
shÄĽng ĠjÃŃĠ
miÃ¡oĠ shÃ¹Ġ
shÇĲ ĠdeĠ
ĠĠĠ E
guÄģn ĠyuÃ¡nĠ
tÄģĠ men
Ġm Ã¨i
fÇİĠ yuÃłnĠ
wÃº ĠxiÃłnĠ
Ġ yÄ«ngĠguÃ³Ġ
wÃ¨nĠ tÃŃ
zhÇĲĠ huÄ«Ġ
ĠguÃ³Ġ jiÄģ
yÄĽ ĠyÇĴuĠ
yÃŃng ĠdÃ©Ġ
bÄģoĠ hÃ¡nĠ
bÃ³ĠwÃ¹Ġ guÇİnĠ
jiÄģng ĠqÃŃĠ
tÃ³ng ĠniÃ¡nĠ
ĠgÅįngĠ jÄ«Ġ
zhÃ¨ng ĠzÃłiĠ
cÃ¨ ĠshÃ¬Ġ
Ġ gÃ¹Ġ
chÇİng ĠdeĠ
0ĠniÃ¡nĠ dÃłi
ĠwÃ¨iĠ zhÅįngĠ
bÃ¹ ĠhÃ©Ġ
Ġ yÇĲnĠ
ĠlÃ¬Ġ yÃ²ngĠ
Ġ dÃł
50 Ġ
fÄĵi ĠjÄ«Ġ
ĠzÃ¬Ġ jÇĲ
zhÄĵng ĠyÃ¬Ġ
16 ĠrÃ¬Ġ
27 ĠrÃ¬Ġ
Ġ tÇĲĠ
ĠzuÃ¬ ĠhÃ²uĠ
x Å«nĠ
ĠdÃ¬Ġ qÅ«
21 ĠrÃ¬Ġ
ĠsuÃŃ ĠhÃ²uĠ
yÃ¬ ĠshÃŃĠ
17 ĠrÃ¬Ġ
zÄģo ĠdÃłoĠ
12 ĠrÃ¬Ġ
dÅįngĠ nÃ¡nĠ
8 ĠrÃ¬Ġ
Ġ 4Ġ
dÃ¬ng ĠyÃ¬Ġ
liÃ¹ ĠniÃ¡nĠ
ĠdÃłĠ qÅ«Ġ
l Ġ
ĠzhÅįngĠ xÄ«n
zÅįng ĠhÃ©Ġ
ĠbÃ¨iĠ chÄĵngĠwÃ©iĠ
Ġ rÃº
Ġ wÄĵiĠ
ĠzhÃłnĠ zhÄĵngĠ
Ġ chÃºĠ
ĠshÃ¬Ġ yÃ¬Ġ
xuÃ© ĠdeĠ
ĠxiÃłn ĠshÃŃĠ
h eĠĠĠ
jÃŃ ĠwÃ¨iĠ
Ġ sÄģn
23 ĠrÃ¬Ġ
huÃ¡ng ĠdÃ¬Ġ
zuÃ¬Ġ dÃłĠdeĠ
20 ĠniÃ¡nĠ
Ġ hÃºĠ
ĠshÃ¬Ġ jiÃłn
i t
Ġ fÄĵnĠbÃ¹ĠyÃºĠ
ĠbÃ¬ng ĠbÃ¹Ġ
qu ÄģnĠ
11 ĠrÃ¬Ġ
Åįu ĠzhÅįu
ĠshÄĵngĠ huÃ³Ġ
kÃ¹ nĠ
fÄģngĠ xiÃłngĠ
duÅįĠ shÃ¹Ġ
Ã©Ġ luÃ³Ġ
l ÃłĠ
shÄĵngĠ yÃ¡Ġ
liÃ¡nĠ mÃ©ng
ĠsuÄ« ĠrÃ¡n
ĠĠĠ N
chÅ« ĠxiÃłnĠ
ĠzhÅįngĠ gÃ²ng
7 ĠrÃ¬Ġ
zhu Ã³Ġ
fÄĵn ĠxÄ«Ġ
ĠzhÃ¨Ġ xiÄĵ
22 ĠrÃ¬Ġ
tÅįngĠ chÃ¡ngĠ
29 ĠrÃ¬Ġ
xiÃłng ĠdeĠ
ĠĠĠ yÃºĠ
ĠjiÄģĠ p
ĠdeĠ zuÃ²Ġ
hÃ¡i ĠshÃ¬Ġ
ĠĠĠ cÇĲĠ
9 ĠrÃ¬Ġ
n ÃłiĠ
dÅįngĠ bÄĽiĠ
lÃ¬ng ĠyÄ«Ġ
dÃ¬ng ĠwÃ¨iĠ
Ġ nÃ¨iĠ
wÃłn ĠrÃ©nĠ
zÃ¡ Ġ
xÅ«Ġ yÃło
ĠĠĠ zhÃ¨ngĠzhÃ¬Ġ
tÇĴng ĠjÃ¬Ġ
xÃ¬n ĠxÄ«Ġ
yÃłng ĠdeĠ
ĠxiÃłn ĠzhÃ¬Ġ
liÃ¡nĠ bÄģngĠ
19 ĠrÃ¬Ġ
gÅįng ĠdeĠ
Ġc ÇİoĠ
Ġ Ãłi
5 ĠrÃ¬Ġ
qiÃº ĠduÃ¬Ġ
chÃ¡ ĠdeĠ
14 ĠrÃ¬Ġ
qi Ã³ng
guÄ«Ġ mÃ³Ġ
chÃ¡ng ĠshÃ¬Ġ
m ÃŃĠ
ru Çİn
mÄĽiĠguÃ³Ġ rÃ©nĠkÇĴuĠpÇĶĠ
3 ĠrÃ¬Ġ
10 0
zÇĶ ĠhÃ©Ġ
ĠyÃºĠ 18
30 ĠniÃ¡nĠ
hÇİiĠ bÃ¡
ĠhuÃ² ĠdÃ©
Ġc Ã¡ngĠ
lÃŃn ĠshÃŃĠ
E E
niÇĶĠ yuÄĵ
wÃ¨i ĠshÃ¬Ġ
yÃ¹ ĠdeĠ
jÄ« ĠdÃ¬Ġ
yÅįng Ġ
Ġ kÄĽ
bÄģng ĠzhÃ¹Ġ
ĠdeĠshÃ¬Ġ zhÃ¨nĠ
6 ĠrÃ¬Ġ
jÇĶĠ bÃłn
ĠzhÅįngĠ bÃ¹Ġ
2 ĠrÃ¬Ġ
Ġp Ã©iĠ
ĠĠĠ zhÅįngĠ
ĠyÃºĠ 19
ĠyÃ¬Ġ dÃłĠlÃ¬Ġ
sÃ¬ ĠshÃŃĠ
guÄģnĠ fÄģngĠ
ĠshÃ¨ ĠlÃ¬Ġ
gÃ¨ ĠrÃ©nĠ
4 ĠrÃ¬Ġ
Ġ19 0
shÃ¨ ĠyÇĴuĠ
3 1ĠrÃ¬Ġ
nÃ©ngĠ gÃ²uĠ
ĠĠĠ zhÃ¨Ġ
ĠdeĠ zhÅįngĠ
shÄĵnĠ fÃ¨nĠ
yuÃ¡n ĠhÃ©Ġ
ĠdÃ¬Ġ qÅ«ĠdeĠ
suÇĴĠ shÇĶĠdeĠ
ĠrÃ©nĠ kÇĴu
ĠyÃ¬Ġ bÄģn
tiÄĽĠ lÃ¹
a u
Ġ mÃ©iĠ
liÃ¨Ġ chÄĵ
o c
zÇİoĠ qÄ«Ġ
ĠqÃŃ ĠtÄģ
n u
Ġ yuÄĵĠ
ĠĠĠ 197
Ġ wÃłiĠ
g ÅįuĠ
n ÃłnĠ
zÃº ĠqiÃº
Ġ201 1ĠniÃ¡nĠ
13 ĠrÃ¬Ġ
xiÅįng ĠdÃ¬Ġ
jiÃ©Ġ shÃ¹
N S
ĠshÃ¬Ġ chÇİngĠ
ĠxuÃ©Ġ shÄĵngĠ
mÃ¹ ĠdÃ¬Ġ
liÃ¡nĠ sÃłi
huÄ« ĠfÃ¹Ġ
yuÃ¡n ĠyÃºĠ
shÃ¨n Ġ
ĠĠĠ 195
qÇĶ ĠdÃłiĠ
sÅ«Ġ liÃ¡nĠ
Ġ bÃ¡iĠ
shÄĵng ĠzÃłiĠ
ĠxuÃ©Ġ yuÃłnĠ
ĠĠĠ yÃ³uĠyÃºĠ
jÇĶĠ bÃłnĠ
qÃŃngĠkuÃłng ĠxiÃłĠ
yÃŃ ĠbÃ¹Ġ
gÃ©Ġ mÃ¬ng
ĠgÅįngĠ chÇĲĠ
xiÃ© ĠyÃ¬Ġ
juÃ©Ġ sÃłi
Ġ lÃºĠ
Ġ gÄĵĠ
kÄĵ ĠjÃ¬Ġ
huÃ¡ng ĠjiÄģĠ
fÄģ ĠxiÃłn
bÃ¬Ġ yÃ¨Ġ
Ġ dÇİoĠzhÃ¬Ġ
ĠshÃ¬Ġ zhÇİngĠ
Ġ sh
zhÄĽng ĠgÃ¨Ġ
rÃ©n ĠhÃ©Ġ
t Ã©ngĠ
r ÃłoĠ
8 0
v i
Ġ tÃ¡ngĠ
chÄģo ĠjÃŃĠ
mÃło ĠyÃ¬Ġ
wÃ©nĠwÃ¹Ġ bÇİoĠhÃ¹Ġ
mi Ãło
yuÃ¨ ĠdeĠ
zhÇİng ĠdeĠ
juÃ©Ġ sÃłiĠ
ĠzhÃ¨ ĠyÄ«Ġ
Ġ bÃ³Ġ
xÃŃ ĠjÄ«Ġ
Ġ zhÅ«Ġ
zh ÄģĠ
ĠdÃ¬Ġ lÃ¬Ġ
lÃ¬ ĠhÃ©Ġ
l ÃłiĠ
xuÃ©Ġ yuÃłn
Ġ wÇĴ
tÃºĠ shÅ«Ġ
qÅ«Ġ huÃłĠ
xiÄģn ĠhÃ²uĠ
hÃ¡ngĠ kÅįng
o p
tÇĴng ĠyÄ«Ġ
ĠxÄ«Ġ nÃ¡nĠ
yÄģo ĠqiÃº
jiÃ© ĠhÃ©Ġ
Ġm Ã³uĠ
jiÄĵĠ duÃłnĠ
Ġ nÇļĠ
ĠyÇĲĠ jÄ«ng
liÃº ĠxÃŃngĠ
Ġ gÃ²ngĠ
Ġ shuÄģngĠ
M Ġ
fÇİnĠ yÃ¬ng
Ġb rĠ
xiÃ© ĠzhÃ¹Ġ
cÃ¬ ĠshÃ¬ĠjiÃ¨ĠdÃłĠ
yÃ¡nĠ zhÃ²ngĠ
zhÃłn ĠhÃ²uĠ
ĠrÃºĠ guÇĴĠ
shÃłng ĠshÃ¬Ġ
xÃ¹nĠ liÃłnĠ
Ġ hÄĵiĠ
ĠfÄĵnĠ biÃ©
Ġ huÃ¡Ġ
Ġ jÇĲngĠ
Ġ mÃ³Ġ
guÇİngĠ bÅįĠ
Ġ hÄģ
ĠÄĽrĠ shÄĽngĠ
yÇĶ ĠdeĠ
rÃ©nĠkÇĴuĠ shÃ¹ĠliÃłng
kÄģiĠ fÄģ
ĠhÃ©Ġ yÄ«Ġ
qi ÇİngĠ
zÃ¬ ĠxÃŃngĠ
Ġ jiÃ¹
ĠbÃ¹Ġ nÃ©ngĠ
fÄģĠ biÇİo
gÃ²ngĠchÇİnĠ dÇİngĠ
hÃ¹ n
qÄ« ĠniÃ¡nĠ
Ġ dÄģnĠ
shÃło ĠniÃ¡nĠ
ĠyÇĲĠ lÃ¡iĠ
ĠxÄ«Ġ bÄģnĠ
zÃ¬Ġ rÃ¡nĠ
huÃłĠ xuÃ©Ġ
Ġ Äģ
ĠzÃłiĠ cÃ¬Ġ
ĠĠĠ 196
ĠtÄģĠ cÃ©ng
Ġ U
Ġ wÃº
hÃło ĠxiÃłnĠ
zhÃ¹ ĠzÃłiĠ
huÃł ĠhÃ©Ġ
Ġ quÃ¡n
juÃ©Ġ dÃ¬ng
chÃ¡oĠ xiÄģnĠ
i r
guÃ³ ĠhÃ©Ġ
xÃ¬Ġ bÄģoĠ
dÇİoĠ yÇİnĠ
Ġ shuÇĲĠ
Ġs Å«nĠ
shu ÄģiĠ
ĠyÇĲĠ xiÃłĠ
tÃ¨ ĠdeĠ
Ġ200 9ĠniÃ¡nĠ
7 0
Ġc uÃ²Ġ
xiÃłĠ xiÃ¡
chÃŃĠ xÃ¹Ġ
Ġ mÇĶĠ
tiÃ¡o ĠjiÃłnĠ
ĠxiÄģngĠ gÇİng
pÃŃn ĠdÃłoĠ
ĠgÅįngĠ zuÃ²
Ġ 2010ĠniÃ¡nĠ
yÃ¨ ĠdeĠ
jiÄģo ĠyÃ¬Ġ
yÇİnĠ chÃłng
an dĠĠĠ
w Ġ
ĠshÃ¬Ġ zhÅįngĠguÃ³Ġ
zuÃ¬ ĠdÃłĠ
qiÃº ĠyuÃ¡nĠ
bÃło ĠdÃłoĠ
ĠrÃ©nĠkÇĴuĠmÃ¬Ġ dÃ¹ĠwÃ¨iĠ
ĠshÃ¬Ġ lÃ¬Ġ
Ġ mÃ©iĠyÇĴuĠ
ĠĠĠ bÃ¹Ġ
yÃ³uĠ zhÃ¨ngĠ
jiÃłn ĠlÃ¬Ġ
ĠzuÃ²Ġ pÇĲnĠ
yÃ¬ngĠ yÃ²ngĠ
wÃłi ĠdeĠ
zÄ« ĠyuÃ¡nĠ
sÄģi ĠÄĽrĠ
zh ÄģnĠ
ĠqÃŃ ĠhÃ²uĠ
gÇİiĠ gÃ©Ġ
b Ãłng
Ġ wÃ©nĠ
kÄĽĠ dÃ¡Ġ
m a
mÃ² ĠxÄ«Ġ
Ġ qiÄĽĠ
ĠyÄ«Ġ yuÃłnĠ
fÄģĠ biÇİoĠ
fÄĵngĠ gÃ©Ġ
zhuÃłngĠ tÃłiĠ
ĠbÃ¬ng ĠwÃ¨iĠ
ĠĠĠ theĠĠĠ
huÃŃ ĠdÃłoĠ
sÃ¹Ġ dÃ¹Ġ
3 5
lÃ¹ ĠjÅ«nĠ
qÃ¬ ĠhÃ²uĠ
ĠwÃ¨iĠyÃºĠ fÇİĠguÃ³Ġ
mÃ¬Ġ shÅ«Ġ
ĠzhÅįngĠ gÃ²ngĠ
Ġ hÄģĠ
ĠgÅįngĠ yÃ¨Ġ
Ġ yÃ²ngĠ
diÃłnĠshÃ¬Ġ jÃ¹Ġ
ĠĠĠ K
zhÃ¹ ĠdeĠ
fÃ¨n ĠwÃ¨iĠ
jiÄĵĠr Çİng
wÇİng ĠzhÃłnĠ
k Å«nĠ
gÅįngĠ sÄ«Ġ
ĠzÃłiĠ zhÃ¨Ġ
mÃ¹Ġ biÄģoĠ
ĠdeĠdÃ¬Ġ yÄ«Ġ
tÃ³uĠ zÄ«Ġ
ku Çİn
ĠjiÇİnĠ chÄĵngĠ
hÃº ĠnÃ¡nĠ
ĠyÄ«Ġ sÄ«Ġ
ku ÃłĠ
zhÃłn ĠyÃ¬Ġ
wÃ©nĠwÃ¹ĠbÇİoĠhÃ¹Ġ dÄģnĠwÃ¨iĠ
yÃł ĠlÃ¬Ġ
ĠwÃ¨iĠ yÄ«Ġ
shÇĴuĠ cÃ¬
t Ãºn
20 ĠshÃ¬ĠjÃ¬Ġ
chÇİnĠ pÇĲnĠ
xiÇİo ĠxuÃ©Ġ
15 Ġ
zuÇĴĠ yÃ²uĠ
zÄģo Ġ
shÃ¨ng ĠlÃ¬Ġ
Ġ shÇĶĠ
Ġc ÃłiĠ
zhÃ¨nĠ qÅ«Ġ
ĠjiÃłn ĠshÃ¨Ġ
wÃ©n ĠmÃŃngĠ
ĠdeĠ fÃ¹Ġ
Ġc u
shÄĽngĠ fÃ¨nĠ
mÃ¹Ġ qiÃ¡nĠ
r Ã²uĠ
yÃŃ ĠzhÃ¬Ġ
jiÃło ĠhuÃ¬Ġ
zhÇİnĠ kÄģiĠ
yÃ¬nĠ dÃ¹
shÃŃĠ qÄ«Ġ
y Ã©
tÃ¨Ġ biÃ©Ġ
dÅįngĠ jÄ«ngĠ
tÃ¨Ġ zhÄĵngĠ
ĠÃ©r ĠshÃ¬Ġ
bÇĲĠ jiÃłoĠ
gÄģo ĠjÃŃĠ
zhÇĶn ĠbÃ¨iĠ
ĠdÃłiĠ biÇİo
bÃ¬Ġ xÅ«Ġ
n ÇĶ
kÄĵ ĠdeĠ
xuÇİnĠ shÇĴuĠ
ĠrÃ©nĠ wÃ¹Ġ
guÃ²Ġ chÃ©ngĠzhÅįngĠ
Ġ bÄĽn
hÇİo ĠdeĠ
shÃłngĠ hÇİi
Ġ yÃłoĠ
zhÃ²ngĠyÃło ĠdeĠ
Ġ fÇİĠguÃ³Ġ
diÃłnĠ ziĠ
jiÄģoĠ tÅįng
wÇİngĠ luÃ²Ġ
yÃ¨Ġ wÃ¹Ġ
gÃ²ngĠyÇĴuĠ rÃ©nĠkÇĴuĠ
ĠxiÃłnĠ dÃłiĠ
ĠyÄ«Ġ mÃŃngĠ
cÄģnĠ sÃłiĠ
xiÇİoĠxÃŃngĠ xÄ«ngĠ
b ÃłngĠ
ĠchÃ©ngĠ jÃ¬Ġ
ĠxÄ«Ġ bÄĽiĠ
kÄģiĠ fÃłngĠ
ĠhÃ©Ġ dÃ¬Ġ
x ÃºĠ
ĠjÄ«Ġ chÇİngĠ
zi ĠdeĠ
h a
Ġ qÇĲĠ
n Çİo
biÃłn ĠchÃ©ngĠ
qiÃ¡o ĠzhÃ¬Ġ
bÃłoĠ fÄģĠ
diÃłnĠshÃ¬Ġ tÃ¡iĠ
Ġh an
shÄģnĠ dÅįngĠ
jiÄĽ ĠshÃ¬Ġ
guÃ³Ġ mÃŃnĠ
ĠyÃ¬Ġ qÇĲĠ
10 0Ġ
Ġ qiÄĽ
lÃ¨iĠ sÃ¬
i g
Ġ dÃ¹Ġ
zhÃ¬Ġ zuÃ²Ġ
kÇİ ĠÄĽrĠ
xÃŃng ĠshÃ¬Ġ
dÅįu ĠyÇĴuĠ
shÄĵngĠ chÇİnĠ
zhÄ« ĠhÃ²uĠ
duÅį ĠgÃ¨Ġ
huÃ¬ ĠhÃ©Ġ
mÄĽi ĠpÃŃngĠfÄģngĠgÅįngĠlÇĲĠ
zhÃłn ĠshÃ¬Ġ
ĠĠĠ202 1ĠniÃ¡nĠ
qu ÃłnĠ
rÃ¹ ĠleĠ
ĠxiÃłĠ lÃ¬ng
rÃº ĠxiÃłĠ
ĠgÅįngĠ fÄĵnĠ
ĠshÃ¨ ĠzhÃ¬Ġ
ĠyÄ«Ġ yÃłngĠ
ĠsÄ«Ġ jÄ«Ġ
lÃ¡iĠ zÃ¬
O Ġ
zhÄĵn ĠduÃ¬Ġ
lÇĲngĠ dÇİo
jiÃ¹ ĠshÃ¬ĠzhÃ¨nĠ
4 8
f ÄĽi
Ġ mÃ²Ġ
ĠshÃŃĠ jiÄģn
Ġ V
gÄģo ĠzhÅįngĠ
ĠcÇĲ ĠhÃ²uĠ
ĠzÃłiĠ zhÅįngĠ
Ġ mÃŃng
wÃ¡ng ĠguÃ³Ġ
zÇİo ĠniÃ¡nĠ
wÃłiĠ jiÄģo
ĠĠĠ 2019ĠniÃ¡nĠ
Ã¨r ĠshÃ¬Ġ
X Ġ
Ġ shÃ¨nĠzhÃ¬Ġ
guÄ«Ġ huÃłĠ
s ÄģngĠ
Ġ mÃŃnĠ
3 6
ĠrÃ¡n ĠhÃ²uĠ
N Ġ
ch Äģ
lÃ¨iĠ sÃ¬Ġ
ÇĴ Ġ
Ġm ÃŃĠ
yuÃ¡n ĠshÃ¬Ġ
ĠlÃ¬Ġ shÇĶĠyÃºĠ
ĠyÃ¬Ġ zhÃŃ
zhÃ¹ ĠmÃŃngĠ
yÃºn ĠnÃ¡nĠ
zhÃ¡ iĠ
huÃ² ĠdÃ©
hÄĽn ĠduÅįĠ
ĠÄĽr ĠdeĠ
liÃ¡nĠ jiÄĵĠ
jiÄĽĠ juÃ©Ġ
ĠzhÃ¬Ġ zÃłoĠ
mÇİĠ lÃ¡i
ĠĠĠ 2020ĠniÃ¡nĠ
jÇĲnĠbiÄģoĠ sÃłiĠ
o v
ĠĠĠ gÅįngĠ
ĠdeĠ mÃŃngĠ
zhÃ²ng ĠdeĠ
Ġ wÇĶ
ĠsuÄ« ĠrÃ¡nĠ
ĠyÃ¬Ġ zhÃ¬Ġ
ju ÄģnĠ
zÇĴng ĠlÇĲĠ
ĠdeĠyÄ«Ġ zhÇĴngĠ
F Ġ
ĠĠĠ dÃłĠ
n Ã¨Ġ
zhÇĶĠ tÃŃĠ
Ġp ÃºĠ
x Ġ
shÄģn ĠxÄ«Ġ
rÃ©nĠkÇĴuĠshÃ¹ĠliÃłng ĠwÃ¨iĠrÃ©nĠ
Ġ w
jÃ¹ ĠjÃŃĠ
u n
jÃŃ ĠhÃ©Ġ
jiÄĵĠrÇİng ĠdeĠshÃ¬ĠzhÃ¨nĠ
ĠI NS
o s
ĠjiÃłn ĠzhÃ¬Ġ
Ġ yÃ¨Ġ
lÇļ ĠyÃ³uĠ
ĠshÃłngĠ hÇİiĠ
zhÃł iĠ
liÃ¡nĠ bÄģng
fÄģngĠ ÃłnĠ
fÄģĠ dÃ²ngĠ
Ġ chÃºĠleĠ
nÇļ ĠÃ©rĠ
ti ÃłoĠ
t ÄģnĠ
Ġs ÃłnĠ
Ġ gÃ¹
lÃ¹ ĠyÃ¬Ġ
fÄģ ĠshÃ¨Ġ
zÇĴngĠ tÇĴng
Ġ yÃŃĠgÃ¨Ġ
jÃŃ ĠshÃ¬Ġ
Ġ cÃ¬
ĠxÃŃngĠ wÃ©iĠ
sÄ« ĠhÃ©Ġ
Ġ mÃłi
4 0Ġ
ruÃ¬ ĠshÃ¬Ġ
nÃ³ngĠ yÃ¨Ġ
Ġ sÃ¬
Ġ bÃłoĠ
ĠxÄ«Ġ yÃł
ĠĠĠ201 8ĠniÃ¡nĠ
25 Ġ
juÃ© ĠdeĠ
gÃ© ĠdeĠ
Ġ cÃ¡iĠ
ĠdÃłĠ liÃłngĠ
Ġ z
wÃ¹ ĠzhÃ¬Ġ
Ġ shÃ©nĠ
Ġ200 8ĠniÃ¡nĠ
ĠjÃ¬n ĠshÃ¬Ġ
bÄģoĠ hÃ¡n
ĠdeĠshÃŃĠ hÃ²uĠ
Ġ tÃ¡iĠ
i s
shÇĲĠyÃ²ng ĠdeĠ
ÃłoĠlÃŃnĠpÇĲĠkÃ¨Ġ yÃ¹nĠdÃ²ngĠhuÃ¬Ġ
luÃ³Ġ mÇİ
duÃ¬ ĠzÃłiĠ
gÇİnĠ rÇİnĠ
Ġ fÃ¹
ĠzhÃ¬Ġ jÄ«nĠ
sÄ« ĠrÃ©nĠ
ch Äģng
24 Ġ
Ġ jiÇİĠ
jÃ¬n ĠdeĠ
chu ÃŃĠ
fÄĵi ĠxÃŃngĠ
Ġ201 3ĠniÃ¡nĠ
chu ÄģngĠ
ĠzhÄ«Ġ wÃłiĠ
k Ãło
kÄĽĠnÃ©ng ĠshÃ¬Ġ
biÇİoĠ yÇİnĠ
t ÃłoĠ
chÃ¹ ĠdeĠ
xuÇİn ĠwÃ¨iĠ
tÅįngĠ chÃ¡ng
sh ÇİngĠ
ĠĠĠ J
yÃŃ ĠshÃ¬Ġ
tÇĶ ĠÄĽr
ĠlÃ¬Ġ sÄ«Ġ
jiÃłĠ zhÃŃĠ
ĠshÃ¨Ġ shÄ«Ġ
bÃ³Ġ tÃ¨Ġ
ĠzhÃ¬Ġ 202
qÃ¬ ĠdeĠ
chuÃłng ĠlÃ¬Ġ
ĠzÃłiĠ cÇĲĠ
Ġ dÄģnĠrÃ¨nĠ
ĠgÅįngĠ nÃ©ngĠ
l ÃłngĠ
ĠzÇĴngĠ miÃłnĠjÄ«Ġ
Ġ yÃłĠ
ĠĠĠ O
ĠdÃ© ĠlÇĲĠ
p Ã¡ngĠ
Ġ duÃ¬ĠyÃºĠ
fÄĵnĠ lÃ¨iĠ
guÇİngĠ chÇİngĠ
jiÇĶ ĠniÃ¡nĠ
liÃ¡n ĠhÃ©ĠguÃ³Ġ
jÃŃ ĠshÃŃĠ
rÃ©ng ĠrÃ¡nĠ
ĠyÇĴuĠ rÃ©nĠ
gÄĵngĠ mÃŃngĠwÃ¨iĠ
ĠÃ©rĠ qiÄĽĠ
zhÃ¬ ĠshÃ¬Ġ
Ġ zÃ©
xiÃło ĠlÃ¬Ġ
ĠINS EE
ĠdeĠ lÃ¬Ġ
ĠgÄģiĠ shÄĽngĠ
ĠdeĠ yÄ«ĠbÃ¹ĠfÃ¨nĠ
a tion
bÄģ ĠniÃ¡nĠ
ĠrÃ©nĠkÇĴuĠmÃ¬ĠdÃ¹Ġ mÄĽiĠpÃŃngĠfÄģngĠgÅįngĠlÇĲĠ
ĠrÃ©nĠkÇĴuĠmÃ¬ĠdÃ¹ĠwÃ¨iĠ mÄĽi
ĠxiÃłĠlÃ¬ng ĠshÃŃĠ
yÃ³uĠzhÃ¨ngĠ biÄģnĠmÇİĠwÃ¨iĠ
Çİn ĠxÄ«Ġ
zÇĶ ĠfÃ¹Ġ
chÃ¡ĠdeĠ shÃ¹ĠjÃ¹Ġ
Ġ biÃłnĠ
shÃŃ ĠshÃ¬Ġ
cÃ³ng ĠshÃ¬Ġ
ĠshÃ¬ĠzhÃ¨nĠ biÄģnĠmÇİĠwÃ¨iĠ
ĠINSEE ĠshÃ¬ĠzhÃ¨nĠbiÄģnĠmÇİĠwÃ¨iĠ
2 ĠrÃ©nĠ
Ġ shÃ¹Ġ
mÃ² ĠsÄ«Ġ
tiÄģnĠ wÃ©nĠ
ãĢ İ
ĠzhÃ¨Ġ ge
ĠguÃ³Ġ wÃ¡ngĠ
Ġ201 6ĠniÃ¡nĠ
xuÇİnĠ qÅ«ĠwÃ¨iĠ
ĠĠĠ bÃ¨iĠ
ãĢ ı
pÃ¡i ĠmÃŃngĠ
k ÄĵngĠ
dÃł ĠbÃ¹ĠfÃ¨n
dÃ²ng ĠlÃ¬Ġ
yÄ«Ġ zhÇĴngĠ
ĠshÃ¨ ĠdeĠ
shÃŃĠdeĠ rÃ©nĠkÇĴuĠshÃ¹ĠliÃłngĠwÃ¨iĠrÃ©nĠ
gÃłiĠ niÃłnĠ
yÄ«ngĠ chÇĲĠ
Äģn ĠdeĠ
yÃ¹nĠ yÃŃngĠ
mÄĽiĠguÃ³ĠrÃ©nĠkÇĴuĠpÇĶĠ chÃ¡ĠdeĠshÃ¹ĠjÃ¹Ġ
ĠĠĠ 193
Ġ201 8ĠniÃ¡nĠ
jiÄģ ĠlÃ¬Ġ
ĠÃ©r ĠrÃ©nĠkÇĴuĠmÃ¬ĠdÃ¹ĠwÃ¨iĠmÄĽi
chÄĵĠ liÃłngĠ
ĠĠĠ201 7ĠniÃ¡nĠ
ĠdÄģngĠdÃ¬Ġ gÃ²ngĠyÇĴuĠrÃ©nĠkÇĴuĠ
ĠzÃłiĠ 199
ĠbÃ¹Ġ guÃ²
16 Ġ
zÃº ĠdeĠ
ĠjÇĲnĠ guÇİnĠ
Ġ 2019ĠniÃ¡nĠ
hÃ© ĠshÃ¬Ġ
gÃ©Ġ lÃ¡n
lÇĲng ĠyÃ¹Ġ
ĠhuÃ²Ġ jiÃ¹ĠshÃ¬ĠzhÃ¨nĠ
fÃº ĠjiÃłnĠ
shÄĽngĠjÃŃĠ xuÇİnĠqÅ«ĠwÃ¨iĠ
suÇĴĠshÇĶĠdeĠ shÄĽngĠjÃŃĠxuÇİnĠqÅ«ĠwÃ¨iĠ
d ÄģĠ
ĠĠĠ lÃ¬Ġ
jÄ« ĠjÃŃĠ
xÄ« ĠdeĠ
ĠchÅ«Ġ bÇİnĠ
ĠtÃ¨Ġ biÃ©
Ã©rĠ ziĠ
xÄ«ng ĠdeĠ
jÇĲngĠ chÃ¡Ġ
mÃłnĠ huÃłĠ
qÇĲĠ lÃ¡iĠ
tiÃ¡oĠ yuÄĵĠ
b Çİng
xuÇİn ĠrÃ©nĠ
ĠÄĽr ĠdÃ©Ġ
ĠjÅ«n ĠzÃłiĠ
biÄģoĠ zhÇĶn
t Ã¬
shÄĽng ĠhÃ©Ġ
xu ÄĵĠ
ĠchÅ«Ġ bÇİn
fÃ¨nĠwÃ¨iĠ fÇİĠguÃ³Ġ
ĠgÄģiĠshÄĽngĠ fÃ¨nĠwÃ¨iĠfÇİĠguÃ³Ġ
Ãło ĠdÃłĠlÃ¬Ġ
ĠyÃºĠ 198
mÇĲ ĠÄĽrĠ
ĠbÃ¹Ġ jiÇĶĠ
ĠzhÄ« ĠxiÃłnĠ
Ġ quÃ¨Ġ
tiÄĽ ĠdÃłoĠ
zuÃ¬Ġ hÃ²uĠyÄ«Ġ
ĠniÃ¡nĠ jiÄģnĠ
Ãłi ĠÄĽrĠ
guÇİng ĠzhÅįuĠ
ĠjÅ«nĠ duÃ¬Ġ
zh ÄĽnĠ
ĠwÃ¨iĠ shÃŃĠ
3 8
Ġ duÅį
qÃºnĠ dÇİoĠ
Ġ201 4ĠniÃ¡nĠ
Ġ gÃ¨ngĠ
pÃ¡iĠ mÃŃng
bÄĽn ĠdeĠ
dÅįng ĠxÄ«Ġ
3 7
ĠdÃ¬Ġ sÃ¬Ġ
lÃ¡i ĠyuÃ¡nĠ
9 0
ĠtÄģĠ bÃ¨iĠ
sh uÃ²
shÃ¨ ĠlÃ¬Ġ
xÄ«ng ĠjiÃłnĠ
ĠdÃ¬Ġ sÄģn
jiÄĵĠ shÃ²u
tÃ²uĠ guÃ²Ġ
a p
ĠrÃ¬ ĠdeĠ
ĠĠĠ201 6ĠniÃ¡nĠ
dÃ¬Ġ yÄ«Ġ
pÄģi ĠshÃ¨Ġ
Ġ chÄĵngĠ
mÄĽi ĠzhÅįuĠ
ĠchÅ«Ġ shÄĵngĠyÃºĠ
wÄĽi ĠhuÃ¬Ġ
Ãło ĠsÄ«Ġ
xÄ«n ĠjiÄģĠp
rÃ©ng ĠrÃ¡n
ĠĠĠ202 2ĠniÃ¡nĠ
Ġ biÄģnĠ
wÃº ĠrÃ©nĠ
h ÅįngĠ
Ġ 11
zhÃłnĠ zhÄĵng
Ġ201 5ĠniÃ¡nĠ
Ġ201 2ĠniÃ¡nĠ
zhÇĶĠ juÃ©Ġ
ĠyÃ³uĠ xÃ¬
ĠhÃ©Ġ bÃ¬ng
ĠzhÃ¬Ġ yÃºĠ
Ġt Ã²uĠ
mÇĶ ĠsÄ«Ġ
ĠrÃ©nĠ gÅįngĠ
Ġ jiÇĶĠ
yÃ¹n ĠxÃŃngĠ
ĠshÃ¬Ġ bÃ¹Ġ
nÃ¡n ĠjÃŃĠ
cÇİiĠ yÃ²ng
p Ã¡nĠ
gÃ²u Ġm
ĠmÃŃngĠ chÃ¡oĠ
ĠbÃ¹Ġ mÃŃngĠ
jiÄģĠ rÃ¹Ġ
yÃ¡nĠjiÅ«Ġ suÇĴĠ
li ÇİoĠ
mÃ©ngĠ gÇĶĠ
zuÃ²Ġ pÇĲn
ĠxiÃłnĠ lÃ¹Ġ
yÇĲ ĠjÃŃĠ
ĠhÃ©Ġ pÃŃngĠ
L Ġ
chÃ¡ nĠ
pÃ²Ġ huÃłiĠ
ĠzÃ¬Ġ jÇĲĠ
huÃł ĠshÃŃĠ
tÃ¨Ġ biÃ©
ĠjÃ¬n ĠdeĠ
shuÅįĠ fÇİĠ
xuÃ©Ġ xiÃło
z Äģi
1 ĠrÃ©nĠ
wÇĶ ĠshÃŃĠ
yÄģng Ġ
ĠjÄ«Ġ bÄĽnĠ
Ġ chÃ³ngĠ
mi ÇİoĠ
ĠrÃ¨nĠ wÃ©i
guÇİngĠ fÃłnĠ
f ÇĴu
h ÇĶĠ
Ġ zhÃłoĠ
tÃ³uĠ piÃłoĠ
mÃ³ ĠxÃŃngĠ
hu ÇİnĠ
ĠbÃ¹Ġ mÃ©nĠ
n e
ĠkÃ¨ ĠdeĠ
m Ã¨ngĠ
Ġl Ã¡oĠ
ĠdeĠdÃ¬Ġ fÄģngĠ
xÄ« ĠzÃłiĠ
jÃ¬Ġ shÃ¹Ġ
ĠjiÃłn ĠyÃ¬Ġ
ĠtÄģ ĠyÇĶĠ
yÃ¹nĠ shÅ«Ġ
ĠzÃłiĠ yÃ¬Ġ
mÄĽi ĠniÃ¡nĠ
ĠzÃłiĠ zhÅįngĠguÃ³Ġ
Ġ yÃ¬ĠwÃ¨iĠ
xuÃ© ĠshÃ¬Ġ
ĠjÃ¹Ġ lÃ¨ĠbÃ¹Ġ
rÃ¨nĠwÃ©i ĠshÃ¬Ġ
xuÄģnĠ chuÃ¡nĠ
ĠgÃ¨ ĠdÃ¬Ġ
liÃ¨ ĠwÃ¨iĠ
bÃłnĠ gÅįngĠshÃ¬Ġ
tÃ³ng ĠyÄ«Ġ
k Çİi
ĠĠĠ p
wÃłi ĠguÃ³Ġ
chÃł Ġ
Ġ 10ĠyuÃ¨Ġ
shÃłng ĠyÇĴuĠ
ĠzÇĴng ĠrÃ©nĠkÇĴuĠ
yuÃ¡n ĠwÃ¨iĠ
xuÃ©Ġ xÃŃĠ
4 5
Ġ200 7ĠniÃ¡nĠ
3 ĠrÃ©nĠ
Ġ zhÃ¨ngĠshÃ¬Ġ
ĠdeĠ xÄ«nĠ
tÃ³uĠ rÃ¹Ġ
gÅįngĠ zuÃ²Ġ
tÃłiĠ yÃ¡ngĠ
mÇİ ĠlÃ¬Ġ
nÃŃ ĠsÄ«Ġ
13 Ġ
jiÃ©Ġ gÃ²u
yÇİngĠ huÃłĠ
ĠyÄ«Ġ xiÄĵ
4 ĠrÃ©nĠ
lÃºnĠ dÅ«n
chÄĵng ĠwÃ¨iĠ
xiÄģo ĠxÄ«Ġ
ĠxiÃłn ĠrÃ©nĠ
hÇİi ĠjÅ«n
shÄ« ĠdeĠ
biÄģo ĠzhÃ¬Ġ
Ġ qÄ«ng
Ã©n Ġ
zhÃ¬ ĠwÃ¨iĠ
zhÃŃ ĠdeĠ
l Ãł
dÇİng ĠdeĠ
Çİ Ġ
xu ÄĽ
tÄģĠ menĠ
fÄģngĠ miÃłn
Ġ zhÄĵnĠ
yÃ³uĠ xÃ¬
fÃ¹ĠzÃ©Ġ guÇİnĠxiÃ¡Ġ
zhÃ¨ng ĠdeĠ
fÄĵn ĠzhÄ«Ġ
u b
jiÃ¨Ġ quÃ¡nĠguÃ³Ġ
ĠjÃ¹Ġ lÃŃĠ
ti ÄĵĠ
nÃ¡nĠ xÃ¬ngĠ
Ġ chÃ©n
f ÄĽnĠ
Ġ200 5ĠniÃ¡nĠ
Ġ jiÇİngĠ
zhÃ© ĠxuÃ©Ġ
c Ã¹
ĠwÃ©iĠ zhÇĶĠ
c Ã¡ngĠ
sÃ¬Ġ chuÄģnĠ
Ġ zhÃ²ngĠ
Ġ biÇİoĠshÃ¬Ġ
Ġ hÃ¡nĠ
ĠjÃ¬Ġ huÃł
ĠjÃ¬Ġ niÃłnĠ
Ġ lÃ³ngĠ
Ġ201 7ĠniÃ¡nĠ
Ġ yÇĴngĠ
ĠdÃłoĠ lÃ¹Ġ
ĠĠĠ201 4ĠniÃ¡nĠ
huÃ¡nĠ jÃ¬ng
m Ã¨i
bÇĲ ĠdÃ©Ġ
Ġc Ã¡ng
fÄĵnĠ biÃ©Ġ
ĠĠĠ201 5ĠniÃ¡nĠ
shÄĵngĠ wÃ¹Ġ
Ġ Î
chÃŃĠ xÃ¹
Ġ202 1ĠniÃ¡nĠ
zÃłi ĠshÃ¬Ġ
shÃ¹Ġ liÃłngĠ
gÃ²u ĠchÃ©ngĠ
Ġ shÅ«Ġ
h i
ÃłoĠ yÃ¹nĠ
chÃ¡oĠ xiÄģn
bÃ¹ ĠwÃ¨iĠ
ĠshÃ¬Ġ mÄĽiĠguÃ³Ġ
hu ÇĲ
n Ä«Ġ
ĠzÃłiĠ 19
pÃ©ng ĠyÇĴuĠ
qiÃłn Ġ
ĠzhÄ«Ġ chÃŃ
ĠĠĠ yÇĲĠ
liÃ¨ ĠdeĠ
ĠjÃŃĠ qÃŃĠ
ĠbÃ¨iĠ ÄĽrĠ
kÃłng ĠyÃ¬Ġ
Ġ sÃ²ngĠ
iÃ¡n Ġ
yuÄĵ ĠwÃ¨iĠ
ĠgÅįngĠ gÃ²ngĠ
xuÇİnĠ zÃ©
tÃłi ĠguÃ³Ġ
Çİo ĠzhÃłnĠ
ĠzÃłiĠ bÃ¹Ġ
w ÅįĠ
ĠĠĠ yÇĴuĠ
qÄ«Ġ jiÄģn
jiÄĵ ĠwÃ¨iĠ
xuÇİnĠ qÅ«Ġ
huÃ¬ ĠyÇĴuĠ
shÅįuĠ rÃ¹Ġ
n Ã¬Ġ
yÇİn ĠdeĠ
xiÃłoĠ zhÇİngĠ
yÃ¬ ĠhÃ©Ġ
wÃ©n ĠjiÃłnĠ
ĠĠĠ201 3ĠniÃ¡nĠ
k ÇİnĠ
Ġ wÃłnĠ
xiÄģngĠ duÃ¬Ġ
U Ġ
Äģo ĠzuÃ²Ġ
c ÃłiĠ
u r
Ġ qÃ¬Ġ
Ġ xiÄģnĠ
rÃ³ng ĠyÃ¬Ġ
gu ÄģĠ
di Ã©
biÄģo ĠwÃ¨iĠ
cÄģnĠ yÃ¹
zhÃ¨ngĠ cÃ¨Ġ
ĠĠĠ of
ĠzÃłiĠ mÄĽiĠguÃ³Ġ
yÇĶĠ yÃ¡nĠ
lÃ¡iĠ shuÅįĠ
Ġ jÃ¬ngĠ
ĠĠĠ chÄĵĠzhÃłnĠ
jiÃłoĠ tÃ¡ngĠ
jiÄĵĠr ÇİngĠ
biÄģn ĠjÃŃĠ
tu Ã³Ġ
jiÃ©Ġ mÃ¹
yÃŃnĠ hÃ¡ng
ĠĠĠ shÃŃĠ
Ġ gÃ¨ng
sÄ« ĠdÃ¬Ġ
gÇİiĠ biÃłnĠ
Ġ xiÄģoĠ
jÅ«n ĠduÃ¬Ġ
ku Ãł
wÇĶĠ qÃ¬Ġ
jiÄĽĠfÃłng ĠjÅ«nĠ
a d
ĠĠĠ b
ti ÇİoĠzhÃłnĠ
tÇĲ ng
ĠzhÃ¬Ġ dÃ¹Ġ
ĠyuÃ¡nĠ zhÃ¹Ġ
ĠchÅ«Ġ leĠ
ĠhuÃ² ĠshÃ¬Ġ
tÃ³ng ĠdeĠ
quÃ¡n ĠdeĠ
gÄĵĠ qÇĶ
ĠyÄ«Ġ zhÇĴngĠ
shÃ²u ĠyÇĶĠ
ĠzhÅįngĠ yÇĴuĠ
a g
Ġ kÄģiĠshÇĲĠ
Ġ dÇİĠ
Ġ wÅ«Ġ
ĠĠĠ V
gÇİn ĠdÃłoĠ
ĠyÇĲĠ shÃłngĠ
Ġ zhÄģng
Ġ 2020ĠniÃ¡nĠ
ÃłoĠ yÃ¹n
ĠyÃ²uĠ chÄĵngĠ
ĠzhÃłnĠ zhÄĵng
tiÄģnĠ zhÇĶĠjiÃłoĠ
Ġl ÄĽi
ch Ä«Ġ
ĠdÃ¬Ġ xiÃłĠ
Ãłn ĠjiÃłnĠ
ĠshÃ¬Ġ yÃŃĠgÃ¨
ĠshÄĵngĠ wÃ¹Ġ
xÄ«ĠbÄģnĠ yÃ¡Ġ
Ġ rÃłng
pÃ¨i ĠhÃ©Ġ
wÄĽnĠ dÃ¬ngĠ
ĠĠĠ tÄģ
f Ã¡n
ĠĠĠ hÃ©Ġ
Ġ rÃ¨n
jiÄģ ĠrÃ©nĠ
Ġ yÇĶ
l ÄĽngĠ
hÃło ĠwÃ¨iĠ
gÄģo ĠyÃºĠ
zhÃ¨Ġ zhÇĴngĠ
jÃ¬ ĠzhÅįngĠ
tÃŃ ĠmÃŃngĠ
dÃ¡ ĠchÃ©ngĠ
xiÇİo ĠdeĠ
cÃ¨ ĠdeĠ
jiÇİnĠ jiÃ¨Ġ
c ÄģoĠ
Ġ hÃ²u
shÄĵnĠ fÃ¨n
tÃŃngĠ zhÇĲĠ
shÃŃ ĠzÃłiĠ
dÃ¬ ĠshÃ¬Ġ
ĠÃ©rĠ qiÄĽ
m Ã³uĠ
wÃłn ĠlÃ¬Ġ
duÃ³ ĠdeĠ
biÇİo ĠmÃŃngĠ
ĠzhÅįngĠguÃ³Ġ rÃ©nĠmÃŃnĠ
Ġ fÄĵi
pÃºĠ tÃ¡oĠ
juÃ©Ġ sÃ¨
zÃło ĠdeĠ
ĠjÄ«Ġ bÃłiĠ
ĠĠĠ202 3ĠniÃ¡nĠ
Â °
Ġ200 6ĠniÃ¡nĠ
chÅįngĠ tÅ«Ġ
ĠÃ©rĠrÃ©nĠkÇĴuĠmÃ¬ĠdÃ¹ĠwÃ¨iĠmÄĽi ĠpÃŃngĠfÄģngĠqiÄģnĠmÇĲĠ
4 6
bÃłnĠ dÇİoĠ
zhÃ¨ng ĠshÃŃĠ
22 Ġ
ĠwÃ¨iĠ fÃº
s ÃºĠ
in d
ĠdÃ¬Ġ tiÄĽĠ
qiÃ¡nĠ wÇİng
cÃ©ngĠ jÄ«ngĠ
lÃ¨i ĠdeĠ
ï ½
Ġ dÃŃĠ
i ng
in Ġ
ĠniÃ¡nĠ dÃ¹Ġ
ĠjiÄģĠ nÃ¡ĠdÃłĠ
ĠzÃłiĠ dÃłĠ
ĠpÃŃngĠfÄģngĠ mÇĲĠ
Ġ gÇĶ
ĠĠĠ yuÃ¡nĠ
zÃ¬ĠzhÃ¬Ġ qÅ«Ġ
p Ã¬
g ÇİoĠ
Ġ 8ĠyuÃ¨Ġ
lÄģ ĠkÃ¨Ġ
liÃ¡nĠ xÃ¹Ġ
duÅįĠ cÃ¬Ġ
hÃ¹n ĠhÃ©Ġ
ĠdeĠ guÄģnĠ
xiÇİoĠ zÇĶĠ
jÇĶ ĠrÃ©nĠ
jiÇİnĠ chÃ¡Ġ
ĠĠĠ zÃ¬Ġ
zuÃ¬Ġ zÇİo
tuÃ¡n ĠduÃ¬Ġ
pÃŃngĠ jiÃłĠ
gÃ²ng ĠtÃ³ng
xÄ«n ĠlÇĲĠ
14 Ġ
yÇĲngĠ piÃłnĠ
mÃ©iĠ tÇĲ
kÄĽĠnÃ©ng ĠhuÃ¬Ġ
shÄĵngĠ chÇİn
bÇİoĠ hÃ¹
c ÄģngĠ
12 ĠniÃ¡nĠ
yÄģ ĠlÃ¬Ġ
jÄ«ngĠ yÃŃngĠ
bÇĲĠ yÃłĠ
ĠshÃ¬Ġ tÃºĠ
jÃ¬ ĠwÃ¨iĠ
ĠÃ©r ĠbÃ¨iĠ
jÃ¬Ġ huÃłĠ
ĠjÃ¬Ġ chÃ©ngĠ
gÃ²ng ĠxiÃłnĠ
cÃ©ng ĠzÃłiĠ
l ÇİnĠ
Ġ guÄģngĠ
ĠshÃŃĠ shÄ«Ġ
Ġ luÃ²Ġ
d ÄģoĠ
Ġ liÃº
Ġ hÃ¡iĠyÇĴuĠ
zh ÄĽn
Äģn ĠdÃ©Ġ
lÃ¬ ĠbÃ¹Ġ
Ġ tÃ¡iĠwÄģn
23 Ġ
fÃºĠ wÃ¹
jiÇİnĠ shÇİoĠ
201 6ĠniÃ¡nĠ
chÇİnĠ yÃ¨Ġ
dÃł ĠbÃ¹ĠfÃ¨nĠ
xiÄģngĠ tÃ³ngĠ
xÃŃngĠ dÃ²ngĠ
fÄģn ĠyÃ¬Ġ
s ÃłnĠ
ĠhÃ©Ġ liÃºĠ
9 ĠrÃ©nĠ
ĠchÅ«Ġ rÃ¨nĠ
ĠwÃ©iĠ ÄĽrĠ
guÄ«Ġ mÃ³
202 2ĠniÃ¡nĠ
jÃ¬Ġ niÃłnĠ
am pĠ
5 ĠrÃ©nĠ
K Ġ
a b
shÇĴu ĠdeĠ
jiÄģĠ nÃ¡ĠdÃłĠ
bÇĲĠsÃłi ĠzhÅįngĠ
fÃº ĠhÃ©Ġ
Ġ shÇĲĠyÃ²ngĠ
zhÇĲĠ huÄ«
shÇİoĠ shÃ¹Ġ
chÃ³ng ĠjiÃłnĠ
ĠjiÃłnĠ zhÃ¹
lÃºnĠ dÅ«nĠ
Ġ lÃ¡nĠ
Ġ tÅįngĠguÃ²Ġ
bÃłn ĠshÃ¬Ġ
n ÇĶĠ
w ÄģĠ
ĠĠĠ 3
sÄ« ĠzÃłiĠ
h ÇİnĠ
v er
dÃ²ng ĠdeĠ
Y ou
Ġ suÇĴĠyÇĴuĠ
xÃŃng ĠwÃ©iĠ
kÅįng ĠjÅ«nĠ
bÃłn ĠgÅįngĠ
ĠwÃ¨iĠ nÃ©ngĠ
ĠshÃŃĠ fÄĵnĠ
m Ã¨ng
a k
shÄĵn ĠdeĠ
ĠzhÃ¬Ġ zuÃ²
ĠhÃ©Ġ bÄĽiĠ
ĠzÃ¬Ġ yÃ³uĠ
cu Ä«Ġ
00 ĠniÃ¡nĠ
Åįu ĠyuÃ¡nĠ
ĠxiÃłn ĠwÃ¨iĠ
4 7
ou n
Ġ tÃºĠ
A T
gÅįngĠ yuÃ¡nĠ
wÄĽiĠyuÃ¡nĠ huÃ¬
zhÅįng ĠzÃłiĠ
ĠyÃ¬Ġ yÇĴuĠ
r Ã²u
ĠĠĠ s
xiÃłn ĠdÃłiĠ
18 Ġ
ĠyÇĲĠ sÃ¨Ġ
fÃ¨nĠ zÇĲĠ
Ġ zÃ¬
ĠshÃ¬ĠyÄ«Ġ mÃŃngĠ
yÃ¬ng ĠdeĠ
ĠxÄ«Ġ wÃłngĠ
guÃ²Ġ qÃ¹Ġ
wÄĵi ĠÄĽrĠ
yÃ²ngĠ lÃ¡iĠ
zhÇİn ĠshÃ¬Ġ
ĠjÃ¬Ġ xÃ¹
mÃ¬ngĠ mÃŃngĠwÃ¨iĠ
ĠgÅįngĠ sÄ«ĠdeĠ
Ġ fÇİnĠ
dÃ²ng ĠjÄ«Ġ
dÇİ ĠjÄ«Ġ
ĠyÄ«Ġ cÃ¬Ġ
xiÃłngĠ mÃ¹
ĠdeĠdÃ¬Ġ qÅ«Ġ
ĠyÃ²u ĠmÃŃngĠ
ĠsÄ«Ġ lÃ¬ng
xÃºnĠ huÃŃĠ
gÄģoĠ sÃ¹
xiÃłĠ wÇĶĠ
qÇĲĠ yÃ²ngĠ
k ÄģĠ
f Ã©ngĠ
ĠlÃ¬Ġ rÃº
Ġp ÅįĠ
Ġ nÃŃĠ
Ġc ÄģngĠ
bÃ¹ ĠshÃ¬Ġ
shÇĴu ĠwÃ¨iĠ
Ġ qiÄģnĠ
wÃłiĠ jiÄģoĠ
jiÄĵ ĠjÃ¬nĠ
ĠshÃ¨Ġ qÅ«Ġ
rÃ¨nĠ wÃ¹Ġ
lÃ¹ĠdÃ¬Ġ miÃłnĠjÄ«ĠwÃ¨iĠ
ĠshÃŃĠ yÃłn
ĠdeĠ shÇĴuĠ
shuÇĲĠyÃ¹Ġ miÃłnĠjÄ«ĠwÃ¨iĠ
Ġ bÄĽi
Ġ18 9
sh uÃ¬
liÇİng ĠgÃ¨
lÃ¨i ĠxÃŃngĠ
ĠguÃ³Ġ lÃ¬Ġ
tÇĲĠ xÃ¬Ġ
Ġ ÃłnĠ
ĠshÃ¬Ġ yÇĲĠ
Ġ qÅ«Ġ
ĠshÃŃĠ zÃ¬Ġ
hÇİiĠ yÃ¹Ġ
mÃ¹ ĠsÄ«Ġ
yÄ«ngĠ gÃ©ĠlÃ¡nĠ
diÃłn ĠlÃ¬Ġ
fÇİĠ lÇľ
Ġ lÃŃn
ĠliÇİng ĠrÃ©nĠ
jÇĶ ĠxÃŃngĠdeĠ
ĠzÃłiĠ yÃºĠ
ĠtÇĲĠ zhÇİngĠ
jiÃ©ĠshÃ¹ ĠhÃ²uĠ
zhÃ¹Ġ zuÃ²Ġ
nÃ©ngĠ gÃ²u
ĠshÇĲ ĠdeĠ
ĠdÃłĠ shÇĲĠ
shÄĵngĠ huÃ³
ï½ ŀ
l Ã¡o
xuÃ©Ġ zhÄĽĠ
zuÃ²Ġ jiÄģĠ
chÃ¡ngĠ qÄ«Ġ
guÃ³ ĠzÃłiĠ
ĠshÃ¨ ĠbÃ¨iĠ
zhÃ¹ ĠyÃ¬Ġ
Ġ duÃ¬
guÄģnĠ zhÃ²ngĠ
Ġ ampĠ
Ġm Ã¨ngĠ
dÃ© ĠdÃłoĠ
Ġ huÃłĠ
Ġ yÃ¹
zhÃ¬ ĠhÃ©Ġ
xiÃłng ĠshÃ¬Ġ
ĠdÄģngĠzhÅįngĠ lÃ¹ĠdÃ¬ĠmiÃłnĠjÄ«ĠwÃ¨iĠ
zhu Ã³
ĠÃ©rĠ shuÇĲĠyÃ¹ĠmiÃłnĠjÄ«ĠwÃ¨iĠ
ĠĠĠ201 2ĠniÃ¡nĠ
Ġ fÃłnĠ
ĠcÃ³ng ĠÃ©rĠ
jiÃłoĠ qÅ«Ġ
zÇĶĠ chÃ©ngĠdeĠ
qÇĶĠ xiÄģoĠ
wÄĵiĠ liÃ¡nĠ
Ġ 21Ġ
lÃ¬ngĠ wÃłiĠ
ĠsÄ«Ġ lÃ¬ngĠ
shuÇĲ ĠpÃŃngĠ
ĠlÃ¬Ġ jÃŃĠ
Ãłi ĠdeĠ
ĠzhÄ« ĠshÃŃĠ
ĠĠĠ xÄ«Ġ
fÄĵngĠ bÃłoĠ
ĠT heĠĠĠ
6 0Ġ
jÃŃ ĠzÃłiĠ
x Ãº
ĠlÃ¬Ġ fÇİĠ
ĠchÃ©ngĠlÃ¬Ġ yÃºĠ
Ġ 9ĠyuÃ¨Ġ
lÇļ ĠkÃ¨Ġ
3 3
ĠzhÇĲ ĠyÇĴuĠ
kuÃłiĠ sÃ¹Ġ
pÄ«Ġ zhÇĶnĠ
G Ġ
Ġ rÃłngĠ
liÃ¡nĠ xÃ¬Ġ
bÃ¬Ġ xÅ«
hÃło ĠdeĠ
ĠdÃłĠ chÃ©nĠ
diÇİn ĠdeĠ
diÃłnĠ tÃ¡iĠ
ĠĠĠxÃŃngĠzhÃ¨ngĠ qÅ«ĠhuÃłĠ
ĠjiÄģĠ shÃłngĠ
xÃ¬nĠ hÃłoĠ
mÃŃn ĠdeĠ
ĠdÃ© ĠdeĠ
cÄģnĠ jiÄģ
yuÃłnĠ zhÇİngĠ
jÇĲ ĠyÇĶĠ
ĠyÇĲĠ hÃ²uĠ
dÃłi ĠyÇĴuĠ
ĠjÅ«n ĠwÃ¨iĠ
rÃ¨nĠ mÃ¬ng
Äĵng ĠlÃ¬Ġ
wÄĽiĠ shÅ«ĠjÃ¬Ġ
Ġ Ã¨r
nÃ¨iĠ rÃ³ng
zÇĴngĠ dÅ«Ġ
chu ÃłnĠ
c eĠ
rÃº ĠhÃ©Ġ
shÃ²uĠ shÄģngĠ
dÇİo ĠyÇĶĠ
zhÃ¨Ġ ge
bÇİoĠ chÃŃĠ
Ġ dÅįuĠ
ĠyÃ¬Ġ rÃ©nĠ
suÃŃ ĠhÃ²uĠ
fÃ³Ġ jiÃłoĠ
ĠyuÃ¡nĠ yÄ«nĠ
e sĠ
ĠwÃ¨iĠfÃº ĠqÃŃĠyÃºĠ
gu ÃłĠ
ĠĠĠ gÃłiĠ
g Ġ
ĠzhÃŃ ĠzhÃ¬Ġ
cÃ¬ĠshÃ¬ĠjiÃ¨ĠdÃłĠ zhÃłnĠ
Ġ 7ĠyuÃ¨Ġ
Äģi ĠjÃŃĠ
18 ĠniÃ¡nĠ
hu ÄģngĠ
yÃł ĠdeĠ
xÃ¬ng ĠzhÃ¬Ġ
ĠjÄ«Ġ dÅ«Ġ
yÇİnĠchÃłng ĠhuÃ¬Ġ
fÄģ ĠchÅ«Ġ
ĠzhÃ¨Ġ jiÄģngĠ
Ġ202 2ĠniÃ¡nĠ
Ġ fÃ¨iĠ
ĠshÃ¬Ġ yÄ«ĠwÃ¨iĠ
ĠxÄ«nĠ wÃ©nĠ
Ġ bÃ¨i
tuÃ¬ ĠyÃ¬Ġ
Ġ dÄĽng
xÄ«Ġ yÃ¡ngĠ
ĠshÃ¬Ġ qÅ«Ġ
jiÄģ ĠhÃ©Ġ
Ġ zhuÄģnĠ
jÄ« ĠzhÃ¬Ġ
bÃ¬Ġ yÃ¨ĠyÃºĠ
zhÃ¹Ġ mÃŃngĠdeĠ
ĠjiÃłn ĠchÃ©ngĠ
ã ĥ
Ġ xÃ¬ngĠ
z Ã²u
Ġ dÅįng
wÃ¨iĠ zhÃ¬Ġ
ĠmÃŃngĠ chÄĵngĠ
rÃ¹Ġ kÇĴuĠ
pÇĶĠ tÅįngĠ
Ġ formulaĠ
ĠĠĠ yÃ¬Ġ
10 ĠniÃ¡nĠ
ĠtÇĲĠzhÇİngĠ kÄĽĠdÃ¡Ġ
hÃ¡iĠ ziĠ
fÅ« ĠrÃ©nĠ
chÄģ ĠyÃ¬Ġ
zhuÄģn ĠjiÄģĠ
b Ãł
ĠdeĠyÄ«Ġ zuÃ²Ġ
ĠfÃ¹Ġ jÃ¬nĠ
fÄģĠ diÃłnĠ
Ġ xÄ«
Ġl ÇİnĠ
Ġ 12ĠyuÃ¨Ġ
ĠrÃºĠ guÇĴ
Ġ mÃŃnĠguÃ³Ġ
dÇĲĠ dÃ¡Ġ
Ġ shÄģngĠ
wÃ©nĠ zhÄģngĠ
wÇİngĠ lÃ¹Ġ
Ġ bÅį
Ġ tÃ³uĠ
zhÃ¬ ĠzÃłiĠ
l o
fÇİ ĠdeĠ
ĠbÃ¹Ġ lÇĲĠ
ĠyÇĲĠ xiÃł
xiÄģngĠ dÄģngĠ
cÅ«nĠ zhuÄģngĠ
ĠkÃ¨ ĠlÇĲĠ
rÃ¹Ġ qÄ«nĠ
Ġ 11ĠyuÃ¨Ġ
yÇĶ ĠzhÅįngĠ
zhÃłn ĠzhÅįngĠ
lÃ¡i ĠdÃłoĠ
yÄĽ ĠzÃłiĠ
ĠxuÃ©Ġ xiÃło
yÃ¡nĠ gÃ©Ġ
6 ĠrÃ©nĠ
chÃ¡ i
en Ġ
ĠzhÄ« ĠzhÅįngĠ
ĠĠĠ202 4ĠniÃ¡nĠ
ĠjiÃłnĠ duÃ¬Ġ
zhÃ¨Ġ xiÄĵ
Ġ pÃŃng
Ġ wÃ¡ng
zhÃŃ ĠwÃ¨iĠ
wÃłn ĠyuÃ¡nĠ
25 ĠniÃ¡nĠ
ĠshÃŃĠ rÃ¨nĠ
fÄģĠ shÄĵng
tÃ³ng ĠyÃ¬Ġ
ĠyÄ«Ġ shÄĵngĠ
gu ÃłiĠ
sÃ¬ ĠgÃ¨Ġ
al Ġ
guÇİngĠ bÅį
ĠÄĽr ĠhÃ©Ġ
dÇİo ĠshÃ¬Ġ
hÄģ ĠÄĽrĠ
qÃ¬Ġ chÄĵĠ
tÃłiĠpÃŃngĠ yÃ¡ngĠ
yÃ¬ ĠzÃłiĠ
ĠjÄ«Ġ gÃ²u
tÃŃĠ gÄģoĠ
8 ĠrÃ©nĠ
chÃ©ngĠ gÅįngĠ
ĠyÃ¬Ġ shÃ¹
mÃŃngĠ chÄĵngĠ
xiÄģoĠ shÃ²uĠ
ch ÅįuĠ
mÃŃng ĠshÃ¬Ġ
gÃ²ngĠchÇİnĠ dÇİng
chÅ«Ġ bÇİnĠ
201 2ĠniÃ¡nĠ
le ĠdÃłĠ
ĠdÃ© ĠyÇĲĠ
ĠshÄĵngĠ chÇİnĠ
r ÇİoĠ
shÄĵng ĠwÃ¨iĠ
ĠdeĠshÃŃĠ qÅ«ĠwÃ¨iĠ
28 ĠniÃ¡nĠ
xÄ«ngĠ qÄ«Ġ
ĠdeĠ qiÃ¡nĠ
ĠrÃ©nĠ lÃ¨iĠ
ĠzhÃ¨ngĠ cÃ¨Ġ
gÃ¨ng ĠjiÄģĠ
Ġ ruÃ²Ġ
xiÇİoĠ shuÅį
shÃ© Ġ
200 8ĠniÃ¡nĠ
Ġ hÃ¡i
ind ow
jÃºĠ zhÇİngĠ
ĠdeĠshÃŃĠ jiÄģnĠ
y Ã¡o
ĠĠĠ zhÃ¬Ġ
ĠshÃ¬Ġ yÇĴuĠ
yuÃ¨Ġ tÃ¡iĠ
ĠyÃºĠ 197
ĠÄĽrĠ tÃ¨Ġ
jiÃłoĠ wÃ©iĠ
zhÃ¨Ġ jiÄģngĠ
duÅį ĠniÃ¡nĠ
zhÇĲ ĠzÃłiĠ
guÇİng ĠxÄ«Ġ
quÃ¨Ġ dÃ¬ngĠ
e dĠĠĠ
qÄ«Ġ zÇĲĠ
mÃ©ngĠ gÇĶ
kuÃ² ĠdÃłĠ
ĠshÃłngĠ hÇİi
5 5
yÇĶ ĠhÃ©Ġ
zhÃ¹ ĠyÃºĠ
dÄĵng ĠlÃ¹Ġ
ĠshÃŃĠ xiÃłnĠ
jiÃ©Ġ hÅ«nĠ
Ġhan sĠ
yÃ¬ ĠzhÅįngĠ
ni Ãº
rÃ³ng ĠyÃ¹Ġ
Ġt wĠ
ĠwÃ¨iĠ shÄĵngĠ
guÄģnĠ zhÃ¹Ġ
c Ã¡nĠ
zhÃ²ng ĠdÃłĠ
dÃ²ngĠ zuÃ²Ġ
Äģi ĠÄĽrĠ
r an
chÃº n
yuÃ¨ ĠshÃŃĠ
Ġ yÃ¬nĠdÃ¹Ġ
yÃ¨ ĠhÃ²uĠ
chÃ¨Ġ xiÄģoĠ
ĠjÇĲnĠ guÇİn
ĠbÃ¬ngĠ mÃ©iĠyÇĴuĠ
bi ÇİnĠ
zuÃ¬ ĠchÅ«Ġ
ĠpÃŃngĠ tÃ¡iĠ
ĠĠĠniÃ¡n Ġ
shÃ¹Ġ xuÃ©Ġ
jÃ¬n ĠxÃŃng
chÅ«Ġ bÇİn
ĠĠĠdeĠ shÃŃĠ
bÄģ ĠxÄ«Ġ
zhÇĶĠ chÃŃĠ
yÃŃĠ dÃ²ngĠ
Ġ quÃ¨
cÄģnĠ kÇİoĠ
lÃŃn ĠdeĠ
wÇİn ĠshÃłngĠ
ĠbÃ¹Ġ kÄĽĠ
wÃ¹Ġ zhÇĴng
yuÃłn ĠdeĠ
yÃłĠlÃ¬Ġ shÄģn
ĠsÄ«Ġ tÇİnĠ
shÄ«Ġ fÃłn
ĠshÃ¬Ġ yÇİnĠ
ĠhuÃ²Ġ zhÄĽĠ
ĠguÃ³Ġ wÃ¹Ġ
r Çİn
Ġ sÃłĠ
ĠzhÄ« ĠyuÃ¡nĠ
shÃ¹Ġ zÃ¬Ġ
wÃ©nĠ zÃ¬Ġ
Ġ ÄģĠÄĽrĠ
ï¼ ı
ĠgÅįngĠ yÃ¨
ĠjiÄģĠ tÃŃngĠ
fÃ¹ ĠdeĠ
xÅ« ĠqiÃºĠ
fÇİnĠ huÃŃĠ
e b
Ġ mÃłiĠ
yÄĽ ĠbÃ¨iĠ
mÃŃng ĠyÃ¬Ġ
xuÃ© ĠhÃ©Ġ
ĠjÄ«Ġ hÅ«Ġ
dÇĴng ĠshÃ¬Ġ
biÇİo ĠxiÃłn
Ġc uÃ¬Ġ
rÃºĠ cÇĲĠ
fÄģĠxiÃłnĠ leĠ
17 Ġ
kÃłn ĠdÃłoĠ
mÇĶĠ qÄ«nĠ
sÅ«Ġ liÃ¡n
Ġ chÃ¡ng
19 ĠniÃ¡nĠ
202 1ĠniÃ¡nĠ
hÃ©ngĠ xÄ«ngĠ
ĠcÇĲ ĠshÃŃĠ
24 ĠniÃ¡nĠ
hÃº nĠ
ĠbÃ¬ng ĠyÇĲĠ
tÃ¡iĠ bÄĽiĠ
gÇİiĠ biÄģn
zhÃłn ĠdÃ¬Ġ
xiÅįngĠ yÃ¡
ĠzÃłiĠ 18
huÃ¡Ġ mÃŃnĠguÃ³Ġ
ĠmÃ¹Ġ qiÃ¡n
n Çİi
ĠĠĠ suÇĴĠshÇĶĠdeĠshÄĽngĠjÃŃĠxuÇİnĠqÅ«ĠwÃ¨iĠ
zÇĴng ĠbÃ¹Ġ
or Ġ
ĠĠĠdeĠ yÃ³uĠzhÃ¨ngĠbiÄģnĠmÇİĠwÃ¨iĠ
ĠĠĠyÇĶĠ jiÄĵĠrÇİngĠdeĠshÃ¬ĠzhÃ¨nĠ
ĠĠĠyÃºĠ shÃŃĠdeĠrÃ©nĠkÇĴuĠshÃ¹ĠliÃłngĠwÃ¨iĠrÃ©nĠ
ĠĠĠdeĠshÃŃĠ qÅ«ĠwÃ¨iĠ
ĠĠĠ t
zhuÄģng ĠzhÃ¬Ġ
shuÃ² ĠshÃ¬Ġ
Ġ 6ĠyuÃ¨Ġ
ti c
ĠrÃ©nĠ menĠ
7 ĠrÃ©nĠ
Ġ Ñ
bÄģĠ lÃŃĠ
jÃ¬ ĠhÃ©Ġ
ĠxuÃ©Ġ xÃŃĠ
Ġ kuÄģnĠ
tÃº ĠzhÅįngĠ
e m
ĠzhÄ«Ġ mÃŃngĠ
ĠĠĠ 2010ĠniÃ¡nĠ
wÃ©i ĠdeĠ
ĠsÄ«Ġ lÄģĠ
zÃ¬Ġ dÃ²ngĠ
ĠzuÃ²Ġ yÃ²ngĠ
shÃŃ ĠwÃ¨iĠ
tÃ¡i ĠdeĠ
Ġ zÇĶĠ
fÃ¹Ġ qÄ«nĠ
guÇİnĠ lÇĲ
fÄģ ĠdeĠ
z Ã¨ngĠ
ĠcÃ©ng ĠrÃ¨nĠ
jÃ¬n ĠshÃ¬Ġ
kÄģiĠ fÃłng
mÃŃnĠ zhÃ²ngĠ
chu Ã¡ngĠ
ĠyÄ«Ġ dÃłiĠ
ĠjÄ«ngĠ guÃ²Ġ
hÃ ³u
ĠĠĠ zh
ĠchÅ« ĠxiÃłnĠzÃłiĠ
Ġ gÇİi
ĠĠĠ jÄ«Ġ
li ÇĶĠ
ĠrÃ©nĠ shÃ¹Ġ
zÄ«Ġ xÃ¹nĠ
xiÅįngĠyÃ¡ ĠlÃ¬Ġ
Ġ qiÃ¡ngĠ
ĠdÃłn ĠtÄģĠ
ĠdÃ¬Ġ qiÃºĠ
7 5
Ġt ÇİoĠ
jiÇİngĠ xiÃłngĠ
201 8ĠniÃ¡nĠ
suÄ« ĠrÃ¡nĠ
tÃŃ ĠshÄĵngĠ
fÄĵi ĠjiÃłnĠzhÃ¬Ġ
14 ĠniÃ¡nĠ
chÃłngĠ piÃłnĠ
niÇĶĠ yuÄĵĠ
sh ÇİnĠ
mÇĲ n
Ġh kĠ
xÃ¬Ġ jÃ¹Ġ
Ġp Äģi
jiÃło ĠdeĠ
ĠgÃ¨Ġ zhÇĴngĠ
Ġ 5ĠyuÃ¨Ġ
ĠbÃ¬ng ĠlÃ¬Ġ
tuÄ«Ġ dÃ²ngĠ
ĠchÃ©ngĠwÃ©iĠ leĠ
zhuÃłngĠ kuÃłngĠ
e a
Ġ yÇİnĠ
ĠhÃ©Ġ bÃ¬ngĠ
ĠyÃ¬Ġ yuÃłnĠ
ĠjÃ¬Ġ zÇİiĠ
Ġp Ã¡nĠ
ĠĠĠ201 1ĠniÃ¡nĠ
xÃ¹nĠ sÃ¹Ġ
fÄģ ĠxÃŃng
ĠjÃŃĠ qÃŃ
gÄģoĠ dÃ¹Ġ
tÃ¨ ĠlÇĲĠ
kÃłng ĠrÃ¬Ġ
ĠwÃ¨iĠ hÃ©Ġ
lu Ãłn
ĠhÃ©Ġ xÄ«nĠ
jÄ«ngĠ shÃ©nĠ
wÄĵiĠ xiÃ©Ġ
xu Ã¨
rÃ¹ nĠ
shÅįu ĠlÃ¹Ġ
guÃ²Ġ qÃ¹
wÃ¡ng ĠdeĠ
27 ĠniÃ¡nĠ
Ġ lÃŃngĠ
lÃ¡n ĠkÃ¨Ġ
ĠshÃ¬Ġ zhÇĲĠ
y ÄĵĠ
cÃ¡i ĠzhÃ¨ngĠ
suÃ¬ ĠdÃłoĠ
ĠcÃ¹ nĠ
zhÃ²u Ġ
ĠniÃ¡nĠ qÄ«ng
sÃł ĠkÃ¨Ġ
21 ĠniÃ¡nĠ
liÇİng ĠrÃ©nĠ
ĠzhÄ«Ġ hÃ²u
Ġ chÄĵĠ
lÃ¹ ĠjÅ«n
jÃ¬n ĠgÅįngĠ
3 4
qÇĲ ĠyÃ¬Ġ
Ġ pÃŃĠ
jÃ¹ ĠdeĠ
ĠtÅįngĠ chÃ¡ngĠ
lÇľ ĠwÃ¨iĠ
201 4ĠniÃ¡nĠ
o t
le ĠtÄģĠ
ĠshÃ¬Ġ jÃŃĠ
zÄĵngĠ zhÇİngĠ
ĠĠĠ zhÅįngĠguÃ³Ġ
de r
jÄ«ngĠ chÃ¡ngĠ
fÄĵiĠjiÃłnĠzhÃ¬Ġ dÃ¬ĠqÅ«Ġ
sÃłi ĠdeĠ
xÃ¬ĠtÇĴng ĠdeĠ
jiÄģng ĠxÄ«Ġ
Ãło ĠdÃ¬ĠlÃ¬Ġ
shÇĴuĠ dÅ«Ġ
b er
dÅįu ĠhuÃ¬Ġ
ĠyÄĽ ĠyÇĴuĠ
zh Äģ
zhÃ ³uĠ
Ġ cÃŃĠ
zhÃ²ngĠ diÇİnĠ
zhÃłnĠ dÃ²u
Ġ kÄĵ
tÃłiĠ yÃ¡ng
Ġ jÇĲn
Ġ chÄĵĠzhÃłnĠ
hÇİi ĠdÃłoĠ
liÇİng ĠniÃ¡nĠ
ĠshÃ¬Ġ rÃ©nĠ
ĠwÃ©iĠ qÃŃĠ
yÃŃngĠ yÃ¹nĠ
d ÇĶĠ
jiÃ© ĠkÃ¨Ġ
Ġ guÄ«Ġ
qu ÇİnĠ
15 ĠniÃ¡nĠ
ĠdÃłĠ lÃ³uĠ
shÄģnĠ mÃłi
diÃłoĠ chÃ¡
Ġ chuÃ¡nĠ
ĠhÃ©Ġ zhÅįngĠ
00Ġ wÃłnĠ
ĠxÄ«ĠbÄģnĠ yÃ¡
lÇĲngĠdÇİo ĠrÃ©nĠ
Ġ Ã©ĠluÃ³ĠsÄ«Ġ
mÃŃnĠ zÃº
shÃłngĠ shÅ«Ġ
chÃ¨ nĠ
yÇĲnĠ fÄģĠ
ĠzhÅįngĠguÃ³Ġ gÃ²ngĠchÇİnĠdÇİngĠ
ĠyÄ«n ĠÃ©rĠ
ĠyÃºĠ 194
zhÃłnĠ dÃ²uĠ
guÇİngĠ gÃłoĠ
xÃ¹nĠ liÃłn
cÄģnĠjiÄģĠ leĠ
pÇĲ Ġ
ĠbÃ¹Ġ duÃłnĠ
ĠdeĠchÃ©ngĠ yuÃ¡nĠ
Ġ dÃ¡Ġ
19 0
zhÇĶĠ chÃŃ
xÃ¬Ġ bÄģo
yÄ«n ĠshÃ¬Ġ
Ġ zhÅ«
Ġ lÇľĠ
Ġ huÄģĠ
ĠjÃ¬nĠ rÃ¹
tÃºĠshÅ«Ġ guÇİnĠ
Ġ 00Ġ
ĠhÃ©Ġ chÃ©ngĠ
chÃłngĠ piÃłn
A S
ĠĠĠ U
zhÃŃ ĠdÃłoĠ
nÃł ĠlÇĲĠ
yuÃ¨ ĠzÃłiĠ
huÃł ĠwÃ¨iĠ
29 ĠniÃ¡nĠ
Ġ qiÃ¡n
Ġ zÃłoĠchÃ©ngĠ
jÃ¹Ġ lÃŃĠ
yÃ²ngĠ hÃ¹Ġ
Ġ 4ĠyuÃ¨Ġ
fÃ¹Ġ jÃ¬nĠ
nu Ã³Ġ
3 9
zhÃ ³u
shÄĵn ĠwÃ¨iĠ
jÅ« ĠzhÃ¹Ġ
xiÃłoĠ guÇĴĠ
mÄĽiĠ shÃ¹Ġ
ĠC Ġ
xiÃłĠjÃ¬Ġ ÃłoĠlÃŃnĠpÇĲĠkÃ¨ĠyÃ¹nĠdÃ²ngĠhuÃ¬Ġ
ĠzhÃ¨ngĠ zhuÃłngĠ
Ġ200 4ĠniÃ¡nĠ
jiÃ¨ ĠdeĠ
suÄ« ĠrÃ¡n
chÇİnĠ pÇĲn
Ġ18 8
p ÄģnĠ
shÃŃĠ jiÄģnĠ
jiÄģngĠ sÅ«Ġ
chÇİnĠ shÄĵngĠdeĠ
ku Ã¡ngĠ
22 ĠniÃ¡nĠ
ĠĠĠzh Ġ
Ġ quÃ¡nĠguÃ³Ġ
shuÅį ĠmÃŃngĠ
ĠshÄĵngĠ huÃ³
wÇĶĠ zhuÄģngĠ
yÄ«ngĠ wÃ©nĠ
ĠjiÄģĠ rÃ¹
shÄĵnĠ qÇĲngĠ
p Åį
jiÃłoĠ liÃłnĠ
ĠlÇĲĠ lÃ¹nĠ
ĠzhÄ«Ġ xiÃłĠ
ĠhuÃ²ĠdÃ©Ġ leĠ
lÃ¡n ĠqiÃºĠ
ĠzÃłiĠ jiÄģĠ
ĠzuÃ²Ġ pÇĲn
ĠĠĠjiÄģĠ zÃºĠ
ÃłoĠyÃ¹n ĠhuÃ¬Ġ
zhÅįu ĠdeĠ
yÅįu ĠshÃ¬Ġ
ĠgÅįngĠ rÃ©nĠ
xiÇİn ĠdeĠ
jiÃłoĠ shÄ«Ġ
wÃ¡ngĠ chÃ¡o
ĠzhÅįngĠ wÃ©nĠ
sÃ¹ ĠdeĠ
jÃ¬ ĠshÃŃĠ
huÃ¡ ĠrÃ©nĠ
ĠdÃłĠ duÅįĠ
Ġ ruÃ²
hÃ¡nĠ shÃ¹Ġ
fÇİngĠ wÃ¨nĠ
a i
de ĠĠĠ
lÃ¬ ĠshÃ¬Ġ
11 ĠniÃ¡nĠ
tiÃ¡oĠ zhÄĽngĠ
201 5ĠniÃ¡nĠ
xuÃ©Ġ shÃ¹Ġ
pÇĲnĠ pÃ¡iĠ
Ġ xÇĶĠduÅįĠ
t Ã²u
Ġ huÃ¡ng
mÇİ ĠsÄ«Ġ
jÃ¬nĠ rÃ¹
Ġ wÇİngĠ
Ġ tuÅįĠ
ĠyuÃ¨Ġ nÃ¡nĠ
yÄģoĠ qÇĲngĠ
Ġ biÃłn
Ġ yÇĴuĠshÃŃĠ
jÄ«n ĠdeĠ
ĠshÃ¬Ġ zhÃ¨n
yÇĶnĠ xÇĶĠ
bÃłoĠ dÇİoĠ
Ġl Çİn
quÃ¨Ġ zhÄĽn
sh ÄĽĠ
qÇĶ ĠdÃ©
dÃ¬ng ĠleĠ
6 5
Ġ 10Ġ
qi ÃłĠ
ĠshÃ¬ĠwÃ¨iĠ leĠ
ĠmÃ¨i Ġ
e p
sh ÇİnĠxÄ«Ġ
ĠdÃłnĠ yÃ³uĠyÃºĠ
ĠyuÃ¨Ġ tÃ¡iĠ
t Ã©ng
xÃŃ ĠwÃ¨iĠ
ĠjÃŃĠ lÃ¬Ġ
jiÄģ ĠzhÅįngĠ
ĠdÃłĠ xÃŃngĠ
zhÅįng ĠwÃ¨iĠ
yÇĴu ĠbÃ¹Ġ
ĠjÃ¬Ġ suÃłn
p ÄģiĠ
jiÃłn ĠshÃ¨Ġ
wÇĶĠ tÃ¡iĠ
liÇİngĠ zhÇĴngĠ
Ġ xiÇİng
zhÄĵn ĠshÃŃĠ
huÃŃĠ yÃ¬ngĠ
13 ĠniÃ¡nĠ
zhÅįngĠ huÃ¡ĠrÃ©nĠmÃŃnĠgÃ²ngĠhÃ©ĠguÃ³Ġ
4 9
yÃ¬n ĠdÃ¬Ġ
qÅ«Ġ yÃ¹
yÃŃĠ chÇİnĠ
e st
ÃłoĠ mÃ©nĠ
shÅ« ĠdeĠ
ĠdÃ¬Ġ wÇĶĠ
yÃŃĠ mÃŃnĠ
fÄĵiĠ lÇľĠ
Ġs ÄģngĠ
u m
ĠdeĠgÅįngĠ zuÃ²Ġ
2020ĠniÃ¡nĠ mÄĽiĠguÃ³ĠrÃ©nĠkÇĴuĠpÇĶĠchÃ¡ĠdeĠshÃ¹ĠjÃ¹Ġ
Ġ ÅįuĠ
jÇĶ ĠxÃŃng
201 7ĠniÃ¡nĠ
fÃ¡ng ĠyÃ¹Ġ
jiÃłoĠ xuÃ©Ġ
Ġk ÇİiĠ
b o
qÃ¬Ġ xiÃłngĠ
t ou
ĠzhÅįu ĠniÃ¡nĠ
liÃ¨Ġ biÇİoĠ
Ġ rÃ¹Ġ
shÃ©nĠ jÄ«ngĠ
duÅį ĠrÃ©nĠ
23 ĠniÃ¡nĠ
guÄģnĠ xÃ¬
ĠrÃ¨nĠ wÃ¹Ġ
mÃ¬ngĠ lÃ¬ngĠ
Ġf Ã©ngĠ
- -
jÄ«Ġ chÇİngĠ
bÃ¡iĠ sÃ¨Ġ
chuÃłngĠ bÃłn
a y
201 1ĠniÃ¡nĠ
yÇĲĠ lÃ¡iĠ
dÄĽng ĠwÃ¨iĠ
le ĠtÄģĠdeĠ
huÃ¬ ĠyuÃ¡nĠ
ni Çİo
wÇİ ĠÄĽrĠ
jÃ¬Ġ lÃ¹Ġ
ĠjÄ«Ġ guÄģnĠ
fÇİĠ ÃłnĠ
quÃ¡nĠ miÃłnĠ
dÅ« ĠshÃ¬Ġ
leĠ yÃŃĠgÃ¨Ġ
1ĠyuÃ¨Ġ 1ĠrÃ¬Ġ
ĠrÃ¬Ġ jÅ«nĠ
zhÃ¡ Ġ
t Ä«Ġ
kÃ¨ ĠlÇĲĠ
ĠshÃŃĠ yÄ«Ġ
duÃłn ĠdeĠ
ĠrÃ©nĠ lÃ¨i
gÄģoĠ dÄĽngĠ
shÃº Ġ
yÃ¡n ĠdeĠ
yÃŃng ĠdeĠ
17 ĠniÃ¡nĠ
ĠhÃ©Ġ xÄ«Ġ
huÃł ĠjiÄģĠ
dÅįng ĠjÃ¬Ġ
jiÄĵ ĠjÃŃĠ
zÃ© ĠwÃ¨iĠ
ĠshÃŃĠ qÄ«
ĠĠĠ zÇİoĠniÃ¡nĠ
zÇĶ ĠjiÃłnĠ
yÃŃĠ zhÇĲĠ
n ÇİiĠ
jÄ«ng ĠlÇĲĠ
huÄģ ĠyuÃ¡nĠ
a li
e g
yuÄĵ ĠyÇĴuĠ
miÃłn ĠduÃ¬Ġ
e sĠĠĠ
shÄĵng ĠjÃŃĠ
mÄĽiĠ guÃ³ĠdeĠ
ĠwÇĴĠ menĠ
Ġ tÃŃĠ
xiÃł ĠyÄ«Ġ
mÇĲ ĠdeĠ
ĠzhÃ¬Ġ shÃŃĠ
ĠzÃłiĠ xÄ«Ġ
ĠlÃ¬Ġ shÇĲ
nÇļĠ zÇĲ
ĠshÃ¨ ĠjÃŃĠ
xÇĲĠ huÄģnĠ
a me
yÃ¬ ĠniÃ¡nĠ
ĠzhÃ¬Ġ lÃ¬Ġ
Ġ zuÇĴĠ
lÇĲngĠ tÇĶĠ
Ġ shÃ¨ng
yuÃ¡n ĠjÃŃĠ
zÄ«Ġ jÄ«nĠ
ĠsuÇĴ ĠyÇĲ
z Ã²ngĠ
Ġ ÄģiĠ
ĠhÃ©Ġ lÃ¡nĠ
bÇİoĠ chÃŃ
wÃ¡nĠ quÃ¡n
b oĠ
ĠshÃŃĠ Ã¨rĠ
jiÇĶĠ diÃłnĠ
Ġ 3ĠyuÃ¨Ġ
chÄĵng ĠzuÃ²Ġ
ĠshÃ¬Ġ dÃłĠ
ĠmÃŃngĠchÃ¡oĠ zhÃ¨ngĠzhÃ¬ĠrÃ©nĠwÃ¹Ġ
zhÃ¨ngĠ mÃŃngĠ
yÃ²ngĠ zuÃ²Ġ
Ġ202 3ĠniÃ¡nĠ
m ÇĴu
ĠjÃ¬Ġ zhÄĽĠ
ĠmÄĽi ĠniÃ¡nĠ
wÃ©n ĠxiÃłnĠ
ĠrÃ©nĠ mÃŃn
lÄĽi Ġ
Ġ kÄģng
ĠĠĠ xÄ«nĠ
yuÃ¡n ĠzÃłiĠ
ĠyuÃ¡nĠ mÃŃngĠ
o g
200 9ĠniÃ¡nĠ
ĠzhÅįngĠ yÃºĠ
ĠzhÃ¬Ġ liÃ¡oĠ
ĠjÄ«Ġ chÄĵĠ
ĠĠĠ tÄģĠ
26 ĠniÃ¡nĠ
guÄ«Ġ zÃ©Ġ
cÃ¡iĠ liÃłoĠ
sÇĶnĠ shÄ«Ġ
s p
lÇĲĠ lÃ¹nĠ
dÃ²ngĠ wÃ¹
t ÄģngĠ
dÃł ĠdÃ¬Ġ
ĠxiÃłn ĠhÃ©Ġ
bÇİoĠ liÃºĠ
Ġ qÄ«
ĠĠĠ yÃ³uĠ
e v
ĠyÃ¬Ġ yÃ¬Ġ
Ġ shÃ²u
ĠĠĠ hÃ²uĠ
ĠguÃ³Ġ huÃ¬Ġ
ĠgÅįngĠ huÃ¬Ġ
nÃ¨iĠ lÃ¹Ġ
Ġ200 2ĠniÃ¡nĠ
nÃ¡nĠ jÄ«ngĠ
ĠjÃ¬n ĠxÃŃng
Ġc uÃ¬
m ÃŃ
202 3ĠniÃ¡nĠ
xiÃłĠ lÃ¬ng
biÇİoĠ miÃłnĠ
Ġ yÃ¡ng
ĠĠĠ jiÃ©
ĠgÅįngĠ chÇİngĠ
ĠyuÃ¡nĠ gÅįngĠ
ĠshÃ¬ĠyÄ«Ġ zhÇĴng
ĠdÃ¬ĠyÄ«Ġ cÃ¬Ġ
Ġ xiÃłoĠ
ju ÃłnĠ
lÇļ ĠxÃŃngĠ
I N
a te
6 8
qÇĲĠ yÃ¨
g ÇĴngĠ
wÄĵi ĠjÄ«Ġ
an d
ĠyÃºĠ 196
ĠchÃ©ngĠ xiÃłnĠ
ĠnÃ¡n ĠzhÃ¬Ġ
ĠhÃ©Ġ gÅįngĠ
ĠĠĠ200 8ĠniÃ¡nĠ
en t
tÃłi ĠrÃ©nĠ
ĠyÃ¬Ġ fÄģngĠmiÃłnĠ
19 Ġ
zhÄ«Ġ jiÄģnĠ
Ġ hÃ¡nĠguÃ³Ġ
bÃ¨i ĠshÃ¬ĠwÃ¨iĠ
wÃ©n ĠyÃ¬Ġ
tÃŃ ĠdÃłoĠ
xiÄģngĠ guÄģn
Ġ bÇĲ
ĠshÃ¬Ġ hÃ²uĠ
cÃ©ngĠ jÄ«ng
a v
Ġ fÄģngĠ
tiÄģn ĠdeĠ
ĠbÃ¹Ġ mÃ©n
ĠniÃ¡n ĠshÃ¬ĠjiÃ¨Ġ
diÃłnĠ nÇİoĠ
kÄĽĠyÇĲ ĠzÃłiĠ
gÃ© ĠwÃ¨iĠ
dÅįngĠ nÃ¡nĠbÃ¹Ġ
Ġ xÄ«ngĠ
dÃł ĠwÃ¨iĠ
kÅįng ĠzhÅįngĠ
ĠguÃ³Ġ fÃ¡ng
jÄ«nĠ shÇĶĠ
Ġ lÃŃĠ
zhÃ¹ ĠlÇĲĠ
16 ĠniÃ¡nĠ
kÇĴng ĠbÃ¹Ġ
zuÃ²Ġ yÃ²ngĠ
dÃłi ĠlÇĲĠ
tÅįng ĠdÃłoĠ
Ġc Ã¡oĠ
qÃŃĠzhÅįngĠ yÄ«ĠzhÇĴngĠ
m Ã¡ngĠ
Ġ mÃłnĠ
zuÃ² ĠwÃ¨iĠ
suÇĴ ĠzÃłiĠ
liÃº ĠzÃłiĠ
3 1
Ġ zhÃ¨ng
shÇĴu ĠjÄ«Ġ
lÃ¬ ĠwÃ¨iĠ
shÅ« ĠjÃŃĠ
ĠÃ©r ĠchÃ©ngĠ
ĠĠĠ in
yÇĴu ĠzÃłiĠ
201 3ĠniÃ¡nĠ
gÃ¹Ġ wÃ¨nĠ
Ġ000 Ġ
Ġ zhÅįngĠdeĠ
sh Çİng
jÃ¬ng ĠdeĠ
yÇĲnĠ qÇĲĠ
4 4
yÇĲ ĠxiÃłĠ
yÇĲngĠ piÃłn
bÅįĠ lÃ¡n
jÃ¬nĠ yÃŃĠbÃ¹Ġ
50 ĠniÃ¡nĠ
dÃłĠ lÃ¹ĠdeĠ
ĠxÄ«Ġ wÃłng
chÃ©ng ĠniÃ¡nĠ
ku ÃŃ
yÇİn ĠyÃ¬Ġ
Ġ zhÃ¨nĠ
qi Çİn
men ĠdeĠ
e w
Ġ lÇĲ
zhÇĶ ĠdeĠ
jÄ« ĠhÃ©Ġ
huÃ¬ ĠshÃ¬Ġ
ku ÄģngĠ
tÃ¨Ġ shÅ«Ġ
tÅįngĠ chÄĵĠ
c i
Ġ jiÄģoĠ
ĠzÃłiĠ 198
ĠjiÃ© ĠzhÃ¬Ġ
tÇİoĠ lÃ¹nĠ
jiÄģng ĠhuÃ¬Ġ
ĠzuÃ²Ġ wÃ©i
Ġ 7Ġ
ĠyÇĴuĠ jÄ«Ġ
Ġ2001ĠniÃ¡nĠ rÃ©nĠkÇĴuĠ
zhÄģo ĠhÃ©Ġ
wÃºĠ fÇİ
ĠxiÄģngĠ guÄģnĠ
Ġt Ã©ngĠ
zhÃłoĠ kÄģiĠ
dÃło ĠlÃ¹Ġ
ĠdÃłoĠ dÃ¡Ġ
ĠfÃ¹Ġ zÃ©
chÃ¡ng ĠdeĠ
yÇĲnĠ qÇĲ
ĠzÃ¬ĠjÇĲ ĠdeĠ
ĠbÄĽiĠ qÇĲĠ
sÇĲ ĠhÃ²uĠ
ĠtÄģĠ yÄĽĠ
wÃ¡ngĠ chÃ¡oĠ
I n
sh Äģo
ĠshÃ¬Ġ wÄĵiĠ
S TĠ
sÄ« ĠlÃ¬Ġ
ĠyÃºĠ lÃ¨Ġ
ĠzhÅįngĠguÃ³Ġ dÃłĠlÃ¹Ġ
yÃłĠlÃ¬ĠshÄģn ĠdÃłĠ
ĠyÇĲĠ bÃ¨iĠ
Ġ Ã©Ġ
Ġcu Ä«Ġ
Ġ yÄ«ngĠyÇĶĠ
zhÃŃĠ mÃŃn
jÅ«Ġ mÃŃn
zhÇĶ ĠlÃ¬Ġ
ĠpÃŃngĠ miÃłnĠ
m Ã¡Ġ
Ġ hÃ³ng
nÃŃ ĠkÃ¨Ġ
dÃ¬Ġ Ã¨rĠ
ĠtÄģ ĠwÃ¨iĠ
Ġ à
jÃ¹Ġ lÃ¨ĠbÃ¹Ġ
chÄĵ ĠdeĠ
ĠzhÄ«Ġ jiÄģn
Ġ200 0ĠniÃ¡nĠ
ĠxiÃłnĠdeĠ yÃŃĠgÃ¨Ġ
p er
202 4ĠniÃ¡nĠ
ĠbÃ¹Ġ bÃ¹Ġ
ĠzÃłiĠ wÃ¨iĠ
jÄ«nĠ pÃ¡iĠ
Ġf Ã¡nĠ
n eĠ
yÃ¹n ĠzuÃ²Ġ
lÇľĠ shÄ«Ġ
guÇİngĠ fÃłn
ĠĠĠ202 5ĠniÃ¡nĠ
Ġ wÃ¹Ġ
jiÄģo ĠhuÃ¬Ġ
ĠÃ©rĠ yÃ¡nĠ
yÃłoĠ wÃ¹Ġ
1 ĠĠĠ
zhu ÅįĠ
shÇĴu ĠgÃ¨Ġ
tuÃ¬ ĠchÅ«Ġ
ĠxiÃłnĠdeĠ yÃŃĠgÃ¨
Ġ xuÄģnĠbÃ¹Ġ
cÃ¬Ġ shÇĲĠ
bÅįĠ lÃ¡nĠ
a ng
su Åį
ĠsÄ«Ġ tÃ¨
ĠkÃ¨ ĠchÃ©ngĠ
wÇĴĠ menĠ
Ġ lÃ¡iĠzÃ¬Ġ
jÇĲ ĠgÃ¨Ġ
ĠyÇĴuĠ yÃ¬Ġ
yÄĽ ĠhuÃ¬Ġ
jÄ«n ĠhuÃ¬Ġ
fÄĵi ĠzhÅįuĠ
A R
biÃłn ĠdÃ©Ġ
ĠshÃŃĠ yÃłnĠ
ĠĠĠ200 9ĠniÃ¡nĠ
f Ã©i
dÅįngĠ bÄĽiĠbÃ¹Ġ
Ġ 0Ġ
ĠĠĠ xiÃłĠ
Ġ200 3ĠniÃ¡nĠ
ĠxÄ«Ġ sÄ«Ġ
Ġ lÃ©iĠ
fÃº ĠyÃ¬Ġ
dÄģngĠ shÃŃĠdeĠ
chu Ã¡ng
mÃ¹Ġ biÄģo
bÅįĠ fÃłngĠ
ĠÃ©rĠshuÇĲĠyÃ¹ĠmiÃłnĠjÄ«ĠwÃ¨iĠ 0
ãĥ »
H Ġ
Ã Ĺ
ĠguÃ³Ġ jiÄģĠdeĠ
ÃłoĠdÃłĠlÃ¬Ġ yÃłĠ
jÃ¹ ĠhÃ©Ġ
ĠshÃ¬Ġ jiÄģĠ
ĠshÃ¬Ġ yÇĶĠ
zÃ¬Ġ yÃ³u
gÃ²uĠ zÃłoĠ
zhuÄģngĠ jiÇİĠ
bÄĽn ĠdÃ¬Ġ
yÃł ĠzhÅįu
ĠzhÄ« ĠwÃ¨iĠ
ĠbÃ¬ngĠ jiÄģngĠ
k Äĵng
xiÃło ĠdeĠ
Ġ 30Ġ
ĠhÃ©Ġ qÃŃĠtÄģĠ
Ġ chÄĵngĠwÃ©iĠ
biÄģn ĠjÃ¹Ġ
jÃ¹Ġ juÃ©Ġ
ĠchÃ©ngĠ rÃ¨nĠ
suÃ¬ ĠshÃŃĠ
ĠchÃ©ngĠ xÃ¹Ġ
f ÄĽn
ĠbÃ¹Ġ dÃ©
gÄģoĠ sÃ¹Ġ
shÄ«Ġ bÃłiĠ
Ġ qiÃ¡oĠ
fÃ¹Ġ qÄ«n
ĠjiÃłnĠ zÃłoĠ
bÄģĠ lÃŃ
huÃ²ĠdÃ©Ġ leĠ
huÄģnĠ yÃŃngĠ
f f
zhuÄģng ĠshÃ¬Ġ
yÇİnĠ chÃłngĠ
ĠjÃ¬nĠxÃŃngĠ leĠ
Ġ fÇİn
qi ÄĵĠ
Ġ r
3 2
Ġt Ãºn
Ġ jiÃ¨Ġ
ĠyÃºĠ 195
guÄģnĠ bÃ¬Ġ
ĠfÃ¹Ġ qÄ«nĠ
ĠjiÃ©Ġ guÇĴĠ
cÄģn ĠmÃ³uĠ
ĠÃ©rĠ gÄģiĠdÃ¬Ġ
fÇİĠ yuÃłn
ĠqiÃº ĠyuÃ¡nĠ
c Çİo
Ġ chÃ¬Ġ
ĠĠĠ chÃ©ngĠ
jiÃłn ĠyÃ¬Ġ
xiÄģn ĠshÄĵngĠ
ĠbÃ¹Ġ lÄģĠ
bÃ³ĠwÃ¹Ġ guÇİn
ĠĠĠ w
ĠdeĠ jiÄģĠ
yÃ¬Ġ dÃłĠlÃ¬Ġ
ĠzhÃłnĠ dÃ²uĠ
mÃ¡oĠ zÃ©Ġ
6 4
sÃł ĠsÄ«Ġ
ĠyÄ«Ġ jÃŃĠ
ĠbÃ¬ng ĠyÇĶĠ
mÃ²ĠxÄ«Ġ gÄĵĠ
Ġ hÄĽnĠ
ĠdÃłĠ lÃ¹Ġ
gÇĶĠ fÃ¨n
biÇİoĠ dÃ¡
ĠwÃ¨iĠ yÇĴuĠ
jiÄģĠ rÃ¹
ĠwÃ¨iĠ lÃ¡iĠ
ĠzhÄ« ĠdeĠ
Ġ guÄģnĠyÃºĠ
ĠxiÃłn ĠyÃºĠ
ĠzhÅįngĠgÃ²ng ĠzhÅįngĠyÄģngĠ
e d
jiÃ©Ġ guÇĴ
Ġ dÃºĠ
luÃ³ ĠdÃ¬Ġ
jÇĲn ĠjÃŃĠ
qÇĲng ĠqiÃºĠ
hÃ³ngĠ sÃ¨Ġ
Ġ liÃ¡ngĠ
quÃ¨ ĠrÃ¨nĠ
shÅįu ĠshÃ¬Ġ
jÃ¬Ġ xÃ¹Ġ
jÇĲngĠ fÄģngĠ
ĠĠĠ cÃ³ngĠ
ĠjiÄģĠ zÃºĠ
ĠfÃ¹Ġ qÄ«n
sÃł ĠÄĽrĠ
ĠjÃ¬n ĠgÅįngĠ
ĠjÃ¬nĠ yÃŃĠbÃ¹Ġ
zhu Ã¬Ġ
200 7ĠniÃ¡nĠ
Ġ bÇİiĠ
kÇİoĠ lÇľ
o h
Ġ nÃł
3 5Ġ
tÇİn ĠkÃ¨Ġ
Ġ guÇİngĠ
chÇİng ĠhÃ©Ġ
ĠyÃ¬Ġ mÄĽiĠyuÃ¡nĠ
huÇĴĠ shÄģnĠ
u s
ĠsÄ«Ġ kÃ¨Ġ
shÄĵnĠ tÇĲĠ
m Ã¡
Ġ chÃ¡
mÇĶĠ qÄ«n
gÅ« ĠjÃ¬Ġ
biÄģn ĠdeĠ
huÇĴ ĠjiÃłnĠ
hÇİiĠ ÃłnĠ
tÃłiĠpÃŃngĠ yÃ¡ng
ĠjÃ¬Ġ shÃ¹
Ġs ÇĶnĠ
ruÃ¬Ġ diÇİnĠ
bÇĲĠlÃ¬Ġ shÃŃĠ
s Åįu
ĠdeĠ zhÃ¬Ġ
zhÇİo ĠdÃłoĠ
â Ķ
juÃ© ĠduÃ¬Ġ
gÃ¨ng ĠduÅįĠ
ĠshÃ¬Ġ rÃ¬ĠbÄĽnĠ
ĠyuÃ¨Ġ tuÃ¡nĠ
ĠyÇĲ ĠyÇĴuĠ
guÇİngĠdÅįngĠ shÄĽngĠ
sh ÄĽ
ĠzhÃ¬Ġ chÃ©ngĠ
shÃłngĠ wÇĶĠ
ĠchÅ«Ġ shÄĵngĠ
zhÇĴngĠ zÃºĠ
ĠtÃ¨ĠbiÃ© ĠshÃ¬Ġ
Ġ cÃ¬Ġ
yÃº ĠzÃłiĠ
ĠshÃ¬Ġ zhÃ¨ngĠ
mÃŃnĠ jiÄģnĠ
Ġ chÃ¡oĠ
nÃ¨i ĠyÇĴuĠ
200 0ĠniÃ¡nĠ
wÃ¡n ĠgÅįngĠ
ÄģnĠ pÃ¡iĠ
mÃŃnĠzhÇĶĠ dÇİngĠ
ĠdÃłĠ yuÄĵĠ
ĠyuÃ¡nĠ bÄĽnĠ
S T
jÄ«Ġ chÇĶĠ
hÃºĠ bÄĽiĠ
sÄĵnĠ lÃŃnĠ
nÃ¡n ĠyÇĲĠ
ĠzhÄ«Ġ ziĠ
ÄģnĠ nÃłĠ
xÄ«ĠbÄģnĠ yÃ¡
zhÄĽ ĠzÃłiĠ
ĠdÃłĠ dÃłoĠ
yÃ²ngĠ tÃºĠ
tÃ¡iĠ fÄĵngĠ
yÇĲnĠ qÃŃngĠ
dÃłiĠbiÇİo ĠdÃłĠhuÃ¬Ġ
ĠqÄ«Ġ xÄ«ĠzÃłiĠ
ĠbÃ¨iĠ rÃ¨nĠwÃ©iĠshÃ¬Ġ
Ã¨r ĠyuÃ¨Ġ
ĠpÃºĠ tÃ¡oĠ
Ġ nÇļĠxÃ¬ngĠ
tÃ¨Ġ sÃ¨Ġ
fÃłngĠ qÃ¬Ġ
ĠC h
lÃ¬ ĠzÃłiĠ
xÃŃĠ xÃ¬ng
Ġ mÃ²
mÄĽi ĠgÃ¨Ġ
qÃŃngĠ bÃłoĠ
dÄĵng ĠshÃłngĠ
ĠxiÃłnĠ chÇİngĠ
wÃłi ĠbÃ¹Ġ
tiÄģnĠ jÄ«nĠ
Ã©ĠluÃ³Ġ sÄ«
Ġ guÄģn
Ġ mÃ©ngĠ
2 ĠĠĠ
d Äģ
xiÃło ĠyuÃ¡nĠ
zhÃ¨ngĠ dÇİngĠ
yÃ¡nĠ shÄĵn
hu Ãłi
ĠtÄģĠmen ĠzÃłiĠ
Ġ yÅįngĠyÇĴuĠ
ĠdeĠ zhÇĶĠ
ĠshÃ¬Ġ yÃ¨Ġ
tÃºn Ġ
ï¼ ħ
tiÄģnĠ jÄ«n
ĠyÇĴuĠ xiÃłnĠ
ĠyuÃ¡nĠ sÃ¹Ġ
ĠrÃ¬Ġ jÅ«n
Ġ18 7
n Ãłi
ĠdÃłĠ duÅįĠshÃ¹Ġ
suÃ¬ ĠdeĠ
zuÃ²Ġ zhÃłnĠ
mÇİĠlÃ¡i ĠxÄ«ĠyÃłĠ
lÃŃ ĠmÇĲĠ
zhuÄģng ĠbÃ¨iĠ
kÇİoĠ lÇľĠ
nÇĶ ĠlÃ¬Ġ
suÇĴ ĠdeĠ
5 8
xÃ¬ngĠ qÃ¹Ġ
Ġc Çİo
jiÄģoĠ liÃºĠ
zhÃłngĠ ÃłiĠ
tÇĶĠÄĽr ĠqÃŃĠ
Ġ xiÅ«Ġ
âĶ Ģ
ĠĠĠ zÄĵngĠ
chÇİng ĠdÃ¬Ġ
lÃ³ngĠ jiÄģngĠ
shu ÄģĠ
qiÄģn ĠzhÃ¬Ġ
ÄģnĠ zhuÄģng
wÇİngĠ luÃ²
lÇĲngĠ xiÃ¹Ġ
Ġ fÃ¨i
ĠjÃŃĠ bÄĽiĠ
ÄģnĠ quÃ¡n
ĠchÅ«Ġ lÃ¡iĠ
Ġ wÄĽiĠ
ĠbÃ¹Ġ jiÇĶ
zhÃłnĠ lÇĲngĠ
ĠzÃłiĠ qÃŃĠ
ĠzhÄ« ĠdÃłoĠ
bÃłn ĠlÇĲĠ
ĠbÃ¹Ġ zÃºĠ
Ġm Ã³u
s Ãłn
Ġ gÇİngĠ
shÃłng ĠdÃ¬Ġ
lÇĲng ĠshÃ¬Ġ
ĠdeĠ shÄĵngĠ
ĠjiÃ©Ġ mÃ¹Ġ
lÇĲ ĠgÅįngĠ
ĠjÄ«Ġ bÃłi
1 ĠlÃ¬Ġ
Ġ lÇİoĠ
chÃ¡ng ĠjiÃłnĠdeĠ
dÇİo ĠdÃłnĠ
gÄĵĠ lÃºnĠ
mÃ¬Ġ mÃ¬Ġ
ĠqÄ«ngĠ chÃ¡oĠ
Ġ hÃ¨Ġ
wÃ¨i ĠĠĠ
3 ĠgÃ¨Ġ
guÃ¬ ĠzhÅįuĠ
chuÃ¡nĠ shuÅįĠ
nÃ³ngĠ yÃ¨
c eĠĠĠ
ĠyÃ¬Ġ yuÃłn
mÃŃngĠ zÃ¬Ġ
zhÃŃĠ dÇİoĠ
fÇİĠ guÄģnĠ
Ġp Ã¡ngĠ
Ġ jÄ«ngĠjÃ¬Ġ
mÃŃng ĠzhÃ¬Ġ
ĠhÃ©Ġ shÃŃĠ
ĠchÃ©ngĠ dÃ¹Ġ
jÃ¬nĠxÃŃngĠ leĠ
ĠĠĠI n
Ġ zhÅįngĠshÃ¬Ġ
nÃ©ng ĠzÃłiĠ
huÃ¡Ġ shÃ¨ngĠ
shÃ²u ĠdÃło
xiÅ« ĠzhÃ¨ngĠ
bÇĲĠ yÃł
Ġ fÃ¡ngĠ
rÃ¨n ĠshÃŃĠ
xÇĲ ĠjÃ¹Ġ
ĠgÅįngĠ zhÇĶĠ
xÃŃĠxÃ¬ng ĠbÃ¹ĠmÃŃngĠ
c Ġ
d Ã¨ngĠ
bÇĲ ng
h Çİn
diÃłnĠ zi
rÃ¨nĠmÃ¬ng ĠwÃ¨iĠ
ĠchÅ«Ġ qÄ«Ġ
quÃ¡nĠ zhÇİngĠ
qiÃ³ng Ġ
4 5Ġ
Ġ 8Ġ
200 6ĠniÃ¡nĠ
a sĠĠĠ
shÄĵng ĠchÃ©ngĠ
zhÇĶ ĠshÃ¬Ġ
ĠyÇĴuĠ xiÄĵĠ
ĠsÄ«Ġ tÇİn
ĠĠĠ mÄĽiĠguÃ³Ġ
ch ÇĴuĠ
biÃłn ĠwÃ¨iĠ
Ġ18 6
shÃ¨ ĠzhÃ¬Ġ
tÃ¡iĠbÄĽi ĠshÃ¬Ġ
ĠshÄĵngĠhuÃ³Ġ xÃŃĠxÃ¬ngĠbÃ¹ĠmÃŃngĠ
ĠĠĠ xiÃłn
tÃŃ ĠchÅ«
jÄ«ngĠ yÃłnĠ
Ġ xiÃłng
dÃ¬ ĠzÃłiĠ
ni Ã¨
ĠtÄģĠ hÃ¡iĠ
bÃłoĠ fÄģ
miÇİnĠ diÄģnĠ
Ġ pÃ¨i
Ġ zhuÇİnĠ
ĠbÃ¹Ġ luÃ²Ġ
ĠyÃ¬Ġ qÇĲ
Ġ jÃ¹ĠyÇĴuĠ
hÄĽn ĠdÃłĠ
ĠjÃ¬Ġ suÃłnĠ
Ġt ÄģngĠ
piÃłoĠ fÃ¡ngĠ
c ÄģoĠzuÃ²Ġ
ĠhÃ©Ġ hÃ©Ġ
zhÃ¬ ĠzhÅįngĠ
pÃŃngĠ lÃ¹nĠ
Ġ gÄģnĠ
jÃ¬ ĠshÃ¬Ġ
sÃłi ĠzhÅįngĠ
k Ã²uĠ
ĠĠĠC h
Ġ huÃŃĠ
huÃłĠhÃ©Ġ wÃ¹Ġ
p Ã¡ng
sÄģn ĠshÃ¬Ġ
ĠÃ©rĠ bÃºĠshÃ¬Ġ
hÇİiĠ wÃłiĠ
Ġ cÄģnĠjiÄģĠ
ĠshÃŃĠ dÃłi
zhÃŃĠ jiÄĵ
dÄģngĠ xuÇİnĠ
tÃŃĠgÅįngĠ leĠ
t uÃ²Ġ
li ÇİnĠ
bÃło ĠlÃ¬Ġ
ĠcÃ¬ ĠniÃ¡nĠ
i m
Ġ yuÄĵĠhÃłnĠ
mÃŃng ĠrÃ©nĠ
ĠzÃłiĠ cÇĲ
ĠyÄ«Ġ xuÃ©Ġ
shÃłngĠ yÃ¬ngĠ
zhÇĶĠ yÃ¬ĠdeĠ
shÅ«Ġ rÃ¹Ġ
zÄ«Ġ chÇİnĠ
s ÄģĠ
9 9
v eĠĠĠ
ĠwÃ¨iĠ xÄ«ngĠ
ĠĠĠ200 7ĠniÃ¡nĠ
jiÄģĠlÃ¬Ġ fÃºĠ
ĠĠĠ lÇĲĠ
mÇİ ĠlÇĲĠ
ĠzÃłiĠ nÃ¨iĠdeĠ
ĠyÇĴuĠ yÃŃĠgÃ¨Ġ
Ġ chÇĶĠyÃºĠ
qu Äĵ
zhu Ãłn
c o
zhÃ¬ ĠbÃ¹Ġ
ĠxiÃłnĠ xiÃłngĠ
tÃłiĠ ziĠ
Ġ gÃ²ng
fÇİ ĠyÇĶĠ
ĠyÄĽĠ jiÃ¹ĠshÃ¬Ġ
ĠĠĠ andĠĠĠ
bÄ«n ĠhÇİiĠ
ĠzÃłiĠ dÃ¹Ġ
ĠÃ©r ĠbÃ¹Ġ
tÃ³uĠ zÄ«
yuÃłn ĠshÃ¬Ġ
jiÃłĠ gÃ©Ġ
ĠĠĠcÇĲĠ wÃłiĠ
chuÃłng ĠjiÃłnĠ
tuÄ« ĠjÃ¬nĠ
shÃ¹n ĠlÃ¬Ġ
zuÃ¬Ġ gÄģo
ĠdÅįngĠ nÃ¡nĠ
ĠĠĠ qÃŃĠ
jiÄĽ ĠsÃłnĠ
lÃ©i ĠsÄ«Ġ
shÃ©nĠ meĠ
zÃ© ĠrÃ¨nĠ
ĠshÃ¬Ġ fÇĴuĠ
ruÇİn ĠjiÃłnĠ
ĠyÃ³u ĠqÃŃĠshÃ¬Ġ
xÃºnĠ yÃ¡ng
Ġ gÄĵnĠjÃ¹
ĠxÃŃngĠ zhÃ¨ng
Ġm ÇĴuĠ
wÇİng ĠqiÃºĠ
guÄģnĠ diÇİnĠ
k Å«n
Ġ jÄ«ng
zhÃ¨ngĠ jÃ¹Ġ
lÃ¹nĠ wÃ©nĠ
l Ãłi
gÃ¨Ġ zhÇĴngĠ
Ġ liÃ¨Ġ
18 9
ĠdÃłĠ shÃł
fÄģngĠ miÃłnĠdeĠ
ĠhÃ©Ġ bÃ¹Ġ
ĠshÄĵngĠ zhÇİng
Ġ gÃ²ngĠyÇĴuĠ
yÃº ĠdeĠ
yÄ«ngĠ gÄģiĠ
yÃ¬ngĠ yÃ²ng
jiÃło ĠshÃ¬Ġ
yÄ«ng ĠlÇĲĠ
biÇİoĠ dÃ¡Ġ
pÃ¡iĠmÃŃng ĠdÃ¬Ġ
Ġ bÃ³
qi ÇİoĠ
bÇİnĠ bÄĽn
8 0Ġ
Ġ gÄģo
yÃ¡ng ĠshÃ¬Ġ
gÃ²uĠm ÇİiĠ
A M
Ġ cÄģnĠ
dÃł ĠzhÃ¬Ġ
rÃ©nĠ dÃłĠ
ĠĠĠ f
pÃłi ĠdeĠ
ar i
ĠdÃ© ĠÄĽrĠ
ĠhÃ²uĠ xuÇİnĠrÃ©nĠ
Ġ gÃ©
quÄĵĠ fÃ¡Ġ
ĠĠĠ ÄģĠ
6 7
Ġ 20
zhÃ¨ ĠlÇĲĠ
ĠrÃ¬Ġ bÃłoĠ
jiÃ¹Ġ dÃº
ĠA Ġ
fÃłnĠwÃ©iĠ nÃ¨iĠ
p ÅįĠ
ĠzhÃłnĠ dÃ²u
ĠshÄĵngĠ chÇİn
lÇĲng ĠdÃ¬Ġ
bÃº Ġ
ĠyÃºĠ rÃ©nĠ
ĠĠĠ qiÃ¡nĠ
ĠhÃ©Ġ dÃłĠ
hÇİiĠ xiÃ¡Ġ
ĠĠĠjÃ¹Ġ qÃŃngĠ
xiÄģng ĠshÃ¬ĠdÃ¬Ġ
Ġ xiÃł
bÃłoĠ gÃło
tion Ġ
xÃŃng ĠchÃ©ngĠ
fÄģ ĠxÃŃngĠdeĠ
pÇĶĠ biÃłnĠ
ĠshÇĲ ĠjiÃłnĠyÃºĠ
fÄĵng ĠwÃ¨iĠ
xiÄģngĠ dÄģng
Ġ sÄģiĠ
ĠĠĠ xiÃłnĠ
Ġ yÃŃnĠ
ĠxÄ«Ġ lÃłĠ
dÃºĠ lÃ¬ĠdeĠ
Ġ tiÄģn
ĠtÄģ ĠhÃ©Ġ
ĠlÇĲĠ lÃ¹n
ĠzhÄ«Ġ fÃ¹Ġ
ac k
gÄģoĠsÃ¹ ĠgÅįngĠlÃ¹Ġ
Ã© ĠguÃ³Ġ
yu ÄģnĠ
ĠdeĠ fÄģngĠshÃ¬Ġ
hÃ¨ ĠÄĽrĠ
Ġm Ã¨ng
Ġ202 4ĠniÃ¡nĠ
Ġ suÃ¬Ġ
ĠshÃ¬Ġ gÃ¹Ġ
chÅ«Ġ shÄĵngĠyÃºĠ
la y
ĠzhÅįngĠ bÃ¨iĠ
ÄģnĠ huÄ«Ġ
jÃ¹ ĠdÃłĠ
bÃ¡ Ġ
wÄĵnĠ dÃ¹Ġ
jÃ¬Ġ chÃ©ngĠ
ĠdÃ©Ġ huÃ¡Ġ
Ġ gÄģngĠ
mÇİ ĠÄĽrĠ
ĠzhÃ¬Ġ shÇİoĠ
ĠyÄ«Ġ xiÇİoĠshÃŃĠ
fÄģngĠ yÃ¡nĠ
pÃ¡iĠ hÃ¡ngĠ
jÇĲngĠ chÃ¡
n ĠshÃŃĠ
ã ģ
nÃ¨iĠ gÃ©Ġ
jiÃ¨Ġ shÃłoĠ
yÃŃĠ dÃ¹Ġ
ĠdÃłĠ xÄ«ĠyÃ¡ngĠ
Ġ bÄģnĠ
jiÃ© ĠdeĠ
juÃ© ĠyÃ¬Ġ
ĠqÃŃ ĠzÃłiĠ
dÇİng ĠyuÃ¡nĠ
ĠyÇĴuĠ xiÃłoĠ
ĠzuÃ²Ġ jiÄģĠ
yÃŃĠ dÃ¬ngĠ
chÅ«Ġ shÄĵnĠ
ĠzuÃ¬Ġ gÄģoĠ
s Å«n
qÅ« ĠyÃ¬ĠhuÃ¬Ġ
lÃ¹ĠyÃ¬Ġ sÄ«Ġ
cÃ¬ ĠdeĠ
huÃłn ĠchÃ©ngĠ
ĠdÃłĠ fÃºĠ
cÇİiĠ qÇĶĠ
a st
ĠĠĠ 4
xiÃłn ĠzhÃ¬Ġ
zuÃ² ĠshÃ¬Ġ
zhÃ²ngĠ duÅįĠ
yÄ«ngĠ xiÃ³ngĠ
ĠdÅįngĠ lÃŃnĠ
liÇİng ĠmÃŃngĠ
xÇĲ ngĠ
ĠxiÃłn ĠshÃ¬Ġ
ĠbÄĽiĠ jÄ«ngĠ
ar Ġ
ĠchÅ«Ġ zhÃłnĠ
ĠĠĠdÃ¬Ġ fÄģngĠ
Ġ xuÄģnĠ
Ġ pÃ¨iĠ
bÄĽn ĠrÃ©nĠ
kÇİ ĠsÄ«Ġ
ĠbÃ¬ng ĠbÃ¨iĠ
rÃ¹Ġ xuÇİnĠ
qÅ« ĠhÃ©Ġ
tÃ³uĠ xiÃ¡ngĠ
ĠzhÅįngĠhuÃ¡ĠrÃ©nĠmÃŃnĠgÃ²ngĠhÃ©ĠguÃ³Ġ zhÃ¨ngĠzhÃ¬ĠrÃ©nĠwÃ¹Ġ
Ġ sÅ«
shÃ¨Ġ qÅ«Ġ
ĠtÃ²uĠ guÃ²Ġ
ĠĠĠ m
zu ÇĲĠ
diÃłnĠ huÃłĠ
zuÃ¬Ġ duÅįĠ
tÃ¡nĠ pÃłnĠ
fÇİngĠ wÃ¨n
ĠlÃ¬ng ĠyÄ«Ġ
Ġ hÃłn
ĠĠĠ mÃŃngĠ
hÃ¡n ĠyÇĴuĠ
nÃ¡nĠ bÄĽiĠ
zhÄ«Ġ chÃŃ
jiÇĶĠ lÃ³ngĠ
jiÃłngĠ dÄ«Ġ
kÄĵĠdeĠ qÃŃĠzhÅįngĠyÄ«ĠzhÇĴngĠ
ĠgÅįngĠ yÃ¬Ġ
ĠbÃ¬ngĠ fÄĵiĠ
zhÇĴngĠ ziĠ
diÇİn ĠlÇĲĠ
dÃłng ĠtiÄģnĠ
chÃ©ngĠ yuÃ¡nĠ
Ġ qÇĲ
Ġ tÇİĠ
yÃł ĠjÅ«nĠ
ĠqÃŃĠzhÅįngĠ yÄ«Ġ
zhÃ¨ng ĠbÃ¹Ġ
kÇĴu ĠwÃ¨iĠ
guÃ²Ġ dÃ¹Ġ
qÇĲĠ dÃ²ngĠ
zhÄ«Ġ qiÃ¡nĠ
mÃ¬ĠshÅ«Ġ zhÇİngĠ
wÃº ĠzhÃ¨ngĠzhuÃłngĠ
ĠzÃłiĠ cÃ¬
jÄ«Ġ dÅ«Ġ
ĠbÃ¬ngĠ dÃº
7 0Ġ
shÄģn ĠshÃ¬Ġ
tiÃ¡o ĠlÃ¬Ġ
ĠyÇĲĠ jÃŃ
xiÄģngĠ sÃ¬Ġ
W indow
ĠxiÃłnĠ rÃ¨nĠ
suÇĴĠ chÃ¹ĠdeĠ
i d
xiÄĽ ĠdÃłoĠ
ĠyÄ«Ġ tÃ³ngĠ
hÄĵiĠ sÃ¨Ġ
o d
Ġ 30
lÃ¹ ĠzhÃ¬Ġ
shÃ¹ ĠyÇĶĠ
ĠxÃŃng ĠwÃ¨iĠ
yÇĶnĠ xÇĶ
xÄ«ngĠ dÄĽngĠwÃ¨iĠ
tuÃ¡n ĠdeĠ
ĠgÅįngĠ mÃŃnĠ
ĠyÇĶĠ mÃ¡o
liÃºĠ xiÃłĠ
mÇĴuĠ xiÄĵĠ
9 0Ġ
bÇİn ĠdeĠ
mÃ¹Ġ qiÃ¡n
jiÄĵĠ chÃ¹Ġ
shÃ¨Ġ shÄ«Ġ
zhÄĽngĠ tÇĲĠ
xÄ«nĠjiÄģĠp ÅįĠ
Ġ zÇĶĠfÃ¹Ġ
huÃ¡ng ĠhÃ²uĠ
gÄĽi ĠleĠ
ĠjÄ«Ġ jÄ«nĠ
fÄģĠ shÃ²uĠ
tuÃ¬Ġ xiÅ«Ġ
4 8Ġ
lÇĶ ĠsÄ«Ġ
Ġp ÄģnĠ
p h
u l
chÃŃ ĠyÇĴuĠ
ĠshÃ¬Ġ yÃºĠ
ĠtÃ³ng ĠyÃ¬Ġ
bÇİoĠ shÇĴuĠ
kÄģiĠshÇĲ ĠzÃłiĠ
Ġ Ã
duÅį ĠwÃ¨iĠ
jÄ«ngĠ chÃ¡ng
fÃłnĠ zuÃ¬Ġ
2 ĠgÃ¨Ġ
dÅįu ĠzÃłiĠ
lÃ³ng ĠdeĠ
ĠgÅįngĠ jÃ¹Ġ
suÃŃ ĠzhÃ¹Ġ
gÃ¨ng ĠwÃ©iĠ
gÅįngĠ chÃ©ngĠ
Ġ199 8ĠniÃ¡nĠ
xiÃłĠxiÃ¡ ĠdeĠyÃŃĠgÃ¨Ġ
Ġ yÃ²ngĠyÃºĠ
O S
gÇĶ ĠdÃłiĠ
ĠmÃŃngĠ dÄģnĠ
zhÃ¨nĠ qÅ«ĠdeĠ
gÇİiĠ mÃŃngĠwÃ¨iĠ
lÃ¡i ĠyuÃ¨Ġ
nÃŃ ĠÄĽrĠ
nÃ©ngĠ liÃłngĠ
sÇĲĠ wÃ¡ng
ĠdeĠchÃ©ngĠ jÃ¬Ġ
Ġ194 9ĠniÃ¡nĠ
k Å«Ġ
Ġ pÃŃngĠjÅ«nĠ
ĠĠĠ qÃŃĠtÄģĠ
nÃ¡n ĠdeĠ
ĠÃ©rĠ gÄģiĠ
biÇİoĠ yÇİn
k ÄĽn
Ġ qÄ«ĠjiÄģnĠ
tiÃ¡oĠ zhÄĽng
bÄĽiĠjÄ«ng ĠshÃ¬Ġ
i k
n Ã¨
ĠĠĠ jÃŃĠ
200 4ĠniÃ¡nĠ
fÄĵngĠ xiÇİnĠ
tÅ«Ġ pÃ²Ġ
bÃ³ĠshÃ¬Ġ xuÃ©ĠwÃ¨iĠ
yuÃ¨ ĠzhÅįngĠ
shÄģn ĠjÄ«Ġ
200 1ĠniÃ¡nĠ
jiÃłoĠ tÃ¡ng
yÃ³u ĠjÄ«Ġ
ĠdeĠ xÃŃngĠ
nÇļĠ xÃ¬ng
guÃ¬Ġ zÃºĠ
Ġ shÄĵngĠyÃºĠ
zh ÄģiĠ
zÇİoĠ qÄ«
Ġ zhÃło
ĠdÃ© ĠyÇĶĠ
ĠqÃŃĠ hÃ²u
ĠrÃ©nĠmÃŃnĠ zhÃ¨ngĠfÇĶĠ
wÃºĠzhÃ¨ngĠzhuÃłngĠ gÇİnĠrÇİnĠ
Ã¡i Ġ
ni Ã¡ngĠ
ĠhÃ©Ġ pÃłnĠ
shÅįuĠ gÃ²uĠ
ÄĵnĠ shÄĽngĠ
ĠyÄ«Ġ zuÃ²Ġ
ĠxiÇİng ĠniÃ¡nĠ
xuÃ©Ġ huÃ¬Ġ
liÃ¡nĠ xÃ¹
chÃ¡ngĠ wÄĽiĠ
huÃ³ ĠyuÃ¨Ġ
chÃ¡ngĠ wÃ¹Ġ
hÃ¹Ġ liÃ¡nĠ
quÃ¨ĠzhÄĽn ĠbÃ¬ngĠlÃ¬Ġ
shÃ²u ĠdeĠ
ÄģnĠ nÃł
zhÇĶĠyÃło ĠdeĠ
yÇĲĠ jÄ«ngĠ
dÄģn ĠdeĠ
ĠbÃ¹Ġ sÄ«Ġ
suÇĴĠ yÇĴuĠdeĠ
bÃłoĠ zhÃłĠ
gÃłiĠ niÃłn
kÃ¨ ĠchÃ©ngĠ
lÃ¬ng ĠrÃ©nĠ
shÅįu ĠjÃŃĠ
fÃ¹Ġ zÃ©
ĠmÄĽi ĠgÃ¨Ġ
Ġ hÇİi
ĠbÃ¹Ġ lÃ¬Ġ
guÄģnĠ chÃ¡Ġ
tÃŃ ĠjÃŃĠ
ĠshÃ¬Ġ mÃŃnĠ
ĠwÃ¨iĠyÃºĠ zhÅįngĠguÃ³Ġ
sÄģiĠÄĽrĠ wÃ©iĠ
5 ĠmÇĲĠ
c Ã¡oĠ
Ġ yÃ¡n
du ÇĴ
huÃ¬ ĠzhÅįngĠ
rÃ¨n ĠwÃ¨iĠ
xiÄĽ ĠdeĠ
wÃ©iĠ ÄĽrĠ
dÃ¬ngĠ jÅ«Ġ
ĠbÇĲĠ rÃºĠ
kÃ¹nĠ nÃ¡nĠ
28 Ġ
ĠdeĠdÃ¬Ġ Ã¨rĠ
ĠtÅįngĠ chÃ¡ng
ĠshÃ¬Ġ xÄ«Ġ
ĠjÃŃĠ rÃ©nĠ
ĠlÃ¬Ġ fÇİ
zhÇĶĠ yÇİnĠ
g h
n Ãº
ĠchÃ©ngĠ rÃ©nĠ
zÃºĠqiÃºĠ yÃ¹nĠdÃ²ngĠyuÃ¡nĠ
Ġ chuÃłngĠ
xÃ¬nĠ yÇİngĠ
ĠtÃ³ngĠshÃŃĠ gÄģiĠdÃ¬Ġ
Ġ199 9ĠniÃ¡nĠ
Ġ hÃ©ngĠ
ĠjÄ«Ġ sÄ«Ġ
biÄģnĠ jiÃ¨Ġ
wÃ¡nĠ zhÄĽng
Ġ tiÃ¡nĠ
shÄĽng ĠdeĠ
bÄĵi ĠsÄ«Ġ
jiÄĽĠ fÃłngĠ
I I
huÃ¬ ĠzhÃ¬Ġ
ĠrÃ¬ ĠyÃºĠ
qiÃ¡ngĠ liÃ¨Ġ
zhuÄ«Ġ sÃ¹
dÄģng ĠniÃ¡nĠ
200 5ĠniÃ¡nĠ
ĠjÄ«Ġ chÇİng
Ġk Çİi
ĠhÃ²uĠ zhÄĽĠ
ĠbÃ¬ngĠ dÃºĠ
nÃ¨iĠlÃ¹Ġ shÄĽngĠfÃ¨nĠ
kÄĵĠxuÃ©Ġ jiÄģĠ
tÃº ĠxÃŃngĠ
zhÇĶĠ jiÃło
n ĠdeĠ
Ġ bÃłnĠ
zhÃº ĠbÃ¹Ġ
ĠdÃ¬Ġ sÃ¬
w Ã¡Ġ
ĠjÃŃĠ dÃ¬Ġ
ĠkÃ¨ ĠxÄ«Ġ
g ÇĴuĠ
shÄģn ĠdeĠ
ĠbÃ¹Ġ shÇİoĠ
jiÇİnĠ shÇİo
h ÄĵngĠlÃ¬Ġ
Ġ huÇĴĠ
Ġ nÇĲĠ
suÃŃ ĠjÃŃĠ
fÄģngĠ fÇİ
zuÃ¬Ġ gÄģoĠdeĠ
yÃłĠ mÄĽiĠ
liÃ¡nĠhÃ©Ġ huÃ¬Ġ
xÅ«nĠ zhÄģngĠ
Ġ zhuÄģngĠ
Ġ Ã¨rĠshÃŃĠ
dÄģng ĠzhÅįngĠ
chÄģo ĠyuÃ¨Ġ
sÄģnĠ jiÇİo
liÃ¡oĠ nÃŃngĠ
5 7
Ġ Z
Ã©r ĠtÃ³ngĠ
zuÃ²Ġ chÅ«Ġ
pÃŃngĠ tÃ¡iĠ
shÄģnĠ qÅ«Ġ
ĠxÄ«ĠbÄģnĠ yÃ¡Ġ
Ġ jÃ¹
hÇİi ĠpÃŃngĠmiÃłnĠ
cÃ©ng ĠwÃ¨iĠ
ĠzÃłiĠ 197
ĠshÃŃĠ qÄ«ĠdeĠ
ĠguÃ³Ġ nÃ¨iĠ
xiÃłngĠ zhÄĵngĠ
xiÃłĠlÃ¬ng ĠshÃŃĠjiÄģnĠ
ĠĠĠ 1Ġ
bÃ¨i ĠdeĠ
bÃº ĠdÃłoĠ
zhÇĲĠ nÃ©ngĠ
yÃŃĠ dÃ¬ng
ĠzhÃ¨Ġ zhÇĴng
fÄĵiĠ chÃ¡ng
shuÄģngĠ fÄģngĠ
6 6
ĠdÃ©Ġ zhÇĶĠ
fÄģĠ qÇĲĠ
zhuÇİnĠ xiÃłngĠ
huÄ«Ġ fÃ¹
guÃ² ĠdeĠ
ĠyuÃ¡nĠ xÃŃngĠ
shÄ«Ġ qÃ¹
wÇĶĠ zhuÄģng
Ġt ÃłoĠ
z Ã²ng
Ġ jiÇĶ
shÅ« ĠzhÅįngĠ
ĠjÄ«Ġ huÃ¬Ġ
tÃŃ ĠyÃ¬Ġ
zÃ¬Ġ rÃ¡n
tÃ¡iĠ nÃ¡n
jÃ¬ngĠnÃ¨iĠ gÃ²ngĠyÇĴuĠ
I C
f Ã©nĠ
Ġ xÃºnĠ
ĠlÃ¬Ġ liÃłngĠ
nÃŃĠyÃł ĠzhÅįuĠ
3 2Ġ
xÃ¹ ĠlÃ¬ĠyÃłĠ
ĠĠĠbÃ¨iĠ jÇĲngĠ
Ġ yÄģoĠqiÃºĠ
ĠyÄ«Ġ lÃ¬Ġ
ĠzÃłiĠ shÃŃĠ
ĠgÅįngĠ zhÃ²ngĠ
zhÄģngĠ zhuÄģnĠjÃŃĠ
A C
Ġ wÃ²
mi Ã¨
ĠhÃ©Ġ yuÄĵĠ
ĠÃ©rĠ ziĠ
ĠĠĠ200 6ĠniÃ¡nĠ
cuÃ²Ġ shÄ«Ġ
f Ã©ng
pÄ«Ġ zhÇĶn
Ġ hÃło
xiÃłn ĠdeĠ
pÃŃng ĠwÃ¨iĠ
qÄ«n ĠzÃ¬Ġ
ĠyÇĲĠ wÃ©iĠ
duÅįĠ zhÇĴngĠ
yÄ«ngĠ gÃ©ĠlÃ¡n
Ġs ÅįuĠ
jiÄģ ĠyÃ¬Ġ
lÃ¡n ĠdeĠ
zhÇĲĠ dÇİoĠ
Ġ wÃ¡nĠjiÄģĠ
zÃ¬ ĠdeĠ
huÃ¬ĠyÃ¬Ġ yuÃ¡nĠ
fÃº ĠdeĠ
guÄģnĠ chÃ¡
ĠxuÃ©Ġ yuÃłn
shÄĵnĠ dÃ¹Ġ
ĠzuÃ¬ ĠchÅ«Ġ
yÄģoĠ qÇĲng
ĠĠĠdÃ¬ĠfÄģngĠ zÄ«ĠliÃłoĠ
D TĠ
m ÄĽngĠ
ĠyÇĴuĠ suÇĴĠ
gÃ²u ĠdeĠ
nÃ¡ ĠxiÃłĠ
ĠchÅ«Ġ kÇĴuĠ
ĠĠĠ jiÇİnĠjiÃ¨Ġ
luÃ³ ĠlÇĲĠ
dÄ« ĠyÃºĠ
ĠhÃ²uĠ bÃ¨iĠ
nÃ¡nĠ jÄ«ng
ĠtÄģĠcÃ©ng ĠdÃłiĠbiÇİoĠ
lÃ¡i ĠyÄ«nĠ
ĠxuÃ©Ġ jiÄģĠ
Ġc ÄģoĠ
m ÄģĠ
Ġ yuÄĵ
du Ã²
nÃ©ng ĠyuÃ¡nĠ
fÄģĠ shÄĵngĠzÃłiĠ
gÇİiĠ biÃłn
ĠdÅįngĠ bÄĽiĠ
dÃŃ ĠshÃ¬Ġ
ĠshÃ¬Ġ yÄ«nĠwÃ¨iĠ
ĠdÃ¬Ġ lÇĲĠ
ĠxiÃłnĠ fÇİĠ
dÃł ĠbÃ¹Ġ
lÇĲ ĠhÃ©Ġ
tÃ¡i ĠzhÅįngĠ
ĠshÃŃĠ xÃŃngĠ
ĠchÃ©ngĠ zhÃ¨nĠ
cÃ¨Ġ liÃ¡ngĠ
jiÃłĠ shÇĲĠ
ĠshÃŃĠjÃ¬Ġ shÃłngĠ
ĠshÄĵngĠ yÃ¡Ġ
dÃŃ ĠrÃ©nĠ
Ġ xiÇİo
shÄģng ĠrÃ©nĠ
ĠyÇĲĠ xÄ«Ġ
ĠxÄ«Ġ jiÄĵĠ
ÄģnĠ pÃ¡i
ĠĠĠ 17
pÃłi ĠchÅ«Ġ
zhÃ¹Ġ zhÃ¡iĠ
dÄĽngĠ dÄĽngĠ
Ġn u
ĠzhÅįngĠguÃ³ĠrÃ©nĠmÃŃnĠ jiÄĽĠfÃłngĠjÅ«nĠ
jiÄģng ĠzÃłiĠ
ĠzhÃ¨ngĠ mÃŃngĠ
E R
quÃ¨ ĠdeĠ
la Ġ
lÄģĠ dÄ«ng
Äģn ĠshÃ¬Ġ
tÃŃ ĠchÅ«ĠdeĠ
xuÇİn ĠzhÅįngĠ
00 ĠmÇĲĠ
gÃłn ĠbÃ¹Ġ
suÇĴĠ cÇİiĠyÃ²ng
Ġk ÄĽnĠ
ĠdÃłĠxuÃ© ĠdeĠ
hÇİiĠbÃ¡ ĠwÃ¨iĠ
mÄĽi ĠzhÅįu
ĠdÃ¬Ġ yÃŃĠgÃ¨Ġ
ĠyÃ¬Ġ qÃŃngĠ
kÄģiĠ tÅįngĠ
Ġ xiÃ©Ġ
kÄģi ĠshÃ¨Ġ
biÄģo ĠbÄĽnĠ
zÃłn ĠshÃŃĠ
ĠdÃ¬Ġ qÄ«Ġ
ĠlÃ¬Ġ yÃ¬Ġ
chÄģiĠ chÃºĠ
ĠdeĠshÃ¬Ġ jiÃ¨Ġ
N B
f Ã©iĠ
xiÅ«Ġ gÇİiĠ
nÃ³ngĠ mÃŃnĠ
tÃ¡oĠ tÃłiĠ
z Ġ
ĠzhÅįngĠ guÃ³ĠdeĠ
jÄ«Ġ gÃ²uĠ
yÃ¡nĠ sÃ¨Ġ
chuÃ¡nĠ bÅįĠ
suÇĴ ĠzÃłiĠdÃ¬Ġ
ĠdÃ© ĠmÃŃngĠ
T V
Ġ tÃŃĠgÅįngĠ
shuÇĲ ĠlÃ¬Ġ
tÃłiĠ dÃ¹Ġ
tÃ³uĠ piÃło
Ġ shÇĶ
Ġ xiÇİngĠ
le ĠzÃłiĠ
fÄģ ĠmÃŃngĠ
ĠqÃŃ ĠwÃ¨iĠ
wÃ©n ĠdeĠ
zhÅįngĠ yÄģngĠ
chÇİngĠ suÇĴĠ
wÃ¡ng ĠshÃ¬Ġ
wÅ« ĠsÄ«Ġ
zÄ«Ġ bÄĽnĠ
ÄģĠlÄģĠ bÃ³
7 8
juÃ© ĠshÃ¬Ġ
rÃ³ng ĠhÃ©Ġ
ĠrÃ¡n ĠÃ©r
qi ÃłoĠ
jiÃ¹ ĠhuÃ¬Ġ
xiÅ« ĠjiÃłnĠ
zhÃŃĠ zhÃ¨ngĠ
jÇĶĠbÃłn ĠdeĠ
mÃ²ĠxÄ«Ġ gÄĵ
bÃłnĠshÃ¬Ġ chÃ¹Ġ
5 3
Ġ 25
Ġ diÃłnĠyÇĲngĠ
shu Ãłi
jÃ¬ng ĠjÃ¬Ġ
Ġ qÇĶĠ
ĠĠĠ 2Ġ
diÃłn ĠjÄ«Ġ
Ġm ÃŃ
xiÄģoĠ fÃ¨iĠ
Ġ liÃ¹Ġ
jiÃ¹Ġ dÃºĠ
shÄģngĠ yÃ¨
Ġ kÇĴngĠ
qÄ« ĠwÃ¨iĠ
Ġ yÄ«ng
pÃ¨i ĠzhÃ¬Ġ
gÅįngĠ gÃ²ngĠ
zhÇİngĠ dÃ¡Ġ
gÃ©Ġ lÄģĠ
jÃ¬ngĠ xuÇİnĠ
5 6
Ġ huÃ¡
Ġ xÃ¬Ġ
qÅ« ĠshÃ¬Ġ
wÃ©iĠ sÄ«Ġ
gu Åį
huÃł ĠzhÅįngĠ
00 ĠrÃ©nĠ
fÃ¹Ġ zhÇĶĠrÃ¨nĠ
Ġk ÄģnĠ
shÄģnĠ fÄĵngĠ
diÃłoĠ kuÃłi
t or
ĠyÇĶĠ qÃŃĠtÄģĠ
jÄ«ngĠ shÃ©n
qiÃ¡ngĠ diÃłoĠ
zhÃŃĠyÃ¨Ġ shÄĵngĠyÃ¡Ġ
Ġ dÇİoĠ
shÇĴu ĠzhÅįngĠ
lu ÇİnĠ
zÃło ĠleĠ
26 Ġ
ĠwÃ¨iĠ UTCĠ
Ġc nĠ
Ġm Ã¡ngĠ
n a
zhÄĽ ĠshÃ¬Ġ
chÃ©ng ĠhÃ©Ġ
qiÃº ĠjÃ¬Ġ
ĠrÃ©nĠ men
jÄ«nĠ rÃ³ngĠ
zÇĶĠzhÄ« ĠdeĠ
shuÃłiĠ lÇĲng
Ġ Äģi
biÄģnĠ hÃłoĠ
diÃłoĠkuÃłi ĠyÄ«ĠxiÇİoĠshÃŃĠ
Ġ jiÃ¹ĠshÃ¬Ġ
liÃ¹ ĠshÃŃĠ
ĠdÃłĠ jiÇİngĠ
zhÃŃĠ mÃŃnĠ
Ġs Å«n
ĠbÄĽiĠ jÄ«ng
kÄĵĠxuÃ©Ġ yuÃłnĠ
dÃ¡ ĠÄĽrĠ
ĠjÃŃĠ UTCĠ
shÃ¨ĠyÇĴuĠ xiÃłĠlÃ¬ngĠshÃŃĠjiÄģnĠ
ĠdeĠshÃŃĠqÅ«ĠwÃ¨iĠ UTCĠ
ĠÃ©rĠgÄģiĠdÃ¬Ġ suÇĴĠcÇİiĠyÃ²ng
ĠtÃ³ngĠshÃŃĠgÄģiĠdÃ¬Ġ shÃ¨ĠyÇĴuĠxiÃłĠlÃ¬ngĠshÃŃĠjiÄģnĠ
ĠÃ©rĠgÄģiĠdÃ¬ĠsuÇĴĠcÇİiĠyÃ²ng ĠdeĠshÃŃĠqÅ«ĠwÃ¨iĠUTCĠ
Ġ lÃ¹
zhÇİn ĠlÇİnĠ
ri c
ĠyÄ«ĠsÄ«Ġ lÃ¡nĠ
Ġ Ã¨Ġ
Ġ pÃ²Ġ
yuÃ¡nĠ zhÃ¹Ġ
ĠgÄģiĠ cÅ«nĠ
zhÇĶĠ zhÄģngĠ
ĠyÄ«nĠ sÃ¹Ġ
zhÄ«Ġ jiÄģnĠdeĠ
mÇİ ĠkÃ¨Ġ
tÇĲ ĠzhÃ¬Ġ
zhÃº ĠjiÃłn
Ġc Ã¡nĠ
ĠlÃ¬ĠshÇĲĠ shÃłngĠ
ĠlÃ¬ng ĠyÇĴuĠ
gÄģoĠyÃºĠ hÇİiĠpÃŃngĠmiÃłnĠ
A N
tÅ« ĠrÃ¡nĠ
xÃ¬ngĠ biÃ©Ġ
4 ĠgÃ¨Ġ
i sĠĠĠ
Ġ pÃł
ĠĠĠ jiÄģoĠtÅįngĠ
xÃ¬ng ĠwÃ¨iĠ
hÃ¹ ĠxiÄģngĠ
ĠbÃ¹Ġ duÃ¬
ĠgÅįngĠ juÃ©Ġ
diÃłnĠ qÃ¬Ġ
zÄ«Ġ liÃło
wÃłnĠ mÄĽiĠyuÃ¡nĠ
ĠxÄ«Ġ lÃ¡nĠ
yÃŃĠ dÃłiĠ
ĠtÃ³ngĠ yÃłng
tÄģĠmen ĠdeĠ
ĠĠĠ duÃ¬Ġ
shÃłng ĠxiÃłnĠ
zhÃŃĠ wÃ¹
suÇĴĠchÃ¹ĠdeĠ hÇİiĠbÃ¡ĠwÃ¨iĠ
suÇĴĠchÃ¹ĠdeĠhÇİiĠbÃ¡ĠwÃ¨iĠ gÄģoĠyÃºĠhÇİiĠpÃŃngĠmiÃłnĠ
ĠbÃ¹Ġ jÃŃĠ
ĠzhÅįngĠ shÄģnĠ
ĠshÃŃĠ wÃ¹Ġ
ĠqÃŃĠ xiÃłĠ
qiÄģnĠ shÇĶĠ
Ġ kÄģngĠ
zhÃ²ng ĠshÃ¬Ġ
z Å«n
shÇĲ ĠjiÃłnĠyÃºĠ
rÃ¨n ĠdeĠ
dÅįngĠ fÄģngĠ
bÃ¬Ġ yÃ¨ĠhÃ²uĠ
gÇİiĠ zÃłoĠ
4 3
n d
diÃłnĠ chÄĵĠ
xiÃłoĠ qÅ«Ġ
zhÃ¹ ĠyÇĴuĠ
al l
r ÇĶ
r ÄĽnĠ
ĠĠĠ qÃŃ
ĠĠĠ qÄ«ngĠ
fÄģ ĠxiÃłnĠdeĠ
kÄĽ ĠzÃłiĠ
ĠzhÄ« ĠyÃ¬Ġ
ĠqÃŃ ĠshÃŃĠ
tÃ¨Ġ dÃ¬ngĠ
ĠĠĠ19 0
w ÄĵngĠ
nÃ¨i ĠdÃ¬Ġ
Ã¨r ĠjÃŃĠ
.. .
ig h
zhÃŃĠmÃŃn ĠdÃ¬Ġ
Ġ wÄĵi
fÄģ ĠshÃ¨
gÃ© ĠshÃ¬Ġ
shÇĴuĠ xiÃłngĠ
ĠzhÇĶĠ xÃŃĠ
o b
luÃ² ĠchÃ©ngĠ
shÃŃĠ qÅ«Ġ
bÇİoĠ liÃº
Ġm Ã¡ng
ĠĠĠ gÄģi
jiÃłn ĠchÃ©ngĠ
pÃŃng ĠyuÃ¡nĠ
dÄĽng ĠjÃŃĠ
gÄĵng ĠxÄ«nĠ
yÃ¹nĠ yÃ²ngĠ
ĠjiÃ©Ġ guÇĴ
ĠĠĠ mÇİĠ
hÃ²u ĠwÃ¨iĠ
gÇĶ nĠ
ĠbÃ¹Ġ nÃ©ng
ĠyÄ«Ġ jiÄģĠ
yÃ¹nĠ shÅ«
Ġ tÇĶĠ
ĠlÃ¬Ġ rÃ¨nĠ
ĠwÃ¨iĠyÃºĠ gÄģiĠ
ĠĠĠ rÃ¡n
Ġ mÃ©i
Ġ shuÅįĠ
Ġ wÇİĠ
ĠbÃ¹Ġ jÇĲnĠ
pÃŃngĠ lÃ¹n
xiÃ¡Ġ qÅ«Ġ
ĠĠĠ bÄĽn
bÄģo ĠwÃ©iĠ
hÇİiĠ yÃ¡ngĠ
Ġ guÅįĠ
xuÃ© ĠyuÃ¡nĠ
ĠÃ©rĠ tÃ³ngĠ
Ġ199 7ĠniÃ¡nĠ
Ġ zhuÇİn
Ãło ĠzhÅįuĠ
ĠzÃ¬Ġ rÃ¡nĠ
dÄģngĠ dÃ¬ĠdeĠ
xÄ«nĠjiÄģĠp Åį
n Ã¨n
shÄ«Ġ qÃ¹Ġ
zhÃ¨nĠqÅ«ĠdeĠ miÃłnĠjÄ«ĠwÃ¨iĠ
ĠĠĠ yÄ«nĠ
yÃ¡nĠ hÇİiĠ
ĠsuÃŃ ĠzhÃ¹Ġ
5 9
Ġ wÃ¡nĠ
jÃ¬n ĠbÃ¹Ġ
liÇİng ĠwÃ¨iĠ
fÅ«Ġ kÇİĠ
Ġh ÇĶĠ
d ÇİnĠ
k ÇĶĠ
Ġ chÃ¡Ġ
bÅį ĠsÄ«Ġ
jÃº ĠdeĠ
ĠxuÃ©Ġ zhÄĽĠ
ĠxÃŃngĠzhÃ¨ngĠ qÅ«Ġ
jiÃłoĠyÃ¹ ĠbÃ¹Ġ
liÇİngĠ cÃ¬Ġ
xÃ¬nĠ yÇİng
duÃ¬ ĠqÃŃĠ
Ã¨r ĠrÃ©nĠ
ĠtÄģ ĠyÇĲĠ
ĠyuÃ¡nĠ zÃ¬Ġ
jÃ¬ngĠ zhÄĵngĠ
am Ġ
1 ĠgÃ¨Ġ
ĠzuÃ²Ġ chÅ«Ġ
rÃºĠ guÇĴĠ
lÃ¬ngĠ yÃŃĠgÃ¨Ġ
6 9
ĠduÃ¬Ġ shÇĴuĠ
fÇİnĠ huÃŃ
t oĠĠĠ
Ġ Y
Ġ miÃłnĠ
jiÄģ ĠyÇĲĠ
zuÃ¬ ĠchÅ«
biÄģn ĠyuÃ¡nĠ
ĠzhÅįuĠ cÃ¬ĠshÇĲĠ
quÃ¡n ĠqiÃº
qÃ¬Ġ chÄĵ
xiÄģoĠ shÄ«Ġ
Ġ 9Ġ
jÃ¬ ĠyÇĴuĠ
suÇĴ ĠwÃ¨iĠ
miÃłn ĠshÃłngĠ
ĠzÃłiĠ 196
ĠdÃ¬Ġ qiÃº
Ġc Ãłi
cÃ¡iĠ nÃ©ngĠ
zÃłoĠ chÃ©ngĠdeĠ
ĠdeĠbÃ¹Ġ fÃ¨nĠ
Ġ rÃ³ngĠ
cÃ¬ ĠyÃºĠ
liÇİng ĠguÃ³Ġ
ĠyÄ«Ġ jÃ¹Ġ
ĠxÄ«Ġ lÃł
ĠlÇĲĠ xÄ«Ġ
chÃ¡ngĠ dÃ¹Ġ
tiÃ¡nĠ jÃ¬ngĠ
xuÄģnĠ chuÃ¡n
dÇĴng ĠshÃ¬ĠzhÇİngĠ
r Ãło
Ġ yÃŃngĠ
yÃ¬Ġ shÃ¹Ġ
T ub
chu Ä«Ġ
shÄ« ĠgÅįngĠ
xiÄģngĠ guÄģnĠdeĠ
ĠdeĠ yÇĲngĠxiÇİngĠ
chÃ³ngĠ qÃ¬ng
Ġ199 4ĠniÃ¡nĠ
jÃ¹n ĠgÅįngĠ
hÅ«n ĠyÄ«nĠ
ĠdÃ© ĠzhÄ«Ġ
ĠjÄ«Ġ jÄ«nĠhuÃ¬Ġ
jiÄĵĠ duÃłn
lÃŃĠ kÄģi
xiÃłoĠlÃ¬Ġ yÃºĠ
I S
guÃ³Ġ jiÄģ
quÄĵĠ fÃ¡
ÄģĠlÄģĠ bÃ³Ġ
3 1Ġ
Ġ 12Ġ
su Äģn
pÃŃng ĠdeĠ
duÃ¬Ġ zhÇİngĠ
ĠlÇĲĠ yÃłĠ
kÇİĠ luÃ³Ġ
tÇĲĠyÃ¹Ġ chÇİngĠ
A P
Ġ tÃ¡oĠ
zhÃłn ĠshÃŃĠ
xÄ«n ĠchÃ©ngĠ
Ġ199 2ĠniÃ¡nĠ
wÄĽiĠyuÃ¡nĠhuÃ¬Ġ wÄĽiĠyuÃ¡nĠ
ĠjiÃ© ĠkÃ¨Ġ
ÃłiĠÄĽrĠ lÃ¡nĠ
ĠdÃ¬Ġ liÃ¹Ġ
ĠÄĽrĠ duÅįĠ
Ġ rÃ©ng
guÄģn ĠjiÃłnĠ
ĠdeĠ xÄ«Ġ
ĠjÃŃĠ dÃłĠ
ĠyÃ¬Ġ yÃºĠ
bÃ¨iĠ jÇĲngĠ
Ġ 2ĠyuÃ¨Ġ
jÃ¬Ġ niÃłn
shÅ«Ġ yuÃłnĠ
fÃ¨nĠ zÇĲ
jiÃłngĠ lÇĲngĠ
7 9
f Ġ
s s
ĠwÃ¨iĠ dÃłĠ
k uÃ¬Ġ
p Çİo
ĠĠĠ shÃ¨ngĠ
diÇİn ĠshÃ¬Ġ
27 Ġ
ĠzhÃ¬Ġ liÃłngĠ
jÅ«Ġ zhÃ¹ĠzÃłiĠ
Ġzh ÄģnĠ
ĠyÃºĠ201 6ĠniÃ¡nĠ
jiÃło ĠdÃłĠ
sÄģn ĠmÃŃngĠ
pÃ¨i ĠyÄ«nĠ
ĠmÇİĠ lÃ¡i
c Äģng
ĠshÃŃĠ duÃłnĠ
ĠqÃŃ ĠdeĠ
ĠsÄ«Ġ kÃ¨
jiÃ©Ġ dÃ¹Ġ
8 8
zhÃ¨ ĠshÃ¬Ġ
gÄģoĠ xiÃ³ng
m iÃ¡nĠ
ĠyÃºĠ lÃ¨
tiÄģnĠ tÇĲĠ
ĠĠĠ200 5ĠniÃ¡nĠ
chuÃ¡nĠtÇĴng ĠdeĠ
zÄģi ĠpÃ©iĠ
pÃ¬ nĠ
bÃłn ĠdeĠ
tuÄ« ĠchÅ«
ĠzhÃ¬Ġ zuÃ²ĠdeĠ
dÅįngĠ bÄĽi
bÅįĠ lÃŃĠ
fÃ¨iĠ chÃºĠ
b aĠ
ĠĠĠ nÃ¡nĠ
ĠĠĠ jÇĲnĠ
zÃ¬ ĠwÃ¨iĠ
ĠxiÃłn ĠyÇĲĠ
p Ã©i
Ġ fÃ¨ngĠ
ĠjiÃłn ĠshÃ¨
Ġ pÃłĠ
ch Ġ
zhÃ¨n ĠdeĠ
ĠqÃŃĠzhÅįngĠ bÄģoĠkuÃ²Ġ
Ġ199 6ĠniÃ¡nĠ
l an
p Ã¡n
shÃ¹ ĠshÃŃĠ
huÃ¬Ġ zhÇİngĠ
ĠdÄģngĠ shÃŃĠdeĠ
s iĠ
bÅį ĠshÃ¬Ġ
fÄģĠ dÃ²ngĠjÄ«Ġ
fÃ¹ ĠhÃ©Ġ
liÃ¡n ĠdeĠ
lÄģ ĠjÄ«Ġ
tÃŃngĠ chÄĵĠ
quÃ¡n ĠxiÃłnĠ
xiÅ« ĠfÃ¹Ġ
ĠdÃ¬Ġ diÇİnĠ
ĠbÃ¬ngĠ yÃ³uĠ
chÃ¡ iĠ
ĠdÃ© ĠsÄ«Ġ
ĠwÃ©iĠ ÄĽr
ÃłoĠ mÃ©n
cÅ«nĠ luÃ²Ġ
ĠĠĠdÃ¬Ġ Ã¨rĠ
ĠyÃºĠ201 5ĠniÃ¡nĠ
zÃºĠqiÃº ĠjÃ¹ĠlÃ¨ĠbÃ¹Ġ
fÃº ĠlÃ¬Ġ
qÇĲ ĠyuÃ¡nĠ
nÃ¨i ĠzhÃłnĠ
ĠguÃ³ĠwÃ¹Ġ yuÃłnĠ
k Ã©Ġ
Ġ lÇĶĠ
lÇĲ ĠchÃ©ngĠ
shÄ« ĠrÃ©nĠ
fÄģĠ qÇĲ
tÃ¨Ġ xÃ¬ngĠ
mÇİnĠ zÃºĠ
ĠbÃ¹ĠbÃ¹Ġ zhÇİngĠ
bÃ¬ng ĠbÃ¹Ġ
di Äģo
ĠdÃłĠ lÃ³u
Ġ zhÃ¨ngĠzhÃ¬Ġ
ĠdÃ¬Ġ dÃłiĠ
ĠzhÃ¬Ġ dÃ¬Ġ
dÃłĠ lÃ¹
q ÃºĠ
Ġ chÄĵng
xÄ« ĠhÃ©Ġ
ĠjÃ¹Ġ lÃŃ
zhu ÃłnĠdeĠ
wÄĽi ĠfÃ¹Ġ
Ġp Ã¬
ĠyÃ¹Ġ shÇĲĠ
ĠyÃºĠ202 1ĠniÃ¡nĠ
e ar
ĠyÇĲĠ wÃłiĠ
jiÄģnĠ dÅ«Ġ
ĠwÃ©iĠ sÄ«Ġ
tuÃ¡nĠ tÇĲ
Ġl ÃłiĠ
sÃ¬ ĠdeĠ
dÅįu ĠbÃ¨iĠ
mÇĶ ĠdeĠ
fÅ« ĠdeĠ
jiÄģoĠ liÃº
ĠshÃ¬Ġ dÃ©ĠguÃ³Ġ
ĠyÇĶĠ yÃ¡n
shÇĲĠ shÃłngĠ
zÃ¬Ġ mÇĶĠ
wÃºĠzhÃ¨ngĠzhuÃłngĠgÇİnĠrÇİnĠ zhÄĽĠ
ti Äĵ
xÃ¬ng ĠhÃ©Ġ
lÃ¡ng ĠzhÅįngĠ
ĠshÃ¬Ġ gÅįngĠ
ĠbÃ¹Ġ bÄ«ngĠ
ĠxÃŃngĠ mÃ¹Ġ
ĠjÃ¹Ġ juÃ©Ġ
pÃłiĠ qiÇİnĠ
Ġ luÃ³
Ġ xiÃ¨
Ġ 11Ġ
bÇİi ĠniÃ¡nĠ
luÃ²Ġ fÃ¡
You Tub
hÃło ĠxiÃłn
ou r
ĠĠĠ de
xÄ« ĠdÃ¬Ġ
ĠshÃ¬Ġ yÄ«ĠbÃ¹Ġ
ĠchÃ©ngĠ kÃ¨Ġ
ĠyÇĶĠ yÄ«Ġ
qÄ«Ġ zÇĲ
ĠzhÅįuĠ fÇĶĠ
cÇİiĠ qÇĶ
Ġ199 3ĠniÃ¡nĠ
ĠhÃ©Ġ dÃłoĠ
ĠyÃºĠ201 2ĠniÃ¡nĠ
ĠyÃºĠ201 8ĠniÃ¡nĠ
xiÄĽ ĠzuÃ²Ġ
hÄĽnĠ kuÃłiĠ
Ġ 24
ĠwÃ¨iĠyÃºĠ mÄĽiĠguÃ³Ġ
Ġ nuÃ²Ġ
wÃ¹ ĠshÃ¬Ġ
jiÄģnĠ rÃ¨nĠ
ĠfÃ¹Ġ jÃ¬n
diÃłnĠshÃ¬Ġ tÃ¡i
miÇİnĠ fÃ¨iĠ
bÃłng ĠqiÃºĠ
jiÄģnĠ yÃ¹Ġ
Ġ dÄģn
liÃłng ĠwÃ¨iĠ
jiÇİ ĠdÃ¬Ġ
zÇĴu ĠxiÃłngĠ
ĠlÇĲĠ kÃ¨Ġ
lÃŃngĠ chÃ©nĠ
g Çİo
ĠĠĠ 5
zÅįng ĠyÃ¬Ġ
ĠzÃłiĠ hÃ©Ġ
ĠyÄ«Ġ yuÃłn
ÇĴuĠ xiÃłngĠ
3 3Ġ
O N
o ng
Ġ 20Ġ
hÃ²u ĠyÃ¬Ġ
nÃł ĠdeĠ
zuÃ²Ġ wÃ©i
ĠĠĠ gÃ¨ĠrÃ©nĠ
zÇĴng ĠrÃ©nĠkÇĴuĠ
yÃ¬nĠ nÃŃĠ
qÄ« ĠshÃŃĠ
kÇİo ĠshÃ¬Ġ
sÅ«Ġ gÃ©ĠlÃ¡nĠ
n Ã¬
Ġ zhÄĵngĠ
ĠwÃ©iĠ chÃŃ
liÃ¡nĠ jiÄĵ
zhÇĶĠyÃ¬Ġ zhÄĽĠ
ĠyÃºĠ201 4ĠniÃ¡nĠ
p p
kÅįngĠ qÃ¬Ġ
wÃºĠxiÃłnĠ diÃłnĠshÃ¬Ġ
ĠsÄ«ĠlÃ¬ng ĠbÃ¹Ġ
wÇĶ ĠshÃ¬Ġ
guÇİngĠ chÇİng
Ġ194 5ĠniÃ¡nĠ
guÃ³ ĠshÃ¬Ġ
gÇĶ ĠlÃ¬Ġ
ĠjÄ«Ġ chÇĶ
c Ã¡n
shÇĲ ĠrÃ©nĠ
jiÃ¹ ĠyuÃ¡nĠ
jÄ«ngĠ diÇİnĠ
zhÄģnĠ mÇĶĠsÄ«Ġ
c Ã¡ng
ar k
7 7
zÃ© ĠzÃłiĠ
tiÄģn ĠhÃ²uĠ
te Ġ
ĠwÃ¨iĠfÃºĠqÃŃĠyÃºĠ gÄģngĠ
Ġ tÃ¡ng
Ġ yÃºnĠ
chÄĵ ĠduÃ¬Ġ
bÃ¬ ĠdeĠ
mÃłi ĠkÃ¨Ġ
bÃ¨iĠ chÄĵngĠwÃ©iĠ
shÄģnĠ mÃłiĠ
gu Ãł
hÃ¹ ĠbÃ¹Ġ
wÇİ ĠÄĽrĠshÄĽngĠ
ĠyuÃ¡nĠ bÄĽn
ĠchÅ« ĠdÃłoĠ
b ÃŃĠ
shÅįu ĠdÃłoĠ
re Ġ
ĠshÃ¬Ġ huÃ¬Ġ
guÇİnĠlÇĲĠ jÃºĠ
Ġ fÄģĠxiÃłnĠ
Ġ zÃ¡ĠzhÃ¬Ġ
huÃŃ ĠyÃ¬Ġ
ĠgÅįngĠ lÇĲĠdeĠ
ĠÄĽr ĠshÃ¬Ġ
dÅįngĠ jÄ«ng
ĠzuÃ²Ġ zhÃłnĠ
shÃłoĠ nÇļĠ
hÅįngĠ zhÃł
guÇİn ĠzhÃ¬Ġ
ĠmÃŃng ĠzhÃ¬Ġ
yÃ¡n ĠrÃ©nĠ
xiÇİn ĠzhÃ¹Ġ
guÃ³Ġ wÃ¹Ġ
ĠxiÃłn ĠchÃ©ngĠ
yÇĲnĠ yÃ²ngĠ
xÃºnĠ zhÇİoĠ
wÃłngĠ yuÇİnĠ
jÄ« ĠzÃłiĠ
guÃ² ĠleĠ
wÃ©iĠ zhÇĶĠ
ĠyÃºĠ201 7ĠniÃ¡nĠ
ĠshÃŃĠyÃłn ĠshÃ¬Ġ
dÃ¹ ĠhÃ©Ġ
xiÅ« ĠdÃłoĠ
ĠdÃ¬Ġ tiÄĽ
ĠdÃłĠ gÅįngĠ
el l
9 5
l ÄĽng
gÇİiĠ shÃłnĠ
Ġ kÇİ
zhu ÄģĠ
ĠjÃŃĠ shÇĲĠ
luÃ²Ġ shÄģnĠjÄ«Ġ
jiÇİoĠ dÃ¹Ġ
Ġ lÇļĠ
ĠĠĠ rÃ©nĠ
Ãło ĠÄĽrĠ
ĠdÃ¬Ġ fÄģng
chÄĵĠ xiÄģngĠ
Ġ xiÄģn
Ġ liÃ¡nĠhÃ©Ġ
ĠdÃ¬Ġ tÃºĠ
ĠyÃºĠ 193
Ġ yÃ²ng
Ġ 23
202 5ĠniÃ¡nĠ
zuÇĴ ĠyÃ¬Ġ
ĠniÃ¡n ĠĠĠ
ĠchÃ©ngĠ bÄĽnĠ
zhÇĶĠ tÃŃ
ĠÃ©rĠ fÄĵiĠ
ĠzuÃ¬ ĠjiÄģĠ
Ġ yÃ¬ĠshÃ¬Ġ
Ġ xÃºĠ
dÃ¬ ĠhÃ©Ġ
jiÄģĠ tÃŃngĠ
ĠxÃŃngĠ dÃ²ng
l Çİn
shÃ¨ ĠbÃ¨iĠ
ĠwÃ¨iĠ yuÃ¡nĠ
gÃ©Ġ lÃŃĠ
mÃ¹ ĠdeĠ
zÇĶ ĠdeĠ
yuÃłn ĠyÃ¬Ġ
ĠyuÃ¨Ġ duÃ¬Ġ
ĠyÃ¬Ġ jiÃłnĠ
kÅįngĠ jiÄģn
zhÃ¨ngĠfÇĶ ĠdeĠ
s ÇİnĠ
t Ä«
Ġ yÃŃĠgÃ¨
ĠĠĠ dÄģngĠ
bi Çİn
ĠjÅ«nĠ qÅ«Ġ
jÇĲngĠ gÃłoĠ
ĠĠĠ chÅ«Ġ
yÃº ĠhÃ©Ġ
shÄģn ĠxiÃłnĠ
cÃ©ng ĠdeĠ
jiÇĶ ĠdeĠ
ĠxiÃłn ĠjÃŃĠ
Ġ dÃłi
Ġ suÅįĠ
shÃłng ĠbÃ¹Ġ
S ta
dÇİo ĠshÃłngĠ
fÃłng ĠzÃłiĠ
ĠkÃ¨ ĠÄĽrĠ
cÃŃĠ zhÃŃĠ
wÃłiĠjiÄģo ĠbÃ¹Ġ
mÃ²ĠsÄ«Ġ kÄĵĠ
ĠĠĠ sÄ«Ġ
cÇĲ ĠtÃ³ngĠshÃŃĠ
gÃ²uĠm Çİi
u Ġ
Ġ bÇİ
kÄģi ĠgÅįngĠ
tÅįng ĠzhÄ«Ġ
bÃ¬Ġ miÇİn
7 6
Ġ gÄĵ
yÃ¡n ĠzhÃ¬Ġ
liÃºĠ yÃ¹Ġ
liÃ¨Ġ rÃ¹Ġ
ĠfÃº ĠjiÃłnĠ
Ġ xiÃ¡nĠ
th Ġ
ĠĠĠ zhÃ¨ngĠ
18 8
huÃłnĠ zhÄĽĠ
Ġ kÃ¹Ġ
jÇĲn ĠyÇĴuĠ
shÇĴuĠ dÅ«
cÄģnĠ xuÇİnĠ
Ã©ĠluÃ³Ġ sÄ«ĠdeĠ
r Ã³uĠ
kÇĴu ĠdeĠ
ĠzhÄ« ĠshÃ¬Ġ
fÃ¹Ġ jÃ¬n
9 8
y p
Ġ zhÄģoĠhÃ©Ġ
Ġ nÃ©ngĠ
qÄ«nĠ wÃ¡ngĠ
chuÃłngĠ zuÃ²ĠdeĠ
ĠyÃºĠ201 3ĠniÃ¡nĠ
ĠwÇĴĠ men
ĠshÄģnĠ dÅįngĠ
zhÄĵng ĠyuÃ¨Ġ
cÃŃ ĠdeĠ
jÄ«Ġ chÇĶ
chÃ¹Ġ zhÇİngĠ
shuÄģngĠ dÇİĠ
Ġ199 5ĠniÃ¡nĠ
s ÃłngĠ
Ġ cÄģnĠyÃ¹Ġ
cÃ³ng ĠwÃ¨iĠ
qiÃ¡ng ĠzhÃ¬Ġ
lÇĲĠ lÃ¹n
ÄģnĠ zhuÄģngĠ
guÄģnĠ fÄģng
dÃ²ngĠ huÃł
ĠyÃºĠ202 2ĠniÃ¡nĠ
g ÄģĠ
bÃ¬Ġ miÇİnĠ
ĠluÃ³Ġ mÇİĠ
tÃŃĠchÅ«Ġ leĠ
Ġ 29
xuÃ© ĠzhÅįngĠ
fÄĵng ĠfÃ¹Ġ
ĠgÃ¨ ĠguÃ³Ġ
chÅįngĠ tÅ«
Ġ hÃ¹Ġ
fÃ¹ ĠshÃ¬Ġ
shÄģn ĠdÃ¬Ġ
ĠzÃłiĠ 194
ĠdÃ©Ġ lÄģĠ
00Ġ mÇĲ
ĠB Ġ
ĠĠĠ bÄģĠ
sÄ« ĠshÃ¬Ġ
shÃ¨ng ĠchÅ«Ġ
ÄģĠ gÄĵnĠ
yÇĲnĠ rÃ¹Ġ
zhÃłoĠ piÄģnĠ
yÇĲng ĠshÃ¬Ġ
cÇİiĠ fÇİng
ĠĠĠ gÃ¹ĠshÃ¬Ġ
ĠsÄ«Ġ mÇİĠ
Ġp Åį
mÇİĠlÃ¡i ĠxÄ«ĠyÃł
Ġ liÃ¹
Ġ bÇİĠ
ĠĠĠ 10
ĠjÄ«Ġ hÅ«
zhÇİngĠ guÄģnĠ
ĠyÄ«ngĠ wÃ©nĠ
bÃ³Ġ lÃŃnĠ
xiÃł ĠzÃłiĠ
pÄ« nĠ
fÄģĠ shÄĵngĠdeĠ
huÃ¡ngĠ sÃ¨Ġ
bÃ¹ĠdeĠ cÅ«nĠzhuÄģngĠ
ĠĠĠyÇĲĠ xiÃł
zÃłn ĠzhÃ¹Ġ
ĠyÇĴuĠ xiÄĵ
zÅįngĠ jiÃło
5 4
Ġ xÅ«Ġ
xiÄģng ĠshÃ¬Ġ
guÇİn ĠdeĠ
ĠyÃºĠ 2019ĠniÃ¡nĠ
qiÃ¡ngĠ dÃ¹Ġ
shÅįuĠ lÃ¹
Ġ198 5ĠniÃ¡nĠ
ĠĠĠ 16
ĠyuÃ¨Ġ lÃ¡iĠyuÃ¨Ġ
a h
n Ã¹Ġ
Ġ 00
jiÄģ ĠzÃłiĠ
sÅ« ĠwÃ©iĠ
jiÃłng ĠyÇĶĠ
hÇİiĠ Ãłn
ĠfÃ¹Ġ jÃ¬nĠdeĠ
ĠdÃłnĠ bÃ¡iĠ
gÇĶĠ lÇİo
xiÇİoĠxÃŃngĠ xÄ«ng
duÅį ĠmÃŃngĠ
qiÃ¡ng ĠdeĠ
ĠyÃºĠ 2020ĠniÃ¡nĠ
ĠchÃ©ngĠ xiÃłn
ĠrÃ©nĠ dÃłĠ
ĠzhÄ« ĠdÃ¬Ġ
tÃłiĠ kÅįngĠ
tÃŃngĠ kÃłoĠ
pÄģi ĠshÃ¨
Ġ jiÇİ
guÃłn ĠjÅ«n
ĠshÃŃĠ hÃ²uĠ
yuÃ¨Ġ nÃ¡nĠ
ĠgÅįngĠ yÃ¬ngĠ
ĠzhÄ« ĠjiÄģĠ
ĠkÃ¨ ĠhÃ©Ġ
ĠbÃ¨iĠ pÃ²Ġ
Ġs ÃºĠ
Ġ202 5ĠniÃ¡nĠ
lÃ¡oĠ dÃ²ngĠ
3 8Ġ
ĠgÃ¨Ġ zhÇĴng
Ġ199 0ĠniÃ¡nĠ
ec tion
p ÄĵnĠ
Ġ Q
zÇİo ĠshÃłngĠ
ĠbÃ¹Ġ mÇİnĠ
zhÃłnĠ tÃ¡iĠ
Ġ xiÃ¨Ġ
fÄĵi ĠxÃŃng
tÃ³ngĠ xÃ¬ngĠ
ĠfÃ¹ĠzÃ©Ġ guÇİnĠxiÃ¡Ġ
3 6Ġ
Ġ ì
sÄģn ĠdÃłĠ
hÅ« ĠyÃ¹Ġ
ĠxÄ«Ġ ÄĽrĠ
pÇĶĠ biÃłn
huÃŃĠ guÄ«Ġ
xuÇİnĠjÇĶ ĠzhÅįngĠ
m an
liÃ¨ ĠchÅ«Ġ
ĠyÄ«Ġ zhÃŃĠ
dÄ«Ġ qÃ¬Ġ
Ġ bÄ«ngĠ
tu ÇĴ
dÃ¹n ĠdeĠ
s Ãº
Ãłn ĠshÃ¬Ġ
biÄģn ĠwÃ¨iĠ
mÃ² ĠÄĽrĠ
jÃ¬Ġ suÃłn
ĠxiÃłnĠ shÃłngĠ
xiÃłĠ lÃ¡iĠ
a ni
ĠĠĠ wÃ©iĠ
lÄģ ĠdeĠ
lÄģ ĠdÃ©Ġ
guÇİng ĠzhÅįu
yÃŃnĠ pÃ¡iĠ
shÄģnĠdÅįngĠ shÄĽngĠ
t o
shÅ« ĠchÅ«Ġ
ĠyÃ³u ĠjÄ«Ġ
liÇİoĠ jiÄĽĠ
Ġ juÃ©ĠdÃ¬ngĠ
Ġ wÃłnĠlÃ¬Ġ
mÃŃngĠ dÄģnĠ
xiÃłĠ jiÃłngĠ
duÃ¬ ĠyuÃ¡nĠ
bÇİo ĠdeĠ
gÇĶĠ lÄģĠ
ĠÃ©rĠgÄģiĠ dÃ¬ĠdeĠ
qiÃ¡n ĠhÃ²uĠ
guÃ³Ġ wÃ¡ngĠ
tiÄģnĠ rÃ¡nĠ
Ġ tiÄĽĠ
shÃ¬ ĠĠĠ
lÃ¡n ĠxÄ«Ġ
zhÃ¬Ġ 199
ĠshÃŃĠ xiÃłn
xiÄģngĠ tÃ³ngĠdeĠ
zhÇĲĠ kÃ²ngĠ
jiÃłnĠ zhÃ¹
om p
e tĠ
s Äģng
sÄģn ĠrÃ©nĠ
bÃ³Ġ juÃ©Ġ
zÇİoĠ qÄ«ĠdeĠ
Ġ dÃ¬ngĠ
shÃŃ ĠhÃ©Ġ
ĠjÃ¬Ġ lÃ¹
ĠjÃ¬Ġ yÃ¬Ġ
jÃ¹Ġ qÃŃngĠ
ĠchÅ«Ġ yÇİnĠ
xiÄģngĠ bÇĲĠ
liÃ¡nĠ rÃ¨nĠ
jÃ¬ngĠ nÃ¨i
wÇĴĠ men
Ġ199 1ĠniÃ¡nĠ
mÃŃnĠzhÇĶĠ dÇİng
qiÃº ĠhuÃ¬Ġ
bÃłn ĠniÃ¡nĠ
ĠjÃŃĠ bÃ¬ngĠ
ĠkÃ¨ ĠlÃ¬Ġ
mÄĽiĠ yuÃ¡nĠdeĠ
ĠyÇĲĠsÃ¨Ġ liÃ¨Ġ
200 2ĠniÃ¡nĠ
ĠjiÄģĠ lÄģĠ
diÃłnĠ nÇİo
fÄĵnĠ pÃ¨iĠ
shÃ²uĠ quÃ¡nĠ
sÄĵnĠ lÃŃn
a tĠĠĠ
e x
i ch
zhÄ« ĠshÃŃĠ
shÃ© ngĠ
zÄģo ĠyÃ¹Ġ
ĠhÃ©Ġ gÇĶĠ
cÃ¡iĠ liÃło
p ÇİoĠ
tÃ¨ ĠlÃ¬Ġ
duÅį ĠgÃ¨
ĠchÃ©ngĠ leĠ
ĠyÇĲĠ qiÃ¡nĠ
xÄ«ngĠ qÄ«
7 4
Ġ gÄĵnĠ
tÃº ĠdeĠ
ĠshÃŃĠ bÃłoĠ
bÄĽiĠ fÄģngĠ
Ġs Ãłn
yÇĶ nĠshÃŃĠ
ĠwÃ¨iĠ nÃ©ng
tÃ¨Ġ lÄģĠ
ĠduÃ¬Ġ cÇĲĠ
jiÄĵĠ rÃ¨nĠ
a yĠ
sÄģn ĠgÃ¨
mÇİĠ lÄģĠ
ĠĠĠgÃłiĠ yÃłoĠ
a w
l Ã²uĠ
Ġ chuÄģnĠ
Ġ yÃ¡oĠ
200 3ĠniÃ¡nĠ
shÇĴuĠ bÅįĠ
B S
fÄĵn ĠdeĠ
ĠyÇĶĠ qÃŃĠ
duÅįĠ cÃ¬
shÃ©nĠ me
ĠĠĠ fÃ¹Ġ
ĠyÄ«Ġ liÃ¡oĠ
pÇĶĠ chÃ¡Ġ
ĠyÃºĠ202 3ĠniÃ¡nĠ
Ġd Ã¨ngĠ
tÇİ ĠÄĽrĠ
yÃ¡nĠjiÅ« ĠshÄĵngĠ
Ġ195 0ĠniÃ¡nĠ
9 6
h ÇĶ
wÇİng ĠshÃłngĠ
ĠxiÃłn ĠyÇĴuĠ
qÄ«ngĠ shÃłoĠniÃ¡nĠ
lÇĲngĠ dÇİoĠdeĠ
cÄģnĠ shÃ¹Ġ
tÃ¨ ĠÄĽrĠ
pi ÄģoĠ
ĠjiÄģĠ tÃŃng
qÃ¬Ġ xuÃ¡nĠ
shÃ¨Ġ huÃ¬
Ġ198 8ĠniÃ¡nĠ
Ġ15 Ġ
ĠĠĠzÄĵngĠ zÇĶĠ
yÃ³u ĠxÃŃngĠ
hÇİo ĠpÃŃngĠ
ĠzhÅįngĠ jiÄģnĠ
e le
Ġ juÃ©Ġ
qÃŃng ĠdeĠ
nÃ¡nĠ zi
chÇİngĠ bÇĲĠsÃłiĠ
fÃ¡ngĠ wÅ«Ġ
wÃ¡nĠ zhÄĽngĠ
shÄĵngĠ yÃ¡
ĠbÃ¨iĠ ÄĽr
ĠzhÇĶĠ yÇİnĠ
Ġ yÃŃ
Äģn ĠrÃ©nĠ
ch Ä«
tÃ³ng ĠmÃŃngĠ
tÃ¨ ĠyÇĴuĠ
ĠwÃ¨iĠ zÃłiĠ
ĠxÃŃng ĠbÃ¹Ġ
ĠyuÃ¡nĠ yÄ«n
fÃ¹Ġ jÃ¬nĠdeĠ
tÃ¨Ġ zhÄĵng
shÄģĠ sÇĲĠ
B C
Ġ chuÃłng
Ġ kÇİoĠ
mÃ¬ ĠdeĠ
pÃ¨i ĠbÃ¨iĠ
ĠgÅįngĠ nÃ©ng
2 ĠmÇĲĠ
Ġ shÄģ
wÃ©n ĠzhÅįngĠ
dÃ¡ ĠzhÅįuĠ
ĠwÃ©iĠ rÃłoĠ
Ġc Ã¡o
qÄ«ngĠ chÃ¡oĠ
gÇİiĠ zhÃ¬ĠwÃ¨iĠ
ĠĠĠdÃ¬Ġ yÄ«Ġ
8 5
s ÄĵngĠ
Ġ lÃ¡i
Ġ bÇİo
hÃ© ĠzÃłiĠ
gÇİng ĠyuÃ¡nĠ
bÇİoĠ luÃ³Ġ
fÃ¨iĠ yÃ¡nĠ
Ġ fÇİ
Ġ shÇĴu
xÄ«n ĠshÃ¬Ġ
cÃºn ĠdeĠ
cÄģnĠ tÄ«ngĠ
zhÇĲ ĠdeĠ
dÄĽng ĠdeĠ
lÇľĠ sÃ¨Ġ
C O
fÃº ĠlÇĲĠ
wÇĶ ĠgÃ¨Ġ
tÃłi ĠdeĠ
piÃłn ĠdeĠ
ĠzÃłiĠ xÄ«nĠ
fÄģngĠ mÇĲĠ
xÃ¬ngĠ nÃ©ngĠ
yÇĲngĠ xiÃłngĠ
fÃ¨iĠ yÃ²ngĠ
l y
Ġ bÃ¡i
Ġ sÃ¹Ġ
Ġ qÄ«nĠ
xÃ¹ ĠlÃ¬ĠyÃł
xÃŃngĠ tÃłiĠ
zÃłnĠ tÃŃngĠ
W Ġ
ĠzhÃ¬Ġ yÃŃĠ
dÃłĠ qÅ«Ġ
liÃ¡nĠ jiÃ©Ġ
ĠzhÃ¨Ġ yÃłngĠ
shÄĽngĠ jiÄĵĠrÇİngĠ
Ġl Ã¡o
Ġ xuÇİnĠ
Ġ guÇİngĠdÅįngĠ
sÃ¬ ĠshÃ¬Ġ
xÄ«Ġ nÃ¡nĠ
ĠjÃ¬nĠ zhÇĲĠ
zhÃ¡ i
shÄĵn ĠshÃ¬Ġ
zhuÄģnĠ yÃ¨
gÃ¹Ġ dÃ¬ngĠ
ĠwÃºĠ fÇİĠ
sÄģn ĠjÃŃĠ
zhÄĽ ĠhÃ©Ġ
ĠbÃ¹Ġ shÇİo
ĠdÃ¬Ġ 1Ġ
tuÄ«Ġ guÇİngĠ
zuÃ¬ ĠwÃ¨iĠ
ĠsÄ«Ġ tÇİĠ
jÃ¬ngĠ zhÄĵng
chÅ«Ġ qÄ«Ġ
7ĠyuÃ¨Ġ 1ĠrÃ¬Ġ
wÅ«Ġ rÇİnĠ
Ġh ÅįngĠ
t Ã²ng
Ġ xiÄģnĠhÃ²uĠ
shÄĵnĠ qÇĲng
zhÃł ĠdÃłnĠ
mÇİ ĠkÃ¨ĠsÄ«Ġ
ĠĠĠ jÄ«nĠ
zhÄĽ ĠhuÃ¬Ġ
wÃ¡ng ĠwÃ¨iĠ
ĠsÄ«Ġ kÄĵĠ
ĠshÃ¬ĠyÄ«Ġ kÄĵĠ
ĠquÃ¡nĠ zhÇİngĠ
ĠzÃłiĠyÃ¬Ġ qÇĲĠ
Ġ shÃ©n
huÃŃ ĠguÃ³Ġ
zhÃŃĠ shÄĵngĠ
xiÄģoĠ liÃłngĠ
chuÃłngĠ zÃłoĠ
xÃ¬ĠliÃ¨ ĠdeĠ
Ġ tÃłi
Ġ hÃº
jiÄģng ĠtÄģĠ
ĠshÃŃĠ xÃ¬ngĠ
ĠdÃ¬Ġ zhÃ¨nĠ
xÄ«nĠ wÃ©n
tÃ¨Ġ diÇİnĠ
zhÇİngĠ zÇĲĠ
ĠshÃ¨ĠhuÃ¬Ġ zhÇĶĠyÃ¬Ġ
ĠmÃłi ĠkÃ¨Ġ
Ġ zhÃ²ng
fÄĵn ĠchÃ©ngĠ
yÃ¬ng ĠjÃŃĠ
gÄģoĠ dÃ¡Ġ
Ġ18 5
tÇİoĠ lÃ¹n
lÄģ ĠhÃ©Ġ
luÃ² ĠsÄ«Ġ
ĠbÃ¹Ġ lÃ¡iĠ
ĠjÃŃĠ hÃ²uĠ
ĠgÅįngĠ qÇĲngĠ
fÃºĠ luÃ³ĠlÇĲĠ
wÇĶĠ qÃ¬
ĠshÃ¬ĠjiÃ¨Ġ bÄĵiĠ
Ġf ÇĴuĠ
chÇİnĠshÄĵngĠ leĠ
d ÇĴngĠ
ĠĠĠ 3Ġ
lÇľ ĠdeĠ
fÃ¡ng ĠwÃ¨iĠ
ĠshÃ¨ ĠyÃºĠ
ĠshÄĵngĠ mÃŃngĠ
ĠguÃ³ĠjiÄģĠ duÃ¬Ġ
tiÄĽĠlÃ¹Ġ chÄĵĠzhÃłnĠ
i v
o li
xi ÄģĠ
guÄģnĠ cÃ¨Ġ
gÃ¨ngĠ duÅįĠdeĠ
ĠshuÄģngĠ fÄģngĠ
3 7Ġ
Ġ shÄĽnĠ
sh uÃ²Ġ
lÇĲ ĠbÃ¹Ġ
tuÄ« ĠjiÃłnĠ
ĠzÃłiĠ tÄģĠdeĠ
ĠlÃ¬Ġ shÃŃĠ
ĠgÅįngĠ gÃ²ng
h e
n Ä«
lÃ¨i ĠxÃŃngĠdeĠ
ĠtÄģĠ cÃ©ngĠ
suÇĴĠ shÇĶ
Ġp Ã¡n
qÇĶĠ xiÄģo
ĠjiÄģngĠ sÅ«Ġ
jÃŃ ĠbÃ¹Ġ
quÃ¡n ĠshÃ¬Ġ
ĠniÃ¡nĠ lÃŃngĠ
ĠshÃ¬ĠzhÅįngĠ huÃ¡ĠrÃ©nĠmÃŃnĠgÃ²ngĠhÃ©ĠguÃ³Ġ
yÇĲngĠxiÇİng ĠlÃ¬Ġ
Ġ Ï
chÅįng ĠjÄ«Ġ
jÄ«ngĠ jÃ¬
ĠxÄ«nĠ zÄĵngĠ
xiÃ©Ġ dÃ¬ngĠ
cÇĲ ĠshÃŃĠ
ĠdÃ¬Ġ zhÃ¬Ġ
wÃ©nĠ huÃłĠdeĠ
ĠĠĠjiÄģĠ tÃŃngĠ
ĠwÄĵiĠ liÃ¡nĠ
h ÄĵngĠ
Ãłn ĠzhÅįngĠ
bÃ¬ng ĠwÃ¨iĠ
Ġf Ã¡n
Ġ198 9ĠniÃ¡nĠ
Ġ wÃłi
sÃ¬ ĠdÃłĠ
zÇĴng ĠhuÃ¬Ġ
nÃł ĠdÃ©Ġ
bÄģn ĠdeĠ
ĠlÃ¬Ġ shÇĶĠ
zhÇĶĠ xÃŃ
ĠpÃŃngĠ lÃ¹nĠ
yÄ«ngĠ gÄģi
3 00
b Ġ
ĠyÄ«Ġ rÃ©nĠ
ĠjiÄģĠ zÃº
mÄĽiĠguÃ³Ġ rÃ©nĠ
Ġs ection
ĠdeĠzuÃ²Ġ biÄģoĠwÃ¨iĠ
Ġ X
Ġ yÇĴng
shÄĵng ĠzhÃ¬Ġ
ĠdÃło ĠhÃ©Ġ
ĠjÃ¬Ġ zÇİi
yÃ¡nĠ zhÃ²ngĠdeĠ
fÄģngĠ xiÃłng
mÃ¹Ġ nÃŃĠ
xuÃ© ĠbÃ¹Ġ
yÃŃ ĠdÃłoĠ
ĠyÃºĠ lÃ¨iĠ
ĠtÃ³ngĠ pÃ¡iĠ
lÃ¨iĠsÃ¬ ĠdeĠ
3 4Ġ
liÃº ĠdeĠ
xuÇİn ĠchÅ«Ġ
hÃ¡i ĠzÃłiĠ
zhÃŃĠ yÃ¨
nÃ³ngĠ cÅ«nĠ
ĠfÄĵnĠ biÃ©Ġ
ruÃ¬Ġ diÇİn
z Ã¨ng
Ġ hÃºĠnÃ¡nĠ
mÄĽi ĠjÅ«nĠ
al ĠĠĠ
ĠniÃ¡nĠ qÄ«ngĠ
dÃłiĠ lÃ¡iĠ
yÄĽĠ kÄĽĠyÇĲĠ
n Ã¼Ã¨
Ġ chÅįngĠ
ĠshÃ¬Ġ jÃ¬ĠdeĠ
ĠdÃło ĠyÄ«Ġ
yÃ¹nĠdÃ²ng ĠdeĠ
ĠcÃ©ngĠ rÃ¨n
m er
yÃ¬ ĠbÃ¹Ġ
chÄĵĠ liÃłng
ĠzÃ¬Ġ yÃ³u
jiÇİnĠ cÃ¨Ġ
ĠtÃ³ngĠ yÃłngĠ
Ġ198 3ĠniÃ¡nĠ
ĠzhÇĲ ĠzÃłiĠ
Ġ chÃº
Ġ 28
ĠĠĠ shÇĲĠyÃ²ngĠ
ĠshÃŃĠ zhÃ¬Ġ
qiÄģnĠ yuÄĵĠ
ĠzuÃ¬ ĠdÃłĠ
Ġ kÃ¹
hÇİi ĠshÃłngĠ
bÄģ ĠÄĽrĠ
ĠshÃ¬Ġ fÇĴu
guÃ³Ġ huÃ¬Ġ
duÃ¬Ġ shÇĴuĠ
ĠtÄģĠ rÃ¨nĠwÃ©iĠ
ĠyÃºĠ201 1ĠniÃ¡nĠ
Ġ dÃ²ngĠ
Ġ xÇĶĠduÅį
jiÄģ ĠgÅįngĠ
fÃ¹ ĠjiÄģĠ
sÇĲ ĠxÃŃngĠ
qÃ¬ng ĠzhÃ¹Ġ
ĠyÇĴuĠ dÃłĠ
ĠjiÃłnĠ kÄģngĠ
sÃ¨Ġ fÅ«Ġ
kuÃ²Ġ zhÇİn
ĠyÃºĠ202 4ĠniÃ¡nĠ
ĠĠĠgÄĵnĠjÃ¹Ġ 2020ĠniÃ¡nĠmÄĽiĠguÃ³ĠrÃ©nĠkÇĴuĠpÇĶĠchÃ¡ĠdeĠshÃ¹ĠjÃ¹Ġ
Ġ 50
guÃ³Ġ lÃ¬Ġ
ĠS Ġ
zÄĵngĠjiÄģĠ leĠ
e tĠĠĠ
â Ĩ
guÃ² ĠyÃºĠ
wÇĶ ĠyuÃ¨Ġ
jiÇİngĠ shÃ¹Ġ
shÃłngĠhÇİi ĠshÃ¬Ġ
Ġ xÄ«ng
Äģ ĠÄĽr
li ÇĶ
huÃŃ ĠhÃ©Ġ
rÃ©ng ĠzÃłiĠ
ĠyÄ«Ġ zhÃ¬Ġ
ĠchÅ«Ġ fÄģĠ
yÃłĠ mÃ¹Ġ
bÄģnĠ jiÇİngĠ
ĠI n
xiÄģng ĠjÃ¬Ġ
dÄģn ĠyuÃ¡nĠ
qiÃ¨ ĠÄĽrĠ
ĠyÇĴuĠ zhÃ¹Ġ
zhÃ¨ngĠ xiÃ©Ġ
ĠbÃ¬ngĠ rÃ¹Ġ
n ÃºĠ
xÄ«n ĠrÃ©nĠ
ĠdÃłĠ qiÃ¡oĠ
zhÃłnĠ lÇĲng
zhÃłoĠ kÄģi
Ġ dÇİngĠ
shÃłng ĠyÄ«Ġ
xÃ¬ng ĠshÃ¬Ġ
bÄĽnĠ tÇĶĠ
qÃºnĠ dÇİo
dÄĵngĠ chÃ¡ngĠ
ĠyÇĲ ĠzÃłiĠ
ĠyÇĲ ĠzhÃ¬Ġ
ĠyÄ«Ġ cÃŃĠ
hÇİiĠ bÃ¡ĠgÄģoĠ
yÅįuĠ xiÃ¹
ĠdeĠjÃ¬Ġ lÃ¹Ġ
cÄģnĠmÃ³uĠ zhÇİngĠ
5 00Ġ
w ÄĽn
ĠbÃ¹Ġ yÄ«Ġ
ĠlÃ¬Ġ ziĠ
ĠdÃłĠ dÃło
lÃ¹Ġ zhÃłnĠ
gÇİiĠ gÃ©
f Ã©n
Ġ cÃ¨Ġ
Ġ kÄĽĠnÃ©ngĠ
ĠĠĠ 2
ĠjÃŃĠ xÃŃngĠzhÃ¨ngĠ
zÇĶĠ zhÇĲĠ
8 7
Ġ zhÄĵn
jiÄģoĠ chÄģĠ
Ġ000 ĠrÃ©nĠ
15 0
ĠshÃ¬Ġ yÃ³u
xÄ«Ġ bÄĽiĠ
Ġ mÃ©nĠ
ĠĠĠ 0
yÃło ĠdeĠ
yÃ¡ng ĠxiÃłnĠ
duÃ¬Ġ wÇĶĠ
Ġm ÄĽngĠ
xÃºnĠ huÃ¡nĠ
cÃºnĠ zÃłiĠdeĠ
tÇĶĠÄĽr ĠqÃŃ
r Ã³u
ĠĠĠ dÃłn
hÃ© ĠwÃ¨iĠ
wÃ¹ ĠhÃ©Ġ
jÇĲ ĠniÃ¡nĠ
kÅįng ĠjÅ«n
zhuÃłng ĠjÄ«Ġ
bÇİoĠ cÃºnĠ
Ġn Çİi
nÃ¡nĠjÃŃĠ zhÅįuĠdeĠ
i f
shÄĽng ĠdÃłoĠ
ĠzÃłiĠ tÄģĠ
shÄ«Ġ bÃłi
Ġc Äģng
c uÃ¬Ġ
u t
fÄĵi ĠzhÅįu
ĠyÃºĠ dÃ¬Ġ
ĠyÃ³uĠ cÇĲĠ
gÇĶĠfÃ¨n ĠyÇĴuĠxiÃłnĠgÅįngĠsÄ«Ġ
m ÇİiĠ
Ġ lÃŃ
Ġ mÃ¬Ġ
zhÃŃ ĠzhÃ¬Ġ
ĠkÃ¨Ġ yÃ¹nĠ
Ġ198 4ĠniÃ¡nĠ
Ġhan tĠ
ĠĠĠrÃ¡n ĠÃ©rĠ
l ÃłnĠ
chuÃ¡n ĠzhÄ«Ġ
ĠzÃłiĠ bÄĽiĠ
ĠzhÄ«Ġ zhÃłnĠ
tÇĲĠ yÃ¹
Ġl ÄĽngĠ
ĠsÃ¬Ġ chuÄģnĠ
Ġ Äģn
Ġ mÃ³
ĠĠĠ 6
diÃłn ĠdeĠ
chÃ¡ng ĠjiÃłnĠ
ĠxiÃłn ĠzhÄ«ĠxiÃłnĠ
jiÃłoĠ shÃ²u
fÄģĠshÄĵngĠ leĠ
shÇĶĠdeĠ zhÃŃĠwÃ¹Ġ
9 7
ĠzÃłiĠ gÄģiĠ
shÇĴuĠ xÃŃĠ
xiÃłoĠ yÃ¬ngĠ
Ġ chÇĶĠ
xÄ« ĠshÃ¬Ġ
mÃ¬ ĠsÄ«Ġ
ĠzhÄ«Ġ liÃºĠ
zhÇĲĠ dÃ¬ngĠ
fÃłngĠ qÃ¬
ĠĠĠ200 4ĠniÃ¡nĠ
n Ã¡ngĠ
Ġ bÄģoĠhÃ¡nĠ
ĠbÃ¹Ġ ÄĽrĠ
ĠyÇĴuĠ guÄģn
zÇĴngĠ cÃ¡iĠ
zhÃłngĠ fÅ«Ġ
d Äģo
Ġ cÇİiĠyÃ²ngĠ
jiÄģn ĠshÃ¬Ġ
ĠzÃłiĠ yÇĶĠ
ĠtÄģĠ duÃ¬Ġ
fÄĵnĠbiÃ© ĠwÃ¨iĠ
m iÃ¡n
Ġ luÃ²
bÄĽn ĠxiÃłnĠ
tÃ³u ĠbÃ¹Ġ
18 7
bÃ¹Ġ fÃ¨nĠ
jiÄĵĠ shÅįuĠ
zhÅįuĠ biÄģnĠ
jiÃłngĠ dÄ«
shuÃłiĠ lÇĲngĠ
s ÄģoĠ
xu ÃłnĠ
huÃ¬ ĠyÇĲĠ
sÇĲ ĠyÃºĠ
qiÄģnĠ dÃ¬ngĠ
ĠshÃ¬ĠyÃ¬Ġ dÃłĠlÃ¬Ġ
4 6Ġ
w ar
Ã© ĠwÃ¨iĠ
hÄĵi ĠrÃ©nĠ
jÄ«Ġ bÄĽnĠ
ĠjiÃłn ĠshÃ¬Ġ
nÃ¡nĠ fÄģngĠ
kÄĵĠ huÃ¬
pÃłnĠ luÃłnĠ
ĠÄģĠ lÄģĠ
Ġ qÃŃnĠ
shÄģng ĠdeĠ
huÃ¡n ĠxÃŃngĠ
ĠniÃ¡n ĠniÃ¡nĠ
ĠdÃ© ĠdÃłoĠleĠ
dÇĲĠ kÃłngĠ
huÃ¡iĠ yÃŃĠ
yÃ¡n ĠshÃŃĠ
biÃ© ĠdeĠ
yÄ«Ġ xiÄĵĠ
ĠgÅįngĠ lÃ¹
ĠlÃ¬ngĠ wÃłi
nÃ¡Ġ pÃ²Ġ
luÃ³ ĠdÃ©Ġ
zhÄĽng ĠgÃ¨
xÄ«Ġ bÄĽiĠbÃ¹Ġ
ĠshÃ¨Ġ jÃ¬ĠdeĠ
ĠshÃ¬ĠyÄ«Ġ zuÃ²Ġ
xiÃłĠxiÃ¡ ĠyÇĲĠxiÃł
ĠĠĠ 3ĠyuÃ¨Ġ
kÄģiĠ zhÇİnĠ
yÃŃĠ chÇİn
hÃ¡ngĠ tiÄģnĠ
Ġ ruÇİnĠ
ĠĠĠ 12
zhÇİng ĠdÃłĠ
mÃ©n ĠdeĠ
ĠjÃŃĠ lÃŃnĠ
zhÃ¹ ĠdÃ¬Ġ
yÄĽ ĠbÃ¹Ġ
gÃ© ĠÄĽrĠ
chuÃ¡nĠ mÃ©iĠ
yÄ« ĠbÃ¹ĠfÃ¨n
18 6
ĠxÃŃngĠ shÇĲĠ
cÄģnĠyÃ¹Ġ leĠ
Ġ xÃ¬nĠ
zhÄĽ ĠwÃ¨iĠ
ĠlÃ¬Ġ yÃ²ng
xÄ«Ġ nÃ¡nĠbÃ¹Ġ
fÇİĠ tÃŃngĠ
jÃ¬ngĠ sÃłiĠ
Ġ sÃłiĠ
du Ä«Ġ
zhÃłn ĠwÃ¨iĠyÃºĠ
bÄģĠ lÄģĠ
mÃ¹ĠsÄ«Ġ lÃŃnĠ
hÇİiĠbÃ¡ĠgÄģoĠ dÃ¹ĠwÃ¨iĠ
zhÃŃ ĠyuÃ¡nĠ
yÃ¡nĠ zhÃ²ng
mÇİĠ tÃ³uĠ
tÅįngĠ xÃ¹nĠ
ĠshÄĵngĠzhÇİng ĠyÃºĠ
i st
Ġ Ã©
Ġ lÃ©i
Ġ xÃ¹Ġ
xÃºn ĠqiÃºĠ
nuÃ² ĠyÄ«Ġ
ĠshÃ¬Ġ bÄ«ngĠ
yÃ³uĠ tÃłiĠrÃ©nĠ
ĠzhÅįngĠguÃ³Ġ guÃ³ĠmÃŃnĠ
Ġp ÄģiĠ
oc k
a mi
tÄģ ĠzÃłiĠ
zhÃŃ ĠlÃ¬Ġ
dÄģn ĠyÄ«Ġ
ĠbÃ¹Ġ dÃŃĠ
ĠxiÃłnĠ jÄ«nĠ
Ġ huÃłnĠ
ĠqiÃº ĠhuÃ¬Ġ
shÄĽngĠ wÄĽiĠ
guÄģngĠ xÃ¹Ġ
zhuÄģnĠ mÃ©nĠ
ĠdeĠchÃ©ngĠ zhÃ¨nĠ
k Çİn
Äģ ĠlÇĲĠ
lÄģ ĠÄĽrĠ
ĠdÃ¬Ġ miÃłnĠ
luÃ³Ġ bÃ³ĠtÃ¨Ġ
yÇĲnĠ zhÇĴngĠ
kuÃłiĠ sÃ¹
bÃº ĠyÃłoĠ
ĠhÃ©Ġ lÇĲĠ
xuÃ©Ġ xÃŃ
ĠxÃŃngĠ xiÃłngĠ
yÃŃngĠ yÃ¨Ġ
ĠwÃ¨iĠfÃºĠqÃŃĠyÃºĠ gÄģng
Ġ sÃ²ng
Ġ chÄĵĠzhÃłn
ĠdÅįngĠ jÄ«ngĠ
bÄģngĠ zhÃ¹
mÃ²ĠsÄ«Ġ kÄĵ
g r
t Ãło
ĠĠĠ 5ĠyuÃ¨Ġ
tu Ã³
ĠdeĠ zhÇĶĠyÃłoĠ
ĠguÃ³Ġ mÃŃn
ĠxÄ«Ġ ÄģnĠ
jiÇİnĠ dÄģnĠ
wÄĽiĠfÃ¹Ġ shÅ«ĠjÃ¬Ġ
cÃ¬ ĠwÃ¨iĠ
gÄĵ ĠjÃ¹Ġ
sÄ«Ġ lÃ¡nĠ
ĠxiÄģngĠ dÄģng
yÃ³u ĠqÃŃĠ
wÇĶ ĠdÃ¬Ġ
ĠwÃ¨iĠ cÇĲĠ
ĠdÃłĠ liÃłng
biÄģnĠ hÃłoĠwÃ¨iĠ
lÃŃĠ ziĠ
Ġt Ä«Ġ
xÃºnĠyÃ¡ng ĠjiÃłnĠ
rÃ³ngĠ nÃłĠ
ĠqÃŃĠzhÅįngĠ nÃ¡nĠxÃ¬ngĠ
ĠyÃºĠ200 9ĠniÃ¡nĠ
ĠsuÃŃĠ zhe
Ġ nÇĲ
Äģn ĠxiÃłnĠ
cÃ©ngĠ shuÇĲĠyÃ¹Ġ
wÄĵiĠ xiÇİnĠ
zhuÃłnĠdeĠ xiÇİoĠxÃŃngĠxÄ«ngĠ
Ġ dÄ«ngĠ
ĠĠĠ pÃŃngĠjiÃłĠ
wÃ¹ ĠyuÃ¡nĠ
fÃº ĠdÃ©Ġ
ĠhÃ©Ġ jÃŃĠ
ĠkÃ¨Ġ lÃ¡iĠ
jiÄģoĠ huÃłnĠ
A O
Ġ wÅ«ĠkÃ¨ĠlÃ¡nĠ
zhÇİng ĠwÃ¨iĠ
nÃł ĠcuÃ¬
liÃ¡ng ĠshÃŃĠ
ĠzhÃ¨Ġ shÇĴuĠ
Ġ18 4
Ġ198 6ĠniÃ¡nĠ
Ġ re
Ġ diÃłnĠshÃ¬Ġ
Ġ huÃ¡nĠ
yÇĶ ĠshÃ¬Ġ
yÃ³u ĠrÃ©nĠgÅįngĠ
ĠhÃ²uĠ qÄ«Ġ
fÇĶĠ zhÃ¹Ġ
ĠxÄ«nĠ zÄĵng
guÄ«Ġ fÃłnĠ
ĠjiÃłnĠlÃ¬Ġ leĠ
4 2
Ġ hÃ¡n
tuÄ« ĠchÅ«ĠdeĠ
wÃ©iĠ zhÇĲĠ
ĠshÃ¨ ĠjÄ«Ġ
ĠwÃ©iĠ chÃŃĠ
ĠshÃ¨Ġ huÃ¬
shÄģĠ hÃłiĠ
fÄĽi Ġ
a la
juÃ© ĠleĠ
ĠdeĠ huÃłĠ
ĠshÃŃĠ yÃ²ngĠ
9 3
B CĠ
Ãłi ĠguÃ³Ġ
qÇĲ ĠleĠ
cÃ¬ ĠdÃłĠ
zhÅįngĠ xÄ«nĠ
ĠgÅįngĠ chÇĲ
ĠjiÃłn ĠwÃ¨iĠ
ĠqiÃºĠ chÇİngĠ
ĠĠĠ chÃºĠleĠ
qi Çİo
shÃ¹ ĠshÃ¬Ġ
miÃłnĠ lÃŃnĠ
tÃºĠ xiÃłngĠ
qÃºnĠ tÇĲĠ
ĠĠĠ 8
zhÄģng ĠdeĠ
luÃ² ĠdeĠ
ĠzÃłiĠ rÃ¬ĠbÄĽnĠ
cÄģnĠ sÃłi
Ġg Å«Ġ
ĠgÅįngĠchÃ©ngĠ shÄ«Ġ
shÃłoĠ jiÃłngĠ
gÃ¨ ĠdÃ¬Ġ
gÇİn ĠlÇİn
shÃ¹n ĠshÃŃĠ
ĠshÃ¬Ġ nÃ¨iĠ
ĠyÃºĠ 2010ĠniÃ¡nĠ
zÇĴngĠ jiÄģnĠ
gÇİiĠ biÄģnĠ
ĠrÃ©nĠmÃŃnĠ bÃ¬Ġ
dÅ«Ġ dÅ«Ġ
lÇİoĠ shÄ«Ġ
Ġ pÇĶ
Ġ qiÅ«Ġ
Ġ niÃºĠ
zhÄ« ĠyuÃ¡nĠ
zhu Åį
gÄĵ ĠdeĠ
fÃºĠ hÃłoĠ
Ġt Ã©ng
Ġt Ã¬Ġ
ĠdÃ¬ĠÃ¨rĠ cÃ¬Ġ
Ġ195 8ĠniÃ¡nĠ
4 2Ġ
ĠĠĠ jÄ«ngĠjÃ¬Ġ
ĠjÃŃĠ shÇĲ
fÇİĠ lÃ¡nĠ
ĠjÃ¬n ĠniÃ¡nĠ
rÃ¹Ġ qÄ«n
gÇİngĠ kÇĴuĠ
ĠzÃłiĠdÃ¬Ġ Ã¨rĠ
il l
pÃŃngĠjÅ«nĠ hÇİiĠbÃ¡ĠgÄģoĠdÃ¹ĠwÃ¨iĠ
duÃ¬ ĠhÃ©Ġ
yÃ¹n ĠhÃ©Ġ
zÃº ĠqiÃºĠduÃ¬Ġ
nÃŃ ĠxÄ«ĠyÃłĠ
gÅįngĠ kÄģiĠ
nÃłĠ xiÄĵĠ
chuÃłngĠ bÃłnĠ
mÃ©ng ĠjÅ«nĠ
ĠÄĽr ĠdÃ©
jiÃ©ĠdÃ¹Ġ shÇĲĠ
ĠkÃ¨Ġ lÄģĠ
ĠÃ©rĠgÄģiĠdÃ¬ĠdeĠ pÃŃngĠjÅ«nĠhÇİiĠbÃ¡ĠgÄģoĠdÃ¹ĠwÃ¨iĠ
L E
fÄĵn ĠzhÄ«ĠyÄ«Ġ
ĠyÇĴuĠ lÃ¬Ġ
bÃłnĠ yÇİnĠ
gÃłoĠ sÃ¹Ġ
fÄĵng ĠdeĠ
ĠxÄ«Ġ yÇĲnĠ
ĠdeĠdÃ¬Ġ Ã¨r
dÄģngĠ jÃºĠ
2010ĠniÃ¡nĠ mÄĽiĠguÃ³ĠrÃ©nĠkÇĴuĠpÇĶĠchÃ¡ĠdeĠshÃ¹ĠjÃ¹Ġ
liÇİoĠ jiÄĽ
hÇİnĠ mÃ²
chÅ« ĠdÃłoĠ
yÇİn ĠchÅ«
yÃ¬ng ĠduÃ¬Ġ
fÄĵnĠ qÅ«Ġ
mÇĲĠ yÃłĠ
fÄĵiĠ fÇİĠ
Ġ194 6ĠniÃ¡nĠ
yÇĲnĠzhÇĴngĠ zÄģiĠpÃ©iĠ
t erĠ
Ġ yÃ¨
Ġ yÅįuĠ
Ġ zhÄĽngĠ
zh ÄĵĠ
jÄ« ĠshÃ¬Ġ
tu ÇĴĠ
biÄģn ĠchÃ©ngĠ
ĠwÃ¨iĠ mÃŃngĠ
ĠyÄ«Ġ tiÃ¡oĠ
ĠjÄ«Ġ yÄ«nĠ
qÃŃngĠ xÃ¹Ġ
shÄĽnĠ chÃ¡Ġ
ĠliÃºĠ yÃ¹Ġ
pÃŃnĠ lÇľĠ
7 5Ġ
Ġ hÃ¨
ĠĠĠ yuÃ¨Ġ
le ĠĠĠ
chÅ« ĠrÃ¨nĠ
zÃ© ĠyÇĴuĠ
Ġn ÇİiĠ
kÇİĠluÃ³Ġ lÃ¡iĠ
Ġ guÃ²Ġ
yuÃ¡n ĠdÃ¬Ġ
shÄĵn ĠshÃłngĠ
ĠxÄ«Ġ xÄ«Ġ
ĠzhÄ«Ġ qiÃ¡n
o ni
Ġ yÃºnĠnÃ¡nĠ
ĠĠĠ tiÄģnĠ
jiÃło ĠyÃºĠ
sÃ¬ ĠmÃŃngĠ
zÃº ĠyÇĲĠ
jÄ«Ġ bÇİiĠ
ĠqiÃº ĠdeĠ
zhÇİnĠ kÄģi
fÄģĠzhÇİn ĠdeĠ
yÃ³uĠrÃ©nĠgÅįngĠ yÇĲnĠzhÇĴngĠzÄģiĠpÃ©iĠ
lÃ¬ ĠzhÅįngĠ
qÃŃng ĠxÃŃngĠ
zhÃ¹Ġ cÃ¨Ġ
ĠdeĠyÄ«Ġ xiÄĵĠ
jÅ«ĠmÃŃnĠ diÇİnĠ
ĠyÇĲĠsÃ¨Ġ liÃ¨
kÄĵĠhuÃ¬ ĠshÃ¬ĠdÃ¬Ġ
ĠĠĠ 1
shuÅį ĠshÃ¬Ġ
dÄģnĠ dÇİĠ
