{"!":0,"\"":1,"#":2,"$":3,"%":4,"&":5,"'":6,"(":7,")":8,"*":9,"+":10,",":11,"-":12,".":13,"/":14,"0":15,"1":16,"2":17,"3":18,"4":19,"5":20,"6":21,"7":22,"8":23,"9":24,":":25,";":26,"=":27,"?":28,"@":29,"A":30,"B":31,"C":32,"D":33,"E":34,"F":35,"G":36,"H":37,"I":38,"J":39,"K":40,"L":41,"M":42,"N":43,"O":44,"P":45,"Q":46,"R":47,"S":48,"T":49,"U":50,"V":51,"W":52,"X":53,"Y":54,"Z":55,"[":56,"\\":57,"]":58,"^":59,"_":60,"`":61,"a":62,"b":63,"c":64,"d":65,"e":66,"f":67,"g":68,"h":69,"i":70,"j":71,"k":72,"l":73,"m":74,"n":75,"o":76,"p":77,"q":78,"r":79,"s":80,"t":81,"u":82,"v":83,"w":84,"x":85,"y":86,"z":87,"|":88,"~":89,"¡":90,"¢":91,"£":92,"¤":93,"¥":94,"¦":95,"§":96,"¨":97,"©":98,"ª":99,"«":100,"¬":101,"®":102,"¯":103,"°":104,"±":105,"²":106,"³":107,"´":108,"µ":109,"¶":110,"·":111,"¸":112,"¹":113,"º":114,"»":115,"¼":116,"½":117,"¾":118,"¿":119,"Â":120,"Ã":121,"Ä":122,"Å":123,"Æ":124,"Ç":125,"È":126,"É":127,"Ê":128,"Ë":129,"Ì":130,"Í":131,"Î":132,"Ï":133,"Ð":134,"Ñ":135,"Ò":136,"Ó":137,"Ô":138,"Õ":139,"Ö":140,"×":141,"Ø":142,"Ù":143,"Ú":144,"Û":145,"Ü":146,"Þ":147,"ß":148,"à":149,"á":150,"â":151,"ã":152,"ä":153,"ê":154,"ë":155,"ì":156,"í":157,"î":158,"ï":159,"ð":160,"ñ":161,"Ċ":162,"Ġ":163,"ġ":164,"Ģ":165,"ģ":166,"Ĥ":167,"ĥ":168,"Ħ":169,"ħ":170,"Ĩ":171,"ĩ":172,"Ī":173,"ī":174,"Ĭ":175,"ĭ":176,"Į":177,"į":178,"İ":179,"ı":180,"Ĳ":181,"ĳ":182,"Ĵ":183,"ĵ":184,"Ķ":185,"ķ":186,"ĸ":187,"Ĺ":188,"ĺ":189,"Ļ":190,"ļ":191,"Ľ":192,"ľ":193,"Ŀ":194,"ŀ":195,"Ł":196,"ł":197,"Ń":198,"ng":199,"hÃ":200,"Ãł":201,"Äģ":202,"Ã¬":203,"Ã¡":204,"Ä«":205,"Ã¨":206,"Çİ":207,"ĠĠ":208,"Ã©":209,"ÃŃ":210,"shÃ":211,"Ã¹":212,"Ã¡n":213,"zh":214,"ÇĲ":215,"Åį":216,"ji":217,"de":218,"Ãłn":219,"Äĵ":220,"zhÃ":221,"sh":222,"ÄĽ":223,"Ã³":224,"ÇĶ":225,"xi":226,"Ã²":227,"Ãº":228,"Äģn":229,"ĠĠĠ":230,"Ãłi":231,"Å«":232,"Åįng":233,"ÇĴ":234,"ãĢ":235,"shÃ¬":236,"hu":237,"Ã¨i":238,"gu":239,"iÃ¡n":240,"hÃ©":241,"Ãło":242,"Äģng":243,"ÃŃng":244,"yu":245,"Çİn":246,"ch":247,"niÃ¡n":248,"yÄ«":249,"Çİng":250,"Ã©n":251,"ÇĴu":252,"Ã¬ng":253,"wÃ¨i":254,"Çİo":255,"zÃłi":256,"ãĢģ":257,"jÄ«":258,"Äĵng":259,"zhÅįng":260,"xÄ«":261,"bÃ¹":262,"jÃ¬":263,"Ãłng":264,"li":265,"zhÃ¨":266,"shÃŃ":267,"dÃ¬":268,"guÃ³":269,"yÃº":270,"rÃ©n":271,"Ã²ng":272,"chÃ":273,"Äģo":274,"du":275,"chÃ©":276,"yÇĲ":277,"lÃ¬":278,"Ã¡ng":279,"yÃ¬":280,"uÃ²":281,"Ã¡i":282,"zhÃ¬":283,"chÃ©ng":284,"Ã©i":285,"xu":286,"gÅįng":287,"jÃŃ":288,"²u":289,"ÄĽi":290,"iÃłn":291,"Äĵn":292,"Ã³ng":293,"yuÃ¨":294,"yÇĴu":295,"yuÃ¡n":296,"dÃł":297,"qi":298,"Åįu":299,"lÇĲ":300,"20":301,"Ã³u":302,"Äģi":303,"xiÃłn":304,"jiÄģ":305,"sÄ«":306,"Å«n":307,"xÃŃng":308,"yÇĶ":309,"Ã¨n":310,"ÇĴng":311,"ÃŃn":312,"tÄģ":313,"rÃ¬":314,"zhÄ«":315,"hÃ²u":316,"Çİi":317,"gÃ¨":318,"zhÃł":319,"Ã©ng":320,"le":321,"wÃ©i":322,"huÃ¬":323,"dÃło":324,"19":325,"bi":326,"shÃł":327,"qÄ«":328,"qÃŃ":329,"shÃ¨":330,"su":331,"zhÃ¨ng":332,"mÃŃng":333,"jiÃłn":334,"xuÃ©":335,"chÅ«":336,"yÃ¹":337,"ÄĽng":338,"zuÃ²":339,"shÄĵng":340,"duÃ¬":341,"yÃ³u":342,"qÅ«":343,"shÃłng":344,"ÄĽn":345,"dÃ©":346,"lÃ¹":347,"bÃ¨i":348,"chÃ¡":349,"ti":350,"shÇĲ":351,"zhÃłn":352,"zhÇĶ":353,"Äĵi":354,"qu":355,"jÃ¹":356,"xÄ«n":357,"jÅ«n":358,"zhu":359,"ÄĽr":360,"Ã¡o":361,"shÃ¹":362,"uÃ¬":363,"rÃ¨n":364,"fÄģ":365,"wÃ¹":366,"bÃ¬ng":367,"kÃ¨":368,"Ã©r":369,"dÃłi":370,"yÃŃ":371,"jÃ¬n":372,"zÃ¬":373,"yÄ«n":374,"fÃ¹":375,"fÄģng":376,"jÄ«ng":377,"nÃ¡n":378,"huÃł":379,"xÃ¬":380,"zhÅįu":381,"pÃŃng":382,"Ã²u":383,"xiÃł":384,"lÃ¡i":385,"yÃ²ng":386,"shu":387,"guÄģn":388,"tÃ³ng":389,"ãĢĭ":390,"ãĢĬ":391,"fÇİ":392,"zhÃ¹":393,"mÄĽi":394,"hÃ¡":395,"Â·":396,"jiÄģn":397,"jÇĲ":398,"huÃ²":399,"dÃ¹":400,"chu":401,"bÄĽn":402,"xiÄģng":403,"zhÃŃ":404,"dÃ²ng":405,"xiÃłng":406,"mÃŃn":407,"jiÄģng":408,"fÄĵn":409,"shÇĴu":410,"quÃ¡n":411,"wÃ©n":412,"yÃ¡n":413,"hÃł":414,"suÇĴ":415,"jiÃło":416,"qiÃ¡n":417,"diÃłn":418,"tÃ¨":419,"di":420,"duÅį":421,"Ãºn":422,"zuÃ¬":423,"kÄģi":424,"tu":425,"jiÃ©":426,"liÃ¡n":427,"zhÇĲ":428,"kÄĽ":429,"dÃłn":430,"mÃ¹":431,"yÃ¨":432,"fÃº":433,"mÇİ":434,"yÄĽ":435,"dÅįng":436,"qiÃº":437,"bÄĽi":438,"ãĢĮ":439,"ãĢį":440,"gÄģo":441,"yÃł":442,"qÇĲ":443,"jiÄĵ":444,"miÃłn":445,"hÇİi":446,"zhÇİng":447,"shÄ«":448,"jÄ«n":449,"cÇĲ":450,"lu":451,"nÃ¨i":452,"tÇĲ":453,"sÃłi":454,"sÄģn":455,"tÃ¡i":456,"gÃ©":457,"xÃ¬ng":458,"guÃ²":459,"rÃ¹":460,"201":461,"dÄĽng":462,"yÃło":463,"ju":464,"chÄĵ":465,"cÃ¬":466,"wÇĶ":467,"gÄģi":468,"dÃ¬ng":469,"chÃ¡ng":470,"biÇİo":471,"lÄģ":472,"gÃ²ng":473,"jiÃ¨":474,"shÃ²u":475,"dÇİo":476,"shÄģn":477,"chÇİng":478,"sÃ¬":479,"bÇĲ":480,"zÃ©":481,"tÃŃ":482,"kÄĵ":483,"dÄģng":484,"nÃ©ng":485,"Ã¨r":486,"wÃłi":487,"dÄģn":488,"xÃ¹":489,"zi":490,"kÇĴu":491,"xiÇİo":492,"zÇĶ":493,"bÄģ":494,"juÃ©":495,"lÃŃn":496,"liÃº":497,"shÄĽng":498,"yÄ«ng":499,"ku":500,"lÃ¡n":501,"luÃ³":502,"tÅįng":503,"200":504,"Ä«ng":505,"²ng":506,"mÇĲ":507,"zhÃ²ng":508,"en":509,"zhÄĽ":510,"shÇĶ":511,"tiÄģn":512,"zhÃ¨n":513,"Çļ":514,"qÃ¬":515,"zhÇĴng":516,"liÃ¨":517,"chÄĵng":518,"shÅ«":519,"yuÃłn":520,"bÇİo":521,"tÃłi":522,"fÇĶ":523,"fÄĵng":524,"gÇĶ":525,"qÄ«ng":526,"shÄĵn":527,"wÃ¡ng":528,"yÃ¹n":529,"guÇİn":530,"fÄĵi":531,"jiÃ¹":532,"liÇİng":533,"cÃ©ng":534,"mÃ©i":535,"10":536,"fÃ¨n":537,"hÃło":538,"³ng":539,"yÇİn":540,"wÄĽi":541,"zÇĴng":542,"xuÇİn":543,"xiÃło":544,"dÃ¡":545,"nÃł":546,"liÃłng":547,"bÅį":548,"zÃº":549,"jÃ¬ng":550,"bÃło":551,"nÃŃ":552,"wÃº":553,"tÇĴng":554,"huÃ¡":555,"jiÄģo":556,"yuÄĵ":557,"yÇĲng":558,"biÃłn":559,"xÄ«ng":560,"sÃ¹":561,"shuÇĲ":562,"yÃ¡ng":563,"hÃ¹":564,"men":565,"bÄģo":566,"gÄĵ":567,"bÃ³":568,"cÄģn":569,"cÃ³ng":570,"diÇİn":571,"bÃ¬":572,"rÃº":573,"bÃłn":574,"biÄģn":575,"wÇİng":576,"qÇĶ":577,"mi":578,"chÇİn":579,"sÃ¨":580,"zÄ«":581,"chuÃ¡n":582,"00":583,"shÃ¨ng":584,"rÃ¡n":585,"tÃº":586,"zhÄģng":587,"pÇĶ":588,"gÇİi":589,"gÇİng":590,"nÇļ":591,"lÃ¬ng":592,"luÃ²":593,"yÃ²u":594,"tÃ³u":595,"cÃ¨":596,"lÇ":597,"chÃŃ":598,"18":599,"lÇľ":600,"qiÄģn":601,"shÃ©":602,"lÃŃ":603,"dÅįu":604,"pÇĲ":605,"12":606,"zhÄĵng":607,"ni":608,"kuÃ²":609,"shÄģ":610,"dÇİng":611,"fÇİn":612,"gÃ²u":613,"lÃ¨i":614,"xÃŃ":615,"jÇĲng":616,"tuÃ¡n":617,"wÄĵi":618,"xiÄĵ":619,"lÇĲng":620,"lÃ³ng":621,"guÄ«":622,"xiÄģn":623,"rÃ³ng":624,"huÃ¡ng":625,"xiÇİng":626,"bÄģn":627,"jiÇĶ":628,"yÃ¬ng":629,"mÃ©n":630,"shÄģng":631,"shÃ©n":632,"202":633,"bÇİn":634,"kÇİ":635,"mÇĶ":636,"jÇĲn":637,"fÅ«":638,"jÇĶ":639,"mÃ³":640,"guÇİng":641,"cÃŃ":642,"shuÅį":643,"qÃŃng":644,"zhÇİn":645,"hÃ¡i":646,"zhuÄģng":647,"mÃ²":648,"cÃ¡i":649,"dÃº":650,"11":651,"pÇĲn":652,"tÃŃng":653,"chÃ¡o":654,"yÃŃng":655,"tiÃ¡o":656,"jiÇİn":657,"tÃ¡ng":658,"huÃŃ":659,"duÃłn":660,"chÃ©n":661,"gÄĵn":662,"mÃ¬":663,"wÃłn":664,"pÃ¡i":665,"wÄģn":666,"zÃło":667,"hÃ¡ng":668,"wÃ¡n":669,"biÄģo":670,"gÃ¹":671,"lÃºn":672,"199":673,"xiÃ©":674,"jiÇİng":675,"hÃłn":676,"jÃº":677,"fÃłn":678,"fÃ¡ng":679,"huÃ³":680,"hÃ¡n":681,"pi":682,"kÅįng":683,"or":684,"tiÄĽ":685,"mÃ©ng":686,"biÃ©":687,"wÅ«":688,"jiÄĽ":689,"zhuÄģn":690,"yÇĲn":691,"xÅ«":692,"zhÄĵn":693,"dÇĲ":694,"er":695,"chÃº":696,"hÃº":697,"jiÃł":698,"bÄ«ng":699,"mÃ¬ng":700,"lÃŃng":701,"hÃ³ng":702,"qÄ«n":703,"zÇĲ":704,"lÃ¹n":705,"xÃ¬n":706,"chÃ¹":707,"chÇĶ":708,"sÅ«":709,"an":710,"xiÅ«":711,"zÅįng":712,"15":713,"quÃ¨":714,"xiÄģo":715,"zhÃło":716,"qiÃ¡ng":717,"qÃ¹":718,"cÅ«n":719,"chÃ³ng":720,"piÃłn":721,"jiÅ«":722,"fÃłng":723,"suÃŃ":724,"shÅįu":725,"gÃ¨ng":726,"âĢ":727,"guÄģng":728,"Ã¨ng":729,"jÅ«":730,"on":731,"jiÇİ":732,"chuÃłng":733,"dÃŃ":734,"16":735,"zhuÇİn":736,"guÇĴ":737,"xÃ¹n":738,"mÃłn":739,"pÃłi":740,"fÃ¨i":741,"pÃ¨i":742,"198":743,"dÇİ":744,"tuÅį":745,"la":746,"xuÄģn":747,"bÃ¡i":748,"zhÅ«":749,"dÅ«":750,"tÇĶ":751,"diÃło":752,"xiÃ¡":753,"liÃ¹":754,"17":755,"suÃ¬":756,"huÄ«":757,"tÄ«ng":758,"qiÄĽ":759,"tÇİ":760,"qiÃ¡o":761,"hÄģ":762,"gÇİn":763,"zÄĵng":764,"xiÇİn":765,"mÃłi":766,"huÃ¡n":767,"xÇĶ":768,"wÇİ":769,"tuÄ«":770,"wÃ¨n":771,"chÄģo":772,"tiÃ¡n":773,"bÇİi":774,"cÇİi":775,"liÃ¡ng":776,"yÃ¡":777,"sÃł":778,"ar":779,"bÃłi":780,"cÃºn":781,"jiÇİo":782,"shÇİo":783,"yÃłn":784,"zhuÃłng":785,"huÇĴ":786,"lÃ©i":787,"14":788,"zu":789,"jiÃłng":790,"chuÄģn":791,"yÃ¬n":792,"zÇİo":793,"chÃł":794,"yÇĴng":795,"sÇĲ":796,"dÄĵng":797,"30":798,"zhÇĶn":799,"lÃ¨":800,"xÃºn":801,"nuÃ²":802,"kÃ¹":803,"huÃłn":804,"sÃ²ng":805,"gÃło":806,"lÇĶ":807,"13":808,"194":809,"bÄģng":810,"lÇļ":811,"pÄ«":812,"yÃłng":813,"hÄĽn":814,"qÃºn":815,"zhÄĽng":816,"guÃłn":817,"pÃ²":818,"gÄģng":819,"wÇĴ":820,"197":821,"huÄģ":822,"lÄĵi":823,"hÇİo":824,"tÃ¡o":825,"kuÃłng":826,"hÃ¨":827,"in":828,"dÃ¹n":829,"nÃ³ng":830,"gÄĽi":831,"sÄģi":832,"shuÄģng":833,"liÃłn":834,"kuÃłi":835,"dÄ«":836,"bÄ«":837,"pÃłn":838,"xiÄĽ":839,"195":840,"kÇİo":841,"gÃłi":842,"hÄĵi":843,"wÃłng":844,"liÃło":845,"rÃ¨":846,"ge":847,"zuÇĴ":848,"kÃ²ng":849,"196":850,"yÄģng":851,"chÃłng":852,"yÃŃn":853,"³u":854,"rÃ©ng":855,"sÄĵn":856,"bÄĵi":857,"lÃº":858,"piÃło":859,"yÄģ":860,"25":861,"bÄ«n":862,"âĢĶ":863,"rÃłng":864,"chÅįng":865,"lÃ³u":866,"bÇĶ":867,"lÇİo":868,"zhÃº":869,"jÃ¹n":870,"yÇİng":871,"ruÃ¬":872,"yÄģo":873,"xiÃ¡n":874,"xiÃ¨":875,"niÃłn":876,"for":877,"yÅįu":878,"tÃ¡n":879,"kÄģng":880,"pÃŃ":881,"hÃ©ng":882,"yÃºn":883,"xÇĲ":884,"kÃłn":885,"nÃŃng":886,"liÃ¡o":887,"shÃło":888,"bÃº":889,"24":890,"qÇĲng":891,"chÇĲ":892,"mu":893,"dÃ²u":894,"miÇİn":895,"yÅįng":896,"tÇİn":897,"wÇİn":898,"hÅ«":899,"fÄģn":900,"al":901,"tÅ«":902,"gÄģn":903,"suÃłn":904,"dÄ«ng":905,"yuÇİn":906,"wÄĵn":907,"tuÃ¬":908,"zhe":909,"21":910,"st":911,"xiÃ¹":912,"bÇİ":913,"mÇİn":914,"193":915,"23":916,"mula":917,"kÃłng":918,"formula":919,"28":920,"th":921,"mÃ¡o":922,"ruÃ²":923,"piÄģn":924,"chÃ¨":925,"mÃło":926,"lÇİng":927,"qÃŃn":928,"bÃ¡":929,"nÃ¡":930,"zÃłn":931,"guÇĲ":932,"guÃ¬":933,"ou":934,"pÃŃn":935,"wÃ²":936,"xiÃ³ng":937,"shÃłn":938,"re":939,"22":940,"xiÅįng":941,"me":942,"suÄ«":943,"Ã¼":944,"26":945,"shÄĽn":946,"qÃ¬ng":947,"miÃ¡o":948,"fÇİng":949,"50":950,"2020":951,"27":952,"lÃ¡ng":953,"ru":954,"qiÅ«":955,"sÅįng":956,"Ã¼Ã¨":957,"dÃłng":958,"gÄĵng":959,"qiÄģng":960,"ri":961,"fÃ¡":962,"zÄģo":963,"fÃ¨ng":964,"zhÃłng":965,"ï¼":966,"hÃ¡o":967,"dÅ«n":968,"zÇĴu":969,"hÃłi":970,"qiÃ¨":971,"29":972,"tÃłn":973,"pÃło":974,"pÃł":975,"shÃ¹n":976,"pÃ©ng":977,"xuÃ¡n":978,"2010":979,"nÇĲ":980,"000":981,"dÇĲng":982,"niÇĶ":983,"zÇİi":984,"zhÄģo":985,"zhuÄ«":986,"lÃ¼Ã¨":987,"chÅ«n":988,"2019":989,"hÅ«n":990,"kÇĴng":991,"duÄģn":992,"shÃ¨n":993,"xiÃ¡ng":994,"duÇİn":995,"gÃłn":996,"te":997,"ro":998,"kÄģn":999,"lÃ¡o":1000,"cÇİo":1001,"2016":1002,"si":1003,"gÅ«":1004,"pÃ©i":1005,"2018":1006,"kuÇİn":1007,"zÃ¡":1008,"sÅ«n":1009,"yÃ©":1010,"yÇİ":1011,"pÅį":1012,"2021":1013,"ra":1014,"chÃ¬":1015,"duÃ³":1016,"2014":1017,"fÃ¡n":1018,"2011":1019,"2015":1020,"cuÃ²":1021,"2017":1022,"zhÃ©":1023,"yÃ¡o":1024,"pÄģi":1025,"tÃ²u":1026,"cÃ¡ng":1027,"2012":1028,"40":1029,"kÇİi":1030,"2013":1031,"2022":1032,"mÃŃ":1033,"ruÇİn":1034,"suÄģn":1035,"chÄģ":1036,"zÃłng":1037,"miÃło":1038,"lt":1039,"2009":1040,"zhÇİo":1041,"2008":1042,"huÃ¡i":1043,"ãĥ":1044,"ce":1045,"60":1046,"am":1047,"cu":1048,"xuÃ¨":1049,"chÃ³u":1050,"se":1051,"bÇİng":1052,"mÃ¨ng":1053,"100":1054,"tÃ¬":1055,"pÃº":1056,"nÇİo":1057,"2023":1058,"zhuÃłn":1059,"gt":1060,"lÄĽi":1061,"190":1062,"31":1063,"cÃłi":1064,"cÃ¹":1065,"sÃłn":1066,"mÃ³u":1067,"tion":1068,"ta":1069,"hÃ¹n":1070,"ÇĶn":1071,"kuÄģn":1072,"2007":1073,"niÃº":1074,"mÇĴu":1075,"tÇİo":1076,"diÃ©":1077,"2001":1078,"ol":1079,"tÃ©ng":1080,"sÅįu":1081,"kÄĽn":1082,"qiÇİn":1083,"chÄģng":1084,"rÇİn":1085,"quÄĵ":1086,"fÇĴu":1087,"sÇĶn":1088,"el":1089,"bÃł":1090,"2000":1091,"80":1092,"kÃło":1093,"suÅį":1094,"2006":1095,"niÇİo":1096,"chÃºn":1097,"ma":1098,"2024":1099,"lÇİn":1100,"ãģ":1101,"zÄģi":1102,"zhÃ¡":1103,"xuÄĽ":1104,"huÇĲ":1105,"luÃłn":1106,"tÇĲng":1107,"2005":1108,"zÅ«n":1109,"bÃłng":1110,"lÃł":1111,"huÄģn":1112,"rÇİng":1113,"shuÃ¬":1114,"mÇĲn":1115,"35":1116,"lÃłi":1117,"cÄģng":1118,"70":1119,"fÃ³":1120,"pÃ¡n":1121,"of":1122,"nÃłi":1123,"wÄĽn":1124,"et":1125,"cÄģo":1126,"sÄģng":1127,"pÃ¡ng":1128,"90":1129,"bÇĲng":1130,"ï¼į":1131,"zhÄģ":1132,"ãĤ":1133,"shuÃłi":1134,"niÃ¨":1135,"es":1136,"hÃ³u":1137,"mÃ¨i":1138,"shÄģo":1139,"nÇĶ":1140,"dÇĴng":1141,"il":1142,"at":1143,"ow":1144,"fÃ©ng":1145,"miÃ¨":1146,"yÇĶn":1147,"zÃ²u":1148,"mÇİi":1149,"huÃłi":1150,"2004":1151,"45":1152,"yÄģn":1153,"co":1154,"48":1155,"the":1156,"zhuÃ³":1157,"and":1158,"ter":1159,"he":1160,"tÃło":1161,"nÇİi":1162,"kÅ«n":1163,"2025":1164,"zhÄĽn":1165,"ck":1166,"rÇĶ":1167,"kuÃł":1168,"kuÃŃ":1169,"ãĢī":1170,"ãĢĪ":1171,"gÅįu":1172,"36":1173,"cuÄ«":1174,"38":1175,"shÇİn":1176,"rÃ²u":1177,"diÄģo":1178,"2003":1179,"hÇĶ":1180,"guÅį":1181,"37":1182,"cuÃ¬":1183,"ne":1184,"xÃº":1185,"mÃ¡ng":1186,"juÇİn":1187,"cÃ¡n":1188,"diÄģn":1189,"zhÄģn":1190,"cÃ¡o":1191,"189":1192,"IN":1193,"2002":1194,"is":1195,"bo":1196,"kÄĵng":1197,"TC":1198,"ve":1199,"34":1200,"mÃ¡":1201,"lÄĽng":1202,"as":1203,"zÅ«":1204,"75":1205,"âĢĵ":1206,"sÃº":1207,"quÄģn":1208,"dÄģ":1209,"to":1210,"chÄģi":1211,"nu":1212,"lÃłng":1213,"kÃ¹n":1214,"46":1215,"tÃºn":1216,"fÄĽn":1217,"1990":1218,"âĢ¦":1219,"zhÃ²u":1220,"shÇİng":1221,"rÃło":1222,"hÄĵng":1223,"tÄ«":1224,"xÅ«n":1225,"39":1226,"nÃ¨":1227,"..":1228,"pÃ¬":1229,"nÃłn":1230,"pÄģn":1231,"65":1232,"hÅįng":1233,"shÃº":1234,"tÄģn":1235,"Ch":1236,"tÄģng":1237,"kÇİn":1238,"Ma":1239,"nÃ¬":1240,"32":1241,"In":1242,"ST":1243,"47":1244,"hÇİn":1245,"it":1246,"UTC":1247,"qiÃłn":1248,"1999":1249,"1998":1250,"1980":1251,"188":1252,"500":1253,"33":1254,"64":1255,"qiÇİng":1256,"shuÃ²":1257,"pÇİo":1258,"lo":1259,"be":1260,"kÄģ":1261,"zhÃ¡i":1262,"SE":1263,"55":1264,"quÃłn":1265,"nÄ«":1266,"dÃ¨ng":1267,"1997":1268,"The":1269,"miÃ¡n":1270,"49":1271,"gÇİo":1272,"II":1273,"68":1274,"Co":1275,"vi":1276,"shÄĽ":1277,"zÃ¨ng":1278,"Re":1279,"han":1280,"zhÃ³u":1281,"zhÃłi":1282,"44":1283,"1996":1284,"na":1285,"tiÄĵ":1286,"dÄģo":1287,"ad":1288,"br":1289,"1994":1290,"ver":1291,"fÃ©i":1292,"zÃ²ng":1293,"qiÃ³ng":1294,"ci":1295,"tiÃło":1296,"chuÃ¡ng":1297,"1992":1298,"ba":1299,"chuÃŃ":1300,"juÄģn":1301,"chÃ¡i":1302,"miÇİo":1303,"guÄģ":1304,"xuÄĵ":1305,"tÃ²ng":1306,"1995":1307,"fÄĽi":1308,"chÄ«":1309,"oo":1310,"mÄĽng":1311,"wÅį":1312,"67":1313,"ir":1314,"shuÄģi":1315,"tuÃ³":1316,"chuÄģng":1317,"huÇİn":1318,"1991":1319,"1970":1320,"58":1321,"ay":1322,"1950":1323,"ca":1324,"nd":1325,"guÃł":1326,"chÃ¡n":1327,"300":1328,"wÄģ":1329,"1993":1330,"187":1331,"1949":1332,"pe":1333,"sÄģ":1334,"tiÇİo":1335,"AT":1336,"1960":1337,"biÇİn":1338,"42":1339,"1945":1340,"ing":1341,"guÃłi":1342,"au":1343,"kÇĶ":1344,"nÃº":1345,"1988":1346,"dÇĶ":1347,"1989":1348,"ig":1349,"pÃ¹":1350,"69":1351,"liÇĶ":1352,"gÇĴng":1353,"SEE":1354,"tuÃ²":1355,"amp":1356,"ct":1357,"liÇİo":1358,"INSEE":1359,"59":1360,"tÄģi":1361,"43":1362,"66":1363,"chuÃłn":1364,"op":1365,"chÃ¨n":1366,"os":1367,"57":1368,"1985":1369,"huÄģng":1370,"99":1371,"SA":1372,"ãĢİ":1373,"cÃ¹n":1374,"ãĢı":1375,"1984":1376,"hÃºn":1377,"41":1378,"pÅ«":1379,"ly":1380,"us":1381,"kÃ²u":1382,"fÃ©n":1383,"88":1384,"1986":1385,"rÇİo":1386,"mp":1387,"St":1388,"id":1389,"rÃ¹n":1390,"TV":1391,"150":1392,"zhuÅį":1393,"ind":1394,"400":1395,"sÇİn":1396,"1987":1397,"78":1398,"un":1399,"ed":1400,"ha":1401,"1982":1402,"56":1403,"Li":1404,"ur":1405,"ard":1406,"nuÃ³":1407,"1983":1408,"NA":1409,"gÇĶn":1410,"Ro":1411,"De":1412,"ss":1413,"mÄģ":1414,"tou":1415,"pÃ¬n":1416,"CD":1417,"chÅįu":1418,"ber":1419,"gÇĴu":1420,"quÇİn":1421,"Mi":1422,"77":1423,"zhÄģi":1424,"Me":1425,"qiÃł":1426,"mÄģo":1427,"qiÇİo":1428,"Mar":1429,"tw":1430,"kÅ«":1431,"kuÃ¡ng":1432,"rÃ³u":1433,"der":1434,"79":1435,"lÃ²u":1436,"OS":1437,"Â°":1438,"kuÃ¬":1439,"sÃłng":1440,"ï½":1441,"Al":1442,"180":1443,"ty":1444,"BC":1445,"54":1446,"1979":1447,"61":1448,"1920":1449,"ang":1450,"pÄĵn":1451,"98":1452,"sÄĵng":1453,"52":1454,"You":1455,"ap":1456,"1978":1457,"nÃ¹":1458,"wÄĵng":1459,"62":1460,"yÄĵ":1461,"duÇĴ":1462,"Le":1463,"53":1464,"xÇĲng":1465,"juÃłn":1466,"ï½ŀ":1467,"BA":1468,"ke":1469,"1946":1470,"ts":1471,"CO":1472,"mo":1473,"ction":1474,"51":1475,"1958":1476,"1981":1477,"Vi":1478,"1972":1479,"1948":1480,"zhuÃ¬":1481,"cÅįng":1482,"tÅįu":1483,"AM":1484,"hi":1485,"63":1486,"man":1487,"ows":1488,"AR":1489,"ry":1490,"1941":1491,"Wind":1492,"BS":1493,"wÃ¡":1494,"liÇİn":1495,"1930":1496,"Mo":1497,"Pro":1498,"luÇİn":1499,"kuÄģng":1500,"qÃº":1501,"tuÇĴ":1502,"kÃ©":1503,"76":1504,"hans":1505,"va":1506,"1940":1507,"1937":1508,"con":1509,"1976":1510,"zuÇĲ":1511,"1944":1512,"Jo":1513,"89":1514,"1975":1515,"um":1516,"ï¼ı":1517,"Te":1518,"1968":1519,"niÃ¡ng":1520,"pÃ³":1521,"shuÄģ":1522,"hk":1523,"yuÄģn":1524,"tÄģo":1525,"per":1526,"wÄģng":1527,"ga":1528,"1000":1529,"ran":1530,"Windows":1531,"95":1532,"Ne":1533,"bÃŃ":1534,"sÇİo":1535,"da":1536,"87":1537,"1966":1538,"85":1539,"fÃł":1540,"pÄĵng":1541,"600":1542,"lÃłn":1543,"Se":1544,"Sta":1545,"sp":1546,"120":1547,"1947":1548,"Ga":1549,"Ar":1550,"ot":1551,"gÄģ":1552,"1956":1553,"AC":1554,"1964":1555,"dÇİn":1556,"cÅ«":1557,"1942":1558,"1955":1559,"chÇĴu":1560,"lay":1561,"1952":1562,"1939":1563,"IS":1564,"1938":1565,"72":1566,"74":1567,"ht":1568,"rÄĽn":1569,"1973":1570,"ace":1571,"fi":1572,"1974":1573,"1954":1574,"qiÄĵ":1575,"ED":1576,"1900":1577,"--":1578,"Be":1579,"AP":1580,"ore":1581,"1943":1582,"1977":1583,"Da":1584,"1971":1585,"pÄ«n":1586,"pÇĴ":1587,"mÃ¡n":1588,"1967":1589,"shÃ©ng":1590,"ment":1591,"IC":1592,"800":1593,"ER":1594,"La":1595,"86":1596,"1959":1597,"bÄĵng":1598,"son":1599,"1965":1600,"JR":1601,"1969":1602,"Ra":1603,"duÄ«":1604,"Di":1605,"ok":1606,"pÃ©n":1607,"ãĥ»":1608,"ÃĹ":1609,"qiÃło":1610,"chuÄ«":1611,"ID":1612,"qiÄģo":1613,"Su":1614,"ine":1615,"1936":1616,"160":1617,"97":1618,"bÄĵn":1619,"zhuÄģ":1620,"ent":1621,"1953":1622,"Sa":1623,"1962":1624,"MA":1625,"Tu":1626,"tic":1627,"1961":1628,"lÇĴng":1629,"ation":1630,"âĶ":1631,"1935":1632,"tÃł":1633,"mÃ¡i":1634,"Sh":1635,"96":1636,"ON":1637,"ak":1638,"ï¼ħ":1639,"1951":1640,"1957":1641,"1963":1642,"Lo":1643,"âĶĢ":1644,"one":1645,"rou":1646,"84":1647,"Ja":1648,"2026":1649,"do":1650,"cÇİn":1651,"82":1652,"gi":1653,"bu":1654,"mer":1655,"73":1656,"po":1657,"94":1658,"tÅ«n":1659,"92":1660,"So":1661,"AN":1662,"IP":1663,"An":1664,"ho":1665,"ali":1666,"1933":1667,"Mu":1668,"1931":1669,"nÃ¡ng":1670,"niÃło":1671,"les":1672,"71":1673,"bÃ¡o":1674,"nuÇİn":1675,"lÃ©ng":1676,"pÃ¡":1677,"83":1678,"93":1679,"ai":1680,"We":1681,"81":1682,"dÇĴu":1683,"1918":1684,"sta":1685,"HD":1686,"Bo":1687,"sÄģo":1688,"Uni":1689,"1928":1690,"luÃ¡n":1691,"ki":1692,"1932":1693,"wi":1694,"nÃ¨n":1695,"col":1696,"int":1697,"MV":1698,"SS":1699,"our":1700,"110":1701,"tÃ¹":1702,"IT":1703,"1912":1704,"all":1705,"1929":1706,"tuÇĲ":1707,"duÃ²":1708,"1927":1709,"cn":1710,"1934":1711,"are":1712,"Pa":1713,"700":1714,"gÃ¡":1715,"che":1716,"by":1717,"ted":1718,"ster":1719,"huÇİng":1720,"Si":1721,"250":1722,"ff":1723,"91":1724,"mm":1725,"Par":1726,"zÃ©i":1727,"Ri":1728,"1924":1729,"pp":1730,"ph":1731,"...":1732,"1919":1733,"kuÄ«":1734,"He":1735,"so":1736,"xuÃłn":1737,"130":1738,"piÄģo":1739,"no":1740,"1925":1741,"PS":1742,"Play":1743,"pÄģo":1744,"140":1745,"xiÄģ":1746,"Bu":1747,"Ca":1748,"SM":1749,"Con":1750,"Sp":1751,"PC":1752,"1914":1753,"ble":1754,"ste":1755,"zhÇİi":1756,"km":1757,"DV":1758,"zhÄĵ":1759,"En":1760,"mes":1761,"YouTu":1762,"com":1763,"Ba":1764,"hÄĵ":1765,"Fi":1766,"Ti":1767,"diÄĵ":1768,"ell":1769,"gra":1770,"lÇİ":1771,"AS":1772,"ia":1773,"1911":1774,"Wi":1775,"shi":1776,"end":1777,"ill":1778,"nÃ¼Ã¨":1779,"ana":1780,"ara":1781,"Ge":1782,"1926":1783,"den":1784,"1922":1785,"Na":1786,"nÇİ":1787,"sion":1788,"hÃ¨n":1789,"1917":1790,"ET":1791,"NBA":1792,"IV":1793,"shuÃŃ":1794,"cÄģi":1795,"rÃ¡o":1796,"EN":1797,"1923":1798,"art":1799,"1921":1800,"fe":1801,"pÃ¨ng":1802,"sa":1803,"ka":1804,"kuÄģ":1805,"Goo":1806,"ther":1807,"chÇĴng":1808,"To":1809,"170":1810,"à¸":1811,"EC":1812,"ld":1813,"mÇİo":1814,"nÃ²ng":1815,"AL":1816,"Ha":1817,"MS":1818,"section":1819,"Ni":1820,"YouTube":1821,"EP":1822,"hn":1823,"BL":1824,"1913":1825,"tiÄģo":1826,"Ju":1827,"HK":1828,"ler":1829,"âĨ":1830,"hant":1831,"gÃ¹n":1832,"1909":1833,"gin":1834,"Inter":1835,"cro":1836,"Ste":1837,"MP":1838,"AI":1839,"Ho":1840,"gÄĽng":1841,"Wor":1842,"nÃło":1843,"Po":1844,"fÄĽng":1845,"Do":1846,"luÇĴ":1847,"US":1848,"ant":1849,"go":1850,"ya":1851,"DVD":1852,"ort":1853,"zÅįu":1854,"ris":1855,"3000":1856,"Pi":1857,"cÄģ":1858,"Car":1859,"1910":1860,"RO":1861,"DS":1862,"Th":1863,"112":1864,"AK":1865,"My":1866,"pen":1867,"RE":1868,"pro":1869,"ven":1870,"1916":1871,"Station":1872,"ãĥ¼":1873,"chuÃ²":1874,"Net":1875,"Î±":1876,"Ki":1877,"Sch":1878,"olo":1879,"No":1880,"ari":1881,"ture":1882,"gn":1883,"Lin":1884,"CP":1885,"UN":1886,"gle":1887,"âĪ":1888,"ers":1889,"hÃ©n":1890,"1915":1891,"oun":1892,"niÃłng":1893,"1905":1894,"FC":1895,"my":1896,"Lu":1897,"ll":1898,"Wil":1899,"CN":1900,"âĦ":1901,"âĨĴ":1902,"1901":1903,"Fa":1904,"Au":1905,"ting":1906,"New":1907,"DNA":1908,"Ex":1909,"âĢ§":1910,"ary":1911,"900":1912,"Ph":1913,"sic":1914,"HR":1915,"dice":1916,"sis":1917,".&":1918,"CH":1919,"zÄĽn":1920,"TA":1921,"dia":1922,"Qu":1923,"TO":1924,"1906":1925,"len":1926,"1904":1927,"chuÇİng":1928,"AV":1929,"For":1930,"gÄĽn":1931,"John":1932,"we":1933,"ere":1934,"And":1935,"MO":1936,"ding":1937,"codice":1938,"chÇİo":1939,"jiÇĴng":1940,"âĦĥ":1941,"Ta":1942,"pa":1943,"ps":1944,"PlayStation":1945,"fu":1946,"ko":1947,"wÃł":1948,"bÃ¨ng":1949,"05":1950,"CC":1951,"ton":1952,"vo":1953,"eri":1954,"diÅ«":1955,"1907":1956,"1908":1957,"Google":1958,"AG":1959,"EST":1960,"MI":1961,"zuÃłn":1962,"SO":1963,"ory":1964,"tes":1965,"LE":1966,"Gu":1967,"jiÃ¡":1968,"zuÇİn":1969,"cy":1970,"lÄ«":1971,"chi":1972,"ley":1973,"BO":1974,"enter":1975,"BBC":1976,"AD":1977,"IG":1978,"cal":1979,"III":1980,"Cu":1981,"cri":1982,"oft":1983,"1500":1984,"Ru":1985,"lin":1986,"5000":1987,"ori":1988,"zuÄģn":1989,"pu":1990,"Go":1991,"IST":1992,"shÄĵ":1993,"lÇĺ":1994,"Fe":1995,"Col":1996,"wor":1997,"Sy":1998,"Ka":1999,"ME":2000,"tive":2001,"CR":2002,"gen":2003,"3D":2004,"wit":2005,"round":2006,"IA":2007,"guÇİ":2008,"105":2009,"je":2010,"ron":2011,"mÃł":2012,"Ð°":2013,"101":2014,"1903":2015,"GB":2016,"pÄ«ng":2017,"cha":2018,"shÃ¡":2019,"lan":2020,"09":2021,"TE":2022,"ree":2023,"Ad":2024,"Hu":2025,"cÃłn":2026,"cÃ©n":2027,"1902":2028,"BD":2029,"NC":2030,"land":2031,"can":2032,"ze":2033,"own":2034,"ess":2035,"pÄģng":2036,"xt":2037,"350":2038,"wa":2039,"ina":2040,"SAO":2041,"shÃ¡o":2042,"DC":2043,"net":2044,"span":2045,"des":2046,"Î²":2047,"ght":2048,"lÃ¬n":2049,"ence":2050,"B1900":2051,"inc":2052,"book":2053,"del":2054,"ES":2055,"BM":2056,"ï¼İ":2057,"dy":2058,"ãĥ³":2059,"Hi":2060,"1898":2061,"06":2062,"118":2063,"Pe":2064,"ms":2065,"ãģ®":2066,"lÃ¡":2067,"pt":2068,"qÇĲn":2069,"tel":2070,"360":2071,"DR":2072,"mon":2073,"01":2074,"DA":2075,"gh":2076,"Open":2077,"1895":2078,"lÃło":2079,"yle":2080,"125":2081,"mÃº":2082,"lar":2083,"bÃ¨n":2084,"HO":2085,"Ko":2086,"MC":2087,"ance":2088,"ATP":2089,"Micro":2090,"Ð¾":2091,"108":2092,"gy":2093,"NG":2094,"pÅįu":2095,"igh":2096,"sy":2097,"cor":2098,"tt":2099,"dio":2100,"Ke":2101,"qiÃ©":2102,"za":2103,"App":2104,"Pu":2105,"ning":2106,"gram":2107,"IF":2108,"Fran":2109,"ft":2110,"res":2111,"Com":2112,"tin":2113,"âĪĴ":2114,"07":2115,"08":2116,"230":2117,"Face":2118,"104":2119,"Du":2120,"ref":2121,"One":2122,"World":2123,"old":2124,"Ser":2125,"soft":2126,"EDT":2127,"ISTAT":2128,"Mon":2129,"Stu":2130,"shÄģi":2131,"sÇĴng":2132,"à¤":2133,"NO":2134,"ner":2135,"1896":2136,"Cor":2137,"LL":2138,"Bi":2139,"ger":2140,"lus":2141,"109":2142,"DP":2143,"yÅ«":2144,"las":2145,"AA":2146,"fli":2147,"Comp":2148,"rea":2149,"gÄĽ":2150,"RI":2151,"vel":2152,"ren":2153,"line":2154,"RT":2155,"suÇĲ":2156,"SP":2157,"xiÃ¡o":2158,"qiÇİ":2159,"EX":2160,"rÄĽ":2161,"Bar":2162,"Bri":2163,"ling":2164,"bert":2165,"B48":2166,"106":2167,"1890":2168,"ctor":2169,"CST":2170,"San":2171,"ML":2172,"CDT":2173,"Love":2174,"ity":2175,"mar":2176,"zÄģng":2177,"row":2178,"DO":2179,"with":2180,"HE":2181,"fa":2182,"Per":2183,"pÄĵi":2184,"ward":2185,"Har":2186,"Man":2187,"ds":2188,"tional":2189,"tain":2190,"ja":2191,"04":2192,"4000":2193,"115":2194,"cuÃłn":2195,"1200":2196,"ky":2197,"ux":2198,"ound":2199,"ight":2200,"M1":2201,"03":2202,"GP":2203,"pÃ¡o":2204,"CE":2205,"back":2206,"1889":2207,"begin":2208,"Je":2209,"1899":2210,"ool":2211,"colspan":2212,"1871":2213,"ring":2214,"Ed":2215,"RS":2216,"ower":2217,"mic":2218,"Facebook":2219,"lude":2220,"Willi":2221,"Microsoft":2222,"âĢĭ":2223,"240":2224,"tur":2225,"Mac":2226,"1600":2227,"LO":2228,"Live":2229,"BE":2230,"cket":2231,"102":2232,"cc":2233,"ker":2234,"box":2235,"TT":2236,"1897":2237,"Gi":2238,"NH":2239,"EE":2240,"chÃ²u":2241,"Pre":2242,"Tri":2243,"117":2244,"On":2245,"PP":2246,"qÃ¬n":2247,"ks":2248,"Is":2249,"SC":2250,"02":2251,"van":2252,"cm":2253,"shuÇİng":2254,"style":2255,"mb":2256,"103":2257,"AKB48":2258,"MD":2259,"yÇİo":2260,"107":2261,"Gra":2262,"bli":2263,"Music":2264,"Gre":2265,"ood":2266,"cÃ²u":2267,"Linux":2268,"include":2269,"Dis":2270,"Or":2271,"Tra":2272,"Pri":2273,"tÇİng":2274,"ww":2275,"Nor":2276,"pha":2277,"min":2278,"Ori":2279,"ye":2280,"only":2281,"450":2282,"VID":2283,"tus":2284,"127":2285,"mas":2286,"tra":2287,"Davi":2288,"que":2289,"ane":2290,"128":2291,"align":2292,"lÄģo":2293,"lis":2294,"ous":2295,"Game":2296,"flix":2297,"CL":2298,"ora":2299,"Netflix":2300,"El":2301,"1894":2302,"220":2303,"rin":2304,"Ber":2305,"Ð½":2306,"ser":2307,"William":2308,"IL":2309,"Vo":2310,"SH":2311,"sti":2312,"rom":2313,"Twit":2314,"1880":2315,"Red":2316,"yi":2317,"RNA":2318,"zÃ¡o":2319,"136":2320,"PG":2321,"Fu":2322,"Ð¸":2323,"ero":2324,"ãģĦ":2325,"TR":2326,"stra":2327,"Team":2328,"1800":2329,"Wa":2330,"ãĤ¹":2331,"Univer":2332,"ground":2333,"tor":2334,"1885":2335,"nge":2336,"liÇİ":2337,"114":2338,"ano":2339,"ãĤĵ":2340,"piÃ¡n":2341,"rus":2342,"Hz":2343,"Ty":2344,"Char":2345,"color":2346,"116":2347,"280":2348,"name":2349,"Star":2350,"Eu":2351,"Gen":2352,"UR":2353,"hy":2354,"Ðµ":2355,"113":2356,"era":2357,"lla":2358,"1886":2359,"sing":2360,"ãĤ¤":2361,"TS":2362,"ten":2363,"School":2364,"PO":2365,"mÇİng":2366,"lass":2367,"1893":2368,"irl":2369,"Bla":2370,"Mc":2371,"ex":2372,"nic":2373,"out":2374,"111":2375,"Mark":2376,"SL":2377,"irst":2378,"ãĦ":2379,"cial":2380,"Super":2381,"Don":2382,"ac":2383,"Wal":2384,"ject":2385,"lex":2386,"mÇĴ":2387,"ans":2388,"âĢ»":2389,"tri":2390,"lia":2391,"ie":2392,"mÅį":2393,"135":2394,"David":2395,"260":2396,"1860":2397,"national":2398,"Geor":2399,"Mor":2400,"ys":2401,"nÃŃn":2402,"gue":2403,"tle":2404,"any":2405,"Pet":2406,"WTA":2407,"way":2408,"roup":2409,"HC":2410,"Mat":2411,"nis":2412,"ces":2413,"UA":2414,"Un":2415,"was":2416,"ouse":2417,"ham":2418,"1888":2419,"Ac":2420,"text":2421,"SD":2422,"-.":2423,"cation":2424,"Bra":2425,"ony":2426,"roid":2427,"background":2428,"yÅ«n":2429,"dÇİi":2430,"ream":2431,"Show":2432,"129":2433,"GO":2434,"om":2435,"chÄĵn":2436,"1870":2437,"stri":2438,"GN":2439,"ï¹":2440,"Che":2441,"nia":2442,"1887":2443,"bur":2444,"don":2445,"pri":2446,"shuÄģn":2447,"1868":2448,"6000":2449,"cle":2450,"Ã¶":2451,"ÑĢ":2452,"1883":2453,"Cy":2454,"NF":2455,"VA":2456,"lub":2457,"meri":2458,"Ku":2459,"ank":2460,"Meta":2461,"320":2462,"Ab":2463,"Xbox":2464,"CS":2465,"NHK":2466,"AF":2467,"DD":2468,"Twitter":2469,"KP":2470,"ny":2471,"onlyinclude":2472,"Tho":2473,"ens":2474,"piÃ¡o":2475,"++":2476,"bit":2477,"tÃłng":2478,"1864":2479,"âĢ¢":2480,"ION":2481,"1884":2482,"119":2483,"RC":2484,"UE":2485,"tis":2486,"122":2487,"Cl":2488,"2500":2489,"1892":2490,"210":2491,"A1":2492,"ong":2493,"ins":2494,"Wh":2495,"center":2496,"let":2497,"miÃ¹":2498,"155":2499,"Sou":2500,"ISO":2501,"âħ":2502,"145":2503,"1891":2504,"650":2505,"pre":2506,"Android":2507,"Girl":2508,"sel":2509,"NS":2510,"car":2511,"vil":2512,"ãĢķ":2513,"sil":2514,"OR":2515,"yo":2516,"As":2517,"ãĢĶ":2518,"1850":2519,"ona":2520,"cuÅį":2521,"htt":2522,"red":2523,"low":2524,"xy":2525,"ensis":2526,"International":2527,"Day":2528,"cer":2529,"mÄ«":2530,"1867":2531,"stem":2532,"IM":2533,"pÃłng":2534,"ãĥĪ":2535,"All":2536,"Nation":2537,"sed":2538,"1879":2539,"mber":2540,"James":2541,"Enter":2542,"War":2543,"ffi":2544,"380":2545,"AB":2546,"UP":2547,"dis":2548,"1876":2549,"Coun":2550,"Ver":2551,"Universi":2552,"im":2553,"vin":2554,"George":2555,"Her":2556,"1875":2557,"1861":2558,"270":2559,"Dra":2560,"td":2561,"lie":2562,"sia":2563,"eld":2564,"Air":2565,"Group":2566,"IR":2567,"cho":2568,"time":2569,"126":2570,"ama":2571,"NT":2572,"Pau":2573,"lor":2574,"inter":2575,"Ani":2576,"Spe":2577,"Games":2578,"NGC":2579,"Hy":2580,"stru":2581,"ãĥ«":2582,"1873":2583,"Hol":2584,"MG":2585,"123":2586,"ãĥ©":2587,"Eng":2588,"PV":2589,"Ben":2590,"HT":2591,"val":2592,"Colle":2593,"day":2594,"MB":2595,"168":2596,"COVID":2597,"critic":2598,"Club":2599,"FM":2600,"Hen":2601,"lue":2602,"1865":2603,"ild":2604,"AO":2605,"PL":2606,"that":2607,"ass":2608,"Ameri":2609,"DE":2610,"121":2611,"Center":2612,"ut":2613,"cus":2614,"Blo":2615,"175":2616,"ãģĨ":2617,"Web":2618,"H2":2619,"YP":2620,"from":2621,"Ã¤":2622,"1400":2623,"Ali":2624,"od":2625,"MAX":2626,"work":2627,"par":2628,"138":2629,"228":2630,"TP":2631,"fer":2632,"1848":2633,"chÃłn":2634,"ast":2635,"ald":2636,"ney":2637,"liÅ«":2638,"1862":2639,"330":2640,"dge":2641,"pÄĽng":2642,"124":2643,"ãĤ¢":2644,"1881":2645,"1882":2646,"737":2647,"age":2648,"Can":2649,"1878":2650,"550":2651,"Sha":2652,"guÇİi":2653,"ruÇĲ":2654,"1872":2655,"Ele":2656,"LC":2657,"bÃ¬n":2658,"INK":2659,"Metacritic":2660,"Oricon":2661,"bor":2662,"nÃ¡o":2663,"156":2664,"MTV":2665,"UC":2666,"bri":2667,"165":2668,"comp":2669,"Boo":2670,"LED":2671,"fo":2672,"1840":2673,"niÇİn":2674,"IVE":2675,"High":2676,"Spi":2677,"core":2678,"dÄģi":2679,"wan":2680,"750":2681,"It":2682,"ns":2683,"tro":2684,"shÃłi":2685,"ãĥĥ":2686,"ology":2687,"ming":2688,"1300":2689,"ãģĹ":2690,"137":2691,"stagram":2692,"7000":2693,"Bro":2694,"DOS":2695,"SQ":2696,"UB":2697,"229":2698,"IU":2699,"cre":2700,"zo":2701,"Chu":2702,"GDP":2703,"King":2704,"OK":2705,"Ñģ":2706,"ena":2707,"Lea":2708,"She":2709,"rand":2710,"152":2711,"als":2712,"Stre":2713,"TVB":2714,"Micha":2715,"Va":2716,"lip":2717,"159":2718,"1877":2719,"Robert":2720,"type":2721,"Sur":2722,"âĹ":2723,"kuÇĲ":2724,"1866":2725,"rist":2726,"Chi":2727,"Chris":2728,"Pat":2729,"iOS":2730,"Ð»":2731,"oly":2732,"Produ":2733,"SK":2734,"1869":2735,"âĢ²":2736,"silver":2737,"THE":2738,"Up":2739,"Ce":2740,"DM":2741,"gar":2742,"her":2743,"sen":2744,"xiÇĶ":2745,"Fri":2746,"NET":2747,"Pla":2748,"Ðº":2749,"she":2750,"139":2751,"Instagram":2752,"Phone":2753,"BI":2754,"star":2755,"BLAC":2756,"Type":2757,"Big":2758,"por":2759,"Ð²":2760,"DJ":2761,"rÄĵng":2762,"iss":2763,"Apple":2764,"CG":2765,"Hel":2766,"WE":2767,"ew":2768,"ray":2769,"ãĤ¯":2770,"code":2771,"Michael":2772,"At":2773,"DF":2774,"ï¸":2775,"ark":2776,"alk":2777,"1100":2778,"158":2779,"ons":2780,"ator":2781,"Tech":2782,"Paul":2783,"225":2784,"305":2785,"133":2786,"INE":2787,"cia":2788,"RA":2789,"sÇİ":2790,"ãĥª":2791,"Award":2792,"HI":2793,"YO":2794,"132":2795,"Steam":2796,"205":2797,"1863":2798,"Park":2799,"National":2800,"Bill":2801,"Ye":2802,"tainment":2803,"215":2804,"Ci":2805,"bra":2806,"sto":2807,"new":2808,"University":2809,"FO":2810,"ral":2811,"Media":2812,"CA":2813,"F1":2814,"KBS":2815,"Val":2816,"148":2817,"131":2818,"Lou":2819,"Smi":2820,"166":2821,"arch":2822,"1874":2823,"sso":2824,"EF":2825,"Mer":2826,"XX":2827,"bal":2828,"kg":2829,"now":2830,"1858":2831,"Fin":2832,"Kar":2833,"Tran":2834,"gon":2835,"ves":2836,"147":2837,"space":2838,"Black":2839,"Ter":2840,"ach":2841,"gan":2842,"Peter":2843,"Gar":2844,"deo":2845,"256":2846,"ãģĭ":2847,"GA":2848,"IE":2849,"M2":2850,"kÇĶn":2851,"1830":2852,"Rich":2853,"CBS":2854,"UT":2855,"1851":2856,"Lee":2857,"BN":2858,"UI":2859,"192":2860,"zer":2861,"Î¼":2862,"ada":2863,"8000":2864,"chÄĽ":2865,"Jack":2866,"Entertainment":2867,"310":2868,"Jap":2869,"Win":2870,"lÇĲn":2871,"bin":2872,"mini":2873,"143":2874,"set":2875,"City":2876,"Mk":2877,"gÃłng":2878,"1855":2879,"rie":2880,"ater":2881,"Intel":2882,"Power":2883,"EM":2884,"IX":2885,"Sam":2886,"hÇİ":2887,"Space":2888,"RAM":2889,"ð«":2890,"185":2891,"1859":2892,"zuÃ³":2893,"STAR":2894,"ship":2895,"Charles":2896,"bel":2897,"py":2898,"134":2899,"Dire":2900,"Ang":2901,"ABC":2902,"Fla":2903,"ene":2904,"1854":2905,"146":2906,"301":2907,"enti":2908,"1700":2909,"Viu":2910,"Java":2911,"370":2912,"if":2913,"1857":2914,"Free":2915,"GM":2916,"Py":2917,"Tai":2918,"whi":2919,"stro":2920,"vs":2921,"Ø§":2922,"ann":2923,"290":2924,"ãģª":2925,"Life":2926,"ï¸°":2927,"Er":2928,"Pan":2929,"Ve":2930,"Î³":2931,"214":2932,"420":2933,"Dream":2934,"Ya":2935,"ÑĤ":2936,"Recor":2937,"Alpha":2938,"Company":2939,"stitu":2940,"ek":2941,"fang":2942,"face":2943,"Î¿":2944,"ãĢľ":2945,"mis":2946,"1856":2947,"1853":2948,"Project":2949,"Am":2950,"House":2951,"Pop":2952,"first":2953,"dium":2954,"ãģŁ":2955,"ety":2956,"Time":2957,"Thomas":2958,"Cal":2959,"Min":2960,"ae":2961,"ox":2962,"von":2963,"vis":2964,"144":2965,"Saint":2966,"FA":2967,"Ken":2968,"OVA":2969,"Cent":2970,"Tru":2971,"VO":2972,"bÃ²":2973,"A2":2974,"IO":2975,"167":2976,"Street":2977,"3A":2978,"HS":2979,"SBS":2980,"shÇİ":2981,"bili":2982,"kuÇİ":2983,"1841":2984,"very":2985,"Alex":2986,"Bat":2987,"LP":2988,"Lau":2989,"Tor":2990,"din":2991,"ric":2992,"340":2993,"PM":2994,"Por":2995,"Shi":2996,"chuÇİn":2997,"mat":2998,"mation":2999,"BLACKP":3000,"Met":3001,"ple":3002,"zÄģ":3003,"208":3004,"1815":3005,"178":3006,"CPU":3007,"BLACKPINK":3008,"223":3009,"Bur":3010,"cis":3011,"mÃ¨n":3012,"Soci":3013,"Studio":3014,"Euro":3015,"850":3016,"LGB":3017,"Sing":3018,"pla":3019,"cher":3020,"zuÅį":3021,"ses":3022,"Rock":3023,"www":3024,"IBM":3025,"spe":3026,"SF":3027,"207":3028,"die":3029,"play":3030,"sg":3031,"nie":3032,"171":3033,"235":3034,"tation":3035,"ãģ¨":3036,"ãģ¾":3037,"Dig":3038,"Fer":3039,"LIVE":3040,"Mr":3041,"PE":3042,"SU":3043,"VE":3044,"Yu":3045,"nÃ¬ng":3046,"203":3047,"B2":3048,"Whi":3049,"not":3050,"Art":3051,"SQL":3052,"Pad":3053,"1846":3054,"164":3055,"ford":3056,"oot":3057,"College":3058,"bre":3059,"cra":3060,"157":3061,"vice":3062,"berg":3063,"publi":3064,"BR":3065,"LT":3066,"NE":3067,"lit":3068,"141":3069,"ICE":3070,"B1":3071,"Cro":3072,"Cap":3073,"Sun":3074,"ond":3075,"176":3076,"thy":3077,"ING":3078,"board":3079,"Inc":3080,"Tele":3081,"American":3082,"Asso":3083,"LS":3084,"hÄģn":3085,"you":3086,"Â²":3087,"1812":3088,"1845":3089,"1844":3090,"sign":3091,"Road":3092,"Girls":3093,"self":3094,"Ze":3095,"sch":3096,"mit":3097,"231":3098,"Offi":3099,"cture":3100,"class":3101,"HF":3102,"Ltd":3103,"M3":3104,"Mil":3105,"Ros":3106,"ãĤĬ":3107,"witch":3108,"LGBT":3109,"Ag":3110,"ball":3111,"209":3112,"cess":3113,"ãģį":3114,"off":3115,"NASA":3116,"GNU":3117,"LA":3118,"wÄģi":3119,"ded":3120,"Jose":3121,"Smith":3122,"Cla":3123,"Ger":3124,"PA":3125,"Pra":3126,"ampi":3127,"IUCN":3128,"216":3129,"PN":3130,"Îº":3131,"1849":3132,"153":3133,"temp":3134,"ved":3135,"Good":3136,"CT":3137,"Fil":3138,"NBC":3139,"Tour":3140,"wh":3141,"zhÇĴu":3142,"sha":3143,"204":3144,"238":3145,"aurus":3146,"Production":3147,"BB":3148,"Cra":3149,"Gal":3150,"Hall":3151,"Sci":3152,"nal":3153,"oi":3154,"yn":3155,"vision":3156,"Video":3157,"Gala":3158,"GT":3159,"O2":3160,"lÄĵ":3161,"pm":3162,"ue":3163,"Ïĥ":3164,"mited":3165,"orts":3166,"ino":3167,"tions":3168,"Eli":3169,"PR":3170,"Sky":3171,"tal":3172,"206":3173,"lea":3174,"qui":3175,"mac":3176,"460":3177,"ab":3178,"mal":3179,"win":3180,"1814":3181,"org":3182,"218":3183,"ani":3184,"fra":3185,"eries":3186,"Richard":3187,"SI":3188,"lti":3189,"war":3190,"chÇĶn":3191,"rich":3192,"ange":3193,"IGN":3194,"Act":3195,"LD":3196,"âĸ":3197,"pic":3198,"Boy":3199,"Far":3200,"Tur":3201,"WS":3202,"ÏĢ":3203,"def":3204,"1847":3205,"154":3206,"turn":3207,"580":3208,"Ama":3209,"FF":3210,"bun":3211,"ep":3212,"fri":3213,"led":3214,"1843":3215,"mann":3216,"Best":3217,"phy":3218,"System":3219,"ptr":3220,"430":3221,"Mas":3222,"MBC":3223,"Plan":3224,"zz":3225,"177":3226,"401":3227,"chem":3228,"410":3229,"Bel":3230,"Sal":3231,"ãĤ·":3232,"NFL":3233,"ViuTV":3234,"Switch":3235,"Wo":3236,"king":3237,"163":3238,"AMD":3239,"API":3240,"West":3241,"Japan":3242,"ICO":3243,"bar":3244,"bus":3245,"up":3246,"ments":3247,"1852":3248,"162":3249,"thon":3250,"esti":3251,"Christ":3252,"cript":3253,"VII":3254,"1820":3255,"orn":3256,"get":3257,"this":3258,"ãģı":3259,"Max":3260,"Fre":3261,"Prin":3262,"cil":3263,"142":3264,"234":3265,"ria":3266,"Roy":3267,"VR":3268,"172":3269,"ãģĬ":3270,"ãģķ":3271,"Records":3272,"640":3273,"Dan":3274,"Squ":3275,"Vir":3276,"wood":3277,"169":3278,"3500":3279,"Limited":3280,"Core":3281,"KC":3282,"T1":3283,"gs":3284,"phi":3285,"Â±":3286,"1839":3287,"ars":3288,"232":3289,"data":3290,"480":3291,"CM":3292,"cÄ«":3293,"179":3294,"thi":3295,"cade":3296,"ful":3297,"2030":3298,"eni":3299,"149":3300,"max":3301,"365":3302,"Institu":3303,"How":3304,"var":3305,"1821":3306,"ãĥŃ":3307,"ãģ¿":3308,"Cha":3309,"aya":3310,"Unicode":3311,"ROM":3312,"CCTV":3313,"390":3314,"BU":3315,"Res":3316,"Vol":3317,"XP":3318,"ness":3319,"tv":3320,"306":3321,"alo":3322,"222":3323,"601":3324,"unch":3325,"Fan":3326,"tube":3327,"173":3328,"itch":3329,"Bob":3330,"EA":3331,"PF":3332,"247":3333,"ital":3334,"Camp":3335,"KK":3336,"lian":3337,"ping":3338,"1790":3339,"ders":3340,"211":3341,"560":3342,"Fun":3343,"OH":3344,"SN":3345,"kh":3346,"wid":3347,"ord":3348,"ãĥ¬":3349,"ciation":3350,"BF":3351,"Es":3352,"Top":3353,"VM":3354,"tran":3355,"Force":3356,"Hot":3357,"MU":3358,"PD":3359,"PH":3360,"Sir":3361,"shuÇİ":3362,"183":3363,"1795":3364,"303":3365,"rew":3366,"âĹĭ":3367,"use":3368,"lum":3369,"233":3370,"search":3371,"ãģ¡":3372,"1801":3373,"213":3374,"Tok":3375,"wÃ¨ng":3376,"ãĥŀ":3377,"USB":3378,"dra":3379,"sub":3380,"174":3381,"run":3382,"Mag":3383,"MVP":3384,"CK":3385,"lli":3386,"zon":3387,"Ïģ":3388,"áĢ":3389,"ìĿ":3390,"186":3391,"1838":3392,"ors":3393,"Store":3394,"key":3395,"Heart":3396,"Direct":3397,"520":3398,"Bank":3399,"DDR":3400,"Glo":3401,"Zi":3402,"zy":3403,"mily":3404,"cker":3405,"Jean":3406,"610":3407,"Fle":3408,"iPad":3409,"rÇĴng":3410,"bile":3411,"161":3412,"501":3413,"ãĥī":3414,"Home":3415,"http":3416,"224":3417,"CF":3418,"Pen":3419,"ele":3420,"mg":3421,"sur":3422,"tia":3423,"1813":3424,"ãĤī":3425,"Phil":3426,"GE":3427,"Lon":3428,"kin":3429,"tz":3430,"ÏĦ":3431,"ense":3432,"182":3433,"1832":3434,"1842":3435,"lation":3436,"255":3437,"its":3438,"Society":3439,"AE":3440,"Gold":3441,"Han":3442,"Sco":3443,"fter":3444,"iPhone":3445,"184":3446,"ãĤ«":3447,"los":3448,"Mini":3449,"Data":3450,"720":3451,"KI":3452,"Script":3453,"dd":3454,"ise":3455,"âĺ":3456,"1836":3457,"late":3458,"1793":3459,"ãĤª":3460,"Comic":3461,"ving":3462,"Muse":3463,"KiHa":3464,"buntu":3465,"221":3466,"Cri":3467,"Dr":3468,"HBO":3469,"MT":3470,"Mel":3471,"Tun":3472,"gre":3473,"hÇĴu":3474,"tian":3475,"1833":3476,"nity":3477,"1789":3478,"tics":3479,"River":3480,"ount":3481,"https":3482,"Association":3483,"Galaxy":3484,"Bay":3485,"DAM":3486,"M4":3487,"QQ":3488,"cl":3489,"fin":3490,"nga":3491,"ties":3492,"1835":3493,"151":3494,"tho":3495,"ãĤ¿":3496,"ady":3497,"219":3498,"217":3499,"338":3500,"Cry":3501,"FT":3502,"JYP":3503,"Rap":3504,"SR":3505,"Ubuntu":3506,"WA":3507,"fy":3508,"lon":3509,"ðĲ":3510,"shang":3511,"âĢ°":3512,"tha":3513,"Martin":3514,"1804":3515,"ONE":3516,"CEO":3517,"width":3518,"470":3519,"740":3520,"830":3521,"nt":3522,"light":3523,"form":3524,"Tom":3525,"Henry":3526,"League":3527,"YG":3528,"dro":3529,"well":3530,"ÏĤ":3531,"Ð´":3532,"âī":3533,"Champi":3534,"Master":3535,"Gener":3536,"Ear":3537,"Fra":3538,"LINE":3539,"Phi":3540,"Vil":3541,"gÃł":3542,"uni":3543,"Î½":3544,"chel":3545,"mus":3546,"amer":3547,"top":3548,"ART":3549,"Green":3550,"ville":3551,"212":3552,"DK":3553,"cti":3554,"has":3555,"nm":3556,"Ñĥ":3557,"less":3558,"1828":3559,"ãĤ³":3560,"oper":3561,"APAN":3562,"rown":3563,"Dy":3564,"Dou":3565,"FR":3566,"Mana":3567,"Night":3568,"Pin":3569,"ag":3570,"har":3571,"oni":3572,"191":3573,"dit":3574,"302":3575,"table":3576,"Billboard":3577,"Office":3578,"680":3579,"Br":3580,"Bal":3581,"Jan":3582,"MHz":3583,"PI":3584,"SNH":3585,"ban":3586,"bro":3587,"kar":3588,"Î¹":3589,"181":3590,"1624":3591,"sts":3592,"237":3593,"side":3594,"main":3595,"ãĤĭ":3596,"China":3597,"Code":3598,"Young":3599,"cond":3600,"Note":3601,"Joseph":3602,"SNH48":3603,"Bir":3604,"Des":3605,"FDA":3606,"JAPAN":3607,"Ob":3608,"PK":3609,"à¹":3610,"á¹":3611,"1644":3612,"308":3613,"ston":3614,"Stra":3615,"COM":3616,"tical":3617,"Pala":3618,"440":3619,"DB":3620,"GR":3621,"Van":3622,"hun":3623,"tuÃŃ":3624,"10000":3625,"1837":3626,"239":3627,"than":3628,"rick":3629,"1806":3630,"Long":3631,"Song":3632,"United":3633,"Part":3634,"macOS":3635,"CV":3636,"East":3637,"MW":3638,"U21":3639,"Ã¢":3640,"Ã®":3641,"Î´":3642,"à¥":3643,"âĳ":3644,"1819":3645,"299":3646,"346":3647,"HTML":3648,"annel":3649,"780":3650,"Hill":3651,"Tw":3652,"Ten":3653,"Talk":3654,"jo":3655,"port":3656,"1825":3657,"245":3658,"236":3659,"505":3660,"279":3661,"ãģ«":3662,"Radio":3663,"Digital":3664,"540":3665,"Down":3666,"EV":3667,"H5":3668,"Ji":3669,"rpm":3670,"wn":3671,"lic":3672,"chÃ²ng":3673,"sian":3674,"ella":3675,"News":3676,"325":3677,"Cat":3678,"Pas":3679,"001":3680,"1776":3681,"right":3682,"ãģĺ":3683,"long":3684,"but":3685,"dent":3686,"NCAA":3687,"Server":3688,"FAT":3689,"Sil":3690,"1818":3691,"265":3692,"ãģĵ":3693,"ned":3694,"Que":3695,"Hello":3696,"Ban":3697,"Bru":3698,"Dri":3699,"Nu":3700,"Ven":3701,"Wat":3702,"1824":3703,"1831":3704,"2027":3705,"Cho":3706,"Hist":3707,"Kong":3708,"Em":3709,"GS":3710,"RPG":3711,"pr":3712,"Ã§":3713,"Ã´":3714,"tum":3715,"med":3716,"386":3717,"Child":3718,"Service":3719,"âħ¡":3720,"UM":3721,"bet":3722,"hur":3723,"sual":3724,"rome":3725,"via":3726,"BSD":3727,"Frank":3728,"Island":3729,"Python":3730,"public":3731,"Science":3732,"1A":3733,"Blue":3734,"CW":3735,"Fore":3736,"XML":3737,"clo":3738,"Î»":3739,"275":3740,"2700":3741,"anda":3742,"Youtube":3743,"Jump":3744,"Edward":3745,"Under":3746,"White":3747,"312":3748,"5G":3749,"730":3750,"Bor":3751,"First":3752,"Grand":3753,"HL":3754,"OM":3755,"Poly":3756,"TBS":3757,"hÄģo":3758,"nes":3759,"rey":3760,"264":3761,"295":3762,"1802":3763,"BLUE":3764,"Institute":3765,"Champion":3766,"630":3767,"Hor":3768,"Out":3769,"Sum":3770,"TM":3771,"ben":3772,"fun":3773,"sus":3774,"1822":3775,"niÄĵ":3776,"288":3777,"ration":3778,"ãĤ¸":3779,"aka":3780,"Envi":3781,"Cas":3782,"Lan":3783,"Les":3784,"Os":3785,"other":3786,"plo":3787,"pop":3788,"ÙĦ":3789,"list":3790,"lang":3791,"ared":3792,"244":3793,"ãĥķ":3794,"vate":3795,"ITF":3796,"2D":3797,"Gro":3798,"JT":3799,"Sof":3800,"cent":3801,"em":3802,"xel":3803,"launch":3804,"249":3805,"903":3806,"North":3807,"Square":3808,"OT":3809,"PID":3810,"Series":3811,"ul":3812,"zation":3813,"Å¡":3814,"243":3815,"2800":3816,"Your":3817,"Hong":3818,"This":3819,"Cup":3820,"FX":3821,"Lang":3822,"NP":3823,"__":3824,"hr":3825,"1810":3826,"1622":3827,"1792":3828,"307":3829,"return":3830,"tas":3831,"701":3832,"SARS":3833,"POP":3834,"Techn":3835,"960":3836,"Cur":3837,"Ham":3838,"Ray":3839,"Sig":3840,"SHO":3841,"VV":3842,"ob":3843,"pÇİi":3844,"vy":3845,"Îµ":3846,"1650":3847,"801":3848,"view":3849,"Network":3850,"MIUI":3851,"burg":3852,"Tunes":3853,"2100":3854,"Pal":3855,"Ur":3856,"part":3857,"Ð¼":3858,"1826":3859,"anti":3860,"1573":3861,"oud":3862,"ason":3863,"cing":3864,"have":3865,"747":3866,"Cle":3867,"Jour":3868,"imp":3869,"tual":3870,"1834":3871,"304":3872,"ould":3873,"226":3874,"278":3875,"lta":3876,"ãĥŁ":3877,"ãĤĤ":3878,"375":3879,"add":3880,"1805":3881,"ACT":3882,"APP":3883,"AIR":3884,"ologi":3885,"Block":3886,"HA":3887,"Ly":3888,"Yo":3889,"hel":3890,"ii":3891,"rd":3892,"chen":3893,"007":3894,"oro":3895,"296":3896,"298":3897,"sig":3898,"385":3899,"ATA":3900,"Model":3901,"gain":3902,"Dani":3903,"Studi":3904,"335":3905,"590":3906,"9000":3907,"CU":3908,"Now":3909,"Ry":3910,"Ram":3911,"WN":3912,"ml":3913,"non":3914,"oc":3915,"Ïī":3916,"âĭ":3917,"ork":3918,"1780":3919,"ress":3920,"227":3921,"ãĥł":3922,"olf":3923,"map":3924,"May":3925,"Real":3926,"Sports":3927,"dings":3928,"IFA":3929,"315":3930,"Gil":3931,"Jon":3932,"Op":3933,"Sc":3934,"had":3935,"iTunes":3936,"ken":3937,"Â»":3938,"251":3939,"ough":3940,"277":3941,"ato":3942,"oney":3943,"CNN":3944,"2A":3945,"Dar":3946,"Gran":3947,"Over":3948,"Ren":3949,"Rus":3950,"RFC":3951,"pH":3952,"zine":3953,"1582":3954,"1799":3955,"259":3956,"246":3957,"248":3958,"1809":3959,"Internet":3960,"South":3961,"Engine":3962,"4G":3963,"530":3964,"C2":3965,"DLC":3966,"Sm":3967,"gÃ¨n":3968,"sÇİng":3969,"sin":3970,"Â«":3971,"lio":3972,"1823":3973,"ander":3974,"1621":3975,"272":3976,"rum":3977,"405":3978,"ATION":3979,"tware":3980,"1803":3981,"dae":3982,"State":3983,"stems":3984,"EEE":3985,"press":3986,"334":3987,"620":3988,"770":3989,"Class":3990,"SG":3991,"dition":3992,"lution":3993,"1625":3994,"ges":3995,"284":3996,"285":3997,"ãĤµ":3998,"Auto":3999,"Publi":4000,"311":4001,"880":4002,"Dot":4003,"Kh":4004,"Sony":4005,"VI":4006,"Ãī":4007,"á»":4008,"258":4009,"276":4010,"cur":4011,"ãģĮ":4012,"Alf":4013,"Mobile":4014,"Bus":4015,"KO":4016,"Oper":4017,"Sw":4018,"Way":4019,"XT":4020,"pres":4021,"à¦":4022,"253":4023,"aly":4024,"357":4025,"num":4026,"Maria":4027,"Moon":4028,"Wii":4029,"Pier":4030,"660":4031,"Cli":4032,"Get":4033,"NM":4034,"SV":4035,"UL":4036,"sm":4037,"Ð¹":4038,"dian":4039,"ãĥĹ":4040,"cks":4041,"STA":4042,"IPv":4043,"Unix":4044,"What":4045,"Europe":4046,"570":4047,"Cer":4048,"U19":4049,"WF":4050,"ee":4051,"mor":4052,"Ð³":4053,"tuÄģn":4054,"1827":4055,"1570":4056,"ãģĤ":4057,"gazine":4058,"Beau":4059,"Link":4060,"velop":4061,"Book":4062,"Trans":4063,"314":4064,"3DS":4065,"690":4066,"Bre":4067,"BBS":4068,"C6":4069,"DSM":4070,"IEEE":4071,"Men":4072,"SB":4073,"Sound":4074,"WWE":4075,"more":4076,"1817":4077,"1640":4078,"1636":4079,"268":4080,"402":4081,"404":4082,"ãģ¯":4083,"Regi":4084,"Rain":4085,"which":4086,"AX":4087,"Gri":4088,"blo":4089,"ini":4090,"nor":4091,"nger":4092,"laris":4093,"1775":4094,"254":4095,"ters":4096,"465":4097,"Medi":4098,"Die":4099,"Tik":4100,"Francis":4101,"Commu":4102,"323":4103,"Ath":4104,"Cir":4105,"HP":4106,"OP":4107,"kÄģo":4108,"1750":4109,"309":4110,"oom":4111,"ople":4112,"Joy":4113,"fic":4114,"329":4115,"670":4116,"Dol":4117,"End":4118,"Plus":4119,"bon":4120,"pur":4121,"shing":4122,"guÄģi":4123,"1816":4124,"pin":4125,"lai":4126,"fore":4127,"ãĥģ":4128,"ãĤ£":4129,"4500":4130,"Channel":4131,"cast":4132,"ings":4133,"CON":4134,"peri":4135,"TOP":4136,"Cube":4137,"Louis":4138,".-":4139,"710":4140,"910":4141,"950":4142,"DI":4143,"Imp":4144,"Lit":4145,"MK":4146,"Tro":4147,"ome":4148,"dea":4149,"pital":4150,"lam":4151,"arr":4152,"241":4153,"2300":4154,"Research":4155,"ISBN":4156,"field":4157,"Poli":4158,"Film":4159,"tvN":4160,"326":4161,"Asia":4162,"Bou":4163,"Cam":4164,"Clo":4165,"PT":4166,"T2":4167,"ice":4168,"rch":4169,"try":4170,"à½":4171,"1592":4172,"347":4173,"758":4174,"Stand":4175,"model":4176,"Ara":4177,"Bon":4178,"DT":4179,"Lis":4180,"1628":4181,"1788":4182,"252":4183,"242":4184,"269":4185,"ãĥĭ":4186,"andy":4187,"Leon":4188,"Victor":4189,"Law":4190,"ffer":4191,"fea":4192,"tural":4193,"318":4194,"336":4195,"978":4196,"Ado":4197,"CB":4198,"DL":4199,"Den":4200,"Festi":4201,"Jen":4202,"Mal":4203,"MUS":4204,"N2":4205,"O3":4206,"Tan":4207,"Tre":4208,"áĥ":4209,"char":4210,"biÄĵ":4211,"1627":4212,"1783":4213,"1791":4214,"alth":4215,"289":4216,"ros":4217,"406":4218,"ced":4219,"354":4220,"INN":4221,"Comm":4222,"Stan":4223,"app":4224,"Vista":4225,"gic":4226,"Pixel":4227,"Disney":4228,"âĸ¡":4229,"Acade":4230,"Cour":4231,"EL":4232,"F4":4233,"IB":4234,"LAN":4235,"LTE":4236,"OF":4237,"ich":4238,"pÄģ":4239,"tre":4240,"1797":4241,"ï¼»":4242,"ï¼½":4243,"Mach":4244,"556":4245,"Beat":4246,"aker":4247,"Software":4248,"Ange":4249,"DMS":4250,"TH":4251,"his":4252,"nÇİn":4253,"1779":4254,"1796":4255,"test":4256,"607":4257,"ãģ¤":4258,"ãģł":4259,"352":4260,"Mary":4261,"1808":4262,"ERT":4263,"km2":4264,"Nico":4265,"NCT":4266,"Alice":4267,"âĭ¯":4268,"321":4269,"337":4270,"A4":4271,"Ami":4272,"Sor":4273,"T3":4274,"cs":4275,"gis":4276,"ung":4277,"huÃłng":4278,"tude":4279,"1829":4280,"1778":4281,"1794":4282,"283":4283,"273":4284,"ãĥ£":4285,"ãĥĲ":4286,"ãĤ¨":4287,"cky":4288,"Visual":4289,"inese":4290,"YouTuber":4291,"ASC":4292,"Works":4293,"Elect":4294,"Battle":4295,"313":4296,"510":4297,"840":4298,"860":4299,"Foot":4300,"Mnet":4301,"Pho":4302,"llo":4303,"pat":4304,"vet":4305,"vance":4306,"Ã±":4307,"Î¸":4308,"shuÇİi":4309,"nica":4310,"night":4311,"1798":4312,"formation":4313,"ãģ¦":4314,"456":4315,"372":4316,"Johan":4317,"ECT":4318,"system":4319,"Special":4320,"Awards":4321,"448":4322,"870":4323,"Blu":4324,"MF":4325,"Pay":4326,"io":4327,"ror":4328,"sca":4329,"1580":4330,"1612":4331,"1634":4332,"1787":4333,"281":4334,"267":4335,"ãĥĩ":4336,"mad":4337,"ãģ£":4338,"ãĤ¦":4339,"nus":4340,"lost":4341,"mmy":4342,"web":4343,"Premi":4344,"Royal":4345,"Global":4346,"911":4347,"DG":4348,"Fro":4349,"Mis":4350,"Oli":4351,"Set":4352,"TN":4353,"WO":4354,"dor":4355,"ev":4356,"fla":4357,"âĩ":4358,"shÇİi":4359,"hus":4360,"mina":4361,"1567":4362,"1648":4363,"alle":4364,"271":4365,"tech":4366,"ltra":4367,"Arts":4368,"ffe":4369,"BOX":4370,"Enviro":4371,"AH":4372,"E3":4373,"Lam":4374,"MM":4375,"Mur":4376,"York":4377,"sor":4378,"chuÅį":4379,"262":4380,"tai":4381,"367":4382,"vest":4383,"pedia":4384,"OSHI":4385,"Prof":4386,"const":4387,"ACE":4388,"ENT":4389,"AGA":4390,"Great":4391,"TikTok":4392,"-&":4393,"322":4394,"Ah":4395,"MON":4396,"Not":4397,"OTT":4398,"Spo":4399,"VB":4400,"bian":4401,"1550":4402,"1568":4403,"ont":4404,"1615":4405,"1630":4406,"286":4407,"ãĥĸ":4408,"Magazine":4409,"vern":4410,"CH3":4411,"Compu":4412,"Museum":4413,"Daniel":4414,"Festival":4415,"Brown":4416,"Cru":4417,"CAS":4418,"Dark":4419,"FBI":4420,"LG":4421,"Sau":4422,"SIG":4423,"USA":4424,"stu":4425,"piÄĵ":4426,"1645":4427,"1646":4428,"read":4429,"zhÃ¡o":4430,"ãĤŃ":4431,"333":4432,"COLL":4433,"ARD":4434,"Secre":4435,"stein":4436,"Encore":4437,"tures":4438,"world":4439,"Online":4440,"Cloud":4441,"MUSIC":4442,"Hun":4443,"Lar":4444,"Let":4445,"cas":4446,"over":4447,"tan":4448,"Ø±":4449,"1626":4450,"stal":4451,"261":4452,"297":4453,"355":4454,"Chinese":4455,"stea":4456,"Kim":4457,"328":4458,"820":4459,"Gor":4460,"Has":4461,"PRO":4462,"S2":4463,"Tou":4464,"gal":4465,"oli":4466,"sÇĴu":4467,"sco":4468,"ques":4469,"1637":4470,"2400":4471,"705":4472,"901":4473,"364":4474,"384":4475,"378":4476,"vey":4477,"442":4478,"hai":4479,"cono":4480,"Point":4481,"VIDIA":4482,"General":4483,"618":4484,"AU":4485,"CBC":4486,"HB":4487,"NVIDIA":4488,"T48":4489,"ale":4490,"tr":4491,"Ð¡":4492,"Ñĭ":4493,"1610":4494,"1642":4495,"257":4496,"282":4497,"thing":4498,"2600":4499,"Mad":4500,"Stadium":4501,"1609":4502,"ality":4503,"stern":4504,"Exp":4505,"God":4506,"Redmi":4507,"Year":4508,"Adobe":4509,"760":4510,"767":4511,"CAN":4512,"Gol":4513,"Il":4514,"O4":4515,"Ome":4516,"U17":4517,"VC":4518,"bas":4519,"bps":4520,"jor":4521,"sk":4522,"sche":4523,"ÑĮ":4524,"deon":4525,"nior":4526,"1585":4527,"1583":4528,"hÃ¨ng":4529,"ãĤĦ":4530,"583":4531,"ctory":4532,"1807":4533,"ARM":4534,"TeX":4535,"wiki":4536,"thern":4537,"Systems":4538,"poration":4539,"930":4540,"Del":4541,"FIFA":4542,"JU":4543,"KE":4544,"OD":4545,"Town":4546,"Thun":4547,"Who":4548,"cto":4549,"dou":4550,"1623":4551,"gel":4552,"274":4553,"size":4554,"Anto":4555,"Wiki":4556,"ï¹ĳ":4557,"H2O":4558,"trol":4559,"Taiwan":4560,"EOS":4561,"FIN":4562,"Ima":4563,"IEC":4564,"Kin":4565,"Kid":4566,"Tar":4567,"Won":4568,"ah":4569,"cat":4570,"esta":4571,"ket":4572,"tina":4573,"1571":4574,"1784":4575,"263":4576,"509":4577,"293":4578,"351":4579,"osaurus":4580,"999":4581,"Deep":4582,"mod":4583,"value":4584,"Archi":4585,"Cast":4586,"2200":4587,"428":4588,"AJ":4589,"GUN":4590,"Tay":4591,"xx":4592,"1620":4593,"1723":4594,"1786":4595,"inte":4596,"stre":4597,"504":4598,"lton":4599,"ãĥ¥":4600,"353":4601,"395":4602,"beth":4603,"Solaris":4604,"Post":4605,"private":4606,"Metro":4607,"clol":4608,"Manage":4609,"DotA":4610,"419":4611,"432":4612,"A3":4613,"FN":4614,"Fly":4615,"GL":4616,"Hap":4617,"Ron":4618,"bb":4619,"cci":4620,"card":4621,"ctive":4622,"pra":4623,"ìķ":4624,"1450":4625,"curi":4626,"ãģĻ":4627,"Chan":4628,"vers":4629,"Mike":4630,"ource":4631,"Key":4632,"LOVE":4633,"Market":4634,"Studios":4635,"Little":4636,"427":4637,"Band":4638,"Cine":4639,"FE":4640,"HIV":4641,"K6":4642,"Line":4643,"Rou":4644,"VPN":4645,"zÃ¨":4646,"Äį":4647,"like":4648,"zilla":4649,"1577":4650,"1618":4651,"1643":4652,"rop":4653,"sey":4654,"387":4655,"399":4656,"cts":4657,"ellow":4658,"ountain":4659,"Fleet":4660,"Technology":4661,"317":4662,"331":4663,"345":4664,"512":4665,"565":4666,"H1":4667,"MY":4668,"R2":4669,"S1":4670,"U18":4671,"USS":4672,"Ultra":4673,"bes":4674,"gg":4675,"lÅ«":4676,"Ñı":4677,"1586":4678,"lau":4679,"1777":4680,"1453":4681,"into":4682,"sty":4683,"stan":4684,"sit":4685,"806":4686,"base":4687,"CDMA":4688,"Stage":4689,"Radeon":4690,"aki":4691,"Union":4692,"ALL":4693,"Valve":4694,"Children":4695,"Secret":4696,"327":4697,"411":4698,"490":4699,"445":4700,"446":4701,"535":4702,"Alt":4703,"Aven":4704,"FI":4705,"Found":4706,"Land":4707,"Mid":4708,"M87":4709,"U23":4710,"Will":4711,"WOR":4712,"ola":4713,"rstea":4714,"yer":4715,"Ãª":4716,"cht":4717,"endo":4718,"1521":4719,"1765":4720,"1774":4721,"sible":4722,"cel":4723,"second":4724,"398":4725,"499":4726,"ook":4727,"Para":4728,"With":4729,"Junior":4730,"Adam":4731,"BMW":4732,"mond":4733,"Fried":4734,"Centre":4735,"where":4736,"Philip":4737,"Academy":4738,"416":4739,"Crea":4740,"EMI":4741,"HTC":4742,"KB":4743,"Sche":4744,"Soft":4745,"TW":4746,"bat":4747,"rent":4748,"mia":4749,"1616":4750,"cul":4751,"707":4752,"ily":4753,"teri":4754,"369":4755,"397":4756,"Mau":4757,"verse":4758,"Joe":4759,"States":4760,"Multi":4761,"Wire":4762,"Niko":4763,"GPU":4764,"bility":4765,"Omega":4766,"613":4767,"Ari":4768,"Cou":4769,"NR":4770,"Port":4771,"WI":4772,"ZA":4773,"hau":4774,"house":4775,"pes":4776,"Î·":4777,"ÎĶ":4778,"ÐĲ":4779,"live":4780,"1564":4781,"1785":4782,"368":4783,"lot":4784,"TVBS":4785,"Mem":4786,"Next":4787,"Hea":4788,"some":4789,"Fire":4790,"MySQL":4791,"void":4792,"Origin":4793,"Amazon":4794,"3C":4795,"810":4796,"BT":4797,"Hon":4798,"Jr":4799,"Run":4800,"Sti":4801,"hl":4802,"m3":4803,"ÐĶ":4804,"1662":4805,"266":4806,"291":4807,"sist":4808,"elle":4809,"head":4810,"588":4811,"osa":4812,"Distri":4813,"Sub":4814,"rough":4815,"Base":4816,"MOD":4817,"volution":4818,"chie":4819,"Corporation":4820,"M1A1":4821,"ference":4822,"mission":4823,"velopment":4824,"GUNDAM":4825,"316":4826,"537":4827,"621":4828,"742":4829,"CI":4830,"E48":4831,"Eric":4832,"Fo":4833,"Fal":4834,"Sin":4835,"TI":4836,"Wel":4837,"Ã«":4838,"ÙĨ":4839,"anna":4840,"1540":4841,"1574":4842,"1772":4843,"std":4844,"287":4845,"tee":4846,"605":4847,"454":4848,"388":4849,"343":4850,"open":4851,"888":4852,"Sund":4853,"point":4854,"Draw":4855,"Church":4856,"Alexander":4857,"Cross":4858,"Management":4859,"425":4860,"475":4861,"Lady":4862,"ND":4863,"Other":4864,"SW":4865,"Sar":4866,"cted":4867,"kÃ¡ng":4868,"kan":4869,"vat":4870,"were":4871,"jia":4872,"1250":4873,"nico":4874,"1619":4875,"1629":4876,"1683":4877,"292":4878,"363":4879,"376":4880,"STS":4881,"552":4882,"686":4883,"ign":4884,"Demo":4885,"Arc":4886,"Augu":4887,"Cyclol":4888,"London":4889,"Scott":4890,"627":4891,"Bad":4892,"BRT":4893,"Der":4894,"Dun":4895,"FL":4896,"Ir":4897,"Kir":4898,"MX":4899,"Ora":4900,"Sto":4901,"Sara":4902,"Tony":4903,"hard":4904,"tru":4905,"Ð±":4906,"tish":4907,"ally":4908,"ï¼Ĥ":4909,"matic":4910,"488":4911,"ida":4912,"Design":4913,"phen":4914,"Spot":4915,"Spring":4916,"Andrew":4917,"ðĲŃ":4918,"449":4919,"5A":4920,"625":4921,"738":4922,"Fron":4923,"HER":4924,"Of":4925,"PB":4926,"Round":4927,"VER":4928,"ire":4929,"und":4930,"Ðļ":4931,"shared":4932,"1590":4933,"1579":4934,"1633":4935,"ãĥĬ":4936,"ãĤ°":4937,"1507":4938,"Beta":4939,"Lake":4940,"Simon":4941,"CH2":4942,"Cul":4943,"Syn":4944,"Animax":4945,"Earth":4946,"412":4947,"Fort":4948,"LF":4949,"LM":4950,"Sol":4951,"Sca":4952,"SON":4953,"V8":4954,"coun":4955,"hÄģng":4956,"tto":4957,"Ð¿":4958,"íķ":4959,"mir":4960,"mix":4961,"1631":4962,"1680":4963,"1773":4964,"294":4965,"407":4966,"mate":4967,"ãĤĮ":4968,"body":4969,"396":4970,"3300":4971,"mple":4972,"Sea":4973,"1604":4974,"Ander":4975,"Party":4976,"Hami":4977,"Family":4978,"PGA":4979,"Angel":4980,"Drive":4981,"Journal":4982,"980":4983,"Ap":4984,"Are":4985,"C4":4986,"Fold":4987,"GC":4988,"LR":4989,"Pol":4990,"cen":4991,"nan":4992,"Äĩ":4993,"ÉĻ":4994,"nical":4995,"1575":4996,"1697":4997,"1755":4998,"1492":4999,"sive":5000,"cum":5001,"805":5002,"3600":5003,"asa":5004,"467":5005,"471":5006,"Def":5007,"Neo":5008,"mics":5009,"ï¹Ĳ":5010,"SKE48":5011,"Dyna":5012,"Summer":5013,"Thunder":5014,"0x":5015,"319":5016,"Epic":5017,"Hal":5018,"J2":5019,"Kel":5020,"Nar":5021,"Swe":5022,"XC":5023,"fb":5024,"hoo":5025,"pan":5026,"zen":5027,"chy":5028,"lion":5029,"orig":5030,"1561":5031,"1589":5032,"1595":5033,"1781":5034,"1465":5035,"alan":5036,"508":5037,"ãĥĨ":5038,"ãģ²":5039,"344":5040,"589":5041,"oph":5042,"1603":5043,"1606":5044,"1607":5045,"CNBLUE":5046,"Ruby":5047,"Council":5048,"Christian":5049,"print":5050,"415":5051,"855":5052,"940":5053,"970":5054,"Cre":5055,"Clar":5056,"Kat":5057,"Med":5058,"Miss":5059,"kes":5060,"pos":5061,"uage":5062,"x86":5063,"Ã¸":5064,"Ãħ":5065,"ÃŁ":5066,"à®":5067,"lina":5068,"nio":5069,"1522":5070,"1526":5071,"1556":5072,"1613":5073,"1660":5074,"502":5075,"506":5076,"ãĥĢ":5077,"tera":5078,"377":5079,"tos":5080,"478":5081,"554":5082,"ample":5083,"Mari":5084,"Alli":5085,"sport":5086,"mercial":5087,"TOUR":5088,"Williams":5089,"cations":5090,"Hyper":5091,"ìĿ´":5092,"âĺĨ":5093,"Angela":5094,"Football":5095,"417":5096,"525":5097,"920":5098,"925":5099,"After":5100,"Hit":5101,"LU":5102,"UK":5103,"URI":5104,"ite":5105,"lle":5106,"ud":5107,"Ùħ":5108,"sure":5109,"1525":5110,"1591":5111,"1667":5112,"indu":5113,"chÃ¨ng":5114,"ronic":5115,"408":5116,"485":5117,"643":5118,"ado":5119,"baby":5120,"ophi":5121,"AMO":5122,"Back":5123,"Fiesta":5124,"Steve":5125,"Qua":5126,"Rue":5127,"put":5128,"Advance":5129,"DOHC":5130,"America":5131,"324":5132,"422":5133,"515":5134,"538":5135,"534":5136,"Kit":5137,"Pap":5138,"QS":5139,"S4":5140,"VT":5141,"Vel":5142,"Water":5143,"hen":5144,"mRNA":5145,"who":5146,"zzo":5147,"âĤ":5148,"lish":5149,"tine":5150,"1510":5151,"1638":5152,"1730":5153,"media":5154,"ãĥĳ":5155,"ette":5156,"342":5157,"393":5158,"479":5159,"mph":5160,"Story":5161,"1508":5162,"Vita":5163,"Mozilla":5164,"Last":5165,"HKT48":5166,"lassic":5167,"Bern":5168,"Walter":5169,"Soul":5170,"Surface":5171,"Foundation":5172,"3200":5173,"531":5174,"546":5175,"EG":5176,"GHz":5177,"ITV":5178,"Jer":5179,"Jane":5180,"Mes":5181,"MBA":5182,"NI":5183,"Sen":5184,"Son":5185,"TG":5186,"VS":5187,"bles":5188,"iPS":5189,"kW":5190,"pal":5191,"2028":5192,"1543":5193,"1457":5194,"come":5195,"366":5196,"381":5197,"392":5198,"Indu":5199,"Arti":5200,"Buil":5201,"History":5202,"1st":5203,"413":5204,"426":5205,"Ai":5206,"Edu":5207,"F3":5208,"GPS":5209,"LZ":5210,"Light":5211,"Mos":5212,"U20":5213,"Wnt":5214,"cla":5215,"down":5216,"mol":5217,"yl":5218,"zÇİn":5219,"zar":5220,"ÙĬ":5221,"1565":5222,"1559":5223,"1587":5224,"1597":5225,"âĢł":5226,"1635":5227,"1688":5228,"1733":5229,"1782":5230,"also":5231,"stry":5232,"tex":5233,"606":5234,"ollow":5235,"ãģĳ":5236,"373":5237,"Albert":5238,"Times":5239,"lent":5240,"Johnson":5241,"Final":5242,"524":5243,"612":5244,"890":5245,"Ash":5246,"By":5247,"FS":5248,"Jim":5249,"Tol":5250,"UD":5251,"bs":5252,"est":5253,"ov":5254,"score":5255,"Â£":5256,"ÐŁ":5257,"Ñĩ":5258,"1588":5259,"1598":5260,"507":5261,"cell":5262,"amo":5263,"thew":5264,"641":5265,"495":5266,"682":5267,"Rep":5268,"666":5269,"Rod":5270,"Rose":5271,"Vio":5272,"Pod":5273,"Austra":5274,"Mont":5275,"Brian":5276,"CLA":5277,"Place":5278,"Telegram":5279,"trans":5280,"Pierre":5281,"332":5282,"4A":5283,"4K":5284,"435":5285,"575":5286,"790":5287,"Ale":5288,"Bet":5289,"Fl":5290,"Mus":5291,"TMA":5292,"ate":5293,"plan":5294,"sky":5295,"tiÃ¨":5296,"tial":5297,"ents":5298,"1523":5299,"1535":5300,"1649":5301,"1661":5302,"1770":5303,"1499":5304,"then":5305,"ãĤ¬":5306,"ãĤı":5307,"361":5308,"number":5309,"466":5310,"391":5311,"....":5312,"551":5313,"vices":5314,"Moder":5315,"1601":5316,"Sho":5317,"gio":5318,"PCI":5319,"Tim":5320,"Hotel":5321,"TOK":5322,"AcFun":5323,"Flash":5324,"place":5325,"craft":5326,"Wonder":5327,"528":5328,"5500":5329,"990":5330,"Bang":5331,"Bell":5332,"Hard":5333,"HTT":5334,"Sma":5335,"Smo":5336,"Than":5337,"ey":5338,"fis":5339,"gni":5340,"shuÃłn":5341,"mine":5342,"1511":5343,"1760":5344,"1769":5345,"rit":5346,"358":5347,"cos":5348,"371":5349,"469":5350,"itz":5351,"684":5352,"587":5353,"View":5354,"ppm":5355,"But":5356,"SMAP":5357,"Geo":5358,"Edge":5359,"tribu":5360,"Explor":5361,"Golden":5362,"548":5363,"AW":5364,"Bil":5365,"Lor":5366,"Mir":5367,"MAC":5368,"Shan":5369,"air":5370,"even":5371,"para":5372,"vor":5373,"tiÇİn":5374,"20000":5375,"1080":5376,"15000":5377,"1576":5378,"1594":5379,"1689":5380,"362":5381,"383":5382,"TCP":5383,"341":5384,"NASL":5385,"Program":5386,"Bey":5387,"Some":5388,"Siri":5389,"Qui":5390,"Bridge":5391,"active":5392,"European":5393,"vernment":5394,"921":5395,"Dance":5396,"Gun":5397,"L1":5398,"MR":5399,"Mind":5400,"MMC":5401,"NEX":5402,"RB":5403,"TF":5404,"UFO":5405,"VF":5406,"Var":5407,"bow":5408,"kins":5409,"rÃ¡ng":5410,"uts":5411,"ðª":5412,"hÃ²ng":5413,"huo":5414,"chÄĽng":5415,"left":5416,"tica":5417,"mid":5418,"1811":5419,"1517":5420,"1514":5421,"1578":5422,"1552":5423,"âĢķ":5424,"1639":5425,"1684":5426,"608":5427,"master":5428,"349":5429,"Mai":5430,"644":5431,"557":5432,"vie":5433,"ird":5434,"585":5435,"597":5436,"Development":5437,"Mod":5438,"Test":5439,"Seven":5440,"Raw":5441,"Week":5442,"Firef":5443,"Just":5444,"kov":5445,"Matthew":5446,"template":5447,"Eliza":5448,"Common":5449,"scope":5450,"Taylor":5451,"curity":5452,"348":5453,"436":5454,"549":5455,"AST":5456,"Bai":5457,"Brand":5458,"DNS":5459,"Fred":5460,"Jam":5461,"Kon":5462,"Mitch":5463,"Pres":5464,"RN":5465,"Ret":5466,"bum":5467,"ea":5468,"ext":5469,"ovan":5470,"pl":5471,"tio":5472,"ering":5473,"1763":5474,"1350":5475,"iness":5476,"ï¼ĭ":5477,"sie":5478,"403":5479,"cept":5480,"cuÃ³":5481,"sell":5482,"mani":5483,"908":5484,"ession":5485,"6500":5486,"case":5487,"1505":5488,"ardo":5489,"tour":5490,"777":5491,"Marie":5492,"anger":5493,"fied":5494,"fication":5495,"Pack":5496,"worth":5497,"Santa":5498,"MG42":5499,"Christop":5500,"Villa":5501,"547":5502,"567":5503,"668":5504,"C5":5505,"FAN":5506,"Mountain":5507,"NK":5508,"Rol":5509,"T4":5510,"YOSHI":5511,"bla":5512,"sÃło":5513,"Â³":5514,"Ñĸ":5515,"1050":5516,"1614":5517,"1720":5518,"374":5519,"494":5520,"CoV":5521,"IDE":5522,"IPS":5523,"PSP":5524,"thers":5525,"Work":5526,"UNIX":5527,"People":5528,"Commit":5529,"âħł":5530,"Karl":5531,"Frame":5532,"IPv4":5533,"Explorer":5534,"514":5535,"522":5536,"545":5537,"568":5538,"619":5539,"675":5540,"Bau":5541,"CSS":5542,"D1":5543,"EBU":5544,"KT":5545,"Kw":5546,"Oh":5547,"Shu":5548,"Za":5549,"nÃ©":5550,"spi":5551,"sal":5552,"yÃ³ng":5553,"lete":5554,"1516":5555,"1513":5556,"1534":5557,"1547":5558,"1569":5559,"16V":5560,"1460":5561,"stone":5562,"cula":5563,"ãģ§":5564,"359":5565,"757":5566,"642":5567,"581":5568,"aux":5569,"1502":5570,"ctions":5571,"gani":5572,"alis":5573,"GeForce":5574,"à¸£":5575,"SOHC":5576,"Jackson":5577,"Arthur":5578,"Queen":5579,"COLLAR":5580,"Sunday":5581,"origin":5582,"418":5583,"414":5584,"424":5585,"433":5586,"544":5587,"Bos":5588,"CJ":5589,"DTS":5590,"F2":5591,"JO":5592,"Jus":5593,"MMO":5594,"PEN":5595,"Sand":5596,"Tel":5597,"XIV":5598,"bÅ«":5599,"cz":5600,"flo":5601,"hol":5602,"ith":5603,"pper":5604,"ski":5605,"zed":5606,"ÐĴ":5607,"1731":5608,"1768":5609,"1771":5610,"1490":5611,"mel":5612,"409":5613,"lter":5614,"ãĥı":5615,"604":5616,"802":5617,"ãĤ±":5618,"ãĤĩ":5619,"ãĤį":5620,"389":5621,"7500":5622,"394":5623,"476":5624,"been":5625,"493":5626,"vio":5627,"Vision":5628,"ERO":5629,"Box":5630,"Rift":5631,"AGE":5632,"Prime":5633,"FOX":5634,"while":5635,"True":5636,"JTBC":5637,"âĩĶ":5638,"Cinema":5639,"Avenue":5640,"431":5641,"539":5642,"745":5643,"ABS":5644,"Bit":5645,"Classic":5646,"EO":5647,"Gin":5648,"Gamer":5649,"Ker":5650,"Lord":5651,"Mit":5652,"Sk":5653,"Solo":5654,"V6":5655,"bn":5656,"bour":5657,"jq":5658,"zza":5659,"Ä±":5660,"shop":5661,"shed":5662,"change":5663,"biÃło":5664,"til":5665,"tice":5666,"tify":5667,"1593":5668,"1724":5669,"1752":5670,"1469":5671,"1498":5672,"1370":5673,"sili":5674,"sea":5675,"ãģĪ":5676,"ille":5677,"382":5678,"755":5679,"464":5680,"444":5681,"cid":5682,"571":5683,"1501":5684,"Never":5685,"Gaga":5686,"nova":5687,"PS3":5688,"prote":5689,"Express":5690,"British":5691,"tdown":5692,"AGASA":5693,"Kids":5694,"Friedrich":5695,"646":5696,"667":5697,"CIA":5698,"D2":5699,"Ever":5700,"Gam":5701,"IRT":5702,"Kan":5703,"M6":5704,"Pass":5705,"Tam":5706,"XF":5707,"ZJ":5708,"ami":5709,"high":5710,"pto":5711,"say":5712,"tch":5713,"dex":5714,"lius":5715,"dies":5716,"1520":5717,"1560":5718,"1553":5719,"1651":5720,"1740":5721,"1493":5722,"602":5723,"904":5724,"496":5725,"498":5726,"443":5727,"nament":5728,"Rail":5729,"MAN":5730,"Boys":5731,"Baby":5732,"Haw":5733,"produ":5734,"UNG":5735,"Fami":5736,"AGUE":5737,"LEAGUE":5738,"Guard":5739,"works":5740,"mont":5741,"Jeff":5742,"Donald":5743,"Intelli":5744,"à¥į":5745,"Communi":5746,"Athlon":5747,"Memori":5748,"Firefox":5749,"611":5750,"645":5751,"945":5752,"Again":5753,"Bas":5754,"C1":5755,"Cen":5756,"CBA":5757,"DEC":5758,"GW":5759,"Hay":5760,"Old":5761,"QU":5762,"TAM":5763,"U2":5764,"vol":5765,"Ã¥":5766,"áº":5767,"chan":5768,"dic":5769,"1596":5770,"ono":5771,"1632":5772,"1679":5773,"1718":5774,"1735":5775,"1745":5776,"1758":5777,"25G":5778,"ï¼Ŀ":5779,"tec":5780,"ram":5781,"ãĥ¡":5782,"culus":5783,"made":5784,"907":5785,"ãĤģ":5786,"ãĤĨ":5787,"584":5788,"1506":5789,"Dear":5790,"sson":5791,"two":5792,"mental":5793,"1605":5794,"Samu":5795,"gia":5796,"Anth":5797,"Side":5798,"Health":5799,"Fish":5800,"Name":5801,"REAM":5802,"Wild":5803,"Central":5804,"Doug":5805,"Standard":5806,"Violet":5807,"Christopher":5808,"YOSHIKI":5809,"050":5810,"439":5811,"533":5812,"731":5813,"732":5814,"741":5815,"762":5816,"962":5817,"Astro":5818,"Cree":5819,"Eye":5820,"Flor":5821,"H3":5822,"ICD":5823,"Kra":5824,"NU":5825,"Num":5826,"Off":5827,"RCP":5828,"TL":5829,"Thi":5830,"UCLA":5831,"Wood":5832,"ath":5833,"kit":5834,"np":5835,"phe":5836,"vari":5837,"wen":5838,"Ïħ":5839,"á¸":5840,"âĻ":5841,"bia":5842,"dina":5843,"1260":5844,"1566":5845,"law":5846,"lade":5847,"1725":5848,"1748":5849,"ãĥĦ":5850,"706":5851,"ãĤĪ":5852,"ãĤĴ":5853,"457":5854,"tery":5855,"379":5856,"aso":5857,"756":5858,"553":5859,"cio":5860,"673":5861,"574":5862,"576":5863,"mpson":5864,"List":5865,"Alan":5866,"985":5867,"973":5868,"Anna":5869,"Capital":5870,"Greg":5871,"AlphaFold":5872,"Operation":5873,"Fleetline":5874,"Angelababy":5875,"516":5876,"617":5877,"639":5878,"722":5879,"735":5880,"DU":5881,"Econo":5882,"HMS":5883,"Kha":5884,"P2":5885,"Tower":5886,"bble":5887,"ners":5888,"sÃ²u":5889,"2050":5890,"quid":5891,"1528":5892,"1572":5893,"onal":5894,"1652":5895,"1727":5896,"1761":5897,"1368":5898,"ãĥ¯":5899,"ãĥİ":5900,"356":5901,"704":5902,"482":5903,"655":5904,"brary":5905,"ault":5906,"ARE":5907,"gate":5908,"Gaon":5909,"ends":5910,"BLE":5911,"link":5912,"Color":5913,"telli":5914,"Harry":5915,"English":5916,"Garden":5917,"Two":5918,"Jones":5919,"Anderson":5920,"Elizabeth":5921,"Committee":5922,"447":5923,"863":5924,"926":5925,"961":5926,"Ana":5927,"Apa":5928,"Bow":5929,"Din":5930,"Ea":5931,"Epi":5932,"LX":5933,"RATP":5934,"Tha":5935,"VP":5936,"WW":5937,"eu":5938,"hal":5939,"pet":5940,"pas":5941,"defea":5942,"shan":5943,"lim":5944,"bird":5945,"eno":5946,"nin":5947,"ergy":5948,"1531":5949,"1538":5950,"1647":5951,"1681":5952,"stor":5953,"rat":5954,"803":5955,"708":5956,"ãĤĥ":5957,"452":5958,"453":5959,"they":5960,"651":5961,"bed":5962,"Cook":5963,"vir":5964,"586":5965,"572":5966,"Stro":5967,"1504":5968,"Neu":5969,"EDG":5970,"APG":5971,"ICA":5972,"door":5973,"Conne":5974,"Basic":5975,"1701":5976,"Stephen":5977,"Carl":5978,"Colspan":5979,"word":5980,"essor":5981,"HOME":5982,"ights":5983,"Appli":5984,"ccff":5985,"ccccff":5986,"Press":5987,"Disco":5988,"Twitch":5989,"prise":5990,"Patrick":5991,"frame":5992,"Women":5993,"FINAL":5994,"Beyond":5995,"3M":5996,"438":5997,"511":5998,"933":5999,"Bun":6000,"Hero":6001,"Hans":6002,"ILE":6003,"Jes":6004,"Rad":6005,"Say":6006,"SNC":6007,"aw":6008,"band":6009,"dÄĽi":6010,"gna":6011,"vity":6012,"wer":6013,"Î©":6014,"Ð·":6015,"Øª":6016,"ìļ":6017,"xus":6018,"hÃłng":6019,"mie":6020,"1530":6021,"1537":6022,"lati":6023,"1736":6024,"ï¼Ĩ":6025,"603":6026,"808":6027,"461":6028,"468":6029,"681":6030,"user":6031,"ONG":6032,"state":6033,"1709":6034,"Kevin":6035,"GameSpot":6036,"Abdu":6037,"Southern":6038,"news":6039,"JavaScript":6040,"Prince":6041,"DirectX":6042,"Silver":6043,"function":6044,"Modern":6045,"3G":6046,"541":6047,"629":6048,"648":6049,"725":6050,"Ak":6051,"CAR":6052,"Dor":6053,"ELE":6054,"Low":6055,"NN":6056,"Nan":6057,"NPC":6058,"P4":6059,"URE":6060,"Vis":6061,"cter":6062,"city":6063,"gas":6064,"gent":6065,"vent":6066,"Ñħ":6067,"such":6068,"super":6069,"dire":6070,"zing":6071,"1519":6072,"1529":6073,"1555":6074,"1687":6075,"last":6076,"1728":6077,"ardi":6078,"ink":6079,"team":6080,"ãĥĿ":6081,"cuÇĲ":6082,"905":6083,"esa":6084,"484":6085,"653":6086,"Maker":6087,"Info":6088,"before":6089,"559":6090,"491":6091,"679":6092,"ped":6093,"796":6094,"OSS":6095,"fish":6096,"Saf":6097,"MAD":6098,"Paris":6099,"Concer":6100,"That":6101,"Fair":6102,"mark":6103,"ckett":6104,"URL":6105,"AOA":6106,"Yahoo":6107,"speci":6108,"ctures":6109,"Planet":6110,"ASCII":6111,"Spotify":6112,"OmegaT":6113,"Mitchell":6114,"423":6115,"536":6116,"632":6117,"715":6118,"825":6119,"833":6120,"Ala":6121,"B3":6122,"CAL":6123,"D9":6124,"Flow":6125,"Gy":6126,"GRO":6127,"Hau":6128,"Ita":6129,"K2":6130,"Money":6131,"Mbps":6132,"RDS":6133,"Zo":6134,"eb":6135,"ei":6136,"ide":6137,"san":6138,"sci":6139,"wart":6140,"huÅį":6141,"2035":6142,"1120":6143,"1767":6144,"cking":6145,"Chrome":6146,"Main":6147,"473":6148,"492":6149,"cap":6150,"nda":6151,"auto":6152,"661":6153,"562":6154,"Liber":6155,"Robin":6156,"Dead":6157,"Debian":6158,"Mega":6159,"Via":6160,"game":6161,"See":6162,"bucket":6163,"Anne":6164,"host":6165,"PS2":6166,"Fede":6167,"Eddie":6168,"TRA":6169,"Countdown":6170,"Zico":6171,"signed":6172,"TOKYO":6173,"Violetta":6174,"339":6175,"429":6176,"532":6177,"665":6178,"775":6179,"769":6180,"Ax":6181,"Area":6182,"D5":6183,"Eri":6184,"Fox":6185,"Hand":6186,"JI":6187,"Pur":6188,"R1":6189,"RF":6190,"SNS":6191,"ller":6192,"Õ¡":6193,"miÄĵ":6194,"1220":6195,"1545":6196,"1664":6197,"1659":6198,"1719":6199,"artic":6200,"1495":6201,"1496":6202,"1388":6203,"redo":6204,"cep":6205,"702":6206,"703":6207,"Chap":6208,"Chart":6209,"Mah":6210,"STATION":6211,"689":6212,"Rea":6213,"692":6214,"osp":6215,"Roman":6216,"Mix":6217,"798":6218,"him":6219,"splay":6220,"ott":6221,"mentary":6222,"ERS":6223,"Jaco":6224,"AND":6225,"graphy":6226,"Juan":6227,"gins":6228,"Steven":6229,"Phy":6230,"IFF":6231,"Bio":6232,"Dragon":6233,"Anime":6234,"Henri":6235,"Framework":6236,"010":6237,"434":6238,"636":6239,"729":6240,"761":6241,"878":6242,"Aus":6243,"Action":6244,"E1":6245,"E231":6246,"GEN":6247,"Jay":6248,"L2":6249,"PAGASA":6250,"RK":6251,"Too":6252,"ZERO":6253,"das":6254,"eg":6255,"hat":6256,"ira":6257,"Ðĳ":6258,"Ðľ":6259,"ÑĨ":6260,"ìĹ":6261,"tier":6262,"1546":6263,"1549":6264,"1562":6265,"1670":6266,"1690":6267,"1654":6268,"1653":6269,"1694":6270,"1759":6271,"aro":6272,"1466":6273,"thor":6274,"sio":6275,"ãĥ¢":6276,"807":6277,"709":6278,"458":6279,"463":6280,"log":6281,"555":6282,"596":6283,"662":6284,"Stri":6285,"under":6286,"Like":6287,"Michel":6288,"constru":6289,"ental":6290,"gie":6291,"posi":6292,"Build":6293,"shion":6294,"Interactive":6295,"Wilson":6296,"Johnny":6297,"della":6298,"Voice":6299,"FAST":6300,"Kenne":6301,"Court":6302,"Happy":6303,"HTTP":6304,"Samuel":6305,"12000":6306,"527":6307,"638":6308,"669":6309,"712":6310,"711":6311,"BP":6312,"Dal":6313,"DREAM":6314,"Hos":6315,"IMAX":6316,"Jos":6317,"K11":6318,"LV":6319,"Lind":6320,"M5":6321,"Nam":6322,"NCC":6323,"RSA":6324,"Sr":6325,"dan":6326,"ef":6327,"flu":6328,"ska":6329,"wy":6330,"Î¬":6331,"shell":6332,"xis":6333,"qiÅįng":6334,"lem":6335,"sung":6336,"tura":6337,"niÅ«":6338,"1558":6339,"1581":6340,"1738":6341,"1474":6342,"1375":6343,"cular":6344,"elli":6345,"neu":6346,"vement":6347,"STAT":6348,"477":6349,"love":6350,"68000":6351,"Cos":6352,"ATE":6353,"595":6354,"598":6355,"599":6356,"578":6357,"1608":6358,"Jac":6359,"Hein":6360,"dence":6361,"EPA":6362,"program":6363,"ween":6364,"gene":6365,"syn":6366,"flight":6367,"EXILE":6368,"Person":6369,"GPL":6370,"Stars":6371,"stars":6372,"Galant":6373,"import":6374,"NMB48":6375,"521":6376,"628":6377,"622":6378,"721":6379,"867":6380,"877":6381,"965":6382,"Aer":6383,"BY":6384,"Care":6385,"F5":6386,"Jet":6387,"Mount":6388,"Ner":6389,"OST":6390,"RX":6391,"Sus":6392,"SUP":6393,"Source":6394,"VEN":6395,"WP":6396,"ZZ":6397,"cli":6398,"cin":6399,"fre":6400,"gli":6401,"ui":6402,"will":6403,"yd":6404,"guÃłng":6405,"yun":6406,"life":6407,"bio":6408,"1280":6409,"âĢ³":6410,"1665":6411,"lat":6412,"1732":6413,"1744":6414,"1756":6415,"1489":6416,"1487":6417,"1340":6418,"oul":6419,"met":6420,"000rpm":6421,"ãĥĵ":6422,"906":6423,"ãĤº":6424,"451":6425,"Chill":6426,"997":6427,"Stru":6428,"idae":6429,"Security":6430,"Dave":6431,"Shar":6432,"wick":6433,"Player":6434,"Feli":6435,"ghts":6436,"Forever":6437,"SHOW":6438,"Business":6439,"2nd":6440,"519":6441,"517":6442,"624":6443,"623":6444,"835":6445,"876":6446,"938":6447,"954":6448,"951":6449,"Abu":6450,"B9":6451,"CAP":6452,"D3":6453,"Fw":6454,"Flo":6455,"GDDR":6456,"Hil":6457,"Hop":6458,"IMD":6459,"Kur":6460,"LCD":6461,"NIC":6462,"Pon":6463,"Qt":6464,"Sel":6465,"YF":6466,"eng":6467,"fan":6468,"mou":6469,"mos":6470,"ude":6471,"vas":6472,"would":6473,"xa":6474,"Ðĺ":6475,"ð¤":6476,"sum":6477,"qua":6478,"chuÃłi":6479,"1524":6480,"1532":6481,"1584":6482,"1658":6483,"1657":6484,"1699":6485,"lad":6486,"1762":6487,"1337":6488,"mum":6489,"ï¼ŀ":6490,"rai":6491,"seed":6492,"472":6493,"474":6494,"649":6495,"497":6496,"687":6497,"688":6498,"698":6499,"579":6500,"784":6501,"Rober":6502,"Proto":6503,"html":6504,"1406":6505,"Carlos":6506,"DSP":6507,"à¤¾":6508,"Bike":6509,"year":6510,"SHIN":6511,"Holly":6512,"Christmas":6513,"âĺħ":6514,"Public":6515,"scape":6516,"MONSTA":6517,"Computer":6518,"Touch":6519,"Smack":6520,"Smosh":6521,"Apache":6522,"054":6523,"616":6524,"719":6525,"865":6526,"946":6527,"988":6528,"Bran":6529,"DH":6530,"Dur":6531,"Esp":6532,"G1":6533,"Gau":6534,"H4":6535,"H10":6536,"Hat":6537,"Jona":6538,"More":6539,"S3":6540,"Sb":6541,"Sense":6542,"Wit":6543,"WHO":6544,"XG":6545,"jan":6546,"kra":6547,"used":6548,"Ã¦":6549,"ÏĨ":6550,"dus":6551,"tie":6552,"luÅį":6553,"enne":6554,"micro":6555,"pia":6556,"1668":6557,"1739":6558,"1764":6559,"format":6560,"mail":6561,"30000":6562,"787":6563,"Library":6564,"Socket":6565,"Ann":6566,"sock":6567,"PSV":6568,"Control":6569,"1702":6570,"There":6571,"Take":6572,"Human":6573,"LLVM":6574,"rowspan":6575,"ways":6576,"break":6577,"Fanta":6578,"Ryan":6579,"SmackDown":6580,"052":6581,"421":6582,"437":6583,"614":6584,"626":6585,"637":6586,"815":6587,"816":6588,"975":6589,"Card":6590,"Echo":6591,"GF":6592,"If":6593,"Ice":6594,"JP":6595,"Rh":6596,"Wing":6597,"Wolf":6598,"YA":6599,"ZO":6600,"after":6601,"cine":6602,"free":6603,"hp":6604,"kha":6605,"won":6606,"wri":6607,"Ðł":6608,"ë°":6609,"depen":6610,"dig":6611,"0000":6612,"1275":6613,"1536":6614,"1675":6615,"1464":6616,"rad":6617,"may":6618,"major":6619,"455":6620,"IND":6621,"lock":6622,"671":6623,"678":6624,"ops":6625,"most":6626,"ARP":6627,"Tex":6628,"Sher":6629,"Anti":6630,"1705":6631,"Liner":6632,"Fashion":6633,"TOWN":6634,"erial":6635,"Giovan":6636,"Sheet":6637,"lease":6638,"KKBOX":6639,"Championship":6640,"Language":6641,"Alfredo":6642,"alysis":6643,"Professor":6644,"542":6645,"634":6646,"821":6647,"912":6648,"CIT":6649,"Cfb":6650,"DX":6651,"HPV":6652,"MOS":6653,"MIT":6654,"NXT":6655,"Ol":6656,"Pr":6657,"SY":6658,"Ster":6659,"SIM":6660,"Tig":6661,"WH":6662,"Wer":6663,"Well":6664,"Wong":6665,"count":6666,"df":6667,"dle":6668,"done":6669,"glo":6670,"ima":6671,"mme":6672,"nst":6673,"ois":6674,"pon":6675,"wind":6676,"Ïĩ":6677,"âģ":6678,"ãħ":6679,"ìĦ":6680,"ches":6681,"lib":6682,"leu":6683,"lein":6684,"miÄģo":6685,"1563":6686,"1617":6687,"1663":6688,"1685":6689,"1753":6690,"1477":6691,"1380":6692,"multi":6693,"stance":6694,"503":6695,"ras":6696,"see":6697,"809":6698,"ãģİ":6699,"ãĤ½":6700,"atan":6701,"483":6702,"486":6703,"asy":6704,"754":6705,"656":6706,"Mate":6707,"beat":6708,"beca":6709,"Theat":6710,"676":6711,"ATX":6712,"SAN":6713,"785":6714,"561":6715,"NAS":6716,"Mei":6717,"ARK":6718,"Second":6719,"ACH":6720,"okia":6721,"ANG":6722,"IPTV":6723,"Western":6724,"Board":6725,"File":6726,"Field":6727,"there":6728,"à¸²":6729,"UNES":6730,"gency":6731,"Frances":6732,"Morning":6733,"Brad":6734,"RCA":6735,"Collection":6736,"SpaceX":6737,"Melon":6738,"Circle":6739,"Mission":6740,"Creative":6741,"TWICE":6742,"Clark":6743,"Industri":6744,"SUPER":6745,"2DS":6746,"518":6747,"526":6748,"566":6749,"716":6750,"714":6751,"765":6752,"764":6753,"744":6754,"826":6755,"847":6756,"918":6757,"936":6758,"Afri":6759,"BNO":6760,"EU":6761,"Eve":6762,"Every":6763,"GI":6764,"Here":6765,"Ia":6766,"MRI":6767,"Pere":6768,"RP":6769,"Right":6770,"Rank":6771,"SUN":6772,"Vin":6773,"VIP":6774,"Wri":6775,"Ware":6776,"WTT":6777,"cam":6778,"cta":6779,"group":6780,"hÄģi":6781,"pho":6782,"town":6783,"ÅĤ":6784,"ÙĪ":6785,"âĬ":6786,"ë¦":6787,"ð¬":6788,"ngth":6789,"show":6790,"chin":6791,"ched":6792,"lity":6793,"chus":6794,"1024":6795,"1669":6796,"1656":6797,"1672":6798,"1692":6799,"1754":6800,"1420":6801,"1480":6802,"teen":6803,"ilo":6804,"their":6805,"751":6806,"658":6807,"Chang":6808,"Maki":6809,"Inte":6810,"594":6811,"Stone":6812,"791":6813,"AMC":6814,"AMP":6815,"Moore":6816,"Shine":6817,"ITA":6818,"Bug":6819,"1704":6820,"1708":6821,"Nick":6822,"Pie":6823,"ario":6824,"AGP":6825,"MLB":6826,"Manu":6827,"Vogue":6828,"Future":6829,"DMR":6830,"Front":6831,"RepRap":6832,"2B":6833,"713":6834,"727":6835,"748":6836,"768":6837,"875":6838,"915":6839,"929":6840,"947":6841,"Ace":6842,"BIG":6843,"Cr":6844,"CYP":6845,"Dam":6846,"Emp":6847,"EBS":6848,"Fai":6849,"From":6850,"ISA":6851,"NICO":6852,"OME":6853,"R3":6854,"Ring":6855,"UF":6856,"VIS":6857,"XIII":6858,"kon":6859,"xc":6860,"zÄģn":6861,"Ð¢":6862,"Ø³":6863,"lev":6864,"bie":6865,"bis":6866,"1075":6867,"1277":6868,"1279":6869,"1276":6870,"1111":6871,"ante":6872,"1440":6873,"1488":6874,"1472":6875,"1371":6876,"allo":6877,"story":6878,"rian":6879,"rice":6880,"road":6881,"ãĥ§":6882,"902":6883,"489":6884,"vier":6885,"699":6886,"ophy":6887,"992":6888,"881":6889,"986":6890,"Lew":6891,"contribu":6892,"APM":6893,"1602":6894,"dom":6895,"commercial":6896,"Interplay":6897,"cross":6898,"AIM":6899,"REAS":6900,"Wilhel":6901,"Audio":6902,"CRH5":6903,"Gene":6904,"Walker":6905,"Version":6906,"Films":6907,"Jimmy":6908,"District":6909,"Sweet":6910,"Building":6911,"030":6912,"633":6913,"778":6914,"812":6915,"955":6916,"957":6917,"Azu":6918,"Asian":6919,"C3":6920,"C14":6921,"EY":6922,"Im":6923,"Ian":6924,"Iso":6925,"Jalan":6926,"LNG":6927,"LIF":6928,"MIC":6929,"NY":6930,"Nint":6931,"POS":6932,"Rand":6933,"RSS":6934,"SAT":6935,"Sid":6936,"Stop":6937,"Ts":6938,"TNT":6939,"Yi":6940,"Yan":6941,"bÇĴ":6942,"cÃº":6943,"cÄĵn":6944,"d4":6945,"iro":6946,"rs":6947,"ute":6948,"Ã½":6949,"Ø¨":6950,"Ø¯":6951,"ledge":6952,"sul":6953,"tury":6954,"kuÇİi":6955,"002":6956,"004":6957,"1230":6958,"pis":6959,"1527":6960,"1611":6961,"array":6962,"rela":6963,"rix":6964,"rish":6965,"ols":6966,"ely":6967,"ãģĽ":6968,"487":6969,"nest":6970,"bov":6971,"Chro":6972,"Information":6973,"558":6974,"685":6975,"vich":6976,"osau":6977,"577":6978,"781":6979,"792":6980,"794":6981,"Album":6982,"981":6983,"Lei":6984,"CO2":6985,"ARC":6986,"Dick":6987,"Shop":6988,"gion":6989,"poli":6990,"Six":6991,"Energy":6992,"WiMAX":6993,"shire":6994,"Gemini":6995,"Stewart":6996,"1122":6997,"RES":6998,"Tac":6999,"ories":7000,"ESPN":7001,"Trickett":7002,"minal":7003,"Wave":7004,"Thompson":7005,"Where":7006,"Portable":7007,"elect":7008,"ìķĦ":7009,"Thunderbird":7010,"Velvet":7011,"Jonathan":7012,"ð¬ĵ":7013,"Nintendo":7014,"070":7015,"543":7016,"615":7017,"717":7018,"828":7019,"839":7020,"939":7021,"Bin":7022,"E2":7023,"Edi":7024,"FD":7025,"G2":7026,"GG":7027,"Gr":7028,"Len":7029,"Lun":7030,"MED":7031,"N1":7032,"RY":7033,"S7":7034,"TD":7035,"UFC":7036,"V1":7037,"V2":7038,"ala":7039,"ic":7040,"kai":7041,"nar":7042,"poly":7043,"tar":7044,"wel":7045,"zzi":7046,"ãİ":7047,"ê°":7048,"lee":7049,"tinu":7050,"tiful":7051,"quali":7052,"dine":7053,"nig":7054,"1512":7055,"1541":7056,"1666":7057,"lak":7058,"1721":7059,"1726":7060,"1737":7061,"1747":7062,"1743":7063,"1741":7064,"archi":7065,"1430":7066,"25000":7067,"deĠ":7068,"ĠdeĠ":7069,"shÃ¬Ġ":7070,"ĠshÃ¬Ġ":7071,"ĠniÃ¡n":7072,"ĠniÃ¡nĠ":7073,"wÃ¨iĠ":7074,"zÃłiĠ":7075,"ĠwÃ¨iĠ":7076,"ĠzÃłiĠ":7077,"hÃ©Ġ":7078,"ĠhÃ©Ġ":7079,"zhÅįngĠ":7080,"bÃ¹Ġ":7081,"dÃ¬Ġ":7082,"shÃŃĠ":7083,"guÃ³Ġ":7084,"yÃºĠ":7085,"rÃ©nĠ":7086,"ĠbÃ¹Ġ":7087,"yÄ«Ġ":7088,"ĠzhÅįngĠ":7089,"lÃ¬Ġ":7090,"zhÃ¬Ġ":7091,"gÅįngĠ":7092,"ĠshÃŃĠ":7093,"yuÃ¨Ġ":7094,"jÃŃĠ":7095,"chÃ©ngĠ":7096,"yÃ¬Ġ":7097,"yÇĴuĠ":7098,"ĠdÃ¬Ġ":7099,"ĠyuÃ¨Ġ":7100,"ĠyÃºĠ":7101,"ĠrÃ©nĠ":7102,"ĠzhÃ¬Ġ":7103,"dÃłĠ":7104,"ĠjÃŃĠ":7105,"yuÃ¡nĠ":7106,"ĠyÇĴuĠ":7107,"jÃ¬Ġ":7108,"ĠguÃ³Ġ":7109,"ĠlÃ¬Ġ":7110,"ĠgÅįngĠ":7111,"ĠyÃ¬Ġ":7112,"ĠyÇĲ":7113,"ĠchÃ©ngĠ":7114,"jiÄģĠ":7115,"sÄ«Ġ":7116,"yÇĶĠ":7117,"ĠxiÃłn":7118,"ĠrÃ¬":7119,"ĠyÄ«Ġ":7120,"ĠxÃŃng":7121,"ĠtÄģ":7122,"lÇĲĠ":7123,"jÄ«Ġ":7124,"ĠdÃło":7125,"hÃ²uĠ":7126,"wÃ©iĠ":7127,"ĠzhÄ«":7128,"ĠdÃłĠ":7129,"ĠyuÃ¡nĠ":7130,"xÄ«Ġ":7131,"ĠrÃ¬Ġ":7132,"ĠgÃ¨":7133,"ĠyÇĲĠ":7134,"xuÃ©Ġ":7135,"huÃ¬Ġ":7136,"zuÃ²Ġ":7137,"leĠ":7138,"ĠyÇĶĠ":7139,"ĠdÃłoĠ":7140,"mÃŃngĠ":7141,"ĠjÃ¬Ġ":7142,"bÃ¨iĠ":7143,"ĠxÃŃngĠ":7144,"shÄĵngĠ":7145,"ĠjiÃłn":7146,"ĠchÅ«":7147,"ĠqÃŃ":7148,"ĠsÄ«Ġ":7149,"ĠdÃ©":7150,"zhÃ¨ngĠ":7151,"ĠxiÃłnĠ":7152,"ĠhÃ²uĠ":7153,"ĠjÄ«Ġ":7154,"duÃ¬Ġ":7155,"shÃłngĠ":7156,"qÅ«Ġ":7157,"shÇĲĠ":7158,"ĠÄĽr":7159,"ĠjiÄģĠ":7160,"yÃ³uĠ":7161,"ĠtÄģĠ":7162,"ĠxÄ«Ġ":7163,"ĠlÇĲĠ":7164,"ĠÃ©r":7165,"zhÃłnĠ":7166,"ĠjÅ«n":7167,"ĠbÃ¬ng":7168,"ĠzhÄ«Ġ":7169,"ĠgÃ¨Ġ":7170,"zhÇĶĠ":7171,"rÃ¨nĠ":7172,"fÃ¹Ġ":7173,"zÃ¬Ġ":7174,"wÃ¹Ġ":7175,"xÄ«nĠ":7176,"dÃłiĠ":7177,"jÃ¹Ġ":7178,"pÃŃngĠ":7179,"ĠchÅ«Ġ":7180,"ĠkÃ¨":7181,"ĠzhÅįu":7182,"xiÄģngĠ":7183,"ĠhuÃ¬Ġ":7184,"shÃ¹Ġ":7185,"nÃ¡nĠ":7186,"ĠshÃ¨":7187,"ĠbÃ¨iĠ":7188,"ĠmÃŃngĠ":7189,"xiÃłĠ":7190,"guÄģnĠ":7191,"ĠÄĽrĠ":7192,"ĠdÃ©Ġ":7193,"lÃ¹Ġ":7194,"yÃ¹Ġ":7195,"huÃłĠ":7196,"ĠjiÃłnĠ":7197,"jÄ«ngĠ":7198,"yÃ¡nĠ":7199,"fÄģngĠ":7200,"ĠyÄ«n":7201,"kÄģiĠ":7202,"jiÄģnĠ":7203,"jiÃłoĠ":7204,"fÄģĠ":7205,"yÃ²ngĠ":7206,"ĠdÃłn":7207,"ĠÃ©rĠ":7208,"zhÃ¹Ġ":7209,"lÃ¡iĠ":7210,"mÃŃnĠ":7211,"shÇĴuĠ":7212,"zhÃ¨Ġ":7213,"xiÃłngĠ":7214,"wÃ©nĠ":7215,"ĠjÅ«nĠ":7216,"xÃ¬Ġ":7217,"qiÃ¡nĠ":7218,"bÄĽnĠ":7219,"tÃ¨Ġ":7220,"ĠwÃ©iĠ":7221,"zhÃŃĠ":7222,"fÇİĠ":7223,"qÄ«Ġ":7224,"jiÃ©Ġ":7225,"liÃ¡nĠ":7226,"ĠbÃ¬ngĠ":7227,"dÃ²ngĠ":7228,"diÃłnĠ":7229,"ĠqÃŃĠ":7230,"ĠkÃ¨Ġ":7231,"dÅįngĠ":7232,"mÃ¹Ġ":7233,"ĠjÃ¬n":7234,"ĠduÃ¬Ġ":7235,"ĠhuÃ²":7236,"ĠzhÃłnĠ":7237,"fÄĵnĠ":7238,"tÃ¡iĠ":7239,"zhÇİngĠ":7240,"dÃ¹Ġ":7241,"jiÄģngĠ":7242,"ĠqiÃº":7243,"ĠpÃŃngĠ":7244,"gÄģoĠ":7245,"yÃ¨Ġ":7246,"suÇĴĠ":7247,"bÄĽiĠ":7248,"ĠzhÅįuĠ":7249,"shÄ«Ġ":7250,"ĠleĠ":7251,"duÅįĠ":7252,"jiÄĵĠ":7253,"gÃ©Ġ":7254,"ĠshÃłngĠ":7255,"jÄ«nĠ":7256,"ĠzhÃ¨ngĠ":7257,"fÃºĠ":7258,"ĠzuÃ²Ġ":7259,"ĠyÃ³uĠ":7260,"ĠfÃ¹Ġ":7261,"kÇĴuĠ":7262,"guÃ²Ġ":7263,"zhÇĲĠ":7264,"ĠtÃ³ng":7265,"hÇİiĠ":7266,"ĠrÃ¨nĠ":7267,"ĠquÃ¡n":7268,"mÇİĠ":7269,"tÅįngĠ":7270,"rÃ¹Ġ":7271,"zuÃ¬Ġ":7272,"ĠshÄĵngĠ":7273,"ĠxuÃ©Ġ":7274,"cÇĲĠ":7275,"xÃ¬ngĠ":7276,"wÃłiĠ":7277,"nÃ¨iĠ":7278,"lÄģĠ":7279,"tÇĲĠ":7280,"juÃ©Ġ":7281,"kÄĽĠ":7282,"qÇĲĠ":7283,"shÄģnĠ":7284,"tiÄģnĠ":7285,"chÇİngĠ":7286,"dÄĽngĠ":7287,"zhÃ¨nĠ":7288,"wÇĶĠ":7289,"chÃ¡ngĠ":7290,"ziĠ":7291,"yÃłoĠ":7292,"bÇĲĠ":7293,"ĠjÃ¹Ġ":7294,"bÇİoĠ":7295,"mÇĲĠ":7296,"yÃłĠ":7297,"ĠyÄĽ":7298,"gÄģiĠ":7299,"ĠyÄ«nĠ":7300,"ĠdÃłiĠ":7301,"miÃłnĠ":7302,"zhÃ²ngĠ":7303,"ĠshÃ¨Ġ":7304,"fÄĵngĠ":7305,"ĠzhÃ¨Ġ":7306,"zhÇĴngĠ":7307,"cÃ¬Ġ":7308,"yÃ¹nĠ":7309,"yÃŃĠ":7310,"liÃºĠ":7311,"chÄĵĠ":7312,"shÃ²uĠ":7313,"lÃŃnĠ":7314,"bÄģoĠ":7315,"yÃŃĠgÃ¨Ġ":7316,"sÃłiĠ":7317,"jiÃ¨Ġ":7318,"dÃ¬ngĠ":7319,"shÄĵnĠ":7320,"shÄĽngĠ":7321,"luÃ³Ġ":7322,"mÄĽiĠguÃ³Ġ":7323,"sÄģnĠ":7324,"qÃ¬Ġ":7325,"xiÇİoĠ":7326,"ĠdÃłnĠ":7327,"nÃ©ngĠ":7328,"shÅ«Ġ":7329,"zÃ©Ġ":7330,"liÃ¨Ġ":7331,"xuÇİnĠ":7332,"sÃ¬Ġ":7333,"qÄ«ngĠ":7334,"zhÄĽĠ":7335,"ĠqiÃºĠ":7336,"jÃ¬ngĠ":7337,"yuÃłnĠ":7338,"bÄģĠ":7339,"wÃ¡ngĠ":7340,"kÄĵĠ":7341,"tÃłiĠ":7342,"lÃ¡nĠ":7343,"bÃłoĠ":7344,"ÄģnĠ":7345,"zÇĴngĠ":7346,"yÇĲngĠ":7347,"ĠhuÃ²Ġ":7348,"bÃ¬Ġ":7349,"fÇĶĠ":7350,"dÇİoĠ":7351,"ĠxÄ«nĠ":7352,"gÇĶĠ":7353,"yÄ«ngĠ":7354,"ĠhÃło":7355,"ĠxiÃłĠ":7356,"ĠzÃ¬Ġ":7357,"gÄĵĠ":7358,"fÃ¨nĠ":7359,"xiÃłoĠ":7360,"yuÄĵĠ":7361,"nÃŃĠ":7362,"jiÄģoĠ":7363,"nÃłĠ":7364,"ĠyÃ¹Ġ":7365,"ĠmÇĲĠ":7366,"zÄ«Ġ":7367,"Ã¨rĠ":7368,"ĠxiÄģngĠ":7369,"pÇĶĠ":7370,"dÄģnĠ":7371,"ĠzhÃ¹Ġ":7372,"biÇİoĠ":7373,"guÇİnĠ":7374,"tÃ³uĠ":7375,"liÃłngĠ":7376,"chuÃ¡nĠ":7377,"ĠlÃ¹Ġ":7378,"sÃ¹Ġ":7379,"wÃºĠ":7380,"ĠdÄģng":7381,"bÅįĠ":7382,"rÃºĠ":7383,"yÇİnĠ":7384,"nÇļĠ":7385,"bÃ³Ġ":7386,"ĠzhÅįngĠguÃ³Ġ":7387,"xÄ«ngĠ":7388,"tÃŃĠ":7389,"fÄĵiĠ":7390,"dÃ¡Ġ":7391,"sÃ¨Ġ":7392,"chÄĵngĠ":7393,"mÄĽiĠ":7394,"ĠwÃ¨iĠyÃºĠ":7395,"ĠjÃ¬nĠ":7396,"cÃ©ngĠ":7397,"chÇİnĠ":7398,"ĠnÃ¡nĠ":7399,"shuÇĲĠ":7400,"tÃºĠ":7401,"biÃłnĠ":7402,"guÄ«Ġ":7403,"ĠrÃ¡n":7404,"yÃ¡ngĠ":7405,"ÄģĠ":7406,"zhÄģngĠ":7407,"gÇİiĠ":7408,"diÇİnĠ":7409,"cÃ³ngĠ":7410,"jiÃ¹Ġ":7411,"ĠbÄĽnĠ":7412,"ĠquÃ¡nĠ":7413,"shÄģĠ":7414,"bÄģoĠkuÃ²":7415,"wÇİngĠ":7416,"jiÇİnĠ":7417,"shÃ¨ngĠ":7418,"zÇĶĠ":7419,"shÇĶĠ":7420,"gÇİngĠ":7421,"huÃ¡Ġ":7422,"lÇľĠ":7423,"qÃŃngĠ":7424,"jÇĲngĠ":7425,"liÇİngĠ":7426,"zÃºĠ":7427,"bÃłnĠ":7428,"tÇĴngĠ":7429,"gÃ²ngĠ":7430,"shÄģngĠ":7431,"lÃŃĠ":7432,"hÃ¹Ġ":7433,"tÃ³ngĠ":7434,"biÄģnĠ":7435,"jÃ¬nĠ":7436,"lÃ³ngĠ":7437,"luÃ²Ġ":7438,"ÃłnĠ":7439,"xÃ¹Ġ":7440,"chÃŃĠ":7441,"ÃłoĠ":7442,"mÃ©iĠ":7443,"jÇĲnĠ":7444,"bÄģnĠ":7445,"guÇİngĠ":7446,"chÅ«Ġ":7447,"cÃ¨Ġ":7448,"mÃ¬Ġ":7449,"shÃ©nĠ":7450,"ĠtÄģĠmen":7451,"zhÄĵngĠ":7452,"zhÄ«Ġ":7453,"lÇĲngĠ":7454,"yÃ²uĠ":7455,"fÇİnĠ":7456,"wÄĵiĠ":7457,"ĠzhÇĶĠ":7458,"ĠxiÃłngĠ":7459,"huÃ³Ġ":7460,"xÃŃĠ":7461,"tÃŃngĠ":7462,"kÇİĠ":7463,"chÃ¡Ġ":7464,"ĠgÄģiĠ":7465,"cÃ¡iĠ":7466,"gÃ²uĠ":7467,"shuÅįĠ":7468,"mÃ©nĠ":7469,"cÃŃĠ":7470,"xiÇİngĠ":7471,"mÇĶĠ":7472,"lÃ¨iĠ":7473,"wÄĽiĠ":7474,"qÇĶĠ":7475,"ĠgÅįngĠlÇĲĠ":7476,"yÃ¡nĠjiÅ«":7477,"ĠduÅįĠ":7478,"tuÃ¡nĠ":7479,"yÇĲnĠ":7480,"jiÃłnĠ":7481,"ĠyÄĽĠ":7482,"chÃ¡oĠ":7483,"yÃ¬ngĠ":7484,"chÃ©nĠ":7485,"ĠwÃłn":7486,"tÃ¡ngĠ":7487,"xiÄĵĠ":7488,"qÃŃĠ":7489,"pÇĲnĠ":7490,"ĠyÇĲĠjÃŃĠ":7491,"jiÃłĠ":7492,"shÇĲĠyÃ²ngĠ":7493,"jiÄĽĠ":7494,"hÃ¡ngĠ":7495,"yÇĲĠ":7496,"lÃºnĠ":7497,"rÃ³ngĠ":7498,"ĠyÃ³u":7499,"jiÇİngĠ":7500,"pÃ¡iĠ":7501,"fÅ«Ġ":7502,"jiÇĶĠ":7503,"lÃ¬ngĠ":7504,"Ã©Ġ":7505,"tÃ¡iĠwÄģn":7506,"ĠhÃłoĠ":7507,"ĠdeĠdÃ¬Ġ":7508,"1Ġ":7509,"xÅ«Ġ":7510,"kÄĽĠyÇĲĠ":7511,"huÃ¡ngĠ":7512,"xiÄģnĠ":7513,"duÃłnĠ":7514,"kÃ¨Ġ":7515,"dÇİngĠ":7516,"mÃ³Ġ":7517,"cÄģnĠ":7518,"yÃŃngĠ":7519,"tiÃ¡oĠ":7520,"biÄģoĠ":7521,"ĠdeĠyÄ«Ġ":7522,"kÄģiĠshÇĲĠ":7523,"quÃ¡nĠ":7524,"zhÇİnĠ":7525,"ĠchÃ©ngĠwÃ©iĠ":7526,"yÄĽĠ":7527,"hÃ³ngĠ":7528,"mÃ©iĠyÇĴuĠ":7529,"hÃłnĠ":7530,"yÄ«nĠ":7531,"wÄĽiĠyuÃ¡nĠ":7532,"qiÄģnĠ":7533,"bÇİnĠ":7534,"xiÃłnĠ":7535,"lÃŃngĠ":7536,"xiÄģoĠ":7537,"ĠtÃ³ngĠ":7538,"huÃŃĠ":7539,"sÅ«Ġ":7540,"fÃ¡ngĠ":7541,"mÃ©ngĠ":7542,"zhuÄģngĠ":7543,"kÅįngĠ":7544,"jÃºĠ":7545,"cÅ«nĠ":7546,"bÄģoĠkuÃ²Ġ":7547,"rÃ©nĠkÇĴuĠ":7548,"ĠqÃŃĠzhÅįngĠ":7549,"2Ġ":7550,"ĠgÅįngĠsÄ«Ġ":7551,"huÃ²Ġ":7552,"zÇĲĠ":7553,"xÃŃngĠ":7554,"dÅįuĠ":7555,"ĠdeĠshÃ¬Ġ":7556,"ĠĠĠzÃłiĠ":7557,"qiÃ¡ngĠ":7558,"zhÃłoĠ":7559,"dÃºĠ":7560,"zhÃ¨ngĠzhÃ¬Ġ":7561,"yÃŃĠgÃ¨":7562,"mÃ²Ġ":7563,"ĠfÄĵnĠ":7564,"cÇİiĠ":7565,"bÄ«ngĠ":7566,"fÇİĠguÃ³Ġ":7567,"ĠgÄģoĠ":7568,"ĠdÃłĠxuÃ©Ġ":7569,"ĠshÃ¬ĠyÄ«Ġ":7570,"hÃ¡iĠ":7571,"ĠtÄģĠdeĠ":7572,"hÃºĠ":7573,"chÃ¹Ġ":7574,"qÄ«nĠ":7575,"lÃ¹nĠ":7576,"fÃłnĠ":7577,"zhÄĵnĠ":7578,"guÄģngĠ":7579,"wÃ¨nĠ":7580,"mÃłnĠ":7581,"ĠjiÃ©Ġ":7582,"shÃ¨Ġ":7583,"biÇİoĠshÃ¬Ġ":7584,"zhÅįngĠdeĠ":7585,"jÅ«Ġ":7586,"ĠjiÃłoĠ":7587,"ÃłiĠ":7588,"zhuÄģnĠ":7589,"diÃłoĠ":7590,"bÃ¡iĠ":7591,"dÇİĠ":7592,"quÃ¨Ġ":7593,"diÃłnĠshÃ¬Ġ":7594,"ĠdÅįngĠ":7595,"ĠdÃ¹Ġ":7596,"fÃ¨iĠ":7597,"ĠshÃ¬ĠwÃ¨iĠ":7598,"ĠmÃ¹Ġ":7599,"hÃ¡nĠ":7600,"shÃ¬ĠdeĠ":7601,"ĠtÃ¨Ġ":7602,"xÃ¹nĠ":7603,"ĠjÄ«nĠ":7604,"piÃłnĠ":7605,"mÃ¬ngĠ":7606,"jÇĶĠ":7607,"ĠjiÄģngĠ":7608,"tuÅįĠ":7609,"gÃ¹Ġ":7610,"ĠrÃ©nĠkÇĴuĠ":7611,"xiÅ«Ġ":7612,"ĠbÃ¹ĠfÃ¨nĠ":7613,"xiÃ©Ġ":7614,"zÃłoĠ":7615,"ĠhÃ©ĠguÃ³Ġ":7616,"zhÅįngĠguÃ³Ġ":7617,"guÇĴĠ":7618,"10ĠyuÃ¨Ġ":7619,"shÅįuĠ":7620,"ĠzuÃ¬":7621,"xÃ¬nĠ":7622,"12ĠyuÃ¨Ġ":7623,"7ĠyuÃ¨Ġ":7624,"9ĠyuÃ¨Ġ":7625,"ĠshÄ«Ġ":7626,"zhuÇİnĠ":7627,"tÄģĠ":7628,"dÄģngĠ":7629,"miÃłnĠjÄ«Ġ":7630,"ĠrÃ©nĠmÃŃnĠ":7631,"8ĠyuÃ¨Ġ":7632,"xÃºnĠ":7633,"ĠdÃ¬ĠqÅ«Ġ":7634,"wÅ«Ġ":7635,"3ĠyuÃ¨Ġ":7636,"ĠguÃ²Ġ":7637,"ĠsuÇĴĠ":7638,"1ĠyuÃ¨Ġ":7639,"ĠjÄ«ngĠ":7640,"ĠshÇĴuĠ":7641,"gÇİnĠ":7642,"huÃ¡nĠ":7643,"dÃŃĠ":7644,"xiÃ¡Ġ":7645,"jiÇİĠ":7646,"5ĠyuÃ¨Ġ":7647,"yÄ«ngĠguÃ³Ġ":7648,"ĠcÇĲĠ":7649,"dÃłoĠ":7650,"dÇĲĠ":7651,"3Ġ":7652,"zhÅ«Ġ":7653,"tÄ«ngĠ":7654,"zhÃ¨ngĠshÃ¬Ġ":7655,"chÃ³ngĠ":7656,"huÇĴĠ":7657,"zhÅįuĠ":7658,"6ĠyuÃ¨Ġ":7659,"zhuÃłngĠ":7660,"chÃ©ngĠshÃ¬Ġ":7661,"4ĠyuÃ¨Ġ":7662,"ĠguÃ³ĠjiÄģĠ":7663,"tiÃ¡nĠ":7664,"gÃ¨ngĠ":7665,"ĠĠĠdÃ¬Ġ":7666,"fÃłngĠ":7667,"yÇĴngĠ":7668,"shÇĶĠyÃºĠ":7669,"ĠpÃŃngĠfÄģng":7670,"pÃ²Ġ":7671,"jÅ«nĠ":7672,"ĠdÃ¬ĠyÄ«Ġ":7673,"ĠqiÃ¡nĠ":7674,"11ĠyuÃ¨Ġ":7675,"ĠdÄĽngĠ":7676,"qÃ¹Ġ":7677,"qÃºnĠ":7678,"jiÃłngĠ":7679,"tÃ¡oĠ":7680,"ĠshÃ¬ĠjÃ¬Ġ":7681,"ĠpÃŃngĠfÄģngĠgÅįngĠlÇĲĠ":7682,"ĠtÃ³ngĠshÃŃĠ":7683,"ĠmÇİĠ":7684,"dÄģnĠrÃ¨nĠ":7685,"ĠtiÄģnĠ":7686,"ĠrÃºĠ":7687,"gÄĵnĠ":7688,"biÃ©Ġ":7689,"ĠsuÃ¬":7690,"pÃłiĠ":7691,"dÅ«Ġ":7692,"shÇİoĠ":7693,"liÃ¡ngĠ":7694,"huÄ«Ġ":7695,"tiÄĽĠ":7696,"nÃ³ngĠ":7697,"jÇĲĠ":7698,"ĠniÃ¡nĠ1ĠyuÃ¨Ġ":7699,"tÇİĠ":7700,"diÃłnĠyÇĲngĠ":7701,"ĠqÄ«Ġ":7702,"zÅįngĠ":7703,"chÇĶĠ":7704,"ĠzhÃ¨":7705,"sÇĲĠ":7706,"ÄĽrĠ":7707,"ĠdeĠshÃŃĠ":7708,"shuÄģngĠ":7709,"tÃ¡iĠwÄģnĠ":7710,"qiÃ¡oĠ":7711,"gÄĵnĠjÃ¹Ġ":7712,"lÃ¬ĠshÇĲĠ":7713,"chÃºĠ":7714,"ĠshÃ¬ĠzhÃ¨nĠ":7715,"gÃłoĠ":7716,"bÃłiĠ":7717,"cÄģnĠjiÄģĠ":7718,"yÃ¹nĠdÃ²ng":7719,"gÄģngĠ":7720,"chÄĵĠzhÃłnĠ":7721,"guÃ³ĠdeĠ":7722,"jiÇİoĠ":7723,"ĠwÃłnĠ":7724,"ĠyÄ«nĠwÃ¨iĠ":7725,"ĠrÃ¬ĠbÄĽnĠ":7726,"ĠpÃŃngĠfÄģngĠ":7727,"lÃ¬ĠdeĠ":7728,"ĠniÃ¡nĠdeĠ":7729,"gÃłiĠ":7730,"pÃłnĠ":7731,"ĠwÃ©nĠ":7732,"ĠhÇİiĠ":7733,"zhÃ¨ngĠfÇĶĠ":7734,"bÃ¬ngĠ":7735,"zhÇĶnĠ":7736,"ĠniÃ¡nĠ12ĠyuÃ¨Ġ":7737,"wÇİĠ":7738,"yÃłnĠ":7739,"wÇĴĠ":7740,"gÃ²ngĠhÃ©ĠguÃ³Ġ":7741,"ĠxiÃłnĠdeĠ":7742,"ĠfÃºĠ":7743,"yÃ¡Ġ":7744,"yÃŃnĠ":7745,"fÄģĠxiÃłnĠ":7746,"formulaĠ":7747,"chuÃłngĠ":7748,"hÄĵiĠ":7749,"ĠsuÇĴ":7750,"qÅ«ĠdeĠ":7751,"sÃ²ngĠ":7752,"huÃłnĠ":7753,"hÄģĠ":7754,"hÄĽnĠ":7755,"tÃŃĠgÅįngĠ":7756,"jÃ¬nĠxÃŃngĠ":7757,"ĠbÄĽiĠ":7758,"5Ġ":7759,"lÃ©iĠ":7760,"2ĠyuÃ¨Ġ":7761,"jÄ«ngĠjÃ¬Ġ":7762,"tÅįngĠguÃ²Ġ":7763,"4Ġ":7764,"ĠniÃ¡nĠ3ĠyuÃ¨Ġ":7765,"suÃŃĠ":7766,"chuÄģnĠ":7767,"qiÄĽĠ":7768,"ĠzhÅįngĠyÄģng":7769,"ĠguÃ³ĠjÃ¬Ġ":7770,"huÄģĠ":7771,"shÃłngĠdeĠ":7772,"ĠyÃ³uĠyÃºĠ":7773,"ĠyÃ²uĠ":7774,"lÄĵiĠ":7775,"wÄĽiĠyuÃ¡nĠhuÃ¬Ġ":7776,"kÇİoĠ":7777,"ĠniÃ¡nĠ7ĠyuÃ¨Ġ":7778,"ĠyÄ«ngĠ":7779,"wÃ¡nĠ":7780,"chÄĵngĠwÃ©iĠ":7781,"ĠniÃ¡nĠ10ĠyuÃ¨Ġ":7782,"dÄĵngĠ":7783,"bÇİiĠ":7784,"ĠshÃ¬ĠjiÃ¨Ġ":7785,"ĠyÄ«nĠcÇĲĠ":7786,"mÃŃngĠwÃ¨iĠ":7787,"ĠjÃ¬nĠxÃŃngĠ":7788,"nuÃ²Ġ":7789,"ĠshÃ¬ĠzÃłiĠ":7790,"chÅįngĠ":7791,"ĠrÃ¡nĠ":7792,"zhÇĶĠyÃ¬Ġ":7793,"ĠniÃ¡nĠ9ĠyuÃ¨Ġ":7794,"kuÃłiĠ":7795,"tÇĶĠ":7796,"ĠzhÄ«ĠhÃ²uĠ":7797,"yÃ¡nĠjiÅ«Ġ":7798,"ĠtÄģĠmenĠ":7799,"qiÃºĠ":7800,"mÃłiĠ":7801,"shÃŃĠdeĠ":7802,"liÃłnĠ":7803,"hÃłoĠ":7804,"ĠniÃ¡nĠ5ĠyuÃ¨Ġ":7805,"ĠliÃ¡nĠ":7806,"sÃłĠ":7807,"lÃºĠ":7808,"xÃ¬ĠtÇĴngĠ":7809,"ĠzuÃ¬Ġ":7810,"pÃ¨iĠ":7811,"lÇĶĠ":7812,"ĠniÃ¡nĠ4ĠyuÃ¨Ġ":7813,"chÇĲĠ":7814,"liÃłoĠ":7815,"ĠdÄģngĠ":7816,"ĠniÃ¡nĠ8ĠyuÃ¨Ġ":7817,"ĠniÃ¡nĠ6ĠyuÃ¨Ġ":7818,"ĠxÃŃngĠdeĠ":7819,"zÄĵngĠ":7820,"rÃ©nĠdeĠ":7821,"ĠshÇĲĠ":7822,"xiÄģngĠgÇİngĠ":7823,"xuÄģnĠ":7824,"qÄ«ĠjiÄģnĠ":7825,"dÃ©Ġ":7826,"kuÃłngĠ":7827,"guÇİnĠlÇĲĠ":7828,"ĠgÅįngĠzuÃ²Ġ":7829,"piÃłoĠ":7830,"ĠzhÄ«ĠyÄ«Ġ":7831,"xÇĶĠ":7832,"ĠlÃ¡iĠ":7833,"dÄ«Ġ":7834,"dÃłĠdeĠ":7835,"hÃ©ngĠ":7836,"bÇĶĠ":7837,"ĠzhÅįngĠxÄ«nĠ":7838,"yÃłngĠ":7839,"xuÄģnĠbÃ¹Ġ":7840,"sÄĵnĠ":7841,"tuÄ«Ġ":7842,"ĠniÃ¡nĠ11ĠyuÃ¨Ġ":7843,"zÇĶĠzhÄ«Ġ":7844,"rÃ¬Ġ":7845,"bÃ¹ĠdeĠ":7846,"wÃłngĠ":7847,"pÃŃĠ":7848,"ĠbÄģoĠkuÃ²Ġ":7849,"chÃłngĠ":7850,"menĠ":7851,"yÇĲngĠxiÇİngĠ":7852,"ĠtÄģĠzÃłiĠ":7853,"yÇİngĠ":7854,"qiÄģnĠmÇĲĠ":7855,"ÄĵnĠ":7856,"ĠĠĠshÄĵngĠ":7857,"ĠhuÃ²ĠdÃ©Ġ":7858,"ĠshÃ¬ĠjiÃ¨":7859,"pÄ«Ġ":7860,"sÄģiĠ":7861,"luÃ³ĠsÄ«Ġ":7862,"hÃ¨Ġ":7863,"kÄĽĠnÃ©ng":7864,"chÃ©ngĠdeĠ":7865,"ĠgÄģi":7866,"ĠqÄ«ngĠ":7867,"ĠmÄĽi":7868,"Ã©rĠ":7869,"dÃ¹nĠ":7870,"niÃłnĠ":7871,"xiÃ¡nĠ":7872,"ĠÄģĠ":7873,"lÃ³uĠ":7874,"qÃŃĠtÄģĠ":7875,"ĠniÃ¡nĠ2ĠyuÃ¨Ġ":7876,"ĠchÃ©ngĠlÃ¬Ġ":7877,"leĠyÄ«Ġ":7878,"bÄģngĠ":7879,"huÃ³ĠdÃ²ngĠ":7880,"ĠrÃ¨nĠwÃ©iĠ":7881,"ĠfÄĵn":7882,"ĠbÇĲĠ":7883,"yÅįuĠ":7884,"liÃ¹Ġ":7885,"ĠshÃ¹Ġ":7886,"kÄĵĠxuÃ©Ġ":7887,"fÄģĠzhÇİnĠ":7888,"huÃ²ĠdÃ©Ġ":7889,"jÃ¹nĠ":7890,"ĠluÃ³Ġ":7891,"ĠzuÃ²ĠwÃ©iĠ":7892,"yÄģĠ":7893,"ĠpÃŃngĠfÄģngĠqiÄģnĠmÇĲĠ":7894,"ĠwÃºĠ":7895,"huÃ¡ĠrÃ©nĠmÃŃnĠ":7896,"rÃ¬ĠbÄĽnĠ":7897,"bÄĵiĠ":7898,"lÇİoĠ":7899,"huÃ¬ĠyÃ¬Ġ":7900,"rÃ¨Ġ":7901,"6Ġ":7902,"ĠzhÃŃ":7903,"ĠliÃºĠ":7904,"tÃ¡nĠ":7905,"jiÄģnĠdeĠ":7906,"kÃ¹Ġ":7907,"tiÄĽĠlÃ¹Ġ":7908,"ĠdeĠrÃ©nĠ":7909,"yÃ²ngĠyÃºĠ":7910,"liÃ¡oĠ":7911,"nÃŃngĠ":7912,"ĠshÃŃĠjiÄģnĠ":7913,"ĠzhÄģngĠ":7914,"ĠdeĠgÅįngĠ":7915,"ĠshÄģnĠ":7916,"gÃ¨Ġ":7917,"miÇİnĠ":7918,"ĠyÃ¡nĠ":7919,"miÃłnĠjÄ«":7920,"mÃŃnĠguÃ³Ġ":7921,"ruÃ¬Ġ":7922,"wÅ«ĠkÃ¨Ġ":7923,"yÃ¬nĠ":7924,"xiÇİnĠ":7925,"lÃ¨Ġ":7926,"zuÇĴĠ":7927,"gÃ²ngĠyÇĴuĠ":7928,"ĠĠĠlÃ¬ĠshÇĲĠ":7929,"hÇİoĠ":7930,"ĠĠĠshÄĵngĠpÃŃngĠ":7931,"fÄģngĠshÃ¬Ġ":7932,"fÄģĠshÄĵngĠ":7933,"ĠzhÃŃĠ":7934,"gÄģnĠ":7935,"ĠcÃ³ngĠ":7936,"dÃ²uĠ":7937,"wÃ¨nĠtÃŃĠ":7938,"guÃłnĠjÅ«nĠ":7939,"zhÇĶĠyÃłoĠ":7940,"rÃ¡nĠ":7941,"dÃ¬ĠdeĠ":7942,"ĠdÃ¬ĠÃ¨rĠ":7943,"ĠxiÇİoĠ":7944,"dÇİoĠzhÃ¬Ġ":7945,"guÄģnĠxÃ¬Ġ":7946,"cÃºnĠ":7947,"kÄģngĠ":7948,"cÄģnĠyÃ¹Ġ":7949,"ĠjÇĲnĠ":7950,"yuÇİnĠ":7951,"ĠbÃ¹ĠfÃ¨n":7952,"zhÄĽngĠ":7953,"ĠgÅįngĠchÃ©ngĠ":7954,"wÃ¡nĠchÃ©ngĠ":7955,"dÄģnĠwÃ¨iĠ":7956,"kÄĽĠnÃ©ngĠ":7957,"ĠzhÇĲĠ":7958,"ĠwÇĶĠ":7959,"yÄ«ĠwÃ¨iĠ":7960,"ĠzÃ©Ġ":7961,"1ĠrÃ¬Ġ":7962,"xiÃ¨Ġ":7963,"ĠzÇĴngĠ":7964,"suÇĴĠyÇĴuĠ":7965,"zhÃ¬ĠdeĠ":7966,"wÃ©nĠhuÃłĠ":7967,"ĠchÃ©ngĠyuÃ¡nĠ":7968,"ĠdeĠchÃ©ngĠ":7969,"gÄĽiĠ":7970,"lÇļĠ":7971,"ĠbÄģĠ":7972,"ĠtÅįngĠ":7973,"yuÃ¡nĠdeĠ":7974,"yÅįngĠyÇĴuĠ":7975,"cÃºnĠzÃłiĠ":7976,"Ã¨rĠshÃŃĠ":7977,"bÄĽiĠbÃ¹Ġ":7978,"liÃ¡nĠhÃ©Ġ":7979,"ĠxÃ¬Ġ":7980,"hÃ²uĠdeĠ":7981,"niÇĶĠ":7982,"ĠshÃ¬ĠzhÅįngĠ":7983,"zhÃ¨ngĠfÇĶ":7984,"yÃ³uĠyÃºĠ":7985,"guÃ³ĠjiÄģĠ":7986,"duÃ¬ĠyÃºĠ":7987,"ĠniÃ¡nĠzhÃ¬Ġ":7988,"fÄģĠxÃŃngĠ":7989,"yÃ¬ĠdeĠ":7990,"jÃ¹ĠyÇĴuĠ":7991,"ĠzhÇĲ":7992,"ĠjiÃłnĠzhÃ¹Ġ":7993,"bÇĲĠsÃłiĠ":7994,"ĠbÃ¬ngĠzÃłiĠ":7995,"ĠdÃłoĠleĠ":7996,"xÄ«nĠdeĠ":7997,"ÅįuĠ":7998,"sÄ«ĠdeĠ":7999}