#version: 0.2
n g
a n
s h
z h
j i
a ng
Ġ Ġ
o ng
x i
a o
a i
d e
e i
sh i
y u
o u
y i
e n
c h
i an
u o
e ng
l i
ĠĠ Ġ
ã Ģ
i ng
u i
w ei
u an
zh i
q i
n ian
zh ong
y ou
r en
u n
z ai
d i
g uo
ãĢ ģ
h e
b u
e r
g ong
xi ng
ch eng
d a
zh u
h u
yu an
s i
ji an
yu e
g e
f u
xi an
u e
k e
w u
ch u
sh u
sh eng
ji e
ji a
b i
d ao
z i
b ei
h ui
f a
xi ang
t i
zh eng
m i
t a
ji n
q u
2 0
t ong
r i
j u
ji ng
m ing
l e
h ou
sh ang
sh ou
d ong
c i
f ang
1 9
hu a
yi n
x ue
g uan
zh an
y e
yi ng
z uo
zh e
y an
m ei
ji ao
g u
ch ang
xi n
d ui
l u
b ing
b ao
f en
d an
h uo
j un
ji ang
d u
xi ao
d ian
y ong
q ian
sh e
t ai
xi a
m u
w en
g ai
zh ang
li ang
y a
r u
d ai
h ai
n an
zh ou
z u
w ang
l ai
b an
ji u
d ang
q ing
p ing
sh en
ãĢ ĭ
ãĢ Ĭ
w an
l ian
li ng
l uo
Â ·
mi n
q uan
p i
n i
b o
d uo
t e
b en
g ao
bi ao
s uo
l a
m a
k ai
b a
xi e
x u
b ian
de ng
y ao
y ang
m ian
zh en
d ing
qi u
z ui
s ai
li u
f an
x uan
f ei
s an
sh an
ch e
z ong
m en
ãĢ Į
ãĢ į
t u
t ian
h ao
s u
l ei
n ei
yu n
20 1
l an
f eng
m o
n a
z e
l v
h an
k ou
w ai
n eng
li n
ch uan
ch i
j ue
b ai
p ai
20 0
k u
c ai
z ao
t ing
zh uan
g ang
li e
gu ang
g ui
l un
s ui
p u
c eng
k ong
sh ui
1 0
ch ao
zhu ang
ch a
d ou
c an
t ou
r an
s e
d uan
c un
h uan
c ong
pi n
c e
ch an
x un
g ou
0 0
n v
zh ao
g an
ch ong
sh a
t an
1 8
qi n
k a
m eng
qi ang
hu ang
xi u
1 2
ti ao
m an
sh ao
k uo
l ong
p ian
sh uo
t uan
t ang
r ong
g eng
20 2
ch en
t ui
g en
q ue
ti e
1 1
qi e
w o
p o
p ei
h ang
h ong
19 9
b ang
li ao
chu ang
bi e
r e
t uo
t ao
s ong
w a
m ai
h a
1 5
p an
d un
di ao
qi ao
s a
m ao
l ang
k an
k ang
â Ģ
o r
l ao
z eng
1 6
19 8
k ao
xi ong
1 7
o n
n uo
mi ao
r ang
ku ang
h en
s uan
1 4
3 0
zh un
1 3
19 4
c ao
h un
q un
n ong
19 7
h eng
shu ang
l ou
g ei
ku ai
pi ao
zh a
h ei
ni u
19 5
s en
bi n
r eng
z ou
19 6
ch un
k uan
2 5
âĢ Ķ
r ui
s un
p ao
n ing
f or
p a
c ang
m ou
2 4
p eng
hu ai
2 1
19 3
2 3
mu la
for mula
2 8
z an
r uo
i n
2 2
ch ou
zh ui
a r
m e
2 6
5 0
20 20
2 7
n ai
n u
ï ¼
2 9
sh un
201 0
z a
00 0
lv e
zh ai
20 19
n e
r o
j uan
s t
r a
c ui
k un
201 6
l uan
201 8
c uo
202 1
z ang
201 4
shu ai
201 1
201 5
201 7
201 2
4 0
201 3
n ao
202 2
di e
r uan
k ui
l t
r ou
c u
s ang
200 9
200 8
ã ĥ
6 0
ni ao
a l
r ao
ch ai
10 0
zh uo
202 3
g t
s ou
19 0
3 1
k en
200 7
200 1
t eng
p ang
f ou
c o
f o
gu a
200 0
8 0
200 6
202 4
ã ģ
200 5
z un
ti on
ku a
t he
3 5
7 0
ni e
l o
o f
9 0
l eng
ï¼ į
ã Ĥ
a m
t un
t er
mi e
200 4
t h
t o
4 5
4 8
m ang
202 5
v e
g a
ãĢ ī
ãĢ Ī
3 6
3 8
200 3
3 7
M a
ch ui
p en
l l
18 9
I N
200 2
k eng
T C
d o
3 4
7 5
âĢ ĵ
C o
4 6
c a
199 0
âĢ ¦
c k
3 9
. .
b e
6 5
3 2
S T
4 7
U TC
199 9
199 8
198 0
18 8
5 00
3 3
I n
6 4
s s
T he
v i
S E
5 5
199 7
R e
h i
4 9
I I
e l
6 8
e t
4 4
199 6
o o
qi ong
199 4
g un
b r
gu ai
199 2
199 5
M i
6 7
an d
s ao
e s
199 1
197 0
5 8
195 0
3 00
199 3
18 7
194 9
a t
A T
p e
196 0
4 2
194 5
L i
v er
qi a
198 8
t y
198 9
6 9
R o
i s
r un
SE E
ni ang
IN SEE
h o
5 9
4 3
6 6
5 7
198 5
9 9
S A
ãĢ İ
ãĢ ı
c t
198 4
4 1
8 8
198 6
w i
o l
w s
T V
r y
15 0
M e
n d
4 00
198 7
7 8
198 2
5 6
b eng
V i
P a
t s
198 3
am p
N A
D e
C D
g h
f i
w eng
b er
7 7
W in
p er
z uan
S ta
7 9
O S
W i
Â °
ï ½
de r
18 0
B C
5 4
197 9
6 1
19 20
a s
M o
s eng
9 8
5 2
Y ou
197 8
n o
6 2
5 3
l y
shu a
L a
ï½ ŀ
B A
194 6
C O
5 1
195 8
g i
J o
198 1
197 2
194 8
L e
t w
A M
6 3
A R
c tion
194 1
B S
G a
19 30
D a
P ro
T e
7 6
han s
194 0
193 7
197 6
194 4
J a
8 9
u s
D i
Win do
197 5
ï¼ ı
196 8
h k
c on
F i
u m
S i
10 00
Windo ws
9 5
8 7
na l
M ar
196 6
r d
8 5
N e
R a
k i
6 00
1 20
194 7
S e
A C
195 6
196 4
B e
194 2
Ã ©
195 5
195 2
I S
a d
193 9
193 8
7 2
u r
7 4
C a
v a
197 3
197 4
195 4
A r
A l
E D
19 00
- -
A P
194 3
T o
197 7
l d
197 1
c en
la y
196 7
B a
I C
8 00
P o
L o
E R
zhu a
s ta
8 6
195 9
B o
t t
196 5
J R
196 9
F a
ãĥ »
Ã Ĺ
I D
B i
s on
193 6
16 0
9 7
195 3
S a
M A
196 2
196 1
n en
N a
â Ķ
S o
193 5
co m
H o
ti c
9 6
O N
ï¼ ħ
195 1
S t
195 7
196 3
T u
âĶ Ģ
f e
s o
men t
8 4
H i
202 6
8 2
D o
m er
R i
7 3
n t
9 4
9 2
K i
H a
n ang
on e
I P
A N
l s
193 3
193 1
le s
7 1
n uan
Co m
8 3
9 3
te d
S u
8 1
T i
M u
19 18
N i
H D
U ni
19 28
p p
193 2
C ha
W e
y s
M V
S S
1 10
I T
19 12
N o
19 29
19 27
193 4
c n
7 00
g o
z ei
gh t
st er
25 0
9 1
r t
l li
19 24
ri s
.. .
19 19
nv e
1 30
P i
19 25
G i
P S
b y
e d
me s
A n
P C
14 0
A S
P lay
19 14
k m
D V
ti o
You Tu
S M
b le
g ra
k o
19 11
C on
C h
l la
19 26
l le
G e
P ar
i d
T a
19 22
L in
m p
19 17
H e
K a
E T
N BA
w n
I V
E N
19 23
19 21
sh ai
G oo
ch uo
17 0
à ¸
E C
M S
a li
A L
p h
se ction
YouTu be
E P
B L
19 13
C ar
B u
z en
H K
w e
h n
m m
v en
han t
â Ĩ
190 9
si on
In ter
c ro
M P
A I
W or
P e
d s
U S
p ro
DV D
o k
3 000
E n
19 10
D S
R O
c ou
S te
si s
1 12
G o
r k
A K
R E
19 16
W a
li a
ãĥ ¼
Sta tion
F or
N et
f f
Î ±
of t
in e
de n
l or
re a
tio nal
g n
tu re
g le
C P
U N
â Ī
ar d
19 15
g in
190 5
p s
F C
c al
v o
di a
M y
C N
â Ħ
âĨ Ĵ
ou r
er s
190 1
en t
A u
D NA
E x
âĢ §
9 00
en d
H R
di ce
. &
the r
ta l
C H
T A
T O
190 6
190 4
A V
te s
M O
ji ong
Jo hn
m y
er i
co dice
M an
âĦ ĥ
d y
Play Station
C hi
0 5
C C
ti ve
di u
A nd
190 7
di o
190 8
Goo gle
A G
C i
E ST
M I
S O
L E
si c
re e
B O
in t
wi t
B BC
S ch
A D
I G
lan d
II I
c ri
t on
15 00
5 000
c y
rou nd
w er
I ST
m s
r on
M E
C R
u l
3 D
j e
I A
le y
10 5
a u
Ð °
ri a
10 1
190 3
t or
G B
v an
0 9
T E
L u
190 2
B D
N C
P ri
F e
x t
3 50
p ou
Ã ¡
SA O
de s
D C
j a
Î ²
c ke
B 1900
bo ok
ha t
E S
al l
B M
ï¼ İ
ãĥ ³
R u
n er
189 8
re s
0 6
1 18
o p
ãģ ®
3 60
D R
Ne w
0 1
D A
H u
O pen
189 5
g er
12 5
S ho
H O
M C
S an
AT P
Mi cro
ct or
Ð ¾
10 8
f t
c or
o s
N G
K e
c lu
g y
gra m
p ri
wa rd
st y
I F
C u
F ran
O ne
ne t
s oft
k er
p t
âĪ Ĵ
0 7
0 8
2 30
Fa ce
10 4
pa ce
ls pan
C or
P er
B ar
Wor ld
A pp
ED T
IST AT
c uan
Lo ve
K o
à ¤
H ar
N O
S tu
189 6
L L
u x
10 9
D P
la s
A A
f li
R I
J u
p ha
S er
lu s
lin e
R T
t ri
S P
E X
B 48
10 6
18 90
r ai
s ti
mo n
C ST
M L
o d
un i
CD T
ber t
J e
r s
ru s
re d
D O
P u
k y
H E
C ou
a tion
M on
0 4
4 000
11 5
1 200
M 1
P re
0 3
l er
G P
de l
C E
Ä ģ
Li ve
be gin
188 9
oo l
Da vi
wi th
ar a
189 9
co lspan
tai n
ba ck
187 1
R S
st o
Face book
E d
S ha
Micro soft
mi c
te m
âĢ ĭ
24 0
16 00
L O
T ri
t en
ti n
B E
lo w
10 2
bo x
clu de
A d
T T
189 7
S ou
s er
N H
E E
D u
ce s
P P
11 7
S C
v al
0 2
po r
c m
Ma c
sty le
C he
r st
10 3
AK B48
D an
M D
N or
P h
10 7
ra l
H er
O n
p re
r ing
A s
a re
Wi lli
te l
Lin ux
li s
O ri
w w
D is
sh uan
g ue
ma s
4 50
B er
V ID
12 7
Mu sic
I s
A i
G re
c er
Ã ¼
tu s
V o
t ra
12 8
fli x
C L
Net flix
B ro
y o
189 4
Ga me
2 20
C an
G ra
ni n
re f
Ð ½
Willi am
B ri
I L
ali gn
S H
b li
or y
O r
T wit
18 80
Re d
ol d
Ã Ń
R NA
13 6
P G
Ð ¸
ãģ Ħ
ro m
T R
Te am
18 00
ãĤ ¹
Uni ver
g round
i a
188 5
l en
11 4
ãĤ ĵ
H z
co lor
G en
T y
11 6
28 0
U R
p le
Ð µ
11 3
188 6
ei n
ãĤ ¤
T S
P O
189 3
la r
e x
r n
y n
M c
na me
11 1
S L
ã Ħ
Su per
S he
st ra
A ll
G u
ci al
la ss
âĢ »
Davi d
13 5
je ct
A c
26 0
C en
E u
l f
18 60
po rt
ha m
Ge or
ch o
na tional
Cha r
U n
W TA
lv er
d ge
wo rk
H C
T h
t ro
Sch ool
B an
k s
ss o
t ch
ti s
188 8
M or
q ui
te xt
S D
Ã ³
- .
U A
rou p
ll y
ca tion
on y
back ground
Me ta
ro id
a c
mer i
T ra
12 9
G O
S to
di s
18 70
G N
ï ¹
re am
188 7
Sho w
Q u
c le
18 68
6 000
Ã ¶
Ñ Ģ
188 3
N F
V A
ma r
V er
da y
3 20
X box
C S
wa s
A ng
N HK
T ho
A F
F o
Twit ter
D D
l yin
on lyin
onlyin clude
+ +
K P
d on
18 64
âĢ ¢
Gi r
I ON
188 4
1 19
B la
R C
U E
ai n
mi u
12 2
V a
25 00
189 2
2 10
A 1
cen ter
cke t
15 5
IS O
â ħ
14 5
st ri
189 1
6 50
wa y
And roid
N S
C lu
ãĢ ķ
O R
f fi
h tt
m ber
ãĢ Ķ
18 50
F u
P hi
a ge
m b
w in
x y
C y
K u
k ing
Inter national
si a
18 67
lo gy
C e
I M
ãĥ Ī
187 9
Sta r
ri e
Ja mes
En ter
c c
ll er
3 80
A B
U P
ne y
E ng
187 6
S pe
W ar
n y
Stu dio
z o
Geor ge
A b
A ni
18 75
18 61
27 0
Univer si
Ga mes
B ra
I R
12 6
N T
Ã ¨
ti me
ar t
E s
P or
NG C
st ru
ãĥ «
187 3
H en
M G
p hi
er o
12 3
ãĥ ©
P V
n s
B en
D ra
H T
Co lle
G roup
P an
c ar
m pi
ran s
S un
i t
u t
16 8
cu s
CO VID
B lo
F M
M B
S ys
ou s
se d
18 65
Clu b
A O
A meri
P L
he r
i m
12 1
D E
D on
t hat
Ai r
Cen ter
17 5
ar y
ãģ Ĩ
We b
H 2
Y P
f rom
Ã ¤
14 00
MA X
cri tic
A le
t z
13 8
2 28
H an
T P
18 48
18 62
3 30
12 4
ãĤ ¢
188 1
188 2
7 37
Le a
A li
U C
h y
187 8
5 50
V e
sa u
b ri
bi t
187 2
E l
L C
In sta
M in
ra tion
IN K
Meta critic
el d
Ori con
S ai
W hi
s co
15 6
B oo
M TV
s p
16 5
L ED
18 40
IV E
Y a
c re
k in
7 50
ãĥ ĥ
13 00
ãģ Ĺ
H y
13 7
Mi cha
Mar k
7 000
H el
er a
D OS
S Q
U B
22 9
I U
G DP
K ing
O K
Ñ ģ
ty pe
G ran
ni c
Hi gh
T ai
a st
15 2
TV B
Ch ris
15 9
187 7
Ro bert
C han
p y
s y
t le
â Ĺ
ci en
18 66
H ou
i OS
o t
Ð »
Pro du
S K
S hi
si lver
18 69
âĢ ²
th i
T HE
U p
Da y
C ro
D M
E le
St re
Pe ter
I t
N ET
t ter
F ree
J an
Ð º
13 9
Ph one
Insta gram
A t
B I
S ur
p la
BL AC
Ty pe
Ð ²
or a
App le
D J
S y
W al
C G
W E
co de
ãĤ ¯
Micha el
D F
S h
ï ¸
1 100
ci a
15 8
ne ss
Bi g
2 25
P la
P at
S am
Y e
v in
ni a
30 5
13 3
IN E
Pa ul
Te ch
Na tional
t te
ou n
ni s
ãĥ ª
A ward
R A
Y O
13 2
Ste am
20 5
18 63
ra y
I E
pan y
Me dia
tain ment
2 15
B r
Universi ty
F O
L ou
V al
en sis
tion s
Bi ll
ph y
C A
F 1
K BS
bu r
14 8
13 1
S mi
k g
16 6
187 4
X X
de o
18 58
pa r
E F
s or
ri n
ru m
C ho
c lo
14 7
H ol
min i
F ri
25 6
ãģ ĭ
M 2
18 30
C BS
U T
g on
l m
18 51
Le e
B N
G A
H I
U I
li p
ri c
19 2
Par k
t d
Î ¼
8 000
M er
no w
Enter tainment
3 10
14 3
hi s
M k
18 55
Ci ty
Bla ck
Wi l
Po wer
C hu
E M
I X
S pace
g ar
w hi
G M
R AM
ð «
18 5
18 59
th o
ST AR
Ja ck
Char les
13 4
Ja va
Di re
A BC
G ar
T er
s pe
shi p
18 54
14 6
30 1
17 00
in ter
Vi u
sti tu
3 70
F la
K en
18 57
Al pha
L an
S tan
ou t
lo s
D ar
Ø §
29 0
ãģ ª
Li fe
ï¸ °
v s
Î ³
2 14
4 20
C am
Ñ Ĥ
Re cor
Com pany
F un
Î ¿
ãĢ ľ
18 56
18 53
Pro ject
D ream
F an
S en
di um
ãģ Ł
fi rst
Ti me
Tho mas
Hou se
P en
14 4
Sai nt
F A
O VA
P y
S pi
C ent
V O
e k
fa ce
A 2
I O
d d
v on
16 7
Ja pan
Stre et
3 A
C la
H S
S BS
ren ce
bi li
ri st
cha rd
18 41
ver y
Eu ro
L P
P lan
a k
i e
r p
ba l
et y
Ale x
3 40
P M
b un
i f
l ue
BLAC KP
S co
T al
d ra
ch er
20 8
se s
18 15
17 8
So ci
CP U
BLACKP INK
2 23
s pace
8 50
L GB
S ing
S po
e w
t ta
ce ss
oo d
ww w
I BM
z er
mi s
Ar t
por ts
B at
B ur
S F
20 7
ma tion
wo r
17 1
23 5
ãģ ¨
ãģ ¾
L IVE
S U
S oft
20 3
B 2
F er
V E
SQ L
t ha
18 46
16 4
Colle ge
A m
c ra
15 7
lt er
vi ce
ber g
Ameri can
B R
L T
N E
P ol
14 1
for d
IC E
A ma
B 1
P E
nv i
17 6
IN G
Gir ls
A sso
G er
L S
s te
Â ²
tu rn
pu bli
se lf
18 12
18 45
18 44
st ro
Ro ad
no t
O ffi
W o
d ro
ba ll
23 1
ar ch
c ture
c lass
l on
es ti
Ro ck
C l
H F
L td
M 3
p lay
le a
bo ard
ãĤ Ĭ
wit ch
LGB T
l lo
s g
he re
20 9
ãģ į
NA SA
Te le
GN U
L A
V an
g s
ta tion
Jo se
we ll
T our
IU CN
Smi th
2 16
P N
R ou
Î º
18 49
15 3
C T
N BC
20 4
23 8
ne s
Goo d
Produ ction
B B
C al
G T
b ra
de d
Vi deo
O 2
e p
f er
Ï ĥ
mi ted
pi e
ro w
H all
P R
da e
20 6
th y
Pa d
Ga la
Bo y
eri es
4 60
A f
T or
se t
18 14
ve l
der s
sau rus
2 18
E li
T ur
wo od
Je an
S I
T en
ne l
vi sion
IG N
A ct
L D
P A
f ra
â ĸ
Ri chard
F F
K ar
W S
o m
Ï Ģ
ta r
18 47
15 4
ve d
5 80
M BC
si de
ma c
che m
18 43
Be st
pt r
Sys tem
4 30
S ky
Z i
ri ch
ci s
17 7
40 1
ll s
4 10
F le
si n
man n
ãĤ ·
NF L
Viu TV
S witch
da r
16 3
AM D
Di gi
AP I
Par a
I CO
S ma
da ta
men ts
18 52
16 2
th on
Ma x
V II
ce d
18 20
ãģ ı
We st
A g
G lo
T un
V ol
a ch
z on
14 2
23 4
sta r
cri pt
V R
s ys
si gn
ma x
17 2
ãģ Ĭ
ãģ ķ
Co re
Recor ds
6 40
M et
l ti
16 9
35 00
th is
Li mited
B lue
K C
R an
T 1
c to
Â ±
18 39
23 2
Cou n
4 80
C M
17 9
ca de
In c
Gre en
u se
20 30
ri o
or g
14 9
36 5
In stitu
La u
lu m
tu be
18 21
wa r
ãĥ Ń
ãģ ¿
Vi r
Uni code
RO M
CC TV
3 90
B U
bu s
ti a
30 6
22 2
60 1
o na
17 3
Bo b
E A
F ar
G ui
J i
P F
Y u
Z e
k h
r ue
ba r
wa re
24 7
oo t
He a
Pri n
mpi on
E r
K K
M r
V en
X P
g na
j o
17 90
um p
2 11
5 60
O H
S N
z y
ke t
ci ation
or n
ne w
ãĥ ¬
B F
P ra
V M
t v
of f
ve lo
M U
P D
R en
S qu
S cien
18 3
17 95
30 3
For ce
âĹ ĭ
P H
T an
23 3
ãģ ¡
180 1
2 13
T rans
ta ry
ãĥ ŀ
He art
US B
M en
b ro
17 4
Po p
tt le
MV P
B el
C K
o per
Ï ģ
á Ģ
ì Ŀ
ke y
18 6
18 38
or s
Fi re
Sto re
5 20
C ri
D DR
s tan
mi ly
ha r
ck er
Ch rist
6 10
L on
a b
u p
16 1
50 1
ãĥ ī
htt p
2 24
C F
e m
i Pad
t to
bi le
su b
18 13
ãĤ ī
Ma g
Da ta
G E
Ï Ħ
ri ty
mo r
18 2
18 32
18 42
25 5
lo gi
as on
Soci ety
A E
d th
i Phone
su r
18 4
tie s
ãĤ «
do m
Mi ni
7 20
K I
Q ue
S cript
e le
g re
â ĺ
la te
18 36
17 93
ãĤ ª
Co mic
In tel
Ki Ha
Mu se
bun tu
2 21
H BO
M T
P in
f fe
mu s
18 33
17 89
cen t
Ho me
tic s
Ri ver
htt ps
Dire ct
Asso ciation
Gala xy
B al
D r
D AM
M 4
Q Q
a e
se arch
18 35
15 1
ar s
ãĤ ¿
wi dth
per i
tic al
Lea gue
2 19
2 17
3 38
F T
J YP
Q ui
R ai
S R
U buntu
W A
m g
ð Ĳ
fu l
âĢ °
do wn
180 4
ON E
CE O
4 70
7 40
8 30
B ui
f un
s si
v ing
ne d
Mar tin
Ban k
Hen ry
M ai
Y G
Ï Ĥ
Ð ´
â ī
li ght
bo r
ma t
Ma ster
To p
Cha mpion
D y
E ar
L INE
M W
Î ½
ma l
be l
AR T
Ne ws
Chi na
2 12
D K
D ou
E m
S p
Ñ ĥ
un ch
18 28
co re
ãĤ ³
AP AN
Ho t
Par t
Net work
Gen er
F R
F lo
L ong
d or
ci l
19 1
re w
30 2
You ng
Bill board
Offi ce
6 80
A da
E pi
F ra
G old
M Hz
P I
S ong
S NH
n m
p lo
Î ¹
ta ble
ri es
18 1
16 24
23 7
ãĤ ĭ
Ni ght
No te
Jose ph
SNH 48
F DA
J APAN
P K
à ¹
á ¹
pu r
16 44
30 8
Co de
CO M
4 40
C ra
D B
G R
z z
li st
ti al
le d
le ss
10 000
18 37
pa rt
23 9
st on
180 6
Si r
Ra dio
Uni ted
mac OS
C V
U 21
V is
s ing
Ã ¢
Ã ®
Î ´
à ¥
â ĳ
de f
su s
18 19
29 9
34 6
Re gi
HT ML
7 80
E ast
c s
un d
18 25
24 5
23 6
50 5
27 9
ãģ «
Ma ri
5 40
E V
G am
H 5
P al
m uni
rp m
3 25
Y o
t re
ri ght
00 1
17 76
ãģ ĺ
Chi ld
NC AA
Ser ver
Digi tal
F AT
K ong
te a
18 18
po n
mai n
pa ra
26 5
ãģ ĵ
es ta
Hel lo
G S
L ang
ai r
te lli
18 24
18 31
202 7
re y
Do wn
D ri
O b
R PG
p ho
s pi
Ã §
Ã ´
li o
si o
ri ck
la tion
38 6
Ma t
Ser vice
âħ ¡
Tech no
A na
A do
U M
n on
ren t
ge s
te mp
BS D
Py thon
1 A
C W
D en
X ML
Î »
sh o
27 5
27 00
You tube
Ed ward
Whi te
3 12
5 G
7 30
D es
H L
O M
T BS
en a
ha s
me d
26 4
29 5
180 2
Fi rst
BL UE
bur g
publi c
Institu te
6 30
E nvi
G ro
T M
o ri
y er
Ã º
Ã ł
su al
18 22
28 8
ãĤ ¸
Pol y
J T
O ut
S um
Ù Ħ
mo nd
24 4
ãĥ ķ
va te
To m
IT F
2 D
O T
i se
v ar
x el
re turn
24 9
90 3
ve s
Ca p
Squ are
H ong
P ID
S eries
T his
Z a
Ä «
Å ¡
ya l
tu m
tu al
24 3
28 00
Ra p
Cu p
D el
F X
J en
J ump
N P
_ _
s ch
si g
chu ai
18 10
16 22
17 92
30 7
st s
70 1
SA RS
Fran k
PO P
Gran d
9 60
K in
S HO
V V
s ca
Î µ
di t
tu r
16 50
80 1
Pa la
Ch ro
MI UI
Cou nt
Tun es
2 100
C ur
H or
c ci
Ð ¼
18 26
ha ve
15 73
st ory
Ste p
Un der
7 47
J our
y on
bu t
te ms
18 34
30 4
22 6
27 8
ãĥ Ł
ãĤ Ĥ
ter i
37 5
180 5
Di e
AC T
AP P
AI R
Au to
Nor th
B ran
H A
K an
c ing
i ce
pu s
00 7
29 6
29 8
38 5
AT A
Blo ck
3 35
5 90
9 000
B or
C U
S ports
W N
m l
r ei
Ï ī
â ĭ
le t
ding s
ha d
17 80
22 7
ãĥ ł
You r
IF A
3 15
L es
O s
P ho
R ei
i i
i Tunes
p H
Â »
gai n
25 1
27 7
Re al
gh ts
CN N
2 A
O p
O ver
R FC
di n
di tion
zi ne
ma d
ma p
mo re
15 82
17 99
25 9
24 6
24 8
180 9
Dan i
Eng ine
5 30
C 2
C as
D LC
E i
Â «
er e
18 23
16 21
27 2
40 5
vi lle
AT ION
Sta te
180 3
Inter net
EE E
val ue
pre ss
3 34
6 20
7 70
B ou
C lo
C lass
G ol
H al
S G
W at
a pp
b re
r ch
16 25
28 4
28 5
in o
lt on
ãĤ µ
Mi t
con d
3 11
8 80
C le
S ony
U r
V I
v y
Ã ī
á »
25 8
for m
27 6
ãģ Į
Wi i
Mo on
Mo bile
Ba y
G ri
K O
O per
T ru
X T
t han
à ¦
ge t
or k
25 3
35 7
ter s
Ma ria
Ra y
Pu bli
6 60
B on
C li
I m
N M
S V
U L
e e
u ng
Ð ¹
ue l
ãĥ Ĺ
ST A
vi a
Al f
Do t
IP v
Ni co
Uni x
Sou th
Ang e
Boo k
Euro pe
5 70
G et
U 19
W F
b lo
h r
Ð ³
18 27
15 70
ãģ Ĥ
ga zine
ck s
ss on
vi ew
Pi er
3 14
3 DS
6 90
B BS
C 6
D SM
I EEE
M ou
M al
S B
W WE
t rans
ta s
18 17
16 40
16 36
rang e
26 8
40 2
40 4
ãģ ¯
Sou nd
whi ch
4 G
A X
T W
f y
f ri
g al
de i
17 75
25 4
46 5
at or
3 23
G al
H P
O P
T re
de a
ti na
lu tion
17 50
30 9
vi s
No w
3 29
6 70
J on
N u
P lus
shi ng
tu de
18 16
ka r
po li
za tion
ãĥ ģ
ãĤ £
45 00
fi eld
CO N
Be au
Po li
TO P
pri nt
Cu be
. -
7 10
9 10
9 50
D I
H am
M K
a p
o ther
la ris
lou d
24 1
23 00
cu r
Me di
Fi lm
IS BN
shi Ġ
de Ġ
Ġ shiĠ
Ġ deĠ
yi Ġ
Ġ yiĠ
ji Ġ
wei Ġ
zhi Ġ
yu Ġ
Ġ weiĠ
Ġ jiĠ
Ġ nian
Ġ zhiĠ
Ġ yuĠ
Ġ li
Ġnian Ġ
zhong Ġ
Ġli Ġ
zai Ġ
ren Ġ
you Ġ
guo Ġ
he Ġ
qi Ġ
bu Ġ
di Ġ
Ġ youĠ
Ġ zaiĠ
Ġ renĠ
Ġ yue
Ġ zhongĠ
Ġ heĠ
da Ġ
xi Ġ
xing Ġ
yuan Ġ
gong Ġ
er Ġ
Ġyue Ġ
fu Ġ
si Ġ
ge Ġ
jian Ġ
Ġ guoĠ
wu Ġ
jia Ġ
Ġ buĠ
jie Ġ
ke Ġ
cheng Ġ
zhu Ġ
sheng Ġ
xiang Ġ
xian Ġ
dao Ġ
bei Ġ
zi Ġ
Ġ qiĠ
fa Ġ
hui Ġ
chu Ġ
jin Ġ
Ġ diĠ
shu Ġ
Ġ erĠ
ri Ġ
Ġ xiĠ
ju Ġ
qu Ġ
zheng Ġ
hou Ġ
shou Ġ
ming Ġ
shang Ġ
dong Ġ
jing Ġ
ta Ġ
le Ġ
xue Ġ
fang Ġ
yan Ġ
zhan Ġ
ci Ġ
bao Ġ
hua Ġ
ying Ġ
ye Ġ
tong Ġ
zuo Ġ
zhe Ġ
guan Ġ
Ġ daĠ
Ġ riĠ
yin Ġ
chang Ġ
xin Ġ
jiao Ġ
lu Ġ
dui Ġ
wen Ġ
ti Ġ
fen Ġ
qian Ġ
tai Ġ
jiang Ġ
xiao Ġ
bing Ġ
Ġ siĠ
jun Ġ
dian Ġ
zhang Ġ
ping Ġ
xia Ġ
du Ġ
huo Ġ
yong Ġ
dan Ġ
Ġ keĠ
Ġ jiaĠ
hai Ġ
gai Ġ
wang Ġ
dai Ġ
nan Ġ
ru Ġ
qing Ġ
mu Ġ
bi Ġ
ban Ġ
liang Ġ
lai Ġ
mei Ġ
ya Ġ
shen Ġ
Ġ fuĠ
Ġ xingĠ
zu Ġ
wan Ġ
she Ġ
lian Ġ
min Ġ
mi Ġ
zhou Ġ
jiu Ġ
qiu Ġ
an Ġ
zhen Ġ
ben Ġ
xu Ġ
gao Ġ
Ġ taĠ
bo Ġ
xie Ġ
te Ġ
bian Ġ
ling Ġ
luo Ġ
yao Ġ
deng Ġ
duo Ġ
yang Ġ
quan Ġ
che Ġ
suo Ġ
zui Ġ
tian Ġ
gu Ġ
biao Ġ
fan Ġ
hu Ġ
yun Ġ
xuan Ġ
su Ġ
shan Ġ
fei Ġ
ding Ġ
liu Ġ
zong Ġ
sai Ġ
dang Ġ
ma Ġ
kai Ġ
ba Ġ
hao Ġ
ĠdeĠ yiĠ
Ġ bingĠ
Ġ daoĠ
feng Ġ
kou Ġ
tu Ġ
mian Ġ
men Ġ
nei Ġ
la Ġ
lei Ġ
san Ġ
cai Ġ
wai Ġ
chuan Ġ
jue Ġ
pai Ġ
chi Ġ
Ġ danĠ
Ġ jinĠ
Ġ beiĠ
Ġ gongĠ
Ġ jianĠ
guang Ġ
ĠshiĠ yiĠ
lan Ġ
ni Ġ
gui Ġ
bai Ġ
Ġ ziĠ
lin Ġ
ting Ġ
Ġ zheĠ
pu Ġ
Ġ xiangĠ
gang Ġ
lun Ġ
neng Ġ
na Ġ
han Ġ
lie Ġ
ze Ġ
Ġ zhuĠ
cheng ĠweiĠ
mo Ġ
Ġ yinĠ
Ġ geĠ
Ġ xianĠ
Ġ chuĠ
ĠshiĠ deĠ
mei ĠguoĠ
chan Ġ
shui Ġ
Ġ juĠ
Ġ chengĠ
ĠdeĠ shiĠ
Ġ jieĠ
Ġ gaiĠ
Ġ wuĠ
sui Ġ
xun Ġ
zhuan Ġ
Ġ baoĠ
Ġ pingĠ
lv Ġ
Ġ ta
ao Ġ
zhuang Ġ
li Ġ
tou Ġ
duan Ġ
ĠyiĠ jiĠ
se Ġ
huan Ġ
chong Ġ
ĠweiĠ yuĠ
ceng Ġ
e Ġ
pin Ġ
cong Ġ
cha Ġ
di ĠyiĠ
cun Ġ
dou Ġ
a Ġ
zao Ġ
Ġ houĠ
kong Ġ
zhao Ġ
gou Ġ
Ġ ciĠ
gan Ġ
sha Ġ
1 Ġ
qiang Ġ
ĠshiĠ jiĠ
chao Ġ
meng Ġ
Ġ yeĠ
kai ĠshiĠ
man Ġ
Ġ yuanĠ
Ġ faĠ
Ġ shengĠ
Ġ dan
tang Ġ
ce Ġ
ke ĠyiĠ
ai Ġ
kuo Ġ
ĠyiĠ geĠ
long Ġ
tan Ġ
tuan Ġ
Ġ mingĠ
ĠshiĠ weiĠ
gong ĠliĠ
ka Ġ
ĠzhongĠ guoĠ
Ġ tong
qin Ġ
tie Ġ
ĠshiĠ shiĠ
Ġ bing
zhengĠ fuĠ
shao Ġ
can Ġ
2 Ġ
pian Ġ
Ġ you
huo ĠdeĠ
mian ĠjiĠ
hang Ġ
hong Ġ
geng Ġ
Ġ huoĠ
ji ĠdeĠ
ĠshiĠ yongĠ
tiao Ġ
xiu Ġ
chen Ġ
shuo Ġ
pi Ġ
Ġ dongĠ
ren ĠweiĠ
ĠshiĠ jianĠ
tao Ġ
zhi ĠyiĠ
zhong ĠdeĠ
zheng ĠzhiĠ
huang Ġ
ran Ġ
ĠyiĠ zhiĠ
ĠshiĠ jieĠ
zhongĠ guoĠ
yue Ġ
chuang Ġ
Ġ ri
nv Ġ
qu ĠdeĠ
guo ĠjiĠ
yi ĠshiĠ
ĠpingĠ fangĠ
wo Ġ
renĠ kouĠ
xing ĠdeĠ
po Ġ
Ġ shouĠ
jinĠ xingĠ
Ġ haoĠ
Ġ miĠ
rong Ġ
Ġ suiĠ
mei ĠyouĠ
diao Ġ
liao Ġ
tuo Ġ
song Ġ
ou Ġ
Ġli ĠdeĠ
Ġli ĠshiĠ
nian Ġ
Ġ dang
ĠweiĠ yuanĠ
Ġ fenĠ
Ġ wanĠ
pei Ġ
ĠqiĠ zhongĠ
zuo ĠweiĠ
gongĠ siĠ
fa ĠguoĠ
biao ĠshiĠ
ĠĠĠ zaiĠ
yanĠ jiuĠ
Ġ er
Ġ shangĠ
zheng ĠshiĠ
Ġ haiĠ
Ġ yin
ĠdeĠ jiĠ
pan Ġ
Ġ meiĠ
tui Ġ
Ġ xinĠ
Ġ zhe
dian ĠshiĠ
yunĠ dongĠ
que Ġ
bang Ġ
qie Ġ
Ġ taiĠ
ĠdeĠ diĠ
cheng ĠshiĠ
zhi ĠshiĠ
Ġ jiangĠ
Ġ shuĠ
Ġ jingĠ
jian ĠdeĠ
ta ĠdeĠ
gong ĠheĠ
shu ĠyuĠ
she ĠjiĠ
Ġ qianĠ
lang Ġ
ĠrenĠ minĠ
dun Ġ
ĠrenĠ kouĠ
Ġ yingĠ
zhi ĠdeĠ
qiao Ġ
10 ĠyueĠ
12 ĠyueĠ
ĠdeĠ zhiĠ
3 Ġ
jing ĠjiĠ
dianĠ yingĠ
7 ĠyueĠ
Ġ xiaĠ
Ġ nanĠ
zu ĠzhiĠ
Ġ muĠ
9 ĠyueĠ
Ġ zhangĠ
8 ĠyueĠ
zhu ĠyiĠ
Ġ zuiĠ
3 ĠyueĠ
1 ĠyueĠ
mao Ġ
ĠshiĠ qiĠ
daiĠ biaoĠ
wa Ġ
riĠ benĠ
ying ĠguoĠ
5 ĠyueĠ
you ĠyiĠ
ji ĠshiĠ
kao Ġ
6 ĠyueĠ
guo ĠdeĠ
kan Ġ
4 ĠyueĠ
Ġ huiĠ
ĠshiĠ zhenĠ
hen Ġ
mai Ġ
xian ĠdeĠ
Ġ biĠ
wei ĠyiĠ
11 ĠyueĠ
cheĠ zhanĠ
jiao ĠyuĠ
Ġ tongĠ
gen ĠjuĠ
buĠ fenĠ
yi ĠdeĠ
re Ġ
daĠ xueĠ
yu ĠshiĠ
xiangĠ gangĠ
ming ĠweiĠ
xueĠ yuanĠ
ĠdeĠ guoĠ
ĠyiĠ yuanĠ
li ĠshiĠ
Ġ dengĠ
ĠdeĠyiĠ geĠ
ĠzhiĠ houĠ
Ġ ruĠ
ĠnianĠ 1ĠyueĠ
gen Ġ
dan ĠrenĠ
can ĠjiaĠ
ĠyiĠ weiĠ
cao Ġ
kang Ġ
sheĠ huiĠ
Ġ tiĠ
Ġ qingĠ
xian ĠshiĠ
ĠdiĠ quĠ
4 Ġ
sa Ġ
yingĠ xiangĠ
taiĠ wanĠ
shu ĠdeĠ
Ġ ran
Ġ yanĠ
Ġ xueĠ
Ġyou ĠyuĠ
shang ĠdeĠ
xing ĠshiĠ
ye ĠshiĠ
qi ĠshiĠ
ĠyinĠ ciĠ
formula Ġ
bie Ġ
guan ĠliĠ
lao Ġ
zeng Ġ
gongĠ zuoĠ
tong ĠguoĠ
le ĠyiĠ
Ġ xiaoĠ
ĠnianĠ 12ĠyueĠ
Ġ lingĠ
xingĠ zhengĠ
bu ĠdeĠ
gongĠheĠ guoĠ
5 Ġ
wei ĠshiĠ
ĠliĠ yaĠ
Ġnian ĠdeĠ
er ĠshiĠ
ren ĠdeĠ
zhun Ġ
zi ĠjiĠ
da ĠdeĠ
2 ĠyueĠ
xiong Ġ
Ġ liangĠ
ĠguoĠ jiaĠ
zui ĠzhongĠ
ĠnianĠ 3ĠyueĠ
hui ĠyiĠ
kuang Ġ
ĠĠĠ shengĠ
cheng ĠliĠ
nong Ġ
ĠpingĠfangĠ gongĠliĠ
luo ĠsiĠ
ku Ġ
ĠnianĠ 7ĠyueĠ
Ġ jiaoĠ
ĠnianĠ 10ĠyueĠ
Ġ wangĠ
chu ĠdeĠ
miao Ġ
faĠ xianĠ
Ġ zhanĠ
ha Ġ
qi ĠdeĠ
Ġ tianĠ
faĠ zhanĠ
ĠnianĠ 9ĠyueĠ
yuan ĠdeĠ
ĠshiĠ youĠ
ĠbaoĠ kuoĠ
ĠshiĠ zhiĠ
qiĠ taĠ
hei Ġ
ĠnianĠ 5ĠyueĠ
ĠqiĠ jianĠ
piao Ġ
suo ĠyouĠ
kuai Ġ
si ĠdeĠ
Ġ boĠ
ĠnianĠ 4ĠyueĠ
ĠnianĠ 6ĠyueĠ
ĠnianĠ 8ĠyueĠ
you ĠyuĠ
Ġ luoĠ
tieĠ luĠ
ĠdaĠ xueĠ
quan ĠguoĠ
ĠshiĠ zaiĠ
dao ĠzhiĠ
dao ĠdeĠ
tong ĠdeĠ
zhuĠ yaoĠ
cheng ĠdeĠ
can ĠyuĠ
lou Ġ
Ġ maĠ
Ġ zhengĠ
wenĠ huaĠ
Ġ huaĠ
shuang Ġ
nuo Ġ
Ġ duiĠ
Ġ luĠ
di ĠliĠ
ĠtaĠ menĠ
zhong ĠyiĠ
lian ĠheĠ
Ġ sui
di ĠdeĠ
ĠzhiĠ daoĠ
Ġ guĠ
Ġ dangĠ
ĠnianĠ 11ĠyueĠ
Ġtong ĠshiĠ
Ġ shenĠ
bu ĠshiĠ
ĠzhongĠ xinĠ
ĠĠĠ shiĠ
yin ĠyueĠ
Ġ jiuĠ
bei ĠbuĠ
shu ĠjiĠ
baoĠ kuoĠ
yong ĠyuĠ
sen Ġ
ĠĠĠ yiĠ
Ġ quanĠ
tiĠ gongĠ
Ġ zongĠ
Ġ zuoĠ
zai ĠyiĠ
xuan ĠbuĠ
guoĠ jiaĠ
ĠweiĠyuanĠ huiĠ
zuĠ qiuĠ
wenĠ tiĠ
Ġnian ĠzhiĠ
kuan Ġ
Ġyin ĠweiĠ
xueĠ xiaoĠ
sheng ĠyuĠ
ĠshiĠ wuĠ
jian ĠyuĠ
zi ĠyouĠ
qianĠ miĠ
gong ĠyouĠ
guan ĠxiĠ
fang ĠshiĠ
ĠweiĠ zhiĠ
ĠshiĠ zhongĠ
6 Ġ
hun Ġ
ĠnianĠ 2ĠyueĠ
Ġ xuĠ
biĠ saiĠ
hua ĠrenĠminĠ
ying ĠdeĠ
rang Ġ
chengĠ yuanĠ
jianĠ zhuĠ
en Ġ
huoĠ dongĠ
jian ĠliĠ
Ġ gai
heng Ġ
suan Ġ
yu ĠyiĠ
ĠĠĠ liĠshiĠ
ji ĠyiĠ
fen ĠweiĠ
Ġ changĠ
ĠdeĠ renĠ
she ĠyouĠ
ren ĠshiĠ
zuoĠ pinĠ
Ġ dianĠ
guanĠ junĠ
tong ĠshiĠ
Ġ benĠ
da ĠliĠ
Ġ chengĠweiĠ
ge ĠrenĠ
Ġ xian
ĠĠĠshengĠ pingĠ
Ġ jie
Ġ anĠ
zhuan ĠjiĠ
yu ĠdeĠ
ĠdiĠ erĠ
beiĠ jingĠ
ĠjiĠ huaĠ
ĠyouĠ xiĠ
jiu ĠshiĠ
xiao ĠshiĠ
Ġ liuĠ
huaĠrenĠminĠ gongĠheĠguoĠ
yin ĠweiĠ
Ġ baĠ
Ġta ĠdeĠ
men ĠdeĠ
Ġli ĠyuĠ
qun Ġ
ĠnianĠ daiĠ
gei Ġ
dui ĠyuĠ
xi ĠdeĠ
ming ĠdeĠ
Ġ aĠ
jun ĠshiĠ
Ġ congĠ
di ĠshiĠ
tong ĠyiĠ
diĠ erĠ
xin ĠdeĠ
qu ĠyuĠ
ĠbuĠ fenĠ
xueĠ jiaĠ
eĠ luoĠsiĠ
zou Ġ
taĠ menĠ
Ġ duoĠ
chun Ġ
wei ĠdeĠ
shouĠ daoĠ
min ĠguoĠ
hou ĠdeĠ
sheng ĠdeĠ
er ĠdeĠ
lai ĠdeĠ
fangĠ mianĠ
Ġ huĠ
zhengĠ fu
gong ĠjiĠ
faĠ shengĠ
Ġ gongĠliĠ
dan ĠweiĠ
Ġ fengĠ
xing ĠweiĠ
ĠshiĠ renĠ
ĠyiĠ jingĠ
yong ĠyouĠ
Ġ fanĠ
Ġ lianĠ
zhong ĠshiĠ
jin ĠshiĠ
ĠxiĠ tongĠ
jueĠ dingĠ
bu ĠyuĠ
Ġ quĠ
ĠzhongĠ yangĠ
ju ĠyouĠ
Ġ mianĠjiĠ
1 ĠriĠ
tong ĠzhiĠ
diĠ quĠ
niĠ yaĠ
liangĠ geĠ
Ġ guanĠ
qu ĠweiĠ
faĠ xingĠ
ĠriĠ benĠ
Ġ gaoĠ
Ġ feiĠ
Ġ suoĠ
Ġ wenĠ
you ĠdeĠ
chuĠ xianĠ
Ġ teĠ
sheng ĠjiĠ
zh Ġ
hua ĠdeĠ
ĠrenĠkouĠ miĠ
ci ĠshiĠ
qi ĠyuĠ
zi ĠzhiĠ
wu ĠdeĠ
laiĠ ziĠ
juĠ xingĠ
Ġta ĠzaiĠ
ling ĠyiĠ
jia ĠdeĠ
ĠjiĠ yuĠ
xian ĠzhiĠ
Ġ suo
ĠweiĠ jiĠ
mianĠjiĠ weiĠ
Ġ suĠ
hui ĠdeĠ
Ġ sanĠ
baoĠ huĠ
nan ĠbuĠ
du ĠliĠ
ĠpingĠfangĠ qianĠmiĠ
kong ĠzhiĠ
ĠshiĠ yuĠ
shuĠ juĠ
zongĠ tongĠ
jinĠ ruĠ
ĠshiĠweiĠ yuĠ
ĠliĠ ruĠ
renĠ wuĠ
qu ĠshiĠ
ke ĠliĠ
yaoĠ qiuĠ
mou Ġ
ĠĠĠ deĠ
Ġ woĠ
Ġ meiĠguoĠ
gt Ġ
Ġ gtĠ
gu ĠshiĠ
cheng ĠjiĠ
Ġran ĠerĠ
Ġ guangĠ
lt Ġ
Ġ wan
Ġ ru
xueĠ shengĠ
Ġ bianĠ
ĠĠĠ yuĠ
jin ĠdeĠ
Ġdan ĠshiĠ
Ġ caiĠ
minĠ zhuĠ
gong ĠshiĠ
wanĠ chengĠ
ĠyiĠ qiĠ
lieĠ cheĠ
you ĠjiĠ
keĠ nengĠ
Ġ ltĠ
ĠyiĠ buĠ
shen ĠzhiĠ
Ġbing ĠyuĠ
zha Ġ
ren ĠzhiĠ
pingĠ fangĠ
you ĠshiĠ
Ġ yongĠ
Ġbing ĠzaiĠ
ĠjiĠ shuĠ
chao ĠguoĠ
ti ĠyuĠ
yuan ĠshiĠ
cang Ġ
cun ĠzaiĠ
qianĠ wangĠ
Ġ 15
Ġ ceng
ke ĠdeĠ
ya ĠliĠ
dang ĠshiĠ
si ĠshiĠ
Ġ kaiĠ
xue ĠxiĠ
yong ĠdeĠ
ĠdeĠyiĠ ge
jing ĠguoĠ
nei ĠdeĠ
fa ĠbuĠ
Ġ shanĠ
zuo ĠdeĠ
ĠzhiĠ weiĠ
Ġ hanĠ
jian ĠyiĠ
guan ĠyuĠ
ĠĠĠ diĠ
wuĠ keĠ
wu ĠshiĠ
xiangĠ gang
zhu ĠrenĠ
ĠzhiĠ jianĠ
yinĠ duĠ
Ġ puĠ
zhan ĠshiĠ
zhanĠ zhengĠ
ĠqiĠ taĠ
guo ĠshiĠ
Ġ a
sun Ġ
pao Ġ
zhuĠ yao
zhou ĠdeĠ
shengĠ huoĠ
xuĠ duoĠ
jian ĠzhiĠ
ĠjiĠ weiĠ
fan ĠweiĠ
bin Ġ
ĠyiĠ shuĠ
ĠjiĠ qiĠ
ĠweiĠ erĠ
chengĠ gongĠ
han ĠguoĠ
ouĠ zhouĠ
zhuĠ xiĠ
lu ĠdeĠ
jieĠ shouĠ
qiuĠ duiĠ
ĠzhiĠ youĠ
Ġ shuĠyuĠ
Ġ zai
daiĠ biao
Ġ jin
ĠjiĠ zhongĠ
fuĠ wuĠ
zeng ĠjiaĠ
ĠbuĠ guoĠ
ban ĠdeĠ
Ġ baiĠ
gongĠ yuanĠ
ĠyouĠ xianĠ
Ġ moĠ
Ġ 000
xiaoĠ xingĠ
xia ĠdeĠ
ĠĠĠ gaiĠ
ĠzheĠ xieĠ
ĠzhiĠ chuĠ
he ĠyiĠ
shangĠ haiĠ
duo ĠdeĠ
Ġ aoĠ
hou ĠyiĠ
ĠĠĠ zhiĠ
san ĠshiĠ
ning Ġ
ĠciĠ waiĠ
fu ĠdeĠ
ju ĠliĠ
huai Ġ
si ĠjiĠ
zuĠ chengĠ
Ġ genĠjuĠ
yunĠdongĠ yuanĠ
Ġ cengĠ
jiaoĠ tongĠ
ĠzhiĠ zuoĠ
ĠzhiĠ chiĠ
ma ĠweiĠ
gaoĠ duĠ
Ġ ba
chang ĠdeĠ
ĠnianĠ qiĠ
zhuĠ jiaoĠ
Ġ zhĠ
zheĠ xieĠ
niu Ġ
ge ĠzhongĠ
ĠzhiĠ wuĠ
xuĠ yaoĠ
ĠzaiĠ ciĠ
jueĠ seĠ
chongĠ xinĠ
chuĠ leĠ
ti ĠdeĠ
tui ĠchuĠ
Ġli ĠjiĠ
zheĠ geĠ
jing ĠliĠ
Ġ zuiĠzhongĠ
xiang ĠdeĠ
gongĠ chengĠ
Ġ duĠ
Ġdang ĠshiĠ
qi ĠyiĠ
da ĠshiĠ
Ġ ai
chu ĠyuĠ
ĠrenĠ heĠ
Ġ sheĠ
wu ĠzhongĠ
du ĠweiĠ
renĠ minĠ
zi ĠdeĠ
xuanĠ juĠ
Ġ ye
ĠĠĠ diĠliĠ
lianĠ saiĠ
ziĠ jiĠdeĠ
ĠweiĠ leĠ
ĠrenĠ wuĠ
Ġ huo
geĠ quĠ
ĠnianĠ jianĠ
dang ĠdiĠ
Ġ laiĠ
s Ġ
Ġ 16
fuĠ zeĠ
kaiĠ faĠ
ĠĠĠ weiĠ
ĠweiĠ qiĠ
gongĠ chanĠ
xian ĠzaiĠ
ĠzhiĠ yuĠ
ĠrenĠ yuanĠ
zhe ĠyiĠ
liang ĠweiĠ
jieĠ shuĠ
ya ĠdeĠ
Ġ banĠ
chu ĠliĠ
jieĠ muĠ
Ġ leiĠ
guan ĠdeĠ
nv ĠziĠ
sai ĠshiĠ
2010 ĠnianĠ
rui Ġ
ding ĠdeĠ
dui ĠdeĠ
riĠ ben
ĠhouĠ laiĠ
fanĠ yingĠ
chuĠ banĠ
jie ĠdeĠ
chanĠ shengĠ
juan Ġ
Ġ ma
shouĠ ciĠ
she ĠshiĠ
lei ĠsiĠ
ĠshiĠyiĠ geĠ
Ġ yangĠ
dongĠ wuĠ
ba ĠshiĠ
7 Ġ
jing ĠshiĠ
ĠjiĠ xuĠ
Ġ naĠ
le ĠbuĠ
jie ĠshiĠ
Ġ daiĠ
xiang ĠshiĠ
bo ĠshiĠ
ruo Ġ
keĠ neng
an ĠdeĠ
nanĠ ziĠ
Ġ jiang
du ĠdeĠ
guanĠ xiaĠ
san ĠnianĠ
Ġ mei
zao ĠchengĠ
hai ĠshiĠ
yang ĠdeĠ
dong ĠshiĠ
Ġ aiĠ
she ĠliĠ
zhong ĠzhiĠ
yanĠ jiu
daoĠ leĠ
shan ĠxiĠ
Ġ zhenĠ
Ġ 0
guo ĠyiĠ
Ġ 1Ġ
Ġ yaĠ
Ġsuo ĠyiĠ
ĠjiĠ zhiĠ
zhong ĠyuĠ
fen ĠbuĠ
nv ĠxingĠ
ĠheĠ zuoĠ
dou ĠshiĠ
jun ĠdeĠ
ĠĠĠ qiĠ
guo ĠyuĠ
dong ĠdeĠ
dai ĠdeĠ
zheng ĠdeĠ
fangĠ faĠ
ĠzhiĠ zhiĠ
2020 ĠnianĠ
lianĠ mengĠ
ĠyiĠ siĠ
wu ĠliĠ
xiangĠ muĠ
fang ĠdeĠ
jiaoĠ shouĠ
meiĠ pingĠfangĠ
zhengĠzhiĠ renĠwuĠ
di ĠweiĠ
caiĠ yongĠ
Ġ tuĠ
Ġ cong
liang ĠdeĠ
ĠzaiĠ diĠ
Ġ xuanĠ
ĠĠĠ renĠkouĠ
chuanĠ tongĠ
yuan ĠyuĠ
zhan ĠdeĠ
zhu ĠdeĠ
ĠĠĠ youĠ
baoĠ kuo
huaĠ minĠguoĠ
Ġ zeĠ
xiĠ tongĠ
cheng ĠrenĠ
Ġri ĠzaiĠ
Ġ guiĠ
jiaĠ ruĠ
fa ĠdeĠ
2001 ĠnianĠ
ge ĠshiĠ
8 Ġ
Ġnian ĠyiĠ
Ġ ranĠ
xinĠ wenĠ
yanĠ yuanĠ
hao ĠdeĠ
ĠĠĠ jiĠ
ĠliĠ siĠ
Ġ bei
ĠjiĠ jiĠ
fu ĠshiĠ
Ġ 17
ĠyiĠ huiĠ
xiangĠ guanĠ
ying ĠyuĠ
dao ĠshiĠ
bianĠ maĠweiĠ
taiĠ wan
he ĠshiĠ
ĠjiĠ luĠ
boĠ wuĠ
xue ĠdeĠ
hou ĠzaiĠ
ĠweiĠ fuĠ
ĠtaĠ men
lianĠ jieĠ
ĠdeĠyiĠge ĠshiĠzhenĠ
ĠyiĠ yiĠ
Ġ A
ĠxueĠ mingĠ
xi ĠjiĠ
zui ĠjiaĠ
ĠxiĠ yaĠ
tiĠ chuĠ
mingĠ chengĠ
mu ĠsiĠ
Ġ xieĠ
ling ĠshiĠ
Ġzhe ĠshiĠ
er ĠnianĠ
xiao ĠdeĠ
hai ĠyouĠ
mian ĠdeĠ
ĠweiĠ zhuĠ
Ġ zhouĠ
Ġ zong
ĠrenĠkouĠmiĠ duĠ
Ġli ĠyiĠ
ge ĠdeĠ
ĠzhiĠ jieĠ
Ġ laĠ
zuiĠ gaoĠ
s ĠĠĠ
dong ĠjiĠ
ĠĠĠ jiaĠ
Ġ yeĠshiĠ
ĠshiĠyiĠ zhongĠ
Ġ ci
Ġ qiuĠ
yan ĠdeĠ
xia ĠjiĠ
Ġ yuĠshiĠ
Ġ fangĠ
geĠ mingĠ
ye ĠyuĠ
ĠgongĠ siĠ
Ġ junĠ
ĠnianĠ zaiĠ
yao ĠdeĠ
gai ĠweiĠ
ĠyiĠ xieĠ
zai ĠdeĠ
shu ĠshiĠ
haiĠ junĠ
Ġ liang
Ġ kaĠ
jia ĠzhiĠ
zhe ĠzhongĠ
chang ĠshiĠ
hui ĠshiĠ
yan ĠzhongĠ
gai ĠguoĠ
na ĠdaĠ
zhu ĠshiĠ
Ġ zuoĠweiĠ
qingĠ kuang
zheng ĠyiĠ
shengĠ wuĠ
bian ĠdeĠ
zhai Ġ
ke ĠjiĠ
huiĠ fuĠ
ĠzhiĠ qianĠ
luan Ġ
zai ĠyuĠ
meiĠ tiĠ
Ġ mi
xin ĠxiĠ
ĠyiĠ zhongĠ
gao ĠdeĠ
wenĠ wuĠ
jie ĠguoĠ
jian ĠshiĠ
qi ĠzhiĠ
ĠjiĠ zaiĠ
minĠ zuĠ
Ġ C
shui ĠyuĠ
qian ĠdeĠ
he ĠdeĠ
yanĠ changĠ
Ġ niĠ
zhuĠ jianĠ
10 Ġ
fanĠ duiĠ
neng ĠliĠ
ĠweiĠ youĠ
ĠkeĠ siĠ
Ġ keĠyiĠ
ĠĠĠ xingĠzhengĠ
ge ĠliĠ
gongĠ kaiĠ
hua ĠshiĠ
ĠbuĠ tongĠ
xing ĠzhiĠ
si ĠyuĠ
Ġ chongĠ
lei ĠdeĠ
ĠzhuĠ yaoĠ
chou Ġ
bei ĠshiĠ
huanĠ jingĠ
jieĠ gouĠ
Ġ 2Ġ
jiangĠ junĠ
zhang ĠdeĠ
peng Ġ
of ĠĠĠ
ĠxiangĠ gangĠ
chuangĠ zuoĠ
xian ĠyuĠ
shangĠ yeĠ
zan Ġ
ĠĠĠ benĠ
ĠĠĠ formulaĠ
ĠzheĠ geĠ
sai ĠjiĠ
mo ĠshiĠ
gaoĠ suĠ
a ĠerĠ
Ġ diĠyiĠ
zhe ĠdeĠ
biaoĠ xianĠ
ĠzhongĠ huaĠrenĠminĠgongĠheĠguoĠ
Ġ hongĠ
tong ĠjiĠ
Ġ ling
the ĠĠĠ
junĠ duiĠ
Ġli ĠweiĠ
daĠ luĠ
Ġ chenĠ
zhu ĠliĠ
ge ĠyueĠ
Ġ yunĠ
shengĠ yaĠ
sheng ĠliĠ
quan ĠliĠ
wuĠ faĠ
dong ĠbuĠ
zhou ĠshiĠ
zongĠ jiaoĠ
geĠ lanĠ
Ġnian ĠshiĠ
diaoĠ chaĠ
si ĠnianĠ
tou ĠguoĠ
ĠyiĠ banĠ
buĠ fen
biaoĠ zhunĠ
ĠĠĠ genĠjuĠ
hangĠ kongĠ
biĠ yeĠ
Ġ tangĠ
hui ĠzaiĠ
Ġ 1
Ġ 14
ĠĠĠ ciĠ
ĠyiĠ ciĠ
Ġdang ĠdiĠ
shenĠ fenĠ
Ġ yaoĠ
di ĠzhiĠ
Ġ neiĠ
gongĠ luĠ
ĠdeĠyiĠ buĠfenĠ
faĠ yuanĠ
bu ĠyiĠ
Ġ ming
di ĠyuĠ
jia ĠliĠ
gongĠ zuo
jin ĠjiĠ
cheng ĠzhongĠ
bing ĠbuĠ
sai ĠdeĠ
ĠtaiĠ wanĠ
quan ĠbuĠ
baĠ gaoĠduĠ
ĠbingĠ qie
xieĠ huiĠ
jiao ĠshiĠ
feiĠ changĠ
ĠjiĠ tuanĠ
dongĠ huaĠ
anĠ quanĠ
ĠzhiĠ xingĠ
bi ĠdeĠ
Ġ huangĠ
ĠbaoĠ kuo
cha ĠdeĠ
Ġ linĠ
ĠĠĠ ofĠĠĠ
ziĠ liaoĠ
Ġ zhuanĠ
fu ĠheĠ
jing ĠdeĠ
tuanĠ tiĠ
luoĠ maĠ
jie ĠzhiĠ
bei ĠrenĠ
fenĠ bie
shengĠ chanĠ
chao ĠxianĠ
gai ĠdiĠ
ding ĠyiĠ
ĠjinĠ xingĠ
xia ĠyiĠ
jinĠ biaoĠ
pingĠ junĠ
Ġ liu
xingĠ dongĠ
wenĠ xueĠ
du ĠshiĠ
Ġru ĠguoĠ
renĠkouĠ puĠ
la ĠsiĠ
qingĠ kuangĠ
jia ĠjiĠ
Ġ zuĠ
gongĠ gongĠ
jieĠ fangĠ
ĠzhiĠ yuanĠ
juĠ minĠ
Ġ gu
ĠzhiĠ huiĠ
ĠqiĠ houĠ
dongĠ beiĠ
shou ĠdeĠ
shang ĠshiĠ
Ġ 9
ĠjiĠ diĠ
she ĠzhiĠ
Ġ wo
yanĠ chuĠ
qiuĠ yuanĠ
yuan ĠyiĠ
ĠyuĠ jiĠ
sai ĠzhongĠ
keĠ xueĠ
Ġ fen
yan ĠshiĠ
Ġ chuanĠ
gongĠ tongĠ
lingĠ daoĠ
ren ĠyiĠ
Ġ da
zuoĠ pin
zuo ĠyouĠ
Ġ nan
ĠdeĠ zhuĠ
er ĠjiĠ
zai ĠshiĠ
28 ĠriĠ
aoĠ yunĠ
kong ĠjianĠ
xing ĠjiĠ
gaiĠ bianĠ
ye ĠyouĠ
Ġdan ĠrenĠ
sanĠ geĠ
faĠ biaoĠ
wu ĠzhiĠ
deng ĠdiĠ
ĠlingĠ waiĠ
Ġ zhaoĠ
jia ĠshiĠ
ĠdiĠ guoĠ
Ġ jiu
yuan ĠheĠ
fang ĠzhiĠ
youĠ xiĠ
deng ĠrenĠ
Ġer ĠshiĠ
Ġ cheĠ
de ĠĠĠ
xue ĠshiĠ
guan ĠzhongĠ
lan ĠdeĠ
xue ĠweiĠ
luĠ xianĠ
shu ĠweiĠ
ze ĠshiĠ
ju ĠdeĠ
baoĠ daoĠ
Ġ huoĠdeĠ
Ġli ĠzhiĠ
zhui Ġ
qi ĠweiĠ
lve Ġ
he ĠjiĠ
chu ĠrenĠ
buĠ tongĠ
qing ĠnianĠ
2008 ĠnianĠ
guo ĠliĠ
zuoĠ yongĠ
bang ĠzhuĠ
aoĠ linĠ
pi ĠkeĠ
Ġ S
2016 ĠnianĠ
gong ĠdeĠ
zao ĠdaoĠ
ĠkeĠ nengĠ
ai ĠerĠ
ĠyuĠ qiĠ
Ġri ĠzhiĠ
ĠfuĠ zeĠ
ĠĠĠ zhongĠ
zu ĠdeĠ
danĠ quĠ
ĠyuĠ yanĠ
jiang ĠqiĠ
ju ĠjiĠ
lu ĠdiĠ
ĠdaĠ daoĠ
gui ĠdaoĠ
ĠyouĠ guanĠ
tongĠ changĠ
15 ĠriĠ
shou ĠjiĠ
ĠyiĠ youĠ
taĠ men
fei ĠjiĠ
ĠyiĠ yuĠ
banĠ benĠ
tu ĠdiĠ
xianĠ daiĠ
yuan ĠnianĠ
2009 ĠnianĠ
Ġ 12
sheng ĠdeĠyiĠgeĠshiĠzhenĠ
ĠzhiĠ jianĠdeĠ
ĠmuĠ qianĠ
ma ĠliĠ
yaĠ zhouĠ
xiĠ banĠ
Ġ shuiĠ
bianĠ huaĠ
ĠĠĠ juĠ
jingĠ neiĠ
Ġ paiĠ
jie ĠheĠ
ĠshiĠ xingĠ
gongĠ yeĠ
hui ĠheĠ
jueĠ saiĠ
wu ĠnianĠ
Ġ dingĠ
taiĠ pingĠ
jia ĠyiĠ
hou ĠyuĠ
ĠbingĠ qieĠ
2011 ĠnianĠ
ĠsiĠ keĠ
2012 ĠnianĠ
zao ĠqiĠ
neiĠ rongĠ
ĠweiĠ zhongĠ
guangĠ boĠ
zhan ĠyiĠ
Ġ 2
pa Ġ
xian ĠrenĠ
jiao ĠyiĠ
pi ĠpingĠ
ta ĠzaiĠ
xingĠ chengĠ
meiĠ yuanĠ
Ġ mo
ĠhaiĠ baĠgaoĠduĠ
25 ĠriĠ
jiaoĠ huiĠ
miao ĠshuĠ
ĠbuĠ duiĠ
ĠzhiĠ yeĠ
zhengĠ ceĠ
ĠerĠ siĠ
Ġdan ĠzaiĠ
wanĠ quanĠ
xuanĠ zeĠ
ĠsiĠ teĠ
yuanĠ yinĠ
Ġta ĠyuĠ
UTC Ġ
Ġ ha
bo ĠliĠ
zao ĠdeĠ
ĠheĠ wuĠ
jianĠ sheĠ
Ġyue ĠdeĠ
Ġ 4
xie ĠyiĠ
chu ĠshiĠ
xiaoĠ shuoĠ
wuĠkeĠ lanĠ
chang ĠqiĠ
yunĠdongĠ huiĠ
beiĠ chengĠweiĠ
lianĠ bangĠ
Ġ renĠweiĠ
ĠdiĠ sanĠ
ĠweiĠ diĠ
Ġ 3
ĠjianĠ chengĠ
30 ĠriĠ
Ġdang ĠzhongĠ
10 ĠriĠ
ĠshiĠ yanĠ
ĠdeĠ daoĠ
chiĠ xuĠ
B Ġ
zui ĠdaĠ
Ġ si
wenĠ hua
Ġ eĠ
Ġ qie
Ġ xunĠ
20 ĠriĠ
ĠyiĠ mingĠ
zu ĠheĠ
duoĠ shuĠ
yuanĠ zhuĠ
dianĠ ziĠ
se ĠdeĠ
Ġta ĠshiĠ
xing ĠyuĠ
mingĠ mingĠ
Ġ 5
2014 ĠnianĠ
houĠ laiĠ
lin ĠshiĠ
gongĠ si
zhuanĠ yeĠ
sheng ĠheĠ
ĠyouĠ chengĠ
wuĠ yuanĠ
bu ĠliĠ
er ĠweiĠ
jieĠ daoĠ
Ġ mengĠ
fu ĠzhiĠ
ba ĠliĠ
ziĠ geĠ
chu ĠqiĠ
2018 ĠnianĠ
bu ĠjiĠ
2019 ĠnianĠ
Ġ 8
erĠ ziĠ
dongĠ nanĠ
gao ĠzhongĠ
Ġ 5Ġ
taĠ menĠdeĠ
ĠjiĠ gouĠ
faĠ lvĠ
Ġ mianĠ
za ĠzhiĠ
ĠjiĠ jinĠ
ĠdiĠ siĠ
ĠshiĠweiĠyuĠ meiĠguoĠ
daĠ daoĠ
ĠjinĠ guanĠ
ye ĠdeĠ
2013 ĠnianĠ
ĠweiĠyuĠ gaiĠguoĠ
ĠguoĠ minĠ
aĠ laĠ
kui Ġ
Ġyue ĠzhiĠ
faĠ zhan
ĠliĠ keĠ
tu ĠerĠ
sheng ĠweiĠ
ĠshiĠjieĠ daĠ
Ġ san
18 ĠriĠ
baoĠ gaoĠ
zhong ĠjiĠ
24 ĠriĠ
2015 ĠnianĠ
ĠliĠ yongĠ
ĠliĠ kaiĠ
fangĠ xiangĠ
dao ĠyiĠ
ĠsuiĠ houĠ
nei ĠbuĠ
ĠyuĠ zhongĠ
guoĠ minĠ
guangĠ dongĠ
guiĠ dingĠ
wang ĠdeĠ
Ġ 6
Ġ gengĠ
boĠwuĠ guanĠ
luo ĠdeĠ
26 ĠriĠ
canĠ saiĠ
Ġyue ĠshiĠ
die Ġ
Ġ yingĠguoĠ
Ġzhe ĠzhongĠ
2007 ĠnianĠ
muĠ biaoĠ
ĠweiĠ siĠ
sheĠ quĠ
ĠyuĠ zhiĠ
Ġtong ĠnianĠ
guan ĠzhiĠ
dian ĠliĠ
2005 ĠnianĠ
gongĠchanĠ dangĠ
ĠyouĠ qiĠ
ĠxiĠ lieĠ
Ġ waiĠ
xian ĠyiĠ
teĠ bie
ĠfenĠ buĠyuĠ
aoĠlinĠ piĠkeĠ
lian ĠxiĠ
Ġ ke
bing ĠweiĠ
gongĠ buĠ
ĠjiĠ changĠ
fu ĠliĠ
juĠ banĠ
Ġ shaĠ
mu ĠdeĠ
ĠchuĠ leĠ
Ġ 2001ĠnianĠ
lie ĠdeĠ
ĠshiĠ heĠ
Ġ ganĠ
chang ĠweiĠ
wuĠ xianĠ
ĠerĠ shengĠ
bi ĠliĠ
quanĠ qiuĠ
shen ĠdeĠ
tou ĠziĠ
ĠshiĠ ziĠ
2017 ĠnianĠ
mu ĠdiĠ
Ġ duo
16 ĠriĠ
ĠjiĠ heĠ
yinĠ hangĠ
ding ĠweiĠ
Ġ que
dongĠ jingĠ
shangĠ shuĠ
fu ĠyiĠ
dao ĠyuĠ
dang ĠdeĠ
guanĠ fangĠ
Ġ 13
guo ĠzhiĠ
17 ĠriĠ
paiĠ sheĠ
zi ĠyuĠ
huaĠ xueĠ
shou ĠyuĠ
Ġ minĠ
ĠĠĠ zhengĠzhiĠ
ĠyouĠxianĠ gongĠsiĠ
kaiĠ fangĠ
21 ĠriĠ
bu ĠzhiĠ
ĠdeĠshiĠ zhenĠ
gai ĠnianĠ
7 ĠriĠ
27 ĠriĠ
ĠzhongĠ xueĠ
baoĠ faĠ
zhe ĠshiĠ
ka ĠerĠ
ĠĠĠ A
19 ĠriĠ
2006 ĠnianĠ
jun ĠweiĠ
11 ĠriĠ
ĠliĠ faĠ
8 ĠriĠ
ĠhaoĠ miĠ
yingĠ yongĠ
12 ĠriĠ
23 ĠriĠ
shang ĠyouĠ
mingĠ ziĠ
ĠfuĠ wuĠ
ce ĠshiĠ
Ġ songĠ
ĠyinĠ ci
suĠ lianĠ
meiĠguoĠ renĠkouĠpuĠ
ĠdeĠ weiĠ
xian ĠweiĠ
fei ĠxingĠ
ĠzhiĠ jiĠ
shuĠ liangĠweiĠ
qiĠ jianĠ
ĠĠĠ theĠĠĠ
t Ġ
juĠ leĠbuĠ
fu ĠyuĠ
yin ĠshiĠ
xueĠ zheĠ
huang ĠdiĠ
hui ĠyuĠ
qi ĠjiĠ
2021 ĠnianĠ
ban ĠshiĠ
xiĠ lieĠ
boĠ chuĠ
ĠdeĠ zhongĠ
Ġ qieĠ
22 ĠriĠ
guiĠ moĠ
ĠshiĠ faĠguoĠ
Ġ saiĠ
biĠ xuĠ
ling ĠyuĠ
9 ĠriĠ
shanĠ dongĠ
gongĠ nengĠ
29 ĠriĠ
chu ĠyiĠ
yin ĠqiĠ
guanĠ yuanĠ
ying ĠshiĠ
Ġ 3Ġ
zuiĠ daĠdeĠ
zheng ĠzaiĠ
Ġ lvĠ
ĠyueĠ hanĠ
xunĠ lianĠ
ĠjiĠ baiĠ
jingĠ yingĠ
fengĠ geĠ
te ĠdeĠ
2022 ĠnianĠ
fuĠ jinĠ
ting ĠzhiĠ
nengĠ gouĠ
kun Ġ
suoĠ shuĠdeĠ
pingĠ jiaĠ
Ġ E
14 ĠriĠ
geĠ diĠ
3 ĠriĠ
zhu ĠzaiĠ
qingĠkuang ĠxiaĠ
yuan ĠjiĠ
shou ĠshiĠ
tiao ĠjianĠ
jiao ĠdeĠ
Ġ piĠ
sheng ĠzaiĠ
quĠ huaĠ
5 ĠriĠ
tai ĠdeĠ
xi ĠshiĠ
shengĠ mingĠ
Ġ 7
shang ĠweiĠ
she ĠdeĠ
mai ĠkeĠ
ĠĠĠ youĠyuĠ
ya ĠyuĠ
Ġ kaiĠshiĠ
Ġ daoĠzhiĠ
shengĠ chan
jin ĠzhiĠ
31 ĠriĠ
The ĠĠĠ
ĠbuĠ jiuĠ
jieĠ chuĠ
Ġ D
yuan ĠzhiĠ
ĠdaĠ huiĠ
xiaoĠxingĠ xingĠ
lianĠ meng
4 ĠriĠ
chao ĠjiĠ
2 ĠriĠ
xiong ĠdiĠ
ĠrenĠ zhongĠ
ĠzuiĠ houĠ
dian ĠdeĠ
6 ĠriĠ
zang Ġ
hai ĠyuĠ
da ĠjiĠ
boĠ teĠ
ĠgongĠ chiĠ
liu ĠxingĠ
ge ĠjiĠ
13 ĠriĠ
nanĠ xingĠ
ĠsuiĠ ranĠ
wenĠwuĠ baoĠhuĠ
ĠnianĠ dai
teĠ zhengĠ
Ġ qiangĠ
Ġ manĠ
renĠ heĠ
wu ĠjiĠ
ge ĠweiĠ
ren ĠjiĠ
lv ĠyouĠ
zuoĠ jiaĠ
Ġtong ĠguoĠ
keĠ daĠ
si ĠrenĠ
geĠ shouĠ
21 Ġ
Ġ xin
9 Ġ
Ġ jueĠ
Ġ shenĠzhiĠ
yinĠ ciĠ
huang ĠjiaĠ
fen ĠxiĠ
ouĠ zhou
br Ġ
jian ĠweiĠ
Ġ lingĠyiĠ
shengĠ fenĠ
zong ĠheĠ
xuĠ duo
ĠĠĠ S
lieĠ che
ju ĠrenĠ
niu ĠyueĠ
ĠĠĠ jinĠ
Ġ brĠ
banĠ daoĠ
ci ĠshiĠjieĠdaĠ
zhuĠ tiĠ
zhong ĠweiĠ
Ġ 10
cheng ĠyiĠ
zai ĠweiĠ
zhuangĠ taiĠ
ĠsuiĠ ran
Ġ douĠ
ĠyouĠ mingĠ
qi ĠnianĠ
ĠtaĠ cengĠ
ben ĠdeĠ
bian ĠweiĠ
pin ĠdaoĠ
ĠzaiĠ qiĠ
you ĠyiĠgeĠ
ju ĠzhongĠ
he ĠliĠ
mao ĠyiĠ
Ġ T
20 ĠshiĠjiĠ
fenĠ ziĠ
Ġ chiĠ
ĠzhiĠ zhongĠ
Ġ geng
buĠ zhangĠ
renĠkouĠ shuĠliangĠweiĠ
wangĠ luoĠ
hui ĠyouĠ
ĠĠĠ ziĠ
qian ĠyiĠ
ao ĠsiĠ
2004 ĠnianĠ
shuo ĠshiĠ
jieĠ duanĠ
xuanĠ shouĠ
gao ĠjiĠ
zhun ĠbeiĠ
fa ĠshiĠ
ĠheĠ nanĠ
Ġ zhou
fangĠ anĠ
fang ĠyuĠ
mi ĠerĠ
wai ĠdeĠ
daĠ xingĠ
duoĠ ciĠ
Ġ chen
ci ĠdeĠ
bing ĠliĠ
gong ĠzhongĠ
ĠĠĠ liĠ
huiĠ daoĠ
bei ĠdeĠ
Ġ gangĠ
mo ĠdeĠ
ĠyiĠ laiĠ
Ġri ĠqiĠ
chengĠ duĠ
Ġ lanĠ
Ġ 4Ġ
fen ĠzhiĠ
bu ĠweiĠ
2000 ĠnianĠ
shuĠ guanĠ
ci ĠzhiĠ
liu ĠnianĠ
ĠzhongĠ buĠ
wuĠ qiĠ
Ġ fan
Ġ xianĠshiĠ
jie ĠjiĠ
le ĠyiĠgeĠ
yuan ĠweiĠ
baoĠ hanĠ
jun ĠzaiĠ
ĠdiĠ fangĠ
dianĠshiĠ taiĠ
you ĠzhiĠ
zi ĠshiĠ
ĠdeĠyiĠ zhongĠ
Ġ ze
xing ĠheĠ
ĠrenĠ kou
ĠrenĠkouĠmiĠ duĠweiĠ
ju ĠshiĠ
Ġ yiĠshiĠ
deng ĠjiĠ
luĠ junĠ
Ġ hao
xuan ĠweiĠ
xiangĠ tongĠ
Ġ touĠ
Ġ chaoĠ
zheĠ jiangĠ
m Ġ
biaoĠ yanĠ
zuiĠ houĠ
qiu ĠjiĠ
siĠ wangĠ
gaiĠ geĠ
ĠzhuĠ yao
ĠweiĠyuĠ faĠguoĠ
sheĠ beiĠ
nong ĠyeĠ
daĠ liangĠ
duoĠ geĠ
Ġ zhao
ĠzhiĠ jinĠ
meiĠ zhouĠ
dianĠshiĠ juĠ
hou ĠyouĠ
ĠshiĠ daiĠ
Ġ xiang
ĠxiĠ banĠ
gu ĠjiĠ
Ġ zu
shang ĠyiĠ
ai ĠdeĠ
yang ĠshiĠ
zhu ĠyuĠ
guangĠ changĠ
liu ĠshiĠ
zai ĠjiĠ
zhanĠ douĠ
Ġ meiĠyouĠ
fa ĠyuĠ
Ġ fei
ĠĠĠ daĠ
wenĠwuĠbaoĠhuĠ danĠweiĠ
Ġ 11
zhanĠ kaiĠ
ĠzhiĠ liĠ
jia ĠheĠ
ĠjiaĠ ruĠ
tiao ĠyueĠ
fuĠ jianĠ
xieĠ zhuĠ
ĠyiĠ beiĠ
ĠbuĠ zaiĠ
chanĠ pinĠ
hangĠ kong
bianĠ chengĠ
muĠ qianĠ
youĠ zhengĠ
ĠfenĠ bie
jiang ĠyuĠ
ren ĠyuĠ
huoĠdeĠ leĠ
fenĠ leiĠ
daoĠ luĠ
gongĠyouĠ renĠkouĠ
ying ĠjiĠ
duan ĠdeĠ
ĠzhiĠ zaiĠ
qun ĠdaoĠ
qing ĠdeĠ
Ġ M
biaoĠ zhun
ĠbeiĠ qiĠ
haiĠ baĠ
zhenĠ quĠ
Ġzhe ĠyiĠ
Ġ zhang
ĠĠĠ jianĠ
Ġ 6Ġ
biĠ jiaoĠ
ĠyingĠ chiĠ
nai Ġ
ĠqiĠ yeĠ
cuo Ġ
guiĠ huaĠ
zhanĠ zheng
nao Ġ
ĠliĠ ziĠ
ĠkeĠ neng
ĠxiĠ wangĠ
ĠxingĠ zhengĠ
suĠ duĠ
ju ĠyuĠ
nv ĠerĠ
xiĠ buĠ
Ġ tiaoĠ
ĠzhongĠ huaĠminĠguoĠ
shouĠ duĠ
xi ĠweiĠ
nu Ġ
ĠbuĠ huiĠ
Ġ faĠguoĠ
ĠyiĠ renĠ
qiao ĠzhiĠ
ĠgongĠ fenĠ
ĠzaiĠ zhongĠ
meiĠpingĠfangĠ gongĠliĠ
mi ĠdeĠ
rong ĠyuĠ
dong ĠxiĠ
jiu ĠshiĠzhenĠ
dong ĠliĠ
ĠyiĠ yangĠ
ĠdeĠshiĠ jianĠ
jinĠ gongĠ
manĠ huaĠ
diĠyiĠ geĠ
dou ĠyouĠ
si ĠheĠ
ĠĠĠ xiĠ
ĠchengĠ quĠ
Ġ nvĠ
si ĠweiĠ
Ġ tian
henĠ duoĠ
maĠ lai
la ĠdeĠ
ken Ġ
ruĠ xiaĠ
taiĠ beiĠ
ze ĠrenĠ
fu ĠrenĠ
Ġ kongĠ
la ĠkeĠ
ĠciĠ houĠ
quĠ daiĠ
jinĠbiaoĠ saiĠ
xian ĠdeĠyiĠgeĠ
ĠyiĠ xiaĠ
shangĠ wuĠ
yu ĠshiĠdeĠ
ĠyuĠ weiĠ
jian ĠyouĠ
ĠerĠ beiĠ
zong ĠliĠ
wang ĠguoĠ
Ġ F
xiangĠ duiĠ
lianĠ xuĠ
ĠĠĠ fuĠ
qu ĠyiĠ
min ĠzhongĠ
jieĠ rang
reng Ġran
xiao ĠxiĠ
miĠ shuĠ
tie ĠdaoĠ
zhengĠ geĠ
ĠĠĠ zheĠ
zuiĠ houĠyiĠ
ci ĠjiĠ
jue ĠdeĠ
renĠkouĠshuĠliangĠweiĠ renĠ
Ġ ruo
Ġ P
ĠĠĠ zhuĠ
ĠzhongĠ xin
quan ĠdeĠ
zhanĠ lingĠ
xinĠ jiaĠ
waiĠ jiaoĠ
diĠ sanĠ
jiaĠ naĠdaĠ
ĠliĠ shuĠyuĠ
ĠrenĠ zaiĠ
tianĠ zhuĠjiaoĠ
zhen ĠshiĠ
Ġ INSEE
yeĠ wuĠ
chengĠ zhenĠ
Ġ wu
ci ĠyuĠ
qiĠ ta
Ġ heiĠ
Ġran ĠhouĠ
Ġnian ĠjiĠ
yuan ĠyouĠ
daĠ xue
Ġyou ĠyiĠ
ceng ĠzaiĠ
niao Ġ
jianĠ chaĠ
zhengĠ quanĠ
shouĠ geĠ
nan ĠjiĠ
zuoĠ chuĠ
ĠdeĠshiĠ houĠ
shengĠ chengĠ
ĠheĠ beiĠ
ni ĠsiĠ
20 Ġ
juĠ jueĠ
lu ĠshiĠ
jiao ĠweiĠ
d Ġ
quĠ xiaoĠ
ti ĠjiĠ
Ġjie ĠzhiĠ
ĠdeĠ yuĠ
t ĠĠĠ
Ġ zhengĠshiĠ
dian ĠjiĠ
Ġ rang
sheng ĠzhiĠ
cheĠ liangĠ
ĠgaiĠ shengĠ
he ĠweiĠ
Ġ 00
da ĠliĠyaĠ
zhongĠ xinĠ
dui ĠzaiĠ
xianĠ faĠ
Ġ duiĠyuĠ
wangĠ zhanĠ
Ġ bai
he ĠzhiĠ
le ĠjiĠ
diĠ fangĠ
zhen ĠdeĠ
lan ĠxiĠ
ĠqiĠ ta
Ġer ĠzaiĠ
ĠzongĠ mianĠjiĠ
yunĠ yingĠ
Ġ K
ĠdeĠ liĠ
jieĠ jueĠ
ziĠ xingĠ
ĠriĠ ben
tianĠ wenĠ
2002 ĠnianĠ
2003 ĠnianĠ
mo ĠxiĠ
ĠshiĠ changĠ
ĠĠĠ a
gong ĠyiĠ
shu ĠzhiĠ
ĠdiĠ qiĠ
ĠjianĠ zhuĠ
shou ĠweiĠ
ye ĠzaiĠ
dianĠ ying
ĠrenĠkouĠmiĠduĠ meiĠpingĠfangĠgongĠliĠ
yingĠ xiang
xiaoĠ xueĠ
chaĠdeĠ shuĠjuĠ
youĠzhengĠ bianĠmaĠweiĠ
Ġ I
hui ĠzhiĠ
gan ĠdaoĠ
ĠxingĠ chengĠ
puĠ taoĠ
ĠshiĠzhenĠ bianĠmaĠweiĠ
ĠINSEE ĠshiĠzhenĠbianĠmaĠweiĠ
qing ĠshiĠ
te ĠliĠ
ĠrenĠkouĠmiĠduĠweiĠ meiĠpingĠfangĠ
ĠĠĠ buĠ
mengĠ guĠ
mu ĠshiĠ
ĠxiaĠ lingĠshiĠ
xi ĠliĠ
zhuo Ġ
diĠyiĠ ciĠ
xuanĠ quĠweiĠ
Ġ huanĠ
lei ĠjiĠ
gao ĠyuĠ
niĠ ya
yuĠshiĠdeĠ renĠkouĠshuĠliangĠweiĠrenĠ
Ġ biaoĠshiĠ
bao ĠdeĠ
zuoĠ zhanĠ
si ĠzaiĠ
meiĠguoĠrenĠkouĠpuĠ chaĠdeĠshuĠjuĠ
er ĠzaiĠ
zuo ĠyiĠ
lu ĠyiĠ
Ġer ĠrenĠkouĠmiĠduĠweiĠmeiĠpingĠfangĠ
ĠdangĠdiĠ gongĠyouĠrenĠkouĠ
xi ĠyuĠ
ĠteĠ bie
yun ĠxingĠ
ĠhuoĠ jiuĠshiĠzhenĠ
xin ĠliĠ
jingĠ changĠ
shengĠjiĠ xuanĠquĠweiĠ
jiang ĠshiĠ
Ġ shuangĠ
kuaiĠ suĠ
A Ġ
yuanĠ ziĠ
Ġ G
ĠzhongĠ yang
shao ĠnianĠ
sheng ĠrenĠ
bian ĠjiĠ
faĠ dongĠ
chong ĠjianĠ
fenĠweiĠ faĠguoĠ
ĠgaiĠshengĠ fenĠweiĠfaĠguoĠ
ĠĠĠ nianĠ
fa ĠqiĠ
gaoĠ dengĠ
Ġ bo
cong ĠshiĠ
shuo ĠfaĠ
ĠnianĠ chuĠ
yangĠ huaĠ
ĠyouĠ renĠ
Ġnian ĠyuĠ
cheng ĠliĠyuĠ
jia ĠzhongĠ
ming ĠyiĠ
U Ġ
lianĠheĠ guoĠ
jin ĠyiĠbuĠ
ĠerĠ qie
yanĠjiuĠ suoĠ
zhengĠ mingĠ
fang ĠqiĠ
na ĠdeĠ
daĠ quĠ
tai ĠguoĠ
ĠĠĠ heĠ
gongĠ xianĠ
gou ĠdeĠ
Ġ hu
lunĠ dun
Ġ guoĠjiĠ
aoĠlinĠpiĠkeĠ yunĠdongĠhuiĠ
fanĠ huiĠ
jieĠrang ĠdeĠshiĠzhenĠ
zi ĠweiĠ
gong ĠrenĠ
suoĠshuĠdeĠ shengĠjiĠxuanĠquĠweiĠ
si ĠliĠ
xiang ĠjiĠ
yunĠ shuĠ
huo ĠshiĠ
ziĠ ran
Ġ R
yuan ĠliĠ
2023 ĠnianĠ
ti ĠxiĠ
jianĠ chengĠ
biao ĠweiĠ
ĠĠĠ C
na ĠliĠ
zhuĠ chiĠ
xingĠ qiĠ
Ġ huang
zhongĠ huaĠrenĠminĠgongĠheĠguoĠ
boĠ lanĠ
xi ĠzaiĠ
ziĠ yuanĠ
dao ĠrenĠ
reĠ daiĠ
xiĠbanĠ yaĠ
mingĠ danĠ
hua ĠweiĠ
ce ĠdeĠ
luo ĠfuĠ
ĠxiĠ beiĠ
xiaĠ wuĠ
pai ĠdeĠ
ĠnianĠ youĠ
ĠdiĠ quĠdeĠ
zhanĠ dou
fen ĠdeĠ
Ġ haĠ
bei ĠyiĠ
ni ĠkeĠ
Ġ chuangĠ
faĠ sheĠ
cui Ġ
ĠheĠ bingĠ
wenĠ mingĠ
Ġ 30
Ġ zaoĠ
ĠĠĠ cheĠzhanĠ
ĠzhiĠ chengĠ
diaoĠ cha
chanĠ yeĠ
ĠnianĠ houĠ
er ĠheĠ
ĠshiĠyiĠ mingĠ
wan ĠjiaĠ
ĠĠĠ chuĠ
fuĠ qinĠ
xiangĠ dangĠ
an ĠshiĠ
Ġyou ĠshiĠ
Ġ kang
sheng ĠshiĠ
chaoĠ zhengĠzhiĠrenĠwuĠ
su ĠdeĠ
jinĠxingĠ leĠ
ĠweiĠ shengĠ
Ġ peiĠ
ĠĠĠ taĠ
me Ġ
jian ĠjiĠ
ĠbuĠ nengĠ
nanĠ shengĠ
xuanĠ chuanĠ
jin ĠyiĠ
ĠshiĠyiĠ weiĠ
ying ĠliĠ
jingĠ shenĠ
bei ĠjiĠ
lv ĠshiĠ
xianĠ xiangĠ
za Ġ
shu ĠzhongĠ
shouĠ shangĠ
zi ĠheĠ
xiĠ yangĠ
mie Ġ
fuĠzeĠ guanĠxiaĠ
guanĠ zhuĠ
lian ĠdeĠ
qiĠ zhongĠyiĠ
l Ġ
jiaĠ tingĠ
paiĠ mingĠ
tongĠ xingĠ
lie ĠweiĠ
Ġ bi
sai ĠerĠ
Ġyue ĠzaiĠ
zhanĠ houĠ
xuan ĠrenĠ
liu ĠyuĠ
shuĠ liangĠ
fo ĠjiaoĠ
shuai Ġ
lanĠ qiuĠ
ke ĠweiĠ
xiaoĠ zuĠ
daoĠ yanĠ
zhengĠ juĠ
jie ĠyiĠ
qiu ĠdeĠ
ĠxiĠ nanĠ
da ĠweiĠ
taoĠ lunĠ
ba ĠnianĠ
Ġ N
wang ĠshiĠ
duĠ jiaoĠ
ĠĠĠ and
yan ĠyiĠ
ne Ġ
reĠ dai
ĠĠĠ beiĠ
ĠĠĠ in
ĠzhongĠ gongĠ
zhengĠ dangĠ
laiĠ yuanĠ
genĠ ju
ĠshiĠ xianĠ
Ġ tuoĠ
baoĠ chiĠ
wenĠ jianĠ
Ġ longĠ
ĠyiĠ jianĠ
hou ĠqiĠ
ĠnianĠ duĠ
ĠerĠ qieĠ
Ġ ben
Ġ canĠ
zhongĠ yangĠ
ĠzhiĠ xianĠ
ĠdaoĠ leĠ
reng ĠranĠ
Ġ 10ĠyueĠ
ĠyiĠ xiĠ
lv ĠkeĠ
rui ĠshiĠ
ĠjiĠ siĠ
pingĠ lunĠ
ziĠ dongĠ
Ġzong ĠrenĠkouĠ
xia ĠdeĠyiĠgeĠ
fan ĠdeĠ
ĠwuĠ keĠ
ming ĠshiĠ
diĠ siĠ
zao ĠnianĠ
biaoĠ mingĠ
Ġ B
xu ĠdeĠ
lu ĠyuĠ
ĠzhiĠ mingĠ
hai ĠdeĠ
Ġ ouĠ
ĠjiĠ huĠ
pingĠ taiĠ
luoĠ ma
keĠliĠ siĠ
Ġ L
ĠshiĠ jianĠyuĠ
rao Ġ
xuĠ yao
cengĠ jingĠ
peng ĠyouĠ
ĠliĠ renĠ
yinĠ hang
da ĠyueĠ
fengĠ xianĠ
eĠ luoĠ
hao ĠweiĠ
nanĠ jingĠ
ĠbeiĠ jingĠ
Ġ ciĠshiĠ
ĠdeĠdiĠ fangĠ
sheng ĠyiĠ
gong ĠzhongĠyangĠ
taiĠpingĠ yangĠ
yu ĠĠĠ
sou Ġ
zheng ĠbuĠ
lianĠ bang
jiao ĠbuĠ
xingĠ buĠ
ke ĠzaiĠ
jing ĠyouĠ
yanĠ geĠ
xuanĠ quĠ
queĠ dingĠ
yuan ĠzaiĠ
ĠguoĠ wangĠ
daoĠ daĠ
shen ĠweiĠ
jianĠ duiĠ
chongĠ tuĠ
Ġ miaoĠ
ĠĠĠ xianĠ
jian ĠrenĠ
ĠyiĠ shangĠ
wu ĠrenĠ
mo ĠxingĠ
biao ĠzhiĠ
hua ĠyuĠ
ru ĠheĠ
Ġ lin
qian ĠshiĠ
ke ĠshiĠ
jiaoĠ tangĠ
qian ĠzhiĠ
tui ĠyiĠ
xiao ĠguoĠ
zhang ĠdaĠ
shangĠ yingĠ
ĠĠĠ 2021
dao ĠheĠ
keĠ siĠ
ĠgongĠ yuanĠ
ĠĠĠ suiĠ
jing ĠweiĠ
lei ĠxingĠ
ĠyiĠ liĠ
ĠdaĠ xue
zhou ĠweiĠ
queĠ zhenĠ
xian ĠjiĠ
ye ĠbuĠ
biao ĠdaĠ
fengĠ baoĠ
guangĠ zhouĠ
xia ĠshiĠ
dangĠ xuanĠ
xie ĠdeĠ
Ġ tanĠ
biĠ yaĠ
Ġ deng
ĠĠĠ 2020
ding ĠyuĠ
pang Ġ
liang ĠzhongĠ
qiĠ yeĠ
Ġceng ĠrenĠ
ĠjiĠ beiĠ
pingĠ mianĠ
Ġ gao
shengĠ huo
jiaoĠ quĠ
xian ĠheĠ
anĠ jianĠ
chengĠ xianĠ
shenĠ qingĠ
luĠ siĠ
xing ĠyiĠ
ĠzhiĠ fuĠ
tuanĠ duiĠ
ĠerĠrenĠkouĠmiĠduĠweiĠmeiĠpingĠfangĠ qianĠmiĠ
ĠjinĠ ruĠ
ĠliĠ daĠ
neiĠ rong
cha ĠyiĠ
ĠliĠ lunĠ
yingĠ geĠlanĠ
puĠ tongĠ
yaoĠ qingĠ
0 Ġ
yuanĠ zhangĠ
Ġ qinĠ
ĠzhongĠ youĠ
Ġ zheng
yuanĠ suĠ
xing ĠrenĠ
jiu ĠnianĠ
Ġjie ĠguoĠ
xi ĠheĠ
ĠtaĠ menĠdeĠ
ri ĠqiĠ
qiuĠ changĠ
Ġ O
rou Ġ
xiaoĠ shouĠ
zhongĠ yaoĠ
yan ĠzhiĠ
heng ĠxingĠ
zi ĠyiĠ
ruĠ ciĠ
duiĠ shouĠ
la ĠfuĠ
fenĠ bieĠ
tiaoĠ zhanĠ
zuo ĠshiĠ
bao ĠweiĠ
cheng ĠyuĠ
shu ĠyiĠ
Ġ qiĠyuĠ
hui ĠjiĠ
laiĠ shuoĠ
Ġyue ĠyuĠ
ru ĠguoĠ
ĠzhiĠ zaoĠ
xueĠ shuĠ
he ĠyuĠ
anĠ naĠ
ĠzhongĠ huaĠ
wangĠ luĠ
ĠĠĠ F
lun ĠdeĠ
nu ĠliĠ
ni ĠdeĠ
ĠshiĠ diĠ
shun Ġ
wu ĠyiĠ
Ġ 8ĠyueĠ
fuĠ qin
zhengĠ zhuangĠ
jia ĠrenĠ
Ġ maiĠ
caiĠ yong
ting ĠdeĠ
nengĠ gou
ziĠzhiĠ quĠ
jieĠfangĠ junĠ
xiaoĠ zhangĠ
ĠhaoĠ xianĠ
teĠ bieĠ
dianĠ taiĠ
ĠtongĠ changĠ
min ĠdeĠ
haiĠ ziĠ
you ĠliĠ
lan ĠkeĠ
shuĠ ziĠ
xiang ĠyuĠ
qu ĠheĠ
Ġ xiaoĠshiĠ
chuang ĠliĠ
gengĠ mingĠweiĠ
ta ĠshiĠ
quan ĠshiĠ
2024 ĠnianĠ
zongĠ duĠ
xu ĠshiĠ
duo ĠzhongĠ
fan ĠyiĠ
ge ĠyouĠ
she ĠyuĠ
zhuĠ yanĠ
jiaĠ geĠ
Ġ dai
chuĠ shenĠ
huoĠ dong
jiang ĠxiĠ
Ġ H
Ġ zaiĠyiĠ
ĠĠĠ 2019
xin ĠshiĠ
bo ĠdeĠ
hu ĠshiĠ
ming ĠyuĠ
Ġ suoĠyouĠ
jiangĠ xiangĠ
sun ĠshiĠ
shouĠ ruĠ
banĠ gongĠshiĠ
lin ĠdeĠ
dan ĠdeĠ
ĠĠĠ wuĠ
ĠzhongĠ yaoĠ
juĠ xingĠdeĠ
Ġ pei
Ġ laoĠ
dui ĠyiĠ
jingĠ chaĠ
sa ĠkeĠ
jieĠ jinĠ
ĠweiĠ lianĠ
ĠjiĠ benĠ
jie ĠweiĠ
jie ĠyuĠ
ka ĠsiĠ
ĠĠĠ xiaĠ
guanĠ dianĠ
ĠliĠ heĠ
ĠdeĠyiĠ zuoĠ
ĠfaĠ xianĠ
1999 ĠnianĠ
jiang ĠdiĠ
shaoĠ shuĠ
ĠĠĠ 2018
kan ĠdaoĠ
wenĠ zhangĠ
wei ĠĠĠ
ĠjiĠ zheĠ
n Ġ
Ġ han
lunĠ dunĠ
tou ĠxiangĠ
huiĠ shangĠ
luĠdiĠ mianĠjiĠweiĠ
y Ġ
Ġ zhuan
ĠĠĠ geĠ
amp Ġ
shuiĠyuĠ mianĠjiĠweiĠ
jieĠ quanĠguoĠ
ĠdaĠ quĠ
wenĠ ziĠ
Ġ 19
zhan ĠjiĠ
xingĠ jianĠ
ĠdeĠdiĠ quĠ
sang Ġ
18 Ġ
aoĠ menĠ
zai ĠzhiĠ
wen ĠyiĠ
Ġ cheĠzhanĠ
ĠjiĠ tuan
zhang ĠshiĠ
kang ĠyiĠ
leng Ġ
xiĠ beiĠ
haiĠ anĠ
wai ĠguoĠ
ruĠ kouĠ
chuĠ shengĠ
Ġ xiongĠ
ĠĠĠ keĠ
wen ĠdeĠ
ming ĠdiĠ
xingĠ xingĠ
jiaoĠ liuĠ
xi ĠzhiĠ
zhenĠ duiĠ
Ġxian ĠzaiĠ
Ġfen ĠzhongĠ
xin ĠrenĠ
du ĠyuĠ
Ġ ampĠ
cuo ĠshiĠ
zhangĠ keĠdaĠ
tianĠ jinĠ
tiaoĠ zhengĠ
fang ĠzaiĠ
poĠ huaiĠ
jun ĠdiĠ
tiĠ mingĠ
xuanĠ ze
ĠdangĠzhongĠ luĠdiĠmianĠjiĠweiĠ
ĠerĠ shuiĠyuĠmianĠjiĠweiĠ
Ġ shou
1998 ĠnianĠ
ĠĠĠ 2022
rong ĠyiĠ
chuĠ faĠ
ĠbeiĠ erĠ
Ġ jiĠshiĠ
Ġ juĠliĠ
zao ĠyuĠ
jingĠ dianĠ
chi ĠdeĠ
Ġ haiĠyouĠ
ba ĠxiĠ
guang ĠxiĠ
luo ĠdiĠ
gou ĠchengĠ
bianĠ jieĠ
ou ĠyuanĠ
xianĠ changĠ
xian ĠyouĠ
ĠxiangĠ gang
xi ĠyiĠ
shan ĠjiĠ
Ġ e
taiĠ yangĠ
fu ĠjiĠ
dao ĠjiĠ
teng Ġ
ha ĠerĠ
ĠdeĠzhiĠ chiĠ
Ġyue ĠyouĠ
ĠĠĠand ĠĠĠ
siĠ chuanĠ
yueĠ taiĠ
ĠĠĠxingĠzhengĠ quĠhuaĠ
Ġ ao
ming ĠzhiĠ
ĠyuĠ ciĠ
ĠzaiĠ zheĠ
duiĠ wuĠ
Ġ jingĠguoĠ
touĠ ruĠ
cunĠ zhuangĠ
Ġ TheĠĠĠ
Ġcong ĠerĠ
da ĠzhongĠ
keng Ġ
ĠnianĠ beiĠ
you ĠweiĠ
cun ĠdeĠ
Ġ hou
Ġ saĠ
dengĠ luĠ
Ġ 9ĠyueĠ
da ĠzhiĠ
touĠ piaoĠ
ĠshiĠ liĠ
geĠ leiĠ
d ĠĠĠ
12 Ġ
chang ĠyiĠ
Ġyue ĠweiĠ
yuanĠ huiĠ
ĠĠĠ 2017
ĠzhiĠ xiaĠ
gongĠ minĠ
yinĠ faĠ
biĠ yeĠyuĠ
jian ĠzhongĠ
zhang ĠyuĠ
nuo ĠweiĠ
tuĠerĠ qiĠ
jia ĠyuĠ
fang ĠweiĠ
tui ĠdongĠ
ĠshiĠ zhongĠguoĠ
gong ĠyuĠ
zhan ĠdiĠ
hun ĠheĠ
ĠrenĠ menĠ
juĠ zhuĠ
baoĠ liuĠ
Ġ ãĥ
ge ĠyiĠ
Ġ bian
qianĠ shuĠ
jinĠ ru
wenĠ dingĠ
haiĠ daoĠ
y ĠĠĠ
leĠ siĠ
ganĠ ran
shu ĠheĠ
biĠ saiĠzhongĠ
ĠtiĠ zhangĠkeĠdaĠ
Ġ formulaĠ
er ĠrenĠ
ĠzaiĠ beiĠ
ziĠ ranĠ
xi ĠzhongĠ
ĠbuĠ fen
daĠ fuĠ
Ġ 7ĠyueĠ
wu ĠyuĠ
zi ĠliĠ
nanĠ beiĠ
jun ĠyiĠ
ke ĠyuĠ
tu ĠdeĠ
piĠ zhunĠ
Ġ biaoĠ
chu ĠjiĠ
qiĠ ziĠ
ĠweiĠfuĠ qiĠyuĠ
yongĠ huĠ
heng ĠliĠ
fangĠ wenĠ
zhuang ĠjiaĠ
Ġyou ĠjiĠ
tiĠ gaoĠ
ĠwoĠ menĠ
di ĠjiĠ
ma ĠkeĠ
11 Ġ
ĠshiĠ quĠ
ĠnianĠ heĠ
chengĠ zuoĠ
ĠĠĠ 2016
jian ĠheĠ
ĠyiĠ daĠliĠ
Ġ pa
ziĠ jinĠ
ĠyinĠ duĠ
xunĠ suĠ
Ġ an
benĠ tuĠ
houĠ xuanĠrenĠ
xinĠ haoĠ
er ĠyuĠ
Ġ tingĠ
zhan ĠzhongĠ
xiao ĠliĠ
mo ĠerĠ
xianĠ luĠ
pinĠ paiĠ
Ġ hai
ang Ġ
jinĠ shuĠ
jieĠshuĠ houĠ
Ġ zhongĠdeĠ
Ġ 12ĠyueĠ
geĠ geĠ
Ġta ĠyiĠ
Ġ W
Ġ xiuĠ
ci ĠweiĠ
xin ĠyiĠ
guangĠ fanĠ
zhuĠ mingĠdeĠ
r Ġ
zhong ĠliĠ
shang ĠrenĠ
xianĠ houĠ
yingĠ pianĠ
yong ĠyiĠ
zhuĠ mingĠ
ceng ĠyuĠ
zuiĠ chuĠ
mouĠ xieĠ
cheng ĠzhiĠ
Ġ 11ĠyueĠ
ĠdeĠyiĠ zhiĠ
wu ĠweiĠ
jianĠ zaoĠ
shi ĠĠĠ
jian ĠzaiĠ
jie ĠyouĠ
lingĠ waiĠ
Ġ hong
ĠdeĠshiĠ quĠweiĠ
chuĠ zhanĠ
xiaĠ laiĠ
ĠĠĠdeĠ shiĠ
ĠzhiĠ nengĠ
xueĠ huiĠ
buĠ tongĠdeĠ
Ġbing ĠyiĠ
Ġ tw
jiangĠ suĠ
sa ĠerĠ
heĠ zuoĠ
ĠzhongĠguoĠ gongĠchanĠdangĠ
X Ġ
buĠ duiĠ
ĠjiaĠ shangĠ
dang ĠshiĠdeĠ
zhu ĠbuĠ
shan ĠdaĠ
shuiĠ pingĠ
hans Ġ
Ġ 21Ġ
bo ĠerĠ
Ġ hansĠ
ke ĠheĠ
ĠdiĠ qu
mei ĠnianĠ
xuĠ qiuĠ
ĠĠĠ erĠ
ĠjiĠ chengĠ
jianĠ shaoĠ
teĠ shuĠ
Ġtw Ġ
shan ĠdeĠ
daĠ chengĠ
jiaĠ zuĠ
Ġ 2011
ĠzheĠ xie
ĠĠĠ qingĠ
lv ĠweiĠ
ĠrenĠ leiĠ
paiĠ chuĠ
xiaoĠ shuo
aoĠ daĠliĠyaĠ
nan ĠyiĠ
Ġri ĠyuĠ
jieĠ rangĠ
gongĠ changĠ
siĠ keĠ
ĠdanĠ taĠ
ĠchengĠ yuanĠ
chang ĠheĠ
jieĠ keĠ
ziĠ xunĠ
Ġ J
ĠjiĠ guanĠ
ĠzaiĠ zhongĠguoĠ
jueĠ ding
sheĠhuiĠ zhuĠyiĠ
ĠyuĠ renĠ
ĠĠĠ 2023
zhu ĠyouĠ
zhuang ĠzhiĠ
ĠxiĠ baoĠ
k Ġ
Ġ menĠ
ĠĠĠ 2014
jingĠ yanĠ
faĠ chuĠ
Ġ 2010ĠnianĠ
ĠjiĠ renĠ
wa ĠerĠ
yinĠ suĠ
suo ĠdeĠ
reng Ġ
ĠjieĠ muĠ
ĠfaĠ xingĠ
ti ĠshiĠ
1997 ĠnianĠ
yingĠ wenĠ
Ġ eĠluoĠsiĠ
lu ĠzhiĠ
ĠhouĠ lai
ĠĠĠ yuanĠ
ĠxuĠ duoĠ
tu ĠzhongĠ
kong ĠzhongĠ
chuĠ shengĠyuĠ
ĠĠĠ li
bei ĠzhiĠ
hua ĠheĠ
sui ĠdaoĠ
sha ĠsiĠ
ĠĠĠ T
fen ĠzhongĠ
yong ĠshiĠ
lingĠ tuĠ
Ġ jingĠjiĠ
meiĠ geĠ
ĠĠĠ yuĠshiĠdeĠrenĠkouĠshuĠliangĠweiĠrenĠ
ĠĠĠ suoĠshuĠdeĠshengĠjiĠxuanĠquĠweiĠ
minĠ jianĠ
ĠĠĠdeĠ youĠzhengĠbianĠmaĠweiĠ
ĠĠĠyuĠ jieĠrangĠdeĠshiĠzhenĠ
ĠĠĠdeĠshiĠ quĠweiĠ
geng ĠjiaĠ
ĠguoĠ chengĠ
xiangĠ siĠ
Ġ 2019
ĠĠĠ 2015
zeng ĠzhangĠ
nan ĠdeĠ
ĠzaiĠ daĠ
keĠ chengĠ
jiang ĠdeĠ
kongĠ junĠ
huiĠ yingĠ
Ġ 2009ĠnianĠ
ĠshengĠ huo
guĠ wenĠ
le ĠshiĠ
ĠheĠ xiĠ
ĠtaĠ yeĠ
guangĠ gaoĠ
Ġ wang
ĠshiĠ meiĠguoĠ
te ĠerĠ
ĠyiĠ jiaĠ
ĠĠĠ K
1996 ĠnianĠ
Ġ hk
zhou ĠfuĠ
ĠdiĠ daĠ
Ġ zhiĠshiĠ
ĠjiĠ youĠ
jueĠ se
Ġ zhuangĠ
anĠ paiĠ
xianĠ xingĠ
ĠbingĠ jiangĠ
ĠĠĠ 2013
chao ĠshiĠ
guanĠ biĠ
zong ĠbuĠ
feiĠ jianĠzhiĠ
tiĠ shengĠ
woĠ menĠ
ĠĠĠ E
fang ĠbuĠ
da ĠyuĠ
xu ĠkeĠ
hanĠ shuĠ
ĠĠĠ xinĠ
ti ĠyiĠ
lang ĠdeĠ
minĠzhuĠ dangĠ
Ġ 6ĠyueĠ
zhuang ĠshiĠ
Ġbing ĠyouĠ
zhengĠfu ĠdeĠ
quanĠ mianĠ
Ġhk Ġ
er ĠyiĠ
ci ĠyiĠ
banĠ gongĠ
ĠdeĠguoĠ jiaĠ
Ġ feng
Ġ xuanĠbuĠ
jun ĠjiĠ
xingĠ taiĠ
cheĠ zhan
ĠerĠ gaiĠ
ĠheĠ erĠ
bao ĠliĠ
diĠ guoĠ
jieĠ gou
dui ĠshiĠ
shanĠ mai
ju ĠbuĠ
ling ĠdeĠ
fo Ġ
rui ĠdianĠ
jiaĠ ru
dang ĠyuĠ
luo ĠkeĠ
wei ĠyiĠgeĠ
junĠ gongĠ
dang ĠzhongĠ
weiĠ zhiĠ
tuĠ shuĠguanĠ
neiĠ luĠ
Ġ taoĠ
Ġ laiĠziĠ
hua ĠzhongĠ
zhuan ĠjiaĠ
ĠjiĠ nianĠ
ĠyueĠ taiĠ
chengĠ xuĠ
huiĠ beiĠ
seĠ lieĠ
shan ĠshiĠ
yunĠ xuĠ
bingĠ meiĠyouĠ
tian ĠdeĠ
jiuĠ dianĠ
ge ĠzhiĠ
ĠkeĠ xueĠ
ĠĠĠ xiangĠ
ĠqiĠ zhongĠyiĠ
1992 ĠnianĠ
siĠ xiangĠ
feiĠjianĠzhiĠ diĠquĠ
Ġ 5ĠyueĠ
dai ĠyouĠ
Ġ maoĠ
ba ĠweiĠ
zuĠ chengĠdeĠ
ĠxiĠ jieĠ
Ġwan ĠrenĠ
jingĠ zhengĠ
Ġ ãĤ
faĠ lv
dianĠ nao
guo ĠweiĠ
jinĠ paiĠ
chang ĠyuĠ
tan ĠkeĠ
ĠliĠ buĠ
ĠyouĠ qiĠshiĠ
bing ĠshiĠ
huanĠ yingĠ
Ġ qian
Ġ 2018
Ġ zhengĠfuĠ
tong ĠyuĠ
ma ĠerĠ
xiaĠ jiangĠ
sanĠ jiaoĠ
moĠxiĠ geĠ
geĠ lan
yanĠjiuĠ yuanĠ
jiu ĠdeĠ
shuĠ xueĠ
neiĠ geĠ
ĠshiĠjieĠ beiĠ
Ġ lieĠ
ĠliĠ ya
hua ĠrenĠ
zhuan ĠyiĠ
gongĠ siĠdeĠ
ĠgongĠ zuoĠ
Ġ chuĠyuĠ
jun ĠyouĠ
jiu ĠzhiĠ
ĠheĠ diĠ
Ġ chaĠ
ĠĠĠjiaĠ zuĠ
ĠjiĠ chuĠ
mingĠ mingĠweiĠ
muĠ qinĠ
laiĠ daoĠ
ĠdiĠ xiaĠ
deng ĠweiĠ
yingĠ yunĠ
beiĠrenĠ weiĠshiĠ
xiu ĠgaiĠ
shuo ĠmingĠ
shengĠ zhangĠ
huiĠ zhangĠ
x Ġ
ĠĠĠ G
que ĠfaĠ
mingĠ lingĠ
yongĠ laiĠ
Ġ na
ĠĠĠ M
dui ĠqiĠ
ziĠ muĠ
hu ĠdeĠ
xunĠ huiĠ
shouĠ fuĠ
ĠdanĠ youĠyuĠ
wen ĠshiĠ
ĠbuĠ tongĠdeĠ
dai ĠliĠ
ĠĠĠ zhĠ
maoĠ qiuĠ
Ġ minĠguoĠ
ĠzaiĠ meiĠguoĠ
ĠshiĠyiĠ ge
ĠdeĠdiĠ erĠ
Ġ rangĠ
ĠweiĠ weiĠ
zhu ĠjiĠ
Ġyin ĠyueĠ
gongĠ juĠ
Ġ 4ĠyueĠ
to ĠĠĠ
chengĠweiĠ leĠ
liao ĠjieĠ
ĠtaĠ beiĠ
yeĠ beiĠ
ta ĠyuĠ
yin ĠdeĠ
chang ĠdiĠ
que ĠrenĠ
ruan Ġ
feiĠ lvĠ
faĠ anĠ
juĠ zhangĠ
ĠĠĠ jieĠzhiĠ
caiĠ quĠ
Ġ kangĠ
shenĠ tiĠ
beiĠ erĠ
ĠtaĠ haiĠ
ĠshangĠ haiĠ
changĠ pianĠ
ĠzhongĠguoĠ renĠminĠ
cheĠ xiaoĠ
canĠjiaĠ leĠ
Ġ sheĠjiĠ
1995 ĠnianĠ
Ġ 2016
boĠ fangĠ
shou ĠzhongĠ
chanĠ pin
Ġ kuanĠ
ĠerĠ fuĠ
jiaoĠ lianĠ
xie ĠrenĠ
che ĠdeĠ
zhuĠ zuoĠ
banĠ faĠ
fu ĠyouĠ
su ĠweiĠ
chuanĠ boĠ
ma ĠsiĠ
ĠyiĠ juĠ
ĠyiĠ nianĠ
zhe ĠliĠ
huaĠ yuanĠ
ĠĠĠ zhongĠguoĠ
1994 ĠnianĠ
ĠweiĠ renĠ
C Ġ
Ġ quanĠguoĠ
ĠliĠ ru
tieĠ lu
Ġ daiĠbiaoĠ
dian ĠqiĠ
liang ĠshiĠ
qiuĠ huiĠ
sui ĠjiĠ
ĠweiĠyuanĠ hui
Ġ queĠ
Ġ caoĠ
ma ĠdeĠ
ĠqiĠ laiĠ
wangĠ qiuĠ
ze ĠyouĠ
baiĠ seĠ
ĠshiĠyiĠ nianĠ
yueĠ hanĠ
ju ĠheĠ
tai ĠjiĠ
faĠ dianĠ
chuĠ xiĠ
shenĠ jingĠ
gu ĠdeĠ
zhanĠ taiĠ
wanĠ shangĠ
jieĠ hunĠ
ĠdiĠ tieĠ
ling ĠbuĠ
ĠzhiĠ diĠ
ĠyouĠ xieĠ
ĠyiĠ zaiĠ
ziĠ zhuĠ
Ġ xu
Ġ ka
ye ĠheĠ
huaĠ shengĠ
ĠxingĠ dongĠ
chanĠ shengĠdeĠ
ĠrenĠminĠ zhengĠfuĠ
ĠweiĠ nengĠ
ĠyouĠ xiaoĠ
zhaoĠ kaiĠ
2020ĠnianĠ meiĠguoĠrenĠkouĠpuĠchaĠdeĠshuĠjuĠ
xue ĠheĠ
liang ĠrenĠ
zuĠ jianĠ
lingĠ xianĠ
maĠlai ĠxiĠyaĠ
leĠ taĠ
chao ĠdeĠ
ĠerĠ buĠ
tongĠ cheĠ
yanĠchangĠ huiĠ
chang ĠzaiĠ
yaoĠ wuĠ
qin ĠshiĠ
huoĠ jianĠ
ti ĠzhongĠ
ruĠ xuanĠ
kuo ĠdaĠ
ĠzaiĠ xiĠ
ĠxiĠ laĠ
ĠĠĠ P
ĠĠĠ 2025
gua Ġ
yinĠ du
lieĠ biaoĠ
chuĠ xianĠzaiĠ
Ġ yingĠyuĠ
ĠĠĠ nian
ĠliĠ shuĠ
geĠ daĠ
geĠ erĠ
xueĠ xiao
S Ġ
ĠĠĠ 2024
xiangĠ xiĠ
ĠgongĠ chengĠ
xin ĠjiĠ
ĠfuĠ jinĠ
ĠĠĠ qianĠ
ĠdaĠ buĠfenĠ
shanĠxiĠ shengĠ
xing ĠzhongĠ
dai ĠbuĠ
tai ĠshiĠ
siĠ teĠ
changĠ pian
kong ĠbuĠ
ĠshiĠdeĠ yiĠ
ĠzhiĠ duĠ
huĠ beiĠ
lv ĠxingĠ
tuo ĠliĠ
Ġ lu
gongĠ huiĠ
shen ĠshiĠ
cheng ĠliĠdeĠ
daĠ buĠfenĠ
ĠweiĠ liĠ
aoĠ diĠliĠ
Ġliang ĠrenĠ
guiĠ zeĠ
daĠ luĠdeĠ
lao ĠdongĠ
shangĠ hai
ĠC Ġ
1991 ĠnianĠ
ĠyiĠ tongĠ
jing ĠyuĠ
zhuang ĠdeĠ
cu ĠjinĠ
zhouĠ bianĠ
tong ĠbuĠ
pei ĠyinĠ
Ġ qiaoĠ
xingĠ xiangĠ
fen ĠliĠ
zhuangĠ kuangĠ
ĠliĠshiĠ shangĠ
ci ĠzaiĠ
long ĠdeĠ
suan ĠjiĠ
xingĠ quĠ
ĠmingĠ chaoĠzhengĠzhiĠrenĠwuĠ
wuĠkeĠ lan
jin ĠbuĠ
bao ĠshiĠ
daiĠbiao ĠdaĠhuiĠ
wu ĠheĠ
ĠzhiĠ ziĠ
nan ĠshiĠ
zhuĠ changĠ
pei ĠheĠ
ĠzheĠ jiangĠ
ping ĠweiĠ
15 Ġ
teĠ seĠ
suiĠ houĠ
xiaĠjiĠ aoĠlinĠpiĠkeĠyunĠdongĠhuiĠ
jiaoĠ xueĠ
ze ĠweiĠ
ĠjiĠ erĠ
xie ĠshiĠ
puĠ bianĠ
Ġ yaoĠqiuĠ
da ĠheĠ
zhe ĠzaiĠ
piaoĠ fangĠ
D Ġ
la ĠjiĠ
22 Ġ
ĠshiĠ tuĠ
Ġ 3ĠyueĠ
wenĠ xianĠ
ĠĠĠ xiaoĠ
wan ĠrenĠ
luo ĠjiĠ
feiĠ zhouĠ
lian ĠrenĠ
ĠxiĠ juĠ
sa ĠsiĠ
ĠweiĠ heĠ
anĠ quan
Ġ nai
Ġ 2011ĠnianĠ
dao ĠzhongĠ
zhuan ĠxiangĠ
ĠfuĠ jianĠ
kaoĠ lvĠ
sheĠ jiĠdeĠ
wangĠ chaoĠ
Ġ panĠ
jie ĠrenĠ
ĠweiĠ wuĠ
ĠnianĠ qianĠ
mingĠ xianĠ
ĠĠĠ B
gong ĠzhiĠ
zhuĠ zhangĠ
c Ġ
ĠbuĠ keĠ
ĠxiĠ buĠ
Ġ sun
ĠweiĠ xingĠ
tongĠ daoĠ
zheng ĠheĠ
Ġ nvĠxingĠ
ĠĠĠ guoĠ
biaoĠ mianĠ
kou ĠweiĠ
meiĠ guoĠdeĠ
lingĠ daoĠrenĠ
Ġ jiaoĠyuĠ
ĠweiĠ laiĠ
biĠ sai
qiĠzhongĠyiĠ zhongĠ
Ġ 2021
zhao ĠdaoĠ
Ġ mai
hu ĠyuĠ
siĠ lingĠ
jingĠ cha
fangĠ wuĠ
hongĠ seĠ
1988 ĠnianĠ
ĠliĠ miĠ
Ġ tuiĠ
ĠĠĠ congĠ
ĠyuĠ leĠ
zuiĠ hou
ĠshiĠweiĠ leĠ
ĠdeĠzhiĠ wuĠ
Ġsui ĠdeĠ
hun ĠyinĠ
ĠweiĠ huiĠ
yunĠ dong
caiĠ liaoĠ
ĠchengĠ gongĠ
ĠxiĠ ya
Ġ sĠĠĠ
ĠjiĠ huiĠ
Ġ2001ĠnianĠ renĠkouĠ
1993 ĠnianĠ
dongĠ nanĠbuĠ
Ġ zhong
ĠyouĠ buĠ
yuanĠ gongĠ
dongĠ beiĠbuĠ
Ġ 2015
ĠĠĠ 2012
hua ĠjiĠ
fenĠ buĠyuĠ
le ĠĠĠ
jun ĠyuĠ
ĠtiĠ gongĠ
fu ĠzaiĠ
yingĠ gaiĠ
ĠxingĠ qiĠ
ti ĠzhiĠ
shou ĠzhiĠ
bian ĠshiĠ
ĠrenĠ shuĠ
daĠ chenĠ
Ġ hanĠguoĠ
bao ĠzhiĠ
siĠ geĠ
feiĠ chuĠ
Ġ 2005ĠnianĠ
jin ĠyouĠ
dianĠ huaĠ
Ġ guanĠyuĠ
ĠbuĠ menĠ
Ġ quan
ge ĠheĠ
bao ĠyuĠ
ĠyiĠ ban
ruan ĠjianĠ
sao Ġ
R Ġ
wuĠ taiĠ
Ġ saiĠjiĠ
ling ĠdiĠ
chi ĠyouĠ
duiĠ zhangĠ
zhuĠ jueĠ
gengĠ duoĠ
Ġyin ĠerĠ
tui ĠjinĠ
ĠnianĠ diĠ
chuĠ laiĠ
tiĠ daoĠ
yongĠ zuoĠ
ĠzaiĠ jiaĠ
yuanĠ xingĠ
zhengĠ changĠ
faĠxianĠ leĠ
jue ĠshiĠ
wuĠ zhuangĠ
guoĠjiĠ jiĠ
mei ĠdeĠ
yaĠliĠ shanĠdaĠ
ben ĠdiĠ
ĠdaĠ chengĠ
suo ĠzaiĠ
gui ĠdeĠ
ĠerĠshuiĠyuĠmianĠjiĠweiĠ 0
riĠ junĠ
Ġ zaoĠchengĠ
bian ĠxingĠ
yin ĠdiĠ
jiao ĠyouĠ
bo ĠsiĠ
douĠ huiĠ
poĠ huai
tai ĠrenĠ
xu ĠzaiĠ
dongĠ fangĠ
tongĠ yangĠ
Ġ reng
jiao ĠdaĠ
ĠpingĠfangĠ miĠ
ĠdaĠ liangĠ
huoĠ zheĠ
haiĠ waiĠ
tuan ĠdeĠ
qingĠ baoĠ
anĠ huiĠ
Ġ dou
nei ĠyouĠ
mingĠ xingĠ
duiĠ waiĠ
caoĠ zuoĠ
qianĠ wang
jieĠ shaoĠ
Ġsui ĠzheĠ
Ġ 2017
jieĠ mu
Ġ dianĠyingĠ
xia ĠyouĠ
ĠheĠ pingĠ
ĠerĠ gaiĠdiĠ
yeĠ huiĠ
canĠ mou
Ġ 2020
Ġ 2014
ĠĠĠ zaoĠnianĠ
xiang ĠyiĠ
16 Ġ
yongĠ tuĠ
Ġ 2013
qiang ĠdeĠ
ĠyiĠ duĠ
ĠzhiĠ dingĠ
ĠyuĠ heĠ
chuĠ kouĠ
gaiĠ shanĠ
aoĠyunĠ huiĠ
biao ĠdeĠ
la ĠheĠ
ĠxiĠ tong
ĠdeĠshiĠ jieĠ
ĠĠĠ I
gao ĠjiaĠ
xiĠ nanĠ
ĠyueĠ nanĠ
duiĠ xiangĠ
xianĠ jinĠ
yanĠ shenĠ
queĠzhenĠ bingĠliĠ
dun ĠdeĠ
ĠjiaĠ naĠdaĠ
ĠbaoĠ hanĠ
mei ĠliĠ
san ĠjiĠ
zuoĠ quĠ
ĠshiĠ daĠ
Ġ xiu
Ġ shengĠyuĠ
leĠ daĠ
junĠ quĠ
dengĠ shangĠ
zhengĠ tiĠ
xiaoĠ quĠ
jia ĠzaiĠ
chang ĠyouĠ
leĠ taĠdeĠ
xiaĠ xiaĠdeĠyiĠgeĠ
longĠ jiangĠ
geĠ lunĠ
Ġye ĠyouĠ
F Ġ
jue ĠyiĠ
shuĠ ruĠ
ĠnianĠ laiĠ
haiĠ xiaĠ
guan ĠshiĠ
duo ĠrenĠ
sui ĠzhuĠ
nie Ġ
Ġxian ĠrenĠ
yun ĠshiĠ
ĠqiĠ zaiĠ
yunĠ zuoĠ
Ġri ĠdeĠ
19 ĠshiĠjiĠ
l ĠĠĠ
ĠweiĠ keĠ
gouĠ zaoĠ
ju ĠyiĠ
banĠshiĠ chuĠ
zhan ĠzhiĠ
ĠerĠ yanĠ
Ġnan ĠzhiĠ
Ġ xiao
liu ĠzaiĠ
ĠĠĠ zengĠ
zuo ĠrenĠ
dianĠ cheĠ
3 ĠnianĠ
kang ĠriĠ
faĠ shouĠ
shuĠ yuanĠ
jia ĠyouĠ
du ĠheĠ
fei ĠliĠ
junĠ guanĠ
gaoĠsuĠ gongĠluĠ
1990 ĠnianĠ
kaiĠ zhanĠ
Ġ chengĠliĠ
miĠ miĠ
ĠshiĠwuĠ keĠ
Ġ ãģ
renĠ daĠ
ĠzhongĠ zaiĠ
Ġ 100
Ġ shaoĠ
shang ĠyuĠ
bin ĠhaiĠ
shenĠ me
ĠdongĠ linĠ
Ġ 2010
ĠwanĠ meiĠyuanĠ
xiaĠ ling
chuang ĠjianĠ
jiangĠ huiĠ
lingĠ xiuĠ
Ġ niu
zhuang ĠbeiĠ
dongĠ zuoĠ
liangĠ ciĠ
chuan ĠzhiĠ
chai ĠchuĠ
senĠ linĠ
tian ĠshiĠ
ĠqiĠ xiangĠ
shouĠ zhangĠ
ĠtaiĠ wan
caiĠ zhengĠ
Ġ qi
an ĠdaĠ
ya ĠkeĠ
biĠ mianĠ
touĠ piao
ĠĠĠ W
shou ĠyiĠ
gu ĠliĠ
ĠqiĠ ziĠ
T Ġ
25 Ġ
1Ġ haoĠ
Ġ zhengĠzhiĠ
shanĠ quĠ
huiĠ yuanĠ
Ġ jianĠyuĠ
ĠĠĠ siĠ
ĠjuĠ xingĠ
Ġ hengĠ
bei ĠshiĠweiĠ
tu ĠxingĠ
qin ĠziĠ
ĠerĠ tongĠ
juĠ qingĠ
kaĠ luoĠ
ĠnianĠ1ĠyueĠ 1ĠriĠ
shouĠ luĠ
wuĠ siĠ
ĠtaiĠ yangĠ
23 Ġ
zuiĠ gao
Ġ huan
hou ĠshiĠ
waiĠ jiaoĠbuĠ
zhe ĠbuĠ
ĠyiĠ meiĠyuanĠ
liu ĠdeĠ
ĠsiĠ lingĠ
ceĠ liangĠ
deng ĠdeĠ
1989 ĠnianĠ
jingĠ xuanĠ
ĠmeiĠ geĠ
hui ĠzhongĠ
zhangĠ guanĠ
fanĠ zuiĠ
ĠjieĠ shouĠ
ban ĠliĠ
Ġ po
Ġ 2007ĠnianĠ
ĠĠĠ dangĠ
si ĠyiĠ
fu ĠweiĠ
suo ĠshiĠ
xiangĠ zhengĠ
bingĠ ruĠ
ĠyouĠ keĠ
ĠerĠ ziĠ
daiĠ laiĠ
ming ĠzhongĠ
meng ĠdeĠ
geng ĠweiĠ
baoĠ shouĠ
ĠdongĠ beiĠ
fanĠweiĠ neiĠ
Ġ yongĠyouĠ
shou ĠxiĠ
pian ĠdeĠ
he ĠĠĠ
mian ĠshiĠ
guoĠ wangĠ
ĠerĠ chengĠ
taiĠ fengĠ
ri ĠzhiĠ
ĠyiĠ houĠ
huĠ nanĠ
Ġ 2008ĠnianĠ
zun Ġ
ĠzaiĠ duĠ
ĠqiĠ xiaĠ
chuĠ daoĠ
Ġ sheĠhuiĠ
ĠjieĠ keĠ
ĠshengĠhuo ĠxiĠ
yan ĠxiĠ
fangĠ mianĠdeĠ
ren ĠliĠ
can ĠyiĠyuanĠ
kaiĠ tongĠ
Ġ sheĠyouĠ
taiĠ ziĠ
junĠ zhuĠ
qingĠ chuĠ
dingĠ juĠ
gongĠ zhuĠ
hua ĠheĠwuĠ
zhan ĠqiĠjianĠ
Ġ 2012
jin ĠweiĠ
13 Ġ
1984 ĠnianĠ
zhou ĠqiĠ
zu ĠfuĠ
jianĠ jieĠ
ĠsiĠ wangĠ
pi ĠfuĠ
fei ĠdeĠ
wai ĠbuĠ
xiangĠ huĠ
guanĠ chaĠ
xingĠbuĠ mingĠ
Ġ juĠyouĠ
dui ĠyouĠ
liang ĠjiĠ
shengĠ yinĠ
yingĠ yeĠ
zhuĠyao ĠdeĠ
lei ĠdaĠ
Ġ sha
Ġ lao
du ĠliĠdeĠ
i Ġ
zhuan ĠdeĠ
Ġnian ĠĠĠ
lv ĠdeĠ
xiĠ juĠ
ĠĠĠ mingĠ
bing ĠdeĠ
e ĠĠĠ
Ġ canĠjiaĠ
er ĠyueĠ
chang ĠzhiĠ
jiang ĠjiĠ
maĠ laĠ
gouĠ maiĠ
ĠshengĠhuoĠxiĠ xingĠbuĠmingĠ
ĠyiĠ daiĠ
tian ĠqiĠ
que ĠdeĠ
tongĠ paiĠ
xinĠ yangĠ
g Ġ
ni ĠerĠ
zuoĠ biaoĠweiĠ
jiangĠ lingĠ
anĠ zhuangĠ
ĠwuĠ faĠ
touĠ luĠ
3 ĠgeĠ
ĠĠĠ beiĠjingĠ
liangĠ xiangĠ
jiaĠliĠ fuĠ
Ġ yongĠyuĠ
xinĠ xingĠ
huoĠ shanĠ
zuĠ zhiĠdeĠ
V Ġ
keĠneng ĠshiĠ
Ġ gongĠyouĠ
jing ĠzhongĠ
Ġ zhongĠshiĠ
cheng ĠheĠ
lu ĠjiĠ
guanĠ jianĠ
taiĠ beiĠshiĠ
Ġ dong
jiuĠ duĠ
ĠĠĠciĠ waiĠ
p Ġ
ĠzaiĠ ci
jieĠ sanĠ
kong ĠqiĠ
Ġyue ĠzhongĠ
ruĠ qinĠ
jiuĠ longĠ
bai ĠrenĠ
fangĠ yanĠ
lunĠ wenĠ
Ġ cha
er ĠzhiĠ
liang ĠzhiĠ
zhuĠ yiĠdeĠ
ĠzhongĠguoĠ daĠluĠ
Ġ kai
shang ĠbuĠ
Ġ canĠyuĠ
zheĠ xie
chuanĠ shuoĠ
1985 ĠnianĠ
keĠyiĠ zaiĠ
kaoĠ guĠ
faĠ xingĠdeĠ
houĠ beiĠ
ĠchuĠ xianĠ
Ġ yang
qu ĠjiĠ
fuĠ jinĠdeĠ
Ġ 2009
muĠ qin
ai ĠjiĠ
chu ĠbuĠ
Ġyin ĠqiĠ
man ĠdeĠ
jingĠ fangĠ
ĠshiĠshiĠ jieĠ
xinĠjiaĠ poĠ
Ġ duanĠ
tong ĠnianĠ
mo ĠsiĠkeĠ
ĠĠĠjuĠ qingĠ
lian ĠzaiĠ
yuĠ yanĠ
ĠbiĠ ruĠ
Ġ diĠshiĠ
cheng ĠnianĠ
kao ĠjinĠ
qian ĠrenĠ
ĠweiĠ ciĠ
zhanĠ tingĠ
zhangĠ aiĠ
Ġ 20
guiĠ zuĠ
b Ġ
ming ĠrenĠ
yunĠ nanĠ
Ġ qiĠshiĠ
zhongĠ dianĠ
guangĠdongĠ shengĠ
ĠshiĠ riĠbenĠ
zuoĠ zheĠ
ĠgongĠ tongĠ
quĠ leĠ
ĠsiĠ chuanĠ
P Ġ
Ġ 2008
ĠĠĠ ben
zhe ĠweiĠ
ĠguoĠ chengĠzhongĠ
baoĠ zhangĠ
taiĠ duĠ
ji ĠĠĠ
ĠchuĠ shengĠyuĠ
ĠteĠbie ĠshiĠ
Ġ 1949
Ġ 2013ĠnianĠ
gao ĠdaĠ
ĠrenĠ mingĠ
zhou ĠjiĠ
ĠshiĠjiĠ shangĠ
zong ĠshiĠ
yinĠ qingĠ
changĠ jianĠdeĠ
shuangĠ fangĠ
qu ĠyiĠhuiĠ
yin ĠheĠ
jiang ĠzaiĠ
ĠyouĠ ciĠ
quanĠ zhangĠ
xunĠ yangĠ
ĠdiĠ wuĠ
suoĠ shuĠ
faĠ huiĠ
yingĠ xiongĠ
hua ĠyiĠ
xiuĠ zhengĠ
hua ĠzhiĠ
gan ĠbuĠ
ĠshiĠdeĠ guoĠ
Ġ zengĠ
fang ĠyiĠ
youĠ xianĠ
ĠqiĠ xiĠ
1 ĠliĠ
tiao ĠliĠ
chu ĠzaiĠ
le ĠyuĠ
ĠĠĠ L
cuo ĠwuĠ
ĠjiaĠ tingĠ
Ġ cai
chuĠ yanĠ
ĠĠĠdiĠ fangĠ
ĠguoĠ huiĠ
ĠyiĠ xiaoĠshiĠ
bianĠ juĠ
ĠxueĠ xiaoĠ
2 ĠnianĠ
ĠbingĠ duĠ
shouĠ xiangĠ
ĠwanĠ yuanĠ
wanĠ gongĠ
nengĠ liangĠ
Ġ dui
hu ĠbuĠ
ban ĠbuĠ
ĠnianĠ kaiĠshiĠ
faĠ lanĠxiĠ
ĠwuĠkeĠ lanĠ
ĠĠĠ O
lao ĠdeĠ
shengĠ taiĠ
zhouĠ ciĠshiĠ
taoĠ taiĠ
shu ĠliĠ
yuanĠ zeĠ
xiangĠ guanĠdeĠ
4 ĠnianĠ
ĠĠĠ qiĠtaĠ
chu ĠzhiĠ
zui ĠyouĠ
feng ĠweiĠ
ĠyueĠ tuanĠ
luĠ kouĠ
ĠĠĠ 2011
luĠ yingĠ
qingĠ huaĠ
ĠpingĠ junĠ
guĠ fen
keĠdeĠ qiĠzhongĠyiĠzhongĠ
ĠĠĠ 2010
ĠĠĠ meiĠguoĠ
hui ĠbuĠ
ĠweiĠ chiĠ
zhi ĠdeĠshiĠ
qingĠ qiuĠ
dangĠ diĠdeĠ
kaiĠ sheĠ
yaoĠ qiu
ĠzhongĠhuaĠrenĠminĠgongĠheĠguoĠ zhengĠzhiĠrenĠwuĠ
ĠĠĠ diĠerĠ
si ĠzhiĠ
ĠjiĠ nian
ĠheĠ xinĠ
huoĠ xingĠ
gaiĠ chengĠ
huan ĠchengĠ
ĠshiĠ yong
ĠĠĠ danĠ
ling ĠrenĠ
heĠ xinĠ
chengĠ keĠ
Ġ 2022
han ĠyouĠ
hen ĠdaĠ
ĠheĠ zhongĠ
faĠ guanĠ
meiĠ shuĠ
dao ĠbuĠ
han ĠyuĠ
zhuang ĠjiĠ
cui ĠhuiĠ
luĠ keĠ
ĠshiĠ geĠ
Ġwan ĠjiaĠ
paiĠ mingĠdiĠ
a ĠĠĠ
xia ĠweiĠ
qiangĠ diaoĠ
Ġ qing
Ġ 2006ĠnianĠ
Ġ maiĠkeĠ
en ĠshengĠ
ĠĠĠ 1Ġ
dang ĠweiĠ
Ġ henĠ
ĠĠĠ 2Ġ
zheng ĠweiĠ
ĠyiĠ zuoĠ
xiĠ laĠ
Ġ xiong
yuan ĠzhongĠ
bei ĠweiĠ
yaĠ junĠ
zuiĠ gaoĠdeĠ
tianĠ jingĠ
niĠyaĠ zhouĠ
neng ĠzaiĠ
gongĠ yingĠ
ĠA Ġ
xiaĠ quĠ
suoĠ chuĠdeĠ
canĠ kaoĠ
ya ĠyiĠ
chengĠ benĠ
dangĠ juĠ
tiĠyuĠ changĠ
xie ĠerĠ
shangĠ haiĠshiĠ
sheng ĠyouĠ
suo ĠzhiĠ
ĠjiĠ buĠ
ĠyeĠ jiuĠshiĠ
ĠdaĠ duoĠ
teĠ dingĠ
tuĠ poĠ
kun ĠnanĠ
renĠ yuanĠ
ĠdaĠ xingĠ
dengĠ dengĠ
aĠlaĠ boĠ
tai ĠzhongĠ
yinĠ ruĠ
xiang ĠyouĠ
bai ĠdeĠ
ĠyiĠ fuĠ
xieĠ daoĠ
Ġ meng
Ġ wenĠhuaĠ
jing ĠzhiĠ
ĠjiĠ duĠ
keĠ xueĠyuanĠ
tan ĠdeĠ
shun ĠliĠ
huoĠ banĠ
fenĠbuĠ zaiĠ
fou Ġ
xianĠ shengĠ
ĠdaĠ fuĠ
laĠ dingĠ
Ġsui ĠzhuĠ
huan ĠdeĠ
xiu ĠfuĠ
xiĠ baoĠ
zhanĠ xianĠ
ĠĠĠ aĠ
cheng ĠguoĠ
jun ĠzhiĠ
ĠxiĠbanĠ yaĠ
le ĠqiĠ
lai ĠshiĠ
daĠ huiĠ
Ġxiang ĠnianĠ
xiang ĠweiĠ
ruĠ qin
wangĠ yuanĠ
ĠxiĠ erĠ
chui Ġ
ĠbuĠ jinĠ
ĠkeĠ erĠ
Ġ 2012ĠnianĠ
ke ĠyouĠ
sui ĠshiĠ
wuĠ ziĠ
duo ĠweiĠ
chuan ĠdeĠ
haiĠ yangĠ
jing ĠheĠ
xiaoĠ yuanĠ
zhongĠguoĠ daĠluĠdeĠ
xu ĠliĠyaĠ
haiĠ pingĠmianĠ
gai ĠshiĠ
suo ĠweiĠ
xiu ĠjianĠ
qingĠ xingĠ
kaiĠ fa
ĠtaĠcengĠ daiĠbiaoĠ
ganĠran ĠzheĠ
ĠheĠ lanĠ
tongĠ mengĠ
qiangĠ lieĠ
heiĠ seĠ
ĠriĠ junĠ
ĠĠĠ yinĠ
xue ĠyuĠ
lai ĠyueĠ
1980 ĠnianĠ
Ġzu ĠfuĠ
Ġ00 Ġ
ciĠshiĠjieĠdaĠ zhanĠ
jia ĠweiĠ
tai ĠyuĠ
zui ĠweiĠ
zhengĠ ce
zhaoĠ pianĠ
le ĠzaiĠ
yin ĠliĠ
ze ĠzaiĠ
shouĠ gouĠ
yaĠ meiĠ
zhou ĠzhiĠ
hongĠ zha
zhen ĠyuĠ
jing ĠyiĠ
guĠ daiĠ
geiĠ leĠ
li ĠyuĠ
zhu ĠzhiĠ
jiang ĠzhiĠ
huang ĠhouĠ
1986 ĠnianĠ
renĠ leiĠ
dangĠ yuanĠ
ĠtongĠshiĠ gaiĠdiĠ
bei ĠyuĠ
zu ĠyiĠ
te ĠxingĠ
daĠ jiangĠ
ĠdeĠjiĠ chuĠ
ĠguangĠ dongĠ
hou ĠweiĠ
ding ĠqiĠ
Ġ liaoĠ
zhang ĠweiĠ
manĠ zuĠ
zuĠqiuĠ yunĠdongĠyuanĠ
boĠshiĠ xueĠweiĠ
Ġ kuĠ
qiang ĠzhiĠ
beng Ġ
beiĠ jingĠshiĠ
shangĠ changĠ
nongĠ minĠ
neiĠluĠ shengĠfenĠ
xiang ĠheĠ
shengĠ chuĠ
ĠhuoĠ zheĠ
jiao ĠzhiĠ
liang ĠguoĠ
chengĠ baoĠ
jiuĠ huiĠ
cheng ĠshiĠdeĠ
zhen ĠjiĠ
keĠ fuĠ
benĠ shenĠ
Ġa ĠerĠ
Ġ tieĠ
chu ĠyouĠ
bang ĠdeĠ
ĠzhongĠ ziĠ
xunĠ zhangĠ
xiaĠling ĠshiĠjianĠ
Ġ zhiĠyiĠ
tong ĠweiĠ
jing ĠzaiĠ
duan ĠshiĠ
mo ĠsiĠ
chuangĠ banĠ
le ĠyouĠ
jiaoĠ tang
bianĠ haoĠ
ĠmuĠ qian
ĠbuĠ diĠ
ĠrenĠ qiĠ
xiangĠ xinĠ
kuoĠ zhanĠ
Ġmei ĠnianĠ
ke ĠzhiĠ
luĠ xuĠ
ri ĠdeĠ
min ĠdiĠ
shangĠ xiaĠ
jiu ĠyiĠ
zao ĠzaiĠ
diĠ qiuĠ
wo ĠdeĠ
ĠbuĠ luoĠ
wuĠ daoĠ
jun ĠheĠ
wan ĠdeĠ
juĠ daĠ
ĠĠĠjianĠ jieĠ
ĠĠĠ jieĠ
ta ĠweiĠ
mu ĠzhiĠ
ĠjiĠ fuĠ
renĠ gongĠ
Ġ kanĠ
gao ĠzhiĠ
fan ĠzhiĠ
xuan ĠdeĠ
xiĠ wangĠ
geĠ ming
tianĠ tiĠ
weiĠyiĠ yiĠ
chi ĠrenĠ
muĠ niĠ
Ġ 500
1945 ĠnianĠ
ĠqiĠ cheĠ
wuĠ zhengĠzhuangĠ
zheĠ xueĠ
suoĠ youĠdeĠ
tanĠ panĠ
ĠshiĠyiĠge ĠweiĠyuĠ
5 ĠnianĠ
m ĠĠĠ
hui ĠguoĠ
14 Ġ
nanĠ fangĠ
liangĠ mingĠ
miĠ yaĠ
ĠxianĠ houĠ
o Ġ
zi ĠzhongĠ
Ġ di
Ġ 1950
qu ĠzhiĠ
xiĠ yaĠ
jiangĠ jinĠ
yueĠ nanĠ
ĠĠĠdiĠfangĠ ziĠliaoĠ
dian ĠheĠ
ya ĠheĠ
rong ĠheĠ
xiangĠ biĠ
shaĠ haiĠ
Ġ 2014ĠnianĠ
ling ĠyiĠgeĠ
fei ĠerĠ
feng ĠfuĠ
wenĠ duĠ
Ġ song
Ġ jiuĠshiĠ
yan ĠyuĠ
bing ĠyiĠ
diĠyiĠ weiĠ
Ġ 24
Ġ waĠ
duiĠ ciĠ
Ġsui ĠshiĠ
Ġ ni
dai ĠshiĠ
ping ĠdeĠ
nuo ĠfuĠ
ĠguoĠ quĠ
zi ĠzaiĠ
chuĠ shouĠ
yinĠ paiĠ
changĠ jianĠ
aoĠ zhouĠ
4 ĠgeĠ
h Ġ
fangĠ jianĠ
gaoĠ xiong
Ġ 10Ġ
ĠyiĠsiĠ lanĠ
M Ġ
ye ĠjiĠ
ĠyiĠ wuĠ
shenĠ duĠ
Ġ pu
Ġnian ĠweiĠ
paiĠ hangĠ
qinĠ wangĠ
Ġ0 Ġ
liang ĠnianĠ
san ĠjiaĠ
nv ĠzhuĠ
ĠĠĠ yingĠ
zhou ĠheĠ
xiu ĠdeĠ
1987 ĠnianĠ
naĠ cui
guanĠliĠ juĠ
ĠĠĠ 3
ding ĠshiĠ
daĠ xiĠyangĠ
haiĠ baĠweiĠ
ĠĠĠ deĠĠĠ
Ġ ruoĠ
ti ĠweiĠ
ĠjiĠ houĠ
ĠkeĠ xiĠ
shanĠ fengĠ
tongĠ mingĠ
ĠjiaĠ zuĠ
dongĠshiĠ zhangĠ
Ġ genĠ
ĠĠĠ H
pei ĠzhiĠ
zou ĠxiangĠ
ĠyouĠ zhongĠ
xiaoĠ fangĠ
zai ĠliĠ
zhu ĠweiĠ
ye ĠyiĠ
liang ĠdaĠ
ĠxiĠ lie
suoĠ caiĠyong
Ġbing ĠweiĠ
jie ĠzhongĠ
ĠbuĠ duanĠ
ĠshiĠyiĠ buĠ
Ġ ku
Ġ 18
han ĠdeĠ
huan ĠzheĠ
ĠbuĠ erĠ
ĠdaĠ duoĠshuĠ
gaiĠ zaoĠ
nengĠ yuanĠ
Ġ ge
le ĠzhongĠ
hu ĠweiĠ
jun ĠrenĠ
1983 ĠnianĠ
zhanĠ lve
kaoĠ lv
shou ĠrenĠ
1982 ĠnianĠ
zhiĠshiĠ qiĠ
wen ĠzhongĠ
gongĠ chengĠshiĠ
jieĠ tiĠ
jun ĠzhongĠ
zhanĠ lanĠ
ĠĠĠ jingĠ
ba ĠheĠ
man ĠdiĠ
ĠshiĠ yeĠ
erĠ tongĠ
guĠ dingĠ
ganĠ ranĠ
mengĠ gu
ĠĠĠ J
ĠzaiĠ youĠ
geĠ juĠ
tai ĠheĠ
Ġ cn
leĠ zheĠ
Ġ tang
huan ĠxingĠ
ĠguoĠ neiĠ
ĠweiĠyuĠ gaiĠ
lun ĠshiĠ
zhengĠ xie
shangĠ shengĠ
boĠ linĠ
jie ĠliĠ
hui ĠyiĠyuanĠ
jueĠ duiĠ
gong ĠliĠdeĠ
kou ĠdeĠ
ĠerĠ feiĠ
muĠ qian
diaoĠ kuai
ĠmeiĠ yuanĠ
aiĠerĠ lanĠ
ĠĠĠ 2
dao ĠweiĠ
su ĠliĠ
xiaoĠ feiĠ
xiaĠ lingĠ
ĠdeĠyiĠ shuĠ
mianĠ duiĠ
ĠdongĠ nanĠ
ĠweiĠ UTCĠ
zhuĠyiĠ zheĠ
lianĠheĠ huiĠ
Ġ luo
ĠĠĠ maĠ
yanĠ haiĠ
xiongĠ yaĠliĠ
Ġcn Ġ
ĠĠĠ zhengĠ
ĠĠĠ jiaoĠtongĠ
zhu ĠheĠ
wen ĠheĠ
ĠerĠ qiĠ
Ġ chi
zhou ĠyiĠ
san ĠweiĠ
san ĠdaĠ
ziĠ shenĠ
kaiĠshiĠ shiĠ
diaoĠkuai ĠyiĠxiaoĠshiĠ
cheng ĠyouĠ
chong ĠjiĠ
mang Ġ
guoĠ huiĠ
ĠjiĠ UTCĠ
liuĠ xiaĠ
paiĠ qianĠ
sheĠyouĠ xiaĠlingĠshiĠjianĠ
Ġwan ĠliĠ
Ġling ĠyouĠ
ĠdeĠshiĠquĠweiĠ UTCĠ
ĠerĠgaiĠdiĠ suoĠcaiĠyong
ĠtongĠshiĠgaiĠdiĠ sheĠyouĠxiaĠlingĠshiĠjianĠ
ĠerĠgaiĠdiĠsuoĠcaiĠyong ĠdeĠshiĠquĠweiĠUTCĠ
Ġ ziĠyouĠ
shu ĠrenĠ
lao ĠshiĠ
shengĠ diĠ
nanĠ haiĠ
ĠfuĠ qinĠ
zhang ĠyueĠ
17 Ġ
jingĠ gaoĠ
jianĠliĠ leĠ
Ġ shuang
ceng ĠweiĠ
chuangĠ zaoĠ
3 ĠrenĠ
bingĠ feiĠ
ĠgeĠ quĠ
miĠshuĠ zhangĠ
guan ĠheĠ
hao ĠshiĠ
cai ĠdeĠ
xiangĠ tongĠdeĠ
biĠyeĠ houĠ
gaoĠyuĠ haiĠpingĠmianĠ
2 ĠrenĠ
dang ĠjiĠ
qun ĠzhongĠ
Ġ shuoĠ
ge ĠyuĠ
Ġ kouĠ
ru ĠdeĠ
ĠqiĠ fuĠ
quĠdeĠ mianĠjiĠweiĠ
haiĠbaĠweiĠ gaoĠyuĠhaiĠpingĠmianĠ
Ġ rongĠ
zhang ĠheĠ
jinĠ xingĠdeĠ
gaiĠ mingĠweiĠ
fa ĠzhiĠ
xuan ĠzhongĠ
jingĠ duĠ
changĠ suoĠ
tan ĠxianĠ
ĠzhongĠ shanĠ
daĠ buĠfen
guanĠ cha
lieĠ ruĠ
Ġ 50
zhan ĠyuĠ
buĠshiĠ quĠ
fang ĠjiĠ
daĠ louĠ
ĠĠĠ yanĠ
da ĠyiĠ
Ġyue ĠyiĠ
Ġ shanĠxiĠ
shang ĠdiĠ
chao ĠyueĠ
huaĠ jiaĠ
ĠhuoĠ dongĠ
Ġ 2025
Ġ 2015ĠnianĠ
pingĠ guĠ
biaoĠ benĠ
Ġ sa
tiao ĠjieĠ
zhangĠ fuĠ
cunĠ luoĠ
shouĠ xianĠ
tuĠ jingĠ
ĠluoĠ maĠ
yi ĠshiĠdeĠ
suo ĠzaiĠdiĠ
bian ĠyiĠ
dou ĠzaiĠ
kaiĠshiĠ zaiĠ
ĠdaĠ luĠ
cheĠ xiangĠ
te ĠjiĠ
ĠqiĠzhongĠ baoĠkuoĠ
li ĠdeĠ
gong ĠweiĠ
gongĠ neng
banĠ ben
suoĠchuĠdeĠ haiĠbaĠweiĠgaoĠyuĠhaiĠpingĠmianĠ
ben ĠrenĠ
changĠ jingĠ
danĠ baiĠ
feiĠ erĠdeĠ
ĠbuĠ xiangĠ
sheĠ xianĠ
ĠĠĠ Re
ĠĠĠ anĠ
duan ĠshiĠjianĠ
ĠshiĠ beiĠ
ĠzaiĠ taĠ
qianĠ dingĠ
Ġ Ma
xiao ĠyuĠ
lai ĠsiĠ
yang ĠjiĠ
jianĠ kangĠ
ĠerĠ buĠshiĠ
luoĠ faĠ
Ġer ĠdeĠ
tuiĠ xiuĠ
7 ĠnianĠ
deng ĠzhiĠ
san ĠrenĠ
se ĠfuĠ
huiĠ guiĠ
tiĠ xingĠ
yongĠ leĠ
yinĠ xiangĠ
shenĠ huaĠ
ĠdeĠjiĠ luĠ
Ġ dunĠ
ou ĠxiangĠ
yan ĠrenĠ
yan ĠheĠ
caiĠ nengĠ
juĠ leĠ
quĠ zhuĠ
naĠ xieĠ
yin ĠyuĠ
zuĠqiuĠ duiĠ
mian ĠyiĠ
shuai ĠlingĠ
ĠqiĠ xuanĠ
diĠ xiaĠ
zuĠ cheng
boĠ lan
ĠyiĠ shengĠ
ĠluĠ wa
keĠnengĠ huiĠ
ĠheĠ daoĠ
canĠ xuanĠ
Ġ lunĠ
ĠĠĠ diĠyiĠ
ĠĠĠ toĠĠĠ
chu ĠzhongĠ
kong ĠxiĠ
Ã© Ġ
Ġnian ĠshiĠjieĠ
lianĠ luoĠ
huĠ xiangĠ
Ġ 2023
ĠĠĠ 2008
qingĠ jieĠ
zhou ĠliĠ
ĠzhongĠ gongĠzhongĠyangĠ
changĠ shangĠ
Ġ 2016ĠnianĠ
ĠĠĠ Ma
dan ĠshiĠ
zaiĠyiĠ qiĠ
yanĠ zhongĠdeĠ
quan ĠyiĠ
ĠyuĠ beiĠ
ĠshouĠ ciĠ
ĠmaĠ lai
Ġ chaoĠxianĠ
ĠĠĠ meiĠ
guan ĠyiĠ
mu ĠerĠ
kai ĠdeĠ
tu ĠjiĠ
Ġ 2007
shu ĠbuĠ
fa ĠyiĠ
ding ĠliĠ
zhenĠ quĠdeĠmianĠjiĠweiĠ
ĠyuanĠ mingĠ
ĠshouĠ daoĠ
Ġ hei
ĠzhiĠ shuĠ
ziĠ chanĠ
duiĠ yingĠ
tiĠgongĠ leĠ
ĠĠĠ xingĠ
zhong ĠyiĠyuanĠ
zhu ĠzhongĠ
dai ĠweiĠ
nei ĠdiĠ
faĠ shengĠzaiĠ
que ĠshiĠ
2 ĠgeĠ
1978 ĠnianĠ
ĠyuĠ xiĠ
heĠ liuĠ
fuĠ xingĠ
xianĠ zhuĠ
beiĠ siĠ
yanĠ seĠ
zuĠqiuĠ juĠleĠbuĠ
19 Ġ
qian ĠxiĠ
kao ĠshiĠ
geĠ guoĠ
zhengĠ bianĠ
baoĠ luoĠ
zuiĠ duoĠ
suĠ geĠlanĠ
ti ĠheĠ
shang ĠjiĠ
yan ĠjiĠ
she ĠzaiĠ
diĠ quĠdeĠ
ziĠ xun
muĠsiĠ linĠ
Ġ lv
ĠshiĠ jiaĠ
zhuanĠ menĠ
kaĠ laĠ
Ġ hangĠ
Ġ dianĠshiĠ
ru ĠweiĠ
daiĠ lingĠ
ĠĠĠ ran
shen ĠyiĠ
wuĠ guanĠ
sheĠ jiĠshiĠ
Ġ 2ĠyueĠ
san ĠbuĠ
zhongĠ yao
beiĠ fangĠ
baoĠ cunĠ
mianĠ feiĠ
Ġ kan
zhongĠguoĠ daĠluĠ
Ġ lianĠheĠ
Ġ jueĠdingĠ
ĠbuĠ laĠ
feiĠ yanĠ
zaoĠ shangĠ
mianĠ dianĠ
te ĠĠĠ
yang ĠxingĠ
xue ĠzhongĠ
30 Ġ
chu ĠweiĠ
qian ĠyueĠ
ping ĠguoĠ
ceng ĠdeĠ
tui ĠjianĠ
liao ĠdeĠ
quanĠ xianĠ
ĠxiangĠ guanĠ
bing ĠyuĠ
guoĠ neiĠ
chuanĠ tongĠdeĠ
ĠbeiĠ chengĠweiĠ
E Ġ
on Ġ
juĠ fengĠ
gengĠ xinĠ
ĠĠĠ gongĠ
qing ĠrenĠ
duo ĠnianĠ
lang ĠzhongĠ
diĠ wuĠ
tianĠ houĠ
Ġ shao
ĠĠĠ 1
shu ĠzaiĠ
gao ĠshiĠ
pian ĠzhongĠ
wanĠ zhengĠ
6 ĠnianĠ
hua ĠzaiĠ
tongĠ xunĠ
bianĠ jingĠ
shanĠ xianĠ
feng ĠdeĠ
miao ĠhuiĠ
shouĠ quanĠ
jiuĠ yuanĠ
xieĠ zuoĠ
n ĠĠĠ
zan ĠzhuĠ
cheng ĠzaiĠ
guiĠ mo
ĠĠĠ renĠ
ju ĠzaiĠ
mu ĠyuĠ
ba ĠdaĠ
ba ĠsiĠ
jue ĠyuĠ
geĠ laĠ
luoĠ shanĠjiĠ
Ġ 2019ĠnianĠ
Ġ zaĠzhiĠ
ĠliĠ chengĠ
faĠ mingĠ
tuĠ shuĠ
xingĠ muĠ
xianĠ ruĠ
ĠdiĠ qiuĠ
Ġ peng
li ĠziĠ
ĠĠĠ R
ĠzhiĠ waiĠ
zhangĠ zhuanĠjiĠ
ĠzuiĠ gaoĠ
ĠbiĠ saiĠ
tun Ġ
jinĠ riĠ
Ġ zuĠzhiĠ
shuang ĠdaĠ
quĠ jianĠ
le ĠdeĠ
guanĠ ceĠ
xing ĠzaiĠ
fuĠ zhuĠ
cheĠ changĠ
beiĠrenĠ mingĠweiĠ
xian ĠzhongĠ
zhou ĠrenĠ
ĠshiĠ erĠ
ĠshiĠ taĠ
Ġyue ĠheĠ
Ġ U
Ġ sang
dui ĠzhongĠ
ĠshanĠ dongĠ
guoĠminĠ dangĠ
ĠyouĠ zaiĠ
pingĠ lun
liang ĠheĠ
ĠdeĠshiĠ yongĠ
2Ġ haoĠ
8 ĠnianĠ
jiang ĠyiĠ
gai ĠzhiĠweiĠ
bian ĠzhiĠ
su ĠzhiĠ
ĠshiĠ chengĠ
ĠliĠ liangĠ
chuĠ zhangĠ
lin ĠsiĠ
juĠ benĠ
jiaoĠ duĠ
tianĠ zhuĠ
Ġ 2017ĠnianĠ
luo ĠliĠdaĠ
ĠdiĠ diĠ
xiaoĠ yingĠ
1958 ĠnianĠ
piĠ zhun
Ġ 7Ġ
ĠĠĠ dongĠ
shangĠ xianĠ
zaoĠ chengĠdeĠ
ĠshiĠjianĠ zhuĠ
ban ĠjiĠ
shouĠ boĠ
zhangĠ ziĠ
huĠ lianĠ
Ġ 2018ĠnianĠ
ao ĠerĠ
ĠĠĠ duiĠ
ĠĠĠ nanĠ
ĠĠĠ baĠ
zhanĠ muĠsiĠ
ai ĠliĠ
1979 ĠnianĠ
fuĠ shuĠ
Ġhuo ĠshiĠ
yun ĠdeĠ
tou ĠxianĠ
1972 ĠnianĠ
luĠ zhanĠ
ĠhouĠ zheĠ
ĠĠĠ geĠrenĠ
ding ĠjiĠ
cu Ġ
ĠweiĠ beiĠ
yunĠ yongĠ
ĠpuĠ taoĠ
ba ĠerĠ
I Ġ
ma ĠshiĠ
huai ĠyiĠ
xia ĠzaiĠ
chai Ġ
ĠyiĠ dongĠ
ĠweiĠyuĠ zhongĠguoĠ
Ġ nuoĠ
guan ĠjiĠ
baoĠ hu
ĠyingĠ wenĠ
Ġ yanĠjiuĠ
xu ĠjiĠ
can ĠyiĠ
huoĠ cheĠ
qiangĠ duĠ
Ġci ĠnianĠ
Ġ chunĠ
ĠdiĠ yaĠ
Ġai ĠerĠ
ĠĠĠ 2009
shao ĠdeĠ
xinĠ guanĠ
huoĠ biĠ
ĠxuĠ yaoĠ
Ġming ĠzhiĠ
zha ĠdanĠ
chuanĠ meiĠ
ĠĠĠ for
juĠ banĠdeĠ
jiaoĠ chaĠ
minĠ zu
miĠ niĠ
leiĠ siĠdeĠ
ĠgaiĠ bianĠ
dao ĠzaiĠ
luo ĠshiĠ
xueĠ keĠ
L Ġ
diĠ qiĠ
bingĠ duĠ
ĠxinĠ wenĠ
xingĠzhengĠ quĠ
naĠ xiaĠ
ĠĠĠzengĠ zuĠ
lie ĠshiĠ
ĠzhongĠ xingĠ
xiĠ nanĠbuĠ
taiĠ houĠ
zuiĠ zao
wu ĠyueĠ
zheng ĠjiĠ
ĠshiĠyiĠ keĠ
xinĠjiaĠ po
yao ĠshiĠ
pin ĠdeĠ
gan ĠyuĠ
ĠrenĠ weiĠshiĠ
xiangĠ faĠ
fa ĠliĠ
luo ĠyuĠ
ĠdaĠ buĠfen
tiĠ chuĠdeĠ
juĠ ban
taiĠ kongĠ
canĠ tingĠ
Ġ 2006
xi ĠyouĠ
chu ĠguoĠ
xue ĠliĠ
zhe ĠheĠ
bai ĠyuĠ
jueĠ sai
ĠshiĠshiĠ yongĠ
zong ĠyiĠ
zong ĠrenĠkouĠ
ĠzhiĠ buĠ
leĠ yuanĠ
teĠ quĠ
ĠdeĠ huaĠ
qingĠ zhuĠ
ĠbingĠ beiĠ
zhuanĠ xieĠ
1 ĠrenĠ
Ġ weiĠyiĠ
ĠĠĠ houĠ
ĠzhongĠ dianĠ
jinĠ rong
ĠxiĠ yinĠ
jiang ĠliĠ
zhuĠ daoĠ
Ġ mao
xue ĠjiĠ
faĠ xianĠdeĠ
tongĠ xinĠ
Ġma ĠliĠ
Ġ 2004ĠnianĠ
shangĠ wangĠ
aĠ genĠ
jiaoĠ huanĠ
suiĠ ran
wuĠzhengĠzhuangĠ ganĠranĠzheĠ
4 ĠrenĠ
Ġ 2021ĠnianĠ
xing ĠshiĠdeĠ
xianĠ chengĠ
meiĠ junĠ
Ġ Z
Ġ shun
mi ĠsiĠ
ĠyiĠ gongĠ
ĠchuĠ banĠ
ĠĠĠ liuĠ
sui ĠzheĠ
Ġ BĠ
tou ĠdeĠ
ĠyiĠ qianĠ
ĠdiĠ zaiĠ
xinĠ jianĠ
zuĠ jieĠ
sheĠ jiaoĠ
ĠdeĠyiĠ yuanĠ
Ġ shui
ju ĠzhiĠ
dui ĠjiĠ
dian ĠweiĠ
shen ĠyuĠ
ba ĠdeĠ
ĠshiĠrenĠ minĠ
ĠĠĠ tianĠ
xian ĠliĠ
daĠ xiaoĠ
geĠ ziĠ
Ġ guang
che ĠdiĠ
chengĠ leĠ
fangĠ mian
duanĠ pianĠ
chuan ĠqiĠ
qiĠ zhongĠ
guĠ laĠ
huangĠ seĠ
xianĠzhiĠ xianĠ
Ġ su
ĠĠĠ 4
ĠĠĠ D
min ĠyiĠ
ĠĠĠshiĠ yongĠ
yong ĠzaiĠ
zhengĠ quĠ
teĠ dianĠ
Ġta ĠheĠ
Ġ ceĠ
Ġ zhuanĠjiĠ
Ġ 2020ĠnianĠ
du ĠguoĠ
zan ĠshiĠ
huoĠ shengĠ
biĠ xu
zhang ĠzhiĠ
1960 ĠnianĠ
qiĠ laiĠ
xiĠ beiĠbuĠ
zui ĠdiĠ
siĠ daĠ
faĠ sheng
luoĠ chengĠ
zuiĠ zaoĠ
yunĠ dongĠdeĠ
bangĠ qiuĠ
buĠdeĠ cunĠzhuangĠ
Ġ nengĠ
shou ĠbuĠ
te ĠheĠ
gaoĠ duĠweiĠ
lin ĠjinĠ
ĠshiĠ houĠ
ĠyouĠ zhuĠ
lai ĠyuĠ
xianĠ shangĠ
gangĠ kouĠ
gongĠyuanĠ qianĠ
1976 ĠnianĠ
wuĠ diĠ
xinĠ jiangĠ
ci ĠdiĠ
chengĠ jiuĠ
ĠcaiĠ yongĠ
gongĠzuo ĠshiĠ
ĠshuangĠ fangĠ
Ġ Ð
an ĠzhiĠ
ĠgongĠ yeĠ
ĠyiĠ bianĠ
lingĠ chenĠ
xunĠ lian
yong ĠjiĠ
1980 ĠnianĠdaiĠ
qiĠ cheĠ
ĠgeĠ shouĠ
Ġ tao
dan ĠdaĠ
san ĠzhongĠ
on ĠĠĠ
st ĠĠĠ
zhongĠ huaĠminĠguoĠ
faĠ tingĠ
shanĠ maiĠ
ĠdeĠyiĠ xieĠ
chuĠbanĠ sheĠ
jingĠneiĠ gongĠyouĠ
dang ĠnianĠ
Windows ĠĠĠ
hui ĠweiĠ
1920 ĠnianĠ
jiangĠ shuĠ
ĠxiangĠ muĠ
dao ĠyouĠ
xinĠ jieĠ
pingĠ yuanĠ
sanĠ mingĠ
hou ĠjiĠ
xiao ĠliĠyuĠ
ĠjiaĠ laĠ
Ġtong ĠyiĠ
han ĠziĠ
qiĠ houĠ
daĠ diĠ
Ġzhao ĠheĠ
cheng ĠzhiĠweiĠ
lieĠ chuĠ
ĠliangĠ geĠ
Ġ nongĠ
xiu ĠdaoĠ
ĠdaĠ jiaĠ
ĠĠĠ daoĠ
zanĠ tingĠ
bi ĠliĠshiĠ
bai ĠkeĠ
dui ĠheĠ
ruan ĠtiĠ
jianĠ duĠ
yeĠ fuĠ
laiĠ yinĠ
Ġta ĠyouĠ
ĠĠĠa ĠĠĠ
ĠerĠgaiĠ diĠdeĠ
tong ĠheĠ
hai ĠzaiĠ
tan ĠheĠ
shengĠ daoĠ
ĠdaĠ jiangĠ
ĠdanĠ yinĠ
jin ĠyuĠ
huo ĠzaiĠ
yun ĠheĠ
tiĠ daiĠ
qianĠ tingĠ
ĠzuiĠ chuĠ
henĠ kuaiĠ
ĠĠĠgaiĠ yaoĠ
fa ĠjiĠ
na ĠheĠ
ĠbuĠ daoĠ
xiangĠ yingĠ
ĠqiĠ bingĠ
jingĠ guanĠ
bianĠ yuanĠ
ĠweiĠfuĠqiĠyuĠ gang
ya ĠrenĠ
1990 ĠnianĠdaiĠ
ĠliĠ fuĠ
ĠtaĠmen ĠzaiĠ
Ġ piaoĠ
Ġ ouĠyuanĠ
ao ĠdeĠ
dui ĠdiĠ
qianĠ jinĠ
wangĠ wangĠ
G Ġ
juĠ yuanĠ
an ĠliĠ
xing ĠyouĠ
pin ĠzhongĠ
que ĠbaoĠ
qun ĠtiĠ
chengĠ quĠ
ĠqiĠ heĠ
maĠ touĠ
buĠ menĠ
ta ĠyiĠ
fuĠ haoĠ
ĠdeĠshiĠ jiĠ
Ġ jinĠshiĠ
chang ĠjiĠ
kuo ĠjianĠ
ĠyueĠ duiĠ
ĠtaĠ renĠweiĠ
ĠĠĠ shouĠ
dian ĠshiĠjieĠ
siĠ lanĠ
ĠĠĠjiaĠ tingĠ
ĠĠĠin ĠĠĠ
shuĠ chuĠ
ĠxiĠ tongĠdeĠ
changĠ biĠsaiĠ
e ĠguoĠ
Ġ 2002ĠnianĠ
ĠnianĠ daoĠ
yeĠ keĠyiĠ
fuĠ za
faĠ dongĠjiĠ
quĠ fenĠ
sheĠ dingĠ
guiĠ fanĠ
leĠyiĠ xieĠ
Ġxian ĠweiĠ
Ġ cunĠ
jiu ĠzaiĠ
wuĠ shuĠ
daĠshiĠ guanĠ
riĠben ĠdeĠ
Ġli ĠliĠ
ĠnianĠ qingĠ
senĠ lin
ma ĠkeĠsiĠ
qiu ĠshiĠ
re ĠĠĠ
jieĠ duan
tuiĠ guangĠ
ĠzhongĠguoĠrenĠminĠ jieĠfangĠjunĠ
xuan ĠshiĠ
fuĠ muĠ
wuĠ zhuang
saiĠ erĠweiĠ
gengĠ duoĠdeĠ
ĠĠĠ wangĠ
dan ĠyiĠ
tieĠluĠ cheĠzhanĠ
9 ĠnianĠ
wang ĠweiĠ
la ĠweiĠ
changĠ duĠ
fenĠ peiĠ
yaĠ muĠ
canĠ shuĠ
K Ġ
pei ĠbeiĠ
ĠyiĠ meiĠ
ĠyouĠ liangĠ
ĠzhongĠ jianĠ
beiĠ jing
duo ĠerĠ
zhongĠ buĠ
beiĠ daĠ
ĠqiĠ zhong
qianĠ shenĠ
Ġ 1970
ĠbuĠ siĠ
shangĠ zhenĠ
baoĠ han
suiĠ ranĠ
yeĠ jianĠ
yeĠ shengĠyaĠ
duiĠ fangĠ
chuangĠ zuoĠdeĠ
mai ĠdeĠ
zeĠ dongĠ
Ġ 40
zhang ĠjiĠ
ĠheĠ liuĠ
chengĠ weiĠyiĠ
ĠĠĠ N
yanĠ jingĠ
banĠ jiangĠ
buĠdeĠ buĠ
Ġ sunĠ
dou ĠbeiĠ
ĠzaiĠ neiĠdeĠ
dengĠ changĠ
Ġ sai
shan ĠdiĠ
chuĠ ziĠ
ĠgongĠ qingĠ
wen ĠjiĠ
ceng ĠshiĠ
tou ĠbuĠ
Ġ30 Ġ
1 ĠgeĠ
an ĠjiĠ
jun ĠbuĠ
keĠ yunĠ
teĠ laĠ
suĠ lian
tuĠ xiangĠ
v Ġ
huang ĠjinĠ
Ġ 35
cong ĠweiĠ
ĠjieĠ shuĠ
lvĠ seĠ
xing ĠliĠ
deng ĠyuĠ
yeĠ shengĠ
banĠ yanĠ
kaiĠ gongĠ
ĠziĠ yuanĠ
du ĠjiĠ
nan ĠsiĠ
zheĠ yangĠ
ĠshiĠshiĠ shangĠ
aĠlaĠ bo
shen ĠkeĠ
chen ĠjiĠ
ĠzaiĠ heĠ
riĠ baoĠ
dangĠ tianĠ
Ġ tun
bei ĠliĠ
zhe ĠzhiĠ
che ĠshiĠ
ĠxiĠ anĠ
xieĠ shangĠ
chiĠ xu
Ġ bao
le ĠdiĠ
st Ġ
xianĠ dai
jinĠ quĠ
fenĠ zhiĠyiĠ
ĠdeĠjiĠ huaĠ
qu ĠyouĠ
zhuĠ ceĠ
luĠ shangĠ
Ġ V
ĠqiĠ dongĠ
seĠ lie
ĠfuĠzeĠ guanĠxiaĠ
Ġ 60
mu ĠheĠ
wai ĠweiĠ
ĠshiĠshiĠ jiĠ
quan ĠjiĠ
zhuan ĠweiĠ
1956 ĠnianĠ
ĠyiĠ keĠ
weiĠ yuanĠ
dongĠ xianĠ
ĠĠĠ chengĠ
ĠĠĠ zhangĠ
ĠyiĠ nian
ĠĠĠ guĠ
1964 ĠnianĠ
xiangĠ qiĠ
haoĠ pingĠ
deng ĠshiĠ
ze ĠyuĠ
section ĠĠĠ
fuĠ erĠ
xiaoĠ jieĠ
qingĠ chaoĠ
qu ĠzhongĠ
sha ĠdeĠ
daĠ duoĠ
zongĠ jianĠ
dui ĠzhiĠ
bing ĠzaiĠ
ĠqiĠ xiĠzaiĠ
zhengĠ shuĠ
mianĠ tiĠ
Ġ 28
hao ĠyouĠ
ĠzhongĠ qiĠ
xiaoĠ liangĠ
fanĠ ying
ĠlianĠ jieĠ
ĠS Ġ
Ġ jianĠliĠ
hang ĠyeĠ
yuanĠ xianĠ
teĠ leiĠ
xuanĠ chengĠ
ĠgeĠ leiĠ
ĠbaoĠ huĠ
Ġbing ĠbuĠ
Ġ sectionĠĠĠ
biao ĠjiĠ
lie ĠsiĠ
ĠshiĠ xiĠ
shouĠ shuĠ
laiĠ naĠ
feiĠlvĠ bin
zhan ĠweiĠyuĠ
ĠgongĠ kaiĠ
ĠfenĠ bieĠ
Ġ 45
zong ĠzhiĠ
haiĠ shangĠ
tuĠ chuĠ
canĠ jia
ĠĠĠran ĠerĠ
Ġ bangĠ
ĠĠĠ guangĠ
chang ĠdaĠ
jiang ĠyouĠ
bai ĠzhiĠ
ce ĠĠĠ
niao ĠleiĠ
ĠshiĠ buĠ
daiĠbiaoĠ tuanĠ
Ġ zuiĠjiaĠ
zhan ĠyouĠ
1968 ĠnianĠ
ĠqiĠzhongĠ nanĠxingĠ
ĠjiangĠ suĠ
wan ĠliĠ
ni ĠxiĠyaĠ
yuanĠ benĠ
jinĠ zhanĠ
baoĠ zha
fenĠ siĠ
ĠsiĠ daĠ
Ġ fou
lu ĠheĠ
xie ĠweiĠ
moĠ niĠ
zhongĠguoĠ renĠminĠ
hai ĠdiĠ
shenĠ zhenĠ
puĠtaoĠ yaĠ
Ġ pianĠ
liang ĠbuĠ
feng ĠshiĠ
xingĠ dong
gongĠ daĠ
ĠĠĠgenĠjuĠ 2020ĠnianĠmeiĠguoĠrenĠkouĠpuĠchaĠdeĠshuĠjuĠ
ju ĠweiĠ
lu ĠyiĠsiĠ
xia ĠdiĠquĠ
ding ĠxingĠ
geĠ buĠ
yanĠ anĠ
changĠ jiangĠ
ĠĠĠ jingĠjiĠ
zhan ĠweiĠ
ĠguoĠ wuĠyuanĠ
daoĠ danĠ
laiĠ ziĠyuĠ
feiĠ yongĠ
Ġliu ĠyuĠ
Ġ 2024
zai ĠyiĠgeĠ
fa ĠheĠ
hou ĠzhiĠ
se ĠĠĠ
xiaoĠ xiangĠ
Ġ 8Ġ
ĠĠĠ 2019ĠnianĠ
gong ĠyueĠ
jiao ĠdiĠ
tang ĠdeĠ
1981 ĠnianĠ
chuĠ xianĠdeĠ
bi ĠerĠ
ha ĠliĠ
ĠyouĠ suoĠ
gongĠkaiĠ saiĠ
Ġ 2000ĠnianĠ
ĠyiĠ heĠ
ĠguoĠ jiaĠdeĠ
ziĠ benĠ
zhengĠ mianĠ
ĠjinĠ shuĠ
ĠfaĠ zhanĠ
kuoĠ zhangĠ
Ġ pinĠ
dang ĠzaiĠ
cheĠ duiĠ
Ġ lei
Ġ 2005
qiong Ġ
xueĠ yeĠ
Ġ wa
hou ĠbuĠ
fuĠ zhouĠ
ĠguanĠ fangĠ
ĠweiĠyuanĠhui ĠweiĠyuanĠ
Ġ 200
shu ĠdeĠzhiĠwuĠ
tian ĠjiaĠ
keĠ erĠ
taiĠ nanĠ
xuanĠ juĠzhongĠ
ĠĠĠqiĠ zhongĠ
ĠĠĠ yueĠ
bei ĠyueĠ
huo ĠliĠ
wang ĠjiĠ
shui ĠdeĠ
gan ĠxianĠ
juĠ min
leĠ duiĠ
yanĠ jiangĠ
ĠshiĠyiĠ zuoĠ
yuanĠzhuĠ minĠ
ĠjiĠjinĠ huiĠ
Ġ 1946
duo ĠshiĠ
cha ĠshiĠ
ĠshiĠdeĠ shiĠ
Ġ pi
Ġ quĠdeĠ
Ġ kaoĠ
Ġ niuĠ
zu ĠrenĠ
lai ĠkeĠ
hant Ġ
ĠzaiĠ buĠ
zheĠ yangĠdeĠ
nanĠjiĠ zhouĠdeĠ
Ġ touĠguoĠ
yang ĠheĠ
gan ĠdeĠ
wo ĠerĠ
beiĠ poĠ
guĠ dianĠ
ĠqianĠ wangĠ
chengĠliĠ houĠ
guĠfen ĠyouĠxianĠgongĠsiĠ
1948 ĠnianĠ
Ġyue ĠrenĠ
daĠ guiĠmoĠ
jianĠ kang
ĠdiĠ tuĠ
meiĠ guo
baiĠ wanĠ
ĠweiĠfuĠqiĠyuĠ gangĠ
Ġ hantĠ
duo ĠliĠyaĠ
ĠzhongĠ wenĠ
gongĠ anĠ
ĠguoĠ gongĠ
huiĠ daĠ
chuĠ changĠ
zongĠ caiĠ
shaoĠ nvĠ
H Ġ
ya ĠzhongĠ
ĠzhiĠ jingĠ
ĠheĠ qiĠtaĠ
keĠ luoĠ
zhanĠ shuĠ
wenĠ tiĠdeĠ
reĠdaiĠ fengĠbaoĠ
hu ĠxiĠ
shuai Ġling
ĠyuĠ diĠ
Ġta ĠjiĠ
canĠ kao
ĠĠĠ zhuĠyaoĠ
bie ĠdeĠ
xinĠ taiĠ
ĠĠĠ 2007
ĠĠĠ In
ĠĠĠ fanĠ
luo ĠyiĠ
men ĠshiĠ
gongĠ jiaoĠ
zhuĠ banĠ
ĠshiĠyiĠ zhiĠ
zuoĠ faĠ
ĠdaĠ erĠ
naĠ shengĠ
meiĠguoĠ renĠ
zhuanĠ yongĠ
cunĠ zaiĠdeĠ
ĠjinĠ ru
xianĠdeĠyiĠgeĠ feiĠjianĠzhiĠdiĠquĠ
Ġ 2022ĠnianĠ
nuo ĠyiĠ
ĠshiĠ faĠ
ĠzhiĠ shaoĠ
fangĠ miĠ
hangĠ tianĠ
zuo ĠzhiĠ
ding ĠzaiĠ
qun ĠdeĠ
1Ġ ri
youĠyiĠ xieĠ
ĠlingĠ wai
Ġ yong
ĠĠĠ jiangĠ
niang Ġ
luĠ wa
ĠxingĠ jianĠ
xue ĠbuĠ
mei ĠshiĠ
lan ĠyuĠ
ĠyiĠ xueĠ
rao ĠtaiĠyangĠ
ĠshiĠ bingĠ
liangĠ ziĠ
ĠnianĠyiĠ laiĠ
shang ĠweiĠyouĠ
bao ĠheĠ
duiĠ kangĠ
ĠfuĠ qin
maĠ laiĠ
7 ĠrenĠ
Ġ 2003ĠnianĠ
ying ĠerĠ
jiu ĠyouĠ
1952 ĠnianĠ
e ĠweiĠ
ta ĠrenĠ
ĠyiĠ daĠ
ĠyiĠ xiangĠ
ciĠ quĠ
duĠ huiĠ
ĠzheĠ yangĠ
e ĠdeĠ
ban ĠrenĠ
chuan ĠguoĠ
1975 ĠnianĠ
1966 ĠnianĠ
wuĠ geĠ
xieĠ dingĠ
sanĠ ciĠ
Ġdan ĠweiĠ
Ġ ouĠzhouĠ
shang ĠheĠ
zongĠ huiĠ
ĠxinĠ zengĠ
Ġ diaoĠ
ĠĠĠ 3ĠyueĠ
boĠ jueĠ
xuanĠ chuĠ
Ġri ĠyouĠ
guoĠjiaĠ duiĠ
ĠĠĠqiĠ houĠ
ĠĠĠofĠĠĠ theĠĠĠ
1947 ĠnianĠ
ĠnianĠ lingĠ
jiaoĠ jieĠ
haiĠbaĠ gaoĠduĠweiĠ
guang ĠdeĠ
ĠyiĠ waiĠ
Ġdan ĠqiĠ
ĠshiĠyongĠ leĠ
Ġdang ĠshiĠdeĠ
jiaoĠyuĠ buĠ
wu ĠyouĠ
wenĠ ti
leiĠ xingĠdeĠ
zhuangĠ kuang
Ġ ziĠjiĠ
wang ĠyuĠ
wai ĠxingĠ
gen ĠsuiĠ
ĠyiĠ chanĠ
xingĠ zheng
yanĠ lunĠ
ĠsiĠ taĠ
ĠrenĠminĠ biĠ
fenĠbie ĠweiĠ
ge ĠzaiĠ
jin ĠzaiĠ
wang ĠzhiĠ
gongĠ jueĠ
ĠdaoĠ yanĠ
ĠfaĠ shengĠ
nongĠ cun
Ġ chengĠliĠyuĠ
1937 ĠnianĠ
sheĠ yingĠ
gaoĠ xiaoĠ
jianĠzhuĠ wuĠ
Ġjiang ĠqiĠ
Ġ chao
Ġ leĠ
ĠĠĠ faĠ
ĠĠĠ pingĠjiaĠ
ta ĠheĠ
shuĠ muĠ
zhanĠ changĠ
lianĠ sai
xuanĠ ju
ĠpingĠ taiĠ
ĠdeĠjiĠ huiĠ
jingĠ saiĠ
qiaoĠ liangĠ
xunĠyangĠ jianĠ
ĠĠĠ luoĠ
ĠĠĠ chuĠleĠ
tuan ĠjieĠ
song ĠdaoĠ
guoĠ chengĠ
shouĠ faĠ
fenĠ jieĠ
quanĠ shuĠ
ĠdeĠyiĠ meiĠ
ĠshiĠyiĠ daĠliĠ
duanĠ zan
ĠkeĠ luoĠ
zuiĠ zaoĠdeĠ
cengĠ shuiĠyuĠ
1 ĠnianĠ
a ĠfuĠ
xin ĠzhongĠ
zhang ĠyiĠ
xiaĠyiĠ xiaĠdiĠquĠ
yingĠxiang ĠliĠ
Ġ hua
guo ĠshiĠqiĠ
pu ĠliĠ
shouĠ duanĠ
pingĠ jieĠ
ci ĠzhongĠ
zhuanĠdeĠ xiaoĠxingĠxingĠ
k ĠĠĠ
bei ĠheĠ
fa ĠweiĠ
ru ĠyuĠ
ĠdiĠ dianĠ
jiangĠ beiĠ
xunĠ zhaoĠ
guoĠjiĠjiĠ changĠ
wang ĠsiĠ
ĠyiĠ erĠ
guoĠ wuĠyuanĠ
wuĠ zhongĠdeĠ
ĠdiĠ liuĠ
juĠ daĠdeĠ
ĠjiĠ xingĠ
ĠliĠ gongĠ
wangĠ ziĠ
ĠdeĠshiĠ wuĠ
zheĠjiangĠ shengĠ
ĠĠĠ 5ĠyueĠ
zhe ĠyuĠ
Ġ shen
zheng ĠqiĠ
ĠzaiĠ jinĠ
Ġ chuĠrenĠ
ya ĠzhiĠ
ru ĠyiĠ
huang ĠshiĠ
jiaĠ mengĠ
zuĠ xieĠ
shanĠdongĠ shengĠ
Ġ huai
ĠshiĠ baĠ
wangĠ shangĠ
guangĠ fan
zhengĠshiĠ qiĠ
Ġ sanĠshiĠ
tiĠ chuĠleĠ
z Ġ
Ġ keĠliĠ
song ĠdeĠ
mingĠ juĠrenĠ
yinĠ yongĠ
huoĠ yunĠ
anĠ zhuang
yaoĠ gun
a ĠliĠ
ĠĠĠ shenĠ
sheng ĠbuĠ
xiao ĠyouĠ
la ĠerĠ
xianĠ zhangĠ
baoĠ zhaĠ
Ġ 26
guai Ġ
ĠshiĠ jiĠdeĠ
pingĠ minĠ
lianĠ tongĠ
pingĠjunĠ haiĠbaĠgaoĠduĠweiĠ
Ġ chun
si ĠyouĠ
ll Ġ
faĠ shengĠdeĠ
liĠ lunĠ
zhan ĠzaiĠ
duĠ duĠ
danĠ shuiĠ
yangĠ xianĠ
neiĠ zhanĠ
xunĠ qiuĠ
shaoĠ jiangĠ
yin ĠzhongĠzaiĠ
tai ĠerĠ
ru ĠshiĠ
shuo ĠdeĠ
ĠzheĠ ciĠ
zaoĠ shouĠ
ganĠ suĠ
ĠnianĠqiĠ jianĠ
ĠerĠgaiĠdiĠdeĠ pingĠjunĠhaiĠbaĠgaoĠduĠweiĠ
jiang ĠzhongĠ
1954 ĠnianĠ
ĠliĠ xueĠ
guĠ fenĠ
luo ĠzaiĠ
ma ĠliĠyaĠ
chai ĠyouĠjiĠ
ĠbiĠ yeĠ
ĠxueĠ shengĠ
ĠhanĠ zuĠ
2010ĠnianĠ meiĠguoĠrenĠkouĠpuĠchaĠdeĠshuĠjuĠ
shuoĠshiĠ xueĠweiĠ
yinĠzhongĠzaiĠ peiĠ
da ĠzaiĠ
yang ĠzhiĠ
qie ĠerĠ
shun ĠshiĠ
juĠ tiĠ
jiaoĠ fuĠ
wenĠ huaĠdeĠ
boĠ luoĠ
x ĠĠĠ
Ġ cui
ying ĠdiĠ
dai ĠyuĠ
chengĠ huĠ
baoĠ xianĠ
yingĠ zhanĠ
qingĠ xiangĠ
Ġgai ĠweiĠ
Ġ anĠdeĠ
zuo ĠyuĠ
su ĠshiĠ
ĠbuĠ neng
shangĠ dianĠ
ĠdaĠ xiĠyangĠ
c ĠĠĠ
Ġ ruan
ĠĠĠ 2018ĠnianĠ
ban ĠyuĠ
ĠgongĠ buĠ
zengĠ qiangĠ
renĠgongĠ yinĠzhongĠzaiĠpeiĠ
an ĠzhongĠ
yi ĠshiĠyongĠ
faĠ lingĠ
jiangĠ taĠ
Ġkang ĠxiĠ
Ġ 2000
naĠ ruĠ
ĠbaoĠ daoĠ
xiangĠshiĠ diĠ
ĠĠĠ 17
qing ĠyiĠ
suo ĠyiĠ
mao ĠxianĠ
daiĠ maĠ
banĠ ciĠ
Ġ xia
ĠjiĠ liĠ
jiaoĠ zuoĠ
dianĠ yingĠdeĠ
ĠquanĠ zhangĠ
ĠnaĠ me
ĠyuĠciĠ tongĠshiĠ
5 ĠgeĠ
qu ĠzaiĠ
reng ĠyouĠ
chengĠ fenĠ
zhuĠ zhai
ĠdaĠ louĠ
shenĠ meĠ
lingĠ daoĠdeĠ
guiĠ zhouĠ
ĠxianĠ daiĠ
panĠ jueĠ
ĠĠĠ 2006
ĠĠĠ taiĠwanĠ
zheng ĠyueĠ
ye ĠzhiĠ
zhang ĠzaiĠ
ĠheĠ yueĠ
mingĠ jinĠshiĠ
baoĠ chi
xunĠ huanĠ
diĠyiĠ renĠ
yanĠjiuĠ shengĠ
Ġ mu
Ġ zhen
Ġ nĠ
fuĠ gaiĠ
zheng ĠyuĠ
1955 ĠnianĠ
duiĠ yuanĠ
caiĠ chanĠ
ĠfaĠ biaoĠ
ĠshengĠ zhangĠyuĠ
zhuĠ ruĠ
faĠ zhanĠdeĠ
benĠ xianĠ
ĠjuĠ minĠ
canĠ guanĠ
hongĠ junĠ
chanĠshengĠ leĠ
Ġ 29
Ġ tuanĠ
ĠĠĠ Co
duo ĠfuĠ
Ġ gongĠjiĠ
xiang ĠzhiĠ
zhan ĠheĠ
mian ĠyuĠ
long ĠshengĠ
dianĠ ziĠyouĠ
huoĠ wuĠ
xuĠ shuĠ
6 ĠrenĠ
Ġ min
bi ĠshiĠ
te ĠshiĠ
wanĠ quan
teĠ langĠ
tanĠ dingĠ
ĠĠĠ V
ya ĠshiĠ
fuĠ ze
tiĠ jiaoĠ
junĠ tuanĠ
shu ĠqiĠ
te ĠyuĠ
douĠ zhengĠ
tuiĠ chuĠdeĠ
Ġ ãĥ¼
ĠĠĠ 10ĠyueĠ
gao ĠdiĠ
zhuang ĠbingĠduĠ
rang ĠtaĠ
km Ġ
jieĠ duĠshiĠ
changĠ beiĠ
ĠbeiĠ keĠ
Ġ000 ĠrenĠ
suĠweiĠ aiĠ
lu ĠzaiĠ
zhiĠ chiĠ
ĠheĠ panĠ
yinĠ jingĠ
shang ĠzhiĠ
ci ĠyouĠ
ping ĠshiĠ
hao ĠyuĠ
qiang ĠjiĠ
1974 ĠnianĠ
daĠ buĠ
jianĠ she
yingĠ duiĠ
ĠjiaĠ jingĠ
ĠjuĠ qingĠ
ĠsuĠ lianĠ
zheng ĠliĠ
100 Ġ
dongĠ niĠ
jiaoĠ keĠ
ĠfuĠ leiĠ
chuĠxianĠ leĠ
huaĠshengĠ dunĠ
dongĠ cheĠ
ĠkaiĠ faĠ
sheng ĠzhongĠ
zu ĠyuĠ
shengĠ muĠ
yanĠ huaĠ
ai ĠguoĠ
huan ĠjieĠ
fuĠ sheĠ
duiĠ huaĠ
gongĠheĠ dangĠ
Ġ cu
Ġ chengĠshiĠ
ku ĠdeĠ
ĠyouĠ taiĠ
jianĠ zao
chuĠ ruĠkouĠ
baoĠ zhengĠ
aiĠ qingĠ
ciĠzhiĠ waiĠ
Ġ re
ĠĠĠ di
zhu ĠguoĠ
le ĠweiĠ
ĠheĠ qiĠ
ĠrenĠzhongĠ gongĠ
5 ĠrenĠ
ba ĠyueĠ
ĠzaiĠ gaiĠ
daoĠ shangĠ
jinĠ qiuĠ
chongĠ qingĠ
N Ġ
ri ĠyiĠ
mo ĠqiĠ
youĠ guanĠ
shenĠ shengĠ
ĠyinĠ faĠ
ĠshiĠzhongĠ huaĠrenĠminĠgongĠheĠguoĠ
zengĠjiaĠ leĠ
renĠminĠ daiĠbiaoĠdaĠhuiĠ
Ġ ì
ĠĠĠ lingĠwaiĠ
ke ĠrenĠ
juĠ beiĠ
yin ĠerĠ
la ĠyuĠ
xiaĠ fangĠ
ĠguoĠjiaĠ duiĠ
chuan ĠdiĠ
buĠ luoĠ
shenĠ wangĠ
gouĠ mai
aiĠdeĠ huaĠ
Ġ qiao
lei ĠweiĠ
kang ĠxiĠ
chaoĠ tingĠ
Ġmi ĠdeĠdiĠquĠ
ĠĠĠ 2017ĠnianĠ
yue ĠweiĠ
ĠshiĠ yueĠ
xiangĠ mu
dongĠ gongĠ
fenĠ quĠ
luoĠ boĠteĠ
ĠzhuĠ jianĠ
ĠĠĠ zongĠ
ĠĠĠ 3Ġ
duan ĠyuĠ
hang ĠxianĠ
kan ĠdeĠ
Ġnian ĠliĠ
hanĠ moĠdeĠ
f Ġ
Ġ langĠ
ĠyiĠ xingĠ
ĠerĠ houĠ
shouĠ haiĠ
xieĠ tiao
ĠĠĠ shangĠ
ĠĠĠ xiangĠgangĠ
wang ĠyouĠ
ding ĠzhiĠ
ĠyiĠ riĠ
ĠheĠ chengĠ
geĠ siĠ
jiaoĠ daoĠ
pinĠ lvĠ
shengĠchan ĠdeĠ
Ġ ju
fen ĠqiĠ
long ĠshiĠ
zhuĠ diĠ
ziĠ liao
ĠkeĠneng ĠshiĠ
8 ĠrenĠ
ĠĠĠ zhanĠ
ĠĠĠ 2016ĠnianĠ
ĠyouĠ youĠ
shouĠ feiĠ
baĠ laĠ
mianĠ shangĠ
canĠmou ĠzhangĠ
xun ĠfuĠ
1977 ĠnianĠ
jianĠ guoĠ
caiĠ liao
ĠxinĠ jiaĠ
ĠbiĠ yeĠyuĠ
ĠaĠ laĠ
Ġ cao
meiĠ zhou
ĠlingĠyiĠ fangĠmianĠ
ĠĠĠ riĠ
ben ĠkeĠ
ĠzhiĠ luĠ
ĠliĠ xinĠ
chengĠ haoĠ
kong ĠdeĠ
mingĠ luĠ
ciĠ daĠ
huaĠrenĠminĠ gongĠheĠ
nvĠzhuĠ jueĠ
Ġ 1938
na ĠsiĠ
ĠxiĠ huanĠ
dongĠ yuanĠ
gaoĠ yuanĠ
ĠshengĠzhangĠyuĠ haiĠbaĠ
Ġ pan
zhen ĠheĠ
pin ĠzhiĠ
zhui ĠsuĠ
huiĠ xiangĠ
changĠ wu
shou ĠheĠ
jiao ĠheĠ
qian ĠzaiĠ
pai ĠdeĠzhuĠ
ĠshiĠ jingĠ
jieĠ guanĠ
Ġzai ĠyuĠ
ĠĠĠsuiĠ ranĠ
du ĠdaĠ
lou ĠdeĠ
ĠqiĠ chuĠ
qianĠ houĠ
qingĠ xuĠ
zaiĠ ciĠ
fuĠ yinĠ
fenĠ xiaoĠ
ĠtianĠ jinĠ
Ġ 25
ri ĠjiĠ
fen ĠjiĠ
bin ĠshiĠ
siĠ tanĠ
haiĠ eĠ
huĠ poĠ
ĠjianĠ sheĠ
zhanĠzheng ĠzhongĠ
ye ĠerĠ
zhuĠ liuĠ
moĠ luoĠ
yin ĠzhiĠ
guoĠ quĠ
ĠbuĠ daĠ
rongĠ naĠ
xingĠzhengĠ zhenĠquĠ
Ġ genĠju
han ĠyiĠ
daĠ qiĠ
yuanĠ ben
ĠboĠ chuĠ
ĠmaĠlai ĠxiĠyaĠ
ĠĠĠ taiĠ
ĠshiĠ zhangĠ
Ġli ĠshiĠdeĠ
buĠ keĠ
zongĠ tong
ĠdongĠ wuĠ
eĠluoĠ siĠdeĠ
zhong ĠdeĠyiĠ
ye ĠzhongĠ
HD ĠĠĠ
shangĠ jiaĠ
qingĠ daoĠ
anĠ zhaoĠ
quan ĠweiĠ
mingĠ queĠ
duiĠ zhenĠ
huĠ dongĠ
ĠshiĠyongĠ zheĠ
lei ĠshiĠ
shangĠ leĠ
yingĠ junĠ
zhouĠ zhangĠ
Ġ gan
xiang ĠzhongĠ
xun ĠdeĠ
fuĠ zhuĠrenĠ
xiang ĠzaiĠ
ri ĠyuĠ
fei ĠyiĠ
ceng ĠrenĠ
1962 ĠnianĠ
tiĠ yanĠ
fenĠ lieĠ
hou ĠbuĠjiuĠ
yong ĠzhiĠ
ĠweiĠ yaĠ
gongĠ gaoĠ
ĠwuĠ xianĠ
nvĠ haiĠ
peiĠ yangĠ
ĠquanĠ qiuĠ
ming ĠyouĠ
bo ĠkeĠ
zao ĠxingĠ
guiĠ moĠdeĠ
Ġ ning
Ġ poĠ
jiu ĠrenĠ
1971 ĠnianĠ
gongĠ shangĠ
zhuĠ dongĠ
xiangĠ guan
huiĠ huaĠ
zhengĠ duoĠ
shangĠ pinĠ
zuo ĠzhongĠ
yinĠ shua
9 ĠrenĠ
Ġ lai
fa ĠliĠyaĠ
dai ĠyiĠ
qing ĠxiĠ
suan ĠfaĠ
shengĠ jingĠ
fenĠ lanĠ
mianĠ linĠ
shuiĠ kuĠ
ĠqiĠzhongĠ nanĠ
taiĠwan ĠdeĠ
ĠĠĠ tongĠ
chu ĠnianĠ
ye ĠweiĠ
miao ĠdeĠ
24 Ġ
ĠqiĠ youĠ
ĠdeĠrenĠ wuĠ
mei ĠriĠ
huo ĠyueĠ
chan ĠdeĠ
ĠyuĠ qiĠtaĠ
shengĠ fuĠ
yanĠ wuĠ
sheĠ hui
ĠshiĠyiĠ jiĠ
ĠhuĠ nanĠ
Ġke ĠshiĠ
ĠĠĠ 1949
ĠĠĠ luĠ
hou ĠrenĠ
chengĠ zhangĠ
leĠ gaiĠ
ganĠ jueĠ
Ġ reĠ
tong ĠzhongĠ
du ĠyiĠ
27 Ġ
ĠbuĠ laiĠ
zhenĠ yaĠ
tiĠyuĠ guanĠ
yi ĠshiĠjianĠ
er ĠyouĠ
jian ĠliĠdeĠ
dong ĠyiĠ
ĠbuĠ zuĠ
qianĠ ruĠ
qingĠ shaoĠnianĠ
suĠ danĠ
gangĠ yuanĠ
ĠxiĠbanĠ yaĠyuĠ
Ġ chanĠ
Ġ sheĠliĠ
Ġ zuiĠdaĠ
ĠĠĠ feiĠ
ĠĠĠ TheĠĠĠ
dang ĠheĠ
na ĠerĠ
shenĠ chaĠ
mianĠjiĠ heĠ
ĠdongĠ jingĠ
Ġ15 Ġ
Ġ diao
ĠĠĠ De
dui ĠliĠ
ĠheĠ heĠ
ĠqianĠ miĠ
Ġ xie
an ĠrenĠ
jie ĠzaiĠ
jie ĠweiĠzhiĠ
fa ĠzhongĠ
daĠ duoĠshuĠ
shengĠ xiaĠ
meiĠ meiĠ
nvĠ yanĠyuanĠ
ĠguoĠminĠ dangĠ
xiaĠxiaĠdeĠyiĠgeĠ xiangĠ
Ġ 2004
cha ĠliĠ
fou ĠrenĠ
ĠshiĠ guĠ
weiĠ yuĠ
ĠyuĠ youĠ
shouĠ lingĠ
duoĠ mingĠ
quanĠ qiu
kaiĠ muĠ
ĠdeĠyiĠ siĠ
mouĠ shaĠ
a ĠjiĠ
Ġ JR
Ġ guĠshiĠ
zai ĠĠĠ
shu ĠyouĠ
yongĠ jiuĠ
liangĠ ceĠ
ĠyiĠ chengĠ
ĠzhiĠ zhengĠ
tongĠ wangĠ
shenĠ shangĠ
guĠ dongĠ
ĠtiĠ chuĠ
ĠmuĠqianĠ shangĠweiĠyouĠ
Ġ 1998ĠnianĠ
la ĠliĠ
su ĠdaĠ
jianĠ daoĠ
danĠ yuanĠ
nanĠ feiĠ
ĠnianĠ12ĠyueĠ 31ĠriĠ
ĠshiĠzhongĠ xinĠ
xiangĠgang ĠdeĠ
Ġ 1ĠyueĠ
chuang ĠshiĠrenĠ
ĠyouĠ xingĠ
xiĠ siĠ
tianĠ ran
O Ġ
Ġ Ñ
ĠĠĠ 2021ĠnianĠ
huoĠ dongĠdeĠ
haiĠ jun
ĠbaoĠ gaoĠ
Ġdan ĠyiĠ
er ĠĠĠ
leĠ liangĠ
laĠ teĠ
hanĠ linĠ
diĠyiĠ buĠ
ĠwanĠ pingĠfangĠ
fuĠ luoĠliĠdaĠ
Ġba ĠliĠ
ĠmuĠqianĠshangĠweiĠyouĠ renĠgongĠyinĠzhongĠzaiĠpeiĠ
1936 ĠnianĠ
waiĠ guanĠ
ĠziĠ liaoĠ
canĠyuĠ leĠ
xianĠdeĠyiĠgeĠ xingĠzhengĠzhenĠquĠ
shen ĠjiĠ
ze ĠyiĠ
biĠ ya
Ġ can
Ġ buĠshiĠ
1963 ĠnianĠ
keĠ xue
anĠ pai
tianĠ huangĠ
ĠĠĠ gaoĠ
ĠĠĠ boĠ
wu ĠzaiĠ
ming ĠheĠ
1973 ĠnianĠ
ĠzaiĠ naĠliĠ
ĠrenĠ jiaoĠ
zhuĠ daĠ
ĠqiĠ qiĠ
fangĠ chengĠ
bianĠ haoĠweiĠ
chuangĠ xinĠ
wuĠliĠ xueĠ
Ġ 21
zhang ĠliĠ
chou ĠbeiĠ
1959 ĠnianĠ
mingĠ ciĠ
caiĠ wuĠ
Ġzhou ĠnianĠ
Ġ 80
Ġ Co
Ġ seĠ
ĠĠĠ 4ĠyueĠ
1941 ĠnianĠ
chongĠ manĠ
he ĠyiĠgeĠ
tui ĠxingĠ
heĠ pingĠ
juĠ changĠ
ĠgaiĠ diĠdeĠ
Ġzhe ĠbuĠ
bian ĠyuĠ
ĠxiĠ jinĠ
ĠzheĠ yeĠshiĠ
Ġmi ĠdeĠ
Ġha ĠerĠ
ĠĠĠ puĠ
tai ĠdaĠ
kan ĠfaĠ
ĠzaiĠ renĠ
yuanĠ quĠ
jiaoĠ zongĠ
saiĠ baiĠ
zaoĠ qiĠdeĠ
jingĠjiĠ xueĠ
ĠkeĠnengĠ huiĠ
ĠĠĠ yue
mi ĠshiĠ
yin ĠjiĠ
xun ĠshiĠ
ĠrenĠ min
ĠdaĠ chenĠ
yinĠ ziĠ
duĠ jiaĠ
cheĠ daoĠ
guĠ wuĠ
neiĠ mengĠguĠ
laĠ geĠ
lianĠmeng ĠdeĠ
Ġ yuan
Ġ gui
ĠĠĠ e
dian ĠyuĠ
zhou ĠfuĠzeĠguanĠxiaĠ
ĠerĠ zheĠ
shouĠ huiĠ
ruĠ jingĠ
ĠgongĠ jinĠ
ĠĠĠgeĠrenĠ shengĠhuoĠ
Ġ à¸
Ġ 1999ĠnianĠ
zeng ĠzhiĠ
codice Ġ
daoĠ qianĠ
ĠdanĠ yeĠ
ĠĠĠ yeĠ
bu ĠweiĠyuĠ
zhen ĠdiĠ
lun ĠsiĠ
buĠ manĠ
xiangĠ beiĠ
ĠnianĠ7ĠyueĠ 1ĠriĠ
ĠĠĠ 7ĠyueĠ
xia ĠyuĠ
tuo ĠfuĠ
ĠshiĠ xiangĠgangĠ
tiĠ gongĠdeĠ
wangĠ chao
Ġ kaĠerĠ
Ġ keĠliĠsiĠ
you ĠĠĠ
xia ĠzhiĠ
niu ĠsiĠ
ne ĠshengĠ
shengĠ geĠweiĠ
xueĠ yuanĠdeĠ
jiaoĠyuĠ jiĠ
Y Ġ
Ġ xingĠshiĠ
jin ĠzhongĠ
duan ĠqiĠ
ĠzhiĠ yaoĠ
xinĠ zengĠ
Ġ X
fang ĠheĠ
tian ĠfuĠ
ĠliĠ youĠ
ĠxiĠ yuanĠ
zhuĠyao ĠshiĠ
1939 ĠnianĠ
ĠliĠ qiĠ
ĠbingĠ meiĠyouĠ
tingĠ yunĠ
ĠĠĠjinĠ guanĠ
Ġ paĠ
50 Ġ
II Ġ
shengĠ xiaoĠ
xinĠ shengĠ
duiĠ taĠ
shuiĠ shenĠ
ĠyuanĠ xingĠ
ĠyanĠ changĠ
Ġ zha
jiang ĠheĠ
nuo ĠsiĠ
fuĠ huaĠ
gaiĠ mingĠ
baĠ nen
kaĠluoĠ laiĠnaĠ
xin ĠyuĠ
lao ĠgongĠ
ĠzaiĠ taĠdeĠ
jinĠ xing
ĠqingĠ chaoĠ
ĠshiĠ nanĠjiĠzhouĠdeĠ
ĠyiĠ xie
tianĠ tangĠ
kaiĠ faĠdeĠ
ĠĠĠ 6
zhong ĠshiĠjiĠ
qian ĠweiĠ
ĠyueĠ laiĠyueĠ
zhuĠ longĠ
xiangĠ lianĠ
ĠĠĠ quanĠ
han ĠshiĠ
ĠzhiĠ chi
zhanĠ zhengĠdeĠ
shouĠdaoĠ leĠ
o ĠĠĠ
Ġ huiĠyiĠ
hou ĠguoĠ
yan ĠliĠ
huo ĠyiĠ
liang ĠjiaĠ
wai ĠjiĠ
1965 ĠnianĠ
gongĠ zuoĠdeĠ
siĠ xingĠ
siĠ faĠ
jiaĠ zhouĠ
minĠ jinĠ
niĠ yaĠdeĠ
liĠ yongĠ
Ġ 55
huan ĠxiangĠ
1967 ĠnianĠ
dianĠ naoĠ
zongĠ duiĠ
Ġjie ĠweiĠ
ĠĠĠ 8ĠyueĠ
jing ĠxiĠ
cha ĠjuĠ
jinĠ shanĠ
ciĠ huiĠ
yaĠ zhou
zuiĠ duoĠdeĠ
ĠliĠshiĠ xueĠjiaĠ
peiĠ xunĠ
Ġ bu
ĠĠĠ guĠshiĠ
du ĠzhiĠ
qian ĠyuĠ
feng ĠyuĠ
1944 ĠnianĠ
fuĠ jiaĠ
ziĠ gongĠsiĠ
dianĠ chiĠ
ĠĠĠ jiuĠ
ĠĠĠ laĠ
1953 ĠnianĠ
houĠ fangĠ
yanĠ xuĠ
boĠ laĠ
ĠgongĠ gongĠ
yingĠdeĠ leĠ
mianĠjiĠheĠ renĠkouĠ
Ġ she
dao ĠliĠ
qian ĠliĠ
31 Ġ
lingĠ yuĠdeĠ
nianĠ daiĠ
zhanĠzheng ĠqiĠjianĠ
ĠĠĠ duiĠyuĠ
ni ĠshiĠ
zhen ĠrenĠ
daĠ xueĠdeĠ
geĠ ciĠ
ĠdeĠjiĠ shuĠ
jiangĠsuĠ shengĠ
nan ĠrenĠ
wang ĠyiĠ
la ĠdiĠ
baĠ saiĠ
lanĠ seĠ
Ġ ou
Ġ 75
gai ĠzhiĠ
che ĠliĠ
ce ĠqiĠ
hang ĠxingĠ
faĠ biao
ĠdaĠ buĠ
ĠgaiĠ cun
ĠmingĠ chaoĠ
ĠjingĠ neiĠ
ĠboĠ luoĠ
ĠgaiĠdiĠdeĠ mianĠjiĠheĠrenĠkouĠ
ĠgaiĠdiĠdeĠmianĠjiĠheĠrenĠkouĠ jieĠweiĠzhiĠ
6 ĠgeĠ
ĠĠĠ muĠqianĠ
ha ĠdeĠ
weiĠ jiĠ
houĠ lai
ciĠ shuĠ
heiĠ longĠjiangĠ
ĠyiĠshuĠ jiaĠ
ĠĠĠyouĠ xiĠ
ĠĠĠ 2015ĠnianĠ
pei ĠdeĠ
1930 ĠnianĠ
zhongĠ xueĠ
xuanĠ chuan
dangĠ xuanĠweiĠ
ĠM Ġ
Ġ 36
wei ĠshiĠjieĠ
ĠshiĠ zhengĠ
erĠ beiĠ
ĠfuĠ ze
lei ĠheĠ
jiangĠ zuiĠjiaĠ
zongĠ jingĠliĠ
tuĠ anĠ
tingĠ kaoĠ
zhengĠxie ĠweiĠyuanĠ
r ĠĠĠ
Ġ junĠshiĠ
Ġ guanĠzhiĠ
Ġ leiĠjiĠ
an ĠfuĠ
ĠĠĠ jianĠliĠ
shou ĠerĠ
zhuang ĠweiĠ
chui ĠzhiĠ
quĠ dongĠ
tongĠ chang
ĠqianĠ longĠ
Ġ ding
diĠ liuĠ
ĠbuĠ luĠ
jiangĠ zheĠ
dangĠ anĠ
ĠwanĠ chengĠ
zhengĠfu ĠyuĠ
mei ĠerĠ
jiaĠ qiangĠ
shangĠ suĠ
zongĠ shuĠ
ĠciĠ ciĠ
ĠwanĠ meiĠ
ĠtongĠ riĠ
ĠĠĠyiĠ xiaĠ
ĠfanĠ duiĠ
ĠfenĠbie ĠweiĠ
jiaĠliĠfuĠ niĠyaĠzhouĠ
Ġ com
Ġ zhanĠdiĠ
ĠyiĠ tiĠ
gaiĠ jinĠ
anĠ xianĠ
saiĠ cheĠ
Ġtong ĠzhiĠ
si ĠzhongĠ
lu ĠweiĠ
chuan ĠyueĠ
yanĠ shengĠ
luĠ duanĠ
ĠshengĠ chengĠ
ĠhaiĠ junĠ
nongĠ changĠ
Ġ 2003
ĠĠĠ jianĠzhuĠ
ĠĠĠ 2014ĠnianĠ
fu ĠzhongĠ
dong ĠzhiĠ
mei ĠyiĠ
te ĠzaiĠ
sui ĠdeĠ
sui ĠzhiĠ
kuai ĠdeĠ
jiaĠ naĠ
quĠ ziĠ
jiuĠ duĠyuĠ
ĠshiĠjiĠ yuĠ
xiuĠ dingĠ
Ġ s
ĠĠĠ 12
xin ĠheĠ
jianĠ danĠ
ĠqiĠ yongĠ
tongĠ xueĠ
zhouĠ bian
guĠ laoĠdeĠ
liuĠ liangĠ
ziĠxingĠ cheĠ
5 ĠmiĠ
Ġ 1940
li ĠyiĠ
cheng ĠyiĠgeĠ
ri ĠshiĠ
jiao ĠjiĠ
1935 ĠnianĠ
xiangĠ daoĠ
fenĠ chengĠ
ĠkeĠ laiĠ
puĠ chaĠ
zuiĠzhongĠ yaoĠdeĠ
ĠcengĠ jingĠ
ĠĠĠ 9ĠyueĠ
shan ĠyuĠ
zhuĠ shouĠ
nanĠ minĠ
ĠbiĠ xuĠ
geĠyueĠ houĠ
zhe ĠjiĠ
xiangĠ jiaoĠ
chiĠ jingĠ
ĠhuaĠ shengĠ
faĠshengĠ leĠ
Ġ zhuo
ĠĠĠ 2020ĠnianĠ
ba ĠtaĠ
suan ĠdeĠ
zhuĠ guanĠ
yinĠ niĠ
pingĠ hengĠ
duĠ teĠdeĠ
ĠĠĠzhiĠ zuoĠ
ĠR Ġ
ĠĠĠcheĠzhanĠ jieĠgouĠ
ĠĠĠ 10
si ĠyueĠ
xia ĠerĠ
ĠbuĠ heĠ
quĠ neiĠ
shangĠ fangĠ
miĠ duĠ
linĠ shengĠ
eĠ haiĠeĠ
kaĠ feiĠ
w Ġ
ĠĠĠ huoĠ
jinĠ chengĠ
zhengĠ jiaoĠ
touĠ ru
huiĠyiĠ shangĠ
ĠD Ġ
ĠĠĠ 6Ġ
ĠzaiĠ riĠbenĠ
ziĠ shaĠ
Ġdan ĠbuĠ
Ġer ĠheĠ
fang ĠdiĠ
mu ĠjiĠ
2025 ĠnianĠ
jinĠ rongĠ
yingĠ geĠlan
ĠdaĠ qiaoĠ
ĠliĠfaĠ huiĠ
Ġ heng
Ġ ga
sheng ĠrenĠminĠzhengĠfuĠ
jin ĠnianĠ
zuo ĠheĠ
ĠerĠ laiĠ
ĠĠĠ muĠ
ya ĠsiĠ
ĠzaiĠ nanĠ
fuĠ buĠzhangĠ
jianĠ chiĠ
beiĠ meiĠ
fangĠ xingĠ
baoĠ fuĠ
mianĠ qianĠ
Ġmi ĠzhiĠ
luoĠfaĠ keĠ
Ġ Re
juĠ feng
ĠqiĠzhongĠ youĠ
ĠĠĠ Mo
kuang ĠjiaĠ
jinĠ zhangĠ
yingĠ guoĠdeĠ
ĠdeĠshiĠ shiĠ
ĠĠĠ riĠbenĠ
ĠĠĠ 6ĠyueĠ
ĠĠĠ 2013ĠnianĠ
jin ĠqiĠ
dui ĠweiĠ
zhuan ĠzhiĠ
huiĠ jiaĠ
juĠ zhuĠzaiĠ
juĠ juĠzhangĠ
jiuĠ beiĠ
chongĠ zuĠ
tuiĠ fanĠ
Ġ man
Ġ 90
Ġ 2002
Ġ guanĠliĠ
Ġ chongĠxinĠ
ĠĠĠ 5
di ĠyiĠjiĠ
bao ĠjiĠ
duo ĠbuĠ
32 Ġ
1969 ĠnianĠ
yanĠ faĠ
gongĠchanĠ zhuĠyiĠ
W Ġ
Ġ gouĠ
li ĠkeĠ
lu ĠxiĠ
luo ĠweiĠ
yao ĠzaiĠ
ĠshiĠ taiĠwanĠ
ĠdeĠyiĠ jianĠ
ĠzhengĠ geĠ
ĠbingĠqie ĠzaiĠ
ĠĠĠ yongĠ
fei ĠzhiĠ
ka ĠdeĠ
ĠshiĠ siĠ
zhanĠ juĠ
ĠzhuĠ xiĠ
liĠ liangĠ
ĠtaiĠ pingĠ
chengĠliĠ leĠ
wuĠxianĠ dianĠshiĠ
Ġ Mi
Ġ Ro
she ĠliĠdeĠ
tai ĠweiĠ
dai ĠzhiĠ
1961 ĠnianĠ
keĠ xueĠjiaĠ
fangĠ bianĠ
yanĠ shenĠzhiĠ
ĠdaĠ xueĠdeĠ
ĠfuĠ gaiĠ
wanĠ zhengĠdeĠ
luoĠ xuanĠ
Ġ long
Ġ 150
Ġ tuiĠchuĠ
ci ĠheĠ
ku ĠerĠ
1931 ĠnianĠ
ĠyouĠ heĠ
wenĠ geĠ
ĠĠĠ X
ĠĠĠ 2010ĠnianĠ
yan ĠqiĠ
nei ĠsiĠ
1957 ĠnianĠ
ĠshiĠ fuĠ
ĠguoĠ fangĠ
ĠxiĠ xiĠ
zuoĠ leĠ
junĠ beiĠ
ming ĠjiĠ
shou ĠliĠ
zu ĠweiĠ
guoĠ fangĠbuĠ
ĠkeĠ laĠ
muĠ jianĠ
zhenĠ zhengĠ
cheĠ tuiĠ
feiĠ chang
Ġ qin
mei ĠzhongĠ
ban ĠnianĠ
shuĠ shuĠ
mengĠ teĠ
ĠĠĠgenĠjuĠ 2010ĠnianĠmeiĠguoĠrenĠkouĠpuĠchaĠdeĠshuĠjuĠ
ĠĠĠ 8
ĠĠĠ 2012ĠnianĠ
shen ĠliĠ
reng ĠzaiĠ
yuanĠ waiĠ
liuĠ xueĠ
baĠ leĠsiĠ
Ġceng ĠzaiĠ
ka ĠliĠ
po ĠerĠ
wangĠ houĠ
zuĠ ziĠzhiĠ
ĠxianĠ jinĠ
hangĠ banĠ
ĠP Ġ
Ġ zhui
Ġ yuĠyiĠ
jiang ĠweiĠ
qian ĠqiĠ
lai ĠerĠ
ben ĠzhiĠ
tui ĠliĠ
hei ĠrenĠ
qianĠ xianĠ
Ġ i
yin Ġyue
chong ĠfuĠ
ll ĠĠĠ
son Ġ
ĠshiĠ shangĠ
shengĠ jieĠrangĠ
taiĠ shouĠ
meiĠ tianĠ
liuĠ chuanĠ
zhuanĠ huanĠ
Ġfei ĠliĠ
xiao ĠyiĠ
chen ĠdeĠ
1951 ĠnianĠ
zhengĠ wuĠ
ĠriĠ baoĠ
quĠshiĠ houĠ
Ġjiang ĠxiĠ
ĠĠĠ 16
mi ĠjiĠ
dang ĠriĠ
duo ĠliĠ
jianĠ zhuĠshiĠ
jieĠ jieĠ
qianĠ laiĠ
ĠkeĠ chengĠ
feiĠ faĠ
ĠdaoĠ daĠ
liaoĠ ning
ta ĠerĠ
ri ĠerĠ
ck Ġ
jingĠ quĠ
quanĠ tiĠ
tuĠ ranĠ
guangĠ fanĠdeĠ
ĠweiĠyuanĠ huiĠdeĠ
zhengĠfu ĠzaiĠ
Ġ zao
ĠĠĠ 2005
ĠĠĠ yanĠgeĠ
jin ĠheĠ
nan ĠyuĠ
zong ĠdeĠ
1960 ĠnianĠdaiĠ
beiĠ qiĠ
chongĠ fanĠ
xinĠguanĠ feiĠyanĠ
e ĠerĠ
Ġ pao
ti ĠbuĠ
pu ĠdeĠ
rong ĠdeĠ
huiĠ guanĠ
liuĠ geĠ
tuĠ ran
ĠshiĠshiĠ zhangĠ
Ġ fenĠweiĠ
ĠĠĠ gai
che ĠrenĠ
ĠyiĠ qingĠ
jingĠ yuanĠ
tanĠ suoĠ
er ĠzhongĠ
pan ĠdeĠ
ĠyiĠ jiaoĠ
xiĠ lie
jinĠ siĠ
fangĠ xiangĠdeĠ
baoĠ anĠ
daiĠ tiĠ
tuĠ shaĠ
mianĠ xiangĠ
tuanĠ zhangĠ
Ġyou ĠdeĠ
xingĠzhengĠ danĠweiĠ
ĠanĠ huiĠ
ĠdiĠerĠ ciĠ
guan ĠzaiĠ
liang ĠyuĠ
ken ĠdingĠ
ĠyiĠ changĠ
ĠjiĠ cheĠ
caiĠ zhengĠbuĠ
gangĠ tieĠ
hangĠkong ĠgongĠsiĠ
ĠshiĠyiĠgeĠweiĠyuĠ meiĠguoĠ
dao ĠguoĠ
tuo ĠerĠ
gei ĠtaĠ
ĠzhongĠ beiĠ
jiaĠ erĠ
tingĠ zhangĠ
renĠdaĠ daiĠbiaoĠ
kai ĠqiĠ
fan ĠfuĠ
Ġ jiĠyiĠ
xian ĠbuĠ
xin ĠzhiĠ
lei ĠyuĠ
cun ĠyuĠ
fuĠ qiĠ
faĠ jueĠ
leĠ xuĠduoĠ
ĠliuĠyuĠ mianĠjiĠ
wan ĠqiĠ
ben ĠjiĠ
che ĠxingĠ
shao ĠyouĠ
1942 ĠnianĠ
1933 ĠnianĠ
renĠ min
ĠbingĠ biaoĠshiĠ
ĠzhuĠ chiĠ
Ġ kua
ying ĠheĠ
zhao ĠshiĠ
1928 ĠnianĠ
zhuĠ chiĠrenĠ
bianĠ zuĠ
ĠgongĠ luĠ
ĠgenĠjuĠ 2020ĠnianĠmeiĠguoĠrenĠkouĠpuĠchaĠdeĠshuĠjuĠ
ben ĠbuĠ
ĠdaĠ diĠ
huoĠ quĠ
duoĠ xiangĠ
ĠyeĠ keĠyiĠ
taoĠ wangĠ
ĠfenĠbie ĠshiĠ
Ġ 34
ĠĠĠ tangĠ
zuo ĠjiĠ
fan ĠjiĠ
nv ĠyouĠ
qiao ĠdeĠ
keĠ saĠsiĠ
chengĠ danĠ
boĠ yinĠ
saiĠ guanĠjunĠ
fengĠ geĠdeĠ
hangĠ zhanĠ
xinĠxiĠ lanĠ
Ġ 20Ġ
ĠĠĠ Pro
ĠĠĠ zuiĠ
ĠĠĠ faĠguoĠ
nian ĠdeĠ
fuĠ siĠ
ĠjiaĠ ru
ĠdeĠyiĠ weiĠ
zhuanĠ quĠ
touĠ shouĠ
guan ĠweiĠ
gu ĠyiĠ
10 ĠnianĠ
ĠjiĠ xu
ĠqiĠ houĠyuĠ
shangĠ jiangĠ
xiaoĠ sheĠ
ĠtaĠ jiangĠ
caiĠ panĠ
huoĠdeĠ deĠ
Ġ Q
ĠĠĠ 2011ĠnianĠ
ma ĠqiĠ
huan ĠweiĠ
th ĠĠĠ
zhongĠ haiĠ
ĠerĠ ciĠ
ĠxiĠ siĠ
fenĠ xiangĠ
ĠyunĠ nanĠ
ĠĠĠ ruĠ
fen ĠshiĠ
tai ĠyiĠ
th Ġ
gongĠ sheĠ
shouĠ mingĠ
yeĠ naĠ
qingĠ yuanĠ
xueĠshiĠ xueĠweiĠ
Ġ 39
ze ĠdeĠ
gang ĠdeĠ
shun ĠxuĠ
diĠ mianĠ
geĠ tiĠ
jieĠ xiaĠ
qianĠ zeĠ
ĠyinĠweiĠ taĠ
Ġ qu
Ġ 2023ĠnianĠ
jing ĠbuĠ
ting ĠheĠ
ceng ĠbeiĠ
jieĠ ruĠ
dianĠ liuĠ
pingĠ dingĠ
ĠdanĠ zheĠ
ĠshiĠshiĠ yiĠ
ĠxinĠ zeng
Ġ 1997ĠnianĠ
qing ĠheĠ
fei ĠshiĠ
bai ĠxingĠ
ĠshiĠ xiĠbanĠyaĠ
zuoĠ yeĠ
ĠsiĠ lingĠbuĠ
meiĠ guoĠyiĠ
ĠyingĠ xiangĠ
keĠneng ĠxingĠ
yaĠmeiĠ niĠyaĠ
Ġ rui
ĠĠĠ baiĠ
dou ĠbuĠ
mao ĠdeĠ
40 Ġ
chengĠ gongĠdeĠ
huaĠ mianĠ
danĠ xinĠ
duoĠ lunĠ
waiĠ jieĠ
ĠjieĠ fangĠ
qiangĠ daĠdeĠ
Ġ De
Ġ houĠyuĠ
le ĠzhiĠ
pan ĠchuĠ
faĠ erĠ
faĠ buĠdeĠ
yinĠ jinĠ
nvĠ wangĠ
ting ĠshiĠ
fengĠ suoĠ
chuangĠ zao
wangĠyuanĠ jingĠ
Ġ bangĠzhuĠ
cha ĠerĠsiĠ
1912 ĠnianĠ
yanĠ zou
danĠ duĠ
guan Ġli
yong ĠdiĠ
wen ĠyuĠ
wan ĠnianĠ
zhongĠ huaĠ
guanĠ xiĠdeĠ
shenĠ ruĠ
ĠtongĠshiĠ yeĠ
ĠrenĠkou ĠdeĠ
yu ĠdeĠguoĠ
lin ĠyuĠ
ĠliĠ jingĠ
gongĠ zhanĠ
shouĠ huanĠyingĠ
tiaoĠ wenĠ
yong ĠheĠ
san ĠdeĠ
san ĠyueĠ
sha ĠshiĠ
heĠ beiĠ
jieĠ shou
biĠ saiĠdeĠ
xieĠ daiĠ
ĠshengĠ huoĠ
Ġri ĠyiĠ
ĠmianĠjiĠ 0
ĠaoĠ daĠliĠyaĠ
Ġ 46
ĠĠĠ wenĠhuaĠ
ting ĠjiĠ
ĠshiĠ keĠ
ĠweiĠ daĠ
xianĠ zaiĠdeĠ
ĠfuĠ erĠ
shuiĠ mianĠ
ĠjieĠ jinĠ
ĠjieĠ gouĠ
dianĠyingĠ jieĠ
huĠlianĠ wangĠ
yi ĠdeĠshiĠ
ge ĠĠĠ
zu ĠshiĠ
huang ĠheĠ
diĠ tieĠ
jianĠ shao
jingĠ neiĠdeĠ
zongĠ zhanĠ
baĠ geĠ
ĠyiĠjiĠ zaiĠ
fa ĠrenĠ
pen Ġ
wuĠ renĠjiĠ
zhuĠ zhaiĠ
fenĠ shuĠ
suĠ songĠ
shanĠ dingĠ
ĠshiĠshiĠ deĠ
zuoĠpin ĠdeĠ
Ġ 70
ĠĠĠ guanĠ
daĠ lu
ĠdaĠ qiĠ
junĠ jianĠ
sheĠ huiĠdeĠ
Ġ chuang
Ġ zeng
Ġ Ð°
Ġ guoĠliĠ
ĠĠĠ dianĠ
1927 ĠnianĠ
diĠ daĠ
tongĠ baoĠ
wenĠ siĠ
tiĠ quĠ
hangĠ zhouĠ
ĠhuĠ beiĠ
zhou ĠdeĠyiĠgeĠshiĠzhenĠ
luĠ waĠ
suĠ sheĠ
ĠdaoĠ luĠ
ĠgeĠ guoĠ
ĠluĠwa ĠerĠshengĠ
Ġ nu
zun ĠzhongĠ
Ġli ĠnianĠ
tiĠ caiĠ
boĠ chuĠdeĠ
duoĠ yuanĠ
yanĠjiu ĠzhongĠxinĠ
ĠshiĠxingĠ dengĠweiĠ
Ġ fu
Ġ kuaiĠ
Ġ yuanĠshiĠ
Ġ zhongĠyuĠ
te ĠsiĠ
qianĠ xiaĠ
ĠjingĠ fangĠ
renĠkouĠpuĠ chaĠ
aĠgenĠ tingĠ
Ġ tan
le ĠxiĠ
dang ĠbuĠ
shen ĠheĠ
ca Ġ
tianĠ wenĠxueĠ
baĠ faĠliĠyaĠ
paiĠ lieĠ
ĠaoĠ menĠ
Ġ xue
shen ĠqiĠ
fan ĠdaĠxueĠ
ting ĠyuĠ
1943 ĠnianĠ
wuĠ buĠ
chengĠ shuĠ
liangĠ haoĠ
shenĠ fuĠ
ranĠ liaoĠ
Ġ000 Ġ
Ġ 400
Ġ La
jiu ĠyueĠ
jiaoĠ gaoĠ
ĠziĠ xingĠ
xingĠzhengĠ quĠhuaĠ
ĠguangĠ xuĠ
aĠerĠ beiĠsiĠ
reĠdai ĠqiĠxuanĠ
duo ĠsiĠ
ceng ĠyouĠ
jiaĠ xiangĠ
shuĠ faĠ
qianĠ yinĠ
jiangĠ xueĠ
duĠ ziĠ
banĠ benĠdeĠ
meiĠ ti
duoĠ guanĠ
Ġdan ĠyuĠ
geĠlunĠ biĠyaĠ
Ġ nuo
bi ĠyuĠ
1932 ĠnianĠ
1929 ĠnianĠ
ĠweiĠ zaiĠ
ĠjiĠ xieĠ
ĠzhongĠ yaoĠdeĠ
ĠyueĠ tuan
quĠ bieĠ
tongĠ yang
ĠdeĠyiĠ ciĠ
neiĠ ruiĠ
ĠxianĠshiĠ youĠ
Ġ 2001
zhi ĠĠĠ
benĠ shuĠ
shaĠ tianĠ
Ġzai ĠshiĠ
Ġ yao
Ġ siĠshiĠ
Ġ hengĠliĠ
tong ĠqiĠ
buĠ zaiĠ
diĠ fenĠ
ĠbuĠ yaoĠ
quĠ muĠ
puĠ luoĠ
panĠ luanĠ
Ġchi ĠweiĠ
ĠĠĠ aiĠ
yin ĠyouĠ
is ĠĠĠ
ĠzaiĠ wuĠ
ĠxianĠ luĠ
yiĠshiĠ daoĠ
Ġ 300
ĠĠĠ lingĠ
zu ĠjiĠ
gongĠ ziĠ
ĠdaĠ banĠ
ĠzheĠ zuoĠ
Ġ houĠyouĠ
miao ĠyuĠ
1924 ĠnianĠ
ĠyouĠ xiĠdeĠ
xianĠ daoĠ
shouĠ cang
zhuanĠ jiĠdeĠ
woĠ men
ĠfeiĠ lvĠ
ĠĠĠweiĠ leĠ
gongĠchanĠ dang
ĠĠĠ zuoĠweiĠ
ĠĠĠ 4Ġ
ĠĠĠ heĠĠĠ
bo ĠjiĠ
1934 ĠnianĠ
ĠzhiĠ ciĠ
zhongĠ gongĠ
xinĠ zhuĠ
bingĠ wuĠ
diĠyiĠ baiĠ
keĠyiĠ tongĠguoĠ
shuo ĠfuĠ
jieĠ lunĠ
jinĠ huiĠ
ĠdiĠ renĠ
zuĠ xianĠ
ĠdeĠyiĠ jiĠ
hanĠ gaiĠ
Ġ11 Ġ
dianĠshiĠjieĠ muĠ
tu ĠshiĠ
tao ĠyuanĠ
sa ĠdeĠ
shengĠ huiĠ
xueĠ tangĠ
fangĠ zhenĠ
tiĠ qianĠ
ĠdeĠyiĠ xiangĠ
ĠchuĠ ciĠzhiĠwaiĠ
quanĠguoĠ zhongĠdianĠ
luoĠma ĠdiĠguoĠ
Ġ biĠdeĠ
qi ĠliĠ
ĠyiĠ xianĠ
yuanĠ jianĠ
keĠ leiĠ
daiĠ laiĠdeĠ
ĠziĠ ranĠ
ĠzuoĠ biaoĠweiĠ
tianĠwenĠ taiĠ
ĠĠĠ haiĠ
yong ĠqiĠ
nv ĠrenĠ
daĠ xuanĠ
jingĠ beiĠ
fangĠ chengĠshiĠ
yangĠ ziĠ
zongĠ juĠ
tingĠ zhanĠ
shaĠ baiĠ
qiangĠ huaĠ
ĠĠĠ 2008ĠnianĠ
jingĠ touĠ
huaĠ guiĠ
ĠsiĠ houĠ
eĠ huaĠ
mengĠ junĠ
maoĠ dunĠ
ĠtongĠshiĠ yeĠshiĠ
J Ġ
Ġ HR
Ġ chaoĠguoĠ
lu ĠerĠ
fan ĠshiĠ
duiĠ fuĠ
ruĠ qiuĠ
ĠzhuĠyao ĠshiĠ
Ġ ë
zang ĠyuĠ
CD Ġ
ziĠ woĠ
yeĠ zhanĠ
banĠ quanĠ
liuĠ dongĠ
zongĠ guanĠ
ĠbingĠ feiĠ
zhaoĠ guĠ
taoĠ wanĠ
ĠshangĠ shuĠ
Ġ 38
qu ĠdiĠ
ying ĠzhiĠ
te ĠweiĠ
nei ĠyiĠ
ciĠ ciĠ
ĠshiĠshiĠ shiĠ
ĠdeĠdiĠ sanĠ
ĠdeĠguoĠ chengĠ
ĠwoĠ men
ciĠshiĠjieĠdaĠ zhanĠqiĠjianĠ
ĠĠĠ wanĠ
qiu ĠheĠ
ting ĠdaoĠ
zhuĠ fangĠ
zhuĠ quanĠ
riĠ changĠ
xiaĠ xiaĠ
zhuanĠ bianĠ
tuoĠ luoĠ
ĠdeĠjiĠ benĠ
Ġ 37
ĠĠĠ jingĠliĠ
tu ĠsiĠ
zhuan ĠliĠ
fuĠ xianĠ
huoĠ cheĠzhanĠ
liangĠ anĠ
kaoĠ chaĠ
ta ĠyouĠ
te ĠzhiĠ
kai ĠerĠ
ĠzhongĠ guoĠdeĠ
zhanĠ quĠ
ĠkeĠ leiĠ
dangĠ xuan
chanĠ wuĠ
ĠE Ġ
Ġ SAO
ĠĠĠ guoĠjiĠ
jue ĠweiĠ
ĠyuĠ leiĠ
xiangĠ dongĠ
cunĠ zaiĠyuĠ
ceĠ lveĠ
8 ĠgeĠ
zhe ĠyouĠ
wen ĠdiĠ
fan ĠerĠ
pu ĠsiĠ
run Ġ
ĠjiĠ keĠ
buĠ duanĠ
ĠguoĠ jia
xianĠ mingĠ
houĠ daiĠ
fangĠ xianĠ
minĠzuĠ zhuĠyiĠ
baoĠfaĠ houĠ
bai ĠheĠ
wuĠ pinĠ
ĠerĠ taĠ
ĠjiaĠ erĠ
duoĠ quĠ
ĠbingĠ chengĠ
tongĠzhiĠ zheĠ
meiĠguoĠrenĠkouĠpuĠ chaĠ
ĠdiĠqiĠ yaĠ
ĠĠĠfor ĠĠĠ
ĠĠĠ hongĠ
shu ĠdiĠ
dong ĠheĠ
wen ĠbuĠ
or ĠĠĠ
heĠ lanĠ
jianĠ ceĠ
wuĠ erĠ
jiaĠ suĠ
huiĠ sheĠ
xueĠ xiaoĠdeĠ
huaĠ fenĠ
moĠ fangĠ
poĠ lunĠ
5Ġ gongĠliĠ
Ġ yingĠdeĠ
ĠĠĠ yaĠ
ze ĠbeiĠ
chi ĠdaoĠ
ĠzhongĠ daĠ
yuanĠ shengĠ
fuĠ zeĠrenĠ
jingĠ lingĠ
fanĠ gongĠ
caiĠ fangĠ
1Ġ riĠqiĠ
rongĠ liangĠ
ĠtaiĠ beiĠ
mouĠ xie
Ġ 23
Ġ boĠshiĠ
ke ĠĠĠ
ya ĠzaiĠ
guoĠ chengĠzhongĠ
geĠ laĠsiĠ
faĠ daĠ
aiĠ haoĠ
pianĠ duanĠ
Ġ12 Ġ
2 ĠliĠ
Ġ 1994ĠnianĠ
fa ĠzaiĠ
gu ĠerĠ
bang ĠdiĠ
diao ĠyuĠ
ĠshiĠ eĠluoĠsiĠ
ĠguoĠ duĠ
ĠqiĠ yueĠ
huaĠ beiĠ
fenĠ pei
Ġa ĠerĠbeiĠ
ĠF Ġ
Ġ pengĠ
ĠĠĠ fenĠleiĠ
zhi ĠdeĠyiĠ
qu ĠdeĠyiĠgeĠ
20 ĠnianĠ
le ĠheĠ
guan ĠliĠdeĠ
nan ĠxiĠ
qing ĠliĠ
luo ĠheĠ
niu ĠyueĠshiĠ
al Ġ
diĠ dianĠ
faĠ xian
tiĠ gong
ĠjinĠ erĠ
seĠ caiĠ
xianĠdeĠ feiĠjianĠzhiĠdiĠquĠ
Ġgai ĠshiĠ
yu ĠyiĠgeĠ
ĠĠĠ zhenĠ
qiu ĠyiĠ
reng ĠweiĠ
ĠguoĠ junĠ
jueĠ seĠdeĠ
erĠdeĠ mingĠ
0 ĠzuoĠbiaoĠweiĠ
Ġ Li
yi ĠĠĠ
hua ĠerĠ
te ĠrenĠ
gan ĠshiĠ
tang ĠheĠ
tao ĠliĠ
jiaĠ shangĠ
ĠqiĠ B1900
mingĠ chengĠweiĠ
ĠweiĠyuĠ yinĠjingĠ
ĠweiĠwuĠ erĠ
0ĠzuoĠbiaoĠweiĠ chiĠjingĠ
wen ĠzhiĠ
nan ĠzhiĠ
luo ĠerĠ
fuĠ nvĠ
dongĠ yaĠ
nanĠ buĠdeĠ
lianĠ saiĠdeĠ
suoĠ weiĠdeĠ
ĠliĠshiĠ huiĠ
dianĠshiĠ dongĠhuaĠ
ĠzongĠ tongĠ
ĠyinĠci ĠzaiĠ
Ġ ãĥ³
ĠĠĠ biĠ
da ĠrenĠ
dui ĠdaĠ
pu ĠjiĠ
buĠ huiĠ
chengĠ xiangĠ
ĠshiĠjiĠ zhongĠ
ĠqingĠ chaoĠzhengĠzhiĠrenĠwuĠ
Ġ zou
ĠĠĠ 11ĠyueĠ
mo ĠliĠ
shui ĠzhongĠ
geng ĠshiĠ
sen ĠdeĠ
sang ĠshiĠ
yuanĠ xiaoĠ
shengĠ huoĠdeĠ
chuĠ saiĠ
zuĠqiuĠ lianĠsaiĠ
ĠguoĠminĠ zhengĠfuĠ
ĠĠĠ 7
ĠĠĠ sanĠ
gongĠ dianĠ
ĠxiĠ zhouĠ
yinĠ daoĠ
ĠfuĠ langĠ
ĠdongĠ huaĠ
ĠĠĠcheĠzhanĠ gouĠzaoĠ
Ġ faĠbuĠ
ĠĠĠ 2022ĠnianĠ
jiangĠ paiĠ
miĠ qieĠ
xuanĠ yanĠ
henĠ daĠdeĠ
biaoĠxianĠ chuĠ
ĠJ Ġ
Ġ 1945
ĠĠĠ linĠ
tai ĠzaiĠ
liang ĠyiĠ
hao ĠzaiĠ
hao ĠheĠ
bai ĠnianĠ
26 Ġ
ĠnianĠ qingĠdeĠ
daĠ lou
meiĠ dongĠ
nanĠsiĠ laĠfuĠ
xinĠtaiĠ biĠ
Ġ 1992ĠnianĠ
ĠĠĠ taĠdeĠ
lu ĠzhongĠ
bai ĠshiĠ
shao ĠweiĠ
juĠ dianĠ
saiĠ naĠ
kongĠ zhiĠdeĠ
feiĠlvĠ binĠ
Ġ changĠqiĠ
Ġ taiĠguoĠ
ĠĠĠ zuoĠ
yun ĠzaiĠ
chuan ĠdaoĠ
pen ĠdiĠ
gongĠ wuĠ
dongĠ quĠ
yingĠ xiangĠdeĠ
xinĠ quĠ
ĠxingĠ zheng
zongĠ shuĠjiĠ
ĠgeĠ mingĠ
wanĠchengĠ leĠ
ĠH Ġ
shunĠshiĠ zhenĠyuĠ
du ĠzaiĠ
sha ĠrenĠ
yingĠ pian
leiĠ siĠyuĠ
xunĠ zhao
ĠweiĠyuĠgaiĠ shengĠ
ĠĠĠ Li
zhan ĠyiĠzhongĠ
wa ĠdeĠ
suan ĠjianĠ
yuanĠ zhengĠ
beiĠ renĠweiĠ
ĠqiĠ renĠ
ĠsiĠ xiangĠ
ĠgeĠ lanĠ
Ġ guangĠxiĠ
ĠĠĠ kaiĠ
xun ĠxiĠ
daĠ geĠmingĠ
wuĠ tiĠ
shengĠ danĠ
changĠ changĠ
bianĠ maĠ
ĠgeĠ erĠ
aoĠ daĠliĠ
jiaĠruĠ leĠ
zhenĠjiĠ xingĠzhengĠdanĠweiĠ
Ġ 1990
Ġ 160
Ġ duĠliĠ
you ĠyiĠzhiĠ
fa ĠweiĠyuanĠ
ta ĠliĠ
shui ĠheĠ
pao ĠdaoĠ
zheĠ xiangĠ
feiĠ danĠ
ĠzhanĠ houĠ
ĠxingĠzhengĠ quĠ
ya ĠjiĠ
fei ĠdiĠ
duan ĠweiĠ
cong ĠzhongĠ
gen ĠdiĠ
ry Ġ
daĠ banĠ
ĠxiĠ geĠ
jiangĠ nanĠ
benĠ zhanĠ
ĠziĠ ran
hongĠ zhaĠ
Ġ la
Ġ gang
Ġ 64
Ġ luoĠsiĠ
Ġ minĠzhuĠ
mu ĠliĠ
qiang ĠdaĠ
1909 ĠnianĠ
ĠqiĠ xi
zuoĠ wuĠ
ĠT Ġ
Ġ kao
ch Ġ
zhuan ĠkeĠ
xiu ĠsiĠ
12 ĠnianĠ
28 Ġ
1970 ĠnianĠdaiĠ
ĠbuĠ tong
ĠbuĠ bingĠ
shuĠ xingĠ
leĠ biĠ
zhanĠ lveĠ
ĠpingĠ chengĠ
Ġ9 Ġ
zhanĠdou ĠjiĠ
Ġ pang
lian ĠshiĠ
zui ĠxingĠ
zhuan ĠchengĠ
ly ĠĠĠ
ĠyiĠ dingĠ
ĠyiĠ seĠlieĠ
ĠzhiĠ hou
shangĠ biaoĠ
luoĠ teĠ
ĠcongĠ ciĠ
ĠweiĠjiĠ chuĠ
xiaĠxiaĠdeĠyiĠgeĠxiangĠ zhenĠjiĠxingĠzhengĠdanĠweiĠ
Ġ 58
Ġ aoĠsiĠ
ĠĠĠ fengĠ
ba ĠjiĠsiĠ
qia Ġ
xueĠ tongĠ
luĠ jingĠ
laiĠ kanĠ
kaiĠ chuĠ
lvĠ huaĠ
e ĠyuĠ
Ġ cang
Ġ 1993ĠnianĠ
ĠĠĠ huaĠ
min ĠshiĠ
es Ġ
buĠ zuĠ
xiangĠ liangĠ
bingĠ beiĠ
dianĠ xinĠ
shenĠ panĠ
tiaoĠ kuanĠ
ĠboĠ lanĠ
hunĠ ningĠ
ĠguanĠ zhuangĠbingĠduĠ
zhuiĠsuĠ daoĠ
zhan ĠliĠ
fangĠ kongĠ
yinĠ yingĠ
gangĠ qinĠ
ĠshangĠ yeĠ
nanĠjiĠ tiaoĠyueĠ
Ġ fenĠbuĠzaiĠ
ao ĠkeĠ
shou ĠzaiĠ
ting ĠzhongĠ
EST Ġ
shengĠ qiĠ
shouĠ sunĠ
wenĠ shuĠ
yaĠ geĠ
ĠtongĠ yangĠ
ĠshiĠrenĠminĠ zhengĠfuĠ
Ġ tiao
Ġ 1999
ĠĠĠ 2009ĠnianĠ
di ĠshiĠyiĠ
mian ĠweiĠ
long ĠkeĠ
rong ĠjiĠ
ĠjiĠ yinĠ
xiĠ tongĠdeĠ
siĠ houĠ
jiaĠ sheĠ
ciĠ dianĠ
ĠgaiĠ shuĠ
ceĠ lve
yanĠjiu ĠdeĠ
dongĠjingĠ duĠ
Ġ 22
Ġ weiĠshiĠ
ĠĠĠ 9
ya ĠerĠ
pai ĠheĠ
buĠ tong
erĠ chengĠ
mingĠ chaoĠ
shangĠ keĠ
luĠ yinĠ
tiĠ anĠ
tianĠ xiaĠ
chuanĠ shuĠ
guangĠ bo
qiangĠ diao
ĠnanĠ beiĠ
Ġ 1995ĠnianĠ
ĠĠĠ 15
yuan ĠrenĠ
ming ĠqiĠ
du ĠyueĠ
chuan ĠshiĠ
ĠzhongĠ wen
laiĠ zi
paiĠ she
Ġ 47
Ġ 1996ĠnianĠ
ĠĠĠ fenĠ
ĠĠĠ sheĠjiĠ
ping ĠrenĠ
ĠzaiĠ xinĠ
chuĠ jingĠ
guanĠ zhengĠ
changĠ anĠ
ĠziĠ ciĠ
ĠxiangĠ siĠ
ĠxiangĠ dangĠyuĠ
zaoĠ chuanĠ
ĠweiĠyuanĠhuiĠ zhuĠxiĠ
Ġa ĠliĠ
canĠsaiĠ ziĠgeĠ
nanĠjiĠtiaoĠyueĠ tiĠxiĠ
Ġ 1998
Ġ 18Ġ
ji ĠshiĠshiĠ
gai ĠyouĠ
tou ĠyuĠ
ĠshiĠ fenĠ
ĠliĠ xianĠ
mingĠ xianĠdeĠ
jiaoĠ zhanĠ
xiaoĠ huaĠ
ĠfuĠ zhuĠ
Ġha ĠliĠ
xiuĠdaoĠ yuanĠ
Ġ douĠshiĠ
ĠĠĠ 0
ĠĠĠ baoĠ
duo ĠyuĠ
shangĠ jieĠ
jiaoĠ tuĠ
moĠ faĠ
gengĠ daĠdeĠ
Ġda ĠyueĠ
Ġ qiĠyiĠ
ji ĠshiĠjianĠ
jun ĠqiĠ
liu ĠyiĠ
tao ĠfaĠ
sa ĠkeĠsiĠ
beiĠ luĠ
ĠdiĠ mianĠ
shouĠ huĠ
shouĠ geĠquĠ
ĠjuĠ jueĠ
ĠhuoĠ chengĠ
ĠhuiĠ fuĠ
tongĠxingĠ lianĠ
Ġ 48
Ġ 1996
ĠĠĠ chenĠ
jia ĠliĠyaĠ
ban ĠzhiĠ
shui ĠdaoĠ
hun ĠliĠ
33 Ġ
siĠ tan
jianĠ cha
faĠ yanĠrenĠ
guanĠ daoĠ
biĠ yaoĠ
laiĠ wuĠ
weiĠyiĠ zhongĠ
diĠshiĠ niĠ
ĠfanĠ yingĠ
xiaoĠxingĠ xingĠdeĠ
ĠeĠ luoĠ
Ġ gei
Ġ jianĠyiĠ
lv ĠheĠ
tuo ĠkeĠ
hun Ġyin
weng Ġ
ĠshiĠ nianĠ
ĠdeĠ heĠ
ĠyiĠ danĠ
ĠweiĠ xianĠ
ĠzhongĠ yao
fangĠ shouĠ
ĠfuĠ jinĠdeĠ
yunĠ huiĠ
fengĠ fuĠdeĠ
baiĠ houĠ
ĠzheĠ yangĠdeĠ
diĠerĠ ciĠ
quan ĠzhiĠ
zhengĠ xieĠ
houĠ xuĠ
zhanĠ shengĠ
pingĠ dengĠ
zhouĠ kanĠ
tianĠ huang
ĠĠĠzhiĠ yeĠshengĠyaĠ
shanĠmai ĠdeĠyiĠbuĠfenĠ
quanĠguoĠzhongĠdianĠ wenĠwuĠbaoĠhuĠdanĠweiĠ
nanĠjiĠtiaoĠyueĠtiĠxiĠ guanĠliĠ
Ġ qiuĠduiĠ
qu ĠxiĠ
ying ĠyiĠ
ding ĠyiĠweiĠ
san ĠxingĠ
han ĠjianĠ
xingĠ dengĠweiĠ
yanĠ zhengĠ
puĠ luĠshiĠ
ĠyeĠ chengĠ
zhengĠzhiĠ buĠ
ĠdianĠ ziĠ
jing ĠdiĠ
san ĠzhiĠ
faĠ she
shangĠ zuiĠ
ĠsiĠ geĠ
tangĠ quĠ
miaoĠ shuĠweiĠ
ĠĠĠ re
ĠĠĠ xuanĠ
ĠĠĠ zaoĠqiĠ
ma ĠyiĠ
ĠjiĠ jieĠ
gongĠ guoĠ
wuĠ hanĠ
jingĠ tiĠ
zheĠ ciĠ
duiĠ kang
ĠziĠ shengĠ
Ġceng ĠyuĠ
jieĠquanĠguoĠ renĠminĠdaiĠbiaoĠdaĠhuiĠ
7 ĠgeĠ
ĠĠĠ liangĠ
ĠĠĠ kaĠ
pa ĠerĠ
faĠ lanĠkeĠ
guanĠ fang
dianĠ xingĠdeĠ
shanĠ huĠ
laĠ maĠ
keĠyiĠ shengĠ
dongĠshiĠ huiĠ
Ġwo ĠdeĠ
Ġ1949 ĠnianĠ
xiao ĠzhiĠ
ma ĠheĠ
cai ĠshiĠ
mie ĠwangĠ
1925 ĠnianĠ
jiaĠ siĠ
ĠbuĠ zhangĠ
zhuĠ chengĠ
faĠ xueĠ
huiĠ baoĠ
ĠxiĠ fangĠ
shouĠ huanĠ
danĠ yaoĠ
shenĠ yeĠ
1Ġ mingĠ
ĠyiĠzhiĠ zaiĠ
quĠdeĠ leĠ
waiĠbuĠ lianĠjieĠ
kua Ġ
zhongĠ yang
guoĠ fangĠ
nanĠ meiĠzhouĠ
zhenĠ zhuĠ
bianĠ huanĠ
ĠweiĠyuĠ zhongĠhuaĠrenĠminĠgongĠheĠguoĠ
peiĠ changĠ
ĠgaiĠcun ĠshiĠjianĠyuĠ
ĠĠĠ Ro
ĠĠĠ shuĠ
ĠĠĠ 2007ĠnianĠ
xiĠ diĠ
xiĠ fangĠ
zhanĠ jianĠ
guanĠ guangĠ
xuĠ lieĠ
shuiĠ liangĠ
taoĠ lun
Ġ en
xian ĠdeĠdiĠ
mie ĠjueĠ
ĠliĠ aoĠ
fenĠ geĠ
xuanĠ gaoĠ
maĠ zuĠ
naĠ yangĠ
Ġ 1994
le ĠyueĠ
mian ĠyouĠ
ty Ġ
yuanĠ shuĠ
geĠ diĠdeĠ
mingĠ niĠ
yingĠ xiong
xiaoĠ lvĠ
ĠshiĠdeĠ renĠ
ĠjieĠ daoĠ
chongĠ shengĠ
guoĠjiĠ zuĠ
daiĠbiaoĠ tuan
caoĠ zuo
ĠĠĠ hanĠ
bei ĠzhongĠ
duo ĠdaĠ
shui ĠshiĠ
nv ĠdeĠ
rong ĠhuoĠ
xiĠ erĠ
keĠ jianĠ
xianĠ qianĠ
huaĠ ruĠ
nanĠ daoĠ
zhenĠ rongĠ
dangĠ zuoĠ
dangĠ daiĠ
ĠweiĠyuĠgaiĠguoĠ xiĠbuĠ
Ġ 65
xingĠ nengĠ
ziĠ chengĠ
mingĠ mingĠdeĠ
dianĠ changĠ
gaiĠ jianĠ
boĠ geĠ
kaiĠ banĠ
ĠshiĠyiĠ jiaĠ
juĠminĠ dianĠ
zuoĠquĠ jiaĠ
Ġ sĠ
ĠĠĠ Me
bu ĠdeĠyiĠgeĠ
lan ĠheĠ
xiu ĠshiĠ
xiu ĠxianĠ
keĠ yiĠshiĠ
qiuĠ miĠ
suoĠ xieĠ
ĠjinĠ biaoĠ
ĠziĠ jiĠdeĠ
maoĠ zeĠdongĠ
Ġ 1992
zai ĠdeĠguoĠ
er ĠshiĠdeĠ
ming ĠzaiĠ
gu ĠsiĠ
wuĠ ran
wuĠ daĠ
duiĠ biĠ
qingĠ ganĠ
sheĠ ruĠ
gaoĠ su
gaoĠ shanĠ
feiĠ teĠ
liuĠ qiuĠ
aiĠ naĠshengĠ
ĠquĠ daiĠ
Ġ juanĠ
xingĠ zhuangĠ
shenĠ fen
shanĠ chuĠ
paiĠ fangĠ
Ġdan ĠyouĠ
Ġ zhaĠ
ĠĠĠ dengĠ
shu ĠyueĠ
huo ĠerĠ
chong ĠdeĠ
ruan ĠtiaoĠ
ĠwuĠ qiĠ
zuĠcheng ĠbuĠfenĠ
Ġ 1985ĠnianĠ
ĠĠĠ leiĠ
guan ĠdiĠ
dai ĠerĠ
ni ĠfuĠ
zong ĠsiĠlingĠ
mou ĠzhongĠ
ts Ġ
fuĠ zhuĠxiĠ
ĠbuĠ shaoĠ
guanĠ lianĠ
ĠyiĠjiĠ zhongĠguoĠdaĠluĠdeĠ
ganĠ qingĠ
zhuĠyao ĠyouĠ
feiĠxingĠ yuanĠ
ĠĠĠzheĠ keĠ
Ġ qiang
dong ĠyuĠ
wang ĠzaiĠ
shan ĠheĠ
ĠyiĠ diĠ
geĠ xiangĠ
ĠdaĠ jieĠ
meiĠ xiaoĠshiĠ
chuanĠ shuo
ĠzuiĠ houĠyiĠ
le ĠzhongĠguoĠ
du ĠbuĠ
1923 ĠnianĠ
ĠweiĠ taĠ
fuĠ chuĠ
geĠ jieĠ
jinĠ shengĠ
jiaoĠ dianĠ
liangĠ zuoĠ
Ġdan ĠshiĠzaiĠ
Ġ Vi
ĠĠĠ jiaoĠyuĠ
liang ĠqiĠ
1922 ĠnianĠ
deĠ guoĠ
xiĠ zangĠ
juĠ liuĠ
tongĠ xiangĠ
tongĠ yongĠ
ĠfuĠ zhuĠxiĠ
zhengĠzhiĠ jiaĠ
genĠ benĠ
chuĠliĠ qiĠ
ĠL Ġ
luĠyingĠ daiĠ
ĠĠĠ xiangĠgang
zhang ĠzhongĠ
geng ĠgaiĠ
15 ĠnianĠ
nuo ĠdeĠ
diĠ anĠ
houĠ xuanĠ
guanĠ ce
ĠtaĠ shuoĠ
ĠbingĠ xiangĠ
gengĠ duo
Ġ tu
Ġ kong
Ġ kongĠzhiĠ
ĠĠĠ Pa
ti ĠqiĠ
xiao ĠweiĠ
mu ĠzhongĠ
ĠyouĠ yongĠ
ĠzaiĠ haiĠ
ĠrenĠ zhengĠ
daĠ shaĠ
chuĠ jueĠ
jiaoĠ xiaoĠ
bingĠ buĠshiĠ
ĠkeĠ fuĠ
haiĠ baĠgaoĠduĠ
guĠ zhangĠ
ĠheiĠ longĠjiangĠ
ge ĠyueĠdeĠ
shang ĠzaiĠ
hao ĠjiĠ
zhao ĠjiĠ
1911 ĠnianĠ
ĠheĠ ziĠ
shengĠ dianĠ
faĠ biaoĠdeĠ
jinĠ huaĠ
ĠxiĠ shouĠ
jiaoĠ daĠdeĠ
duĠ shuĠ
ĠbingĠ chengĠweiĠ
lunĠ tanĠ
meiĠguoĠ zongĠtongĠ
kaiĠshiĠ yuĠ
ĠhaiĠ baĠ
Ġba ĠyueĠ
fuĠzhiĠ fuĠ
Ġ19 Ġ
xinĠguanĠfeiĠyanĠ queĠzhenĠbingĠliĠ
Ġ hen
Ġ Ð¾
Ġ UĠ
ĠĠĠ changĠ
xiang ĠliĠ
ni ĠyuĠ
shui ĠliĠ
zhui ĠqiuĠ
me ĠĠĠ
35 Ġ
qiĠ yuanĠ
ĠxiĠ faĠ
yeĠ chengĠweiĠ
yinĠ jieĠ
ĠtaĠ duiĠ
boĠ duoĠ
zuiĠ da
baĠ maĠ
neiĠ yaĠ
cunĠ minĠ
Ġxian ĠzhiĠ
ĠjiĠzhongĠ xueĠ
ĠmengĠ guĠ
ĠĠĠ waiĠbuĠlianĠjieĠ
ing ĠĠĠ
qu ĠyiĠyuanĠ
bao ĠyouĠ
ĠzhongĠ zuĠ
ĠheĠ huaĠ
yingĠ wuĠ
ĠdaĠ baiĠ
qianĠ daoĠ
ĠdanĠ reng
ĠdeĠshiĠ qingĠ
ĠyaĠ zhouĠ
a ĠsiĠ
ĠĠĠ zhengĠyiĠ
ba ĠyiĠ
yang ĠyuĠ
ter Ġ
ĠbuĠ ruĠ
xianĠ quĠ
guanĠ kanĠ
ĠbaoĠ liuĠ
ĠsuoĠ xieĠ
gongĠzuo ĠrenĠyuanĠ
ĠxianĠshiĠyouĠ nanĠjiĠtiaoĠyueĠtiĠxiĠguanĠliĠ
zhong ĠshiĠyongĠ
zuo ĠzaiĠ
lai ĠzhiĠ
san ĠqiĠ
cun ĠchuĠ
shuai ĠjiaoĠ
xingĠ bieĠ
beiĠ shangĠ
xinĠ tuĠ
gouĠ tongĠ
ganĠ lanĠqiuĠ
ĠĠĠ La
zong ĠjiĠ
fuĠ luĠ
wenĠ dingĠdeĠ
ĠdanĠ quĠ
chenĠ moĠ
jiaoĠyiĠ suoĠ
Ġ mingĠweiĠ
ĠĠĠ moĠ
zhong ĠyiĠgeĠ
shui ĠweiĠ
luĠ yinĠshiĠ
wanĠ jianĠ
ĠxiangĠ zhengĠ
zhaoĠ kai
ĠshiĠjiĠ chuĠ
ĠmingĠ mingĠ
Ġzhe ĠshiĠdeĠ
ĠmuĠ qinĠ
Ġxian ĠyiĠ
ĠdaiĠ maĠweiĠ
Ġ zan
Ġ 600
an ĠheĠ
jian Ġli
bi ĠjiĠ
cha ĠjiĠ
11 ĠnianĠ
shouĠ cangĠ
yanĠ jiuĠshiĠ
zhanĠ chuĠ
changĠ daoĠ
zhenĠ wangĠ
ĠshiĠyiĠ keĠweiĠ
Ġyou ĠzhiĠ
ĠsuĠ chengĠ
3 ĠmingĠ
ĠĠĠ U
ĠĠĠ miĠ
ĠĠĠ fenĠbuĠ
ben ĠshiĠ
fei ĠqiĠ
man ĠyiĠ
us Ġ
shuĠ geĠ
ĠsiĠ maĠ
daiĠ daoĠ
shenĠ miĠ
dingĠ dianĠ
Ġ 1997
en ĠsiĠ
nan ĠyueĠ
ni ĠjiĠ
tian ĠdiĠ
xiangĠ nanĠ
yanĠ xianĠ
zhanĠ kai
yeĠ suĠ
ĠxingĠ xingĠ
suoĠ jianĠ
suoĠ zaiĠdeĠ
ĠjuĠ leĠbuĠ
guan ĠnianĠ
zhan ĠqiĠ
dan ĠjiĠ
wang ĠheĠ
xu ĠyiĠ
ĠyouĠ beiĠ
fuĠ zhuangĠ
ĠkeĠ yunĠ
lianĠ junĠ
zuiĠ haoĠdeĠ
ĠdeĠshiĠ yiĠ
ĠpingĠ lunĠ
Ġsui ĠjiĠ
maĠlai ĠxiĠya
raoĠtaiĠyangĠ gongĠ
meiĠdongĠ buĠshiĠquĠ
zhan ĠbuĠ
bian ĠfuĠ
lan ĠshiĠ
geng ĠdaĠ
1926 ĠnianĠ
ĠshiĠ xiaĠxiaĠdeĠyiĠgeĠxiangĠzhenĠjiĠxingĠzhengĠdanĠweiĠ
ĠzhongĠ renĠ
geĠ xingĠ
Ġ jue
Ġ ISTAT
cheng ĠbuĠ
ba ĠkeĠ
youĠ taiĠ
ĠzaiĠ keĠ
jinĠ junĠ
xieĠ tiaoĠ
ĠdanĠ zuiĠzhongĠ
ĠyuanĠ ziĠ
ĠyiĠzhiĠ daoĠ
yiĠshiĠ qiĠ
ĠdeĠdiĠ diĠ
saĠ laĠ
xingĠzhengĠ yuanĠ
Ġ 59
Ġ ESTĠ
ĠĠĠ 2006ĠnianĠ
bi ĠheĠ
qie ĠdeĠ
beiĠ faĠ
chuĠ xian
ruĠ xueĠ
minĠ dangĠ
ĠdeĠshiĠ liĠ
Ġer ĠjiĠ
ĠduiĠ ciĠ
Ġ16 Ġ
caiĠyongĠ leĠ
Ġ EDT
neng ĠdeĠ
lin ĠzhongĠ
1919 ĠnianĠ
ĠyouĠ siĠ
ĠguoĠ houĠ
jieĠ xiĠ
shengĠ cunĠ
ĠdiĠ baĠ
xinĠ fengĠ
jiaoĠ gei
meiĠ guoĠzhiĠ
shenĠ sheĠ
ĠxingĠ quĠ
ĠxieĠ zhuĠ
ĠweiĠyuĠfaĠguoĠ ao
Ġ rou
ĠĠĠ banĠ
hu ĠzhiĠ
wen ĠweiĠ
ni ĠdiĠ
huan ĠbaoĠ
30 ĠfenĠ
ĠjiĠ gou
jianĠ danĠdeĠ
quĠ daoĠ
houĠ laiĠdeĠ
qianĠ fangĠ
lingĠ ganĠ
zongĠ lingĠshiĠ
laĠ duoĠ
ĠshouĠ fuĠ
zhuĠjiaoĠ lianĠ
guangĠboĠ gongĠsiĠ
ĠG Ġ
jueĠduiĠ xingĠdengĠweiĠ
jueĠsai ĠyiĠ
Ġ Ø
Ġ 1990ĠnianĠ
li ĠxiĠ
nei ĠheĠ
na ĠshiĠ
pian ĠweiĠ
1970 ĠnianĠ
zen Ġ
xiaĠ leĠ
aĠ miĠ
ĠyiĠzhiĠ yuĠ
Ġ5Ġ diaoĠkuaiĠyiĠxiaoĠshiĠ
biĠliĠ niuĠsiĠ
ĠjiĠbeiĠ meiĠdongĠbuĠshiĠquĠ
ĠshiĠyiĠkeĠweiĠ raoĠtaiĠyangĠgongĠ
ĠEDT Ġ
ĠshiĠyiĠkeĠweiĠraoĠtaiĠyangĠgongĠ zhuanĠdeĠxiaoĠxingĠxingĠ
Ġ sheng
Ġ jun
Ġ 49
Ġ lieĠcheĠ
Ġ 1984ĠnianĠ
di ĠliĠyaĠ
dan ĠyouĠ
ni ĠheĠ
shao ĠshiĠ
dongĠ ceĠ
Ġta ĠweiĠ
saiĠerĠweiĠ yaĠ
xiaoĠxingĠxingĠdeĠ jueĠduiĠxingĠdengĠweiĠ
guang ĠyiĠ
pian ĠrenĠ
24 ĠxiaoĠshiĠ
ĠfuĠ zhouĠ
miĠ suĠliĠ
tianĠ xinĠ
tiaoĠ muĠ
henĠ duo
tuiĠchuĠ leĠ
Ġ boĠliĠ
Ġ qiaoĠzhiĠ
zhou ĠyuĠ
qiĠ renĠ
yuanĠ yinĠshiĠ
ziĠ shengĠ
bingĠ qieĠ
ĠdeĠyiĠ jiaĠ
ĠĠĠzheĠkeĠ xiaoĠxingĠxingĠdeĠjueĠduiĠxingĠdengĠweiĠ
1 ĠjiaĠ
Ġ 800
yin ĠzaiĠ
pu ĠerĠ
ĠguoĠ youĠ
beiĠ buĠdeĠ
duĠ zheĠ
ruĠ leĠ
xuanĠ minĠ
jiaĠru ĠzhongĠguoĠgongĠchanĠdangĠ
yinĠdiĠ anĠnaĠ
Ġ zi
Ġ In
Ġ 2024ĠnianĠ
Ġ 1988ĠnianĠ
ze ĠerĠ
cai ĠjiĠ
zhai ĠwuĠ
juĠ luoĠ
guanĠ shangĠ
meiĠyouĠ renĠheĠ
erĠshiĠ nianĠ
ĠjiĠzhongĠ zaiĠ
Ġ Si
Ġ 1989ĠnianĠ
ĠĠĠ Se
ĠĠĠ huiĠ
sen ĠbaoĠ
1914 ĠnianĠ
ĠzhiĠ houĠzaiĠ
ĠyueĠ seĠfuĠ
taiĠ bei
wanĠ quĠ
tianĠ xianĠ
douĠ keĠyiĠ
diaoĠ suĠ
ĠyingĠ cunĠ
ĠyiĠweiĠ zheĠ
ci ĠrenĠ
xiao ĠheĠ
ĠyiĠ jiĠyiĠ
ĠyouĠ wuĠ
xiĠ yuanĠ
xiĠ jieĠ
xiĠ shouĠ
jianĠ zhengĠ
jianĠ huaĠ
ciĠ tianĠtiĠ
shuiĠ shangĠ
diĠyiĠ jieĠ
ĠbanĠ benĠ
Ġ bie
ĠĠĠ gu
shou ĠqiĠ
zao ĠyiĠ
zhuan ĠrenĠ
lun ĠjiĠ
sou ĠsuoĠ
yongĠ yuanĠ
ĠshiĠyiĠ yuanĠ
faĠbuĠ leĠ
zhuĠjiaoĠ zuoĠ
shouĠshiĠ lvĠ
ĠN Ġ
ĠheĠdaoĠ quanĠzhangĠ
qi ĠshiĠshiĠ
ma ĠjiĠ
ĠnianĠ sheĠliĠ
geĠ shengĠ
ĠdiĠ daiĠ
mingĠ jiaoĠ
yanĠ zouĠ
duĠ xingĠ
zuĠ qunĠ
zhenĠ zhengĠdeĠ
gangĠ tie
ĠnanĠ jingĠ
junĠshiĠ tanĠdingĠ
keĠliĠ miĠyaĠ
ĠĠĠgaiĠ shuĠ
ĠzhiĠhuiĠ guanĠ
2 ĠĠĠ
Ġ 1991ĠnianĠ
fang ĠyouĠ
feng ĠzhiĠ
13 ĠnianĠ
ĠyiĠ minĠ
fuĠ shuĠjiĠ
quĠ fuĠzeĠguanĠxiaĠ
shangĠ yingĠdeĠ
dianĠ zhanĠ
teĠ dingĠdeĠ
lanĠ kaĠ
ĠjiangĠ shuĠ
Ġ Ã
Ġ Le
ling ĠxingĠ
lie ĠjianĠ
chuang ĠshiĠ
ĠliĠ jieĠ
xiĠ jinĠ
wuĠ ranĠ
xueĠ yuan
siĠchuanĠ shengĠ
Ġ te
Ġ zeĠshiĠ
ma ĠdiĠ
mo ĠnianĠ
chan ĠyuĠ
chen ĠkeĠ
ve Ġ
ĠzaiĠ yingĠguoĠ
xinĠ chengĠ
xiaĠ tianĠ
naĠ geĠ
ĠchuĠ shengĠ
kongĠ jun
gengĠ gaoĠ
ouĠ mengĠ
wenĠhua ĠyiĠchanĠ
ĠheĠnanĠ shengĠ
anĠhuiĠ shengĠ
Ġ geĠrenĠ
Ġ cangĠ
ze ĠerĠshengĠ
pai ĠrenĠ
cha ĠheĠ
gun Ġ
ĠyouĠ leĠ
shangĠ banĠ
yingĠ chaoĠ
danĠ baiĠzhiĠ
jiuĠ baĠ
lingĠ xiu
ĠdeĠyiĠ yiĠ
ĠzhuĠ zhangĠ
ĠjuĠ banĠ
Ġjie ĠshiĠ
ĠguiĠ zhouĠ
zuoĠpin ĠzhongĠ
Ġ Se
xiao ĠjiĠ
mo ĠheĠ
pai ĠweiĠ
gou ĠjianĠ
kuang ĠwuĠ
2019 ĠguanĠzhuangĠbingĠduĠ
ĠshiĠ biĠ
huaĠ xianĠ
gaiĠ bian
wangĠ yeĠ
daiĠ zhuĠ
fanĠ mang
zongĠ eĠweiĠ
nvĠ shenĠ
Ġ bin
ĠĠĠ yinĠyueĠ
hu ĠheĠ
mi ĠliĠ
tion Ġ
1913 ĠnianĠ
ĠzhiĠ zhanĠ
ĠbuĠ danĠ
shanĠ kouĠ
paiĠ qiuĠ
henĠ shaoĠ
gongĠgongĠ jiaoĠtongĠ
Ġfan ĠerĠ
lianĠxuĠ juĠ
zhuanĠyiĠ daoĠ
3 ĠhaoĠ
Ġ 1993
li ĠjieĠ
ĠĠĠ huangĠ
fan ĠdiĠ
su ĠerĠ
18 ĠnianĠ
ĠweiĠ boĠ
beiĠ haiĠdaoĠ
jingĠ feiĠ
fenĠ huiĠ
xiaoĠ daoĠ
ĠkeĠ daĠ
ĠshouĠ xianĠ
yongĠyuĠ zhiĠ
diĠshiĠ sanĠ
ĠĠĠzhongĠ huaĠrenĠminĠgongĠheĠguoĠ
eĠluoĠ si
ĠĠĠ zheĠgeĠ
cheng Ġli
da ĠĠĠ
bi ĠqiĠ
xuan ĠjiĠ
1918 ĠnianĠ
xiangĠ yaoĠ
zhengĠ faĠ
danĠ shengĠ
daiĠ shuĠ
liangĠ duĠ
huĠ nanĠshengĠ
aoĠ di
quĠyiĠhuiĠ xuanĠjuĠ
Ġtun ĠqiĠ
Ġ Î
Ġ jing
Ġ 27
en ĠdeĠ
ĠĠĠ saiĠ
qian ĠjiĠ
ding ĠheĠ
ĠliĠ wuĠ
buĠ nengĠ
ĠzaiĠ qianĠ
xinĠ zang
zhenĠ yingĠ
zhenĠ junĠ
ĠjieĠ hunĠ
zhuangĠ yuanĠ
ĠyuanĠ benĠ
ĠĠĠsuiĠ ran
2 ĠmingĠ
Ġ diĠyuĠ
bi ĠsiĠ
hui ĠliĠshiĠ
xie ĠheĠ
mian ĠzhiĠ
liu ĠyueĠ
00 ĠpingĠfangĠqianĠmiĠ
tuo ĠsiĠ
1950 ĠnianĠ
ĠzhongĠ shuĠ
tiĠ xianĠ
wangĠ laiĠ
liangĠ zheĠ
bianĠ xieĠ
suoĠ zhangĠ
zuiĠ jinĠdeĠ
xunĠ luoĠ
ĠbaoĠ luoĠ
aoĠ men
Ġtong ĠnianĠ12ĠyueĠ
yuanĠwaiĠ langĠ
Ġ ban
Ġ zuĠchengĠ
you ĠzhiĠwuĠ
chi ĠzhiĠ
al ĠĠĠ
ĠyouĠ daĠ
gongĠ xueĠyuanĠ
ĠdaĠ xiaoĠ
guangĠ puĠ
ĠgeĠ lunĠ
douĠ meiĠyouĠ
ĠjingĠ changĠ
baoĠkuo ĠyiĠxiaĠ
luoĠmaĠ niĠyaĠ
Ġãĥ¼ Ġ
Ġ beiĠbuĠ
ĠĠĠ guanĠyuĠ
ĠshiĠ yingĠ
siĠ maĠ
qianĠ mingĠ
caiĠ huiĠ
chiĠ cunĠ
shuiĠ shouĠ
Ġer ĠrenĠ
Ġwu ĠyueĠ
qing ĠyuĠ
ni ĠxiĠ
dun ĠheĠ
diao ĠxiangĠ
fuĠ buĠ
jingĠ baoĠ
fangĠ songĠ
luoĠ boĠ
kouĠ jingĠ
tuiĠ xiu
4 ĠmingĠ
gong ĠzaiĠ
chu ĠheĠ
liang ĠdiĠ
ĠdeĠ qiĠ
ĠweiĠ mingĠ
zhanĠ cheĠ
muĠ biaoĠshiĠ
teĠ shuĠdeĠ
yunĠ nanĠshengĠ
dangĠ di
ĠgongĠ siĠdeĠ
xunĠ haoĠ
ĠzuiĠ zhongĠyiĠ
ĠdangĠ xuanĠ
ĠĠĠshiĠ yiĠ
Ġ 1991
Ġ yaĠliĠ
Ġ ruiĠ
Ġ zhuĠyouĠ
Ġ xĠ
1901 ĠnianĠ
end Ġ
guoĠ jia
zhanĠ fangĠ
jiuĠ long
ĠtaĠ chengĠweiĠ
jueĠ saiĠzhongĠ
ĠdanĠ beiĠ
ĠyeĠ chengĠweiĠ
piĠ panĠ
ĠnianĠ4ĠyueĠ 1ĠriĠ
Ġsan ĠyueĠ
zheng ĠshiĠdeĠ
guan ĠyouĠ
xia ĠdaĠ
shui ĠxianĠ
man ĠdiĠguoĠ
nang Ġ
erĠ siĠ
zhengĠ guiĠ
laiĠ wangĠ
sheĠ qun
ĠshiĠweiĠ zheĠ
Ġyou ĠliĠ
zhuĠtiĠ quĠ
meiĠzhongĠ buĠshiĠquĠ
Ġ qiong
Ġ Sa
Ġ CST
Ġ pinĠdaoĠ
yang ĠqiĠ
yang ĠfuĠ
ĠzaiĠ xiangĠ
fangĠ kong
chuanĠ yuanĠ
ĠgaiĠ cunĠ
Ġ CDT
ĠĠĠ yingĠxiangĠ
ĠĠĠ 2005ĠnianĠ
16 ĠnianĠ
ĠliĠ zaiĠ
ĠyueĠ qiĠ
bingĠ yuanĠ
shenĠ yangĠ
zhenĠ xianĠ
lieĠ dianĠ
zhuanĠ yuanĠ
Ġ6Ġ diaoĠkuaiĠyiĠxiaoĠshiĠ
ĠjiĠbeiĠ meiĠzhongĠbuĠshiĠquĠ
ĠCST Ġ
ĠCDT Ġ
bing ĠheĠ
lai ĠyiĠ
dang ĠrenĠ
zhen ĠsiĠ
nong ĠliĠ
jianĠ jinĠ
chuĠ juĠ
wenĠ quanĠ
gaiĠ zao
zuĠ qiu
jiuĠ jingĠ
paiĠ sheĠdeĠ
ĠzheĠ changĠ
ĠshengĠ yaĠ
Ġer ĠyuĠ
gu ĠheĠ
ping ĠjiĠ
sang ĠshengĠ
fou ĠjueĠ
ĠyiĠ luĠ
Ġnian ĠshiĠjieĠbeiĠ
shouĠ changĠ
zhanĠ ting
yeĠ xianĠ
ĠkeĠ jianĠ
ĠmingĠ chengĠ
Ġ17 Ġ
ĠĠĠbenĠ shuĠ
ĠjiĠtuanĠ junĠ
ĠdeĠweiĠ zhiĠ
Ġ chai
liu ĠzhiĠ
tu ĠyuĠ
ĠbuĠ manĠ
chuĠ siĠ
jinĠ tianĠ
ĠdiĠ 1Ġ
huoĠ jiangĠ
muĠ fuĠ
xuanĠ zhuanĠ
ĠdeĠyiĠ mingĠ
tuoĠ maĠsiĠ
nuoĠ manĠdiĠ
aoĠlinĠpiĠkeĠ yunĠdongĠ
lieĠche ĠdeĠ
aoĠsiĠ kaĠ
yanĠhaiĠ shengĠfenĠ
banĠjiangĠ dianĠliĠ
ĠĠĠ Z
ĠĠĠ Ba
ing Ġ
mai ĠjiaĠ
ken ĠtaĠjiĠ
1921 ĠnianĠ
wuĠ gongĠ
ĠdaĠ poĠ
jiaoĠ xingĠ
junĠ tuan
zhenĠ xiangĠ
dingĠ leĠ
ĠjinĠ ciĠyuĠ
tingĠ cheĠchangĠ
tieĠ luĠdeĠ
men ĠzaiĠ
nei ĠzhiĠ
zhao ĠheĠ
meng ĠxiangĠ
kan ĠjianĠ
or Ġ
pao ĠdeĠ
shuai ĠxianĠ
waiĠ shuĠruĠ
Ġzai ĠjiĠ
Ġhuo ĠdeĠyiĠmeiĠ
fenĠbie ĠshiĠ
ĠcheĠ xiaoĠ
ĠI Ġ
jieĠquanĠguoĠ zhengĠxieĠweiĠyuanĠ
Ġ xinĠdeĠ
ĠĠĠ gaiĠdiĠ
bu ĠzhiĠdaoĠ
hu ĠliĠ
che ĠweiĠ
heĠ bingĠ
daoĠ diĠ
ziĠ nvĠ
jiangĠ huĠ
lanĠ zhouĠ
Ġma ĠkeĠ
dao ĠĠĠ
bing ĠqiĠ
huo ĠjiĠ
ra Ġ
xiĠ anĠ
luĠ saĠ
fenĠ fenĠ
liuĠ chengĠ
zhuanĠ shuĠ
ĠbaoĠ chiĠ
ĠfaĠ yuanĠ
reĠ menĠ
lianĠsaiĠ guanĠjunĠ
Ġ liao
yu ĠshiĠjieĠ
ĠĠĠ 12ĠyueĠ
qing ĠzhiĠ
ping ĠxiĠ
zhui ĠjiĠ
ĠshiĠ fou
dongĠ taiĠ
wenĠ benĠ
fenĠ zuĠ
ĠfuĠ buĠ
luoĠ baiĠ
hunĠ luanĠ
aĠerĠ baĠ
hongĠzha ĠjiĠ
ĠĠĠ shuiĠ
ĠĠĠ shaĠ
er ĠliĠ
wan ĠzaiĠ
liu ĠjiĠ
lei ĠerĠ
daiĠ muĠ
zuiĠ duo
feiĠ zhou
liĠ yaĠ
ĠgaoĠ suĠ
Ġda ĠweiĠ
Ġ renĠzhiĠ
zai ĠshiĠjieĠ
ying ĠzaiĠ
zhou ĠdaĠxueĠ
wo ĠsiĠ
60 Ġ
ĠyueĠ guoĠ
laiĠ yuanĠyuĠ
cheĠ chuĠ
zongĠ gongĠ
kouĠ haoĠ
aĠ boĠ
ĠciĠ keĠ
keĠyiĠ zhiĠ
zengĠ sheĠ
Ġ he
Ġ zengĠjiaĠ
19 ĠnianĠ
yin ĠyiĠ
dian ĠliĠjiĠ
lun ĠyuĠ
tou ĠshiĠ
geng ĠmingĠ
kun ĠmingĠ
ĠdeĠ erĠ
xingĠ xiĠ
shuĠ jiaĠ
jingĠ xiangĠ
Ġ 1983ĠnianĠ
ĠĠĠ 2000
mei ĠjiĠ
la ĠĠĠ
la ĠshiĠ
liu ĠjiaĠ
rong ĠweiĠ
ĠrenĠ tongĠ
keĠ laiĠ
beiĠ jieĠ
ĠqiĠ buĠ
faĠ yanĠ
liĠ nuoĠyiĠ
eĠ waiĠ
quĠdeĠ fuĠzeĠguanĠxiaĠ
woĠ lunĠ
Ġ 20ĠshiĠjiĠ
ai ĠsiĠ
ĠĠĠ lingĠyiĠ
qu ĠweiĠyuĠ
quan ĠyuĠ
duo ĠjiaĠ
dou ĠyiĠ
pian ĠyuĠ
ĠshiĠ yongĠdeĠ
ĠweiĠ fanĠ
ĠyouĠ zhengĠ
huiĠ daoĠzhiĠ
shuĠ xieĠ
yeĠ meiĠyouĠ
ĠdaĠ niĠ
xinĠ beiĠshiĠ
zuĠ gouĠ
bianĠ quĠ
maĠ dingĠ
baĠ baĠ
ĠgaiĠ jianĠ
ĠgaiĠ zhuangĠ
seĠ qingĠ
ĠqingĠ huaĠ
lvĠkeĠ tieĠdaoĠ
an ĠyuĠ
ĠĠĠ yinĠweiĠ
ĠĠĠ teĠzhengĠ
jiao ĠzhongĠ
xu ĠyuĠ
chuan ĠjiaĠ
po ĠdeĠ
30 ĠnianĠ
jiaĠ gouĠ
taiĠ yuanĠ
danĠ mai
ĠdongĠ fangĠ
taĠmen ĠzaiĠ
Ġ13 Ġ
ĠwuĠkeĠ lan
quan ĠheĠ
45 Ġ
ry ĠĠĠ
gongĠ xiangĠ
ĠbuĠ lunĠ
gaiĠ liangĠ
ĠwuĠ ziĠ
Ġta ĠerĠ
qiangĠ lieĠdeĠ
henĠ kuai
keĠneng ĠdeĠ
Ġ Al
Ġ lianĠheĠguoĠ
zhi ĠshiĠyongĠ
mu ĠweiĠ
pai ĠxiĠ
qin ĠdeĠ
guoĠ wuĠ
ĠzaiĠ faĠguoĠ
ĠqiĠ zhuĠ
jinĠ daiĠ
shangĠ suoĠ
qiuĠ duiĠdeĠ
ĠgongĠ zhuĠ
peiĠ jueĠ
Ġer ĠyueĠ
gongĠheĠ guoĠdeĠ
Ġ wai
xiao ĠzhongĠ
dian ĠzhiĠ
ding ĠyouĠ
ss Ġ
ĠyiĠ daoĠ
diĠ diĠ
erĠ yanĠ
ĠqiĠ taĠdeĠ
zhuanĠ huiĠ
ĠzhanĠ dou
hunĠningĠ tuĠ
Ġ 1995
Ġ huaiĠ
huo ĠqiĠtaĠ
hai ĠweiĠ
bo ĠxiĠ
suo ĠjiĠ
ce ĠweiĠ
gongĠ ye
zhengĠ siĠ
jiaoĠ shaoĠ
qianĠ shuiĠ
ĠkeĠ linĠ
zhouĠ moĠ
Ġ14 Ġ
Ġfou ĠzeĠ
tu ĠxiĠ
kou ĠyuĠ
shouĠ jieĠ
jiangĠ zuoĠ
lianĠ boĠ
kaiĠ yeĠ
baĠ gongĠ
tanĠ pan
xingĠzhengĠ quĠyuĠ
9 ĠshiĠ
Ġ teng
Ġ haiĠshiĠ
xue ĠzhiĠ
ling ĠyouĠ
xiu ĠxiĠ
kun ĠchongĠ
ĠbuĠ xingĠ
ĠdaĠ dianĠ
xinĠ xinĠ
bingĠ tuanĠ
ĠxiangĠ duiĠ
ĠjieĠ zhuĠ
enĠ laiĠ
ĠhongĠ zha
fuĠjianĠ shengĠ
ĠqiĠxi ĠzaiĠdiĠ
Ġ Ca
ha ĠfuĠ
ĠshiĠ chuĠ
ĠyiĠ kaiĠshiĠ
ĠliĠ xingĠ
ĠyouĠ baoĠ
gongĠ dangĠ
jieĠ dianĠ
keĠ huĠ
xiangĠ muĠdeĠ
ĠxiĠ lieĠdeĠ
nanĠ zhuĠjueĠ
zuiĠ houĠdeĠ
guĠ chengĠ
suĠ zhouĠ
ĠshiĠyiĠ yueĠ
ĠdeĠshiĠ yanĠ
2Ġ miĠ
ĠmeiĠ tiĠ
ĠnanĠ xingĠ
ĠjiĠqiĠ renĠ
ĠĠĠweiĠ yuĠ
dongĠnanĠ yaĠ
tianĠwenĠ xueĠjiaĠ
ĠxinĠjiaĠ poĠ
zuo ĠweiĠyuĠ
man ĠyuĠ
zhongĠ yaoĠdeĠ
ĠzaiĠ xiangĠgangĠ
wuĠ jianĠ
wuĠ dingĠ
leĠ ziĠjiĠdeĠ
maĠ changĠ
ĠdanĠ baiĠ
puĠ sheĠ
liĠ changĠ
en ĠĠĠ
hui ĠqiĠ
lun ĠheĠ
ĠzhiĠ heĠ
chuĠ banĠdeĠ
mingĠ shengĠ
yinĠ mouĠ
xinĠ yongĠ
banĠ yan
ĠgongĠ chanĠ
ĠyiĠjiĠ yuĠ
huanĠ qiuĠ
canĠ zhengĠ
luoĠdiĠ yaĠ
zhongĠguoĠrenĠminĠ jieĠfangĠjunĠ
Ġ Pa
Ġ kuangĠ
Ġ niĠkeĠ
Ġ 1986ĠnianĠ
xi ĠrenĠ
ĠĠĠ ta
ĠĠĠ xuĠ
hai ĠheĠ
ling ĠzhiĠ
sai ĠheĠ
gang ĠshiĠ
ĠbuĠ xiĠ
chengĠ nuoĠ
beiĠ gaoĠ
mingĠ eĠ
changĠ guiĠ
chuanĠ tong
ĠdanĠ meiĠyouĠ
xunĠ wenĠ
Ġ chaoĠjiĠ
Ġ ruiĠdianĠ
buĠ shaoĠ
beiĠ fuĠ
ĠqiĠ diĠ
ĠdiĠ tie
dianĠ xingĠ
benĠ jieĠ
zongĠ mianĠjiĠ
huanĠ guanĠ
ouĠ meng
ĠtianĠ wenĠ
Ġ du
Ġ 1989
Ġ 1920ĠnianĠ
ĠĠĠ 2023ĠnianĠ
gu ĠyuĠ
liu ĠrenĠ
suan ĠyanĠ
kuan ĠdeĠ
ĠguoĠ daoĠ
ĠbuĠ shouĠ
juĠ zhenĠ
yinĠ xingĠ
Ġbing ĠzhiĠ
ĠxiaĠ wuĠ
ĠbenĠ jieĠ
Ġ zui
Ġ louĠ
ban ĠheĠ
1905 ĠnianĠ
colspan Ġ
ĠliĠ xiangĠ
qiĠ xiangĠ
beiĠ ceĠ
ziĠ meiĠ
dongĠ haiĠ
yingĠ biĠ
gaiĠ shuĠ
boĠ genĠdiĠ
dengĠ daiĠ
guiĠ geĠ
puĠ laĠ
ceĠ huaĠ
Ġzai ĠweiĠ
Ġ wuĠshiĠ
ĠĠĠ yingĠguoĠ
lu ĠqiĠ
bing ĠrenĠ
she ĠweiĠ
lan ĠdaĠ
ĠshiĠ yingĠguoĠ
ziĠ fuĠ
ciĠ xingĠ
xiaĠ xunĠ
moĠ tuoĠ
moĠ teĠerĠ
Ġ junĠzaiĠ
Ġ 1945ĠnianĠ
fang ĠzhongĠ
zhen ĠxingĠ
35 ĠnianĠ
ĠdeĠ deĠ
ĠliĠ changĠ
gongĠ qingĠ
jianĠ leĠ
wuĠ chuĠ
yingĠ jieĠ
yangĠ zhouĠ
moĠ teĠ
ĠdeĠshiĠ qiĠ
ĠdeĠjiĠ zaiĠ
changĠweiĠ huiĠ
Ġ jian
Ġ 1985
tu ĠheĠ
guang ĠfuĠ
rou ĠshiĠxingĠ
ment Ġ
ĠyiĠ nanĠ
ĠbuĠ shuĠ
jieĠ fuĠ
jieĠ meiĠ
faĠ shengĠyuĠ
dongĠ luĠ
jingĠ nei
caiĠ dingĠ
linĠ naĠ
shuiĠ jingĠ
eĠ tuĠ
ĠshiĠjiĠ zhiĠ
ĠdeĠguoĠ chengĠzhongĠ
faĠlanĠxiĠ daĠquĠ
Ġ1950 ĠnianĠ
bo ĠfuĠ
lv ĠdiĠ
nv ĠshiĠ
weiĠ yuanĠhuiĠ
ĠjiĠ suanĠ
zhangĠ woĠ
gaoĠ cengĠ
shaoĠ liangĠ
gongĠzuoĠ zheĠ
nongĠ cunĠ
ĠduoĠ mingĠ
ĠweiĠfuĠ shuĠjiĠ
hangĠkongĠ muĠjianĠ
3 ĠmiĠ
Ġ juan
Ġ Ba
ĠĠĠ 2004
ĠĠĠ 2004ĠnianĠ
yuan ĠyiĠyuanĠ
jing ĠrenĠ
she ĠheĠ
lie ĠdiĠ
gongĠ siĠyuĠ
dongĠ hua
ĠsiĠ tanĠ
xiaĠ xiaĠyiĠxiaĠdiĠquĠ
bianĠ ruĠ
ĠjinĠ riĠ
kongĠ longĠ
ĠnianĠ10ĠyueĠ 1ĠriĠ
biaoĠzhun ĠdeĠ
a ĠbuĠ
Ġ hunĠ
Ġ leiĠsiĠ
Ġ 1987ĠnianĠ
ĠĠĠ 2003
ba ĠbuĠ
qiu ĠyuĠ
que ĠliĠ
diĠ baĠ
ĠqiĠ zhongĠdeĠ
taĠ beiĠ
jiangĠ huaĠ
yiĠdeĠ daoĠ
shengĠhuo ĠzaiĠ
Ġ Y
Ġ fuĠzhiĠ
xian ĠshiĠdeĠ
she ĠxingĠ
tai ĠdiĠ
mu ĠqiĠ
bo ĠyuĠ
ĠshiĠ yinĠduĠ
xingĠ chengĠdeĠ
wuĠ suoĠ
chengĠ qiĠ
junĠ fangĠ
cheĠ shouĠ
puĠ leiĠ
chanĠ liangĠ
Ġ 1980
Ġ yongĠyiĠ
an ĠxiĠ
ĠĠĠ 5Ġ
bing ĠzhiĠ
zu ĠliĠ
suo ĠfuĠ
nv ĠgeĠshouĠ
shangĠ xiaoĠ
biĠ huaĠ
sanĠ xiangĠ
guangĠ zhouĠshiĠ
shuiĠ ku
zhuanĠ boĠ
ĠbeiĠqiĠ shunĠshiĠzhenĠyuĠ
Ġniu ĠyueĠshiĠ
Ġ 1978ĠnianĠ
an ĠĠĠ
dian ĠweiĠyuĠ
ling ĠjiĠ
quan ĠshiĠjieĠ
ding ĠbuĠ
tu ĠweiĠ
zhuang ĠyouĠ
qiao ĠchuĠ
daoĠ qiĠ
guanĠ yinĠ
wanĠ yanĠ
pinĠ fanĠ
ĠruĠ jinĠ
Ġ shuo
Ġ XĠ
ĠĠĠ tong
yuan ĠrenĠminĠbiĠ
zhou ĠnianĠ
jiu ĠjiĠ
ni ĠdaĠquĠ
duo ĠyiĠ
gou ĠwuĠ
ted ĠĠĠ
yuanĠ diĠ
ĠguoĠ min
ĠguoĠ fangĠbuĠ
tongĠ huaĠ
xiaĠ weiĠyiĠ
lunĠ shuĠ
piĠ ping
xiĠbanĠ ya
Ġ dongĠxiĠ
mu ĠyiĠ
pai ĠjiĠ
dou ĠzhiĠ
can ĠjiĠrenĠ
zhao ĠdeĠ
pao ĠbingĠ
Î± Ġ
keĠ huanĠ
xiangĠ qianĠ
jiangĠ xianĠ
duĠ chaĠ
haiĠ guanĠ
tianĠ jinĠshiĠ
ĠwanĠpingĠfangĠ miĠ
Ġ kui
Ġ 1988
Ġ junĠweiĠ
Ġ 1982ĠnianĠ
Ġ 1958ĠnianĠ
lu ĠyouĠ
nuo ĠbeiĠerĠ
nai ĠerĠ
youĠ taiĠrenĠ
wuĠ fuĠ
yaĠ dianĠ
fanĠ dui
Ġta ĠzhiĠ
gengĠ huanĠ
renĠweiĠ yuanĠ
ĠduoĠ geĠ
ĠzuiĠzhongĠ zaiĠ
mingĠniĠ suĠdaĠ
Ġ Mo
li ĠyouĠ
qing ĠweiĠ
jianĠ xiaoĠ
zhanĠ fuĠ
jiangĠ zhangĠ
luoĠ menĠ
xuanĠ piaoĠ
chuanĠ xianĠ
ĠgongĠ changĠ
guangĠ xuĠ
ĠzhuĠ saiĠ
Ġsui ĠyiĠ
ĠtaĠcengĠ daiĠbiao
wu ĠzhongĠxinĠ
tong ĠrenĠ
jiang ĠweiĠwuĠerĠ
wan ĠyuĠ
yuanĠ shouĠ
zhengĠ lunĠ
shangĠ faĠlanĠxiĠdaĠquĠ
zuiĠ chuĠdeĠ
ĠbingĠ huoĠdeĠ
chaoĠjiĠ lianĠsaiĠ
ĠĠĠ ma
kai ĠjiĠ
29 Ġ
ĠliĠ jiaĠ
ĠguoĠ anĠ
baoĠ luĠ
yingĠ shuĠ
ĠdaĠ gongĠ
fenĠ kaiĠ
meiĠ shuĠguanĠ
tianĠ ranĠ
ĠziĠ dongĠ
chongĠ fenĠ
Ġ 22Ġ
ren ĠshiĠdeĠ
qu ĠdeĠyiĠ
mei ĠrenĠ
zhou ĠzhongĠ
shui ĠxiĠ
hong ĠshiĠziĠ
ve ĠĠĠ
zhongĠ daĠ
qiĠ yongĠ
guanĠ jieĠ
xinĠ xianĠ
xinĠ huaĠ
jiaoĠ tong
jiaoĠ duoĠ
junĠ zhangĠ
biĠ ciĠ
yaĠ chiĠ
tuĠ luĠ
chuangĠ zuo
ĠqiĠzhongĠ baoĠkuo
zhunĠ queĠ
Ġma ĠerĠ
8 ĠshiĠ
Ġ chuanĠtongĠ
ĠĠĠ suĠ
yan ĠweiĠ
bing ĠjiĠ
bao ĠzhongĠ
gao ĠweiĠ
xu ĠjiaĠ
sun ĠhaiĠ
chou ĠkeĠ
ĠzhiĠ houĠdeĠ
heĠ yueĠ
ĠxiĠ lanĠ
shangĠ chuanĠ
yingĠ sheĠ
taiĠ nanĠshiĠ
xiaĠ banĠ
ĠzhiĠchiĠ zheĠ
faĠbiaoĠ leĠ
ĠÐ° Ġ
mei ĠyuĠ
xia ĠheĠ
liang ĠzaiĠ
cai ĠfuĠ
canĠ yanĠ
Ġai ĠdeĠ
guiĠdaoĠ jiaoĠtongĠ
xianĠdaiĠ huaĠ
dianĠqiĠ huaĠ
Ġ zhiĠdeĠ
dian ĠzaiĠ
mu ĠyouĠ
qiu ĠxingĠ
lan ĠqiĠ
fuĠ mianĠ
beiĠ songĠ
taiĠ zhongĠshiĠ
wangĠ chaoĠdeĠ
muĠ hanĠmoĠdeĠ
neiĠ zhengĠbuĠ
Ġ tie
Ġ zun
Ġ Mar
dao ĠyiĠgeĠ
xu ĠzhiĠ
ĠshiĠ miĠ
ĠshiĠ miĠsiĠ
ĠweiĠ guoĠ
gongĠ shuĠ
ĠguoĠ jiaĠjiĠ
fenĠ bianĠ
ĠfuĠ muĠ
bianĠ gengĠ
luoĠ houĠ
ĠgaiĠ wuĠzhongĠdeĠ
1Ġ mianĠ
peiĠ xun
zhengĠfu ĠheĠ
sanĠjiaoĠ xingĠ
le ĠliĠ
gai ĠdeĠ
gao ĠliĠ
ĠyiĠ ziĠ
pingĠ xianĠ
wanĠ shanĠ
ĠzhuĠ yanĠ
hongĠ shuiĠ
ĠzhenĠ duiĠ
wuĠliĠ xueĠjiaĠ
dongĠbuĠ daĠquĠ
ĠK Ġ
aĠjiĠ tan
Ġ piao
Ġ xiangĠshiĠ
hui ĠshiĠyongĠ
ta ĠĠĠ
jiang ĠdaĠ
jiu ĠbuĠ
lie ĠtaĠ
rui ĠkeĠ
buĠ luĠ
wuĠ yeĠ
shouĠ yingĠ
yanĠ huĠ
ĠdaĠ zhengĠ
wangĠ fanĠ
gaoĠ xiongĠ
lingĠ shouĠ
guĠ geĠ
lieĠ ru
ĠyuanĠ yinĠ
Ġtong ĠnianĠ10ĠyueĠ
ĠmaĠ dingĠ
niuĠyueĠ zhouĠ
1 ĠĠĠ
Ġ miao
Ġ chou
Ġ An
Ġ zouĠ
qi ĠyiĠzhiĠ
hu ĠrenĠ
zhou ĠxiĠ
ban ĠyouĠ
sai ĠyuĠ
ting ĠzaiĠ
huan ĠyouĠ
chen ĠshiĠ
bang ĠdanĠ
1917 ĠnianĠ
xingĠ shengĠ
ĠdiĠ chuĠ
zhanĠ qianĠ
tongĠ chengĠ
zheĠ changĠ
dianĠ luĠ
zongĠ tiĠ
chuanĠ jiaoĠshiĠ
ĠzheĠ xiangĠ
qinĠ fanĠ
miaoĠ xieĠ
ĠchaoĠ tingĠ
dao ĠzhongĠguoĠ
dian ĠzhongĠ
kai ĠxingĠ
17 ĠnianĠ
zhiĠ zuoĠ
daĠ xiĠ
jianĠ jiaoĠ
huiĠ shouĠ
houĠ zheĠ
guanĠ kan
taiĠ yinĠ
nanĠ ceĠ
saiĠ tingĠ
ĠxiangĠ biĠ
1Ġ wanĠ
Ġri ĠheĠ
tuoĠ leiĠ
tuiĠ chu
ĠzhanĠ zhengĠ
ĠguangĠ zhouĠ
Ġ houĠzaiĠ
shu ĠdeĠyiĠzhongĠ
lin ĠheĠ
lun ĠzhongĠ
ĠshiĠ yinĠweiĠ
ĠyiĠ shouĠ
daĠ baiĠ
xingĠ mingĠ
gongĠ buĠdeĠ
wuĠ jiaĠ
jieĠ mianĠ
xiangĠ cunĠ
dongĠ wuĠdeĠ
qianĠ fengĠ
banĠ dianĠ
zuĠ gouĠdeĠ
gaoĠ fengĠ
luoĠ niĠ
biaoĠ tiĠ
shaoĠ huiĠ
ĠbuĠguoĠ zaiĠ
shengĠwuĠ xueĠ
ĠaĠerĠbeiĠ siĠ
ĠĠĠ pingĠ
ĠĠĠ duoĠ
dui ĠrenĠ
liang ĠkeĠ
zhen ĠzhongĠ
niu ĠjinĠ
chun ĠjiĠ
ĠzaiĠ geĠ
wenĠ daiĠ
taiĠ yang
qingĠ haiĠ
liangĠ haoĠdeĠ
sheĠ zhiĠdeĠ
zhenĠ chaĠ
lingĠ duiĠ
kaiĠ boĠ
paiĠ ming
ĠgeĠ siĠ
zhuanĠ men
ĠgongĠyuanĠ qianĠ
faĠxianĠleĠ ciĠtianĠtiĠ
Ġ heĠyiĠ
xing ĠdeĠshiĠ
tai ĠzhiĠ
guang ĠdaĠ
14 ĠnianĠ
diĠ zhenĠ
jianĠ jianĠ
chuĠ ruĠ
shuĠ niuĠ
zhengĠ jianĠ
yingĠ jiuĠ
yeĠ tiĠ
danĠ maiĠ
shenĠ yuanĠ
xuĠ niĠ
pingĠlun ĠjiaĠ
ĠĠĠ be
nian ĠjianĠ
ge Ġyue
huo ĠzhiĠ
gai ĠjiĠ
bo ĠliĠyaĠ
yao ĠzhiĠ
lei ĠzaiĠ
pian ĠshiĠ
ning ĠxianĠ
ĠyiĠ fangĠ
ĠyouĠ huiĠ
ĠrenĠ mingĠweiĠ
ĠrenĠ shouĠshangĠ
shouĠ qiangĠ
liangĠ tiaoĠ
yangĠ guangĠ
fanĠ dianĠ
caiĠ neng
niĠ guĠlaĠ
linĠ jinĠdeĠ
zhaoĠ muĠ
ĠciĠ lieĠcheĠ
ĠshouĠ luĠ
Ġ000 ĠmingĠ
zhuĠshiĠ huiĠsheĠ
ĠjinĠxingĠ leĠ
Z Ġ
Ġ gen
Ġ ruiĠshiĠ
ĠĠĠ suoĠ
chang ĠzhongĠ
gai ĠdiĠquĠ
na ĠzaiĠ
heng ĠdeĠ
huiĠ quĠ
zhanĠ siĠ
zuĠ zhangĠ
bianĠ jiangĠ
fanĠ kangĠ
2Ġ wanĠ
Ġyou ĠweiĠ
xianĠdeĠ chengĠshiĠ
Ġgai ĠjiĠ
jieĠshouĠ leĠ
ĠyouĠxianĠ gongĠsi
aiĠerĠ lan
u Ġ
ĠĠĠ biĠsaiĠ
zheng ĠzhongĠ
mi ĠrenĠ
ju ĠdiĠ
hua ĠbuĠ
feng ĠxingĠ
bang ĠjiaĠ
mou ĠgeĠ
siĠ zhangĠ
wuĠ juĠ
wuĠ mingĠ
ĠqiĠ yuanĠ
shuĠ baiĠ
shouĠ piao
duĠ teĠ
ĠkeĠ yiĠshiĠ
yaĠ suoĠ
fanĠ zui
baĠ mianĠ
chuanĠ shangĠ
caoĠ anĠ
Ġbei ĠweiĠ
jieĠyiĠ chanĠ
ĠĠĠ minĠguoĠ
hu ĠjiĠ
xin ĠnianĠ
shan ĠzhiĠ
12 ĠgeĠ
1910 ĠnianĠ
begin Ġ
chuĠ kou
jingĠ jieĠ
lianĠ shuĠ
anĠ dongĠniĠ
ĠdanĠ yinĠweiĠ
ĠzhuĠ tiĠ
haĠ laĠ
Ġ Fi
ĠĠĠ 2ĠyueĠ
ti ĠzaiĠ
gai ĠyiĠ
liu ĠheĠ
tuo ĠdeĠ
tun ĠmenĠ
yuanĠ chuangĠ
fuĠ huoĠ
jianĠ ce
beiĠ shaĠ
yeĠ keĠ
zuiĠ xinĠ
jueĠ saiĠdeĠ
linĠ xianĠ
ĠshangĠ hai
ĠjingĠ waiĠshuĠruĠ
ĠĠĠshiĠ jianĠ
ĠdeĠzhongĠ yaoĠ
dianĠziĠyouĠ xiĠ
Ġ shang
Ġ geĠliĠ
sh Ġ
ĠĠĠ i
pian ĠyiĠ
kua ĠyueĠ
Ã¡ Ġ
zhuĠ ming
ĠqiĠ xiaĠdeĠ
junĠ dui
fanĠ xiangĠ
fanĠ sheĠ
leĠyiĠ zhongĠ
Ġjin ĠzhiĠ
Ġba ĠxiĠ
ĠdeĠjiĠchuĠ shangĠ
Ġ 57
Ġ yuanĠweiĠ
ĠĠĠ 1ĠyueĠ
yong ĠweiĠ
sai ĠshiĠzhongĠ
mo ĠzhiĠ
neng ĠliĠdeĠ
10 ĠgeĠ
chuang ĠyiĠ
gei ĠshiĠzhongĠ
28 ĠnianĠ
shuai ĠjunĠ
wuĠ luĠ
quĠ chuĠ
luĠ xingĠmuĠ
xiaoĠ haoĠ
touĠ mingĠ
kaoĠ ruĠ
zongĠyiĠ jieĠmuĠ
liaoĠning ĠshengĠ
2 ĠshiĠ
Ġ neiĠbuĠ
ĠĠĠ Mi
ĠĠĠ jiaoĠ
ĠĠĠ zheĠxieĠ
sai ĠsiĠ
cun ĠheĠ
heĠ faĠ
xiaoĠ chuĠ
ruĠ xuan
bianĠ lunĠ
ĠjinĠ tianĠ
ĠjianĠ zaoĠ
ĠchengĠ xianĠ
2Ġ mianĠ
ĠwanĠ quanĠ
ĠwangĠ luoĠ
ĠxunĠ huiĠ
wuĠxianĠ dianĠ
Ġtian ĠqiĠ
zuiĠhouĠyiĠ ciĠ
ĠsectionĠĠĠ beginĠ
Ġ daĠliĠ
Ġ geiĠ
ai ĠliĠsiĠ
yong ĠliĠ
lei ĠxiĠ
lei ĠkeĠ
cao ĠyuanĠ
ĠyiĠ langĠ
jiaoĠ xiangĠ
junĠ wangĠ
guĠ yongĠ
meiĠguoĠ guoĠjiaĠ
ĠchengĠ duĠ
ĠyiĠzhiĠ weiĠ
Ġjin ĠjiĠ
ĠzaiĠci ĠqiĠjianĠ
Ġ 1983
ĠĠĠ huĠ
du ĠyouĠ
nan ĠweiĠ
suo ĠheĠ
tu ĠzaiĠ
gui ĠyuĠ
29 ĠnianĠ
ĠshiĠ pinĠ
erĠ yuanĠ
huiĠ mianĠ
jinĠ shenĠ
jingĠ chengĠ
ĠdaĠ tongĠ
nanĠ xiaĠ
aiĠ shaĠ
Ġdang ĠnianĠ
panĠ duanĠ
Ġjiu ĠyueĠ
touĠru ĠshiĠyongĠ
Ġ 98
an ĠbuĠ
bei ĠyouĠ
bing ĠzhongĠ
ru ĠzhiĠ
zhuĠ duoĠ
jiaoĠ geiĠ
haiĠ junĠdeĠ
muĠ biao
zuĠ ziĠzhiĠquĠ
teĠ gongĠ
bianĠ liangĠ
guĠ xiangĠ
baĠshiĠ luĠxianĠ
guangĠboĠ dianĠtaiĠ
6 ĠmiĠ
Ġ chong
bi ĠzhiĠ
jiu ĠyuĠ
yang ĠrenĠ
jue ĠqiĠ
hong ĠqiĠ
cao ĠdiĠ
1908 ĠnianĠ
BD Ġ
ĠshiĠ fangĠ
buĠ xiangĠ
daĠ lianĠmengĠ
xingĠ haoĠ
yuanĠ yuanĠ
siĠ jiaĠ
jiaĠ shuĠ
beiĠ geĠ
riĠ houĠ
daiĠ xieĠ
nanĠ yanĠyuanĠ
fengĠ suĠ
fengĠ mianĠ
ĠshiĠweiĠ yuanĠhuiĠ
yinĠyueĠ huiĠ
reĠdai ĠdiĠqiĠyaĠ
Ġ 1980ĠnianĠ
ying ĠyouĠ
pin ĠweiĠ
pei ĠyueĠ
ga Ġ
42 Ġ
1946 ĠnianĠ
ĠbuĠ langĠ
keĠ laĠ
chuĠ laiĠdeĠ
shangĠ huiĠ
xueĠ guanĠ
zhanĠ duiĠ
daiĠ zheĠ
suoĠ xuĠdeĠ
xuanĠ baĠ
fengĠ jingĠ
diĠshiĠ erĠ
ĠÐ¾ Ġ
fei ĠsiĠ
shan ĠsiĠ
su ĠheĠ
na ĠxiĠ
1904 ĠnianĠ
ĠliĠ mianĠ
guoĠ jiaĠdeĠ
yingĠ bangĠ
ĠdaĠ siĠ
fenĠ juĠ
ĠjiaĠ qiangĠ
guangĠ dianĠ
zeĠ renĠweiĠ
yueĠ qiuĠ
ĠranĠ houĠzaiĠ
Ġsi ĠyueĠ
ĠjinĠshiĠ chuĠshenĠ
ling ĠheĠ
feng ĠqiĠ
ĠzaiĠ xianĠ
jieĠ quĠ
ĠdaĠ shaĠ
laiĠ meiĠ
teĠ youĠzhiĠwuĠ
ĠjianĠ chaĠ
ĠshiĠdeĠ jiĠ
xiaoĠshiĠ houĠ
zuiĠgaoĠ faĠyuanĠ
jiaĠliĠfuĠ niĠyaĠ
Ġ o
yi ĠshiĠshiĠ
bu ĠdeĠyiĠ
ke ĠshiĠyongĠ
shan ĠxingĠ
lei ĠliĠ
cha ĠzhiĠ
1915 ĠnianĠ
renĠ kou
youĠ juĠyuĠ
ĠzhongĠ duoĠ
ĠguoĠ zhongĠ
keĠ xiĠ
beiĠ pingĠ
Ġ zhanĠshiĠ
ĠĠĠ 14
ĠĠĠ 13
xu ĠweiĠ
tui ĠdaoĠ
beiĠ haiĠ
huiĠ jiangĠ
nanĠ luĠ
nanĠ nvĠ
banĠ shangĠ
ĠshengĠ wuĠ
juanĠ zengĠ
ĠĠĠin ĠĠĠtheĠĠĠ
Ġ xun
Ġ za
Ġ biaoĠzhunĠ
Ġ buĠliĠ
ĠĠĠ Vi
dai ĠzhongĠ
bian ĠbuĠ
yao ĠxingĠ
po ĠshiĠ
siĠ mingĠ
jianĠ zhu
beiĠ faĠxianĠ
huiĠ xingĠ
jinĠ saiĠ
shuĠ fuĠ
tiĠ qinĠ
wangĠ luo
duoĠ yangĠ
yangĠ benĠ
chuanĠ zhuĠ
jueĠ zhuĠ
moĠshiĠ chan
ĠsectionĠĠĠ endĠ
Ġ nvĠziĠ
Ġ zuoĠyouĠ
xi ĠyueĠ
ĠĠĠ Ca
ĠĠĠ taĠzaiĠ
ke ĠbuĠ
ĠyiĠ jieĠ
chengĠ qiangĠ
biĠ luĠ
boĠ yingĠ
ĠgongĠ zuo
ĠgaiĠ gongĠsiĠ
xunĠ yanĠ
zhaoĠ huiĠ
Ġbei ĠzhiĠ
shouĠhuanĠ yingĠdeĠ
Ġ Jo
Ġ shengĠrenĠ
da ĠliĠdeĠ
zuan ĠshiĠ
ĠzaiĠ guoĠ
ĠheĠ fuĠ
ziĠ danĠ
ĠxiĠ quĠ
juĠ huiĠ
zuoĠ paiĠ
xinĠ wen
jiaoĠ xiaoĠdeĠ
haoĠ wuĠ
tuiĠ ceĠ
tieĠluĠ juĠ
miĠniĠ zhuanĠjiĠ
ĩ Ġ
ĠĠĠ wuĠkeĠlanĠ
dang ĠzhiĠ
feng ĠjiĠ
kong ĠjuĠ
laiĠ leĠ
zuĠ zongĠ
ĠgaiĠ geĠ
ĠĠĠzhuĠ zuoĠ
saĠerĠ waĠ
kaoĠlv ĠdaoĠ
Ġ Ra
Ġ qiĠzhiĠ
yi ĠshiĠjiĠ
mei ĠheĠ
huo ĠweiĠ
bie ĠshuĠ
pang ĠqiuĠ
youĠ renĠ
ĠyouĠ taiĠrenĠ
chengĠ faĠ
qingĠ daiĠ
muĠ houĠ
luoĠ yangĠ
ĠzhuĠ mingĠ
douĠ yuĠshiĠ
woĠ menĠdeĠ
ĠxuĠ duo
Ġai ĠliĠ
jiaoĠhuiĠ chuĠ
jiangĠyuĠ liangĠ
ĠjieĠweiĠ luĠdiĠ
Ġ 1986
ĠĠĠ sheĠ
ren ĠĠĠ
hui ĠliĠ
bian ĠliĠ
san ĠheĠ
che ĠzaiĠ
lin ĠzhiĠ
ku ĠsiĠ
meng ĠyouĠ
geng ĠyouĠ
qiĠ zaiĠ
qiĠ xiaĠ
ĠheĠ luĠ
gongĠ tingĠ
jianĠ shuĠ
jinĠ kouĠ
huaĠ tiĠ
tongĠ changĠshiĠ
jiangĠ jieĠ
meiĠ you
ĠfuĠ za
wanĠ chengĠdeĠ
miĠ xieĠ
anĠ zhao
suoĠ muĠ
zuiĠ mingĠ
ĠgongĠ nengĠ
ĠhouĠ beiĠ
5 ĠshiĠ
Ġ 1982
ĠĠĠ zhanĠhouĠ
yin ĠyueĠdeĠ
zao ĠchuĠ
guang ĠdaoĠ
chan ĠshiĠ
gou ĠxiangĠ
cao ĠdeĠ
25 ĠnianĠ
1906 ĠnianĠ
jiĠ shuĠ
youĠ xiaoĠ
ĠzhongĠ wuĠ
daĠ liangĠdeĠ
ĠqiĠ tuĠ
chuĠ ban
ĠdiĠ 2Ġ
ĠdaĠ ziĠ
boĠ leiĠ
dengĠ xiaoĠ
huĠ tongĠ
liuĠ xingĠdeĠ
cengĠ danĠrenĠ
ĠciĠ wai
ĠciĠ juĠ
Ġ Ar
xue ĠshiĠweiĠ
song ĠshiĠ
fenĠ dianĠ
wangĠ minĠ
zuiĠ juĠ
fanĠ paiĠ
shanĠ luĠ
ĠdeĠzhiĠ zuoĠ
ĠyueĠzhongĠ xunĠ
paiĠhangĠ bangĠ
ĠĠĠ tuĠ
ĠĠĠ 2003ĠnianĠ
you ĠshiĠyiĠ
zi ĠbuĠ
zhou ĠguoĠ
min ĠzaiĠ
han ĠrenĠ
rang ĠrenĠ
les Ġ
daĠ dongĠbuĠdaĠquĠ
jianĠ zaoĠdeĠ
chuĠ shengĠzaiĠ
xiaĠ shuiĠ
zuĠ qun
teĠ luoĠ
Ġtong ĠyueĠ
canĠ mouĠ
ĠmeiĠ zhouĠ
ĠĠĠliĠshiĠ yanĠgeĠ
yanĠjiu ĠzhongĠ
Ġming ĠshiĠ
Ġ xingĠjiĠ
Ġ 23Ġ
na ĠweiĠ
beiĠ mianĠ
ziĠ jiĠshiĠ
huiĠ xianĠ
juĠ ziĠ
zhanĠ lieĠ
tiĠ neiĠ
junĠ fuĠ
haiĠ wanĠ
baĠ saiĠerĠ
ĠhouĠ yinĠ
kongĠ guĠ
ĠluoĠ boĠ
ĠISTAT ĠdaiĠmaĠweiĠ
jian ĠyueĠ
gu ĠdiĠ
dai ĠjiaĠ
bo ĠheĠ
nuo ĠkeĠ
daĠ erĠ
jiaĠ zhuangĠ
keĠ qianĠwangĠ
shuĠ mingĠ
jiuĠ ciĠ
dengĠ baoĠ
ĠjinĠ gongĠ
diĠyiĠ mingĠ
muĠsiĠ teĠ
siĠlingĠ yuanĠ
Ġ 88
Ġ zaoĠqiĠ
ĠĠĠ duĠ
zhan ĠshiĠqiĠ
zhou ĠsiĠ
chuan ĠdaĠ
huan ĠshiĠ
kan ĠwuĠ
lao ĠhuiĠ
xiĠ yinĠ
houĠ saiĠ
bingĠ chuanĠ
guangĠ xianĠ
chanĠ sheng
Ġzhe ĠliĠ
saĠ moĠ
ĠzongĠ jiaoĠ
ĠyaĠ meiĠ
huĠbeiĠ shengĠ
gaoĠxiong ĠshiĠ
Ġ 700
Ġ daiĠbiao
Ġ tuĠerĠqiĠ
ta ĠbuĠ
chang ĠrenĠ
jun ĠdaĠ
min ĠheĠ
pi ĠerĠ
che ĠheĠ
11 ĠshiĠ
quĠ xianĠ
mingĠ dan
ciĠ ziĠ
xinĠ yang
jiaoĠ wangĠ
banĠ zhangĠ
ĠxingĠ bie
fanĠ chuanĠ
baĠ leiĠ
ĠgaiĠ dangĠ
nongĠ duĠ
Ġgai ĠnianĠ
ĠdeĠdaoĠ luĠ
chengĠduĠ shangĠ
shouĠhaiĠ zheĠ
Ġ zhongĠyiĠ
Ġ zhunĠbeiĠ
ĠĠĠ Si
jiao ĠxiĠ
du ĠzhongĠ
kai ĠshiĠdeĠ
fan ĠyuĠ
na ĠyiĠ
mao ĠkeĠ
37 ĠnianĠ
ĠdeĠ laĠ
xiangĠ fuĠ
beiĠ anĠ
fangĠ yingĠ
zuoĠ biaoĠ
yinĠ duĠdeĠ
qianĠ longĠ
ĠjiaĠ la
muĠ luĠ
maĠ luĠ
ĠjianĠ duĠ
aĠ saiĠbaiĠ
ĠshengĠ chanĠ
keĠyiĠ yongĠ
ĠhuaĠ xueĠ
ĠshiĠyiĠkeĠ hengĠxingĠ
Ġ nei
Ġ quanĠbuĠ
ĠĠĠ genĠju
ye ĠliĠ
bo ĠqiĠ
se ĠheĠ
beiĠ shouĠ
fenĠ huaĠ
xiaoĠ fuĠ
qingĠ fuĠ
shenĠ chuĠ
liuĠ mingĠ
ĠjiaoĠ shouĠ
ĠzuoĠ pinĠ
ĠfeiĠ changĠ
ĠaoĠ diĠliĠ
ĠguiĠ dingĠ
Ġzheng ĠyueĠ
w ĠĠĠ
Ġ fuĠliĠ
an ĠdiĠ
jie ĠyueĠ
zheng ĠrenĠ
hua ĠyouĠ
neng ĠyuĠ
1907 ĠnianĠ
ĠjiĠ xianĠ
zhongĠ zuĠ
quĠ zhuĠjianĠ
zhengĠ jiuĠ
shenĠ xueĠ
qiuĠ dui
liuĠ jingĠ
ĠchengĠ keĠ
ĠjieĠ tiĠ
qunĠ daoĠdeĠ
ĠheĠbeiĠ shengĠ
Ġ zhuiĠ
yin ĠrenĠ
xin ĠdiĠ
lai ĠweiĠ
ba ĠqiĠ
su ĠyuĠ
ĠrenĠ siĠwangĠ
daĠ jiaĠ
yuanĠ chengĠ
jinĠ zhuĠ
jiaoĠ gaoĠdeĠ
haiĠ yang
nianĠ duĠ
ĠpuĠtaoĠ yaĠyuĠ
Ġ 1947ĠnianĠ
dong ĠzhongĠ
quan ĠzhongĠ
bang ĠshangĠ
gongĠ lu
wuĠ jieĠ
yanĠ bianĠ
dengĠ zhanĠ
fanĠ xinĠ
guangĠ xueĠ
laoĠ banĠ
tongĠguoĠ leĠ
tieĠluĠ gongĠsiĠ
faĠxingĠ leĠ
zongĠjiaoĠ quĠ
zuiĠhou ĠyiĠgeĠ
ĠĠĠ ruĠguoĠ
mei ĠkeĠ
shao ĠyuĠ
style Ġ
ĠdeĠ buĠ
heĠ chengĠ
ĠzaiĠ neiĠ
wuĠ xuĠ
changĠ shuĠ
duiĠ gaiĠ
muĠ diĠshiĠ
2Ġ biĠ
ĠhuiĠ daoĠ
ĠlianĠ xuĠ
dianĠying ĠzhongĠ
changĠpian ĠgongĠsiĠ
ĠwanĠmeiĠ yuanĠdeĠ
li ĠsiĠ
fan ĠrenĠ
lv ĠbuĠ
cha ĠsiĠ
23 ĠnianĠ
27 ĠnianĠ
xiĠ quĠ
ĠyueĠ duĠ
ciĠ leiĠ
huaĠ wenĠ
ĠriĠ benĠdeĠ
ĠjiaĠ mengĠ
meiĠ laĠ
lianĠ xianĠ
ĠdanĠ taĠmenĠ
ĠyanĠ yuanĠ
ĠĠĠshiĠ jieĠ
ĠbianĠ haoĠ
xinĠliĠ xueĠ
ĠĠĠ Be
qiu ĠdaĠ
liu ĠqiĠ
guang ĠweiĠ
tang ĠshiĠ
zhai ĠdeĠ
ĠshiĠ duanĠ
yuanĠ laiĠdeĠ
jieĠ jingĠ
xiangĠ jiangĠ
duiĠ yingĠdeĠ
danĠ shuiĠyuĠ
shenĠ shouĠ
ĠfuĠ haoĠ
zuĠ lianĠ
ĠtaĠ yeĠshiĠ
guĠ baĠ
haoĠ chengĠshiĠ
ĠgaiĠ chengĠ
ĠciĠ qianĠ
zhengĠshiĠ chengĠliĠ
guoĠdeĠ teĠyouĠzhiĠwuĠ
ĠanĠ zhaoĠ
ĠdeĠyiĠge ĠzhongĠ
fuĠshiĠ zhangĠ
ĠgaiĠshengĠfenĠweiĠfaĠguoĠ beiĠbuĠ
zhanĠdou ĠzhongĠ
ĠĠĠ Sa
ti ĠyouĠ
han ĠsiĠ
song ĠzhiĠ
Ġnian ĠzhiĠhouĠ
ĠzaiĠ shangĠ
jianĠ yanĠ
ĠerĠ jiaĠ
leĠ jinĠ
jiaoĠ yuanĠ
jiaoĠ yuĠdeĠ
xiaoĠ zhenĠ
saiĠ juĠ
Ġgai ĠdiĠ
1ĠriĠ pingĠjunĠ
Ġliang ĠguoĠ
keĠjiĠ daĠxueĠ
ĠerĠsiĠ keĠ
kongĠzhongĠ faĠxianĠ
huanĠxingĠ shanĠ
a ĠdeĠ
ĠĠĠ Ar
xiao ĠdiĠ
bai ĠjinĠ
chao ĠxiĠ
tuo ĠyuanĠxingĠ
zou ĠdeĠ
Ġyue ĠjiĠ
dingĠ lvĠ
fengĠ biĠ
ĠliangĠ zheĠ
Ġjin ĠyiĠbuĠ
Ġjiang ĠyuĠ
minĠjinĠ dangĠ
ru ĠdiĠ
pai ĠshiĠ
bang ĠdaĠ
ĠyiĠ guoĠ
ĠzaiĠ fuĠ
beiĠ diĠ
tongĠ xun
zuoĠ chuĠleĠ
tiĠ caoĠ
minĠ yongĠ
liuĠ fangĠ
dangĠ paiĠ
hanĠ baoĠ
ĠyeĠ keĠ
yuĠyiĠ daĠliĠ
ĠbenĠ mingĠ
ĠtuĠ jingĠ
ĠweiĠzhongĠ xinĠ
ĠO Ġ
ĠshiĠshiĠjieĠ shangĠ
Ġ 68
Ġ 1948
ĠĠĠ wenĠ
ĠĠĠ houĠlaiĠ
da ĠyouĠ
ta ĠjiĠ
xu ĠliĠ
tie ĠdeĠ
pei ĠsiĠ
ĠrenĠ neiĠ
keĠ taĠ
ĠdaĠ lou
wangĠ guoĠdeĠ
teĠ shengĠ
dingĠ muĠ
paiĠ duiĠ
ĠjianĠ shaoĠ
huoĠdeĠ diĠ
kaĠluoĠlaiĠnaĠ zhouĠ
Ġ fangĠzhiĠ
ai ĠdiĠ
ĠĠĠ faĠxingĠ
fa ĠyouĠ
gui ĠjiĠ
gei ĠchuĠ
ĠyiĠ wenĠ
ĠyuĠ jingĠ
Ġli ĠweiĠzhiĠ
shouĠ piĠ
zhanĠ biĠ
tiĠ chu
dianĠ ciĠ
wanĠ jieĠ
lianĠ siĠjiĠ
zhengĠzhiĠ xieĠshangĠ
ĠdengĠ dengĠ
ĠlianĠ bangĠ
ĠqiĠxiĠ shenĠduĠ
ĠĠĠ caiĠ
ĠĠĠ canĠkaoĠ
yuan ĠĠĠ
ming ĠliĠ
zhan ĠguoĠ
dai ĠheĠ
wang ĠdaĠ
sai ĠshiĠdeĠ
zao ĠshiĠ
align Ġ
jianĠ dingĠ
shengĠ xingĠ
jinĠ jinĠ
ĠdiĠ keĠ
zhanĠ lieĠjianĠ
huaĠ dongĠ
yeĠ chengĠ
ĠtaĠ biaoĠshiĠ
fanĠ yingĠdeĠ
ĠxiangĠ dangĠ
ĠshiĠweiĠ shuĠjiĠ
Ġtong ĠnianĠ11ĠyueĠ
ĠtongĠ chang
saĠkeĠ senĠ
moĠshiĠchan ĠdiĠzaiĠ
4 ĠĠĠ
er ĠshiĠshiĠjiĠ
ying ĠweiĠ
suo ĠyuĠ
tiao ĠshiĠ
chun ĠjieĠ
ĠyiĠ zhangĠ
yinĠ yuanĠ
jiangĠ gaiĠ
meiĠguoĠ haiĠjunĠ
Ġbing ĠshiĠ
shaoĠ nv
2010ĠnianĠ meiĠguoĠrenĠkouĠpuĠchaĠ
Ġmin ĠjiĠ
ĠĠĠ de
hao ĠzhongĠziĠ
chi ĠyuĠ
38 ĠnianĠ
ĠyouĠ zheĠ
jieĠ zhuĠ
sheĠ xiangĠ
zhenĠ dongĠ
huĠ zhaoĠ
ĠjinĠ guan
ĠchuĠ daoĠ
zhuĠyiĠ daoĠ
ziĠgeĠ saiĠ
ĠmianĠ dianĠ
Ġ jiaĠzhiĠ
Ġ mĠ
Ġ henĠduoĠ
ji ĠyiĠjiĠ
qi ĠshiĠdeĠ
ĠzhiĠ minĠ
renĠ menĠ
ĠbeiĠ jingĠshiĠ
ĠzheĠ yeĠ
ĠdeĠzhiĠ huiĠ
ĠyiĠweiĠ zhuĠ
xunĠhuiĠ yanĠchangĠhuiĠ
huaĠshengĠ dun
shuaiĠling ĠdeĠ
ĠjuĠqingĠ xiaĠ
Ġ zhuĠliĠ
ĠĠĠ xueĠ
ĠĠĠ dianĠyingĠ
nan ĠdaĠ
gao ĠxingĠ
xu ĠheĠ
lin ĠzaiĠ
ĠyuĠ jiaĠ
ĠyouĠ xi
yingĠ huaĠ
duiĠ chenĠ
ĠsiĠ tan
ĠjiaĠ sheĠ
liangĠ jieĠ
ĠfuĠ luoĠ
ĠyinĠ hangĠ
ĠwuĠ diĠ
huangĠ puĠ
ouĠ zhouĠdeĠ
daoĠzhiĠ leĠ
Ġsui ĠrenĠkouĠ
Ġsi ĠliĠ
ĠzhongĠshiĠ yanĠ
Ġ1946 ĠnianĠ
Ġ hun
Ġ Ha
Ġ jiaĠliĠ
Ġ 1979ĠnianĠ
Ġ 1948ĠnianĠ
nian ĠbeiĠ
sheng ĠyueĠ
jiang ĠrenĠ
kang ĠdeĠ
ĠyuĠ zhouĠ
wuĠ changĠ
xiangĠ xiangĠ
beiĠ keĠ
ruĠ zhuĠ
ĠxingĠ xiangĠ
zuiĠ jinĠ
tanĠ huaĠ
Ġjie ĠheĠ
naĠcui ĠdeĠguoĠ
Ġ p
Ġ Ù
ai ĠziĠ
ĠĠĠ niĠ
sheng ĠdeĠyiĠgeĠ
hui ĠrenĠ
hua ĠliĠ
dai ĠzaiĠ
diao ĠrenĠ
34 ĠnianĠ
1950 ĠnianĠdaiĠ
ĠyiĠ siĠshiĠ
weiĠ xieĠ
ĠxiĠ zang
jingĠ bao
yeĠ shouĠ
wanĠ huiĠ
ĠdanĠ houĠlaiĠ
Ġtong ĠnianĠ9ĠyueĠ
zhuiĠ suĠzhiĠ
gaoĠdengĠ xueĠxiaoĠ
fuĠqin ĠdeĠ
ĠbiĠyeĠ houĠ
Ġ 99
ĠĠĠ 2002
ĠĠĠ 2002ĠnianĠ
wan ĠshiĠ
ĠyiĠ liao
ĠzhiĠ xiangĠ
ĠzhiĠ zuoĠdeĠ
ĠyueĠ qiuĠ
jieĠ juĠ
jingĠ xianĠ
baĠ naĠ
langĠdeĠ shengĠ
ĠkeĠxiĠ taĠ
Ġ nuoĠweiĠ
hao ĠyueĠtaiĠ
tang ĠjiĠ
rong ĠqiĠ
1903 ĠnianĠ
ĠyuĠ yuĠ
xianĠ qiĠ
faĠ guoĠdeĠ
taĠ duiĠ
bingĠ faĠ
ĠfuĠ siĠ
ĠxingĠ bieĠ
zuĠ chengĠyuanĠ
fanĠ xueĠxiaoĠ
ĠxianĠ faĠ
ĠjieĠ chuĠ
zhuanĠ anĠ
nianĠ qingĠ
maiĠkeĠ erĠ
ĠbuĠjiuĠ houĠ
Ġtian ĠfuĠ
Ġ 1987
Ġ ãĤĵ
Ġ xueĠxiĠ
Ġ jianĠzhiĠ
Ġ 1956ĠnianĠ
xu ĠyouĠ
lou ĠtiĠ
chun ĠdeĠ
chengĠ duĠdeĠ
shengĠ fuĠzeĠguanĠxiaĠ
xianĠ fengĠ
leĠ zheĠyiĠ
jiaoĠ chuĠ
laiĠ teĠ
suoĠ xuĠ
ĠzheĠ liangĠ
huanĠ rao
Ġye ĠzaiĠ
Ġ 1984
Ġ 1981ĠnianĠ
ĠĠĠ renĠwuĠ
zai ĠshiĠyongĠ
wu ĠguoĠ
zui ĠxiĠ
tian ĠyiĠ
xiu ĠzhuĠ
38 Ġ
gongĠ fengĠ
jiaĠ juĠ
ĠxiĠ la
bingĠ qiuĠ
dianĠ yaĠ
minĠ zhengĠ
jiuĠ keĠyiĠ
teĠ lanĠ
quanĠ zhouĠ
maĠ enĠshengĠ
aĠ erĠjiĠ
ĠshengĠ mingĠ
Ġzhe ĠshiĠyiĠ
ĠbenĠ zhanĠ
zhongĠshiĠ yanĠ
3 ĠliĠ
Ġ kuoĠ
ĠĠĠ 20ĠshiĠjiĠ
ĠĠĠ 2024ĠnianĠ
xiao ĠshiĠdeĠ
lai ĠjiĠ
ben ĠdiĠquĠ
liu ĠweiĠ
gang ĠguoĠ
guang ĠshiĠ
pang ĠdeĠ
1900 ĠnianĠ
ĠyouĠ fuĠ
xiĠ tong
geĠ lanĠdeĠ
jiangĠ daoĠ
pingĠ xingĠ
suoĠ shu
saiĠ maĠ
sanĠ jianĠ
naĠ poĠlunĠ
eĠ waiĠdeĠ
ĠneiĠ rongĠ
canĠsaiĠ zheĠ
ĠSAO ĠĠĠ
ĠĠĠ yangĠ
ĠĠĠ aoĠ
te ĠyiĠ
men ĠdaĠ
26 ĠnianĠ
ĠshiĠ neiĠ
ĠyuĠ daĠ
ĠzaiĠ jianĠ
xianĠ beiĠ
ziĠ youĠshiĠ
dongĠ fengĠ
xiaĠ shuĠ
qingĠ xieĠ
boĠ luoĠdiĠ
touĠ yingĠ
eĠ junĠ
ĠwanĠ zhangĠ
ĠnanĠ ziĠ
minĠzhuĠ zhuĠyiĠ
ĠgaiĠwuĠzhongĠdeĠ moĠshiĠchanĠdiĠzaiĠ
Ġ Ka
ĠĠĠ xiangĠguanĠ
shou ĠguoĠ
fei ĠyuĠ
xiong ĠzhangĠ
chai ĠyouĠ
90 Ġ
Î² Ġ
ĠshiĠ gaiĠ
ĠzhiĠ liangĠ
guoĠ duĠ
luĠ jun
wanĠ daoĠ
ĠyinĠ niĠ
manĠ guanĠ
panĠ luan
Ġgu ĠjiĠ
teĠbie ĠxingĠzhengĠquĠ
muĠniĠ hei
eĠhaiĠeĠ zhouĠ
Ġ zhongĠzhiĠ
Ġ ouĠzhou
Ġ iĠ
ni ĠzaiĠ
bian ĠzhongĠ
meng ĠjiaĠlaĠ
man ĠweiĠ
ĠbuĠ leiĠ
shengĠ qianĠ
faĠ yinĠ
changĠ shaĠ
ĠxingĠ chaiĠyouĠjiĠ
xuanĠ xiuĠ
ĠshiĠyiĠ jingĠ
ĠfaĠ lvĠ
waĠ laĠ
ĠĠĠyiĠ xieĠ
Ġbei ĠrenĠweiĠshiĠ
qingĠhuaĠ daĠxueĠ
Ġ tiĠyuĠ
Ġ 1955ĠnianĠ
da ĠliĠshiĠ
qu ĠliĠ
zhang ĠshiĠjianĠ
ĠyiĠ chuĠ
daĠ siĠ
jieĠ duĠ
ĠqiĠ chengĠ
guanĠ junĠdeĠ
ĠfuĠ lanĠkeĠ
Ġye ĠbuĠ
ĠganĠ suĠ
ĠshiĠwuĠkeĠ lanĠdeĠ
7 ĠmiĠ
Ġ John
Ġ feiĠjiĠ
ĠĠĠ To
ĠĠĠ miaoĠshuĠ
xiang ĠrenĠ
zuo ĠbuĠ
yong ĠrenĠ
dai ĠjiĠ
lian ĠjiĠ
wai ĠyuĠ
wai ĠkeĠ
SA Ġ
1916 ĠnianĠ
jiĠ chuĠ
ĠyouĠ ziĠ
keĠ keĠ
beiĠ hanĠ
beiĠ panĠ
ĠdiĠ xingĠ
quĠ jueĠyuĠ
houĠ huiĠ
xinĠ jiaoĠ
taiĠ shanĠ
daiĠ huiĠ
saiĠ puĠ
ĠyeĠ huiĠ
Ġ1 ĠĠĠ
Ġduo ĠrenĠ
9 ĠgeĠ
Ġ 1979
Ġ Di
Ġ yunĠdongĠ
jiu ĠyiĠjingĠ
yang ĠyiĠ
sai ĠzhiĠ
que ĠxianĠ
bang ĠshouĠ
ĠzaiĠ jingĠ
fuĠ luoĠ
shengĠ yuanĠ
guanĠ muĠ
taiĠ langĠ
liangĠ cengĠ
cheĠ huiĠ
zongĠ zhangĠ
neiĠ waiĠ
ĠxianĠ zaiĠdeĠ
huanĠ manĠ
zhengĠzhiĠ juĠ
ĠlianĠ mengĠ
Ġ mou
Ġ binĠ
ĠĠĠ Ð
ĠĠĠ Con
xian ĠyueĠ
tong ĠyiĠgeĠ
III Ġ
ĠshiĠ congĠ
Ġnian ĠnianĠ
zhongĠ xingĠ
ĠzaiĠ taiĠwanĠ
shengĠ ziĠ
xianĠ jingĠ
shangĠ ye
huaĠ banĠ
huaĠ feiĠ
yingĠ fuĠ
tongĠ meng
xinĠ zeng
gaiĠ zhuangĠ
zuiĠ zhuĠmingĠdeĠ
zongĠ zuoĠ
saiĠ eĠ
ĠdeĠyiĠ changĠ
ĠbingĠ duiĠ
ĠgongĠ si
ĠgaiĠ zuĠzhiĠ
ĠshuĠ rouĠshiĠxingĠ
yunĠshiĠ kengĠ
ĠHR ĠĠĠ
Ġ Me
ĠĠĠ huo
he ĠshiĠdeĠ
deng ĠyiĠ
han ĠweiĠ
mai ĠxiaĠ
zhengĠ queĠ
yinĠ qiĠdeĠ
tiĠ shangĠ
fenĠ sanĠ
ĠdeĠyiĠ buĠ
ĠyiĠzhiĠ youĠ
zongĠtongĠ fuĠ
8 ĠmiĠ
Ġ zhiĠdeĠshiĠ
gao ĠerĠfuĠ
zun ĠshouĠ
ĠshiĠ minĠ
ĠheĠ youĠ
jieĠ touĠ
zhuĠ yanĠdeĠ
yeĠ kaiĠshiĠ
luĠ xiangĠ
biĠ huĠ
qiuĠ fanĠ
kaiĠ fang
tingĠ huoĠ
nvĠ xingĠdeĠ
ĠxiaĠ xiaĠ
ĠjiaoĠ tongĠ
ĠhuaĠ xueĠshiĠweiĠ
Ġmei ĠriĠ
kenĠ seĠ
2 ĠjiaĠ
Ġ piĠpingĠ
Ġ 1937ĠnianĠ
an ĠweiĠ
su ĠjiĠ
na ĠĠĠ
xiu ĠliĠ
sa ĠzhuĠsaiĠ
pao ĠtaĠ
sang ĠnaĠ
ĠzhiĠ qiĠ
jieĠ hun
shengĠ zhengĠfuĠ
ĠerĠ wenĠmingĠ
juĠ mianĠ
shangĠ yanĠ
dongĠ xingĠ
huaĠ daĠ
teĠ se
luoĠ shanĠ
yangĠ junĠ
zuiĠ changĠ
fengĠ mingĠ
jueĠ xinĠ
ĠyinĠ qingĠ
ĠchengĠ xuĠ
pinĠ kun
daiĠbiao ĠdeĠ
kaĠsiĠ diĠliĠyaĠ
Ġ wuĠliĠ
ji ĠshiĠjieĠ
nian ĠhouĠ
ke ĠweiĠerĠ
shan ĠyiĠ
lun ĠweiĠ
shui ĠzhiĠ
ĠdeĠ junĠ
fuĠ daoĠ
jianĠ shouĠ
ĠerĠ xiĠ
yanĠ se
guanĠ bingĠ
duiĠ liuĠ
ĠjiaĠ naĠ
lingĠ muĠ
liuĠ tongĠ
neiĠ sheĠyouĠ
1Ġ biĠ
ĠyuanĠ zhuĠ
ziĠjiĠ zaiĠ
ĠteĠ langĠ
ĠgengĠ mingĠweiĠ
lvĠweiĠ 0
ĠzaiĠzhongĠguoĠ daĠluĠ
Ġ xinĠxiĠ
wang ĠliĠ
kai ĠzhiĠ
zhuan ĠxingĠ
18 ĠshiĠjiĠ
cang ĠdeĠ
der Ġ
geĠ quĠdeĠ
ĠbuĠ bianĠ
zhuĠ biĠ
faĠ xianĠyuĠ
guanĠ xi
ĠdaĠ shengĠ
xinĠ huiĠ
wanĠ meiĠ
anĠ niĠ
suĠ lianĠdeĠ
leiĠ anĠjianĠ
sanĠ jieĠ
guangĠ zhou
baiĠ huoĠ
ĠchuĠ xianĠzaiĠ
ganĠ junĠ
zengĠ qiang
ĠguĠ ciĠ
ĠranĠ erĠzaiĠ
Ġliu ĠyueĠ
ĠĠĠ quĠ
fen ĠheĠ
cun ĠjiĠ
shiĠ yiĠ
qiĠ bingĠ
buĠ heĠ
xiĠ lieĠdeĠ
shouĠ xiaĠ
shouĠ huoĠ
fangĠ ziĠ
taiĠ leiĠ
wangĠ fuĠ
nanĠ duanĠ
meiĠ tiĠdeĠ
kaiĠ guanĠ
ĠxiangĠ tongĠ
ĠyingĠ yongĠ
ĠzhiĠweiĠ yuĠ
sanĠshiĠ nianĠ
baoĠhanĠ leĠ
diaoĠcha ĠjuĠ
Ġ chu
Ġ 1958
Ġ jianĠrenĠ
guo ĠliĠshiĠ
dang ĠyiĠ
suo ĠbuĠtongĠ
na ĠdaoĠ
zhuang ĠzaiĠ
ĠshiĠ liuĠ
ĠyouĠ xie
gongĠ bu
gongĠ keĠ
jianĠ tingĠ
jiaĠ qiĠ
beiĠ zhanĠ
shuĠ liangĠdeĠ
zheĠ huiĠ
qianĠ zhengĠ
junĠ duiĠdeĠ
pingĠ shenĠ
daiĠ kuanĠ
liangĠ ce
dangĠ neiĠ
kouĠ anĠ
shuiĠ zhunĠ
huanĠ yuanĠ
chongĠ baiĠ
Ġer ĠyiĠ
zhunĠ jueĠsaiĠ
Ġ lan
Ġ 1952ĠnianĠ
ĠĠĠ Le
ĠĠĠ Com
zuo ĠguoĠ
mu ĠxiĠ
diao ĠdeĠ
31 ĠnianĠ
at ĠĠĠ
ĠdeĠ siĠ
siĠ huĠ
jiaĠ ciĠ
junĠ xianĠ
junĠ zhengĠ
haiĠ baoĠ
sheĠ zhangĠ
ĠxiangĠ xiĠ
juĠxingĠ leĠ
Ġ shu
Ġ ping
fu ĠliĠdeĠ
luo ĠliĠ
ba ĠdiĠ
cai ĠyouĠ
hen ĠyouĠ
bin ĠxiĠfaĠ
70 Ġ
diĠ daiĠ
daĠ chen
daĠ gongĠ
daĠ tongĠ
fuĠ zaĠ
xiangĠ jinĠ
xianĠ jinĠdeĠ
ziĠ jiaĠ
chuĠ xingĠ
xinĠ aĠjiĠtan
zhenĠ duanĠ
paiĠ hang
tiaoĠjianĠ xiaĠ
3 ĠshiĠ
Ġ qiuĠjiĠ
neng ĠshiĠ
lin ĠyiĠ
qiang ĠjianĠ
pei ĠyuĠ
zan ĠchengĠ
1938 ĠnianĠ
ĠzaiĠ yuanĠ
ĠbuĠ mingĠ
zhuĠ yuanĠ
shengĠ riĠ
ziĠ taiĠ
chuĠ bingĠ
zhanĠ baiĠ
qianĠ liangĠ
yaĠ maĠ
miĠ lanĠ
shanĠ guĠ
ĠxiangĠ jiaoĠyuĠ
chongĠ fengĠ
ĠdeĠjiĠ heĠ
ĠzuiĠ zhongĠyuĠ
Ġling ĠyiĠgeĠ
feiĠliĠ puĠ
tianĠran ĠqiĠ
Ġ luan
Ġ Ki
li ĠnianĠ
li ĠwuĠ
xue ĠqiĠ
qian ĠheĠ
zu ĠzhongĠ
deng ĠjiaĠ
san ĠguoĠ
duan ĠdaoĠ
sha ĠheĠ
hen ĠnanĠ
sun ĠziĠ
34 Ġ
diĠ tuĠ
ĠzaiĠ beiĠjingĠ
wuĠ quĠ
shouĠ yaoĠ
dianĠ yuanĠ
ĠtaĠ danĠrenĠ
lingĠ wai
ĠbingĠ kaiĠshiĠ
sanĠ cengĠ
hanĠ liangĠ
ĠzhuĠ gongĠ
ĠshiĠjiĠ luĠ
youĠyiĠ zuoĠ
ĠxueĠ zheĠ
Ġai ĠdeĠhuaĠ
Ġsan ĠjiaĠ
muĠdiĠ diĠ
ĠyouĠmingĠ BDĠ
ĠzhongĠyang ĠweiĠyuanĠhuiĠ
banĠgongĠ tingĠ
ĠweiĠfuĠqiĠyuĠgangĠ luĠxingĠmuĠ
Ġ Ð¸
Ġ duoĠdeĠ
Ġ faĠyuĠ
ĠĠĠ 2001
dan ĠheĠ
wen ĠxiĠ
mian ĠheĠ
kao ĠdeĠ
pao ĠjiĠ
22 ĠnianĠ
ers Ġ
zhongĠ xin
renĠ mingĠ
xiangĠ siĠdeĠ
dongĠ buĠdeĠ
dianĠ tiĠ
qingĠ zhenĠsiĠ
shanĠ poĠ
ĠbingĠ jiangĠqiĠ
caiĠ naĠ
linĠ quĠ
tingĠ boĠ
ĠjuĠ tiĠ
gengĠ gaoĠdeĠ
daiĠbiaoĠ duiĠ
Ġsi ĠzhiĠ
Ġ ya
Ġ 69
Ġ To
Ġ sanĠnianĠ
Ġ guanĠzhongĠ
ĠĠĠ 2000ĠnianĠ
bao ĠyiĠ
wang ĠxiĠ
lian ĠxingĠ
long ĠheĠ
yuĠ leiĠ
daĠ geĠ
xiĠ guanĠ
fuĠ leiĠdeĠ
siĠ yuanĠ
geĠ changĠ
wuĠ fa
faĠ guiĠ
mingĠ yunĠ
xueĠ shengĠdeĠ
yanĠ houĠ
zuiĠ xiaoĠ
ĠyiĠjiĠ weiĠ
ĠguoĠjiaĠ gongĠyuanĠ
ĠjiĠluĠ pianĠ
biĠyeĠ shengĠ
ĠĠĠ s
ĠĠĠ Bo
ĠĠĠ Ho
ĠĠĠ 2001ĠnianĠ
ru ĠjiĠ
lian ĠyiĠ
bo ĠyiĠ
lei ĠbuĠ
reng ĠshiĠ
46 ĠnianĠ
ĠyuĠ wenĠ
ĠzaiĠ diĠerĠ
daĠ jinĠ
yuanĠ guĠ
ĠdiĠ jiuĠ
ĠdiĠ zhenĠ
banĠ jingĠ
zongĠ jieĠ
chuanĠ chuĠ
lanĠ jieĠ
chongĠ xin
diĠyiĠ zhiĠ
chuangĠ banĠrenĠ
ĠmeiĠ ciĠ
ĠwangĠ zhanĠ
ĠzhongĠxin ĠweiĠ
suoĠshiĠ yongĠdeĠ
Ġ n
Ġ Na
ĠĠĠ sheĠhuiĠ
di ĠĠĠ
dui ĠzhongĠguoĠ
qian ĠyouĠ
biao ĠyuĠ
1930 ĠnianĠdaiĠ
qiĠ dongĠ
xianĠ huaĠ
ciĠ shanĠ
huaĠ gongĠ
huoĠ fuĠ
miĠ maĠ
gaoĠ wenĠ
ĠdaoĠ fuĠ
kaiĠshiĠ houĠ
3Ġ gongĠliĠ
chengĠyuanĠ guoĠ
Ġmo ĠxiĠgeĠ
Ġ 44
le ĠrenĠ
fang ĠrenĠ
wang ĠjiaĠ
biao ĠshiĠweiĠ
liu ĠliĠ
nei ĠshiĠ
bai ĠgongĠ
80 Ġ
zhuĠ yiĠdeĠshiĠ
zheĠ zuoĠ
haiĠ baoĠkuoĠ
gaiĠ xiaoĠ
duoĠ chuĠ
fengĠ tianĠ
laĠ muĠ
ĠciĠ zhanĠ
manĠ zhouĠ
manĠ haĠ
guoĠjiĠ saiĠ
ĠfenĠ lanĠ
faĠshengĠ houĠ
luĠyinĠshiĠ zhuanĠjiĠ
Ġ 1981
Ġ ãĤ¤
ti ĠliĠ
tian ĠjiĠ
pin ĠyinĠ
qiang ĠxingĠ
buĠ ruĠ
zhuĠ geĠ
ĠqiĠ daĠ
ĠerĠ diĠ
ciĠ qianĠ
guanĠ jun
taiĠ luoĠ
jiuĠ fenĠ
fanĠ changĠ
ĠdeĠyiĠ banĠ
naĠ xie
xiangĠgangĠ dianĠyingĠ
ĠzuoĠ quĠ
ziĠyouĠ dangĠ
Ġzai ĠzhiĠ
bangĠzhuĠ xiaĠ
Ġ yu
Ġ niuĠyueĠ
bi ĠzhongĠ
wen ĠliĠ
lian ĠsiĠ
dou ĠyuĠ
tan ĠwuĠ
hong ĠyiĠ
21 ĠnianĠ
32 ĠnianĠ
ĠweiĠ reĠdaiĠ
jinĠ gangĠ
shouĠ qiuĠ
yanĠ yongĠ
ciĠ zhanĠ
baoĠ leiĠ
tongĠ yiĠdeĠ
bingĠ qie
gaiĠ bianĠweiĠ
zuĠ shuĠjiĠ
baiĠ fangĠ
tingĠ cheĠ
pinĠ qingĠ
ĠyeĠ beiĠ
ĠdongĠ riĠbenĠ
ĠguoĠjiaĠ zuĠqiuĠduiĠ
guangĠboĠ dianĠshiĠ
jiaoĠkeĠ wenĠ
5 ĠmingĠ
Ġ gua
Ġ linĠshiĠ
ĠĠĠ songĠ
wei ĠdeĠguoĠ
zhen ĠzhiĠ
lei ĠyiĠ
yun ĠjiĠ
huan ĠjiĠ
90 ĠnianĠdaiĠ
ĠdeĠ fuĠ
wuĠ xingĠ
ciĠ juĠ
ĠriĠ houĠ
ĠjiaĠ siĠ
ĠzheĠ liangĠgeĠ
ĠshiĠjieĠ shangĠ
kangĠ zhanĠ
shengĠjiĠ weiĠ
waiĠjiaoĠ guanĠxiĠ
ĠkeĠxiĠtaĠ niĠdaĠquĠ
Ġ huangĠdiĠ
Ġ 1954ĠnianĠ
ji ĠshiĠyongĠ
mi ĠxiĠxiĠ
lou ĠyuĠ
ar Ġ
guoĠ daoĠ
xingĠ geĠ
ĠqiĠ mingĠ
xueĠ yanĠjiuĠ
jiangĠ shuiĠ
qingĠ shuiĠ
laiĠ shuo
bianĠ dongĠ
yaoĠ saiĠ
fengĠ shanĠ
tingĠ liuĠ
ĠxiangĠ xinĠ
moĠ shouĠ
ĠyunĠ xuĠ
gongĠsi ĠzaiĠ
aĠfuĠ hanĠ
Ġ Be
Ġ chuangĠzuoĠ
ĠĠĠ Mar
huo ĠrenĠ
mian ĠbuĠ
jue ĠjiĠ
cun ĠzheĠ
39 ĠnianĠ
ĠshiĠ gongĠ
ĠxiĠ zangĠ
lianĠ xu
quanĠ xinĠ
ĠdaoĠ danĠ
ĠshiĠyiĠ huiĠ
lanĠ xianĠ
zhuanĠ zhuĠyuĠ
Ġtong ĠnianĠ8ĠyueĠ
ĠyongĠ laiĠ
dongĠjiĠ aoĠlinĠpiĠkeĠyunĠdongĠhuiĠ
jieĠdaoĠ banĠshiĠchuĠ
Ġ1938 ĠnianĠ
Ġ 1941
Ġ Lo
Ġ Ðµ
Ġ naiĠ
ĠĠĠ styleĠ
dian ĠyouĠ
nan ĠdaĠxueĠ
tian ĠzhiĠ
feng ĠheĠ
lun ĠyiĠ
chen ĠyiĠ
ĠshiĠ tiĠ
ĠyuĠ tiĠ
daĠ saiĠ
fuĠ fuĠ
siĠ lingĠbuĠ
jieĠ shangĠ
xiangĠ linĠ
jinĠ xiuĠ
yingĠ yuanĠ
neiĠ buĠdeĠ
shuĠdeĠ dongĠwuĠ
haĠ saĠkeĠsiĠ
ĠdangĠ tianĠ
jinĠshiĠ chuĠshenĠ
ĠchongĠ qingĠ
luoĠmaĠ tianĠzhuĠjiaoĠ
aoĠlinĠ piĠ
manĠhuaĠ jiaĠ
shaoĠshuĠ minĠzuĠ
neiĠruiĠ laĠ
ĠniuĠyueĠshiĠ baoĠ
Ġ ref
Ġ diĠzhiĠ
Ġ biaoĠzhiĠ
ĠĠĠ eĠluoĠsiĠ
guo ĠyiĠgeĠ
hu ĠshiĠdaiĠ
jin ĠguoĠ
long ĠdiĠ
48 Ġ
2026 ĠnianĠ
ĠzhongĠ yuanĠ
zhuĠ xianĠ
zuoĠ weiĠshiĠ
ĠfuĠ xingĠ
jiuĠ zhouĠ
ĠchuĠ xiĠ
ĠdeĠshiĠ tiĠ
zhuangĠ cunĠ
Ġri ĠjiĠ
Ġ tou
ĠĠĠ mengĠ
xin ĠyueĠ
zhang ĠyouĠ
cai ĠzhiĠ
kuang ĠyeĠ
sun ĠshangĠ
36 Ġ
um Ġ
color Ġ
weiĠ erĠ
jieĠ kouĠ
daoĠ fuĠ
guanĠ dongĠ
ĠjiaĠ geĠ
lianĠ aiĠ
suĠ geĠlan
ĠwuĠ erĠ
chaĠ bieĠ
ĠzuiĠ hou
ĠnianĠzhiĠ qianĠ
beiĠjingĠ daĠxueĠ
chuĠbanĠ leĠ
ĠnianĠdai ĠzhongĠqiĠ
dangĠweiĠ shuĠjiĠ
nongĠcun ĠjuĠminĠ
Ġ luĠyiĠ
er ĠshiĠweiĠ
ge ĠnianĠ
ta ĠzhiĠ
ling ĠweiĠ
quan ĠliĠdeĠ
men ĠheĠ
id Ġ
ĠyiĠ chengĠweiĠ
ĠyuĠ qianĠ
zhongĠ wenĠ
ĠzaiĠ dongĠ
yingĠ yongĠyuĠ
yeĠ luĠsaĠ
caiĠ jueĠ
niĠ geĠ
ganĠ shouĠ
poĠ haiĠ
ĠshouĠ duĠ
ĠnianĠ11ĠyueĠ 1ĠriĠ
ĠduoĠ ciĠ
Ġmi ĠerĠ
ĠweiĠyuĠgaiĠguoĠ dongĠnanĠbuĠ
ouĠzhou ĠguoĠjiaĠ
zhuĠjiaoĠzuoĠ tangĠ
Ġ chengĠjiĠ
Ġ ningĠ
ĠĠĠ Di
zhang ĠguoĠ
zu ĠguoĠ
tu ĠqiĠ
lun ĠliĠ
daĠ daĠ
xianĠ xiaĠ
ziĠ zhuanĠ
shuĠ xiĠ
zhangĠ ai
nanĠ yangĠ
xieĠ chengĠ
suoĠ zuoĠdeĠ
zuiĠ zhangĠdeĠ
baiĠ se
Ġta ĠbuĠ
youĠyiĠ zhongĠ
ziĠyouĠ yongĠ
riĠben ĠrenĠ
ĠqiangĠ diaoĠ
Ġ 1978
Ġ shouĠyuĠ
Ġ 1909ĠnianĠ
bi ĠyiĠ
lai ĠbuĠ
qing ĠzhongĠ
cui ĠhuaĠ
Microsoft ĠĠĠ
ĠdeĠ jiaĠ
ĠzaiĠ xiaoĠ
yuanĠ junĠ
zhuĠ muĠ
xiangĠ wangĠ
xianĠ bingĠ
gaiĠ yaoĠ
zhouĠ weiĠdeĠ
ĠtaĠ congĠ
bianĠ huĠ
aĠ laĠsiĠ
longĠ leiĠ
zouĠ leĠ
ĠweiĠerĠ siĠ
ĠaoĠ zhouĠ
gongĠsi ĠheĠ
ĠĠĠC Ġ
lanĠqiuĠ yunĠdongĠyuanĠ
jingĠcha ĠjuĠ
zhengĠzhiĠxieĠshangĠ huiĠyiĠ
Ġ 170
wu ĠweiĠyuanĠhuiĠ
jing ĠqiĠ
wen ĠrenĠ
nan ĠyouĠ
zhen ĠweiĠ
nei ĠjiĠ
liao ĠliĠ
chuang ĠyeĠ
60 ĠnianĠ
33 ĠnianĠ
ĠshiĠ sanĠ
ĠshiĠ erĠyueĠ
fuĠ lanĠ
jianĠ qiao
ĠdiĠ guoĠdeĠ
ciĠ quanĠguoĠ
tongĠ guoĠdeĠ
xinĠ siĠ
huoĠ paoĠ
biĠ nanĠ
liangĠ zhouĠ
zuiĠ guĠlaoĠdeĠ
liuĠ danĠ
guiĠ dianĠcheĠ
ĠyeĠ meiĠyouĠ
tanĠ taoĠ
qinĠ lve
leĠyiĠ changĠ
4 ĠmiĠ
7 ĠgongĠliĠ
Ġ huangĠjiaĠ
Ġ 1966ĠnianĠ
bing ĠerĠchengĠ
wa ĠjieĠ
68 ĠnianĠ
43 ĠnianĠ
ĠnianĠ jinĠ
ĠyouĠ jinĠ
ĠguoĠ wuĠ
shuĠ liang
duiĠ taĠdeĠ
pingĠ pangĠqiuĠ
haiĠ nanĠ
ĠfuĠ keĠ
ĠfuĠ huaĠ
wanĠ biĠ
benĠ yingĠ
yaoĠ suĠ
ĠdaoĠ shangĠ
chanĠ jieĠjiĠ
kaiĠshiĠ leĠ
ĠshiĠshiĠ jianĠ
Ġri ĠshiĠ
Ġceng ĠweiĠ
boĠshiĠ dunĠ
ĠweiĠzhuĠ tiĠ
Ġ shouĠjiĠ
ĠĠĠ cheĠzhan
huo ĠdiĠ
zu ĠzaiĠ
xie ĠxingĠ
wa ĠsiĠ
zeng ĠyuanĠ
ĠjiĠ muĠ
renĠ qiĠ
daĠ gangĠ
siĠ taĠ
wuĠ shengĠ
xiangĠ taĠ
huiĠ jianĠ
shuĠ maĠ
huoĠ huaĠ
biaoĠ yan
liuĠ wangĠ
maĠ piĠ
chongĠ xiuĠ
ĠshuĠ juĠ
ĠyongĠ huĠ
ĠshiĠweiĠyuĠmeiĠguoĠ miĠsuĠliĠ
ĠminĠ jinĠ
waiĠjiaoĠ guanĠ
ĠxinĠzengĠ benĠtuĠ
3 ĠĠĠ
Ġ chang
ĠĠĠ colspanĠ
te ĠweiĠerĠ
gang ĠweiĠ
lao ĠrenĠ
50 ĠnianĠ
1902 ĠnianĠ
background Ġ
ĠshiĠ dangĠdiĠ
xiĠ zang
yuanĠ mingĠ
jianĠ mianĠ
ĠguoĠ qiĠ
jiaĠ banĠ
jieĠ beiĠ
ziĠ diĠ
shuĠ ciĠ
jingĠ jiĠdeĠ
anĠ chaĠsiĠ
chuanĠ bo
chuanĠ chengĠ
ĠdeĠshiĠ daiĠ
Ġba ĠshiĠ
Ġ 1939
Ġ Ni
nan ĠheĠ
qing ĠqiĠ
san ĠsiĠ
lun ĠjiaĠ
wa ĠliĠ
64 ĠnianĠ
as ĠĠĠ
youĠ keĠ
ĠzaiĠ shengĠ
shangĠ huoĠdeĠ
baoĠ dongĠ
xinĠ cunĠ
qianĠ quĠ
banĠ qiuĠ
lingĠ dao
shanĠ daoĠ
liuĠ langĠ
zongĠ jiao
zongĠ bingĠ
ĠdeĠyiĠ keĠ
canĠ junĠ
leĠyiĠ zuoĠ
lingĠyiĠ zhongĠ
fenĠbie ĠyuĠ
ĠweiĠyuĠgaiĠguoĠ beiĠbuĠ
muĠniĠ heiĠ
ĠĠĠ cong
hu ĠyiĠ
jiu ĠxingĠ
lv ĠchengĠ
chi ĠyiĠ
niu Ġyue
ne ĠĠĠ
65 ĠnianĠ
zuan Ġ
xingĠ fuĠ
gongĠ lvĠ
shuĠ qianĠ
juĠ xing
zuoĠ weiĠyiĠ
changĠ chengĠ
taiĠ kong
benĠ pianĠ
luoĠ wenĠ
shaĠ shouĠ
ĠdeĠzhiĠ yeĠ
ĠshiĠzhenĠ fanĠweiĠneiĠ
ĠĠĠshiĠ shiĠ
daiĠbiao ĠxingĠ
Ġ2 ĠĠĠ
ĠrenĠkou ĠweiĠ
ĠfuĠlangĠ shenĠ
Ġ 1944
Ġ backgroundĠ
an ĠyiĠ
gu ĠjiaĠ
ceng ĠyiĠ
75 Ġ
gongĠ wuĠyuanĠ
chengĠ weiĠyiĠgeĠ
huiĠ laiĠ
kaiĠ leĠ
lunĠ baoĠ
ĠyuanĠ laiĠ
yinĠyueĠ jiaĠ
ĠĠĠyiĠ xiaĠshiĠ
ĠnianĠyiĠ houĠ
miaoĠshuĠ leĠ
Ġ sheĠzhiĠ
ĠĠĠ xianĠshiĠ
bi ĠxiĠ
ying ĠzhongĠ
re ĠdeĠ
ruo ĠdeĠ
weiĠ laiĠ
ĠjiĠ suanĠjiĠ
ĠbuĠ jianĠ
jieĠ xianĠ
ĠerĠ keĠ
taĠ shouĠ
yingĠ yun
biĠ mian
gaoĠ tieĠ
chongĠ qingĠshiĠ
kaiĠshiĠ zhiĠ
Ġdan ĠzhiĠ
canĠ zhanĠ
zengĠ jiaĠzhiĠ
ĠnianĠ6ĠyueĠ 30ĠriĠ
Ġcong ĠshiĠ
fuĠluoĠliĠdaĠ zhouĠ
Ġ renĠshiĠ
Ġ chengĠrenĠ
min ĠzhiĠ
ma ĠdeĠliĠ
rong ĠyeĠ
diao ĠkeĠ
ty ĠĠĠ
ts ĠĠĠ
ĠweiĠ juĠ
ĠweiĠ xiaoĠ
ĠjiĠ duĠjiaoĠ
ĠheĠ siĠ
ĠbuĠ zhuĠ
beiĠ po
jinĠ menĠ
zhengĠ houĠ
jingĠ juĠ
ĠdaĠ suanĠ
ĠkeĠ xueĠjiaĠ
sheĠ tuanĠ
zhouĠ wuĠ
quanĠ daoĠ
guĠ quanĠ
ĠgongĠ jueĠ
ĠtaĠmen ĠyuĠ
ĠweiĠsiĠ teĠ
ĠgaiĠbianĠ ziĠ
luĠwa ĠerĠshengĠ
f ĠĠĠ
Ġ leng
Ġ 1960
Ġ 1937
wei ĠyiĠjiĠ
luo ĠxiĠ
kai ĠguoĠ
yao ĠyuĠ
zhuan ĠxianĠ
cu ĠchengĠ
heĠ erĠ
ĠyouĠ shengĠ
xingĠ cheĠ
yuanĠ dongĠ
jianĠ die
chengĠ menĠ
huaĠ fenĠweiĠ
guanĠ wangĠ
ĠdaĠ qiao
qianĠ tiĠ
zhangĠ jiaĠ
zhangĠ chengĠ
banĠ gong
laiĠ enĠ
lianĠ suoĠ
jiuĠ mingĠ
bianĠ huiĠ
chuanĠ jiaoĠ
gouĠ ruĠ
ĠyiĠzhiĠ jiĠ
wuĠkeĠ lanĠdeĠ
ĠyaoĠ qiu
xingĠyuĠ leiĠ
fuĠza ĠdeĠ
8 ĠgongĠliĠ
Ġ Fa
Ġ 1964ĠnianĠ
bi ĠliĠyaĠ
42 ĠnianĠ
ĠshiĠ jiĠshiĠ
ĠyiĠ liangĠ
ĠjiĠ geĠ
ĠzhiĠ shangĠ
zhongĠ duoĠ
ĠzaiĠ changĠ
jieĠ shao
keĠ cheĠ
ĠxiĠ riĠbenĠ
jingĠ taiĠ
duĠ tuĠ
danĠ daoĠ
ruĠ tongĠ
jiuĠ yeĠ
xieĠ huiĠdeĠ
quanĠ shengĠ
guĠ yuanĠ
maĠ niĠ
ĠwuĠ lunĠ
1Ġ miĠ
kanĠ dengĠ
ĠsheĠ xianĠ
ĠĠĠA Ġ
keĠsaĠsiĠ zhouĠ
1 ĠzhiĠ
h ĠĠĠ
Ġ 1977ĠnianĠ
ping ĠheĠ
sui ĠyiĠ
bie ĠrenĠ
nu ĠsiĠ
to Ġ
62 ĠnianĠ
sis Ġ
fuĠ diĠ
ĠqiĠ daoĠ
shuĠ niu
xiaoĠ duiĠ
luoĠ naĠ
quanĠ guo
huĠ anĠ
zongĠ seĠ
tuĠ jueĠ
sanĠ fenĠzhiĠ
ĠgeĠ linĠ
ĠtaiĠ beiĠshiĠ
ĠmuĠ qin
ĠzhanĠ muĠsiĠ
ĠluoĠ neĠ
canĠyuĠ zheĠ
yingĠxiang ĠliĠdeĠ
ĠĠĠxiaĠ shuĠ
ĠhouĠlai ĠzaiĠ
Ġ VĠ
ĠĠĠ waiĠ
xiang ĠbuĠ
mi ĠbuĠ
ben ĠzhongĠ
rui ĠshiĠdeĠ
cang ĠyuĠ
guai ĠwuĠ
ĠweiĠ xieĠ
guoĠ qiĠ
ĠyouĠ liangĠgeĠ
gongĠ cheng
gongĠ yongĠ
jianĠ guanĠ
daoĠ changĠ
faĠ junĠ
faĠ dingĠ
yingĠ yangĠ
ĠdaĠ daĠ
jiaoĠ tongĠbuĠ
duiĠ zhanĠ
junĠ yongĠ
huoĠ pao
ĠfuĠ nieĠ
ĠziĠ jinĠ
ĠyiĠjiĠ jiĠ
douĠ nengĠ
ĠshenĠ tiĠ
ĠĠĠshiĠ jiĠ
ĠtaĠmen ĠshiĠ
ĠdiĠyiĠ ciĠ
yinĠqiĠ leĠ
ĠjianĠzhuĠ mianĠjiĠ
jiangĠxiĠ shengĠ
yaĠmeiĠ niĠya
feiĠteĠ lieĠ
Ġ xueĠyuanĠ
ĠĠĠ bingĠ
si ĠweiĠerĠ
1949 ĠnianĠ
41 Ġ
ĠshiĠ hanĠguoĠ
ĠyiĠ tianĠ
ĠweiĠ jingĠ
youĠ xingĠ
ĠyouĠ chengĠweiĠ
ĠqiĠ leĠ
chuĠ beiĠ
yeĠ yinĠ
zuoĠ keĠ
xinĠ jiangĠweiĠwuĠerĠ
gaiĠ sheĠ
minĠ bingĠ
teĠ ding
yunĠ xu
paiĠ wangĠ
paiĠ xuĠ
ĠxianĠ luĠkouĠ
chongĠ qing
piĠ quanĠguoĠzhongĠdianĠwenĠwuĠbaoĠhuĠdanĠweiĠ
chuangĠ shangĠ
ĠshangĠ haiĠshiĠ
kaoĠ liangĠ
ĠdeĠyiĠgeĠ quĠ
ĠĠĠ Fi
ĠĠĠ zaiĠyiĠ
bai ĠjiĠ
gang ĠdaoĠ
sa ĠliĠ
40 ĠnianĠ
43 Ġ
ĠyuĠ 2021
buĠ shuĠ
fuĠ lang
ĠqiĠ yuanĠyuĠ
dongĠ yinĠduĠ
ĠjiaĠ qingĠ
yaĠ teĠ
ĠfuĠ teĠ
guĠ tiĠ
suĠ chengĠ
feiĠ chengĠ
chuanĠ foĠjiaoĠ
jueĠ ceĠ
ĠjinĠ siĠ
eĠ lieĠ
youĠjiĠ duiĠ
ĠtangĠ chaoĠ
bianĠchengĠ leĠ
luoĠfuĠ siĠkeĠ
cheĠrenĠ ciĠ
Ġ nengĠgouĠ
Ġ 1975ĠnianĠ
li ĠxiangĠ
da ĠliĠyuĠ
ke ĠzhongĠ
zhou ĠdiĠ
tian ĠheĠ
hao ĠzhiĠ
huan ĠxianĠ
shuang ĠxiangĠ
tes Ġ
ĠyuĠ liĠ
youĠ xiuĠ
ĠyouĠ gaiĠ
yuanĠ shuai
jieĠ daiĠ
ziĠ ji
jinĠ shengĠweiĠ
shouĠ tiĠ
yanĠ chiĠ
taiĠ zongĠ
dianĠ dongĠ
pingĠ fenĠ
minĠ ganĠ
ĠtaĠ keĠyiĠ
duoĠ yangĠxingĠ
haoĠ maĠ
leiĠ bieĠ
ĠzheĠ shouĠ
ĠzhuĠ ruĠ
kaĠ teĠ
2Ġ gongĠliĠ
nianĠ lingĠ
daoĠshiĠ yueĠtaiĠ
ĠĠĠbuĠ guoĠ
ĠheiĠlongĠjiangĠ shengĠ
5 ĠwanĠ
Ġ nie
ĠĠĠ juĠliĠ
ĠĠĠ 7Ġ
ĠĠĠ guiĠdaoĠ
cheng ĠliĠyiĠ
wai ĠdiĠ
ting ĠĠĠ
gang ĠzhiĠ
pu ĠbuĠ
piao ĠdeĠ
cu ĠshiĠ
zei Ġ
ĠyiĠ wanĠ
guoĠ junĠ
ĠerĠ geĠ
baoĠ guangĠ
xiaĠ menĠ
yongĠ youĠdeĠ
ĠjiaĠ daĠ
lianĠ qiuĠ
ĠshangĠ wuĠ
ĠshiĠweiĠyuĠ wuĠkeĠlanĠ
sheĠliĠ leĠ
4 ĠhaoĠ
£ Ġ
Ġ qiu
Ġ 78
Ġ luĠdeĠ
ao ĠbuĠ
zhi ĠshiĠdeĠ
guo ĠĠĠ
gu ĠzhiĠ
ma ĠdaĠ
zong ĠrenĠkouĠdeĠ
suan ĠshiĠ
ĠyiĠ tiaoĠ
ĠyouĠ zhongĠguoĠ
xiangĠ jieĠ
faĠ wenĠ
ĠriĠ yuanĠ
changĠ wuĠ
ĠsiĠ faĠ
dengĠ jiangĠ
ĠxianĠ shengĠ
ĠyiĠjiĠ qiĠtaĠ
ĠĠĠyiĠ xiaĠweiĠ
Ġjin ĠnianĠ
ruoĠ ganĠ
ĠhuoĠdeĠ leĠ
ĠweiĠyuĠgaiĠguoĠ zhongĠbuĠ
Ġfan ĠzhiĠ
Ġhou ĠrenĠ
Ġxu ĠliĠyaĠ
taiĠfengĠ jingĠbao
shengĠdaoĠ taiĠ
teĠlangĠ puĠ
Ġãĥ³ Ġ
0 ĠbiĠ
Ġ nong
Ġ onlyinclude
ĠĠĠ Y
xin ĠshiĠzhenĠ
yong ĠzhongĠ
ban ĠdiĠ
ling ĠzaiĠ
xu ĠyueĠ
deng ĠzhiĠwuĠ
kou ĠshiĠ
sha ĠyuĠ
peng ĠhuĠ
ĠyouĠ xuĠduoĠ
xiangĠ fanĠ
zhengĠ zhaoĠ
shouĠ jiaĠ
fangĠ daĠ
baoĠ gao
ĠfuĠ luĠ
ĠziĠ chengĠ
ĠzhongĠguoĠ guoĠminĠdangĠ
ĠsanĠ geĠ
zongĠduĠ fuĠ
jiaoĠliuĠ daoĠ
Ġonlyinclude Ġ
Ġ tuo
Ġ nanĠbuĠ
Ġ 1976ĠnianĠ
ĠĠĠ mo
ĠĠĠ longĠ
zhi ĠshiĠyiĠ
quan ĠnianĠ
zhen ĠliĠ
liu ĠzhongĠ
san ĠriĠ
ceng ĠjiĠ
can ĠjianĠ
45 ĠnianĠ
text Ġ
ĠweiĠ taiĠwanĠ
ĠyouĠ diĠ
zhuĠ chi
ĠxiĠ shuĠ
juĠ jue
ciĠ keĠ
ruĠ wuĠ
quanĠ chengĠ
ĠgeĠ laĠ
ĠyeĠ jianĠ
taoĠ huiĠ
ĠnianĠjianĠ chengĠ
anĠdeĠ lieĠ
ĠkaĠ laĠ
ĠnvĠ xingĠweiĠ
ĠliĠheĠ wuĠzhengĠzhuangĠganĠranĠzheĠ
dongĠcheĠ zuĠ
meiĠguoĠyiĠ liĠnuoĠyiĠ
ĠfeiĠlvĠ binĠ
Ġ 140
Ġ Ta
bu ĠshiĠyongĠ
long ĠyuĠ
gun ĠqiuĠ
ĠyouĠ yuanĠ
shuĠ xueĠjiaĠ
riĠ jianĠ
ĠxiĠ junĠ
shouĠ beiĠ
huaĠ leĠ
tongĠ kuĠ
changĠ yongĠ
duiĠ daiĠ
yaoĠ daoĠ
saiĠ teĠ
ĠdeĠyiĠ tiĠ
tangĠ chaoĠ
ĠjingĠ chaĠ
leĠyiĠ fenĠ
guoĠminĠ dang
guoĠminĠ zhengĠfuĠ
ĠteĠbie ĠshiĠzaiĠ
1 ĠyiĠ
ĠweiĠ niĠ
daĠ yingĠ
jianĠ puĠ
ĠqiĠ huaĠ
xiaoĠ haiĠ
haiĠ yaoĠ
bianĠ tiĠ
suoĠ zuoĠ
suoĠ xiaoĠ
yunĠ suanĠ
baĠ biĠ
caiĠ fangĠshiĠ
tingĠ banĠ
yiĠshiĠ xingĠtaiĠ
ĠgenĠjuĠ 2010ĠnianĠmeiĠguoĠrenĠkouĠpuĠchaĠ
kangĠriĠ zhanĠzhengĠ
baĠleĠsiĠ tanĠ
a ĠkeĠ
Ġ in
Ġ gaoĠzhongĠ
Ġ 1960ĠnianĠ
ch ĠĠĠ
bei ĠzaiĠ
jin ĠliĠ
gu ĠshiĠdeĠ
wen ĠzaiĠ
ma ĠĠĠ
bian ĠzaiĠ
lin ĠjiĠ
bai ĠqiĠ
mai ĠdiĠ
kun Ġnan
46 Ġ
mm Ġ
ĠdeĠ xinĠ
ĠyuĠ daoĠ
daĠ dangĠ
erĠ zhanĠ
keĠ yongĠ
ziĠ shenĠdeĠ
huiĠ luĠ
chuĠ dongĠ
chuĠ fangĠ
jinĠ ciĠyuĠ
gaiĠ yongĠ
miĠ teĠ
duoĠ huiĠ
fanĠ chouĠ
shanĠ zhanĠ
sanĠ haoĠ
ĠxiangĠ fanĠ
gangĠ quĠ
ĠjuĠ baoĠdaoĠ
zhuanĠ ye
1Ġ gongĠliĠ
poĠ chanĠ
Ġdang ĠriĠ
huoĠdong ĠzhongĠ
Ġ2011 ĠnianĠ12ĠyueĠ31ĠriĠ
tanĠxianĠ duiĠ
zhuanĠkeĠ xueĠxiaoĠ
6 ĠshiĠ
Ġ Wi
Ġ 1968ĠnianĠ
ĠĠĠ laiĠ
biao ĠzhongĠ
xuan ĠyiĠ
feng ĠyiĠ
na ĠkeĠ
mao ĠliĠ
hen ĠjiĠ
ĠzhiĠ liuĠ
zhongĠ jianĠ
Ġyue ĠĠĠ
xiĠ junĠ
ĠyueĠ tanĠ
geĠ ziĠdeĠ
chengĠ xiĠ
chuĠ cunĠ
quĠ yuĠdeĠ
zhengĠ queĠdeĠ
yingĠ chiĠ
ĠdaĠ duiĠ
yinĠ siĠ
ĠsiĠ huĠ
zhouĠ xianĠ
shanĠ shangĠ
ĠbingĠ renĠweiĠ
ĠgongĠ minĠ
ĠjianĠ chiĠ
guangĠ huaĠ
ĠziĠ zhuĠ
ĠyeĠ wuĠ
ĠĠĠbenĠ zhanĠ
ĠweiĠyuĠgaiĠguoĠ nanĠbuĠ
gaoĠdengĠ jiaoĠyuĠ
jieĠquanĠguoĠ renĠdaĠdaiĠbiaoĠ
zhuangĠweiĠ linĠ
Ġ jia
Ġ tui
Ġ qia
Ġ 1935ĠnianĠ
en ĠheĠ
ĠĠĠ suiĠzhuĠ
cheng ĠĠĠ
ci ĠbuĠ
huo ĠzhongĠ
mu ĠzaiĠ
ning ĠboĠ
24 ĠnianĠ
ĠweiĠ teĠ
ĠyuĠ 2015
jinĠ jiangĠ
zuoĠ zhan
zuoĠ ciĠ
haiĠ zhanĠ
qingĠ chao
ĠfuĠ fuĠ
guĠ shengĠ
biaoĠ zhangĠ
zongĠ tongĠdeĠ
tangĠ naĠ
zhengĠzhiĠ weiĠyuanĠ
Ġer ĠyouĠ
Ġzong ĠheĠ
ĠxinĠzeng ĠjingĠwaiĠshuĠruĠ
duoĠlunĠ duoĠ
baoĠkuoĠyiĠxiaĠ wuĠzhongĠ
Ġ 67
Ġ ziĠzhiĠ
ĠĠĠ piĠ
zhong ĠdeĠyiĠgeĠ
dong ĠweiĠ
ying ĠqiĠ
dui ĠbuĠ
xiao ĠqiĠ
sha ĠliĠ
hun ĠxiaoĠ
jianĠ juĠ
huiĠ seĠ
chuĠ quĠ
ĠxiĠ linĠ
ĠdaĠ suan
duĠ chengĠ
qingĠ chun
shenĠ bianĠ
xieĠ leĠ
yangĠ quĠ
maĠ tou
xiuĠ shanĠ
ĠnanĠ fangĠ
zuĠqiuĠ jiaĠjiĠ
hengĠ kua
ĠĠĠzaoĠnianĠ shengĠhuoĠ
ĠqiĠzhong ĠyiĠgeĠ
Ġ 79
Ġ St
Ġ kenĠ
ĠĠĠ qiuĠ
ĠĠĠ 1999ĠnianĠ
du ĠqiĠ
ban ĠzhongĠ
ba ĠjiĠ
hao ĠyiĠ
feng ĠliĠ
na ĠjiĠ
pai ĠzaiĠ
1940 ĠnianĠ
ĠshiĠ riĠben
ĠweiĠ huĠ
xiangĠ yingĠdeĠ
ĠdaĠ junĠ
liangĠ jianĠ
ĠdanĠ que
ĠbeiĠ fangĠ
guiĠ ze
hanĠ minĠguoĠ
qiĠshiĠ daiĠ
daiĠbiao ĠdaĠ
haĠerĠ keĠfuĠ
touĠruĠ fuĠwuĠ
wangĠqiuĠ gongĠkaiĠsaiĠ
Ġ kuan
Ġ 32
Ġ 1942
Ġ 1943
Ġ So
Ġ yaĠliĠshanĠdaĠ
ĠĠĠ ai
ĠĠĠ 11
ĠĠĠ yinĠciĠ
zi ĠyueĠ
duan ĠjiĠ
duan ĠzhiĠ
chong ĠxianĠ
80 ĠnianĠdaiĠ
ĠshiĠ shengĠ
ĠyouĠ guoĠ
wuĠ xiaoĠ
faĠ diĠ
chuĠ waiĠ
jingĠ yingĠdeĠ
tongĠ banĠ
duĠ tongĠ
nanĠ quĠ
miĠ qie
anĠ chaĠshiĠ
ĠtaĠ kaiĠshiĠ
diĠyiĠ jiaĠ
gengĠ haoĠdeĠ
guoĠjiĠ saiĠshiĠ
kanĠ saĠsiĠ
xingĠzhengĠ zhangĠguanĠ
ĠshenĠ duĠ
xuanĠbuĠ jiangĠ
wanĠchengĠ houĠ
guoĠshiĠ daiĠ
fanĠduiĠ paiĠ
taiĠpingĠ yang
guoĠminĠ geĠmingĠ
dianĠying ĠzhiĠ
siĠlanĠ jiaoĠ
Ġ Do
Ġ wuĠdeĠ
xi ĠzhiĠxingĠ
ĠĠĠ ha
ĠĠĠ shangĠyeĠ
mei ĠyiĠgeĠ
huo ĠqiĠ
na ĠyuĠ
lin ĠjiaĠ
chuan ĠyuĠ
gan ĠheĠ
gongĠ ruĠ
juĠ huaĠ
changĠ guanĠ
wenĠ nuan
saiĠ huiĠ
laĠ shengĠ
baiĠ eĠluoĠsiĠ
diĠyiĠ zuoĠ
shaĠ leĠ
genĠ sui
ĠshiĠwuĠ suoĠ
waiĠguoĠ renĠ
ĠzaiĠjiaĠ shangĠ
xiuĠzhengĠ anĠ
xingĠzheng ĠzhongĠxinĠ
Ġ 1975
ĠĠĠ chen
ĠĠĠ dangĠshiĠ
ĠĠĠ rongĠyuĠ
yue ĠyouĠ
jie ĠbuĠ
fei ĠweiĠ
lie ĠzhiĠ
chao ĠrenĠ
chan ĠchuĠ
nv ĠshengĠ
ly Ġ
ĠdeĠ daĠ
zhongĠ gongĠzhongĠyangĠ
jieĠ yanĠ
zhuĠ houĠ
ĠxiĠ huan
ĠxiĠ ceĠ
zhengĠ dang
xiaĠ shuĠdeĠ
bianĠ huaĠdeĠ
lingĠ jianĠ
yunĠ keng
ĠdaoĠ guangĠ
ĠbeiĠ poĠ
niĠ poĠerĠ
zhuanĠ huan
tanĠ ceĠ
ĠdangĠ diĠdeĠ
jueĠseĠ banĠyan
Ġ1940 ĠnianĠ
Ġ 1947
Ġ ãģĦ
Ġ gongĠshiĠ
Ġ tĠ
Ġ 1934ĠnianĠ
you ĠliĠdeĠ
huo ĠyouĠ
tu ĠzhiĠ
zhuang ĠheĠ
tuan ĠyuanĠ
peng ĠzhangĠ
xiĠ huanĠ
yuanĠ youĠdeĠ
fuĠ wuĠdeĠ
jieĠ shuĠshiĠ
guanĠ zhangĠ
shenĠ xiangĠ
boĠ huiĠ
kongĠ jianĠdeĠ
zhaoĠ mingĠ
keĠyiĠ youĠ
ĠnianĠ6ĠyueĠ 1ĠriĠ
gaoĠsuĠ tieĠluĠ
ĠjinĠguanĠ ruĠciĠ
ĠshiĠziĠ lvĠ
Ġ bieĠ
Ġ dongĠjiĠ
Ġ zaoĠzaiĠ
dao ĠyueĠ
hui ĠweiĠyuanĠ
guan ĠliĠjiĠ
gai ĠrenĠ
wai ĠshiĠ
200 Ġ
zang ĠliĠ
ĠweiĠ zhongĠguoĠ
buĠ daoĠ
ĠheĠ gongĠ
ĠheĠ shengĠ
zhengĠ yiĠdeĠ
yeĠ zheĠ
tongĠ zhiĠdeĠ
zheĠ xueĠjiaĠ
xiaoĠ mie
danĠ dangĠ
qingĠ jingĠ
banĠ lvĠ
jiuĠ nengĠ
haoĠ laiĠwuĠ
ĠbingĠ danĠrenĠ
shuiĠ yuanĠ
ganĠ sheĠ
shaĠ moĠ
nongĠ ye
ĠboĠ geĠ
ĠĠĠdiĠ sanĠ
sanĠshiĠ siĠnianĠ
zaĠ zhiĠdeĠ
ĠmaoĠ zeĠdongĠ
jiaoĠchaĠ kouĠ
ĠĠĠbenĠshuĠ baoĠkuoĠyiĠxiaĠwuĠzhongĠ
Ġ neng
Ġ quĠyuĠ
Ġ 1972ĠnianĠ
sh ĠĠĠ
ĠĠĠ 1945
ĠĠĠ zhouĠ
ĠĠĠ xieĠ
qi ĠshiĠyongĠ
xin ĠjiĠshuĠ
lai ĠzaiĠ
duo ĠyouĠ
10 ĠshiĠ
heĠ nanĠ
ĠzhongĠ duanĠ
xingĠ rongĠ
gongĠ guĠ
fuĠ kaĠ
ĠqiĠ shengĠ
yingĠ jianĠ
qianĠ zuoĠ
haiĠ an
ĠfuĠ qiĠ
gaoĠ chuĠ
ĠbingĠ ruĠ
leiĠ muĠ
ĠyanĠ jiu
yuanĠzhuĠ min
Ġzu ĠjiĠ
zhouĠliĠ daĠxueĠ
zhongĠyao ĠxingĠ
ĠhaĠerĠ binĠshiĠ
hangĠzhanĠ louĠ
3 ĠfenĠ
g ĠĠĠ
Ġ Pi
ĠĠĠ guiĠ
you ĠnianĠ
er ĠshiĠyiĠ
shu ĠnianĠ
ben ĠweiĠ
yao ĠyiĠ
tian ĠyuĠ
zhuang ĠxiangĠ
zan ĠyangĠ
ter ĠĠĠ
ĠzhiĠ liĠyuĠ
keĠ jiaĠ
shuĠ zhangĠ
ĠxiĠ guanĠ
quĠ fuĠ
yanĠ geĠdeĠ
yeĠ jiangĠ
xinĠ shangĠ
biĠ yaoĠdeĠ
jiuĠ jinĠshanĠ
suoĠ enĠ
maĠ geĠliĠ
ĠyinĠ yingĠ
ĠgaiĠ mingĠ
ĠgaiĠ mingĠweiĠ
gouĠ chengĠdeĠ
ĠfaĠ sheĠ
ĠyingĠ pianĠ
ĠĠĠzhiĠ houĠ
Ġgao ĠshiĠ
chanĠpin ĠdeĠ
puĠluoĠ wangĠsiĠ
Ġ ken
Ġ mang
Ġ My
Ġ shanĠxiĠshengĠ
Ġ 1933ĠnianĠ
Ġ 1927ĠnianĠ
ĠĠĠ zheĠzhongĠ
ge ĠshiĠjiĠ
dong ĠdiĠ
bing ĠdiĠ
ĠweiĠ neng
ĠzhiĠ zhuĠ
ĠrenĠ junĠ
ĠheĠ geĠ
ĠbuĠ yuanĠ
zhuĠ gongĠ
daoĠ xianĠ
fangĠ huĠ
qianĠ wanĠ
taiĠ zuĠ
xiaĠ lieĠ
wangĠ gongĠ
lingĠ hunĠ
xuanĠ gua
baĠ qiangĠ
ĠyiĠjiĠ qiĠ
tangĠ muĠ
2Ġ ri
ranĠ seĠ
zhunĠ que
yinĠduĠ jiaoĠ
ĠmianĠ duiĠ
Ġhu ĠyuĠ
ĠxiongĠ yaĠliĠ
ĠbuĠsiĠ baoĠ
ĠqiĠzhongĠnanĠ xingĠweiĠ
aiĠhaoĠ zheĠ
dianĠliĠjiĠ cheĠ
Ġ ãĤ¹
Ġ zaoĠdaoĠ
ĠĠĠ zai
fan ĠxingĠ
tan ĠxingĠ
kan ĠchuĠ
tun ĠbingĠ
cal ĠĠĠ
diĠ qu
ĠzhongĠ jieĠ
ĠzhongĠ liangĠ
daĠ jieĠ
yuanĠ dingĠ
chengĠ yuanĠdeĠ
beiĠ daoĠ
ĠdiĠ shangĠ
changĠ zhuĠ
jiaoĠ huiĠdeĠ
wanĠ juĠ
duoĠ tianĠ
fengĠ xiangĠ
shaĠ teĠ
canĠ yuĠdeĠ
ĠjiangĠ junĠ
youĠyiĠ dingĠ
laoĠ huĠ
leĠyiĠ xiĠlieĠ
erĠshiĠ yuĠ
ĠlianĠ saiĠ
ĠmeiĠguoĠ guoĠjiaĠ
xiangĠshiĠ juĠrenĠ
Ġbo ĠerĠ
genĠju ĠdiĠ
Ġ1970 ĠnianĠ
ĠĠĠguangĠ xuĠ
6 ĠmingĠ
Ġ 1956
ĠĠĠ mingĠchengĠ
hou ĠliĠ
bao ĠerĠ
du ĠerĠ
zhang ĠqiĠ
ya ĠqiĠ
ping ĠyuĠ
kai ĠshiĠyiĠ
deng ĠguoĠ
tian ĠbuĠ
zhiĠ yeĠ
keĠ yanĠ
shouĠ du
zhanĠ ling
daiĠ haoĠ
wanĠ faĠ
ĠdanĠ dangĠ
piĠ luĠ
shuangĠ chongĠ
ĠzuoĠ jiaĠ
ĠyiĠjingĠ beiĠ
2001ĠnianĠ zongĠrenĠkouĠ
laĠjiĠ miĠerĠ
ĠĠĠgaiĠdiĠ 2001ĠnianĠzongĠrenĠkouĠ
Ġ Te
Ġ jingĠliĠ
Ġ jiaĠshiĠ
Ġ qingĠnianĠ
ĠĠĠ Ha
ba ĠzaiĠ
sai ĠyiĠ
lan ĠrenĠ
na ĠbuĠ
cun ĠyouĠ
bie ĠmingĠ
ĠjiĠ suan
ĠjiĠ linĠ
ĠheĠ taĠdeĠ
xiangĠ dangĠyuĠ
shouĠ gou
ĠtaĠ yinĠ
tianĠ wangĠ
haoĠ xianĠ
ĠgongĠ yingĠ
puĠ dunĠ
ĠgeĠ luĠ
ĠtongĠ yang
xueĠyuanĠ yuanĠzhangĠ
xueĠshengĠ huiĠ
ĠĠĠzhiĠ beiĠ
chiĠxuĠ daoĠ
Ġ6 ĠsuiĠrenĠkouĠ
Ġbo ĠsiĠ
jinĠyiĠ buĠdeĠ
yunĠshiĠ keng
Ġ tuĠdiĠ
ĠĠĠ cengĠ
chu ĠyiĠgeĠ
jin ĠweiĠzhiĠ
gongĠ duĠ
wuĠ laĠ
beiĠ juĠ
houĠ qin
yanĠ jinĠ
aĠ kenĠseĠ
shaoĠ qingĠ
yueĠ laiĠyueĠ
6Ġ gongĠliĠ
Ġmei ĠliĠ
lingĠdaoĠ xiaĠ
Ġmo ĠerĠ
cuoĠ wuĠdeĠ
xiaoĠfeiĠ zheĠ
Ġ t
Ġ lian
Ġ 1955
Ġ à¤
ji ĠshiĠdeĠ
ou ĠdeĠ
ĠĠĠ peiĠ
dong ĠqiĠ
bao ĠzaiĠ
huo ĠdeĠyiĠ
ni ĠrenĠ
che ĠyuĠ
chuang ĠliĠdeĠ
zan ĠshangĠ
zhui ĠzongĠ
39 Ġ
47 ĠnianĠ
ĠshiĠ douĠ
ĠdeĠ chengĠjiĠ
ĠweiĠ xinĠ
zhuĠ chuĠ
zhuĠ junĠ
zhuĠ boĠ
ĠxiĠ wang
baoĠ mingĠ
huaĠ chengĠ
xiaĠ laiĠdeĠ
zuiĠ chu
ĠdanĠ gaiĠ
ĠzheĠ leiĠ
ĠyuanĠ xianĠ
Ġtong ĠnianĠ7ĠyueĠ
maoĠ zeĠ
ĠyinĠciĠ taĠ
zaiĠyiĠ ciĠ
hunĠ luan
ĠyiĠsiĠlanĠ jiaoĠ
juĠfeng ĠzhongĠxinĠ
ĠĠĠ So
zhan ĠĠĠ
gu ĠxiĠlaĠ
huo ĠyuĠ
duo ĠzaiĠ
kan ĠqiĠlaiĠ
chuo ĠhaoĠ
ĠyiĠ shangĠdeĠ
ĠjiĠ bai
ĠzhiĠ neng
ĠheĠ dongĠ
daĠ geĠming
xingĠ rong
wuĠ junĠ
zhuĠ jiangĠ
shengĠ tai
mingĠ que
yeĠ cengĠ
tiĠ duĠ
pingĠ tanĠ
yaĠ daoĠ
cheĠ shenĠ
huĠ guangĠ
ĠgongĠ gaoĠ
zhaoĠ shengĠ
ĠciĠ riĠ
langĠ manĠ
ĠdiĠerĠ geĠ
ĠteĠ bieĠ
ĠĠĠliĠ ruĠ
ĠweiĠyuĠfaĠguoĠ daĠdongĠbuĠdaĠquĠ
ĠW Ġ
Ġlu ĠyiĠsiĠ
2019ĠguanĠzhuangĠbingĠduĠ bingĠyiĠ
Ġ xi
Ġ Bo
Ġ buĠyiĠ
Ġ hĠ
ĠĠĠ xingĠtaiĠ
xue ĠyiĠ
yong ĠguoĠ
qing ĠjiĠ
62 Ġ
ĠdeĠ guiĠdaoĠ
siĠ wang
jianĠ xiĠ
jianĠ geĠ
jieĠ yunĠ
xianĠ xianĠ
leĠ sanĠ
huaĠ zuoĠ
huaĠ tingĠ
yingĠ gai
guanĠ mingĠ
duĠ caiĠ
muĠ changĠ
wanĠ cheng
ĠshiĠjiĠ weiĠ
ĠzhongĠguoĠ guoĠjiaĠ
Ġtong ĠjiĠ
rongĠ ruĠ
zhuĠyiĠ heĠ
ĠtongĠ changĠshiĠ
ĠzuoĠ zheĠ
shengĠwuĠ xueĠjiaĠ
ĠfenĠbuĠyuĠ nanĠmeiĠzhouĠ
Ġ 1974ĠnianĠ
Ġ 1931ĠnianĠ
ĠzhiĠ jiaĠ
zhongĠ ziĠ
huiĠ yanĠ
ĠxiĠ shengĠ
nanĠ duĠ
quanĠ leiĠdaĠ
baiĠ leĠ
ĠwuĠ hanĠ
touĠ sheĠ
cengĠ mianĠ
zhongĠguoĠ gongĠchanĠdangĠ
ĠwanĠ dunĠ
dianĠshiĠ tai
kaiĠfaĠ quĠ
haĠerĠ bin
youĠxianĠ gongĠsiĠ
Ġ rong
Ġ 33
ĠĠĠ Ex
ĠĠĠ shanĠ
ĠĠĠ yiĠshiĠ
ĠĠĠ xiaoĠxingĠxingĠ
qi ĠĠĠ
cheng ĠyiĠzhiĠ
zuo ĠqiĠ
zhuan ĠzhuĠ
zhuan ĠyiĠzhiĠ
lun ĠzaiĠ
ĠshiĠ baoĠ
ĠdeĠ xiĠ
ĠzhongĠ zhengĠ
ĠyueĠ kanĠ
zhuĠ huaĠ
shuĠ dianĠ
houĠ caiĠ
mingĠ daiĠ
zhanĠ zhengĠshiĠ
xinĠ ze
tiĠ huanĠ
fenĠ duiĠ
yongĠ daoĠ
sheĠ zhengĠ
ĠdeĠyiĠ tiaoĠ
ĠjinĠ gangĠ
ranĠ shaoĠ
anĠdeĠ luĠ
Ġ dun
Ġ zhuĠrenĠ
Ġ 1941ĠnianĠ
zheng ĠshiĠjieĠ
69 ĠnianĠ
61 ĠnianĠ
name Ġ
ĠyuĠ 2019
Ġli ĠĠĠ
yuanĠ laiĠ
ĠbuĠ shao
jieĠ gouĠdeĠ
zhuĠ suoĠ
shangĠ qianĠ
jingĠ queĠ
leĠ duoĠ
tongĠ yangĠdeĠ
fenĠ faĠ
ĠkeĠ jiaĠ
ĠfuĠ jiaĠ
quanĠ jingĠ
tianĠ qiaoĠ
huanĠ jingĠzhongĠ
cunĠ huoĠ
yueĠ tuanĠ
ĠpingĠfangĠ yingĠliĠ
ĠzhanĠ douĠ
ĠnianĠ8ĠyueĠ 1ĠriĠ
ĠneiĠ rong
ĠxingĠzhengĠ yuanĠ
ĠgaiĠshengĠfenĠweiĠfaĠguoĠ zhongĠ
ĠshiĠwuĠkeĠ lanĠxiĠ
Ġcom Ġ
xian ĠshiĠqiĠ
zi ĠrenĠ
ci ĠxiĠ
ru ĠqiĠ
ting ĠyiĠ
11 ĠgeĠ
mao ĠsiĠ
ning ĠxiaĠ
ĠshiĠ haoĠ
ĠyiĠ shuoĠ
heĠ tongĠ
diĠ yaĠ
ĠheĠ daĠ
geĠ luoĠ
ĠbuĠ juĠ
xiangĠ dang
daoĠ taĠ
chuĠ xianĠyuĠ
tongĠ lingĠ
pingĠ anĠ
ĠfuĠ qinĠshiĠ
bianĠ houĠ
waiĠ xianĠ
ĠchuĠ ziĠ
ĠjieĠ jueĠ
songĠ jiangĠ
ĠyingĠ gaiĠ
zuĠzhiĠ buĠ
ĠzhangĠ danĠquĠ
ĠnianĠ3ĠyueĠ 1ĠriĠ
ĠwenĠ jianĠ
liuĠxingĠ yinĠyueĠ
geĠlunĠ biĠya
luĠzhanĠ duiĠ
baĠjiĠsiĠ tanĠ
j Ġ
Ġ ce
Ġ siĠjiĠ
Ġ juĠjiĠ
xin ĠweiĠ
liang ĠbuĠfenĠ
nan ĠdiĠquĠ
pi ĠdeĠ
tou ĠbaoĠ
00 Ġ
liao ĠfaĠ
chuang ĠdeĠ
pa ĠlaĠ
37 Ġ
ĠzhiĠ suoĠzaiĠ
ĠyuĠ 2016
ĠyouĠ haoĠ
changĠ xiaoĠ
qianĠ jingĠ
haiĠ tanĠ
sheĠ qunĠ
laĠ dingĠyuĠ
waiĠ jiao
chuanĠ ran
lieĠ ning
tuoĠ puĠ
ĠdeĠrenĠ kouĠweiĠ
ĠĠĠzhongĠ huaĠminĠguoĠ
chengĠnianĠ renĠ
Ġ Ja
Ġ 120
Ġ shangĠdeĠ
Ġ heĠjiĠ
li ĠjiĠ
ĠĠĠ Wi
ĠĠĠ Hi
pao ĠtaiĠ
ĠshiĠ dongĠ
ĠzhiĠ qiuĠduiĠ
guoĠ min
ĠzaiĠ meiĠ
ĠrenĠ chengĠ
gongĠ yanĠ
erĠ geĠ
yingĠ quĠ
guanĠ shuiĠ
danĠ ciĠ
qingĠ bao
ĠfuĠ lang
ĠfuĠ yinĠ
zhouĠ quĠ
xuĠ gouĠ
kaiĠ yuanĠ
chengĠweiĠ jiĠ
ĠbaoĠ faĠ
youĠyiĠ mingĠ
daĠxueĠ jiaoĠshouĠ
ĠnianĠ9ĠyueĠ 1ĠriĠ
ĠduoĠ shuĠ
Ġrang ĠtaĠ
Ġbi ĠliĠshiĠ
bengĠ kuiĠ
ĠzhiĠluĠ houĠ
Ġ yan
Ġ Ti
Ġ huanĠjingĠ
ĠĠĠ wanĠliĠ
she ĠyiĠ
lei ĠdiĠ
nei ĠweiĠ
kua ĠguoĠ
center Ġ
zhongĠ guoĠdeĠ
qiĠ tiĠ
chuĠ xuanĠ
shangĠ cengĠ
xueĠ jieĠ
jiaoĠ xiang
fenĠ shouĠ
taiĠ shangĠ
nanĠ changĠ
qingĠ chenĠ
banĠ changĠ
shenĠ cha
teĠ sheĠ
cheĠ tui
cheĠ huoĠ
fanĠ shouĠ
zeĠ huiĠ
ĠgeĠ ziĠ
ĠgaiĠ xiaoĠ
ganĠ rao
Ġtong ĠshiĠzaiĠ
ĠmeiĠ junĠ
4Ġ gongĠliĠ
ĠyinĠweiĠ taĠmenĠ
ĠriĠqiĠ yongĠ
jianĠchaĠ yuĠshiĠ
peiĠyinĠ yuanĠ
jieĠmu ĠzhongĠ
Ġ 05
Ġ 1971ĠnianĠ
ĠĠĠ yanĠjiuĠ
bi ĠweiĠ
dian ĠyiĠ
xia ĠdiĠ
hai ĠzhongĠ
ben ĠyuĠ
tian ĠzhongĠ
ze ĠshiĠzaiĠ
lin ĠdiĠ
shao ĠxingĠ
shuo ĠdaoĠ
pa ĠdeĠ
48 ĠnianĠ
77 ĠnianĠ
MV Ġ
zhongĠ qiĠ
ĠzaiĠ dangĠshiĠ
ĠrenĠ quanĠ
xingĠ zouĠ
gongĠ qiĠ
geĠ linĠ
jieĠ riĠ
beiĠ huiĠ
beiĠ jingĠdeĠ
ciĠ changĠ
yeĠ jieĠ
zhangĠ haoĠ
yongĠ chiĠ
banĠ kuaiĠ
liuĠ ruĠ
menĠ jiangĠ
puĠ jingĠ
gangĠ xianĠ
zhuanĠ lanĠ
zhaoĠ pian
hangĠ yunĠ
ĠshenĠ zhenĠ
ĠĠĠyiĠ banĠ
yanĠjiu ĠrenĠyuanĠ
boĠwuĠ yuanĠ
canĠmou ĠbuĠ
ĠĠĠhouĠ xuĠ
Ġ ×
Ġ shan
Ġ Car
Ġ zhengĠdeĠ
Ġ pĠ
ĠĠĠ neiĠ
yue ĠqiĠ
ti ĠerĠ
ci ĠqiĠ
bao ĠguoĠ
zhen ĠyiĠ
tian ĠzaiĠ
tan ĠshiĠ
1898 ĠnianĠ
qiĠ zhongĠyiĠgeĠ
daĠ suanĠ
gongĠ pingĠ
chengĠ nuo
shengĠ zhangĠzaiĠ
shuĠ linĠ
dongĠ zhengĠ
tongĠ riĠ
ĠdaĠ naĠ
qianĠ miĠrenĠ
haiĠ huiĠ
zhenĠ jingĠ
dingĠ baoĠ
maĠ saĠzhuĠsaiĠ
suiĠ pianĠ
diĠyiĠ piĠ
ĠshengĠ muĠ
ĠsuiĠ houĠzaiĠ
dianĠyingĠ yuanĠ
leĠyiĠ xiangĠ
ĠaĠ boĠ
guangĠxiĠ zhuangĠ
Ġ 1928ĠnianĠ
jian ĠĠĠ
gu ĠkeĠ
fei ĠheĠ
shuo ĠtaĠ
52 Ġ
DVD Ġ
ĠyuĠ 2020
xingĠ faĠ
fuĠ shanĠ
zhengĠ xuanĠ
shouĠ ciĠzaiĠ
leĠ beiĠ
xueĠ sheng
lianĠ huaĠ
anĠ quanĠdeĠ
luoĠ muĠ
puĠ bian
ĠxianĠ changĠ
ĠpingĠ jieĠ
huanĠ jingĠdeĠ
zaoĠ qi
ĠshengĠ chuĠ
keĠyiĠ zhuiĠsuĠdaoĠ
kaĠ cheĠ
ĠshiĠjieĠ rangĠ
yiĠshiĠ zaiĠ
songĠ wangĠ
ĠxinĠ jiangĠ
ĠdeĠdiĠ xiaĠ
ĠjingĠ yingĠ
ĠtongĠ chengĠ
ĠnianĠ12ĠyueĠ 28ĠriĠ
baoĠkuoĠ leĠ
qunĠ dao
ĠzhongĠyangĠ junĠweiĠ
youĠjiĠ huiĠ
mingĠziĠ mingĠmingĠ
ĠerĠrenĠkouĠmiĠduĠweiĠmeiĠpingĠfangĠ qianĠmiĠrenĠ
gaoĠdengĠ faĠyuanĠ
e ĠjiĠ
Ġ g
Ġ zhu
Ġ Ne
Ġ jueĠseĠ
ĠĠĠ suoĠyouĠ
ĠĠĠ tongĠshiĠ
guan ĠbuĠ
ma ĠxiĠ
ba ĠrenĠ
shuai ĠluoĠ
ĠjiĠ jiangĠ
ĠyuĠ 2018
ĠyuĠ 2024
ĠliĠ yuanĠ
ĠheĠ liuĠyuĠ
huiĠ yiĠdeĠ
zhengĠ quan
zuoĠ yong
zheĠ liangĠ
xinĠ geĠ
haiĠ meiĠyouĠ
yangĠ chengĠ
liuĠ shouĠ
guiĠ shuĠ
meiĠguoĠ heĠ
nvĠ zi
youĠyiĠ weiĠ
riĠben ĠdiĠguoĠ
dongĠliĠ xueĠ
7 ĠshiĠ
Ġ zhan
Ġ Ri
Ġ paoĠ
Ġ xiaĠjiĠ
Ġ zanĠ
Ġ jiaĠyiĠ
Ġ 1962ĠnianĠ
ĠĠĠ dang
ĠĠĠ jingĠguoĠ
ming ĠĠĠ
dian ĠshiĠjiĠ
zhou ĠdaĠ
ding ĠjiaĠ
lie ĠrenĠ
qiang ĠjieĠ
pang ĠdaĠ
ck ĠĠĠ
67 ĠnianĠ
1895 ĠnianĠ
1896 ĠnianĠ
ĠshiĠ qingĠ
ĠweiĠ ruan
ĠjiĠ dongĠ
diĠ renĠ
jiaĠ zuĠdeĠ
jieĠ shu
chuĠ qiĠdeĠ
yanĠ hai
daiĠ shangĠ
xuanĠ lvĠ
liuĠ yanĠ
dangĠ zhuĠ
tuĠ po
guiĠ leiĠweiĠ
zhuanĠ touĠ
kongĠ jiangĠ
Ġri ĠĠĠ
ĠtaiĠ leiĠ
ĠlingĠ daoĠ
Ġ1 ĠgeĠ
ĠjiĠbaiĠ leĠ
faĠdianĠ changĠ
jiangĠxueĠ jinĠ
Ġ á
Ġ 1968
Ġ chanĠshengĠ
Ġ lieĠche
Ġ zhuoĠ
Ġ 1951ĠnianĠ
ĠĠĠ 1998
ĠĠĠ danĠshiĠ
hu ĠfuĠ
huo ĠyueĠyuĠ
shen ĠdaĠ
10 ĠwanĠ
pang ĠbianĠ
seng Ġ
ction Ġ
ĠyuĠ 2013
diĠ mingĠ
jiaĠ diĠ
xiaoĠ wuĠ
shenĠ mingĠ
menĠ waiĠ
niĠ aoĠ
ĠchuĠ yanĠ
zaoĠ leĠ
daĠxueĠ shengĠ
ĠquanĠ chengĠ
jinĠruĠ leĠ
xueĠzheĠ renĠweiĠ
lianĠheĠguoĠ jiaoĠkeĠwenĠ
Ġ2011ĠnianĠ renĠkouĠ
juĠleĠ buĠdeĠ
Ġ fo
Ġ Da
Ġ 1936ĠnianĠ
Ġ 1959ĠnianĠ
ĠĠĠ hong
ĠĠĠ Ra
ĠĠĠ xueĠxiaoĠ
ci ĠshiĠjianĠ
feng ĠxingĠqiĠ
lin ĠliĠ
cai ĠyiĠ
nie ĠciĠkeĠ
ĠyuĠ mingĠ
fuĠ chengĠ
wuĠ jiangĠ
xianĠ leĠ
huiĠ guĠ
ĠdiĠ buĠ
shouĠ dao
huaĠ nanĠ
qingĠ laiĠ
biĠ shuĠ
naĠ me
ĠzhuĠ geĠ
zhuanĠ ruĠ
aiĠ zhengĠ
jingĠjiĠ heĠ
henĠ shao
erĠshiĠ erĠnianĠ
ĠboĠ wuĠguanĠ
guoĠliĠ taiĠwan
ĠnianĠchuĠ shengĠyuĠ
guanĠli ĠweiĠyuanĠhuiĠ
q Ġ
Ġ xuan
Ġ Su
Ġ enĠ
ĠĠĠ Al
ĠĠĠ lanĠ
yue ĠyuĠ
jiang ĠbuĠ
luo ĠweiĠqiĠ
la ĠqiĠ
pin ĠheĠ
64 Ġ
41 ĠnianĠ
74 ĠnianĠ
by ĠĠĠ
guoĠ jiaĠjiĠ
ĠzaiĠ siĠ
gongĠ touĠ
jianĠ ruoĠ
ĠguoĠ xiaoĠ
zhuĠ zha
huiĠ gui
jinĠ miĠ
xinĠ chengĠliĠdeĠ
ĠkeĠ laĠkeĠ
zuĠ muĠ
xieĠ xinĠ
suĠ xiangĠ
ĠzhuĠ changĠ
ĠdeĠshiĠ yeĠ
ĠdongĠ haiĠ
nvĠ zuoĠ
ĠdangĠ xuanĠweiĠ
Ġxian ĠyouĠ
junĠshiĠ xingĠdongĠ
ĠgaoĠ xiong
zhongĠyuĠ yanĠ
ĠweiĠyuĠgaiĠguoĠ dongĠbeiĠbuĠ
ĠjinĠbiaoĠ saiĠ
Ġ diĠliĠ
Ġ cunĠzaiĠ
Ġ bianĠjiĠ
wei ĠshiĠjiĠ
mi ĠyuĠ
hao ĠbuĠ
pei ĠerĠ
fou ĠdingĠ
65 Ġ
pe Ġ
ĠweiĠ baoĠ
ĠliĠ mingĠ
daĠ liang
daĠ poĠ
jieĠ ciĠ
shengĠ pingĠ
huaĠ bingĠ
tongĠ leiĠ
bingĠ tuan
liangĠ duanĠ
miĠ teĠliĠ
tianĠ kongĠ
suĠ lvĠ
shanĠ beiĠ
ĠdeĠyiĠ xiĠlieĠ
tuĠ rang
aiĠ lunĠ
ĠyanĠ chuĠ
ĠnianĠ2ĠyueĠ 24ĠriĠ
sunĠ huaiĠ
puĠchaĠ guiĠdingĠ
5 ĠĠĠ
Ġ 66
Ġ 25Ġ
Ġ 1963ĠnianĠ
ĠĠĠ St
ĠĠĠ Bu
ĠĠĠ zuoĠpinĠ
wei ĠyiĠzhiĠ
xiang ĠguoĠ
lu ĠbuĠ
she ĠrenĠ
su ĠdiĠ
bai ĠliĠ
huan ĠheĠ
80 ĠnianĠ
EP Ġ
ĠdeĠ youĠ
ĠdeĠ mingĠ
ĠyiĠ mianĠ
ĠyuĠ xianĠ
Ġli ĠshiĠjianĠzhuĠ
ĠyouĠ geĠ
ĠrenĠ dingĠ
xiĠ shengĠ
gongĠ chiĠ
fuĠ yuanĠ
yanĠ huiĠ
daiĠ xiaoĠxingĠxingĠ
xieĠ tongĠ
duoĠ mianĠtiĠ
fanĠ rongĠ
tuĠ muĠ
ĠdanĠ ciĠ
ĠxiangĠ guanĠdeĠ
ĠyiĠjiĠ zhiĠ
kuoĠ sanĠ
qinĠ shuĠ
Ġyou ĠyiĠgeĠ
fangĠmianĠ junĠ
Ġwan ĠnianĠ
yinĠduĠ niĠxiĠyaĠ
Ġda ĠjiĠ
Ġmo ĠliĠ
Ġlin ĠjinĠ
ĠgeĠlunĠ biĠyaĠ
Ġ Hi
Ġ tieĠluĠ
Ġ nongĠyeĠ
Ġ 1973ĠnianĠ
ĠĠĠ xianĠdaiĠ
huo ĠbuĠ
duo ĠnianĠdeĠ
deng ĠzaiĠ
pu ĠyiĠ
nuo ĠweiĠqiĠ
pao ĠdanĠ
zun ĠxunĠ
ki Ġ
83 ĠnianĠ
land Ġ
buĠ lieĠtaĠ
ĠzaiĠ zheĠgeĠ
ĠerĠ zhanĠ
juĠ zhuĠdeĠ
pingĠ heng
boĠ lin
dengĠ renĠdeĠ
caiĠ jingĠ
ĠdanĠ yeĠyouĠ
tieĠ cheĠzhanĠ
mianĠjiĠ yueĠ
ĠdengĠ jinĠshiĠ
genĠ zhouĠ
ĠĠĠshengĠ taiĠ
jieĠjueĠ fangĠanĠ
tuiĠyiĠ houĠ
ĠzhongĠhuaĠ minĠ
Ġpei ĠheĠ
ĠxiĠtong ĠzhongĠ
aoĠdi ĠliĠdeĠ
kenĠtaĠjiĠ zhouĠ
p ĠĠĠ
Ġ gong
Ġ 1930ĠnianĠ
Ġ 1913ĠnianĠ
Ġ centerĠ
ĠĠĠ he
ĠĠĠ chongĠ
dong ĠdiĠquĠ
xia ĠyiĠgeĠ
la ĠdaĠ
tian ĠyouĠ
chong ĠqiĠ
47 Ġ
ĠshiĠ nanĠ
daĠ duiĠ
yuanĠ wangĠ
beiĠ lieĠweiĠ
faĠ lanĠ
jinĠ xianĠ
shangĠ kongĠ
huaĠ naĠ
shenĠ xinĠ
guĠ piaoĠ
dingĠ xiangĠ
dangĠ qianĠ
ĠdeĠyiĠ tiao
ĠbeiĠ geĠ
guiĠ ding
ĠdeĠshiĠ changĠ
ĠgaiĠ zhuang
shaĠ laĠ
canĠ baiĠ
xiuĠ yangĠ
chenĠ shuĠ
tuiĠ chiĠ
queĠ dianĠ
erĠshiĠ siĠ
haĠ maĠ
ĠdeĠrenĠ heĠ
ĠchengĠweiĠ leĠ
xiaĠjiĠ aoĠyunĠhuiĠ
geĠliĠ guanĠ
ĠweiĠyuĠgaiĠguoĠ xiĠnanĠbuĠ
ĠĠĠS Ġ
aoĠsiĠ ka
Ġkang ĠriĠ
chuangĠliĠ leĠ
waiĠweiĠ saiĠ
4 ĠshiĠ
Ġ 1972
Ġ zhunĠ
Ġ qunĠ
Ġ zaoĠnianĠ
ĠĠĠ con
ĠĠĠ suiĠzheĠ
lan ĠsiĠ
lie ĠyuĠ
chen ĠyuĠ
ST Ġ
TV Ġ
UA Ġ
COVID Ġ
deĠ yiĠ
ĠyiĠ tuĠ
heĠ nanĠshengĠ
erĠ buĠ
jiaĠ zhiĠdeĠ
ziĠ junĠ
shouĠ ru
shouĠ quĠ
baoĠ jianĠ
biĠ fenĠ
meiĠ guiĠ
tianĠ eĠ
zongĠ buĠweiĠyuĠ
moĠ huĠ
ĠgeĠ diĠ
ĠshiĠshiĠ houĠ
chuangĠ xiaĠ
songĠ huiĠ
Ġer ĠweiĠ
Ġzhe ĠweiĠ
caoĠ zongĠ
zaiĠyiĠ daĠliĠ
zuĠqiuĠ xieĠhuiĠ
Ġgai ĠguoĠ
xingĠchengĠ leĠ
lianĠbangĠ zhengĠfuĠ
ziĠran ĠbaoĠhuĠ
ĠyiĠmeiĠ yuanĠdeĠ
3 ĠjiaĠ
Ġ 1969
Ġ buĠdeĠ
Ġ 1953ĠnianĠ
ao ĠliĠ
ĠĠĠ II
le ĠyiĠzhiĠ
gao ĠjiĠzhongĠxueĠ
ran ĠshiĠ
cun ĠyiĠ
gan ĠzhiĠ
qin ĠjiaĠ
90 ĠnianĠ
is Ġ
71 ĠnianĠ
ĠyiĠ benĠ
ĠjiĠ tiĠ
ĠjiĠ yaĠ
ĠyuĠ 2012
ĠzhongĠ shenĠ
xingĠ bie
yuanĠ yin
fuĠ zongĠtongĠ
keĠ chuanĠ
daoĠ zhiĠdeĠ
jinĠ duĠ
leĠ daĠliangĠ
junĠ wuĠ
qingĠ xiangĠyuĠ
ĠxingĠ buĠ
jiuĠ geĠ
xieĠ ziĠ
quanĠ xinĠdeĠ
maĠ yaĠ
kaoĠ zhengĠ
haĠ saĠkeĠ
ĠquanĠ xianĠ
ĠxuanĠ zeĠ
ĠyiĠliĠ shaĠbaiĠ
Ġdi ĠshiĠyiĠ
Ġ zhuang
Ġ Ho
Ġ ãĦ
ĠĠĠ guoĠjiaĠduiĠ
shu ĠguoĠ
01 Ġ
ĠjiĠ suĠ
ĠliĠ chaĠ
ĠzaiĠ zhe
ĠrenĠ men
yuanĠ qiĠ
jianĠ qiĠ
jieĠ zouĠ
zhanĠ gongĠ
jiaoĠ shou
jiaoĠ huĠ
xiaoĠ mieĠ
xiaĠ xingĠ
danĠ weiĠdeĠ
meiĠ youĠdeĠ
ĠbingĠ tongĠguoĠ
paiĠ ziĠ
ĠziĠ yangĠ
puĠ xianĠ
ĠchuĠ shouĠ
ĠwuĠ daoĠ
huanĠ quĠ
ĠfaĠ dongĠ
keĠyiĠ beiĠ
ĠzhongĠguoĠ gongĠ
taoĠ tuoĠ
yanĠjiuĠ zheĠ
daiĠbiaoĠ zuoĠ
sheĠhuiĠ keĠxueĠ
ĠqingĠ qiuĠ
ĠluoĠ boĠteĠ
ĠĠĠyiĠ geĠ
ĠcengĠ danĠrenĠ
huiĠfuĠ zhuĠrenĠ
fenĠbie ĠzaiĠ
Ġque ĠfaĠ
mingĠniĠsuĠdaĠ zhouĠ
puĠchaĠguiĠdingĠ juĠminĠdianĠ
5 ĠhaoĠ
Ġ f
Ġ 1959
Ġ xuanĠjuĠ
Ġ keĠjiĠ
Ġ minĠzuĠ
Ġ qiĠweiĠ
ĠĠĠ with
bu ĠshiĠyiĠ
duo ĠkeĠ
lv ĠyuĠ
gui ĠyiĠ
shui ĠguoĠ
piao ĠjiaĠ
88 ĠnianĠ
53 ĠnianĠ
nve ĠdaiĠ
ĠdeĠ shouĠ
ĠyiĠ ge
ĠjiĠ longĠ
ĠyouĠ sanĠ
ĠxiĠ xianĠ
fangĠ sheĠ
banĠ xueĠ
duoĠ luoĠ
quanĠ ziĠ
laĠ tuo
ĠshiĠdeĠ guoĠdeĠ
1Ġ fenĠ
Ġdan ĠdeĠ
henĠ gaoĠ
ĠjiuĠ huiĠ
hengĠ xingĠdeĠ
ĠfengĠ baoĠ
daoĠshiĠ zhanĠtaiĠ
ĠkongĠ tai
lingĠxianĠ zhuĠyanĠ
1ĠhaoĠ xianĠ
ĠliĠxinĠ lvĠweiĠ0
ĠweiĠreĠdaiĠ danĠshuiĠyuĠ
ĠĠĠxiaĠshuĠ wuĠzhongĠ
Ġ lunĠdun
yan ĠyouĠ
jiang ĠdaĠxueĠ
zhou ĠerĠ
zhen ĠzaiĠ
su ĠxingĠ
tou ĠzhiĠ
wo ĠfuĠ
85 ĠnianĠ
ĠdeĠ shuoĠfaĠ
ĠheĠ tongĠ
yanĠ shuoĠ
zhenĠ tanĠ
dengĠ wenĠtiĠ
quanĠ wanĠ
suoĠ you
xuanĠ xiangĠ
feiĠ chuanĠ
dingĠ yiĠdeĠ
fengĠ huangĠ
hanĠ guoĠdeĠ
ĠchuĠ kouĠ
kongĠ tiaoĠ
chaoĠ guoĠyiĠ
piĠ jiuĠ
ĠnanĠ feiĠ
yingĠguoĠ huangĠjiaĠ
ĠnianĠ5ĠyueĠ 1ĠriĠ
ĠzheĠshiĠ yinĠweiĠ
zhanĠlingĠ leĠ
xiaĠdeĠyiĠgeĠ shuĠ
Ġ cheng
Ġ 1920
Ġ gongĠliĠdeĠ
ĠĠĠ dan
he ĠshiĠyongĠ
yuan ĠshiĠdeĠ
ye ĠweiĠqiĠ
lu ĠguoĠ
bing ĠyouĠ
ya ĠweiĠ
xie ĠliĠ
zhen ĠshiĠdeĠ
liu ĠriĠ
huang ĠdaoĠ
chen ĠxingĠ
36 ĠnianĠ
one Ġ
ĠyuĠ fuĠ
ĠrenĠ daĠ
jieĠ chuĠdeĠ
ĠqiĠ xingĠ
faĠ xiĠsiĠ
riĠ neiĠ
zhengĠ ceĠdeĠ
zheĠ liangĠgeĠ
pingĠ fanĠ
sheĠ youĠyiĠ
teĠ quanĠ
suoĠ zhuĠ
guĠ dingĠdeĠ
feiĠ jiĠdeĠ
puĠ saĠ
shuiĠ quĠ
ĠgaiĠ pian
ĠshiĠjiĠ moĠ
tuoĠ xieĠ
ĠmeiĠ tianĠ
heiĠ anĠ
ĠmianĠjiĠ 1Ġ
Ġgu ĠliĠ
ĠhaiĠbaĠgaoĠduĠ 2Ġ
ĠrenĠkou ĠweiĠrenĠ
xunĠhuiĠ saiĠ
ĠmeiĠnianĠ pingĠjunĠ
heiĠlongĠjiangĠ shengĠ
Ġ wuĠnianĠ
Ġ 1912ĠnianĠ
la ĠyiĠ
san ĠyiĠ
ka ĠheĠ
rong ĠxingĠ
57 ĠnianĠ
ĠdeĠ qianĠ
ĠyiĠ lang
diĠ fuĠ
geĠ zhouĠ
jianĠ zhuĠdeĠ
chengĠ cheĠ
jinĠ ziĠ
jinĠ lingĠ
ĠdiĠ heĠ
quĠ xiangĠ
tongĠ guoĠyiĠ
luĠ quĠ
wenĠ dingĠxingĠ
jiangĠ yuanĠ
ĠsiĠ wang
ĠjiaĠ suĠ
banĠ daoĠdeĠ
liangĠ changĠ
ĠtaĠ huiĠ
tuĠ pianĠ
linĠ yeĠ
ĠxianĠ xiangĠ
duanĠ cengĠ
ĠhouĠ laiĠdeĠ
chaoĠ xian
tieĠ muĠerĠ
yueĠ duiĠ
nianĠ daiĠweiĠ
diĠshiĠ siĠ
zaoĠchengĠ leĠ
chengĠrenĠ youĠxiĠ
zuiĠgaoĠ dianĠweiĠ
Ġda ĠzhiĠ
Ġpo ĠshiĠ
maĠkeĠsiĠ zhuĠyiĠ
zhuĠlongĠ caoĠ
8 ĠmingĠ
e ĠsiĠ
Ġ ying
Ġ 51
Ġ No
Ġ tĠĠĠ
ou ĠerĠ
ĠĠĠ xuĠduoĠ
shang ĠerĠ
ban ĠweiĠ
shen ĠzhongĠ
che ĠzhiĠ
dou ĠweiĠ
tie ĠdaĠniĠ
kun ĠjingĠ
ĠzaiĠ yingĠ
zhuĠ keĠ
zhuĠ ziĠ
shengĠ biĠdeĠ
chuĠ jiaĠ
zhengĠ que
xiaoĠ mingĠ
danĠ niĠerĠ
minĠ suĠ
jiuĠ kaiĠshiĠ
mianĠ jiĠdeĠ
guangĠ mingĠ
yiĠshiĠ zhiĠ
peiĠ tongĠ
jingĠjiĠ gongĠsiĠ
quanĠguoĠ renĠdaĠdaiĠbiaoĠ
ĠsuoĠ shuĠ
ĠbianĠ juĠ
youĠjiĠ zaiĠ
xiaoĠxingĠ xingĠyuĠ
Ġma ĠliĠyaĠ
anĠdeĠ erĠ
ĠguiĠ huaĠ
ĠshiĠwuĠkeĠ lan
Ġ chuan
Ġ duan
Ġ cuĠjinĠ
Ġ 1939ĠnianĠ
Ġ 1957ĠnianĠ
ĠĠĠ pa
ĠĠĠ riĠben
er ĠshiĠqiĠ
pu ĠshiĠ
sha ĠerĠ
rou ĠdaoĠ
ĠshiĠ luoĠmaĠ
ĠyiĠ zhaoĠ
gongĠ yuanĠdeĠ
geĠ wuĠ
chengĠ diĠ
ziĠ jianĠ
faĠ songĠ
huiĠ zhanĠ
jinĠ guanĠ
huaĠ jieĠ
yingĠ dangĠ
tiĠ siĠ
lianĠ huanĠ
mianĠ baoĠ
caiĠ gouĠ
ĠjuĠ shuoĠ
huanĠ jing
chongĠ dangĠ
ceĠ suoĠ
aiĠ saiĠeĠ
yingĠxiangĠ leĠ
ĠxiĠbeiĠ jieĠ
daĠjiangĠ saiĠ
guanĠcha ĠdaoĠ
raoĠtaiĠyangĠ yunĠ
banĠzhangĠ zhouĠweiĠ
Ġ lang
Ġ 1953
ĠĠĠ teĠ
ĠĠĠ yingĠyongĠ
lai ĠdaĠ
ling ĠyiĠweiĠ
lie ĠriĠ
dou ĠdeĠ
huang ĠdeĠ
kan ĠtaiĠ
kuai ĠjiĠ
79 ĠnianĠ
52 ĠnianĠ
1889 ĠnianĠ
Ã¼ Ġ
ĠshiĠ yuanĠ
ĠweiĠ buĠ
ĠzhiĠ li
Ġli ĠshiĠshiĠ
ĠyouĠ zhuĠyuĠ
daĠ huoĠ
shuĠ shangĠ
fangĠ xiang
anĠ suanĠ
benĠ haiĠ
xuĠ muĠ
maĠ shangĠ
baĠ qianĠ
ĠgaiĠ xiaoĠxingĠxingĠyuĠ
tuiĠ guang
piaoĠ lvĠ
ĠliuĠ jingĠ
youĠjiĠ huaĠheĠwuĠ
Ġma ĠkeĠsiĠ
xiaĠjiĠ aoĠlinĠpiĠkeĠyunĠdongĠ
faĠbiaoĠ shengĠmingĠ
ĠpaiĠ sheĠ
pangĠ daĠdeĠ
taoĠtaiĠ saiĠ
changĠwu ĠweiĠyuanĠhuiĠ
fangĠdiĠ chanĠ
9 ĠyueĠzhiĠ
Ġ rao
Ġ 89
Ġ moĠshiĠ
Ġ chuĠqiĠ
Ġ heĠliĠ
di ĠshiĠwuĠ
qu ĠĠĠ
20 ĠgeĠ
jun ĠliĠ
bai ĠdaĠ
man ĠĠĠ
tao ĠdaoĠ
21 ĠshiĠjiĠ
49 ĠnianĠ
ct Ġ
ĠrenĠ shouĠ
daoĠ shuĠ
beiĠ xiĠ
ĠqiĠ shouĠ
chuĠ shengĠdeĠ
ĠxiĠ keĠ
ĠxiĠ boĠ
baoĠ jiaĠliĠyaĠ
huaĠ wuĠ
zuoĠ chengĠ
zheĠ yang
jiangĠ luoĠ
shenĠ pan
benĠ zuoĠ
quanĠ huiĠ
ĠshiĠyiĠ kuan
manĠ lianĠ
tangĠ daiĠ
ĠshiĠjianĠ jieĠ
ĠsuiĠ jiĠyiĠ
tuoĠ baĠ
ĠbenĠ ciĠ
ĠaĠ genĠ
ĠmianĠjiĠ 1
cangĠ kuĠ
ĠhanĠ gaiĠ
xiangĠgang ĠdaoĠ
Ġming ĠyiĠ
ĠzhuanĠ menĠ
ĠhaiĠbaĠgaoĠduĠ 1Ġ
ĠweiĠyuĠfaĠguoĠ xinĠaĠjiĠtan
ĠjiaĠruĠ leĠ
foĠ jiao
ĠshiĠyiĠkeĠ raoĠtaiĠyangĠyunĠ
ĠhuaĠshengĠ dun
ĠtaiĠpingĠ yangĠ
ĠshiĠxingĠdengĠweiĠ 6
ĠĠĠguiĠdaoĠ canĠshuĠ
ĠdeĠguiĠdaoĠ banĠzhangĠzhouĠweiĠ
ĠshiĠyiĠkeĠraoĠtaiĠyangĠyunĠ zhuanĠdeĠxiaoĠxingĠxingĠ
yan ĠzaiĠ
xun ĠdaoĠ
hang ĠyuanĠ
cang ĠshuĠ
sou ĠjiĠ
75 ĠnianĠ
86 ĠnianĠ
ĠyiĠ gangĠyuanĠ
jinĠ xingĠshiĠ
tongĠ hangĠ
guanĠ quĠ
liangĠ beiĠ
ĠxingĠ chengĠdeĠ
minĠ zuĠdeĠ
ĠtaĠ ceng
xieĠ xiaĠ
ĠgongĠ jinĠjiĠ
niĠ yaĠyuĠ
linĠ chuangĠ
ĠjuĠ changĠ
cengĠ ciĠ
aĠ leiĠ
ĠshengĠ jingĠ
2Ġ fenĠ
ĠhuoĠ jianĠ
ĠtongĠ jinĠshiĠchuĠshenĠ
erĠshiĠ tingĠ
yinĠyueĠ jieĠ
ĠwoĠ menĠdeĠ
zengĠjiaĠ daoĠ
ruiĠ dian
ĠweiĠzhuĠ xiaoĠxingĠxingĠ
Ġliang ĠzhongĠ
laĠheĠ maĠ
sheĠjiaoĠ meiĠtiĠ
junĠshiĠtanĠdingĠ baoĠ
ĠkongĠtai ĠdaĠquĠ
ĠweiĠzhuĠxiaoĠxingĠxingĠ daiĠxiaoĠxingĠxingĠ
3 ĠciĠ
Ġ Bu
Ġ kaĠsiĠ
Ġ 1961ĠnianĠ
ĠĠĠ daiĠ
ĠĠĠ canĠkao
yin ĠzhongĠ
wan ĠjiĠ
wan ĠheĠ
pi ĠliĠ
chi ĠheĠ
chan ĠzhiĠ
nai ĠchuanĠ
ĠnianĠ qing
siĠ quĠ
daoĠ xiĠ
xueĠ fuĠ
yanĠ chuĠdeĠ
meiĠ tongĠpaiĠ
ĠfuĠ sheĠ
zuĠ aiĠ
lianĠ huiĠ
jiuĠ chengĠ
anĠ dingĠ
bianĠ qianĠ
ĠbeiĠ haiĠ
ĠyinĠ suĠ
ranĠ liao
Ġri ĠqiĠjianĠ
yiĠshiĠ yuĠ
faĠzhanĠ chuĠ
ĠbianĠ chengĠ
Ġjin ĠyouĠ
Ġba ĠerĠ
jieĠshiĠ leĠ
gaiĠbianĠ ziĠ
Ġjiu ĠzaiĠ
kaĠerĠ waĠ
xianĠdeĠyiĠgeĠ zhenĠquĠ
ĠliaoĠ ning
neiĠmengĠguĠ ziĠzhiĠquĠ
ĠshiĠwuĠkeĠlanĠdeĠ cunĠluoĠ
ĠÐµ Ġ
° Ġ
Ġ zhuĠyiĠ
Ġ alignĠ
ĠĠĠ to
ĠĠĠ 1999
ĠĠĠ pro
zheng ĠdiĠ
qu ĠqiĠ
ci ĠerĠ
huo ĠdeĠyiĠmeiĠ
lv ĠbingĠ
dou ĠshiĠyouĠ
hang ĠdeĠ
peng ĠjiĠ
56 ĠnianĠ
72 ĠnianĠ
ĠrenĠ keĠ
yuanĠ zuoĠ
jiaĠ gongĠ
beiĠ quĠ
beiĠ dongĠ
faĠ fangĠ
tongĠ huoĠ
xiaĠ guĠ
benĠ shen
benĠ shenĠdeĠ
xuanĠ buĠyuĠ
sanĠ baiĠ
tingĠ kao
queĠ ding
ĠdeĠdiĠ siĠ
zuĠzhiĠ jiĠ
ĠluĠ junĠ
yinĠyueĠ juĠ
ĠshiĠweiĠyuĠ meiĠguoĠyiĠliĠnuoĠyiĠ
yaĠliĠ sangĠnaĠ
ĠĠĠdiĠ mingĠ
ĠĠĠjiaĠ jingĠ
ĠminĠ jianĠ
ganĠsuĠ shengĠ
A ĠĠĠ
Ġ Pro
Ġ guanĠjunĠ
Ġ pingĠguoĠ
Ġ 1942ĠnianĠ
Ġ 1932ĠnianĠ
ĠĠĠ ruo
ban ĠyiĠ
te ĠdiĠ
xie ĠyuĠ
zhao ĠdaoĠleĠ
ka ĠshiĠ
70 ĠnianĠdaiĠ
63 Ġ
ĠliĠ fangĠ
daĠ zhanĠ
fuĠ wu
ziĠ keĠ
ĠqiĠ muĠ
juĠ fuĠ
quĠ jingĠ
shouĠ jiaoĠ
shouĠ zhouĠ
zheĠ ge
changĠ tuĠ
biĠ jinĠ
benĠ haĠ
fengĠ ciĠ
lieĠ wuĠ
ĠwuĠ yuanĠ
congĠ ciĠ
ĠtiĠ gaoĠ
pingĠjunĠ shuiĠpingĠ
guiĠmoĠ zuiĠdaĠdeĠ
Ġcan ĠjianĠ
biĠliĠniuĠsiĠ shengĠ
5 ĠgongĠfenĠ
9 ĠmiĠ
Ġ zhengĠzaiĠ
Ġ kaoĠjinĠ
yu ĠshiĠjianĠ
ĠĠĠ f
ĠĠĠ la
zhi ĠshiĠjianĠ
lin ĠguoĠ
lun ĠziĠ
huan ĠbingĠ
chou ĠqianĠ
chou ĠwenĠ
nai ĠdeĠ
ss ĠĠĠ
78 ĠnianĠ
ĠzhiĠ zeĠ
ĠyuĠ 2014
ĠrenĠ youĠ
wuĠ duanĠ
beiĠ guanĠjunĠ
chuĠ mingĠ
ĠdiĠ 2
yanĠ xingĠ
muĠ lanĠ
zhouĠ chengĠ
boĠ mingĠ
boĠ kuanĠ
suoĠ waĠ
caiĠ yongĠdeĠ
pinĠ pai
ĠshiĠjiĠ shangĠshiĠ
waĠ jueĠ
ĠtianĠ zhuĠjiaoĠ
tieĠluĠ xianĠ
ĠchongĠ zhenĠ
wenĠhua ĠheĠ
ĠzhiĠzaoĠ shangĠ
Ġ 1976
Ġ 112
Ġ 1965ĠnianĠ
bing ĠerĠ
yao ĠjiĠ
hao ĠdiĠ
bai ĠerĠ
ĠshiĠ baiĠ
ĠweiĠ jieĠ
renĠ shuĠ
gongĠ zhengĠ
beiĠ guanĠ
ziĠ xiĠ
jinĠ liangĠ
changĠ chun
ĠsiĠ xingĠ
zhangĠ jieĠ
meiĠ zhouĠdeĠ
ĠtaĠ keĠ
ĠtaĠ xiangĠ
tuĠ rangĠ
chuanĠ songĠ
gangĠ taiĠ
zhuanĠ tiĠ
ĠjingĠ shenĠ
ouĠzhouĠ guanĠjunĠ
Ġhuo ĠerĠ
Ġge ĠnianĠ
minĠzhuĠzhuĠyiĠ renĠminĠ
3 ĠzhiĠ
Ġ yanĠzhongĠ
Ġ yingĠliĠ
Ġ colorĠ
Ġ textĠ
yu ĠshiĠyongĠ
li ĠqiĠ
ĠĠĠ 1997
yuan ĠyiĠjiĠ
te ĠkeĠ
nei ĠerĠ
tao ĠdeĠ
pan ĠxingĠ
mou ĠyiĠ
ĠyuĠ zaiĠ
ĠzhongĠ shan
ĠheĠ kouĠ
gongĠ xueĠ
jiaĠ ting
daoĠ taiĠ
chuĠ seĠ
tongĠ luoĠ
wenĠ niĠ
fenĠ nuĠ
ĠsiĠ yuanĠ
danĠ xingĠ
meiĠ youĠyiĠ
zhouĠ houĠ
tuĠ sha
leiĠ dongĠwuĠ
ĠshiĠyiĠ yiĠ
duanĠ zanĠ
congĠ shuĠ
zhaoĠ shouĠ
ĠrenĠkouĠ puĠ
ĠyingĠ xiongĠ
ĠshiĠzhenĠ mianĠjiĠweiĠ
ĠbenĠ pianĠ
ĠsuoĠ youĠdeĠ
baoĠdaoĠ chengĠ
kaĠerĠwaĠ duoĠsiĠ
Ġ 1935
Ġ Con
Ġ 1929ĠnianĠ
li ĠchengĠ
ĠĠĠ yaoĠ
ĠĠĠ dingĠyiĠ
ci ĠnianĠ
meng ĠjiaĠla
Xbox ĠĠĠ
ĠweiĠ xiĠ
ĠyuĠ gaoĠ
ĠliĠ kai
buĠ bingĠ
fuĠ nv
ĠbuĠ qiĠ
ĠbuĠ lanĠ
daoĠ jiaoĠ
ziĠ daĠ
ciĠ huiĠyiĠ
zhangĠ danĠquĠ
danĠ cheĠ
luoĠ jieĠ
xuanĠ xiu
caiĠ pan
guangĠ chang
ĠxiangĠ shouĠ
ĠgeĠ guoĠjiaĠ
Ġta ĠrenĠ
ĠjiangĠ huiĠ
ĠguoĠjiaĠ anĠquanĠ
yinĠyueĠ luĠyingĠdaiĠ
Ġxian ĠdeĠyiĠgeĠ
gongĠzhongĠ kaiĠfangĠ
rengĠran ĠshiĠ
ĠdeĠyiĠzuoĠ chengĠshiĠ
Ġ fuĠshiĠ
Ġ chouĠ
ĠĠĠ zhe
ĠĠĠ 1997ĠnianĠ
bu ĠliĠsiĠ
gu ĠzhongĠ
bian ĠyouĠ
zhen ĠfuĠ
han ĠzhongĠ
re ĠheĠ
die ĠdeĠ
66 ĠnianĠ
ĠjiĠ xiangĠ
ĠjiĠ bingĠ
buĠ shao
diĠ 1Ġ
ĠzaiĠ zheĠzhongĠ
gongĠ xiaĠ
jianĠ dui
jieĠ luĠ
zhuĠ bianĠ
ĠdiĠ erĠjiĠ
xueĠ paiĠ
fangĠ suoĠ
ĠdaĠ piĠ
yinĠ shuĠ
wenĠ pingĠ
ĠjiaĠ juĠ
qingĠ junĠ
qingĠ shanĠ
wanĠ yuanĠ
anĠ dongĠ
gaoĠ jieĠ
fanĠ xueĠyuanĠ
kaiĠ caiĠ
ĠchuĠ laiĠ
ĠpingĠ jiaĠ
aĠ muĠsiĠteĠ
manĠ zu
ĠzhongĠguoĠ zhengĠfuĠ
ĠnianĠ3ĠyueĠ 31ĠriĠ
ĠnianĠzhiĠ jinĠ
Ġhuo ĠyiĠ
ĠyueĠhanĠ xunĠ
ĠshiĠwuĠkeĠ lanĠ
duoĠerĠ duoĠ
ĠjingĠneiĠ gongĠyouĠ
Ġ nao
Ġ niao
Ġ 1966
Ġ 1973
ĠĠĠ 1994
ĠĠĠ An
dong ĠzaiĠ
hai ĠrenĠ
lai ĠyouĠ
liu ĠguoĠ
shui ĠliĠfaĠ
zhao ĠriĠ
87 ĠnianĠ
ĠshiĠ zheĠ
ĠdeĠ chengĠyuanĠ
ĠyiĠ seĠlie
ĠjiĠ shangĠ
ĠzhiĠ xuĠ
ĠyuĠ 2017
youĠ qiĠ
fuĠ teĠ
zhuĠ fuĠ
huiĠ ru
shouĠ ci
taiĠ yangĠdeĠ
benĠ laiĠ
liuĠ paiĠ
waiĠ shengĠ
chuanĠ dongĠ
paiĠ zhaoĠ
ĠdanĠ xinĠ
ĠgeĠ geĠ
ĠchengĠ zuoĠ
cunĠ zai
douĠ yaoĠ
ĠyeĠ yinĠciĠ
ĠfenĠ ziĠ
ĠzuiĠ houĠzaiĠ
ĠxiaoĠ fangĠ
ĠluoĠ lunĠ
ĠquĠ xiaoĠ
zhanĠzhengĠ baoĠfaĠ
ĠqiĠta ĠrenĠ
ĠxingĠchengĠ leĠ
mingĠxingĠ saiĠ
Ġ siĠnianĠ
ĠĠĠ Sta
ĠĠĠ lianĠ
er ĠshiĠyiĠnianĠ
cai ĠyuĠ
rong ĠziĠ
geng ĠdiĠ
pei ĠliĠ
mao ĠziĠ
bin ĠweiĠ
ĠzhiĠ jiaĠgeĠ
daĠ shangĠ
shengĠ geĠ
faĠ dianĠjiĠ
yanĠ shouĠ
guanĠ zhongĠdeĠ
fenĠ changĠ
junĠ keĠ
gaiĠ zuĠ
ĠxingĠ xiĠ
anĠ shaĠ
cheĠ zhanĠdeĠ
biaoĠ jueĠ
kaiĠ fangĠdeĠ
baĠ teĠ
lunĠ taiĠ
ĠfaĠ shouĠ
renĠweiĠ zheĠ
quĠdeĠ deĠ
ĠdeĠjiĠ changĠ
zhengĠfu ĠyiĠ
ĠyouĠqiĠshiĠ zaiĠ
7 ĠmingĠ
e ĠyiĠ
Ġ 1965
Ġ shuĠjiĠ
Ġ quĠshiĠ
Ġ 1944ĠnianĠ
Ġ 1943ĠnianĠ
ĠĠĠ Love
ĠĠĠ yinĠduĠ
qu ĠdeĠshiĠ
le ĠguoĠ
yong ĠdaĠ
xia ĠdeĠyiĠgeĠzhongĠ
dai ĠqiĠ
duo ĠjiĠ
xie ĠyouĠ
sai ĠshiĠyuĠ
lie ĠkeĠ
at Ġ
56 Ġ
ds Ġ
ĠjiĠ daĠ
ĠliĠ taoĠwanĠ
chengĠ daĠ
chengĠ qingĠ
faĠ shuĠ
faĠ shouĠdeĠ
shouĠ menĠ
tiĠ changĠ
junĠ shuĠ
meiĠ guoĠshiĠ
gaoĠ yaĠ
suĠ qiuĠ
ĠgaiĠ shanĠ
diĠyiĠ daiĠ
qiangĠ poĠ
tangĠ niao
jingĠjiĠ buĠ
ĠzhengĠ mingĠ
Ġling ĠrenĠ
ĠgaiĠshengĠfenĠweiĠfaĠguoĠ xiĠbeiĠbuĠ
1 ĠshiĠ
Ġ se
Ġ dengĠrenĠ
ji ĠyiĠgeĠ
ĠĠĠ b
di ĠshiĠqiĠ
he ĠdeĠguoĠ
qian ĠbuĠ
qian ĠyiĠzhiĠ
duo ĠerĠshengĠ
200 ĠmiĠ
lao ĠnianĠ
lao ĠyuanĠ
zhui ĠdongĠwuĠ
zang ĠzuĠ
cm Ġ
ĠshiĠ baĠxiĠ
ĠweiĠ meiĠguoĠ
ĠyuĠ zhangĠ
daĠ anĠ
yuanĠ linĠ
fuĠ shangĠ
fuĠ yuanĠzhangĠ
chuĠ fenĠ
houĠ mianĠ
ĠdaĠ yingĠ
fenĠ ziĠdeĠ
zhangĠ huĠ
ruĠ jinĠ
biĠ teĠ
lianĠ saiĠzhongĠ
kaiĠ fangĠshiĠ
caiĠ beiĠ
ĠbeiĠ jing
moĠ duanĠ
ĠxianĠ xingĠ
shuiĠ wuĠ
ĠliĠshiĠ xueĠ
ĠliĠshiĠ zhangĠ
wenĠhua ĠyiĠ
xiaoĠzuĠ saiĠ
ĠwanĠrenĠ ciĠ
ĠerĠgaiĠdiĠ zuiĠgaoĠdianĠweiĠ
baoĠshouĠ dangĠ
zenĠ me
ĠerĠgaiĠdiĠzuiĠgaoĠdianĠweiĠ haiĠbaĠgaoĠduĠ
Ġ fangĠyuĠ
Ġ 1967ĠnianĠ
yi ĠshiĠyiĠ
jie ĠshiĠweiĠ
hou ĠheĠ
mei ĠyueĠ
she ĠerĠ
lai ĠxiĠ
ni ĠxiĠya
lin ĠweiĠ
zhao ĠzhiĠ
77 Ġ
53 Ġ
ĠjiĠ hua
ĠzhiĠ shengĠ
ĠzaiĠ duiĠ
ĠzhongĠ duiĠ
chuĠ zuĠ
juĠ dongĠ
fangĠ fa
pingĠ min
meiĠ jieĠ
lingĠ hun
cheĠ liang
shanĠ changĠ
feiĠ cui
baiĠ tuoĠ
ĠxiangĠ huĠ
shuiĠ niĠ
ĠliĠshiĠ youĠ
enĠ shengĠheĠ
ĠdiĠerĠ tianĠ
ĠbingĠyuĠ tong
xuĠduo ĠrenĠ
neiĠrong ĠdeĠ
maĠkeĠ xiĠ
Ġ2010ĠnianĠ renĠkouĠ
daiĠlaiĠ leĠ
3 ĠwanĠ
Ġ saĠerĠ
ao ĠweiĠhuiĠ
lu ĠdaĠ
gao ĠyiĠ
suo ĠerĠ
tian ĠxingĠ
zhuan ĠshiĠ
xun ĠyiĠ
huang ĠziĠ
97 ĠnianĠ
ĠyuĠ shangĠ
ĠyouĠ zuoĠ
ĠzaiĠ yueĠ
ĠzhongĠ guo
jiaĠ laiĠ
riĠ ziĠ
yeĠ yinĠciĠ
zuoĠ yongĠdeĠ
dianĠ yingĠshiĠ
xiaĠ xiaĠdeĠ
guĠ gongĠ
yunĠ songĠ
dingĠ gouĠ
baiĠ yinĠ
ĠbaoĠ han
ganĠ xieĠ
Ġyin ĠdiĠ
ĠzhanĠ shenĠ
ĠzhengĠ tiĠ
ĠfanĠ huiĠ
Ġwo ĠerĠ
ĠpuĠtaoĠ yaĠ
ĠjinĠru ĠzhiĠluĠhouĠ
8 ĠhaoĠ
Ġ b
Ġ pai
Ġ 1952
Ġ Po
Ġ 110
Ġ zhongĠjiĠ
Ġ tuiĠdongĠ
li ĠzhiĠ
yue ĠdeĠ
dang ĠsiĠ
bian ĠdiĠ
tian ĠguoĠ
gou ĠheĠ
tiao ĠdeĠ
que ĠxiĠ
kuang ĠdeĠ
zha ĠerĠ
54 Ġ
ĠshiĠ jinĠ
jieĠ duanĠdeĠ
chengĠ jiangĠ
jingĠ shangĠ
leĠ wuĠ
huaĠ xiangĠ
xiaoĠ zu
yongĠ hu
meiĠ lianĠ
bianĠ xiuĠ
duoĠ biĠ
zuiĠ xianĠ
shanĠ chengĠ
dangĠ xiaoĠ
ĠjieĠ shaoĠ
diaoĠ leĠ
ĠnianĠ12ĠyueĠ 1ĠriĠ
ĠnianĠzhiĠ jianĠ
chunĠ qiuĠ
ĠlianĠ tongĠ
ĠniĠ guĠlaĠ
yinĠhang ĠdeĠ
Ġdai ĠweiĠ
Ġdong ĠyuĠ
Ġ guan
Ġ chui
Ġ 130
Ġ shenĠweiĠ
mi ĠheĠ
yin ĠbuĠ
qian ĠnianĠ
she ĠfuĠ
pi ĠshiĠ
ka ĠxiĠ
man ĠheĠ
ver Ġ
ĠzhiĠ houĠyouĠ
ĠyuĠ 2023
heĠ zhongĠ
buĠ luĠkeĠ
jiaĠ zhangĠ
jiaĠ leĠbiĠ
xiangĠ fenĠ
daoĠ xiaĠ
huiĠ wuĠ
chuĠ shenĠdeĠ
biĠ yaĠdeĠ
shenĠ jing
ĠfuĠ laiĠ
zuĠ gou
xuanĠ juĠdeĠ
suĠ junĠ
ĠbingĠ yaoĠqiuĠ
ĠchuĠ zhanĠ
ĠgaiĠ pianĠ
aoĠ duoĠ
liĠ shaĠbaiĠ
touĠ jiaoĠ
Ġsui ĠzhiĠ
ĠdianĠ nao
fuĠwuĠ qiĠ
Ġzhuan ĠrenĠ
ĠliĠru ĠzaiĠ
zhuangĠjiĠ kengĠ
wuĠzhuang ĠbuĠduiĠ
ziĠbenĠ zhuĠyiĠ
baĠleĠsiĠ tan
jieĠxiaĠ laiĠdeĠ
jueĠseĠbanĠyan ĠyouĠxiĠ
Ġ 1974
Ġ 1954
Ġ yanĠshiĠ
ĠĠĠ lvĠ
ĠĠĠ faĠzhanĠ
bi ĠzaiĠ
ru ĠjiaĠ
xu ĠliĠya
yao ĠyouĠ
zhuan ĠdaoĠ
zhuang ĠchengĠ
gan ĠxingĠquĠ
shao ĠerĠ
55 ĠnianĠ
94 ĠnianĠ
ĠshiĠ yongĠyuĠ
Ġnian ĠdeĠyiĠ
yuanĠ chuang
gongĠ suoĠ
ĠyueĠ zhanĠ
ĠbuĠ liaoĠ
jieĠ cengĠ
chengĠ weiĠshiĠ
quĠ shengĠ
jiangĠ huĠshiĠdaiĠ
bingĠ daoĠ
haiĠ keĠyiĠ
gaiĠ daoĠ
ruĠ changĠ
qingĠ dianĠ
ĠtaĠ cengĠzaiĠ
suoĠ xiaĠdeĠyiĠgeĠ
liuĠ xiangĠ
sanĠ shengĠ
caiĠ seĠ
ĠwuĠ dingĠ
ĠfaĠ lanĠkeĠ
ĠdeĠzhiĠ yuanĠ
zhengĠfu ĠweiĠ
ĠweiĠjiĠ baiĠkeĠ
ĠhongĠ seĠ
beiĠrenĠ wei
tianĠjingĠ yunĠdongĠyuanĠ
ĠweiĠyuĠfaĠguoĠao ĠkeĠxiĠtaĠniĠdaĠquĠ
ĠshiĠweiĠyuĠmeiĠguoĠmiĠsuĠliĠ zhouĠ
Ġ kou
Ġ ãĥĥ
Ġ kunĠ
Ġ 1924ĠnianĠ
an ĠzaiĠ
li ĠbuĠ
ĠĠĠ bianĠ
ĠĠĠ zhuanĠjiĠ
ĠĠĠ 1995ĠnianĠ
ke ĠweiĠqiĠ
wan ĠzhiĠ
te ĠyouĠ
lin ĠdaĠ
dou ĠkeĠ
100 ĠwanĠ
et ĠĠĠ
guai ĠshouĠ
ĠyuĠ 2022
zhongĠ cengĠshuiĠyuĠ
diĠ tie
diĠ biaoĠ
xingĠ daoĠ
ĠqiĠ xianĠ
jingĠ ziĠ
yanĠ zheĠ
yeĠ ziĠ
jiaoĠ caiĠ
shenĠ gaoĠ
ĠchengĠ baoĠ
ĠchengĠ haoĠ
duanĠ tuĠ
ĠyingĠ geĠlanĠ
ĠqingĠ chao
erĠshiĠ sanĠnianĠ
ĠbenĠ pian
Ġliu ĠxingĠ
jianĠchaĠ yuanĠ
ĠdeĠzhiĠchiĠ zheĠ
ĠqiĠxiĠzaiĠdiĠ cengĠshuiĠyuĠ
Ġ 1936
shu ĠĠĠ
xue ĠerĠ
yan ĠbuĠ
xiao ĠerĠ
ya ĠdiĠ
ben ĠguoĠ
suo ĠliĠ
shui ĠbuĠ
in Ġ
nai ĠzhiĠ
tive ĠĠĠ
ĠyiĠ zuĠ
xingĠ cunĠ
ĠbuĠ jiu
jieĠ shouĠdeĠ
jinĠ biĠ
shouĠ chuĠ
guanĠ tongĠ
jiaoĠ suoĠ
gaiĠ ge
gaiĠ gongĠsiĠ
wangĠ zhuĠ
shenĠ houĠ
sanĠ tianĠ
baiĠ fenĠ
touĠ suĠ
ĠweiĠyuĠ taiĠwanĠ
diĠyiĠ ciĠshiĠjieĠdaĠzhanĠ
waĠ leiĠ
yinĠyueĠ xueĠyuanĠ
Ġao ĠerĠ
7 ĠhaoĠ
Ġ d
Ġ jiao
ĠĠĠ lvĠyouĠ
ĠĠĠ taĠyuĠ
zhi ĠyiĠjiĠ
xing ĠshiĠweiĠ
shen ĠerĠ
zui ĠjiĠ
sai ĠkeĠsiĠ
san ĠdaoĠ
chi ĠzaiĠ
12 ĠrenĠ
98 ĠnianĠ
96 ĠnianĠ
84 ĠnianĠ
yuanĠ benĠdeĠ
gongĠ kai
gongĠ fuĠ
gongĠ guanĠ
fuĠ danĠ
fuĠ laĠ
jiaĠ jingĠ
chengĠ neiĠ
zhuĠ ce
shouĠ lieĠ
dongĠ ciĠ
jingĠ shuĠ
leĠ zheĠgeĠ
fangĠ wen
liangĠ xingĠ
meiĠ ciĠ
sheĠ faĠ
lianĠ duiĠ
sanĠ xianĠ
paiĠ chuĠdeĠ
ĠchengĠ huaĠ
ĠchengĠ weiĠyiĠ
cunĠ zaiĠyiĠ
kaiĠshiĠ jinĠxingĠ
kaĠ luoĠsiĠ
shuoĠ huaĠ
ĠjiangĠ taĠ
ĠshuĠ mingĠ
ĠqianĠ shenĠweiĠ
diĠerĠ ciĠshiĠjieĠdaĠ
huiĠshiĠ diĠ
buĠfen ĠdeĠ
yingĠyongĠ chengĠshiĠ
waiĠjiaoĠbuĠ zhangĠ
yeĠshengĠ dongĠwuĠ
ĠaĠerĠbeiĠsiĠ daĠquĠ
Ġ 31
ĠĠĠ tieĠluĠ
xing ĠĠĠ
jian ĠdeĠshiĠ
yin ĠyueĠshiĠ
ban ĠzaiĠ
bo ĠweiĠ
zui ĠdeĠ
xiu ĠjiĠ
rui ĠdeĠ
lve ĠyouĠ
et Ġ
44 Ġ
Ġnian ĠnianĠdiĠ
ĠzhiĠ kongĠ
qiĠ dianĠ
ĠyouĠ meiĠguoĠ
ĠzhongĠ guoĠshiĠ
fuĠ keĠ
ĠqiĠ wangĠ
zheĠ leiĠ
qingĠ chunĠ
biĠ saiĠshiĠ
ĠfuĠ shuĠ
anĠ shanĠ
zuiĠ zhongĠyiĠ
chuanĠ ruĠ
linĠ ken
zhuanĠ huaĠweiĠ
tuanĠ tiĠdeĠ
zouĠ langĠ
zongĠtongĠ xuanĠjuĠ
Ġgu ĠerĠ
ĠyeĠjiuĠshiĠ shuoĠ
miĠxiĠxiĠ biĠ
Ġ 1951
Ġ chuĠshiĠ
ĠĠĠ 1994ĠnianĠ
bu ĠyiĠzhiĠ
zi ĠĠĠ
yin ĠguoĠ
zhen ĠxiĠ
mo ĠjiĠ
el Ġ
ĠshiĠ xiangĠgang
ĠyiĠ quĠ
siĠ duoĠ
beiĠ fenĠ
huiĠ yinĠ
luĠ junĠdiĠ
nanĠ zhanĠ
nanĠ anĠ
tianĠ tang
guĠ shouĠ
ĠdanĠ taĠdeĠ
ĠshiĠyiĠ yue
ĠjuĠ chengĠ
chongĠ tu
ĠyuanĠ chaoĠ
hongĠ se
tuoĠ zhanĠ
ĠdangĠ juĠ
ĠyinĠweiĠ zaiĠ
ĠhanĠ shuĠ
Ġfei ĠerĠ
ĠhouĠlai ĠyouĠ
aoĠdaĠliĠ ya
Ġ 1967
Ġ Bi
Ġ 900
Ġ geĠzhongĠ
Ġ fuĠyuĠ
Ġ dianĠshiĠjuĠ
Ġ cĠ
Ġ 1969ĠnianĠ
Ġ 1926ĠnianĠ
ĠĠĠ Do
ĠĠĠ taĠshiĠ
qu ĠbuĠ
mu ĠdaĠ
zui ĠnianĠqingĠdeĠ
fan ĠliĠ
mo ĠyuĠ
huang ĠgongĠ
13 ĠgeĠ
va Ġ
92 ĠnianĠ
ps Ġ
ĠzhiĠ liaoĠ
ĠyouĠ huaĠ
ĠyueĠ keĠ
tiĠ cao
huoĠ dongĠshiĠ
ĠkeĠ luĠ
wanĠ baoĠ
boĠ dongĠ
cheĠ tiĠ
guĠ daoĠ
baĠ mingĠ
laĠ laĠ
ĠbeiĠ mianĠ
niĠ ri
ĠzheĠ jiuĠshiĠ
ĠzhuĠ dongĠ
ĠyinĠ du
ĠyiĠjiĠ youĠ
ĠyuanĠ ben
jingĠjiĠ changĠ
shuangĠ bianĠ
ĠfeiĠ zhouĠ
ĠĠĠqiĠ yuanĠ
ĠliĠkaiĠ leĠ
erĠheĠ panĠ
ĠyiĠliĠ fangĠmiĠ
yinĠdiĠ anĠrenĠ
ĠgaiĠshengĠfenĠweiĠfaĠguoĠbeiĠbuĠ neiĠluĠshengĠfenĠ
ĠãĤĵ Ġ
Ġ yuanĠyuĠ
Ġ miaoĠshuĠ
Ġ shangĠweiĠ
Ġ 1923ĠnianĠ
ng Ġ
ĠĠĠ minĠ
ĠĠĠ 1998ĠnianĠ
ĠĠĠ biĠyeĠyuĠ
ĠĠĠ 1996ĠnianĠ
ren ĠyiĠqiĠ
bu ĠweiĠyuanĠ
zuo ĠxiĠ
xuan ĠzhiĠ
chong ĠwuĠ
teng ĠbaoĠ
tic ĠĠĠ
ton Ġ
diĠ kangĠ
gongĠ yuan
xianĠ gongĠsiĠ
ziĠ youĠdeĠ
ĠxiĠ yaĠdeĠ
juĠ juĠ
zhengĠ shouĠ
baoĠ liu
miĠ laĠ
feiĠ xianĠ
zeĠ biaoĠshiĠ
eĠ moĠ
ĠjiuĠ xiangĠ
Ġa ĠfuĠ
gongĠchanĠ dangĠdeĠ
Ġbei ĠyuĠweiĠ
nengĠgou ĠzaiĠ
wenĠyiĠ fuĠ
xinĠjiĠ neiĠyaĠ
ĠjiĠnian ĠbeiĠ
aiĠshaĠ niĠyaĠ
2 ĠzhiĠ
2 ĠxianĠ
4 ĠliĠ
Ġ Ä
Ġ Gi
ĠĠĠ Na
ĠĠĠ 1991ĠnianĠ
xing ĠshiĠjianĠ
hui ĠĠĠ
jin ĠnianĠlaiĠ
ju ĠheĠwuĠ
huo ĠheĠ
gang ĠjinĠ
chen ĠzhiĠ
hang ĠjianĠ
hong ĠdeĠ
hong ĠweiĠ
lao ĠshuĠ
xiong ĠshouĠ
91 ĠnianĠ
ĠshiĠ xinĠ
xingĠ jingĠ
jianĠ diĠ
ĠqiĠ erĠ
ĠqiĠ suĠ
zhengĠ xianĠ
dongĠ yongĠ
fangĠ huoĠ
jiangĠ ciĠ
liangĠ ge
shenĠ zhenĠshiĠ
qiuĠ lingĠ
xuanĠ wuĠ
maĠ shuĠ
Ġdan ĠjiĠ
ranĠ shao
meiĠyouĠ renĠ
maiĠ aĠmiĠ
ĠbiĠ jiaoĠ
suoĠyouĠ renĠ
ĠluĠ xianĠ
zuĠqiuĠ huiĠ
diĠerĠ ciĠshiĠjieĠdaĠzhanĠ
Ġai ĠsiĠ
lingĠshiĠ guanĠ
ĠdeĠzhuĠ tiĠ
ĠĠĠjuĠqingĠ jianĠjieĠ
ĠlianĠheĠ taiĠfengĠjingĠbao
ĠliĠgongĠ daĠxueĠ
Ġ dongĠshiĠ
Ġ luoĠdeĠ
Ġ shunĠ
Ġ quanĠshiĠ
Ġ rĠ
ĠĠĠ BĠ
hua ĠguoĠ
she ĠshiĠdeĠ
hai ĠzhiĠ
hai ĠbuĠ
lai ĠliĠ
xiu ĠxingĠ
kuo ĠdeĠ
juan ĠruĠ
ga ĠerĠ
ĠyiĠ zhuĠ
ĠliĠ baĠnen
jianĠ zhangĠ
shengĠ daĠ
shengĠ mingĠdeĠ
jingĠ wuĠ
leĠ fuĠ
yeĠ zhuĠ
guanĠ xinĠ
ĠdaĠ mingĠ
xinĠ baoĠ
luĠ mianĠ
xiaĠ xianĠ
ĠkeĠ zuoĠweiĠ
dengĠ chuĠ
quanĠ meiĠ
Ġbing ĠjiĠ
renĠweiĠ taĠ
erĠshiĠ siĠnianĠ
juanĠ kuanĠ
Ġci ĠjiĠ
ĠĠĠbenĠ jieĠ
ĠweiĠyuĠgaiĠguoĠ xiĠbeiĠbuĠ
Ġ Lu
Ġ kĠ
ĠĠĠ tiĠ
zhi ĠshiĠshiĠ
tong ĠzaiĠ
zhan ĠshiĠdeĠ
ping ĠdiĠ
ni ĠjiaĠ
la ĠjiaĠ
lan ĠzhiĠ
cai ĠheĠ
ran ĠyouĠ
qiang ĠheĠ
tiao ĠheĠ
kang ĠfuĠ
chun ĠtianĠ
ley Ġ
ĠshiĠ xiangĠ
ĠshiĠ mingĠ
jiaĠ binĠ
jieĠ pou
jieĠ erĠ
jieĠ jianĠ
beiĠ jiaoĠ
ziĠ tiĠ
yanĠ zhuĠ
fenĠ miĠ
taiĠ fuĠ
pingĠ jun
wangĠ zhanĠdeĠ
muĠ shanĠ
ĠfuĠ nvĠ
jiuĠ xiangĠ
xuĠ zuoĠ
caiĠ kaiĠshiĠ
diĠyiĠ qiĠ
kongĠ queĠ
2Ġ xianĠdeĠ
poĠ lieĠ
Ġdang ĠtaĠ
ĠweiĠdiĠ qiĠ
shengĠhuo ĠyuĠ
ĠjiĠzheĠ huiĠ
sheĠhuiĠzhuĠyiĠ gongĠheĠguoĠ
ĠgeĠlanĠ teĠ
Ġ nv
Ġ shengĠjiĠ
Ġ qiĠjiĠ
ĠĠĠ Ga
ĠĠĠ haoĠ
xing ĠrenĠwuĠ
ti ĠdeĠshiĠ
hua ĠqiĠ
dui ĠxiĠ
bing ĠzhiĠyuĠ
suo ĠbuĠ
nei ĠkeĠ
lun ĠdiĠ
lun ĠzheĠ
ka ĠdiĠ
shuang ĠrenĠ
sun ĠzhongĠshanĠ
cuo ĠdeĠ
qiĠ taĠdeĠ
diĠ qiu
daĠ jiangĠjunĠ
yuanĠ su
jiaĠ meng
ziĠ wo
shouĠ keĠ
tongĠ qingĠ
wenĠ tiĠshiĠ
meiĠ guoĠjiĠ
bianĠ geĠ
lingĠ zhuĠ
guĠ jianĠzhuĠ
suĠ song
ĠdeĠyiĠ chuĠ
fengĠ jianĠ
jueĠ ce
niĠ zhuanĠ
shuiĠ xiaĠ
ĠmingĠ mingĠweiĠ
ĠyouĠyuĠ qiĠ
haĠ teĠ
diĠerĠ baiĠ
ĠĠĠdeĠ guoĠ
jingĠliĠ leĠ
jinĠbiaoĠ sai
tongĠchangĠ huiĠ
ĠtongĠnianĠ wuĠyueĠ
ĠweiĠyuĠfaĠguoĠ boĠgenĠdiĠ
zhengĠquanĠ jiaoĠyiĠsuoĠ
xuĠkeĠ zhengĠ
Ġzhong ĠnianĠ
maĠlaĠ yaĠ
ĠxingĠzheng ĠzhongĠxinĠweiĠ
canĠjiĠrenĠ aoĠlinĠpiĠkeĠyunĠdongĠhuiĠ
ĠguoĠanĠ faĠ
6 ĠhaoĠ
¦ Ġ
Ġ biao
Ġ mouĠ
Ġ shengĠliĠ
Ġ 1911ĠnianĠ
ĠĠĠ 1990
ĠĠĠ woĠ
ĠĠĠ zuiĠzhongĠ
ĠĠĠ isĠĠĠ
wei ĠshiĠyongĠ
zheng ĠerĠ
jun ĠshiĠjiĠ
du ĠliĠshiĠ
xia ĠbuĠ
mu ĠkeĠ
jiu ĠweiĠ
pi ĠziĠ
duo ĠzhiĠ
gen ĠzhuĠ
sun ĠhuiĠ
60 ĠnianĠdaiĠ
67 Ġ
54 ĠnianĠ
zhiĠ wuĠ
ĠweiĠ junĠ
youĠ yongĠ
jieĠ mengĠ
shengĠ siĠ
riĠ shengĠ
juĠ tuanĠ
huaĠ huiĠ
qianĠ fuĠ
xiaoĠ xinĠ
bingĠ fei
biĠ shangĠ
liangĠ juĠ
zhouĠ enĠlaiĠ
guĠ dai
huĠ hangĠ
maĠ muĠ
lvĠ zhangĠ
piĠ aiĠerĠ
taoĠ yuanĠshiĠ
ĠdeĠzhiĠ jieĠ
ĠmuĠ fuĠ
ĠzongĠ buĠweiĠyuĠ
renĠminĠ biĠ
Ġ ti
Ġ tai
Ġ silver
ĠĠĠ chengĠshiĠ
ĠĠĠ neiĠrongĠ
ĠĠĠ 0Ġ
ci ĠguoĠgongĠ
huo ĠsiĠ
duo ĠqiĠ
te ĠzhongĠ
lei ĠzhiĠ
chuan ĠyiĠ
lie ĠfuĠ
can ĠzhongĠ
xun ĠzhiĠ
tui ĠwuĠ
55 Ġ
weiĠ lianĠ
zhiĠ youĠ
buĠ erĠ
ĠyouĠ guanĠdeĠ
ĠzaiĠ shangĠhaiĠ
ĠheĠ feiĠ
xingĠ yunĠ
gongĠ jinĠ
jieĠ naĠ
chengĠ zan
chengĠ mingĠ
beiĠ shouĠyuĠ
beiĠ xuanĠweiĠ
dongĠ daoĠ
jingĠ ying
xueĠ xi
fangĠ keĠ
xiaoĠ ziĠ
xiaoĠ dongĠ
xiaĠ shu
gaiĠ jianĠweiĠ
jiuĠ chuĠ
teĠ seĠdeĠ
zuiĠ fanĠ
guĠ juĠ
ĠgongĠ jianĠ
ĠgongĠ juĠ
ĠgaiĠ xianĠ
diĠyiĠ lunĠ
diĠyiĠ ciĠshiĠjieĠdaĠ
Ġtong ĠshiĠyiĠ
pianĠ changĠ
piĠ linĠ
chuangĠ ruĠ
chuangĠ kouĠ
ĠtaiĠ ziĠ
ĠmuĠ diĠshiĠ
saĠ leiĠ
ĠanĠ quanĠ
Ġjin ĠnianĠlaiĠ
ruoĠ gan
ĠkeĠyiĠ zaiĠ
shengĠchanĠ zongĠzhiĠ
ĠwaiĠ jiaoĠ
juĠbanĠ leĠ
siĠliĠ lanĠkaĠ
yinĠfaĠ leĠ
shaĠsiĠ leĠ
junĠzhongĠ jiangĠ
Ġ 1961
Ġ chuĠliĠ
Ġ huaĠshiĠ
Ġ buĠzhiĠ
Ġ mouĠxieĠ
Ġ 1914ĠnianĠ
ĠĠĠ zongĠjiaoĠ
qu ĠerĠ
zhang ĠerĠ
nan ĠdiĠ
wang ĠzhongĠ
dang ĠnianĠdeĠ
gou ĠyuĠ
pian ĠliĠ
qiao ĠshiĠ
chou ĠjianĠ
niao ĠdeĠ
ĠshiĠ zhengĠfuĠ
ĠyuĠ 2010
ĠzaiĠ yeĠ
ĠzaiĠ zheĠliĠ
ĠrenĠ wenĠ
fuĠ ziĠ
beiĠ yongĠ
beiĠ chengĠzuoĠ
jinĠ qianĠ
juĠ minĠdeĠ
yeĠ beiĠchengĠweiĠ
xinĠ ganĠxianĠ
xiaoĠ sanĠ
zhangĠ zheĠ
ĠkeĠ huĠ
guĠ wen
kaiĠ huoĠ
fengĠ boĠ
sanĠ zuoĠ
waiĠ yuanĠ
ĠdanĠ daoĠ
ĠjinĠ laiĠ
ĠciĠ hou
ĠyuanĠ yinĠshiĠ
ĠhaiĠ yangĠ
youĠyiĠ xiaĠ
miaoĠ zhun
jueĠdingĠ jiangĠ
ĠyongĠ zhengĠ
renĠminĠ faĠyuanĠ
ĠyiĠsiĠ lan
wenĠxueĠ jiangĠ
erĠjiĠ siĠ
ĠhuoĠdeĠ diĠ
ĠsaiĠ erĠweiĠ
zhengĠxie ĠfuĠzhuĠxiĠ
Ġ2025 ĠnianĠ
ĠĠĠxiangĠgang ĠshiĠjianĠ
ĠmeiĠnianĠpingĠjunĠ jiangĠyuĠliangĠ
Ġsilver Ġ
Ġ ting
ħ Ġ
ke ĠyiĠjiĠ
mei ĠweiĠ
gui ĠfuĠ
duan ĠyouĠ
lao ĠsiĠ
hen ĠhaoĠ
58 ĠnianĠ
OS Ġ
61 Ġ
ĠyiĠ qie
gongĠ cheĠ
geĠ renĠdeĠ
wuĠ xiangĠ
dongĠ jieĠ
ĠriĠ zhiĠshiĠqiĠ
jiaoĠ jieĠchuĠ
ĠkeĠ keĠ
shenĠ xingĠ
ĠfuĠ ziĠ
minĠ shengĠ
jiuĠ huĠ
zuiĠ haoĠ
zuiĠ xiaoĠdeĠ
sanĠ fenĠzhiĠyiĠ
moĠ ni
moĠ zuĠ
ĠgaiĠ juĠ
ĠdeĠdiĠ dianĠ
ĠdeĠzhiĠ liuĠ
Ġa ĠsiĠ
ĠnianĠdai ĠqiĠ
qianĠshuĠ leĠ
xieĠshiĠ houĠ
shuangĠdaĠ guanĠjunĠ
Ġ 1971
Ġ shangĠyouĠ
ĠĠĠ tiĠyuĠ
ĠĠĠ meiĠtiĠ
tong ĠliĠ
ju ĠqiĠ
yan ĠguoĠ
chang ĠshiĠyongĠ
she ĠqiĠ
zhou ĠyouĠ
dang ĠqiĠ
ling ĠtaĠ
gao ĠrenĠ
ba ĠliĠdeĠ
gui ĠweiĠ
gui ĠzhiĠ
lun ĠzhiĠ
zhao ĠxiangĠ
tan ĠdaoĠ
tui ĠweiĠ
heng ĠliangĠ
nu ĠerĠ
49 Ġ
ĠyuĠ tong
zhongĠ chengĠ
ĠyouĠ jianĠ
ĠyouĠ yuĠshiĠ
geĠ luĠ
faĠ xueĠyuanĠ
jingĠ zhuĠ
zhanĠ huoĠ
yingĠ ziĠ
qianĠ beiĠ
xiaoĠ shengĠ
danĠ niĠ
haiĠ wai
biaoĠ qianĠ
caiĠ yuanĠ
ĠgongĠ chengĠshiĠ
ĠziĠ xunĠ
ĠxiangĠ yaoĠ
hanĠ shuĠdeĠ
ĠjuĠ xingĠdeĠ
ĠbiĠ mianĠ
ĠtongĠ xingĠ
baoĠhuĠ quĠ
Ġba ĠkeĠ
ĠaiĠ lunĠ
muĠsiĠ lin
Ġzong ĠbuĠ
Ġda ĠzhongĠ
kunĠ raoĠ
luĠwa ĠerĠheĠ
jianĠli ĠyiĠgeĠ
yeĠluĠsaĠ leng
Ġ juĠzhongĠ
Ġ cuiĠ
Ġ biaoĠmingĠ
Ġ junĠjiĠ
hai ĠerĠ
wang ĠweiĠjiĠ
ping ĠriĠ
shen ĠzaiĠ
lian ĠyuĠ
ben ĠheĠ
tian ĠliĠ
cun ĠshiĠ
16 ĠgeĠ
zhui ĠhuiĠ
SS Ġ
daĠ guiĠmo
ĠbuĠ renĠ
xianĠ suoĠ
zuoĠ luoĠ
jiaoĠ lvĠ
fenĠ gongĠsiĠ
dianĠ fuĠ
zhangĠ laoĠ
ĠxingĠ rongĠ
teĠ xuĠ
suoĠ feiĠ
suoĠ niĠ
baĠ wangĠ
ĠbingĠ congĠ
ĠdanĠ queĠ
ĠwuĠ taiĠ
ouĠ yangĠ
Ġer ĠnianĠ
ĠtaĠmenĠ renĠweiĠ
ĠnianĠ2ĠyueĠ 1ĠriĠ
faĠerĠ ciĠ
meiĠguoĠzhiĠ bangĠdaĠ
7 ĠpingĠfangĠgongĠliĠ
a ĠgeĠ
Ġ fanĠweiĠ
ĠĠĠ idĠ
jie ĠshiĠdeĠ
shang ĠzhongĠ
dong ĠrenĠ
zhe ĠqiĠ
hai ĠjiĠ
jiu ĠshiĠjiĠ
min ĠjiĠ
min ĠyuĠ
ben ĠxingĠ
sha ĠzhiĠ
der ĠĠĠ
tus Ġ
yuĠ zhiĠ
yuĠ qiĠ
ĠliĠ xiĠ
daĠ suan
gongĠ yeĠbuĠ
jianĠ wuĠ
jianĠ qingĠ
jieĠ yeĠ
huiĠ duiĠ
ĠdiĠ 3Ġ
zuoĠ fuĠ
jiaoĠ huoĠ
gaiĠ jieĠ
guĠ muĠ
huĠ waiĠ
zongĠ jueĠsaiĠ
ĠdeĠyiĠ suoĠ
leiĠ teĠ
chanĠ shuĠ
aoĠ huiĠ
qiangĠ lie
manĠ enĠ
liaoĠ ningĠ
ĠmuĠ hanĠmoĠdeĠ
zuĠqiuĠ jinĠbiaoĠsaiĠ
huaiĠ yunĠ
zheĠyiĠ dianĠ
yaĠzhouĠ dianĠshiĠ
zongĠheĠ xingĠ
ruĠxiaĠ biaoĠ
lunĠdun ĠdeĠ
wuĠtaiĠ juĠ
zhanĠweiĠyuĠ zhongĠhuaĠrenĠminĠgongĠheĠguoĠ
keĠxue ĠjiĠshuĠ
hongĠshiĠziĠ huiĠ
aoĠlinĠpiĠ ke
2 ĠpingĠfangĠgongĠliĠ
6 ĠpingĠfangĠgongĠliĠ
Ġ ãĥĪ
Ġ saiĠshiĠ
ai ĠkeĠ
ĠĠĠ 1991
ĠĠĠ 1950
ĠĠĠ RĠ
di ĠweiĠyuĠ
ya ĠdaĠ
yao ĠheĠ
can ĠyinĠ
duan ĠyiĠ
qiang ĠyuĠ
gen ĠdeĠ
ha ĠbuĠsiĠbaoĠ
xiong ĠxingĠ
lou ĠdongĠ
100 ĠmiĠ
ment ĠĠĠ
2026 ĠnianĠ1ĠyueĠ
09 Ġ
Ġnian ĠshiĠqiĠ
ĠyuĠ 2011
yuanĠ shuaiĠ
chuĠ tuĠ
shangĠ bingĠ
xueĠ jianĠ
yanĠ changĠdeĠ
jiangĠ taĠmenĠ
muĠ yangĠ
zhenĠ xiaĠxiaĠyiĠxiaĠdiĠquĠ
xuanĠ zongĠ
shanĠ cunĠ
ĠbeiĠ haiĠdaoĠ
taoĠ zouĠ
tuoĠ miĠerĠ
dianĠshiĠ taiĠdeĠ
zuiĠzhongĠ zaiĠ
ĠboĠ teĠ
ĠnianĠ8ĠyueĠ 31ĠriĠ
ĠdiĠyiĠ geĠ
ĠyaoĠ qingĠ
zuoĠpin ĠyouĠ
jiangĠqiĠ shengĠgeĠweiĠ
Ġ2007ĠnianĠ renĠkouĠ
ĠsiĠtaĠ fuĠ
aĠerĠbaĠ niĠyaĠ
5 ĠzhiĠ
Ġ ne
Ġ Ga
Ġ gĠ
he ĠliĠdeĠ
bai ĠbeiĠ
can ĠjiĠ
pian ĠjianĠ
wa ĠkeĠ
chou ĠdeĠ
chou ĠxiangĠ
do ĠĠĠ
ster Ġ
ĠdeĠ luoĠ
ĠzaiĠ dangĠdiĠ
gongĠ gong
gongĠ jianĠ
keĠ fenĠweiĠ
chengĠ jianĠ
xiangĠ jianĠ
beiĠ duanĠ
jinĠ leĠ
huaĠ gangĠ
tongĠ guanĠ
jiaoĠ huan
jiaoĠ paiĠ
jiaoĠ tongĠshiĠ
yongĠ pinĠ
ĠfuĠ huoĠ
lianĠ shengĠ
zhenĠ suoĠ
lingĠ junĠ
zuiĠ changĠjianĠdeĠ
saiĠ daoĠ
ĠbingĠ buĠshiĠ
ĠjuĠ zhuĠzaiĠ
ĠdeĠshiĠ bingĠ
zhuanĠ bianĠweiĠ
gengĠ haoĠ
ĠdeĠzhiĠ liangĠ
zhunĠ zeĠ
Ġxian ĠheĠ
guanĠfangĠ wangĠzhanĠ
ĠzhiĠjinĠ reng
xiaoĠshuo ĠjiaĠ
muĠqin ĠdeĠ
caoĠzuo ĠxiĠtongĠ
Ġ h
Ġ Å
Ġ yun
Ġ ST
Ġ ãĥ©
ai ĠxingĠ
sheng ĠguoĠ
ming ĠxiĠ
mei ĠliĠdeĠ
nan ĠjiaĠ
luo ĠzhiĠ
ma ĠyuĠ
zong ĠjiĠweiĠ
hao ĠkeĠ
cha ĠbuĠ
kuo ĠyeĠ
liao ĠdongĠ
ha ĠliĠfaĠ
13 ĠrenĠ
sion Ġ
ĠyiĠ guanĠ
ĠyiĠ liaoĠ
ĠyuĠ huiĠ
ĠliĠ muĠ
buĠ jiuĠ
ĠyouĠ erĠ
ĠyouĠ qingĠ
huiĠ tanĠ
jinĠ chuĠ
taĠ suoĠ
yingĠ lianĠbangĠ
xiaoĠ huiĠ
ruĠ duĠ
duoĠ shaoĠ
shuiĠ guanĠ
qiangĠ guanĠ
ĠmingĠ xianĠ
ĠqianĠ houĠ
kanĠ laiĠ
zuĠqiuĠ chaoĠjiĠlianĠsaiĠ
kuanĠ duĠ
Ġai ĠjiĠ
ĠriĠzaiĠ meiĠguoĠ
ĠzhuanĠ yeĠ
Ġduo ĠerĠ
Ġque ĠbaoĠ
ĠmanĠ huaĠ
yingĠjiĠ liĠ
ĠbeiĠqiĠ ruanĠtiaoĠ
Ġ2005ĠnianĠ renĠkouĠ
zhuĠlongĠ cao
ĠfeiĠlvĠ bin
ĠtunĠqiĠ ruanĠtiaoĠ
ĠĠĠlingĠyiĠ fangĠmianĠ
Ġ 1977
Ġ daĠshiĠ
Ġ jiaoĠshiĠ
Ġ 1922ĠnianĠ
ai ĠheĠhuaĠ
ĠĠĠ xueĠshuĠ
ĠĠĠ UAĠ
si ĠĠĠ
jin ĠrenĠ
chang ĠnianĠ
liang ĠyueĠ
bo ĠliĠsiĠ
tiao ĠxianĠ
liao ĠshiĠ
kui ĠbeiĠkeĠ
ed ĠĠĠ
IV Ġ
1897 ĠnianĠ
xingĠ xinĠguanĠfeiĠyanĠqueĠzhenĠbingĠliĠ
ĠbuĠ fuĠ
ĠbuĠ jiaĠ
ĠbuĠ buĠzhangĠ
chengĠ yuan
chengĠ shouĠ
zhuĠ baoĠ
ĠqiĠ yue
yanĠ moĠ
baoĠ yuanĠ
ĠdaĠ xiĠ
jiaoĠ yeĠ
banĠ faĠdeĠ
liangĠ tianĠ
meiĠ youĠshiĠ
shenĠ xianĠ
lingĠ quĠ
suoĠ duanĠ
chuanĠ mei
ĠzheĠ geĠmingĠ
zeĠ chengĠweiĠ
ĠzhuĠ mingĠdeĠ
1Ġ riĠzhiĠ
ĠwangĠ wangĠ
xiangĠgang ĠdaĠxueĠ
xiaoĠshuo ĠdeĠ
ĠdongĠnanĠ jieĠ
ĠshiĠxiĠbanĠyaĠ kaĠsiĠdiĠliĠyaĠ
ĠweiĠyuĠfaĠguoĠao ĠfuĠnieĠ
aoĠsiĠka ĠjinĠ
Ġ houĠyiĠ
Ġ lunĠdunĠ
ĠĠĠ se
ĠĠĠ 1995
su ĠjiaĠ
feng ĠdiĠ
huang ĠweiĠ
shuang ĠbaoĠ
zha ĠdeĠ
ĠzaiĠ juĠ
wuĠ xiĠ
jieĠ diĠ
faĠ bingĠ
fangĠ faĠshiĠ
zhanĠ zhengĠshiĠqiĠ
baoĠ cun
ĠriĠ changĠ
dengĠ shanĠ
zuiĠ zhongĠyuĠ
dingĠ danĠ
kaiĠ piĠ
tuĠ zhuĠ
ĠziĠ geĠ
linĠ jieĠ
tingĠ gaiĠsheĠ
ĠzheĠ yang
gangĠ aoĠ
shuiĠ bianĠ
xunĠ huan
zhuanĠ dongĠ
liĠ faĠ
ganĠ lanĠ
ganĠ zaoĠ
tanĠ ceĠqiĠ
ĠqianĠ zheĠ
reĠ qingĠ
ĠĠĠyiĠ jiĠ
ĠzhiĠjianĠdeĠ guanĠxiĠ
touĠziĠ zheĠ
2 ĠciĠ
Ġ renĠdeĠ
Ġ yaĠyiĠ
Į Ġ
wu ĠyouĠqiĠ
jie ĠjiĠluĠ
zhang ĠzhiĠwuĠ
ya ĠliĠyuĠ
shan ĠweiĠ
shan ĠrenĠ
han ĠheĠ
qin ĠyuanĠ
huang ĠqiĠ
rong ĠjieĠ
ra ĠĠĠ
gua ĠpaiĠ
51 ĠnianĠ
1890 ĠnianĠ
ĠshiĠ yue
weiĠ xingĠ
ĠzhiĠ daĠ
Ġli ĠshiĠjianĠ
ĠliĠ faĠyuanĠ
renĠ zaiĠ
ĠyouĠ xiangĠ
yuanĠ xiĠ
jianĠ xingĠ
zhuĠ renĠweiĠyuanĠ
ĠerĠ baiĠ
tongĠ paiĠdeĠzhuĠ
luĠ guiĠ
junĠ yunĠ
gaiĠ kuangĠ
biĠ xuĠzaiĠ
gaoĠ qingĠ
dengĠ jiĠdeĠ
liuĠ xiaĠdeĠ
maĠ yeĠ
baĠ dengĠ
menĠ xiaĠ
menĠ kouĠ
guiĠ ruĠ
ĠzheĠ shouĠgeĠ
manĠ yanĠ
ceĠ bianĠ
Ġbing ĠdeĠ
ĠmeiĠ guoĠdeĠ
ĠruĠ xiaĠ
guanĠjunĠ saiĠ
kongĠzhiĠ qiĠ
nvĠziĠ tuanĠtiĠ
juanĠ zeng
ĠxiĠbanĠ ya
ĠshiĠyiĠweiĠ meiĠguoĠ
Ġ kun
Ġ shengĠweiĠ
zhong ĠyiĠweiĠ
hou ĠdiĠ
ye ĠshiĠyiĠ
fen ĠyiĠ
jiang ĠdeĠzhuĠ
ping ĠyiĠ
pai ĠbingĠ
kong ĠheĠ
70 ĠnianĠ
44 ĠnianĠ
us ĠĠĠ
MS Ġ
ĠzhiĠ boĠ
ĠyuĠ nanĠ
ĠyouĠ gongĠ
jiaĠ zu
chengĠ xingĠ
beiĠ xuanĠ
ĠqiĠ qiuĠ
dongĠ xiangĠ
fenĠ liangĠ
qianĠ huĠ
ĠjiaĠ longĠshengĠ
qiuĠ tianĠ
teĠ dianĠshiĠ
dengĠ duoĠ
haoĠ huaĠ
ĠbeiĠ renĠweiĠ
niĠ guĠ
guiĠ huanĠ
puĠ dun
hanĠ jianĠdeĠ
ĠxianĠ fengĠ
ĠfaĠ guanĠ
youĠyiĠ tiaoĠ
kangĠ naiĠerĠ
ĠxiaoĠ shuoĠ
kuaiĠ leĠ
wenĠtiĠ shangĠ
ĠbaĠ laĠ
youĠshiĠ langĠ
zhuĠyao ĠweiĠ
Ġbei ĠshiĠweiĠ
boĠwuĠ guan
ĠfenĠbuĠyuĠ zhongĠguoĠdaĠluĠdeĠ
Ġduo ĠnianĠ
ĠcheĠzhanĠ bianĠhaoĠweiĠ
a ĠyiĠ
e ĠzhiĠ
Ġ 1964
Ġ shuĠzhongĠ
yi ĠshiĠweiĠ
you ĠzhiĠyuanĠ
jun ĠsiĠlingĠ
jiu ĠheĠ
dang ĠshiĠyiĠ
shen ĠdiĠ
ting ĠfuĠ
pu ĠheĠ
chao ĠzhongĠ
tan ĠjiĠ
man ĠshiĠ
AT Ġ
zhua ĠzhuĠ
ĠyiĠ xinĠ
qiĠ suĠ
buĠ daĠ
buĠ chongĠ
ĠzhongĠ heĠ
shengĠ gaoĠ
ĠerĠ duiĠ
ĠxiĠ niĠ
ciĠ houĠ
yingĠ muĠ
qianĠ shenĠweiĠ
junĠ faĠ
junĠ duiĠzaiĠ
dianĠ yingĠyuĠ
duĠ changĠ
ĠjiaĠ zhuangĠ
gaiĠ lvĠ
shenĠ zhen
miĠ ha
jiuĠ zhuĠ
benĠ ciĠ
dengĠ huiĠ
zongĠ xiangĠ
ĠjinĠ junĠ
ĠbeiĠ songĠ
lanĠ jingĠ
zeĠ lianĠsiĠjiĠ
duanĠ lieĠ
congĠ xiaoĠ
ĠciĠ quĠ
shaĠ qingĠ
ĠshiĠjiĠ jiĠ
tangĠ shuĠ
ĠruĠ tongĠ
ĠguangĠ boĠ
yanĠjiu ĠheĠ
dongĠhuaĠ dianĠyingĠ
ĠrenĠkou ĠyueĠ
Ġwu ĠyiĠ
yangĠhuaĠ tanĠ
xianĠdeĠdiĠ tieĠcheĠzhanĠ
ĠhongĠzha ĠjiĠ
minĠzhuĠzhuĠyiĠrenĠminĠ gongĠheĠguoĠ
9 ĠgongĠliĠ
ĠĠĠ w
ĠĠĠ 1996
ĠĠĠ Man
zhong ĠdeĠshiĠ
guo ĠdeĠyiĠgeĠ
du ĠdiĠ
bo ĠtaĠ
ben ĠyiĠ
kai ĠliĠ
tu ĠyiĠ
ze ĠzhiĠ
xiu ĠqiĠ
man ĠxingĠ
bang ĠwanĠ
wa ĠshengĠ
fuĠ feiĠ
jieĠ boĠ
beiĠ houĠ
ĠxiĠ mengĠ
shouĠ jianĠ
dongĠ jing
leĠ xinĠ
ĠdaĠ xueĠshiĠ
luĠ xianĠdeĠ
taiĠ jianĠ
nanĠ duoĠ
qingĠ danĠ
muĠ caiĠ
suoĠ chanĠshengĠdeĠ
yunĠ xingĠdeĠ
leiĠ su
ĠciĠ shuĠ
ĠdongĠ beiĠyuĠ
huangĠ jinĠshiĠ
ĠdeĠzhiĠ mingĠ
jingĠjiĠ faĠzhanĠ
erĠshiĠ wuĠ
chengĠyuanĠ zhiĠyiĠ
ĠchangĠ biĠsaiĠ
ĠshiĠweiĠyuĠ riĠbenĠ
yinĠduĠ yangĠ
Ġbei ĠyuĠ
Ġzong ĠjiĠ
ĠdeĠzhiĠchiĠ lvĠ
jueĠding ĠzaiĠ
tongĠweiĠ suĠ
tianĠzhuĠ jiao
suanĠjianĠ ce
ĠgaiĠcunĠ mianĠjiĠ
moĠtuoĠ cheĠ
Ġ Go
Ġ xiĠliĠ
li ĠweiĠ
ĠĠĠ eĠ
ĠĠĠ zhaoĠ
ĠĠĠ yueĠtaiĠ
shang ĠdeĠyiĠ
dian ĠshiĠdeĠ
10 ĠrenĠ
gou ĠsiĠ
pian ĠbeiĠ
pa ĠkeĠ
shun ĠzhiĠ
teng ĠtongĠ
59 ĠnianĠ
63 ĠnianĠ
1894 ĠnianĠ
ĠrenĠ gongĠ
fuĠ yongĠ
beiĠ pingĠweiĠ
shouĠ gaoĠ
shangĠ xueĠ
fangĠ sheĠxingĠ
duiĠ zheĠ
wenĠ keĠ
dangĠ wanĠ
ĠjianĠ duiĠ
baiĠ zhanĠting
puĠ linĠsiĠ
ĠxiangĠ duiĠyuĠ
ĠzhuĠ yaoĠdeĠ
cengĠ duoĠciĠ
diĠyiĠ zhangĠ
ĠshiĠjiĠ qiĠ
ĠdeĠjiĠ yinĠ
ĠrenĠminĠ gongĠheĠguoĠ
liĠshiĠ shangĠ
ĠluĠ waĠerĠ
ĠcaiĠ nengĠ
ĠleiĠ xingĠweiĠ
boĠwuĠ guanĠdeĠ
lingĠdaoĠ zheĠ
shengĠrenĠ daĠ
boĠlanĠ huiĠ
Ġdai ĠyouĠ
geĠming ĠweiĠyuanĠhuiĠ
zuĠqiuĠjiaĠjiĠ lianĠsaiĠ
Ġ 1962
Ġ CH
Ġ Ju
Ġ fenĠbuĠ
Ġ geĠshiĠ
Ġ minĠzhongĠ
ji ĠshiĠyiĠ
ĠĠĠ 1992
wei ĠĠĠformulaĠ
xing ĠweiĠyuanĠhuiĠ
wu ĠrenĠyuanĠ
bei ĠyuĠweiĠ
shang ĠdeĠyiĠgeĠ
lai ĠheĠ
bian ĠheĠ
men ĠyuĠ
qin ĠqiĠ
huang ĠchengĠ
zang ĠzaiĠ
chai ĠjieĠ
do Ġ
zhiĠ duĠ
ĠweiĠ riĠbenĠ
xingĠ xingĠweiĠ
yuanĠ yangĠ
keĠ luoĠdiĠyaĠ
zhuĠ tiĠdeĠ
xueĠ shuoĠ
yanĠ changĠzhiĠ
qianĠ juĠ
danĠ bai
ĠfuĠ feiĠ
wanĠ quanĠbuĠ
boĠ enĠ
yunĠ zhuanĠ
maĠ saiĠ
ĠbingĠ yinĠ
caiĠ huaĠ
guiĠ xiangĠ
ĠzhuĠ jiaoĠ
ĠgeĠ daĠ
ĠgeĠ ciĠ
ĠyiĠjiĠ zhongĠ
qieĠ duanĠ
ĠdengĠ xiaoĠ
ĠnianĠ5ĠyueĠ 20ĠriĠ
ĠmaĠ enĠshengĠ
tiĠgongĠ fuĠwuĠ
minĠzhuĠ gongĠheĠguoĠ
ĠmengĠ gu
ĠlanĠ seĠ
ĠjiĠbenĠ shangĠ
yangĠheĠ tangĠheĠ
ĠĠĠcanĠkaoĠ wenĠxianĠ
xiĠzhiĠxingĠ guanĠ
Ġ 1957
Ġ lvĠyouĠ
Ġ yĠ
ba ĠriĠ
feng ĠzaiĠ
lv ĠzhiĠ
han ĠdanĠ
ting ĠgongĠ
10 ĠmingĠ
cong ĠyiĠ
11 ĠrenĠ
wa ĠziĠshengĠ
qiao ĠheĠ
sa ĠmuĠ
lang ĠkeĠ
ĠshiĠ liangĠ
ĠjiĠ xiĠ
qiĠ xiĠdiĠ
erĠ feiĠ
chengĠ jiaoĠ
shengĠ keĠ
xiangĠ shouĠ
faĠ chuĠdeĠ
huiĠ biĠ
ĠerĠ taĠdeĠ
shouĠ zuoĠ
ĠdaĠ xianĠ
fenĠ zhanĠ
ĠxingĠ taiĠ
teĠ wuĠ
teĠ youĠdeĠ
tianĠ ziĠ
tianĠ ciĠ
biaoĠ shuĠ
fanĠ boĠ
suĠ huaĠ
ĠbingĠ wuĠ
neiĠ zhengĠ
baiĠ xueĠ
ĠzheĠ ge
ĠweiĠyuĠ nanĠ
ganĠ raoĠ
ĠshiĠjiĠ huaĠ
zhengĠfuĠ junĠ
gengĠ rongĠyiĠ
ĠwanĠ mingĠ
erĠshiĠ wuĠnianĠ
ĠshiĠzhiĠ youĠ
faĠshengĠ chongĠtuĠ
Ġye ĠyuĠ
ĠsuoĠyiĠ zaiĠ
ĠnianĠchuĠ banĠdeĠ
ĠciĠshiĠ xiaĠ
keĠluoĠ laĠduoĠ
ĠshiĠdeĠrenĠ kouĠweiĠ
boĠluoĠdiĠ haiĠ
huiĠru ĠdiĠtuĠ
¸ Ġ
Ġ Com
Ġ shuĠshiĠ
Ġ fuĠheĠ
an ĠqiĠ
ĠĠĠ No
ĠĠĠ jieĠgouĠ
ĠĠĠ zheĠshiĠ
cheng ĠyueĠ
bi ĠkeĠ
fang ĠshiĠdeĠ
mei ĠsiĠ
hai ĠkeĠ
qiu ĠzhiĠ
gan ĠxingĠ
seng ĠrenĠ
ad Ġ
Ġnian ĠshiĠshiĠ
ĠzhiĠ zuoĠrenĠ
ĠheĠ changĠ
fuĠ lanĠkeĠ
jieĠ jue
zhuĠ sheĠ
beiĠ jianĠ
ĠerĠ jieĠ
zhengĠ tongĠ
yingĠ pingĠrenĠ
tongĠ junĠ
qianĠ yeĠ
taiĠ ciĠ
xiaoĠ baĠ
danĠ fuĠ
menĠ dianĠ
leiĠ biĠ
guiĠ zeĠdeĠ
ĠyiĠzhiĠ zhiĠ
zuĠzhiĠ heĠ
taiĠwanĠ shengĠ
ziĠjiĠ weiĠ
diĠerĠ geĠ
keĠneng ĠyouĠ
ĠzhiĠyeĠ shengĠyaĠ
teĠbie ĠdeĠ
ĠjiĠtuan ĠdeĠ
jingĠzhengĠ duiĠshouĠ
ĠjieĠkeĠ xunĠ
piĠfuĠ tongĠyiĠ
ĠhenĠ kuaiĠ
anĠzhuang ĠzaiĠ
ĠyaĠmeiĠ niĠyaĠ
3 ĠpingĠfangĠgongĠliĠ
Ġ CO
Ġ xiĠdeĠ
ĠĠĠ 1993
ĠĠĠ kaiĠfaĠ
ĠĠĠ 1993ĠnianĠ
jie ĠĠĠ
fang ĠshiĠshiĠ
gao ĠqiĠ
yang ĠguoĠ
shan ĠzhongĠ
che ĠsiĠteĠ
pu ĠzaiĠ
rd Ġ
ft Ġ
Ġli ĠyiĠjiĠ
ĠheĠ jinĠ
xiangĠ xiaĠ
daoĠ fangĠ
shangĠ mianĠ
taĠ chengĠweiĠ
tongĠ qinĠ
zuoĠ youĠdeĠ
jiaoĠ zhangĠ
banĠ jueĠsaiĠ
ĠxingĠ haoĠ
yangĠ mingĠ
waiĠ chuĠ
touĠ muĠ
zhaoĠ shuĠ
tiaoĠ xuanĠ
tiaoĠ jianĠdeĠ
yueĠ seĠfuĠ
ĠshangĠ yingĠ
leĠyiĠ ciĠ
ĠwenĠ geĠ
ĠwenĠ xueĠ
Ġceng ĠshiĠ
fanĠweiĠ neiĠdeĠ
keĠneng ĠzaiĠ
nanĠziĠ tuanĠtiĠ
chuangĠzuoĠ leĠ
ĠdiĠsanĠ ciĠ
faĠzhan ĠheĠ
ĠzhongĠbuĠ tongĠdeĠ
ĠweiĠyuĠfaĠguoĠ shangĠfaĠlanĠxiĠdaĠquĠ
luĠjiĠ yaĠ
ĠyiĠnian ĠhouĠ
ĠfuĠza ĠdeĠ
8 ĠpingĠfangĠgongĠliĠ
Ġ xiaĠyiĠ
Ġ 1925ĠnianĠ
ĠĠĠ Car
bi ĠyouĠ
huo ĠxiĠ
zhou ĠyiĠhuiĠ
ban ĠguoĠ
jiu ĠriĠ
dang ĠshiĠrenĠ
ba ĠyuĠ
lan ĠdiĠ
sha ĠdiĠ
ĠjiĠ nanĠ
qiĠ fuĠ
buĠ jianĠ
buĠ juĠ
daĠ mingĠ
daĠ xuanĠzhongĠ
fuĠ jiaoĠshouĠ
zhengĠ zhouĠ
zhengĠ baĠ
shangĠ baoĠ
jiaoĠ sheĠ
jiangĠ laiĠ
bingĠ chengĠ
haiĠ shuiĠ
jiuĠ jinĠ
lingĠ yuanĠ
luoĠ geĠ
yaoĠ qing
liuĠ lang
ĠdanĠ yuanĠ
chongĠ shenĠ
ĠciĠ xingĠ
zhongĠguoĠ keĠxueĠyuanĠ
ĠshouĠ gouĠ
ĠshuĠ ziĠ
ĠnianĠ12ĠyueĠ 30ĠriĠ
ĠshiĠzhiĠ zaiĠ
ĠnaĠ xieĠ
ĠzhuĠyaoĠ fenĠbuĠyuĠ
yaĠzhouĠ yunĠdongĠhuiĠ
Ġzhang ĠdaĠ
jianĠchaĠ guanĠ
wuĠrenĠ cheĠzhanĠ
saoĠ rao
ĠĠĠ1949 ĠnianĠ
ĠhuaĠshengĠ dunĠ
nongĠcunĠjuĠminĠ dianĠ
xinĠjiangĠweiĠwuĠerĠ ziĠzhiĠquĠ
guangĠxiĠzhuangĠ zuĠziĠzhiĠquĠ
4 ĠzhiĠ
Ġ xiĠjiĠ
Ġ muĠdiĠ
Ġ ziĠshiĠ
ĠĠĠ World
ĠĠĠ saiĠshiĠ
mi ĠĠĠ
yin ĠxiĠ
zuo ĠliĠ
xin ĠzaiĠ
dan ĠzhiĠ
du ĠsiĠ
jiu ĠguoĠ
bo ĠliĠweiĠ
fan ĠyouĠ
su ĠqiĠ
gui ĠguoĠ
chao ĠjianĠ
tou ĠchuĠ
25 ĠrenĠ
ble Ġ
my Ġ
ensis Ġ
ĠyiĠ guĠ
ĠyiĠ yuanĠrenĠminĠbiĠ
ĠweiĠ yiĠdeĠ
ĠzhiĠ zao
ĠyuĠ guoĠ
ĠyuĠ yuanĠ
ĠheĠ zaiĠ
keĠ xingĠxingĠ
dongĠ anĠ
zuoĠ daoĠ
xiaĠ langĠdeĠshengĠ
meiĠ guoĠyuĠ
shanĠ junĠ
ĠbingĠ keĠ
ĠjinĠ shenĠ
tingĠ yuanĠ
zhuangĠ shangĠ
ĠhouĠ xuĠ
ĠshiĠjiĠ shang
ceĠ mianĠ
chuangĠ huĠ
zhiĠshiĠ fenĠziĠ
liĠshiĠ nianĠdaiĠweiĠ
zhuĠyao ĠyiĠ
ĠzhiĠyouĠ zaiĠ
ĠzhuĠyao ĠyouĠ
keĠsiĠ luoĠfaĠkeĠ
baoĠliuĠ leĠ
anĠquan ĠxingĠ
shouĠluĠ leĠ
kaiĠshiĠshiĠ yongĠ
canĠjia ĠguoĠ
yunĠzaiĠ huoĠjianĠ
ĠĠĠcanĠkao ĠziĠliaoĠ
Ġ wen
Ġ 42
Ġ Ã©Ġ
hao ĠyueĠ
cong ĠerĠ
tuo ĠyuanĠ
chou ĠjiĠ
nal ĠĠĠ
ĠshiĠ shouĠ
ĠweiĠ gaiĠ
ĠweiĠ shenĠ
buĠ mingĠ
xiĠ aiĠ
ĠdiĠ 1
jingĠ huaĠ
zheĠ me
yinĠ fuĠ
xinĠ sheĠ
luĠ teĠ
qingĠ tingĠ
meiĠ xueĠ
sheĠ jianĠ
zhouĠ bianĠdeĠ
anĠ shengĠ
guĠ lao
kaiĠ changĠ
kaiĠ laiĠ
kaiĠ qiangĠ
moĠ xingĠdeĠ
huanĠ shangĠ
aiĠ naĠ
henĠ rongĠyiĠ
heiĠ se
Ġgai ĠrenĠ
ĠnianĠqiĠ danĠrenĠ
ĠĠĠjiĠ shuĠ
ĠĠĠliĠ yongĠ
niĠya ĠheĠ
duiĠwaiĠ kaiĠfangĠ
ĠshiĠxingĠdengĠweiĠ 5
ĠzhongĠwen ĠdaĠxueĠ
ĠteĠlangĠ puĠ
Ġ Wa
Ġ David
Ġ guoĠyuĠ
Ġ xiĠzhiĠ
ĠĠĠ Ne
ĠĠĠ 1945ĠnianĠ
xing ĠdeĠyiĠ
hua ĠxiĠ
ya ĠdiĠquĠ
hai ĠjiaĠ
la ĠxiĠ
zhuan ĠerĠ
xun ĠyuĠ
hang ĠdaoĠ
piao ĠshuĠ
mang ĠshenĠ
1886 ĠnianĠ
ĠyuĠ jianĠ
shouĠ chiĠ
dongĠ zhanĠ
jingĠ songĠ
baoĠ miĠ
fenĠ yuanĠ
fenĠ hangĠ
taiĠ miĠerĠ
wanĠ jiaĠdeĠ
zhouĠ daoĠ
qiuĠ zhangĠ
boĠ chu
ĠbingĠ yongĠ
ĠdanĠ maiĠ
ĠbeiĠ jieĠ
ĠwuĠ luĠ
lvĠ se
zhaoĠ zeĠ
longĠ duanĠ
ĠmingĠ lingĠ
ĠzhongĠguoĠ renĠ
ĠzhongĠguoĠ keĠxueĠyuanĠ
panĠ guanĠ
ĠshuĠ xueĠ
ĠruĠ ciĠ
louĠ mianĠ
ĠshenĠ zhiĠshiĠ
Ġgai ĠshiĠzhenĠ
ĠnianĠyiĠ qianĠ
ĠzhongĠyang ĠweiĠyuanĠ
ĠgaiĠshengĠfenĠweiĠfaĠguoĠ xiĠnanĠbuĠ
fuĠjiĠ niĠyaĠ
Ġdong ĠzhiĠ
shengĠdiĠ yaĠgeĠ
suoĠmuĠ shengĠ
wuĠyouĠqiĠ suoĠshuĠdeĠ
Ġ c
Ġ ren
Ġ daoĠdeĠ
Ġ leiĠdeĠ
Ġ diaoĠchaĠ
Ġ kuiĠ
Ġ gongĠyouĠrenĠkouĠ
Ġ rengĠran
Ġ xiĠyuĠ
Ġ rengĠranĠ
Ġ queĠdingĠ
ĠĠĠ 1988ĠnianĠ
bi ĠdaĠ
hai ĠliĠ
zhou ĠriĠ
bo ĠdiĠ
gao ĠyueĠ
che ĠjiĠ
neng ĠyiĠ
sen ĠzaiĠ
zan ĠyuĠ
sou ĠxunĠ
76 ĠnianĠ
ĠyiĠ duiĠ
Ġli ĠdeĠyiĠ
ĠzhongĠ huaĠrenĠminĠgongĠheĠ
chengĠ gong
xiangĠ zhenĠ
beiĠ yongĠyuĠ
faĠ kuanĠ
zhengĠ tingĠ
shouĠ ceĠ
yeĠ xiangĠ
guanĠ shangĠyuĠ
duĠ leiĠ
shenĠ lingĠ
jiuĠ shengĠ
maĠ maĠ
sanĠ tiaoĠ
paiĠ shuiĠ
ĠjinĠ jinĠ
ĠziĠ shaĠ
kongĠ gu
gouĠ zao
longĠ touĠyuĠ
huangĠ diĠdeĠ
yanĠjiuĠ faĠxianĠ
ĠshiĠqiĠ taĠ
sheĠhuiĠ xueĠ
ĠnianĠ10ĠyueĠ 10ĠriĠ
ĠnianĠ5ĠyueĠ 15ĠriĠ
ĠnaĠ meĠ
geĠyueĠ neiĠ
ĠĠĠjuĠ leĠbuĠ
Ġe ĠerĠ
Ġhong ĠzhiĠ
luĠyiĠsiĠ anĠnaĠ
guiĠzhouĠ shengĠ
wenĠgeĠ huaĠ
riĠerĠ manĠ
7 ĠyueĠzhiĠ
9 ĠhaoĠ
Ġ ãĤ¢
Ġ 1903ĠnianĠ
ĠĠĠ chiĠ
jian ĠliĠyiĠ
liu ĠyouĠ
liu ĠdaĠ
fan ĠguoĠ
pai ĠdiĠ
lun ĠbeiĠ
zhao ĠjianĠ
nie ĠshengĠ
pen ĠfaĠ
ble ĠĠĠ
ĠshiĠ huiĠ
ĠyiĠ ranĠ
ĠliĠ fangĠmiĠ
ĠzaiĠ qingĠ
xiĠ suĠ
wuĠ chaĠ
shouĠ suoĠ
zhanĠ shangĠ
yeĠ quĠ
wenĠ mingĠdeĠ
fenĠ lan
qianĠ zheĠ
nanĠ huaĠ
minĠ zhengĠfuĠ
huĠ xianĠ
tuĠ shangĠ
ĠdanĠ niĠerĠ
ĠbeiĠ buĠdeĠcunĠzhuangĠ
ĠshiĠyiĠ tiaoĠ
aoĠ tuoĠ
hangĠ haiĠ
zhongĠdeĠ zhiĠ
meiĠyouĠ zaiĠ
ĠliangĠ renĠyuĠ
ĠnianĠ9ĠyueĠ 28ĠriĠ
siĠdeĠ geĠerĠ
ĠnianĠ4ĠyueĠ 30ĠriĠ
ĠnianĠzaiĠ ciĠ
ĠĠĠciĠ houĠ
Ġwu ĠweiĠ
Ġe ĠguoĠ
ĠĠĠzhongĠguoĠ daĠluĠ
ĠĠĠ2025 ĠnianĠ
anĠdaĠ lve
yinĠdiĠanĠnaĠ zhouĠ
ĠÐ¸ Ġ
Ġ 1930
ji ĠdeĠshiĠ
ĠĠĠ 1980
ĠĠĠ Fa
ĠĠĠ aĠerĠ
si ĠshiĠdeĠ
fang ĠguoĠ
pi ĠzhiĠ
la ĠbuĠ
yang ĠweiĠ
tu ĠbuĠ
yun ĠzhiĠ
neng ĠjiĠ
chuan ĠxiĠ
chi ĠweiĠ
tan ĠzhongĠ
15 ĠgeĠ
co Ġ
ys Ġ
07 Ġ
ĠdeĠ xingĠshiĠ
daĠ nao
keĠ zuoĠ
keĠ kaoĠ
zhuĠ shuĠ
xianĠ cunĠ
ĠqiĠ tiĠ
ĠerĠ bu
tongĠ shuĠ
tongĠ zhiĠshiĠqiĠ
duiĠ jiaoĠ
fenĠ lei
huoĠ yaoĠ
ĠkeĠ yiĠdeĠdaoĠ
biĠ mingĠ
meiĠ huaĠ
meiĠ youĠjiĠ
sheĠ quĠdeĠ
guĠ zhuĠ
kaiĠ chuangĠ
ĠbingĠ sheĠyouĠ
guiĠ hua
zeĠ chengĠ
lvĠ guanĠ
douĠ laĠ
aĠ dengĠ
tiaoĠ kuan
ĠmuĠ banĠ
danĠrenĠ guoĠ
ĠnianĠ8ĠyueĠ 15ĠriĠ
shuangĠ cengĠ
fangĠshiĠ laiĠ
jianĠzhuĠ mianĠjiĠ
ĠgongĠliĠ chuĠ
xinĠwenĠ faĠbuĠ
ĠweiĠzhuĠ tiĠdeĠ
Ġsi ĠrenĠ
daĠjiĠ lvĠ
shuaiĠ tuiĠ
Ġqiong ĠsiĠ
nuoĠmanĠdiĠ daĠquĠ
5 ĠpingĠfangĠgongĠliĠ
¡ Ġ
ĠĠĠ Ki
qu ĠyueĠ
chang ĠyiĠjiĠ
qing ĠdiĠ
qing ĠdaĠ
ben ĠjiaĠ
ze ĠbuĠ
pai ĠdaoĠ
guang ĠyuĠ
ceng ĠyinĠ
10 ĠyueĠzhiĠ
17 ĠshiĠjiĠ
14 ĠgeĠ
ar ĠĠĠ
78 Ġ
ĠshiĠ zongĠ
buĠ jinĠ
ĠyouĠ jiaĠ
ĠzaiĠ faĠ
chengĠ yinĠ
xiangĠ shangĠ
xiangĠ linĠdeĠ
daoĠ suĠ
beiĠ pan
beiĠ yangĠ
ĠerĠ lingĠyiĠ
jingĠ xinĠ
leĠ taĠmenĠ
fangĠ baoĠ
huaĠ xuĠ
yeĠ nengĠ
changĠ chunĠ
ĠsiĠ kaĠ
dianĠ dengĠ
danĠ xiaĠ
ĠjiaĠ banĠ
liangĠ taiĠ
shenĠ touĠ
sheĠ shouĠ
sheĠ yingĠshiĠ
gaoĠ chaoĠ
suoĠ yinĠ
ĠxiangĠ jiaoĠ
ĠbaoĠ zhangĠ
liĠ kaiĠ
zhaoĠ biaoĠ
tanĠ ce
miaoĠ shuĠdeĠ
ĠnianĠ6ĠyueĠ 28ĠriĠ
jiangĠjunĠ xianĠ
buĠfen ĠdiĠquĠ
xuanĠzeĠ leĠ
ĠaiĠerĠ lanĠ
4 ĠjiaĠ
4 ĠpingĠfangĠgongĠliĠ
a ĠweiĠ
Ġ hui
Ġ 87
Ġ 250
Ġ biĠliĠ
Ġ dĠ
Ġ foĠjiaoĠ
ĠĠĠ Po
he ĠshiĠjianĠ
jie ĠweiĠshengĠ
zhan ĠzhiĠjianĠ
mei ĠxiĠ
ding ĠdiĠquĠ
neng ĠheĠ
12 ĠshiĠ
kan ĠchengĠ
16 ĠrenĠ
16 ĠshiĠjiĠ
zhui ĠbuĠ
99 ĠnianĠ
1899 ĠnianĠ
fuĠ yangĠ
beiĠ xingĠ
ĠdiĠ san
jiangĠ wuĠ
dianĠ puĠ
ĠxingĠ geĠ
wanĠ saiĠ
zongĠ canĠmouĠbuĠ
sanĠ leiĠ
ĠjinĠ rongĠ
tingĠ zhengĠ
ĠshengĠ chan
chuangĠ banĠdeĠ
erĠshiĠ erĠ
ĠnianĠ9ĠyueĠ 30ĠriĠ
ĠlianĠ bang
minĠzhuĠ paiĠ
ĠzuiĠzhongĠ huanĠxiangĠ
Ġjiang ĠshiĠ
ĠyunĠ shuĠ
ĠnianĠshiĠ erĠyueĠ
ĠliĠkeĠ siĠ
Ġsan ĠrenĠ
miĠerĠ dunĠ
ĠĠĠcheĠzhanĠ zhouĠbianĠ
ĠwanĠliĠ fangĠmiĠ
Ġ28 Ġ
maĠqiĠ dunĠ
Q Ġ
Ġ shuĠweiĠ
Ġ touĠbuĠ
ĠĠĠ We
ĠĠĠ taĠmenĠ
you ĠliĠyuĠ
gu ĠxiĠ
luo ĠbuĠ
xu ĠerĠ
yang ĠzaiĠ
han ĠdaĠxueĠ
zhuang ĠyuĠ
gan ĠsiĠkeĠ
kang ĠshengĠ
nu ĠdeĠ
luan ĠdeĠ
nie ĠfuĠleiĠ
ff Ġ
ĠzhiĠ renĠ
ĠyuĠ linĠ
qiĠ youĠ
diĠ guoĠdeĠ
jieĠ shengĠ
shouĠ dongĠ
shouĠ junĠ
xueĠ zhe
yingĠ guanĠ
zuoĠ ye
yinĠ xianĠ
changĠ geĠ
luĠ biĠ
luĠ senĠbaoĠ
qianĠ biĠ
pingĠ muĠ
danĠ renĠzhiĠ
muĠ qianĠdeĠ
teĠ lvĠ
dangĠ zhuĠxiĠ
kaiĠ huiĠ
gangĠ gangĠ
ĠfaĠ dongĠjiĠ
keĠyiĠ yiĠ
liaoĠ yangĠ
peiĠ daiĠ
Ġyin ĠshiĠ
erĠshiĠ baĠnianĠ
shengĠliĠ houĠ
buĠyiĠ dingĠ
chaoĠxianĠ banĠdaoĠ
gongĠyeĠ quĠ
shengĠweiĠ changĠweiĠ
tieĠdaoĠ bingĠ
ĠtuoĠ maĠsiĠ
ĠĠĠxiaĠ xiaĠ
Ġhan ĠyuĠ
sanĠjiaĠ diĠ
9 ĠpingĠfangĠgongĠliĠ
Ġ 77
Ġ tuĠerĠ
Ġ yuanĠzhiĠ
Ġ jingĠyouĠ
Ġ taiĠzhongĠ
Ġ 1918ĠnianĠ
į Ġ
ji ĠshiĠqiĠ
ĠĠĠ Lo
ĠĠĠ 1992ĠnianĠ
wu ĠrenĠheĠ
mi ĠkeĠ
jing ĠyueĠ
jiang ĠĠĠ
zhen ĠyouĠ
sai ĠkeĠ
chuan ĠweiĠ
tiao ĠzhiĠ
dun ĠshiĠ
kuai ĠdiĠ
teng ĠyuanĠ
ga ĠmaĠ
68 Ġ
ĠshiĠ meiĠguo
ĠyiĠ xiaĠweiĠ
ĠjiĠ miĠ
ĠzhiĠ zuo
ĠzaiĠ baĠ
ĠrenĠ shengĠ
gongĠ buĠweiĠ
chengĠ zanĠ
jinĠ eĠ
juĠ baoĠ
zhengĠ zhanĠ
mingĠ zhuĠ
yingĠ guo
yeĠ siĠ
dianĠ rongĠ
zhangĠ jingĠ
qiuĠ duiĠzaiĠ
fanĠ weiĠdeĠ
huĠ kouĠ
fengĠ chenĠ
chuanĠ zheĠ
ĠbeiĠ hanĠ
ĠshiĠyiĠ nian
guiĠ dingĠdeĠ
ĠshiĠweiĠ fuĠshuĠjiĠ
qinĠ lveĠ
tuoĠ niĠ
ĠchangĠ jiangĠ
shuĠjuĠ kuĠ
ĠzheĠshiĠ taĠ
meiĠtiĠ baoĠdaoĠ
ĠyuĠqiĠ ta
bianĠhuaĠ tuĠ
jiaĠyiĠ xianĠ
teĠbie ĠshiĠ
Ġdai ĠweiĠsiĠ
2ĠhaoĠ xianĠ
suanĠjianĠ ceĠ
xiĠzangĠ ziĠzhiĠquĠ
kongĠjun ĠjiĠdiĠ
Ġ 1933
Ġ weiĠdeĠ
Ġ ziĠweiĠ
ĠĠĠ taiĠwan
zhu ĠyiĠzhiĠ
yan ĠshiĠdeĠ
luo ĠjiaĠ
zhuang ĠxianĠ
zhao ĠchuĠ
long ĠrenĠ
hong ĠshiĠ
99 Ġ
ght Ġ
youĠ xiĠdeĠ
daĠ menĠ
jianĠ duiĠdeĠ
zhuĠ jiaoĠweiĠ
xianĠ zhuangĠ
ziĠ chan
ziĠ siĠ
shuĠ xiaĠ
quĠ neiĠdeĠ
fangĠ song
baoĠ feiĠ
zuoĠ weiĠyiĠgeĠ
ĠdaĠ jinĠ
jiaoĠ zhuĠ
gaiĠ juĠ
banĠ qianĠ
zuĠ jianĠdeĠ
anĠ beiĠ
sanĠ yuanĠ
puĠ linĠ
qiangĠ shangĠ
hangĠ tian
yanĠjiuĠ biaoĠmingĠ
dianĠshiĠ pinĠdaoĠ
reĠ lieĠ
ĠzhanĠ zongĠrenĠkouĠdeĠ
nuoĠ manĠ
ĠguĠ mingĠ
gaiĠbianĠ chengĠ
ĠguoĠminĠ geĠmingĠ
yinĠdiĠ anĠ
0 ĠrenĠ
1 ĠpingĠfangĠgongĠliĠ
Ġ Har
Ġ feiĠxingĠ
Ġ gaoĠjiĠ
Ġ 1921ĠnianĠ
an ĠyouĠ
jian ĠdeĠyiĠ
gai ĠyuĠ
zhang ĠĠĠ
duo ĠliĠya
san ĠdiĠ
feng ĠsiĠ
chuan ĠheĠ
tou ĠxiĠ
duan ĠheĠ
ce ĠyouĠ
xun ĠheĠ
wo ĠshiĠ
dy Ġ
ĠyiĠ jiuĠ
ĠyuĠ zhongĠguoĠ
buĠ jiaĠ
erĠ ciĠ
ĠguoĠ huiĠyiĠyuanĠ
jieĠ chengĠ
shouĠ lunĠ
shangĠ xueĠyuanĠ
yanĠ qingĠ
baoĠ zhuĠ
huaĠ lianĠ
xinĠ pianĠ
duiĠ jueĠ
qianĠ shenĠshiĠ
junĠ zhengĠfuĠ
haiĠ muĠ
yaĠ shuĠ
yaĠ naĠ
zuiĠ zhongĠdeĠ
baĠ jieĠ
fengĠ yunĠ
ĠziĠ benĠ
puĠ lu
ĠxianĠ houĠzaiĠ
ĠxianĠ xiaoĠliĠyuĠ
ĠjuĠ beiĠ
ĠdeĠshiĠ weiĠ
ĠshengĠ taiĠ
Ġtong ĠnianĠ6ĠyueĠ
ĠzuiĠ houĠdeĠ
ĠshiĠyouĠ renĠkouĠ
Ġxian ĠyuĠ
kongĠzhiĠ quanĠ
Ġba ĠjiĠsiĠ
ĠweiĠfuĠ teĠ
ĠyuĠshiĠ zaiĠ
biaoĠzhunĠ huaĠ
gaiĠdiĠ quĠdeĠ
jieĠfangĠ jun
Ġke ĠzaiĠ
ĠĠĠsuiĠ houĠ
ĠbuĠfen ĠdiĠquĠ
ĠĠĠshiĠyongĠ zhuangĠkuangĠ
henĠkuaiĠ jiuĠ
ĠweiĠfuĠqiĠyuĠgang ĠnianĠ
xingĠdong ĠzhongĠ
ĠfenĠbuĠzaiĠ zhongĠguoĠdaĠluĠdeĠ
youĠshiĠyiĠ laiĠ
X ĠĠĠ
Ġ de
Ġ dao
Ġ heĠshiĠ
Ġ xiĠweiĠ
ĠĠĠ Pi
ĠĠĠ naĠ
ĠĠĠ guoĠjiaĠ
qi ĠshiĠyiĠ
hu ĠxingĠ
le ĠyiĠweiĠ
cong ĠdiĠ
wa ĠheĠ
wa ĠerĠdeĠ
pan ĠyuĠ
dun ĠzaiĠ
niu ĠxiĠlanĠ
shua ĠxinĠ
ĠyiĠ lanĠ
youĠ huaĠ
qiĠ guanĠ
ĠzaiĠ tianĠ
fuĠ baiĠ
ĠqiĠ geĠ
huiĠ chengĠ
ĠxiĠ beiĠbuĠ
zhanĠ leĠ
luĠ jiaĠ
luĠ tianĠ
qingĠ tongĠ
yaĠ yunĠ
yaĠ zuĠlianĠ
anĠ quanĠbuĠ
boĠ lanĠdeĠ
baĠ xianĠ
ĠbingĠ ziĠ
ĠjianĠ cha
ĠshiĠweiĠ zhiĠ
ĠnianĠ1ĠyueĠ 15ĠriĠ
ĠdangĠ wanĠ
ĠjiuĠ longĠ
zuĠqiuĠ yuanĠ
ĠchangĠ pian
jiaĠzhiĠ guanĠ
[...]
