{
  "version": "1.0",
  "truncation": null,
  "padding": null,
  "added_tokens": [
    {
      "id": 0,
      "content": "[UNK]",
      "single_word": false,
      "lstrip": false,
      "rstrip": false,
      "normalized": false,
      "special": true
    },
    {
      "id": 1,
      "content": "[PAD]",
      "single_word": false,
      "lstrip": false,
      "rstrip": false,
      "normalized": false,
      "special": true
    },
    {
      "id": 2,
      "content": "[CLS]",
      "single_word": false,
      "lstrip": false,
      "rstrip": false,
      "normalized": false,
      "special": true
    },
    {
      "id": 3,
      "content": "[SEP]",
      "single_word": false,
      "lstrip": false,
      "rstrip": false,
      "normalized": false,
      "special": true
    }
  ],
  "normalizer": null,
  "pre_tokenizer": {
    "type": "Whitespace"
  },
  "post_processor": null,
  "decoder": null,
  "model": {
    "type": "BPE",
    "dropout": null,
    "unk_token": null,
    "continuing_subword_prefix": null,
    "end_of_word_suffix": null,
    "fuse_unk": false,
    "byte_fallback": false,
    "ignore_merges": false,
    "vocab": {
      "[UNK]": 0,
      "[PAD]": 1,
      "[CLS]": 2,
      "[SEP]": 3,
      "!": 4,
      "\"": 5,
      "#": 6,
      "$": 7,
      "%": 8,
      "&": 9,
      "'": 10,
      "(": 11,
      ")": 12,
      "*": 13,
      "+": 14,
      ",": 15,
      "-": 16,
      ".": 17,
      "/": 18,
      "0": 19,
      "1": 20,
      "2": 21,
      "3": 22,
      "4": 23,
      "5": 24,
      "6": 25,
      "7": 26,
      "8": 27,
      "9": 28,
      ":": 29,
      ";": 30,
      "=": 31,
      "?": 32,
      "@": 33,
      "A": 34,
      "B": 35,
      "C": 36,
      "D": 37,
      "E": 38,
      "F": 39,
      "G": 40,
      "H": 41,
      "I": 42,
      "J": 43,
      "K": 44,
      "L": 45,
      "M": 46,
      "N": 47,
      "O": 48,
      "P": 49,
      "Q": 50,
      "R": 51,
      "S": 52,
      "T": 53,
      "U": 54,
      "V": 55,
      "W": 56,
      "X": 57,
      "Y": 58,
      "Z": 59,
      "[": 60,
      "\\": 61,
      "]": 62,
      "^": 63,
      "_": 64,
      "`": 65,
      "a": 66,
      "b": 67,
      "c": 68,
      "d": 69,
      "e": 70,
      "f": 71,
      "g": 72,
      "h": 73,
      "i": 74,
      "j": 75,
      "k": 76,
      "l": 77,
      "m": 78,
      "n": 79,
      "o": 80,
      "p": 81,
      "q": 82,
      "r": 83,
      "s": 84,
      "t": 85,
      "u": 86,
      "v": 87,
      "w": 88,
      "x": 89,
      "y": 90,
      "z": 91,
      "|": 92,
      "~": 93,
      "": 94,
      "": 95,
      "": 96,
      "": 97,
      "": 98,
      "": 99,
      "": 100,
      "": 101,
      "": 102,
      "¡": 103,
      "¢": 104,
      "£": 105,
      "¤": 106,
      "¥": 107,
      "§": 108,
      "¨": 109,
      "©": 110,
      "ª": 111,
      "«": 112,
      "¬": 113,
      "­": 114,
      "®": 115,
      "¯": 116,
      "°": 117,
      "±": 118,
      "²": 119,
      "³": 120,
      "´": 121,
      "µ": 122,
      "¶": 123,
      "·": 124,
      "¸": 125,
      "¹": 126,
      "º": 127,
      "»": 128,
      "¼": 129,
      "½": 130,
      "¾": 131,
      "¿": 132,
      "À": 133,
      "Á": 134,
      "Â": 135,
      "Ã": 136,
      "Ä": 137,
      "Å": 138,
      "Æ": 139,
      "Ç": 140,
      "È": 141,
      "É": 142,
      "Ê": 143,
      "Ë": 144,
      "Ì": 145,
      "Í": 146,
      "Î": 147,
      "Ï": 148,
      "Ð": 149,
      "Ñ": 150,
      "Ò": 151,
      "Ó": 152,
      "Ô": 153,
      "Õ": 154,
      "Ö": 155,
      "×": 156,
      "Ø": 157,
      "Ù": 158,
      "Ú": 159,
      "Û": 160,
      "Ü": 161,
      "Ý": 162,
      "Þ": 163,
      "ß": 164,
      "à": 165,
      "á": 166,
      "â": 167,
      "ã": 168,
      "ä": 169,
      "å": 170,
      "æ": 171,
      "ç": 172,
      "è": 173,
      "é": 174,
      "ê": 175,
      "ë": 176,
      "ì": 177,
      "í": 178,
      "î": 179,
      "ï": 180,
      "ð": 181,
      "ñ": 182,
      "ò": 183,
      "ó": 184,
      "ô": 185,
      "õ": 186,
      "ö": 187,
      "÷": 188,
      "ø": 189,
      "ù": 190,
      "ú": 191,
      "û": 192,
      "ü": 193,
      "ý": 194,
      "þ": 195,
      "ÿ": 196,
      "Ā": 197,
      "ā": 198,
      "Ă": 199,
      "ă": 200,
      "Ą": 201,
      "ą": 202,
      "Ć": 203,
      "ć": 204,
      "Ĉ": 205,
      "ĉ": 206,
      "Ċ": 207,
      "ċ": 208,
      "Č": 209,
      "č": 210,
      "Ď": 211,
      "ď": 212,
      "Đ": 213,
      "đ": 214,
      "Ē": 215,
      "ē": 216,
      "Ĕ": 217,
      "ĕ": 218,
      "Ė": 219,
      "ė": 220,
      "Ę": 221,
      "ę": 222,
      "Ě": 223,
      "ě": 224,
      "Ĝ": 225,
      "ĝ": 226,
      "Ğ": 227,
      "ğ": 228,
      "Ġ": 229,
      "ġ": 230,
      "Ģ": 231,
      "ģ": 232,
      "Ĥ": 233,
      "ĥ": 234,
      "Ħ": 235,
      "ħ": 236,
      "Ĩ": 237,
      "ĩ": 238,
      "Ī": 239,
      "ī": 240,
      "Ĭ": 241,
      "ĭ": 242,
      "Į": 243,
      "į": 244,
      "İ": 245,
      "ı": 246,
      "Ĳ": 247,
      "ĳ": 248,
      "Ĵ": 249,
      "ĵ": 250,
      "Ķ": 251,
      "ķ": 252,
      "ĸ": 253,
      "Ĺ": 254,
      "ĺ": 255,
      "Ļ": 256,
      "ļ": 257,
      "Ľ": 258,
      "ľ": 259,
      "Ŀ": 260,
      "ŀ": 261,
      "Ł": 262,
      "ł": 263,
      "Ń": 264,
      "ń": 265,
      "Ņ": 266,
      "ņ": 267,
      "Ň": 268,
      "ň": 269,
      "ŉ": 270,
      "Ŋ": 271,
      "ŋ": 272,
      "Ō": 273,
      "ō": 274,
      "Ŏ": 275,
      "ŏ": 276,
      "Ő": 277,
      "ő": 278,
      "Œ": 279,
      "œ": 280,
      "Ŕ": 281,
      "ŕ": 282,
      "Ŗ": 283,
      "ŗ": 284,
      "Ř": 285,
      "ř": 286,
      "Ś": 287,
      "ś": 288,
      "Ŝ": 289,
      "ŝ": 290,
      "Ş": 291,
      "ş": 292,
      "Š": 293,
      "š": 294,
      "Ţ": 295,
      "ţ": 296,
      "Ť": 297,
      "ť": 298,
      "Ŧ": 299,
      "ŧ": 300,
      "Ũ": 301,
      "ũ": 302,
      "Ū": 303,
      "ū": 304,
      "Ŭ": 305,
      "ŭ": 306,
      "Ů": 307,
      "ů": 308,
      "Ű": 309,
      "ű": 310,
      "Ų": 311,
      "ų": 312,
      "Ŵ": 313,
      "ŵ": 314,
      "Ŷ": 315,
      "ŷ": 316,
      "Ÿ": 317,
      "Ź": 318,
      "ź": 319,
      "Ż": 320,
      "ż": 321,
      "Ž": 322,
      "ž": 323,
      "ſ": 324,
      "ƀ": 325,
      "Ɓ": 326,
      "Ƃ": 327,
      "ƃ": 328,
      "Ƅ": 329,
      "ƅ": 330,
      "Ɔ": 331,
      "Ƈ": 332,
      "ƈ": 333,
      "Ɖ": 334,
      "Ɗ": 335,
      "Ƌ": 336,
      "ƌ": 337,
      "ƍ": 338,
      "Ǝ": 339,
      "Ə": 340,
      "Ɛ": 341,
      "Ƒ": 342,
      "ƒ": 343,
      "Ɠ": 344,
      "Ɣ": 345,
      "ƕ": 346,
      "Ɩ": 347,
      "Ɨ": 348,
      "Ƙ": 349,
      "ƙ": 350,
      "ƚ": 351,
      "ƛ": 352,
      "Ɯ": 353,
      "Ɲ": 354,
      "ƞ": 355,
      "Ɵ": 356,
      "Ơ": 357,
      "ơ": 358,
      "Ƣ": 359,
      "ƣ": 360,
      "Ƥ": 361,
      "ƥ": 362,
      "Ʀ": 363,
      "Ƨ": 364,
      "ƨ": 365,
      "Ʃ": 366,
      "ƪ": 367,
      "ƫ": 368,
      "Ƭ": 369,
      "ƭ": 370,
      "Ʈ": 371,
      "Ư": 372,
      "ư": 373,
      "Ʊ": 374,
      "Ʋ": 375,
      "Ƴ": 376,
      "ƴ": 377,
      "Ƶ": 378,
      "ƶ": 379,
      "Ʒ": 380,
      "Ƹ": 381,
      "ƹ": 382,
      "ƺ": 383,
      "ƻ": 384,
      "Ƽ": 385,
      "ƽ": 386,
      "ƾ": 387,
      "ƿ": 388,
      "ǀ": 389,
      "ǁ": 390,
      "ǂ": 391,
      "ǃ": 392,
      "Ǆ": 393,
      "ǅ": 394,
      "ǆ": 395,
      "ǈ": 396,
      "Ǌ": 397,
      "ǋ": 398,
      "ǌ": 399,
      "Ǎ": 400,
      "ǎ": 401,
      "Ǐ": 402,
      "ǐ": 403,
      "Ǒ": 404,
      "ǒ": 405,
      "Ǔ": 406,
      "ǔ": 407,
      "Ǖ": 408,
      "ǖ": 409,
      "Ǘ": 410,
      "ǘ": 411,
      "Ǚ": 412,
      "ǚ": 413,
      "Ǜ": 414,
      "ǜ": 415,
      "ǝ": 416,
      "Ǟ": 417,
      "ǟ": 418,
      "Ǡ": 419,
      "ǡ": 420,
      "Ǣ": 421,
      "ǣ": 422,
      "Ǥ": 423,
      "ǥ": 424,
      "Ǧ": 425,
      "ǧ": 426,
      "Ǩ": 427,
      "ǩ": 428,
      "Ǫ": 429,
      "ǫ": 430,
      "Ǭ": 431,
      "ǭ": 432,
      "Ǯ": 433,
      "ǯ": 434,
      "ǰ": 435,
      "ǲ": 436,
      "Ǵ": 437,
      "ǵ": 438,
      "Ƕ": 439,
      "Ƿ": 440,
      "Ǹ": 441,
      "ǹ": 442,
      "Ǻ": 443,
      "ǻ": 444,
      "Ǽ": 445,
      "ǽ": 446,
      "Ǿ": 447,
      "ǿ": 448,
      "Ȁ": 449,
      "ȁ": 450,
      "Ȃ": 451,
      "ȃ": 452,
      "Ȅ": 453,
      "ȅ": 454,
      "Ȇ": 455,
      "ȇ": 456,
      "Ȉ": 457,
      "ȉ": 458,
      "Ȋ": 459,
      "ȋ": 460,
      "Ȍ": 461,
      "ȍ": 462,
      "Ȏ": 463,
      "ȏ": 464,
      "Ȑ": 465,
      "ȑ": 466,
      "Ȓ": 467,
      "ȓ": 468,
      "Ȕ": 469,
      "ȕ": 470,
      "Ȗ": 471,
      "ȗ": 472,
      "Ș": 473,
      "ș": 474,
      "Ț": 475,
      "ț": 476,
      "Ȝ": 477,
      "ȝ": 478,
      "Ȟ": 479,
      "ȟ": 480,
      "Ƞ": 481,
      "ȡ": 482,
      "Ȣ": 483,
      "ȣ": 484,
      "Ȥ": 485,
      "ȥ": 486,
      "Ȧ": 487,
      "ȧ": 488,
      "Ȩ": 489,
      "ȩ": 490,
      "Ȫ": 491,
      "ȫ": 492,
      "Ȭ": 493,
      "ȭ": 494,
      "Ȯ": 495,
      "ȯ": 496,
      "Ȱ": 497,
      "ȱ": 498,
      "Ȳ": 499,
      "ȳ": 500,
      "ȴ": 501,
      "ȵ": 502,
      "ȶ": 503,
      "ȷ": 504,
      "ȸ": 505,
      "ȹ": 506,
      "Ⱥ": 507,
      "Ȼ": 508,
      "ȼ": 509,
      "Ƚ": 510,
      "Ⱦ": 511,
      "ȿ": 512,
      "ɀ": 513,
      "Ɂ": 514,
      "ɂ": 515,
      "Ƀ": 516,
      "Ʉ": 517,
      "Ʌ": 518,
      "Ɇ": 519,
      "ɇ": 520,
      "Ɉ": 521,
      "ɉ": 522,
      "Ɋ": 523,
      "ɋ": 524,
      "Ɍ": 525,
      "ɍ": 526,
      "Ɏ": 527,
      "ɏ": 528,
      "ɐ": 529,
      "ɑ": 530,
      "ɒ": 531,
      "ɓ": 532,
      "ɔ": 533,
      "ɕ": 534,
      "ɖ": 535,
      "ɗ": 536,
      "ɘ": 537,
      "ə": 538,
      "ɚ": 539,
      "ɛ": 540,
      "ɜ": 541,
      "ɝ": 542,
      "ɞ": 543,
      "ɟ": 544,
      "ɠ": 545,
      "ɡ": 546,
      "ɢ": 547,
      "ɣ": 548,
      "ɤ": 549,
      "ɥ": 550,
      "ɦ": 551,
      "ɧ": 552,
      "ɨ": 553,
      "ɩ": 554,
      "ɪ": 555,
      "ɫ": 556,
      "ɬ": 557,
      "ɭ": 558,
      "ɮ": 559,
      "ɯ": 560,
      "ɰ": 561,
      "ɱ": 562,
      "ɲ": 563,
      "ɳ": 564,
      "ɴ": 565,
      "ɵ": 566,
      "ɶ": 567,
      "ɷ": 568,
      "ɸ": 569,
      "ɹ": 570,
      "ɺ": 571,
      "ɻ": 572,
      "ɼ": 573,
      "ɽ": 574,
      "ɾ": 575,
      "ɿ": 576,
      "ʀ": 577,
      "ʁ": 578,
      "ʂ": 579,
      "ʃ": 580,
      "ʄ": 581,
      "ʅ": 582,
      "ʆ": 583,
      "ʇ": 584,
      "ʈ": 585,
      "ʉ": 586,
      "ʊ": 587,
      "ʋ": 588,
      "ʌ": 589,
      "ʍ": 590,
      "ʎ": 591,
      "ʏ": 592,
      "ʐ": 593,
      "ʑ": 594,
      "ʒ": 595,
      "ʓ": 596,
      "ʔ": 597,
      "ʕ": 598,
      "ʖ": 599,
      "ʗ": 600,
      "ʘ": 601,
      "ʙ": 602,
      "ʚ": 603,
      "ʛ": 604,
      "ʜ": 605,
      "ʝ": 606,
      "ʞ": 607,
      "ʟ": 608,
      "ʠ": 609,
      "ʡ": 610,
      "ʢ": 611,
      "ʣ": 612,
      "ʤ": 613,
      "ʥ": 614,
      "ʦ": 615,
      "ʧ": 616,
      "ʨ": 617,
      "ʩ": 618,
      "ʪ": 619,
      "ʫ": 620,
      "ʮ": 621,
      "ʯ": 622,
      "ʰ": 623,
      "ʱ": 624,
      "ʲ": 625,
      "ʴ": 626,
      "ʶ": 627,
      "ʷ": 628,
      "ʸ": 629,
      "ʹ": 630,
      "ʺ": 631,
      "ʻ": 632,
      "ʼ": 633,
      "ʽ": 634,
      "ʾ": 635,
      "ʿ": 636,
      "ˀ": 637,
      "ˁ": 638,
      "ˆ": 639,
      "ˇ": 640,
      "ˈ": 641,
      "ˉ": 642,
      "ˊ": 643,
      "ˋ": 644,
      "ˌ": 645,
      "ˍ": 646,
      "ˎ": 647,
      "ˏ": 648,
      "ː": 649,
      "ˑ": 650,
      "˘": 651,
      "˙": 652,
      "˚": 653,
      "˜": 654,
      "˝": 655,
      "˞": 656,
      "ˠ": 657,
      "ˡ": 658,
      "ˢ": 659,
      "ˤ": 660,
      "˥": 661,
      "˦": 662,
      "˧": 663,
      "˨": 664,
      "˩": 665,
      "˪": 666,
      "˫": 667,
      "˭": 668,
      "̀": 669,
      "́": 670,
      "̂": 671,
      "̃": 672,
      "̄": 673,
      "̅": 674,
      "̆": 675,
      "̇": 676,
      "̈": 677,
      "̊": 678,
      "̋": 679,
      "̌": 680,
      "̍": 681,
      "̐": 682,
      "̑": 683,
      "̓": 684,
      "̕": 685,
      "̚": 686,
      "̜": 687,
      "̝": 688,
      "̞": 689,
      "̟": 690,
      "̠": 691,
      "̡": 692,
      "̢": 693,
      "̣": 694,
      "̤": 695,
      "̥": 696,
      "̧": 697,
      "̨": 698,
      "̩": 699,
      "̪": 700,
      "̬": 701,
      "̮": 702,
      "̯": 703,
      "̰": 704,
      "̱": 705,
      "̲": 706,
      "̴": 707,
      "̵": 708,
      "̶": 709,
      "̷": 710,
      "̺": 711,
      "̻": 712,
      "̼": 713,
      "̽": 714,
      "͂": 715,
      "͈": 716,
      "͗": 717,
      "͘": 718,
      "͟": 719,
      "͠": 720,
      "͡": 721,
      "ͤ": 722,
      "Ͱ": 723,
      "ͱ": 724,
      "Ͳ": 725,
      "ͳ": 726,
      "͵": 727,
      "Ͷ": 728,
      "ͷ": 729,
      "΄": 730,
      "Ά": 731,
      "Έ": 732,
      "Ή": 733,
      "Ί": 734,
      "Ό": 735,
      "Ύ": 736,
      "ΐ": 737,
      "Α": 738,
      "Β": 739,
      "Γ": 740,
      "Δ": 741,
      "Ε": 742,
      "Ζ": 743,
      "Η": 744,
      "Θ": 745,
      "Ι": 746,
      "Κ": 747,
      "Λ": 748,
      "Μ": 749,
      "Ν": 750,
      "Ξ": 751,
      "Ο": 752,
      "Π": 753,
      "Ρ": 754,
      "Σ": 755,
      "Τ": 756,
      "Υ": 757,
      "Φ": 758,
      "Χ": 759,
      "Ψ": 760,
      "Ω": 761,
      "Ϊ": 762,
      "ά": 763,
      "έ": 764,
      "ή": 765,
      "ί": 766,
      "ΰ": 767,
      "α": 768,
      "β": 769,
      "γ": 770,
      "δ": 771,
      "ε": 772,
      "ζ": 773,
      "η": 774,
      "θ": 775,
      "ι": 776,
      "κ": 777,
      "λ": 778,
      "μ": 779,
      "ν": 780,
      "ξ": 781,
      "ο": 782,
      "π": 783,
      "ρ": 784,
      "ς": 785,
      "σ": 786,
      "τ": 787,
      "υ": 788,
      "φ": 789,
      "χ": 790,
      "ψ": 791,
      "ω": 792,
      "ϊ": 793,
      "ϋ": 794,
      "ό": 795,
      "ύ": 796,
      "ώ": 797,
      "ϐ": 798,
      "ϑ": 799,
      "ϒ": 800,
      "ϕ": 801,
      "Ϙ": 802,
      "Ϛ": 803,
      "Ϝ": 804,
      "ϝ": 805,
      "Ϡ": 806,
      "ϡ": 807,
      "Ϣ": 808,
      "ϣ": 809,
      "Ϧ": 810,
      "ϩ": 811,
      "ϫ": 812,
      "ϯ": 813,
      "ϰ": 814,
      "ϵ": 815,
      "Ϸ": 816,
      "ϸ": 817,
      "Ϲ": 818,
      "Ϻ": 819,
      "Ѐ": 820,
      "Ё": 821,
      "Ђ": 822,
      "Є": 823,
      "Ѕ": 824,
      "І": 825,
      "Ї": 826,
      "Ј": 827,
      "Љ": 828,
      "Њ": 829,
      "Ћ": 830,
      "Ќ": 831,
      "Ў": 832,
      "Џ": 833,
      "А": 834,
      "Б": 835,
      "В": 836,
      "Г": 837,
      "Д": 838,
      "Е": 839,
      "Ж": 840,
      "З": 841,
      "И": 842,
      "Й": 843,
      "К": 844,
      "Л": 845,
      "М": 846,
      "Н": 847,
      "О": 848,
      "П": 849,
      "Р": 850,
      "С": 851,
      "Т": 852,
      "У": 853,
      "Ф": 854,
      "Х": 855,
      "Ц": 856,
      "Ч": 857,
      "Ш": 858,
      "Щ": 859,
      "Ъ": 860,
      "Ы": 861,
      "Ь": 862,
      "Э": 863,
      "Ю": 864,
      "Я": 865,
      "а": 866,
      "б": 867,
      "в": 868,
      "г": 869,
      "д": 870,
      "е": 871,
      "ж": 872,
      "з": 873,
      "и": 874,
      "й": 875,
      "к": 876,
      "л": 877,
      "м": 878,
      "н": 879,
      "о": 880,
      "п": 881,
      "р": 882,
      "с": 883,
      "т": 884,
      "у": 885,
      "ф": 886,
      "х": 887,
      "ц": 888,
      "ч": 889,
      "ш": 890,
      "щ": 891,
      "ъ": 892,
      "ы": 893,
      "ь": 894,
      "э": 895,
      "ю": 896,
      "я": 897,
      "ѐ": 898,
      "ё": 899,
      "ђ": 900,
      "ѓ": 901,
      "є": 902,
      "ѕ": 903,
      "і": 904,
      "ї": 905,
      "ј": 906,
      "љ": 907,
      "њ": 908,
      "ћ": 909,
      "ќ": 910,
      "ў": 911,
      "џ": 912,
      "Ѡ": 913,
      "ѡ": 914,
      "Ѣ": 915,
      "ѣ": 916,
      "Ѥ": 917,
      "ѥ": 918,
      "Ѧ": 919,
      "ѧ": 920,
      "ѩ": 921,
      "Ѫ": 922,
      "ѫ": 923,
      "Ѯ": 924,
      "ѯ": 925,
      "Ѱ": 926,
      "ѱ": 927,
      "Ѳ": 928,
      "ѳ": 929,
      "Ѵ": 930,
      "ѵ": 931,
      "Ѷ": 932,
      "ѷ": 933,
      "Ѹ": 934,
      "ѹ": 935,
      "Ѻ": 936,
      "ѻ": 937,
      "Ѽ": 938,
      "ѽ": 939,
      "Ѿ": 940,
      "ѿ": 941,
      "Ҁ": 942,
      "ҁ": 943,
      "҂": 944,
      "҃": 945,
      "҅": 946,
      "҉": 947,
      "Ҋ": 948,
      "ҋ": 949,
      "Ҍ": 950,
      "ҍ": 951,
      "Ҏ": 952,
      "ҏ": 953,
      "Ґ": 954,
      "ґ": 955,
      "Ғ": 956,
      "ғ": 957,
      "Ҕ": 958,
      "ҕ": 959,
      "Җ": 960,
      "җ": 961,
      "Ҙ": 962,
      "ҙ": 963,
      "Қ": 964,
      "қ": 965,
      "Ҝ": 966,
      "ҝ": 967,
      "Ҟ": 968,
      "ҟ": 969,
      "Ҡ": 970,
      "ҡ": 971,
      "Ң": 972,
      "ң": 973,
      "Ҥ": 974,
      "ҥ": 975,
      "ҧ": 976,
      "Ҩ": 977,
      "ҩ": 978,
      "Ҫ": 979,
      "ҫ": 980,
      "Ҭ": 981,
      "ҭ": 982,
      "Ү": 983,
      "ү": 984,
      "Ұ": 985,
      "ұ": 986,
      "Ҳ": 987,
      "ҳ": 988,
      "Ҵ": 989,
      "ҵ": 990,
      "ҷ": 991,
      "Ҹ": 992,
      "ҹ": 993,
      "Һ": 994,
      "һ": 995,
      "Ҽ": 996,
      "ҽ": 997,
      "Ҿ": 998,
      "ҿ": 999,
      "Ӏ": 1000,
      "Ӂ": 1001,
      "ӂ": 1002,
      "Ӄ": 1003,
      "ӄ": 1004,
      "Ӆ": 1005,
      "ӆ": 1006,
      "Ӈ": 1007,
      "ӈ": 1008,
      "Ӊ": 1009,
      "ӊ": 1010,
      "Ӌ": 1011,
      "ӌ": 1012,
      "Ӎ": 1013,
      "ӎ": 1014,
      "ӏ": 1015,
      "Ӑ": 1016,
      "ӑ": 1017,
      "Ӓ": 1018,
      "ӓ": 1019,
      "Ӕ": 1020,
      "ӕ": 1021,
      "Ӗ": 1022,
      "ӗ": 1023,
      "Ә": 1024,
      "ә": 1025,
      "Ӝ": 1026,
      "ӝ": 1027,
      "Ӟ": 1028,
      "ӟ": 1029,
      "Ӡ": 1030,
      "Ӣ": 1031,
      "ӣ": 1032,
      "Ӥ": 1033,
      "ӥ": 1034,
      "Ӧ": 1035,
      "ӧ": 1036,
      "Ө": 1037,
      "ө": 1038,
      "Ӭ": 1039,
      "ӭ": 1040,
      "Ӯ": 1041,
      "ӯ": 1042,
      "Ӱ": 1043,
      "ӱ": 1044,
      "Ӳ": 1045,
      "ӳ": 1046,
      "Ӵ": 1047,
      "ӵ": 1048,
      "Ӷ": 1049,
      "ӷ": 1050,
      "Ӹ": 1051,
      "ӹ": 1052,
      "Ӻ": 1053,
      "ӻ": 1054,
      "Ӽ": 1055,
      "ӽ": 1056,
      "Ӿ": 1057,
      "ӿ": 1058,
      "Ԁ": 1059,
      "ԁ": 1060,
      "Ԃ": 1061,
      "ԃ": 1062,
      "Ԅ": 1063,
      "ԅ": 1064,
      "Ԇ": 1065,
      "ԇ": 1066,
      "Ԉ": 1067,
      "ԉ": 1068,
      "ԋ": 1069,
      "Ԍ": 1070,
      "ԍ": 1071,
      "Ԏ": 1072,
      "ԏ": 1073,
      "Ԑ": 1074,
      "ԑ": 1075,
      "Ԓ": 1076,
      "ԓ": 1077,
      "Ԕ": 1078,
      "ԕ": 1079,
      "Ԗ": 1080,
      "ԗ": 1081,
      "Ԙ": 1082,
      "ԙ": 1083,
      "Ԝ": 1084,
      "ԝ": 1085,
      "Ԟ": 1086,
      "ԟ": 1087,
      "Ԡ": 1088,
      "ԡ": 1089,
      "Ԣ": 1090,
      "ԣ": 1091,
      "Ԥ": 1092,
      "ԥ": 1093,
      "Ԩ": 1094,
      "ԩ": 1095,
      "Ԫ": 1096,
      "ԫ": 1097,
      "Ԭ": 1098,
      "ԭ": 1099,
      "Ԯ": 1100,
      "ԯ": 1101,
      "Ա": 1102,
      "Բ": 1103,
      "Գ": 1104,
      "Դ": 1105,
      "Ե": 1106,
      "Զ": 1107,
      "Է": 1108,
      "Թ": 1109,
      "Ժ": 1110,
      "Ի": 1111,
      "Լ": 1112,
      "Խ": 1113,
      "Ծ": 1114,
      "Կ": 1115,
      "Հ": 1116,
      "Ղ": 1117,
      "Մ": 1118,
      "Յ": 1119,
      "Ն": 1120,
      "Շ": 1121,
      "Ո": 1122,
      "Պ": 1123,
      "Ռ": 1124,
      "Ս": 1125,
      "Վ": 1126,
      "Տ": 1127,
      "Ր": 1128,
      "Ց": 1129,
      "Ւ": 1130,
      "Ք": 1131,
      "Օ": 1132,
      "Ֆ": 1133,
      "՛": 1134,
      "ա": 1135,
      "բ": 1136,
      "գ": 1137,
      "դ": 1138,
      "ե": 1139,
      "զ": 1140,
      "է": 1141,
      "ը": 1142,
      "թ": 1143,
      "ժ": 1144,
      "ի": 1145,
      "լ": 1146,
      "խ": 1147,
      "ծ": 1148,
      "կ": 1149,
      "հ": 1150,
      "ձ": 1151,
      "ղ": 1152,
      "մ": 1153,
      "յ": 1154,
      "ն": 1155,
      "շ": 1156,
      "ո": 1157,
      "չ": 1158,
      "պ": 1159,
      "ջ": 1160,
      "ռ": 1161,
      "ս": 1162,
      "վ": 1163,
      "տ": 1164,
      "ր": 1165,
      "ց": 1166,
      "ւ": 1167,
      "ք": 1168,
      "օ": 1169,
      "ֆ": 1170,
      "և": 1171,
      "֏": 1172,
      "֑": 1173,
      "֔": 1174,
      "֗": 1175,
      "֜": 1176,
      "֣": 1177,
      "֥": 1178,
      "֪": 1179,
      "ְ": 1180,
      "ֱ": 1181,
      "ֲ": 1182,
      "ֳ": 1183,
      "ִ": 1184,
      "ֵ": 1185,
      "ֶ": 1186,
      "ַ": 1187,
      "ָ": 1188,
      "ֹ": 1189,
      "ֻ": 1190,
      "ּ": 1191,
      "־": 1192,
      "ֿ": 1193,
      "׀": 1194,
      "ׁ": 1195,
      "ׂ": 1196,
      "א": 1197,
      "ב": 1198,
      "ג": 1199,
      "ד": 1200,
      "ה": 1201,
      "ו": 1202,
      "ז": 1203,
      "ח": 1204,
      "ט": 1205,
      "י": 1206,
      "ך": 1207,
      "כ": 1208,
      "ל": 1209,
      "ם": 1210,
      "מ": 1211,
      "ן": 1212,
      "נ": 1213,
      "ס": 1214,
      "ע": 1215,
      "ף": 1216,
      "פ": 1217,
      "ץ": 1218,
      "צ": 1219,
      "ק": 1220,
      "ר": 1221,
      "ש": 1222,
      "ת": 1223,
      "װ": 1224,
      "ױ": 1225,
      "ײ": 1226,
      "׳": 1227,
      "״": 1228,
      "،": 1229,
      "؟": 1230,
      "ء": 1231,
      "آ": 1232,
      "أ": 1233,
      "ؤ": 1234,
      "إ": 1235,
      "ئ": 1236,
      "ا": 1237,
      "ب": 1238,
      "ة": 1239,
      "ت": 1240,
      "ث": 1241,
      "ج": 1242,
      "ح": 1243,
      "خ": 1244,
      "د": 1245,
      "ذ": 1246,
      "ر": 1247,
      "ز": 1248,
      "س": 1249,
      "ش": 1250,
      "ص": 1251,
      "ض": 1252,
      "ط": 1253,
      "ظ": 1254,
      "ع": 1255,
      "غ": 1256,
      "ؾ": 1257,
      "ـ": 1258,
      "ف": 1259,
      "ق": 1260,
      "ك": 1261,
      "ل": 1262,
      "م": 1263,
      "ن": 1264,
      "ه": 1265,
      "و": 1266,
      "ى": 1267,
      "ي": 1268,
      "ً": 1269,
      "ٌ": 1270,
      "ٍ": 1271,
      "َ": 1272,
      "ُ": 1273,
      "ِ": 1274,
      "ّ": 1275,
      "ْ": 1276,
      "ٔ": 1277,
      "٘": 1278,
      "٠": 1279,
      "١": 1280,
      "٨": 1281,
      "٩": 1282,
      "٫": 1283,
      "ٰ": 1284,
      "ٱ": 1285,
      "ٹ": 1286,
      "ٺ": 1287,
      "ټ": 1288,
      "ٽ": 1289,
      "پ": 1290,
      "ٿ": 1291,
      "ڄ": 1292,
      "چ": 1293,
      "ڈ": 1294,
      "ڊ": 1295,
      "ڌ": 1296,
      "ڏ": 1297,
      "ڑ": 1298,
      "ړ": 1299,
      "ڕ": 1300,
      "ږ": 1301,
      "ژ": 1302,
      "ڙ": 1303,
      "ڜ": 1304,
      "ڠ": 1305,
      "ڢ": 1306,
      "ڤ": 1307,
      "ڨ": 1308,
      "ک": 1309,
      "ڪ": 1310,
      "ګ": 1311,
      "ڬ": 1312,
      "ڭ": 1313,
      "گ": 1314,
      "ڴ": 1315,
      "ڵ": 1316,
      "ڸ": 1317,
      "ں": 1318,
      "ڻ": 1319,
      "ھ": 1320,
      "ہ": 1321,
      "ۂ": 1322,
      "ۆ": 1323,
      "ۇ": 1324,
      "ۈ": 1325,
      "ۉ": 1326,
      "ۋ": 1327,
      "ی": 1328,
      "ێ": 1329,
      "ې": 1330,
      "ے": 1331,
      "ە": 1332,
      "۝": 1333,
      "۰": 1334,
      "۱": 1335,
      "۲": 1336,
      "۳": 1337,
      "۴": 1338,
      "۵": 1339,
      "۶": 1340,
      "۷": 1341,
      "۸": 1342,
      "۹": 1343,
      "ܐ": 1344,
      "ܒ": 1345,
      "ܓ": 1346,
      "ܕ": 1347,
      "ܗ": 1348,
      "ܘ": 1349,
      "ܙ": 1350,
      "ܚ": 1351,
      "ܛ": 1352,
      "ܝ": 1353,
      "ܟ": 1354,
      "ܠ": 1355,
      "ܡ": 1356,
      "ܢ": 1357,
      "ܣ": 1358,
      "ܥ": 1359,
      "ܦ": 1360,
      "ܨ": 1361,
      "ܩ": 1362,
      "ܪ": 1363,
      "ܫ": 1364,
      "ܬ": 1365,
      "ܲ": 1366,
      "ܳ": 1367,
      "ܵ": 1368,
      "ܸ": 1369,
      "ܼ": 1370,
      "ܽ": 1371,
      "݂": 1372,
      "ݢ": 1373,
      "ݣ": 1374,
      "ހ": 1375,
      "ނ": 1376,
      "ރ": 1377,
      "އ": 1378,
      "މ": 1379,
      "ދ": 1380,
      "ތ": 1381,
      "ލ": 1382,
      "ގ": 1383,
      "ޏ": 1384,
      "ސ": 1385,
      "ޑ": 1386,
      "ޔ": 1387,
      "ޖ": 1388,
      "ޝ": 1389,
      "ަ": 1390,
      "ާ": 1391,
      "ި": 1392,
      "ީ": 1393,
      "ު": 1394,
      "ޫ": 1395,
      "ެ": 1396,
      "ް": 1397,
      "ޱ": 1398,
      "ߊ": 1399,
      "ߋ": 1400,
      "ߌ": 1401,
      "ߍ": 1402,
      "ߎ": 1403,
      "ߏ": 1404,
      "ߓ": 1405,
      "ߕ": 1406,
      "ߖ": 1407,
      "ߘ": 1408,
      "ߙ": 1409,
      "ߜ": 1410,
      "ߝ": 1411,
      "ߞ": 1412,
      "ߟ": 1413,
      "ߡ": 1414,
      "ߣ": 1415,
      "ߦ": 1416,
      "߫": 1417,
      "߬": 1418,
      "߲": 1419,
      "ँ": 1420,
      "ं": 1421,
      "ः": 1422,
      "अ": 1423,
      "आ": 1424,
      "इ": 1425,
      "ई": 1426,
      "उ": 1427,
      "ऊ": 1428,
      "ऋ": 1429,
      "ए": 1430,
      "ऐ": 1431,
      "ऑ": 1432,
      "ओ": 1433,
      "औ": 1434,
      "क": 1435,
      "ख": 1436,
      "ग": 1437,
      "घ": 1438,
      "ङ": 1439,
      "च": 1440,
      "छ": 1441,
      "ज": 1442,
      "झ": 1443,
      "ञ": 1444,
      "ट": 1445,
      "ठ": 1446,
      "ड": 1447,
      "ढ": 1448,
      "ण": 1449,
      "त": 1450,
      "थ": 1451,
      "द": 1452,
      "ध": 1453,
      "न": 1454,
      "प": 1455,
      "फ": 1456,
      "ब": 1457,
      "भ": 1458,
      "म": 1459,
      "य": 1460,
      "र": 1461,
      "ऱ": 1462,
      "ल": 1463,
      "ळ": 1464,
      "व": 1465,
      "श": 1466,
      "ष": 1467,
      "स": 1468,
      "ह": 1469,
      "़": 1470,
      "ऽ": 1471,
      "ा": 1472,
      "ि": 1473,
      "ी": 1474,
      "ु": 1475,
      "ू": 1476,
      "ृ": 1477,
      "े": 1478,
      "ै": 1479,
      "ो": 1480,
      "ौ": 1481,
      "्": 1482,
      "ॐ": 1483,
      "॒": 1484,
      "ॡ": 1485,
      "ॣ": 1486,
      "।": 1487,
      "॥": 1488,
      "०": 1489,
      "५": 1490,
      "९": 1491,
      "॰": 1492,
      "ঁ": 1493,
      "ং": 1494,
      "ঃ": 1495,
      "অ": 1496,
      "আ": 1497,
      "ই": 1498,
      "উ": 1499,
      "ঊ": 1500,
      "এ": 1501,
      "ও": 1502,
      "ক": 1503,
      "খ": 1504,
      "গ": 1505,
      "ঘ": 1506,
      "ঙ": 1507,
      "চ": 1508,
      "ছ": 1509,
      "জ": 1510,
      "ঝ": 1511,
      "ঞ": 1512,
      "ট": 1513,
      "ঠ": 1514,
      "ড": 1515,
      "ণ": 1516,
      "ত": 1517,
      "থ": 1518,
      "দ": 1519,
      "ধ": 1520,
      "ন": 1521,
      "প": 1522,
      "ফ": 1523,
      "ব": 1524,
      "ভ": 1525,
      "ম": 1526,
      "য": 1527,
      "র": 1528,
      "ল": 1529,
      "শ": 1530,
      "ষ": 1531,
      "স": 1532,
      "হ": 1533,
      "়": 1534,
      "া": 1535,
      "ি": 1536,
      "ী": 1537,
      "ু": 1538,
      "ূ": 1539,
      "ৃ": 1540,
      "ে": 1541,
      "ৈ": 1542,
      "ো": 1543,
      "ৌ": 1544,
      "্": 1545,
      "ৎ": 1546,
      "১": 1547,
      "২": 1548,
      "৩": 1549,
      "৪": 1550,
      "৫": 1551,
      "৬": 1552,
      "৭": 1553,
      "ৰ": 1554,
      "ৱ": 1555,
      "৲": 1556,
      "৳": 1557,
      "৷": 1558,
      "৹": 1559,
      "ਂ": 1560,
      "ਃ": 1561,
      "ਅ": 1562,
      "ਆ": 1563,
      "ਉ": 1564,
      "ਊ": 1565,
      "ਓ": 1566,
      "ਕ": 1567,
      "ਖ": 1568,
      "ਗ": 1569,
      "ਘ": 1570,
      "ਜ": 1571,
      "ਝ": 1572,
      "ਟ": 1573,
      "ਣ": 1574,
      "ਤ": 1575,
      "ਥ": 1576,
      "ਦ": 1577,
      "ਧ": 1578,
      "ਨ": 1579,
      "ਪ": 1580,
      "ਬ": 1581,
      "ਭ": 1582,
      "ਮ": 1583,
      "ਰ": 1584,
      "ਲ": 1585,
      "ਵ": 1586,
      "ਸ": 1587,
      "ਹ": 1588,
      "਼": 1589,
      "ਾ": 1590,
      "ਿ": 1591,
      "ੀ": 1592,
      "ੁ": 1593,
      "ੂ": 1594,
      "ੇ": 1595,
      "ੋ": 1596,
      "੍": 1597,
      "ੜ": 1598,
      "ੰ": 1599,
      "ੱ": 1600,
      "ੲ": 1601,
      "ੳ": 1602,
      "ੴ": 1603,
      "ઁ": 1604,
      "અ": 1605,
      "ગ": 1606,
      "જ": 1607,
      "ણ": 1608,
      "ત": 1609,
      "દ": 1610,
      "ન": 1611,
      "પ": 1612,
      "મ": 1613,
      "ર": 1614,
      "લ": 1615,
      "વ": 1616,
      "સ": 1617,
      "હ": 1618,
      "ા": 1619,
      "ી": 1620,
      "ુ": 1621,
      "ૂ": 1622,
      "ૃ": 1623,
      "ે": 1624,
      "૱": 1625,
      "ଁ": 1626,
      "ଂ": 1627,
      "କ": 1628,
      "ଗ": 1629,
      "ଙ": 1630,
      "ଡ": 1631,
      "ନ": 1632,
      "ବ": 1633,
      "ମ": 1634,
      "ର": 1635,
      "ଲ": 1636,
      "ଵ": 1637,
      "ଶ": 1638,
      "ସ": 1639,
      "଼": 1640,
      "ା": 1641,
      "ି": 1642,
      "ୁ": 1643,
      "େ": 1644,
      "୍": 1645,
      "୨": 1646,
      "ஃ": 1647,
      "அ": 1648,
      "ஆ": 1649,
      "இ": 1650,
      "ஈ": 1651,
      "உ": 1652,
      "எ": 1653,
      "ஏ": 1654,
      "ஐ": 1655,
      "ஒ": 1656,
      "க": 1657,
      "ங": 1658,
      "ச": 1659,
      "ஜ": 1660,
      "ஞ": 1661,
      "ட": 1662,
      "ண": 1663,
      "த": 1664,
      "ந": 1665,
      "ன": 1666,
      "ப": 1667,
      "ம": 1668,
      "ய": 1669,
      "ர": 1670,
      "ற": 1671,
      "ல": 1672,
      "ள": 1673,
      "ழ": 1674,
      "வ": 1675,
      "ஷ": 1676,
      "ஸ": 1677,
      "ா": 1678,
      "ி": 1679,
      "ீ": 1680,
      "ு": 1681,
      "ூ": 1682,
      "ெ": 1683,
      "ே": 1684,
      "ை": 1685,
      "ொ": 1686,
      "ோ": 1687,
      "்": 1688,
      "ఁ": 1689,
      "ం": 1690,
      "ః": 1691,
      "ఆ": 1692,
      "ఇ": 1693,
      "ఐ": 1694,
      "ఔ": 1695,
      "క": 1696,
      "ఖ": 1697,
      "గ": 1698,
      "జ": 1699,
      "ఞ": 1700,
      "ట": 1701,
      "డ": 1702,
      "ణ": 1703,
      "త": 1704,
      "ధ": 1705,
      "న": 1706,
      "ప": 1707,
      "బ": 1708,
      "మ": 1709,
      "య": 1710,
      "ర": 1711,
      "ల": 1712,
      "వ": 1713,
      "శ": 1714,
      "స": 1715,
      "హ": 1716,
      "ా": 1717,
      "ి": 1718,
      "ీ": 1719,
      "ు": 1720,
      "ూ": 1721,
      "ృ": 1722,
      "ౄ": 1723,
      "ె": 1724,
      "ే": 1725,
      "ై": 1726,
      "ొ": 1727,
      "ో": 1728,
      "ౌ": 1729,
      "్": 1730,
      "ಂ": 1731,
      "ಅ": 1732,
      "ಇ": 1733,
      "ಕ": 1734,
      "ಖ": 1735,
      "ಗ": 1736,
      "ಘ": 1737,
      "ಙ": 1738,
      "ಚ": 1739,
      "ಛ": 1740,
      "ಜ": 1741,
      "ಝ": 1742,
      "ಞ": 1743,
      "ಟ": 1744,
      "ಠ": 1745,
      "ಡ": 1746,
      "ಢ": 1747,
      "ಣ": 1748,
      "ತ": 1749,
      "ಥ": 1750,
      "ದ": 1751,
      "ಧ": 1752,
      "ನ": 1753,
      "ಪ": 1754,
      "ಫ": 1755,
      "ಬ": 1756,
      "ಭ": 1757,
      "ಮ": 1758,
      "ಯ": 1759,
      "ರ": 1760,
      "ಲ": 1761,
      "ಳ": 1762,
      "ವ": 1763,
      "ಶ": 1764,
      "ಷ": 1765,
      "ಸ": 1766,
      "ಹ": 1767,
      "ಾ": 1768,
      "ಿ": 1769,
      "ೀ": 1770,
      "ು": 1771,
      "ೂ": 1772,
      "ೆ": 1773,
      "ೇ": 1774,
      "ೊ": 1775,
      "ೋ": 1776,
      "್": 1777,
      "೦": 1778,
      "೧": 1779,
      "೨": 1780,
      "೩": 1781,
      "೪": 1782,
      "೫": 1783,
      "೬": 1784,
      "೭": 1785,
      "೮": 1786,
      "೯": 1787,
      "ം": 1788,
      "അ": 1789,
      "ഇ": 1790,
      "എ": 1791,
      "ക": 1792,
      "ഗ": 1793,
      "ങ": 1794,
      "ച": 1795,
      "ട": 1796,
      "ഡ": 1797,
      "ണ": 1798,
      "ത": 1799,
      "ന": 1800,
      "പ": 1801,
      "ബ": 1802,
      "മ": 1803,
      "യ": 1804,
      "ര": 1805,
      "റ": 1806,
      "ല": 1807,
      "ള": 1808,
      "വ": 1809,
      "ഹ": 1810,
      "ാ": 1811,
      "ി": 1812,
      "ു": 1813,
      "െ": 1814,
      "േ": 1815,
      "ോ": 1816,
      "്": 1817,
      "ൻ": 1818,
      "ർ": 1819,
      "ං": 1820,
      "ඇ": 1821,
      "ඉ": 1822,
      "එ": 1823,
      "ඓ": 1824,
      "ඔ": 1825,
      "ක": 1826,
      "ග": 1827,
      "ච": 1828,
      "ජ": 1829,
      "ට": 1830,
      "ඩ": 1831,
      "ත": 1832,
      "ථ": 1833,
      "ද": 1834,
      "ධ": 1835,
      "න": 1836,
      "ප": 1837,
      "බ": 1838,
      "ම": 1839,
      "ය": 1840,
      "ර": 1841,
      "ල": 1842,
      "ව": 1843,
      "ශ": 1844,
      "ෂ": 1845,
      "ස": 1846,
      "හ": 1847,
      "්": 1848,
      "ා": 1849,
      "ි": 1850,
      "ී": 1851,
      "ු": 1852,
      "ෙ": 1853,
      "ේ": 1854,
      "ො": 1855,
      "ෝ": 1856,
      "ก": 1857,
      "ข": 1858,
      "ค": 1859,
      "ฅ": 1860,
      "ฆ": 1861,
      "ง": 1862,
      "จ": 1863,
      "ฉ": 1864,
      "ช": 1865,
      "ซ": 1866,
      "ฌ": 1867,
      "ญ": 1868,
      "ฎ": 1869,
      "ฏ": 1870,
      "ฐ": 1871,
      "ฑ": 1872,
      "ฒ": 1873,
      "ณ": 1874,
      "ด": 1875,
      "ต": 1876,
      "ถ": 1877,
      "ท": 1878,
      "ธ": 1879,
      "น": 1880,
      "บ": 1881,
      "ป": 1882,
      "ผ": 1883,
      "ฝ": 1884,
      "พ": 1885,
      "ฟ": 1886,
      "ภ": 1887,
      "ม": 1888,
      "ย": 1889,
      "ร": 1890,
      "ฤ": 1891,
      "ล": 1892,
      "ฦ": 1893,
      "ว": 1894,
      "ศ": 1895,
      "ษ": 1896,
      "ส": 1897,
      "ห": 1898,
      "ฬ": 1899,
      "อ": 1900,
      "ฮ": 1901,
      "ฯ": 1902,
      "ะ": 1903,
      "ั": 1904,
      "า": 1905,
      "ำ": 1906,
      "ิ": 1907,
      "ี": 1908,
      "ึ": 1909,
      "ื": 1910,
      "ุ": 1911,
      "ู": 1912,
      "ฺ": 1913,
      "฿": 1914,
      "เ": 1915,
      "แ": 1916,
      "โ": 1917,
      "ใ": 1918,
      "ไ": 1919,
      "ๅ": 1920,
      "ๆ": 1921,
      "็": 1922,
      "่": 1923,
      "้": 1924,
      "๊": 1925,
      "๋": 1926,
      "์": 1927,
      "ํ": 1928,
      "๑": 1929,
      "๓": 1930,
      "๕": 1931,
      "๘": 1932,
      "๚": 1933,
      "ກ": 1934,
      "ຄ": 1935,
      "ງ": 1936,
      "ຈ": 1937,
      "ຊ": 1938,
      "ຍ": 1939,
      "ດ": 1940,
      "ຕ": 1941,
      "ທ": 1942,
      "ນ": 1943,
      "ບ": 1944,
      "ປ": 1945,
      "ຜ": 1946,
      "ພ": 1947,
      "ຟ": 1948,
      "ມ": 1949,
      "ຢ": 1950,
      "ຣ": 1951,
      "ລ": 1952,
      "ວ": 1953,
      "ສ": 1954,
      "ຫ": 1955,
      "ອ": 1956,
      "ຮ": 1957,
      "ະ": 1958,
      "ັ": 1959,
      "າ": 1960,
      "ຳ": 1961,
      "ິ": 1962,
      "ີ": 1963,
      "ື": 1964,
      "ຸ": 1965,
      "ູ": 1966,
      "ົ": 1967,
      "ຽ": 1968,
      "ເ": 1969,
      "ແ": 1970,
      "ໂ": 1971,
      "ໃ": 1972,
      "ໄ": 1973,
      "່": 1974,
      "້": 1975,
      "ໍ": 1976,
      "ໜ": 1977,
      "ༀ": 1978,
      "་": 1979,
      "།": 1980,
      "༔": 1981,
      "༼": 1982,
      "༽": 1983,
      "ཀ": 1984,
      "ཁ": 1985,
      "ག": 1986,
      "ང": 1987,
      "ཅ": 1988,
      "ཆ": 1989,
      "ཇ": 1990,
      "ཉ": 1991,
      "ཊ": 1992,
      "ཏ": 1993,
      "ཐ": 1994,
      "ད": 1995,
      "ན": 1996,
      "པ": 1997,
      "ཕ": 1998,
      "བ": 1999,
      "མ": 2000,
      "ཙ": 2001,
      "ཚ": 2002,
      "ཛ": 2003,
      "ཝ": 2004,
      "ཞ": 2005,
      "ཟ": 2006,
      "འ": 2007,
      "ཡ": 2008,
      "ར": 2009,
      "ལ": 2010,
      "ཤ": 2011,
      "ས": 2012,
      "ཧ": 2013,
      "ཨ": 2014,
      "ཱ": 2015,
      "ི": 2016,
      "ུ": 2017,
      "ེ": 2018,
      "ོ": 2019,
      "ཽ": 2020,
      "ཾ": 2021,
      "ཿ": 2022,
      "ྀ": 2023,
      "ྃ": 2024,
      "ྐ": 2025,
      "ྒ": 2026,
      "ྔ": 2027,
      "ྕ": 2028,
      "ྗ": 2029,
      "ྙ": 2030,
      "ྟ": 2031,
      "ྡ": 2032,
      "ྣ": 2033,
      "ྤ": 2034,
      "ྦ": 2035,
      "ྨ": 2036,
      "ྩ": 2037,
      "ྫ": 2038,
      "ྭ": 2039,
      "ྱ": 2040,
      "ྲ": 2041,
      "ླ": 2042,
      "ྶ": 2043,
      "ྷ": 2044,
      "࿇": 2045,
      "က": 2046,
      "ခ": 2047,
      "ဂ": 2048,
      "ဃ": 2049,
      "င": 2050,
      "စ": 2051,
      "ဆ": 2052,
      "ဇ": 2053,
      "ည": 2054,
      "ဌ": 2055,
      "ဍ": 2056,
      "ဎ": 2057,
      "ဏ": 2058,
      "တ": 2059,
      "ထ": 2060,
      "ဒ": 2061,
      "ဓ": 2062,
      "န": 2063,
      "ပ": 2064,
      "ဖ": 2065,
      "ဗ": 2066,
      "ဘ": 2067,
      "မ": 2068,
      "ယ": 2069,
      "ရ": 2070,
      "လ": 2071,
      "ဝ": 2072,
      "သ": 2073,
      "ဟ": 2074,
      "အ": 2075,
      "ဢ": 2076,
      "ဦ": 2077,
      "ဧ": 2078,
      "ါ": 2079,
      "ာ": 2080,
      "ိ": 2081,
      "ီ": 2082,
      "ု": 2083,
      "ူ": 2084,
      "ေ": 2085,
      "ဲ": 2086,
      "ဳ": 2087,
      "ံ": 2088,
      "့": 2089,
      "း": 2090,
      "္": 2091,
      "်": 2092,
      "ျ": 2093,
      "ြ": 2094,
      "ွ": 2095,
      "ှ": 2096,
      "၀": 2097,
      "၁": 2098,
      "၂": 2099,
      "၇": 2100,
      "၈": 2101,
      "ၜ": 2102,
      "ၢ": 2103,
      "ၵ": 2104,
      "ၿ": 2105,
      "ႂ": 2106,
      "ႄ": 2107,
      "ႆ": 2108,
      "ႏ": 2109,
      "Ⴀ": 2110,
      "Ⴄ": 2111,
      "Ⴇ": 2112,
      "Ⴈ": 2113,
      "Ⴊ": 2114,
      "Ⴌ": 2115,
      "Ⴍ": 2116,
      "Ⴐ": 2117,
      "Ⴕ": 2118,
      "Ⴢ": 2119,
      "Ⴣ": 2120,
      "ა": 2121,
      "ბ": 2122,
      "გ": 2123,
      "დ": 2124,
      "ე": 2125,
      "ვ": 2126,
      "ზ": 2127,
      "თ": 2128,
      "ი": 2129,
      "კ": 2130,
      "ლ": 2131,
      "მ": 2132,
      "ნ": 2133,
      "ო": 2134,
      "პ": 2135,
      "ჟ": 2136,
      "რ": 2137,
      "ს": 2138,
      "ტ": 2139,
      "უ": 2140,
      "ფ": 2141,
      "ქ": 2142,
      "ღ": 2143,
      "ყ": 2144,
      "შ": 2145,
      "ჩ": 2146,
      "ც": 2147,
      "ძ": 2148,
      "წ": 2149,
      "ჭ": 2150,
      "ხ": 2151,
      "ჯ": 2152,
      "ᄅ": 2153,
      "ᄇ": 2154,
      "ᄋ": 2155,
      "ᄒ": 2156,
      "ᄽ": 2157,
      "ᄿ": 2158,
      "ᅎ": 2159,
      "ᅏ": 2160,
      "ᅐ": 2161,
      "ᅑ": 2162,
      "ᅲ": 2163,
      "ᆫ": 2164,
      "ሄ": 2165,
      "ህ": 2166,
      "ለ": 2167,
      "ሊ": 2168,
      "ላ": 2169,
      "ሌ": 2170,
      "ል": 2171,
      "ሐ": 2172,
      "ሒ": 2173,
      "ሓ": 2174,
      "ሕ": 2175,
      "መ": 2176,
      "ሚ": 2177,
      "ማ": 2178,
      "ሜ": 2179,
      "ም": 2180,
      "ሞ": 2181,
      "ሠ": 2182,
      "ሥ": 2183,
      "ረ": 2184,
      "ሩ": 2185,
      "ሪ": 2186,
      "ራ": 2187,
      "ሬ": 2188,
      "ር": 2189,
      "ሰ": 2190,
      "ሱ": 2191,
      "ሳ": 2192,
      "ስ": 2193,
      "ሷ": 2194,
      "ሽ": 2195,
      "ቃ": 2196,
      "ቅ": 2197,
      "በ": 2198,
      "ቡ": 2199,
      "ባ": 2200,
      "ብ": 2201,
      "ቪ": 2202,
      "ተ": 2203,
      "ቲ": 2204,
      "ታ": 2205,
      "ት": 2206,
      "ቷ": 2207,
      "ች": 2208,
      "ኅ": 2209,
      "ነ": 2210,
      "ና": 2211,
      "ን": 2212,
      "ኛ": 2213,
      "ኝ": 2214,
      "አ": 2215,
      "ኢ": 2216,
      "ኣ": 2217,
      "እ": 2218,
      "ከ": 2219,
      "ክ": 2220,
      "ወ": 2221,
      "ዊ": 2222,
      "ው": 2223,
      "ዎ": 2224,
      "ዕ": 2225,
      "ዘ": 2226,
      "ዜ": 2227,
      "ዝ": 2228,
      "ዥ": 2229,
      "የ": 2230,
      "ያ": 2231,
      "ዬ": 2232,
      "ይ": 2233,
      "ዮ": 2234,
      "ደ": 2235,
      "ዳ": 2236,
      "ዴ": 2237,
      "ድ": 2238,
      "ዶ": 2239,
      "ጀ": 2240,
      "ጁ": 2241,
      "ገ": 2242,
      "ጉ": 2243,
      "ጊ": 2244,
      "ጋ": 2245,
      "ግ": 2246,
      "ጠ": 2247,
      "ጣ": 2248,
      "ጥ": 2249,
      "ጵ": 2250,
      "ጸ": 2251,
      "ፀ": 2252,
      "ፊ": 2253,
      "ፋ": 2254,
      "ፍ": 2255,
      "ፕ": 2256,
      "Ꭱ": 2257,
      "Ꭹ": 2258,
      "Ꭺ": 2259,
      "Ꭿ": 2260,
      "Ꮃ": 2261,
      "Ꮄ": 2262,
      "Ꮅ": 2263,
      "Ꮕ": 2264,
      "Ꮖ": 2265,
      "Ꮗ": 2266,
      "Ꮜ": 2267,
      "Ꮝ": 2268,
      "Ꮣ": 2269,
      "Ꮧ": 2270,
      "Ꮩ": 2271,
      "Ꮳ": 2272,
      "Ꮷ": 2273,
      "Ꮹ": 2274,
      "Ꮻ": 2275,
      "Ꮿ": 2276,
      "Ᏽ": 2277,
      "ᐃ": 2278,
      "ᐄ": 2279,
      "ᐅ": 2280,
      "ᐊ": 2281,
      "ᐋ": 2282,
      "ᐏ": 2283,
      "ᐑ": 2284,
      "ᐚ": 2285,
      "ᐟ": 2286,
      "ᐢ": 2287,
      "ᐣ": 2288,
      "ᐤ": 2289,
      "ᐦ": 2290,
      "ᐧ": 2291,
      "ᐯ": 2292,
      "ᐱ": 2293,
      "ᐸ": 2294,
      "ᐺ": 2295,
      "ᑎ": 2296,
      "ᑐ": 2297,
      "ᑑ": 2298,
      "ᑕ": 2299,
      "ᑖ": 2300,
      "ᑦ": 2301,
      "ᑫ": 2302,
      "ᑭ": 2303,
      "ᑮ": 2304,
      "ᑯ": 2305,
      "ᑲ": 2306,
      "ᑿ": 2307,
      "ᒃ": 2308,
      "ᒋ": 2309,
      "ᒌ": 2310,
      "ᒡ": 2311,
      "ᒣ": 2312,
      "ᒥ": 2313,
      "ᒧ": 2314,
      "ᒨ": 2315,
      "ᒪ": 2316,
      "ᒻ": 2317,
      "ᓂ": 2318,
      "ᓄ": 2319,
      "ᓇ": 2320,
      "ᓈ": 2321,
      "ᓐ": 2322,
      "ᓕ": 2323,
      "ᓗ": 2324,
      "ᓛ": 2325,
      "ᓯ": 2326,
      "ᓰ": 2327,
      "ᓱ": 2328,
      "ᓲ": 2329,
      "ᓵ": 2330,
      "ᔅ": 2331,
      "ᔑ": 2332,
      "ᔪ": 2333,
      "ᔭ": 2334,
      "ᕆ": 2335,
      "ᕋ": 2336,
      "ᕐ": 2337,
      "ᕓ": 2338,
      "ᕕ": 2339,
      "ᕗ": 2340,
      "ᕙ": 2341,
      "ᕿ": 2342,
      "ᖃ": 2343,
      "ᖅ": 2344,
      "ᖓ": 2345,
      "ᖹ": 2346,
      "ᗅ": 2347,
      "ᗜ": 2348,
      "ᗷ": 2349,
      "ᗺ": 2350,
      "ᚢ": 2351,
      "ᚱ": 2352,
      "ᚲ": 2353,
      "ᚴ": 2354,
      "ᚷ": 2355,
      "ᚹ": 2356,
      "ᚼ": 2357,
      "ᚾ": 2358,
      "ᛃ": 2359,
      "ᛅ": 2360,
      "ᛉ": 2361,
      "ᛊ": 2362,
      "ᛏ": 2363,
      "ᛒ": 2364,
      "ᛘ": 2365,
      "ᛜ": 2366,
      "ᛦ": 2367,
      "ᜃ": 2368,
      "ᜋ": 2369,
      "ᜎ": 2370,
      "ᜑ": 2371,
      "ᜒ": 2372,
      "᜵": 2373,
      "᜶": 2374,
      "ᝃ": 2375,
      "ᝒ": 2376,
      "ក": 2377,
      "ខ": 2378,
      "គ": 2379,
      "ឃ": 2380,
      "ង": 2381,
      "ច": 2382,
      "ឆ": 2383,
      "ជ": 2384,
      "ឈ": 2385,
      "ញ": 2386,
      "ដ": 2387,
      "ឋ": 2388,
      "ណ": 2389,
      "ត": 2390,
      "ថ": 2391,
      "ទ": 2392,
      "ធ": 2393,
      "ន": 2394,
      "ប": 2395,
      "ព": 2396,
      "ភ": 2397,
      "ម": 2398,
      "យ": 2399,
      "រ": 2400,
      "ល": 2401,
      "វ": 2402,
      "ស": 2403,
      "ហ": 2404,
      "ឡ": 2405,
      "អ": 2406,
      "ឧ": 2407,
      "ឯ": 2408,
      "឴": 2409,
      "឵": 2410,
      "ា": 2411,
      "ិ": 2412,
      "ី": 2413,
      "ឹ": 2414,
      "ុ": 2415,
      "ូ": 2416,
      "ួ": 2417,
      "ើ": 2418,
      "ឿ": 2419,
      "ៀ": 2420,
      "េ": 2421,
      "ែ": 2422,
      "ៃ": 2423,
      "ោ": 2424,
      "ៅ": 2425,
      "ំ": 2426,
      "ះ": 2427,
      "ៈ": 2428,
      "៉": 2429,
      "៊": 2430,
      "់": 2431,
      "៍": 2432,
      "័": 2433,
      "៑": 2434,
      "្": 2435,
      "᠊": 2436,
      "᠋": 2437,
      "ᠠ": 2438,
      "ᠡ": 2439,
      "ᠢ": 2440,
      "ᠣ": 2441,
      "ᠦ": 2442,
      "ᠨ": 2443,
      "ᠩ": 2444,
      "ᠪ": 2445,
      "ᠬ": 2446,
      "ᠭ": 2447,
      "ᠯ": 2448,
      "ᠰ": 2449,
      "ᠴ": 2450,
      "ᠵ": 2451,
      "ᠶ": 2452,
      "ᠷ": 2453,
      "ᠸ": 2454,
      "ᡄ": 2455,
      "ᡅ": 2456,
      "ᡆ": 2457,
      "ᡉ": 2458,
      "ᡊ": 2459,
      "ᡍ": 2460,
      "ᡎ": 2461,
      "ᡐ": 2462,
      "ᡠ": 2463,
      "ᡤ": 2464,
      "ᡨ": 2465,
      "ᡳ": 2466,
      "ᡴ": 2467,
      "ᡵ": 2468,
      "ᡶ": 2469,
      "ᤌ": 2470,
      "ᤕ": 2471,
      "ᤠ": 2472,
      "ᤢ": 2473,
      "ᤰ": 2474,
      "ᤱ": 2475,
      "ᥐ": 2476,
      "ᥑ": 2477,
      "ᥒ": 2478,
      "ᥓ": 2479,
      "ᥔ": 2480,
      "ᥕ": 2481,
      "ᥖ": 2482,
      "ᥗ": 2483,
      "ᥘ": 2484,
      "ᥙ": 2485,
      "ᥛ": 2486,
      "ᥜ": 2487,
      "ᥝ": 2488,
      "ᥞ": 2489,
      "ᥢ": 2490,
      "ᥣ": 2491,
      "ᥤ": 2492,
      "ᥥ": 2493,
      "ᥦ": 2494,
      "ᥧ": 2495,
      "ᥨ": 2496,
      "ᥩ": 2497,
      "ᥪ": 2498,
      "ᥫ": 2499,
      "ᥬ": 2500,
      "ᥭ": 2501,
      "ᥰ": 2502,
      "ᥱ": 2503,
      "ᥲ": 2504,
      "ᥳ": 2505,
      "ᥴ": 2506,
      "ᦂ": 2507,
      "ᦄ": 2508,
      "ᦉ": 2509,
      "ᦍ": 2510,
      "ᦑ": 2511,
      "ᦒ": 2512,
      "ᦞ": 2513,
      "ᦟ": 2514,
      "ᦠ": 2515,
      "ᦢ": 2516,
      "ᦰ": 2517,
      "ᦱ": 2518,
      "ᦲ": 2519,
      "ᦳ": 2520,
      "ᦴ": 2521,
      "ᦵ": 2522,
      "ᦶ": 2523,
      "ᦷ": 2524,
      "ᦸ": 2525,
      "ᦹ": 2526,
      "ᦺ": 2527,
      "ᧁ": 2528,
      "ᧂ": 2529,
      "ᧃ": 2530,
      "ᧄ": 2531,
      "ᧅ": 2532,
      "ᧆ": 2533,
      "ᧇ": 2534,
      "ᧈ": 2535,
      "ᧉ": 2536,
      "᧑": 2537,
      "᧚": 2538,
      "᧞": 2539,
      "᧟": 2540,
      "ᨀ": 2541,
      "ᨁ": 2542,
      "ᨄ": 2543,
      "ᨅ": 2544,
      "ᨆ": 2545,
      "ᨈ": 2546,
      "ᨉ": 2547,
      "ᨑ": 2548,
      "ᨒ": 2549,
      "ᨓ": 2550,
      "ᨔ": 2551,
      "ᨕ": 2552,
      "ᨘ": 2553,
      "ᨙ": 2554,
      "ᨚ": 2555,
      "ᨛ": 2556,
      "ᨡ": 2557,
      "ᨯ": 2558,
      "ᨰ": 2559,
      "ᨴ": 2560,
      "ᨵ": 2561,
      "ᨶ": 2562,
      "ᨿ": 2563,
      "ᩅ": 2564,
      "᩠": 2565,
      "ᩨ": 2566,
      "ᩫ": 2567,
      "ᩮ": 2568,
      "ᩯ": 2569,
      "ᩰ": 2570,
      "ᩱ": 2571,
      "ᩲ": 2572,
      "᩶": 2573,
      "᩻": 2574,
      "ᬂ": 2575,
      "ᬅ": 2576,
      "ᬑ": 2577,
      "ᬓ": 2578,
      "ᬢ": 2579,
      "ᬦ": 2580,
      "ᬩ": 2581,
      "ᬫ": 2582,
      "ᬬ": 2583,
      "ᬭ": 2584,
      "ᬳ": 2585,
      "ᬶ": 2586,
      "᭄": 2587,
      "ᰀ": 2588,
      "ᰃ": 2589,
      "ᰄ": 2590,
      "ᰏ": 2591,
      "ᰕ": 2592,
      "ᰛ": 2593,
      "ᰜ": 2594,
      "ᰝ": 2595,
      "ᰠ": 2596,
      "ᰤ": 2597,
      "ᰥ": 2598,
      "ᰦ": 2599,
      "ᰧ": 2600,
      "ᰨ": 2601,
      "ᰩ": 2602,
      "ᰪ": 2603,
      "ᰫ": 2604,
      "ᰬ": 2605,
      "ᰭ": 2606,
      "ᰮ": 2607,
      "ᰲ": 2608,
      "ᰳ": 2609,
      "ᰶ": 2610,
      "᰷": 2611,
      "ᴀ": 2612,
      "ᴁ": 2613,
      "ᴂ": 2614,
      "ᴃ": 2615,
      "ᴄ": 2616,
      "ᴅ": 2617,
      "ᴆ": 2618,
      "ᴇ": 2619,
      "ᴈ": 2620,
      "ᴉ": 2621,
      "ᴊ": 2622,
      "ᴋ": 2623,
      "ᴌ": 2624,
      "ᴍ": 2625,
      "ᴏ": 2626,
      "ᴔ": 2627,
      "ᴗ": 2628,
      "ᴘ": 2629,
      "ᴙ": 2630,
      "ᴚ": 2631,
      "ᴛ": 2632,
      "ᴜ": 2633,
      "ᴝ": 2634,
      "ᴞ": 2635,
      "ᴟ": 2636,
      "ᴠ": 2637,
      "ᴢ": 2638,
      "ᴺ": 2639,
      "ᵀ": 2640,
      "ᵉ": 2641,
      "ᵋ": 2642,
      "ᵐ": 2643,
      "ᵑ": 2644,
      "ᵕ": 2645,
      "ᵘ": 2646,
      "ᵛ": 2647,
      "ᵝ": 2648,
      "ᵢ": 2649,
      "ᵧ": 2650,
      "ᵫ": 2651,
      "ᵬ": 2652,
      "ᵭ": 2653,
      "ᵮ": 2654,
      "ᵯ": 2655,
      "ᵰ": 2656,
      "ᵱ": 2657,
      "ᵲ": 2658,
      "ᵳ": 2659,
      "ᵴ": 2660,
      "ᵵ": 2661,
      "ᵶ": 2662,
      "ᵷ": 2663,
      "ᵹ": 2664,
      "ᵺ": 2665,
      "ᵻ": 2666,
      "ᵼ": 2667,
      "ᵽ": 2668,
      "ᵾ": 2669,
      "ᵿ": 2670,
      "ᶀ": 2671,
      "ᶂ": 2672,
      "ᶃ": 2673,
      "ᶄ": 2674,
      "ᶅ": 2675,
      "ᶆ": 2676,
      "ᶇ": 2677,
      "ᶈ": 2678,
      "ᶉ": 2679,
      "ᶊ": 2680,
      "ᶋ": 2681,
      "ᶌ": 2682,
      "ᶍ": 2683,
      "ᶎ": 2684,
      "ᶏ": 2685,
      "ᶐ": 2686,
      "ᶑ": 2687,
      "ᶒ": 2688,
      "ᶓ": 2689,
      "ᶔ": 2690,
      "ᶕ": 2691,
      "ᶖ": 2692,
      "ᶘ": 2693,
      "ᶙ": 2694,
      "ᶚ": 2695,
      "ᶦ": 2696,
      "ᶧ": 2697,
      "ᶫ": 2698,
      "ᶰ": 2699,
      "ᶱ": 2700,
      "ᶸ": 2701,
      "ᶻ": 2702,
      "᷆": 2703,
      "ᷛ": 2704,
      "ᷞ": 2705,
      "ᷟ": 2706,
      "ᷡ": 2707,
      "ᷢ": 2708,
      "Ḁ": 2709,
      "ḁ": 2710,
      "Ḃ": 2711,
      "ḃ": 2712,
      "Ḅ": 2713,
      "ḅ": 2714,
      "Ḇ": 2715,
      "ḇ": 2716,
      "Ḉ": 2717,
      "ḉ": 2718,
      "Ḋ": 2719,
      "ḋ": 2720,
      "Ḍ": 2721,
      "ḍ": 2722,
      "Ḏ": 2723,
      "ḏ": 2724,
      "Ḑ": 2725,
      "ḑ": 2726,
      "Ḓ": 2727,
      "ḓ": 2728,
      "Ḕ": 2729,
      "ḕ": 2730,
      "Ḗ": 2731,
      "ḗ": 2732,
      "Ḙ": 2733,
      "ḙ": 2734,
      "Ḛ": 2735,
      "ḛ": 2736,
      "Ḝ": 2737,
      "ḝ": 2738,
      "Ḟ": 2739,
      "ḟ": 2740,
      "Ḡ": 2741,
      "ḡ": 2742,
      "Ḣ": 2743,
      "ḣ": 2744,
      "Ḥ": 2745,
      "ḥ": 2746,
      "Ḧ": 2747,
      "ḧ": 2748,
      "Ḩ": 2749,
      "ḩ": 2750,
      "Ḫ": 2751,
      "ḫ": 2752,
      "Ḭ": 2753,
      "ḭ": 2754,
      "Ḯ": 2755,
      "ḯ": 2756,
      "Ḱ": 2757,
      "ḱ": 2758,
      "Ḳ": 2759,
      "ḳ": 2760,
      "Ḵ": 2761,
      "ḵ": 2762,
      "Ḷ": 2763,
      "ḷ": 2764,
      "Ḹ": 2765,
      "ḹ": 2766,
      "Ḻ": 2767,
      "ḻ": 2768,
      "Ḽ": 2769,
      "ḽ": 2770,
      "Ḿ": 2771,
      "ḿ": 2772,
      "Ṁ": 2773,
      "ṁ": 2774,
      "Ṃ": 2775,
      "ṃ": 2776,
      "Ṅ": 2777,
      "ṅ": 2778,
      "Ṇ": 2779,
      "ṇ": 2780,
      "Ṉ": 2781,
      "ṉ": 2782,
      "Ṋ": 2783,
      "ṋ": 2784,
      "Ṍ": 2785,
      "ṍ": 2786,
      "Ṏ": 2787,
      "ṏ": 2788,
      "Ṑ": 2789,
      "ṑ": 2790,
      "Ṓ": 2791,
      "ṓ": 2792,
      "Ṕ": 2793,
      "ṕ": 2794,
      "Ṗ": 2795,
      "ṗ": 2796,
      "Ṙ": 2797,
      "ṙ": 2798,
      "Ṛ": 2799,
      "ṛ": 2800,
      "Ṝ": 2801,
      "ṝ": 2802,
      "Ṟ": 2803,
      "ṟ": 2804,
      "Ṡ": 2805,
      "ṡ": 2806,
      "Ṣ": 2807,
      "ṣ": 2808,
      "Ṥ": 2809,
      "ṥ": 2810,
      "Ṧ": 2811,
      "ṧ": 2812,
      "Ṩ": 2813,
      "ṩ": 2814,
      "Ṫ": 2815,
      "ṫ": 2816,
      "Ṭ": 2817,
      "ṭ": 2818,
      "Ṯ": 2819,
      "ṯ": 2820,
      "Ṱ": 2821,
      "ṱ": 2822,
      "Ṳ": 2823,
      "ṳ": 2824,
      "Ṵ": 2825,
      "ṵ": 2826,
      "Ṷ": 2827,
      "ṷ": 2828,
      "Ṹ": 2829,
      "ṹ": 2830,
      "Ṻ": 2831,
      "ṻ": 2832,
      "Ṽ": 2833,
      "ṽ": 2834,
      "Ṿ": 2835,
      "ṿ": 2836,
      "Ẁ": 2837,
      "ẁ": 2838,
      "Ẃ": 2839,
      "ẃ": 2840,
      "Ẅ": 2841,
      "ẅ": 2842,
      "Ẇ": 2843,
      "ẇ": 2844,
      "Ẉ": 2845,
      "ẉ": 2846,
      "Ẋ": 2847,
      "ẋ": 2848,
      "Ẍ": 2849,
      "ẍ": 2850,
      "Ẏ": 2851,
      "ẏ": 2852,
      "Ẑ": 2853,
      "ẑ": 2854,
      "Ẓ": 2855,
      "ẓ": 2856,
      "Ẕ": 2857,
      "ẕ": 2858,
      "ẖ": 2859,
      "ẗ": 2860,
      "ẘ": 2861,
      "ẙ": 2862,
      "ẚ": 2863,
      "ẛ": 2864,
      "ẞ": 2865,
      "Ạ": 2866,
      "ạ": 2867,
      "Ả": 2868,
      "ả": 2869,
      "Ấ": 2870,
      "ấ": 2871,
      "Ầ": 2872,
      "ầ": 2873,
      "Ẩ": 2874,
      "ẩ": 2875,
      "Ẫ": 2876,
      "ẫ": 2877,
      "Ậ": 2878,
      "ậ": 2879,
      "Ắ": 2880,
      "ắ": 2881,
      "Ằ": 2882,
      "ằ": 2883,
      "Ẳ": 2884,
      "ẳ": 2885,
      "Ẵ": 2886,
      "ẵ": 2887,
      "Ặ": 2888,
      "ặ": 2889,
      "Ẹ": 2890,
      "ẹ": 2891,
      "Ẻ": 2892,
      "ẻ": 2893,
      "Ẽ": 2894,
      "ẽ": 2895,
      "Ế": 2896,
      "ế": 2897,
      "Ề": 2898,
      "ề": 2899,
      "Ể": 2900,
      "ể": 2901,
      "Ễ": 2902,
      "ễ": 2903,
      "Ệ": 2904,
      "ệ": 2905,
      "Ỉ": 2906,
      "ỉ": 2907,
      "Ị": 2908,
      "ị": 2909,
      "Ọ": 2910,
      "ọ": 2911,
      "Ỏ": 2912,
      "ỏ": 2913,
      "Ố": 2914,
      "ố": 2915,
      "Ồ": 2916,
      "ồ": 2917,
      "Ổ": 2918,
      "ổ": 2919,
      "Ỗ": 2920,
      "ỗ": 2921,
      "Ộ": 2922,
      "ộ": 2923,
      "Ớ": 2924,
      "ớ": 2925,
      "Ờ": 2926,
      "ờ": 2927,
      "Ở": 2928,
      "ở": 2929,
      "Ỡ": 2930,
      "ỡ": 2931,
      "Ợ": 2932,
      "ợ": 2933,
      "Ụ": 2934,
      "ụ": 2935,
      "Ủ": 2936,
      "ủ": 2937,
      "Ứ": 2938,
      "ứ": 2939,
      "Ừ": 2940,
      "ừ": 2941,
      "Ử": 2942,
      "ử": 2943,
      "Ữ": 2944,
      "ữ": 2945,
      "Ự": 2946,
      "ự": 2947,
      "Ỳ": 2948,
      "ỳ": 2949,
      "Ỵ": 2950,
      "ỵ": 2951,
      "Ỷ": 2952,
      "ỷ": 2953,
      "Ỹ": 2954,
      "ỹ": 2955,
      "Ỻ": 2956,
      "ỻ": 2957,
      "Ỽ": 2958,
      "ἀ": 2959,
      "ἁ": 2960,
      "ἂ": 2961,
      "ἃ": 2962,
      "ἄ": 2963,
      "ἅ": 2964,
      "Ἀ": 2965,
      "Ἁ": 2966,
      "Ἄ": 2967,
      "Ἅ": 2968,
      "Ἆ": 2969,
      "ἐ": 2970,
      "ἑ": 2971,
      "ἔ": 2972,
      "ἕ": 2973,
      "Ἐ": 2974,
      "Ἑ": 2975,
      "Ἔ": 2976,
      "Ἕ": 2977,
      "ἠ": 2978,
      "ἡ": 2979,
      "ἣ": 2980,
      "ἤ": 2981,
      "ἥ": 2982,
      "ἦ": 2983,
      "ἧ": 2984,
      "Ἠ": 2985,
      "Ἡ": 2986,
      "Ἥ": 2987,
      "ἰ": 2988,
      "ἱ": 2989,
      "ἳ": 2990,
      "ἴ": 2991,
      "ἵ": 2992,
      "ἶ": 2993,
      "ἷ": 2994,
      "Ἰ": 2995,
      "Ἱ": 2996,
      "Ἴ": 2997,
      "Ἶ": 2998,
      "ὀ": 2999,
      "ὁ": 3000,
      "ὄ": 3001,
      "ὅ": 3002,
      "Ὀ": 3003,
      "Ὁ": 3004,
      "Ὂ": 3005,
      "Ὄ": 3006,
      "Ὅ": 3007,
      "ὐ": 3008,
      "ὑ": 3009,
      "ὒ": 3010,
      "ὔ": 3011,
      "ὕ": 3012,
      "ὖ": 3013,
      "ὗ": 3014,
      "Ὑ": 3015,
      "Ὕ": 3016,
      "ὠ": 3017,
      "ὡ": 3018,
      "ὤ": 3019,
      "ὥ": 3020,
      "ὦ": 3021,
      "Ὠ": 3022,
      "ὰ": 3023,
      "ὲ": 3024,
      "ὴ": 3025,
      "ὶ": 3026,
      "ὸ": 3027,
      "ὺ": 3028,
      "ὼ": 3029,
      "ᾅ": 3030,
      "ᾍ": 3031,
      "ᾰ": 3032,
      "ᾱ": 3033,
      "ᾳ": 3034,
      "ᾴ": 3035,
      "ᾶ": 3036,
      "ᾷ": 3037,
      "᾽": 3038,
      "᾿": 3039,
      "ῃ": 3040,
      "ῆ": 3041,
      "ῇ": 3042,
      "ῐ": 3043,
      "ῑ": 3044,
      "ῖ": 3045,
      "Ὶ": 3046,
      "ῠ": 3047,
      "ῡ": 3048,
      "ῤ": 3049,
      "ῥ": 3050,
      "ῦ": 3051,
      "Ῥ": 3052,
      "ῳ": 3053,
      "ῶ": 3054,
      "ῷ": 3055,
      "῾": 3056,
      "​": 3057,
      "‌": 3058,
      "‍": 3059,
      "‎": 3060,
      "‏": 3061,
      "‐": 3062,
      "‑": 3063,
      "‒": 3064,
      "–": 3065,
      "—": 3066,
      "―": 3067,
      "‖": 3068,
      "‚": 3069,
      "‛": 3070,
      "„": 3071,
      "‟": 3072,
      "†": 3073,
      "‡": 3074,
      "•": 3075,
      "‣": 3076,
      "․": 3077,
      "‥": 3078,
      "…": 3079,
      "‧": 3080,
      "‪": 3081,
      "‬": 3082,
      "‭": 3083,
      "‰": 3084,
      "‱": 3085,
      "′": 3086,
      "″": 3087,
      "‴": 3088,
      "‵": 3089,
      "‶": 3090,
      "‹": 3091,
      "›": 3092,
      "※": 3093,
      "‼": 3094,
      "‽": 3095,
      "‾": 3096,
      "‿": 3097,
      "⁀": 3098,
      "⁂": 3099,
      "⁃": 3100,
      "⁄": 3101,
      "⁇": 3102,
      "⁈": 3103,
      "⁉": 3104,
      "⁋": 3105,
      "⁎": 3106,
      "⁓": 3107,
      "⁚": 3108,
      "⁠": 3109,
      "⁡": 3110,
      "⁣": 3111,
      "⁰": 3112,
      "ⁱ": 3113,
      "⁴": 3114,
      "⁵": 3115,
      "⁶": 3116,
      "⁷": 3117,
      "⁸": 3118,
      "⁹": 3119,
      "⁺": 3120,
      "⁻": 3121,
      "ⁿ": 3122,
      "₀": 3123,
      "₁": 3124,
      "₂": 3125,
      "₃": 3126,
      "₄": 3127,
      "₅": 3128,
      "₆": 3129,
      "₇": 3130,
      "₈": 3131,
      "₉": 3132,
      "ₐ": 3133,
      "ₒ": 3134,
      "ₓ": 3135,
      "ₕ": 3136,
      "ₙ": 3137,
      "ₜ": 3138,
      "₠": 3139,
      "₡": 3140,
      "₣": 3141,
      "₤": 3142,
      "₥": 3143,
      "₦": 3144,
      "₧": 3145,
      "₨": 3146,
      "₩": 3147,
      "₫": 3148,
      "€": 3149,
      "₮": 3150,
      "₯": 3151,
      "₰": 3152,
      "₱": 3153,
      "₴": 3154,
      "₷": 3155,
      "₹": 3156,
      "₺": 3157,
      "₼": 3158,
      "₽": 3159,
      "₾": 3160,
      "₿": 3161,
      "⃒": 3162,
      "⃝": 3163,
      "⃣": 3164,
      "ℂ": 3165,
      "℃": 3166,
      "℅": 3167,
      "℈": 3168,
      "℉": 3169,
      "ℍ": 3170,
      "ℎ": 3171,
      "ℓ": 3172,
      "ℕ": 3173,
      "№": 3174,
      "℘": 3175,
      "ℙ": 3176,
      "ℚ": 3177,
      "ℛ": 3178,
      "ℝ": 3179,
      "℞": 3180,
      "℠": 3181,
      "™": 3182,
      "ℤ": 3183,
      "℥": 3184,
      "℧": 3185,
      "℩": 3186,
      "Ⅎ": 3187,
      "ℳ": 3188,
      "ℵ": 3189,
      "⅂": 3190,
      "⅄": 3191,
      "ⅎ": 3192,
      "⅓": 3193,
      "⅔": 3194,
      "⅕": 3195,
      "⅖": 3196,
      "⅗": 3197,
      "⅘": 3198,
      "⅙": 3199,
      "⅛": 3200,
      "⅜": 3201,
      "⅝": 3202,
      "⅞": 3203,
      "Ⅰ": 3204,
      "Ⅱ": 3205,
      "Ⅲ": 3206,
      "Ⅳ": 3207,
      "Ⅴ": 3208,
      "Ⅵ": 3209,
      "Ⅶ": 3210,
      "Ⅷ": 3211,
      "Ⅸ": 3212,
      "Ⅹ": 3213,
      "Ⅺ": 3214,
      "Ⅻ": 3215,
      "Ⅼ": 3216,
      "Ⅽ": 3217,
      "Ⅾ": 3218,
      "Ⅿ": 3219,
      "ⅰ": 3220,
      "ⅱ": 3221,
      "ↀ": 3222,
      "Ↄ": 3223,
      "ↄ": 3224,
      "←": 3225,
      "↑": 3226,
      "→": 3227,
      "↓": 3228,
      "↔": 3229,
      "↖": 3230,
      "↗": 3231,
      "↘": 3232,
      "↠": 3233,
      "↣": 3234,
      "↦": 3235,
      "↪": 3236,
      "↯": 3237,
      "↵": 3238,
      "↺": 3239,
      "⇄": 3240,
      "⇅": 3241,
      "⇆": 3242,
      "⇋": 3243,
      "⇌": 3244,
      "⇐": 3245,
      "⇑": 3246,
      "⇒": 3247,
      "⇓": 3248,
      "⇔": 3249,
      "⇧": 3250,
      "⇪": 3251,
      "∀": 3252,
      "∁": 3253,
      "∂": 3254,
      "∃": 3255,
      "∄": 3256,
      "∅": 3257,
      "∆": 3258,
      "∇": 3259,
      "∈": 3260,
      "∉": 3261,
      "∊": 3262,
      "∎": 3263,
      "∏": 3264,
      "∑": 3265,
      "−": 3266,
      "∓": 3267,
      "∕": 3268,
      "∗": 3269,
      "∘": 3270,
      "∙": 3271,
      "√": 3272,
      "∝": 3273,
      "∞": 3274,
      "∠": 3275,
      "∣": 3276,
      "∥": 3277,
      "∧": 3278,
      "∨": 3279,
      "∩": 3280,
      "∪": 3281,
      "∫": 3282,
      "∬": 3283,
      "∭": 3284,
      "∴": 3285,
      "∵": 3286,
      "∶": 3287,
      "∷": 3288,
      "∼": 3289,
      "∽": 3290,
      "∿": 3291,
      "≀": 3292,
      "≂": 3293,
      "≃": 3294,
      "≅": 3295,
      "≆": 3296,
      "≈": 3297,
      "≒": 3298,
      "≠": 3299,
      "≡": 3300,
      "≢": 3301,
      "≤": 3302,
      "≥": 3303,
      "≦": 3304,
      "≧": 3305,
      "≪": 3306,
      "≫": 3307,
      "≲": 3308,
      "≳": 3309,
      "⊂": 3310,
      "⊃": 3311,
      "⊆": 3312,
      "⊇": 3313,
      "⊊": 3314,
      "⊓": 3315,
      "⊔": 3316,
      "⊕": 3317,
      "⊖": 3318,
      "⊗": 3319,
      "⊙": 3320,
      "⊞": 3321,
      "⊟": 3322,
      "⊢": 3323,
      "⊤": 3324,
      "⊥": 3325,
      "⊦": 3326,
      "⊩": 3327,
      "⊸": 3328,
      "⊿": 3329,
      "⋂": 3330,
      "⋄": 3331,
      "⋅": 3332,
      "⋆": 3333,
      "⋈": 3334,
      "⋉": 3335,
      "⋊": 3336,
      "⋮": 3337,
      "⋯": 3338,
      "⌂": 3339,
      "⌃": 3340,
      "⌄": 3341,
      "⌇": 3342,
      "⌈": 3343,
      "⌉": 3344,
      "⌊": 3345,
      "⌋": 3346,
      "⌒": 3347,
      "⌘": 3348,
      "⌥": 3349,
      "⌬": 3350,
      "⌽": 3351,
      "⌿": 3352,
      "⍎": 3353,
      "⍝": 3354,
      "⍳": 3355,
      "⍴": 3356,
      "⍵": 3357,
      "⍺": 3358,
      "⎓": 3359,
      "⎕": 3360,
      "⎛": 3361,
      "⎝": 3362,
      "⎞": 3363,
      "⎠": 3364,
      "⎯": 3365,
      "⎷": 3366,
      "⏑": 3367,
      "⏕": 3368,
      "␚": 3369,
      "␡": 3370,
      "␣": 3371,
      "①": 3372,
      "②": 3373,
      "③": 3374,
      "④": 3375,
      "⑤": 3376,
      "⑥": 3377,
      "⑦": 3378,
      "⑧": 3379,
      "⑨": 3380,
      "⑩": 3381,
      "⑪": 3382,
      "⑫": 3383,
      "⑬": 3384,
      "⑭": 3385,
      "⑮": 3386,
      "⑯": 3387,
      "⑰": 3388,
      "⑱": 3389,
      "⑲": 3390,
      "⑳": 3391,
      "⑴": 3392,
      "⑵": 3393,
      "⑶": 3394,
      "⑷": 3395,
      "⑸": 3396,
      "⑹": 3397,
      "⑺": 3398,
      "⑻": 3399,
      "⑼": 3400,
      "⑽": 3401,
      "⒂": 3402,
      "⒈": 3403,
      "⒉": 3404,
      "⒊": 3405,
      "⒋": 3406,
      "⒌": 3407,
      "⒍": 3408,
      "⒎": 3409,
      "⒏": 3410,
      "⒐": 3411,
      "⒑": 3412,
      "⒒": 3413,
      "⒓": 3414,
      "⒔": 3415,
      "⒕": 3416,
      "⒖": 3417,
      "⒗": 3418,
      "⒘": 3419,
      "⒙": 3420,
      "⒞": 3421,
      "⒟": 3422,
      "Ⓐ": 3423,
      "Ⓑ": 3424,
      "Ⓒ": 3425,
      "Ⓓ": 3426,
      "Ⓕ": 3427,
      "Ⓛ": 3428,
      "Ⓟ": 3429,
      "Ⓡ": 3430,
      "Ⓥ": 3431,
      "ⓒ": 3432,
      "ⓘ": 3433,
      "ⓟ": 3434,
      "─": 3435,
      "━": 3436,
      "│": 3437,
      "┃": 3438,
      "┈": 3439,
      "┌": 3440,
      "┏": 3441,
      "┐": 3442,
      "┓": 3443,
      "└": 3444,
      "┗": 3445,
      "┘": 3446,
      "┛": 3447,
      "├": 3448,
      "┣": 3449,
      "┤": 3450,
      "┫": 3451,
      "┬": 3452,
      "┳": 3453,
      "┴": 3454,
      "┼": 3455,
      "═": 3456,
      "║": 3457,
      "╕": 3458,
      "╞": 3459,
      "╡": 3460,
      "╪": 3461,
      "╭": 3462,
      "╮": 3463,
      "╯": 3464,
      "╰": 3465,
      "╱": 3466,
      "╲": 3467,
      "╳": 3468,
      "╴": 3469,
      "▃": 3470,
      "▄": 3471,
      "█": 3472,
      "▉": 3473,
      "▌": 3474,
      "▎": 3475,
      "▖": 3476,
      "■": 3477,
      "□": 3478,
      "▢": 3479,
      "▨": 3480,
      "▪": 3481,
      "▫": 3482,
      "▮": 3483,
      "▱": 3484,
      "▲": 3485,
      "△": 3486,
      "▶": 3487,
      "▷": 3488,
      "►": 3489,
      "▼": 3490,
      "▽": 3491,
      "◀": 3492,
      "◁": 3493,
      "◆": 3494,
      "◇": 3495,
      "◊": 3496,
      "○": 3497,
      "◌": 3498,
      "◎": 3499,
      "●": 3500,
      "◕": 3501,
      "◘": 3502,
      "◙": 3503,
      "◡": 3504,
      "◢": 3505,
      "◣": 3506,
      "◤": 3507,
      "◥": 3508,
      "◦": 3509,
      "◧": 3510,
      "◩": 3511,
      "◬": 3512,
      "◯": 3513,
      "◻": 3514,
      "◼": 3515,
      "☂": 3516,
      "☃": 3517,
      "☄": 3518,
      "★": 3519,
      "☆": 3520,
      "☉": 3521,
      "☊": 3522,
      "☋": 3523,
      "☌": 3524,
      "☍": 3525,
      "☐": 3526,
      "☑": 3527,
      "☒": 3528,
      "☓": 3529,
      "☠": 3530,
      "☢": 3531,
      "☣": 3532,
      "☤": 3533,
      "☥": 3534,
      "☦": 3535,
      "☧": 3536,
      "☨": 3537,
      "☩": 3538,
      "☪": 3539,
      "☫": 3540,
      "☭": 3541,
      "☯": 3542,
      "☰": 3543,
      "☱": 3544,
      "☲": 3545,
      "☳": 3546,
      "☴": 3547,
      "☵": 3548,
      "☶": 3549,
      "☷": 3550,
      "☺": 3551,
      "☽": 3552,
      "☾": 3553,
      "☿": 3554,
      "♀": 3555,
      "♁": 3556,
      "♂": 3557,
      "♆": 3558,
      "♇": 3559,
      "♈": 3560,
      "♉": 3561,
      "♊": 3562,
      "♋": 3563,
      "♌": 3564,
      "♍": 3565,
      "♎": 3566,
      "♏": 3567,
      "♐": 3568,
      "♑": 3569,
      "♒": 3570,
      "♓": 3571,
      "♔": 3572,
      "♕": 3573,
      "♠": 3574,
      "♡": 3575,
      "♣": 3576,
      "♥": 3577,
      "♦": 3578,
      "♨": 3579,
      "♩": 3580,
      "♪": 3581,
      "♫": 3582,
      "♭": 3583,
      "♮": 3584,
      "♯": 3585,
      "♰": 3586,
      "♲": 3587,
      "♳": 3588,
      "♴": 3589,
      "♵": 3590,
      "♶": 3591,
      "♷": 3592,
      "♸": 3593,
      "♹": 3594,
      "♺": 3595,
      "♾": 3596,
      "♿": 3597,
      "⚊": 3598,
      "⚋": 3599,
      "⚌": 3600,
      "⚍": 3601,
      "⚎": 3602,
      "⚏": 3603,
      "⚑": 3604,
      "⚜": 3605,
      "⚠": 3606,
      "⚡": 3607,
      "⚤": 3608,
      "⚧": 3609,
      "⚪": 3610,
      "⚫": 3611,
      "⚶": 3612,
      "⚹": 3613,
      "⚽": 3614,
      "⛎": 3615,
      "⛨": 3616,
      "⛩": 3617,
      "✅": 3618,
      "✈": 3619,
      "✓": 3620,
      "✔": 3621,
      "✕": 3622,
      "✖": 3623,
      "✗": 3624,
      "✘": 3625,
      "✙": 3626,
      "✚": 3627,
      "✛": 3628,
      "✝": 3629,
      "✠": 3630,
      "✡": 3631,
      "✦": 3632,
      "✨": 3633,
      "✩": 3634,
      "✪": 3635,
      "✰": 3636,
      "✶": 3637,
      "✻": 3638,
      "✽": 3639,
      "❌": 3640,
      "❗": 3641,
      "❡": 3642,
      "❤": 3643,
      "❦": 3644,
      "❨": 3645,
      "❩": 3646,
      "❮": 3647,
      "❯": 3648,
      "❲": 3649,
      "❳": 3650,
      "❶": 3651,
      "❷": 3652,
      "❸": 3653,
      "❹": 3654,
      "❺": 3655,
      "❻": 3656,
      "❼": 3657,
      "❽": 3658,
      "❾": 3659,
      "❿": 3660,
      "➊": 3661,
      "➔": 3662,
      "➕": 3663,
      "➝": 3664,
      "➡": 3665,
      "➣": 3666,
      "➤": 3667,
      "⟕": 3668,
      "⟖": 3669,
      "⟗": 3670,
      "⟡": 3671,
      "⟨": 3672,
      "⟩": 3673,
      "⟪": 3674,
      "⟫": 3675,
      "⟮": 3676,
      "⟯": 3677,
      "⟶": 3678,
      "⟷": 3679,
      "⠀": 3680,
      "⠁": 3681,
      "⠂": 3682,
      "⠉": 3683,
      "⠊": 3684,
      "⠍": 3685,
      "⠒": 3686,
      "⠓": 3687,
      "⠕": 3688,
      "⠛": 3689,
      "⠝": 3690,
      "⠞": 3691,
      "⠡": 3692,
      "⠢": 3693,
      "⠣": 3694,
      "⠤": 3695,
      "⠦": 3696,
      "⠨": 3697,
      "⠫": 3698,
      "⠰": 3699,
      "⠲": 3700,
      "⠳": 3701,
      "⠹": 3702,
      "⥄": 3703,
      "⦵": 3704,
      "⧵": 3705,
      "⧸": 3706,
      "⨁": 3707,
      "⨂": 3708,
      "⨉": 3709,
      "⨎": 3710,
      "⨯": 3711,
      "⨾": 3712,
      "⩽": 3713,
      "⩾": 3714,
      "⪤": 3715,
      "⬆": 3716,
      "⬕": 3717,
      "⬚": 3718,
      "⬤": 3719,
      "⭢": 3720,
      "Ⰹ": 3721,
      "Ⱑ": 3722,
      "Ⱛ": 3723,
      "Ⱞ": 3724,
      "ⰲ": 3725,
      "ⰴ": 3726,
      "ⰵ": 3727,
      "ⰶ": 3728,
      "ⰹ": 3729,
      "ⰽ": 3730,
      "ⰾ": 3731,
      "ⱀ": 3732,
      "ⱁ": 3733,
      "ⱄ": 3734,
      "ⱆ": 3735,
      "ⱌ": 3736,
      "ⱏ": 3737,
      "ⱛ": 3738,
      "ⱝ": 3739,
      "Ⱡ": 3740,
      "ⱡ": 3741,
      "Ɫ": 3742,
      "Ᵽ": 3743,
      "Ɽ": 3744,
      "ⱥ": 3745,
      "ⱦ": 3746,
      "Ⱨ": 3747,
      "ⱨ": 3748,
      "Ⱪ": 3749,
      "ⱪ": 3750,
      "Ⱬ": 3751,
      "ⱬ": 3752,
      "Ɑ": 3753,
      "Ɐ": 3754,
      "ⱴ": 3755,
      "Ⱶ": 3756,
      "ⱶ": 3757,
      "ⱷ": 3758,
      "ⱼ": 3759,
      "Ⲁ": 3760,
      "ⲁ": 3761,
      "ⲃ": 3762,
      "ⲅ": 3763,
      "ⲇ": 3764,
      "ⲉ": 3765,
      "ⲏ": 3766,
      "ⲑ": 3767,
      "ⲓ": 3768,
      "ⲕ": 3769,
      "ⲗ": 3770,
      "ⲙ": 3771,
      "ⲛ": 3772,
      "ⲟ": 3773,
      "Ⲡ": 3774,
      "ⲡ": 3775,
      "ⲣ": 3776,
      "ⲥ": 3777,
      "ⲧ": 3778,
      "ⲩ": 3779,
      "ⲫ": 3780,
      "Ⲭ": 3781,
      "ⲭ": 3782,
      "ⲱ": 3783,
      "⳥": 3784,
      "ⴰ": 3785,
      "ⴱ": 3786,
      "ⴲ": 3787,
      "ⴳ": 3788,
      "ⴴ": 3789,
      "ⴷ": 3790,
      "ⴹ": 3791,
      "ⴻ": 3792,
      "ⴼ": 3793,
      "ⴽ": 3794,
      "ⵀ": 3795,
      "ⵃ": 3796,
      "ⵄ": 3797,
      "ⵇ": 3798,
      "ⵉ": 3799,
      "ⵊ": 3800,
      "ⵍ": 3801,
      "ⵎ": 3802,
      "ⵏ": 3803,
      "ⵓ": 3804,
      "ⵔ": 3805,
      "ⵖ": 3806,
      "ⵗ": 3807,
      "ⵙ": 3808,
      "ⵛ": 3809,
      "ⵜ": 3810,
      "ⵟ": 3811,
      "ⵡ": 3812,
      "ⵢ": 3813,
      "ⵣ": 3814,
      "ⵥ": 3815,
      "⸢": 3816,
      "⸣": 3817,
      "⸸": 3818,
      "⸺": 3819,
      "⺀": 3820,
      "⺄": 3821,
      "⺈": 3822,
      "⺕": 3823,
      "⺗": 3824,
      "⺝": 3825,
      "⺟": 3826,
      "⺠": 3827,
      "⺩": 3828,
      "⺪": 3829,
      "⺬": 3830,
      "⺭": 3831,
      "⺮": 3832,
      "⺸": 3833,
      "⺼": 3834,
      "⺾": 3835,
      "⺿": 3836,
      "⻄": 3837,
      "⻆": 3838,
      "⻋": 3839,
      "⻌": 3840,
      "⻍": 3841,
      "⻎": 3842,
      "⻏": 3843,
      "⻑": 3844,
      "⻓": 3845,
      "⻔": 3846,
      "⻘": 3847,
      "⻚": 3848,
      "⻛": 3849,
      "⻜": 3850,
      "⻝": 3851,
      "⻤": 3852,
      "⻥": 3853,
      "⻩": 3854,
      "⻱": 3855,
      "⼀": 3856,
      "⼁": 3857,
      "⼂": 3858,
      "⼃": 3859,
      "⼄": 3860,
      "⼅": 3861,
      "⼆": 3862,
      "⼈": 3863,
      "⼊": 3864,
      "⼋": 3865,
      "⼍": 3866,
      "⼎": 3867,
      "⼏": 3868,
      "⼐": 3869,
      "⼒": 3870,
      "⼗": 3871,
      "⼘": 3872,
      "⼜": 3873,
      "⼝": 3874,
      "⼟": 3875,
      "⼠": 3876,
      "⼣": 3877,
      "⼤": 3878,
      "⼥": 3879,
      "⼦": 3880,
      "⼩": 3881,
      "⼭": 3882,
      "⼯": 3883,
      "⼰": 3884,
      "⼲": 3885,
      "⼴": 3886,
      "⼹": 3887,
      "⼼": 3888,
      "⼿": 3889,
      "⽀": 3890,
      "⽂": 3891,
      "⽃": 3892,
      "⽅": 3893,
      "⽆": 3894,
      "⽇": 3895,
      "⽉": 3896,
      "⽊": 3897,
      "⽐": 3898,
      "⽒": 3899,
      "⽓": 3900,
      "⽔": 3901,
      "⽕": 3902,
      "⽗": 3903,
      "⽚": 3904,
      "⽛": 3905,
      "⽟": 3906,
      "⽠": 3907,
      "⽢": 3908,
      "⽣": 3909,
      "⽤": 3910,
      "⽥": 3911,
      "⽩": 3912,
      "⽪": 3913,
      "⽬": 3914,
      "⽯": 3915,
      "⽰": 3916,
      "⽴": 3917,
      "⽵": 3918,
      "⽶": 3919,
      "⽹": 3920,
      "⽻": 3921,
      "⽼": 3922,
      "⽽": 3923,
      "⽿": 3924,
      "⾁": 3925,
      "⾂": 3926,
      "⾃": 3927,
      "⾄": 3928,
      "⾆": 3929,
      "⾊": 3930,
      "⾎": 3931,
      "⾏": 3932,
      "⾒": 3933,
      "⾓": 3934,
      "⾔": 3935,
      "⾕": 3936,
      "⾚": 3937,
      "⾛": 3938,
      "⾜": 3939,
      "⾝": 3940,
      "⾞": 3941,
      "⾟": 3942,
      "⾢": 3943,
      "⾥": 3944,
      "⾦": 3945,
      "⾧": 3946,
      "⾨": 3947,
      "⾮": 3948,
      "⾯": 3949,
      "⾰": 3950,
      "⾳": 3951,
      "⾵": 3952,
      "⾶": 3953,
      "⾷": 3954,
      "⾸": 3955,
      "⾹": 3956,
      "⾺": 3957,
      "⾼": 3958,
      "⾾": 3959,
      "⿁": 3960,
      "⿃": 3961,
      "⿅": 3962,
      "⿈": 3963,
      "⿊": 3964,
      "⿓": 3965,
      "⿰": 3966,
      "⿱": 3967,
      "⿲": 3968,
      "⿳": 3969,
      "⿴": 3970,
      "⿸": 3971,
      "⿺": 3972,
      "⿻": 3973,
      "、": 3974,
      "〃": 3975,
      "〄": 3976,
      "々": 3977,
      "〆": 3978,
      "〈": 3979,
      "〉": 3980,
      "《": 3981,
      "》": 3982,
      "「": 3983,
      "」": 3984,
      "『": 3985,
      "』": 3986,
      "〒": 3987,
      "〓": 3988,
      "〔": 3989,
      "〕": 3990,
      "〖": 3991,
      "〗": 3992,
      "〘": 3993,
      "〙": 3994,
      "〜": 3995,
      "〝": 3996,
      "〞": 3997,
      "〟": 3998,
      "〡": 3999,
      "〢": 4000,
      "〣": 4001,
      "〤": 4002,
      "〥": 4003,
      "〦": 4004,
      "〧": 4005,
      "〨": 4006,
      "〩": 4007,
      "〪": 4008,
      "〫": 4009,
      "〬": 4010,
      "〭": 4011,
      "〰": 4012,
      "〸": 4013,
      "〹": 4014,
      "〺": 4015,
      "〻": 4016,
      "ぁ": 4017,
      "あ": 4018,
      "ぃ": 4019,
      "い": 4020,
      "ぅ": 4021,
      "う": 4022,
      "ぇ": 4023,
      "え": 4024,
      "ぉ": 4025,
      "お": 4026,
      "か": 4027,
      "が": 4028,
      "き": 4029,
      "ぎ": 4030,
      "く": 4031,
      "ぐ": 4032,
      "け": 4033,
      "げ": 4034,
      "こ": 4035,
      "ご": 4036,
      "さ": 4037,
      "ざ": 4038,
      "し": 4039,
      "じ": 4040,
      "す": 4041,
      "ず": 4042,
      "せ": 4043,
      "ぜ": 4044,
      "そ": 4045,
      "ぞ": 4046,
      "た": 4047,
      "だ": 4048,
      "ち": 4049,
      "ぢ": 4050,
      "っ": 4051,
      "つ": 4052,
      "づ": 4053,
      "て": 4054,
      "で": 4055,
      "と": 4056,
      "ど": 4057,
      "な": 4058,
      "に": 4059,
      "ぬ": 4060,
      "ね": 4061,
      "の": 4062,
      "は": 4063,
      "ば": 4064,
      "ぱ": 4065,
      "ひ": 4066,
      "び": 4067,
      "ぴ": 4068,
      "ふ": 4069,
      "ぶ": 4070,
      "ぷ": 4071,
      "へ": 4072,
      "べ": 4073,
      "ぺ": 4074,
      "ほ": 4075,
      "ぼ": 4076,
      "ぽ": 4077,
      "ま": 4078,
      "み": 4079,
      "む": 4080,
      "め": 4081,
      "も": 4082,
      "ゃ": 4083,
      "や": 4084,
      "ゅ": 4085,
      "ゆ": 4086,
      "ょ": 4087,
      "よ": 4088,
      "ら": 4089,
      "り": 4090,
      "る": 4091,
      "れ": 4092,
      "ろ": 4093,
      "ゎ": 4094,
      "わ": 4095,
      "ゐ": 4096,
      "ゑ": 4097,
      "を": 4098,
      "ん": 4099,
      "゙": 4100,
      "゚": 4101,
      "゛": 4102,
      "゜": 4103,
      "ゝ": 4104,
      "ゞ": 4105,
      "ゟ": 4106,
      "ァ": 4107,
      "ア": 4108,
      "ィ": 4109,
      "イ": 4110,
      "ゥ": 4111,
      "ウ": 4112,
      "ェ": 4113,
      "エ": 4114,
      "ォ": 4115,
      "オ": 4116,
      "カ": 4117,
      "ガ": 4118,
      "キ": 4119,
      "ギ": 4120,
      "ク": 4121,
      "グ": 4122,
      "ケ": 4123,
      "ゲ": 4124,
      "コ": 4125,
      "ゴ": 4126,
      "サ": 4127,
      "ザ": 4128,
      "シ": 4129,
      "ジ": 4130,
      "ス": 4131,
      "ズ": 4132,
      "セ": 4133,
      "ゼ": 4134,
      "ソ": 4135,
      "ゾ": 4136,
      "タ": 4137,
      "ダ": 4138,
      "チ": 4139,
      "ヂ": 4140,
      "ッ": 4141,
      "ツ": 4142,
      "ヅ": 4143,
      "テ": 4144,
      "デ": 4145,
      "ト": 4146,
      "ド": 4147,
      "ナ": 4148,
      "ニ": 4149,
      "ヌ": 4150,
      "ネ": 4151,
      "ノ": 4152,
      "ハ": 4153,
      "バ": 4154,
      "パ": 4155,
      "ヒ": 4156,
      "ビ": 4157,
      "ピ": 4158,
      "フ": 4159,
      "ブ": 4160,
      "プ": 4161,
      "ヘ": 4162,
      "ベ": 4163,
      "ペ": 4164,
      "ホ": 4165,
      "ボ": 4166,
      "ポ": 4167,
      "マ": 4168,
      "ミ": 4169,
      "ム": 4170,
      "メ": 4171,
      "モ": 4172,
      "ャ": 4173,
      "ヤ": 4174,
      "ュ": 4175,
      "ユ": 4176,
      "ョ": 4177,
      "ヨ": 4178,
      "ラ": 4179,
      "リ": 4180,
      "ル": 4181,
      "レ": 4182,
      "ロ": 4183,
      "ヮ": 4184,
      "ワ": 4185,
      "ヰ": 4186,
      "ヱ": 4187,
      "ヲ": 4188,
      "ン": 4189,
      "ヴ": 4190,
      "ヵ": 4191,
      "ヶ": 4192,
      "ヹ": 4193,
      "・": 4194,
      "ー": 4195,
      "ヽ": 4196,
      "ヾ": 4197,
      "ヿ": 4198,
      "ㄅ": 4199,
      "ㄆ": 4200,
      "ㄇ": 4201,
      "ㄈ": 4202,
      "ㄉ": 4203,
      "ㄊ": 4204,
      "ㄋ": 4205,
      "ㄌ": 4206,
      "ㄍ": 4207,
      "ㄎ": 4208,
      "ㄏ": 4209,
      "ㄐ": 4210,
      "ㄑ": 4211,
      "ㄒ": 4212,
      "ㄓ": 4213,
      "ㄔ": 4214,
      "ㄕ": 4215,
      "ㄖ": 4216,
      "ㄗ": 4217,
      "ㄘ": 4218,
      "ㄙ": 4219,
      "ㄚ": 4220,
      "ㄛ": 4221,
      "ㄜ": 4222,
      "ㄝ": 4223,
      "ㄞ": 4224,
      "ㄟ": 4225,
      "ㄠ": 4226,
      "ㄡ": 4227,
      "ㄢ": 4228,
      "ㄣ": 4229,
      "ㄤ": 4230,
      "ㄥ": 4231,
      "ㄦ": 4232,
      "ㄧ": 4233,
      "ㄨ": 4234,
      "ㄩ": 4235,
      "ㄪ": 4236,
      "ㄫ": 4237,
      "ㄬ": 4238,
      "ㄭ": 4239,
      "ㄮ": 4240,
      "ㄯ": 4241,
      "ㄱ": 4242,
      "ㄲ": 4243,
      "ㄳ": 4244,
      "ㄴ": 4245,
      "ㄷ": 4246,
      "ㄸ": 4247,
      "ㄹ": 4248,
      "ㄻ": 4249,
      "ㄼ": 4250,
      "ㅁ": 4251,
      "ㅂ": 4252,
      "ㅃ": 4253,
      "ㅅ": 4254,
      "ㅆ": 4255,
      "ㅇ": 4256,
      "ㅈ": 4257,
      "ㅉ": 4258,
      "ㅊ": 4259,
      "ㅋ": 4260,
      "ㅌ": 4261,
      "ㅍ": 4262,
      "ㅎ": 4263,
      "ㅏ": 4264,
      "ㅐ": 4265,
      "ㅑ": 4266,
      "ㅒ": 4267,
      "ㅓ": 4268,
      "ㅔ": 4269,
      "ㅕ": 4270,
      "ㅖ": 4271,
      "ㅗ": 4272,
      "ㅘ": 4273,
      "ㅙ": 4274,
      "ㅚ": 4275,
      "ㅛ": 4276,
      "ㅜ": 4277,
      "ㅝ": 4278,
      "ㅞ": 4279,
      "ㅟ": 4280,
      "ㅠ": 4281,
      "ㅡ": 4282,
      "ㅢ": 4283,
      "ㅣ": 4284,
      "ㅤ": 4285,
      "ㅭ": 4286,
      "ㅸ": 4287,
      "ㆁ": 4288,
      "ㆆ": 4289,
      "ㆉ": 4290,
      "ㆌ": 4291,
      "ㆍ": 4292,
      "ㆎ": 4293,
      "㆒": 4294,
      "㆔": 4295,
      "㆖": 4296,
      "㆘": 4297,
      "ㆠ": 4298,
      "ㆡ": 4299,
      "ㆢ": 4300,
      "ㆣ": 4301,
      "ㆤ": 4302,
      "ㆥ": 4303,
      "ㆦ": 4304,
      "ㆧ": 4305,
      "ㆨ": 4306,
      "ㆩ": 4307,
      "ㆪ": 4308,
      "ㆫ": 4309,
      "ㆬ": 4310,
      "ㆭ": 4311,
      "ㆮ": 4312,
      "ㆯ": 4313,
      "ㆰ": 4314,
      "ㆱ": 4315,
      "ㆲ": 4316,
      "ㆳ": 4317,
      "ㆴ": 4318,
      "ㆵ": 4319,
      "ㆶ": 4320,
      "ㆷ": 4321,
      "ㆻ": 4322,
      "ㆼ": 4323,
      "ㆽ": 4324,
      "ㆾ": 4325,
      "ㆿ": 4326,
      "㇀": 4327,
      "㇂": 4328,
      "㇄": 4329,
      "㇅": 4330,
      "㇆": 4331,
      "㇇": 4332,
      "㇈": 4333,
      "㇉": 4334,
      "㇊": 4335,
      "㇋": 4336,
      "㇌": 4337,
      "㇍": 4338,
      "㇎": 4339,
      "㇏": 4340,
      "㇐": 4341,
      "㇑": 4342,
      "㇒": 4343,
      "㇓": 4344,
      "㇔": 4345,
      "㇕": 4346,
      "㇖": 4347,
      "㇗": 4348,
      "㇙": 4349,
      "㇚": 4350,
      "㇛": 4351,
      "㇜": 4352,
      "㇞": 4353,
      "㇟": 4354,
      "㇡": 4355,
      "㇢": 4356,
      "㇤": 4357,
      "ㇰ": 4358,
      "ㇱ": 4359,
      "ㇲ": 4360,
      "ㇵ": 4361,
      "ㇷ": 4362,
      "ㇺ": 4363,
      "ㇻ": 4364,
      "ㇼ": 4365,
      "ㇽ": 4366,
      "ㇿ": 4367,
      "㈜": 4368,
      "㈠": 4369,
      "㈡": 4370,
      "㈢": 4371,
      "㈣": 4372,
      "㈤": 4373,
      "㈥": 4374,
      "㈦": 4375,
      "㈧": 4376,
      "㈨": 4377,
      "㈩": 4378,
      "㈪": 4379,
      "㈭": 4380,
      "㈮": 4381,
      "㈯": 4382,
      "㈰": 4383,
      "㈱": 4384,
      "㊇": 4385,
      "㊎": 4386,
      "㊑": 4387,
      "㊙": 4388,
      "㊟": 4389,
      "㊣": 4390,
      "㋿": 4391,
      "㍻": 4392,
      "㍼": 4393,
      "㍽": 4394,
      "㍾": 4395,
      "㍿": 4396,
      "㎏": 4397,
      "㎒": 4398,
      "㎛": 4399,
      "㎜": 4400,
      "㎝": 4401,
      "㎞": 4402,
      "㎡": 4403,
      "㎢": 4404,
      "㎤": 4405,
      "㎥": 4406,
      "㎦": 4407,
      "㎮": 4408,
      "㏉": 4409,
      "㏍": 4410,
      "㏑": 4411,
      "㏒": 4412,
      "㐂": 4413,
      "㐾": 4414,
      "㑀": 4415,
      "㒭": 4416,
      "㒹": 4417,
      "㓛": 4418,
      "㔬": 4419,
      "㕀": 4420,
      "㕔": 4421,
      "㕘": 4422,
      "㖱": 4423,
      "㗎": 4424,
      "㗝": 4425,
      "㘻": 4426,
      "㚸": 4427,
      "㛠": 4428,
      "㛢": 4429,
      "㝜": 4430,
      "㝬": 4431,
      "㞢": 4432,
      "㟥": 4433,
      "㟸": 4434,
      "㠫": 4435,
      "㠬": 4436,
      "㢢": 4437,
      "㣉": 4438,
      "㤭": 4439,
      "㤻": 4440,
      "㪲": 4441,
      "㪳": 4442,
      "㫆": 4443,
      "㫕": 4444,
      "㫖": 4445,
      "㫠": 4446,
      "㫬": 4447,
      "㫺": 4448,
      "㬀": 4449,
      "㬢": 4450,
      "㬺": 4451,
      "㬾": 4452,
      "㭍": 4453,
      "㭦": 4454,
      "㭶": 4455,
      "㮊": 4456,
      "㮤": 4457,
      "㮴": 4458,
      "㯣": 4459,
      "㰏": 4460,
      "㰕": 4461,
      "㱕": 4462,
      "㳉": 4463,
      "㴠": 4464,
      "㴱": 4465,
      "㵼": 4466,
      "㶊": 4467,
      "㶨": 4468,
      "㶮": 4469,
      "㶱": 4470,
      "㶷": 4471,
      "㷑": 4472,
      "㷛": 4473,
      "㷧": 4474,
      "㷩": 4475,
      "㹧": 4476,
      "㻁": 4477,
      "㻛": 4478,
      "㼀": 4479,
      "㼁": 4480,
      "㼄": 4481,
      "㼅": 4482,
      "㽓": 4483,
      "㽵": 4484,
      "㽿": 4485,
      "㿝": 4486,
      "䂓": 4487,
      "䃄": 4488,
      "䃟": 4489,
      "䄖": 4490,
      "䇄": 4491,
      "䇝": 4492,
      "䇿": 4493,
      "䋍": 4494,
      "䍧": 4495,
      "䎞": 4496,
      "䏾": 4497,
      "䑩": 4498,
      "䒶": 4499,
      "䓪": 4500,
      "䕬": 4501,
      "䘗": 4502,
      "䘛": 4503,
      "䚀": 4504,
      "䜥": 4505,
      "䜳": 4506,
      "䝉": 4507,
      "䟽": 4508,
      "䢂": 4509,
      "䢘": 4510,
      "䢜": 4511,
      "䤈": 4512,
      "䥴": 4513,
      "䦁": 4514,
      "䦉": 4515,
      "䧏": 4516,
      "䨇": 4517,
      "䬸": 4518,
      "䭏": 4519,
      "䮐": 4520,
      "䯃": 4521,
      "䯻": 4522,
      "䲝": 4523,
      "䵍": 4524,
      "䷀": 4525,
      "䷃": 4526,
      "䷊": 4527,
      "䷋": 4528,
      "䷌": 4529,
      "䷍": 4530,
      "䷔": 4531,
      "䷜": 4532,
      "䷝": 4533,
      "䷲": 4534,
      "䷳": 4535,
      "䷸": 4536,
      "䷹": 4537,
      "䷾": 4538,
      "䷿": 4539,
      "兙": 4540,
      "嗧": 4541,
      "瓼": 4542,
      "龱": 4543,
      "龺": 4544,
      "鿋": 4545,
      "鿠": 4546,
      "鿤": 4547,
      "ꀋ": 4548,
      "ꁈ": 4549,
      "ꁨ": 4550,
      "ꂤ": 4551,
      "ꂵ": 4552,
      "ꃄ": 4553,
      "ꃅ": 4554,
      "ꃺ": 4555,
      "ꃼ": 4556,
      "ꄡ": 4557,
      "ꄣ": 4558,
      "ꄿ": 4559,
      "ꆃ": 4560,
      "ꆈ": 4561,
      "ꆧ": 4562,
      "ꆨ": 4563,
      "ꆪ": 4564,
      "ꇁ": 4565,
      "ꇊ": 4566,
      "ꇓ": 4567,
      "ꇗ": 4568,
      "ꈁ": 4569,
      "ꈎ": 4570,
      "ꈐ": 4571,
      "ꈑ": 4572,
      "ꈓ": 4573,
      "ꈜ": 4574,
      "ꈭ": 4575,
      "ꈵ": 4576,
      "ꈿ": 4577,
      "ꉳ": 4578,
      "ꉸ": 4579,
      "ꉻ": 4580,
      "ꉼ": 4581,
      "ꊇ": 4582,
      "ꊖ": 4583,
      "ꊨ": 4584,
      "ꊰ": 4585,
      "ꋍ": 4586,
      "ꌕ": 4587,
      "ꌠ": 4588,
      "ꍓ": 4589,
      "ꍤ": 4590,
      "ꍬ": 4591,
      "ꎬ": 4592,
      "ꎭ": 4593,
      "ꎴ": 4594,
      "ꏅ": 4595,
      "ꏢ": 4596,
      "ꏦ": 4597,
      "ꏧ": 4598,
      "ꐇ": 4599,
      "ꐎ": 4600,
      "ꑤ": 4601,
      "ꑭ": 4602,
      "ꑷ": 4603,
      "ꓐ": 4604,
      "ꓒ": 4605,
      "ꓕ": 4606,
      "ꓗ": 4607,
      "ꓚ": 4608,
      "ꓛ": 4609,
      "ꓝ": 4610,
      "ꓞ": 4611,
      "ꓟ": 4612,
      "ꓠ": 4613,
      "ꓡ": 4614,
      "ꓢ": 4615,
      "ꓥ": 4616,
      "ꓩ": 4617,
      "ꓪ": 4618,
      "ꓫ": 4619,
      "ꓬ": 4620,
      "ꓯ": 4621,
      "ꓱ": 4622,
      "ꓲ": 4623,
      "ꓳ": 4624,
      "ꓴ": 4625,
      "ꓵ": 4626,
      "ꓶ": 4627,
      "ꓸ": 4628,
      "ꓹ": 4629,
      "ꓼ": 4630,
      "ꓽ": 4631,
      "꓾": 4632,
      "ꔤ": 4633,
      "ꕙ": 4634,
      "Ꙅ": 4635,
      "ꙅ": 4636,
      "Ꙇ": 4637,
      "ꙇ": 4638,
      "Ꙉ": 4639,
      "ꙉ": 4640,
      "Ꙑ": 4641,
      "ꙓ": 4642,
      "ꙕ": 4643,
      "Ꙗ": 4644,
      "ꙗ": 4645,
      "Ꙟ": 4646,
      "ꙟ": 4647,
      "Ꙡ": 4648,
      "ꙡ": 4649,
      "Ꙣ": 4650,
      "ꙣ": 4651,
      "Ꙥ": 4652,
      "ꙥ": 4653,
      "Ꙧ": 4654,
      "ꙧ": 4655,
      "Ꙩ": 4656,
      "ꙩ": 4657,
      "Ꙫ": 4658,
      "ꙫ": 4659,
      "Ꙭ": 4660,
      "ꙭ": 4661,
      "ꙮ": 4662,
      "꙰": 4663,
      "꙱": 4664,
      "꙲": 4665,
      "Ꚁ": 4666,
      "ꚁ": 4667,
      "Ꚃ": 4668,
      "ꚃ": 4669,
      "Ꚉ": 4670,
      "ꚉ": 4671,
      "Ꚋ": 4672,
      "ꚋ": 4673,
      "Ꚍ": 4674,
      "ꚍ": 4675,
      "Ꚏ": 4676,
      "ꚏ": 4677,
      "Ꚑ": 4678,
      "ꚑ": 4679,
      "Ꚗ": 4680,
      "ꚗ": 4681,
      "Ꚙ": 4682,
      "ꚙ": 4683,
      "꜀": 4684,
      "꜁": 4685,
      "꜂": 4686,
      "꜃": 4687,
      "꜄": 4688,
      "꜅": 4689,
      "꜆": 4690,
      "꜇": 4691,
      "꜒": 4692,
      "꜓": 4693,
      "꜔": 4694,
      "꜕": 4695,
      "꜖": 4696,
      "Ꜣ": 4697,
      "ꜣ": 4698,
      "ꜥ": 4699,
      "Ꜧ": 4700,
      "ꜧ": 4701,
      "ꝏ": 4702,
      "Ꝛ": 4703,
      "Ꝺ": 4704,
      "꞉": 4705,
      "ꞌ": 4706,
      "ꞏ": 4707,
      "Ꞑ": 4708,
      "ꞑ": 4709,
      "Ꞓ": 4710,
      "Ꞥ": 4711,
      "ꞥ": 4712,
      "Ʇ": 4713,
      "ꟸ": 4714,
      "ꠁ": 4715,
      "ꠇ": 4716,
      "ꠊ": 4717,
      "ꠐ": 4718,
      "ꠘ": 4719,
      "ꠣ": 4720,
      "ꦁ": 4721,
      "ꦂ": 4722,
      "ꦏ": 4723,
      "ꦑ": 4724,
      "ꦔ": 4725,
      "ꦕ": 4726,
      "ꦗ": 4727,
      "ꦝ": 4728,
      "ꦠ": 4729,
      "ꦢ": 4730,
      "ꦤ": 4731,
      "ꦥ": 4732,
      "ꦩ": 4733,
      "ꦪ": 4734,
      "ꦫ": 4735,
      "ꦭ": 4736,
      "ꦮ": 4737,
      "ꦯ": 4738,
      "ꦱ": 4739,
      "ꦲ": 4740,
      "ꦴ": 4741,
      "ꦶ": 4742,
      "ꦸ": 4743,
      "ꦺ": 4744,
      "ꦼ": 4745,
      "ꦾ": 4746,
      "ꦿ": 4747,
      "꧀": 4748,
      "ꪶ": 4749,
      "ꯁ": 4750,
      "ꯄ": 4751,
      "ꯅ": 4752,
      "ꯔ": 4753,
      "ꯕ": 4754,
      "ꯤ": 4755,
      "ꯨ": 4756,
      "꯭": 4757,
      "가": 4758,
      "각": 4759,
      "간": 4760,
      "갈": 4761,
      "감": 4762,
      "갑": 4763,
      "갓": 4764,
      "갔": 4765,
      "강": 4766,
      "같": 4767,
      "개": 4768,
      "갠": 4769,
      "갱": 4770,
      "걀": 4771,
      "걔": 4772,
      "거": 4773,
      "건": 4774,
      "걷": 4775,
      "걸": 4776,
      "검": 4777,
      "겁": 4778,
      "것": 4779,
      "게": 4780,
      "겐": 4781,
      "겟": 4782,
      "겠": 4783,
      "겨": 4784,
      "격": 4785,
      "견": 4786,
      "결": 4787,
      "겸": 4788,
      "겹": 4789,
      "경": 4790,
      "곁": 4791,
      "계": 4792,
      "고": 4793,
      "곡": 4794,
      "곤": 4795,
      "곧": 4796,
      "골": 4797,
      "곰": 4798,
      "곱": 4799,
      "곳": 4800,
      "공": 4801,
      "곶": 4802,
      "과": 4803,
      "곽": 4804,
      "관": 4805,
      "광": 4806,
      "괜": 4807,
      "괴": 4808,
      "교": 4809,
      "구": 4810,
      "국": 4811,
      "군": 4812,
      "굳": 4813,
      "굴": 4814,
      "굵": 4815,
      "굿": 4816,
      "궁": 4817,
      "궈": 4818,
      "권": 4819,
      "궐": 4820,
      "궤": 4821,
      "귀": 4822,
      "귓": 4823,
      "규": 4824,
      "균": 4825,
      "그": 4826,
      "극": 4827,
      "근": 4828,
      "귿": 4829,
      "글": 4830,
      "금": 4831,
      "급": 4832,
      "긍": 4833,
      "기": 4834,
      "긴": 4835,
      "길": 4836,
      "김": 4837,
      "깃": 4838,
      "깊": 4839,
      "까": 4840,
      "깍": 4841,
      "깐": 4842,
      "깡": 4843,
      "깨": 4844,
      "꺼": 4845,
      "껌": 4846,
      "껑": 4847,
      "께": 4848,
      "꼬": 4849,
      "꼭": 4850,
      "꼴": 4851,
      "꼼": 4852,
      "꽃": 4853,
      "꽉": 4854,
      "꽤": 4855,
      "꽹": 4856,
      "꾸": 4857,
      "꾼": 4858,
      "꿀": 4859,
      "꿈": 4860,
      "꿍": 4861,
      "꿔": 4862,
      "꿨": 4863,
      "끄": 4864,
      "끈": 4865,
      "끌": 4866,
      "끗": 4867,
      "끝": 4868,
      "끼": 4869,
      "낀": 4870,
      "낌": 4871,
      "나": 4872,
      "낙": 4873,
      "난": 4874,
      "날": 4875,
      "낡": 4876,
      "남": 4877,
      "났": 4878,
      "낭": 4879,
      "낮": 4880,
      "낯": 4881,
      "내": 4882,
      "낸": 4883,
      "낼": 4884,
      "냄": 4885,
      "냉": 4886,
      "냐": 4887,
      "냥": 4888,
      "너": 4889,
      "넋": 4890,
      "넌": 4891,
      "널": 4892,
      "넘": 4893,
      "네": 4894,
      "넥": 4895,
      "넷": 4896,
      "녀": 4897,
      "녁": 4898,
      "년": 4899,
      "념": 4900,
      "녕": 4901,
      "녘": 4902,
      "노": 4903,
      "녹": 4904,
      "논": 4905,
      "놀": 4906,
      "놈": 4907,
      "농": 4908,
      "높": 4909,
      "뇌": 4910,
      "누": 4911,
      "눈": 4912,
      "눌": 4913,
      "눔": 4914,
      "뉴": 4915,
      "느": 4916,
      "늑": 4917,
      "는": 4918,
      "늘": 4919,
      "능": 4920,
      "늦": 4921,
      "늪": 4922,
      "니": 4923,
      "닉": 4924,
      "닐": 4925,
      "님": 4926,
      "닛": 4927,
      "닝": 4928,
      "다": 4929,
      "닥": 4930,
      "단": 4931,
      "닫": 4932,
      "달": 4933,
      "닭": 4934,
      "닮": 4935,
      "담": 4936,
      "답": 4937,
      "당": 4938,
      "닿": 4939,
      "대": 4940,
      "댄": 4941,
      "댓": 4942,
      "댔": 4943,
      "댕": 4944,
      "더": 4945,
      "덕": 4946,
      "던": 4947,
      "덜": 4948,
      "덤": 4949,
      "덩": 4950,
      "데": 4951,
      "델": 4952,
      "뎃": 4953,
      "뎡": 4954,
      "도": 4955,
      "독": 4956,
      "돈": 4957,
      "돋": 4958,
      "돌": 4959,
      "돗": 4960,
      "동": 4961,
      "돟": 4962,
      "돼": 4963,
      "됐": 4964,
      "되": 4965,
      "된": 4966,
      "될": 4967,
      "둏": 4968,
      "두": 4969,
      "둑": 4970,
      "둔": 4971,
      "둘": 4972,
      "둡": 4973,
      "둣": 4974,
      "둥": 4975,
      "뒤": 4976,
      "듀": 4977,
      "드": 4978,
      "득": 4979,
      "든": 4980,
      "듣": 4981,
      "들": 4982,
      "듭": 4983,
      "듯": 4984,
      "등": 4985,
      "디": 4986,
      "딕": 4987,
      "딘": 4988,
      "딜": 4989,
      "딤": 4990,
      "딥": 4991,
      "딧": 4992,
      "딨": 4993,
      "따": 4994,
      "딱": 4995,
      "딸": 4996,
      "땀": 4997,
      "땁": 4998,
      "땅": 4999,
      "때": 5000,
      "땐": 5001,
      "땡": 5002,
      "떠": 5003,
      "떡": 5004,
      "떤": 5005,
      "떨": 5006,
      "떫": 5007,
      "떳": 5008,
      "떵": 5009,
      "떻": 5010,
      "떼": 5011,
      "뗄": 5012,
      "또": 5013,
      "똥": 5014,
      "뚜": 5015,
      "뛰": 5016,
      "뜨": 5017,
      "뜬": 5018,
      "뜸": 5019,
      "띄": 5020,
      "띠": 5021,
      "띵": 5022,
      "라": 5023,
      "락": 5024,
      "란": 5025,
      "랄": 5026,
      "람": 5027,
      "랍": 5028,
      "랏": 5029,
      "랐": 5030,
      "랑": 5031,
      "랗": 5032,
      "래": 5033,
      "랙": 5034,
      "랜": 5035,
      "램": 5036,
      "랩": 5037,
      "랬": 5038,
      "랭": 5039,
      "량": 5040,
      "러": 5041,
      "럭": 5042,
      "런": 5043,
      "럴": 5044,
      "럼": 5045,
      "럽": 5046,
      "럿": 5047,
      "렀": 5048,
      "렁": 5049,
      "렇": 5050,
      "레": 5051,
      "렉": 5052,
      "렌": 5053,
      "렐": 5054,
      "렘": 5055,
      "렙": 5056,
      "렛": 5057,
      "려": 5058,
      "력": 5059,
      "련": 5060,
      "렬": 5061,
      "렴": 5062,
      "렸": 5063,
      "령": 5064,
      "례": 5065,
      "로": 5066,
      "록": 5067,
      "론": 5068,
      "롤": 5069,
      "롬": 5070,
      "롭": 5071,
      "롯": 5072,
      "롱": 5073,
      "뢰": 5074,
      "료": 5075,
      "룡": 5076,
      "루": 5077,
      "룩": 5078,
      "룬": 5079,
      "룰": 5080,
      "룸": 5081,
      "룹": 5082,
      "뤄": 5083,
      "류": 5084,
      "륙": 5085,
      "륜": 5086,
      "률": 5087,
      "르": 5088,
      "륵": 5089,
      "른": 5090,
      "를": 5091,
      "름": 5092,
      "릇": 5093,
      "릉": 5094,
      "리": 5095,
      "릭": 5096,
      "린": 5097,
      "릴": 5098,
      "림": 5099,
      "립": 5100,
      "릿": 5101,
      "링": 5102,
      "마": 5103,
      "막": 5104,
      "만": 5105,
      "많": 5106,
      "말": 5107,
      "맑": 5108,
      "맘": 5109,
      "맙": 5110,
      "맛": 5111,
      "망": 5112,
      "맞": 5113,
      "매": 5114,
      "맥": 5115,
      "맨": 5116,
      "맵": 5117,
      "맷": 5118,
      "맹": 5119,
      "머": 5120,
      "먹": 5121,
      "먼": 5122,
      "멀": 5123,
      "멈": 5124,
      "멋": 5125,
      "멍": 5126,
      "메": 5127,
      "멕": 5128,
      "멜": 5129,
      "멤": 5130,
      "며": 5131,
      "면": 5132,
      "멸": 5133,
      "명": 5134,
      "모": 5135,
      "목": 5136,
      "몬": 5137,
      "몰": 5138,
      "몸": 5139,
      "몹": 5140,
      "못": 5141,
      "몽": 5142,
      "뫼": 5143,
      "묏": 5144,
      "묘": 5145,
      "무": 5146,
      "묵": 5147,
      "문": 5148,
      "물": 5149,
      "뭄": 5150,
      "뭇": 5151,
      "뭊": 5152,
      "뭐": 5153,
      "뭔": 5154,
      "뭘": 5155,
      "뭣": 5156,
      "뮤": 5157,
      "므": 5158,
      "믕": 5159,
      "미": 5160,
      "믹": 5161,
      "민": 5162,
      "믿": 5163,
      "밀": 5164,
      "밍": 5165,
      "밑": 5166,
      "바": 5167,
      "박": 5168,
      "밖": 5169,
      "반": 5170,
      "받": 5171,
      "발": 5172,
      "밝": 5173,
      "밟": 5174,
      "밤": 5175,
      "밥": 5176,
      "방": 5177,
      "밭": 5178,
      "배": 5179,
      "백": 5180,
      "밴": 5181,
      "뱀": 5182,
      "뱃": 5183,
      "뱅": 5184,
      "뱉": 5185,
      "버": 5186,
      "벅": 5187,
      "번": 5188,
      "벌": 5189,
      "범": 5190,
      "법": 5191,
      "벗": 5192,
      "벚": 5193,
      "베": 5194,
      "벤": 5195,
      "벨": 5196,
      "벼": 5197,
      "벽": 5198,
      "변": 5199,
      "별": 5200,
      "병": 5201,
      "보": 5202,
      "복": 5203,
      "볶": 5204,
      "본": 5205,
      "볼": 5206,
      "봄": 5207,
      "봇": 5208,
      "봉": 5209,
      "봐": 5210,
      "봔": 5211,
      "봤": 5212,
      "부": 5213,
      "북": 5214,
      "분": 5215,
      "불": 5216,
      "붉": 5217,
      "붐": 5218,
      "붕": 5219,
      "붙": 5220,
      "뷔": 5221,
      "뷰": 5222,
      "브": 5223,
      "븐": 5224,
      "블": 5225,
      "비": 5226,
      "빅": 5227,
      "빈": 5228,
      "빌": 5229,
      "빔": 5230,
      "빗": 5231,
      "빙": 5232,
      "빛": 5233,
      "빠": 5234,
      "빤": 5235,
      "빨": 5236,
      "빵": 5237,
      "빼": 5238,
      "뻐": 5239,
      "뻑": 5240,
      "뻔": 5241,
      "뻬": 5242,
      "뽀": 5243,
      "뽐": 5244,
      "뽕": 5245,
      "뿅": 5246,
      "뿌": 5247,
      "뿐": 5248,
      "뿔": 5249,
      "뿜": 5250,
      "뿡": 5251,
      "쀼": 5252,
      "쁘": 5253,
      "쁜": 5254,
      "쁠": 5255,
      "쁨": 5256,
      "삐": 5257,
      "삠": 5258,
      "사": 5259,
      "삭": 5260,
      "산": 5261,
      "살": 5262,
      "삶": 5263,
      "삼": 5264,
      "상": 5265,
      "새": 5266,
      "색": 5267,
      "샌": 5268,
      "샘": 5269,
      "생": 5270,
      "샤": 5271,
      "샬": 5272,
      "서": 5273,
      "석": 5274,
      "선": 5275,
      "섣": 5276,
      "설": 5277,
      "섬": 5278,
      "섭": 5279,
      "섯": 5280,
      "성": 5281,
      "세": 5282,
      "센": 5283,
      "셀": 5284,
      "셋": 5285,
      "셔": 5286,
      "션": 5287,
      "셜": 5288,
      "셨": 5289,
      "셰": 5290,
      "소": 5291,
      "속": 5292,
      "손": 5293,
      "솔": 5294,
      "송": 5295,
      "쇠": 5296,
      "쇼": 5297,
      "숀": 5298,
      "숏": 5299,
      "숑": 5300,
      "수": 5301,
      "숙": 5302,
      "순": 5303,
      "술": 5304,
      "숨": 5305,
      "숩": 5306,
      "숫": 5307,
      "숭": 5308,
      "숲": 5309,
      "쉐": 5310,
      "쉘": 5311,
      "쉬": 5312,
      "쉽": 5313,
      "쉿": 5314,
      "슈": 5315,
      "슌": 5316,
      "슛": 5317,
      "스": 5318,
      "슨": 5319,
      "슬": 5320,
      "슴": 5321,
      "습": 5322,
      "승": 5323,
      "슼": 5324,
      "시": 5325,
      "식": 5326,
      "신": 5327,
      "싣": 5328,
      "실": 5329,
      "싫": 5330,
      "심": 5331,
      "십": 5332,
      "싱": 5333,
      "싶": 5334,
      "싸": 5335,
      "쌈": 5336,
      "쌍": 5337,
      "써": 5338,
      "썰": 5339,
      "썸": 5340,
      "쎈": 5341,
      "쏘": 5342,
      "쏙": 5343,
      "쏜": 5344,
      "쏟": 5345,
      "쏭": 5346,
      "쏴": 5347,
      "쑤": 5348,
      "쓰": 5349,
      "쓸": 5350,
      "씁": 5351,
      "씨": 5352,
      "씬": 5353,
      "씻": 5354,
      "씽": 5355,
      "아": 5356,
      "악": 5357,
      "안": 5358,
      "앉": 5359,
      "않": 5360,
      "알": 5361,
      "앓": 5362,
      "암": 5363,
      "압": 5364,
      "았": 5365,
      "앙": 5366,
      "앞": 5367,
      "애": 5368,
      "앤": 5369,
      "앨": 5370,
      "앰": 5371,
      "앵": 5372,
      "야": 5373,
      "약": 5374,
      "얀": 5375,
      "얄": 5376,
      "양": 5377,
      "얘": 5378,
      "어": 5379,
      "억": 5380,
      "언": 5381,
      "얼": 5382,
      "엄": 5383,
      "업": 5384,
      "없": 5385,
      "었": 5386,
      "엉": 5387,
      "에": 5388,
      "엑": 5389,
      "엔": 5390,
      "엘": 5391,
      "엠": 5392,
      "엣": 5393,
      "여": 5394,
      "역": 5395,
      "연": 5396,
      "열": 5397,
      "염": 5398,
      "엽": 5399,
      "엿": 5400,
      "였": 5401,
      "영": 5402,
      "예": 5403,
      "옛": 5404,
      "오": 5405,
      "옥": 5406,
      "온": 5407,
      "올": 5408,
      "옵": 5409,
      "옷": 5410,
      "옹": 5411,
      "와": 5412,
      "완": 5413,
      "왔": 5414,
      "왕": 5415,
      "왜": 5416,
      "왠": 5417,
      "외": 5418,
      "요": 5419,
      "욘": 5420,
      "용": 5421,
      "우": 5422,
      "욱": 5423,
      "운": 5424,
      "울": 5425,
      "움": 5426,
      "웃": 5427,
      "웅": 5428,
      "워": 5429,
      "웍": 5430,
      "원": 5431,
      "월": 5432,
      "웜": 5433,
      "웨": 5434,
      "웬": 5435,
      "웰": 5436,
      "웹": 5437,
      "웽": 5438,
      "위": 5439,
      "윈": 5440,
      "윌": 5441,
      "윗": 5442,
      "윙": 5443,
      "유": 5444,
      "육": 5445,
      "윤": 5446,
      "율": 5447,
      "융": 5448,
      "으": 5449,
      "윽": 5450,
      "은": 5451,
      "읃": 5452,
      "을": 5453,
      "음": 5454,
      "읍": 5455,
      "읏": 5456,
      "응": 5457,
      "읒": 5458,
      "읖": 5459,
      "읗": 5460,
      "의": 5461,
      "이": 5462,
      "익": 5463,
      "인": 5464,
      "일": 5465,
      "읽": 5466,
      "잃": 5467,
      "임": 5468,
      "입": 5469,
      "잇": 5470,
      "있": 5471,
      "잉": 5472,
      "잊": 5473,
      "잎": 5474,
      "자": 5475,
      "작": 5476,
      "잔": 5477,
      "잖": 5478,
      "잘": 5479,
      "잠": 5480,
      "잡": 5481,
      "잤": 5482,
      "장": 5483,
      "재": 5484,
      "잼": 5485,
      "쟁": 5486,
      "쟈": 5487,
      "쟤": 5488,
      "저": 5489,
      "적": 5490,
      "전": 5491,
      "절": 5492,
      "젊": 5493,
      "점": 5494,
      "젓": 5495,
      "정": 5496,
      "제": 5497,
      "젝": 5498,
      "젠": 5499,
      "젤": 5500,
      "젯": 5501,
      "져": 5502,
      "졌": 5503,
      "조": 5504,
      "족": 5505,
      "존": 5506,
      "졸": 5507,
      "좀": 5508,
      "종": 5509,
      "좋": 5510,
      "좌": 5511,
      "죄": 5512,
      "죠": 5513,
      "죤": 5514,
      "주": 5515,
      "죽": 5516,
      "준": 5517,
      "줄": 5518,
      "줏": 5519,
      "중": 5520,
      "줘": 5521,
      "쥐": 5522,
      "쥬": 5523,
      "즈": 5524,
      "즌": 5525,
      "즐": 5526,
      "즘": 5527,
      "증": 5528,
      "지": 5529,
      "직": 5530,
      "진": 5531,
      "질": 5532,
      "짐": 5533,
      "집": 5534,
      "짓": 5535,
      "징": 5536,
      "짜": 5537,
      "짝": 5538,
      "짠": 5539,
      "짬": 5540,
      "짱": 5541,
      "째": 5542,
      "쩌": 5543,
      "쩐": 5544,
      "쩜": 5545,
      "쩡": 5546,
      "쪼": 5547,
      "쫓": 5548,
      "쭈": 5549,
      "쭌": 5550,
      "쭤": 5551,
      "쯔": 5552,
      "쯧": 5553,
      "찌": 5554,
      "찍": 5555,
      "찐": 5556,
      "찔": 5557,
      "차": 5558,
      "착": 5559,
      "찬": 5560,
      "찮": 5561,
      "찰": 5562,
      "참": 5563,
      "창": 5564,
      "찾": 5565,
      "채": 5566,
      "책": 5567,
      "챈": 5568,
      "챌": 5569,
      "챔": 5570,
      "챙": 5571,
      "챠": 5572,
      "처": 5573,
      "척": 5574,
      "천": 5575,
      "철": 5576,
      "첩": 5577,
      "첫": 5578,
      "청": 5579,
      "체": 5580,
      "쳐": 5581,
      "쳤": 5582,
      "초": 5583,
      "촌": 5584,
      "총": 5585,
      "촨": 5586,
      "최": 5587,
      "쵸": 5588,
      "추": 5589,
      "축": 5590,
      "춘": 5591,
      "출": 5592,
      "춤": 5593,
      "충": 5594,
      "춰": 5595,
      "취": 5596,
      "츄": 5597,
      "츠": 5598,
      "층": 5599,
      "치": 5600,
      "칙": 5601,
      "친": 5602,
      "칠": 5603,
      "침": 5604,
      "칫": 5605,
      "칭": 5606,
      "카": 5607,
      "칸": 5608,
      "칼": 5609,
      "캉": 5610,
      "캐": 5611,
      "캔": 5612,
      "캠": 5613,
      "커": 5614,
      "컨": 5615,
      "컬": 5616,
      "컴": 5617,
      "컷": 5618,
      "케": 5619,
      "켄": 5620,
      "켓": 5621,
      "켜": 5622,
      "코": 5623,
      "콕": 5624,
      "콘": 5625,
      "콜": 5626,
      "콤": 5627,
      "콩": 5628,
      "쾅": 5629,
      "쿠": 5630,
      "쿡": 5631,
      "쿨": 5632,
      "쿵": 5633,
      "퀘": 5634,
      "퀴": 5635,
      "퀸": 5636,
      "큐": 5637,
      "큘": 5638,
      "크": 5639,
      "큰": 5640,
      "클": 5641,
      "큼": 5642,
      "키": 5643,
      "킨": 5644,
      "킬": 5645,
      "킴": 5646,
      "킷": 5647,
      "킹": 5648,
      "타": 5649,
      "탁": 5650,
      "탄": 5651,
      "탈": 5652,
      "탐": 5653,
      "탑": 5654,
      "탕": 5655,
      "태": 5656,
      "택": 5657,
      "탤": 5658,
      "탱": 5659,
      "터": 5660,
      "털": 5661,
      "테": 5662,
      "텍": 5663,
      "텐": 5664,
      "텔": 5665,
      "토": 5666,
      "톤": 5667,
      "톨": 5668,
      "통": 5669,
      "퇴": 5670,
      "툇": 5671,
      "투": 5672,
      "툴": 5673,
      "퉁": 5674,
      "퉜": 5675,
      "튜": 5676,
      "튠": 5677,
      "트": 5678,
      "특": 5679,
      "튼": 5680,
      "틀": 5681,
      "틈": 5682,
      "틔": 5683,
      "티": 5684,
      "틱": 5685,
      "틴": 5686,
      "틸": 5687,
      "팀": 5688,
      "팅": 5689,
      "파": 5690,
      "판": 5691,
      "팔": 5692,
      "팝": 5693,
      "팠": 5694,
      "팡": 5695,
      "팥": 5696,
      "패": 5697,
      "팩": 5698,
      "팬": 5699,
      "팰": 5700,
      "팽": 5701,
      "퍼": 5702,
      "펀": 5703,
      "펑": 5704,
      "페": 5705,
      "펙": 5706,
      "펜": 5707,
      "펠": 5708,
      "편": 5709,
      "평": 5710,
      "폐": 5711,
      "포": 5712,
      "폭": 5713,
      "폰": 5714,
      "폴": 5715,
      "폼": 5716,
      "퐁": 5717,
      "표": 5718,
      "푱": 5719,
      "푸": 5720,
      "푼": 5721,
      "풀": 5722,
      "품": 5723,
      "풋": 5724,
      "풍": 5725,
      "퓨": 5726,
      "프": 5727,
      "픈": 5728,
      "플": 5729,
      "픔": 5730,
      "피": 5731,
      "픽": 5732,
      "핀": 5733,
      "필": 5734,
      "핑": 5735,
      "하": 5736,
      "학": 5737,
      "한": 5738,
      "할": 5739,
      "함": 5740,
      "합": 5741,
      "핫": 5742,
      "항": 5743,
      "해": 5744,
      "핵": 5745,
      "핸": 5746,
      "햄": 5747,
      "햇": 5748,
      "했": 5749,
      "행": 5750,
      "향": 5751,
      "허": 5752,
      "헌": 5753,
      "험": 5754,
      "헝": 5755,
      "헤": 5756,
      "헨": 5757,
      "헬": 5758,
      "헷": 5759,
      "혀": 5760,
      "혁": 5761,
      "현": 5762,
      "혈": 5763,
      "혐": 5764,
      "협": 5765,
      "형": 5766,
      "혜": 5767,
      "호": 5768,
      "혹": 5769,
      "혼": 5770,
      "홀": 5771,
      "홈": 5772,
      "홉": 5773,
      "홍": 5774,
      "화": 5775,
      "확": 5776,
      "환": 5777,
      "활": 5778,
      "황": 5779,
      "회": 5780,
      "획": 5781,
      "효": 5782,
      "후": 5783,
      "훈": 5784,
      "훤": 5785,
      "훼": 5786,
      "휘": 5787,
      "휴": 5788,
      "흉": 5789,
      "흐": 5790,
      "흑": 5791,
      "흔": 5792,
      "흘": 5793,
      "흙": 5794,
      "흠": 5795,
      "흡": 5796,
      "흥": 5797,
      "희": 5798,
      "흰": 5799,
      "히": 5800,
      "힐": 5801,
      "힘": 5802,
      "힙": 5803,
      "": 5804,
      "": 5805,
      "": 5806,
      "": 5807,
      "": 5808,
      "": 5809,
      "": 5810,
      "": 5811,
      "": 5812,
      "": 5813,
      "": 5814,
      "": 5815,
      "": 5816,
      "": 5817,
      "": 5818,
      "": 5819,
      "": 5820,
      "": 5821,
      "": 5822,
      "": 5823,
      "": 5824,
      "": 5825,
      "": 5826,
      "": 5827,
      "": 5828,
      "": 5829,
      "": 5830,
      "": 5831,
      "": 5832,
      "": 5833,
      "": 5834,
      "": 5835,
      "": 5836,
      "": 5837,
      "": 5838,
      "": 5839,
      "": 5840,
      "": 5841,
      "": 5842,
      "": 5843,
      "": 5844,
      "": 5845,
      "": 5846,
      "": 5847,
      "": 5848,
      "": 5849,
      "": 5850,
      "": 5851,
      "": 5852,
      "": 5853,
      "": 5854,
      "": 5855,
      "": 5856,
      "": 5857,
      "": 5858,
      "": 5859,
      "": 5860,
      "": 5861,
      "": 5862,
      "": 5863,
      "": 5864,
      "": 5865,
      "": 5866,
      "﨎": 5867,
      "﨏": 5868,
      "塚": 5869,
      "﨑": 5870,
      "﨓": 5871,
      "﨔": 5872,
      "羽": 5873,
      "﨟": 5874,
      "﨡": 5875,
      "﨣": 5876,
      "﨤": 5877,
      "﨧": 5878,
      "﨨": 5879,
      "﨩": 5880,
      "ﬀ": 5881,
      "ﬁ": 5882,
      "ﬂ": 5883,
      "ﬃ": 5884,
      "ﬄ": 5885,
      "ﬅ": 5886,
      "ﬆ": 5887,
      "ﭪ": 5888,
      "ﭼ": 5889,
      "ﮪ": 5890,
      "ﯩ": 5891,
      "﷼": 5892,
      "︀": 5893,
      "︁": 5894,
      "︎": 5895,
      "️": 5896,
      "︔": 5897,
      "︰": 5898,
      "︱": 5899,
      "︲": 5900,
      "︳": 5901,
      "︴": 5902,
      "︶": 5903,
      "︹": 5904,
      "︺": 5905,
      "︽": 5906,
      "︾": 5907,
      "︿": 5908,
      "﹀": 5909,
      "﹁": 5910,
      "﹂": 5911,
      "﹃": 5912,
      "﹄": 5913,
      "﹋": 5914,
      "﹌": 5915,
      "﹍": 5916,
      "﹏": 5917,
      "﹐": 5918,
      "﹑": 5919,
      "﹒": 5920,
      "﹔": 5921,
      "﹕": 5922,
      "﹖": 5923,
      "﹗": 5924,
      "﹙": 5925,
      "﹚": 5926,
      "﹝": 5927,
      "﹞": 5928,
      "﹟": 5929,
      "﹠": 5930,
      "﹡": 5931,
      "﹣": 5932,
      "﹥": 5933,
      "﹦": 5934,
      "﹩": 5935,
      "﹪": 5936,
      "ﺁ": 5937,
      "ﺍ": 5938,
      "ﺎ": 5939,
      "ﺐ": 5940,
      "ﺑ": 5941,
      "ﺒ": 5942,
      "ﺓ": 5943,
      "ﺔ": 5944,
      "ﺝ": 5945,
      "ﺡ": 5946,
      "ﺣ": 5947,
      "ﺤ": 5948,
      "ﺩ": 5949,
      "ﺪ": 5950,
      "ﺭ": 5951,
      "ﺮ": 5952,
      "ﻋ": 5953,
      "ﻌ": 5954,
      "ﻐ": 5955,
      "ﻓ": 5956,
      "ﻕ": 5957,
      "ﻙ": 5958,
      "ﻞ": 5959,
      "ﻟ": 5960,
      "ﻠ": 5961,
      "ﻣ": 5962,
      "ﻧ": 5963,
      "ﻪ": 5964,
      "ﻫ": 5965,
      "ﻭ": 5966,
      "ﻮ": 5967,
      "ﻯ": 5968,
      "ﻲ": 5969,
      "ﻴ": 5970,
      "ﻻ": 5971,
      "﻿": 5972,
      "＂": 5973,
      "＃": 5974,
      "＄": 5975,
      "％": 5976,
      "＆": 5977,
      "＇": 5978,
      "＊": 5979,
      "＋": 5980,
      "－": 5981,
      "．": 5982,
      "／": 5983,
      "０": 5984,
      "１": 5985,
      "２": 5986,
      "３": 5987,
      "４": 5988,
      "５": 5989,
      "６": 5990,
      "７": 5991,
      "８": 5992,
      "９": 5993,
      "＜": 5994,
      "＝": 5995,
      "＞": 5996,
      "＠": 5997,
      "Ａ": 5998,
      "Ｂ": 5999,
      "Ｃ": 6000,
      "Ｄ": 6001,
      "Ｅ": 6002,
      "Ｆ": 6003,
      "Ｇ": 6004,
      "Ｈ": 6005,
      "Ｉ": 6006,
      "Ｊ": 6007,
      "Ｋ": 6008,
      "Ｌ": 6009,
      "Ｍ": 6010,
      "Ｎ": 6011,
      "Ｏ": 6012,
      "Ｐ": 6013,
      "Ｑ": 6014,
      "Ｒ": 6015,
      "Ｓ": 6016,
      "Ｔ": 6017,
      "Ｕ": 6018,
      "Ｖ": 6019,
      "Ｗ": 6020,
      "Ｘ": 6021,
      "Ｙ": 6022,
      "Ｚ": 6023,
      "［": 6024,
      "＼": 6025,
      "］": 6026,
      "＾": 6027,
      "＿": 6028,
      "｀": 6029,
      "ａ": 6030,
      "ｂ": 6031,
      "ｃ": 6032,
      "ｄ": 6033,
      "ｅ": 6034,
      "ｆ": 6035,
      "ｇ": 6036,
      "ｈ": 6037,
      "ｉ": 6038,
      "ｊ": 6039,
      "ｋ": 6040,
      "ｌ": 6041,
      "ｍ": 6042,
      "ｎ": 6043,
      "ｏ": 6044,
      "ｐ": 6045,
      "ｑ": 6046,
      "ｒ": 6047,
      "ｓ": 6048,
      "ｔ": 6049,
      "ｕ": 6050,
      "ｖ": 6051,
      "ｗ": 6052,
      "ｘ": 6053,
      "ｙ": 6054,
      "｛": 6055,
      "｜": 6056,
      "｝": 6057,
      "～": 6058,
      "｡": 6059,
      "｢": 6060,
      "｣": 6061,
      "､": 6062,
      "･": 6063,
      "ｦ": 6064,
      "ｧ": 6065,
      "ｨ": 6066,
      "ｪ": 6067,
      "ｫ": 6068,
      "ｬ": 6069,
      "ｭ": 6070,
      "ｯ": 6071,
      "ｰ": 6072,
      "ｱ": 6073,
      "ｲ": 6074,
      "ｳ": 6075,
      "ｴ": 6076,
      "ｵ": 6077,
      "ｶ": 6078,
      "ｷ": 6079,
      "ｸ": 6080,
      "ｹ": 6081,
      "ｺ": 6082,
      "ｻ": 6083,
      "ｼ": 6084,
      "ｽ": 6085,
      "ｾ": 6086,
      "ｿ": 6087,
      "ﾀ": 6088,
      "ﾁ": 6089,
      "ﾂ": 6090,
      "ﾃ": 6091,
      "ﾄ": 6092,
      "ﾅ": 6093,
      "ﾈ": 6094,
      "ﾉ": 6095,
      "ﾊ": 6096,
      "ﾋ": 6097,
      "ﾌ": 6098,
      "ﾍ": 6099,
      "ﾎ": 6100,
      "ﾏ": 6101,
      "ﾐ": 6102,
      "ﾑ": 6103,
      "ﾒ": 6104,
      "ﾓ": 6105,
      "ﾔ": 6106,
      "ﾗ": 6107,
      "ﾘ": 6108,
      "ﾙ": 6109,
      "ﾚ": 6110,
      "ﾛ": 6111,
      "ﾜ": 6112,
      "ﾝ": 6113,
      "ﾞ": 6114,
      "ﾟ": 6115,
      "￠": 6116,
      "￡": 6117,
      "￢": 6118,
      "￣": 6119,
      "￥": 6120,
      "￦": 6121,
      "￼": 6122,
      "�": 6123,
      "𐀞": 6124,
      "𐀫": 6125,
      "𐅀": 6126,
      "𐅁": 6127,
      "𐅂": 6128,
      "𐅆": 6129,
      "𐅗": 6130,
      "𐌀": 6131,
      "𐌄": 6132,
      "𐌉": 6133,
      "𐌓": 6134,
      "𐌕": 6135,
      "𐌰": 6136,
      "𐌳": 6137,
      "𐌻": 6138,
      "𐌼": 6139,
      "𐌿": 6140,
      "𐍈": 6141,
      "𐎊": 6142,
      "𐎌": 6143,
      "𐎍": 6144,
      "𐎗": 6145,
      "𐎛": 6146,
      "𐎠": 6147,
      "𐎡": 6148,
      "𐎢": 6149,
      "𐎣": 6150,
      "𐎥": 6151,
      "𐎧": 6152,
      "𐎩": 6153,
      "𐎫": 6154,
      "𐎭": 6155,
      "𐎱": 6156,
      "𐎴": 6157,
      "𐎶": 6158,
      "𐎷": 6159,
      "𐎹": 6160,
      "𐎺": 6161,
      "𐎼": 6162,
      "𐎿": 6163,
      "𐏀": 6164,
      "𐏁": 6165,
      "𐏂": 6166,
      "𐏃": 6167,
      "𐏋": 6168,
      "𐏎": 6169,
      "𐏐": 6170,
      "𐐦": 6171,
      "𐐧": 6172,
      "𐑎": 6173,
      "𐑏": 6174,
      "𐓁": 6175,
      "𐓂": 6176,
      "𐓏": 6177,
      "𐓘": 6178,
      "𐓟": 6179,
      "𐓣": 6180,
      "𐓤": 6181,
      "𐓯": 6182,
      "𐓻": 6183,
      "𐡂": 6184,
      "𐡍": 6185,
      "𐡔": 6186,
      "𐤀": 6187,
      "𐤁": 6188,
      "𐤂": 6189,
      "𐤃": 6190,
      "𐤄": 6191,
      "𐤅": 6192,
      "𐤆": 6193,
      "𐤇": 6194,
      "𐤈": 6195,
      "𐤉": 6196,
      "𐤊": 6197,
      "𐤌": 6198,
      "𐤍": 6199,
      "𐤏": 6200,
      "𐤐": 6201,
      "𐤑": 6202,
      "𐤒": 6203,
      "𐤓": 6204,
      "𐤔": 6205,
      "𐤕": 6206,
      "𐤠": 6207,
      "𐤣": 6208,
      "𐤦": 6209,
      "𐤭": 6210,
      "𐤮": 6211,
      "𐤯": 6212,
      "𐤱": 6213,
      "𐤳": 6214,
      "𐤶": 6215,
      "𐨀": 6216,
      "𐨁": 6217,
      "𐨂": 6218,
      "𐨅": 6219,
      "𐨆": 6220,
      "𐨐": 6221,
      "𐨒": 6222,
      "𐨗": 6223,
      "𐨞": 6224,
      "𐨢": 6225,
      "𐨣": 6226,
      "𐨨": 6227,
      "𐨩": 6228,
      "𐨪": 6229,
      "𐨫": 6230,
      "𐨬": 6231,
      "𐨮": 6232,
      "𐨯": 6233,
      "𐨿": 6234,
      "𐩣": 6235,
      "𐩨": 6236,
      "𐩪": 6237,
      "𐩬": 6238,
      "𐩯": 6239,
      "𐩱": 6240,
      "𐩵": 6241,
      "𐩶": 6242,
      "𐩽": 6243,
      "𐪆": 6244,
      "𐪌": 6245,
      "𐪔": 6246,
      "𐬀": 6247,
      "𐬎": 6248,
      "𐬖": 6249,
      "𐬙": 6250,
      "𐬞": 6251,
      "𐬠": 6252,
      "𐬯": 6253,
      "𐬴": 6254,
      "𐭀": 6255,
      "𐭃": 6256,
      "𐭅": 6257,
      "𐭉": 6258,
      "𐭊": 6259,
      "𐭋": 6260,
      "𐭌": 6261,
      "𐭍": 6262,
      "𐭐": 6263,
      "𐭓": 6264,
      "𐭕": 6265,
      "𐭠": 6266,
      "𐭢": 6267,
      "𐭣": 6268,
      "𐭥": 6269,
      "𐭦": 6270,
      "𐭧": 6271,
      "𐭩": 6272,
      "𐭪": 6273,
      "𐭫": 6274,
      "𐭬": 6275,
      "𐭭": 6276,
      "𐭮": 6277,
      "𐭱": 6278,
      "𐰀": 6279,
      "𐰃": 6280,
      "𐰆": 6281,
      "𐰇": 6282,
      "𐰉": 6283,
      "𐰋": 6284,
      "𐰍": 6285,
      "𐰏": 6286,
      "𐰑": 6287,
      "𐰓": 6288,
      "𐰔": 6289,
      "𐰖": 6290,
      "𐰘": 6291,
      "𐰚": 6292,
      "𐰛": 6293,
      "𐰜": 6294,
      "𐰞": 6295,
      "𐰠": 6296,
      "𐰢": 6297,
      "𐰣": 6298,
      "𐰤": 6299,
      "𐰯": 6300,
      "𐰰": 6301,
      "𐰲": 6302,
      "𐰴": 6303,
      "𐰵": 6304,
      "𐰼": 6305,
      "𐰾": 6306,
      "𐱁": 6307,
      "𐱃": 6308,
      "𐱅": 6309,
      "𑀁": 6310,
      "𑀉": 6311,
      "𑀓": 6312,
      "𑀚": 6313,
      "𑀡": 6314,
      "𑀤": 6315,
      "𑀥": 6316,
      "𑀦": 6317,
      "𑀧": 6318,
      "𑀫": 6319,
      "𑀬": 6320,
      "𑀭": 6321,
      "𑀯": 6322,
      "𑀱": 6323,
      "𑀸": 6324,
      "𑀺": 6325,
      "𑀼": 6326,
      "𑁆": 6327,
      "𑜃": 6328,
      "𑜄": 6329,
      "𑜈": 6330,
      "𑜌": 6331,
      "𑜘": 6332,
      "𑜞": 6333,
      "𑜡": 6334,
      "𑢹": 6335,
      "𑣉": 6336,
      "𑣋": 6337,
      "𑣎": 6338,
      "𑣜": 6339,
      "𒀀": 6340,
      "𒀊": 6341,
      "𒀭": 6342,
      "𒀾": 6343,
      "𒁀": 6344,
      "𒁄": 6345,
      "𒁉": 6346,
      "𒁕": 6347,
      "𒁺": 6348,
      "𒂅": 6349,
      "𒂊": 6350,
      "𒂍": 6351,
      "𒂗": 6352,
      "𒂠": 6353,
      "𒂦": 6354,
      "𒂵": 6355,
      "𒃶": 6356,
      "𒃷": 6357,
      "𒃻": 6358,
      "𒄀": 6359,
      "𒄑": 6360,
      "𒄖": 6361,
      "𒄠": 6362,
      "𒄩": 6363,
      "𒄭": 6364,
      "𒄿": 6365,
      "𒅀": 6366,
      "𒅅": 6367,
      "𒅇": 6368,
      "𒅈": 6369,
      "𒅋": 6370,
      "𒅖": 6371,
      "𒅘": 6372,
      "𒆕": 6373,
      "𒆠": 6374,
      "𒆤": 6375,
      "𒆧": 6376,
      "𒆪": 6377,
      "𒆬": 6378,
      "𒆳": 6379,
      "𒆷": 6380,
      "𒈗": 6381,
      "𒈠": 6382,
      "𒈦": 6383,
      "𒈨": 6384,
      "𒈪": 6385,
      "𒈬": 6386,
      "𒈹": 6387,
      "𒈾": 6388,
      "𒉌": 6389,
      "𒉣": 6390,
      "𒉺": 6391,
      "𒊏": 6392,
      "𒊓": 6393,
      "𒊭": 6394,
      "𒊷": 6395,
      "𒊹": 6396,
      "𒊺": 6397,
      "𒋗": 6398,
      "𒋤": 6399,
      "𒋫": 6400,
      "𒋼": 6401,
      "𒋾": 6402,
      "𒌆": 6403,
      "𒌇": 6404,
      "𒌍": 6405,
      "𒌑": 6406,
      "𒌓": 6407,
      "𒌦": 6408,
      "𒌵": 6409,
      "𒌷": 6410,
      "𒍣": 6411,
      "𒍪": 6412,
      "𒐼": 6413,
      "𓁹": 6414,
      "𓂋": 6415,
      "𓂜": 6416,
      "𓂝": 6417,
      "𓃠": 6418,
      "𓃣": 6419,
      "𓃱": 6420,
      "𓄿": 6421,
      "𓅓": 6422,
      "𓅱": 6423,
      "𓆎": 6424,
      "𓆑": 6425,
      "𓆓": 6426,
      "𓆰": 6427,
      "𓇋": 6428,
      "𓇍": 6429,
      "𓇽": 6430,
      "𓈈": 6431,
      "𓈉": 6432,
      "𓈖": 6433,
      "𓈗": 6434,
      "𓉐": 6435,
      "𓉴": 6436,
      "𓊖": 6437,
      "𓊪": 6438,
      "𓋊": 6439,
      "𓍋": 6440,
      "𓍘": 6441,
      "𓎡": 6442,
      "𓏇": 6443,
      "𓏏": 6444,
      "𓐍": 6445,
      "𓐝": 6446,
      "𖩃": 6447,
      "𖩑": 6448,
      "𖩓": 6449,
      "𘜶": 6450,
      "𘟙": 6451,
      "𘮒": 6452,
      "𘱚": 6453,
      "𘱤": 6454,
      "𘱿": 6455,
      "𛀸": 6456,
      "𛁈": 6457,
      "𛄟": 6458,
      "𛄡": 6459,
      "𛄢": 6460,
      "𜻏": 6461,
      "𝄂": 6462,
      "𝄆": 6463,
      "𝄇": 6464,
      "𝄋": 6465,
      "𝄌": 6466,
      "𝄪": 6467,
      "𝄫": 6468,
      "𝅝": 6469,
      "𝋀": 6470,
      "𝋁": 6471,
      "𝋂": 6472,
      "𝋅": 6473,
      "𝋆": 6474,
      "𝋇": 6475,
      "𝋌": 6476,
      "𝋑": 6477,
      "𝌀": 6478,
      "𝐀": 6479,
      "𝐁": 6480,
      "𝐂": 6481,
      "𝐄": 6482,
      "𝐅": 6483,
      "𝐆": 6484,
      "𝐇": 6485,
      "𝐈": 6486,
      "𝐉": 6487,
      "𝐊": 6488,
      "𝐋": 6489,
      "𝐌": 6490,
      "𝐍": 6491,
      "𝐎": 6492,
      "𝐑": 6493,
      "𝐒": 6494,
      "𝐓": 6495,
      "𝐔": 6496,
      "𝐖": 6497,
      "𝐗": 6498,
      "𝐘": 6499,
      "𝐞": 6500,
      "𝐡": 6501,
      "𝐢": 6502,
      "𝐥": 6503,
      "𝐦": 6504,
      "𝐫": 6505,
      "𝐬": 6506,
      "𝐴": 6507,
      "𝐵": 6508,
      "𝐶": 6509,
      "𝐸": 6510,
      "𝐹": 6511,
      "𝐻": 6512,
      "𝐾": 6513,
      "𝑂": 6514,
      "𝑄": 6515,
      "𝑇": 6516,
      "𝑋": 6517,
      "𝑑": 6518,
      "𝑓": 6519,
      "𝑗": 6520,
      "𝑘": 6521,
      "𝑛": 6522,
      "𝑝": 6523,
      "𝑠": 6524,
      "𝑦": 6525,
      "𝑧": 6526,
      "𝑨": 6527,
      "𝑪": 6528,
      "𝑫": 6529,
      "𝑯": 6530,
      "𝑱": 6531,
      "𝑳": 6532,
      "𝑵": 6533,
      "𝑹": 6534,
      "𝑺": 6535,
      "𝑻": 6536,
      "𝑼": 6537,
      "𝑿": 6538,
      "𝒂": 6539,
      "𝒃": 6540,
      "𝒄": 6541,
      "𝒅": 6542,
      "𝒆": 6543,
      "𝒉": 6544,
      "𝒊": 6545,
      "𝒍": 6546,
      "𝒏": 6547,
      "𝒐": 6548,
      "𝒑": 6549,
      "𝒓": 6550,
      "𝒔": 6551,
      "𝒕": 6552,
      "𝒖": 6553,
      "𝒗": 6554,
      "𝒘": 6555,
      "𝒚": 6556,
      "𝒰": 6557,
      "𝓨": 6558,
      "𝔓": 6559,
      "𝔡": 6560,
      "𝔪": 6561,
      "𝔫": 6562,
      "𝔬": 6563,
      "𝔸": 6564,
      "𝕆": 6565,
      "𝕊": 6566,
      "𝕏": 6567,
      "𝕖": 6568,
      "𝕞": 6569,
      "𝕟": 6570,
      "𝕠": 6571,
      "𝕪": 6572,
      "𝖟": 6573,
      "𝗖": 6574,
      "𝗝": 6575,
      "𝗟": 6576,
      "𝗦": 6577,
      "𝗬": 6578,
      "𝗲": 6579,
      "𝗶": 6580,
      "𝗸": 6581,
      "𝗹": 6582,
      "𝗻": 6583,
      "𝗼": 6584,
      "𝘀": 6585,
      "𝘂": 6586,
      "𝘆": 6587,
      "𝘒": 6588,
      "𝘽": 6589,
      "𝘾": 6590,
      "𝘿": 6591,
      "𝙀": 6592,
      "𝙇": 6593,
      "𝙈": 6594,
      "𝙊": 6595,
      "𝙋": 6596,
      "𝙍": 6597,
      "𝙎": 6598,
      "𝙐": 6599,
      "𝙑": 6600,
      "𝙖": 6601,
      "𝙘": 6602,
      "𝙙": 6603,
      "𝙚": 6604,
      "𝙜": 6605,
      "𝙝": 6606,
      "𝙞": 6607,
      "𝙣": 6608,
      "𝙤": 6609,
      "𝙥": 6610,
      "𝙧": 6611,
      "𝙨": 6612,
      "𝙩": 6613,
      "𝙫": 6614,
      "𝙬": 6615,
      "𝛂": 6616,
      "𝛔": 6617,
      "𝛾": 6618,
      "𝛿": 6619,
      "𝜆": 6620,
      "𝜋": 6621,
      "𝝰": 6622,
      "𝝱": 6623,
      "𝟮": 6624,
      "𞄀": 6625,
      "𞄂": 6626,
      "𞄄": 6627,
      "𞄎": 6628,
      "𞄐": 6629,
      "𞄔": 6630,
      "𞄚": 6631,
      "𞄤": 6632,
      "𞄦": 6633,
      "𞄧": 6634,
      "𞄩": 6635,
      "𞄫": 6636,
      "𞄬": 6637,
      "𞄰": 6638,
      "𞄱": 6639,
      "𞄲": 6640,
      "𞄳": 6641,
      "𞠀": 6642,
      "𞠁": 6643,
      "𞠂": 6644,
      "𞤑": 6645,
      "𞤢": 6646,
      "𞤪": 6647,
      "𞤭": 6648,
      "𞤮": 6649,
      "𞤲": 6650,
      "𞤳": 6651,
      "𞥄": 6652,
      "🇦": 6653,
      "🇧": 6654,
      "🇨": 6655,
      "🇩": 6656,
      "🇪": 6657,
      "🇫": 6658,
      "🇬": 6659,
      "🇭": 6660,
      "🇮": 6661,
      "🇯": 6662,
      "🇰": 6663,
      "🇱": 6664,
      "🇲": 6665,
      "🇳": 6666,
      "🇵": 6667,
      "🇷": 6668,
      "🇸": 6669,
      "🇹": 6670,
      "🇺": 6671,
      "🇻": 6672,
      "🇼": 6673,
      "🇾": 6674,
      "🇿": 6675,
      "🌈": 6676,
      "🌞": 6677,
      "🌟": 6678,
      "🌰": 6679,
      "🌸": 6680,
      "🌽": 6681,
      "🍀": 6682,
      "🍆": 6683,
      "🍇": 6684,
      "🍉": 6685,
      "🍎": 6686,
      "🍑": 6687,
      "🍬": 6688,
      "🍸": 6689,
      "🍺": 6690,
      "🎀": 6691,
      "🎄": 6692,
      "🎌": 6693,
      "🎭": 6694,
      "🏁": 6695,
      "🏆": 6696,
      "🏳": 6697,
      "🏴": 6698,
      "🏵": 6699,
      "🏻": 6700,
      "🏼": 6701,
      "🏽": 6702,
      "🏾": 6703,
      "🏿": 6704,
      "🐍": 6705,
      "🐎": 6706,
      "🐴": 6707,
      "🐷": 6708,
      "🐾": 6709,
      "👅": 6710,
      "👌": 6711,
      "👍": 6712,
      "👑": 6713,
      "👧": 6714,
      "👨": 6715,
      "👩": 6716,
      "💔": 6717,
      "💗": 6718,
      "💚": 6719,
      "💜": 6720,
      "💣": 6721,
      "💩": 6722,
      "💰": 6723,
      "📅": 6724,
      "🔝": 6725,
      "🔤": 6726,
      "🔥": 6727,
      "🔫": 6728,
      "🔴": 6729,
      "🔵": 6730,
      "🔻": 6731,
      "😀": 6732,
      "😂": 6733,
      "😅": 6734,
      "😍": 6735,
      "😭": 6736,
      "🙅": 6737,
      "🙈": 6738,
      "🙏": 6739,
      "🚩": 6740,
      "🚫": 6741,
      "🜨": 6742,
      "🝵": 6743,
      "🤌": 6744,
      "🤣": 6745,
      "🤦": 6746,
      "🥇": 6747,
      "🥰": 6748,
      "🥸": 6749,
      "🥹": 6750,
      "🥺": 6751,
      "🦁": 6752,
      "🦋": 6753,
      "🦜": 6754,
      "🦠": 6755,
      "🧐": 6756,
      "🧭": 6757,
      "𠀑": 6758,
      "𠀠": 6759,
      "𠀤": 6760,
      "𠀧": 6761,
      "𠀾": 6762,
      "𠂂": 6763,
      "𠂉": 6764,
      "𠃉": 6765,
      "𠃋": 6766,
      "𠃍": 6767,
      "𠃎": 6768,
      "𠃑": 6769,
      "𠃵": 6770,
      "𠄎": 6771,
      "𠄘": 6772,
      "𠄞": 6773,
      "𠄟": 6774,
      "𠄠": 6775,
      "𠄩": 6776,
      "𠄳": 6777,
      "𠄼": 6778,
      "𠅿": 6779,
      "𠆢": 6780,
      "𠆤": 6781,
      "𠆭": 6782,
      "𠇇": 6783,
      "𠇖": 6784,
      "𠇟": 6785,
      "𠇶": 6786,
      "𠇹": 6787,
      "𠈌": 6788,
      "𠈣": 6789,
      "𠊛": 6790,
      "𠊺": 6791,
      "𠋮": 6792,
      "𠍀": 6793,
      "𠍇": 6794,
      "𠍋": 6795,
      "𠍟": 6796,
      "𠎀": 6797,
      "𠎢": 6798,
      "𠏉": 6799,
      "𠐓": 6800,
      "𠐔": 6801,
      "𠐤": 6802,
      "𠒇": 6803,
      "𠔦": 6804,
      "𠕇": 6805,
      "𠖳": 6806,
      "𠘨": 6807,
      "𠙴": 6808,
      "𠚕": 6809,
      "𠚢": 6810,
      "𠝹": 6811,
      "𠟭": 6812,
      "𠠫": 6813,
      "𠡠": 6814,
      "𠣮": 6815,
      "𠤩": 6816,
      "𠥓": 6817,
      "𠦝": 6818,
      "𠨑": 6819,
      "𠪱": 6820,
      "𠪳": 6821,
      "𠫂": 6822,
      "𠫊": 6823,
      "𠫑": 6824,
      "𠫤": 6825,
      "𠫳": 6826,
      "𠬍": 6827,
      "𠭘": 6828,
      "𠮶": 6829,
      "𠮷": 6830,
      "𠯿": 6831,
      "𠰂": 6832,
      "𠰢": 6833,
      "𠰱": 6834,
      "𠰷": 6835,
      "𠱊": 6836,
      "𠱸": 6837,
      "𠱾": 6838,
      "𠳓": 6839,
      "𠴟": 6840,
      "𠵆": 6841,
      "𠵇": 6842,
      "𠵱": 6843,
      "𠶙": 6844,
      "𠷨": 6845,
      "𠺌": 6846,
      "𠺞": 6847,
      "𠻇": 6848,
      "𠻸": 6849,
      "𠾶": 6850,
      "𡁻": 6851,
      "𡃁": 6852,
      "𡈟": 6853,
      "𡉟": 6854,
      "𡊎": 6855,
      "𡊤": 6856,
      "𡊿": 6857,
      "𡋕": 6858,
      "𡋣": 6859,
      "𡋱": 6860,
      "𡋹": 6861,
      "𡌃": 6862,
      "𡌳": 6863,
      "𡌶": 6864,
      "𡍓": 6865,
      "𡍼": 6866,
      "𡎊": 6867,
      "𡎜": 6868,
      "𡎠": 6869,
      "𡎴": 6870,
      "𡏦": 6871,
      "𡐾": 6872,
      "𡑏": 6873,
      "𡑐": 6874,
      "𡑒": 6875,
      "𡑠": 6876,
      "𡑡": 6877,
      "𡑤": 6878,
      "𡑴": 6879,
      "𡑵": 6880,
      "𡒉": 6881,
      "𡓂": 6882,
      "𡓝": 6883,
      "𡓱": 6884,
      "𡔈": 6885,
      "𡔉": 6886,
      "𡕀": 6887,
      "𡗨": 6888,
      "𡘯": 6889,
      "𡙇": 6890,
      "𡚒": 6891,
      "𡚖": 6892,
      "𡞱": 6893,
      "𡟃": 6894,
      "𡟰": 6895,
      "𡠄": 6896,
      "𡠍": 6897,
      "𡠾": 6898,
      "𡣗": 6899,
      "𡣺": 6900,
      "𡤕": 6901,
      "𡥧": 6902,
      "𡦗": 6903,
      "𡦹": 6904,
      "𡨂": 6905,
      "𡨃": 6906,
      "𡨊": 6907,
      "𡨧": 6908,
      "𡩀": 6909,
      "𡩈": 6910,
      "𡩋": 6911,
      "𡩏": 6912,
      "𡩜": 6913,
      "𡩢": 6914,
      "𡪾": 6915,
      "𡪿": 6916,
      "𡭬": 6917,
      "𡰣": 6918,
      "𡰳": 6919,
      "𡱰": 6920,
      "𡳅": 6921,
      "𡴶": 6922,
      "𡴾": 6923,
      "𡵯": 6924,
      "𡵰": 6925,
      "𡶀": 6926,
      "𡶛": 6927,
      "𡷣": 6928,
      "𡷫": 6929,
      "𡸷": 6930,
      "𡺄": 6931,
      "𡺊": 6932,
      "𡺿": 6933,
      "𡼹": 6934,
      "𡽫": 6935,
      "𡽹": 6936,
      "𡾊": 6937,
      "𡾣": 6938,
      "𢀇": 6939,
      "𢀓": 6940,
      "𢀛": 6941,
      "𢀿": 6942,
      "𢂎": 6943,
      "𢃇": 6944,
      "𢄂": 6945,
      "𢄙": 6946,
      "𢆡": 6947,
      "𢌛": 6948,
      "𢎞": 6949,
      "𢏺": 6950,
      "𢐗": 6951,
      "𢑥": 6952,
      "𢓊": 6953,
      "𢓨": 6954,
      "𢔶": 6955,
      "𢕌": 6956,
      "𢕸": 6957,
      "𢘆": 6958,
      "𢘑": 6959,
      "𢘙": 6960,
      "𢙏": 6961,
      "𢙒": 6962,
      "𢙴": 6963,
      "𢚍": 6964,
      "𢚝": 6965,
      "𢛣": 6966,
      "𢞘": 6967,
      "𢟬": 6968,
      "𢠁": 6969,
      "𢡱": 6970,
      "𢢀": 6971,
      "𢢝": 6972,
      "𢢩": 6973,
      "𢢼": 6974,
      "𢢽": 6975,
      "𢣴": 6976,
      "𢤮": 6977,
      "𢦉": 6978,
      "𢫆": 6979,
      "𢫾": 6980,
      "𢬍": 6981,
      "𢱿": 6982,
      "𢴇": 6983,
      "𢶏": 6984,
      "𢷋": 6985,
      "𢺋": 6986,
      "𢼄": 6987,
      "𢾭": 6988,
      "𣁽": 6989,
      "𣃁": 6990,
      "𣄽": 6991,
      "𣆂": 6992,
      "𣇈": 6993,
      "𣇐": 6994,
      "𣈏": 6995,
      "𣈱": 6996,
      "𣈴": 6997,
      "𣉙": 6998,
      "𣊫": 6999,
      "𣊬": 7000,
      "𣊭": 7001,
      "𣌀": 7002,
      "𣎗": 7003,
      "𣏌": 7004,
      "𣏜": 7005,
      "𣏢": 7006,
      "𣏴": 7007,
      "𣐀": 7008,
      "𣐅": 7009,
      "𣐕": 7010,
      "𣐙": 7011,
      "𣑚": 7012,
      "𣑮": 7013,
      "𣒌": 7014,
      "𣒱": 7015,
      "𣓞": 7016,
      "𣔉": 7017,
      "𣔌": 7018,
      "𣔟": 7019,
      "𣔾": 7020,
      "𣗊": 7021,
      "𣗖": 7022,
      "𣗬": 7023,
      "𣗼": 7024,
      "𣘁": 7025,
      "𣘓": 7026,
      "𣚅": 7027,
      "𣚚": 7028,
      "𣚣": 7029,
      "𣚴": 7030,
      "𣛣": 7031,
      "𣛧": 7032,
      "𣛭": 7033,
      "𣛮": 7034,
      "𣜜": 7035,
      "𣜰": 7036,
      "𣞁": 7037,
      "𣡵": 7038,
      "𣡿": 7039,
      "𣦻": 7040,
      "𣨼": 7041,
      "𣫏": 7042,
      "𣬌": 7043,
      "𣮤": 7044,
      "𣲤": 7045,
      "𣲸": 7046,
      "𣳚": 7047,
      "𣳫": 7048,
      "𣴛": 7049,
      "𣵛": 7050,
      "𣵧": 7051,
      "𣵿": 7052,
      "𣶒": 7053,
      "𣶬": 7054,
      "𣷭": 7055,
      "𣷷": 7056,
      "𣺺": 7057,
      "𣻝": 7058,
      "𣻷": 7059,
      "𣼽": 7060,
      "𣽸": 7061,
      "𣾀": 7062,
      "𣿖": 7063,
      "𣿭": 7064,
      "𣿰": 7065,
      "𤀢": 7066,
      "𤀹": 7067,
      "𤁒": 7068,
      "𤁾": 7069,
      "𤂂": 7070,
      "𤂬": 7071,
      "𤃂": 7072,
      "𤅷": 7073,
      "𤆃": 7074,
      "𤆢": 7075,
      "𤆬": 7076,
      "𤇥": 7077,
      "𤇭": 7078,
      "𤇹": 7079,
      "𤇼": 7080,
      "𤈇": 7081,
      "𤈍": 7082,
      "𤈜": 7083,
      "𤈪": 7084,
      "𤉲": 7085,
      "𤉷": 7086,
      "𤉹": 7087,
      "𤊐": 7088,
      "𤊕": 7089,
      "𤊞": 7090,
      "𤊟": 7091,
      "𤊨": 7092,
      "𤊹": 7093,
      "𤋗": 7094,
      "𤋮": 7095,
      "𤌙": 7096,
      "𤍔": 7097,
      "𤍘": 7098,
      "𤍞": 7099,
      "𤍟": 7100,
      "𤎅": 7101,
      "𤏳": 7102,
      "𤏴": 7103,
      "𤐤": 7104,
      "𤐨": 7105,
      "𤑐": 7106,
      "𤒈": 7107,
      "𤒩": 7108,
      "𤒹": 7109,
      "𤓂": 7110,
      "𤓪": 7111,
      "𤔡": 7112,
      "𤕶": 7113,
      "𤖙": 7114,
      "𤗶": 7115,
      "𤘩": 7116,
      "𤞃": 7117,
      "𤞑": 7118,
      "𤞽": 7119,
      "𤟹": 7120,
      "𤠣": 7121,
      "𤣥": 7122,
      "𤣱": 7123,
      "𤣾": 7124,
      "𤤆": 7125,
      "𤤥": 7126,
      "𤤴": 7127,
      "𤥃": 7128,
      "𤥻": 7129,
      "𤦏": 7130,
      "𤦩": 7131,
      "𤦹": 7132,
      "𤧶": 7133,
      "𤧸": 7134,
      "𤨒": 7135,
      "𤨓": 7136,
      "𤨠": 7137,
      "𤨧": 7138,
      "𤨬": 7139,
      "𤩀": 7140,
      "𤩊": 7141,
      "𤩝": 7142,
      "𤩰": 7143,
      "𤩹": 7144,
      "𤪉": 7145,
      "𤪔": 7146,
      "𤪙": 7147,
      "𤪠": 7148,
      "𤪱": 7149,
      "𤫄": 7150,
      "𤫙": 7151,
      "𤬜": 7152,
      "𤭖": 7153,
      "𤯔": 7154,
      "𤯾": 7155,
      "𤰞": 7156,
      "𤶊": 7157,
      "𤷪": 7158,
      "𤺧": 7159,
      "𤻊": 7160,
      "𤾩": 7161,
      "𥄳": 7162,
      "𥇦": 7163,
      "𥐰": 7164,
      "𥑬": 7165,
      "𥑮": 7166,
      "𥒖": 7167,
      "𥒚": 7168,
      "𥒥": 7169,
      "𥒦": 7170,
      "𥒯": 7171,
      "𥓞": 7172,
      "𥔿": 7173,
      "𥕟": 7174,
      "𥗐": 7175,
      "𥘼": 7176,
      "𥙔": 7177,
      "𥙷": 7178,
      "𥚃": 7179,
      "𥚻": 7180,
      "𥛎": 7181,
      "𥜗": 7182,
      "𥟨": 7183,
      "𥠢": 7184,
      "𥤛": 7185,
      "𥨊": 7186,
      "𥩟": 7187,
      "𥪰": 7188,
      "𥮀": 7189,
      "𥯎": 7190,
      "𥯓": 7191,
      "𥲤": 7192,
      "𥳑": 7193,
      "𥴊": 7194,
      "𥸷": 7195,
      "𥺧": 7196,
      "𥺪": 7197,
      "𥻓": 7198,
      "𥻵": 7199,
      "𥻹": 7200,
      "𥾪": 7201,
      "𦀚": 7202,
      "𦀰": 7203,
      "𦃿": 7204,
      "𦅜": 7205,
      "𦅫": 7206,
      "𦇗": 7207,
      "𦊚": 7208,
      "𦋺": 7209,
      "𦍋": 7210,
      "𦍠": 7211,
      "𦎑": 7212,
      "𦎠": 7213,
      "𦎴": 7214,
      "𦐂": 7215,
      "𦒹": 7216,
      "𦓿": 7217,
      "𦔐": 7218,
      "𦖛": 7219,
      "𦘦": 7220,
      "𦙒": 7221,
      "𦛛": 7222,
      "𦣚": 7223,
      "𦤑": 7224,
      "𦦙": 7225,
      "𦨂": 7226,
      "𦬊": 7227,
      "𦬨": 7228,
      "𦬬": 7229,
      "𦭒": 7230,
      "𦮙": 7231,
      "𦰩": 7232,
      "𦵕": 7233,
      "𦶜": 7234,
      "𦶟": 7235,
      "𦷄": 7236,
      "𦹗": 7237,
      "𦹛": 7238,
      "𦹳": 7239,
      "𦻙": 7240,
      "𦼌": 7241,
      "𦾔": 7242,
      "𦾼": 7243,
      "𦿚": 7244,
      "𧁶": 7245,
      "𧃍": 7246,
      "𧃲": 7247,
      "𧃽": 7248,
      "𧈡": 7249,
      "𧈢": 7250,
      "𧈫": 7251,
      "𧉚": 7252,
      "𧊀": 7253,
      "𧊉": 7254,
      "𧊲": 7255,
      "𧎛": 7256,
      "𧎜": 7257,
      "𧏖": 7258,
      "𧏛": 7259,
      "𧏡": 7260,
      "𧐶": 7261,
      "𧑄": 7262,
      "𧓌": 7263,
      "𧔠": 7264,
      "𧔢": 7265,
      "𧖣": 7266,
      "𧗠": 7267,
      "𧗾": 7268,
      "𧘲": 7269,
      "𧘹": 7270,
      "𧙗": 7271,
      "𧚔": 7272,
      "𧝁": 7273,
      "𧞔": 7274,
      "𧟰": 7275,
      "𧦬": 7276,
      "𧩡": 7277,
      "𧫻": 7278,
      "𧭢": 7279,
      "𧯄": 7280,
      "𧯢": 7281,
      "𧰼": 7282,
      "𧴛": 7283,
      "𧵅": 7284,
      "𧵏": 7285,
      "𧵗": 7286,
      "𧶛": 7287,
      "𧶽": 7288,
      "𧷨": 7289,
      "𧷼": 7290,
      "𧹵": 7291,
      "𧹼": 7292,
      "𧺯": 7293,
      "𧼋": 7294,
      "𧽙": 7295,
      "𧽚": 7296,
      "𧾿": 7297,
      "𧿃": 7298,
      "𨀁": 7299,
      "𨂽": 7300,
      "𨃴": 7301,
      "𨄫": 7302,
      "𨈝": 7303,
      "𨈭": 7304,
      "𨋄": 7305,
      "𨐧": 7306,
      "𨑖": 7307,
      "𨑮": 7308,
      "𨑳": 7309,
      "𨕱": 7310,
      "𨚢": 7311,
      "𨚫": 7312,
      "𨛦": 7313,
      "𨜠": 7314,
      "𨝥": 7315,
      "𨞚": 7316,
      "𨟀": 7317,
      "𨟻": 7318,
      "𨠄": 7319,
      "𨣏": 7320,
      "𨤲": 7321,
      "𨤳": 7322,
      "𨤸": 7323,
      "𨥈": 7324,
      "𨥋": 7325,
      "𨥌": 7326,
      "𨥤": 7327,
      "𨥷": 7328,
      "𨦼": 7329,
      "𨧆": 7330,
      "𨧴": 7331,
      "𨨝": 7332,
      "𨨞": 7333,
      "𨨣": 7334,
      "𨨫": 7335,
      "𨫃": 7336,
      "𨫊": 7337,
      "𨫎": 7338,
      "𨫏": 7339,
      "𨫱": 7340,
      "𨫼": 7341,
      "𨬋": 7342,
      "𨮁": 7343,
      "𨮖": 7344,
      "𨮫": 7345,
      "𨯤": 7346,
      "𨯵": 7347,
      "𨰎": 7348,
      "𨰘": 7349,
      "𨱆": 7350,
      "𨲠": 7351,
      "𨲢": 7352,
      "𨳍": 7353,
      "𨳒": 7354,
      "𨴱": 7355,
      "𨸏": 7356,
      "𨻽": 7357,
      "𩀈": 7358,
      "𩃗": 7359,
      "𩃳": 7360,
      "𩄍": 7361,
      "𩆃": 7362,
      "𩆩": 7363,
      "𩇛": 7364,
      "𩍈": 7365,
      "𩑠": 7366,
      "𩒠": 7367,
      "𩖃": 7368,
      "𩘥": 7369,
      "𩙿": 7370,
      "𩚨": 7371,
      "𩛿": 7372,
      "𩜼": 7373,
      "𩡤": 7374,
      "𩨂": 7375,
      "𩫾": 7376,
      "𩰒": 7377,
      "𩳁": 7378,
      "𩵑": 7379,
      "𩶆": 7380,
      "𩶚": 7381,
      "𩶾": 7382,
      "𩸭": 7383,
      "𩸽": 7384,
      "𩹲": 7385,
      "𩹽": 7386,
      "𩺊": 7387,
      "𩺬": 7388,
      "𩻸": 7389,
      "𩼧": 7390,
      "𩿨": 7391,
      "𪀋": 7392,
      "𪁻": 7393,
      "𪆒": 7394,
      "𪇼": 7395,
      "𪈮": 7396,
      "𪊨": 7397,
      "𪊲": 7398,
      "𪎌": 7399,
      "𪒉": 7400,
      "𪓇": 7401,
      "𪔠": 7402,
      "𪕅": 7403,
      "𪘅": 7404,
      "𪘵": 7405,
      "𪚩": 7406,
      "𪜈": 7407,
      "𪜶": 7408,
      "𪠽": 7409,
      "𪡃": 7410,
      "𪡞": 7411,
      "𪢌": 7412,
      "𪢐": 7413,
      "𪢠": 7414,
      "𪣒": 7415,
      "𪣧": 7416,
      "𪤄": 7417,
      "𪤚": 7418,
      "𪥛": 7419,
      "𪥰": 7420,
      "𪨷": 7421,
      "𪩸": 7422,
      "𪪞": 7423,
      "𪪼": 7424,
      "𪫷": 7425,
      "𪫺": 7426,
      "𪬚": 7427,
      "𪬦": 7428,
      "𪭢": 7429,
      "𪭵": 7430,
      "𪮶": 7431,
      "𪰋": 7432,
      "𪱣": 7433,
      "𪱽": 7434,
      "𪲔": 7435,
      "𪲛": 7436,
      "𪲧": 7437,
      "𪲱": 7438,
      "𪳍": 7439,
      "𪳗": 7440,
      "𪴑": 7441,
      "𪴙": 7442,
      "𪶄": 7443,
      "𪶒": 7444,
      "𪷍": 7445,
      "𪸕": 7446,
      "𪸩": 7447,
      "𪹓": 7448,
      "𪹚": 7449,
      "𪹳": 7450,
      "𪻨": 7451,
      "𪻲": 7452,
      "𪻶": 7453,
      "𪻺": 7454,
      "𪼋": 7455,
      "𪽈": 7456,
      "𪾣": 7457,
      "𪿫": 7458,
      "𫀬": 7459,
      "𫂖": 7460,
      "𫄙": 7461,
      "𫄠": 7462,
      "𫄡": 7463,
      "𫄣": 7464,
      "𫄫": 7465,
      "𫄬": 7466,
      "𫄮": 7467,
      "𫄳": 7468,
      "𫄶": 7469,
      "𫅗": 7470,
      "𫆏": 7471,
      "𫇛": 7472,
      "𫇴": 7473,
      "𫈉": 7474,
      "𫈎": 7475,
      "𫈟": 7476,
      "𫈢": 7477,
      "𫈵": 7478,
      "𫈷": 7479,
      "𫉄": 7480,
      "𫊣": 7481,
      "𫊪": 7482,
      "𫊮": 7483,
      "𫊸": 7484,
      "𫊻": 7485,
      "𫋇": 7486,
      "𫋷": 7487,
      "𫋹": 7488,
      "𫋻": 7489,
      "𫍚": 7490,
      "𫍜": 7491,
      "𫍡": 7492,
      "𫍧": 7493,
      "𫍬": 7494,
      "𫍾": 7495,
      "𫎆": 7496,
      "𫎌": 7497,
      "𫎨": 7498,
      "𫎩": 7499,
      "𫏆": 7500,
      "𫐈": 7501,
      "𫐊": 7502,
      "𫐌": 7503,
      "𫐎": 7504,
      "𫐏": 7505,
      "𫐕": 7506,
      "𫐗": 7507,
      "𫐙": 7508,
      "𫑘": 7509,
      "𫑩": 7510,
      "𫑷": 7511,
      "𫒢": 7512,
      "𫓐": 7513,
      "𫓥": 7514,
      "𫓦": 7515,
      "𫓨": 7516,
      "𫓪": 7517,
      "𫓭": 7518,
      "𫓰": 7519,
      "𫓱": 7520,
      "𫓴": 7521,
      "𫓵": 7522,
      "𫓺": 7523,
      "𫓻": 7524,
      "𫓼": 7525,
      "𫓽": 7526,
      "𫓾": 7527,
      "𫓿": 7528,
      "𫔁": 7529,
      "𫔂": 7530,
      "𫔄": 7531,
      "𫔆": 7532,
      "𫔇": 7533,
      "𫔈": 7534,
      "𫔌": 7535,
      "𫔑": 7536,
      "𫔔": 7537,
      "𫔕": 7538,
      "𫔯": 7539,
      "𫔰": 7540,
      "𫕥": 7541,
      "𫖇": 7542,
      "𫖒": 7543,
      "𫖰": 7544,
      "𫖵": 7545,
      "𫖶": 7546,
      "𫗇": 7547,
      "𫗣": 7548,
      "𫗥": 7549,
      "𫗪": 7550,
      "𫗬": 7551,
      "𫗵": 7552,
      "𫘛": 7553,
      "𫘠": 7554,
      "𫘥": 7555,
      "𫘩": 7556,
      "𫘫": 7557,
      "𫘱": 7558,
      "𫙮": 7559,
      "𫚋": 7560,
      "𫚌": 7561,
      "𫚐": 7562,
      "𫚓": 7563,
      "𫚗": 7564,
      "𫚜": 7565,
      "𫚞": 7566,
      "𫚢": 7567,
      "𫚣": 7568,
      "𫚧": 7569,
      "𫚪": 7570,
      "𫚫": 7571,
      "𫛚": 7572,
      "𫛝": 7573,
      "𫛟": 7574,
      "𫛡": 7575,
      "𫛤": 7576,
      "𫛦": 7577,
      "𫛩": 7578,
      "𫛪": 7579,
      "𫛬": 7580,
      "𫛮": 7581,
      "𫛰": 7582,
      "𫛱": 7583,
      "𫛴": 7584,
      "𫛵": 7585,
      "𫜁": 7586,
      "𫜑": 7587,
      "𫜰": 7588,
      "𫝈": 7589,
      "𫝬": 7590,
      "𫝭": 7591,
      "𫝮": 7592,
      "𫝵": 7593,
      "𫝺": 7594,
      "𫞗": 7595,
      "𫞚": 7596,
      "𫞠": 7597,
      "𫞡": 7598,
      "𫞥": 7599,
      "𫞧": 7600,
      "𫞨": 7601,
      "𫟃": 7602,
      "𫟄": 7603,
      "𫟆": 7604,
      "𫟡": 7605,
      "𫟤": 7606,
      "𫟲": 7607,
      "𫟳": 7608,
      "𫟴": 7609,
      "𫟵": 7610,
      "𫟶": 7611,
      "𫟸": 7612,
      "𫟻": 7613,
      "𫟿": 7614,
      "𫠁": 7615,
      "𫠏": 7616,
      "𫠐": 7617,
      "𫠑": 7618,
      "𫠒": 7619,
      "𫧃": 7620,
      "𫪦": 7621,
      "𫮈": 7622,
      "𫯺": 7623,
      "𫲨": 7624,
      "𫷫": 7625,
      "𫾻": 7626,
      "𬃉": 7627,
      "𬄦": 7628,
      "𬇞": 7629,
      "𬉺": 7630,
      "𬊍": 7631,
      "𬋙": 7632,
      "𬋞": 7633,
      "𬓆": 7634,
      "𬓋": 7635,
      "𬓑": 7636,
      "𬜢": 7637,
      "𬜴": 7638,
      "𬥦": 7639,
      "𬩠": 7640,
      "𬫏": 7641,
      "𬬰": 7642,
      "𬭄": 7643,
      "𬭏": 7644,
      "𬭭": 7645,
      "𬲱": 7646,
      "𬸯": 7647,
      "𬻷": 7648,
      "𬼂": 7649,
      "𬾕": 7650,
      "𭁇": 7651,
      "𭄋": 7652,
      "𭅃": 7653,
      "𭈈": 7654,
      "𭍻": 7655,
      "𭎂": 7656,
      "𭏜": 7657,
      "𭑊": 7658,
      "𭑭": 7659,
      "𭚥": 7660,
      "𭤐": 7661,
      "𭤪": 7662,
      "𭥟": 7663,
      "𭨡": 7664,
      "𭫪": 7665,
      "𭮨": 7666,
      "𭱴": 7667,
      "𭳕": 7668,
      "𭴊": 7669,
      "𭴌": 7670,
      "𭹊": 7671,
      "𮄫": 7672,
      "𮓠": 7673,
      "𮔢": 7674,
      "𮡧": 7675,
      "𮡶": 7676,
      "𮢅": 7677,
      "𮥹": 7678,
      "𮨻": 7679,
      "𮳕": 7680,
      "𰇠": 7681,
      "𰉗": 7682,
      "𰉬": 7683,
      "𰊊": 7684,
      "𰊖": 7685,
      "𰊺": 7686,
      "𰋀": 7687,
      "𰋁": 7688,
      "𰋟": 7689,
      "𰍠": 7690,
      "𰎼": 7691,
      "𰐼": 7692,
      "𰑢": 7693,
      "𰘆": 7694,
      "𰘱": 7695,
      "𰚼": 7696,
      "𰛂": 7697,
      "𰛭": 7698,
      "𰜰": 7699,
      "𰝙": 7700,
      "𰝢": 7701,
      "𰝥": 7702,
      "𰞍": 7703,
      "𰞒": 7704,
      "𰞱": 7705,
      "𰟙": 7706,
      "𰡉": 7707,
      "𰡘": 7708,
      "𰢕": 7709,
      "𰥏": 7710,
      "𰫕": 7711,
      "𰬸": 7712,
      "𰯼": 7713,
      "𰰨": 7714,
      "𰰻": 7715,
      "𰱘": 7716,
      "𰲛": 7717,
      "𰵞": 7718,
      "𰵩": 7719,
      "𰶎": 7720,
      "𰹬": 7721,
      "𰼩": 7722,
      "𰽟": 7723,
      "𰽽": 7724,
      "𰾄": 7725,
      "𰾭": 7726,
      "𰿓": 7727,
      "𱀵": 7728,
      "𱁬": 7729,
      "𱉐": 7730,
      "𱉻": 7731,
      "𱉼": 7732,
      "𱊊": 7733,
      "𱑲": 7734,
      "𱔽": 7735,
      "𱖹": 7736,
      "𱟛": 7737,
      "𱤰": 7738,
      "𱭵": 7739,
      "𱭶": 7740,
      "𱯞": 7741,
      "𱴑": 7742,
      "𱵄": 7743,
      "𱹀": 7744,
      "𲉖": 7745,
      "𲐤": 7746,
      "𲚏": 7747,
      "񭫮": 7748,
      "󠁢": 7749,
      "󠁣": 7750,
      "󠁥": 7751,
      "󠁧": 7752,
      "󠁬": 7753,
      "󠁮": 7754,
      "󠁳": 7755,
      "󠁴": 7756,
      "󠁵": 7757,
      "󠁷": 7758,
      "󠁸": 7759,
      "󠁿": 7760,
      "󠄀": 7761,
      "󠄁": 7762,
      "󠄂": 7763,
      "󰒄": 7764,
      "󰡔": 7765,
      "󰡕": 7766,
      "􏰂": 7767,
      "ng": 7768,
      "an": 7769,
      "sh": 7770,
      "zh": 7771,
      "ji": 7772,
      "ang": 7773,
      "ong": 7774,
      "xi": 7775,
      "ao": 7776,
      "ai": 7777,
      "de": 7778,
      "ei": 7779,
      "shi": 7780,
      "yu": 7781,
      "ou": 7782,
      "en": 7783,
      "yi": 7784,
      "ch": 7785,
      "ian": 7786,
      "uo": 7787,
      "eng": 7788,
      "li": 7789,
      "ing": 7790,
      "ui": 7791,
      "wei": 7792,
      "uan": 7793,
      "zhi": 7794,
      "qi": 7795,
      "nian": 7796,
      "zhong": 7797,
      "you": 7798,
      "un": 7799,
      "ren": 7800,
      "zai": 7801,
      "di": 7802,
      "guo": 7803,
      "he": 7804,
      "bu": 7805,
      "er": 7806,
      "xing": 7807,
      "cheng": 7808,
      "da": 7809,
      "zhu": 7810,
      "hu": 7811,
      "yuan": 7812,
      "jian": 7813,
      "gong": 7814,
      "si": 7815,
      "yue": 7816,
      "fu": 7817,
      "xian": 7818,
      "ge": 7819,
      "ue": 7820,
      "wu": 7821,
      "chu": 7822,
      "sheng": 7823,
      "shu": 7824,
      "jia": 7825,
      "jie": 7826,
      "bi": 7827,
      "dao": 7828,
      "ke": 7829,
      "zi": 7830,
      "xiang": 7831,
      "hui": 7832,
      "bei": 7833,
      "fa": 7834,
      "qu": 7835,
      "ti": 7836,
      "zheng": 7837,
      "ta": 7838,
      "20": 7839,
      "jin": 7840,
      "tong": 7841,
      "ming": 7842,
      "jing": 7843,
      "ju": 7844,
      "mi": 7845,
      "ri": 7846,
      "le": 7847,
      "hou": 7848,
      "shang": 7849,
      "dong": 7850,
      "shou": 7851,
      "fang": 7852,
      "ci": 7853,
      "hua": 7854,
      "yin": 7855,
      "19": 7856,
      "ying": 7857,
      "zuo": 7858,
      "zhe": 7859,
      "ye": 7860,
      "zhan": 7861,
      "xue": 7862,
      "yan": 7863,
      "xin": 7864,
      "mei": 7865,
      "guan": 7866,
      "jiao": 7867,
      "lu": 7868,
      "chang": 7869,
      "bing": 7870,
      "bao": 7871,
      "dui": 7872,
      "gu": 7873,
      "dan": 7874,
      "jiang": 7875,
      "fen": 7876,
      "huo": 7877,
      "du": 7878,
      "xiao": 7879,
      "qian": 7880,
      "dian": 7881,
      "jun": 7882,
      "yong": 7883,
      "tai": 7884,
      "xia": 7885,
      "she": 7886,
      "zhang": 7887,
      "wen": 7888,
      "mu": 7889,
      "gai": 7890,
      "liang": 7891,
      "dai": 7892,
      "zhou": 7893,
      "hai": 7894,
      "ya": 7895,
      "ru": 7896,
      "wang": 7897,
      "zu": 7898,
      "dang": 7899,
      "lai": 7900,
      "ban": 7901,
      "jiu": 7902,
      "qing": 7903,
      "ping": 7904,
      "shen": 7905,
      "ling": 7906,
      "wan": 7907,
      "lian": 7908,
      "luo": 7909,
      "pi": 7910,
      "duo": 7911,
      "bo": 7912,
      "te": 7913,
      "ben": 7914,
      "nan": 7915,
      "suo": 7916,
      "biao": 7917,
      "gao": 7918,
      "yang": 7919,
      "kai": 7920,
      "yao": 7921,
      "xu": 7922,
      "bian": 7923,
      "deng": 7924,
      "ma": 7925,
      "xie": 7926,
      "la": 7927,
      "zhen": 7928,
      "quan": 7929,
      "ding": 7930,
      "mian": 7931,
      "zui": 7932,
      "ba": 7933,
      "liu": 7934,
      "qiu": 7935,
      "min": 7936,
      "sai": 7937,
      "fan": 7938,
      "xuan": 7939,
      "che": 7940,
      "fei": 7941,
      "shan": 7942,
      "zong": 7943,
      "men": 7944,
      "su": 7945,
      "hao": 7946,
      "lei": 7947,
      "tu": 7948,
      "ni": 7949,
      "tian": 7950,
      "san": 7951,
      "yun": 7952,
      "feng": 7953,
      "201": 7954,
      "nei": 7955,
      "mo": 7956,
      "lan": 7957,
      "lv": 7958,
      "ze": 7959,
      "kou": 7960,
      "lin": 7961,
      "wai": 7962,
      "chuan": 7963,
      "chi": 7964,
      "jue": 7965,
      "200": 7966,
      "pai": 7967,
      "ku": 7968,
      "yige": 7969,
      "bai": 7970,
      "cai": 7971,
      "zao": 7972,
      "ting": 7973,
      "han": 7974,
      "zhuan": 7975,
      "sui": 7976,
      "guang": 7977,
      "lun": 7978,
      "lie": 7979,
      "gang": 7980,
      "gui": 7981,
      "ceng": 7982,
      "kong": 7983,
      "na": 7984,
      "10": 7985,
      "cha": 7986,
      "zhuang": 7987,
      "shui": 7988,
      "pu": 7989,
      "chao": 7990,
      "tou": 7991,
      "dou": 7992,
      "can": 7993,
      "ran": 7994,
      "duan": 7995,
      "zhongguo": 7996,
      "se": 7997,
      "huan": 7998,
      "ce": 7999,
      "pin": 8000,
      "cun": 8001,
      "chan": 8002,
      "cong": 8003,
      "xun": 8004,
      "meiguo": 8005,
      "00": 8006,
      "neng": 8007,
      "gou": 8008,
      "zhao": 8009,
      "chong": 8010,
      "tan": 8011,
      "chengwei": 8012,
      "man": 8013,
      "18": 8014,
      "sha": 8015,
      "qiang": 8016,
      "nv": 8017,
      "renkou": 8018,
      "huang": 8019,
      "qin": 8020,
      "hang": 8021,
      "tiao": 8022,
      "weiyu": 8023,
      "meng": 8024,
      "12": 8025,
      "shao": 8026,
      "gan": 8027,
      "tuan": 8028,
      "ka": 8029,
      "xiu": 8030,
      "kuo": 8031,
      "pian": 8032,
      "long": 8033,
      "shuo": 8034,
      "tang": 8035,
      "rong": 8036,
      "202": 8037,
      "geng": 8038,
      "bang": 8039,
      "gen": 8040,
      "tie": 8041,
      "chen": 8042,
      "tui": 8043,
      "liao": 8044,
      "que": 8045,
      "wo": 8046,
      "11": 8047,
      "po": 8048,
      "zhengfu": 8049,
      "qie": 8050,
      "yiji": 8051,
      "shiyong": 8052,
      "chuang": 8053,
      "pei": 8054,
      "199": 8055,
      "hong": 8056,
      "re": 8057,
      "bie": 8058,
      "tao": 8059,
      "lishi": 8060,
      "daxue": 8061,
      "shijian": 8062,
      "tuo": 8063,
      "song": 8064,
      "mai": 8065,
      "tamen": 8066,
      "diqu": 8067,
      "guojia": 8068,
      "kaishi": 8069,
      "wa": 8070,
      "baokuo": 8071,
      "riben": 8072,
      "dun": 8073,
      "jinxing": 8074,
      "diao": 8075,
      "lang": 8076,
      "15": 8077,
      "bufen": 8078,
      "keyi": 8079,
      "qiao": 8080,
      "mao": 8081,
      "gongli": 8082,
      "pingfang": 8083,
      "pan": 8084,
      "kan": 8085,
      "qizhong": 8086,
      "sa": 8087,
      "kang": 8088,
      "ken": 8089,
      "ha": 8090,
      "diyi": 8091,
      "shijie": 8092,
      "xianggang": 8093,
      "gongsi": 8094,
      "zeng": 8095,
      "lao": 8096,
      "hen": 8097,
      "or": 8098,
      "huode": 8099,
      "16": 8100,
      "mianji": 8101,
      "renwei": 8102,
      "198": 8103,
      "shiji": 8104,
      "yanjiu": 8105,
      "zhuyao": 8106,
      "taiwan": 8107,
      "xiong": 8108,
      "qita": 8109,
      "kao": 8110,
      "17": 8111,
      "yizhi": 8112,
      "meiyou": 8113,
      "on": 8114,
      "zhengzhi": 8115,
      "kuang": 8116,
      "dier": 8117,
      "hun": 8118,
      "weiyuan": 8119,
      "miao": 8120,
      "youyu": 8121,
      "daibiao": 8122,
      "14": 8123,
      "yundong": 8124,
      "faguo": 8125,
      "30": 8126,
      "suan": 8127,
      "tongshi": 8128,
      "reng": 8129,
      "zhun": 8130,
      "yiyuan": 8131,
      "dianying": 8132,
      "zuowei": 8133,
      "sheji": 8134,
      "cao": 8135,
      "gongzuo": 8136,
      "qun": 8137,
      "zhongxin": 8138,
      "guoji": 8139,
      "zhiyi": 8140,
      "yinci": 8141,
      "194": 8142,
      "biaoshi": 8143,
      "13": 8144,
      "shizhen": 8145,
      "yinwei": 8146,
      "zhonghua": 8147,
      "shiqi": 8148,
      "kuai": 8149,
      "danren": 8150,
      "197": 8151,
      "keneng": 8152,
      "xitong": 8153,
      "zhengshi": 8154,
      "zhuyi": 8155,
      "dangshi": 8156,
      "zhihou": 8157,
      "heng": 8158,
      "shuang": 8159,
      "lou": 8160,
      "ziji": 8161,
      "chengshi": 8162,
      "qijian": 8163,
      "yingguo": 8164,
      "piao": 8165,
      "chezhan": 8166,
      "rang": 8167,
      "tongguo": 8168,
      "heguo": 8169,
      "zuzhi": 8170,
      "195": 8171,
      "xingzheng": 8172,
      "nong": 8173,
      "sen": 8174,
      "chun": 8175,
      "dianshi": 8176,
      "genju": 8177,
      "yizhong": 8178,
      "xueyuan": 8179,
      "gei": 8180,
      "chengli": 8181,
      "fazhan": 8182,
      "yingxiang": 8183,
      "zou": 8184,
      "25": 8185,
      "196": 8186,
      "jingji": 8187,
      "shuyu": 8188,
      "kuan": 8189,
      "hei": 8190,
      "faxian": 8191,
      "nuo": 8192,
      "zha": 8193,
      "jianzhu": 8194,
      "shehui": 8195,
      "bin": 8196,
      "liya": 8197,
      "sun": 8198,
      "beijing": 8199,
      "renwu": 8200,
      "cang": 8201,
      "youxi": 8202,
      "pao": 8203,
      "zhexie": 8204,
      "renmin": 8205,
      "ershi": 8206,
      "sang": 8207,
      "zhongyang": 8208,
      "canjia": 8209,
      "niu": 8210,
      "butong": 8211,
      "wenhua": 8212,
      "jihua": 8213,
      "yinyue": 8214,
      "tielu": 8215,
      "bisai": 8216,
      "weiyuanhui": 8217,
      "pingfanggongli": 8218,
      "luosi": 8219,
      "renming": 8220,
      "rui": 8221,
      "pa": 8222,
      "guanli": 8223,
      "tigong": 8224,
      "yishi": 8225,
      "24": 8226,
      "chuxian": 8227,
      "huodong": 8228,
      "niandai": 8229,
      "zhijian": 8230,
      "zuopin": 8231,
      "peng": 8232,
      "anguo": 8233,
      "suoyou": 8234,
      "mou": 8235,
      "fasheng": 8236,
      "for": 8237,
      "zuizhong": 8238,
      "xuexiao": 8239,
      "21": 8240,
      "huai": 8241,
      "zhidao": 8242,
      "yixie": 8243,
      "193": 8244,
      "jiaoyu": 8245,
      "houlai": 8246,
      "deguo": 8247,
      "ning": 8248,
      "23": 8249,
      "dangdi": 8250,
      "chengyuan": 8251,
      "zhege": 8252,
      "wenti": 8253,
      "jinru": 8254,
      "28": 8255,
      "zuihou": 8256,
      "fuze": 8257,
      "faxing": 8258,
      "zan": 8259,
      "juxing": 8260,
      "zhizuo": 8261,
      "shishi": 8262,
      "zhichi": 8263,
      "22": 8264,
      "xuduo": 8265,
      "ruo": 8266,
      "quanguo": 8267,
      "xianshi": 8268,
      "chou": 8269,
      "fuwu": 8270,
      "zhui": 8271,
      "me": 8272,
      "shiwu": 8273,
      "yijing": 8274,
      "mula": 8275,
      "shun": 8276,
      "beibu": 8277,
      "jishu": 8278,
      "ar": 8279,
      "shenghuo": 8280,
      "26": 8281,
      "canyu": 8282,
      "yiwei": 8283,
      "xuanbu": 8284,
      "in": 8285,
      "shanghai": 8286,
      "formula": 8287,
      "zhanzheng": 8288,
      "2020": 8289,
      "27": 8290,
      "disan": 8291,
      "difang": 8292,
      "50": 8293,
      "tongnian": 8294,
      "zhongyao": 8295,
      "qianmi": 8296,
      "shoudao": 8297,
      "dili": 8298,
      "xingshi": 8299,
      "guanxi": 8300,
      "jueding": 8301,
      "yishu": 8302,
      "fangmian": 8303,
      "jianli": 8304,
      "eluosi": 8305,
      "liangge": 8306,
      "000": 8307,
      "zhai": 8308,
      "zhishi": 8309,
      "jiaru": 8310,
      "2010": 8311,
      "shiyan": 8312,
      "za": 8313,
      "29": 8314,
      "ongheguo": 8315,
      "weizhi": 8316,
      "lve": 8317,
      "2019": 8318,
      "yiming": 8319,
      "baohu": 8320,
      "yici": 8321,
      "zhuanji": 8322,
      "zongtong": 8323,
      "kun": 8324,
      "renmingongheguo": 8325,
      "ro": 8326,
      "huiyi": 8327,
      "jiemu": 8328,
      "xuesheng": 8329,
      "fenbie": 8330,
      "muqian": 8331,
      "minguo": 8332,
      "ziyou": 8333,
      "pingfangqianmi": 8334,
      "xilie": 8335,
      "jieshou": 8336,
      "cui": 8337,
      "gongcheng": 8338,
      "zuqiu": 8339,
      "xuejia": 8340,
      "juan": 8341,
      "ra": 8342,
      "fenbu": 8343,
      "wancheng": 8344,
      "yiban": 8345,
      "weile": 8346,
      "jier": 8347,
      "ouzhou": 8348,
      "st": 8349,
      "lieche": 8350,
      "guanjun": 8351,
      "zang": 8352,
      "qianwang": 8353,
      "yaoqiu": 8354,
      "daozhi": 8355,
      "xuyao": 8356,
      "chenggong": 8357,
      "sheyou": 8358,
      "jilu": 8359,
      "duli": 8360,
      "nai": 8361,
      "2018": 8362,
      "laizi": 8363,
      "shengping": 8364,
      "zhonghuarenmingongheguo": 8365,
      "yindu": 8366,
      "danwei": 8367,
      "2016": 8368,
      "zucheng": 8369,
      "luan": 8370,
      "liru": 8371,
      "raner": 8372,
      "fangshi": 8373,
      "xiangguan": 8374,
      "nu": 8375,
      "zuigao": 8376,
      "tongyi": 8377,
      "cuo": 8378,
      "renyuan": 8379,
      "qingkuang": 8380,
      "zhiwu": 8381,
      "xuanju": 8382,
      "tongchang": 8383,
      "shuai": 8384,
      "dali": 8385,
      "gongyuan": 8386,
      "caiyong": 8387,
      "yongyou": 8388,
      "dalu": 8389,
      "cunzai": 8390,
      "2021": 8391,
      "danshi": 8392,
      "suiran": 8393,
      "shiwei": 8394,
      "xiaoshi": 8395,
      "shiqu": 8396,
      "haiba": 8397,
      "2017": 8398,
      "midu": 8399,
      "kaifa": 8400,
      "ne": 8401,
      "jiaotong": 8402,
      "shengyu": 8403,
      "hezuo": 8404,
      "xingcheng": 8405,
      "2011": 8406,
      "bingqie": 8407,
      "40": 8408,
      "jiushi": 8409,
      "gongyou": 8410,
      "guomin": 8411,
      "dedao": 8412,
      "yiqi": 8413,
      "tichu": 8414,
      "2014": 8415,
      "2015": 8416,
      "kui": 8417,
      "cu": 8418,
      "2013": 8419,
      "tongzhi": 8420,
      "site": 8421,
      "2012": 8422,
      "shuji": 8423,
      "2022": 8424,
      "lt": 8425,
      "yibu": 8426,
      "dadao": 8427,
      "lianmeng": 8428,
      "yixia": 8429,
      "chuban": 8430,
      "chansheng": 8431,
      "shouci": 8432,
      "shidai": 8433,
      "yushi": 8434,
      "qihou": 8435,
      "tebie": 8436,
      "zhezhong": 8437,
      "juyou": 8438,
      "jiegou": 8439,
      "lianhe": 8440,
      "jituan": 8441,
      "shengchan": 8442,
      "shuju": 8443,
      "fujin": 8444,
      "gushi": 8445,
      "ciwai": 8446,
      "rou": 8447,
      "kelan": 8448,
      "jixu": 8449,
      "junshi": 8450,
      "aer": 8451,
      "biye": 8452,
      "ruan": 8453,
      "gequ": 8454,
      "budui": 8455,
      "jieshu": 8456,
      "zhuxi": 8457,
      "zhonggong": 8458,
      "2009": 8459,
      "bushi": 8460,
      "xiya": 8461,
      "juese": 8462,
      "qiudui": 8463,
      "xiangmu": 8464,
      "kongzhi": 8465,
      "fanying": 8466,
      "yuyan": 8467,
      "2008": 8468,
      "weier": 8469,
      "xingxing": 8470,
      "tuichu": 8471,
      "geren": 8472,
      "quyu": 8473,
      "gaodu": 8474,
      "shiyi": 8475,
      "renhe": 8476,
      "60": 8477,
      "minzhu": 8478,
      "disi": 8479,
      "kesi": 8480,
      "rao": 8481,
      "yisi": 8482,
      "renkoumidu": 8483,
      "yongyu": 8484,
      "liansai": 8485,
      "zhihui": 8486,
      "fabu": 8487,
      "xingdong": 8488,
      "leisi": 8489,
      "al": 8490,
      "wufa": 8491,
      "die": 8492,
      "qude": 8493,
      "jiqi": 8494,
      "niao": 8495,
      "zhujiao": 8496,
      "zengjia": 8497,
      "zhuo": 8498,
      "haijun": 8499,
      "lingdao": 8500,
      "zuida": 8501,
      "yizuo": 8502,
      "qishi": 8503,
      "jigou": 8504,
      "jiancheng": 8505,
      "diguo": 8506,
      "co": 8507,
      "wukelan": 8508,
      "renshi": 8509,
      "jieguo": 8510,
      "gt": 8511,
      "zaocheng": 8512,
      "chaoguo": 8513,
      "sou": 8514,
      "chai": 8515,
      "lisi": 8516,
      "dongwu": 8517,
      "suihou": 8518,
      "nanbu": 8519,
      "hanguo": 8520,
      "zhiyou": 8521,
      "jinian": 8522,
      "zhixing": 8523,
      "yazhou": 8524,
      "yali": 8525,
      "pang": 8526,
      "zhichu": 8527,
      "lingwai": 8528,
      "xuexi": 8529,
      "31": 8530,
      "2023": 8531,
      "jichang": 8532,
      "chuantong": 8533,
      "yilai": 8534,
      "zhiqian": 8535,
      "buguo": 8536,
      "100": 8537,
      "gongji": 8538,
      "mingming": 8539,
      "hangkong": 8540,
      "diaocha": 8541,
      "xinwen": 8542,
      "duiyu": 8543,
      "mingcheng": 8544,
      "jingguo": 8545,
      "meiti": 8546,
      "2007": 8547,
      "fanwei": 8548,
      "190": 8549,
      "fayuan": 8550,
      "nvxing": 8551,
      "teng": 8552,
      "zhiye": 8553,
      "guocheng": 8554,
      "2001": 8555,
      "80": 8556,
      "shuliang": 8557,
      "chongxin": 8558,
      "pingjun": 8559,
      "nanzi": 8560,
      "yihui": 8561,
      "kexue": 8562,
      "yidali": 8563,
      "gaibian": 8564,
      "zaici": 8565,
      "juli": 8566,
      "jumin": 8567,
      "jiyu": 8568,
      "fuqin": 8569,
      "2006": 8570,
      "xiban": 8571,
      "fabiao": 8572,
      "shichang": 8573,
      "fou": 8574,
      "chuangzuo": 8575,
      "suoyi": 8576,
      "lianjie": 8577,
      "ongsi": 8578,
      "neirong": 8579,
      "shier": 8580,
      "anquan": 8581,
      "weiyi": 8582,
      "jianshe": 8583,
      "zhijie": 8584,
      "2000": 8585,
      "jishi": 8586,
      "fo": 8587,
      "jinshi": 8588,
      "ruguo": 8589,
      "biaozhun": 8590,
      "xibanya": 8591,
      "yundongyuan": 8592,
      "shengji": 8593,
      "sheli": 8594,
      "nvzi": 8595,
      "meiyuan": 8596,
      "huanjing": 8597,
      "geming": 8598,
      "shenzhi": 8599,
      "zun": 8600,
      "fandui": 8601,
      "shengwu": 8602,
      "zhuren": 8603,
      "sulian": 8604,
      "2024": 8605,
      "cishi": 8606,
      "banben": 8607,
      "jingnei": 8608,
      "zizhi": 8609,
      "gonglu": 8610,
      "xiandai": 8611,
      "gongtong": 8612,
      "tion": 8613,
      "daliang": 8614,
      "jundui": 8615,
      "nao": 8616,
      "zheshi": 8617,
      "jiazu": 8618,
      "qushi": 8619,
      "youguan": 8620,
      "70": 8621,
      "xinan": 8622,
      "lianbang": 8623,
      "yanchang": 8624,
      "jingli": 8625,
      "donghua": 8626,
      "gelan": 8627,
      "gongkai": 8628,
      "yanyuan": 8629,
      "jiaoshou": 8630,
      "2005": 8631,
      "juban": 8632,
      "saishi": 8633,
      "chuli": 8634,
      "gaiwei": 8635,
      "minzu": 8636,
      "guanyu": 8637,
      "zhiyuan": 8638,
      "feichang": 8639,
      "mang": 8640,
      "chule": 8641,
      "xuanze": 8642,
      "jichu": 8643,
      "women": 8644,
      "gongye": 8645,
      "ziliao": 8646,
      "tun": 8647,
      "taibei": 8648,
      "haiyou": 8649,
      "zhonghuaminguo": 8650,
      "90": 8651,
      "baohan": 8652,
      "shengya": 8653,
      "mie": 8654,
      "35": 8655,
      "yinian": 8656,
      "qiye": 8657,
      "shiren": 8658,
      "xiehui": 8659,
      "gongchan": 8660,
      "sike": 8661,
      "tiyu": 8662,
      "xianzai": 8663,
      "rizhi": 8664,
      "jiezhi": 8665,
      "bianma": 8666,
      "bashi": 8667,
      "youshi": 8668,
      "kua": 8669,
      "jiating": 8670,
      "bixu": 8671,
      "leng": 8672,
      "liyong": 8673,
      "baodao": 8674,
      "of": 8675,
      "zuijia": 8676,
      "the": 8677,
      "chengji": 8678,
      "wanquan": 8679,
      "gaosu": 8680,
      "nianjian": 8681,
      "guanxia": 8682,
      "zhuti": 8683,
      "sannian": 8684,
      "lo": 8685,
      "gongbu": 8686,
      "duoshu": 8687,
      "ter": 8688,
      "zhengce": 8689,
      "gua": 8690,
      "xiaoshuo": 8691,
      "xingwei": 8692,
      "baogao": 8693,
      "buzhang": 8694,
      "zhongxue": 8695,
      "zhujian": 8696,
      "fangfa": 8697,
      "sheshi": 8698,
      "falv": 8699,
      "luoma": 8700,
      "jiana": 8701,
      "jinguan": 8702,
      "zhandou": 8703,
      "yuanyin": 8704,
      "dangzhong": 8705,
      "gaidi": 8706,
      "shenfen": 8707,
      "juesai": 8708,
      "wuzhong": 8709,
      "renlei": 8710,
      "dabufen": 8711,
      "boshi": 8712,
      "ziran": 8713,
      "dianzi": 8714,
      "bun": 8715,
      "yinhang": 8716,
      "ala": 8717,
      "shangye": 8718,
      "xuanqu": 8719,
      "jieshi": 8720,
      "am": 8721,
      "wuguan": 8722,
      "siwang": 8723,
      "xianzhi": 8724,
      "dongbu": 8725,
      "dongbei": 8726,
      "shixing": 8727,
      "dishi": 8728,
      "shanxi": 8729,
      "2004": 8730,
      "dahui": 8731,
      "qiyu": 8732,
      "wuli": 8733,
      "sange": 8734,
      "zhuming": 8735,
      "yanzhong": 8736,
      "guanfang": 8737,
      "dashi": 8738,
      "guangdong": 8739,
      "yibufen": 8740,
      "yijia": 8741,
      "xiwang": 8742,
      "bochu": 8743,
      "gonggong": 8744,
      "gaiguo": 8745,
      "tuanti": 8746,
      "zuichu": 8747,
      "fenwei": 8748,
      "jiben": 8749,
      "yanchu": 8750,
      "zaoqi": 8751,
      "lizi": 8752,
      "pucha": 8753,
      "45": 8754,
      "zhizao": 8755,
      "biaoxian": 8756,
      "jiangjun": 8757,
      "paishe": 8758,
      "quanli": 8759,
      "xibu": 8760,
      "shili": 8761,
      "luxian": 8762,
      "redai": 8763,
      "shengfen": 8764,
      "lilun": 8765,
      "th": 8766,
      "suoshu": 8767,
      "zuoyong": 8768,
      "quanqiu": 8769,
      "to": 8770,
      "chaoxian": 8771,
      "wenxue": 8772,
      "guimo": 8773,
      "wenwu": 8774,
      "weng": 8775,
      "likai": 8776,
      "guowang": 8777,
      "xialing": 8778,
      "jibai": 8779,
      "huifu": 8780,
      "jianyu": 8781,
      "gongneng": 8782,
      "sanshi": 8783,
      "youxiang": 8784,
      "zongjiao": 8785,
      "haibagaodu": 8786,
      "miaoshu": 8787,
      "jianada": 8788,
      "yiyang": 8789,
      "48": 8790,
      "jiefang": 8791,
      "aier": 8792,
      "nenggou": 8793,
      "xueming": 8794,
      "jisuan": 8795,
      "waijiao": 8796,
      "nengli": 8797,
      "shengming": 8798,
      "meizhou": 8799,
      "kongjian": 8800,
      "dixia": 8801,
      "yishang": 8802,
      "chuyu": 8803,
      "yuehan": 8804,
      "fangxiang": 8805,
      "jidu": 8806,
      "dongji": 8807,
      "dongjing": 8808,
      "zhuchi": 8809,
      "lifa": 8810,
      "niya": 8811,
      "zhengyi": 8812,
      "daqu": 8813,
      "erzi": 8814,
      "ve": 8815,
      "moshi": 8816,
      "zhili": 8817,
      "chixu": 8818,
      "riqi": 8819,
      "touguo": 8820,
      "yingyong": 8821,
      "zhanshi": 8822,
      "jizhong": 8823,
      "shandong": 8824,
      "jiancha": 8825,
      "xinxi": 8826,
      "tudi": 8827,
      "xingzhengqu": 8828,
      "hebing": 8829,
      "daxing": 8830,
      "jianyi": 8831,
      "guangzhou": 8832,
      "mudi": 8833,
      "wuqi": 8834,
      "2025": 8835,
      "buneng": 8836,
      "jianzhi": 8837,
      "shequ": 8838,
      "guangbo": 8839,
      "chengdu": 8840,
      "feiji": 8841,
      "uni": 8842,
      "jierang": 8843,
      "shihou": 8844,
      "sinian": 8845,
      "2003": 8846,
      "shixian": 8847,
      "guiding": 8848,
      "36": 8849,
      "mubiao": 8850,
      "niuyue": 8851,
      "zhiming": 8852,
      "yuanshi": 8853,
      "cengjing": 8854,
      "huaxue": 8855,
      "paiming": 8856,
      "zhuanye": 8857,
      "shide": 8858,
      "menggu": 8859,
      "jiechu": 8860,
      "malai": 8861,
      "sitan": 8862,
      "nie": 8863,
      "qiuyuan": 8864,
      "jiedao": 8865,
      "xila": 8866,
      "taiyang": 8867,
      "chui": 8868,
      "shezhi": 8869,
      "ll": 8870,
      "jiaohui": 8871,
      "haoxian": 8872,
      "dongnan": 8873,
      "xiaxia": 8874,
      "gongchandang": 8875,
      "dangxuan": 8876,
      "bolan": 8877,
      "youxiangongsi": 8878,
      "gezhong": 8879,
      "yundonghui": 8880,
      "chengren": 8881,
      "xiaoxingxing": 8882,
      "bianhua": 8883,
      "danqu": 8884,
      "zhejiang": 8885,
      "rengran": 8886,
      "diwei": 8887,
      "wushi": 8888,
      "chanpin": 8889,
      "saiji": 8890,
      "renkoupucha": 8891,
      "Ma": 8892,
      "keji": 8893,
      "shizhang": 8894,
      "38": 8895,
      "xiangdang": 8896,
      "wuxian": 8897,
      "fengge": 8898,
      "buhui": 8899,
      "diyici": 8900,
      "erqie": 8901,
      "37": 8902,
      "lujun": 8903,
      "xiangtong": 8904,
      "jihui": 8905,
      "xibei": 8906,
      "taiping": 8907,
      "wuyuan": 8908,
      "jizai": 8909,
      "liangren": 8910,
      "jinbiao": 8911,
      "haishi": 8912,
      "daolu": 8913,
      "jingying": 8914,
      "zhongshi": 8915,
      "keng": 8916,
      "jieduan": 8917,
      "bingyu": 8918,
      "bangong": 8919,
      "weiqi": 8920,
      "zhiding": 8921,
      "pen": 8922,
      "yichang": 8923,
      "2002": 8924,
      "yijian": 8925,
      "xiaji": 8926,
      "189": 8927,
      "Co": 8928,
      "guihua": 8929,
      "xunlian": 8930,
      "yuetai": 8931,
      "bowuguan": 8932,
      "bali": 8933,
      "mingwei": 8934,
      "wangluo": 8935,
      "xingqi": 8936,
      "musi": 8937,
      "xibao": 8938,
      "qizi": 8939,
      "shuiyu": 8940,
      "ca": 8941,
      "mali": 8942,
      "kaifang": 8943,
      "IN": 8944,
      "niandu": 8945,
      "dingyi": 8946,
      "muqin": 8947,
      "jiwei": 8948,
      "guohui": 8949,
      "do": 8950,
      "yinqi": 8951,
      "uang": 8952,
      "iya": 8953,
      "siling": 8954,
      "enan": 8955,
      "jianzao": 8956,
      "liuxing": 8957,
      "yidong": 8958,
      "jidi": 8959,
      "touzi": 8960,
      "ck": 8961,
      "piping": 8962,
      "zaodao": 8963,
      "yitiao": 8964,
      "jizhe": 8965,
      "34": 8966,
      "zhixian": 8967,
      "aoyun": 8968,
      "xiangshi": 8969,
      "75": 8970,
      "qingnian": 8971,
      "yike": 8972,
      "zhidu": 8973,
      "shengli": 8974,
      "fujian": 8975,
      "baofa": 8976,
      "zheyi": 8977,
      "nanjing": 8978,
      "guidao": 8979,
      "nanxing": 8980,
      "jule": 8981,
      "daoyan": 8982,
      "TC": 8983,
      "zheyang": 8984,
      "tongji": 8985,
      "bumen": 8986,
      "dianli": 8987,
      "julebu": 8988,
      "weizhu": 8989,
      "xuezhe": 8990,
      "zhenqu": 8991,
      "aomen": 8992,
      "yiren": 8993,
      "gaige": 8994,
      "ersi": 8995,
      "bujiu": 8996,
      "youqi": 8997,
      "bangzhu": 8998,
      "1990": 8999,
      "fenzhong": 9000,
      "renzhi": 9001,
      "like": 9002,
      "zhizhi": 9003,
      "yixiang": 9004,
      "changqi": 9005,
      "yuenan": 9006,
      "youji": 9007,
      "33": 9008,
      "dayue": 9009,
      "jijin": 9010,
      "pinglun": 9011,
      "diqi": 9012,
      "zhineng": 9013,
      "xiangdui": 9014,
      "jingcha": 9015,
      "dazhan": 9016,
      "lundun": 9017,
      "cihou": 9018,
      "gongshi": 9019,
      "chengqu": 9020,
      "..": 9021,
      "chusheng": 9022,
      "shizi": 9023,
      "yingyu": 9024,
      "diwu": 9025,
      "jinji": 9026,
      "pike": 9027,
      "sudu": 9028,
      "sichuan": 9029,
      "weilai": 9030,
      "siji": 9031,
      "neibu": 9032,
      "wanjia": 9033,
      "shiye": 9034,
      "lingyu": 9035,
      "zhongdian": 9036,
      "zhengge": 9037,
      "gongheguo": 9038,
      "55": 9039,
      "yingde": 9040,
      "quanbu": 9041,
      "mingzi": 9042,
      "qiche": 9043,
      "yiju": 9044,
      "shangshu": 9045,
      "guanyuan": 9046,
      "yidai": 9047,
      "pingtai": 9048,
      "renmen": 9049,
      "zige": 9050,
      "baochi": 9051,
      "shengcheng": 9052,
      "32": 9053,
      "shoudu": 9054,
      "xianhou": 9055,
      "zhongbu": 9056,
      "zhijin": 9057,
      "meinian": 9058,
      "lasi": 9059,
      "46": 9060,
      "lianxu": 9061,
      "churen": 9062,
      "39": 9063,
      "ziyuan": 9064,
      "dierci": 9065,
      "manhua": 9066,
      "henduo": 9067,
      "duoge": 9068,
      "zazhi": 9069,
      "aolin": 9070,
      "dianshitai": 9071,
      "shitu": 9072,
      "fenxi": 9073,
      "diqiu": 9074,
      "zuochu": 9075,
      "qixi": 9076,
      "biaoyan": 9077,
      "jingchang": 9078,
      "weisheng": 9079,
      "zongrenkou": 9080,
      "tongyang": 9081,
      "fenzi": 9082,
      "juzhu": 9083,
      "zuojia": 9084,
      "duoci": 9085,
      "haomi": 9086,
      "jujue": 9087,
      "tiaojian": 9088,
      "juqing": 9089,
      "dacheng": 9090,
      "cheliang": 9091,
      "yingpian": 9092,
      "ga": 9093,
      "pingjia": 9094,
      "beier": 9095,
      "tezheng": 9096,
      "waer": 9097,
      "yiwai": 9098,
      "ranhou": 9099,
      "gongchi": 9100,
      "ditie": 9101,
      "jiaoyi": 9102,
      "wangzhan": 9103,
      "zhanyi": 9104,
      "zhiwei": 9105,
      "be": 9106,
      "keli": 9107,
      "yuanzi": 9108,
      "xuewei": 9109,
      "jiaoshi": 9110,
      "jianshao": 9111,
      "huozhe": 9112,
      "maoyi": 9113,
      "fenlei": 9114,
      "1999": 9115,
      "feixing": 9116,
      "yiding": 9117,
      "xiezhu": 9118,
      "65": 9119,
      "yuanzhu": 9120,
      "xianlu": 9121,
      "qundao": 9122,
      "putao": 9123,
      "huidao": 9124,
      "zhuli": 9125,
      "47": 9126,
      "xiji": 9127,
      "yewu": 9128,
      "meige": 9129,
      "1980": 9130,
      "lianxi": 9131,
      "1998": 9132,
      "SE": 9133,
      "jihu": 9134,
      "qudai": 9135,
      "jinshu": 9136,
      "zhengquan": 9137,
      "henan": 9138,
      "leixing": 9139,
      "shebei": 9140,
      "xuanchuan": 9141,
      "changpian": 9142,
      "biancheng": 9143,
      "yiyi": 9144,
      "shuguan": 9145,
      "guangchang": 9146,
      "youxian": 9147,
      "zuizao": 9148,
      "jinbiaosai": 9149,
      "yuannian": 9150,
      "guoqu": 9151,
      "zonghe": 9152,
      "The": 9153,
      "bandao": 9154,
      "helan": 9155,
      "zhuangtai": 9156,
      "is": 9157,
      "biya": 9158,
      "xieyi": 9159,
      "geshou": 9160,
      "chuqi": 9161,
      "jinzhi": 9162,
      "guji": 9163,
      "youcheng": 9164,
      "zhankai": 9165,
      "zhanling": 9166,
      "jung": 9167,
      "zuoyou": 9168,
      "huangdi": 9169,
      "zhujue": 9170,
      "ertong": 9171,
      "fashe": 9172,
      "bili": 9173,
      "yuang": 9174,
      "aolinpike": 9175,
      "guanzhong": 9176,
      "zuozhan": 9177,
      "weiji": 9178,
      "zongmianji": 9179,
      "jiche": 9180,
      "zhifu": 9181,
      "jiaotang": 9182,
      "500": 9183,
      "saier": 9184,
      "zhiliao": 9185,
      "jiazhi": 9186,
      "188": 9187,
      "yunxing": 9188,
      "nongye": 9189,
      "cansai": 9190,
      "beng": 9191,
      "el": 9192,
      "jiguan": 9193,
      "guangfan": 9194,
      "oo": 9195,
      "xiju": 9196,
      "In": 9197,
      "zhunbei": 9198,
      "xingjian": 9199,
      "ST": 9200,
      "shengzhang": 9201,
      "yingwen": 9202,
      "zhoushi": 9203,
      "liuyu": 9204,
      "linshi": 9205,
      "weineng": 9206,
      "dizhi": 9207,
      "gedi": 9208,
      "ernian": 9209,
      "pindao": 9210,
      "gelei": 9211,
      "UTC": 9212,
      "1997": 9213,
      "bote": 9214,
      "yunshu": 9215,
      "tianzhujiao": 9216,
      "zhongwen": 9217,
      "shipin": 9218,
      "jingong": 9219,
      "youtai": 9220,
      "xinjia": 9221,
      "es": 9222,
      "bijiao": 9223,
      "49": 9224,
      "mingchao": 9225,
      "xuanshou": 9226,
      "geli": 9227,
      "daduoshu": 9228,
      "diyige": 9229,
      "fangan": 9230,
      "gainian": 9231,
      "zuhe": 9232,
      "boli": 9233,
      "youzheng": 9234,
      "zixun": 9235,
      "huoshi": 9236,
      "laiyuan": 9237,
      "deyi": 9238,
      "queding": 9239,
      "ludi": 9240,
      "bingli": 9241,
      "yuanben": 9242,
      "br": 9243,
      "jiali": 9244,
      "lier": 9245,
      "et": 9246,
      "jinyibu": 9247,
      "jicheng": 9248,
      "youren": 9249,
      "chengzhen": 9250,
      "jiaoqu": 9251,
      "malaixiya": 9252,
      "xianfa": 9253,
      "liunian": 9254,
      "xinjiapo": 9255,
      "shouji": 9256,
      "tiaoyue": 9257,
      "dafu": 9258,
      "lvyou": 9259,
      "xiongdi": 9260,
      "zhiwai": 9261,
      "64": 9262,
      "ceshi": 9263,
      "jiashang": 9264,
      "zhixia": 9265,
      "vi": 9266,
      "guomindang": 9267,
      "fanhui": 9268,
      "juji": 9269,
      "wending": 9270,
      "dalou": 9271,
      "bingdu": 9272,
      "guonei": 9273,
      "zhendui": 9274,
      "1996": 9275,
      "yule": 9276,
      "wangguo": 9277,
      "yunying": 9278,
      "fuli": 9279,
      "tianwen": 9280,
      "tingzhi": 9281,
      "jiejue": 9282,
      "dengji": 9283,
      "gun": 9284,
      "zhimin": 9285,
      "kongjun": 9286,
      "wuzhi": 9287,
      "gaozhong": 9288,
      "II": 9289,
      "pohuai": 9290,
      "yinfa": 9291,
      "jiehe": 9292,
      "fuhe": 9293,
      "shangying": 9294,
      "zhengming": 9295,
      "zhongzhi": 9296,
      "zixing": 9297,
      "shangwu": 9298,
      "shifou": 9299,
      "toupiao": 9300,
      "weichi": 9301,
      "qingchao": 9302,
      "fangzhi": 9303,
      "yiliao": 9304,
      "yiqian": 9305,
      "yinggelan": 9306,
      "taipingyang": 9307,
      "gaoji": 9308,
      "68": 9309,
      "heping": 9310,
      "bushao": 9311,
      "jingshen": 9312,
      "yuansu": 9313,
      "nianqing": 9314,
      "mingdan": 9315,
      "buzai": 9316,
      "jiandui": 9317,
      "zhicheng": 9318,
      "44": 9319,
      "zhengdang": 9320,
      "daliya": 9321,
      "nver": 9322,
      "guai": 9323,
      "suizhe": 9324,
      "yihou": 9325,
      "putong": 9326,
      "mier": 9327,
      "kaer": 9328,
      "yiduan": 9329,
      "gandao": 9330,
      "shifen": 9331,
      "huangjia": 9332,
      "sixiang": 9333,
      "hi": 9334,
      "jianjie": 9335,
      "xianjin": 9336,
      "diyu": 9337,
      "baxi": 9338,
      "xiaoxue": 9339,
      "zhengzai": 9340,
      "weilian": 9341,
      "58": 9342,
      "diliu": 9343,
      "buluo": 9344,
      "zongli": 9345,
      "yanghua": 9346,
      "renkoushuliang": 9347,
      "liliang": 9348,
      "yise": 9349,
      "chushen": 9350,
      "tiedao": 9351,
      "bianhao": 9352,
      "guoli": 9353,
      "ss": 9354,
      "shouru": 9355,
      "shuangfang": 9356,
      "sao": 9357,
      "yili": 9358,
      "shouge": 9359,
      "weiya": 9360,
      "buduan": 9361,
      "zhiyu": 9362,
      "chaoji": 9363,
      "Re": 9364,
      "yanjiusuo": 9365,
      "1992": 9366,
      "chengxu": 9367,
      "yonghu": 9368,
      "xianwei": 9369,
      "pizhun": 9370,
      "1994": 9371,
      "mishu": 9372,
      "jiangsu": 9373,
      "cengren": 9374,
      "gengming": 9375,
      "guofang": 9376,
      "keer": 9377,
      "qilai": 9378,
      "chanye": 9379,
      "yisheng": 9380,
      "youxiao": 9381,
      "qixia": 9382,
      "yunnan": 9383,
      "hexin": 9384,
      "yitong": 9385,
      "shaonian": 9386,
      "youyi": 9387,
      "wenwubaohu": 9388,
      "and": 9389,
      "aodaliya": 9390,
      "dianshiju": 9391,
      "qixiang": 9392,
      "zhuyan": 9393,
      "quxiao": 9394,
      "renshu": 9395,
      "sishi": 9396,
      "1995": 9397,
      "suizhu": 9398,
      "wuzhuang": 9399,
      "tuer": 9400,
      "jiefangjun": 9401,
      "youming": 9402,
      "youxie": 9403,
      "xiaozu": 9404,
      "shangwei": 9405,
      "taolun": 9406,
      "wanren": 9407,
      "chongjian": 9408,
      "congshi": 9409,
      "78": 9410,
      "jiage": 9411,
      "gongren": 9412,
      "yiselie": 9413,
      "chongtu": 9414,
      "hunan": 9415,
      "qiyi": 9416,
      "baoliu": 9417,
      "hanshu": 9418,
      "mingxian": 9419,
      "wunian": 9420,
      "jiashi": 9421,
      "weihui": 9422,
      "erde": 9423,
      "yixi": 9424,
      "76": 9425,
      "wenjian": 9426,
      "gongchang": 9427,
      "daxi": 9428,
      "xianren": 9429,
      "gongmin": 9430,
      "xiawu": 9431,
      "kuaisu": 9432,
      "ganran": 9433,
      "1950": 9434,
      "fengbao": 9435,
      "zhishao": 9436,
      "rijun": 9437,
      "zongbu": 9438,
      "ruxia": 9439,
      "timing": 9440,
      "yaoqing": 9441,
      "keda": 9442,
      "yunxu": 9443,
      "siren": 9444,
      "yimin": 9445,
      "shenqing": 9446,
      "yifu": 9447,
      "tiaozheng": 9448,
      "yuqi": 9449,
      "wangchao": 9450,
      "zhuzuo": 9451,
      "300": 9452,
      "gongxian": 9453,
      "99": 9454,
      "touru": 9455,
      "1993": 9456,
      "jiji": 9457,
      "weisi": 9458,
      "jiejin": 9459,
      "lishuyu": 9460,
      "yuetuan": 9461,
      "minzhong": 9462,
      "cailiao": 9463,
      "aolinpikeyundonghui": 9464,
      "fadong": 9465,
      "huashi": 9466,
      "yidu": 9467,
      "dehua": 9468,
      "shoulu": 9469,
      "feizhou": 9470,
      "ty": 9471,
      "jiankang": 9472,
      "ali": 9473,
      "bingwei": 9474,
      "Mi": 9475,
      "wenzhang": 9476,
      "xiaoshou": 9477,
      "xingzhengquhua": 9478,
      "wuren": 9479,
      "lianheguo": 9480,
      "shibing": 9481,
      "56": 9482,
      "42": 9483,
      "suozai": 9484,
      "Li": 9485,
      "77": 9486,
      "zidong": 9487,
      "gongfen": 9488,
      "haian": 9489,
      "1991": 9490,
      "1970": 9491,
      "moxi": 9492,
      "tuandui": 9493,
      "gaodeng": 9494,
      "lake": 9495,
      "ande": 9496,
      "dongli": 9497,
      "kaolv": 9498,
      "weishi": 9499,
      "caizheng": 9500,
      "guanzhu": 9501,
      "changjian": 9502,
      "fun": 9503,
      "chengxian": 9504,
      "guanzhi": 9505,
      "jiangxi": 9506,
      "shijiedazhan": 9507,
      "zufu": 9508,
      "qiyong": 9509,
      "yiner": 9510,
      "jingfang": 9511,
      "paichu": 9512,
      "xianchang": 9513,
      "fengxian": 9514,
      "qiaozhi": 9515,
      "xiaoli": 9516,
      "1945": 9517,
      "hewu": 9518,
      "zaidu": 9519,
      "shouyu": 9520,
      "anpai": 9521,
      "chulai": 9522,
      "jiehun": 9523,
      "daji": 9524,
      "xiaoxi": 9525,
      "pe": 9526,
      "fangwen": 9527,
      "kecheng": 9528,
      "furen": 9529,
      "run": 9530,
      "dida": 9531,
      "yinggai": 9532,
      "nuli": 9533,
      "mingling": 9534,
      "teshu": 9535,
      "buzu": 9536,
      "rengong": 9537,
      "jiudu": 9538,
      "59": 9539,
      "shoushang": 9540,
      "shuofa": 9541,
      "moxing": 9542,
      "dushi": 9543,
      "yixue": 9544,
      "xinzeng": 9545,
      "yiti": 9546,
      "guancha": 9547,
      "fenzhi": 9548,
      "xifang": 9549,
      "fojiao": 9550,
      "jieke": 9551,
      "chuangli": 9552,
      "chuanbo": 9553,
      "zizhiqu": 9554,
      "weixing": 9555,
      "1949": 9556,
      "xingzhi": 9557,
      "falan": 9558,
      "zhengju": 9559,
      "yilang": 9560,
      "wenming": 9561,
      "zhongguogongchandang": 9562,
      "1988": 9563,
      "gongzhong": 9564,
      "tushuguan": 9565,
      "xialai": 9566,
      "dongshi": 9567,
      "diya": 9568,
      "66": 9569,
      "1960": 9570,
      "xiangsi": 9571,
      "dachen": 9572,
      "zhuzhang": 9573,
      "jiaoliu": 9574,
      "xianxiang": 9575,
      "haizi": 9576,
      "at": 9577,
      "yizhang": 9578,
      "aosi": 9579,
      "yuanxing": 9580,
      "xinli": 9581,
      "anjian": 9582,
      "daoshi": 9583,
      "AT": 9584,
      "Ro": 9585,
      "deli": 9586,
      "rongyu": 9587,
      "renminzhengfu": 9588,
      "kandao": 9589,
      "zhizi": 9590,
      "changshi": 9591,
      "liewei": 9592,
      "nali": 9593,
      "jige": 9594,
      "qiuchang": 9595,
      "benzhan": 9596,
      "tigao": 9597,
      "ruqin": 9598,
      "keluo": 9599,
      "yange": 9600,
      "shuzi": 9601,
      "yulei": 9602,
      "tisheng": 9603,
      "zhongguorenmin": 9604,
      "daoda": 9605,
      "tianjin": 9606,
      "xiaozhang": 9607,
      "houxuan": 9608,
      "diannao": 9609,
      "bangongshi": 9610,
      "sige": 9611,
      "banian": 9612,
      "taiguo": 9613,
      "43": 9614,
      "houzhe": 9615,
      "suiji": 9616,
      "chukou": 9617,
      "didian": 9618,
      "gaiming": 9619,
      "shenti": 9620,
      "57": 9621,
      "shizhong": 9622,
      "chuangban": 9623,
      "zaonian": 9624,
      "shinian": 9625,
      "ruci": 9626,
      "diantai": 9627,
      "yinsu": 9628,
      "dimian": 9629,
      "alabo": 9630,
      "goucheng": 9631,
      "liyi": 9632,
      "juren": 9633,
      "liren": 9634,
      "xingtai": 9635,
      "1989": 9636,
      "dongxi": 9637,
      "danbai": 9638,
      "qianshu": 9639,
      "youzhengbianma": 9640,
      "hengxing": 9641,
      "41": 9642,
      "zuobiao": 9643,
      "liangzhong": 9644,
      "dailai": 9645,
      "shaoshu": 9646,
      "yingyun": 9647,
      "biaoming": 9648,
      "pengyou": 9649,
      "duode": 9650,
      "conger": 9651,
      "shibai": 9652,
      "duozhong": 9653,
      "jingdian": 9654,
      "xueshu": 9655,
      "tixi": 9656,
      "bianji": 9657,
      "69": 9658,
      "chexiao": 9659,
      "jizhi": 9660,
      "zongdu": 9661,
      "SEE": 9662,
      "88": 9663,
      "fachu": 9664,
      "shanmai": 9665,
      "yonglai": 9666,
      "faqi": 9667,
      "bimian": 9668,
      "TV": 9669,
      "zhoubian": 9670,
      "rukou": 9671,
      "pingmian": 9672,
      "dizhen": 9673,
      "bujin": 9674,
      "ruidian": 9675,
      "jieji": 9676,
      "putaoya": 9677,
      "zhiliang": 9678,
      "zhaokai": 9679,
      "shangshi": 9680,
      "pubian": 9681,
      "fadian": 9682,
      "weixie": 9683,
      "bide": 9684,
      "duonian": 9685,
      "liji": 9686,
      "wanglu": 9687,
      "yuanzhang": 9688,
      "NA": 9689,
      "xinhao": 9690,
      "SA": 9691,
      "67": 9692,
      "zhuangkuang": 9693,
      "suidao": 9694,
      "zijin": 9695,
      "yisilan": 9696,
      "caozuo": 9697,
      "ho": 9698,
      "tiaozhan": 9699,
      "tongxing": 9700,
      "beimei": 9701,
      "zhenshi": 9702,
      "zheli": 9703,
      "shuiping": 9704,
      "aodili": 9705,
      "haiyu": 9706,
      "yaowu": 9707,
      "shichu": 9708,
      "quanmian": 9709,
      "shifan": 9710,
      "kefu": 9711,
      "zimu": 9712,
      "biaoda": 9713,
      "qia": 9714,
      "quanzhang": 9715,
      "laishuo": 9716,
      "jixie": 9717,
      "dangnian": 9718,
      "buke": 9719,
      "mouxie": 9720,
      "bianjie": 9721,
      "INSEE": 9722,
      "huanying": 9723,
      "chongqing": 9724,
      "buli": 9725,
      "ct": 9726,
      "jiunian": 9727,
      "zheci": 9728,
      "Me": 9729,
      "bofang": 9730,
      "zhizhong": 9731,
      "shoufu": 9732,
      "dajiang": 9733,
      "nanbei": 9734,
      "dangju": 9735,
      "xijie": 9736,
      "zengzhang": 9737,
      "ruishi": 9738,
      "chuzhan": 9739,
      "gege": 9740,
      "shengwei": 9741,
      "xinjiang": 9742,
      "caiqu": 9743,
      "1984": 9744,
      "yanshen": 9745,
      "niandi": 9746,
      "shiyu": 9747,
      "duishou": 9748,
      "biaomian": 9749,
      "52": 9750,
      "79": 9751,
      "yiqing": 9752,
      "shenme": 9753,
      "keyun": 9754,
      "bingfei": 9755,
      "moer": 9756,
      "51": 9757,
      "denglu": 9758,
      "buming": 9759,
      "yingli": 9760,
      "jingzheng": 9761,
      "moxige": 9762,
      "zhongjian": 9763,
      "zhushi": 9764,
      "zhengti": 9765,
      "zhuchang": 9766,
      "minzhudang": 9767,
      "chuxi": 9768,
      "waiguo": 9769,
      "bude": 9770,
      "cuoshi": 9771,
      "baise": 9772,
      "jiudian": 9773,
      "kangyi": 9774,
      "yousuo": 9775,
      "yixilie": 9776,
      "nanji": 9777,
      "hebei": 9778,
      "zhongshan": 9779,
      "1985": 9780,
      "lvke": 9781,
      "minjian": 9782,
      "hongse": 9783,
      "shimin": 9784,
      "pingfangmi": 9785,
      "yingji": 9786,
      "wenzi": 9787,
      "qiong": 9788,
      "guanggao": 9789,
      "fuyi": 9790,
      "xialingshi": 9791,
      "teding": 9792,
      "ws": 9793,
      "yangshi": 9794,
      "xiyin": 9795,
      "xianxing": 9796,
      "jinrong": 9797,
      "wanli": 9798,
      "xunsu": 9799,
      "fanyi": 9800,
      "yinqing": 9801,
      "boluo": 9802,
      "tuidong": 9803,
      "gonghui": 9804,
      "qiuji": 9805,
      "niang": 9806,
      "xiaoxing": 9807,
      "lvshi": 9808,
      "yumao": 9809,
      "quefa": 9810,
      "ruxuan": 9811,
      "haer": 9812,
      "chuangzao": 9813,
      "guandian": 9814,
      "daxiyang": 9815,
      "wi": 9816,
      "maer": 9817,
      "zujian": 9818,
      "feilv": 9819,
      "qiangdiao": 9820,
      "ver": 9821,
      "shiti": 9822,
      "54": 9823,
      "haiyang": 9824,
      "62": 9825,
      "jisi": 9826,
      "guize": 9827,
      "nd": 9828,
      "chengzuo": 9829,
      "lanqiu": 9830,
      "1986": 9831,
      "zainei": 9832,
      "jidujiao": 9833,
      "meili": 9834,
      "xinyang": 9835,
      "yichu": 9836,
      "fangqi": 9837,
      "zhishu": 9838,
      "zhongda": 9839,
      "jihe": 9840,
      "gaoxiong": 9841,
      "zhongyu": 9842,
      "tuiyi": 9843,
      "boer": 9844,
      "zhaodao": 9845,
      "chengke": 9846,
      "heliu": 9847,
      "houqi": 9848,
      "yuji": 9849,
      "jinpai": 9850,
      "chufa": 9851,
      "jieshao": 9852,
      "anzhuang": 9853,
      "wanmeiyuan": 9854,
      "gongzhu": 9855,
      "yifen": 9856,
      "shizhi": 9857,
      "guowuyuan": 9858,
      "jingyan": 9859,
      "1987": 9860,
      "mingzhi": 9861,
      "qiyuan": 9862,
      "wutai": 9863,
      "bulu": 9864,
      "ry": 9865,
      "cankao": 9866,
      "53": 9867,
      "benshen": 9868,
      "qianshen": 9869,
      "aozhou": 9870,
      "shouxian": 9871,
      "fushi": 9872,
      "queren": 9873,
      "qianglie": 9874,
      "jibing": 9875,
      "ber": 9876,
      "pinpai": 9877,
      "zuozhe": 9878,
      "yuzhou": 9879,
      "hecheng": 9880,
      "jiangxiang": 9881,
      "senlin": 9882,
      "feilvbin": 9883,
      "heyue": 9884,
      "xihuan": 9885,
      "houxuanren": 9886,
      "zhanhou": 9887,
      "gh": 9888,
      "nianchu": 9889,
      "sunshi": 9890,
      "liushi": 9891,
      "as": 9892,
      "huasheng": 9893,
      "neige": 9894,
      "goumai": 9895,
      "sake": 9896,
      "leiji": 9897,
      "laidao": 9898,
      "xiaoguo": 9899,
      "zizhu": 9900,
      "lishu": 9901,
      "fuza": 9902,
      "tiji": 9903,
      "yuedui": 9904,
      "wanyuan": 9905,
      "nang": 9906,
      "ouyuan": 9907,
      "xinxing": 9908,
      "tainan": 9909,
      "zishen": 9910,
      "150": 9911,
      "jiance": 9912,
      "yiyu": 9913,
      "400": 9914,
      "quezhen": 9915,
      "shijishang": 9916,
      "bentu": 9917,
      "guwen": 9918,
      "tizhang": 9919,
      "riyu": 9920,
      "tese": 9921,
      "wanzheng": 9922,
      "yibian": 9923,
      "hubei": 9924,
      "72": 9925,
      "per": 9926,
      "dongfang": 9927,
      "shigu": 9928,
      "xuqiu": 9929,
      "xiansheng": 9930,
      "shenjing": 9931,
      "jiandan": 9932,
      "BA": 9933,
      "fumu": 9934,
      "nanfang": 9935,
      "lading": 9936,
      "duiwu": 9937,
      "shuxue": 9938,
      "daguimo": 9939,
      "wenxian": 9940,
      "faan": 9941,
      "rongyi": 9942,
      "zhongzi": 9943,
      "ts": 9944,
      "zhuangzhi": 9945,
      "beiqi": 9946,
      "shiyou": 9947,
      "ruhe": 9948,
      "juda": 9949,
      "haiwai": 9950,
      "anhui": 9951,
      "taifeng": 9952,
      "make": 9953,
      "61": 9954,
      "aierlan": 9955,
      "gufen": 9956,
      "lingxiu": 9957,
      "dazhi": 9958,
      "1982": 9959,
      "gongju": 9960,
      "renqi": 9961,
      "gelun": 9962,
      "fuyu": 9963,
      "Vi": 9964,
      "shoushi": 9965,
      "shengtai": 9966,
      "yingshi": 9967,
      "tidao": 9968,
      "shuoshi": 9969,
      "zhuanyi": 9970,
      "dawei": 9971,
      "lingtu": 9972,
      "no": 9973,
      "ena": 9974,
      "lafu": 9975,
      "gaizao": 9976,
      "chuanshuo": 9977,
      "banfa": 9978,
      "jieti": 9979,
      "98": 9980,
      "zhengzhuang": 9981,
      "fi": 9982,
      "zhengchang": 9983,
      "shuailing": 9984,
      "hunhe": 9985,
      "1983": 9986,
      "xinren": 9987,
      "haidao": 9988,
      "guangxu": 9989,
      "Mo": 9990,
      "wuhan": 9991,
      "huiying": 9992,
      "youli": 9993,
      "xier": 9994,
      "peihe": 9995,
      "baoli": 9996,
      "nisi": 9997,
      "xiangbi": 9998,
      "baowei": 9999,
      "CD": 10000,
      "liangnian": 10001,
      "cunzhuang": 10002,
      "xingxiang": 10003,
      "shangren": 10004,
      "71": 10005,
      "zhiliu": 10006,
      "xiongyali": 10007,
      "xingqu": 10008,
      "yingxiong": 10009,
      "ercheng": 10010,
      "guangxi": 10011,
      "De": 10012,
      "jiayi": 10013,
      "renda": 10014,
      "kaitong": 10015,
      "63": 10016,
      "fashou": 10017,
      "jingxuan": 10018,
      "anzhao": 10019,
      "yuanxian": 10020,
      "beipo": 10021,
      "yanshi": 10022,
      "jiangdi": 10023,
      "amp": 10024,
      "huanzhe": 10025,
      "zhuzhai": 10026,
      "jiyi": 10027,
      "guanbi": 10028,
      "zhuanjia": 10029,
      "juzhang": 10030,
      "jiaowei": 10031,
      "Win": 10032,
      "fuluo": 10033,
      "xiangzheng": 10034,
      "chuangjian": 10035,
      "buman": 10036,
      "ciji": 10037,
      "youyong": 10038,
      "xuehui": 10039,
      "jiaoxue": 10040,
      "gengjia": 10041,
      "didi": 10042,
      "jiulong": 10043,
      "jiaren": 10044,
      "wanshang": 10045,
      "zhongzu": 10046,
      "bolin": 10047,
      "yiyou": 10048,
      "jiren": 10049,
      "shidi": 10050,
      "sanjiao": 10051,
      "maike": 10052,
      "liebiao": 10053,
      "180": 10054,
      "gongying": 10055,
      "shehuizhuyi": 10056,
      "xiangji": 10057,
      "daxiao": 10058,
      "wuzi": 10059,
      "gaicheng": 10060,
      "shifang": 10061,
      "1979": 10062,
      "jiyin": 10063,
      "zhuanmen": 10064,
      "kuoda": 10065,
      "Sta": 10066,
      "lijie": 10067,
      "xizang": 10068,
      "zuan": 10069,
      "shougou": 10070,
      "gonghe": 10071,
      "weixian": 10072,
      "biaozhi": 10073,
      "fanzui": 10074,
      "weili": 10075,
      "juti": 10076,
      "xiajiang": 10077,
      "feichu": 10078,
      "zhouwei": 10079,
      "73": 10080,
      "yingchi": 10081,
      "ol": 10082,
      "mingyi": 10083,
      "yinshi": 10084,
      "jianren": 10085,
      "zhongduo": 10086,
      "shijiebei": 10087,
      "luofu": 10088,
      "chayi": 10089,
      "74": 10090,
      "dazhong": 10091,
      "chengben": 10092,
      "fushu": 10093,
      "guangdongsheng": 10094,
      "La": 10095,
      "guli": 10096,
      "caineng": 10097,
      "piaofang": 10098,
      "You": 10099,
      "gudai": 10100,
      "xiwei": 10101,
      "aiji": 10102,
      "guojiadui": 10103,
      "huayuan": 10104,
      "zhonggongzhongyang": 10105,
      "zhounian": 10106,
      "manzu": 10107,
      "feili": 10108,
      "qingqiu": 10109,
      "guoshi": 10110,
      "huishi": 10111,
      "shouwei": 10112,
      "qidong": 10113,
      "jinnian": 10114,
      "qianlong": 10115,
      "baozhang": 10116,
      "bingru": 10117,
      "fugai": 10118,
      "tuerqi": 10119,
      "yiwu": 10120,
      "fayu": 10121,
      "zuoqu": 10122,
      "mimi": 10123,
      "yuangong": 10124,
      "meijun": 10125,
      "daban": 10126,
      "shuru": 10127,
      "Pa": 10128,
      "sili": 10129,
      "kaishe": 10130,
      "cici": 10131,
      "bulai": 10132,
      "jiaolian": 10133,
      "chengbao": 10134,
      "gaishan": 10135,
      "shua": 10136,
      "gaosugonglu": 10137,
      "qibing": 10138,
      "95": 10139,
      "lvxing": 10140,
      "guding": 10141,
      "baocun": 10142,
      "shige": 10143,
      "1978": 10144,
      "shengren": 10145,
      "bosi": 10146,
      "shiyinwei": 10147,
      "zhongyi": 10148,
      "seng": 10149,
      "chushi": 10150,
      "miandui": 10151,
      "fangyu": 10152,
      "zhuangjia": 10153,
      "gaoyu": 10154,
      "eryan": 10155,
      "shexian": 10156,
      "canmou": 10157,
      "naxie": 10158,
      "aoyunhui": 10159,
      "wendu": 10160,
      "shijia": 10161,
      "jiandu": 10162,
      "budao": 10163,
      "lingshi": 10164,
      "shishang": 10165,
      "heise": 10166,
      "OS": 10167,
      "yisuo": 10168,
      "canyiyuan": 10169,
      "biande": 10170,
      "zhanlve": 10171,
      "yiqie": 10172,
      "touxiang": 10173,
      "changdu": 10174,
      "zhantai": 10175,
      "jinri": 10176,
      "tongche": 10177,
      "mala": 10178,
      "nuowei": 10179,
      "fuzhi": 10180,
      "yanjiuyuan": 10181,
      "dongzuo": 10182,
      "yalishan": 10183,
      "zhexue": 10184,
      "shizheng": 10185,
      "suowei": 10186,
      "qingbao": 10187,
      "zaiyu": 10188,
      "fuhao": 10189,
      "fuqiyu": 10190,
      "dezhi": 10191,
      "kaizhan": 10192,
      "xunhui": 10193,
      "taikong": 10194,
      "yunzuo": 10195,
      "yichan": 10196,
      "luoman": 10197,
      "henkuai": 10198,
      "henda": 10199,
      "funi": 10200,
      "kelisi": 10201,
      "lichang": 10202,
      "dasha": 10203,
      "chuyan": 10204,
      "dongbeibu": 10205,
      "zhikong": 10206,
      "baoluo": 10207,
      "yimeiyuan": 10208,
      "haixia": 10209,
      "dianhua": 10210,
      "linjin": 10211,
      "zhongxing": 10212,
      "geer": 10213,
      "zhongyou": 10214,
      "jiaji": 10215,
      "jixing": 10216,
      "Wi": 10217,
      "saer": 10218,
      "duiying": 10219,
      "bubing": 10220,
      "fangwu": 10221,
      "huaren": 10222,
      "diba": 10223,
      "tongdao": 10224,
      "yuanming": 10225,
      "1946": 10226,
      "lingyi": 10227,
      "ruanjian": 10228,
      "yingye": 10229,
      "shinei": 10230,
      "bianju": 10231,
      "bula": 10232,
      "yimei": 10233,
      "lingxian": 10234,
      "huanghou": 10235,
      "shanqu": 10236,
      "xiugai": 10237,
      "lieru": 10238,
      "yuanze": 10239,
      "nianling": 10240,
      "zeren": 10241,
      "masi": 10242,
      "1920": 10243,
      "danmai": 10244,
      "huoxing": 10245,
      "duici": 10246,
      "lingdaoren": 10247,
      "baoshou": 10248,
      "shendu": 10249,
      "Jo": 10250,
      "gezi": 10251,
      "zhuangbei": 10252,
      "taibeishi": 10253,
      "yijiao": 10254,
      "fulei": 10255,
      "yanse": 10256,
      "guizu": 10257,
      "huashengdun": 10258,
      "85": 10259,
      "yinni": 10260,
      "zhongguorenminjiefangjun": 10261,
      "daqiao": 10262,
      "yinru": 10263,
      "jiaqiang": 10264,
      "jiajing": 10265,
      "yongzuo": 10266,
      "zhijing": 10267,
      "erren": 10268,
      "daibiaodahui": 10269,
      "cujin": 10270,
      "us": 10271,
      "xiujian": 10272,
      "Ja": 10273,
      "1981": 10274,
      "1958": 10275,
      "ditu": 10276,
      "zhenzheng": 10277,
      "huizhang": 10278,
      "funv": 10279,
      "buzhi": 10280,
      "beifang": 10281,
      "xuang": 10282,
      "1940": 10283,
      "kala": 10284,
      "sugelan": 10285,
      "liangci": 10286,
      "yibei": 10287,
      "taizi": 10288,
      "duixiang": 10289,
      "zhaopian": 10290,
      "kelai": 10291,
      "yitian": 10292,
      "89": 10293,
      "name": 10294,
      "yixing": 10295,
      "CO": 10296,
      "tayu": 10297,
      "tujing": 10298,
      "jianshi": 10299,
      "tuixiu": 10300,
      "shuoming": 10301,
      "liaojie": 10302,
      "guodu": 10303,
      "daili": 10304,
      "shanxisheng": 10305,
      "banyan": 10306,
      "der": 10307,
      "sheding": 10308,
      "kangri": 10309,
      "wudao": 10310,
      "jianghui": 10311,
      "jiuzhi": 10312,
      "xingbie": 10313,
      "zhangguan": 10314,
      "daiyou": 10315,
      "jiangshu": 10316,
      "AR": 10317,
      "qixuan": 10318,
      "luwaer": 10319,
      "yuanyou": 10320,
      "daibu": 10321,
      "1948": 10322,
      "cuowu": 10323,
      "gaizhi": 10324,
      "shanji": 10325,
      "peiyin": 10326,
      "baozha": 10327,
      "ly": 10328,
      "xiangying": 10329,
      "guance": 10330,
      "fenpei": 10331,
      "jiameng": 10332,
      "laodong": 10333,
      "xueshi": 10334,
      "xieer": 10335,
      "fengfu": 10336,
      "ction": 10337,
      "xiaoqu": 10338,
      "xiangxi": 10339,
      "nengliang": 10340,
      "jiazhou": 10341,
      "tianqi": 10342,
      "junguan": 10343,
      "BC": 10344,
      "shicong": 10345,
      "tanke": 10346,
      "buji": 10347,
      "dingwei": 10348,
      "yanchanghui": 10349,
      "liuxia": 10350,
      "gi": 10351,
      "kela": 10352,
      "fenli": 10353,
      "chushou": 10354,
      "huigui": 10355,
      "xiaqu": 10356,
      "dengdeng": 10357,
      "celiang": 10358,
      "tw": 10359,
      "shasi": 10360,
      "zhizheng": 10361,
      "wangshi": 10362,
      "faguan": 10363,
      "keshi": 10364,
      "xixing": 10365,
      "1000": 10366,
      "duiwai": 10367,
      "zhuanxiang": 10368,
      "zhangda": 10369,
      "gouzao": 10370,
      "jiazhong": 10371,
      "sasi": 10372,
      "yiran": 10373,
      "cinian": 10374,
      "Pro": 10375,
      "huangjin": 10376,
      "xiaofang": 10377,
      "tongmeng": 10378,
      "jiesan": 10379,
      "yumaoqiu": 10380,
      "zhongqi": 10381,
      "xiangxin": 10382,
      "1930": 10383,
      "sima": 10384,
      "jufeng": 10385,
      "yongtu": 10386,
      "telei": 10387,
      "junqu": 10388,
      "zhanxian": 10389,
      "hengli": 10390,
      "1972": 10391,
      "qinwang": 10392,
      "dongnanbu": 10393,
      "lude": 10394,
      "mingque": 10395,
      "mushi": 10396,
      "qingchu": 10397,
      "xibeibu": 10398,
      "Te": 10399,
      "zhuce": 10400,
      "fenlan": 10401,
      "quanshi": 10402,
      "benpian": 10403,
      "shangchang": 10404,
      "guoyu": 10405,
      "nanyi": 10406,
      "kongqi": 10407,
      "shengyin": 10408,
      "yanan": 10409,
      "xianyou": 10410,
      "yipian": 10411,
      "dajia": 10412,
      "shenhua": 10413,
      "yanhai": 10414,
      "zhongyiyuan": 10415,
      "Le": 10416,
      "zhiji": 10417,
      "qiwei": 10418,
      "zuijin": 10419,
      "fulan": 10420,
      "ir": 10421,
      "zichan": 10422,
      "luxu": 10423,
      "daima": 10424,
      "erzhan": 10425,
      "neilu": 10426,
      "heer": 10427,
      "92": 10428,
      "dingju": 10429,
      "hunyin": 10430,
      "1941": 10431,
      "dasai": 10432,
      "shushi": 10433,
      "nike": 10434,
      "mini": 10435,
      "xiashu": 10436,
      "shouxi": 10437,
      "--": 10438,
      "bendi": 10439,
      "yanyi": 10440,
      "hongzha": 10441,
      "fuxing": 10442,
      "Windo": 10443,
      "ciyu": 10444,
      "wuyue": 10445,
      "bianxing": 10446,
      "beijingshi": 10447,
      "lixiang": 10448,
      "1956": 10449,
      "zhuanxie": 10450,
      "heli": 10451,
      "donglin": 10452,
      "erji": 10453,
      "hepan": 10454,
      "junzhu": 10455,
      "xianghu": 10456,
      "kasi": 10457,
      "yuanlai": 10458,
      "xinanbu": 10459,
      "mosike": 10460,
      "gongyi": 10461,
      "tuijin": 10462,
      "yuci": 10463,
      "luoke": 10464,
      "shanghaishi": 10465,
      "quanxian": 10466,
      "1976": 10467,
      "yizu": 10468,
      "fangyan": 10469,
      "1975": 10470,
      "daoyu": 10471,
      "duikang": 10472,
      "Po": 10473,
      "fanzhi": 10474,
      "lunwen": 10475,
      "sifa": 10476,
      "BS": 10477,
      "liwei": 10478,
      "nacui": 10479,
      "shengge": 10480,
      "shouzhang": 10481,
      "dianqi": 10482,
      "hans": 10483,
      "ad": 10484,
      "liangming": 10485,
      "huojian": 10486,
      "huiyuan": 10487,
      "Su": 10488,
      "zhize": 10489,
      "wuer": 10490,
      "zhangfu": 10491,
      "dailing": 10492,
      "lusi": 10493,
      "shihe": 10494,
      "weici": 10495,
      "weihu": 10496,
      "shuyuan": 10497,
      "fulang": 10498,
      "miandian": 10499,
      "nanhai": 10500,
      "AC": 10501,
      "shiduan": 10502,
      "yizhou": 10503,
      "ld": 10504,
      "zhuban": 10505,
      "AM": 10506,
      "zhiyao": 10507,
      "turan": 10508,
      "iu": 10509,
      "shengmu": 10510,
      "Windows": 10511,
      "fushe": 10512,
      "daduo": 10513,
      "buer": 10514,
      "xiuzheng": 10515,
      "fuer": 10516,
      "yinan": 10517,
      "tongpai": 10518,
      "fuzhu": 10519,
      "eer": 10520,
      "1937": 10521,
      "xunzhao": 10522,
      "youtairen": 10523,
      "ribao": 10524,
      "juben": 10525,
      "qianding": 10526,
      "guanjian": 10527,
      "xiaofei": 10528,
      "daqi": 10529,
      "1947": 10530,
      "jiangshi": 10531,
      "zhandi": 10532,
      "libu": 10533,
      "xianyi": 10534,
      "bilishi": 10535,
      "taidu": 10536,
      "600": 10537,
      "daodan": 10538,
      "yishou": 10539,
      "93": 10540,
      "yunyong": 10541,
      "duifang": 10542,
      "1968": 10543,
      "dangtian": 10544,
      "Ga": 10545,
      "tuxing": 10546,
      "xiangjiao": 10547,
      "Be": 10548,
      "chengzhang": 10549,
      "shiliu": 10550,
      "zhangai": 10551,
      "beisi": 10552,
      "kexueyuan": 10553,
      "banli": 10554,
      "diercishijiedazhan": 10555,
      "liangzhe": 10556,
      "limi": 10557,
      "youci": 10558,
      "nongmin": 10559,
      "zhengxie": 10560,
      "jiaoda": 10561,
      "benshu": 10562,
      "paiqian": 10563,
      "qiyue": 10564,
      "dangwei": 10565,
      "gengxin": 10566,
      "jili": 10567,
      "qifu": 10568,
      "Mar": 10569,
      "Ne": 10570,
      "matou": 10571,
      "kaluo": 10572,
      "Di": 10573,
      "buxiang": 10574,
      "huahewu": 10575,
      "shaonv": 10576,
      "zuiduo": 10577,
      "yuanli": 10578,
      "zhuangshi": 10579,
      "kongbu": 10580,
      "wangong": 10581,
      "xiaoyuan": 10582,
      "kangxi": 10583,
      "zhizai": 10584,
      "fuzhou": 10585,
      "sida": 10586,
      "yibai": 10587,
      "dengshang": 10588,
      "huihe": 10589,
      "kunnan": 10590,
      "qingjie": 10591,
      "youxiu": 10592,
      "Ar": 10593,
      "1944": 10594,
      "86": 10595,
      "tanpan": 10596,
      "gongjue": 10597,
      "zhebu": 10598,
      "zhimindi": 10599,
      "deer": 10600,
      "xisi": 10601,
      "tupo": 10602,
      "shenzhen": 10603,
      "qinzi": 10604,
      "jijinhui": 10605,
      "canxuan": 10606,
      "jintian": 10607,
      "shengchu": 10608,
      "biru": 10609,
      "Da": 10610,
      "huyu": 10611,
      "jinbu": 10612,
      "biang": 10613,
      "luoji": 10614,
      "paihang": 10615,
      "120": 10616,
      "con": 10617,
      "houxu": 10618,
      "neizhan": 10619,
      "juntuan": 10620,
      "huoshan": 10621,
      "lingren": 10622,
      "licheng": 10623,
      "jihou": 10624,
      "wannian": 10625,
      "shiyue": 10626,
      "yuanyi": 10627,
      "deyu": 10628,
      "shouquan": 10629,
      "weike": 10630,
      "chaoting": 10631,
      "lvse": 10632,
      "hanyu": 10633,
      "wangqiu": 10634,
      "duizhang": 10635,
      "qianzhi": 10636,
      "yalishanda": 10637,
      "agen": 10638,
      "shiyanshi": 10639,
      "zuoyi": 10640,
      "liangxiang": 10641,
      "eri": 10642,
      "ER": 10643,
      "moni": 10644,
      "wuyi": 10645,
      "changjing": 10646,
      "daer": 10647,
      "va": 10648,
      "shouxiang": 10649,
      "pinggu": 10650,
      "fadongji": 10651,
      "1938": 10652,
      "1952": 10653,
      "IC": 10654,
      "lianren": 10655,
      "diren": 10656,
      "To": 10657,
      "Tu": 10658,
      "benren": 10659,
      "rd": 10660,
      "qingxing": 10661,
      "jiangling": 10662,
      "juedui": 10663,
      "1973": 10664,
      "jisuanji": 10665,
      "buru": 10666,
      "jijie": 10667,
      "gaishi": 10668,
      "hk": 10669,
      "kuozhan": 10670,
      "1939": 10671,
      "chaichu": 10672,
      "ziben": 10673,
      "zhechang": 10674,
      "kongzhong": 10675,
      "yanhua": 10676,
      "wusi": 10677,
      "queshi": 10678,
      "wangwang": 10679,
      "zhouqi": 10680,
      "shencha": 10681,
      "Ca": 10682,
      "wudi": 10683,
      "Se": 10684,
      "gaijian": 10685,
      "kelin": 10686,
      "IS": 10687,
      "cen": 10688,
      "xiufu": 10689,
      "juyuan": 10690,
      "daibiaotuan": 10691,
      "1966": 10692,
      "chiyou": 10693,
      "weiyou": 10694,
      "jiala": 10695,
      "feier": 10696,
      "1964": 10697,
      "bianjing": 10698,
      "bushu": 10699,
      "jianchi": 10700,
      "gelunbiya": 10701,
      "mianfei": 10702,
      "tongxun": 10703,
      "minge": 10704,
      "zhangzi": 10705,
      "youxing": 10706,
      "xianzhu": 10707,
      "xili": 10708,
      "pingyuan": 10709,
      "Lo": 10710,
      "qinian": 10711,
      "banbu": 10712,
      "maoze": 10713,
      "banshichu": 10714,
      "didai": 10715,
      "changjiang": 10716,
      "xiaoliang": 10717,
      "daxuan": 10718,
      "jiaohuan": 10719,
      "yudao": 10720,
      "zhudao": 10721,
      "guizhou": 10722,
      "xinjian": 10723,
      "jifen": 10724,
      "siwei": 10725,
      "gongan": 10726,
      "Ra": 10727,
      "beike": 10728,
      "liangce": 10729,
      "sizhi": 10730,
      "gaojia": 10731,
      "yanfa": 10732,
      "baer": 10733,
      "lingyou": 10734,
      "1955": 10735,
      "nengyuan": 10736,
      "yanjing": 10737,
      "tedian": 10738,
      "96": 10739,
      "chuzi": 10740,
      "hali": 10741,
      "fayan": 10742,
      "shisan": 10743,
      "maozedong": 10744,
      "geshi": 10745,
      "1974": 10746,
      "AP": 10747,
      "yinpai": 10748,
      "yiri": 10749,
      "tianhuang": 10750,
      "qianting": 10751,
      "weifan": 10752,
      "zisha": 10753,
      "bairen": 10754,
      "shuiku": 10755,
      "83": 10756,
      "82": 10757,
      "deming": 10758,
      "yigong": 10759,
      "zhongjiang": 10760,
      "dute": 10761,
      "id": 10762,
      "kaoshi": 10763,
      "musilin": 10764,
      "87": 10765,
      "guominzhengfu": 10766,
      "jingdu": 10767,
      "Ba": 10768,
      "caifang": 10769,
      "agenting": 10770,
      "zhide": 10771,
      "nal": 10772,
      "zouxiang": 10773,
      "jilong": 10774,
      "shuwei": 10775,
      "JR": 10776,
      "pifu": 10777,
      "quebao": 10778,
      "800": 10779,
      "fahui": 10780,
      "nianshi": 10781,
      "zaoyu": 10782,
      "1942": 10783,
      "ensheng": 10784,
      "yanzhi": 10785,
      "zhaohe": 10786,
      "cizhan": 10787,
      "1954": 10788,
      "yidian": 10789,
      "diceng": 10790,
      "tuiguang": 10791,
      "dasuan": 10792,
      "duoer": 10793,
      "ciqu": 10794,
      "zhongwei": 10795,
      "Bo": 10796,
      "juzhong": 10797,
      "teer": 10798,
      "dianji": 10799,
      "luoshanji": 10800,
      "1977": 10801,
      "mm": 10802,
      "yixian": 10803,
      "jiti": 10804,
      "jueyi": 10805,
      "huoyue": 10806,
      "renquan": 10807,
      "tuzhong": 10808,
      "shiying": 10809,
      "xiezuo": 10810,
      "eguo": 10811,
      "1900": 10812,
      "youzhu": 10813,
      "lianhehui": 10814,
      "dazhou": 10815,
      "mp": 10816,
      "nier": 10817,
      "zhiyeshengya": 10818,
      "weirao": 10819,
      "shiqing": 10820,
      "1943": 10821,
      "zhongli": 10822,
      "lianluo": 10823,
      "gaishu": 10824,
      "shiernian": 10825,
      "wuge": 10826,
      "shandongsheng": 10827,
      "1971": 10828,
      "sta": 10829,
      "hanyou": 10830,
      "Fi": 10831,
      "kaogu": 10832,
      "one": 10833,
      "zhua": 10834,
      "81": 10835,
      "gaizhuang": 10836,
      "tianti": 10837,
      "160": 10838,
      "1965": 10839,
      "shangsheng": 10840,
      "geguo": 10841,
      "nongcun": 10842,
      "jianzhuwu": 10843,
      "zhubu": 10844,
      "xietiao": 10845,
      "benzuo": 10846,
      "kaojin": 10847,
      "Na": 10848,
      "91": 10849,
      "jiangjin": 10850,
      "Si": 10851,
      "zhanji": 10852,
      "cizhi": 10853,
      "gongjiao": 10854,
      "suoxie": 10855,
      "liangwei": 10856,
      "oumeng": 10857,
      "fenlie": 10858,
      "chuanmei": 10859,
      "bulei": 10860,
      "teli": 10861,
      "zhengmian": 10862,
      "1959": 10863,
      "1967": 10864,
      "1969": 10865,
      "yake": 10866,
      "guojun": 10867,
      "gongjin": 10868,
      "shangpin": 10869,
      "faming": 10870,
      "guanliju": 10871,
      "qinghua": 10872,
      "jushi": 10873,
      "ED": 10874,
      "AN": 10875,
      "yuanzhumin": 10876,
      "yuyi": 10877,
      "toulu": 10878,
      "zhanlan": 10879,
      "xishou": 10880,
      "lixue": 10881,
[...]
