{
  "version": "1.0",
  "truncation": null,
  "padding": null,
  "added_tokens": [
    {
      "id": 0,
      "content": "[UNK]",
      "single_word": false,
      "lstrip": false,
      "rstrip": false,
      "normalized": false,
      "special": true
    },
    {
      "id": 1,
      "content": "[PAD]",
      "single_word": false,
      "lstrip": false,
      "rstrip": false,
      "normalized": false,
      "special": true
    },
    {
      "id": 2,
      "content": "[CLS]",
      "single_word": false,
      "lstrip": false,
      "rstrip": false,
      "normalized": false,
      "special": true
    },
    {
      "id": 3,
      "content": "[SEP]",
      "single_word": false,
      "lstrip": false,
      "rstrip": false,
      "normalized": false,
      "special": true
    }
  ],
  "normalizer": null,
  "pre_tokenizer": {
    "type": "Whitespace"
  },
  "post_processor": null,
  "decoder": null,
  "model": {
    "type": "BPE",
    "dropout": null,
    "unk_token": null,
    "continuing_subword_prefix": null,
    "end_of_word_suffix": null,
    "fuse_unk": false,
    "byte_fallback": false,
    "ignore_merges": false,
    "vocab": {
      "[UNK]": 0,
      "[PAD]": 1,
      "[CLS]": 2,
      "[SEP]": 3,
      "!": 4,
      "\"": 5,
      "#": 6,
      "$": 7,
      "%": 8,
      "&": 9,
      "'": 10,
      "(": 11,
      ")": 12,
      "*": 13,
      "+": 14,
      ",": 15,
      "-": 16,
      ".": 17,
      "/": 18,
      "0": 19,
      "1": 20,
      "2": 21,
      "3": 22,
      "4": 23,
      "5": 24,
      "6": 25,
      "7": 26,
      "8": 27,
      "9": 28,
      ":": 29,
      ";": 30,
      "=": 31,
      "?": 32,
      "@": 33,
      "A": 34,
      "B": 35,
      "C": 36,
      "D": 37,
      "E": 38,
      "F": 39,
      "G": 40,
      "H": 41,
      "I": 42,
      "J": 43,
      "K": 44,
      "L": 45,
      "M": 46,
      "N": 47,
      "O": 48,
      "P": 49,
      "Q": 50,
      "R": 51,
      "S": 52,
      "T": 53,
      "U": 54,
      "V": 55,
      "W": 56,
      "X": 57,
      "Y": 58,
      "Z": 59,
      "[": 60,
      "\\": 61,
      "]": 62,
      "^": 63,
      "_": 64,
      "`": 65,
      "a": 66,
      "b": 67,
      "c": 68,
      "d": 69,
      "e": 70,
      "f": 71,
      "g": 72,
      "h": 73,
      "i": 74,
      "j": 75,
      "k": 76,
      "l": 77,
      "m": 78,
      "n": 79,
      "o": 80,
      "p": 81,
      "q": 82,
      "r": 83,
      "s": 84,
      "t": 85,
      "u": 86,
      "v": 87,
      "w": 88,
      "x": 89,
      "y": 90,
      "z": 91,
      "|": 92,
      "~": 93,
      "": 94,
      "": 95,
      "": 96,
      "": 97,
      "": 98,
      "": 99,
      "": 100,
      "": 101,
      "": 102,
      "¡": 103,
      "¢": 104,
      "£": 105,
      "¤": 106,
      "¥": 107,
      "§": 108,
      "¨": 109,
      "©": 110,
      "ª": 111,
      "«": 112,
      "¬": 113,
      "­": 114,
      "®": 115,
      "¯": 116,
      "°": 117,
      "±": 118,
      "²": 119,
      "³": 120,
      "´": 121,
      "µ": 122,
      "¶": 123,
      "·": 124,
      "¸": 125,
      "¹": 126,
      "º": 127,
      "»": 128,
      "¼": 129,
      "½": 130,
      "¾": 131,
      "¿": 132,
      "À": 133,
      "Á": 134,
      "Â": 135,
      "Ã": 136,
      "Ä": 137,
      "Å": 138,
      "Æ": 139,
      "Ç": 140,
      "È": 141,
      "É": 142,
      "Ê": 143,
      "Ë": 144,
      "Ì": 145,
      "Í": 146,
      "Î": 147,
      "Ï": 148,
      "Ð": 149,
      "Ñ": 150,
      "Ò": 151,
      "Ó": 152,
      "Ô": 153,
      "Õ": 154,
      "Ö": 155,
      "×": 156,
      "Ø": 157,
      "Ù": 158,
      "Ú": 159,
      "Û": 160,
      "Ü": 161,
      "Ý": 162,
      "Þ": 163,
      "ß": 164,
      "à": 165,
      "á": 166,
      "â": 167,
      "ã": 168,
      "ä": 169,
      "å": 170,
      "æ": 171,
      "ç": 172,
      "è": 173,
      "é": 174,
      "ê": 175,
      "ë": 176,
      "ì": 177,
      "í": 178,
      "î": 179,
      "ï": 180,
      "ð": 181,
      "ñ": 182,
      "ò": 183,
      "ó": 184,
      "ô": 185,
      "õ": 186,
      "ö": 187,
      "÷": 188,
      "ø": 189,
      "ù": 190,
      "ú": 191,
      "û": 192,
      "ü": 193,
      "ý": 194,
      "þ": 195,
      "ÿ": 196,
      "Ā": 197,
      "ā": 198,
      "Ă": 199,
      "ă": 200,
      "Ą": 201,
      "ą": 202,
      "Ć": 203,
      "ć": 204,
      "Ĉ": 205,
      "ĉ": 206,
      "Ċ": 207,
      "ċ": 208,
      "Č": 209,
      "č": 210,
      "Ď": 211,
      "ď": 212,
      "Đ": 213,
      "đ": 214,
      "Ē": 215,
      "ē": 216,
      "Ĕ": 217,
      "ĕ": 218,
      "Ė": 219,
      "ė": 220,
      "Ę": 221,
      "ę": 222,
      "Ě": 223,
      "ě": 224,
      "Ĝ": 225,
      "ĝ": 226,
      "Ğ": 227,
      "ğ": 228,
      "Ġ": 229,
      "ġ": 230,
      "Ģ": 231,
      "ģ": 232,
      "Ĥ": 233,
      "ĥ": 234,
      "Ħ": 235,
      "ħ": 236,
      "Ĩ": 237,
      "ĩ": 238,
      "Ī": 239,
      "ī": 240,
      "Ĭ": 241,
      "ĭ": 242,
      "Į": 243,
      "į": 244,
      "İ": 245,
      "ı": 246,
      "Ĳ": 247,
      "ĳ": 248,
      "Ĵ": 249,
      "ĵ": 250,
      "Ķ": 251,
      "ķ": 252,
      "ĸ": 253,
      "Ĺ": 254,
      "ĺ": 255,
      "Ļ": 256,
      "ļ": 257,
      "Ľ": 258,
      "ľ": 259,
      "Ŀ": 260,
      "ŀ": 261,
      "Ł": 262,
      "ł": 263,
      "Ń": 264,
      "ń": 265,
      "Ņ": 266,
      "ņ": 267,
      "Ň": 268,
      "ň": 269,
      "ŉ": 270,
      "Ŋ": 271,
      "ŋ": 272,
      "Ō": 273,
      "ō": 274,
      "Ŏ": 275,
      "ŏ": 276,
      "Ő": 277,
      "ő": 278,
      "Œ": 279,
      "œ": 280,
      "Ŕ": 281,
      "ŕ": 282,
      "Ŗ": 283,
      "ŗ": 284,
      "Ř": 285,
      "ř": 286,
      "Ś": 287,
      "ś": 288,
      "Ŝ": 289,
      "ŝ": 290,
      "Ş": 291,
      "ş": 292,
      "Š": 293,
      "š": 294,
      "Ţ": 295,
      "ţ": 296,
      "Ť": 297,
      "ť": 298,
      "Ŧ": 299,
      "ŧ": 300,
      "Ũ": 301,
      "ũ": 302,
      "Ū": 303,
      "ū": 304,
      "Ŭ": 305,
      "ŭ": 306,
      "Ů": 307,
      "ů": 308,
      "Ű": 309,
      "ű": 310,
      "Ų": 311,
      "ų": 312,
      "Ŵ": 313,
      "ŵ": 314,
      "Ŷ": 315,
      "ŷ": 316,
      "Ÿ": 317,
      "Ź": 318,
      "ź": 319,
      "Ż": 320,
      "ż": 321,
      "Ž": 322,
      "ž": 323,
      "ſ": 324,
      "ƀ": 325,
      "Ɓ": 326,
      "Ƃ": 327,
      "ƃ": 328,
      "Ƅ": 329,
      "ƅ": 330,
      "Ɔ": 331,
      "Ƈ": 332,
      "ƈ": 333,
      "Ɖ": 334,
      "Ɗ": 335,
      "Ƌ": 336,
      "ƌ": 337,
      "ƍ": 338,
      "Ǝ": 339,
      "Ə": 340,
      "Ɛ": 341,
      "Ƒ": 342,
      "ƒ": 343,
      "Ɠ": 344,
      "Ɣ": 345,
      "ƕ": 346,
      "Ɩ": 347,
      "Ɨ": 348,
      "Ƙ": 349,
      "ƙ": 350,
      "ƚ": 351,
      "ƛ": 352,
      "Ɯ": 353,
      "Ɲ": 354,
      "ƞ": 355,
      "Ɵ": 356,
      "Ơ": 357,
      "ơ": 358,
      "Ƣ": 359,
      "ƣ": 360,
      "Ƥ": 361,
      "ƥ": 362,
      "Ʀ": 363,
      "Ƨ": 364,
      "ƨ": 365,
      "Ʃ": 366,
      "ƪ": 367,
      "ƫ": 368,
      "Ƭ": 369,
      "ƭ": 370,
      "Ʈ": 371,
      "Ư": 372,
      "ư": 373,
      "Ʊ": 374,
      "Ʋ": 375,
      "Ƴ": 376,
      "ƴ": 377,
      "Ƶ": 378,
      "ƶ": 379,
      "Ʒ": 380,
      "Ƹ": 381,
      "ƹ": 382,
      "ƺ": 383,
      "ƻ": 384,
      "Ƽ": 385,
      "ƽ": 386,
      "ƾ": 387,
      "ƿ": 388,
      "ǀ": 389,
      "ǁ": 390,
      "ǂ": 391,
      "ǃ": 392,
      "Ǆ": 393,
      "ǅ": 394,
      "ǆ": 395,
      "ǈ": 396,
      "Ǌ": 397,
      "ǋ": 398,
      "ǌ": 399,
      "Ǎ": 400,
      "ǎ": 401,
      "Ǐ": 402,
      "ǐ": 403,
      "Ǒ": 404,
      "ǒ": 405,
      "Ǔ": 406,
      "ǔ": 407,
      "Ǖ": 408,
      "ǖ": 409,
      "Ǘ": 410,
      "ǘ": 411,
      "Ǚ": 412,
      "ǚ": 413,
      "Ǜ": 414,
      "ǜ": 415,
      "ǝ": 416,
      "Ǟ": 417,
      "ǟ": 418,
      "Ǡ": 419,
      "ǡ": 420,
      "Ǣ": 421,
      "ǣ": 422,
      "Ǥ": 423,
      "ǥ": 424,
      "Ǧ": 425,
      "ǧ": 426,
      "Ǩ": 427,
      "ǩ": 428,
      "Ǫ": 429,
      "ǫ": 430,
      "Ǭ": 431,
      "ǭ": 432,
      "Ǯ": 433,
      "ǯ": 434,
      "ǰ": 435,
      "ǲ": 436,
      "Ǵ": 437,
      "ǵ": 438,
      "Ƕ": 439,
      "Ƿ": 440,
      "Ǹ": 441,
      "ǹ": 442,
      "Ǻ": 443,
      "ǻ": 444,
      "Ǽ": 445,
      "ǽ": 446,
      "Ǿ": 447,
      "ǿ": 448,
      "Ȁ": 449,
      "ȁ": 450,
      "Ȃ": 451,
      "ȃ": 452,
      "Ȅ": 453,
      "ȅ": 454,
      "Ȇ": 455,
      "ȇ": 456,
      "Ȉ": 457,
      "ȉ": 458,
      "Ȋ": 459,
      "ȋ": 460,
      "Ȍ": 461,
      "ȍ": 462,
      "Ȏ": 463,
      "ȏ": 464,
      "Ȑ": 465,
      "ȑ": 466,
      "Ȓ": 467,
      "ȓ": 468,
      "Ȕ": 469,
      "ȕ": 470,
      "Ȗ": 471,
      "ȗ": 472,
      "Ș": 473,
      "ș": 474,
      "Ț": 475,
      "ț": 476,
      "Ȝ": 477,
      "ȝ": 478,
      "Ȟ": 479,
      "ȟ": 480,
      "Ƞ": 481,
      "ȡ": 482,
      "Ȣ": 483,
      "ȣ": 484,
      "Ȥ": 485,
      "ȥ": 486,
      "Ȧ": 487,
      "ȧ": 488,
      "Ȩ": 489,
      "ȩ": 490,
      "Ȫ": 491,
      "ȫ": 492,
      "Ȭ": 493,
      "ȭ": 494,
      "Ȯ": 495,
      "ȯ": 496,
      "Ȱ": 497,
      "ȱ": 498,
      "Ȳ": 499,
      "ȳ": 500,
      "ȴ": 501,
      "ȵ": 502,
      "ȶ": 503,
      "ȷ": 504,
      "ȸ": 505,
      "ȹ": 506,
      "Ⱥ": 507,
      "Ȼ": 508,
      "ȼ": 509,
      "Ƚ": 510,
      "Ⱦ": 511,
      "ȿ": 512,
      "ɀ": 513,
      "Ɂ": 514,
      "ɂ": 515,
      "Ƀ": 516,
      "Ʉ": 517,
      "Ʌ": 518,
      "Ɇ": 519,
      "ɇ": 520,
      "Ɉ": 521,
      "ɉ": 522,
      "Ɋ": 523,
      "ɋ": 524,
      "Ɍ": 525,
      "ɍ": 526,
      "Ɏ": 527,
      "ɏ": 528,
      "ɐ": 529,
      "ɑ": 530,
      "ɒ": 531,
      "ɓ": 532,
      "ɔ": 533,
      "ɕ": 534,
      "ɖ": 535,
      "ɗ": 536,
      "ɘ": 537,
      "ə": 538,
      "ɚ": 539,
      "ɛ": 540,
      "ɜ": 541,
      "ɝ": 542,
      "ɞ": 543,
      "ɟ": 544,
      "ɠ": 545,
      "ɡ": 546,
      "ɢ": 547,
      "ɣ": 548,
      "ɤ": 549,
      "ɥ": 550,
      "ɦ": 551,
      "ɧ": 552,
      "ɨ": 553,
      "ɩ": 554,
      "ɪ": 555,
      "ɫ": 556,
      "ɬ": 557,
      "ɭ": 558,
      "ɮ": 559,
      "ɯ": 560,
      "ɰ": 561,
      "ɱ": 562,
      "ɲ": 563,
      "ɳ": 564,
      "ɴ": 565,
      "ɵ": 566,
      "ɶ": 567,
      "ɷ": 568,
      "ɸ": 569,
      "ɹ": 570,
      "ɺ": 571,
      "ɻ": 572,
      "ɼ": 573,
      "ɽ": 574,
      "ɾ": 575,
      "ɿ": 576,
      "ʀ": 577,
      "ʁ": 578,
      "ʂ": 579,
      "ʃ": 580,
      "ʄ": 581,
      "ʅ": 582,
      "ʆ": 583,
      "ʇ": 584,
      "ʈ": 585,
      "ʉ": 586,
      "ʊ": 587,
      "ʋ": 588,
      "ʌ": 589,
      "ʍ": 590,
      "ʎ": 591,
      "ʏ": 592,
      "ʐ": 593,
      "ʑ": 594,
      "ʒ": 595,
      "ʓ": 596,
      "ʔ": 597,
      "ʕ": 598,
      "ʖ": 599,
      "ʗ": 600,
      "ʘ": 601,
      "ʙ": 602,
      "ʚ": 603,
      "ʛ": 604,
      "ʜ": 605,
      "ʝ": 606,
      "ʞ": 607,
      "ʟ": 608,
      "ʠ": 609,
      "ʡ": 610,
      "ʢ": 611,
      "ʣ": 612,
      "ʤ": 613,
      "ʥ": 614,
      "ʦ": 615,
      "ʧ": 616,
      "ʨ": 617,
      "ʩ": 618,
      "ʪ": 619,
      "ʫ": 620,
      "ʮ": 621,
      "ʯ": 622,
      "ʰ": 623,
      "ʱ": 624,
      "ʲ": 625,
      "ʴ": 626,
      "ʶ": 627,
      "ʷ": 628,
      "ʸ": 629,
      "ʹ": 630,
      "ʺ": 631,
      "ʻ": 632,
      "ʼ": 633,
      "ʽ": 634,
      "ʾ": 635,
      "ʿ": 636,
      "ˀ": 637,
      "ˁ": 638,
      "ˆ": 639,
      "ˇ": 640,
      "ˈ": 641,
      "ˉ": 642,
      "ˊ": 643,
      "ˋ": 644,
      "ˌ": 645,
      "ˍ": 646,
      "ˎ": 647,
      "ˏ": 648,
      "ː": 649,
      "ˑ": 650,
      "˘": 651,
      "˙": 652,
      "˚": 653,
      "˜": 654,
      "˝": 655,
      "˞": 656,
      "ˠ": 657,
      "ˡ": 658,
      "ˢ": 659,
      "ˤ": 660,
      "˥": 661,
      "˦": 662,
      "˧": 663,
      "˨": 664,
      "˩": 665,
      "˪": 666,
      "˫": 667,
      "˭": 668,
      "̀": 669,
      "́": 670,
      "̂": 671,
      "̃": 672,
      "̄": 673,
      "̅": 674,
      "̆": 675,
      "̇": 676,
      "̈": 677,
      "̊": 678,
      "̋": 679,
      "̌": 680,
      "̍": 681,
      "̐": 682,
      "̑": 683,
      "̓": 684,
      "̕": 685,
      "̚": 686,
      "̜": 687,
      "̝": 688,
      "̞": 689,
      "̟": 690,
      "̠": 691,
      "̡": 692,
      "̢": 693,
      "̣": 694,
      "̤": 695,
      "̥": 696,
      "̧": 697,
      "̨": 698,
      "̩": 699,
      "̪": 700,
      "̬": 701,
      "̮": 702,
      "̯": 703,
      "̰": 704,
      "̱": 705,
      "̲": 706,
      "̴": 707,
      "̵": 708,
      "̶": 709,
      "̷": 710,
      "̺": 711,
      "̻": 712,
      "̼": 713,
      "̽": 714,
      "͂": 715,
      "͈": 716,
      "͗": 717,
      "͘": 718,
      "͟": 719,
      "͠": 720,
      "͡": 721,
      "ͤ": 722,
      "Ͱ": 723,
      "ͱ": 724,
      "Ͳ": 725,
      "ͳ": 726,
      "͵": 727,
      "Ͷ": 728,
      "ͷ": 729,
      "΄": 730,
      "Ά": 731,
      "Έ": 732,
      "Ή": 733,
      "Ί": 734,
      "Ό": 735,
      "Ύ": 736,
      "ΐ": 737,
      "Α": 738,
      "Β": 739,
      "Γ": 740,
      "Δ": 741,
      "Ε": 742,
      "Ζ": 743,
      "Η": 744,
      "Θ": 745,
      "Ι": 746,
      "Κ": 747,
      "Λ": 748,
      "Μ": 749,
      "Ν": 750,
      "Ξ": 751,
      "Ο": 752,
      "Π": 753,
      "Ρ": 754,
      "Σ": 755,
      "Τ": 756,
      "Υ": 757,
      "Φ": 758,
      "Χ": 759,
      "Ψ": 760,
      "Ω": 761,
      "Ϊ": 762,
      "ά": 763,
      "έ": 764,
      "ή": 765,
      "ί": 766,
      "ΰ": 767,
      "α": 768,
      "β": 769,
      "γ": 770,
      "δ": 771,
      "ε": 772,
      "ζ": 773,
      "η": 774,
      "θ": 775,
      "ι": 776,
      "κ": 777,
      "λ": 778,
      "μ": 779,
      "ν": 780,
      "ξ": 781,
      "ο": 782,
      "π": 783,
      "ρ": 784,
      "ς": 785,
      "σ": 786,
      "τ": 787,
      "υ": 788,
      "φ": 789,
      "χ": 790,
      "ψ": 791,
      "ω": 792,
      "ϊ": 793,
      "ϋ": 794,
      "ό": 795,
      "ύ": 796,
      "ώ": 797,
      "ϐ": 798,
      "ϑ": 799,
      "ϒ": 800,
      "ϕ": 801,
      "Ϙ": 802,
      "Ϛ": 803,
      "Ϝ": 804,
      "ϝ": 805,
      "Ϡ": 806,
      "ϡ": 807,
      "Ϣ": 808,
      "ϣ": 809,
      "Ϧ": 810,
      "ϩ": 811,
      "ϫ": 812,
      "ϯ": 813,
      "ϰ": 814,
      "ϵ": 815,
      "Ϸ": 816,
      "ϸ": 817,
      "Ϲ": 818,
      "Ϻ": 819,
      "Ѐ": 820,
      "Ё": 821,
      "Ђ": 822,
      "Є": 823,
      "Ѕ": 824,
      "І": 825,
      "Ї": 826,
      "Ј": 827,
      "Љ": 828,
      "Њ": 829,
      "Ћ": 830,
      "Ќ": 831,
      "Ў": 832,
      "Џ": 833,
      "А": 834,
      "Б": 835,
      "В": 836,
      "Г": 837,
      "Д": 838,
      "Е": 839,
      "Ж": 840,
      "З": 841,
      "И": 842,
      "Й": 843,
      "К": 844,
      "Л": 845,
      "М": 846,
      "Н": 847,
      "О": 848,
      "П": 849,
      "Р": 850,
      "С": 851,
      "Т": 852,
      "У": 853,
      "Ф": 854,
      "Х": 855,
      "Ц": 856,
      "Ч": 857,
      "Ш": 858,
      "Щ": 859,
      "Ъ": 860,
      "Ы": 861,
      "Ь": 862,
      "Э": 863,
      "Ю": 864,
      "Я": 865,
      "а": 866,
      "б": 867,
      "в": 868,
      "г": 869,
      "д": 870,
      "е": 871,
      "ж": 872,
      "з": 873,
      "и": 874,
      "й": 875,
      "к": 876,
      "л": 877,
      "м": 878,
      "н": 879,
      "о": 880,
      "п": 881,
      "р": 882,
      "с": 883,
      "т": 884,
      "у": 885,
      "ф": 886,
      "х": 887,
      "ц": 888,
      "ч": 889,
      "ш": 890,
      "щ": 891,
      "ъ": 892,
      "ы": 893,
      "ь": 894,
      "э": 895,
      "ю": 896,
      "я": 897,
      "ѐ": 898,
      "ё": 899,
      "ђ": 900,
      "ѓ": 901,
      "є": 902,
      "ѕ": 903,
      "і": 904,
      "ї": 905,
      "ј": 906,
      "љ": 907,
      "њ": 908,
      "ћ": 909,
      "ќ": 910,
      "ў": 911,
      "џ": 912,
      "Ѡ": 913,
      "ѡ": 914,
      "Ѣ": 915,
      "ѣ": 916,
      "Ѥ": 917,
      "ѥ": 918,
      "Ѧ": 919,
      "ѧ": 920,
      "ѩ": 921,
      "Ѫ": 922,
      "ѫ": 923,
      "Ѯ": 924,
      "ѯ": 925,
      "Ѱ": 926,
      "ѱ": 927,
      "Ѳ": 928,
      "ѳ": 929,
      "Ѵ": 930,
      "ѵ": 931,
      "Ѷ": 932,
      "ѷ": 933,
      "Ѹ": 934,
      "ѹ": 935,
      "Ѻ": 936,
      "ѻ": 937,
      "Ѽ": 938,
      "ѽ": 939,
      "Ѿ": 940,
      "ѿ": 941,
      "Ҁ": 942,
      "ҁ": 943,
      "҂": 944,
      "҃": 945,
      "҅": 946,
      "҉": 947,
      "Ҋ": 948,
      "ҋ": 949,
      "Ҍ": 950,
      "ҍ": 951,
      "Ҏ": 952,
      "ҏ": 953,
      "Ґ": 954,
      "ґ": 955,
      "Ғ": 956,
      "ғ": 957,
      "Ҕ": 958,
      "ҕ": 959,
      "Җ": 960,
      "җ": 961,
      "Ҙ": 962,
      "ҙ": 963,
      "Қ": 964,
      "қ": 965,
      "Ҝ": 966,
      "ҝ": 967,
      "Ҟ": 968,
      "ҟ": 969,
      "Ҡ": 970,
      "ҡ": 971,
      "Ң": 972,
      "ң": 973,
      "Ҥ": 974,
      "ҥ": 975,
      "ҧ": 976,
      "Ҩ": 977,
      "ҩ": 978,
      "Ҫ": 979,
      "ҫ": 980,
      "Ҭ": 981,
      "ҭ": 982,
      "Ү": 983,
      "ү": 984,
      "Ұ": 985,
      "ұ": 986,
      "Ҳ": 987,
      "ҳ": 988,
      "Ҵ": 989,
      "ҵ": 990,
      "ҷ": 991,
      "Ҹ": 992,
      "ҹ": 993,
      "Һ": 994,
      "һ": 995,
      "Ҽ": 996,
      "ҽ": 997,
      "Ҿ": 998,
      "ҿ": 999,
      "Ӏ": 1000,
      "Ӂ": 1001,
      "ӂ": 1002,
      "Ӄ": 1003,
      "ӄ": 1004,
      "Ӆ": 1005,
      "ӆ": 1006,
      "Ӈ": 1007,
      "ӈ": 1008,
      "Ӊ": 1009,
      "ӊ": 1010,
      "Ӌ": 1011,
      "ӌ": 1012,
      "Ӎ": 1013,
      "ӎ": 1014,
      "ӏ": 1015,
      "Ӑ": 1016,
      "ӑ": 1017,
      "Ӓ": 1018,
      "ӓ": 1019,
      "Ӕ": 1020,
      "ӕ": 1021,
      "Ӗ": 1022,
      "ӗ": 1023,
      "Ә": 1024,
      "ә": 1025,
      "Ӝ": 1026,
      "ӝ": 1027,
      "Ӟ": 1028,
      "ӟ": 1029,
      "Ӡ": 1030,
      "Ӣ": 1031,
      "ӣ": 1032,
      "Ӥ": 1033,
      "ӥ": 1034,
      "Ӧ": 1035,
      "ӧ": 1036,
      "Ө": 1037,
      "ө": 1038,
      "Ӭ": 1039,
      "ӭ": 1040,
      "Ӯ": 1041,
      "ӯ": 1042,
      "Ӱ": 1043,
      "ӱ": 1044,
      "Ӳ": 1045,
      "ӳ": 1046,
      "Ӵ": 1047,
      "ӵ": 1048,
      "Ӷ": 1049,
      "ӷ": 1050,
      "Ӹ": 1051,
      "ӹ": 1052,
      "Ӻ": 1053,
      "ӻ": 1054,
      "Ӽ": 1055,
      "ӽ": 1056,
      "Ӿ": 1057,
      "ӿ": 1058,
      "Ԁ": 1059,
      "ԁ": 1060,
      "Ԃ": 1061,
      "ԃ": 1062,
      "Ԅ": 1063,
      "ԅ": 1064,
      "Ԇ": 1065,
      "ԇ": 1066,
      "Ԉ": 1067,
      "ԉ": 1068,
      "ԋ": 1069,
      "Ԍ": 1070,
      "ԍ": 1071,
      "Ԏ": 1072,
      "ԏ": 1073,
      "Ԑ": 1074,
      "ԑ": 1075,
      "Ԓ": 1076,
      "ԓ": 1077,
      "Ԕ": 1078,
      "ԕ": 1079,
      "Ԗ": 1080,
      "ԗ": 1081,
      "Ԙ": 1082,
      "ԙ": 1083,
      "Ԝ": 1084,
      "ԝ": 1085,
      "Ԟ": 1086,
      "ԟ": 1087,
      "Ԡ": 1088,
      "ԡ": 1089,
      "Ԣ": 1090,
      "ԣ": 1091,
      "Ԥ": 1092,
      "ԥ": 1093,
      "Ԩ": 1094,
      "ԩ": 1095,
      "Ԫ": 1096,
      "ԫ": 1097,
      "Ԭ": 1098,
      "ԭ": 1099,
      "Ԯ": 1100,
      "ԯ": 1101,
      "Ա": 1102,
      "Բ": 1103,
      "Գ": 1104,
      "Դ": 1105,
      "Ե": 1106,
      "Զ": 1107,
      "Է": 1108,
      "Թ": 1109,
      "Ժ": 1110,
      "Ի": 1111,
      "Լ": 1112,
      "Խ": 1113,
      "Ծ": 1114,
      "Կ": 1115,
      "Հ": 1116,
      "Ղ": 1117,
      "Մ": 1118,
      "Յ": 1119,
      "Ն": 1120,
      "Շ": 1121,
      "Ո": 1122,
      "Պ": 1123,
      "Ռ": 1124,
      "Ս": 1125,
      "Վ": 1126,
      "Տ": 1127,
      "Ր": 1128,
      "Ց": 1129,
      "Ւ": 1130,
      "Ք": 1131,
      "Օ": 1132,
      "Ֆ": 1133,
      "՛": 1134,
      "ա": 1135,
      "բ": 1136,
      "գ": 1137,
      "դ": 1138,
      "ե": 1139,
      "զ": 1140,
      "է": 1141,
      "ը": 1142,
      "թ": 1143,
      "ժ": 1144,
      "ի": 1145,
      "լ": 1146,
      "խ": 1147,
      "ծ": 1148,
      "կ": 1149,
      "հ": 1150,
      "ձ": 1151,
      "ղ": 1152,
      "մ": 1153,
      "յ": 1154,
      "ն": 1155,
      "շ": 1156,
      "ո": 1157,
      "չ": 1158,
      "պ": 1159,
      "ջ": 1160,
      "ռ": 1161,
      "ս": 1162,
      "վ": 1163,
      "տ": 1164,
      "ր": 1165,
      "ց": 1166,
      "ւ": 1167,
      "ք": 1168,
      "օ": 1169,
      "ֆ": 1170,
      "և": 1171,
      "֏": 1172,
      "֑": 1173,
      "֔": 1174,
      "֗": 1175,
      "֜": 1176,
      "֣": 1177,
      "֥": 1178,
      "֪": 1179,
      "ְ": 1180,
      "ֱ": 1181,
      "ֲ": 1182,
      "ֳ": 1183,
      "ִ": 1184,
      "ֵ": 1185,
      "ֶ": 1186,
      "ַ": 1187,
      "ָ": 1188,
      "ֹ": 1189,
      "ֻ": 1190,
      "ּ": 1191,
      "־": 1192,
      "ֿ": 1193,
      "׀": 1194,
      "ׁ": 1195,
      "ׂ": 1196,
      "א": 1197,
      "ב": 1198,
      "ג": 1199,
      "ד": 1200,
      "ה": 1201,
      "ו": 1202,
      "ז": 1203,
      "ח": 1204,
      "ט": 1205,
      "י": 1206,
      "ך": 1207,
      "כ": 1208,
      "ל": 1209,
      "ם": 1210,
      "מ": 1211,
      "ן": 1212,
      "נ": 1213,
      "ס": 1214,
      "ע": 1215,
      "ף": 1216,
      "פ": 1217,
      "ץ": 1218,
      "צ": 1219,
      "ק": 1220,
      "ר": 1221,
      "ש": 1222,
      "ת": 1223,
      "װ": 1224,
      "ױ": 1225,
      "ײ": 1226,
      "׳": 1227,
      "״": 1228,
      "،": 1229,
      "؟": 1230,
      "ء": 1231,
      "آ": 1232,
      "أ": 1233,
      "ؤ": 1234,
      "إ": 1235,
      "ئ": 1236,
      "ا": 1237,
      "ب": 1238,
      "ة": 1239,
      "ت": 1240,
      "ث": 1241,
      "ج": 1242,
      "ح": 1243,
      "خ": 1244,
      "د": 1245,
      "ذ": 1246,
      "ر": 1247,
      "ز": 1248,
      "س": 1249,
      "ش": 1250,
      "ص": 1251,
      "ض": 1252,
      "ط": 1253,
      "ظ": 1254,
      "ع": 1255,
      "غ": 1256,
      "ؾ": 1257,
      "ـ": 1258,
      "ف": 1259,
      "ق": 1260,
      "ك": 1261,
      "ل": 1262,
      "م": 1263,
      "ن": 1264,
      "ه": 1265,
      "و": 1266,
      "ى": 1267,
      "ي": 1268,
      "ً": 1269,
      "ٌ": 1270,
      "ٍ": 1271,
      "َ": 1272,
      "ُ": 1273,
      "ِ": 1274,
      "ّ": 1275,
      "ْ": 1276,
      "ٔ": 1277,
      "٘": 1278,
      "٠": 1279,
      "١": 1280,
      "٨": 1281,
      "٩": 1282,
      "٫": 1283,
      "ٰ": 1284,
      "ٱ": 1285,
      "ٹ": 1286,
      "ٺ": 1287,
      "ټ": 1288,
      "ٽ": 1289,
      "پ": 1290,
      "ٿ": 1291,
      "ڄ": 1292,
      "چ": 1293,
      "ڈ": 1294,
      "ڊ": 1295,
      "ڌ": 1296,
      "ڏ": 1297,
      "ڑ": 1298,
      "ړ": 1299,
      "ڕ": 1300,
      "ږ": 1301,
      "ژ": 1302,
      "ڙ": 1303,
      "ڜ": 1304,
      "ڠ": 1305,
      "ڢ": 1306,
      "ڤ": 1307,
      "ڨ": 1308,
      "ک": 1309,
      "ڪ": 1310,
      "ګ": 1311,
      "ڬ": 1312,
      "ڭ": 1313,
      "گ": 1314,
      "ڴ": 1315,
      "ڵ": 1316,
      "ڸ": 1317,
      "ں": 1318,
      "ڻ": 1319,
      "ھ": 1320,
      "ہ": 1321,
      "ۂ": 1322,
      "ۆ": 1323,
      "ۇ": 1324,
      "ۈ": 1325,
      "ۉ": 1326,
      "ۋ": 1327,
      "ی": 1328,
      "ێ": 1329,
      "ې": 1330,
      "ے": 1331,
      "ە": 1332,
      "۝": 1333,
      "۰": 1334,
      "۱": 1335,
      "۲": 1336,
      "۳": 1337,
      "۴": 1338,
      "۵": 1339,
      "۶": 1340,
      "۷": 1341,
      "۸": 1342,
      "۹": 1343,
      "ܐ": 1344,
      "ܒ": 1345,
      "ܓ": 1346,
      "ܕ": 1347,
      "ܗ": 1348,
      "ܘ": 1349,
      "ܙ": 1350,
      "ܚ": 1351,
      "ܛ": 1352,
      "ܝ": 1353,
      "ܟ": 1354,
      "ܠ": 1355,
      "ܡ": 1356,
      "ܢ": 1357,
      "ܣ": 1358,
      "ܥ": 1359,
      "ܦ": 1360,
      "ܨ": 1361,
      "ܩ": 1362,
      "ܪ": 1363,
      "ܫ": 1364,
      "ܬ": 1365,
      "ܲ": 1366,
      "ܳ": 1367,
      "ܵ": 1368,
      "ܸ": 1369,
      "ܼ": 1370,
      "ܽ": 1371,
      "݂": 1372,
      "ݢ": 1373,
      "ݣ": 1374,
      "ހ": 1375,
      "ނ": 1376,
      "ރ": 1377,
      "އ": 1378,
      "މ": 1379,
      "ދ": 1380,
      "ތ": 1381,
      "ލ": 1382,
      "ގ": 1383,
      "ޏ": 1384,
      "ސ": 1385,
      "ޑ": 1386,
      "ޔ": 1387,
      "ޖ": 1388,
      "ޝ": 1389,
      "ަ": 1390,
      "ާ": 1391,
      "ި": 1392,
      "ީ": 1393,
      "ު": 1394,
      "ޫ": 1395,
      "ެ": 1396,
      "ް": 1397,
      "ޱ": 1398,
      "ߊ": 1399,
      "ߋ": 1400,
      "ߌ": 1401,
      "ߍ": 1402,
      "ߎ": 1403,
      "ߏ": 1404,
      "ߓ": 1405,
      "ߕ": 1406,
      "ߖ": 1407,
      "ߘ": 1408,
      "ߙ": 1409,
      "ߜ": 1410,
      "ߝ": 1411,
      "ߞ": 1412,
      "ߟ": 1413,
      "ߡ": 1414,
      "ߣ": 1415,
      "ߦ": 1416,
      "߫": 1417,
      "߬": 1418,
      "߲": 1419,
      "ँ": 1420,
      "ं": 1421,
      "ः": 1422,
      "अ": 1423,
      "आ": 1424,
      "इ": 1425,
      "ई": 1426,
      "उ": 1427,
      "ऊ": 1428,
      "ऋ": 1429,
      "ए": 1430,
      "ऐ": 1431,
      "ऑ": 1432,
      "ओ": 1433,
      "औ": 1434,
      "क": 1435,
      "ख": 1436,
      "ग": 1437,
      "घ": 1438,
      "ङ": 1439,
      "च": 1440,
      "छ": 1441,
      "ज": 1442,
      "झ": 1443,
      "ञ": 1444,
      "ट": 1445,
      "ठ": 1446,
      "ड": 1447,
      "ढ": 1448,
      "ण": 1449,
      "त": 1450,
      "थ": 1451,
      "द": 1452,
      "ध": 1453,
      "न": 1454,
      "प": 1455,
      "फ": 1456,
      "ब": 1457,
      "भ": 1458,
      "म": 1459,
      "य": 1460,
      "र": 1461,
      "ऱ": 1462,
      "ल": 1463,
      "ळ": 1464,
      "व": 1465,
      "श": 1466,
      "ष": 1467,
      "स": 1468,
      "ह": 1469,
      "़": 1470,
      "ऽ": 1471,
      "ा": 1472,
      "ि": 1473,
      "ी": 1474,
      "ु": 1475,
      "ू": 1476,
      "ृ": 1477,
      "े": 1478,
      "ै": 1479,
      "ो": 1480,
      "ौ": 1481,
      "्": 1482,
      "ॐ": 1483,
      "॒": 1484,
      "ॡ": 1485,
      "ॣ": 1486,
      "।": 1487,
      "॥": 1488,
      "०": 1489,
      "५": 1490,
      "९": 1491,
      "॰": 1492,
      "ঁ": 1493,
      "ং": 1494,
      "ঃ": 1495,
      "অ": 1496,
      "আ": 1497,
      "ই": 1498,
      "উ": 1499,
      "ঊ": 1500,
      "এ": 1501,
      "ও": 1502,
      "ক": 1503,
      "খ": 1504,
      "গ": 1505,
      "ঘ": 1506,
      "ঙ": 1507,
      "চ": 1508,
      "ছ": 1509,
      "জ": 1510,
      "ঝ": 1511,
      "ঞ": 1512,
      "ট": 1513,
      "ঠ": 1514,
      "ড": 1515,
      "ণ": 1516,
      "ত": 1517,
      "থ": 1518,
      "দ": 1519,
      "ধ": 1520,
      "ন": 1521,
      "প": 1522,
      "ফ": 1523,
      "ব": 1524,
      "ভ": 1525,
      "ম": 1526,
      "য": 1527,
      "র": 1528,
      "ল": 1529,
      "শ": 1530,
      "ষ": 1531,
      "স": 1532,
      "হ": 1533,
      "়": 1534,
      "া": 1535,
      "ি": 1536,
      "ী": 1537,
      "ু": 1538,
      "ূ": 1539,
      "ৃ": 1540,
      "ে": 1541,
      "ৈ": 1542,
      "ো": 1543,
      "ৌ": 1544,
      "্": 1545,
      "ৎ": 1546,
      "১": 1547,
      "২": 1548,
      "৩": 1549,
      "৪": 1550,
      "৫": 1551,
      "৬": 1552,
      "৭": 1553,
      "ৰ": 1554,
      "ৱ": 1555,
      "৲": 1556,
      "৳": 1557,
      "৷": 1558,
      "৹": 1559,
      "ਂ": 1560,
      "ਃ": 1561,
      "ਅ": 1562,
      "ਆ": 1563,
      "ਉ": 1564,
      "ਊ": 1565,
      "ਓ": 1566,
      "ਕ": 1567,
      "ਖ": 1568,
      "ਗ": 1569,
      "ਘ": 1570,
      "ਜ": 1571,
      "ਝ": 1572,
      "ਟ": 1573,
      "ਣ": 1574,
      "ਤ": 1575,
      "ਥ": 1576,
      "ਦ": 1577,
      "ਧ": 1578,
      "ਨ": 1579,
      "ਪ": 1580,
      "ਬ": 1581,
      "ਭ": 1582,
      "ਮ": 1583,
      "ਰ": 1584,
      "ਲ": 1585,
      "ਵ": 1586,
      "ਸ": 1587,
      "ਹ": 1588,
      "਼": 1589,
      "ਾ": 1590,
      "ਿ": 1591,
      "ੀ": 1592,
      "ੁ": 1593,
      "ੂ": 1594,
      "ੇ": 1595,
      "ੋ": 1596,
      "੍": 1597,
      "ੜ": 1598,
      "ੰ": 1599,
      "ੱ": 1600,
      "ੲ": 1601,
      "ੳ": 1602,
      "ੴ": 1603,
      "ઁ": 1604,
      "અ": 1605,
      "ગ": 1606,
      "જ": 1607,
      "ણ": 1608,
      "ત": 1609,
      "દ": 1610,
      "ન": 1611,
      "પ": 1612,
      "મ": 1613,
      "ર": 1614,
      "લ": 1615,
      "વ": 1616,
      "સ": 1617,
      "હ": 1618,
      "ા": 1619,
      "ી": 1620,
      "ુ": 1621,
      "ૂ": 1622,
      "ૃ": 1623,
      "ે": 1624,
      "૱": 1625,
      "ଁ": 1626,
      "ଂ": 1627,
      "କ": 1628,
      "ଗ": 1629,
      "ଙ": 1630,
      "ଡ": 1631,
      "ନ": 1632,
      "ବ": 1633,
      "ମ": 1634,
      "ର": 1635,
      "ଲ": 1636,
      "ଵ": 1637,
      "ଶ": 1638,
      "ସ": 1639,
      "଼": 1640,
      "ା": 1641,
      "ି": 1642,
      "ୁ": 1643,
      "େ": 1644,
      "୍": 1645,
      "୨": 1646,
      "ஃ": 1647,
      "அ": 1648,
      "ஆ": 1649,
      "இ": 1650,
      "ஈ": 1651,
      "உ": 1652,
      "எ": 1653,
      "ஏ": 1654,
      "ஐ": 1655,
      "ஒ": 1656,
      "க": 1657,
      "ங": 1658,
      "ச": 1659,
      "ஜ": 1660,
      "ஞ": 1661,
      "ட": 1662,
      "ண": 1663,
      "த": 1664,
      "ந": 1665,
      "ன": 1666,
      "ப": 1667,
      "ம": 1668,
      "ய": 1669,
      "ர": 1670,
      "ற": 1671,
      "ல": 1672,
      "ள": 1673,
      "ழ": 1674,
      "வ": 1675,
      "ஷ": 1676,
      "ஸ": 1677,
      "ா": 1678,
      "ி": 1679,
      "ீ": 1680,
      "ு": 1681,
      "ூ": 1682,
      "ெ": 1683,
      "ே": 1684,
      "ை": 1685,
      "ொ": 1686,
      "ோ": 1687,
      "்": 1688,
      "ఁ": 1689,
      "ం": 1690,
      "ః": 1691,
      "ఆ": 1692,
      "ఇ": 1693,
      "ఐ": 1694,
      "ఔ": 1695,
      "క": 1696,
      "ఖ": 1697,
      "గ": 1698,
      "జ": 1699,
      "ఞ": 1700,
      "ట": 1701,
      "డ": 1702,
      "ణ": 1703,
      "త": 1704,
      "ధ": 1705,
      "న": 1706,
      "ప": 1707,
      "బ": 1708,
      "మ": 1709,
      "య": 1710,
      "ర": 1711,
      "ల": 1712,
      "వ": 1713,
      "శ": 1714,
      "స": 1715,
      "హ": 1716,
      "ా": 1717,
      "ి": 1718,
      "ీ": 1719,
      "ు": 1720,
      "ూ": 1721,
      "ృ": 1722,
      "ౄ": 1723,
      "ె": 1724,
      "ే": 1725,
      "ై": 1726,
      "ొ": 1727,
      "ో": 1728,
      "ౌ": 1729,
      "్": 1730,
      "ಂ": 1731,
      "ಅ": 1732,
      "ಇ": 1733,
      "ಕ": 1734,
      "ಖ": 1735,
      "ಗ": 1736,
      "ಘ": 1737,
      "ಙ": 1738,
      "ಚ": 1739,
      "ಛ": 1740,
      "ಜ": 1741,
      "ಝ": 1742,
      "ಞ": 1743,
      "ಟ": 1744,
      "ಠ": 1745,
      "ಡ": 1746,
      "ಢ": 1747,
      "ಣ": 1748,
      "ತ": 1749,
      "ಥ": 1750,
      "ದ": 1751,
      "ಧ": 1752,
      "ನ": 1753,
      "ಪ": 1754,
      "ಫ": 1755,
      "ಬ": 1756,
      "ಭ": 1757,
      "ಮ": 1758,
      "ಯ": 1759,
      "ರ": 1760,
      "ಲ": 1761,
      "ಳ": 1762,
      "ವ": 1763,
      "ಶ": 1764,
      "ಷ": 1765,
      "ಸ": 1766,
      "ಹ": 1767,
      "ಾ": 1768,
      "ಿ": 1769,
      "ೀ": 1770,
      "ು": 1771,
      "ೂ": 1772,
      "ೆ": 1773,
      "ೇ": 1774,
      "ೊ": 1775,
      "ೋ": 1776,
      "್": 1777,
      "೦": 1778,
      "೧": 1779,
      "೨": 1780,
      "೩": 1781,
      "೪": 1782,
      "೫": 1783,
      "೬": 1784,
      "೭": 1785,
      "೮": 1786,
      "೯": 1787,
      "ം": 1788,
      "അ": 1789,
      "ഇ": 1790,
      "എ": 1791,
      "ക": 1792,
      "ഗ": 1793,
      "ങ": 1794,
      "ച": 1795,
      "ട": 1796,
      "ഡ": 1797,
      "ണ": 1798,
      "ത": 1799,
      "ന": 1800,
      "പ": 1801,
      "ബ": 1802,
      "മ": 1803,
      "യ": 1804,
      "ര": 1805,
      "റ": 1806,
      "ല": 1807,
      "ള": 1808,
      "വ": 1809,
      "ഹ": 1810,
      "ാ": 1811,
      "ി": 1812,
      "ു": 1813,
      "െ": 1814,
      "േ": 1815,
      "ോ": 1816,
      "്": 1817,
      "ൻ": 1818,
      "ർ": 1819,
      "ං": 1820,
      "ඇ": 1821,
      "ඉ": 1822,
      "එ": 1823,
      "ඓ": 1824,
      "ඔ": 1825,
      "ක": 1826,
      "ග": 1827,
      "ච": 1828,
      "ජ": 1829,
      "ට": 1830,
      "ඩ": 1831,
      "ත": 1832,
      "ථ": 1833,
      "ද": 1834,
      "ධ": 1835,
      "න": 1836,
      "ප": 1837,
      "බ": 1838,
      "ම": 1839,
      "ය": 1840,
      "ර": 1841,
      "ල": 1842,
      "ව": 1843,
      "ශ": 1844,
      "ෂ": 1845,
      "ස": 1846,
      "හ": 1847,
      "්": 1848,
      "ා": 1849,
      "ි": 1850,
      "ී": 1851,
      "ු": 1852,
      "ෙ": 1853,
      "ේ": 1854,
      "ො": 1855,
      "ෝ": 1856,
      "ก": 1857,
      "ข": 1858,
      "ค": 1859,
      "ฅ": 1860,
      "ฆ": 1861,
      "ง": 1862,
      "จ": 1863,
      "ฉ": 1864,
      "ช": 1865,
      "ซ": 1866,
      "ฌ": 1867,
      "ญ": 1868,
      "ฎ": 1869,
      "ฏ": 1870,
      "ฐ": 1871,
      "ฑ": 1872,
      "ฒ": 1873,
      "ณ": 1874,
      "ด": 1875,
      "ต": 1876,
      "ถ": 1877,
      "ท": 1878,
      "ธ": 1879,
      "น": 1880,
      "บ": 1881,
      "ป": 1882,
      "ผ": 1883,
      "ฝ": 1884,
      "พ": 1885,
      "ฟ": 1886,
      "ภ": 1887,
      "ม": 1888,
      "ย": 1889,
      "ร": 1890,
      "ฤ": 1891,
      "ล": 1892,
      "ฦ": 1893,
      "ว": 1894,
      "ศ": 1895,
      "ษ": 1896,
      "ส": 1897,
      "ห": 1898,
      "ฬ": 1899,
      "อ": 1900,
      "ฮ": 1901,
      "ฯ": 1902,
      "ะ": 1903,
      "ั": 1904,
      "า": 1905,
      "ำ": 1906,
      "ิ": 1907,
      "ี": 1908,
      "ึ": 1909,
      "ื": 1910,
      "ุ": 1911,
      "ู": 1912,
      "ฺ": 1913,
      "฿": 1914,
      "เ": 1915,
      "แ": 1916,
      "โ": 1917,
      "ใ": 1918,
      "ไ": 1919,
      "ๅ": 1920,
      "ๆ": 1921,
      "็": 1922,
      "่": 1923,
      "้": 1924,
      "๊": 1925,
      "๋": 1926,
      "์": 1927,
      "ํ": 1928,
      "๑": 1929,
      "๓": 1930,
      "๕": 1931,
      "๘": 1932,
      "๚": 1933,
      "ກ": 1934,
      "ຄ": 1935,
      "ງ": 1936,
      "ຈ": 1937,
      "ຊ": 1938,
      "ຍ": 1939,
      "ດ": 1940,
      "ຕ": 1941,
      "ທ": 1942,
      "ນ": 1943,
      "ບ": 1944,
      "ປ": 1945,
      "ຜ": 1946,
      "ພ": 1947,
      "ຟ": 1948,
      "ມ": 1949,
      "ຢ": 1950,
      "ຣ": 1951,
      "ລ": 1952,
      "ວ": 1953,
      "ສ": 1954,
      "ຫ": 1955,
      "ອ": 1956,
      "ຮ": 1957,
      "ະ": 1958,
      "ັ": 1959,
      "າ": 1960,
      "ຳ": 1961,
      "ິ": 1962,
      "ີ": 1963,
      "ື": 1964,
      "ຸ": 1965,
      "ູ": 1966,
      "ົ": 1967,
      "ຽ": 1968,
      "ເ": 1969,
      "ແ": 1970,
      "ໂ": 1971,
      "ໃ": 1972,
      "ໄ": 1973,
      "່": 1974,
      "້": 1975,
      "ໍ": 1976,
      "ໜ": 1977,
      "ༀ": 1978,
      "་": 1979,
      "།": 1980,
      "༔": 1981,
      "༼": 1982,
      "༽": 1983,
      "ཀ": 1984,
      "ཁ": 1985,
      "ག": 1986,
      "ང": 1987,
      "ཅ": 1988,
      "ཆ": 1989,
      "ཇ": 1990,
      "ཉ": 1991,
      "ཊ": 1992,
      "ཏ": 1993,
      "ཐ": 1994,
      "ད": 1995,
      "ན": 1996,
      "པ": 1997,
      "ཕ": 1998,
      "བ": 1999,
      "མ": 2000,
      "ཙ": 2001,
      "ཚ": 2002,
      "ཛ": 2003,
      "ཝ": 2004,
      "ཞ": 2005,
      "ཟ": 2006,
      "འ": 2007,
      "ཡ": 2008,
      "ར": 2009,
      "ལ": 2010,
      "ཤ": 2011,
      "ས": 2012,
      "ཧ": 2013,
      "ཨ": 2014,
      "ཱ": 2015,
      "ི": 2016,
      "ུ": 2017,
      "ེ": 2018,
      "ོ": 2019,
      "ཽ": 2020,
      "ཾ": 2021,
      "ཿ": 2022,
      "ྀ": 2023,
      "ྃ": 2024,
      "ྐ": 2025,
      "ྒ": 2026,
      "ྔ": 2027,
      "ྕ": 2028,
      "ྗ": 2029,
      "ྙ": 2030,
      "ྟ": 2031,
      "ྡ": 2032,
      "ྣ": 2033,
      "ྤ": 2034,
      "ྦ": 2035,
      "ྨ": 2036,
      "ྩ": 2037,
      "ྫ": 2038,
      "ྭ": 2039,
      "ྱ": 2040,
      "ྲ": 2041,
      "ླ": 2042,
      "ྶ": 2043,
      "ྷ": 2044,
      "࿇": 2045,
      "က": 2046,
      "ခ": 2047,
      "ဂ": 2048,
      "ဃ": 2049,
      "င": 2050,
      "စ": 2051,
      "ဆ": 2052,
      "ဇ": 2053,
      "ည": 2054,
      "ဌ": 2055,
      "ဍ": 2056,
      "ဎ": 2057,
      "ဏ": 2058,
      "တ": 2059,
      "ထ": 2060,
      "ဒ": 2061,
      "ဓ": 2062,
      "န": 2063,
      "ပ": 2064,
      "ဖ": 2065,
      "ဗ": 2066,
      "ဘ": 2067,
      "မ": 2068,
      "ယ": 2069,
      "ရ": 2070,
      "လ": 2071,
      "ဝ": 2072,
      "သ": 2073,
      "ဟ": 2074,
      "အ": 2075,
      "ဢ": 2076,
      "ဦ": 2077,
      "ဧ": 2078,
      "ါ": 2079,
      "ာ": 2080,
      "ိ": 2081,
      "ီ": 2082,
      "ု": 2083,
      "ူ": 2084,
      "ေ": 2085,
      "ဲ": 2086,
      "ဳ": 2087,
      "ံ": 2088,
      "့": 2089,
      "း": 2090,
      "္": 2091,
      "်": 2092,
      "ျ": 2093,
      "ြ": 2094,
      "ွ": 2095,
      "ှ": 2096,
      "၀": 2097,
      "၁": 2098,
      "၂": 2099,
      "၇": 2100,
      "၈": 2101,
      "ၜ": 2102,
      "ၢ": 2103,
      "ၵ": 2104,
      "ၿ": 2105,
      "ႂ": 2106,
      "ႄ": 2107,
      "ႆ": 2108,
      "ႏ": 2109,
      "Ⴀ": 2110,
      "Ⴄ": 2111,
      "Ⴇ": 2112,
      "Ⴈ": 2113,
      "Ⴊ": 2114,
      "Ⴌ": 2115,
      "Ⴍ": 2116,
      "Ⴐ": 2117,
      "Ⴕ": 2118,
      "Ⴢ": 2119,
      "Ⴣ": 2120,
      "ა": 2121,
      "ბ": 2122,
      "გ": 2123,
      "დ": 2124,
      "ე": 2125,
      "ვ": 2126,
      "ზ": 2127,
      "თ": 2128,
      "ი": 2129,
      "კ": 2130,
      "ლ": 2131,
      "მ": 2132,
      "ნ": 2133,
      "ო": 2134,
      "პ": 2135,
      "ჟ": 2136,
      "რ": 2137,
      "ს": 2138,
      "ტ": 2139,
      "უ": 2140,
      "ფ": 2141,
      "ქ": 2142,
      "ღ": 2143,
      "ყ": 2144,
      "შ": 2145,
      "ჩ": 2146,
      "ც": 2147,
      "ძ": 2148,
      "წ": 2149,
      "ჭ": 2150,
      "ხ": 2151,
      "ჯ": 2152,
      "ᄅ": 2153,
      "ᄇ": 2154,
      "ᄋ": 2155,
      "ᄒ": 2156,
      "ᄽ": 2157,
      "ᄿ": 2158,
      "ᅎ": 2159,
      "ᅏ": 2160,
      "ᅐ": 2161,
      "ᅑ": 2162,
      "ᅲ": 2163,
      "ᆫ": 2164,
      "ሄ": 2165,
      "ህ": 2166,
      "ለ": 2167,
      "ሊ": 2168,
      "ላ": 2169,
      "ሌ": 2170,
      "ል": 2171,
      "ሐ": 2172,
      "ሒ": 2173,
      "ሓ": 2174,
      "ሕ": 2175,
      "መ": 2176,
      "ሚ": 2177,
      "ማ": 2178,
      "ሜ": 2179,
      "ም": 2180,
      "ሞ": 2181,
      "ሠ": 2182,
      "ሥ": 2183,
      "ረ": 2184,
      "ሩ": 2185,
      "ሪ": 2186,
      "ራ": 2187,
      "ሬ": 2188,
      "ር": 2189,
      "ሰ": 2190,
      "ሱ": 2191,
      "ሳ": 2192,
      "ስ": 2193,
      "ሷ": 2194,
      "ሽ": 2195,
      "ቃ": 2196,
      "ቅ": 2197,
      "በ": 2198,
      "ቡ": 2199,
      "ባ": 2200,
      "ብ": 2201,
      "ቪ": 2202,
      "ተ": 2203,
      "ቲ": 2204,
      "ታ": 2205,
      "ት": 2206,
      "ቷ": 2207,
      "ች": 2208,
      "ኅ": 2209,
      "ነ": 2210,
      "ና": 2211,
      "ን": 2212,
      "ኛ": 2213,
      "ኝ": 2214,
      "አ": 2215,
      "ኢ": 2216,
      "ኣ": 2217,
      "እ": 2218,
      "ከ": 2219,
      "ክ": 2220,
      "ወ": 2221,
      "ዊ": 2222,
      "ው": 2223,
      "ዎ": 2224,
      "ዕ": 2225,
      "ዘ": 2226,
      "ዜ": 2227,
      "ዝ": 2228,
      "ዥ": 2229,
      "የ": 2230,
      "ያ": 2231,
      "ዬ": 2232,
      "ይ": 2233,
      "ዮ": 2234,
      "ደ": 2235,
      "ዳ": 2236,
      "ዴ": 2237,
      "ድ": 2238,
      "ዶ": 2239,
      "ጀ": 2240,
      "ጁ": 2241,
      "ገ": 2242,
      "ጉ": 2243,
      "ጊ": 2244,
      "ጋ": 2245,
      "ግ": 2246,
      "ጠ": 2247,
      "ጣ": 2248,
      "ጥ": 2249,
      "ጵ": 2250,
      "ጸ": 2251,
      "ፀ": 2252,
      "ፊ": 2253,
      "ፋ": 2254,
      "ፍ": 2255,
      "ፕ": 2256,
      "Ꭱ": 2257,
      "Ꭹ": 2258,
      "Ꭺ": 2259,
      "Ꭿ": 2260,
      "Ꮃ": 2261,
      "Ꮄ": 2262,
      "Ꮅ": 2263,
      "Ꮕ": 2264,
      "Ꮖ": 2265,
      "Ꮗ": 2266,
      "Ꮜ": 2267,
      "Ꮝ": 2268,
      "Ꮣ": 2269,
      "Ꮧ": 2270,
      "Ꮩ": 2271,
      "Ꮳ": 2272,
      "Ꮷ": 2273,
      "Ꮹ": 2274,
      "Ꮻ": 2275,
      "Ꮿ": 2276,
      "Ᏽ": 2277,
      "ᐃ": 2278,
      "ᐄ": 2279,
      "ᐅ": 2280,
      "ᐊ": 2281,
      "ᐋ": 2282,
      "ᐏ": 2283,
      "ᐑ": 2284,
      "ᐚ": 2285,
      "ᐟ": 2286,
      "ᐢ": 2287,
      "ᐣ": 2288,
      "ᐤ": 2289,
      "ᐦ": 2290,
      "ᐧ": 2291,
      "ᐯ": 2292,
      "ᐱ": 2293,
      "ᐸ": 2294,
      "ᐺ": 2295,
      "ᑎ": 2296,
      "ᑐ": 2297,
      "ᑑ": 2298,
      "ᑕ": 2299,
      "ᑖ": 2300,
      "ᑦ": 2301,
      "ᑫ": 2302,
      "ᑭ": 2303,
      "ᑮ": 2304,
      "ᑯ": 2305,
      "ᑲ": 2306,
      "ᑿ": 2307,
      "ᒃ": 2308,
      "ᒋ": 2309,
      "ᒌ": 2310,
      "ᒡ": 2311,
      "ᒣ": 2312,
      "ᒥ": 2313,
      "ᒧ": 2314,
      "ᒨ": 2315,
      "ᒪ": 2316,
      "ᒻ": 2317,
      "ᓂ": 2318,
      "ᓄ": 2319,
      "ᓇ": 2320,
      "ᓈ": 2321,
      "ᓐ": 2322,
      "ᓕ": 2323,
      "ᓗ": 2324,
      "ᓛ": 2325,
      "ᓯ": 2326,
      "ᓰ": 2327,
      "ᓱ": 2328,
      "ᓲ": 2329,
      "ᓵ": 2330,
      "ᔅ": 2331,
      "ᔑ": 2332,
      "ᔪ": 2333,
      "ᔭ": 2334,
      "ᕆ": 2335,
      "ᕋ": 2336,
      "ᕐ": 2337,
      "ᕓ": 2338,
      "ᕕ": 2339,
      "ᕗ": 2340,
      "ᕙ": 2341,
      "ᕿ": 2342,
      "ᖃ": 2343,
      "ᖅ": 2344,
      "ᖓ": 2345,
      "ᖹ": 2346,
      "ᗅ": 2347,
      "ᗜ": 2348,
      "ᗷ": 2349,
      "ᗺ": 2350,
      "ᚢ": 2351,
      "ᚱ": 2352,
      "ᚲ": 2353,
      "ᚴ": 2354,
      "ᚷ": 2355,
      "ᚹ": 2356,
      "ᚼ": 2357,
      "ᚾ": 2358,
      "ᛃ": 2359,
      "ᛅ": 2360,
      "ᛉ": 2361,
      "ᛊ": 2362,
      "ᛏ": 2363,
      "ᛒ": 2364,
      "ᛘ": 2365,
      "ᛜ": 2366,
      "ᛦ": 2367,
      "ᜃ": 2368,
      "ᜋ": 2369,
      "ᜎ": 2370,
      "ᜑ": 2371,
      "ᜒ": 2372,
      "᜵": 2373,
      "᜶": 2374,
      "ᝃ": 2375,
      "ᝒ": 2376,
      "ក": 2377,
      "ខ": 2378,
      "គ": 2379,
      "ឃ": 2380,
      "ង": 2381,
      "ច": 2382,
      "ឆ": 2383,
      "ជ": 2384,
      "ឈ": 2385,
      "ញ": 2386,
      "ដ": 2387,
      "ឋ": 2388,
      "ណ": 2389,
      "ត": 2390,
      "ថ": 2391,
      "ទ": 2392,
      "ធ": 2393,
      "ន": 2394,
      "ប": 2395,
      "ព": 2396,
      "ភ": 2397,
      "ម": 2398,
      "យ": 2399,
      "រ": 2400,
      "ល": 2401,
      "វ": 2402,
      "ស": 2403,
      "ហ": 2404,
      "ឡ": 2405,
      "អ": 2406,
      "ឧ": 2407,
      "ឯ": 2408,
      "឴": 2409,
      "឵": 2410,
      "ា": 2411,
      "ិ": 2412,
      "ី": 2413,
      "ឹ": 2414,
      "ុ": 2415,
      "ូ": 2416,
      "ួ": 2417,
      "ើ": 2418,
      "ឿ": 2419,
      "ៀ": 2420,
      "េ": 2421,
      "ែ": 2422,
      "ៃ": 2423,
      "ោ": 2424,
      "ៅ": 2425,
      "ំ": 2426,
      "ះ": 2427,
      "ៈ": 2428,
      "៉": 2429,
      "៊": 2430,
      "់": 2431,
      "៍": 2432,
      "័": 2433,
      "៑": 2434,
      "្": 2435,
      "᠊": 2436,
      "᠋": 2437,
      "ᠠ": 2438,
      "ᠡ": 2439,
      "ᠢ": 2440,
      "ᠣ": 2441,
      "ᠦ": 2442,
      "ᠨ": 2443,
      "ᠩ": 2444,
      "ᠪ": 2445,
      "ᠬ": 2446,
      "ᠭ": 2447,
      "ᠯ": 2448,
      "ᠰ": 2449,
      "ᠴ": 2450,
      "ᠵ": 2451,
      "ᠶ": 2452,
      "ᠷ": 2453,
      "ᠸ": 2454,
      "ᡄ": 2455,
      "ᡅ": 2456,
      "ᡆ": 2457,
      "ᡉ": 2458,
      "ᡊ": 2459,
      "ᡍ": 2460,
      "ᡎ": 2461,
      "ᡐ": 2462,
      "ᡠ": 2463,
      "ᡤ": 2464,
      "ᡨ": 2465,
      "ᡳ": 2466,
      "ᡴ": 2467,
      "ᡵ": 2468,
      "ᡶ": 2469,
      "ᤌ": 2470,
      "ᤕ": 2471,
      "ᤠ": 2472,
      "ᤢ": 2473,
      "ᤰ": 2474,
      "ᤱ": 2475,
      "ᥐ": 2476,
      "ᥑ": 2477,
      "ᥒ": 2478,
      "ᥓ": 2479,
      "ᥔ": 2480,
      "ᥕ": 2481,
      "ᥖ": 2482,
      "ᥗ": 2483,
      "ᥘ": 2484,
      "ᥙ": 2485,
      "ᥛ": 2486,
      "ᥜ": 2487,
      "ᥝ": 2488,
      "ᥞ": 2489,
      "ᥢ": 2490,
      "ᥣ": 2491,
      "ᥤ": 2492,
      "ᥥ": 2493,
      "ᥦ": 2494,
      "ᥧ": 2495,
      "ᥨ": 2496,
      "ᥩ": 2497,
      "ᥪ": 2498,
      "ᥫ": 2499,
      "ᥬ": 2500,
      "ᥭ": 2501,
      "ᥰ": 2502,
      "ᥱ": 2503,
      "ᥲ": 2504,
      "ᥳ": 2505,
      "ᥴ": 2506,
      "ᦂ": 2507,
      "ᦄ": 2508,
      "ᦉ": 2509,
      "ᦍ": 2510,
      "ᦑ": 2511,
      "ᦒ": 2512,
      "ᦞ": 2513,
      "ᦟ": 2514,
      "ᦠ": 2515,
      "ᦢ": 2516,
      "ᦰ": 2517,
      "ᦱ": 2518,
      "ᦲ": 2519,
      "ᦳ": 2520,
      "ᦴ": 2521,
      "ᦵ": 2522,
      "ᦶ": 2523,
      "ᦷ": 2524,
      "ᦸ": 2525,
      "ᦹ": 2526,
      "ᦺ": 2527,
      "ᧁ": 2528,
      "ᧂ": 2529,
      "ᧃ": 2530,
      "ᧄ": 2531,
      "ᧅ": 2532,
      "ᧆ": 2533,
      "ᧇ": 2534,
      "ᧈ": 2535,
      "ᧉ": 2536,
      "᧑": 2537,
      "᧚": 2538,
      "᧞": 2539,
      "᧟": 2540,
      "ᨀ": 2541,
      "ᨁ": 2542,
      "ᨄ": 2543,
      "ᨅ": 2544,
      "ᨆ": 2545,
      "ᨈ": 2546,
      "ᨉ": 2547,
      "ᨑ": 2548,
      "ᨒ": 2549,
      "ᨓ": 2550,
      "ᨔ": 2551,
      "ᨕ": 2552,
      "ᨘ": 2553,
      "ᨙ": 2554,
      "ᨚ": 2555,
      "ᨛ": 2556,
      "ᨡ": 2557,
      "ᨯ": 2558,
      "ᨰ": 2559,
      "ᨴ": 2560,
      "ᨵ": 2561,
      "ᨶ": 2562,
      "ᨿ": 2563,
      "ᩅ": 2564,
      "᩠": 2565,
      "ᩨ": 2566,
      "ᩫ": 2567,
      "ᩮ": 2568,
      "ᩯ": 2569,
      "ᩰ": 2570,
      "ᩱ": 2571,
      "ᩲ": 2572,
      "᩶": 2573,
      "᩻": 2574,
      "ᬂ": 2575,
      "ᬅ": 2576,
      "ᬑ": 2577,
      "ᬓ": 2578,
      "ᬢ": 2579,
      "ᬦ": 2580,
      "ᬩ": 2581,
      "ᬫ": 2582,
      "ᬬ": 2583,
      "ᬭ": 2584,
      "ᬳ": 2585,
      "ᬶ": 2586,
      "᭄": 2587,
      "ᰀ": 2588,
      "ᰃ": 2589,
      "ᰄ": 2590,
      "ᰏ": 2591,
      "ᰕ": 2592,
      "ᰛ": 2593,
      "ᰜ": 2594,
      "ᰝ": 2595,
      "ᰠ": 2596,
      "ᰤ": 2597,
      "ᰥ": 2598,
      "ᰦ": 2599,
      "ᰧ": 2600,
      "ᰨ": 2601,
      "ᰩ": 2602,
      "ᰪ": 2603,
      "ᰫ": 2604,
      "ᰬ": 2605,
      "ᰭ": 2606,
      "ᰮ": 2607,
      "ᰲ": 2608,
      "ᰳ": 2609,
      "ᰶ": 2610,
      "᰷": 2611,
      "ᴀ": 2612,
      "ᴁ": 2613,
      "ᴂ": 2614,
      "ᴃ": 2615,
      "ᴄ": 2616,
      "ᴅ": 2617,
      "ᴆ": 2618,
      "ᴇ": 2619,
      "ᴈ": 2620,
      "ᴉ": 2621,
      "ᴊ": 2622,
      "ᴋ": 2623,
      "ᴌ": 2624,
      "ᴍ": 2625,
      "ᴏ": 2626,
      "ᴔ": 2627,
      "ᴗ": 2628,
      "ᴘ": 2629,
      "ᴙ": 2630,
      "ᴚ": 2631,
      "ᴛ": 2632,
      "ᴜ": 2633,
      "ᴝ": 2634,
      "ᴞ": 2635,
      "ᴟ": 2636,
      "ᴠ": 2637,
      "ᴢ": 2638,
      "ᴺ": 2639,
      "ᵀ": 2640,
      "ᵉ": 2641,
      "ᵋ": 2642,
      "ᵐ": 2643,
      "ᵑ": 2644,
      "ᵕ": 2645,
      "ᵘ": 2646,
      "ᵛ": 2647,
      "ᵝ": 2648,
      "ᵢ": 2649,
      "ᵧ": 2650,
      "ᵫ": 2651,
      "ᵬ": 2652,
      "ᵭ": 2653,
      "ᵮ": 2654,
      "ᵯ": 2655,
      "ᵰ": 2656,
      "ᵱ": 2657,
      "ᵲ": 2658,
      "ᵳ": 2659,
      "ᵴ": 2660,
      "ᵵ": 2661,
      "ᵶ": 2662,
      "ᵷ": 2663,
      "ᵹ": 2664,
      "ᵺ": 2665,
      "ᵻ": 2666,
      "ᵼ": 2667,
      "ᵽ": 2668,
      "ᵾ": 2669,
      "ᵿ": 2670,
      "ᶀ": 2671,
      "ᶂ": 2672,
      "ᶃ": 2673,
      "ᶄ": 2674,
      "ᶅ": 2675,
      "ᶆ": 2676,
      "ᶇ": 2677,
      "ᶈ": 2678,
      "ᶉ": 2679,
      "ᶊ": 2680,
      "ᶋ": 2681,
      "ᶌ": 2682,
      "ᶍ": 2683,
      "ᶎ": 2684,
      "ᶏ": 2685,
      "ᶐ": 2686,
      "ᶑ": 2687,
      "ᶒ": 2688,
      "ᶓ": 2689,
      "ᶔ": 2690,
      "ᶕ": 2691,
      "ᶖ": 2692,
      "ᶘ": 2693,
      "ᶙ": 2694,
      "ᶚ": 2695,
      "ᶦ": 2696,
      "ᶧ": 2697,
      "ᶫ": 2698,
      "ᶰ": 2699,
      "ᶱ": 2700,
      "ᶸ": 2701,
      "ᶻ": 2702,
      "᷆": 2703,
      "ᷛ": 2704,
      "ᷞ": 2705,
      "ᷟ": 2706,
      "ᷡ": 2707,
      "ᷢ": 2708,
      "Ḁ": 2709,
      "ḁ": 2710,
      "Ḃ": 2711,
      "ḃ": 2712,
      "Ḅ": 2713,
      "ḅ": 2714,
      "Ḇ": 2715,
      "ḇ": 2716,
      "Ḉ": 2717,
      "ḉ": 2718,
      "Ḋ": 2719,
      "ḋ": 2720,
      "Ḍ": 2721,
      "ḍ": 2722,
      "Ḏ": 2723,
      "ḏ": 2724,
      "Ḑ": 2725,
      "ḑ": 2726,
      "Ḓ": 2727,
      "ḓ": 2728,
      "Ḕ": 2729,
      "ḕ": 2730,
      "Ḗ": 2731,
      "ḗ": 2732,
      "Ḙ": 2733,
      "ḙ": 2734,
      "Ḛ": 2735,
      "ḛ": 2736,
      "Ḝ": 2737,
      "ḝ": 2738,
      "Ḟ": 2739,
      "ḟ": 2740,
      "Ḡ": 2741,
      "ḡ": 2742,
      "Ḣ": 2743,
      "ḣ": 2744,
      "Ḥ": 2745,
      "ḥ": 2746,
      "Ḧ": 2747,
      "ḧ": 2748,
      "Ḩ": 2749,
      "ḩ": 2750,
      "Ḫ": 2751,
      "ḫ": 2752,
      "Ḭ": 2753,
      "ḭ": 2754,
      "Ḯ": 2755,
      "ḯ": 2756,
      "Ḱ": 2757,
      "ḱ": 2758,
      "Ḳ": 2759,
      "ḳ": 2760,
      "Ḵ": 2761,
      "ḵ": 2762,
      "Ḷ": 2763,
      "ḷ": 2764,
      "Ḹ": 2765,
      "ḹ": 2766,
      "Ḻ": 2767,
      "ḻ": 2768,
      "Ḽ": 2769,
      "ḽ": 2770,
      "Ḿ": 2771,
      "ḿ": 2772,
      "Ṁ": 2773,
      "ṁ": 2774,
      "Ṃ": 2775,
      "ṃ": 2776,
      "Ṅ": 2777,
      "ṅ": 2778,
      "Ṇ": 2779,
      "ṇ": 2780,
      "Ṉ": 2781,
      "ṉ": 2782,
      "Ṋ": 2783,
      "ṋ": 2784,
      "Ṍ": 2785,
      "ṍ": 2786,
      "Ṏ": 2787,
      "ṏ": 2788,
      "Ṑ": 2789,
      "ṑ": 2790,
      "Ṓ": 2791,
      "ṓ": 2792,
      "Ṕ": 2793,
      "ṕ": 2794,
      "Ṗ": 2795,
      "ṗ": 2796,
      "Ṙ": 2797,
      "ṙ": 2798,
      "Ṛ": 2799,
      "ṛ": 2800,
      "Ṝ": 2801,
      "ṝ": 2802,
      "Ṟ": 2803,
      "ṟ": 2804,
      "Ṡ": 2805,
      "ṡ": 2806,
      "Ṣ": 2807,
      "ṣ": 2808,
      "Ṥ": 2809,
      "ṥ": 2810,
      "Ṧ": 2811,
      "ṧ": 2812,
      "Ṩ": 2813,
      "ṩ": 2814,
      "Ṫ": 2815,
      "ṫ": 2816,
      "Ṭ": 2817,
      "ṭ": 2818,
      "Ṯ": 2819,
      "ṯ": 2820,
      "Ṱ": 2821,
      "ṱ": 2822,
      "Ṳ": 2823,
      "ṳ": 2824,
      "Ṵ": 2825,
      "ṵ": 2826,
      "Ṷ": 2827,
      "ṷ": 2828,
      "Ṹ": 2829,
      "ṹ": 2830,
      "Ṻ": 2831,
      "ṻ": 2832,
      "Ṽ": 2833,
      "ṽ": 2834,
      "Ṿ": 2835,
      "ṿ": 2836,
      "Ẁ": 2837,
      "ẁ": 2838,
      "Ẃ": 2839,
      "ẃ": 2840,
      "Ẅ": 2841,
      "ẅ": 2842,
      "Ẇ": 2843,
      "ẇ": 2844,
      "Ẉ": 2845,
      "ẉ": 2846,
      "Ẋ": 2847,
      "ẋ": 2848,
      "Ẍ": 2849,
      "ẍ": 2850,
      "Ẏ": 2851,
      "ẏ": 2852,
      "Ẑ": 2853,
      "ẑ": 2854,
      "Ẓ": 2855,
      "ẓ": 2856,
      "Ẕ": 2857,
      "ẕ": 2858,
      "ẖ": 2859,
      "ẗ": 2860,
      "ẘ": 2861,
      "ẙ": 2862,
      "ẚ": 2863,
      "ẛ": 2864,
      "ẞ": 2865,
      "Ạ": 2866,
      "ạ": 2867,
      "Ả": 2868,
      "ả": 2869,
      "Ấ": 2870,
      "ấ": 2871,
      "Ầ": 2872,
      "ầ": 2873,
      "Ẩ": 2874,
      "ẩ": 2875,
      "Ẫ": 2876,
      "ẫ": 2877,
      "Ậ": 2878,
      "ậ": 2879,
      "Ắ": 2880,
      "ắ": 2881,
      "Ằ": 2882,
      "ằ": 2883,
      "Ẳ": 2884,
      "ẳ": 2885,
      "Ẵ": 2886,
      "ẵ": 2887,
      "Ặ": 2888,
      "ặ": 2889,
      "Ẹ": 2890,
      "ẹ": 2891,
      "Ẻ": 2892,
      "ẻ": 2893,
      "Ẽ": 2894,
      "ẽ": 2895,
      "Ế": 2896,
      "ế": 2897,
      "Ề": 2898,
      "ề": 2899,
      "Ể": 2900,
      "ể": 2901,
      "Ễ": 2902,
      "ễ": 2903,
      "Ệ": 2904,
      "ệ": 2905,
      "Ỉ": 2906,
      "ỉ": 2907,
      "Ị": 2908,
      "ị": 2909,
      "Ọ": 2910,
      "ọ": 2911,
      "Ỏ": 2912,
      "ỏ": 2913,
      "Ố": 2914,
      "ố": 2915,
      "Ồ": 2916,
      "ồ": 2917,
      "Ổ": 2918,
      "ổ": 2919,
      "Ỗ": 2920,
      "ỗ": 2921,
      "Ộ": 2922,
      "ộ": 2923,
      "Ớ": 2924,
      "ớ": 2925,
      "Ờ": 2926,
      "ờ": 2927,
      "Ở": 2928,
      "ở": 2929,
      "Ỡ": 2930,
      "ỡ": 2931,
      "Ợ": 2932,
      "ợ": 2933,
      "Ụ": 2934,
      "ụ": 2935,
      "Ủ": 2936,
      "ủ": 2937,
      "Ứ": 2938,
      "ứ": 2939,
      "Ừ": 2940,
      "ừ": 2941,
      "Ử": 2942,
      "ử": 2943,
      "Ữ": 2944,
      "ữ": 2945,
      "Ự": 2946,
      "ự": 2947,
      "Ỳ": 2948,
      "ỳ": 2949,
      "Ỵ": 2950,
      "ỵ": 2951,
      "Ỷ": 2952,
      "ỷ": 2953,
      "Ỹ": 2954,
      "ỹ": 2955,
      "Ỻ": 2956,
      "ỻ": 2957,
      "Ỽ": 2958,
      "ἀ": 2959,
      "ἁ": 2960,
      "ἂ": 2961,
      "ἃ": 2962,
      "ἄ": 2963,
      "ἅ": 2964,
      "Ἀ": 2965,
      "Ἁ": 2966,
      "Ἄ": 2967,
      "Ἅ": 2968,
      "Ἆ": 2969,
      "ἐ": 2970,
      "ἑ": 2971,
      "ἔ": 2972,
      "ἕ": 2973,
      "Ἐ": 2974,
      "Ἑ": 2975,
      "Ἔ": 2976,
      "Ἕ": 2977,
      "ἠ": 2978,
      "ἡ": 2979,
      "ἣ": 2980,
      "ἤ": 2981,
      "ἥ": 2982,
      "ἦ": 2983,
      "ἧ": 2984,
      "Ἠ": 2985,
      "Ἡ": 2986,
      "Ἥ": 2987,
      "ἰ": 2988,
      "ἱ": 2989,
      "ἳ": 2990,
      "ἴ": 2991,
      "ἵ": 2992,
      "ἶ": 2993,
      "ἷ": 2994,
      "Ἰ": 2995,
      "Ἱ": 2996,
      "Ἴ": 2997,
      "Ἶ": 2998,
      "ὀ": 2999,
      "ὁ": 3000,
      "ὄ": 3001,
      "ὅ": 3002,
      "Ὀ": 3003,
      "Ὁ": 3004,
      "Ὂ": 3005,
      "Ὄ": 3006,
      "Ὅ": 3007,
      "ὐ": 3008,
      "ὑ": 3009,
      "ὒ": 3010,
      "ὔ": 3011,
      "ὕ": 3012,
      "ὖ": 3013,
      "ὗ": 3014,
      "Ὑ": 3015,
      "Ὕ": 3016,
      "ὠ": 3017,
      "ὡ": 3018,
      "ὤ": 3019,
      "ὥ": 3020,
      "ὦ": 3021,
      "Ὠ": 3022,
      "ὰ": 3023,
      "ὲ": 3024,
      "ὴ": 3025,
      "ὶ": 3026,
      "ὸ": 3027,
      "ὺ": 3028,
      "ὼ": 3029,
      "ᾅ": 3030,
      "ᾍ": 3031,
      "ᾰ": 3032,
      "ᾱ": 3033,
      "ᾳ": 3034,
      "ᾴ": 3035,
      "ᾶ": 3036,
      "ᾷ": 3037,
      "᾽": 3038,
      "᾿": 3039,
      "ῃ": 3040,
      "ῆ": 3041,
      "ῇ": 3042,
      "ῐ": 3043,
      "ῑ": 3044,
      "ῖ": 3045,
      "Ὶ": 3046,
      "ῠ": 3047,
      "ῡ": 3048,
      "ῤ": 3049,
      "ῥ": 3050,
      "ῦ": 3051,
      "Ῥ": 3052,
      "ῳ": 3053,
      "ῶ": 3054,
      "ῷ": 3055,
      "῾": 3056,
      "​": 3057,
      "‌": 3058,
      "‍": 3059,
      "‎": 3060,
      "‏": 3061,
      "‐": 3062,
      "‑": 3063,
      "‒": 3064,
      "–": 3065,
      "—": 3066,
      "―": 3067,
      "‖": 3068,
      "‚": 3069,
      "‛": 3070,
      "„": 3071,
      "‟": 3072,
      "†": 3073,
      "‡": 3074,
      "•": 3075,
      "‣": 3076,
      "․": 3077,
      "‥": 3078,
      "…": 3079,
      "‧": 3080,
      "‪": 3081,
      "‬": 3082,
      "‭": 3083,
      "‰": 3084,
      "‱": 3085,
      "′": 3086,
      "″": 3087,
      "‴": 3088,
      "‵": 3089,
      "‶": 3090,
      "‹": 3091,
      "›": 3092,
      "※": 3093,
      "‼": 3094,
      "‽": 3095,
      "‾": 3096,
      "‿": 3097,
      "⁀": 3098,
      "⁂": 3099,
      "⁃": 3100,
      "⁄": 3101,
      "⁇": 3102,
      "⁈": 3103,
      "⁉": 3104,
      "⁋": 3105,
      "⁎": 3106,
      "⁓": 3107,
      "⁚": 3108,
      "⁠": 3109,
      "⁡": 3110,
      "⁣": 3111,
      "⁰": 3112,
      "ⁱ": 3113,
      "⁴": 3114,
      "⁵": 3115,
      "⁶": 3116,
      "⁷": 3117,
      "⁸": 3118,
      "⁹": 3119,
      "⁺": 3120,
      "⁻": 3121,
      "ⁿ": 3122,
      "₀": 3123,
      "₁": 3124,
      "₂": 3125,
      "₃": 3126,
      "₄": 3127,
      "₅": 3128,
      "₆": 3129,
      "₇": 3130,
      "₈": 3131,
      "₉": 3132,
      "ₐ": 3133,
      "ₒ": 3134,
      "ₓ": 3135,
      "ₕ": 3136,
      "ₙ": 3137,
      "ₜ": 3138,
      "₠": 3139,
      "₡": 3140,
      "₣": 3141,
      "₤": 3142,
      "₥": 3143,
      "₦": 3144,
      "₧": 3145,
      "₨": 3146,
      "₩": 3147,
      "₫": 3148,
      "€": 3149,
      "₮": 3150,
      "₯": 3151,
      "₰": 3152,
      "₱": 3153,
      "₴": 3154,
      "₷": 3155,
      "₹": 3156,
      "₺": 3157,
      "₼": 3158,
      "₽": 3159,
      "₾": 3160,
      "₿": 3161,
      "⃒": 3162,
      "⃝": 3163,
      "⃣": 3164,
      "ℂ": 3165,
      "℃": 3166,
      "℅": 3167,
      "℈": 3168,
      "℉": 3169,
      "ℍ": 3170,
      "ℎ": 3171,
      "ℓ": 3172,
      "ℕ": 3173,
      "№": 3174,
      "℘": 3175,
      "ℙ": 3176,
      "ℚ": 3177,
      "ℛ": 3178,
      "ℝ": 3179,
      "℞": 3180,
      "℠": 3181,
      "™": 3182,
      "ℤ": 3183,
      "℥": 3184,
      "℧": 3185,
      "℩": 3186,
      "Ⅎ": 3187,
      "ℳ": 3188,
      "ℵ": 3189,
      "⅂": 3190,
      "⅄": 3191,
      "ⅎ": 3192,
      "⅓": 3193,
      "⅔": 3194,
      "⅕": 3195,
      "⅖": 3196,
      "⅗": 3197,
      "⅘": 3198,
      "⅙": 3199,
      "⅛": 3200,
      "⅜": 3201,
      "⅝": 3202,
      "⅞": 3203,
      "Ⅰ": 3204,
      "Ⅱ": 3205,
      "Ⅲ": 3206,
      "Ⅳ": 3207,
      "Ⅴ": 3208,
      "Ⅵ": 3209,
      "Ⅶ": 3210,
      "Ⅷ": 3211,
      "Ⅸ": 3212,
      "Ⅹ": 3213,
      "Ⅺ": 3214,
      "Ⅻ": 3215,
      "Ⅼ": 3216,
      "Ⅽ": 3217,
      "Ⅾ": 3218,
      "Ⅿ": 3219,
      "ⅰ": 3220,
      "ⅱ": 3221,
      "ↀ": 3222,
      "Ↄ": 3223,
      "ↄ": 3224,
      "←": 3225,
      "↑": 3226,
      "→": 3227,
      "↓": 3228,
      "↔": 3229,
      "↖": 3230,
      "↗": 3231,
      "↘": 3232,
      "↠": 3233,
      "↣": 3234,
      "↦": 3235,
      "↪": 3236,
      "↯": 3237,
      "↵": 3238,
      "↺": 3239,
      "⇄": 3240,
      "⇅": 3241,
      "⇆": 3242,
      "⇋": 3243,
      "⇌": 3244,
      "⇐": 3245,
      "⇑": 3246,
      "⇒": 3247,
      "⇓": 3248,
      "⇔": 3249,
      "⇧": 3250,
      "⇪": 3251,
      "∀": 3252,
      "∁": 3253,
      "∂": 3254,
      "∃": 3255,
      "∄": 3256,
      "∅": 3257,
      "∆": 3258,
      "∇": 3259,
      "∈": 3260,
      "∉": 3261,
      "∊": 3262,
      "∎": 3263,
      "∏": 3264,
      "∑": 3265,
      "−": 3266,
      "∓": 3267,
      "∕": 3268,
      "∗": 3269,
      "∘": 3270,
      "∙": 3271,
      "√": 3272,
      "∝": 3273,
      "∞": 3274,
      "∠": 3275,
      "∣": 3276,
      "∥": 3277,
      "∧": 3278,
      "∨": 3279,
      "∩": 3280,
      "∪": 3281,
      "∫": 3282,
      "∬": 3283,
      "∭": 3284,
      "∴": 3285,
      "∵": 3286,
      "∶": 3287,
      "∷": 3288,
      "∼": 3289,
      "∽": 3290,
      "∿": 3291,
      "≀": 3292,
      "≂": 3293,
      "≃": 3294,
      "≅": 3295,
      "≆": 3296,
      "≈": 3297,
      "≒": 3298,
      "≠": 3299,
      "≡": 3300,
      "≢": 3301,
      "≤": 3302,
      "≥": 3303,
      "≦": 3304,
      "≧": 3305,
      "≪": 3306,
      "≫": 3307,
      "≲": 3308,
      "≳": 3309,
      "⊂": 3310,
      "⊃": 3311,
      "⊆": 3312,
      "⊇": 3313,
      "⊊": 3314,
      "⊓": 3315,
      "⊔": 3316,
      "⊕": 3317,
      "⊖": 3318,
      "⊗": 3319,
      "⊙": 3320,
      "⊞": 3321,
      "⊟": 3322,
      "⊢": 3323,
      "⊤": 3324,
      "⊥": 3325,
      "⊦": 3326,
      "⊩": 3327,
      "⊸": 3328,
      "⊿": 3329,
      "⋂": 3330,
      "⋄": 3331,
      "⋅": 3332,
      "⋆": 3333,
      "⋈": 3334,
      "⋉": 3335,
      "⋊": 3336,
      "⋮": 3337,
      "⋯": 3338,
      "⌂": 3339,
      "⌃": 3340,
      "⌄": 3341,
      "⌇": 3342,
      "⌈": 3343,
      "⌉": 3344,
      "⌊": 3345,
      "⌋": 3346,
      "⌒": 3347,
      "⌘": 3348,
      "⌥": 3349,
      "⌬": 3350,
      "⌽": 3351,
      "⌿": 3352,
      "⍎": 3353,
      "⍝": 3354,
      "⍳": 3355,
      "⍴": 3356,
      "⍵": 3357,
      "⍺": 3358,
      "⎓": 3359,
      "⎕": 3360,
      "⎛": 3361,
      "⎝": 3362,
      "⎞": 3363,
      "⎠": 3364,
      "⎯": 3365,
      "⎷": 3366,
      "⏑": 3367,
      "⏕": 3368,
      "␚": 3369,
      "␡": 3370,
      "␣": 3371,
      "①": 3372,
      "②": 3373,
      "③": 3374,
      "④": 3375,
      "⑤": 3376,
      "⑥": 3377,
      "⑦": 3378,
      "⑧": 3379,
      "⑨": 3380,
      "⑩": 3381,
      "⑪": 3382,
      "⑫": 3383,
      "⑬": 3384,
      "⑭": 3385,
      "⑮": 3386,
      "⑯": 3387,
      "⑰": 3388,
      "⑱": 3389,
      "⑲": 3390,
      "⑳": 3391,
      "⑴": 3392,
      "⑵": 3393,
      "⑶": 3394,
      "⑷": 3395,
      "⑸": 3396,
      "⑹": 3397,
      "⑺": 3398,
      "⑻": 3399,
      "⑼": 3400,
      "⑽": 3401,
      "⒂": 3402,
      "⒈": 3403,
      "⒉": 3404,
      "⒊": 3405,
      "⒋": 3406,
      "⒌": 3407,
      "⒍": 3408,
      "⒎": 3409,
      "⒏": 3410,
      "⒐": 3411,
      "⒑": 3412,
      "⒒": 3413,
      "⒓": 3414,
      "⒔": 3415,
      "⒕": 3416,
      "⒖": 3417,
      "⒗": 3418,
      "⒘": 3419,
      "⒙": 3420,
      "⒞": 3421,
      "⒟": 3422,
      "Ⓐ": 3423,
      "Ⓑ": 3424,
      "Ⓒ": 3425,
      "Ⓓ": 3426,
      "Ⓕ": 3427,
      "Ⓛ": 3428,
      "Ⓟ": 3429,
      "Ⓡ": 3430,
      "Ⓥ": 3431,
      "ⓒ": 3432,
      "ⓘ": 3433,
      "ⓟ": 3434,
      "─": 3435,
      "━": 3436,
      "│": 3437,
      "┃": 3438,
      "┈": 3439,
      "┌": 3440,
      "┏": 3441,
      "┐": 3442,
      "┓": 3443,
      "└": 3444,
      "┗": 3445,
      "┘": 3446,
      "┛": 3447,
      "├": 3448,
      "┣": 3449,
      "┤": 3450,
      "┫": 3451,
      "┬": 3452,
      "┳": 3453,
      "┴": 3454,
      "┼": 3455,
      "═": 3456,
      "║": 3457,
      "╕": 3458,
      "╞": 3459,
      "╡": 3460,
      "╪": 3461,
      "╭": 3462,
      "╮": 3463,
      "╯": 3464,
      "╰": 3465,
      "╱": 3466,
      "╲": 3467,
      "╳": 3468,
      "╴": 3469,
      "▃": 3470,
      "▄": 3471,
      "█": 3472,
      "▉": 3473,
      "▌": 3474,
      "▎": 3475,
      "▖": 3476,
      "■": 3477,
      "□": 3478,
      "▢": 3479,
      "▨": 3480,
      "▪": 3481,
      "▫": 3482,
      "▮": 3483,
      "▱": 3484,
      "▲": 3485,
      "△": 3486,
      "▶": 3487,
      "▷": 3488,
      "►": 3489,
      "▼": 3490,
      "▽": 3491,
      "◀": 3492,
      "◁": 3493,
      "◆": 3494,
      "◇": 3495,
      "◊": 3496,
      "○": 3497,
      "◌": 3498,
      "◎": 3499,
      "●": 3500,
      "◕": 3501,
      "◘": 3502,
      "◙": 3503,
      "◡": 3504,
      "◢": 3505,
      "◣": 3506,
      "◤": 3507,
      "◥": 3508,
      "◦": 3509,
      "◧": 3510,
      "◩": 3511,
      "◬": 3512,
      "◯": 3513,
      "◻": 3514,
      "◼": 3515,
      "☂": 3516,
      "☃": 3517,
      "☄": 3518,
      "★": 3519,
      "☆": 3520,
      "☉": 3521,
      "☊": 3522,
      "☋": 3523,
      "☌": 3524,
      "☍": 3525,
      "☐": 3526,
      "☑": 3527,
      "☒": 3528,
      "☓": 3529,
      "☠": 3530,
      "☢": 3531,
      "☣": 3532,
      "☤": 3533,
      "☥": 3534,
      "☦": 3535,
      "☧": 3536,
      "☨": 3537,
      "☩": 3538,
      "☪": 3539,
      "☫": 3540,
      "☭": 3541,
      "☯": 3542,
      "☰": 3543,
      "☱": 3544,
      "☲": 3545,
      "☳": 3546,
      "☴": 3547,
      "☵": 3548,
      "☶": 3549,
      "☷": 3550,
      "☺": 3551,
      "☽": 3552,
      "☾": 3553,
      "☿": 3554,
      "♀": 3555,
      "♁": 3556,
      "♂": 3557,
      "♆": 3558,
      "♇": 3559,
      "♈": 3560,
      "♉": 3561,
      "♊": 3562,
      "♋": 3563,
      "♌": 3564,
      "♍": 3565,
      "♎": 3566,
      "♏": 3567,
      "♐": 3568,
      "♑": 3569,
      "♒": 3570,
      "♓": 3571,
      "♔": 3572,
      "♕": 3573,
      "♠": 3574,
      "♡": 3575,
      "♣": 3576,
      "♥": 3577,
      "♦": 3578,
      "♨": 3579,
      "♩": 3580,
      "♪": 3581,
      "♫": 3582,
      "♭": 3583,
      "♮": 3584,
      "♯": 3585,
      "♰": 3586,
      "♲": 3587,
      "♳": 3588,
      "♴": 3589,
      "♵": 3590,
      "♶": 3591,
      "♷": 3592,
      "♸": 3593,
      "♹": 3594,
      "♺": 3595,
      "♾": 3596,
      "♿": 3597,
      "⚊": 3598,
      "⚋": 3599,
      "⚌": 3600,
      "⚍": 3601,
      "⚎": 3602,
      "⚏": 3603,
      "⚑": 3604,
      "⚜": 3605,
      "⚠": 3606,
      "⚡": 3607,
      "⚤": 3608,
      "⚧": 3609,
      "⚪": 3610,
      "⚫": 3611,
      "⚶": 3612,
      "⚹": 3613,
      "⚽": 3614,
      "⛎": 3615,
      "⛨": 3616,
      "⛩": 3617,
      "✅": 3618,
      "✈": 3619,
      "✓": 3620,
      "✔": 3621,
      "✕": 3622,
      "✖": 3623,
      "✗": 3624,
      "✘": 3625,
      "✙": 3626,
      "✚": 3627,
      "✛": 3628,
      "✝": 3629,
      "✠": 3630,
      "✡": 3631,
      "✦": 3632,
      "✨": 3633,
      "✩": 3634,
      "✪": 3635,
      "✰": 3636,
      "✶": 3637,
      "✻": 3638,
      "✽": 3639,
      "❌": 3640,
      "❗": 3641,
      "❡": 3642,
      "❤": 3643,
      "❦": 3644,
      "❨": 3645,
      "❩": 3646,
      "❮": 3647,
      "❯": 3648,
      "❲": 3649,
      "❳": 3650,
      "❶": 3651,
      "❷": 3652,
      "❸": 3653,
      "❹": 3654,
      "❺": 3655,
      "❻": 3656,
      "❼": 3657,
      "❽": 3658,
      "❾": 3659,
      "❿": 3660,
      "➊": 3661,
      "➔": 3662,
      "➕": 3663,
      "➝": 3664,
      "➡": 3665,
      "➣": 3666,
      "➤": 3667,
      "⟕": 3668,
      "⟖": 3669,
      "⟗": 3670,
      "⟡": 3671,
      "⟨": 3672,
      "⟩": 3673,
      "⟪": 3674,
      "⟫": 3675,
      "⟮": 3676,
      "⟯": 3677,
      "⟶": 3678,
      "⟷": 3679,
      "⠀": 3680,
      "⠁": 3681,
      "⠂": 3682,
      "⠉": 3683,
      "⠊": 3684,
      "⠍": 3685,
      "⠒": 3686,
      "⠓": 3687,
      "⠕": 3688,
      "⠛": 3689,
      "⠝": 3690,
      "⠞": 3691,
      "⠡": 3692,
      "⠢": 3693,
      "⠣": 3694,
      "⠤": 3695,
      "⠦": 3696,
      "⠨": 3697,
      "⠫": 3698,
      "⠰": 3699,
      "⠲": 3700,
      "⠳": 3701,
      "⠹": 3702,
      "⥄": 3703,
      "⦵": 3704,
      "⧵": 3705,
      "⧸": 3706,
      "⨁": 3707,
      "⨂": 3708,
      "⨉": 3709,
      "⨎": 3710,
      "⨯": 3711,
      "⨾": 3712,
      "⩽": 3713,
      "⩾": 3714,
      "⪤": 3715,
      "⬆": 3716,
      "⬕": 3717,
      "⬚": 3718,
      "⬤": 3719,
      "⭢": 3720,
      "Ⰹ": 3721,
      "Ⱑ": 3722,
      "Ⱛ": 3723,
      "Ⱞ": 3724,
      "ⰲ": 3725,
      "ⰴ": 3726,
      "ⰵ": 3727,
      "ⰶ": 3728,
      "ⰹ": 3729,
      "ⰽ": 3730,
      "ⰾ": 3731,
      "ⱀ": 3732,
      "ⱁ": 3733,
      "ⱄ": 3734,
      "ⱆ": 3735,
      "ⱌ": 3736,
      "ⱏ": 3737,
      "ⱛ": 3738,
      "ⱝ": 3739,
      "Ⱡ": 3740,
      "ⱡ": 3741,
      "Ɫ": 3742,
      "Ᵽ": 3743,
      "Ɽ": 3744,
      "ⱥ": 3745,
      "ⱦ": 3746,
      "Ⱨ": 3747,
      "ⱨ": 3748,
      "Ⱪ": 3749,
      "ⱪ": 3750,
      "Ⱬ": 3751,
      "ⱬ": 3752,
      "Ɑ": 3753,
      "Ɐ": 3754,
      "ⱴ": 3755,
      "Ⱶ": 3756,
      "ⱶ": 3757,
      "ⱷ": 3758,
      "ⱼ": 3759,
      "Ⲁ": 3760,
      "ⲁ": 3761,
      "ⲃ": 3762,
      "ⲅ": 3763,
      "ⲇ": 3764,
      "ⲉ": 3765,
      "ⲏ": 3766,
      "ⲑ": 3767,
      "ⲓ": 3768,
      "ⲕ": 3769,
      "ⲗ": 3770,
      "ⲙ": 3771,
      "ⲛ": 3772,
      "ⲟ": 3773,
      "Ⲡ": 3774,
      "ⲡ": 3775,
      "ⲣ": 3776,
      "ⲥ": 3777,
      "ⲧ": 3778,
      "ⲩ": 3779,
      "ⲫ": 3780,
      "Ⲭ": 3781,
      "ⲭ": 3782,
      "ⲱ": 3783,
      "⳥": 3784,
      "ⴰ": 3785,
      "ⴱ": 3786,
      "ⴲ": 3787,
      "ⴳ": 3788,
      "ⴴ": 3789,
      "ⴷ": 3790,
      "ⴹ": 3791,
      "ⴻ": 3792,
      "ⴼ": 3793,
      "ⴽ": 3794,
      "ⵀ": 3795,
      "ⵃ": 3796,
      "ⵄ": 3797,
      "ⵇ": 3798,
      "ⵉ": 3799,
      "ⵊ": 3800,
      "ⵍ": 3801,
      "ⵎ": 3802,
      "ⵏ": 3803,
      "ⵓ": 3804,
      "ⵔ": 3805,
      "ⵖ": 3806,
      "ⵗ": 3807,
      "ⵙ": 3808,
      "ⵛ": 3809,
      "ⵜ": 3810,
      "ⵟ": 3811,
      "ⵡ": 3812,
      "ⵢ": 3813,
      "ⵣ": 3814,
      "ⵥ": 3815,
      "⸢": 3816,
      "⸣": 3817,
      "⸸": 3818,
      "⸺": 3819,
      "⺀": 3820,
      "⺄": 3821,
      "⺈": 3822,
      "⺕": 3823,
      "⺗": 3824,
      "⺝": 3825,
      "⺟": 3826,
      "⺠": 3827,
      "⺩": 3828,
      "⺪": 3829,
      "⺬": 3830,
      "⺭": 3831,
      "⺮": 3832,
      "⺸": 3833,
      "⺼": 3834,
      "⺾": 3835,
      "⺿": 3836,
      "⻄": 3837,
      "⻆": 3838,
      "⻋": 3839,
      "⻌": 3840,
      "⻍": 3841,
      "⻎": 3842,
      "⻏": 3843,
      "⻑": 3844,
      "⻓": 3845,
      "⻔": 3846,
      "⻘": 3847,
      "⻚": 3848,
      "⻛": 3849,
      "⻜": 3850,
      "⻝": 3851,
      "⻤": 3852,
      "⻥": 3853,
      "⻩": 3854,
      "⻱": 3855,
      "⼀": 3856,
      "⼁": 3857,
      "⼂": 3858,
      "⼃": 3859,
      "⼄": 3860,
      "⼅": 3861,
      "⼆": 3862,
      "⼈": 3863,
      "⼊": 3864,
      "⼋": 3865,
      "⼍": 3866,
      "⼎": 3867,
      "⼏": 3868,
      "⼐": 3869,
      "⼒": 3870,
      "⼗": 3871,
      "⼘": 3872,
      "⼜": 3873,
      "⼝": 3874,
      "⼟": 3875,
      "⼠": 3876,
      "⼣": 3877,
      "⼤": 3878,
      "⼥": 3879,
      "⼦": 3880,
      "⼩": 3881,
      "⼭": 3882,
      "⼯": 3883,
      "⼰": 3884,
      "⼲": 3885,
      "⼴": 3886,
      "⼹": 3887,
      "⼼": 3888,
      "⼿": 3889,
      "⽀": 3890,
      "⽂": 3891,
      "⽃": 3892,
      "⽅": 3893,
      "⽆": 3894,
      "⽇": 3895,
      "⽉": 3896,
      "⽊": 3897,
      "⽐": 3898,
      "⽒": 3899,
      "⽓": 3900,
      "⽔": 3901,
      "⽕": 3902,
      "⽗": 3903,
      "⽚": 3904,
      "⽛": 3905,
      "⽟": 3906,
      "⽠": 3907,
      "⽢": 3908,
      "⽣": 3909,
      "⽤": 3910,
      "⽥": 3911,
      "⽩": 3912,
      "⽪": 3913,
      "⽬": 3914,
      "⽯": 3915,
      "⽰": 3916,
      "⽴": 3917,
      "⽵": 3918,
      "⽶": 3919,
      "⽹": 3920,
      "⽻": 3921,
      "⽼": 3922,
      "⽽": 3923,
      "⽿": 3924,
      "⾁": 3925,
      "⾂": 3926,
      "⾃": 3927,
      "⾄": 3928,
      "⾆": 3929,
      "⾊": 3930,
      "⾎": 3931,
      "⾏": 3932,
      "⾒": 3933,
      "⾓": 3934,
      "⾔": 3935,
      "⾕": 3936,
      "⾚": 3937,
      "⾛": 3938,
      "⾜": 3939,
      "⾝": 3940,
      "⾞": 3941,
      "⾟": 3942,
      "⾢": 3943,
      "⾥": 3944,
      "⾦": 3945,
      "⾧": 3946,
      "⾨": 3947,
      "⾮": 3948,
      "⾯": 3949,
      "⾰": 3950,
      "⾳": 3951,
      "⾵": 3952,
      "⾶": 3953,
      "⾷": 3954,
      "⾸": 3955,
      "⾹": 3956,
      "⾺": 3957,
      "⾼": 3958,
      "⾾": 3959,
      "⿁": 3960,
      "⿃": 3961,
      "⿅": 3962,
      "⿈": 3963,
      "⿊": 3964,
      "⿓": 3965,
      "⿰": 3966,
      "⿱": 3967,
      "⿲": 3968,
      "⿳": 3969,
      "⿴": 3970,
      "⿸": 3971,
      "⿺": 3972,
      "⿻": 3973,
      "、": 3974,
      "〃": 3975,
      "〄": 3976,
      "々": 3977,
      "〆": 3978,
      "〈": 3979,
      "〉": 3980,
      "《": 3981,
      "》": 3982,
      "「": 3983,
      "」": 3984,
      "『": 3985,
      "』": 3986,
      "〒": 3987,
      "〓": 3988,
      "〔": 3989,
      "〕": 3990,
      "〖": 3991,
      "〗": 3992,
      "〘": 3993,
      "〙": 3994,
      "〜": 3995,
      "〝": 3996,
      "〞": 3997,
      "〟": 3998,
      "〡": 3999,
      "〢": 4000,
      "〣": 4001,
      "〤": 4002,
      "〥": 4003,
      "〦": 4004,
      "〧": 4005,
      "〨": 4006,
      "〩": 4007,
      "〪": 4008,
      "〫": 4009,
      "〬": 4010,
      "〭": 4011,
      "〰": 4012,
      "〸": 4013,
      "〹": 4014,
      "〺": 4015,
      "〻": 4016,
      "ぁ": 4017,
      "あ": 4018,
      "ぃ": 4019,
      "い": 4020,
      "ぅ": 4021,
      "う": 4022,
      "ぇ": 4023,
      "え": 4024,
      "ぉ": 4025,
      "お": 4026,
      "か": 4027,
      "が": 4028,
      "き": 4029,
      "ぎ": 4030,
      "く": 4031,
      "ぐ": 4032,
      "け": 4033,
      "げ": 4034,
      "こ": 4035,
      "ご": 4036,
      "さ": 4037,
      "ざ": 4038,
      "し": 4039,
      "じ": 4040,
      "す": 4041,
      "ず": 4042,
      "せ": 4043,
      "ぜ": 4044,
      "そ": 4045,
      "ぞ": 4046,
      "た": 4047,
      "だ": 4048,
      "ち": 4049,
      "ぢ": 4050,
      "っ": 4051,
      "つ": 4052,
      "づ": 4053,
      "て": 4054,
      "で": 4055,
      "と": 4056,
      "ど": 4057,
      "な": 4058,
      "に": 4059,
      "ぬ": 4060,
      "ね": 4061,
      "の": 4062,
      "は": 4063,
      "ば": 4064,
      "ぱ": 4065,
      "ひ": 4066,
      "び": 4067,
      "ぴ": 4068,
      "ふ": 4069,
      "ぶ": 4070,
      "ぷ": 4071,
      "へ": 4072,
      "べ": 4073,
      "ぺ": 4074,
      "ほ": 4075,
      "ぼ": 4076,
      "ぽ": 4077,
      "ま": 4078,
      "み": 4079,
      "む": 4080,
      "め": 4081,
      "も": 4082,
      "ゃ": 4083,
      "や": 4084,
      "ゅ": 4085,
      "ゆ": 4086,
      "ょ": 4087,
      "よ": 4088,
      "ら": 4089,
      "り": 4090,
      "る": 4091,
      "れ": 4092,
      "ろ": 4093,
      "ゎ": 4094,
      "わ": 4095,
      "ゐ": 4096,
      "ゑ": 4097,
      "を": 4098,
      "ん": 4099,
      "゙": 4100,
      "゚": 4101,
      "゛": 4102,
      "゜": 4103,
      "ゝ": 4104,
      "ゞ": 4105,
      "ゟ": 4106,
      "ァ": 4107,
      "ア": 4108,
      "ィ": 4109,
      "イ": 4110,
      "ゥ": 4111,
      "ウ": 4112,
      "ェ": 4113,
      "エ": 4114,
      "ォ": 4115,
      "オ": 4116,
      "カ": 4117,
      "ガ": 4118,
      "キ": 4119,
      "ギ": 4120,
      "ク": 4121,
      "グ": 4122,
      "ケ": 4123,
      "ゲ": 4124,
      "コ": 4125,
      "ゴ": 4126,
      "サ": 4127,
      "ザ": 4128,
      "シ": 4129,
      "ジ": 4130,
      "ス": 4131,
      "ズ": 4132,
      "セ": 4133,
      "ゼ": 4134,
      "ソ": 4135,
      "ゾ": 4136,
      "タ": 4137,
      "ダ": 4138,
      "チ": 4139,
      "ヂ": 4140,
      "ッ": 4141,
      "ツ": 4142,
      "ヅ": 4143,
      "テ": 4144,
      "デ": 4145,
      "ト": 4146,
      "ド": 4147,
      "ナ": 4148,
      "ニ": 4149,
      "ヌ": 4150,
      "ネ": 4151,
      "ノ": 4152,
      "ハ": 4153,
      "バ": 4154,
      "パ": 4155,
      "ヒ": 4156,
      "ビ": 4157,
      "ピ": 4158,
      "フ": 4159,
      "ブ": 4160,
      "プ": 4161,
      "ヘ": 4162,
      "ベ": 4163,
      "ペ": 4164,
      "ホ": 4165,
      "ボ": 4166,
      "ポ": 4167,
      "マ": 4168,
      "ミ": 4169,
      "ム": 4170,
      "メ": 4171,
      "モ": 4172,
      "ャ": 4173,
      "ヤ": 4174,
      "ュ": 4175,
      "ユ": 4176,
      "ョ": 4177,
      "ヨ": 4178,
      "ラ": 4179,
      "リ": 4180,
      "ル": 4181,
      "レ": 4182,
      "ロ": 4183,
      "ヮ": 4184,
      "ワ": 4185,
      "ヰ": 4186,
      "ヱ": 4187,
      "ヲ": 4188,
      "ン": 4189,
      "ヴ": 4190,
      "ヵ": 4191,
      "ヶ": 4192,
      "ヹ": 4193,
      "・": 4194,
      "ー": 4195,
      "ヽ": 4196,
      "ヾ": 4197,
      "ヿ": 4198,
      "ㄅ": 4199,
      "ㄆ": 4200,
      "ㄇ": 4201,
      "ㄈ": 4202,
      "ㄉ": 4203,
      "ㄊ": 4204,
      "ㄋ": 4205,
      "ㄌ": 4206,
      "ㄍ": 4207,
      "ㄎ": 4208,
      "ㄏ": 4209,
      "ㄐ": 4210,
      "ㄑ": 4211,
      "ㄒ": 4212,
      "ㄓ": 4213,
      "ㄔ": 4214,
      "ㄕ": 4215,
      "ㄖ": 4216,
      "ㄗ": 4217,
      "ㄘ": 4218,
      "ㄙ": 4219,
      "ㄚ": 4220,
      "ㄛ": 4221,
      "ㄜ": 4222,
      "ㄝ": 4223,
      "ㄞ": 4224,
      "ㄟ": 4225,
      "ㄠ": 4226,
      "ㄡ": 4227,
      "ㄢ": 4228,
      "ㄣ": 4229,
      "ㄤ": 4230,
      "ㄥ": 4231,
      "ㄦ": 4232,
      "ㄧ": 4233,
      "ㄨ": 4234,
      "ㄩ": 4235,
      "ㄪ": 4236,
      "ㄫ": 4237,
      "ㄬ": 4238,
      "ㄭ": 4239,
      "ㄮ": 4240,
      "ㄯ": 4241,
      "ㄱ": 4242,
      "ㄲ": 4243,
      "ㄳ": 4244,
      "ㄴ": 4245,
      "ㄷ": 4246,
      "ㄸ": 4247,
      "ㄹ": 4248,
      "ㄻ": 4249,
      "ㄼ": 4250,
      "ㅁ": 4251,
      "ㅂ": 4252,
      "ㅃ": 4253,
      "ㅅ": 4254,
      "ㅆ": 4255,
      "ㅇ": 4256,
      "ㅈ": 4257,
      "ㅉ": 4258,
      "ㅊ": 4259,
      "ㅋ": 4260,
      "ㅌ": 4261,
      "ㅍ": 4262,
      "ㅎ": 4263,
      "ㅏ": 4264,
      "ㅐ": 4265,
      "ㅑ": 4266,
      "ㅒ": 4267,
      "ㅓ": 4268,
      "ㅔ": 4269,
      "ㅕ": 4270,
      "ㅖ": 4271,
      "ㅗ": 4272,
      "ㅘ": 4273,
      "ㅙ": 4274,
      "ㅚ": 4275,
      "ㅛ": 4276,
      "ㅜ": 4277,
      "ㅝ": 4278,
      "ㅞ": 4279,
      "ㅟ": 4280,
      "ㅠ": 4281,
      "ㅡ": 4282,
      "ㅢ": 4283,
      "ㅣ": 4284,
      "ㅤ": 4285,
      "ㅭ": 4286,
      "ㅸ": 4287,
      "ㆁ": 4288,
      "ㆆ": 4289,
      "ㆉ": 4290,
      "ㆌ": 4291,
      "ㆍ": 4292,
      "ㆎ": 4293,
      "㆒": 4294,
      "㆔": 4295,
      "㆖": 4296,
      "㆘": 4297,
      "ㆠ": 4298,
      "ㆡ": 4299,
      "ㆢ": 4300,
      "ㆣ": 4301,
      "ㆤ": 4302,
      "ㆥ": 4303,
      "ㆦ": 4304,
      "ㆧ": 4305,
      "ㆨ": 4306,
      "ㆩ": 4307,
      "ㆪ": 4308,
      "ㆫ": 4309,
      "ㆬ": 4310,
      "ㆭ": 4311,
      "ㆮ": 4312,
      "ㆯ": 4313,
      "ㆰ": 4314,
      "ㆱ": 4315,
      "ㆲ": 4316,
      "ㆳ": 4317,
      "ㆴ": 4318,
      "ㆵ": 4319,
      "ㆶ": 4320,
      "ㆷ": 4321,
      "ㆻ": 4322,
      "ㆼ": 4323,
      "ㆽ": 4324,
      "ㆾ": 4325,
      "ㆿ": 4326,
      "㇀": 4327,
      "㇂": 4328,
      "㇄": 4329,
      "㇅": 4330,
      "㇆": 4331,
      "㇇": 4332,
      "㇈": 4333,
      "㇉": 4334,
      "㇊": 4335,
      "㇋": 4336,
      "㇌": 4337,
      "㇍": 4338,
      "㇎": 4339,
      "㇏": 4340,
      "㇐": 4341,
      "㇑": 4342,
      "㇒": 4343,
      "㇓": 4344,
      "㇔": 4345,
      "㇕": 4346,
      "㇖": 4347,
      "㇗": 4348,
      "㇙": 4349,
      "㇚": 4350,
      "㇛": 4351,
      "㇜": 4352,
      "㇞": 4353,
      "㇟": 4354,
      "㇡": 4355,
      "㇢": 4356,
      "㇤": 4357,
      "ㇰ": 4358,
      "ㇱ": 4359,
      "ㇲ": 4360,
      "ㇵ": 4361,
      "ㇷ": 4362,
      "ㇺ": 4363,
      "ㇻ": 4364,
      "ㇼ": 4365,
      "ㇽ": 4366,
      "ㇿ": 4367,
      "㈜": 4368,
      "㈠": 4369,
      "㈡": 4370,
      "㈢": 4371,
      "㈣": 4372,
      "㈤": 4373,
      "㈥": 4374,
      "㈦": 4375,
      "㈧": 4376,
      "㈨": 4377,
      "㈩": 4378,
      "㈪": 4379,
      "㈭": 4380,
      "㈮": 4381,
      "㈯": 4382,
      "㈰": 4383,
      "㈱": 4384,
      "㊇": 4385,
      "㊎": 4386,
      "㊑": 4387,
      "㊙": 4388,
      "㊟": 4389,
      "㊣": 4390,
      "㋿": 4391,
      "㍻": 4392,
      "㍼": 4393,
      "㍽": 4394,
      "㍾": 4395,
      "㍿": 4396,
      "㎏": 4397,
      "㎒": 4398,
      "㎛": 4399,
      "㎜": 4400,
      "㎝": 4401,
      "㎞": 4402,
      "㎡": 4403,
      "㎢": 4404,
      "㎤": 4405,
      "㎥": 4406,
      "㎦": 4407,
      "㎮": 4408,
      "㏉": 4409,
      "㏍": 4410,
      "㏑": 4411,
      "㏒": 4412,
      "㐂": 4413,
      "㐾": 4414,
      "㑀": 4415,
      "㒭": 4416,
      "㒹": 4417,
      "㓛": 4418,
      "㔬": 4419,
      "㕀": 4420,
      "㕔": 4421,
      "㕘": 4422,
      "㖱": 4423,
      "㗎": 4424,
      "㗝": 4425,
      "㘻": 4426,
      "㚸": 4427,
      "㛠": 4428,
      "㛢": 4429,
      "㝜": 4430,
      "㝬": 4431,
      "㞢": 4432,
      "㟥": 4433,
      "㟸": 4434,
      "㠫": 4435,
      "㠬": 4436,
      "㢢": 4437,
      "㣉": 4438,
      "㤭": 4439,
      "㤻": 4440,
      "㪲": 4441,
      "㪳": 4442,
      "㫆": 4443,
      "㫕": 4444,
      "㫖": 4445,
      "㫠": 4446,
      "㫬": 4447,
      "㫺": 4448,
      "㬀": 4449,
      "㬢": 4450,
      "㬺": 4451,
      "㬾": 4452,
      "㭍": 4453,
      "㭦": 4454,
      "㭶": 4455,
      "㮊": 4456,
      "㮤": 4457,
      "㮴": 4458,
      "㯣": 4459,
      "㰏": 4460,
      "㰕": 4461,
      "㱕": 4462,
      "㳉": 4463,
      "㴠": 4464,
      "㴱": 4465,
      "㵼": 4466,
      "㶊": 4467,
      "㶨": 4468,
      "㶮": 4469,
      "㶱": 4470,
      "㶷": 4471,
      "㷑": 4472,
      "㷛": 4473,
      "㷧": 4474,
      "㷩": 4475,
      "㹧": 4476,
      "㻁": 4477,
      "㻛": 4478,
      "㼀": 4479,
      "㼁": 4480,
      "㼄": 4481,
      "㼅": 4482,
      "㽓": 4483,
      "㽵": 4484,
      "㽿": 4485,
      "㿝": 4486,
      "䂓": 4487,
      "䃄": 4488,
      "䃟": 4489,
      "䄖": 4490,
      "䇄": 4491,
      "䇝": 4492,
      "䇿": 4493,
      "䋍": 4494,
      "䍧": 4495,
      "䎞": 4496,
      "䏾": 4497,
      "䑩": 4498,
      "䒶": 4499,
      "䓪": 4500,
      "䕬": 4501,
      "䘗": 4502,
      "䘛": 4503,
      "䚀": 4504,
      "䜥": 4505,
      "䜳": 4506,
      "䝉": 4507,
      "䟽": 4508,
      "䢂": 4509,
      "䢘": 4510,
      "䢜": 4511,
      "䤈": 4512,
      "䥴": 4513,
      "䦁": 4514,
      "䦉": 4515,
      "䧏": 4516,
      "䨇": 4517,
      "䬸": 4518,
      "䭏": 4519,
      "䮐": 4520,
      "䯃": 4521,
      "䯻": 4522,
      "䲝": 4523,
      "䵍": 4524,
      "䷀": 4525,
      "䷃": 4526,
      "䷊": 4527,
      "䷋": 4528,
      "䷌": 4529,
      "䷍": 4530,
      "䷔": 4531,
      "䷜": 4532,
      "䷝": 4533,
      "䷲": 4534,
      "䷳": 4535,
      "䷸": 4536,
      "䷹": 4537,
      "䷾": 4538,
      "䷿": 4539,
      "兙": 4540,
      "嗧": 4541,
      "瓼": 4542,
      "龱": 4543,
      "龺": 4544,
      "鿋": 4545,
      "鿠": 4546,
      "鿤": 4547,
      "ꀋ": 4548,
      "ꁈ": 4549,
      "ꁨ": 4550,
      "ꂤ": 4551,
      "ꂵ": 4552,
      "ꃄ": 4553,
      "ꃅ": 4554,
      "ꃺ": 4555,
      "ꃼ": 4556,
      "ꄡ": 4557,
      "ꄣ": 4558,
      "ꄿ": 4559,
      "ꆃ": 4560,
      "ꆈ": 4561,
      "ꆧ": 4562,
      "ꆨ": 4563,
      "ꆪ": 4564,
      "ꇁ": 4565,
      "ꇊ": 4566,
      "ꇓ": 4567,
      "ꇗ": 4568,
      "ꈁ": 4569,
      "ꈎ": 4570,
      "ꈐ": 4571,
      "ꈑ": 4572,
      "ꈓ": 4573,
      "ꈜ": 4574,
      "ꈭ": 4575,
      "ꈵ": 4576,
      "ꈿ": 4577,
      "ꉳ": 4578,
      "ꉸ": 4579,
      "ꉻ": 4580,
      "ꉼ": 4581,
      "ꊇ": 4582,
      "ꊖ": 4583,
      "ꊨ": 4584,
      "ꊰ": 4585,
      "ꋍ": 4586,
      "ꌕ": 4587,
      "ꌠ": 4588,
      "ꍓ": 4589,
      "ꍤ": 4590,
      "ꍬ": 4591,
      "ꎬ": 4592,
      "ꎭ": 4593,
      "ꎴ": 4594,
      "ꏅ": 4595,
      "ꏢ": 4596,
      "ꏦ": 4597,
      "ꏧ": 4598,
      "ꐇ": 4599,
      "ꐎ": 4600,
      "ꑤ": 4601,
      "ꑭ": 4602,
      "ꑷ": 4603,
      "ꓐ": 4604,
      "ꓒ": 4605,
      "ꓕ": 4606,
      "ꓗ": 4607,
      "ꓚ": 4608,
      "ꓛ": 4609,
      "ꓝ": 4610,
      "ꓞ": 4611,
      "ꓟ": 4612,
      "ꓠ": 4613,
      "ꓡ": 4614,
      "ꓢ": 4615,
      "ꓥ": 4616,
      "ꓩ": 4617,
      "ꓪ": 4618,
      "ꓫ": 4619,
      "ꓬ": 4620,
      "ꓯ": 4621,
      "ꓱ": 4622,
      "ꓲ": 4623,
      "ꓳ": 4624,
      "ꓴ": 4625,
      "ꓵ": 4626,
      "ꓶ": 4627,
      "ꓸ": 4628,
      "ꓹ": 4629,
      "ꓼ": 4630,
      "ꓽ": 4631,
      "꓾": 4632,
      "ꔤ": 4633,
      "ꕙ": 4634,
      "Ꙅ": 4635,
      "ꙅ": 4636,
      "Ꙇ": 4637,
      "ꙇ": 4638,
      "Ꙉ": 4639,
      "ꙉ": 4640,
      "Ꙑ": 4641,
      "ꙓ": 4642,
      "ꙕ": 4643,
      "Ꙗ": 4644,
      "ꙗ": 4645,
      "Ꙟ": 4646,
      "ꙟ": 4647,
      "Ꙡ": 4648,
      "ꙡ": 4649,
      "Ꙣ": 4650,
      "ꙣ": 4651,
      "Ꙥ": 4652,
      "ꙥ": 4653,
      "Ꙧ": 4654,
      "ꙧ": 4655,
      "Ꙩ": 4656,
      "ꙩ": 4657,
      "Ꙫ": 4658,
      "ꙫ": 4659,
      "Ꙭ": 4660,
      "ꙭ": 4661,
      "ꙮ": 4662,
      "꙰": 4663,
      "꙱": 4664,
      "꙲": 4665,
      "Ꚁ": 4666,
      "ꚁ": 4667,
      "Ꚃ": 4668,
      "ꚃ": 4669,
      "Ꚉ": 4670,
      "ꚉ": 4671,
      "Ꚋ": 4672,
      "ꚋ": 4673,
      "Ꚍ": 4674,
      "ꚍ": 4675,
      "Ꚏ": 4676,
      "ꚏ": 4677,
      "Ꚑ": 4678,
      "ꚑ": 4679,
      "Ꚗ": 4680,
      "ꚗ": 4681,
      "Ꚙ": 4682,
      "ꚙ": 4683,
      "꜀": 4684,
      "꜁": 4685,
      "꜂": 4686,
      "꜃": 4687,
      "꜄": 4688,
      "꜅": 4689,
      "꜆": 4690,
      "꜇": 4691,
      "꜒": 4692,
      "꜓": 4693,
      "꜔": 4694,
      "꜕": 4695,
      "꜖": 4696,
      "Ꜣ": 4697,
      "ꜣ": 4698,
      "ꜥ": 4699,
      "Ꜧ": 4700,
      "ꜧ": 4701,
      "ꝏ": 4702,
      "Ꝛ": 4703,
      "Ꝺ": 4704,
      "꞉": 4705,
      "ꞌ": 4706,
      "ꞏ": 4707,
      "Ꞑ": 4708,
      "ꞑ": 4709,
      "Ꞓ": 4710,
      "Ꞥ": 4711,
      "ꞥ": 4712,
      "Ʇ": 4713,
      "ꟸ": 4714,
      "ꠁ": 4715,
      "ꠇ": 4716,
      "ꠊ": 4717,
      "ꠐ": 4718,
      "ꠘ": 4719,
      "ꠣ": 4720,
      "ꦁ": 4721,
      "ꦂ": 4722,
      "ꦏ": 4723,
      "ꦑ": 4724,
      "ꦔ": 4725,
      "ꦕ": 4726,
      "ꦗ": 4727,
      "ꦝ": 4728,
      "ꦠ": 4729,
      "ꦢ": 4730,
      "ꦤ": 4731,
      "ꦥ": 4732,
      "ꦩ": 4733,
      "ꦪ": 4734,
      "ꦫ": 4735,
      "ꦭ": 4736,
      "ꦮ": 4737,
      "ꦯ": 4738,
      "ꦱ": 4739,
      "ꦲ": 4740,
      "ꦴ": 4741,
      "ꦶ": 4742,
      "ꦸ": 4743,
      "ꦺ": 4744,
      "ꦼ": 4745,
      "ꦾ": 4746,
      "ꦿ": 4747,
      "꧀": 4748,
      "ꪶ": 4749,
      "ꯁ": 4750,
      "ꯄ": 4751,
      "ꯅ": 4752,
      "ꯔ": 4753,
      "ꯕ": 4754,
      "ꯤ": 4755,
      "ꯨ": 4756,
      "꯭": 4757,
      "가": 4758,
      "각": 4759,
      "간": 4760,
      "갈": 4761,
      "감": 4762,
      "갑": 4763,
      "갓": 4764,
      "갔": 4765,
      "강": 4766,
      "같": 4767,
      "개": 4768,
      "갠": 4769,
      "갱": 4770,
      "걀": 4771,
      "걔": 4772,
      "거": 4773,
      "건": 4774,
      "걷": 4775,
      "걸": 4776,
      "검": 4777,
      "겁": 4778,
      "것": 4779,
      "게": 4780,
      "겐": 4781,
      "겟": 4782,
      "겠": 4783,
      "겨": 4784,
      "격": 4785,
      "견": 4786,
      "결": 4787,
      "겸": 4788,
      "겹": 4789,
      "경": 4790,
      "곁": 4791,
      "계": 4792,
      "고": 4793,
      "곡": 4794,
      "곤": 4795,
      "곧": 4796,
      "골": 4797,
      "곰": 4798,
      "곱": 4799,
      "곳": 4800,
      "공": 4801,
      "곶": 4802,
      "과": 4803,
      "곽": 4804,
      "관": 4805,
      "광": 4806,
      "괜": 4807,
      "괴": 4808,
      "교": 4809,
      "구": 4810,
      "국": 4811,
      "군": 4812,
      "굳": 4813,
      "굴": 4814,
      "굵": 4815,
      "굿": 4816,
      "궁": 4817,
      "궈": 4818,
      "권": 4819,
      "궐": 4820,
      "궤": 4821,
      "귀": 4822,
      "귓": 4823,
      "규": 4824,
      "균": 4825,
      "그": 4826,
      "극": 4827,
      "근": 4828,
      "귿": 4829,
      "글": 4830,
      "금": 4831,
      "급": 4832,
      "긍": 4833,
      "기": 4834,
      "긴": 4835,
      "길": 4836,
      "김": 4837,
      "깃": 4838,
      "깊": 4839,
      "까": 4840,
      "깍": 4841,
      "깐": 4842,
      "깡": 4843,
      "깨": 4844,
      "꺼": 4845,
      "껌": 4846,
      "껑": 4847,
      "께": 4848,
      "꼬": 4849,
      "꼭": 4850,
      "꼴": 4851,
      "꼼": 4852,
      "꽃": 4853,
      "꽉": 4854,
      "꽤": 4855,
      "꽹": 4856,
      "꾸": 4857,
      "꾼": 4858,
      "꿀": 4859,
      "꿈": 4860,
      "꿍": 4861,
      "꿔": 4862,
      "꿨": 4863,
      "끄": 4864,
      "끈": 4865,
      "끌": 4866,
      "끗": 4867,
      "끝": 4868,
      "끼": 4869,
      "낀": 4870,
      "낌": 4871,
      "나": 4872,
      "낙": 4873,
      "난": 4874,
      "날": 4875,
      "낡": 4876,
      "남": 4877,
      "났": 4878,
      "낭": 4879,
      "낮": 4880,
      "낯": 4881,
      "내": 4882,
      "낸": 4883,
      "낼": 4884,
      "냄": 4885,
      "냉": 4886,
      "냐": 4887,
      "냥": 4888,
      "너": 4889,
      "넋": 4890,
      "넌": 4891,
      "널": 4892,
      "넘": 4893,
      "네": 4894,
      "넥": 4895,
      "넷": 4896,
      "녀": 4897,
      "녁": 4898,
      "년": 4899,
      "념": 4900,
      "녕": 4901,
      "녘": 4902,
      "노": 4903,
      "녹": 4904,
      "논": 4905,
      "놀": 4906,
      "놈": 4907,
      "농": 4908,
      "높": 4909,
      "뇌": 4910,
      "누": 4911,
      "눈": 4912,
      "눌": 4913,
      "눔": 4914,
      "뉴": 4915,
      "느": 4916,
      "늑": 4917,
      "는": 4918,
      "늘": 4919,
      "능": 4920,
      "늦": 4921,
      "늪": 4922,
      "니": 4923,
      "닉": 4924,
      "닐": 4925,
      "님": 4926,
      "닛": 4927,
      "닝": 4928,
      "다": 4929,
      "닥": 4930,
      "단": 4931,
      "닫": 4932,
      "달": 4933,
      "닭": 4934,
      "닮": 4935,
      "담": 4936,
      "답": 4937,
      "당": 4938,
      "닿": 4939,
      "대": 4940,
      "댄": 4941,
      "댓": 4942,
      "댔": 4943,
      "댕": 4944,
      "더": 4945,
      "덕": 4946,
      "던": 4947,
      "덜": 4948,
      "덤": 4949,
      "덩": 4950,
      "데": 4951,
      "델": 4952,
      "뎃": 4953,
      "뎡": 4954,
      "도": 4955,
      "독": 4956,
      "돈": 4957,
      "돋": 4958,
      "돌": 4959,
      "돗": 4960,
      "동": 4961,
      "돟": 4962,
      "돼": 4963,
      "됐": 4964,
      "되": 4965,
      "된": 4966,
      "될": 4967,
      "둏": 4968,
      "두": 4969,
      "둑": 4970,
      "둔": 4971,
      "둘": 4972,
      "둡": 4973,
      "둣": 4974,
      "둥": 4975,
      "뒤": 4976,
      "듀": 4977,
      "드": 4978,
      "득": 4979,
      "든": 4980,
      "듣": 4981,
      "들": 4982,
      "듭": 4983,
      "듯": 4984,
      "등": 4985,
      "디": 4986,
      "딕": 4987,
      "딘": 4988,
      "딜": 4989,
      "딤": 4990,
      "딥": 4991,
      "딧": 4992,
      "딨": 4993,
      "따": 4994,
      "딱": 4995,
      "딸": 4996,
      "땀": 4997,
      "땁": 4998,
      "땅": 4999,
      "때": 5000,
      "땐": 5001,
      "땡": 5002,
      "떠": 5003,
      "떡": 5004,
      "떤": 5005,
      "떨": 5006,
      "떫": 5007,
      "떳": 5008,
      "떵": 5009,
      "떻": 5010,
      "떼": 5011,
      "뗄": 5012,
      "또": 5013,
      "똥": 5014,
      "뚜": 5015,
      "뛰": 5016,
      "뜨": 5017,
      "뜬": 5018,
      "뜸": 5019,
      "띄": 5020,
      "띠": 5021,
      "띵": 5022,
      "라": 5023,
      "락": 5024,
      "란": 5025,
      "랄": 5026,
      "람": 5027,
      "랍": 5028,
      "랏": 5029,
      "랐": 5030,
      "랑": 5031,
      "랗": 5032,
      "래": 5033,
      "랙": 5034,
      "랜": 5035,
      "램": 5036,
      "랩": 5037,
      "랬": 5038,
      "랭": 5039,
      "량": 5040,
      "러": 5041,
      "럭": 5042,
      "런": 5043,
      "럴": 5044,
      "럼": 5045,
      "럽": 5046,
      "럿": 5047,
      "렀": 5048,
      "렁": 5049,
      "렇": 5050,
      "레": 5051,
      "렉": 5052,
      "렌": 5053,
      "렐": 5054,
      "렘": 5055,
      "렙": 5056,
      "렛": 5057,
      "려": 5058,
      "력": 5059,
      "련": 5060,
      "렬": 5061,
      "렴": 5062,
      "렸": 5063,
      "령": 5064,
      "례": 5065,
      "로": 5066,
      "록": 5067,
      "론": 5068,
      "롤": 5069,
      "롬": 5070,
      "롭": 5071,
      "롯": 5072,
      "롱": 5073,
      "뢰": 5074,
      "료": 5075,
      "룡": 5076,
      "루": 5077,
      "룩": 5078,
      "룬": 5079,
      "룰": 5080,
      "룸": 5081,
      "룹": 5082,
      "뤄": 5083,
      "류": 5084,
      "륙": 5085,
      "륜": 5086,
      "률": 5087,
      "르": 5088,
      "륵": 5089,
      "른": 5090,
      "를": 5091,
      "름": 5092,
      "릇": 5093,
      "릉": 5094,
      "리": 5095,
      "릭": 5096,
      "린": 5097,
      "릴": 5098,
      "림": 5099,
      "립": 5100,
      "릿": 5101,
      "링": 5102,
      "마": 5103,
      "막": 5104,
      "만": 5105,
      "많": 5106,
      "말": 5107,
      "맑": 5108,
      "맘": 5109,
      "맙": 5110,
      "맛": 5111,
      "망": 5112,
      "맞": 5113,
      "매": 5114,
      "맥": 5115,
      "맨": 5116,
      "맵": 5117,
      "맷": 5118,
      "맹": 5119,
      "머": 5120,
      "먹": 5121,
      "먼": 5122,
      "멀": 5123,
      "멈": 5124,
      "멋": 5125,
      "멍": 5126,
      "메": 5127,
      "멕": 5128,
      "멜": 5129,
      "멤": 5130,
      "며": 5131,
      "면": 5132,
      "멸": 5133,
      "명": 5134,
      "모": 5135,
      "목": 5136,
      "몬": 5137,
      "몰": 5138,
      "몸": 5139,
      "몹": 5140,
      "못": 5141,
      "몽": 5142,
      "뫼": 5143,
      "묏": 5144,
      "묘": 5145,
      "무": 5146,
      "묵": 5147,
      "문": 5148,
      "물": 5149,
      "뭄": 5150,
      "뭇": 5151,
      "뭊": 5152,
      "뭐": 5153,
      "뭔": 5154,
      "뭘": 5155,
      "뭣": 5156,
      "뮤": 5157,
      "므": 5158,
      "믕": 5159,
      "미": 5160,
      "믹": 5161,
      "민": 5162,
      "믿": 5163,
      "밀": 5164,
      "밍": 5165,
      "밑": 5166,
      "바": 5167,
      "박": 5168,
      "밖": 5169,
      "반": 5170,
      "받": 5171,
      "발": 5172,
      "밝": 5173,
      "밟": 5174,
      "밤": 5175,
      "밥": 5176,
      "방": 5177,
      "밭": 5178,
      "배": 5179,
      "백": 5180,
      "밴": 5181,
      "뱀": 5182,
      "뱃": 5183,
      "뱅": 5184,
      "뱉": 5185,
      "버": 5186,
      "벅": 5187,
      "번": 5188,
      "벌": 5189,
      "범": 5190,
      "법": 5191,
      "벗": 5192,
      "벚": 5193,
      "베": 5194,
      "벤": 5195,
      "벨": 5196,
      "벼": 5197,
      "벽": 5198,
      "변": 5199,
      "별": 5200,
      "병": 5201,
      "보": 5202,
      "복": 5203,
      "볶": 5204,
      "본": 5205,
      "볼": 5206,
      "봄": 5207,
      "봇": 5208,
      "봉": 5209,
      "봐": 5210,
      "봔": 5211,
      "봤": 5212,
      "부": 5213,
      "북": 5214,
      "분": 5215,
      "불": 5216,
      "붉": 5217,
      "붐": 5218,
      "붕": 5219,
      "붙": 5220,
      "뷔": 5221,
      "뷰": 5222,
      "브": 5223,
      "븐": 5224,
      "블": 5225,
      "비": 5226,
      "빅": 5227,
      "빈": 5228,
      "빌": 5229,
      "빔": 5230,
      "빗": 5231,
      "빙": 5232,
      "빛": 5233,
      "빠": 5234,
      "빤": 5235,
      "빨": 5236,
      "빵": 5237,
      "빼": 5238,
      "뻐": 5239,
      "뻑": 5240,
      "뻔": 5241,
      "뻬": 5242,
      "뽀": 5243,
      "뽐": 5244,
      "뽕": 5245,
      "뿅": 5246,
      "뿌": 5247,
      "뿐": 5248,
      "뿔": 5249,
      "뿜": 5250,
      "뿡": 5251,
      "쀼": 5252,
      "쁘": 5253,
      "쁜": 5254,
      "쁠": 5255,
      "쁨": 5256,
      "삐": 5257,
      "삠": 5258,
      "사": 5259,
      "삭": 5260,
      "산": 5261,
      "살": 5262,
      "삶": 5263,
      "삼": 5264,
      "상": 5265,
      "새": 5266,
      "색": 5267,
      "샌": 5268,
      "샘": 5269,
      "생": 5270,
      "샤": 5271,
      "샬": 5272,
      "서": 5273,
      "석": 5274,
      "선": 5275,
      "섣": 5276,
      "설": 5277,
      "섬": 5278,
      "섭": 5279,
      "섯": 5280,
      "성": 5281,
      "세": 5282,
      "센": 5283,
      "셀": 5284,
      "셋": 5285,
      "셔": 5286,
      "션": 5287,
      "셜": 5288,
      "셨": 5289,
      "셰": 5290,
      "소": 5291,
      "속": 5292,
      "손": 5293,
      "솔": 5294,
      "송": 5295,
      "쇠": 5296,
      "쇼": 5297,
      "숀": 5298,
      "숏": 5299,
      "숑": 5300,
      "수": 5301,
      "숙": 5302,
      "순": 5303,
      "술": 5304,
      "숨": 5305,
      "숩": 5306,
      "숫": 5307,
      "숭": 5308,
      "숲": 5309,
      "쉐": 5310,
      "쉘": 5311,
      "쉬": 5312,
      "쉽": 5313,
      "쉿": 5314,
      "슈": 5315,
      "슌": 5316,
      "슛": 5317,
      "스": 5318,
      "슨": 5319,
      "슬": 5320,
      "슴": 5321,
      "습": 5322,
      "승": 5323,
      "슼": 5324,
      "시": 5325,
      "식": 5326,
      "신": 5327,
      "싣": 5328,
      "실": 5329,
      "싫": 5330,
      "심": 5331,
      "십": 5332,
      "싱": 5333,
      "싶": 5334,
      "싸": 5335,
      "쌈": 5336,
      "쌍": 5337,
      "써": 5338,
      "썰": 5339,
      "썸": 5340,
      "쎈": 5341,
      "쏘": 5342,
      "쏙": 5343,
      "쏜": 5344,
      "쏟": 5345,
      "쏭": 5346,
      "쏴": 5347,
      "쑤": 5348,
      "쓰": 5349,
      "쓸": 5350,
      "씁": 5351,
      "씨": 5352,
      "씬": 5353,
      "씻": 5354,
      "씽": 5355,
      "아": 5356,
      "악": 5357,
      "안": 5358,
      "앉": 5359,
      "않": 5360,
      "알": 5361,
      "앓": 5362,
      "암": 5363,
      "압": 5364,
      "았": 5365,
      "앙": 5366,
      "앞": 5367,
      "애": 5368,
      "앤": 5369,
      "앨": 5370,
      "앰": 5371,
      "앵": 5372,
      "야": 5373,
      "약": 5374,
      "얀": 5375,
      "얄": 5376,
      "양": 5377,
      "얘": 5378,
      "어": 5379,
      "억": 5380,
      "언": 5381,
      "얼": 5382,
      "엄": 5383,
      "업": 5384,
      "없": 5385,
      "었": 5386,
      "엉": 5387,
      "에": 5388,
      "엑": 5389,
      "엔": 5390,
      "엘": 5391,
      "엠": 5392,
      "엣": 5393,
      "여": 5394,
      "역": 5395,
      "연": 5396,
      "열": 5397,
      "염": 5398,
      "엽": 5399,
      "엿": 5400,
      "였": 5401,
      "영": 5402,
      "예": 5403,
      "옛": 5404,
      "오": 5405,
      "옥": 5406,
      "온": 5407,
      "올": 5408,
      "옵": 5409,
      "옷": 5410,
      "옹": 5411,
      "와": 5412,
      "완": 5413,
      "왔": 5414,
      "왕": 5415,
      "왜": 5416,
      "왠": 5417,
      "외": 5418,
      "요": 5419,
      "욘": 5420,
      "용": 5421,
      "우": 5422,
      "욱": 5423,
      "운": 5424,
      "울": 5425,
      "움": 5426,
      "웃": 5427,
      "웅": 5428,
      "워": 5429,
      "웍": 5430,
      "원": 5431,
      "월": 5432,
      "웜": 5433,
      "웨": 5434,
      "웬": 5435,
      "웰": 5436,
      "웹": 5437,
      "웽": 5438,
      "위": 5439,
      "윈": 5440,
      "윌": 5441,
      "윗": 5442,
      "윙": 5443,
      "유": 5444,
      "육": 5445,
      "윤": 5446,
      "율": 5447,
      "융": 5448,
      "으": 5449,
      "윽": 5450,
      "은": 5451,
      "읃": 5452,
      "을": 5453,
      "음": 5454,
      "읍": 5455,
      "읏": 5456,
      "응": 5457,
      "읒": 5458,
      "읖": 5459,
      "읗": 5460,
      "의": 5461,
      "이": 5462,
      "익": 5463,
      "인": 5464,
      "일": 5465,
      "읽": 5466,
      "잃": 5467,
      "임": 5468,
      "입": 5469,
      "잇": 5470,
      "있": 5471,
      "잉": 5472,
      "잊": 5473,
      "잎": 5474,
      "자": 5475,
      "작": 5476,
      "잔": 5477,
      "잖": 5478,
      "잘": 5479,
      "잠": 5480,
      "잡": 5481,
      "잤": 5482,
      "장": 5483,
      "재": 5484,
      "잼": 5485,
      "쟁": 5486,
      "쟈": 5487,
      "쟤": 5488,
      "저": 5489,
      "적": 5490,
      "전": 5491,
      "절": 5492,
      "젊": 5493,
      "점": 5494,
      "젓": 5495,
      "정": 5496,
      "제": 5497,
      "젝": 5498,
      "젠": 5499,
      "젤": 5500,
      "젯": 5501,
      "져": 5502,
      "졌": 5503,
      "조": 5504,
      "족": 5505,
      "존": 5506,
      "졸": 5507,
      "좀": 5508,
      "종": 5509,
      "좋": 5510,
      "좌": 5511,
      "죄": 5512,
      "죠": 5513,
      "죤": 5514,
      "주": 5515,
      "죽": 5516,
      "준": 5517,
      "줄": 5518,
      "줏": 5519,
      "중": 5520,
      "줘": 5521,
      "쥐": 5522,
      "쥬": 5523,
      "즈": 5524,
      "즌": 5525,
      "즐": 5526,
      "즘": 5527,
      "증": 5528,
      "지": 5529,
      "직": 5530,
      "진": 5531,
      "질": 5532,
      "짐": 5533,
      "집": 5534,
      "짓": 5535,
      "징": 5536,
      "짜": 5537,
      "짝": 5538,
      "짠": 5539,
      "짬": 5540,
      "짱": 5541,
      "째": 5542,
      "쩌": 5543,
      "쩐": 5544,
      "쩜": 5545,
      "쩡": 5546,
      "쪼": 5547,
      "쫓": 5548,
      "쭈": 5549,
      "쭌": 5550,
      "쭤": 5551,
      "쯔": 5552,
      "쯧": 5553,
      "찌": 5554,
      "찍": 5555,
      "찐": 5556,
      "찔": 5557,
      "차": 5558,
      "착": 5559,
      "찬": 5560,
      "찮": 5561,
      "찰": 5562,
      "참": 5563,
      "창": 5564,
      "찾": 5565,
      "채": 5566,
      "책": 5567,
      "챈": 5568,
      "챌": 5569,
      "챔": 5570,
      "챙": 5571,
      "챠": 5572,
      "처": 5573,
      "척": 5574,
      "천": 5575,
      "철": 5576,
      "첩": 5577,
      "첫": 5578,
      "청": 5579,
      "체": 5580,
      "쳐": 5581,
      "쳤": 5582,
      "초": 5583,
      "촌": 5584,
      "총": 5585,
      "촨": 5586,
      "최": 5587,
      "쵸": 5588,
      "추": 5589,
      "축": 5590,
      "춘": 5591,
      "출": 5592,
      "춤": 5593,
      "충": 5594,
      "춰": 5595,
      "취": 5596,
      "츄": 5597,
      "츠": 5598,
      "층": 5599,
      "치": 5600,
      "칙": 5601,
      "친": 5602,
      "칠": 5603,
      "침": 5604,
      "칫": 5605,
      "칭": 5606,
      "카": 5607,
      "칸": 5608,
      "칼": 5609,
      "캉": 5610,
      "캐": 5611,
      "캔": 5612,
      "캠": 5613,
      "커": 5614,
      "컨": 5615,
      "컬": 5616,
      "컴": 5617,
      "컷": 5618,
      "케": 5619,
      "켄": 5620,
      "켓": 5621,
      "켜": 5622,
      "코": 5623,
      "콕": 5624,
      "콘": 5625,
      "콜": 5626,
      "콤": 5627,
      "콩": 5628,
      "쾅": 5629,
      "쿠": 5630,
      "쿡": 5631,
      "쿨": 5632,
      "쿵": 5633,
      "퀘": 5634,
      "퀴": 5635,
      "퀸": 5636,
      "큐": 5637,
      "큘": 5638,
      "크": 5639,
      "큰": 5640,
      "클": 5641,
      "큼": 5642,
      "키": 5643,
      "킨": 5644,
      "킬": 5645,
      "킴": 5646,
      "킷": 5647,
      "킹": 5648,
      "타": 5649,
      "탁": 5650,
      "탄": 5651,
      "탈": 5652,
      "탐": 5653,
      "탑": 5654,
      "탕": 5655,
      "태": 5656,
      "택": 5657,
      "탤": 5658,
      "탱": 5659,
      "터": 5660,
      "털": 5661,
      "테": 5662,
      "텍": 5663,
      "텐": 5664,
      "텔": 5665,
      "토": 5666,
      "톤": 5667,
      "톨": 5668,
      "통": 5669,
      "퇴": 5670,
      "툇": 5671,
      "투": 5672,
      "툴": 5673,
      "퉁": 5674,
      "퉜": 5675,
      "튜": 5676,
      "튠": 5677,
      "트": 5678,
      "특": 5679,
      "튼": 5680,
      "틀": 5681,
      "틈": 5682,
      "틔": 5683,
      "티": 5684,
      "틱": 5685,
      "틴": 5686,
      "틸": 5687,
      "팀": 5688,
      "팅": 5689,
      "파": 5690,
      "판": 5691,
      "팔": 5692,
      "팝": 5693,
      "팠": 5694,
      "팡": 5695,
      "팥": 5696,
      "패": 5697,
      "팩": 5698,
      "팬": 5699,
      "팰": 5700,
      "팽": 5701,
      "퍼": 5702,
      "펀": 5703,
      "펑": 5704,
      "페": 5705,
      "펙": 5706,
      "펜": 5707,
      "펠": 5708,
      "편": 5709,
      "평": 5710,
      "폐": 5711,
      "포": 5712,
      "폭": 5713,
      "폰": 5714,
      "폴": 5715,
      "폼": 5716,
      "퐁": 5717,
      "표": 5718,
      "푱": 5719,
      "푸": 5720,
      "푼": 5721,
      "풀": 5722,
      "품": 5723,
      "풋": 5724,
      "풍": 5725,
      "퓨": 5726,
      "프": 5727,
      "픈": 5728,
      "플": 5729,
      "픔": 5730,
      "피": 5731,
      "픽": 5732,
      "핀": 5733,
      "필": 5734,
      "핑": 5735,
      "하": 5736,
      "학": 5737,
      "한": 5738,
      "할": 5739,
      "함": 5740,
      "합": 5741,
      "핫": 5742,
      "항": 5743,
      "해": 5744,
      "핵": 5745,
      "핸": 5746,
      "햄": 5747,
      "햇": 5748,
      "했": 5749,
      "행": 5750,
      "향": 5751,
      "허": 5752,
      "헌": 5753,
      "험": 5754,
      "헝": 5755,
      "헤": 5756,
      "헨": 5757,
      "헬": 5758,
      "헷": 5759,
      "혀": 5760,
      "혁": 5761,
      "현": 5762,
      "혈": 5763,
      "혐": 5764,
      "협": 5765,
      "형": 5766,
      "혜": 5767,
      "호": 5768,
      "혹": 5769,
      "혼": 5770,
      "홀": 5771,
      "홈": 5772,
      "홉": 5773,
      "홍": 5774,
      "화": 5775,
      "확": 5776,
      "환": 5777,
      "활": 5778,
      "황": 5779,
      "회": 5780,
      "획": 5781,
      "효": 5782,
      "후": 5783,
      "훈": 5784,
      "훤": 5785,
      "훼": 5786,
      "휘": 5787,
      "휴": 5788,
      "흉": 5789,
      "흐": 5790,
      "흑": 5791,
      "흔": 5792,
      "흘": 5793,
      "흙": 5794,
      "흠": 5795,
      "흡": 5796,
      "흥": 5797,
      "희": 5798,
      "흰": 5799,
      "히": 5800,
      "힐": 5801,
      "힘": 5802,
      "힙": 5803,
      "": 5804,
      "": 5805,
      "": 5806,
      "": 5807,
      "": 5808,
      "": 5809,
      "": 5810,
      "": 5811,
      "": 5812,
      "": 5813,
      "": 5814,
      "": 5815,
      "": 5816,
      "": 5817,
      "": 5818,
      "": 5819,
      "": 5820,
      "": 5821,
      "": 5822,
      "": 5823,
      "": 5824,
      "": 5825,
      "": 5826,
      "": 5827,
      "": 5828,
      "": 5829,
      "": 5830,
      "": 5831,
      "": 5832,
      "": 5833,
      "": 5834,
      "": 5835,
      "": 5836,
      "": 5837,
      "": 5838,
      "": 5839,
      "": 5840,
      "": 5841,
      "": 5842,
      "": 5843,
      "": 5844,
      "": 5845,
      "": 5846,
      "": 5847,
      "": 5848,
      "": 5849,
      "": 5850,
      "": 5851,
      "": 5852,
      "": 5853,
      "": 5854,
      "": 5855,
      "": 5856,
      "": 5857,
      "": 5858,
      "": 5859,
      "": 5860,
      "": 5861,
      "": 5862,
      "": 5863,
      "": 5864,
      "": 5865,
      "": 5866,
      "﨎": 5867,
      "﨏": 5868,
      "塚": 5869,
      "﨑": 5870,
      "﨓": 5871,
      "﨔": 5872,
      "羽": 5873,
      "﨟": 5874,
      "﨡": 5875,
      "﨣": 5876,
      "﨤": 5877,
      "﨧": 5878,
      "﨨": 5879,
      "﨩": 5880,
      "ﬀ": 5881,
      "ﬁ": 5882,
      "ﬂ": 5883,
      "ﬃ": 5884,
      "ﬄ": 5885,
      "ﬅ": 5886,
      "ﬆ": 5887,
      "ﭪ": 5888,
      "ﭼ": 5889,
      "ﮪ": 5890,
      "ﯩ": 5891,
      "﷼": 5892,
      "︀": 5893,
      "︁": 5894,
      "︎": 5895,
      "️": 5896,
      "︔": 5897,
      "︰": 5898,
      "︱": 5899,
      "︲": 5900,
      "︳": 5901,
      "︴": 5902,
      "︶": 5903,
      "︹": 5904,
      "︺": 5905,
      "︽": 5906,
      "︾": 5907,
      "︿": 5908,
      "﹀": 5909,
      "﹁": 5910,
      "﹂": 5911,
      "﹃": 5912,
      "﹄": 5913,
      "﹋": 5914,
      "﹌": 5915,
      "﹍": 5916,
      "﹏": 5917,
      "﹐": 5918,
      "﹑": 5919,
      "﹒": 5920,
      "﹔": 5921,
      "﹕": 5922,
      "﹖": 5923,
      "﹗": 5924,
      "﹙": 5925,
      "﹚": 5926,
      "﹝": 5927,
      "﹞": 5928,
      "﹟": 5929,
      "﹠": 5930,
      "﹡": 5931,
      "﹣": 5932,
      "﹥": 5933,
      "﹦": 5934,
      "﹩": 5935,
      "﹪": 5936,
      "ﺁ": 5937,
      "ﺍ": 5938,
      "ﺎ": 5939,
      "ﺐ": 5940,
      "ﺑ": 5941,
      "ﺒ": 5942,
      "ﺓ": 5943,
      "ﺔ": 5944,
      "ﺝ": 5945,
      "ﺡ": 5946,
      "ﺣ": 5947,
      "ﺤ": 5948,
      "ﺩ": 5949,
      "ﺪ": 5950,
      "ﺭ": 5951,
      "ﺮ": 5952,
      "ﻋ": 5953,
      "ﻌ": 5954,
      "ﻐ": 5955,
      "ﻓ": 5956,
      "ﻕ": 5957,
      "ﻙ": 5958,
      "ﻞ": 5959,
      "ﻟ": 5960,
      "ﻠ": 5961,
      "ﻣ": 5962,
      "ﻧ": 5963,
      "ﻪ": 5964,
      "ﻫ": 5965,
      "ﻭ": 5966,
      "ﻮ": 5967,
      "ﻯ": 5968,
      "ﻲ": 5969,
      "ﻴ": 5970,
      "ﻻ": 5971,
      "﻿": 5972,
      "＂": 5973,
      "＃": 5974,
      "＄": 5975,
      "％": 5976,
      "＆": 5977,
      "＇": 5978,
      "＊": 5979,
      "＋": 5980,
      "－": 5981,
      "．": 5982,
      "／": 5983,
      "０": 5984,
      "１": 5985,
      "２": 5986,
      "３": 5987,
      "４": 5988,
      "５": 5989,
      "６": 5990,
      "７": 5991,
      "８": 5992,
      "９": 5993,
      "＜": 5994,
      "＝": 5995,
      "＞": 5996,
      "＠": 5997,
      "Ａ": 5998,
      "Ｂ": 5999,
      "Ｃ": 6000,
      "Ｄ": 6001,
      "Ｅ": 6002,
      "Ｆ": 6003,
      "Ｇ": 6004,
      "Ｈ": 6005,
      "Ｉ": 6006,
      "Ｊ": 6007,
      "Ｋ": 6008,
      "Ｌ": 6009,
      "Ｍ": 6010,
      "Ｎ": 6011,
      "Ｏ": 6012,
      "Ｐ": 6013,
      "Ｑ": 6014,
      "Ｒ": 6015,
      "Ｓ": 6016,
      "Ｔ": 6017,
      "Ｕ": 6018,
      "Ｖ": 6019,
      "Ｗ": 6020,
      "Ｘ": 6021,
      "Ｙ": 6022,
      "Ｚ": 6023,
      "［": 6024,
      "＼": 6025,
      "］": 6026,
      "＾": 6027,
      "＿": 6028,
      "｀": 6029,
      "ａ": 6030,
      "ｂ": 6031,
      "ｃ": 6032,
      "ｄ": 6033,
      "ｅ": 6034,
      "ｆ": 6035,
      "ｇ": 6036,
      "ｈ": 6037,
      "ｉ": 6038,
      "ｊ": 6039,
      "ｋ": 6040,
      "ｌ": 6041,
      "ｍ": 6042,
      "ｎ": 6043,
      "ｏ": 6044,
      "ｐ": 6045,
      "ｑ": 6046,
      "ｒ": 6047,
      "ｓ": 6048,
      "ｔ": 6049,
      "ｕ": 6050,
      "ｖ": 6051,
      "ｗ": 6052,
      "ｘ": 6053,
      "ｙ": 6054,
      "｛": 6055,
      "｜": 6056,
      "｝": 6057,
      "～": 6058,
      "｡": 6059,
      "｢": 6060,
      "｣": 6061,
      "､": 6062,
      "･": 6063,
      "ｦ": 6064,
      "ｧ": 6065,
      "ｨ": 6066,
      "ｪ": 6067,
      "ｫ": 6068,
      "ｬ": 6069,
      "ｭ": 6070,
      "ｯ": 6071,
      "ｰ": 6072,
      "ｱ": 6073,
      "ｲ": 6074,
      "ｳ": 6075,
      "ｴ": 6076,
      "ｵ": 6077,
      "ｶ": 6078,
      "ｷ": 6079,
      "ｸ": 6080,
      "ｹ": 6081,
      "ｺ": 6082,
      "ｻ": 6083,
      "ｼ": 6084,
      "ｽ": 6085,
      "ｾ": 6086,
      "ｿ": 6087,
      "ﾀ": 6088,
      "ﾁ": 6089,
      "ﾂ": 6090,
      "ﾃ": 6091,
      "ﾄ": 6092,
      "ﾅ": 6093,
      "ﾈ": 6094,
      "ﾉ": 6095,
      "ﾊ": 6096,
      "ﾋ": 6097,
      "ﾌ": 6098,
      "ﾍ": 6099,
      "ﾎ": 6100,
      "ﾏ": 6101,
      "ﾐ": 6102,
      "ﾑ": 6103,
      "ﾒ": 6104,
      "ﾓ": 6105,
      "ﾔ": 6106,
      "ﾗ": 6107,
      "ﾘ": 6108,
      "ﾙ": 6109,
      "ﾚ": 6110,
      "ﾛ": 6111,
      "ﾜ": 6112,
      "ﾝ": 6113,
      "ﾞ": 6114,
      "ﾟ": 6115,
      "￠": 6116,
      "￡": 6117,
      "￢": 6118,
      "￣": 6119,
      "￥": 6120,
      "￦": 6121,
      "￼": 6122,
      "�": 6123,
      "𐀞": 6124,
      "𐀫": 6125,
      "𐅀": 6126,
      "𐅁": 6127,
      "𐅂": 6128,
      "𐅆": 6129,
      "𐅗": 6130,
      "𐌀": 6131,
      "𐌄": 6132,
      "𐌉": 6133,
      "𐌓": 6134,
      "𐌕": 6135,
      "𐌰": 6136,
      "𐌳": 6137,
      "𐌻": 6138,
      "𐌼": 6139,
      "𐌿": 6140,
      "𐍈": 6141,
      "𐎊": 6142,
      "𐎌": 6143,
      "𐎍": 6144,
      "𐎗": 6145,
      "𐎛": 6146,
      "𐎠": 6147,
      "𐎡": 6148,
      "𐎢": 6149,
      "𐎣": 6150,
      "𐎥": 6151,
      "𐎧": 6152,
      "𐎩": 6153,
      "𐎫": 6154,
      "𐎭": 6155,
      "𐎱": 6156,
      "𐎴": 6157,
      "𐎶": 6158,
      "𐎷": 6159,
      "𐎹": 6160,
      "𐎺": 6161,
      "𐎼": 6162,
      "𐎿": 6163,
      "𐏀": 6164,
      "𐏁": 6165,
      "𐏂": 6166,
      "𐏃": 6167,
      "𐏋": 6168,
      "𐏎": 6169,
      "𐏐": 6170,
      "𐐦": 6171,
      "𐐧": 6172,
      "𐑎": 6173,
      "𐑏": 6174,
      "𐓁": 6175,
      "𐓂": 6176,
      "𐓏": 6177,
      "𐓘": 6178,
      "𐓟": 6179,
      "𐓣": 6180,
      "𐓤": 6181,
      "𐓯": 6182,
      "𐓻": 6183,
      "𐡂": 6184,
      "𐡍": 6185,
      "𐡔": 6186,
      "𐤀": 6187,
      "𐤁": 6188,
      "𐤂": 6189,
      "𐤃": 6190,
      "𐤄": 6191,
      "𐤅": 6192,
      "𐤆": 6193,
      "𐤇": 6194,
      "𐤈": 6195,
      "𐤉": 6196,
      "𐤊": 6197,
      "𐤌": 6198,
      "𐤍": 6199,
      "𐤏": 6200,
      "𐤐": 6201,
      "𐤑": 6202,
      "𐤒": 6203,
      "𐤓": 6204,
      "𐤔": 6205,
      "𐤕": 6206,
      "𐤠": 6207,
      "𐤣": 6208,
      "𐤦": 6209,
      "𐤭": 6210,
      "𐤮": 6211,
      "𐤯": 6212,
      "𐤱": 6213,
      "𐤳": 6214,
      "𐤶": 6215,
      "𐨀": 6216,
      "𐨁": 6217,
      "𐨂": 6218,
      "𐨅": 6219,
      "𐨆": 6220,
      "𐨐": 6221,
      "𐨒": 6222,
      "𐨗": 6223,
      "𐨞": 6224,
      "𐨢": 6225,
      "𐨣": 6226,
      "𐨨": 6227,
      "𐨩": 6228,
      "𐨪": 6229,
      "𐨫": 6230,
      "𐨬": 6231,
      "𐨮": 6232,
      "𐨯": 6233,
      "𐨿": 6234,
      "𐩣": 6235,
      "𐩨": 6236,
      "𐩪": 6237,
      "𐩬": 6238,
      "𐩯": 6239,
      "𐩱": 6240,
      "𐩵": 6241,
      "𐩶": 6242,
      "𐩽": 6243,
      "𐪆": 6244,
      "𐪌": 6245,
      "𐪔": 6246,
      "𐬀": 6247,
      "𐬎": 6248,
      "𐬖": 6249,
      "𐬙": 6250,
      "𐬞": 6251,
      "𐬠": 6252,
      "𐬯": 6253,
      "𐬴": 6254,
      "𐭀": 6255,
      "𐭃": 6256,
      "𐭅": 6257,
      "𐭉": 6258,
      "𐭊": 6259,
      "𐭋": 6260,
      "𐭌": 6261,
      "𐭍": 6262,
      "𐭐": 6263,
      "𐭓": 6264,
      "𐭕": 6265,
      "𐭠": 6266,
      "𐭢": 6267,
      "𐭣": 6268,
      "𐭥": 6269,
      "𐭦": 6270,
      "𐭧": 6271,
      "𐭩": 6272,
      "𐭪": 6273,
      "𐭫": 6274,
      "𐭬": 6275,
      "𐭭": 6276,
      "𐭮": 6277,
      "𐭱": 6278,
      "𐰀": 6279,
      "𐰃": 6280,
      "𐰆": 6281,
      "𐰇": 6282,
      "𐰉": 6283,
      "𐰋": 6284,
      "𐰍": 6285,
      "𐰏": 6286,
      "𐰑": 6287,
      "𐰓": 6288,
      "𐰔": 6289,
      "𐰖": 6290,
      "𐰘": 6291,
      "𐰚": 6292,
      "𐰛": 6293,
      "𐰜": 6294,
      "𐰞": 6295,
      "𐰠": 6296,
      "𐰢": 6297,
      "𐰣": 6298,
      "𐰤": 6299,
      "𐰯": 6300,
      "𐰰": 6301,
      "𐰲": 6302,
      "𐰴": 6303,
      "𐰵": 6304,
      "𐰼": 6305,
      "𐰾": 6306,
      "𐱁": 6307,
      "𐱃": 6308,
      "𐱅": 6309,
      "𑀁": 6310,
      "𑀉": 6311,
      "𑀓": 6312,
      "𑀚": 6313,
      "𑀡": 6314,
      "𑀤": 6315,
      "𑀥": 6316,
      "𑀦": 6317,
      "𑀧": 6318,
      "𑀫": 6319,
      "𑀬": 6320,
      "𑀭": 6321,
      "𑀯": 6322,
      "𑀱": 6323,
      "𑀸": 6324,
      "𑀺": 6325,
      "𑀼": 6326,
      "𑁆": 6327,
      "𑜃": 6328,
      "𑜄": 6329,
      "𑜈": 6330,
      "𑜌": 6331,
      "𑜘": 6332,
      "𑜞": 6333,
      "𑜡": 6334,
      "𑢹": 6335,
      "𑣉": 6336,
      "𑣋": 6337,
      "𑣎": 6338,
      "𑣜": 6339,
      "𒀀": 6340,
      "𒀊": 6341,
      "𒀭": 6342,
      "𒀾": 6343,
      "𒁀": 6344,
      "𒁄": 6345,
      "𒁉": 6346,
      "𒁕": 6347,
      "𒁺": 6348,
      "𒂅": 6349,
      "𒂊": 6350,
      "𒂍": 6351,
      "𒂗": 6352,
      "𒂠": 6353,
      "𒂦": 6354,
      "𒂵": 6355,
      "𒃶": 6356,
      "𒃷": 6357,
      "𒃻": 6358,
      "𒄀": 6359,
      "𒄑": 6360,
      "𒄖": 6361,
      "𒄠": 6362,
      "𒄩": 6363,
      "𒄭": 6364,
      "𒄿": 6365,
      "𒅀": 6366,
      "𒅅": 6367,
      "𒅇": 6368,
      "𒅈": 6369,
      "𒅋": 6370,
      "𒅖": 6371,
      "𒅘": 6372,
      "𒆕": 6373,
      "𒆠": 6374,
      "𒆤": 6375,
      "𒆧": 6376,
      "𒆪": 6377,
      "𒆬": 6378,
      "𒆳": 6379,
      "𒆷": 6380,
      "𒈗": 6381,
      "𒈠": 6382,
      "𒈦": 6383,
      "𒈨": 6384,
      "𒈪": 6385,
      "𒈬": 6386,
      "𒈹": 6387,
      "𒈾": 6388,
      "𒉌": 6389,
      "𒉣": 6390,
      "𒉺": 6391,
      "𒊏": 6392,
      "𒊓": 6393,
      "𒊭": 6394,
      "𒊷": 6395,
      "𒊹": 6396,
      "𒊺": 6397,
      "𒋗": 6398,
      "𒋤": 6399,
      "𒋫": 6400,
      "𒋼": 6401,
      "𒋾": 6402,
      "𒌆": 6403,
      "𒌇": 6404,
      "𒌍": 6405,
      "𒌑": 6406,
      "𒌓": 6407,
      "𒌦": 6408,
      "𒌵": 6409,
      "𒌷": 6410,
      "𒍣": 6411,
      "𒍪": 6412,
      "𒐼": 6413,
      "𓁹": 6414,
      "𓂋": 6415,
      "𓂜": 6416,
      "𓂝": 6417,
      "𓃠": 6418,
      "𓃣": 6419,
      "𓃱": 6420,
      "𓄿": 6421,
      "𓅓": 6422,
      "𓅱": 6423,
      "𓆎": 6424,
      "𓆑": 6425,
      "𓆓": 6426,
      "𓆰": 6427,
      "𓇋": 6428,
      "𓇍": 6429,
      "𓇽": 6430,
      "𓈈": 6431,
      "𓈉": 6432,
      "𓈖": 6433,
      "𓈗": 6434,
      "𓉐": 6435,
      "𓉴": 6436,
      "𓊖": 6437,
      "𓊪": 6438,
      "𓋊": 6439,
      "𓍋": 6440,
      "𓍘": 6441,
      "𓎡": 6442,
      "𓏇": 6443,
      "𓏏": 6444,
      "𓐍": 6445,
      "𓐝": 6446,
      "𖩃": 6447,
      "𖩑": 6448,
      "𖩓": 6449,
      "𘜶": 6450,
      "𘟙": 6451,
      "𘮒": 6452,
      "𘱚": 6453,
      "𘱤": 6454,
      "𘱿": 6455,
      "𛀸": 6456,
      "𛁈": 6457,
      "𛄟": 6458,
      "𛄡": 6459,
      "𛄢": 6460,
      "𜻏": 6461,
      "𝄂": 6462,
      "𝄆": 6463,
      "𝄇": 6464,
      "𝄋": 6465,
      "𝄌": 6466,
      "𝄪": 6467,
      "𝄫": 6468,
      "𝅝": 6469,
      "𝋀": 6470,
      "𝋁": 6471,
      "𝋂": 6472,
      "𝋅": 6473,
      "𝋆": 6474,
      "𝋇": 6475,
      "𝋌": 6476,
      "𝋑": 6477,
      "𝌀": 6478,
      "𝐀": 6479,
      "𝐁": 6480,
      "𝐂": 6481,
      "𝐄": 6482,
      "𝐅": 6483,
      "𝐆": 6484,
      "𝐇": 6485,
      "𝐈": 6486,
      "𝐉": 6487,
      "𝐊": 6488,
      "𝐋": 6489,
      "𝐌": 6490,
      "𝐍": 6491,
      "𝐎": 6492,
      "𝐑": 6493,
      "𝐒": 6494,
      "𝐓": 6495,
      "𝐔": 6496,
      "𝐖": 6497,
      "𝐗": 6498,
      "𝐘": 6499,
      "𝐞": 6500,
      "𝐡": 6501,
      "𝐢": 6502,
      "𝐥": 6503,
      "𝐦": 6504,
      "𝐫": 6505,
      "𝐬": 6506,
      "𝐴": 6507,
      "𝐵": 6508,
      "𝐶": 6509,
      "𝐸": 6510,
      "𝐹": 6511,
      "𝐻": 6512,
      "𝐾": 6513,
      "𝑂": 6514,
      "𝑄": 6515,
      "𝑇": 6516,
      "𝑋": 6517,
      "𝑑": 6518,
      "𝑓": 6519,
      "𝑗": 6520,
      "𝑘": 6521,
      "𝑛": 6522,
      "𝑝": 6523,
      "𝑠": 6524,
      "𝑦": 6525,
      "𝑧": 6526,
      "𝑨": 6527,
      "𝑪": 6528,
      "𝑫": 6529,
      "𝑯": 6530,
      "𝑱": 6531,
      "𝑳": 6532,
      "𝑵": 6533,
      "𝑹": 6534,
      "𝑺": 6535,
      "𝑻": 6536,
      "𝑼": 6537,
      "𝑿": 6538,
      "𝒂": 6539,
      "𝒃": 6540,
      "𝒄": 6541,
      "𝒅": 6542,
      "𝒆": 6543,
      "𝒉": 6544,
      "𝒊": 6545,
      "𝒍": 6546,
      "𝒏": 6547,
      "𝒐": 6548,
      "𝒑": 6549,
      "𝒓": 6550,
      "𝒔": 6551,
      "𝒕": 6552,
      "𝒖": 6553,
      "𝒗": 6554,
      "𝒘": 6555,
      "𝒚": 6556,
      "𝒰": 6557,
      "𝓨": 6558,
      "𝔓": 6559,
      "𝔡": 6560,
      "𝔪": 6561,
      "𝔫": 6562,
      "𝔬": 6563,
      "𝔸": 6564,
      "𝕆": 6565,
      "𝕊": 6566,
      "𝕏": 6567,
      "𝕖": 6568,
      "𝕞": 6569,
      "𝕟": 6570,
      "𝕠": 6571,
      "𝕪": 6572,
      "𝖟": 6573,
      "𝗖": 6574,
      "𝗝": 6575,
      "𝗟": 6576,
      "𝗦": 6577,
      "𝗬": 6578,
      "𝗲": 6579,
      "𝗶": 6580,
      "𝗸": 6581,
      "𝗹": 6582,
      "𝗻": 6583,
      "𝗼": 6584,
      "𝘀": 6585,
      "𝘂": 6586,
      "𝘆": 6587,
      "𝘒": 6588,
      "𝘽": 6589,
      "𝘾": 6590,
      "𝘿": 6591,
      "𝙀": 6592,
      "𝙇": 6593,
      "𝙈": 6594,
      "𝙊": 6595,
      "𝙋": 6596,
      "𝙍": 6597,
      "𝙎": 6598,
      "𝙐": 6599,
      "𝙑": 6600,
      "𝙖": 6601,
      "𝙘": 6602,
      "𝙙": 6603,
      "𝙚": 6604,
      "𝙜": 6605,
      "𝙝": 6606,
      "𝙞": 6607,
      "𝙣": 6608,
      "𝙤": 6609,
      "𝙥": 6610,
      "𝙧": 6611,
      "𝙨": 6612,
      "𝙩": 6613,
      "𝙫": 6614,
      "𝙬": 6615,
      "𝛂": 6616,
      "𝛔": 6617,
      "𝛾": 6618,
      "𝛿": 6619,
      "𝜆": 6620,
      "𝜋": 6621,
      "𝝰": 6622,
      "𝝱": 6623,
      "𝟮": 6624,
      "𞄀": 6625,
      "𞄂": 6626,
      "𞄄": 6627,
      "𞄎": 6628,
      "𞄐": 6629,
      "𞄔": 6630,
      "𞄚": 6631,
      "𞄤": 6632,
      "𞄦": 6633,
      "𞄧": 6634,
      "𞄩": 6635,
      "𞄫": 6636,
      "𞄬": 6637,
      "𞄰": 6638,
      "𞄱": 6639,
      "𞄲": 6640,
      "𞄳": 6641,
      "𞠀": 6642,
      "𞠁": 6643,
      "𞠂": 6644,
      "𞤑": 6645,
      "𞤢": 6646,
      "𞤪": 6647,
      "𞤭": 6648,
      "𞤮": 6649,
      "𞤲": 6650,
      "𞤳": 6651,
      "𞥄": 6652,
      "🇦": 6653,
      "🇧": 6654,
      "🇨": 6655,
      "🇩": 6656,
      "🇪": 6657,
      "🇫": 6658,
      "🇬": 6659,
      "🇭": 6660,
      "🇮": 6661,
      "🇯": 6662,
      "🇰": 6663,
      "🇱": 6664,
      "🇲": 6665,
      "🇳": 6666,
      "🇵": 6667,
      "🇷": 6668,
      "🇸": 6669,
      "🇹": 6670,
      "🇺": 6671,
      "🇻": 6672,
      "🇼": 6673,
      "🇾": 6674,
      "🇿": 6675,
      "🌈": 6676,
      "🌞": 6677,
      "🌟": 6678,
      "🌰": 6679,
      "🌸": 6680,
      "🌽": 6681,
      "🍀": 6682,
      "🍆": 6683,
      "🍇": 6684,
      "🍉": 6685,
      "🍎": 6686,
      "🍑": 6687,
      "🍬": 6688,
      "🍸": 6689,
      "🍺": 6690,
      "🎀": 6691,
      "🎄": 6692,
      "🎌": 6693,
      "🎭": 6694,
      "🏁": 6695,
      "🏆": 6696,
      "🏳": 6697,
      "🏴": 6698,
      "🏵": 6699,
      "🏻": 6700,
      "🏼": 6701,
      "🏽": 6702,
      "🏾": 6703,
      "🏿": 6704,
      "🐍": 6705,
      "🐎": 6706,
      "🐴": 6707,
      "🐷": 6708,
      "🐾": 6709,
      "👅": 6710,
      "👌": 6711,
      "👍": 6712,
      "👑": 6713,
      "👧": 6714,
      "👨": 6715,
      "👩": 6716,
      "💔": 6717,
      "💗": 6718,
      "💚": 6719,
      "💜": 6720,
      "💣": 6721,
      "💩": 6722,
      "💰": 6723,
      "📅": 6724,
      "🔝": 6725,
      "🔤": 6726,
      "🔥": 6727,
      "🔫": 6728,
      "🔴": 6729,
      "🔵": 6730,
      "🔻": 6731,
      "😀": 6732,
      "😂": 6733,
      "😅": 6734,
      "😍": 6735,
      "😭": 6736,
      "🙅": 6737,
      "🙈": 6738,
      "🙏": 6739,
      "🚩": 6740,
      "🚫": 6741,
      "🜨": 6742,
      "🝵": 6743,
      "🤌": 6744,
      "🤣": 6745,
      "🤦": 6746,
      "🥇": 6747,
      "🥰": 6748,
      "🥸": 6749,
      "🥹": 6750,
      "🥺": 6751,
      "🦁": 6752,
      "🦋": 6753,
      "🦜": 6754,
      "🦠": 6755,
      "🧐": 6756,
      "🧭": 6757,
      "𠀑": 6758,
      "𠀠": 6759,
      "𠀤": 6760,
      "𠀧": 6761,
      "𠀾": 6762,
      "𠂂": 6763,
      "𠂉": 6764,
      "𠃉": 6765,
      "𠃋": 6766,
      "𠃍": 6767,
      "𠃎": 6768,
      "𠃑": 6769,
      "𠃵": 6770,
      "𠄎": 6771,
      "𠄘": 6772,
      "𠄞": 6773,
      "𠄟": 6774,
      "𠄠": 6775,
      "𠄩": 6776,
      "𠄳": 6777,
      "𠄼": 6778,
      "𠅿": 6779,
      "𠆢": 6780,
      "𠆤": 6781,
      "𠆭": 6782,
      "𠇇": 6783,
      "𠇖": 6784,
      "𠇟": 6785,
      "𠇶": 6786,
      "𠇹": 6787,
      "𠈌": 6788,
      "𠈣": 6789,
      "𠊛": 6790,
      "𠊺": 6791,
      "𠋮": 6792,
      "𠍀": 6793,
      "𠍇": 6794,
      "𠍋": 6795,
      "𠍟": 6796,
      "𠎀": 6797,
      "𠎢": 6798,
      "𠏉": 6799,
      "𠐓": 6800,
      "𠐔": 6801,
      "𠐤": 6802,
      "𠒇": 6803,
      "𠔦": 6804,
      "𠕇": 6805,
      "𠖳": 6806,
      "𠘨": 6807,
      "𠙴": 6808,
      "𠚕": 6809,
      "𠚢": 6810,
      "𠝹": 6811,
      "𠟭": 6812,
      "𠠫": 6813,
      "𠡠": 6814,
      "𠣮": 6815,
      "𠤩": 6816,
      "𠥓": 6817,
      "𠦝": 6818,
      "𠨑": 6819,
      "𠪱": 6820,
      "𠪳": 6821,
      "𠫂": 6822,
      "𠫊": 6823,
      "𠫑": 6824,
      "𠫤": 6825,
      "𠫳": 6826,
      "𠬍": 6827,
      "𠭘": 6828,
      "𠮶": 6829,
      "𠮷": 6830,
      "𠯿": 6831,
      "𠰂": 6832,
      "𠰢": 6833,
      "𠰱": 6834,
      "𠰷": 6835,
      "𠱊": 6836,
      "𠱸": 6837,
      "𠱾": 6838,
      "𠳓": 6839,
      "𠴟": 6840,
      "𠵆": 6841,
      "𠵇": 6842,
      "𠵱": 6843,
      "𠶙": 6844,
      "𠷨": 6845,
      "𠺌": 6846,
      "𠺞": 6847,
      "𠻇": 6848,
      "𠻸": 6849,
      "𠾶": 6850,
      "𡁻": 6851,
      "𡃁": 6852,
      "𡈟": 6853,
      "𡉟": 6854,
      "𡊎": 6855,
      "𡊤": 6856,
      "𡊿": 6857,
      "𡋕": 6858,
      "𡋣": 6859,
      "𡋱": 6860,
      "𡋹": 6861,
      "𡌃": 6862,
      "𡌳": 6863,
      "𡌶": 6864,
      "𡍓": 6865,
      "𡍼": 6866,
      "𡎊": 6867,
      "𡎜": 6868,
      "𡎠": 6869,
      "𡎴": 6870,
      "𡏦": 6871,
      "𡐾": 6872,
      "𡑏": 6873,
      "𡑐": 6874,
      "𡑒": 6875,
      "𡑠": 6876,
      "𡑡": 6877,
      "𡑤": 6878,
      "𡑴": 6879,
      "𡑵": 6880,
      "𡒉": 6881,
      "𡓂": 6882,
      "𡓝": 6883,
      "𡓱": 6884,
      "𡔈": 6885,
      "𡔉": 6886,
      "𡕀": 6887,
      "𡗨": 6888,
      "𡘯": 6889,
      "𡙇": 6890,
      "𡚒": 6891,
      "𡚖": 6892,
      "𡞱": 6893,
      "𡟃": 6894,
      "𡟰": 6895,
      "𡠄": 6896,
      "𡠍": 6897,
      "𡠾": 6898,
      "𡣗": 6899,
      "𡣺": 6900,
      "𡤕": 6901,
      "𡥧": 6902,
      "𡦗": 6903,
      "𡦹": 6904,
      "𡨂": 6905,
      "𡨃": 6906,
      "𡨊": 6907,
      "𡨧": 6908,
      "𡩀": 6909,
      "𡩈": 6910,
      "𡩋": 6911,
      "𡩏": 6912,
      "𡩜": 6913,
      "𡩢": 6914,
      "𡪾": 6915,
      "𡪿": 6916,
      "𡭬": 6917,
      "𡰣": 6918,
      "𡰳": 6919,
      "𡱰": 6920,
      "𡳅": 6921,
      "𡴶": 6922,
      "𡴾": 6923,
      "𡵯": 6924,
      "𡵰": 6925,
      "𡶀": 6926,
      "𡶛": 6927,
      "𡷣": 6928,
      "𡷫": 6929,
      "𡸷": 6930,
      "𡺄": 6931,
      "𡺊": 6932,
      "𡺿": 6933,
      "𡼹": 6934,
      "𡽫": 6935,
      "𡽹": 6936,
      "𡾊": 6937,
      "𡾣": 6938,
      "𢀇": 6939,
      "𢀓": 6940,
      "𢀛": 6941,
      "𢀿": 6942,
      "𢂎": 6943,
      "𢃇": 6944,
      "𢄂": 6945,
      "𢄙": 6946,
      "𢆡": 6947,
      "𢌛": 6948,
      "𢎞": 6949,
      "𢏺": 6950,
      "𢐗": 6951,
      "𢑥": 6952,
      "𢓊": 6953,
      "𢓨": 6954,
      "𢔶": 6955,
      "𢕌": 6956,
      "𢕸": 6957,
      "𢘆": 6958,
      "𢘑": 6959,
      "𢘙": 6960,
      "𢙏": 6961,
      "𢙒": 6962,
      "𢙴": 6963,
      "𢚍": 6964,
      "𢚝": 6965,
      "𢛣": 6966,
      "𢞘": 6967,
      "𢟬": 6968,
      "𢠁": 6969,
      "𢡱": 6970,
      "𢢀": 6971,
      "𢢝": 6972,
      "𢢩": 6973,
      "𢢼": 6974,
      "𢢽": 6975,
      "𢣴": 6976,
      "𢤮": 6977,
      "𢦉": 6978,
      "𢫆": 6979,
      "𢫾": 6980,
      "𢬍": 6981,
      "𢱿": 6982,
      "𢴇": 6983,
      "𢶏": 6984,
      "𢷋": 6985,
      "𢺋": 6986,
      "𢼄": 6987,
      "𢾭": 6988,
      "𣁽": 6989,
      "𣃁": 6990,
      "𣄽": 6991,
      "𣆂": 6992,
      "𣇈": 6993,
      "𣇐": 6994,
      "𣈏": 6995,
      "𣈱": 6996,
      "𣈴": 6997,
      "𣉙": 6998,
      "𣊫": 6999,
      "𣊬": 7000,
      "𣊭": 7001,
      "𣌀": 7002,
      "𣎗": 7003,
      "𣏌": 7004,
      "𣏜": 7005,
      "𣏢": 7006,
      "𣏴": 7007,
      "𣐀": 7008,
      "𣐅": 7009,
      "𣐕": 7010,
      "𣐙": 7011,
      "𣑚": 7012,
      "𣑮": 7013,
      "𣒌": 7014,
      "𣒱": 7015,
      "𣓞": 7016,
      "𣔉": 7017,
      "𣔌": 7018,
      "𣔟": 7019,
      "𣔾": 7020,
      "𣗊": 7021,
      "𣗖": 7022,
      "𣗬": 7023,
      "𣗼": 7024,
      "𣘁": 7025,
      "𣘓": 7026,
      "𣚅": 7027,
      "𣚚": 7028,
      "𣚣": 7029,
      "𣚴": 7030,
      "𣛣": 7031,
      "𣛧": 7032,
      "𣛭": 7033,
      "𣛮": 7034,
      "𣜜": 7035,
      "𣜰": 7036,
      "𣞁": 7037,
      "𣡵": 7038,
      "𣡿": 7039,
      "𣦻": 7040,
      "𣨼": 7041,
      "𣫏": 7042,
      "𣬌": 7043,
      "𣮤": 7044,
      "𣲤": 7045,
      "𣲸": 7046,
      "𣳚": 7047,
      "𣳫": 7048,
      "𣴛": 7049,
      "𣵛": 7050,
      "𣵧": 7051,
      "𣵿": 7052,
      "𣶒": 7053,
      "𣶬": 7054,
      "𣷭": 7055,
      "𣷷": 7056,
      "𣺺": 7057,
      "𣻝": 7058,
      "𣻷": 7059,
      "𣼽": 7060,
      "𣽸": 7061,
      "𣾀": 7062,
      "𣿖": 7063,
      "𣿭": 7064,
      "𣿰": 7065,
      "𤀢": 7066,
      "𤀹": 7067,
      "𤁒": 7068,
      "𤁾": 7069,
      "𤂂": 7070,
      "𤂬": 7071,
      "𤃂": 7072,
      "𤅷": 7073,
      "𤆃": 7074,
      "𤆢": 7075,
      "𤆬": 7076,
      "𤇥": 7077,
      "𤇭": 7078,
      "𤇹": 7079,
      "𤇼": 7080,
      "𤈇": 7081,
      "𤈍": 7082,
      "𤈜": 7083,
      "𤈪": 7084,
      "𤉲": 7085,
      "𤉷": 7086,
      "𤉹": 7087,
      "𤊐": 7088,
      "𤊕": 7089,
      "𤊞": 7090,
      "𤊟": 7091,
      "𤊨": 7092,
      "𤊹": 7093,
      "𤋗": 7094,
      "𤋮": 7095,
      "𤌙": 7096,
      "𤍔": 7097,
      "𤍘": 7098,
      "𤍞": 7099,
      "𤍟": 7100,
      "𤎅": 7101,
      "𤏳": 7102,
      "𤏴": 7103,
      "𤐤": 7104,
      "𤐨": 7105,
      "𤑐": 7106,
      "𤒈": 7107,
      "𤒩": 7108,
      "𤒹": 7109,
      "𤓂": 7110,
      "𤓪": 7111,
      "𤔡": 7112,
      "𤕶": 7113,
      "𤖙": 7114,
      "𤗶": 7115,
      "𤘩": 7116,
      "𤞃": 7117,
      "𤞑": 7118,
      "𤞽": 7119,
      "𤟹": 7120,
      "𤠣": 7121,
      "𤣥": 7122,
      "𤣱": 7123,
      "𤣾": 7124,
      "𤤆": 7125,
      "𤤥": 7126,
      "𤤴": 7127,
      "𤥃": 7128,
      "𤥻": 7129,
      "𤦏": 7130,
      "𤦩": 7131,
      "𤦹": 7132,
      "𤧶": 7133,
      "𤧸": 7134,
      "𤨒": 7135,
      "𤨓": 7136,
      "𤨠": 7137,
      "𤨧": 7138,
      "𤨬": 7139,
      "𤩀": 7140,
      "𤩊": 7141,
      "𤩝": 7142,
      "𤩰": 7143,
      "𤩹": 7144,
      "𤪉": 7145,
      "𤪔": 7146,
      "𤪙": 7147,
      "𤪠": 7148,
      "𤪱": 7149,
      "𤫄": 7150,
      "𤫙": 7151,
      "𤬜": 7152,
      "𤭖": 7153,
      "𤯔": 7154,
      "𤯾": 7155,
      "𤰞": 7156,
      "𤶊": 7157,
      "𤷪": 7158,
      "𤺧": 7159,
      "𤻊": 7160,
      "𤾩": 7161,
      "𥄳": 7162,
      "𥇦": 7163,
      "𥐰": 7164,
      "𥑬": 7165,
      "𥑮": 7166,
      "𥒖": 7167,
      "𥒚": 7168,
      "𥒥": 7169,
      "𥒦": 7170,
      "𥒯": 7171,
      "𥓞": 7172,
      "𥔿": 7173,
      "𥕟": 7174,
      "𥗐": 7175,
      "𥘼": 7176,
      "𥙔": 7177,
      "𥙷": 7178,
      "𥚃": 7179,
      "𥚻": 7180,
      "𥛎": 7181,
      "𥜗": 7182,
      "𥟨": 7183,
      "𥠢": 7184,
      "𥤛": 7185,
      "𥨊": 7186,
      "𥩟": 7187,
      "𥪰": 7188,
      "𥮀": 7189,
      "𥯎": 7190,
      "𥯓": 7191,
      "𥲤": 7192,
      "𥳑": 7193,
      "𥴊": 7194,
      "𥸷": 7195,
      "𥺧": 7196,
      "𥺪": 7197,
      "𥻓": 7198,
      "𥻵": 7199,
      "𥻹": 7200,
      "𥾪": 7201,
      "𦀚": 7202,
      "𦀰": 7203,
      "𦃿": 7204,
      "𦅜": 7205,
      "𦅫": 7206,
      "𦇗": 7207,
      "𦊚": 7208,
      "𦋺": 7209,
      "𦍋": 7210,
      "𦍠": 7211,
      "𦎑": 7212,
      "𦎠": 7213,
      "𦎴": 7214,
      "𦐂": 7215,
      "𦒹": 7216,
      "𦓿": 7217,
      "𦔐": 7218,
      "𦖛": 7219,
      "𦘦": 7220,
      "𦙒": 7221,
      "𦛛": 7222,
      "𦣚": 7223,
      "𦤑": 7224,
      "𦦙": 7225,
      "𦨂": 7226,
      "𦬊": 7227,
      "𦬨": 7228,
      "𦬬": 7229,
      "𦭒": 7230,
      "𦮙": 7231,
      "𦰩": 7232,
      "𦵕": 7233,
      "𦶜": 7234,
      "𦶟": 7235,
      "𦷄": 7236,
      "𦹗": 7237,
      "𦹛": 7238,
      "𦹳": 7239,
      "𦻙": 7240,
      "𦼌": 7241,
      "𦾔": 7242,
      "𦾼": 7243,
      "𦿚": 7244,
      "𧁶": 7245,
      "𧃍": 7246,
      "𧃲": 7247,
      "𧃽": 7248,
      "𧈡": 7249,
      "𧈢": 7250,
      "𧈫": 7251,
      "𧉚": 7252,
      "𧊀": 7253,
      "𧊉": 7254,
      "𧊲": 7255,
      "𧎛": 7256,
      "𧎜": 7257,
      "𧏖": 7258,
      "𧏛": 7259,
      "𧏡": 7260,
      "𧐶": 7261,
      "𧑄": 7262,
      "𧓌": 7263,
      "𧔠": 7264,
      "𧔢": 7265,
      "𧖣": 7266,
      "𧗠": 7267,
      "𧗾": 7268,
      "𧘲": 7269,
      "𧘹": 7270,
      "𧙗": 7271,
      "𧚔": 7272,
      "𧝁": 7273,
      "𧞔": 7274,
      "𧟰": 7275,
      "𧦬": 7276,
      "𧩡": 7277,
      "𧫻": 7278,
      "𧭢": 7279,
      "𧯄": 7280,
      "𧯢": 7281,
      "𧰼": 7282,
      "𧴛": 7283,
      "𧵅": 7284,
      "𧵏": 7285,
      "𧵗": 7286,
      "𧶛": 7287,
      "𧶽": 7288,
      "𧷨": 7289,
      "𧷼": 7290,
      "𧹵": 7291,
      "𧹼": 7292,
      "𧺯": 7293,
      "𧼋": 7294,
      "𧽙": 7295,
      "𧽚": 7296,
      "𧾿": 7297,
      "𧿃": 7298,
      "𨀁": 7299,
      "𨂽": 7300,
      "𨃴": 7301,
      "𨄫": 7302,
      "𨈝": 7303,
      "𨈭": 7304,
      "𨋄": 7305,
      "𨐧": 7306,
      "𨑖": 7307,
      "𨑮": 7308,
      "𨑳": 7309,
      "𨕱": 7310,
      "𨚢": 7311,
      "𨚫": 7312,
      "𨛦": 7313,
      "𨜠": 7314,
      "𨝥": 7315,
      "𨞚": 7316,
      "𨟀": 7317,
      "𨟻": 7318,
      "𨠄": 7319,
      "𨣏": 7320,
      "𨤲": 7321,
      "𨤳": 7322,
      "𨤸": 7323,
      "𨥈": 7324,
      "𨥋": 7325,
      "𨥌": 7326,
      "𨥤": 7327,
      "𨥷": 7328,
      "𨦼": 7329,
      "𨧆": 7330,
      "𨧴": 7331,
      "𨨝": 7332,
      "𨨞": 7333,
      "𨨣": 7334,
      "𨨫": 7335,
      "𨫃": 7336,
      "𨫊": 7337,
      "𨫎": 7338,
      "𨫏": 7339,
      "𨫱": 7340,
      "𨫼": 7341,
      "𨬋": 7342,
      "𨮁": 7343,
      "𨮖": 7344,
      "𨮫": 7345,
      "𨯤": 7346,
      "𨯵": 7347,
      "𨰎": 7348,
      "𨰘": 7349,
      "𨱆": 7350,
      "𨲠": 7351,
      "𨲢": 7352,
      "𨳍": 7353,
      "𨳒": 7354,
      "𨴱": 7355,
      "𨸏": 7356,
      "𨻽": 7357,
      "𩀈": 7358,
      "𩃗": 7359,
      "𩃳": 7360,
      "𩄍": 7361,
      "𩆃": 7362,
      "𩆩": 7363,
      "𩇛": 7364,
      "𩍈": 7365,
      "𩑠": 7366,
      "𩒠": 7367,
      "𩖃": 7368,
      "𩘥": 7369,
      "𩙿": 7370,
      "𩚨": 7371,
      "𩛿": 7372,
      "𩜼": 7373,
      "𩡤": 7374,
      "𩨂": 7375,
      "𩫾": 7376,
      "𩰒": 7377,
      "𩳁": 7378,
      "𩵑": 7379,
      "𩶆": 7380,
      "𩶚": 7381,
      "𩶾": 7382,
      "𩸭": 7383,
      "𩸽": 7384,
      "𩹲": 7385,
      "𩹽": 7386,
      "𩺊": 7387,
      "𩺬": 7388,
      "𩻸": 7389,
      "𩼧": 7390,
      "𩿨": 7391,
      "𪀋": 7392,
      "𪁻": 7393,
      "𪆒": 7394,
      "𪇼": 7395,
      "𪈮": 7396,
      "𪊨": 7397,
      "𪊲": 7398,
      "𪎌": 7399,
      "𪒉": 7400,
      "𪓇": 7401,
      "𪔠": 7402,
      "𪕅": 7403,
      "𪘅": 7404,
      "𪘵": 7405,
      "𪚩": 7406,
      "𪜈": 7407,
      "𪜶": 7408,
      "𪠽": 7409,
      "𪡃": 7410,
      "𪡞": 7411,
      "𪢌": 7412,
      "𪢐": 7413,
      "𪢠": 7414,
      "𪣒": 7415,
      "𪣧": 7416,
      "𪤄": 7417,
      "𪤚": 7418,
      "𪥛": 7419,
      "𪥰": 7420,
      "𪨷": 7421,
      "𪩸": 7422,
      "𪪞": 7423,
      "𪪼": 7424,
      "𪫷": 7425,
      "𪫺": 7426,
      "𪬚": 7427,
      "𪬦": 7428,
      "𪭢": 7429,
      "𪭵": 7430,
      "𪮶": 7431,
      "𪰋": 7432,
      "𪱣": 7433,
      "𪱽": 7434,
      "𪲔": 7435,
      "𪲛": 7436,
      "𪲧": 7437,
      "𪲱": 7438,
      "𪳍": 7439,
      "𪳗": 7440,
      "𪴑": 7441,
      "𪴙": 7442,
      "𪶄": 7443,
      "𪶒": 7444,
      "𪷍": 7445,
      "𪸕": 7446,
      "𪸩": 7447,
      "𪹓": 7448,
      "𪹚": 7449,
      "𪹳": 7450,
      "𪻨": 7451,
      "𪻲": 7452,
      "𪻶": 7453,
      "𪻺": 7454,
      "𪼋": 7455,
      "𪽈": 7456,
      "𪾣": 7457,
      "𪿫": 7458,
      "𫀬": 7459,
      "𫂖": 7460,
      "𫄙": 7461,
      "𫄠": 7462,
      "𫄡": 7463,
      "𫄣": 7464,
      "𫄫": 7465,
      "𫄬": 7466,
      "𫄮": 7467,
      "𫄳": 7468,
      "𫄶": 7469,
      "𫅗": 7470,
      "𫆏": 7471,
      "𫇛": 7472,
      "𫇴": 7473,
      "𫈉": 7474,
      "𫈎": 7475,
      "𫈟": 7476,
      "𫈢": 7477,
      "𫈵": 7478,
      "𫈷": 7479,
      "𫉄": 7480,
      "𫊣": 7481,
      "𫊪": 7482,
      "𫊮": 7483,
      "𫊸": 7484,
      "𫊻": 7485,
      "𫋇": 7486,
      "𫋷": 7487,
      "𫋹": 7488,
      "𫋻": 7489,
      "𫍚": 7490,
      "𫍜": 7491,
      "𫍡": 7492,
      "𫍧": 7493,
      "𫍬": 7494,
      "𫍾": 7495,
      "𫎆": 7496,
      "𫎌": 7497,
      "𫎨": 7498,
      "𫎩": 7499,
      "𫏆": 7500,
      "𫐈": 7501,
      "𫐊": 7502,
      "𫐌": 7503,
      "𫐎": 7504,
      "𫐏": 7505,
      "𫐕": 7506,
      "𫐗": 7507,
      "𫐙": 7508,
      "𫑘": 7509,
      "𫑩": 7510,
      "𫑷": 7511,
      "𫒢": 7512,
      "𫓐": 7513,
      "𫓥": 7514,
      "𫓦": 7515,
      "𫓨": 7516,
      "𫓪": 7517,
      "𫓭": 7518,
      "𫓰": 7519,
      "𫓱": 7520,
      "𫓴": 7521,
      "𫓵": 7522,
      "𫓺": 7523,
      "𫓻": 7524,
      "𫓼": 7525,
      "𫓽": 7526,
      "𫓾": 7527,
      "𫓿": 7528,
      "𫔁": 7529,
      "𫔂": 7530,
      "𫔄": 7531,
      "𫔆": 7532,
      "𫔇": 7533,
      "𫔈": 7534,
      "𫔌": 7535,
      "𫔑": 7536,
      "𫔔": 7537,
      "𫔕": 7538,
      "𫔯": 7539,
      "𫔰": 7540,
      "𫕥": 7541,
      "𫖇": 7542,
      "𫖒": 7543,
      "𫖰": 7544,
      "𫖵": 7545,
      "𫖶": 7546,
      "𫗇": 7547,
      "𫗣": 7548,
      "𫗥": 7549,
      "𫗪": 7550,
      "𫗬": 7551,
      "𫗵": 7552,
      "𫘛": 7553,
      "𫘠": 7554,
      "𫘥": 7555,
      "𫘩": 7556,
      "𫘫": 7557,
      "𫘱": 7558,
      "𫙮": 7559,
      "𫚋": 7560,
      "𫚌": 7561,
      "𫚐": 7562,
      "𫚓": 7563,
      "𫚗": 7564,
      "𫚜": 7565,
      "𫚞": 7566,
      "𫚢": 7567,
      "𫚣": 7568,
      "𫚧": 7569,
      "𫚪": 7570,
      "𫚫": 7571,
      "𫛚": 7572,
      "𫛝": 7573,
      "𫛟": 7574,
      "𫛡": 7575,
      "𫛤": 7576,
      "𫛦": 7577,
      "𫛩": 7578,
      "𫛪": 7579,
      "𫛬": 7580,
      "𫛮": 7581,
      "𫛰": 7582,
      "𫛱": 7583,
      "𫛴": 7584,
      "𫛵": 7585,
      "𫜁": 7586,
      "𫜑": 7587,
      "𫜰": 7588,
      "𫝈": 7589,
      "𫝬": 7590,
      "𫝭": 7591,
      "𫝮": 7592,
      "𫝵": 7593,
      "𫝺": 7594,
      "𫞗": 7595,
      "𫞚": 7596,
      "𫞠": 7597,
      "𫞡": 7598,
      "𫞥": 7599,
      "𫞧": 7600,
      "𫞨": 7601,
      "𫟃": 7602,
      "𫟄": 7603,
      "𫟆": 7604,
      "𫟡": 7605,
      "𫟤": 7606,
      "𫟲": 7607,
      "𫟳": 7608,
      "𫟴": 7609,
      "𫟵": 7610,
      "𫟶": 7611,
      "𫟸": 7612,
      "𫟻": 7613,
      "𫟿": 7614,
      "𫠁": 7615,
      "𫠏": 7616,
      "𫠐": 7617,
      "𫠑": 7618,
      "𫠒": 7619,
      "𫧃": 7620,
      "𫪦": 7621,
      "𫮈": 7622,
      "𫯺": 7623,
      "𫲨": 7624,
      "𫷫": 7625,
      "𫾻": 7626,
      "𬃉": 7627,
      "𬄦": 7628,
      "𬇞": 7629,
      "𬉺": 7630,
      "𬊍": 7631,
      "𬋙": 7632,
      "𬋞": 7633,
      "𬓆": 7634,
      "𬓋": 7635,
      "𬓑": 7636,
      "𬜢": 7637,
      "𬜴": 7638,
      "𬥦": 7639,
      "𬩠": 7640,
      "𬫏": 7641,
      "𬬰": 7642,
      "𬭄": 7643,
      "𬭏": 7644,
      "𬭭": 7645,
      "𬲱": 7646,
      "𬸯": 7647,
      "𬻷": 7648,
      "𬼂": 7649,
      "𬾕": 7650,
      "𭁇": 7651,
      "𭄋": 7652,
      "𭅃": 7653,
      "𭈈": 7654,
      "𭍻": 7655,
      "𭎂": 7656,
      "𭏜": 7657,
      "𭑊": 7658,
      "𭑭": 7659,
      "𭚥": 7660,
      "𭤐": 7661,
      "𭤪": 7662,
      "𭥟": 7663,
      "𭨡": 7664,
      "𭫪": 7665,
      "𭮨": 7666,
      "𭱴": 7667,
      "𭳕": 7668,
      "𭴊": 7669,
      "𭴌": 7670,
      "𭹊": 7671,
      "𮄫": 7672,
      "𮓠": 7673,
      "𮔢": 7674,
      "𮡧": 7675,
      "𮡶": 7676,
      "𮢅": 7677,
      "𮥹": 7678,
      "𮨻": 7679,
      "𮳕": 7680,
      "𰇠": 7681,
      "𰉗": 7682,
      "𰉬": 7683,
      "𰊊": 7684,
      "𰊖": 7685,
      "𰊺": 7686,
      "𰋀": 7687,
      "𰋁": 7688,
      "𰋟": 7689,
      "𰍠": 7690,
      "𰎼": 7691,
      "𰐼": 7692,
      "𰑢": 7693,
      "𰘆": 7694,
      "𰘱": 7695,
      "𰚼": 7696,
      "𰛂": 7697,
      "𰛭": 7698,
      "𰜰": 7699,
      "𰝙": 7700,
      "𰝢": 7701,
      "𰝥": 7702,
      "𰞍": 7703,
      "𰞒": 7704,
      "𰞱": 7705,
      "𰟙": 7706,
      "𰡉": 7707,
      "𰡘": 7708,
      "𰢕": 7709,
      "𰥏": 7710,
      "𰫕": 7711,
      "𰬸": 7712,
      "𰯼": 7713,
      "𰰨": 7714,
      "𰰻": 7715,
      "𰱘": 7716,
      "𰲛": 7717,
      "𰵞": 7718,
      "𰵩": 7719,
      "𰶎": 7720,
      "𰹬": 7721,
      "𰼩": 7722,
      "𰽟": 7723,
      "𰽽": 7724,
      "𰾄": 7725,
      "𰾭": 7726,
      "𰿓": 7727,
      "𱀵": 7728,
      "𱁬": 7729,
      "𱉐": 7730,
      "𱉻": 7731,
      "𱉼": 7732,
      "𱊊": 7733,
      "𱑲": 7734,
      "𱔽": 7735,
      "𱖹": 7736,
      "𱟛": 7737,
      "𱤰": 7738,
      "𱭵": 7739,
      "𱭶": 7740,
      "𱯞": 7741,
      "𱴑": 7742,
      "𱵄": 7743,
      "𱹀": 7744,
      "𲉖": 7745,
      "𲐤": 7746,
      "𲚏": 7747,
      "񭫮": 7748,
      "󠁢": 7749,
      "󠁣": 7750,
      "󠁥": 7751,
      "󠁧": 7752,
      "󠁬": 7753,
      "󠁮": 7754,
      "󠁳": 7755,
      "󠁴": 7756,
      "󠁵": 7757,
      "󠁷": 7758,
      "󠁸": 7759,
      "󠁿": 7760,
      "󠄀": 7761,
      "󠄁": 7762,
      "󠄂": 7763,
      "󰒄": 7764,
      "󰡔": 7765,
      "󰡕": 7766,
      "􏰂": 7767,
      "ng": 7768,
      "i4": 7769,
      "an": 7770,
      "sh": 7771,
      "zh": 7772,
      "ng1": 7773,
      "ji": 7774,
      "u4": 7775,
      "ng2": 7776,
      "i2": 7777,
      "ao": 7778,
      "xi": 7779,
      "ng4": 7780,
      "an2": 7781,
      "i3": 7782,
      "i1": 7783,
      "de": 7784,
      "u3": 7785,
      "an4": 7786,
      "e4": 7787,
      "en": 7788,
      "ch": 7789,
      "uo": 7790,
      "u2": 7791,
      "ng3": 7792,
      "an1": 7793,
      "e2": 7794,
      "ai4": 7795,
      "u1": 7796,
      "ong1": 7797,
      "a1": 7798,
      "shi4": 7799,
      "ei4": 7800,
      "ao4": 7801,
      "ian2": 7802,
      "yu": 7803,
      "a4": 7804,
      "ang1": 7805,
      "an3": 7806,
      "yo": 7807,
      "n1": 7808,
      "hu": 7809,
      "ang4": 7810,
      "nian2": 7811,
      "en2": 7812,
      "li": 7813,
      "ang3": 7814,
      "eng2": 7815,
      "uo4": 7816,
      "uo2": 7817,
      "wei4": 7818,
      "mi": 7819,
      "ao3": 7820,
      "zai4": 7821,
      "bi": 7822,
      "qi": 7823,
      "ang2": 7824,
      "e1": 7825,
      "he2": 7826,
      "eng1": 7827,
      "yi": 7828,
      "zhong1": 7829,
      "bu4": 7830,
      "er": 7831,
      "ou4": 7832,
      "e3": 7833,
      "a3": 7834,
      "n4": 7835,
      "di4": 7836,
      "shi2": 7837,
      "guo2": 7838,
      "ai2": 7839,
      "ren2": 7840,
      "ui4": 7841,
      "ao1": 7842,
      "yi1": 7843,
      "n2": 7844,
      "xu": 7845,
      "ong2": 7846,
      "yu2": 7847,
      "gu": 7848,
      "li4": 7849,
      "zhi4": 7850,
      "en4": 7851,
      "di": 7852,
      "cheng2": 7853,
      "we": 7854,
      "ong4": 7855,
      "gong1": 7856,
      "yi4": 7857,
      "ji2": 7858,
      "eng4": 7859,
      "yue4": 7860,
      "en1": 7861,
      "you3": 7862,
      "yuan2": 7863,
      "da4": 7864,
      "a2": 7865,
      "le": 7866,
      "ji4": 7867,
      "20": 7868,
      "yi3": 7869,
      "ai1": 7870,
      "xian4": 7871,
      "ju": 7872,
      "pi": 7873,
      "ou1": 7874,
      "jia1": 7875,
      "si1": 7876,
      "xing2": 7877,
      "ti": 7878,
      "ei3": 7879,
      "ji1": 7880,
      "yu3": 7881,
      "ta1": 7882,
      "ri4": 7883,
      "zhi1": 7884,
      "hou4": 7885,
      "ai3": 7886,
      "li3": 7887,
      "ou3": 7888,
      "hui4": 7889,
      "dao4": 7890,
      "wei2": 7891,
      "ong3": 7892,
      "19": 7893,
      "qi2": 7894,
      "uan2": 7895,
      "zheng4": 7896,
      "ao2": 7897,
      "xi1": 7898,
      "ming2": 7899,
      "jian4": 7900,
      "chu1": 7901,
      "ge4": 7902,
      "zuo4": 7903,
      "sheng1": 7904,
      "xue2": 7905,
      "uo1": 7906,
      "qu1": 7907,
      "dui4": 7908,
      "uo3": 7909,
      "you2": 7910,
      "shang4": 7911,
      "en3": 7912,
      "de2": 7913,
      "bei4": 7914,
      "shi3": 7915,
      "zhu": 7916,
      "zhan4": 7917,
      "n3": 7918,
      "xin1": 7919,
      "jun1": 7920,
      "she4": 7921,
      "er3": 7922,
      "ren4": 7923,
      "bing4": 7924,
      "fa1": 7925,
      "lu4": 7926,
      "wu4": 7927,
      "dai4": 7928,
      "zhu3": 7929,
      "er2": 7930,
      "yi2": 7931,
      "jin4": 7932,
      "shu4": 7933,
      "jing1": 7934,
      "ju4": 7935,
      "fu4": 7936,
      "yin1": 7937,
      "zi4": 7938,
      "ke4": 7939,
      "hua4": 7940,
      "fang1": 7941,
      "nan2": 7942,
      "zhou1": 7943,
      "xia4": 7944,
      "ping2": 7945,
      "yong4": 7946,
      "lai2": 7947,
      "guan1": 7948,
      "tong2": 7949,
      "yu4": 7950,
      "fa3": 7951,
      "zhu4": 7952,
      "mei3": 7953,
      "jian1": 7954,
      "huo4": 7955,
      "bo": 7956,
      "min2": 7957,
      "dong4": 7958,
      "ben3": 7959,
      "xiang4": 7960,
      "zhi2": 7961,
      "xiang1": 7962,
      "jiang1": 7963,
      "zhe4": 7964,
      "qi1": 7965,
      "quan2": 7966,
      "wen2": 7967,
      "fen1": 7968,
      "suo3": 7969,
      "shou3": 7970,
      "yan2": 7971,
      "qian2": 7972,
      "te4": 7973,
      "dian4": 7974,
      "zui4": 7975,
      "jiao4": 7976,
      "duo1": 7977,
      "kai1": 7978,
      "jie2": 7979,
      "lian2": 7980,
      "eng3": 7981,
      "zhi3": 7982,
      "xi4": 7983,
      "ye4": 7984,
      "ke3": 7985,
      "shu": 7986,
      "mu4": 7987,
      "ma3": 7988,
      "du4": 7989,
      "fu2": 7990,
      "ei1": 7991,
      "dong1": 7992,
      "dan4": 7993,
      "ye3": 7994,
      "bei3": 7995,
      "gao1": 7996,
      "du": 7997,
      "qiu2": 7998,
      "jie1": 7999,
      "ou2": 8000,
      "hai3": 8001,
      "zhang3": 8002,
      "un2": 8003,
      "ya4": 8004,
      "shi1": 8005,
      "mian4": 8006,
      "tai2": 8007,
      "ci3": 8008,
      "nei4": 8009,
      "jin1": 8010,
      "san1": 8011,
      "yao4": 8012,
      "ge2": 8013,
      "201": 8014,
      "che1": 8015,
      "guo4": 8016,
      "ku": 8017,
      "deng3": 8018,
      "wu3": 8019,
      "sai4": 8020,
      "ru4": 8021,
      "gai1": 8022,
      "ci4": 8023,
      "xing4": 8024,
      "ding4": 8025,
      "su": 8026,
      "mo": 8027,
      "chang2": 8028,
      "ti3": 8029,
      "gong4": 8030,
      "biao3": 8031,
      "lv": 8032,
      "shou4": 8033,
      "shan1": 8034,
      "jie4": 8035,
      "la1": 8036,
      "dao3": 8037,
      "ze2": 8038,
      "chang3": 8039,
      "si4": 8040,
      "ti2": 8041,
      "dang1": 8042,
      "er4": 8043,
      "neng2": 8044,
      "ke1": 8045,
      "wai4": 8046,
      "kou3": 8047,
      "dan1": 8048,
      "chu": 8049,
      "ei2": 8050,
      "zi": 8051,
      "liu2": 8052,
      "qi3": 8053,
      "zu3": 8054,
      "ni": 8055,
      "sheng3": 8056,
      "xiao3": 8057,
      "lin2": 8058,
      "jue2": 8059,
      "tong1": 8060,
      "ba1": 8061,
      "200": 8062,
      "ying1": 8063,
      "luo2": 8064,
      "qi4": 8065,
      "bi3": 8066,
      "zhe3": 8067,
      "zhong4": 8068,
      "zhen4": 8069,
      "shu3": 8070,
      "lan2": 8071,
      "yi2ge4": 8072,
      "tian1": 8073,
      "bao3": 8074,
      "yuan4": 8075,
      "shu1": 8076,
      "lie4": 8077,
      "zhong3": 8078,
      "fu3": 8079,
      "cheng1": 8080,
      "tai4": 8081,
      "yun4": 8082,
      "feng1": 8083,
      "guan3": 8084,
      "qing1": 8085,
      "shen1": 8086,
      "wang2": 8087,
      "jiu4": 8088,
      "fei1": 8089,
      "mi3": 8090,
      "gu3": 8091,
      "ceng2": 8092,
      "liang3": 8093,
      "hao4": 8094,
      "10": 8095,
      "mei2": 8096,
      "fen4": 8097,
      "zong3": 8098,
      "wei3": 8099,
      "xuan3": 8100,
      "yan3": 8101,
      "da2": 8102,
      "na4": 8103,
      "xiao4": 8104,
      "bao4": 8105,
      "jing4": 8106,
      "liang4": 8107,
      "bo1": 8108,
      "wu2": 8109,
      "jiao1": 8110,
      "tong3": 8111,
      "zu2": 8112,
      "zhong1guo2": 8113,
      "hua2": 8114,
      "ni2": 8115,
      "bian4": 8116,
      "xing1": 8117,
      "yue1": 8118,
      "ying3": 8119,
      "su4": 8120,
      "yang2": 8121,
      "shui3": 8122,
      "men": 8123,
      "bao1": 8124,
      "can1": 8125,
      "dian3": 8126,
      "ge1": 8127,
      "bi4": 8128,
      "cong2": 8129,
      "bian1": 8130,
      "ru2": 8131,
      "wang3": 8132,
      "ban4": 8133,
      "bo2": 8134,
      "qu3": 8135,
      "chan3": 8136,
      "chuan2": 8137,
      "qu": 8138,
      "00": 8139,
      "mei3guo2": 8140,
      "zi1": 8141,
      "nv": 8142,
      "se4": 8143,
      "ran2": 8144,
      "zhang1": 8145,
      "sheng4": 8146,
      "tu2": 8147,
      "nv3": 8148,
      "gai3": 8149,
      "ling4": 8150,
      "pu3": 8151,
      "luo4": 8152,
      "gang3": 8153,
      "cha2": 8154,
      "xu4": 8155,
      "hu4": 8156,
      "qian1": 8157,
      "tou2": 8158,
      "lv4": 8159,
      "you4": 8160,
      "chi2": 8161,
      "18": 8162,
      "ce4": 8163,
      "ren2kou3": 8164,
      "12": 8165,
      "li2": 8166,
      "wei4yu2": 8167,
      "dou1": 8168,
      "zheng1": 8169,
      "sha1": 8170,
      "gou4": 8171,
      "dang3": 8172,
      "fan3": 8173,
      "tuan2": 8174,
      "kuo4": 8175,
      "lu": 8176,
      "lei4": 8177,
      "jing3": 8178,
      "ling3": 8179,
      "xian1": 8180,
      "gui1": 8181,
      "xiang3": 8182,
      "xie1": 8183,
      "wei1": 8184,
      "guang3": 8185,
      "ying4": 8186,
      "huang2": 8187,
      "long2": 8188,
      "xi2": 8189,
      "ban3": 8190,
      "rong2": 8191,
      "men2": 8192,
      "shang1": 8193,
      "ban1": 8194,
      "jiu3": 8195,
      "202": 8196,
      "ju3": 8197,
      "cu": 8198,
      "ka3": 8199,
      "jin3": 8200,
      "zhan3": 8201,
      "qing2": 8202,
      "shen2": 8203,
      "fu1": 8204,
      "mu3": 8205,
      "mo2": 8206,
      "shuo1": 8207,
      "hai2": 8208,
      "du2": 8209,
      "ji3": 8210,
      "wo": 8211,
      "pin3": 8212,
      "zhuang1": 8213,
      "jian3": 8214,
      "cai2": 8215,
      "11": 8216,
      "mo4": 8217,
      "po": 8218,
      "tiao2": 8219,
      "ting2": 8220,
      "duan4": 8221,
      "wan4": 8222,
      "ying2": 8223,
      "ci2": 8224,
      "hui2": 8225,
      "chao2": 8226,
      "wan1": 8227,
      "mi4": 8228,
      "gen1": 8229,
      "chen2": 8230,
      "ju2": 8231,
      "pai2": 8232,
      "zheng4fu3": 8233,
      "zao4": 8234,
      "wan2": 8235,
      "tie3": 8236,
      "tang2": 8237,
      "199": 8238,
      "fang2": 8239,
      "lun2": 8240,
      "hang2": 8241,
      "han4": 8242,
      "jiang3": 8243,
      "han2": 8244,
      "huo2": 8245,
      "gu4": 8246,
      "xie2": 8247,
      "kong1": 8248,
      "fan4": 8249,
      "zhuan1": 8250,
      "gong1si1": 8251,
      "bie2": 8252,
      "biao1": 8253,
      "jie3": 8254,
      "shi3yong4": 8255,
      "yin3": 8256,
      "jia4": 8257,
      "ming4": 8258,
      "meng2": 8259,
      "da4xue2": 8260,
      "xu1": 8261,
      "zhen1": 8262,
      "ta1men": 8263,
      "cheng2wei2": 8264,
      "di4qu1": 8265,
      "bing1": 8266,
      "guo2jia1": 8267,
      "wu1": 8268,
      "qin1": 8269,
      "hong2": 8270,
      "ri4ben3": 8271,
      "zi3": 8272,
      "su1": 8273,
      "kai1shi3": 8274,
      "bao1kuo4": 8275,
      "chu4": 8276,
      "tu": 8277,
      "ling2": 8278,
      "hu2": 8279,
      "yi3ji2": 8280,
      "xin4": 8281,
      "xiao1": 8282,
      "chu3": 8283,
      "15": 8284,
      "lun4": 8285,
      "que4": 8286,
      "jin4xing2": 8287,
      "chong2": 8288,
      "xiu1": 8289,
      "zhao4": 8290,
      "bu4fen4": 8291,
      "zong1": 8292,
      "qiang2": 8293,
      "or": 8294,
      "ping2fang1": 8295,
      "pian4": 8296,
      "fang4": 8297,
      "qu4": 8298,
      "shou1": 8299,
      "cun1": 8300,
      "sui2": 8301,
      "ke3yi3": 8302,
      "gong1li3": 8303,
      "qi2zhong1": 8304,
      "geng4": 8305,
      "jiu1": 8306,
      "guang1": 8307,
      "ju1": 8308,
      "xiang1gang3": 8309,
      "chuang4": 8310,
      "ren2min2": 8311,
      "zhuan3": 8312,
      "man4": 8313,
      "huo4de2": 8314,
      "xuan1": 8315,
      "fei4": 8316,
      "16": 8317,
      "jia3": 8318,
      "mian4ji1": 8319,
      "guo3": 8320,
      "198": 8321,
      "di2": 8322,
      "chu2": 8323,
      "on": 8324,
      "du1": 8325,
      "da3": 8326,
      "di4yi1": 8327,
      "shi4jie4": 8328,
      "zhu3yao4": 8329,
      "yan2jiu1": 8330,
      "tuo1": 8331,
      "sui4": 8332,
      "xun4": 8333,
      "tai2wan1": 8334,
      "zhu1": 8335,
      "pai4": 8336,
      "pei4": 8337,
      "bai2": 8338,
      "qi2ta1": 8339,
      "diao4": 8340,
      "liu4": 8341,
      "tu3": 8342,
      "hui1": 8343,
      "li4shi3": 8344,
      "mai4": 8345,
      "17": 8346,
      "ta3": 8347,
      "qiao2": 8348,
      "xian3": 8349,
      "xia2": 8350,
      "la": 8351,
      "ting1": 8352,
      "ren4wei2": 8353,
      "zeng1": 8354,
      "mei2you3": 8355,
      "gan3": 8356,
      "wen4": 8357,
      "huan2": 8358,
      "qie3": 8359,
      "wa3": 8360,
      "xu3": 8361,
      "ya2": 8362,
      "cai3": 8363,
      "tui1": 8364,
      "chao1": 8365,
      "wei3yuan2": 8366,
      "ar": 8367,
      "shao3": 8368,
      "zhuang4": 8369,
      "liang2": 8370,
      "cun2": 8371,
      "sa4": 8372,
      "lei2": 8373,
      "bai3": 8374,
      "jiao3": 8375,
      "dai4biao3": 8376,
      "14": 8377,
      "di3": 8378,
      "di4er4": 8379,
      "tian2": 8380,
      "zheng4zhi4": 8381,
      "yun4dong4": 8382,
      "jiang4": 8383,
      "ha1": 8384,
      "deng1": 8385,
      "chuan1": 8386,
      "fa3guo2": 8387,
      "yan4": 8388,
      "zao3": 8389,
      "bai4": 8390,
      "huo3": 8391,
      "you2yu2": 8392,
      "30": 8393,
      "si3": 8394,
      "le4": 8395,
      "yong3": 8396,
      "huan4": 8397,
      "xun2": 8398,
      "yin4": 8399,
      "zhun3": 8400,
      "gao4": 8401,
      "dian4ying3": 8402,
      "song4": 8403,
      "lu3": 8404,
      "gong1zuo4": 8405,
      "lv3": 8406,
      "wo3": 8407,
      "gang1": 8408,
      "zheng3": 8409,
      "194": 8410,
      "yang4": 8411,
      "po4": 8412,
      "yin1ci3": 8413,
      "guo2ji4": 8414,
      "zuo4wei2": 8415,
      "tong2shi2": 8416,
      "13": 8417,
      "zhong1xin1": 8418,
      "nuo4": 8419,
      "hen3": 8420,
      "bang1": 8421,
      "tao2": 8422,
      "lei1": 8423,
      "qun2": 8424,
      "kuang4": 8425,
      "hua1": 8426,
      "biao3shi4": 8427,
      "guan4": 8428,
      "197": 8429,
      "hao3": 8430,
      "kuai4": 8431,
      "ke3neng2": 8432,
      "zhong1hua2": 8433,
      "xi4tong3": 8434,
      "dun4": 8435,
      "pi1": 8436,
      "yin1wei4": 8437,
      "dan1ren4": 8438,
      "zhi1hou4": 8439,
      "gei3": 8440,
      "shi4zhen4": 8441,
      "dian4shi4": 8442,
      "di1": 8443,
      "dang1shi2": 8444,
      "kao3": 8445,
      "re4": 8446,
      "shuang1": 8447,
      "pan4": 8448,
      "ying1guo2": 8449,
      "zi4ji3": 8450,
      "nong2": 8451,
      "liao4": 8452,
      "che1zhan4": 8453,
      "tong1guo4": 8454,
      "gai4": 8455,
      "xie3": 8456,
      "in": 8457,
      "he2guo2": 8458,
      "xing2zheng4": 8459,
      "shi2jian1": 8460,
      "195": 8461,
      "sai1": 8462,
      "lian4": 8463,
      "wang4": 8464,
      "gen1ju4": 8465,
      "he4": 8466,
      "ge": 8467,
      "kong4": 8468,
      "zuo3": 8469,
      "chang4": 8470,
      "cheng2li4": 8471,
      "fa1zhan3": 8472,
      "qi1jian1": 8473,
      "shi2qi1": 8474,
      "25": 8475,
      "196": 8476,
      "yang1": 8477,
      "sen1": 8478,
      "reng2": 8479,
      "she4ji4": 8480,
      "ya1": 8481,
      "yang3": 8482,
      "chong1": 8483,
      "bu3": 8484,
      "fa1xian4": 8485,
      "cheng2shi4": 8486,
      "rang4": 8487,
      "she4hui4": 8488,
      "shi4ji4": 8489,
      "hei1": 8490,
      "piao4": 8491,
      "yao1": 8492,
      "jian4zhu4": 8493,
      "lu2": 8494,
      "yi1zhong3": 8495,
      "bin1": 8496,
      "zhi1yi1": 8497,
      "lao3": 8498,
      "lou2": 8499,
      "zheng4shi4": 8500,
      "ku4": 8501,
      "yin2": 8502,
      "zhu2": 8503,
      "xue2yuan4": 8504,
      "zhe4xie1": 8505,
      "zu3zhi1": 8506,
      "jun4": 8507,
      "bei1": 8508,
      "xie4": 8509,
      "ying3xiang3": 8510,
      "zhu3yi4": 8511,
      "can1jia1": 8512,
      "zhong1yang1": 8513,
      "shu3yu2": 8514,
      "you2xi4": 8515,
      "xian2": 8516,
      "yin1yue4": 8517,
      "bu4tong2": 8518,
      "nian4": 8519,
      "liao2": 8520,
      "wen2hua4": 8521,
      "tie3lu4": 8522,
      "ning2": 8523,
      "bi3sai4": 8524,
      "wei3yuan2hui4": 8525,
      "rui4": 8526,
      "jing1ji4": 8527,
      "ping2fang1gong1li3": 8528,
      "tan2": 8529,
      "you1": 8530,
      "pi2": 8531,
      "gong4he2guo2": 8532,
      "ji4hua4": 8533,
      "qing3": 8534,
      "kang1": 8535,
      "bu2": 8536,
      "heng2": 8537,
      "24": 8538,
      "ti2gong1": 8539,
      "huo2dong4": 8540,
      "shao4": 8541,
      "chu1xian4": 8542,
      "yun2": 8543,
      "chi3": 8544,
      "wen1": 8545,
      "nian2dai4": 8546,
      "hu1": 8547,
      "kan4": 8548,
      "dou4": 8549,
      "li4ya4": 8550,
      "zuo4pin3": 8551,
      "al": 8552,
      "for": 8553,
      "suo3you3": 8554,
      "luo2si1": 8555,
      "mian3": 8556,
      "yong1": 8557,
      "wan3": 8558,
      "fa1sheng1": 8559,
      "guan3li3": 8560,
      "ru": 8561,
      "21": 8562,
      "zui4zhong1": 8563,
      "xue2xiao4": 8564,
      "zhi1jian1": 8565,
      "gan1": 8566,
      "fan1": 8567,
      "tu1": 8568,
      "tui4": 8569,
      "kang4": 8570,
      "tan3": 8571,
      "st": 8572,
      "zhe": 8573,
      "suan4": 8574,
      "man3": 8575,
      "ba3": 8576,
      "193": 8577,
      "yi1xie1": 8578,
      "cheng2yuan2": 8579,
      "lang3": 8580,
      "cheng1wei2": 8581,
      "re": 8582,
      "hou4lai2": 8583,
      "mu": 8584,
      "de2guo2": 8585,
      "ding1": 8586,
      "23": 8587,
      "yuan3": 8588,
      "mao2": 8589,
      "mao4": 8590,
      "dang1di4": 8591,
      "qin2": 8592,
      "xiu4": 8593,
      "zhe4ge": 8594,
      "th": 8595,
      "jiao4yu4": 8596,
      "ruo4": 8597,
      "28": 8598,
      "pian1": 8599,
      "jin4ru4": 8600,
      "xiong2": 8601,
      "zui4hou4": 8602,
      "wen4ti2": 8603,
      "wo4": 8604,
      "xi3": 8605,
      "fu4ze2": 8606,
      "gui4": 8607,
      "zan4": 8608,
      "shen3": 8609,
      "xiong1": 8610,
      "shan4": 8611,
      "na2": 8612,
      "22": 8613,
      "ba2": 8614,
      "xu3duo1": 8615,
      "me": 8616,
      "di4san1": 8617,
      "zhi1chi2": 8618,
      "zhi4zuo4": 8619,
      "gong1cheng2": 8620,
      "gui3": 8621,
      "fu2wu4": 8622,
      "26": 8623,
      "quan2guo2": 8624,
      "sheng1huo2": 8625,
      "pin2": 8626,
      "xuan1bu4": 8627,
      "zhan4zheng1": 8628,
      "mula": 8629,
      "formula": 8630,
      "fang3": 8631,
      "2020": 8632,
      "27": 8633,
      "can1yu4": 8634,
      "50": 8635,
      "sui1": 8636,
      "dang4": 8637,
      "ro": 8638,
      "fa1xing2": 8639,
      "qing4": 8640,
      "lang2": 8641,
      "tong2nian2": 8642,
      "ju3xing2": 8643,
      "yi3jing1": 8644,
      "ni2ya4": 8645,
      "miao2": 8646,
      "qiang1": 8647,
      "bei3jing1": 8648,
      "guan1xi4": 8649,
      "qian1mi3": 8650,
      "tan4": 8651,
      "zao1": 8652,
      "xuan2": 8653,
      "ri": 8654,
      "di4fang1": 8655,
      "ji4shu4": 8656,
      "fa2": 8657,
      "shi4jian4": 8658,
      "jue2ding4": 8659,
      "feng4": 8660,
      "zhong4yao4": 8661,
      "song1": 8662,
      "hai4": 8663,
      "geng1": 8664,
      "fang1mian4": 8665,
      "e2luo2si1": 8666,
      "zhang4": 8667,
      "qie4": 8668,
      "qiu1": 8669,
      "peng2": 8670,
      "zou3": 8671,
      "liang3ge4": 8672,
      "shang4hai3": 8673,
      "shun4": 8674,
      "hao2": 8675,
      "000": 8676,
      "jie2mu4": 8677,
      "dun1": 8678,
      "2010": 8679,
      "ren2wu4": 8680,
      "ni3": 8681,
      "pa4": 8682,
      "29": 8683,
      "2019": 8684,
      "che4": 8685,
      "shen4": 8686,
      "zai3": 8687,
      "pao4": 8688,
      "bao3hu4": 8689,
      "niu3": 8690,
      "jia1ru4": 8691,
      "lve4": 8692,
      "yin4du4": 8693,
      "zhui1": 8694,
      "yi4yuan2": 8695,
      "zong3tong3": 8696,
      "ren2min2gong4he2guo2": 8697,
      "kong3": 8698,
      "zu": 8699,
      "fen1bie2": 8700,
      "xue2sheng1": 8701,
      "bei3bu4": 8702,
      "ping2fang1qian1mi3": 8703,
      "mu4qian2": 8704,
      "min2guo2": 8705,
      "xi4lie4": 8706,
      "zu2qiu2": 8707,
      "ou": 8708,
      "guan4jun1": 8709,
      "duan3": 8710,
      "fen1bu4": 8711,
      "duan1": 8712,
      "ou1zhou1": 8713,
      "jian4li4": 8714,
      "kan1": 8715,
      "chun1": 8716,
      "wei4le": 8717,
      "ding3": 8718,
      "wan2cheng2": 8719,
      "lie4che1": 8720,
      "zhao1": 8721,
      "gan4": 8722,
      "cao3": 8723,
      "hun1": 8724,
      "xiang2": 8725,
      "te": 8726,
      "xue2jia1": 8727,
      "po1": 8728,
      "yao1qiu2": 8729,
      "lao2": 8730,
      "si": 8731,
      "xu1yao4": 8732,
      "she4you3": 8733,
      "kuan3": 8734,
      "cheng2gong1": 8735,
      "du2li4": 8736,
      "dan1wei4": 8737,
      "2018": 8738,
      "zhong1hua2ren2min2gong4he2guo2": 8739,
      "sheng1ping2": 8740,
      "gong1yuan2": 8741,
      "dao3zhi4": 8742,
      "lai2zi4": 8743,
      "2016": 8744,
      "ra": 8745,
      "zu3cheng2": 8746,
      "zhuan1ji2": 8747,
      "ran2er2": 8748,
      "zui4gao1": 8749,
      "li4ru2": 8750,
      "shou4dao4": 8751,
      "qing2kuang4": 8752,
      "za2": 8753,
      "xuan3ju3": 8754,
      "ren2yuan2": 8755,
      "xiang1guan1": 8756,
      "gu1": 8757,
      "nan2bu4": 8758,
      "ye2": 8759,
      "ji4lu4": 8760,
      "zi4you2": 8761,
      "kai3": 8762,
      "cai3yong4": 8763,
      "yong1you3": 8764,
      "tong1chang2": 8765,
      "cun2zai4": 8766,
      "2021": 8767,
      "jiao1tong1": 8768,
      "pei2": 8769,
      "sui1ran2": 8770,
      "yi4shu4": 8771,
      "zang4": 8772,
      "guo2min2": 8773,
      "2017": 8774,
      "hai3ba2": 8775,
      "ya3": 8776,
      "fang1shi4": 8777,
      "mi4du4": 8778,
      "qian2wang3": 8779,
      "pai1": 8780,
      "cuo4": 8781,
      "kai1fa1": 8782,
      "duo2": 8783,
      "fan2": 8784,
      "zhi2wu4": 8785,
      "he2zuo4": 8786,
      "2011": 8787,
      "da4lu4": 8788,
      "bing4qie3": 8789,
      "tou4": 8790,
      "40": 8791,
      "sun1": 8792,
      "2014": 8793,
      "2015": 8794,
      "dan4shi4": 8795,
      "si1te4": 8796,
      "2013": 8797,
      "ce": 8798,
      "xing2cheng2": 8799,
      "ti2chu1": 8800,
      "yao2": 8801,
      "2012": 8802,
      "yi1ming2": 8803,
      "2022": 8804,
      "zhe2": 8805,
      "ji2tuan2": 8806,
      "gong4you3": 8807,
      "cang2": 8808,
      "lian2meng2": 8809,
      "chi4": 8810,
      "chu1ban3": 8811,
      "chan3sheng1": 8812,
      "ruan3": 8813,
      "hui4yi4": 8814,
      "de2dao4": 8815,
      "cha1": 8816,
      "te4bie2": 8817,
      "jun1shi4": 8818,
      "lt": 8819,
      "lian2he2": 8820,
      "huai2": 8821,
      "ju4you3": 8822,
      "shou3ci4": 8823,
      "jie2gou4": 8824,
      "sheng1chan3": 8825,
      "xing2shi4": 8826,
      "ci3wai4": 8827,
      "zhe4zhong3": 8828,
      "mi2": 8829,
      "zhao3": 8830,
      "ke4lan2": 8831,
      "yi3xia4": 8832,
      "2009": 8833,
      "bu4dui4": 8834,
      "suan1": 8835,
      "jue2se4": 8836,
      "min2zhu3": 8837,
      "qiu2dui4": 8838,
      "bi4ye4": 8839,
      "yi4ban1": 8840,
      "shu4ju4": 8841,
      "xiang4mu4": 8842,
      "a1er3": 8843,
      "xue4": 8844,
      "2008": 8845,
      "jie2shu4": 8846,
      "di4li3": 8847,
      "ge4ren2": 8848,
      "er4shi2": 8849,
      "gao1du4": 8850,
      "60": 8851,
      "kong4zhi4": 8852,
      "ji4xu4": 8853,
      "ren2kou3mi4du4": 8854,
      "lian2sai4": 8855,
      "zhu3xi2": 8856,
      "jie1shou4": 8857,
      "fan3ying4": 8858,
      "miao4": 8859,
      "xing2dong4": 8860,
      "gu4shi4": 8861,
      "ge1qu3": 8862,
      "qu3de2": 8863,
      "wu2fa3": 8864,
      "se": 8865,
      "ji1gou4": 8866,
      "ren4he2": 8867,
      "da4li4": 8868,
      "meng4": 8869,
      "zeng1jia1": 8870,
      "qu1yu4": 8871,
      "yong4yu2": 8872,
      "zhong1gong4": 8873,
      "zui4da4": 8874,
      "jiu4shi4": 8875,
      "hai3jun1": 8876,
      "yi1wei4": 8877,
      "zha4": 8878,
      "chou2": 8879,
      "wu1ke4lan2": 8880,
      "shi2dai4": 8881,
      "zhuan4": 8882,
      "am": 8883,
      "ling3dao3": 8884,
      "fu4jin4": 8885,
      "gt": 8886,
      "san4": 8887,
      "ge2ming4": 8888,
      "xi1ya4": 8889,
      "pu2": 8890,
      "di4guo2": 8891,
      "zao4cheng2": 8892,
      "chao1guo4": 8893,
      "ti4": 8894,
      "sui2hou4": 8895,
      "jie2guo3": 8896,
      "xin1wen2": 8897,
      "tion": 8898,
      "fa1bu4": 8899,
      "bang3": 8900,
      "zhu3jiao4": 8901,
      "you3xian4": 8902,
      "co": 8903,
      "ling4wai4": 8904,
      "chuan2tong3": 8905,
      "31": 8906,
      "2023": 8907,
      "yu3yan2": 8908,
      "100": 8909,
      "hang2kong1": 8910,
      "diao4cha2": 8911,
      "xiao3shi2": 8912,
      "dui4yu2": 8913,
      "bu4guo4": 8914,
      "hun4": 8915,
      "mei2ti3": 8916,
      "2007": 8917,
      "yi4zhi2": 8918,
      "190": 8919,
      "ke4si1": 8920,
      "chang1": 8921,
      "ji1chang3": 8922,
      "sou1": 8923,
      "ke1xue2": 8924,
      "kuan1": 8925,
      "fan4wei2": 8926,
      "cai4": 8927,
      "luo2ma3": 8928,
      "zhi3you3": 8929,
      "dong4wu4": 8930,
      "niu2": 8931,
      "teng2": 8932,
      "2001": 8933,
      "80": 8934,
      "ming4ming2": 8935,
      "lei3": 8936,
      "yi4hui4": 8937,
      "guo4cheng2": 8938,
      "xiao3xing2": 8939,
      "ta": 8940,
      "sheng1yu2": 8941,
      "ping2jun1": 8942,
      "yi4da4li4": 8943,
      "ba4": 8944,
      "yi1ci4": 8945,
      "an1quan2": 8946,
      "ran3": 8947,
      "nv3xing4": 8948,
      "ken3": 8949,
      "tao3": 8950,
      "que1": 8951,
      "shu4liang4": 8952,
      "yi1zuo4": 8953,
      "han2guo2": 8954,
      "chong2xin1": 8955,
      "ju1min2": 8956,
      "nei4rong2": 8957,
      "2006": 8958,
      "mou2": 8959,
      "sun3": 8960,
      "zhi1qian2": 8961,
      "ji4nian4": 8962,
      "nan2zi": 8963,
      "mou3": 8964,
      "ming2cheng1": 8965,
      "chuang4zuo4": 8966,
      "fu4qin1": 8967,
      "fa1biao3": 8968,
      "jing1guo4": 8969,
      "el": 8970,
      "wei4zhi4": 8971,
      "suo3yi3": 8972,
      "fou3": 8973,
      "shi2er4": 8974,
      "jian4she4": 8975,
      "2000": 8976,
      "chun2": 8977,
      "nao3": 8978,
      "qian3": 8979,
      "biao1zhun3": 8980,
      "xi1ban1": 8981,
      "suo1": 8982,
      "xi1ban1ya2": 8983,
      "yun4dong4yuan2": 8984,
      "nv3zi3": 8985,
      "ru2guo3": 8986,
      "gong1lu4": 8987,
      "hui3": 8988,
      "gong1ye4": 8989,
      "fo": 8990,
      "mei3yuan2": 8991,
      "niao3": 8992,
      "huan2jing4": 8993,
      "fan3dui4": 8994,
      "2024": 8995,
      "su1lian2": 8996,
      "ban3ben3": 8997,
      "lan3": 8998,
      "jing4nei4": 8999,
      "jun1dui4": 9000,
      "xue3": 9001,
      "xian4dai4": 9002,
      "pi3": 9003,
      "70": 9004,
      "she4li4": 9005,
      "gong4chan3": 9006,
      "luan4": 9007,
      "lian2bang1": 9008,
      "min3": 9009,
      "zhi2ye4": 9010,
      "kao4": 9011,
      "huan1": 9012,
      "gong1kai1": 9013,
      "sheng1wu4": 9014,
      "gong4tong2": 9015,
      "da4liang4": 9016,
      "ma": 9017,
      "zhi2jie1": 9018,
      "min2zu2": 9019,
      "2005": 9020,
      "bu2shi4": 9021,
      "die2": 9022,
      "zi4zhi4": 9023,
      "ju3ban4": 9024,
      "rang3": 9025,
      "zai1": 9026,
      "you3guan1": 9027,
      "zun1": 9028,
      "yi4qi3": 9029,
      "ting3": 9030,
      "lai4": 9031,
      "cang1": 9032,
      "sai4shi4": 9033,
      "la4": 9034,
      "xuan3ze2": 9035,
      "fei1chang2": 9036,
      "zhi3hui1": 9037,
      "zi1liao4": 9038,
      "di4si4": 9039,
      "wo3men": 9040,
      "ne": 9041,
      "yan3yuan2": 9042,
      "chu2le": 9043,
      "zhong1hua2min2guo2": 9044,
      "ge2lan2": 9045,
      "tai2bei3": 9046,
      "90": 9047,
      "hai2you3": 9048,
      "shu1ji4": 9049,
      "zhi2xing2": 9050,
      "fa3yuan4": 9051,
      "yi3lai2": 9052,
      "35": 9053,
      "bao1han2": 9054,
      "zhu3ren4": 9055,
      "gai3wei2": 9056,
      "ju4li2": 9057,
      "bang4": 9058,
      "jiao4shou4": 9059,
      "sheng1ya2": 9060,
      "xie2hui4": 9061,
      "chu3li3": 9062,
      "xian3shi4": 9063,
      "bian1ma3": 9064,
      "xian4zai4": 9065,
      "ti3yu4": 9066,
      "cao1": 9067,
      "nai4": 9068,
      "qi3ye4": 9069,
      "of": 9070,
      "bi4xu1": 9071,
      "tui1chu1": 9072,
      "jia1ting2": 9073,
      "dong4hua4": 9074,
      "zui4jia1": 9075,
      "guan1yu2": 9076,
      "ter": 9077,
      "pan2": 9078,
      "san1nian2": 9079,
      "shui4": 9080,
      "bu4zhang3": 9081,
      "guan3xia2": 9082,
      "pang2": 9083,
      "fo2": 9084,
      "shi4wu4": 9085,
      "shuai4": 9086,
      "mie4": 9087,
      "wen3": 9088,
      "wan2quan2": 9089,
      "zheng4ce4": 9090,
      "li4yong4": 9091,
      "xiao3shuo1": 9092,
      "yi1yuan4": 9093,
      "yu2shi4": 9094,
      "gong1bu4": 9095,
      "bao4gao4": 9096,
      "duo1shu4": 9097,
      "sang1": 9098,
      "ri4zhi4": 9099,
      "shen4zhi4": 9100,
      "bing3": 9101,
      "jia1zu2": 9102,
      "zai4ci4": 9103,
      "zhong1xue2": 9104,
      "ren2shi4": 9105,
      "yi1nian2": 9106,
      "xing2wei2": 9107,
      "fang1fa3": 9108,
      "fa3lv4": 9109,
      "zhi2dao4": 9110,
      "nian2jian1": 9111,
      "shi4chang3": 9112,
      "hou2": 9113,
      "zhan4dou4": 9114,
      "nie4": 9115,
      "jue2sai4": 9116,
      "zhi3chu1": 9117,
      "il": 9118,
      "gai1di4": 9119,
      "zi4ran2": 9120,
      "da4bu4fen4": 9121,
      "ren2lei4": 9122,
      "ya4zhou1": 9123,
      "yun3": 9124,
      "nu3": 9125,
      "dang1zhong1": 9126,
      "dong3": 9127,
      "jin3guan3": 9128,
      "zhu2jian4": 9129,
      "xue2xi2": 9130,
      "yin2hang2": 9131,
      "guang3dong1": 9132,
      "shen1fen4": 9133,
      "dong1bei3": 9134,
      "2004": 9135,
      "yuan2yin1": 9136,
      "shao1": 9137,
      "mei4": 9138,
      "shi2ji4": 9139,
      "zou4": 9140,
      "fen1wei2": 9141,
      "yi1bu4fen4": 9142,
      "gong1gong4": 9143,
      "da4hui4": 9144,
      "zhu4ming2": 9145,
      "bo1chu1": 9146,
      "tuan2ti3": 9147,
      "zui4chu1": 9148,
      "ji1chu3": 9149,
      "45": 9150,
      "pai1she4": 9151,
      "pu3cha2": 9152,
      "zhuo2": 9153,
      "guan1fang1": 9154,
      "gai1guo2": 9155,
      "yan3chu1": 9156,
      "jiang1jun1": 9157,
      "da2dao4": 9158,
      "biao3xian4": 9159,
      "zao3qi1": 9160,
      "re4dai4": 9161,
      "quan2li4": 9162,
      "xuan3qu1": 9163,
      "mai3": 9164,
      "gong1ji1": 9165,
      "zha1": 9166,
      "dong1bu4": 9167,
      "shang1ye4": 9168,
      "zhi4zao4": 9169,
      "gong1neng2": 9170,
      "sheng3fen4": 9171,
      "neng2li4": 9172,
      "and": 9173,
      "yan1": 9174,
      "quan2qiu2": 9175,
      "he": 9176,
      "si3wang2": 9177,
      "xi1wang4": 9178,
      "xi1bu4": 9179,
      "wen2xue2": 9180,
      "zuo4yong4": 9181,
      "lei4si4": 9182,
      "gui1mo2": 9183,
      "li3lun4": 9184,
      "qu4shi4": 9185,
      "huai4": 9186,
      "ji1ben3": 9187,
      "at": 9188,
      "yan2zhong4": 9189,
      "nai3": 9190,
      "xia4ling4": 9191,
      "lu4xian4": 9192,
      "feng2": 9193,
      "gong1shi4": 9194,
      "ji2qi2": 9195,
      "hai3ba2gao1du4": 9196,
      "miao2shu4": 9197,
      "li2kai1": 9198,
      "jia1na2": 9199,
      "jia1na2da4": 9200,
      "cheng2ji4": 9201,
      "48": 9202,
      "kui2": 9203,
      "qi2hou4": 9204,
      "neng2gou4": 9205,
      "kun1": 9206,
      "xue2ming2": 9207,
      "wu4zhong3": 9208,
      "tong3zhi4": 9209,
      "lo": 9210,
      "kong1jian1": 9211,
      "ba1shi4": 9212,
      "wai4jiao1": 9213,
      "ren4wu4": 9214,
      "tao4": 9215,
      "the": 9216,
      "ck": 9217,
      "si1tan3": 9218,
      "wei2yi1": 9219,
      "cui1": 9220,
      "chao2xian1": 9221,
      "she4shi1": 9222,
      "a1la1": 9223,
      "wen2wu4": 9224,
      "yue1han4": 9225,
      "zhe4shi4": 9226,
      "chi2xu4": 9227,
      "san1ge4": 9228,
      "zhen3": 9229,
      "xu2": 9230,
      "tou4guo4": 9231,
      "da4qu1": 9232,
      "dong1jing1": 9233,
      "dian4zi": 9234,
      "jie3fang4": 9235,
      "xing2zheng4qu1": 9236,
      "cu4": 9237,
      "gui1ding4": 9238,
      "es": 9239,
      "guang3bo1": 9240,
      "suo3shu3": 9241,
      "2025": 9242,
      "bo2wu4": 9243,
      "yi3shang4": 9244,
      "ying4yong4": 9245,
      "bu4neng2": 9246,
      "er3si1": 9247,
      "gong4chan3dang3": 9248,
      "ji4suan4": 9249,
      "jie1rang3": 9250,
      "kua4": 9251,
      "2003": 9252,
      "36": 9253,
      "he2bing4": 9254,
      "niu3yue1": 9255,
      "fang1xiang4": 9256,
      "zhu3chi2": 9257,
      "juan3": 9258,
      "leng3": 9259,
      "pai2ming2": 9260,
      "zhi3shi4": 9261,
      "cui4": 9262,
      "diao1": 9263,
      "ceng2jing1": 9264,
      "qi2yu2": 9265,
      "mei3zhou1": 9266,
      "bi3li4": 9267,
      "ru3": 9268,
      "ma3lai2": 9269,
      "zong1jiao4": 9270,
      "mu4di4": 9271,
      "zhuan1ye4": 9272,
      "guang3zhou1": 9273,
      "mo2shi4": 9274,
      "mu4biao1": 9275,
      "dong1nan2": 9276,
      "lian2jie1": 9277,
      "you3xian4gong1si1": 9278,
      "dang1xuan3": 9279,
      "tai4yang2": 9280,
      "is": 9281,
      "rou4": 9282,
      "yun4dong4hui4": 9283,
      "xian4shi2": 9284,
      "guo2wang2": 9285,
      "shan3": 9286,
      "hao4xian4": 9287,
      "xiao3xing2xing1": 9288,
      "kai1fang4": 9289,
      "chan3pin3": 9290,
      "di4shi2": 9291,
      "bian4hua4": 9292,
      "si4nian2": 9293,
      "ge4zhong3": 9294,
      "she4zhi4": 9295,
      "qiu2yuan2": 9296,
      "reng2ran2": 9297,
      "zhe4jiang1": 9298,
      "shi4zhang3": 9299,
      "dan1qu1": 9300,
      "yi1bu4": 9301,
      "ren2kou3pu3cha2": 9302,
      "she4qu1": 9303,
      "cao2": 9304,
      "nian2du4": 9305,
      "quan1": 9306,
      "38": 9307,
      "et": 9308,
      "zhou4": 9309,
      "jie1dao4": 9310,
      "shi2yan4": 9311,
      "37": 9312,
      "wei2er3": 9313,
      "yi1yang4": 9314,
      "sai4ji4": 9315,
      "feng1ge2": 9316,
      "xiang1dang1": 9317,
      "er2qie3": 9318,
      "tai4ping2": 9319,
      "guo1": 9320,
      "can2": 9321,
      "lu4jun1": 9322,
      "gou1": 9323,
      "fa1dong4": 9324,
      "jin3biao1": 9325,
      "hui1fu4": 9326,
      "dao4lu4": 9327,
      "di4xia4": 9328,
      "keng1": 9329,
      "mang2": 9330,
      "2002": 9331,
      "yan3chang4": 9332,
      "liang3ren2": 9333,
      "to": 9334,
      "xun4lian4": 9335,
      "189": 9336,
      "jin4shi4": 9337,
      "fei1ji1": 9338,
      "xi1bei3": 9339,
      "yue4tai2": 9340,
      "bo2wu4guan3": 9341,
      "dian1": 9342,
      "bu2hui4": 9343,
      "da4xing2": 9344,
      "xian4zhi4": 9345,
      "er2zi": 9346,
      "hu3": 9347,
      "tu3di4": 9348,
      "zhu3ti2": 9349,
      "IN": 9350,
      "da1": 9351,
      "li3si1": 9352,
      "shan1dong1": 9353,
      "ji1bai4": 9354,
      "shi3de": 9355,
      "wang3luo4": 9356,
      "bei4jing3": 9357,
      "gui1hua4": 9358,
      "bing4yu2": 9359,
      "as": 9360,
      "jian3cheng1": 9361,
      "xi4bao1": 9362,
      "ow": 9363,
      "jie1duan4": 9364,
      "chai1": 9365,
      "mu3qin1": 9366,
      "pi1ping2": 9367,
      "ao4yun4": 9368,
      "cha4": 9369,
      "ding4yi4": 9370,
      "ming2wei4": 9371,
      "xiang1tong2": 9372,
      "qing1nian2": 9373,
      "34": 9374,
      "zu1": 9375,
      "hua4xue2": 9376,
      "gao1su4": 9377,
      "yi1tiao2": 9378,
      "jian4zao4": 9379,
      "75": 9380,
      "si1ling4": 9381,
      "bu4men2": 9382,
      "zhi4du4": 9383,
      "Co": 9384,
      "xi1nan2": 9385,
      "xue2zhe3": 9386,
      "zhe4yi1": 9387,
      "bao4fa1": 9388,
      "li4fa3": 9389,
      "zhan1": 9390,
      "ji4zai3": 9391,
      "guo2hui4": 9392,
      "TC": 9393,
      "kun4": 9394,
      "shi4wei4": 9395,
      "yi1shi4": 9396,
      "gui3dao4": 9397,
      "tou2zi1": 9398,
      "ju4le4": 9399,
      "su2": 9400,
      "shang3": 9401,
      "ma2": 9402,
      "ju4le4bu4": 9403,
      "ao4men2": 9404,
      "xia4xia2": 9405,
      "dao3yan3": 9406,
      "bo2shi4": 9407,
      "jie2zhi4": 9408,
      "zhen4qu1": 9409,
      "meng2gu3": 9410,
      "zhe4yang4": 9411,
      "nan2jing1": 9412,
      "yue4nan2": 9413,
      "wu3nian2": 9414,
      "zao1dao4": 9415,
      "xi1la4": 9416,
      "ji1du1": 9417,
      "jian4yi4": 9418,
      "1990": 9419,
      "gai3ge2": 9420,
      "di4wu3": 9421,
      "tun2": 9422,
      "fen1zhong1": 9423,
      "shi2hou4": 9424,
      "xia4ji4": 9425,
      "tan1": 9426,
      "ve": 9427,
      "ping2lun4": 9428,
      "33": 9429,
      "cheng2qu1": 9430,
      "wei2zhu3": 9431,
      "bang1zhu4": 9432,
      "..": 9433,
      "liu2xing2": 9434,
      "bu4jiu3": 9435,
      "rao4": 9436,
      "si4chuan1": 9437,
      "ci3hou4": 9438,
      "jing3cha2": 9439,
      "di4wei4": 9440,
      "jing1li4": 9441,
      "xiang1dui4": 9442,
      "lun2dun1": 9443,
      "nei4bu4": 9444,
      "zi1ge2": 9445,
      "ren4ming4": 9446,
      "quan2bu4": 9447,
      "chu1sheng1": 9448,
      "su4du4": 9449,
      "55": 9450,
      "pan1": 9451,
      "da4zhan4": 9452,
      "Ma": 9453,
      "ge1shou3": 9454,
      "qi4che1": 9455,
      "zheng3ge4": 9456,
      "ping2tai2": 9457,
      "ren2men": 9458,
      "san1shi2": 9459,
      "ming2zi4": 9460,
      "fei1xing2": 9461,
      "fen1xi1": 9462,
      "32": 9463,
      "mei3nian2": 9464,
      "46": 9465,
      "lian2xu4": 9466,
      "39": 9467,
      "ao4lin2": 9468,
      "it": 9469,
      "la1si1": 9470,
      "di4er4ci4": 9471,
      "zhong1bu4": 9472,
      "hen3duo1": 9473,
      "wan2jia1": 9474,
      "man4hua4": 9475,
      "Ch": 9476,
      "za2zhi4": 9477,
      "shu2": 9478,
      "dian4shi4tai2": 9479,
      "te4zheng1": 9480,
      "ying1yu3": 9481,
      "zuo4chu1": 9482,
      "wu2xian4": 9483,
      "ying2de2": 9484,
      "ti1": 9485,
      "mao4yi4": 9486,
      "biao3yan3": 9487,
      "ling3yu4": 9488,
      "nan4": 9489,
      "xian1hou4": 9490,
      "shi2xian4": 9491,
      "fu2jian4": 9492,
      "di4qiu2": 9493,
      "guan1yuan2": 9494,
      "fen3": 9495,
      "zheng1yi4": 9496,
      "bao3chi2": 9497,
      "zong3ren2kou3": 9498,
      "tiao2jian4": 9499,
      "da4yue1": 9500,
      "wu4li3": 9501,
      "heng1": 9502,
      "xun1": 9503,
      "hao2mi3": 9504,
      "lang4": 9505,
      "nan2xing4": 9506,
      "duo1ci4": 9507,
      "ji4zhe3": 9508,
      "che1liang4": 9509,
      "yi1jia1": 9510,
      "xin4xi1": 9511,
      "ying3pian4": 9512,
      "chu1ren4": 9513,
      "wu3qi4": 9514,
      "tong2yang4": 9515,
      "yun4shu1": 9516,
      "ran2hou4": 9517,
      "yin3qi3": 9518,
      "di4tie3": 9519,
      "gong1chi3": 9520,
      "wa3er3": 9521,
      "shui3yu4": 9522,
      "shi2shi1": 9523,
      "jing1ying2": 9524,
      "jing1chang2": 9525,
      "ju4jue2": 9526,
      "ao4lin2pi3": 9527,
      "ju1zhu4": 9528,
      "guang3chang3": 9529,
      "jian3shao3": 9530,
      "fen1lei4": 9531,
      "wang3zhan4": 9532,
      "kan3": 9533,
      "1999": 9534,
      "65": 9535,
      "zuo4jia1": 9536,
      "xue2wei4": 9537,
      "pu2tao2": 9538,
      "chu3yu2": 9539,
      "duo1ge4": 9540,
      "qun2dao3": 9541,
      "quan4": 9542,
      "47": 9543,
      "1980": 9544,
      "zhan4yi4": 9545,
      "zhi4jin1": 9546,
      "ke1ji4": 9547,
      "ye4wu4": 9548,
      "1998": 9549,
      "bei4er3": 9550,
      "hai2shi4": 9551,
      "SE": 9552,
      "yuan2zhu4": 9553,
      "pao3": 9554,
      "qu3dai4": 9555,
      "bo1lan2": 9556,
      "guang3fan4": 9557,
      "zhai2": 9558,
      "xie2zhu4": 9559,
      "he2nan2": 9560,
      "xuan1chuan2": 9561,
      "jian4yu2": 9562,
      "she4bei4": 9563,
      "yi1si1": 9564,
      "zhai4": 9565,
      "hui2dao4": 9566,
      "qian4": 9567,
      "guo4qu4": 9568,
      "jin3biao1sai4": 9569,
      "tang1": 9570,
      "han3": 9571,
      "zui4zao3": 9572,
      "yuan2nian2": 9573,
      "fa1she4": 9574,
      "huo4zhe3": 9575,
      "ao4lin2pi3ke4": 9576,
      "ji1hu1": 9577,
      "di4yi1ci4": 9578,
      "lei4xing2": 9579,
      "zhuang4tai4": 9580,
      "bi3ya4": 9581,
      "xian4lu4": 9582,
      "zhan3kai1": 9583,
      "gai3bian4": 9584,
      "zhan4ling3": 9585,
      "er2tong2": 9586,
      "ne4": 9587,
      "zhu3jue2": 9588,
      "chang2qi1": 9589,
      "nong2ye4": 9590,
      "wei4lai2": 9591,
      "qi1xi1": 9592,
      "ni4": 9593,
      "zong3mian4ji1": 9594,
      "zuo4zhan4": 9595,
      "tong2yi4": 9596,
      "yi4yuan4": 9597,
      "500": 9598,
      "oo": 9599,
      "188": 9600,
      "In": 9601,
      "The": 9602,
      "ying1wen2": 9603,
      "ping2jia4": 9604,
      "xie2yi4": 9605,
      "tian1jin1": 9606,
      "can1sai4": 9607,
      "ji1che1": 9608,
      "zhi4liao2": 9609,
      "zhun3bei4": 9610,
      "he2lan2": 9611,
      "mei3ge4": 9612,
      "ba1li2": 9613,
      "ST": 9614,
      "jiao4tang2": 9615,
      "yun4xing2": 9616,
      "shi2qu1": 9617,
      "ji4cheng2": 9618,
      "pin2dao4": 9619,
      "wei4neng2": 9620,
      "zuo3you4": 9621,
      "she2": 9622,
      "UTC": 9623,
      "1997": 9624,
      "deng4": 9625,
      "tong3yi1": 9626,
      "er4nian2": 9627,
      "tian1zhu3jiao4": 9628,
      "tu2shu1": 9629,
      "shi4yan3": 9630,
      "shuo4": 9631,
      "49": 9632,
      "zhong1wen2": 9633,
      "da4duo1shu4": 9634,
      "di4yi2ge4": 9635,
      "huang2di4": 9636,
      "br": 9637,
      "ming2chao2": 9638,
      "gai4nian4": 9639,
      "shi4tu2": 9640,
      "xin1jia1": 9641,
      "yi2bu4": 9642,
      "bi3jiao4": 9643,
      "zhou1shi4": 9644,
      "ri4qi3": 9645,
      "xing1jian4": 9646,
      "tong3ji4": 9647,
      "zu3he2": 9648,
      "ji1yu2": 9649,
      "lai2yuan2": 9650,
      "que4ding4": 9651,
      "xi2ji1": 9652,
      "shi2nian2": 9653,
      "xiong1di4": 9654,
      "she3": 9655,
      "yuan2ben3": 9656,
      "jin4yi2bu4": 9657,
      "you2zheng4": 9658,
      "si1ke1": 9659,
      "ce4shi4": 9660,
      "ma3lai2xi1ya4": 9661,
      "zhi1ming2": 9662,
      "you4cheng1": 9663,
      "zhou2": 9664,
      "qiang3": 9665,
      "ju4qing2": 9666,
      "xin1jia1po1": 9667,
      "un": 9668,
      "64": 9669,
      "zong4": 9670,
      "ji1di4": 9671,
      "jian3cha2": 9672,
      "guo2min2dang3": 9673,
      "ka1": 9674,
      "jin1shu3": 9675,
      "ni1": 9676,
      "xuan3shou3": 9677,
      "be": 9678,
      "zi1yuan2": 9679,
      "cheng2zhen4": 9680,
      "chu1qi1": 9681,
      "ge4di4": 9682,
      "you2tai4": 9683,
      "da4lou2": 9684,
      "liu2yu4": 9685,
      "liu4nian2": 9686,
      "zong1he2": 9687,
      "1996": 9688,
      "gao3": 9689,
      "guo2nei4": 9690,
      "zhi1wai4": 9691,
      "fan3hui2": 9692,
      "bao4dao4": 9693,
      "ba": 9694,
      "ji2zhong1": 9695,
      "zhen1dui4": 9696,
      "yu2le4": 9697,
      "bing4du2": 9698,
      "jie3jue2": 9699,
      "lv3you2": 9700,
      "wang2guo2": 9701,
      "chui2": 9702,
      "ban4dao3": 9703,
      "kong1jun1": 9704,
      "qiong2": 9705,
      "II": 9706,
      "yun4ying2": 9707,
      "po4huai4": 9708,
      "Re": 9709,
      "jiao1yi4": 9710,
      "shi4fou3": 9711,
      "tou2piao4": 9712,
      "yuan2su4": 9713,
      "yi2ding4": 9714,
      "jing1shen2": 9715,
      "tian1wen2": 9716,
      "wen3ding4": 9717,
      "jia1shang4": 9718,
      "fang1an4": 9719,
      "gai3bian1": 9720,
      "sheng3ji2": 9721,
      "ying1ge2lan2": 9722,
      "tai4ping2yang2": 9723,
      "qing1chao2": 9724,
      "si1ji1": 9725,
      "tiao4": 9726,
      "jin4gong1": 9727,
      "bu4zai4": 9728,
      "68": 9729,
      "chuang2": 9730,
      "he2ping2": 9731,
      "lu4di4": 9732,
      "bu4shao3": 9733,
      "shang4ying4": 9734,
      "ao4da4": 9735,
      "chang4pian4": 9736,
      "shuai1": 9737,
      "wei2chi2": 9738,
      "huan3": 9739,
      "zheng4ming2": 9740,
      "han": 9741,
      "nian2qing1": 9742,
      "juan1": 9743,
      "44": 9744,
      "huo4shi4": 9745,
      "jian4dui4": 9746,
      "id": 9747,
      "dian4shi4ju4": 9748,
      "ca": 9749,
      "ir": 9750,
      "yi1ke1": 9751,
      "wei1lian2": 9752,
      "yi1zhi1": 9753,
      "yi1chang2": 9754,
      "guo2fang2": 9755,
      "pu3tong1": 9756,
      "huang2jia1": 9757,
      "ji1hui4": 9758,
      "zhi1xian4": 9759,
      "ming2dan1": 9760,
      "na": 9761,
      "zhi2min2": 9762,
      "guo2li4": 9763,
      "58": 9764,
      "ao4da4li4ya4": 9765,
      "ren2kou3shu4liang4": 9766,
      "hong1": 9767,
      "zheng4zai4": 9768,
      "jie3shi4": 9769,
      "you3ren2": 9770,
      "yi1sheng1": 9771,
      "er4shi4": 9772,
      "shuang1fang1": 9773,
      "tie3dao4": 9774,
      "guan1zhong4": 9775,
      "li4liang4": 9776,
      "lin2shi2": 9777,
      "bian1hao4": 9778,
      "di4liu4": 9779,
      "nv3er2": 9780,
      "qi4hou4": 9781,
      "mi4shu1": 9782,
      "tong4": 9783,
      "yan2jiu1suo3": 9784,
      "fei2": 9785,
      "chao1ji2": 9786,
      "gao1ji2": 9787,
      "ma3li4": 9788,
      "bu4duan4": 9789,
      "1992": 9790,
      "xiao3xue2": 9791,
      "tiao2yue1": 9792,
      "pi1zhun3": 9793,
      "shao4nian2": 9794,
      "1994": 9795,
      "zong3li3": 9796,
      "cheng2xu4": 9797,
      "ba1xi1": 9798,
      "mian2": 9799,
      "qi1zi3": 9800,
      "ci3shi2": 9801,
      "ceng2ren4": 9802,
      "geng1ming2": 9803,
      "chan3ye4": 9804,
      "ji1guan1": 9805,
      "yi3hou4": 9806,
      "zha2": 9807,
      "shou1ru4": 9808,
      "ji1jin1": 9809,
      "cheng2du4": 9810,
      "jiang1su1": 9811,
      "jie2he2": 9812,
      "ad": 9813,
      "shi4li4": 9814,
      "zeng4": 9815,
      "gua4": 9816,
      "xue1": 9817,
      "cheng2ren4": 9818,
      "chi1": 9819,
      "wen2wu4bao3hu4": 9820,
      "zi4xing2": 9821,
      "da4shi3": 9822,
      "yun2nan2": 9823,
      "jie3fang4jun1": 9824,
      "nu2": 9825,
      "1995": 9826,
      "sui2zhu4": 9827,
      "yi1liao2": 9828,
      "yin3fa1": 9829,
      "you2qi2": 9830,
      "miao3": 9831,
      "wo1": 9832,
      "he2xin1": 9833,
      "jia4zhi2": 9834,
      "chu1shen1": 9835,
      "xing1qi1": 9836,
      "tao3lun4": 9837,
      "78": 9838,
      "yi3se4": 9839,
      "qi3lai2": 9840,
      "chong2jian4": 9841,
      "yi3se4lie4": 9842,
      "jiao4hui4": 9843,
      "chong1tu1": 9844,
      "xiao3zu3": 9845,
      "yi1xiang4": 9846,
      "sai1er3": 9847,
      "chuang1": 9848,
      "wei2ya4": 9849,
      "ci": 9850,
      "cai2zheng4": 9851,
      "shi2fen1": 9852,
      "yi4zhi4": 9853,
      "bao3liu2": 9854,
      "76": 9855,
      "qu3xiao1": 9856,
      "you3xie1": 9857,
      "shang4wei4": 9858,
      "you3xiao4": 9859,
      "tie1": 9860,
      "er2shi4": 9861,
      "shou3du1": 9862,
      "dao1": 9863,
      "wu3zhuang1": 9864,
      "zi4dong4": 9865,
      "kuai4su4": 9866,
      "gan3ran3": 9867,
      "cong2shi4": 9868,
      "1950": 9869,
      "guo2wu4": 9870,
      "wen2jian4": 9871,
      "ri4jun1": 9872,
      "si1xiang3": 9873,
      "chai2": 9874,
      "yang3hua4": 9875,
      "wan4ren2": 9876,
      "gong1min2": 9877,
      "hu2nan2": 9878,
      "fei3": 9879,
      "zhi4shao3": 9880,
      "ren2shu4": 9881,
      "ru2xia4": 9882,
      "zong3bu4": 9883,
      "zhu3yan3": 9884,
      "yun3xu3": 9885,
      "ti2ming2": 9886,
      "wei3hui4": 9887,
      "gao1zhong1": 9888,
      "fen4zi3": 9889,
      "wa1": 9890,
      "xi1yang2": 9891,
      "xia4wu3": 9892,
      "yao1qing3": 9893,
      "qiao2zhi4": 9894,
      "chan2": 9895,
      "300": 9896,
      "gua1": 9897,
      "99": 9898,
      "tiao2zheng3": 9899,
      "1993": 9900,
      "qi2xia4": 9901,
      "ting2zhi3": 9902,
      "jian4kang1": 9903,
      "tou2ru4": 9904,
      "yue4tuan2": 9905,
      "zhi1yuan2": 9906,
      "li4shu3yu2": 9907,
      "ka3er3": 9908,
      "shan1xi1": 9909,
      "wang2chao2": 9910,
      "ao4lin2pi3ke4yun4dong4hui4": 9911,
      "cai2liao4": 9912,
      "zhu4zuo4": 9913,
      "jian4cheng2": 9914,
      "sui2zhe": 9915,
      "wei4sheng1": 9916,
      "shi4shi4": 9917,
      "zhi2zhi4": 9918,
      "fei1zhou1": 9919,
      "xing2zheng4qu1hua4": 9920,
      "56": 9921,
      "lian2he2guo2": 9922,
      "feng1bao4": 9923,
      "min2zhong4": 9924,
      "tuo2": 9925,
      "sheng4li4": 9926,
      "42": 9927,
      "suo3zai4": 9928,
      "77": 9929,
      "ai4er3": 9930,
      "sa1": 9931,
      "qi2shi4": 9932,
      "1991": 9933,
      "zhi1dao4": 9934,
      "wen2zhang1": 9935,
      "1970": 9936,
      "ao4si1": 9937,
      "fang3wen4": 9938,
      "pe": 9939,
      "tuan2dui4": 9940,
      "shou1lu4": 9941,
      "kao3lv4": 9942,
      "ay": 9943,
      "xiao1shou4": 9944,
      "xian4fa3": 9945,
      "you3shi2": 9946,
      "tiao3": 9947,
      "us": 9948,
      "ing": 9949,
      "du3": 9950,
      "shi2ren4": 9951,
      "shi4jie4da4zhan4": 9952,
      "yong4hu4": 9953,
      "1945": 9954,
      "an1pai2": 9955,
      "zhong1shi4": 9956,
      "meng3": 9957,
      "ming2xian3": 9958,
      "shen1qing3": 9959,
      "hai3an4": 9960,
      "jie2hun1": 9961,
      "li4zi": 9962,
      "yi1ji2": 9963,
      "shuo1fa3": 9964,
      "chu1lai2": 9965,
      "chang2jian4": 9966,
      "ver": 9967,
      "zu3fu4": 9968,
      "jian4zhi4": 9969,
      "shi4bing1": 9970,
      "er3de2": 9971,
      "yi4yi4": 9972,
      "ying1gai1": 9973,
      "te4shu1": 9974,
      "yi4shi2": 9975,
      "yi1dai4": 9976,
      "59": 9977,
      "yin1er2": 9978,
      "fo2jiao4": 9979,
      "yi2min2": 9980,
      "jing3fang1": 9981,
      "wei2qi2": 9982,
      "ol": 9983,
      "cheng2xian4": 9984,
      "tu2shu1guan3": 9985,
      "shi4ye4": 9986,
      "xin1zeng1": 9987,
      "gao1deng3": 9988,
      "guan1zhu4": 9989,
      "guan1cha2": 9990,
      "ya4li4": 9991,
      "qi4xiang4": 9992,
      "gong1chang3": 9993,
      "chuang4li4": 9994,
      "gan3dao4": 9995,
      "zi4zhi4qu1": 9996,
      "han2shu4": 9997,
      "1949": 9998,
      "jie1jin4": 9999,
      "bu4zu2": 10000,
      "zhong1guo2gong4chan3dang3": 10001,
      "ren2gong1": 10002,
      "biao3da2": 10003,
      "zai4du4": 10004,
      "shi4qu1": 10005,
      "fa3lan2": 10006,
      "1988": 10007,
      "sheng1zhang3": 10008,
      "xia4lai2": 10009,
      "ku3": 10010,
      "wen2ming2": 10011,
      "de2li3": 10012,
      "gong1fen1": 10013,
      "66": 10014,
      "jiu4du2": 10015,
      "1960": 10016,
      "wu4zhi4": 10017,
      "he2wu4": 10018,
      "bian3": 10019,
      "ss": 10020,
      "de2yi3": 10021,
      "yi2shi4": 10022,
      "li3shi4": 10023,
      "mo2xing2": 10024,
      "tong2yi1": 10025,
      "xian4chang3": 10026,
      "ke4cheng2": 10027,
      "da4chen2": 10028,
      "di4li4": 10029,
      "bing4wei4": 10030,
      "xi1fang1": 10031,
      "AT": 10032,
      "yi2zhi3": 10033,
      "gou4cheng2": 10034,
      "ren2min2zheng4fu3": 10035,
      "ke3da2": 10036,
      "mai4ke4": 10037,
      "wei1er3": 10038,
      "yi2dong4": 10039,
      "ben3zhan4": 10040,
      "jiao1liu2": 10041,
      "qi3yong4": 10042,
      "jiang1xi1": 10043,
      "zhong1guo2ren2min2": 10044,
      "jiao4qu1": 10045,
      "zheng4dang3": 10046,
      "mo4xi1": 10047,
      "dong4li4": 10048,
      "ming4ling4": 10049,
      "yi1duan4": 10050,
      "ru4qin1": 10051,
      "di4qi1": 10052,
      "kan4dao4": 10053,
      "ju4ji2": 10054,
      "dian4nao3": 10055,
      "ban4gong1shi4": 10056,
      "shao3shu4": 10057,
      "la1ke4": 10058,
      "ru2ci3": 10059,
      "zhong4dian3": 10060,
      "liu3": 10061,
      "qiu2chang3": 10062,
      "hou4xuan3": 10063,
      "ba1nian2": 10064,
      "ig": 10065,
      "hai2zi": 10066,
      "dao4da2": 10067,
      "43": 10068,
      "gong1ren2": 10069,
      "bo2te4": 10070,
      "ct": 10071,
      "57": 10072,
      "jie2ke4": 10073,
      "hou4zhe3": 10074,
      "rao3": 10075,
      "chu1kou3": 10076,
      "zao3nian2": 10077,
      "pu4": 10078,
      "an4jian4": 10079,
      "dian4tai2": 10080,
      "jin4zhi3": 10081,
      "a1la1bo2": 10082,
      "di3da2": 10083,
      "chuang4ban4": 10084,
      "bian4cheng2": 10085,
      "xiang1si4": 10086,
      "tuo4": 10087,
      "yin1su4": 10088,
      "shen1ti3": 10089,
      "yi1si1lan2": 10090,
      "1989": 10091,
      "yi1xue2": 10092,
      "ti2sheng1": 10093,
      "zuo4biao1": 10094,
      "ti2gao1": 10095,
      "liao3": 10096,
      "you2zheng4bian1ma3": 10097,
      "ni2si1": 10098,
      "41": 10099,
      "dai4lai2": 10100,
      "guai4": 10101,
      "peng2you3": 10102,
      "zhou1bian1": 10103,
      "xian4xiang4": 10104,
      "zhu3zhang1": 10105,
      "xiao4zhang3": 10106,
      "cong2er2": 10107,
      "69": 10108,
      "ping2mian4": 10109,
      "zong3du1": 10110,
      "SEE": 10111,
      "88": 10112,
      "che4xiao1": 10113,
      "lie4wei4": 10114,
      "zhuang4kuang4": 10115,
      "ti3xi4": 10116,
      "ur": 10117,
      "mi3er3": 10118,
      "shan1mai4": 10119,
      "sha4": 10120,
      "TV": 10121,
      "lian2xi4": 10122,
      "xue2shu4": 10123,
      "dong1xi1": 10124,
      "pu2tao2ya2": 10125,
      "rui4dian3": 10126,
      "yan2ge2": 10127,
      "xiao1xi1": 10128,
      "si4ge4": 10129,
      "yong4lai2": 10130,
      "yi1tong2": 10131,
      "pu3bian4": 10132,
      "shi1qu4": 10133,
      "duo1nian2": 10134,
      "bi4mian3": 10135,
      "di4dian3": 10136,
      "liang3zhong3": 10137,
      "NA": 10138,
      "SA": 10139,
      "67": 10140,
      "huang1": 10141,
      "ru4kou3": 10142,
      "St": 10143,
      "fa1chu1": 10144,
      "zhao4kai1": 10145,
      "zhi4liang4": 10146,
      "cao1zuo4": 10147,
      "sui4dao4": 10148,
      "zhu4yi4": 10149,
      "shi4shi2": 10150,
      "sen1lin2": 10151,
      "di4mian4": 10152,
      "shui3ping2": 10153,
      "ao4di4li4": 10154,
      "ph": 10155,
      "shan3xi1": 10156,
      "Ro": 10157,
      "tiao3zhan4": 10158,
      "bei3mei3": 10159,
      "shi3jian4": 10160,
      "zhi1shi2": 10161,
      "da4dao4": 10162,
      "di4zhen4": 10163,
      "sheng1ming4": 10164,
      "shi2zi4": 10165,
      "wei1xie2": 10166,
      "lai2shuo1": 10167,
      "zheng4quan2": 10168,
      "dang1ju2": 10169,
      "chuan4": 10170,
      "dang1nian2": 10171,
      "xiao4li4": 10172,
      "mou3xie1": 10173,
      "dan4bai2": 10174,
      "INSEE": 10175,
      "xin4hao4": 10176,
      "biao3ming2": 10177,
      "rui4shi4": 10178,
      "gong3": 10179,
      "quan2mian4": 10180,
      "ying2yun4": 10181,
      "yi2du4": 10182,
      "jiu3nian2": 10183,
      "chong2qing4": 10184,
      "heng2xing1": 10185,
      "bi3de2": 10186,
      "bao4dao3": 10187,
      "pu1": 10188,
      "yao4wu4": 10189,
      "shou4yu3": 10190,
      "ji1xie4": 10191,
      "zhi3neng2": 10192,
      "bo1fang4": 10193,
      "nan2bei3": 10194,
      "zeng1zhang3": 10195,
      "shou4shang1": 10196,
      "shi1bai4": 10197,
      "1984": 10198,
      "gong1zhong4": 10199,
      "an1de2": 10200,
      "wei4xing1": 10201,
      "zhe4ci4": 10202,
      "ke4yun4": 10203,
      "gai3ming2": 10204,
      "biao3mian4": 10205,
      "mo4xi1ge1": 10206,
      "cai3qu3": 10207,
      "52": 10208,
      "nian2di3": 10209,
      "shu4zi4": 10210,
      "zhong1shan1": 10211,
      "bu4luo4": 10212,
      "dui4shou3": 10213,
      "79": 10214,
      "fa1dian4": 10215,
      "bu4ke3": 10216,
      "tai4guo2": 10217,
      "bu4ming2": 10218,
      "shen2me": 10219,
      "51": 10220,
      "yuan2xing2": 10221,
      "bing4fei1": 10222,
      "kou4": 10223,
      "zhe4li3": 10224,
      "chu1zhan4": 10225,
      "zhi1xia4": 10226,
      "deng1lu4": 10227,
      "bu4de2": 10228,
      "wai4guo2": 10229,
      "xin1li3": 10230,
      "min2zhu3dang3": 10231,
      "vi": 10232,
      "guang3gao4": 10233,
      "xiang1shi4": 10234,
      "Me": 10235,
      "xing2tai4": 10236,
      "yi1xi4lie4": 10237,
      "cun4": 10238,
      "ji3yu3": 10239,
      "li4si1": 10240,
      "lu4yi4": 10241,
      "1985": 10242,
      "gong4xian4": 10243,
      "bian1ji2": 10244,
      "hong2se4": 10245,
      "ping2fang1mi3": 10246,
      "quan2zhang3": 10247,
      "mao1": 10248,
      "da2cheng2": 10249,
      "amp": 10250,
      "xia4ling4shi2": 10251,
      "xin1jiang1": 10252,
      "yi1lang3": 10253,
      "te4ding4": 10254,
      "fen2": 10255,
      "cuo4shi1": 10256,
      "fan1yi4": 10257,
      "yi1ju4": 10258,
      "hai3yu4": 10259,
      "lv3ke4": 10260,
      "gun3": 10261,
      "xun4su4": 10262,
      "ha1er3": 10263,
      "kang4yi4": 10264,
      "tui1dong4": 10265,
      "fa1qi3": 10266,
      "gu1ji4": 10267,
      "yi1li4": 10268,
      "chen4": 10269,
      "huan1ying2": 10270,
      "que1fa2": 10271,
      "gong1hui4": 10272,
      "yi2zhi4": 10273,
      "zi1xun4": 10274,
      "hai3yang2": 10275,
      "he2bei3": 10276,
      "gui1ze2": 10277,
      "chuang4zao4": 10278,
      "hun2": 10279,
      "da4xi1yang2": 10280,
      "um": 10281,
      "guan1dian3": 10282,
      "ji3ge4": 10283,
      "an1na4": 10284,
      "jin1rong2": 10285,
      "gao1xiong2": 10286,
      "62": 10287,
      "54": 10288,
      "1986": 10289,
      "you3suo3": 10290,
      "shi4min2": 10291,
      "yan2shen1": 10292,
      "ru4xuan3": 10293,
      "ji1du1jiao4": 10294,
      "Li": 10295,
      "nan2ji2": 10296,
      "ji1ji2": 10297,
      "yu3mao2": 10298,
      "yi3qian2": 10299,
      "sheng1ming2": 10300,
      "bai2se4": 10301,
      "ming2zhi4": 10302,
      "mu3si1": 10303,
      "yin3qing2": 10304,
      "jiu3dian4": 10305,
      "ma3er3": 10306,
      "you4ming2": 10307,
      "wu2ren2": 10308,
      "zai4nei4": 10309,
      "shu4xue2": 10310,
      "yi3wai4": 10311,
      "jie1chu4": 10312,
      "qiang2diao4": 10313,
      "wan4mei3yuan2": 10314,
      "he2liu2": 10315,
      "jie4shao4": 10316,
      "ard": 10317,
      "pin3pai2": 10318,
      "she4ji2": 10319,
      "guo2wu4yuan4": 10320,
      "1987": 10321,
      "ber": 10322,
      "tai1": 10323,
      "run4": 10324,
      "que4ren4": 10325,
      "ai4er3lan2": 10326,
      "an1zhuang1": 10327,
      "shi2wu4": 10328,
      "zhi3ding4": 10329,
      "zhi4yu2": 10330,
      "jiao4lian4": 10331,
      "fei1lv4": 10332,
      "jin1pai2": 10333,
      "can1kao3": 10334,
      "53": 10335,
      "fei1lv4bin1": 10336,
      "ben3shen1": 10337,
      "cheng2ke4": 10338,
      "fang4qi4": 10339,
      "biao1zhi4": 10340,
      "ao4zhou1": 10341,
      "qiang2lie4": 10342,
      "qian2shen1": 10343,
      "xi1yin3": 10344,
      "zhao3dao4": 10345,
      "zu3jian4": 10346,
      "bing4li4": 10347,
      "zuo4zhe3": 10348,
      "zhuo1": 10349,
      "nian2chu1": 10350,
      "gou4mai3": 10351,
      "dian4li4": 10352,
      "ind": 10353,
      "yi4jian4": 10354,
      "ai1ji2": 10355,
      "chuan2bo1": 10356,
      "hou4xuan3ren2": 10357,
      "lv4shi1": 10358,
      "zhan4hou4": 10359,
      "na4li3": 10360,
      "yi4ming2": 10361,
      "ou1yuan2": 10362,
      "weng1": 10363,
      "yue4dui4": 10364,
      "fu4za2": 10365,
      "zhi2dao3": 10366,
      "shi2yi1": 10367,
      "150": 10368,
      "er3qi2": 10369,
      "hou4qi1": 10370,
      "wan4yuan2": 10371,
      "jing4zheng1": 10372,
      "jia1li4": 10373,
      "xing4zhi4": 10374,
      "he2yue1": 10375,
      "si1ke4": 10376,
      "400": 10377,
      "shi2ji4shang4": 10378,
      "lai2dao4": 10379,
      "rong2yu4": 10380,
      "sheng1cheng1": 10381,
      "ti3zhang3": 10382,
      "ya1li4": 10383,
      "wan2zheng3": 10384,
      "te4se4": 10385,
      "ben3tu3": 10386,
      "yi4qing2": 10387,
      "per": 10388,
      "72": 10389,
      "qian1shu3": 10390,
      "au": 10391,
      "shi4gu4": 10392,
      "BA": 10393,
      "tai2nan2": 10394,
      "da4gui1mo2": 10395,
      "duo1zhong3": 10396,
      "la1ding1": 10397,
      "duo2de": 10398,
      "dui4wu3": 10399,
      "xu1qiu2": 10400,
      "zhi4li4": 10401,
      "fa3an4": 10402,
      "nan2fang1": 10403,
      "hai3wai4": 10404,
      "rong2yi4": 10405,
      "dong1fang1": 10406,
      "zi4mu3": 10407,
      "61": 10408,
      "ju4da4": 10409,
      "hu2bei3": 10410,
      "jiang3xiang4": 10411,
      "bu4lu3": 10412,
      "fen1zhi1": 10413,
      "xian4ren4": 10414,
      "rou2": 10415,
      "1982": 10416,
      "xin4yang3": 10417,
      "xi3huan1": 10418,
      "wu3tai2": 10419,
      "ru2he2": 10420,
      "bian1jie4": 10421,
      "wen2zi4": 10422,
      "chou1": 10423,
      "Mi": 10424,
      "da3ji1": 10425,
      "De": 10426,
      "ji2bing4": 10427,
      "min2jian1": 10428,
      "chu1xi2": 10429,
      "An": 10430,
      "zheng4ju4": 10431,
      "qiao3": 10432,
      "que4zhen3": 10433,
      "xian4jin1": 10434,
      "gai3zao4": 10435,
      "nei4ge2": 10436,
      "pin4": 10437,
      "gu3fen4": 10438,
      "gong1zhu3": 10439,
      "98": 10440,
      "chuan2shuo1": 10441,
      "ling3tu3": 10442,
      "tai2feng1": 10443,
      "ty": 10444,
      "ji1yin1": 10445,
      "zhi4ding4": 10446,
      "shuai4ling3": 10447,
      "wang3lu4": 10448,
      "shen1zhen4": 10449,
      "zhan3shi4": 10450,
      "sheng1tai4": 10451,
      "1983": 10452,
      "bu4jin3": 10453,
      "tou": 10454,
      "guang1xu4": 10455,
      "zhong1jian1": 10456,
      "an1hui1": 10457,
      "ling3xiu4": 10458,
      "zhuang1zhi4": 10459,
      "shi2xing2": 10460,
      "zhuan1jia1": 10461,
      "you2ji1": 10462,
      "pei4he2": 10463,
      "CD": 10464,
      "liang3nian2": 10465,
      "shang4shu1": 10466,
      "cun1zhuang1": 10467,
      "ku1": 10468,
      "shen2jing1": 10469,
      "71": 10470,
      "pen1": 10471,
      "ya2li4": 10472,
      "sun3shi1": 10473,
      "xiong1ya2li4": 10474,
      "gong1ju4": 10475,
      "chang2shi4": 10476,
      "ying1xiong2": 10477,
      "hun4he2": 10478,
      "Mar": 10479,
      "ke4li3": 10480,
      "fu4mu3": 10481,
      "jiang4di1": 10482,
      "guang3dong1sheng3": 10483,
      "63": 10484,
      "si1fa3": 10485,
      "tu3er3qi2": 10486,
      "zheng3ti3": 10487,
      "ti2dao4": 10488,
      "wen2xian4": 10489,
      "la1fu1": 10490,
      "zhi1zhong1": 10491,
      "an4zhao4": 10492,
      "kui4": 10493,
      "yuan4zhang3": 10494,
      "ye1": 10495,
      "fa1shou4": 10496,
      "kai1tong1": 10497,
      "xiao4guo3": 10498,
      "yi4ren2": 10499,
      "zheng4zhuang4": 10500,
      "si1ren2": 10501,
      "chuang4jian4": 10502,
      "ren2da4": 10503,
      "zhu4zhai2": 10504,
      "jiao4xue2": 10505,
      "jiao4shi1": 10506,
      "zhong4da4": 10507,
      "geng4jia1": 10508,
      "qia4": 10509,
      "ju2zhang3": 10510,
      "shang4wu3": 10511,
      "bu4man3": 10512,
      "jiu3long2": 10513,
      "dong1ji4": 10514,
      "feng1xian3": 10515,
      "guang3xi1": 10516,
      "mei3shu4": 10517,
      "wu3han4": 10518,
      "lie4biao3": 10519,
      "180": 10520,
      "zhe2xue2": 10521,
      "she4hui4zhu3yi4": 10522,
      "ren4zhi2": 10523,
      "wan3shang4": 10524,
      "guan1bi4": 10525,
      "fan4zui4": 10526,
      "xiang1bi3": 10527,
      "xue2hui4": 10528,
      "ke": 10529,
      "1979": 10530,
      "jing1yan4": 10531,
      "hui2ying4": 10532,
      "kuo4da4": 10533,
      "jian3dan1": 10534,
      "der": 10535,
      "xi1zang4": 10536,
      "san3": 10537,
      "xing2xiang4": 10538,
      "bei4po4": 10539,
      "quan3": 10540,
      "jia1ren2": 10541,
      "yu3zhou4": 10542,
      "gu3dai4": 10543,
      "gu4wen4": 10544,
      "zhuan1men2": 10545,
      "zhuang1jia3": 10546,
      "sa4ke4": 10547,
      "73": 10548,
      "wan4li4": 10549,
      "zheng4chang2": 10550,
      "san1jiao3": 10551,
      "shou1gou4": 10552,
      "cheng2ben3": 10553,
      "shi4jie4bei1": 10554,
      "74": 10555,
      "bo2lin2": 10556,
      "zhong3zu2": 10557,
      "jia4shi3": 10558,
      "ju4ti3": 10559,
      "cai2neng2": 10560,
      "piao4fang2": 10561,
      "You": 10562,
      "ying1chi3": 10563,
      "nu4": 10564,
      "guo2jia1dui4": 10565,
      "zhong1gong4zhong1yang1": 10566,
      "zhou1nian2": 10567,
      "xi4ju4": 10568,
      "ang": 10569,
      "qian2long2": 10570,
      "shu1ru4": 10571,
      "xia4jiang4": 10572,
      "zhai1": 10573,
      "qing3qiu2": 10574,
      "er2cheng2": 10575,
      "si4shi2": 10576,
      "kai1she4": 10577,
      "fu2he2": 10578,
      "gao1yu2": 10579,
      "nuo2": 10580,
      "gao1su4gong1lu4": 10581,
      "95": 10582,
      "bing4ru4": 10583,
      "huan4zhe3": 10584,
      "Mo": 10585,
      "bu4er3": 10586,
      "shi1fan4": 10587,
      "zhan4shi4": 10588,
      "zuo4qu3": 10589,
      "1978": 10590,
      "tui4yi4": 10591,
      "zi1jin1": 10592,
      "jian3jie4": 10593,
      "shi4yin1wei4": 10594,
      "gai3shan4": 10595,
      "fu4gai4": 10596,
      "xiang4zheng1": 10597,
      "hai3dao4": 10598,
      "zhuan3yi2": 10599,
      "mian4dui4": 10600,
      "ma1": 10601,
      "ji2shi3": 10602,
      "lou4": 10603,
      "fu1ren2": 10604,
      "lv3xing2": 10605,
      "tui4chu1": 10606,
      "can1mou2": 10607,
      "yuan2gong1": 10608,
      "ao4yun4hui4": 10609,
      "ji1zhi4": 10610,
      "ly": 10611,
      "cha1yi4": 10612,
      "bao3cun2": 10613,
      "yuan2shi3": 10614,
      "shi4wei1": 10615,
      "hei1se4": 10616,
      "ruan3jian4": 10617,
      "OS": 10618,
      "ze2ren4": 10619,
      "bian4de2": 10620,
      "jiao4wei2": 10621,
      "zhan4lve4": 10622,
      "wei1ji1": 10623,
      "yi4mei3yuan2": 10624,
      "she4ying3": 10625,
      "sang4": 10626,
      "kuang2": 10627,
      "he2cheng2": 10628,
      "chang2du4": 10629,
      "qu2": 10630,
      "ai1er3": 10631,
      "dui4xiang4": 10632,
      "yi1qie4": 10633,
      "ya4li4shan1": 10634,
      "mi4mi4": 10635,
      "fu2qi2yu2": 10636,
      "qi3yuan2": 10637,
      "xian1sheng1": 10638,
      "tai4kong1": 10639,
      "ci3ci4": 10640,
      "shuo4shi4": 10641,
      "hen3kuai4": 10642,
      "yun4zuo4": 10643,
      "hen3da4": 10644,
      "ts": 10645,
      "cong1": 10646,
      "qing2bao4": 10647,
      "ju3ren2": 10648,
      "dong1bei3bu4": 10649,
      "tong1che1": 10650,
      "xun2hui2": 10651,
      "da4zhi4": 10652,
      "wen1du4": 10653,
      "man3zu2": 10654,
      "dong4zuo4": 10655,
      "tw": 10656,
      "mei3jun1": 10657,
      "ming2yi4": 10658,
      "gou3": 10659,
      "yi1fen4": 10660,
      "ke2": 10661,
      "yi2chan3": 10662,
      "zhi3dao3": 10663,
      "bu4bing1": 10664,
      "zhou1wei2": 10665,
      "er2yan2": 10666,
      "hua2sheng4": 10667,
      "1946": 10668,
      "Al": 10669,
      "di4ba1": 10670,
      "zhan4tai2": 10671,
      "gu4ding4": 10672,
      "hai3xia2": 10673,
      "si1ta3": 10674,
      "zhong1guo2ren2min2jie3fang4jun1": 10675,
      "dui4ying4": 10676,
      "gong4he2": 10677,
      "zhong1yu2": 10678,
      "hua2ren2": 10679,
      "xiu1gai3": 10680,
      "nian2ling2": 10681,
      "jing1li3": 10682,
      "xing3": 10683,
      "lie4ru4": 10684,
      "lan2qiu2": 10685,
      "1920": 10686,
      "ma3ke4": 10687,
      "yuan2ze2": 10688,
      "huang2hou4": 10689,
      "ling3dao3ren2": 10690,
      "fang2yu4": 10691,
      "tai2bei3shi4": 10692,
      "dui4ci3": 10693,
      "yu4ji4": 10694,
      "ction": 10695,
      "hua2sheng4dun4": 10696,
      "85": 10697,
      "dan1mai4": 10698,
      "cu4jin4": 10699,
      "man": 10700,
      "zai4yu2": 10701,
      "ma3la1": 10702,
      "seng1": 10703,
      "da4xiao3": 10704,
      "zhuang1bei4": 10705,
      "ji1qi4": 10706,
      "dai4biao3da4hui4": 10707,
      "lao2dong4": 10708,
      "Le": 10709,
      "sa4er3": 10710,
      "1981": 10711,
      "1958": 10712,
      "guan1ce4": 10713,
      "da4sha4": 10714,
      "1940": 10715,
      "jia1qiang2": 10716,
      "su1ge2lan2": 10717,
      "zhong4duo1": 10718,
      "lin2jin4": 10719,
      "jia4ge2": 10720,
      "yong4zuo4": 10721,
      "gui4zu2": 10722,
      "juan4": 10723,
      "gong1ying4": 10724,
      "fu4nv3": 10725,
      "dai4li3": 10726,
      "duo3": 10727,
      "da4qiao2": 10728,
      "89": 10729,
      "CO": 10730,
      "ed": 10731,
      "bei3jing1shi4": 10732,
      "shi4yan4": 10733,
      "zhao4pian1": 10734,
      "bu4la1": 10735,
      "tui4xiu1": 10736,
      "Sh": 10737,
      "shen1du4": 10738,
      "shuo1ming2": 10739,
      "shang4hai3shi4": 10740,
      "bian1ju4": 10741,
      "chu1yan3": 10742,
      "di4tu2": 10743,
      "zhen1zheng4": 10744,
      "yuan2ming2": 10745,
      "cuo4wu4": 10746,
      "bei3fang1": 10747,
      "yuan1": 10748,
      "qi3yi4": 10749,
      "kang4ri4": 10750,
      "ban4shi4": 10751,
      "yan2se4": 10752,
      "AR": 10753,
      "shi4nei4": 10754,
      "zhi1zi": 10755,
      "1948": 10756,
      "she4ding4": 10757,
      "dai4you3": 10758,
[...]
