{
  "version": "1.0",
  "truncation": null,
  "padding": null,
  "added_tokens": [
    {
      "id": 0,
      "content": "[UNK]",
      "single_word": false,
      "lstrip": false,
      "rstrip": false,
      "normalized": false,
      "special": true
    },
    {
      "id": 1,
      "content": "[PAD]",
      "single_word": false,
      "lstrip": false,
      "rstrip": false,
      "normalized": false,
      "special": true
    },
    {
      "id": 2,
      "content": "[CLS]",
      "single_word": false,
      "lstrip": false,
      "rstrip": false,
      "normalized": false,
      "special": true
    },
    {
      "id": 3,
      "content": "[SEP]",
      "single_word": false,
      "lstrip": false,
      "rstrip": false,
      "normalized": false,
      "special": true
    }
  ],
  "normalizer": null,
  "pre_tokenizer": {
    "type": "Whitespace"
  },
  "post_processor": null,
  "decoder": null,
  "model": {
    "type": "BPE",
    "dropout": null,
    "unk_token": null,
    "continuing_subword_prefix": null,
    "end_of_word_suffix": null,
    "fuse_unk": false,
    "byte_fallback": false,
    "ignore_merges": false,
    "vocab": {
      "[UNK]": 0,
      "[PAD]": 1,
      "[CLS]": 2,
      "[SEP]": 3,
      "!": 4,
      "\"": 5,
      "#": 6,
      "$": 7,
      "%": 8,
      "&": 9,
      "'": 10,
      "(": 11,
      ")": 12,
      "*": 13,
      "+": 14,
      ",": 15,
      "-": 16,
      ".": 17,
      "/": 18,
      "0": 19,
      "1": 20,
      "2": 21,
      "3": 22,
      "4": 23,
      "5": 24,
      "6": 25,
      "7": 26,
      "8": 27,
      "9": 28,
      ":": 29,
      ";": 30,
      "=": 31,
      "?": 32,
      "@": 33,
      "A": 34,
      "B": 35,
      "C": 36,
      "D": 37,
      "E": 38,
      "F": 39,
      "G": 40,
      "H": 41,
      "I": 42,
      "J": 43,
      "K": 44,
      "L": 45,
      "M": 46,
      "N": 47,
      "O": 48,
      "P": 49,
      "Q": 50,
      "R": 51,
      "S": 52,
      "T": 53,
      "U": 54,
      "V": 55,
      "W": 56,
      "X": 57,
      "Y": 58,
      "Z": 59,
      "[": 60,
      "\\": 61,
      "]": 62,
      "^": 63,
      "_": 64,
      "`": 65,
      "a": 66,
      "b": 67,
      "c": 68,
      "d": 69,
      "e": 70,
      "f": 71,
      "g": 72,
      "h": 73,
      "i": 74,
      "j": 75,
      "k": 76,
      "l": 77,
      "m": 78,
      "n": 79,
      "o": 80,
      "p": 81,
      "q": 82,
      "r": 83,
      "s": 84,
      "t": 85,
      "u": 86,
      "v": 87,
      "w": 88,
      "x": 89,
      "y": 90,
      "z": 91,
      "|": 92,
      "~": 93,
      "": 94,
      "": 95,
      "": 96,
      "": 97,
      "": 98,
      "": 99,
      "": 100,
      "": 101,
      "": 102,
      "¡": 103,
      "¢": 104,
      "£": 105,
      "¤": 106,
      "¥": 107,
      "¦": 108,
      "§": 109,
      "¨": 110,
      "©": 111,
      "ª": 112,
      "«": 113,
      "¬": 114,
      "­": 115,
      "®": 116,
      "¯": 117,
      "°": 118,
      "±": 119,
      "²": 120,
      "³": 121,
      "´": 122,
      "µ": 123,
      "¶": 124,
      "·": 125,
      "¸": 126,
      "¹": 127,
      "º": 128,
      "»": 129,
      "¼": 130,
      "½": 131,
      "¾": 132,
      "¿": 133,
      "À": 134,
      "Á": 135,
      "Â": 136,
      "Ã": 137,
      "Ä": 138,
      "Å": 139,
      "Æ": 140,
      "Ç": 141,
      "È": 142,
      "É": 143,
      "Ê": 144,
      "Ë": 145,
      "Ì": 146,
      "Í": 147,
      "Î": 148,
      "Ï": 149,
      "Ð": 150,
      "Ñ": 151,
      "Ò": 152,
      "Ó": 153,
      "Ô": 154,
      "Õ": 155,
      "Ö": 156,
      "×": 157,
      "Ø": 158,
      "Ù": 159,
      "Ú": 160,
      "Û": 161,
      "Ü": 162,
      "Ý": 163,
      "Þ": 164,
      "ß": 165,
      "à": 166,
      "á": 167,
      "â": 168,
      "ã": 169,
      "ä": 170,
      "å": 171,
      "æ": 172,
      "ç": 173,
      "è": 174,
      "é": 175,
      "ê": 176,
      "ë": 177,
      "ì": 178,
      "í": 179,
      "î": 180,
      "ï": 181,
      "ð": 182,
      "ñ": 183,
      "ò": 184,
      "ó": 185,
      "ô": 186,
      "õ": 187,
      "ö": 188,
      "÷": 189,
      "ø": 190,
      "ù": 191,
      "ú": 192,
      "û": 193,
      "ü": 194,
      "ý": 195,
      "þ": 196,
      "ÿ": 197,
      "Ā": 198,
      "ā": 199,
      "Ă": 200,
      "ă": 201,
      "Ą": 202,
      "ą": 203,
      "Ć": 204,
      "ć": 205,
      "Ĉ": 206,
      "ĉ": 207,
      "Ċ": 208,
      "ċ": 209,
      "Č": 210,
      "č": 211,
      "Ď": 212,
      "ď": 213,
      "Đ": 214,
      "đ": 215,
      "Ē": 216,
      "ē": 217,
      "Ĕ": 218,
      "ĕ": 219,
      "Ė": 220,
      "ė": 221,
      "Ę": 222,
      "ę": 223,
      "Ě": 224,
      "ě": 225,
      "Ĝ": 226,
      "ĝ": 227,
      "Ğ": 228,
      "ğ": 229,
      "Ġ": 230,
      "ġ": 231,
      "Ģ": 232,
      "ģ": 233,
      "Ĥ": 234,
      "ĥ": 235,
      "Ħ": 236,
      "ħ": 237,
      "Ĩ": 238,
      "ĩ": 239,
      "Ī": 240,
      "ī": 241,
      "Ĭ": 242,
      "ĭ": 243,
      "Į": 244,
      "į": 245,
      "İ": 246,
      "ı": 247,
      "Ĳ": 248,
      "ĳ": 249,
      "Ĵ": 250,
      "ĵ": 251,
      "Ķ": 252,
      "ķ": 253,
      "ĸ": 254,
      "Ĺ": 255,
      "ĺ": 256,
      "Ļ": 257,
      "ļ": 258,
      "Ľ": 259,
      "ľ": 260,
      "Ŀ": 261,
      "ŀ": 262,
      "Ł": 263,
      "ł": 264,
      "Ń": 265,
      "ń": 266,
      "Ņ": 267,
      "ņ": 268,
      "Ň": 269,
      "ň": 270,
      "ŉ": 271,
      "Ŋ": 272,
      "ŋ": 273,
      "Ō": 274,
      "ō": 275,
      "Ŏ": 276,
      "ŏ": 277,
      "Ő": 278,
      "ő": 279,
      "Œ": 280,
      "œ": 281,
      "Ŕ": 282,
      "ŕ": 283,
      "Ŗ": 284,
      "ŗ": 285,
      "Ř": 286,
      "ř": 287,
      "Ś": 288,
      "ś": 289,
      "Ŝ": 290,
      "ŝ": 291,
      "Ş": 292,
      "ş": 293,
      "Š": 294,
      "š": 295,
      "Ţ": 296,
      "ţ": 297,
      "Ť": 298,
      "ť": 299,
      "Ŧ": 300,
      "ŧ": 301,
      "Ũ": 302,
      "ũ": 303,
      "Ū": 304,
      "ū": 305,
      "Ŭ": 306,
      "ŭ": 307,
      "Ů": 308,
      "ů": 309,
      "Ű": 310,
      "ű": 311,
      "Ų": 312,
      "ų": 313,
      "Ŵ": 314,
      "ŵ": 315,
      "Ŷ": 316,
      "ŷ": 317,
      "Ÿ": 318,
      "Ź": 319,
      "ź": 320,
      "Ż": 321,
      "ż": 322,
      "Ž": 323,
      "ž": 324,
      "ſ": 325,
      "ƀ": 326,
      "Ɓ": 327,
      "Ƃ": 328,
      "ƃ": 329,
      "Ƅ": 330,
      "ƅ": 331,
      "Ɔ": 332,
      "Ƈ": 333,
      "ƈ": 334,
      "Ɖ": 335,
      "Ɗ": 336,
      "Ƌ": 337,
      "ƌ": 338,
      "ƍ": 339,
      "Ǝ": 340,
      "Ə": 341,
      "Ɛ": 342,
      "Ƒ": 343,
      "ƒ": 344,
      "Ɠ": 345,
      "Ɣ": 346,
      "ƕ": 347,
      "Ɩ": 348,
      "Ɨ": 349,
      "Ƙ": 350,
      "ƙ": 351,
      "ƚ": 352,
      "ƛ": 353,
      "Ɯ": 354,
      "Ɲ": 355,
      "ƞ": 356,
      "Ɵ": 357,
      "Ơ": 358,
      "ơ": 359,
      "Ƣ": 360,
      "ƣ": 361,
      "Ƥ": 362,
      "ƥ": 363,
      "Ʀ": 364,
      "Ƨ": 365,
      "ƨ": 366,
      "Ʃ": 367,
      "ƪ": 368,
      "ƫ": 369,
      "Ƭ": 370,
      "ƭ": 371,
      "Ʈ": 372,
      "Ư": 373,
      "ư": 374,
      "Ʊ": 375,
      "Ʋ": 376,
      "Ƴ": 377,
      "ƴ": 378,
      "Ƶ": 379,
      "ƶ": 380,
      "Ʒ": 381,
      "Ƹ": 382,
      "ƹ": 383,
      "ƺ": 384,
      "ƻ": 385,
      "Ƽ": 386,
      "ƽ": 387,
      "ƾ": 388,
      "ƿ": 389,
      "ǀ": 390,
      "ǁ": 391,
      "ǂ": 392,
      "ǃ": 393,
      "Ǆ": 394,
      "ǅ": 395,
      "ǆ": 396,
      "Ǉ": 397,
      "ǈ": 398,
      "ǉ": 399,
      "Ǌ": 400,
      "ǋ": 401,
      "ǌ": 402,
      "Ǎ": 403,
      "ǎ": 404,
      "Ǐ": 405,
      "ǐ": 406,
      "Ǒ": 407,
      "ǒ": 408,
      "Ǔ": 409,
      "ǔ": 410,
      "Ǖ": 411,
      "ǖ": 412,
      "Ǘ": 413,
      "ǘ": 414,
      "Ǚ": 415,
      "ǚ": 416,
      "Ǜ": 417,
      "ǜ": 418,
      "ǝ": 419,
      "Ǟ": 420,
      "ǟ": 421,
      "Ǡ": 422,
      "ǡ": 423,
      "Ǣ": 424,
      "ǣ": 425,
      "Ǥ": 426,
      "ǥ": 427,
      "Ǧ": 428,
      "ǧ": 429,
      "Ǩ": 430,
      "ǩ": 431,
      "Ǫ": 432,
      "ǫ": 433,
      "Ǭ": 434,
      "ǭ": 435,
      "Ǯ": 436,
      "ǯ": 437,
      "ǰ": 438,
      "ǲ": 439,
      "Ǵ": 440,
      "ǵ": 441,
      "Ƕ": 442,
      "Ƿ": 443,
      "Ǹ": 444,
      "ǹ": 445,
      "Ǻ": 446,
      "ǻ": 447,
      "Ǽ": 448,
      "ǽ": 449,
      "Ǿ": 450,
      "ǿ": 451,
      "Ȁ": 452,
      "ȁ": 453,
      "Ȃ": 454,
      "ȃ": 455,
      "Ȅ": 456,
      "ȅ": 457,
      "Ȇ": 458,
      "ȇ": 459,
      "Ȉ": 460,
      "ȉ": 461,
      "Ȋ": 462,
      "ȋ": 463,
      "Ȍ": 464,
      "ȍ": 465,
      "Ȏ": 466,
      "ȏ": 467,
      "Ȑ": 468,
      "ȑ": 469,
      "Ȓ": 470,
      "ȓ": 471,
      "Ȕ": 472,
      "ȕ": 473,
      "Ȗ": 474,
      "ȗ": 475,
      "Ș": 476,
      "ș": 477,
      "Ț": 478,
      "ț": 479,
      "Ȝ": 480,
      "ȝ": 481,
      "Ȟ": 482,
      "ȟ": 483,
      "Ƞ": 484,
      "ȡ": 485,
      "Ȣ": 486,
      "ȣ": 487,
      "Ȥ": 488,
      "ȥ": 489,
      "Ȧ": 490,
      "ȧ": 491,
      "Ȩ": 492,
      "ȩ": 493,
      "Ȫ": 494,
      "ȫ": 495,
      "Ȭ": 496,
      "ȭ": 497,
      "Ȯ": 498,
      "ȯ": 499,
      "Ȱ": 500,
      "ȱ": 501,
      "Ȳ": 502,
      "ȳ": 503,
      "ȴ": 504,
      "ȵ": 505,
      "ȶ": 506,
      "ȷ": 507,
      "ȸ": 508,
      "ȹ": 509,
      "Ⱥ": 510,
      "Ȼ": 511,
      "ȼ": 512,
      "Ƚ": 513,
      "Ⱦ": 514,
      "ȿ": 515,
      "ɀ": 516,
      "Ɂ": 517,
      "ɂ": 518,
      "Ƀ": 519,
      "Ʉ": 520,
      "Ʌ": 521,
      "Ɇ": 522,
      "ɇ": 523,
      "Ɉ": 524,
      "ɉ": 525,
      "Ɋ": 526,
      "ɋ": 527,
      "Ɍ": 528,
      "ɍ": 529,
      "Ɏ": 530,
      "ɏ": 531,
      "ɐ": 532,
      "ɑ": 533,
      "ɒ": 534,
      "ɓ": 535,
      "ɔ": 536,
      "ɕ": 537,
      "ɖ": 538,
      "ɗ": 539,
      "ɘ": 540,
      "ə": 541,
      "ɚ": 542,
      "ɛ": 543,
      "ɜ": 544,
      "ɝ": 545,
      "ɞ": 546,
      "ɟ": 547,
      "ɠ": 548,
      "ɡ": 549,
      "ɢ": 550,
      "ɣ": 551,
      "ɤ": 552,
      "ɥ": 553,
      "ɦ": 554,
      "ɧ": 555,
      "ɨ": 556,
      "ɩ": 557,
      "ɪ": 558,
      "ɫ": 559,
      "ɬ": 560,
      "ɭ": 561,
      "ɮ": 562,
      "ɯ": 563,
      "ɰ": 564,
      "ɱ": 565,
      "ɲ": 566,
      "ɳ": 567,
      "ɴ": 568,
      "ɵ": 569,
      "ɶ": 570,
      "ɷ": 571,
      "ɸ": 572,
      "ɹ": 573,
      "ɺ": 574,
      "ɻ": 575,
      "ɼ": 576,
      "ɽ": 577,
      "ɾ": 578,
      "ɿ": 579,
      "ʀ": 580,
      "ʁ": 581,
      "ʂ": 582,
      "ʃ": 583,
      "ʄ": 584,
      "ʅ": 585,
      "ʆ": 586,
      "ʇ": 587,
      "ʈ": 588,
      "ʉ": 589,
      "ʊ": 590,
      "ʋ": 591,
      "ʌ": 592,
      "ʍ": 593,
      "ʎ": 594,
      "ʏ": 595,
      "ʐ": 596,
      "ʑ": 597,
      "ʒ": 598,
      "ʓ": 599,
      "ʔ": 600,
      "ʕ": 601,
      "ʖ": 602,
      "ʗ": 603,
      "ʘ": 604,
      "ʙ": 605,
      "ʚ": 606,
      "ʛ": 607,
      "ʜ": 608,
      "ʝ": 609,
      "ʞ": 610,
      "ʟ": 611,
      "ʠ": 612,
      "ʡ": 613,
      "ʢ": 614,
      "ʣ": 615,
      "ʤ": 616,
      "ʥ": 617,
      "ʦ": 618,
      "ʧ": 619,
      "ʨ": 620,
      "ʩ": 621,
      "ʪ": 622,
      "ʫ": 623,
      "ʮ": 624,
      "ʯ": 625,
      "ʰ": 626,
      "ʱ": 627,
      "ʲ": 628,
      "ʴ": 629,
      "ʶ": 630,
      "ʷ": 631,
      "ʸ": 632,
      "ʹ": 633,
      "ʺ": 634,
      "ʻ": 635,
      "ʼ": 636,
      "ʽ": 637,
      "ʾ": 638,
      "ʿ": 639,
      "ˀ": 640,
      "ˁ": 641,
      "ˆ": 642,
      "ˇ": 643,
      "ˈ": 644,
      "ˉ": 645,
      "ˊ": 646,
      "ˋ": 647,
      "ˌ": 648,
      "ˍ": 649,
      "ˎ": 650,
      "ˏ": 651,
      "ː": 652,
      "ˑ": 653,
      "˘": 654,
      "˙": 655,
      "˚": 656,
      "˜": 657,
      "˝": 658,
      "˞": 659,
      "ˠ": 660,
      "ˡ": 661,
      "ˢ": 662,
      "ˤ": 663,
      "˥": 664,
      "˦": 665,
      "˧": 666,
      "˨": 667,
      "˩": 668,
      "˪": 669,
      "˫": 670,
      "˭": 671,
      "̀": 672,
      "́": 673,
      "̂": 674,
      "̃": 675,
      "̄": 676,
      "̅": 677,
      "̆": 678,
      "̇": 679,
      "̈": 680,
      "̊": 681,
      "̋": 682,
      "̌": 683,
      "̍": 684,
      "̐": 685,
      "̑": 686,
      "̓": 687,
      "̕": 688,
      "̚": 689,
      "̜": 690,
      "̝": 691,
      "̞": 692,
      "̟": 693,
      "̠": 694,
      "̡": 695,
      "̢": 696,
      "̣": 697,
      "̤": 698,
      "̥": 699,
      "̧": 700,
      "̨": 701,
      "̩": 702,
      "̪": 703,
      "̬": 704,
      "̮": 705,
      "̯": 706,
      "̰": 707,
      "̱": 708,
      "̲": 709,
      "̴": 710,
      "̵": 711,
      "̶": 712,
      "̷": 713,
      "̺": 714,
      "̻": 715,
      "̼": 716,
      "̽": 717,
      "͂": 718,
      "͇": 719,
      "͈": 720,
      "͗": 721,
      "͘": 722,
      "͟": 723,
      "͠": 724,
      "͡": 725,
      "ͤ": 726,
      "Ͱ": 727,
      "ͱ": 728,
      "Ͳ": 729,
      "ͳ": 730,
      "͵": 731,
      "΄": 732,
      "Ά": 733,
      "Έ": 734,
      "Ή": 735,
      "Ί": 736,
      "Ό": 737,
      "Ύ": 738,
      "ΐ": 739,
      "Α": 740,
      "Β": 741,
      "Γ": 742,
      "Δ": 743,
      "Ε": 744,
      "Ζ": 745,
      "Η": 746,
      "Θ": 747,
      "Ι": 748,
      "Κ": 749,
      "Λ": 750,
      "Μ": 751,
      "Ν": 752,
      "Ξ": 753,
      "Ο": 754,
      "Π": 755,
      "Ρ": 756,
      "Σ": 757,
      "Τ": 758,
      "Υ": 759,
      "Φ": 760,
      "Χ": 761,
      "Ψ": 762,
      "Ω": 763,
      "Ϊ": 764,
      "ά": 765,
      "έ": 766,
      "ή": 767,
      "ί": 768,
      "ΰ": 769,
      "α": 770,
      "β": 771,
      "γ": 772,
      "δ": 773,
      "ε": 774,
      "ζ": 775,
      "η": 776,
      "θ": 777,
      "ι": 778,
      "κ": 779,
      "λ": 780,
      "μ": 781,
      "ν": 782,
      "ξ": 783,
      "ο": 784,
      "π": 785,
      "ρ": 786,
      "ς": 787,
      "σ": 788,
      "τ": 789,
      "υ": 790,
      "φ": 791,
      "χ": 792,
      "ψ": 793,
      "ω": 794,
      "ϊ": 795,
      "ϋ": 796,
      "ό": 797,
      "ύ": 798,
      "ώ": 799,
      "ϐ": 800,
      "ϑ": 801,
      "ϒ": 802,
      "ϕ": 803,
      "ϖ": 804,
      "Ϙ": 805,
      "ϙ": 806,
      "Ϛ": 807,
      "ϛ": 808,
      "Ϝ": 809,
      "ϝ": 810,
      "Ϟ": 811,
      "ϟ": 812,
      "Ϡ": 813,
      "ϡ": 814,
      "Ϣ": 815,
      "ϣ": 816,
      "ϩ": 817,
      "ϫ": 818,
      "ϯ": 819,
      "ϰ": 820,
      "ϵ": 821,
      "Ϸ": 822,
      "ϸ": 823,
      "Ϲ": 824,
      "Ϻ": 825,
      "Ѐ": 826,
      "Ё": 827,
      "Ђ": 828,
      "Є": 829,
      "Ѕ": 830,
      "І": 831,
      "Ї": 832,
      "Ј": 833,
      "Љ": 834,
      "Њ": 835,
      "Ћ": 836,
      "Ќ": 837,
      "Ў": 838,
      "Џ": 839,
      "А": 840,
      "Б": 841,
      "В": 842,
      "Г": 843,
      "Д": 844,
      "Е": 845,
      "Ж": 846,
      "З": 847,
      "И": 848,
      "Й": 849,
      "К": 850,
      "Л": 851,
      "М": 852,
      "Н": 853,
      "О": 854,
      "П": 855,
      "Р": 856,
      "С": 857,
      "Т": 858,
      "У": 859,
      "Ф": 860,
      "Х": 861,
      "Ц": 862,
      "Ч": 863,
      "Ш": 864,
      "Щ": 865,
      "Ъ": 866,
      "Ы": 867,
      "Ь": 868,
      "Э": 869,
      "Ю": 870,
      "Я": 871,
      "а": 872,
      "б": 873,
      "в": 874,
      "г": 875,
      "д": 876,
      "е": 877,
      "ж": 878,
      "з": 879,
      "и": 880,
      "й": 881,
      "к": 882,
      "л": 883,
      "м": 884,
      "н": 885,
      "о": 886,
      "п": 887,
      "р": 888,
      "с": 889,
      "т": 890,
      "у": 891,
      "ф": 892,
      "х": 893,
      "ц": 894,
      "ч": 895,
      "ш": 896,
      "щ": 897,
      "ъ": 898,
      "ы": 899,
      "ь": 900,
      "э": 901,
      "ю": 902,
      "я": 903,
      "ѐ": 904,
      "ё": 905,
      "ђ": 906,
      "ѓ": 907,
      "є": 908,
      "ѕ": 909,
      "і": 910,
      "ї": 911,
      "ј": 912,
      "љ": 913,
      "њ": 914,
      "ћ": 915,
      "ќ": 916,
      "ў": 917,
      "џ": 918,
      "Ѡ": 919,
      "ѡ": 920,
      "Ѣ": 921,
      "ѣ": 922,
      "Ѥ": 923,
      "ѥ": 924,
      "Ѧ": 925,
      "ѧ": 926,
      "ѩ": 927,
      "Ѫ": 928,
      "ѫ": 929,
      "Ѯ": 930,
      "ѯ": 931,
      "Ѱ": 932,
      "Ѳ": 933,
      "ѳ": 934,
      "Ѵ": 935,
      "ѵ": 936,
      "Ѷ": 937,
      "ѷ": 938,
      "Ѹ": 939,
      "ѹ": 940,
      "Ѻ": 941,
      "ѻ": 942,
      "Ѽ": 943,
      "ѽ": 944,
      "Ѿ": 945,
      "ѿ": 946,
      "Ҁ": 947,
      "҅": 948,
      "҉": 949,
      "Ҋ": 950,
      "ҋ": 951,
      "Ҍ": 952,
      "ҍ": 953,
      "Ҏ": 954,
      "ҏ": 955,
      "Ґ": 956,
      "ґ": 957,
      "Ғ": 958,
      "ғ": 959,
      "Ҕ": 960,
      "ҕ": 961,
      "Җ": 962,
      "җ": 963,
      "Ҙ": 964,
      "ҙ": 965,
      "Қ": 966,
      "қ": 967,
      "Ҝ": 968,
      "ҝ": 969,
      "Ҟ": 970,
      "ҟ": 971,
      "Ҡ": 972,
      "ҡ": 973,
      "Ң": 974,
      "ң": 975,
      "Ҥ": 976,
      "ҥ": 977,
      "Ҧ": 978,
      "ҧ": 979,
      "Ҩ": 980,
      "ҩ": 981,
      "Ҫ": 982,
      "ҫ": 983,
      "Ҭ": 984,
      "ҭ": 985,
      "Ү": 986,
      "ү": 987,
      "Ұ": 988,
      "ұ": 989,
      "Ҳ": 990,
      "ҳ": 991,
      "Ҵ": 992,
      "ҵ": 993,
      "Ҷ": 994,
      "ҷ": 995,
      "Ҹ": 996,
      "ҹ": 997,
      "Һ": 998,
      "һ": 999,
      "Ҽ": 1000,
      "ҽ": 1001,
      "Ҿ": 1002,
      "ҿ": 1003,
      "Ӏ": 1004,
      "Ӂ": 1005,
      "ӂ": 1006,
      "Ӄ": 1007,
      "ӄ": 1008,
      "Ӆ": 1009,
      "ӆ": 1010,
      "Ӈ": 1011,
      "ӈ": 1012,
      "Ӊ": 1013,
      "ӊ": 1014,
      "Ӌ": 1015,
      "ӌ": 1016,
      "Ӎ": 1017,
      "ӎ": 1018,
      "ӏ": 1019,
      "Ӑ": 1020,
      "ӑ": 1021,
      "Ӓ": 1022,
      "ӓ": 1023,
      "Ӕ": 1024,
      "ӕ": 1025,
      "Ӗ": 1026,
      "ӗ": 1027,
      "Ә": 1028,
      "ә": 1029,
      "Ӛ": 1030,
      "ӛ": 1031,
      "Ӝ": 1032,
      "ӝ": 1033,
      "Ӟ": 1034,
      "ӟ": 1035,
      "Ӡ": 1036,
      "ӡ": 1037,
      "Ӣ": 1038,
      "ӣ": 1039,
      "Ӥ": 1040,
      "ӥ": 1041,
      "Ӧ": 1042,
      "ӧ": 1043,
      "Ө": 1044,
      "ө": 1045,
      "Ӭ": 1046,
      "ӭ": 1047,
      "Ӯ": 1048,
      "ӯ": 1049,
      "Ӱ": 1050,
      "ӱ": 1051,
      "Ӳ": 1052,
      "ӳ": 1053,
      "Ӵ": 1054,
      "ӵ": 1055,
      "Ӷ": 1056,
      "ӷ": 1057,
      "ӹ": 1058,
      "Ӽ": 1059,
      "ӽ": 1060,
      "Ӿ": 1061,
      "ӿ": 1062,
      "ԁ": 1063,
      "Ԃ": 1064,
      "ԃ": 1065,
      "ԅ": 1066,
      "ԇ": 1067,
      "ԉ": 1068,
      "Ԋ": 1069,
      "ԋ": 1070,
      "Ԍ": 1071,
      "ԍ": 1072,
      "ԏ": 1073,
      "Ԑ": 1074,
      "ԑ": 1075,
      "Ԓ": 1076,
      "ԓ": 1077,
      "Ԕ": 1078,
      "ԕ": 1079,
      "Ԗ": 1080,
      "ԗ": 1081,
      "Ԙ": 1082,
      "ԙ": 1083,
      "Ԛ": 1084,
      "ԛ": 1085,
      "Ԝ": 1086,
      "ԝ": 1087,
      "Ԟ": 1088,
      "ԟ": 1089,
      "Ԡ": 1090,
      "ԡ": 1091,
      "Ԣ": 1092,
      "ԣ": 1093,
      "Ԥ": 1094,
      "ԥ": 1095,
      "Ԩ": 1096,
      "ԩ": 1097,
      "Ԫ": 1098,
      "ԫ": 1099,
      "Ԭ": 1100,
      "ԭ": 1101,
      "Ԯ": 1102,
      "ԯ": 1103,
      "Ա": 1104,
      "Բ": 1105,
      "Գ": 1106,
      "Դ": 1107,
      "Ե": 1108,
      "Զ": 1109,
      "Է": 1110,
      "Թ": 1111,
      "Ժ": 1112,
      "Լ": 1113,
      "Խ": 1114,
      "Ծ": 1115,
      "Կ": 1116,
      "Հ": 1117,
      "Ղ": 1118,
      "Մ": 1119,
      "Յ": 1120,
      "Ն": 1121,
      "Շ": 1122,
      "Ո": 1123,
      "Պ": 1124,
      "Ջ": 1125,
      "Ռ": 1126,
      "Ս": 1127,
      "Վ": 1128,
      "Տ": 1129,
      "Ց": 1130,
      "Ւ": 1131,
      "Ք": 1132,
      "Օ": 1133,
      "Ֆ": 1134,
      "՛": 1135,
      "ա": 1136,
      "բ": 1137,
      "գ": 1138,
      "դ": 1139,
      "ե": 1140,
      "զ": 1141,
      "է": 1142,
      "ը": 1143,
      "թ": 1144,
      "ժ": 1145,
      "ի": 1146,
      "լ": 1147,
      "խ": 1148,
      "ծ": 1149,
      "կ": 1150,
      "հ": 1151,
      "ձ": 1152,
      "ղ": 1153,
      "մ": 1154,
      "յ": 1155,
      "ն": 1156,
      "շ": 1157,
      "ո": 1158,
      "չ": 1159,
      "պ": 1160,
      "ջ": 1161,
      "ռ": 1162,
      "ս": 1163,
      "վ": 1164,
      "տ": 1165,
      "ր": 1166,
      "ց": 1167,
      "ւ": 1168,
      "ք": 1169,
      "օ": 1170,
      "ֆ": 1171,
      "և": 1172,
      "֏": 1173,
      "֑": 1174,
      "֔": 1175,
      "֗": 1176,
      "֜": 1177,
      "֣": 1178,
      "֥": 1179,
      "֪": 1180,
      "֫": 1181,
      "ְ": 1182,
      "ֱ": 1183,
      "ֲ": 1184,
      "ֳ": 1185,
      "ִ": 1186,
      "ֵ": 1187,
      "ֶ": 1188,
      "ַ": 1189,
      "ָ": 1190,
      "ֹ": 1191,
      "ֻ": 1192,
      "ּ": 1193,
      "־": 1194,
      "ֿ": 1195,
      "׀": 1196,
      "ׁ": 1197,
      "ׂ": 1198,
      "א": 1199,
      "ב": 1200,
      "ג": 1201,
      "ד": 1202,
      "ה": 1203,
      "ו": 1204,
      "ז": 1205,
      "ח": 1206,
      "ט": 1207,
      "י": 1208,
      "ך": 1209,
      "כ": 1210,
      "ל": 1211,
      "ם": 1212,
      "מ": 1213,
      "ן": 1214,
      "נ": 1215,
      "ס": 1216,
      "ע": 1217,
      "ף": 1218,
      "פ": 1219,
      "ץ": 1220,
      "צ": 1221,
      "ק": 1222,
      "ר": 1223,
      "ש": 1224,
      "ת": 1225,
      "װ": 1226,
      "ױ": 1227,
      "ײ": 1228,
      "׳": 1229,
      "״": 1230,
      "،": 1231,
      "؟": 1232,
      "ء": 1233,
      "آ": 1234,
      "أ": 1235,
      "ؤ": 1236,
      "إ": 1237,
      "ئ": 1238,
      "ا": 1239,
      "ب": 1240,
      "ة": 1241,
      "ت": 1242,
      "ث": 1243,
      "ج": 1244,
      "ح": 1245,
      "خ": 1246,
      "د": 1247,
      "ذ": 1248,
      "ر": 1249,
      "ز": 1250,
      "س": 1251,
      "ش": 1252,
      "ص": 1253,
      "ض": 1254,
      "ط": 1255,
      "ظ": 1256,
      "ع": 1257,
      "غ": 1258,
      "ـ": 1259,
      "ف": 1260,
      "ق": 1261,
      "ك": 1262,
      "ل": 1263,
      "م": 1264,
      "ن": 1265,
      "ه": 1266,
      "و": 1267,
      "ى": 1268,
      "ي": 1269,
      "ً": 1270,
      "ٌ": 1271,
      "ٍ": 1272,
      "َ": 1273,
      "ُ": 1274,
      "ِ": 1275,
      "ّ": 1276,
      "ْ": 1277,
      "ٔ": 1278,
      "٘": 1279,
      "٠": 1280,
      "١": 1281,
      "٩": 1282,
      "٫": 1283,
      "ٰ": 1284,
      "ٱ": 1285,
      "ٹ": 1286,
      "ٺ": 1287,
      "ټ": 1288,
      "ٽ": 1289,
      "پ": 1290,
      "ٿ": 1291,
      "ڄ": 1292,
      "چ": 1293,
      "ڈ": 1294,
      "ڊ": 1295,
      "ڏ": 1296,
      "ڑ": 1297,
      "ړ": 1298,
      "ڕ": 1299,
      "ږ": 1300,
      "ژ": 1301,
      "ڙ": 1302,
      "ڜ": 1303,
      "ڠ": 1304,
      "ڢ": 1305,
      "ڤ": 1306,
      "ڨ": 1307,
      "ک": 1308,
      "ڪ": 1309,
      "ګ": 1310,
      "ڬ": 1311,
      "ڭ": 1312,
      "گ": 1313,
      "ڴ": 1314,
      "ڵ": 1315,
      "ں": 1316,
      "ڻ": 1317,
      "ھ": 1318,
      "ہ": 1319,
      "ۂ": 1320,
      "ۆ": 1321,
      "ۇ": 1322,
      "ۈ": 1323,
      "ۉ": 1324,
      "ۋ": 1325,
      "ی": 1326,
      "ێ": 1327,
      "ې": 1328,
      "ے": 1329,
      "ە": 1330,
      "۝": 1331,
      "۩": 1332,
      "۰": 1333,
      "۱": 1334,
      "۲": 1335,
      "۳": 1336,
      "۴": 1337,
      "۵": 1338,
      "۶": 1339,
      "۷": 1340,
      "۸": 1341,
      "۹": 1342,
      "ܐ": 1343,
      "ܒ": 1344,
      "ܓ": 1345,
      "ܕ": 1346,
      "ܗ": 1347,
      "ܘ": 1348,
      "ܙ": 1349,
      "ܚ": 1350,
      "ܛ": 1351,
      "ܝ": 1352,
      "ܟ": 1353,
      "ܠ": 1354,
      "ܡ": 1355,
      "ܢ": 1356,
      "ܣ": 1357,
      "ܥ": 1358,
      "ܦ": 1359,
      "ܨ": 1360,
      "ܩ": 1361,
      "ܪ": 1362,
      "ܫ": 1363,
      "ܬ": 1364,
      "ܲ": 1365,
      "ܳ": 1366,
      "ܵ": 1367,
      "ܸ": 1368,
      "ܼ": 1369,
      "ܽ": 1370,
      "݂": 1371,
      "ݢ": 1372,
      "ݣ": 1373,
      "ހ": 1374,
      "ނ": 1375,
      "ރ": 1376,
      "ކ": 1377,
      "އ": 1378,
      "މ": 1379,
      "ދ": 1380,
      "ތ": 1381,
      "ލ": 1382,
      "ގ": 1383,
      "ޏ": 1384,
      "ސ": 1385,
      "ޑ": 1386,
      "ޔ": 1387,
      "ޖ": 1388,
      "ޝ": 1389,
      "ަ": 1390,
      "ާ": 1391,
      "ި": 1392,
      "ީ": 1393,
      "ު": 1394,
      "ޫ": 1395,
      "ެ": 1396,
      "ޭ": 1397,
      "ް": 1398,
      "ޱ": 1399,
      "ߊ": 1400,
      "ߋ": 1401,
      "ߌ": 1402,
      "ߍ": 1403,
      "ߎ": 1404,
      "ߏ": 1405,
      "ߓ": 1406,
      "ߕ": 1407,
      "ߖ": 1408,
      "ߘ": 1409,
      "ߙ": 1410,
      "ߜ": 1411,
      "ߝ": 1412,
      "ߞ": 1413,
      "ߟ": 1414,
      "ߡ": 1415,
      "ߣ": 1416,
      "ߦ": 1417,
      "߫": 1418,
      "߬": 1419,
      "߲": 1420,
      "ࡀ": 1421,
      "ࡁ": 1422,
      "ࡄ": 1423,
      "ࡅ": 1424,
      "ࡉ": 1425,
      "ࡌ": 1426,
      "ࡍ": 1427,
      "ࡑ": 1428,
      "ँ": 1429,
      "ं": 1430,
      "ः": 1431,
      "अ": 1432,
      "आ": 1433,
      "इ": 1434,
      "ई": 1435,
      "उ": 1436,
      "ऊ": 1437,
      "ऋ": 1438,
      "ए": 1439,
      "ऐ": 1440,
      "ऑ": 1441,
      "ओ": 1442,
      "क": 1443,
      "ख": 1444,
      "ग": 1445,
      "घ": 1446,
      "ङ": 1447,
      "च": 1448,
      "छ": 1449,
      "ज": 1450,
      "झ": 1451,
      "ञ": 1452,
      "ट": 1453,
      "ठ": 1454,
      "ड": 1455,
      "ढ": 1456,
      "ण": 1457,
      "त": 1458,
      "थ": 1459,
      "द": 1460,
      "ध": 1461,
      "न": 1462,
      "प": 1463,
      "फ": 1464,
      "ब": 1465,
      "भ": 1466,
      "म": 1467,
      "य": 1468,
      "र": 1469,
      "ऱ": 1470,
      "ल": 1471,
      "ळ": 1472,
      "व": 1473,
      "श": 1474,
      "ष": 1475,
      "स": 1476,
      "ह": 1477,
      "़": 1478,
      "ऽ": 1479,
      "ा": 1480,
      "ि": 1481,
      "ी": 1482,
      "ु": 1483,
      "ू": 1484,
      "ृ": 1485,
      "े": 1486,
      "ै": 1487,
      "ॉ": 1488,
      "ो": 1489,
      "ौ": 1490,
      "्": 1491,
      "ॐ": 1492,
      "॒": 1493,
      "ॡ": 1494,
      "।": 1495,
      "॥": 1496,
      "०": 1497,
      "५": 1498,
      "९": 1499,
      "॰": 1500,
      "ঁ": 1501,
      "ং": 1502,
      "ঃ": 1503,
      "অ": 1504,
      "আ": 1505,
      "ই": 1506,
      "উ": 1507,
      "ঊ": 1508,
      "এ": 1509,
      "ও": 1510,
      "ক": 1511,
      "খ": 1512,
      "গ": 1513,
      "ঘ": 1514,
      "ঙ": 1515,
      "চ": 1516,
      "ছ": 1517,
      "জ": 1518,
      "ঝ": 1519,
      "ঞ": 1520,
      "ট": 1521,
      "ঠ": 1522,
      "ড": 1523,
      "ণ": 1524,
      "ত": 1525,
      "থ": 1526,
      "দ": 1527,
      "ধ": 1528,
      "ন": 1529,
      "প": 1530,
      "ফ": 1531,
      "ব": 1532,
      "ভ": 1533,
      "ম": 1534,
      "য": 1535,
      "র": 1536,
      "ল": 1537,
      "শ": 1538,
      "ষ": 1539,
      "স": 1540,
      "হ": 1541,
      "়": 1542,
      "া": 1543,
      "ি": 1544,
      "ী": 1545,
      "ু": 1546,
      "ূ": 1547,
      "ৃ": 1548,
      "ে": 1549,
      "ৈ": 1550,
      "ো": 1551,
      "ৌ": 1552,
      "্": 1553,
      "ৎ": 1554,
      "১": 1555,
      "২": 1556,
      "৩": 1557,
      "৪": 1558,
      "৫": 1559,
      "৬": 1560,
      "৭": 1561,
      "ৰ": 1562,
      "ৱ": 1563,
      "৲": 1564,
      "৳": 1565,
      "৷": 1566,
      "৹": 1567,
      "ਂ": 1568,
      "ਃ": 1569,
      "ਅ": 1570,
      "ਆ": 1571,
      "ਉ": 1572,
      "ਊ": 1573,
      "ਓ": 1574,
      "ਕ": 1575,
      "ਖ": 1576,
      "ਗ": 1577,
      "ਘ": 1578,
      "ਜ": 1579,
      "ਝ": 1580,
      "ਟ": 1581,
      "ਣ": 1582,
      "ਤ": 1583,
      "ਥ": 1584,
      "ਦ": 1585,
      "ਧ": 1586,
      "ਨ": 1587,
      "ਪ": 1588,
      "ਬ": 1589,
      "ਭ": 1590,
      "ਮ": 1591,
      "ਰ": 1592,
      "ਲ": 1593,
      "ਵ": 1594,
      "ਸ": 1595,
      "ਹ": 1596,
      "਼": 1597,
      "ਾ": 1598,
      "ਿ": 1599,
      "ੀ": 1600,
      "ੁ": 1601,
      "ੂ": 1602,
      "ੇ": 1603,
      "ੋ": 1604,
      "੍": 1605,
      "ੜ": 1606,
      "ੰ": 1607,
      "ੱ": 1608,
      "ੲ": 1609,
      "ੳ": 1610,
      "ੴ": 1611,
      "ઁ": 1612,
      "ગ": 1613,
      "જ": 1614,
      "ટ": 1615,
      "ડ": 1616,
      "ત": 1617,
      "દ": 1618,
      "ન": 1619,
      "પ": 1620,
      "મ": 1621,
      "ય": 1622,
      "ર": 1623,
      "સ": 1624,
      "હ": 1625,
      "ા": 1626,
      "િ": 1627,
      "ી": 1628,
      "ુ": 1629,
      "ૂ": 1630,
      "ૃ": 1631,
      "ે": 1632,
      "ો": 1633,
      "્": 1634,
      "૱": 1635,
      "ଁ": 1636,
      "ଂ": 1637,
      "କ": 1638,
      "ଗ": 1639,
      "ଙ": 1640,
      "ଡ": 1641,
      "ନ": 1642,
      "ବ": 1643,
      "ମ": 1644,
      "ର": 1645,
      "ଲ": 1646,
      "ଵ": 1647,
      "ଶ": 1648,
      "ସ": 1649,
      "଼": 1650,
      "ା": 1651,
      "ି": 1652,
      "ୁ": 1653,
      "େ": 1654,
      "୍": 1655,
      "୨": 1656,
      "ஃ": 1657,
      "அ": 1658,
      "ஆ": 1659,
      "இ": 1660,
      "ஈ": 1661,
      "உ": 1662,
      "எ": 1663,
      "ஏ": 1664,
      "ஐ": 1665,
      "ஒ": 1666,
      "க": 1667,
      "ங": 1668,
      "ச": 1669,
      "ஜ": 1670,
      "ஞ": 1671,
      "ட": 1672,
      "ண": 1673,
      "த": 1674,
      "ந": 1675,
      "ன": 1676,
      "ப": 1677,
      "ம": 1678,
      "ய": 1679,
      "ர": 1680,
      "ற": 1681,
      "ல": 1682,
      "ள": 1683,
      "ழ": 1684,
      "வ": 1685,
      "ஷ": 1686,
      "ஸ": 1687,
      "ா": 1688,
      "ி": 1689,
      "ீ": 1690,
      "ு": 1691,
      "ூ": 1692,
      "ெ": 1693,
      "ே": 1694,
      "ை": 1695,
      "ொ": 1696,
      "ோ": 1697,
      "்": 1698,
      "ఁ": 1699,
      "ం": 1700,
      "ః": 1701,
      "ఆ": 1702,
      "ఇ": 1703,
      "ఐ": 1704,
      "ఔ": 1705,
      "క": 1706,
      "ఖ": 1707,
      "గ": 1708,
      "జ": 1709,
      "ట": 1710,
      "డ": 1711,
      "ణ": 1712,
      "త": 1713,
      "ధ": 1714,
      "న": 1715,
      "ప": 1716,
      "బ": 1717,
      "మ": 1718,
      "య": 1719,
      "ర": 1720,
      "ల": 1721,
      "వ": 1722,
      "శ": 1723,
      "స": 1724,
      "హ": 1725,
      "ా": 1726,
      "ి": 1727,
      "ీ": 1728,
      "ు": 1729,
      "ూ": 1730,
      "ృ": 1731,
      "ౄ": 1732,
      "ె": 1733,
      "ే": 1734,
      "ై": 1735,
      "ొ": 1736,
      "ో": 1737,
      "ౌ": 1738,
      "్": 1739,
      "ಂ": 1740,
      "ಇ": 1741,
      "ಕ": 1742,
      "ಖ": 1743,
      "ಗ": 1744,
      "ಘ": 1745,
      "ಙ": 1746,
      "ಚ": 1747,
      "ಛ": 1748,
      "ಜ": 1749,
      "ಝ": 1750,
      "ಞ": 1751,
      "ಟ": 1752,
      "ಠ": 1753,
      "ಡ": 1754,
      "ಢ": 1755,
      "ಣ": 1756,
      "ತ": 1757,
      "ಥ": 1758,
      "ದ": 1759,
      "ಧ": 1760,
      "ನ": 1761,
      "ಪ": 1762,
      "ಫ": 1763,
      "ಬ": 1764,
      "ಭ": 1765,
      "ಮ": 1766,
      "ಯ": 1767,
      "ರ": 1768,
      "ಲ": 1769,
      "ಳ": 1770,
      "ವ": 1771,
      "ಶ": 1772,
      "ಷ": 1773,
      "ಸ": 1774,
      "ಹ": 1775,
      "ಾ": 1776,
      "ಿ": 1777,
      "ೀ": 1778,
      "ು": 1779,
      "ೂ": 1780,
      "ೆ": 1781,
      "ೇ": 1782,
      "ೊ": 1783,
      "ೋ": 1784,
      "್": 1785,
      "೦": 1786,
      "೧": 1787,
      "೨": 1788,
      "೩": 1789,
      "೪": 1790,
      "೫": 1791,
      "೬": 1792,
      "೭": 1793,
      "೮": 1794,
      "೯": 1795,
      "ം": 1796,
      "അ": 1797,
      "ഇ": 1798,
      "എ": 1799,
      "ക": 1800,
      "ഗ": 1801,
      "ങ": 1802,
      "ച": 1803,
      "ട": 1804,
      "ഡ": 1805,
      "ണ": 1806,
      "ന": 1807,
      "പ": 1808,
      "ബ": 1809,
      "മ": 1810,
      "യ": 1811,
      "ര": 1812,
      "റ": 1813,
      "ല": 1814,
      "ള": 1815,
      "വ": 1816,
      "ഹ": 1817,
      "ാ": 1818,
      "ി": 1819,
      "ു": 1820,
      "െ": 1821,
      "േ": 1822,
      "ോ": 1823,
      "്": 1824,
      "ൻ": 1825,
      "ർ": 1826,
      "ං": 1827,
      "අ": 1828,
      "ඇ": 1829,
      "ඉ": 1830,
      "එ": 1831,
      "ඓ": 1832,
      "ඔ": 1833,
      "ක": 1834,
      "ග": 1835,
      "ච": 1836,
      "ජ": 1837,
      "ට": 1838,
      "ඩ": 1839,
      "ත": 1840,
      "ථ": 1841,
      "ද": 1842,
      "ධ": 1843,
      "න": 1844,
      "ප": 1845,
      "බ": 1846,
      "ම": 1847,
      "ය": 1848,
      "ර": 1849,
      "ල": 1850,
      "ව": 1851,
      "ශ": 1852,
      "ෂ": 1853,
      "ස": 1854,
      "හ": 1855,
      "්": 1856,
      "ා": 1857,
      "ි": 1858,
      "ී": 1859,
      "ු": 1860,
      "ෙ": 1861,
      "ේ": 1862,
      "ෝ": 1863,
      "ก": 1864,
      "ข": 1865,
      "ค": 1866,
      "ฅ": 1867,
      "ฆ": 1868,
      "ง": 1869,
      "จ": 1870,
      "ฉ": 1871,
      "ช": 1872,
      "ซ": 1873,
      "ฌ": 1874,
      "ญ": 1875,
      "ฎ": 1876,
      "ฏ": 1877,
      "ฐ": 1878,
      "ฑ": 1879,
      "ฒ": 1880,
      "ณ": 1881,
      "ด": 1882,
      "ต": 1883,
      "ถ": 1884,
      "ท": 1885,
      "ธ": 1886,
      "น": 1887,
      "บ": 1888,
      "ป": 1889,
      "ผ": 1890,
      "ฝ": 1891,
      "พ": 1892,
      "ฟ": 1893,
      "ภ": 1894,
      "ม": 1895,
      "ย": 1896,
      "ร": 1897,
      "ฤ": 1898,
      "ล": 1899,
      "ฦ": 1900,
      "ว": 1901,
      "ศ": 1902,
      "ษ": 1903,
      "ส": 1904,
      "ห": 1905,
      "ฬ": 1906,
      "อ": 1907,
      "ฮ": 1908,
      "ฯ": 1909,
      "ะ": 1910,
      "ั": 1911,
      "า": 1912,
      "ำ": 1913,
      "ิ": 1914,
      "ี": 1915,
      "ึ": 1916,
      "ื": 1917,
      "ุ": 1918,
      "ู": 1919,
      "ฺ": 1920,
      "฿": 1921,
      "เ": 1922,
      "แ": 1923,
      "โ": 1924,
      "ใ": 1925,
      "ไ": 1926,
      "ๅ": 1927,
      "ๆ": 1928,
      "็": 1929,
      "่": 1930,
      "้": 1931,
      "๊": 1932,
      "๋": 1933,
      "์": 1934,
      "ํ": 1935,
      "๎": 1936,
      "๑": 1937,
      "๓": 1938,
      "๕": 1939,
      "๘": 1940,
      "๚": 1941,
      "ກ": 1942,
      "ຂ": 1943,
      "ຄ": 1944,
      "ງ": 1945,
      "ຈ": 1946,
      "ຊ": 1947,
      "ຍ": 1948,
      "ດ": 1949,
      "ຕ": 1950,
      "ຖ": 1951,
      "ທ": 1952,
      "ນ": 1953,
      "ບ": 1954,
      "ປ": 1955,
      "ຜ": 1956,
      "ພ": 1957,
      "ຟ": 1958,
      "ມ": 1959,
      "ຢ": 1960,
      "ຣ": 1961,
      "ລ": 1962,
      "ວ": 1963,
      "ສ": 1964,
      "ຫ": 1965,
      "ອ": 1966,
      "ຮ": 1967,
      "ະ": 1968,
      "ັ": 1969,
      "າ": 1970,
      "ຳ": 1971,
      "ິ": 1972,
      "ີ": 1973,
      "ື": 1974,
      "ຸ": 1975,
      "ູ": 1976,
      "ົ": 1977,
      "ຼ": 1978,
      "ຽ": 1979,
      "ເ": 1980,
      "ແ": 1981,
      "ໂ": 1982,
      "ໃ": 1983,
      "ໄ": 1984,
      "່": 1985,
      "້": 1986,
      "ໍ": 1987,
      "ໜ": 1988,
      "ༀ": 1989,
      "་": 1990,
      "།": 1991,
      "༔": 1992,
      "༼": 1993,
      "༽": 1994,
      "ཀ": 1995,
      "ཁ": 1996,
      "ག": 1997,
      "ང": 1998,
      "ཅ": 1999,
      "ཆ": 2000,
      "ཇ": 2001,
      "ཉ": 2002,
      "ཊ": 2003,
      "ཏ": 2004,
      "ཐ": 2005,
      "ད": 2006,
      "ན": 2007,
      "པ": 2008,
      "ཕ": 2009,
      "བ": 2010,
      "མ": 2011,
      "ཙ": 2012,
      "ཚ": 2013,
      "ཛ": 2014,
      "ཝ": 2015,
      "ཞ": 2016,
      "ཟ": 2017,
      "འ": 2018,
      "ཡ": 2019,
      "ར": 2020,
      "ལ": 2021,
      "ཤ": 2022,
      "ས": 2023,
      "ཧ": 2024,
      "ཨ": 2025,
      "ཱ": 2026,
      "ི": 2027,
      "ུ": 2028,
      "ེ": 2029,
      "ོ": 2030,
      "ཽ": 2031,
      "ཾ": 2032,
      "ཿ": 2033,
      "ྀ": 2034,
      "ྃ": 2035,
      "ྐ": 2036,
      "ྒ": 2037,
      "ྔ": 2038,
      "ྕ": 2039,
      "ྗ": 2040,
      "ྙ": 2041,
      "ྟ": 2042,
      "ྡ": 2043,
      "ྣ": 2044,
      "ྤ": 2045,
      "ྦ": 2046,
      "ྨ": 2047,
      "ྩ": 2048,
      "ྫ": 2049,
      "ྭ": 2050,
      "ྱ": 2051,
      "ྲ": 2052,
      "ླ": 2053,
      "ྶ": 2054,
      "ྷ": 2055,
      "࿇": 2056,
      "က": 2057,
      "ခ": 2058,
      "ဂ": 2059,
      "င": 2060,
      "စ": 2061,
      "ဆ": 2062,
      "ဇ": 2063,
      "ည": 2064,
      "ဍ": 2065,
      "ဏ": 2066,
      "တ": 2067,
      "ထ": 2068,
      "ဒ": 2069,
      "ဓ": 2070,
      "န": 2071,
      "ပ": 2072,
      "ဖ": 2073,
      "ဗ": 2074,
      "ဘ": 2075,
      "မ": 2076,
      "ယ": 2077,
      "ရ": 2078,
      "လ": 2079,
      "ဝ": 2080,
      "သ": 2081,
      "ဟ": 2082,
      "အ": 2083,
      "ဦ": 2084,
      "ဧ": 2085,
      "ါ": 2086,
      "ာ": 2087,
      "ိ": 2088,
      "ီ": 2089,
      "ု": 2090,
      "ူ": 2091,
      "ေ": 2092,
      "ဲ": 2093,
      "ဳ": 2094,
      "ံ": 2095,
      "့": 2096,
      "း": 2097,
      "္": 2098,
      "်": 2099,
      "ျ": 2100,
      "ြ": 2101,
      "ွ": 2102,
      "ှ": 2103,
      "၀": 2104,
      "၁": 2105,
      "၇": 2106,
      "ၜ": 2107,
      "ၢ": 2108,
      "ၤ": 2109,
      "ၵ": 2110,
      "ၿ": 2111,
      "ႁ": 2112,
      "ႂ": 2113,
      "ႄ": 2114,
      "ႆ": 2115,
      "ႇ": 2116,
      "ႏ": 2117,
      "Ⴀ": 2118,
      "Ⴄ": 2119,
      "Ⴇ": 2120,
      "Ⴈ": 2121,
      "Ⴊ": 2122,
      "Ⴌ": 2123,
      "Ⴍ": 2124,
      "Ⴐ": 2125,
      "Ⴕ": 2126,
      "Ⴢ": 2127,
      "Ⴣ": 2128,
      "ა": 2129,
      "ბ": 2130,
      "გ": 2131,
      "დ": 2132,
      "ე": 2133,
      "ვ": 2134,
      "ზ": 2135,
      "თ": 2136,
      "ი": 2137,
      "კ": 2138,
      "ლ": 2139,
      "მ": 2140,
      "ნ": 2141,
      "ო": 2142,
      "პ": 2143,
      "ჟ": 2144,
      "რ": 2145,
      "ს": 2146,
      "ტ": 2147,
      "უ": 2148,
      "ფ": 2149,
      "ქ": 2150,
      "ღ": 2151,
      "ყ": 2152,
      "შ": 2153,
      "ჩ": 2154,
      "ც": 2155,
      "ძ": 2156,
      "წ": 2157,
      "ჭ": 2158,
      "ხ": 2159,
      "ჯ": 2160,
      "ᄅ": 2161,
      "ᄇ": 2162,
      "ᄉ": 2163,
      "ᄋ": 2164,
      "ᄒ": 2165,
      "ᄽ": 2166,
      "ᄿ": 2167,
      "ᅎ": 2168,
      "ᅏ": 2169,
      "ᅐ": 2170,
      "ᅑ": 2171,
      "ᅔ": 2172,
      "ᅕ": 2173,
      "ᅲ": 2174,
      "ᆞ": 2175,
      "ሄ": 2176,
      "ህ": 2177,
      "ለ": 2178,
      "ላ": 2179,
      "ሌ": 2180,
      "ል": 2181,
      "ሐ": 2182,
      "ሒ": 2183,
      "ሓ": 2184,
      "ሕ": 2185,
      "መ": 2186,
      "ማ": 2187,
      "ሜ": 2188,
      "ም": 2189,
      "ሠ": 2190,
      "ሥ": 2191,
      "ረ": 2192,
      "ሩ": 2193,
      "ሪ": 2194,
      "ራ": 2195,
      "ሬ": 2196,
      "ር": 2197,
      "ሰ": 2198,
      "ሱ": 2199,
      "ሳ": 2200,
      "ስ": 2201,
      "ሷ": 2202,
      "ሽ": 2203,
      "ቃ": 2204,
      "ቅ": 2205,
      "በ": 2206,
      "ቡ": 2207,
      "ባ": 2208,
      "ብ": 2209,
      "ቪ": 2210,
      "ተ": 2211,
      "ቲ": 2212,
      "ታ": 2213,
      "ት": 2214,
      "ቷ": 2215,
      "ች": 2216,
      "ኅ": 2217,
      "ነ": 2218,
      "ና": 2219,
      "ን": 2220,
      "ኛ": 2221,
      "ኝ": 2222,
      "አ": 2223,
      "ኢ": 2224,
      "ኣ": 2225,
      "ኤ": 2226,
      "እ": 2227,
      "ከ": 2228,
      "ክ": 2229,
      "ወ": 2230,
      "ዊ": 2231,
      "ዋ": 2232,
      "ው": 2233,
      "ዎ": 2234,
      "ዕ": 2235,
      "ዘ": 2236,
      "ዜ": 2237,
      "ዝ": 2238,
      "ዥ": 2239,
      "የ": 2240,
      "ያ": 2241,
      "ዬ": 2242,
      "ይ": 2243,
      "ዮ": 2244,
      "ደ": 2245,
      "ዳ": 2246,
      "ዴ": 2247,
      "ድ": 2248,
      "ዶ": 2249,
      "ጀ": 2250,
      "ጁ": 2251,
      "ገ": 2252,
      "ጉ": 2253,
      "ጊ": 2254,
      "ጋ": 2255,
      "ግ": 2256,
      "ጠ": 2257,
      "ጣ": 2258,
      "ጥ": 2259,
      "ጵ": 2260,
      "ጸ": 2261,
      "ፀ": 2262,
      "ፊ": 2263,
      "ፋ": 2264,
      "ፍ": 2265,
      "Ꭱ": 2266,
      "Ꭹ": 2267,
      "Ꭺ": 2268,
      "Ꭿ": 2269,
      "Ꮃ": 2270,
      "Ꮄ": 2271,
      "Ꮅ": 2272,
      "Ꮕ": 2273,
      "Ꮖ": 2274,
      "Ꮗ": 2275,
      "Ꮜ": 2276,
      "Ꮣ": 2277,
      "Ꮧ": 2278,
      "Ꮩ": 2279,
      "Ꮳ": 2280,
      "Ꮷ": 2281,
      "Ꮹ": 2282,
      "Ꮻ": 2283,
      "Ꮿ": 2284,
      "Ᏽ": 2285,
      "ᐃ": 2286,
      "ᐄ": 2287,
      "ᐅ": 2288,
      "ᐊ": 2289,
      "ᐋ": 2290,
      "ᐍ": 2291,
      "ᐏ": 2292,
      "ᐑ": 2293,
      "ᐚ": 2294,
      "ᐟ": 2295,
      "ᐢ": 2296,
      "ᐣ": 2297,
      "ᐤ": 2298,
      "ᐦ": 2299,
      "ᐧ": 2300,
      "ᐯ": 2301,
      "ᐱ": 2302,
      "ᐸ": 2303,
      "ᐺ": 2304,
      "ᑎ": 2305,
      "ᑐ": 2306,
      "ᑑ": 2307,
      "ᑕ": 2308,
      "ᑖ": 2309,
      "ᑦ": 2310,
      "ᑫ": 2311,
      "ᑭ": 2312,
      "ᑮ": 2313,
      "ᑯ": 2314,
      "ᑲ": 2315,
      "ᑿ": 2316,
      "ᒃ": 2317,
      "ᒋ": 2318,
      "ᒌ": 2319,
      "ᒡ": 2320,
      "ᒣ": 2321,
      "ᒥ": 2322,
      "ᒧ": 2323,
      "ᒨ": 2324,
      "ᒪ": 2325,
      "ᒻ": 2326,
      "ᓀ": 2327,
      "ᓂ": 2328,
      "ᓄ": 2329,
      "ᓇ": 2330,
      "ᓈ": 2331,
      "ᓐ": 2332,
      "ᓕ": 2333,
      "ᓗ": 2334,
      "ᓛ": 2335,
      "ᓯ": 2336,
      "ᓰ": 2337,
      "ᓱ": 2338,
      "ᓲ": 2339,
      "ᓴ": 2340,
      "ᓵ": 2341,
      "ᔅ": 2342,
      "ᔑ": 2343,
      "ᔪ": 2344,
      "ᔭ": 2345,
      "ᕆ": 2346,
      "ᕋ": 2347,
      "ᕐ": 2348,
      "ᕓ": 2349,
      "ᕕ": 2350,
      "ᕗ": 2351,
      "ᕙ": 2352,
      "ᕿ": 2353,
      "ᖃ": 2354,
      "ᖅ": 2355,
      "ᖓ": 2356,
      "ᖹ": 2357,
      "ᗅ": 2358,
      "ᗜ": 2359,
      "ᗷ": 2360,
      "ᗺ": 2361,
      "ᚢ": 2362,
      "ᚬ": 2363,
      "ᚱ": 2364,
      "ᚲ": 2365,
      "ᚷ": 2366,
      "ᚹ": 2367,
      "ᚼ": 2368,
      "ᛃ": 2369,
      "ᛅ": 2370,
      "ᛉ": 2371,
      "ᛊ": 2372,
      "ᛏ": 2373,
      "ᛒ": 2374,
      "ᛜ": 2375,
      "ᛦ": 2376,
      "ᜃ": 2377,
      "ᜋ": 2378,
      "ᜎ": 2379,
      "ᜑ": 2380,
      "ᜒ": 2381,
      "᜵": 2382,
      "᜶": 2383,
      "ᝃ": 2384,
      "ᝒ": 2385,
      "ក": 2386,
      "ខ": 2387,
      "គ": 2388,
      "ឃ": 2389,
      "ង": 2390,
      "ច": 2391,
      "ឆ": 2392,
      "ជ": 2393,
      "ឈ": 2394,
      "ញ": 2395,
      "ដ": 2396,
      "ឋ": 2397,
      "ណ": 2398,
      "ត": 2399,
      "ថ": 2400,
      "ទ": 2401,
      "ធ": 2402,
      "ន": 2403,
      "ប": 2404,
      "ព": 2405,
      "ភ": 2406,
      "ម": 2407,
      "យ": 2408,
      "រ": 2409,
      "ល": 2410,
      "វ": 2411,
      "ស": 2412,
      "ហ": 2413,
      "ឡ": 2414,
      "អ": 2415,
      "ឧ": 2416,
      "ឯ": 2417,
      "឴": 2418,
      "឵": 2419,
      "ា": 2420,
      "ិ": 2421,
      "ី": 2422,
      "ឹ": 2423,
      "ុ": 2424,
      "ូ": 2425,
      "ួ": 2426,
      "ើ": 2427,
      "ឿ": 2428,
      "ៀ": 2429,
      "េ": 2430,
      "ែ": 2431,
      "ៃ": 2432,
      "ោ": 2433,
      "ៅ": 2434,
      "ំ": 2435,
      "ះ": 2436,
      "ៈ": 2437,
      "៉": 2438,
      "៊": 2439,
      "់": 2440,
      "៍": 2441,
      "័": 2442,
      "៑": 2443,
      "្": 2444,
      "᠂": 2445,
      "᠋": 2446,
      "ᠠ": 2447,
      "ᠡ": 2448,
      "ᠢ": 2449,
      "ᠣ": 2450,
      "ᠥ": 2451,
      "ᠦ": 2452,
      "ᠨ": 2453,
      "ᠩ": 2454,
      "ᠪ": 2455,
      "ᠬ": 2456,
      "ᠭ": 2457,
      "ᠮ": 2458,
      "ᠯ": 2459,
      "ᠰ": 2460,
      "ᠴ": 2461,
      "ᠵ": 2462,
      "ᠶ": 2463,
      "ᠷ": 2464,
      "ᠸ": 2465,
      "ᡄ": 2466,
      "ᡉ": 2467,
      "ᡐ": 2468,
      "ᡝ": 2469,
      "ᡠ": 2470,
      "ᡤ": 2471,
      "ᡥ": 2472,
      "ᡨ": 2473,
      "ᡳ": 2474,
      "ᡴ": 2475,
      "ᡵ": 2476,
      "ᡶ": 2477,
      "ᤌ": 2478,
      "ᤕ": 2479,
      "ᤠ": 2480,
      "ᤢ": 2481,
      "ᤰ": 2482,
      "ᤱ": 2483,
      "ᥐ": 2484,
      "ᥑ": 2485,
      "ᥒ": 2486,
      "ᥓ": 2487,
      "ᥔ": 2488,
      "ᥕ": 2489,
      "ᥖ": 2490,
      "ᥗ": 2491,
      "ᥘ": 2492,
      "ᥙ": 2493,
      "ᥛ": 2494,
      "ᥜ": 2495,
      "ᥝ": 2496,
      "ᥞ": 2497,
      "ᥢ": 2498,
      "ᥣ": 2499,
      "ᥤ": 2500,
      "ᥥ": 2501,
      "ᥦ": 2502,
      "ᥧ": 2503,
      "ᥨ": 2504,
      "ᥩ": 2505,
      "ᥪ": 2506,
      "ᥫ": 2507,
      "ᥬ": 2508,
      "ᥭ": 2509,
      "ᥰ": 2510,
      "ᥱ": 2511,
      "ᥲ": 2512,
      "ᥳ": 2513,
      "ᥴ": 2514,
      "ᦂ": 2515,
      "ᦄ": 2516,
      "ᦉ": 2517,
      "ᦍ": 2518,
      "ᦑ": 2519,
      "ᦒ": 2520,
      "ᦓ": 2521,
      "ᦝ": 2522,
      "ᦞ": 2523,
      "ᦟ": 2524,
      "ᦠ": 2525,
      "ᦢ": 2526,
      "ᦰ": 2527,
      "ᦱ": 2528,
      "ᦲ": 2529,
      "ᦳ": 2530,
      "ᦴ": 2531,
      "ᦵ": 2532,
      "ᦶ": 2533,
      "ᦷ": 2534,
      "ᦸ": 2535,
      "ᦹ": 2536,
      "ᦺ": 2537,
      "ᧁ": 2538,
      "ᧂ": 2539,
      "ᧃ": 2540,
      "ᧄ": 2541,
      "ᧅ": 2542,
      "ᧆ": 2543,
      "ᧇ": 2544,
      "ᧈ": 2545,
      "ᧉ": 2546,
      "᧑": 2547,
      "᧚": 2548,
      "᧞": 2549,
      "᧟": 2550,
      "ᨀ": 2551,
      "ᨁ": 2552,
      "ᨄ": 2553,
      "ᨅ": 2554,
      "ᨆ": 2555,
      "ᨈ": 2556,
      "ᨉ": 2557,
      "ᨑ": 2558,
      "ᨒ": 2559,
      "ᨓ": 2560,
      "ᨔ": 2561,
      "ᨕ": 2562,
      "ᨘ": 2563,
      "ᨙ": 2564,
      "ᨚ": 2565,
      "ᨛ": 2566,
      "ᨠ": 2567,
      "ᨡ": 2568,
      "ᨣ": 2569,
      "ᨯ": 2570,
      "ᨰ": 2571,
      "ᨴ": 2572,
      "ᨵ": 2573,
      "ᨶ": 2574,
      "ᨿ": 2575,
      "ᩅ": 2576,
      "ᩖ": 2577,
      "᩠": 2578,
      "ᩣ": 2579,
      "ᩤ": 2580,
      "ᩨ": 2581,
      "ᩫ": 2582,
      "ᩮ": 2583,
      "ᩯ": 2584,
      "ᩰ": 2585,
      "ᩱ": 2586,
      "ᩲ": 2587,
      "᩵": 2588,
      "᩶": 2589,
      "᩻": 2590,
      "ᬂ": 2591,
      "ᬅ": 2592,
      "ᬑ": 2593,
      "ᬓ": 2594,
      "ᬚ": 2595,
      "ᬢ": 2596,
      "ᬦ": 2597,
      "ᬩ": 2598,
      "ᬫ": 2599,
      "ᬬ": 2600,
      "ᬭ": 2601,
      "ᬮ": 2602,
      "ᬳ": 2603,
      "ᬶ": 2604,
      "ᭂ": 2605,
      "᭄": 2606,
      "᭚": 2607,
      "᭡": 2608,
      "ᰀ": 2609,
      "ᰃ": 2610,
      "ᰄ": 2611,
      "ᰏ": 2612,
      "ᰕ": 2613,
      "ᰛ": 2614,
      "ᰜ": 2615,
      "ᰝ": 2616,
      "ᰠ": 2617,
      "ᰤ": 2618,
      "ᰥ": 2619,
      "ᰦ": 2620,
      "ᰧ": 2621,
      "ᰨ": 2622,
      "ᰩ": 2623,
      "ᰪ": 2624,
      "ᰫ": 2625,
      "ᰬ": 2626,
      "ᰭ": 2627,
      "ᰮ": 2628,
      "ᰲ": 2629,
      "ᰳ": 2630,
      "ᰶ": 2631,
      "᰷": 2632,
      "ᴀ": 2633,
      "ᴁ": 2634,
      "ᴂ": 2635,
      "ᴃ": 2636,
      "ᴄ": 2637,
      "ᴅ": 2638,
      "ᴆ": 2639,
      "ᴇ": 2640,
      "ᴈ": 2641,
      "ᴉ": 2642,
      "ᴊ": 2643,
      "ᴋ": 2644,
      "ᴌ": 2645,
      "ᴍ": 2646,
      "ᴏ": 2647,
      "ᴔ": 2648,
      "ᴗ": 2649,
      "ᴘ": 2650,
      "ᴙ": 2651,
      "ᴚ": 2652,
      "ᴛ": 2653,
      "ᴜ": 2654,
      "ᴝ": 2655,
      "ᴞ": 2656,
      "ᴟ": 2657,
      "ᴠ": 2658,
      "ᴢ": 2659,
      "ᴺ": 2660,
      "ᵀ": 2661,
      "ᵉ": 2662,
      "ᵋ": 2663,
      "ᵐ": 2664,
      "ᵑ": 2665,
      "ᵕ": 2666,
      "ᵘ": 2667,
      "ᵛ": 2668,
      "ᵝ": 2669,
      "ᵢ": 2670,
      "ᵧ": 2671,
      "ᵫ": 2672,
      "ᵬ": 2673,
      "ᵭ": 2674,
      "ᵮ": 2675,
      "ᵯ": 2676,
      "ᵰ": 2677,
      "ᵱ": 2678,
      "ᵲ": 2679,
      "ᵳ": 2680,
      "ᵴ": 2681,
      "ᵵ": 2682,
      "ᵶ": 2683,
      "ᵷ": 2684,
      "ᵹ": 2685,
      "ᵺ": 2686,
      "ᵻ": 2687,
      "ᵼ": 2688,
      "ᵽ": 2689,
      "ᵾ": 2690,
      "ᵿ": 2691,
      "ᶀ": 2692,
      "ᶂ": 2693,
      "ᶃ": 2694,
      "ᶄ": 2695,
      "ᶅ": 2696,
      "ᶆ": 2697,
      "ᶇ": 2698,
      "ᶈ": 2699,
      "ᶉ": 2700,
      "ᶊ": 2701,
      "ᶋ": 2702,
      "ᶌ": 2703,
      "ᶍ": 2704,
      "ᶎ": 2705,
      "ᶏ": 2706,
      "ᶐ": 2707,
      "ᶑ": 2708,
      "ᶒ": 2709,
      "ᶓ": 2710,
      "ᶔ": 2711,
      "ᶕ": 2712,
      "ᶖ": 2713,
      "ᶘ": 2714,
      "ᶙ": 2715,
      "ᶚ": 2716,
      "ᶦ": 2717,
      "ᶧ": 2718,
      "ᶫ": 2719,
      "ᶰ": 2720,
      "ᶱ": 2721,
      "ᶸ": 2722,
      "ᶻ": 2723,
      "᷆": 2724,
      "ᷛ": 2725,
      "ᷞ": 2726,
      "ᷟ": 2727,
      "ᷡ": 2728,
      "ᷢ": 2729,
      "Ḁ": 2730,
      "ḁ": 2731,
      "Ḃ": 2732,
      "ḃ": 2733,
      "Ḅ": 2734,
      "ḅ": 2735,
      "Ḇ": 2736,
      "ḇ": 2737,
      "Ḉ": 2738,
      "ḉ": 2739,
      "Ḋ": 2740,
      "ḋ": 2741,
      "Ḍ": 2742,
      "ḍ": 2743,
      "Ḏ": 2744,
      "ḏ": 2745,
      "Ḑ": 2746,
      "ḑ": 2747,
      "Ḓ": 2748,
      "ḓ": 2749,
      "Ḕ": 2750,
      "ḕ": 2751,
      "Ḗ": 2752,
      "ḗ": 2753,
      "Ḙ": 2754,
      "ḙ": 2755,
      "Ḛ": 2756,
      "ḛ": 2757,
      "Ḝ": 2758,
      "ḝ": 2759,
      "Ḟ": 2760,
      "ḟ": 2761,
      "Ḡ": 2762,
      "ḡ": 2763,
      "Ḣ": 2764,
      "ḣ": 2765,
      "Ḥ": 2766,
      "ḥ": 2767,
      "Ḧ": 2768,
      "ḧ": 2769,
      "Ḩ": 2770,
      "ḩ": 2771,
      "Ḫ": 2772,
      "ḫ": 2773,
      "Ḭ": 2774,
      "ḭ": 2775,
      "Ḯ": 2776,
      "ḯ": 2777,
      "Ḱ": 2778,
      "ḱ": 2779,
      "Ḳ": 2780,
      "ḳ": 2781,
      "Ḵ": 2782,
      "ḵ": 2783,
      "Ḷ": 2784,
      "ḷ": 2785,
      "Ḹ": 2786,
      "ḹ": 2787,
      "Ḻ": 2788,
      "ḻ": 2789,
      "Ḽ": 2790,
      "ḽ": 2791,
      "Ḿ": 2792,
      "ḿ": 2793,
      "Ṁ": 2794,
      "ṁ": 2795,
      "Ṃ": 2796,
      "ṃ": 2797,
      "Ṅ": 2798,
      "ṅ": 2799,
      "Ṇ": 2800,
      "ṇ": 2801,
      "Ṉ": 2802,
      "ṉ": 2803,
      "Ṋ": 2804,
      "ṋ": 2805,
      "Ṍ": 2806,
      "ṍ": 2807,
      "Ṏ": 2808,
      "ṏ": 2809,
      "Ṑ": 2810,
      "ṑ": 2811,
      "Ṓ": 2812,
      "ṓ": 2813,
      "Ṕ": 2814,
      "ṕ": 2815,
      "Ṗ": 2816,
      "ṗ": 2817,
      "Ṙ": 2818,
      "ṙ": 2819,
      "Ṛ": 2820,
      "ṛ": 2821,
      "Ṝ": 2822,
      "ṝ": 2823,
      "Ṟ": 2824,
      "ṟ": 2825,
      "Ṡ": 2826,
      "ṡ": 2827,
      "Ṣ": 2828,
      "ṣ": 2829,
      "Ṥ": 2830,
      "ṥ": 2831,
      "Ṧ": 2832,
      "ṧ": 2833,
      "Ṩ": 2834,
      "ṩ": 2835,
      "Ṫ": 2836,
      "ṫ": 2837,
      "Ṭ": 2838,
      "ṭ": 2839,
      "Ṯ": 2840,
      "ṯ": 2841,
      "Ṱ": 2842,
      "ṱ": 2843,
      "Ṳ": 2844,
      "ṳ": 2845,
      "Ṵ": 2846,
      "ṵ": 2847,
      "Ṷ": 2848,
      "ṷ": 2849,
      "Ṹ": 2850,
      "ṹ": 2851,
      "Ṻ": 2852,
      "ṻ": 2853,
      "Ṽ": 2854,
      "ṽ": 2855,
      "Ṿ": 2856,
      "ṿ": 2857,
      "Ẁ": 2858,
      "ẁ": 2859,
      "Ẃ": 2860,
      "ẃ": 2861,
      "Ẅ": 2862,
      "ẅ": 2863,
      "Ẇ": 2864,
      "ẇ": 2865,
      "Ẉ": 2866,
      "ẉ": 2867,
      "Ẋ": 2868,
      "ẋ": 2869,
      "Ẍ": 2870,
      "ẍ": 2871,
      "Ẏ": 2872,
      "ẏ": 2873,
      "Ẑ": 2874,
      "ẑ": 2875,
      "Ẓ": 2876,
      "ẓ": 2877,
      "Ẕ": 2878,
      "ẕ": 2879,
      "ẖ": 2880,
      "ẗ": 2881,
      "ẘ": 2882,
      "ẙ": 2883,
      "ẚ": 2884,
      "ẛ": 2885,
      "ẞ": 2886,
      "ẟ": 2887,
      "Ạ": 2888,
      "ạ": 2889,
      "Ả": 2890,
      "ả": 2891,
      "Ấ": 2892,
      "ấ": 2893,
      "Ầ": 2894,
      "ầ": 2895,
      "Ẩ": 2896,
      "ẩ": 2897,
      "Ẫ": 2898,
      "ẫ": 2899,
      "Ậ": 2900,
      "ậ": 2901,
      "Ắ": 2902,
      "ắ": 2903,
      "Ằ": 2904,
      "ằ": 2905,
      "Ẳ": 2906,
      "ẳ": 2907,
      "Ẵ": 2908,
      "ẵ": 2909,
      "Ặ": 2910,
      "ặ": 2911,
      "Ẹ": 2912,
      "ẹ": 2913,
      "Ẻ": 2914,
      "ẻ": 2915,
      "Ẽ": 2916,
      "ẽ": 2917,
      "Ế": 2918,
      "ế": 2919,
      "Ề": 2920,
      "ề": 2921,
      "Ể": 2922,
      "ể": 2923,
      "Ễ": 2924,
      "ễ": 2925,
      "Ệ": 2926,
      "ệ": 2927,
      "Ỉ": 2928,
      "ỉ": 2929,
      "Ị": 2930,
      "ị": 2931,
      "Ọ": 2932,
      "ọ": 2933,
      "Ỏ": 2934,
      "ỏ": 2935,
      "Ố": 2936,
      "ố": 2937,
      "Ồ": 2938,
      "ồ": 2939,
      "Ổ": 2940,
      "ổ": 2941,
      "Ỗ": 2942,
      "ỗ": 2943,
      "Ộ": 2944,
      "ộ": 2945,
      "Ớ": 2946,
      "ớ": 2947,
      "Ờ": 2948,
      "ờ": 2949,
      "Ở": 2950,
      "ở": 2951,
      "Ỡ": 2952,
      "ỡ": 2953,
      "Ợ": 2954,
      "ợ": 2955,
      "Ụ": 2956,
      "ụ": 2957,
      "Ủ": 2958,
      "ủ": 2959,
      "Ứ": 2960,
      "ứ": 2961,
      "Ừ": 2962,
      "ừ": 2963,
      "Ử": 2964,
      "ử": 2965,
      "Ữ": 2966,
      "ữ": 2967,
      "Ự": 2968,
      "ự": 2969,
      "Ỳ": 2970,
      "ỳ": 2971,
      "Ỵ": 2972,
      "ỵ": 2973,
      "Ỷ": 2974,
      "ỷ": 2975,
      "Ỹ": 2976,
      "ỹ": 2977,
      "Ỻ": 2978,
      "ỻ": 2979,
      "Ỽ": 2980,
      "ἀ": 2981,
      "ἁ": 2982,
      "ἂ": 2983,
      "ἃ": 2984,
      "ἄ": 2985,
      "ἅ": 2986,
      "Ἀ": 2987,
      "Ἁ": 2988,
      "Ἂ": 2989,
      "Ἄ": 2990,
      "Ἅ": 2991,
      "Ἆ": 2992,
      "ἐ": 2993,
      "ἑ": 2994,
      "ἔ": 2995,
      "ἕ": 2996,
      "Ἐ": 2997,
      "Ἑ": 2998,
      "Ἓ": 2999,
      "Ἔ": 3000,
      "Ἕ": 3001,
      "ἠ": 3002,
      "ἡ": 3003,
      "ἣ": 3004,
      "ἤ": 3005,
      "ἥ": 3006,
      "ἦ": 3007,
      "ἧ": 3008,
      "Ἠ": 3009,
      "Ἡ": 3010,
      "Ἥ": 3011,
      "ἰ": 3012,
      "ἱ": 3013,
      "ἳ": 3014,
      "ἴ": 3015,
      "ἵ": 3016,
      "ἶ": 3017,
      "ἷ": 3018,
      "Ἰ": 3019,
      "Ἱ": 3020,
      "Ἴ": 3021,
      "Ἶ": 3022,
      "ὀ": 3023,
      "ὁ": 3024,
      "ὄ": 3025,
      "ὅ": 3026,
      "Ὀ": 3027,
      "Ὁ": 3028,
      "Ὂ": 3029,
      "Ὄ": 3030,
      "Ὅ": 3031,
      "ὐ": 3032,
      "ὑ": 3033,
      "ὔ": 3034,
      "ὕ": 3035,
      "ὖ": 3036,
      "ὗ": 3037,
      "Ὑ": 3038,
      "Ὕ": 3039,
      "ὠ": 3040,
      "ὡ": 3041,
      "ὤ": 3042,
      "ὥ": 3043,
      "ὦ": 3044,
      "Ὠ": 3045,
      "ὰ": 3046,
      "ὲ": 3047,
      "ὴ": 3048,
      "ὶ": 3049,
      "ὸ": 3050,
      "ὺ": 3051,
      "ὼ": 3052,
      "ᾅ": 3053,
      "ᾍ": 3054,
      "ᾧ": 3055,
      "ᾰ": 3056,
      "ᾱ": 3057,
      "ᾳ": 3058,
      "ᾴ": 3059,
      "ᾶ": 3060,
      "ᾷ": 3061,
      "᾽": 3062,
      "᾿": 3063,
      "ῃ": 3064,
      "ῆ": 3065,
      "ῇ": 3066,
      "ῐ": 3067,
      "ῑ": 3068,
      "ῖ": 3069,
      "Ὶ": 3070,
      "ῠ": 3071,
      "ῡ": 3072,
      "ῤ": 3073,
      "ῥ": 3074,
      "ῦ": 3075,
      "Ῥ": 3076,
      "ῳ": 3077,
      "ῶ": 3078,
      "ῷ": 3079,
      "῾": 3080,
      "​": 3081,
      "‌": 3082,
      "‍": 3083,
      "‎": 3084,
      "‏": 3085,
      "‐": 3086,
      "‑": 3087,
      "‒": 3088,
      "–": 3089,
      "—": 3090,
      "―": 3091,
      "‖": 3092,
      "‚": 3093,
      "‛": 3094,
      "„": 3095,
      "‟": 3096,
      "†": 3097,
      "‡": 3098,
      "•": 3099,
      "‣": 3100,
      "․": 3101,
      "‥": 3102,
      "…": 3103,
      "‧": 3104,
      "‪": 3105,
      "‬": 3106,
      "‭": 3107,
      "‰": 3108,
      "‱": 3109,
      "′": 3110,
      "″": 3111,
      "‴": 3112,
      "‵": 3113,
      "‶": 3114,
      "‹": 3115,
      "›": 3116,
      "※": 3117,
      "‼": 3118,
      "‽": 3119,
      "‿": 3120,
      "⁀": 3121,
      "⁂": 3122,
      "⁃": 3123,
      "⁄": 3124,
      "⁇": 3125,
      "⁈": 3126,
      "⁉": 3127,
      "⁋": 3128,
      "⁎": 3129,
      "⁓": 3130,
      "⁚": 3131,
      "⁠": 3132,
      "⁡": 3133,
      "⁣": 3134,
      "⁰": 3135,
      "ⁱ": 3136,
      "⁴": 3137,
      "⁵": 3138,
      "⁶": 3139,
      "⁷": 3140,
      "⁸": 3141,
      "⁹": 3142,
      "⁺": 3143,
      "⁻": 3144,
      "ⁿ": 3145,
      "₀": 3146,
      "₁": 3147,
      "₂": 3148,
      "₃": 3149,
      "₄": 3150,
      "₅": 3151,
      "₆": 3152,
      "₇": 3153,
      "₈": 3154,
      "₉": 3155,
      "ₐ": 3156,
      "ₒ": 3157,
      "ₓ": 3158,
      "ₕ": 3159,
      "ₙ": 3160,
      "ₜ": 3161,
      "₠": 3162,
      "₡": 3163,
      "₣": 3164,
      "₤": 3165,
      "₥": 3166,
      "₦": 3167,
      "₧": 3168,
      "₨": 3169,
      "₩": 3170,
      "₫": 3171,
      "€": 3172,
      "₭": 3173,
      "₮": 3174,
      "₯": 3175,
      "₰": 3176,
      "₱": 3177,
      "₴": 3178,
      "₵": 3179,
      "₷": 3180,
      "₹": 3181,
      "₺": 3182,
      "₼": 3183,
      "₽": 3184,
      "₾": 3185,
      "₿": 3186,
      "⃝": 3187,
      "⃣": 3188,
      "ℂ": 3189,
      "℃": 3190,
      "℅": 3191,
      "℈": 3192,
      "℉": 3193,
      "ℍ": 3194,
      "ℎ": 3195,
      "ℏ": 3196,
      "ℓ": 3197,
      "ℕ": 3198,
      "№": 3199,
      "℗": 3200,
      "℘": 3201,
      "ℙ": 3202,
      "ℚ": 3203,
      "ℛ": 3204,
      "ℝ": 3205,
      "℞": 3206,
      "℠": 3207,
      "™": 3208,
      "ℤ": 3209,
      "℥": 3210,
      "℧": 3211,
      "℩": 3212,
      "Ⅎ": 3213,
      "ℳ": 3214,
      "ℵ": 3215,
      "⅂": 3216,
      "ⅎ": 3217,
      "⅓": 3218,
      "⅔": 3219,
      "⅕": 3220,
      "⅖": 3221,
      "⅗": 3222,
      "⅘": 3223,
      "⅙": 3224,
      "⅛": 3225,
      "⅜": 3226,
      "⅝": 3227,
      "⅞": 3228,
      "Ⅰ": 3229,
      "Ⅱ": 3230,
      "Ⅲ": 3231,
      "Ⅳ": 3232,
      "Ⅴ": 3233,
      "Ⅵ": 3234,
      "Ⅶ": 3235,
      "Ⅷ": 3236,
      "Ⅸ": 3237,
      "Ⅹ": 3238,
      "Ⅺ": 3239,
      "Ⅻ": 3240,
      "Ⅼ": 3241,
      "Ⅽ": 3242,
      "Ⅾ": 3243,
      "Ⅿ": 3244,
      "ⅱ": 3245,
      "ↀ": 3246,
      "Ↄ": 3247,
      "ↄ": 3248,
      "←": 3249,
      "↑": 3250,
      "→": 3251,
      "↓": 3252,
      "↔": 3253,
      "↖": 3254,
      "↗": 3255,
      "↘": 3256,
      "↠": 3257,
      "↣": 3258,
      "↦": 3259,
      "↪": 3260,
      "↯": 3261,
      "↵": 3262,
      "↺": 3263,
      "⇄": 3264,
      "⇅": 3265,
      "⇆": 3266,
      "⇋": 3267,
      "⇌": 3268,
      "⇑": 3269,
      "⇒": 3270,
      "⇓": 3271,
      "⇔": 3272,
      "⇧": 3273,
      "⇨": 3274,
      "⇪": 3275,
      "∀": 3276,
      "∁": 3277,
      "∂": 3278,
      "∃": 3279,
      "∄": 3280,
      "∅": 3281,
      "∆": 3282,
      "∇": 3283,
      "∈": 3284,
      "∉": 3285,
      "∊": 3286,
      "∎": 3287,
      "∏": 3288,
      "∑": 3289,
      "−": 3290,
      "∓": 3291,
      "∕": 3292,
      "∗": 3293,
      "∘": 3294,
      "∙": 3295,
      "√": 3296,
      "∝": 3297,
      "∞": 3298,
      "∠": 3299,
      "∣": 3300,
      "∥": 3301,
      "∧": 3302,
      "∨": 3303,
      "∩": 3304,
      "∪": 3305,
      "∫": 3306,
      "∬": 3307,
      "∭": 3308,
      "∮": 3309,
      "∴": 3310,
      "∵": 3311,
      "∶": 3312,
      "∷": 3313,
      "∼": 3314,
      "∽": 3315,
      "∿": 3316,
      "≀": 3317,
      "≂": 3318,
      "≃": 3319,
      "≅": 3320,
      "≆": 3321,
      "≈": 3322,
      "≒": 3323,
      "≠": 3324,
      "≡": 3325,
      "≢": 3326,
      "≤": 3327,
      "≥": 3328,
      "≦": 3329,
      "≧": 3330,
      "≪": 3331,
      "≫": 3332,
      "≯": 3333,
      "≲": 3334,
      "≳": 3335,
      "⊂": 3336,
      "⊃": 3337,
      "⊆": 3338,
      "⊇": 3339,
      "⊊": 3340,
      "⊓": 3341,
      "⊔": 3342,
      "⊕": 3343,
      "⊖": 3344,
      "⊗": 3345,
      "⊙": 3346,
      "⊞": 3347,
      "⊟": 3348,
      "⊢": 3349,
      "⊤": 3350,
      "⊥": 3351,
      "⊦": 3352,
      "⊩": 3353,
      "⊸": 3354,
      "⊿": 3355,
      "⋂": 3356,
      "⋄": 3357,
      "⋅": 3358,
      "⋆": 3359,
      "⋈": 3360,
      "⋉": 3361,
      "⋊": 3362,
      "⋮": 3363,
      "⋯": 3364,
      "⌂": 3365,
      "⌃": 3366,
      "⌇": 3367,
      "⌈": 3368,
      "⌉": 3369,
      "⌊": 3370,
      "⌋": 3371,
      "⌒": 3372,
      "⌘": 3373,
      "⌥": 3374,
      "⌬": 3375,
      "⌿": 3376,
      "⍝": 3377,
      "⍵": 3378,
      "⍺": 3379,
      "⎓": 3380,
      "⎕": 3381,
      "⎛": 3382,
      "⎝": 3383,
      "⎞": 3384,
      "⎠": 3385,
      "⎯": 3386,
      "⏑": 3387,
      "⏕": 3388,
      "␆": 3389,
      "␕": 3390,
      "␚": 3391,
      "␡": 3392,
      "␣": 3393,
      "①": 3394,
      "②": 3395,
      "③": 3396,
      "④": 3397,
      "⑤": 3398,
      "⑥": 3399,
      "⑦": 3400,
      "⑧": 3401,
      "⑨": 3402,
      "⑩": 3403,
      "⑪": 3404,
      "⑫": 3405,
      "⑬": 3406,
      "⑭": 3407,
      "⑮": 3408,
      "⑯": 3409,
      "⑰": 3410,
      "⑱": 3411,
      "⑲": 3412,
      "⑳": 3413,
      "⑴": 3414,
      "⑵": 3415,
      "⑶": 3416,
      "⑷": 3417,
      "⑸": 3418,
      "⑹": 3419,
      "⑺": 3420,
      "⑻": 3421,
      "⑼": 3422,
      "⑽": 3423,
      "⒈": 3424,
      "⒉": 3425,
      "⒊": 3426,
      "⒋": 3427,
      "⒌": 3428,
      "⒍": 3429,
      "⒎": 3430,
      "⒏": 3431,
      "⒐": 3432,
      "⒑": 3433,
      "⒒": 3434,
      "⒓": 3435,
      "⒔": 3436,
      "⒕": 3437,
      "⒖": 3438,
      "⒗": 3439,
      "⒘": 3440,
      "⒙": 3441,
      "⒞": 3442,
      "⒟": 3443,
      "Ⓐ": 3444,
      "Ⓑ": 3445,
      "Ⓒ": 3446,
      "Ⓓ": 3447,
      "Ⓕ": 3448,
      "Ⓛ": 3449,
      "Ⓟ": 3450,
      "Ⓡ": 3451,
      "Ⓥ": 3452,
      "ⓒ": 3453,
      "ⓘ": 3454,
      "ⓟ": 3455,
      "─": 3456,
      "━": 3457,
      "│": 3458,
      "┃": 3459,
      "┈": 3460,
      "┌": 3461,
      "┏": 3462,
      "┐": 3463,
      "┓": 3464,
      "└": 3465,
      "┗": 3466,
      "┘": 3467,
      "┛": 3468,
      "├": 3469,
      "┣": 3470,
      "┤": 3471,
      "┫": 3472,
      "┬": 3473,
      "┳": 3474,
      "┴": 3475,
      "┼": 3476,
      "═": 3477,
      "║": 3478,
      "╕": 3479,
      "╞": 3480,
      "╡": 3481,
      "╪": 3482,
      "╭": 3483,
      "╮": 3484,
      "╯": 3485,
      "╰": 3486,
      "╱": 3487,
      "╲": 3488,
      "╳": 3489,
      "╴": 3490,
      "▃": 3491,
      "▄": 3492,
      "█": 3493,
      "▉": 3494,
      "▌": 3495,
      "▎": 3496,
      "▖": 3497,
      "■": 3498,
      "□": 3499,
      "▢": 3500,
      "▨": 3501,
      "▪": 3502,
      "▮": 3503,
      "▲": 3504,
      "△": 3505,
      "▶": 3506,
      "▷": 3507,
      "►": 3508,
      "▼": 3509,
      "▽": 3510,
      "◀": 3511,
      "◁": 3512,
      "◆": 3513,
      "◇": 3514,
      "◊": 3515,
      "○": 3516,
      "◌": 3517,
      "◎": 3518,
      "●": 3519,
      "◕": 3520,
      "◘": 3521,
      "◙": 3522,
      "◡": 3523,
      "◢": 3524,
      "◣": 3525,
      "◤": 3526,
      "◥": 3527,
      "◦": 3528,
      "◧": 3529,
      "◩": 3530,
      "◬": 3531,
      "◯": 3532,
      "◻": 3533,
      "◼": 3534,
      "☂": 3535,
      "☃": 3536,
      "☄": 3537,
      "★": 3538,
      "☆": 3539,
      "☉": 3540,
      "☊": 3541,
      "☋": 3542,
      "☌": 3543,
      "☍": 3544,
      "☐": 3545,
      "☑": 3546,
      "☒": 3547,
      "☓": 3548,
      "☖": 3549,
      "☗": 3550,
      "☠": 3551,
      "☢": 3552,
      "☣": 3553,
      "☤": 3554,
      "☥": 3555,
      "☦": 3556,
      "☧": 3557,
      "☨": 3558,
      "☩": 3559,
      "☪": 3560,
      "☫": 3561,
      "☭": 3562,
      "☯": 3563,
      "☰": 3564,
      "☱": 3565,
      "☲": 3566,
      "☳": 3567,
      "☴": 3568,
      "☵": 3569,
      "☶": 3570,
      "☷": 3571,
      "☺": 3572,
      "☽": 3573,
      "☾": 3574,
      "☿": 3575,
      "♀": 3576,
      "♁": 3577,
      "♂": 3578,
      "♄": 3579,
      "♆": 3580,
      "♇": 3581,
      "♈": 3582,
      "♉": 3583,
      "♊": 3584,
      "♋": 3585,
      "♌": 3586,
      "♍": 3587,
      "♎": 3588,
      "♏": 3589,
      "♑": 3590,
      "♒": 3591,
      "♓": 3592,
      "♔": 3593,
      "♕": 3594,
      "♠": 3595,
      "♡": 3596,
      "♣": 3597,
      "♥": 3598,
      "♦": 3599,
      "♨": 3600,
      "♩": 3601,
      "♪": 3602,
      "♫": 3603,
      "♭": 3604,
      "♮": 3605,
      "♯": 3606,
      "♰": 3607,
      "♲": 3608,
      "♳": 3609,
      "♴": 3610,
      "♵": 3611,
      "♶": 3612,
      "♷": 3613,
      "♸": 3614,
      "♹": 3615,
      "♺": 3616,
      "♾": 3617,
      "♿": 3618,
      "⚊": 3619,
      "⚋": 3620,
      "⚌": 3621,
      "⚍": 3622,
      "⚎": 3623,
      "⚏": 3624,
      "⚑": 3625,
      "⚜": 3626,
      "⚠": 3627,
      "⚡": 3628,
      "⚤": 3629,
      "⚧": 3630,
      "⚪": 3631,
      "⚫": 3632,
      "⚶": 3633,
      "⚹": 3634,
      "⚽": 3635,
      "⛎": 3636,
      "⛨": 3637,
      "⛩": 3638,
      "✅": 3639,
      "✈": 3640,
      "✌": 3641,
      "✓": 3642,
      "✔": 3643,
      "✕": 3644,
      "✖": 3645,
      "✗": 3646,
      "✘": 3647,
      "✙": 3648,
      "✚": 3649,
      "✛": 3650,
      "✝": 3651,
      "✠": 3652,
      "✡": 3653,
      "✦": 3654,
      "✨": 3655,
      "✩": 3656,
      "✪": 3657,
      "✰": 3658,
      "✻": 3659,
      "✽": 3660,
      "❌": 3661,
      "❗": 3662,
      "❡": 3663,
      "❤": 3664,
      "❦": 3665,
      "❨": 3666,
      "❩": 3667,
      "❮": 3668,
      "❯": 3669,
      "❲": 3670,
      "❳": 3671,
      "❶": 3672,
      "❷": 3673,
      "❸": 3674,
      "❹": 3675,
      "❺": 3676,
      "❻": 3677,
      "❼": 3678,
      "❽": 3679,
      "❾": 3680,
      "❿": 3681,
      "➊": 3682,
      "➔": 3683,
      "➕": 3684,
      "➝": 3685,
      "➡": 3686,
      "➣": 3687,
      "➤": 3688,
      "⟕": 3689,
      "⟖": 3690,
      "⟗": 3691,
      "⟡": 3692,
      "⟨": 3693,
      "⟩": 3694,
      "⟪": 3695,
      "⟫": 3696,
      "⟮": 3697,
      "⟯": 3698,
      "⟶": 3699,
      "⟷": 3700,
      "⠀": 3701,
      "⠁": 3702,
      "⠉": 3703,
      "⠊": 3704,
      "⠍": 3705,
      "⠓": 3706,
      "⠝": 3707,
      "⠡": 3708,
      "⠢": 3709,
      "⠣": 3710,
      "⠤": 3711,
      "⠨": 3712,
      "⠰": 3713,
      "⠲": 3714,
      "⠳": 3715,
      "⠹": 3716,
      "⥄": 3717,
      "⦵": 3718,
      "⧵": 3719,
      "⧸": 3720,
      "⨁": 3721,
      "⨂": 3722,
      "⨉": 3723,
      "⨎": 3724,
      "⨯": 3725,
      "⨾": 3726,
      "⩽": 3727,
      "⩾": 3728,
      "⪤": 3729,
      "⬆": 3730,
      "⬕": 3731,
      "⬚": 3732,
      "⬤": 3733,
      "⭢": 3734,
      "⯓": 3735,
      "Ⰹ": 3736,
      "Ⱃ": 3737,
      "Ⱈ": 3738,
      "Ⱑ": 3739,
      "Ⱛ": 3740,
      "Ⱞ": 3741,
      "ⰲ": 3742,
      "ⰴ": 3743,
      "ⰵ": 3744,
      "ⰶ": 3745,
      "ⰹ": 3746,
      "ⰽ": 3747,
      "ⰾ": 3748,
      "ⱀ": 3749,
      "ⱁ": 3750,
      "ⱄ": 3751,
      "ⱆ": 3752,
      "ⱌ": 3753,
      "ⱏ": 3754,
      "ⱛ": 3755,
      "ⱝ": 3756,
      "Ⱡ": 3757,
      "ⱡ": 3758,
      "Ɫ": 3759,
      "Ᵽ": 3760,
      "Ɽ": 3761,
      "ⱥ": 3762,
      "ⱦ": 3763,
      "Ⱨ": 3764,
      "ⱨ": 3765,
      "Ⱪ": 3766,
      "ⱪ": 3767,
      "Ⱬ": 3768,
      "ⱬ": 3769,
      "Ɑ": 3770,
      "Ɐ": 3771,
      "ⱴ": 3772,
      "Ⱶ": 3773,
      "ⱶ": 3774,
      "ⱷ": 3775,
      "ⱼ": 3776,
      "Ⲁ": 3777,
      "ⲁ": 3778,
      "ⲃ": 3779,
      "ⲇ": 3780,
      "ⲉ": 3781,
      "ⲏ": 3782,
      "ⲑ": 3783,
      "ⲓ": 3784,
      "ⲕ": 3785,
      "ⲙ": 3786,
      "ⲛ": 3787,
      "ⲟ": 3788,
      "Ⲡ": 3789,
      "ⲡ": 3790,
      "ⲣ": 3791,
      "ⲥ": 3792,
      "ⲧ": 3793,
      "ⲩ": 3794,
      "ⲫ": 3795,
      "Ⲭ": 3796,
      "ⲭ": 3797,
      "ⲱ": 3798,
      "ⴰ": 3799,
      "ⴱ": 3800,
      "ⴲ": 3801,
      "ⴳ": 3802,
      "ⴴ": 3803,
      "ⴷ": 3804,
      "ⴻ": 3805,
      "ⴼ": 3806,
      "ⴽ": 3807,
      "ⵀ": 3808,
      "ⵃ": 3809,
      "ⵄ": 3810,
      "ⵇ": 3811,
      "ⵉ": 3812,
      "ⵍ": 3813,
      "ⵎ": 3814,
      "ⵏ": 3815,
      "ⵓ": 3816,
      "ⵔ": 3817,
      "ⵖ": 3818,
      "ⵙ": 3819,
      "ⵛ": 3820,
      "ⵜ": 3821,
      "ⵟ": 3822,
      "ⵡ": 3823,
      "ⵢ": 3824,
      "ⵣ": 3825,
      "⸢": 3826,
      "⸣": 3827,
      "⸱": 3828,
      "⸸": 3829,
      "⸺": 3830,
      "⺄": 3831,
      "⺈": 3832,
      "⺕": 3833,
      "⺗": 3834,
      "⺝": 3835,
      "⺟": 3836,
      "⺠": 3837,
      "⺪": 3838,
      "⺬": 3839,
      "⺭": 3840,
      "⺮": 3841,
      "⺼": 3842,
      "⺾": 3843,
      "⺿": 3844,
      "⻄": 3845,
      "⻆": 3846,
      "⻋": 3847,
      "⻌": 3848,
      "⻍": 3849,
      "⻎": 3850,
      "⻏": 3851,
      "⻑": 3852,
      "⻓": 3853,
      "⻔": 3854,
      "⻘": 3855,
      "⻚": 3856,
      "⻛": 3857,
      "⻜": 3858,
      "⻝": 3859,
      "⻤": 3860,
      "⻥": 3861,
      "⻩": 3862,
      "⻱": 3863,
      "⼀": 3864,
      "⼁": 3865,
      "⼂": 3866,
      "⼃": 3867,
      "⼄": 3868,
      "⼅": 3869,
      "⼆": 3870,
      "⼈": 3871,
      "⼊": 3872,
      "⼋": 3873,
      "⼍": 3874,
      "⼏": 3875,
      "⼐": 3876,
      "⼒": 3877,
      "⼗": 3878,
      "⼘": 3879,
      "⼜": 3880,
      "⼝": 3881,
      "⼟": 3882,
      "⼠": 3883,
      "⼣": 3884,
      "⼤": 3885,
      "⼥": 3886,
      "⼦": 3887,
      "⼩": 3888,
      "⼭": 3889,
      "⼯": 3890,
      "⼰": 3891,
      "⼲": 3892,
      "⼴": 3893,
      "⼹": 3894,
      "⼼": 3895,
      "⼽": 3896,
      "⼾": 3897,
      "⼿": 3898,
      "⽀": 3899,
      "⽂": 3900,
      "⽃": 3901,
      "⽅": 3902,
      "⽆": 3903,
      "⽇": 3904,
      "⽉": 3905,
      "⽊": 3906,
      "⽐": 3907,
      "⽒": 3908,
      "⽓": 3909,
      "⽔": 3910,
      "⽕": 3911,
      "⽗": 3912,
      "⽚": 3913,
      "⽛": 3914,
      "⽟": 3915,
      "⽠": 3916,
      "⽢": 3917,
      "⽣": 3918,
      "⽤": 3919,
      "⽥": 3920,
      "⽩": 3921,
      "⽪": 3922,
      "⽬": 3923,
      "⽯": 3924,
      "⽰": 3925,
      "⽴": 3926,
      "⽵": 3927,
      "⽶": 3928,
      "⽹": 3929,
      "⽻": 3930,
      "⽼": 3931,
      "⽽": 3932,
      "⽿": 3933,
      "⾂": 3934,
      "⾃": 3935,
      "⾄": 3936,
      "⾊": 3937,
      "⾏": 3938,
      "⾒": 3939,
      "⾓": 3940,
      "⾔": 3941,
      "⾕": 3942,
      "⾚": 3943,
      "⾛": 3944,
      "⾜": 3945,
      "⾝": 3946,
      "⾞": 3947,
      "⾟": 3948,
      "⾢": 3949,
      "⾥": 3950,
      "⾦": 3951,
      "⾧": 3952,
      "⾨": 3953,
      "⾮": 3954,
      "⾯": 3955,
      "⾰": 3956,
      "⾳": 3957,
      "⾵": 3958,
      "⾶": 3959,
      "⾸": 3960,
      "⾹": 3961,
      "⾺": 3962,
      "⾼": 3963,
      "⾾": 3964,
      "⿁": 3965,
      "⿃": 3966,
      "⿅": 3967,
      "⿈": 3968,
      "⿊": 3969,
      "⿓": 3970,
      "⿰": 3971,
      "⿱": 3972,
      "⿲": 3973,
      "⿳": 3974,
      "⿴": 3975,
      "⿸": 3976,
      "⿺": 3977,
      "⿻": 3978,
      "、": 3979,
      "〃": 3980,
      "〄": 3981,
      "々": 3982,
      "〆": 3983,
      "〈": 3984,
      "〉": 3985,
      "《": 3986,
      "》": 3987,
      "「": 3988,
      "」": 3989,
      "『": 3990,
      "』": 3991,
      "〒": 3992,
      "〓": 3993,
      "〔": 3994,
      "〕": 3995,
      "〖": 3996,
      "〗": 3997,
      "〘": 3998,
      "〙": 3999,
      "〜": 4000,
      "〝": 4001,
      "〞": 4002,
      "〟": 4003,
      "〡": 4004,
      "〢": 4005,
      "〣": 4006,
      "〤": 4007,
      "〥": 4008,
      "〦": 4009,
      "〧": 4010,
      "〨": 4011,
      "〩": 4012,
      "〪": 4013,
      "〫": 4014,
      "〬": 4015,
      "〭": 4016,
      "〰": 4017,
      "〱": 4018,
      "〲": 4019,
      "〳": 4020,
      "〴": 4021,
      "〵": 4022,
      "〸": 4023,
      "〹": 4024,
      "〺": 4025,
      "〻": 4026,
      "〽": 4027,
      "ぁ": 4028,
      "あ": 4029,
      "ぃ": 4030,
      "い": 4031,
      "ぅ": 4032,
      "う": 4033,
      "ぇ": 4034,
      "え": 4035,
      "ぉ": 4036,
      "お": 4037,
      "か": 4038,
      "が": 4039,
      "き": 4040,
      "ぎ": 4041,
      "く": 4042,
      "ぐ": 4043,
      "け": 4044,
      "げ": 4045,
      "こ": 4046,
      "ご": 4047,
      "さ": 4048,
      "ざ": 4049,
      "し": 4050,
      "じ": 4051,
      "す": 4052,
      "ず": 4053,
      "せ": 4054,
      "ぜ": 4055,
      "そ": 4056,
      "ぞ": 4057,
      "た": 4058,
      "だ": 4059,
      "ち": 4060,
      "ぢ": 4061,
      "っ": 4062,
      "つ": 4063,
      "づ": 4064,
      "て": 4065,
      "で": 4066,
      "と": 4067,
      "ど": 4068,
      "な": 4069,
      "に": 4070,
      "ぬ": 4071,
      "ね": 4072,
      "の": 4073,
      "は": 4074,
      "ば": 4075,
      "ぱ": 4076,
      "ひ": 4077,
      "び": 4078,
      "ぴ": 4079,
      "ふ": 4080,
      "ぶ": 4081,
      "ぷ": 4082,
      "へ": 4083,
      "べ": 4084,
      "ぺ": 4085,
      "ほ": 4086,
      "ぼ": 4087,
      "ぽ": 4088,
      "ま": 4089,
      "み": 4090,
      "む": 4091,
      "め": 4092,
      "も": 4093,
      "ゃ": 4094,
      "や": 4095,
      "ゅ": 4096,
      "ゆ": 4097,
      "ょ": 4098,
      "よ": 4099,
      "ら": 4100,
      "り": 4101,
      "る": 4102,
      "れ": 4103,
      "ろ": 4104,
      "わ": 4105,
      "ゐ": 4106,
      "ゑ": 4107,
      "を": 4108,
      "ん": 4109,
      "ゔ": 4110,
      "゙": 4111,
      "゚": 4112,
      "゛": 4113,
      "゜": 4114,
      "ゝ": 4115,
      "ゞ": 4116,
      "ゟ": 4117,
      "ァ": 4118,
      "ア": 4119,
      "ィ": 4120,
      "イ": 4121,
      "ゥ": 4122,
      "ウ": 4123,
      "ェ": 4124,
      "エ": 4125,
      "ォ": 4126,
      "オ": 4127,
      "カ": 4128,
      "ガ": 4129,
      "キ": 4130,
      "ギ": 4131,
      "ク": 4132,
      "グ": 4133,
      "ケ": 4134,
      "ゲ": 4135,
      "コ": 4136,
      "ゴ": 4137,
      "サ": 4138,
      "ザ": 4139,
      "シ": 4140,
      "ジ": 4141,
      "ス": 4142,
      "ズ": 4143,
      "セ": 4144,
      "ゼ": 4145,
      "ソ": 4146,
      "ゾ": 4147,
      "タ": 4148,
      "ダ": 4149,
      "チ": 4150,
      "ヂ": 4151,
      "ッ": 4152,
      "ツ": 4153,
      "ヅ": 4154,
      "テ": 4155,
      "デ": 4156,
      "ト": 4157,
      "ド": 4158,
      "ナ": 4159,
      "ニ": 4160,
      "ヌ": 4161,
      "ネ": 4162,
      "ノ": 4163,
      "ハ": 4164,
      "バ": 4165,
      "パ": 4166,
      "ヒ": 4167,
      "ビ": 4168,
      "ピ": 4169,
      "フ": 4170,
      "ブ": 4171,
      "プ": 4172,
      "ヘ": 4173,
      "ベ": 4174,
      "ペ": 4175,
      "ホ": 4176,
      "ボ": 4177,
      "ポ": 4178,
      "マ": 4179,
      "ミ": 4180,
      "ム": 4181,
      "メ": 4182,
      "モ": 4183,
      "ャ": 4184,
      "ヤ": 4185,
      "ュ": 4186,
      "ユ": 4187,
      "ョ": 4188,
      "ヨ": 4189,
      "ラ": 4190,
      "リ": 4191,
      "ル": 4192,
      "レ": 4193,
      "ロ": 4194,
      "ヮ": 4195,
      "ワ": 4196,
      "ヰ": 4197,
      "ヱ": 4198,
      "ヲ": 4199,
      "ン": 4200,
      "ヴ": 4201,
      "ヵ": 4202,
      "ヶ": 4203,
      "ヹ": 4204,
      "・": 4205,
      "ー": 4206,
      "ヽ": 4207,
      "ヾ": 4208,
      "ヿ": 4209,
      "㄂": 4210,
      "ㄅ": 4211,
      "ㄆ": 4212,
      "ㄇ": 4213,
      "ㄈ": 4214,
      "ㄉ": 4215,
      "ㄊ": 4216,
      "ㄋ": 4217,
      "ㄌ": 4218,
      "ㄍ": 4219,
      "ㄎ": 4220,
      "ㄏ": 4221,
      "ㄐ": 4222,
      "ㄑ": 4223,
      "ㄒ": 4224,
      "ㄓ": 4225,
      "ㄔ": 4226,
      "ㄕ": 4227,
      "ㄖ": 4228,
      "ㄗ": 4229,
      "ㄘ": 4230,
      "ㄙ": 4231,
      "ㄚ": 4232,
      "ㄛ": 4233,
      "ㄜ": 4234,
      "ㄝ": 4235,
      "ㄞ": 4236,
      "ㄟ": 4237,
      "ㄠ": 4238,
      "ㄡ": 4239,
      "ㄢ": 4240,
      "ㄣ": 4241,
      "ㄤ": 4242,
      "ㄥ": 4243,
      "ㄦ": 4244,
      "ㄧ": 4245,
      "ㄨ": 4246,
      "ㄩ": 4247,
      "ㄪ": 4248,
      "ㄫ": 4249,
      "ㄬ": 4250,
      "ㄭ": 4251,
      "ㄮ": 4252,
      "ㄯ": 4253,
      "ㄱ": 4254,
      "ㄲ": 4255,
      "ㄳ": 4256,
      "ㄴ": 4257,
      "ㄷ": 4258,
      "ㄸ": 4259,
      "ㄹ": 4260,
      "ㄼ": 4261,
      "ㅁ": 4262,
      "ㅂ": 4263,
      "ㅃ": 4264,
      "ㅅ": 4265,
      "ㅆ": 4266,
      "ㅇ": 4267,
      "ㅈ": 4268,
      "ㅉ": 4269,
      "ㅊ": 4270,
      "ㅋ": 4271,
      "ㅌ": 4272,
      "ㅍ": 4273,
      "ㅎ": 4274,
      "ㅏ": 4275,
      "ㅐ": 4276,
      "ㅑ": 4277,
      "ㅒ": 4278,
      "ㅓ": 4279,
      "ㅔ": 4280,
      "ㅕ": 4281,
      "ㅖ": 4282,
      "ㅗ": 4283,
      "ㅘ": 4284,
      "ㅙ": 4285,
      "ㅚ": 4286,
      "ㅛ": 4287,
      "ㅜ": 4288,
      "ㅝ": 4289,
      "ㅞ": 4290,
      "ㅟ": 4291,
      "ㅠ": 4292,
      "ㅡ": 4293,
      "ㅢ": 4294,
      "ㅣ": 4295,
      "ㅤ": 4296,
      "ㅭ": 4297,
      "ㅸ": 4298,
      "ㅿ": 4299,
      "ㆁ": 4300,
      "ㆆ": 4301,
      "ㆍ": 4302,
      "㆒": 4303,
      "㆔": 4304,
      "㆘": 4305,
      "ㆠ": 4306,
      "ㆡ": 4307,
      "ㆢ": 4308,
      "ㆣ": 4309,
      "ㆤ": 4310,
      "ㆥ": 4311,
      "ㆦ": 4312,
      "ㆧ": 4313,
      "ㆨ": 4314,
      "ㆩ": 4315,
      "ㆪ": 4316,
      "ㆫ": 4317,
      "ㆬ": 4318,
      "ㆭ": 4319,
      "ㆮ": 4320,
      "ㆯ": 4321,
      "ㆰ": 4322,
      "ㆱ": 4323,
      "ㆲ": 4324,
      "ㆳ": 4325,
      "ㆴ": 4326,
      "ㆵ": 4327,
      "ㆶ": 4328,
      "ㆷ": 4329,
      "ㆻ": 4330,
      "ㆼ": 4331,
      "ㆽ": 4332,
      "ㆾ": 4333,
      "ㆿ": 4334,
      "㇀": 4335,
      "㇂": 4336,
      "㇄": 4337,
      "㇅": 4338,
      "㇆": 4339,
      "㇇": 4340,
      "㇈": 4341,
      "㇉": 4342,
      "㇊": 4343,
      "㇋": 4344,
      "㇌": 4345,
      "㇍": 4346,
      "㇎": 4347,
      "㇏": 4348,
      "㇐": 4349,
      "㇑": 4350,
      "㇒": 4351,
      "㇓": 4352,
      "㇔": 4353,
      "㇕": 4354,
      "㇗": 4355,
      "㇙": 4356,
      "㇚": 4357,
      "㇛": 4358,
      "㇜": 4359,
      "㇞": 4360,
      "㇟": 4361,
      "㇡": 4362,
      "㇢": 4363,
      "㇤": 4364,
      "ㇰ": 4365,
      "ㇱ": 4366,
      "ㇲ": 4367,
      "ㇵ": 4368,
      "ㇷ": 4369,
      "ㇺ": 4370,
      "ㇻ": 4371,
      "ㇼ": 4372,
      "ㇽ": 4373,
      "ㇿ": 4374,
      "㈜": 4375,
      "㈠": 4376,
      "㈡": 4377,
      "㈢": 4378,
      "㈣": 4379,
      "㈤": 4380,
      "㈥": 4381,
      "㈦": 4382,
      "㈧": 4383,
      "㈨": 4384,
      "㈩": 4385,
      "㈪": 4386,
      "㈭": 4387,
      "㈮": 4388,
      "㈯": 4389,
      "㈰": 4390,
      "㈱": 4391,
      "㊇": 4392,
      "㊎": 4393,
      "㊑": 4394,
      "㊙": 4395,
      "㊟": 4396,
      "㊣": 4397,
      "㋿": 4398,
      "㍿": 4399,
      "㎏": 4400,
      "㎒": 4401,
      "㎛": 4402,
      "㎜": 4403,
      "㎝": 4404,
      "㎞": 4405,
      "㎡": 4406,
      "㎢": 4407,
      "㎤": 4408,
      "㎥": 4409,
      "㎦": 4410,
      "㏉": 4411,
      "㏍": 4412,
      "㏑": 4413,
      "㏒": 4414,
      "㐂": 4415,
      "㐾": 4416,
      "㑀": 4417,
      "㒭": 4418,
      "㒹": 4419,
      "㓛": 4420,
      "㔬": 4421,
      "㕀": 4422,
      "㕔": 4423,
      "㕘": 4424,
      "㖱": 4425,
      "㗎": 4426,
      "㗝": 4427,
      "㘻": 4428,
      "㚸": 4429,
      "㛠": 4430,
      "㛢": 4431,
      "㝜": 4432,
      "㝬": 4433,
      "㞢": 4434,
      "㟥": 4435,
      "㟸": 4436,
      "㠫": 4437,
      "㠬": 4438,
      "㢢": 4439,
      "㣉": 4440,
      "㤗": 4441,
      "㤻": 4442,
      "㪲": 4443,
      "㪳": 4444,
      "㫆": 4445,
      "㫕": 4446,
      "㫖": 4447,
      "㫠": 4448,
      "㫬": 4449,
      "㬀": 4450,
      "㬢": 4451,
      "㬺": 4452,
      "㬾": 4453,
      "㭦": 4454,
      "㭶": 4455,
      "㮊": 4456,
      "㮤": 4457,
      "㮴": 4458,
      "㯣": 4459,
      "㰏": 4460,
      "㰕": 4461,
      "㱕": 4462,
      "㳉": 4463,
      "㳢": 4464,
      "㴠": 4465,
      "㴱": 4466,
      "㵼": 4467,
      "㶊": 4468,
      "㶨": 4469,
      "㶮": 4470,
      "㶱": 4471,
      "㶷": 4472,
      "㷑": 4473,
      "㷛": 4474,
      "㷧": 4475,
      "㷩": 4476,
      "㹧": 4477,
      "㻁": 4478,
      "㻛": 4479,
      "㼀": 4480,
      "㼁": 4481,
      "㼄": 4482,
      "㼅": 4483,
      "㽓": 4484,
      "㽵": 4485,
      "㽿": 4486,
      "㿝": 4487,
      "䂓": 4488,
      "䃄": 4489,
      "䃟": 4490,
      "䄖": 4491,
      "䇄": 4492,
      "䇝": 4493,
      "䇿": 4494,
      "䊹": 4495,
      "䋍": 4496,
      "䌉": 4497,
      "䍧": 4498,
      "䎞": 4499,
      "䏾": 4500,
      "䑩": 4501,
      "䒶": 4502,
      "䓪": 4503,
      "䕬": 4504,
      "䘗": 4505,
      "䘛": 4506,
      "䚀": 4507,
      "䜥": 4508,
      "䜳": 4509,
      "䝉": 4510,
      "䟽": 4511,
      "䢂": 4512,
      "䢘": 4513,
      "䢜": 4514,
      "䤈": 4515,
      "䥴": 4516,
      "䦁": 4517,
      "䦉": 4518,
      "䧏": 4519,
      "䧣": 4520,
      "䨇": 4521,
      "䭏": 4522,
      "䮐": 4523,
      "䯃": 4524,
      "䯻": 4525,
      "䲝": 4526,
      "䵍": 4527,
      "䷀": 4528,
      "䷂": 4529,
      "䷃": 4530,
      "䷊": 4531,
      "䷋": 4532,
      "䷌": 4533,
      "䷍": 4534,
      "䷔": 4535,
      "䷜": 4536,
      "䷲": 4537,
      "䷳": 4538,
      "䷸": 4539,
      "䷹": 4540,
      "䷾": 4541,
      "䷿": 4542,
      "兙": 4543,
      "兡": 4544,
      "嗧": 4545,
      "瓼": 4546,
      "龱": 4547,
      "龺": 4548,
      "鿋": 4549,
      "鿠": 4550,
      "ꀋ": 4551,
      "ꁈ": 4552,
      "ꁨ": 4553,
      "ꂤ": 4554,
      "ꂵ": 4555,
      "ꃄ": 4556,
      "ꃅ": 4557,
      "ꃺ": 4558,
      "ꃼ": 4559,
      "ꄡ": 4560,
      "ꄣ": 4561,
      "ꄤ": 4562,
      "ꄿ": 4563,
      "ꆃ": 4564,
      "ꆈ": 4565,
      "ꆧ": 4566,
      "ꆨ": 4567,
      "ꆪ": 4568,
      "ꇁ": 4569,
      "ꇓ": 4570,
      "ꇗ": 4571,
      "ꈎ": 4572,
      "ꈐ": 4573,
      "ꈑ": 4574,
      "ꈓ": 4575,
      "ꈜ": 4576,
      "ꈭ": 4577,
      "ꈵ": 4578,
      "ꈿ": 4579,
      "ꉳ": 4580,
      "ꉸ": 4581,
      "ꉼ": 4582,
      "ꊇ": 4583,
      "ꊖ": 4584,
      "ꊨ": 4585,
      "ꊰ": 4586,
      "ꋍ": 4587,
      "ꌕ": 4588,
      "ꌠ": 4589,
      "ꍓ": 4590,
      "ꍬ": 4591,
      "ꎭ": 4592,
      "ꎴ": 4593,
      "ꏅ": 4594,
      "ꏢ": 4595,
      "ꏦ": 4596,
      "ꏧ": 4597,
      "ꐎ": 4598,
      "ꑤ": 4599,
      "ꑭ": 4600,
      "ꓐ": 4601,
      "ꓒ": 4602,
      "ꓕ": 4603,
      "ꓗ": 4604,
      "ꓚ": 4605,
      "ꓛ": 4606,
      "ꓝ": 4607,
      "ꓞ": 4608,
      "ꓟ": 4609,
      "ꓠ": 4610,
      "ꓡ": 4611,
      "ꓢ": 4612,
      "ꓥ": 4613,
      "ꓩ": 4614,
      "ꓪ": 4615,
      "ꓫ": 4616,
      "ꓬ": 4617,
      "ꓯ": 4618,
      "ꓱ": 4619,
      "ꓲ": 4620,
      "ꓳ": 4621,
      "ꓴ": 4622,
      "ꓵ": 4623,
      "ꓶ": 4624,
      "ꓸ": 4625,
      "ꓹ": 4626,
      "ꓼ": 4627,
      "ꓽ": 4628,
      "꓾": 4629,
      "ꔤ": 4630,
      "ꕙ": 4631,
      "Ꙁ": 4632,
      "Ꙅ": 4633,
      "ꙅ": 4634,
      "Ꙇ": 4635,
      "ꙇ": 4636,
      "Ꙉ": 4637,
      "ꙉ": 4638,
      "Ꙏ": 4639,
      "ꙏ": 4640,
      "Ꙑ": 4641,
      "ꙓ": 4642,
      "ꙕ": 4643,
      "Ꙗ": 4644,
      "ꙗ": 4645,
      "Ꙟ": 4646,
      "ꙟ": 4647,
      "Ꙡ": 4648,
      "ꙡ": 4649,
      "Ꙣ": 4650,
      "ꙣ": 4651,
      "Ꙥ": 4652,
      "ꙥ": 4653,
      "Ꙧ": 4654,
      "ꙧ": 4655,
      "Ꙩ": 4656,
      "ꙩ": 4657,
      "Ꙫ": 4658,
      "ꙫ": 4659,
      "Ꙭ": 4660,
      "ꙭ": 4661,
      "ꙮ": 4662,
      "Ꚁ": 4663,
      "ꚁ": 4664,
      "Ꚃ": 4665,
      "ꚃ": 4666,
      "Ꚅ": 4667,
      "ꚅ": 4668,
      "Ꚉ": 4669,
      "ꚉ": 4670,
      "Ꚋ": 4671,
      "ꚋ": 4672,
      "Ꚍ": 4673,
      "ꚍ": 4674,
      "Ꚏ": 4675,
      "ꚏ": 4676,
      "Ꚑ": 4677,
      "ꚑ": 4678,
      "Ꚗ": 4679,
      "ꚗ": 4680,
      "Ꚙ": 4681,
      "ꚙ": 4682,
      "Ꚛ": 4683,
      "ꚛ": 4684,
      "꜀": 4685,
      "꜁": 4686,
      "꜂": 4687,
      "꜃": 4688,
      "꜄": 4689,
      "꜅": 4690,
      "꜆": 4691,
      "꜇": 4692,
      "꜒": 4693,
      "꜓": 4694,
      "꜔": 4695,
      "꜕": 4696,
      "꜖": 4697,
      "Ꜣ": 4698,
      "ꜣ": 4699,
      "ꜥ": 4700,
      "Ꜧ": 4701,
      "ꜧ": 4702,
      "ꝏ": 4703,
      "Ꝛ": 4704,
      "Ꝺ": 4705,
      "꞉": 4706,
      "ꞌ": 4707,
      "ꞏ": 4708,
      "Ꞑ": 4709,
      "ꞑ": 4710,
      "Ꞓ": 4711,
      "Ꞗ": 4712,
      "Ꞥ": 4713,
      "ꞥ": 4714,
      "Ʇ": 4715,
      "ꟸ": 4716,
      "ꦁ": 4717,
      "ꦂ": 4718,
      "ꦏ": 4719,
      "ꦕ": 4720,
      "ꦗ": 4721,
      "ꦝ": 4722,
      "ꦠ": 4723,
      "ꦢ": 4724,
      "ꦤ": 4725,
      "ꦥ": 4726,
      "ꦩ": 4727,
      "ꦪ": 4728,
      "ꦫ": 4729,
      "ꦭ": 4730,
      "ꦮ": 4731,
      "ꦯ": 4732,
      "ꦱ": 4733,
      "ꦲ": 4734,
      "ꦴ": 4735,
      "ꦶ": 4736,
      "ꦸ": 4737,
      "ꦺ": 4738,
      "ꦼ": 4739,
      "ꦾ": 4740,
      "ꦿ": 4741,
      "꧀": 4742,
      "ꪶ": 4743,
      "ꯁ": 4744,
      "ꯄ": 4745,
      "ꯅ": 4746,
      "ꯔ": 4747,
      "ꯕ": 4748,
      "ꯤ": 4749,
      "ꯨ": 4750,
      "꯭": 4751,
      "가": 4752,
      "각": 4753,
      "간": 4754,
      "갈": 4755,
      "감": 4756,
      "갑": 4757,
      "갓": 4758,
      "갔": 4759,
      "강": 4760,
      "같": 4761,
      "개": 4762,
      "갱": 4763,
      "걔": 4764,
      "거": 4765,
      "건": 4766,
      "걸": 4767,
      "검": 4768,
      "겁": 4769,
      "것": 4770,
      "게": 4771,
      "겐": 4772,
      "겟": 4773,
      "겠": 4774,
      "겨": 4775,
      "격": 4776,
      "견": 4777,
      "결": 4778,
      "겸": 4779,
      "겹": 4780,
      "경": 4781,
      "곁": 4782,
      "계": 4783,
      "고": 4784,
      "곡": 4785,
      "곤": 4786,
      "곧": 4787,
      "골": 4788,
      "곰": 4789,
      "곱": 4790,
      "곳": 4791,
      "공": 4792,
      "곶": 4793,
      "과": 4794,
      "곽": 4795,
      "관": 4796,
      "광": 4797,
      "괜": 4798,
      "괴": 4799,
      "교": 4800,
      "구": 4801,
      "국": 4802,
      "군": 4803,
      "굳": 4804,
      "굴": 4805,
      "굵": 4806,
      "굿": 4807,
      "궁": 4808,
      "궈": 4809,
      "권": 4810,
      "궐": 4811,
      "궤": 4812,
      "귀": 4813,
      "귓": 4814,
      "규": 4815,
      "균": 4816,
      "그": 4817,
      "극": 4818,
      "근": 4819,
      "귿": 4820,
      "글": 4821,
      "금": 4822,
      "급": 4823,
      "긍": 4824,
      "기": 4825,
      "긴": 4826,
      "길": 4827,
      "김": 4828,
      "깃": 4829,
      "깊": 4830,
      "까": 4831,
      "깍": 4832,
      "깐": 4833,
      "깡": 4834,
      "깨": 4835,
      "꺼": 4836,
      "껌": 4837,
      "께": 4838,
      "꼬": 4839,
      "꼭": 4840,
      "꼴": 4841,
      "꼼": 4842,
      "꽃": 4843,
      "꽉": 4844,
      "꽤": 4845,
      "꽹": 4846,
      "꾸": 4847,
      "꾼": 4848,
      "꿀": 4849,
      "꿈": 4850,
      "꿍": 4851,
      "꿔": 4852,
      "꿨": 4853,
      "끄": 4854,
      "끈": 4855,
      "끌": 4856,
      "끗": 4857,
      "끝": 4858,
      "끼": 4859,
      "낀": 4860,
      "낌": 4861,
      "나": 4862,
      "낙": 4863,
      "난": 4864,
      "날": 4865,
      "낡": 4866,
      "남": 4867,
      "납": 4868,
      "났": 4869,
      "낭": 4870,
      "낮": 4871,
      "낯": 4872,
      "내": 4873,
      "낸": 4874,
      "낼": 4875,
      "냄": 4876,
      "냉": 4877,
      "냐": 4878,
      "냥": 4879,
      "너": 4880,
      "넋": 4881,
      "넌": 4882,
      "널": 4883,
      "넘": 4884,
      "네": 4885,
      "넥": 4886,
      "넵": 4887,
      "넷": 4888,
      "녀": 4889,
      "년": 4890,
      "념": 4891,
      "녕": 4892,
      "녘": 4893,
      "노": 4894,
      "녹": 4895,
      "논": 4896,
      "놀": 4897,
      "놈": 4898,
      "농": 4899,
      "높": 4900,
      "놓": 4901,
      "뇌": 4902,
      "누": 4903,
      "눈": 4904,
      "눌": 4905,
      "눔": 4906,
      "뉴": 4907,
      "느": 4908,
      "늑": 4909,
      "는": 4910,
      "늘": 4911,
      "능": 4912,
      "늦": 4913,
      "늪": 4914,
      "니": 4915,
      "닉": 4916,
      "닐": 4917,
      "님": 4918,
      "닛": 4919,
      "닝": 4920,
      "다": 4921,
      "닥": 4922,
      "단": 4923,
      "닫": 4924,
      "달": 4925,
      "닭": 4926,
      "닮": 4927,
      "담": 4928,
      "답": 4929,
      "당": 4930,
      "닿": 4931,
      "대": 4932,
      "댁": 4933,
      "댄": 4934,
      "댓": 4935,
      "댔": 4936,
      "댕": 4937,
      "더": 4938,
      "덕": 4939,
      "던": 4940,
      "덜": 4941,
      "덤": 4942,
      "덩": 4943,
      "데": 4944,
      "델": 4945,
      "뎃": 4946,
      "뎐": 4947,
      "뎡": 4948,
      "도": 4949,
      "독": 4950,
      "돈": 4951,
      "돋": 4952,
      "돌": 4953,
      "돗": 4954,
      "동": 4955,
      "돼": 4956,
      "됐": 4957,
      "되": 4958,
      "된": 4959,
      "될": 4960,
      "두": 4961,
      "둑": 4962,
      "둔": 4963,
      "둘": 4964,
      "둡": 4965,
      "둣": 4966,
      "둥": 4967,
      "뒤": 4968,
      "듀": 4969,
      "드": 4970,
      "득": 4971,
      "든": 4972,
      "듣": 4973,
      "들": 4974,
      "듭": 4975,
      "듯": 4976,
      "등": 4977,
      "디": 4978,
      "딕": 4979,
      "딘": 4980,
      "딜": 4981,
      "딤": 4982,
      "딥": 4983,
      "딧": 4984,
      "딨": 4985,
      "딪": 4986,
      "따": 4987,
      "딱": 4988,
      "딸": 4989,
      "땀": 4990,
      "땁": 4991,
      "땅": 4992,
      "때": 4993,
      "땐": 4994,
      "땡": 4995,
      "떠": 4996,
      "떡": 4997,
      "떤": 4998,
      "떨": 4999,
      "떳": 5000,
      "떴": 5001,
      "떵": 5002,
      "떻": 5003,
      "떼": 5004,
      "뗄": 5005,
      "또": 5006,
      "똥": 5007,
      "뚜": 5008,
      "뛰": 5009,
      "뜨": 5010,
      "뜬": 5011,
      "뜸": 5012,
      "띄": 5013,
      "띠": 5014,
      "띵": 5015,
      "라": 5016,
      "락": 5017,
      "란": 5018,
      "랄": 5019,
      "람": 5020,
      "랍": 5021,
      "랏": 5022,
      "랐": 5023,
      "랑": 5024,
      "랗": 5025,
      "래": 5026,
      "랙": 5027,
      "랜": 5028,
      "램": 5029,
      "랩": 5030,
      "랬": 5031,
      "랭": 5032,
      "략": 5033,
      "량": 5034,
      "러": 5035,
      "런": 5036,
      "럴": 5037,
      "럼": 5038,
      "럽": 5039,
      "럿": 5040,
      "렀": 5041,
      "렁": 5042,
      "렇": 5043,
      "레": 5044,
      "렉": 5045,
      "렌": 5046,
      "렐": 5047,
      "렘": 5048,
      "렙": 5049,
      "렛": 5050,
      "려": 5051,
      "력": 5052,
      "련": 5053,
      "렬": 5054,
      "렴": 5055,
      "렵": 5056,
      "렸": 5057,
      "령": 5058,
      "례": 5059,
      "로": 5060,
      "록": 5061,
      "론": 5062,
      "롤": 5063,
      "롬": 5064,
      "롭": 5065,
      "롯": 5066,
      "롱": 5067,
      "뢰": 5068,
      "료": 5069,
      "룡": 5070,
      "루": 5071,
      "룩": 5072,
      "룬": 5073,
      "룰": 5074,
      "룸": 5075,
      "룹": 5076,
      "뤄": 5077,
      "류": 5078,
      "륙": 5079,
      "륜": 5080,
      "률": 5081,
      "르": 5082,
      "른": 5083,
      "를": 5084,
      "름": 5085,
      "릇": 5086,
      "릉": 5087,
      "리": 5088,
      "릭": 5089,
      "린": 5090,
      "릴": 5091,
      "림": 5092,
      "립": 5093,
      "릿": 5094,
      "링": 5095,
      "마": 5096,
      "막": 5097,
      "만": 5098,
      "많": 5099,
      "말": 5100,
      "맑": 5101,
      "맘": 5102,
      "맙": 5103,
      "맛": 5104,
      "망": 5105,
      "맞": 5106,
      "매": 5107,
      "맥": 5108,
      "맨": 5109,
      "맵": 5110,
      "맷": 5111,
      "맹": 5112,
      "머": 5113,
      "먹": 5114,
      "먼": 5115,
      "멀": 5116,
      "멈": 5117,
      "멋": 5118,
      "멍": 5119,
      "메": 5120,
      "멕": 5121,
      "멜": 5122,
      "멤": 5123,
      "며": 5124,
      "면": 5125,
      "멸": 5126,
      "명": 5127,
      "몇": 5128,
      "모": 5129,
      "목": 5130,
      "몬": 5131,
      "몰": 5132,
      "몸": 5133,
      "몹": 5134,
      "못": 5135,
      "몽": 5136,
      "뫼": 5137,
      "묏": 5138,
      "묘": 5139,
      "무": 5140,
      "묵": 5141,
      "문": 5142,
      "물": 5143,
      "뭄": 5144,
      "뭇": 5145,
      "뭊": 5146,
      "뭐": 5147,
      "뭔": 5148,
      "뭘": 5149,
      "뭣": 5150,
      "뮤": 5151,
      "므": 5152,
      "믕": 5153,
      "미": 5154,
      "믹": 5155,
      "민": 5156,
      "믿": 5157,
      "밀": 5158,
      "밍": 5159,
      "밑": 5160,
      "바": 5161,
      "박": 5162,
      "밖": 5163,
      "반": 5164,
      "받": 5165,
      "발": 5166,
      "밝": 5167,
      "밟": 5168,
      "밤": 5169,
      "밥": 5170,
      "방": 5171,
      "밭": 5172,
      "배": 5173,
      "백": 5174,
      "밴": 5175,
      "뱀": 5176,
      "뱃": 5177,
      "뱅": 5178,
      "버": 5179,
      "벅": 5180,
      "번": 5181,
      "벌": 5182,
      "범": 5183,
      "법": 5184,
      "벚": 5185,
      "베": 5186,
      "벤": 5187,
      "벨": 5188,
      "벼": 5189,
      "벽": 5190,
      "변": 5191,
      "별": 5192,
      "병": 5193,
      "보": 5194,
      "복": 5195,
      "볶": 5196,
      "본": 5197,
      "볼": 5198,
      "봄": 5199,
      "봉": 5200,
      "봐": 5201,
      "부": 5202,
      "북": 5203,
      "분": 5204,
      "불": 5205,
      "붉": 5206,
      "붐": 5207,
      "붕": 5208,
      "붙": 5209,
      "뷔": 5210,
      "뷰": 5211,
      "브": 5212,
      "븐": 5213,
      "블": 5214,
      "비": 5215,
      "빅": 5216,
      "빈": 5217,
      "빌": 5218,
      "빔": 5219,
      "빗": 5220,
      "빙": 5221,
      "빛": 5222,
      "빠": 5223,
      "빤": 5224,
      "빨": 5225,
      "빵": 5226,
      "빼": 5227,
      "뻐": 5228,
      "뻑": 5229,
      "뻔": 5230,
      "뻬": 5231,
      "뽀": 5232,
      "뽐": 5233,
      "뽕": 5234,
      "뿅": 5235,
      "뿌": 5236,
      "뿐": 5237,
      "뿔": 5238,
      "뿜": 5239,
      "뿡": 5240,
      "쀼": 5241,
      "쁘": 5242,
      "쁜": 5243,
      "쁠": 5244,
      "쁨": 5245,
      "삐": 5246,
      "삠": 5247,
      "사": 5248,
      "삭": 5249,
      "산": 5250,
      "살": 5251,
      "삶": 5252,
      "삼": 5253,
      "삿": 5254,
      "상": 5255,
      "새": 5256,
      "색": 5257,
      "샌": 5258,
      "샘": 5259,
      "생": 5260,
      "샤": 5261,
      "샬": 5262,
      "샴": 5263,
      "서": 5264,
      "석": 5265,
      "선": 5266,
      "설": 5267,
      "섬": 5268,
      "섭": 5269,
      "섯": 5270,
      "성": 5271,
      "세": 5272,
      "센": 5273,
      "셀": 5274,
      "셋": 5275,
      "셔": 5276,
      "션": 5277,
      "셜": 5278,
      "셰": 5279,
      "소": 5280,
      "속": 5281,
      "손": 5282,
      "솔": 5283,
      "솜": 5284,
      "송": 5285,
      "쇠": 5286,
      "쇼": 5287,
      "숀": 5288,
      "숏": 5289,
      "숑": 5290,
      "수": 5291,
      "숙": 5292,
      "순": 5293,
      "술": 5294,
      "숨": 5295,
      "숩": 5296,
      "숫": 5297,
      "숭": 5298,
      "숲": 5299,
      "쉐": 5300,
      "쉘": 5301,
      "쉬": 5302,
      "쉽": 5303,
      "쉿": 5304,
      "슈": 5305,
      "슌": 5306,
      "슛": 5307,
      "스": 5308,
      "슨": 5309,
      "슬": 5310,
      "슴": 5311,
      "습": 5312,
      "슷": 5313,
      "승": 5314,
      "슼": 5315,
      "시": 5316,
      "식": 5317,
      "신": 5318,
      "싣": 5319,
      "실": 5320,
      "싫": 5321,
      "심": 5322,
      "십": 5323,
      "싱": 5324,
      "싶": 5325,
      "싸": 5326,
      "쌀": 5327,
      "쌈": 5328,
      "쌍": 5329,
      "쌓": 5330,
      "써": 5331,
      "썰": 5332,
      "썸": 5333,
      "쎈": 5334,
      "쏘": 5335,
      "쏙": 5336,
      "쏜": 5337,
      "쏟": 5338,
      "쏭": 5339,
      "쏴": 5340,
      "쑤": 5341,
      "쓰": 5342,
      "쓸": 5343,
      "씁": 5344,
      "씨": 5345,
      "씬": 5346,
      "씻": 5347,
      "씽": 5348,
      "아": 5349,
      "악": 5350,
      "안": 5351,
      "앉": 5352,
      "않": 5353,
      "알": 5354,
      "앓": 5355,
      "암": 5356,
      "압": 5357,
      "았": 5358,
      "앙": 5359,
      "앞": 5360,
      "애": 5361,
      "앤": 5362,
      "앨": 5363,
      "앰": 5364,
      "앵": 5365,
      "야": 5366,
      "약": 5367,
      "얀": 5368,
      "얄": 5369,
      "얌": 5370,
      "양": 5371,
      "얘": 5372,
      "어": 5373,
      "억": 5374,
      "언": 5375,
      "얻": 5376,
      "얼": 5377,
      "엄": 5378,
      "업": 5379,
      "없": 5380,
      "었": 5381,
      "엉": 5382,
      "에": 5383,
      "엑": 5384,
      "엔": 5385,
      "엘": 5386,
      "엠": 5387,
      "엣": 5388,
      "여": 5389,
      "역": 5390,
      "연": 5391,
      "열": 5392,
      "염": 5393,
      "엽": 5394,
      "엿": 5395,
      "였": 5396,
      "영": 5397,
      "예": 5398,
      "옛": 5399,
      "오": 5400,
      "옥": 5401,
      "온": 5402,
      "올": 5403,
      "옵": 5404,
      "옷": 5405,
      "옹": 5406,
      "와": 5407,
      "완": 5408,
      "왔": 5409,
      "왕": 5410,
      "왜": 5411,
      "왠": 5412,
      "외": 5413,
      "요": 5414,
      "욕": 5415,
      "욘": 5416,
      "용": 5417,
      "우": 5418,
      "욱": 5419,
      "운": 5420,
      "울": 5421,
      "움": 5422,
      "웃": 5423,
      "웅": 5424,
      "워": 5425,
      "웍": 5426,
      "원": 5427,
      "월": 5428,
      "웜": 5429,
      "웨": 5430,
      "웬": 5431,
      "웰": 5432,
      "웹": 5433,
      "웽": 5434,
      "위": 5435,
      "윈": 5436,
      "윌": 5437,
      "윗": 5438,
      "윙": 5439,
      "유": 5440,
      "육": 5441,
      "윤": 5442,
      "율": 5443,
      "융": 5444,
      "으": 5445,
      "윽": 5446,
      "은": 5447,
      "읃": 5448,
      "을": 5449,
      "음": 5450,
      "읍": 5451,
      "읏": 5452,
      "응": 5453,
      "읒": 5454,
      "읓": 5455,
      "읗": 5456,
      "의": 5457,
      "이": 5458,
      "익": 5459,
      "인": 5460,
      "일": 5461,
      "읽": 5462,
      "잃": 5463,
      "임": 5464,
      "입": 5465,
      "잇": 5466,
      "있": 5467,
      "잉": 5468,
      "잊": 5469,
      "잎": 5470,
      "자": 5471,
      "작": 5472,
      "잔": 5473,
      "잖": 5474,
      "잘": 5475,
      "잠": 5476,
      "잡": 5477,
      "잤": 5478,
      "장": 5479,
      "재": 5480,
      "잼": 5481,
      "쟁": 5482,
      "쟈": 5483,
      "쟤": 5484,
      "저": 5485,
      "적": 5486,
      "전": 5487,
      "절": 5488,
      "젊": 5489,
      "점": 5490,
      "접": 5491,
      "젓": 5492,
      "정": 5493,
      "제": 5494,
      "젝": 5495,
      "젠": 5496,
      "젤": 5497,
      "젯": 5498,
      "져": 5499,
      "젼": 5500,
      "졌": 5501,
      "조": 5502,
      "족": 5503,
      "존": 5504,
      "졸": 5505,
      "좀": 5506,
      "종": 5507,
      "좋": 5508,
      "좌": 5509,
      "죄": 5510,
      "죠": 5511,
      "죤": 5512,
      "주": 5513,
      "죽": 5514,
      "준": 5515,
      "줄": 5516,
      "줏": 5517,
      "중": 5518,
      "줘": 5519,
      "쥐": 5520,
      "쥬": 5521,
      "즈": 5522,
      "즌": 5523,
      "즐": 5524,
      "즘": 5525,
      "증": 5526,
      "지": 5527,
      "직": 5528,
      "진": 5529,
      "질": 5530,
      "짐": 5531,
      "집": 5532,
      "짓": 5533,
      "징": 5534,
      "짜": 5535,
      "짝": 5536,
      "짠": 5537,
      "짬": 5538,
      "짱": 5539,
      "째": 5540,
      "쩌": 5541,
      "쩐": 5542,
      "쩜": 5543,
      "쩡": 5544,
      "쪼": 5545,
      "쫓": 5546,
      "쭈": 5547,
      "쭌": 5548,
      "쭤": 5549,
      "쯤": 5550,
      "쯧": 5551,
      "찌": 5552,
      "찍": 5553,
      "찐": 5554,
      "찔": 5555,
      "찜": 5556,
      "차": 5557,
      "착": 5558,
      "찬": 5559,
      "찮": 5560,
      "찰": 5561,
      "참": 5562,
      "창": 5563,
      "찾": 5564,
      "채": 5565,
      "책": 5566,
      "챈": 5567,
      "챌": 5568,
      "챔": 5569,
      "챙": 5570,
      "챠": 5571,
      "처": 5572,
      "척": 5573,
      "천": 5574,
      "철": 5575,
      "첩": 5576,
      "첫": 5577,
      "청": 5578,
      "체": 5579,
      "쳐": 5580,
      "초": 5581,
      "촉": 5582,
      "촌": 5583,
      "총": 5584,
      "촨": 5585,
      "최": 5586,
      "쵸": 5587,
      "추": 5588,
      "축": 5589,
      "춘": 5590,
      "출": 5591,
      "춤": 5592,
      "충": 5593,
      "춰": 5594,
      "취": 5595,
      "츄": 5596,
      "츠": 5597,
      "층": 5598,
      "치": 5599,
      "칙": 5600,
      "친": 5601,
      "칠": 5602,
      "침": 5603,
      "칫": 5604,
      "칭": 5605,
      "카": 5606,
      "칸": 5607,
      "칼": 5608,
      "캉": 5609,
      "캐": 5610,
      "캔": 5611,
      "캠": 5612,
      "커": 5613,
      "컨": 5614,
      "컬": 5615,
      "컴": 5616,
      "컷": 5617,
      "케": 5618,
      "켄": 5619,
      "켓": 5620,
      "켜": 5621,
      "코": 5622,
      "콕": 5623,
      "콘": 5624,
      "콜": 5625,
      "콤": 5626,
      "콩": 5627,
      "쾅": 5628,
      "쿠": 5629,
      "쿡": 5630,
      "쿤": 5631,
      "쿵": 5632,
      "퀘": 5633,
      "퀴": 5634,
      "퀸": 5635,
      "큐": 5636,
      "큘": 5637,
      "크": 5638,
      "큰": 5639,
      "클": 5640,
      "큼": 5641,
      "키": 5642,
      "킨": 5643,
      "킬": 5644,
      "킴": 5645,
      "킷": 5646,
      "킹": 5647,
      "타": 5648,
      "탁": 5649,
      "탄": 5650,
      "탈": 5651,
      "탐": 5652,
      "탑": 5653,
      "탕": 5654,
      "태": 5655,
      "택": 5656,
      "탤": 5657,
      "탱": 5658,
      "터": 5659,
      "턴": 5660,
      "털": 5661,
      "테": 5662,
      "텍": 5663,
      "텐": 5664,
      "텔": 5665,
      "토": 5666,
      "톤": 5667,
      "톨": 5668,
      "통": 5669,
      "퇴": 5670,
      "툇": 5671,
      "투": 5672,
      "퉁": 5673,
      "퉜": 5674,
      "튀": 5675,
      "튜": 5676,
      "튠": 5677,
      "트": 5678,
      "특": 5679,
      "튼": 5680,
      "틀": 5681,
      "틈": 5682,
      "틔": 5683,
      "티": 5684,
      "틱": 5685,
      "틴": 5686,
      "틸": 5687,
      "팀": 5688,
      "팅": 5689,
      "파": 5690,
      "판": 5691,
      "팔": 5692,
      "팝": 5693,
      "팠": 5694,
      "팡": 5695,
      "팥": 5696,
      "패": 5697,
      "팩": 5698,
      "팬": 5699,
      "팰": 5700,
      "팽": 5701,
      "퍼": 5702,
      "펀": 5703,
      "펑": 5704,
      "페": 5705,
      "펙": 5706,
      "펜": 5707,
      "펠": 5708,
      "편": 5709,
      "평": 5710,
      "포": 5711,
      "폭": 5712,
      "폰": 5713,
      "폴": 5714,
      "폼": 5715,
      "표": 5716,
      "푱": 5717,
      "푸": 5718,
      "푼": 5719,
      "풀": 5720,
      "품": 5721,
      "풋": 5722,
      "풍": 5723,
      "퓨": 5724,
      "프": 5725,
      "픈": 5726,
      "플": 5727,
      "픔": 5728,
      "피": 5729,
      "픽": 5730,
      "핀": 5731,
      "필": 5732,
      "핑": 5733,
      "하": 5734,
      "학": 5735,
      "한": 5736,
      "할": 5737,
      "함": 5738,
      "합": 5739,
      "핫": 5740,
      "항": 5741,
      "해": 5742,
      "핵": 5743,
      "핸": 5744,
      "햄": 5745,
      "햇": 5746,
      "했": 5747,
      "행": 5748,
      "향": 5749,
      "허": 5750,
      "헌": 5751,
      "험": 5752,
      "헛": 5753,
      "헝": 5754,
      "헤": 5755,
      "헨": 5756,
      "헬": 5757,
      "헷": 5758,
      "혀": 5759,
      "혁": 5760,
      "현": 5761,
      "혈": 5762,
      "혐": 5763,
      "협": 5764,
      "형": 5765,
      "혜": 5766,
      "호": 5767,
      "혹": 5768,
      "혼": 5769,
      "홀": 5770,
      "홈": 5771,
      "홉": 5772,
      "홍": 5773,
      "화": 5774,
      "확": 5775,
      "환": 5776,
      "활": 5777,
      "황": 5778,
      "회": 5779,
      "획": 5780,
      "효": 5781,
      "후": 5782,
      "훈": 5783,
      "훤": 5784,
      "훼": 5785,
      "휘": 5786,
      "휴": 5787,
      "흉": 5788,
      "흐": 5789,
      "흑": 5790,
      "흔": 5791,
      "흘": 5792,
      "흙": 5793,
      "흠": 5794,
      "흡": 5795,
      "흥": 5796,
      "희": 5797,
      "흰": 5798,
      "히": 5799,
      "힐": 5800,
      "힘": 5801,
      "힙": 5802,
      "": 5803,
      "": 5804,
      "": 5805,
      "": 5806,
      "": 5807,
      "": 5808,
      "": 5809,
      "": 5810,
      "": 5811,
      "": 5812,
      "": 5813,
      "": 5814,
      "": 5815,
      "": 5816,
      "": 5817,
      "": 5818,
      "": 5819,
      "": 5820,
      "": 5821,
      "": 5822,
      "": 5823,
      "": 5824,
      "": 5825,
      "": 5826,
      "": 5827,
      "": 5828,
      "": 5829,
      "": 5830,
      "": 5831,
      "": 5832,
      "": 5833,
      "": 5834,
      "": 5835,
      "": 5836,
      "": 5837,
      "": 5838,
      "": 5839,
      "": 5840,
      "": 5841,
      "": 5842,
      "": 5843,
      "": 5844,
      "": 5845,
      "": 5846,
      "": 5847,
      "": 5848,
      "": 5849,
      "": 5850,
      "": 5851,
      "": 5852,
      "": 5853,
      "": 5854,
      "": 5855,
      "": 5856,
      "": 5857,
      "": 5858,
      "": 5859,
      "": 5860,
      "": 5861,
      "塚": 5862,
      "﨑": 5863,
      "羽": 5864,
      "﨣": 5865,
      "ﬀ": 5866,
      "ﬁ": 5867,
      "ﬂ": 5868,
      "ﬃ": 5869,
      "ﬄ": 5870,
      "ﬅ": 5871,
      "ﬆ": 5872,
      "ﭪ": 5873,
      "ﭼ": 5874,
      "ﮪ": 5875,
      "ﯩ": 5876,
      "﷼": 5877,
      "︀": 5878,
      "︁": 5879,
      "︌": 5880,
      "︎": 5881,
      "️": 5882,
      "︔": 5883,
      "︰": 5884,
      "︱": 5885,
      "︲": 5886,
      "︳": 5887,
      "︴": 5888,
      "︶": 5889,
      "︹": 5890,
      "︺": 5891,
      "︽": 5892,
      "︾": 5893,
      "︿": 5894,
      "﹀": 5895,
      "﹁": 5896,
      "﹂": 5897,
      "﹃": 5898,
      "﹄": 5899,
      "﹋": 5900,
      "﹌": 5901,
      "﹍": 5902,
      "﹏": 5903,
      "﹐": 5904,
      "﹑": 5905,
      "﹒": 5906,
      "﹔": 5907,
      "﹕": 5908,
      "﹖": 5909,
      "﹗": 5910,
      "﹙": 5911,
      "﹚": 5912,
      "﹝": 5913,
      "﹞": 5914,
      "﹟": 5915,
      "﹠": 5916,
      "﹡": 5917,
      "﹣": 5918,
      "﹥": 5919,
      "﹦": 5920,
      "﹩": 5921,
      "﹪": 5922,
      "ﺁ": 5923,
      "ﺍ": 5924,
      "ﺎ": 5925,
      "ﺐ": 5926,
      "ﺑ": 5927,
      "ﺒ": 5928,
      "ﺓ": 5929,
      "ﺔ": 5930,
      "ﺝ": 5931,
      "ﺡ": 5932,
      "ﺣ": 5933,
      "ﺤ": 5934,
      "ﺩ": 5935,
      "ﺪ": 5936,
      "ﺭ": 5937,
      "ﺮ": 5938,
      "ﺳ": 5939,
      "ﻋ": 5940,
      "ﻌ": 5941,
      "ﻐ": 5942,
      "ﻓ": 5943,
      "ﻕ": 5944,
      "ﻙ": 5945,
      "ﻞ": 5946,
      "ﻟ": 5947,
      "ﻠ": 5948,
      "ﻣ": 5949,
      "ﻧ": 5950,
      "ﻪ": 5951,
      "ﻫ": 5952,
      "ﻭ": 5953,
      "ﻮ": 5954,
      "ﻯ": 5955,
      "ﻲ": 5956,
      "ﻴ": 5957,
      "ﻻ": 5958,
      "﻿": 5959,
      "＂": 5960,
      "＃": 5961,
      "＄": 5962,
      "％": 5963,
      "＆": 5964,
      "＇": 5965,
      "＊": 5966,
      "＋": 5967,
      "－": 5968,
      "．": 5969,
      "／": 5970,
      "０": 5971,
      "１": 5972,
      "２": 5973,
      "３": 5974,
      "４": 5975,
      "５": 5976,
      "６": 5977,
      "７": 5978,
      "８": 5979,
      "９": 5980,
      "＜": 5981,
      "＝": 5982,
      "＞": 5983,
      "＠": 5984,
      "Ａ": 5985,
      "Ｂ": 5986,
      "Ｃ": 5987,
      "Ｄ": 5988,
      "Ｅ": 5989,
      "Ｆ": 5990,
      "Ｇ": 5991,
      "Ｈ": 5992,
      "Ｉ": 5993,
      "Ｊ": 5994,
      "Ｋ": 5995,
      "Ｌ": 5996,
      "Ｍ": 5997,
      "Ｎ": 5998,
      "Ｏ": 5999,
      "Ｐ": 6000,
      "Ｑ": 6001,
      "Ｒ": 6002,
      "Ｓ": 6003,
      "Ｔ": 6004,
      "Ｕ": 6005,
      "Ｖ": 6006,
      "Ｗ": 6007,
      "Ｘ": 6008,
      "Ｙ": 6009,
      "Ｚ": 6010,
      "［": 6011,
      "＼": 6012,
      "］": 6013,
      "＾": 6014,
      "＿": 6015,
      "｀": 6016,
      "ａ": 6017,
      "ｂ": 6018,
      "ｃ": 6019,
      "ｄ": 6020,
      "ｅ": 6021,
      "ｆ": 6022,
      "ｇ": 6023,
      "ｈ": 6024,
      "ｉ": 6025,
      "ｊ": 6026,
      "ｋ": 6027,
      "ｌ": 6028,
      "ｍ": 6029,
      "ｎ": 6030,
      "ｏ": 6031,
      "ｐ": 6032,
      "ｑ": 6033,
      "ｒ": 6034,
      "ｓ": 6035,
      "ｔ": 6036,
      "ｕ": 6037,
      "ｖ": 6038,
      "ｗ": 6039,
      "ｘ": 6040,
      "ｙ": 6041,
      "｛": 6042,
      "｜": 6043,
      "｝": 6044,
      "～": 6045,
      "｡": 6046,
      "｢": 6047,
      "｣": 6048,
      "､": 6049,
      "･": 6050,
      "ｦ": 6051,
      "ｧ": 6052,
      "ｨ": 6053,
      "ｪ": 6054,
      "ｫ": 6055,
      "ｬ": 6056,
      "ｭ": 6057,
      "ｯ": 6058,
      "ｰ": 6059,
      "ｱ": 6060,
      "ｲ": 6061,
      "ｳ": 6062,
      "ｴ": 6063,
      "ｵ": 6064,
      "ｶ": 6065,
      "ｷ": 6066,
      "ｸ": 6067,
      "ｹ": 6068,
      "ｺ": 6069,
      "ｻ": 6070,
      "ｼ": 6071,
      "ｽ": 6072,
      "ｾ": 6073,
      "ｿ": 6074,
      "ﾀ": 6075,
      "ﾁ": 6076,
      "ﾂ": 6077,
      "ﾃ": 6078,
      "ﾄ": 6079,
      "ﾅ": 6080,
      "ﾈ": 6081,
      "ﾉ": 6082,
      "ﾊ": 6083,
      "ﾋ": 6084,
      "ﾌ": 6085,
      "ﾍ": 6086,
      "ﾎ": 6087,
      "ﾏ": 6088,
      "ﾐ": 6089,
      "ﾑ": 6090,
      "ﾒ": 6091,
      "ﾓ": 6092,
      "ﾔ": 6093,
      "ﾗ": 6094,
      "ﾘ": 6095,
      "ﾙ": 6096,
      "ﾚ": 6097,
      "ﾛ": 6098,
      "ﾜ": 6099,
      "ﾝ": 6100,
      "ﾞ": 6101,
      "ﾟ": 6102,
      "￠": 6103,
      "￡": 6104,
      "￢": 6105,
      "￣": 6106,
      "￥": 6107,
      "￦": 6108,
      "￼": 6109,
      "�": 6110,
      "𐀀": 6111,
      "𐀄": 6112,
      "𐀏": 6113,
      "𐀐": 6114,
      "𐀙": 6115,
      "𐀞": 6116,
      "𐀣": 6117,
      "𐀩": 6118,
      "𐀫": 6119,
      "𐀭": 6120,
      "𐀯": 6121,
      "𐀷": 6122,
      "𐅀": 6123,
      "𐅁": 6124,
      "𐅂": 6125,
      "𐅆": 6126,
      "𐅗": 6127,
      "𐌀": 6128,
      "𐌄": 6129,
      "𐌉": 6130,
      "𐌓": 6131,
      "𐌕": 6132,
      "𐌰": 6133,
      "𐌳": 6134,
      "𐌻": 6135,
      "𐌼": 6136,
      "𐌿": 6137,
      "𐎊": 6138,
      "𐎌": 6139,
      "𐎍": 6140,
      "𐎗": 6141,
      "𐎛": 6142,
      "𐎠": 6143,
      "𐎡": 6144,
      "𐎢": 6145,
      "𐎣": 6146,
      "𐎥": 6147,
      "𐎧": 6148,
      "𐎩": 6149,
      "𐎫": 6150,
      "𐎭": 6151,
      "𐎱": 6152,
      "𐎴": 6153,
      "𐎶": 6154,
      "𐎷": 6155,
      "𐎹": 6156,
      "𐎺": 6157,
      "𐎼": 6158,
      "𐎿": 6159,
      "𐏀": 6160,
      "𐏁": 6161,
      "𐏂": 6162,
      "𐏃": 6163,
      "𐏋": 6164,
      "𐏎": 6165,
      "𐏐": 6166,
      "𐐦": 6167,
      "𐐧": 6168,
      "𐐷": 6169,
      "𐑎": 6170,
      "𐑏": 6171,
      "𐡂": 6172,
      "𐡍": 6173,
      "𐡔": 6174,
      "𐤀": 6175,
      "𐤁": 6176,
      "𐤂": 6177,
      "𐤃": 6178,
      "𐤄": 6179,
      "𐤅": 6180,
      "𐤇": 6181,
      "𐤈": 6182,
      "𐤉": 6183,
      "𐤊": 6184,
      "𐤋": 6185,
      "𐤌": 6186,
      "𐤍": 6187,
      "𐤏": 6188,
      "𐤐": 6189,
      "𐤑": 6190,
      "𐤒": 6191,
      "𐤓": 6192,
      "𐤔": 6193,
      "𐤕": 6194,
      "𐨀": 6195,
      "𐨁": 6196,
      "𐨂": 6197,
      "𐨅": 6198,
      "𐨆": 6199,
      "𐨐": 6200,
      "𐨒": 6201,
      "𐨗": 6202,
      "𐨞": 6203,
      "𐨢": 6204,
      "𐨣": 6205,
      "𐨨": 6206,
      "𐨩": 6207,
      "𐨪": 6208,
      "𐨫": 6209,
      "𐨬": 6210,
      "𐨮": 6211,
      "𐨯": 6212,
      "𐨿": 6213,
      "𐩢": 6214,
      "𐩣": 6215,
      "𐩨": 6216,
      "𐩪": 6217,
      "𐩬": 6218,
      "𐩯": 6219,
      "𐩱": 6220,
      "𐩵": 6221,
      "𐩶": 6222,
      "𐩺": 6223,
      "𐩽": 6224,
      "𐪆": 6225,
      "𐪌": 6226,
      "𐪔": 6227,
      "𐬀": 6228,
      "𐬉": 6229,
      "𐬌": 6230,
      "𐬎": 6231,
      "𐬑": 6232,
      "𐬖": 6233,
      "𐬙": 6234,
      "𐬛": 6235,
      "𐬞": 6236,
      "𐬠": 6237,
      "𐬨": 6238,
      "𐬫": 6239,
      "𐬯": 6240,
      "𐬱": 6241,
      "𐬴": 6242,
      "𐭀": 6243,
      "𐭃": 6244,
      "𐭅": 6245,
      "𐭉": 6246,
      "𐭊": 6247,
      "𐭋": 6248,
      "𐭌": 6249,
      "𐭍": 6250,
      "𐭎": 6251,
      "𐭐": 6252,
      "𐭓": 6253,
      "𐭕": 6254,
      "𐭠": 6255,
      "𐭢": 6256,
      "𐭣": 6257,
      "𐭥": 6258,
      "𐭦": 6259,
      "𐭧": 6260,
      "𐭩": 6261,
      "𐭪": 6262,
      "𐭫": 6263,
      "𐭬": 6264,
      "𐭭": 6265,
      "𐭮": 6266,
      "𐭯": 6267,
      "𐭱": 6268,
      "𐭲": 6269,
      "𐰀": 6270,
      "𐰃": 6271,
      "𐰆": 6272,
      "𐰇": 6273,
      "𐰉": 6274,
      "𐰋": 6275,
      "𐰍": 6276,
      "𐰏": 6277,
      "𐰑": 6278,
      "𐰓": 6279,
      "𐰔": 6280,
      "𐰖": 6281,
      "𐰘": 6282,
      "𐰚": 6283,
      "𐰛": 6284,
      "𐰜": 6285,
      "𐰞": 6286,
      "𐰠": 6287,
      "𐰢": 6288,
      "𐰣": 6289,
      "𐰤": 6290,
      "𐰰": 6291,
      "𐰲": 6292,
      "𐰴": 6293,
      "𐰵": 6294,
      "𐰼": 6295,
      "𐰾": 6296,
      "𐱁": 6297,
      "𐱃": 6298,
      "𐱅": 6299,
      "𑀁": 6300,
      "𑀆": 6301,
      "𑀉": 6302,
      "𑀏": 6303,
      "𑀓": 6304,
      "𑀕": 6305,
      "𑀘": 6306,
      "𑀚": 6307,
      "𑀜": 6308,
      "𑀡": 6309,
      "𑀢": 6310,
      "𑀣": 6311,
      "𑀤": 6312,
      "𑀥": 6313,
      "𑀦": 6314,
      "𑀧": 6315,
      "𑀪": 6316,
      "𑀫": 6317,
      "𑀬": 6318,
      "𑀭": 6319,
      "𑀯": 6320,
      "𑀱": 6321,
      "𑀲": 6322,
      "𑀳": 6323,
      "𑀸": 6324,
      "𑀺": 6325,
      "𑀻": 6326,
      "𑀼": 6327,
      "𑁂": 6328,
      "𑁄": 6329,
      "𑁆": 6330,
      "𑁇": 6331,
      "𑁈": 6332,
      "𑜃": 6333,
      "𑜄": 6334,
      "𑜈": 6335,
      "𑜌": 6336,
      "𑜘": 6337,
      "𑜞": 6338,
      "𑜡": 6339,
      "𑢹": 6340,
      "𑣉": 6341,
      "𑣋": 6342,
      "𑣎": 6343,
      "𑣜": 6344,
      "𒀀": 6345,
      "𒀊": 6346,
      "𒀭": 6347,
      "𒀾": 6348,
      "𒁀": 6349,
      "𒁄": 6350,
      "𒁉": 6351,
      "𒁕": 6352,
      "𒁺": 6353,
      "𒂅": 6354,
      "𒂊": 6355,
      "𒂍": 6356,
      "𒂗": 6357,
      "𒂠": 6358,
      "𒂦": 6359,
      "𒂵": 6360,
      "𒃶": 6361,
      "𒃷": 6362,
      "𒃻": 6363,
      "𒄀": 6364,
      "𒄑": 6365,
      "𒄖": 6366,
      "𒄩": 6367,
      "𒄭": 6368,
      "𒄿": 6369,
      "𒅀": 6370,
      "𒅅": 6371,
      "𒅈": 6372,
      "𒅋": 6373,
      "𒅖": 6374,
      "𒅘": 6375,
      "𒆕": 6376,
      "𒆠": 6377,
      "𒆤": 6378,
      "𒆧": 6379,
      "𒆪": 6380,
      "𒆬": 6381,
      "𒆳": 6382,
      "𒆷": 6383,
      "𒈗": 6384,
      "𒈠": 6385,
      "𒈦": 6386,
      "𒈨": 6387,
      "𒈪": 6388,
      "𒈬": 6389,
      "𒈹": 6390,
      "𒈾": 6391,
      "𒉌": 6392,
      "𒉣": 6393,
      "𒊏": 6394,
      "𒊓": 6395,
      "𒊭": 6396,
      "𒊷": 6397,
      "𒊹": 6398,
      "𒋗": 6399,
      "𒋤": 6400,
      "𒋫": 6401,
      "𒋼": 6402,
      "𒋾": 6403,
      "𒌆": 6404,
      "𒌇": 6405,
      "𒌍": 6406,
      "𒌑": 6407,
      "𒌓": 6408,
      "𒌦": 6409,
      "𒌷": 6410,
      "𒍣": 6411,
      "𒐼": 6412,
      "𓂋": 6413,
      "𓂝": 6414,
      "𓃠": 6415,
      "𓃣": 6416,
      "𓃱": 6417,
      "𓄿": 6418,
      "𓅓": 6419,
      "𓅱": 6420,
      "𓆎": 6421,
      "𓆑": 6422,
      "𓆓": 6423,
      "𓆰": 6424,
      "𓇋": 6425,
      "𓇍": 6426,
      "𓇽": 6427,
      "𓈈": 6428,
      "𓈉": 6429,
      "𓈖": 6430,
      "𓉴": 6431,
      "𓊖": 6432,
      "𓊪": 6433,
      "𓍋": 6434,
      "𓍘": 6435,
      "𓎡": 6436,
      "𓏇": 6437,
      "𓏏": 6438,
      "𖩃": 6439,
      "𖩑": 6440,
      "𖩓": 6441,
      "𖿣": 6442,
      "𗎁": 6443,
      "𗸯": 6444,
      "𘄊": 6445,
      "𘘣": 6446,
      "𘜶": 6447,
      "𘟙": 6448,
      "𘮒": 6449,
      "𘱚": 6450,
      "𘱤": 6451,
      "𘱿": 6452,
      "𛁈": 6453,
      "𛄟": 6454,
      "𛄡": 6455,
      "𛄢": 6456,
      "𜻏": 6457,
      "𝄂": 6458,
      "𝄆": 6459,
      "𝄇": 6460,
      "𝄋": 6461,
      "𝄌": 6462,
      "𝄪": 6463,
      "𝄫": 6464,
      "𝅝": 6465,
      "𝋀": 6466,
      "𝋁": 6467,
      "𝋂": 6468,
      "𝋅": 6469,
      "𝋆": 6470,
      "𝋇": 6471,
      "𝋌": 6472,
      "𝋑": 6473,
      "𝌀": 6474,
      "𝐀": 6475,
      "𝐁": 6476,
      "𝐂": 6477,
      "𝐄": 6478,
      "𝐅": 6479,
      "𝐆": 6480,
      "𝐇": 6481,
      "𝐈": 6482,
      "𝐉": 6483,
      "𝐊": 6484,
      "𝐋": 6485,
      "𝐌": 6486,
      "𝐍": 6487,
      "𝐎": 6488,
      "𝐑": 6489,
      "𝐒": 6490,
      "𝐓": 6491,
      "𝐔": 6492,
      "𝐖": 6493,
      "𝐗": 6494,
      "𝐘": 6495,
      "𝐞": 6496,
      "𝐡": 6497,
      "𝐢": 6498,
      "𝐥": 6499,
      "𝐦": 6500,
      "𝐫": 6501,
      "𝐬": 6502,
      "𝐴": 6503,
      "𝐵": 6504,
      "𝐶": 6505,
      "𝐸": 6506,
      "𝐹": 6507,
      "𝐻": 6508,
      "𝐾": 6509,
      "𝑂": 6510,
      "𝑄": 6511,
      "𝑇": 6512,
      "𝑋": 6513,
      "𝑑": 6514,
      "𝑓": 6515,
      "𝑗": 6516,
      "𝑘": 6517,
      "𝑝": 6518,
      "𝑠": 6519,
      "𝑦": 6520,
      "𝑧": 6521,
      "𝑨": 6522,
      "𝑪": 6523,
      "𝑫": 6524,
      "𝑯": 6525,
      "𝑱": 6526,
      "𝑳": 6527,
      "𝑵": 6528,
      "𝑹": 6529,
      "𝑺": 6530,
      "𝑻": 6531,
      "𝑼": 6532,
      "𝑿": 6533,
      "𝒂": 6534,
      "𝒃": 6535,
      "𝒄": 6536,
      "𝒅": 6537,
      "𝒆": 6538,
      "𝒉": 6539,
      "𝒊": 6540,
      "𝒍": 6541,
      "𝒏": 6542,
      "𝒐": 6543,
      "𝒑": 6544,
      "𝒓": 6545,
      "𝒔": 6546,
      "𝒕": 6547,
      "𝒖": 6548,
      "𝒗": 6549,
      "𝒘": 6550,
      "𝒚": 6551,
      "𝒰": 6552,
      "𝓨": 6553,
      "𝔓": 6554,
      "𝔡": 6555,
      "𝔪": 6556,
      "𝔫": 6557,
      "𝔬": 6558,
      "𝔸": 6559,
      "𝕆": 6560,
      "𝕊": 6561,
      "𝕏": 6562,
      "𝕖": 6563,
      "𝕞": 6564,
      "𝕟": 6565,
      "𝕠": 6566,
      "𝕪": 6567,
      "𝖟": 6568,
      "𝗖": 6569,
      "𝗝": 6570,
      "𝗟": 6571,
      "𝗦": 6572,
      "𝗬": 6573,
      "𝗲": 6574,
      "𝗶": 6575,
      "𝗸": 6576,
      "𝗹": 6577,
      "𝗻": 6578,
      "𝗼": 6579,
      "𝘀": 6580,
      "𝘂": 6581,
      "𝘆": 6582,
      "𝘒": 6583,
      "𝘽": 6584,
      "𝘾": 6585,
      "𝘿": 6586,
      "𝙀": 6587,
      "𝙇": 6588,
      "𝙈": 6589,
      "𝙊": 6590,
      "𝙋": 6591,
      "𝙍": 6592,
      "𝙎": 6593,
      "𝙐": 6594,
      "𝙑": 6595,
      "𝙖": 6596,
      "𝙘": 6597,
      "𝙙": 6598,
      "𝙚": 6599,
      "𝙜": 6600,
      "𝙝": 6601,
      "𝙞": 6602,
      "𝙣": 6603,
      "𝙤": 6604,
      "𝙥": 6605,
      "𝙧": 6606,
      "𝙨": 6607,
      "𝙩": 6608,
      "𝙫": 6609,
      "𝙬": 6610,
      "𝛂": 6611,
      "𝛃": 6612,
      "𝛔": 6613,
      "𝛾": 6614,
      "𝛿": 6615,
      "𝜆": 6616,
      "𝝰": 6617,
      "𝝱": 6618,
      "𝟮": 6619,
      "𞄀": 6620,
      "𞄂": 6621,
      "𞄄": 6622,
      "𞄎": 6623,
      "𞄐": 6624,
      "𞄔": 6625,
      "𞄚": 6626,
      "𞄤": 6627,
      "𞄦": 6628,
      "𞄧": 6629,
      "𞄩": 6630,
      "𞄫": 6631,
      "𞄬": 6632,
      "𞄰": 6633,
      "𞄱": 6634,
      "𞄲": 6635,
      "𞄳": 6636,
      "𞠀": 6637,
      "𞠁": 6638,
      "𞠂": 6639,
      "𞤑": 6640,
      "𞤢": 6641,
      "𞤪": 6642,
      "𞤭": 6643,
      "𞤮": 6644,
      "𞤲": 6645,
      "𞤳": 6646,
      "𞥄": 6647,
      "🇦": 6648,
      "🇧": 6649,
      "🇨": 6650,
      "🇩": 6651,
      "🇪": 6652,
      "🇫": 6653,
      "🇬": 6654,
      "🇭": 6655,
      "🇮": 6656,
      "🇯": 6657,
      "🇰": 6658,
      "🇱": 6659,
      "🇲": 6660,
      "🇳": 6661,
      "🇵": 6662,
      "🇷": 6663,
      "🇸": 6664,
      "🇹": 6665,
      "🇺": 6666,
      "🇻": 6667,
      "🇼": 6668,
      "🇾": 6669,
      "🇿": 6670,
      "🌈": 6671,
      "🌞": 6672,
      "🌟": 6673,
      "🌰": 6674,
      "🌸": 6675,
      "🌽": 6676,
      "🍆": 6677,
      "🍇": 6678,
      "🍉": 6679,
      "🍎": 6680,
      "🍑": 6681,
      "🍬": 6682,
      "🍸": 6683,
      "🍺": 6684,
      "🎀": 6685,
      "🎄": 6686,
      "🎌": 6687,
      "🎭": 6688,
      "🎵": 6689,
      "🏁": 6690,
      "🏆": 6691,
      "🏳": 6692,
      "🏴": 6693,
      "🏵": 6694,
      "🏻": 6695,
      "🏼": 6696,
      "🏽": 6697,
      "🏾": 6698,
      "🏿": 6699,
      "🐍": 6700,
      "🐎": 6701,
      "🐴": 6702,
      "🐾": 6703,
      "👅": 6704,
      "👌": 6705,
      "👍": 6706,
      "👑": 6707,
      "👧": 6708,
      "👨": 6709,
      "👩": 6710,
      "💔": 6711,
      "💗": 6712,
      "💚": 6713,
      "💜": 6714,
      "💣": 6715,
      "💧": 6716,
      "💩": 6717,
      "💰": 6718,
      "📅": 6719,
      "🔝": 6720,
      "🔤": 6721,
      "🔥": 6722,
      "🔫": 6723,
      "🔴": 6724,
      "🔵": 6725,
      "🔻": 6726,
      "🗿": 6727,
      "😀": 6728,
      "😂": 6729,
      "😃": 6730,
      "😅": 6731,
      "😍": 6732,
      "😐": 6733,
      "😭": 6734,
      "🙅": 6735,
      "🙈": 6736,
      "🙏": 6737,
      "🚩": 6738,
      "🚫": 6739,
      "🜨": 6740,
      "🝵": 6741,
      "🤌": 6742,
      "🤣": 6743,
      "🤦": 6744,
      "🥇": 6745,
      "🥈": 6746,
      "🥰": 6747,
      "🥸": 6748,
      "🥹": 6749,
      "🥺": 6750,
      "🦁": 6751,
      "🦋": 6752,
      "🦜": 6753,
      "🦠": 6754,
      "🧐": 6755,
      "🧭": 6756,
      "𠀑": 6757,
      "𠀠": 6758,
      "𠀤": 6759,
      "𠀧": 6760,
      "𠀾": 6761,
      "𠂂": 6762,
      "𠂉": 6763,
      "𠃉": 6764,
      "𠃋": 6765,
      "𠃍": 6766,
      "𠃎": 6767,
      "𠃑": 6768,
      "𠃵": 6769,
      "𠄎": 6770,
      "𠄘": 6771,
      "𠄞": 6772,
      "𠄟": 6773,
      "𠄠": 6774,
      "𠄩": 6775,
      "𠄳": 6776,
      "𠄼": 6777,
      "𠅿": 6778,
      "𠆢": 6779,
      "𠆤": 6780,
      "𠆭": 6781,
      "𠇇": 6782,
      "𠇖": 6783,
      "𠇟": 6784,
      "𠇶": 6785,
      "𠇹": 6786,
      "𠈌": 6787,
      "𠈣": 6788,
      "𠉛": 6789,
      "𠊛": 6790,
      "𠊺": 6791,
      "𠋮": 6792,
      "𠍀": 6793,
      "𠍇": 6794,
      "𠍋": 6795,
      "𠍟": 6796,
      "𠎀": 6797,
      "𠎢": 6798,
      "𠏉": 6799,
      "𠐓": 6800,
      "𠐔": 6801,
      "𠐤": 6802,
      "𠒇": 6803,
      "𠔦": 6804,
      "𠕇": 6805,
      "𠖳": 6806,
      "𠘨": 6807,
      "𠙴": 6808,
      "𠚕": 6809,
      "𠚢": 6810,
      "𠝹": 6811,
      "𠟭": 6812,
      "𠠫": 6813,
      "𠡠": 6814,
      "𠣮": 6815,
      "𠤩": 6816,
      "𠥓": 6817,
      "𠦝": 6818,
      "𠨑": 6819,
      "𠪱": 6820,
      "𠪳": 6821,
      "𠫂": 6822,
      "𠫊": 6823,
      "𠫑": 6824,
      "𠫤": 6825,
      "𠫳": 6826,
      "𠫾": 6827,
      "𠬍": 6828,
      "𠭘": 6829,
      "𠮶": 6830,
      "𠮷": 6831,
      "𠯿": 6832,
      "𠰂": 6833,
      "𠰢": 6834,
      "𠰱": 6835,
      "𠰷": 6836,
      "𠱊": 6837,
      "𠱸": 6838,
      "𠱾": 6839,
      "𠳓": 6840,
      "𠴟": 6841,
      "𠵆": 6842,
      "𠵇": 6843,
      "𠵱": 6844,
      "𠷨": 6845,
      "𠸟": 6846,
      "𠺌": 6847,
      "𠺞": 6848,
      "𠻇": 6849,
      "𠻸": 6850,
      "𠾶": 6851,
      "𡁻": 6852,
      "𡃁": 6853,
      "𡈟": 6854,
      "𡉟": 6855,
      "𡊎": 6856,
      "𡊤": 6857,
      "𡊿": 6858,
      "𡋕": 6859,
      "𡋣": 6860,
      "𡋱": 6861,
      "𡋹": 6862,
      "𡌃": 6863,
      "𡌳": 6864,
      "𡍓": 6865,
      "𡍼": 6866,
      "𡎊": 6867,
      "𡎜": 6868,
      "𡎠": 6869,
      "𡎴": 6870,
      "𡏦": 6871,
      "𡐾": 6872,
      "𡑏": 6873,
      "𡑐": 6874,
      "𡑒": 6875,
      "𡑠": 6876,
      "𡑡": 6877,
      "𡑤": 6878,
      "𡑵": 6879,
      "𡒉": 6880,
      "𡓂": 6881,
      "𡓝": 6882,
      "𡓱": 6883,
      "𡔈": 6884,
      "𡔉": 6885,
      "𡕀": 6886,
      "𡗨": 6887,
      "𡘯": 6888,
      "𡙇": 6889,
      "𡚒": 6890,
      "𡚖": 6891,
      "𡞱": 6892,
      "𡟃": 6893,
      "𡟰": 6894,
      "𡠍": 6895,
      "𡠾": 6896,
      "𡣗": 6897,
      "𡣺": 6898,
      "𡤕": 6899,
      "𡥧": 6900,
      "𡦗": 6901,
      "𡦹": 6902,
      "𡨂": 6903,
      "𡨃": 6904,
      "𡨊": 6905,
      "𡨧": 6906,
      "𡩀": 6907,
      "𡩈": 6908,
      "𡩋": 6909,
      "𡩏": 6910,
      "𡩜": 6911,
      "𡩢": 6912,
      "𡪾": 6913,
      "𡪿": 6914,
      "𡭬": 6915,
      "𡰣": 6916,
      "𡰳": 6917,
      "𡱰": 6918,
      "𡳅": 6919,
      "𡴶": 6920,
      "𡴾": 6921,
      "𡵯": 6922,
      "𡵰": 6923,
      "𡶀": 6924,
      "𡶛": 6925,
      "𡶶": 6926,
      "𡷣": 6927,
      "𡷫": 6928,
      "𡷹": 6929,
      "𡸷": 6930,
      "𡺄": 6931,
      "𡺊": 6932,
      "𡺿": 6933,
      "𡼹": 6934,
      "𡽫": 6935,
      "𡽹": 6936,
      "𡾊": 6937,
      "𡾣": 6938,
      "𢀇": 6939,
      "𢀓": 6940,
      "𢀛": 6941,
      "𢀿": 6942,
      "𢂎": 6943,
      "𢃇": 6944,
      "𢄂": 6945,
      "𢄙": 6946,
      "𢆡": 6947,
      "𢌛": 6948,
      "𢍘": 6949,
      "𢎞": 6950,
      "𢏺": 6951,
      "𢐗": 6952,
      "𢑥": 6953,
      "𢓊": 6954,
      "𢓨": 6955,
      "𢔶": 6956,
      "𢕌": 6957,
      "𢕸": 6958,
      "𢘆": 6959,
      "𢘑": 6960,
      "𢘙": 6961,
      "𢘥": 6962,
      "𢙏": 6963,
      "𢙒": 6964,
      "𢙴": 6965,
      "𢚍": 6966,
      "𢚝": 6967,
      "𢛣": 6968,
      "𢞘": 6969,
      "𢟬": 6970,
      "𢠁": 6971,
      "𢡱": 6972,
      "𢢀": 6973,
      "𢢝": 6974,
      "𢢩": 6975,
      "𢢼": 6976,
      "𢢽": 6977,
      "𢣴": 6978,
      "𢤮": 6979,
      "𢦉": 6980,
      "𢫆": 6981,
      "𢫾": 6982,
      "𢬍": 6983,
      "𢱿": 6984,
      "𢴇": 6985,
      "𢶏": 6986,
      "𢶜": 6987,
      "𢷋": 6988,
      "𢺋": 6989,
      "𢾭": 6990,
      "𣁽": 6991,
      "𣃁": 6992,
      "𣄽": 6993,
      "𣅠": 6994,
      "𣆂": 6995,
      "𣇈": 6996,
      "𣈏": 6997,
      "𣈱": 6998,
      "𣈴": 6999,
      "𣉙": 7000,
      "𣊫": 7001,
      "𣊬": 7002,
      "𣊭": 7003,
      "𣌀": 7004,
      "𣎗": 7005,
      "𣏌": 7006,
      "𣏜": 7007,
      "𣏢": 7008,
      "𣏴": 7009,
      "𣐀": 7010,
      "𣐅": 7011,
      "𣐕": 7012,
      "𣐙": 7013,
      "𣑚": 7014,
      "𣑮": 7015,
      "𣒌": 7016,
      "𣒱": 7017,
      "𣓞": 7018,
      "𣔉": 7019,
      "𣔌": 7020,
      "𣔟": 7021,
      "𣔾": 7022,
      "𣗊": 7023,
      "𣗖": 7024,
      "𣗬": 7025,
      "𣗼": 7026,
      "𣘁": 7027,
      "𣘓": 7028,
      "𣚅": 7029,
      "𣚚": 7030,
      "𣚣": 7031,
      "𣚴": 7032,
      "𣛣": 7033,
      "𣛧": 7034,
      "𣛭": 7035,
      "𣛮": 7036,
      "𣜜": 7037,
      "𣜰": 7038,
      "𣞁": 7039,
      "𣡵": 7040,
      "𣡿": 7041,
      "𣦻": 7042,
      "𣨼": 7043,
      "𣪩": 7044,
      "𣫏": 7045,
      "𣮤": 7046,
      "𣱝": 7047,
      "𣲤": 7048,
      "𣲸": 7049,
      "𣳚": 7050,
      "𣳫": 7051,
      "𣴛": 7052,
      "𣵛": 7053,
      "𣵧": 7054,
      "𣵿": 7055,
      "𣶒": 7056,
      "𣶬": 7057,
      "𣷭": 7058,
      "𣷷": 7059,
      "𣺺": 7060,
      "𣻝": 7061,
      "𣻷": 7062,
      "𣼲": 7063,
      "𣼽": 7064,
      "𣽸": 7065,
      "𣾀": 7066,
      "𣿖": 7067,
      "𣿭": 7068,
      "𣿰": 7069,
      "𤀢": 7070,
      "𤁒": 7071,
      "𤁾": 7072,
      "𤂬": 7073,
      "𤃂": 7074,
      "𤅷": 7075,
      "𤆃": 7076,
      "𤆢": 7077,
      "𤆬": 7078,
      "𤇥": 7079,
      "𤇭": 7080,
      "𤇹": 7081,
      "𤇼": 7082,
      "𤈇": 7083,
      "𤈍": 7084,
      "𤈜": 7085,
      "𤈪": 7086,
      "𤉲": 7087,
      "𤉷": 7088,
      "𤉹": 7089,
      "𤊐": 7090,
      "𤊞": 7091,
      "𤊟": 7092,
      "𤊨": 7093,
      "𤊹": 7094,
      "𤋗": 7095,
      "𤋮": 7096,
      "𤌙": 7097,
      "𤍔": 7098,
      "𤍘": 7099,
      "𤍞": 7100,
      "𤍟": 7101,
      "𤎅": 7102,
      "𤏳": 7103,
      "𤏴": 7104,
      "𤐤": 7105,
      "𤐨": 7106,
      "𤑐": 7107,
      "𤒩": 7108,
      "𤒹": 7109,
      "𤓂": 7110,
      "𤓓": 7111,
      "𤓪": 7112,
      "𤔡": 7113,
      "𤖙": 7114,
      "𤗶": 7115,
      "𤘩": 7116,
      "𤞃": 7117,
      "𤞽": 7118,
      "𤠣": 7119,
      "𤣥": 7120,
      "𤣱": 7121,
      "𤣾": 7122,
      "𤤴": 7123,
      "𤥃": 7124,
      "𤥻": 7125,
      "𤦏": 7126,
      "𤦹": 7127,
      "𤧶": 7128,
      "𤧸": 7129,
      "𤨒": 7130,
      "𤨓": 7131,
      "𤨠": 7132,
      "𤨧": 7133,
      "𤩀": 7134,
      "𤩊": 7135,
      "𤩝": 7136,
      "𤩰": 7137,
      "𤩹": 7138,
      "𤪉": 7139,
      "𤪔": 7140,
      "𤪙": 7141,
      "𤪠": 7142,
      "𤪱": 7143,
      "𤪸": 7144,
      "𤫄": 7145,
      "𤫙": 7146,
      "𤬜": 7147,
      "𤭖": 7148,
      "𤯔": 7149,
      "𤯾": 7150,
      "𤰞": 7151,
      "𤶊": 7152,
      "𤷪": 7153,
      "𤺧": 7154,
      "𤻊": 7155,
      "𤾩": 7156,
      "𥄳": 7157,
      "𥇦": 7158,
      "𥑬": 7159,
      "𥑮": 7160,
      "𥒖": 7161,
      "𥒥": 7162,
      "𥒦": 7163,
      "𥒯": 7164,
      "𥔵": 7165,
      "𥔿": 7166,
      "𥕟": 7167,
      "𥖩": 7168,
      "𥗐": 7169,
      "𥘼": 7170,
      "𥙔": 7171,
      "𥙷": 7172,
      "𥚃": 7173,
      "𥚻": 7174,
      "𥛎": 7175,
      "𥜗": 7176,
      "𥟨": 7177,
      "𥠢": 7178,
      "𥤛": 7179,
      "𥧌": 7180,
      "𥨊": 7181,
      "𥩟": 7182,
      "𥪰": 7183,
      "𥮀": 7184,
      "𥯎": 7185,
      "𥯓": 7186,
      "𥲤": 7187,
      "𥳑": 7188,
      "𥴊": 7189,
      "𥸷": 7190,
      "𥺧": 7191,
      "𥺪": 7192,
      "𥻓": 7193,
      "𥻵": 7194,
      "𥻹": 7195,
      "𥼴": 7196,
      "𥾪": 7197,
      "𦀚": 7198,
      "𦀰": 7199,
      "𦃿": 7200,
      "𦅜": 7201,
      "𦅫": 7202,
      "𦇗": 7203,
      "𦊚": 7204,
      "𦋺": 7205,
      "𦍠": 7206,
      "𦎑": 7207,
      "𦎠": 7208,
      "𦎴": 7209,
      "𦏪": 7210,
      "𦏰": 7211,
      "𦐂": 7212,
      "𦐥": 7213,
      "𦒹": 7214,
      "𦓿": 7215,
      "𦔐": 7216,
      "𦘦": 7217,
      "𦙍": 7218,
      "𦙒": 7219,
      "𦛛": 7220,
      "𦣚": 7221,
      "𦤑": 7222,
      "𦦙": 7223,
      "𦨂": 7224,
      "𦬊": 7225,
      "𦬨": 7226,
      "𦬬": 7227,
      "𦭒": 7228,
      "𦮙": 7229,
      "𦰩": 7230,
      "𦴤": 7231,
      "𦵕": 7232,
      "𦵚": 7233,
      "𦶜": 7234,
      "𦶟": 7235,
      "𦷄": 7236,
      "𦹗": 7237,
      "𦹛": 7238,
      "𦹳": 7239,
      "𦻙": 7240,
      "𦼌": 7241,
      "𦾔": 7242,
      "𦾼": 7243,
      "𦿚": 7244,
      "𧁶": 7245,
      "𧃍": 7246,
      "𧃲": 7247,
      "𧃽": 7248,
      "𧈢": 7249,
      "𧈫": 7250,
      "𧉚": 7251,
      "𧊀": 7252,
      "𧊉": 7253,
      "𧊲": 7254,
      "𧎛": 7255,
      "𧎜": 7256,
      "𧏖": 7257,
      "𧏡": 7258,
      "𧐶": 7259,
      "𧑄": 7260,
      "𧓌": 7261,
      "𧔠": 7262,
      "𧔢": 7263,
      "𧖣": 7264,
      "𧗞": 7265,
      "𧗠": 7266,
      "𧘲": 7267,
      "𧘹": 7268,
      "𧙗": 7269,
      "𧚔": 7270,
      "𧝁": 7271,
      "𧞔": 7272,
      "𧟰": 7273,
      "𧦬": 7274,
      "𧩡": 7275,
      "𧫴": 7276,
      "𧫻": 7277,
      "𧭢": 7278,
      "𧯄": 7279,
      "𧯢": 7280,
      "𧰼": 7281,
      "𧵅": 7282,
      "𧵏": 7283,
      "𧶛": 7284,
      "𧶽": 7285,
      "𧷨": 7286,
      "𧷼": 7287,
      "𧹵": 7288,
      "𧹼": 7289,
      "𧺯": 7290,
      "𧼋": 7291,
      "𧽚": 7292,
      "𧾿": 7293,
      "𨀁": 7294,
      "𨂽": 7295,
      "𨃴": 7296,
      "𨄫": 7297,
      "𨈝": 7298,
      "𨋄": 7299,
      "𨑖": 7300,
      "𨑮": 7301,
      "𨑳": 7302,
      "𨕱": 7303,
      "𨚢": 7304,
      "𨚫": 7305,
      "𨛦": 7306,
      "𨜠": 7307,
      "𨝥": 7308,
      "𨞚": 7309,
      "𨟀": 7310,
      "𨟻": 7311,
      "𨠄": 7312,
      "𨠣": 7313,
      "𨣏": 7314,
      "𨤲": 7315,
      "𨤳": 7316,
      "𨤸": 7317,
      "𨥈": 7318,
      "𨥋": 7319,
      "𨥌": 7320,
      "𨥤": 7321,
      "𨥬": 7322,
      "𨦼": 7323,
      "𨧆": 7324,
      "𨧴": 7325,
      "𨨝": 7326,
      "𨨞": 7327,
      "𨨣": 7328,
      "𨨫": 7329,
      "𨪜": 7330,
      "𨫃": 7331,
      "𨫊": 7332,
      "𨫎": 7333,
      "𨫏": 7334,
      "𨫱": 7335,
      "𨫼": 7336,
      "𨬋": 7337,
      "𨮁": 7338,
      "𨮫": 7339,
      "𨯤": 7340,
      "𨯵": 7341,
      "𨰎": 7342,
      "𨰘": 7343,
      "𨱆": 7344,
      "𨲠": 7345,
      "𨲢": 7346,
      "𨳍": 7347,
      "𨳒": 7348,
      "𨴱": 7349,
      "𨸏": 7350,
      "𨻽": 7351,
      "𩀈": 7352,
      "𩃗": 7353,
      "𩃳": 7354,
      "𩄍": 7355,
      "𩆃": 7356,
      "𩆩": 7357,
      "𩇛": 7358,
      "𩍈": 7359,
      "𩑠": 7360,
      "𩒠": 7361,
      "𩖃": 7362,
      "𩘥": 7363,
      "𩙻": 7364,
      "𩙿": 7365,
      "𩚨": 7366,
      "𩜼": 7367,
      "𩡤": 7368,
      "𩨂": 7369,
      "𩫾": 7370,
      "𩰒": 7371,
      "𩳁": 7372,
      "𩵑": 7373,
      "𩶆": 7374,
      "𩶚": 7375,
      "𩶾": 7376,
      "𩸭": 7377,
      "𩸽": 7378,
      "𩹲": 7379,
      "𩹽": 7380,
      "𩺊": 7381,
      "𩺬": 7382,
      "𩻸": 7383,
      "𩼣": 7384,
      "𩼧": 7385,
      "𩿨": 7386,
      "𪁻": 7387,
      "𪆒": 7388,
      "𪇼": 7389,
      "𪈮": 7390,
      "𪊨": 7391,
      "𪊭": 7392,
      "𪊲": 7393,
      "𪎌": 7394,
      "𪒉": 7395,
      "𪓇": 7396,
      "𪔠": 7397,
      "𪕅": 7398,
      "𪘅": 7399,
      "𪘵": 7400,
      "𪚩": 7401,
      "𪜈": 7402,
      "𪜶": 7403,
      "𪠽": 7404,
      "𪡞": 7405,
      "𪢌": 7406,
      "𪢐": 7407,
      "𪢠": 7408,
      "𪣒": 7409,
      "𪤄": 7410,
      "𪤚": 7411,
      "𪥛": 7412,
      "𪥰": 7413,
      "𪦮": 7414,
      "𪧘": 7415,
      "𪨷": 7416,
      "𪩸": 7417,
      "𪪞": 7418,
      "𪪼": 7419,
      "𪫷": 7420,
      "𪫺": 7421,
      "𪬚": 7422,
      "𪭢": 7423,
      "𪭵": 7424,
      "𪮶": 7425,
      "𪰋": 7426,
      "𪱣": 7427,
      "𪱽": 7428,
      "𪲔": 7429,
      "𪲛": 7430,
      "𪲧": 7431,
      "𪲱": 7432,
      "𪳗": 7433,
      "𪴑": 7434,
      "𪴙": 7435,
      "𪶄": 7436,
      "𪶒": 7437,
      "𪷍": 7438,
      "𪸕": 7439,
      "𪸩": 7440,
      "𪹓": 7441,
      "𪹚": 7442,
      "𪹳": 7443,
      "𪻨": 7444,
      "𪻶": 7445,
      "𪻺": 7446,
      "𪼋": 7447,
      "𪽈": 7448,
      "𪾣": 7449,
      "𪿫": 7450,
      "𫀬": 7451,
      "𫂖": 7452,
      "𫄙": 7453,
      "𫄠": 7454,
      "𫄡": 7455,
      "𫄣": 7456,
      "𫄫": 7457,
      "𫄬": 7458,
      "𫄶": 7459,
      "𫅗": 7460,
      "𫆏": 7461,
      "𫇛": 7462,
      "𫇴": 7463,
      "𫈉": 7464,
      "𫈎": 7465,
      "𫈟": 7466,
      "𫈢": 7467,
      "𫈵": 7468,
      "𫈷": 7469,
      "𫉄": 7470,
      "𫊟": 7471,
      "𫊣": 7472,
      "𫊪": 7473,
      "𫊮": 7474,
      "𫊸": 7475,
      "𫊻": 7476,
      "𫋇": 7477,
      "𫋷": 7478,
      "𫋹": 7479,
      "𫋻": 7480,
      "𫍚": 7481,
      "𫍜": 7482,
      "𫍡": 7483,
      "𫍬": 7484,
      "𫎆": 7485,
      "𫎌": 7486,
      "𫎨": 7487,
      "𫎩": 7488,
      "𫏆": 7489,
      "𫐈": 7490,
      "𫐊": 7491,
      "𫐌": 7492,
      "𫐎": 7493,
      "𫐏": 7494,
      "𫐕": 7495,
      "𫐗": 7496,
      "𫐙": 7497,
      "𫑘": 7498,
      "𫑩": 7499,
      "𫑷": 7500,
      "𫒢": 7501,
      "𫓐": 7502,
      "𫓥": 7503,
      "𫓦": 7504,
      "𫓨": 7505,
      "𫓭": 7506,
      "𫓰": 7507,
      "𫓱": 7508,
      "𫓴": 7509,
      "𫓵": 7510,
      "𫓺": 7511,
      "𫓻": 7512,
      "𫓼": 7513,
      "𫓽": 7514,
      "𫓾": 7515,
      "𫓿": 7516,
      "𫔁": 7517,
      "𫔂": 7518,
      "𫔄": 7519,
      "𫔆": 7520,
      "𫔇": 7521,
      "𫔈": 7522,
      "𫔉": 7523,
      "𫔌": 7524,
      "𫔑": 7525,
      "𫔔": 7526,
      "𫔕": 7527,
      "𫔰": 7528,
      "𫖇": 7529,
      "𫖒": 7530,
      "𫖰": 7531,
      "𫖵": 7532,
      "𫖶": 7533,
      "𫗇": 7534,
      "𫗣": 7535,
      "𫗥": 7536,
      "𫗪": 7537,
      "𫗬": 7538,
      "𫗵": 7539,
      "𫘛": 7540,
      "𫘥": 7541,
      "𫘩": 7542,
      "𫘫": 7543,
      "𫙮": 7544,
      "𫚋": 7545,
      "𫚌": 7546,
      "𫚐": 7547,
      "𫚓": 7548,
      "𫚗": 7549,
      "𫚜": 7550,
      "𫚞": 7551,
      "𫚢": 7552,
      "𫚣": 7553,
      "𫚧": 7554,
      "𫚪": 7555,
      "𫚫": 7556,
      "𫛚": 7557,
      "𫛟": 7558,
      "𫛡": 7559,
      "𫛤": 7560,
      "𫛩": 7561,
      "𫛪": 7562,
      "𫛬": 7563,
      "𫛮": 7564,
      "𫛰": 7565,
      "𫛱": 7566,
      "𫛴": 7567,
      "𫜁": 7568,
      "𫜑": 7569,
      "𫜰": 7570,
      "𫝏": 7571,
      "𫝬": 7572,
      "𫝭": 7573,
      "𫝮": 7574,
      "𫝵": 7575,
      "𫝺": 7576,
      "𫞗": 7577,
      "𫞚": 7578,
      "𫞠": 7579,
      "𫞡": 7580,
      "𫞥": 7581,
      "𫞧": 7582,
      "𫞨": 7583,
      "𫟃": 7584,
      "𫟄": 7585,
      "𫟆": 7586,
      "𫟡": 7587,
      "𫟤": 7588,
      "𫟲": 7589,
      "𫟳": 7590,
      "𫟴": 7591,
      "𫟵": 7592,
      "𫟶": 7593,
      "𫟸": 7594,
      "𫟻": 7595,
      "𫟿": 7596,
      "𫠁": 7597,
      "𫠏": 7598,
      "𫠐": 7599,
      "𫠑": 7600,
      "𫠒": 7601,
      "𫧃": 7602,
      "𫪦": 7603,
      "𫮈": 7604,
      "𫯺": 7605,
      "𫲨": 7606,
      "𫷫": 7607,
      "𬃉": 7608,
      "𬄦": 7609,
      "𬇞": 7610,
      "𬉺": 7611,
      "𬊍": 7612,
      "𬋙": 7613,
      "𬋞": 7614,
      "𬓆": 7615,
      "𬓋": 7616,
      "𬓑": 7617,
      "𬜴": 7618,
      "𬟏": 7619,
      "𬥦": 7620,
      "𬩠": 7621,
      "𬫏": 7622,
      "𬭄": 7623,
      "𬭏": 7624,
      "𬭭": 7625,
      "𬲱": 7626,
      "𬸯": 7627,
      "𬻷": 7628,
      "𬼂": 7629,
      "𬾕": 7630,
      "𭁇": 7631,
      "𭄋": 7632,
      "𭅃": 7633,
      "𭈈": 7634,
      "𭍻": 7635,
      "𭎂": 7636,
      "𭑊": 7637,
      "𭑭": 7638,
      "𭚥": 7639,
      "𭤐": 7640,
      "𭤪": 7641,
      "𭥟": 7642,
      "𭦣": 7643,
      "𭨡": 7644,
      "𭫪": 7645,
      "𭮨": 7646,
      "𭱴": 7647,
      "𭳕": 7648,
      "𭴊": 7649,
      "𭴌": 7650,
      "𭵬": 7651,
      "𭹊": 7652,
      "𮄫": 7653,
      "𮓠": 7654,
      "𮡧": 7655,
      "𮡶": 7656,
      "𮢅": 7657,
      "𮥹": 7658,
      "𮨻": 7659,
      "𮳕": 7660,
      "𰇠": 7661,
      "𰉗": 7662,
      "𰉬": 7663,
      "𰊊": 7664,
      "𰊖": 7665,
      "𰊺": 7666,
      "𰋀": 7667,
      "𰋁": 7668,
      "𰋟": 7669,
      "𰍠": 7670,
      "𰎼": 7671,
      "𰐼": 7672,
      "𰑢": 7673,
      "𰗤": 7674,
      "𰘆": 7675,
      "𰘌": 7676,
      "𰘱": 7677,
      "𰚼": 7678,
      "𰛂": 7679,
      "𰛭": 7680,
      "𰜰": 7681,
      "𰝙": 7682,
      "𰝠": 7683,
      "𰝢": 7684,
      "𰝥": 7685,
      "𰞍": 7686,
      "𰞒": 7687,
      "𰞱": 7688,
      "𰟆": 7689,
      "𰟙": 7690,
      "𰡉": 7691,
      "𰡘": 7692,
      "𰢕": 7693,
      "𰥏": 7694,
      "𰫕": 7695,
      "𰬸": 7696,
      "𰯼": 7697,
      "𰰨": 7698,
      "𰰻": 7699,
      "𰱘": 7700,
      "𰲛": 7701,
      "𰵞": 7702,
      "𰵩": 7703,
      "𰶎": 7704,
      "𰹬": 7705,
      "𰼩": 7706,
      "𰽟": 7707,
      "𰽽": 7708,
      "𰾄": 7709,
      "𰾭": 7710,
      "𰿁": 7711,
      "𰿓": 7712,
      "𱀵": 7713,
      "𱁬": 7714,
      "𱄤": 7715,
      "𱉐": 7716,
      "𱉤": 7717,
      "𱉻": 7718,
      "𱉼": 7719,
      "𱊊": 7720,
      "𱑲": 7721,
      "𱔽": 7722,
      "𱖹": 7723,
      "𱟛": 7724,
      "𱤰": 7725,
      "𱧀": 7726,
      "𱭵": 7727,
      "𱭶": 7728,
      "𱯞": 7729,
      "𱴑": 7730,
      "𱵄": 7731,
      "𱹀": 7732,
      "𲉖": 7733,
      "𲐤": 7734,
      "𲚏": 7735,
      "񭫮": 7736,
      "󠁢": 7737,
      "󠁣": 7738,
      "󠁥": 7739,
      "󠁧": 7740,
      "󠁬": 7741,
      "󠁮": 7742,
      "󠁳": 7743,
      "󠁴": 7744,
      "󠁵": 7745,
      "󠁷": 7746,
      "󠁸": 7747,
      "󠁿": 7748,
      "󠄀": 7749,
      "󠄁": 7750,
      "󠄂": 7751,
      "󰒄": 7752,
      "󰡔": 7753,
      "󰡕": 7754,
      "󵍲": 7755,
      "􏰂": 7756,
      "ng": 7757,
      "sh": 7758,
      "zh": 7759,
      "án": 7760,
      "àn": 7761,
      "ji": 7762,
      "ch": 7763,
      "de": 7764,
      "xi": 7765,
      "ān": 7766,
      "ài": 7767,
      "ōng": 7768,
      "shì": 7769,
      "èi": 7770,
      "ào": 7771,
      "ián": 7772,
      "hu": 7773,
      "gu": 7774,
      "íng": 7775,
      "āng": 7776,
      "yu": 7777,
      "ǎn": 7778,
      "àng": 7779,
      "én": 7780,
      "nián": 7781,
      "yī": 7782,
      "ǎng": 7783,
      "éng": 7784,
      "ǒu": 7785,
      "ìng": 7786,
      "wèi": 7787,
      "áng": 7788,
      "ǎo": 7789,
      "zài": 7790,
      "jī": 7791,
      "ēng": 7792,
      "òng": 7793,
      "òu": 7794,
      "hé": 7795,
      "zhōng": 7796,
      "xī": 7797,
      "bù": 7798,
      "jì": 7799,
      "li": 7800,
      "zhè": 7801,
      "dì": 7802,
      "shí": 7803,
      "ái": 7804,
      "yú": 7805,
      "rén": 7806,
      "āo": 7807,
      "du": 7808,
      "óng": 7809,
      "yǐ": 7810,
      "lì": 7811,
      "guó": 7812,
      "yì": 7813,
      "uò": 7814,
      "zhì": 7815,
      "chéng": 7816,
      "éi": 7817,
      "jí": 7818,
      "xu": 7819,
      "ěi": 7820,
      "iàn": 7821,
      "yuè": 7822,
      "ēn": 7823,
      "yǒu": 7824,
      "gōng": 7825,
      "dà": 7826,
      "qi": 7827,
      "yuán": 7828,
      "óu": 7829,
      "ōu": 7830,
      "lǐ": 7831,
      "20": 7832,
      "èn": 7833,
      "āi": 7834,
      "xiàn": 7835,
      "sī": 7836,
      "xíng": 7837,
      "ūn": 7838,
      "jiā": 7839,
      "yǔ": 7840,
      "ǒng": 7841,
      "tā": 7842,
      "rì": 7843,
      "zhī": 7844,
      "hòu": 7845,
      "míng": 7846,
      "qí": 7847,
      "le": 7848,
      "ǎi": 7849,
      "huì": 7850,
      "gè": 7851,
      "dào": 7852,
      "wéi": 7853,
      "19": 7854,
      "qī": 7855,
      "bi": 7856,
      "su": 7857,
      "zhèng": 7858,
      "áo": 7859,
      "ín": 7860,
      "shè": 7861,
      "ùn": 7862,
      "ěn": 7863,
      "ěng": 7864,
      "jiàn": 7865,
      "chū": 7866,
      "uán": 7867,
      "shēng": 7868,
      "zuò": 7869,
      "xué": 7870,
      "duì": 7871,
      "qū": 7872,
      "shàng": 7873,
      "yóu": 7874,
      "dé": 7875,
      "bèi": 7876,
      "ti": 7877,
      "shǐ": 7878,
      "zhǔ": 7879,
      "zhàn": 7880,
      "xīn": 7881,
      "ēi": 7882,
      "zhu": 7883,
      "jūn": 7884,
      "uì": 7885,
      "ěr": 7886,
      "rèn": 7887,
      "bìng": 7888,
      "lù": 7889,
      "fā": 7890,
      "wù": 7891,
      "jìn": 7892,
      "dài": 7893,
      "ér": 7894,
      "jīng": 7895,
      "yí": 7896,
      "jù": 7897,
      "shù": 7898,
      "yīn": 7899,
      "zì": 7900,
      "kè": 7901,
      "huà": 7902,
      "fù": 7903,
      "fāng": 7904,
      "zhōu": 7905,
      "xià": 7906,
      "píng": 7907,
      "xì": 7908,
      "yòng": 7909,
      "lái": 7910,
      "shu": 7911,
      "jiān": 7912,
      "tóng": 7913,
      "yù": 7914,
      "fǎ": 7915,
      "měi": 7916,
      "zhù": 7917,
      "ún": 7918,
      "jǐ": 7919,
      "xiàng": 7920,
      "guān": 7921,
      "nán": 7922,
      "uó": 7923,
      "huò": 7924,
      "dòng": 7925,
      "jiāng": 7926,
      "xiāng": 7927,
      "zhí": 7928,
      "běn": 7929,
      "suǒ": 7930,
      "shǒu": 7931,
      "wén": 7932,
      "qián": 7933,
      "fēn": 7934,
      "di": 7935,
      "diàn": 7936,
      "tè": 7937,
      "yán": 7938,
      "zuì": 7939,
      "jiào": 7940,
      "duō": 7941,
      "kāi": 7942,
      "jié": 7943,
      "zhǐ": 7944,
      "lián": 7945,
      "dàn": 7946,
      "yè": 7947,
      "dōng": 7948,
      "quán": 7949,
      "dù": 7950,
      "mù": 7951,
      "yě": 7952,
      "fú": 7953,
      "mǎ": 7954,
      "mín": 7955,
      "běi": 7956,
      "qiú": 7957,
      "gāo": 7958,
      "qǐ": 7959,
      "jiē": 7960,
      "zhǎng": 7961,
      "shī": 7962,
      "miàn": 7963,
      "tái": 7964,
      "yà": 7965,
      "cǐ": 7966,
      "tǐ": 7967,
      "hǎi": 7968,
      "yào": 7969,
      "jīn": 7970,
      "201": 7971,
      "chē": 7972,
      "děng": 7973,
      "ju": 7974,
      "wǔ": 7975,
      "sài": 7976,
      "xìng": 7977,
      "rù": 7978,
      "guò": 7979,
      "cì": 7980,
      "nèi": 7981,
      "gāi": 7982,
      "dìng": 7983,
      "cháng": 7984,
      "biǎo": 7985,
      "shòu": 7986,
      "sān": 7987,
      "jiè": 7988,
      "shān": 7989,
      "dǎo": 7990,
      "kě": 7991,
      "chǎng": 7992,
      "zé": 7993,
      "dāng": 7994,
      "sì": 7995,
      "lā": 7996,
      "tí": 7997,
      "èr": 7998,
      "bǐ": 7999,
      "wài": 8000,
      "kǒu": 8001,
      "gé": 8002,
      "zi": 8003,
      "kē": 8004,
      "zǔ": 8005,
      "dān": 8006,
      "liú": 8007,
      "shěng": 8008,
      "ku": 8009,
      "xiǎo": 8010,
      "tōng": 8011,
      "jué": 8012,
      "yīng": 8013,
      "lín": 8014,
      "200": 8015,
      "en": 8016,
      "qì": 8017,
      "īng": 8018,
      "luó": 8019,
      "zhě": 8020,
      "zhòng": 8021,
      "zhèn": 8022,
      "shǔ": 8023,
      "mǐ": 8024,
      "yígè": 8025,
      "lán": 8026,
      "gòng": 8027,
      "bǎo": 8028,
      "yuàn": 8029,
      "fēng": 8030,
      "tiān": 8031,
      "zhǒng": 8032,
      "shū": 8033,
      "bā": 8034,
      "liè": 8035,
      "yùn": 8036,
      "fǔ": 8037,
      "chēng": 8038,
      "tài": 8039,
      "chu": 8040,
      "wáng": 8041,
      "qīng": 8042,
      "qu": 8043,
      "jiù": 8044,
      "fēi": 8045,
      "shēn": 8046,
      "jìng": 8047,
      "céng": 8048,
      "hào": 8049,
      "liǎng": 8050,
      "10": 8051,
      "gǔ": 8052,
      "méi": 8053,
      "zǒng": 8054,
      "fèn": 8055,
      "wěi": 8056,
      "xuǎn": 8057,
      "yǎn": 8058,
      "xīng": 8059,
      "dá": 8060,
      "xiào": 8061,
      "bào": 8062,
      "liàng": 8063,
      "bō": 8064,
      "jiāo": 8065,
      "tǒng": 8066,
      "yáng": 8067,
      "wú": 8068,
      "zú": 8069,
      "tu": 8070,
      "zhōngguó": 8071,
      "yǐng": 8072,
      "yuē": 8073,
      "sù": 8074,
      "huá": 8075,
      "biàn": 8076,
      "shuǐ": 8077,
      "guǎn": 8078,
      "néng": 8079,
      "men": 8080,
      "bāo": 8081,
      "bì": 8082,
      "cóng": 8083,
      "diǎn": 8084,
      "biān": 8085,
      "wǎng": 8086,
      "rú": 8087,
      "cān": 8088,
      "bó": 8089,
      "qǔ": 8090,
      "měiguó": 8091,
      "chǎn": 8092,
      "00": 8093,
      "mi": 8094,
      "chuán": 8095,
      "zī": 8096,
      "sè": 8097,
      "shèng": 8098,
      "zhāng": 8099,
      "tú": 8100,
      "nà": 8101,
      "rán": 8102,
      "gē": 8103,
      "lìng": 8104,
      "jǐng": 8105,
      "pǔ": 8106,
      "luò": 8107,
      "gǎi": 8108,
      "xù": 8109,
      "chá": 8110,
      "hù": 8111,
      "tóu": 8112,
      "qiān": 8113,
      "lǜ": 8114,
      "yòu": 8115,
      "chí": 8116,
      "bàn": 8117,
      "18": 8118,
      "cè": 8119,
      "rénkǒu": 8120,
      "gǎng": 8121,
      "bān": 8122,
      "pǐ": 8123,
      "zhēng": 8124,
      "12": 8125,
      "nǚ": 8126,
      "dōu": 8127,
      "wèiyú": 8128,
      "háng": 8129,
      "lí": 8130,
      "dǎng": 8131,
      "kuò": 8132,
      "tuán": 8133,
      "gòu": 8134,
      "shā": 8135,
      "lèi": 8136,
      "fǎn": 8137,
      "xiǎng": 8138,
      "lǐng": 8139,
      "xiān": 8140,
      "huáng": 8141,
      "shāng": 8142,
      "xiē": 8143,
      "wēi": 8144,
      "ní": 8145,
      "yìng": 8146,
      "lóng": 8147,
      "xí": 8148,
      "bǎn": 8149,
      "guī": 8150,
      "jiǔ": 8151,
      "róng": 8152,
      "ni": 8153,
      "guǎng": 8154,
      "mén": 8155,
      "qíng": 8156,
      "202": 8157,
      "jǔ": 8158,
      "zhǎn": 8159,
      "mǔ": 8160,
      "mó": 8161,
      "shuō": 8162,
      "hái": 8163,
      "dú": 8164,
      "shén": 8165,
      "zhuāng": 8166,
      "fū": 8167,
      "jiǎn": 8168,
      "cái": 8169,
      "pǐn": 8170,
      "11": 8171,
      "mò": 8172,
      "kǎ": 8173,
      "tiáo": 8174,
      "duàn": 8175,
      "tíng": 8176,
      "yíng": 8177,
      "huí": 8178,
      "cháo": 8179,
      "cí": 8180,
      "wān": 8181,
      "mì": 8182,
      "jú": 8183,
      "pái": 8184,
      "wàn": 8185,
      "zào": 8186,
      "zhèngfǔ": 8187,
      "gēn": 8188,
      "tiě": 8189,
      "chén": 8190,
      "199": 8191,
      "táng": 8192,
      "fáng": 8193,
      "jiǎng": 8194,
      "huó": 8195,
      "lún": 8196,
      "xié": 8197,
      "kōng": 8198,
      "er": 8199,
      "pi": 8200,
      "biāo": 8201,
      "wán": 8202,
      "bié": 8203,
      "jiě": 8204,
      "hàn": 8205,
      "zhuān": 8206,
      "méng": 8207,
      "fàn": 8208,
      "shǐyòng": 8209,
      "yǐn": 8210,
      "jià": 8211,
      "mìng": 8212,
      "jǐn": 8213,
      "dàxué": 8214,
      "or": 8215,
      "dǐ": 8216,
      "gù": 8217,
      "bīng": 8218,
      "líng": 8219,
      "tāmen": 8220,
      "xū": 8221,
      "chéngwéi": 8222,
      "dìqū": 8223,
      "zhēn": 8224,
      "guójiā": 8225,
      "hóng": 8226,
      "qīn": 8227,
      "wū": 8228,
      "kāishǐ": 8229,
      "rìběn": 8230,
      "zǐ": 8231,
      "bāokuò": 8232,
      "sū": 8233,
      "an": 8234,
      "chù": 8235,
      "jū": 8236,
      "yǐjí": 8237,
      "lùn": 8238,
      "xiāo": 8239,
      "chǔ": 8240,
      "xìn": 8241,
      "15": 8242,
      "què": 8243,
      "zhào": 8244,
      "jìnxíng": 8245,
      "chóng": 8246,
      "bùfèn": 8247,
      "qiáng": 8248,
      "zōng": 8249,
      "fàng": 8250,
      "xiū": 8251,
      "píngfāng": 8252,
      "piàn": 8253,
      "qù": 8254,
      "shōu": 8255,
      "èng": 8256,
      "kěyǐ": 8257,
      "suí": 8258,
      "cūn": 8259,
      "gōnglǐ": 8260,
      "qízhōng": 8261,
      "gèng": 8262,
      "jiū": 8263,
      "on": 8264,
      "xiānggǎng": 8265,
      "hú": 8266,
      "gōngsī": 8267,
      "chuàng": 8268,
      "zhuǎn": 8269,
      "kěn": 8270,
      "huòdé": 8271,
      "fèi": 8272,
      "16": 8273,
      "miànjī": 8274,
      "màn": 8275,
      "198": 8276,
      "dū": 8277,
      "hán": 8278,
      "jiǎ": 8279,
      "chú": 8280,
      "dìyī": 8281,
      "dǎ": 8282,
      "shìjiè": 8283,
      "yánjiū": 8284,
      "zhǔyào": 8285,
      "tuō": 8286,
      "guāng": 8287,
      "suì": 8288,
      "guǒ": 8289,
      "pài": 8290,
      "xùn": 8291,
      "xuān": 8292,
      "pèi": 8293,
      "zhū": 8294,
      "táiwān": 8295,
      "bái": 8296,
      "dí": 8297,
      "tǔ": 8298,
      "qítā": 8299,
      "huī": 8300,
      "jiàng": 8301,
      "diào": 8302,
      "lìshǐ": 8303,
      "liù": 8304,
      "mài": 8305,
      "17": 8306,
      "la": 8307,
      "qiáo": 8308,
      "huán": 8309,
      "rènwéi": 8310,
      "zēng": 8311,
      "tīng": 8312,
      "xiá": 8313,
      "méiyǒu": 8314,
      "xiǎn": 8315,
      "wèn": 8316,
      "xǔ": 8317,
      "yá": 8318,
      "qiě": 8319,
      "cǎi": 8320,
      "liáng": 8321,
      "tuī": 8322,
      "yàn": 8323,
      "zhuàng": 8324,
      "chāo": 8325,
      "ar": 8326,
      "wěiyuán": 8327,
      "shǎo": 8328,
      "wǎ": 8329,
      "cún": 8330,
      "uǎn": 8331,
      "tǎ": 8332,
      "léi": 8333,
      "bǎi": 8334,
      "dàibiǎo": 8335,
      "jiǎo": 8336,
      "14": 8337,
      "yùndòng": 8338,
      "dìèr": 8339,
      "zhèngzhì": 8340,
      "sà": 8341,
      "dēng": 8342,
      "fǎguó": 8343,
      "tián": 8344,
      "zǎo": 8345,
      "bài": 8346,
      "gǎn": 8347,
      "yóuyú": 8348,
      "huǒ": 8349,
      "hā": 8350,
      "30": 8351,
      "sǐ": 8352,
      "lè": 8353,
      "yìn": 8354,
      "yǒng": 8355,
      "huàn": 8356,
      "xún": 8357,
      "chuān": 8358,
      "diànyǐng": 8359,
      "sòng": 8360,
      "zhǔn": 8361,
      "lǔ": 8362,
      "réng": 8363,
      "zu": 8364,
      "lǚ": 8365,
      "gōngzuò": 8366,
      "pī": 8367,
      "yàng": 8368,
      "zhěng": 8369,
      "wǒ": 8370,
      "194": 8371,
      "pò": 8372,
      "yīncǐ": 8373,
      "zuòwéi": 8374,
      "bāng": 8375,
      "tóngshí": 8376,
      "13": 8377,
      "zhōngxīn": 8378,
      "dùn": 8379,
      "hěn": 8380,
      "táo": 8381,
      "gào": 8382,
      "guójì": 8383,
      "lēi": 8384,
      "qún": 8385,
      "kuàng": 8386,
      "biǎoshì": 8387,
      "197": 8388,
      "hǎo": 8389,
      "kuài": 8390,
      "kěnéng": 8391,
      "xìtǒng": 8392,
      "huā": 8393,
      "zhōnghuá": 8394,
      "yīnwèi": 8395,
      "gāng": 8396,
      "wàng": 8397,
      "dānrèn": 8398,
      "zhīhòu": 8399,
      "shìzhèn": 8400,
      "diànshì": 8401,
      "in": 8402,
      "dī": 8403,
      "dāngshí": 8404,
      "shuāng": 8405,
      "kǎo": 8406,
      "yīngguó": 8407,
      "zìjǐ": 8408,
      "chēzhàn": 8409,
      "liào": 8410,
      "tōngguò": 8411,
      "pàn": 8412,
      "xíngzhèng": 8413,
      "héguó": 8414,
      "195": 8415,
      "shíjiān": 8416,
      "sāi": 8417,
      "xiě": 8418,
      "gēnjù": 8419,
      "liàn": 8420,
      "ge": 8421,
      "bī": 8422,
      "gěi": 8423,
      "kòng": 8424,
      "rè": 8425,
      "yǎng": 8426,
      "hè": 8427,
      "guàn": 8428,
      "zuǒ": 8429,
      "nóng": 8430,
      "fāzhǎn": 8431,
      "chàng": 8432,
      "chénglì": 8433,
      "qījiān": 8434,
      "yāng": 8435,
      "shíqī": 8436,
      "25": 8437,
      "196": 8438,
      "shèjì": 8439,
      "yā": 8440,
      "sēn": 8441,
      "chōng": 8442,
      "chéngshì": 8443,
      "lú": 8444,
      "bǔ": 8445,
      "fāxiàn": 8446,
      "ràng": 8447,
      "shèhuì": 8448,
      "yín": 8449,
      "shìjì": 8450,
      "piào": 8451,
      "yāo": 8452,
      "jiànzhù": 8453,
      "yīzhǒng": 8454,
      "lǎo": 8455,
      "zhīyī": 8456,
      "zhèngshì": 8457,
      "lóu": 8458,
      "nuò": 8459,
      "zhú": 8460,
      "xuéyuàn": 8461,
      "zhèxiē": 8462,
      "bēi": 8463,
      "kù": 8464,
      "rénmín": 8465,
      "zǔzhī": 8466,
      "zhǔyì": 8467,
      "yǐngxiǎng": 8468,
      "yóuxì": 8469,
      "bīn": 8470,
      "cānjiā": 8471,
      "mǎn": 8472,
      "zhōngyāng": 8473,
      "hēi": 8474,
      "shǔyú": 8475,
      "gài": 8476,
      "xiè": 8477,
      "bùtóng": 8478,
      "tiělù": 8479,
      "xián": 8480,
      "liáo": 8481,
      "yīnyuè": 8482,
      "wénhuà": 8483,
      "tǎn": 8484,
      "wěiyuánhuì": 8485,
      "jīngjì": 8486,
      "bǐsài": 8487,
      "píngfānggōnglǐ": 8488,
      "yōu": 8489,
      "tán": 8490,
      "ruì": 8491,
      "jùn": 8492,
      "wǎn": 8493,
      "qǐng": 8494,
      "jìhuà": 8495,
      "kāng": 8496,
      "xǐ": 8497,
      "bú": 8498,
      "24": 8499,
      "héng": 8500,
      "al": 8501,
      "chǐ": 8502,
      "tígōng": 8503,
      "pí": 8504,
      "huódòng": 8505,
      "shào": 8506,
      "chūxiàn": 8507,
      "for": 8508,
      "hū": 8509,
      "niándài": 8510,
      "dòu": 8511,
      "zuòpǐn": 8512,
      "suǒyǒu": 8513,
      "lìyà": 8514,
      "yōng": 8515,
      "fāshēng": 8516,
      "yún": 8517,
      "luósī": 8518,
      "kàn": 8519,
      "zuìzhōng": 8520,
      "kàng": 8521,
      "21": 8522,
      "xuéxiào": 8523,
      "guǎnlǐ": 8524,
      "zhījiān": 8525,
      "miǎn": 8526,
      "wēn": 8527,
      "fān": 8528,
      "tuì": 8529,
      "fǎng": 8530,
      "st": 8531,
      "lǎng": 8532,
      "zhe": 8533,
      "mu": 8534,
      "bǎ": 8535,
      "suàn": 8536,
      "yīxiē": 8537,
      "tū": 8538,
      "sāng": 8539,
      "chēngwéi": 8540,
      "ánguó": 8541,
      "193": 8542,
      "hòulái": 8543,
      "dīng": 8544,
      "máo": 8545,
      "déguó": 8546,
      "23": 8547,
      "re": 8548,
      "mào": 8549,
      "dāngdì": 8550,
      "níng": 8551,
      "th": 8552,
      "zhège": 8553,
      "ruò": 8554,
      "xiù": 8555,
      "28": 8556,
      "jiàoyù": 8557,
      "xióng": 8558,
      "wèntí": 8559,
      "jìnrù": 8560,
      "zuìhòu": 8561,
      "yuǎn": 8562,
      "fùzé": 8563,
      "piān": 8564,
      "wò": 8565,
      "qín": 8566,
      "chéngyuán": 8567,
      "ou": 8568,
      "láng": 8569,
      "xiōng": 8570,
      "gān": 8571,
      "shěn": 8572,
      "zhàng": 8573,
      "pín": 8574,
      "22": 8575,
      "me": 8576,
      "xǔduō": 8577,
      "bá": 8578,
      "zàn": 8579,
      "shàn": 8580,
      "zhīchí": 8581,
      "quánguó": 8582,
      "zhìzuò": 8583,
      "fúwù": 8584,
      "26": 8585,
      "mula": 8586,
      "formula": 8587,
      "shēnghuó": 8588,
      "dàng": 8589,
      "xuānbù": 8590,
      "zhànzhēng": 8591,
      "gōngchéng": 8592,
      "qiāng": 8593,
      "2020": 8594,
      "27": 8595,
      "dìsān": 8596,
      "cānyù": 8597,
      "suī": 8598,
      "50": 8599,
      "fāxíng": 8600,
      "guǐ": 8601,
      "üè": 8602,
      "yǐjīng": 8603,
      "tóngnián": 8604,
      "bàng": 8605,
      "jǔxíng": 8606,
      "qìng": 8607,
      "miáo": 8608,
      "běijīng": 8609,
      "fèng": 8610,
      "qiānmǐ": 8611,
      "zāo": 8612,
      "guì": 8613,
      "dìfāng": 8614,
      "tàn": 8615,
      "juédìng": 8616,
      "fá": 8617,
      "jìshù": 8618,
      "ri": 8619,
      "sōng": 8620,
      "shìjiàn": 8621,
      "zhòngyào": 8622,
      "fāngmiàn": 8623,
      "hài": 8624,
      "éluósī": 8625,
      "guānxì": 8626,
      "rénmíng": 8627,
      "zǒu": 8628,
      "shùn": 8629,
      "lu": 8630,
      "péng": 8631,
      "liǎnggè": 8632,
      "qiè": 8633,
      "000": 8634,
      "háo": 8635,
      "shànghǎi": 8636,
      "jiémù": 8637,
      "2010": 8638,
      "dūn": 8639,
      "qiū": 8640,
      "rénwù": 8641,
      "29": 8642,
      "ònghéguó": 8643,
      "2019": 8644,
      "chè": 8645,
      "pào": 8646,
      "jiārù": 8647,
      "bǎohù": 8648,
      "xuán": 8649,
      "shèn": 8650,
      "lüè": 8651,
      "zǎi": 8652,
      "zǒngtǒng": 8653,
      "pà": 8654,
      "yìyuán": 8655,
      "zhuī": 8656,
      "rénmíngònghéguó": 8657,
      "kǒng": 8658,
      "xuéshēng": 8659,
      "fēnbié": 8660,
      "běibù": 8661,
      "mùqián": 8662,
      "píngfāngqiānmǐ": 8663,
      "ro": 8664,
      "xìliè": 8665,
      "mínguó": 8666,
      "lièchē": 8667,
      "zúqiú": 8668,
      "ōuzhōu": 8669,
      "fēnbù": 8670,
      "wèile": 8671,
      "jiànlì": 8672,
      "duǎn": 8673,
      "duān": 8674,
      "dǐng": 8675,
      "wánchéng": 8676,
      "kān": 8677,
      "xiáng": 8678,
      "chūn": 8679,
      "zhāo": 8680,
      "hūn": 8681,
      "xuéjiā": 8682,
      "cǎo": 8683,
      "gēng": 8684,
      "pō": 8685,
      "te": 8686,
      "xūyào": 8687,
      "yāoqiú": 8688,
      "láo": 8689,
      "si": 8690,
      "guànjūn": 8691,
      "chénggōng": 8692,
      "shèyǒu": 8693,
      "dānwèi": 8694,
      "dúlì": 8695,
      "2018": 8696,
      "kuǎn": 8697,
      "shēngpíng": 8698,
      "zhōnghuárénmíngònghéguó": 8699,
      "dǎozhì": 8700,
      "2016": 8701,
      "ránér": 8702,
      "zǔchéng": 8703,
      "lìrú": 8704,
      "zhuānjí": 8705,
      "zuìgāo": 8706,
      "qíngkuàng": 8707,
      "láizì": 8708,
      "yìndù": 8709,
      "shòudào": 8710,
      "ra": 8711,
      "xiāngguān": 8712,
      "xuǎnjǔ": 8713,
      "kǎi": 8714,
      "zá": 8715,
      "niǔ": 8716,
      "jìlù": 8717,
      "rényuán": 8718,
      "cǎiyòng": 8719,
      "tōngcháng": 8720,
      "yōngyǒu": 8721,
      "zìyóu": 8722,
      "gōngyuán": 8723,
      "2021": 8724,
      "cúnzài": 8725,
      "péi": 8726,
      "jiāotōng": 8727,
      "suīrán": 8728,
      "zàng": 8729,
      "fāngshì": 8730,
      "yìshù": 8731,
      "qiánwǎng": 8732,
      "2017": 8733,
      "hǎibá": 8734,
      "mìdù": 8735,
      "sūn": 8736,
      "cuò": 8737,
      "pāi": 8738,
      "kāifā": 8739,
      "duó": 8740,
      "fán": 8741,
      "gàn": 8742,
      "hézuò": 8743,
      "2011": 8744,
      "dàlù": 8745,
      "yǎ": 8746,
      "40": 8747,
      "tòu": 8748,
      "zhíwù": 8749,
      "bìngqiě": 8750,
      "gū": 8751,
      "yé": 8752,
      "2014": 8753,
      "2015": 8754,
      "dànshì": 8755,
      "2013": 8756,
      "tíchū": 8757,
      "xíngchéng": 8758,
      "sītè": 8759,
      "ce": 8760,
      "2012": 8761,
      "yīmíng": 8762,
      "2022": 8763,
      "nǐ": 8764,
      "yáo": 8765,
      "chì": 8766,
      "gòngyǒu": 8767,
      "cáng": 8768,
      "zhé": 8769,
      "liánméng": 8770,
      "chūbǎn": 8771,
      "chǎnshēng": 8772,
      "dédào": 8773,
      "huìyì": 8774,
      "chā": 8775,
      "liánhé": 8776,
      "huái": 8777,
      "jūnshì": 8778,
      "tèbié": 8779,
      "jùyǒu": 8780,
      "shǒucì": 8781,
      "zhǎo": 8782,
      "jiégòu": 8783,
      "cǐwài": 8784,
      "guómín": 8785,
      "xíngshì": 8786,
      "zhèzhǒng": 8787,
      "jítuán": 8788,
      "lt": 8789,
      "shēngchǎn": 8790,
      "kèlán": 8791,
      "juésè": 8792,
      "mínzhǔ": 8793,
      "yǐxià": 8794,
      "2009": 8795,
      "ruǎn": 8796,
      "qiúduì": 8797,
      "niàn": 8798,
      "bùduì": 8799,
      "bìyè": 8800,
      "xiàngmù": 8801,
      "yìbān": 8802,
      "jiéshù": 8803,
      "dìlǐ": 8804,
      "2008": 8805,
      "shùjù": 8806,
      "kòngzhì": 8807,
      "xuè": 8808,
      "gāodù": 8809,
      "èrshí": 8810,
      "jìxù": 8811,
      "60": 8812,
      "āěr": 8813,
      "rénkǒumìdù": 8814,
      "gèrén": 8815,
      "zhǔxí": 8816,
      "am": 8817,
      "suān": 8818,
      "jiēshòu": 8819,
      "liánsài": 8820,
      "xíngdòng": 8821,
      "fǎnyìng": 8822,
      "miào": 8823,
      "cu": 8824,
      "dàlì": 8825,
      "wúfǎ": 8826,
      "qǔdé": 8827,
      "jīgòu": 8828,
      "rènhé": 8829,
      "zēngjiā": 8830,
      "zuìdà": 8831,
      "zhōnggòng": 8832,
      "gùshì": 8833,
      "se": 8834,
      "jiùshì": 8835,
      "hǎijūn": 8836,
      "qūyù": 8837,
      "mèng": 8838,
      "yòngyú": 8839,
      "yīwèi": 8840,
      "gēqǔ": 8841,
      "chóu": 8842,
      "shídài": 8843,
      "lǐngdǎo": 8844,
      "zhà": 8845,
      "sàn": 8846,
      "wūkèlán": 8847,
      "fùjìn": 8848,
      "dìguó": 8849,
      "zàochéng": 8850,
      "chāoguò": 8851,
      "xīyà": 8852,
      "ǔn": 8853,
      "tì": 8854,
      "pú": 8855,
      "suíhòu": 8856,
      "jiéguǒ": 8857,
      "nánbù": 8858,
      "zhuàn": 8859,
      "gt": 8860,
      "tion": 8861,
      "zhǔjiào": 8862,
      "cāng": 8863,
      "yàzhōu": 8864,
      "hùn": 8865,
      "bǎng": 8866,
      "fābù": 8867,
      "31": 8868,
      "hángkōng": 8869,
      "chuántǒng": 8870,
      "lìngwài": 8871,
      "2023": 8872,
      "co": 8873,
      "yǔyán": 8874,
      "100": 8875,
      "xiǎoshí": 8876,
      "duìyú": 8877,
      "mí": 8878,
      "diàochá": 8879,
      "bùguò": 8880,
      "2007": 8881,
      "kèsī": 8882,
      "xīnwén": 8883,
      "méitǐ": 8884,
      "yìzhí": 8885,
      "190": 8886,
      "ta": 8887,
      "kēxué": 8888,
      "dòngwù": 8889,
      "sōu": 8890,
      "jīchǎng": 8891,
      "chāng": 8892,
      "fànwéi": 8893,
      "rǎn": 8894,
      "yìhuì": 8895,
      "zhǐyǒu": 8896,
      "yìdàlì": 8897,
      "téng": 8898,
      "cài": 8899,
      "mìngmíng": 8900,
      "2001": 8901,
      "lěi": 8902,
      "xiǎoxíng": 8903,
      "shēngyú": 8904,
      "guòchéng": 8905,
      "bà": 8906,
      "yīcì": 8907,
      "80": 8908,
      "píngjūn": 8909,
      "nǚxìng": 8910,
      "el": 8911,
      "tǎo": 8912,
      "hánguó": 8913,
      "shùliàng": 8914,
      "quē": 8915,
      "yīzuò": 8916,
      "ānquán": 8917,
      "chóngxīn": 8918,
      "2006": 8919,
      "kuān": 8920,
      "zhīqián": 8921,
      "jūmín": 8922,
      "sǔn": 8923,
      "nánzi": 8924,
      "chún": 8925,
      "mǒu": 8926,
      "míngchēng": 8927,
      "móu": 8928,
      "nèiróng": 8929,
      "chuàngzuò": 8930,
      "fābiǎo": 8931,
      "fùqīn": 8932,
      "wèizhì": 8933,
      "suǒyǐ": 8934,
      "jīngguò": 8935,
      "fǒu": 8936,
      "shíèr": 8937,
      "jiànshè": 8938,
      "2000": 8939,
      "qiǎn": 8940,
      "biāozhǔn": 8941,
      "suō": 8942,
      "xībān": 8943,
      "uān": 8944,
      "yùndòngyuán": 8945,
      "xībānyá": 8946,
      "rúguǒ": 8947,
      "nǚzǐ": 8948,
      "huǐ": 8949,
      "měiyuán": 8950,
      "gémìng": 8951,
      "sūlián": 8952,
      "2024": 8953,
      "huánjìng": 8954,
      "huān": 8955,
      "gōnglù": 8956,
      "fǎnduì": 8957,
      "jìngnèi": 8958,
      "jūnduì": 8959,
      "bǎnběn": 8960,
      "liánbāng": 8961,
      "ma": 8962,
      "xiàndài": 8963,
      "70": 8964,
      "jìniàn": 8965,
      "kào": 8966,
      "xuě": 8967,
      "shèlì": 8968,
      "shēngwù": 8969,
      "zhíyè": 8970,
      "luàn": 8971,
      "gōngyè": 8972,
      "dàliàng": 8973,
      "zhíjiē": 8974,
      "gòngtóng": 8975,
      "gōngkāi": 8976,
      "lǎn": 8977,
      "2005": 8978,
      "búshì": 8979,
      "rǎng": 8980,
      "zìzhì": 8981,
      "mínzú": 8982,
      "dié": 8983,
      "yǒuguān": 8984,
      "niú": 8985,
      "zāi": 8986,
      "jǔbàn": 8987,
      "ōngsī": 8988,
      "sàishì": 8989,
      "là": 8990,
      "yìqǐ": 8991,
      "lài": 8992,
      "zīliào": 8993,
      "tǐng": 8994,
      "xuǎnzé": 8995,
      "wǒmen": 8996,
      "fēicháng": 8997,
      "zūn": 8998,
      "zhǐhuī": 8999,
      "gélán": 9000,
      "shūjì": 9001,
      "yǎnyuán": 9002,
      "chúle": 9003,
      "dìsì": 9004,
      "90": 9005,
      "táiběi": 9006,
      "ne": 9007,
      "35": 9008,
      "gòngchǎn": 9009,
      "háiyǒu": 9010,
      "zhōnghuámínguó": 9011,
      "ná": 9012,
      "zhǔrèn": 9013,
      "xīnán": 9014,
      "zhíxíng": 9015,
      "gǎiwéi": 9016,
      "bāohán": 9017,
      "of": 9018,
      "shēngyá": 9019,
      "yǐlái": 9020,
      "fǎyuàn": 9021,
      "xiǎnshì": 9022,
      "jiàoshòu": 9023,
      "jùlí": 9024,
      "tǐyù": 9025,
      "xiànzài": 9026,
      "biānmǎ": 9027,
      "cāo": 9028,
      "xiéhuì": 9029,
      "chǔlǐ": 9030,
      "páng": 9031,
      "dònghuà": 9032,
      "qǐyè": 9033,
      "bìxū": 9034,
      "tuīchū": 9035,
      "guānyú": 9036,
      "jiātíng": 9037,
      "bùzhǎng": 9038,
      "shuài": 9039,
      "miè": 9040,
      "fó": 9041,
      "guǎnxiá": 9042,
      "sānnián": 9043,
      "ter": 9044,
      "shuì": 9045,
      "shìwù": 9046,
      "xiǎoshuō": 9047,
      "zhèngcè": 9048,
      "yúshì": 9049,
      "wánquán": 9050,
      "bàogào": 9051,
      "zuìjiā": 9052,
      "duōshù": 9053,
      "fǎlǜ": 9054,
      "lìyòng": 9055,
      "shènzhì": 9056,
      "zhōngxué": 9057,
      "gōngbù": 9058,
      "rénshì": 9059,
      "yīyuàn": 9060,
      "jiāzú": 9061,
      "nǎo": 9062,
      "zàicì": 9063,
      "bǐng": 9064,
      "xíngwéi": 9065,
      "pán": 9066,
      "rìzhì": 9067,
      "yīnián": 9068,
      "zhídào": 9069,
      "fāngfǎ": 9070,
      "niǎo": 9071,
      "zhàndòu": 9072,
      "shìchǎng": 9073,
      "niánjiān": 9074,
      "hóu": 9075,
      "wěn": 9076,
      "ol": 9077,
      "zhǐchū": 9078,
      "juésài": 9079,
      "il": 9080,
      "zìrán": 9081,
      "dàbùfèn": 9082,
      "gāidì": 9083,
      "rénlèi": 9084,
      "mǐn": 9085,
      "yǔn": 9086,
      "dāngzhōng": 9087,
      "jǐnguǎn": 9088,
      "yínháng": 9089,
      "zhújiàn": 9090,
      "luómǎ": 9091,
      "dǒng": 9092,
      "dōngběi": 9093,
      "xuéxí": 9094,
      "shēnfèn": 9095,
      "2004": 9096,
      "guǎngdōng": 9097,
      "yuányīn": 9098,
      "mèi": 9099,
      "hén": 9100,
      "shāo": 9101,
      "hún": 9102,
      "shíjì": 9103,
      "níyà": 9104,
      "yībùfèn": 9105,
      "zòu": 9106,
      "dàhuì": 9107,
      "fēnwéi": 9108,
      "gōnggòng": 9109,
      "sāngè": 9110,
      "zhùmíng": 9111,
      "tuántǐ": 9112,
      "rèdài": 9113,
      "jiāngjūn": 9114,
      "jīchǔ": 9115,
      "zuìchū": 9116,
      "45": 9117,
      "yǎnchū": 9118,
      "gāiguó": 9119,
      "bōchū": 9120,
      "quánlì": 9121,
      "zhuó": 9122,
      "dádào": 9123,
      "mǎi": 9124,
      "xuǎnqū": 9125,
      "pāishè": 9126,
      "pǔchá": 9127,
      "guānfāng": 9128,
      "biǎoxiàn": 9129,
      "dōngbù": 9130,
      "zǎoqī": 9131,
      "sǐwáng": 9132,
      "shěngfèn": 9133,
      "quánqiú": 9134,
      "and": 9135,
      "ow": 9136,
      "shāngyè": 9137,
      "wénxué": 9138,
      "xīwàng": 9139,
      "zhìzào": 9140,
      "xībù": 9141,
      "he": 9142,
      "zuòyòng": 9143,
      "gōngjī": 9144,
      "lǐlùn": 9145,
      "huài": 9146,
      "lèisì": 9147,
      "guīmó": 9148,
      "qùshì": 9149,
      "yánzhòng": 9150,
      "at": 9151,
      "xiàlìng": 9152,
      "zhā": 9153,
      "gōngnéng": 9154,
      "lùxiàn": 9155,
      "jiāná": 9156,
      "líkāi": 9157,
      "yān": 9158,
      "jíqí": 9159,
      "jiānádà": 9160,
      "hǎibágāodù": 9161,
      "chéngjì": 9162,
      "miáoshù": 9163,
      "qíhòu": 9164,
      "kūn": 9165,
      "jīběn": 9166,
      "nénggòu": 9167,
      "the": 9168,
      "nénglì": 9169,
      "48": 9170,
      "féng": 9171,
      "ck": 9172,
      "wùzhǒng": 9173,
      "bāshì": 9174,
      "sītǎn": 9175,
      "xuémíng": 9176,
      "nài": 9177,
      "rènwù": 9178,
      "tǒngzhì": 9179,
      "wàijiāo": 9180,
      "tào": 9181,
      "wéiyī": 9182,
      "kōngjiān": 9183,
      "zhěn": 9184,
      "kǎn": 9185,
      "xú": 9186,
      "cháoxiān": 9187,
      "yuēhàn": 9188,
      "cuī": 9189,
      "shèshī": 9190,
      "wénwù": 9191,
      "tòuguò": 9192,
      "dōngjīng": 9193,
      "ālā": 9194,
      "dàqū": 9195,
      "chíxù": 9196,
      "zhèshì": 9197,
      "es": 9198,
      "xíngzhèngqū": 9199,
      "diànzi": 9200,
      "cù": 9201,
      "jiěfàng": 9202,
      "kuí": 9203,
      "suǒshǔ": 9204,
      "yǐshàng": 9205,
      "2025": 9206,
      "yìngyòng": 9207,
      "niǔyuē": 9208,
      "bùnéng": 9209,
      "ěrsī": 9210,
      "jiērǎng": 9211,
      "bówù": 9212,
      "hébìng": 9213,
      "bǐlì": 9214,
      "36": 9215,
      "fāngxiàng": 9216,
      "2003": 9217,
      "lěng": 9218,
      "zhǔchí": 9219,
      "páimíng": 9220,
      "diāo": 9221,
      "juǎn": 9222,
      "zhǐshì": 9223,
      "gòngchǎndǎng": 9224,
      "guīdìng": 9225,
      "cuì": 9226,
      "jìsuàn": 9227,
      "céngjīng": 9228,
      "móshì": 9229,
      "qíyú": 9230,
      "měizhōu": 9231,
      "yǒuxiàng": 9232,
      "rǔ": 9233,
      "kuà": 9234,
      "liánjiē": 9235,
      "zōngjiào": 9236,
      "mùdì": 9237,
      "guǎngbō": 9238,
      "mùbiāo": 9239,
      "guǎngzhōu": 9240,
      "dōngnán": 9241,
      "guówáng": 9242,
      "zhuānyè": 9243,
      "zhèjiāng": 9244,
      "hàoxiàn": 9245,
      "yùndònghuì": 9246,
      "yǒuxiàngōngsī": 9247,
      "chǎnpǐn": 9248,
      "xiànshí": 9249,
      "tàiyáng": 9250,
      "dāngxuǎn": 9251,
      "mǎlái": 9252,
      "sìnián": 9253,
      "xiǎoxíngxīng": 9254,
      "shèzhì": 9255,
      "dānqū": 9256,
      "dìshí": 9257,
      "réngrán": 9258,
      "shìzhǎng": 9259,
      "qiúyuán": 9260,
      "kāifàng": 9261,
      "biànhuà": 9262,
      "gèzhǒng": 9263,
      "shèqū": 9264,
      "zhòu": 9265,
      "yībù": 9266,
      "rénkǒupǔchá": 9267,
      "et": 9268,
      "ròu": 9269,
      "xūn": 9270,
      "wéiěr": 9271,
      "cáo": 9272,
      "38": 9273,
      "quān": 9274,
      "shíyàn": 9275,
      "37": 9276,
      "yīyàng": 9277,
      "oo": 9278,
      "shǎng": 9279,
      "jiēdào": 9280,
      "fēnggé": 9281,
      "sàijì": 9282,
      "is": 9283,
      "xiāngdāng": 9284,
      "tàipíng": 9285,
      "érqiě": 9286,
      "jǐnbiāo": 9287,
      "nǎi": 9288,
      "huīfù": 9289,
      "dàolù": 9290,
      "máng": 9291,
      "dìxià": 9292,
      "kēng": 9293,
      "lùjūn": 9294,
      "fādòng": 9295,
      "xùnliàn": 9296,
      "2002": 9297,
      "búhuì": 9298,
      "liǎngrén": 9299,
      "bàngōng": 9300,
      "yuètái": 9301,
      "jìnshì": 9302,
      "yǎnchàng": 9303,
      "cán": 9304,
      "dàxíng": 9305,
      "fēijī": 9306,
      "189": 9307,
      "érzi": 9308,
      "jībài": 9309,
      "xiànzhì": 9310,
      "xīběi": 9311,
      "guō": 9312,
      "tǔdì": 9313,
      "zhān": 9314,
      "IN": 9315,
      "kùn": 9316,
      "wǎngluò": 9317,
      "diān": 9318,
      "zhǔtí": 9319,
      "bówùguǎn": 9320,
      "shāndōng": 9321,
      "hǔ": 9322,
      "shǐde": 9323,
      "dā": 9324,
      "nǔ": 9325,
      "xìbāo": 9326,
      "lǐsī": 9327,
      "bèijǐng": 9328,
      "niándù": 9329,
      "ve": 9330,
      "bìngyú": 9331,
      "dìngyì": 9332,
      "as": 9333,
      "34": 9334,
      "zū": 9335,
      "jiǎnchēng": 9336,
      "mǔqīn": 9337,
      "pīpíng": 9338,
      "chāi": 9339,
      "guīhuà": 9340,
      "niè": 9341,
      "xiāngtóng": 9342,
      "gāosù": 9343,
      "jiànzào": 9344,
      "yītiáo": 9345,
      "qīngnián": 9346,
      "míngwèi": 9347,
      "jiēduàn": 9348,
      "zhìdù": 9349,
      "huàxué": 9350,
      "bùmén": 9351,
      "75": 9352,
      "àoyùn": 9353,
      "sīlìng": 9354,
      "gōu": 9355,
      "zhèyī": 9356,
      "xuézhě": 9357,
      "chà": 9358,
      "lìfǎ": 9359,
      "shǎn": 9360,
      "bàofā": 9361,
      "guǐdào": 9362,
      "jìzǎi": 9363,
      "yīshì": 9364,
      "shìwèi": 9365,
      "TC": 9366,
      "jùlè": 9367,
      "dǎoyǎn": 9368,
      "tóuzī": 9369,
      "to": 9370,
      "tún": 9371,
      "sú": 9372,
      "xiàxiá": 9373,
      "má": 9374,
      "zhèyàng": 9375,
      "jùlèbù": 9376,
      "zhènqū": 9377,
      "jiézhì": 9378,
      "bóshì": 9379,
      "àomén": 9380,
      "jīdū": 9381,
      "gǎigé": 9382,
      "pínglùn": 9383,
      "zāodào": 9384,
      "shíhòu": 9385,
      "jiànyì": 9386,
      "nánjīng": 9387,
      "xīlà": 9388,
      "wǔnián": 9389,
      "1990": 9390,
      "guóhuì": 9391,
      "ménggǔ": 9392,
      "fēnzhōng": 9393,
      "dìwǔ": 9394,
      "xiàjì": 9395,
      "33": 9396,
      "íyà": 9397,
      "tān": 9398,
      "chéngqū": 9399,
      "Ma": 9400,
      "sìchuān": 9401,
      "..": 9402,
      "wéizhǔ": 9403,
      "liúxíng": 9404,
      "bùjiǔ": 9405,
      "bāngzhù": 9406,
      "chūshēng": 9407,
      "yuènán": 9408,
      "dìwèi": 9409,
      "jīnglì": 9410,
      "lúndūn": 9411,
      "cǐhòu": 9412,
      "gònghéguó": 9413,
      "nèibù": 9414,
      "rào": 9415,
      "xiāngduì": 9416,
      "55": 9417,
      "quánbù": 9418,
      "rènmìng": 9419,
      "zhěnggè": 9420,
      "zīgé": 9421,
      "dàzhàn": 9422,
      "píngtái": 9423,
      "rénmen": 9424,
      "sùdù": 9425,
      "lāsī": 9426,
      "qìchē": 9427,
      "chuāng": 9428,
      "jǐngchá": 9429,
      "32": 9430,
      "sānshí": 9431,
      "fēnxī": 9432,
      "diànshìtái": 9433,
      "46": 9434,
      "fēixíng": 9435,
      "àolín": 9436,
      "míngzì": 9437,
      "měinián": 9438,
      "39": 9439,
      "dìèrcì": 9440,
      "mànhuà": 9441,
      "liánxù": 9442,
      "zhōngbù": 9443,
      "wánjiā": 9444,
      "hěnduō": 9445,
      "pān": 9446,
      "dìqiú": 9447,
      "Ch": 9448,
      "zuòchū": 9449,
      "zázhì": 9450,
      "tèzhēng": 9451,
      "xiānhòu": 9452,
      "màoyì": 9453,
      "bǎochí": 9454,
      "shíxiàn": 9455,
      "fěn": 9456,
      "zǒngrénkǒu": 9457,
      "wùlǐ": 9458,
      "wúxiàn": 9459,
      "fújiàn": 9460,
      "tiáojiàn": 9461,
      "yíngdé": 9462,
      "it": 9463,
      "biǎoyǎn": 9464,
      "lǐngyù": 9465,
      "chēliàng": 9466,
      "nánxìng": 9467,
      "guānyuán": 9468,
      "shú": 9469,
      "yīngyǔ": 9470,
      "làng": 9471,
      "zhēngyì": 9472,
      "tī": 9473,
      "duōcì": 9474,
      "dàyuē": 9475,
      "hēng": 9476,
      "yījiā": 9477,
      "xìnxī": 9478,
      "tóngyàng": 9479,
      "jìzhě": 9480,
      "pì": 9481,
      "háomǐ": 9482,
      "yùnshū": 9483,
      "yǐnqǐ": 9484,
      "yǐngpiàn": 9485,
      "gōngchǐ": 9486,
      "ránhòu": 9487,
      "jùjué": 9488,
      "fēnlèi": 9489,
      "jīngyíng": 9490,
      "dìtiě": 9491,
      "chūrèn": 9492,
      "àolínpǐ": 9493,
      "shuǐyù": 9494,
      "wǎěr": 9495,
      "jiǎnshǎo": 9496,
      "jūzhù": 9497,
      "wǔqì": 9498,
      "shíshī": 9499,
      "jīngcháng": 9500,
      "zuòjiā": 9501,
      "wǎngzhàn": 9502,
      "pútáo": 9503,
      "65": 9504,
      "yīsī": 9505,
      "chǔyú": 9506,
      "1999": 9507,
      "xuéwèi": 9508,
      "chuáng": 9509,
      "47": 9510,
      "duōgè": 9511,
      "qúndǎo": 9512,
      "bōlán": 9513,
      "zhànyì": 9514,
      "1980": 9515,
      "zhìjīn": 9516,
      "1998": 9517,
      "kējì": 9518,
      "háishì": 9519,
      "yèwù": 9520,
      "SE": 9521,
      "In": 9522,
      "qǔdài": 9523,
      "shèbèi": 9524,
      "yuánzhù": 9525,
      "jiànyú": 9526,
      "zhái": 9527,
      "guǎngfàn": 9528,
      "pǎo": 9529,
      "qiàn": 9530,
      "xiézhù": 9531,
      "zhài": 9532,
      "huídào": 9533,
      "bèiěr": 9534,
      "hénán": 9535,
      "tāng": 9536,
      "xuānchuán": 9537,
      "hǎn": 9538,
      "jīhū": 9539,
      "bo": 9540,
      "jǐnbiāosài": 9541,
      "zhuàngtài": 9542,
      "bǐyà": 9543,
      "zuìzǎo": 9544,
      "àolínpǐkè": 9545,
      "guòqù": 9546,
      "fāshè": 9547,
      "guǎngchǎng": 9548,
      "xiànlù": 9549,
      "yuánnián": 9550,
      "dìyīcì": 9551,
      "lèixíng": 9552,
      "zhànlǐng": 9553,
      "quàn": 9554,
      "gǎibiàn": 9555,
      "huòzhě": 9556,
      "chángqī": 9557,
      "értóng": 9558,
      "xiéyì": 9559,
      "zhǎnkāi": 9560,
      "gēshǒu": 9561,
      "zhǔjué": 9562,
      "tóngyì": 9563,
      "yìyuàn": 9564,
      "hélán": 9565,
      "qīxī": 9566,
      "cānsài": 9567,
      "zhìliáo": 9568,
      "zǒngmiànjī": 9569,
      "uāng": 9570,
      "wèilái": 9571,
      "píndào": 9572,
      "píngjià": 9573,
      "nóngyè": 9574,
      "The": 9575,
      "zuòzhàn": 9576,
      "500": 9577,
      "ST": 9578,
      "zhǔnbèi": 9579,
      "jìchéng": 9580,
      "tiānjīn": 9581,
      "188": 9582,
      "zhōushì": 9583,
      "měigè": 9584,
      "br": 9585,
      "yùnxíng": 9586,
      "huángdì": 9587,
      "jīchē": 9588,
      "shíqū": 9589,
      "wèinéng": 9590,
      "yīngwén": 9591,
      "túshū": 9592,
      "jiàotáng": 9593,
      "UTC": 9594,
      "tiānzhǔjiào": 9595,
      "1997": 9596,
      "zuǒyòu": 9597,
      "tǒngyī": 9598,
      "míngcháo": 9599,
      "èrnián": 9600,
      "49": 9601,
      "bālí": 9602,
      "dàduōshù": 9603,
      "shìtú": 9604,
      "dèng": 9605,
      "shuò": 9606,
      "shìyǎn": 9607,
      "shé": 9608,
      "dìyígè": 9609,
      "yíbù": 9610,
      "xīngjiàn": 9611,
      "xīnjiā": 9612,
      "rìqǐ": 9613,
      "gàiniàn": 9614,
      "tǒngjì": 9615,
      "bǐjiào": 9616,
      "jīyú": 9617,
      "zhōngwén": 9618,
      "xíjī": 9619,
      "xiōngdì": 9620,
      "vi": 9621,
      "zǔhé": 9622,
      "quèdìng": 9623,
      "yuánběn": 9624,
      "yóuzhèng": 9625,
      "láiyuán": 9626,
      "qiǎng": 9627,
      "jìnyíbù": 9628,
      "zhīmíng": 9629,
      "shínián": 9630,
      "cèshì": 9631,
      "zhóu": 9632,
      "yòuchēng": 9633,
      "mǎláixīyà": 9634,
      "jùqíng": 9635,
      "chéngzhèn": 9636,
      "xīnjiāpō": 9637,
      "64": 9638,
      "ver": 9639,
      "shě": 9640,
      "sīkē": 9641,
      "xuǎnshǒu": 9642,
      "jīdì": 9643,
      "guómíndǎng": 9644,
      "ba": 9645,
      "jīnshǔ": 9646,
      "chūqī": 9647,
      "zòng": 9648,
      "kā": 9649,
      "jiǎnchá": 9650,
      "bìngdú": 9651,
      "gèdì": 9652,
      "be": 9653,
      "liúyù": 9654,
      "lo": 9655,
      "jízhōng": 9656,
      "II": 9657,
      "guónèi": 9658,
      "wángguó": 9659,
      "dàlóu": 9660,
      "liùnián": 9661,
      "fǎnhuí": 9662,
      "zōnghé": 9663,
      "yóutài": 9664,
      "Co": 9665,
      "1996": 9666,
      "zhīwài": 9667,
      "jiějué": 9668,
      "jiāoyì": 9669,
      "chuí": 9670,
      "nàn": 9671,
      "yùnyíng": 9672,
      "zhēnduì": 9673,
      "na": 9674,
      "pòhuài": 9675,
      "yúlè": 9676,
      "kōngjūn": 9677,
      "lǚyóu": 9678,
      "wěndìng": 9679,
      "bàndǎo": 9680,
      "jiànduì": 9681,
      "shìfǒu": 9682,
      "bàodào": 9683,
      "yīnggélán": 9684,
      "qióng": 9685,
      "tóupiào": 9686,
      "zīyuán": 9687,
      "Re": 9688,
      "gǎibiān": 9689,
      "yídìng": 9690,
      "jīngshén": 9691,
      "shěngjí": 9692,
      "68": 9693,
      "àodà": 9694,
      "tàipíngyáng": 9695,
      "yuáng": 9696,
      "jìngōng": 9697,
      "sījī": 9698,
      "fāngàn": 9699,
      "jiāshàng": 9700,
      "qīngcháo": 9701,
      "ca": 9702,
      "yuánsù": 9703,
      "zhèngmíng": 9704,
      "us": 9705,
      "bùshǎo": 9706,
      "hépíng": 9707,
      "huòshì": 9708,
      "wéichí": 9709,
      "tiào": 9710,
      "tiānwén": 9711,
      "bùzài": 9712,
      "lùdì": 9713,
      "niánqīng": 9714,
      "shàngyìng": 9715,
      "han": 9716,
      "huǎn": 9717,
      "44": 9718,
      "shuāi": 9719,
      "èrshì": 9720,
      "pǔtōng": 9721,
      "jīhuì": 9722,
      "àodàlìyà": 9723,
      "zhīxiàn": 9724,
      "chàngpiàn": 9725,
      "biānhào": 9726,
      "diànshìjù": 9727,
      "míngdān": 9728,
      "yīkē": 9729,
      "yīcháng": 9730,
      "yīzhī": 9731,
      "yǒurén": 9732,
      "huángjiā": 9733,
      "hōng": 9734,
      "58": 9735,
      "rénkǒushùliàng": 9736,
      "jiěshì": 9737,
      "ci": 9738,
      "shuāngfāng": 9739,
      "zhèngzài": 9740,
      "zhímín": 9741,
      "guānzhòng": 9742,
      "xiǎoxué": 9743,
      "zǒnglǐ": 9744,
      "qìhòu": 9745,
      "yīshēng": 9746,
      "wēilián": 9747,
      "nǚér": 9748,
      "yánjiūsuǒ": 9749,
      "lìliàng": 9750,
      "cǐshí": 9751,
      "tòng": 9752,
      "tiědào": 9753,
      "1994": 9754,
      "chéngxù": 9755,
      "céngrèn": 9756,
      "línshí": 9757,
      "mìshū": 9758,
      "bāxī": 9759,
      "1992": 9760,
      "gāojí": 9761,
      "nī": 9762,
      "dìliù": 9763,
      "mǎlì": 9764,
      "chǎnyè": 9765,
      "chéngdù": 9766,
      "jījīn": 9767,
      "gēngmíng": 9768,
      "pīzhǔn": 9769,
      "ad": 9770,
      "féi": 9771,
      "chāojí": 9772,
      "jiéhé": 9773,
      "wénwùbǎohù": 9774,
      "shìlì": 9775,
      "zèng": 9776,
      "qīzǐ": 9777,
      "guólì": 9778,
      "bùduàn": 9779,
      "shōurù": 9780,
      "ir": 9781,
      "yǐhòu": 9782,
      "tiáoyuē": 9783,
      "jīguān": 9784,
      "jiāngsū": 9785,
      "shàonián": 9786,
      "chéngrèn": 9787,
      "juān": 9788,
      "zìxíng": 9789,
      "yǐsè": 9790,
      "gǎnrǎn": 9791,
      "wéiyà": 9792,
      "yǐsèliè": 9793,
      "dàshǐ": 9794,
      "zhá": 9795,
      "guófáng": 9796,
      "1995": 9797,
      "chī": 9798,
      "wō": 9799,
      "yúnnán": 9800,
      "yǐnfā": 9801,
      "78": 9802,
      "nì": 9803,
      "xuē": 9804,
      "jiàzhí": 9805,
      "yóuqí": 9806,
      "chūshēn": 9807,
      "chōngtū": 9808,
      "mián": 9809,
      "tǎolùn": 9810,
      "suízhù": 9811,
      "héxīn": 9812,
      "jiěfàngjūn": 9813,
      "miǎo": 9814,
      "qǐlái": 9815,
      "sāiěr": 9816,
      "cáizhèng": 9817,
      "xiǎozǔ": 9818,
      "bǎoliú": 9819,
      "yīliáo": 9820,
      "76": 9821,
      "chóngjiàn": 9822,
      "yìzhì": 9823,
      "yīxiàng": 9824,
      "yǒuxiē": 9825,
      "rìjūn": 9826,
      "nè": 9827,
      "jiàohuì": 9828,
      "érshì": 9829,
      "wànrén": 9830,
      "shàngwèi": 9831,
      "zìdòng": 9832,
      "qǔxiāo": 9833,
      "xīngqī": 9834,
      "yǒuxiào": 9835,
      "tiē": 9836,
      "guówù": 9837,
      "sīxiǎng": 9838,
      "hǎ": 9839,
      "rénshù": 9840,
      "shífēn": 9841,
      "chái": 9842,
      "fěi": 9843,
      "shǒudū": 9844,
      "1950": 9845,
      "kuàisù": 9846,
      "húnán": 9847,
      "gōngmín": 9848,
      "cóngshì": 9849,
      "wǔzhuāng": 9850,
      "chán": 9851,
      "yǔnxǔ": 9852,
      "zǒngbù": 9853,
      "rúxià": 9854,
      "nú": 9855,
      "zhìshǎo": 9856,
      "fènzǐ": 9857,
      "tímíng": 9858,
      "xīyáng": 9859,
      "ay": 9860,
      "tiáozhěng": 9861,
      "nd": 9862,
      "jiànkāng": 9863,
      "wā": 9864,
      "yuètuán": 9865,
      "zhǔyǎn": 9866,
      "yāoqǐng": 9867,
      "dāo": 9868,
      "gāozhōng": 9869,
      "qiáozhì": 9870,
      "tóurù": 9871,
      "kǎěr": 9872,
      "wěihuì": 9873,
      "1993": 9874,
      "300": 9875,
      "wángcháo": 9876,
      "99": 9877,
      "xiàwǔ": 9878,
      "zhīyuán": 9879,
      "tíngzhǐ": 9880,
      "zhùzuò": 9881,
      "lìshǔyú": 9882,
      "àolínpǐkèyùndònghuì": 9883,
      "xiànfǎ": 9884,
      "cáiliào": 9885,
      "qíshì": 9886,
      "zhízhì": 9887,
      "yǎnghuà": 9888,
      "shānxī": 9889,
      "jiànchéng": 9890,
      "56": 9891,
      "qíxià": 9892,
      "wèishēng": 9893,
      "suízhe": 9894,
      "pe": 9895,
      "sā": 9896,
      "shènglì": 9897,
      "shìshì": 9898,
      "xíngzhèngqūhuà": 9899,
      "fēngbào": 9900,
      "tuó": 9901,
      "42": 9902,
      "77": 9903,
      "wénjiàn": 9904,
      "àiěr": 9905,
      "suǒzài": 9906,
      "1991": 9907,
      "mínzhòng": 9908,
      "zhīdào": 9909,
      "wénzhāng": 9910,
      "fēizhōu": 9911,
      "kǎolǜ": 9912,
      "shōulù": 9913,
      "1970": 9914,
      "lìzi": 9915,
      "fǎngwèn": 9916,
      "liánhéguó": 9917,
      "wēng": 9918,
      "tuánduì": 9919,
      "àosī": 9920,
      "yǒushí": 9921,
      "xiāoshòu": 9922,
      "tiǎo": 9923,
      "yònghù": 9924,
      "xīnzēng": 9925,
      "shēnqǐng": 9926,
      "ānpái": 9927,
      "hǎiàn": 9928,
      "shìjièdàzhàn": 9929,
      "zhōngshì": 9930,
      "tèshū": 9931,
      "jiéhūn": 9932,
      "dǔ": 9933,
      "zǔfù": 9934,
      "yījí": 9935,
      "shírèn": 9936,
      "jiànzhì": 9937,
      "chūlái": 9938,
      "shuōfǎ": 9939,
      "1945": 9940,
      "yīnggāi": 9941,
      "shìbīng": 9942,
      "yímín": 9943,
      "guānchá": 9944,
      "chángjiàn": 9945,
      "míngxiǎn": 9946,
      "yìshí": 9947,
      "yìyì": 9948,
      "túshūguǎn": 9949,
      "hánshù": 9950,
      "59": 9951,
      "jǐngfāng": 9952,
      "měng": 9953,
      "yīnér": 9954,
      "zhōngguógòngchǎndǎng": 9955,
      "ing": 9956,
      "yīdài": 9957,
      "fójiào": 9958,
      "qìxiàng": 9959,
      "ěrdé": 9960,
      "gōngchǎng": 9961,
      "chéngxiàn": 9962,
      "guānzhù": 9963,
      "chuànglì": 9964,
      "guā": 9965,
      "zìzhìqū": 9966,
      "wéiqí": 9967,
      "gǎndào": 9968,
      "fǎlán": 9969,
      "zàidù": 9970,
      "jiējìn": 9971,
      "gāoděng": 9972,
      "1949": 9973,
      "biǎodá": 9974,
      "yàlì": 9975,
      "bùzú": 9976,
      "shēngzhǎng": 9977,
      "xiàlái": 9978,
      "shìyè": 9979,
      "gǎo": 9980,
      "1988": 9981,
      "gōngfēn": 9982,
      "réngōng": 9983,
      "shìqū": 9984,
      "délǐ": 9985,
      "jiùdú": 9986,
      "wénmíng": 9987,
      "dìlì": 9988,
      "wùzhì": 9989,
      "yíshì": 9990,
      "66": 9991,
      "tóngyī": 9992,
      "1960": 9993,
      "déyǐ": 9994,
      "rénmínzhèngfǔ": 9995,
      "bìngwèi": 9996,
      "móxíng": 9997,
      "xiànchǎng": 9998,
      "jiàoqū": 9999,
      "ss": 10000,
      "xīfāng": 10001,
      "héwù": 10002,
      "kèchéng": 10003,
      "jiāoliú": 10004,
      "běnzhàn": 10005,
      "yídòng": 10006,
      "kědá": 10007,
      "gòuchéng": 10008,
      "biǎn": 10009,
      "jiāngxī": 10010,
      "qǐyòng": 10011,
      "yízhǐ": 10012,
      "shǎoshù": 10013,
      "AT": 10014,
      "zhèngdǎng": 10015,
      "rùqīn": 10016,
      "dàchén": 10017,
      "mìnglìng": 10018,
      "háizi": 10019,
      "wēiěr": 10020,
      "lākè": 10021,
      "yīduàn": 10022,
      "dàodá": 10023,
      "dìqī": 10024,
      "kàndào": 10025,
      "rúcǐ": 10026,
      "màikè": 10027,
      "yīxué": 10028,
      "lǐshì": 10029,
      "ur": 10030,
      "zhōngguórénmín": 10031,
      "bàngōngshì": 10032,
      "dònglì": 10033,
      "43": 10034,
      "diànnǎo": 10035,
      "gōngrén": 10036,
      "57": 10037,
      "qiúchǎng": 10038,
      "rǎo": 10039,
      "hòuxuǎn": 10040,
      "bānián": 10041,
      "jùjí": 10042,
      "zǎonián": 10043,
      "jiékè": 10044,
      "shēntǐ": 10045,
      "liǔ": 10046,
      "tuò": 10047,
      "pù": 10048,
      "hòuzhě": 10049,
      "chūkǒu": 10050,
      "biànchéng": 10051,
      "zhòngdiǎn": 10052,
      "xiāngsì": 10053,
      "ct": 10054,
      "bótè": 10055,
      "id": 10056,
      "ālābó": 10057,
      "ànjiàn": 10058,
      "ig": 10059,
      "tígāo": 10060,
      "dǐdá": 10061,
      "1989": 10062,
      "chuàngbàn": 10063,
      "mòxī": 10064,
      "jìnzhǐ": 10065,
      "yīnsù": 10066,
      "tíshēng": 10067,
      "zhǔzhāng": 10068,
      "zuòbiāo": 10069,
      "41": 10070,
      "liǎo": 10071,
      "yóuzhèngbiānmǎ": 10072,
      "um": 10073,
      "dàilái": 10074,
      "tǐxì": 10075,
      "yīsīlán": 10076,
      "88": 10077,
      "cóngér": 10078,
      "diàntái": 10079,
      "shānmài": 10080,
      "péngyǒu": 10081,
      "lièwèi": 10082,
      "jūng": 10083,
      "zǒngdū": 10084,
      "xiànxiàng": 10085,
      "chèxiāo": 10086,
      "SEE": 10087,
      "69": 10088,
      "pútáoyá": 10089,
      "liánxì": 10090,
      "zhuàngkuàng": 10091,
      "xiāoxī": 10092,
      "mǐěr": 10093,
      "yángé": 10094,
      "guài": 10095,
      "xuéshù": 10096,
      "sìgè": 10097,
      "TV": 10098,
      "píngmiàn": 10099,
      "xiàozhǎng": 10100,
      "dōngxī": 10101,
      "dìzhèn": 10102,
      "àodìlì": 10103,
      "yītóng": 10104,
      "huāng": 10105,
      "NA": 10106,
      "yǒuxiàn": 10107,
      "duōnián": 10108,
      "zhìliàng": 10109,
      "bìmiǎn": 10110,
      "pǔbiàn": 10111,
      "shīqù": 10112,
      "dìdiǎn": 10113,
      "SA": 10114,
      "zhōubiān": 10115,
      "kǔ": 10116,
      "rùkǒu": 10117,
      "yònglái": 10118,
      "zhīshí": 10119,
      "ph": 10120,
      "St": 10121,
      "shà": 10122,
      "67": 10123,
      "běiměi": 10124,
      "cāozuò": 10125,
      "liǎngzhǒng": 10126,
      "zhùyì": 10127,
      "shìshí": 10128,
      "láishuō": 10129,
      "shǎnxī": 10130,
      "zhàokāi": 10131,
      "shuǐpíng": 10132,
      "dàdào": 10133,
      "dìmiàn": 10134,
      "suìdào": 10135,
      "tiǎozhàn": 10136,
      "shǐjiàn": 10137,
      "xiàolì": 10138,
      "fāchū": 10139,
      "dāngnián": 10140,
      "Ro": 10141,
      "mǒuxiē": 10142,
      "ruìdiǎn": 10143,
      "INSEE": 10144,
      "shēngmìng": 10145,
      "bàodǎo": 10146,
      "wēixié": 10147,
      "zhèngquán": 10148,
      "chuàn": 10149,
      "shízì": 10150,
      "biǎomíng": 10151,
      "wèixīng": 10152,
      "dāngjú": 10153,
      "dànbái": 10154,
      "pū": 10155,
      "yíngyùn": 10156,
      "yídù": 10157,
      "ruìshì": 10158,
      "zhǐnéng": 10159,
      "bǐdé": 10160,
      "shībài": 10161,
      "zēngzhǎng": 10162,
      "quánmiàn": 10163,
      "jiǔnián": 10164,
      "tàiguó": 10165,
      "héngxīng": 10166,
      "gōngzhòng": 10167,
      "nánběi": 10168,
      "jīxiè": 10169,
      "biǎomiàn": 10170,
      "fādiàn": 10171,
      "náng": 10172,
      "shùzì": 10173,
      "shòuyǔ": 10174,
      "bōfàng": 10175,
      "cǎiqǔ": 10176,
      "gǎimíng": 10177,
      "1984": 10178,
      "bùluò": 10179,
      "āndé": 10180,
      "xìnhào": 10181,
      "yàowù": 10182,
      "shòushāng": 10183,
      "niándǐ": 10184,
      "bùmíng": 10185,
      "bìngfēi": 10186,
      "zhècì": 10187,
      "chūzhàn": 10188,
      "duìshǒu": 10189,
      "shénme": 10190,
      "mínzhǔdǎng": 10191,
      "gōngshì": 10192,
      "amp": 10193,
      "52": 10194,
      "51": 10195,
      "kèyùn": 10196,
      "79": 10197,
      "kòu": 10198,
      "xīnlǐ": 10199,
      "guǎnggào": 10200,
      "cùn": 10201,
      "jǐyǔ": 10202,
      "gǒng": 10203,
      "mòxīgē": 10204,
      "zhèlǐ": 10205,
      "dēnglù": 10206,
      "bùdé": 10207,
      "zhīxià": 10208,
      "yuánxíng": 10209,
      "tèdìng": 10210,
      "bùkě": 10211,
      "yīxìliè": 10212,
      "māo": 10213,
      "píngfāngmǐ": 10214,
      "wàiguó": 10215,
      "1985": 10216,
      "lǚkè": 10217,
      "lùyì": 10218,
      "xiāngshì": 10219,
      "hóngsè": 10220,
      "chóngqìng": 10221,
      "kàngyì": 10222,
      "rùn": 10223,
      "xíngtài": 10224,
      "yīlǎng": 10225,
      "Me": 10226,
      "xiàlìngshí": 10227,
      "hǎiyù": 10228,
      "biānjí": 10229,
      "yīlì": 10230,
      "chèn": 10231,
      "ly": 10232,
      "cuòshī": 10233,
      "fānyì": 10234,
      "quánzhǎng": 10235,
      "xīnjiāng": 10236,
      "dáchéng": 10237,
      "dàxīyáng": 10238,
      "guà": 10239,
      "jiǔdiàn": 10240,
      "yījù": 10241,
      "gòngxiàn": 10242,
      "hāěr": 10243,
      "mǎěr": 10244,
      "fén": 10245,
      "tuīdòng": 10246,
      "quēfá": 10247,
      "fāqǐ": 10248,
      "ru": 10249,
      "shìmín": 10250,
      "hǎiyáng": 10251,
      "héběi": 10252,
      "gūjì": 10253,
      "xùnsù": 10254,
      "nánjí": 10255,
      "54": 10256,
      "chuàngzào": 10257,
      "62": 10258,
      "jīdūjiào": 10259,
      "jǐgè": 10260,
      "shēngmíng": 10261,
      "yǔmáo": 10262,
      "gōnghuì": 10263,
      "lìsī": 10264,
      "mǔsī": 10265,
      "huānyíng": 10266,
      "yǐqián": 10267,
      "yízhì": 10268,
      "guāndiǎn": 10269,
      "rùxuǎn": 10270,
      "shùxué": 10271,
      "báisè": 10272,
      "yǒusuǒ": 10273,
      "yǐwài": 10274,
      "zīxùn": 10275,
      "jījí": 10276,
      "gāoxióng": 10277,
      "1986": 10278,
      "Li": 10279,
      "shíwù": 10280,
      "yánshēn": 10281,
      "jīnróng": 10282,
      "biāozhì": 10283,
      "ānnà": 10284,
      "yòumíng": 10285,
      "zhōngshān": 10286,
      "bìnglì": 10287,
      "qiángdiào": 10288,
      "shèjí": 10289,
      "guówùyuàn": 10290,
      "jiēchù": 10291,
      "ber": 10292,
      "míngzhì": 10293,
      "zhìyú": 10294,
      "jièshào": 10295,
      "pǐnpái": 10296,
      "běnshēn": 10297,
      "wànměiyuán": 10298,
      "zuòzhě": 10299,
      "qiángliè": 10300,
      "jiālì": 10301,
      "cānkǎo": 10302,
      "àozhōu": 10303,
      "guīzé": 10304,
      "quèrèn": 10305,
      "53": 10306,
      "1987": 10307,
      "zàinèi": 10308,
      "héliú": 10309,
      "ard": 10310,
      "jiàoliàn": 10311,
      "ōuyuán": 10312,
      "zhǐdìng": 10313,
      "chéngkè": 10314,
      "yǐnqíng": 10315,
      "fàngqì": 10316,
      "tāi": 10317,
      "jīnpái": 10318,
      "wúrén": 10319,
      "qiánshēn": 10320,
      "zhǎodào": 10321,
      "ānzhuāng": 10322,
      "xīyǐn": 10323,
      "fēilǜ": 10324,
      "yìjiàn": 10325,
      "gòumǎi": 10326,
      "diànlì": 10327,
      "zhuō": 10328,
      "běntǔ": 10329,
      "chuánbō": 10330,
      "āijí": 10331,
      "zǔjiàn": 10332,
      "fēilǜbīn": 10333,
      "hòuxuǎnrén": 10334,
      "jìngzhēng": 10335,
      "shíyī": 10336,
      "sēnlín": 10337,
      "yuèduì": 10338,
      "nàlǐ": 10339,
      "zhànhòu": 10340,
      "150": 10341,
      "hòuqī": 10342,
      "xìngzhì": 10343,
      "héyuē": 10344,
      "yìmíng": 10345,
      "shíjìshàng": 10346,
      "wànyuán": 10347,
      "lǜshī": 10348,
      "wánzhěng": 10349,
      "láidào": 10350,
      "niánchū": 10351,
      "ěrqí": 10352,
      "zhídǎo": 10353,
      "per": 10354,
      "quèzhěn": 10355,
      "qiānshǔ": 10356,
      "duìwǔ": 10357,
      "tǐzhǎng": 10358,
      "400": 10359,
      "zhìlì": 10360,
      "fǎàn": 10361,
      "lādīng": 10362,
      "tèsè": 10363,
      "fùzá": 10364,
      "ind": 10365,
      "yālì": 10366,
      "72": 10367,
      "xūqiú": 10368,
      "fún": 10369,
      "róngyù": 10370,
      "BA": 10371,
      "nánfāng": 10372,
      "táinán": 10373,
      "shēngchēng": 10374,
      "shìgù": 10375,
      "sīkè": 10376,
      "duóde": 10377,
      "dàguīmó": 10378,
      "fēnzhī": 10379,
      "xìnyǎng": 10380,
      "bùlǔ": 10381,
      "wǔtái": 10382,
      "61": 10383,
      "dōngfāng": 10384,
      "jíbìng": 10385,
      "róngyì": 10386,
      "xiànrèn": 10387,
      "xǐhuān": 10388,
      "duōzhǒng": 10389,
      "1982": 10390,
      "jùdà": 10391,
      "shūrù": 10392,
      "zhèngzhuàng": 10393,
      "ty": 10394,
      "húběi": 10395,
      "hǎiwài": 10396,
      "rúhé": 10397,
      "yìqíng": 10398,
      "chūxí": 10399,
      "dǎjī": 10400,
      "àiěrlán": 10401,
      "biānjiè": 10402,
      "jiǎngxiàng": 10403,
      "chōu": 10404,
      "zìmǔ": 10405,
      "xiànjīn": 10406,
      "De": 10407,
      "sàng": 10408,
      "98": 10409,
      "zhìdìng": 10410,
      "qiǎo": 10411,
      "yóujī": 10412,
      "táifēng": 10413,
      "lāfū": 10414,
      "Mi": 10415,
      "gǎizào": 10416,
      "shuàilǐng": 10417,
      "wénzì": 10418,
      "gǔn": 10419,
      "jīyīn": 10420,
      "lǐngtǔ": 10421,
      "róu": 10422,
      "chuánshuō": 10423,
      "zhèngjù": 10424,
      "CD": 10425,
      "zhuāngzhì": 10426,
      "zhǎnshì": 10427,
      "1983": 10428,
      "bùjǐn": 10429,
      "un": 10430,
      "pèihé": 10431,
      "shíxíng": 10432,
      "sīrén": 10433,
      "lǐngxiù": 10434,
      "zhōngjiān": 10435,
      "ānhuī": 10436,
      "shàngshū": 10437,
      "shēngtài": 10438,
      "nèigé": 10439,
      "sǔnshī": 10440,
      "shēnzhèn": 10441,
      "Mar": 10442,
      "gōngzhǔ": 10443,
      "tou": 10444,
      "71": 10445,
      "yálì": 10446,
      "liǎngnián": 10447,
      "xiōngyálì": 10448,
      "sīfǎ": 10449,
      "chángshì": 10450,
      "jiàngdī": 10451,
      "wǎnglù": 10452,
      "fùmǔ": 10453,
      "guāngxù": 10454,
      "pìn": 10455,
      "cūnzhuāng": 10456,
      "zhīzhōng": 10457,
      "63": 10458,
      "zhěngtǐ": 10459,
      "wénxiàn": 10460,
      "kèlǐ": 10461,
      "tídào": 10462,
      "zhuānjiā": 10463,
      "ànzhào": 10464,
      "shénjīng": 10465,
      "hùnhé": 10466,
      "fēngxiǎn": 10467,
      "tw": 10468,
      "wǔhàn": 10469,
      "fāshòu": 10470,
      "guǎngdōngshěng": 10471,
      "tǔěrqí": 10472,
      "ke": 10473,
      "kū": 10474,
      "kāitōng": 10475,
      "yīngxióng": 10476,
      "kuì": 10477,
      "jiǔlóng": 10478,
      "xiàoguǒ": 10479,
      "mínjiān": 10480,
      "os": 10481,
      "zhùzhái": 10482,
      "180": 10483,
      "yuànzhǎng": 10484,
      "bùmǎn": 10485,
      "zhéxué": 10486,
      "zhuāngjiǎ": 10487,
      "réndà": 10488,
      "gèngjiā": 10489,
      "yǔzhòu": 10490,
      "chuàngjiàn": 10491,
      "zhǒngzú": 10492,
      "júzhǎng": 10493,
      "shàngwǔ": 10494,
      "dōngjì": 10495,
      "shèhuìzhǔyì": 10496,
      "zhòngdà": 10497,
      "xuéhuì": 10498,
      "jiàoxué": 10499,
      "jīngyàn": 10500,
      "lièbiǎo": 10501,
      "jiàoshī": 10502,
      "wǎnshàng": 10503,
      "měishù": 10504,
      "xiāngbǐ": 10505,
      "gōngjù": 10506,
      "rènzhí": 10507,
      "quǎn": 10508,
      "pēn": 10509,
      "yē": 10510,
      "der": 10511,
      "guǎngxī": 10512,
      "huíyìng": 10513,
      "fànzuì": 10514,
      "yìrén": 10515,
      "guānbì": 10516,
      "bèipò": 10517,
      "jiǎndān": 10518,
      "sǎn": 10519,
      "zhèngcháng": 10520,
      "1979": 10521,
      "You": 10522,
      "shōugòu": 10523,
      "chéngběn": 10524,
      "kuòdà": 10525,
      "xíngxiàng": 10526,
      "shìjièbēi": 10527,
      "au": 10528,
      "74": 10529,
      "jùtǐ": 10530,
      "wànlì": 10531,
      "jiàshǐ": 10532,
      "xīzàng": 10533,
      "jiārén": 10534,
      "nísī": 10535,
      "73": 10536,
      "zhuānmén": 10537,
      "xìjù": 10538,
      "cáinéng": 10539,
      "sàkè": 10540,
      "guójiāduì": 10541,
      "sānjiǎo": 10542,
      "zhōnggòngzhōngyāng": 10543,
      "yīngchǐ": 10544,
      "qiánlóng": 10545,
      "tuìyì": 10546,
      "qià": 10547,
      "zhōunián": 10548,
      "piàofáng": 10549,
      "xiàjiàng": 10550,
      "gǔdài": 10551,
      "fúhé": 10552,
      "fùn": 10553,
      "zhāi": 10554,
      "kuāng": 10555,
      "ang": 10556,
      "sìshí": 10557,
      "shìwēi": 10558,
      "érchéng": 10559,
      "huànzhě": 10560,
      "qǐngqiú": 10561,
      "zījīn": 10562,
      "shìyīnwèi": 10563,
      "kāishè": 10564,
      "shéng": 10565,
      "zuòqǔ": 10566,
      "gāosùgōnglù": 10567,
      "jiǎnjiè": 10568,
      "jíshǐ": 10569,
      "bólín": 10570,
      "zhuǎnyí": 10571,
      "hǎidào": 10572,
      "95": 10573,
      "1978": 10574,
      "àoyùnhuì": 10575,
      "nuó": 10576,
      "gùwèn": 10577,
      "miànduì": 10578,
      "bìngrù": 10579,
      "OS": 10580,
      "bǎocún": 10581,
      "xiàngzhēng": 10582,
      "lòu": 10583,
      "yuángōng": 10584,
      "gǔfèn": 10585,
      "fūrén": 10586,
      "gǎishàn": 10587,
      "lǚxíng": 10588,
      "biàndé": 10589,
      "xiānshēng": 10590,
      "zhànshì": 10591,
      "jīzhì": 10592,
      "chāyì": 10593,
      "fùgài": 10594,
      "tuìchū": 10595,
      "qú": 10596,
      "shīfàn": 10597,
      "tàikōng": 10598,
      "zhànlüè": 10599,
      "ap": 10600,
      "yìměiyuán": 10601,
      "jiàowéi": 10602,
      "kuáng": 10603,
      "yùnzuò": 10604,
      "yuánshǐ": 10605,
      "hěnkuài": 10606,
      "qǐyuán": 10607,
      "wēijī": 10608,
      "mā": 10609,
      "hēisè": 10610,
      "chángdù": 10611,
      "fúqíyú": 10612,
      "cānmóu": 10613,
      "mǎnzú": 10614,
      "mìmì": 10615,
      "yīqiè": 10616,
      "shuòshì": 10617,
      "op": 10618,
      "hěndà": 10619,
      "duìxiàng": 10620,
      "jǔrén": 10621,
      "sēng": 10622,
      "dòngzuò": 10623,
      "bùěr": 10624,
      "héchéng": 10625,
      "mùsī": 10626,
      "āiěr": 10627,
      "cōng": 10628,
      "dōngběibù": 10629,
      "míngyì": 10630,
      "wēndù": 10631,
      "tōngchē": 10632,
      "yàlìshān": 10633,
      "zhàntái": 10634,
      "dàzhì": 10635,
      "ruǎnjiàn": 10636,
      "ts": 10637,
      "Mo": 10638,
      "ed": 10639,
      "yīfèn": 10640,
      "xúnhuí": 10641,
      "zérèn": 10642,
      "cǐcì": 10643,
      "zhōngyú": 10644,
      "éryán": 10645,
      "qíngbào": 10646,
      "měijūn": 10647,
      "Al": 10648,
      "zhǐdǎo": 10649,
      "shèyǐng": 10650,
      "huáshèng": 10651,
      "dìbā": 10652,
      "1946": 10653,
      "mǎkè": 10654,
      "dàibiǎodàhuì": 10655,
      "yuánzé": 10656,
      "zhōuwéi": 10657,
      "duìyìng": 10658,
      "bùbīng": 10659,
      "lǐngdǎorén": 10660,
      "gùdìng": 10661,
      "niánlíng": 10662,
      "ké": 10663,
      "lièrù": 10664,
      "85": 10665,
      "hǎixiá": 10666,
      "gāoyú": 10667,
      "huánghòu": 10668,
      "lánqiú": 10669,
      "sūgélán": 10670,
      "xiūgǎi": 10671,
      "huáshèngdùn": 10672,
      "yùjì": 10673,
      "cùjìn": 10674,
      "zhōngguórénmínjiěfàngjūn": 10675,
      "táiběishì": 10676,
      "duìcǐ": 10677,
      "hē": 10678,
      "jīnglǐ": 10679,
      "zàiyú": 10680,
      "gēlún": 10681,
      "Sh": 10682,
      "huárén": 10683,
      "láodòng": 10684,
      "fángyù": 10685,
      "yíchǎn": 10686,
      "89": 10687,
      "guāncè": 10688,
      "jīqì": 10689,
      "1981": 10690,
      "dàilǐ": 10691,
      "jiāqiáng": 10692,
      "dàqiáo": 10693,
      "xǐng": 10694,
      "zhòngduō": 10695,
      "1920": 10696,
      "1940": 10697,
      "dàxiǎo": 10698,
      "zhàopiān": 10699,
      "gōngyìng": 10700,
      "1958": 10701,
      "jiàgé": 10702,
      "mǎlā": 10703,
      "dàshà": 10704,
      "Le": 10705,
      "chūyǎn": 10706,
      "yòngzuò": 10707,
      "wéng": 10708,
      "línjìn": 10709,
      "sàěr": 10710,
      "gònghé": 10711,
      "biānjù": 10712,
      "shànghǎishì": 10713,
      "juàn": 10714,
      "mǎsī": 10715,
      "duǒ": 10716,
      "shèdìng": 10717,
      "yǐnrù": 10718,
      "shuōmíng": 10719,
      "yuánmíng": 10720,
      "bùlā": 10721,
      "tuìxiū": 10722,
      "běifāng": 10723,
      "běijīngshì": 10724,
      "zhēnzhèng": 10725,
      "zhuāngbèi": 10726,
      "ction": 10727,
      "CO": 10728,
      "kàngrì": 10729,
      "dìtú": 10730,
      "guìzú": 10731,
      "suǒwèi": 10732,
      "shēndù": 10733,
      "shìnèi": 10734,
      "pèiyīn": 10735,
      "lìyì": 10736,
      "qìxuán": 10737,
      "dàiyǒu": 10738,
      "yìbǎi": 10739,
      "zhīzi": 10740,
      "fēnpèi": 10741,
      "bànshì": 10742,
      "mp": 10743,
      "AR": 10744,
      "qǐyì": 10745,
      "suíjí": 10746,
      "shàngshì": 10747,
      "jiāméng": 10748,
      "bàolì": 10749,
      "rìbào": 10750,
      "dānmài": 10751,
      "yánsè": 10752,
      "1948": 10753,
      "néngliàng": 10754,
      "cuòwù": 10755,
      "Ga": 10756,
      "xìngbié": 10757,
      "lúwǎěr": 10758,
      "jiājìng": 10759,
      "dūshì": 10760,
      "gǒu": 10761,
      "tǎnkè": 10762,
      "liǎn": 10763,
      "wéisī": 10764,
      "yìsi": 10765,
      "bǎoluó": 10766,
      "tuījìn": 10767,
      "fùnǚ": 10768,
      "huǒjiàn": 10769,
      "lìrèn": 10770,
      "shìyàn": 10771,
      "huíguī": 10772,
      "huāyuán": 10773,
      "bàozhà": 10774,
      "xìngqù": 10775,
      "Vi": 10776,
      "yìwèi": 10777,
      "wāng": 10778,
      "liǎojiě": 10779,
      "dézhī": 10780,
      "1000": 10781,
      "xiūjiàn": 10782,
      "shuā": 10783,
      "jiējí": 10784,
      "jiānrèn": 10785,
      "lìjí": 10786,
      "bànyǎn": 10787,
      "yǎnchànghuì": 10788,
      "tāyú": 10789,
      "qǐdòng": 10790,
      "zhǐkòng": 10791,
      "zhuì": 10792,
      "zhùcè": 10793,
      "nàxiē": 10794,
      "děngděng": 10795,
      "tōngdào": 10796,
      "wéizhǐ": 10797,
      "yǔmáoqiú": 10798,
      "jiǎngshù": 10799,
      "dǒngshì": 10800,
      "dàjiǎng": 10801,
      "liǎngcì": 10802,
      "nányǐ": 10803,
      "pēng": 10804,
      "pàichū": 10805,
      "ows": 10806,
      "jiānghuì": 10807,
      "hēnglì": 10808,
      "kèlái": 10809,
      "duìwài": 10810,
      "mo": 10811,
      "shìfàng": 10812,
      "jīnrì": 10813,
      "yǐyǒu": 10814,
      "cū": 10815,
      "shānqū": 10816,
      "ry": 10817,
      "yìnní": 10818,
      "jiāzhōu": 10819,
      "yōushì": 10820,
      "liúxià": 10821,
      "sàsī": 10822,
      "shǒugè": 10823,
      "jùfēng": 10824,
      "Pro": 10825,
      "ran": 10826,
      "míngquè": 10827,
      "diànhuà": 10828,
      "man": 10829,
      "huàhéwù": 10830,
      "yòngtú": 10831,
      "yuān": 10832,
      "xīběibù": 10833,
      "gòuzào": 10834,
      "cèliáng": 10835,
      "tàizi": 10836,
      "fèichú": 10837,
      "1930": 10838,
      "dàibǔ": 10839,
      "yùshǐ": 10840,
      "1972": 10841,
      "huángjīn": 10842,
      "yīsuǒ": 10843,
      "BC": 10844,
      "dìzhì": 10845,
      "cìnián": 10846,
      "tóngméng": 10847,
      "yìfāngmiàn": 10848,
      "dàimǎ": 10849,
      "shàngshù": 10850,
      "--": 10851,
      "jūnqū": 10852,
      "dōngnánbù": 10853,
      "lìshǔ": 10854,
      "Jo": 10855,
      "fúyì": 10856,
      "hans": 10857,
      "fǎguān": 10858,
      "shǒuwèi": 10859,
      "Wind": 10860,
      "shāsǐ": 10861,
      "jiǎncè": 10862,
      "92": 10863,
      "sīmǎ": 10864,
      "dàwèi": 10865,
      "nèilù": 10866,
      "zuìjìn": 10867,
      "yánhǎi": 10868,
      "luǎn": 10869,
      "zhīfù": 10870,
      "tóuxiáng": 10871,
      "xiāngxìn": 10872,
      "shēngyīn": 10873,
      "shǒuxiān": 10874,
      "jiěsàn": 10875,
      "dàsài": 10876,
      "xīlán": 10877,
      "fēnlán": 10878,
      "bùlái": 10879,
      "1941": 10880,
      "zhēnshí": 10881,
      "yītiān": 10882,
      "guānjiàn": 10883,
      "1956": 10884,
      "hōngzhà": 10885,
      "kèlā": 10886,
      "jiāndū": 10887,
      "dōnglín": 10888,
      "1976": 10889,
      "diànqì": 10890,
      "làn": 10891,
      "dìngjū": 10892,
      "AM": 10893,
      "xīnánbù": 10894,
      "duìkàng": 10895,
      "jūnguān": 10896,
      "lùxù": 10897,
      "Te": 10898,
      "mǎlǐ": 10899,
      "yǎnyì": 10900,
      "sǎo": 10901,
      "kǎsī": 10902,
      "fángwū": 10903,
      "nǔlì": 10904,
      "Ar": 10905,
      "BS": 10906,
      "shíliù": 10907,
      "zhèngxié": 10908,
      "èrrén": 10909,
      "běndì": 10910,
      "bǎoshǒu": 10911,
      "1975": 10912,
      "nuówēi": 10913,
      "gōngyì": 10914,
      "fà": 10915,
      "nàcuì": 10916,
      "AC": 10917,
      "dàilǐng": 10918,
      "fi": 10919,
      "jīngdiǎn": 10920,
      "yóuyǒng": 10921,
      "Ne": 10922,
      "huàshí": 10923,
      "hépàn": 10924,
      "quánxiàn": 10925,
      "zìshēn": 10926,
      "bǐlìshí": 10927,
      "gǎizhì": 10928,
      "lùnwén": 10929,
      "xúnzhǎo": 10930,
      "shípǐn": 10931,
      "kōngqì": 10932,
      "mòsīkē": 10933,
      "dàfú": 10934,
      "bāěr": 10935,
      "duī": 10936,
      "běnpiàn": 10937,
      "jūnzhǔ": 10938,
      "La": 10939,
      "yídài": 10940,
      "jùběn": 10941,
      "xiānghù": 10942,
      "kèlǐsī": 10943,
      "ga": 10944,
      "dàduō": 10945,
      "zhuāngshì": 10946,
      "tūn": 10947,
      "qiāndìng": 10948,
      "qīngdǎo": 10949,
      "zīchǎn": 10950,
      "600": 10951,
      "shǒufǔ": 10952,
      "xīān": 10953,
[...]
