{
  "version": "1.0",
  "truncation": null,
  "padding": null,
  "added_tokens": [
    {
      "id": 0,
      "content": "[UNK]",
      "single_word": false,
      "lstrip": false,
      "rstrip": false,
      "normalized": false,
      "special": true
    },
    {
      "id": 1,
      "content": "[PAD]",
      "single_word": false,
      "lstrip": false,
      "rstrip": false,
      "normalized": false,
      "special": true
    },
    {
      "id": 2,
      "content": "[CLS]",
      "single_word": false,
      "lstrip": false,
      "rstrip": false,
      "normalized": false,
      "special": true
    },
    {
      "id": 3,
      "content": "[SEP]",
      "single_word": false,
      "lstrip": false,
      "rstrip": false,
      "normalized": false,
      "special": true
    }
  ],
  "normalizer": null,
  "pre_tokenizer": {
    "type": "Whitespace"
  },
  "post_processor": null,
  "decoder": null,
  "model": {
    "type": "BPE",
    "dropout": null,
    "unk_token": null,
    "continuing_subword_prefix": null,
    "end_of_word_suffix": null,
    "fuse_unk": false,
    "byte_fallback": false,
    "ignore_merges": false,
    "vocab": {
      "[UNK]": 0,
      "[PAD]": 1,
      "[CLS]": 2,
      "[SEP]": 3,
      "!": 4,
      "\"": 5,
      "#": 6,
      "$": 7,
      "%": 8,
      "&": 9,
      "'": 10,
      "(": 11,
      ")": 12,
      "*": 13,
      "+": 14,
      ",": 15,
      "-": 16,
      ".": 17,
      "/": 18,
      "0": 19,
      "1": 20,
      "2": 21,
      "3": 22,
      "4": 23,
      "5": 24,
      "6": 25,
      "7": 26,
      "8": 27,
      "9": 28,
      ":": 29,
      ";": 30,
      "=": 31,
      "?": 32,
      "@": 33,
      "A": 34,
      "B": 35,
      "C": 36,
      "D": 37,
      "E": 38,
      "F": 39,
      "G": 40,
      "H": 41,
      "I": 42,
      "J": 43,
      "K": 44,
      "L": 45,
      "M": 46,
      "N": 47,
      "O": 48,
      "P": 49,
      "Q": 50,
      "R": 51,
      "S": 52,
      "T": 53,
      "U": 54,
      "V": 55,
      "W": 56,
      "X": 57,
      "Y": 58,
      "Z": 59,
      "[": 60,
      "\\": 61,
      "]": 62,
      "^": 63,
      "_": 64,
      "`": 65,
      "a": 66,
      "b": 67,
      "c": 68,
      "d": 69,
      "e": 70,
      "f": 71,
      "g": 72,
      "h": 73,
      "i": 74,
      "j": 75,
      "k": 76,
      "l": 77,
      "m": 78,
      "n": 79,
      "o": 80,
      "p": 81,
      "q": 82,
      "r": 83,
      "s": 84,
      "t": 85,
      "u": 86,
      "v": 87,
      "w": 88,
      "x": 89,
      "y": 90,
      "z": 91,
      "|": 92,
      "~": 93,
      "": 94,
      "": 95,
      "": 96,
      "": 97,
      "": 98,
      "": 99,
      "": 100,
      "": 101,
      "": 102,
      "¡": 103,
      "¢": 104,
      "£": 105,
      "¤": 106,
      "¥": 107,
      "¦": 108,
      "§": 109,
      "¨": 110,
      "©": 111,
      "ª": 112,
      "«": 113,
      "¬": 114,
      "­": 115,
      "®": 116,
      "¯": 117,
      "°": 118,
      "±": 119,
      "²": 120,
      "³": 121,
      "´": 122,
      "µ": 123,
      "¶": 124,
      "·": 125,
      "¸": 126,
      "¹": 127,
      "º": 128,
      "»": 129,
      "¼": 130,
      "½": 131,
      "¾": 132,
      "¿": 133,
      "À": 134,
      "Á": 135,
      "Â": 136,
      "Ã": 137,
      "Ä": 138,
      "Å": 139,
      "Æ": 140,
      "Ç": 141,
      "È": 142,
      "É": 143,
      "Ê": 144,
      "Ë": 145,
      "Ì": 146,
      "Í": 147,
      "Î": 148,
      "Ï": 149,
      "Ð": 150,
      "Ñ": 151,
      "Ò": 152,
      "Ó": 153,
      "Ô": 154,
      "Õ": 155,
      "Ö": 156,
      "×": 157,
      "Ø": 158,
      "Ù": 159,
      "Ú": 160,
      "Û": 161,
      "Ü": 162,
      "Ý": 163,
      "Þ": 164,
      "ß": 165,
      "à": 166,
      "á": 167,
      "â": 168,
      "ã": 169,
      "ä": 170,
      "å": 171,
      "æ": 172,
      "ç": 173,
      "è": 174,
      "é": 175,
      "ê": 176,
      "ë": 177,
      "ì": 178,
      "í": 179,
      "î": 180,
      "ï": 181,
      "ð": 182,
      "ñ": 183,
      "ò": 184,
      "ó": 185,
      "ô": 186,
      "õ": 187,
      "ö": 188,
      "÷": 189,
      "ø": 190,
      "ù": 191,
      "ú": 192,
      "û": 193,
      "ü": 194,
      "ý": 195,
      "þ": 196,
      "ÿ": 197,
      "Ā": 198,
      "ā": 199,
      "Ă": 200,
      "ă": 201,
      "Ą": 202,
      "ą": 203,
      "Ć": 204,
      "ć": 205,
      "Ĉ": 206,
      "ĉ": 207,
      "Ċ": 208,
      "ċ": 209,
      "Č": 210,
      "č": 211,
      "Ď": 212,
      "ď": 213,
      "Đ": 214,
      "đ": 215,
      "Ē": 216,
      "ē": 217,
      "Ĕ": 218,
      "ĕ": 219,
      "Ė": 220,
      "ė": 221,
      "Ę": 222,
      "ę": 223,
      "Ě": 224,
      "ě": 225,
      "Ĝ": 226,
      "ĝ": 227,
      "Ğ": 228,
      "ğ": 229,
      "Ġ": 230,
      "ġ": 231,
      "Ģ": 232,
      "ģ": 233,
      "Ĥ": 234,
      "ĥ": 235,
      "Ħ": 236,
      "ħ": 237,
      "Ĩ": 238,
      "ĩ": 239,
      "Ī": 240,
      "ī": 241,
      "Ĭ": 242,
      "ĭ": 243,
      "Į": 244,
      "į": 245,
      "İ": 246,
      "ı": 247,
      "Ĳ": 248,
      "ĳ": 249,
      "Ĵ": 250,
      "ĵ": 251,
      "Ķ": 252,
      "ķ": 253,
      "ĸ": 254,
      "Ĺ": 255,
      "ĺ": 256,
      "Ļ": 257,
      "ļ": 258,
      "Ľ": 259,
      "ľ": 260,
      "Ŀ": 261,
      "ŀ": 262,
      "Ł": 263,
      "ł": 264,
      "Ń": 265,
      "ń": 266,
      "Ņ": 267,
      "ņ": 268,
      "Ň": 269,
      "ň": 270,
      "ŉ": 271,
      "Ŋ": 272,
      "ŋ": 273,
      "Ō": 274,
      "ō": 275,
      "Ŏ": 276,
      "ŏ": 277,
      "Ő": 278,
      "ő": 279,
      "Œ": 280,
      "œ": 281,
      "Ŕ": 282,
      "ŕ": 283,
      "Ŗ": 284,
      "ŗ": 285,
      "Ř": 286,
      "ř": 287,
      "Ś": 288,
      "ś": 289,
      "Ŝ": 290,
      "ŝ": 291,
      "Ş": 292,
      "ş": 293,
      "Š": 294,
      "š": 295,
      "Ţ": 296,
      "ţ": 297,
      "Ť": 298,
      "ť": 299,
      "Ŧ": 300,
      "ŧ": 301,
      "Ũ": 302,
      "ũ": 303,
      "Ū": 304,
      "ū": 305,
      "Ŭ": 306,
      "ŭ": 307,
      "Ů": 308,
      "ů": 309,
      "Ű": 310,
      "ű": 311,
      "Ų": 312,
      "ų": 313,
      "Ŵ": 314,
      "ŵ": 315,
      "Ŷ": 316,
      "ŷ": 317,
      "Ÿ": 318,
      "Ź": 319,
      "ź": 320,
      "Ż": 321,
      "ż": 322,
      "Ž": 323,
      "ž": 324,
      "ſ": 325,
      "ƀ": 326,
      "Ɓ": 327,
      "Ƃ": 328,
      "ƃ": 329,
      "Ƅ": 330,
      "ƅ": 331,
      "Ɔ": 332,
      "Ƈ": 333,
      "ƈ": 334,
      "Ɖ": 335,
      "Ɗ": 336,
      "Ƌ": 337,
      "ƌ": 338,
      "ƍ": 339,
      "Ǝ": 340,
      "Ə": 341,
      "Ɛ": 342,
      "Ƒ": 343,
      "ƒ": 344,
      "Ɠ": 345,
      "Ɣ": 346,
      "ƕ": 347,
      "Ɩ": 348,
      "Ɨ": 349,
      "Ƙ": 350,
      "ƙ": 351,
      "ƚ": 352,
      "ƛ": 353,
      "Ɯ": 354,
      "Ɲ": 355,
      "ƞ": 356,
      "Ɵ": 357,
      "Ơ": 358,
      "ơ": 359,
      "Ƣ": 360,
      "ƣ": 361,
      "Ƥ": 362,
      "ƥ": 363,
      "Ʀ": 364,
      "Ƨ": 365,
      "ƨ": 366,
      "Ʃ": 367,
      "ƪ": 368,
      "ƫ": 369,
      "Ƭ": 370,
      "ƭ": 371,
      "Ʈ": 372,
      "Ư": 373,
      "ư": 374,
      "Ʊ": 375,
      "Ʋ": 376,
      "Ƴ": 377,
      "ƴ": 378,
      "Ƶ": 379,
      "ƶ": 380,
      "Ʒ": 381,
      "Ƹ": 382,
      "ƹ": 383,
      "ƺ": 384,
      "ƻ": 385,
      "Ƽ": 386,
      "ƽ": 387,
      "ƾ": 388,
      "ƿ": 389,
      "ǀ": 390,
      "ǁ": 391,
      "ǂ": 392,
      "ǃ": 393,
      "Ǆ": 394,
      "ǅ": 395,
      "ǆ": 396,
      "ǈ": 397,
      "Ǌ": 398,
      "ǋ": 399,
      "ǌ": 400,
      "Ǎ": 401,
      "ǎ": 402,
      "Ǐ": 403,
      "ǐ": 404,
      "Ǒ": 405,
      "ǒ": 406,
      "Ǔ": 407,
      "ǔ": 408,
      "Ǖ": 409,
      "ǖ": 410,
      "Ǘ": 411,
      "ǘ": 412,
      "Ǚ": 413,
      "ǚ": 414,
      "Ǜ": 415,
      "ǜ": 416,
      "ǝ": 417,
      "Ǟ": 418,
      "ǟ": 419,
      "Ǡ": 420,
      "ǡ": 421,
      "Ǣ": 422,
      "ǣ": 423,
      "Ǥ": 424,
      "ǥ": 425,
      "Ǧ": 426,
      "ǧ": 427,
      "Ǩ": 428,
      "ǩ": 429,
      "Ǫ": 430,
      "ǫ": 431,
      "Ǭ": 432,
      "ǭ": 433,
      "Ǯ": 434,
      "ǯ": 435,
      "ǰ": 436,
      "ǲ": 437,
      "Ǵ": 438,
      "ǵ": 439,
      "Ƕ": 440,
      "Ƿ": 441,
      "Ǹ": 442,
      "ǹ": 443,
      "Ǻ": 444,
      "ǻ": 445,
      "Ǽ": 446,
      "ǽ": 447,
      "Ǿ": 448,
      "ǿ": 449,
      "Ȁ": 450,
      "ȁ": 451,
      "Ȃ": 452,
      "ȃ": 453,
      "Ȅ": 454,
      "ȅ": 455,
      "Ȇ": 456,
      "ȇ": 457,
      "Ȉ": 458,
      "ȉ": 459,
      "Ȋ": 460,
      "ȋ": 461,
      "Ȍ": 462,
      "ȍ": 463,
      "Ȏ": 464,
      "ȏ": 465,
      "Ȑ": 466,
      "ȑ": 467,
      "Ȓ": 468,
      "ȓ": 469,
      "Ȕ": 470,
      "ȕ": 471,
      "Ȗ": 472,
      "ȗ": 473,
      "Ș": 474,
      "ș": 475,
      "Ț": 476,
      "ț": 477,
      "Ȝ": 478,
      "ȝ": 479,
      "Ȟ": 480,
      "ȟ": 481,
      "Ƞ": 482,
      "ȡ": 483,
      "Ȣ": 484,
      "ȣ": 485,
      "Ȥ": 486,
      "ȥ": 487,
      "Ȧ": 488,
      "ȧ": 489,
      "Ȩ": 490,
      "ȩ": 491,
      "Ȫ": 492,
      "ȫ": 493,
      "Ȭ": 494,
      "ȭ": 495,
      "Ȯ": 496,
      "ȯ": 497,
      "Ȱ": 498,
      "ȱ": 499,
      "Ȳ": 500,
      "ȳ": 501,
      "ȴ": 502,
      "ȵ": 503,
      "ȶ": 504,
      "ȷ": 505,
      "ȸ": 506,
      "ȹ": 507,
      "Ⱥ": 508,
      "Ȼ": 509,
      "ȼ": 510,
      "Ƚ": 511,
      "Ⱦ": 512,
      "ȿ": 513,
      "ɀ": 514,
      "Ɂ": 515,
      "ɂ": 516,
      "Ƀ": 517,
      "Ʉ": 518,
      "Ʌ": 519,
      "Ɇ": 520,
      "ɇ": 521,
      "Ɉ": 522,
      "ɉ": 523,
      "Ɋ": 524,
      "ɋ": 525,
      "Ɍ": 526,
      "ɍ": 527,
      "Ɏ": 528,
      "ɏ": 529,
      "ɐ": 530,
      "ɑ": 531,
      "ɒ": 532,
      "ɓ": 533,
      "ɔ": 534,
      "ɕ": 535,
      "ɖ": 536,
      "ɗ": 537,
      "ɘ": 538,
      "ə": 539,
      "ɚ": 540,
      "ɛ": 541,
      "ɜ": 542,
      "ɝ": 543,
      "ɞ": 544,
      "ɟ": 545,
      "ɠ": 546,
      "ɡ": 547,
      "ɢ": 548,
      "ɣ": 549,
      "ɤ": 550,
      "ɥ": 551,
      "ɦ": 552,
      "ɧ": 553,
      "ɨ": 554,
      "ɩ": 555,
      "ɪ": 556,
      "ɫ": 557,
      "ɬ": 558,
      "ɭ": 559,
      "ɮ": 560,
      "ɯ": 561,
      "ɰ": 562,
      "ɱ": 563,
      "ɲ": 564,
      "ɳ": 565,
      "ɴ": 566,
      "ɵ": 567,
      "ɶ": 568,
      "ɷ": 569,
      "ɸ": 570,
      "ɹ": 571,
      "ɺ": 572,
      "ɻ": 573,
      "ɼ": 574,
      "ɽ": 575,
      "ɾ": 576,
      "ɿ": 577,
      "ʀ": 578,
      "ʁ": 579,
      "ʂ": 580,
      "ʃ": 581,
      "ʄ": 582,
      "ʅ": 583,
      "ʆ": 584,
      "ʇ": 585,
      "ʈ": 586,
      "ʉ": 587,
      "ʊ": 588,
      "ʋ": 589,
      "ʌ": 590,
      "ʍ": 591,
      "ʎ": 592,
      "ʏ": 593,
      "ʐ": 594,
      "ʑ": 595,
      "ʒ": 596,
      "ʓ": 597,
      "ʔ": 598,
      "ʕ": 599,
      "ʖ": 600,
      "ʗ": 601,
      "ʘ": 602,
      "ʙ": 603,
      "ʚ": 604,
      "ʛ": 605,
      "ʜ": 606,
      "ʝ": 607,
      "ʞ": 608,
      "ʟ": 609,
      "ʠ": 610,
      "ʡ": 611,
      "ʢ": 612,
      "ʣ": 613,
      "ʤ": 614,
      "ʥ": 615,
      "ʦ": 616,
      "ʧ": 617,
      "ʨ": 618,
      "ʩ": 619,
      "ʪ": 620,
      "ʫ": 621,
      "ʮ": 622,
      "ʯ": 623,
      "ʰ": 624,
      "ʱ": 625,
      "ʲ": 626,
      "ʶ": 627,
      "ʷ": 628,
      "ʸ": 629,
      "ʹ": 630,
      "ʺ": 631,
      "ʻ": 632,
      "ʼ": 633,
      "ʽ": 634,
      "ʾ": 635,
      "ʿ": 636,
      "ˀ": 637,
      "ˁ": 638,
      "ˆ": 639,
      "ˇ": 640,
      "ˈ": 641,
      "ˉ": 642,
      "ˊ": 643,
      "ˋ": 644,
      "ˌ": 645,
      "ˍ": 646,
      "ˎ": 647,
      "ˏ": 648,
      "ː": 649,
      "ˑ": 650,
      "˔": 651,
      "˘": 652,
      "˙": 653,
      "˚": 654,
      "˜": 655,
      "˝": 656,
      "˞": 657,
      "ˠ": 658,
      "ˡ": 659,
      "ˢ": 660,
      "ˤ": 661,
      "˥": 662,
      "˦": 663,
      "˧": 664,
      "˨": 665,
      "˩": 666,
      "˪": 667,
      "˫": 668,
      "˭": 669,
      "̀": 670,
      "́": 671,
      "̂": 672,
      "̃": 673,
      "̄": 674,
      "̅": 675,
      "̆": 676,
      "̇": 677,
      "̈": 678,
      "̊": 679,
      "̋": 680,
      "̌": 681,
      "̍": 682,
      "̐": 683,
      "̑": 684,
      "̓": 685,
      "̕": 686,
      "̚": 687,
      "̜": 688,
      "̝": 689,
      "̞": 690,
      "̟": 691,
      "̠": 692,
      "̡": 693,
      "̢": 694,
      "̣": 695,
      "̤": 696,
      "̥": 697,
      "̧": 698,
      "̨": 699,
      "̩": 700,
      "̪": 701,
      "̬": 702,
      "̮": 703,
      "̯": 704,
      "̰": 705,
      "̱": 706,
      "̲": 707,
      "̴": 708,
      "̵": 709,
      "̶": 710,
      "̷": 711,
      "̺": 712,
      "̻": 713,
      "̼": 714,
      "̽": 715,
      "͂": 716,
      "͇": 717,
      "͈": 718,
      "͗": 719,
      "͘": 720,
      "͟": 721,
      "͠": 722,
      "͡": 723,
      "Ͱ": 724,
      "ͱ": 725,
      "Ͳ": 726,
      "ͳ": 727,
      "͵": 728,
      "Ͷ": 729,
      "ͷ": 730,
      "΄": 731,
      "Ά": 732,
      "Έ": 733,
      "Ή": 734,
      "Ί": 735,
      "Ό": 736,
      "Ύ": 737,
      "ΐ": 738,
      "Α": 739,
      "Β": 740,
      "Γ": 741,
      "Δ": 742,
      "Ε": 743,
      "Ζ": 744,
      "Η": 745,
      "Θ": 746,
      "Ι": 747,
      "Κ": 748,
      "Λ": 749,
      "Μ": 750,
      "Ν": 751,
      "Ξ": 752,
      "Ο": 753,
      "Π": 754,
      "Ρ": 755,
      "Σ": 756,
      "Τ": 757,
      "Υ": 758,
      "Φ": 759,
      "Χ": 760,
      "Ψ": 761,
      "Ω": 762,
      "Ϊ": 763,
      "ά": 764,
      "έ": 765,
      "ή": 766,
      "ί": 767,
      "ΰ": 768,
      "α": 769,
      "β": 770,
      "γ": 771,
      "δ": 772,
      "ε": 773,
      "ζ": 774,
      "η": 775,
      "θ": 776,
      "ι": 777,
      "κ": 778,
      "λ": 779,
      "μ": 780,
      "ν": 781,
      "ξ": 782,
      "ο": 783,
      "π": 784,
      "ρ": 785,
      "ς": 786,
      "σ": 787,
      "τ": 788,
      "υ": 789,
      "φ": 790,
      "χ": 791,
      "ψ": 792,
      "ω": 793,
      "ϊ": 794,
      "ϋ": 795,
      "ό": 796,
      "ύ": 797,
      "ώ": 798,
      "ϐ": 799,
      "ϑ": 800,
      "ϒ": 801,
      "ϕ": 802,
      "ϖ": 803,
      "Ϙ": 804,
      "ϙ": 805,
      "Ϛ": 806,
      "ϛ": 807,
      "Ϝ": 808,
      "ϝ": 809,
      "Ϟ": 810,
      "ϟ": 811,
      "Ϡ": 812,
      "ϡ": 813,
      "Ϣ": 814,
      "ϣ": 815,
      "Ϧ": 816,
      "ϩ": 817,
      "ϫ": 818,
      "ϯ": 819,
      "ϰ": 820,
      "ϵ": 821,
      "Ϸ": 822,
      "ϸ": 823,
      "Ϲ": 824,
      "Ϻ": 825,
      "Ѐ": 826,
      "Ё": 827,
      "Ђ": 828,
      "Є": 829,
      "Ѕ": 830,
      "І": 831,
      "Ї": 832,
      "Ј": 833,
      "Љ": 834,
      "Њ": 835,
      "Ћ": 836,
      "Ќ": 837,
      "Ў": 838,
      "Џ": 839,
      "А": 840,
      "Б": 841,
      "В": 842,
      "Г": 843,
      "Д": 844,
      "Е": 845,
      "Ж": 846,
      "З": 847,
      "И": 848,
      "Й": 849,
      "К": 850,
      "Л": 851,
      "М": 852,
      "Н": 853,
      "О": 854,
      "П": 855,
      "Р": 856,
      "С": 857,
      "Т": 858,
      "У": 859,
      "Ф": 860,
      "Х": 861,
      "Ц": 862,
      "Ч": 863,
      "Ш": 864,
      "Щ": 865,
      "Ъ": 866,
      "Ы": 867,
      "Ь": 868,
      "Э": 869,
      "Ю": 870,
      "Я": 871,
      "а": 872,
      "б": 873,
      "в": 874,
      "г": 875,
      "д": 876,
      "е": 877,
      "ж": 878,
      "з": 879,
      "и": 880,
      "й": 881,
      "к": 882,
      "л": 883,
      "м": 884,
      "н": 885,
      "о": 886,
      "п": 887,
      "р": 888,
      "с": 889,
      "т": 890,
      "у": 891,
      "ф": 892,
      "х": 893,
      "ц": 894,
      "ч": 895,
      "ш": 896,
      "щ": 897,
      "ъ": 898,
      "ы": 899,
      "ь": 900,
      "э": 901,
      "ю": 902,
      "я": 903,
      "ѐ": 904,
      "ё": 905,
      "ђ": 906,
      "ѓ": 907,
      "є": 908,
      "ѕ": 909,
      "і": 910,
      "ї": 911,
      "ј": 912,
      "љ": 913,
      "њ": 914,
      "ћ": 915,
      "ќ": 916,
      "ў": 917,
      "џ": 918,
      "Ѡ": 919,
      "ѡ": 920,
      "Ѣ": 921,
      "ѣ": 922,
      "Ѧ": 923,
      "ѧ": 924,
      "ѩ": 925,
      "Ѫ": 926,
      "ѫ": 927,
      "Ѯ": 928,
      "ѯ": 929,
      "Ѱ": 930,
      "Ѳ": 931,
      "ѳ": 932,
      "Ѵ": 933,
      "ѵ": 934,
      "Ѷ": 935,
      "ѷ": 936,
      "Ѹ": 937,
      "ѹ": 938,
      "Ѻ": 939,
      "ѻ": 940,
      "Ѽ": 941,
      "ѽ": 942,
      "Ѿ": 943,
      "ѿ": 944,
      "Ҁ": 945,
      "ҁ": 946,
      "҅": 947,
      "҉": 948,
      "Ҋ": 949,
      "ҋ": 950,
      "Ҍ": 951,
      "ҍ": 952,
      "Ҏ": 953,
      "ҏ": 954,
      "Ґ": 955,
      "Ғ": 956,
      "ғ": 957,
      "Ҕ": 958,
      "ҕ": 959,
      "Җ": 960,
      "җ": 961,
      "Ҙ": 962,
      "ҙ": 963,
      "Қ": 964,
      "қ": 965,
      "Ҝ": 966,
      "ҝ": 967,
      "Ҟ": 968,
      "ҟ": 969,
      "Ҡ": 970,
      "ҡ": 971,
      "Ң": 972,
      "ң": 973,
      "Ҥ": 974,
      "ҥ": 975,
      "Ҧ": 976,
      "ҧ": 977,
      "Ҫ": 978,
      "ҫ": 979,
      "Ҭ": 980,
      "ҭ": 981,
      "Ү": 982,
      "ү": 983,
      "Ұ": 984,
      "ұ": 985,
      "Ҳ": 986,
      "ҳ": 987,
      "Ҵ": 988,
      "ҵ": 989,
      "Ҷ": 990,
      "ҷ": 991,
      "Ҹ": 992,
      "ҹ": 993,
      "Һ": 994,
      "һ": 995,
      "Ҽ": 996,
      "ҽ": 997,
      "Ҿ": 998,
      "ҿ": 999,
      "Ӏ": 1000,
      "Ӂ": 1001,
      "ӂ": 1002,
      "Ӄ": 1003,
      "ӄ": 1004,
      "Ӆ": 1005,
      "ӆ": 1006,
      "Ӈ": 1007,
      "ӈ": 1008,
      "Ӊ": 1009,
      "ӊ": 1010,
      "Ӎ": 1011,
      "ӏ": 1012,
      "Ӑ": 1013,
      "ӑ": 1014,
      "Ӓ": 1015,
      "ӓ": 1016,
      "Ӕ": 1017,
      "ӕ": 1018,
      "Ӗ": 1019,
      "ӗ": 1020,
      "Ә": 1021,
      "ә": 1022,
      "Ӛ": 1023,
      "ӛ": 1024,
      "Ӝ": 1025,
      "ӝ": 1026,
      "Ӟ": 1027,
      "ӟ": 1028,
      "Ӡ": 1029,
      "ӡ": 1030,
      "Ӣ": 1031,
      "ӣ": 1032,
      "Ӥ": 1033,
      "ӥ": 1034,
      "Ӧ": 1035,
      "ӧ": 1036,
      "Ө": 1037,
      "ө": 1038,
      "Ӫ": 1039,
      "ӫ": 1040,
      "Ӭ": 1041,
      "ӭ": 1042,
      "Ӯ": 1043,
      "ӯ": 1044,
      "Ӱ": 1045,
      "ӱ": 1046,
      "Ӳ": 1047,
      "ӳ": 1048,
      "Ӵ": 1049,
      "ӵ": 1050,
      "Ӷ": 1051,
      "ӷ": 1052,
      "Ӹ": 1053,
      "ӹ": 1054,
      "Ӻ": 1055,
      "ӻ": 1056,
      "Ӽ": 1057,
      "ӽ": 1058,
      "Ӿ": 1059,
      "ӿ": 1060,
      "Ԁ": 1061,
      "ԁ": 1062,
      "Ԃ": 1063,
      "ԃ": 1064,
      "Ԅ": 1065,
      "ԅ": 1066,
      "Ԇ": 1067,
      "ԇ": 1068,
      "Ԉ": 1069,
      "ԉ": 1070,
      "Ԋ": 1071,
      "ԋ": 1072,
      "Ԍ": 1073,
      "ԍ": 1074,
      "Ԏ": 1075,
      "ԏ": 1076,
      "Ԑ": 1077,
      "ԑ": 1078,
      "Ԓ": 1079,
      "ԓ": 1080,
      "Ԕ": 1081,
      "ԕ": 1082,
      "Ԗ": 1083,
      "ԗ": 1084,
      "Ԛ": 1085,
      "ԛ": 1086,
      "Ԝ": 1087,
      "ԝ": 1088,
      "Ԟ": 1089,
      "ԟ": 1090,
      "Ԡ": 1091,
      "ԡ": 1092,
      "Ԣ": 1093,
      "ԣ": 1094,
      "Ԥ": 1095,
      "ԥ": 1096,
      "Ԩ": 1097,
      "ԩ": 1098,
      "Ԫ": 1099,
      "ԫ": 1100,
      "Ԭ": 1101,
      "ԭ": 1102,
      "Ԯ": 1103,
      "ԯ": 1104,
      "Ա": 1105,
      "Բ": 1106,
      "Գ": 1107,
      "Դ": 1108,
      "Ե": 1109,
      "Զ": 1110,
      "Է": 1111,
      "Թ": 1112,
      "Ժ": 1113,
      "Լ": 1114,
      "Խ": 1115,
      "Ծ": 1116,
      "Կ": 1117,
      "Հ": 1118,
      "Ղ": 1119,
      "Մ": 1120,
      "Յ": 1121,
      "Ն": 1122,
      "Շ": 1123,
      "Ո": 1124,
      "Պ": 1125,
      "Ջ": 1126,
      "Ռ": 1127,
      "Ս": 1128,
      "Վ": 1129,
      "Տ": 1130,
      "Ւ": 1131,
      "Ք": 1132,
      "Օ": 1133,
      "Ֆ": 1134,
      "՛": 1135,
      "ա": 1136,
      "բ": 1137,
      "գ": 1138,
      "դ": 1139,
      "ե": 1140,
      "զ": 1141,
      "է": 1142,
      "ը": 1143,
      "թ": 1144,
      "ժ": 1145,
      "ի": 1146,
      "լ": 1147,
      "խ": 1148,
      "ծ": 1149,
      "կ": 1150,
      "հ": 1151,
      "ձ": 1152,
      "ղ": 1153,
      "մ": 1154,
      "յ": 1155,
      "ն": 1156,
      "շ": 1157,
      "ո": 1158,
      "չ": 1159,
      "պ": 1160,
      "ջ": 1161,
      "ռ": 1162,
      "ս": 1163,
      "վ": 1164,
      "տ": 1165,
      "ր": 1166,
      "ց": 1167,
      "ւ": 1168,
      "ք": 1169,
      "օ": 1170,
      "ֆ": 1171,
      "և": 1172,
      "֏": 1173,
      "֑": 1174,
      "֗": 1175,
      "֜": 1176,
      "֣": 1177,
      "֥": 1178,
      "֪": 1179,
      "֫": 1180,
      "ְ": 1181,
      "ֱ": 1182,
      "ֲ": 1183,
      "ֳ": 1184,
      "ִ": 1185,
      "ֵ": 1186,
      "ֶ": 1187,
      "ַ": 1188,
      "ָ": 1189,
      "ֹ": 1190,
      "ֻ": 1191,
      "ּ": 1192,
      "־": 1193,
      "ֿ": 1194,
      "׀": 1195,
      "ׁ": 1196,
      "ׂ": 1197,
      "א": 1198,
      "ב": 1199,
      "ג": 1200,
      "ד": 1201,
      "ה": 1202,
      "ו": 1203,
      "ז": 1204,
      "ח": 1205,
      "ט": 1206,
      "י": 1207,
      "ך": 1208,
      "כ": 1209,
      "ל": 1210,
      "ם": 1211,
      "מ": 1212,
      "ן": 1213,
      "נ": 1214,
      "ס": 1215,
      "ע": 1216,
      "ף": 1217,
      "פ": 1218,
      "ץ": 1219,
      "צ": 1220,
      "ק": 1221,
      "ר": 1222,
      "ש": 1223,
      "ת": 1224,
      "װ": 1225,
      "ױ": 1226,
      "ײ": 1227,
      "׳": 1228,
      "״": 1229,
      "،": 1230,
      "؟": 1231,
      "ء": 1232,
      "آ": 1233,
      "أ": 1234,
      "ؤ": 1235,
      "إ": 1236,
      "ئ": 1237,
      "ا": 1238,
      "ب": 1239,
      "ة": 1240,
      "ت": 1241,
      "ث": 1242,
      "ج": 1243,
      "ح": 1244,
      "خ": 1245,
      "د": 1246,
      "ذ": 1247,
      "ر": 1248,
      "ز": 1249,
      "س": 1250,
      "ش": 1251,
      "ص": 1252,
      "ض": 1253,
      "ط": 1254,
      "ظ": 1255,
      "ع": 1256,
      "غ": 1257,
      "ؾ": 1258,
      "ـ": 1259,
      "ف": 1260,
      "ق": 1261,
      "ك": 1262,
      "ل": 1263,
      "م": 1264,
      "ن": 1265,
      "ه": 1266,
      "و": 1267,
      "ى": 1268,
      "ي": 1269,
      "ً": 1270,
      "ٌ": 1271,
      "ٍ": 1272,
      "َ": 1273,
      "ُ": 1274,
      "ِ": 1275,
      "ّ": 1276,
      "ْ": 1277,
      "ٔ": 1278,
      "٘": 1279,
      "٠": 1280,
      "١": 1281,
      "٨": 1282,
      "٩": 1283,
      "٫": 1284,
      "ٰ": 1285,
      "ٱ": 1286,
      "ٹ": 1287,
      "ٺ": 1288,
      "ټ": 1289,
      "ٽ": 1290,
      "پ": 1291,
      "ڄ": 1292,
      "چ": 1293,
      "ڈ": 1294,
      "ڊ": 1295,
      "ڌ": 1296,
      "ڏ": 1297,
      "ڑ": 1298,
      "ړ": 1299,
      "ڕ": 1300,
      "ږ": 1301,
      "ژ": 1302,
      "ڙ": 1303,
      "ڜ": 1304,
      "ڠ": 1305,
      "ڢ": 1306,
      "ڤ": 1307,
      "ک": 1308,
      "ڪ": 1309,
      "ګ": 1310,
      "ڬ": 1311,
      "ڭ": 1312,
      "گ": 1313,
      "ڴ": 1314,
      "ڵ": 1315,
      "ڸ": 1316,
      "ں": 1317,
      "ڻ": 1318,
      "ھ": 1319,
      "ہ": 1320,
      "ۂ": 1321,
      "ۆ": 1322,
      "ۇ": 1323,
      "ۈ": 1324,
      "ۉ": 1325,
      "ۋ": 1326,
      "ی": 1327,
      "ێ": 1328,
      "ې": 1329,
      "ە": 1330,
      "۝": 1331,
      "۩": 1332,
      "۰": 1333,
      "۱": 1334,
      "۲": 1335,
      "۳": 1336,
      "۴": 1337,
      "۵": 1338,
      "۶": 1339,
      "۷": 1340,
      "۸": 1341,
      "۹": 1342,
      "ܐ": 1343,
      "ܒ": 1344,
      "ܓ": 1345,
      "ܕ": 1346,
      "ܗ": 1347,
      "ܘ": 1348,
      "ܙ": 1349,
      "ܚ": 1350,
      "ܛ": 1351,
      "ܝ": 1352,
      "ܟ": 1353,
      "ܠ": 1354,
      "ܡ": 1355,
      "ܢ": 1356,
      "ܣ": 1357,
      "ܥ": 1358,
      "ܦ": 1359,
      "ܨ": 1360,
      "ܩ": 1361,
      "ܪ": 1362,
      "ܫ": 1363,
      "ܬ": 1364,
      "ܲ": 1365,
      "ܳ": 1366,
      "ܵ": 1367,
      "ܸ": 1368,
      "ܼ": 1369,
      "ܽ": 1370,
      "݂": 1371,
      "ݢ": 1372,
      "ݣ": 1373,
      "ހ": 1374,
      "ނ": 1375,
      "ރ": 1376,
      "ކ": 1377,
      "އ": 1378,
      "މ": 1379,
      "ދ": 1380,
      "ތ": 1381,
      "ލ": 1382,
      "ގ": 1383,
      "ޏ": 1384,
      "ސ": 1385,
      "ޑ": 1386,
      "ޔ": 1387,
      "ޖ": 1388,
      "ޝ": 1389,
      "ަ": 1390,
      "ާ": 1391,
      "ި": 1392,
      "ީ": 1393,
      "ު": 1394,
      "ޫ": 1395,
      "ެ": 1396,
      "ޭ": 1397,
      "ް": 1398,
      "ޱ": 1399,
      "ߊ": 1400,
      "ߋ": 1401,
      "ߌ": 1402,
      "ߍ": 1403,
      "ߎ": 1404,
      "ߏ": 1405,
      "ߓ": 1406,
      "ߕ": 1407,
      "ߖ": 1408,
      "ߘ": 1409,
      "ߙ": 1410,
      "ߜ": 1411,
      "ߝ": 1412,
      "ߞ": 1413,
      "ߟ": 1414,
      "ߡ": 1415,
      "ߣ": 1416,
      "ߦ": 1417,
      "߫": 1418,
      "߬": 1419,
      "߲": 1420,
      "ࡀ": 1421,
      "ࡁ": 1422,
      "ࡄ": 1423,
      "ࡅ": 1424,
      "ࡉ": 1425,
      "ࡌ": 1426,
      "ࡍ": 1427,
      "ࡑ": 1428,
      "ँ": 1429,
      "ं": 1430,
      "ः": 1431,
      "अ": 1432,
      "आ": 1433,
      "इ": 1434,
      "ई": 1435,
      "उ": 1436,
      "ऊ": 1437,
      "ऋ": 1438,
      "ए": 1439,
      "ऐ": 1440,
      "ऑ": 1441,
      "ओ": 1442,
      "औ": 1443,
      "क": 1444,
      "ख": 1445,
      "ग": 1446,
      "घ": 1447,
      "ङ": 1448,
      "च": 1449,
      "छ": 1450,
      "ज": 1451,
      "झ": 1452,
      "ञ": 1453,
      "ट": 1454,
      "ठ": 1455,
      "ड": 1456,
      "ढ": 1457,
      "ण": 1458,
      "त": 1459,
      "थ": 1460,
      "द": 1461,
      "ध": 1462,
      "न": 1463,
      "प": 1464,
      "फ": 1465,
      "ब": 1466,
      "भ": 1467,
      "म": 1468,
      "य": 1469,
      "र": 1470,
      "ल": 1471,
      "ळ": 1472,
      "व": 1473,
      "श": 1474,
      "ष": 1475,
      "स": 1476,
      "ह": 1477,
      "़": 1478,
      "ऽ": 1479,
      "ा": 1480,
      "ि": 1481,
      "ी": 1482,
      "ु": 1483,
      "ू": 1484,
      "ृ": 1485,
      "े": 1486,
      "ै": 1487,
      "ॉ": 1488,
      "ो": 1489,
      "ौ": 1490,
      "्": 1491,
      "ॐ": 1492,
      "॒": 1493,
      "ॡ": 1494,
      "।": 1495,
      "॥": 1496,
      "०": 1497,
      "५": 1498,
      "९": 1499,
      "॰": 1500,
      "ঁ": 1501,
      "ং": 1502,
      "ঃ": 1503,
      "অ": 1504,
      "আ": 1505,
      "ই": 1506,
      "উ": 1507,
      "ঊ": 1508,
      "এ": 1509,
      "ও": 1510,
      "ক": 1511,
      "খ": 1512,
      "গ": 1513,
      "ঘ": 1514,
      "ঙ": 1515,
      "চ": 1516,
      "ছ": 1517,
      "জ": 1518,
      "ঝ": 1519,
      "ঞ": 1520,
      "ট": 1521,
      "ঠ": 1522,
      "ড": 1523,
      "ণ": 1524,
      "ত": 1525,
      "থ": 1526,
      "দ": 1527,
      "ধ": 1528,
      "ন": 1529,
      "প": 1530,
      "ফ": 1531,
      "ব": 1532,
      "ভ": 1533,
      "ম": 1534,
      "য": 1535,
      "র": 1536,
      "ল": 1537,
      "শ": 1538,
      "ষ": 1539,
      "স": 1540,
      "হ": 1541,
      "়": 1542,
      "া": 1543,
      "ি": 1544,
      "ী": 1545,
      "ু": 1546,
      "ূ": 1547,
      "ৃ": 1548,
      "ে": 1549,
      "ৈ": 1550,
      "ো": 1551,
      "ৌ": 1552,
      "্": 1553,
      "ৎ": 1554,
      "১": 1555,
      "২": 1556,
      "৩": 1557,
      "৪": 1558,
      "৫": 1559,
      "৬": 1560,
      "৭": 1561,
      "ৰ": 1562,
      "ৱ": 1563,
      "৲": 1564,
      "৳": 1565,
      "৷": 1566,
      "৹": 1567,
      "ਂ": 1568,
      "ਃ": 1569,
      "ਅ": 1570,
      "ਆ": 1571,
      "ਊ": 1572,
      "ਓ": 1573,
      "ਕ": 1574,
      "ਖ": 1575,
      "ਗ": 1576,
      "ਘ": 1577,
      "ਜ": 1578,
      "ਝ": 1579,
      "ਟ": 1580,
      "ਣ": 1581,
      "ਤ": 1582,
      "ਥ": 1583,
      "ਦ": 1584,
      "ਧ": 1585,
      "ਨ": 1586,
      "ਪ": 1587,
      "ਬ": 1588,
      "ਭ": 1589,
      "ਮ": 1590,
      "ਰ": 1591,
      "ਲ": 1592,
      "ਵ": 1593,
      "ਸ": 1594,
      "ਹ": 1595,
      "਼": 1596,
      "ਾ": 1597,
      "ਿ": 1598,
      "ੀ": 1599,
      "ੁ": 1600,
      "ੂ": 1601,
      "ੇ": 1602,
      "ੋ": 1603,
      "੍": 1604,
      "ੜ": 1605,
      "ੰ": 1606,
      "ੱ": 1607,
      "ੲ": 1608,
      "ੳ": 1609,
      "ੴ": 1610,
      "ઁ": 1611,
      "અ": 1612,
      "ગ": 1613,
      "જ": 1614,
      "ટ": 1615,
      "ડ": 1616,
      "ણ": 1617,
      "ત": 1618,
      "દ": 1619,
      "ન": 1620,
      "મ": 1621,
      "ય": 1622,
      "ર": 1623,
      "લ": 1624,
      "વ": 1625,
      "સ": 1626,
      "હ": 1627,
      "ા": 1628,
      "િ": 1629,
      "ી": 1630,
      "ુ": 1631,
      "ૂ": 1632,
      "ૃ": 1633,
      "ે": 1634,
      "ો": 1635,
      "્": 1636,
      "૱": 1637,
      "ଁ": 1638,
      "ଂ": 1639,
      "କ": 1640,
      "ଗ": 1641,
      "ଙ": 1642,
      "ଡ": 1643,
      "ନ": 1644,
      "ବ": 1645,
      "ମ": 1646,
      "ର": 1647,
      "ଲ": 1648,
      "ଵ": 1649,
      "ଶ": 1650,
      "ସ": 1651,
      "଼": 1652,
      "ା": 1653,
      "ି": 1654,
      "ୁ": 1655,
      "େ": 1656,
      "୍": 1657,
      "୨": 1658,
      "ஃ": 1659,
      "அ": 1660,
      "ஆ": 1661,
      "இ": 1662,
      "ஈ": 1663,
      "உ": 1664,
      "எ": 1665,
      "ஏ": 1666,
      "ஐ": 1667,
      "ஒ": 1668,
      "க": 1669,
      "ங": 1670,
      "ச": 1671,
      "ஜ": 1672,
      "ஞ": 1673,
      "ட": 1674,
      "ண": 1675,
      "த": 1676,
      "ந": 1677,
      "ன": 1678,
      "ப": 1679,
      "ம": 1680,
      "ய": 1681,
      "ர": 1682,
      "ற": 1683,
      "ல": 1684,
      "ள": 1685,
      "ழ": 1686,
      "வ": 1687,
      "ஸ": 1688,
      "ா": 1689,
      "ி": 1690,
      "ீ": 1691,
      "ு": 1692,
      "ூ": 1693,
      "ெ": 1694,
      "ே": 1695,
      "ை": 1696,
      "ொ": 1697,
      "ோ": 1698,
      "்": 1699,
      "ఁ": 1700,
      "ం": 1701,
      "ః": 1702,
      "ఆ": 1703,
      "ఇ": 1704,
      "ఐ": 1705,
      "ఔ": 1706,
      "క": 1707,
      "ఖ": 1708,
      "గ": 1709,
      "జ": 1710,
      "ట": 1711,
      "డ": 1712,
      "ణ": 1713,
      "త": 1714,
      "ద": 1715,
      "ధ": 1716,
      "న": 1717,
      "ప": 1718,
      "బ": 1719,
      "భ": 1720,
      "మ": 1721,
      "య": 1722,
      "ర": 1723,
      "ల": 1724,
      "వ": 1725,
      "శ": 1726,
      "స": 1727,
      "హ": 1728,
      "ా": 1729,
      "ి": 1730,
      "ీ": 1731,
      "ు": 1732,
      "ూ": 1733,
      "ృ": 1734,
      "ౄ": 1735,
      "ె": 1736,
      "ే": 1737,
      "ై": 1738,
      "ొ": 1739,
      "ో": 1740,
      "ౌ": 1741,
      "్": 1742,
      "ಂ": 1743,
      "ಇ": 1744,
      "ಕ": 1745,
      "ಖ": 1746,
      "ಗ": 1747,
      "ಘ": 1748,
      "ಙ": 1749,
      "ಚ": 1750,
      "ಛ": 1751,
      "ಜ": 1752,
      "ಝ": 1753,
      "ಞ": 1754,
      "ಟ": 1755,
      "ಠ": 1756,
      "ಡ": 1757,
      "ಢ": 1758,
      "ಣ": 1759,
      "ತ": 1760,
      "ಥ": 1761,
      "ದ": 1762,
      "ಧ": 1763,
      "ನ": 1764,
      "ಪ": 1765,
      "ಫ": 1766,
      "ಬ": 1767,
      "ಭ": 1768,
      "ಮ": 1769,
      "ಯ": 1770,
      "ರ": 1771,
      "ಲ": 1772,
      "ಳ": 1773,
      "ವ": 1774,
      "ಶ": 1775,
      "ಷ": 1776,
      "ಸ": 1777,
      "ಹ": 1778,
      "ಾ": 1779,
      "ಿ": 1780,
      "ೀ": 1781,
      "ು": 1782,
      "ೂ": 1783,
      "ೆ": 1784,
      "ೇ": 1785,
      "ೊ": 1786,
      "ೋ": 1787,
      "್": 1788,
      "೦": 1789,
      "೧": 1790,
      "೨": 1791,
      "೩": 1792,
      "೪": 1793,
      "೫": 1794,
      "೬": 1795,
      "೭": 1796,
      "೮": 1797,
      "೯": 1798,
      "ം": 1799,
      "അ": 1800,
      "ഇ": 1801,
      "എ": 1802,
      "ക": 1803,
      "ഗ": 1804,
      "ങ": 1805,
      "ച": 1806,
      "ട": 1807,
      "ഡ": 1808,
      "ണ": 1809,
      "ത": 1810,
      "ന": 1811,
      "പ": 1812,
      "ബ": 1813,
      "മ": 1814,
      "യ": 1815,
      "ര": 1816,
      "റ": 1817,
      "ല": 1818,
      "ള": 1819,
      "വ": 1820,
      "ഹ": 1821,
      "ാ": 1822,
      "ി": 1823,
      "ു": 1824,
      "െ": 1825,
      "േ": 1826,
      "ോ": 1827,
      "്": 1828,
      "ൻ": 1829,
      "ർ": 1830,
      "ං": 1831,
      "අ": 1832,
      "ඇ": 1833,
      "ඉ": 1834,
      "එ": 1835,
      "ඔ": 1836,
      "ක": 1837,
      "ග": 1838,
      "ච": 1839,
      "ජ": 1840,
      "ට": 1841,
      "ඩ": 1842,
      "ත": 1843,
      "ථ": 1844,
      "ද": 1845,
      "ධ": 1846,
      "න": 1847,
      "ප": 1848,
      "බ": 1849,
      "ම": 1850,
      "ය": 1851,
      "ර": 1852,
      "ල": 1853,
      "ව": 1854,
      "ශ": 1855,
      "ෂ": 1856,
      "ස": 1857,
      "හ": 1858,
      "්": 1859,
      "ා": 1860,
      "ි": 1861,
      "ී": 1862,
      "ු": 1863,
      "ෙ": 1864,
      "ේ": 1865,
      "ො": 1866,
      "ෝ": 1867,
      "ก": 1868,
      "ข": 1869,
      "ค": 1870,
      "ฅ": 1871,
      "ฆ": 1872,
      "ง": 1873,
      "จ": 1874,
      "ฉ": 1875,
      "ช": 1876,
      "ซ": 1877,
      "ฌ": 1878,
      "ญ": 1879,
      "ฎ": 1880,
      "ฏ": 1881,
      "ฐ": 1882,
      "ฑ": 1883,
      "ฒ": 1884,
      "ณ": 1885,
      "ด": 1886,
      "ต": 1887,
      "ถ": 1888,
      "ท": 1889,
      "ธ": 1890,
      "น": 1891,
      "บ": 1892,
      "ป": 1893,
      "ผ": 1894,
      "ฝ": 1895,
      "พ": 1896,
      "ฟ": 1897,
      "ภ": 1898,
      "ม": 1899,
      "ย": 1900,
      "ร": 1901,
      "ฤ": 1902,
      "ล": 1903,
      "ฦ": 1904,
      "ว": 1905,
      "ศ": 1906,
      "ษ": 1907,
      "ส": 1908,
      "ห": 1909,
      "ฬ": 1910,
      "อ": 1911,
      "ฮ": 1912,
      "ฯ": 1913,
      "ะ": 1914,
      "ั": 1915,
      "า": 1916,
      "ำ": 1917,
      "ิ": 1918,
      "ี": 1919,
      "ึ": 1920,
      "ื": 1921,
      "ุ": 1922,
      "ู": 1923,
      "ฺ": 1924,
      "฿": 1925,
      "เ": 1926,
      "แ": 1927,
      "โ": 1928,
      "ใ": 1929,
      "ไ": 1930,
      "ๅ": 1931,
      "ๆ": 1932,
      "็": 1933,
      "่": 1934,
      "้": 1935,
      "๊": 1936,
      "๋": 1937,
      "์": 1938,
      "ํ": 1939,
      "๑": 1940,
      "๓": 1941,
      "๕": 1942,
      "๘": 1943,
      "๚": 1944,
      "ກ": 1945,
      "ຂ": 1946,
      "ຄ": 1947,
      "ງ": 1948,
      "ຈ": 1949,
      "ຊ": 1950,
      "ຍ": 1951,
      "ດ": 1952,
      "ຕ": 1953,
      "ຖ": 1954,
      "ທ": 1955,
      "ນ": 1956,
      "ບ": 1957,
      "ປ": 1958,
      "ຜ": 1959,
      "ພ": 1960,
      "ຟ": 1961,
      "ມ": 1962,
      "ຢ": 1963,
      "ຣ": 1964,
      "ລ": 1965,
      "ວ": 1966,
      "ສ": 1967,
      "ຫ": 1968,
      "ອ": 1969,
      "ຮ": 1970,
      "ະ": 1971,
      "ັ": 1972,
      "າ": 1973,
      "ຳ": 1974,
      "ິ": 1975,
      "ີ": 1976,
      "ື": 1977,
      "ຸ": 1978,
      "ູ": 1979,
      "ົ": 1980,
      "ຼ": 1981,
      "ຽ": 1982,
      "ເ": 1983,
      "ແ": 1984,
      "ໂ": 1985,
      "ໃ": 1986,
      "ໄ": 1987,
      "່": 1988,
      "້": 1989,
      "ໍ": 1990,
      "ໜ": 1991,
      "ༀ": 1992,
      "་": 1993,
      "།": 1994,
      "༔": 1995,
      "༼": 1996,
      "༽": 1997,
      "ཀ": 1998,
      "ཁ": 1999,
      "ག": 2000,
      "ང": 2001,
      "ཅ": 2002,
      "ཆ": 2003,
      "ཇ": 2004,
      "ཉ": 2005,
      "ཊ": 2006,
      "ཏ": 2007,
      "ཐ": 2008,
      "ད": 2009,
      "ན": 2010,
      "པ": 2011,
      "ཕ": 2012,
      "བ": 2013,
      "མ": 2014,
      "ཙ": 2015,
      "ཚ": 2016,
      "ཛ": 2017,
      "ཝ": 2018,
      "ཞ": 2019,
      "ཟ": 2020,
      "འ": 2021,
      "ཡ": 2022,
      "ར": 2023,
      "ལ": 2024,
      "ཤ": 2025,
      "ས": 2026,
      "ཧ": 2027,
      "ཨ": 2028,
      "ཱ": 2029,
      "ི": 2030,
      "ུ": 2031,
      "ེ": 2032,
      "ོ": 2033,
      "ཽ": 2034,
      "ཾ": 2035,
      "ཿ": 2036,
      "ྀ": 2037,
      "ྃ": 2038,
      "ྐ": 2039,
      "ྒ": 2040,
      "ྔ": 2041,
      "ྕ": 2042,
      "ྗ": 2043,
      "ྙ": 2044,
      "ྟ": 2045,
      "ྡ": 2046,
      "ྣ": 2047,
      "ྤ": 2048,
      "ྦ": 2049,
      "ྨ": 2050,
      "ྩ": 2051,
      "ྫ": 2052,
      "ྭ": 2053,
      "ྱ": 2054,
      "ྲ": 2055,
      "ླ": 2056,
      "ྶ": 2057,
      "ྷ": 2058,
      "࿇": 2059,
      "က": 2060,
      "ခ": 2061,
      "ဂ": 2062,
      "ဃ": 2063,
      "င": 2064,
      "စ": 2065,
      "ဆ": 2066,
      "ဇ": 2067,
      "ည": 2068,
      "ဌ": 2069,
      "ဎ": 2070,
      "ဏ": 2071,
      "တ": 2072,
      "ထ": 2073,
      "ဒ": 2074,
      "ဓ": 2075,
      "န": 2076,
      "ပ": 2077,
      "ဖ": 2078,
      "ဗ": 2079,
      "ဘ": 2080,
      "မ": 2081,
      "ယ": 2082,
      "ရ": 2083,
      "လ": 2084,
      "ဝ": 2085,
      "သ": 2086,
      "ဟ": 2087,
      "အ": 2088,
      "ဢ": 2089,
      "ါ": 2090,
      "ာ": 2091,
      "ိ": 2092,
      "ီ": 2093,
      "ု": 2094,
      "ူ": 2095,
      "ေ": 2096,
      "ဲ": 2097,
      "ဳ": 2098,
      "ံ": 2099,
      "့": 2100,
      "း": 2101,
      "္": 2102,
      "်": 2103,
      "ျ": 2104,
      "ြ": 2105,
      "ွ": 2106,
      "ှ": 2107,
      "၀": 2108,
      "၁": 2109,
      "၂": 2110,
      "၇": 2111,
      "၈": 2112,
      "ၜ": 2113,
      "ၢ": 2114,
      "ၤ": 2115,
      "ၵ": 2116,
      "ၿ": 2117,
      "ႁ": 2118,
      "ႂ": 2119,
      "ႄ": 2120,
      "ႆ": 2121,
      "ႇ": 2122,
      "ႏ": 2123,
      "Ⴀ": 2124,
      "Ⴄ": 2125,
      "Ⴇ": 2126,
      "Ⴈ": 2127,
      "Ⴊ": 2128,
      "Ⴌ": 2129,
      "Ⴍ": 2130,
      "Ⴐ": 2131,
      "Ⴕ": 2132,
      "Ⴢ": 2133,
      "Ⴣ": 2134,
      "ა": 2135,
      "ბ": 2136,
      "გ": 2137,
      "დ": 2138,
      "ე": 2139,
      "ვ": 2140,
      "ზ": 2141,
      "თ": 2142,
      "ი": 2143,
      "კ": 2144,
      "ლ": 2145,
      "მ": 2146,
      "ნ": 2147,
      "ო": 2148,
      "პ": 2149,
      "ჟ": 2150,
      "რ": 2151,
      "ს": 2152,
      "ტ": 2153,
      "უ": 2154,
      "ფ": 2155,
      "ქ": 2156,
      "ღ": 2157,
      "ყ": 2158,
      "შ": 2159,
      "ჩ": 2160,
      "ც": 2161,
      "ძ": 2162,
      "წ": 2163,
      "ჭ": 2164,
      "ხ": 2165,
      "ჯ": 2166,
      "ᄅ": 2167,
      "ᄇ": 2168,
      "ᄉ": 2169,
      "ᄋ": 2170,
      "ᄒ": 2171,
      "ᅎ": 2172,
      "ᅏ": 2173,
      "ᅐ": 2174,
      "ᅑ": 2175,
      "ᅲ": 2176,
      "ᆞ": 2177,
      "ᆫ": 2178,
      "ሄ": 2179,
      "ህ": 2180,
      "ለ": 2181,
      "ሊ": 2182,
      "ላ": 2183,
      "ሌ": 2184,
      "ል": 2185,
      "ሐ": 2186,
      "ሒ": 2187,
      "ሕ": 2188,
      "መ": 2189,
      "ሚ": 2190,
      "ማ": 2191,
      "ሜ": 2192,
      "ም": 2193,
      "ሞ": 2194,
      "ሠ": 2195,
      "ሥ": 2196,
      "ረ": 2197,
      "ሩ": 2198,
      "ሪ": 2199,
      "ራ": 2200,
      "ሬ": 2201,
      "ር": 2202,
      "ሰ": 2203,
      "ሱ": 2204,
      "ሳ": 2205,
      "ስ": 2206,
      "ሷ": 2207,
      "ሽ": 2208,
      "ቃ": 2209,
      "ቅ": 2210,
      "በ": 2211,
      "ቡ": 2212,
      "ባ": 2213,
      "ብ": 2214,
      "ቪ": 2215,
      "ተ": 2216,
      "ቲ": 2217,
      "ታ": 2218,
      "ት": 2219,
      "ቷ": 2220,
      "ች": 2221,
      "ኅ": 2222,
      "ነ": 2223,
      "ና": 2224,
      "ን": 2225,
      "ኛ": 2226,
      "ኝ": 2227,
      "አ": 2228,
      "ኢ": 2229,
      "ኣ": 2230,
      "ኤ": 2231,
      "እ": 2232,
      "ከ": 2233,
      "ክ": 2234,
      "ወ": 2235,
      "ዊ": 2236,
      "ዋ": 2237,
      "ው": 2238,
      "ዎ": 2239,
      "ዕ": 2240,
      "ዘ": 2241,
      "ዜ": 2242,
      "ዝ": 2243,
      "ዥ": 2244,
      "የ": 2245,
      "ያ": 2246,
      "ዬ": 2247,
      "ይ": 2248,
      "ዮ": 2249,
      "ደ": 2250,
      "ዳ": 2251,
      "ዴ": 2252,
      "ድ": 2253,
      "ዶ": 2254,
      "ጁ": 2255,
      "ገ": 2256,
      "ጉ": 2257,
      "ጊ": 2258,
      "ጋ": 2259,
      "ግ": 2260,
      "ጠ": 2261,
      "ጣ": 2262,
      "ጥ": 2263,
      "ጵ": 2264,
      "ጸ": 2265,
      "ፀ": 2266,
      "ፊ": 2267,
      "ፋ": 2268,
      "ፍ": 2269,
      "ፕ": 2270,
      "Ꭱ": 2271,
      "Ꭹ": 2272,
      "Ꭿ": 2273,
      "Ꮃ": 2274,
      "Ꮄ": 2275,
      "Ꮅ": 2276,
      "Ꮕ": 2277,
      "Ꮖ": 2278,
      "Ꮗ": 2279,
      "Ꮜ": 2280,
      "Ꮝ": 2281,
      "Ꮣ": 2282,
      "Ꮧ": 2283,
      "Ꮩ": 2284,
      "Ꮳ": 2285,
      "Ꮷ": 2286,
      "Ꮹ": 2287,
      "Ꮻ": 2288,
      "Ꮿ": 2289,
      "ᐃ": 2290,
      "ᐄ": 2291,
      "ᐅ": 2292,
      "ᐊ": 2293,
      "ᐋ": 2294,
      "ᐍ": 2295,
      "ᐏ": 2296,
      "ᐑ": 2297,
      "ᐚ": 2298,
      "ᐟ": 2299,
      "ᐢ": 2300,
      "ᐣ": 2301,
      "ᐤ": 2302,
      "ᐦ": 2303,
      "ᐧ": 2304,
      "ᐯ": 2305,
      "ᐱ": 2306,
      "ᐸ": 2307,
      "ᐺ": 2308,
      "ᑎ": 2309,
      "ᑐ": 2310,
      "ᑑ": 2311,
      "ᑕ": 2312,
      "ᑖ": 2313,
      "ᑦ": 2314,
      "ᑫ": 2315,
      "ᑭ": 2316,
      "ᑮ": 2317,
      "ᑯ": 2318,
      "ᑲ": 2319,
      "ᑿ": 2320,
      "ᒃ": 2321,
      "ᒋ": 2322,
      "ᒌ": 2323,
      "ᒣ": 2324,
      "ᒥ": 2325,
      "ᒧ": 2326,
      "ᒨ": 2327,
      "ᒪ": 2328,
      "ᒻ": 2329,
      "ᓀ": 2330,
      "ᓂ": 2331,
      "ᓄ": 2332,
      "ᓇ": 2333,
      "ᓈ": 2334,
      "ᓐ": 2335,
      "ᓕ": 2336,
      "ᓗ": 2337,
      "ᓛ": 2338,
      "ᓯ": 2339,
      "ᓰ": 2340,
      "ᓲ": 2341,
      "ᓴ": 2342,
      "ᓵ": 2343,
      "ᔅ": 2344,
      "ᔑ": 2345,
      "ᔪ": 2346,
      "ᔭ": 2347,
      "ᕆ": 2348,
      "ᕋ": 2349,
      "ᕐ": 2350,
      "ᕓ": 2351,
      "ᕕ": 2352,
      "ᕗ": 2353,
      "ᕙ": 2354,
      "ᕿ": 2355,
      "ᖃ": 2356,
      "ᖅ": 2357,
      "ᖓ": 2358,
      "ᖹ": 2359,
      "ᗅ": 2360,
      "ᗜ": 2361,
      "ᗷ": 2362,
      "ᗺ": 2363,
      "ᚢ": 2364,
      "ᚬ": 2365,
      "ᚱ": 2366,
      "ᚲ": 2367,
      "ᚴ": 2368,
      "ᚷ": 2369,
      "ᚹ": 2370,
      "ᚼ": 2371,
      "ᚾ": 2372,
      "ᛃ": 2373,
      "ᛅ": 2374,
      "ᛉ": 2375,
      "ᛊ": 2376,
      "ᛏ": 2377,
      "ᛒ": 2378,
      "ᛘ": 2379,
      "ᛜ": 2380,
      "ᜃ": 2381,
      "ᜋ": 2382,
      "ᜎ": 2383,
      "ᜑ": 2384,
      "ᜒ": 2385,
      "᜵": 2386,
      "᜶": 2387,
      "ᝃ": 2388,
      "ᝒ": 2389,
      "ក": 2390,
      "ខ": 2391,
      "គ": 2392,
      "ឃ": 2393,
      "ង": 2394,
      "ច": 2395,
      "ឆ": 2396,
      "ជ": 2397,
      "ឈ": 2398,
      "ញ": 2399,
      "ដ": 2400,
      "ឋ": 2401,
      "ណ": 2402,
      "ត": 2403,
      "ថ": 2404,
      "ទ": 2405,
      "ធ": 2406,
      "ន": 2407,
      "ប": 2408,
      "ព": 2409,
      "ភ": 2410,
      "ម": 2411,
      "យ": 2412,
      "រ": 2413,
      "ល": 2414,
      "វ": 2415,
      "ស": 2416,
      "ហ": 2417,
      "ឡ": 2418,
      "អ": 2419,
      "ឧ": 2420,
      "ឯ": 2421,
      "឵": 2422,
      "ា": 2423,
      "ិ": 2424,
      "ី": 2425,
      "ឹ": 2426,
      "ុ": 2427,
      "ូ": 2428,
      "ួ": 2429,
      "ើ": 2430,
      "ឿ": 2431,
      "ៀ": 2432,
      "េ": 2433,
      "ែ": 2434,
      "ៃ": 2435,
      "ោ": 2436,
      "ៅ": 2437,
      "ំ": 2438,
      "ះ": 2439,
      "ៈ": 2440,
      "៉": 2441,
      "៊": 2442,
      "់": 2443,
      "៍": 2444,
      "័": 2445,
      "៑": 2446,
      "្": 2447,
      "᠂": 2448,
      "᠋": 2449,
      "ᠠ": 2450,
      "ᠢ": 2451,
      "ᠣ": 2452,
      "ᠥ": 2453,
      "ᠨ": 2454,
      "ᠩ": 2455,
      "ᠪ": 2456,
      "ᠬ": 2457,
      "ᠭ": 2458,
      "ᠮ": 2459,
      "ᠯ": 2460,
      "ᠰ": 2461,
      "ᠴ": 2462,
      "ᠵ": 2463,
      "ᠶ": 2464,
      "ᠷ": 2465,
      "ᠸ": 2466,
      "ᡄ": 2467,
      "ᡅ": 2468,
      "ᡆ": 2469,
      "ᡉ": 2470,
      "ᡊ": 2471,
      "ᡍ": 2472,
      "ᡎ": 2473,
      "ᡐ": 2474,
      "ᡝ": 2475,
      "ᡠ": 2476,
      "ᡤ": 2477,
      "ᡥ": 2478,
      "ᡨ": 2479,
      "ᡳ": 2480,
      "ᡴ": 2481,
      "ᡵ": 2482,
      "ᡶ": 2483,
      "ᤌ": 2484,
      "ᤕ": 2485,
      "ᤠ": 2486,
      "ᤢ": 2487,
      "ᤰ": 2488,
      "ᤱ": 2489,
      "ᥐ": 2490,
      "ᥑ": 2491,
      "ᥒ": 2492,
      "ᥓ": 2493,
      "ᥔ": 2494,
      "ᥕ": 2495,
      "ᥖ": 2496,
      "ᥗ": 2497,
      "ᥘ": 2498,
      "ᥙ": 2499,
      "ᥛ": 2500,
      "ᥜ": 2501,
      "ᥝ": 2502,
      "ᥞ": 2503,
      "ᥢ": 2504,
      "ᥣ": 2505,
      "ᥤ": 2506,
      "ᥥ": 2507,
      "ᥦ": 2508,
      "ᥧ": 2509,
      "ᥨ": 2510,
      "ᥩ": 2511,
      "ᥪ": 2512,
      "ᥫ": 2513,
      "ᥬ": 2514,
      "ᥭ": 2515,
      "ᥰ": 2516,
      "ᥱ": 2517,
      "ᥲ": 2518,
      "ᥳ": 2519,
      "ᥴ": 2520,
      "ᦂ": 2521,
      "ᦄ": 2522,
      "ᦆ": 2523,
      "ᦉ": 2524,
      "ᦍ": 2525,
      "ᦎ": 2526,
      "ᦑ": 2527,
      "ᦒ": 2528,
      "ᦓ": 2529,
      "ᦝ": 2530,
      "ᦞ": 2531,
      "ᦟ": 2532,
      "ᦠ": 2533,
      "ᦢ": 2534,
      "ᦰ": 2535,
      "ᦱ": 2536,
      "ᦲ": 2537,
      "ᦳ": 2538,
      "ᦴ": 2539,
      "ᦵ": 2540,
      "ᦶ": 2541,
      "ᦷ": 2542,
      "ᦸ": 2543,
      "ᦹ": 2544,
      "ᦺ": 2545,
      "ᧁ": 2546,
      "ᧂ": 2547,
      "ᧃ": 2548,
      "ᧄ": 2549,
      "ᧅ": 2550,
      "ᧆ": 2551,
      "ᧇ": 2552,
      "ᧈ": 2553,
      "ᧉ": 2554,
      "᧑": 2555,
      "᧚": 2556,
      "᧞": 2557,
      "᧟": 2558,
      "ᨀ": 2559,
      "ᨁ": 2560,
      "ᨄ": 2561,
      "ᨅ": 2562,
      "ᨆ": 2563,
      "ᨈ": 2564,
      "ᨉ": 2565,
      "ᨑ": 2566,
      "ᨓ": 2567,
      "ᨔ": 2568,
      "ᨘ": 2569,
      "ᨙ": 2570,
      "ᨚ": 2571,
      "ᨯ": 2572,
      "ᨰ": 2573,
      "ᨴ": 2574,
      "ᨵ": 2575,
      "ᩅ": 2576,
      "᩠": 2577,
      "ᩫ": 2578,
      "ᩮ": 2579,
      "ᩯ": 2580,
      "ᩰ": 2581,
      "ᩱ": 2582,
      "ᩲ": 2583,
      "᩶": 2584,
      "᩻": 2585,
      "ᬂ": 2586,
      "ᬅ": 2587,
      "ᬑ": 2588,
      "ᬓ": 2589,
      "ᬚ": 2590,
      "ᬢ": 2591,
      "ᬦ": 2592,
      "ᬩ": 2593,
      "ᬫ": 2594,
      "ᬬ": 2595,
      "ᬭ": 2596,
      "ᬮ": 2597,
      "ᬳ": 2598,
      "ᬶ": 2599,
      "ᭂ": 2600,
      "᭄": 2601,
      "᭚": 2602,
      "᭡": 2603,
      "ᰧ": 2604,
      "ᰨ": 2605,
      "ᴀ": 2606,
      "ᴁ": 2607,
      "ᴂ": 2608,
      "ᴃ": 2609,
      "ᴄ": 2610,
      "ᴅ": 2611,
      "ᴆ": 2612,
      "ᴇ": 2613,
      "ᴈ": 2614,
      "ᴉ": 2615,
      "ᴊ": 2616,
      "ᴋ": 2617,
      "ᴌ": 2618,
      "ᴍ": 2619,
      "ᴏ": 2620,
      "ᴔ": 2621,
      "ᴗ": 2622,
      "ᴘ": 2623,
      "ᴙ": 2624,
      "ᴚ": 2625,
      "ᴛ": 2626,
      "ᴜ": 2627,
      "ᴝ": 2628,
      "ᴞ": 2629,
      "ᴟ": 2630,
      "ᴠ": 2631,
      "ᴺ": 2632,
      "ᵀ": 2633,
      "ᵉ": 2634,
      "ᵋ": 2635,
      "ᵐ": 2636,
      "ᵑ": 2637,
      "ᵕ": 2638,
      "ᵘ": 2639,
      "ᵛ": 2640,
      "ᵝ": 2641,
      "ᵢ": 2642,
      "ᵧ": 2643,
      "ᵫ": 2644,
      "ᵬ": 2645,
      "ᵭ": 2646,
      "ᵮ": 2647,
      "ᵯ": 2648,
      "ᵰ": 2649,
      "ᵱ": 2650,
      "ᵲ": 2651,
      "ᵳ": 2652,
      "ᵴ": 2653,
      "ᵵ": 2654,
      "ᵶ": 2655,
      "ᵷ": 2656,
      "ᵹ": 2657,
      "ᵺ": 2658,
      "ᵻ": 2659,
      "ᵼ": 2660,
      "ᵽ": 2661,
      "ᵾ": 2662,
      "ᵿ": 2663,
      "ᶀ": 2664,
      "ᶂ": 2665,
      "ᶃ": 2666,
      "ᶄ": 2667,
      "ᶅ": 2668,
      "ᶆ": 2669,
      "ᶇ": 2670,
      "ᶈ": 2671,
      "ᶉ": 2672,
      "ᶊ": 2673,
      "ᶋ": 2674,
      "ᶌ": 2675,
      "ᶍ": 2676,
      "ᶎ": 2677,
      "ᶏ": 2678,
      "ᶐ": 2679,
      "ᶑ": 2680,
      "ᶒ": 2681,
      "ᶓ": 2682,
      "ᶔ": 2683,
      "ᶕ": 2684,
      "ᶖ": 2685,
      "ᶘ": 2686,
      "ᶙ": 2687,
      "ᶚ": 2688,
      "ᶦ": 2689,
      "ᶧ": 2690,
      "ᶫ": 2691,
      "ᶰ": 2692,
      "ᶱ": 2693,
      "ᶸ": 2694,
      "ᶻ": 2695,
      "᷆": 2696,
      "ᷛ": 2697,
      "ᷞ": 2698,
      "ᷟ": 2699,
      "ᷡ": 2700,
      "ᷢ": 2701,
      "Ḁ": 2702,
      "ḁ": 2703,
      "Ḃ": 2704,
      "ḃ": 2705,
      "Ḅ": 2706,
      "ḅ": 2707,
      "Ḇ": 2708,
      "ḇ": 2709,
      "Ḉ": 2710,
      "ḉ": 2711,
      "Ḋ": 2712,
      "ḋ": 2713,
      "Ḍ": 2714,
      "ḍ": 2715,
      "Ḏ": 2716,
      "ḏ": 2717,
      "Ḑ": 2718,
      "ḑ": 2719,
      "Ḓ": 2720,
      "ḓ": 2721,
      "Ḕ": 2722,
      "ḕ": 2723,
      "Ḗ": 2724,
      "ḗ": 2725,
      "Ḙ": 2726,
      "ḙ": 2727,
      "Ḛ": 2728,
      "ḛ": 2729,
      "Ḝ": 2730,
      "ḝ": 2731,
      "Ḟ": 2732,
      "ḟ": 2733,
      "Ḡ": 2734,
      "ḡ": 2735,
      "Ḣ": 2736,
      "ḣ": 2737,
      "Ḥ": 2738,
      "ḥ": 2739,
      "Ḧ": 2740,
      "ḧ": 2741,
      "Ḩ": 2742,
      "ḩ": 2743,
      "Ḫ": 2744,
      "ḫ": 2745,
      "Ḭ": 2746,
      "ḭ": 2747,
      "Ḯ": 2748,
      "ḯ": 2749,
      "Ḱ": 2750,
      "ḱ": 2751,
      "Ḳ": 2752,
      "ḳ": 2753,
      "Ḵ": 2754,
      "ḵ": 2755,
      "Ḷ": 2756,
      "ḷ": 2757,
      "Ḹ": 2758,
      "ḹ": 2759,
      "Ḻ": 2760,
      "ḻ": 2761,
      "Ḽ": 2762,
      "ḽ": 2763,
      "Ḿ": 2764,
      "ḿ": 2765,
      "Ṁ": 2766,
      "ṁ": 2767,
      "Ṃ": 2768,
      "ṃ": 2769,
      "Ṅ": 2770,
      "ṅ": 2771,
      "Ṇ": 2772,
      "ṇ": 2773,
      "Ṉ": 2774,
      "ṉ": 2775,
      "Ṋ": 2776,
      "ṋ": 2777,
      "Ṍ": 2778,
      "ṍ": 2779,
      "Ṏ": 2780,
      "ṏ": 2781,
      "Ṑ": 2782,
      "ṑ": 2783,
      "Ṓ": 2784,
      "ṓ": 2785,
      "Ṕ": 2786,
      "ṕ": 2787,
      "Ṗ": 2788,
      "ṗ": 2789,
      "Ṙ": 2790,
      "ṙ": 2791,
      "Ṛ": 2792,
      "ṛ": 2793,
      "Ṝ": 2794,
      "ṝ": 2795,
      "Ṟ": 2796,
      "ṟ": 2797,
      "Ṡ": 2798,
      "ṡ": 2799,
      "Ṣ": 2800,
      "ṣ": 2801,
      "Ṥ": 2802,
      "ṥ": 2803,
      "Ṧ": 2804,
      "ṧ": 2805,
      "Ṩ": 2806,
      "ṩ": 2807,
      "Ṫ": 2808,
      "ṫ": 2809,
      "Ṭ": 2810,
      "ṭ": 2811,
      "Ṯ": 2812,
      "ṯ": 2813,
      "Ṱ": 2814,
      "ṱ": 2815,
      "Ṳ": 2816,
      "ṳ": 2817,
      "Ṵ": 2818,
      "ṵ": 2819,
      "Ṷ": 2820,
      "ṷ": 2821,
      "Ṹ": 2822,
      "ṹ": 2823,
      "Ṻ": 2824,
      "ṻ": 2825,
      "Ṽ": 2826,
      "ṽ": 2827,
      "Ṿ": 2828,
      "ṿ": 2829,
      "Ẁ": 2830,
      "ẁ": 2831,
      "Ẃ": 2832,
      "ẃ": 2833,
      "Ẅ": 2834,
      "ẅ": 2835,
      "Ẇ": 2836,
      "ẇ": 2837,
      "Ẉ": 2838,
      "ẉ": 2839,
      "Ẋ": 2840,
      "ẋ": 2841,
      "Ẍ": 2842,
      "ẍ": 2843,
      "Ẏ": 2844,
      "ẏ": 2845,
      "Ẑ": 2846,
      "ẑ": 2847,
      "Ẓ": 2848,
      "ẓ": 2849,
      "Ẕ": 2850,
      "ẕ": 2851,
      "ẖ": 2852,
      "ẗ": 2853,
      "ẘ": 2854,
      "ẙ": 2855,
      "ẚ": 2856,
      "ẛ": 2857,
      "ẞ": 2858,
      "ẟ": 2859,
      "Ạ": 2860,
      "ạ": 2861,
      "Ả": 2862,
      "ả": 2863,
      "Ấ": 2864,
      "ấ": 2865,
      "Ầ": 2866,
      "ầ": 2867,
      "Ẩ": 2868,
      "ẩ": 2869,
      "Ẫ": 2870,
      "ẫ": 2871,
      "Ậ": 2872,
      "ậ": 2873,
      "Ắ": 2874,
      "ắ": 2875,
      "Ằ": 2876,
      "ằ": 2877,
      "Ẳ": 2878,
      "ẳ": 2879,
      "Ẵ": 2880,
      "ẵ": 2881,
      "Ặ": 2882,
      "ặ": 2883,
      "Ẹ": 2884,
      "ẹ": 2885,
      "Ẻ": 2886,
      "ẻ": 2887,
      "Ẽ": 2888,
      "ẽ": 2889,
      "Ế": 2890,
      "ế": 2891,
      "Ề": 2892,
      "ề": 2893,
      "Ể": 2894,
      "ể": 2895,
      "Ễ": 2896,
      "ễ": 2897,
      "Ệ": 2898,
      "ệ": 2899,
      "Ỉ": 2900,
      "ỉ": 2901,
      "Ị": 2902,
      "ị": 2903,
      "Ọ": 2904,
      "ọ": 2905,
      "Ỏ": 2906,
      "ỏ": 2907,
      "Ố": 2908,
      "ố": 2909,
      "Ồ": 2910,
      "ồ": 2911,
      "Ổ": 2912,
      "ổ": 2913,
      "Ỗ": 2914,
      "ỗ": 2915,
      "Ộ": 2916,
      "ộ": 2917,
      "Ớ": 2918,
      "ớ": 2919,
      "Ờ": 2920,
      "ờ": 2921,
      "Ở": 2922,
      "ở": 2923,
      "Ỡ": 2924,
      "ỡ": 2925,
      "Ợ": 2926,
      "ợ": 2927,
      "Ụ": 2928,
      "ụ": 2929,
      "Ủ": 2930,
      "ủ": 2931,
      "Ứ": 2932,
      "ứ": 2933,
      "Ừ": 2934,
      "ừ": 2935,
      "Ử": 2936,
      "ử": 2937,
      "Ữ": 2938,
      "ữ": 2939,
      "Ự": 2940,
      "ự": 2941,
      "Ỳ": 2942,
      "ỳ": 2943,
      "Ỵ": 2944,
      "ỵ": 2945,
      "Ỷ": 2946,
      "ỷ": 2947,
      "Ỹ": 2948,
      "ỹ": 2949,
      "Ỻ": 2950,
      "ỻ": 2951,
      "Ỽ": 2952,
      "ἀ": 2953,
      "ἁ": 2954,
      "ἂ": 2955,
      "ἃ": 2956,
      "ἄ": 2957,
      "ἅ": 2958,
      "Ἀ": 2959,
      "Ἁ": 2960,
      "Ἂ": 2961,
      "Ἄ": 2962,
      "Ἅ": 2963,
      "ἐ": 2964,
      "ἑ": 2965,
      "ἔ": 2966,
      "ἕ": 2967,
      "Ἐ": 2968,
      "Ἑ": 2969,
      "Ἓ": 2970,
      "Ἔ": 2971,
      "Ἕ": 2972,
      "ἠ": 2973,
      "ἡ": 2974,
      "ἣ": 2975,
      "ἤ": 2976,
      "ἥ": 2977,
      "ἦ": 2978,
      "ἧ": 2979,
      "Ἠ": 2980,
      "Ἡ": 2981,
      "Ἥ": 2982,
      "ἰ": 2983,
      "ἱ": 2984,
      "ἴ": 2985,
      "ἵ": 2986,
      "ἶ": 2987,
      "ἷ": 2988,
      "Ἰ": 2989,
      "Ἱ": 2990,
      "Ἴ": 2991,
      "Ἶ": 2992,
      "ὀ": 2993,
      "ὁ": 2994,
      "ὄ": 2995,
      "ὅ": 2996,
      "Ὀ": 2997,
      "Ὁ": 2998,
      "Ὄ": 2999,
      "ὐ": 3000,
      "ὑ": 3001,
      "ὒ": 3002,
      "ὔ": 3003,
      "ὕ": 3004,
      "ὖ": 3005,
      "ὗ": 3006,
      "Ὑ": 3007,
      "Ὕ": 3008,
      "ὠ": 3009,
      "ὡ": 3010,
      "ὤ": 3011,
      "ὥ": 3012,
      "ὦ": 3013,
      "Ὠ": 3014,
      "ὰ": 3015,
      "ὲ": 3016,
      "ὴ": 3017,
      "ὶ": 3018,
      "ὸ": 3019,
      "ὺ": 3020,
      "ὼ": 3021,
      "ᾅ": 3022,
      "ᾍ": 3023,
      "ᾧ": 3024,
      "ᾰ": 3025,
      "ᾱ": 3026,
      "ᾳ": 3027,
      "ᾴ": 3028,
      "ᾶ": 3029,
      "ᾷ": 3030,
      "᾽": 3031,
      "᾿": 3032,
      "ῃ": 3033,
      "ῆ": 3034,
      "ῇ": 3035,
      "ῐ": 3036,
      "ῑ": 3037,
      "ῖ": 3038,
      "Ὶ": 3039,
      "ῠ": 3040,
      "ῡ": 3041,
      "ῤ": 3042,
      "ῥ": 3043,
      "ῦ": 3044,
      "Ῥ": 3045,
      "ῳ": 3046,
      "ῶ": 3047,
      "ῷ": 3048,
      "῾": 3049,
      "​": 3050,
      "‌": 3051,
      "‍": 3052,
      "‎": 3053,
      "‏": 3054,
      "‐": 3055,
      "‑": 3056,
      "‒": 3057,
      "–": 3058,
      "—": 3059,
      "―": 3060,
      "‖": 3061,
      "‚": 3062,
      "‛": 3063,
      "„": 3064,
      "‟": 3065,
      "†": 3066,
      "‡": 3067,
      "•": 3068,
      "‣": 3069,
      "․": 3070,
      "‥": 3071,
      "…": 3072,
      "‧": 3073,
      "‪": 3074,
      "‬": 3075,
      "‭": 3076,
      "‰": 3077,
      "‱": 3078,
      "′": 3079,
      "″": 3080,
      "‴": 3081,
      "‵": 3082,
      "‶": 3083,
      "‹": 3084,
      "›": 3085,
      "※": 3086,
      "‼": 3087,
      "‽": 3088,
      "‾": 3089,
      "‿": 3090,
      "⁀": 3091,
      "⁂": 3092,
      "⁃": 3093,
      "⁄": 3094,
      "⁈": 3095,
      "⁉": 3096,
      "⁋": 3097,
      "⁎": 3098,
      "⁓": 3099,
      "⁠": 3100,
      "⁡": 3101,
      "⁣": 3102,
      "⁰": 3103,
      "ⁱ": 3104,
      "⁴": 3105,
      "⁵": 3106,
      "⁶": 3107,
      "⁷": 3108,
      "⁸": 3109,
      "⁹": 3110,
      "⁺": 3111,
      "⁻": 3112,
      "ⁿ": 3113,
      "₀": 3114,
      "₁": 3115,
      "₂": 3116,
      "₃": 3117,
      "₄": 3118,
      "₅": 3119,
      "₆": 3120,
      "₇": 3121,
      "₈": 3122,
      "₉": 3123,
      "ₐ": 3124,
      "ₒ": 3125,
      "ₓ": 3126,
      "ₕ": 3127,
      "ₙ": 3128,
      "ₜ": 3129,
      "₠": 3130,
      "₡": 3131,
      "₣": 3132,
      "₤": 3133,
      "₥": 3134,
      "₦": 3135,
      "₧": 3136,
      "₨": 3137,
      "₩": 3138,
      "₫": 3139,
      "€": 3140,
      "₭": 3141,
      "₮": 3142,
      "₯": 3143,
      "₱": 3144,
      "₴": 3145,
      "₵": 3146,
      "₹": 3147,
      "₺": 3148,
      "₼": 3149,
      "₽": 3150,
      "₾": 3151,
      "₿": 3152,
      "⃒": 3153,
      "⃝": 3154,
      "⃣": 3155,
      "ℂ": 3156,
      "℃": 3157,
      "℅": 3158,
      "℈": 3159,
      "℉": 3160,
      "ℍ": 3161,
      "ℎ": 3162,
      "ℓ": 3163,
      "ℕ": 3164,
      "№": 3165,
      "℗": 3166,
      "℘": 3167,
      "ℙ": 3168,
      "ℚ": 3169,
      "ℛ": 3170,
      "ℝ": 3171,
      "℞": 3172,
      "™": 3173,
      "ℤ": 3174,
      "℥": 3175,
      "℧": 3176,
      "℩": 3177,
      "Ⅎ": 3178,
      "ℳ": 3179,
      "ℵ": 3180,
      "⅂": 3181,
      "⅄": 3182,
      "ⅎ": 3183,
      "⅓": 3184,
      "⅔": 3185,
      "⅕": 3186,
      "⅖": 3187,
      "⅗": 3188,
      "⅘": 3189,
      "⅙": 3190,
      "⅛": 3191,
      "⅜": 3192,
      "⅝": 3193,
      "⅞": 3194,
      "Ⅰ": 3195,
      "Ⅱ": 3196,
      "Ⅲ": 3197,
      "Ⅳ": 3198,
      "Ⅴ": 3199,
      "Ⅵ": 3200,
      "Ⅶ": 3201,
      "Ⅷ": 3202,
      "Ⅸ": 3203,
      "Ⅹ": 3204,
      "Ⅺ": 3205,
      "Ⅻ": 3206,
      "Ⅼ": 3207,
      "Ⅽ": 3208,
      "Ⅾ": 3209,
      "Ⅿ": 3210,
      "ⅱ": 3211,
      "ↀ": 3212,
      "Ↄ": 3213,
      "ↄ": 3214,
      "←": 3215,
      "↑": 3216,
      "→": 3217,
      "↓": 3218,
      "↔": 3219,
      "↖": 3220,
      "↗": 3221,
      "↘": 3222,
      "↦": 3223,
      "↪": 3224,
      "↯": 3225,
      "↵": 3226,
      "↺": 3227,
      "⇄": 3228,
      "⇅": 3229,
      "⇆": 3230,
      "⇋": 3231,
      "⇌": 3232,
      "⇐": 3233,
      "⇑": 3234,
      "⇒": 3235,
      "⇓": 3236,
      "⇔": 3237,
      "⇧": 3238,
      "⇨": 3239,
      "⇪": 3240,
      "∀": 3241,
      "∁": 3242,
      "∂": 3243,
      "∃": 3244,
      "∄": 3245,
      "∅": 3246,
      "∆": 3247,
      "∇": 3248,
      "∈": 3249,
      "∉": 3250,
      "∊": 3251,
      "∎": 3252,
      "∏": 3253,
      "∑": 3254,
      "−": 3255,
      "∓": 3256,
      "∕": 3257,
      "∗": 3258,
      "∘": 3259,
      "∙": 3260,
      "√": 3261,
      "∝": 3262,
      "∞": 3263,
      "∠": 3264,
      "∣": 3265,
      "∥": 3266,
      "∧": 3267,
      "∨": 3268,
      "∩": 3269,
      "∪": 3270,
      "∫": 3271,
      "∬": 3272,
      "∭": 3273,
      "∮": 3274,
      "∴": 3275,
      "∵": 3276,
      "∶": 3277,
      "∷": 3278,
      "∼": 3279,
      "∽": 3280,
      "∿": 3281,
      "≀": 3282,
      "≃": 3283,
      "≅": 3284,
      "≈": 3285,
      "≒": 3286,
      "≠": 3287,
      "≡": 3288,
      "≢": 3289,
      "≤": 3290,
      "≥": 3291,
      "≦": 3292,
      "≧": 3293,
      "≪": 3294,
      "≫": 3295,
      "≯": 3296,
      "≲": 3297,
      "≳": 3298,
      "⊂": 3299,
      "⊃": 3300,
      "⊆": 3301,
      "⊇": 3302,
      "⊊": 3303,
      "⊓": 3304,
      "⊔": 3305,
      "⊕": 3306,
      "⊖": 3307,
      "⊗": 3308,
      "⊙": 3309,
      "⊞": 3310,
      "⊟": 3311,
      "⊢": 3312,
      "⊤": 3313,
      "⊥": 3314,
      "⊸": 3315,
      "⊿": 3316,
      "⋂": 3317,
      "⋄": 3318,
      "⋅": 3319,
      "⋆": 3320,
      "⋈": 3321,
      "⋉": 3322,
      "⋊": 3323,
      "⋮": 3324,
      "⋯": 3325,
      "⌂": 3326,
      "⌃": 3327,
      "⌄": 3328,
      "⌇": 3329,
      "⌈": 3330,
      "⌉": 3331,
      "⌊": 3332,
      "⌋": 3333,
      "⌒": 3334,
      "⌘": 3335,
      "⌥": 3336,
      "⌽": 3337,
      "⌿": 3338,
      "⍎": 3339,
      "⍝": 3340,
      "⍳": 3341,
      "⍴": 3342,
      "⍵": 3343,
      "⍺": 3344,
      "⎓": 3345,
      "⎕": 3346,
      "⎛": 3347,
      "⎝": 3348,
      "⎞": 3349,
      "⎠": 3350,
      "⎯": 3351,
      "⎷": 3352,
      "⏑": 3353,
      "⏕": 3354,
      "␆": 3355,
      "␕": 3356,
      "␚": 3357,
      "␡": 3358,
      "␣": 3359,
      "①": 3360,
      "②": 3361,
      "③": 3362,
      "④": 3363,
      "⑤": 3364,
      "⑥": 3365,
      "⑦": 3366,
      "⑧": 3367,
      "⑨": 3368,
      "⑩": 3369,
      "⑪": 3370,
      "⑫": 3371,
      "⑬": 3372,
      "⑭": 3373,
      "⑮": 3374,
      "⑯": 3375,
      "⑰": 3376,
      "⑱": 3377,
      "⑲": 3378,
      "⑳": 3379,
      "⑴": 3380,
      "⑵": 3381,
      "⑶": 3382,
      "⑷": 3383,
      "⑸": 3384,
      "⑹": 3385,
      "⑺": 3386,
      "⑻": 3387,
      "⑼": 3388,
      "⑽": 3389,
      "⒂": 3390,
      "⒈": 3391,
      "⒉": 3392,
      "⒊": 3393,
      "⒋": 3394,
      "⒌": 3395,
      "⒍": 3396,
      "⒎": 3397,
      "⒏": 3398,
      "⒐": 3399,
      "⒑": 3400,
      "⒒": 3401,
      "⒓": 3402,
      "⒔": 3403,
      "⒕": 3404,
      "⒖": 3405,
      "⒗": 3406,
      "⒘": 3407,
      "⒙": 3408,
      "⒞": 3409,
      "⒟": 3410,
      "Ⓐ": 3411,
      "Ⓑ": 3412,
      "Ⓒ": 3413,
      "Ⓓ": 3414,
      "Ⓕ": 3415,
      "Ⓛ": 3416,
      "Ⓟ": 3417,
      "Ⓥ": 3418,
      "ⓒ": 3419,
      "ⓘ": 3420,
      "ⓟ": 3421,
      "─": 3422,
      "━": 3423,
      "│": 3424,
      "┃": 3425,
      "┈": 3426,
      "┌": 3427,
      "┏": 3428,
      "┐": 3429,
      "┓": 3430,
      "└": 3431,
      "┗": 3432,
      "┘": 3433,
      "┛": 3434,
      "├": 3435,
      "┣": 3436,
      "┫": 3437,
      "┬": 3438,
      "┳": 3439,
      "┴": 3440,
      "┼": 3441,
      "═": 3442,
      "║": 3443,
      "╕": 3444,
      "╞": 3445,
      "╡": 3446,
      "╪": 3447,
      "╭": 3448,
      "╮": 3449,
      "╯": 3450,
      "╰": 3451,
      "╱": 3452,
      "╲": 3453,
      "╳": 3454,
      "╴": 3455,
      "▃": 3456,
      "▄": 3457,
      "█": 3458,
      "▉": 3459,
      "▌": 3460,
      "▎": 3461,
      "■": 3462,
      "□": 3463,
      "▢": 3464,
      "▨": 3465,
      "▪": 3466,
      "▫": 3467,
      "▮": 3468,
      "▲": 3469,
      "△": 3470,
      "▶": 3471,
      "▷": 3472,
      "►": 3473,
      "▼": 3474,
      "▽": 3475,
      "◀": 3476,
      "◁": 3477,
      "◆": 3478,
      "◇": 3479,
      "◊": 3480,
      "○": 3481,
      "◌": 3482,
      "◎": 3483,
      "●": 3484,
      "◕": 3485,
      "◘": 3486,
      "◙": 3487,
      "◡": 3488,
      "◢": 3489,
      "◣": 3490,
      "◤": 3491,
      "◥": 3492,
      "◦": 3493,
      "◧": 3494,
      "◩": 3495,
      "◬": 3496,
      "◯": 3497,
      "◻": 3498,
      "◼": 3499,
      "☂": 3500,
      "☃": 3501,
      "☄": 3502,
      "★": 3503,
      "☆": 3504,
      "☉": 3505,
      "☊": 3506,
      "☌": 3507,
      "☍": 3508,
      "☐": 3509,
      "☑": 3510,
      "☒": 3511,
      "☓": 3512,
      "☖": 3513,
      "☗": 3514,
      "☠": 3515,
      "☢": 3516,
      "☣": 3517,
      "☤": 3518,
      "☥": 3519,
      "☦": 3520,
      "☧": 3521,
      "☨": 3522,
      "☩": 3523,
      "☪": 3524,
      "☫": 3525,
      "☭": 3526,
      "☯": 3527,
      "☰": 3528,
      "☱": 3529,
      "☲": 3530,
      "☳": 3531,
      "☴": 3532,
      "☵": 3533,
      "☶": 3534,
      "☷": 3535,
      "☺": 3536,
      "☽": 3537,
      "☾": 3538,
      "☿": 3539,
      "♀": 3540,
      "♁": 3541,
      "♂": 3542,
      "♄": 3543,
      "♆": 3544,
      "♇": 3545,
      "♈": 3546,
      "♉": 3547,
      "♊": 3548,
      "♋": 3549,
      "♌": 3550,
      "♍": 3551,
      "♎": 3552,
      "♏": 3553,
      "♑": 3554,
      "♒": 3555,
      "♓": 3556,
      "♔": 3557,
      "♕": 3558,
      "♠": 3559,
      "♡": 3560,
      "♣": 3561,
      "♥": 3562,
      "♦": 3563,
      "♨": 3564,
      "♩": 3565,
      "♪": 3566,
      "♫": 3567,
      "♭": 3568,
      "♮": 3569,
      "♯": 3570,
      "♰": 3571,
      "♳": 3572,
      "♴": 3573,
      "♵": 3574,
      "♶": 3575,
      "♷": 3576,
      "♸": 3577,
      "♹": 3578,
      "♺": 3579,
      "♾": 3580,
      "♿": 3581,
      "⚊": 3582,
      "⚋": 3583,
      "⚌": 3584,
      "⚍": 3585,
      "⚎": 3586,
      "⚏": 3587,
      "⚜": 3588,
      "⚠": 3589,
      "⚡": 3590,
      "⚤": 3591,
      "⚧": 3592,
      "⚪": 3593,
      "⚫": 3594,
      "⚶": 3595,
      "⚹": 3596,
      "⚽": 3597,
      "⛎": 3598,
      "⛨": 3599,
      "⛩": 3600,
      "✅": 3601,
      "✈": 3602,
      "✌": 3603,
      "✓": 3604,
      "✔": 3605,
      "✕": 3606,
      "✖": 3607,
      "✗": 3608,
      "✘": 3609,
      "✙": 3610,
      "✚": 3611,
      "✛": 3612,
      "✝": 3613,
      "✠": 3614,
      "✡": 3615,
      "✦": 3616,
      "✨": 3617,
      "✩": 3618,
      "✪": 3619,
      "✶": 3620,
      "✻": 3621,
      "✽": 3622,
      "❌": 3623,
      "❗": 3624,
      "❡": 3625,
      "❤": 3626,
      "❦": 3627,
      "❨": 3628,
      "❩": 3629,
      "❮": 3630,
      "❯": 3631,
      "❲": 3632,
      "❳": 3633,
      "❶": 3634,
      "❷": 3635,
      "❸": 3636,
      "❹": 3637,
      "❺": 3638,
      "❻": 3639,
      "❼": 3640,
      "❽": 3641,
      "❾": 3642,
      "❿": 3643,
      "➊": 3644,
      "➔": 3645,
      "➕": 3646,
      "➝": 3647,
      "➡": 3648,
      "➤": 3649,
      "⟕": 3650,
      "⟖": 3651,
      "⟗": 3652,
      "⟡": 3653,
      "⟨": 3654,
      "⟩": 3655,
      "⟪": 3656,
      "⟫": 3657,
      "⟶": 3658,
      "⟷": 3659,
      "⠀": 3660,
      "⠁": 3661,
      "⠂": 3662,
      "⠉": 3663,
      "⠊": 3664,
      "⠍": 3665,
      "⠒": 3666,
      "⠓": 3667,
      "⠕": 3668,
      "⠛": 3669,
      "⠝": 3670,
      "⠞": 3671,
      "⠡": 3672,
      "⠢": 3673,
      "⠣": 3674,
      "⠤": 3675,
      "⠦": 3676,
      "⠨": 3677,
      "⠫": 3678,
      "⠰": 3679,
      "⠲": 3680,
      "⠳": 3681,
      "⠹": 3682,
      "⥄": 3683,
      "⦵": 3684,
      "⧵": 3685,
      "⨂": 3686,
      "⨉": 3687,
      "⨎": 3688,
      "⨾": 3689,
      "⩽": 3690,
      "⩾": 3691,
      "⪤": 3692,
      "⬆": 3693,
      "⬕": 3694,
      "⬚": 3695,
      "⬤": 3696,
      "⭢": 3697,
      "⯓": 3698,
      "Ⰹ": 3699,
      "Ⱃ": 3700,
      "Ⱈ": 3701,
      "Ⱑ": 3702,
      "Ⱛ": 3703,
      "Ⱞ": 3704,
      "ⰲ": 3705,
      "ⰴ": 3706,
      "ⰵ": 3707,
      "ⰶ": 3708,
      "ⰹ": 3709,
      "ⰽ": 3710,
      "ⰾ": 3711,
      "ⱀ": 3712,
      "ⱁ": 3713,
      "ⱄ": 3714,
      "ⱆ": 3715,
      "ⱋ": 3716,
      "ⱌ": 3717,
      "ⱏ": 3718,
      "ⱛ": 3719,
      "ⱝ": 3720,
      "Ⱡ": 3721,
      "ⱡ": 3722,
      "Ɫ": 3723,
      "Ᵽ": 3724,
      "Ɽ": 3725,
      "ⱥ": 3726,
      "ⱦ": 3727,
      "Ⱨ": 3728,
      "ⱨ": 3729,
      "Ⱪ": 3730,
      "ⱪ": 3731,
      "Ⱬ": 3732,
      "ⱬ": 3733,
      "Ɑ": 3734,
      "Ɐ": 3735,
      "ⱴ": 3736,
      "Ⱶ": 3737,
      "ⱶ": 3738,
      "ⱷ": 3739,
      "ⱼ": 3740,
      "Ⲁ": 3741,
      "ⲁ": 3742,
      "ⲃ": 3743,
      "ⲅ": 3744,
      "ⲇ": 3745,
      "ⲉ": 3746,
      "ⲏ": 3747,
      "ⲑ": 3748,
      "ⲓ": 3749,
      "ⲕ": 3750,
      "ⲗ": 3751,
      "ⲙ": 3752,
      "ⲛ": 3753,
      "ⲟ": 3754,
      "Ⲡ": 3755,
      "ⲡ": 3756,
      "ⲣ": 3757,
      "ⲥ": 3758,
      "ⲧ": 3759,
      "ⲩ": 3760,
      "ⲫ": 3761,
      "Ⲭ": 3762,
      "ⲭ": 3763,
      "ⲱ": 3764,
      "⳥": 3765,
      "ⴰ": 3766,
      "ⴱ": 3767,
      "ⴲ": 3768,
      "ⴳ": 3769,
      "ⴴ": 3770,
      "ⴷ": 3771,
      "ⴹ": 3772,
      "ⴻ": 3773,
      "ⴼ": 3774,
      "ⴽ": 3775,
      "ⵀ": 3776,
      "ⵃ": 3777,
      "ⵄ": 3778,
      "ⵇ": 3779,
      "ⵉ": 3780,
      "ⵊ": 3781,
      "ⵍ": 3782,
      "ⵎ": 3783,
      "ⵏ": 3784,
      "ⵓ": 3785,
      "ⵔ": 3786,
      "ⵖ": 3787,
      "ⵗ": 3788,
      "ⵙ": 3789,
      "ⵛ": 3790,
      "ⵜ": 3791,
      "ⵟ": 3792,
      "ⵡ": 3793,
      "ⵢ": 3794,
      "ⵣ": 3795,
      "ⵥ": 3796,
      "⸱": 3797,
      "⸸": 3798,
      "⸺": 3799,
      "⺀": 3800,
      "⺄": 3801,
      "⺈": 3802,
      "⺕": 3803,
      "⺗": 3804,
      "⺝": 3805,
      "⺟": 3806,
      "⺠": 3807,
      "⺩": 3808,
      "⺬": 3809,
      "⺭": 3810,
      "⺸": 3811,
      "⺼": 3812,
      "⻄": 3813,
      "⻆": 3814,
      "⻋": 3815,
      "⻌": 3816,
      "⻍": 3817,
      "⻎": 3818,
      "⻏": 3819,
      "⻑": 3820,
      "⻓": 3821,
      "⻔": 3822,
      "⻘": 3823,
      "⻚": 3824,
      "⻛": 3825,
      "⻜": 3826,
      "⻝": 3827,
      "⻤": 3828,
      "⻥": 3829,
      "⻩": 3830,
      "⼀": 3831,
      "⼁": 3832,
      "⼂": 3833,
      "⼃": 3834,
      "⼄": 3835,
      "⼅": 3836,
      "⼆": 3837,
      "⼈": 3838,
      "⼊": 3839,
      "⼋": 3840,
      "⼍": 3841,
      "⼎": 3842,
      "⼏": 3843,
      "⼐": 3844,
      "⼒": 3845,
      "⼗": 3846,
      "⼘": 3847,
      "⼜": 3848,
      "⼝": 3849,
      "⼟": 3850,
      "⼠": 3851,
      "⼣": 3852,
      "⼤": 3853,
      "⼥": 3854,
      "⼦": 3855,
      "⼩": 3856,
      "⼭": 3857,
      "⼯": 3858,
      "⼰": 3859,
      "⼲": 3860,
      "⼴": 3861,
      "⼹": 3862,
      "⼼": 3863,
      "⼽": 3864,
      "⼾": 3865,
      "⼿": 3866,
      "⽀": 3867,
      "⽂": 3868,
      "⽃": 3869,
      "⽅": 3870,
      "⽆": 3871,
      "⽇": 3872,
      "⽉": 3873,
      "⽊": 3874,
      "⽐": 3875,
      "⽒": 3876,
      "⽓": 3877,
      "⽔": 3878,
      "⽕": 3879,
      "⽗": 3880,
      "⽚": 3881,
      "⽛": 3882,
      "⽟": 3883,
      "⽠": 3884,
      "⽢": 3885,
      "⽣": 3886,
      "⽤": 3887,
      "⽥": 3888,
      "⽩": 3889,
      "⽪": 3890,
      "⽬": 3891,
      "⽯": 3892,
      "⽰": 3893,
      "⽴": 3894,
      "⽵": 3895,
      "⽶": 3896,
      "⽹": 3897,
      "⽻": 3898,
      "⽼": 3899,
      "⽽": 3900,
      "⽿": 3901,
      "⾁": 3902,
      "⾂": 3903,
      "⾃": 3904,
      "⾄": 3905,
      "⾊": 3906,
      "⾎": 3907,
      "⾏": 3908,
      "⾒": 3909,
      "⾓": 3910,
      "⾔": 3911,
      "⾕": 3912,
      "⾚": 3913,
      "⾛": 3914,
      "⾜": 3915,
      "⾝": 3916,
      "⾞": 3917,
      "⾟": 3918,
      "⾢": 3919,
      "⾥": 3920,
      "⾦": 3921,
      "⾧": 3922,
      "⾨": 3923,
      "⾮": 3924,
      "⾯": 3925,
      "⾰": 3926,
      "⾳": 3927,
      "⾵": 3928,
      "⾶": 3929,
      "⾷": 3930,
      "⾸": 3931,
      "⾹": 3932,
      "⾺": 3933,
      "⾼": 3934,
      "⾾": 3935,
      "⿁": 3936,
      "⿃": 3937,
      "⿈": 3938,
      "⿊": 3939,
      "⿓": 3940,
      "⿰": 3941,
      "⿱": 3942,
      "⿲": 3943,
      "⿳": 3944,
      "⿴": 3945,
      "⿸": 3946,
      "⿺": 3947,
      "⿻": 3948,
      "、": 3949,
      "〃": 3950,
      "〄": 3951,
      "々": 3952,
      "〆": 3953,
      "〈": 3954,
      "〉": 3955,
      "《": 3956,
      "》": 3957,
      "「": 3958,
      "」": 3959,
      "『": 3960,
      "』": 3961,
      "〒": 3962,
      "〓": 3963,
      "〔": 3964,
      "〕": 3965,
      "〖": 3966,
      "〗": 3967,
      "〜": 3968,
      "〝": 3969,
      "〞": 3970,
      "〟": 3971,
      "〡": 3972,
      "〢": 3973,
      "〣": 3974,
      "〤": 3975,
      "〥": 3976,
      "〦": 3977,
      "〧": 3978,
      "〨": 3979,
      "〩": 3980,
      "〪": 3981,
      "〫": 3982,
      "〬": 3983,
      "〭": 3984,
      "〰": 3985,
      "〱": 3986,
      "〲": 3987,
      "〳": 3988,
      "〴": 3989,
      "〵": 3990,
      "〸": 3991,
      "〹": 3992,
      "〺": 3993,
      "〻": 3994,
      "〽": 3995,
      "ぁ": 3996,
      "あ": 3997,
      "ぃ": 3998,
      "い": 3999,
      "ぅ": 4000,
      "う": 4001,
      "ぇ": 4002,
      "え": 4003,
      "ぉ": 4004,
      "お": 4005,
      "か": 4006,
      "が": 4007,
      "き": 4008,
      "ぎ": 4009,
      "く": 4010,
      "ぐ": 4011,
      "け": 4012,
      "げ": 4013,
      "こ": 4014,
      "ご": 4015,
      "さ": 4016,
      "ざ": 4017,
      "し": 4018,
      "じ": 4019,
      "す": 4020,
      "ず": 4021,
      "せ": 4022,
      "ぜ": 4023,
      "そ": 4024,
      "ぞ": 4025,
      "た": 4026,
      "だ": 4027,
      "ち": 4028,
      "ぢ": 4029,
      "っ": 4030,
      "つ": 4031,
      "づ": 4032,
      "て": 4033,
      "で": 4034,
      "と": 4035,
      "ど": 4036,
      "な": 4037,
      "に": 4038,
      "ぬ": 4039,
      "ね": 4040,
      "の": 4041,
      "は": 4042,
      "ば": 4043,
      "ぱ": 4044,
      "ひ": 4045,
      "び": 4046,
      "ぴ": 4047,
      "ふ": 4048,
      "ぶ": 4049,
      "ぷ": 4050,
      "へ": 4051,
      "べ": 4052,
      "ぺ": 4053,
      "ほ": 4054,
      "ぼ": 4055,
      "ぽ": 4056,
      "ま": 4057,
      "み": 4058,
      "む": 4059,
      "め": 4060,
      "も": 4061,
      "ゃ": 4062,
      "や": 4063,
      "ゅ": 4064,
      "ゆ": 4065,
      "ょ": 4066,
      "よ": 4067,
      "ら": 4068,
      "り": 4069,
      "る": 4070,
      "れ": 4071,
      "ろ": 4072,
      "ゎ": 4073,
      "わ": 4074,
      "ゐ": 4075,
      "ゑ": 4076,
      "を": 4077,
      "ん": 4078,
      "ゔ": 4079,
      "゙": 4080,
      "゚": 4081,
      "゛": 4082,
      "゜": 4083,
      "ゝ": 4084,
      "ゞ": 4085,
      "ゟ": 4086,
      "ァ": 4087,
      "ア": 4088,
      "ィ": 4089,
      "イ": 4090,
      "ゥ": 4091,
      "ウ": 4092,
      "ェ": 4093,
      "エ": 4094,
      "ォ": 4095,
      "オ": 4096,
      "カ": 4097,
      "ガ": 4098,
      "キ": 4099,
      "ギ": 4100,
      "ク": 4101,
      "グ": 4102,
      "ケ": 4103,
      "ゲ": 4104,
      "コ": 4105,
      "ゴ": 4106,
      "サ": 4107,
      "ザ": 4108,
      "シ": 4109,
      "ジ": 4110,
      "ス": 4111,
      "ズ": 4112,
      "セ": 4113,
      "ゼ": 4114,
      "ソ": 4115,
      "ゾ": 4116,
      "タ": 4117,
      "ダ": 4118,
      "チ": 4119,
      "ヂ": 4120,
      "ッ": 4121,
      "ツ": 4122,
      "ヅ": 4123,
      "テ": 4124,
      "デ": 4125,
      "ト": 4126,
      "ド": 4127,
      "ナ": 4128,
      "ニ": 4129,
      "ヌ": 4130,
      "ネ": 4131,
      "ノ": 4132,
      "ハ": 4133,
      "バ": 4134,
      "パ": 4135,
      "ヒ": 4136,
      "ビ": 4137,
      "ピ": 4138,
      "フ": 4139,
      "ブ": 4140,
      "プ": 4141,
      "ヘ": 4142,
      "ベ": 4143,
      "ペ": 4144,
      "ホ": 4145,
      "ボ": 4146,
      "ポ": 4147,
      "マ": 4148,
      "ミ": 4149,
      "ム": 4150,
      "メ": 4151,
      "モ": 4152,
      "ャ": 4153,
      "ヤ": 4154,
      "ュ": 4155,
      "ユ": 4156,
      "ョ": 4157,
      "ヨ": 4158,
      "ラ": 4159,
      "リ": 4160,
      "ル": 4161,
      "レ": 4162,
      "ロ": 4163,
      "ヮ": 4164,
      "ワ": 4165,
      "ヰ": 4166,
      "ヱ": 4167,
      "ヲ": 4168,
      "ン": 4169,
      "ヴ": 4170,
      "ヵ": 4171,
      "ヶ": 4172,
      "ヹ": 4173,
      "・": 4174,
      "ー": 4175,
      "ヽ": 4176,
      "ヾ": 4177,
      "ヿ": 4178,
      "㄂": 4179,
      "ㄅ": 4180,
      "ㄆ": 4181,
      "ㄇ": 4182,
      "ㄈ": 4183,
      "ㄉ": 4184,
      "ㄊ": 4185,
      "ㄋ": 4186,
      "ㄌ": 4187,
      "ㄍ": 4188,
      "ㄎ": 4189,
      "ㄏ": 4190,
      "ㄐ": 4191,
      "ㄑ": 4192,
      "ㄒ": 4193,
      "ㄓ": 4194,
      "ㄔ": 4195,
      "ㄕ": 4196,
      "ㄖ": 4197,
      "ㄗ": 4198,
      "ㄘ": 4199,
      "ㄙ": 4200,
      "ㄚ": 4201,
      "ㄛ": 4202,
      "ㄜ": 4203,
      "ㄝ": 4204,
      "ㄞ": 4205,
      "ㄟ": 4206,
      "ㄠ": 4207,
      "ㄡ": 4208,
      "ㄢ": 4209,
      "ㄣ": 4210,
      "ㄤ": 4211,
      "ㄥ": 4212,
      "ㄦ": 4213,
      "ㄧ": 4214,
      "ㄨ": 4215,
      "ㄩ": 4216,
      "ㄪ": 4217,
      "ㄫ": 4218,
      "ㄬ": 4219,
      "ㄭ": 4220,
      "ㄮ": 4221,
      "ㄯ": 4222,
      "ㄱ": 4223,
      "ㄲ": 4224,
      "ㄳ": 4225,
      "ㄴ": 4226,
      "ㄷ": 4227,
      "ㄸ": 4228,
      "ㄹ": 4229,
      "ㄻ": 4230,
      "ㄼ": 4231,
      "ㅁ": 4232,
      "ㅂ": 4233,
      "ㅃ": 4234,
      "ㅅ": 4235,
      "ㅆ": 4236,
      "ㅇ": 4237,
      "ㅈ": 4238,
      "ㅉ": 4239,
      "ㅊ": 4240,
      "ㅋ": 4241,
      "ㅌ": 4242,
      "ㅍ": 4243,
      "ㅎ": 4244,
      "ㅏ": 4245,
      "ㅐ": 4246,
      "ㅑ": 4247,
      "ㅒ": 4248,
      "ㅓ": 4249,
      "ㅔ": 4250,
      "ㅕ": 4251,
      "ㅖ": 4252,
      "ㅗ": 4253,
      "ㅘ": 4254,
      "ㅙ": 4255,
      "ㅚ": 4256,
      "ㅛ": 4257,
      "ㅜ": 4258,
      "ㅝ": 4259,
      "ㅞ": 4260,
      "ㅟ": 4261,
      "ㅠ": 4262,
      "ㅡ": 4263,
      "ㅢ": 4264,
      "ㅣ": 4265,
      "ㅤ": 4266,
      "ㅭ": 4267,
      "ㅸ": 4268,
      "ㅿ": 4269,
      "ㆁ": 4270,
      "ㆆ": 4271,
      "ㆉ": 4272,
      "ㆌ": 4273,
      "ㆍ": 4274,
      "ㆎ": 4275,
      "㆒": 4276,
      "㆔": 4277,
      "㆖": 4278,
      "㆘": 4279,
      "ㆠ": 4280,
      "ㆡ": 4281,
      "ㆢ": 4282,
      "ㆣ": 4283,
      "ㆤ": 4284,
      "ㆥ": 4285,
      "ㆦ": 4286,
      "ㆧ": 4287,
      "ㆨ": 4288,
      "ㆩ": 4289,
      "ㆪ": 4290,
      "ㆫ": 4291,
      "ㆬ": 4292,
      "ㆭ": 4293,
      "ㆮ": 4294,
      "ㆯ": 4295,
      "ㆰ": 4296,
      "ㆱ": 4297,
      "ㆲ": 4298,
      "ㆳ": 4299,
      "ㆴ": 4300,
      "ㆵ": 4301,
      "ㆶ": 4302,
      "ㆷ": 4303,
      "ㆻ": 4304,
      "ㆼ": 4305,
      "ㆽ": 4306,
      "ㆾ": 4307,
      "ㆿ": 4308,
      "㇀": 4309,
      "㇂": 4310,
      "㇄": 4311,
      "㇅": 4312,
      "㇆": 4313,
      "㇇": 4314,
      "㇈": 4315,
      "㇉": 4316,
      "㇊": 4317,
      "㇋": 4318,
      "㇌": 4319,
      "㇍": 4320,
      "㇎": 4321,
      "㇏": 4322,
      "㇐": 4323,
      "㇑": 4324,
      "㇒": 4325,
      "㇓": 4326,
      "㇔": 4327,
      "㇕": 4328,
      "㇖": 4329,
      "㇗": 4330,
      "㇙": 4331,
      "㇚": 4332,
      "㇛": 4333,
      "㇜": 4334,
      "㇞": 4335,
      "㇟": 4336,
      "㇡": 4337,
      "㇢": 4338,
      "㇤": 4339,
      "ㇰ": 4340,
      "ㇱ": 4341,
      "ㇵ": 4342,
      "ㇷ": 4343,
      "ㇺ": 4344,
      "ㇻ": 4345,
      "ㇼ": 4346,
      "ㇽ": 4347,
      "ㇿ": 4348,
      "㈜": 4349,
      "㈠": 4350,
      "㈡": 4351,
      "㈢": 4352,
      "㈣": 4353,
      "㈤": 4354,
      "㈥": 4355,
      "㈦": 4356,
      "㈧": 4357,
      "㈨": 4358,
      "㈩": 4359,
      "㈪": 4360,
      "㈭": 4361,
      "㈮": 4362,
      "㈯": 4363,
      "㈰": 4364,
      "㈱": 4365,
      "㊇": 4366,
      "㊎": 4367,
      "㊑": 4368,
      "㊙": 4369,
      "㊣": 4370,
      "㋿": 4371,
      "㍻": 4372,
      "㍼": 4373,
      "㍽": 4374,
      "㍾": 4375,
      "㍿": 4376,
      "㎏": 4377,
      "㎒": 4378,
      "㎛": 4379,
      "㎜": 4380,
      "㎝": 4381,
      "㎞": 4382,
      "㎡": 4383,
      "㎢": 4384,
      "㎤": 4385,
      "㎥": 4386,
      "㎦": 4387,
      "㎮": 4388,
      "㏉": 4389,
      "㏍": 4390,
      "㏑": 4391,
      "㏒": 4392,
      "㐂": 4393,
      "㐾": 4394,
      "㒭": 4395,
      "㒹": 4396,
      "㔬": 4397,
      "㕀": 4398,
      "㕔": 4399,
      "㕘": 4400,
      "㖱": 4401,
      "㗎": 4402,
      "㗝": 4403,
      "㘻": 4404,
      "㚸": 4405,
      "㛠": 4406,
      "㛢": 4407,
      "㝜": 4408,
      "㝬": 4409,
      "㞢": 4410,
      "㟥": 4411,
      "㟸": 4412,
      "㠫": 4413,
      "㠬": 4414,
      "㣉": 4415,
      "㤗": 4416,
      "㤭": 4417,
      "㤻": 4418,
      "㪲": 4419,
      "㪳": 4420,
      "㫆": 4421,
      "㫕": 4422,
      "㫖": 4423,
      "㫬": 4424,
      "㫺": 4425,
      "㬀": 4426,
      "㬢": 4427,
      "㬺": 4428,
      "㬾": 4429,
      "㭍": 4430,
      "㭦": 4431,
      "㭶": 4432,
      "㮊": 4433,
      "㮤": 4434,
      "㮴": 4435,
      "㯣": 4436,
      "㰏": 4437,
      "㰕": 4438,
      "㱕": 4439,
      "㳉": 4440,
      "㳢": 4441,
      "㴱": 4442,
      "㵼": 4443,
      "㶊": 4444,
      "㶨": 4445,
      "㶮": 4446,
      "㶱": 4447,
      "㶷": 4448,
      "㷑": 4449,
      "㷛": 4450,
      "㷧": 4451,
      "㷩": 4452,
      "㹧": 4453,
      "㻁": 4454,
      "㻛": 4455,
      "㼀": 4456,
      "㼁": 4457,
      "㼅": 4458,
      "㽓": 4459,
      "㽵": 4460,
      "㽿": 4461,
      "㿝": 4462,
      "䂓": 4463,
      "䃄": 4464,
      "䃟": 4465,
      "䄖": 4466,
      "䇄": 4467,
      "䇝": 4468,
      "䇿": 4469,
      "䊹": 4470,
      "䋍": 4471,
      "䌉": 4472,
      "䍧": 4473,
      "䎞": 4474,
      "䏾": 4475,
      "䑩": 4476,
      "䒶": 4477,
      "䓪": 4478,
      "䕬": 4479,
      "䘗": 4480,
      "䘛": 4481,
      "䚀": 4482,
      "䜳": 4483,
      "䝉": 4484,
      "䟽": 4485,
      "䢂": 4486,
      "䢘": 4487,
      "䢜": 4488,
      "䤈": 4489,
      "䥴": 4490,
      "䦁": 4491,
      "䦉": 4492,
      "䧏": 4493,
      "䧣": 4494,
      "䨇": 4495,
      "䬸": 4496,
      "䭏": 4497,
      "䮐": 4498,
      "䯃": 4499,
      "䯻": 4500,
      "䲝": 4501,
      "䵍": 4502,
      "䷀": 4503,
      "䷁": 4504,
      "䷂": 4505,
      "䷃": 4506,
      "䷊": 4507,
      "䷋": 4508,
      "䷌": 4509,
      "䷍": 4510,
      "䷔": 4511,
      "䷜": 4512,
      "䷝": 4513,
      "䷲": 4514,
      "䷳": 4515,
      "䷸": 4516,
      "䷹": 4517,
      "䷾": 4518,
      "䷿": 4519,
      "兙": 4520,
      "兡": 4521,
      "嗧": 4522,
      "瓼": 4523,
      "龱": 4524,
      "龺": 4525,
      "鿋": 4526,
      "鿠": 4527,
      "鿤": 4528,
      "ꀋ": 4529,
      "ꁈ": 4530,
      "ꁨ": 4531,
      "ꂤ": 4532,
      "ꂵ": 4533,
      "ꃄ": 4534,
      "ꃅ": 4535,
      "ꃺ": 4536,
      "ꃼ": 4537,
      "ꄡ": 4538,
      "ꄣ": 4539,
      "ꄤ": 4540,
      "ꄿ": 4541,
      "ꆃ": 4542,
      "ꆈ": 4543,
      "ꆧ": 4544,
      "ꆨ": 4545,
      "ꆪ": 4546,
      "ꇁ": 4547,
      "ꇊ": 4548,
      "ꇓ": 4549,
      "ꇗ": 4550,
      "ꈁ": 4551,
      "ꈎ": 4552,
      "ꈐ": 4553,
      "ꈑ": 4554,
      "ꈓ": 4555,
      "ꈜ": 4556,
      "ꈭ": 4557,
      "ꉳ": 4558,
      "ꉸ": 4559,
      "ꉻ": 4560,
      "ꉼ": 4561,
      "ꊇ": 4562,
      "ꊖ": 4563,
      "ꊨ": 4564,
      "ꊰ": 4565,
      "ꋍ": 4566,
      "ꌕ": 4567,
      "ꌠ": 4568,
      "ꍓ": 4569,
      "ꍤ": 4570,
      "ꍬ": 4571,
      "ꎬ": 4572,
      "ꎭ": 4573,
      "ꎴ": 4574,
      "ꏅ": 4575,
      "ꏢ": 4576,
      "ꏦ": 4577,
      "ꏧ": 4578,
      "ꐇ": 4579,
      "ꑤ": 4580,
      "ꑭ": 4581,
      "ꑷ": 4582,
      "ꓐ": 4583,
      "ꓒ": 4584,
      "ꓗ": 4585,
      "ꓚ": 4586,
      "ꓛ": 4587,
      "ꓝ": 4588,
      "ꓟ": 4589,
      "ꓠ": 4590,
      "ꓡ": 4591,
      "ꓢ": 4592,
      "ꓥ": 4593,
      "ꓩ": 4594,
      "ꓪ": 4595,
      "ꓫ": 4596,
      "ꓬ": 4597,
      "ꓯ": 4598,
      "ꓲ": 4599,
      "ꓳ": 4600,
      "ꓴ": 4601,
      "ꓵ": 4602,
      "ꓶ": 4603,
      "ꓸ": 4604,
      "ꓹ": 4605,
      "ꓼ": 4606,
      "ꓽ": 4607,
      "꓾": 4608,
      "ꔤ": 4609,
      "ꕙ": 4610,
      "Ꙁ": 4611,
      "Ꙅ": 4612,
      "ꙅ": 4613,
      "Ꙇ": 4614,
      "ꙇ": 4615,
      "Ꙉ": 4616,
      "ꙉ": 4617,
      "Ꙏ": 4618,
      "ꙏ": 4619,
      "Ꙑ": 4620,
      "ꙓ": 4621,
      "ꙕ": 4622,
      "Ꙗ": 4623,
      "ꙗ": 4624,
      "Ꙟ": 4625,
      "ꙟ": 4626,
      "Ꙣ": 4627,
      "ꙣ": 4628,
      "Ꙥ": 4629,
      "ꙥ": 4630,
      "Ꙧ": 4631,
      "ꙧ": 4632,
      "Ꙩ": 4633,
      "ꙩ": 4634,
      "Ꙫ": 4635,
      "ꙫ": 4636,
      "Ꙭ": 4637,
      "ꙭ": 4638,
      "ꙮ": 4639,
      "Ꚃ": 4640,
      "ꚃ": 4641,
      "Ꚅ": 4642,
      "ꚅ": 4643,
      "Ꚍ": 4644,
      "ꚍ": 4645,
      "Ꚏ": 4646,
      "ꚏ": 4647,
      "Ꚑ": 4648,
      "ꚑ": 4649,
      "Ꚗ": 4650,
      "ꚗ": 4651,
      "Ꚙ": 4652,
      "ꚙ": 4653,
      "Ꚛ": 4654,
      "ꚛ": 4655,
      "꜀": 4656,
      "꜁": 4657,
      "꜂": 4658,
      "꜃": 4659,
      "꜄": 4660,
      "꜅": 4661,
      "꜆": 4662,
      "꜇": 4663,
      "Ꜣ": 4664,
      "ꜣ": 4665,
      "ꜥ": 4666,
      "Ꜧ": 4667,
      "ꜧ": 4668,
      "ꝏ": 4669,
      "Ꝛ": 4670,
      "Ꝺ": 4671,
      "꞉": 4672,
      "ꞌ": 4673,
      "ꞏ": 4674,
      "Ꞑ": 4675,
      "ꞑ": 4676,
      "Ꞓ": 4677,
      "ꞓ": 4678,
      "ꞗ": 4679,
      "Ꞥ": 4680,
      "ꞥ": 4681,
      "ꟸ": 4682,
      "ꠁ": 4683,
      "ꠇ": 4684,
      "ꠊ": 4685,
      "ꠐ": 4686,
      "ꠘ": 4687,
      "ꠣ": 4688,
      "ꦁ": 4689,
      "ꦂ": 4690,
      "ꦏ": 4691,
      "ꦑ": 4692,
      "ꦔ": 4693,
      "ꦕ": 4694,
      "ꦗ": 4695,
      "ꦝ": 4696,
      "ꦠ": 4697,
      "ꦢ": 4698,
      "ꦤ": 4699,
      "ꦥ": 4700,
      "ꦩ": 4701,
      "ꦪ": 4702,
      "ꦫ": 4703,
      "ꦭ": 4704,
      "ꦮ": 4705,
      "ꦯ": 4706,
      "ꦱ": 4707,
      "ꦲ": 4708,
      "ꦴ": 4709,
      "ꦶ": 4710,
      "ꦸ": 4711,
      "ꦺ": 4712,
      "ꦼ": 4713,
      "ꦾ": 4714,
      "ꦿ": 4715,
      "꧀": 4716,
      "ꪶ": 4717,
      "ꯁ": 4718,
      "ꯄ": 4719,
      "ꯅ": 4720,
      "ꯔ": 4721,
      "ꯕ": 4722,
      "ꯤ": 4723,
      "ꯨ": 4724,
      "꯭": 4725,
      "가": 4726,
      "각": 4727,
      "간": 4728,
      "갈": 4729,
      "감": 4730,
      "갑": 4731,
      "갓": 4732,
      "갔": 4733,
      "강": 4734,
      "같": 4735,
      "개": 4736,
      "갠": 4737,
      "갱": 4738,
      "걀": 4739,
      "걔": 4740,
      "거": 4741,
      "건": 4742,
      "걷": 4743,
      "걸": 4744,
      "검": 4745,
      "겁": 4746,
      "것": 4747,
      "게": 4748,
      "겐": 4749,
      "겟": 4750,
      "겠": 4751,
      "겨": 4752,
      "격": 4753,
      "견": 4754,
      "결": 4755,
      "겸": 4756,
      "겹": 4757,
      "경": 4758,
      "곁": 4759,
      "계": 4760,
      "고": 4761,
      "곡": 4762,
      "곤": 4763,
      "곧": 4764,
      "골": 4765,
      "곰": 4766,
      "곱": 4767,
      "곳": 4768,
      "공": 4769,
      "곶": 4770,
      "과": 4771,
      "곽": 4772,
      "관": 4773,
      "광": 4774,
      "괜": 4775,
      "괴": 4776,
      "교": 4777,
      "구": 4778,
      "국": 4779,
      "군": 4780,
      "굳": 4781,
      "굴": 4782,
      "굵": 4783,
      "굿": 4784,
      "궁": 4785,
      "궈": 4786,
      "권": 4787,
      "궐": 4788,
      "귀": 4789,
      "귓": 4790,
      "규": 4791,
      "균": 4792,
      "그": 4793,
      "극": 4794,
      "근": 4795,
      "귿": 4796,
      "글": 4797,
      "금": 4798,
      "급": 4799,
      "긍": 4800,
      "기": 4801,
      "긴": 4802,
      "길": 4803,
      "김": 4804,
      "깃": 4805,
      "깊": 4806,
      "까": 4807,
      "깍": 4808,
      "깐": 4809,
      "깡": 4810,
      "깨": 4811,
      "꺼": 4812,
      "껌": 4813,
      "껑": 4814,
      "께": 4815,
      "꼬": 4816,
      "꼭": 4817,
      "꼴": 4818,
      "꼼": 4819,
      "꽃": 4820,
      "꽉": 4821,
      "꽤": 4822,
      "꽹": 4823,
      "꾸": 4824,
      "꾼": 4825,
      "꿀": 4826,
      "꿈": 4827,
      "꿍": 4828,
      "꿔": 4829,
      "꿨": 4830,
      "끄": 4831,
      "끈": 4832,
      "끌": 4833,
      "끗": 4834,
      "끝": 4835,
      "끼": 4836,
      "낀": 4837,
      "낌": 4838,
      "나": 4839,
      "낙": 4840,
      "난": 4841,
      "날": 4842,
      "낡": 4843,
      "남": 4844,
      "났": 4845,
      "낭": 4846,
      "낮": 4847,
      "낯": 4848,
      "내": 4849,
      "낸": 4850,
      "낼": 4851,
      "냄": 4852,
      "냐": 4853,
      "냥": 4854,
      "너": 4855,
      "넋": 4856,
      "넌": 4857,
      "널": 4858,
      "넘": 4859,
      "네": 4860,
      "넥": 4861,
      "넵": 4862,
      "넷": 4863,
      "녀": 4864,
      "녁": 4865,
      "년": 4866,
      "념": 4867,
      "녕": 4868,
      "녘": 4869,
      "노": 4870,
      "녹": 4871,
      "논": 4872,
      "놀": 4873,
      "놈": 4874,
      "농": 4875,
      "높": 4876,
      "놓": 4877,
      "뇌": 4878,
      "누": 4879,
      "눈": 4880,
      "눌": 4881,
      "눔": 4882,
      "뉴": 4883,
      "느": 4884,
      "늑": 4885,
      "는": 4886,
      "늘": 4887,
      "능": 4888,
      "늦": 4889,
      "늪": 4890,
      "니": 4891,
      "닉": 4892,
      "닐": 4893,
      "님": 4894,
      "닛": 4895,
      "닝": 4896,
      "다": 4897,
      "닥": 4898,
      "단": 4899,
      "닫": 4900,
      "달": 4901,
      "닭": 4902,
      "닮": 4903,
      "담": 4904,
      "답": 4905,
      "당": 4906,
      "닿": 4907,
      "대": 4908,
      "댁": 4909,
      "댄": 4910,
      "댓": 4911,
      "댔": 4912,
      "댕": 4913,
      "더": 4914,
      "덕": 4915,
      "던": 4916,
      "덜": 4917,
      "덤": 4918,
      "덩": 4919,
      "데": 4920,
      "델": 4921,
      "뎃": 4922,
      "뎐": 4923,
      "도": 4924,
      "독": 4925,
      "돈": 4926,
      "돋": 4927,
      "돌": 4928,
      "돗": 4929,
      "동": 4930,
      "돟": 4931,
      "돼": 4932,
      "됐": 4933,
      "되": 4934,
      "된": 4935,
      "될": 4936,
      "둏": 4937,
      "두": 4938,
      "둑": 4939,
      "둔": 4940,
      "둘": 4941,
      "둣": 4942,
      "둥": 4943,
      "뒤": 4944,
      "듀": 4945,
      "드": 4946,
      "득": 4947,
      "든": 4948,
      "듣": 4949,
      "들": 4950,
      "듭": 4951,
      "듯": 4952,
      "등": 4953,
      "디": 4954,
      "딕": 4955,
      "딘": 4956,
      "딜": 4957,
      "딤": 4958,
      "딥": 4959,
      "딧": 4960,
      "딪": 4961,
      "따": 4962,
      "딱": 4963,
      "딸": 4964,
      "땀": 4965,
      "땅": 4966,
      "때": 4967,
      "땐": 4968,
      "땡": 4969,
      "떠": 4970,
      "떡": 4971,
      "떤": 4972,
      "떨": 4973,
      "떫": 4974,
      "떳": 4975,
      "떴": 4976,
      "떵": 4977,
      "떻": 4978,
      "떼": 4979,
      "뗄": 4980,
      "또": 4981,
      "똥": 4982,
      "뚜": 4983,
      "뛰": 4984,
      "뜨": 4985,
      "뜬": 4986,
      "뜸": 4987,
      "띄": 4988,
      "띠": 4989,
      "띵": 4990,
      "라": 4991,
      "락": 4992,
      "란": 4993,
      "랄": 4994,
      "람": 4995,
      "랍": 4996,
      "랏": 4997,
      "랐": 4998,
      "랑": 4999,
      "랗": 5000,
      "래": 5001,
      "랙": 5002,
      "랜": 5003,
      "램": 5004,
      "랩": 5005,
      "랬": 5006,
      "랭": 5007,
      "략": 5008,
      "량": 5009,
      "러": 5010,
      "럭": 5011,
      "런": 5012,
      "럴": 5013,
      "럼": 5014,
      "럽": 5015,
      "럿": 5016,
      "렀": 5017,
      "렁": 5018,
      "렇": 5019,
      "레": 5020,
      "렉": 5021,
      "렌": 5022,
      "렐": 5023,
      "렘": 5024,
      "렙": 5025,
      "렛": 5026,
      "려": 5027,
      "력": 5028,
      "련": 5029,
      "렬": 5030,
      "렵": 5031,
      "렸": 5032,
      "령": 5033,
      "례": 5034,
      "로": 5035,
      "록": 5036,
      "론": 5037,
      "롤": 5038,
      "롬": 5039,
      "롭": 5040,
      "롯": 5041,
      "롱": 5042,
      "뢰": 5043,
      "료": 5044,
      "룡": 5045,
      "루": 5046,
      "룩": 5047,
      "룬": 5048,
      "룰": 5049,
      "룸": 5050,
      "룹": 5051,
      "뤄": 5052,
      "류": 5053,
      "륜": 5054,
      "률": 5055,
      "르": 5056,
      "른": 5057,
      "를": 5058,
      "름": 5059,
      "릇": 5060,
      "릉": 5061,
      "리": 5062,
      "릭": 5063,
      "린": 5064,
      "릴": 5065,
      "림": 5066,
      "립": 5067,
      "릿": 5068,
      "링": 5069,
      "마": 5070,
      "막": 5071,
      "만": 5072,
      "많": 5073,
      "말": 5074,
      "맑": 5075,
      "맘": 5076,
      "맙": 5077,
      "맛": 5078,
      "망": 5079,
      "맞": 5080,
      "매": 5081,
      "맥": 5082,
      "맨": 5083,
      "맷": 5084,
      "맹": 5085,
      "머": 5086,
      "먹": 5087,
      "먼": 5088,
      "멀": 5089,
      "멈": 5090,
      "멋": 5091,
      "멍": 5092,
      "메": 5093,
      "멜": 5094,
      "멤": 5095,
      "며": 5096,
      "면": 5097,
      "멸": 5098,
      "명": 5099,
      "몇": 5100,
      "모": 5101,
      "목": 5102,
      "몬": 5103,
      "몰": 5104,
      "몸": 5105,
      "몹": 5106,
      "못": 5107,
      "몽": 5108,
      "뫼": 5109,
      "묏": 5110,
      "묘": 5111,
      "무": 5112,
      "묵": 5113,
      "문": 5114,
      "물": 5115,
      "뭄": 5116,
      "뭊": 5117,
      "뭐": 5118,
      "뭔": 5119,
      "뭘": 5120,
      "뭣": 5121,
      "뮤": 5122,
      "므": 5123,
      "믕": 5124,
      "미": 5125,
      "믹": 5126,
      "민": 5127,
      "믿": 5128,
      "밀": 5129,
      "밍": 5130,
      "밑": 5131,
      "바": 5132,
      "박": 5133,
      "밖": 5134,
      "반": 5135,
      "받": 5136,
      "발": 5137,
      "밝": 5138,
      "밟": 5139,
      "밤": 5140,
      "밥": 5141,
      "방": 5142,
      "밭": 5143,
      "배": 5144,
      "백": 5145,
      "밴": 5146,
      "뱀": 5147,
      "뱃": 5148,
      "뱅": 5149,
      "뱉": 5150,
      "버": 5151,
      "벅": 5152,
      "번": 5153,
      "벌": 5154,
      "범": 5155,
      "법": 5156,
      "벚": 5157,
      "베": 5158,
      "벤": 5159,
      "벨": 5160,
      "벼": 5161,
      "벽": 5162,
      "변": 5163,
      "별": 5164,
      "병": 5165,
      "보": 5166,
      "복": 5167,
      "볶": 5168,
      "본": 5169,
      "볼": 5170,
      "봄": 5171,
      "봇": 5172,
      "봉": 5173,
      "봐": 5174,
      "봔": 5175,
      "봤": 5176,
      "부": 5177,
      "북": 5178,
      "분": 5179,
      "불": 5180,
      "붉": 5181,
      "붐": 5182,
      "붕": 5183,
      "붙": 5184,
      "뷔": 5185,
      "뷰": 5186,
      "브": 5187,
      "븐": 5188,
      "블": 5189,
      "비": 5190,
      "빅": 5191,
      "빈": 5192,
      "빌": 5193,
      "빔": 5194,
      "빗": 5195,
      "빙": 5196,
      "빛": 5197,
      "빠": 5198,
      "빤": 5199,
      "빨": 5200,
      "빵": 5201,
      "뻐": 5202,
      "뻑": 5203,
      "뻔": 5204,
      "뻬": 5205,
      "뽀": 5206,
      "뽐": 5207,
      "뽕": 5208,
      "뿅": 5209,
      "뿌": 5210,
      "뿐": 5211,
      "뿔": 5212,
      "뿜": 5213,
      "뿡": 5214,
      "쀼": 5215,
      "쁘": 5216,
      "쁜": 5217,
      "쁠": 5218,
      "쁨": 5219,
      "삐": 5220,
      "삠": 5221,
      "사": 5222,
      "삭": 5223,
      "산": 5224,
      "살": 5225,
      "삶": 5226,
      "삼": 5227,
      "삿": 5228,
      "상": 5229,
      "새": 5230,
      "색": 5231,
      "샌": 5232,
      "생": 5233,
      "샤": 5234,
      "샬": 5235,
      "샴": 5236,
      "서": 5237,
      "석": 5238,
      "선": 5239,
      "섣": 5240,
      "설": 5241,
      "섬": 5242,
      "섭": 5243,
      "섯": 5244,
      "성": 5245,
      "세": 5246,
      "센": 5247,
      "셀": 5248,
      "셋": 5249,
      "셔": 5250,
      "션": 5251,
      "셜": 5252,
      "셨": 5253,
      "셰": 5254,
      "소": 5255,
      "속": 5256,
      "손": 5257,
      "솔": 5258,
      "솜": 5259,
      "송": 5260,
      "쇠": 5261,
      "쇼": 5262,
      "숀": 5263,
      "숏": 5264,
      "숑": 5265,
      "수": 5266,
      "숙": 5267,
      "순": 5268,
      "술": 5269,
      "숨": 5270,
      "숩": 5271,
      "숭": 5272,
      "숲": 5273,
      "쉐": 5274,
      "쉘": 5275,
      "쉬": 5276,
      "쉽": 5277,
      "쉿": 5278,
      "슈": 5279,
      "슌": 5280,
      "슛": 5281,
      "스": 5282,
      "슨": 5283,
      "슬": 5284,
      "슴": 5285,
      "습": 5286,
      "슷": 5287,
      "승": 5288,
      "슼": 5289,
      "시": 5290,
      "식": 5291,
      "신": 5292,
      "싣": 5293,
      "실": 5294,
      "싫": 5295,
      "심": 5296,
      "십": 5297,
      "싱": 5298,
      "싶": 5299,
      "싸": 5300,
      "쌀": 5301,
      "쌈": 5302,
      "쌍": 5303,
      "쌓": 5304,
      "써": 5305,
      "썰": 5306,
      "썸": 5307,
      "쎈": 5308,
      "쏘": 5309,
      "쏙": 5310,
      "쏜": 5311,
      "쏟": 5312,
      "쏭": 5313,
      "쏴": 5314,
      "쑤": 5315,
      "쓰": 5316,
      "쓸": 5317,
      "씁": 5318,
      "씨": 5319,
      "씬": 5320,
      "씻": 5321,
      "아": 5322,
      "악": 5323,
      "안": 5324,
      "앉": 5325,
      "않": 5326,
      "알": 5327,
      "앓": 5328,
      "암": 5329,
      "압": 5330,
      "았": 5331,
      "앙": 5332,
      "앞": 5333,
      "애": 5334,
      "앤": 5335,
      "앨": 5336,
      "앰": 5337,
      "앵": 5338,
      "야": 5339,
      "약": 5340,
      "얀": 5341,
      "얄": 5342,
      "얌": 5343,
      "양": 5344,
      "얘": 5345,
      "어": 5346,
      "억": 5347,
      "언": 5348,
      "얻": 5349,
      "얼": 5350,
      "엄": 5351,
      "업": 5352,
      "없": 5353,
      "었": 5354,
      "엉": 5355,
      "에": 5356,
      "엑": 5357,
      "엔": 5358,
      "엘": 5359,
      "엠": 5360,
      "엣": 5361,
      "여": 5362,
      "역": 5363,
      "연": 5364,
      "열": 5365,
      "염": 5366,
      "엽": 5367,
      "엿": 5368,
      "였": 5369,
      "영": 5370,
      "예": 5371,
      "옛": 5372,
      "오": 5373,
      "옥": 5374,
      "온": 5375,
      "올": 5376,
      "옵": 5377,
      "옷": 5378,
      "옹": 5379,
      "와": 5380,
      "완": 5381,
      "왔": 5382,
      "왕": 5383,
      "왜": 5384,
      "왠": 5385,
      "외": 5386,
      "요": 5387,
      "욘": 5388,
      "용": 5389,
      "우": 5390,
      "욱": 5391,
      "운": 5392,
      "울": 5393,
      "움": 5394,
      "웃": 5395,
      "웅": 5396,
      "워": 5397,
      "웍": 5398,
      "원": 5399,
      "월": 5400,
      "웜": 5401,
      "웨": 5402,
      "웬": 5403,
      "웰": 5404,
      "웹": 5405,
      "웽": 5406,
      "위": 5407,
      "윈": 5408,
      "윌": 5409,
      "윙": 5410,
      "유": 5411,
      "육": 5412,
      "윤": 5413,
      "율": 5414,
      "융": 5415,
      "으": 5416,
      "윽": 5417,
      "은": 5418,
      "읃": 5419,
      "을": 5420,
      "음": 5421,
      "읍": 5422,
      "읏": 5423,
      "응": 5424,
      "읒": 5425,
      "읖": 5426,
      "읗": 5427,
      "의": 5428,
      "이": 5429,
      "익": 5430,
      "인": 5431,
      "일": 5432,
      "읽": 5433,
      "잃": 5434,
      "임": 5435,
      "입": 5436,
      "잇": 5437,
      "있": 5438,
      "잉": 5439,
      "잊": 5440,
      "잎": 5441,
      "자": 5442,
      "작": 5443,
      "잔": 5444,
      "잖": 5445,
      "잘": 5446,
      "잠": 5447,
      "잡": 5448,
      "장": 5449,
      "재": 5450,
      "쟁": 5451,
      "쟈": 5452,
      "쟤": 5453,
      "저": 5454,
      "적": 5455,
      "전": 5456,
      "절": 5457,
      "젊": 5458,
      "점": 5459,
      "접": 5460,
      "젓": 5461,
      "정": 5462,
      "제": 5463,
      "젝": 5464,
      "젠": 5465,
      "젤": 5466,
      "젯": 5467,
      "져": 5468,
      "젼": 5469,
      "졌": 5470,
      "조": 5471,
      "족": 5472,
      "존": 5473,
      "졸": 5474,
      "좀": 5475,
      "종": 5476,
      "좋": 5477,
      "좌": 5478,
      "죄": 5479,
      "죠": 5480,
      "죤": 5481,
      "주": 5482,
      "죽": 5483,
      "준": 5484,
      "줄": 5485,
      "줏": 5486,
      "중": 5487,
      "줘": 5488,
      "쥐": 5489,
      "쥬": 5490,
      "즈": 5491,
      "즌": 5492,
      "즐": 5493,
      "즘": 5494,
      "증": 5495,
      "지": 5496,
      "직": 5497,
      "진": 5498,
      "질": 5499,
      "짐": 5500,
      "집": 5501,
      "짓": 5502,
      "징": 5503,
      "짜": 5504,
      "짝": 5505,
      "짠": 5506,
      "짬": 5507,
      "짱": 5508,
      "째": 5509,
      "쩌": 5510,
      "쩐": 5511,
      "쩜": 5512,
      "쩡": 5513,
      "쫓": 5514,
      "쭈": 5515,
      "쯔": 5516,
      "쯤": 5517,
      "쯧": 5518,
      "찌": 5519,
      "찍": 5520,
      "찐": 5521,
      "찔": 5522,
      "찜": 5523,
      "차": 5524,
      "착": 5525,
      "찬": 5526,
      "찮": 5527,
      "찰": 5528,
      "참": 5529,
      "창": 5530,
      "찾": 5531,
      "채": 5532,
      "책": 5533,
      "챈": 5534,
      "챌": 5535,
      "챔": 5536,
      "챙": 5537,
      "챠": 5538,
      "처": 5539,
      "척": 5540,
      "천": 5541,
      "철": 5542,
      "첩": 5543,
      "첫": 5544,
      "청": 5545,
      "체": 5546,
      "쳐": 5547,
      "쳤": 5548,
      "초": 5549,
      "촉": 5550,
      "촌": 5551,
      "총": 5552,
      "촨": 5553,
      "최": 5554,
      "쵸": 5555,
      "추": 5556,
      "축": 5557,
      "춘": 5558,
      "출": 5559,
      "춤": 5560,
      "충": 5561,
      "춰": 5562,
      "취": 5563,
      "츄": 5564,
      "츠": 5565,
      "층": 5566,
      "치": 5567,
      "칙": 5568,
      "친": 5569,
      "칠": 5570,
      "침": 5571,
      "칫": 5572,
      "칭": 5573,
      "카": 5574,
      "칸": 5575,
      "칼": 5576,
      "캉": 5577,
      "캐": 5578,
      "캔": 5579,
      "캠": 5580,
      "커": 5581,
      "컨": 5582,
      "컬": 5583,
      "컴": 5584,
      "컷": 5585,
      "케": 5586,
      "켄": 5587,
      "켓": 5588,
      "켜": 5589,
      "코": 5590,
      "콘": 5591,
      "콜": 5592,
      "콤": 5593,
      "콩": 5594,
      "쾅": 5595,
      "쿠": 5596,
      "쿡": 5597,
      "쿤": 5598,
      "쿨": 5599,
      "쿵": 5600,
      "퀘": 5601,
      "퀴": 5602,
      "퀸": 5603,
      "큐": 5604,
      "큘": 5605,
      "크": 5606,
      "큰": 5607,
      "클": 5608,
      "큼": 5609,
      "키": 5610,
      "킨": 5611,
      "킬": 5612,
      "킴": 5613,
      "킷": 5614,
      "킹": 5615,
      "타": 5616,
      "탁": 5617,
      "탄": 5618,
      "탈": 5619,
      "탐": 5620,
      "탑": 5621,
      "탕": 5622,
      "태": 5623,
      "택": 5624,
      "탤": 5625,
      "탱": 5626,
      "터": 5627,
      "턴": 5628,
      "털": 5629,
      "테": 5630,
      "텍": 5631,
      "텐": 5632,
      "텔": 5633,
      "토": 5634,
      "톤": 5635,
      "톨": 5636,
      "통": 5637,
      "퇴": 5638,
      "툇": 5639,
      "투": 5640,
      "툴": 5641,
      "퉁": 5642,
      "퉜": 5643,
      "튀": 5644,
      "튜": 5645,
      "튠": 5646,
      "트": 5647,
      "특": 5648,
      "튼": 5649,
      "틀": 5650,
      "틈": 5651,
      "틔": 5652,
      "티": 5653,
      "틱": 5654,
      "틴": 5655,
      "틸": 5656,
      "팀": 5657,
      "팅": 5658,
      "파": 5659,
      "판": 5660,
      "팔": 5661,
      "팝": 5662,
      "팠": 5663,
      "팡": 5664,
      "패": 5665,
      "팩": 5666,
      "팬": 5667,
      "팰": 5668,
      "팽": 5669,
      "퍼": 5670,
      "펀": 5671,
      "펑": 5672,
      "페": 5673,
      "펙": 5674,
      "펜": 5675,
      "펠": 5676,
      "편": 5677,
      "평": 5678,
      "포": 5679,
      "폭": 5680,
      "폰": 5681,
      "폴": 5682,
      "폼": 5683,
      "퐁": 5684,
      "표": 5685,
      "푸": 5686,
      "푼": 5687,
      "풀": 5688,
      "품": 5689,
      "풋": 5690,
      "풍": 5691,
      "퓨": 5692,
      "프": 5693,
      "픈": 5694,
      "플": 5695,
      "픔": 5696,
      "피": 5697,
      "픽": 5698,
      "핀": 5699,
      "필": 5700,
      "핑": 5701,
      "하": 5702,
      "학": 5703,
      "한": 5704,
      "할": 5705,
      "함": 5706,
      "합": 5707,
      "핫": 5708,
      "항": 5709,
      "해": 5710,
      "핵": 5711,
      "핸": 5712,
      "햄": 5713,
      "햇": 5714,
      "했": 5715,
      "행": 5716,
      "향": 5717,
      "허": 5718,
      "헌": 5719,
      "험": 5720,
      "헛": 5721,
      "헝": 5722,
      "헤": 5723,
      "헨": 5724,
      "헬": 5725,
      "헷": 5726,
      "혀": 5727,
      "혁": 5728,
      "현": 5729,
      "혈": 5730,
      "혐": 5731,
      "협": 5732,
      "형": 5733,
      "혜": 5734,
      "호": 5735,
      "혹": 5736,
      "혼": 5737,
      "홀": 5738,
      "홈": 5739,
      "홉": 5740,
      "홍": 5741,
      "화": 5742,
      "확": 5743,
      "환": 5744,
      "활": 5745,
      "황": 5746,
      "회": 5747,
      "획": 5748,
      "효": 5749,
      "후": 5750,
      "훈": 5751,
      "훤": 5752,
      "훼": 5753,
      "휘": 5754,
      "휴": 5755,
      "흉": 5756,
      "흐": 5757,
      "흑": 5758,
      "흔": 5759,
      "흘": 5760,
      "흙": 5761,
      "흠": 5762,
      "흡": 5763,
      "흥": 5764,
      "희": 5765,
      "흰": 5766,
      "히": 5767,
      "힐": 5768,
      "힘": 5769,
      "힙": 5770,
      "": 5771,
      "": 5772,
      "": 5773,
      "": 5774,
      "": 5775,
      "": 5776,
      "": 5777,
      "": 5778,
      "": 5779,
      "": 5780,
      "": 5781,
      "": 5782,
      "": 5783,
      "": 5784,
      "": 5785,
      "": 5786,
      "": 5787,
      "": 5788,
      "": 5789,
      "": 5790,
      "": 5791,
      "": 5792,
      "": 5793,
      "": 5794,
      "": 5795,
      "": 5796,
      "": 5797,
      "": 5798,
      "": 5799,
      "": 5800,
      "": 5801,
      "": 5802,
      "": 5803,
      "": 5804,
      "": 5805,
      "": 5806,
      "": 5807,
      "": 5808,
      "": 5809,
      "": 5810,
      "": 5811,
      "": 5812,
      "": 5813,
      "": 5814,
      "": 5815,
      "": 5816,
      "": 5817,
      "": 5818,
      "": 5819,
      "": 5820,
      "": 5821,
      "": 5822,
      "": 5823,
      "": 5824,
      "": 5825,
      "": 5826,
      "": 5827,
      "": 5828,
      "": 5829,
      "": 5830,
      "﨎": 5831,
      "﨏": 5832,
      "塚": 5833,
      "﨑": 5834,
      "﨓": 5835,
      "﨔": 5836,
      "羽": 5837,
      "﨟": 5838,
      "﨡": 5839,
      "﨣": 5840,
      "﨤": 5841,
      "﨧": 5842,
      "﨨": 5843,
      "﨩": 5844,
      "ﬀ": 5845,
      "ﬁ": 5846,
      "ﬂ": 5847,
      "ﬃ": 5848,
      "ﬄ": 5849,
      "ﬅ": 5850,
      "ﬆ": 5851,
      "ﭪ": 5852,
      "ﭼ": 5853,
      "ﯩ": 5854,
      "﷼": 5855,
      "︀": 5856,
      "︁": 5857,
      "︌": 5858,
      "︎": 5859,
      "️": 5860,
      "︔": 5861,
      "︰": 5862,
      "︱": 5863,
      "︲": 5864,
      "︴": 5865,
      "︶": 5866,
      "︹": 5867,
      "︺": 5868,
      "︽": 5869,
      "︾": 5870,
      "︿": 5871,
      "﹀": 5872,
      "﹁": 5873,
      "﹂": 5874,
      "﹃": 5875,
      "﹄": 5876,
      "﹋": 5877,
      "﹌": 5878,
      "﹍": 5879,
      "﹏": 5880,
      "﹐": 5881,
      "﹑": 5882,
      "﹒": 5883,
      "﹔": 5884,
      "﹕": 5885,
      "﹖": 5886,
      "﹗": 5887,
      "﹙": 5888,
      "﹚": 5889,
      "﹝": 5890,
      "﹞": 5891,
      "﹟": 5892,
      "﹠": 5893,
      "﹡": 5894,
      "﹣": 5895,
      "﹥": 5896,
      "﹩": 5897,
      "﹪": 5898,
      "ﺍ": 5899,
      "ﺎ": 5900,
      "ﺐ": 5901,
      "ﺑ": 5902,
      "ﺒ": 5903,
      "ﺓ": 5904,
      "ﺔ": 5905,
      "ﺝ": 5906,
      "ﺡ": 5907,
      "ﺣ": 5908,
      "ﺩ": 5909,
      "ﺪ": 5910,
      "ﺭ": 5911,
      "ﺮ": 5912,
      "ﺳ": 5913,
      "ﻋ": 5914,
      "ﻌ": 5915,
      "ﻐ": 5916,
      "ﻓ": 5917,
      "ﻕ": 5918,
      "ﻙ": 5919,
      "ﻞ": 5920,
      "ﻟ": 5921,
      "ﻠ": 5922,
      "ﻧ": 5923,
      "ﻪ": 5924,
      "ﻫ": 5925,
      "ﻮ": 5926,
      "ﻲ": 5927,
      "ﻴ": 5928,
      "﻿": 5929,
      "＂": 5930,
      "＃": 5931,
      "＄": 5932,
      "％": 5933,
      "＆": 5934,
      "＇": 5935,
      "＊": 5936,
      "＋": 5937,
      "－": 5938,
      "．": 5939,
      "／": 5940,
      "０": 5941,
      "１": 5942,
      "２": 5943,
      "３": 5944,
      "４": 5945,
      "５": 5946,
      "６": 5947,
      "７": 5948,
      "８": 5949,
      "９": 5950,
      "＜": 5951,
      "＝": 5952,
      "＞": 5953,
      "＠": 5954,
      "Ａ": 5955,
      "Ｂ": 5956,
      "Ｃ": 5957,
      "Ｄ": 5958,
      "Ｅ": 5959,
      "Ｆ": 5960,
      "Ｇ": 5961,
      "Ｈ": 5962,
      "Ｉ": 5963,
      "Ｊ": 5964,
      "Ｋ": 5965,
      "Ｌ": 5966,
      "Ｍ": 5967,
      "Ｎ": 5968,
      "Ｏ": 5969,
      "Ｐ": 5970,
      "Ｑ": 5971,
      "Ｒ": 5972,
      "Ｓ": 5973,
      "Ｔ": 5974,
      "Ｕ": 5975,
      "Ｖ": 5976,
      "Ｗ": 5977,
      "Ｘ": 5978,
      "Ｙ": 5979,
      "Ｚ": 5980,
      "［": 5981,
      "＼": 5982,
      "］": 5983,
      "＾": 5984,
      "＿": 5985,
      "｀": 5986,
      "ａ": 5987,
      "ｂ": 5988,
      "ｃ": 5989,
      "ｄ": 5990,
      "ｅ": 5991,
      "ｆ": 5992,
      "ｇ": 5993,
      "ｈ": 5994,
      "ｉ": 5995,
      "ｊ": 5996,
      "ｌ": 5997,
      "ｍ": 5998,
      "ｎ": 5999,
      "ｏ": 6000,
      "ｐ": 6001,
      "ｑ": 6002,
      "ｒ": 6003,
      "ｓ": 6004,
      "ｔ": 6005,
      "ｕ": 6006,
      "ｖ": 6007,
      "ｗ": 6008,
      "ｘ": 6009,
      "ｙ": 6010,
      "｛": 6011,
      "｜": 6012,
      "｝": 6013,
      "～": 6014,
      "｡": 6015,
      "｢": 6016,
      "｣": 6017,
      "､": 6018,
      "･": 6019,
      "ｦ": 6020,
      "ｧ": 6021,
      "ｨ": 6022,
      "ｪ": 6023,
      "ｫ": 6024,
      "ｬ": 6025,
      "ｭ": 6026,
      "ｯ": 6027,
      "ｰ": 6028,
      "ｱ": 6029,
      "ｲ": 6030,
      "ｳ": 6031,
      "ｴ": 6032,
      "ｵ": 6033,
      "ｶ": 6034,
      "ｷ": 6035,
      "ｸ": 6036,
      "ｹ": 6037,
      "ｺ": 6038,
      "ｻ": 6039,
      "ｼ": 6040,
      "ｽ": 6041,
      "ｾ": 6042,
      "ｿ": 6043,
      "ﾀ": 6044,
      "ﾁ": 6045,
      "ﾂ": 6046,
      "ﾃ": 6047,
      "ﾄ": 6048,
      "ﾅ": 6049,
      "ﾈ": 6050,
      "ﾉ": 6051,
      "ﾊ": 6052,
      "ﾋ": 6053,
      "ﾌ": 6054,
      "ﾍ": 6055,
      "ﾎ": 6056,
      "ﾏ": 6057,
      "ﾐ": 6058,
      "ﾑ": 6059,
      "ﾒ": 6060,
      "ﾓ": 6061,
      "ﾔ": 6062,
      "ﾗ": 6063,
      "ﾘ": 6064,
      "ﾙ": 6065,
      "ﾚ": 6066,
      "ﾛ": 6067,
      "ﾜ": 6068,
      "ﾝ": 6069,
      "ﾞ": 6070,
      "ﾟ": 6071,
      "￠": 6072,
      "￡": 6073,
      "￢": 6074,
      "￣": 6075,
      "￥": 6076,
      "￦": 6077,
      "￼": 6078,
      "�": 6079,
      "𐀀": 6080,
      "𐀄": 6081,
      "𐀏": 6082,
      "𐀐": 6083,
      "𐀙": 6084,
      "𐀞": 6085,
      "𐀣": 6086,
      "𐀩": 6087,
      "𐀫": 6088,
      "𐀭": 6089,
      "𐀯": 6090,
      "𐀷": 6091,
      "𐅀": 6092,
      "𐅁": 6093,
      "𐅂": 6094,
      "𐅆": 6095,
      "𐅗": 6096,
      "𐌀": 6097,
      "𐌄": 6098,
      "𐌉": 6099,
      "𐌓": 6100,
      "𐌕": 6101,
      "𐌰": 6102,
      "𐌳": 6103,
      "𐌻": 6104,
      "𐌼": 6105,
      "𐌿": 6106,
      "𐎊": 6107,
      "𐎌": 6108,
      "𐎍": 6109,
      "𐎗": 6110,
      "𐎛": 6111,
      "𐎠": 6112,
      "𐎡": 6113,
      "𐎢": 6114,
      "𐎣": 6115,
      "𐎥": 6116,
      "𐎧": 6117,
      "𐎩": 6118,
      "𐎫": 6119,
      "𐎭": 6120,
      "𐎱": 6121,
      "𐎴": 6122,
      "𐎶": 6123,
      "𐎷": 6124,
      "𐎹": 6125,
      "𐎺": 6126,
      "𐎼": 6127,
      "𐎿": 6128,
      "𐏀": 6129,
      "𐏁": 6130,
      "𐏂": 6131,
      "𐏃": 6132,
      "𐏋": 6133,
      "𐏎": 6134,
      "𐏐": 6135,
      "𐐦": 6136,
      "𐐧": 6137,
      "𐐷": 6138,
      "𐑎": 6139,
      "𐑏": 6140,
      "𐓁": 6141,
      "𐓂": 6142,
      "𐓏": 6143,
      "𐓘": 6144,
      "𐓟": 6145,
      "𐓣": 6146,
      "𐓤": 6147,
      "𐓯": 6148,
      "𐓻": 6149,
      "𐡂": 6150,
      "𐡍": 6151,
      "𐡔": 6152,
      "𐤀": 6153,
      "𐤁": 6154,
      "𐤂": 6155,
      "𐤃": 6156,
      "𐤄": 6157,
      "𐤅": 6158,
      "𐤇": 6159,
      "𐤈": 6160,
      "𐤉": 6161,
      "𐤋": 6162,
      "𐤌": 6163,
      "𐤍": 6164,
      "𐤏": 6165,
      "𐤐": 6166,
      "𐤑": 6167,
      "𐤓": 6168,
      "𐤔": 6169,
      "𐤕": 6170,
      "𐤠": 6171,
      "𐤣": 6172,
      "𐤦": 6173,
      "𐤭": 6174,
      "𐤮": 6175,
      "𐤯": 6176,
      "𐤱": 6177,
      "𐤳": 6178,
      "𐤶": 6179,
      "𐨀": 6180,
      "𐨁": 6181,
      "𐨂": 6182,
      "𐨅": 6183,
      "𐨆": 6184,
      "𐨐": 6185,
      "𐨒": 6186,
      "𐨗": 6187,
      "𐨞": 6188,
      "𐨢": 6189,
      "𐨣": 6190,
      "𐨨": 6191,
      "𐨩": 6192,
      "𐨪": 6193,
      "𐨫": 6194,
      "𐨬": 6195,
      "𐨮": 6196,
      "𐨯": 6197,
      "𐨿": 6198,
      "𐩢": 6199,
      "𐩣": 6200,
      "𐩨": 6201,
      "𐩪": 6202,
      "𐩬": 6203,
      "𐩯": 6204,
      "𐩱": 6205,
      "𐩵": 6206,
      "𐩶": 6207,
      "𐩺": 6208,
      "𐩽": 6209,
      "𐪆": 6210,
      "𐪌": 6211,
      "𐪔": 6212,
      "𐬀": 6213,
      "𐬉": 6214,
      "𐬌": 6215,
      "𐬎": 6216,
      "𐬑": 6217,
      "𐬖": 6218,
      "𐬙": 6219,
      "𐬛": 6220,
      "𐬞": 6221,
      "𐬠": 6222,
      "𐬨": 6223,
      "𐬫": 6224,
      "𐬯": 6225,
      "𐬱": 6226,
      "𐬴": 6227,
      "𐭀": 6228,
      "𐭃": 6229,
      "𐭅": 6230,
      "𐭉": 6231,
      "𐭊": 6232,
      "𐭋": 6233,
      "𐭌": 6234,
      "𐭍": 6235,
      "𐭎": 6236,
      "𐭐": 6237,
      "𐭓": 6238,
      "𐭕": 6239,
      "𐭠": 6240,
      "𐭢": 6241,
      "𐭣": 6242,
      "𐭥": 6243,
      "𐭦": 6244,
      "𐭧": 6245,
      "𐭩": 6246,
      "𐭪": 6247,
      "𐭫": 6248,
      "𐭬": 6249,
      "𐭭": 6250,
      "𐭮": 6251,
      "𐭯": 6252,
      "𐭱": 6253,
      "𐭲": 6254,
      "𐰀": 6255,
      "𐰃": 6256,
      "𐰆": 6257,
      "𐰇": 6258,
      "𐰉": 6259,
      "𐰋": 6260,
      "𐰍": 6261,
      "𐰏": 6262,
      "𐰑": 6263,
      "𐰓": 6264,
      "𐰔": 6265,
      "𐰖": 6266,
      "𐰘": 6267,
      "𐰚": 6268,
      "𐰛": 6269,
      "𐰜": 6270,
      "𐰞": 6271,
      "𐰠": 6272,
      "𐰢": 6273,
      "𐰣": 6274,
      "𐰤": 6275,
      "𐰯": 6276,
      "𐰰": 6277,
      "𐰲": 6278,
      "𐰴": 6279,
      "𐰵": 6280,
      "𐰼": 6281,
      "𐰾": 6282,
      "𐱁": 6283,
      "𐱃": 6284,
      "𐱅": 6285,
      "𑀁": 6286,
      "𑀆": 6287,
      "𑀉": 6288,
      "𑀏": 6289,
      "𑀓": 6290,
      "𑀕": 6291,
      "𑀘": 6292,
      "𑀚": 6293,
      "𑀜": 6294,
      "𑀡": 6295,
      "𑀢": 6296,
      "𑀣": 6297,
      "𑀤": 6298,
      "𑀥": 6299,
      "𑀦": 6300,
      "𑀧": 6301,
      "𑀪": 6302,
      "𑀫": 6303,
      "𑀬": 6304,
      "𑀭": 6305,
      "𑀯": 6306,
      "𑀱": 6307,
      "𑀲": 6308,
      "𑀳": 6309,
      "𑀸": 6310,
      "𑀺": 6311,
      "𑀻": 6312,
      "𑀼": 6313,
      "𑁂": 6314,
      "𑁄": 6315,
      "𑁆": 6316,
      "𑁇": 6317,
      "𑁈": 6318,
      "𑜃": 6319,
      "𑜄": 6320,
      "𑜈": 6321,
      "𑜌": 6322,
      "𑜘": 6323,
      "𑜞": 6324,
      "𑜡": 6325,
      "𑢹": 6326,
      "𑣉": 6327,
      "𑣋": 6328,
      "𑣎": 6329,
      "𑣜": 6330,
      "𒀀": 6331,
      "𒀊": 6332,
      "𒀭": 6333,
      "𒀾": 6334,
      "𒁀": 6335,
      "𒁄": 6336,
      "𒁉": 6337,
      "𒁕": 6338,
      "𒁺": 6339,
      "𒂅": 6340,
      "𒂊": 6341,
      "𒂍": 6342,
      "𒂗": 6343,
      "𒂠": 6344,
      "𒂦": 6345,
      "𒂵": 6346,
      "𒃶": 6347,
      "𒃷": 6348,
      "𒃻": 6349,
      "𒄀": 6350,
      "𒄑": 6351,
      "𒄖": 6352,
      "𒄠": 6353,
      "𒄩": 6354,
      "𒄭": 6355,
      "𒄿": 6356,
      "𒅀": 6357,
      "𒅅": 6358,
      "𒅇": 6359,
      "𒅈": 6360,
      "𒅋": 6361,
      "𒅖": 6362,
      "𒅘": 6363,
      "𒆕": 6364,
      "𒆠": 6365,
      "𒆤": 6366,
      "𒆧": 6367,
      "𒆪": 6368,
      "𒆬": 6369,
      "𒆳": 6370,
      "𒆷": 6371,
      "𒈗": 6372,
      "𒈠": 6373,
      "𒈦": 6374,
      "𒈨": 6375,
      "𒈪": 6376,
      "𒈬": 6377,
      "𒈹": 6378,
      "𒈾": 6379,
      "𒉌": 6380,
      "𒉣": 6381,
      "𒉺": 6382,
      "𒊏": 6383,
      "𒊓": 6384,
      "𒊭": 6385,
      "𒊷": 6386,
      "𒊹": 6387,
      "𒊺": 6388,
      "𒋗": 6389,
      "𒋤": 6390,
      "𒋫": 6391,
      "𒋼": 6392,
      "𒋾": 6393,
      "𒌆": 6394,
      "𒌇": 6395,
      "𒌍": 6396,
      "𒌑": 6397,
      "𒌓": 6398,
      "𒌦": 6399,
      "𒌵": 6400,
      "𒌷": 6401,
      "𒍣": 6402,
      "𒍪": 6403,
      "𒐼": 6404,
      "𓁹": 6405,
      "𓂋": 6406,
      "𓂜": 6407,
      "𓂝": 6408,
      "𓃣": 6409,
      "𓃱": 6410,
      "𓄿": 6411,
      "𓅓": 6412,
      "𓅱": 6413,
      "𓆎": 6414,
      "𓆑": 6415,
      "𓆓": 6416,
      "𓆰": 6417,
      "𓇋": 6418,
      "𓇽": 6419,
      "𓈈": 6420,
      "𓈉": 6421,
      "𓈖": 6422,
      "𓈗": 6423,
      "𓉐": 6424,
      "𓉴": 6425,
      "𓊖": 6426,
      "𓊪": 6427,
      "𓋊": 6428,
      "𓍋": 6429,
      "𓍘": 6430,
      "𓎡": 6431,
      "𓏏": 6432,
      "𓐍": 6433,
      "𓐝": 6434,
      "𖩃": 6435,
      "𖩑": 6436,
      "𖩓": 6437,
      "𖿣": 6438,
      "𗎁": 6439,
      "𗸯": 6440,
      "𘄊": 6441,
      "𘘣": 6442,
      "𘜶": 6443,
      "𘟙": 6444,
      "𘮒": 6445,
      "𘱚": 6446,
      "𘱤": 6447,
      "𘱿": 6448,
      "𛀸": 6449,
      "𛁈": 6450,
      "𛄟": 6451,
      "𛄡": 6452,
      "𛄢": 6453,
      "𜻏": 6454,
      "𝄂": 6455,
      "𝄆": 6456,
      "𝄇": 6457,
      "𝄪": 6458,
      "𝄫": 6459,
      "𝅝": 6460,
      "𝋀": 6461,
      "𝋁": 6462,
      "𝋂": 6463,
      "𝋅": 6464,
      "𝋆": 6465,
      "𝋇": 6466,
      "𝋌": 6467,
      "𝋑": 6468,
      "𝌀": 6469,
      "𝐀": 6470,
      "𝐁": 6471,
      "𝐂": 6472,
      "𝐄": 6473,
      "𝐅": 6474,
      "𝐆": 6475,
      "𝐇": 6476,
      "𝐈": 6477,
      "𝐉": 6478,
      "𝐊": 6479,
      "𝐋": 6480,
      "𝐌": 6481,
      "𝐍": 6482,
      "𝐎": 6483,
      "𝐑": 6484,
      "𝐒": 6485,
      "𝐓": 6486,
      "𝐔": 6487,
      "𝐖": 6488,
      "𝐗": 6489,
      "𝐘": 6490,
      "𝐞": 6491,
      "𝐡": 6492,
      "𝐢": 6493,
      "𝐥": 6494,
      "𝐦": 6495,
      "𝐫": 6496,
      "𝐬": 6497,
      "𝐴": 6498,
      "𝐵": 6499,
      "𝐶": 6500,
      "𝐸": 6501,
      "𝐹": 6502,
      "𝐻": 6503,
      "𝐾": 6504,
      "𝑀": 6505,
      "𝑂": 6506,
      "𝑄": 6507,
      "𝑇": 6508,
      "𝑋": 6509,
      "𝑑": 6510,
      "𝑓": 6511,
      "𝑗": 6512,
      "𝑘": 6513,
      "𝑛": 6514,
      "𝑝": 6515,
      "𝑦": 6516,
      "𝑨": 6517,
      "𝑪": 6518,
      "𝑫": 6519,
      "𝑯": 6520,
      "𝑱": 6521,
      "𝑳": 6522,
      "𝑵": 6523,
      "𝑹": 6524,
      "𝑺": 6525,
      "𝑻": 6526,
      "𝑼": 6527,
      "𝑿": 6528,
      "𝒂": 6529,
      "𝒃": 6530,
      "𝒄": 6531,
      "𝒅": 6532,
      "𝒆": 6533,
      "𝒉": 6534,
      "𝒊": 6535,
      "𝒍": 6536,
      "𝒏": 6537,
      "𝒐": 6538,
      "𝒑": 6539,
      "𝒓": 6540,
      "𝒔": 6541,
      "𝒕": 6542,
      "𝒖": 6543,
      "𝒗": 6544,
      "𝒘": 6545,
      "𝒚": 6546,
      "𝒰": 6547,
      "𝓨": 6548,
      "𝔡": 6549,
      "𝔪": 6550,
      "𝔫": 6551,
      "𝔬": 6552,
      "𝔸": 6553,
      "𝕆": 6554,
      "𝕊": 6555,
      "𝕏": 6556,
      "𝕖": 6557,
      "𝕞": 6558,
      "𝕟": 6559,
      "𝕠": 6560,
      "𝕪": 6561,
      "𝖟": 6562,
      "𝗖": 6563,
      "𝗝": 6564,
      "𝗟": 6565,
      "𝗦": 6566,
      "𝗬": 6567,
      "𝗲": 6568,
      "𝗶": 6569,
      "𝗸": 6570,
      "𝗹": 6571,
      "𝗻": 6572,
      "𝗼": 6573,
      "𝘀": 6574,
      "𝘂": 6575,
      "𝘆": 6576,
      "𝘒": 6577,
      "𝘽": 6578,
      "𝘾": 6579,
      "𝘿": 6580,
      "𝙀": 6581,
      "𝙇": 6582,
      "𝙈": 6583,
      "𝙊": 6584,
      "𝙋": 6585,
      "𝙍": 6586,
      "𝙎": 6587,
      "𝙐": 6588,
      "𝙑": 6589,
      "𝙖": 6590,
      "𝙘": 6591,
      "𝙙": 6592,
      "𝙚": 6593,
      "𝙜": 6594,
      "𝙝": 6595,
      "𝙞": 6596,
      "𝙣": 6597,
      "𝙤": 6598,
      "𝙥": 6599,
      "𝙧": 6600,
      "𝙨": 6601,
      "𝙩": 6602,
      "𝙫": 6603,
      "𝙬": 6604,
      "𝛂": 6605,
      "𝛃": 6606,
      "𝛔": 6607,
      "𝛾": 6608,
      "𝛿": 6609,
      "𝜆": 6610,
      "𝜋": 6611,
      "𝝰": 6612,
      "𝝱": 6613,
      "𝟮": 6614,
      "𞄀": 6615,
      "𞄂": 6616,
      "𞄄": 6617,
      "𞄎": 6618,
      "𞄐": 6619,
      "𞄔": 6620,
      "𞄚": 6621,
      "𞄤": 6622,
      "𞄦": 6623,
      "𞄧": 6624,
      "𞄩": 6625,
      "𞄫": 6626,
      "𞄬": 6627,
      "𞄰": 6628,
      "𞄱": 6629,
      "𞄲": 6630,
      "𞄳": 6631,
      "𞠀": 6632,
      "𞠁": 6633,
      "𞠂": 6634,
      "𞤑": 6635,
      "𞤢": 6636,
      "𞤪": 6637,
      "𞤭": 6638,
      "𞤮": 6639,
      "𞤲": 6640,
      "𞤳": 6641,
      "𞥄": 6642,
      "🅱": 6643,
      "🇦": 6644,
      "🇧": 6645,
      "🇨": 6646,
      "🇩": 6647,
      "🇪": 6648,
      "🇫": 6649,
      "🇬": 6650,
      "🇭": 6651,
      "🇮": 6652,
      "🇯": 6653,
      "🇰": 6654,
      "🇱": 6655,
      "🇲": 6656,
      "🇳": 6657,
      "🇵": 6658,
      "🇷": 6659,
      "🇸": 6660,
      "🇹": 6661,
      "🇺": 6662,
      "🇻": 6663,
      "🇼": 6664,
      "🇾": 6665,
      "🇿": 6666,
      "🌈": 6667,
      "🌞": 6668,
      "🌟": 6669,
      "🌰": 6670,
      "🌸": 6671,
      "🍀": 6672,
      "🍆": 6673,
      "🍇": 6674,
      "🍉": 6675,
      "🍎": 6676,
      "🍑": 6677,
      "🍬": 6678,
      "🍸": 6679,
      "🍺": 6680,
      "🎀": 6681,
      "🎄": 6682,
      "🎌": 6683,
      "🎭": 6684,
      "🎵": 6685,
      "🏁": 6686,
      "🏆": 6687,
      "🏳": 6688,
      "🏴": 6689,
      "🏵": 6690,
      "🏻": 6691,
      "🏼": 6692,
      "🏽": 6693,
      "🏾": 6694,
      "🏿": 6695,
      "🐍": 6696,
      "🐎": 6697,
      "🐴": 6698,
      "🐷": 6699,
      "🐾": 6700,
      "👅": 6701,
      "👌": 6702,
      "👍": 6703,
      "👑": 6704,
      "👧": 6705,
      "👨": 6706,
      "👩": 6707,
      "💔": 6708,
      "💗": 6709,
      "💚": 6710,
      "💜": 6711,
      "💣": 6712,
      "💧": 6713,
      "💩": 6714,
      "💰": 6715,
      "📅": 6716,
      "🔝": 6717,
      "🔤": 6718,
      "🔥": 6719,
      "🔫": 6720,
      "🔴": 6721,
      "🔵": 6722,
      "🔻": 6723,
      "🗿": 6724,
      "😀": 6725,
      "😂": 6726,
      "😃": 6727,
      "😅": 6728,
      "😐": 6729,
      "😭": 6730,
      "🙅": 6731,
      "🙈": 6732,
      "🙏": 6733,
      "🚩": 6734,
      "🚫": 6735,
      "🜨": 6736,
      "🝵": 6737,
      "🤣": 6738,
      "🤦": 6739,
      "🥇": 6740,
      "🥈": 6741,
      "🥰": 6742,
      "🥸": 6743,
      "🥹": 6744,
      "🥺": 6745,
      "🦁": 6746,
      "🦋": 6747,
      "🦜": 6748,
      "🦠": 6749,
      "🧐": 6750,
      "🧭": 6751,
      "𠀑": 6752,
      "𠀠": 6753,
      "𠀤": 6754,
      "𠀧": 6755,
      "𠀾": 6756,
      "𠂂": 6757,
      "𠂉": 6758,
      "𠃉": 6759,
      "𠃋": 6760,
      "𠃍": 6761,
      "𠃎": 6762,
      "𠃑": 6763,
      "𠄎": 6764,
      "𠄘": 6765,
      "𠄞": 6766,
      "𠄟": 6767,
      "𠄠": 6768,
      "𠄩": 6769,
      "𠄳": 6770,
      "𠄼": 6771,
      "𠅿": 6772,
      "𠆢": 6773,
      "𠆤": 6774,
      "𠆭": 6775,
      "𠇇": 6776,
      "𠇖": 6777,
      "𠇟": 6778,
      "𠇶": 6779,
      "𠇹": 6780,
      "𠈌": 6781,
      "𠈣": 6782,
      "𠉛": 6783,
      "𠊛": 6784,
      "𠊺": 6785,
      "𠋮": 6786,
      "𠍀": 6787,
      "𠍋": 6788,
      "𠍟": 6789,
      "𠎀": 6790,
      "𠎢": 6791,
      "𠐓": 6792,
      "𠐤": 6793,
      "𠒇": 6794,
      "𠔦": 6795,
      "𠕇": 6796,
      "𠖳": 6797,
      "𠘨": 6798,
      "𠚕": 6799,
      "𠚢": 6800,
      "𠝹": 6801,
      "𠟭": 6802,
      "𠠫": 6803,
      "𠡠": 6804,
      "𠣮": 6805,
      "𠤩": 6806,
      "𠥓": 6807,
      "𠦝": 6808,
      "𠨑": 6809,
      "𠪱": 6810,
      "𠪳": 6811,
      "𠫂": 6812,
      "𠫊": 6813,
      "𠫑": 6814,
      "𠫳": 6815,
      "𠫾": 6816,
      "𠭘": 6817,
      "𠮶": 6818,
      "𠮷": 6819,
      "𠯿": 6820,
      "𠰂": 6821,
      "𠰢": 6822,
      "𠰱": 6823,
      "𠰷": 6824,
      "𠱊": 6825,
      "𠱸": 6826,
      "𠱾": 6827,
      "𠴟": 6828,
      "𠵆": 6829,
      "𠵇": 6830,
      "𠵱": 6831,
      "𠶙": 6832,
      "𠷨": 6833,
      "𠸟": 6834,
      "𠺌": 6835,
      "𠺞": 6836,
      "𠻇": 6837,
      "𠻸": 6838,
      "𠾶": 6839,
      "𡁻": 6840,
      "𡃁": 6841,
      "𡈟": 6842,
      "𡉟": 6843,
      "𡊎": 6844,
      "𡊤": 6845,
      "𡊿": 6846,
      "𡋕": 6847,
      "𡋣": 6848,
      "𡋱": 6849,
      "𡋹": 6850,
      "𡌃": 6851,
      "𡌳": 6852,
      "𡌶": 6853,
      "𡍓": 6854,
      "𡍼": 6855,
      "𡎊": 6856,
      "𡎜": 6857,
      "𡎴": 6858,
      "𡏦": 6859,
      "𡐾": 6860,
      "𡑏": 6861,
      "𡑐": 6862,
      "𡑒": 6863,
      "𡑠": 6864,
      "𡑡": 6865,
      "𡑤": 6866,
      "𡑴": 6867,
      "𡑵": 6868,
      "𡒉": 6869,
      "𡓂": 6870,
      "𡓝": 6871,
      "𡓱": 6872,
      "𡔈": 6873,
      "𡔉": 6874,
      "𡕀": 6875,
      "𡗨": 6876,
      "𡘯": 6877,
      "𡙇": 6878,
      "𡚒": 6879,
      "𡚖": 6880,
      "𡞱": 6881,
      "𡟃": 6882,
      "𡟰": 6883,
      "𡠄": 6884,
      "𡠍": 6885,
      "𡠾": 6886,
      "𡣗": 6887,
      "𡣺": 6888,
      "𡤕": 6889,
      "𡥧": 6890,
      "𡦗": 6891,
      "𡦹": 6892,
      "𡨂": 6893,
      "𡨃": 6894,
      "𡨊": 6895,
      "𡨧": 6896,
      "𡩀": 6897,
      "𡩈": 6898,
      "𡩋": 6899,
      "𡩏": 6900,
      "𡩜": 6901,
      "𡩢": 6902,
      "𡪾": 6903,
      "𡪿": 6904,
      "𡭬": 6905,
      "𡰣": 6906,
      "𡰳": 6907,
      "𡱰": 6908,
      "𡳅": 6909,
      "𡴶": 6910,
      "𡴾": 6911,
      "𡵰": 6912,
      "𡶀": 6913,
      "𡶶": 6914,
      "𡷣": 6915,
      "𡷫": 6916,
      "𡷹": 6917,
      "𡸷": 6918,
      "𡺊": 6919,
      "𡺿": 6920,
      "𡼹": 6921,
      "𡽫": 6922,
      "𡽹": 6923,
      "𡾊": 6924,
      "𡾣": 6925,
      "𢀇": 6926,
      "𢀓": 6927,
      "𢀛": 6928,
      "𢀿": 6929,
      "𢂎": 6930,
      "𢃇": 6931,
      "𢄂": 6932,
      "𢄙": 6933,
      "𢆡": 6934,
      "𢌛": 6935,
      "𢍘": 6936,
      "𢎞": 6937,
      "𢏺": 6938,
      "𢐗": 6939,
      "𢑥": 6940,
      "𢓊": 6941,
      "𢓨": 6942,
      "𢔶": 6943,
      "𢕌": 6944,
      "𢕸": 6945,
      "𢘆": 6946,
      "𢘑": 6947,
      "𢘙": 6948,
      "𢘥": 6949,
      "𢙏": 6950,
      "𢙒": 6951,
      "𢚍": 6952,
      "𢚝": 6953,
      "𢛣": 6954,
      "𢞘": 6955,
      "𢟬": 6956,
      "𢠁": 6957,
      "𢡱": 6958,
      "𢢀": 6959,
      "𢢝": 6960,
      "𢢩": 6961,
      "𢢼": 6962,
      "𢢽": 6963,
      "𢣴": 6964,
      "𢤮": 6965,
      "𢥧": 6966,
      "𢦉": 6967,
      "𢫆": 6968,
      "𢬍": 6969,
      "𢱿": 6970,
      "𢴇": 6971,
      "𢶏": 6972,
      "𢶜": 6973,
      "𢷋": 6974,
      "𢺋": 6975,
      "𢼄": 6976,
      "𢾭": 6977,
      "𣁽": 6978,
      "𣃁": 6979,
      "𣄽": 6980,
      "𣅠": 6981,
      "𣆂": 6982,
      "𣇈": 6983,
      "𣈏": 6984,
      "𣈱": 6985,
      "𣈴": 6986,
      "𣉙": 6987,
      "𣊫": 6988,
      "𣊬": 6989,
      "𣊭": 6990,
      "𣌀": 6991,
      "𣎗": 6992,
      "𣏌": 6993,
      "𣏜": 6994,
      "𣏢": 6995,
      "𣐀": 6996,
      "𣐅": 6997,
      "𣐕": 6998,
      "𣑚": 6999,
      "𣑮": 7000,
      "𣒌": 7001,
      "𣒱": 7002,
      "𣓞": 7003,
      "𣔉": 7004,
      "𣔌": 7005,
      "𣔟": 7006,
      "𣔾": 7007,
      "𣗊": 7008,
      "𣗖": 7009,
      "𣗬": 7010,
      "𣗼": 7011,
      "𣘁": 7012,
      "𣘓": 7013,
      "𣚅": 7014,
      "𣚚": 7015,
      "𣚣": 7016,
      "𣚴": 7017,
      "𣛣": 7018,
      "𣛧": 7019,
      "𣛭": 7020,
      "𣛮": 7021,
      "𣜜": 7022,
      "𣜰": 7023,
      "𣞁": 7024,
      "𣡵": 7025,
      "𣡿": 7026,
      "𣦻": 7027,
      "𣨼": 7028,
      "𣪩": 7029,
      "𣫏": 7030,
      "𣬌": 7031,
      "𣭈": 7032,
      "𣮤": 7033,
      "𣱝": 7034,
      "𣲤": 7035,
      "𣲸": 7036,
      "𣳚": 7037,
      "𣳫": 7038,
      "𣴛": 7039,
      "𣵛": 7040,
      "𣵧": 7041,
      "𣶒": 7042,
      "𣶬": 7043,
      "𣷭": 7044,
      "𣷷": 7045,
      "𣺺": 7046,
      "𣻝": 7047,
      "𣻷": 7048,
      "𣼲": 7049,
      "𣼽": 7050,
      "𣽸": 7051,
      "𣾀": 7052,
      "𣿖": 7053,
      "𣿭": 7054,
      "𣿰": 7055,
      "𤀢": 7056,
      "𤀹": 7057,
      "𤁒": 7058,
      "𤁾": 7059,
      "𤂂": 7060,
      "𤂬": 7061,
      "𤃂": 7062,
      "𤅷": 7063,
      "𤆃": 7064,
      "𤆢": 7065,
      "𤆬": 7066,
      "𤇥": 7067,
      "𤇭": 7068,
      "𤇹": 7069,
      "𤇼": 7070,
      "𤈇": 7071,
      "𤈍": 7072,
      "𤈜": 7073,
      "𤈪": 7074,
      "𤉲": 7075,
      "𤉷": 7076,
      "𤉹": 7077,
      "𤊐": 7078,
      "𤊞": 7079,
      "𤊟": 7080,
      "𤊨": 7081,
      "𤊹": 7082,
      "𤋗": 7083,
      "𤋮": 7084,
      "𤌙": 7085,
      "𤍔": 7086,
      "𤍘": 7087,
      "𤍞": 7088,
      "𤍟": 7089,
      "𤎅": 7090,
      "𤏳": 7091,
      "𤏴": 7092,
      "𤐤": 7093,
      "𤐨": 7094,
      "𤑐": 7095,
      "𤒈": 7096,
      "𤒩": 7097,
      "𤒹": 7098,
      "𤓂": 7099,
      "𤓓": 7100,
      "𤓪": 7101,
      "𤔡": 7102,
      "𤕶": 7103,
      "𤖙": 7104,
      "𤘩": 7105,
      "𤞃": 7106,
      "𤞽": 7107,
      "𤟹": 7108,
      "𤠣": 7109,
      "𤣥": 7110,
      "𤣾": 7111,
      "𤤆": 7112,
      "𤤥": 7113,
      "𤤴": 7114,
      "𤥃": 7115,
      "𤥻": 7116,
      "𤦏": 7117,
      "𤦩": 7118,
      "𤦹": 7119,
      "𤧶": 7120,
      "𤧸": 7121,
      "𤨒": 7122,
      "𤨓": 7123,
      "𤨠": 7124,
      "𤨧": 7125,
      "𤨬": 7126,
      "𤩀": 7127,
      "𤩊": 7128,
      "𤩝": 7129,
      "𤩰": 7130,
      "𤩹": 7131,
      "𤪉": 7132,
      "𤪔": 7133,
      "𤪠": 7134,
      "𤪱": 7135,
      "𤪸": 7136,
      "𤫄": 7137,
      "𤫙": 7138,
      "𤬜": 7139,
      "𤭖": 7140,
      "𤯔": 7141,
      "𤯾": 7142,
      "𤰞": 7143,
      "𤶊": 7144,
      "𤷪": 7145,
      "𤺧": 7146,
      "𤻊": 7147,
      "𤾩": 7148,
      "𥄳": 7149,
      "𥇦": 7150,
      "𥐰": 7151,
      "𥑬": 7152,
      "𥑮": 7153,
      "𥒖": 7154,
      "𥒚": 7155,
      "𥒥": 7156,
      "𥒦": 7157,
      "𥒯": 7158,
      "𥓞": 7159,
      "𥔵": 7160,
      "𥔿": 7161,
      "𥕟": 7162,
      "𥖩": 7163,
      "𥗐": 7164,
      "𥘼": 7165,
      "𥙔": 7166,
      "𥙷": 7167,
      "𥚃": 7168,
      "𥚻": 7169,
      "𥛎": 7170,
      "𥜗": 7171,
      "𥟨": 7172,
      "𥠢": 7173,
      "𥤛": 7174,
      "𥦬": 7175,
      "𥧌": 7176,
      "𥨊": 7177,
      "𥩟": 7178,
      "𥮀": 7179,
      "𥯎": 7180,
      "𥯓": 7181,
      "𥲤": 7182,
      "𥴊": 7183,
      "𥸷": 7184,
      "𥺧": 7185,
      "𥺪": 7186,
      "𥻓": 7187,
      "𥻵": 7188,
      "𥻹": 7189,
      "𥼴": 7190,
      "𥾪": 7191,
      "𦀚": 7192,
      "𦃿": 7193,
      "𦅜": 7194,
      "𦅫": 7195,
      "𦇗": 7196,
      "𦊚": 7197,
      "𦍋": 7198,
      "𦍠": 7199,
      "𦎑": 7200,
      "𦎠": 7201,
      "𦎴": 7202,
      "𦏪": 7203,
      "𦏰": 7204,
      "𦐂": 7205,
      "𦐥": 7206,
      "𦒹": 7207,
      "𦓿": 7208,
      "𦔐": 7209,
      "𦘦": 7210,
      "𦙍": 7211,
      "𦙒": 7212,
      "𦛛": 7213,
      "𦣚": 7214,
      "𦤑": 7215,
      "𦦙": 7216,
      "𦨂": 7217,
      "𦬨": 7218,
      "𦬬": 7219,
      "𦭒": 7220,
      "𦮙": 7221,
      "𦰩": 7222,
      "𦴤": 7223,
      "𦵕": 7224,
      "𦵚": 7225,
      "𦶜": 7226,
      "𦶟": 7227,
      "𦷄": 7228,
      "𦹗": 7229,
      "𦹛": 7230,
      "𦹳": 7231,
      "𦻙": 7232,
      "𦼌": 7233,
      "𦾔": 7234,
      "𦾼": 7235,
      "𦿚": 7236,
      "𧃍": 7237,
      "𧃲": 7238,
      "𧃽": 7239,
      "𧈡": 7240,
      "𧈢": 7241,
      "𧈫": 7242,
      "𧉚": 7243,
      "𧊀": 7244,
      "𧊉": 7245,
      "𧊲": 7246,
      "𧎛": 7247,
      "𧎜": 7248,
      "𧏖": 7249,
      "𧏛": 7250,
      "𧏡": 7251,
      "𧐶": 7252,
      "𧑄": 7253,
      "𧓌": 7254,
      "𧔠": 7255,
      "𧔢": 7256,
      "𧖣": 7257,
      "𧗞": 7258,
      "𧗠": 7259,
      "𧘲": 7260,
      "𧙗": 7261,
      "𧚔": 7262,
      "𧝁": 7263,
      "𧟰": 7264,
      "𧦬": 7265,
      "𧩡": 7266,
      "𧫴": 7267,
      "𧫻": 7268,
      "𧭢": 7269,
      "𧯄": 7270,
      "𧯢": 7271,
      "𧰼": 7272,
      "𧴛": 7273,
      "𧵏": 7274,
      "𧵗": 7275,
      "𧶛": 7276,
      "𧶽": 7277,
      "𧷨": 7278,
      "𧷼": 7279,
      "𧹵": 7280,
      "𧹼": 7281,
      "𧺯": 7282,
      "𧼋": 7283,
      "𧽙": 7284,
      "𧽚": 7285,
      "𧾿": 7286,
      "𧿃": 7287,
      "𨀁": 7288,
      "𨂽": 7289,
      "𨃴": 7290,
      "𨄫": 7291,
      "𨈝": 7292,
      "𨈭": 7293,
      "𨋄": 7294,
      "𨐧": 7295,
      "𨑖": 7296,
      "𨑮": 7297,
      "𨑳": 7298,
      "𨕱": 7299,
      "𨚢": 7300,
      "𨚫": 7301,
      "𨛦": 7302,
      "𨝥": 7303,
      "𨞚": 7304,
      "𨟀": 7305,
      "𨟻": 7306,
      "𨠄": 7307,
      "𨠣": 7308,
      "𨣏": 7309,
      "𨤲": 7310,
      "𨤳": 7311,
      "𨤸": 7312,
      "𨥈": 7313,
      "𨥋": 7314,
      "𨥌": 7315,
      "𨥤": 7316,
      "𨥬": 7317,
      "𨥷": 7318,
      "𨦼": 7319,
      "𨧆": 7320,
      "𨧴": 7321,
      "𨨝": 7322,
      "𨨞": 7323,
      "𨨣": 7324,
      "𨨫": 7325,
      "𨫃": 7326,
      "𨫊": 7327,
      "𨫎": 7328,
      "𨫏": 7329,
      "𨫱": 7330,
      "𨫼": 7331,
      "𨬂": 7332,
      "𨬋": 7333,
      "𨮁": 7334,
      "𨮖": 7335,
      "𨮫": 7336,
      "𨯤": 7337,
      "𨯵": 7338,
      "𨰎": 7339,
      "𨰘": 7340,
      "𨱆": 7341,
      "𨲠": 7342,
      "𨲢": 7343,
      "𨳍": 7344,
      "𨳒": 7345,
      "𨴱": 7346,
      "𨸏": 7347,
      "𨻽": 7348,
      "𩀈": 7349,
      "𩃗": 7350,
      "𩃳": 7351,
      "𩄍": 7352,
      "𩆃": 7353,
      "𩆩": 7354,
      "𩇛": 7355,
      "𩍈": 7356,
      "𩑠": 7357,
      "𩒠": 7358,
      "𩖃": 7359,
      "𩘥": 7360,
      "𩙻": 7361,
      "𩙿": 7362,
      "𩚨": 7363,
      "𩜼": 7364,
      "𩡤": 7365,
      "𩨂": 7366,
      "𩫾": 7367,
      "𩰒": 7368,
      "𩳁": 7369,
      "𩵑": 7370,
      "𩶆": 7371,
      "𩶚": 7372,
      "𩶾": 7373,
      "𩸭": 7374,
      "𩸽": 7375,
      "𩹲": 7376,
      "𩹽": 7377,
      "𩺊": 7378,
      "𩺬": 7379,
      "𩻸": 7380,
      "𩼣": 7381,
      "𩼧": 7382,
      "𩿨": 7383,
      "𪀋": 7384,
      "𪁻": 7385,
      "𪆒": 7386,
      "𪇼": 7387,
      "𪈮": 7388,
      "𪊨": 7389,
      "𪊭": 7390,
      "𪊲": 7391,
      "𪎌": 7392,
      "𪔠": 7393,
      "𪕅": 7394,
      "𪘅": 7395,
      "𪘵": 7396,
      "𪚩": 7397,
      "𪜈": 7398,
      "𪜶": 7399,
      "𪠽": 7400,
      "𪡃": 7401,
      "𪡞": 7402,
      "𪢌": 7403,
      "𪢐": 7404,
      "𪢠": 7405,
      "𪣒": 7406,
      "𪣧": 7407,
      "𪤄": 7408,
      "𪥛": 7409,
      "𪥰": 7410,
      "𪦮": 7411,
      "𪧘": 7412,
      "𪨷": 7413,
      "𪩸": 7414,
      "𪪞": 7415,
      "𪪼": 7416,
      "𪫷": 7417,
      "𪫺": 7418,
      "𪬚": 7419,
      "𪬦": 7420,
      "𪭢": 7421,
      "𪭵": 7422,
      "𪮶": 7423,
      "𪰋": 7424,
      "𪱣": 7425,
      "𪲔": 7426,
      "𪲛": 7427,
      "𪲧": 7428,
      "𪲱": 7429,
      "𪳍": 7430,
      "𪳗": 7431,
      "𪴑": 7432,
      "𪴙": 7433,
      "𪶄": 7434,
      "𪶒": 7435,
      "𪷍": 7436,
      "𪸕": 7437,
      "𪸩": 7438,
      "𪹚": 7439,
      "𪹳": 7440,
      "𪻨": 7441,
      "𪻲": 7442,
      "𪻶": 7443,
      "𪻺": 7444,
      "𪼋": 7445,
      "𪽈": 7446,
      "𪾣": 7447,
      "𪿫": 7448,
      "𫀬": 7449,
      "𫂖": 7450,
      "𫄙": 7451,
      "𫄠": 7452,
      "𫄡": 7453,
      "𫄣": 7454,
      "𫄫": 7455,
      "𫄬": 7456,
      "𫄮": 7457,
      "𫄳": 7458,
      "𫄶": 7459,
      "𫅗": 7460,
      "𫆏": 7461,
      "𫇛": 7462,
      "𫇴": 7463,
      "𫈉": 7464,
      "𫈎": 7465,
      "𫈟": 7466,
      "𫈢": 7467,
      "𫈵": 7468,
      "𫈷": 7469,
      "𫉄": 7470,
      "𫊣": 7471,
      "𫊪": 7472,
      "𫊮": 7473,
      "𫊸": 7474,
      "𫊻": 7475,
      "𫋇": 7476,
      "𫋷": 7477,
      "𫋹": 7478,
      "𫋻": 7479,
      "𫍚": 7480,
      "𫍜": 7481,
      "𫍡": 7482,
      "𫍧": 7483,
      "𫍬": 7484,
      "𫎆": 7485,
      "𫎌": 7486,
      "𫎨": 7487,
      "𫎩": 7488,
      "𫐈": 7489,
      "𫐊": 7490,
      "𫐌": 7491,
      "𫐎": 7492,
      "𫐏": 7493,
      "𫐕": 7494,
      "𫐗": 7495,
      "𫐙": 7496,
      "𫑘": 7497,
      "𫑩": 7498,
      "𫑷": 7499,
      "𫒢": 7500,
      "𫓐": 7501,
      "𫓦": 7502,
      "𫓨": 7503,
      "𫓪": 7504,
      "𫓭": 7505,
      "𫓰": 7506,
      "𫓱": 7507,
      "𫓴": 7508,
      "𫓵": 7509,
      "𫓺": 7510,
      "𫓻": 7511,
      "𫓼": 7512,
      "𫓽": 7513,
      "𫓾": 7514,
      "𫓿": 7515,
      "𫔁": 7516,
      "𫔂": 7517,
      "𫔄": 7518,
      "𫔆": 7519,
      "𫔇": 7520,
      "𫔈": 7521,
      "𫔌": 7522,
      "𫔑": 7523,
      "𫔔": 7524,
      "𫔕": 7525,
      "𫔯": 7526,
      "𫔰": 7527,
      "𫕥": 7528,
      "𫖇": 7529,
      "𫖒": 7530,
      "𫖰": 7531,
      "𫖶": 7532,
      "𫗇": 7533,
      "𫗣": 7534,
      "𫗥": 7535,
      "𫗪": 7536,
      "𫗬": 7537,
      "𫗵": 7538,
      "𫘛": 7539,
      "𫘠": 7540,
      "𫘥": 7541,
      "𫘩": 7542,
      "𫘫": 7543,
      "𫘱": 7544,
      "𫙮": 7545,
      "𫚋": 7546,
      "𫚌": 7547,
      "𫚐": 7548,
      "𫚓": 7549,
      "𫚗": 7550,
      "𫚜": 7551,
      "𫚞": 7552,
      "𫚢": 7553,
      "𫚣": 7554,
      "𫚧": 7555,
      "𫚪": 7556,
      "𫚫": 7557,
      "𫛚": 7558,
      "𫛝": 7559,
      "𫛟": 7560,
      "𫛡": 7561,
      "𫛤": 7562,
      "𫛩": 7563,
      "𫛪": 7564,
      "𫛬": 7565,
      "𫛮": 7566,
      "𫛰": 7567,
      "𫛱": 7568,
      "𫛴": 7569,
      "𫛵": 7570,
      "𫜁": 7571,
      "𫜑": 7572,
      "𫜰": 7573,
      "𫝈": 7574,
      "𫝏": 7575,
      "𫝬": 7576,
      "𫝭": 7577,
      "𫝮": 7578,
      "𫝵": 7579,
      "𫝺": 7580,
      "𫞗": 7581,
      "𫞚": 7582,
      "𫞠": 7583,
      "𫞡": 7584,
      "𫞥": 7585,
      "𫞧": 7586,
      "𫞨": 7587,
      "𫟃": 7588,
      "𫟄": 7589,
      "𫟆": 7590,
      "𫟡": 7591,
      "𫟤": 7592,
      "𫟲": 7593,
      "𫟳": 7594,
      "𫟴": 7595,
      "𫟵": 7596,
      "𫟶": 7597,
      "𫟸": 7598,
      "𫟻": 7599,
      "𫟿": 7600,
      "𫠁": 7601,
      "𫠏": 7602,
      "𫠐": 7603,
      "𫠑": 7604,
      "𫠒": 7605,
      "𫧃": 7606,
      "𫪦": 7607,
      "𫮈": 7608,
      "𫯺": 7609,
      "𫲨": 7610,
      "𫷫": 7611,
      "𫾻": 7612,
      "𬃉": 7613,
      "𬄦": 7614,
      "𬉺": 7615,
      "𬊍": 7616,
      "𬋙": 7617,
      "𬋞": 7618,
      "𬓆": 7619,
      "𬓋": 7620,
      "𬓑": 7621,
      "𬟏": 7622,
      "𬥦": 7623,
      "𬩠": 7624,
      "𬫏": 7625,
      "𬬰": 7626,
      "𬭄": 7627,
      "𬭏": 7628,
      "𬭭": 7629,
      "𬲱": 7630,
      "𬸯": 7631,
      "𬻷": 7632,
      "𬼂": 7633,
      "𬾕": 7634,
      "𭁇": 7635,
      "𭄋": 7636,
      "𭅃": 7637,
      "𭈈": 7638,
      "𭍻": 7639,
      "𭎂": 7640,
      "𭏜": 7641,
      "𭑊": 7642,
      "𭑭": 7643,
      "𭚥": 7644,
      "𭤐": 7645,
      "𭤪": 7646,
      "𭥟": 7647,
      "𭦣": 7648,
      "𭨡": 7649,
      "𭫪": 7650,
      "𭮨": 7651,
      "𭱴": 7652,
      "𭳕": 7653,
      "𭴊": 7654,
      "𭴌": 7655,
      "𭵬": 7656,
      "𭹊": 7657,
      "𮄫": 7658,
      "𮓠": 7659,
      "𮔢": 7660,
      "𮡧": 7661,
      "𮡶": 7662,
      "𮢅": 7663,
      "𮥹": 7664,
      "𮳕": 7665,
      "𰇠": 7666,
      "𰉗": 7667,
      "𰉬": 7668,
      "𰊊": 7669,
      "𰊺": 7670,
      "𰋀": 7671,
      "𰋁": 7672,
      "𰋟": 7673,
      "𰍠": 7674,
      "𰎼": 7675,
      "𰗤": 7676,
      "𰘆": 7677,
      "𰘌": 7678,
      "𰘱": 7679,
      "𰚼": 7680,
      "𰛂": 7681,
      "𰛭": 7682,
      "𰜰": 7683,
      "𰝙": 7684,
      "𰝠": 7685,
      "𰝢": 7686,
      "𰝥": 7687,
      "𰞍": 7688,
      "𰞒": 7689,
      "𰞱": 7690,
      "𰟆": 7691,
      "𰟙": 7692,
      "𰡉": 7693,
      "𰡘": 7694,
      "𰢕": 7695,
      "𰥏": 7696,
      "𰫕": 7697,
      "𰬸": 7698,
      "𰯼": 7699,
      "𰰻": 7700,
      "𰱘": 7701,
      "𰲛": 7702,
      "𰵞": 7703,
      "𰶎": 7704,
      "𰹬": 7705,
      "𰼩": 7706,
      "𰽟": 7707,
      "𰽽": 7708,
      "𰾄": 7709,
      "𰾭": 7710,
      "𰿁": 7711,
      "𰿓": 7712,
      "𱀵": 7713,
      "𱁬": 7714,
      "𱄤": 7715,
      "𱉐": 7716,
      "𱉻": 7717,
      "𱉼": 7718,
      "𱊊": 7719,
      "𱑲": 7720,
      "𱔽": 7721,
      "𱖹": 7722,
      "𱟛": 7723,
      "𱤰": 7724,
      "𱧀": 7725,
      "𱭵": 7726,
      "𱭶": 7727,
      "𱯞": 7728,
      "𱴑": 7729,
      "𱵄": 7730,
      "𱹀": 7731,
      "𲉖": 7732,
      "𲐤": 7733,
      "𲚏": 7734,
      "󠁢": 7735,
      "󠁣": 7736,
      "󠁥": 7737,
      "󠁧": 7738,
      "󠁬": 7739,
      "󠁮": 7740,
      "󠁳": 7741,
      "󠁴": 7742,
      "󠁵": 7743,
      "󠁷": 7744,
      "󠁸": 7745,
      "󠁿": 7746,
      "󠄀": 7747,
      "󠄁": 7748,
      "󠄂": 7749,
      "󰒄": 7750,
      "󰡔": 7751,
      "󰡕": 7752,
      "󵍲": 7753,
      "􏰂": 7754,
      "ng": 7755,
      "an": 7756,
      "sh": 7757,
      "zh": 7758,
      "ji": 7759,
      "ang": 7760,
      "ong": 7761,
      "xi": 7762,
      "ao": 7763,
      "ai": 7764,
      "de": 7765,
      "ei": 7766,
      "shi": 7767,
      "yu": 7768,
      "ou": 7769,
      "en": 7770,
      "yi": 7771,
      "ch": 7772,
      "ian": 7773,
      "uo": 7774,
      "eng": 7775,
      "li": 7776,
      "ing": 7777,
      "ui": 7778,
      "wei": 7779,
      "uan": 7780,
      "zhi": 7781,
      "qi": 7782,
      "nian": 7783,
      "zhong": 7784,
      "you": 7785,
      "un": 7786,
      "ren": 7787,
      "zai": 7788,
      "di": 7789,
      "guo": 7790,
      "he": 7791,
      "bu": 7792,
      "er": 7793,
      "xing": 7794,
      "cheng": 7795,
      "da": 7796,
      "zhu": 7797,
      "hu": 7798,
      "yuan": 7799,
      "jian": 7800,
      "gong": 7801,
      "si": 7802,
      "yue": 7803,
      "fu": 7804,
      "xian": 7805,
      "ge": 7806,
      "ue": 7807,
      "wu": 7808,
      "chu": 7809,
      "sheng": 7810,
      "shu": 7811,
      "jia": 7812,
      "jie": 7813,
      "bi": 7814,
      "dao": 7815,
      "ke": 7816,
      "zi": 7817,
      "xiang": 7818,
      "hui": 7819,
      "bei": 7820,
      "fa": 7821,
      "qu": 7822,
      "ti": 7823,
      "zheng": 7824,
      "ta": 7825,
      "20": 7826,
      "tong": 7827,
      "jin": 7828,
      "ming": 7829,
      "jing": 7830,
      "ju": 7831,
      "mi": 7832,
      "ri": 7833,
      "le": 7834,
      "hou": 7835,
      "shang": 7836,
      "dong": 7837,
      "shou": 7838,
      "fang": 7839,
      "ci": 7840,
      "yin": 7841,
      "hua": 7842,
      "19": 7843,
      "ying": 7844,
      "zhe": 7845,
      "zuo": 7846,
      "zhan": 7847,
      "ye": 7848,
      "xue": 7849,
      "yan": 7850,
      "mei": 7851,
      "xin": 7852,
      "guan": 7853,
      "jiao": 7854,
      "lu": 7855,
      "chang": 7856,
      "bing": 7857,
      "bao": 7858,
      "dui": 7859,
      "gu": 7860,
      "dan": 7861,
      "jiang": 7862,
      "fen": 7863,
      "huo": 7864,
      "du": 7865,
      "xiao": 7866,
      "qian": 7867,
      "dian": 7868,
      "jun": 7869,
      "yong": 7870,
      "tai": 7871,
      "xia": 7872,
      "she": 7873,
      "zhang": 7874,
      "wen": 7875,
      "mu": 7876,
      "gai": 7877,
      "liang": 7878,
      "dai": 7879,
      "zhou": 7880,
      "hai": 7881,
      "ya": 7882,
      "ru": 7883,
      "wang": 7884,
      "zu": 7885,
      "dang": 7886,
      "lai": 7887,
      "jiu": 7888,
      "ban": 7889,
      "qing": 7890,
      "ping": 7891,
      "shen": 7892,
      "ling": 7893,
      "wan": 7894,
      "lian": 7895,
      "luo": 7896,
      "pi": 7897,
      "duo": 7898,
      "te": 7899,
      "bo": 7900,
      "suo": 7901,
      "ben": 7902,
      "nan": 7903,
      "biao": 7904,
      "gao": 7905,
      "yang": 7906,
      "yao": 7907,
      "kai": 7908,
      "xu": 7909,
      "bian": 7910,
      "deng": 7911,
      "ma": 7912,
      "xie": 7913,
      "la": 7914,
      "zhen": 7915,
      "quan": 7916,
      "ding": 7917,
      "mian": 7918,
      "zui": 7919,
      "ba": 7920,
      "liu": 7921,
      "qiu": 7922,
      "min": 7923,
      "sai": 7924,
      "fan": 7925,
      "xuan": 7926,
      "che": 7927,
      "fei": 7928,
      "shan": 7929,
      "zong": 7930,
      "men": 7931,
      "su": 7932,
      "hao": 7933,
      "lei": 7934,
      "tu": 7935,
      "ni": 7936,
      "tian": 7937,
      "san": 7938,
      "yun": 7939,
      "feng": 7940,
      "201": 7941,
      "nei": 7942,
      "mo": 7943,
      "lan": 7944,
      "lv": 7945,
      "ze": 7946,
      "kou": 7947,
      "lin": 7948,
      "wai": 7949,
      "chuan": 7950,
      "chi": 7951,
      "jue": 7952,
      "200": 7953,
      "pai": 7954,
      "ku": 7955,
      "yige": 7956,
      "bai": 7957,
      "cai": 7958,
      "zao": 7959,
      "ting": 7960,
      "han": 7961,
      "zhuan": 7962,
      "sui": 7963,
      "lun": 7964,
      "guang": 7965,
      "lie": 7966,
      "gang": 7967,
      "gui": 7968,
      "ceng": 7969,
      "kong": 7970,
      "na": 7971,
      "10": 7972,
      "shui": 7973,
      "cha": 7974,
      "zhuang": 7975,
      "pu": 7976,
      "chao": 7977,
      "tou": 7978,
      "dou": 7979,
      "can": 7980,
      "ran": 7981,
      "duan": 7982,
      "zhongguo": 7983,
      "se": 7984,
      "huan": 7985,
      "ce": 7986,
      "pin": 7987,
      "chan": 7988,
      "cun": 7989,
      "cong": 7990,
      "xun": 7991,
      "meiguo": 7992,
      "00": 7993,
      "neng": 7994,
      "zhao": 7995,
      "gou": 7996,
      "chong": 7997,
      "tan": 7998,
      "chengwei": 7999,
      "man": 8000,
      "18": 8001,
      "sha": 8002,
      "qiang": 8003,
      "huang": 8004,
      "renkou": 8005,
      "qin": 8006,
      "nv": 8007,
      "hang": 8008,
      "tiao": 8009,
      "weiyu": 8010,
      "meng": 8011,
      "12": 8012,
      "tuan": 8013,
      "gan": 8014,
      "shao": 8015,
      "ka": 8016,
      "xiu": 8017,
      "kuo": 8018,
      "pian": 8019,
      "long": 8020,
      "shuo": 8021,
      "tang": 8022,
      "rong": 8023,
      "202": 8024,
      "bang": 8025,
      "geng": 8026,
      "tie": 8027,
      "gen": 8028,
      "tui": 8029,
      "chen": 8030,
      "liao": 8031,
      "wo": 8032,
      "que": 8033,
      "11": 8034,
      "po": 8035,
      "zhengfu": 8036,
      "qie": 8037,
      "yiji": 8038,
      "shiyong": 8039,
      "chuang": 8040,
      "pei": 8041,
      "hong": 8042,
      "199": 8043,
      "re": 8044,
      "bie": 8045,
      "tao": 8046,
      "lishi": 8047,
      "daxue": 8048,
      "tuo": 8049,
      "shijian": 8050,
      "song": 8051,
      "tamen": 8052,
      "mai": 8053,
      "diqu": 8054,
      "guojia": 8055,
      "wa": 8056,
      "kaishi": 8057,
      "riben": 8058,
      "baokuo": 8059,
      "dun": 8060,
      "jinxing": 8061,
      "diao": 8062,
      "lang": 8063,
      "15": 8064,
      "bufen": 8065,
      "keyi": 8066,
      "qiao": 8067,
      "gongli": 8068,
      "pingfang": 8069,
      "mao": 8070,
      "kan": 8071,
      "pan": 8072,
      "qizhong": 8073,
      "sa": 8074,
      "kang": 8075,
      "ken": 8076,
      "ha": 8077,
      "diyi": 8078,
      "shijie": 8079,
      "xianggang": 8080,
      "gongsi": 8081,
      "lao": 8082,
      "zeng": 8083,
      "hen": 8084,
      "or": 8085,
      "huode": 8086,
      "16": 8087,
      "mianji": 8088,
      "renwei": 8089,
      "198": 8090,
      "shiji": 8091,
      "yanjiu": 8092,
      "zhuyao": 8093,
      "xiong": 8094,
      "taiwan": 8095,
      "qita": 8096,
      "kao": 8097,
      "yizhi": 8098,
      "17": 8099,
      "meiyou": 8100,
      "on": 8101,
      "zhengzhi": 8102,
      "kuang": 8103,
      "dier": 8104,
      "hun": 8105,
      "weiyuan": 8106,
      "miao": 8107,
      "youyu": 8108,
      "daibiao": 8109,
      "14": 8110,
      "yundong": 8111,
      "faguo": 8112,
      "30": 8113,
      "tongshi": 8114,
      "suan": 8115,
      "reng": 8116,
      "zhun": 8117,
      "yiyuan": 8118,
      "zuowei": 8119,
      "dianying": 8120,
      "sheji": 8121,
      "cao": 8122,
      "qun": 8123,
      "gongzuo": 8124,
      "zhongxin": 8125,
      "zhiyi": 8126,
      "guoji": 8127,
      "biaoshi": 8128,
      "yinci": 8129,
      "194": 8130,
      "13": 8131,
      "shizhen": 8132,
      "yinwei": 8133,
      "shiqi": 8134,
      "danren": 8135,
      "zhonghua": 8136,
      "kuai": 8137,
      "xitong": 8138,
      "197": 8139,
      "keneng": 8140,
      "zhengshi": 8141,
      "zhuyi": 8142,
      "dangshi": 8143,
      "zhihou": 8144,
      "heng": 8145,
      "shuang": 8146,
      "lou": 8147,
      "ziji": 8148,
      "chengshi": 8149,
      "qijian": 8150,
      "chezhan": 8151,
      "yingguo": 8152,
      "rang": 8153,
      "piao": 8154,
      "tongguo": 8155,
      "zuzhi": 8156,
      "sen": 8157,
      "heguo": 8158,
      "nong": 8159,
      "xingzheng": 8160,
      "195": 8161,
      "chun": 8162,
      "genju": 8163,
      "dianshi": 8164,
      "yizhong": 8165,
      "xueyuan": 8166,
      "yingxiang": 8167,
      "gei": 8168,
      "fazhan": 8169,
      "chengli": 8170,
      "zou": 8171,
      "25": 8172,
      "jingji": 8173,
      "196": 8174,
      "shuyu": 8175,
      "hei": 8176,
      "kuan": 8177,
      "faxian": 8178,
      "nuo": 8179,
      "zha": 8180,
      "shehui": 8181,
      "jianzhu": 8182,
      "bin": 8183,
      "liya": 8184,
      "sun": 8185,
      "renwu": 8186,
      "cang": 8187,
      "beijing": 8188,
      "zhexie": 8189,
      "pao": 8190,
      "renmin": 8191,
      "ershi": 8192,
      "youxi": 8193,
      "sang": 8194,
      "zhongyang": 8195,
      "canjia": 8196,
      "butong": 8197,
      "niu": 8198,
      "jihua": 8199,
      "yinyue": 8200,
      "tielu": 8201,
      "wenhua": 8202,
      "luosi": 8203,
      "weiyuanhui": 8204,
      "bisai": 8205,
      "pingfanggongli": 8206,
      "renming": 8207,
      "rui": 8208,
      "pa": 8209,
      "guanli": 8210,
      "tigong": 8211,
      "yishi": 8212,
      "24": 8213,
      "chuxian": 8214,
      "huodong": 8215,
      "zhijian": 8216,
      "niandai": 8217,
      "for": 8218,
      "suoyou": 8219,
      "peng": 8220,
      "zuopin": 8221,
      "mou": 8222,
      "anguo": 8223,
      "fasheng": 8224,
      "zuizhong": 8225,
      "xuexiao": 8226,
      "huai": 8227,
      "21": 8228,
      "yixie": 8229,
      "zhidao": 8230,
      "193": 8231,
      "jiaoyu": 8232,
      "deguo": 8233,
      "houlai": 8234,
      "ning": 8235,
      "23": 8236,
      "dangdi": 8237,
      "zhege": 8238,
      "chengyuan": 8239,
      "wenti": 8240,
      "jinru": 8241,
      "28": 8242,
      "fuze": 8243,
      "zuihou": 8244,
      "faxing": 8245,
      "zan": 8246,
      "juxing": 8247,
      "shishi": 8248,
      "zhizuo": 8249,
      "zhichi": 8250,
      "mula": 8251,
      "ruo": 8252,
      "xuduo": 8253,
      "22": 8254,
      "xianshi": 8255,
      "chou": 8256,
      "me": 8257,
      "fuwu": 8258,
      "shun": 8259,
      "quanguo": 8260,
      "shiwu": 8261,
      "zhui": 8262,
      "yijing": 8263,
      "ar": 8264,
      "beibu": 8265,
      "shenghuo": 8266,
      "26": 8267,
      "jishu": 8268,
      "canyu": 8269,
      "formula": 8270,
      "xuanbu": 8271,
      "yiwei": 8272,
      "shanghai": 8273,
      "in": 8274,
      "2020": 8275,
      "27": 8276,
      "disan": 8277,
      "zhanzheng": 8278,
      "difang": 8279,
      "50": 8280,
      "tongnian": 8281,
      "zhongyao": 8282,
      "xingshi": 8283,
      "qianmi": 8284,
      "dili": 8285,
      "shoudao": 8286,
      "guanxi": 8287,
      "eluosi": 8288,
      "jueding": 8289,
      "yishu": 8290,
      "fangmian": 8291,
      "jianli": 8292,
      "liangge": 8293,
      "000": 8294,
      "zhai": 8295,
      "zhishi": 8296,
      "jiaru": 8297,
      "2010": 8298,
      "shiyan": 8299,
      "lve": 8300,
      "29": 8301,
      "2019": 8302,
      "weizhi": 8303,
      "za": 8304,
      "ongheguo": 8305,
      "yiming": 8306,
      "baohu": 8307,
      "zongtong": 8308,
      "zhuanji": 8309,
      "yici": 8310,
      "huiyi": 8311,
      "ro": 8312,
      "xuesheng": 8313,
      "renmingongheguo": 8314,
      "jiemu": 8315,
      "kun": 8316,
      "ziyou": 8317,
      "muqian": 8318,
      "fenbie": 8319,
      "cui": 8320,
      "pingfangqianmi": 8321,
      "xilie": 8322,
      "minguo": 8323,
      "jieshou": 8324,
      "gongcheng": 8325,
      "lieche": 8326,
      "xuejia": 8327,
      "ra": 8328,
      "juan": 8329,
      "zuqiu": 8330,
      "wancheng": 8331,
      "fenbu": 8332,
      "ouzhou": 8333,
      "weile": 8334,
      "yiban": 8335,
      "st": 8336,
      "jier": 8337,
      "qianwang": 8338,
      "daozhi": 8339,
      "zang": 8340,
      "guanjun": 8341,
      "xuyao": 8342,
      "yaoqiu": 8343,
      "sheyou": 8344,
      "jilu": 8345,
      "chenggong": 8346,
      "yindu": 8347,
      "2018": 8348,
      "laizi": 8349,
      "nai": 8350,
      "duli": 8351,
      "shengping": 8352,
      "danwei": 8353,
      "liru": 8354,
      "zhonghuarenmingongheguo": 8355,
      "nu": 8356,
      "zuigao": 8357,
      "raner": 8358,
      "zucheng": 8359,
      "fangshi": 8360,
      "2016": 8361,
      "luan": 8362,
      "xiangguan": 8363,
      "tongyi": 8364,
      "cuo": 8365,
      "qingkuang": 8366,
      "dali": 8367,
      "zhiwu": 8368,
      "shuai": 8369,
      "tongchang": 8370,
      "renyuan": 8371,
      "xuanju": 8372,
      "yongyou": 8373,
      "gongyuan": 8374,
      "cunzai": 8375,
      "caiyong": 8376,
      "2021": 8377,
      "shiwei": 8378,
      "danshi": 8379,
      "dalu": 8380,
      "suiran": 8381,
      "xiaoshi": 8382,
      "shiqu": 8383,
      "2017": 8384,
      "midu": 8385,
      "haiba": 8386,
      "jiaotong": 8387,
      "ne": 8388,
      "kaifa": 8389,
      "shengyu": 8390,
      "xingcheng": 8391,
      "2011": 8392,
      "hezuo": 8393,
      "bingqie": 8394,
      "jiushi": 8395,
      "40": 8396,
      "gongyou": 8397,
      "tichu": 8398,
      "dedao": 8399,
      "2014": 8400,
      "yiqi": 8401,
      "2015": 8402,
      "guomin": 8403,
      "kui": 8404,
      "2013": 8405,
      "cu": 8406,
      "shuji": 8407,
      "2012": 8408,
      "site": 8409,
      "tongzhi": 8410,
      "2022": 8411,
      "dadao": 8412,
      "yibu": 8413,
      "chansheng": 8414,
      "lianmeng": 8415,
      "yixia": 8416,
      "kelan": 8417,
      "shouci": 8418,
      "chuban": 8419,
      "qihou": 8420,
      "lianhe": 8421,
      "shidai": 8422,
      "yushi": 8423,
      "jituan": 8424,
      "zhezhong": 8425,
      "tebie": 8426,
      "lt": 8427,
      "juyou": 8428,
      "shengchan": 8429,
      "jiegou": 8430,
      "ciwai": 8431,
      "fujin": 8432,
      "shuju": 8433,
      "rou": 8434,
      "jixu": 8435,
      "gushi": 8436,
      "junshi": 8437,
      "zhonggong": 8438,
      "biye": 8439,
      "gequ": 8440,
      "budui": 8441,
      "ruan": 8442,
      "kongzhi": 8443,
      "jieshu": 8444,
      "2009": 8445,
      "bushi": 8446,
      "zhuxi": 8447,
      "aer": 8448,
      "yuyan": 8449,
      "qiudui": 8450,
      "xiya": 8451,
      "fanying": 8452,
      "xiangmu": 8453,
      "geren": 8454,
      "xingxing": 8455,
      "weier": 8456,
      "juese": 8457,
      "renhe": 8458,
      "2008": 8459,
      "shiyi": 8460,
      "tuichu": 8461,
      "60": 8462,
      "yisi": 8463,
      "minzhu": 8464,
      "quyu": 8465,
      "gaodu": 8466,
      "kesi": 8467,
      "rao": 8468,
      "renkoumidu": 8469,
      "zhihui": 8470,
      "disi": 8471,
      "liansai": 8472,
      "yongyu": 8473,
      "xingdong": 8474,
      "fabu": 8475,
      "wukelan": 8476,
      "wufa": 8477,
      "zhujiao": 8478,
      "leisi": 8479,
      "die": 8480,
      "qude": 8481,
      "al": 8482,
      "jiqi": 8483,
      "lingdao": 8484,
      "niao": 8485,
      "haijun": 8486,
      "zuida": 8487,
      "zengjia": 8488,
      "qishi": 8489,
      "zhuo": 8490,
      "jigou": 8491,
      "yizuo": 8492,
      "jiancheng": 8493,
      "renshi": 8494,
      "diguo": 8495,
      "co": 8496,
      "jieguo": 8497,
      "sou": 8498,
      "chaoguo": 8499,
      "zaocheng": 8500,
      "hanguo": 8501,
      "dongwu": 8502,
      "yazhou": 8503,
      "suihou": 8504,
      "nanbu": 8505,
      "lisi": 8506,
      "jinian": 8507,
      "zhiyou": 8508,
      "zhixing": 8509,
      "chai": 8510,
      "yali": 8511,
      "zhichu": 8512,
      "pang": 8513,
      "gt": 8514,
      "31": 8515,
      "2023": 8516,
      "lingwai": 8517,
      "xuexi": 8518,
      "chuantong": 8519,
      "duiyu": 8520,
      "yilai": 8521,
      "zhiqian": 8522,
      "mingming": 8523,
      "100": 8524,
      "buguo": 8525,
      "hangkong": 8526,
      "gongji": 8527,
      "jichang": 8528,
      "mingcheng": 8529,
      "xinwen": 8530,
      "diaocha": 8531,
      "fayuan": 8532,
      "jingguo": 8533,
      "meiti": 8534,
      "2007": 8535,
      "fanwei": 8536,
      "nvxing": 8537,
      "guocheng": 8538,
      "190": 8539,
      "yidali": 8540,
      "teng": 8541,
      "zhiye": 8542,
      "shuliang": 8543,
      "chongxin": 8544,
      "2001": 8545,
      "80": 8546,
      "kexue": 8547,
      "nanzi": 8548,
      "pingjun": 8549,
      "zaici": 8550,
      "gaibian": 8551,
      "yihui": 8552,
      "jiyu": 8553,
      "juli": 8554,
      "2006": 8555,
      "xiban": 8556,
      "fabiao": 8557,
      "fuqin": 8558,
      "shichang": 8559,
      "jumin": 8560,
      "anquan": 8561,
      "fou": 8562,
      "ongsi": 8563,
      "suoyi": 8564,
      "shier": 8565,
      "lianjie": 8566,
      "chuangzuo": 8567,
      "neirong": 8568,
      "weiyi": 8569,
      "jianshe": 8570,
      "zhijie": 8571,
      "jishi": 8572,
      "2000": 8573,
      "ruguo": 8574,
      "jinshi": 8575,
      "meiyuan": 8576,
      "shengji": 8577,
      "biaozhun": 8578,
      "xibanya": 8579,
      "sheli": 8580,
      "yundongyuan": 8581,
      "fo": 8582,
      "zun": 8583,
      "nvzi": 8584,
      "geming": 8585,
      "shenzhi": 8586,
      "huanjing": 8587,
      "fandui": 8588,
      "cishi": 8589,
      "jingnei": 8590,
      "zhuren": 8591,
      "shengwu": 8592,
      "sulian": 8593,
      "2024": 8594,
      "jundui": 8595,
      "xiandai": 8596,
      "gongtong": 8597,
      "gonglu": 8598,
      "zizhi": 8599,
      "tion": 8600,
      "youguan": 8601,
      "lianbang": 8602,
      "daliang": 8603,
      "banben": 8604,
      "zheshi": 8605,
      "70": 8606,
      "jiazu": 8607,
      "nao": 8608,
      "qushi": 8609,
      "xinan": 8610,
      "gelan": 8611,
      "gongkai": 8612,
      "donghua": 8613,
      "jingli": 8614,
      "yanchang": 8615,
      "yanyuan": 8616,
      "jiaoshou": 8617,
      "2005": 8618,
      "saishi": 8619,
      "juban": 8620,
      "chuli": 8621,
      "guanyu": 8622,
      "minzu": 8623,
      "gaiwei": 8624,
      "women": 8625,
      "feichang": 8626,
      "zhiyuan": 8627,
      "jichu": 8628,
      "xuanze": 8629,
      "chule": 8630,
      "mang": 8631,
      "tun": 8632,
      "ziliao": 8633,
      "gongye": 8634,
      "taibei": 8635,
      "90": 8636,
      "haiyou": 8637,
      "mie": 8638,
      "gongchan": 8639,
      "baohan": 8640,
      "zhonghuaminguo": 8641,
      "qiye": 8642,
      "35": 8643,
      "shengya": 8644,
      "yinian": 8645,
      "sike": 8646,
      "tiyu": 8647,
      "xiehui": 8648,
      "jiezhi": 8649,
      "shiren": 8650,
      "kua": 8651,
      "xianzai": 8652,
      "youshi": 8653,
      "bixu": 8654,
      "bianma": 8655,
      "rizhi": 8656,
      "leng": 8657,
      "the": 8658,
      "chengji": 8659,
      "gaosu": 8660,
      "of": 8661,
      "baodao": 8662,
      "liyong": 8663,
      "zhuti": 8664,
      "guanxia": 8665,
      "wanquan": 8666,
      "jiating": 8667,
      "sannian": 8668,
      "zuijia": 8669,
      "bashi": 8670,
      "nianjian": 8671,
      "lo": 8672,
      "duoshu": 8673,
      "gongbu": 8674,
      "xingwei": 8675,
      "zhengce": 8676,
      "buzhang": 8677,
      "ada": 8678,
      "ter": 8679,
      "xiaoshuo": 8680,
      "zhujian": 8681,
      "zhongxue": 8682,
      "falv": 8683,
      "sheshi": 8684,
      "luoma": 8685,
      "fangfa": 8686,
      "baogao": 8687,
      "yuanyin": 8688,
      "jinguan": 8689,
      "zhandou": 8690,
      "dangzhong": 8691,
      "shenfen": 8692,
      "gaidi": 8693,
      "wuzhong": 8694,
      "juesai": 8695,
      "dianzi": 8696,
      "boshi": 8697,
      "dabufen": 8698,
      "ziran": 8699,
      "gua": 8700,
      "renlei": 8701,
      "bun": 8702,
      "ala": 8703,
      "yinhang": 8704,
      "siwang": 8705,
      "shanxi": 8706,
      "dongbei": 8707,
      "jieshi": 8708,
      "yanzhong": 8709,
      "xuanqu": 8710,
      "dongbu": 8711,
      "xianzhi": 8712,
      "dahui": 8713,
      "shangye": 8714,
      "wuguan": 8715,
      "wuli": 8716,
      "am": 8717,
      "dishi": 8718,
      "shixing": 8719,
      "guanfang": 8720,
      "sange": 8721,
      "qiyu": 8722,
      "2004": 8723,
      "redai": 8724,
      "lizi": 8725,
      "dashi": 8726,
      "zhuming": 8727,
      "gaiguo": 8728,
      "yibufen": 8729,
      "xiwang": 8730,
      "jiangjun": 8731,
      "yijia": 8732,
      "tuanti": 8733,
      "jiben": 8734,
      "gonggong": 8735,
      "fenwei": 8736,
      "zuichu": 8737,
      "bochu": 8738,
      "guangdong": 8739,
      "yanchu": 8740,
      "quanli": 8741,
      "zhizao": 8742,
      "45": 8743,
      "zaoqi": 8744,
      "pucha": 8745,
      "biaoxian": 8746,
      "xibu": 8747,
      "lilun": 8748,
      "shengfen": 8749,
      "shili": 8750,
      "quanqiu": 8751,
      "paishe": 8752,
      "to": 8753,
      "suoshu": 8754,
      "luxian": 8755,
      "zuoyong": 8756,
      "th": 8757,
      "chaoxian": 8758,
      "guimo": 8759,
      "wenwu": 8760,
      "likai": 8761,
      "xialing": 8762,
      "weng": 8763,
      "guowang": 8764,
      "wenxue": 8765,
      "huifu": 8766,
      "jianyu": 8767,
      "jibai": 8768,
      "jianada": 8769,
      "sanshi": 8770,
      "youxiang": 8771,
      "gongneng": 8772,
      "zongjiao": 8773,
      "haibagaodu": 8774,
      "miaoshu": 8775,
      "nenggou": 8776,
      "yiyang": 8777,
      "xueming": 8778,
      "48": 8779,
      "waijiao": 8780,
      "aier": 8781,
      "shengming": 8782,
      "jidu": 8783,
      "nengli": 8784,
      "jiefang": 8785,
      "yishang": 8786,
      "dixia": 8787,
      "dongjing": 8788,
      "jisuan": 8789,
      "chuyu": 8790,
      "meizhou": 8791,
      "yuehan": 8792,
      "kongjian": 8793,
      "fangxiang": 8794,
      "daqu": 8795,
      "zhuchi": 8796,
      "dongji": 8797,
      "niya": 8798,
      "chixu": 8799,
      "zhengyi": 8800,
      "yingyong": 8801,
      "touguo": 8802,
      "erzi": 8803,
      "lifa": 8804,
      "ve": 8805,
      "zhili": 8806,
      "shandong": 8807,
      "riqi": 8808,
      "moshi": 8809,
      "zhanshi": 8810,
      "jianyi": 8811,
      "xinxi": 8812,
      "jizhong": 8813,
      "daxing": 8814,
      "wuqi": 8815,
      "xingzhengqu": 8816,
      "jiancha": 8817,
      "tudi": 8818,
      "mudi": 8819,
      "hebing": 8820,
      "2025": 8821,
      "chengdu": 8822,
      "shequ": 8823,
      "guangzhou": 8824,
      "buneng": 8825,
      "jianzhi": 8826,
      "niuyue": 8827,
      "jierang": 8828,
      "mubiao": 8829,
      "sinian": 8830,
      "uni": 8831,
      "guiding": 8832,
      "guangbo": 8833,
      "36": 8834,
      "2003": 8835,
      "shihou": 8836,
      "shixian": 8837,
      "feiji": 8838,
      "jiechu": 8839,
      "paiming": 8840,
      "zhiming": 8841,
      "cengjing": 8842,
      "shide": 8843,
      "nie": 8844,
      "zhuanye": 8845,
      "qiuyuan": 8846,
      "yuanshi": 8847,
      "haoxian": 8848,
      "huaxue": 8849,
      "taiyang": 8850,
      "jiaohui": 8851,
      "chui": 8852,
      "gongchandang": 8853,
      "xila": 8854,
      "ll": 8855,
      "sitan": 8856,
      "jiedao": 8857,
      "shezhi": 8858,
      "malai": 8859,
      "danqu": 8860,
      "dongnan": 8861,
      "youxiangongsi": 8862,
      "xiaxia": 8863,
      "menggu": 8864,
      "dangxuan": 8865,
      "yundonghui": 8866,
      "zhejiang": 8867,
      "bolan": 8868,
      "gezhong": 8869,
      "bianhua": 8870,
      "chengren": 8871,
      "diwei": 8872,
      "chanpin": 8873,
      "xiaoxingxing": 8874,
      "rengran": 8875,
      "shizhang": 8876,
      "keji": 8877,
      "saiji": 8878,
      "buhui": 8879,
      "wushi": 8880,
      "renkoupucha": 8881,
      "xiangdang": 8882,
      "38": 8883,
      "diyici": 8884,
      "fengge": 8885,
      "Ma": 8886,
      "erqie": 8887,
      "jihui": 8888,
      "xibei": 8889,
      "wuxian": 8890,
      "xiangtong": 8891,
      "jinbiao": 8892,
      "lujun": 8893,
      "37": 8894,
      "wuyuan": 8895,
      "zhongshi": 8896,
      "daolu": 8897,
      "taiping": 8898,
      "jingying": 8899,
      "haishi": 8900,
      "jizai": 8901,
      "liangren": 8902,
      "keng": 8903,
      "bingyu": 8904,
      "bangong": 8905,
      "zhiding": 8906,
      "jieduan": 8907,
      "yichang": 8908,
      "musi": 8909,
      "yijian": 8910,
      "xunlian": 8911,
      "pen": 8912,
      "bali": 8913,
      "2002": 8914,
      "yuetai": 8915,
      "weiqi": 8916,
      "Co": 8917,
      "mingwei": 8918,
      "xiaji": 8919,
      "guihua": 8920,
      "dingyi": 8921,
      "liuxing": 8922,
      "bowuguan": 8923,
      "wangluo": 8924,
      "niandu": 8925,
      "shuiyu": 8926,
      "189": 8927,
      "guohui": 8928,
      "uang": 8929,
      "jiwei": 8930,
      "qizi": 8931,
      "IN": 8932,
      "mali": 8933,
      "kaifang": 8934,
      "ck": 8935,
      "ca": 8936,
      "yidong": 8937,
      "muqin": 8938,
      "enan": 8939,
      "iya": 8940,
      "34": 8941,
      "jianzao": 8942,
      "yinqi": 8943,
      "xibao": 8944,
      "xingqi": 8945,
      "siling": 8946,
      "do": 8947,
      "touzi": 8948,
      "zaodao": 8949,
      "zhixian": 8950,
      "jidi": 8951,
      "yitiao": 8952,
      "piping": 8953,
      "jizhe": 8954,
      "xiangshi": 8955,
      "aoyun": 8956,
      "qingnian": 8957,
      "75": 8958,
      "zheyi": 8959,
      "shengli": 8960,
      "yike": 8961,
      "zhidu": 8962,
      "guidao": 8963,
      "jule": 8964,
      "baofa": 8965,
      "dianli": 8966,
      "nanjing": 8967,
      "TC": 8968,
      "nanxing": 8969,
      "zheyang": 8970,
      "bumen": 8971,
      "fujian": 8972,
      "daoyan": 8973,
      "tongji": 8974,
      "julebu": 8975,
      "xuezhe": 8976,
      "gaige": 8977,
      "zhenqu": 8978,
      "weizhu": 8979,
      "ersi": 8980,
      "youqi": 8981,
      "bujiu": 8982,
      "aomen": 8983,
      "changqi": 8984,
      "bangzhu": 8985,
      "1990": 8986,
      "fenzhong": 8987,
      "diqi": 8988,
      "renzhi": 8989,
      "yiren": 8990,
      "yixiang": 8991,
      "like": 8992,
      "zhizhi": 8993,
      "jijin": 8994,
      "yuenan": 8995,
      "zhineng": 8996,
      "pinglun": 8997,
      "shizi": 8998,
      "dayue": 8999,
      "youji": 9000,
      "33": 9001,
      "chusheng": 9002,
      "sichuan": 9003,
      "dazhan": 9004,
      "xiangdui": 9005,
      "chengqu": 9006,
      "cihou": 9007,
      "siji": 9008,
      "jinji": 9009,
      "jingcha": 9010,
      "..": 9011,
      "yingyu": 9012,
      "lundun": 9013,
      "diwu": 9014,
      "gongshi": 9015,
      "shiye": 9016,
      "weilai": 9017,
      "zhengge": 9018,
      "neibu": 9019,
      "lingyu": 9020,
      "quanbu": 9021,
      "65": 9022,
      "renmen": 9023,
      "pike": 9024,
      "shangshu": 9025,
      "sudu": 9026,
      "qiche": 9027,
      "baochi": 9028,
      "yiju": 9029,
      "guanyuan": 9030,
      "mingzi": 9031,
      "yidai": 9032,
      "gongheguo": 9033,
      "lasi": 9034,
      "yingde": 9035,
      "zige": 9036,
      "zhongdian": 9037,
      "32": 9038,
      "wanjia": 9039,
      "pingtai": 9040,
      "zhongbu": 9041,
      "shengcheng": 9042,
      "shoudu": 9043,
      "xianhou": 9044,
      "39": 9045,
      "zhijin": 9046,
      "dierci": 9047,
      "dianshitai": 9048,
      "meinian": 9049,
      "fenxi": 9050,
      "lianxu": 9051,
      "duoge": 9052,
      "ziyuan": 9053,
      "churen": 9054,
      "henduo": 9055,
      "shitu": 9056,
      "55": 9057,
      "zazhi": 9058,
      "zuochu": 9059,
      "manhua": 9060,
      "weisheng": 9061,
      "aolin": 9062,
      "qixi": 9063,
      "tongyang": 9064,
      "diqiu": 9065,
      "zongrenkou": 9066,
      "jiaoyi": 9067,
      "biaoyan": 9068,
      "tiaojian": 9069,
      "jujue": 9070,
      "cheliang": 9071,
      "juzhu": 9072,
      "jingchang": 9073,
      "fenzi": 9074,
      "duoci": 9075,
      "haomi": 9076,
      "dacheng": 9077,
      "yingpian": 9078,
      "yiwai": 9079,
      "ga": 9080,
      "pingjia": 9081,
      "zuojia": 9082,
      "ditie": 9083,
      "waer": 9084,
      "gongchi": 9085,
      "wangzhan": 9086,
      "ranhou": 9087,
      "tezheng": 9088,
      "zhiwei": 9089,
      "46": 9090,
      "juqing": 9091,
      "yuanzi": 9092,
      "fenlei": 9093,
      "el": 9094,
      "xianlu": 9095,
      "zhanyi": 9096,
      "jianshao": 9097,
      "xuewei": 9098,
      "beier": 9099,
      "huozhe": 9100,
      "yiding": 9101,
      "yuanzhu": 9102,
      "jiaoshi": 9103,
      "keli": 9104,
      "xiezhu": 9105,
      "1999": 9106,
      "yewu": 9107,
      "maoyi": 9108,
      "qundao": 9109,
      "feixing": 9110,
      "zhuli": 9111,
      "meige": 9112,
      "jihu": 9113,
      "SE": 9114,
      "huidao": 9115,
      "47": 9116,
      "xiji": 9117,
      "lianxi": 9118,
      "1980": 9119,
      "zhengquan": 9120,
      "putao": 9121,
      "1998": 9122,
      "shebei": 9123,
      "qudai": 9124,
      "guangchang": 9125,
      "biancheng": 9126,
      "leixing": 9127,
      "changpian": 9128,
      "xuanchuan": 9129,
      "yiyi": 9130,
      "guoqu": 9131,
      "xieyi": 9132,
      "youxian": 9133,
      "shuguan": 9134,
      "zuizao": 9135,
      "zhuangtai": 9136,
      "zonghe": 9137,
      "biya": 9138,
      "jinshu": 9139,
      "henan": 9140,
      "The": 9141,
      "geshou": 9142,
      "helan": 9143,
      "bandao": 9144,
      "jinbiaosai": 9145,
      "yuannian": 9146,
      "jung": 9147,
      "jinzhi": 9148,
      "zhanling": 9149,
      "guji": 9150,
      "is": 9151,
      "chuqi": 9152,
      "youcheng": 9153,
      "ertong": 9154,
      "bili": 9155,
      "weiji": 9156,
      "fashe": 9157,
      "zhifu": 9158,
      "oo": 9159,
      "es": 9160,
      "huangdi": 9161,
      "yuang": 9162,
      "cansai": 9163,
      "jiazhi": 9164,
      "zuoyou": 9165,
      "zhankai": 9166,
      "zhujue": 9167,
      "yunxing": 9168,
      "guanzhong": 9169,
      "zongmianji": 9170,
      "zhiliao": 9171,
      "zhunbei": 9172,
      "aolinpike": 9173,
      "et": 9174,
      "shengzhang": 9175,
      "500": 9176,
      "beng": 9177,
      "jiguan": 9178,
      "yunshu": 9179,
      "188": 9180,
      "jiaotang": 9181,
      "xingjian": 9182,
      "zuozhan": 9183,
      "In": 9184,
      "jingong": 9185,
      "weineng": 9186,
      "gedi": 9187,
      "liuyu": 9188,
      "nongye": 9189,
      "shipin": 9190,
      "jiche": 9191,
      "linshi": 9192,
      "guangfan": 9193,
      "ernian": 9194,
      "ST": 9195,
      "pindao": 9196,
      "tianzhujiao": 9197,
      "yingwen": 9198,
      "xiju": 9199,
      "zhoushi": 9200,
      "gelei": 9201,
      "UTC": 9202,
      "49": 9203,
      "xuanshou": 9204,
      "xinjia": 9205,
      "1997": 9206,
      "saier": 9207,
      "youtai": 9208,
      "lier": 9209,
      "daduoshu": 9210,
      "zhongwen": 9211,
      "dizhi": 9212,
      "mingchao": 9213,
      "bote": 9214,
      "jiali": 9215,
      "xianfa": 9216,
      "gainian": 9217,
      "bijiao": 9218,
      "zuhe": 9219,
      "diyige": 9220,
      "fangan": 9221,
      "huoshi": 9222,
      "laiyuan": 9223,
      "ludi": 9224,
      "boli": 9225,
      "deyi": 9226,
      "queding": 9227,
      "geli": 9228,
      "youzheng": 9229,
      "zixun": 9230,
      "chengzhen": 9231,
      "yuanben": 9232,
      "jinyibu": 9233,
      "jiaoqu": 9234,
      "youren": 9235,
      "xinjiapo": 9236,
      "shouji": 9237,
      "xiongdi": 9238,
      "jicheng": 9239,
      "tiaoyue": 9240,
      "liunian": 9241,
      "malaixiya": 9242,
      "dafu": 9243,
      "zhiwai": 9244,
      "ceshi": 9245,
      "zhixia": 9246,
      "64": 9247,
      "wending": 9248,
      "jiashang": 9249,
      "fanhui": 9250,
      "vi": 9251,
      "lvyou": 9252,
      "zhendui": 9253,
      "br": 9254,
      "yunying": 9255,
      "yule": 9256,
      "dalou": 9257,
      "guomindang": 9258,
      "pohuai": 9259,
      "guonei": 9260,
      "gaozhong": 9261,
      "tianwen": 9262,
      "dengji": 9263,
      "tingzhi": 9264,
      "1996": 9265,
      "jiejue": 9266,
      "wangguo": 9267,
      "juji": 9268,
      "be": 9269,
      "shangwu": 9270,
      "gun": 9271,
      "yinfa": 9272,
      "fuli": 9273,
      "zhengming": 9274,
      "bingli": 9275,
      "fangzhi": 9276,
      "zixing": 9277,
      "wuzhi": 9278,
      "shifou": 9279,
      "zhongzhi": 9280,
      "fuhe": 9281,
      "II": 9282,
      "yinggelan": 9283,
      "jiehe": 9284,
      "kongjun": 9285,
      "yiqian": 9286,
      "68": 9287,
      "toupiao": 9288,
      "bingdu": 9289,
      "weichi": 9290,
      "shangying": 9291,
      "jiandui": 9292,
      "taipingyang": 9293,
      "guai": 9294,
      "gaoji": 9295,
      "zhimin": 9296,
      "daliya": 9297,
      "heping": 9298,
      "yuansu": 9299,
      "zhengdang": 9300,
      "zhicheng": 9301,
      "sixiang": 9302,
      "mingdan": 9303,
      "baxi": 9304,
      "yiliao": 9305,
      "putong": 9306,
      "jingshen": 9307,
      "kaer": 9308,
      "44": 9309,
      "qingchao": 9310,
      "nianqing": 9311,
      "bushao": 9312,
      "buzai": 9313,
      "nver": 9314,
      "weilian": 9315,
      "mier": 9316,
      "diyu": 9317,
      "yiduan": 9318,
      "yise": 9319,
      "zongli": 9320,
      "qilai": 9321,
      "huangjia": 9322,
      "shifen": 9323,
      "hi": 9324,
      "suizhe": 9325,
      "jianjie": 9326,
      "gandao": 9327,
      "yonghu": 9328,
      "liliang": 9329,
      "zhiyu": 9330,
      "yihou": 9331,
      "58": 9332,
      "xianjin": 9333,
      "zhengzai": 9334,
      "bianhao": 9335,
      "weiya": 9336,
      "diliu": 9337,
      "renkoushuliang": 9338,
      "xiaoxue": 9339,
      "buluo": 9340,
      "chushen": 9341,
      "yanghua": 9342,
      "shouge": 9343,
      "ss": 9344,
      "chanye": 9345,
      "guoli": 9346,
      "shuangfang": 9347,
      "tiedao": 9348,
      "buduan": 9349,
      "guofang": 9350,
      "xianwei": 9351,
      "pizhun": 9352,
      "shouru": 9353,
      "keer": 9354,
      "mishu": 9355,
      "chengxu": 9356,
      "Re": 9357,
      "1992": 9358,
      "yanjiusuo": 9359,
      "gengming": 9360,
      "cengren": 9361,
      "renshu": 9362,
      "chaoji": 9363,
      "sao": 9364,
      "yitong": 9365,
      "aodaliya": 9366,
      "youxiao": 9367,
      "yili": 9368,
      "wenwubaohu": 9369,
      "qixiang": 9370,
      "1994": 9371,
      "hexin": 9372,
      "qixia": 9373,
      "tuer": 9374,
      "jiangsu": 9375,
      "yisheng": 9376,
      "and": 9377,
      "hanshu": 9378,
      "wanren": 9379,
      "yunnan": 9380,
      "yiselie": 9381,
      "quxiao": 9382,
      "shaonian": 9383,
      "1995": 9384,
      "sishi": 9385,
      "fengbao": 9386,
      "wuzhuang": 9387,
      "youxie": 9388,
      "youyi": 9389,
      "zhuyan": 9390,
      "gongren": 9391,
      "taolun": 9392,
      "erde": 9393,
      "jiage": 9394,
      "chongjian": 9395,
      "dianshiju": 9396,
      "78": 9397,
      "suizhu": 9398,
      "shangwei": 9399,
      "congshi": 9400,
      "baoliu": 9401,
      "xiaozu": 9402,
      "youming": 9403,
      "jiefangjun": 9404,
      "gongmin": 9405,
      "gongchang": 9406,
      "chongtu": 9407,
      "mingxian": 9408,
      "daxi": 9409,
      "wunian": 9410,
      "jiashi": 9411,
      "76": 9412,
      "ali": 9413,
      "xiawu": 9414,
      "yixi": 9415,
      "qiyi": 9416,
      "hunan": 9417,
      "weihui": 9418,
      "zhishao": 9419,
      "wenjian": 9420,
      "xianren": 9421,
      "siren": 9422,
      "yaoqing": 9423,
      "yunxu": 9424,
      "zongbu": 9425,
      "kuaisu": 9426,
      "ruxia": 9427,
      "keda": 9428,
      "yuetuan": 9429,
      "yimin": 9430,
      "1950": 9431,
      "tiaozheng": 9432,
      "rijun": 9433,
      "wuren": 9434,
      "yifu": 9435,
      "timing": 9436,
      "weisi": 9437,
      "jiankang": 9438,
      "zhuzuo": 9439,
      "shenqing": 9440,
      "jiejin": 9441,
      "300": 9442,
      "yuqi": 9443,
      "fadong": 9444,
      "99": 9445,
      "touru": 9446,
      "wangchao": 9447,
      "ganran": 9448,
      "shibing": 9449,
      "cailiao": 9450,
      "Mi": 9451,
      "shoulu": 9452,
      "gongxian": 9453,
      "jiji": 9454,
      "yidu": 9455,
      "aolinpikeyundonghui": 9456,
      "1993": 9457,
      "ty": 9458,
      "huashi": 9459,
      "lishuyu": 9460,
      "56": 9461,
      "minzhong": 9462,
      "wenzhang": 9463,
      "bingwei": 9464,
      "dehua": 9465,
      "xiaoshou": 9466,
      "haian": 9467,
      "feizhou": 9468,
      "xingzhengquhua": 9469,
      "gongfen": 9470,
      "moxi": 9471,
      "zidong": 9472,
      "kaolv": 9473,
      "fengxian": 9474,
      "suozai": 9475,
      "42": 9476,
      "77": 9477,
      "1991": 9478,
      "ande": 9479,
      "1970": 9480,
      "gaodeng": 9481,
      "caizheng": 9482,
      "dongli": 9483,
      "tuandui": 9484,
      "shijiedazhan": 9485,
      "xiaoxi": 9486,
      "xiaoli": 9487,
      "changjian": 9488,
      "run": 9489,
      "zufu": 9490,
      "teshu": 9491,
      "nuli": 9492,
      "yiner": 9493,
      "weishi": 9494,
      "guanzhu": 9495,
      "Li": 9496,
      "lianheguo": 9497,
      "jiangxi": 9498,
      "anpai": 9499,
      "qiyong": 9500,
      "paichu": 9501,
      "dida": 9502,
      "daji": 9503,
      "zaidu": 9504,
      "chulai": 9505,
      "xianchang": 9506,
      "pe": 9507,
      "shoushang": 9508,
      "jingfang": 9509,
      "qiaozhi": 9510,
      "chengxian": 9511,
      "guancha": 9512,
      "guanzhi": 9513,
      "kecheng": 9514,
      "yinggai": 9515,
      "fun": 9516,
      "1945": 9517,
      "lake": 9518,
      "shouyu": 9519,
      "fangwen": 9520,
      "jiehun": 9521,
      "furen": 9522,
      "buzu": 9523,
      "rengong": 9524,
      "59": 9525,
      "yilang": 9526,
      "yixue": 9527,
      "jiudu": 9528,
      "mingling": 9529,
      "hewu": 9530,
      "dushi": 9531,
      "moxing": 9532,
      "chuanbo": 9533,
      "fenzhi": 9534,
      "1949": 9535,
      "yiti": 9536,
      "weixing": 9537,
      "chuangli": 9538,
      "shuofa": 9539,
      "zhongguogongchandang": 9540,
      "xifang": 9541,
      "gongzhong": 9542,
      "tushuguan": 9543,
      "yizhang": 9544,
      "xingzhi": 9545,
      "falan": 9546,
      "xialai": 9547,
      "xianxiang": 9548,
      "1988": 9549,
      "zhengju": 9550,
      "dongshi": 9551,
      "zizhiqu": 9552,
      "diya": 9553,
      "jiaoliu": 9554,
      "fojiao": 9555,
      "zhuzhang": 9556,
      "1960": 9557,
      "jieke": 9558,
      "66": 9559,
      "qiuchang": 9560,
      "zhizi": 9561,
      "xiangsi": 9562,
      "jige": 9563,
      "tianjin": 9564,
      "haizi": 9565,
      "dachen": 9566,
      "wenming": 9567,
      "nali": 9568,
      "renminzhengfu": 9569,
      "anjian": 9570,
      "benzhan": 9571,
      "liewei": 9572,
      "yuanxing": 9573,
      "xinzeng": 9574,
      "at": 9575,
      "keluo": 9576,
      "yange": 9577,
      "daoshi": 9578,
      "changshi": 9579,
      "deli": 9580,
      "xinli": 9581,
      "ruqin": 9582,
      "kandao": 9583,
      "daoda": 9584,
      "Ro": 9585,
      "AT": 9586,
      "tisheng": 9587,
      "shuzi": 9588,
      "sige": 9589,
      "rongyu": 9590,
      "tigao": 9591,
      "aosi": 9592,
      "banian": 9593,
      "houxuan": 9594,
      "bangongshi": 9595,
      "suiji": 9596,
      "shenti": 9597,
      "yulei": 9598,
      "xiaozhang": 9599,
      "57": 9600,
      "didian": 9601,
      "chukou": 9602,
      "diannao": 9603,
      "taiguo": 9604,
      "zhongguorenmin": 9605,
      "43": 9606,
      "houzhe": 9607,
      "shizhong": 9608,
      "gaiming": 9609,
      "ruci": 9610,
      "zaonian": 9611,
      "chuangban": 9612,
      "yinsu": 9613,
      "goucheng": 9614,
      "1989": 9615,
      "liyi": 9616,
      "shaoshu": 9617,
      "shinian": 9618,
      "juren": 9619,
      "dongxi": 9620,
      "danbai": 9621,
      "qianshu": 9622,
      "alabo": 9623,
      "dizhen": 9624,
      "liren": 9625,
      "youzhengbianma": 9626,
      "diantai": 9627,
      "dimian": 9628,
      "biaoming": 9629,
      "xingtai": 9630,
      "tixi": 9631,
      "yingyun": 9632,
      "SEE": 9633,
      "zuobiao": 9634,
      "conger": 9635,
      "fadian": 9636,
      "shibai": 9637,
      "liangzhong": 9638,
      "dailai": 9639,
      "41": 9640,
      "zongdu": 9641,
      "88": 9642,
      "duode": 9643,
      "hengxing": 9644,
      "shanmai": 9645,
      "pengyou": 9646,
      "rukou": 9647,
      "faqi": 9648,
      "bianji": 9649,
      "xueshu": 9650,
      "69": 9651,
      "duozhong": 9652,
      "yonglai": 9653,
      "jieji": 9654,
      "chexiao": 9655,
      "jizhi": 9656,
      "fachu": 9657,
      "bimian": 9658,
      "yisilan": 9659,
      "bujin": 9660,
      "jingdian": 9661,
      "aodili": 9662,
      "shangshi": 9663,
      "zhoubian": 9664,
      "zhiliang": 9665,
      "pingmian": 9666,
      "TV": 9667,
      "ruidian": 9668,
      "buli": 9669,
      "zhaokai": 9670,
      "duonian": 9671,
      "weixie": 9672,
      "kefu": 9673,
      "SA": 9674,
      "putaoya": 9675,
      "bide": 9676,
      "zijin": 9677,
      "pubian": 9678,
      "zhuangkuang": 9679,
      "ho": 9680,
      "beimei": 9681,
      "caozuo": 9682,
      "zhenshi": 9683,
      "67": 9684,
      "zimu": 9685,
      "xinhao": 9686,
      "suidao": 9687,
      "quanmian": 9688,
      "haiyu": 9689,
      "tongxing": 9690,
      "tiaozhan": 9691,
      "laishuo": 9692,
      "jixie": 9693,
      "liji": 9694,
      "buke": 9695,
      "zheli": 9696,
      "shuiping": 9697,
      "shichu": 9698,
      "shifan": 9699,
      "shengwei": 9700,
      "biaoda": 9701,
      "yuanzhang": 9702,
      "dangnian": 9703,
      "wanglu": 9704,
      "INSEE": 9705,
      "quanzhang": 9706,
      "huanying": 9707,
      "zhizhong": 9708,
      "chuzhan": 9709,
      "NA": 9710,
      "Me": 9711,
      "mouxie": 9712,
      "qia": 9713,
      "zheci": 9714,
      "ct": 9715,
      "bianjie": 9716,
      "dajiang": 9717,
      "jiunian": 9718,
      "xijie": 9719,
      "yaowu": 9720,
      "caiqu": 9721,
      "gege": 9722,
      "shoufu": 9723,
      "zengzhang": 9724,
      "moer": 9725,
      "jiudian": 9726,
      "ruishi": 9727,
      "xinjiang": 9728,
      "nanbei": 9729,
      "bofang": 9730,
      "1984": 9731,
      "shiyu": 9732,
      "chongqing": 9733,
      "dangju": 9734,
      "yanshen": 9735,
      "niandi": 9736,
      "buming": 9737,
      "shenme": 9738,
      "duishou": 9739,
      "jingzheng": 9740,
      "keyun": 9741,
      "bingfei": 9742,
      "nanji": 9743,
      "79": 9744,
      "biaomian": 9745,
      "minzhudang": 9746,
      "moxige": 9747,
      "baise": 9748,
      "yingli": 9749,
      "51": 9750,
      "denglu": 9751,
      "bude": 9752,
      "52": 9753,
      "chuxi": 9754,
      "zhongjian": 9755,
      "lvke": 9756,
      "zhuchang": 9757,
      "cuoshi": 9758,
      "waiguo": 9759,
      "pingfangmi": 9760,
      "hebei": 9761,
      "yousuo": 9762,
      "zhengti": 9763,
      "zhushi": 9764,
      "shimin": 9765,
      "1985": 9766,
      "kangyi": 9767,
      "fuyi": 9768,
      "xialingshi": 9769,
      "hongse": 9770,
      "yixilie": 9771,
      "boluo": 9772,
      "guanggao": 9773,
      "daxiyang": 9774,
      "teding": 9775,
      "haer": 9776,
      "wanli": 9777,
      "minjian": 9778,
      "ver": 9779,
      "lvshi": 9780,
      "nd": 9781,
      "xiyin": 9782,
      "maer": 9783,
      "jinrong": 9784,
      "xunsu": 9785,
      "qiangdiao": 9786,
      "xianxing": 9787,
      "gonghui": 9788,
      "yingji": 9789,
      "tuidong": 9790,
      "qiong": 9791,
      "qiuji": 9792,
      "quefa": 9793,
      "haiyang": 9794,
      "xinyang": 9795,
      "jidujiao": 9796,
      "fanyi": 9797,
      "xiaoxing": 9798,
      "wenzi": 9799,
      "yiqing": 9800,
      "ruxuan": 9801,
      "meili": 9802,
      "guandian": 9803,
      "yumao": 9804,
      "lanqiu": 9805,
      "62": 9806,
      "shiti": 9807,
      "ws": 9808,
      "chuangzao": 9809,
      "niang": 9810,
      "chengzuo": 9811,
      "54": 9812,
      "feilv": 9813,
      "zainei": 9814,
      "guize": 9815,
      "chufa": 9816,
      "yichu": 9817,
      "zujian": 9818,
      "zhishu": 9819,
      "1986": 9820,
      "sunshi": 9821,
      "zhongshan": 9822,
      "gaoxiong": 9823,
      "jihe": 9824,
      "jisi": 9825,
      "jinpai": 9826,
      "zhaodao": 9827,
      "yuji": 9828,
      "tuiyi": 9829,
      "gongzhu": 9830,
      "heliu": 9831,
      "fangqi": 9832,
      "zhongyu": 9833,
      "boer": 9834,
      "wi": 9835,
      "chengke": 9836,
      "qianglie": 9837,
      "wanmeiyuan": 9838,
      "houqi": 9839,
      "yifen": 9840,
      "leiji": 9841,
      "zhongda": 9842,
      "guowuyuan": 9843,
      "benshen": 9844,
      "ber": 9845,
      "wutai": 9846,
      "heyue": 9847,
      "jingyan": 9848,
      "yuzhou": 9849,
      "aozhou": 9850,
      "shouxian": 9851,
      "shizhi": 9852,
      "yinqing": 9853,
      "zuozhe": 9854,
      "1987": 9855,
      "qiyuan": 9856,
      "pinpai": 9857,
      "queren": 9858,
      "ry": 9859,
      "jieshao": 9860,
      "qianshen": 9861,
      "ouyuan": 9862,
      "yangshi": 9863,
      "jibing": 9864,
      "fushi": 9865,
      "senlin": 9866,
      "anzhuang": 9867,
      "53": 9868,
      "as": 9869,
      "feilvbin": 9870,
      "goumai": 9871,
      "hecheng": 9872,
      "gh": 9873,
      "cankao": 9874,
      "nianchu": 9875,
      "bulu": 9876,
      "zhanhou": 9877,
      "mingzhi": 9878,
      "huasheng": 9879,
      "houxuanren": 9880,
      "zizhu": 9881,
      "xihuan": 9882,
      "sake": 9883,
      "tainan": 9884,
      "jiangxiang": 9885,
      "liushi": 9886,
      "riyu": 9887,
      "dongfang": 9888,
      "xiaoguo": 9889,
      "zishen": 9890,
      "150": 9891,
      "400": 9892,
      "tiji": 9893,
      "lading": 9894,
      "shijishang": 9895,
      "shuxue": 9896,
      "wanyuan": 9897,
      "wanzheng": 9898,
      "laidao": 9899,
      "xuqiu": 9900,
      "neige": 9901,
      "taifeng": 9902,
      "guwen": 9903,
      "lishu": 9904,
      "per": 9905,
      "tizhang": 9906,
      "duiwu": 9907,
      "nang": 9908,
      "tese": 9909,
      "shigu": 9910,
      "zhuangzhi": 9911,
      "fuza": 9912,
      "daguimo": 9913,
      "faan": 9914,
      "72": 9915,
      "shiyou": 9916,
      "yuedui": 9917,
      "zhongzi": 9918,
      "juda": 9919,
      "rongyi": 9920,
      "xinxing": 9921,
      "yibian": 9922,
      "ruhe": 9923,
      "xiansheng": 9924,
      "lingxiu": 9925,
      "jiandan": 9926,
      "fumu": 9927,
      "make": 9928,
      "BA": 9929,
      "wenxian": 9930,
      "nanfang": 9931,
      "hubei": 9932,
      "yiyu": 9933,
      "beiqi": 9934,
      "renqi": 9935,
      "shengtai": 9936,
      "anhui": 9937,
      "gufen": 9938,
      "61": 9939,
      "jiance": 9940,
      "1982": 9941,
      "dazhi": 9942,
      "fuyu": 9943,
      "ts": 9944,
      "aierlan": 9945,
      "lingtu": 9946,
      "zhuanyi": 9947,
      "shenjing": 9948,
      "shuailing": 9949,
      "gelun": 9950,
      "fuluo": 9951,
      "haiwai": 9952,
      "tidao": 9953,
      "jieti": 9954,
      "xier": 9955,
      "shoushi": 9956,
      "shuoshi": 9957,
      "98": 9958,
      "gaizao": 9959,
      "dawei": 9960,
      "quezhen": 9961,
      "ena": 9962,
      "banfa": 9963,
      "zhengchang": 9964,
      "huiying": 9965,
      "no": 9966,
      "yingshi": 9967,
      "bentu": 9968,
      "xiongyali": 9969,
      "fi": 9970,
      "CD": 9971,
      "chuanshuo": 9972,
      "xiangbi": 9973,
      "xinren": 9974,
      "1983": 9975,
      "gongju": 9976,
      "Vi": 9977,
      "71": 9978,
      "youli": 9979,
      "baowei": 9980,
      "baoli": 9981,
      "xingxiang": 9982,
      "peihe": 9983,
      "hunhe": 9984,
      "jingxuan": 9985,
      "Mo": 9986,
      "guangxu": 9987,
      "liangnian": 9988,
      "De": 9989,
      "lafu": 9990,
      "cunzhuang": 9991,
      "haidao": 9992,
      "zhengzhuang": 9993,
      "zhiliu": 9994,
      "zhongzu": 9995,
      "shangren": 9996,
      "jiayi": 9997,
      "nisi": 9998,
      "xingqu": 9999,
      "jiangdi": 10000,
      "anzhao": 10001,
      "kaitong": 10002,
      "renda": 10003,
      "yuanxian": 10004,
      "63": 10005,
      "guangxi": 10006,
      "wuhan": 10007,
      "ercheng": 10008,
      "beipo": 10009,
      "yingxiong": 10010,
      "zhuzhai": 10011,
      "yanshi": 10012,
      "juzhang": 10013,
      "buman": 10014,
      "wanshang": 10015,
      "shuru": 10016,
      "guanbi": 10017,
      "xuehui": 10018,
      "fashou": 10019,
      "ciji": 10020,
      "didi": 10021,
      "jiaowei": 10022,
      "youyong": 10023,
      "shidi": 10024,
      "Win": 10025,
      "amp": 10026,
      "xiangzheng": 10027,
      "zhuanjia": 10028,
      "gongying": 10029,
      "180": 10030,
      "huanzhe": 10031,
      "jiyi": 10032,
      "gengjia": 10033,
      "chuangjian": 10034,
      "liebiao": 10035,
      "sanjiao": 10036,
      "shehuizhuyi": 10037,
      "xiangji": 10038,
      "jiaren": 10039,
      "weixian": 10040,
      "wuzi": 10041,
      "biaozhi": 10042,
      "bolin": 10043,
      "yiyou": 10044,
      "jiren": 10045,
      "shougou": 10046,
      "lijie": 10047,
      "juti": 10048,
      "daxiao": 10049,
      "jiyin": 10050,
      "Sta": 10051,
      "shifang": 10052,
      "jiulong": 10053,
      "dazhong": 10054,
      "1979": 10055,
      "yinshi": 10056,
      "You": 10057,
      "maike": 10058,
      "gaicheng": 10059,
      "zhuanmen": 10060,
      "zhouwei": 10061,
      "gonghe": 10062,
      "jiaoxue": 10063,
      "xiajiang": 10064,
      "shijiebei": 10065,
      "chayi": 10066,
      "xiwei": 10067,
      "kuoda": 10068,
      "73": 10069,
      "zhongduo": 10070,
      "yingchi": 10071,
      "caineng": 10072,
      "fushu": 10073,
      "guoshi": 10074,
      "mingyi": 10075,
      "tuerqi": 10076,
      "74": 10077,
      "fanzui": 10078,
      "ol": 10079,
      "jianren": 10080,
      "weili": 10081,
      "chengben": 10082,
      "ad": 10083,
      "guojiadui": 10084,
      "xizang": 10085,
      "zuan": 10086,
      "zhonggongzhongyang": 10087,
      "fayu": 10088,
      "baozhang": 10089,
      "zhounian": 10090,
      "feichu": 10091,
      "qingqiu": 10092,
      "feili": 10093,
      "guli": 10094,
      "huishi": 10095,
      "jinnian": 10096,
      "zhuangjia": 10097,
      "shouwei": 10098,
      "manzu": 10099,
      "aiji": 10100,
      "kaishe": 10101,
      "zuoqu": 10102,
      "gudai": 10103,
      "qianlong": 10104,
      "yuangong": 10105,
      "guangdongsheng": 10106,
      "fugai": 10107,
      "shua": 10108,
      "gaishan": 10109,
      "piaofang": 10110,
      "baocun": 10111,
      "qidong": 10112,
      "bulai": 10113,
      "yiwu": 10114,
      "huayuan": 10115,
      "chengbao": 10116,
      "gaosugonglu": 10117,
      "bingru": 10118,
      "cici": 10119,
      "mimi": 10120,
      "shengren": 10121,
      "luofu": 10122,
      "shiyinwei": 10123,
      "lvxing": 10124,
      "naxie": 10125,
      "qibing": 10126,
      "sili": 10127,
      "canmou": 10128,
      "shexian": 10129,
      "1978": 10130,
      "chushi": 10131,
      "jiaolian": 10132,
      "gaoyu": 10133,
      "shige": 10134,
      "eryan": 10135,
      "miandui": 10136,
      "95": 10137,
      "guding": 10138,
      "mala": 10139,
      "wendu": 10140,
      "zhongyi": 10141,
      "fangyu": 10142,
      "budao": 10143,
      "lingshi": 10144,
      "biande": 10145,
      "bosi": 10146,
      "aoyunhui": 10147,
      "jiandu": 10148,
      "fuhao": 10149,
      "shishang": 10150,
      "luoman": 10151,
      "zhantai": 10152,
      "touxiang": 10153,
      "funi": 10154,
      "shijia": 10155,
      "suowei": 10156,
      "meijun": 10157,
      "nuowei": 10158,
      "yiqie": 10159,
      "yunzuo": 10160,
      "zhanlve": 10161,
      "tongche": 10162,
      "yisuo": 10163,
      "dongzuo": 10164,
      "daban": 10165,
      "seng": 10166,
      "shizheng": 10167,
      "canyiyuan": 10168,
      "fuqiyu": 10169,
      "heise": 10170,
      "changdu": 10171,
      "yimeiyuan": 10172,
      "zaiyu": 10173,
      "geer": 10174,
      "OS": 10175,
      "xunhui": 10176,
      "jinri": 10177,
      "lichang": 10178,
      "kelisi": 10179,
      "zhexue": 10180,
      "henkuai": 10181,
      "qingbao": 10182,
      "chuyan": 10183,
      "duiying": 10184,
      "fangwu": 10185,
      "dianhua": 10186,
      "Wi": 10187,
      "dezhi": 10188,
      "qixuan": 10189,
      "dongbeibu": 10190,
      "baoluo": 10191,
      "huaren": 10192,
      "kaizhan": 10193,
      "yalishan": 10194,
      "henda": 10195,
      "jixing": 10196,
      "diba": 10197,
      "yanjiuyuan": 10198,
      "huanghou": 10199,
      "bubing": 10200,
      "zhikong": 10201,
      "zhongyou": 10202,
      "zhongxing": 10203,
      "dasha": 10204,
      "linjin": 10205,
      "saer": 10206,
      "ruanjian": 10207,
      "tongdao": 10208,
      "tanke": 10209,
      "taikong": 10210,
      "fuzhi": 10211,
      "lingdaoren": 10212,
      "lingyi": 10213,
      "haixia": 10214,
      "yimei": 10215,
      "yuanming": 10216,
      "1946": 10217,
      "nianling": 10218,
      "shinei": 10219,
      "yuanze": 10220,
      "duici": 10221,
      "lieru": 10222,
      "zeren": 10223,
      "Jo": 10224,
      "baoshou": 10225,
      "La": 10226,
      "xiugai": 10227,
      "yichan": 10228,
      "jiaji": 10229,
      "fulei": 10230,
      "85": 10231,
      "daibiaodahui": 10232,
      "danmai": 10233,
      "huashengdun": 10234,
      "gezi": 10235,
      "yinru": 10236,
      "yanse": 10237,
      "shanqu": 10238,
      "cujin": 10239,
      "yingye": 10240,
      "bianju": 10241,
      "yijiao": 10242,
      "ditu": 10243,
      "yitian": 10244,
      "jiajing": 10245,
      "shendu": 10246,
      "masi": 10247,
      "daqiao": 10248,
      "zhuangbei": 10249,
      "taibeishi": 10250,
      "1920": 10251,
      "huizhang": 10252,
      "sugelan": 10253,
      "buzhi": 10254,
      "kelai": 10255,
      "xuang": 10256,
      "liangci": 10257,
      "lingxian": 10258,
      "zhijing": 10259,
      "xiujian": 10260,
      "zhenzheng": 10261,
      "jiaqiang": 10262,
      "shanxisheng": 10263,
      "tujing": 10264,
      "yongzuo": 10265,
      "zhongguorenminjiefangjun": 10266,
      "1981": 10267,
      "bula": 10268,
      "1958": 10269,
      "us": 10270,
      "xingbie": 10271,
      "yibei": 10272,
      "beifang": 10273,
      "yinni": 10274,
      "1940": 10275,
      "jianghui": 10276,
      "jiuzhi": 10277,
      "Ja": 10278,
      "guodu": 10279,
      "89": 10280,
      "zhaopian": 10281,
      "name": 10282,
      "duixiang": 10283,
      "shuoming": 10284,
      "liaojie": 10285,
      "nengliang": 10286,
      "taizi": 10287,
      "junguan": 10288,
      "wudao": 10289,
      "jianshi": 10290,
      "erren": 10291,
      "daili": 10292,
      "tuixiu": 10293,
      "sheding": 10294,
      "daiyou": 10295,
      "guizu": 10296,
      "shanji": 10297,
      "funv": 10298,
      "laodong": 10299,
      "kala": 10300,
      "1948": 10301,
      "kangri": 10302,
      "huoxing": 10303,
      "tayu": 10304,
      "yixing": 10305,
      "luwaer": 10306,
      "der": 10307,
      "cuowu": 10308,
      "yuanyou": 10309,
      "banyan": 10310,
      "CO": 10311,
      "zhangguan": 10312,
      "gaizhi": 10313,
      "xiaoqu": 10314,
      "ly": 10315,
      "jiazhou": 10316,
      "faguan": 10317,
      "xiangying": 10318,
      "jufeng": 10319,
      "fenpei": 10320,
      "xiangxi": 10321,
      "daibu": 10322,
      "jiangshu": 10323,
      "xueshi": 10324,
      "baozha": 10325,
      "tianqi": 10326,
      "AR": 10327,
      "jiameng": 10328,
      "buji": 10329,
      "gi": 10330,
      "xieer": 10331,
      "fengfu": 10332,
      "qinwang": 10333,
      "shicong": 10334,
      "guance": 10335,
      "huigui": 10336,
      "chushou": 10337,
      "dingwei": 10338,
      "peiyin": 10339,
      "telei": 10340,
      "1000": 10341,
      "xiaqu": 10342,
      "dengdeng": 10343,
      "liuxia": 10344,
      "zhizheng": 10345,
      "fenli": 10346,
      "sasi": 10347,
      "xixing": 10348,
      "Pa": 10349,
      "kela": 10350,
      "wangshi": 10351,
      "yanchanghui": 10352,
      "gouzao": 10353,
      "zhanxian": 10354,
      "zhuanxiang": 10355,
      "jiesan": 10356,
      "cinian": 10357,
      "jiazhong": 10358,
      "shasi": 10359,
      "zhongqi": 10360,
      "zhuce": 10361,
      "duiwai": 10362,
      "zhangda": 10363,
      "yiran": 10364,
      "xianyou": 10365,
      "xiaofang": 10366,
      "celiang": 10367,
      "qingchu": 10368,
      "yumaoqiu": 10369,
      "xiangxin": 10370,
      "junqu": 10371,
      "keshi": 10372,
      "ction": 10373,
      "yongtu": 10374,
      "shangchang": 10375,
      "1972": 10376,
      "Te": 10377,
      "mushi": 10378,
      "dongnanbu": 10379,
      "BC": 10380,
      "tongmeng": 10381,
      "1930": 10382,
      "xibeibu": 10383,
      "yanan": 10384,
      "hengli": 10385,
      "kongqi": 10386,
      "tw": 10387,
      "benpian": 10388,
      "Pro": 10389,
      "huangjin": 10390,
      "dajia": 10391,
      "zichan": 10392,
      "mingque": 10393,
      "sima": 10394,
      "yipian": 10395,
      "lude": 10396,
      "quanshi": 10397,
      "nanyi": 10398,
      "nike": 10399,
      "shushi": 10400,
      "heer": 10401,
      "yanhai": 10402,
      "Le": 10403,
      "fulan": 10404,
      "zhongyiyuan": 10405,
      "guoyu": 10406,
      "neilu": 10407,
      "kasi": 10408,
      "mini": 10409,
      "92": 10410,
      "zhiji": 10411,
      "qiwei": 10412,
      "shouxi": 10413,
      "daima": 10414,
      "ir": 10415,
      "shengge": 10416,
      "erzhan": 10417,
      "zuijin": 10418,
      "yizu": 10419,
      "shengyin": 10420,
      "erji": 10421,
      "luxu": 10422,
      "lusi": 10423,
      "shenhua": 10424,
      "xiashu": 10425,
      "dingju": 10426,
      "heli": 10427,
      "shanghaishi": 10428,
      "dasai": 10429,
      "wuyue": 10430,
      "donglin": 10431,
      "huojian": 10432,
      "1956": 10433,
      "bendi": 10434,
      "ciyu": 10435,
      "yanyi": 10436,
      "1941": 10437,
      "--": 10438,
      "tuijin": 10439,
      "hunyin": 10440,
      "lixiang": 10441,
      "AM": 10442,
      "Windo": 10443,
      "zhuanxie": 10444,
      "fanzhi": 10445,
      "hans": 10446,
      "dianqi": 10447,
      "xinanbu": 10448,
      "xianghu": 10449,
      "nacui": 10450,
      "junzhu": 10451,
      "duikang": 10452,
      "yuci": 10453,
      "1976": 10454,
      "shouzhang": 10455,
      "hepan": 10456,
      "nanhai": 10457,
      "yuanlai": 10458,
      "fenlan": 10459,
      "fuxing": 10460,
      "beijingshi": 10461,
      "luoke": 10462,
      "gongyi": 10463,
      "1975": 10464,
      "fushe": 10465,
      "zhize": 10466,
      "liwei": 10467,
      "BS": 10468,
      "bianxing": 10469,
      "AC": 10470,
      "quanxian": 10471,
      "liangming": 10472,
      "shuyuan": 10473,
      "dailing": 10474,
      "xiaofei": 10475,
      "mosike": 10476,
      "ribao": 10477,
      "fangyan": 10478,
      "wuer": 10479,
      "weihu": 10480,
      "daduo": 10481,
      "fulang": 10482,
      "hongzha": 10483,
      "huiyuan": 10484,
      "guanjian": 10485,
      "shiduan": 10486,
      "iu": 10487,
      "sifa": 10488,
      "yizhou": 10489,
      "daoyu": 10490,
      "weici": 10491,
      "Po": 10492,
      "turan": 10493,
      "shihe": 10494,
      "zhangfu": 10495,
      "zhuban": 10496,
      "xunzhao": 10497,
      "lunwen": 10498,
      "daodan": 10499,
      "zhiyao": 10500,
      "Su": 10501,
      "bilishi": 10502,
      "shengmu": 10503,
      "xiuzheng": 10504,
      "miandian": 10505,
      "1947": 10506,
      "taidu": 10507,
      "zhandi": 10508,
      "yishou": 10509,
      "yinan": 10510,
      "libu": 10511,
      "1937": 10512,
      "qianding": 10513,
      "ld": 10514,
      "Windows": 10515,
      "buer": 10516,
      "93": 10517,
      "Be": 10518,
      "600": 10519,
      "tongpai": 10520,
      "Ga": 10521,
      "shiliu": 10522,
      "youtairen": 10523,
      "1968": 10524,
      "daqi": 10525,
      "chengzhang": 10526,
      "liangzhe": 10527,
      "kexueyuan": 10528,
      "diercishijiedazhan": 10529,
      "juben": 10530,
      "kaluo": 10531,
      "xianyi": 10532,
      "jiangshi": 10533,
      "xiangjiao": 10534,
      "zhengxie": 10535,
      "yunyong": 10536,
      "duifang": 10537,
      "beisi": 10538,
      "zhangai": 10539,
      "benshu": 10540,
      "paiqian": 10541,
      "eer": 10542,
      "banli": 10543,
      "jiaoda": 10544,
      "fuzhu": 10545,
      "sida": 10546,
      "juntuan": 10547,
      "youci": 10548,
      "dangtian": 10549,
      "limi": 10550,
      "gengxin": 10551,
      "nongmin": 10552,
      "tanpan": 10553,
      "Mar": 10554,
      "wangong": 10555,
      "fuzhou": 10556,
      "buxiang": 10557,
      "dangwei": 10558,
      "matou": 10559,
      "tuxing": 10560,
      "jili": 10561,
      "qifu": 10562,
      "yuanli": 10563,
      "qiyue": 10564,
      "Di": 10565,
      "xiaoyuan": 10566,
      "qingjie": 10567,
      "Ne": 10568,
      "zuiduo": 10569,
      "fuer": 10570,
      "shenzhen": 10571,
      "zhuangshi": 10572,
      "jinbu": 10573,
      "huihe": 10574,
      "shaonv": 10575,
      "dengshang": 10576,
      "yibai": 10577,
      "zhizai": 10578,
      "youxiu": 10579,
      "huoshan": 10580,
      "Da": 10581,
      "biru": 10582,
      "Ar": 10583,
      "jintian": 10584,
      "kunnan": 10585,
      "jijinhui": 10586,
      "licheng": 10587,
      "huyu": 10588,
      "xisi": 10589,
      "kangxi": 10590,
      "120": 10591,
      "kongbu": 10592,
      "1944": 10593,
      "tupo": 10594,
      "deyu": 10595,
      "deer": 10596,
      "huahewu": 10597,
      "86": 10598,
      "qinzi": 10599,
      "biang": 10600,
      "gongjue": 10601,
      "duizhang": 10602,
      "houxu": 10603,
      "luoji": 10604,
      "hanyu": 10605,
      "zuoyi": 10606,
      "con": 10607,
      "shengchu": 10608,
      "zhebu": 10609,
      "yuanyi": 10610,
      "shiyue": 10611,
      "neizhan": 10612,
      "liangxiang": 10613,
      "wuyi": 10614,
      "chaoting": 10615,
      "canxuan": 10616,
      "ER": 10617,
      "qianzhi": 10618,
      "paihang": 10619,
      "hk": 10620,
      "moni": 10621,
      "zhimindi": 10622,
      "juedui": 10623,
      "buru": 10624,
      "lingren": 10625,
      "shouquan": 10626,
      "jijie": 10627,
      "jihou": 10628,
      "shiyanshi": 10629,
      "IC": 10630,
      "eri": 10631,
      "1938": 10632,
      "zhechang": 10633,
      "shencha": 10634,
      "weike": 10635,
      "pinggu": 10636,
      "wangqiu": 10637,
      "wannian": 10638,
      "To": 10639,
      "changjing": 10640,
      "lvse": 10641,
      "qingxing": 10642,
      "jiangling": 10643,
      "1973": 10644,
      "Tu": 10645,
      "rd": 10646,
      "yalishanda": 10647,
      "benren": 10648,
      "gelunbiya": 10649,
      "kongzhong": 10650,
      "tongxun": 10651,
      "Lo": 10652,
      "chiyou": 10653,
      "xianzhu": 10654,
      "1939": 10655,
      "chaichu": 10656,
      "1952": 10657,
      "gaishi": 10658,
      "Ca": 10659,
      "gaijian": 10660,
      "zhouqi": 10661,
      "wangwang": 10662,
      "lianren": 10663,
      "agen": 10664,
      "kuozhan": 10665,
      "Se": 10666,
      "queshi": 10667,
      "ziben": 10668,
      "diren": 10669,
      "geshi": 10670,
      "yanhua": 10671,
      "jisuanji": 10672,
      "daibiaotuan": 10673,
      "weiyou": 10674,
      "xili": 10675,
      "youxing": 10676,
      "jiala": 10677,
      "shouxiang": 10678,
      "va": 10679,
      "jianchi": 10680,
      "kelin": 10681,
      "zhangzi": 10682,
      "fadongji": 10683,
      "cen": 10684,
      "feier": 10685,
      "bianjing": 10686,
      "bushu": 10687,
      "maoze": 10688,
      "wusi": 10689,
      "nengyuan": 10690,
      "guizhou": 10691,
      "wudi": 10692,
      "1964": 10693,
      "musilin": 10694,
      "xiufu": 10695,
      "qinian": 10696,
      "1966": 10697,
      "mianfei": 10698,
      "banbu": 10699,
      "jifen": 10700,
      "yudao": 10701,
      "banshichu": 10702,
      "daer": 10703,
      "didai": 10704,
      "minge": 10705,
      "fayan": 10706,
      "IS": 10707,
      "siwei": 10708,
      "juyuan": 10709,
      "zhudao": 10710,
      "changjiang": 10711,
      "xiaoliang": 10712,
      "pingyuan": 10713,
      "bairen": 10714,
      "maozedong": 10715,
      "tianhuang": 10716,
      "yanfa": 10717,
      "jiaohuan": 10718,
      "yigong": 10719,
      "shuiku": 10720,
      "xinjian": 10721,
      "weifan": 10722,
      "sizhi": 10723,
      "1974": 10724,
      "lingyou": 10725,
      "liangce": 10726,
      "yinpai": 10727,
      "pifu": 10728,
      "daxuan": 10729,
      "chuzi": 10730,
      "one": 10731,
      "tedian": 10732,
      "quebao": 10733,
      "gongan": 10734,
      "JR": 10735,
      "96": 10736,
      "nal": 10737,
      "hali": 10738,
      "ensheng": 10739,
      "87": 10740,
      "83": 10741,
      "nianshi": 10742,
      "yiri": 10743,
      "dazhou": 10744,
      "1955": 10745,
      "jingdu": 10746,
      "Bo": 10747,
      "zisha": 10748,
      "AP": 10749,
      "zhongjiang": 10750,
      "qianting": 10751,
      "gaojia": 10752,
      "zaoyu": 10753,
      "zhide": 10754,
      "shisan": 10755,
      "baer": 10756,
      "800": 10757,
      "dianji": 10758,
      "deming": 10759,
      "82": 10760,
      "dute": 10761,
      "fahui": 10762,
      "yidian": 10763,
      "Si": 10764,
      "luoshanji": 10765,
      "zhongwei": 10766,
      "jilong": 10767,
      "tuiguang": 10768,
      "caifang": 10769,
      "beike": 10770,
      "guominzhengfu": 10771,
      "tuzhong": 10772,
      "kaoshi": 10773,
      "wuge": 10774,
      "1977": 10775,
      "Ba": 10776,
      "youzhu": 10777,
      "zhaohe": 10778,
      "diceng": 10779,
      "shuwei": 10780,
      "zhejiangsheng": 10781,
      "cizhan": 10782,
      "zouxiang": 10783,
      "dasuan": 10784,
      "yanjing": 10785,
      "ciqu": 10786,
      "yixian": 10787,
      "teer": 10788,
      "Fi": 10789,
      "huoyue": 10790,
      "1942": 10791,
      "1954": 10792,
      "jiti": 10793,
      "nier": 10794,
      "duoer": 10795,
      "agenting": 10796,
      "gaishu": 10797,
      "mm": 10798,
      "zhanji": 10799,
      "lianluo": 10800,
      "yanzhi": 10801,
      "weirao": 10802,
      "zhongli": 10803,
      "shangsheng": 10804,
      "hanyou": 10805,
      "nongcun": 10806,
      "shiqing": 10807,
      "shiernian": 10808,
      "shiying": 10809,
      "oumeng": 10810,
      "tianti": 10811,
      "xiezuo": 10812,
      "juzhong": 10813,
      "lianhehui": 10814,
      "jueyi": 10815,
      "mp": 10816,
      "Ra": 10817,
      "160": 10818,
      "1971": 10819,
      "zhiyeshengya": 10820,
      "1943": 10821,
      "geguo": 10822,
      "kaogu": 10823,
      "1900": 10824,
      "sta": 10825,
      "ki": 10826,
      "benzuo": 10827,
      "kaojin": 10828,
      "renquan": 10829,
      "jianzhuwu": 10830,
      "shangpin": 10831,
      "fenlie": 10832,
      "teli": 10833,
      "1965": 10834,
      "zhua": 10835,
      "suoxie": 10836,
      "zhanlan": 10837,
      "jiangjin": 10838,
      "cizhi": 10839,
      "dejun": 10840,
      "91": 10841,
      "wangzi": 10842,
      "shandongsheng": 10843,
      "gongjin": 10844,
      "gongjiao": 10845,
      "yuanzhumin": 10846,
      "liangwei": 10847,
      "xietiao": 10848,
      "1967": 10849,
      "guanliju": 10850,
      "bulei": 10851,
      "zhubu": 10852,
      "erci": 10853,
      "churukou": 10854,
      "kexuejia": 10855,
      "1959": 10856,
      "1969": 10857,
      "lixue": 10858,
      "chuanmei": 10859,
      "ED": 10860,
      "xishou": 10861,
      "Na": 10862,
      "zhuru": 10863,
      "zhengbian": 10864,
      "81": 10865,
      "lizhi": 10866,
      "jushi": 10867,
      "duoming": 10868,
      "eguo": 10869,
      "toulu": 10870,
      "zhengmian": 10871,
      "yuyi": 10872,
      "benjie": 10873,
      "84": 10874,
      "yinyong": 10875,
      "gaizhuang": 10876,
      "faming": 10877,
      "jinggao": 10878,
[...]
