#version: 0.2
ä ¸
ä º
ç ļ
çļ Ħ
å ħ
å ı
æ ľ
ã Ģ
å ¹
ä »
å ¤
å ľ
å Ĳ
å Ī
å Ľ
å ®
å¹ ´
ä ½
æ Ĺ
ç Ķ
å į
æ ĸ
è ¿
å °
æ ĺ
ä ¹
ç »
ãĢ ģ
åľ ¨
ä¸ º
å Ĭ
æ Ī
ä ¼
ä¸ Ģ
å Ń
å Į
å ¸
è ¯
è ®
ä¸ Ń
å Ĩ
åĽ ½
äº º
æĺ ¯
å º
æ Ŀ
å ¼
å ·
äº İ
å ¾
é ĩ
ç ī
ç §
è ¡
ç º
å¤ §
æ ī
é Ģ
æľ ī
å ±
æ Ķ
å ĩ
å Ĵ
åĴ Į
2 0
æ Ń
é ĥ
è µ
è Ģ
æ ķ
å ½
å İ
æľ Ī
å ¯
æ °
é Ļ
æ ĭ
æĹ ¥
ç Ľ
è ĩ
æ ³
å ¥
æ ł
ç İ
1 9
é ĺ
ä» ¥
åĲ İ
æĹ ¶
â Ģ
å ĳ
äº Ĩ
åľ °
æ ²
ç «
æ µ
ä¼ ļ
åŃ ¦
è §
æ Ģ
è ¾
è ´
æĪ Ĳ
é Ĺ
è ½
é Ŀ
å Ł
ä¸ ª
ç Ĳ
ä¸ Ĭ
éĥ ¨
å ī
æĸ ¯
é ķ
ä¸ İ
è¡ Į
ä» ĸ
åĩ º
ä¸ į
æ ¯
åĮ º
æ ´
æ ŀ
æ Ĭ
æ İ
åħ ¬
ç ¬
åħ ¶
åı ĳ
æ ¸
ç ½
ä½ ľ
çĶ Ł
æ Ľ
å° Ķ
åĲ į
ä ¿
ä¸ »
åĪ Ĩ
è ¢
ç Ń
è ĥ
ä¹ ĭ
é ģ
æĸ ¹
ç¬ ¬
çĶ ¨
å® ¶
å §
ãĢ ĭ
ãĢ Ĭ
è ¥
å¹ ¶
ç ¾
è¥ ¿
æ³ ķ
åĪ °
å ¿
èĢ Į
Â ·
æ ¬
é ¢
åĨ Ľ
å »
åı Ĭ
è¢ «
ä ¾
æĶ ¿
ä½ į
ç ±
çĶ ±
æ Į
æľ ¬
ç ľ
æ ±
æ° ĳ
è ·
é Ľ
é ¦
ä¸ ĭ
å¸ Ĥ
å ĵ
å¯ ¹
åĲ Į
è ģ
è ĭ
åħ ĭ
åĬ ¨
æĿ ¥
çī ¹
éķ ¿
è¿ Ļ
å¤ ļ
ä» »
èĩ ª
å¼ Ģ
éĩ Į
åĳ ĺ
åį Ĺ
é ©
åŃ Ĳ
åı ¯
æĸ °
å¹ ³
è ī
å Ŀ
è İ
åĬ ł
å¾ ·
åĮ Ĺ
ãĢ Į
ãĢ į
æľ Ģ
æĸ ĩ
å £
åĪ ©
æ Ļ
ç¾ İ
é «
åī į
ä¸ ľ
ä» £
é« ĺ
äº ļ
éĿ ¢
æµ ·
æī Ģ
¦ ģ
å¾ Ĺ
èĩ ³
ç ¤
å» º
è Ī
éĹ ´
æŃ ¤
åĨ ħ
åĽ ł
äº ĭ
âĢ ľ
ä¸ ī
âĢ Ŀ
çİ °
è¿ Ľ
çĶ µ
) ,
ä¹ Ł
çī ©
è¿ ĩ
èµ Ľ
20 1
çŃ ī
åı °
åº ¦
è½ ¦
åħ ¥
è¯ ¥
ç» ı
å½ ĵ
éģ ĵ
ç ¥
è ¦ģ
ç« ĭ
æĪ ĺ
å° Ĩ
çĲ Ĩ
ç ©
è¡ ¨
ä½ ĵ
ç Ł
ç ķ
æĭ ī
é ¡
å ¦
è °
å ²
æľ º
æķ Ļ
æľ Ł
ä¸ ĸ
è Ĳ
é ļ
æ ı
å· ¥
åĪ ¶
ç ®
èĥ ½
äº Į
å¤ ĸ
åĲ Ī
æ į
è· ¯
å® ļ
åı £
çľ ģ
å¸ ĥ
æ¬ ¡
æ Ħ
é© ¬
è® ¾
åħ ±
æĢ §
éĺ Ł
åľ º
éĢ ļ
ä¸ ļ
å± ±
å° ı
20 0
çĲ ĥ
ä½ Ĩ
è Ĭ
ä½ ¿
é ĵ
è ¶
åį ģ
ä¸Ģ ä¸ª
èĢ ħ
å· ŀ
åĮ ĸ
åħ ¨
æ ĥ
ç ³
æķ °
ç§ į
é £
ç§ °
å¤ ©
è Ĥ
ç½ Ĺ
ç§ ĳ
ç ł
æ Ł
çº ¿
ç Ļ
å¼ ı
ç± ³
ç« Ļ
éĩ į
å® ī
é Ł
èģ Ķ
æ ģ
ç Ĥ
ä¸ ¤
é Ĥ
ç³ »
æ¯ Ķ
æ ¼
ç ¼
1 0
ç Ī
æ ¡
ç ¦
ç ¨
å ¢
æĢ »
éĢ ī
è¿ Ĳ
åĬ Ľ
åİ ¿
åħ °
å£ «
çĽ ¸
éĻ ¢
æ ¹
åŁ º
åħ ³
ä¸Ń åĽ½
éĥ ½
æ² »
åİ Ł
è¾ ¾
åŁ İ
ç» Ł
å ģ
æł ¼
èµ ·
ç» Ħ
æŃ £
æĺ İ
é »
çº ¦
åı ·
èĭ ±
æ° ´
å½ ±
å° ¼
æĪ ĸ
å± ŀ
åº ľ
å ¡
æİ ¥
åı ¸
è® ¡
éĩ ĳ
çĽ ®
é¦ ĸ
çİ ĭ
è® ®
æı Ĳ
åį İ
ç Ħ
ä» ¬
éĺ ¿
åĽ Ľ
ä» İ
åĪ Ĺ
åħ ĥ
ç ģ
æ¼ Ķ
å· ´
ç¾İ åĽ½
è ĳ
0 0
å¦ Ĥ
äº §
è¯ Ń
å Ģ
é ħ
åı Ĥ
åı ²
éĩ ı
å ŀ
æĶ ¹
å¸ ¸
å¥ ³
æ ®
æ ¶
1 å¹´
éķ ĩ
åĲ ĳ
0 å¹´
è £
è į
åĬ ¡
æŀ Ĺ
5 å¹´
1 8
åĮ ħ
æ¸ ¯
å ¨
) .
æĽ ¾
æĹ ł
èİ ·
2 å¹´
äºº åı£
çĦ ¶
äº ¤
å Ķ
å® ŀ
å¿ ĥ
4 å¹´
é Ķ
åı Ĺ
é ľ
ä½į äºİ
ç» ´
æĦ ı
åİ Ĩ
ç» ĵ
èī ²
çķ Į
çº §
ä¹ Ĳ
3 å¹´
æī ĭ
å§ ĭ
ä¿ Ŀ
å§ Ķ
åĪ Ļ
ä¹ ī
æ Ĵ
å¤ Ħ
1 2
åħ ļ
è§ Ĩ
ä¹ ¦
ç ´
åĽ ¢
8 å¹´
6 å¹´
ç® ¡
å½ ¢
ç¨ ĭ
æ £
å¯ ¼
å ĭ
è® ¤
æį ®
ç± »
æ² ³
å° ±
åį ¡
éĹ ¨
æ ·
æĮ ĩ
æľĪ 2
çĽ ´
20 2
7 å¹´
åį ķ
é Ĵ
ç ĥ
è¯ ´
éŁ ³
äº Ľ
å¹ ¿
åŀ ĭ
å· ²
åº Ķ
æĺ Ł
éĽ Ĩ
ç¤ º
å¥ ¥
æµ ģ
é¢ Ĩ
ç¤ ¾
å ł
ä¼ ł
æ º
æĮ ģ
é ²
åĵ ģ
çĤ ¹
è º
æł ¡
æĽ ´
å± ķ
å¤ «
e r
ç ĭ
åĽ ŀ
è Į
ä¸ ¾
æĻ ®
æ¸ ¸
ä¸ ĩ
1 1
ç§ ¯
èº «
æ ¢
ç© º
19 9
åı į
é ª
èµ Ħ
æĶ¿ åºľ
æĥ ħ
å® ĺ
ç ¡
çº ª
äº Ķ
æ´ »
è¿ ĺ
é ¾
åĩ »
a n
æĶ ¯
é¦ Ļ
æł ĩ
æĬ ¥
æ »
e Ġ
o r
å¸ Ī
åĲ Ħ
æ¹ ¾
éĵ ģ
åĪ «
è Ĵ
éĢ ł
å¤§ åŃ¦
çº ³
è Ļ
åı ĸ
ä½¿ çĶ¨
( )
ç Ĭ
åı ¤
å² Ľ
ç ĸ
æĪĲ ä¸º
å¤ ª
æĹ¥ æľ¬
i n
åī §
å± Ģ
åħ¬ åı¸
åı ĺ
æĭ ¬
9 å¹´
ç ı
æľ ¯
åŃ Ĺ
å ķ
å¥ ¹
ç Ŀ
æĹ ı
ä¸ ĵ
åĳ ½
åĮħ æĭ¬
åľ° åĮº
éĿ ŀ
å¸ ¦
èĳ Ĺ
åĽ½ å®¶
å¼ ł
è® º
è¿ ĳ
åį ³
å¼Ģ å§ĭ
çł Ķ
æľ Ŀ
æ± Ł
åĨ ³
ä¿ ¡
è§ £
æ´ ²
æĽ ²
èĬ Ĥ
ç Ĺ
ç¥ ŀ
é£ İ
o n
çī ĩ
å° ĳ
èģ Į
ä» ¶
ä»¥ åıĬ
ç ²
è¿Ľ è¡Į
ä¼ Ĭ
åĽ ¾
è Ħ
æľ ª
ç ĵ
è® °
åı ª
ç ¿
å¹³ æĸ¹
å® ĥ
æľĪ 1
æł ¹
æĿ ĥ
æ² ¡
çŁ ³
éĻ ħ
ç¬¬ ä¸Ģ
èĭ ı
æ¯ ı
ç¼ ĸ
è§ Ĵ
è½ ¬
åı¯ ä»¥
æĶ ¾
æ³ ¢
æ ¨
äº ¬
ä¾ ĭ
åħ¶ ä¸Ń
æĶ ¶
æĿ ¡
çļĦ ä¸Ģ
åĪ Ĵ
è° ĥ
é¾ Ļ
åħ¬ éĩĮ
é¦Ļ æ¸¯
åĳ ¨
åħ ī
åķ Ĩ
åĪ Ľ
æ¸ ħ
è¿ ŀ
åĪ Ŀ
æ° Ķ
æŃ Į
ç¦ »
æĿ ĳ
å ĸ
æ ĳ
çī Ī
éĻ Ĩ
éĥ¨ åĪĨ
ç© ¶
å Ļ
å¾ Ģ
äºº æ°ĳ
å¤ ´
èİ· å¾Ĺ
è ±
åŃ £
çŁ ¥
ä¸ĸ çķĮ
Ġ 19
åı Ī
éĿ¢ ç§¯
åħ Ī
çłĶ ç©¶
åİ »
å¯ Ĩ
æŀ Ħ
åŁ Ł
æ´ ¾
ä» ¤
æī ĵ
ç» Ń
æŀ ľ
åĬ ŀ
å¼ º
éļ ı
æŁ ¥
å¨ ģ
ä¸» è¦ģ
çĻ ½
åĨ į
åħ µ
äº ī
åº §
æŃ ¦
ä»ĸ ä»¬
ç¦ ı
å¤ į
è§ Ĥ
èĤ ²
è£ ħ
åİĨ åı²
å® Į
åħ Ń
l a
åĻ ¨
è®¤ ä¸º
å¼ ķ
é¡ ¹
æ® µ
æ ļ
é¢ ĺ
è¶ ³
åı° æ¹¾
åĵ Ī
æ²¡ æľī
ä¸ Ķ
æĿ İ
ç ĳ
å¡ Ķ
æľ į
éĻ ¤
å± ħ
å® £
æ¬ §
æĪ ı
ç½ ĳ
æĴ Ń
ç» Ī
è§ Ħ
æĭ ħ
åį ı
èĲ ¥
äº ¦
è® ¸
1 5
åħ¶ ä»ĸ
æİ ¨
è ı
çĵ ¦
åľ £
ä» ½
å§Ķ åĳĺ
å¥ ĸ
åľ Ł
æ¡ Ī
ç½ ®
å½ ķ
ä¿ ®
è´ ¨
è ¨
äº ²
èĲ ¨
è¨ Ģ
çĶ ·
æĺ¯ ä¸Ģ
å Ħ
a r
æº Ĳ
ç¬¬ äºĮ
åŃ ĺ
å¸ Ŀ
ä»£ è¡¨
éĹ ®
åĭ Ĵ
Ġ 201
ä» Ĭ
è¯ Ħ
åĽ Ń
æ ¥
e n
åħ ·
ç» Ļ
æĬ ¤
ä¾ Ľ
éĽ ·
è¿Ĳ åĬ¨
é¦ Ĩ
æŃ »
æĬ ķ
åħ «
çĪ ±
æĶ¿ æ²»
çĶ± äºİ
æ³ķ åĽ½
éĢ Ł
åį ĥ
åĩ Ĩ
å® Ĺ
åį °
å¢ ŀ
è¾ ĥ
è¶ ħ
ä¼ ¯
å¢ ĥ
æ´ Ľ
19 8
å¸ Į
æ± Ĥ
åĬ Ł
è§ ģ
çĶµ å½±
çĶ »
çļĦ ä¸Ģä¸ª
æ± ī
èĩ ´
Ġ åľ¨
( ),
åĿ ĩ
åį ĩ
å¤ ĩ
1 6
åı ¦
è¯ º
åĬ ©
åį «
å·¥ ä½ľ
åį ļ
ç Į
çİ ĩ
èİ ±
éĺ ³
åĦ ¿
è¾ ¹
ä¼ Ĺ
å¥ ½
è Ĺ
é ¥
å ĥ
å® ¢
å® ¹
èĪ ª
ä¼ ¦
åĳ Ĭ
åĲĮ æĹ¶
æĹ ©
æ¨ ¡
åĽł æŃ¤
ç ª
ä¹ Į
åĲ ī
è¯ ķ
ä¿ Ħ
ä½ľ ä¸º
æİ Ĵ
åī ¯
èī º
æł ·
æµ İ
å¾ Ī
çģ «
çİ ¯
æķ ħ
å¡ ŀ
æĪ ĳ
æĶ »
åĽ½ éĻħ
é» Ħ
çĶ °
ç¾ ¤
å· ±
èĬ ±
åı¯ èĥ½
æ¯ į
ä¹ Ŀ
çĪ ¶
æĸ ½
åĵ į
çı Ń
è ħ
åĽ ´
è¡¨ ç¤º
æĬ Ģ
s Ġ
ä¸Ń å¿ĥ
æķ ´
é² ģ
æ² Ļ
ç» §
åĮ »
1 7
æĭħ ä»»
å¤ ±
å¸Ĥ éķĩ
çŃ ĳ
èĲ ½
çĹ ħ
ä¸Ń åįİ
åħ ´
è¯ ģ
ç» ĩ
ç³» ç»Ł
ä¹ĭ åĲİ
åĽł ä¸º
æ ¦
è´ £
ä¹ ¡
å¿ Ĺ
å¸ Ń
éĩ ĩ
éĺ ²
èĪ °
å® ¤
è Ń
å± Ĥ
æī ĺ
éĿ Ĵ
çĽ Ł
3 0
ä¸ ĥ
æĦ Ł
èŃ ¦
éľ Ģ
çĻ »
å½ĵ æĹ¶
åĨ ł
çĭ ¬
èĭ± åĽ½
è´ Ł
åį Ĭ
é º
æ¹ ĸ
æĹ¶ éĹ´
æ¸¸ æĪı
éĢļ è¿ĩ
å£ °
çĶµ è§Ĩ
å§ Ĩ
éĤ £
çĻ ¾
éħ į
ä»ĸ çļĦ
ç ¢
èĩª å·±
åı Į
è½¦ ç«Ļ
) ãĢģ
éĻ Ī
ä¸Ń çļĦ
æł¹ æį®
a l
åł Ĥ
é» ĳ
åıĳ çİ°
æĺ ĵ
çĥ Ń
çļ ĩ
åĨ Ļ
( ,
è¡Į æĶ¿
ç¡ ®
çº ¢
çĬ ¶
é£ ŀ
åıĳ å±ķ
æĪĲ ç«ĭ
æģ ©
ä½ ķ
å¤ ı
æľŁ éĹ´
æ· ±
ä» į
èĢ ĥ
æŀ ģ
ä½ ı
åį ł
ç ħ
é ±
åħ± åĴĮ
æ£ ®
è¡ Ĺ
è¶ Ĭ
éĻ Ĳ
å¤ ®
å° Ħ
é ¸
é± ¼
çĶ ²
æŃ ¥
a t
è®¾ è®¡
ç¤¾ ä¼ļ
âĢ Ķ
é£ Ł
è® ©
1 4
âĢĿ .
å»º çŃĳ
äºİ 19
åĥ ı
åŁ ĥ
è± ¡
ä¹ĭ ä¸Ģ
æĽ ¼
æĿ Ģ
å¯ Ł
è´ ¹
èĮ ĥ
ãĢį ,
å± Ĭ
æİ §
æī ¹
ç¥ ¨
ä» ħ
è¿Ļ äºĽ
æ ½
è´ Ŀ
æĻ ¯
ç»Ħ ç»ĩ
æĸ Ļ
æ Ĥ
åŃ¦ éĻ¢
å¥ ĩ
æ´ ĭ
å² ģ
åıĤ åĬł
ä¸į åĲĮ
æµ ĭ
çķ Ļ
èĢ ģ
ä¸Ń å¤®
å§Ķåĳĺ ä¼ļ
è¿ ª
åĨ ľ
æ¥ ¼
æĸĩ åĮĸ
ä½ İ
æŃ ¢
ä¸ĸ çºª
å· Ŀ
å½± åĵį
æ¯Ķ èµĽ
èĥ ľ
éĿ ©
è¯ į
åĵ ¥
ç§° ä¸º
å¾ ĭ
çī Į
é¡ ¿
s t
æĥ ³
å±ŀ äºİ
æİ Ī
f or
æķ Ī
å ĺ
æ³ °
è¾ ĸ
ä¾ ¿
å¹³æĸ¹ åħ¬éĩĮ
æ ¤
æľ ¨
éĻ į
åĩ ł
ç§ »
è¿ °
çľ Ł
i c
1 3
æ ħ
åģ ľ
æī į
æ° ı
éĵ ¶
æ¡ ¥
ãĢį .
èĴ Ļ
æĪ ¿
å¿ µ
æĺ ¾
éŁ³ ä¹Ĳ
æī ¿
æĢ ģ
çĿ Ģ
è´ ¥
å ©
ç´ ¢
æ ¾
åħ±åĴĮ åĽ½
åº ķ
åº ·
åº ĵ
é¢ Ħ
ä¸» ä¹ī
é Ń
m u
åŃ¦ æł¡
å¾ ģ
ç´ ł
æ´» åĬ¨
20 å¹´
çī Ļ
è¾ ĳ
çľ ĭ
å¼ ¹
åĶ ±
åħ ¸
ä½ľ åĵģ
æŃ£ å¼ı
æ¶ Ī
æıĲ ä¾Ľ
åĪ© äºļ
ç® Ģ
è®¡ åĪĴ
åĩº çİ°
ç½Ĺ æĸ¯
è½ ½
ä¹ ł
19 4
æīĢ æľī
æģ ¯
ä» ·
å ³
ä¹ĭ éĹ´
éĻ Ħ
ç»ı æµİ
ç®¡ çĲĨ
åıĳ çĶŁ
æľĢ ç»Ī
éĵģ è·¯
çł ģ
âĢĿ ,
çĳ ŀ
æī §
æĹ¶ æľŁ
è¿ ľ
19 7
åĿ ¦
æĪ ·
å¹ ²
åı ĭ
åŁİ å¸Ĥ
åĨ µ
ç® Ĺ
ä¾ §
æķĻ èĤ²
ç¥ ĸ
éĢ Ģ
éŁ ©
å® Ī
æ» ¡
äº ĳ
åĲİ æĿ¥
æ³ ¨
èĪ ¹
mu la
å½ĵ åľ°
è¯ ·
è¯ Ŀ
Ġ S
æ¸ ©
éĤ ¦
for mula
5 æĹ¥
åĢ Ļ
ä½ Ļ
ä½ Ľ
æ Ĳ
æĬ Ĭ
ç« ł
ä¸ ģ
è¿Ļ ä¸ª
i t
ç² ¾
æĬ Ĺ
å® ģ
ãĢĭ ,
çĽ ĳ
æľĢ åĲİ
åĪ¶ ä½ľ
åł ¡
Ġ 200
æľ Ľ
a m
æĹ §
è´Ł è´£
å¾· åĽ½
å· ¦
æĪĲ åĳĺ
ä¸Ĭ çļĦ
æĭ ¿
éĹ® é¢ĺ
æľ Ĺ
éª Į
åĬ ¿
è¿Ľ åħ¥
æĢ Ŀ
ä¸ ´
è®¸ å¤ļ
åĪ ĺ
å ´
çª ģ
é ¹
çł ´
å¿ «
å® «
æĹ ħ
ä¾ Ŀ
19 5
d Ġ
åİ ĭ
åº Ħ
ç¬¬ ä¸ī
åĲį ä¸º
èİ «
ä¼ ¼
ä¹Ł æĺ¯
æĪĺ äºī
e l
å¯ Į
æ¢ ħ
çĿ £
åĢ ¼
12 æľĪ
åģ ļ
åħ¨ åĽ½
æĶ¯ æĮģ
å° ģ
èĹ ı
æ° ¸
åĲ «
Ġ 202
6 æĹ¥
å» ¶
7 æĹ¥
æĸ Ĺ
èĴ Ĥ
19 6
ä¸Ģ äºĽ
æĭ Ķ
çĶŁ æ´»
åİ ħ
åį ¢
äºº çļĦ
çħ §
äº ¡
æľį åĬ¡
å¼ Ĺ
éļ ¾
åİ Ĥ
ç» Ĩ
æ¾ ³
4 æĹ¥
åĪ ¤
æ ĵ
æł ¸
10 æľĪ
æŀ ¶
ä¸ ¹
å¤§ çļĦ
éģ Ĺ
ä¼ ¤
å°¼ äºļ
å®£ å¸ĥ
çļ ®
èĻ ½
9 æľĪ
7 æľĪ
å½ Ĵ
åį° åº¦
åı ³
ä¿Ħ ç½Ĺæĸ¯
å·² ç»ı
è¯ Ĩ
åº Ĩ
8 æľĪ
åıĤ ä¸İ
åľ° æĸ¹
ä¸¾ è¡Į
æĸ Ń
åħ³ ç³»
3 æĹ¥
åıĳ è¡Į
éĹ »
3 æľĪ
ç Ĩ
è½ ®
5 0
åįĥ ç±³
é ½
5 æľĪ
åı ¶
äºİ 201
ä¸ ½
æĿ °
åº Ĺ
æĸ¹ éĿ¢
ç¤ ¼
åĶ Ĳ
åĨ³ å®ļ
å·¥ ç¨ĭ
ï ¼
åĲĮ å¹´
éĩį è¦ģ
è Ľ
è¶³ çĲĥ
r o
åĮĹ äº¬
åĪ ĩ
ä¸¤ ä¸ª
ä¼ ĺ
çŃ ĸ
ä¸ ¥
20 20å¹´
ä¸Ĭ æµ·
r e
åº Ń
èµ °
t h
6 æľĪ
å¿ ħ
è¯ »
æĭ ¥
19 å¹´
ç» Ŀ
éģ Ń
1 æľĪ
0å¹´ ä»£
å° ļ
èģĶ åĲĪ
äºº çī©
å¼ Ĥ
åĺ ī
éĥ ¡
äºĭ ä»¶
ç» ĥ
æį ¢
åĮĹ éĥ¨
åĨł åĨĽ
é© »
å½ ¹
èµ «
åŃ¦ å®¶
èĬĤ çĽ®
æ¤ į
Ġ çĶŁ
å² ¸
éº ¦
éĩ İ
åŃ¦ çĶŁ
å¼ Ł
ä¼ļ è®®
19 3
æ² ¹
äººæ°ĳ åħ±åĴĮåĽ½
æĬĢ æľ¯
4 æľĪ
éĢ Ĳ
åĶ ®
èĥ Į
11 æľĪ
æ¯ ķ
æĿ ¾
åĪ° äºĨ
åĬł åħ¥
é ³
å¯ º
èī ¾
è ĵ
åį ´
ä¿Ŀ æĬ¤
00 0
åĪĹ è½¦
ä¹ ħ
æĢ» ç»Ł
æ¬§ æ´²
ç½ ²
èı ²
éļ Ĩ
è®¾ æľī
æĻ ļ
é ¼
å¹³æĸ¹ åįĥç±³
Ġ C
èĪ ¬
å ª
æĿ¥ èĩª
åĪĨ åĪ«
ç« ¯
ä¸º äºĨ
çĽ® åīį
ç ¯
æĺ ¥
çŁ Ń
éĢ ģ
åħ ¹
åĪĨ å¸ĥ
åħĭ åħ°
éľĢ è¦ģ
ç³» åĪĹ
ä¹ ĺ
ä½ ³
å° ½
æĿ Ł
i l
å® Ŀ
å®Į æĪĲ
çļĦ äºº
ä¸Ńåįİ äººæ°ĳåħ±åĴĮåĽ½
éĢļ å¸¸
é¡ º
æ°ĳ åĽ½
ä» Ģ
æ² ¿
æľ «
æĹ Ĺ
å»º ç«ĭ
åĲ ¯
èį ī
æĺ¯ åľ¨
åįĹ éĥ¨
åº ı
åŃĺ åľ¨
éĺ ¶
éĺ µ
èį ¯
å¯¼ èĩ´
èĢ ¶
éĽ Ħ
éħ Ĵ
æļ ´
æĸ¯ çī¹
æ¯ Ľ
æĪĲ åĬŁ
i on
æ³ ½
åħ ¼
é¢ ĳ
åħ± æľī
åĨ ²
è½ »
è¦ģ æ±Ĥ
æĳ Ħ
çĭ¬ ç«ĭ
è· Ŀ
çĦ¶ èĢĮ
äºĨ ä¸Ģ
ç»Ħ æĪĲ
ä¾ĭ å¦Ĥ
æĳ ©
æľĢ é«ĺ
a Ġ
éĶ Ģ
æľĪ1 æĹ¥
æ¬ ¾
c h
è¾ ĵ
åįķ ä½į
Ġ åİĨåı²
èĻ½ çĦ¶
æµ· æĭĶ
å¼Ģ åıĳ
æĭ¥ æľī
å¸ ķ
o l
èĩª çĶ±
ãĢģ ãĢĬ
e t
çģ µ
åŃ Ļ
ä¸ĵ è¾ĳ
çŃ ¾
åª Ĵ
çĽ¸ åħ³
ä¹Į åħĭåħ°
ãĢĭ (
ç± į
å© ļ
çİ Ľ
æĥħ åĨµ
çĶ¨ äºİ
ç½ ª
é¡ »
èīº æľ¯
ĠçĶŁ å¹³
æĿ Ĥ
çº ½
é¥ °
æ£ Ģ
éĽ ħ
å¹¶ ä¸Ķ
é¡ ¶
çĲĥ éĺŁ
éĢī ä¸¾
å¯Ĩ åº¦
æĿ ¨
èģĶ çĽŁ
y Ġ
éĩĩ çĶ¨
ä»ĸ åľ¨
æŀ ª
å Ĥ
æıĲ åĩº
ä» ĭ
åīį å¾Ģ
8 æĹ¥
åĬ ³
ç§ Ģ
åħ į
o u
çķ ¥
åıĹ åĪ°
æ² ĥ
å· ®
æĭ į
2 5
éĢ ı
è¿ ½
å® ³
äº ¿
æ ¿
å· ¡
20 19å¹´
ãĢĭ .
æĸ¹ å¼ı
çĽ ĸ
åĩ ı
èĭ ¥
è§Ĵ èī²
è´ ¢
äºº åĳĺ
éĴ Ł
è¢ Ń
è¿ ģ
éĩ Ĭ
åĽ½ æ°ĳ
çļĦ å¤§
äºĮ åįģ
æĿ ¿
èī ¯
å° ¾
åĲ ´
è® Ń
è ŀ
åħ· æľī
èį £
æĿ ¯
åĲĪ ä½ľ
è° ·
i s
çĪ Ĩ
éħ ¸
äº¤ éĢļ
æķ £
è¿Ļ ä¸Ģ
æı ´
æł ĳ
æŃĮ æĽ²
åĩº çīĪ
å¤§ éĻĨ
e s
éĽĨ åĽ¢
èģĶ èµĽ
äº§ çĶŁ
ç £
æĺ ł
è¿Ļ ç§į
2 æľĪ
Ġ M
é¦ĸ æ¬¡
å® ĭ
ä¼ ģ
è¯ ĳ
è´ Ń
äº Ī
2 4
æķ° æį®
åĸ Ħ
± ä¹Ĳ
å¾ ®
é» İ
å¹¶ åľ¨
æ´ ¥
1 æĹ¥
èĤ ¡
å° º
è¡ ¥
çī¹ åĪ«
æ¯ķ ä¸ļ
è® ¿
å± ĭ
ç»§ ç»Ń
æŃ¤ å¤ĸ
å® ¡
è´ µ
äº Ĵ
l t
è¡ Ģ
é«ĺ åº¦
é¡¹ çĽ®
ç»ĵ æĿŁ
æĻ ĭ
è½ ¨
çĥ Ī
äºİ 200
ä¸ª äºº
åģ ĩ
ä½Ĩ æĺ¯
è® ¯
éŁ ¦
ã ĥ
åľ° çĲĨ
ãĢĭ ãĢģãĢĬ
åħ »
éĻ ©
ç»ĵ æŀĦ
èĩ £
çĶŁ äº§
ä¸Ģ èĪ¬
z h
å¸Ŀ åĽ½
é¢ Ŀ
æı ı
ä»¥ ä¸ĭ
æī ©
æĺ¯ ä¸Ģä¸ª
éĥ¨ éĺŁ
è¥¿ äºļ
è¯Ń è¨Ģ
æķ ĳ
äººåı£ å¯Ĩåº¦
æ¯ Ĵ
æİ§ åĪ¶
é² ľ
å¯¹ äºİ
åĸ ľ
ç§ĳ åŃ¦
æİ¥ åıĹ
å½¢ æĪĲ
ç« ŀ
åıĸ å¾Ĺ
ä»» ä½ķ
æĹ¶ ä»£
æµ· åĨĽ
è¡Į åĬ¨
ä¸» å¸Ń
åĮº åŁŁ
æĮ ¥
å³ °
éĿ¢ç§¯ ä¸º
æķħ äºĭ
å¤ º
æĿ ľ
æ°ĳ ä¸»
èĪ ŀ
æľī ä¸Ģ
æ¦ Ĥ
9 æĹ¥
éĶ ¦
è¯ Ĺ
åĩº çĶŁ
æĹł æ³ķ
è® ²
éĢ Ĥ
éĢ Ķ
æĭ ľ
ä¸ °
æľº æŀĦ
4 0
çİ ©
çĶ ļ
å¢ŀ åĬł
Ġ A
éĢł æĪĲ
2 1
åĮº çļĦ
æľ ±
å¸ ģ
çĸ Ĺ
é½ Ĳ
æ¢ ģ
èį ·
è¾ Ĩ
éĻĦ è¿ĳ
ä¸» æķĻ
è¶ħ è¿ĩ
ç§ ĺ
å» ·
g t
çļĦ æĺ¯
é¢Ĩ å¯¼
æĮ ī
ä¼ł ç»Ł
ç»ĵ æŀľ
ç½Ĺ é©¬
å¾ Ħ
ä¸į è¿ĩ
ç ĩ
å® ¾
éļ ¶
ç ¦ģ
a c
2 3
æĴ ¤
ä¸Ń åħ±
l e
åĿ Ģ
æĿ Ĳ
åį Ī
è´ §
å°ı æĹ¶
åĩ ¯
åĬ¨ çī©
æ¸ Ĳ
10 0
çļĦ æĹ¶
çĬ ¯
èĥ ¡
éļı åĲİ
åı¦ å¤ĸ
åĨĽ äºĭ
æĺ¯ ä½įäºİ
ç« ¥
æķ ¦
èĪª ç©º
åľ Ĩ
ä½ ©
çĽ Ĭ
ä» ª
å¤ Ł
æłĩ åĩĨ
o m
åıĳ å¸ĥ
èģ ļ
è° ¢
in g
æĸ° éĹ»
éª ¨
æ· ·
çĮ ®
åĨħ çļĦ
çĽ Ľ
6 0
è¿ Ķ
ä» ģ
éĥ İ
ä¸Ģ çĽ´
éĺ¿ å°Ķ
çī Ľ
çļ Ĩ
æķ° éĩı
æŁ Ĳ
è® ¨
ç¿ °
åĪ ĳ
ç© Ĩ
çĤ ¸
æį ķ
2 2
å¨ ľ
éĿ© åĳ½
èĮĥ åĽ´
å¤§ åĪ©
å¸ ®
åªĴ ä½ĵ
éĻ¤ äºĨ
å® ½
å¾Ĺ åĪ°
æľº åľº
å¥³ æĢ§
èĮ ¨
å®ī åħ¨
è°ĥ æŁ¥
è¿ĩ ç¨ĭ
è§ ī
å°± æĺ¯
æİ ¢
ä¹ĭ åīį
æł¼ åħ°
ç»ı è¿ĩ
çĤ ®
æĻ º
åº Ļ
åı¦ ä¸Ģ
åĨħ å®¹
åħ¬ åĽŃ
çĪ¶ äº²
å¹ ķ
æĪ ª
åĲ ¦
éģ ĩ
å¤ ľ
: âĢľ
(, ),
éŁ© åĽ½
çĶ· åŃĲ
ä¹ Ķ
åįģ äºĮ
éľ į
èµ ŀ
åħ ħ
è Ķ
æĭ ©
è½ ¯
éĩį æĸ°
å¥³ åŃĲ
åĪ »
æīĢ ä»¥
éľ ²
èµĽ äºĭ
æĽ ¿
ä¼ ĳ
å° ¤
ç§ ģ
åĪ º
ä½į ç½®
å¹³ åĿĩ
201 0å¹´
èĩªå·± çļĦ
è ĸ
å «
Ġ P
åıª æľī
çİ ī
è¿ĲåĬ¨ åĳĺ
æŁ ĵ
çºª å¿µ
å±ħ æ°ĳ
æĿ¥ çļĦ
19 2
å¦Ĥ æŀľ
é¸ Ł
åĪĽ ä½ľ
åıĳ è¡¨
åº Ł
ç¼ º
éĿ ł
ä¸ Ŀ
ã ģ
æľī åħ³
éĴ Ī
æķ Į
åĢ Ł
æĺ Į
çİ° ä»£
è®¾ ç«ĭ
r i
ç» ©
è¯ ī
æº ª
æľī éĻĲ
æĬ µ
éĤ ®
è¡Į ä¸º
èģĶ éĤ¦
åĲ Ľ
. âĢĿ
å· ¨
è ľ
åĲ ¸
å® ĩ
å±ŀ çļĦ
è¥¿ çıŃ
è· Ł
çĪ µ
ä¹ ±
èĵ Ŀ
è¥¿çıŃ çīĻ
éª ĳ
å¾ ¡
å® ª
çľ ¼
è®® ä¼ļ
åıį å¯¹
æ¼Ķ åĳĺ
æ¤į çī©
åĮº ä¸º
åĿ ¡
æ® ¿
åħ± äº§
æķĻ æİĪ
æį Ł
å¾ Ĵ
éĽ ª
å·¥ ä¸ļ
åĽ º
æ°ĳ æĹı
è¯ ¸
ä¾ µ
åĪ Ĭ
Ġ T
çīĪ æľ¬
åĮ ¹
åĲį çļĦ
ç¬¬ åĽĽ
éĢ ĥ
åħ¬ è·¯
çĽ´ æİ¥
çİ° åľ¨
éļ Ķ
è ª
åħĭ æĸ¯
å»º è®¾
èģĮ ä¸ļ
æī ¾
çİ¯ å¢ĥ
è° ĭ
æĺ¯ çĶ±
ä¸¾ åĬŀ
èĦ ĳ
æ¶ ¯
ä¸Ń åŃ¦
ä¹ İ
éĢī æĭ©
åĨĽ éĺŁ
çĹ ĩ
åĩº çļĦ
éĿŀ å¸¸
ç¿ »
æ¬ ¢
èĭı èģĶ
åıį åºĶ
ç¼ĸ çłģ
ä½ ł
çĶ ³
åħ¬ å¼Ģ
ä½ĵ èĤ²
å£ ¤
éĥ ĳ
åĲį ç§°
è¯¥ åľ°
å² ©
æ¦ ľ
è£ ģ
èµĦ æĸĻ
åħ± åĲĮ
ä¸ī å¹´
æ± ĩ
éĵ¶ è¡Į
å½¢ å¼ı
åĨ³ èµĽ
ç© ¿
æĪĺ æĸĹ
Ġ B
è¡Į æĺŁ
åħ Ħ
åı ¬
åĨ °
æĺ¾ ç¤º
éĤ »
æ¼ «
åįı ä¼ļ
æĢ ¥
æ¿ Ģ
è·Ŀ ç¦»
o f
å¥ ī
æĸ¹ æ³ķ
ä¸Ģ ç§į
å¤§ éĩı
ç» ľ
æĶ¹ ä¸º
éķ ľ
æĪ Ī
åŁ ¹
Ġ 199
u n
åĶ ¯
Ġ åľ°çĲĨ
è¯ ¾
å°ı è¯´
ç¬ ¦
èĥ ŀ
åĪ© çĶ¨
æĹ¶ çļĦ
å¤ļ æķ°
ä¸Ģ èµ·
åĲ ¬
éĥ¨ éķ¿
ä¹Ł æľī
æ¯ ģ
è®® åĳĺ
èĬ ¬
è¿ «
ç¾İ åħĥ
ä¹¦ è®°
ä¼ģ ä¸ļ
è® ¢
è° Ī
æĸ° çļĦ
åĳ ¼
é» ĺ
åĮħ åĲ«
èĩª æ²»
å¾ ħ
æ³ķ å¾ĭ
éĽ ¨
é Ĩ
ç®¡ è¾ĸ
æĮĩ æĮ¥
åĳ Ī
èĤ ¯
t Ġ
å°Ķ æĸ¯
åģ ¥
å®Į åħ¨
å¹¶ ä¸į
ä¸» ä»»
æĢ Ģ
èĢ ³
åĪĨ ä¸º
åı° åĮĹ
ä¸Ńåįİ æ°ĳåĽ½
Ġ æľ¬
ï¼ į
çĸ ĳ
æ³ Ľ
è¿Ļ æĺ¯
å®¶ åºŃ
èµ µ
åĿ ļ
ä¸ľ åĮĹ
8 0
æ³ķ éĻ¢
çĽ´ åĪ°
äºº ç±»
å¤Ħ çĲĨ
èİ ī
éĻ µ
æĦ ¿
âĢĶ âĢĶ
ã Ĥ
æĵ į
æĹ ĭ
æĪĳ ä»¬
å®¶ æĹı
èĩª çĦ¶
çĶŁ æ¶¯
å§ ĵ
åŃ¦ ä¹ł
åĨį æ¬¡
è¿ĺ æľī
æ¶ ī
çĶµ åŃĲ
éĥ½ æĺ¯
æŀ ļ
202 1å¹´
a s
é¢ Ĺ
æĶ¿ çŃĸ
åħ³ äºİ
çĶŁ çī©
æĪ ´
æ¯ «
åŃ ©
èĦ ±
åĲİ çļĦ
æĢ§ çļĦ
2 7
åĬ¨ çĶ»
æī§ è¡Į
çĶļ èĩ³
æĮĩ åĩº
çĲĨ è®º
u r
è¡¨ çİ°
èŀ į
: ãĢĮ
å°Ĩ åĨĽ
å¿ħ é¡»
ä¸Ģ å¹´
åĮ» éĻ¢
å®ĥ ä»¬
202 2å¹´
æļ Ĥ
åŁº ç¡
åį ±
ç» ¿
ä»¥ æĿ¥
æĺ¯ä¸Ģ ç§į
å¦ »
ç§ ĭ
çĽ ĺ
ä¸ľ éĥ¨
æľĢ ä½³
æģ Ĵ
å°½ ç®¡
å¢ĥ åĨħ
èĪ į
o w
æī İ
æľĢ åĪĿ
åĿ Ĳ
è Ŀ
é¡ ¾
æĸĩ åŃ¦
åŁºç¡ Ģ
åį ·
æ¨ ª
å½ĵ ä¸Ń
ç¾ ½
æŁ ı
ä¸ŃåĽ½ å¤§éĻĨ
ä¹ Ī
ä¸º ä¸»
åĬ ª
å®ĺ æĸ¹
ç¿ ¼
ç´ §
åįļ çī©
èī ĩ
åķĨ ä¸ļ
ç¯ ĩ
çľģ ä»½
è¾ Ľ
æĶ» åĩ»
æ» ¨
æĦı å¤§åĪ©
è´ ¡
3 5
åħ¬ åħ±
å¥ ı
ä¹ °
çī© ç§į
æŃ» äº¡
æ¡ ĳ
éĴ ±
æĬ¥ åĳĬ
ç±» ä¼¼
åĿ ı
200 1å¹´
æĻ® æŁ¥
éŃ Ķ
ç¼ ©
2 8
æľĿ é²ľ
æĶ¿æ²» äººçī©
æ´ ª
è¯¥ åĽ½
å¸Ĥ åľº
æĹ© æľŁ
èĥ½ åĬĽ
¤ Ĳ
æ½ ľ
a d
2 6
å®ŀ éĻħ
ãĢį (
äºļ æ´²
è Ĩ
æıı è¿°
å¢ ĵ
201 1å¹´
è¯ ¯
ä¸ĭ çļĦ
è§Ħ æ¨¡
çº¦ ç¿°
o Ġ
åĽ¢ ä½ĵ
ä¹ĭéĹ´ çļĦ
åĬł æĭ¿
åħ¶ åĲİ
éģ ¿
å¿ ł
åŃ¦ åĲį
åħ¨ çĲĥ
ç» į
æ® ĸ
åİ» ä¸ĸ
æĭį æĳĦ
å¤§ ä¼ļ
æł ĸ
æµ·æĭĶ é«ĺåº¦
çģ Ń
è¥¿ éĥ¨
å¤ĸ äº¤
, ãĢĬ
Ġ äººåı£
å¹¿ ä¸ľ
çļĦ åľ°
éľ ĩ
æµ Ļ
åĪ¶ éĢł
éĵ ľ
èĥ½ å¤Ł
ä¸¥ éĩį
å» ī
ç¦» å¼Ģ
ç« ¹
çĸ «
åŁº æľ¬
å®Ĺ æķĻ
æģ ¶
æ± ½
å® ľ
è¿ ·
ä¼ į
çºª å½ķ
é³ į
ä½ľ çĶ¨
è¿ ¹
i g
éĹ Ń
å¥ Ĺ
æĮģ ç»Ń
äºİ 18
æİ¨ åĩº
åĿ Ĺ
åģ ı
ä» ĺ
äºİ æĺ¯
è®¡ ç®Ĺ
è·¯ çº¿
200 9å¹´
æī ¬
u s
ç¼ĸçłģ ä¸º
åħ±äº§ åħļ
äºĭ åĬ¡
åŃ Ķ
ç©º éĹ´
çļĦä¸Ģä¸ª å¸Ĥéķĩ
èµ ĸ
7 0
è¡ £
è¿ İ
201 6å¹´
å¥¹ çļĦ
æ³ ī
çļĦ ä¸»
åĪ ļ
è¾ ħ
å¸Į æľĽ
ä»» åĬ¡
çĽ® æłĩ
ä¸į æĺ¯
æŀ Ĳ
èĦ ī
200 8å¹´
æ± ł
ç»Ł æ²»
Ġ æł¹æį®
ä¸ī ä¸ª
æĸ¯ åĿ¦
æİ¥ å£¤
èª ī
ä¼ °
2 9
æĸ¹ åĲĳ
e c
æ¸ ¡
æģ Ĳ
ç¼ ĺ
æĸĩ çī©
ä¸Ģ åĲį
ç¬¬ åįģ
ä¸ľ åįĹ
åĬŁ èĥ½
äºİ 199
èĳ £
æ¼Ķ åĩº
éļ ľ
å¼ ĥ
åįķ æĽ²
éĺ¿ æĭī
19 0
ãĢ ī
ãĢ Ī
åĬłæĭ¿ å¤§
çº½ çº¦
å¢ ¨
éĶ¦ æłĩ
æĭ Ľ
äº «
è· ¨
è®¾ æĸ½
æľĪ åı°
èµ ¤
å¯ »
å®ļ çļĦ
èµĽ åŃ£
èħ Ĭ
åī ĳ
éĢı è¿ĩ
çĶ ĺ
è¢« ç§°ä¸º
äº ķ
ä¿ ±ä¹Ĳ
t er
éĶ ¡
éŃ ı
çĲĥ åĳĺ
éĢ Ĭ
éĺ »
ä»į çĦ¶
åįļçī© é¦Ĩ
åĪĨå¸ĥ äºİ
åıĺ åĮĸ
ä¿±ä¹Ĳ éĥ¨
æĽ¾ ç»ı
æĥ ł
è´ ¸
201 2å¹´
Ġ L
è§£ æĶ¾
çĳ Ł
åĽ½ çİĭ
é¢ ģ
åħ¬ å¸ĥ
ä¸Ģ æ¬¡
å·´ å£«
åĲĪ å¹¶
å¼Ģ æĶ¾
å¹¿ æĴŃ
åĨ ¬
ç» ĺ
Ġ è¯¥
åħĭ éĩĮ
å¤§ åĮº
äº ®
201 8å¹´
å°Ĩ åħ¶
èĤ ī
è¾¾ åĪ°
ä¸į èĥ½
èĢĮ ä¸Ķ
å®ŀ éªĮ
èµ ¢
åĶ¯ ä¸Ģ
åİŁ åĽł
æİĴ åĲį
åĽĽ å¹´
. ãĢį
201 4å¹´
è ¸
202 3å¹´
éĢĲ æ¸Ĳ
4 5
æį ·
èı Į
åıĳ åĬ¨
çĥŃ å¸¦
çº ²
åĦ¿ åŃĲ
ç» ¼
é©¬ æĿ¥
äººåı£ æĻ®æŁ¥
åĵ ²
å½ĵ éĢī
çŁ ¿
è¿ŀ æİ¥
i d
æ¨¡ å¼ı
i r
å¾ Ĳ
è¡ĮæĶ¿ åĮº
åľ¨ æŃ¤
ç ¹
è¾ ŀ
ç¬¬ä¸Ģ æ¬¡
ä¸ľ äº¬
åı· çº¿
çģ ¾
èĴĻ åı¤
ä¸» æĮģ
å®ļ ä¹ī
è¿ĲåĬ¨ ä¼ļ
æĴŃ åĩº
æľīéĻĲ åħ¬åı¸
éĺ ´
çĽ¸ å½ĵ
èĽ ĭ
201 5å¹´
åĲĦ ç§į
è®Ń ç»ĥ
201 3å¹´
æ´ ŀ
ç¨ ³
Ġ R
ç»Ĩ èĥŀ
æ½ ®
èĢħ çļĦ
åĩ» è´¥
å¦ ĩ
å¤ª å¹³
åı Ļ
çĽ¸ åĲĮ
æ¼Ķ åĶ±
é£İ æł¼
e m
çĬ ¹
å¤ª éĺ³
4 8
å¦ ¹
Ġ ä¸İ
ç¹ ģ
I N
æ° §
éģĵ è·¯
ä½ Ĳ
Ġ D
æĪĲ ç»©
æľĪ2 8æĹ¥
æļ Ĺ
(, )
æŃĮ æīĭ
æİ Į
æĭ Ĵ
å¥¥ è¿Ĳ
è§Ħ å®ļ
ä½¿ å¾Ĺ
æ» ĳ
æľĪ1 5æĹ¥
åı¸ ä»¤
æģ ¢
çİ© å®¶
ä¸ĵ ä¸ļ
Ġ formula
19 1
éĺ¶ æ®µ
éĴ ¢
T C
äºº å£«
9 0
è¥¿ åįĹ
åĢ Ĵ
åĨ ·
ä¸įåĲĮ çļĦ
åĨ Į
ä¸Ģ æł·
å°Ķ çľģ
æī¹ è¯Ħ
20 æĹ¥
çŃī äºº
th eĠ
è¥¿ åĮĹ
èĻ İ
çĲ ´
ç§ Ł
å»º éĢł
è®¾ ç½®
äº§ åĵģ
ä¼ Ĳ
âĢ ĵ
201 7å¹´
åĬŀ åħ¬
è½¨ éģĵ
éĿĴ å¹´
æĺ Ĥ
ç¨ İ
10 æĹ¥
Ġ G
é© ±
ä¿ Ĺ
30 æĹ¥
å¾ ½
ä¸º äºº
çı ł
ä»ĸä»¬ çļĦ
éº »
èī ĺ
å¥ Ī
éĶ Ļ
ç¡ ¬
åĿ ĳ
o d
èĥĮ æĻ¯
åľ Ī
å¹ ¼
åĳ ³
3 3
çĶ º
çĪĨ åıĳ
å½ ¼
æµĻ æ±Ł
åĪĨ éĴŁ
å°ı è¡ĮæĺŁ
æĤ £
e d
çļĦä¸Ģ éĥ¨åĪĨ
éĺ ģ
èĳ ¡
Ġ19 8
å¤§ æĪĺ
å¢ Ļ
å½ ©
ä¼¦ æķ¦
ä¹ Ļ
åŃ¦ èĢħ
æµ ¦
æģ¢ å¤į
åľŁ åľ°
åºĶ çĶ¨
å¸Į èħĬ
ä¸ī åįģ
æĶ¹ éĿ©
åį ĸ
å¹´ çļĦ
æ¯į äº²
è§ ¦
Ġ çļĦ
ä¸į ä¼ļ
èº« ä»½
çº ¸
å¯ ¿
u m
éĥ¨ éĹ¨
èŃ¦ å¯Ł
ç¬ Ķ
200 7å¹´
å±± ä¸ľ
è± ª
åĽ °
æ® ĭ
202 4å¹´
é£ŀ æľº
i m
åĪ¶ åº¦
% ,
åī Ĥ
èİ İ
è ķ
ä¿ ĥ
ä¸ĭ è¾ĸ
æľĪ2 5æĹ¥
åĳ½ åĲį
è¯Ħ è®º
æĭī æĸ¯
è¿Ľ å£«
ç² ī
æľĢ å¤§
âĢ ¦
æĬķ èµĦ
èĦ ļ
éĢ Ŀ
é«ĺ éĢŁ
ç½ĳ ç»ľ
çļĦ æĸ°
å¤§ éĥ¨åĪĨ
å¤ı åŃ£
Ġ 18
è£ Ĥ
è¿Ļ æł·
è®° è½½
æ¡ £
æ¥ ļ
æµ ª
èµ ı
æ¢ ¦
Ġ H
å¯¼ æ¼Ķ
ä½Ĩ åľ¨
o s
æ² ī
èµĦ æł¼
18 æĹ¥
ä¸į ä¹ħ
h an
éĽ ¶
ä¸¤ äºº
å¤© æ´¥
å¹¿ å·ŀ
a g
æĺ Ń
çļĦ çī¹
äº ¨
äºĶ å¹´
åĮĸ åŃ¦
æŁ ±
æĭ Ł
å¾Ī å¤ļ
3 6
åģ ¶
åĨ Ī
å° Ĭ
çĶµè§Ĩ åı°
å¸® åĬ©
åįļ å£«
è´Ŀ å°Ķ
éĤ Ģ
çĽ Ĳ
å¼ ±
en t
è® ·
çĸ Ĩ
åı «
éĻ ·
çŃī åľ°
ãĢį ãĢģ
ç¬¬ äºĶ
æ¯« ç±³
åħ¨ éĥ¨
åĪĨ åŃĲ
å´ ĩ
æģ ĭ
ç»´ å°Ķ
ä» Ļ
æ¶ ħ
çĭ ±
ç Ĵ
è¯ Ĭ
at ion
ç¾¤ å²Ľ
éĿ Ļ
âĢĿ (
å¥¥ æŀĹ
ä»» åĳ½
èĭ± è¯Ń
éĻĨ åĨĽ
åĨľ ä¸ļ
æĿĤ å¿Ĺ
æ± Ĺ
ç» ķ
åŁº çĿ£
åĲį åŃĹ
é ¤Ĳ
12 æĹ¥
I n
200 5å¹´
200 6å¹´
åħ¬ å°º
æķ´ ä¸ª
è£ Ķ
åĲ ķ
i v
ç®Ģ ç§°
çĶ· æĢ§
3 8
ç«ĭ æ³ķ
æ¶ ²
è ļ
å¤ļ æ¬¡
ç¥ Ń
é¢Ĩ åŁŁ
æŃ¤ åĲİ
èµ¢ å¾Ĺ
, âĢľ
å»º è®®
ä½ľ å®¶
é¼ ĵ
ç¬¬äºĮ æ¬¡
ä¾ ¯
è¡Ĺ éģĵ
. .
åħĥ å¹´
æ ©
è¿ŀ ç»Ń
åľ° ä¸ĭ
11 æĹ¥
åĪĨ æŀĲ
è¡¨ æ¼Ķ
çĸ ¾
ä¼ ´
åŁİ åĮº
3 7
ä¼ Ł
19 æĹ¥
åįĹ äº¬
éĶ¦æłĩ èµĽ
åĲĮ æł·
èĻ ĳ
å¹¿ åľº
å¥¥æŀĹ åĮ¹
5 00
æĢ» äººåı£
ç»ı å¸¸
Ġ19 4
Ġ F
åħĪ åĲİ
ä¸ ĺ
åĽĽ å·Ŀ
ä¸Ń éĥ¨
åıĳ å°Ħ
çĦ¶ åĲİ
äºī è®®
åĩ ¤
åľ°åĮº çļĦ
é¢ĳ éģĵ
æľĪ2 4æĹ¥
å¹ ħ
é¢ ľ
éĥ Ń
å¡ŀ å°Ķ
å¼ķ èµ·
è§Ĩ ä¸º
åĪĻ æĺ¯
å¤ļ çļĦ
ä¼Ĭ æĸ¯
æľĪ2 6æĹ¥
æĭ Ĩ
åľ° çĲĥ
çī §
ç¤¾ åĮº
éĢŁ åº¦
æĪª èĩ³
åıĬ åħ¶
è®° å½ķ
è®¾ å¤ĩ
é© ¶
æ¯ı å¹´
ç¦ı å»º
æĲ Ń
åĩº ä»»
ä¿Ŀ æĮģ
æĿ¡ ä»¶
æ°´ åŁŁ
ç» ª
æľĪ1 6æĹ¥
è§Ħ åĪĴ
æĹ¥ åĨĽ
å¤§ çº¦
æŁ ¯
% .
æ²³ åįĹ
åıĤ èµĽ
ä¿¡ æģ¯
Ġ å¹´
éģŃ åĪ°
å¹³ åı°
æľĪ1 7æĹ¥
å±ħ ä½ı
å¤ı ä»¤
çļĦ ä¸»è¦ģ
æĺ¯ä½įäºİ ç¾İåĽ½
çī© çĲĨ
é£ŀ è¡Į
U TC
äºº ä»¬
åĤ ¨
ç»Ł è®¡
è¢Ń åĩ»
åĨħ éĥ¨
çĽ¸ å¯¹
å¹¿ æ³Ľ
èĻ «
æķĻ åłĤ
å®ĺ åĳĺ
è¿ĩ åİ»
2 æĹ¥
è¶Ĭ åįĹ
ä¸Ģ æŃ¥
4 6
èĩ³ ä»Ĭ
æĭĴ ç»Ŀ
æĪĺ å½¹
èĶ ¡
æĸ¯ ç§ĳ
r a
æ£ Ĵ
å¤ļ ä¸ª
èĭ± æĸĩ
è´¸ æĺĵ
åħ ģ
è§ Ī
æłĸ æģ¯
å¥¥æŀĹåĮ¹ åħĭ
èĲ Ħ
æĺ¯ æ³ķåĽ½
æ¯Ķ äºļ
èĳ¡ èĲĦ
å¹ ¸
æĺİ æľĿ
ç³ ĸ
åŃ¦ ä½į
åĦ¿ ç«¥
æµģ è¡Į
æľĢ æĹ©
åĩ ½
ç§ ¦
æ· ¡
åıĸ ä»£
æĹ ģ
æ¼« çĶ»
é¥° æ¼Ķ
éĻ ¶
è¿ Ŀ
ç¾İ æ´²
æľĪ2 7æĹ¥
æľª èĥ½
æ³¢ åħ°
æ± ¤
ç»ı åİĨ
ç¢ ĳ
åĩł ä¹İ
æĮ ĳ
å·´ é»İ
æ¦Ĥ å¿µ
èĻ ļ
S t
é ŀ
å®ŀ çİ°
æľĪ2 1æĹ¥
æĮ ¯
3 1æĹ¥
o t
ä»¥ ä¸Ĭ
ç½ĳ ç«Ļ
æľĢ å¤§çļĦ
å¤Ħ äºİ
å·¦ åı³
äºĮ å¹´
é¾ Ħ
æľĪ2 æĹ¥
æĪĸ èĢħ
æľĪ2 2æĹ¥
è®° èĢħ
å°Ķ å¾·
" )
å®ŀ æĸ½
åįı åĬ©
. ãĢĬ
å® ¿
åĴĮ å¹³
éķ¿ çļĦ
åĩı å°ĳ
æĶ¹ åıĺ
æľĪ2 3æĹ¥
èİ·å¾Ĺ äºĨ
è· ĳ
ä¾ į
è¿ Ī
æ® Ĭ
è½¦ è¾Ĩ
èĳ ¬
ä¼ ¸
æĽ¾ ä»»
å±ķ å¼Ģ
éķ¿ æľŁ
åľ° éĵģ
çĨ Ļ
åĪĨ ç±»
çļĩ å¸Ŀ
æľĪ1 4æĹ¥
åŀĭ çļĦ
è¿Ĳ è¾ĵ
è¢« è®¤ä¸º
çļĦ ç¬¬
æĺ Ĩ
ç§ĳ æĬĢ
æľĪ2 9æĹ¥
èĭ± æł¼åħ°
å½± çīĩ
o p
åĩºçĶŁ äºİ
ä¹ ĥ
7 5
çº¿ çļĦ
èĮ ¶
çĬ¶ æĢģ
åİ¿ çļĦ
çļĦæĹ¶ åĮºä¸º
æ¯Ķ è¾ĥ
æĽ¾ åľ¨
éģ į
S T
æľī çļĦ
åįł é¢Ĩ
ç»ı èĲ¥
åī§ æĥħ
å¹¶ äºİ
æ¾³ éĹ¨
æĬķ ç¥¨
ç»§ æī¿
å® ħ
ä½ľ æĪĺ
çĥ §
æ²» çĸĹ
æŃ¦ åĻ¨
åĽ½ çļĦ
æľĪ1 3æĹ¥
T h
éĻĲ åĪ¶
b r
3 2
ä¸ļ åĬ¡
åŁº äºİ
èį· åħ°
çŃ ¹
è§£ åĨ³
çº ¯
å¤© ä¸»æķĻ
çĩ ĥ
èĪ° éĺŁ
å¨ģ å»ī
l i
è½ °
ä¼ļ åľ¨
3 4
å¦ ®
ä¸ª æľĪ
éĶ ®
å®£ ä¼ł
ä½ĵ çļĦ
çº¿ è·¯
åĭ ĭ
çı į
çļĦ æķ°æį®
çģ ¯
åİ ¦
åĩĨ å¤ĩ
çļĦ æĥħåĨµ
ç´ ¯
u b
éĽ ķ
å² Ń
åĿ Ľ
èµĦ æºĲ
è¾ ½
éļ Ĳ
æĬ ĺ
çļĦ å½±åĵį
åĭ ĩ
è¡ ¡
æĸ¯ çļĦ
ä½įäºİ è¯¥åĽ½
S E
èĢĮ åľ¨
åįģ å¹´
æĸ¹ æ¡Ī
èı ľ
ç»Ł ä¸Ģ
: )
åĩº äºĨ
æĿ¥ æºĲ
è¯Ħ ä»·
çĤ İ
è¯ķ åĽ¾
é½ ¿
æ¸ħ æľĿ
Ġ E
åĲĦ åľ°
çĶµè§Ĩ åī§
å³ ¡
æ±½ è½¦
åİŁ æľ¬
I I
ä¹ĭ å¤ĸ
éĵģ éģĵ
æ¾³ å¤§
åħ´ å»º
åŃ Ł
åħĦ å¼Ł
åıĪ ç§°
éĢī æīĭ
5 5
18 9
çł´ åĿı
éģ £
ãĢįãĢģ ãĢĮ
é©¬æĿ¥ è¥¿äºļ
åįı è®®
ç£ ģ
æīĢ åľ¨
èĲ §
éĤ® æĶ¿
çĲ ³
åĽŀ åĪ°
3 9
è½ ´
æķ ¬
éļı èĳĹ
åĶ± çīĩ
è¿Ľ ä¸ĢæŃ¥
å£ ģ
åĪĿ æľŁ
è¿Ĳ è¡Į
é¥ ®
æĽ ¹
å¤§ æ¥¼
è ¦
æĶ¹ ç¼ĸ
çĬ¹ å¤ª
æħ Ī
ç® Ń
Ġ W
å¤§ å¤ļæķ°
è¿Ľ æĶ»
åŁº åľ°
èĩª åĬ¨
å¹ »
è¡ Ķ
æķĻ ä¼ļ
å¨ ±ä¹Ĳ
ä¸Ń æĸĩ
200 4å¹´
ç²¾ ç¥ŀ
æķ ı
å°ı åŃ¦
åħŃ å¹´
ä¸º æ¯ı
èµ ł
ç»´ æĮģ
éĴĪ å¯¹
è¿ĺ æĺ¯
è§Ĥ ä¼Ĺ
æ¢ °
åŁº éĩĳ
è´ ¤
æ² Ī
åı Ľ
éĿ¢ çļĦ
åŁİ éķĩ
è¿Ľè¡Į äºĨ
æľº è½¦
ç»Ħ åĲĪ
ä» Ķ
200 0å¹´
æĢ» éĿ¢ç§¯
çļĦ åīį
è¿Ĳ èĲ¥
ä¸» è§Ĵ
è´ ¾
äººåı£ æķ°éĩı
è¾ Ĳ
éĶ ĭ
ç¯ ®
ä¸ĩ äºº
å·ŀ çļĦ
çľģ çº§
å§ Ĳ
æŃ£ åľ¨
åĬł ä¸Ĭ
o c
æĬ¥ éģĵ
çī¹ å¾ģ
çº ¹
å¤ªå¹³ æ´ĭ
éĥ¨ ä»½
èĹ ¤
çģ °
äº¤ æĺĵ
éĽĨ ä¸Ń
ä¸į å°ĳ
ç©º åĨĽ
ç»¼ åĲĪ
ä¸Ģ ä½į
åĨ ¯
è´Łè´£ ç®¡è¾ĸ
åıĮ æĸ¹
éĤ ĵ
éĻ ķ
æ¯ı ä¸ª
æ¾³å¤§ åĪ©äºļ
Ġ æĶ¿æ²»
éĻĨ åľ°
èµ ´
åľ¨ ç¾İåĽ½
ç¡® å®ļ
çŃ Ķ
æĺ¯ åĲ¦
è§£ éĩĬ
Ġ çĶ±äºİ
ç¾İåĽ½ äººåı£æĻ®æŁ¥
è¯ģ æĺİ
æĺ¯ ä¸ŃåĽ½
åĽ¾ ä¹¦
å¤§ åŀĭ
ä»· åĢ¼
4 7
è¿Ķ åĽŀ
èĳ£ äºĭ
æīĢ å±ŀçļĦ
è¦ Ĩ
åĲį åįķ
åİ ļ
æĦŁ æŁĵ
åĪ Ģ
ç¨ĭ åº¦
éĩįè¦ģ çļĦ
äºĳ åįĹ
ä» °
ä»İ äºĭ
202 5å¹´
, ãĢĮ
a p
çľģ çļĦä¸Ģä¸ªå¸Ĥéķĩ
æ³ ³
è° ±
æ¹ĸ åįĹ
åĽ½ ä¼ļ
æ³ķ åħ°
æľī æĹ¶
çļĩ å®¶
æ²³ æµģ
çĥ Ł
åĢ į
äºİ 198
å°ı ç»Ħ
å®ĥ çļĦ
çİĭ æľĿ
Ġ N
ä¸» æ¼Ķ
åħĥ ç´ł
å¾· éĩĮ
é©¬ åħĭ
å¼ķ åıĳ
å¥³ åĦ¿
åĩ Ń
ä¿Ŀ çķĻ
çº µ
æľº ä¼ļ
ä¸´ æĹ¶
æĢ» çĲĨ
æĹħ æ¸¸
éķĩ åĮº
æľ ĭ
é¦ĸ éĥ½
å¸¸ è§ģ
è¶ħ çº§
é ¬
è´¢ æĶ¿
èĴ ĭ
çĶŁ äºİ
æ² Ł
ãĢĬ ãĢĭ
åħ¬ åħĥ
åĩº èº«
çķ ª
å¤§ èĩ£
åĬł åĿ¡
å¤© æĸĩ
æī¹ åĩĨ
é«ĺ çº§
åĨ² çªģ
åĽ½ éĺ²
ç½ ķ
ç±³ å°Ķ
è®¨ è®º
å° ĸ
åĬĽ éĩı
20 ä¸ĸçºª
ä¸į åĨį
å¦» åŃĲ
åĲĮ æĦı
ä½Ľ æķĻ
çĳŀ å£«
åĽ½æ°ĳ åħļ
ä¸» é¢ĺ
åĽ½ åĨħ
çłĶç©¶ æīĢ
åı ¥
äºĨ ä¸Ģä¸ª
éĿ ĸ
æľº åħ³
è¶ £
åį¡ å°Ķ
é© ¾
æľī æķĪ
ä¸į æĸŃ
æ¡ ĥ
è®® éĻ¢
ç»ĵ åĲĪ
çļĦä¸Ģ ç§į
6 5
åĩ ¡
äº§ ä¸ļ
å¥½ çļĦ
å·ŀ å¸Ĥ
åĬĽ çļĦ
e dĠ
æľī äºĽ
è¾ ī
äºĮ ä¸ĸ
ãĢģ ãĢģ
è· ³
æĸĩçī© ä¿ĿæĬ¤
æŁ ´
è¿ ħ
æĸ° åĬłåĿ¡
Ġ19 7
åİ¿ çļĦä¸Ģä¸ª
æŃ¦ è£ħ
æĹ º
åĽ½ ç«ĭ
æĺ¯ æĮĩ
æĻ® éĢļ
ä¸Ĭ æĺł
å¹´ è½»
ç¼ ĵ
çĨ Ł
å¤§ ä½¿
Ġ19 5
ç§ĺ ä¹¦
å»º æĪĲ
åŁ Ķ
6 4
æ°Ķ åĢĻ
æİ ª
éĢī åĮº
è§£æĶ¾ åĨĽ
æĸ¯ åŁº
ç¥ ¥
ä¸į åı¯
éģ Ĥ
æĺŁ æľŁ
3 00
æ §
æĶ¶ åħ¥
åıĸ æ¶Ī
ç¼ĸ åı·
æ½ ĺ
äºº æķ°
ä¸ĸçķĮ å¤§æĪĺ
æĸĩ ä»¶
åı¯ è¾¾
å¨ģ å°Ķ
æĬķ åħ¥
å¿« éĢŁ
æī¿ è®¤
äºº åľ¨
è¥¿ æ´ĭ
ä¸ŃåĽ½ äººæ°ĳ
è¥¿ çľģ
èĳĹ åĲį
ä¸ŃåĽ½ åħ±äº§åħļ
èŃ¦ æĸ¹
å·´ è¥¿
éĿŀ æ´²
å°ĳ å¹´
æĢ» éĥ¨
ç»´ äºļ
æł¸ å¿ĥ
( "
èĩ³ å°ĳ
3 1
é¹ ¿
å¿ Ĩ
ä¸Ģ ä¸ĸ
éļı çĿĢ
æĸĩçī©ä¿ĿæĬ¤ åįķä½į
è ©
ä½¿çĶ¨ çļĦ
ä» ĵ
æĿ¡ çº¦
ä»¥ èī²
åĭ ¤
é£İ æļ´
åĽ½ åĬ¡
ä¹ ı
ç¬¬ ä¸Ģä¸ª
èĭ Ĺ
èĥľ åĪ©
æĸ¯ åħĭ
å¥¥ æĸ¯
å¦Ĥ ä¸ĭ
èĳĹ ä½ľ
åŃ Ŀ
åİ Ħ
ç¼ ħ
ä¸ĥ å¹´
åĪĽ ç«ĭ
ä»¥èī² åĪĹ
Ġ theĠ
æ³ Ĭ
åĮĸ çļĦ
éĩį å»º
ä»¥ åĲİ
4 9
e sĠ
è© ¹
ç§ Ĵ
å¥¥æŀĹåĮ¹åħĭ è¿ĲåĬ¨ä¼ļ
è®¿ éĹ®
æĹ¶ ä»»
åĽ¢ éĺŁ
æľª æĿ¥
ç¬¬ åħŃ
è´ ¯
çĮ İ
o v
çĹħ æ¯Ĵ
an d
åħ¬ æ°ĳ
æ°ĳ ä¼Ĺ
çļĦ çłĶç©¶
çļĦ å¸Ĥéķĩ
åįĬ å²Ľ
éĥ½ ä¼ļ
æ±Ł èĭı
o g
èİ ²
æĶ¶ å½ķ
æħ ķ
åħģ è®¸
æĴ Ĵ
Ġ 1
å®ª æ³ķ
è¯´ æ³ķ
ç ŀ
æµĭ è¯ķ
èĳ Ľ
è°ĥ æķ´
æĻ ¨
å§Ķ ä¼ļ
u t
ä¼ ı
ç¨ĭ åºı
çĵ ľ
an dĠ
å°Ķ çļĦ
æĭī åħĭ
ä¹Ĳ åĽ¢
åĢ ¾
200 3å¹´
æµ· å²¸
çİĭ åĽ½
èĽĭ çĻ½
ç»ĵ å©ļ
éļ¶ å±ŀäºİ
æĻ ¶
çĶµ èĦĳ
åģľ æŃ¢
åħ¬ åĪĨ
ä½įäºİ æ³ķåĽ½
æ¢ ¯
çĶ¨ æĿ¥
é«ĺ çŃī
åį¢ çĵ¦
æ¨¡ åŀĭ
åĵĪ å°Ķ
æħ ¢
Ġ19 6
am p
éĺ¿æĭī ä¼¯
åľ¨ è¿Ļ
éĥ½ æľī
èī² çļĦ
èĥ ģ
æİ¥ è¿ĳ
èĢĥ èĻĳ
è¡ĮæĶ¿åĮº åĪĴ
ä¸ĭ åįĪ
å±± èĦī
çĲĥ åľº
è´ º
çĶ¨ çļĦ
æ®ĸ æ°ĳ
åĩ Į
å°± è¯»
æĢĿ æĥ³
è¿ĩç¨ĭ ä¸Ń
çĶµ åı°
å°¤ åħ¶
èĹ ©
æĪĺ åĲİ
åĳ¨ è¾¹
Ġ 2
æĸ° å¢ŀ
éĤĢ è¯·
æµ ®
åĮ» çĸĹ
åľ° ä½į
çĽ´ èĩ³
åħ³ æ³¨
ç´ «
çİ° æĹ¶
a k
200 2å¹´
ç¡ ķ
é¬ ¼
çĶ³ è¯·
ä¸Ģ å¸¦
æĥ Ĭ
èħ ¹
ä¸į æĺİ
ä¼¯ çī¹
è§Ĥ å¯Ł
åĿ İ
éĩį çĤ¹
èµ· æĿ¥
å¹´ åº¦
ç¥ĸ çĪ¶
æĶ¿ åħļ
åĨį åº¦
åįģ åĪĨ
Ġ202 1å¹´
C h
çĽ¸ ä¼¼
è¯¾ ç¨ĭ
4 4
Ġ K
å¡ ĳ
åŃ© åŃĲ
èĬ Ŀ
18 8
ä¹Ķ æ²»
åĮ Ī
a v
Ġ 2019å¹´
æĢ ª
ä¿ Ĭ
åĲĪ çī©
è¡¨ è¾¾
é«ĺ ä¸Ń
åħ±æľī äººåı£
Ġ è½¦ç«Ļ
åħ¥ ä¾µ
å£« åħµ
ä» ²
å®ī æİĴ
æĴ °
åĲ ¨
æĿ¥ è¯´
a b
èĭ ¦
æ¯ķä¸ļ äºİ
åĬ ±
ç½ ļ
çļĦ å°ı
Ġ 3
åĪ° è¾¾
åŃ¦ æľ¯
äººæ°ĳ æĶ¿åºľ
å¹¶ æ²¡æľī
a y
å¥ ´
åĽł èĢĮ
æĶ¯ æı´
ç§» åĬ¨
çļĦæĹ¶ åĢĻ
æĺ¯ ç¾İåĽ½
in d
æ³ ¥
æĴ ŀ
A T
éĶĢ åĶ®
å± ¿
åĢĻ éĢī
Ġ è¿Ļ
æĿ ī
è·¯ æĺĵ
çĽ Ĺ
å¤ĸ çļĦ
çĽ® çļĦ
ç¦ Ħ
æĹł çº¿
ä¸º æ³ķåĽ½
è¯ ¦
ä¸ §
ä¼Ĭæĸ¯ åħ°
å Ĺ
è¥¿ åĵ¥
åºĶ è¯¥
çĨ Ĭ
æĹ© å¹´
Ġ è¡ĮæĶ¿
æĹ ¨
æŃ¤ æĹ¶
å¸Ĥ éķ¿
çİ° è±¡
ç¢ į
åīį çļĦ
å¦Ĥ æŃ¤
çī¹ çļĦ
Ġ 2020å¹´
éģĹ åĿĢ
âĢĿ ãĢģ
çĹ Ľ
åıª æĺ¯
ä»ĸ æĽ¾
å¹¶ æľª
5 8
çĶ¨ æĪ·
åıĺ æĪĲ
ç² Ĵ
åľ° åĪ©
çĮ ª
éĩĳ å±ŀ
æĹ§ å¸Ĥéķĩ
ç±» åŀĭ
æĬµ è¾¾
å¸Ĥ åĮº
ä»İ èĢĮ
æĿĲ æĸĻ
é ī
çļĦ é¦ĸ
æĺİ æĺ¾
åħ« å¹´
ä¹ ³
æĢ» çĿ£
æĪĸ æĺ¯
èĩªæ²» åĮº
è´¨ éĩı
Ġ201 8å¹´
éĺ ħ
æıĲ åįĩ
é«ĺ çļĦ
å°¼ æĸ¯
çĦ ¦
æŀĦ æĪĲ
å°ĳ æķ°
èģĮ åĬ¡
åº Ĭ
è· ĥ
çĩ ķ
å®ī è£ħ
äºİ19 7
æŁ ³
åį« æĺŁ
ç¬¬ ä¸ĥ
å½ Ń
ä¿¡ åı·
æ± ¡
äººåı£å¯Ĩåº¦ ä¸ºæ¯ı
éĢĿ ä¸ĸ
6 8
å·¥ åİĤ
æĸ¹ çļĦ
åı¯èĥ½ æĺ¯
æŁĲ äºĽ
åĪĹ ä¸º
æ¯Ķ åĪ©
ãĢģ (
å± ı
çī© è´¨
æ¡ Ĥ
é Ħ
å¹´ éĹ´
èĪ Ĵ
ä½ĵ ç³»
æģĴ æĺŁ
ç¨³ å®ļ
æĬ ļ
åĴ ¸
å¯¹ æīĭ
Ġ19 3
èĢĮ æĺ¯
é¡ µ
å¡ ĺ
å¤± åİ»
: .
ä»ª å¼ı
åĿ Ĭ
å¥¥ åľ°åĪ©
éī ´
SE E
åĩ½ æķ°
åĩº åı£
çĶ ¸
åĪĽ åĬŀ
ç§ĳ çļĦ
æİ ī
éĶ ģ
å¢¨ è¥¿åĵ¥
äººåı£æķ°éĩı ä¸ºäºº
ä¸ľ è¥¿
å»º åĪ¶
åĲ ĥ
æľĭ åıĭ
çĶŁ éķ¿
è° ĵ
æĲ ľ
åĲĮ ä¸Ģ
ä¸į è¶³
æĵį ä½ľ
æİ¥å£¤ çļĦå¸Ĥéķĩ
è¯ ļ
æĸĩ ç«ł
æĸ ĳ
IN SEE
äºĭ ä¸ļ
æĦı è¯Ĩ
æĻ® éģį
æ¯ı å¹³æĸ¹åħ¬éĩĮ
åľ¨ 199
ä¸į å¾Ĺ
æ°§ åĮĸ
çº ¬
ç ĺ
ç§» æ°ĳ
Ġ c
ç¿» è¯ĳ
ä¸Ģ åº¦
æĹł äºº
å¨ģ èĥģ
åĬ¨ åĬĽ
åıª èĥ½
èĤ ĥ
å§ĭ å»º
å°ļ æľª
éĤ®æĶ¿ ç¼ĸçłģä¸º
åĬŀåħ¬ å®¤
æł¡ éķ¿
å°Ķ çī¹
ä¸Ģ åĲĮ
çİ° åľº
å¹¿ åĳĬ
èº« ä½ĵ
åħ¥ åı£
( ;
æ¡Ī ä»¶
è¯ ŀ
åŀ Ĵ
æĹ ¢
æĮ Ĥ
æľº æ¢°
Ġ201 7å¹´
èĥ ¶
åĮĹ ç¾İ
éļ §
å¹³ éĿ¢
ä¸¤ ç§į
çĬ¶ åĨµ
æ¶Ī æģ¯
ä¹Ł åľ¨
éģĹ äº§
åı¬ å¼Ģ
è§Ĥ çĤ¹
å¾Ĺ ä»¥
éĺŁ çļĦ
å¤Ħ çļĦ
äº¤ æµģ
å¾ ª
è¡¨ æĺİ
æĦı ä¹ī
æĿĥ åĬĽ
æ°ĳä¸» åħļ
èĩª è¡Į
æĽ´ åĲįä¸º
ä¸º ä¸Ģ
åįĹ åĮĹ
å¼ ĺ
çľĭ åĪ°
åİ¿ äºº
åĭ ĥ
çŁ¥ éģĵ
æĮĳ æĪĺ
æķ° åŃĹ
èģĶ ç³»
èģĶåĲĪ åĽ½
çķ Ķ
åĽ¾ä¹¦ é¦Ĩ
æħ §
ç¦ģ æŃ¢
æıĲ é«ĺ
åħ¥ éĢī
å§Ĩ æĸ¯
ä»ĸ æĺ¯
åĵģ çīĮ
æłĩ å¿Ĺ
åģ¥ åº·
æĭ ĵ
å² ³
åĪĽ éĢł
æ¬§ åħĥ
Ġ O
å± ¯
èĳ¡èĲĦ çīĻ
ç¥ Ŀ
4 2
Ġ201 6å¹´
e v
ä¼ļ çļĦ
è¢ ĸ
å¸ĥ æĭī
åıĳ çĶµ
ãĢĭ ()
æķĪ åĬĽ
å¤ıä»¤ æĹ¶
åľŁ èĢ³
ä¹ ¾
çº ·
éĩĮ çļĦ
å¤§ éģĵ
æ£® æŀĹ
æľī äºº
æĪ Ĵ
ä¹Ŀ å¹´
åıĳ èµ·
äººåı£å¯Ĩåº¦ æ¯ıå¹³æĸ¹åħ¬éĩĮ
åŃĹ æ¯į
æį Ĳ
åľŁèĢ³ åħ¶
æ° ¢
ç® ±
æ°´ å¹³
å¤± è´¥
åŃĲ çļĦ
å¸Ĥéķĩ ç¼ĸçłģä¸º
INSEE å¸Ĥéķĩç¼ĸçłģä¸º
å½ĵæĹ¶ çļĦ
ãĢ İ
u d
å¹³æĸ¹ ç±³
åİĨåı² ä¸Ĭ
ãĢ ı
å¹¶ éĿŀ
åħ ½
çĳŀ åħ¸
åį ĳ
äºİ æĹ¶çļĦ
åĮ» åŃ¦
äºİæĹ¶çļĦ äººåı£æķ°éĩıä¸ºäºº
æ£ ĭ
éĢī åĮºä¸º
ç¾İåĽ½äººåı£æĻ®æŁ¥ çļĦæķ°æį®
äººåı£å¯Ĩåº¦ä¸ºæ¯ı å¹³æĸ¹åįĥç±³
æĻ ĵ
èĢĮ äººåı£å¯Ĩåº¦ä¸ºæ¯ıå¹³æĸ¹åįĥç±³
å½ĵåľ° åħ±æľīäººåı£
æ²³ åĮĹ
åľ ³
Ġ J
åį ¿
æµ ħ
çī¹ æ®Ĭ
è¯¥ çľģä»½
æĪĸ æĹ§å¸Ĥéķĩ
å»¶ ä¼¸
å¼º è°ĥ
éħĴ åºĹ
çļĦ æĸ¹å¼ı
çľģçº§ éĢīåĮºä¸º
æīĢå±ŀçļĦ çľģçº§éĢīåĮºä¸º
å¸ĥ é²ģ
åį« çĶŁ
æľ¬ åľŁ
Ġ202 2å¹´
e st
ç¼ĸ è¾ĳ
æĺ¯ä¸Ģ åĲį
çļĦ åİŁ
è¯¥çľģä»½ ä¸ºæ³ķåĽ½
èĢĮ è¯¥åľ°
åĲİ èĢħ
å¥ĸ é¡¹
ä¸Ń å±±
18 7
æķĻ åĮº
åĳ½ ä»¤
éľĢ æ±Ĥ
äºº å¤§
éģ¿ åħį
æĬ¥ å¯¼
åıĹ ä¼¤
èĲ¥ è¿Ĳ
ä¼° è®¡
è½° çĤ¸
ç¼º ä¹ı
è¿ħ éĢŁ
æĹ ¦
ç¬¬ 1
æıĲ åĲį
åħ¶ ä½Ļ
æµ· åŁŁ
äºİ19 4
æī °
åĽĽ ä¸ª
èĳĹ åĲįçļĦ
æĲ ¬
æ³¨ æĦı
æ¬¢ è¿İ
çĶŁ åĳ½
å¸Ĥ çļĦ
å¿ĥ çĲĨ
éļ§ éģĵ
æĶ¿ æĿĥ
éĥ Ĭ
åī ©
è¾¾ æĪĲ
åĲ¸ å¼ķ
çĹĩ çĬ¶
å®ī å¾·
æı Ĵ
é² į
åĸ Ģ
éĩĳ çīĮ
è§Ħ åĪĻ
ä»ĭ ç»į
ä¹ĺ å®¢
å¤§ è¥¿æ´ĭ
æĸ¯ å¡Ķ
å¤ĸ åĽ½
éĩĳ èŀį
æķĻ ç»ĥ
e g
æĿ Ĩ
æĴ¤ éĶĢ
çİ »
ä¾ ¦
éľ ¸
ä¸ ²
çļĦ ç¬¬ä¸Ģ
äºº åĴĮ
åı¯èĥ½ ä¼ļ
è´ ŀ
éĥ¨ èĲ½
å´ İ
S A
ä¸» å¼ł
æĪĲä¸º äºĨ
æķ° åŃ¦
å¹¶ å°Ĩ
Ġ201 4å¹´
èĢĮ è¢«
éĵ ¾
i a
6 7
t ion
æĦŁ åĪ°
åħ¬ ä¼Ĺ
æ¬ ²
å½¼ å¾Ĺ
4 00
èĥ İ
er s
ä¹Ł è¢«
äºĭ å®ŀ
å°Ķ åħ°
æķĻ å¸Ī
ä» ¿
éĩĩ åıĸ
ä½ĵ éķ¿
åħ¨ éķ¿
9 9
æµ ĵ
Ġ201 5å¹´
æİ¨ åĬ¨
è ¹
ä¹ĭ ä¸ĭ
ä¼ł è¯´
èµĦ è®¯
è´Ń ä¹°
åħ¶ å®ĥ
ä¿¡ ä»°
15 0
æī§ å¯¼
æŀ ¢
çĲĨ äºĭ
é¼ ł
ä¸Ńåħ± ä¸Ńå¤®
æľ¬ èº«
çļĦä¸Ģ åº§
è¯ ¢
Th eĠ
ä¼ Ļ
ç¥ŀ ç»ı
å½ »
èĽ ĩ
åį ĵ
æĸ¯ èĴĤ
æĶ¾ å¼ĥ
åıĪ åĲį
æķĻ åŃ¦
æľĢåĲİ ä¸Ģ
" ,
æĴŃ æĶ¾
éĩį åºĨ
äº¦ æľī
åįģ åŃĹ
âĢĿãĢģ âĢľ
æ³ķ æ¡Ī
æĽ´ å¤ļ
ç¨ĭ å¼ı
åıĤ èĢĥ
Ġ201 3å¹´
è¥¿ æĸ¹
è´¡ çĮ®
Ġ s
æĭ ³
ç½ĳ è·¯
åįĹ æŀģ
18 6
æīĵ åĩ»
åľ° çļĦ
åĩº æĪĺ
äºİ19 6
å£ ®
èĭ± éĽĦ
å®¹ æĺĵ
el l
u l
ç¬ ĳ
åİ ĺ
åĨĽ çļĦ
æ³° åĽ½
ç§¯ æŀģ
æĵ İ
å½ĵ å±Ģ
æĺ¯ä¸Ģ ä½į
æĬĹ è®®
åĸľ æ¬¢
åĽ½åĬ¡ éĻ¢
æı Ń
æĺ¯ æĹ¥æľ¬
åī ²
çİ° ä»»
äºĭ æķħ
ä¹Ŀ é¾Ļ
å¤º å¾Ĺ
Ġ æŃ¤
çī ł
åħ¨ éĿ¢
äºİ19 5
è¯ģ æį®
åĲ¯ çĶ¨
æĢ§ è´¨
æİ¥ è§¦
äº Ń
éĺŁ ä¼į
æ´ Ĺ
åį ľ
è£ħ çĶ²
æī ®
ä¹Ł ä¼ļ
å° Ŀ
ç»ĵæĿŁ åĲİ
åįģ ä¸Ģ
èµ Ĳ
çŁ¥ è¯Ĩ
å±Ĭ åħ¨åĽ½
çļĦ éĩįè¦ģ
èĤ º
åĲİ æľŁ
å¼º çĥĪ
æ¹ĸ åĮĹ
å¤ļ ç§į
çª Ĺ
èĬ ³
æ¶ī åıĬ
åľ¨ åħ¶
æĮ ª
å®ī å¾½
å¦Ĥ ä½ķ
å±ķ ç¤º
) ;
èĢĮ æĪĲ
çĸ ı
Ġ 4
å¤į æĿĤ
åŃ¦ ä¼ļ
æ¼ĶåĶ± ä¼ļ
Ġ d
ä¸ĸçķĮ æĿ¯
çł ²
ä¸ĩ åħĥ
çŁ¥ åİ¿
å®Į æķ´
çļĦ æµ·
èı² å¾ĭ
åĴĮ åħ¶ä»ĸ
éĩĮ äºļ
èı²å¾ĭ å®¾
æĿ Ń
çĻ½ èī²
ç¬¬ 2
ç»´ å¥ĩ
ç¾½ æ¯Ľ
çİ Ħ
ä¸ĩ ç¾İåħĥ
åħ¬ ä¸»
çĪ± å°Ķåħ°
åĩºçİ° åľ¨
è´ «
èį¯ çī©
æĬ ¢
éĩĮ æĸ¯
ç¾İ æľ¯
åħī ç»ª
7 8
5 9
æĸĩ çĮ®
æĿĳ åºĦ
æĦı è§ģ
çļĦ åľ°æĸ¹
è± Ĩ
éĢ Ĵ
éĵ º
æ°ĳ éĹ´
ä»Ģ ä¹Ī
2 äºº
æ¸ Ķ
å¼ķ æĵİ
éĢ Ĩ
åĨħ éĺģ
åŁĥ åıĬ
å¸Ĥ æ°ĳ
å£ ³
æĿĥ åĪ©
åĪĽ å»º
æĹħ å®¢
å« Į
è¿Ļ æ¬¡
åĢĻéĢī äºº
è´ ´
é«ĺ éĽĦ
5 6
o b
æ¹ ¿
3 äºº
æĬ ½
çĬ ¬
å®¢ è¿Ĳ
çĪ¶ æ¯į
é¢Ĩ åľŁ
èĲ¨ åħĭ
ç®Ģ åįķ
å¾ĭ å¸Ī
æº ¶
çº¢ èī²
æĿ° åħĭ
äºº å·¥
å°ı çļĦ
æİĪ äºĪ
æİª æĸ½
æĭī ä¸ģ
Ġ202 3å¹´
éĽ ĩ
è¡¨ éĿ¢
å®ļ ä¸º
çĮ «
Ġ å¤§
éĻ¢ éķ¿
ç®Ģ ä»ĭ
å¦ ĥ
ä¹¾ éļĨ
A n
èŀ º
èĤ¡ ä»½
N A
æķĪ æŀľ
çŃ¾ ç½²
åĩº éģĵ
èģ ĺ
è±¡ å¾ģ
å¯ Ħ
ç² ®
åıĳ åĶ®
èį£ èªī
æĦı ä¸º
æĭī å¤«
å° ī
1 äºº
Ġ V
éĻį ä½İ
å£° ç§°
æĿ¥ åĪ°
é£ ĵ
æ·± åľ³
æĤ ¬
å½¢ è±¡
åľ° éľĩ
åħĭ ç½Ĺ
e p
äºļ åİĨ
ç¡® è®¤
ç¡® è¯Ĭ
åĽł ç´ł
ä¸ľ åĮĹéĥ¨
å· §
Ġ 6
ç¢ ³
æĮī çħ§
çĬ¯ ç½ª
é£ĵ é£İ
çĽ ¾
çĪĨ çĤ¸
åı Ķ
è¿ Ł
éķ¿ åº¦
ä¹Ł åı¯ä»¥
åĮ» çĶŁ
é¢Ĩ è¢ĸ
ç«ŀ äºī
åľ° çĤ¹
è¢ ģ
ä½ľ èĢħ
T V
çħ ¤
t w
o k
å°Ĩ ä¼ļ
an g
ä¼ł æĴŃ
å·® å¼Ĥ
è¢«è®¤ä¸º æĺ¯
åıĳ åĩº
ç¨ ¿
å® ı
æ´ ģ
æĽ´ åĬł
ä¸ĵ éĹ¨
ä¸ Ī
æĸ ľ
æĸĩ åŃĹ
ä¼Ĭ æľĹ
åıĻ åĪ©äºļ
ä¸į æ»¡
å®ŀéĻħ ä¸Ĭ
çļĦ é«ĺ
ä¸ĵ å®¶
ç¾ Ĭ
åİĭ åĬĽ
åı¤ ä»£
ä¸¾è¡Į çļĦ
æ°Ķ è±¡
8 8
ä¸ Ļ
å¯¹ æŃ¤
å·¥ åħ·
ä¹¡ è¯ķ
èµĦ éĩĳ
Â °
Ġ b
åı° åįĹ
åŁºçĿ£ æķĻ
åĽĽ åįģ
æĪı åī§
çī µ
æ¯ĶèµĽ ä¸Ń
èĨ ľ
èµ· æºĲ
èħ ¾
5 7
= "
æĬ ¼
å° ¸
å°ļ ä¹¦
æ²³ çķĶ
æįŁ å¤±
: "
ï ½
åĨ Ĵ
é«ĺ äºİ
å¤ļ å¹´
å¡ «
ç»Ļ äºĪ
æľī ä¸Ģä¸ª
è¾¹ çķĮ
é³į é±¼
ä¸ľ æĸ¹
å¸Ī èĮĥ
çĸ¾ çĹħ
è¾ ©
åĿ¦ åħĭ
çĽ¸ æ¯Ķ
ç»ı éªĮ
è¡ į
æĺ¯ ä»¥
çĹħ ä¾ĭ
å¥ ĳ
çĲĥ ä¼ļ
è£ ķ
éĴ ¦
æľī æīĢ
åľ¨ æĹ¥æľ¬
ä½ľ æĽ²
ä¸¾ äºº
äº¨ åĪ©
i sĠ
ä» ĳ
ä¸Ģ å®ļ
è¡ °
å§ »
199 8å¹´
æłĩ ä¸º
åĩº å¸Ń
æ° Ł
ç½ ¢
åĪĹ è¡¨
ĠS t
è¸ ª
éĢĢ å½¹
éĿ¢ å¯¹
å·¡ åĽŀ
ä¸į ä»ħ
å½ĵ å¹´
çļĦ ä¸ī
çļĦ ä½ľåĵģ
é¸ ¡
æĺİ æ²»
çº¦ ä¸º
æĶ¹ åĸĦ
æĢ§ åĪ«
çĻ» éĻĨ
è¥¿ èĹı
èĮ Ĥ
ä½ı å®ħ
å²ģ çļĦ
è ²
çĲ ī
ä¹ĭ ä¸Ń
ä¸¤ å¹´
æĶ¹ éĢł
åı¸ æ³ķ
å¹¶ åħ¥
åĪĹ åħ¥
åĽŀ åºĶ
åħĭ èİ±
ç«Ļ åı°
å® Ļ
çİĩ é¢Ĩ
éĤ£ éĩĮ
è´µ æĹı
e w
6 6
èĪŀ åı°
199 9å¹´
è½¬ ç§»
åĪ¶ çļĦ
e b
ç¤¾ä¼ļ ä¸»ä¹ī
å¦ Ī
å®ŀ è¡Į
å£° æĺİ
åĨ¬ åŃ£
C D
åľ° éĿ¢
ç² ¹
ç§į æĹı
èĭ± å°º
çĶµ è½¦
æ¾³ æ´²
èĤ ¥
åŁº åĽł
åıĤ è°ĭ
åĸ ·
åħ³ éĹŃ
åĳ½ åĲįä¸º
èį Ĵ
æµģ åŁŁ
åĥ §
æµ· æ´ĭ
æĪĲ æľ¬
Y ou
åıĤåĬł äºĨ
å¥¹ åľ¨
è£ħ ç½®
ä¸Ģ å®¶
æ ĩ
éģ µ
çĭ Ħ
Ġ201 2å¹´
5 4
ç¤º å¨ģ
è¯Ń çļĦ
å½¢ æĢģ
çĸ« æĥħ
æµ ©
æīį èĥ½
åıĺ å¾Ĺ
å²ģ æĹ¶
ç¡ķ å£«
åľ¨ ä¸ŃåĽ½
èĬ¬ åħ°
é¸ ¿
å´ Ķ
çİĽ ä¸½
åĳ¨ å¹´
ç¬¦ åĲĪ
é©± éĢĲ
æĦı æĢĿ
åħ¬åı¸ çļĦ
åį³ ä½¿
é«ĺéĢŁ åħ¬è·¯
æľº åĻ¨
æµĭ éĩı
æµ· å¤ĸ
çļĦ åĽ½å®¶
é³įé±¼ çº²
æŃ£ å¸¸
å¸ ħ
éĢļ è½¦
èİ« æĸ¯ç§ĳ
æĸ° çĸĨ
å±Ģ éķ¿
å² Ĺ
è¾ĥ ä¸º
B C
ç±³ çļĦ
æĥħ æĬ¥
åı¦ ä¸Ģä¸ª
é¥ Ń
çĶµ åĬĽ
é¡¾ éĹ®
å¯¹ è±¡
å¼Ģ è®¾
èĭı æł¼åħ°
å¼ ¥
éħį åĲĪ
æ·· åĲĪ
é£Ł çī©
æĢ Ĵ
åĩº æĿ¥
ä¿® æĶ¹
al l
æ¶ µ
å§Ķ ä¹¦è®°
æĶ¶ è´Ń
éĻĦè¿ĳ çļĦ
æĻļ ä¸Ĭ
åı°åĮĹ å¸Ĥ
Ġ èĩª
åĵ² åŃ¦
ä¿ ĺ
å¾Ī å¿«
æķ´ ä½ĵ
è¾Ĳ é³įé±¼çº²
èĢ Ĺ
çģ« ç®Ń
å¹¶ ä»¥
åĩł ä¸ª
éĻĨåľ° éĿ¢ç§¯ä¸º
çŁ¥ åĲį
åĪĨ éħį
æ°´åŁŁ éĿ¢ç§¯ä¸º
3 ä¸ª
æ¬ £
10 å¹´
æ¶ ¦
æī© å¤§
u p
åŃ ¤
éħį éŁ³
5 2
èĢ Ģ
å·¥ äºº
å¼Ģ éĢļ
åĮĪ çīĻ
æŃ ĩ
æ¯Ķ ä¾ĭ
çŁ ¶
çĭ Ĥ
æ³ķ å®ĺ
ä¸Ģ åº§
ä¸ľ åįĹéĥ¨
äº¿ åħĥ
èµ ¶
å¹¿ä¸ľ çľģ
å¯¼ å¼¹
æĮª å¨ģ
åĮĪçīĻ åĪ©
çļĦ åİĨåı²
åľ¨ è¯¥
ä¹ĭ åŃĲ
èĢĮ è¨Ģ
åĤ ħ
ä¸Ģ æĿ¡
å¢ŀ éķ¿
ç¥ Ģ
æĥ ¯
è£ħ å¤ĩ
çĭ ®
çļĦ æĹ¶éĹ´
éĻ Ģ
åº· çĨĻ
å¯ ¸
çľģ åĴĮ
ç¿ Į
ï½ ŀ
ä»» èģĮ
åıĳçİ° äºĨ
l eĠ
è¯· æ±Ĥ
åĲĮ çĽŁ
åŁĥ å°Ķ
æıĲ åĪ°
æµ· å³¡
æģĲ æĢ
i k
çĶ¨ ä½ľ
åĬ¨ ä½ľ
åŀ Ĥ
æĪĺ çķ¥
ç¥¨ æĪ¿
å½ĵä¸Ń éĻĨåľ°éĿ¢ç§¯ä¸º
èĢĮ æ°´åŁŁéĿ¢ç§¯ä¸º
Ġ I
çļĦ ä¸Ń
ç§ĺ å¯Ĩ
u c
å¤ª åŃĲ
èĦ Ĥ
å¤ ·
åİ ¢
ä¸ĭ éĻį
æŁ Ķ
9 8
ç§ģ äºº
ç² ¤
äºļåİĨ å±±
ä¸ĭ æĿ¥
18 å¹´
æŃ¦ æ±ī
æĤ ī
å¸ĥ å°Ķ
ç¼ħ çĶ¸
åįİ çĽĽ
çĭ Ĺ
éĢĢ ä¼ĳ
i p
çĶŁ çļĦ
éĹ´ çļĦ
éĥ¨ çļĦ
èµ· ä¹ī
åĩº æ¼Ķ
å§ ļ
åĽŀ å½Ĵ
æ» ļ
æŃ¥ åħµ
è¦Ĩ çĽĸ
; -
Ġ è¡ĮæĶ¿åĮºåĪĴ
7 6
ä¸Ĭ åįĪ
è¯´ æĺİ
ç¼ĸ åī§
ç¢ İ
éĢ ¢
è§Ĥ æµĭ
ä¸ŃåĽ½äººæ°ĳ è§£æĶ¾åĨĽ
æľĢ è¿ĳ
éĩį å¤§
çĮ Ľ
åĬ³ åĬ¨
æī¾ åĪ°
ä¸º è¾Ĳé³įé±¼çº²
ä½ĵéķ¿ åı¯è¾¾
O S
æ·± åº¦
çģ Į
æİ¨ è¿Ľ
åįİçĽĽ é¡¿
è¢« è¿«
é¢Ħ è®¡
å½ °
èĬ Ĵ
åĲĪ çº¦
åĬŀ äºĭ
åħ´ è¶£
å¥¥è¿Ĳ ä¼ļ
æĳ ĩ
åĪ ¸
ç»Ħ å»º
çľŁ æŃ£
5 3
ç¬¬ åħ«
ç»ı åħ¸
é©¬ å°Ķ
è¯ķ éªĮ
åº ŀ
åĳ¨ åĽ´
çļĦ éĹ®é¢ĺ
é£İ éĻ©
æºĲ èĩª
å°Ŀ è¯ķ
ç¾İ åĨĽ
ä¿Ŀ åŃĺ
ä¸º æŃ¢
åĬł çĽŁ
å¼ķ åħ¥
æĬķ éĻį
éĺ² å¾¡
å¾¡ åı²
æłĸæģ¯ åľ¨
å¹¿ è¥¿
æ» ©
èĬ± åĽŃ
æĿĢ æŃ»
i f
ç¬ ¼
å» Ĭ
åľ° åĽ¾
åĮĹ èµ·
ä¼ ª
åĳ İ
Ġ202 4å¹´
åģ ·
å²Ľ å±¿
åĬ¿ åĬĽ
âĢ¦ âĢ¦
éĺ ª
åĮĹäº¬ å¸Ĥ
æľ¬ ç«Ļ
èį Ĳ
éļı åį³
Ġ æĽ¾
å¥ İ
è´£ ä»»
e x
ä¸Ń æľī
ä»£è¡¨ å¤§ä¼ļ
h a
Ġ ä»İ
å¤§ è§Ħæ¨¡
éĢ »
ä¸İ åħ¶ä»ĸ
èĤ ĸ
å£° éŁ³
199 7å¹´
çļĦæĥħåĨµ ä¸ĭ
( ).
ä»¥ åīį
éħ ¶
æĹĹ ä¸ĭ
å¸¦ æĿ¥
è®º æĸĩ
çĶ¨ éĢĶ
çĶŁ æĢģ
åįģ åħ«
199 2å¹´
199 6å¹´
åĽ½å®¶ éĺŁ
çı Ĭ
B A
Ġ U
ä¾ ł
å¯¹ å¤ĸ
æ¸© åº¦
è®² è¿°
i st
åĲ ¾
7 7
äº¿ ç¾İåħĥ
çħ§ çīĩ
æŀ Ŀ
è¿Ĳ ä½ľ
ç»ĦæĪĲ çļĦ
ä¿ĥ è¿Ľ
ä»£ çłģ
å¯¹ åºĶ
4 3
çļĦ æĶ¯æĮģ
æľĢ å¤ļ
ä¼ĺ åĬ¿
è½¯ ä»¶
å¾Ĺ çŁ¥
è§£ æķ£
æ¹ ĺ
ç¿ ģ
ä¸¤ æ¬¡
æĮĩ å¯¼
å¤« äºº
è°Ī åĪ¤
çĴ ĥ
èµ ĭ
éļľ ç¢į
åĲį ä¹ī
å¨ ĥ
åĵ¥ ä¼¦
å¤ıåŃ£ å¥¥æŀĹåĮ¹åħĭè¿ĲåĬ¨ä¼ļ
å¹´ é¾Ħ
Ġ m
åįģ ä¸ī
æŀĦ éĢł
ä¿® å»º
éĺ Ķ
ç»ı çĲĨ
èĥ ¸
åľ¨ å¤§
å¼ ¦
åı° ä¸Ń
æģĲæĢ ĸ
çļĦ å·¥ä½ľ
éŃ Ĥ
éļ¾ ä»¥
åį µ
æł ı
å°ı åŀĭ
æĮĩ æİ§
ä¸ĩ åİĨ
ä» ĩ
äºĨ è§£
4 1
Ġ æ¦Ĥ
ä»ĸ è¿ĺ
åİĨ ä»»
åĲ Ĳ
è¢« è§Ĩä¸º
ä¸Ĭæµ· å¸Ĥ
ar t
Ġ 5
æľ ´
è¥¿ åįĹéĥ¨
çļĦ å±±
é©¬ æĭī
æ¯ķä¸ļ åĲİ
é©¾ é©¶
éĤ£ äºĽ
han s
çļĦ å¤ĸ
åĲ ı
ä¸ī è§Ĵ
çļĦ åıĳå±ķ
åı ł
æ· ĺ
194 5å¹´
åħĭ æĭī
éĤ ¨
æ³¨ åĨĮ
h k
Ġ of
å©ļ å§»
å®ĩ å®Ļ
ind ow
æī® æ¼Ķ
è¥¿ å®ī
çŃī çŃī
ç½ĳ çĲĥ
Ġ201 1å¹´
å± ł
åĮĸ çŁ³
æĳĦ å½±
ç¡ «
åĬł å¼º
æ¬¡ å¹´
éĩı çļĦ
èħ Ĳ
éĶĻ è¯¯
ar d
æĲ º
å¹´ ä»£
åĨĽ åĮº
èĪ ±
åı° é£İ
198 8å¹´
æ·¡ æ°´
9 5
å½ ¦
å®¶ äºº
å¤ª ç©º
æŁı æŀĹ
Ġ p
é¢ľ èī²
åľ¨ é¦Ļæ¸¯
åįģ åħŃ
èĦ Ĭ
æľį å½¹
åĲĪ æĪĲ
éĻĨ ç»Ń
éĢ ®
è² Į
åĺ ´
A R
199 4å¹´
å®¶ çļĦ
éĢĢ åĩº
é¹ °
ä»ĸ è¢«
åįĹ éĿŀ
B S
åĬł åĪ©
éĢļ éģĵ
æĶ¿ åįı
åįĹ æĸ¹
æŃ §
éļ¶ å±ŀ
äºİ19 3
åİŁ ä½ı
Ġ201 0å¹´
æĹ ¬
è¥¿ åĮĹéĥ¨
ç¨ į
æ±Ł è¥¿
åı ī
æĶ¿åºľ çļĦ
an t
åħĭ çļĦ
194 9å¹´
çĲĥ åŃ£
ç³»ç»Ł çļĦ
ä»· æł¼
éĩĬ æĶ¾
A M
ä¹Ĳ éĺŁ
ï¼ ı
å®ļ å±ħ
il l
Ġ 10
å¤§ èµĽ
åĳĪ çİ°
çļĦ æķħäºĭ
ä¸Ģ èĩ´
çĽ¸ ä¿¡
ä½ľ åĩº
å¸¦ æľī
ç¬¬ 3
q u
é¦ĸ åħĪ
å¨ ĺ
ä¿Ŀ ç½Ĺ
åĪĨåĪ« ä¸º
åĪ ·
ç¿ ł
åħ¼ ä»»
éĹ ½
æģ °
æİĴ è¡Į
Ġ çļĦæĹ¶åĮºä¸º
Ġ äºİæĹ¶çļĦäººåı£æķ°éĩıä¸ºäºº
Ġ æīĢå±ŀçļĦçľģçº§éĢīåĮºä¸º
æīĢ å±ŀ
éº¦ åħĭ
éĺ¶ çº§
Ġä¸İ æİ¥å£¤çļĦå¸Ĥéķĩ
ĠçļĦ éĤ®æĶ¿ç¼ĸçłģä¸º
ä¸¤ åĲį
èĿ ¶
7 9
æ¸¸ æ³³
ä»»åĳ½ ä¸º
4 äºº
æĬĹ æĹ¥
æı ¡
çĽ¸ äºĴ
åħ³ éĶ®
ç«ĭ åį³
éĢļ è®¯
ç¯® çĲĥ
Ġ t
èĸ Ħ
åĮĹ æµ·
éªĳ å£«
èĩª èº«
åĿ ª
æ¯Ķ å¦Ĥ
æ· »
éªĳ åħµ
åį± æľº
å© Ĩ
æĸ¯ æŀĹ
éĽ Ģ
å¸¦ é¢Ĩ
éĵ Ń
åİŁ åŃĲ
Ġ19 2
ä¸° å¯Į
1 æľĪ1æĹ¥
å¿ §
è¶ ĭ
ä¼ĺ ç§Ģ
éĨ Ĵ
ç¬¬äºĮæ¬¡ ä¸ĸçķĮå¤§æĪĺ
å· «
å¤§ èĩ´
æ· ®
å±ķ è§Ī
æĸ¹ è¨Ģ
å¯¹ æĬĹ
éĢī ä¸º
æĹ¶æľŁ çļĦ
è®¡ç®Ĺ æľº
åĨħ éĻĨ
ä¾Ľ åºĶ
çľŁ å®ŀ
è¯ ı
éĿŀ å»ºåĪ¶
æĦı å¿Ĺ
é¸ £
ç¾½æ¯Ľ çĲĥ
èīº äºº
é»ĳ èī²
è¾ĵ åħ¥
ä¼Ĺ å¤ļ
éĺŁ éķ¿
C O
6 9
ä»ĸ ä¸İ
åĮĹ æĸ¹
åĽº å®ļ
ä¸Ĭ è¿°
æİ ĺ
åħĪ çĶŁ
åħ· ä½ĵ
åį° å°¼
ä¸Ģ çº§
ä»£ çĲĨ
å·ŀ åºľ
æľĿ å»·
éĺ ®
æ´¾ éģ£
å µ
198 9å¹´
ä¸º 2
å¾Ģ å¾Ģ
æ£Ģ æµĭ
å§ ¬
éĥ½ å¸Ĥ
å¯» æī¾
é»Ħ éĩĳ
é¢Ĩå¯¼ äºº
éĿŀå»ºåĪ¶ åľ°åĮº
s p
18 5
ä»£è¡¨ åĽ¢
çªģ çł´
é¼ »
Ġ ä»¥ä¸ĭ
ä½Ĩ çĶ±äºİ
a in
åįģ äºĶ
çģ« å±±
6 2
A l
çī¹ èī²
åįĹ èĩ³
çĽĳ çĿ£
åĹ £
å¼Ģ å±ķ
æĦ Ī
æ³¢ æĸ¯
æĿī çŁ¶
å·² è¢«
æĽ´ ä¸º
ä¾ĭ åŃĲ
æ´Ľ æĿīçŁ¶
æ° ¯
çĻ» ä¸Ĭ
çĶµ è¯Ŀ
å½ĵ å¤©
ä¸¤ åĽ½
æĸ ¤
æĹ¥ æĬ¥
10 00
å±± è¥¿
åĦ Ĵ
åħ Ĩ
èĭ ĳ
çªģ çĦ¶
å®ŀéªĮ å®¤
èĮ µ
ä¾Ŀ æį®
åģ ¿
Ġ å®¶æĹı
å°¼äºļ å·ŀ
Ġ 8
ä¸º 1
åľº çļĦ
åħ¬ çĪµ
æĳ Ĩ
ä¸¹ éº¦
åį Ĵ
è¡Į çļĦ
æ± ª
çĽ¸åħ³ çļĦ
åĽ½å®¶ çļĦ
çī¹ å®ļ
ä¸ī ä¸ĸ
199 3å¹´
åĲĽ ä¸»
å¯ ¨
åĨĽ å®ĺ
åĳĺ å·¥
: ),
å¤§ å¤ļ
199 5å¹´
å°ĳ å¥³
å¦ĩ å¥³
6 00
å°± ä¼ļ
æ²¿ æµ·
æĺİ ç¡®
ä¸»è¦ģ çļĦ
æĪ¿ å±ĭ
éĢ® æįķ
4 ä¸ª
åı² ä¸Ĭ
199 1å¹´
on g
è½¬ åĲĳ
æī© å±ķ
å¤ ķ
å¤§ æ¡¥
ä¾ ¨
å°¼ åħĭ
èµĦ äº§
5 1
èĦ ı
éĻ ¨
çļĦ åĲĮ
æľº åĪ¶
éĵľ çīĮ
è¯ģ å®ŀ
æŃ¤ æ¬¡
åĪ¶ å®ļ
å®ĥ æĺ¯
ç»Ŀ å¯¹
åĬ Ŀ
å¤§ å¥ĸ
åĩ Ģ
Ġ éĺ¿
ä¸ Ľ
è¾ °
ä¸İ åħ¶
18 0
æ£Ģ æŁ¥
ä¸Ģ æ®µ
å¤§ åİ¦
ç§ĳ å¤«
äºļ ç¾İ
åĮĸ åĲĪçī©
ç² Ĺ
åĲ¯ åĬ¨
Ã ©
æ³ķåħ° è¥¿
çļĦ çĶµå½±
åĪĨ ç¦»
è§Ĩ é¢ĳ
éĵ ¸
Ġ åĴĮ
åľ¨ äºİ
åī§ æľ¬
ç´§ æĢ¥
è¯Ħ ä¼°
åĿĩ ä¸º
Ġ zh
åĨľ æ°ĳ
åĵ¥ä¼¦ æ¯Ķäºļ
åĬł æĭī
æ¶ Ĥ
ä¸ ĳ
çī¹åĪ« æĺ¯
en d
ä¿Ŀ å®Ī
ä¹ł æĢ§
èĲ¨ æĸ¯
åī§ éĻ¢
åºŁ éĻ¤
åĬ «
åŁºéĩĳ ä¼ļ
2 ä¸ª
199 0å¹´
198 5å¹´
çŁ ©
åľº æ¯ĶèµĽ
åĢ ¡
ä¸»è¦ģ æĺ¯
ä¹ĭ æĪĺ
æī «
è´ ©
èĢĮ éĿŀ
æ± °
è´¨ çĸĳ
çŃ¾ è®¢
ä¸Ń è¢«
ä¸Ĭ æľī
çİ° ä»Ĭ
æ± Ģ
åİŁ åĪĻ
åĨĽ åĽ¢
å½¢ å®¹
éĻķ è¥¿
ä¸ĭ ä»¤
éĦ Ĥ
å¼ ¯
åŃ¦ å£«
ç±³ äºļ
åĬª åĬĽ
åħ¶ä¸Ń åĮħæĭ¬
ç»Ļ äºĨ
ä¼ļ éķ¿
ç»´ æĬ¤
å¸Ń ä½į
çīł ä»¬
a st
æĭ ĺ
éĽ Į
æĮĩ å®ļ
åįĩ çº§
é© ³
æ½ Ń
çŃī ä¸º
é¾ Ł
éĺ» æŃ¢
èĥ½ éĩı
åŁİ åł¡
åı· çļĦ
åįİ äºº
èģĮä¸ļ çĶŁæ¶¯
ä¿Ŀ éļľ
åĭĭ ç«ł
æłĩ æľ¬
ç©Ĩ æĸ¯æŀĹ
åĽ° éļ¾
è¿Ļæł· çļĦ
æŃ» åĲİ
çļĩ åĲİ
ç§ĳ åŃ¦éĻ¢
æ¶ Į
198 4å¹´
æĥħåĨµ ä¸ĭ
äºļç¾İ å°¼äºļ
æĹ¶ æ®µ
æĺ¯ä¸Ģ é¢Ĺ
åħ¶ä¸Ń ä¸Ģç§į
Ġ200 8å¹´
åĲİ ç»Ń
åł ª
ç£ ¨
Ġ 7
é¦ĸ ä¸ª
ç§į åŃĲ
çł ĸ
èĲ¨ å°Ķ
çķĻ ä¸ĭ
èĵ ¬
éĨ ĩ
å¯ Ĵ
åĪ© çĽĬ
äºĮ äºº
é©¬ éĩĮ
äº¦ æĺ¯
æ»¡ è¶³
2020å¹´ ç¾İåĽ½äººåı£æĻ®æŁ¥çļĦæķ°æį®
å¥¥ å°Ķ
åĺī éĿĸ
å¿ ½
æĥ Ł
åĢ º
å¤§åŃ¦ çļĦ
æīĭ æľº
åĬ© çĲĨ
å»¶ éķ¿
çļĦ ä¸¤
ä¹Ł ä¸į
åıĤ éĢī
æķ ¢
æľ¬ åľ°
Ġ æĹ©å¹´
ä¸» åĬŀ
åĬł å·ŀ
æĶ¶ è§Ĩ
åĪº åı²
ig h
å° ¹
å¾· çļĦ
å¼Ĺ æľĹ
ä¸Ń éĹ´
ä»¥ å¤ĸ
åħ¬ å®ī
åĳ¨ æľŁ
èĮĥåĽ´ åĨħ
åįģ åĽĽ
æ¶Ī è´¹
çļĦ åħ³ç³»
å¥ Ķ
æıĲä¾Ľ äºĨ
åĭ Ł
æ°Ķ æĹĭ
ä¸Ń æľŁ
æĬ ĳ
è®¾ å®ļ
ç»´ æĸ¯
æº ¯
æĽ´ æĸ°
ä¸ĸçķĮ ä¸Ĭ
1 ä¸ª
å¤§ å¹ħ
å¹¶ ä¸İ
å¤į åħ´
åĬŀäºĭ å¤Ħ
åľ¨ åĨħçļĦ
éĹ ª
ä»¤ äºº
èº« ä¸º
çº³ ç²¹
æ´» è·ĥ
ä¿® æŃ£
éĤ» è¿ĳ
æĺİæľĿ æĶ¿æ²»äººçī©
ä¸ľ ä¸´
ç©º æ°Ķ
åıį æĺł
é¢ ĩ
åİŁ åĲį
å½¢ çĽ®
é¤Ĳ åİħ
A C
èĩ³ äºİ
æī ¶
ä¸Ĭ ä¸ĭ
åĳĬ è¯ī
ç¢ Ł
æļ´ åĬĽ
- -
æĻĭ çº§
s h
ac k
198 6å¹´
8 5
åįı è°ĥ
çİ» çĴĥ
å½ķ éŁ³
æĤ ²
ä¸į åĪ°
Ġ200 9å¹´
è Ł
çİ° å®ŀ
ä¼ł åªĴ
ç¿ ħ
çĽĳ çĭ±
00 å¹´
åħļ çļĦ
æĭ ¼
æĭ ĸ
ä¼ļ ä¸Ĭ
åĩº åıĳ
åĪ© æĸ¯
å¾· å°Ķ
æİ¥ æĶ¶
ä¹¦ éĻ¢
åħ¸ ç¤¼
å½ĵåľ° çļĦ
èķ ¾
æ·ĺ æ±°
æĹ¥ æľŁ
ä»Ĭ å¤©
éĢ ¼
la y
s s
æ¸ħ åįİ
åı¦ æľī
åįģäºĮ å¹´
åİŁ å§ĭ
åįĩ ä»»
éĵ¶ çīĮ
é£Ł åĵģ
19 ä¸ĸçºª
æĸ¯ é¡¿
èģĮ ä½į
æĸ Ĳ
å¯ ĵ
åıĳ æĺİ
åº¦ çļĦ
ç«ĭ æĸ¹
å¸ĥ èİ±
æĤ£ èĢħ
æĹ¥ æ²»
æĳ §
r an
å· ¢
äº§çĶŁ çļĦ
ç¡®è¯Ĭ çĹħä¾ĭ
i an
ä»ĸ ä¹Ł
åħį è´¹
åİŁä½ı æ°ĳ
E D
ç¨ »
é±¼ ç±»
äºļåİĨå±± å¤§
å·² æľī
æİ¨ å¹¿
æı´ åĬ©
u sĠ
åľ¨ ä¸Ģ
è¿ĳ å¹´
åĨľ æĿĳ
1 20
çļĦ è®¾è®¡
äº² çİĭ
è¥¿ åħ°
æ°´ åºĵ
ç»´ åŁĥ
èĢĥ åı¤
åī¯ ä¸»ä»»
æľī æľº
å¼ł ä¸ĵè¾ĳ
åľ¨ ä¸Ń
åĿ Ŀ
ç¥ ł
çĻ Į
ç«ŀ éĢī
198 0å¹´
åī¯ ä¸»å¸Ń
æĺ¾ èĳĹ
Ġ å½ĵ
çĶŁ æĪĲ
åı¸ é©¬
ç» ³
æīĢ è°ĵ
çĲ ¼
å¿ į
å¹³ åİŁ
å¤© çļĩ
æĶ¹ åĲįä¸º
åħ¬åħĥ åīį
6 3
ä¾Ŀ çĦ¶
åĸľ åī§
æł ĭ
è£ħ é¥°
æĺŃ åĴĮ
çĶ± æŃ¤
çĲĨ è§£
åıĳåĬ¨ æľº
ç§° ä½ľ
è½¬ æį¢
é¾Ļ æ±Ł
17 9
åį± éĻ©
æĺ¯ å¾·åĽ½
ç»Ī äºİ
çļĦ æĪĲåĳĺ
åľ Ń
ä¸Ģ è¯į
å±± åĮº
éĤ£ ä¹Ī
æ¸¸ è¡Į
Ġ202 5å¹´
éĿł è¿ĳ
7 2
å¿ Ļ
ç©º ä¸Ń
é¹ ¤
å®Į å·¥
æīĢæľī çļĦ
è´§ å¸ģ
ä¿® å¤į
éļĶ ç¦»
åĩ Ŀ
åľ° å¸¦
ä¸Ī å¤«
æł¡ åĽŃ
ç¡® ä¿Ŀ
ä½ĵèĤ² åľº
2001å¹´ äººåı£
è¿Ľ æŃ¥
èĥ½ æºĲ
éĩĩ è®¿
è¿Ĳ çĶ¨
äºĶ æľĪ
æīĵ ç®Ĺ
æ½ľ èīĩ
çĿ ¡
å¢ŀ å¼º
æľ¬ çīĩ
å¾· åįİ
W indow
çŁ Ľ
èĴ ¸
198 3å¹´
18 4
æ¯ĶåĪ© æĹ¶
ä¼ļ åĳĺ
åį¡ ç½Ĺ
çłģ å¤´
ä¹ī å¤§åĪ©
é² ¤
æĴ° åĨĻ
å¯¹ æĸ¹
èĻ ¹
å¾Ĺ åĲį
éĢļ ä¿¡
æĭ¿ ä¸ĭ
E R
æł ½
æĸ¯ æĭīå¤«
æī§ æĶ¿
éĢĤ åĲĪ
æĭĨ éĻ¤
å§ Ĭ
æ³ķ çļĦ
æĸ¯ æīĺ
èĴĻ çī¹
è©¹ å§Ĩæĸ¯
I S
åĲ ģ
Ġ ç¾İåĽ½
èµĦ æľ¬
çŁ³ æ²¹
æ´¾ åĩº
å±±ä¸ľ çľģ
å¤§ ä¼Ĺ
èĢ Ĳ
æ³¢ ç½Ĺ
åĨħ æĪĺ
ä¹¦ ç±į
åĬŀ çĲĨ
8 7
åĪĻ ä¸º
æĮĩ ç¤º
198 7å¹´
å»ºç«ĭ äºĨ
åĽ´ ç»ķ
I C
åī Ĭ
å¸Ĥ ä¸Ńå¿ĥ
å¼ı çļĦ
ç¿ Ķ
6 1
A P
ä½Ľ ç½Ĺ
è´µ å·ŀ
ä¹Ł å°±æĺ¯
Ġ æĸ°
è®¤ è¯Ĩ
çķĻ åľ¨
å»ºçŃĳ çī©
åį¢çĵ¦ å°Ķçľģ
æ³ ¡
æĪĲ å¹´
æ³ķ åºŃ
èĢĮ ä¸įæĺ¯
å¤© çĦ¶
åİĺ ç±³
åĩº åħ¥åı£
r ic
çļĦ æ°´
æĺ¯ä¸Ģ åº§
èĸ Ľ
æİĪ æĿĥ
åľĨ å½¢
é¦ĸ çĽ¸
æĶ¹ åĪ¶
ç®¡çĲĨ å±Ģ
Ġ åħ¶ä»ĸ
äº ¥
åł Ĩ
è¾¹ å¢ĥ
æĿĢ å®³
ç»¿ èī²
å¸¸è§ģ çļĦ
ä¸Ģ æŀļ
èĩª æĿĢ
å°Ĩ åľ¨
éĶĢ éĩı
æĶ¶ éĽĨ
ãĥ »
èĢĮæ°´åŁŁéĿ¢ç§¯ä¸º 0
Ã Ĺ
éĹ ¸
200 0
æĦı åĳ³
çĽ Ĩ
æĺİ æĺŁ
åĲĦ èĩª
åĲĦ ç±»
è¾½ å®ģ
8 9
ä»¥ åįĹ
åĪĨ æĶ¯
æĢģ åº¦
æľĢ ä½İ
16 0
å¤§ éĢī
è®° å¿Ĩ
åĿļ æĮģ
ä¸ŃåĽ½ çļĦ
åĲī æŀĹ
åĪĨ è£Ĥ
åĲĮ æĢ§
æł¼ æĭī
çĬ¹å¤ª äºº
Ġ ç¬¬
éķ¿ å®ĺ
å¤« åį¡
æĸ ĭ
èŃ¦ åĳĬ
or t
ä»Ĭ æĹ¥
1 ä¾ĭ
è¾¾ å°Ķ
ä¸ĭè¾ĸ çļĦä¸Ģä¸ª
æĬ ĵ
æ± Ŀ
èģĶåĲĪ ä¼ļ
åĽ½æ°ĳ æĶ¿åºľ
ĠT h
å®¶ ä¸Ń
èĥ º
å¹³ æ°ĳ
æŁ´ æ²¹
6 äºº
æĹ¨ åľ¨
èĪ Ł
ç§ĳ åŃ¦å®¶
è¿ŀ ä»»
æµĻæ±Ł çľģ
n e
çİĩ ä¸º
å¼Ł å¼Ł
çļĦ åĲİ
å¹¶ è¢«
å¿ħ è¦ģ
åĪĨåĪ« æĺ¯
ä¸ ŀ
çŃī çº§
æł ª
åı¯ä»¥ åľ¨
a sĠ
å± Ī
çļĦ äºĭ
ä»¥ ä¸º
å¥¹ ä»¬
æĶ¯ æµģ
åī§ éĽĨ
æĹħ è¡Į
Ġ é¦Ļæ¸¯
æĺ¯ é¦Ļæ¸¯
âĢ Ļ
åħĭ æŀĹ
è¿Ļ é¦ĸ
äº² èĩª
æ¯Ľ æ³½
ç¤ ģ
198 2å¹´
èİ± èĮµ
æ»¨ æµ·
æĬ ±
äº¤ æį¢
æĭ ¨
é»Ħ èī²
éĴ »
è§Ħ èĮĥ
Ġ in
æĸ¯ æ´Ľ
å´ ©
æĪĲç«ĭ çļĦ
Ġ ä»ĸ
Ġ æĪªèĩ³
å¹ ½
æ¶Ī å¤±
å® °
é»ĳ é¾Ļæ±Ł
8 00
çł Ĥ
èĪª å¤©
åįł åľ°
ä¸º æŃ¤
ä¸Ĭ å¸Ĥ
å·¥ç¨ĭ å¸Ī
è¿Ŀ åıį
åĳ¼ åĲģ
å°¤åħ¶ æĺ¯
æĳ§ æ¯ģ
çº§ åĪ«
Ġ 9
æĦŁæŁĵ èĢħ
19 20å¹´
æĦı å¤ĸ
ç§į æ¤į
â Ķ
çĭ ¼
æĶ¶ èĹı
çŃ¾ çº¦
è¿ ¦
åľ¨ 197
å¤ļ å°Ķ
æ¬§ çĽŁ
åı¸ä»¤ éĥ¨
Ġ åī§æĥħ
æºĲ äºİ
éķ¿ åŃĲ
æĺ¯ä¸Ģ éĥ¨
åįĩ ä¸º
æ ª
åŃ¦ çļĦ
èĭ± åĨĽ
åį¡ æĭī
åĲī å°Ķ
Ġ200 7å¹´
5 äºº
å°¼ è¥¿äºļ
éĻ ª
è½¦ åİ¢
è¯¥ æĿĳ
æł¡ åĮº
æ³¢ å°Ķ
m an
èĢĮ ä¸į
å¾· æĭī
en s
å© ´
ä»¥ åĮĹ
æ¸¯ åı£
å¾Ī å¤§
æ¦ Ħ
ä»» æľŁ
å¦ Ļ
å®ī å¨ľ
195 0å¹´
æ¯Ľæ³½ ä¸ľ
åħ¶ å®ŀ
æŃĮ è¯į
èĦ ¸
å¾ª çİ¯
åį ¸
å°Ħ åĩ»
1 Ġ
I D
è¿Ļ éĩĮ
å¾Ĺ åĪ°äºĨ
ç§ĺä¹¦ éķ¿
Ġ æŃ¤å¤ĸ
æĬ «
å¯¹ åħ¶
åı¤ åħ¸
èµ° åĲĳ
çī¹ éĩĮ
äºļ åĨĽ
æİ¥ æĽ¿
æ¼Ķ å¥ı
èĳ£äºĭ éķ¿
çļĦ åĦ¿åŃĲ
J R
ä¼ ½
é©¬ æĸ¯
æĢ§ èĥ½
1 2å¹´
åľº æīĢ
çĭ Ń
ï¼ ħ
é¡º åĪ©
b er
å¤§ å°ı
åĴ ĸ
in e
å®¡ æŁ¥
M ar
åĮº è®®ä¼ļ
éĺ² æŃ¢
çĶŁæ´» ä¹łæĢ§
ç¦ ħ
é¦ĸ åºľ
å¼º åº¦
åĽ ļ
é¦ĸ ä½į
ä¸»ä¹ī èĢħ
çļĦ éĥ¨åĪĨ
å¯ ®
æĪĲ éķ¿
è¢ ĭ
å·ŀ åĪºåı²
ç¥ŀ è¯Ŀ
å¤§ åį«
å« ģ
7 4
ç«ĭ åľº
äºĮ æĪĺ
ä» ķ
éĥ¨ çĶµå½±
ç´¯ è®¡
âĶ Ģ
æĭ ±
å¸Ĥ æĶ¿åºľ
7 äºº
çī¹ æĭī
éĢĶ ä¸Ń
è·Ł éļı
å® Ľ
éĽ į
å¾Ĺ ä¸»
é¢Ĩ äºĭ
åķĨ åĵģ
ou n
åįģ ä¹Ŀ
åŁ¹ è®Ń
æıĲ åıĬ
A N
æķ° ä½į
ä¸¤ èĢħ
(, ;
ç¼© åĨĻ
O N
çĤ ī
åıĹ æ¬¢è¿İ
åĲĦ åĽ½
æł¹ å»·
ä¸» åľº
é¦ĸ æĴŃ
ĠC h
ä½Ĩ ä»ĸ
é¦ĸ å¸Ń
å¸ĥ éĩĮ
æ±Łèĭı çľģ
çļĦ å¥³
æĪĲ äºº
èĤ Į
åģľ éĿł
åĲ ¹
å°¼ å°Ķ
çļĦ éŁ³ä¹Ĳ
çĤ¹ çļĦ
éĿ¢ ä¸´
ä½¿ åħ¶
éĻ· åħ¥
çļĦ ç¬¬äºĮ
éķ¿ æ±Ł
çĶŁæ´»ä¹łæĢ§ ä¸įæĺİ
ä¸º åħ¶
è¾ Ł
å¾· è¯Ń
é¼ İ
å¾· åĨĽ
è¾ ¨
éŁ µ
åĩºçīĪ ç¤¾
2 Ġ
èĢ ķ
æľĪ çĲĥ
å°Ĩ é¢Ĩ
ç¦» åŃĲ
ä¸Ĭ åįĩ
æ£ ĺ
æ´¾ çļĦ
ç½Ĺé©¬ å°¼äºļ
æĥ ¨
ä¸Ģ åľº
ä¸Ģ å°ıæĹ¶
èµ« å°Ķ
åŁ ĭ
éķ¿ è¾¾
è¢« æįķ
èĭ ¯
çĶĺ èĤĥ
o h
çļĦ è§Ĵèī²
çĶ «
åľº æĻ¯
ç °
çļĦä¸Ģ äºĽ
å·´ å°Ķ
æī¿ è¯º
ä¼¼ ä¹İ
çĤ¸ å¼¹
20 19
éģ ¥
éĽ ¾
å¤© ä½ĵ
åħļ åĳĺ
éĽ· æĸ¯
åĲĦ ä¸ª
" .
Ġ èĻ½çĦ¶
é¢Ĩ åľ°
æ¯ı æĹ¥
æĿ¡ ä¾ĭ
æĺ¯ ä¹Įåħĭåħ°
åħ¬ æĸ¤
åīį åĲİ
å¤ĸäº¤ éĥ¨
å¸ Ĳ
æķ° çļĦ
çłĶ åıĳ
èĢĥ è¯ķ
åľ¨ åı°æ¹¾
éħį å¤ĩ
è¾¹ ç¼ĺ
ä»ħ æľī
åĬłåĪ© ç¦ı
éģĵ å¾·
ou r
è¹ Ī
S h
éħ ·
çĪ± æĥħ
ä¼ļè®® åĳĺ
ä¸¤ ä¾§
æ¡ Ĩ
å¸¸ åĬ¡
æĶ¯ ä»ĺ
äººæ°ĳ å¸ģ
èı Ĭ
æ²¿ éĿ©
æĬµ æĬĹ
ä¸Ģ åĪĩ
å¹¶ çĶ±
æĸĩ æĺİ
ç§¯ åĪĨ
1 åı·
Ġ èĥĮæĻ¯
Ġ In
åľ° è´¨
æľ¬ äºº
åįģ æľĪ
åĮħ åĽ´
çĽĳ å¯Ł
åħ¬å¼Ģ èµĽ
c e
çļĦ å¹³åĿĩ
å¤ ¹
å¤ļ äºº
åı¦ä¸Ģ æĸ¹éĿ¢
è¥¿ ä¾§
å¹³ è¡¡
ç¦ı å·ŀ
äºİ19 2
æĢĢ çĸĳ
åĮº åĨħ
äºī åıĸ
ä¸ŃåĽ½å¤§éĻĨ çļĦ
è¾ŀ èģĮ
åľ¨ èĭ±åĽ½
çĶŁ åŃĺ
å¼Ģ å¹ķ
è¨Ģ è®º
èĥ Ĩ
çļĦ ä½įç½®
åı¯ è§ģ
åĿ Ĥ
èĤ ł
éĥ½ åľ¨
ä¼¯ çĪµ
æ¸¸æĪı çļĦ
è ¤
å¼ı æľĪåı°
åĩºçİ° äºĨ
å·¡ æ´ĭ
Ġ ä¸ŃåĽ½
åŃ ķ
æīĭ æľ¯
åºĨ ç¥Ŀ
çĲī çĲĥ
æĪĲ äºĨ
è®¾ äºİ
æĮģ æľī
æī £
å·¥ä½ľ å®¤
æ±¡ æŁĵ
åıĳ æĮ¥
æīĢ éĩĩçĶ¨
èĭ± éĩĮ
å¥ ĭ
éĺ¿ æł¹å»·
æĬ¥ çº¸
æ² ª
æ£Ģ å¯Ł
è ¤Ĳ
æī ģ
åıĳ è¨Ģ
éĺ¿ éĩĮ
åĲ« æľī
çŃĸ çķ¥
åĤ ¬
é¼ĵ åĬ±
17 8
èĥľ åĩº
çŁŃ æļĤ
åľ° åĲį
éļ ĭ
çı Ģ
åħ¶ä¸Ń ä¸Ģ
çº¿ ä¸Ĭ
è¶³ å¤Ł
é¢ĳ çİĩ
é¡ ·
ç«Ļ çļĦ
æıĲ è®®
æİ¨ èįĲ
çĪ± å¾·åįİ
èīºæľ¯ å®¶
Ġ 12
åĲ §
ic e
æ®ĸæ°ĳ åľ°
è¥ Ħ
åĪĻ åľ¨
Ġ æį®
è° Ń
é¢ģ åıĳ
åĩĮ æĻ¨
è¯ ±
ç¬¦ åı·
Ġ w
éĹ ²
åĩº åĶ®
ä¸ľ ä¾§
è¾¾ å·ŀ
åıĺ ä¸º
å¤§ èģĶçĽŁ
åįķ çĭ¬
çĻ» åľº
èĵĿ èī²
æĮ ĸ
åħ¶ä¸Ń çĶ·æĢ§
Ġ åľ°æĸ¹
çº ¤
æĪĲ å°±
ä¸ī æľĪ
éĢı éľ²
åĩ ī
åľº åľ°
åĶĲ æľĿ
åľ¨ 196
æĪĺ å£«
æµ· å¹³éĿ¢
ä¿Ħ åĽ½
ä½įäºİ ä¸ŃåĽ½
éĻĦ å±ŀ
it h
éĢĤ åºĶ
å¢ĥåĨħ åħ±æľī
äºļ çĽ®
è½¦ éĺŁ
çĽ´ å¾Ħ
åĻ¨ çļĦ
åĨĻ ä½ľ
èµŀ åĬ©
)ãĢģ ãĢĬ
å¼Ĺ éĩĮ
è¿½ æº¯
é¢ģ å¥ĸ
åĩŃ åĢŁ
å°Ķ å¤«
éĿĴ å²Ľ
è¥¿ æİ¥
é¢ Ī
åĪ¶ çīĩ
æīĢ å¤ĦçļĦ
æł¼ ä¸º
åı² å¯Ĩ
195 8å¹´
æĽ¿ ä»£
ç¬¬ ä¹Ŀ
èģĶ ç»ľ
æ²³ çļĦ
èº« åĪĨ
çĵ¦ å°Ķ
èĸ ª
æĺ¯ åĽłä¸º
é¹ ħ
äºİ201 6å¹´
9 2
æ° ¨
åħ¬ äº¤
æŃ£ éĿ¢
ä»ĸä»¬ åľ¨
f f
åĽĽ æľĪ
äººåı£ ä¸º
åĢ¾ åĲĳ
8 6
åĲ ŀ
æĿĳ èĲ½
çļĦ å½¢å¼ı
ä¸¤ ä½į
æĻ® é²ģ
èħ Ķ
æ£ ķ
æľª æľī
ä¸Ńåįİäººæ°ĳåħ±åĴĮåĽ½ æĶ¿æ²»äººçī©
çļĦ æĸ¹æ³ķ
æĹł çĹĩçĬ¶
éĽĨ åĲĪ
194 8å¹´
åįļå£« åŃ¦ä½į
çļĦ æĢ»
æĽ °
æ±ī æĹı
æ²³åįĹ çľģ
æ¸¸ åĩ»
è¶³ åįı
å®£ ç§°
æĸ ¥
å¥ ¶
å½ĵ æĹ¥
æŃ£ ç¡®
" ),
9 3
åľ¨ ä»ĸ
åĬ ²
å¿ ĺ
ç§ĳ å°Ķ
åľ¨ æĸ°
å·¡æ´ĭ èĪ°
Ġ æľī
é«ĺ è¾¾
å¤© åĲİ
é¢Ħ ç®Ĺ
åĲ¸ æĶ¶
A r
éķ¿ æ²Ļ
Ġ200 6å¹´
æī© å¼ł
ç«ŀ èµĽ
å½ĵéĢī ä¸º
åĨ ķ
åĽ½ åĨĽ
åı¤ èĢģ
éº Ł
000 äºº
7 3
ç§ĳçļĦ åħ¶ä¸Ńä¸Ģç§į
åĽ Ĭ
æĹ¶ åĢĻ
æ³ķ è¯Ń
è¶³çĲĥ éĺŁ
æµ·æĭĶ ä¸º
æĸĩ èīº
åī§ åľº
æ¯ı å¤©
åŁ¹ åħ»
çĲ ª
åħ¬ åĳĬ
è¥¿ éĩĮ
æĪĳ çļĦ
åĲ »
èĪŀ è¹Ī
éĴ ĵ
å·² çŁ¥
åĨ³ è®®
å¹² éĥ¨
èľ ľ
æľº çļĦ
æ°Ķ åİĭ
ç¢ §
Ġ åľ£
æģ© çľģ
U n
i aĠ
Ġ 0
éĿŀ æ³ķ
è± «
ç¢ ±
éŃ ģ
ä¸¥ æł¼
éģŃ éģĩ
æķĪ åºĶ
å® ´
èĪ¹ åıª
äºĴ çĽ¸
è¿Ļ é¡¹
å®ī ä¸ľ
çĶµ æ°Ķ
æĹł è®º
äº« å¹´
è¶³çĲĥ è¿ĲåĬ¨åĳĺ
éĢĲ æŃ¥
é¸Ł ç±»
åī ª
åĪĽ å§ĭ
åĪ¶ä½ľ çļĦ
æİ ł
åĲĪ æ³ķ
æ¼ ı
å¸Ĥ æĶ¿
åĲĮ æĹ¥
è¶ħ è¶Ĭ
è®¾è®¡ çļĦ
1 5å¹´
åĪĨ åĮº
å§ ľ
ç¾İåĽ½ çļĦ
è§Ĩ è§ī
å¤§ å¸Ī
èĢģ å¸Ī
è¶³çĲĥ ä¿±ä¹Ĳéĥ¨
åģ¶ åĥı
å§ĭå»º äºİ
æĪĲ éĥ½
ç© ·
å¤ĸ éĥ¨
åĬł éĢŁ
å½¢ çĬ¶
åıĳçĶŁ åľ¨
å®¡ åĪ¤
å½ķ å½±
åıĮ æīĵ
å¤§ éĺª
æ£ ī
æļ ¨
é¢Ħ æµĭ
æıı ç»ĺ
æł½ åŁ¹
æĿ¥ è¶Ĭ
çĽ´ éļ¶
Ġ ä¸Ń
åĴ ¨
äºİ201 5å¹´
åĽł åħ¶
194 6å¹´
ä»İ æŃ¤
ç¾¤ ä½ĵ
æķĳ æı´
åħħ æ»¡
åĵĪå°Ķ æ»¨
åĪ ł
æĹ¶ åĮº
çº¦ æľī
éĶ Ĳ
æ¸¸ å®¢
åĪĽ æĸ°
æļ ĸ
ä¸»ä¹ī çļĦ
èĭı ä¸¹
ä»ĸæĽ¾ ä»£è¡¨
è· µ
ä¸ī äºº
æİ¥ ä»»
æº ĥ
æĵ ħ
åģĩ è®¾
å¤ıä»¤ æĹ¶éĹ´
Ġ andĠ
çĲĨ å·¥
æģ Ń
éĤ ª
å¯» æ±Ĥ
éĥ¨ ç½²
æĶ¶ åĪ°
æ¨¡ æĭŁ
è¶Ĭ æĿ¥è¶Ĭ
æĸĹ äºī
æĸ ©
æ¯ ħ
æļĤ åģľ
ç¦ıå»º çľģ
çļĦ ç¾İåĽ½
å½± åĥı
èĮ ħ
åĽĽå·Ŀ çľģ
æĺ¯ ä¸º
âĢĿ )
èģĶ ç½ĳ
ç§° åĳ¼
198 1å¹´
éĺ¿å°Ķ åįĳ
Ġ ä¸ĭ
çļĦ åİŁåĽł
å¸ ½
çĲĨ æĥ³
éħį ç½®
åĬłåħ¥ äºĨ
è¿ģ èĩ³
çļĦ åĲįåŃĹ
å¼Ģå§ĭ åľ¨
ç¨ Ģ
è§Ĵ åº¦
åĽ½éĻħ æľºåľº
197 9å¹´
8 2
ç§ ©
18 3
æĹı ç¾¤
åĽ¾ åĥı
ub e
Ġ æĺ¯
ä»¥ ä¾¿
è¾ĵ åĩº
æīĢåľ¨ åľ°
è¡Į ä¸ļ
å·¥ èīº
æīĭ æ®µ
èª ĵ
æļĤ æĹ¶
åĩ ¶
å» ĸ
å±ł æĿĢ
ä¸ľ æµ·
çĽ´ æĴŃ
ä¼Ĭ åĪ©
ä¾Ŀ èµĸ
äºİ201 4å¹´
èģļ éĽĨ
åĲİ è¢«
åģľ è½¦
æĹłçĹĩçĬ¶ æĦŁæŁĵèĢħ
éĺ¿å°Ķåįĳ æĸ¯
å¸¸ å§Ķ
æĺŁ çŃīä¸º
ä½İ äºİ
I P
æĢ ķ
äºİ19 0
ç»Ħç»ĩ çļĦ
ç¼ ´
ä¸¾åĬŀ çļĦ
ç¹ģ æ®ĸ
è·¯æĺĵ æĸ¯
èĤº çĤİ
åľ¨ ä¸Ģèµ·
æĸ¯ åį¡
åĪ¶ä½ľ äºº
éĹ» åĲį
c om
ç« Ł
æķĻ å®Ĺ
äºĮ æľĪ
èĤ ¤
åħ±åĴĮ åħļ
å¸ ĸ
ç½Ĺ ä¼¯çī¹
on t
åľ¨ åĮĹäº¬
ä¸Ń æľĢ
åĲĮæĹ¶ è¯¥åľ°
9 6
ãĢĭ ãĢĬ
ä¾ £
åĪ¶ æĪĲ
å·¨ å¤§
åħĭ å°Ķ
ç»´ å¤ļ
èĲ½ æĪĲ
éŀ ĭ
8 äºº
çļĦ è¯Ŀ
äºİ201 2å¹´
5 ä¸ª
5 ç±³
åŃ¦ ç§ĳ
å®¤ åĨħ
æıĲåĩº äºĨ
åĨħéĻĨ çľģä»½
æ¼ ł
çº¢ åĨĽ
äºİ201 8å¹´
p h
ä¿Ŀ éĻ©
äºĶ åįģ
èĴ ²
çĶ° å¾Ħ
çļĦ æĥħ
ä¼ļ æľī
æľª çŁ¥
å¯Ĩ åĪĩ
è´¹ çĶ¨
å° ¿
è®¤ åı¯
æ¶Ī éĺ²
èĩ³ 2
å¤© åłĤ
éĺ² ç©º
è¾ħ åĬ©
Ġ ä¸º
è½ ©
ä¸» äºĭ
èĭ± åĳİ
äº¤ ç»Ļ
äºĶ ä¸ª
çłĶç©¶ éĻ¢
è§Ĥ çľĭ
v er
éĤ ±
æīĵ çł´
æ¡¥ æ¢ģ
197 8å¹´
| |
ä¸Ģ èģĮ
ç½Ĺ å¾·
ç¨ £
è®¤ è¯ģ
èĩª æĪĳ
è·¯ æ®µ
çĭ¬ç«ĭ çļĦ
åĨĴ éĻ©
éĥ¨ éĥ¨éķ¿
çĲĨ çĶ±
å§Ķ æīĺ
åķĨ åºĹ
çĶ» å®¶
æľĢé«ĺ çļĦ
å« ©
ä¼ļ è¯ķ
çī¹ åĮº
äºİ201 7å¹´
æ£Ĵ çĲĥ
âĢ ĺ
æĪĺ éĺŁ
èĢ¶ ç¨£
å¡ŀå°Ķ ç»´äºļ
å¥ ł
äºº æĿĥ
å·´ æĭī
éĩı åŃĲ
åī¯ ä¹¦è®°
èģļ èĲ½
a h
å¤© æ°Ķ
èµĦ åĬ©
èĬĤ åº¦
ç¬¬ 4
æ¼Ķ åĮĸ
æĶ¹ è¿Ľ
å¼Ĺ éĽ·
åıĳè¡Į çļĦ
Ġ ç®Ģä»ĭ
ä»¥ ä¸ĬçļĦ
æĶ¹ ç§°
è¯Ħ ä¸º
é£Ł çĶ¨
æĴ¤ éĢĢ
å¤©æĸĩ åı°
A S
æľ¬ ä½ľ
åĬł åĵ¥
æī© å»º
l y
å½± è§Ĩ
æł Ĺ
åħ¶ä¸Ń ä¸Ģä¸ª
çļĨ ä¸º
çĽ¸åĲĮ çļĦ
èĬĿ åĬłåĵ¥
ç© ´
éĢļ çŁ¥
åİŁ åħĪ
é©¬ ä¸ģ
çĤ ¼
åº§ æłĩä¸º
æ´Ľ åħĭ
çĻ¾ ä¸ĩ
ic h
è´§ è¿Ĳ
è½°çĤ¸ æľº
ĠæĽ¾ ç¥ĸ
ä»¥ æŃ¤
ä¸į æķĮ
ä½įäºİ è¯¥
Ġåľ°æĸ¹ èµĦæĸĻ
çļĦ æĹ¥
äººæ°ĳ ä»£è¡¨å¤§ä¼ļ
æ¤ İ
äºİ201 3å¹´
å¤§ å¤«
èĭ ¹
å±ķ çİ°
çļĦ æĿĳåºĦ
çº³ åħ¥
è®¸ åı¯
ç» ¥
çľ ł
çī¹ æľĹ
æĸ¹éĿ¢ çļĦ
è´§ çī©
çİĭ åŃĲ
åıª è¦ģ
é¸ Ń
ä¸º æĸ°
æĹ¶ æĬ¥
ä¸ĭ ä¸Ģ
è¿Ļ åº§
ä¼Ĺ è®®éĻ¢
èħ ¿
æ¶µ çĽĸ
i o
Ġ äº¤éĢļ
æĪĺæĸĹ æľº
æł¼ å°Ķ
éľ ŀ
çº¦ çĳŁ
åį³ å°Ĩ
ç¬¬ä¸Ģ ä½į
åħ« æľĪ
æĥ³ è¦ģ
äºİ 2019å¹´
æŃ» åĪĳ
è´¢ äº§
un d
éª ļ
åģļ åĩº
c n
å· ·
æľī è®¸å¤ļ
ä¸į è¦ģ
ä¸ĥ æľĪ
åıĽ ä¹±
ä¸Ĭ éĺµ
æľ¬ çº¿
åĨħ èĴĻåı¤
ç§° åı·
ç«ŀ æĬĢ
u g
194 1å¹´
è½¯ ä½ĵ
ä¸ ¸
äºİ 2020å¹´
æĸ¹ ä¾¿
å¨ ħ
èħ º
å¤ļ åĲį
æľį è£ħ
åĲĮæĹ¶ ä¹Ł
éģŃ åıĹ
9 7
è¿Ľ åħļ
ä¹¦ ä¸Ń
åįķ åħĥ
èħ ĵ
åĮº éĹ´
, ),
æ¶ Ľ
æŁ¥ çĲĨ
å·¦ ç¿¼
å¤§ä½¿ é¦Ĩ
éĩį éĩı
åĽŀ å¿Ĩ
çļĦ æĶ¿æ²»
æĭī çī¹
èį ¡
oc k
ä¸ľ äºļ
è° Ĭ
éĩĳ å±±
è£ģ åĪ¤
åĮº åĪĨ
èµ· åĪĿ
å¨ ¶
çĽ´ åįĩ
ç¤¾ ç¾¤
åĮĹæµ· éģĵ
a i
e y
è°ĥ å¿«
194 4å¹´
r y
æ²³ è°·
è¿Ľè¡Į çļĦ
åĨĻ éģĵ
æ¶ī å«Į
9 äºº
ä¹ĭ ä¸º
èĲ¥ ä¸ļ
åį« éĺŁ
é±¼ éĽ·
åĪĨå¸ĥ åľ¨
è® ¼
è¯¥ çīĩ
éĺ³ å¸Ĥ
ä¼łç»Ł çļĦ
æķĮ äºº
æŃ¤ ç«Ļ
ç©º è¢Ń
åįı å®ļ
16 2
ä¸º UTC
ç§į ç±»
è¾Ĳ å°Ħ
æĺ¯ åı°æ¹¾
ä»¥ ä¸ľ
çī¹ å°Ķ
éĵ ĥ
åł ¤
å¾ģ æľį
èŀį åĲĪ
çļĦ ä¸į
æ³ķ ä»¤
ä½Ĩ åĽł
æł¼ éĽ·
éĿĴ å°ĳå¹´
åĺī ä¹ī
æ¯ Ĺ
æĬ Ħ
æİ ©
åıĤ æķ°
è¿ŀ è½½
åĻ ¶
c eĠ
åıĤ è®®éĻ¢
æ¯ı åĳ¨
æĪĺ æľ¯
è½¬ çļĦ
éĩį è§Ĩ
) :
è¥¿ æĸ¯
åı¯ åľ¨
é¢Ĩ åħĪ
ç»Ī çĤ¹
ç£ ·
è§ī å¾Ĺ
Ġ200 5å¹´
æ³ķåħ° åħĭ
èĪ Į
å¦Ĥ ä»Ĭ
æħ °
è°ĥå¿« ä¸Ģå°ıæĹ¶
ç Ģ
éĥ ģ
17 7
å§Ķåĳĺä¼ļ å§Ķåĳĺ
æ¿ Ĵ
ä¾į éĥİ
èĩ Ĥ
æĪĲ çĨŁ
å¸ĥ æľĹ
ç¤¾ äº¤
åį³ UTC
è®¾æľī å¤ıä»¤æĹ¶éĹ´
çļĦæĹ¶åĮºä¸º UTC
èĢĮè¯¥åľ° æīĢéĩĩçĶ¨
åĲĮæĹ¶è¯¥åľ° è®¾æľīå¤ıä»¤æĹ¶éĹ´
èĢĮè¯¥åľ°æīĢéĩĩçĶ¨ çļĦæĹ¶åĮºä¸ºUTC
æ¼Ķ è®²
åį¡ æĸ¯
åįķ ä¸Ģ
è¿Ļ åľº
éķĩ åĮºçļĦ
äº¤ æ±ĩ
æ»¡ æ´²
å»¶ ç»Ń
8 4
ä»£ çļĦ
éĢļ å¾Ģ
çĥ ¯
es s
çĪµ å£«
å·¥ ä¼ļ
åŁİ çļĦ
ä»İ æľª
åŀĭ åı·
M V
Ġ åħ¶
è´ ·
æĦŁ è§ī
197 2å¹´
ç²ī ä¸Ŀ
é«ĺäºİ æµ·å¹³éĿ¢
1 10
æĢ» çĽĳ
æį· åħĭ
è¯¥ åħ¬åı¸
7 æľĪ1æĹ¥
æĮ ¡
ä½Ļ äºº
æİĴè¡Į æ¦ľ
çļĦ æľĢ
ä¼ļ è¢«
åİ¿ çŁ¥åİ¿
çĽ¸å½ĵ äºİ
æīĢå¤ĦçļĦ æµ·æĭĶä¸º
æīĢå¤ĦçļĦæµ·æĭĶä¸º é«ĺäºİæµ·å¹³éĿ¢
ä¸Ģ ç³»åĪĹ
ä¹ĭ å¤Ħ
éĥ½ è¢«
æŃ£ æľĪ
è¡¥ åħħ
åº ¶
æľī èĳĹ
çİ ²
åŃĲ å¥³
Ġ19 0
æķĻèĤ² éĥ¨
Ġ f
éª Ĺ
ä¼¤ äº¡
å®īå¾½ çľģ
G o
å¸ Ĩ
ä¸» å¯¼
æĸ° åĨł
å¤§ éĿ©åĳ½
èģ ª
æĦ ¤
ä¿Ŀ è¯ģ
æĻ® ç½Ĺ
åıĤä¸İ äºĨ
æĹłäºº æľº
å¼ ĵ
åľ° å½¢
çİ° åŃĺ
åķĨ äºº
o x
Ġ åı°æ¹¾
æ°¸ ä¹ħ
7 00
æĪĺ åľº
åĲĪ åĲĮ
æł¼ éĩĮ
é² ¸
ä½¿çĶ¨ äºĨ
æĹ© ä¸Ĭ
197 6å¹´
è¯¦ ç»Ĩ
ç»´å¤ļ åĪ©äºļ
a w
èį Ĩ
äºİ201 0å¹´
èĦ± ç¦»
ç»ĺ çĶ»
æµ· ä¸Ĭ
åħ· å¤ĩ
å¾Ī å°ĳ
äºĴ åĬ¨
çİ°åľ¨ çļĦ
å·ŀ éķ¿
å°¼ åı¤
å²Ľ ä¸Ĭ
çĵ ¶
å¡Ķ å°Ķ
çĻ» è®°
195 6å¹´
8 1
éĿ¢ ä½ĵ
æ¡ Į
ä¼ł æķĻ
åį³ åĮĹç¾İ
æĮĩæĮ¥ å®ĺ
æĺ¯ ä¿Ħç½Ĺæĸ¯
äºİ 2021å¹´
ç¥ ¯
è·¯ åı£
å²Ľ çļĦ
äº¬ éĥ½
è¯º å¤«
æ¾ Ħ
æ© Ħ
S p
éħ ®
èİ· èĥľ
åºı åĪĹ
èĤ¡ä»½ æľīéĻĲåħ¬åı¸
åľ° äºļ
åįģ ä¸ĥ
éĽĨ ä½ĵ
9 4
I T
æ¸ ł
æ²³ éģĵ
æİ¢ éĻ©
éķĩåĮºçļĦ éĿ¢ç§¯ä¸º
äº ©
æĽ´ å¤ļçļĦ
åį³ ä½į
. âĢľ
ä½ľ ä¸ļ
æĸ½ å·¥
14 0
çļĦ åıį
åº ĩ
ä»¥ è¥¿
åĲİ åľ¨
åĪĨ ä¹ĭä¸Ģ
æµģ ä¼ł
ç¿Į å¹´
äºĨ ä»ĸ
æĢ» è£ģ
éĢī åĩº
åĪĩ å°Ķ
ec tion
èļ Ģ
ä¼Ĭæĸ¯åħ° æķĻ
çļĦ ç¥ŀ
ä¼ ŀ
å§ ¿
èĩª ç§°
åĽĽ ä¸ĸ
è¾ĸ åĮº
193 7å¹´
æķĪåĬĽ äºİ
å§ ĳ
å¤ļ æł·
å¾· æĦıå¿Ĺ
éĤ ĳ
å¤Ħ éķ¿
. (
15 8
åįĹæŀģ æ´²
æ Ĩ
åĽ½ éģĵ
åħ¬ é¡·
16 4
M A
çļĦ è¡Įä¸º
ä¸» åĬ¨
èĬ Ń
æ©Ħ æ¦Ħ
6 ä¸ª
ç» ĳ
è¡Į äºº
èĩ´ åĬĽ
çģŃ ç»Ŀ
ä½Ľç½Ĺ éĩĮ
çļĦ æŃĮæĽ²
çļĦ åŁºç¡Ģ
ç»´ åŁº
æĿŃ å·ŀ
Ġ æĹ¥æľ¬
ä» Ĩ
åº ļ
æ³ Ħ
åĨħ åľ°
æ» ķ
éŃĶ æ³ķ
k m
ä»ĸ ä¸º
äºĮ çº§
æ¤ ħ
äºĴ èģĶç½ĳ
åľ¨ ä½į
ä¹Ł æ²¡æľī
æĶ¹ å»º
8 3
å®¹ çº³
ä¸»æĮģ äºº
æľĢ ä¸º
ç»ı çĶ±
å·´ åĭĴ
195 2å¹´
ä¸ľåįĹ äºļ
æ±ī åŃĹ
ec t
ç¥ Ī
éĢļ çĶ¨
çĽ¸ åıį
çıŃ æ¬¡
i e
çĪ ·
å°ĳ å°Ĩ
åĩº åľº
æĶ¿ åıĺ
æ°Ķ ä½ĵ
193 8å¹´
éĥ¨ å°ļä¹¦
è¢« åĳĬ
æ²¿ å²¸
ig n
ä¸İ æŃ¤
194 7å¹´
çĸ« èĭĹ
i b
å±± è¥¿çľģ
åħŃ æľĪ
ç¾¤ ä¼Ĺ
p er
Ġ çĶ±
åŃ¦ ç³»
ç½ ©
åķĨ åľº
15 7
çļĦ éĿ¢ç§¯
çļĦ æīĢæľī
æĺ¯ ä¸ª
ä»¥ 1
ãĢĭ ãĢģ
åĬł å°Ķ
åį« è§Ĩ
æ¡£ æ¡Ī
çļĦ ç»ĵæŀľ
æ¼Ķ èīº
195 5å¹´
èĭ¹ æŀľ
1 4å¹´
o ok
å¹¶ æĹł
æ¸¯ åħĥ
åķ ¡
åĬ £
æĭħ å¿ĥ
æĶ» åįł
P ro
çº§ èģĶèµĽ
æħ İ
Ġ ä¸ªäºº
å®ŀ ä½ĵ
ãĢĭ( "
éĢ ¸
å¸ĥ éĽ·
è¿ŀ ç»ĵ
äºİ201 1å¹´
r am
s on
å±± åİ¿
æĥ §
æ¸ħ æ¥ļ
é¹ ı
æİ¢ ç´¢
çļĦ çĶµ
éķĩ åİĭ
æĻ®é²ģ å£«
ð «
éķ ĳ
éķ¿ çº¦
198 0å¹´ä»£
æł¸ éħ¸
æŀ¶ æŀĦ
è´ ª
çŁ ®
çĥ ·
å¼ķ çĶ¨
åĢ¼ å¾Ĺ
åĪ¤ åĨ³
ç¬¬ 5
æ°ĳ è¿Ľåħļ
åįķ æīĵ
æĺ¯ä¸Ģä¸ª ä½įäºİ
èľ Ĥ
H D
16 3
é³ ŀ
ä¸Ń å°Ĩ
çİ° ä¸º
e ar
ç»´ åħĭ
P S
æī ĳ
åĲį äºº
åĨĽ äºº
æľŁ çļĦ
æĢ» ä¼ļ
å¥³ çİĭ
æĶ¾ åľ¨
æ¨ ±
çļĦä¸Ģ æĿ¡
ç¦ı å¾·
è¡ĮæĶ¿ éĻ¢
æĪĲç«ĭ äºĨ
éĴ¢ çĲ´
.. .
Ġ ä¸»è¦ģ
è´ ¼
åħ± è®¡
æł¼ æŀĹ
äºİ 2022å¹´
å¹³ çŃī
è° ´
çº³ å·ŀ
è¸ ı
å½» åºķ
åĮĹ ä¾§
åĪ© çļĦ
å¤© çļĦ
å®ŀ è·µ
ä¿Ħ åĨĽ
å»ºçŃĳ å¸Ī
åı²å¯Ĩ æĸ¯
éĢ ¾
åİŁ ä¸º
æĺŁ ç³»
ä¿® éģĵ
ä¹¡ éķĩ
æıĲåĩº çļĦ
o y
éĩį è¿Ķ
ä¿® è®¢
å±Ĥ çļĦ
196 8å¹´
å¤« å¦ĩ
ä¹Ŀ æľĪ
æ²³åĮĹ çľģ
u st
Ġ n
Ġ å¯¹
ä¸» åĬĽ
åĪĨ æł¡
ä¸ĭ äºĨ
æ±Ł æĪ·
å¸Į å°Ķ
åĬ³ å·¥
2 åı·
åĵ ª
è¿ª å£«
çļĦ åŁİå¸Ĥ
åħ¶ ä¸º
çŃ Ĵ
æĸ° å»º
æ¡ĥ åĽŃ
You T
Ġ è¥¿
åľ° ä¸Ń
è¡Į èµ°
æµ· åįĹ
è¯¥ åħļ
ç»´ ä¿®
çª Ħ
èµ Ķ
åįĹ ä¾§
æł¼ é²ģ
åĪĹ åĩº
193 9å¹´
çĶ» éĿ¢
æķ´ åĲĪ
éĻ¨ çŁ³
Ġ é©¬
å¤´ è¡Ķ
äºĭå®ŀ ä¸Ĭ
æķ ²
èĤ ¢
å¼ķ è¿Ľ
Ġ çĽ®åīį
Ġ å®¶åºŃ
åıĹ å®³
å½ķ åĪ¶
å¥½ è¯Ħ
194 0å¹´
çº ł
æĬ Ľ
å½ĵ ä»£
èĹ »
ä¼¤ å®³
çĲĨ æŁ¥
å§Ķ ä»»
è¯ģ åĪ¸
1 1å¹´
è¿ªå£« å°¼
/ &
ä¸Ģ éĥ¨
è¾ĥ ä½İ
ä»į åľ¨
åĲ Ĭ
è° ¥
å¤© ä¸ĭ
195 4å¹´
196 0å¹´
çļĦ è¯´æ³ķ
åĨ Ģ
äºİ 2023å¹´
æŃ¤ åīį
èµ· è¯ī
è®® å¸Ń
194 2å¹´
èĩªè¡Į è½¦
1 3å¹´
åĿ Ł
ä¼Ĭ æĭīåħĭ
çĽŁ åĨĽ
åĩ ¸
åĮº åĪ«
ä¸» æĿĥ
éģ ®
ä½¿çĶ¨ èĢħ
çĻ¾ å¹´
åįł æį®
ä¸Ĭ äºĨ
æĥ ©
å®ĺ èĩ³
åĶ¯ä¸Ģ çļĦ
o st
åľ¨ åĮĹ
äº§çĶŁ äºĨ
t oĠ
Ġ éĻ¤äºĨ
å¤ļ é¡¹
ä»» æķĻ
å»º äºİ
çļĦ æĹ¥æľ¬
ä¹Ł æĽ¾
çĽ® çļĦæĺ¯
åĸ ĩ
åİĨåı² åŃ¦å®¶
åĲİ æĸ¹
æĴŀ åĩ»
a ch
ä¸Ģ é¡¹
å°ģ ä¸º
è¯Ĺ äºº
æŃ ī
è¯º æĽ¼
æĥ³ æ³ķ
æľĽ è¿ľ
1 7å¹´
Ġ åīį
Ġ æĿİ
Ġ çĦ¶èĢĮ
Ġ æķħäºĭ
æĪĺ åĪĹ
è®¤ åĲĮ
èĥĮ é³į
ç¬¬ä¸Ģæ¬¡ ä¸ĸçķĮå¤§æĪĺ
çĩĥ æĸĻ
è¢« ä»»åĳ½ä¸º
æĹłçº¿ çĶµè§Ĩ
i z
çĶ ľ
èµ £
åĪ° çļĦ
æŃ¦ å¸Ŀ
194 3å¹´
æľ µ
æĶ» æīĵ
197 5å¹´
Ġ èĢĮ
å± ¥
åĲĮ åĲį
åĪĻ æľī
æłĩ è®°
çĶ· å¥³
å®ĮæĪĲ äºĨ
æ¬¡ äºİ
æĥħ ç»ª
é£Ł æĢ§
197 0å¹´
æĲº å¸¦
åħ¬ åĬ¡
é¢ ł
èĭı ç»´åŁĥ
è®® é¢ĺ
æĤ ł
äºİ200 9å¹´
ç» µ
æĹ¥ åĲİ
åŁİ å¢Ļ
äº¤ çķĮ
èĽĭçĻ½ è´¨
åİ ¥
ä¸Ĭ è¯ī
æĸ¯ åł¡
äº¤ åıī
æ¨¡ çī¹
å¡ŀ çº³
è°´ è´£
åľ¨ æ³ķåĽ½
æ¸ Ĭ
éĻ¤ æŃ¤
åį° ç¬¬
æĦ¿ æĦı
S S
èµĽ çļĦ
å®ļ æľŁ
èĬ Ļ
æ¢ ¨
è¿ĺ åľ¨
ç»ıæµİ åŃ¦
å¢ŀåĬł äºĨ
er n
åħĪ è¿Ľ
15 6
15 9
æ¹ĸ æ³Ĭ
ä¸ĭè¾ĸ ä»¥ä¸ĭ
çŁĽ çĽ¾
åį §
çī© åĵģ
è¯¥ æł¡
çī¹æľĹ æĻ®
æĺ¯ ä¸Ńåįİäººæ°ĳåħ±åĴĮåĽ½
éĤ µ
éĵģè·¯ è½¦ç«Ļ
æĻº æħ§
å²© çŁ³
ç½Ĺ å¤«
åĽ¢ ç»ĵ
åºĶ å¯¹
éĺ³ åİ¿
è°ĭ æĿĢ
ä¸ŃåĽ½ åĽ½æ°ĳåħļ
12æľĪ 31æĹ¥
ä¼Ļ ä¼´
çĽ´åįĩ æľº
å¼Ģ å·¥
åĿ ł
çĤ Ń
eĠ C
è¿ĳ ä»£
åī ¥
ä»£ æĽ¿
è¿ĩ çļĦ
éģĵ åħī
æ²Ļ çĶ°
æľĢæĹ© çļĦ
çĶŁéķ¿ äºİ
äºº æ¬¡
æĶ¶ è´¹
ç«ĭæ³ķ ä¼ļ
Ġ ä½¿çĶ¨
æĶ¹åĪ¶ ä¸º
éĥ½ çĿ£
æıĲ äº¤
å¸¸ å¸¸
æ¸ħ ä»£
éĢīä¸¾ ä¸Ń
å¦¹ å¦¹
æľĽè¿ľ éķľ
g e
å¤§ éĺŁ
çº¿ æĢ§
ä»į æľī
ä¸º 0
å¥ ¸
éĩĮ åħĭ
çĲĨ å¿µ
çķ ħ
æĽ´ æį¢
a u
a z
æĤ ¦
åıĳçĶŁ äºĨ
èı² åĪ©
å·¨ å¤§çļĦ
å¼Ģ åĬŀ
çľģ çļĦ
çº³ å¾·
æĹ¥æľ¬ çļĦ
ä¸ĵ çĶ¨
åĵĪ åĪ©
ä¹ĭåĲİ çļĦ
éļ¾ æ°ĳ
é¢ģ å¸ĥ
æŀ¢ çº½
éĢ» è¾ĳ
åį°ç¬¬ å®ī
æĮĩ æķ°
æĹ¶ä»£ çļĦ
ä¸ª ä½ĵ
æĶ¹ åĲį
æ´Ľ æĸ¯
éĻį éĽ¨
i al
æĹ ±
ä»¥ 2
æ±Ł åįĹ
æĺ¯ ä¸ºäºĨ
ä¸» ç®¡
åĽĽ å¤§
S M
çļĦ åľ°åĮº
æĶ¿ åĬ¡
å¯¹ éĺµ
æīĢ éľĢ
çĪ± åĽ½
èµĽ ä¸Ń
åħ¨ ä½ĵ
è¯Ń éŁ³
èģĮ åĳĺ
å¼º åĪ¶
æ© ¡
åĲį è¯į
V D
è¡Į é©¶
æİĴ åĪĹ
æµİ åįĹ
(; ),
èĤ ©
è½¬ ä¸º
åįı åķĨ
ä¹ł æĥ¯
å´ ĸ
åıĤè°ĭ éķ¿
ä¸º åŁºç¡Ģ
å¯¹ ç§°
çİ° æľī
è° ģ
å¤ĸ è§Ĥ
éĢī ç§Ģ
196 4å¹´
è¿· ä½ł
å° ĺ
ä¸Ń åıĳçİ°
æĹ¥ å¸¸
ä¸ī åĽ½
æĥ ľ
æł¼ åĭĴ
ä¹¦ åĨĻ
ç½Ĺé©¬ å¸ĿåĽ½
åĪĳ äºĭ
èĸ ĩ
ä¸įå¾Ĺ ä¸į
åĲĪ åĶ±
æĢ§ åĴĮ
æİ¥ èĳĹ
æł¹ æľ¬
å¤´ éĥ¨
å¥ĸ éĩĳ
åį° åĪ·
è¥¿çıŃçīĻ è¯Ń
åĴ¨ è¯¢
1 6å¹´
a la
ç«ĭ éĻ¶
çī ²
ãĢĮ ãĢį
æģ ¨
; /
äºĨ ä»ĸçļĦ
èµĽ è½¦
æ¢ µ
è½¬ ä¼ļ
å¡Ķ å°¼
èĬĤåº¦ ä½¿
å¯¹ è¯Ŀ
è° į
èħ °
ä½į çļĦ
ä¸¤ å²¸
çĪ ª
åĽ¾ æ¡Ī
ä¼Ĳ åĪ©äºļ
1 30
m er
è° Ĳ
or d
åĩĨ ç¡®
åĨł çĬ¶
è®© ä»ĸ
åĵ Ģ
èĩª æŃ¤
æŃ¤ äºĭ
é¦ĸ åº¦
é¢ĺ æĿĲ
ä½ı æĪ¿
çĽ Ī
çĶ¨ ä»¥
ç«Ļ æĪ¿
ç»¼ èīº
åľ¨ è¥¿
æĢ ¡
è§Ĥ åħī
çģ« è½¦
çļĦ åĨħå®¹
ä»ĸ è®¤ä¸º
é«ĺ åİŁ
å¼¹ èį¯
æĻº èĥ½
éķľ å¤´
çĥŃå¸¦ é£İæļ´
åŃŁ åĬłæĭī
æ¹ĸåįĹ çľģ
éĵ İ
èĻ ı
ar k
æĪĲç«ĭ åĲİ
æİ¢ æµĭ
å½ķå½± å¸¦
èĩ Ģ
äºĨ è®¸å¤ļ
ä¸Ĭ å¸Ŀ
åĬ¨ è½¦
è° ¦
èī² å½©
äºİ200 8å¹´
é©¬åħĭ æĢĿ
ä¸Ģ å¤©
çĽ¸ åºĶ
é¾Ļ çļĦ
äºº ä¸º
ç« £
ä½ĵ åĪ¶
ç»´ ä¹Ł
ç»§ ä»»
åıĭ å¥½
ç«ĭéĻ¶ å®Ľ
æĪĲ æŀľ
ä½ĵ éªĮ
çĿ Ľ
çĻ¾ ç§ĳ
è¡į çĶŁ
å¼ Ħ
ç§ĳ ä¼ļè¯ķ
17 0
åĨľ åľº
è¯Ĩ åĪ«
çºªå½ķ çīĩ
æĳĩ æ»ļ
çĳ ľ
åįĩ æł¼ä¸º
ç¢ °
193 6å¹´
æİĮ æı¡
åĴĸ åķ¡
ä¸» æīĵ
åİŁ æĿ¥
æĽ¾ æĺ¯
æ· ĳ
æ±ī è¯Ń
åĲĮæĹ¶ ä¹Łæĺ¯
éĿĴ æĺ¥
æŃ¥ æŀª
çŃ¹ å¤ĩ
Ġ å¤©
æ² ¼
åīį è¿Ľ
èĤ Ŀ
çŁ¥ åºľ
æĻ¯ è§Ĥ
çº¦çĳŁ å¤«
Ġ 11
æĺ¯ ä¸į
ç¼ Ŀ
Ġ ç¬¬ä¸Ģ
æľ Ń
åľ¨ éĤ£éĩĮ
è¿Ļ ç±»
ç±³ åħ°
åĪ¤ å¤Ħ
èļ ģ
æ¹ĸåĮĹ çľģ
å¤ ¸
çļĦ åľ£
èĪ Ĩ
202 6å¹´
ç¼ĸåı· ä¸º
Ġæ¦Ĥ è¦ģ
åľ° äº§
è´ ¬
åħ¨ çº¿
çłĶç©¶ çĶŁ
åĲ¦ è®¤
s e
åľ° ä¸Ĭ
ä¸» æµģ
åĬł åĪ©äºļ
é©±éĢĲ èĪ°
(,; )
çī¹ åħ°
åĨħ æĶ¿
è¯¥ å¸Ĥ
æİ¥ ç®¡
18 2
å®¹ éĩı
èĪª çıŃ
åįĬ å¹´
åĵ¥ åĵ¥
196 6å¹´
åĽ½éĺ² éĥ¨
çŁ© éĺµ
, )
çľģ éģĵ
åħĥ æľĿ
èĿ ł
å¥¥æĸ¯ åį¡
æľ¬ å±Ĭ
çĽ¸ ç»§
åħµ åĽ¢
æ³° åĭĴ
é¢Ħ å¤ĩ
ç®Ĺ æ³ķ
P C
å® ł
å¼Ģ åĲ¯
æĪĺ èĥľ
æĳ Ķ
7 1
c t
ä¸º ä¸ŃåĽ½
æµ Ĩ
è¢« åıĳçİ°
ç¥ Ĳ
æĶ¹ è£ħ
Ġ ç¬¬äºĮ
å±ħä½ı åľ¨
éĻķ è¥¿çľģ
Ġ å°½ç®¡
ä¹ĭ éĻħ
çģ« çģ¾
æĪ¿ éĹ´
2 50
åĲį è¿Ľå£«
çī© ä½ĵ
çļĦ æ¦Ĥå¿µ
ä¸Ģ äºº
ä¸Ģ æĶ¯
e f
à ¸
æ¼ Ĩ
æİ¨ ç¿»
å¿Ĺ æĦ¿
çĻ¾ å§ĵ
æĺ¯ ä»İ
æĪĲ åĪĨ
é¢ ĸ
èĭ± éķĳ
åĽŀ åĽ½
å®¢ æĪ·
æĹ§ åĿĢ
äºİ200 7å¹´
çļĦ ä¸ŃåĽ½
çĮ ľ
åŀĤ çĽ´
åįĹ æµ·
åĽł åºĶ
åĭ ĺ
æ²³æµģ åŁŁ
Ġ åı¦å¤ĸ
åħ Ķ
æĸ° åĮĹ
æĸ° ç«¹
çĶµ æ±ł
åħ¥ åĽ´
å·´ ä¼ĲåĪ©äºļ
æł¡ èĪį
åģļ æ³ķ
ä¼ģ åĽ¾
ç¥Ń ç¥Ģ
äºİ æŃ¤
å¿ Į
éĿ¢ åĲĳ
éĢī æ°ĳ
äºİ åĲĮå¹´
æľ¬ ç§ĳ
è· Į
ç§° ä¹ĭä¸º
ä¿Ŀ å®ī
P lay
éĩį å¤į
è¾ĥ å¤§
ä¹Į æĸ¯
è´Łè´£ äºº
195 9å¹´
èĽ Ľ
è¿ģ ç§»
éĢłæĪĲ çļĦ
ä¼Ĳ åħĭ
çļĦ åŃ¦çĶŁ
è¾ Ī
åıĺ æį¢
Ġ200 4å¹´
ç§© åºı
E T
Ġ æ¸¸æĪı
åĲĮ æŃ¥
at h
ç¬¬åįģ ä¸ī
è¿« ä½¿
éĺħ è¯»
çļĦ éķ¿
æ° ®
ä¸ī ç§į
æĹ© åľ¨
å°º å¯¸
ä¸ºè¾Ĳé³įé±¼çº² é²
å¤§ è¡Ĺ
çī¹ æĢ§
ä¸Ń é¥°æ¼Ķ
åĲį ä¸¾äºº
å±± çļĦ
å¤§éĩı çļĦ
(; )
E C
c l
çī© çļĦ
èı² å°Ķå¾·
ä»ĸ åĴĮ
åıĳ æİĺ
èĢĮ æĿ¥
å±± å¸Ĥ
åĵĪ éĩĮ
ä½ı åľ¨
éĥİ ä¸Ń
han t
åİ¦ éĹ¨
åĮĸ ä¸º
ç¼ĸ ç»Ħ
åİ ī
åħ¬ ä¼ļ
ä»ĸ å¯¹
åĿ ŀ
æŁ¥ å°Ķæĸ¯
æħķ å°¼
ä½ ĳ
åĮ ł
å¸ĥ åħ°
å¹² çº¿
éģĹ ä¼ł
é©± åĬ¨
èµ¢å¾Ĺ äºĨ
äºİ 2024å¹´
èĤ ĩ
æĽ´ æĺ¯
çľ¼ çĿĽ
çĺ ¤
æĬĳ åĪ¶
çļĦ éĺ¿
å¤§ åħ¬
ä¸» ä½ĵ
å·´ èµ«
åĵģ è´¨
çĹħ éĢĿ
æĪĺäºī æľŁéĹ´
æŃ§ è§Ĩ
" (
d eĠ
Ġ h
ä¸º æľŁ
å¤§ å®¶
çī¹ çĤ¹
æ¡ Ĳ
æıĲ åīį
æµģ éĩı
èľ Ģ
E n
s ection
æµ ¸
æĮ º
åįĹ æĸ¯æĭīå¤«
ä¸¤ æĿ¡
èŃ¦ æĬ¥
äºĭåĬ¡ æīĢ
ä¸ľäº¬ éĥ½
åİŁ çĲĨ
åķĨ åĬ¡
ç©¿ è¿ĩ
èµ Į
ä»» åĨħ
é© ¹
åĩĨ åĨ³èµĽ
åı¤ å·´
æĹ¥ è¯Ń
ä¹Ł åı¯
å®ŀ åĬĽ
çķĮ çļĦ
èº« ä¸Ĭ
æĥħ èĬĤ
åİ¿çļĦä¸Ģä¸ª éĿŀå»ºåĪ¶åľ°åĮº
è¤Ĳ èī²
æħķå°¼ é»ĳ
Ġ v
Ġ éĻĪ
æĪ Ĭ
å®¶ ä¹¡
çĵ ·
èİ± æĸ¯
åĩł ä½ķ
æĪĺäºī ä¸Ń
éĽķ å¡ĳ
åĨłçĬ¶ çĹħæ¯Ĵ
æľ¬ ä¹¦
æ´Ľ å¤«
197 4å¹´
ä¾Ŀ çħ§
æĿ¥èĩª äºİ
ç±»ä¼¼ çļĦ
çīµ å¼ķ
ç»´ä¹Ł çº³
I V
åĲİæĿ¥ çļĦ
. )
åįĹ ç¾İæ´²
äºĭ åĲİ
å¢ŀ è®¾
ä»ħ æ¬¡äºİ
ç«£ å·¥
åıĬ åħ¶ä»ĸ
ç»ı çºª
éĻ¢ å£«
çªģ åĩº
195 3å¹´
Ġ åĮĹ
Ġ 16
æķĪ çİĩ
ä¿Ĺ ç§°
æ» ¤
æ» ĭ
åĪĴ å½Ĵ
å¹ķ åºľ
ä¸º çĶ±
æŁ Ħ
èģĶ åĨĽ
æľ¯ è¯Ń
ä¸¥éĩį çļĦ
y p
ä½įäºİ ä¸Ńåįİäººæ°ĳåħ±åĴĮåĽ½
èĮ Ħ
æĿĳ æ°ĳ
åĮ» åŃ¦éĻ¢
æ·» åĬł
å¤§ çĲĨ
çľģ æİ¥å£¤
çĶ² åŁº
ç»ĥ ä¹ł
Ġ åħ¶ä¸Ń
å°Ķ é¡¿
åĨħ æľī
èĬ ¦
çĸ ¯
åľ£ ç»ı
ç»Ĩ èıĮ
æī Ń
ä¸Ĭ æĸ¹
éħ ¯
éģĩ åĪ°
ä¿®éģĵ éĻ¢
M S
è¾¹ çļĦ
æ¿Ģ çĥĪ
çļĦä¸» é¢ĺ
çļĦ åĽ½éĻħ
çļĦ æĪĲç»©
å¤§ æ°Ķ
åīį èº«
ç§° èµŀ
åŁİ åİ¿
å¦Ĥ åĲĮ
ä¿Ŀ åĬłåĪ©äºļ
æĮĩ è´£
åĽŀ åĲĪ
èĢĥ å¯Ł
éĢĶ ç»ı
èĻļ æĭŁ
çļĦ çĪ¶äº²
Ġæł¹æį® 2020å¹´ç¾İåĽ½äººåı£æĻ®æŁ¥çļĦæķ°æį®
çļĦ çĶŁæ´»
çº¦ 1
ç¾İåĽ½ äºº
èİ· å¥ĸ
äºī å¤º
åįģäºĮ æľĪ
â Ĩ
æĶ» åĬ¿
æī¿ æĭħ
çļ® èĤ¤
å¤ļ åħĥ
æ£ į
åŃ£ åĲİ
ä½ľæĽ² å®¶
åĪĨ æĪĲ
æĸ¹ ç¨ĭ
è¶ ģ
åĽ¢ éķ¿
æ£ ±
å°± åľ¨
æľ« æľŁ
é¢Ĩå¯¼ çļĦ
8 ä¸ª
e e
éĺŁ åĳĺ
åĲĳ åĮĹ
èİ· åıĸ
çĽ´ è·¯
ä¹¡ æĿĳ
197 3å¹´
é¡º åºı
è¸ ¢
A L
æĻ ´
åħĥ éŁ³
Ġ è¯Ħä»·
193 5å¹´
åħ¬åħ± äº¤éĢļ
å¸ ľ
åı¸ èģĮ
æ» ¥
é»ĳ äºº
åľ°ä¸Ń æµ·
åıĹ æįŁ
è± ¹
è¡ĮæĶ¿ ä¸Ńå¿ĥ
195 7å¹´
N BA
åħ¶ åľ¨
è¿Ļ ä¹Łæĺ¯
åĿ ¤
æĢ» ç«Ļ
å£« é¡¿
å±Ģ å±Ģéķ¿
åĳ¨ åĪĬ
æİ¨ åĩºçļĦ
èĲ¨ æĭī
ç¥ ¸
å¥³ åŃ©
197 7å¹´
åĩº èµĽ
15 5
é¥ ¶
åĩł å¹´
å®ģ æ³¢
E N
æĺ¯ æĦıå¤§åĪ©
åįģ ä¸Ģå¹´
å¥³ ä¸»è§Ĵ
åĵģ ç§į
åĩºçİ° çļĦ
ç¥ĸ åħĪ
æĲ ŀ
éĺ´ è°ĭ
äºĳåįĹ çľģ
å¤ª åĲİ
æĿ¡ æ¬¾
15 2
çĮ ´
è´Ŀ åħĭ
å©´ åĦ¿
æ·· ä¹±
å±ŀçļĦ æ¤įçī©
æ§ ½
å·´ åŁº
åĵĪ æĭī
éĽ· è¾¾
åĬłåĪ©ç¦ı å°¼äºļå·ŀ
å¦ ¥
ä¿¡ å¾Ĵ
æŃ» äºİ
ä½ĵèĤ² é¦Ĩ
äº® çĽ¸
å¯ ĩ
å±± åľ°
çĶ· åŃ©
is h
P h
èĲ Ŀ
æİ¨ æµĭ
æ¤ Ń
ç»Ĩ èĬĤ
äºİ200 6å¹´
çļĦ éĿ¢ç§¯ä¸º
åĬł ä»¥
æķ° åįģ
éĩį ç»Ħ
åĽ½å®¶ åħ¬åĽŃ
æİ¨ è¡Į
å·´åĭĴ æĸ¯åĿ¦
æľĢ å¤ļçļĦ
åıĸ èĩª
è®º åĿĽ
æĳ© å°Ķ
è¿Ļé¦ĸ æŃĮ
æ¡Ĩ æŀ¶
åľ¨ ä¸Ĭæµ·
ä¸ľ åĮº
çĽ¸ è¿ŀ
å¤ľ éĹ´
è¯ī è®¼
åĳ¼ åĲ¸
é¥® é£Ł
ç¤ºå¨ģ èĢħ
é»ĳé¾Ļæ±Ł çľģ
9 1
i x
å¾ Ļ
çĤ ³
æĻ® æĭī
éĢģ åĪ°
éĢĶ å¾Ħ
å· ©
åĪĨ è§£
æ°´ éĩı
åı¯ä»¥ éĢļè¿ĩ
å¼ķ ç§į
é¥ ¼
éĻĦ åĬł
it y
å¯Į æ±Ĺ
YouT ube
çļĦ åŁİéķĩ
æ¬ ł
197 1å¹´
æĸ°åĨł èĤºçĤİ
çļĦ ä¸ĸçķĮ
æŃĮ åĶ±
ç§» å±ħ
æĭ¿ çł´
è¿½ æ±Ĥ
å±ĭ é¡¶
å°±è¯» äºİ
èĩ´åĬĽ äºİ
H K
è® ½
æĺ¯ èĭ±åĽ½
æĺ¯ è¥¿çıŃçīĻ
ä»ĸ äºº
æľº æŀª
çĽ¸ éĤ»
ç¬¬åįģ ä¸Ģ
æĿ°åħĭ éĢĬ
ç«ĭæĸ¹ ç±³
æľī çĿĢ
ç¾İåĽ½ æĢ»ç»Ł
éĽĨåĽ¢ åĨĽ
è¯Ĭ æĸŃ
æĭ¿çł´ ä»ĳ
. ãĢĮ
é«ĺ æŀ¶
çİ¯ å½¢
æī¹ åĪ¤
195 1å¹´
èĪªç©º åħ¬åı¸
æ£ ļ
æµģ åĬ¨
æ»ĳ éĽª
ä¸Ń å¼ı
ä¸ī å¤§
çī© èµĦ
å¦ ĸ
å¤ĸ åĽ´
æĢ» ç»ıçĲĨ
åĬĽ åŃ¦
ç»Ī æŃ¢
æħĪ åĸĦ
æī ĩ
ä¸ī çĶ²
è° £
æ¡ ĵ
åºķ å±Ĥ
å´ĩ ç¥¯
Ġ ä¸Ģ
åĨ »
åı¸ æľº
èĳ µ
å§ĭ ç»Ī
æłĩ é¢ĺ
åħ¬éĩĮ çļĦ
åħµ åĬĽ
iv eĠ
æ²Ī éĺ³
åĩº èĩª
è¿ĩ æ¸¡
ç¦ §
åĪĻ çĶ±
éĴ ©
å¾· åħĭ
å®ļ çĲĨ
å±± é¡¶
4 æľĪ1æĹ¥
ä¸Ń ä¸ĸçºª
ä¸ĭ æĸ¹
çĪ ¬
è£ ´
åľ£ æ¯į
è¿ĲåĬ¨ çļĦ
ç§ĺ é²ģ
å±ħæ°ĳ çĤ¹
ç²Ĵ åŃĲ
i re
æĸ Į
æŁ ľ
åħĥ å¸ħ
å§Ķ åī¯ä¹¦è®°
æ²³ åı£
çģ« è½¦ç«Ļ
é³ Ħ
Ġ st
åħ¥ å¢ĥ
èĤ ¿
æ¼ Ĥ
17 5
è°¢ å°Ķ
å½¼ æŃ¤
Ġ æľĪ
å·¥ åķĨ
æ¯Ķ å°Ķ
æĴ ĳ
ä¸Ńå¿ĥ çļĦ
æ·± åħ¥
ç¬¬ä¸ī æ¬¡
000 åĲį
éŁ¦ å°Ķ
çļĦ èĥ½åĬĽ
åħ¬ å¯ĵ
çĲĥ è¿·
ä½Ĩ åħ¶
ç»ĵ è®º
ç¡ķå£« åŃ¦ä½į
u re
å± ¡
è¾ ±
æ¬¡ æĹ¥
æīĭ ä¸Ń
çīĪ çļĦ
éĨ ī
E P
åİ Į
äºĨ å¯¹
çĦ ļ
çİ¯ çĲĥ
åĥı æĺ¯
èĵ Ħ
è¯ĳ ä¸º
åľ¨ ä»ĸçļĦ
è¯¥ åī§
èĭı éĩĮ
ç¦ı éŁ³
çª ĥ
æĵ ¦
æĹ©æľŁ çļĦ
çŃī å¾ħ
æł¼ å¼ı
199 0å¹´ä»£
çªģ åİ¥
å¼Ĺ æĭī
ä¼ĺ åħĪ
å¤©æ´¥ å¸Ĥ
èģ Ĥ
åĮĹ éŁ©
çİĭ ä½į
in t
åį° è±¡
åį°åº¦ æķĻ
æ© Ļ
è½¬çļĦ å°ıè¡ĮæĺŁ
çĶ± äººå·¥
å±Ģ çļĦ
è¶³çĲĥ èģĶèµĽ
å®ĥä»¬ çļĦ
çļĦ å¥³åĦ¿
æĺ¯ åįĹæŀģæ´²
åįģ ä¸īå¹´
æĽ² çĽ®
é¢Ħ åĳĬ
æĹ Ń
åıĳ éŁ³
åĬł åĭĴ
ä¸ī æ¬¡
èģĮ æ£Ĵ
ç¦ı åĪ©
ä½İ æ°Ķåİĭ
ç¿° æŀĹ
B L
è¿ĩ äºİ
ç³ ķ
en tĠ
å¾® è½¯
çĥŃå¸¦ æ°ĶæĹĭ
çĲĨäºĭ ä¼ļ
ä¸º é¦ĸ
èĳĹ æľī
ç¬¼ èįī
æł¼ æĭīæĸ¯
çº§ çļĦ
è¯º ä¼Ĭ
å·¥ä½ľ çļĦ
