{"!":0,"\"":1,"#":2,"$":3,"%":4,"&":5,"'":6,"(":7,")":8,"*":9,"+":10,",":11,"-":12,".":13,"/":14,"0":15,"1":16,"2":17,"3":18,"4":19,"5":20,"6":21,"7":22,"8":23,"9":24,":":25,";":26,"=":27,"?":28,"@":29,"A":30,"B":31,"C":32,"D":33,"E":34,"F":35,"G":36,"H":37,"I":38,"J":39,"K":40,"L":41,"M":42,"N":43,"O":44,"P":45,"Q":46,"R":47,"S":48,"T":49,"U":50,"V":51,"W":52,"X":53,"Y":54,"Z":55,"[":56,"\\":57,"]":58,"^":59,"_":60,"`":61,"a":62,"b":63,"c":64,"d":65,"e":66,"f":67,"g":68,"h":69,"i":70,"j":71,"k":72,"l":73,"m":74,"n":75,"o":76,"p":77,"q":78,"r":79,"s":80,"t":81,"u":82,"v":83,"w":84,"x":85,"y":86,"z":87,"|":88,"~":89,"¡":90,"¢":91,"£":92,"¤":93,"¥":94,"¦":95,"§":96,"¨":97,"©":98,"ª":99,"«":100,"¬":101,"®":102,"¯":103,"°":104,"±":105,"²":106,"³":107,"´":108,"µ":109,"¶":110,"·":111,"¸":112,"¹":113,"º":114,"»":115,"¼":116,"½":117,"¾":118,"¿":119,"Â":120,"Ã":121,"Ä":122,"Å":123,"Æ":124,"Ç":125,"È":126,"É":127,"Ê":128,"Ë":129,"Ì":130,"Í":131,"Î":132,"Ï":133,"Ð":134,"Ñ":135,"Ò":136,"Ó":137,"Ô":138,"Õ":139,"Ö":140,"×":141,"Ø":142,"Ù":143,"Ú":144,"Û":145,"Ü":146,"Þ":147,"ß":148,"à":149,"á":150,"â":151,"ã":152,"ä":153,"å":154,"æ":155,"ç":156,"è":157,"é":158,"ê":159,"ë":160,"ì":161,"í":162,"î":163,"ï":164,"ð":165,"ñ":166,"Ċ":167,"Ġ":168,"ġ":169,"Ģ":170,"ģ":171,"Ĥ":172,"ĥ":173,"Ħ":174,"ħ":175,"Ĩ":176,"ĩ":177,"Ī":178,"ī":179,"Ĭ":180,"ĭ":181,"Į":182,"į":183,"İ":184,"ı":185,"Ĳ":186,"ĳ":187,"Ĵ":188,"ĵ":189,"Ķ":190,"ķ":191,"ĸ":192,"Ĺ":193,"ĺ":194,"Ļ":195,"ļ":196,"Ľ":197,"ľ":198,"Ŀ":199,"ŀ":200,"Ł":201,"ł":202,"Ń":203,"ä¸":204,"äº":205,"çļ":206,"çļĦ":207,"åħ":208,"åı":209,"æľ":210,"ãĢ":211,"å¹":212,"ä»":213,"å¤":214,"åľ":215,"åĲ":216,"åĪ":217,"åĽ":218,"å®":219,"å¹´":220,"ä½":221,"æĹ":222,"çĶ":223,"åį":224,"æĸ":225,"è¿":226,"å°":227,"æĺ":228,"ä¹":229,"ç»":230,"ãĢģ":231,"åľ¨":232,"ä¸º":233,"åĬ":234,"æĪ":235,"ä¼":236,"ä¸Ģ":237,"åŃ":238,"åĮ":239,"å¸":240,"è¯":241,"è®":242,"ä¸Ń":243,"åĨ":244,"åĽ½":245,"äºº":246,"æĺ¯":247,"åº":248,"æĿ":249,"å¼":250,"å·":251,"äºİ":252,"å¾":253,"éĩ":254,"çī":255,"ç§":256,"è¡":257,"çº":258,"å¤§":259,"æī":260,"éĢ":261,"æľī":262,"å±":263,"æĶ":264,"åĩ":265,"åĴ":266,"åĴĮ":267,"20":268,"æŃ":269,"éĥ":270,"èµ":271,"èĢ":272,"æķ":273,"å½":274,"åİ":275,"æľĪ":276,"å¯":277,"æ°":278,"éĻ":279,"æĭ":280,"æĹ¥":281,"çĽ":282,"èĩ":283,"æ³":284,"å¥":285,"æł":286,"çİ":287,"19":288,"éĺ":289,"ä»¥":290,"åĲİ":291,"æĹ¶":292,"âĢ":293,"åĳ":294,"äºĨ":295,"åľ°":296,"æ²":297,"ç«":298,"æµ":299,"ä¼ļ":300,"åŃ¦":301,"è§":302,"æĢ":303,"è¾":304,"è´":305,"æĪĲ":306,"éĹ":307,"è½":308,"éĿ":309,"åŁ":310,"ä¸ª":311,"çĲ":312,"ä¸Ĭ":313,"éĥ¨":314,"åī":315,"æĸ¯":316,"éķ":317,"ä¸İ":318,"è¡Į":319,"ä»ĸ":320,"åĩº":321,"ä¸į":322,"æ¯":323,"åĮº":324,"æ´":325,"æŀ":326,"æĬ":327,"æİ":328,"åħ¬":329,"ç¬":330,"åħ¶":331,"åıĳ":332,"æ¸":333,"ç½":334,"ä½ľ":335,"çĶŁ":336,"æĽ":337,"å°Ķ":338,"åĲį":339,"ä¿":340,"ä¸»":341,"åĪĨ":342,"è¢":343,"çŃ":344,"èĥ":345,"ä¹ĭ":346,"éģ":347,"æĸ¹":348,"ç¬¬":349,"çĶ¨":350,"å®¶":351,"å§":352,"ãĢĭ":353,"ãĢĬ":354,"è¥":355,"å¹¶":356,"ç¾":357,"è¥¿":358,"æ³ķ":359,"åĪ°":360,"å¿":361,"èĢĮ":362,"Â·":363,"æ¬":364,"é¢":365,"åĨĽ":366,"å»":367,"åıĬ":368,"è¢«":369,"ä¾":370,"æĶ¿":371,"ä½į":372,"ç±":373,"çĶ±":374,"æĮ":375,"æľ¬":376,"çľ":377,"æ±":378,"æ°ĳ":379,"è·":380,"éĽ":381,"é¦":382,"ä¸ĭ":383,"å¸Ĥ":384,"åĵ":385,"å¯¹":386,"åĲĮ":387,"èģ":388,"èĭ":389,"åħĭ":390,"åĬ¨":391,"æĿ¥":392,"çī¹":393,"éķ¿":394,"è¿Ļ":395,"å¤ļ":396,"ä»»":397,"èĩª":398,"å¼Ģ":399,"éĩĮ":400,"åĳĺ":401,"åįĹ":402,"é©":403,"åŃĲ":404,"åı¯":405,"æĸ°":406,"å¹³":407,"èī":408,"åĿ":409,"èİ":410,"åĬł":411,"å¾·":412,"åĮĹ":413,"ãĢĮ":414,"ãĢį":415,"æľĢ":416,"æĸĩ":417,"å£":418,"åĪ©":419,"æĻ":420,"ç¾İ":421,"é«":422,"åīį":423,"ä¸ľ":424,"ä»£":425,"é«ĺ":426,"äºļ":427,"éĿ¢":428,"æµ·":429,"æīĢ":430,"¦ģ":431,"å¾Ĺ":432,"èĩ³":433,"ç¤":434,"å»º":435,"èĪ":436,"éĹ´":437,"æŃ¤":438,"åĨħ":439,"åĽł":440,"äºĭ":441,"âĢľ":442,"ä¸ī":443,"âĢĿ":444,"çİ°":445,"è¿Ľ":446,"çĶµ":447,"),":448,"ä¹Ł":449,"çī©":450,"è¿ĩ":451,"èµĽ":452,"201":453,"çŃī":454,"åı°":455,"åº¦":456,"è½¦":457,"åħ¥":458,"è¯¥":459,"ç»ı":460,"å½ĵ":461,"éģĵ":462,"ç¥":463,"è¦ģ":464,"ç«ĭ":465,"æĪĺ":466,"å°Ĩ":467,"çĲĨ":468,"ç©":469,"è¡¨":470,"ä½ĵ":471,"çŁ":472,"çķ":473,"æĭī":474,"é¡":475,"å¦":476,"è°":477,"å²":478,"æľº":479,"æķĻ":480,"æľŁ":481,"ä¸ĸ":482,"èĲ":483,"éļ":484,"æı":485,"å·¥":486,"åĪ¶":487,"ç®":488,"èĥ½":489,"äºĮ":490,"å¤ĸ":491,"åĲĪ":492,"æį":493,"è·¯":494,"å®ļ":495,"åı£":496,"çľģ":497,"å¸ĥ":498,"æ¬¡":499,"æĦ":500,"é©¬":501,"è®¾":502,"åħ±":503,"æĢ§":504,"éĺŁ":505,"åľº":506,"éĢļ":507,"ä¸ļ":508,"å±±":509,"å°ı":510,"200":511,"çĲĥ":512,"ä½Ĩ":513,"èĬ":514,"ä½¿":515,"éĵ":516,"è¶":517,"åįģ":518,"ä¸Ģä¸ª":519,"èĢħ":520,"å·ŀ":521,"åĮĸ":522,"åħ¨":523,"æĥ":524,"ç³":525,"æķ°":526,"ç§į":527,"é£":528,"ç§°":529,"å¤©":530,"èĤ":531,"ç½Ĺ":532,"ç§ĳ":533,"çł":534,"æŁ":535,"çº¿":536,"çĻ":537,"å¼ı":538,"ç±³":539,"ç«Ļ":540,"éĩį":541,"å®ī":542,"éŁ":543,"èģĶ":544,"æģ":545,"çĤ":546,"ä¸¤":547,"éĤ":548,"ç³»":549,"æ¯Ķ":550,"æ¼":551,"ç¼":552,"10":553,"çĪ":554,"æ¡":555,"ç¦":556,"ç¨":557,"å¢":558,"æĢ»":559,"éĢī":560,"è¿Ĳ":561,"åĬĽ":562,"åİ¿":563,"åħ°":564,"å£«":565,"çĽ¸":566,"éĻ¢":567,"æ¹":568,"åŁº":569,"åħ³":570,"ä¸ŃåĽ½":571,"éĥ½":572,"æ²»":573,"åİŁ":574,"è¾¾":575,"åŁİ":576,"ç»Ł":577,"åģ":578,"æł¼":579,"èµ·":580,"ç»Ħ":581,"æŃ£":582,"æĺİ":583,"é»":584,"çº¦":585,"åı·":586,"èĭ±":587,"æ°´":588,"å½±":589,"å°¼":590,"æĪĸ":591,"å±ŀ":592,"åºľ":593,"å¡":594,"æİ¥":595,"åı¸":596,"è®¡":597,"éĩĳ":598,"çĽ®":599,"é¦ĸ":600,"çİĭ":601,"è®®":602,"æıĲ":603,"åįİ":604,"çĦ":605,"ä»¬":606,"éĺ¿":607,"åĽĽ":608,"ä»İ":609,"åĪĹ":610,"åħĥ":611,"çģ":612,"æ¼Ķ":613,"å·´":614,"ç¾İåĽ½":615,"èĳ":616,"00":617,"å¦Ĥ":618,"äº§":619,"è¯Ń":620,"åĢ":621,"éħ":622,"åıĤ":623,"åı²":624,"éĩı":625,"åŀ":626,"æĶ¹":627,"å¸¸":628,"å¥³":629,"æ®":630,"æ¶":631,"1å¹´":632,"éķĩ":633,"åĲĳ":634,"0å¹´":635,"è£":636,"èį":637,"åĬ¡":638,"æŀĹ":639,"5å¹´":640,"18":641,"åĮħ":642,"æ¸¯":643,"å¨":644,").":645,"æĽ¾":646,"æĹł":647,"èİ·":648,"2å¹´":649,"äººåı£":650,"çĦ¶":651,"äº¤":652,"åĶ":653,"å®ŀ":654,"å¿ĥ":655,"4å¹´":656,"éĶ":657,"åıĹ":658,"éľ":659,"ä½įäºİ":660,"ç»´":661,"æĦı":662,"åİĨ":663,"ç»ĵ":664,"èī²":665,"çķĮ":666,"çº§":667,"ä¹Ĳ":668,"3å¹´":669,"æīĭ":670,"å§ĭ":671,"ä¿Ŀ":672,"å§Ķ":673,"åĪĻ":674,"ä¹ī":675,"æĴ":676,"å¤Ħ":677,"12":678,"åħļ":679,"è§Ĩ":680,"ä¹¦":681,"ç´":682,"åĽ¢":683,"8å¹´":684,"6å¹´":685,"ç®¡":686,"å½¢":687,"ç¨ĭ":688,"æ£":689,"å¯¼":690,"åĭ":691,"è®¤":692,"æį®":693,"ç±»":694,"æ²³":695,"å°±":696,"åį¡":697,"éĹ¨":698,"æ·":699,"æĮĩ":700,"æľĪ2":701,"çĽ´":702,"202":703,"7å¹´":704,"åįķ":705,"éĴ":706,"çĥ":707,"è¯´":708,"éŁ³":709,"äºĽ":710,"å¹¿":711,"åŀĭ":712,"å·²":713,"åºĶ":714,"æĺŁ":715,"éĽĨ":716,"ç¤º":717,"å¥¥":718,"æµģ":719,"é¢Ĩ":720,"ç¤¾":721,"åł":722,"ä¼ł":723,"æº":724,"æĮģ":725,"é²":726,"åĵģ":727,"çĤ¹":728,"èº":729,"æł¡":730,"æĽ´":731,"å±ķ":732,"å¤«":733,"er":734,"çĭ":735,"åĽŀ":736,"èĮ":737,"ä¸¾":738,"æĻ®":739,"æ¸¸":740,"ä¸ĩ":741,"11":742,"ç§¯":743,"èº«":744,"æ¢":745,"ç©º":746,"199":747,"åıį":748,"éª":749,"èµĦ":750,"æĶ¿åºľ":751,"æĥħ":752,"å®ĺ":753,"ç¡":754,"çºª":755,"äºĶ":756,"æ´»":757,"è¿ĺ":758,"é¾":759,"åĩ»":760,"an":761,"æĶ¯":762,"é¦Ļ":763,"æłĩ":764,"æĬ¥":765,"æ»":766,"eĠ":767,"or":768,"å¸Ī":769,"åĲĦ":770,"æ¹¾":771,"éĵģ":772,"åĪ«":773,"èĴ":774,"éĢł":775,"å¤§åŃ¦":776,"çº³":777,"èĻ":778,"åıĸ":779,"ä½¿çĶ¨":780,"()":781,"çĬ":782,"åı¤":783,"å²Ľ":784,"çĸ":785,"æĪĲä¸º":786,"å¤ª":787,"æĹ¥æľ¬":788,"in":789,"åī§":790,"å±Ģ":791,"åħ¬åı¸":792,"åıĺ":793,"æĭ¬":794,"9å¹´":795,"çı":796,"æľ¯":797,"åŃĹ":798,"åķ":799,"å¥¹":800,"çĿ":801,"æĹı":802,"ä¸ĵ":803,"åĳ½":804,"åĮħæĭ¬":805,"åľ°åĮº":806,"éĿŀ":807,"å¸¦":808,"èĳĹ":809,"åĽ½å®¶":810,"å¼ł":811,"è®º":812,"è¿ĳ":813,"åį³":814,"å¼Ģå§ĭ":815,"çłĶ":816,"æľĿ":817,"æ±Ł":818,"åĨ³":819,"ä¿¡":820,"è§£":821,"æ´²":822,"æĽ²":823,"èĬĤ":824,"çĹ":825,"ç¥ŀ":826,"é£İ":827,"on":828,"çīĩ":829,"å°ĳ":830,"èģĮ":831,"ä»¶":832,"ä»¥åıĬ":833,"ç²":834,"è¿Ľè¡Į":835,"ä¼Ĭ":836,"åĽ¾":837,"èĦ":838,"æľª":839,"çĵ":840,"è®°":841,"åıª":842,"ç¿":843,"å¹³æĸ¹":844,"å®ĥ":845,"æľĪ1":846,"æł¹":847,"æĿĥ":848,"æ²¡":849,"çŁ³":850,"éĻħ":851,"ç¬¬ä¸Ģ":852,"èĭı":853,"æ¯ı":854,"ç¼ĸ":855,"è§Ĵ":856,"è½¬":857,"åı¯ä»¥":858,"æĶ¾":859,"æ³¢":860,"æ¨":861,"äº¬":862,"ä¾ĭ":863,"åħ¶ä¸Ń":864,"æĶ¶":865,"æĿ¡":866,"çļĦä¸Ģ":867,"åĪĴ":868,"è°ĥ":869,"é¾Ļ":870,"åħ¬éĩĮ":871,"é¦Ļæ¸¯":872,"åĳ¨":873,"åħī":874,"åķĨ":875,"åĪĽ":876,"æ¸ħ":877,"è¿ŀ":878,"åĪĿ":879,"æ°Ķ":880,"æŃĮ":881,"ç¦»":882,"æĿĳ":883,"åĸ":884,"æĳ":885,"çīĪ":886,"éĻĨ":887,"éĥ¨åĪĨ":888,"ç©¶":889,"åĻ":890,"å¾Ģ":891,"äººæ°ĳ":892,"å¤´":893,"èİ·å¾Ĺ":894,"è±":895,"åŃ£":896,"çŁ¥":897,"ä¸ĸçķĮ":898,"Ġ19":899,"åıĪ":900,"éĿ¢ç§¯":901,"åħĪ":902,"çłĶç©¶":903,"åİ»":904,"å¯Ĩ":905,"æŀĦ":906,"åŁŁ":907,"æ´¾":908,"ä»¤":909,"æīĵ":910,"ç»Ń":911,"æŀľ":912,"åĬŀ":913,"å¼º":914,"éļı":915,"æŁ¥":916,"å¨ģ":917,"ä¸»è¦ģ":918,"çĻ½":919,"åĨį":920,"åħµ":921,"äºī":922,"åº§":923,"æŃ¦":924,"ä»ĸä»¬":925,"ç¦ı":926,"å¤į":927,"è§Ĥ":928,"èĤ²":929,"è£ħ":930,"åİĨåı²":931,"å®Į":932,"åħŃ":933,"la":934,"åĻ¨":935,"è®¤ä¸º":936,"å¼ķ":937,"é¡¹":938,"æ®µ":939,"æļ":940,"é¢ĺ":941,"è¶³":942,"åı°æ¹¾":943,"åĵĪ":944,"æ²¡æľī":945,"ä¸Ķ":946,"æĿİ":947,"çĳ":948,"å¡Ķ":949,"æľį":950,"éĻ¤":951,"å±ħ":952,"å®£":953,"æ¬§":954,"æĪı":955,"ç½ĳ":956,"æĴŃ":957,"ç»Ī":958,"è§Ħ":959,"æĭħ":960,"åįı":961,"èĲ¥":962,"äº¦":963,"è®¸":964,"15":965,"åħ¶ä»ĸ":966,"æİ¨":967,"èı":968,"çĵ¦":969,"åľ£":970,"ä»½":971,"å§Ķåĳĺ":972,"å¥ĸ":973,"åľŁ":974,"æ¡Ī":975,"ç½®":976,"å½ķ":977,"ä¿®":978,"è´¨":979,"è¨":980,"äº²":981,"èĲ¨":982,"è¨Ģ":983,"çĶ·":984,"æĺ¯ä¸Ģ":985,"åĦ":986,"ar":987,"æºĲ":988,"ç¬¬äºĮ":989,"åŃĺ":990,"å¸Ŀ":991,"ä»£è¡¨":992,"éĹ®":993,"åĭĴ":994,"Ġ201":995,"ä»Ĭ":996,"è¯Ħ":997,"åĽŃ":998,"æ¥":999,"en":1000,"åħ·":1001,"ç»Ļ":1002,"æĬ¤":1003,"ä¾Ľ":1004,"éĽ·":1005,"è¿ĲåĬ¨":1006,"é¦Ĩ":1007,"æŃ»":1008,"æĬķ":1009,"åħ«":1010,"çĪ±":1011,"æĶ¿æ²»":1012,"çĶ±äºİ":1013,"æ³ķåĽ½":1014,"éĢŁ":1015,"åįĥ":1016,"åĩĨ":1017,"å®Ĺ":1018,"åį°":1019,"å¢ŀ":1020,"è¾ĥ":1021,"è¶ħ":1022,"ä¼¯":1023,"å¢ĥ":1024,"æ´Ľ":1025,"198":1026,"å¸Į":1027,"æ±Ĥ":1028,"åĬŁ":1029,"è§ģ":1030,"çĶµå½±":1031,"çĶ»":1032,"çļĦä¸Ģä¸ª":1033,"æ±ī":1034,"èĩ´":1035,"Ġåľ¨":1036,"(),":1037,"åĿĩ":1038,"åįĩ":1039,"å¤ĩ":1040,"16":1041,"åı¦":1042,"è¯º":1043,"åĬ©":1044,"åį«":1045,"å·¥ä½ľ":1046,"åįļ":1047,"çĮ":1048,"çİĩ":1049,"èİ±":1050,"éĺ³":1051,"åĦ¿":1052,"è¾¹":1053,"ä¼Ĺ":1054,"å¥½":1055,"èĹ":1056,"é¥":1057,"åĥ":1058,"å®¢":1059,"å®¹":1060,"èĪª":1061,"ä¼¦":1062,"åĳĬ":1063,"åĲĮæĹ¶":1064,"æĹ©":1065,"æ¨¡":1066,"åĽłæŃ¤":1067,"çª":1068,"ä¹Į":1069,"åĲī":1070,"è¯ķ":1071,"ä¿Ħ":1072,"ä½ľä¸º":1073,"æİĴ":1074,"åī¯":1075,"èīº":1076,"æł·":1077,"æµİ":1078,"å¾Ī":1079,"çģ«":1080,"çİ¯":1081,"æķħ":1082,"å¡ŀ":1083,"æĪĳ":1084,"æĶ»":1085,"åĽ½éĻħ":1086,"é»Ħ":1087,"çĶ°":1088,"ç¾¤":1089,"å·±":1090,"èĬ±":1091,"åı¯èĥ½":1092,"æ¯į":1093,"ä¹Ŀ":1094,"çĪ¶":1095,"æĸ½":1096,"åĵį":1097,"çıŃ":1098,"èħ":1099,"åĽ´":1100,"è¡¨ç¤º":1101,"æĬĢ":1102,"sĠ":1103,"ä¸Ńå¿ĥ":1104,"æķ´":1105,"é²ģ":1106,"æ²Ļ":1107,"ç»§":1108,"åĮ»":1109,"17":1110,"æĭħä»»":1111,"å¤±":1112,"å¸Ĥéķĩ":1113,"çŃĳ":1114,"èĲ½":1115,"çĹħ":1116,"ä¸Ńåįİ":1117,"åħ´":1118,"è¯ģ":1119,"ç»ĩ":1120,"ç³»ç»Ł":1121,"ä¹ĭåĲİ":1122,"åĽłä¸º":1123,"æ¦":1124,"è´£":1125,"ä¹¡":1126,"å¿Ĺ":1127,"å¸Ń":1128,"éĩĩ":1129,"éĺ²":1130,"èĪ°":1131,"å®¤":1132,"èŃ":1133,"å±Ĥ":1134,"æīĺ":1135,"éĿĴ":1136,"çĽŁ":1137,"30":1138,"ä¸ĥ":1139,"æĦŁ":1140,"èŃ¦":1141,"éľĢ":1142,"çĻ»":1143,"å½ĵæĹ¶":1144,"åĨł":1145,"çĭ¬":1146,"èĭ±åĽ½":1147,"è´Ł":1148,"åįĬ":1149,"éº":1150,"æ¹ĸ":1151,"æĹ¶éĹ´":1152,"æ¸¸æĪı":1153,"éĢļè¿ĩ":1154,"å£°":1155,"çĶµè§Ĩ":1156,"å§Ĩ":1157,"éĤ£":1158,"çĻ¾":1159,"éħį":1160,"ä»ĸçļĦ":1161,"ç¢":1162,"èĩªå·±":1163,"åıĮ":1164,"è½¦ç«Ļ":1165,")ãĢģ":1166,"éĻĪ":1167,"ä¸ŃçļĦ":1168,"æł¹æį®":1169,"al":1170,"åłĤ":1171,"é»ĳ":1172,"åıĳçİ°":1173,"æĺĵ":1174,"çĥŃ":1175,"çļĩ":1176,"åĨĻ":1177,"(,":1178,"è¡ĮæĶ¿":1179,"ç¡®":1180,"çº¢":1181,"çĬ¶":1182,"é£ŀ":1183,"åıĳå±ķ":1184,"æĪĲç«ĭ":1185,"æģ©":1186,"ä½ķ":1187,"å¤ı":1188,"æľŁéĹ´":1189,"æ·±":1190,"ä»į":1191,"èĢĥ":1192,"æŀģ":1193,"ä½ı":1194,"åįł":1195,"çħ":1196,"é±":1197,"åħ±åĴĮ":1198,"æ£®":1199,"è¡Ĺ":1200,"è¶Ĭ":1201,"éĻĲ":1202,"å¤®":1203,"å°Ħ":1204,"é¸":1205,"é±¼":1206,"çĶ²":1207,"æŃ¥":1208,"at":1209,"è®¾è®¡":1210,"ç¤¾ä¼ļ":1211,"âĢĶ":1212,"é£Ł":1213,"è®©":1214,"14":1215,"âĢĿ.":1216,"å»ºçŃĳ":1217,"äºİ19":1218,"åĥı":1219,"åŁĥ":1220,"è±¡":1221,"ä¹ĭä¸Ģ":1222,"æĽ¼":1223,"æĿĢ":1224,"å¯Ł":1225,"è´¹":1226,"èĮĥ":1227,"ãĢį,":1228,"å±Ĭ":1229,"æİ§":1230,"æī¹":1231,"ç¥¨":1232,"ä»ħ":1233,"è¿ĻäºĽ":1234,"æ½":1235,"è´Ŀ":1236,"æĻ¯":1237,"ç»Ħç»ĩ":1238,"æĸĻ":1239,"æĤ":1240,"åŃ¦éĻ¢":1241,"å¥ĩ":1242,"æ´ĭ":1243,"å²ģ":1244,"åıĤåĬł":1245,"ä¸įåĲĮ":1246,"æµĭ":1247,"çķĻ":1248,"èĢģ":1249,"ä¸Ńå¤®":1250,"å§Ķåĳĺä¼ļ":1251,"è¿ª":1252,"åĨľ":1253,"æ¥¼":1254,"æĸĩåĮĸ":1255,"ä½İ":1256,"æŃ¢":1257,"ä¸ĸçºª":1258,"å·Ŀ":1259,"å½±åĵį":1260,"æ¯ĶèµĽ":1261,"èĥľ":1262,"éĿ©":1263,"è¯į":1264,"åĵ¥":1265,"ç§°ä¸º":1266,"å¾ĭ":1267,"çīĮ":1268,"é¡¿":1269,"st":1270,"æĥ³":1271,"å±ŀäºİ":1272,"æİĪ":1273,"for":1274,"æķĪ":1275,"åĺ":1276,"æ³°":1277,"è¾ĸ":1278,"ä¾¿":1279,"å¹³æĸ¹åħ¬éĩĮ":1280,"æ¤":1281,"æľ¨":1282,"éĻį":1283,"åĩł":1284,"ç§»":1285,"è¿°":1286,"çľŁ":1287,"ic":1288,"13":1289,"æħ":1290,"åģľ":1291,"æīį":1292,"æ°ı":1293,"éĵ¶":1294,"æ¡¥":1295,"ãĢį.":1296,"èĴĻ":1297,"æĪ¿":1298,"å¿µ":1299,"æĺ¾":1300,"éŁ³ä¹Ĳ":1301,"æī¿":1302,"æĢģ":1303,"çĿĢ":1304,"è´¥":1305,"å©":1306,"ç´¢":1307,"æ¾":1308,"åħ±åĴĮåĽ½":1309,"åºķ":1310,"åº·":1311,"åºĵ":1312,"é¢Ħ":1313,"ä¸»ä¹ī":1314,"éŃ":1315,"mu":1316,"åŃ¦æł¡":1317,"å¾ģ":1318,"ç´ł":1319,"æ´»åĬ¨":1320,"20å¹´":1321,"çīĻ":1322,"è¾ĳ":1323,"çľĭ":1324,"å¼¹":1325,"åĶ±":1326,"åħ¸":1327,"ä½ľåĵģ":1328,"æŃ£å¼ı":1329,"æ¶Ī":1330,"æıĲä¾Ľ":1331,"åĪ©äºļ":1332,"ç®Ģ":1333,"è®¡åĪĴ":1334,"åĩºçİ°":1335,"ç½Ĺæĸ¯":1336,"è½½":1337,"ä¹ł":1338,"194":1339,"æīĢæľī":1340,"æģ¯":1341,"ä»·":1342,"å³":1343,"ä¹ĭéĹ´":1344,"éĻĦ":1345,"ç»ıæµİ":1346,"ç®¡çĲĨ":1347,"åıĳçĶŁ":1348,"æľĢç»Ī":1349,"éĵģè·¯":1350,"çłģ":1351,"âĢĿ,":1352,"çĳŀ":1353,"æī§":1354,"æĹ¶æľŁ":1355,"è¿ľ":1356,"197":1357,"åĿ¦":1358,"æĪ·":1359,"å¹²":1360,"åıĭ":1361,"åŁİå¸Ĥ":1362,"åĨµ":1363,"ç®Ĺ":1364,"ä¾§":1365,"æķĻèĤ²":1366,"ç¥ĸ":1367,"éĢĢ":1368,"éŁ©":1369,"å®Ī":1370,"æ»¡":1371,"äºĳ":1372,"åĲİæĿ¥":1373,"æ³¨":1374,"èĪ¹":1375,"mula":1376,"å½ĵåľ°":1377,"è¯·":1378,"è¯Ŀ":1379,"ĠS":1380,"æ¸©":1381,"éĤ¦":1382,"formula":1383,"5æĹ¥":1384,"åĢĻ":1385,"ä½Ļ":1386,"ä½Ľ":1387,"æĲ":1388,"æĬĬ":1389,"ç«ł":1390,"ä¸ģ":1391,"è¿Ļä¸ª":1392,"it":1393,"ç²¾":1394,"æĬĹ":1395,"å®ģ":1396,"ãĢĭ,":1397,"çĽĳ":1398,"æľĢåĲİ":1399,"åĪ¶ä½ľ":1400,"åł¡":1401,"Ġ200":1402,"æľĽ":1403,"am":1404,"æĹ§":1405,"è´Łè´£":1406,"å¾·åĽ½":1407,"å·¦":1408,"æĪĲåĳĺ":1409,"ä¸ĬçļĦ":1410,"æĭ¿":1411,"éĹ®é¢ĺ":1412,"æľĹ":1413,"éªĮ":1414,"åĬ¿":1415,"è¿Ľåħ¥":1416,"æĢĿ":1417,"ä¸´":1418,"è®¸å¤ļ":1419,"åĪĺ":1420,"å´":1421,"çªģ":1422,"é¹":1423,"çł´":1424,"å¿«":1425,"å®«":1426,"æĹħ":1427,"ä¾Ŀ":1428,"195":1429,"dĠ":1430,"åİĭ":1431,"åºĦ":1432,"ç¬¬ä¸ī":1433,"åĲįä¸º":1434,"èİ«":1435,"ä¼¼":1436,"ä¹Łæĺ¯":1437,"æĪĺäºī":1438,"el":1439,"å¯Į":1440,"æ¢ħ":1441,"çĿ£":1442,"åĢ¼":1443,"12æľĪ":1444,"åģļ":1445,"åħ¨åĽ½":1446,"æĶ¯æĮģ":1447,"å°ģ":1448,"èĹı":1449,"æ°¸":1450,"åĲ«":1451,"Ġ202":1452,"6æĹ¥":1453,"å»¶":1454,"7æĹ¥":1455,"æĸĹ":1456,"èĴĤ":1457,"196":1458,"ä¸ĢäºĽ":1459,"æĭĶ":1460,"çĶŁæ´»":1461,"åİħ":1462,"åį¢":1463,"äººçļĦ":1464,"çħ§":1465,"äº¡":1466,"æľįåĬ¡":1467,"å¼Ĺ":1468,"éļ¾":1469,"åİĤ":1470,"ç»Ĩ":1471,"æ¾³":1472,"4æĹ¥":1473,"åĪ¤":1474,"æĵ":1475,"æł¸":1476,"10æľĪ":1477,"æŀ¶":1478,"ä¸¹":1479,"å¤§çļĦ":1480,"éģĹ":1481,"ä¼¤":1482,"å°¼äºļ":1483,"å®£å¸ĥ":1484,"çļ®":1485,"èĻ½":1486,"9æľĪ":1487,"7æľĪ":1488,"å½Ĵ":1489,"åį°åº¦":1490,"åı³":1491,"ä¿Ħç½Ĺæĸ¯":1492,"å·²ç»ı":1493,"è¯Ĩ":1494,"åºĨ":1495,"8æľĪ":1496,"åıĤä¸İ":1497,"åľ°æĸ¹":1498,"ä¸¾è¡Į":1499,"æĸŃ":1500,"åħ³ç³»":1501,"3æĹ¥":1502,"åıĳè¡Į":1503,"éĹ»":1504,"3æľĪ":1505,"çĨ":1506,"è½®":1507,"50":1508,"åįĥç±³":1509,"é½":1510,"5æľĪ":1511,"åı¶":1512,"äºİ201":1513,"ä¸½":1514,"æĿ°":1515,"åºĹ":1516,"æĸ¹éĿ¢":1517,"ç¤¼":1518,"åĶĲ":1519,"åĨ³å®ļ":1520,"å·¥ç¨ĭ":1521,"ï¼":1522,"åĲĮå¹´":1523,"éĩįè¦ģ":1524,"èĽ":1525,"è¶³çĲĥ":1526,"ro":1527,"åĮĹäº¬":1528,"åĪĩ":1529,"ä¸¤ä¸ª":1530,"ä¼ĺ":1531,"çŃĸ":1532,"ä¸¥":1533,"2020å¹´":1534,"ä¸Ĭæµ·":1535,"re":1536,"åºŃ":1537,"èµ°":1538,"th":1539,"6æľĪ":1540,"å¿ħ":1541,"è¯»":1542,"æĭ¥":1543,"19å¹´":1544,"ç»Ŀ":1545,"éģŃ":1546,"1æľĪ":1547,"0å¹´ä»£":1548,"å°ļ":1549,"èģĶåĲĪ":1550,"äººçī©":1551,"å¼Ĥ":1552,"åĺī":1553,"éĥ¡":1554,"äºĭä»¶":1555,"ç»ĥ":1556,"æį¢":1557,"åĮĹéĥ¨":1558,"åĨłåĨĽ":1559,"é©»":1560,"å½¹":1561,"èµ«":1562,"åŃ¦å®¶":1563,"èĬĤçĽ®":1564,"æ¤į":1565,"ĠçĶŁ":1566,"å²¸":1567,"éº¦":1568,"éĩİ":1569,"åŃ¦çĶŁ":1570,"å¼Ł":1571,"ä¼ļè®®":1572,"193":1573,"æ²¹":1574,"äººæ°ĳåħ±åĴĮåĽ½":1575,"æĬĢæľ¯":1576,"4æľĪ":1577,"éĢĲ":1578,"åĶ®":1579,"èĥĮ":1580,"11æľĪ":1581,"æ¯ķ":1582,"æĿ¾":1583,"åĪ°äºĨ":1584,"åĬłåħ¥":1585,"é³":1586,"å¯º":1587,"èī¾":1588,"èĵ":1589,"åį´":1590,"ä¿ĿæĬ¤":1591,"000":1592,"åĪĹè½¦":1593,"ä¹ħ":1594,"æĢ»ç»Ł":1595,"æ¬§æ´²":1596,"ç½²":1597,"èı²":1598,"éļĨ":1599,"è®¾æľī":1600,"æĻļ":1601,"é¼":1602,"å¹³æĸ¹åįĥç±³":1603,"ĠC":1604,"èĪ¬":1605,"åª":1606,"æĿ¥èĩª":1607,"åĪĨåĪ«":1608,"ç«¯":1609,"ä¸ºäºĨ":1610,"çĽ®åīį":1611,"ç¯":1612,"æĺ¥":1613,"çŁŃ":1614,"éĢģ":1615,"åħ¹":1616,"åĪĨå¸ĥ":1617,"åħĭåħ°":1618,"éľĢè¦ģ":1619,"ç³»åĪĹ":1620,"ä¹ĺ":1621,"ä½³":1622,"å°½":1623,"æĿŁ":1624,"il":1625,"å®Ŀ":1626,"å®ĮæĪĲ":1627,"çļĦäºº":1628,"ä¸Ńåįİäººæ°ĳåħ±åĴĮåĽ½":1629,"éĢļå¸¸":1630,"é¡º":1631,"æ°ĳåĽ½":1632,"ä»Ģ":1633,"æ²¿":1634,"æľ«":1635,"æĹĹ":1636,"å»ºç«ĭ":1637,"åĲ¯":1638,"èįī":1639,"æĺ¯åľ¨":1640,"åįĹéĥ¨":1641,"åºı":1642,"åŃĺåľ¨":1643,"éĺ¶":1644,"éĺµ":1645,"èį¯":1646,"å¯¼èĩ´":1647,"èĢ¶":1648,"éĽĦ":1649,"éħĴ":1650,"æļ´":1651,"æĸ¯çī¹":1652,"æ¯Ľ":1653,"æĪĲåĬŁ":1654,"ion":1655,"æ³½":1656,"åħ¼":1657,"é¢ĳ":1658,"åħ±æľī":1659,"åĨ²":1660,"è½»":1661,"è¦ģæ±Ĥ":1662,"æĳĦ":1663,"çĭ¬ç«ĭ":1664,"è·Ŀ":1665,"çĦ¶èĢĮ":1666,"äºĨä¸Ģ":1667,"ç»ĦæĪĲ":1668,"ä¾ĭå¦Ĥ":1669,"æĳ©":1670,"æľĢé«ĺ":1671,"aĠ":1672,"éĶĢ":1673,"æľĪ1æĹ¥":1674,"æ¬¾":1675,"ch":1676,"è¾ĵ":1677,"åįķä½į":1678,"ĠåİĨåı²":1679,"èĻ½çĦ¶":1680,"æµ·æĭĶ":1681,"å¼Ģåıĳ":1682,"æĭ¥æľī":1683,"å¸ķ":1684,"ol":1685,"èĩªçĶ±":1686,"ãĢģãĢĬ":1687,"et":1688,"çģµ":1689,"åŃĻ":1690,"ä¸ĵè¾ĳ":1691,"çŃ¾":1692,"åªĴ":1693,"çĽ¸åħ³":1694,"ä¹Įåħĭåħ°":1695,"ãĢĭ(":1696,"ç±į":1697,"å©ļ":1698,"çİĽ":1699,"æĥħåĨµ":1700,"çĶ¨äºİ":1701,"ç½ª":1702,"é¡»":1703,"èīºæľ¯":1704,"ĠçĶŁå¹³":1705,"æĿĤ":1706,"çº½":1707,"é¥°":1708,"æ£Ģ":1709,"éĽħ":1710,"å¹¶ä¸Ķ":1711,"é¡¶":1712,"çĲĥéĺŁ":1713,"éĢīä¸¾":1714,"å¯Ĩåº¦":1715,"æĿ¨":1716,"èģĶçĽŁ":1717,"yĠ":1718,"éĩĩçĶ¨":1719,"ä»ĸåľ¨":1720,"æŀª":1721,"åĤ":1722,"æıĲåĩº":1723,"ä»ĭ":1724,"åīįå¾Ģ":1725,"8æĹ¥":1726,"åĬ³":1727,"ç§Ģ":1728,"åħį":1729,"ou":1730,"çķ¥":1731,"åıĹåĪ°":1732,"æ²ĥ":1733,"å·®":1734,"æĭį":1735,"25":1736,"éĢı":1737,"è¿½":1738,"å®³":1739,"äº¿":1740,"æ¿":1741,"å·¡":1742,"2019å¹´":1743,"ãĢĭ.":1744,"æĸ¹å¼ı":1745,"çĽĸ":1746,"åĩı":1747,"èĭ¥":1748,"è§Ĵèī²":1749,"è´¢":1750,"äººåĳĺ":1751,"éĴŁ":1752,"è¢Ń":1753,"è¿ģ":1754,"éĩĬ":1755,"åĽ½æ°ĳ":1756,"çļĦå¤§":1757,"äºĮåįģ":1758,"æĿ¿":1759,"èī¯":1760,"å°¾":1761,"åĲ´":1762,"è®Ń":1763,"èŀ":1764,"åħ·æľī":1765,"èį£":1766,"æĿ¯":1767,"åĲĪä½ľ":1768,"è°·":1769,"is":1770,"çĪĨ":1771,"éħ¸":1772,"äº¤éĢļ":1773,"æķ£":1774,"è¿Ļä¸Ģ":1775,"æı´":1776,"æłĳ":1777,"æŃĮæĽ²":1778,"åĩºçīĪ":1779,"å¤§éĻĨ":1780,"es":1781,"éĽĨåĽ¢":1782,"èģĶèµĽ":1783,"äº§çĶŁ":1784,"ç£":1785,"æĺł":1786,"è¿Ļç§į":1787,"2æľĪ":1788,"ĠM":1789,"é¦ĸæ¬¡":1790,"å®ĭ":1791,"ä¼ģ":1792,"è¯ĳ":1793,"è´Ń":1794,"äºĪ":1795,"24":1796,"æķ°æį®":1797,"åĸĦ":1798,"±ä¹Ĳ":1799,"å¾®":1800,"é»İ":1801,"å¹¶åľ¨":1802,"æ´¥":1803,"1æĹ¥":1804,"èĤ¡":1805,"å°º":1806,"è¡¥":1807,"çī¹åĪ«":1808,"æ¯ķä¸ļ":1809,"è®¿":1810,"å±ĭ":1811,"ç»§ç»Ń":1812,"æŃ¤å¤ĸ":1813,"å®¡":1814,"è´µ":1815,"äºĴ":1816,"lt":1817,"è¡Ģ":1818,"é«ĺåº¦":1819,"é¡¹çĽ®":1820,"ç»ĵæĿŁ":1821,"æĻĭ":1822,"è½¨":1823,"çĥĪ":1824,"äºİ200":1825,"ä¸ªäºº":1826,"åģĩ":1827,"ä½Ĩæĺ¯":1828,"è®¯":1829,"éŁ¦":1830,"ãĥ":1831,"åľ°çĲĨ":1832,"ãĢĭãĢģãĢĬ":1833,"åħ»":1834,"éĻ©":1835,"ç»ĵæŀĦ":1836,"èĩ£":1837,"çĶŁäº§":1838,"ä¸ĢèĪ¬":1839,"zh":1840,"å¸ĿåĽ½":1841,"é¢Ŀ":1842,"æıı":1843,"ä»¥ä¸ĭ":1844,"æī©":1845,"æĺ¯ä¸Ģä¸ª":1846,"éĥ¨éĺŁ":1847,"è¥¿äºļ":1848,"è¯Ńè¨Ģ":1849,"æķĳ":1850,"äººåı£å¯Ĩåº¦":1851,"æ¯Ĵ":1852,"æİ§åĪ¶":1853,"é²ľ":1854,"å¯¹äºİ":1855,"åĸľ":1856,"ç§ĳåŃ¦":1857,"æİ¥åıĹ":1858,"å½¢æĪĲ":1859,"ç«ŀ":1860,"åıĸå¾Ĺ":1861,"ä»»ä½ķ":1862,"æĹ¶ä»£":1863,"æµ·åĨĽ":1864,"è¡ĮåĬ¨":1865,"ä¸»å¸Ń":1866,"åĮºåŁŁ":1867,"æĮ¥":1868,"å³°":1869,"éĿ¢ç§¯ä¸º":1870,"æķħäºĭ":1871,"å¤º":1872,"æĿľ":1873,"æ°ĳä¸»":1874,"èĪŀ":1875,"æľīä¸Ģ":1876,"æ¦Ĥ":1877,"9æĹ¥":1878,"éĶ¦":1879,"è¯Ĺ":1880,"åĩºçĶŁ":1881,"æĹłæ³ķ":1882,"è®²":1883,"éĢĤ":1884,"éĢĶ":1885,"æĭľ":1886,"ä¸°":1887,"æľºæŀĦ":1888,"40":1889,"çİ©":1890,"çĶļ":1891,"å¢ŀåĬł":1892,"ĠA":1893,"éĢłæĪĲ":1894,"21":1895,"åĮºçļĦ":1896,"æľ±":1897,"å¸ģ":1898,"çĸĹ":1899,"é½Ĳ":1900,"æ¢ģ":1901,"èį·":1902,"è¾Ĩ":1903,"éĻĦè¿ĳ":1904,"ä¸»æķĻ":1905,"è¶ħè¿ĩ":1906,"ç§ĺ":1907,"å»·":1908,"gt":1909,"çļĦæĺ¯":1910,"é¢Ĩå¯¼":1911,"æĮī":1912,"ä¼łç»Ł":1913,"ç»ĵæŀľ":1914,"ç½Ĺé©¬":1915,"å¾Ħ":1916,"ä¸įè¿ĩ":1917,"çĩ":1918,"å®¾":1919,"éļ¶":1920,"ç¦ģ":1921,"ac":1922,"23":1923,"æĴ¤":1924,"ä¸Ńåħ±":1925,"le":1926,"åĿĢ":1927,"æĿĲ":1928,"åįĪ":1929,"è´§":1930,"å°ıæĹ¶":1931,"åĩ¯":1932,"åĬ¨çī©":1933,"æ¸Ĳ":1934,"100":1935,"çļĦæĹ¶":1936,"çĬ¯":1937,"èĥ¡":1938,"éļıåĲİ":1939,"åı¦å¤ĸ":1940,"åĨĽäºĭ":1941,"æĺ¯ä½įäºİ":1942,"ç«¥":1943,"æķ¦":1944,"èĪªç©º":1945,"åľĨ":1946,"ä½©":1947,"çĽĬ":1948,"ä»ª":1949,"å¤Ł":1950,"æłĩåĩĨ":1951,"om":1952,"åıĳå¸ĥ":1953,"èģļ":1954,"è°¢":1955,"ing":1956,"æĸ°éĹ»":1957,"éª¨":1958,"æ··":1959,"çĮ®":1960,"åĨħçļĦ":1961,"çĽĽ":1962,"60":1963,"è¿Ķ":1964,"ä»ģ":1965,"éĥİ":1966,"ä¸ĢçĽ´":1967,"éĺ¿å°Ķ":1968,"çīĽ":1969,"çļĨ":1970,"æķ°éĩı":1971,"æŁĲ":1972,"è®¨":1973,"ç¿°":1974,"åĪĳ":1975,"ç©Ĩ":1976,"çĤ¸":1977,"æįķ":1978,"22":1979,"å¨ľ":1980,"éĿ©åĳ½":1981,"èĮĥåĽ´":1982,"å¤§åĪ©":1983,"å¸®":1984,"åªĴä½ĵ":1985,"éĻ¤äºĨ":1986,"å®½":1987,"å¾ĹåĪ°":1988,"æľºåľº":1989,"å¥³æĢ§":1990,"èĮ¨":1991,"å®īåħ¨":1992,"è°ĥæŁ¥":1993,"è¿ĩç¨ĭ":1994,"è§ī":1995,"å°±æĺ¯":1996,"æİ¢":1997,"ä¹ĭåīį":1998,"æł¼åħ°":1999,"ç»ıè¿ĩ":2000,"çĤ®":2001,"æĻº":2002,"åºĻ":2003,"åı¦ä¸Ģ":2004,"åĨħå®¹":2005,"åħ¬åĽŃ":2006,"çĪ¶äº²":2007,"å¹ķ":2008,"æĪª":2009,"åĲ¦":2010,"éģĩ":2011,"å¤ľ":2012,":âĢľ":2013,"(,),":2014,"éŁ©åĽ½":2015,"çĶ·åŃĲ":2016,"ä¹Ķ":2017,"åįģäºĮ":2018,"éľį":2019,"èµŀ":2020,"åħħ":2021,"èĶ":2022,"æĭ©":2023,"è½¯":2024,"éĩįæĸ°":2025,"å¥³åŃĲ":2026,"åĪ»":2027,"æīĢä»¥":2028,"éľ²":2029,"èµĽäºĭ":2030,"æĽ¿":2031,"ä¼ĳ":2032,"å°¤":2033,"ç§ģ":2034,"åĪº":2035,"ä½įç½®":2036,"å¹³åĿĩ":2037,"2010å¹´":2038,"èĩªå·±çļĦ":2039,"èĸ":2040,"å«":2041,"ĠP":2042,"åıªæľī":2043,"çİī":2044,"è¿ĲåĬ¨åĳĺ":2045,"æŁĵ":2046,"çºªå¿µ":2047,"å±ħæ°ĳ":2048,"æĿ¥çļĦ":2049,"192":2050,"å¦Ĥæŀľ":2051,"é¸Ł":2052,"åĪĽä½ľ":2053,"åıĳè¡¨":2054,"åºŁ":2055,"ç¼º":2056,"éĿł":2057,"ä¸Ŀ":2058,"ãģ":2059,"æľīåħ³":2060,"éĴĪ":2061,"æķĮ":2062,"åĢŁ":2063,"æĺĮ":2064,"çİ°ä»£":2065,"è®¾ç«ĭ":2066,"ri":2067,"ç»©":2068,"è¯ī":2069,"æºª":2070,"æľīéĻĲ":2071,"æĬµ":2072,"éĤ®":2073,"è¡Įä¸º":2074,"èģĶéĤ¦":2075,"åĲĽ":2076,".âĢĿ":2077,"å·¨":2078,"èľ":2079,"åĲ¸":2080,"å®ĩ":2081,"å±ŀçļĦ":2082,"è¥¿çıŃ":2083,"è·Ł":2084,"çĪµ":2085,"ä¹±":2086,"èĵĿ":2087,"è¥¿çıŃçīĻ":2088,"éªĳ":2089,"å¾¡":2090,"å®ª":2091,"çľ¼":2092,"è®®ä¼ļ":2093,"åıįå¯¹":2094,"æ¼Ķåĳĺ":2095,"æ¤įçī©":2096,"åĮºä¸º":2097,"åĿ¡":2098,"æ®¿":2099,"åħ±äº§":2100,"æķĻæİĪ":2101,"æįŁ":2102,"å¾Ĵ":2103,"éĽª":2104,"å·¥ä¸ļ":2105,"åĽº":2106,"æ°ĳæĹı":2107,"è¯¸":2108,"ä¾µ":2109,"åĪĬ":2110,"ĠT":2111,"çīĪæľ¬":2112,"åĮ¹":2113,"åĲįçļĦ":2114,"ç¬¬åĽĽ":2115,"éĢĥ":2116,"åħ¬è·¯":2117,"çĽ´æİ¥":2118,"çİ°åľ¨":2119,"éļĶ":2120,"èª":2121,"åħĭæĸ¯":2122,"å»ºè®¾":2123,"èģĮä¸ļ":2124,"æī¾":2125,"çİ¯å¢ĥ":2126,"è°ĭ":2127,"æĺ¯çĶ±":2128,"ä¸¾åĬŀ":2129,"èĦĳ":2130,"æ¶¯":2131,"ä¸ŃåŃ¦":2132,"ä¹İ":2133,"éĢīæĭ©":2134,"åĨĽéĺŁ":2135,"çĹĩ":2136,"åĩºçļĦ":2137,"éĿŀå¸¸":2138,"ç¿»":2139,"æ¬¢":2140,"èĭıèģĶ":2141,"åıįåºĶ":2142,"ç¼ĸçłģ":2143,"ä½ł":2144,"çĶ³":2145,"åħ¬å¼Ģ":2146,"ä½ĵèĤ²":2147,"å£¤":2148,"éĥĳ":2149,"åĲįç§°":2150,"è¯¥åľ°":2151,"å²©":2152,"æ¦ľ":2153,"è£ģ":2154,"èµĦæĸĻ":2155,"åħ±åĲĮ":2156,"ä¸īå¹´":2157,"æ±ĩ":2158,"éĵ¶è¡Į":2159,"å½¢å¼ı":2160,"åĨ³èµĽ":2161,"ç©¿":2162,"æĪĺæĸĹ":2163,"ĠB":2164,"è¡ĮæĺŁ":2165,"åħĦ":2166,"åı¬":2167,"åĨ°":2168,"æĺ¾ç¤º":2169,"éĤ»":2170,"æ¼«":2171,"åįıä¼ļ":2172,"æĢ¥":2173,"æ¿Ģ":2174,"è·Ŀç¦»":2175,"of":2176,"å¥ī":2177,"æĸ¹æ³ķ":2178,"ä¸Ģç§į":2179,"å¤§éĩı":2180,"ç»ľ":2181,"æĶ¹ä¸º":2182,"éķľ":2183,"æĪĪ":2184,"åŁ¹":2185,"Ġ199":2186,"un":2187,"åĶ¯":2188,"Ġåľ°çĲĨ":2189,"è¯¾":2190,"å°ıè¯´":2191,"ç¬¦":2192,"èĥŀ":2193,"åĪ©çĶ¨":2194,"æĹ¶çļĦ":2195,"å¤ļæķ°":2196,"ä¸Ģèµ·":2197,"åĲ¬":2198,"éĥ¨éķ¿":2199,"ä¹Łæľī":2200,"æ¯ģ":2201,"è®®åĳĺ":2202,"èĬ¬":2203,"è¿«":2204,"ç¾İåħĥ":2205,"ä¹¦è®°":2206,"ä¼ģä¸ļ":2207,"è®¢":2208,"è°Ī":2209,"æĸ°çļĦ":2210,"åĳ¼":2211,"é»ĺ":2212,"åĮħåĲ«":2213,"èĩªæ²»":2214,"å¾ħ":2215,"æ³ķå¾ĭ":2216,"éĽ¨":2217,"éĨ":2218,"ç®¡è¾ĸ":2219,"æĮĩæĮ¥":2220,"åĳĪ":2221,"èĤ¯":2222,"tĠ":2223,"å°Ķæĸ¯":2224,"åģ¥":2225,"å®Įåħ¨":2226,"å¹¶ä¸į":2227,"ä¸»ä»»":2228,"æĢĢ":2229,"èĢ³":2230,"åĪĨä¸º":2231,"åı°åĮĹ":2232,"ä¸Ńåįİæ°ĳåĽ½":2233,"Ġæľ¬":2234,"ï¼į":2235,"çĸĳ":2236,"æ³Ľ":2237,"è¿Ļæĺ¯":2238,"å®¶åºŃ":2239,"èµµ":2240,"åĿļ":2241,"ä¸ľåĮĹ":2242,"80":2243,"æ³ķéĻ¢":2244,"çĽ´åĪ°":2245,"äººç±»":2246,"å¤ĦçĲĨ":2247,"èİī":2248,"éĻµ":2249,"æĦ¿":2250,"âĢĶâĢĶ":2251,"ãĤ":2252,"æĵį":2253,"æĹĭ":2254,"æĪĳä»¬":2255,"å®¶æĹı":2256,"èĩªçĦ¶":2257,"çĶŁæ¶¯":2258,"å§ĵ":2259,"åŃ¦ä¹ł":2260,"åĨįæ¬¡":2261,"è¿ĺæľī":2262,"æ¶ī":2263,"çĶµåŃĲ":2264,"éĥ½æĺ¯":2265,"æŀļ":2266,"2021å¹´":2267,"as":2268,"é¢Ĺ":2269,"æĶ¿çŃĸ":2270,"åħ³äºİ":2271,"çĶŁçī©":2272,"æĪ´":2273,"æ¯«":2274,"åŃ©":2275,"èĦ±":2276,"åĲİçļĦ":2277,"æĢ§çļĦ":2278,"27":2279,"åĬ¨çĶ»":2280,"æī§è¡Į":2281,"çĶļèĩ³":2282,"æĮĩåĩº":2283,"çĲĨè®º":2284,"ur":2285,"è¡¨çİ°":2286,"èŀį":2287,":ãĢĮ":2288,"å°ĨåĨĽ":2289,"å¿ħé¡»":2290,"ä¸Ģå¹´":2291,"åĮ»éĻ¢":2292,"å®ĥä»¬":2293,"2022å¹´":2294,"æļĤ":2295,"åŁºç¡":2296,"åį±":2297,"ç»¿":2298,"ä»¥æĿ¥":2299,"æĺ¯ä¸Ģç§į":2300,"å¦»":2301,"ç§ĭ":2302,"çĽĺ":2303,"ä¸ľéĥ¨":2304,"æľĢä½³":2305,"æģĴ":2306,"å°½ç®¡":2307,"å¢ĥåĨħ":2308,"èĪį":2309,"ow":2310,"æīİ":2311,"æľĢåĪĿ":2312,"åĿĲ":2313,"èĿ":2314,"é¡¾":2315,"æĸĩåŃ¦":2316,"åŁºç¡Ģ":2317,"åį·":2318,"æ¨ª":2319,"å½ĵä¸Ń":2320,"ç¾½":2321,"æŁı":2322,"ä¸ŃåĽ½å¤§éĻĨ":2323,"ä¹Ī":2324,"ä¸ºä¸»":2325,"åĬª":2326,"å®ĺæĸ¹":2327,"ç¿¼":2328,"ç´§":2329,"åįļçī©":2330,"èīĩ":2331,"åķĨä¸ļ":2332,"ç¯ĩ":2333,"çľģä»½":2334,"è¾Ľ":2335,"æĶ»åĩ»":2336,"æ»¨":2337,"æĦıå¤§åĪ©":2338,"è´¡":2339,"35":2340,"åħ¬åħ±":2341,"å¥ı":2342,"ä¹°":2343,"çī©ç§į":2344,"æŃ»äº¡":2345,"æ¡ĳ":2346,"éĴ±":2347,"æĬ¥åĳĬ":2348,"ç±»ä¼¼":2349,"åĿı":2350,"2001å¹´":2351,"æĻ®æŁ¥":2352,"éŃĶ":2353,"ç¼©":2354,"28":2355,"æľĿé²ľ":2356,"æĶ¿æ²»äººçī©":2357,"æ´ª":2358,"è¯¥åĽ½":2359,"å¸Ĥåľº":2360,"æĹ©æľŁ":2361,"èĥ½åĬĽ":2362,"¤Ĳ":2363,"æ½ľ":2364,"ad":2365,"26":2366,"å®ŀéĻħ":2367,"ãĢį(":2368,"äºļæ´²":2369,"èĨ":2370,"æııè¿°":2371,"å¢ĵ":2372,"2011å¹´":2373,"è¯¯":2374,"ä¸ĭçļĦ":2375,"è§Ħæ¨¡":2376,"çº¦ç¿°":2377,"oĠ":2378,"åĽ¢ä½ĵ":2379,"ä¹ĭéĹ´çļĦ":2380,"åĬłæĭ¿":2381,"åħ¶åĲİ":2382,"éģ¿":2383,"å¿ł":2384,"åŃ¦åĲį":2385,"åħ¨çĲĥ":2386,"ç»į":2387,"æ®ĸ":2388,"åİ»ä¸ĸ":2389,"æĭįæĳĦ":2390,"å¤§ä¼ļ":2391,"æłĸ":2392,"æµ·æĭĶé«ĺåº¦":2393,"çģŃ":2394,"è¥¿éĥ¨":2395,"å¤ĸäº¤":2396,",ãĢĬ":2397,"Ġäººåı£":2398,"å¹¿ä¸ľ":2399,"çļĦåľ°":2400,"éľĩ":2401,"æµĻ":2402,"åĪ¶éĢł":2403,"éĵľ":2404,"èĥ½å¤Ł":2405,"ä¸¥éĩį":2406,"å»ī":2407,"ç¦»å¼Ģ":2408,"ç«¹":2409,"çĸ«":2410,"åŁºæľ¬":2411,"å®ĹæķĻ":2412,"æģ¶":2413,"æ±½":2414,"å®ľ":2415,"è¿·":2416,"ä¼į":2417,"çºªå½ķ":2418,"é³į":2419,"ä½ľçĶ¨":2420,"è¿¹":2421,"ig":2422,"éĹŃ":2423,"å¥Ĺ":2424,"æĮģç»Ń":2425,"äºİ18":2426,"æİ¨åĩº":2427,"åĿĹ":2428,"åģı":2429,"ä»ĺ":2430,"äºİæĺ¯":2431,"è®¡ç®Ĺ":2432,"è·¯çº¿":2433,"2009å¹´":2434,"æī¬":2435,"us":2436,"ç¼ĸçłģä¸º":2437,"åħ±äº§åħļ":2438,"äºĭåĬ¡":2439,"åŃĶ":2440,"ç©ºéĹ´":2441,"çļĦä¸Ģä¸ªå¸Ĥéķĩ":2442,"èµĸ":2443,"70":2444,"è¡£":2445,"è¿İ":2446,"2016å¹´":2447,"å¥¹çļĦ":2448,"æ³ī":2449,"çļĦä¸»":2450,"åĪļ":2451,"è¾ħ":2452,"å¸ĮæľĽ":2453,"ä»»åĬ¡":2454,"çĽ®æłĩ":2455,"ä¸įæĺ¯":2456,"æŀĲ":2457,"èĦī":2458,"2008å¹´":2459,"æ±ł":2460,"ç»Łæ²»":2461,"Ġæł¹æį®":2462,"ä¸īä¸ª":2463,"æĸ¯åĿ¦":2464,"æİ¥å£¤":2465,"èªī":2466,"ä¼°":2467,"29":2468,"æĸ¹åĲĳ":2469,"ec":2470,"æ¸¡":2471,"æģĲ":2472,"ç¼ĺ":2473,"æĸĩçī©":2474,"ä¸ĢåĲį":2475,"ç¬¬åįģ":2476,"ä¸ľåįĹ":2477,"åĬŁèĥ½":2478,"äºİ199":2479,"èĳ£":2480,"æ¼Ķåĩº":2481,"éļľ":2482,"å¼ĥ":2483,"åįķæĽ²":2484,"éĺ¿æĭī":2485,"190":2486,"ãĢī":2487,"ãĢĪ":2488,"åĬłæĭ¿å¤§":2489,"çº½çº¦":2490,"å¢¨":2491,"éĶ¦æłĩ":2492,"æĭĽ":2493,"äº«":2494,"è·¨":2495,"è®¾æĸ½":2496,"æľĪåı°":2497,"èµ¤":2498,"å¯»":2499,"å®ļçļĦ":2500,"èµĽåŃ£":2501,"èħĬ":2502,"åīĳ":2503,"éĢıè¿ĩ":2504,"çĶĺ":2505,"è¢«ç§°ä¸º":2506,"äºķ":2507,"ä¿±ä¹Ĳ":2508,"ter":2509,"éĶ¡":2510,"éŃı":2511,"çĲĥåĳĺ":2512,"éĢĬ":2513,"éĺ»":2514,"ä»įçĦ¶":2515,"åįļçī©é¦Ĩ":2516,"åĪĨå¸ĥäºİ":2517,"åıĺåĮĸ":2518,"ä¿±ä¹Ĳéĥ¨":2519,"æĽ¾ç»ı":2520,"æĥł":2521,"è´¸":2522,"2012å¹´":2523,"ĠL":2524,"è§£æĶ¾":2525,"çĳŁ":2526,"åĽ½çİĭ":2527,"é¢ģ":2528,"åħ¬å¸ĥ":2529,"ä¸Ģæ¬¡":2530,"å·´å£«":2531,"åĲĪå¹¶":2532,"å¼ĢæĶ¾":2533,"å¹¿æĴŃ":2534,"åĨ¬":2535,"ç»ĺ":2536,"Ġè¯¥":2537,"åħĭéĩĮ":2538,"å¤§åĮº":2539,"äº®":2540,"2018å¹´":2541,"å°Ĩåħ¶":2542,"èĤī":2543,"è¾¾åĪ°":2544,"ä¸įèĥ½":2545,"èĢĮä¸Ķ":2546,"å®ŀéªĮ":2547,"èµ¢":2548,"åĶ¯ä¸Ģ":2549,"åİŁåĽł":2550,"æİĴåĲį":2551,"åĽĽå¹´":2552,".ãĢį":2553,"2014å¹´":2554,"è¸":2555,"2023å¹´":2556,"éĢĲæ¸Ĳ":2557,"45":2558,"æį·":2559,"èıĮ":2560,"åıĳåĬ¨":2561,"çĥŃå¸¦":2562,"çº²":2563,"åĦ¿åŃĲ":2564,"ç»¼":2565,"é©¬æĿ¥":2566,"äººåı£æĻ®æŁ¥":2567,"åĵ²":2568,"å½ĵéĢī":2569,"çŁ¿":2570,"è¿ŀæİ¥":2571,"id":2572,"æ¨¡å¼ı":2573,"ir":2574,"å¾Ĳ":2575,"è¡ĮæĶ¿åĮº":2576,"åľ¨æŃ¤":2577,"ç¹":2578,"è¾ŀ":2579,"ç¬¬ä¸Ģæ¬¡":2580,"ä¸ľäº¬":2581,"åı·çº¿":2582,"çģ¾":2583,"èĴĻåı¤":2584,"ä¸»æĮģ":2585,"å®ļä¹ī":2586,"è¿ĲåĬ¨ä¼ļ":2587,"æĴŃåĩº":2588,"æľīéĻĲåħ¬åı¸":2589,"éĺ´":2590,"çĽ¸å½ĵ":2591,"èĽĭ":2592,"2015å¹´":2593,"åĲĦç§į":2594,"è®Ńç»ĥ":2595,"2013å¹´":2596,"æ´ŀ":2597,"ç¨³":2598,"ĠR":2599,"ç»Ĩèĥŀ":2600,"æ½®":2601,"èĢħçļĦ":2602,"åĩ»è´¥":2603,"å¦ĩ":2604,"å¤ªå¹³":2605,"åıĻ":2606,"çĽ¸åĲĮ":2607,"æ¼ĶåĶ±":2608,"é£İæł¼":2609,"em":2610,"çĬ¹":2611,"å¤ªéĺ³":2612,"48":2613,"å¦¹":2614,"Ġä¸İ":2615,"ç¹ģ":2616,"IN":2617,"æ°§":2618,"éģĵè·¯":2619,"ä½Ĳ":2620,"ĠD":2621,"æĪĲç»©":2622,"æľĪ28æĹ¥":2623,"æļĹ":2624,"(,)":2625,"æŃĮæīĭ":2626,"æİĮ":2627,"æĭĴ":2628,"å¥¥è¿Ĳ":2629,"è§Ħå®ļ":2630,"ä½¿å¾Ĺ":2631,"æ»ĳ":2632,"æľĪ15æĹ¥":2633,"åı¸ä»¤":2634,"æģ¢":2635,"çİ©å®¶":2636,"ä¸ĵä¸ļ":2637,"Ġformula":2638,"191":2639,"éĺ¶æ®µ":2640,"éĴ¢":2641,"TC":2642,"äººå£«":2643,"90":2644,"è¥¿åįĹ":2645,"åĢĴ":2646,"åĨ·":2647,"ä¸įåĲĮçļĦ":2648,"åĨĮ":2649,"ä¸Ģæł·":2650,"å°Ķçľģ":2651,"æī¹è¯Ħ":2652,"20æĹ¥":2653,"çŃīäºº":2654,"theĠ":2655,"è¥¿åĮĹ":2656,"èĻİ":2657,"çĲ´":2658,"ç§Ł":2659,"å»ºéĢł":2660,"è®¾ç½®":2661,"äº§åĵģ":2662,"ä¼Ĳ":2663,"âĢĵ":2664,"2017å¹´":2665,"åĬŀåħ¬":2666,"è½¨éģĵ":2667,"éĿĴå¹´":2668,"æĺĤ":2669,"ç¨İ":2670,"10æĹ¥":2671,"ĠG":2672,"é©±":2673,"ä¿Ĺ":2674,"30æĹ¥":2675,"å¾½":2676,"ä¸ºäºº":2677,"çıł":2678,"ä»ĸä»¬çļĦ":2679,"éº»":2680,"èīĺ":2681,"å¥Ī":2682,"éĶĻ":2683,"ç¡¬":2684,"åĿĳ":2685,"od":2686,"èĥĮæĻ¯":2687,"åľĪ":2688,"å¹¼":2689,"åĳ³":2690,"33":2691,"çĶº":2692,"çĪĨåıĳ":2693,"å½¼":2694,"æµĻæ±Ł":2695,"åĪĨéĴŁ":2696,"å°ıè¡ĮæĺŁ":2697,"æĤ£":2698,"ed":2699,"çļĦä¸Ģéĥ¨åĪĨ":2700,"éĺģ":2701,"èĳ¡":2702,"Ġ198":2703,"å¤§æĪĺ":2704,"å¢Ļ":2705,"å½©":2706,"ä¼¦æķ¦":2707,"ä¹Ļ":2708,"åŃ¦èĢħ":2709,"æµ¦":2710,"æģ¢å¤į":2711,"åľŁåľ°":2712,"åºĶçĶ¨":2713,"å¸ĮèħĬ":2714,"ä¸īåįģ":2715,"æĶ¹éĿ©":2716,"åįĸ":2717,"å¹´çļĦ":2718,"æ¯įäº²":2719,"è§¦":2720,"ĠçļĦ":2721,"ä¸įä¼ļ":2722,"èº«ä»½":2723,"çº¸":2724,"å¯¿":2725,"um":2726,"éĥ¨éĹ¨":2727,"èŃ¦å¯Ł":2728,"ç¬Ķ":2729,"2007å¹´":2730,"å±±ä¸ľ":2731,"è±ª":2732,"åĽ°":2733,"æ®ĭ":2734,"2024å¹´":2735,"é£ŀæľº":2736,"im":2737,"åĪ¶åº¦":2738,"%,":2739,"åīĤ":2740,"èİİ":2741,"èķ":2742,"ä¿ĥ":2743,"ä¸ĭè¾ĸ":2744,"æľĪ25æĹ¥":2745,"åĳ½åĲį":2746,"è¯Ħè®º":2747,"æĭīæĸ¯":2748,"è¿Ľå£«":2749,"ç²ī":2750,"æľĢå¤§":2751,"âĢ¦":2752,"æĬķèµĦ":2753,"èĦļ":2754,"éĢĿ":2755,"é«ĺéĢŁ":2756,"ç½ĳç»ľ":2757,"çļĦæĸ°":2758,"å¤§éĥ¨åĪĨ":2759,"å¤ıåŃ£":2760,"Ġ18":2761,"è£Ĥ":2762,"è¿Ļæł·":2763,"è®°è½½":2764,"æ¡£":2765,"æ¥ļ":2766,"æµª":2767,"èµı":2768,"æ¢¦":2769,"ĠH":2770,"å¯¼æ¼Ķ":2771,"ä½Ĩåľ¨":2772,"os":2773,"æ²ī":2774,"èµĦæł¼":2775,"18æĹ¥":2776,"ä¸įä¹ħ":2777,"han":2778,"éĽ¶":2779,"ä¸¤äºº":2780,"å¤©æ´¥":2781,"å¹¿å·ŀ":2782,"ag":2783,"æĺŃ":2784,"çļĦçī¹":2785,"äº¨":2786,"äºĶå¹´":2787,"åĮĸåŃ¦":2788,"æŁ±":2789,"æĭŁ":2790,"å¾Īå¤ļ":2791,"36":2792,"åģ¶":2793,"åĨĪ":2794,"å°Ĭ":2795,"çĶµè§Ĩåı°":2796,"å¸®åĬ©":2797,"åįļå£«":2798,"è´Ŀå°Ķ":2799,"éĤĢ":2800,"çĽĲ":2801,"å¼±":2802,"ent":2803,"è®·":2804,"çĸĨ":2805,"åı«":2806,"éĻ·":2807,"çŃīåľ°":2808,"ãĢįãĢģ":2809,"ç¬¬äºĶ":2810,"æ¯«ç±³":2811,"åħ¨éĥ¨":2812,"åĪĨåŃĲ":2813,"å´ĩ":2814,"æģĭ":2815,"ç»´å°Ķ":2816,"ä»Ļ":2817,"æ¶ħ":2818,"çĭ±":2819,"çĴ":2820,"è¯Ĭ":2821,"ation":2822,"ç¾¤å²Ľ":2823,"éĿĻ":2824,"âĢĿ(":2825,"å¥¥æŀĹ":2826,"ä»»åĳ½":2827,"èĭ±è¯Ń":2828,"éĻĨåĨĽ":2829,"åĨľä¸ļ":2830,"æĿĤå¿Ĺ":2831,"æ±Ĺ":2832,"ç»ķ":2833,"åŁºçĿ£":2834,"åĲįåŃĹ":2835,"é¤Ĳ":2836,"12æĹ¥":2837,"In":2838,"2005å¹´":2839,"2006å¹´":2840,"åħ¬å°º":2841,"æķ´ä¸ª":2842,"è£Ķ":2843,"åĲķ":2844,"iv":2845,"ç®Ģç§°":2846,"çĶ·æĢ§":2847,"38":2848,"ç«ĭæ³ķ":2849,"æ¶²":2850,"èļ":2851,"å¤ļæ¬¡":2852,"ç¥Ń":2853,"é¢ĨåŁŁ":2854,"æŃ¤åĲİ":2855,"èµ¢å¾Ĺ":2856,",âĢľ":2857,"å»ºè®®":2858,"ä½ľå®¶":2859,"é¼ĵ":2860,"ç¬¬äºĮæ¬¡":2861,"ä¾¯":2862,"è¡Ĺéģĵ":2863,"..":2864,"åħĥå¹´":2865,"æ©":2866,"è¿ŀç»Ń":2867,"åľ°ä¸ĭ":2868,"11æĹ¥":2869,"åĪĨæŀĲ":2870,"è¡¨æ¼Ķ":2871,"çĸ¾":2872,"ä¼´":2873,"åŁİåĮº":2874,"37":2875,"ä¼Ł":2876,"19æĹ¥":2877,"åįĹäº¬":2878,"éĶ¦æłĩèµĽ":2879,"åĲĮæł·":2880,"èĻĳ":2881,"å¹¿åľº":2882,"å¥¥æŀĹåĮ¹":2883,"500":2884,"æĢ»äººåı£":2885,"ç»ıå¸¸":2886,"Ġ194":2887,"ĠF":2888,"åħĪåĲİ":2889,"ä¸ĺ":2890,"åĽĽå·Ŀ":2891,"ä¸Ńéĥ¨":2892,"åıĳå°Ħ":2893,"çĦ¶åĲİ":2894,"äºīè®®":2895,"åĩ¤":2896,"åľ°åĮºçļĦ":2897,"é¢ĳéģĵ":2898,"æľĪ24æĹ¥":2899,"å¹ħ":2900,"é¢ľ":2901,"éĥŃ":2902,"å¡ŀå°Ķ":2903,"å¼ķèµ·":2904,"è§Ĩä¸º":2905,"åĪĻæĺ¯":2906,"å¤ļçļĦ":2907,"ä¼Ĭæĸ¯":2908,"æľĪ26æĹ¥":2909,"æĭĨ":2910,"åľ°çĲĥ":2911,"çī§":2912,"ç¤¾åĮº":2913,"éĢŁåº¦":2914,"æĪªèĩ³":2915,"åıĬåħ¶":2916,"è®°å½ķ":2917,"è®¾å¤ĩ":2918,"é©¶":2919,"æ¯ıå¹´":2920,"ç¦ıå»º":2921,"æĲŃ":2922,"åĩºä»»":2923,"ä¿ĿæĮģ":2924,"æĿ¡ä»¶":2925,"æ°´åŁŁ":2926,"ç»ª":2927,"æľĪ16æĹ¥":2928,"è§ĦåĪĴ":2929,"æĹ¥åĨĽ":2930,"å¤§çº¦":2931,"æŁ¯":2932,"%.":2933,"æ²³åįĹ":2934,"åıĤèµĽ":2935,"ä¿¡æģ¯":2936,"Ġå¹´":2937,"éģŃåĪ°":2938,"å¹³åı°":2939,"æľĪ17æĹ¥":2940,"å±ħä½ı":2941,"å¤ıä»¤":2942,"çļĦä¸»è¦ģ":2943,"æĺ¯ä½įäºİç¾İåĽ½":2944,"çī©çĲĨ":2945,"é£ŀè¡Į":2946,"UTC":2947,"äººä»¬":2948,"åĤ¨":2949,"ç»Łè®¡":2950,"è¢Ńåĩ»":2951,"åĨħéĥ¨":2952,"çĽ¸å¯¹":2953,"å¹¿æ³Ľ":2954,"èĻ«":2955,"æķĻåłĤ":2956,"å®ĺåĳĺ":2957,"è¿ĩåİ»":2958,"2æĹ¥":2959,"è¶ĬåįĹ":2960,"ä¸ĢæŃ¥":2961,"46":2962,"èĩ³ä»Ĭ":2963,"æĭĴç»Ŀ":2964,"æĪĺå½¹":2965,"èĶ¡":2966,"æĸ¯ç§ĳ":2967,"ra":2968,"æ£Ĵ":2969,"å¤ļä¸ª":2970,"èĭ±æĸĩ":2971,"è´¸æĺĵ":2972,"åħģ":2973,"è§Ī":2974,"æłĸæģ¯":2975,"å¥¥æŀĹåĮ¹åħĭ":2976,"èĲĦ":2977,"æĺ¯æ³ķåĽ½":2978,"æ¯Ķäºļ":2979,"èĳ¡èĲĦ":2980,"å¹¸":2981,"æĺİæľĿ":2982,"ç³ĸ":2983,"åŃ¦ä½į":2984,"åĦ¿ç«¥":2985,"æµģè¡Į":2986,"æľĢæĹ©":2987,"åĩ½":2988,"ç§¦":2989,"æ·¡":2990,"åıĸä»£":2991,"æĹģ":2992,"æ¼«çĶ»":2993,"é¥°æ¼Ķ":2994,"éĻ¶":2995,"è¿Ŀ":2996,"ç¾İæ´²":2997,"æľĪ27æĹ¥":2998,"æľªèĥ½":2999,"æ³¢åħ°":3000,"æ±¤":3001,"ç»ıåİĨ":3002,"ç¢ĳ":3003,"åĩłä¹İ":3004,"æĮĳ":3005,"å·´é»İ":3006,"æ¦Ĥå¿µ":3007,"èĻļ":3008,"St":3009,"éŀ":3010,"å®ŀçİ°":3011,"æľĪ21æĹ¥":3012,"æĮ¯":3013,"31æĹ¥":3014,"ot":3015,"ä»¥ä¸Ĭ":3016,"ç½ĳç«Ļ":3017,"æľĢå¤§çļĦ":3018,"å¤Ħäºİ":3019,"å·¦åı³":3020,"äºĮå¹´":3021,"é¾Ħ":3022,"æľĪ2æĹ¥":3023,"æĪĸèĢħ":3024,"æľĪ22æĹ¥":3025,"è®°èĢħ":3026,"å°Ķå¾·":3027,"\")":3028,"å®ŀæĸ½":3029,"åįıåĬ©":3030,".ãĢĬ":3031,"å®¿":3032,"åĴĮå¹³":3033,"éķ¿çļĦ":3034,"åĩıå°ĳ":3035,"æĶ¹åıĺ":3036,"æľĪ23æĹ¥":3037,"èİ·å¾ĹäºĨ":3038,"è·ĳ":3039,"ä¾į":3040,"è¿Ī":3041,"æ®Ĭ":3042,"è½¦è¾Ĩ":3043,"èĳ¬":3044,"ä¼¸":3045,"æĽ¾ä»»":3046,"å±ķå¼Ģ":3047,"éķ¿æľŁ":3048,"åľ°éĵģ":3049,"çĨĻ":3050,"åĪĨç±»":3051,"çļĩå¸Ŀ":3052,"æľĪ14æĹ¥":3053,"åŀĭçļĦ":3054,"è¿Ĳè¾ĵ":3055,"è¢«è®¤ä¸º":3056,"çļĦç¬¬":3057,"æĺĨ":3058,"ç§ĳæĬĢ":3059,"æľĪ29æĹ¥":3060,"èĭ±æł¼åħ°":3061,"å½±çīĩ":3062,"op":3063,"åĩºçĶŁäºİ":3064,"ä¹ĥ":3065,"75":3066,"çº¿çļĦ":3067,"èĮ¶":3068,"çĬ¶æĢģ":3069,"åİ¿çļĦ":3070,"çļĦæĹ¶åĮºä¸º":3071,"æ¯Ķè¾ĥ":3072,"æĽ¾åľ¨":3073,"éģį":3074,"ST":3075,"æľīçļĦ":3076,"åįłé¢Ĩ":3077,"ç»ıèĲ¥":3078,"åī§æĥħ":3079,"å¹¶äºİ":3080,"æ¾³éĹ¨":3081,"æĬķç¥¨":3082,"ç»§æī¿":3083,"å®ħ":3084,"ä½ľæĪĺ":3085,"çĥ§":3086,"æ²»çĸĹ":3087,"æŃ¦åĻ¨":3088,"åĽ½çļĦ":3089,"æľĪ13æĹ¥":3090,"Th":3091,"éĻĲåĪ¶":3092,"br":3093,"32":3094,"ä¸ļåĬ¡":3095,"åŁºäºİ":3096,"èį·åħ°":3097,"çŃ¹":3098,"è§£åĨ³":3099,"çº¯":3100,"å¤©ä¸»æķĻ":3101,"çĩĥ":3102,"èĪ°éĺŁ":3103,"å¨ģå»ī":3104,"li":3105,"è½°":3106,"ä¼ļåľ¨":3107,"34":3108,"å¦®":3109,"ä¸ªæľĪ":3110,"éĶ®":3111,"å®£ä¼ł":3112,"ä½ĵçļĦ":3113,"çº¿è·¯":3114,"åĭĭ":3115,"çıį":3116,"çļĦæķ°æį®":3117,"çģ¯":3118,"åİ¦":3119,"åĩĨå¤ĩ":3120,"çļĦæĥħåĨµ":3121,"ç´¯":3122,"ub":3123,"éĽķ":3124,"å²Ń":3125,"åĿĽ":3126,"èµĦæºĲ":3127,"è¾½":3128,"éļĲ":3129,"æĬĺ":3130,"çļĦå½±åĵį":3131,"åĭĩ":3132,"è¡¡":3133,"æĸ¯çļĦ":3134,"ä½įäºİè¯¥åĽ½":3135,"SE":3136,"èĢĮåľ¨":3137,"åįģå¹´":3138,"æĸ¹æ¡Ī":3139,"èıľ":3140,"ç»Łä¸Ģ":3141,":)":3142,"åĩºäºĨ":3143,"æĿ¥æºĲ":3144,"è¯Ħä»·":3145,"çĤİ":3146,"è¯ķåĽ¾":3147,"é½¿":3148,"æ¸ħæľĿ":3149,"ĠE":3150,"åĲĦåľ°":3151,"çĶµè§Ĩåī§":3152,"å³¡":3153,"æ±½è½¦":3154,"åİŁæľ¬":3155,"II":3156,"ä¹ĭå¤ĸ":3157,"éĵģéģĵ":3158,"æ¾³å¤§":3159,"åħ´å»º":3160,"åŃŁ":3161,"åħĦå¼Ł":3162,"åıĪç§°":3163,"éĢīæīĭ":3164,"55":3165,"189":3166,"çł´åĿı":3167,"éģ£":3168,"ãĢįãĢģãĢĮ":3169,"é©¬æĿ¥è¥¿äºļ":3170,"åįıè®®":3171,"ç£ģ":3172,"æīĢåľ¨":3173,"èĲ§":3174,"éĤ®æĶ¿":3175,"çĲ³":3176,"åĽŀåĪ°":3177,"39":3178,"è½´":3179,"æķ¬":3180,"éļıèĳĹ":3181,"åĶ±çīĩ":3182,"è¿Ľä¸ĢæŃ¥":3183,"å£ģ":3184,"åĪĿæľŁ":3185,"è¿Ĳè¡Į":3186,"é¥®":3187,"æĽ¹":3188,"å¤§æ¥¼":3189,"è¦":3190,"æĶ¹ç¼ĸ":3191,"çĬ¹å¤ª":3192,"æħĪ":3193,"ç®Ń":3194,"ĠW":3195,"å¤§å¤ļæķ°":3196,"è¿ĽæĶ»":3197,"åŁºåľ°":3198,"èĩªåĬ¨":3199,"å¹»":3200,"è¡Ķ":3201,"æķĻä¼ļ":3202,"å¨±ä¹Ĳ":3203,"ä¸Ńæĸĩ":3204,"2004å¹´":3205,"ç²¾ç¥ŀ":3206,"æķı":3207,"å°ıåŃ¦":3208,"åħŃå¹´":3209,"ä¸ºæ¯ı":3210,"èµł":3211,"ç»´æĮģ":3212,"éĴĪå¯¹":3213,"è¿ĺæĺ¯":3214,"è§Ĥä¼Ĺ":3215,"æ¢°":3216,"åŁºéĩĳ":3217,"è´¤":3218,"æ²Ī":3219,"åıĽ":3220,"éĿ¢çļĦ":3221,"åŁİéķĩ":3222,"è¿Ľè¡ĮäºĨ":3223,"æľºè½¦":3224,"ç»ĦåĲĪ":3225,"ä»Ķ":3226,"2000å¹´":3227,"æĢ»éĿ¢ç§¯":3228,"çļĦåīį":3229,"è¿ĲèĲ¥":3230,"ä¸»è§Ĵ":3231,"è´¾":3232,"äººåı£æķ°éĩı":3233,"è¾Ĳ":3234,"éĶĭ":3235,"ç¯®":3236,"ä¸ĩäºº":3237,"å·ŀçļĦ":3238,"çľģçº§":3239,"å§Ĳ":3240,"æŃ£åľ¨":3241,"åĬłä¸Ĭ":3242,"oc":3243,"æĬ¥éģĵ":3244,"çī¹å¾ģ":3245,"çº¹":3246,"å¤ªå¹³æ´ĭ":3247,"éĥ¨ä»½":3248,"èĹ¤":3249,"çģ°":3250,"äº¤æĺĵ":3251,"éĽĨä¸Ń":3252,"ä¸įå°ĳ":3253,"ç©ºåĨĽ":3254,"ç»¼åĲĪ":3255,"ä¸Ģä½į":3256,"åĨ¯":3257,"è´Łè´£ç®¡è¾ĸ":3258,"åıĮæĸ¹":3259,"éĤĵ":3260,"éĻķ":3261,"æ¯ıä¸ª":3262,"æ¾³å¤§åĪ©äºļ":3263,"ĠæĶ¿æ²»":3264,"éĻĨåľ°":3265,"èµ´":3266,"åľ¨ç¾İåĽ½":3267,"ç¡®å®ļ":3268,"çŃĶ":3269,"æĺ¯åĲ¦":3270,"è§£éĩĬ":3271,"ĠçĶ±äºİ":3272,"ç¾İåĽ½äººåı£æĻ®æŁ¥":3273,"è¯ģæĺİ":3274,"æĺ¯ä¸ŃåĽ½":3275,"åĽ¾ä¹¦":3276,"å¤§åŀĭ":3277,"ä»·åĢ¼":3278,"47":3279,"è¿ĶåĽŀ":3280,"èĳ£äºĭ":3281,"æīĢå±ŀçļĦ":3282,"è¦Ĩ":3283,"åĲįåįķ":3284,"åİļ":3285,"æĦŁæŁĵ":3286,"åĪĢ":3287,"ç¨ĭåº¦":3288,"éĩįè¦ģçļĦ":3289,"äºĳåįĹ":3290,"ä»°":3291,"ä»İäºĭ":3292,"2025å¹´":3293,",ãĢĮ":3294,"ap":3295,"çľģçļĦä¸Ģä¸ªå¸Ĥéķĩ":3296,"æ³³":3297,"è°±":3298,"æ¹ĸåįĹ":3299,"åĽ½ä¼ļ":3300,"æ³ķåħ°":3301,"æľīæĹ¶":3302,"çļĩå®¶":3303,"æ²³æµģ":3304,"çĥŁ":3305,"åĢį":3306,"äºİ198":3307,"å°ıç»Ħ":3308,"å®ĥçļĦ":3309,"çİĭæľĿ":3310,"ĠN":3311,"ä¸»æ¼Ķ":3312,"åħĥç´ł":3313,"å¾·éĩĮ":3314,"é©¬åħĭ":3315,"å¼ķåıĳ":3316,"å¥³åĦ¿":3317,"åĩŃ":3318,"ä¿ĿçķĻ":3319,"çºµ":3320,"æľºä¼ļ":3321,"ä¸´æĹ¶":3322,"æĢ»çĲĨ":3323,"æĹħæ¸¸":3324,"éķĩåĮº":3325,"æľĭ":3326,"é¦ĸéĥ½":3327,"å¸¸è§ģ":3328,"è¶ħçº§":3329,"é¬":3330,"è´¢æĶ¿":3331,"èĴĭ":3332,"çĶŁäºİ":3333,"æ²Ł":3334,"ãĢĬãĢĭ":3335,"åħ¬åħĥ":3336,"åĩºèº«":3337,"çķª":3338,"å¤§èĩ£":3339,"åĬłåĿ¡":3340,"å¤©æĸĩ":3341,"æī¹åĩĨ":3342,"é«ĺçº§":3343,"åĨ²çªģ":3344,"åĽ½éĺ²":3345,"ç½ķ":3346,"ç±³å°Ķ":3347,"è®¨è®º":3348,"å°ĸ":3349,"åĬĽéĩı":3350,"20ä¸ĸçºª":3351,"ä¸įåĨį":3352,"å¦»åŃĲ":3353,"åĲĮæĦı":3354,"ä½ĽæķĻ":3355,"çĳŀå£«":3356,"åĽ½æ°ĳåħļ":3357,"ä¸»é¢ĺ":3358,"åĽ½åĨħ":3359,"çłĶç©¶æīĢ":3360,"åı¥":3361,"äºĨä¸Ģä¸ª":3362,"éĿĸ":3363,"æľºåħ³":3364,"è¶£":3365,"åį¡å°Ķ":3366,"é©¾":3367,"æľīæķĪ":3368,"ä¸įæĸŃ":3369,"æ¡ĥ":3370,"è®®éĻ¢":3371,"ç»ĵåĲĪ":3372,"çļĦä¸Ģç§į":3373,"65":3374,"åĩ¡":3375,"äº§ä¸ļ":3376,"å¥½çļĦ":3377,"å·ŀå¸Ĥ":3378,"åĬĽçļĦ":3379,"edĠ":3380,"æľīäºĽ":3381,"è¾ī":3382,"äºĮä¸ĸ":3383,"ãĢģãĢģ":3384,"è·³":3385,"æĸĩçī©ä¿ĿæĬ¤":3386,"æŁ´":3387,"è¿ħ":3388,"æĸ°åĬłåĿ¡":3389,"Ġ197":3390,"åİ¿çļĦä¸Ģä¸ª":3391,"æŃ¦è£ħ":3392,"æĹº":3393,"åĽ½ç«ĭ":3394,"æĺ¯æĮĩ":3395,"æĻ®éĢļ":3396,"ä¸Ĭæĺł":3397,"å¹´è½»":3398,"ç¼ĵ":3399,"çĨŁ":3400,"å¤§ä½¿":3401,"Ġ195":3402,"ç§ĺä¹¦":3403,"å»ºæĪĲ":3404,"åŁĶ":3405,"64":3406,"æ°ĶåĢĻ":3407,"æİª":3408,"éĢīåĮº":3409,"è§£æĶ¾åĨĽ":3410,"æĸ¯åŁº":3411,"ç¥¥":3412,"ä¸įåı¯":3413,"éģĤ":3414,"æĺŁæľŁ":3415,"300":3416,"æ§":3417,"æĶ¶åħ¥":3418,"åıĸæ¶Ī":3419,"ç¼ĸåı·":3420,"æ½ĺ":3421,"äººæķ°":3422,"ä¸ĸçķĮå¤§æĪĺ":3423,"æĸĩä»¶":3424,"åı¯è¾¾":3425,"å¨ģå°Ķ":3426,"æĬķåħ¥":3427,"å¿«éĢŁ":3428,"æī¿è®¤":3429,"äººåľ¨":3430,"è¥¿æ´ĭ":3431,"ä¸ŃåĽ½äººæ°ĳ":3432,"è¥¿çľģ":3433,"èĳĹåĲį":3434,"ä¸ŃåĽ½åħ±äº§åħļ":3435,"èŃ¦æĸ¹":3436,"å·´è¥¿":3437,"éĿŀæ´²":3438,"å°ĳå¹´":3439,"æĢ»éĥ¨":3440,"ç»´äºļ":3441,"æł¸å¿ĥ":3442,"(\"":3443,"èĩ³å°ĳ":3444,"31":3445,"é¹¿":3446,"å¿Ĩ":3447,"ä¸Ģä¸ĸ":3448,"éļıçĿĢ":3449,"æĸĩçī©ä¿ĿæĬ¤åįķä½į":3450,"è©":3451,"ä½¿çĶ¨çļĦ":3452,"ä»ĵ":3453,"æĿ¡çº¦":3454,"ä»¥èī²":3455,"åĭ¤":3456,"é£İæļ´":3457,"åĽ½åĬ¡":3458,"ä¹ı":3459,"ç¬¬ä¸Ģä¸ª":3460,"èĭĹ":3461,"èĥľåĪ©":3462,"æĸ¯åħĭ":3463,"å¥¥æĸ¯":3464,"å¦Ĥä¸ĭ":3465,"èĳĹä½ľ":3466,"åŃĿ":3467,"åİĦ":3468,"ç¼ħ":3469,"ä¸ĥå¹´":3470,"åĪĽç«ĭ":3471,"ä»¥èī²åĪĹ":3472,"ĠtheĠ":3473,"æ³Ĭ":3474,"åĮĸçļĦ":3475,"éĩįå»º":3476,"ä»¥åĲİ":3477,"49":3478,"esĠ":3479,"è©¹":3480,"ç§Ĵ":3481,"å¥¥æŀĹåĮ¹åħĭè¿ĲåĬ¨ä¼ļ":3482,"è®¿éĹ®":3483,"æĹ¶ä»»":3484,"åĽ¢éĺŁ":3485,"æľªæĿ¥":3486,"ç¬¬åħŃ":3487,"è´¯":3488,"çĮİ":3489,"ov":3490,"çĹħæ¯Ĵ":3491,"and":3492,"åħ¬æ°ĳ":3493,"æ°ĳä¼Ĺ":3494,"çļĦçłĶç©¶":3495,"çļĦå¸Ĥéķĩ":3496,"åįĬå²Ľ":3497,"éĥ½ä¼ļ":3498,"æ±Łèĭı":3499,"og":3500,"èİ²":3501,"æĶ¶å½ķ":3502,"æħķ":3503,"åħģè®¸":3504,"æĴĴ":3505,"Ġ1":3506,"å®ªæ³ķ":3507,"è¯´æ³ķ":3508,"çŀ":3509,"æµĭè¯ķ":3510,"èĳĽ":3511,"è°ĥæķ´":3512,"æĻ¨":3513,"å§Ķä¼ļ":3514,"ut":3515,"ä¼ı":3516,"ç¨ĭåºı":3517,"çĵľ":3518,"andĠ":3519,"å°ĶçļĦ":3520,"æĭīåħĭ":3521,"ä¹ĲåĽ¢":3522,"åĢ¾":3523,"2003å¹´":3524,"æµ·å²¸":3525,"çİĭåĽ½":3526,"èĽĭçĻ½":3527,"ç»ĵå©ļ":3528,"éļ¶å±ŀäºİ":3529,"æĻ¶":3530,"çĶµèĦĳ":3531,"åģľæŃ¢":3532,"åħ¬åĪĨ":3533,"ä½įäºİæ³ķåĽ½":3534,"æ¢¯":3535,"çĶ¨æĿ¥":3536,"é«ĺçŃī":3537,"åį¢çĵ¦":3538,"æ¨¡åŀĭ":3539,"åĵĪå°Ķ":3540,"æħ¢":3541,"Ġ196":3542,"amp":3543,"éĺ¿æĭīä¼¯":3544,"åľ¨è¿Ļ":3545,"éĥ½æľī":3546,"èī²çļĦ":3547,"èĥģ":3548,"æİ¥è¿ĳ":3549,"èĢĥèĻĳ":3550,"è¡ĮæĶ¿åĮºåĪĴ":3551,"ä¸ĭåįĪ":3552,"å±±èĦī":3553,"çĲĥåľº":3554,"è´º":3555,"çĶ¨çļĦ":3556,"æ®ĸæ°ĳ":3557,"åĩĮ":3558,"å°±è¯»":3559,"æĢĿæĥ³":3560,"è¿ĩç¨ĭä¸Ń":3561,"çĶµåı°":3562,"å°¤åħ¶":3563,"èĹ©":3564,"æĪĺåĲİ":3565,"åĳ¨è¾¹":3566,"Ġ2":3567,"æĸ°å¢ŀ":3568,"éĤĢè¯·":3569,"æµ®":3570,"åĮ»çĸĹ":3571,"åľ°ä½į":3572,"çĽ´èĩ³":3573,"åħ³æ³¨":3574,"ç´«":3575,"çİ°æĹ¶":3576,"ak":3577,"2002å¹´":3578,"ç¡ķ":3579,"é¬¼":3580,"çĶ³è¯·":3581,"ä¸Ģå¸¦":3582,"æĥĬ":3583,"èħ¹":3584,"ä¸įæĺİ":3585,"ä¼¯çī¹":3586,"è§Ĥå¯Ł":3587,"åĿİ":3588,"éĩįçĤ¹":3589,"èµ·æĿ¥":3590,"å¹´åº¦":3591,"ç¥ĸçĪ¶":3592,"æĶ¿åħļ":3593,"åĨįåº¦":3594,"åįģåĪĨ":3595,"Ġ2021å¹´":3596,"Ch":3597,"çĽ¸ä¼¼":3598,"è¯¾ç¨ĭ":3599,"44":3600,"ĠK":3601,"å¡ĳ":3602,"åŃ©åŃĲ":3603,"èĬĿ":3604,"188":3605,"ä¹Ķæ²»":3606,"åĮĪ":3607,"av":3608,"Ġ2019å¹´":3609,"æĢª":3610,"ä¿Ĭ":3611,"åĲĪçī©":3612,"è¡¨è¾¾":3613,"é«ĺä¸Ń":3614,"åħ±æľīäººåı£":3615,"Ġè½¦ç«Ļ":3616,"åħ¥ä¾µ":3617,"å£«åħµ":3618,"ä»²":3619,"å®īæİĴ":3620,"æĴ°":3621,"åĲ¨":3622,"æĿ¥è¯´":3623,"ab":3624,"èĭ¦":3625,"æ¯ķä¸ļäºİ":3626,"åĬ±":3627,"ç½ļ":3628,"çļĦå°ı":3629,"Ġ3":3630,"åĪ°è¾¾":3631,"åŃ¦æľ¯":3632,"äººæ°ĳæĶ¿åºľ":3633,"å¹¶æ²¡æľī":3634,"ay":3635,"å¥´":3636,"åĽłèĢĮ":3637,"æĶ¯æı´":3638,"ç§»åĬ¨":3639,"çļĦæĹ¶åĢĻ":3640,"æĺ¯ç¾İåĽ½":3641,"ind":3642,"æ³¥":3643,"æĴŀ":3644,"AT":3645,"éĶĢåĶ®":3646,"å±¿":3647,"åĢĻéĢī":3648,"Ġè¿Ļ":3649,"æĿī":3650,"è·¯æĺĵ":3651,"çĽĹ":3652,"å¤ĸçļĦ":3653,"çĽ®çļĦ":3654,"ç¦Ħ":3655,"æĹłçº¿":3656,"ä¸ºæ³ķåĽ½":3657,"è¯¦":3658,"ä¸§":3659,"ä¼Ĭæĸ¯åħ°":3660,"åĹ":3661,"è¥¿åĵ¥":3662,"åºĶè¯¥":3663,"çĨĬ":3664,"æĹ©å¹´":3665,"Ġè¡ĮæĶ¿":3666,"æĹ¨":3667,"æŃ¤æĹ¶":3668,"å¸Ĥéķ¿":3669,"çİ°è±¡":3670,"ç¢į":3671,"åīįçļĦ":3672,"å¦ĤæŃ¤":3673,"çī¹çļĦ":3674,"Ġ2020å¹´":3675,"éģĹåĿĢ":3676,"âĢĿãĢģ":3677,"çĹĽ":3678,"åıªæĺ¯":3679,"ä»ĸæĽ¾":3680,"å¹¶æľª":3681,"58":3682,"çĶ¨æĪ·":3683,"åıĺæĪĲ":3684,"ç²Ĵ":3685,"åľ°åĪ©":3686,"çĮª":3687,"éĩĳå±ŀ":3688,"æĹ§å¸Ĥéķĩ":3689,"ç±»åŀĭ":3690,"æĬµè¾¾":3691,"å¸ĤåĮº":3692,"ä»İèĢĮ":3693,"æĿĲæĸĻ":3694,"éī":3695,"çļĦé¦ĸ":3696,"æĺİæĺ¾":3697,"åħ«å¹´":3698,"ä¹³":3699,"æĢ»çĿ£":3700,"æĪĸæĺ¯":3701,"èĩªæ²»åĮº":3702,"è´¨éĩı":3703,"Ġ2018å¹´":3704,"éĺħ":3705,"æıĲåįĩ":3706,"é«ĺçļĦ":3707,"å°¼æĸ¯":3708,"çĦ¦":3709,"æŀĦæĪĲ":3710,"å°ĳæķ°":3711,"èģĮåĬ¡":3712,"åºĬ":3713,"è·ĥ":3714,"çĩķ":3715,"å®īè£ħ":3716,"äºİ197":3717,"æŁ³":3718,"åį«æĺŁ":3719,"ç¬¬ä¸ĥ":3720,"å½Ń":3721,"ä¿¡åı·":3722,"æ±¡":3723,"äººåı£å¯Ĩåº¦ä¸ºæ¯ı":3724,"éĢĿä¸ĸ":3725,"68":3726,"å·¥åİĤ":3727,"æĸ¹çļĦ":3728,"åı¯èĥ½æĺ¯":3729,"æŁĲäºĽ":3730,"åĪĹä¸º":3731,"æ¯ĶåĪ©":3732,"ãĢģ(":3733,"å±ı":3734,"çī©è´¨":3735,"æ¡Ĥ":3736,"éĦ":3737,"å¹´éĹ´":3738,"èĪĴ":3739,"ä½ĵç³»":3740,"æģĴæĺŁ":3741,"ç¨³å®ļ":3742,"æĬļ":3743,"åĴ¸":3744,"å¯¹æīĭ":3745,"Ġ193":3746,"èĢĮæĺ¯":3747,"é¡µ":3748,"å¡ĺ":3749,"å¤±åİ»":3750,":.":3751,"ä»ªå¼ı":3752,"åĿĬ":3753,"å¥¥åľ°åĪ©":3754,"éī´":3755,"SEE":3756,"åĩ½æķ°":3757,"åĩºåı£":3758,"çĶ¸":3759,"åĪĽåĬŀ":3760,"ç§ĳçļĦ":3761,"æİī":3762,"éĶģ":3763,"å¢¨è¥¿åĵ¥":3764,"äººåı£æķ°éĩıä¸ºäºº":3765,"ä¸ľè¥¿":3766,"å»ºåĪ¶":3767,"åĲĥ":3768,"æľĭåıĭ":3769,"çĶŁéķ¿":3770,"è°ĵ":3771,"æĲľ":3772,"åĲĮä¸Ģ":3773,"ä¸įè¶³":3774,"æĵįä½ľ":3775,"æİ¥å£¤çļĦå¸Ĥéķĩ":3776,"è¯ļ":3777,"æĸĩç«ł":3778,"æĸĳ":3779,"INSEE":3780,"äºĭä¸ļ":3781,"æĦıè¯Ĩ":3782,"æĻ®éģį":3783,"æ¯ıå¹³æĸ¹åħ¬éĩĮ":3784,"åľ¨199":3785,"ä¸įå¾Ĺ":3786,"æ°§åĮĸ":3787,"çº¬":3788,"çĺ":3789,"ç§»æ°ĳ":3790,"Ġc":3791,"ç¿»è¯ĳ":3792,"ä¸Ģåº¦":3793,"æĹłäºº":3794,"å¨ģèĥģ":3795,"åĬ¨åĬĽ":3796,"åıªèĥ½":3797,"èĤĥ":3798,"å§ĭå»º":3799,"å°ļæľª":3800,"éĤ®æĶ¿ç¼ĸçłģä¸º":3801,"åĬŀåħ¬å®¤":3802,"æł¡éķ¿":3803,"å°Ķçī¹":3804,"ä¸ĢåĲĮ":3805,"çİ°åľº":3806,"å¹¿åĳĬ":3807,"èº«ä½ĵ":3808,"åħ¥åı£":3809,"(;":3810,"æ¡Īä»¶":3811,"è¯ŀ":3812,"åŀĴ":3813,"æĹ¢":3814,"æĮĤ":3815,"æľºæ¢°":3816,"Ġ2017å¹´":3817,"èĥ¶":3818,"åĮĹç¾İ":3819,"éļ§":3820,"å¹³éĿ¢":3821,"ä¸¤ç§į":3822,"çĬ¶åĨµ":3823,"æ¶Īæģ¯":3824,"ä¹Łåľ¨":3825,"éģĹäº§":3826,"åı¬å¼Ģ":3827,"è§ĤçĤ¹":3828,"å¾Ĺä»¥":3829,"éĺŁçļĦ":3830,"å¤ĦçļĦ":3831,"äº¤æµģ":3832,"å¾ª":3833,"è¡¨æĺİ":3834,"æĦıä¹ī":3835,"æĿĥåĬĽ":3836,"æ°ĳä¸»åħļ":3837,"èĩªè¡Į":3838,"æĽ´åĲįä¸º":3839,"ä¸ºä¸Ģ":3840,"åįĹåĮĹ":3841,"å¼ĺ":3842,"çľĭåĪ°":3843,"åİ¿äºº":3844,"åĭĥ":3845,"çŁ¥éģĵ":3846,"æĮĳæĪĺ":3847,"æķ°åŃĹ":3848,"èģĶç³»":3849,"èģĶåĲĪåĽ½":3850,"çķĶ":3851,"åĽ¾ä¹¦é¦Ĩ":3852,"æħ§":3853,"ç¦ģæŃ¢":3854,"æıĲé«ĺ":3855,"åħ¥éĢī":3856,"å§Ĩæĸ¯":3857,"ä»ĸæĺ¯":3858,"åĵģçīĮ":3859,"æłĩå¿Ĺ":3860,"åģ¥åº·":3861,"æĭĵ":3862,"å²³":3863,"åĪĽéĢł":3864,"æ¬§åħĥ":3865,"ĠO":3866,"å±¯":3867,"èĳ¡èĲĦçīĻ":3868,"ç¥Ŀ":3869,"42":3870,"Ġ2016å¹´":3871,"ev":3872,"ä¼ļçļĦ":3873,"è¢ĸ":3874,"å¸ĥæĭī":3875,"åıĳçĶµ":3876,"ãĢĭ()":3877,"æķĪåĬĽ":3878,"å¤ıä»¤æĹ¶":3879,"åľŁèĢ³":3880,"ä¹¾":3881,"çº·":3882,"éĩĮçļĦ":3883,"å¤§éģĵ":3884,"æ£®æŀĹ":3885,"æľīäºº":3886,"æĪĴ":3887,"ä¹Ŀå¹´":3888,"åıĳèµ·":3889,"äººåı£å¯Ĩåº¦æ¯ıå¹³æĸ¹åħ¬éĩĮ":3890,"åŃĹæ¯į":3891,"æįĲ":3892,"åľŁèĢ³åħ¶":3893,"æ°¢":3894,"ç®±":3895,"æ°´å¹³":3896,"å¤±è´¥":3897,"åŃĲçļĦ":3898,"å¸Ĥéķĩç¼ĸçłģä¸º":3899,"INSEEå¸Ĥéķĩç¼ĸçłģä¸º":3900,"å½ĵæĹ¶çļĦ":3901,"ãĢİ":3902,"ud":3903,"å¹³æĸ¹ç±³":3904,"åİĨåı²ä¸Ĭ":3905,"ãĢı":3906,"å¹¶éĿŀ":3907,"åħ½":3908,"çĳŀåħ¸":3909,"åįĳ":3910,"äºİæĹ¶çļĦ":3911,"åĮ»åŃ¦":3912,"äºİæĹ¶çļĦäººåı£æķ°éĩıä¸ºäºº":3913,"æ£ĭ":3914,"éĢīåĮºä¸º":3915,"ç¾İåĽ½äººåı£æĻ®æŁ¥çļĦæķ°æį®":3916,"äººåı£å¯Ĩåº¦ä¸ºæ¯ıå¹³æĸ¹åįĥç±³":3917,"æĻĵ":3918,"èĢĮäººåı£å¯Ĩåº¦ä¸ºæ¯ıå¹³æĸ¹åįĥç±³":3919,"å½ĵåľ°åħ±æľīäººåı£":3920,"æ²³åĮĹ":3921,"åľ³":3922,"ĠJ":3923,"åį¿":3924,"æµħ":3925,"çī¹æ®Ĭ":3926,"è¯¥çľģä»½":3927,"æĪĸæĹ§å¸Ĥéķĩ":3928,"å»¶ä¼¸":3929,"å¼ºè°ĥ":3930,"éħĴåºĹ":3931,"çļĦæĸ¹å¼ı":3932,"çľģçº§éĢīåĮºä¸º":3933,"æīĢå±ŀçļĦçľģçº§éĢīåĮºä¸º":3934,"å¸ĥé²ģ":3935,"åį«çĶŁ":3936,"æľ¬åľŁ":3937,"Ġ2022å¹´":3938,"est":3939,"ç¼ĸè¾ĳ":3940,"æĺ¯ä¸ĢåĲį":3941,"çļĦåİŁ":3942,"è¯¥çľģä»½ä¸ºæ³ķåĽ½":3943,"èĢĮè¯¥åľ°":3944,"åĲİèĢħ":3945,"å¥ĸé¡¹":3946,"ä¸Ńå±±":3947,"187":3948,"æķĻåĮº":3949,"åĳ½ä»¤":3950,"éľĢæ±Ĥ":3951,"äººå¤§":3952,"éģ¿åħį":3953,"æĬ¥å¯¼":3954,"åıĹä¼¤":3955,"èĲ¥è¿Ĳ":3956,"ä¼°è®¡":3957,"è½°çĤ¸":3958,"ç¼ºä¹ı":3959,"è¿ħéĢŁ":3960,"æĹ¦":3961,"ç¬¬1":3962,"æıĲåĲį":3963,"åħ¶ä½Ļ":3964,"æµ·åŁŁ":3965,"äºİ194":3966,"æī°":3967,"åĽĽä¸ª":3968,"èĳĹåĲįçļĦ":3969,"æĲ¬":3970,"æ³¨æĦı":3971,"æ¬¢è¿İ":3972,"çĶŁåĳ½":3973,"å¸ĤçļĦ":3974,"å¿ĥçĲĨ":3975,"éļ§éģĵ":3976,"æĶ¿æĿĥ":3977,"éĥĬ":3978,"åī©":3979,"è¾¾æĪĲ":3980,"åĲ¸å¼ķ":3981,"çĹĩçĬ¶":3982,"å®īå¾·":3983,"æıĴ":3984,"é²į":3985,"åĸĢ":3986,"éĩĳçīĮ":3987,"è§ĦåĪĻ":3988,"ä»ĭç»į":3989,"ä¹ĺå®¢":3990,"å¤§è¥¿æ´ĭ":3991,"æĸ¯å¡Ķ":3992,"å¤ĸåĽ½":3993,"éĩĳèŀį":3994,"æķĻç»ĥ":3995,"eg":3996,"æĿĨ":3997,"æĴ¤éĶĢ":3998,"çİ»":3999,"ä¾¦":4000,"éľ¸":4001,"ä¸²":4002,"çļĦç¬¬ä¸Ģ":4003,"äººåĴĮ":4004,"åı¯èĥ½ä¼ļ":4005,"è´ŀ":4006,"éĥ¨èĲ½":4007,"å´İ":4008,"SA":4009,"ä¸»å¼ł":4010,"æĪĲä¸ºäºĨ":4011,"æķ°åŃ¦":4012,"å¹¶å°Ĩ":4013,"Ġ2014å¹´":4014,"èĢĮè¢«":4015,"éĵ¾":4016,"ia":4017,"67":4018,"tion":4019,"æĦŁåĪ°":4020,"åħ¬ä¼Ĺ":4021,"æ¬²":4022,"å½¼å¾Ĺ":4023,"400":4024,"èĥİ":4025,"ers":4026,"ä¹Łè¢«":4027,"äºĭå®ŀ":4028,"å°Ķåħ°":4029,"æķĻå¸Ī":4030,"ä»¿":4031,"éĩĩåıĸ":4032,"ä½ĵéķ¿":4033,"åħ¨éķ¿":4034,"99":4035,"æµĵ":4036,"Ġ2015å¹´":4037,"æİ¨åĬ¨":4038,"è¹":4039,"ä¹ĭä¸ĭ":4040,"ä¼łè¯´":4041,"èµĦè®¯":4042,"è´Ńä¹°":4043,"åħ¶å®ĥ":4044,"ä¿¡ä»°":4045,"150":4046,"æī§å¯¼":4047,"æŀ¢":4048,"çĲĨäºĭ":4049,"é¼ł":4050,"ä¸Ńåħ±ä¸Ńå¤®":4051,"æľ¬èº«":4052,"çļĦä¸Ģåº§":4053,"è¯¢":4054,"TheĠ":4055,"ä¼Ļ":4056,"ç¥ŀç»ı":4057,"å½»":4058,"èĽĩ":4059,"åįĵ":4060,"æĸ¯èĴĤ":4061,"æĶ¾å¼ĥ":4062,"åıĪåĲį":4063,"æķĻåŃ¦":4064,"æľĢåĲİä¸Ģ":4065,"\",":4066,"æĴŃæĶ¾":4067,"éĩįåºĨ":4068,"äº¦æľī":4069,"åįģåŃĹ":4070,"âĢĿãĢģâĢľ":4071,"æ³ķæ¡Ī":4072,"æĽ´å¤ļ":4073,"ç¨ĭå¼ı":4074,"åıĤèĢĥ":4075,"Ġ2013å¹´":4076,"è¥¿æĸ¹":4077,"è´¡çĮ®":4078,"Ġs":4079,"æĭ³":4080,"ç½ĳè·¯":4081,"åįĹæŀģ":4082,"186":4083,"æīĵåĩ»":4084,"åľ°çļĦ":4085,"åĩºæĪĺ":4086,"äºİ196":4087,"å£®":4088,"èĭ±éĽĦ":4089,"å®¹æĺĵ":4090,"ell":4091,"ul":4092,"ç¬ĳ":4093,"åİĺ":4094,"åĨĽçļĦ":4095,"æ³°åĽ½":4096,"ç§¯æŀģ":4097,"æĵİ":4098,"å½ĵå±Ģ":4099,"æĺ¯ä¸Ģä½į":4100,"æĬĹè®®":4101,"åĸľæ¬¢":4102,"åĽ½åĬ¡éĻ¢":4103,"æıŃ":4104,"æĺ¯æĹ¥æľ¬":4105,"åī²":4106,"çİ°ä»»":4107,"äºĭæķħ":4108,"ä¹Ŀé¾Ļ":4109,"å¤ºå¾Ĺ":4110,"ĠæŃ¤":4111,"çīł":4112,"åħ¨éĿ¢":4113,"äºİ195":4114,"è¯ģæį®":4115,"åĲ¯çĶ¨":4116,"æĢ§è´¨":4117,"æİ¥è§¦":4118,"äºŃ":4119,"éĺŁä¼į":4120,"æ´Ĺ":4121,"åįľ":4122,"è£ħçĶ²":4123,"æī®":4124,"ä¹Łä¼ļ":4125,"å°Ŀ":4126,"ç»ĵæĿŁåĲİ":4127,"åįģä¸Ģ":4128,"èµĲ":4129,"çŁ¥è¯Ĩ":4130,"å±Ĭåħ¨åĽ½":4131,"çļĦéĩįè¦ģ":4132,"èĤº":4133,"åĲİæľŁ":4134,"å¼ºçĥĪ":4135,"æ¹ĸåĮĹ":4136,"å¤ļç§į":4137,"çªĹ":4138,"èĬ³":4139,"æ¶īåıĬ":4140,"åľ¨åħ¶":4141,"æĮª":4142,"å®īå¾½":4143,"å¦Ĥä½ķ":4144,"å±ķç¤º":4145,");":4146,"èĢĮæĪĲ":4147,"çĸı":4148,"Ġ4":4149,"å¤įæĿĤ":4150,"åŃ¦ä¼ļ":4151,"æ¼ĶåĶ±ä¼ļ":4152,"Ġd":4153,"ä¸ĸçķĮæĿ¯":4154,"çł²":4155,"ä¸ĩåħĥ":4156,"çŁ¥åİ¿":4157,"å®Įæķ´":4158,"çļĦæµ·":4159,"èı²å¾ĭ":4160,"åĴĮåħ¶ä»ĸ":4161,"éĩĮäºļ":4162,"èı²å¾ĭå®¾":4163,"æĿŃ":4164,"çĻ½èī²":4165,"ç¬¬2":4166,"ç»´å¥ĩ":4167,"ç¾½æ¯Ľ":4168,"çİĦ":4169,"ä¸ĩç¾İåħĥ":4170,"åħ¬ä¸»":4171,"çĪ±å°Ķåħ°":4172,"åĩºçİ°åľ¨":4173,"è´«":4174,"èį¯çī©":4175,"æĬ¢":4176,"éĩĮæĸ¯":4177,"ç¾İæľ¯":4178,"åħīç»ª":4179,"78":4180,"59":4181,"æĸĩçĮ®":4182,"æĿĳåºĦ":4183,"æĦıè§ģ":4184,"çļĦåľ°æĸ¹":4185,"è±Ĩ":4186,"éĢĴ":4187,"éĵº":4188,"æ°ĳéĹ´":4189,"ä»Ģä¹Ī":4190,"2äºº":4191,"æ¸Ķ":4192,"å¼ķæĵİ":4193,"éĢĨ":4194,"åĨħéĺģ":4195,"åŁĥåıĬ":4196,"å¸Ĥæ°ĳ":4197,"å£³":4198,"æĿĥåĪ©":4199,"åĪĽå»º":4200,"æĹħå®¢":4201,"å«Į":4202,"è¿Ļæ¬¡":4203,"åĢĻéĢīäºº":4204,"è´´":4205,"é«ĺéĽĦ":4206,"56":4207,"ob":4208,"æ¹¿":4209,"3äºº":4210,"æĬ½":4211,"çĬ¬":4212,"å®¢è¿Ĳ":4213,"çĪ¶æ¯į":4214,"é¢ĨåľŁ":4215,"èĲ¨åħĭ":4216,"ç®Ģåįķ":4217,"å¾ĭå¸Ī":4218,"æº¶":4219,"çº¢èī²":4220,"æĿ°åħĭ":4221,"äººå·¥":4222,"å°ıçļĦ":4223,"æİĪäºĪ":4224,"æİªæĸ½":4225,"æĭīä¸ģ":4226,"Ġ2023å¹´":4227,"éĽĩ":4228,"è¡¨éĿ¢":4229,"å®ļä¸º":4230,"çĮ«":4231,"Ġå¤§":4232,"éĻ¢éķ¿":4233,"ç®Ģä»ĭ":4234,"å¦ĥ":4235,"ä¹¾éļĨ":4236,"An":4237,"èŀº":4238,"èĤ¡ä»½":4239,"NA":4240,"æķĪæŀľ":4241,"çŃ¾ç½²":4242,"åĩºéģĵ":4243,"èģĺ":4244,"è±¡å¾ģ":4245,"å¯Ħ":4246,"ç²®":4247,"åıĳåĶ®":4248,"èį£èªī":4249,"æĦıä¸º":4250,"æĭīå¤«":4251,"å°ī":4252,"1äºº":4253,"ĠV":4254,"éĻįä½İ":4255,"å£°ç§°":4256,"æĿ¥åĪ°":4257,"é£ĵ":4258,"æ·±åľ³":4259,"æĤ¬":4260,"å½¢è±¡":4261,"åľ°éľĩ":4262,"åħĭç½Ĺ":4263,"ep":4264,"äºļåİĨ":4265,"ç¡®è®¤":4266,"ç¡®è¯Ĭ":4267,"åĽłç´ł":4268,"ä¸ľåĮĹéĥ¨":4269,"å·§":4270,"Ġ6":4271,"ç¢³":4272,"æĮīçħ§":4273,"çĬ¯ç½ª":4274,"é£ĵé£İ":4275,"çĽ¾":4276,"çĪĨçĤ¸":4277,"åıĶ":4278,"è¿Ł":4279,"éķ¿åº¦":4280,"ä¹Łåı¯ä»¥":4281,"åĮ»çĶŁ":4282,"é¢Ĩè¢ĸ":4283,"ç«ŀäºī":4284,"åľ°çĤ¹":4285,"è¢ģ":4286,"ä½ľèĢħ":4287,"TV":4288,"çħ¤":4289,"tw":4290,"ok":4291,"å°Ĩä¼ļ":4292,"ang":4293,"ä¼łæĴŃ":4294,"å·®å¼Ĥ":4295,"è¢«è®¤ä¸ºæĺ¯":4296,"åıĳåĩº":4297,"ç¨¿":4298,"å®ı":4299,"æ´ģ":4300,"æĽ´åĬł":4301,"ä¸ĵéĹ¨":4302,"ä¸Ī":4303,"æĸľ":4304,"æĸĩåŃĹ":4305,"ä¼ĬæľĹ":4306,"åıĻåĪ©äºļ":4307,"ä¸įæ»¡":4308,"å®ŀéĻħä¸Ĭ":4309,"çļĦé«ĺ":4310,"ä¸ĵå®¶":4311,"ç¾Ĭ":4312,"åİĭåĬĽ":4313,"åı¤ä»£":4314,"ä¸¾è¡ĮçļĦ":4315,"æ°Ķè±¡":4316,"88":4317,"ä¸Ļ":4318,"å¯¹æŃ¤":4319,"å·¥åħ·":4320,"ä¹¡è¯ķ":4321,"èµĦéĩĳ":4322,"Â°":4323,"Ġb":4324,"åı°åįĹ":4325,"åŁºçĿ£æķĻ":4326,"åĽĽåįģ":4327,"æĪıåī§":4328,"çīµ":4329,"æ¯ĶèµĽä¸Ń":4330,"èĨľ":4331,"èµ·æºĲ":4332,"èħ¾":4333,"57":4334,"=\"":4335,"æĬ¼":4336,"å°¸":4337,"å°ļä¹¦":4338,"æ²³çķĶ":4339,"æįŁå¤±":4340,":\"":4341,"ï½":4342,"åĨĴ":4343,"é«ĺäºİ":4344,"å¤ļå¹´":4345,"å¡«":4346,"ç»ĻäºĪ":4347,"æľīä¸Ģä¸ª":4348,"è¾¹çķĮ":4349,"é³įé±¼":4350,"ä¸ľæĸ¹":4351,"å¸ĪèĮĥ":4352,"çĸ¾çĹħ":4353,"è¾©":4354,"åĿ¦åħĭ":4355,"çĽ¸æ¯Ķ":4356,"ç»ıéªĮ":4357,"è¡į":4358,"æĺ¯ä»¥":4359,"çĹħä¾ĭ":4360,"å¥ĳ":4361,"çĲĥä¼ļ":4362,"è£ķ":4363,"éĴ¦":4364,"æľīæīĢ":4365,"åľ¨æĹ¥æľ¬":4366,"ä½ľæĽ²":4367,"ä¸¾äºº":4368,"äº¨åĪ©":4369,"isĠ":4370,"ä»ĳ":4371,"ä¸Ģå®ļ":4372,"è¡°":4373,"å§»":4374,"1998å¹´":4375,"æłĩä¸º":4376,"åĩºå¸Ń":4377,"æ°Ł":4378,"ç½¢":4379,"åĪĹè¡¨":4380,"ĠSt":4381,"è¸ª":4382,"éĢĢå½¹":4383,"éĿ¢å¯¹":4384,"å·¡åĽŀ":4385,"ä¸įä»ħ":4386,"å½ĵå¹´":4387,"çļĦä¸ī":4388,"çļĦä½ľåĵģ":4389,"é¸¡":4390,"æĺİæ²»":4391,"çº¦ä¸º":4392,"æĶ¹åĸĦ":4393,"æĢ§åĪ«":4394,"çĻ»éĻĨ":4395,"è¥¿èĹı":4396,"èĮĤ":4397,"ä½ıå®ħ":4398,"å²ģçļĦ":4399,"è²":4400,"çĲī":4401,"ä¹ĭä¸Ń":4402,"ä¸¤å¹´":4403,"æĶ¹éĢł":4404,"åı¸æ³ķ":4405,"å¹¶åħ¥":4406,"åĪĹåħ¥":4407,"åĽŀåºĶ":4408,"åħĭèİ±":4409,"ç«Ļåı°":4410,"å®Ļ":4411,"çİĩé¢Ĩ":4412,"éĤ£éĩĮ":4413,"è´µæĹı":4414,"ew":4415,"66":4416,"èĪŀåı°":4417,"1999å¹´":4418,"è½¬ç§»":4419,"åĪ¶çļĦ":4420,"eb":4421,"ç¤¾ä¼ļä¸»ä¹ī":4422,"å¦Ī":4423,"å®ŀè¡Į":4424,"å£°æĺİ":4425,"åĨ¬åŃ£":4426,"CD":4427,"åľ°éĿ¢":4428,"ç²¹":4429,"ç§įæĹı":4430,"èĭ±å°º":4431,"çĶµè½¦":4432,"æ¾³æ´²":4433,"èĤ¥":4434,"åŁºåĽł":4435,"åıĤè°ĭ":4436,"åĸ·":4437,"åħ³éĹŃ":4438,"åĳ½åĲįä¸º":4439,"èįĴ":4440,"æµģåŁŁ":4441,"åĥ§":4442,"æµ·æ´ĭ":4443,"æĪĲæľ¬":4444,"You":4445,"åıĤåĬłäºĨ":4446,"å¥¹åľ¨":4447,"è£ħç½®":4448,"ä¸Ģå®¶":4449,"æĩ":4450,"éģµ":4451,"çĭĦ":4452,"Ġ2012å¹´":4453,"54":4454,"ç¤ºå¨ģ":4455,"è¯ŃçļĦ":4456,"å½¢æĢģ":4457,"çĸ«æĥħ":4458,"æµ©":4459,"æīįèĥ½":4460,"åıĺå¾Ĺ":4461,"å²ģæĹ¶":4462,"ç¡ķå£«":4463,"åľ¨ä¸ŃåĽ½":4464,"èĬ¬åħ°":4465,"é¸¿":4466,"å´Ķ":4467,"çİĽä¸½":4468,"åĳ¨å¹´":4469,"ç¬¦åĲĪ":4470,"é©±éĢĲ":4471,"æĦıæĢĿ":4472,"åħ¬åı¸çļĦ":4473,"åį³ä½¿":4474,"é«ĺéĢŁåħ¬è·¯":4475,"æľºåĻ¨":4476,"æµĭéĩı":4477,"æµ·å¤ĸ":4478,"çļĦåĽ½å®¶":4479,"é³įé±¼çº²":4480,"æŃ£å¸¸":4481,"å¸ħ":4482,"éĢļè½¦":4483,"èİ«æĸ¯ç§ĳ":4484,"æĸ°çĸĨ":4485,"å±Ģéķ¿":4486,"å²Ĺ":4487,"è¾ĥä¸º":4488,"BC":4489,"ç±³çļĦ":4490,"æĥħæĬ¥":4491,"åı¦ä¸Ģä¸ª":4492,"é¥Ń":4493,"çĶµåĬĽ":4494,"é¡¾éĹ®":4495,"å¯¹è±¡":4496,"å¼Ģè®¾":4497,"èĭıæł¼åħ°":4498,"å¼¥":4499,"éħįåĲĪ":4500,"æ··åĲĪ":4501,"é£Łçī©":4502,"æĢĴ":4503,"åĩºæĿ¥":4504,"ä¿®æĶ¹":4505,"all":4506,"æ¶µ":4507,"å§Ķä¹¦è®°":4508,"æĶ¶è´Ń":4509,"éĻĦè¿ĳçļĦ":4510,"æĻļä¸Ĭ":4511,"åı°åĮĹå¸Ĥ":4512,"Ġèĩª":4513,"åĵ²åŃ¦":4514,"ä¿ĺ":4515,"å¾Īå¿«":4516,"æķ´ä½ĵ":4517,"è¾Ĳé³įé±¼çº²":4518,"èĢĹ":4519,"çģ«ç®Ń":4520,"å¹¶ä»¥":4521,"åĩłä¸ª":4522,"éĻĨåľ°éĿ¢ç§¯ä¸º":4523,"çŁ¥åĲį":4524,"åĪĨéħį":4525,"æ°´åŁŁéĿ¢ç§¯ä¸º":4526,"3ä¸ª":4527,"æ¬£":4528,"10å¹´":4529,"æ¶¦":4530,"æī©å¤§":4531,"up":4532,"åŃ¤":4533,"éħįéŁ³":4534,"52":4535,"èĢĢ":4536,"å·¥äºº":4537,"å¼ĢéĢļ":4538,"åĮĪçīĻ":4539,"æŃĩ":4540,"æ¯Ķä¾ĭ":4541,"çŁ¶":4542,"çĭĤ":4543,"æ³ķå®ĺ":4544,"ä¸Ģåº§":4545,"ä¸ľåįĹéĥ¨":4546,"äº¿åħĥ":4547,"èµ¶":4548,"å¹¿ä¸ľçľģ":4549,"å¯¼å¼¹":4550,"æĮªå¨ģ":4551,"åĮĪçīĻåĪ©":4552,"çļĦåİĨåı²":4553,"åľ¨è¯¥":4554,"ä¹ĭåŃĲ":4555,"èĢĮè¨Ģ":4556,"åĤħ":4557,"ä¸ĢæĿ¡":4558,"å¢ŀéķ¿":4559,"ç¥Ģ":4560,"æĥ¯":4561,"è£ħå¤ĩ":4562,"çĭ®":4563,"çļĦæĹ¶éĹ´":4564,"éĻĢ":4565,"åº·çĨĻ":4566,"å¯¸":4567,"çľģåĴĮ":4568,"ç¿Į":4569,"ï½ŀ":4570,"ä»»èģĮ":4571,"åıĳçİ°äºĨ":4572,"leĠ":4573,"è¯·æ±Ĥ":4574,"åĲĮçĽŁ":4575,"åŁĥå°Ķ":4576,"æıĲåĪ°":4577,"æµ·å³¡":4578,"æģĲæĢ":4579,"ik":4580,"çĶ¨ä½ľ":4581,"åĬ¨ä½ľ":4582,"åŀĤ":4583,"æĪĺçķ¥":4584,"ç¥¨æĪ¿":4585,"å½ĵä¸ŃéĻĨåľ°éĿ¢ç§¯ä¸º":4586,"èĢĮæ°´åŁŁéĿ¢ç§¯ä¸º":4587,"ĠI":4588,"çļĦä¸Ń":4589,"ç§ĺå¯Ĩ":4590,"uc":4591,"å¤ªåŃĲ":4592,"èĦĤ":4593,"å¤·":4594,"åİ¢":4595,"ä¸ĭéĻį":4596,"æŁĶ":4597,"98":4598,"ç§ģäºº":4599,"ç²¤":4600,"äºļåİĨå±±":4601,"ä¸ĭæĿ¥":4602,"18å¹´":4603,"æŃ¦æ±ī":4604,"æĤī":4605,"å¸ĥå°Ķ":4606,"ç¼ħçĶ¸":4607,"åįİçĽĽ":4608,"çĭĹ":4609,"éĢĢä¼ĳ":4610,"ip":4611,"çĶŁçļĦ":4612,"éĹ´çļĦ":4613,"éĥ¨çļĦ":4614,"èµ·ä¹ī":4615,"åĩºæ¼Ķ":4616,"å§ļ":4617,"åĽŀå½Ĵ":4618,"æ»ļ":4619,"æŃ¥åħµ":4620,"è¦ĨçĽĸ":4621,";-":4622,"Ġè¡ĮæĶ¿åĮºåĪĴ":4623,"76":4624,"ä¸ĬåįĪ":4625,"è¯´æĺİ":4626,"ç¼ĸåī§":4627,"ç¢İ":4628,"éĢ¢":4629,"è§Ĥæµĭ":4630,"ä¸ŃåĽ½äººæ°ĳè§£æĶ¾åĨĽ":4631,"æľĢè¿ĳ":4632,"éĩįå¤§":4633,"çĮĽ":4634,"åĬ³åĬ¨":4635,"æī¾åĪ°":4636,"ä¸ºè¾Ĳé³įé±¼çº²":4637,"ä½ĵéķ¿åı¯è¾¾":4638,"OS":4639,"æ·±åº¦":4640,"çģĮ":4641,"æİ¨è¿Ľ":4642,"åįİçĽĽé¡¿":4643,"è¢«è¿«":4644,"é¢Ħè®¡":4645,"å½°":4646,"èĬĴ":4647,"åĲĪçº¦":4648,"åĬŀäºĭ":4649,"åħ´è¶£":4650,"å¥¥è¿Ĳä¼ļ":4651,"æĳĩ":4652,"åĪ¸":4653,"ç»Ħå»º":4654,"çľŁæŃ£":4655,"53":4656,"ç¬¬åħ«":4657,"ç»ıåħ¸":4658,"é©¬å°Ķ":4659,"è¯ķéªĮ":4660,"åºŀ":4661,"åĳ¨åĽ´":4662,"çļĦéĹ®é¢ĺ":4663,"é£İéĻ©":4664,"æºĲèĩª":4665,"å°Ŀè¯ķ":4666,"ç¾İåĨĽ":4667,"ä¿ĿåŃĺ":4668,"ä¸ºæŃ¢":4669,"åĬłçĽŁ":4670,"å¼ķåħ¥":4671,"æĬķéĻį":4672,"éĺ²å¾¡":4673,"å¾¡åı²":4674,"æłĸæģ¯åľ¨":4675,"å¹¿è¥¿":4676,"æ»©":4677,"èĬ±åĽŃ":4678,"æĿĢæŃ»":4679,"if":4680,"ç¬¼":4681,"å»Ĭ":4682,"åľ°åĽ¾":4683,"åĮĹèµ·":4684,"ä¼ª":4685,"åĳİ":4686,"Ġ2024å¹´":4687,"åģ·":4688,"å²Ľå±¿":4689,"åĬ¿åĬĽ":4690,"âĢ¦âĢ¦":4691,"éĺª":4692,"åĮĹäº¬å¸Ĥ":4693,"æľ¬ç«Ļ":4694,"èįĲ":4695,"éļıåį³":4696,"ĠæĽ¾":4697,"å¥İ":4698,"è´£ä»»":4699,"ex":4700,"ä¸Ńæľī":4701,"ä»£è¡¨å¤§ä¼ļ":4702,"ha":4703,"Ġä»İ":4704,"å¤§è§Ħæ¨¡":4705,"éĢ»":4706,"ä¸İåħ¶ä»ĸ":4707,"èĤĸ":4708,"å£°éŁ³":4709,"1997å¹´":4710,"çļĦæĥħåĨµä¸ĭ":4711,"().":4712,"ä»¥åīį":4713,"éħ¶":4714,"æĹĹä¸ĭ":4715,"å¸¦æĿ¥":4716,"è®ºæĸĩ":4717,"çĶ¨éĢĶ":4718,"çĶŁæĢģ":4719,"åįģåħ«":4720,"1992å¹´":4721,"1996å¹´":4722,"åĽ½å®¶éĺŁ":4723,"çıĬ":4724,"BA":4725,"ĠU":4726,"ä¾ł":4727,"å¯¹å¤ĸ":4728,"æ¸©åº¦":4729,"è®²è¿°":4730,"ist":4731,"åĲ¾":4732,"77":4733,"äº¿ç¾İåħĥ":4734,"çħ§çīĩ":4735,"æŀĿ":4736,"è¿Ĳä½ľ":4737,"ç»ĦæĪĲçļĦ":4738,"ä¿ĥè¿Ľ":4739,"ä»£çłģ":4740,"å¯¹åºĶ":4741,"43":4742,"çļĦæĶ¯æĮģ":4743,"æľĢå¤ļ":4744,"ä¼ĺåĬ¿":4745,"è½¯ä»¶":4746,"å¾ĹçŁ¥":4747,"è§£æķ£":4748,"æ¹ĺ":4749,"ç¿ģ":4750,"ä¸¤æ¬¡":4751,"æĮĩå¯¼":4752,"å¤«äºº":4753,"è°ĪåĪ¤":4754,"çĴĥ":4755,"èµĭ":4756,"éļľç¢į":4757,"åĲįä¹ī":4758,"å¨ĥ":4759,"åĵ¥ä¼¦":4760,"å¤ıåŃ£å¥¥æŀĹåĮ¹åħĭè¿ĲåĬ¨ä¼ļ":4761,"å¹´é¾Ħ":4762,"Ġm":4763,"åįģä¸ī":4764,"æŀĦéĢł":4765,"ä¿®å»º":4766,"éĺĶ":4767,"ç»ıçĲĨ":4768,"èĥ¸":4769,"åľ¨å¤§":4770,"å¼¦":4771,"åı°ä¸Ń":4772,"æģĲæĢĸ":4773,"çļĦå·¥ä½ľ":4774,"éŃĤ":4775,"éļ¾ä»¥":4776,"åįµ":4777,"æłı":4778,"å°ıåŀĭ":4779,"æĮĩæİ§":4780,"ä¸ĩåİĨ":4781,"ä»ĩ":4782,"äºĨè§£":4783,"41":4784,"Ġæ¦Ĥ":4785,"ä»ĸè¿ĺ":4786,"åİĨä»»":4787,"åĲĲ":4788,"è¢«è§Ĩä¸º":4789,"ä¸Ĭæµ·å¸Ĥ":4790,"art":4791,"Ġ5":4792,"æľ´":4793,"è¥¿åįĹéĥ¨":4794,"çļĦå±±":4795,"é©¬æĭī":4796,"æ¯ķä¸ļåĲİ":4797,"é©¾é©¶":4798,"éĤ£äºĽ":4799,"hans":4800,"çļĦå¤ĸ":4801,"åĲı":4802,"ä¸īè§Ĵ":4803,"çļĦåıĳå±ķ":4804,"åıł":4805,"æ·ĺ":4806,"1945å¹´":4807,"åħĭæĭī":4808,"éĤ¨":4809,"æ³¨åĨĮ":4810,"hk":4811,"Ġof":4812,"å©ļå§»":4813,"å®ĩå®Ļ":4814,"indow":4815,"æī®æ¼Ķ":4816,"è¥¿å®ī":4817,"çŃīçŃī":4818,"ç½ĳçĲĥ":4819,"Ġ2011å¹´":4820,"å±ł":4821,"åĮĸçŁ³":4822,"æĳĦå½±":4823,"ç¡«":4824,"åĬłå¼º":4825,"æ¬¡å¹´":4826,"éĩıçļĦ":4827,"èħĲ":4828,"éĶĻè¯¯":4829,"ard":4830,"æĲº":4831,"å¹´ä»£":4832,"åĨĽåĮº":4833,"èĪ±":4834,"åı°é£İ":4835,"1988å¹´":4836,"æ·¡æ°´":4837,"95":4838,"å½¦":4839,"å®¶äºº":4840,"å¤ªç©º":4841,"æŁıæŀĹ":4842,"Ġp":4843,"é¢ľèī²":4844,"åľ¨é¦Ļæ¸¯":4845,"åįģåħŃ":4846,"èĦĬ":4847,"æľįå½¹":4848,"åĲĪæĪĲ":4849,"éĻĨç»Ń":4850,"éĢ®":4851,"è²Į":4852,"åĺ´":4853,"AR":4854,"1994å¹´":4855,"å®¶çļĦ":4856,"éĢĢåĩº":4857,"é¹°":4858,"ä»ĸè¢«":4859,"åįĹéĿŀ":4860,"BS":4861,"åĬłåĪ©":4862,"éĢļéģĵ":4863,"æĶ¿åįı":4864,"åįĹæĸ¹":4865,"æŃ§":4866,"éļ¶å±ŀ":4867,"äºİ193":4868,"åİŁä½ı":4869,"Ġ2010å¹´":4870,"æĹ¬":4871,"è¥¿åĮĹéĥ¨":4872,"ç¨į":4873,"æ±Łè¥¿":4874,"åıī":4875,"æĶ¿åºľçļĦ":4876,"ant":4877,"åħĭçļĦ":4878,"1949å¹´":4879,"çĲĥåŃ£":4880,"ç³»ç»ŁçļĦ":4881,"ä»·æł¼":4882,"éĩĬæĶ¾":4883,"AM":4884,"ä¹ĲéĺŁ":4885,"ï¼ı":4886,"å®ļå±ħ":4887,"ill":4888,"Ġ10":4889,"å¤§èµĽ":4890,"åĳĪçİ°":4891,"çļĦæķħäºĭ":4892,"ä¸Ģèĩ´":4893,"çĽ¸ä¿¡":4894,"ä½ľåĩº":4895,"å¸¦æľī":4896,"ç¬¬3":4897,"qu":4898,"é¦ĸåħĪ":4899,"å¨ĺ":4900,"ä¿Ŀç½Ĺ":4901,"åĪĨåĪ«ä¸º":4902,"åĪ·":4903,"ç¿ł":4904,"åħ¼ä»»":4905,"éĹ½":4906,"æģ°":4907,"æİĴè¡Į":4908,"ĠçļĦæĹ¶åĮºä¸º":4909,"ĠäºİæĹ¶çļĦäººåı£æķ°éĩıä¸ºäºº":4910,"ĠæīĢå±ŀçļĦçľģçº§éĢīåĮºä¸º":4911,"æīĢå±ŀ":4912,"éº¦åħĭ":4913,"éĺ¶çº§":4914,"Ġä¸İæİ¥å£¤çļĦå¸Ĥéķĩ":4915,"ĠçļĦéĤ®æĶ¿ç¼ĸçłģä¸º":4916,"ä¸¤åĲį":4917,"èĿ¶":4918,"79":4919,"æ¸¸æ³³":4920,"ä»»åĳ½ä¸º":4921,"4äºº":4922,"æĬĹæĹ¥":4923,"æı¡":4924,"çĽ¸äºĴ":4925,"åħ³éĶ®":4926,"ç«ĭåį³":4927,"éĢļè®¯":4928,"ç¯®çĲĥ":4929,"Ġt":4930,"èĸĦ":4931,"åĮĹæµ·":4932,"éªĳå£«":4933,"èĩªèº«":4934,"åĿª":4935,"æ¯Ķå¦Ĥ":4936,"æ·»":4937,"éªĳåħµ":4938,"åį±æľº":4939,"å©Ĩ":4940,"æĸ¯æŀĹ":4941,"éĽĢ":4942,"å¸¦é¢Ĩ":4943,"éĵŃ":4944,"åİŁåŃĲ":4945,"Ġ192":4946,"ä¸°å¯Į":4947,"1æľĪ1æĹ¥":4948,"å¿§":4949,"è¶ĭ":4950,"ä¼ĺç§Ģ":4951,"éĨĴ":4952,"ç¬¬äºĮæ¬¡ä¸ĸçķĮå¤§æĪĺ":4953,"å·«":4954,"å¤§èĩ´":4955,"æ·®":4956,"å±ķè§Ī":4957,"æĸ¹è¨Ģ":4958,"å¯¹æĬĹ":4959,"éĢīä¸º":4960,"æĹ¶æľŁçļĦ":4961,"è®¡ç®Ĺæľº":4962,"åĨħéĻĨ":4963,"ä¾ĽåºĶ":4964,"çľŁå®ŀ":4965,"è¯ı":4966,"éĿŀå»ºåĪ¶":4967,"æĦıå¿Ĺ":4968,"é¸£":4969,"ç¾½æ¯ĽçĲĥ":4970,"èīºäºº":4971,"é»ĳèī²":4972,"è¾ĵåħ¥":4973,"ä¼Ĺå¤ļ":4974,"éĺŁéķ¿":4975,"CO":4976,"69":4977,"ä»ĸä¸İ":4978,"åĮĹæĸ¹":4979,"åĽºå®ļ":4980,"ä¸Ĭè¿°":4981,"æİĺ":4982,"åħĪçĶŁ":4983,"åħ·ä½ĵ":4984,"åį°å°¼":4985,"ä¸Ģçº§":4986,"ä»£çĲĨ":4987,"å·ŀåºľ":4988,"æľĿå»·":4989,"éĺ®":4990,"æ´¾éģ£":4991,"åµ":4992,"1989å¹´":4993,"ä¸º2":4994,"å¾Ģå¾Ģ":4995,"æ£Ģæµĭ":4996,"å§¬":4997,"éĥ½å¸Ĥ":4998,"å¯»æī¾":4999,"é»Ħéĩĳ":5000,"é¢Ĩå¯¼äºº":5001,"éĿŀå»ºåĪ¶åľ°åĮº":5002,"sp":5003,"185":5004,"ä»£è¡¨åĽ¢":5005,"çªģçł´":5006,"é¼»":5007,"Ġä»¥ä¸ĭ":5008,"ä½ĨçĶ±äºİ":5009,"ain":5010,"åįģäºĶ":5011,"çģ«å±±":5012,"62":5013,"Al":5014,"çī¹èī²":5015,"åįĹèĩ³":5016,"çĽĳçĿ£":5017,"åĹ£":5018,"å¼Ģå±ķ":5019,"æĦĪ":5020,"æ³¢æĸ¯":5021,"æĿīçŁ¶":5022,"å·²è¢«":5023,"æĽ´ä¸º":5024,"ä¾ĭåŃĲ":5025,"æ´ĽæĿīçŁ¶":5026,"æ°¯":5027,"çĻ»ä¸Ĭ":5028,"çĶµè¯Ŀ":5029,"å½ĵå¤©":5030,"ä¸¤åĽ½":5031,"æĸ¤":5032,"æĹ¥æĬ¥":5033,"1000":5034,"å±±è¥¿":5035,"åĦĴ":5036,"åħĨ":5037,"èĭĳ":5038,"çªģçĦ¶":5039,"å®ŀéªĮå®¤":5040,"èĮµ":5041,"ä¾Ŀæį®":5042,"åģ¿":5043,"Ġå®¶æĹı":5044,"å°¼äºļå·ŀ":5045,"Ġ8":5046,"ä¸º1":5047,"åľºçļĦ":5048,"åħ¬çĪµ":5049,"æĳĨ":5050,"ä¸¹éº¦":5051,"åįĴ":5052,"è¡ĮçļĦ":5053,"æ±ª":5054,"çĽ¸åħ³çļĦ":5055,"åĽ½å®¶çļĦ":5056,"çī¹å®ļ":5057,"ä¸īä¸ĸ":5058,"1993å¹´":5059,"åĲĽä¸»":5060,"å¯¨":5061,"åĨĽå®ĺ":5062,"åĳĺå·¥":5063,":),":5064,"å¤§å¤ļ":5065,"1995å¹´":5066,"å°ĳå¥³":5067,"å¦ĩå¥³":5068,"600":5069,"å°±ä¼ļ":5070,"æ²¿æµ·":5071,"æĺİç¡®":5072,"ä¸»è¦ģçļĦ":5073,"æĪ¿å±ĭ":5074,"éĢ®æįķ":5075,"4ä¸ª":5076,"åı²ä¸Ĭ":5077,"1991å¹´":5078,"ong":5079,"è½¬åĲĳ":5080,"æī©å±ķ":5081,"å¤ķ":5082,"å¤§æ¡¥":5083,"ä¾¨":5084,"å°¼åħĭ":5085,"èµĦäº§":5086,"51":5087,"èĦı":5088,"éĻ¨":5089,"çļĦåĲĮ":5090,"æľºåĪ¶":5091,"éĵľçīĮ":5092,"è¯ģå®ŀ":5093,"æŃ¤æ¬¡":5094,"åĪ¶å®ļ":5095,"å®ĥæĺ¯":5096,"ç»Ŀå¯¹":5097,"åĬĿ":5098,"å¤§å¥ĸ":5099,"åĩĢ":5100,"Ġéĺ¿":5101,"ä¸Ľ":5102,"è¾°":5103,"ä¸İåħ¶":5104,"180":5105,"æ£ĢæŁ¥":5106,"ä¸Ģæ®µ":5107,"å¤§åİ¦":5108,"ç§ĳå¤«":5109,"äºļç¾İ":5110,"åĮĸåĲĪçī©":5111,"ç²Ĺ":5112,"åĲ¯åĬ¨":5113,"Ã©":5114,"æ³ķåħ°è¥¿":5115,"çļĦçĶµå½±":5116,"åĪĨç¦»":5117,"è§Ĩé¢ĳ":5118,"éĵ¸":5119,"ĠåĴĮ":5120,"åľ¨äºİ":5121,"åī§æľ¬":5122,"ç´§æĢ¥":5123,"è¯Ħä¼°":5124,"åĿĩä¸º":5125,"Ġzh":5126,"åĨľæ°ĳ":5127,"åĵ¥ä¼¦æ¯Ķäºļ":5128,"åĬłæĭī":5129,"æ¶Ĥ":5130,"ä¸ĳ":5131,"çī¹åĪ«æĺ¯":5132,"end":5133,"ä¿Ŀå®Ī":5134,"ä¹łæĢ§":5135,"èĲ¨æĸ¯":5136,"åī§éĻ¢":5137,"åºŁéĻ¤":5138,"åĬ«":5139,"åŁºéĩĳä¼ļ":5140,"2ä¸ª":5141,"1990å¹´":5142,"1985å¹´":5143,"çŁ©":5144,"åľºæ¯ĶèµĽ":5145,"åĢ¡":5146,"ä¸»è¦ģæĺ¯":5147,"ä¹ĭæĪĺ":5148,"æī«":5149,"è´©":5150,"èĢĮéĿŀ":5151,"æ±°":5152,"è´¨çĸĳ":5153,"çŃ¾è®¢":5154,"ä¸Ńè¢«":5155,"ä¸Ĭæľī":5156,"çİ°ä»Ĭ":5157,"æ±Ģ":5158,"åİŁåĪĻ":5159,"åĨĽåĽ¢":5160,"å½¢å®¹":5161,"éĻķè¥¿":5162,"ä¸ĭä»¤":5163,"éĦĤ":5164,"å¼¯":5165,"åŃ¦å£«":5166,"ç±³äºļ":5167,"åĬªåĬĽ":5168,"åħ¶ä¸ŃåĮħæĭ¬":5169,"ç»ĻäºĨ":5170,"ä¼ļéķ¿":5171,"ç»´æĬ¤":5172,"å¸Ńä½į":5173,"çīłä»¬":5174,"ast":5175,"æĭĺ":5176,"éĽĮ":5177,"æĮĩå®ļ":5178,"åįĩçº§":5179,"é©³":5180,"æ½Ń":5181,"çŃīä¸º":5182,"é¾Ł":5183,"éĺ»æŃ¢":5184,"èĥ½éĩı":5185,"åŁİåł¡":5186,"åı·çļĦ":5187,"åįİäºº":5188,"èģĮä¸ļçĶŁæ¶¯":5189,"ä¿Ŀéļľ":5190,"åĭĭç«ł":5191,"æłĩæľ¬":5192,"ç©Ĩæĸ¯æŀĹ":5193,"åĽ°éļ¾":5194,"è¿Ļæł·çļĦ":5195,"æŃ»åĲİ":5196,"çļĩåĲİ":5197,"ç§ĳåŃ¦éĻ¢":5198,"æ¶Į":5199,"1984å¹´":5200,"æĥħåĨµä¸ĭ":5201,"äºļç¾İå°¼äºļ":5202,"æĹ¶æ®µ":5203,"æĺ¯ä¸Ģé¢Ĺ":5204,"åħ¶ä¸Ńä¸Ģç§į":5205,"Ġ2008å¹´":5206,"åĲİç»Ń":5207,"åłª":5208,"ç£¨":5209,"Ġ7":5210,"é¦ĸä¸ª":5211,"ç§įåŃĲ":5212,"çłĸ":5213,"èĲ¨å°Ķ":5214,"çķĻä¸ĭ":5215,"èĵ¬":5216,"éĨĩ":5217,"å¯Ĵ":5218,"åĪ©çĽĬ":5219,"äºĮäºº":5220,"é©¬éĩĮ":5221,"äº¦æĺ¯":5222,"æ»¡è¶³":5223,"2020å¹´ç¾İåĽ½äººåı£æĻ®æŁ¥çļĦæķ°æį®":5224,"å¥¥å°Ķ":5225,"åĺīéĿĸ":5226,"å¿½":5227,"æĥŁ":5228,"åĢº":5229,"å¤§åŃ¦çļĦ":5230,"æīĭæľº":5231,"åĬ©çĲĨ":5232,"å»¶éķ¿":5233,"çļĦä¸¤":5234,"ä¹Łä¸į":5235,"åıĤéĢī":5236,"æķ¢":5237,"æľ¬åľ°":5238,"ĠæĹ©å¹´":5239,"ä¸»åĬŀ":5240,"åĬłå·ŀ":5241,"æĶ¶è§Ĩ":5242,"åĪºåı²":5243,"igh":5244,"å°¹":5245,"å¾·çļĦ":5246,"å¼ĹæľĹ":5247,"ä¸ŃéĹ´":5248,"ä»¥å¤ĸ":5249,"åħ¬å®ī":5250,"åĳ¨æľŁ":5251,"èĮĥåĽ´åĨħ":5252,"åįģåĽĽ":5253,"æ¶Īè´¹":5254,"çļĦåħ³ç³»":5255,"å¥Ķ":5256,"æıĲä¾ĽäºĨ":5257,"åĭŁ":5258,"æ°ĶæĹĭ":5259,"ä¸ŃæľŁ":5260,"æĬĳ":5261,"è®¾å®ļ":5262,"ç»´æĸ¯":5263,"æº¯":5264,"æĽ´æĸ°":5265,"ä¸ĸçķĮä¸Ĭ":5266,"1ä¸ª":5267,"å¤§å¹ħ":5268,"å¹¶ä¸İ":5269,"å¤įåħ´":5270,"åĬŀäºĭå¤Ħ":5271,"åľ¨åĨħçļĦ":5272,"éĹª":5273,"ä»¤äºº":5274,"èº«ä¸º":5275,"çº³ç²¹":5276,"æ´»è·ĥ":5277,"ä¿®æŃ£":5278,"éĤ»è¿ĳ":5279,"æĺİæľĿæĶ¿æ²»äººçī©":5280,"ä¸ľä¸´":5281,"ç©ºæ°Ķ":5282,"åıįæĺł":5283,"é¢ĩ":5284,"åİŁåĲį":5285,"å½¢çĽ®":5286,"é¤Ĳåİħ":5287,"AC":5288,"èĩ³äºİ":5289,"æī¶":5290,"ä¸Ĭä¸ĭ":5291,"åĳĬè¯ī":5292,"ç¢Ł":5293,"æļ´åĬĽ":5294,"--":5295,"æĻĭçº§":5296,"sh":5297,"ack":5298,"1986å¹´":5299,"85":5300,"åįıè°ĥ":5301,"çİ»çĴĥ":5302,"å½ķéŁ³":5303,"æĤ²":5304,"ä¸įåĪ°":5305,"Ġ2009å¹´":5306,"èŁ":5307,"çİ°å®ŀ":5308,"ä¼łåªĴ":5309,"ç¿ħ":5310,"çĽĳçĭ±":5311,"00å¹´":5312,"åħļçļĦ":5313,"æĭ¼":5314,"æĭĸ":5315,"ä¼ļä¸Ĭ":5316,"åĩºåıĳ":5317,"åĪ©æĸ¯":5318,"å¾·å°Ķ":5319,"æİ¥æĶ¶":5320,"ä¹¦éĻ¢":5321,"åħ¸ç¤¼":5322,"å½ĵåľ°çļĦ":5323,"èķ¾":5324,"æ·ĺæ±°":5325,"æĹ¥æľŁ":5326,"ä»Ĭå¤©":5327,"éĢ¼":5328,"lay":5329,"ss":5330,"æ¸ħåįİ":5331,"åı¦æľī":5332,"åįģäºĮå¹´":5333,"åİŁå§ĭ":5334,"åįĩä»»":5335,"éĵ¶çīĮ":5336,"é£Łåĵģ":5337,"19ä¸ĸçºª":5338,"æĸ¯é¡¿":5339,"èģĮä½į":5340,"æĸĲ":5341,"å¯ĵ":5342,"åıĳæĺİ":5343,"åº¦çļĦ":5344,"ç«ĭæĸ¹":5345,"å¸ĥèİ±":5346,"æĤ£èĢħ":5347,"æĹ¥æ²»":5348,"æĳ§":5349,"ran":5350,"å·¢":5351,"äº§çĶŁçļĦ":5352,"ç¡®è¯ĬçĹħä¾ĭ":5353,"ian":5354,"ä»ĸä¹Ł":5355,"åħįè´¹":5356,"åİŁä½ıæ°ĳ":5357,"ED":5358,"ç¨»":5359,"é±¼ç±»":5360,"äºļåİĨå±±å¤§":5361,"å·²æľī":5362,"æİ¨å¹¿":5363,"æı´åĬ©":5364,"usĠ":5365,"åľ¨ä¸Ģ":5366,"è¿ĳå¹´":5367,"åĨľæĿĳ":5368,"120":5369,"çļĦè®¾è®¡":5370,"äº²çİĭ":5371,"è¥¿åħ°":5372,"æ°´åºĵ":5373,"ç»´åŁĥ":5374,"èĢĥåı¤":5375,"åī¯ä¸»ä»»":5376,"æľīæľº":5377,"å¼łä¸ĵè¾ĳ":5378,"åľ¨ä¸Ń":5379,"åĿĿ":5380,"ç¥ł":5381,"çĻĮ":5382,"ç«ŀéĢī":5383,"1980å¹´":5384,"åī¯ä¸»å¸Ń":5385,"æĺ¾èĳĹ":5386,"Ġå½ĵ":5387,"çĶŁæĪĲ":5388,"åı¸é©¬":5389,"ç»³":5390,"æīĢè°ĵ":5391,"çĲ¼":5392,"å¿į":5393,"å¹³åİŁ":5394,"å¤©çļĩ":5395,"æĶ¹åĲįä¸º":5396,"åħ¬åħĥåīį":5397,"63":5398,"ä¾ĿçĦ¶":5399,"åĸľåī§":5400,"æłĭ":5401,"è£ħé¥°":5402,"æĺŃåĴĮ":5403,"çĶ±æŃ¤":5404,"çĲĨè§£":5405,"åıĳåĬ¨æľº":5406,"ç§°ä½ľ":5407,"è½¬æį¢":5408,"é¾Ļæ±Ł":5409,"179":5410,"åį±éĻ©":5411,"æĺ¯å¾·åĽ½":5412,"ç»Īäºİ":5413,"çļĦæĪĲåĳĺ":5414,"åľŃ":5415,"ä¸Ģè¯į":5416,"å±±åĮº":5417,"éĤ£ä¹Ī":5418,"æ¸¸è¡Į":5419,"Ġ2025å¹´":5420,"éĿłè¿ĳ":5421,"72":5422,"å¿Ļ":5423,"ç©ºä¸Ń":5424,"é¹¤":5425,"å®Įå·¥":5426,"æīĢæľīçļĦ":5427,"è´§å¸ģ":5428,"ä¿®å¤į":5429,"éļĶç¦»":5430,"åĩĿ":5431,"åľ°å¸¦":5432,"ä¸Īå¤«":5433,"æł¡åĽŃ":5434,"ç¡®ä¿Ŀ":5435,"ä½ĵèĤ²åľº":5436,"2001å¹´äººåı£":5437,"è¿ĽæŃ¥":5438,"èĥ½æºĲ":5439,"éĩĩè®¿":5440,"è¿ĲçĶ¨":5441,"äºĶæľĪ":5442,"æīĵç®Ĺ":5443,"æ½ľèīĩ":5444,"çĿ¡":5445,"å¢ŀå¼º":5446,"æľ¬çīĩ":5447,"å¾·åįİ":5448,"Window":5449,"çŁĽ":5450,"èĴ¸":5451,"1983å¹´":5452,"184":5453,"æ¯ĶåĪ©æĹ¶":5454,"ä¼ļåĳĺ":5455,"åį¡ç½Ĺ":5456,"çłģå¤´":5457,"ä¹īå¤§åĪ©":5458,"é²¤":5459,"æĴ°åĨĻ":5460,"å¯¹æĸ¹":5461,"èĻ¹":5462,"å¾ĹåĲį":5463,"éĢļä¿¡":5464,"æĭ¿ä¸ĭ":5465,"ER":5466,"æł½":5467,"æĸ¯æĭīå¤«":5468,"æī§æĶ¿":5469,"éĢĤåĲĪ":5470,"æĭĨéĻ¤":5471,"å§Ĭ":5472,"æ³ķçļĦ":5473,"æĸ¯æīĺ":5474,"èĴĻçī¹":5475,"è©¹å§Ĩæĸ¯":5476,"IS":5477,"åĲģ":5478,"Ġç¾İåĽ½":5479,"èµĦæľ¬":5480,"çŁ³æ²¹":5481,"æ´¾åĩº":5482,"å±±ä¸ľçľģ":5483,"å¤§ä¼Ĺ":5484,"èĢĲ":5485,"æ³¢ç½Ĺ":5486,"åĨħæĪĺ":5487,"ä¹¦ç±į":5488,"åĬŀçĲĨ":5489,"87":5490,"åĪĻä¸º":5491,"æĮĩç¤º":5492,"1987å¹´":5493,"å»ºç«ĭäºĨ":5494,"åĽ´ç»ķ":5495,"IC":5496,"åīĬ":5497,"å¸Ĥä¸Ńå¿ĥ":5498,"å¼ıçļĦ":5499,"ç¿Ķ":5500,"61":5501,"AP":5502,"ä½Ľç½Ĺ":5503,"è´µå·ŀ":5504,"ä¹Łå°±æĺ¯":5505,"Ġæĸ°":5506,"è®¤è¯Ĩ":5507,"çķĻåľ¨":5508,"å»ºçŃĳçī©":5509,"åį¢çĵ¦å°Ķçľģ":5510,"æ³¡":5511,"æĪĲå¹´":5512,"æ³ķåºŃ":5513,"èĢĮä¸įæĺ¯":5514,"å¤©çĦ¶":5515,"åİĺç±³":5516,"åĩºåħ¥åı£":5517,"ric":5518,"çļĦæ°´":5519,"æĺ¯ä¸Ģåº§":5520,"èĸĽ":5521,"æİĪæĿĥ":5522,"åľĨå½¢":5523,"é¦ĸçĽ¸":5524,"æĶ¹åĪ¶":5525,"ç®¡çĲĨå±Ģ":5526,"Ġåħ¶ä»ĸ":5527,"äº¥":5528,"åłĨ":5529,"è¾¹å¢ĥ":5530,"æĿĢå®³":5531,"ç»¿èī²":5532,"å¸¸è§ģçļĦ":5533,"ä¸Ģæŀļ":5534,"èĩªæĿĢ":5535,"å°Ĩåľ¨":5536,"éĶĢéĩı":5537,"æĶ¶éĽĨ":5538,"ãĥ»":5539,"èĢĮæ°´åŁŁéĿ¢ç§¯ä¸º0":5540,"ÃĹ":5541,"éĹ¸":5542,"2000":5543,"æĦıåĳ³":5544,"çĽĨ":5545,"æĺİæĺŁ":5546,"åĲĦèĩª":5547,"åĲĦç±»":5548,"è¾½å®ģ":5549,"89":5550,"ä»¥åįĹ":5551,"åĪĨæĶ¯":5552,"æĢģåº¦":5553,"æľĢä½İ":5554,"160":5555,"å¤§éĢī":5556,"è®°å¿Ĩ":5557,"åĿļæĮģ":5558,"ä¸ŃåĽ½çļĦ":5559,"åĲīæŀĹ":5560,"åĪĨè£Ĥ":5561,"åĲĮæĢ§":5562,"æł¼æĭī":5563,"çĬ¹å¤ªäºº":5564,"Ġç¬¬":5565,"éķ¿å®ĺ":5566,"å¤«åį¡":5567,"æĸĭ":5568,"èŃ¦åĳĬ":5569,"ort":5570,"ä»ĬæĹ¥":5571,"1ä¾ĭ":5572,"è¾¾å°Ķ":5573,"ä¸ĭè¾ĸçļĦä¸Ģä¸ª":5574,"æĬĵ":5575,"æ±Ŀ":5576,"èģĶåĲĪä¼ļ":5577,"åĽ½æ°ĳæĶ¿åºľ":5578,"ĠTh":5579,"å®¶ä¸Ń":5580,"èĥº":5581,"å¹³æ°ĳ":5582,"æŁ´æ²¹":5583,"6äºº":5584,"æĹ¨åľ¨":5585,"èĪŁ":5586,"ç§ĳåŃ¦å®¶":5587,"è¿ŀä»»":5588,"æµĻæ±Łçľģ":5589,"ne":5590,"çİĩä¸º":5591,"å¼Łå¼Ł":5592,"çļĦåĲİ":5593,"å¹¶è¢«":5594,"å¿ħè¦ģ":5595,"åĪĨåĪ«æĺ¯":5596,"ä¸ŀ":5597,"çŃīçº§":5598,"æłª":5599,"åı¯ä»¥åľ¨":5600,"asĠ":5601,"å±Ī":5602,"çļĦäºĭ":5603,"ä»¥ä¸º":5604,"å¥¹ä»¬":5605,"æĶ¯æµģ":5606,"åī§éĽĨ":5607,"æĹħè¡Į":5608,"Ġé¦Ļæ¸¯":5609,"æĺ¯é¦Ļæ¸¯":5610,"âĢĻ":5611,"åħĭæŀĹ":5612,"è¿Ļé¦ĸ":5613,"äº²èĩª":5614,"æ¯Ľæ³½":5615,"ç¤ģ":5616,"1982å¹´":5617,"èİ±èĮµ":5618,"æ»¨æµ·":5619,"æĬ±":5620,"äº¤æį¢":5621,"æĭ¨":5622,"é»Ħèī²":5623,"éĴ»":5624,"è§ĦèĮĥ":5625,"Ġin":5626,"æĸ¯æ´Ľ":5627,"å´©":5628,"æĪĲç«ĭçļĦ":5629,"Ġä»ĸ":5630,"ĠæĪªèĩ³":5631,"å¹½":5632,"æ¶Īå¤±":5633,"å®°":5634,"é»ĳé¾Ļæ±Ł":5635,"800":5636,"çłĤ":5637,"èĪªå¤©":5638,"åįłåľ°":5639,"ä¸ºæŃ¤":5640,"ä¸Ĭå¸Ĥ":5641,"å·¥ç¨ĭå¸Ī":5642,"è¿Ŀåıį":5643,"åĳ¼åĲģ":5644,"å°¤åħ¶æĺ¯":5645,"æĳ§æ¯ģ":5646,"çº§åĪ«":5647,"Ġ9":5648,"æĦŁæŁĵèĢħ":5649,"1920å¹´":5650,"æĦıå¤ĸ":5651,"ç§įæ¤į":5652,"âĶ":5653,"çĭ¼":5654,"æĶ¶èĹı":5655,"çŃ¾çº¦":5656,"è¿¦":5657,"åľ¨197":5658,"å¤ļå°Ķ":5659,"æ¬§çĽŁ":5660,"åı¸ä»¤éĥ¨":5661,"Ġåī§æĥħ":5662,"æºĲäºİ":5663,"éķ¿åŃĲ":5664,"æĺ¯ä¸Ģéĥ¨":5665,"åįĩä¸º":5666,"æª":5667,"åŃ¦çļĦ":5668,"èĭ±åĨĽ":5669,"åį¡æĭī":5670,"åĲīå°Ķ":5671,"Ġ2007å¹´":5672,"5äºº":5673,"å°¼è¥¿äºļ":5674,"éĻª":5675,"è½¦åİ¢":5676,"è¯¥æĿĳ":5677,"æł¡åĮº":5678,"æ³¢å°Ķ":5679,"man":5680,"èĢĮä¸į":5681,"å¾·æĭī":5682,"ens":5683,"å©´":5684,"ä»¥åĮĹ":5685,"æ¸¯åı£":5686,"å¾Īå¤§":5687,"æ¦Ħ":5688,"ä»»æľŁ":5689,"å¦Ļ":5690,"å®īå¨ľ":5691,"1950å¹´":5692,"æ¯Ľæ³½ä¸ľ":5693,"åħ¶å®ŀ":5694,"æŃĮè¯į":5695,"èĦ¸":5696,"å¾ªçİ¯":5697,"åį¸":5698,"å°Ħåĩ»":5699,"1Ġ":5700,"ID":5701,"è¿ĻéĩĮ":5702,"å¾ĹåĪ°äºĨ":5703,"ç§ĺä¹¦éķ¿":5704,"ĠæŃ¤å¤ĸ":5705,"æĬ«":5706,"å¯¹åħ¶":5707,"åı¤åħ¸":5708,"èµ°åĲĳ":5709,"çī¹éĩĮ":5710,"äºļåĨĽ":5711,"æİ¥æĽ¿":5712,"æ¼Ķå¥ı":5713,"èĳ£äºĭéķ¿":5714,"çļĦåĦ¿åŃĲ":5715,"JR":5716,"ä¼½":5717,"é©¬æĸ¯":5718,"æĢ§èĥ½":5719,"12å¹´":5720,"åľºæīĢ":5721,"çĭŃ":5722,"ï¼ħ":5723,"é¡ºåĪ©":5724,"ber":5725,"å¤§å°ı":5726,"åĴĸ":5727,"ine":5728,"å®¡æŁ¥":5729,"Mar":5730,"åĮºè®®ä¼ļ":5731,"éĺ²æŃ¢":5732,"çĶŁæ´»ä¹łæĢ§":5733,"ç¦ħ":5734,"é¦ĸåºľ":5735,"å¼ºåº¦":5736,"åĽļ":5737,"é¦ĸä½į":5738,"ä¸»ä¹īèĢħ":5739,"çļĦéĥ¨åĪĨ":5740,"å¯®":5741,"æĪĲéķ¿":5742,"è¢ĭ":5743,"å·ŀåĪºåı²":5744,"ç¥ŀè¯Ŀ":5745,"å¤§åį«":5746,"å«ģ":5747,"74":5748,"ç«ĭåľº":5749,"äºĮæĪĺ":5750,"ä»ķ":5751,"éĥ¨çĶµå½±":5752,"ç´¯è®¡":5753,"âĶĢ":5754,"æĭ±":5755,"å¸ĤæĶ¿åºľ":5756,"7äºº":5757,"çī¹æĭī":5758,"éĢĶä¸Ń":5759,"è·Łéļı":5760,"å®Ľ":5761,"éĽį":5762,"å¾Ĺä¸»":5763,"é¢Ĩäºĭ":5764,"åķĨåĵģ":5765,"oun":5766,"åįģä¹Ŀ":5767,"åŁ¹è®Ń":5768,"æıĲåıĬ":5769,"AN":5770,"æķ°ä½į":5771,"ä¸¤èĢħ":5772,"(,;":5773,"ç¼©åĨĻ":5774,"ON":5775,"çĤī":5776,"åıĹæ¬¢è¿İ":5777,"åĲĦåĽ½":5778,"æł¹å»·":5779,"ä¸»åľº":5780,"é¦ĸæĴŃ":5781,"ĠCh":5782,"ä½Ĩä»ĸ":5783,"é¦ĸå¸Ń":5784,"å¸ĥéĩĮ":5785,"æ±Łèĭıçľģ":5786,"çļĦå¥³":5787,"æĪĲäºº":5788,"èĤĮ":5789,"åģľéĿł":5790,"åĲ¹":5791,"å°¼å°Ķ":5792,"çļĦéŁ³ä¹Ĳ":5793,"çĤ¹çļĦ":5794,"éĿ¢ä¸´":5795,"ä½¿åħ¶":5796,"éĻ·åħ¥":5797,"çļĦç¬¬äºĮ":5798,"éķ¿æ±Ł":5799,"çĶŁæ´»ä¹łæĢ§ä¸įæĺİ":5800,"ä¸ºåħ¶":5801,"è¾Ł":5802,"å¾·è¯Ń":5803,"é¼İ":5804,"å¾·åĨĽ":5805,"è¾¨":5806,"éŁµ":5807,"åĩºçīĪç¤¾":5808,"2Ġ":5809,"èĢķ":5810,"æľĪçĲĥ":5811,"å°Ĩé¢Ĩ":5812,"ç¦»åŃĲ":5813,"ä¸Ĭåįĩ":5814,"æ£ĺ":5815,"æ´¾çļĦ":5816,"ç½Ĺé©¬å°¼äºļ":5817,"æĥ¨":5818,"ä¸Ģåľº":5819,"ä¸Ģå°ıæĹ¶":5820,"èµ«å°Ķ":5821,"åŁĭ":5822,"éķ¿è¾¾":5823,"è¢«æįķ":5824,"èĭ¯":5825,"çĶĺèĤĥ":5826,"oh":5827,"çļĦè§Ĵèī²":5828,"çĶ«":5829,"åľºæĻ¯":5830,"ç°":5831,"çļĦä¸ĢäºĽ":5832,"å·´å°Ķ":5833,"æī¿è¯º":5834,"ä¼¼ä¹İ":5835,"çĤ¸å¼¹":5836,"2019":5837,"éģ¥":5838,"éĽ¾":5839,"å¤©ä½ĵ":5840,"åħļåĳĺ":5841,"éĽ·æĸ¯":5842,"åĲĦä¸ª":5843,"\".":5844,"ĠèĻ½çĦ¶":5845,"é¢Ĩåľ°":5846,"æ¯ıæĹ¥":5847,"æĿ¡ä¾ĭ":5848,"æĺ¯ä¹Įåħĭåħ°":5849,"åħ¬æĸ¤":5850,"åīįåĲİ":5851,"å¤ĸäº¤éĥ¨":5852,"å¸Ĳ":5853,"æķ°çļĦ":5854,"çłĶåıĳ":5855,"èĢĥè¯ķ":5856,"åľ¨åı°æ¹¾":5857,"éħįå¤ĩ":5858,"è¾¹ç¼ĺ":5859,"ä»ħæľī":5860,"åĬłåĪ©ç¦ı":5861,"éģĵå¾·":5862,"our":5863,"è¹Ī":5864,"Sh":5865,"éħ·":5866,"çĪ±æĥħ":5867,"ä¼ļè®®åĳĺ":5868,"ä¸¤ä¾§":5869,"æ¡Ĩ":5870,"å¸¸åĬ¡":5871,"æĶ¯ä»ĺ":5872,"äººæ°ĳå¸ģ":5873,"èıĬ":5874,"æ²¿éĿ©":5875,"æĬµæĬĹ":5876,"ä¸ĢåĪĩ":5877,"å¹¶çĶ±":5878,"æĸĩæĺİ":5879,"ç§¯åĪĨ":5880,"1åı·":5881,"ĠèĥĮæĻ¯":5882,"ĠIn":5883,"åľ°è´¨":5884,"æľ¬äºº":5885,"åįģæľĪ":5886,"åĮħåĽ´":5887,"çĽĳå¯Ł":5888,"åħ¬å¼ĢèµĽ":5889,"ce":5890,"çļĦå¹³åĿĩ":5891,"å¤¹":5892,"å¤ļäºº":5893,"åı¦ä¸Ģæĸ¹éĿ¢":5894,"è¥¿ä¾§":5895,"å¹³è¡¡":5896,"ç¦ıå·ŀ":5897,"äºİ192":5898,"æĢĢçĸĳ":5899,"åĮºåĨħ":5900,"äºīåıĸ":5901,"ä¸ŃåĽ½å¤§éĻĨçļĦ":5902,"è¾ŀèģĮ":5903,"åľ¨èĭ±åĽ½":5904,"çĶŁåŃĺ":5905,"å¼Ģå¹ķ":5906,"è¨Ģè®º":5907,"èĥĨ":5908,"çļĦä½įç½®":5909,"åı¯è§ģ":5910,"åĿĤ":5911,"èĤł":5912,"éĥ½åľ¨":5913,"ä¼¯çĪµ":5914,"æ¸¸æĪıçļĦ":5915,"è¤":5916,"å¼ıæľĪåı°":5917,"åĩºçİ°äºĨ":5918,"å·¡æ´ĭ":5919,"Ġä¸ŃåĽ½":5920,"åŃķ":5921,"æīĭæľ¯":5922,"åºĨç¥Ŀ":5923,"çĲīçĲĥ":5924,"æĪĲäºĨ":5925,"è®¾äºİ":5926,"æĮģæľī":5927,"æī£":5928,"å·¥ä½ľå®¤":5929,"æ±¡æŁĵ":5930,"åıĳæĮ¥":5931,"æīĢéĩĩçĶ¨":5932,"èĭ±éĩĮ":5933,"å¥ĭ":5934,"éĺ¿æł¹å»·":5935,"æĬ¥çº¸":5936,"æ²ª":5937,"æ£Ģå¯Ł":5938,"è¤Ĳ":5939,"æīģ":5940,"åıĳè¨Ģ":5941,"éĺ¿éĩĮ":5942,"åĲ«æľī":5943,"çŃĸçķ¥":5944,"åĤ¬":5945,"é¼ĵåĬ±":5946,"178":5947,"èĥľåĩº":5948,"çŁŃæļĤ":5949,"åľ°åĲį":5950,"éļĭ":5951,"çıĢ":5952,"åħ¶ä¸Ńä¸Ģ":5953,"çº¿ä¸Ĭ":5954,"è¶³å¤Ł":5955,"é¢ĳçİĩ":5956,"é¡·":5957,"ç«ĻçļĦ":5958,"æıĲè®®":5959,"æİ¨èįĲ":5960,"çĪ±å¾·åįİ":5961,"èīºæľ¯å®¶":5962,"Ġ12":5963,"åĲ§":5964,"ice":5965,"æ®ĸæ°ĳåľ°":5966,"è¥Ħ":5967,"åĪĻåľ¨":5968,"Ġæį®":5969,"è°Ń":5970,"é¢ģåıĳ":5971,"åĩĮæĻ¨":5972,"è¯±":5973,"ç¬¦åı·":5974,"Ġw":5975,"éĹ²":5976,"åĩºåĶ®":5977,"ä¸ľä¾§":5978,"è¾¾å·ŀ":5979,"åıĺä¸º":5980,"å¤§èģĶçĽŁ":5981,"åįķçĭ¬":5982,"çĻ»åľº":5983,"èĵĿèī²":5984,"æĮĸ":5985,"åħ¶ä¸ŃçĶ·æĢ§":5986,"Ġåľ°æĸ¹":5987,"çº¤":5988,"æĪĲå°±":5989,"ä¸īæľĪ":5990,"éĢıéľ²":5991,"åĩī":5992,"åľºåľ°":5993,"åĶĲæľĿ":5994,"åľ¨196":5995,"æĪĺå£«":5996,"æµ·å¹³éĿ¢":5997,"ä¿ĦåĽ½":5998,"ä½įäºİä¸ŃåĽ½":5999,"éĻĦå±ŀ":6000,"ith":6001,"éĢĤåºĶ":6002,"å¢ĥåĨħåħ±æľī":6003,"äºļçĽ®":6004,"è½¦éĺŁ":6005,"çĽ´å¾Ħ":6006,"åĻ¨çļĦ":6007,"åĨĻä½ľ":6008,"èµŀåĬ©":6009,")ãĢģãĢĬ":6010,"å¼ĹéĩĮ":6011,"è¿½æº¯":6012,"é¢ģå¥ĸ":6013,"åĩŃåĢŁ":6014,"å°Ķå¤«":6015,"éĿĴå²Ľ":6016,"è¥¿æİ¥":6017,"é¢Ī":6018,"åĪ¶çīĩ":6019,"æīĢå¤ĦçļĦ":6020,"æł¼ä¸º":6021,"åı²å¯Ĩ":6022,"1958å¹´":6023,"æĽ¿ä»£":6024,"ç¬¬ä¹Ŀ":6025,"èģĶç»ľ":6026,"æ²³çļĦ":6027,"èº«åĪĨ":6028,"çĵ¦å°Ķ":6029,"èĸª":6030,"æĺ¯åĽłä¸º":6031,"é¹ħ":6032,"äºİ2016å¹´":6033,"92":6034,"æ°¨":6035,"åħ¬äº¤":6036,"æŃ£éĿ¢":6037,"ä»ĸä»¬åľ¨":6038,"ff":6039,"åĽĽæľĪ":6040,"äººåı£ä¸º":6041,"åĢ¾åĲĳ":6042,"86":6043,"åĲŀ":6044,"æĿĳèĲ½":6045,"çļĦå½¢å¼ı":6046,"ä¸¤ä½į":6047,"æĻ®é²ģ":6048,"èħĶ":6049,"æ£ķ":6050,"æľªæľī":6051,"ä¸Ńåįİäººæ°ĳåħ±åĴĮåĽ½æĶ¿æ²»äººçī©":6052,"çļĦæĸ¹æ³ķ":6053,"æĹłçĹĩçĬ¶":6054,"éĽĨåĲĪ":6055,"1948å¹´":6056,"åįļå£«åŃ¦ä½į":6057,"çļĦæĢ»":6058,"æĽ°":6059,"æ±īæĹı":6060,"æ²³åįĹçľģ":6061,"æ¸¸åĩ»":6062,"è¶³åįı":6063,"å®£ç§°":6064,"æĸ¥":6065,"å¥¶":6066,"å½ĵæĹ¥":6067,"æŃ£ç¡®":6068,"\"),":6069,"93":6070,"åľ¨ä»ĸ":6071,"åĬ²":6072,"å¿ĺ":6073,"ç§ĳå°Ķ":6074,"åľ¨æĸ°":6075,"å·¡æ´ĭèĪ°":6076,"Ġæľī":6077,"é«ĺè¾¾":6078,"å¤©åĲİ":6079,"é¢Ħç®Ĺ":6080,"åĲ¸æĶ¶":6081,"Ar":6082,"éķ¿æ²Ļ":6083,"Ġ2006å¹´":6084,"æī©å¼ł":6085,"ç«ŀèµĽ":6086,"å½ĵéĢīä¸º":6087,"åĨķ":6088,"åĽ½åĨĽ":6089,"åı¤èĢģ":6090,"éºŁ":6091,"000äºº":6092,"73":6093,"ç§ĳçļĦåħ¶ä¸Ńä¸Ģç§į":6094,"åĽĬ":6095,"æĹ¶åĢĻ":6096,"æ³ķè¯Ń":6097,"è¶³çĲĥéĺŁ":6098,"æµ·æĭĶä¸º":6099,"æĸĩèīº":6100,"åī§åľº":6101,"æ¯ıå¤©":6102,"åŁ¹åħ»":6103,"çĲª":6104,"åħ¬åĳĬ":6105,"è¥¿éĩĮ":6106,"æĪĳçļĦ":6107,"åĲ»":6108,"èĪŀè¹Ī":6109,"éĴĵ":6110,"å·²çŁ¥":6111,"åĨ³è®®":6112,"å¹²éĥ¨":6113,"èľľ":6114,"æľºçļĦ":6115,"æ°Ķåİĭ":6116,"ç¢§":6117,"Ġåľ£":6118,"æģ©çľģ":6119,"Un":6120,"iaĠ":6121,"Ġ0":6122,"éĿŀæ³ķ":6123,"è±«":6124,"ç¢±":6125,"éŃģ":6126,"ä¸¥æł¼":6127,"éģŃéģĩ":6128,"æķĪåºĶ":6129,"å®´":6130,"èĪ¹åıª":6131,"äºĴçĽ¸":6132,"è¿Ļé¡¹":6133,"å®īä¸ľ":6134,"çĶµæ°Ķ":6135,"æĹłè®º":6136,"äº«å¹´":6137,"è¶³çĲĥè¿ĲåĬ¨åĳĺ":6138,"éĢĲæŃ¥":6139,"é¸Łç±»":6140,"åīª":6141,"åĪĽå§ĭ":6142,"åĪ¶ä½ľçļĦ":6143,"æİł":6144,"åĲĪæ³ķ":6145,"æ¼ı":6146,"å¸ĤæĶ¿":6147,"åĲĮæĹ¥":6148,"è¶ħè¶Ĭ":6149,"è®¾è®¡çļĦ":6150,"15å¹´":6151,"åĪĨåĮº":6152,"å§ľ":6153,"ç¾İåĽ½çļĦ":6154,"è§Ĩè§ī":6155,"å¤§å¸Ī":6156,"èĢģå¸Ī":6157,"è¶³çĲĥä¿±ä¹Ĳéĥ¨":6158,"åģ¶åĥı":6159,"å§ĭå»ºäºİ":6160,"æĪĲéĥ½":6161,"ç©·":6162,"å¤ĸéĥ¨":6163,"åĬłéĢŁ":6164,"å½¢çĬ¶":6165,"åıĳçĶŁåľ¨":6166,"å®¡åĪ¤":6167,"å½ķå½±":6168,"åıĮæīĵ":6169,"å¤§éĺª":6170,"æ£ī":6171,"æļ¨":6172,"é¢Ħæµĭ":6173,"æııç»ĺ":6174,"æł½åŁ¹":6175,"æĿ¥è¶Ĭ":6176,"çĽ´éļ¶":6177,"Ġä¸Ń":6178,"åĴ¨":6179,"äºİ2015å¹´":6180,"åĽłåħ¶":6181,"1946å¹´":6182,"ä»İæŃ¤":6183,"ç¾¤ä½ĵ":6184,"æķĳæı´":6185,"åħħæ»¡":6186,"åĵĪå°Ķæ»¨":6187,"åĪł":6188,"æĹ¶åĮº":6189,"çº¦æľī":6190,"éĶĲ":6191,"æ¸¸å®¢":6192,"åĪĽæĸ°":6193,"æļĸ":6194,"ä¸»ä¹īçļĦ":6195,"èĭıä¸¹":6196,"ä»ĸæĽ¾ä»£è¡¨":6197,"è·µ":6198,"ä¸īäºº":6199,"æİ¥ä»»":6200,"æºĥ":6201,"æĵħ":6202,"åģĩè®¾":6203,"å¤ıä»¤æĹ¶éĹ´":6204,"ĠandĠ":6205,"çĲĨå·¥":6206,"æģŃ":6207,"éĤª":6208,"å¯»æ±Ĥ":6209,"éĥ¨ç½²":6210,"æĶ¶åĪ°":6211,"æ¨¡æĭŁ":6212,"è¶ĬæĿ¥è¶Ĭ":6213,"æĸĹäºī":6214,"æĸ©":6215,"æ¯ħ":6216,"æļĤåģľ":6217,"ç¦ıå»ºçľģ":6218,"çļĦç¾İåĽ½":6219,"å½±åĥı":6220,"èĮħ":6221,"åĽĽå·Ŀçľģ":6222,"æĺ¯ä¸º":6223,"âĢĿ)":6224,"èģĶç½ĳ":6225,"ç§°åĳ¼":6226,"1981å¹´":6227,"éĺ¿å°Ķåįĳ":6228,"Ġä¸ĭ":6229,"çļĦåİŁåĽł":6230,"å¸½":6231,"çĲĨæĥ³":6232,"éħįç½®":6233,"åĬłåħ¥äºĨ":6234,"è¿ģèĩ³":6235,"çļĦåĲįåŃĹ":6236,"å¼Ģå§ĭåľ¨":6237,"ç¨Ģ":6238,"è§Ĵåº¦":6239,"åĽ½éĻħæľºåľº":6240,"1979å¹´":6241,"82":6242,"ç§©":6243,"183":6244,"æĹıç¾¤":6245,"åĽ¾åĥı":6246,"ube":6247,"Ġæĺ¯":6248,"ä»¥ä¾¿":6249,"è¾ĵåĩº":6250,"æīĢåľ¨åľ°":6251,"è¡Įä¸ļ":6252,"å·¥èīº":6253,"æīĭæ®µ":6254,"èªĵ":6255,"æļĤæĹ¶":6256,"åĩ¶":6257,"å»ĸ":6258,"å±łæĿĢ":6259,"ä¸ľæµ·":6260,"çĽ´æĴŃ":6261,"ä¼ĬåĪ©":6262,"ä¾Ŀèµĸ":6263,"äºİ2014å¹´":6264,"èģļéĽĨ":6265,"åĲİè¢«":6266,"åģľè½¦":6267,"æĹłçĹĩçĬ¶æĦŁæŁĵèĢħ":6268,"éĺ¿å°Ķåįĳæĸ¯":6269,"å¸¸å§Ķ":6270,"æĺŁçŃīä¸º":6271,"ä½İäºİ":6272,"IP":6273,"æĢķ":6274,"äºİ190":6275,"ç»Ħç»ĩçļĦ":6276,"ç¼´":6277,"ä¸¾åĬŀçļĦ":6278,"ç¹ģæ®ĸ":6279,"è·¯æĺĵæĸ¯":6280,"èĤºçĤİ":6281,"åľ¨ä¸Ģèµ·":6282,"æĸ¯åį¡":6283,"åĪ¶ä½ľäºº":6284,"éĹ»åĲį":6285,"com":6286,"ç«Ł":6287,"æķĻå®Ĺ":6288,"äºĮæľĪ":6289,"èĤ¤":6290,"åħ±åĴĮåħļ":6291,"å¸ĸ":6292,"ç½Ĺä¼¯çī¹":6293,"ont":6294,"åľ¨åĮĹäº¬":6295,"ä¸ŃæľĢ":6296,"åĲĮæĹ¶è¯¥åľ°":6297,"96":6298,"ãĢĭãĢĬ":6299,"ä¾£":6300,"åĪ¶æĪĲ":6301,"å·¨å¤§":6302,"åħĭå°Ķ":6303,"ç»´å¤ļ":6304,"èĲ½æĪĲ":6305,"éŀĭ":6306,"8äºº":6307,"çļĦè¯Ŀ":6308,"äºİ2012å¹´":6309,"5ä¸ª":6310,"5ç±³":6311,"åŃ¦ç§ĳ":6312,"å®¤åĨħ":6313,"æıĲåĩºäºĨ":6314,"åĨħéĻĨçľģä»½":6315,"æ¼ł":6316,"çº¢åĨĽ":6317,"äºİ2018å¹´":6318,"ph":6319,"ä¿ĿéĻ©":6320,"äºĶåįģ":6321,"èĴ²":6322,"çĶ°å¾Ħ":6323,"çļĦæĥħ":6324,"ä¼ļæľī":6325,"æľªçŁ¥":6326,"å¯ĨåĪĩ":6327,"è´¹çĶ¨":6328,"å°¿":6329,"è®¤åı¯":6330,"æ¶Īéĺ²":6331,"èĩ³2":6332,"å¤©åłĤ":6333,"éĺ²ç©º":6334,"è¾ħåĬ©":6335,"Ġä¸º":6336,"è½©":6337,"ä¸»äºĭ":6338,"èĭ±åĳİ":6339,"äº¤ç»Ļ":6340,"äºĶä¸ª":6341,"çłĶç©¶éĻ¢":6342,"è§Ĥçľĭ":6343,"ver":6344,"éĤ±":6345,"æīĵçł´":6346,"æ¡¥æ¢ģ":6347,"1978å¹´":6348,"||":6349,"ä¸ĢèģĮ":6350,"ç½Ĺå¾·":6351,"ç¨£":6352,"è®¤è¯ģ":6353,"èĩªæĪĳ":6354,"è·¯æ®µ":6355,"çĭ¬ç«ĭçļĦ":6356,"åĨĴéĻ©":6357,"éĥ¨éĥ¨éķ¿":6358,"çĲĨçĶ±":6359,"å§Ķæīĺ":6360,"åķĨåºĹ":6361,"çĶ»å®¶":6362,"æľĢé«ĺçļĦ":6363,"å«©":6364,"ä¼ļè¯ķ":6365,"çī¹åĮº":6366,"äºİ2017å¹´":6367,"æ£ĴçĲĥ":6368,"âĢĺ":6369,"æĪĺéĺŁ":6370,"èĢ¶ç¨£":6371,"å¡ŀå°Ķç»´äºļ":6372,"å¥ł":6373,"äººæĿĥ":6374,"å·´æĭī":6375,"éĩıåŃĲ":6376,"åī¯ä¹¦è®°":6377,"èģļèĲ½":6378,"ah":6379,"å¤©æ°Ķ":6380,"èµĦåĬ©":6381,"èĬĤåº¦":6382,"ç¬¬4":6383,"æ¼ĶåĮĸ":6384,"æĶ¹è¿Ľ":6385,"å¼ĹéĽ·":6386,"åıĳè¡ĮçļĦ":6387,"Ġç®Ģä»ĭ":6388,"ä»¥ä¸ĬçļĦ":6389,"æĶ¹ç§°":6390,"è¯Ħä¸º":6391,"é£ŁçĶ¨":6392,"æĴ¤éĢĢ":6393,"å¤©æĸĩåı°":6394,"AS":6395,"æľ¬ä½ľ":6396,"åĬłåĵ¥":6397,"æī©å»º":6398,"ly":6399,"å½±è§Ĩ":6400,"æłĹ":6401,"åħ¶ä¸Ńä¸Ģä¸ª":6402,"çļĨä¸º":6403,"çĽ¸åĲĮçļĦ":6404,"èĬĿåĬłåĵ¥":6405,"ç©´":6406,"éĢļçŁ¥":6407,"åİŁåħĪ":6408,"é©¬ä¸ģ":6409,"çĤ¼":6410,"åº§æłĩä¸º":6411,"æ´Ľåħĭ":6412,"çĻ¾ä¸ĩ":6413,"ich":6414,"è´§è¿Ĳ":6415,"è½°çĤ¸æľº":6416,"ĠæĽ¾ç¥ĸ":6417,"ä»¥æŃ¤":6418,"ä¸įæķĮ":6419,"ä½įäºİè¯¥":6420,"Ġåľ°æĸ¹èµĦæĸĻ":6421,"çļĦæĹ¥":6422,"äººæ°ĳä»£è¡¨å¤§ä¼ļ":6423,"æ¤İ":6424,"äºİ2013å¹´":6425,"å¤§å¤«":6426,"èĭ¹":6427,"å±ķçİ°":6428,"çļĦæĿĳåºĦ":6429,"çº³åħ¥":6430,"è®¸åı¯":6431,"ç»¥":6432,"çľł":6433,"çī¹æľĹ":6434,"æĸ¹éĿ¢çļĦ":6435,"è´§çī©":6436,"çİĭåŃĲ":6437,"åıªè¦ģ":6438,"é¸Ń":6439,"ä¸ºæĸ°":6440,"æĹ¶æĬ¥":6441,"ä¸ĭä¸Ģ":6442,"è¿Ļåº§":6443,"ä¼Ĺè®®éĻ¢":6444,"èħ¿":6445,"æ¶µçĽĸ":6446,"io":6447,"Ġäº¤éĢļ":6448,"æĪĺæĸĹæľº":6449,"æł¼å°Ķ":6450,"éľŀ":6451,"çº¦çĳŁ":6452,"åį³å°Ĩ":6453,"ç¬¬ä¸Ģä½į":6454,"åħ«æľĪ":6455,"æĥ³è¦ģ":6456,"äºİ2019å¹´":6457,"æŃ»åĪĳ":6458,"è´¢äº§":6459,"und":6460,"éªļ":6461,"åģļåĩº":6462,"cn":6463,"å··":6464,"æľīè®¸å¤ļ":6465,"ä¸įè¦ģ":6466,"ä¸ĥæľĪ":6467,"åıĽä¹±":6468,"ä¸Ĭéĺµ":6469,"æľ¬çº¿":6470,"åĨħèĴĻåı¤":6471,"ç§°åı·":6472,"ç«ŀæĬĢ":6473,"ug":6474,"1941å¹´":6475,"è½¯ä½ĵ":6476,"ä¸¸":6477,"äºİ2020å¹´":6478,"æĸ¹ä¾¿":6479,"å¨ħ":6480,"èħº":6481,"å¤ļåĲį":6482,"æľįè£ħ":6483,"åĲĮæĹ¶ä¹Ł":6484,"éģŃåıĹ":6485,"97":6486,"è¿Ľåħļ":6487,"ä¹¦ä¸Ń":6488,"åįķåħĥ":6489,"èħĵ":6490,"åĮºéĹ´":6491,",),":6492,"æ¶Ľ":6493,"æŁ¥çĲĨ":6494,"å·¦ç¿¼":6495,"å¤§ä½¿é¦Ĩ":6496,"éĩįéĩı":6497,"åĽŀå¿Ĩ":6498,"çļĦæĶ¿æ²»":6499,"æĭīçī¹":6500,"èį¡":6501,"ock":6502,"ä¸ľäºļ":6503,"è°Ĭ":6504,"éĩĳå±±":6505,"è£ģåĪ¤":6506,"åĮºåĪĨ":6507,"èµ·åĪĿ":6508,"å¨¶":6509,"çĽ´åįĩ":6510,"ç¤¾ç¾¤":6511,"åĮĹæµ·éģĵ":6512,"ai":6513,"ey":6514,"è°ĥå¿«":6515,"1944å¹´":6516,"ry":6517,"æ²³è°·":6518,"è¿Ľè¡ĮçļĦ":6519,"åĨĻéģĵ":6520,"æ¶īå«Į":6521,"9äºº":6522,"ä¹ĭä¸º":6523,"èĲ¥ä¸ļ":6524,"åį«éĺŁ":6525,"é±¼éĽ·":6526,"åĪĨå¸ĥåľ¨":6527,"è®¼":6528,"è¯¥çīĩ":6529,"éĺ³å¸Ĥ":6530,"ä¼łç»ŁçļĦ":6531,"æķĮäºº":6532,"æŃ¤ç«Ļ":6533,"ç©ºè¢Ń":6534,"åįıå®ļ":6535,"162":6536,"ä¸ºUTC":6537,"ç§įç±»":6538,"è¾Ĳå°Ħ":6539,"æĺ¯åı°æ¹¾":6540,"ä»¥ä¸ľ":6541,"çī¹å°Ķ":6542,"éĵĥ":6543,"åł¤":6544,"å¾ģæľį":6545,"èŀįåĲĪ":6546,"çļĦä¸į":6547,"æ³ķä»¤":6548,"ä½ĨåĽł":6549,"æł¼éĽ·":6550,"éĿĴå°ĳå¹´":6551,"åĺīä¹ī":6552,"æ¯Ĺ":6553,"æĬĦ":6554,"æİ©":6555,"åıĤæķ°":6556,"è¿ŀè½½":6557,"åĻ¶":6558,"ceĠ":6559,"åıĤè®®éĻ¢":6560,"æ¯ıåĳ¨":6561,"æĪĺæľ¯":6562,"è½¬çļĦ":6563,"éĩįè§Ĩ":6564,"):":6565,"è¥¿æĸ¯":6566,"åı¯åľ¨":6567,"é¢ĨåħĪ":6568,"ç»ĪçĤ¹":6569,"ç£·":6570,"è§īå¾Ĺ":6571,"Ġ2005å¹´":6572,"æ³ķåħ°åħĭ":6573,"èĪĮ":6574,"å¦Ĥä»Ĭ":6575,"æħ°":6576,"è°ĥå¿«ä¸Ģå°ıæĹ¶":6577,"çĢ":6578,"éĥģ":6579,"177":6580,"å§Ķåĳĺä¼ļå§Ķåĳĺ":6581,"æ¿Ĵ":6582,"ä¾įéĥİ":6583,"èĩĤ":6584,"æĪĲçĨŁ":6585,"å¸ĥæľĹ":6586,"ç¤¾äº¤":6587,"åį³UTC":6588,"è®¾æľīå¤ıä»¤æĹ¶éĹ´":6589,"çļĦæĹ¶åĮºä¸ºUTC":6590,"èĢĮè¯¥åľ°æīĢéĩĩçĶ¨":6591,"åĲĮæĹ¶è¯¥åľ°è®¾æľīå¤ıä»¤æĹ¶éĹ´":6592,"èĢĮè¯¥åľ°æīĢéĩĩçĶ¨çļĦæĹ¶åĮºä¸ºUTC":6593,"æ¼Ķè®²":6594,"åį¡æĸ¯":6595,"åįķä¸Ģ":6596,"è¿Ļåľº":6597,"éķĩåĮºçļĦ":6598,"äº¤æ±ĩ":6599,"æ»¡æ´²":6600,"å»¶ç»Ń":6601,"84":6602,"ä»£çļĦ":6603,"éĢļå¾Ģ":6604,"çĥ¯":6605,"ess":6606,"çĪµå£«":6607,"å·¥ä¼ļ":6608,"åŁİçļĦ":6609,"ä»İæľª":6610,"åŀĭåı·":6611,"MV":6612,"Ġåħ¶":6613,"è´·":6614,"æĦŁè§ī":6615,"1972å¹´":6616,"ç²īä¸Ŀ":6617,"é«ĺäºİæµ·å¹³éĿ¢":6618,"110":6619,"æĢ»çĽĳ":6620,"æį·åħĭ":6621,"è¯¥åħ¬åı¸":6622,"7æľĪ1æĹ¥":6623,"æĮ¡":6624,"ä½Ļäºº":6625,"æİĴè¡Įæ¦ľ":6626,"çļĦæľĢ":6627,"ä¼ļè¢«":6628,"åİ¿çŁ¥åİ¿":6629,"çĽ¸å½ĵäºİ":6630,"æīĢå¤ĦçļĦæµ·æĭĶä¸º":6631,"æīĢå¤ĦçļĦæµ·æĭĶä¸ºé«ĺäºİæµ·å¹³éĿ¢":6632,"ä¸Ģç³»åĪĹ":6633,"ä¹ĭå¤Ħ":6634,"éĥ½è¢«":6635,"æŃ£æľĪ":6636,"è¡¥åħħ":6637,"åº¶":6638,"æľīèĳĹ":6639,"çİ²":6640,"åŃĲå¥³":6641,"Ġ190":6642,"æķĻèĤ²éĥ¨":6643,"Ġf":6644,"éªĹ":6645,"ä¼¤äº¡":6646,"å®īå¾½çľģ":6647,"Go":6648,"å¸Ĩ":6649,"ä¸»å¯¼":6650,"æĸ°åĨł":6651,"å¤§éĿ©åĳ½":6652,"èģª":6653,"æĦ¤":6654,"ä¿Ŀè¯ģ":6655,"æĻ®ç½Ĺ":6656,"åıĤä¸İäºĨ":6657,"æĹłäººæľº":6658,"å¼ĵ":6659,"åľ°å½¢":6660,"çİ°åŃĺ":6661,"åķĨäºº":6662,"ox":6663,"Ġåı°æ¹¾":6664,"æ°¸ä¹ħ":6665,"700":6666,"æĪĺåľº":6667,"åĲĪåĲĮ":6668,"æł¼éĩĮ":6669,"é²¸":6670,"ä½¿çĶ¨äºĨ":6671,"æĹ©ä¸Ĭ":6672,"1976å¹´":6673,"è¯¦ç»Ĩ":6674,"ç»´å¤ļåĪ©äºļ":6675,"aw":6676,"èįĨ":6677,"äºİ2010å¹´":6678,"èĦ±ç¦»":6679,"ç»ĺçĶ»":6680,"æµ·ä¸Ĭ":6681,"åħ·å¤ĩ":6682,"å¾Īå°ĳ":6683,"äºĴåĬ¨":6684,"çİ°åľ¨çļĦ":6685,"å·ŀéķ¿":6686,"å°¼åı¤":6687,"å²Ľä¸Ĭ":6688,"çĵ¶":6689,"å¡Ķå°Ķ":6690,"çĻ»è®°":6691,"1956å¹´":6692,"81":6693,"éĿ¢ä½ĵ":6694,"æ¡Į":6695,"ä¼łæķĻ":6696,"åį³åĮĹç¾İ":6697,"æĮĩæĮ¥å®ĺ":6698,"æĺ¯ä¿Ħç½Ĺæĸ¯":6699,"äºİ2021å¹´":6700,"ç¥¯":6701,"è·¯åı£":6702,"å²ĽçļĦ":6703,"äº¬éĥ½":6704,"è¯ºå¤«":6705,"æ¾Ħ":6706,"æ©Ħ":6707,"Sp":6708,"éħ®":6709,"èİ·èĥľ":6710,"åºıåĪĹ":6711,"èĤ¡ä»½æľīéĻĲåħ¬åı¸":6712,"åľ°äºļ":6713,"åįģä¸ĥ":6714,"éĽĨä½ĵ":6715,"94":6716,"IT":6717,"æ¸ł":6718,"æ²³éģĵ":6719,"æİ¢éĻ©":6720,"éķĩåĮºçļĦéĿ¢ç§¯ä¸º":6721,"äº©":6722,"æĽ´å¤ļçļĦ":6723,"åį³ä½į":6724,".âĢľ":6725,"ä½ľä¸ļ":6726,"æĸ½å·¥":6727,"140":6728,"çļĦåıį":6729,"åºĩ":6730,"ä»¥è¥¿":6731,"åĲİåľ¨":6732,"åĪĨä¹ĭä¸Ģ":6733,"æµģä¼ł":6734,"ç¿Įå¹´":6735,"äºĨä»ĸ":6736,"æĢ»è£ģ":6737,"éĢīåĩº":6738,"åĪĩå°Ķ":6739,"ection":6740,"èļĢ":6741,"ä¼Ĭæĸ¯åħ°æķĻ":6742,"çļĦç¥ŀ":6743,"ä¼ŀ":6744,"å§¿":6745,"èĩªç§°":6746,"åĽĽä¸ĸ":6747,"è¾ĸåĮº":6748,"1937å¹´":6749,"æķĪåĬĽäºİ":6750,"å§ĳ":6751,"å¤ļæł·":6752,"å¾·æĦıå¿Ĺ":6753,"éĤĳ":6754,"å¤Ħéķ¿":6755,".(":6756,"158":6757,"åįĹæŀģæ´²":6758,"æĨ":6759,"åĽ½éģĵ":6760,"åħ¬é¡·":6761,"164":6762,"MA":6763,"çļĦè¡Įä¸º":6764,"ä¸»åĬ¨":6765,"èĬŃ":6766,"æ©Ħæ¦Ħ":6767,"6ä¸ª":6768,"ç»ĳ":6769,"è¡Įäºº":6770,"èĩ´åĬĽ":6771,"çģŃç»Ŀ":6772,"ä½Ľç½ĹéĩĮ":6773,"çļĦæŃĮæĽ²":6774,"çļĦåŁºç¡Ģ":6775,"ç»´åŁº":6776,"æĿŃå·ŀ":6777,"ĠæĹ¥æľ¬":6778,"ä»Ĩ":6779,"åºļ":6780,"æ³Ħ":6781,"åĨħåľ°":6782,"æ»ķ":6783,"éŃĶæ³ķ":6784,"km":6785,"ä»ĸä¸º":6786,"äºĮçº§":6787,"æ¤ħ":6788,"äºĴèģĶç½ĳ":6789,"åľ¨ä½į":6790,"ä¹Łæ²¡æľī":6791,"æĶ¹å»º":6792,"83":6793,"å®¹çº³":6794,"ä¸»æĮģäºº":6795,"æľĢä¸º":6796,"ç»ıçĶ±":6797,"å·´åĭĴ":6798,"1952å¹´":6799,"ä¸ľåįĹäºļ":6800,"æ±īåŃĹ":6801,"ect":6802,"ç¥Ī":6803,"éĢļçĶ¨":6804,"çĽ¸åıį":6805,"çıŃæ¬¡":6806,"ie":6807,"çĪ·":6808,"å°ĳå°Ĩ":6809,"åĩºåľº":6810,"æĶ¿åıĺ":6811,"æ°Ķä½ĵ":6812,"1938å¹´":6813,"éĥ¨å°ļä¹¦":6814,"è¢«åĳĬ":6815,"æ²¿å²¸":6816,"ign":6817,"ä¸İæŃ¤":6818,"1947å¹´":6819,"çĸ«èĭĹ":6820,"ib":6821,"å±±è¥¿çľģ":6822,"åħŃæľĪ":6823,"ç¾¤ä¼Ĺ":6824,"per":6825,"ĠçĶ±":6826,"åŃ¦ç³»":6827,"ç½©":6828,"åķĨåľº":6829,"157":6830,"çļĦéĿ¢ç§¯":6831,"çļĦæīĢæľī":6832,"æĺ¯ä¸ª":6833,"ä»¥1":6834,"ãĢĭãĢģ":6835,"åĬłå°Ķ":6836,"åį«è§Ĩ":6837,"æ¡£æ¡Ī":6838,"çļĦç»ĵæŀľ":6839,"æ¼Ķèīº":6840,"1955å¹´":6841,"èĭ¹æŀľ":6842,"14å¹´":6843,"ook":6844,"å¹¶æĹł":6845,"æ¸¯åħĥ":6846,"åķ¡":6847,"åĬ£":6848,"æĭħå¿ĥ":6849,"æĶ»åįł":6850,"Pro":6851,"çº§èģĶèµĽ":6852,"æħİ":6853,"Ġä¸ªäºº":6854,"å®ŀä½ĵ":6855,"ãĢĭ(\"":6856,"éĢ¸":6857,"å¸ĥéĽ·":6858,"è¿ŀç»ĵ":6859,"äºİ2011å¹´":6860,"ram":6861,"son":6862,"å±±åİ¿":6863,"æĥ§":6864,"æ¸ħæ¥ļ":6865,"é¹ı":6866,"æİ¢ç´¢":6867,"çļĦçĶµ":6868,"éķĩåİĭ":6869,"æĻ®é²ģå£«":6870,"ð«":6871,"éķĳ":6872,"éķ¿çº¦":6873,"1980å¹´ä»£":6874,"æł¸éħ¸":6875,"æŀ¶æŀĦ":6876,"è´ª":6877,"çŁ®":6878,"çĥ·":6879,"å¼ķçĶ¨":6880,"åĢ¼å¾Ĺ":6881,"åĪ¤åĨ³":6882,"ç¬¬5":6883,"æ°ĳè¿Ľåħļ":6884,"åįķæīĵ":6885,"æĺ¯ä¸Ģä¸ªä½įäºİ":6886,"èľĤ":6887,"HD":6888,"163":6889,"é³ŀ":6890,"ä¸Ńå°Ĩ":6891,"çİ°ä¸º":6892,"ear":6893,"ç»´åħĭ":6894,"PS":6895,"æīĳ":6896,"åĲįäºº":6897,"åĨĽäºº":6898,"æľŁçļĦ":6899,"æĢ»ä¼ļ":6900,"å¥³çİĭ":6901,"æĶ¾åľ¨":6902,"æ¨±":6903,"çļĦä¸ĢæĿ¡":6904,"ç¦ıå¾·":6905,"è¡ĮæĶ¿éĻ¢":6906,"æĪĲç«ĭäºĨ":6907,"éĴ¢çĲ´":6908,"...":6909,"Ġä¸»è¦ģ":6910,"è´¼":6911,"åħ±è®¡":6912,"æł¼æŀĹ":6913,"äºİ2022å¹´":6914,"å¹³çŃī":6915,"è°´":6916,"çº³å·ŀ":6917,"è¸ı":6918,"å½»åºķ":6919,"åĮĹä¾§":6920,"åĪ©çļĦ":6921,"å¤©çļĦ":6922,"å®ŀè·µ":6923,"ä¿ĦåĨĽ":6924,"å»ºçŃĳå¸Ī":6925,"åı²å¯Ĩæĸ¯":6926,"éĢ¾":6927,"åİŁä¸º":6928,"æĺŁç³»":6929,"ä¿®éģĵ":6930,"ä¹¡éķĩ":6931,"æıĲåĩºçļĦ":6932,"oy":6933,"éĩįè¿Ķ":6934,"ä¿®è®¢":6935,"å±ĤçļĦ":6936,"1968å¹´":6937,"å¤«å¦ĩ":6938,"ä¹ĿæľĪ":6939,"æ²³åĮĹçľģ":6940,"ust":6941,"Ġn":6942,"Ġå¯¹":6943,"ä¸»åĬĽ":6944,"åĪĨæł¡":6945,"ä¸ĭäºĨ":6946,"æ±ŁæĪ·":6947,"å¸Įå°Ķ":6948,"åĬ³å·¥":6949,"2åı·":6950,"åĵª":6951,"è¿ªå£«":6952,"çļĦåŁİå¸Ĥ":6953,"åħ¶ä¸º":6954,"çŃĴ":6955,"æĸ°å»º":6956,"æ¡ĥåĽŃ":6957,"YouT":6958,"Ġè¥¿":6959,"åľ°ä¸Ń":6960,"è¡Įèµ°":6961,"æµ·åįĹ":6962,"è¯¥åħļ":6963,"ç»´ä¿®":6964,"çªĦ":6965,"èµĶ":6966,"åįĹä¾§":6967,"æł¼é²ģ":6968,"åĪĹåĩº":6969,"1939å¹´":6970,"çĶ»éĿ¢":6971,"æķ´åĲĪ":6972,"éĻ¨çŁ³":6973,"Ġé©¬":6974,"å¤´è¡Ķ":6975,"äºĭå®ŀä¸Ĭ":6976,"æķ²":6977,"èĤ¢":6978,"å¼ķè¿Ľ":6979,"ĠçĽ®åīį":6980,"Ġå®¶åºŃ":6981,"åıĹå®³":6982,"å½ķåĪ¶":6983,"å¥½è¯Ħ":6984,"1940å¹´":6985,"çºł":6986,"æĬĽ":6987,"å½ĵä»£":6988,"èĹ»":6989,"ä¼¤å®³":6990,"çĲĨæŁ¥":6991,"å§Ķä»»":6992,"è¯ģåĪ¸":6993,"11å¹´":6994,"è¿ªå£«å°¼":6995,"/&":6996,"ä¸Ģéĥ¨":6997,"è¾ĥä½İ":6998,"ä»įåľ¨":6999,"åĲĬ":7000,"è°¥":7001,"å¤©ä¸ĭ":7002,"1954å¹´":7003,"1960å¹´":7004,"çļĦè¯´æ³ķ":7005,"åĨĢ":7006,"äºİ2023å¹´":7007,"æŃ¤åīį":7008,"èµ·è¯ī":7009,"è®®å¸Ń":7010,"1942å¹´":7011,"èĩªè¡Įè½¦":7012,"13å¹´":7013,"åĿŁ":7014,"ä¼Ĭæĭīåħĭ":7015,"çĽŁåĨĽ":7016,"åĩ¸":7017,"åĮºåĪ«":7018,"ä¸»æĿĥ":7019,"éģ®":7020,"ä½¿çĶ¨èĢħ":7021,"çĻ¾å¹´":7022,"åįłæį®":7023,"ä¸ĬäºĨ":7024,"æĥ©":7025,"å®ĺèĩ³":7026,"åĶ¯ä¸ĢçļĦ":7027,"ost":7028,"åľ¨åĮĹ":7029,"äº§çĶŁäºĨ":7030,"toĠ":7031,"ĠéĻ¤äºĨ":7032,"å¤ļé¡¹":7033,"ä»»æķĻ":7034,"å»ºäºİ":7035,"çļĦæĹ¥æľ¬":7036,"ä¹ŁæĽ¾":7037,"çĽ®çļĦæĺ¯":7038,"åĸĩ":7039,"åİĨåı²åŃ¦å®¶":7040,"åĲİæĸ¹":7041,"æĴŀåĩ»":7042,"ach":7043,"ä¸Ģé¡¹":7044,"å°ģä¸º":7045,"è¯Ĺäºº":7046,"æŃī":7047,"è¯ºæĽ¼":7048,"æĥ³æ³ķ":7049,"æľĽè¿ľ":7050,"17å¹´":7051,"Ġåīį":7052,"ĠæĿİ":7053,"ĠçĦ¶èĢĮ":7054,"Ġæķħäºĭ":7055,"æĪĺåĪĹ":7056,"è®¤åĲĮ":7057,"èĥĮé³į":7058,"ç¬¬ä¸Ģæ¬¡ä¸ĸçķĮå¤§æĪĺ":7059,"çĩĥæĸĻ":7060,"è¢«ä»»åĳ½ä¸º":7061,"æĹłçº¿çĶµè§Ĩ":7062,"iz":7063,"çĶľ":7064,"èµ£":7065,"åĪ°çļĦ":7066,"æŃ¦å¸Ŀ":7067,"1943å¹´":7068,"æľµ":7069,"æĶ»æīĵ":7070,"1975å¹´":7071,"ĠèĢĮ":7072,"å±¥":7073,"åĲĮåĲį":7074,"åĪĻæľī":7075,"æłĩè®°":7076,"çĶ·å¥³":7077,"å®ĮæĪĲäºĨ":7078,"æ¬¡äºİ":7079,"æĥħç»ª":7080,"é£ŁæĢ§":7081,"1970å¹´":7082,"æĲºå¸¦":7083,"åħ¬åĬ¡":7084,"é¢ł":7085,"èĭıç»´åŁĥ":7086,"è®®é¢ĺ":7087,"æĤł":7088,"äºİ2009å¹´":7089,"ç»µ":7090,"æĹ¥åĲİ":7091,"åŁİå¢Ļ":7092,"äº¤çķĮ":7093,"èĽĭçĻ½è´¨":7094,"åİ¥":7095,"ä¸Ĭè¯ī":7096,"æĸ¯åł¡":7097,"äº¤åıī":7098,"æ¨¡çī¹":7099,"å¡ŀçº³":7100,"è°´è´£":7101,"åľ¨æ³ķåĽ½":7102,"æ¸Ĭ":7103,"éĻ¤æŃ¤":7104,"åį°ç¬¬":7105,"æĦ¿æĦı":7106,"SS":7107,"èµĽçļĦ":7108,"å®ļæľŁ":7109,"èĬĻ":7110,"æ¢¨":7111,"è¿ĺåľ¨":7112,"ç»ıæµİåŃ¦":7113,"å¢ŀåĬłäºĨ":7114,"ern":7115,"åħĪè¿Ľ":7116,"156":7117,"159":7118,"æ¹ĸæ³Ĭ":7119,"ä¸ĭè¾ĸä»¥ä¸ĭ":7120,"çŁĽçĽ¾":7121,"åį§":7122,"çī©åĵģ":7123,"è¯¥æł¡":7124,"çī¹æľĹæĻ®":7125,"æĺ¯ä¸Ńåįİäººæ°ĳåħ±åĴĮåĽ½":7126,"éĤµ":7127,"éĵģè·¯è½¦ç«Ļ":7128,"æĻºæħ§":7129,"å²©çŁ³":7130,"ç½Ĺå¤«":7131,"åĽ¢ç»ĵ":7132,"åºĶå¯¹":7133,"éĺ³åİ¿":7134,"è°ĭæĿĢ":7135,"ä¸ŃåĽ½åĽ½æ°ĳåħļ":7136,"12æľĪ31æĹ¥":7137,"ä¼Ļä¼´":7138,"çĽ´åįĩæľº":7139,"å¼Ģå·¥":7140,"åĿł":7141,"çĤŃ":7142,"eĠC":7143,"è¿ĳä»£":7144,"åī¥":7145,"ä»£æĽ¿":7146,"è¿ĩçļĦ":7147,"éģĵåħī":7148,"æ²ĻçĶ°":7149,"æľĢæĹ©çļĦ":7150,"çĶŁéķ¿äºİ":7151,"äººæ¬¡":7152,"æĶ¶è´¹":7153,"ç«ĭæ³ķä¼ļ":7154,"Ġä½¿çĶ¨":7155,"æĶ¹åĪ¶ä¸º":7156,"éĥ½çĿ£":7157,"æıĲäº¤":7158,"å¸¸å¸¸":7159,"æ¸ħä»£":7160,"éĢīä¸¾ä¸Ń":7161,"å¦¹å¦¹":7162,"æľĽè¿ľéķľ":7163,"ge":7164,"å¤§éĺŁ":7165,"çº¿æĢ§":7166,"ä»įæľī":7167,"ä¸º0":7168,"å¥¸":7169,"éĩĮåħĭ":7170,"çĲĨå¿µ":7171,"çķħ":7172,"æĽ´æį¢":7173,"au":7174,"az":7175,"æĤ¦":7176,"åıĳçĶŁäºĨ":7177,"èı²åĪ©":7178,"å·¨å¤§çļĦ":7179,"å¼ĢåĬŀ":7180,"çľģçļĦ":7181,"çº³å¾·":7182,"æĹ¥æľ¬çļĦ":7183,"ä¸ĵçĶ¨":7184,"åĵĪåĪ©":7185,"ä¹ĭåĲİçļĦ":7186,"éļ¾æ°ĳ":7187,"é¢ģå¸ĥ":7188,"æŀ¢çº½":7189,"éĢ»è¾ĳ":7190,"åį°ç¬¬å®ī":7191,"æĮĩæķ°":7192,"æĹ¶ä»£çļĦ":7193,"ä¸ªä½ĵ":7194,"æĶ¹åĲį":7195,"æ´Ľæĸ¯":7196,"éĻįéĽ¨":7197,"ial":7198,"æĹ±":7199,"ä»¥2":7200,"æ±ŁåįĹ":7201,"æĺ¯ä¸ºäºĨ":7202,"ä¸»ç®¡":7203,"åĽĽå¤§":7204,"SM":7205,"çļĦåľ°åĮº":7206,"æĶ¿åĬ¡":7207,"å¯¹éĺµ":7208,"æīĢéľĢ":7209,"çĪ±åĽ½":7210,"èµĽä¸Ń":7211,"åħ¨ä½ĵ":7212,"è¯ŃéŁ³":7213,"èģĮåĳĺ":7214,"å¼ºåĪ¶":7215,"æ©¡":7216,"åĲįè¯į":7217,"VD":7218,"è¡Įé©¶":7219,"æİĴåĪĹ":7220,"æµİåįĹ":7221,"(;),":7222,"èĤ©":7223,"è½¬ä¸º":7224,"åįıåķĨ":7225,"ä¹łæĥ¯":7226,"å´ĸ":7227,"åıĤè°ĭéķ¿":7228,"ä¸ºåŁºç¡Ģ":7229,"å¯¹ç§°":7230,"çİ°æľī":7231,"è°ģ":7232,"å¤ĸè§Ĥ":7233,"éĢīç§Ģ":7234,"1964å¹´":7235,"è¿·ä½ł":7236,"å°ĺ":7237,"ä¸Ńåıĳçİ°":7238,"æĹ¥å¸¸":7239,"ä¸īåĽ½":7240,"æĥľ":7241,"æł¼åĭĴ":7242,"ä¹¦åĨĻ":7243,"ç½Ĺé©¬å¸ĿåĽ½":7244,"åĪĳäºĭ":7245,"èĸĩ":7246,"ä¸įå¾Ĺä¸į":7247,"åĲĪåĶ±":7248,"æĢ§åĴĮ":7249,"æİ¥èĳĹ":7250,"æł¹æľ¬":7251,"å¤´éĥ¨":7252,"å¥ĸéĩĳ":7253,"åį°åĪ·":7254,"è¥¿çıŃçīĻè¯Ń":7255,"åĴ¨è¯¢":7256,"16å¹´":7257,"ala":7258,"ç«ĭéĻ¶":7259,"çī²":7260,"ãĢĮãĢį":7261,"æģ¨":7262,";/":7263,"äºĨä»ĸçļĦ":7264,"èµĽè½¦":7265,"æ¢µ":7266,"è½¬ä¼ļ":7267,"å¡Ķå°¼":7268,"èĬĤåº¦ä½¿":7269,"å¯¹è¯Ŀ":7270,"è°į":7271,"èħ°":7272,"ä½įçļĦ":7273,"ä¸¤å²¸":7274,"çĪª":7275,"åĽ¾æ¡Ī":7276,"ä¼ĲåĪ©äºļ":7277,"130":7278,"mer":7279,"è°Ĳ":7280,"ord":7281,"åĩĨç¡®":7282,"åĨłçĬ¶":7283,"è®©ä»ĸ":7284,"åĵĢ":7285,"èĩªæŃ¤":7286,"æŃ¤äºĭ":7287,"é¦ĸåº¦":7288,"é¢ĺæĿĲ":7289,"ä½ıæĪ¿":7290,"çĽĪ":7291,"çĶ¨ä»¥":7292,"ç«ĻæĪ¿":7293,"ç»¼èīº":7294,"åľ¨è¥¿":7295,"æĢ¡":7296,"è§Ĥåħī":7297,"çģ«è½¦":7298,"çļĦåĨħå®¹":7299,"ä»ĸè®¤ä¸º":7300,"é«ĺåİŁ":7301,"å¼¹èį¯":7302,"æĻºèĥ½":7303,"éķľå¤´":7304,"çĥŃå¸¦é£İæļ´":7305,"åŃŁåĬłæĭī":7306,"æ¹ĸåįĹçľģ":7307,"éĵİ":7308,"èĻı":7309,"ark":7310,"æĪĲç«ĭåĲİ":7311,"æİ¢æµĭ":7312,"å½ķå½±å¸¦":7313,"èĩĢ":7314,"äºĨè®¸å¤ļ":7315,"ä¸Ĭå¸Ŀ":7316,"åĬ¨è½¦":7317,"è°¦":7318,"èī²å½©":7319,"äºİ2008å¹´":7320,"é©¬åħĭæĢĿ":7321,"ä¸Ģå¤©":7322,"çĽ¸åºĶ":7323,"é¾ĻçļĦ":7324,"äººä¸º":7325,"ç«£":7326,"ä½ĵåĪ¶":7327,"ç»´ä¹Ł":7328,"ç»§ä»»":7329,"åıĭå¥½":7330,"ç«ĭéĻ¶å®Ľ":7331,"æĪĲæŀľ":7332,"ä½ĵéªĮ":7333,"çĿĽ":7334,"çĻ¾ç§ĳ":7335,"è¡įçĶŁ":7336,"å¼Ħ":7337,"ç§ĳä¼ļè¯ķ":7338,"170":7339,"åĨľåľº":7340,"è¯ĨåĪ«":7341,"çºªå½ķçīĩ":7342,"æĳĩæ»ļ":7343,"çĳľ":7344,"åįĩæł¼ä¸º":7345,"ç¢°":7346,"1936å¹´":7347,"æİĮæı¡":7348,"åĴĸåķ¡":7349,"ä¸»æīĵ":7350,"åİŁæĿ¥":7351,"æĽ¾æĺ¯":7352,"æ·ĳ":7353,"æ±īè¯Ń":7354,"åĲĮæĹ¶ä¹Łæĺ¯":7355,"éĿĴæĺ¥":7356,"æŃ¥æŀª":7357,"çŃ¹å¤ĩ":7358,"Ġå¤©":7359,"æ²¼":7360,"åīįè¿Ľ":7361,"èĤĿ":7362,"çŁ¥åºľ":7363,"æĻ¯è§Ĥ":7364,"çº¦çĳŁå¤«":7365,"Ġ11":7366,"æĺ¯ä¸į":7367,"ç¼Ŀ":7368,"Ġç¬¬ä¸Ģ":7369,"æľŃ":7370,"åľ¨éĤ£éĩĮ":7371,"è¿Ļç±»":7372,"ç±³åħ°":7373,"åĪ¤å¤Ħ":7374,"èļģ":7375,"æ¹ĸåĮĹçľģ":7376,"å¤¸":7377,"çļĦåľ£":7378,"èĪĨ":7379,"2026å¹´":7380,"ç¼ĸåı·ä¸º":7381,"Ġæ¦Ĥè¦ģ":7382,"åľ°äº§":7383,"è´¬":7384,"åħ¨çº¿":7385,"çłĶç©¶çĶŁ":7386,"åĲ¦è®¤":7387,"se":7388,"åľ°ä¸Ĭ":7389,"ä¸»æµģ":7390,"åĬłåĪ©äºļ":7391,"é©±éĢĲèĪ°":7392,"(,;)":7393,"çī¹åħ°":7394,"åĨħæĶ¿":7395,"è¯¥å¸Ĥ":7396,"æİ¥ç®¡":7397,"182":7398,"å®¹éĩı":7399,"èĪªçıŃ":7400,"åįĬå¹´":7401,"åĵ¥åĵ¥":7402,"1966å¹´":7403,"åĽ½éĺ²éĥ¨":7404,"çŁ©éĺµ":7405,",)":7406,"çľģéģĵ":7407,"åħĥæľĿ":7408,"èĿł":7409,"å¥¥æĸ¯åį¡":7410,"æľ¬å±Ĭ":7411,"çĽ¸ç»§":7412,"åħµåĽ¢":7413,"æ³°åĭĴ":7414,"é¢Ħå¤ĩ":7415,"ç®Ĺæ³ķ":7416,"PC":7417,"å®ł":7418,"å¼ĢåĲ¯":7419,"æĪĺèĥľ":7420,"æĳĶ":7421,"71":7422,"ct":7423,"ä¸ºä¸ŃåĽ½":7424,"æµĨ":7425,"è¢«åıĳçİ°":7426,"ç¥Ĳ":7427,"æĶ¹è£ħ":7428,"Ġç¬¬äºĮ":7429,"å±ħä½ıåľ¨":7430,"éĻķè¥¿çľģ":7431,"Ġå°½ç®¡":7432,"ä¹ĭéĻħ":7433,"çģ«çģ¾":7434,"æĪ¿éĹ´":7435,"250":7436,"åĲįè¿Ľå£«":7437,"çī©ä½ĵ":7438,"çļĦæ¦Ĥå¿µ":7439,"ä¸Ģäºº":7440,"ä¸ĢæĶ¯":7441,"ef":7442,"à¸":7443,"æ¼Ĩ":7444,"æİ¨ç¿»":7445,"å¿ĹæĦ¿":7446,"çĻ¾å§ĵ":7447,"æĺ¯ä»İ":7448,"æĪĲåĪĨ":7449,"é¢ĸ":7450,"èĭ±éķĳ":7451,"åĽŀåĽ½":7452,"å®¢æĪ·":7453,"æĹ§åĿĢ":7454,"äºİ2007å¹´":7455,"çļĦä¸ŃåĽ½":7456,"çĮľ":7457,"åŀĤçĽ´":7458,"åįĹæµ·":7459,"åĽłåºĶ":7460,"åĭĺ":7461,"æ²³æµģåŁŁ":7462,"Ġåı¦å¤ĸ":7463,"åħĶ":7464,"æĸ°åĮĹ":7465,"æĸ°ç«¹":7466,"çĶµæ±ł":7467,"åħ¥åĽ´":7468,"å·´ä¼ĲåĪ©äºļ":7469,"æł¡èĪį":7470,"åģļæ³ķ":7471,"ä¼ģåĽ¾":7472,"ç¥Ńç¥Ģ":7473,"äºİæŃ¤":7474,"å¿Į":7475,"éĿ¢åĲĳ":7476,"éĢīæ°ĳ":7477,"äºİåĲĮå¹´":7478,"æľ¬ç§ĳ":7479,"è·Į":7480,"ç§°ä¹ĭä¸º":7481,"ä¿Ŀå®ī":7482,"Play":7483,"éĩįå¤į":7484,"è¾ĥå¤§":7485,"ä¹Įæĸ¯":7486,"è´Łè´£äºº":7487,"1959å¹´":7488,"èĽĽ":7489,"è¿ģç§»":7490,"éĢłæĪĲçļĦ":7491,"ä¼Ĳåħĭ":7492,"çļĦåŃ¦çĶŁ":7493,"è¾Ī":7494,"åıĺæį¢":7495,"Ġ2004å¹´":7496,"ç§©åºı":7497,"ET":7498,"Ġæ¸¸æĪı":7499,"åĲĮæŃ¥":7500,"ath":7501,"ç¬¬åįģä¸ī":7502,"è¿«ä½¿":7503,"éĺħè¯»":7504,"çļĦéķ¿":7505,"æ°®":7506,"ä¸īç§į":7507,"æĹ©åľ¨":7508,"å°ºå¯¸":7509,"ä¸ºè¾Ĳé³įé±¼çº²é²":7510,"å¤§è¡Ĺ":7511,"çī¹æĢ§":7512,"ä¸Ńé¥°æ¼Ķ":7513,"åĲįä¸¾äºº":7514,"å±±çļĦ":7515,"å¤§éĩıçļĦ":7516,"(;)":7517,"EC":7518,"cl":7519,"çī©çļĦ":7520,"èı²å°Ķå¾·":7521,"ä»ĸåĴĮ":7522,"åıĳæİĺ":7523,"èĢĮæĿ¥":7524,"å±±å¸Ĥ":7525,"åĵĪéĩĮ":7526,"ä½ıåľ¨":7527,"éĥİä¸Ń":7528,"hant":7529,"åİ¦éĹ¨":7530,"åĮĸä¸º":7531,"ç¼ĸç»Ħ":7532,"åİī":7533,"åħ¬ä¼ļ":7534,"ä»ĸå¯¹":7535,"åĿŀ":7536,"æŁ¥å°Ķæĸ¯":7537,"æħķå°¼":7538,"ä½ĳ":7539,"åĮł":7540,"å¸ĥåħ°":7541,"å¹²çº¿":7542,"éģĹä¼ł":7543,"é©±åĬ¨":7544,"èµ¢å¾ĹäºĨ":7545,"äºİ2024å¹´":7546,"èĤĩ":7547,"æĽ´æĺ¯":7548,"çľ¼çĿĽ":7549,"çĺ¤":7550,"æĬĳåĪ¶":7551,"çļĦéĺ¿":7552,"å¤§åħ¬":7553,"ä¸»ä½ĵ":7554,"å·´èµ«":7555,"åĵģè´¨":7556,"çĹħéĢĿ":7557,"æĪĺäºīæľŁéĹ´":7558,"æŃ§è§Ĩ":7559,"\"(":7560,"deĠ":7561,"Ġh":7562,"ä¸ºæľŁ":7563,"å¤§å®¶":7564,"çī¹çĤ¹":7565,"æ¡Ĳ":7566,"æıĲåīį":7567,"æµģéĩı":7568,"èľĢ":7569,"En":7570,"section":7571,"æµ¸":7572,"æĮº":7573,"åįĹæĸ¯æĭīå¤«":7574,"ä¸¤æĿ¡":7575,"èŃ¦æĬ¥":7576,"äºĭåĬ¡æīĢ":7577,"ä¸ľäº¬éĥ½":7578,"åİŁçĲĨ":7579,"åķĨåĬ¡":7580,"ç©¿è¿ĩ":7581,"èµĮ":7582,"ä»»åĨħ":7583,"é©¹":7584,"åĩĨåĨ³èµĽ":7585,"åı¤å·´":7586,"æĹ¥è¯Ń":7587,"ä¹Łåı¯":7588,"å®ŀåĬĽ":7589,"çķĮçļĦ":7590,"èº«ä¸Ĭ":7591,"æĥħèĬĤ":7592,"åİ¿çļĦä¸Ģä¸ªéĿŀå»ºåĪ¶åľ°åĮº":7593,"è¤Ĳèī²":7594,"æħķå°¼é»ĳ":7595,"Ġv":7596,"ĠéĻĪ":7597,"æĪĬ":7598,"å®¶ä¹¡":7599,"çĵ·":7600,"èİ±æĸ¯":7601,"åĩłä½ķ":7602,"æĪĺäºīä¸Ń":7603,"éĽķå¡ĳ":7604,"åĨłçĬ¶çĹħæ¯Ĵ":7605,"æľ¬ä¹¦":7606,"æ´Ľå¤«":7607,"1974å¹´":7608,"ä¾Ŀçħ§":7609,"æĿ¥èĩªäºİ":7610,"ç±»ä¼¼çļĦ":7611,"çīµå¼ķ":7612,"ç»´ä¹Łçº³":7613,"IV":7614,"åĲİæĿ¥çļĦ":7615,".)":7616,"åįĹç¾İæ´²":7617,"äºĭåĲİ":7618,"å¢ŀè®¾":7619,"ä»ħæ¬¡äºİ":7620,"ç«£å·¥":7621,"åıĬåħ¶ä»ĸ":7622,"ç»ıçºª":7623,"éĻ¢å£«":7624,"çªģåĩº":7625,"1953å¹´":7626,"ĠåĮĹ":7627,"Ġ16":7628,"æķĪçİĩ":7629,"ä¿Ĺç§°":7630,"æ»¤":7631,"æ»ĭ":7632,"åĪĴå½Ĵ":7633,"å¹ķåºľ":7634,"ä¸ºçĶ±":7635,"æŁĦ":7636,"èģĶåĨĽ":7637,"æľ¯è¯Ń":7638,"ä¸¥éĩįçļĦ":7639,"yp":7640,"ä½įäºİä¸Ńåįİäººæ°ĳåħ±åĴĮåĽ½":7641,"èĮĦ":7642,"æĿĳæ°ĳ":7643,"åĮ»åŃ¦éĻ¢":7644,"æ·»åĬł":7645,"å¤§çĲĨ":7646,"çľģæİ¥å£¤":7647,"çĶ²åŁº":7648,"ç»ĥä¹ł":7649,"Ġåħ¶ä¸Ń":7650,"å°Ķé¡¿":7651,"åĨħæľī":7652,"èĬ¦":7653,"çĸ¯":7654,"åľ£ç»ı":7655,"ç»ĨèıĮ":7656,"æīŃ":7657,"ä¸Ĭæĸ¹":7658,"éħ¯":7659,"éģĩåĪ°":7660,"ä¿®éģĵéĻ¢":7661,"MS":7662,"è¾¹çļĦ":7663,"æ¿ĢçĥĪ":7664,"çļĦä¸»é¢ĺ":7665,"çļĦåĽ½éĻħ":7666,"çļĦæĪĲç»©":7667,"å¤§æ°Ķ":7668,"åīįèº«":7669,"ç§°èµŀ":7670,"åŁİåİ¿":7671,"å¦ĤåĲĮ":7672,"ä¿ĿåĬłåĪ©äºļ":7673,"æĮĩè´£":7674,"åĽŀåĲĪ":7675,"èĢĥå¯Ł":7676,"éĢĶç»ı":7677,"èĻļæĭŁ":7678,"çļĦçĪ¶äº²":7679,"Ġæł¹æį®2020å¹´ç¾İåĽ½äººåı£æĻ®æŁ¥çļĦæķ°æį®":7680,"çļĦçĶŁæ´»":7681,"çº¦1":7682,"ç¾İåĽ½äºº":7683,"èİ·å¥ĸ":7684,"äºīå¤º":7685,"åįģäºĮæľĪ":7686,"âĨ":7687,"æĶ»åĬ¿":7688,"æī¿æĭħ":7689,"çļ®èĤ¤":7690,"å¤ļåħĥ":7691,"æ£į":7692,"åŃ£åĲİ":7693,"ä½ľæĽ²å®¶":7694,"åĪĨæĪĲ":7695,"æĸ¹ç¨ĭ":7696,"è¶ģ":7697,"åĽ¢éķ¿":7698,"æ£±":7699,"å°±åľ¨":7700,"æľ«æľŁ":7701,"é¢Ĩå¯¼çļĦ":7702,"8ä¸ª":7703,"ee":7704,"éĺŁåĳĺ":7705,"åĲĳåĮĹ":7706,"èİ·åıĸ":7707,"çĽ´è·¯":7708,"ä¹¡æĿĳ":7709,"1973å¹´":7710,"é¡ºåºı":7711,"è¸¢":7712,"AL":7713,"æĻ´":7714,"åħĥéŁ³":7715,"Ġè¯Ħä»·":7716,"1935å¹´":7717,"åħ¬åħ±äº¤éĢļ":7718,"å¸ľ":7719,"åı¸èģĮ":7720,"æ»¥":7721,"é»ĳäºº":7722,"åľ°ä¸Ńæµ·":7723,"åıĹæįŁ":7724,"è±¹":7725,"è¡ĮæĶ¿ä¸Ńå¿ĥ":7726,"1957å¹´":7727,"NBA":7728,"åħ¶åľ¨":7729,"è¿Ļä¹Łæĺ¯":7730,"åĿ¤":7731,"æĢ»ç«Ļ":7732,"å£«é¡¿":7733,"å±Ģå±Ģéķ¿":7734,"åĳ¨åĪĬ":7735,"æİ¨åĩºçļĦ":7736,"èĲ¨æĭī":7737,"ç¥¸":7738,"å¥³åŃ©":7739,"1977å¹´":7740,"åĩºèµĽ":7741,"155":7742,"é¥¶":7743,"åĩłå¹´":7744,"å®ģæ³¢":7745,"EN":7746,"æĺ¯æĦıå¤§åĪ©":7747,"åįģä¸Ģå¹´":7748,"å¥³ä¸»è§Ĵ":7749,"åĵģç§į":7750,"åĩºçİ°çļĦ":7751,"ç¥ĸåħĪ":7752,"æĲŀ":7753,"éĺ´è°ĭ":7754,"äºĳåįĹçľģ":7755,"å¤ªåĲİ":7756,"æĿ¡æ¬¾":7757,"152":7758,"çĮ´":7759,"è´Ŀåħĭ":7760,"å©´åĦ¿":7761,"æ··ä¹±":7762,"å±ŀçļĦæ¤įçī©":7763,"æ§½":7764,"å·´åŁº":7765,"åĵĪæĭī":7766,"éĽ·è¾¾":7767,"åĬłåĪ©ç¦ıå°¼äºļå·ŀ":7768,"å¦¥":7769,"ä¿¡å¾Ĵ":7770,"æŃ»äºİ":7771,"ä½ĵèĤ²é¦Ĩ":7772,"äº®çĽ¸":7773,"å¯ĩ":7774,"å±±åľ°":7775,"çĶ·åŃ©":7776,"ish":7777,"Ph":7778,"èĲĿ":7779,"æİ¨æµĭ":7780,"æ¤Ń":7781,"ç»ĨèĬĤ":7782,"äºİ2006å¹´":7783,"çļĦéĿ¢ç§¯ä¸º":7784,"åĬłä»¥":7785,"æķ°åįģ":7786,"éĩįç»Ħ":7787,"åĽ½å®¶åħ¬åĽŃ":7788,"æİ¨è¡Į":7789,"å·´åĭĴæĸ¯åĿ¦":7790,"æľĢå¤ļçļĦ":7791,"åıĸèĩª":7792,"è®ºåĿĽ":7793,"æĳ©å°Ķ":7794,"è¿Ļé¦ĸæŃĮ":7795,"æ¡Ĩæŀ¶":7796,"åľ¨ä¸Ĭæµ·":7797,"ä¸ľåĮº":7798,"çĽ¸è¿ŀ":7799,"å¤ľéĹ´":7800,"è¯īè®¼":7801,"åĳ¼åĲ¸":7802,"é¥®é£Ł":7803,"ç¤ºå¨ģèĢħ":7804,"é»ĳé¾Ļæ±Łçľģ":7805,"91":7806,"ix":7807,"å¾Ļ":7808,"çĤ³":7809,"æĻ®æĭī":7810,"éĢģåĪ°":7811,"éĢĶå¾Ħ":7812,"å·©":7813,"åĪĨè§£":7814,"æ°´éĩı":7815,"åı¯ä»¥éĢļè¿ĩ":7816,"å¼ķç§į":7817,"é¥¼":7818,"éĻĦåĬł":7819,"ity":7820,"å¯Įæ±Ĺ":7821,"YouTube":7822,"çļĦåŁİéķĩ":7823,"æ¬ł":7824,"1971å¹´":7825,"æĸ°åĨłèĤºçĤİ":7826,"çļĦä¸ĸçķĮ":7827,"æŃĮåĶ±":7828,"ç§»å±ħ":7829,"æĭ¿çł´":7830,"è¿½æ±Ĥ":7831,"å±ĭé¡¶":7832,"å°±è¯»äºİ":7833,"èĩ´åĬĽäºİ":7834,"HK":7835,"è®½":7836,"æĺ¯èĭ±åĽ½":7837,"æĺ¯è¥¿çıŃçīĻ":7838,"ä»ĸäºº":7839,"æľºæŀª":7840,"çĽ¸éĤ»":7841,"ç¬¬åįģä¸Ģ":7842,"æĿ°åħĭéĢĬ":7843,"ç«ĭæĸ¹ç±³":7844,"æľīçĿĢ":7845,"ç¾İåĽ½æĢ»ç»Ł":7846,"éĽĨåĽ¢åĨĽ":7847,"è¯ĬæĸŃ":7848,"æĭ¿çł´ä»ĳ":7849,".ãĢĮ":7850,"é«ĺæŀ¶":7851,"çİ¯å½¢":7852,"æī¹åĪ¤":7853,"1951å¹´":7854,"èĪªç©ºåħ¬åı¸":7855,"æ£ļ":7856,"æµģåĬ¨":7857,"æ»ĳéĽª":7858,"ä¸Ńå¼ı":7859,"ä¸īå¤§":7860,"çī©èµĦ":7861,"å¦ĸ":7862,"å¤ĸåĽ´":7863,"æĢ»ç»ıçĲĨ":7864,"åĬĽåŃ¦":7865,"ç»ĪæŃ¢":7866,"æħĪåĸĦ":7867,"æīĩ":7868,"ä¸īçĶ²":7869,"è°£":7870,"æ¡ĵ":7871,"åºķå±Ĥ":7872,"å´ĩç¥¯":7873,"Ġä¸Ģ":7874,"åĨ»":7875,"åı¸æľº":7876,"èĳµ":7877,"å§ĭç»Ī":7878,"æłĩé¢ĺ":7879,"åħ¬éĩĮçļĦ":7880,"åħµåĬĽ":7881,"iveĠ":7882,"æ²Īéĺ³":7883,"åĩºèĩª":7884,"è¿ĩæ¸¡":7885,"ç¦§":7886,"åĪĻçĶ±":7887,"éĴ©":7888,"å¾·åħĭ":7889,"å®ļçĲĨ":7890,"å±±é¡¶":7891,"4æľĪ1æĹ¥":7892,"ä¸Ńä¸ĸçºª":7893,"ä¸ĭæĸ¹":7894,"çĪ¬":7895,"è£´":7896,"åľ£æ¯į":7897,"è¿ĲåĬ¨çļĦ":7898,"ç§ĺé²ģ":7899,"å±ħæ°ĳçĤ¹":7900,"ç²ĴåŃĲ":7901,"ire":7902,"æĸĮ":7903,"æŁľ":7904,"åħĥå¸ħ":7905,"å§Ķåī¯ä¹¦è®°":7906,"æ²³åı£":7907,"çģ«è½¦ç«Ļ":7908,"é³Ħ":7909,"Ġst":7910,"åħ¥å¢ĥ":7911,"èĤ¿":7912,"æ¼Ĥ":7913,"175":7914,"è°¢å°Ķ":7915,"å½¼æŃ¤":7916,"ĠæľĪ":7917,"å·¥åķĨ":7918,"æ¯Ķå°Ķ":7919,"æĴĳ":7920,"ä¸Ńå¿ĥçļĦ":7921,"æ·±åħ¥":7922,"ç¬¬ä¸īæ¬¡":7923,"000åĲį":7924,"éŁ¦å°Ķ":7925,"çļĦèĥ½åĬĽ":7926,"åħ¬å¯ĵ":7927,"çĲĥè¿·":7928,"ä½Ĩåħ¶":7929,"ç»ĵè®º":7930,"ç¡ķå£«åŃ¦ä½į":7931,"ure":7932,"å±¡":7933,"è¾±":7934,"æ¬¡æĹ¥":7935,"æīĭä¸Ń":7936,"çīĪçļĦ":7937,"éĨī":7938,"EP":7939,"åİĮ":7940,"äºĨå¯¹":7941,"çĦļ":7942,"çİ¯çĲĥ":7943,"åĥıæĺ¯":7944,"èĵĦ":7945,"è¯ĳä¸º":7946,"åľ¨ä»ĸçļĦ":7947,"è¯¥åī§":7948,"èĭıéĩĮ":7949,"ç¦ıéŁ³":7950,"çªĥ":7951,"æĵ¦":7952,"æĹ©æľŁçļĦ":7953,"çŃīå¾ħ":7954,"æł¼å¼ı":7955,"1990å¹´ä»£":7956,"çªģåİ¥":7957,"å¼Ĺæĭī":7958,"ä¼ĺåħĪ":7959,"å¤©æ´¥å¸Ĥ":7960,"èģĤ":7961,"åĮĹéŁ©":7962,"çİĭä½į":7963,"int":7964,"åį°è±¡":7965,"åį°åº¦æķĻ":7966,"æ©Ļ":7967,"è½¬çļĦå°ıè¡ĮæĺŁ":7968,"çĶ±äººå·¥":7969,"å±ĢçļĦ":7970,"è¶³çĲĥèģĶèµĽ":7971,"å®ĥä»¬çļĦ":7972,"çļĦå¥³åĦ¿":7973,"æĺ¯åįĹæŀģæ´²":7974,"åįģä¸īå¹´":7975,"æĽ²çĽ®":7976,"é¢ĦåĳĬ":7977,"æĹŃ":7978,"åıĳéŁ³":7979,"åĬłåĭĴ":7980,"ä¸īæ¬¡":7981,"èģĮæ£Ĵ":7982,"ç¦ıåĪ©":7983,"ä½İæ°Ķåİĭ":7984,"ç¿°æŀĹ":7985,"BL":7986,"è¿ĩäºİ":7987,"ç³ķ":7988,"entĠ":7989,"å¾®è½¯":7990,"çĥŃå¸¦æ°ĶæĹĭ":7991,"çĲĨäºĭä¼ļ":7992,"ä¸ºé¦ĸ":7993,"èĳĹæľī":7994,"ç¬¼èįī":7995,"æł¼æĭīæĸ¯":7996,"çº§çļĦ":7997,"è¯ºä¼Ĭ":7998,"å·¥ä½ľçļĦ":7999}