{"!":0,"\"":1,"#":2,"$":3,"%":4,"&":5,"'":6,"(":7,")":8,"*":9,"+":10,",":11,"-":12,".":13,"/":14,"0":15,"1":16,"2":17,"3":18,"4":19,"5":20,"6":21,"7":22,"8":23,"9":24,":":25,";":26,"=":27,"?":28,"@":29,"A":30,"B":31,"C":32,"D":33,"E":34,"F":35,"G":36,"H":37,"I":38,"J":39,"K":40,"L":41,"M":42,"N":43,"O":44,"P":45,"Q":46,"R":47,"S":48,"T":49,"U":50,"V":51,"W":52,"X":53,"Y":54,"Z":55,"[":56,"\\":57,"]":58,"^":59,"_":60,"`":61,"a":62,"b":63,"c":64,"d":65,"e":66,"f":67,"g":68,"h":69,"i":70,"j":71,"k":72,"l":73,"m":74,"n":75,"o":76,"p":77,"q":78,"r":79,"s":80,"t":81,"u":82,"v":83,"w":84,"x":85,"y":86,"z":87,"|":88,"~":89,"¡":90,"¢":91,"£":92,"¤":93,"¥":94,"¦":95,"§":96,"¨":97,"©":98,"ª":99,"«":100,"¬":101,"®":102,"¯":103,"°":104,"±":105,"²":106,"³":107,"´":108,"µ":109,"¶":110,"·":111,"¸":112,"¹":113,"º":114,"»":115,"¼":116,"½":117,"¾":118,"¿":119,"Â":120,"Ã":121,"Ä":122,"Å":123,"Æ":124,"Ç":125,"È":126,"É":127,"Ê":128,"Ë":129,"Ì":130,"Í":131,"Î":132,"Ï":133,"Ð":134,"Ñ":135,"Ò":136,"Ó":137,"Ô":138,"Õ":139,"Ö":140,"×":141,"Ø":142,"Ù":143,"Ú":144,"Û":145,"Ü":146,"Þ":147,"ß":148,"à":149,"á":150,"â":151,"ã":152,"ä":153,"å":154,"æ":155,"ç":156,"è":157,"é":158,"ê":159,"ë":160,"ì":161,"í":162,"î":163,"ï":164,"ð":165,"ñ":166,"Ċ":167,"Ġ":168,"ġ":169,"Ģ":170,"ģ":171,"Ĥ":172,"ĥ":173,"Ħ":174,"ħ":175,"Ĩ":176,"ĩ":177,"Ī":178,"ī":179,"Ĭ":180,"ĭ":181,"Į":182,"į":183,"İ":184,"ı":185,"Ĳ":186,"ĳ":187,"Ĵ":188,"ĵ":189,"Ķ":190,"ķ":191,"ĸ":192,"Ĺ":193,"ĺ":194,"Ļ":195,"ļ":196,"Ľ":197,"ľ":198,"Ŀ":199,"ŀ":200,"Ł":201,"ł":202,"Ń":203,"ä¸":204,"äº":205,"çļ":206,"çļĦ":207,"åħ":208,"åı":209,"æľ":210,"ãĢ":211,"å¹":212,"ä»":213,"å¤":214,"åľ":215,"åĲ":216,"åĪ":217,"åĽ":218,"å®":219,"å¹´":220,"ä½":221,"æĹ":222,"çĶ":223,"åį":224,"æĸ":225,"è¿":226,"å°":227,"æĺ":228,"ä¹":229,"ç»":230,"ãĢģ":231,"åľ¨":232,"ä¸º":233,"åĬ":234,"æĪ":235,"ä¼":236,"ä¸Ģ":237,"åŃ":238,"åĮ":239,"å¸":240,"è¯":241,"è®":242,"ä¸Ń":243,"åĨ":244,"åĽ½":245,"äºº":246,"æĺ¯":247,"åº":248,"æĿ":249,"å¼":250,"å·":251,"äºİ":252,"å¾":253,"éĩ":254,"çī":255,"ç§":256,"è¡":257,"çº":258,"å¤§":259,"æī":260,"éĢ":261,"æľī":262,"å±":263,"æĶ":264,"åĩ":265,"åĴ":266,"åĴĮ":267,"20":268,"æŃ":269,"éĥ":270,"èµ":271,"èĢ":272,"æķ":273,"å½":274,"åİ":275,"æľĪ":276,"å¯":277,"æ°":278,"éĻ":279,"æĭ":280,"æĹ¥":281,"çĽ":282,"èĩ":283,"æ³":284,"å¥":285,"æł":286,"çİ":287,"19":288,"éĺ":289,"ä»¥":290,"åĲİ":291,"æĹ¶":292,"âĢ":293,"åĳ":294,"äºĨ":295,"åľ°":296,"æ²":297,"ç«":298,"æµ":299,"ä¼ļ":300,"åŃ¦":301,"è§":302,"æĢ":303,"è¾":304,"è´":305,"æĪĲ":306,"éĹ":307,"è½":308,"éĿ":309,"åŁ":310,"ä¸ª":311,"çĲ":312,"ä¸Ĭ":313,"éĥ¨":314,"åī":315,"æĸ¯":316,"éķ":317,"ä¸İ":318,"è¡Į":319,"ä»ĸ":320,"åĩº":321,"ä¸į":322,"æ¯":323,"åĮº":324,"æ´":325,"æŀ":326,"æĬ":327,"æİ":328,"åħ¬":329,"ç¬":330,"åħ¶":331,"åıĳ":332,"æ¸":333,"ç½":334,"ä½ľ":335,"çĶŁ":336,"æĽ":337,"å°Ķ":338,"åĲį":339,"ä¿":340,"ä¸»":341,"åĪĨ":342,"è¢":343,"çŃ":344,"èĥ":345,"ä¹ĭ":346,"éģ":347,"æĸ¹":348,"ç¬¬":349,"çĶ¨":350,"å®¶":351,"å§":352,"ãĢĭ":353,"ãĢĬ":354,"è¥":355,"å¹¶":356,"ç¾":357,"è¥¿":358,"æ³ķ":359,"åĪ°":360,"å¿":361,"èĢĮ":362,"Â·":363,"æ¬":364,"é¢":365,"åĨĽ":366,"å»":367,"åıĬ":368,"è¢«":369,"ä¾":370,"æĶ¿":371,"ä½į":372,"ç±":373,"çĶ±":374,"æĮ":375,"æľ¬":376,"çľ":377,"æ±":378,"æ°ĳ":379,"è·":380,"éĽ":381,"é¦":382,"ä¸ĭ":383,"å¸Ĥ":384,"åĵ":385,"å¯¹":386,"åĲĮ":387,"èģ":388,"èĭ":389,"åħĭ":390,"åĬ¨":391,"æĿ¥":392,"çī¹":393,"éķ¿":394,"è¿Ļ":395,"å¤ļ":396,"ä»»":397,"èĩª":398,"å¼Ģ":399,"éĩĮ":400,"åĳĺ":401,"åįĹ":402,"é©":403,"åŃĲ":404,"åı¯":405,"æĸ°":406,"å¹³":407,"èī":408,"åĿ":409,"èİ":410,"åĬł":411,"å¾·":412,"åĮĹ":413,"ãĢĮ":414,"ãĢį":415,"æľĢ":416,"æĸĩ":417,"å£":418,"åĪ©":419,"æĻ":420,"ç¾İ":421,"é«":422,"åīį":423,"ä¸ľ":424,"ä»£":425,"é«ĺ":426,"äºļ":427,"éĿ¢":428,"æµ·":429,"æīĢ":430,"¦ģ":431,"å¾Ĺ":432,"èĩ³":433,"ç¤":434,"å»º":435,"èĪ":436,"éĹ´":437,"æŃ¤":438,"åĨħ":439,"åĽł":440,"äºĭ":441,"âĢľ":442,"ä¸ī":443,"âĢĿ":444,"çİ°":445,"è¿Ľ":446,"çĶµ":447,"),":448,"ä¹Ł":449,"çī©":450,"è¿ĩ":451,"èµĽ":452,"201":453,"çŃī":454,"åı°":455,"åº¦":456,"è½¦":457,"åħ¥":458,"è¯¥":459,"ç»ı":460,"å½ĵ":461,"éģĵ":462,"ç¥":463,"è¦ģ":464,"ç«ĭ":465,"æĪĺ":466,"å°Ĩ":467,"çĲĨ":468,"ç©":469,"è¡¨":470,"ä½ĵ":471,"çŁ":472,"çķ":473,"æĭī":474,"é¡":475,"å¦":476,"è°":477,"å²":478,"æľº":479,"æķĻ":480,"æľŁ":481,"ä¸ĸ":482,"èĲ":483,"éļ":484,"æı":485,"å·¥":486,"åĪ¶":487,"ç®":488,"èĥ½":489,"äºĮ":490,"å¤ĸ":491,"åĲĪ":492,"æį":493,"è·¯":494,"å®ļ":495,"åı£":496,"çľģ":497,"å¸ĥ":498,"æ¬¡":499,"æĦ":500,"é©¬":501,"è®¾":502,"åħ±":503,"æĢ§":504,"éĺŁ":505,"åľº":506,"éĢļ":507,"ä¸ļ":508,"å±±":509,"å°ı":510,"200":511,"çĲĥ":512,"ä½Ĩ":513,"èĬ":514,"ä½¿":515,"éĵ":516,"è¶":517,"åįģ":518,"ä¸Ģä¸ª":519,"èĢħ":520,"å·ŀ":521,"åĮĸ":522,"åħ¨":523,"æĥ":524,"ç³":525,"æķ°":526,"ç§į":527,"é£":528,"ç§°":529,"å¤©":530,"èĤ":531,"ç½Ĺ":532,"ç§ĳ":533,"çł":534,"æŁ":535,"çº¿":536,"çĻ":537,"å¼ı":538,"ç±³":539,"ç«Ļ":540,"éĩį":541,"å®ī":542,"éŁ":543,"èģĶ":544,"æģ":545,"çĤ":546,"ä¸¤":547,"éĤ":548,"ç³»":549,"æ¯Ķ":550,"æ¼":551,"ç¼":552,"10":553,"çĪ":554,"æ¡":555,"ç¦":556,"ç¨":557,"å¢":558,"æĢ»":559,"éĢī":560,"è¿Ĳ":561,"åĬĽ":562,"åİ¿":563,"åħ°":564,"å£«":565,"çĽ¸":566,"éĻ¢":567,"æ¹":568,"åŁº":569,"åħ³":570,"ä¸ŃåĽ½":571,"éĥ½":572,"æ²»":573,"åİŁ":574,"è¾¾":575,"åŁİ":576,"ç»Ł":577,"åģ":578,"æł¼":579,"èµ·":580,"ç»Ħ":581,"æŃ£":582,"æĺİ":583,"é»":584,"çº¦":585,"åı·":586,"èĭ±":587,"æ°´":588,"å½±":589,"å°¼":590,"æĪĸ":591,"å±ŀ":592,"åºľ":593,"å¡":594,"æİ¥":595,"åı¸":596,"è®¡":597,"éĩĳ":598,"çĽ®":599,"é¦ĸ":600,"çİĭ":601,"è®®":602,"æıĲ":603,"åįİ":604,"çĦ":605,"ä»¬":606,"éĺ¿":607,"åĽĽ":608,"ä»İ":609,"åĪĹ":610,"åħĥ":611,"çģ":612,"æ¼Ķ":613,"å·´":614,"ç¾İåĽ½":615,"èĳ":616,"00":617,"å¦Ĥ":618,"äº§":619,"è¯Ń":620,"åĢ":621,"éħ":622,"åıĤ":623,"åı²":624,"éĩı":625,"åŀ":626,"æĶ¹":627,"å¸¸":628,"å¥³":629,"æ®":630,"æ¶":631,"éķĩ":632,"åĲĳ":633,"è£":634,"èį":635,"åĬ¡":636,"æŀĹ":637,"18":638,"åĮħ":639,"æ¸¯":640,"å¨":641,").":642,"æĽ¾":643,"æĹł":644,"èİ·":645,"äººåı£":646,"çĦ¶":647,"äº¤":648,"åĶ":649,"å®ŀ":650,"å¿ĥ":651,"éĶ":652,"åıĹ":653,"éľ":654,"12":655,"ä½įäºİ":656,"ç»´":657,"æĦı":658,"åİĨ":659,"ç»ĵ":660,"èī²":661,"çķĮ":662,"çº§":663,"ä¹Ĳ":664,"æīĭ":665,"å§ĭ":666,"ä¿Ŀ":667,"å§Ķ":668,"åĪĻ":669,"ä¹ī":670,"æĴ":671,"å¤Ħ":672,"åħļ":673,"è§Ĩ":674,"ä¹¦":675,"ç´":676,"åĽ¢":677,"0å¹´":678,"ç®¡":679,"å½¢":680,"ç¨ĭ":681,"æ£":682,"å¯¼":683,"åĭ":684,"1å¹´":685,"è®¤":686,"æį®":687,"ç±»":688,"æ²³":689,"å°±":690,"åį¡":691,"éĹ¨":692,"æ·":693,"æĮĩ":694,"æľĪ2":695,"çĽ´":696,"202":697,"5å¹´":698,"åįķ":699,"éĴ":700,"çĥ":701,"è¯´":702,"éŁ³":703,"äºĽ":704,"å¹¿":705,"åŀĭ":706,"å·²":707,"åºĶ":708,"4å¹´":709,"æĺŁ":710,"éĽĨ":711,"ç¤º":712,"å¥¥":713,"æµģ":714,"é¢Ĩ":715,"ç¤¾":716,"åł":717,"ä¼ł":718,"æº":719,"æĮģ":720,"é²":721,"åĵģ":722,"çĤ¹":723,"èº":724,"æł¡":725,"æĽ´":726,"2å¹´":727,"å±ķ":728,"å¤«":729,"3å¹´":730,"er":731,"çĭ":732,"åĽŀ":733,"èĮ":734,"ä¸¾":735,"æĻ®":736,"11":737,"æ¸¸":738,"ä¸ĩ":739,"ç§¯":740,"8å¹´":741,"èº«":742,"6å¹´":743,"æ¢":744,"ç©º":745,"åıį":746,"éª":747,"èµĦ":748,"æĶ¿åºľ":749,"æĥħ":750,"å®ĺ":751,"ç¡":752,"çºª":753,"äºĶ":754,"æ´»":755,"è¿ĺ":756,"é¾":757,"åĩ»":758,"an":759,"æĶ¯":760,"é¦Ļ":761,"æłĩ":762,"æĬ¥":763,"æ»":764,"or":765,"å¸Ī":766,"åĲĦ":767,"æ¹¾":768,"éĵģ":769,"åĪ«":770,"7å¹´":771,"èĴ":772,"éĢł":773,"å¤§åŃ¦":774,"çº³":775,"èĻ":776,"åıĸ":777,"ä½¿çĶ¨":778,"çĬ":779,"åı¤":780,"å²Ľ":781,"çĸ":782,"æĪĲä¸º":783,"å¤ª":784,"æĹ¥æľ¬":785,"in":786,"åī§":787,"å±Ģ":788,"åħ¬åı¸":789,"åıĺ":790,"æĭ¬":791,"çı":792,"æľ¯":793,"åŃĹ":794,"åķ":795,"å¥¹":796,"çĿ":797,"æĹı":798,"ä¸ĵ":799,"åĳ½":800,"åĮħæĭ¬":801,"åľ°åĮº":802,"éĿŀ":803,"å¸¦":804,"èĳĹ":805,"åĽ½å®¶":806,"å¼ł":807,"è®º":808,"è¿ĳ":809,"åį³":810,"å¼Ģå§ĭ":811,"çłĶ":812,"æľĿ":813,"æ±Ł":814,"åĨ³":815,"ä¿¡":816,"è§£":817,"æ´²":818,"æĽ²":819,"èĬĤ":820,"çĹ":821,"ç¥ŀ":822,"é£İ":823,"on":824,"çīĩ":825,"å°ĳ":826,"èģĮ":827,"ä»¶":828,"ç²":829,"è¿Ľè¡Į":830,"ä¼Ĭ":831,"åĽ¾":832,"èĦ":833,"æľª":834,"çĵ":835,"è®°":836,"åıª":837,"ç¿":838,"å¹³æĸ¹":839,"å®ĥ":840,"æľĪ1":841,"æł¹":842,"æĿĥ":843,"æ²¡":844,"çŁ³":845,"éĻħ":846,"ç¬¬ä¸Ģ":847,"èĭı":848,"æ¯ı":849,"ç¼ĸ":850,"è§Ĵ":851,"è½¬":852,"åı¯ä»¥":853,"æĶ¾":854,"æ³¢":855,"æ¨":856,"äº¬":857,"ä¾ĭ":858,"199":859,"æĶ¶":860,"æĿ¡":861,"çļĦä¸Ģ":862,"åĪĴ":863,"è°ĥ":864,"é¾Ļ":865,"åħ¬éĩĮ":866,"é¦Ļæ¸¯":867,"åĳ¨":868,"åħī":869,"åķĨ":870,"åĪĽ":871,"æ¸ħ":872,"è¿ŀ":873,"åĪĿ":874,"9å¹´":875,"æ°Ķ":876,"æŃĮ":877,"ç¦»":878,"æĿĳ":879,"åĸ":880,"æĳ":881,"çīĪ":882,"éĻĨ":883,"éĥ¨åĪĨ":884,"ç©¶":885,"åĻ":886,"å¾Ģ":887,"äººæ°ĳ":888,"å¤´":889,"èİ·å¾Ĺ":890,"è±":891,"åŃ£":892,"çŁ¥":893,"ä¸ĸçķĮ":894,"åıĪ":895,"éĿ¢ç§¯":896,"åħĪ":897,"çłĶç©¶":898,"åİ»":899,"å¯Ĩ":900,"æŀĦ":901,"åŁŁ":902,"æ´¾":903,"ä»¤":904,"æīĵ":905,"ç»Ń":906,"æŀľ":907,"åĬŀ":908,"å¼º":909,"éļı":910,"æŁ¥":911,"å¨ģ":912,"ä¸»è¦ģ":913,"çĻ½":914,"åĨį":915,"åħµ":916,"äºī":917,"åº§":918,"æŃ¦":919,"ä»ĸä»¬":920,"ç¦ı":921,"å¤į":922,"è§Ĥ":923,"èĤ²":924,"è£ħ":925,"åİĨåı²":926,"å®Į":927,"åħŃ":928,"la":929,"åĻ¨":930,"è®¤ä¸º":931,"å¼ķ":932,"é¡¹":933,"æ®µ":934,"æļ":935,"é¢ĺ":936,"è¶³":937,"åı°æ¹¾":938,"åĵĪ":939,"æ²¡æľī":940,"ä¸Ķ":941,"æĿİ":942,"çĳ":943,"å¡Ķ":944,"æľį":945,"éĻ¤":946,"å±ħ":947,"å®£":948,"æ¬§":949,"15":950,"æĪı":951,"ç½ĳ":952,"æĴŃ":953,"ç»Ī":954,"è§Ħ":955,"æĭħ":956,"åįı":957,"èĲ¥":958,"äº¦":959,"è®¸":960,"æİ¨":961,"èı":962,"çĵ¦":963,"åľ£":964,"ä»½":965,"å§Ķåĳĺ":966,"å¥ĸ":967,"åľŁ":968,"æ¡Ī":969,"ç½®":970,"å½ķ":971,"ä¿®":972,"è´¨":973,"è¨":974,"äº²":975,"èĲ¨":976,"è¨Ģ":977,"çĶ·":978,"åĦ":979,"ar":980,"æºĲ":981,"ç¬¬äºĮ":982,"åŃĺ":983,"eĠ":984,"()":985,"ä»¥åıĬ":986,"åħ¶ä¸Ń":987,"Ġ19":988,"åħ¶ä»ĸ":989,"æĺ¯ä¸Ģ":990,"å¸Ŀ":991,"ä»£è¡¨":992,"éĹ®":993,"åĭĴ":994,"Ġ201":995,"ä»Ĭ":996,"è¯Ħ":997,"åĽŃ":998,"æ¥":999,"en":1000,"åħ·":1001,"ç»Ļ":1002,"æĬ¤":1003,"ä¾Ľ":1004,"éĽ·":1005,"è¿ĲåĬ¨":1006,"é¦Ĩ":1007,"æŃ»":1008,"æĬķ":1009,"åħ«":1010,"çĪ±":1011,"æĶ¿æ²»":1012,"çĶ±äºİ":1013,"æ³ķåĽ½":1014,"éĢŁ":1015,"åįĥ":1016,"åĩĨ":1017,"å®Ĺ":1018,"åį°":1019,"å¢ŀ":1020,"è¾ĥ":1021,"è¶ħ":1022,"ä¼¯":1023,"å¢ĥ":1024,"æ´Ľ":1025,"198":1026,"å¸Į":1027,"æ±Ĥ":1028,"åĬŁ":1029,"è§ģ":1030,"çĶµå½±":1031,"çĶ»":1032,"çļĦä¸Ģä¸ª":1033,"æ±ī":1034,"èĩ´":1035,"Ġåľ¨":1036,"(),":1037,"åĿĩ":1038,"åįĩ":1039,"å¤ĩ":1040,"16":1041,"åı¦":1042,"è¯º":1043,"åĬ©":1044,"åį«":1045,"å·¥ä½ľ":1046,"åįļ":1047,"çĮ":1048,"çİĩ":1049,"èİ±":1050,"éĺ³":1051,"åĦ¿":1052,"è¾¹":1053,"ä¼Ĺ":1054,"å¥½":1055,"èĹ":1056,"é¥":1057,"åĥ":1058,"å®¢":1059,"å®¹":1060,"èĪª":1061,"ä¼¦":1062,"åĳĬ":1063,"åĲĮæĹ¶":1064,"æĹ©":1065,"æ¨¡":1066,"åĽłæŃ¤":1067,"çª":1068,"ä¹Į":1069,"åĲī":1070,"è¯ķ":1071,"ä¿Ħ":1072,"ä½ľä¸º":1073,"æİĴ":1074,"åī¯":1075,"èīº":1076,"æł·":1077,"æµİ":1078,"å¾Ī":1079,"çģ«":1080,"çİ¯":1081,"æķħ":1082,"å¡ŀ":1083,"æĪĳ":1084,"æĶ»":1085,"åĽ½éĻħ":1086,"é»Ħ":1087,"çĶ°":1088,"ç¾¤":1089,"å·±":1090,"èĬ±":1091,"åı¯èĥ½":1092,"æ¯į":1093,"ä¹Ŀ":1094,"çĪ¶":1095,"æĸ½":1096,"åĵį":1097,"çıŃ":1098,"èħ":1099,"åĽ´":1100,"è¡¨ç¤º":1101,"æĬĢ":1102,"sĠ":1103,"ä¸Ńå¿ĥ":1104,"æķ´":1105,"é²ģ":1106,"æ²Ļ":1107,"ç»§":1108,"åĮ»":1109,"17":1110,"æĭħä»»":1111,"å¤±":1112,"å¸Ĥéķĩ":1113,"çŃĳ":1114,"èĲ½":1115,"çĹħ":1116,"ä¸Ńåįİ":1117,"åħ´":1118,"è¯ģ":1119,"ç»ĩ":1120,"ç³»ç»Ł":1121,"ä¹ĭåĲİ":1122,"åĽłä¸º":1123,"æ¦":1124,"è´£":1125,"ä¹¡":1126,"å¿Ĺ":1127,"å¸Ń":1128,"éĩĩ":1129,"éĺ²":1130,"èĪ°":1131,"å®¤":1132,"èŃ":1133,"å±Ĥ":1134,"æīĺ":1135,"éĿĴ":1136,"çĽŁ":1137,"30":1138,"ä¸ĥ":1139,"æĦŁ":1140,"èŃ¦":1141,"éľĢ":1142,"çĻ»":1143,"å½ĵæĹ¶":1144,"åĨł":1145,"çĭ¬":1146,"èĭ±åĽ½":1147,"è´Ł":1148,"åįĬ":1149,"éº":1150,"æ¹ĸ":1151,"æĹ¶éĹ´":1152,"æ¸¸æĪı":1153,"éĢļè¿ĩ":1154,"å£°":1155,"çĶµè§Ĩ":1156,"å§Ĩ":1157,"éĤ£":1158,"çĻ¾":1159,"éħį":1160,"ä»ĸçļĦ":1161,"ç¢":1162,"èĩªå·±":1163,"åıĮ":1164,"è½¦ç«Ļ":1165,")ãĢģ":1166,"éĻĪ":1167,"ä¸ŃçļĦ":1168,"æł¹æį®":1169,"al":1170,"åłĤ":1171,"é»ĳ":1172,"åıĳçİ°":1173,"æĺĵ":1174,"çĥŃ":1175,"çļĩ":1176,"åĨĻ":1177,"(,":1178,"è¡ĮæĶ¿":1179,"ç¡®":1180,"çº¢":1181,"çĬ¶":1182,"é£ŀ":1183,"åıĳå±ķ":1184,"æĪĲç«ĭ":1185,"æģ©":1186,"ä½ķ":1187,"å¤ı":1188,"æľŁéĹ´":1189,"æ·±":1190,"ä»į":1191,"èĢĥ":1192,"æŀģ":1193,"ä½ı":1194,"åįł":1195,"çħ":1196,"é±":1197,"åħ±åĴĮ":1198,"æ£®":1199,"è¡Ĺ":1200,"è¶Ĭ":1201,"éĻĲ":1202,"å¤®":1203,"å°Ħ":1204,"é¸":1205,"é±¼":1206,"çĶ²":1207,"æŃ¥":1208,"at":1209,"è®¾è®¡":1210,"ç¤¾ä¼ļ":1211,"âĢĶ":1212,"é£Ł":1213,"è®©":1214,"14":1215,"âĢĿ.":1216,"å»ºçŃĳ":1217,"äºİ19":1218,"åĥı":1219,"åŁĥ":1220,"è±¡":1221,"ä¹ĭä¸Ģ":1222,"æĽ¼":1223,"æĿĢ":1224,"å¯Ł":1225,"è´¹":1226,"èĮĥ":1227,"ãĢį,":1228,"å±Ĭ":1229,"æİ§":1230,"æī¹":1231,"ç¥¨":1232,"ä»ħ":1233,"è¿ĻäºĽ":1234,"æ½":1235,"è´Ŀ":1236,"æĻ¯":1237,"ç»Ħç»ĩ":1238,"æĸĻ":1239,"æĤ":1240,"åŃ¦éĻ¢":1241,"å¥ĩ":1242,"æ´ĭ":1243,"å²ģ":1244,"åıĤåĬł":1245,"ä¸įåĲĮ":1246,"æµĭ":1247,"çķĻ":1248,"èĢģ":1249,"ä¸Ńå¤®":1250,"å§Ķåĳĺä¼ļ":1251,"è¿ª":1252,"åĨľ":1253,"æ¥¼":1254,"æĸĩåĮĸ":1255,"ä½İ":1256,"æŃ¢":1257,"ä¸ĸçºª":1258,"å·Ŀ":1259,"å½±åĵį":1260,"æ¯ĶèµĽ":1261,"èĥľ":1262,"éĿ©":1263,"è¯į":1264,"åĵ¥":1265,"ç§°ä¸º":1266,"å¾ĭ":1267,"çīĮ":1268,"é¡¿":1269,"st":1270,"æĥ³":1271,"å±ŀäºİ":1272,"æİĪ":1273,"for":1274,"æķĪ":1275,"åĺ":1276,"æ³°":1277,"è¾ĸ":1278,"ä¾¿":1279,"å¹³æĸ¹åħ¬éĩĮ":1280,"æ¤":1281,"æľ¨":1282,"éĻį":1283,"åĩł":1284,"ç§»":1285,"è¿°":1286,"çľŁ":1287,"ic":1288,"13":1289,"æħ":1290,"åģľ":1291,"æīį":1292,"æ°ı":1293,"éĵ¶":1294,"æ¡¥":1295,"ãĢį.":1296,"èĴĻ":1297,"æĪ¿":1298,"å¿µ":1299,"æĺ¾":1300,"éŁ³ä¹Ĳ":1301,"æī¿":1302,"æĢģ":1303,"çĿĢ":1304,"è´¥":1305,"å©":1306,"ç´¢":1307,"æ¾":1308,"åħ±åĴĮåĽ½":1309,"åºķ":1310,"åº·":1311,"åºĵ":1312,"é¢Ħ":1313,"ä¸»ä¹ī":1314,"éŃ":1315,"mu":1316,"åŃ¦æł¡":1317,"å¾ģ":1318,"ç´ł":1319,"æ´»åĬ¨":1320,"20å¹´":1321,"çīĻ":1322,"è¾ĳ":1323,"çľĭ":1324,"å¼¹":1325,"åĶ±":1326,"åħ¸":1327,"ä½ľåĵģ":1328,"æŃ£å¼ı":1329,"æ¶Ī":1330,"æıĲä¾Ľ":1331,"åĪ©äºļ":1332,"ç®Ģ":1333,"è®¡åĪĴ":1334,"åĩºçİ°":1335,"ç½Ĺæĸ¯":1336,"è½½":1337,"ä¹ł":1338,"194":1339,"æīĢæľī":1340,"æģ¯":1341,"ä»·":1342,"å³":1343,"ä¹ĭéĹ´":1344,"éĻĦ":1345,"ç»ıæµİ":1346,"ç®¡çĲĨ":1347,"åıĳçĶŁ":1348,"æľĢç»Ī":1349,"éĵģè·¯":1350,"çłģ":1351,"âĢĿ,":1352,"çĳŀ":1353,"æī§":1354,"æĹ¶æľŁ":1355,"è¿ľ":1356,"197":1357,"åĿ¦":1358,"æĪ·":1359,"å¹²":1360,"åıĭ":1361,"åŁİå¸Ĥ":1362,"åĨµ":1363,"ç®Ĺ":1364,"ä¾§":1365,"æķĻèĤ²":1366,"ç¥ĸ":1367,"éĢĢ":1368,"éŁ©":1369,"å®Ī":1370,"æ»¡":1371,"äºĳ":1372,"åĲİæĿ¥":1373,"æ³¨":1374,"èĪ¹":1375,"mula":1376,"å½ĵåľ°":1377,"è¯·":1378,"è¯Ŀ":1379,"ĠS":1380,"æ¸©":1381,"éĤ¦":1382,"formula":1383,"5æĹ¥":1384,"åĢĻ":1385,"ä½Ļ":1386,"ä½Ľ":1387,"æĲ":1388,"æĬĬ":1389,"ç«ł":1390,"ä¸ģ":1391,"è¿Ļä¸ª":1392,"it":1393,"ç²¾":1394,"æĬĹ":1395,"å®ģ":1396,"ãĢĭ,":1397,"çĽĳ":1398,"æľĢåĲİ":1399,"åĪ¶ä½ľ":1400,"åł¡":1401,"Ġ200":1402,"æľĽ":1403,"am":1404,"æĹ§":1405,"è´Łè´£":1406,"å¾·åĽ½":1407,"å·¦":1408,"æĪĲåĳĺ":1409,"ä¸ĬçļĦ":1410,"æĭ¿":1411,"éĹ®é¢ĺ":1412,"æľĹ":1413,"éªĮ":1414,"åĬ¿":1415,"è¿Ľåħ¥":1416,"æĢĿ":1417,"ä¸´":1418,"è®¸å¤ļ":1419,"åĪĺ":1420,"å´":1421,"çªģ":1422,"é¹":1423,"çł´":1424,"å¿«":1425,"å®«":1426,"æĹħ":1427,"ä¾Ŀ":1428,"195":1429,"dĠ":1430,"åİĭ":1431,"åºĦ":1432,"ç¬¬ä¸ī":1433,"åĲįä¸º":1434,"èİ«":1435,"ä¼¼":1436,"ä¹Łæĺ¯":1437,"æĪĺäºī":1438,"el":1439,"å¯Į":1440,"æ¢ħ":1441,"çĿ£":1442,"åĢ¼":1443,"12æľĪ":1444,"åģļ":1445,"åħ¨åĽ½":1446,"æĶ¯æĮģ":1447,"å°ģ":1448,"èĹı":1449,"æ°¸":1450,"åĲ«":1451,"Ġ202":1452,"6æĹ¥":1453,"å»¶":1454,"7æĹ¥":1455,"æĸĹ":1456,"èĴĤ":1457,"196":1458,"ä¸ĢäºĽ":1459,"æĭĶ":1460,"çĶŁæ´»":1461,"åİħ":1462,"åį¢":1463,"äººçļĦ":1464,"çħ§":1465,"äº¡":1466,"æľįåĬ¡":1467,"å¼Ĺ":1468,"éļ¾":1469,"åİĤ":1470,"ç»Ĩ":1471,"æ¾³":1472,"4æĹ¥":1473,"åĪ¤":1474,"æĵ":1475,"æł¸":1476,"10æľĪ":1477,"æŀ¶":1478,"ä¸¹":1479,"å¤§çļĦ":1480,"éģĹ":1481,"ä¼¤":1482,"å°¼äºļ":1483,"å®£å¸ĥ":1484,"çļ®":1485,"èĻ½":1486,"9æľĪ":1487,"7æľĪ":1488,"å½Ĵ":1489,"åį°åº¦":1490,"åı³":1491,"ä¿Ħç½Ĺæĸ¯":1492,"å·²ç»ı":1493,"è¯Ĩ":1494,"åºĨ":1495,"8æľĪ":1496,"åıĤä¸İ":1497,"åľ°æĸ¹":1498,"ä¸¾è¡Į":1499,"æĸŃ":1500,"åħ³ç³»":1501,"3æĹ¥":1502,"åıĳè¡Į":1503,"éĹ»":1504,"3æľĪ":1505,"çĨ":1506,"è½®":1507,"50":1508,"åįĥç±³":1509,"é½":1510,"5æľĪ":1511,"åı¶":1512,"äºİ201":1513,"ä¸½":1514,"æĿ°":1515,"åºĹ":1516,"æĸ¹éĿ¢":1517,"ç¤¼":1518,"åĶĲ":1519,"åĨ³å®ļ":1520,"å·¥ç¨ĭ":1521,"ï¼":1522,"åĲĮå¹´":1523,"éĩįè¦ģ":1524,"èĽ":1525,"è¶³çĲĥ":1526,"ro":1527,"åĮĹäº¬":1528,"åĪĩ":1529,"ä¸¤ä¸ª":1530,"ä¼ĺ":1531,"çŃĸ":1532,"ä¸¥":1533,"2020å¹´":1534,"ä¸Ĭæµ·":1535,"re":1536,"åºŃ":1537,"èµ°":1538,"th":1539,"6æľĪ":1540,"å¿ħ":1541,"è¯»":1542,"æĭ¥":1543,"19å¹´":1544,"ç»Ŀ":1545,"éģŃ":1546,"1æľĪ":1547,"0å¹´ä»£":1548,"å°ļ":1549,"èģĶåĲĪ":1550,"äººçī©":1551,"å¼Ĥ":1552,"åĺī":1553,"éĥ¡":1554,"äºĭä»¶":1555,"ç»ĥ":1556,"æį¢":1557,"åĮĹéĥ¨":1558,"åĨłåĨĽ":1559,"é©»":1560,"å½¹":1561,"èµ«":1562,"åŃ¦å®¶":1563,"èĬĤçĽ®":1564,"æ¤į":1565,"ĠçĶŁ":1566,"å²¸":1567,"éº¦":1568,"éĩİ":1569,"åŃ¦çĶŁ":1570,"å¼Ł":1571,"ä¼ļè®®":1572,"193":1573,"æ²¹":1574,"äººæ°ĳåħ±åĴĮåĽ½":1575,"æĬĢæľ¯":1576,"4æľĪ":1577,"éĢĲ":1578,"åĶ®":1579,"èĥĮ":1580,"11æľĪ":1581,"æ¯ķ":1582,"æĿ¾":1583,"åĪ°äºĨ":1584,"åĬłåħ¥":1585,"é³":1586,"å¯º":1587,"èī¾":1588,"èĵ":1589,"åį´":1590,"ä¿ĿæĬ¤":1591,"000":1592,"åĪĹè½¦":1593,"ä¹ħ":1594,"æĢ»ç»Ł":1595,"æ¬§æ´²":1596,"ç½²":1597,"èı²":1598,"éļĨ":1599,"è®¾æľī":1600,"æĻļ":1601,"é¼":1602,"å¹³æĸ¹åįĥç±³":1603,"ĠC":1604,"èĪ¬":1605,"åª":1606,"æĿ¥èĩª":1607,"åĪĨåĪ«":1608,"ç«¯":1609,"ä¸ºäºĨ":1610,"çĽ®åīį":1611,"ç¯":1612,"æĺ¥":1613,"çŁŃ":1614,"éĢģ":1615,"åħ¹":1616,"åĪĨå¸ĥ":1617,"åħĭåħ°":1618,"éľĢè¦ģ":1619,"ç³»åĪĹ":1620,"ä¹ĺ":1621,"ä½³":1622,"å°½":1623,"æĿŁ":1624,"il":1625,"å®Ŀ":1626,"å®ĮæĪĲ":1627,"çļĦäºº":1628,"ä¸Ńåįİäººæ°ĳåħ±åĴĮåĽ½":1629,"éĢļå¸¸":1630,"é¡º":1631,"æ°ĳåĽ½":1632,"ä»Ģ":1633,"æ²¿":1634,"æľ«":1635,"æĹĹ":1636,"å»ºç«ĭ":1637,"åĲ¯":1638,"èįī":1639,"æĺ¯åľ¨":1640,"åįĹéĥ¨":1641,"åºı":1642,"åŃĺåľ¨":1643,"éĺ¶":1644,"éĺµ":1645,"èį¯":1646,"å¯¼èĩ´":1647,"èĢ¶":1648,"éĽĦ":1649,"éħĴ":1650,"æļ´":1651,"æĸ¯çī¹":1652,"æ¯Ľ":1653,"æĪĲåĬŁ":1654,"ion":1655,"æ³½":1656,"åħ¼":1657,"é¢ĳ":1658,"åħ±æľī":1659,"åĨ²":1660,"è½»":1661,"è¦ģæ±Ĥ":1662,"æĳĦ":1663,"çĭ¬ç«ĭ":1664,"è·Ŀ":1665,"çĦ¶èĢĮ":1666,"äºĨä¸Ģ":1667,"ç»ĦæĪĲ":1668,"ä¾ĭå¦Ĥ":1669,"æĳ©":1670,"æľĢé«ĺ":1671,"aĠ":1672,"éĶĢ":1673,"æľĪ1æĹ¥":1674,"æ¬¾":1675,"ch":1676,"è¾ĵ":1677,"åįķä½į":1678,"ĠåİĨåı²":1679,"èĻ½çĦ¶":1680,"æµ·æĭĶ":1681,"å¼Ģåıĳ":1682,"æĭ¥æľī":1683,"å¸ķ":1684,"ol":1685,"èĩªçĶ±":1686,"ãĢģãĢĬ":1687,"et":1688,"çģµ":1689,"åŃĻ":1690,"ä¸ĵè¾ĳ":1691,"çŃ¾":1692,"åªĴ":1693,"çĽ¸åħ³":1694,"ä¹Įåħĭåħ°":1695,"ãĢĭ(":1696,"ç±į":1697,"å©ļ":1698,"çİĽ":1699,"æĥħåĨµ":1700,"çĶ¨äºİ":1701,"ç½ª":1702,"é¡»":1703,"èīºæľ¯":1704,"ĠçĶŁå¹³":1705,"æĿĤ":1706,"çº½":1707,"é¥°":1708,"æ£Ģ":1709,"éĽħ":1710,"å¹¶ä¸Ķ":1711,"é¡¶":1712,"çĲĥéĺŁ":1713,"éĢīä¸¾":1714,"å¯Ĩåº¦":1715,"æĿ¨":1716,"èģĶçĽŁ":1717,"yĠ":1718,"éĩĩçĶ¨":1719,"ä»ĸåľ¨":1720,"æŀª":1721,"åĤ":1722,"æıĲåĩº":1723,"ä»ĭ":1724,"åīįå¾Ģ":1725,"8æĹ¥":1726,"åĬ³":1727,"ç§Ģ":1728,"åħį":1729,"ou":1730,"çķ¥":1731,"åıĹåĪ°":1732,"æ²ĥ":1733,"å·®":1734,"æĭį":1735,"25":1736,"éĢı":1737,"è¿½":1738,"å®³":1739,"äº¿":1740,"æ¿":1741,"å·¡":1742,"2019å¹´":1743,"ãĢĭ.":1744,"æĸ¹å¼ı":1745,"çĽĸ":1746,"åĩı":1747,"èĭ¥":1748,"è§Ĵèī²":1749,"è´¢":1750,"äººåĳĺ":1751,"éĴŁ":1752,"è¢Ń":1753,"è¿ģ":1754,"éĩĬ":1755,"åĽ½æ°ĳ":1756,"çļĦå¤§":1757,"äºĮåįģ":1758,"æĿ¿":1759,"èī¯":1760,"å°¾":1761,"åĲ´":1762,"è®Ń":1763,"èŀ":1764,"åħ·æľī":1765,"èį£":1766,"æĿ¯":1767,"åĲĪä½ľ":1768,"è°·":1769,"is":1770,"çĪĨ":1771,"éħ¸":1772,"äº¤éĢļ":1773,"æķ£":1774,"è¿Ļä¸Ģ":1775,"æı´":1776,"æłĳ":1777,"æŃĮæĽ²":1778,"åĩºçīĪ":1779,"å¤§éĻĨ":1780,"es":1781,"éĽĨåĽ¢":1782,"èģĶèµĽ":1783,"äº§çĶŁ":1784,"ç£":1785,"æĺł":1786,"è¿Ļç§į":1787,"2æľĪ":1788,"ĠM":1789,"é¦ĸæ¬¡":1790,"å®ĭ":1791,"ä¼ģ":1792,"è¯ĳ":1793,"è´Ń":1794,"äºĪ":1795,"24":1796,"æķ°æį®":1797,"åĸĦ":1798,"±ä¹Ĳ":1799,"å¾®":1800,"é»İ":1801,"å¹¶åľ¨":1802,"æ´¥":1803,"1æĹ¥":1804,"èĤ¡":1805,"å°º":1806,"è¡¥":1807,"çī¹åĪ«":1808,"æ¯ķä¸ļ":1809,"è®¿":1810,"å±ĭ":1811,"ç»§ç»Ń":1812,"æŃ¤å¤ĸ":1813,"å®¡":1814,"è´µ":1815,"äºĴ":1816,"lt":1817,"è¡Ģ":1818,"é«ĺåº¦":1819,"é¡¹çĽ®":1820,"ç»ĵæĿŁ":1821,"æĻĭ":1822,"è½¨":1823,"çĥĪ":1824,"äºİ200":1825,"ä¸ªäºº":1826,"åģĩ":1827,"ä½Ĩæĺ¯":1828,"è®¯":1829,"éŁ¦":1830,"ãĥ":1831,"åľ°çĲĨ":1832,"ãĢĭãĢģãĢĬ":1833,"åħ»":1834,"éĻ©":1835,"ç»ĵæŀĦ":1836,"èĩ£":1837,"çĶŁäº§":1838,"ä¸ĢèĪ¬":1839,"zh":1840,"å¸ĿåĽ½":1841,"é¢Ŀ":1842,"æıı":1843,"ä»¥ä¸ĭ":1844,"æī©":1845,"æĺ¯ä¸Ģä¸ª":1846,"éĥ¨éĺŁ":1847,"è¥¿äºļ":1848,"è¯Ńè¨Ģ":1849,"æķĳ":1850,"äººåı£å¯Ĩåº¦":1851,"æ¯Ĵ":1852,"æİ§åĪ¶":1853,"é²ľ":1854,"å¯¹äºİ":1855,"åĸľ":1856,"ç§ĳåŃ¦":1857,"æİ¥åıĹ":1858,"å½¢æĪĲ":1859,"ç«ŀ":1860,"åıĸå¾Ĺ":1861,"ä»»ä½ķ":1862,"æĹ¶ä»£":1863,"æµ·åĨĽ":1864,"è¡ĮåĬ¨":1865,"ä¸»å¸Ń":1866,"åĮºåŁŁ":1867,"æĮ¥":1868,"å³°":1869,"éĿ¢ç§¯ä¸º":1870,"æķħäºĭ":1871,"å¤º":1872,"æĿľ":1873,"æ°ĳä¸»":1874,"èĪŀ":1875,"æľīä¸Ģ":1876,"æ¦Ĥ":1877,"9æĹ¥":1878,"éĶ¦":1879,"è¯Ĺ":1880,"åĩºçĶŁ":1881,"æĹłæ³ķ":1882,"è®²":1883,"éĢĤ":1884,"éĢĶ":1885,"æĭľ":1886,"ä¸°":1887,"æľºæŀĦ":1888,"40":1889,"çİ©":1890,"çĶļ":1891,"å¢ŀåĬł":1892,"ĠA":1893,"éĢłæĪĲ":1894,"åĮºçļĦ":1895,"21":1896,"æľ±":1897,"å¸ģ":1898,"çĸĹ":1899,"é½Ĳ":1900,"æ¢ģ":1901,"èį·":1902,"è¾Ĩ":1903,"éĻĦè¿ĳ":1904,"ä¸»æķĻ":1905,"è¶ħè¿ĩ":1906,"ç§ĺ":1907,"å»·":1908,"gt":1909,"çļĦæĺ¯":1910,"é¢Ĩå¯¼":1911,"æĮī":1912,"ä¼łç»Ł":1913,"ç»ĵæŀľ":1914,"ç½Ĺé©¬":1915,"å¾Ħ":1916,"ä¸įè¿ĩ":1917,"çĩ":1918,"å®¾":1919,"éļ¶":1920,"ç¦ģ":1921,"ac":1922,"23":1923,"æĴ¤":1924,"ä¸Ńåħ±":1925,"le":1926,"åĿĢ":1927,"æĿĲ":1928,"åįĪ":1929,"è´§":1930,"å°ıæĹ¶":1931,"åĩ¯":1932,"åĬ¨çī©":1933,"æ¸Ĳ":1934,"100":1935,"çļĦæĹ¶":1936,"çĬ¯":1937,"èĥ¡":1938,"éļıåĲİ":1939,"åı¦å¤ĸ":1940,"åĨĽäºĭ":1941,"æĺ¯ä½įäºİ":1942,"ç«¥":1943,"æķ¦":1944,"èĪªç©º":1945,"åľĨ":1946,"ä½©":1947,"çĽĬ":1948,"ä»ª":1949,"å¤Ł":1950,"æłĩåĩĨ":1951,"om":1952,"åıĳå¸ĥ":1953,"èģļ":1954,"è°¢":1955,"ing":1956,"æĸ°éĹ»":1957,"éª¨":1958,"æ··":1959,"çĮ®":1960,"åĨħçļĦ":1961,"çĽĽ":1962,"60":1963,"è¿Ķ":1964,"ä»ģ":1965,"éĥİ":1966,"ä¸ĢçĽ´":1967,"éĺ¿å°Ķ":1968,"çīĽ":1969,"çļĨ":1970,"æķ°éĩı":1971,"æŁĲ":1972,"è®¨":1973,"ç¿°":1974,"åĪĳ":1975,"ç©Ĩ":1976,"çĤ¸":1977,"æįķ":1978,"22":1979,"å¨ľ":1980,"éĿ©åĳ½":1981,"èĮĥåĽ´":1982,"å¤§åĪ©":1983,"å¸®":1984,"åªĴä½ĵ":1985,"éĻ¤äºĨ":1986,"å®½":1987,"å¾ĹåĪ°":1988,"æľºåľº":1989,"å¥³æĢ§":1990,"èĮ¨":1991,"å®īåħ¨":1992,"è°ĥæŁ¥":1993,"è¿ĩç¨ĭ":1994,"è§ī":1995,"å°±æĺ¯":1996,"æİ¢":1997,"ä¹ĭåīį":1998,"æł¼åħ°":1999,"ç»ıè¿ĩ":2000,"çĤ®":2001,"æĻº":2002,"åºĻ":2003,"åı¦ä¸Ģ":2004,"åĨħå®¹":2005,"åħ¬åĽŃ":2006,"çĪ¶äº²":2007,"å¹ķ":2008,"æĪª":2009,"åĲ¦":2010,"éģĩ":2011,"å¤ľ":2012,":âĢľ":2013,"(,),":2014,"éŁ©åĽ½":2015,"çĶ·åŃĲ":2016,"ä¹Ķ":2017,"åįģäºĮ":2018,"éľį":2019,"èµŀ":2020,"åħħ":2021,"èĶ":2022,"æĭ©":2023,"è½¯":2024,"éĩįæĸ°":2025,"å¥³åŃĲ":2026,"åĪ»":2027,"æīĢä»¥":2028,"éľ²":2029,"èµĽäºĭ":2030,"æĽ¿":2031,"ä¼ĳ":2032,"å°¤":2033,"ç§ģ":2034,"åĪº":2035,"ä½įç½®":2036,"å¹³åĿĩ":2037,"2010å¹´":2038,"èĩªå·±çļĦ":2039,"èĸ":2040,"å«":2041,"ĠP":2042,"åıªæľī":2043,"çİī":2044,"è¿ĲåĬ¨åĳĺ":2045,"æŁĵ":2046,"çºªå¿µ":2047,"å±ħæ°ĳ":2048,"æĿ¥çļĦ":2049,"192":2050,"å¦Ĥæŀľ":2051,"é¸Ł":2052,"åĪĽä½ľ":2053,"åıĳè¡¨":2054,"åºŁ":2055,"ç¼º":2056,"éĿł":2057,"ä¸Ŀ":2058,"ãģ":2059,"æľīåħ³":2060,"éĴĪ":2061,"æķĮ":2062,"åĢŁ":2063,"æĺĮ":2064,"çİ°ä»£":2065,"è®¾ç«ĭ":2066,"ri":2067,"ç»©":2068,"è¯ī":2069,"æºª":2070,"æľīéĻĲ":2071,"æĬµ":2072,"éĤ®":2073,"è¡Įä¸º":2074,"èģĶéĤ¦":2075,"åĲĽ":2076,".âĢĿ":2077,"å·¨":2078,"èľ":2079,"åĲ¸":2080,"å®ĩ":2081,"å±ŀçļĦ":2082,"è¥¿çıŃ":2083,"è·Ł":2084,"çĪµ":2085,"ä¹±":2086,"èĵĿ":2087,"è¥¿çıŃçīĻ":2088,"éªĳ":2089,"å¾¡":2090,"å®ª":2091,"çľ¼":2092,"è®®ä¼ļ":2093,"åıįå¯¹":2094,"æ¼Ķåĳĺ":2095,"æ¤įçī©":2096,"åĮºä¸º":2097,"åĿ¡":2098,"æ®¿":2099,"åħ±äº§":2100,"æķĻæİĪ":2101,"æįŁ":2102,"å¾Ĵ":2103,"éĽª":2104,"å·¥ä¸ļ":2105,"åĽº":2106,"æ°ĳæĹı":2107,"è¯¸":2108,"ä¾µ":2109,"åĪĬ":2110,"ĠT":2111,"çīĪæľ¬":2112,"åĮ¹":2113,"åĲįçļĦ":2114,"ç¬¬åĽĽ":2115,"éĢĥ":2116,"åħ¬è·¯":2117,"çĽ´æİ¥":2118,"çİ°åľ¨":2119,"éļĶ":2120,"èª":2121,"åħĭæĸ¯":2122,"å»ºè®¾":2123,"èģĮä¸ļ":2124,"æī¾":2125,"çİ¯å¢ĥ":2126,"è°ĭ":2127,"æĺ¯çĶ±":2128,"ä¸¾åĬŀ":2129,"èĦĳ":2130,"æ¶¯":2131,"ä¸ŃåŃ¦":2132,"ä¹İ":2133,"éĢīæĭ©":2134,"åĨĽéĺŁ":2135,"çĹĩ":2136,"åĩºçļĦ":2137,"éĿŀå¸¸":2138,"ç¿»":2139,"æ¬¢":2140,"èĭıèģĶ":2141,"åıįåºĶ":2142,"ç¼ĸçłģ":2143,"ä½ł":2144,"çĶ³":2145,"åħ¬å¼Ģ":2146,"ä½ĵèĤ²":2147,"å£¤":2148,"éĥĳ":2149,"åĲįç§°":2150,"è¯¥åľ°":2151,"å²©":2152,"æ¦ľ":2153,"è£ģ":2154,"èµĦæĸĻ":2155,"åħ±åĲĮ":2156,"ä¸īå¹´":2157,"æ±ĩ":2158,"éĵ¶è¡Į":2159,"å½¢å¼ı":2160,"åĨ³èµĽ":2161,"ç©¿":2162,"æĪĺæĸĹ":2163,"ĠB":2164,"è¡ĮæĺŁ":2165,"åħĦ":2166,"åı¬":2167,"åĨ°":2168,"æĺ¾ç¤º":2169,"éĤ»":2170,"æ¼«":2171,"åįıä¼ļ":2172,"æĢ¥":2173,"æ¿Ģ":2174,"è·Ŀç¦»":2175,"of":2176,"å¥ī":2177,"æĸ¹æ³ķ":2178,"ä¸Ģç§į":2179,"å¤§éĩı":2180,"ç»ľ":2181,"æĶ¹ä¸º":2182,"éķľ":2183,"æĪĪ":2184,"åŁ¹":2185,"Ġ199":2186,"un":2187,"åĶ¯":2188,"Ġåľ°çĲĨ":2189,"è¯¾":2190,"å°ıè¯´":2191,"ç¬¦":2192,"èĥŀ":2193,"åĪ©çĶ¨":2194,"æĹ¶çļĦ":2195,"å¤ļæķ°":2196,"ä¸Ģèµ·":2197,"åĲ¬":2198,"éĥ¨éķ¿":2199,"ä¹Łæľī":2200,"æ¯ģ":2201,"è®®åĳĺ":2202,"èĬ¬":2203,"è¿«":2204,"ç¾İåħĥ":2205,"ä¹¦è®°":2206,"ä¼ģä¸ļ":2207,"è®¢":2208,"è°Ī":2209,"æĸ°çļĦ":2210,"åĳ¼":2211,"é»ĺ":2212,"åĮħåĲ«":2213,"èĩªæ²»":2214,"å¾ħ":2215,"æ³ķå¾ĭ":2216,"éĽ¨":2217,"éĨ":2218,"ç®¡è¾ĸ":2219,"æĮĩæĮ¥":2220,"åĳĪ":2221,"èĤ¯":2222,"tĠ":2223,"å°Ķæĸ¯":2224,"åģ¥":2225,"å®Įåħ¨":2226,"å¹¶ä¸į":2227,"ä¸»ä»»":2228,"æĢĢ":2229,"èĢ³":2230,"åĪĨä¸º":2231,"åı°åĮĹ":2232,"ä¸Ńåįİæ°ĳåĽ½":2233,"Ġæľ¬":2234,"ï¼į":2235,"çĸĳ":2236,"æ³Ľ":2237,"è¿Ļæĺ¯":2238,"å®¶åºŃ":2239,"èµµ":2240,"åĿļ":2241,"ä¸ľåĮĹ":2242,"80":2243,"æ³ķéĻ¢":2244,"çĽ´åĪ°":2245,"äººç±»":2246,"å¤ĦçĲĨ":2247,"èİī":2248,"éĻµ":2249,"æĦ¿":2250,"âĢĶâĢĶ":2251,"ãĤ":2252,"æĵį":2253,"æĹĭ":2254,"æĪĳä»¬":2255,"å®¶æĹı":2256,"èĩªçĦ¶":2257,"çĶŁæ¶¯":2258,"å§ĵ":2259,"åŃ¦ä¹ł":2260,"åĨįæ¬¡":2261,"è¿ĺæľī":2262,"æ¶ī":2263,"çĶµåŃĲ":2264,"éĥ½æĺ¯":2265,"æŀļ":2266,"2021å¹´":2267,"as":2268,"é¢Ĺ":2269,"æĶ¿çŃĸ":2270,"åħ³äºİ":2271,"çĶŁçī©":2272,"æĪ´":2273,"æ¯«":2274,"åŃ©":2275,"èĦ±":2276,"åĲİçļĦ":2277,"æĢ§çļĦ":2278,"27":2279,"åĬ¨çĶ»":2280,"æī§è¡Į":2281,"çĶļèĩ³":2282,"æĮĩåĩº":2283,"çĲĨè®º":2284,"ur":2285,"è¡¨çİ°":2286,"èŀį":2287,":ãĢĮ":2288,"å°ĨåĨĽ":2289,"å¿ħé¡»":2290,"ä¸Ģå¹´":2291,"åĮ»éĻ¢":2292,"å®ĥä»¬":2293,"2022å¹´":2294,"æļĤ":2295,"åŁºç¡":2296,"åį±":2297,"ç»¿":2298,"ä»¥æĿ¥":2299,"æĺ¯ä¸Ģç§į":2300,"å¦»":2301,"ç§ĭ":2302,"çĽĺ":2303,"ä¸ľéĥ¨":2304,"æľĢä½³":2305,"æģĴ":2306,"å°½ç®¡":2307,"å¢ĥåĨħ":2308,"èĪį":2309,"ow":2310,"æīİ":2311,"æľĢåĪĿ":2312,"åĿĲ":2313,"èĿ":2314,"é¡¾":2315,"æĸĩåŃ¦":2316,"åŁºç¡Ģ":2317,"åį·":2318,"æ¨ª":2319,"å½ĵä¸Ń":2320,"ç¾½":2321,"æŁı":2322,"ä¸ŃåĽ½å¤§éĻĨ":2323,"ä¹Ī":2324,"ä¸ºä¸»":2325,"åĬª":2326,"å®ĺæĸ¹":2327,"ç¿¼":2328,"ç´§":2329,"åįļçī©":2330,"èīĩ":2331,"åķĨä¸ļ":2332,"ç¯ĩ":2333,"çľģä»½":2334,"è¾Ľ":2335,"æĶ»åĩ»":2336,"æ»¨":2337,"æĦıå¤§åĪ©":2338,"è´¡":2339,"35":2340,"åħ¬åħ±":2341,"å¥ı":2342,"ä¹°":2343,"çī©ç§į":2344,"æŃ»äº¡":2345,"æ¡ĳ":2346,"éĴ±":2347,"æĬ¥åĳĬ":2348,"ç±»ä¼¼":2349,"åĿı":2350,"2001å¹´":2351,"æĻ®æŁ¥":2352,"éŃĶ":2353,"ç¼©":2354,"28":2355,"æľĿé²ľ":2356,"æĶ¿æ²»äººçī©":2357,"æ´ª":2358,"è¯¥åĽ½":2359,"å¸Ĥåľº":2360,"æĹ©æľŁ":2361,"èĥ½åĬĽ":2362,"¤Ĳ":2363,"æ½ľ":2364,"ad":2365,"26":2366,"å®ŀéĻħ":2367,"ãĢį(":2368,"äºļæ´²":2369,"èĨ":2370,"æııè¿°":2371,"å¢ĵ":2372,"2011å¹´":2373,"è¯¯":2374,"ä¸ĭçļĦ":2375,"è§Ħæ¨¡":2376,"çº¦ç¿°":2377,"oĠ":2378,"åĽ¢ä½ĵ":2379,"ä¹ĭéĹ´çļĦ":2380,"åĬłæĭ¿":2381,"åħ¶åĲİ":2382,"éģ¿":2383,"å¿ł":2384,"åŃ¦åĲį":2385,"åħ¨çĲĥ":2386,"ç»į":2387,"æ®ĸ":2388,"åİ»ä¸ĸ":2389,"æĭįæĳĦ":2390,"å¤§ä¼ļ":2391,"æłĸ":2392,"æµ·æĭĶé«ĺåº¦":2393,"çģŃ":2394,"è¥¿éĥ¨":2395,"å¤ĸäº¤":2396,",ãĢĬ":2397,"Ġäººåı£":2398,"å¹¿ä¸ľ":2399,"çļĦåľ°":2400,"éľĩ":2401,"æµĻ":2402,"åĪ¶éĢł":2403,"éĵľ":2404,"èĥ½å¤Ł":2405,"ä¸¥éĩį":2406,"å»ī":2407,"ç¦»å¼Ģ":2408,"ç«¹":2409,"çĸ«":2410,"åŁºæľ¬":2411,"å®ĹæķĻ":2412,"æģ¶":2413,"æ±½":2414,"å®ľ":2415,"è¿·":2416,"ä¼į":2417,"çºªå½ķ":2418,"é³į":2419,"ä½ľçĶ¨":2420,"è¿¹":2421,"ig":2422,"éĹŃ":2423,"å¥Ĺ":2424,"æĮģç»Ń":2425,"äºİ18":2426,"æİ¨åĩº":2427,"åĿĹ":2428,"åģı":2429,"ä»ĺ":2430,"äºİæĺ¯":2431,"è®¡ç®Ĺ":2432,"è·¯çº¿":2433,"2009å¹´":2434,"æī¬":2435,"us":2436,"ç¼ĸçłģä¸º":2437,"åħ±äº§åħļ":2438,"äºĭåĬ¡":2439,"åŃĶ":2440,"ç©ºéĹ´":2441,"çļĦä¸Ģä¸ªå¸Ĥéķĩ":2442,"èµĸ":2443,"70":2444,"è¡£":2445,"è¿İ":2446,"2016å¹´":2447,"å¥¹çļĦ":2448,"æ³ī":2449,"çļĦä¸»":2450,"åĪļ":2451,"è¾ħ":2452,"å¸ĮæľĽ":2453,"ä»»åĬ¡":2454,"çĽ®æłĩ":2455,"ä¸įæĺ¯":2456,"æŀĲ":2457,"èĦī":2458,"2008å¹´":2459,"æ±ł":2460,"ç»Łæ²»":2461,"Ġæł¹æį®":2462,"ä¸īä¸ª":2463,"æĸ¯åĿ¦":2464,"æİ¥å£¤":2465,"èªī":2466,"ä¼°":2467,"29":2468,"æĸ¹åĲĳ":2469,"ec":2470,"æ¸¡":2471,"æģĲ":2472,"ç¼ĺ":2473,"æĸĩçī©":2474,"ä¸ĢåĲį":2475,"ç¬¬åįģ":2476,"ä¸ľåįĹ":2477,"åĬŁèĥ½":2478,"äºİ199":2479,"èĳ£":2480,"æ¼Ķåĩº":2481,"éļľ":2482,"å¼ĥ":2483,"åįķæĽ²":2484,"éĺ¿æĭī":2485,"190":2486,"ãĢī":2487,"ãĢĪ":2488,"åĬłæĭ¿å¤§":2489,"çº½çº¦":2490,"å¢¨":2491,"éĶ¦æłĩ":2492,"æĭĽ":2493,"äº«":2494,"è·¨":2495,"è®¾æĸ½":2496,"æľĪåı°":2497,"èµ¤":2498,"å¯»":2499,"å®ļçļĦ":2500,"èµĽåŃ£":2501,"èħĬ":2502,"åīĳ":2503,"éĢıè¿ĩ":2504,"çĶĺ":2505,"è¢«ç§°ä¸º":2506,"äºķ":2507,"ä¿±ä¹Ĳ":2508,"ter":2509,"éĶ¡":2510,"éŃı":2511,"çĲĥåĳĺ":2512,"éĢĬ":2513,"éĺ»":2514,"ä»įçĦ¶":2515,"åįļçī©é¦Ĩ":2516,"åĪĨå¸ĥäºİ":2517,"åıĺåĮĸ":2518,"ä¿±ä¹Ĳéĥ¨":2519,"æĽ¾ç»ı":2520,"æĥł":2521,"è´¸":2522,"2012å¹´":2523,"ĠL":2524,"è§£æĶ¾":2525,"çĳŁ":2526,"åĽ½çİĭ":2527,"é¢ģ":2528,"åħ¬å¸ĥ":2529,"ä¸Ģæ¬¡":2530,"å·´å£«":2531,"åĲĪå¹¶":2532,"å¼ĢæĶ¾":2533,"å¹¿æĴŃ":2534,"åĨ¬":2535,"ç»ĺ":2536,"Ġè¯¥":2537,"åħĭéĩĮ":2538,"å¤§åĮº":2539,"äº®":2540,"2018å¹´":2541,"å°Ĩåħ¶":2542,"èĤī":2543,"è¾¾åĪ°":2544,"ä¸įèĥ½":2545,"èĢĮä¸Ķ":2546,"å®ŀéªĮ":2547,"èµ¢":2548,"åĶ¯ä¸Ģ":2549,"åİŁåĽł":2550,"æİĴåĲį":2551,"åĽĽå¹´":2552,".ãĢį":2553,"2014å¹´":2554,"è¸":2555,"2023å¹´":2556,"éĢĲæ¸Ĳ":2557,"45":2558,"æį·":2559,"èıĮ":2560,"åıĳåĬ¨":2561,"çĥŃå¸¦":2562,"çº²":2563,"åĦ¿åŃĲ":2564,"ç»¼":2565,"é©¬æĿ¥":2566,"äººåı£æĻ®æŁ¥":2567,"åĵ²":2568,"å½ĵéĢī":2569,"çŁ¿":2570,"è¿ŀæİ¥":2571,"id":2572,"æ¨¡å¼ı":2573,"ir":2574,"å¾Ĳ":2575,"è¡ĮæĶ¿åĮº":2576,"åľ¨æŃ¤":2577,"ç¹":2578,"è¾ŀ":2579,"ç¬¬ä¸Ģæ¬¡":2580,"ä¸ľäº¬":2581,"åı·çº¿":2582,"çģ¾":2583,"èĴĻåı¤":2584,"ä¸»æĮģ":2585,"å®ļä¹ī":2586,"è¿ĲåĬ¨ä¼ļ":2587,"æĴŃåĩº":2588,"æľīéĻĲåħ¬åı¸":2589,"éĺ´":2590,"çĽ¸å½ĵ":2591,"èĽĭ":2592,"2015å¹´":2593,"åĲĦç§į":2594,"è®Ńç»ĥ":2595,"2013å¹´":2596,"æ´ŀ":2597,"ç¨³":2598,"ĠR":2599,"ç»Ĩèĥŀ":2600,"æ½®":2601,"èĢħçļĦ":2602,"åĩ»è´¥":2603,"å¦ĩ":2604,"å¤ªå¹³":2605,"åıĻ":2606,"çĽ¸åĲĮ":2607,"æ¼ĶåĶ±":2608,"é£İæł¼":2609,"em":2610,"çĬ¹":2611,"å¤ªéĺ³":2612,"48":2613,"å¦¹":2614,"Ġä¸İ":2615,"ç¹ģ":2616,"IN":2617,"æ°§":2618,"éģĵè·¯":2619,"ä½Ĳ":2620,"ĠD":2621,"æĪĲç»©":2622,"æľĪ28æĹ¥":2623,"æļĹ":2624,"(,)":2625,"æŃĮæīĭ":2626,"æİĮ":2627,"æĭĴ":2628,"å¥¥è¿Ĳ":2629,"è§Ħå®ļ":2630,"ä½¿å¾Ĺ":2631,"æ»ĳ":2632,"æľĪ15æĹ¥":2633,"åı¸ä»¤":2634,"æģ¢":2635,"çİ©å®¶":2636,"ä¸ĵä¸ļ":2637,"Ġformula":2638,"éĺ¶æ®µ":2639,"éĴ¢":2640,"TC":2641,"äººå£«":2642,"90":2643,"è¥¿åįĹ":2644,"åĢĴ":2645,"åĨ·":2646,"ä¸įåĲĮçļĦ":2647,"åĨĮ":2648,"ä¸Ģæł·":2649,"å°Ķçľģ":2650,"æī¹è¯Ħ":2651,"20æĹ¥":2652,"çŃīäºº":2653,"theĠ":2654,"è¥¿åĮĹ":2655,"èĻİ":2656,"çĲ´":2657,"ç§Ł":2658,"å»ºéĢł":2659,"è®¾ç½®":2660,"äº§åĵģ":2661,"ä¼Ĳ":2662,"âĢĵ":2663,"2017å¹´":2664,"åĬŀåħ¬":2665,"è½¨éģĵ":2666,"éĿĴå¹´":2667,"æĺĤ":2668,"ç¨İ":2669,"10æĹ¥":2670,"ĠG":2671,"é©±":2672,"ä¿Ĺ":2673,"30æĹ¥":2674,"å¾½":2675,"ä¸ºäºº":2676,"çıł":2677,"ä»ĸä»¬çļĦ":2678,"éº»":2679,"èīĺ":2680,"å¥Ī":2681,"éĶĻ":2682,"ç¡¬":2683,"åĿĳ":2684,"od":2685,"èĥĮæĻ¯":2686,"åľĪ":2687,"å¹¼":2688,"åĳ³":2689,"33":2690,"çĶº":2691,"å¹´çļĦ":2692,"çĪĨåıĳ":2693,"å½¼":2694,"æµĻæ±Ł":2695,"åĪĨéĴŁ":2696,"å°ıè¡ĮæĺŁ":2697,"æĤ£":2698,"ed":2699,"çļĦä¸Ģéĥ¨åĪĨ":2700,"éĺģ":2701,"èĳ¡":2702,"Ġ198":2703,"å¤§æĪĺ":2704,"å¢Ļ":2705,"å½©":2706,"ä¼¦æķ¦":2707,"ä¹Ļ":2708,"åŃ¦èĢħ":2709,"æµ¦":2710,"æģ¢å¤į":2711,"åľŁåľ°":2712,"åºĶçĶ¨":2713,"å¸ĮèħĬ":2714,"ä¸īåįģ":2715,"æĶ¹éĿ©":2716,"åįĸ":2717,"æ¯įäº²":2718,"è§¦":2719,"ĠçļĦ":2720,"ä¸įä¼ļ":2721,"èº«ä»½":2722,"çº¸":2723,"å¯¿":2724,"um":2725,"éĥ¨éĹ¨":2726,"èŃ¦å¯Ł":2727,"ç¬Ķ":2728,"2007å¹´":2729,"å±±ä¸ľ":2730,"è±ª":2731,"åĽ°":2732,"æ®ĭ":2733,"2024å¹´":2734,"é£ŀæľº":2735,"im":2736,"åĪ¶åº¦":2737,"%,":2738,"åīĤ":2739,"èİİ":2740,"èķ":2741,"ä¿ĥ":2742,"ä¸ĭè¾ĸ":2743,"æľĪ25æĹ¥":2744,"åĳ½åĲį":2745,"è¯Ħè®º":2746,"æĭīæĸ¯":2747,"è¿Ľå£«":2748,"ç²ī":2749,"æľĢå¤§":2750,"âĢ¦":2751,"æĬķèµĦ":2752,"èĦļ":2753,"éĢĿ":2754,"é«ĺéĢŁ":2755,"ç½ĳç»ľ":2756,"çļĦæĸ°":2757,"å¤§éĥ¨åĪĨ":2758,"å¤ıåŃ£":2759,"Ġ18":2760,"è£Ĥ":2761,"è¿Ļæł·":2762,"è®°è½½":2763,"æ¡£":2764,"æ¥ļ":2765,"æµª":2766,"èµı":2767,"æ¢¦":2768,"ĠH":2769,"å¯¼æ¼Ķ":2770,"ä½Ĩåľ¨":2771,"os":2772,"æ²ī":2773,"èµĦæł¼":2774,"18æĹ¥":2775,"ä¸įä¹ħ":2776,"han":2777,"éĽ¶":2778,"ä¸¤äºº":2779,"å¤©æ´¥":2780,"å¹¿å·ŀ":2781,"ag":2782,"æĺŃ":2783,"çļĦçī¹":2784,"äº¨":2785,"äºĶå¹´":2786,"åĮĸåŃ¦":2787,"æŁ±":2788,"æĭŁ":2789,"å¾Īå¤ļ":2790,"36":2791,"åģ¶":2792,"åĨĪ":2793,"å°Ĭ":2794,"çĶµè§Ĩåı°":2795,"å¸®åĬ©":2796,"åįļå£«":2797,"è´Ŀå°Ķ":2798,"éĤĢ":2799,"çĽĲ":2800,"å¼±":2801,"ent":2802,"è®·":2803,"çĸĨ":2804,"åı«":2805,"éĻ·":2806,"çŃīåľ°":2807,"ãĢįãĢģ":2808,"ç¬¬äºĶ":2809,"æ¯«ç±³":2810,"åħ¨éĥ¨":2811,"åĪĨåŃĲ":2812,"å´ĩ":2813,"æģĭ":2814,"ç»´å°Ķ":2815,"ä»Ļ":2816,"æ¶ħ":2817,"çĭ±":2818,"çĴ":2819,"è¯Ĭ":2820,"ation":2821,"ç¾¤å²Ľ":2822,"éĿĻ":2823,"âĢĿ(":2824,"å¥¥æŀĹ":2825,"ä»»åĳ½":2826,"èĭ±è¯Ń":2827,"éĻĨåĨĽ":2828,"åĨľä¸ļ":2829,"æĿĤå¿Ĺ":2830,"æ±Ĺ":2831,"ç»ķ":2832,"åŁºçĿ£":2833,"åĲįåŃĹ":2834,"é¤Ĳ":2835,"12æĹ¥":2836,"In":2837,"2005å¹´":2838,"2006å¹´":2839,"åħ¬å°º":2840,"æķ´ä¸ª":2841,"è£Ķ":2842,"åĲķ":2843,"iv":2844,"ç®Ģç§°":2845,"çĶ·æĢ§":2846,"38":2847,"ç«ĭæ³ķ":2848,"æ¶²":2849,"èļ":2850,"å¤ļæ¬¡":2851,"ç¥Ń":2852,"é¢ĨåŁŁ":2853,"æŃ¤åĲİ":2854,"èµ¢å¾Ĺ":2855,",âĢľ":2856,"å»ºè®®":2857,"ä½ľå®¶":2858,"é¼ĵ":2859,"ç¬¬äºĮæ¬¡":2860,"ä¾¯":2861,"è¡Ĺéģĵ":2862,"..":2863,"åħĥå¹´":2864,"æ©":2865,"è¿ŀç»Ń":2866,"åľ°ä¸ĭ":2867,"11æĹ¥":2868,"åĪĨæŀĲ":2869,"è¡¨æ¼Ķ":2870,"çĸ¾":2871,"ä¼´":2872,"åŁİåĮº":2873,"37":2874,"ä¼Ł":2875,"19æĹ¥":2876,"åįĹäº¬":2877,"éĶ¦æłĩèµĽ":2878,"åĲĮæł·":2879,"èĻĳ":2880,"å¹¿åľº":2881,"å¥¥æŀĹåĮ¹":2882,"500":2883,"æĢ»äººåı£":2884,"ç»ıå¸¸":2885,"Ġ194":2886,"ĠF":2887,"åħĪåĲİ":2888,"ä¸ĺ":2889,"åĽĽå·Ŀ":2890,"ä¸Ńéĥ¨":2891,"åıĳå°Ħ":2892,"çĦ¶åĲİ":2893,"äºīè®®":2894,"åĩ¤":2895,"åľ°åĮºçļĦ":2896,"é¢ĳéģĵ":2897,"æľĪ24æĹ¥":2898,"å¹ħ":2899,"é¢ľ":2900,"éĥŃ":2901,"å¡ŀå°Ķ":2902,"å¼ķèµ·":2903,"è§Ĩä¸º":2904,"åĪĻæĺ¯":2905,"å¤ļçļĦ":2906,"ä¼Ĭæĸ¯":2907,"æľĪ26æĹ¥":2908,"æĭĨ":2909,"åľ°çĲĥ":2910,"çī§":2911,"ç¤¾åĮº":2912,"éĢŁåº¦":2913,"æĪªèĩ³":2914,"åıĬåħ¶":2915,"è®°å½ķ":2916,"è®¾å¤ĩ":2917,"é©¶":2918,"æ¯ıå¹´":2919,"ç¦ıå»º":2920,"æĲŃ":2921,"åĩºä»»":2922,"ä¿ĿæĮģ":2923,"æĿ¡ä»¶":2924,"æ°´åŁŁ":2925,"ç»ª":2926,"æľĪ16æĹ¥":2927,"è§ĦåĪĴ":2928,"æĹ¥åĨĽ":2929,"å¤§çº¦":2930,"æŁ¯":2931,"%.":2932,"æ²³åįĹ":2933,"åıĤèµĽ":2934,"ä¿¡æģ¯":2935,"Ġå¹´":2936,"éģŃåĪ°":2937,"å¹³åı°":2938,"æľĪ17æĹ¥":2939,"å±ħä½ı":2940,"å¤ıä»¤":2941,"çļĦä¸»è¦ģ":2942,"æĺ¯ä½įäºİç¾İåĽ½":2943,"çī©çĲĨ":2944,"é£ŀè¡Į":2945,"UTC":2946,"äººä»¬":2947,"åĤ¨":2948,"ç»Łè®¡":2949,"è¢Ńåĩ»":2950,"åĨħéĥ¨":2951,"çĽ¸å¯¹":2952,"å¹¿æ³Ľ":2953,"èĻ«":2954,"æķĻåłĤ":2955,"å®ĺåĳĺ":2956,"è¿ĩåİ»":2957,"2æĹ¥":2958,"è¶ĬåįĹ":2959,"ä¸ĢæŃ¥":2960,"46":2961,"èĩ³ä»Ĭ":2962,"æĭĴç»Ŀ":2963,"æĪĺå½¹":2964,"èĶ¡":2965,"æĸ¯ç§ĳ":2966,"ra":2967,"æ£Ĵ":2968,"å¤ļä¸ª":2969,"èĭ±æĸĩ":2970,"è´¸æĺĵ":2971,"åħģ":2972,"è§Ī":2973,"æłĸæģ¯":2974,"å¥¥æŀĹåĮ¹åħĭ":2975,"èĲĦ":2976,"æĺ¯æ³ķåĽ½":2977,"æ¯Ķäºļ":2978,"èĳ¡èĲĦ":2979,"å¹¸":2980,"191":2981,"æĺİæľĿ":2982,"ç³ĸ":2983,"åŃ¦ä½į":2984,"åĦ¿ç«¥":2985,"æµģè¡Į":2986,"æľĢæĹ©":2987,"åĩ½":2988,"ç§¦":2989,"æ·¡":2990,"åıĸä»£":2991,"æĹģ":2992,"æ¼«çĶ»":2993,"é¥°æ¼Ķ":2994,"éĻ¶":2995,"è¿Ŀ":2996,"ç¾İæ´²":2997,"æľĪ27æĹ¥":2998,"æľªèĥ½":2999,"æ³¢åħ°":3000,"æ±¤":3001,"ç»ıåİĨ":3002,"ç¢ĳ":3003,"åĩłä¹İ":3004,"æĮĳ":3005,"å·´é»İ":3006,"æ¦Ĥå¿µ":3007,"èĻļ":3008,"St":3009,"éŀ":3010,"å®ŀçİ°":3011,"æľĪ21æĹ¥":3012,"æĮ¯":3013,"31æĹ¥":3014,"ot":3015,"ä»¥ä¸Ĭ":3016,"ç½ĳç«Ļ":3017,"æľĢå¤§çļĦ":3018,"å¤Ħäºİ":3019,"å·¦åı³":3020,"äºĮå¹´":3021,"é¾Ħ":3022,"æľĪ2æĹ¥":3023,"æĪĸèĢħ":3024,"æľĪ22æĹ¥":3025,"è®°èĢħ":3026,"å°Ķå¾·":3027,"\")":3028,"å®ŀæĸ½":3029,"åįıåĬ©":3030,".ãĢĬ":3031,"å®¿":3032,"åĴĮå¹³":3033,"éķ¿çļĦ":3034,"åĩıå°ĳ":3035,"æĶ¹åıĺ":3036,"æľĪ23æĹ¥":3037,"èİ·å¾ĹäºĨ":3038,"è·ĳ":3039,"ä¾į":3040,"è¿Ī":3041,"æ®Ĭ":3042,"è½¦è¾Ĩ":3043,"èĳ¬":3044,"ä¼¸":3045,"æĽ¾ä»»":3046,"å±ķå¼Ģ":3047,"éķ¿æľŁ":3048,"åľ°éĵģ":3049,"çĨĻ":3050,"åĪĨç±»":3051,"çļĩå¸Ŀ":3052,"æľĪ14æĹ¥":3053,"åŀĭçļĦ":3054,"è¿Ĳè¾ĵ":3055,"è¢«è®¤ä¸º":3056,"çļĦç¬¬":3057,"æĺĨ":3058,"ç§ĳæĬĢ":3059,"æľĪ29æĹ¥":3060,"èĭ±æł¼åħ°":3061,"å½±çīĩ":3062,"op":3063,"åĩºçĶŁäºİ":3064,"ä¹ĥ":3065,"75":3066,"çº¿çļĦ":3067,"èĮ¶":3068,"çĬ¶æĢģ":3069,"åİ¿çļĦ":3070,"çļĦæĹ¶åĮºä¸º":3071,"æ¯Ķè¾ĥ":3072,"æĽ¾åľ¨":3073,"éģį":3074,"ST":3075,"æľīçļĦ":3076,"åįłé¢Ĩ":3077,"ç»ıèĲ¥":3078,"åī§æĥħ":3079,"å¹¶äºİ":3080,"æ¾³éĹ¨":3081,"æĬķç¥¨":3082,"ç»§æī¿":3083,"å®ħ":3084,"ä½ľæĪĺ":3085,"çĥ§":3086,"æ²»çĸĹ":3087,"æŃ¦åĻ¨":3088,"åĽ½çļĦ":3089,"æľĪ13æĹ¥":3090,"Th":3091,"éĻĲåĪ¶":3092,"br":3093,"32":3094,"ä¸ļåĬ¡":3095,"åŁºäºİ":3096,"èį·åħ°":3097,"çŃ¹":3098,"è§£åĨ³":3099,"çº¯":3100,"å¤©ä¸»æķĻ":3101,"çĩĥ":3102,"èĪ°éĺŁ":3103,"å¨ģå»ī":3104,"li":3105,"è½°":3106,"ä¼ļåľ¨":3107,"34":3108,"å¦®":3109,"ä¸ªæľĪ":3110,"éĶ®":3111,"å®£ä¼ł":3112,"ä½ĵçļĦ":3113,"çº¿è·¯":3114,"åĭĭ":3115,"çıį":3116,"çļĦæķ°æį®":3117,"çģ¯":3118,"åİ¦":3119,"åĩĨå¤ĩ":3120,"çļĦæĥħåĨµ":3121,"ç´¯":3122,"ub":3123,"éĽķ":3124,"å²Ń":3125,"åĿĽ":3126,"èµĦæºĲ":3127,"è¾½":3128,"éļĲ":3129,"æĬĺ":3130,"çļĦå½±åĵį":3131,"åĭĩ":3132,"è¡¡":3133,"æĸ¯çļĦ":3134,"ä½įäºİè¯¥åĽ½":3135,"SE":3136,"èĢĮåľ¨":3137,"åįģå¹´":3138,"æĸ¹æ¡Ī":3139,"èıľ":3140,"ç»Łä¸Ģ":3141,":)":3142,"åĩºäºĨ":3143,"æĿ¥æºĲ":3144,"è¯Ħä»·":3145,"çĤİ":3146,"è¯ķåĽ¾":3147,"é½¿":3148,"æ¸ħæľĿ":3149,"ĠE":3150,"åĲĦåľ°":3151,"çĶµè§Ĩåī§":3152,"å³¡":3153,"æ±½è½¦":3154,"åİŁæľ¬":3155,"II":3156,"ä¹ĭå¤ĸ":3157,"éĵģéģĵ":3158,"æ¾³å¤§":3159,"åħ´å»º":3160,"åŃŁ":3161,"åħĦå¼Ł":3162,"åıĪç§°":3163,"éĢīæīĭ":3164,"55":3165,"189":3166,"çł´åĿı":3167,"éģ£":3168,"ãĢįãĢģãĢĮ":3169,"é©¬æĿ¥è¥¿äºļ":3170,"åįıè®®":3171,"ç£ģ":3172,"æīĢåľ¨":3173,"èĲ§":3174,"éĤ®æĶ¿":3175,"çĲ³":3176,"åĽŀåĪ°":3177,"39":3178,"è½´":3179,"æķ¬":3180,"éļıèĳĹ":3181,"åĶ±çīĩ":3182,"è¿Ľä¸ĢæŃ¥":3183,"å£ģ":3184,"åĪĿæľŁ":3185,"è¿Ĳè¡Į":3186,"é¥®":3187,"æĽ¹":3188,"å¤§æ¥¼":3189,"è¦":3190,"æĶ¹ç¼ĸ":3191,"çĬ¹å¤ª":3192,"æħĪ":3193,"ç®Ń":3194,"ĠW":3195,"å¤§å¤ļæķ°":3196,"è¿ĽæĶ»":3197,"åŁºåľ°":3198,"èĩªåĬ¨":3199,"å¹»":3200,"è¡Ķ":3201,"æķĻä¼ļ":3202,"å¨±ä¹Ĳ":3203,"ä¸Ńæĸĩ":3204,"2004å¹´":3205,"ç²¾ç¥ŀ":3206,"æķı":3207,"å°ıåŃ¦":3208,"åħŃå¹´":3209,"ä¸ºæ¯ı":3210,"èµł":3211,"ç»´æĮģ":3212,"éĴĪå¯¹":3213,"è¿ĺæĺ¯":3214,"è§Ĥä¼Ĺ":3215,"æ¢°":3216,"åŁºéĩĳ":3217,"è´¤":3218,"æ²Ī":3219,"åıĽ":3220,"éĿ¢çļĦ":3221,"åŁİéķĩ":3222,"è¿Ľè¡ĮäºĨ":3223,"æľºè½¦":3224,"ç»ĦåĲĪ":3225,"ä»Ķ":3226,"2000å¹´":3227,"æĢ»éĿ¢ç§¯":3228,"çļĦåīį":3229,"è¿ĲèĲ¥":3230,"ä¸»è§Ĵ":3231,"è´¾":3232,"äººåı£æķ°éĩı":3233,"è¾Ĳ":3234,"éĶĭ":3235,"ç¯®":3236,"ä¸ĩäºº":3237,"å·ŀçļĦ":3238,"çľģçº§":3239,"å§Ĳ":3240,"æŃ£åľ¨":3241,"åĬłä¸Ĭ":3242,"oc":3243,"æĬ¥éģĵ":3244,"çī¹å¾ģ":3245,"çº¹":3246,"å¤ªå¹³æ´ĭ":3247,"éĥ¨ä»½":3248,"èĹ¤":3249,"çģ°":3250,"äº¤æĺĵ":3251,"éĽĨä¸Ń":3252,"ä¸įå°ĳ":3253,"ç©ºåĨĽ":3254,"ç»¼åĲĪ":3255,"ä¸Ģä½į":3256,"åĨ¯":3257,"è´Łè´£ç®¡è¾ĸ":3258,"åıĮæĸ¹":3259,"éĤĵ":3260,"éĻķ":3261,"æ¯ıä¸ª":3262,"æ¾³å¤§åĪ©äºļ":3263,"ĠæĶ¿æ²»":3264,"éĻĨåľ°":3265,"èµ´":3266,"åľ¨ç¾İåĽ½":3267,"ç¡®å®ļ":3268,"çŃĶ":3269,"æĺ¯åĲ¦":3270,"è§£éĩĬ":3271,"ĠçĶ±äºİ":3272,"ç¾İåĽ½äººåı£æĻ®æŁ¥":3273,"è¯ģæĺİ":3274,"æĺ¯ä¸ŃåĽ½":3275,"åĽ¾ä¹¦":3276,"å¤§åŀĭ":3277,"ä»·åĢ¼":3278,"47":3279,"è¿ĶåĽŀ":3280,"èĳ£äºĭ":3281,"æīĢå±ŀçļĦ":3282,"è¦Ĩ":3283,"åĲįåįķ":3284,"åİļ":3285,"æĦŁæŁĵ":3286,"åĪĢ":3287,"ç¨ĭåº¦":3288,"éĩįè¦ģçļĦ":3289,"äºĳåįĹ":3290,"ä»°":3291,"ä»İäºĭ":3292,"2025å¹´":3293,",ãĢĮ":3294,"ap":3295,"çľģçļĦä¸Ģä¸ªå¸Ĥéķĩ":3296,"æ³³":3297,"è°±":3298,"æ¹ĸåįĹ":3299,"åĽ½ä¼ļ":3300,"æ³ķåħ°":3301,"æľīæĹ¶":3302,"çļĩå®¶":3303,"æ²³æµģ":3304,"çĥŁ":3305,"åĢį":3306,"äºİ198":3307,"å°ıç»Ħ":3308,"å®ĥçļĦ":3309,"çİĭæľĿ":3310,"ĠN":3311,"ä¸»æ¼Ķ":3312,"åħĥç´ł":3313,"å¾·éĩĮ":3314,"é©¬åħĭ":3315,"å¼ķåıĳ":3316,"å¥³åĦ¿":3317,"åĩŃ":3318,"ä¿ĿçķĻ":3319,"çºµ":3320,"æľºä¼ļ":3321,"ä¸´æĹ¶":3322,"æĢ»çĲĨ":3323,"æĹħæ¸¸":3324,"éķĩåĮº":3325,"æľĭ":3326,"é¦ĸéĥ½":3327,"å¸¸è§ģ":3328,"è¶ħçº§":3329,"é¬":3330,"è´¢æĶ¿":3331,"èĴĭ":3332,"çĶŁäºİ":3333,"æ²Ł":3334,"ãĢĬãĢĭ":3335,"åħ¬åħĥ":3336,"åĩºèº«":3337,"çķª":3338,"å¤§èĩ£":3339,"åĬłåĿ¡":3340,"å¤©æĸĩ":3341,"æī¹åĩĨ":3342,"é«ĺçº§":3343,"åĨ²çªģ":3344,"åĽ½éĺ²":3345,"ç½ķ":3346,"ç±³å°Ķ":3347,"è®¨è®º":3348,"å°ĸ":3349,"åĬĽéĩı":3350,"20ä¸ĸçºª":3351,"ä¸įåĨį":3352,"å¦»åŃĲ":3353,"åĲĮæĦı":3354,"ä½ĽæķĻ":3355,"çĳŀå£«":3356,"åĽ½æ°ĳåħļ":3357,"ä¸»é¢ĺ":3358,"åĽ½åĨħ":3359,"çłĶç©¶æīĢ":3360,"åı¥":3361,"äºĨä¸Ģä¸ª":3362,"éĿĸ":3363,"æľºåħ³":3364,"è¶£":3365,"åį¡å°Ķ":3366,"é©¾":3367,"æľīæķĪ":3368,"ä¸įæĸŃ":3369,"æ¡ĥ":3370,"è®®éĻ¢":3371,"ç»ĵåĲĪ":3372,"çļĦä¸Ģç§į":3373,"65":3374,"åĩ¡":3375,"äº§ä¸ļ":3376,"å¥½çļĦ":3377,"å·ŀå¸Ĥ":3378,"åĬĽçļĦ":3379,"edĠ":3380,"æľīäºĽ":3381,"è¾ī":3382,"äºĮä¸ĸ":3383,"ãĢģãĢģ":3384,"è·³":3385,"æĸĩçī©ä¿ĿæĬ¤":3386,"æŁ´":3387,"è¿ħ":3388,"æĸ°åĬłåĿ¡":3389,"Ġ197":3390,"åİ¿çļĦä¸Ģä¸ª":3391,"æŃ¦è£ħ":3392,"æĹº":3393,"åĽ½ç«ĭ":3394,"æĺ¯æĮĩ":3395,"æĻ®éĢļ":3396,"ä¸Ĭæĺł":3397,"å¹´è½»":3398,"ç¼ĵ":3399,"çĨŁ":3400,"å¤§ä½¿":3401,"Ġ195":3402,"ç§ĺä¹¦":3403,"å»ºæĪĲ":3404,"åŁĶ":3405,"64":3406,"æ°ĶåĢĻ":3407,"æİª":3408,"éĢīåĮº":3409,"è§£æĶ¾åĨĽ":3410,"æĸ¯åŁº":3411,"ç¥¥":3412,"ä¸įåı¯":3413,"éģĤ":3414,"æĺŁæľŁ":3415,"300":3416,"æ§":3417,"æĶ¶åħ¥":3418,"åıĸæ¶Ī":3419,"ç¼ĸåı·":3420,"æ½ĺ":3421,"äººæķ°":3422,"ä¸ĸçķĮå¤§æĪĺ":3423,"æĸĩä»¶":3424,"åı¯è¾¾":3425,"å¨ģå°Ķ":3426,"æĬķåħ¥":3427,"å¿«éĢŁ":3428,"æī¿è®¤":3429,"äººåľ¨":3430,"è¥¿æ´ĭ":3431,"ä¸ŃåĽ½äººæ°ĳ":3432,"è¥¿çľģ":3433,"èĳĹåĲį":3434,"ä¸ŃåĽ½åħ±äº§åħļ":3435,"èŃ¦æĸ¹":3436,"å·´è¥¿":3437,"éĿŀæ´²":3438,"å°ĳå¹´":3439,"æĢ»éĥ¨":3440,"ç»´äºļ":3441,"æł¸å¿ĥ":3442,"(\"":3443,"èĩ³å°ĳ":3444,"é¹¿":3445,"å¿Ĩ":3446,"ä¸Ģä¸ĸ":3447,"éļıçĿĢ":3448,"æĸĩçī©ä¿ĿæĬ¤åįķä½į":3449,"è©":3450,"ä½¿çĶ¨çļĦ":3451,"ä»ĵ":3452,"æĿ¡çº¦":3453,"31":3454,"ä»¥èī²":3455,"åĭ¤":3456,"é£İæļ´":3457,"åĽ½åĬ¡":3458,"ä¹ı":3459,"ç¬¬ä¸Ģä¸ª":3460,"èĭĹ":3461,"èĥľåĪ©":3462,"æĸ¯åħĭ":3463,"å¥¥æĸ¯":3464,"å¦Ĥä¸ĭ":3465,"èĳĹä½ľ":3466,"åŃĿ":3467,"åİĦ":3468,"ç¼ħ":3469,"ä¸ĥå¹´":3470,"åĪĽç«ĭ":3471,"ä»¥èī²åĪĹ":3472,"ĠtheĠ":3473,"æ³Ĭ":3474,"åĮĸçļĦ":3475,"éĩįå»º":3476,"ä»¥åĲİ":3477,"49":3478,"esĠ":3479,"è©¹":3480,"ç§Ĵ":3481,"å¥¥æŀĹåĮ¹åħĭè¿ĲåĬ¨ä¼ļ":3482,"è®¿éĹ®":3483,"æĹ¶ä»»":3484,"åĽ¢éĺŁ":3485,"æľªæĿ¥":3486,"ç¬¬åħŃ":3487,"è´¯":3488,"çĮİ":3489,"ov":3490,"çĹħæ¯Ĵ":3491,"and":3492,"åħ¬æ°ĳ":3493,"æ°ĳä¼Ĺ":3494,"çļĦçłĶç©¶":3495,"çļĦå¸Ĥéķĩ":3496,"åįĬå²Ľ":3497,"éĥ½ä¼ļ":3498,"æ±Łèĭı":3499,"og":3500,"èİ²":3501,"æĶ¶å½ķ":3502,"æħķ":3503,"åħģè®¸":3504,"Ġ1":3505,"æĴĴ":3506,"å®ªæ³ķ":3507,"è¯´æ³ķ":3508,"çŀ":3509,"æµĭè¯ķ":3510,"èĳĽ":3511,"è°ĥæķ´":3512,"æĻ¨":3513,"å§Ķä¼ļ":3514,"ut":3515,"ä¼ı":3516,"ç¨ĭåºı":3517,"çĵľ":3518,"andĠ":3519,"å°ĶçļĦ":3520,"æĭīåħĭ":3521,"ä¹ĲåĽ¢":3522,"åĢ¾":3523,"2003å¹´":3524,"æµ·å²¸":3525,"çİĭåĽ½":3526,"èĽĭçĻ½":3527,"ç»ĵå©ļ":3528,"éļ¶å±ŀäºİ":3529,"æĻ¶":3530,"çĶµèĦĳ":3531,"åģľæŃ¢":3532,"åħ¬åĪĨ":3533,"ä½įäºİæ³ķåĽ½":3534,"æ¢¯":3535,"çĶ¨æĿ¥":3536,"é«ĺçŃī":3537,"åį¢çĵ¦":3538,"æ¨¡åŀĭ":3539,"åĵĪå°Ķ":3540,"æħ¢":3541,"Ġ196":3542,"amp":3543,"éĺ¿æĭīä¼¯":3544,"åľ¨è¿Ļ":3545,"éĥ½æľī":3546,"èī²çļĦ":3547,"èĥģ":3548,"æİ¥è¿ĳ":3549,"èĢĥèĻĳ":3550,"è¡ĮæĶ¿åĮºåĪĴ":3551,"ä¸ĭåįĪ":3552,"å±±èĦī":3553,"çĲĥåľº":3554,"è´º":3555,"çĶ¨çļĦ":3556,"æ®ĸæ°ĳ":3557,"åĩĮ":3558,"å°±è¯»":3559,"æĢĿæĥ³":3560,"è¿ĩç¨ĭä¸Ń":3561,"çĶµåı°":3562,"å°¤åħ¶":3563,"èĹ©":3564,"æĪĺåĲİ":3565,"åĳ¨è¾¹":3566,"Ġ2":3567,"æĸ°å¢ŀ":3568,"éĤĢè¯·":3569,"æµ®":3570,"åĮ»çĸĹ":3571,"åľ°ä½į":3572,"çĽ´èĩ³":3573,"åħ³æ³¨":3574,"ç´«":3575,"çİ°æĹ¶":3576,"ak":3577,"2002å¹´":3578,"ç¡ķ":3579,"é¬¼":3580,"çĶ³è¯·":3581,"å¹´åº¦":3582,"ä¸Ģå¸¦":3583,"æĥĬ":3584,"èħ¹":3585,"ä¸įæĺİ":3586,"ä¼¯çī¹":3587,"è§Ĥå¯Ł":3588,"åĿİ":3589,"éĩįçĤ¹":3590,"èµ·æĿ¥":3591,"ç¥ĸçĪ¶":3592,"æĶ¿åħļ":3593,"åĨįåº¦":3594,"åįģåĪĨ":3595,"Ġ2021å¹´":3596,"Ch":3597,"çĽ¸ä¼¼":3598,"è¯¾ç¨ĭ":3599,"44":3600,"ĠK":3601,"å¡ĳ":3602,"åŃ©åŃĲ":3603,"èĬĿ":3604,"188":3605,"ä¹Ķæ²»":3606,"åĮĪ":3607,"av":3608,"Ġ2019å¹´":3609,"æĢª":3610,"ä¿Ĭ":3611,"åĲĪçī©":3612,"è¡¨è¾¾":3613,"é«ĺä¸Ń":3614,"åħ±æľīäººåı£":3615,"Ġè½¦ç«Ļ":3616,"åħ¥ä¾µ":3617,"å£«åħµ":3618,"ä»²":3619,"å®īæİĴ":3620,"æĴ°":3621,"åĲ¨":3622,"æĿ¥è¯´":3623,"ab":3624,"èĭ¦":3625,"æ¯ķä¸ļäºİ":3626,"åĬ±":3627,"ç½ļ":3628,"çļĦå°ı":3629,"Ġ3":3630,"åĪ°è¾¾":3631,"åŃ¦æľ¯":3632,"äººæ°ĳæĶ¿åºľ":3633,"å¹¶æ²¡æľī":3634,"ay":3635,"å¥´":3636,"åĽłèĢĮ":3637,"æĶ¯æı´":3638,"ç§»åĬ¨":3639,"çļĦæĹ¶åĢĻ":3640,"æĺ¯ç¾İåĽ½":3641,"ind":3642,"æ³¥":3643,"æĴŀ":3644,"AT":3645,"éĶĢåĶ®":3646,"å±¿":3647,"åĢĻéĢī":3648,"Ġè¿Ļ":3649,"æĿī":3650,"è·¯æĺĵ":3651,"çĽĹ":3652,"å¤ĸçļĦ":3653,"çĽ®çļĦ":3654,"ç¦Ħ":3655,"æĹłçº¿":3656,"ä¸ºæ³ķåĽ½":3657,"è¯¦":3658,"ä¸§":3659,"ä¼Ĭæĸ¯åħ°":3660,"åĹ":3661,"è¥¿åĵ¥":3662,"åºĶè¯¥":3663,"çĨĬ":3664,"æĹ©å¹´":3665,"Ġè¡ĮæĶ¿":3666,"æĹ¨":3667,"æŃ¤æĹ¶":3668,"å¸Ĥéķ¿":3669,"çİ°è±¡":3670,"ç¢į":3671,"åīįçļĦ":3672,"å¦ĤæŃ¤":3673,"çī¹çļĦ":3674,"Ġ2020å¹´":3675,"éģĹåĿĢ":3676,"âĢĿãĢģ":3677,"çĹĽ":3678,"åıªæĺ¯":3679,"ä»ĸæĽ¾":3680,"å¹¶æľª":3681,"58":3682,"çĶ¨æĪ·":3683,"åıĺæĪĲ":3684,"ç²Ĵ":3685,"åľ°åĪ©":3686,"çĮª":3687,"éĩĳå±ŀ":3688,"æĹ§å¸Ĥéķĩ":3689,"ç±»åŀĭ":3690,"æĬµè¾¾":3691,"å¸ĤåĮº":3692,"ä»İèĢĮ":3693,"æĿĲæĸĻ":3694,"éī":3695,"çļĦé¦ĸ":3696,"å¹´éĹ´":3697,"æĺİæĺ¾":3698,"ä¹³":3699,"æĢ»çĿ£":3700,"æĪĸæĺ¯":3701,"èĩªæ²»åĮº":3702,"è´¨éĩı":3703,"Ġ2018å¹´":3704,"éĺħ":3705,"æıĲåįĩ":3706,"é«ĺçļĦ":3707,"å°¼æĸ¯":3708,"çĦ¦":3709,"æŀĦæĪĲ":3710,"å°ĳæķ°":3711,"åįģåħ«":3712,"èģĮåĬ¡":3713,"åºĬ":3714,"è·ĥ":3715,"çĩķ":3716,"å®īè£ħ":3717,"äºİ197":3718,"æŁ³":3719,"åį«æĺŁ":3720,"ç¬¬ä¸ĥ":3721,"å½Ń":3722,"ä¿¡åı·":3723,"æ±¡":3724,"äººåı£å¯Ĩåº¦ä¸ºæ¯ı":3725,"éĢĿä¸ĸ":3726,"68":3727,"å·¥åİĤ":3728,"æĸ¹çļĦ":3729,"åı¯èĥ½æĺ¯":3730,"æŁĲäºĽ":3731,"åĪĹä¸º":3732,"æ¯ĶåĪ©":3733,"ãĢģ(":3734,"å±ı":3735,"çī©è´¨":3736,"æ¡Ĥ":3737,"éĦ":3738,"èĪĴ":3739,"ä½ĵç³»":3740,"æģĴæĺŁ":3741,"ç¨³å®ļ":3742,"æĬļ":3743,"åĴ¸":3744,"å¯¹æīĭ":3745,"Ġ193":3746,"èĢĮæĺ¯":3747,"é¡µ":3748,"å¡ĺ":3749,"å¤±åİ»":3750,":.":3751,"ä»ªå¼ı":3752,"åĿĬ":3753,"å¥¥åľ°åĪ©":3754,"éī´":3755,"SEE":3756,"åĩ½æķ°":3757,"åĩºåı£":3758,"çĶ¸":3759,"åĪĽåĬŀ":3760,"ç§ĳçļĦ":3761,"æİī":3762,"éĶģ":3763,"å¢¨è¥¿åĵ¥":3764,"äººåı£æķ°éĩıä¸ºäºº":3765,"ä¸ľè¥¿":3766,"å»ºåĪ¶":3767,"åĲĥ":3768,"æľĭåıĭ":3769,"çĶŁéķ¿":3770,"è°ĵ":3771,"æĲľ":3772,"åĲĮä¸Ģ":3773,"ä¸įè¶³":3774,"æĵįä½ľ":3775,"æİ¥å£¤çļĦå¸Ĥéķĩ":3776,"è¯ļ":3777,"æĸĩç«ł":3778,"æĸĳ":3779,"INSEE":3780,"äºĭä¸ļ":3781,"æĦıè¯Ĩ":3782,"æĻ®éģį":3783,"æ¯ıå¹³æĸ¹åħ¬éĩĮ":3784,"åľ¨199":3785,"ä¸įå¾Ĺ":3786,"æ°§åĮĸ":3787,"çº¬":3788,"çĺ":3789,"ç§»æ°ĳ":3790,"Ġc":3791,"ç¿»è¯ĳ":3792,"ä¸Ģåº¦":3793,"æĹłäºº":3794,"å¨ģèĥģ":3795,"åĬ¨åĬĽ":3796,"åıªèĥ½":3797,"èĤĥ":3798,"å§ĭå»º":3799,"å°ļæľª":3800,"éĤ®æĶ¿ç¼ĸçłģä¸º":3801,"åĬŀåħ¬å®¤":3802,"æł¡éķ¿":3803,"å°Ķçī¹":3804,"ä¸ĢåĲĮ":3805,"çİ°åľº":3806,"å¹¿åĳĬ":3807,"èº«ä½ĵ":3808,"åħ¥åı£":3809,"(;":3810,"æ¡Īä»¶":3811,"è¯ŀ":3812,"åŀĴ":3813,"æĹ¢":3814,"æĮĤ":3815,"æľºæ¢°":3816,"Ġ2017å¹´":3817,"èĥ¶":3818,"åĮĹç¾İ":3819,"éļ§":3820,"å¹³éĿ¢":3821,"ä¸¤ç§į":3822,"çĬ¶åĨµ":3823,"æ¶Īæģ¯":3824,"ä¹Łåľ¨":3825,"éģĹäº§":3826,"åı¬å¼Ģ":3827,"è§ĤçĤ¹":3828,"å¾Ĺä»¥":3829,"éĺŁçļĦ":3830,"å¤ĦçļĦ":3831,"äº¤æµģ":3832,"å¾ª":3833,"è¡¨æĺİ":3834,"æĦıä¹ī":3835,"æĿĥåĬĽ":3836,"æ°ĳä¸»åħļ":3837,"èĩªè¡Į":3838,"æĽ´åĲįä¸º":3839,"ä¸ºä¸Ģ":3840,"åįĹåĮĹ":3841,"å¼ĺ":3842,"çľĭåĪ°":3843,"åİ¿äºº":3844,"åĭĥ":3845,"çŁ¥éģĵ":3846,"æĮĳæĪĺ":3847,"æķ°åŃĹ":3848,"èģĶç³»":3849,"èģĶåĲĪåĽ½":3850,"çķĶ":3851,"åĽ¾ä¹¦é¦Ĩ":3852,"æħ§":3853,"ç¦ģæŃ¢":3854,"æıĲé«ĺ":3855,"åħ¥éĢī":3856,"å§Ĩæĸ¯":3857,"ä»ĸæĺ¯":3858,"åĵģçīĮ":3859,"æłĩå¿Ĺ":3860,"åģ¥åº·":3861,"æĭĵ":3862,"å²³":3863,"åĪĽéĢł":3864,"æ¬§åħĥ":3865,"ĠO":3866,"å±¯":3867,"èĳ¡èĲĦçīĻ":3868,"ç¥Ŀ":3869,"42":3870,"Ġ2016å¹´":3871,"ev":3872,"ä¼ļçļĦ":3873,"è¢ĸ":3874,"å¸ĥæĭī":3875,"åıĳçĶµ":3876,"ãĢĭ()":3877,"æķĪåĬĽ":3878,"å¤ıä»¤æĹ¶":3879,"åľŁèĢ³":3880,"ä¹¾":3881,"çº·":3882,"éĩĮçļĦ":3883,"å¤§éģĵ":3884,"æ£®æŀĹ":3885,"æľīäºº":3886,"æĪĴ":3887,"ä¹Ŀå¹´":3888,"åıĳèµ·":3889,"äººåı£å¯Ĩåº¦æ¯ıå¹³æĸ¹åħ¬éĩĮ":3890,"åŃĹæ¯į":3891,"æįĲ":3892,"åľŁèĢ³åħ¶":3893,"æ°¢":3894,"ç®±":3895,"æ°´å¹³":3896,"å¤±è´¥":3897,"åŃĲçļĦ":3898,"å¸Ĥéķĩç¼ĸçłģä¸º":3899,"INSEEå¸Ĥéķĩç¼ĸçłģä¸º":3900,"å½ĵæĹ¶çļĦ":3901,"ãĢİ":3902,"ud":3903,"å¹³æĸ¹ç±³":3904,"åİĨåı²ä¸Ĭ":3905,"ãĢı":3906,"å¹¶éĿŀ":3907,"åħ½":3908,"çĳŀåħ¸":3909,"åįĳ":3910,"äºİæĹ¶çļĦ":3911,"åĮ»åŃ¦":3912,"äºİæĹ¶çļĦäººåı£æķ°éĩıä¸ºäºº":3913,"æ£ĭ":3914,"éĢīåĮºä¸º":3915,"ç¾İåĽ½äººåı£æĻ®æŁ¥çļĦæķ°æį®":3916,"äººåı£å¯Ĩåº¦ä¸ºæ¯ıå¹³æĸ¹åįĥç±³":3917,"æĻĵ":3918,"èĢĮäººåı£å¯Ĩåº¦ä¸ºæ¯ıå¹³æĸ¹åįĥç±³":3919,"å½ĵåľ°åħ±æľīäººåı£":3920,"æ²³åĮĹ":3921,"åľ³":3922,"ĠJ":3923,"åį¿":3924,"æµħ":3925,"çī¹æ®Ĭ":3926,"è¯¥çľģä»½":3927,"æĪĸæĹ§å¸Ĥéķĩ":3928,"å»¶ä¼¸":3929,"å¼ºè°ĥ":3930,"éħĴåºĹ":3931,"çļĦæĸ¹å¼ı":3932,"çľģçº§éĢīåĮºä¸º":3933,"æīĢå±ŀçļĦçľģçº§éĢīåĮºä¸º":3934,"å¸ĥé²ģ":3935,"åį«çĶŁ":3936,"æľ¬åľŁ":3937,"Ġ2022å¹´":3938,"est":3939,"ç¼ĸè¾ĳ":3940,"æĺ¯ä¸ĢåĲį":3941,"çļĦåİŁ":3942,"è¯¥çľģä»½ä¸ºæ³ķåĽ½":3943,"èĢĮè¯¥åľ°":3944,"åĲİèĢħ":3945,"å¥ĸé¡¹":3946,"ä¸Ńå±±":3947,"187":3948,"æķĻåĮº":3949,"åĳ½ä»¤":3950,"éľĢæ±Ĥ":3951,"äººå¤§":3952,"éģ¿åħį":3953,"æĬ¥å¯¼":3954,"åıĹä¼¤":3955,"èĲ¥è¿Ĳ":3956,"ä¼°è®¡":3957,"è½°çĤ¸":3958,"ç¼ºä¹ı":3959,"è¿ħéĢŁ":3960,"æĹ¦":3961,"æıĲåĲį":3962,"åħ¶ä½Ļ":3963,"æµ·åŁŁ":3964,"ç¬¬1":3965,"äºİ194":3966,"æī°":3967,"åĽĽä¸ª":3968,"èĳĹåĲįçļĦ":3969,"æĲ¬":3970,"æ³¨æĦı":3971,"æ¬¢è¿İ":3972,"çĶŁåĳ½":3973,"å¸ĤçļĦ":3974,"å¿ĥçĲĨ":3975,"éļ§éģĵ":3976,"æĶ¿æĿĥ":3977,"éĥĬ":3978,"åī©":3979,"è¾¾æĪĲ":3980,"åĲ¸å¼ķ":3981,"çĹĩçĬ¶":3982,"å®īå¾·":3983,"æıĴ":3984,"é²į":3985,"åĸĢ":3986,"éĩĳçīĮ":3987,"è§ĦåĪĻ":3988,"ä»ĭç»į":3989,"ä¹ĺå®¢":3990,"å¤§è¥¿æ´ĭ":3991,"æĸ¯å¡Ķ":3992,"å¤ĸåĽ½":3993,"éĩĳèŀį":3994,"æķĻç»ĥ":3995,"eg":3996,"æĿĨ":3997,"æĴ¤éĶĢ":3998,"çİ»":3999,"ä¾¦":4000,"éľ¸":4001,"ä¸²":4002,"çļĦç¬¬ä¸Ģ":4003,"äººåĴĮ":4004,"åı¯èĥ½ä¼ļ":4005,"è´ŀ":4006,"éĥ¨èĲ½":4007,"å´İ":4008,"SA":4009,"ä¸»å¼ł":4010,"æĪĲä¸ºäºĨ":4011,"æķ°åŃ¦":4012,"å¹¶å°Ĩ":4013,"Ġ2014å¹´":4014,"èĢĮè¢«":4015,"éĵ¾":4016,"ia":4017,"67":4018,"tion":4019,"æĦŁåĪ°":4020,"åħ¬ä¼Ĺ":4021,"æ¬²":4022,"å½¼å¾Ĺ":4023,"400":4024,"èĥİ":4025,"ers":4026,"ä¹Łè¢«":4027,"äºĭå®ŀ":4028,"å°Ķåħ°":4029,"æķĻå¸Ī":4030,"ä»¿":4031,"éĩĩåıĸ":4032,"ä½ĵéķ¿":4033,"åħ¨éķ¿":4034,"99":4035,"æµĵ":4036,"Ġ2015å¹´":4037,"æİ¨åĬ¨":4038,"è¹":4039,"ä¹ĭä¸ĭ":4040,"ä¼łè¯´":4041,"èµĦè®¯":4042,"è´Ńä¹°":4043,"åħ¶å®ĥ":4044,"ä¿¡ä»°":4045,"150":4046,"æī§å¯¼":4047,"æŀ¢":4048,"çĲĨäºĭ":4049,"é¼ł":4050,"ä¸Ńåħ±ä¸Ńå¤®":4051,"æľ¬èº«":4052,"çļĦä¸Ģåº§":4053,"è¯¢":4054,"TheĠ":4055,"ä¼Ļ":4056,"ç¥ŀç»ı":4057,"å½»":4058,"èĽĩ":4059,"åįĵ":4060,"æĸ¯èĴĤ":4061,"æĶ¾å¼ĥ":4062,"åıĪåĲį":4063,"æķĻåŃ¦":4064,"æľĢåĲİä¸Ģ":4065,"\",":4066,"æĴŃæĶ¾":4067,"éĩįåºĨ":4068,"äº¦æľī":4069,"åįģåŃĹ":4070,"âĢĿãĢģâĢľ":4071,"æ³ķæ¡Ī":4072,"æĽ´å¤ļ":4073,"ç¨ĭå¼ı":4074,"åıĤèĢĥ":4075,"Ġ2013å¹´":4076,"è¥¿æĸ¹":4077,"è´¡çĮ®":4078,"Ġs":4079,"æĭ³":4080,"ç½ĳè·¯":4081,"åįĹæŀģ":4082,"186":4083,"æīĵåĩ»":4084,"åľ°çļĦ":4085,"åĩºæĪĺ":4086,"äºİ196":4087,"å£®":4088,"èĭ±éĽĦ":4089,"å®¹æĺĵ":4090,"ell":4091,"ul":4092,"ç¬ĳ":4093,"åİĺ":4094,"åĨĽçļĦ":4095,"æ³°åĽ½":4096,"ç§¯æŀģ":4097,"æĵİ":4098,"å½ĵå±Ģ":4099,"æĺ¯ä¸Ģä½į":4100,"æĬĹè®®":4101,"åĸľæ¬¢":4102,"åĽ½åĬ¡éĻ¢":4103,"æıŃ":4104,"æĺ¯æĹ¥æľ¬":4105,"åī²":4106,"çİ°ä»»":4107,"äºĭæķħ":4108,"ä¹Ŀé¾Ļ":4109,"å¤ºå¾Ĺ":4110,"ĠæŃ¤":4111,"çīł":4112,"åħ¨éĿ¢":4113,"äºİ195":4114,"è¯ģæį®":4115,"åĲ¯çĶ¨":4116,"æĢ§è´¨":4117,"æİ¥è§¦":4118,"äºŃ":4119,"éĺŁä¼į":4120,"æ´Ĺ":4121,"åįľ":4122,"è£ħçĶ²":4123,"æī®":4124,"ä¹Łä¼ļ":4125,"å°Ŀ":4126,"ç»ĵæĿŁåĲİ":4127,"åįģä¸Ģ":4128,"èµĲ":4129,"çŁ¥è¯Ĩ":4130,"å±Ĭåħ¨åĽ½":4131,"çļĦéĩįè¦ģ":4132,"èĤº":4133,"åĲİæľŁ":4134,"å¼ºçĥĪ":4135,"æ¹ĸåĮĹ":4136,"å¤ļç§į":4137,"çªĹ":4138,"èĬ³":4139,"æ¶īåıĬ":4140,"åľ¨åħ¶":4141,"æĮª":4142,"å®īå¾½":4143,"å¦Ĥä½ķ":4144,"å±ķç¤º":4145,");":4146,"èĢĮæĪĲ":4147,"çĸı":4148,"Ġ4":4149,"å¤įæĿĤ":4150,"åŃ¦ä¼ļ":4151,"æ¼ĶåĶ±ä¼ļ":4152,"Ġd":4153,"ä¸ĸçķĮæĿ¯":4154,"çł²":4155,"ä¸ĩåħĥ":4156,"çŁ¥åİ¿":4157,"å®Įæķ´":4158,"çļĦæµ·":4159,"èı²å¾ĭ":4160,"åĴĮåħ¶ä»ĸ":4161,"éĩĮäºļ":4162,"èı²å¾ĭå®¾":4163,"æĿŃ":4164,"çĻ½èī²":4165,"ç¬¬2":4166,"ç»´å¥ĩ":4167,"ç¾½æ¯Ľ":4168,"çİĦ":4169,"ä¸ĩç¾İåħĥ":4170,"åħ¬ä¸»":4171,"çĪ±å°Ķåħ°":4172,"åĩºçİ°åľ¨":4173,"è´«":4174,"èį¯çī©":4175,"æĬ¢":4176,"éĩĮæĸ¯":4177,"ç¾İæľ¯":4178,"åħīç»ª":4179,"78":4180,"59":4181,"æĸĩçĮ®":4182,"æĿĳåºĦ":4183,"æĦıè§ģ":4184,"çļĦåľ°æĸ¹":4185,"è±Ĩ":4186,"éĢĴ":4187,"éĵº":4188,"æ°ĳéĹ´":4189,"ä»Ģä¹Ī":4190,"2äºº":4191,"æ¸Ķ":4192,"å¼ķæĵİ":4193,"éĢĨ":4194,"åĨħéĺģ":4195,"åŁĥåıĬ":4196,"å¸Ĥæ°ĳ":4197,"å£³":4198,"æĿĥåĪ©":4199,"åĪĽå»º":4200,"æĹħå®¢":4201,"å«Į":4202,"è¿Ļæ¬¡":4203,"åĢĻéĢīäºº":4204,"è´´":4205,"é«ĺéĽĦ":4206,"56":4207,"ob":4208,"æ¹¿":4209,"3äºº":4210,"æĬ½":4211,"çĬ¬":4212,"å®¢è¿Ĳ":4213,"çĪ¶æ¯į":4214,"é¢ĨåľŁ":4215,"èĲ¨åħĭ":4216,"ç®Ģåįķ":4217,"å¾ĭå¸Ī":4218,"æº¶":4219,"çº¢èī²":4220,"æĿ°åħĭ":4221,"äººå·¥":4222,"å°ıçļĦ":4223,"æİĪäºĪ":4224,"æİªæĸ½":4225,"æĭīä¸ģ":4226,"Ġ2023å¹´":4227,"éĽĩ":4228,"è¡¨éĿ¢":4229,"å®ļä¸º":4230,"çĮ«":4231,"Ġå¤§":4232,"éĻ¢éķ¿":4233,"ç®Ģä»ĭ":4234,"å¦ĥ":4235,"ä¹¾éļĨ":4236,"An":4237,"èŀº":4238,"èĤ¡ä»½":4239,"NA":4240,"æķĪæŀľ":4241,"çŃ¾ç½²":4242,"åĩºéģĵ":4243,"èģĺ":4244,"è±¡å¾ģ":4245,"å¯Ħ":4246,"ç²®":4247,"åıĳåĶ®":4248,"èį£èªī":4249,"æĦıä¸º":4250,"æĭīå¤«":4251,"å°ī":4252,"1äºº":4253,"ĠV":4254,"éĻįä½İ":4255,"å£°ç§°":4256,"æĿ¥åĪ°":4257,"é£ĵ":4258,"æ·±åľ³":4259,"æĤ¬":4260,"å½¢è±¡":4261,"åľ°éľĩ":4262,"åħĭç½Ĺ":4263,"ep":4264,"äºļåİĨ":4265,"ç¡®è®¤":4266,"ç¡®è¯Ĭ":4267,"åĽłç´ł":4268,"ä¸ľåĮĹéĥ¨":4269,"å·§":4270,"Ġ6":4271,"ç¢³":4272,"æĮīçħ§":4273,"çĬ¯ç½ª":4274,"é£ĵé£İ":4275,"çĽ¾":4276,"12å¹´":4277,"çĪĨçĤ¸":4278,"åıĶ":4279,"è¿Ł":4280,"éķ¿åº¦":4281,"ä¹Łåı¯ä»¥":4282,"åĮ»çĶŁ":4283,"é¢Ĩè¢ĸ":4284,"ç«ŀäºī":4285,"åľ°çĤ¹":4286,"è¢ģ":4287,"ä½ľèĢħ":4288,"TV":4289,"çħ¤":4290,"tw":4291,"ok":4292,"å°Ĩä¼ļ":4293,"ang":4294,"ä¼łæĴŃ":4295,"å·®å¼Ĥ":4296,"è¢«è®¤ä¸ºæĺ¯":4297,"åıĳåĩº":4298,"ç¨¿":4299,"å®ı":4300,"æ´ģ":4301,"æĽ´åĬł":4302,"ä¸ĵéĹ¨":4303,"ä¸Ī":4304,"æĸľ":4305,"æĸĩåŃĹ":4306,"ä¼ĬæľĹ":4307,"åıĻåĪ©äºļ":4308,"ä¸įæ»¡":4309,"å®ŀéĻħä¸Ĭ":4310,"çļĦé«ĺ":4311,"ä¸ĵå®¶":4312,"ç¾Ĭ":4313,"åİĭåĬĽ":4314,"åı¤ä»£":4315,"ä¸¾è¡ĮçļĦ":4316,"æ°Ķè±¡":4317,"88":4318,"ä¸Ļ":4319,"å¯¹æŃ¤":4320,"å·¥åħ·":4321,"ä¹¡è¯ķ":4322,"èµĦéĩĳ":4323,"Â°":4324,"Ġb":4325,"åı°åįĹ":4326,"åŁºçĿ£æķĻ":4327,"æĪıåī§":4328,"çīµ":4329,"æ¯ĶèµĽä¸Ń":4330,"èĨľ":4331,"èµ·æºĲ":4332,"èħ¾":4333,"57":4334,"=\"":4335,"æĬ¼":4336,"å°¸":4337,"å°ļä¹¦":4338,"æ²³çķĶ":4339,"æįŁå¤±":4340,":\"":4341,"ï½":4342,"åĨĴ":4343,"é«ĺäºİ":4344,"å¤ļå¹´":4345,"å¡«":4346,"ç»ĻäºĪ":4347,"æľīä¸Ģä¸ª":4348,"è¾¹çķĮ":4349,"é³įé±¼":4350,"ä¸ľæĸ¹":4351,"å¸ĪèĮĥ":4352,"çĸ¾çĹħ":4353,"è¾©":4354,"åĿ¦åħĭ":4355,"çĽ¸æ¯Ķ":4356,"ç»ıéªĮ":4357,"è¡į":4358,"æĺ¯ä»¥":4359,"çĹħä¾ĭ":4360,"å¥ĳ":4361,"çĲĥä¼ļ":4362,"è£ķ":4363,"éĴ¦":4364,"æľīæīĢ":4365,"åľ¨æĹ¥æľ¬":4366,"ä½ľæĽ²":4367,"ä¸¾äºº":4368,"äº¨åĪ©":4369,"isĠ":4370,"ä»ĳ":4371,"ä¸Ģå®ļ":4372,"è¡°":4373,"å§»":4374,"æłĩä¸º":4375,"1998å¹´":4376,"åĩºå¸Ń":4377,"æ°Ł":4378,"ç½¢":4379,"åĪĹè¡¨":4380,"ĠSt":4381,"è¸ª":4382,"éĢĢå½¹":4383,"éĿ¢å¯¹":4384,"å·¡åĽŀ":4385,"ä¸įä»ħ":4386,"å½ĵå¹´":4387,"çļĦä¸ī":4388,"çļĦä½ľåĵģ":4389,"é¸¡":4390,"æĺİæ²»":4391,"çº¦ä¸º":4392,"æĶ¹åĸĦ":4393,"æĢ§åĪ«":4394,"çĻ»éĻĨ":4395,"è¥¿èĹı":4396,"èĮĤ":4397,"ä½ıå®ħ":4398,"å²ģçļĦ":4399,"è²":4400,"çĲī":4401,"ä¹ĭä¸Ń":4402,"ä¸¤å¹´":4403,"æĶ¹éĢł":4404,"åı¸æ³ķ":4405,"å¹¶åħ¥":4406,"åĪĹåħ¥":4407,"åĽŀåºĶ":4408,"åħĭèİ±":4409,"ç«Ļåı°":4410,"å®Ļ":4411,"çİĩé¢Ĩ":4412,"éĤ£éĩĮ":4413,"è´µæĹı":4414,"ew":4415,"66":4416,"èĪŀåı°":4417,"è½¬ç§»":4418,"1999å¹´":4419,"åĪ¶çļĦ":4420,"eb":4421,"ç¤¾ä¼ļä¸»ä¹ī":4422,"å¦Ī":4423,"å®ŀè¡Į":4424,"å£°æĺİ":4425,"åĨ¬åŃ£":4426,"CD":4427,"åľ°éĿ¢":4428,"ç²¹":4429,"ç§įæĹı":4430,"èĭ±å°º":4431,"çĶµè½¦":4432,"æ¾³æ´²":4433,"èĤ¥":4434,"åŁºåĽł":4435,"åıĤè°ĭ":4436,"åĸ·":4437,"åħ³éĹŃ":4438,"åĳ½åĲįä¸º":4439,"èįĴ":4440,"æµģåŁŁ":4441,"åĥ§":4442,"æµ·æ´ĭ":4443,"æĪĲæľ¬":4444,"You":4445,"åıĤåĬłäºĨ":4446,"å¥¹åľ¨":4447,"è£ħç½®":4448,"ä¸Ģå®¶":4449,"æĩ":4450,"éģµ":4451,"çĭĦ":4452,"Ġ2012å¹´":4453,"54":4454,"ç¤ºå¨ģ":4455,"è¯ŃçļĦ":4456,"å½¢æĢģ":4457,"çĸ«æĥħ":4458,"æµ©":4459,"æīįèĥ½":4460,"åıĺå¾Ĺ":4461,"å²ģæĹ¶":4462,"ç¡ķå£«":4463,"åľ¨ä¸ŃåĽ½":4464,"èĬ¬åħ°":4465,"é¸¿":4466,"å´Ķ":4467,"çİĽä¸½":4468,"åĳ¨å¹´":4469,"ç¬¦åĲĪ":4470,"é©±éĢĲ":4471,"æĦıæĢĿ":4472,"åħ¬åı¸çļĦ":4473,"åį³ä½¿":4474,"é«ĺéĢŁåħ¬è·¯":4475,"æľºåĻ¨":4476,"æµĭéĩı":4477,"æµ·å¤ĸ":4478,"çļĦåĽ½å®¶":4479,"é³įé±¼çº²":4480,"æŃ£å¸¸":4481,"å¸ħ":4482,"éĢļè½¦":4483,"èİ«æĸ¯ç§ĳ":4484,"æĸ°çĸĨ":4485,"å±Ģéķ¿":4486,"å²Ĺ":4487,"è¾ĥä¸º":4488,"BC":4489,"ç±³çļĦ":4490,"æĥħæĬ¥":4491,"åı¦ä¸Ģä¸ª":4492,"é¥Ń":4493,"çĶµåĬĽ":4494,"é¡¾éĹ®":4495,"å¯¹è±¡":4496,"å¼Ģè®¾":4497,"èĭıæł¼åħ°":4498,"å¼¥":4499,"éħįåĲĪ":4500,"æ··åĲĪ":4501,"é£Łçī©":4502,"æĢĴ":4503,"åĩºæĿ¥":4504,"ä¿®æĶ¹":4505,"all":4506,"æ¶µ":4507,"å§Ķä¹¦è®°":4508,"æĶ¶è´Ń":4509,"éĻĦè¿ĳçļĦ":4510,"æĻļä¸Ĭ":4511,"åı°åĮĹå¸Ĥ":4512,"Ġèĩª":4513,"åĵ²åŃ¦":4514,"ä¿ĺ":4515,"å¾Īå¿«":4516,"æķ´ä½ĵ":4517,"è¾Ĳé³įé±¼çº²":4518,"èĢĹ":4519,"çģ«ç®Ń":4520,"å¹¶ä»¥":4521,"åĩłä¸ª":4522,"éĻĨåľ°éĿ¢ç§¯ä¸º":4523,"çŁ¥åĲį":4524,"åĪĨéħį":4525,"æ°´åŁŁéĿ¢ç§¯ä¸º":4526,"3ä¸ª":4527,"æ¬£":4528,"10å¹´":4529,"æ¶¦":4530,"æī©å¤§":4531,"up":4532,"åŃ¤":4533,"éħįéŁ³":4534,"52":4535,"èĢĢ":4536,"å·¥äºº":4537,"å¼ĢéĢļ":4538,"åĮĪçīĻ":4539,"æŃĩ":4540,"æ¯Ķä¾ĭ":4541,"çŁ¶":4542,"çĭĤ":4543,"æ³ķå®ĺ":4544,"ä¸Ģåº§":4545,"ä¸ľåįĹéĥ¨":4546,"äº¿åħĥ":4547,"èµ¶":4548,"å¹¿ä¸ľçľģ":4549,"åĽĽåįģ":4550,"å¯¼å¼¹":4551,"æĮªå¨ģ":4552,"åĮĪçīĻåĪ©":4553,"çļĦåİĨåı²":4554,"åľ¨è¯¥":4555,"ä¹ĭåŃĲ":4556,"èĢĮè¨Ģ":4557,"åĤħ":4558,"ä¸ĢæĿ¡":4559,"å¢ŀéķ¿":4560,"ç¥Ģ":4561,"æĥ¯":4562,"è£ħå¤ĩ":4563,"çĭ®":4564,"çļĦæĹ¶éĹ´":4565,"éĻĢ":4566,"åº·çĨĻ":4567,"å¯¸":4568,"çľģåĴĮ":4569,"ç¿Į":4570,"ï½ŀ":4571,"ä»»èģĮ":4572,"åıĳçİ°äºĨ":4573,"leĠ":4574,"è¯·æ±Ĥ":4575,"åĲĮçĽŁ":4576,"åŁĥå°Ķ":4577,"æıĲåĪ°":4578,"æµ·å³¡":4579,"æģĲæĢ":4580,"ik":4581,"çĶ¨ä½ľ":4582,"åĬ¨ä½ľ":4583,"åŀĤ":4584,"æĪĺçķ¥":4585,"ç¥¨æĪ¿":4586,"å½ĵä¸ŃéĻĨåľ°éĿ¢ç§¯ä¸º":4587,"èĢĮæ°´åŁŁéĿ¢ç§¯ä¸º":4588,"ĠI":4589,"ç§ĺå¯Ĩ":4590,"uc":4591,"çļĦä¸Ń":4592,"å¤ªåŃĲ":4593,"èĦĤ":4594,"å¤·":4595,"åİ¢":4596,"ä¸ĭéĻį":4597,"æŁĶ":4598,"98":4599,"ç§ģäºº":4600,"ç²¤":4601,"äºļåİĨå±±":4602,"ä¸ĭæĿ¥":4603,"18å¹´":4604,"æŃ¦æ±ī":4605,"æĤī":4606,"å¸ĥå°Ķ":4607,"ç¼ħçĶ¸":4608,"åįİçĽĽ":4609,"çĭĹ":4610,"éĢĢä¼ĳ":4611,"ip":4612,"çĶŁçļĦ":4613,"éĥ¨çļĦ":4614,"éĹ´çļĦ":4615,"èµ·ä¹ī":4616,"åĩºæ¼Ķ":4617,"å§ļ":4618,"åĽŀå½Ĵ":4619,"æ»ļ":4620,"æŃ¥åħµ":4621,"è¦ĨçĽĸ":4622,";-":4623,"åħ«å¹´":4624,"Ġè¡ĮæĶ¿åĮºåĪĴ":4625,"76":4626,"ä¸ĬåįĪ":4627,"è¯´æĺİ":4628,"ç¼ĸåī§":4629,"ç¢İ":4630,"éĢ¢":4631,"è§Ĥæµĭ":4632,"ä¸ŃåĽ½äººæ°ĳè§£æĶ¾åĨĽ":4633,"æľĢè¿ĳ":4634,"éĩįå¤§":4635,"çĮĽ":4636,"åĬ³åĬ¨":4637,"æī¾åĪ°":4638,"ä¸ºè¾Ĳé³įé±¼çº²":4639,"ä½ĵéķ¿åı¯è¾¾":4640,"OS":4641,"æ·±åº¦":4642,"çģĮ":4643,"æİ¨è¿Ľ":4644,"åįİçĽĽé¡¿":4645,"è¢«è¿«":4646,"é¢Ħè®¡":4647,"å½°":4648,"èĬĴ":4649,"åĲĪçº¦":4650,"åĬŀäºĭ":4651,"åħ´è¶£":4652,"å¥¥è¿Ĳä¼ļ":4653,"æĳĩ":4654,"åĪ¸":4655,"ç»Ħå»º":4656,"çľŁæŃ£":4657,"53":4658,"ç¬¬åħ«":4659,"ç»ıåħ¸":4660,"é©¬å°Ķ":4661,"è¯ķéªĮ":4662,"åºŀ":4663,"åĳ¨åĽ´":4664,"çļĦéĹ®é¢ĺ":4665,"é£İéĻ©":4666,"æºĲèĩª":4667,"å°Ŀè¯ķ":4668,"ç¾İåĨĽ":4669,"ä¿ĿåŃĺ":4670,"ä¸ºæŃ¢":4671,"åĬłçĽŁ":4672,"å¼ķåħ¥":4673,"æĬķéĻį":4674,"éĺ²å¾¡":4675,"å¾¡åı²":4676,"æłĸæģ¯åľ¨":4677,"å¹¿è¥¿":4678,"æ»©":4679,"èĬ±åĽŃ":4680,"æĿĢæŃ»":4681,"if":4682,"ç¬¼":4683,"å»Ĭ":4684,"åľ°åĽ¾":4685,"åĮĹèµ·":4686,"ä¼ª":4687,"åĳİ":4688,"Ġ2024å¹´":4689,"åģ·":4690,"å²Ľå±¿":4691,"åĬ¿åĬĽ":4692,"âĢ¦âĢ¦":4693,"éĺª":4694,"åĮĹäº¬å¸Ĥ":4695,"æľ¬ç«Ļ":4696,"èįĲ":4697,"éļıåį³":4698,"ĠæĽ¾":4699,"å¥İ":4700,"è´£ä»»":4701,"ex":4702,"ä¸Ńæľī":4703,"ä»£è¡¨å¤§ä¼ļ":4704,"ha":4705,"Ġä»İ":4706,"å¤§è§Ħæ¨¡":4707,"éĢ»":4708,"ä¸İåħ¶ä»ĸ":4709,"èĤĸ":4710,"å£°éŁ³":4711,"1997å¹´":4712,"çļĦæĥħåĨµä¸ĭ":4713,"().":4714,"ä»¥åīį":4715,"éħ¶":4716,"æĹĹä¸ĭ":4717,"å¸¦æĿ¥":4718,"è®ºæĸĩ":4719,"çĶ¨éĢĶ":4720,"çĶŁæĢģ":4721,"åĽ½å®¶éĺŁ":4722,"1992å¹´":4723,"1996å¹´":4724,"çıĬ":4725,"BA":4726,"ĠU":4727,"ä¾ł":4728,"å¯¹å¤ĸ":4729,"æ¸©åº¦":4730,"è®²è¿°":4731,"ist":4732,"åĲ¾":4733,"77":4734,"äº¿ç¾İåħĥ":4735,"çħ§çīĩ":4736,"æŀĿ":4737,"è¿Ĳä½ľ":4738,"ç»ĦæĪĲçļĦ":4739,"ä¿ĥè¿Ľ":4740,"ä»£çłģ":4741,"å¯¹åºĶ":4742,"43":4743,"çļĦæĶ¯æĮģ":4744,"æľĢå¤ļ":4745,"ä¼ĺåĬ¿":4746,"è½¯ä»¶":4747,"å¾ĹçŁ¥":4748,"è§£æķ£":4749,"æ¹ĺ":4750,"ç¿ģ":4751,"ä¸¤æ¬¡":4752,"æĮĩå¯¼":4753,"å¤«äºº":4754,"è°ĪåĪ¤":4755,"çĴĥ":4756,"èµĭ":4757,"éļľç¢į":4758,"åĲįä¹ī":4759,"å¨ĥ":4760,"åĵ¥ä¼¦":4761,"å¤ıåŃ£å¥¥æŀĹåĮ¹åħĭè¿ĲåĬ¨ä¼ļ":4762,"å¹´é¾Ħ":4763,"Ġm":4764,"åįģä¸ī":4765,"æŀĦéĢł":4766,"ä¿®å»º":4767,"éĺĶ":4768,"ç»ıçĲĨ":4769,"èĥ¸":4770,"åľ¨å¤§":4771,"å¼¦":4772,"åı°ä¸Ń":4773,"æģĲæĢĸ":4774,"çļĦå·¥ä½ľ":4775,"éŃĤ":4776,"éļ¾ä»¥":4777,"åįµ":4778,"æłı":4779,"å°ıåŀĭ":4780,"æĮĩæİ§":4781,"ä¸ĩåİĨ":4782,"ä»ĩ":4783,"äºĨè§£":4784,"Ġæ¦Ĥ":4785,"ä»ĸè¿ĺ":4786,"åİĨä»»":4787,"åĲĲ":4788,"è¢«è§Ĩä¸º":4789,"ä¸Ĭæµ·å¸Ĥ":4790,"art":4791,"Ġ5":4792,"æľ´":4793,"è¥¿åįĹéĥ¨":4794,"çļĦå±±":4795,"é©¬æĭī":4796,"æ¯ķä¸ļåĲİ":4797,"é©¾é©¶":4798,"éĤ£äºĽ":4799,"hans":4800,"çļĦå¤ĸ":4801,"åĲı":4802,"ä¸īè§Ĵ":4803,"çļĦåıĳå±ķ":4804,"åıł":4805,"æ·ĺ":4806,"1945å¹´":4807,"åħĭæĭī":4808,"éĤ¨":4809,"æ³¨åĨĮ":4810,"hk":4811,"Ġof":4812,"å©ļå§»":4813,"41":4814,"å®ĩå®Ļ":4815,"indow":4816,"æī®æ¼Ķ":4817,"è¥¿å®ī":4818,"çŃīçŃī":4819,"ç½ĳçĲĥ":4820,"Ġ2011å¹´":4821,"å±ł":4822,"åĮĸçŁ³":4823,"æĳĦå½±":4824,"ç¡«":4825,"åĬłå¼º":4826,"æ¬¡å¹´":4827,"éĩıçļĦ":4828,"èħĲ":4829,"éĶĻè¯¯":4830,"ard":4831,"æĲº":4832,"å¹´ä»£":4833,"åĨĽåĮº":4834,"èĪ±":4835,"åı°é£İ":4836,"1988å¹´":4837,"æ·¡æ°´":4838,"95":4839,"å½¦":4840,"å®¶äºº":4841,"å¤ªç©º":4842,"æŁıæŀĹ":4843,"Ġp":4844,"é¢ľèī²":4845,"åľ¨é¦Ļæ¸¯":4846,"åįģåħŃ":4847,"èĦĬ":4848,"æľįå½¹":4849,"åĲĪæĪĲ":4850,"éĻĨç»Ń":4851,"éĢ®":4852,"è²Į":4853,"åĺ´":4854,"AR":4855,"1994å¹´":4856,"å®¶çļĦ":4857,"éĢĢåĩº":4858,"é¹°":4859,"ä»ĸè¢«":4860,"åįĹéĿŀ":4861,"BS":4862,"åĬłåĪ©":4863,"éĢļéģĵ":4864,"æĶ¿åįı":4865,"åįĹæĸ¹":4866,"æŃ§":4867,"éļ¶å±ŀ":4868,"äºİ193":4869,"åİŁä½ı":4870,"Ġ2010å¹´":4871,"æĹ¬":4872,"è¥¿åĮĹéĥ¨":4873,"ç¨į":4874,"æ±Łè¥¿":4875,"åıī":4876,"æĶ¿åºľçļĦ":4877,"ant":4878,"åħĭçļĦ":4879,"1949å¹´":4880,"çĲĥåŃ£":4881,"ç³»ç»ŁçļĦ":4882,"ä»·æł¼":4883,"éĩĬæĶ¾":4884,"AM":4885,"ä¹ĲéĺŁ":4886,"ï¼ı":4887,"å®ļå±ħ":4888,"ill":4889,"Ġ10":4890,"å¤§èµĽ":4891,"åĳĪçİ°":4892,"çļĦæķħäºĭ":4893,"ä¸Ģèĩ´":4894,"çĽ¸ä¿¡":4895,"ä½ľåĩº":4896,"å¸¦æľī":4897,"ç¬¬3":4898,"qu":4899,"é¦ĸåħĪ":4900,"å¨ĺ":4901,"ä¿Ŀç½Ĺ":4902,"åĪĨåĪ«ä¸º":4903,"åĪ·":4904,"ç¿ł":4905,"åħ¼ä»»":4906,"éĹ½":4907,"æģ°":4908,"æİĴè¡Į":4909,"ĠçļĦæĹ¶åĮºä¸º":4910,"ĠäºİæĹ¶çļĦäººåı£æķ°éĩıä¸ºäºº":4911,"ĠæīĢå±ŀçļĦçľģçº§éĢīåĮºä¸º":4912,"æīĢå±ŀ":4913,"éº¦åħĭ":4914,"éĺ¶çº§":4915,"Ġä¸İæİ¥å£¤çļĦå¸Ĥéķĩ":4916,"ĠçļĦéĤ®æĶ¿ç¼ĸçłģä¸º":4917,"ä¸¤åĲį":4918,"èĿ¶":4919,"79":4920,"æ¸¸æ³³":4921,"ä»»åĳ½ä¸º":4922,"4äºº":4923,"æĬĹæĹ¥":4924,"æı¡":4925,"çĽ¸äºĴ":4926,"åħ³éĶ®":4927,"ç«ĭåį³":4928,"éĢļè®¯":4929,"ç¯®çĲĥ":4930,"Ġt":4931,"èĸĦ":4932,"åĮĹæµ·":4933,"éªĳå£«":4934,"èĩªèº«":4935,"åĿª":4936,"æ¯Ķå¦Ĥ":4937,"æ·»":4938,"éªĳåħµ":4939,"åį±æľº":4940,"å©Ĩ":4941,"æĸ¯æŀĹ":4942,"éĽĢ":4943,"å¸¦é¢Ĩ":4944,"éĵŃ":4945,"åİŁåŃĲ":4946,"Ġ192":4947,"ä¸°å¯Į":4948,"1æľĪ1æĹ¥":4949,"å¿§":4950,"è¶ĭ":4951,"ä¼ĺç§Ģ":4952,"éĨĴ":4953,"ç¬¬äºĮæ¬¡ä¸ĸçķĮå¤§æĪĺ":4954,"å·«":4955,"å¤§èĩ´":4956,"æ·®":4957,"å±ķè§Ī":4958,"æĸ¹è¨Ģ":4959,"å¯¹æĬĹ":4960,"éĢīä¸º":4961,"æĹ¶æľŁçļĦ":4962,"è®¡ç®Ĺæľº":4963,"åĨħéĻĨ":4964,"ä¾ĽåºĶ":4965,"çľŁå®ŀ":4966,"è¯ı":4967,"éĿŀå»ºåĪ¶":4968,"æĦıå¿Ĺ":4969,"é¸£":4970,"ç¾½æ¯ĽçĲĥ":4971,"èīºäºº":4972,"é»ĳèī²":4973,"è¾ĵåħ¥":4974,"ä¼Ĺå¤ļ":4975,"éĺŁéķ¿":4976,"CO":4977,"69":4978,"ä»ĸä¸İ":4979,"åĮĹæĸ¹":4980,"åĽºå®ļ":4981,"ä¸Ĭè¿°":4982,"æİĺ":4983,"åħĪçĶŁ":4984,"åħ·ä½ĵ":4985,"åį°å°¼":4986,"ä¸Ģçº§":4987,"ä»£çĲĨ":4988,"å·ŀåºľ":4989,"æľĿå»·":4990,"éĺ®":4991,"æ´¾éģ£":4992,"åµ":4993,"1989å¹´":4994,"ä¸º2":4995,"å¾Ģå¾Ģ":4996,"æ£Ģæµĭ":4997,"å§¬":4998,"éĥ½å¸Ĥ":4999,"å¯»æī¾":5000,"é»Ħéĩĳ":5001,"é¢Ĩå¯¼äºº":5002,"éĿŀå»ºåĪ¶åľ°åĮº":5003,"sp":5004,"185":5005,"ä»£è¡¨åĽ¢":5006,"çªģçł´":5007,"é¼»":5008,"Ġä»¥ä¸ĭ":5009,"ä½ĨçĶ±äºİ":5010,"ain":5011,"åįģäºĶ":5012,"çģ«å±±":5013,"62":5014,"Al":5015,"çī¹èī²":5016,"åįĹèĩ³":5017,"çĽĳçĿ£":5018,"åĹ£":5019,"å¼Ģå±ķ":5020,"æĦĪ":5021,"æ³¢æĸ¯":5022,"æĿīçŁ¶":5023,"å·²è¢«":5024,"æĽ´ä¸º":5025,"ä¾ĭåŃĲ":5026,"æ´ĽæĿīçŁ¶":5027,"æ°¯":5028,"çĻ»ä¸Ĭ":5029,"çĶµè¯Ŀ":5030,"å½ĵå¤©":5031,"ä¸¤åĽ½":5032,"æĸ¤":5033,"æĹ¥æĬ¥":5034,"1000":5035,"å±±è¥¿":5036,"åĦĴ":5037,"åħĨ":5038,"èĭĳ":5039,"çªģçĦ¶":5040,"å®ŀéªĮå®¤":5041,"èĮµ":5042,"ä¾Ŀæį®":5043,"åģ¿":5044,"Ġå®¶æĹı":5045,"å°¼äºļå·ŀ":5046,"Ġ8":5047,"åľºçļĦ":5048,"åħ¬çĪµ":5049,"æĳĨ":5050,"ä¸¹éº¦":5051,"åįĴ":5052,"è¡ĮçļĦ":5053,"æ±ª":5054,"çĽ¸åħ³çļĦ":5055,"åĽ½å®¶çļĦ":5056,"çī¹å®ļ":5057,"ä¸īä¸ĸ":5058,"1993å¹´":5059,"åĲĽä¸»":5060,"å¯¨":5061,"åĨĽå®ĺ":5062,"åĳĺå·¥":5063,":),":5064,"ä¸º1":5065,"å¤§å¤ļ":5066,"1995å¹´":5067,"å°ĳå¥³":5068,"å¦ĩå¥³":5069,"600":5070,"å°±ä¼ļ":5071,"æ²¿æµ·":5072,"æĺİç¡®":5073,"ä¸»è¦ģçļĦ":5074,"æĪ¿å±ĭ":5075,"éĢ®æįķ":5076,"4ä¸ª":5077,"åı²ä¸Ĭ":5078,"ong":5079,"è½¬åĲĳ":5080,"1991å¹´":5081,"æī©å±ķ":5082,"å¤ķ":5083,"å¤§æ¡¥":5084,"ä¾¨":5085,"å°¼åħĭ":5086,"èµĦäº§":5087,"èĦı":5088,"éĻ¨":5089,"çļĦåĲĮ":5090,"æľºåĪ¶":5091,"éĵľçīĮ":5092,"è¯ģå®ŀ":5093,"æŃ¤æ¬¡":5094,"åĪ¶å®ļ":5095,"å®ĥæĺ¯":5096,"ç»Ŀå¯¹":5097,"åĬĿ":5098,"å¤§å¥ĸ":5099,"åĩĢ":5100,"Ġéĺ¿":5101,"ä¸Ľ":5102,"è¾°":5103,"51":5104,"ä¸İåħ¶":5105,"180":5106,"æ£ĢæŁ¥":5107,"ä¸Ģæ®µ":5108,"å¤§åİ¦":5109,"ç§ĳå¤«":5110,"äºļç¾İ":5111,"åĮĸåĲĪçī©":5112,"ç²Ĺ":5113,"åĲ¯åĬ¨":5114,"Ã©":5115,"æ³ķåħ°è¥¿":5116,"çļĦçĶµå½±":5117,"åĪĨç¦»":5118,"è§Ĩé¢ĳ":5119,"éĵ¸":5120,"ĠåĴĮ":5121,"åľ¨äºİ":5122,"åī§æľ¬":5123,"ç´§æĢ¥":5124,"è¯Ħä¼°":5125,"åĿĩä¸º":5126,"Ġzh":5127,"åĨľæ°ĳ":5128,"åĵ¥ä¼¦æ¯Ķäºļ":5129,"åĬłæĭī":5130,"æ¶Ĥ":5131,"ä¸ĳ":5132,"çī¹åĪ«æĺ¯":5133,"end":5134,"ä¿Ŀå®Ī":5135,"ä¹łæĢ§":5136,"èĲ¨æĸ¯":5137,"åī§éĻ¢":5138,"åºŁéĻ¤":5139,"åĬ«":5140,"åŁºéĩĳä¼ļ":5141,"2ä¸ª":5142,"1990å¹´":5143,"1985å¹´":5144,"çŁ©":5145,"åľºæ¯ĶèµĽ":5146,"åĢ¡":5147,"ä¸»è¦ģæĺ¯":5148,"ä¹ĭæĪĺ":5149,"æī«":5150,"è´©":5151,"èĢĮéĿŀ":5152,"æ±°":5153,"è´¨çĸĳ":5154,"çŃ¾è®¢":5155,"ä¸Ńè¢«":5156,"ä¸Ĭæľī":5157,"çİ°ä»Ĭ":5158,"æ±Ģ":5159,"åİŁåĪĻ":5160,"åĨĽåĽ¢":5161,"å½¢å®¹":5162,"éĻķè¥¿":5163,"ä¸ĭä»¤":5164,"éĦĤ":5165,"å¼¯":5166,"åŃ¦å£«":5167,"ç±³äºļ":5168,"åĬªåĬĽ":5169,"åħ¶ä¸ŃåĮħæĭ¬":5170,"ç»ĻäºĨ":5171,"ä¼ļéķ¿":5172,"ç»´æĬ¤":5173,"å¸Ńä½į":5174,"çīłä»¬":5175,"ast":5176,"æĭĺ":5177,"éĽĮ":5178,"æĮĩå®ļ":5179,"åįĩçº§":5180,"é©³":5181,"æ½Ń":5182,"çŃīä¸º":5183,"é¾Ł":5184,"éĺ»æŃ¢":5185,"èĥ½éĩı":5186,"åŁİåł¡":5187,"åı·çļĦ":5188,"åįİäºº":5189,"èģĮä¸ļçĶŁæ¶¯":5190,"ä¿Ŀéļľ":5191,"åĭĭç«ł":5192,"æłĩæľ¬":5193,"ç©Ĩæĸ¯æŀĹ":5194,"åĽ°éļ¾":5195,"è¿Ļæł·çļĦ":5196,"æŃ»åĲİ":5197,"çļĩåĲİ":5198,"ç§ĳåŃ¦éĻ¢":5199,"æ¶Į":5200,"1984å¹´":5201,"æĥħåĨµä¸ĭ":5202,"äºļç¾İå°¼äºļ":5203,"æĹ¶æ®µ":5204,"æĺ¯ä¸Ģé¢Ĺ":5205,"åħ¶ä¸Ńä¸Ģç§į":5206,"Ġ2008å¹´":5207,"åĲİç»Ń":5208,"åłª":5209,"ç£¨":5210,"Ġ7":5211,"é¦ĸä¸ª":5212,"ç§įåŃĲ":5213,"çłĸ":5214,"èĲ¨å°Ķ":5215,"çķĻä¸ĭ":5216,"èĵ¬":5217,"éĨĩ":5218,"å¯Ĵ":5219,"åĪ©çĽĬ":5220,"äºĮäºº":5221,"é©¬éĩĮ":5222,"äº¦æĺ¯":5223,"æ»¡è¶³":5224,"2020å¹´ç¾İåĽ½äººåı£æĻ®æŁ¥çļĦæķ°æį®":5225,"å¥¥å°Ķ":5226,"åĺīéĿĸ":5227,"å¿½":5228,"æĥŁ":5229,"åĢº":5230,"å¤§åŃ¦çļĦ":5231,"æīĭæľº":5232,"åĬ©çĲĨ":5233,"å»¶éķ¿":5234,"çļĦä¸¤":5235,"ä¹Łä¸į":5236,"åıĤéĢī":5237,"æķ¢":5238,"æľ¬åľ°":5239,"ĠæĹ©å¹´":5240,"ä¸»åĬŀ":5241,"åĬłå·ŀ":5242,"æĶ¶è§Ĩ":5243,"åĪºåı²":5244,"igh":5245,"å°¹":5246,"å¾·çļĦ":5247,"å¼ĹæľĹ":5248,"ä¸ŃéĹ´":5249,"ä»¥å¤ĸ":5250,"åħ¬å®ī":5251,"åĳ¨æľŁ":5252,"èĮĥåĽ´åĨħ":5253,"åįģåĽĽ":5254,"æ¶Īè´¹":5255,"çļĦåħ³ç³»":5256,"å¥Ķ":5257,"æıĲä¾ĽäºĨ":5258,"åĭŁ":5259,"æ°ĶæĹĭ":5260,"ä¸ŃæľŁ":5261,"æĬĳ":5262,"è®¾å®ļ":5263,"ç»´æĸ¯":5264,"æº¯":5265,"æĽ´æĸ°":5266,"ä¸ĸçķĮä¸Ĭ":5267,"1ä¸ª":5268,"å¤§å¹ħ":5269,"å¹¶ä¸İ":5270,"å¤įåħ´":5271,"åĬŀäºĭå¤Ħ":5272,"åľ¨åĨħçļĦ":5273,"éĹª":5274,"ä»¤äºº":5275,"èº«ä¸º":5276,"çº³ç²¹":5277,"æ´»è·ĥ":5278,"ä¿®æŃ£":5279,"éĤ»è¿ĳ":5280,"æĺİæľĿæĶ¿æ²»äººçī©":5281,"ä¸ľä¸´":5282,"ç©ºæ°Ķ":5283,"åıįæĺł":5284,"é¢ĩ":5285,"åİŁåĲį":5286,"å½¢çĽ®":5287,"é¤Ĳåİħ":5288,"AC":5289,"èĩ³äºİ":5290,"æī¶":5291,"ä¸Ĭä¸ĭ":5292,"åĳĬè¯ī":5293,"ç¢Ł":5294,"æļ´åĬĽ":5295,"--":5296,"æĻĭçº§":5297,"sh":5298,"ack":5299,"1986å¹´":5300,"85":5301,"åįıè°ĥ":5302,"çİ»çĴĥ":5303,"å½ķéŁ³":5304,"æĤ²":5305,"ä¸įåĪ°":5306,"Ġ2009å¹´":5307,"èŁ":5308,"çİ°å®ŀ":5309,"ä¼łåªĴ":5310,"ç¿ħ":5311,"çĽĳçĭ±":5312,"00å¹´":5313,"åħļçļĦ":5314,"æĭ¼":5315,"æĭĸ":5316,"ä¼ļä¸Ĭ":5317,"åĩºåıĳ":5318,"åĪ©æĸ¯":5319,"å¾·å°Ķ":5320,"æİ¥æĶ¶":5321,"ä¹¦éĻ¢":5322,"åħ¸ç¤¼":5323,"å½ĵåľ°çļĦ":5324,"èķ¾":5325,"æ·ĺæ±°":5326,"æĹ¥æľŁ":5327,"ä»Ĭå¤©":5328,"éĢ¼":5329,"lay":5330,"ss":5331,"æ¸ħåįİ":5332,"åı¦æľī":5333,"åįģäºĮå¹´":5334,"åİŁå§ĭ":5335,"åįĩä»»":5336,"éĵ¶çīĮ":5337,"é£Łåĵģ":5338,"19ä¸ĸçºª":5339,"æĸ¯é¡¿":5340,"èģĮä½į":5341,"æĸĲ":5342,"å¯ĵ":5343,"åıĳæĺİ":5344,"åº¦çļĦ":5345,"ç«ĭæĸ¹":5346,"å¸ĥèİ±":5347,"æĤ£èĢħ":5348,"æĹ¥æ²»":5349,"æĳ§":5350,"ran":5351,"å·¢":5352,"äº§çĶŁçļĦ":5353,"ç¡®è¯ĬçĹħä¾ĭ":5354,"ian":5355,"ä»ĸä¹Ł":5356,"åħįè´¹":5357,"åİŁä½ıæ°ĳ":5358,"ED":5359,"ç¨»":5360,"é±¼ç±»":5361,"äºļåİĨå±±å¤§":5362,"å·²æľī":5363,"æİ¨å¹¿":5364,"æı´åĬ©":5365,"usĠ":5366,"åľ¨ä¸Ģ":5367,"è¿ĳå¹´":5368,"åĨľæĿĳ":5369,"çļĦè®¾è®¡":5370,"äº²çİĭ":5371,"è¥¿åħ°":5372,"æ°´åºĵ":5373,"ç»´åŁĥ":5374,"èĢĥåı¤":5375,"åī¯ä¸»ä»»":5376,"æľīæľº":5377,"å¼łä¸ĵè¾ĳ":5378,"åľ¨ä¸Ń":5379,"åĿĿ":5380,"ç¥ł":5381,"çĻĮ":5382,"ç«ŀéĢī":5383,"1980å¹´":5384,"åī¯ä¸»å¸Ń":5385,"æĺ¾èĳĹ":5386,"Ġå½ĵ":5387,"çĶŁæĪĲ":5388,"åı¸é©¬":5389,"ç»³":5390,"æīĢè°ĵ":5391,"çĲ¼":5392,"å¿į":5393,"å¹³åİŁ":5394,"å¤©çļĩ":5395,"æĶ¹åĲįä¸º":5396,"åħ¬åħĥåīį":5397,"63":5398,"ä¾ĿçĦ¶":5399,"åĸľåī§":5400,"æłĭ":5401,"è£ħé¥°":5402,"æĺŃåĴĮ":5403,"çĶ±æŃ¤":5404,"çĲĨè§£":5405,"åıĳåĬ¨æľº":5406,"120":5407,"ç§°ä½ľ":5408,"è½¬æį¢":5409,"é¾Ļæ±Ł":5410,"179":5411,"åį±éĻ©":5412,"æĺ¯å¾·åĽ½":5413,"ç»Īäºİ":5414,"çļĦæĪĲåĳĺ":5415,"åľŃ":5416,"ä¸Ģè¯į":5417,"å±±åĮº":5418,"éĤ£ä¹Ī":5419,"æ¸¸è¡Į":5420,"Ġ2025å¹´":5421,"éĿłè¿ĳ":5422,"72":5423,"å¿Ļ":5424,"ç©ºä¸Ń":5425,"é¹¤":5426,"å®Įå·¥":5427,"æīĢæľīçļĦ":5428,"è´§å¸ģ":5429,"ä¿®å¤į":5430,"éļĶç¦»":5431,"åĩĿ":5432,"åľ°å¸¦":5433,"ä¸Īå¤«":5434,"æł¡åĽŃ":5435,"ç¡®ä¿Ŀ":5436,"ä½ĵèĤ²åľº":5437,"2001å¹´äººåı£":5438,"è¿ĽæŃ¥":5439,"èĥ½æºĲ":5440,"éĩĩè®¿":5441,"è¿ĲçĶ¨":5442,"äºĶæľĪ":5443,"æīĵç®Ĺ":5444,"æ½ľèīĩ":5445,"çĿ¡":5446,"å¢ŀå¼º":5447,"æľ¬çīĩ":5448,"å¾·åįİ":5449,"Window":5450,"çŁĽ":5451,"èĴ¸":5452,"1983å¹´":5453,"184":5454,"æ¯ĶåĪ©æĹ¶":5455,"ä¼ļåĳĺ":5456,"åį¡ç½Ĺ":5457,"çłģå¤´":5458,"ä¹īå¤§åĪ©":5459,"é²¤":5460,"æĴ°åĨĻ":5461,"å¯¹æĸ¹":5462,"èĻ¹":5463,"å¾ĹåĲį":5464,"éĢļä¿¡":5465,"æĭ¿ä¸ĭ":5466,"ER":5467,"æł½":5468,"æĸ¯æĭīå¤«":5469,"æī§æĶ¿":5470,"éĢĤåĲĪ":5471,"æĭĨéĻ¤":5472,"å§Ĭ":5473,"æ³ķçļĦ":5474,"æĸ¯æīĺ":5475,"èĴĻçī¹":5476,"è©¹å§Ĩæĸ¯":5477,"IS":5478,"åĲģ":5479,"Ġç¾İåĽ½":5480,"èµĦæľ¬":5481,"çŁ³æ²¹":5482,"æ´¾åĩº":5483,"å±±ä¸ľçľģ":5484,"å¤§ä¼Ĺ":5485,"èĢĲ":5486,"æ³¢ç½Ĺ":5487,"åĨħæĪĺ":5488,"åĪĻä¸º":5489,"ä¹¦ç±į":5490,"åĬŀçĲĨ":5491,"87":5492,"æĮĩç¤º":5493,"1987å¹´":5494,"å»ºç«ĭäºĨ":5495,"åĽ´ç»ķ":5496,"IC":5497,"åīĬ":5498,"å¸Ĥä¸Ńå¿ĥ":5499,"å¼ıçļĦ":5500,"ç¿Ķ":5501,"AP":5502,"ä½Ľç½Ĺ":5503,"è´µå·ŀ":5504,"ä¹Łå°±æĺ¯":5505,"Ġæĸ°":5506,"è®¤è¯Ĩ":5507,"çķĻåľ¨":5508,"å»ºçŃĳçī©":5509,"åį¢çĵ¦å°Ķçľģ":5510,"æ³¡":5511,"æĪĲå¹´":5512,"æ³ķåºŃ":5513,"èĢĮä¸įæĺ¯":5514,"å¤©çĦ¶":5515,"åİĺç±³":5516,"åĩºåħ¥åı£":5517,"ric":5518,"çļĦæ°´":5519,"æĺ¯ä¸Ģåº§":5520,"èĸĽ":5521,"61":5522,"æİĪæĿĥ":5523,"åľĨå½¢":5524,"é¦ĸçĽ¸":5525,"æĶ¹åĪ¶":5526,"ç®¡çĲĨå±Ģ":5527,"Ġåħ¶ä»ĸ":5528,"äº¥":5529,"åłĨ":5530,"è¾¹å¢ĥ":5531,"æĿĢå®³":5532,"ç»¿èī²":5533,"å¸¸è§ģçļĦ":5534,"ä¸Ģæŀļ":5535,"èĩªæĿĢ":5536,"å°Ĩåľ¨":5537,"éĶĢéĩı":5538,"æĶ¶éĽĨ":5539,"ãĥ»":5540,"èĢĮæ°´åŁŁéĿ¢ç§¯ä¸º0":5541,"ÃĹ":5542,"éĹ¸":5543,"2000":5544,"æĦıåĳ³":5545,"çĽĨ":5546,"æĺİæĺŁ":5547,"åĲĦèĩª":5548,"åĲĦç±»":5549,"è¾½å®ģ":5550,"89":5551,"ä»¥åįĹ":5552,"åĪĨæĶ¯":5553,"æĢģåº¦":5554,"æľĢä½İ":5555,"160":5556,"å¤§éĢī":5557,"è®°å¿Ĩ":5558,"åĿļæĮģ":5559,"ä¸ŃåĽ½çļĦ":5560,"åĲīæŀĹ":5561,"åĪĨè£Ĥ":5562,"åĲĮæĢ§":5563,"æł¼æĭī":5564,"çĬ¹å¤ªäºº":5565,"Ġç¬¬":5566,"éķ¿å®ĺ":5567,"å¤«åį¡":5568,"æĸĭ":5569,"èŃ¦åĳĬ":5570,"ort":5571,"ä»ĬæĹ¥":5572,"1ä¾ĭ":5573,"è¾¾å°Ķ":5574,"ä¸ĭè¾ĸçļĦä¸Ģä¸ª":5575,"æĬĵ":5576,"æ±Ŀ":5577,"èģĶåĲĪä¼ļ":5578,"åĽ½æ°ĳæĶ¿åºľ":5579,"ĠTh":5580,"å®¶ä¸Ń":5581,"èĥº":5582,"å¹³æ°ĳ":5583,"æŁ´æ²¹":5584,"6äºº":5585,"æĹ¨åľ¨":5586,"èĪŁ":5587,"ç§ĳåŃ¦å®¶":5588,"è¿ŀä»»":5589,"æµĻæ±Łçľģ":5590,"ne":5591,"çİĩä¸º":5592,"å¼Łå¼Ł":5593,"çļĦåĲİ":5594,"å¹¶è¢«":5595,"å¿ħè¦ģ":5596,"åĪĨåĪ«æĺ¯":5597,"ä¸ŀ":5598,"çŃīçº§":5599,"æłª":5600,"åı¯ä»¥åľ¨":5601,"asĠ":5602,"å±Ī":5603,"çļĦäºĭ":5604,"ä»¥ä¸º":5605,"å¥¹ä»¬":5606,"æĶ¯æµģ":5607,"åī§éĽĨ":5608,"æĹħè¡Į":5609,"Ġé¦Ļæ¸¯":5610,"æĺ¯é¦Ļæ¸¯":5611,"âĢĻ":5612,"åħĭæŀĹ":5613,"è¿Ļé¦ĸ":5614,"äº²èĩª":5615,"æ¯Ľæ³½":5616,"ç¤ģ":5617,"1982å¹´":5618,"èİ±èĮµ":5619,"æ»¨æµ·":5620,"æĬ±":5621,"äº¤æį¢":5622,"æĭ¨":5623,"é»Ħèī²":5624,"éĴ»":5625,"è§ĦèĮĥ":5626,"Ġin":5627,"æĸ¯æ´Ľ":5628,"å´©":5629,"æĪĲç«ĭçļĦ":5630,"Ġä»ĸ":5631,"ĠæĪªèĩ³":5632,"å¹½":5633,"æ¶Īå¤±":5634,"å®°":5635,"é»ĳé¾Ļæ±Ł":5636,"800":5637,"çłĤ":5638,"èĪªå¤©":5639,"åįłåľ°":5640,"ä¸ºæŃ¤":5641,"ä¸Ĭå¸Ĥ":5642,"å·¥ç¨ĭå¸Ī":5643,"è¿Ŀåıį":5644,"åĳ¼åĲģ":5645,"å°¤åħ¶æĺ¯":5646,"æĳ§æ¯ģ":5647,"çº§åĪ«":5648,"Ġ9":5649,"æĦŁæŁĵèĢħ":5650,"1920å¹´":5651,"æĦıå¤ĸ":5652,"ç§įæ¤į":5653,"âĶ":5654,"çĭ¼":5655,"æĶ¶èĹı":5656,"çŃ¾çº¦":5657,"è¿¦":5658,"åľ¨197":5659,"å¤ļå°Ķ":5660,"æ¬§çĽŁ":5661,"åı¸ä»¤éĥ¨":5662,"Ġåī§æĥħ":5663,"æºĲäºİ":5664,"éķ¿åŃĲ":5665,"æĺ¯ä¸Ģéĥ¨":5666,"åįĩä¸º":5667,"æª":5668,"åŃ¦çļĦ":5669,"èĭ±åĨĽ":5670,"åį¡æĭī":5671,"åĲīå°Ķ":5672,"Ġ2007å¹´":5673,"5äºº":5674,"å°¼è¥¿äºļ":5675,"éĻª":5676,"è½¦åİ¢":5677,"è¯¥æĿĳ":5678,"æł¡åĮº":5679,"æ³¢å°Ķ":5680,"man":5681,"èĢĮä¸į":5682,"å¾·æĭī":5683,"ens":5684,"å©´":5685,"ä»¥åĮĹ":5686,"æ¸¯åı£":5687,"å¾Īå¤§":5688,"æ¦Ħ":5689,"ä»»æľŁ":5690,"å¦Ļ":5691,"å®īå¨ľ":5692,"1950å¹´":5693,"æ¯Ľæ³½ä¸ľ":5694,"åħ¶å®ŀ":5695,"æŃĮè¯į":5696,"èĦ¸":5697,"å¾ªçİ¯":5698,"åį¸":5699,"å°Ħåĩ»":5700,"1Ġ":5701,"ID":5702,"è¿ĻéĩĮ":5703,"å¾ĹåĪ°äºĨ":5704,"ç§ĺä¹¦éķ¿":5705,"ĠæŃ¤å¤ĸ":5706,"æĬ«":5707,"å¯¹åħ¶":5708,"åı¤åħ¸":5709,"èµ°åĲĳ":5710,"çī¹éĩĮ":5711,"äºļåĨĽ":5712,"æİ¥æĽ¿":5713,"æ¼Ķå¥ı":5714,"èĳ£äºĭéķ¿":5715,"çļĦåĦ¿åŃĲ":5716,"JR":5717,"ä¼½":5718,"é©¬æĸ¯":5719,"æĢ§èĥ½":5720,"åľºæīĢ":5721,"çĭŃ":5722,"ï¼ħ":5723,"é¡ºåĪ©":5724,"ber":5725,"å¤§å°ı":5726,"åĴĸ":5727,"ine":5728,"å®¡æŁ¥":5729,"Mar":5730,"åĮºè®®ä¼ļ":5731,"éĺ²æŃ¢":5732,"çĶŁæ´»ä¹łæĢ§":5733,"ç¦ħ":5734,"é¦ĸåºľ":5735,"å¼ºåº¦":5736,"åĽļ":5737,"é¦ĸä½į":5738,"ä¸»ä¹īèĢħ":5739,"çļĦéĥ¨åĪĨ":5740,"å¯®":5741,"æĪĲéķ¿":5742,"è¢ĭ":5743,"å·ŀåĪºåı²":5744,"ç¥ŀè¯Ŀ":5745,"å¤§åį«":5746,"å«ģ":5747,"74":5748,"ç«ĭåľº":5749,"äºĮæĪĺ":5750,"ä»ķ":5751,"éĥ¨çĶµå½±":5752,"ç´¯è®¡":5753,"âĶĢ":5754,"æĭ±":5755,"å¸ĤæĶ¿åºľ":5756,"7äºº":5757,"çī¹æĭī":5758,"éĢĶä¸Ń":5759,"è·Łéļı":5760,"å®Ľ":5761,"éĽį":5762,"å¾Ĺä¸»":5763,"é¢Ĩäºĭ":5764,"åķĨåĵģ":5765,"oun":5766,"åįģä¹Ŀ":5767,"åŁ¹è®Ń":5768,"æıĲåıĬ":5769,"AN":5770,"æķ°ä½į":5771,"ä¸¤èĢħ":5772,"(,;":5773,"ç¼©åĨĻ":5774,"ON":5775,"çĤī":5776,"åıĹæ¬¢è¿İ":5777,"åĲĦåĽ½":5778,"æł¹å»·":5779,"ä¸»åľº":5780,"é¦ĸæĴŃ":5781,"ĠCh":5782,"ä½Ĩä»ĸ":5783,"é¦ĸå¸Ń":5784,"å¸ĥéĩĮ":5785,"æ±Łèĭıçľģ":5786,"çļĦå¥³":5787,"æĪĲäºº":5788,"èĤĮ":5789,"åģľéĿł":5790,"åĲ¹":5791,"å°¼å°Ķ":5792,"çļĦéŁ³ä¹Ĳ":5793,"çĤ¹çļĦ":5794,"éĿ¢ä¸´":5795,"ä½¿åħ¶":5796,"éĻ·åħ¥":5797,"éķ¿æ±Ł":5798,"çĶŁæ´»ä¹łæĢ§ä¸įæĺİ":5799,"çļĦç¬¬äºĮ":5800,"ä¸ºåħ¶":5801,"è¾Ł":5802,"å¾·è¯Ń":5803,"é¼İ":5804,"å¾·åĨĽ":5805,"è¾¨":5806,"éŁµ":5807,"åĩºçīĪç¤¾":5808,"2Ġ":5809,"èĢķ":5810,"æľĪçĲĥ":5811,"å°Ĩé¢Ĩ":5812,"ç¦»åŃĲ":5813,"ä¸Ĭåįĩ":5814,"æ£ĺ":5815,"æ´¾çļĦ":5816,"ç½Ĺé©¬å°¼äºļ":5817,"æĥ¨":5818,"ä¸Ģåľº":5819,"ä¸Ģå°ıæĹ¶":5820,"èµ«å°Ķ":5821,"åŁĭ":5822,"éķ¿è¾¾":5823,"è¢«æįķ":5824,"èĭ¯":5825,"çĶĺèĤĥ":5826,"oh":5827,"çļĦè§Ĵèī²":5828,"çĶ«":5829,"åľºæĻ¯":5830,"ç°":5831,"çļĦä¸ĢäºĽ":5832,"å·´å°Ķ":5833,"æī¿è¯º":5834,"ä¼¼ä¹İ":5835,"çĤ¸å¼¹":5836,"2019":5837,"éģ¥":5838,"éĽ¾":5839,"å¤©ä½ĵ":5840,"åħļåĳĺ":5841,"éĽ·æĸ¯":5842,"åĲĦä¸ª":5843,"\".":5844,"ĠèĻ½çĦ¶":5845,"é¢Ĩåľ°":5846,"æ¯ıæĹ¥":5847,"æĿ¡ä¾ĭ":5848,"æĺ¯ä¹Įåħĭåħ°":5849,"åħ¬æĸ¤":5850,"åīįåĲİ":5851,"å¤ĸäº¤éĥ¨":5852,"å¸Ĳ":5853,"æķ°çļĦ":5854,"çłĶåıĳ":5855,"èĢĥè¯ķ":5856,"åľ¨åı°æ¹¾":5857,"éħįå¤ĩ":5858,"è¾¹ç¼ĺ":5859,"ä»ħæľī":5860,"åĬłåĪ©ç¦ı":5861,"éģĵå¾·":5862,"our":5863,"è¹Ī":5864,"Sh":5865,"éħ·":5866,"çĪ±æĥħ":5867,"ä¼ļè®®åĳĺ":5868,"ä¸¤ä¾§":5869,"æ¡Ĩ":5870,"å¸¸åĬ¡":5871,"æĶ¯ä»ĺ":5872,"äººæ°ĳå¸ģ":5873,"èıĬ":5874,"æ²¿éĿ©":5875,"æĬµæĬĹ":5876,"ä¸ĢåĪĩ":5877,"å¹¶çĶ±":5878,"æĸĩæĺİ":5879,"ç§¯åĪĨ":5880,"1åı·":5881,"ĠèĥĮæĻ¯":5882,"ĠIn":5883,"åľ°è´¨":5884,"æľ¬äºº":5885,"åįģæľĪ":5886,"åĮħåĽ´":5887,"çĽĳå¯Ł":5888,"åħ¬å¼ĢèµĽ":5889,"ce":5890,"çļĦå¹³åĿĩ":5891,"å¤¹":5892,"å¤ļäºº":5893,"åı¦ä¸Ģæĸ¹éĿ¢":5894,"è¥¿ä¾§":5895,"å¹³è¡¡":5896,"ç¦ıå·ŀ":5897,"äºİ192":5898,"æĢĢçĸĳ":5899,"åĮºåĨħ":5900,"äºīåıĸ":5901,"ä¸ŃåĽ½å¤§éĻĨçļĦ":5902,"è¾ŀèģĮ":5903,"åľ¨èĭ±åĽ½":5904,"çĶŁåŃĺ":5905,"å¼Ģå¹ķ":5906,"è¨Ģè®º":5907,"èĥĨ":5908,"çļĦä½įç½®":5909,"åı¯è§ģ":5910,"åĿĤ":5911,"èĤł":5912,"éĥ½åľ¨":5913,"ä¼¯çĪµ":5914,"æ¸¸æĪıçļĦ":5915,"è¤":5916,"å¼ıæľĪåı°":5917,"åĩºçİ°äºĨ":5918,"å·¡æ´ĭ":5919,"Ġä¸ŃåĽ½":5920,"åŃķ":5921,"æīĭæľ¯":5922,"åºĨç¥Ŀ":5923,"çĲīçĲĥ":5924,"æĪĲäºĨ":5925,"è®¾äºİ":5926,"æĮģæľī":5927,"æī£":5928,"å·¥ä½ľå®¤":5929,"æ±¡æŁĵ":5930,"åıĳæĮ¥":5931,"æīĢéĩĩçĶ¨":5932,"èĭ±éĩĮ":5933,"å¥ĭ":5934,"éĺ¿æł¹å»·":5935,"æĬ¥çº¸":5936,"æ²ª":5937,"æ£Ģå¯Ł":5938,"è¤Ĳ":5939,"æīģ":5940,"åıĳè¨Ģ":5941,"éĺ¿éĩĮ":5942,"åĲ«æľī":5943,"çŃĸçķ¥":5944,"åĤ¬":5945,"é¼ĵåĬ±":5946,"178":5947,"èĥľåĩº":5948,"çŁŃæļĤ":5949,"åľ°åĲį":5950,"éļĭ":5951,"çıĢ":5952,"åħ¶ä¸Ńä¸Ģ":5953,"çº¿ä¸Ĭ":5954,"è¶³å¤Ł":5955,"é¢ĳçİĩ":5956,"é¡·":5957,"ç«ĻçļĦ":5958,"æıĲè®®":5959,"æİ¨èįĲ":5960,"çĪ±å¾·åįİ":5961,"èīºæľ¯å®¶":5962,"Ġ12":5963,"åĲ§":5964,"ice":5965,"æ®ĸæ°ĳåľ°":5966,"è¥Ħ":5967,"åĪĻåľ¨":5968,"Ġæį®":5969,"è°Ń":5970,"é¢ģåıĳ":5971,"åĩĮæĻ¨":5972,"è¯±":5973,"ç¬¦åı·":5974,"Ġw":5975,"éĹ²":5976,"åĩºåĶ®":5977,"ä¸ľä¾§":5978,"è¾¾å·ŀ":5979,"åıĺä¸º":5980,"å¤§èģĶçĽŁ":5981,"åįķçĭ¬":5982,"çĻ»åľº":5983,"èĵĿèī²":5984,"æĮĸ":5985,"åħ¶ä¸ŃçĶ·æĢ§":5986,"Ġåľ°æĸ¹":5987,"çº¤":5988,"æĪĲå°±":5989,"ä¸īæľĪ":5990,"éĢıéľ²":5991,"åĩī":5992,"åľºåľ°":5993,"åĶĲæľĿ":5994,"åľ¨196":5995,"æĪĺå£«":5996,"æµ·å¹³éĿ¢":5997,"ä¿ĦåĽ½":5998,"ä½įäºİä¸ŃåĽ½":5999,"éĻĦå±ŀ":6000,"ith":6001,"éĢĤåºĶ":6002,"å¢ĥåĨħåħ±æľī":6003,"äºļçĽ®":6004,"è½¦éĺŁ":6005,"çĽ´å¾Ħ":6006,"åĻ¨çļĦ":6007,"åĨĻä½ľ":6008,"èµŀåĬ©":6009,")ãĢģãĢĬ":6010,"å¼ĹéĩĮ":6011,"è¿½æº¯":6012,"é¢ģå¥ĸ":6013,"åĩŃåĢŁ":6014,"å°Ķå¤«":6015,"éĿĴå²Ľ":6016,"è¥¿æİ¥":6017,"é¢Ī":6018,"åĪ¶çīĩ":6019,"æīĢå¤ĦçļĦ":6020,"æł¼ä¸º":6021,"åı²å¯Ĩ":6022,"1958å¹´":6023,"æĽ¿ä»£":6024,"ç¬¬ä¹Ŀ":6025,"èģĶç»ľ":6026,"æ²³çļĦ":6027,"èº«åĪĨ":6028,"çĵ¦å°Ķ":6029,"èĸª":6030,"æĺ¯åĽłä¸º":6031,"é¹ħ":6032,"äºİ2016å¹´":6033,"92":6034,"æ°¨":6035,"åħ¬äº¤":6036,"æŃ£éĿ¢":6037,"ä»ĸä»¬åľ¨":6038,"ff":6039,"åĽĽæľĪ":6040,"äººåı£ä¸º":6041,"åĢ¾åĲĳ":6042,"86":6043,"åĲŀ":6044,"æĿĳèĲ½":6045,"çļĦå½¢å¼ı":6046,"ä¸¤ä½į":6047,"æĻ®é²ģ":6048,"èħĶ":6049,"æ£ķ":6050,"æľªæľī":6051,"ä¸Ńåįİäººæ°ĳåħ±åĴĮåĽ½æĶ¿æ²»äººçī©":6052,"çļĦæĸ¹æ³ķ":6053,"æĹłçĹĩçĬ¶":6054,"éĽĨåĲĪ":6055,"1948å¹´":6056,"åįļå£«åŃ¦ä½į":6057,"çļĦæĢ»":6058,"æĽ°":6059,"æ±īæĹı":6060,"æ²³åįĹçľģ":6061,"æ¸¸åĩ»":6062,"è¶³åįı":6063,"å®£ç§°":6064,"æĸ¥":6065,"å¥¶":6066,"å½ĵæĹ¥":6067,"æŃ£ç¡®":6068,"\"),":6069,"93":6070,"åľ¨ä»ĸ":6071,"åĬ²":6072,"å¿ĺ":6073,"ç§ĳå°Ķ":6074,"åľ¨æĸ°":6075,"å·¡æ´ĭèĪ°":6076,"Ġæľī":6077,"é«ĺè¾¾":6078,"å¤©åĲİ":6079,"é¢Ħç®Ĺ":6080,"åĲ¸æĶ¶":6081,"Ar":6082,"éķ¿æ²Ļ":6083,"Ġ2006å¹´":6084,"æī©å¼ł":6085,"ç«ŀèµĽ":6086,"å½ĵéĢīä¸º":6087,"åĨķ":6088,"åĽ½åĨĽ":6089,"åı¤èĢģ":6090,"éºŁ":6091,"000äºº":6092,"73":6093,"ç§ĳçļĦåħ¶ä¸Ńä¸Ģç§į":6094,"åĽĬ":6095,"æĹ¶åĢĻ":6096,"æ³ķè¯Ń":6097,"è¶³çĲĥéĺŁ":6098,"æµ·æĭĶä¸º":6099,"æĸĩèīº":6100,"åī§åľº":6101,"æ¯ıå¤©":6102,"åŁ¹åħ»":6103,"çĲª":6104,"åħ¬åĳĬ":6105,"è¥¿éĩĮ":6106,"æĪĳçļĦ":6107,"åĲ»":6108,"èĪŀè¹Ī":6109,"éĴĵ":6110,"å·²çŁ¥":6111,"åĨ³è®®":6112,"å¹²éĥ¨":6113,"èľľ":6114,"æľºçļĦ":6115,"æ°Ķåİĭ":6116,"ç¢§":6117,"Ġåľ£":6118,"æģ©çľģ":6119,"Un":6120,"iaĠ":6121,"Ġ0":6122,"éĿŀæ³ķ":6123,"è±«":6124,"ç¢±":6125,"éŃģ":6126,"ä¸¥æł¼":6127,"éģŃéģĩ":6128,"æķĪåºĶ":6129,"å®´":6130,"èĪ¹åıª":6131,"äºĴçĽ¸":6132,"è¿Ļé¡¹":6133,"å®īä¸ľ":6134,"çĶµæ°Ķ":6135,"æĹłè®º":6136,"äº«å¹´":6137,"è¶³çĲĥè¿ĲåĬ¨åĳĺ":6138,"éĢĲæŃ¥":6139,"é¸Łç±»":6140,"åīª":6141,"åĪĽå§ĭ":6142,"åĪ¶ä½ľçļĦ":6143,"æİł":6144,"åĲĪæ³ķ":6145,"æ¼ı":6146,"å¸ĤæĶ¿":6147,"åĲĮæĹ¥":6148,"è¶ħè¶Ĭ":6149,"è®¾è®¡çļĦ":6150,"15å¹´":6151,"åĪĨåĮº":6152,"å§ľ":6153,"ç¾İåĽ½çļĦ":6154,"è§Ĩè§ī":6155,"å¤§å¸Ī":6156,"èĢģå¸Ī":6157,"è¶³çĲĥä¿±ä¹Ĳéĥ¨":6158,"åģ¶åĥı":6159,"å§ĭå»ºäºİ":6160,"æĪĲéĥ½":6161,"ç©·":6162,"å¤ĸéĥ¨":6163,"åĬłéĢŁ":6164,"å½¢çĬ¶":6165,"åıĳçĶŁåľ¨":6166,"å®¡åĪ¤":6167,"å½ķå½±":6168,"åıĮæīĵ":6169,"å¤§éĺª":6170,"æ£ī":6171,"æļ¨":6172,"é¢Ħæµĭ":6173,"æııç»ĺ":6174,"æł½åŁ¹":6175,"æĿ¥è¶Ĭ":6176,"çĽ´éļ¶":6177,"Ġä¸Ń":6178,"åĴ¨":6179,"äºİ2015å¹´":6180,"åĽłåħ¶":6181,"1946å¹´":6182,"ä»İæŃ¤":6183,"ç¾¤ä½ĵ":6184,"æķĳæı´":6185,"åħħæ»¡":6186,"åĵĪå°Ķæ»¨":6187,"åĪł":6188,"æĹ¶åĮº":6189,"çº¦æľī":6190,"éĶĲ":6191,"æ¸¸å®¢":6192,"åĪĽæĸ°":6193,"æļĸ":6194,"ä¸»ä¹īçļĦ":6195,"èĭıä¸¹":6196,"ä»ĸæĽ¾ä»£è¡¨":6197,"è·µ":6198,"ä¸īäºº":6199,"æİ¥ä»»":6200,"æºĥ":6201,"æĵħ":6202,"åģĩè®¾":6203,"å¤ıä»¤æĹ¶éĹ´":6204,"ĠandĠ":6205,"çĲĨå·¥":6206,"æģŃ":6207,"éĤª":6208,"å¯»æ±Ĥ":6209,"éĥ¨ç½²":6210,"æĶ¶åĪ°":6211,"æ¨¡æĭŁ":6212,"è¶ĬæĿ¥è¶Ĭ":6213,"æĸĹäºī":6214,"æĸ©":6215,"æ¯ħ":6216,"æļĤåģľ":6217,"ç¦ıå»ºçľģ":6218,"çļĦç¾İåĽ½":6219,"å½±åĥı":6220,"èĮħ":6221,"åĽĽå·Ŀçľģ":6222,"æĺ¯ä¸º":6223,"âĢĿ)":6224,"èģĶç½ĳ":6225,"ç§°åĳ¼":6226,"1981å¹´":6227,"éĺ¿å°Ķåįĳ":6228,"Ġä¸ĭ":6229,"çļĦåİŁåĽł":6230,"å¸½":6231,"çĲĨæĥ³":6232,"éħįç½®":6233,"åĬłåħ¥äºĨ":6234,"è¿ģèĩ³":6235,"çļĦåĲįåŃĹ":6236,"å¼Ģå§ĭåľ¨":6237,"ç¨Ģ":6238,"è§Ĵåº¦":6239,"åĽ½éĻħæľºåľº":6240,"1979å¹´":6241,"82":6242,"ç§©":6243,"183":6244,"æĹıç¾¤":6245,"åĽ¾åĥı":6246,"ube":6247,"Ġæĺ¯":6248,"ä»¥ä¾¿":6249,"è¾ĵåĩº":6250,"æīĢåľ¨åľ°":6251,"è¡Įä¸ļ":6252,"å·¥èīº":6253,"æīĭæ®µ":6254,"èªĵ":6255,"æļĤæĹ¶":6256,"åĩ¶":6257,"å»ĸ":6258,"å±łæĿĢ":6259,"ä¸ľæµ·":6260,"çĽ´æĴŃ":6261,"ä¼ĬåĪ©":6262,"ä¾Ŀèµĸ":6263,"äºİ2014å¹´":6264,"èģļéĽĨ":6265,"åĲİè¢«":6266,"åģľè½¦":6267,"æĹłçĹĩçĬ¶æĦŁæŁĵèĢħ":6268,"éĺ¿å°Ķåįĳæĸ¯":6269,"å¸¸å§Ķ":6270,"æĺŁçŃīä¸º":6271,"ä½İäºİ":6272,"IP":6273,"æĢķ":6274,"äºİ190":6275,"ç»Ħç»ĩçļĦ":6276,"ç¼´":6277,"ä¸¾åĬŀçļĦ":6278,"ç¹ģæ®ĸ":6279,"è·¯æĺĵæĸ¯":6280,"èĤºçĤİ":6281,"åľ¨ä¸Ģèµ·":6282,"æĸ¯åį¡":6283,"åĪ¶ä½ľäºº":6284,"éĹ»åĲį":6285,"com":6286,"ç«Ł":6287,"æķĻå®Ĺ":6288,"äºĮæľĪ":6289,"èĤ¤":6290,"åħ±åĴĮåħļ":6291,"å¸ĸ":6292,"ç½Ĺä¼¯çī¹":6293,"ont":6294,"åľ¨åĮĹäº¬":6295,"ä¸ŃæľĢ":6296,"åĲĮæĹ¶è¯¥åľ°":6297,"96":6298,"ãĢĭãĢĬ":6299,"ä¾£":6300,"åĪ¶æĪĲ":6301,"å·¨å¤§":6302,"åħĭå°Ķ":6303,"ç»´å¤ļ":6304,"èĲ½æĪĲ":6305,"éŀĭ":6306,"8äºº":6307,"çļĦè¯Ŀ":6308,"äºİ2012å¹´":6309,"5ä¸ª":6310,"5ç±³":6311,"åŃ¦ç§ĳ":6312,"å®¤åĨħ":6313,"æıĲåĩºäºĨ":6314,"åĨħéĻĨçľģä»½":6315,"æ¼ł":6316,"çº¢åĨĽ":6317,"äºİ2018å¹´":6318,"ph":6319,"ä¿ĿéĻ©":6320,"èĴ²":6321,"çĶ°å¾Ħ":6322,"çļĦæĥħ":6323,"ä¼ļæľī":6324,"æľªçŁ¥":6325,"å¯ĨåĪĩ":6326,"è´¹çĶ¨":6327,"å°¿":6328,"è®¤åı¯":6329,"æ¶Īéĺ²":6330,"èĩ³2":6331,"å¤©åłĤ":6332,"éĺ²ç©º":6333,"è¾ħåĬ©":6334,"Ġä¸º":6335,"è½©":6336,"ä¸»äºĭ":6337,"èĭ±åĳİ":6338,"äº¤ç»Ļ":6339,"äºĶä¸ª":6340,"çłĶç©¶éĻ¢":6341,"è§Ĥçľĭ":6342,"ver":6343,"éĤ±":6344,"æīĵçł´":6345,"æ¡¥æ¢ģ":6346,"1978å¹´":6347,"||":6348,"ä¸ĢèģĮ":6349,"ç½Ĺå¾·":6350,"ç¨£":6351,"è®¤è¯ģ":6352,"èĩªæĪĳ":6353,"è·¯æ®µ":6354,"çĭ¬ç«ĭçļĦ":6355,"åĨĴéĻ©":6356,"éĥ¨éĥ¨éķ¿":6357,"çĲĨçĶ±":6358,"å§Ķæīĺ":6359,"åķĨåºĹ":6360,"çĶ»å®¶":6361,"æľĢé«ĺçļĦ":6362,"å«©":6363,"ä¼ļè¯ķ":6364,"çī¹åĮº":6365,"äºİ2017å¹´":6366,"æ£ĴçĲĥ":6367,"âĢĺ":6368,"æĪĺéĺŁ":6369,"èĢ¶ç¨£":6370,"å¡ŀå°Ķç»´äºļ":6371,"å¥ł":6372,"äººæĿĥ":6373,"å·´æĭī":6374,"éĩıåŃĲ":6375,"åī¯ä¹¦è®°":6376,"èģļèĲ½":6377,"ah":6378,"å¤©æ°Ķ":6379,"èµĦåĬ©":6380,"èĬĤåº¦":6381,"ç¬¬4":6382,"æ¼ĶåĮĸ":6383,"æĶ¹è¿Ľ":6384,"å¼ĹéĽ·":6385,"åıĳè¡ĮçļĦ":6386,"Ġç®Ģä»ĭ":6387,"ä»¥ä¸ĬçļĦ":6388,"æĶ¹ç§°":6389,"è¯Ħä¸º":6390,"é£ŁçĶ¨":6391,"æĴ¤éĢĢ":6392,"å¤©æĸĩåı°":6393,"AS":6394,"æľ¬ä½ľ":6395,"åĬłåĵ¥":6396,"æī©å»º":6397,"ly":6398,"å½±è§Ĩ":6399,"æłĹ":6400,"åħ¶ä¸Ńä¸Ģä¸ª":6401,"çļĨä¸º":6402,"çĽ¸åĲĮçļĦ":6403,"èĬĿåĬłåĵ¥":6404,"ç©´":6405,"éĢļçŁ¥":6406,"åİŁåħĪ":6407,"é©¬ä¸ģ":6408,"çĤ¼":6409,"åº§æłĩä¸º":6410,"æ´Ľåħĭ":6411,"çĻ¾ä¸ĩ":6412,"ich":6413,"è´§è¿Ĳ":6414,"è½°çĤ¸æľº":6415,"ĠæĽ¾ç¥ĸ":6416,"ä»¥æŃ¤":6417,"ä¸įæķĮ":6418,"ä½įäºİè¯¥":6419,"Ġåľ°æĸ¹èµĦæĸĻ":6420,"çļĦæĹ¥":6421,"äººæ°ĳä»£è¡¨å¤§ä¼ļ":6422,"æ¤İ":6423,"äºİ2013å¹´":6424,"å¤§å¤«":6425,"èĭ¹":6426,"å±ķçİ°":6427,"çļĦæĿĳåºĦ":6428,"çº³åħ¥":6429,"è®¸åı¯":6430,"ç»¥":6431,"çľł":6432,"çī¹æľĹ":6433,"æĸ¹éĿ¢çļĦ":6434,"è´§çī©":6435,"çİĭåŃĲ":6436,"åıªè¦ģ":6437,"é¸Ń":6438,"ä¸ºæĸ°":6439,"æĹ¶æĬ¥":6440,"ä¸ĭä¸Ģ":6441,"è¿Ļåº§":6442,"ä¼Ĺè®®éĻ¢":6443,"èħ¿":6444,"æ¶µçĽĸ":6445,"io":6446,"Ġäº¤éĢļ":6447,"æĪĺæĸĹæľº":6448,"æł¼å°Ķ":6449,"éľŀ":6450,"çº¦çĳŁ":6451,"åį³å°Ĩ":6452,"ç¬¬ä¸Ģä½į":6453,"åħ«æľĪ":6454,"æĥ³è¦ģ":6455,"äºİ2019å¹´":6456,"æŃ»åĪĳ":6457,"è´¢äº§":6458,"und":6459,"éªļ":6460,"åģļåĩº":6461,"cn":6462,"å··":6463,"æľīè®¸å¤ļ":6464,"ä¸įè¦ģ":6465,"ä¸ĥæľĪ":6466,"åıĽä¹±":6467,"ä¸Ĭéĺµ":6468,"æľ¬çº¿":6469,"åĨħèĴĻåı¤":6470,"ç§°åı·":6471,"ç«ŀæĬĢ":6472,"ug":6473,"äºĶåįģ":6474,"1941å¹´":6475,"è½¯ä½ĵ":6476,"ä¸¸":6477,"äºİ2020å¹´":6478,"æĸ¹ä¾¿":6479,"å¨ħ":6480,"èħº":6481,"å¤ļåĲį":6482,"æľįè£ħ":6483,"åĲĮæĹ¶ä¹Ł":6484,"éģŃåıĹ":6485,"97":6486,"è¿Ľåħļ":6487,"ä¹¦ä¸Ń":6488,"åįķåħĥ":6489,"èħĵ":6490,"åĮºéĹ´":6491,",),":6492,"æ¶Ľ":6493,"æŁ¥çĲĨ":6494,"å·¦ç¿¼":6495,"å¤§ä½¿é¦Ĩ":6496,"éĩįéĩı":6497,"åĽŀå¿Ĩ":6498,"çļĦæĶ¿æ²»":6499,"æĭīçī¹":6500,"èį¡":6501,"ock":6502,"ä¸ľäºļ":6503,"è°Ĭ":6504,"éĩĳå±±":6505,"è£ģåĪ¤":6506,"åĮºåĪĨ":6507,"èµ·åĪĿ":6508,"å¨¶":6509,"çĽ´åįĩ":6510,"ç¤¾ç¾¤":6511,"åĮĹæµ·éģĵ":6512,"ai":6513,"ey":6514,"è°ĥå¿«":6515,"1944å¹´":6516,"ry":6517,"æ²³è°·":6518,"è¿Ľè¡ĮçļĦ":6519,"åĨĻéģĵ":6520,"æ¶īå«Į":6521,"9äºº":6522,"ä¹ĭä¸º":6523,"èĲ¥ä¸ļ":6524,"åį«éĺŁ":6525,"é±¼éĽ·":6526,"åĪĨå¸ĥåľ¨":6527,"è®¼":6528,"è¯¥çīĩ":6529,"éĺ³å¸Ĥ":6530,"ä¼łç»ŁçļĦ":6531,"æķĮäºº":6532,"æŃ¤ç«Ļ":6533,"ç©ºè¢Ń":6534,"åįıå®ļ":6535,"162":6536,"ä¸ºUTC":6537,"ç§įç±»":6538,"è¾Ĳå°Ħ":6539,"æĺ¯åı°æ¹¾":6540,"ä»¥ä¸ľ":6541,"çī¹å°Ķ":6542,"éĵĥ":6543,"åł¤":6544,"å¾ģæľį":6545,"èŀįåĲĪ":6546,"çļĦä¸į":6547,"æ³ķä»¤":6548,"ä½ĨåĽł":6549,"æł¼éĽ·":6550,"éĿĴå°ĳå¹´":6551,"åĺīä¹ī":6552,"æ¯Ĺ":6553,"æĬĦ":6554,"æİ©":6555,"åıĤæķ°":6556,"è¿ŀè½½":6557,"åĻ¶":6558,"ceĠ":6559,"åıĤè®®éĻ¢":6560,"æ¯ıåĳ¨":6561,"æĪĺæľ¯":6562,"è½¬çļĦ":6563,"éĩįè§Ĩ":6564,"):":6565,"è¥¿æĸ¯":6566,"åı¯åľ¨":6567,"é¢ĨåħĪ":6568,"ç»ĪçĤ¹":6569,"ç£·":6570,"è§īå¾Ĺ":6571,"Ġ2005å¹´":6572,"æ³ķåħ°åħĭ":6573,"èĪĮ":6574,"å¦Ĥä»Ĭ":6575,"æħ°":6576,"è°ĥå¿«ä¸Ģå°ıæĹ¶":6577,"çĢ":6578,"éĥģ":6579,"177":6580,"å§Ķåĳĺä¼ļå§Ķåĳĺ":6581,"æ¿Ĵ":6582,"ä¾įéĥİ":6583,"èĩĤ":6584,"æĪĲçĨŁ":6585,"å¸ĥæľĹ":6586,"ç¤¾äº¤":6587,"åį³UTC":6588,"è®¾æľīå¤ıä»¤æĹ¶éĹ´":6589,"çļĦæĹ¶åĮºä¸ºUTC":6590,"èĢĮè¯¥åľ°æīĢéĩĩçĶ¨":6591,"åĲĮæĹ¶è¯¥åľ°è®¾æľīå¤ıä»¤æĹ¶éĹ´":6592,"èĢĮè¯¥åľ°æīĢéĩĩçĶ¨çļĦæĹ¶åĮºä¸ºUTC":6593,"æ¼Ķè®²":6594,"åį¡æĸ¯":6595,"åįķä¸Ģ":6596,"è¿Ļåľº":6597,"éķĩåĮºçļĦ":6598,"äº¤æ±ĩ":6599,"æ»¡æ´²":6600,"å»¶ç»Ń":6601,"84":6602,"ä»£çļĦ":6603,"éĢļå¾Ģ":6604,"çĥ¯":6605,"ess":6606,"çĪµå£«":6607,"å·¥ä¼ļ":6608,"åŁİçļĦ":6609,"ä»İæľª":6610,"åŀĭåı·":6611,"MV":6612,"Ġåħ¶":6613,"è´·":6614,"æĦŁè§ī":6615,"1972å¹´":6616,"ç²īä¸Ŀ":6617,"é«ĺäºİæµ·å¹³éĿ¢":6618,"110":6619,"æĢ»çĽĳ":6620,"æį·åħĭ":6621,"è¯¥åħ¬åı¸":6622,"7æľĪ1æĹ¥":6623,"æĮ¡":6624,"ä½Ļäºº":6625,"æİĴè¡Įæ¦ľ":6626,"çļĦæľĢ":6627,"ä¼ļè¢«":6628,"åİ¿çŁ¥åİ¿":6629,"çĽ¸å½ĵäºİ":6630,"æīĢå¤ĦçļĦæµ·æĭĶä¸º":6631,"æīĢå¤ĦçļĦæµ·æĭĶä¸ºé«ĺäºİæµ·å¹³éĿ¢":6632,"ä¸Ģç³»åĪĹ":6633,"ä¹ĭå¤Ħ":6634,"éĥ½è¢«":6635,"æŃ£æľĪ":6636,"è¡¥åħħ":6637,"åº¶":6638,"æľīèĳĹ":6639,"çİ²":6640,"åŃĲå¥³":6641,"Ġ190":6642,"æķĻèĤ²éĥ¨":6643,"Ġf":6644,"éªĹ":6645,"ä¼¤äº¡":6646,"å®īå¾½çľģ":6647,"Go":6648,"å¸Ĩ":6649,"ä¸»å¯¼":6650,"æĸ°åĨł":6651,"å¤§éĿ©åĳ½":6652,"èģª":6653,"æĦ¤":6654,"ä¿Ŀè¯ģ":6655,"æĻ®ç½Ĺ":6656,"åıĤä¸İäºĨ":6657,"æĹłäººæľº":6658,"å¼ĵ":6659,"åľ°å½¢":6660,"çİ°åŃĺ":6661,"åķĨäºº":6662,"ox":6663,"Ġåı°æ¹¾":6664,"æ°¸ä¹ħ":6665,"700":6666,"æĪĺåľº":6667,"åĲĪåĲĮ":6668,"æł¼éĩĮ":6669,"é²¸":6670,"ä½¿çĶ¨äºĨ":6671,"æĹ©ä¸Ĭ":6672,"1976å¹´":6673,"è¯¦ç»Ĩ":6674,"ç»´å¤ļåĪ©äºļ":6675,"aw":6676,"èįĨ":6677,"äºİ2010å¹´":6678,"èĦ±ç¦»":6679,"ç»ĺçĶ»":6680,"æµ·ä¸Ĭ":6681,"åħ·å¤ĩ":6682,"å¾Īå°ĳ":6683,"äºĴåĬ¨":6684,"çİ°åľ¨çļĦ":6685,"å·ŀéķ¿":6686,"å°¼åı¤":6687,"å²Ľä¸Ĭ":6688,"çĵ¶":6689,"å¡Ķå°Ķ":6690,"çĻ»è®°":6691,"1956å¹´":6692,"81":6693,"éĿ¢ä½ĵ":6694,"æ¡Į":6695,"ä¼łæķĻ":6696,"åį³åĮĹç¾İ":6697,"æĮĩæĮ¥å®ĺ":6698,"æĺ¯ä¿Ħç½Ĺæĸ¯":6699,"äºİ2021å¹´":6700,"ç¥¯":6701,"è·¯åı£":6702,"å²ĽçļĦ":6703,"äº¬éĥ½":6704,"è¯ºå¤«":6705,"æ¾Ħ":6706,"æ©Ħ":6707,"Sp":6708,"éħ®":6709,"èİ·èĥľ":6710,"åºıåĪĹ":6711,"èĤ¡ä»½æľīéĻĲåħ¬åı¸":6712,"åľ°äºļ":6713,"åįģä¸ĥ":6714,"éĽĨä½ĵ":6715,"94":6716,"IT":6717,"æ¸ł":6718,"æ²³éģĵ":6719,"æİ¢éĻ©":6720,"éķĩåĮºçļĦéĿ¢ç§¯ä¸º":6721,"äº©":6722,"æĽ´å¤ļçļĦ":6723,"åį³ä½į":6724,".âĢľ":6725,"ä½ľä¸ļ":6726,"æĸ½å·¥":6727,"140":6728,"çļĦåıį":6729,"åºĩ":6730,"ä»¥è¥¿":6731,"åĲİåľ¨":6732,"åĪĨä¹ĭä¸Ģ":6733,"æµģä¼ł":6734,"ç¿Įå¹´":6735,"äºĨä»ĸ":6736,"æĢ»è£ģ":6737,"éĢīåĩº":6738,"åĪĩå°Ķ":6739,"ection":6740,"èļĢ":6741,"ä¼Ĭæĸ¯åħ°æķĻ":6742,"çļĦç¥ŀ":6743,"ä¼ŀ":6744,"å§¿":6745,"èĩªç§°":6746,"åĽĽä¸ĸ":6747,"è¾ĸåĮº":6748,"1937å¹´":6749,"æķĪåĬĽäºİ":6750,"å§ĳ":6751,"å¤ļæł·":6752,"å¾·æĦıå¿Ĺ":6753,"éĤĳ":6754,"å¤Ħéķ¿":6755,".(":6756,"158":6757,"åįĹæŀģæ´²":6758,"æĨ":6759,"åĽ½éģĵ":6760,"åħ¬é¡·":6761,"164":6762,"MA":6763,"çļĦè¡Įä¸º":6764,"ä¸»åĬ¨":6765,"èĬŃ":6766,"æ©Ħæ¦Ħ":6767,"6ä¸ª":6768,"ç»ĳ":6769,"è¡Įäºº":6770,"èĩ´åĬĽ":6771,"çģŃç»Ŀ":6772,"ä½Ľç½ĹéĩĮ":6773,"çļĦæŃĮæĽ²":6774,"çļĦåŁºç¡Ģ":6775,"ç»´åŁº":6776,"æĿŃå·ŀ":6777,"ĠæĹ¥æľ¬":6778,"ä»Ĩ":6779,"åºļ":6780,"æ³Ħ":6781,"åĨħåľ°":6782,"æ»ķ":6783,"éŃĶæ³ķ":6784,"km":6785,"ä»ĸä¸º":6786,"äºĮçº§":6787,"æ¤ħ":6788,"äºĴèģĶç½ĳ":6789,"åľ¨ä½į":6790,"ä¹Łæ²¡æľī":6791,"æĶ¹å»º":6792,"83":6793,"å®¹çº³":6794,"ä¸»æĮģäºº":6795,"æľĢä¸º":6796,"ç»ıçĶ±":6797,"å·´åĭĴ":6798,"1952å¹´":6799,"ä¸ľåįĹäºļ":6800,"æ±īåŃĹ":6801,"ect":6802,"ç¥Ī":6803,"éĢļçĶ¨":6804,"çĽ¸åıį":6805,"çıŃæ¬¡":6806,"ie":6807,"çĪ·":6808,"å°ĳå°Ĩ":6809,"åĩºåľº":6810,"æĶ¿åıĺ":6811,"æ°Ķä½ĵ":6812,"1938å¹´":6813,"éĥ¨å°ļä¹¦":6814,"è¢«åĳĬ":6815,"æ²¿å²¸":6816,"ign":6817,"ä¸İæŃ¤":6818,"1947å¹´":6819,"çĸ«èĭĹ":6820,"ib":6821,"å±±è¥¿çľģ":6822,"åħŃæľĪ":6823,"ç¾¤ä¼Ĺ":6824,"per":6825,"ĠçĶ±":6826,"åŃ¦ç³»":6827,"ç½©":6828,"åķĨåľº":6829,"157":6830,"çļĦéĿ¢ç§¯":6831,"çļĦæīĢæľī":6832,"æĺ¯ä¸ª":6833,"ä»¥1":6834,"ãĢĭãĢģ":6835,"åĬłå°Ķ":6836,"åį«è§Ĩ":6837,"æ¡£æ¡Ī":6838,"çļĦç»ĵæŀľ":6839,"æ¼Ķèīº":6840,"1955å¹´":6841,"èĭ¹æŀľ":6842,"14å¹´":6843,"ook":6844,"å¹¶æĹł":6845,"æ¸¯åħĥ":6846,"åķ¡":6847,"åĬ£":6848,"æĭħå¿ĥ":6849,"æĶ»åįł":6850,"Pro":6851,"çº§èģĶèµĽ":6852,"æħİ":6853,"Ġä¸ªäºº":6854,"å®ŀä½ĵ":6855,"ãĢĭ(\"":6856,"éĢ¸":6857,"å¸ĥéĽ·":6858,"è¿ŀç»ĵ":6859,"äºİ2011å¹´":6860,"ram":6861,"son":6862,"å±±åİ¿":6863,"æĥ§":6864,"æ¸ħæ¥ļ":6865,"é¹ı":6866,"æİ¢ç´¢":6867,"çļĦçĶµ":6868,"éķĩåİĭ":6869,"æĻ®é²ģå£«":6870,"ð«":6871,"éķĳ":6872,"éķ¿çº¦":6873,"1980å¹´ä»£":6874,"æł¸éħ¸":6875,"æŀ¶æŀĦ":6876,"è´ª":6877,"çŁ®":6878,"çĥ·":6879,"å¼ķçĶ¨":6880,"åĢ¼å¾Ĺ":6881,"åĪ¤åĨ³":6882,"ç¬¬5":6883,"æ°ĳè¿Ľåħļ":6884,"åįķæīĵ":6885,"æĺ¯ä¸Ģä¸ªä½įäºİ":6886,"èľĤ":6887,"HD":6888,"163":6889,"é³ŀ":6890,"ä¸Ńå°Ĩ":6891,"çİ°ä¸º":6892,"ear":6893,"ç»´åħĭ":6894,"PS":6895,"æīĳ":6896,"åĲįäºº":6897,"åĨĽäºº":6898,"æľŁçļĦ":6899,"æĢ»ä¼ļ":6900,"å¥³çİĭ":6901,"æĶ¾åľ¨":6902,"æ¨±":6903,"çļĦä¸ĢæĿ¡":6904,"ç¦ıå¾·":6905,"è¡ĮæĶ¿éĻ¢":6906,"æĪĲç«ĭäºĨ":6907,"éĴ¢çĲ´":6908,"...":6909,"Ġä¸»è¦ģ":6910,"è´¼":6911,"åħ±è®¡":6912,"æł¼æŀĹ":6913,"äºİ2022å¹´":6914,"å¹³çŃī":6915,"è°´":6916,"çº³å·ŀ":6917,"è¸ı":6918,"å½»åºķ":6919,"åĮĹä¾§":6920,"åĪ©çļĦ":6921,"å¤©çļĦ":6922,"å®ŀè·µ":6923,"ä¿ĦåĨĽ":6924,"å»ºçŃĳå¸Ī":6925,"åı²å¯Ĩæĸ¯":6926,"éĢ¾":6927,"åİŁä¸º":6928,"æĺŁç³»":6929,"ä¿®éģĵ":6930,"ä¹¡éķĩ":6931,"æıĲåĩºçļĦ":6932,"oy":6933,"éĩįè¿Ķ":6934,"ä¿®è®¢":6935,"å±ĤçļĦ":6936,"1968å¹´":6937,"å¤«å¦ĩ":6938,"ä¹ĿæľĪ":6939,"æ²³åĮĹçľģ":6940,"ust":6941,"Ġn":6942,"Ġå¯¹":6943,"ä¸»åĬĽ":6944,"åĪĨæł¡":6945,"ä¸ĭäºĨ":6946,"æ±ŁæĪ·":6947,"å¸Įå°Ķ":6948,"åĬ³å·¥":6949,"2åı·":6950,"åĵª":6951,"è¿ªå£«":6952,"çļĦåŁİå¸Ĥ":6953,"åħ¶ä¸º":6954,"çŃĴ":6955,"æĸ°å»º":6956,"æ¡ĥåĽŃ":6957,"YouT":6958,"Ġè¥¿":6959,"åľ°ä¸Ń":6960,"è¡Įèµ°":6961,"æµ·åįĹ":6962,"è¯¥åħļ":6963,"ç»´ä¿®":6964,"çªĦ":6965,"èµĶ":6966,"åįĹä¾§":6967,"æł¼é²ģ":6968,"åĪĹåĩº":6969,"1939å¹´":6970,"çĶ»éĿ¢":6971,"æķ´åĲĪ":6972,"éĻ¨çŁ³":6973,"Ġé©¬":6974,"å¤´è¡Ķ":6975,"äºĭå®ŀä¸Ĭ":6976,"æķ²":6977,"èĤ¢":6978,"å¼ķè¿Ľ":6979,"ĠçĽ®åīį":6980,"Ġå®¶åºŃ":6981,"åıĹå®³":6982,"å½ķåĪ¶":6983,"å¥½è¯Ħ":6984,"1940å¹´":6985,"çºł":6986,"æĬĽ":6987,"å½ĵä»£":6988,"èĹ»":6989,"ä¼¤å®³":6990,"çĲĨæŁ¥":6991,"å§Ķä»»":6992,"è¯ģåĪ¸":6993,"11å¹´":6994,"è¿ªå£«å°¼":6995,"/&":6996,"ä¸Ģéĥ¨":6997,"è¾ĥä½İ":6998,"ä»įåľ¨":6999,"åĲĬ":7000,"è°¥":7001,"å¤©ä¸ĭ":7002,"1954å¹´":7003,"1960å¹´":7004,"çļĦè¯´æ³ķ":7005,"åĨĢ":7006,"äºİ2023å¹´":7007,"æŃ¤åīį":7008,"èµ·è¯ī":7009,"è®®å¸Ń":7010,"1942å¹´":7011,"èĩªè¡Įè½¦":7012,"13å¹´":7013,"åĿŁ":7014,"ä¼Ĭæĭīåħĭ":7015,"çĽŁåĨĽ":7016,"åĩ¸":7017,"åĮºåĪ«":7018,"ä¸»æĿĥ":7019,"éģ®":7020,"ä½¿çĶ¨èĢħ":7021,"çĻ¾å¹´":7022,"åįłæį®":7023,"ä¸ĬäºĨ":7024,"æĥ©":7025,"å®ĺèĩ³":7026,"åĶ¯ä¸ĢçļĦ":7027,"ost":7028,"åľ¨åĮĹ":7029,"äº§çĶŁäºĨ":7030,"toĠ":7031,"ĠéĻ¤äºĨ":7032,"å¤ļé¡¹":7033,"ä»»æķĻ":7034,"å»ºäºİ":7035,"ä¹ŁæĽ¾":7036,"çĽ®çļĦæĺ¯":7037,"åĸĩ":7038,"åİĨåı²åŃ¦å®¶":7039,"çļĦæĹ¥æľ¬":7040,"åĲİæĸ¹":7041,"æĴŀåĩ»":7042,"ach":7043,"ä¸Ģé¡¹":7044,"å°ģä¸º":7045,"è¯Ĺäºº":7046,"æŃī":7047,"è¯ºæĽ¼":7048,"æĥ³æ³ķ":7049,"æľĽè¿ľ":7050,"17å¹´":7051,"Ġåīį":7052,"ĠæĿİ":7053,"ĠçĦ¶èĢĮ":7054,"Ġæķħäºĭ":7055,"æĪĺåĪĹ":7056,"è®¤åĲĮ":7057,"èĥĮé³į":7058,"ç¬¬ä¸Ģæ¬¡ä¸ĸçķĮå¤§æĪĺ":7059,"çĩĥæĸĻ":7060,"è¢«ä»»åĳ½ä¸º":7061,"æĹłçº¿çĶµè§Ĩ":7062,"iz":7063,"çĶľ":7064,"èµ£":7065,"åĪ°çļĦ":7066,"æŃ¦å¸Ŀ":7067,"1943å¹´":7068,"æľµ":7069,"æĶ»æīĵ":7070,"1975å¹´":7071,"ĠèĢĮ":7072,"å±¥":7073,"åĲĮåĲį":7074,"åĪĻæľī":7075,"æłĩè®°":7076,"çĶ·å¥³":7077,"å®ĮæĪĲäºĨ":7078,"æ¬¡äºİ":7079,"æĥħç»ª":7080,"é£ŁæĢ§":7081,"1970å¹´":7082,"æĲºå¸¦":7083,"åħ¬åĬ¡":7084,"é¢ł":7085,"èĭıç»´åŁĥ":7086,"è®®é¢ĺ":7087,"æĤł":7088,"äºİ2009å¹´":7089,"ç»µ":7090,"æĹ¥åĲİ":7091,"åŁİå¢Ļ":7092,"äº¤çķĮ":7093,"èĽĭçĻ½è´¨":7094,"åİ¥":7095,"ä¸Ĭè¯ī":7096,"æĸ¯åł¡":7097,"äº¤åıī":7098,"æ¨¡çī¹":7099,"å¡ŀçº³":7100,"è°´è´£":7101,"åľ¨æ³ķåĽ½":7102,"æ¸Ĭ":7103,"éĻ¤æŃ¤":7104,"åį°ç¬¬":7105,"æĦ¿æĦı":7106,"SS":7107,"èµĽçļĦ":7108,"å®ļæľŁ":7109,"èĬĻ":7110,"æ¢¨":7111,"è¿ĺåľ¨":7112,"ç»ıæµİåŃ¦":7113,"å¢ŀåĬłäºĨ":7114,"ern":7115,"åħĪè¿Ľ":7116,"156":7117,"159":7118,"æ¹ĸæ³Ĭ":7119,"ä¸ĭè¾ĸä»¥ä¸ĭ":7120,"çŁĽçĽ¾":7121,"åį§":7122,"çī©åĵģ":7123,"è¯¥æł¡":7124,"çī¹æľĹæĻ®":7125,"æĺ¯ä¸Ńåįİäººæ°ĳåħ±åĴĮåĽ½":7126,"éĤµ":7127,"éĵģè·¯è½¦ç«Ļ":7128,"æĻºæħ§":7129,"å²©çŁ³":7130,"ç½Ĺå¤«":7131,"åĽ¢ç»ĵ":7132,"åºĶå¯¹":7133,"éĺ³åİ¿":7134,"è°ĭæĿĢ":7135,"ä¸ŃåĽ½åĽ½æ°ĳåħļ":7136,"12æľĪ31æĹ¥":7137,"ä¼Ļä¼´":7138,"çĽ´åįĩæľº":7139,"å¼Ģå·¥":7140,"åĿł":7141,"çĤŃ":7142,"è¿ĳä»£":7143,"eĠC":7144,"åī¥":7145,"ä»£æĽ¿":7146,"è¿ĩçļĦ":7147,"éģĵåħī":7148,"æ²ĻçĶ°":7149,"æľĢæĹ©çļĦ":7150,"çĶŁéķ¿äºİ":7151,"äººæ¬¡":7152,"æĶ¶è´¹":7153,"ç«ĭæ³ķä¼ļ":7154,"Ġä½¿çĶ¨":7155,"æĶ¹åĪ¶ä¸º":7156,"éĥ½çĿ£":7157,"æıĲäº¤":7158,"å¸¸å¸¸":7159,"æ¸ħä»£":7160,"éĢīä¸¾ä¸Ń":7161,"å¦¹å¦¹":7162,"æľĽè¿ľéķľ":7163,"ge":7164,"å¤§éĺŁ":7165,"çº¿æĢ§":7166,"ä»įæľī":7167,"ä¸º0":7168,"å¥¸":7169,"éĩĮåħĭ":7170,"çĲĨå¿µ":7171,"çķħ":7172,"æĽ´æį¢":7173,"au":7174,"az":7175,"æĤ¦":7176,"åıĳçĶŁäºĨ":7177,"èı²åĪ©":7178,"å·¨å¤§çļĦ":7179,"å¼ĢåĬŀ":7180,"çľģçļĦ":7181,"çº³å¾·":7182,"æĹ¥æľ¬çļĦ":7183,"ä¸ĵçĶ¨":7184,"åĵĪåĪ©":7185,"ä¹ĭåĲİçļĦ":7186,"éļ¾æ°ĳ":7187,"é¢ģå¸ĥ":7188,"æŀ¢çº½":7189,"éĢ»è¾ĳ":7190,"åį°ç¬¬å®ī":7191,"æĮĩæķ°":7192,"æĹ¶ä»£çļĦ":7193,"ä¸ªä½ĵ":7194,"æĶ¹åĲį":7195,"æ´Ľæĸ¯":7196,"éĻįéĽ¨":7197,"ial":7198,"æĹ±":7199,"ä»¥2":7200,"æ±ŁåįĹ":7201,"æĺ¯ä¸ºäºĨ":7202,"ä¸»ç®¡":7203,"åĽĽå¤§":7204,"SM":7205,"çļĦåľ°åĮº":7206,"æĶ¿åĬ¡":7207,"å¯¹éĺµ":7208,"æīĢéľĢ":7209,"çĪ±åĽ½":7210,"èµĽä¸Ń":7211,"åħ¨ä½ĵ":7212,"è¯ŃéŁ³":7213,"èģĮåĳĺ":7214,"å¼ºåĪ¶":7215,"æ©¡":7216,"åĲįè¯į":7217,"VD":7218,"è¡Įé©¶":7219,"æİĴåĪĹ":7220,"æµİåįĹ":7221,"(;),":7222,"èĤ©":7223,"è½¬ä¸º":7224,"åįıåķĨ":7225,"ä¹łæĥ¯":7226,"å´ĸ":7227,"åıĤè°ĭéķ¿":7228,"ä¸ºåŁºç¡Ģ":7229,"å¯¹ç§°":7230,"çİ°æľī":7231,"è°ģ":7232,"å¤ĸè§Ĥ":7233,"éĢīç§Ģ":7234,"1964å¹´":7235,"è¿·ä½ł":7236,"å°ĺ":7237,"ä¸Ńåıĳçİ°":7238,"æĹ¥å¸¸":7239,"ä¸īåĽ½":7240,"æĥľ":7241,"æł¼åĭĴ":7242,"ä¹¦åĨĻ":7243,"ç½Ĺé©¬å¸ĿåĽ½":7244,"åĪĳäºĭ":7245,"èĸĩ":7246,"ä¸įå¾Ĺä¸į":7247,"åĲĪåĶ±":7248,"æĢ§åĴĮ":7249,"æİ¥èĳĹ":7250,"æł¹æľ¬":7251,"å¤´éĥ¨":7252,"å¥ĸéĩĳ":7253,"åį°åĪ·":7254,"è¥¿çıŃçīĻè¯Ń":7255,"åĴ¨è¯¢":7256,"16å¹´":7257,"ala":7258,"ç«ĭéĻ¶":7259,"çī²":7260,"ãĢĮãĢį":7261,"æģ¨":7262,";/":7263,"äºĨä»ĸçļĦ":7264,"èµĽè½¦":7265,"æ¢µ":7266,"è½¬ä¼ļ":7267,"å¡Ķå°¼":7268,"èĬĤåº¦ä½¿":7269,"å¯¹è¯Ŀ":7270,"è°į":7271,"èħ°":7272,"ä½įçļĦ":7273,"ä¸¤å²¸":7274,"çĪª":7275,"åĽ¾æ¡Ī":7276,"ä¼ĲåĪ©äºļ":7277,"130":7278,"mer":7279,"è°Ĳ":7280,"ord":7281,"åĩĨç¡®":7282,"åĨłçĬ¶":7283,"è®©ä»ĸ":7284,"åĵĢ":7285,"èĩªæŃ¤":7286,"æŃ¤äºĭ":7287,"é¦ĸåº¦":7288,"é¢ĺæĿĲ":7289,"ä½ıæĪ¿":7290,"çĽĪ":7291,"çĶ¨ä»¥":7292,"ç«ĻæĪ¿":7293,"ç»¼èīº":7294,"åľ¨è¥¿":7295,"æĢ¡":7296,"è§Ĥåħī":7297,"çģ«è½¦":7298,"çļĦåĨħå®¹":7299,"ä»ĸè®¤ä¸º":7300,"é«ĺåİŁ":7301,"å¼¹èį¯":7302,"æĻºèĥ½":7303,"éķľå¤´":7304,"çĥŃå¸¦é£İæļ´":7305,"åŃŁåĬłæĭī":7306,"æ¹ĸåįĹçľģ":7307,"éĵİ":7308,"èĻı":7309,"ark":7310,"æĪĲç«ĭåĲİ":7311,"æİ¢æµĭ":7312,"å½ķå½±å¸¦":7313,"èĩĢ":7314,"äºĨè®¸å¤ļ":7315,"ä¸Ĭå¸Ŀ":7316,"åĬ¨è½¦":7317,"è°¦":7318,"èī²å½©":7319,"äºİ2008å¹´":7320,"é©¬åħĭæĢĿ":7321,"ä¸Ģå¤©":7322,"çĽ¸åºĶ":7323,"é¾ĻçļĦ":7324,"äººä¸º":7325,"ç«£":7326,"ä½ĵåĪ¶":7327,"ç»´ä¹Ł":7328,"ç»§ä»»":7329,"åıĭå¥½":7330,"ç«ĭéĻ¶å®Ľ":7331,"æĪĲæŀľ":7332,"ä½ĵéªĮ":7333,"çĿĽ":7334,"çĻ¾ç§ĳ":7335,"è¡įçĶŁ":7336,"å¼Ħ":7337,"ç§ĳä¼ļè¯ķ":7338,"170":7339,"åĨľåľº":7340,"è¯ĨåĪ«":7341,"çºªå½ķçīĩ":7342,"æĳĩæ»ļ":7343,"çĳľ":7344,"åįĩæł¼ä¸º":7345,"ç¢°":7346,"1936å¹´":7347,"æİĮæı¡":7348,"åĴĸåķ¡":7349,"ä¸»æīĵ":7350,"åİŁæĿ¥":7351,"æĽ¾æĺ¯":7352,"æ·ĳ":7353,"æ±īè¯Ń":7354,"åĲĮæĹ¶ä¹Łæĺ¯":7355,"éĿĴæĺ¥":7356,"æŃ¥æŀª":7357,"çŃ¹å¤ĩ":7358,"Ġå¤©":7359,"æ²¼":7360,"åīįè¿Ľ":7361,"èĤĿ":7362,"çŁ¥åºľ":7363,"æĻ¯è§Ĥ":7364,"çº¦çĳŁå¤«":7365,"æĺ¯ä¸į":7366,"ç¼Ŀ":7367,"Ġç¬¬ä¸Ģ":7368,"æľŃ":7369,"åľ¨éĤ£éĩĮ":7370,"è¿Ļç±»":7371,"ç±³åħ°":7372,"åĪ¤å¤Ħ":7373,"èļģ":7374,"æ¹ĸåĮĹçľģ":7375,"å¤¸":7376,"Ġ11":7377,"çļĦåľ£":7378,"èĪĨ":7379,"2026å¹´":7380,"ç¼ĸåı·ä¸º":7381,"Ġæ¦Ĥè¦ģ":7382,"åľ°äº§":7383,"è´¬":7384,"åħ¨çº¿":7385,"çłĶç©¶çĶŁ":7386,"åĲ¦è®¤":7387,"se":7388,"åľ°ä¸Ĭ":7389,"ä¸»æµģ":7390,"åĬłåĪ©äºļ":7391,"é©±éĢĲèĪ°":7392,"(,;)":7393,"çī¹åħ°":7394,"åĨħæĶ¿":7395,"è¯¥å¸Ĥ":7396,"æİ¥ç®¡":7397,"182":7398,"å®¹éĩı":7399,"èĪªçıŃ":7400,"åįĬå¹´":7401,"åĵ¥åĵ¥":7402,"1966å¹´":7403,"åĽ½éĺ²éĥ¨":7404,"çŁ©éĺµ":7405,",)":7406,"çľģéģĵ":7407,"åħĥæľĿ":7408,"èĿł":7409,"å¥¥æĸ¯åį¡":7410,"æľ¬å±Ĭ":7411,"çĽ¸ç»§":7412,"åħµåĽ¢":7413,"æ³°åĭĴ":7414,"é¢Ħå¤ĩ":7415,"ç®Ĺæ³ķ":7416,"PC":7417,"å®ł":7418,"å¼ĢåĲ¯":7419,"æĪĺèĥľ":7420,"æĳĶ":7421,"71":7422,"ct":7423,"ä¸ºä¸ŃåĽ½":7424,"æµĨ":7425,"è¢«åıĳçİ°":7426,"ç¥Ĳ":7427,"æĶ¹è£ħ":7428,"Ġç¬¬äºĮ":7429,"å±ħä½ıåľ¨":7430,"éĻķè¥¿çľģ":7431,"Ġå°½ç®¡":7432,"ä¹ĭéĻħ":7433,"çģ«çģ¾":7434,"æĪ¿éĹ´":7435,"250":7436,"åĲįè¿Ľå£«":7437,"çī©ä½ĵ":7438,"çļĦæ¦Ĥå¿µ":7439,"ä¸Ģäºº":7440,"ä¸ĢæĶ¯":7441,"ef":7442,"à¸":7443,"æ¼Ĩ":7444,"æİ¨ç¿»":7445,"å¿ĹæĦ¿":7446,"çĻ¾å§ĵ":7447,"æĺ¯ä»İ":7448,"æĪĲåĪĨ":7449,"é¢ĸ":7450,"èĭ±éķĳ":7451,"åĽŀåĽ½":7452,"å®¢æĪ·":7453,"æĹ§åĿĢ":7454,"äºİ2007å¹´":7455,"çļĦä¸ŃåĽ½":7456,"çĮľ":7457,"åŀĤçĽ´":7458,"åįĹæµ·":7459,"åĽłåºĶ":7460,"åĭĺ":7461,"æ²³æµģåŁŁ":7462,"Ġåı¦å¤ĸ":7463,"åħĶ":7464,"æĸ°åĮĹ":7465,"æĸ°ç«¹":7466,"çĶµæ±ł":7467,"åħ¥åĽ´":7468,"å·´ä¼ĲåĪ©äºļ":7469,"æł¡èĪį":7470,"åģļæ³ķ":7471,"ä¼ģåĽ¾":7472,"ç¥Ńç¥Ģ":7473,"äºİæŃ¤":7474,"å¿Į":7475,"éĿ¢åĲĳ":7476,"éĢīæ°ĳ":7477,"äºİåĲĮå¹´":7478,"æľ¬ç§ĳ":7479,"è·Į":7480,"ç§°ä¹ĭä¸º":7481,"ä¿Ŀå®ī":7482,"Play":7483,"éĩįå¤į":7484,"è¾ĥå¤§":7485,"ä¹Įæĸ¯":7486,"è´Łè´£äºº":7487,"1959å¹´":7488,"èĽĽ":7489,"è¿ģç§»":7490,"éĢłæĪĲçļĦ":7491,"ä¼Ĳåħĭ":7492,"çļĦåŃ¦çĶŁ":7493,"è¾Ī":7494,"åıĺæį¢":7495,"Ġ2004å¹´":7496,"ç§©åºı":7497,"ET":7498,"Ġæ¸¸æĪı":7499,"åĲĮæŃ¥":7500,"ath":7501,"ç¬¬åįģä¸ī":7502,"è¿«ä½¿":7503,"éĺħè¯»":7504,"çļĦéķ¿":7505,"æ°®":7506,"ä¸īç§į":7507,"æĹ©åľ¨":7508,"å°ºå¯¸":7509,"ä¸ºè¾Ĳé³įé±¼çº²é²":7510,"å¤§è¡Ĺ":7511,"çī¹æĢ§":7512,"ä¸Ńé¥°æ¼Ķ":7513,"åĲįä¸¾äºº":7514,"å±±çļĦ":7515,"å¤§éĩıçļĦ":7516,"(;)":7517,"EC":7518,"cl":7519,"çī©çļĦ":7520,"èı²å°Ķå¾·":7521,"ä»ĸåĴĮ":7522,"åıĳæİĺ":7523,"èĢĮæĿ¥":7524,"å±±å¸Ĥ":7525,"åĵĪéĩĮ":7526,"ä½ıåľ¨":7527,"éĥİä¸Ń":7528,"hant":7529,"åİ¦éĹ¨":7530,"åĮĸä¸º":7531,"ç¼ĸç»Ħ":7532,"åİī":7533,"åħ¬ä¼ļ":7534,"ä»ĸå¯¹":7535,"åĿŀ":7536,"æŁ¥å°Ķæĸ¯":7537,"æħķå°¼":7538,"ä½ĳ":7539,"åĮł":7540,"å¸ĥåħ°":7541,"å¹²çº¿":7542,"éģĹä¼ł":7543,"é©±åĬ¨":7544,"èµ¢å¾ĹäºĨ":7545,"äºİ2024å¹´":7546,"èĤĩ":7547,"æĽ´æĺ¯":7548,"çľ¼çĿĽ":7549,"çĺ¤":7550,"æĬĳåĪ¶":7551,"çļĦéĺ¿":7552,"å¤§åħ¬":7553,"ä¸»ä½ĵ":7554,"å·´èµ«":7555,"åĵģè´¨":7556,"çĹħéĢĿ":7557,"æĪĺäºīæľŁéĹ´":7558,"æŃ§è§Ĩ":7559,"\"(":7560,"deĠ":7561,"Ġh":7562,"ä¸ºæľŁ":7563,"å¤§å®¶":7564,"çī¹çĤ¹":7565,"æ¡Ĳ":7566,"æıĲåīį":7567,"æµģéĩı":7568,"èľĢ":7569,"En":7570,"section":7571,"æµ¸":7572,"æĮº":7573,"åįĹæĸ¯æĭīå¤«":7574,"ä¸¤æĿ¡":7575,"èŃ¦æĬ¥":7576,"äºĭåĬ¡æīĢ":7577,"ä¸ľäº¬éĥ½":7578,"åİŁçĲĨ":7579,"åķĨåĬ¡":7580,"ç©¿è¿ĩ":7581,"èµĮ":7582,"ä»»åĨħ":7583,"é©¹":7584,"åĩĨåĨ³èµĽ":7585,"åı¤å·´":7586,"æĹ¥è¯Ń":7587,"ä¹Łåı¯":7588,"å®ŀåĬĽ":7589,"çķĮçļĦ":7590,"èº«ä¸Ĭ":7591,"æĥħèĬĤ":7592,"åİ¿çļĦä¸Ģä¸ªéĿŀå»ºåĪ¶åľ°åĮº":7593,"è¤Ĳèī²":7594,"æħķå°¼é»ĳ":7595,"Ġv":7596,"ĠéĻĪ":7597,"æĪĬ":7598,"å®¶ä¹¡":7599,"çĵ·":7600,"èİ±æĸ¯":7601,"åĩłä½ķ":7602,"æĪĺäºīä¸Ń":7603,"éĽķå¡ĳ":7604,"åĨłçĬ¶çĹħæ¯Ĵ":7605,"æľ¬ä¹¦":7606,"æ´Ľå¤«":7607,"1974å¹´":7608,"ä¾Ŀçħ§":7609,"æĿ¥èĩªäºİ":7610,"ç±»ä¼¼çļĦ":7611,"çīµå¼ķ":7612,"ç»´ä¹Łçº³":7613,"IV":7614,"åĲİæĿ¥çļĦ":7615,".)":7616,"åįĹç¾İæ´²":7617,"äºĭåĲİ":7618,"å¢ŀè®¾":7619,"ä»ħæ¬¡äºİ":7620,"ç«£å·¥":7621,"åıĬåħ¶ä»ĸ":7622,"ç»ıçºª":7623,"éĻ¢å£«":7624,"çªģåĩº":7625,"1953å¹´":7626,"ĠåĮĹ":7627,"Ġ16":7628,"æķĪçİĩ":7629,"ä¿Ĺç§°":7630,"æ»¤":7631,"æ»ĭ":7632,"åĪĴå½Ĵ":7633,"å¹ķåºľ":7634,"ä¸ºçĶ±":7635,"æŁĦ":7636,"èģĶåĨĽ":7637,"æľ¯è¯Ń":7638,"ä¸¥éĩįçļĦ":7639,"yp":7640,"ä½įäºİä¸Ńåįİäººæ°ĳåħ±åĴĮåĽ½":7641,"èĮĦ":7642,"æĿĳæ°ĳ":7643,"åĮ»åŃ¦éĻ¢":7644,"æ·»åĬł":7645,"å¤§çĲĨ":7646,"çľģæİ¥å£¤":7647,"çĶ²åŁº":7648,"ç»ĥä¹ł":7649,"Ġåħ¶ä¸Ń":7650,"å°Ķé¡¿":7651,"åĨħæľī":7652,"èĬ¦":7653,"çĸ¯":7654,"åľ£ç»ı":7655,"ç»ĨèıĮ":7656,"æīŃ":7657,"ä¸Ĭæĸ¹":7658,"éħ¯":7659,"éģĩåĪ°":7660,"ä¿®éģĵéĻ¢":7661,"MS":7662,"è¾¹çļĦ":7663,"æ¿ĢçĥĪ":7664,"çļĦä¸»é¢ĺ":7665,"çļĦåĽ½éĻħ":7666,"çļĦæĪĲç»©":7667,"å¤§æ°Ķ":7668,"åīįèº«":7669,"ç§°èµŀ":7670,"åŁİåİ¿":7671,"å¦ĤåĲĮ":7672,"ä¿ĿåĬłåĪ©äºļ":7673,"æĮĩè´£":7674,"åĽŀåĲĪ":7675,"èĢĥå¯Ł":7676,"éĢĶç»ı":7677,"èĻļæĭŁ":7678,"çļĦçĪ¶äº²":7679,"Ġæł¹æį®2020å¹´ç¾İåĽ½äººåı£æĻ®æŁ¥çļĦæķ°æį®":7680,"çļĦçĶŁæ´»":7681,"çº¦1":7682,"ç¾İåĽ½äºº":7683,"èİ·å¥ĸ":7684,"äºīå¤º":7685,"åįģäºĮæľĪ":7686,"âĨ":7687,"æĶ»åĬ¿":7688,"æī¿æĭħ":7689,"çļ®èĤ¤":7690,"å¤ļåħĥ":7691,"æ£į":7692,"åŃ£åĲİ":7693,"ä½ľæĽ²å®¶":7694,"åĪĨæĪĲ":7695,"æĸ¹ç¨ĭ":7696,"è¶ģ":7697,"åĽ¢éķ¿":7698,"æ£±":7699,"å°±åľ¨":7700,"æľ«æľŁ":7701,"é¢Ĩå¯¼çļĦ":7702,"8ä¸ª":7703,"ee":7704,"éĺŁåĳĺ":7705,"åĲĳåĮĹ":7706,"èİ·åıĸ":7707,"çĽ´è·¯":7708,"ä¹¡æĿĳ":7709,"1973å¹´":7710,"é¡ºåºı":7711,"è¸¢":7712,"AL":7713,"æĻ´":7714,"åħĥéŁ³":7715,"Ġè¯Ħä»·":7716,"1935å¹´":7717,"åħ¬åħ±äº¤éĢļ":7718,"å¸ľ":7719,"åı¸èģĮ":7720,"æ»¥":7721,"é»ĳäºº":7722,"åľ°ä¸Ńæµ·":7723,"åıĹæįŁ":7724,"è±¹":7725,"è¡ĮæĶ¿ä¸Ńå¿ĥ":7726,"1957å¹´":7727,"NBA":7728,"åħ¶åľ¨":7729,"è¿Ļä¹Łæĺ¯":7730,"åĿ¤":7731,"æĢ»ç«Ļ":7732,"å£«é¡¿":7733,"å±Ģå±Ģéķ¿":7734,"åĳ¨åĪĬ":7735,"æİ¨åĩºçļĦ":7736,"èĲ¨æĭī":7737,"ç¥¸":7738,"å¥³åŃ©":7739,"1977å¹´":7740,"åĩºèµĽ":7741,"155":7742,"é¥¶":7743,"åĩłå¹´":7744,"å®ģæ³¢":7745,"EN":7746,"æĺ¯æĦıå¤§åĪ©":7747,"åįģä¸Ģå¹´":7748,"å¥³ä¸»è§Ĵ":7749,"åĵģç§į":7750,"åĩºçİ°çļĦ":7751,"ç¥ĸåħĪ":7752,"æĲŀ":7753,"éĺ´è°ĭ":7754,"äºĳåįĹçľģ":7755,"å¤ªåĲİ":7756,"æĿ¡æ¬¾":7757,"152":7758,"çĮ´":7759,"è´Ŀåħĭ":7760,"å©´åĦ¿":7761,"æ··ä¹±":7762,"å±ŀçļĦæ¤įçī©":7763,"æ§½":7764,"å·´åŁº":7765,"åĵĪæĭī":7766,"éĽ·è¾¾":7767,"åĬłåĪ©ç¦ıå°¼äºļå·ŀ":7768,"å¦¥":7769,"ä¿¡å¾Ĵ":7770,"æŃ»äºİ":7771,"ä½ĵèĤ²é¦Ĩ":7772,"äº®çĽ¸":7773,"å¯ĩ":7774,"å±±åľ°":7775,"çĶ·åŃ©":7776,"ish":7777,"Ph":7778,"èĲĿ":7779,"æİ¨æµĭ":7780,"æ¤Ń":7781,"ç»ĨèĬĤ":7782,"äºİ2006å¹´":7783,"çļĦéĿ¢ç§¯ä¸º":7784,"åĬłä»¥":7785,"æķ°åįģ":7786,"éĩįç»Ħ":7787,"åĽ½å®¶åħ¬åĽŃ":7788,"æİ¨è¡Į":7789,"å·´åĭĴæĸ¯åĿ¦":7790,"æľĢå¤ļçļĦ":7791,"åıĸèĩª":7792,"è®ºåĿĽ":7793,"æĳ©å°Ķ":7794,"è¿Ļé¦ĸæŃĮ":7795,"æ¡Ĩæŀ¶":7796,"åľ¨ä¸Ĭæµ·":7797,"ä¸ľåĮº":7798,"çĽ¸è¿ŀ":7799,"å¤ľéĹ´":7800,"è¯īè®¼":7801,"åĳ¼åĲ¸":7802,"é¥®é£Ł":7803,"ç¤ºå¨ģèĢħ":7804,"é»ĳé¾Ļæ±Łçľģ":7805,"91":7806,"ix":7807,"å¾Ļ":7808,"çĤ³":7809,"æĻ®æĭī":7810,"éĢģåĪ°":7811,"éĢĶå¾Ħ":7812,"å·©":7813,"åĪĨè§£":7814,"æ°´éĩı":7815,"åı¯ä»¥éĢļè¿ĩ":7816,"å¼ķç§į":7817,"é¥¼":7818,"éĻĦåĬł":7819,"ity":7820,"å¯Įæ±Ĺ":7821,"YouTube":7822,"çļĦåŁİéķĩ":7823,"æ¬ł":7824,"1971å¹´":7825,"æĸ°åĨłèĤºçĤİ":7826,"çļĦä¸ĸçķĮ":7827,"æŃĮåĶ±":7828,"ç§»å±ħ":7829,"æĭ¿çł´":7830,"è¿½æ±Ĥ":7831,"å±ĭé¡¶":7832,"å°±è¯»äºİ":7833,"èĩ´åĬĽäºİ":7834,"HK":7835,"è®½":7836,"æĺ¯èĭ±åĽ½":7837,"æĺ¯è¥¿çıŃçīĻ":7838,"ä»ĸäºº":7839,"æľºæŀª":7840,"çĽ¸éĤ»":7841,"ç¬¬åįģä¸Ģ":7842,"æĿ°åħĭéĢĬ":7843,"ç«ĭæĸ¹ç±³":7844,"æľīçĿĢ":7845,"ç¾İåĽ½æĢ»ç»Ł":7846,"éĽĨåĽ¢åĨĽ":7847,"è¯ĬæĸŃ":7848,"æĭ¿çł´ä»ĳ":7849,".ãĢĮ":7850,"é«ĺæŀ¶":7851,"çİ¯å½¢":7852,"æī¹åĪ¤":7853,"1951å¹´":7854,"èĪªç©ºåħ¬åı¸":7855,"æ£ļ":7856,"æµģåĬ¨":7857,"æ»ĳéĽª":7858,"ä¸Ńå¼ı":7859,"ä¸īå¤§":7860,"çī©èµĦ":7861,"å¦ĸ":7862,"å¤ĸåĽ´":7863,"æĢ»ç»ıçĲĨ":7864,"åĬĽåŃ¦":7865,"ç»ĪæŃ¢":7866,"æħĪåĸĦ":7867,"æīĩ":7868,"ä¸īçĶ²":7869,"è°£":7870,"æ¡ĵ":7871,"åºķå±Ĥ":7872,"å´ĩç¥¯":7873,"Ġä¸Ģ":7874,"åĨ»":7875,"åı¸æľº":7876,"èĳµ":7877,"å§ĭç»Ī":7878,"æłĩé¢ĺ":7879,"åħ¬éĩĮçļĦ":7880,"åħµåĬĽ":7881,"iveĠ":7882,"æ²Īéĺ³":7883,"åĩºèĩª":7884,"è¿ĩæ¸¡":7885,"ç¦§":7886,"åĪĻçĶ±":7887,"éĴ©":7888,"å¾·åħĭ":7889,"å®ļçĲĨ":7890,"å±±é¡¶":7891,"4æľĪ1æĹ¥":7892,"ä¸Ńä¸ĸçºª":7893,"ä¸ĭæĸ¹":7894,"çĪ¬":7895,"è£´":7896,"åľ£æ¯į":7897,"è¿ĲåĬ¨çļĦ":7898,"ç§ĺé²ģ":7899,"å±ħæ°ĳçĤ¹":7900,"ç²ĴåŃĲ":7901,"ire":7902,"æĸĮ":7903,"æŁľ":7904,"åħĥå¸ħ":7905,"å§Ķåī¯ä¹¦è®°":7906,"æ²³åı£":7907,"çģ«è½¦ç«Ļ":7908,"é³Ħ":7909,"Ġst":7910,"åħ¥å¢ĥ":7911,"èĤ¿":7912,"æ¼Ĥ":7913,"175":7914,"è°¢å°Ķ":7915,"å½¼æŃ¤":7916,"ĠæľĪ":7917,"å·¥åķĨ":7918,"æ¯Ķå°Ķ":7919,"æĴĳ":7920,"ä¸Ńå¿ĥçļĦ":7921,"æ·±åħ¥":7922,"ç¬¬ä¸īæ¬¡":7923,"000åĲį":7924,"éŁ¦å°Ķ":7925,"çļĦèĥ½åĬĽ":7926,"åħ¬å¯ĵ":7927,"çĲĥè¿·":7928,"ä½Ĩåħ¶":7929,"ç»ĵè®º":7930,"ç¡ķå£«åŃ¦ä½į":7931,"ure":7932,"å±¡":7933,"è¾±":7934,"æ¬¡æĹ¥":7935,"æīĭä¸Ń":7936,"çīĪçļĦ":7937,"éĨī":7938,"EP":7939,"åİĮ":7940,"äºĨå¯¹":7941,"çĦļ":7942,"çİ¯çĲĥ":7943,"åĥıæĺ¯":7944,"èĵĦ":7945,"è¯ĳä¸º":7946,"åľ¨ä»ĸçļĦ":7947,"è¯¥åī§":7948,"èĭıéĩĮ":7949,"ç¦ıéŁ³":7950,"çªĥ":7951,"æĵ¦":7952,"æĹ©æľŁçļĦ":7953,"çŃīå¾ħ":7954,"æł¼å¼ı":7955,"1990å¹´ä»£":7956,"çªģåİ¥":7957,"å¼Ĺæĭī":7958,"ä¼ĺåħĪ":7959,"å¤©æ´¥å¸Ĥ":7960,"èģĤ":7961,"åĮĹéŁ©":7962,"çİĭä½į":7963,"int":7964,"åį°è±¡":7965,"åį°åº¦æķĻ":7966,"æ©Ļ":7967,"è½¬çļĦå°ıè¡ĮæĺŁ":7968,"çĶ±äººå·¥":7969,"å±ĢçļĦ":7970,"è¶³çĲĥèģĶèµĽ":7971,"å®ĥä»¬çļĦ":7972,"çļĦå¥³åĦ¿":7973,"æĺ¯åįĹæŀģæ´²":7974,"åįģä¸īå¹´":7975,"æĽ²çĽ®":7976,"é¢ĦåĳĬ":7977,"æĹŃ":7978,"åıĳéŁ³":7979,"åĬłåĭĴ":7980,"ä¸īæ¬¡":7981,"èģĮæ£Ĵ":7982,"ç¦ıåĪ©":7983,"ä½İæ°Ķåİĭ":7984,"ç¿°æŀĹ":7985,"BL":7986,"è¿ĩäºİ":7987,"ç³ķ":7988,"entĠ":7989,"å¾®è½¯":7990,"çĥŃå¸¦æ°ĶæĹĭ":7991,"çĲĨäºĭä¼ļ":7992,"ä¸ºé¦ĸ":7993,"èĳĹæľī":7994,"ç¬¼èįī":7995,"æł¼æĭīæĸ¯":7996,"çº§çļĦ":7997,"è¯ºä¼Ĭ":7998,"å·¥ä½ľçļĦ":7999,"åĪºæ¿Ģ":8000,"çĮªç¬¼èįī":8001,"ue":8002,"åİĿ":8003,"è´¿":8004,"åı²èĴĤ":8005,"çĪ±çļĦ":8006,"åī¯ä½¿":8007,"åıĳçĶŁçļĦ":8008,"åµĮ":8009,"åľ¨ä¸Ģä¸ª":8010,"åİ¿åŁİ":8011,"åħħåĪĨ":8012,"éĻ¤æŃ¤ä¹ĭå¤ĸ":8013,"çºº":8014,"æľīåı¯èĥ½":8015,"çīĩæ®µ":8016,"å¼ºåĮĸ":8017,"åıĸå¾ĹäºĨ":8018,"éĢĤçĶ¨äºİ":8019,"åħ±äº§ä¸»ä¹ī":8020,"1900":8021,"å¾·æĸ¯":8022,"çĶµåĬ¨":8023,"è¯¥åľ°åĮº":8024,"ç¼Ķ":8025,"åĭ¾":8026,"èº²":8027,"ä¸ģåł¡":8028,"ç½ķé»ĺ":8029,"åħĭç½Ĺåľ°äºļ":8030,"å°¸ä½ĵ":8031,"ä¸ĢçĻ¾":8032,"åĴĮå¤§":8033,"åĲįèªī":8034,"ä¸ĭè½½":8035,"è¿Ļä¸¤ä¸ª":8036,"å¥½åıĭ":8037,"é¥¥":8038,"rit":8039,"å»ºåĽ½":8040,"åıĤè§Ĥ":8041,"æ¯ıæ¬¡":8042,"çļĦå¹³åĿĩæµ·æĭĶé«ĺåº¦":8043,"åĲİåıĪ":8044,"çİĭå®¤":8045,"å¥³æ¼Ķåĳĺ":8046,"ç±»åŀĭçļĦ":8047,"é£ŀå¼¹":8048,"TA":8049,"æİ§èĤ¡":8050,"Ġ2003å¹´":8051,"åģļä¸º":8052,"åħ¹çľģ":8053,"ãĥ¼":8054,"åıĻè¿°":8055,"èĢĮè¯¥åľ°çļĦå¹³åĿĩæµ·æĭĶé«ĺåº¦":8056,"å·´åŁºæĸ¯åĿ¦":8057,"å¼ķç§įæł½åŁ¹":8058,"åı°å¸ģ":8059,"å¸¸å§Ķä¼ļ":8060,"èº«äº¡":8061,"è®¾è®¡å¸Ī":8062,"1967å¹´":8063,"å¼Ĥå¸¸":8064,"è´¢åĬ¡":8065,"å½¢æĪĲçļĦ":8066,"Ġç»ıæµİ":8067,"æĺı":8068,"è¿Ľåı£":8069,"éĿ¢ç§¯1":8070,"omp":8071,"2010å¹´ç¾İåĽ½äººåı£æĻ®æŁ¥çļĦæķ°æį®":8072,"åĢŁçĶ±":8073,"ä¸İæŃ¤åĲĮæĹ¶":8074,"çļĦæ¸¸æĪı":8075,"éķ¿å®ī":8076,"ä»»å¤©åłĤ":8077,"æĽ¾ä¸º":8078,"çĭ¬çī¹çļĦ":8079,"éģĹè¿¹":8080,"è£¸":8081,"èĪªçº¿":8082,"çģ«æĺŁ":8083,"ä¹ĺåĿĲ":8084,"è¿Ľå£«åĩºèº«":8085,"05":8086,"pp":8087,"Î±":8088,"ãĢį;":8089,"æĿĥçļĦ":8090,"åĸī":8091,"å®£åĳĬ":8092,"ä¿Ħäº¥":8093,"1965å¹´":8094,"ä¿Ħäº¥ä¿Ħ":8095,"å»ºæľī":8096,"ç§ĳå¹»":8097,"çº³å°Ķ":8098,"ç¥ŀåľ£":8099,"çħ§é¡¾":8100,"æĸ¯éĩĮ":8101,"åĲĮåŃ¦":8102,"éģĵçļĦ":8103,"å¤©ä½¿":8104,"10æľĪ1æĹ¥":8105,"ç¬¬ä¸Ģå±Ĭ":8106,"è½¬ä»»":8107,"åĪĿå¹´":8108,"çĶŁäº§çļĦ":8109,"çĶ±äººå·¥å¼ķç§įæł½åŁ¹":8110,"è¿Ļæ®µ":8111,"æķ°çĻ¾":8112,"å½¢çļĦ":8113,"ç¼ĸåĨĻ":8114,"éĤ£æł·":8115,"rom":8116,"å¥´éļ¶":8117,"åľ¨åĨħ":8118,"è¿Ĳæ²³":8119,"æīĭæŀª":8120,"å®£è¨Ģ":8121,"äººç§°":8122,"ä¸Ĭæ¸¸":8123,"åŁºè¾ħ":8124,"åİŁåĪĽ":8125,"çĶµè§ĨåĬ¨çĶ»":8126,"çļĦå¤§åŀĭ":8127,"ä¸ĭè¾ĸä»¥ä¸ĭåľ°åĮº":8128,"eam":8129,"ä¸º3":8130,"åŃĲå¼¹":8131,"å·´å¡ŀå°Ķ":8132,"èįĥ":8133,"èĻĲ":8134,"åįģä¸ĢæľĪ":8135,"\").":8136,"åİ¨":8137,"æĸ°äºº":8138,"æ¶¡":8139,"åĪĴåĪĨ":8140,"åĮ»å¸Ī":8141,"çºªå¿µç¢ĳ":8142,"ä¸Ńä¹¦":8143,"ä»¥å¾Ģ":8144,"ä¹ĭåĲį":8145,"åīįçº¿":8146,"æĹłéĻĲ":8147,"ç½ĳä¸Ĭ":8148,"æĭ¦":8149,"çķľ":8150,"æµģç»ı":8151,"è°ĥèĬĤ":8152,"é²ģæĸ¯":8153,"1969å¹´":8154,"æĿ¥å¾Ģ":8155,"åı·ä¸º":8156,"å°¼å¥¥":8157,"éĩĳåĪļ":8158,"èĤ¯å®ļ":8159,"è¯ŀçĶŁ":8160,"è¿Ļéĥ¨":8161,"æĸĩæľ¬":8162,"æĢ»é¢Ŀ":8163,"å¸¸è§Ħ":8164,"ä¼Ĭå°Ķ":8165,"è¯ºæĸ¯":8166,"äºĨä¸ĢäºĽ":8167,"åı£å¾Ħ":8168,"åĽŀçŃĶ":8169,"ore":8170,"èİ·å¾Ĺä¸Ģæŀļ":8171,"äºİ189":8172,"æĶ¹ç¼ĸèĩª":8173,"Ġæĭī":8174,"åĮºåĴĮ":8175,"åŁºéļĨ":8176,"éĺµå®¹":8177,"æ®ĭçĸ¾":8178,"å¹¸åŃĺ":8179,"å¥¥æĸ¯æĽ¼":8180,"åĽ½è¯Ń":8181,"éĺ¿å¯Įæ±Ĺ":8182,"è®¤å®ļ":8183,"æŀģç«¯":8184,"åŃĺåľ¨çļĦ":8185,"WindowsĠ":8186,"åĲĮæĢ§æģĭ":8187,"çĽ²":8188,"ä¸įåıĺ":8189,"éķ¿å¤§":8190,"ç»´åĲ¾":8191,"èĭıå·ŀ":8192,"éĿ¢ç§¯0":8193,"ä¾Ľå¥ī":8194,"1933å¹´":8195,"èĢ¶å¤«":8196,"çļĦå¤§éĥ¨åĪĨ":8197,"æĮīå¯Ł":8198,"ç©Ĩç½ķé»ĺ":8199,"åĴĮä»ĸçļĦ":8200,"ä»¥å¤ĸçļĦ":8201,"æĮ¤":8202,"åħ³èģĶ":8203,"åĲĳåįĹ":8204,"ç®¡åĪ¶":8205,"è®¤çŁ¥":8206,"è¿ĺåĮħæĭ¬":8207,"åĬŀæ³ķ":8208,"168":8209,"åī¯éĥ¨éķ¿":8210,"åĪ¤æĸŃ":8211,"ç´§å¼ł":8212,"ä½įäºİè¯¥çľģ":8213,"âĪ":8214,"æĶĢ":8215,"å¾ĹåĪĨ":8216,"ä¸īåĲį":8217,"ä¹ŁåĽłæŃ¤":8218,"åĸ»":8219,"è¯įæ±ĩ":8220,"çĽ®åīįå°ļæľª":8221,"DS":8222,"å²Ĳ":8223,"å°±æľī":8224,"çĹķ":8225,"ond":8226,"æ°Ķæ¸©":8227,"ardĠ":8228,"æ²ĥå°Ķ":8229,"ç©¿è¶Ĭ":8230,"ç»´åĲ¾å°Ķ":8231,"DVD":8232,"å¤ĸçķĮ":8233,"æįī":8234,"é»Ľ":8235,"ç¾İåĽ½åĽ½å®¶":8236,"éħĭ":8237,"åħļç»Ħ":8238,"åī©ä½Ļ":8239,"å¿ĥèĦı":8240,"éªı":8241,"176":8242,"ç²®é£Ł":8243,"æ¬º":8244,"ä¸ĭæĿ¥çļĦ":8245,"å·´å¸ĥ":8246,"éħ¿":8247,"æĬķæīĭ":8248,"çĶµè§ĨèĬĤçĽ®":8249,"æľĹå¾·":8250,"çĩĥçĥ§":8251,"1930å¹´":8252,"å®¿èĪį":8253,"ohn":8254,"7ä¸ª":8255,"åŁł":8256,"åĬłå·¥":8257,"çĶµæµģ":8258,"æ¬¡æķ°":8259,"åİŁæľī":8260,"éĹ®é¢ĺçļĦ":8261,"æį¢ä¹ĺ":8262,"OR":8263,"ç¬¬6":8264,"é¢Ĥ":8265,"erĠ":8266,"åĵĪå¾·":8267,"çªģåĩ»":8268,"çĶŁæ´»åľ¨":8269,"åĨ²åĩ»":8270,"åĩºäºİ":8271,"çĶŁæķĪ":8272,"åŃĲåħ¬åı¸":8273,"æĪĺè½¦":8274,"ç«Ļåİħ":8275,"ç¾İåĽ½æµ·åĨĽ":8276,"åħĭéĩĮæĸ¯":8277,"æľºåĻ¨äºº":8278,"Ġé«ĺ":8279,"åı¯åīįå¾Ģ":8280,"æĹıäºº":8281,"ç¥ŀç§ĺ":8282,"æ²¡æľīä»»ä½ķ":8283,"è¾ĥé«ĺ":8284,"æĬĹæĪĺ":8285,"ä¸´åºĬ":8286,"æģĲé¾Ļ":8287,"åĪĽå§ĭäºº":8288,"ä¸Ģéĥ¨åĪĨ":8289,"ç³Ĭ":8290,"åıĳçİ°çļĦ":8291,"å¹¶ä¸Ķåľ¨":8292,"çī©ç§įçļĦ":8293,"MP":8294,"æĸ°çķĮ":8295,"å¾Ĺç¥¨":8296,"éĢļè¡Į":8297,"åħ°å·ŀ":8298,"éħī":8299,"åıįèĢĮ":8300,"å¥ĸçīĮ":8301,"æĹĹå¸ľ":8302,"éĩĩçĶ¨äºĨ":8303,"çļĦå±±å³°":8304,"åĨĽåľ¨":8305,"å¡Į":8306,"åıĹåĪ°äºĨ":8307,"æĦıåĽ¾":8308,"ç±»çļĦ":8309,"èĬĤå¥ı":8310,"å®ĥåľ¨":8311,"åħŃä¸ª":8312,"åŃĺåĤ¨":8313,"1931å¹´":8314,"å½¢æĪĲäºĨ":8315,"å¤ºåıĸ":8316,"ç±»ä¼¼äºİ":8317,"30å¹´":8318,"å¼Ģä¸ļ":8319,"æĺİå°¼":8320,"å¤ªéĥİ":8321,"å®ĪæĬ¤":8322,"æĪĪå°Ķ":8323,"4Ġ":8324,"å¹¶ä¸º":8325,"è¢«åĪĹä¸º":8326,"è¾ĥå°ĳ":8327,"çĶµå½±èĬĤ":8328,"æ°¸è¿ľ":8329,"çĶŁéķ¿äºİæµ·æĭĶ":8330,"åĽ½æľī":8331,"æ³ª":8332,"æŃ¤ä¸¾":8333,"è°¨":8334,"åįģå¤§":8335,"æŃ£ä¹ī":8336,"ä¼łå¥ĩ":8337,"èĻ¾":8338,"å§Ķåĳĺä¼ļä¸»å¸Ń":8339,"è¿ªäºļ":8340,"æĹĭè½¬":8341,"åĿĲèĲ½":8342,"çī©çĲĨåŃ¦":8343,"æĺĶ":8344,"æľīä¸¤ä¸ª":8345,"åĬ¨åĳĺ":8346,"åŀ¦":8347,"å¥¹æĽ¾":8348,"è¶³èģĶ":8349,"æīĺé©¬æĸ¯":8350,"åıĳå±ķçļĦ":8351,"åĲĪå¹¶ä¸º":8352,"ĠX":8353,"ä¸ŃæĸŃ":8354,"ç¬¬äºĮä¸ª":8355,"US":8356,"âĦ":8357,"ĠåįĹ":8358,"æĹ¶éĴĪ":8359,"è¿ĽèĢĮ":8360,"ç¡®å®ŀ":8361,"âĨĴ":8362,"åħ¬çº¦":8363,"åħ¥çĲĥ":8364,"åħ¨ä¸ĸçķĮ":8365,"åħīè°±":8366,"ick":8367,"æııåĨĻ":8368,"éľįå°Ķ":8369,"ç±³çļĦåľ°åĮº":8370,"Ġçİĭ":8371,"çļĦé©¬":8372,"æĪĮ":8373,"æķĻç§ĳ":8374,"å·´åħĭ":8375,"ä¿Ŀåį«":8376,"åĩ»ä¸Ń":8377,"166":8378,"éĻĲäºİ":8379,"æ¶ĪçģŃ":8380,"éĢļå¸¸æĺ¯":8381,"èĻļæŀĦ":8382,"CP":8383,"ãĢĭ(),":8384,"æĸ°è¥¿åħ°":8385,"æĢ§æł¼":8386,"é¦ĸé¢Ĩ":8387,"äº§éĩı":8388,"çĳĻ":8389,"åĿĩæľī":8390,"åĿĲæłĩä¸º":8391,"ä¸ĭå±ŀ":8392,"ä¹ĲåĻ¨":8393,"å¢ĥå¤ĸ":8394,"æĬĢèĥ½":8395,"æ¸©å¸¦":8396,"åĺīåºĨ":8397,"åĩºçīĪçļĦ":8398,"åħĭæĸ¯åĿ¦":8399,"ä¼įå¾·":8400,"ĠåĪ¶ä½ľ":8401,"å¤§æī¹":8402,"ä¿¡ä»»":8403,"165":8404,"145":8405,"åį°åº¦å°¼è¥¿äºļ":8406,"å¸ķå°Ķ":8407,"çļĦåľ°ä½į":8408,"åıĳçĶµåİĤ":8409,"3åı·":8410,"yn":8411,"åīįèĢħ":8412,"éĢīä¸Ń":8413,"åĲĳä¸ľ":8414,"lat":8415,"éĴ¢éĵģ":8416,"ä»¥åħ¶":8417,"æĢ¨":8418,"çº¿åĴĮ":8419,"èµ·çĤ¹":8420,"å®¢å®¶":8421,"åı¯èĥ½æĢ§":8422,"1962å¹´":8423,"çº¤ç»´":8424,"Ġç®Ģ":8425,"Ġå¯¹äºİ":8426,"è·ĭ":8427,"çī¹åĭĴ":8428,"å¤ļä¸º":8429,"è¿ĩåº¦":8430,"æĢ»å±Ģ":8431,"åįİåĮĹ":8432,"org":8433,"çªĿ":8434,"æĶ¯æĮģèĢħ":8435,"çģµéŃĤ":8436,"éĢıæĺİ":8437,"å¤§è¿ŀ":8438,"åĴĮäººåı£":8439,"éķ¿æĺ¥":8440,"å¸ĿåĽ½çļĦ":8441,"äºĮæ¬¡":8442,"ork":8443,"æĤ¼":8444,"æĻļæľŁ":8445,"åĽ½æĹĹ":8446,"ä»ĸå°Ĩ":8447,"åĲįå½ķ":8448,"å¥¥åħĭ":8449,"çº³æĸ¯":8450,"è§£éĻ¤":8451,"èı±":8452,"è¡ĮæĶ¿éķĩåĮº":8453,"ç¡®ç«ĭ":8454,"01":8455,"ä¸ŃæŃ£":8456,"è¿Ļä¸¤":8457,"æ¸¯éĵģ":8458,"åĸĿ":8459,"å¾Ģè¿Ķ":8460,"Ġéĩĳ":8461,"æĺ¯å¯¹":8462,"ä½Ĩä¸į":8463,"éĢīç¥¨":8464,"éĶħ":8465,"æıĲä¾ĽçļĦ":8466,"åħĭéĩĮç±³äºļ":8467,"æ²ŁéĢļ":8468,"Ġä¸ºäºĨ":8469,"éĹ¹":8470,"åĶ¤":8471,"éļıä¹ĭ":8472,"è¾ŀåİ»":8473,"æĲŃè½½":8474,"é£ŀè¡Įåĳĺ":8475,"Station":8476,"ĠæĹ¥":8477,"éĺľ":8478,"å·¥åħļ":8479,"æ¸¸æĪıä¸Ń":8480,"é»ĳæļĹ":8481,"é¸¦":8482,"çļĦéģĵè·¯":8483,"åĽ½å®ī":8484,"å®ļä½į":8485,"åįģäºĶå¹´":8486,"æ¢ħå°Ķ":8487,"åİ¿çļĦä¸Ģä¸ªè¡ĮæĶ¿éķĩåĮº":8488,"AK":8489,"UN":8490,"çļĦå¼Ģ":8491,"çĽĴ":8492,"ä¹ĭåľ°":8493,"å¸ĥæĶ¿":8494,"çĽ¸è¾ĥ":8495,"æ³¢çī¹":8496,"æīĵå¼Ģ":8497,"ä¹Įæĭī":8498,"ros":8499,";&":8500,"ment":8501,"Ġä»¥":8502,"âĢ§":8503,"ç«ĭå¤§åŃ¦":8504,"Ġæľ¬ç«Ļ":8505,"HR":8506,"çļĦä»£è¡¨":8507,"å°§":8508,"ä¸ĭçļĦä¸Ģä¸ª":8509,"å£«åĿ¦":8510,"äº§çī©":8511,"åĲĳéĩı":8512,"æĶ¾éĢģ":8513,"åĵįåºĶ":8514,"1932å¹´":8515,"åĮª":8516,"æľīä¸¤":8517,"åıĬåĲİ":8518,"äºĭåıĺ":8519,"æµģæµª":8520,"åħĪåīį":8521,"èĲ¨æĸ¯å·ŀ":8522,"åľ°å¤Ħ":8523,"æĺİä»£":8524,"äº§åľ°":8525,"ç¥ŀç¤¾":8526,"ame":8527,"èī¯å¥½":8528,"1928å¹´":8529,"ç§ŁçķĮ":8530,"åĪ©å¥¥":8531,"äºĭæĥħ":8532,"ä¹¦æ³ķ":8533,"æįĲèµł":8534,"äººå¤§ä»£è¡¨":8535,"å¸ĪèĮĥå¤§åŃ¦":8536,"125":8537,"åį³åı¯":8538,"æ¯įèĪ°":8539,"è¯»ä¹¦":8540,"ä¼ļè®®ä¸Ĭ":8541,"å·¡éĢ»":8542,"OM":8543,"Ġ13":8544,"çļĦè®¡åĪĴ":8545,"åĮĹå¹³":8546,"éĹ´è°į":8547,"çĥĤ":8548,"åºĵå°Ķ":8549,"Ġ2002å¹´":8550,"ä¸»æķĻç»ĥ":8551,"åıĳå¸ĥäºĨ":8552,"èķĥ":8553,"å°Ĭéĩį":8554,"FC":8555,"Ġ20":8556,"çļĦåº§æłĩä¸º":8557,"æ°ĳæĶ¿":8558,"æľĢéĩįè¦ģçļĦ":8559,"åİŁåŀĭ":8560,"åĲĳè¥¿":8561,"çłĶç©¶ä¸Ńå¿ĥ":8562,"æĺ¯ä¸Ģå®¶":8563,"1961å¹´":8564,"çļĦæ¯ĶèµĽ":8565,"äººæīį":8566,"æĺĨæĺİ":8567,"æ§Ł":8568,"å¤§åĲĮ":8569,"æĢİ":8570,"ç¼Ģ":8571,"éĥ½ä¸į":8572,"åİŁå®ļ":8573,"æĪĸç§°":8574,"æ®·":8575,"èĮİ":8576,"çłĶç©¶åĳĺ":8577,"å¼ºçļĦ":8578,"å¼ºå¤§çļĦ":8579,"ç²¾çģµ":8580,"å¼ĢåıĳçļĦ":8581,"åĤ¨åŃĺ":8582,"ax":8583,"å¤§åŃĹ":8584,"çŃīäºİ":8585,"çŃīèģĮ":8586,"ä¼¯æł¼":8587,"èĽĻ":8588,"å»¶ä¼¸èĩ³":8589,"å°¼åı¤æĭī":8590,"idĠ":8591,"Ġä½ľä¸º":8592,"çļĦåĲįç§°":8593,"åĬ¾":8594,"ä¸ĬéĿ¢":8595,"ä»ĸè¯´":8596,"æ³ķåŃ¦":8597,"æŃ¤ç±»":8598,"()ãĢģ":8599,"æĺ¥ç§ĭ":8600,"æ³½å°Ķçľģ":8601,"çº·çº·":8602,"è¯Ī":8603,"åħ¬ç¤¾":8604,"åĬ¨æĢģ":8605,"ä¹Ŀå·ŀ":8606,"éĺ²å®Ī":8607,"å·Ŀåİ¿":8608,"åģľè¿Ĳ":8609,"å§ĵæ°ı":8610,"AI":8611,"Ġä¸ī":8612,"åıĳè¾¾":8613,"æĽ¾è¢«":8614,"ç®¡æİ§":8615,"å¼łåįķæĽ²":8616,"ĠSh":8617,"äºİ2005å¹´":8618,"åĲĽå£«åĿ¦":8619,"äººç¾¤":8620,"éĴł":8621,"èı©":8622,"å°ģéĹŃ":8623,"çŃīçļĦ":8624,"å¥ĸæľĢä½³":8625,"å¢ĥåĨħçļĦ":8626,"æĪ·éĥ¨":8627,"å¾®åįļ":8628,"éĹ¯":8629,"åĳĺå¤ĸ":8630,"åįģåĽĽå¹´":8631,"è½¬åıĺ":8632,"èĽ®":8633,"åıĤè®®åĳĺ":8634,"æĿĢäºº":8635,"æĻ¯çĤ¹":8636,"å°ģéĶģ":8637,"ä½£":8638,"åħ¬å¼ı":8639,"åħĭéĽ·":8640,"è¿ĻæĹ¶":8641,"åĬłæĸ¯":8642,"åħ¶ä»ĸçļĦ":8643,"æ³¨åħ¥":8644,"ational":8645,"è¿ĽçĲĥ":8646,"éĺŁåľ¨":8647,"æ³¢å£«é¡¿":8648,"çľĭè§ģ":8649,"æŃĩå°Ķ":8650,"//":8651,"çĲĨåŃ¦":8652,"åŀ£":8653,"æĶ¹èī¯":8654,"éĢłåŀĭ":8655,"ä¸ĵç§ĳ":8656,"ä¸ĵæ³¨":8657,"æ´»åĬ¨çļĦ":8658,"éĩİçĶŁ":8659,"ä¸»é¢ĺæĽ²":8660,"å±¯éĹ¨":8661,"ç¦¾":8662,"çĦ°":8663,"åıĤæ¼Ķ":8664,"è°ĥä»»":8665,"æŀģä¸º":8666,"ett":8667,"åı¦ä¸Ģç§į":8668,"çĽ®åīįå°ļæľªçĶ±äººå·¥å¼ķç§įæł½åŁ¹":8669,"ool":8670,"Ġå»ºçŃĳ":8671,"åĪĨäº«":8672,"ä»»æĦı":8673,"èī®":8674,"æľŁåĪĬ":8675,"ç½Ĺè®·":8676,"éĺ¿åŁº":8677,"å¯¼å¸Ī":8678,"çľŁæŃ£çļĦ":8679,"åīįæĿ¥":8680,"é«ĺå±Ĥ":8681,"ç»ıè´¹":8682,"åįģåħŃå¹´":8683,"å°¼æ³Ĭ":8684,"eĠM":8685,"åİĭç¼©":8686,"å·¡æĬļ":8687,"éŀį":8688,"åıĳè¨Ģäºº":8689,"éĺĢ":8690,"é«ĺæł¡":8691,"ä½ĵæĵį":8692,"éĺ¿å§Ĩ":8693,"æĺŁçļĦ":8694,"ç²¾ç¡®":8695,"åı³ç¿¼":8696,"éĺµäº¡":8697,"èĭį":8698,"éļıæľº":8699,"è¯»èĢħ":8700,"éĽħåħ¸":8701,"å®ľåħ°":8702,"äºİ188":8703,"Ġ1949å¹´":8704,"Ġä¸ªäººçĶŁæ´»":8705,")(":8706,"CN":8707,"è®¾åľ¨":8708,"æ¶¨":8709,"çķĻåŃ¦":8710,"èĤ¡ä¸ľ":8711,"çļĦæľī":8712,"åīįéĶĭ":8713,"å°Ĩä»ĸ":8714,"è·¯å¾Ħ":8715,"é¦ĸå°Ķ":8716,"åı¤å¸ĮèħĬ":8717,"çİĩåĨĽ":8718,"åħįçĸ«":8719,"è¶ĭåĬ¿":8720,"ç©Ĩç½ķé»ĺå¾·":8721,"çļĦç»ıæµİ":8722,"ä¸ŃåİŁ":8723,"çķı":8724,"åĪĿæŃ¥":8725,"æĴŃåĩºçļĦ":8726,"1963å¹´":8727,"è´Ńçī©":8728,"æ´ªæ°´":8729,"ç»Łæ²»èĢħ":8730,"å¤©æĸĩåŃ¦å®¶":8731,"çº¦åħĭ":8732,"æıĲæ¡Ī":8733,"åĬłåħ¥ä¸ŃåĽ½åħ±äº§åħļ":8734,"ES":8735,"çļĦç¤¾ä¼ļ":8736,"ä¸Ģå¼Ģå§ĭ":8737,"äººä¸İ":8738,"äººæĸĩ":8739,"æĺ¯ä¸ĭè¾ĸçļĦä¸Ģä¸ª":8740,"æĹ¶åĪ»":8741,"å°ıå§Ĳ":8742,"æ°´ä¸Ĭ":8743,"åĽłæŃ¤åľ¨":8744,"æĦŁæĥħ":8745,"æ²¿çĶ¨":8746,"éĤ®å±Ģ":8747,"è¡¨çİ°åĩº":8748,"å§Ĭå¦¹":8749,"åıĳèĤ²":8750,"æľ¬æ¬¡":8751,"åı¯éĿł":8752,"å½ĵä½ľ":8753,"ç¼Ĩ":8754,"æ°´æ·±":8755,"å·´æĸ¯":8756,"æĥħæĦŁ":8757,"å±ĢåĬ¿":8758,"æĬĢå·§":8759,"èĢĥåħ¥":8760,"èį£èİ·":8761,"è®¨ä¼Ĳ":8762,"æĪªæŃ¢":8763,"èĥĢ":8764,"ãĢĬãĢĭ(":8765,"éĢīæĭĶ":8766,"åĸĻ":8767,"ä»ħä»ħ":8768,"å½Ĵç±»":8769,"æĻļéĹ´":8770,"æĭľåįł":8771,"ä¸Ģåı·":8772,"ä¼ļç¤¾":8773,"å¹¶è¡¨ç¤º":8774,"éĿ¢ä¸Ĭ":8775,"ç¦»å©ļ":8776,"è®¤ä¸ºæĺ¯":8777,"åĶ®ç¥¨":8778,"odice":8779,"3Ġ":8780,"çļĦåĪĨ":8781,"ä¸ļä½Ļ":8782,"éĤ¹":8783,"é¦ĸæī¹":8784,"äº¤æĪĺ":8785,"å¤ĦåĨ³":8786,"çļĦä¸Ģæ¬¡":8787,"çħĮ":8788,"æľĢç»Īåľ¨":8789,"èµĭäºĪ":8790,"çļĦèº«ä»½":8791,"åĴı":8792,"å®īå¦®":8793,"åº§åłĤ":8794,"å®¢è½¦":8795,"èŀºæĹĭ":8796,"æĶ¿åįıå§Ķåĳĺ":8797,"éĻ¨çŁ³åĿĳ":8798,"âĦĥ":8799,"åĩºåľŁ":8800,"ä¹ĭä¸Ĭ":8801,"å¤ļä¼¦":8802,"ä½ĵéĩį":8803,"ç¼¸":8804,"åİ¿éķ¿":8805,"åĨ³çŃĸ":8806,"åĽŃåĮº":8807,"åİ»ä¸ĸåĲİ":8808,"ier":8809,"mm":8810,"ä¸įçŁ¥":8811,"ä¸įä½³":8812,"åĨĽæĸ¹":8813,"å¤©åºľ":8814,"ight":8815,"æ¬¡åĪĹè½¦":8816,"å¤ªå®Ī":8817,"154":8818,"ä¼¦æĸ¯":8819,"1934å¹´":8820,"çī§å¸Ī":8821,"éĽķåĥı":8822,"æĦıæĢĿæĺ¯":8823,"EST":8824,"çļĦä¸Ĭ":8825,"åľ¨å½ĵæĹ¶":8826,"åŃļ":8827,"åĲİåĽł":8828,"è§ĤéŁ³":8829,"å¤±è¸ª":8830,"æ£®åł¡":8831,"å½±åĵįåĬĽ":8832,"çĨĶ":8833,"åĺīå®¾":8834,"åĲ¦åĪĻ":8835,"çļĦæ´»åĬ¨":8836,"æĪĺç»©":8837,"å·¥ä½ľäººåĳĺ":8838,"1929å¹´":8839,"èİİçĻ½":8840,"åľ¨ä¸İ":8841,"äºĨè¯¥":8842,"çĶµè·¯":8843,"å·´å«©":8844,"ç¦ıå°Ķ":8845,"enter":8846,"éĩĬåĩº":8847,"æ½ľåľ¨":8848,"ä¿ĥä½¿":8849,"æ°ŁåĮĸ":8850,"çļĦåħ¨":8851,"lar":8852,"è§Ħæł¼":8853,"èĭ±åĽ½çļĦ":8854,"çĥŃéĹ¨":8855,"åıĳè¡¨äºĨ":8856,"æĬĹæĹ¥æĪĺäºī":8857,"è¢ľ":8858,"å¹¶æľī":8859,"ä¹ĲåĽŃ":8860,"éĴ§":8861,"æĶ¯çº¿":8862,"eĠB":8863,"é¹¦":8864,"æľĢé«ĺæ³ķéĻ¢":8865,"èŁ¹":8866,"Ġæ³ķåĽ½":8867,"ä¸ºåı°æ¹¾":8868,"ä¸ĸçķĮåĲĦåľ°":8869,"å¨ģå°¼æĸ¯":8870,"149":8871,"æľĢé«ĺçĤ¹":8872,"ĠåıĤèĢĥ":8873,"åľ¨æ¬§æ´²":8874,"æĭ¯":8875,"èĩªä¸»":8876,"éĽĨç»ĵ":8877,"ä¼łéĢĴ":8878,"è§ģäºİ":8879,"èĪªç«Ļ":8880,"ä¾¦å¯Ł":8881,"èı²åĪ©æĻ®":8882,"3ç±³":8883,"5åħ¬éĩĮ":8884,"Mic":8885,"çļĦä¼łç»Ł":8886,"é¢Į":8887,"ä½ĵç§¯":8888,"é¦ĸæŃĮæĽ²":8889,"é»İå·´å«©":8890,"æ¸ħåįİå¤§åŃ¦":8891,"èĢĮè¯¥åľ°çļĦå¹³åĿĩæµ·æĭĶé«ĺåº¦ä¸º":8892,"æŃ¤åľ°":8893,"åı¤è¿¹":8894,"ç½®äºİ":8895,"èŃ¦åĳĺ":8896,"æĲľç´¢":8897,"äººå¤§å¸¸å§Ķä¼ļ":8898,"DNA":8899,"Sc":8900,"ium":8901,"çļĦç¬¬ä¸ī":8902,"åı¯æĺ¯":8903,"æĪĺåĽ½":8904,"æį®è¯´":8905,"å¤ªåİŁ":8906,"çłĶåĪ¶":8907,"è§Ĥèµı":8908,"æ¸©æ³ī":8909,"äºĮåįģå¹´":8910,"é¢Ŀå¤ĸ":8911,"æĴ¤ç¦»":8912,"å®Įæķ´çļĦ":8913,"ç²¤è¯Ń":8914,"åĵº":8915,"ä½Ĩä»į":8916,"ç±»åĪ«":8917,"ç¡ħ":8918,"ç¡¬å¸ģ":8919,"ä»¥3":8920,"å£¬":8921,"éĺŁåıĭ":8922,"äº¤åĵį":8923,"éĽĨä¼ļ":8924,"è§Ĥå¿µ":8925,"éºĵ":8926,"1927å¹´":8927,"æĲŃéħį":8928,"2ç±³":8929,"æĪİ":8930,"è¯¥åºĦ":8931,"é©¬åĬĽ":8932,"æĮĩçļĦæĺ¯":8933,"æİĴéĻ¤":8934,"æ²¿çº¿":8935,"æĺ¯ä¸Ģä¸ªä½įäºİç¾İåĽ½":8936,"åº¸":8937,"å¹³æĪĲ":8938,"ç¥·":8939,"é¦ĸä»»":8940,"Ġ2001å¹´":8941,"æĹĹä¸ĭçļĦ":8942,"æĪĲåĬŁçļĦ":8943,"1924å¹´":8944,"åı¬éĽĨ":8945,"1912å¹´":8946,"æĢ»åħ±":8947,"æĽ¾æĭħä»»":8948,"å°±åı¯ä»¥":8949,"ä¸ĩå¹´":8950,"è¾ĥå¤§çļĦ":8951,"ingĠ":8952,"è¯¥åľ°çļĦéĿ¢ç§¯":8953,"éĴĵé±¼":8954,"ð¬":8955,"æŃ¼":8956,"åĨħäºļ":8957,"æķĻå¾Ĵ":8958,"ä¼łè¾ĵ":8959,"æĳĺ":8960,"çļĨæľªçŁ¥":8961,"èĿĻ":8962,"æııè¿°ä¸º":8963,"å·¡åĽŀèµĽ":8964,"åĴĮäººåı£çļĨæľªçŁ¥":8965,"è¯¥åľ°çļĦéĿ¢ç§¯åĴĮäººåı£çļĨæľªçŁ¥":8966,"ç¬¬10":8967,"æľ¬åľ°åĮº":8968,"ä¹Łç§°":8969,"æ´Ľçī¹":8970,"æĭľåįłåºŃ":8971,"ayĠ":8972,"ä¸¢":8973,"å°±ä»»":8974,"orl":8975,"åĭĴæĸ¯":8976,"æĶ¿æ²»å®¶":8977,"æĸĩåĮĸå¤§éĿ©åĳ½":8978,"ä¾ĿéĿł":8979,"é¡ºæĹ¶éĴĪ":8980,"æĦıè¯ĨåĪ°":8981,"çļĦæ²³æµģ":8982,"åĨ¢":8983,"ert":8984,"åĳ½åĲįçļĦ":8985,"åĪĴåħ¥":8986,"æĿ°åĩº":8987,"çŃĸåĪĴ":8988,"èĿĻèĿł":8989,"è´¦":8990,"åĩºæĿ¥çļĦ":8991,"æľ¬æĿ¥":8992,"å¼ĢæĴŃ":8993,"ç¾İä¸½":8994,"è¿ĽåĨĽ":8995,"è°ķ":8996,"åĪ¶åĵģ":8997,"å±±åı£":8998,"ç½ĳåıĭ":8999,"æ¨¡ä»¿":9000,"éĺ²åį«":9001,"å©ļç¤¼":9002,"ç´¯ç§¯":9003,"æĹłçº¿çĶµ":9004,"iĠ":9005,"åĲįåı«":9006,"åĲĪçĲĨ":9007,"ç«Ļèĩ³":9008,"è¯Ħè®ºå®¶":9009,"è¾½å®ģçľģ":9010,"æ°Ľ":9011,"æĹ¥çĽĬ":9012,"æ»ŀ":9013,"å¡ŀæĭľ":9014,"ĠPro":9015,"çļĦåħ¶ä»ĸ":9016,"ç§ī":9017,"æĸ¹ç¨ĭå¼ı":9018,"é«ĺå±±":9019,"ç½Ĺä¼¯":9020,"åĥļ":9021,"Ġ2000å¹´":9022,"åħ¬åĬ¡åĳĺ":9023,"åĪĨä¹ĭ":9024,"æŃ£æĺ¯":9025,"é»ı":9026,"åĽĽäºº":9027,"åıĤè§ģ":9028,"æ²Ļæ¼ł":9029,"å¤ıå¨ģ":9030,"å¯ºéĻ¢":9031,"è®¯æģ¯":9032,"Ġåħ¨":9033,"çļĦå¯¹":9034,"æĪĲçļĦ":9035,"æ±¶":9036,"æĪĺä¸Ń":9037,"éĵĿ":9038,"åĶĩ":9039,"åıįæĬĹ":9040,"é¦Ļæ¸¯çļĦ":9041,"æĸĩåĮĸéģĹäº§":9042,"å¼Ĺåħ°":9043,"èĢ¶å°Ķ":9044,"è¡Ģæ¶²":9045,"åŁºæľ¬ä¸Ĭ":9046,"900":9047,"CC":9048,"çļĦçĽ®æłĩ":9049,"å¾·ç½Ĺ":9050,"ãĢį)":9051,"ä½ĵåŀĭ":9052,"æĮĩä»¤":9053,"çĻ½ä¿Ħç½Ĺæĸ¯":9054,"éħįä¹Ĳ":9055,"ä¼ĳæģ¯":9056,"æ¯«æĹł":9057,"çº½çº¦å¸Ĥ":9058,"éķ¶":9059,"åįİä¸º":9060,"æĿĥå¨ģ":9061,"ç¼ĸåĪ¶":9062,"åħ´èµ·":9063,"çľŁäºº":9064,"äº¤æĺĵæīĢ":9065,"Ġä¸ľ":9066,"è¡Įè½¦":9067,"ä¹ĭæĹ¶":9068,"å¹¶èİ·å¾Ĺ":9069,"åłµ":9070,"ç¬¬ä¸ĢçĻ¾":9071,"äºĪä»¥":9072,"åĮħåĲ«äºĨ":9073,"ä¸įåıĹ":9074,"ä¿±":9075,"åĬ¨å·¥":9076,"è¿Ĳç®Ĺ":9077,"è¯Ńä¸Ń":9078,"ä¹īåĬ¡":9079,"åĬ©äºİ":9080,"çİ¯ä¿Ŀ":9081,"çģŃäº¡":9082,"å¹»æĥ³":9083,"Ġè½¦ç«Ļç»ĵæŀĦ":9084,"çļĦæīĭ":9085,"åĴĮç¾İåĽ½":9086,"èĩ³æŃ¤":9087,"åı°ä¸ľ":9088,"èĥ½åľ¨":9089,"æĢ»æĺ¯":9090,"èĭ±è¶ħ":9091,"å½±è¯Ħ":9092,"æĿ¡çĽ®":9093,"æİ¢è®¨":9094,"éļĶå¹´":9095,"AD":9096,"Ġ17":9097,"çļĦè¥¿":9098,"çļĦåĲĮæĹ¶":9099,"çļĦå»ºçŃĳ":9100,"åĵŃ":9101,"æķ°åįĥ":9102,"åħ°åį¡":9103,"å¥³ç¥ŀ":9104,"è¯´æľį":9105,"åĳ¨æľ«":9106,"è§ģåĪ°":9107,"åī¯æĢ»ç»Ł":9108,"æ¾İ":9109,"24å°ıæĹ¶":9110,"åıĹå®³èĢħ":9111,"AV":9112,"çİ°å·²":9113,"ä½ĵçİ°":9114,"æĭīå¾·":9115,"å¸ĥå±Ģ":9116,"è¯ŃåĴĮ":9117,"åĽ½å®¶å®īåħ¨":9118,"æķ´çĲĨ":9119,"éĿĴæµ·":9120,"è´¹å°Ķ":9121,"æł¼åħ°çī¹":9122,"çīĪæľ¬çļĦ":9123,"è·ĳéģĵ":9124,"PlayStation":9125,"ĠæĹ©æľŁ":9126,"åľ°åĿĢ":9127,"çĶ±æĿ¥":9128,"ä¸ĭæ¸¸":9129,"éĩĮéĿ¢":9130,"éĽĨçļĦ":9131,"ä¸ĵåĪ©":9132,"æīĵè´¥":9133,"æĹ¶éĹ´çļĦ":9134,"çīĻé½¿":9135,"åĨ°å·Ŀ":9136,"å®ļä¹īä¸º":9137,"åŁºçĿ£å¾Ĵ":9138,"æ¸ħæľĿæĶ¿æ²»äººçī©":9139,"åįģåħ«å¹´":9140,"ä¸Ģä»½":9141,"æľºåĬ¨":9142,"å¸Īéķ¿":9143,"ç»Īèº«":9144,"å§Ķåĳĺä¼ļçļĦ":9145,"åħ¸åŀĭçļĦ":9146,"çģµæĦŁ":9147,"ç¾İæľ¯é¦Ĩ":9148,"çļĦå¤ļ":9149,"ç¬¬åįģäºĮ":9150,"åĵ©":9151,"æĿ¥çľĭ":9152,"åĪ¶è£ģ":9153,"è¿ĳå¹³":9154,"æ±īåł¡":9155,"çľĭæ³ķ":9156,"éĿ©åĳ½åĨĽ":9157,"ä¾µçĬ¯":9158,"åĲĵ":9159,"åľ¨åīį":9160,"å¹¶æĪĲä¸º":9161,"éĵħ":9162,"æīĵéĢł":9163,"è´Ŀæł¼":9164,"åıĭè°Ĭ":9165,"å¯ºåºĻ":9166,"åĪłéĻ¤":9167,"ä»ĸä»¥":9168,"èĥĥ":9169,"ç¬¬8":9170,"ä¸īçº§":9171,"å¤©æĸĩåŃ¦":9172,"åıĺæĽ´":9173,"çĪ±å¥½":9174,"æ¦´":9175,"ung":9176,"III":9177,"112":9178,"Ġé»Ħ":9179,"ä¸ºå¤§":9180,"ä¸ºè¯¥":9181,"æ¬¡åŃĲ":9182,"åĽ¾å½¢":9183,"æŃĮåī§":9184,"å®£å¸ĥå°Ĩ":9185,"èĭ¥å¹²":9186,"pen":9187,"çļĦåľŁåľ°":9188,"åľ°åŁŁ":9189,"åĲįé¢Ŀ":9190,"èĢĮéĹ»åĲį":9191,"çĭĲ":9192,"åŁİå¸ĤçļĦ":9193,"çŁŃçīĩ":9194,"åĪĽä½ľçļĦ":9195,"å¹¶ä¸įæĺ¯":9196,"åĿĲæłĩ":9197,"æĦıåĳ³çĿĢ":9198,"åģľè½¦åľº":9199,"ĠæŃ£":9200,"çļĦéĿŀ":9201,"çīº":9202,"åĨĽå§Ķ":9203,"æĢ»åı¸ä»¤":9204,"åĪĻä»¥":9205,"åĿĩåľ¨":9206,"è¡ĮæĶ¿åįķä½į":9207,"åĨ³èµĽä¸Ń":9208,"col":9209,"ä¸ºé£Ł":9210,"ä¸ĢæĹ¦":9211,"å¹³å®ī":9212,"æ¢Ń":9213,"åľŁå£¤":9214,"é¡ºæ²»":9215,"æį·è¿Ĳ":9216,"èĪªç«Ļæ¥¼":9217,"å¤ıå¨ģå¤·":9218,"Ġå°ı":9219,"æĪļ":9220,"çĻ¸":9221,"å°±åĥı":9222,"éŁ³èĬĤ":9223,"æ´»æĢ§":9224,"ä¸ĵåĳĺ":9225,"å¼Ģå§ĭäºĨ":9226,"ãĢīãĢģ":9227,"ç½ķè§ģ":9228,"åĲīæŀĹçľģ":9229,"oo":9230,"çļĦæľºä¼ļ":9231,"ç¬¬7":9232,"èĤ¾":9233,"ä¾¿æĺ¯":9234,"éĺµèĲ¥":9235,"å´ĩæĭľ":9236,"ç¿ĮæĹ¥":9237,"6ç±³":9238,"çļĦåĨĽäºĭ":9239,"æ±Łè¥¿çľģ":9240,"æĽ¼èģĶ":9241,"ä¹łè¿ĳå¹³":9242,"æĻļå¹´":9243,"åŃĺåľ¨äºİ":9244,"èĩĢé³į":9245,".&":9246,"åĨĽèĪ°":9247,"éĩĮæĺĤ":9248,"å·ŀè´Łè´£ç®¡è¾ĸ":9249,"éĢłèĪ¹":9250,"çĳļ":9251,"èĲ½åĲİ":9252,"æĺ¯ä½įäºİä¹Įåħĭåħ°":9253,"çº½çº¦å·ŀ":9254,"è·¨è¶Ĭ":9255,"æ¢¦æĥ³":9256,"uk":9257,"éĥ½åı¯ä»¥":9258,"éĶ¥":9259,"ç¼ĸåħ¥":9260,"è½¬ä¹ĺ":9261,"èĲ½è´¥":9262,"æĻ¶ä½ĵ":9263,"éĩįçĤ¹æĸĩçī©ä¿ĿæĬ¤åįķä½į":9264,"09":9265,"éĩĳéĹ¨":9266,"çĶ·ä¸»è§Ĵ":9267,"çªĳ":9268,"çģ«åĬĽ":9269,"äº«æľī":9270,"åĲįç§°ä¸º":9271,"åĳ¨æģ©":9272,"ä¸ĸçķĮéģĹäº§":9273,"ä¼¯åĪ©äºļ":9274,"èĪªè¡Į":9275,"å·¡æ¼Ķ":9276,"è¡¥ç»Ļ":9277,"æŁĲç§į":9278,"Ġæł¹æį®2010å¹´ç¾İåĽ½äººåı£æĻ®æŁ¥çļĦæķ°æį®":9279,"éŀŃ":9280,"IST":9281,"Ġåį¡":9282,"åĴĮç¤¾ä¼ļ":9283,"æľ¬è´¨":9284,"ç«ĭå§Ķ":9285,"ä½ĨæľĢç»Ī":9286,"è¯Ħå®¡":9287,"é¢ĳç¹ģ":9288,"åľ¨è¿ĻéĩĮ":9289,"sk":9290,"ãĢĬãĢĭ,":9291,"èĭ±å¯¸":9292,"åı«åģļ":9293,"çīºçī²":9294,"åį¯":9295,"è¡ĮæĶ¿éķ¿å®ĺ":9296,"å¹¿å·ŀå¸Ĥ":9297,"æĺĨèĻ«":9298,"06":9299,"æ³ķåĨĽ":9300,"å¹³å®ļ":9301,"æ°´åĪ©":9302,"å®Įç¾İ":9303,"èĲ¥åħ»":9304,"ek":9305,"ä¸ŃçŃī":9306,"åŃ¦åłĤ":9307,"æķ°ä¸ª":9308,"æĶ¹ç»Ħ":9309,"åŃ£èĬĤ":9310,"eĠS":9311,"æ¹ĸå¹¿":9312,"çļĦè¡¨çİ°":9313,"1918å¹´":9314,"æĸ¯åľ¨":9315,"è¢«æĿĢ":9316,"ä¸Ģä¸ªæľĪ":9317,"æĥĳ":9318,"äº¤ä»ĺ":9319,"å¾ĢæĿ¥":9320,"tern":9321,"å½°åĮĸ":9322,"ä¸įä½Ĩ":9323,"æľ¬åĲį":9324,"éĩĮå¥¥":9325,"ç«ĭä½ĵ":9326,"çķ´":9327,"åį³ä¸º":9328,"èģĮè´£":9329,"åıĪåľ¨":9330,"1970å¹´ä»£":9331,"å¹¿æ³ĽçļĦ":9332,"å°¼æ³Ĭå°Ķ":9333,"ä¸Ģè·¯":9334,"æ¸Ĺ":9335,"å®¶å±ŀ":9336,"æĪĺè´¥":9337,"ç¦¹":9338,"å½±å±ķ":9339,"æıĲçĲ´":9340,"é£İæĻ¯":9341,"åħīåŃ¦":9342,"æĹ§éĩĳå±±":9343,"éĢĥç¦»":9344,"åĲ¬åĪ°":9345,"çĪĨåıĳåĲİ":9346,"æĶ¶è§Ĩçİĩ":9347,"é©¬æģ©çľģ":9348,"çĲĥè¿ĲåĬ¨åĳĺ":9349,"éĻ¢æł¡":9350,"ann":9351,"é¾Ļç§ĳ":9352,"ä¸ĸçºªçļĦ":9353,"è¡¥åĬ©":9354,"èµ¤çº¬":9355,"ä¸Ģåħ±":9356,"ä¸īä½į":9357,"127":9358,"å¥¹ä¸İ":9359,"å¸¦æĿ¥çļĦ":9360,"åı°æ¹¾çļĦ":9361,"ç½ĳæ°ĳ":9362,"æĸĩåĮĸçļĦ":9363,"æľĢåĲİä¸Ģæ¬¡":9364,"å±ıä¸ľ":9365,"æĵħéķ¿":9366,"3åĲį":9367,"Net":9368,"Ġ14":9369,"éĺĲ":9370,"è¿Ļä½į":9371,"æĢ»ä½ĵ":9372,"äº¦ä¸º":9373,"çİ¯ç»ķ":9374,"Lin":9375,"æľīçº¿":9376,"æĸ¯åĴĮ":9377,"å¹¶åĲĳ":9378,"å°±è¢«":9379,"å¤ıå¤©":9380,"åĨľåİĨ":9381,"ç´¢æģ©":9382,"ĠAl":9383,"ass":9384,"é¢ģå¥ĸåħ¸ç¤¼":9385,"ç»´åŁºçĻ¾ç§ĳ":9386,"ä¸»äºº":9387,"ä»»ä¸Ńåħ±":9388,"è¿Ľå±ķ":9389,"å¯ĨèĭıéĩĮ":9390,"çĻ½äºº":9391,"è¯ºè´Ŀå°Ķ":9392,"ĠSp":9393,"éĺ¿å°Ķå·´":9394,"ä¹ĭåīįçļĦ":9395,"ä¿ĺèĻı":9396,"æ¯ĹéĤ»":9397,"ä¸Ĭå°Ĩ":9398,"æĸ°åı°å¸ģ":9399,"æ¹Ľ":9400,"è®®éķ¿":9401,"æ·Ģ":9402,"æĶ»åħ¥":9403,"æĻºåĪ©":9404,"éĽ¶åĶ®":9405,"èĳ£äºĭä¼ļ":9406,"éĽįæŃ£":9407,"Ġæ²¿éĿ©":9408,"å¤§å¸Ŀ":9409,"åħ¶åŃĲ":9410,"ç¬¬11":9411,"å·ŀçļĦä¸Ģä¸ªå¸Ĥéķĩ":9412,"åİ¿æ²»":9413,"å¸¸ä½ı":9414,"æĻ®æŀĹ":9415,"è½¬åŀĭ":9416,"ç¦ıçī¹":9417,"çģ«çĤ®":9418,"è´ŁéĿ¢":9419,"åĢĻè½¦":9420,"æīĢè°ĵçļĦ":9421,"è¿½æº¯åĪ°":9422,"GB":9423,"ä¸Ģèĩ³":9424,"çī¢":9425,"åĴĮ1":9426,"åĲĮå¿Ĺ":9427,"äºļç§ĳ":9428,"æĽ´æĶ¹":9429,"æĽ´å¤§çļĦ":9430,"ä¿¡çĶ¨":9431,"æĭħå½ĵ":9432,"æī§æ³ķ":9433,"ä¹ĺè½¦":9434,"çĭ®åŃĲ":9435,"IA":9436,"æĺ¯æľī":9437,"æĸ°åŁİ":9438,"èī°":9439,"æĢ»ä¹¦è®°":9440,"è§ĨæĺŁçŃīä¸º":9441,"é¥²":9442,"ä¹Įé²ģ":9443,"æł¹æį®2020å¹´ç¾İåĽ½äººåı£æĻ®æŁ¥çļĦæķ°æį®":9444,"äºİ2004å¹´":9445,"ç«ĭæ³ķå§Ķåĳĺ":9446,"æĺİæĺ¾çļĦ":9447,"é«ĺéĽĦå¸Ĥ":9448,"And":9449,"æ¨¡çī¹åĦ¿":9450,"2ä¾ĭ":9451,"CH":9452,"çļĦæľĢé«ĺ":9453,"åĮ¿":9454,"ä¸ŃæĹ¬":9455,"åĩ°":9456,"ä¸ĭåįĬ":9457,"åħ±è¯Ĩ":9458,"æĻĭåįĩ":9459,"ĠAn":9460,"èĴ¸æ±½":9461,"%;":9462,"105":9463,"æĻ®åıĬ":9464,"èİ±æĺĤ":9465,"30åĪĨ":9466,"æľĢåĲİçļĦ":9467,"ive":9468,"1914å¹´":9469,"åĭĩå£«":9470,"èµĶåģ¿":9471,"äºİ2025å¹´":9472,"æľīå¤ļ":9473,"æİ·":9474,"å¾·åĪ©":9475,"è½¦éģĵ":9476,"éħ¬":9477,"éª¸":9478,"å±Ģéĥ¨":9479,"åı°æ¹¾çľģ":9480,"153":9481,"å®«å»·":9482,"æĪĺäºīçļĦ":9483,"ç§ģç«ĭ":9484,"è¯¢éĹ®":9485,"æĪĺåĪĹèĪ°":9486,"æĺ¯æľĢ":9487,"çī¹éĽ·":9488,"éĩįä¿®":9489,"çīĪæĿĥ":9490,"åľ£è¯ŀ":9491,"é¢Ħå®ļ":9492,"èĪªç©ºæ¯įèĪ°":9493,"own":9494,"èªīä¸º":9495,"æĹ¥æ²»æĹ¶æľŁ":9496,"çļĦåĮºåŁŁ":9497,"äººçĶŁ":9498,"è¾£":9499,"éª¤":9500,"æĶ¯çĲĥéĺŁ":9501,"ĠEn":9502,"08":9503,"BBC":9504,"wit":9505,"çļĦæłĩåĩĨ":9506,"æľīäºĨ":9507,"åĪĨç»Ħ":9508,"å½±ä¸ļ":9509,"çĽ´è¾ĸ":9510,"çĵ£":9511,"å·¦æ´¾":9512,"å°ģéĿ¢":9513,"è¯¸å¤ļ":9514,"æĭĽåĭŁ":9515,"åħ¬å¸ĥä¸º":9516,"Ad":9517,"af":9518,"å¤§å°ĨåĨĽ":9519,"æĸ¯å¤§":9520,"çľī":9521,"æ±ķ":9522,"æµ·åħ³":9523,"éģĵæŃī":9524,"éľĸ":9525,"ä¼Ĺäºº":9526,"åıĳè¡ĮäºĨ":9527,"åĶ±çīĩåħ¬åı¸":9528,"å±Ĭåħ¨åĽ½äººæ°ĳä»£è¡¨å¤§ä¼ļ":9529,"Ð°":9530,"çļĦåĽĽ":9531,"è¿Ħ":9532,"çºĤ":9533,"å¤§åŁĶ":9534,"åī¿":9535,"ä½ľçī©":9536,"è¢«éĢīä¸º":9537,"çļĦä¸Ģé¡¹":9538,"å¤įæ´»":9539,"çĽĳåĪ¶":9540,"åī§ä¸Ń":9541,"æ¡Īä¾ĭ":9542,"æĽ¿æį¢":9543,"æģ¶åĮĸ":9544,"è¿ĳå¹´æĿ¥":9545,"çļĦè¦ģæ±Ĥ":9546,"ä¸Ģæĸ¹":9547,"çľģéķ¿":9548,"æŁ¬":9549,"å¨¥":9550,"äº¤çĶ±":9551,"å·²åľ¨":9552,"æĻ®äº¬":9553,"åĨ³äºİ":9554,"eĠof":9555,"çĭ¬çī¹":9556,"èĪ¹åĳĺ":9557,"å¹¿æĴŃåħ¬åı¸":9558,"Ġ189":9559,"åĬłåĭĴæ¯Ķ":9560,"äººæ°Ķ":9561,"çīŁ":9562,"ä¾Ħ":9563,"æĭīçļĦ":9564,"ä¸¤åº§":9565,"çĶ²æĿ¿":9566,"ä¹łä¿Ĺ":9567,"Ġå¼ł":9568,"å¯¡":9569,"ä¸Ĭä»»":9570,"åĽłåŃĲ":9571,"ç½Ĺå§Ĩ":9572,"å±ķåĩº":9573,"åĪĿçº§":9574,"æ²Ļçī¹":9575,"æļ´åĬ¨":9576,"è½¯æĿ¡":9577,"çģ¾éļ¾":9578,"Ġä¹Įåħĭåħ°":9579,"çļĦåŃĺåľ¨":9580,"1919å¹´":9581,"ä¸įè¯¦":9582,"æĭīå¤ļ":9583,"ä½Ĩåį´":9584,"å¼ŁåŃĲ":9585,"è£ģå®ļ":9586,"æģĲæĥ§":9587,"ç¨ĭåº¦ä¸Ĭ":9588,"æµģåŁŁéĿ¢ç§¯":9589,"åı¤èĢģçļĦ":9590,"02":9591,"å¾·å·Ŀ":9592,"æ¯ıå°ıæĹ¶":9593,"é¢Ħéĺ²":9594,"æľĢè¿ĳçļĦ":9595,"èĪĨè®º":9596,"æĭ¯æķĳ":9597,"07":9598,"çļĦåıĮ":9599,"åĽ½ä¼ļè®®åĳĺ":9600,"æ³ķå°Ķ":9601,"é©°":9602,"æ²»å®ī":9603,"çº¦2":9604,"æŃ¢äºİ":9605,"è¾©è®º":9606,"èµ¦":9607,"æĹ¥è®°":9608,"åħĭåĬ³":9609,"å®īç½®":9610,"åį¡çī¹":9611,"åĲĦé¡¹":9612,"äºīè®º":9613,"çĽĳç®¡":9614,"é¹ī":9615,"åĸľçĪ±":9616,"Goog":9617,"çļĦéĩĳ":9618,"çļĦç»Ŀå¯¹":9619,"åĽ½åħ±":9620,"éĺ¿å¸ĥ":9621,"çĭ©":9622,"åıįå°Ħ":9623,"è½¬æĴŃ":9624,"136":9625,"è¡Ģç»Ł":9626,"è®¯åı·":9627,"çĶµåŃĲæ¸¸æĪı":9628,"æĹ¶å¸¸":9629,"åĬłé¾Ļ":9630,"åīįæĸ¹":9631,"æľŁæľĽ":9632,"åĪĹå®ģ":9633,"æ¸ħçľŁ":9634,"åĬŁçİĩ":9635,"å·®è·Ŀ":9636,"Le":9637,"é«ĺå³°":9638,"æŃ£è§Ħ":9639,"çŁ³åĻ¨":9640,"èĮ¨åħĭ":9641,"åįĹå®ĭ":9642,"éħ°":9643,"æ¯ıä¸Ģ":9644,"ç§ĭåŃ£":9645,"èµ¤ç»ı":9646,"ç¼ĵæħ¢":9647,"åĵºä¹³":9648,"3000":9649,"ä¹ĭå¥³":9650,"æ±ģ":9651,"å¤ļå¤«":9652,"æµ·æ°´":9653,"è¯¥ç»Ħç»ĩ":9654,"ç³»çļĦ":9655,"éĥ½æ²¡æľī":9656,"å¾Īéļ¾":9657,"æ·±åĪ»":9658,"æŀģå¤§":9659,"å¹²é¢Ħ":9660,"é©»æīİ":9661,"è¿ģå¾Ģ":9662,"æ½ľæ°´":9663,"ĠY":9664,"ĠåĪĨç±»":9665,"ä½ľçļĦ":9666,"èĥ°":9667,"å¹³è¡Į":9668,"äºļå½ĵ":9669,"æ·³":9670,"æĹıèĩªæ²»":9671,"çĭ¬èĩª":9672,"å£°ä¼ĺ":9673,"è¡Ĺå¤´":9674,"è¿ľä¸ľ":9675,"æİ¥åıĹäºĨ":9676,"å¹´è½»çļĦ":9677,"åı°åįĹå¸Ĥ":9678,"æĸ¯éĩĮåħ°åį¡":9679,"Ġå®ĥ":9680,"ĠåĽ½éĻħ":9681,"æľīåĪ©":9682,"æĸ¯åĽ¾":9683,"æĸ¹å½¢":9684,"éĩĮç¨ĭ":9685,"è½¦æīĭ":9686,"è½¦åŀĭ":9687,"ä¸ĸçļĦ":9688,"æł¡åıĭ":9689,"æ»´":9690,"åĮħæĭ¬äºĨ":9691,"æ´Ľéĺ³":9692,"é©»åľ°":9693,"æľĢåĪĿçļĦ":9694,"åıĤèµĽèµĦæł¼":9695,"çļĦåīįèº«":9696,"IG":9697,"åĴĮä¸Ń":9698,"åĮĹçº¦":9699,"åİ¿æĶ¿åºľ":9700,"æ²»çĲĨ":9701,"å¹¿ä¹ī":9702,"äººæ°ĳæ³ķéĻ¢":9703,"å¨ģå°Ķæĸ¯":9704,"å¤įåĲĪ":9705,"çİĩåħĪ":9706,"ä»ªåĻ¨":9707,"åīĳæ¡¥":9708,"èµ·æºĲäºİ":9709,"èħĵçī¹":9710,"åĲİåį«":9711,"æ³ķå®ļ":9712,"å®ļå¾ĭ":9713,"æĶ¹çĶ±":9714,"æĶ¯éĺŁ":9715,"ä¸ĵæ¡Ī":9716,"åĻ¨å®ĺ":9717,"åħ¸åŀĭ":9718,"åŃĻä¸Ńå±±":9719,"æ£ĢéªĮ":9720,"å¤ĦçĲĨåĻ¨":9721,"æİ¨åĩºäºĨ":9722,"CR":9723,"åĲĹ":9724,"æĪĲåĮĸ":9725,"åħĭåĪ©":9726,"åĨħçĳŀ":9727,"çĶµä¿¡":9728,"åħ±äº«":9729,"å¢ħ":9730,"åĲĦå¤§":9731,"æīĵè¿Ľ":9732,"é»Ħæ²³":9733,"æĤŁ":9734,"é¢ĦæľŁ":9735,"å¹²æī°":9736,"èĳ¬äºİ":9737,"ç½¢å·¥":9738,"è½¬ç§»åĪ°":9739,"ä¿Ħäº¥ä¿Ħå·ŀ":9740,"å¤§æŃ£":9741,"åįĹæĺĮ":9742,"å·´é©¬":9743,"æĽ¾æľī":9744,"åĽ¢çļĦ":9745,"å¤§åŃ¦æķĻæİĪ":9746,"æĶ¾ç½®":9747,"æ¤Ĵ":9748,"è¿ľå¾ģ":9749,"ç³»åĪĹçļĦ":9750,"illi":9751,"å¤ºåĨł":9752,"å¹¿æĴŃçĶµåı°":9753,"çļĦçī¹å¾ģ":9754,"ĠTheĠ":9755,"ä½Ľç½ĹéĩĮè¾¾å·ŀ":9756,"èħĵçī¹çĥĪ":9757,"å¤§åİħ":9758,"ä¸Ĭçº¿":9759,"è¢«æĮĩ":9760,"åħĭé²ģ":9761,"èµĽèīĩ":9762,"æķ°åĢ¼":9763,"å§ĶåĨħçĳŀ":9764,"åĳ½è¿Ĳ":9765,"æĹ¶éĹ´ä¸º":9766,"ç®ĢåĮĸ":9767,"çĽĨåľ°":9768,"åĳĺå¤ĸéĥİ":9769,"çļĦåĨħ":9770,"ä½Ĩæĺ¯åľ¨":9771,"ä½¿èĢħ":9772,"åįģä¸ĥå¹´":9773,"å®īåİ¿":9774,"éĤ¸":9775,"èĬ±èİ²":9776,"å¯Įå£«":9777,"ä»ĭçŁ³":9778,"åĭĥèī®":9779,"å¤ļä¼¦å¤ļ":9780,"æŀ«":9781,"ä½ľè¯į":9782,"æīĢå¾Ĺ":9783,"å°¼æĹ¥":9784,"åį³æĹ¶":9785,"æ¸ħæ°´":9786,"çĩ¥":9787,"æĭĺæįķ":9788,".\"":9789,"lo":9790,"ä¸ĭæĹ¬":9791,"æĸ°ä¸Ģ":9792,"ä¸ľè·¯":9793,"å§Ķå¸¸å§Ķ":9794,"åİĤåķĨ":9795,"èįīæ¡Ī":9796,"äºİ2000å¹´":9797,"æĪĳä»¬çļĦ":9798,"IL":9799,"ä¸įèī¯":9800,"æĢ»è®¡":9801,"ç¥ŀçĪ¶":9802,"ç»ĩçĶ°":9803,"ç¹ģå¿Ļ":9804,"ä½įäºİè¯¥åĽ½è¥¿éĥ¨":9805,"æµĵåº¦":9806,"é¹¦é¹ī":9807,"ä¹Ĵ":9808,"ç½Ĳ":9809,"äºĮå±Ĥ":9810,"éħ±":9811,"éħµ":9812,"åĽŀå®¶":9813,"ç²¾èĭ±":9814,"ä¾µçķ¥":9815,"å§Ĳå¦¹":9816,"èħĲè´¥":9817,"åĽļçĬ¯":9818,"Ġäºīè®®":9819,"è½¬èĢĮ":9820,"åĲīä»ĸ":9821,"å¾Īå¤§çļĦ":9822,"ç§»æ¤į":9823,"æľ«å¹´":9824,"èįīåİŁ":9825,"å«¡":9826,"åĪĬçĻ»":9827,"åı¸ä»¤åĳĺ":9828,"çİ°æĹ¶çĶ±":9829,"æĸ°åĮĹå¸Ĥ":9830,"lin":9831,"Ã¡":9832,"ç»ħ":9833,"ä¼ļéĿ¢":9834,"åįĹç«¯":9835,"å½ĵæĻļ":9836,"åľºåĲĪ":9837,"å°±ä¸ļ":9838,"æĮĩæłĩ":9839,"å¥ĸåĬ±":9840,"ç»§ä½į":9841,"çıĬçĳļ":9842,"æĦ¤æĢĴ":9843,"åĬ¨è¯į":9844,"è½¦çļĦ":9845,"ç«ĭæ³ķéĻ¢":9846,"èĲ¤":9847,"æķħæĦı":9848,"ä¸ĸçºªåĪĿ":9849,"äºİ2003å¹´":9850,"è¯ĹæŃĮ":9851,"åĩ¤åĩ°":9852,"åĢºåĬ¡":9853,"éĻįéĽ¨éĩı":9854,"è½¦èº«":9855,"åıĸåĨ³äºİ":9856,"åĸĬ":9857,"æĶ¿æ²»å±Ģ":9858,"é¥±":9859,"çĽĳç¦ģ":9860,"è¡Ģç®¡":9861,"æĮĩæĮ¥éĥ¨":9862,"ç®ĢåįķçļĦ":9863,"1åĲį":9864,"tt":9865,"ĠåĪĨå¸ĥ":9866,"ä»ĸæĪĲä¸º":9867,"åħ¬å¹³":9868,"åıĳçļĦ":9869,"åĮĹéŃı":9870,"éĩįçļĦ":9871,"ç»Īç»ĵ":9872,"åĪ¶éĢłåķĨ":9873,"èĴĭä»ĭçŁ³":9874,"è´«åĽ°":9875,"åĲıéĥ¨":9876,"æĶ¿å§Ķ":9877,"åĬłçĥŃ":9878,"ä¹Łåı¯èĥ½":9879,"æķ°ä¸º":9880,"åİŁæĿ¥çļĦ":9881,"ä½įäºİéĵ¶":9882,"çŃ¾è¯ģ":9883,"çļĦç¬¬ä¸Ģä¸ª":9884,"03":9885,"ux":9886,"ĠéŁ³ä¹Ĳ":9887,"å¯¹ä»ĸ":9888,"åı£åı·":9889,"æĪĸåħ¶ä»ĸ":9890,"åĪĻè¢«":9891,"æµģäº¡":9892,"orn":9893,"åĶĲä»£":9894,"æ°ĳæĹıä¸»ä¹ī":9895,"åİŁåĽłæĺ¯":9896,"SAO":9897,"åį¸ä»»":9898,"æ³ķè§Ħ":9899,"æľĢæľī":9900,"æµ·çĽĹ":9901,"æľºç»Ħ":9902,"æĬ¤çħ§":9903,"åįĬå¾Ħ":9904,"æĳ©æīĺ":9905,"æįŁå®³":9906,"æµªæ¼«":9907,"åŃ¦å£«åŃ¦ä½į":9908,"04":9909,"SO":9910,"ä¸ºæĹ¥æľ¬":9911,"äººä½ĵ":9912,"åŃ¦åĳĺ":9913,"è¯¥å¹´":9914,"é¦ĸæĺł":9915,"åĭī":9916,"å¼¹åĬ¾":9917,"æ¸Ĳæ¸Ĳ":9918,"åĪĳéĥ¨":9919,"å¤§å¥ĸèµĽ":9920,"8ç±³":9921,"æ³Į":9922,"ä¸Ĭä¸Ģ":9923,"æ°ĳåħļ":9924,"å¯¹æ¯Ķ":9925,"åħĭæĭīåħĭ":9926,"å¤ļæĸ¯":9927,"çº§è¡ĮæĶ¿åįķä½į":9928,"åĩłåĨħäºļ":9929,"çļĦçī¹æľī":9930,"åĤ¬åĮĸ":9931,"ech":9932,"çļĦæ¶Īæģ¯":9933,"åľ¨å½ĵåľ°":9934,"åľ¨ä¸ŃåĽ½å¤§éĻĨ":9935,"ä¼ļå¯¼èĩ´":9936,"ä»£è°¢":9937,"10ä¸ª":9938,"è¶ħäºº":9939,"çīĽæ´¥":9940,"1926å¹´":9941,"ç»ĺåĪ¶":9942,"ç¹ģèį£":9943,"å¼ĺæ²»":9944,"ies":9945,"æĽ¾äºİ":9946,"å¡ĶåŁº":9947,"å·¥ä½ľèĢħ":9948,"çħ®":9949,"ical":9950,"åİ¿çļĦéĿŀå»ºåĪ¶åľ°åĮº":9951,"é¢Ĩäºĭé¦Ĩ":9952,"è¤Ĵ":9953,"ä¸İå¤§":9954,"ç¬ĥ":9955,"ä¸ĭåĪĹ":9956,"å®īæīĵ":9957,"å¸¦èĳĹ":9958,"å»ºçŃĳéĿ¢ç§¯":9959,"1925å¹´":9960,"æ¦ľåįķ":9961,"ç¯ĩå°ıè¯´":9962,"åĮĸåŃ¦å¼ı":9963,"å¤±åİ»äºĨ":9964,"span":9965,"Windows":9966,"Qu":9967,"Î²":9968,"æĺ¯åį°åº¦":9969,"éĹµ":9970,"ä¹Łèĥ½":9971,"åŁİéĻħ":9972,"åįİä¸ľ":9973,"æł·æľ¬":9974,"åłĤåĮº":9975,"åħ¨åĽ½éĩįçĤ¹æĸĩçī©ä¿ĿæĬ¤åįķä½į":9976,"ä»ĺè´¹":9977,"æĲŃæ¡£":9978,"ç»§æī¿äºº":9979,"åŃ£åĲİèµĽ":9980,"é¡ºæĹ¶éĴĪä¸İ":9981,"åĩ»éĢĢ":9982,"æĶ¿æ²»éĥ¨":9983,"åŃ¦æł¡çļĦ":9984,"éª¨éª":9985,"4ç±³":9986,"å²ĳ":9987,"åĪ¶å¤ĩ":9988,"çłį":9989,"èī²æĥħ":9990,"å¥¥åı¤":9991,"æĶ¯æĴĳ":9992,"æİ¨çĲĨ":9993,"æĵ¢":9994,"å¯¼èĩ´äºĨ":9995,"äºİ2002å¹´":9996,"åĴĴ":9997,"ä»£æķ°":9998,"éģĵå¤«":9999,"åĲĦçº§":10000,"äº¦åı¯":10001,"å®«æ®¿":10002,"åıĳå¸ĥçļĦ":10003,"1909å¹´":10004,"è¶ħçº§èģĶèµĽ":10005,"çĲĥæ¯ĶèµĽ":10006,"ä½Ĩæ²¡æľī":10007,"æŃ£ç»Ł":10008,"èį«":10009,"åºĶå½ĵ":10010,"çº³çľģ":10011,"åĽ½å®¶è¶³çĲĥéĺŁ":10012,"åı¯ä»¥çĶ¨":10013,"çĳ¶":10014,"çĶµå½±çļĦ":10015,"åĶĲçº³":10016,"æŁĲä¸ª":10017,"æľīåħ³çļĦ":10018,"æļĹç¤º":10019,"åĭĥèī®ç¬¬":10020,"åĽ½å¤ĸ":10021,"èĢĮåĲİ":10022,"ä¸ľæĹ¥æľ¬":10023,"ç§ĳçłĶ":10024,"éĺ¿åĪĹ":10025,"çĽ´å±ŀ":10026,"æĺ¯ä¸Ģæ¬¾":10027,"172":10028,"éĺ²çº¿":10029,"æ´ĭåŁº":10030,"ä¸ģçĽ®":10031,"å¾ĴåĪĳ":10032,"äºİ187":10033,"ç¨³å®ļçļĦ":10034,"æĪĺå½¹ä¸Ń":10035,"Ġç®ĢåİĨ":10036,"B1900":10037,"eat":10038,"âĢĿ;":10039,"è¯¥ç«Ļ":10040,"åĪĹæĸ¯":10041,"æĶ¿åºľåľ¨":10042,"å¥¹æĺ¯":10043,"æĹıçļĦ":10044,"å¼ķå¯¼":10045,"éĵ¶çº¬":10046,"1922å¹´":10047,"æĸ°å¢ŀæľ¬åľŁ":10048,"Ġè½¦ç«ĻæŀĦéĢł":10049,"çŃĭ":10050,"é«ĺéĵģ":10051,"è·¯åĨĽ":10052,"åı¤å±ĭ":10053,"ç¬¬ä¸Ģæī¹":10054,"æĶ¾å°Ħ":10055,"ityĠ":10056,"éģĹä½ĵ":10057,"åĩıå¼±":10058,"çĶŁçī©åŃ¦":10059,"ä¼ĬåĪ©è¯ºä¼Ĭ":10060,"éª¨éª¼":10061,"John":10062,"Ġç»ıåİĨ":10063,"çļĦä½¿çĶ¨":10064,"åħ¬ç«ĭ":10065,"çī¹å®ļçļĦ":10066,"çĶµåİĭ":10067,"éŃħ":10068,"res":10069,"éĢģå¾Ģ":10070,"æĿ¥æºĲäºİ":10071,"åĳ¨æģ©æĿ¥":10072,"0åĿĲæłĩä¸º":10073,"Ġg":10074,"ä¹ŀ":10075,"å¥ķ":10076,"åħ¶B1900":10077,"è¿Ľç¨ĭ":10078,"æĭīå§Ĩ":10079,"å¢©":10080,"åŀĥ":10081,"å¥¥å¾·":10082,"é²·":10083,"æĹıèĩªæ²»åĮº":10084,"1500":10085,"è¿ªæĸ¯":10086,"2019åĨłçĬ¶çĹħæ¯Ĵ":10087,"ä½įäºİéĵ¶ç»ı":10088,"0åĿĲæłĩä¸ºèµ¤ç»ı":10089,",\"":10090,"Cl":10091,"IR":10092,"ä¿ŀ":10093,"é«ĺåľ°":10094,"çĪ¸":10095,"å¥¥å¤ļ":10096,"146":10097,"ï¼İ":10098,"å°ĳæķ°æ°ĳæĹı":10099,"èĤĮèĤī":10100,"5ä¸ĩ":10101,"ä¸ĢåįĬ":10102,"æĹ¥çļĦ":10103,"è¿ĩåĲİ":10104,"é¢ĨéĺŁ":10105,"æĽ´é«ĺ":10106,"ä¿¡å¥ī":10107,"one":10108,"å¯Ĩè¥¿":10109,"old":10110,"ãĥ³":10111,"æ²īç§¯":10112,"åįĹæŀģæĿ¡çº¦":10113,"æĩ¿":10114,"éĴ»çŁ³":10115,"TE":10116,"æĺ¯å¤§":10117,"çĶ±åħ¶":10118,"çŁ¢":10119,"éħ¸çĽĲ":10120,"åĲ¦åĨ³":10121,"éĢĥäº¡":10122,"å¸ĥæĭīæł¼":10123,"å¤įæĿĤçļĦ":10124,"éĢ¢æĺŁæľŁ":10125,"å½ķéŁ³å®¤":10126,"æĺİå°¼èĭı":10127,"1ç±³":10128,"åľ¨è¿Ļä¸ª":10129,"ç»ŃéĽĨ":10130,"éĤ£ä¸ª":10131,"æ³½è¥¿":10132,"çİ°ä»£åĮĸ":10133,"ä¸įä¹ħåĲİ":10134,"codice":10135,"Ġå·´":10136,"ä¸Ĭæł¡":10137,"æĻ·":10138,"åįİåįĹ":10139,"11æľĪ1æĹ¥":10140,"åį³æĺ¯":10141,"èī¾ä¼¦":10142,"åĩ»è´¥äºĨ":10143,"è´·æ¬¾":10144,"Fac":10145,"å½¬":10146,"åħ¬ç½²":10147,"åı¯çĶ¨":10148,"æīĢè¾ĸ":10149,"è¯´æĺ¯":10150,"æľ¨åĦ¿":10151,"è´¢å¯Į":10152,"Ġ1999å¹´":10153,"ä¸ºä¸»é¢ĺ":10154,"1911å¹´":10155,"æĢ»éĥ¨ä½įäºİ":10156,"å¦Īç¥ĸ":10157,"ii":10158,"yst":10159,"çļĦå¥³æĢ§":10160,"çļĦä½ľçĶ¨":10161,"åľ¨å¾·åĽ½":10162,"ç«ĸ":10163,"ä¸ĸä»£":10164,"æľªç»ı":10165,"æľªæĿ¥çļĦ":10166,"èĤ¡æĿĥ":10167,"ãģ®":10168,"çĶĺèĤĥçľģ":10169,"Ġä¸Ńåįİäººæ°ĳåħ±åĴĮåĽ½":10170,"åľ¾":10171,"å½Ĺ":10172,"åħ¶çĪ¶":10173,"ãĢį()":10174,"æ¯Ķ2":10175,"æĶ¹ä»»":10176,"èİ±åĿŀ":10177,"çĥĪå£«":10178,"ãĢīãĢģãĢĪ":10179,"åŀĥåľ¾":10180,"BD":10181,"åĮĹå®ĭ":10182,"ä¸ľé£İ":10183,"æĽ¾ä¸İ":10184,"èĪ°èīĩ":10185,"åĨ²ç»³":10186,"ç£ħ":10187,"åºĻå®ĩ":10188,"é¥ŃåºĹ":10189,"3D":10190,"AG":10191,"BM":10192,"ĠæĸĩåĮĸ":10193,"åįĹä¸ĭ":10194,"å¾·åħ°":10195,"å¼ºè¿«":10196,"æŀģéĻĲ":10197,"èľ¥":10198,"ç©¿èĳĹ":10199,"éĩįåºĨå¸Ĥ":10200,"æĸ¯æ´Ľä¼Ĳåħĭ":10201,"å®°çĽ¸":10202,"å¡ŀæĭľçĸĨ":10203,"1åı·çº¿":10204,"Re":10205,"å¸ĤåĨħ":10206,"å¸ĥåĪĹ":10207,"é©¬è¾¾":10208,"åİ¿çº§":10209,"ç»ĵå±Ģ":10210,"è¿ĺè¦ģ":10211,"æ´Ľä¼Ĭ":10212,"ä¾ĿæĹ§":10213,"ä¸¾è¡ĮäºĨ":10214,"éħĴç²¾":10215,"1921å¹´":10216,"å§Ĳå§Ĳ":10217,"ä¹¡éķĩçº§è¡ĮæĶ¿åįķä½į":10218,"åĲİæīį":10219,"ä¹ĭæĦı":10220,"åħ³ä¸ľ":10221,"é¢Ĩè¡Ķ":10222,"å¤ªå®Ĺ":10223,"æĿĥçĽĬ":10224,"æ³¢éŁ³":10225,"ç¬¬äºĮè½®":10226,"è´¹åŁİ":10227,"èĩªçĶ±åħļ":10228,"æ³īå·ŀ":10229,"åı°ä¸Ńå¸Ĥ":10230,"å¤©çĦ¶æ°Ķ":10231,"2åĲį":10232,"ä¸ĢçĶŁ":10233,"åĴĮæĸ°":10234,"åı¯åĪĨä¸º":10235,"çī©æµ¦":10236,"é©¬å¾·éĩĮ":10237,"çļĦä¸Ģä½į":10238,"æ¶ĪéĻ¤":10239,"èİ«å°Ķ":10240,"æĺ¥åŃ£":10241,"æ··åĩĿ":10242,"è®¾ç«ĭçļĦ":10243,"æ´ªæŃ¦":10244,"æĸ¹åĲĳçļĦ":10245,"å¼ķèµ·äºĨ":10246,"å¤§éĥ¨ä»½":10247,"ä¸ĵåĮº":10248,"ä¸»æķĻåº§åłĤ":10249,"æķıæĦŁ":10250,"å¿ĥçĲĨåŃ¦":10251,"ç»°":10252,"èĢĮå¾ĹåĲį":10253,"109":10254,"æł¼æĸ¯":10255,"12ä¸ª":10256,"è¾ĥå°ı":10257,"åĽ´æĶ»":10258,"çİĽä¸½äºļ":10259,"tr":10260,"æľĶ":10261,"å¤§äºİ":10262,"æ²¦":10263,"ä¸įåıĬ":10264,"å°ıå¹³":10265,"å¤§åŃ¦çĶŁ":10266,"ina":10267,"æ¯ıä¸Ģä¸ª":10268,"æķħéļľ":10269,"ç»ĦæĪĲéĥ¨åĪĨ":10270,"èĮ¨åŁº":10271,"çŀĦ":10272,"å±±èĦīçļĦä¸Ģéĥ¨åĪĨ":10273,"8æľĪ1æĹ¥":10274,"9æľĪ1æĹ¥":10275,"Ġç¤¾ä¼ļ":10276,"ĠçĽ¸åħ³":10277,"åºµ":10278,"å¤§è´¥":10279,"åĴĮä¸Ģä¸ª":10280,"æ°°":10281,"ä¸»ç¼ĸ":10282,"åĪĨæķ£":10283,"éĿ¢åīį":10284,"108":10285,"èµ·äºĨ":10286,"167":10287,"å°Ħåħ¥":10288,"âĢĿ,âĢľ":10289,"è½¨éģĵäº¤éĢļ":10290,"çº³ç²¹å¾·åĽ½":10291,"æĸ°åĨłèĤºçĤİç¡®è¯ĬçĹħä¾ĭ":10292,"ĠçĶµå½±":10293,"Ġè¿Ļä¸ª":10294,"ç»£":10295,"çº±":10296,"æ¼³":10297,"æį®çĤ¹":10298,"åıªåľ¨":10299,"æŃ¥è¡Į":10300,"æ¿ĳ":10301,"åĽ½æ°ĳéĿ©åĳ½åĨĽ":10302,"æ©ĺ":10303,"è¿ŀç»Ńåī§":10304,"åŁĶå¯¨":10305,"èĦĤé²¤":10306,"DR":10307,"ä¸Ģè§Ĵ":10308,"åŃ¢":10309,"æľĢå°ı":10310,"éĹ´æİ¥":10311,"çĶµæ¢¯":10312,"åĪĽæĦı":10313,"åº§ä½į":10314,"iss":10315,"æ²īæ²¡":10316,"æłĸæģ¯åľ°":10317,"ä¼łæķĻå£«":10318,"çººç»ĩ":10319,"å¯Ŀ":10320,"éĺİ":10321,"æĹ¶ä¼ļ":10322,"åı¯çĶ±":10323,"åĪ©çī©æµ¦":10324,"çĶµå®¹":10325,"ä¹ŁæĪĲä¸º":10326,"æĭīå°Ķ":10327,"çĥ¦":10328,"173":10329,"148":10330,"éĽħåĲĦ":10331,"åĵ²åŃ¦å®¶":10332,"æŁ¬åŁĶå¯¨":10333,"åĪĨå¼Ģ":10334,"åłķ":10335,"é²¨":10336,"è¶³ä»¥":10337,"åŃ¦éĻ¢çļĦ":10338,"ç´¢å°¼":10339,"æļ´éľ²":10340,"èī¯å¥½çļĦ":10341,"äººç±»çļĦ":10342,"çİ¯å½¢å±±":10343,"èįĥæ¹¾":10344,"åįĹæŀģæĿ¡çº¦ä½ĵç³»":10345,"4åĲį":10346,"ä¸İä¸ŃåĽ½":10347,"ä¸įå¦Ĥ":10348,"éĩĳæĽ²":10349,"ç©ºè°ĥ":10350,"åĪĽä¸ĭ":10351,"è¿ŀåĲĮ":10352,"åģľçķĻ":10353,"éĩİæĪĺ":10354,"åĲ¯åıĳ":10355,"äºİ1998å¹´":10356,"ç¿°æŀĹéĻ¢":10357,"åİķ":10358,"ç¬¬9":10359,"ä½įåĪĹ":10360,"æľĢå¥½çļĦ":10361,"èĬ¯":10362,"åħ¨åı°":10363,"ä¸¤å¤§":10364,"åĮħæĭ¬ä»¥ä¸ĭ":10365,"èĬ±è´¹":10366,"att":10367,"éŁ³ä¹Ĳä¼ļ":10368,"è¿ģå¾Ļ":10369,"ç´§å¯Ĩ":10370,"NC":10371,"çļĦè¡ĮåĬ¨":10372,"åľ¨åįĹ":10373,"æĹ¶è¢«":10374,"æµı":10375,"è¾¾å°¼":10376,"èµ·é£ŀ":10377,"æĺİçļĦ":10378,"æĹ¶éĹ´åĨħ":10379,"ä½ľåĵģçļĦ":10380,"æ··åĩĿåľŁ":10381,"çļĦçİ¯å¢ĥ":10382,"å®¦":10383,"ä¸įåľ¨":10384,"å¹¶å¯¹":10385,"å¹¶ç§°":10386,"äºĭä¸Ń":10387,"è·¯å¾·":10388,"èĬ½":10389,"æķ°çĽ®":10390,"åħļç±į":10391,"çļĦä¸Ģå®¶":10392,"åľ£æ®¿":10393,"åįłæĢ»äººåı£":10394,"èĮĥçķ´":10395,"çľŁçļĦ":10396,"åĲİæĿ¥è¢«":10397,"äºİ2001å¹´":10398,"1923å¹´":10399,"é¢Ĺå°ıè¡ĮæĺŁ":10400,"1913å¹´":10401,"åĵĪå°Ķæ»¨å¸Ĥ":10402,"Ġå®ī":10403,"çļĦèĢģ":10404,"ä¸İç¾İåĽ½":10405,"ä¹ĭè·¯":10406,"å¾·çĶ²":10407,"ç»´èİ±":10408,"åĽŀå¤į":10409,"ç©ºéĻį":10410,"çº³è¥¿":10411,"æļĹæĿĢ":10412,"æ±ĹåĽ½":10413,"ä¸Ńåľº":10414,"åĽ½åľŁ":10415,"æº´":10416,"ä¸ĸçķĮçļĦ":10417,"åĮĹäº¬å¤§åŃ¦":10418,"ä¼ĺæĥł":10419,"Ġç¬¬ä¸ī":10420,"é¢ħ":10421,"ç¤ºèĮĥ":10422,"èĻŀ":10423,"ç¬¬ä¸Ģéĥ¨":10424,"ate":10425,"éªĮè¯ģ":10426,"èĤ¡ç¥¨":10427,"Ð¾":10428,"ĠèģĮä¸ļçĶŁæ¶¯":10429,"å®µ":10430,"ä¸ºä»ĸ":10431,"ä¸įéľĢè¦ģ":10432,"äºĮæ°§åĮĸ":10433,"å¤©ç©º":10434,"è¿ĲéĢģ":10435,"æ¼Ķä¹ł":10436,"æĥħå½¢":10437,"åĳĬçŁ¥":10438,"è¯¸å¦Ĥ":10439,"ä¸§å¤±":10440,"å§ĶåĨħçĳŀæĭī":10441,"2019åĨłçĬ¶çĹħæ¯ĴçĹħ":10442,"ä½¥":10443,"åŃľ":10444,"åīĮ":10445,"æĸĩçļĦ":10446,"äºĭå®ľ":10447,"äºĮçĶ²":10448,"å§ĭäºİ":10449,"åıįåĩ»":10450,"æŃ¦æľ¯":10451,"çĪ±æ²Ļ":10452,"ä½łä»¬":10453,"åįĹæŀģæĿ¡çº¦ä½ĵç³»ç®¡çĲĨ":10454,"Ġ15":10455,"Ġå¤ĸéĥ¨":10456,"âĢľâĢĿ":10457,"ç«ĭåĪ»":10458,"çīĩä¸Ń":10459,"ç¦ıåĨĪ":10460,"åįļå°Ķ":10461,"1950å¹´ä»£":10462,"æ°¸ä¹Ĳ":10463,"ç»įåħ´":10464,"çĦ¦çĤ¹":10465,"æłªå¼ı":10466,"çĪ±æ²Ļå°¼äºļ":10467,"DC":10468,"Ed":10469,"yl":10470,"çļĦM":10471,"åĲįåı¤å±ĭ":10472,"ç¾Į":10473,"æĽ´åĲį":10474,"åĩ»èĲ½":10475,"åĩºçĶŁåľ¨":10476,"æģĭçĪ±":10477,"å¹¸ç¦ı":10478,"æłªå¼ıä¼ļç¤¾":10479,"ron":10480,"æµĳ":10481,"æĸ°çĶŁ":10482,"è°ľ":10483,"é©¬åľº":10484,"åħ¨æķ°":10485,"åı²æĸĻ":10486,"å°±å·²ç»ı":10487,"æĻ®å°Ķ":10488,"åĻª":10489,"åĵĪèĲ¨":10490,"åħ¶ä¸Ńæľī":10491,"æĸ½è¡Į":10492,"147":10493,"éĻįçº§":10494,"èĴĻå¾·":10495,"ä¸īè§Ĵå½¢":10496,"æ®ĭçĸ¾äºº":10497,"UR":10498,"åīĸ":10499,"éļĻ":10500,"èĤĨ":10501,"ç¼ł":10502,"éĶ¯":10503,"enn":10504,"äºĭä»¶çļĦ":10505,"ä¸ĺéĻµ":10506,"æħķå®¹":10507,"åĮºè®®ä¼ļéĢīä¸¾":10508,"ton":10509,"äººè®¤ä¸º":10510,"æĺ¯å½ĵåľ°":10511,"éĩįä¼¤":10512,"æĢ»ç»ĵ":10513,"åŁİéĹ¨":10514,"å·´éĩĮ":10515,"åĽ½å®¶çº§":10516,"ç»Ļä»ĸ":10517,"ç³»ç»Łä¸Ń":10518,"ä»ĭåħ¥":10519,"èĨ¨":10520,"åħĭéĩĮæĸ¯èĴĤ":10521,"ä¼´ä¾£":10522,"éĽĨä¸Ńåľ¨":10523,"å¸ĸæľ¨åĦ¿":10524,"æ²§":10525,"çĶ±ç¾İåĽ½":10526,"åĲĮæ²»":10527,"128":10528,"ç¡Ŀ":10529,"è¿ĺä¼ļ":10530,"åħŃä¸ĸ":10531,"å®¢ä¸²":10532,"æİĴæĶ¾":10533,"å¹²çĩ¥":10534,"ä¸¹å°¼å°Ķ":10535,"éĺµçº¿":10536,"ç½ªåĲį":10537,"æ¿Ģè¿Ľ":10538,"å¨ģå°Ķå£«":10539,"åĩ¹":10540,"ä¸Ĭå±Ĥ":10541,"åİŁåĿĢ":10542,"åŁİåĨħ":10543,"æīĭæ³ķ":10544,"ä¿ĿèĤ²":10545,"æ·¹":10546,"éĢļè¿ĩäºĨ":10547,"éĺµåľ°":10548,"éĢĤå½ĵ":10549,"ç£ģåľº":10550,"èĲ¨åħĭæ£®":10551,"Ġç½Ĺ":10552,"Ġèĭ±åĽ½":10553,"ĠæķĻèĤ²":10554,"æĸ¹éĴĪ":10555,"å¦ĵ":10556,"ä½Ĩè¿Ļ":10557,"å¤įä»ĩ":10558,"æ¥ł":10559,"åįĥäºº":10560,"åĳĬç¤º":10561,"æĪ´ç»´æĸ¯":10562,"æĦıè¯Ĩå½¢æĢģ":10563,"ç»Ĵ":10564,"åºĲ":10565,"ä¹ĭä¹±":10566,"æµ·åºķ":10567,"åħ¨å¹´":10568,"ç¨ļ":10569,"åıĪæľī":10570,"ĠSch":10571,"äºİ186":10572,"å¯¿åĳ½":10573,"BO":10574,"çļĦæ¯ĶèµĽä¸Ń":10575,"å·¥éĥ¨":10576,"æĹłéĶ¡":10577,"éĴ¥":10578,"åħĪåıĳ":10579,"å®ĮåĸĦ":10580,"eng":10581,"169":10582,"çĽĳè§Ĩ":10583,"çĴĭ":10584,"1917å¹´":10585,"ä¸Ĭç©º":10586,"ä¸įå¤ļ":10587,"åħ¨å¢ĥ":10588,"erv":10589,"å¼ºå¤§":10590,"174":10591,"åĨĻçļĦ":10592,"å»ºç«ĭçļĦ":10593,"èĨĢ":10594,"æĤłä¹ħ":10595,"IM":10596,"ieĠ":10597,"Ġè¿ĻäºĽ":10598,"ä¸ĢæĹ¥":10599,"åĮĹç¾İæ´²":10600,"éĿ¢2":10601,"èµĽåĨłåĨĽ":10602,"åħĥé¦ĸ":10603,"å¿ĥçļĦ":10604,"è®©äºº":10605,"åŁĥå¾·":10606,"éĵ¶æ²³":10607,"è¿½åĩ»":10608,"çī©çĲĨåŃ¦å®¶":10609,"åĵĪå°Ķç§ĳå¤«":10610,"Ġæ°ĳåĽ½":10611,"åĽ½ç±į":10612,"ä¸įåĪ©":10613,"è¥¿æ¯Ķ":10614,"äºĮåı·":10615,"å®ļäºĨ":10616,"æĢ§è¡Įä¸º":10617,"æĹłåħ³":10618,"æ·«":10619,"äºĶä¸ĸ":10620,"è§ģè¯ģ":10621,"6æľĪ30æĹ¥":10622,"è´Ńåħ¥":10623,"å§ĵåĲį":10624,"Ġ1945å¹´":10625,"çıįçıł":10626,"çºµéĺŁ":10627,"çİ°æĹ¶çĶ±åįĹæŀģæĿ¡çº¦ä½ĵç³»ç®¡çĲĨ":10628,"?âĢĿ":10629,"DA":10630,"tor":10631,"ä¸Ģåıª":10632,"äºİé¦Ļæ¸¯":10633,"æĮĿ":10634,"ç§ĳè¿Ľå£«":10635,"çĽ¸å¯¹äºİ":10636,"èģĮäººåĳĺ":10637,"åĽ¾æĽ¼":10638,"çŁ³å¤´":10639,"éħįè§Ĵ":10640,"rop":10641,"é¡¹çĽ®çļĦ":10642,"rist":10643,"èģĺè¯·":10644,"çļĦéĩį":10645,"çļĦä¸¤ä¸ª":10646,"çļĦè½¨éģĵ":10647,"æĻ°":10648,"éĿ¢åĮħ":10649,"æĪĺæĹ¶":10650,"å¦Ĩ":10651,"æŃ»èĢħ":10652,"èĵī":10653,"åĢŁæŃ¤":10654,"åİĦå°Ķ":10655,"èı©èĲ¨":10656,"çļĦäººåı£":10657,"å¼§":10658,"ä¼ļä»¥":10659,"åĮĹæŀģ":10660,"è¿ĩäºĨ":10661,"ä½Ĩä¹Ł":10662,"é¦ĸå¼ł":10663,"æŀĹèĤ¯":10664,"åİĨç»ı":10665,"æĴŃæĺł":10666,"å¥ĸç«ł":10667,"å®ĩæĸĩ":10668,"èĦĬæ¤İ":10669,"adĠ":10670,"æµ´":10671,"å¹¶å¼Ģå§ĭ":10672,"ç©Ĺ":10673,"æ°´éĿ¢":10674,"åŀ«":10675,"ç½ªè¡Į":10676,"èĢ³æĽ¼":10677,"åĬŀåħ¬åİħ":10678,"æ¸ħçľŁå¯º":10679,"6æľĪ1æĹ¥":10680,"80å¹´ä»£":10681,"Ġåı¤":10682,"å¼Ģè¾Ł":10683,"åĪĹé¢ł":10684,"è¯´çļĦ":10685,"æ¨Ł":10686,"æŃ»åİ»":10687,"èĶ½":10688,"ç¼©çŁŃ":10689,"çģ°èī²":10690,"ext":10691,"ä¹ĵ":10692,"ä¸Ģåĳ¨":10693,"ä¸įåı¯èĥ½":10694,"æµģéĢļ":10695,"çĵ¦æĭī":10696,"è¾¹å½¢":10697,"åį¢æ£®åł¡":10698,"å®īå¾·çĥĪ":10699,"æº¶æ¶²":10700,"1å®¶":10701,"Ġæ°´":10702,"çļĦè¿ĩç¨ĭ":10703,"èģĶéĺŁ":10704,"ç¤¾åĽ¢":10705,"åį°åľ°":10706,"row":10707,"åįĹéĥ¨çļĦ":10708,"æĳ©æł¹":10709,"æłĳæľ¨":10710,"é«ĺçŃīæķĻèĤ²":10711,"æ©¡èĥ¶":10712,"ä¸ĢæīĢ":10713,"ä¸Ģç¾¤":10714,"ä¸İæĹ¥æľ¬":10715,"è¥¿å¾·":10716,"å»¿":10717,"æľ¬åī§":10718,"ç½ĹéĹ¨":10719,"ç§ĳåĮ»çĶŁ":10720,"çº¦3":10721,"å°ĳéĩı":10722,"çĳ°":10723,"è¡ĮæĶ¿åĮºåŁŁ":10724,"åĲİæĿ¥åľ¨":10725,"å¤ªéĺ³åħ¬":10726,"çĹĽèĭ¦":10727,"æ¶Īè´¹èĢħ":10728,"âĪĴ":10729,"5Ġ":10730,"ck":10731,"çļĦå®ĺæĸ¹":10732,"å¹´åºķ":10733,"åľ°åĬ¿":10734,"ä¸»åĶ±":10735,"ä¹Łå°Ĩ":10736,"è¯¥ä¹¦":10737,"å¤©æ¡¥":10738,"è¿ĺåİŁ":10739,"å¤įåĪ¶":10740,"æİ¨è¿Ł":10741,"è´¨çļĦ":10742,"å©·":10743,"æľĢåĲİä¸Ģä¸ª":10744,"å¹¼åĦ¿":10745,"è£Ķç¾İåĽ½äºº":10746,"é¢ĨåŁŁçļĦ":10747,"éģµå¾ª":10748,"ç»¼èīºèĬĤçĽ®":10749,"9ä¸ª":10750,"For":10751,"Wh":10752,"ä¸ĢéĹ´":10753,"æľ¬éĥ¨":10754,"å®ĺèģĮ":10755,"æĬ¥å¤į":10756,"è¯ĨåŃĹ":10757,"åĮĹéĥ¨çļĦ":10758,"æ¯Ĵåĵģ":10759,"å®½åº¦":10760,"åıĳè¡¨çļĦ":10761,"ide":10762,"çģ¾å®³":10763,"éļĲèĹı":10764,"ebook":10765,"ä¸ºç¾İåĽ½":10766,"å¤§å¤§":10767,"åĲįåĪĹ":10768,"è¥¿è·¯":10769,"åıĪè¢«":10770,"7ç±³":10771,"Am":10772,"ä¸Ńä¸ľ":10773,"ä¸ŃæīĢ":10774,"ä¸Ĭåľº":10775,"ä¸İä»ĸ":10776,"åĮºè´Łè´£ç®¡è¾ĸ":10777,"åħ¬åĽ½":10778,"æĸ°åŀĭ":10779,"åĪ©å®ī":10780,"é«ĺä¸½":10781,"è¿ĳä¼¼":10782,"ATP":10783,"æ²³éģĵåħ¨éķ¿":10784,"IF":10785,"çļĦæĹł":10786,"å¹¶å°Ĩåħ¶":10787,"äº¤å¾Ģ":10788,"å°±èĥ½":10789,"æĪĲä¸ºä¸Ģä¸ª":10790,"åķ¤":10791,"æģ©æĸ¯":10792,"éĵģè·¯åħ¬åı¸":10793,"Ġ1998å¹´":10794,"è®½åĪº":10795,"118":10796,"90å¹´ä»£":10797,"Ġä½Ĩ":10798,"æľīä¸ī":10799,"æĭ¾":10800,"åĲİä¸įä¹ħ":10801,"æĹ¶å°ļ":10802,"åĪĨæŃ§":10803,"çľģè´Łè´£ç®¡è¾ĸ":10804,"åİĨä»£":10805,"åħµéĥ¨":10806,"ç¬¬äºĮåŃ£":10807,"åł¡åŀĴ":10808,"åºŁå¼ĥ":10809,"å½¢å¼ıçļĦ":10810,"æĺ¯ä¸ĭè¾ĸçļĦä¸Ģä¸ªä¹¡éķĩçº§è¡ĮæĶ¿åįķä½į":10811,"è¿Ħä»Ĭ":10812,"å¤§åĨĽ":10813,"è¥¿èĴĻ":10814,"æĪĺèĪ°":10815,"ä¸ĸçºªæľ«":10816,"æľĢç»Īä»¥":10817,"çīĽæĸ¯":10818,"ä¸ľéĥ¨æĹ¶åĮº":10819,"çļĦçĥŃ":10820,"ä¸Ģè¾Ĩ":10821,"ä¸Ĭèİ·å¾Ĺ":10822,"è¢«åĪĹåħ¥":10823,"èī³":10824,"æĸĩéĿ©":10825,"æĶ¹çĶ¨":10826,"çªŁ":10827,"çĳŀåħĭ":10828,"åİħéķ¿":10829,"æ¨ªæ»¨":10830,"æĩĤ":10831,"åĬ¨è½¦ç»Ħ":10832,"æľīæĦı":10833,"æľīä¸ĢäºĽ":10834,"åĲĮä¸º":10835,"å¼Ģè¡Į":10836,"æ¡¨":10837,"åĪĻè®¤ä¸º":10838,"ä¹¦åºĹ":10839,"éĻĲå®ļ":10840,"æĺłå°Ħ":10841,"åĪĽåĬŀäºº":10842,"ĠåĪĺ":10843,"Ġåħ³äºİ":10844,"ä¸İåīį":10845,"åħ¬æĬķ":10846,"å¼ĢæĻ®":10847,"èĩ³3":10848,"èµĽé©¬":10849,"æĶ¶å¤į":10850,"éĻĨæĪĺéĺŁ":10851,"ateĠ":10852,"æĤĶ":10853,"éĻįèĲ½":10854,"1960å¹´ä»£":10855,"å·´å£«è·¯çº¿":10856,"çĨŁæĤī":10857,"éĦĤåĽ¾æĽ¼":10858,"çĶŁåīį":10859,"å½ĵåīį":10860,"åıĪè¯ĳ":10861,"åĺĽ":10862,"æ¨ªè·¨":10863,"è¿Īåħĭå°Ķ":10864,"å±Ĭåħ¨åĽ½æĶ¿åįıå§Ķåĳĺ":10865,"æĭĺçķĻ":10866,"con":10867,"oth":10868,"Ġæ¯ĶèµĽ":10869,"ĠaĠ":10870,"å¯ħ":10871,"çİ«":10872,"åĲİä»£":10873,"çĶ¨åľ°":10874,"è¥¿ä¼¯åĪ©äºļ":10875,"è¢«åĪ¤":10876,"å¾Ĺåĩº":10877,"åİŁæľīçļĦ":10878,"åį¡æĸ¯èĴĤ":10879,"ç²ĺ":10880,"ç¼ĸæĽ²":10881,"æĪ¿åŃĲ":10882,"çĲĨäºĭéķ¿":10883,"éģµå®Ī":10884,"EDT":10885,"ISTAT":10886,"5000":10887,"çļĦåįķ":10888,"ä¼ļå°Ĩ":10889,"ä¸ªåĪ«":10890,"å±±åĿ¡":10891,"ç¤¾éķ¿":10892,"are":10893,"èĲ½å®ŀ":10894,"çī¹åĪ«è¡ĮæĶ¿åĮº":10895,"ude":10896,"ĠtoĠ":10897,"çĿ¡çľł":10898,"çļĦå®ļä¹ī":10899,"çļĦæĦıæĢĿ":10900,"å¹¢":10901,"ä¸º4":10902,"æĹ¶ç©º":10903,"æ°ĳçĶ¨":10904,"å¸ĥæĸ¯":10905,"æıĲåĢ¡":10906,"åĽŀæĿ¥":10907,"ä¸ĩåĲį":10908,"æłĩç¤º":10909,"åī§ç»Ħ":10910,"åĽ¾å°Ķ":10911,"æ¸ħåĨĽ":10912,"ä¼ģåĪĴ":10913,"äºİ1999å¹´":10914,"å»ºéĢłçļĦ":10915,"ä»ĵåºĵ":10916,"åį¢çĵ¦å°Ķ":10917,"æĺ¯ä¸Ģé¢ĹåĽ´ç»ķ":10918,"iel":10919,"à¤":10920,"çļĦéĢŁåº¦":10921,"ä¸ºä½ķ":10922,"ä¸ĬåįĬ":10923,"æĬ¬":10924,"æĽĿ":10925,"çŃĽ":10926,"ç¬¬12":10927,"å°Ĩäºİ":10928,"104":10929,"åĢª":10930,"æĺŁéĻħ":10931,"åĽ¾çīĩ":10932,"ä»¥åıĬåľ¨":10933,"çľĭèµ·æĿ¥":10934,"å®Īå¤ĩ":10935,"ash":10936,"Ġè¿Ļé¢Ĺå°ıè¡ĮæĺŁ":10937,"åĪ¶çīĩäºº":10938,"ä¹Ĵä¹ĵ":10939,"Ġä¸ĢäºĽ":10940,"çļĦç¾İ":10941,"ä¸Ńæ¯Ĵ":10942,"ä¸İä¹ĭ":10943,"åıĬæĹ¶":10944,"çľģä¼ļ":10945,"éĢļæĬ¥":10946,"æł¼èİ±":10947,"å±ŀæĢ§":10948,"è§ĴéĢĲ":10949,"çº¢åįģåŃĹ":10950,"è¡ĹåĮº":10951,"æĻĭåįĩä¸º":10952,"5è°ĥå¿«ä¸Ģå°ıæĹ¶":10953,"çļĦä¿¡":10954,"ä¸Ńèİ·å¾Ĺ":10955,"äººäºĭ":10956,"æķ°å¹´":10957,"æķ°çłģ":10958,"ç§ĳç½Ĺ":10959,"ç«Ļåľ¨":10960,"åħĥæľĹ":10961,"æĻ®éĩĮ":10962,"éªĤ":10963,"æļĳ":10964,"åį«åĨķ":10965,"çĻ»å½ķ":10966,"é©»å®Ī":10967,"Ġ1997å¹´":10968,"æĹĭå¾ĭ":10969,"äºİ185":10970,"è¡£æľį":10971,"æĢ»çĿ£åºľ":10972,"åį³åĮĹç¾İä¸ľéĥ¨æĹ¶åĮº":10973,"å¤ªéĺ³åħ¬è½¬çļĦå°ıè¡ĮæĺŁ":10974,"æĺ¯ä¸Ģé¢ĹåĽ´ç»ķå¤ªéĺ³åħ¬è½¬çļĦå°ıè¡ĮæĺŁ":10975,"ĠåĽłä¸º":10976,"ä¸ŃéĺŁ":10977,"åĴĮéĺ¿":10978,"è°ı":10979,"é©¬åĪ©":10980,"åįļè§Ī":10981,"æīĺå°Ķ":10982,"å·®åĪ«":10983,"æ¯ĶåĪ©çīĽæĸ¯":10984,"éĹ½åįĹ":10985,"æĿı":10986,"æķ·":10987,"ä¸įä¸Ģ":10988,"çĶŁæĹ¥":10989,"åıĬåĪ©äºļ":10990,"è¦ģå¡ŀ":10991,"èº«é«ĺ":10992,"ä¸»è¦ģçĶ±":10993,"åħ¶ä¸ŃçļĦ":10994,"èŃ¦åĬ¡":10995,"èĢģæĮĿ":10996,"åģļäºĨ":10997,"æ°¸åº·":10998,"çŁŃæľŁ":10999,"æ¯ģçģŃ":11000,"Ge":11001,"Ġå¦Ĥæŀľ":11002,"çļĦå®¶":11003,"å®ŀä¸ļ":11004,"æ¶ĪèĢĹ":11005,"éĵģè·¯å±Ģ":11006,"egin":11007,"Ġè¿Ļé¢Ĺå°ıè¡ĮæĺŁçļĦç»Ŀå¯¹":11008,"ç¬¬13":11009,"æĻ¤":11010,"éĥ½èĥ½":11011,"åĲīäºļ":11012,"é¡¶çĤ¹":11013,"æ¸Ķä¸ļ":11014,"æĸ¯å¤§æŀĹ":11015,"ĠÐ":11016,"ä¸ºä¸Ńå¿ĥ":11017,"åĽ½ä¸Ń":11018,"ä¹ĭåĨħ":11019,"æĸĩå¸Ŀ":11020,"æµ·æ¹¾":11021,"ä¸ŃåĽ½ç§ĳåŃ¦éĻ¢":11022,"åĪ«å¢ħ":11023,"æ¸ħæĻ°":11024,"çľŁçĽ¸":11025,"æ³¨å°Ħ":11026,"æ¶²ä½ĵ":11027,"çĥ§æ¯ģ":11028,"éĽķåĪ»":11029,"è´µå·ŀçľģ":11030,"EE":11031,"çļĦåħī":11032,"ä¸Ģå¯¹":11033,"å¤§éĹ¨":11034,"äºļç§į":11035,"æŃ¤å¤©ä½ĵ":11036,"å·´çī¹":11037,"çĥ¹":11038,"åıĺå½¢":11039,"èĪ°åıª":11040,"é³ĥ":11041,"å¥īåĳ½":11042,"ç»İ":11043,"åľ¨éĺ¿":11044,"æĺ¯è¯¥":11045,"ä»¥æĿ¥çļĦ":11046,"äºĨä¸¤":11047,"åĬ¨æľº":11048,"èĪħ":11049,"æİ¥ä¸ĭæĿ¥çļĦ":11050,"çİĭçļĦ":11051,"å¤«åĭĴ":11052,"åıįå¤į":11053,"å¯Ĩçłģ":11054,"åĵĪèĲ¨åħĭ":11055,"æĬ¤åį«":11056,"ç¢ĺ":11057,"åĲ«ä¹ī":11058,"ç¿»æĸ°":11059,"New":11060,"çļĦä¸Ńå¿ĥ":11061,"æľīåĬ©äºİ":11062,"ä¸įåĪĹé¢ł":11063,"ä¸ľæ±ī":11064,"å¸ĥç½Ĺ":11065,"è¿Ĳè½½":11066,"éĺ¿å¯Ĩ":11067,"æľªè¢«":11068,"åķĨæłĩ":11069,"ç½ĳé¡µ":11070,"äº¦åľ¨":11071,"å¤±ä¸ļ":11072,"ä¸įåĲĮäºİ":11073,"å»¶è¿Ł":11074,"æĵĴ":11075,"éĺ¶å±Ĥ":11076,"å£ģçĶ»":11077,"ä¸°å¯ĮçļĦ":11078,"çļĦåŁºæľ¬":11079,"ä¸ºä¸Ń":11080,"è¡Įçľģ":11081,"åĪ©çī¹":11082,"ä¸īå±Ĥ":11083,"åįİä¾¨":11084,"åıĤæĶ¿":11085,"å¸¸è¢«":11086,"æ®ī":11087,"è¾ĥå¤ļ":11088,"éĺ³åħī":11089,"ç§»äº¤":11090,"è®°èĢħä¼ļ":11091,"TO":11092,"çļĦæķ°éĩı":11093,"ä¸Ģå¼ł":11094,"ä¸Ģå±Ĥ":11095,"åĽ½åħ¬":11096,"ä¸ĭæ°´":11097,"ä¸īéĥ¨":11098,"çĽ¸æľº":11099,"èģĮèĥ½":11100,"æĶ¾æĺł":11101,"138":11102,"å©ī":11103,"ä¸§çĶŁ":11104,"æ¹¿åľ°":11105,"å¸ĨèĪ¹":11106,"Com":11107,"DP":11108,"Ġçİ°":11109,"çļĦæĬĢæľ¯":11110,"ä¸Ģè¾¹":11111,"åĨ¶":11112,"æĮ«":11113,"æŃ¤ä¸Ģ":11114,"è¿ĩä¸ĸ":11115,"åħ¥çĭ±":11116,"106":11117,"ä¸ĩå¹³æĸ¹ç±³":11118,"æŃ£å¼ıæĪĲç«ĭ":11119,"åĲĮå¹´12æľĪ":11120,"ç¼ºéĻ·":11121,"è®¾ç«ĭäºĨ":11122,"å¢ĵèĳ¬":11123,"å¤ĸäº¤å®ĺ":11124,"åĪļæŀľ":11125,"è¿Ŀæ³ķ":11126,"å·©åĽº":11127,"ĠåĽł":11128,"Ľèµ·":11129,"çļĦä¸įåĲĮ":11130,"åĮ£":11131,"æĹ¶è¡¨ç¤º":11132,"æ°ĳåħµ":11133,"æīĢéķ¿":11134,"ç¼ª":11135,"æ°´åĩĨ":11136,"åĢŃ":11137,"129":11138,"åıĺéĩı":11139,"çľŁèıĮ":11140,"æī©æķ£":11141,"Ġ1994å¹´":11142,"è¯ºæĽ¼åºķ":11143,"çĽ¸è¾ĥäºİ":11144,"æ¾İæ¹ĸ":11145,"ae":11146,"çļĦå¤´":11147,"è¡·":11148,"åĴĮçļĦ":11149,"åĴĮå°ı":11150,"åĲİè£Ķ":11151,"åĵĩ":11152,"å£¶":11153,"å·ŀäºº":11154,"åħļåĨħ":11155,"åĪĽä¸ļ":11156,"æ¸ħå»·":11157,"åĲĮå¹´10æľĪ":11158,"èµ°å»Ĭ":11159,"æľ«ç«¯":11160,"è¯¸èĳĽ":11161,"äºİ1997å¹´":11162,"åĴ¸ä¸°":11163,"NG":11164,"On":11165,"åĩºå±Ģ":11166,"è¿ĻæĿ¡":11167,"åĮĹæ´ĭ":11168,"æĸĩä¸Ń":11169,"åĪĻä¼ļ":11170,"éĺ³æĢ§":11171,"éĩĩçº³":11172,"æģ¶åĬ£":11173,"æĤ£æľī":11174,"æĹħå®¢éĵģéģĵ":11175,"2åı·çº¿":11176,"èł":11177,"ĠæŀĹ":11178,"Ġå½±åĵį":11179,"ä¸ĢçŃī":11180,"è¡Įä½¿":11181,"è¿Ļä½¿å¾Ĺ":11182,"åīįèº«ä¸º":11183,"è¯¥èĪ°":11184,"è·¯ç«Ļ":11185,"åŁºå°Ķ":11186,"çİĭåĲİ":11187,"00å¹³æĸ¹åįĥç±³":11188,"æĽ´å¤§":11189,"çĹħäºº":11190,"çĻ»è¿Ľå£«":11191,"å°Ķæĸ¯åħĭ":11192,"èŀįåħ¥":11193,"èĢĥèĻĳåĪ°":11194,"ä¸ĵæ³¨äºİ":11195,"3æľĪ1æĹ¥":11196,"åħĳ":11197,"åĲİä¸ĸ":11198,"ç½¹":11199,"ä»£åı·":11200,"åĵĪä½Ľ":11201,"139":11202,"è¿ľç¦»":11203,"ç¥ĸç±į":11204,"ä¸¹å°¼":11205,"èĤ¯å¡ĶåŁº":11206,"èĤīé£ŁæĢ§":11207,"æ±¤å§Ĩ":11208,"éĥĬåĮº":11209,"9æĹ¶":11210,"ç«Ń":11211,"å¾·åĭĴ":11212,"å¥³äºº":11213,"å®ŀä¹ł":11214,"èĭıåĨĽ":11215,"çĶ·æ¼Ķåĳĺ":11216,"å¥½èİ±åĿŀ":11217,"éĤ£å·ŀ":11218,"æ·±åıĹ":11219,"çŃ¾ä¸ĭ":11220,"çĥŃå¸¦ä½İæ°Ķåİĭ":11221,"1916å¹´":11222,"ä¿®æŃ£æ¡Ī":11223,"éĺ¿åŁºåĿ¦":11224,"Vi":11225,"Ġè®¾è®¡":11226,"çļĸ":11227,"åĮºè®®åĳĺ":11228,"åĨĽéķ¿":11229,"ä¹Łç§°ä¸º":11230,"å¸ĥç½®":11231,"é¦ĸå±Ĭ":11232,"126":11233,"è¾ĥé«ĺçļĦ":11234,"çļĩå®¤":11235,"è®¡åĪĴçļĦ":11236,"åľ¨æŃ¤æľŁéĹ´":11237,"é£İæł¼çļĦ":11238,"å²ŃåįĹ":11239,"éĤĵå°ıå¹³":11240,"åºķå±Ĥæ°´åŁŁ":11241,"ĠZ":11242,"ä¸Ģåįĥ":11243,"ä¸Ńç«ĭ":11244,"é«ĵ":11245,"çī©ä¸ļ":11246,"è½¦ä½ĵ":11247,"æµģæĶ¾":11248,"èµĦæ·±":11249,"å±ħäºİ":11250,"ç¢Ĺ":11251,"ä»įæĺ¯":11252,"æĿĢæīĭ":11253,"ä¸Ńå¤®å§Ķåĳĺä¼ļ":11254,"åģ¶å°Ķ":11255,"å¡Ķå°¼å¤§åĮº":11256,"å¸ĥæĶ¿ä½¿":11257,"8æĹ¶":11258,"CST":11259,"ail":11260,"ä¸Ģèīĺ":11261,"2020":11262,"éķ°":11263,"æĸ°æĿĳ":11264,"åĨħæĸ¯":11265,"èĢħåĴĮ":11266,"çłĮ":11267,"å°¼åŁº":11268,"éĩĳé¢Ŀ":11269,"å·²æĪĲä¸º":11270,"ä¼Ĭä¸½":11271,"ä¹Įå°Ķ":11272,"ä¿ĿæĬ¤åĮº":11273,"åĩºçīĪäºĨ":11274,"ĠAr":11275,"å·¨äºº":11276,"å¼ķåıĳäºĨ":11277,"ĠæĪĺåĲİ":11278,"çļĦæ³ķå¾ĭ":11279,"åľ¨æł¡":11280,"åīįå¤ķ":11281,"è¿Ľé©»":11282,"æĪĺåĮº":11283,"çĽ¸è¿ĳ":11284,"èĭ±å±ŀ":11285,"åºĶçĶ¨äºİ":11286,"ä¼łæī¿":11287,"æĶ¯éĥ¨":11288,"ç¥ŀåºĻ":11289,"æ¦Ĩ":11290,"ç§»éĻ¤":11291,"åį°åº¦æ´ĭ":11292,"ç¤¼æĭľ":11293,"èĶĵ":11294,"åħĦéķ¿":11295,"èħ¹éĥ¨":11296,"åīĬå¼±":11297,"æĭ¨æ¬¾":11298,"æł¸éħ¸æ£Ģæµĭ":11299,"B48":11300,"åľ¨2008å¹´":11301,"è¥¿æĹ¥æľ¬":11302,"æľĢåħ·":11303,"çĦķ":11304,"è¯Ńæ³ķ":11305,"å¤Ħç½ļ":11306,"æľįåĬ¡çļĦ":11307,"éģĩéļ¾":11308,"æįŁåĿı":11309,"Ġ1991å¹´":11310,"æ²¼æ³½":11311,"ean":11312,"Ġk":11313,"çļĦæ¯įäº²":11314,"å·¾":11315,"å¯Ĥ":11316,"æĸ°åįİ":11317,"æľĢæĸ°":11318,"èĩ³1":11319,"ç¥ĩ":11320,"å¥³æŃĮæīĭ":11321,"éĽĨåĽ¢æľīéĻĲåħ¬åı¸":11322,"çŁ¿çī©":11323,"æĲ¬åĪ°":11324,"Car":11325,"çļĦæł¸å¿ĥ":11326,"åħ¶é¡¿":11327,"è¥¿åĮº":11328,"éĤ¢":11329,"å·´å¡ŀ":11330,"å¸¸çĶ¨":11331,"è£¤":11332,"åŃĹç¬¦":11333,"èĪªæµ·":11334,"äºĨä¸Ģç§į":11335,"å¹ķåĲİ":11336,"ç¡¬æ£ĺ":11337,"è¿Īéĺ¿å¯Ĩ":11338,"å·¡åĽŀæ¼ĶåĶ±ä¼ļ":11339,"è´©åįĸ":11340,"Met":11341,"sc":11342,"yle":11343,"å¼ĢåĪĽ":11344,"è¿ĽåĮĸ":11345,"æľŁå¾ĴåĪĳ":11346,"æĦļ":11347,"æ¢ĵ":11348,"åĩ»æ²ī":11349,"ä¼Ĺè®®åĳĺ":11350,"åŁĥå¡ŀ":11351,"æ¥¼æ¢¯":11352,"æī§æķĻ":11353,"å»¶å®ī":11354,"çº½è¥¿åħ°":11355,"æĿ¿åĿĹ":11356,"çĤ®åħµ":11357,"ä¸īåįģå¹´":11358,"ä¸Ńéĥ¨æĹ¶åĮº":11359,"EM":11360,"äºı":11361,"æİ¥åĬĽ":11362,"åĲĦçķĮ":11363,"å¸ķæĭī":11364,"æłĳæŀĹ":11365,"èµĦæł¼èµĽ":11366,"æ¸¸åĩ»éĺŁ":11367,"6è°ĥå¿«ä¸Ģå°ıæĹ¶":11368,"çļĦè§ĤçĤ¹":11369,"åĮ¾":11370,"éĩĮå¥ĩ":11371,"åĲĪèĤ¥":11372,"ä¸ĩå¼ł":11373,"ç¡Ĵ":11374,"æĬ¤å£«":11375,"åıįå¯¹æ´¾":11376,"çļĩå®¶æµ·åĨĽ":11377,"ä¾¦æİ¢":11378,"CDT":11379,"æ²¿æµ·çľģä»½":11380,"åį³åĮĹç¾İä¸Ńéĥ¨æĹ¶åĮº":11381,"AA":11382,"Ġåħ¶åĲİ":11383,"è¿Ń":11384,"å¯¹è¯¥":11385,"å°Ĩè¯¥":11386,"ä½ĵåĨħ":11387,"éŁ¶":11388,"æİ¥å¾ħ":11389,"åı¸éķ¿":11390,"çĽ´éĢļ":11391,"çĥ¤":11392,"åĲĦçľģ":11393,"å¸¦åĪ°":11394,"é¦Ļæ¸¯çĶµå½±":11395,"çłĶç©¶äººåĳĺ":11396,"æ³°å°Ķ":11397,"å´Ľèµ·":11398,"ç¤¼éĥ¨":11399,"èī¾å°Ķ":11400,"ç³»åĪĹèµĽ":11401,"è¯Ńè¨ĢçļĦ":11402,"å«Ķ":11403,"åľ¨2010å¹´":11404,"å¤ļä½į":11405,"æľĢèĳĹåĲįçļĦ":11406,"æĿ¡çº¹":11407,"å¿«ä¹Ĳ":11408,"æ¯ķä¸ļçĶŁ":11409,"ä¿Ŀå®Īåħļ":11410,"ä¼ĬåĪ©è¯ºä¼Ĭå·ŀ":11411,"rin":11412,"åĴĮè§£":11413,"åĮĹåį¡ç½Ĺ":11414,"è¿ĩå¾Ģ":11415,"ä¼łè®°":11416,"èĮ¹":11417,"ä»ĸçļĦçĪ¶äº²":11418,"èįīåľ°":11419,"åŃĻåŃĲ":11420,"èĸ¯":11421,"rig":11422,"å¯ĦçĶŁ":11423,"åı¹":11424,"ä¸ºåĲį":11425,"å»ĵ":11426,"å¤ļå®¶":11427,"åĮĹä¼Ĳ":11428,"æķĻå¯¼":11429,"å¤ĸç±į":11430,"å°ıéķĩ":11431,"å·´æĭ¿":11432,"ç¬¬ä¸Ģè½®":11433,"æľįé¥°":11434,"ç»Ļäºĭä¸Ń":11435,"æī¹å¤į":11436,"æ»¡æĦı":11437,"è¿ģåħ¥":11438,"åĪĬçī©":11439,"ä¸Ńåįİæ°ĳåĽ½æĶ¿åºľ":11440,"èĳ¡èĲĦçīĻè¯Ń":11441,"çĸ¯çĭĤ":11442,"éĺ¿å°Ķå·´å°¼äºļ":11443,"Ġçī¹å¾ģ":11444,"ä¸ºä¸Ģä¸ª":11445,"å½Ŀ":11446,"ä½įå±ħ":11447,"è¿Ļä¹Ł":11448,"æĸ°åĮº":11449,"ç¼ī":11450,"ç®¡éģĵ":11451,"å¤«çī¹":11452,"æ¨¡ç³Ĭ":11453,"åĨĻæĪĲ":11454,"éĢłæĪĲäºĨ":11455,"!âĢĿ":11456,"ML":11457,"æĸ¯å¨ģ":11458,"åīįä»»":11459,"è¾¾åĪ°äºĨ":11460,"æŃ£å¾·":11461,"åħļæ´¾":11462,"115":11463,"è§ģéĿ¢":11464,"åįĩéĻį":11465,"ç¤¾ä¼ļçļĦ":11466,"å®ģåİ¿":11467,"çļ®å°Ķ":11468,"éĨĽ":11469,"åī©ä¸ĭ":11470,"æĭ³åĩ»":11471,"ç½¢åħį":11472,"SP":11473,"å¼¼":11474,"æĹ¥èĢ³æĽ¼":11475,"å¼ĢéĻ¤":11476,"åı°çļĦ":11477,"åĲĪéĢĤ":11478,"åįİçº³":11479,"æĹłæķĪ":11480,"117":11481,"é£İéĢŁ":11482,"eĠP":11483,"åįłæ¯Ķ":11484,"ä¹ĭä¸ĢçļĦ":11485,"åħ³ç³»çļĦ":11486,"çıłæµ·":11487,"å¢ĥå¤ĸè¾ĵåħ¥":11488,"çŀĦåĩĨ":11489,"350":11490,"aur":11491,"ps":11492,"åĨ¥":11493,"åĴĮä¸ŃåĽ½":11494,"ç«ĻåĨħ":11495,"å°¼çļĦ":11496,"ç»´æĭī":11497,"æĽ´æľī":11498,"ä½ľåĵģä¸Ń":11499,"å®ģå¤ı":11500,"å·¡èĪª":11501,"åģĩæĹ¥":11502,"åĮºçļĦè´Łè´£ç®¡è¾ĸ":11503,"è¿«å®³":11504,"åıĤèµĽèĢħ":11505,"çĲ³å¨ľ":11506,"æĸĳçĤ¹":11507,"æŁ´æ²¹æľºè½¦":11508,"çĶµæ°ĶåĮĸ":11509,"ç»ĳæŀ¶":11510,"ola":11511,"åĴĮé«ĺ":11512,"éĽģ":11513,"äºĮçĻ¾":11514,"çĽ¸ä¼ł":11515,"ç»ĦçļĦ":11516,"æ£ł":11517,"å¹¿å²Ľ":11518,"åĨ³å¿ĥ":11519,"åħīæĺİ":11520,"æīĵåħ¥":11521,"åĲīæĸ¯":11522,"å¼ĹåĲī":11523,"åĩıè½»":11524,"æĪĺæĸĹä¸Ń":11525,"çĲĨå·¥å¤§åŃ¦":11526,":ãĢĬ":11527,"pro":11528,"æĹ¶éĢŁ":11529,"äºĨåħ¶":11530,"åı¯å®¹çº³":11531,"è¡¨å½°":11532,"æİ¥é©³":11533,"æ¸¯åĮº":11534,"å®ŀè´¨":11535,"ä¿Ŀåģ¥":11536,"èĬĤæĹ¥":11537,"æ³°åĽł":11538,"137":11539,"100ç±³":11540,"ä¾µèļĢ":11541,"éī´äºİ":11542,"ĠåİŁ":11543,"Ġåıĳå±ķ":11544,"Ġé¥°":11545,"åľ¨ä»Ĭ":11546,"åľ¨ä¼¦æķ¦":11547,"æĺ¯å°Ĩ":11548,"åĩºèµĦ":11549,"åħ¬æŃ£":11550,"æ¸´":11551,"æ¬¡çļĦ":11552,"ä¸Ģä¸ªäºº":11553,"101":11554,"æĻ®æ£®":11555,"è¿ĺåı¯ä»¥":11556,"è§£ä½ĵ":11557,"ä¾ĭå¤ĸ":11558,"è±ļ":11559,"è¾ĥå°ıçļĦ":11560,"çĽŁåıĭ":11561,"ä¸ĥä¸ª":11562,"å¹²äºĭ":11563,"2010å¹´ç¾İåĽ½äººåı£æĻ®æŁ¥":11564,"æ®¿è¯ķ":11565,"åĽ½ç«ĭåı°æ¹¾":11566,"çľģéģĵåı°":11567,"å¯ĨèĭıéĩĮå·ŀ":11568,"Ġä¸Ĭ":11569,"ä¸Ģè¯´":11570,"æĺ¯éŁ©åĽ½":11571,"æľĪåĪĬ":11572,"ä¹ĭåĪĿ":11573,"åħĭä¼¦":11574,"éĩĳæĸ¯":11575,"éĶ£":11576,"æ²³åĨħ":11577,"æĺŁäºĳ":11578,"ä¸ĩåĲ¨":11579,"æ»ĩ":11580,"ç»Ļåĩº":11581,"éĺ²æĬ¤":11582,"åıĮåĲĳ":11583,"Ġ1995å¹´":11584,"æĥ©ç½ļ":11585,"å½ĹæĺŁ":11586,"åį¡æĸ¯èĴĤåĪ©äºļ":11587,"5æľĪ1æĹ¥":11588,"ein":11589,"çļĦå¿ĥ":11590,"æĺ¯ä»ĸ":11591,"éķ¿èĢģ":11592,"åħ¥åŃ¦":11593,"å¥¥æīĺ":11594,"åĽ½å®¶åĴĮ":11595,"è®ºè¿°":11596,"æ´¾ç³»":11597,"éĿĴéĵľ":11598,"ref":11599,"è®²è¯Ŀ":11600,"çºªå¿µé¦Ĩ":11601,"åĲĽå£«åĿ¦ä¸ģåł¡":11602,"åĽ½å°ı":11603,"åĴĮè¥¿":11604,"æķķ":11605,"ä¼ļè®¡":11606,"è¡Įç¨ĭ":11607,"åĩºåħµ":11608,"èĥļ":11609,"äºļçĥŃå¸¦":11610,"èĪ¶":11611,"åľºä¸Ĭ":11612,"å°ıé¡¹":11613,"åħ°å¾·":11614,"çİĭå®ī":11615,"å±ĢéĿ¢":11616,"ç¥ŀåŃ¦":11617,"å¼ķåĬĽ":11618,"æĬķå½±":11619,"èĢģæĿ¿":11620,"åºĦåĽŃ":11621,"round":11622,"ä¼ĳéĹ²":11623,"å¾·éĩĮå¸Į":11624,"Ġè¿Ļé¢Ĺå°ıè¡ĮæĺŁçļĦç»Ŀå¯¹æĺŁçŃīä¸º":11625,"åľ¨ä¸ľ":11626,"1910å¹´":11627,"æİ¥ä¸ĭæĿ¥":11628,"çĬģ":11629,"æ¸ħçĲĨ":11630,"ari":11631,"eĠd":11632,"é¥¿":11633,"éĢĤçĶ¨":11634,"ivers":11635,"æĶ¹ç¼ĸä¸º":11636,"MC":11637,"aj":11638,"å¤§ä¸ľéĥ¨":11639,"æľīå¾Īå¤ļ":11640,"èµİ":11641,"åıĳéĢģ":11642,"è·¯ä¸Ĭ":11643,"å½¢åĬ¿":11644,"åĪ«åĲį":11645,"åİĨåı²å»ºçŃĳ":11646,"çİ¯èĬĤ":11647,"åı³ä¾§":11648,"ç»Ŀå¤§å¤ļæķ°":11649,"èľ¡":11650,"æįŁä¼¤":11651,"æĻ®ç½ĹæĹº":11652,"Ġth":11653,"çļĦä¸ĭ":11654,"ä¸įè®º":11655,"ä¸įæĦ¿":11656,"è¢«è¯Ħä¸º":11657,"åĲĮäºĭ":11658,"æīĢçŁ¥":11659,"åı£å²¸":11660,"æĢ»ç®¡":11661,"æµģç¨ĭ":11662,"åī§åĽ¢":11663,"æķħæŃ¤":11664,"æĺ¾å¾Ĺ":11665,"èĥĮéĿ¢":11666,"è¿½éļı":11667,"çİ©æ³ķ":11668,"æĤ¬æĮĤ":11669,"åĸĩåĺĽ":11670,"çİ«çĳ°":11671,"Ġfor":11672,"èµļ":11673,"éĥ¨ä½į":11674,"éĥ¨åī¯éĥ¨éķ¿":11675,"ãĢĬãĢĭ.":11676,"åı¯ä¾Ľ":11677,"æĢ»æķĻåĮº":11678,"ç¥ŀçļĦ":11679,"çļĦä¸ĢåĲį":11680,"åĪĿå§ĭ":11681,"æĢĿèĢĥ":11682,"åºŁæŃ¢":11683,"åĮĹèµ·é¡ºæĹ¶éĴĪä¸İ":11684,")ãĢį":11685,"TS":11686,"Ġè¯¥åľ°":11687,"è¿Ľä¿®":11688,"éģĵæķĻ":11689,"å®ĺåħµ":11690,"é¾Ļç±»":11691,"é¦Ļæ¸¯æĶ¿åºľ":11692,"éĥ¨åĪĨçļĦ":11693,"å®£èªĵ":11694,"é¡¶éĥ¨":11695,"è½¨çĶµè½¦":11696,"ä¹Ķæ²»äºļ":11697,"çĻĮçĹĩ":11698,"OV":11699,"ä¸ĢçĤ¹":11700,"äºİç¾İåĽ½":11701,"åĲİåĭ¤":11702,"ä¹ĭç§°":11703,"è¥¿åħĥ":11704,"åĲĮçŁ¥":11705,"200ç±³":11706,"ä½Ĩè¢«":11707,"åĽŀæĶ¶":11708,"113":11709,"å¸¦çĿĢ":11710,"sĠof":11711,"å·¦ä¾§":11712,"æİ§åĪ¶çļĦ":11713,"åı¦ä¸Ģä½į":11714,"å®ªåħµ":11715,"Ġ1996å¹´":11716,"æĢĢåŃķ":11717,"çģĮæľ¨":11718,"æ±ŁæĪ·æĹ¶ä»£":11719,"Äģ":11720,"çļĦåĪ¶ä½ľ":11721,"åĮĢ":11722,"ç«Ļä½įäºİ":11723,"ç¨½":11724,"æĶ¿åºľåĨĽ":11725,"åĨįåĬłä¸Ĭ":11726,"è¶³æĢ»":11727,"æİĴåºı":11728,"ç´¢å§Ĩ":11729,"è¿Ľåħ¥äºĨ":11730,"åıĤä¸İèĢħ":11731,"æ³½è¿ŀ":11732,"äº«åıĹ":11733,"åĢ¾æĸľ":11734,"ç¢İçīĩ":11735,"èĤĸåĥı":11736,"åºĩæĬ¤":11737,"åĳĬç¤ºçīĮ":11738,"æ°ĳèĪª":11739,"éĵĢ":11740,"æĢ»éķ¿":11741,"éĩĳåĥı":11742,"æ·ĭ":11743,"å½ĵåľ°å±ħæ°ĳ":11744,"3æľĪ31æĹ¥":11745,"è¿½è¸ª":11746,"ç½Ĺé©¬å¤©ä¸»æķĻ":11747,"1915å¹´":11748,"åŀĴæīĵ":11749,"çļĦäºĭæĥħ":11750,"ĠåĪ°":11751,"ä»Ĺ":11752,"åĪĨåī²":11753,"ä¹ĭçĪ¶":11754,"çĶ¨äºĨ":11755,"çĶµæľº":11756,"é©¬åĮ¹":11757,"é©¬åħ¶é¡¿":11758,"è£Ļ":11759,"ä¼łåħ¥":11760,"114":11761,"èĬĤçĤ¹":11762,"åŃ£åĨĽ":11763,"è§ĤæĶ¿":11764,"çĻ¾è´§":11765,"éĢļå¸¸ä¼ļ":11766,"æ¿Ģç´ł":11767,"æ¨¡å¼ıäº§åľ°":11768,"çŀ¬":11769,"éĻ¨åĿĳ":11770,"åī¥å¤º":11771,"çļĦåĬŁèĥ½":11772,"ä¸Ģå¤Ħ":11773,"è¯ł":11774,"ä»ĸäºİ":11775,"ä»ĸåıĪ":11776,"ç¾Ł":11777,"åįĹè·¯":11778,"äºĮçŃī":11779,"ç«Ļæĺ¯":11780,"åı·åĴĮ":11781,"åĮħè£ħ":11782,"èİ·é¢ģ":11783,"æ¬§éĺ³":11784,"ç¥¨ä»·":11785,"è®¡åĪĴåľ¨":11786,"åĲ«éĩı":11787,"240":11788,"Ġæľ¬å±ŀ":11789,"åŁºç¡Ģè®¾æĸ½":11790,"cc":11791,"Ġåħīç»ª":11792,"åĲ¡":11793,"åľ¨é«ĺ":11794,"ä¸Ńä¹Ł":11795,"äººéĥ½":11796,"éĥ¨ä»¶":11797,"éķ¿å¾ģ":11798,"æı½":11799,"åĪ¶æľį":11800,"åħļéĥ¨":11801,"ç¦»å¿ĥ":11802,"åħĪéĶĭ":11803,"è¾¹çĸĨ":11804,"åįĬçĲĥ":11805,"çĶŁæ´»çļĦ":11806,"è§Ĵèī²çļĦ":11807,"çº¦ç¿°éĢĬ":11808,"æ³ķåħ°è¥¿å¤§åĮº":11809,"å´©æºĥ":11810,"âĶĢâĶĢ":11811,"Ġä½įäºİ":11812,"ä¸Ģä¹¦":11813,"ä¸ŃæĹ¥":11814,"ä¸Ĭæ³ķåħ°è¥¿å¤§åĮº":11815,"è¥¿å°Ķ":11816,"å¼Ģå°ģ":11817,"çĶµç£ģ":11818,"å°ıäºİ":11819,"åİ¿éģĵ":11820,"åİŁæĸĻ":11821,"å¤ªç¥ĸ":11822,"æĹ¥æľ¬æĶ¿åºľ":11823,"æĢĢçī¹":11824,"é¢Ĺç²Ĵ":11825,"æ³ķåħ°åħĭç¦ı":11826,"çĭ©çĮİ":11827,"Ġåıĳè¡Į":11828,"ç¬Ľ":11829,"åı¯æ±Ĺ":11830,"èĢħä¸º":11831,"è£¹":11832,"ç¿¡":11833,"æĭħå¿§":11834,"å¸Įçī¹åĭĴ":11835,"æł·çļĦ":11836,"ace":11837,"1905å¹´":11838,"age":11839,"é«ĺçŃīåŃ¦æł¡":11840,"Bl":11841,"çļĦèĭ±åĽ½":11842,"åĴĢ":11843,"ä¸ªæĢ§":11844,"åħ¬æ¼Ķ":11845,"åĲĮæľĪ":11846,"åı¯çĶ¨äºİ":11847,"å½ĵåĪĿ":11848,"æĪĺæŃ»":11849,"å·¥èµĦ":11850,"æķ°åŃ¦å®¶":11851,"åĵĪçī¹":11852,"135":11853,"æŁĵèī²":11854,"rosof":11855,"ä¼Ĭä¸½èİİçĻ½":11856,"TT":11857,"çļĦä¸ľ":11858,"åľ¨çº¿":11859,"èĩŃ":11860,"1900å¹´":11861,"è¥¿éĹ¨":11862,"æķĻä¹ī":11863,"çİĭåĽ½çļĦ":11864,"æķ´æķ°":11865,"æīįä¼ļ":11866,"æĪĲåĳĺåĽ½":11867,"å®¾å¤ķ":11868,"æīĵåĩ»çİĩ":11869,"è¶³å¤ŁçļĦ":11870,"ĠäºĮ":11871,"çļĦåĨ³å®ļ":11872,"æĺ¯åħ¶":11873,"åĳ¢":11874,"ä¸įçŃī":11875,"å½ĵçĦ¶":11876,"å±±è°·":11877,"è¿Ĳä¼ļ":11878,"ä¼łä½ĽæķĻ":11879,"æĶ¶èİ·":11880,"çĻ½éĵ¶":11881,"ç¬¬äºĮå¤©":11882,"ä¸½ä¸Ŀ":11883,"é»İæĺİ":11884,"å³¡è°·":11885,"æĴĴåĨ·":11886,"åıĳçİ°äºĨæŃ¤å¤©ä½ĵ":11887,"æĮĸæİĺ":11888,"çĢĳ":11889,"åĵĪèĲ¨åħĭæĸ¯åĿ¦":11890,"LE":11891,"ä¸ºé¦Ļæ¸¯":11892,"äºİæĹ¥æľ¬":11893,"åħ¬è½¦":11894,"èĩ´åĳ½":11895,"èĢ¶è·¯":11896,"æµģè¡ĮéŁ³ä¹Ĳ":11897,"æŃ¦è£ħéĥ¨éĺŁ":11898,"æ¡ĤæŀĹ":11899,"éĺ¿å§Ĩæĸ¯çī¹":11900,"èĨ¨èĥĢ":11901,"Ġæĺİ":11902,"Ġä¼Ĭ":11903,"çļĦäº²":11904,"ä¸įå¹¸":11905,"çĶŁæĦı":11906,"107":11907,"åı·åľ¨":11908,"arr":11909,"æĦŁè°¢":11910,"èģĶèµĽåĨłåĨĽ":11911,"ç§ĳæĬĢå¤§åŃ¦":11912,"App":11913,"CE":11914,"ien":11915,"çļĦèĩª":11916,"å¤§åĬĽ":11917,"æľī1":11918,"âĢĭ":11919,"æ²Ľ":11920,"è¯¥çī©ç§įçļĦ":11921,"èĲĮ":11922,"åı²ç§°":11923,"12æľĪ1æĹ¥":11924,"æĻ®éĽ·":11925,"ank":11926,"å¤´çļĦ":11927,"éħįå¥Ĺ":11928,"çĶ²ç»Ħ":11929,"è´Ŀæĭī":11930,"çł´äº§":11931,"éħĴåĲ§":11932,"æĴ¤åĽŀ":11933,"äºİ1995å¹´":11934,"æĻ®ç½ĹæĹºæĸ¯":11935,"æ³½è¿ŀæĸ¯åŁº":11936,"HE":11937,"Ġæ¸ħ":11938,"Ġä¸ĢèĪ¬":11939,"ä¼ļè§ģ":11940,"ä»ĸæĭħä»»":11941,"èĪ·":11942,"å½ĵå¹´çļĦ":11943,"ä½ĨåĽłä¸º":11944,"åħ³æĬ¼":11945,"é¦ĸéĥ¨":11946,"å¸ĪåĽ¢":11947,"èĹī":11948,"å®¡çĲĨ":11949,"åĬ¨çī©çļĦ":11950,"ä¸ĢçĽ´åľ¨":11951,"èģĶéĤ¦æĶ¿åºľ":11952,"çĪµä½į":11953,"è£ģåĨ³":11954,"Ġ1993å¹´":11955,"ä¸ºä¸»çļĦ":11956,"æııè¿°äºĨ":11957,"åľ¨2013å¹´":11958,"è¿Ļéĥ¨çĶµå½±":11959,"åįĹåĮº":11960,"å¢Ł":11961,"ç»ĵè¯Ĩ":11962,"åħļå§Ķ":11963,"çĻ½å®«":11964,"åı¯èĥ½çļĦ":11965,"144":11966,"ç®Ģæĺĵ":11967,"èµŀæī¬":11968,"ä¼ģä¸ļå®¶":11969,"æıŃéľ²":11970,"è¿·ä½łä¸ĵè¾ĳ":11971,"çļĦéľĢæ±Ĥ":11972,"åľ¨ä¸Ĭ":11973,"ä¸įå¤ª":11974,"åĪĨæķ°":11975,"æ³ķå¸Ī":11976,"èµĽé©¹":11977,"äºĶçĻ¾":11978,"è½¬åħ¥":11979,"æ®µçļĦ":11980,"ä¸Ńå¤®åĨĽå§Ķ":11981,"çªģè¢Ń":11982,"åıĸä»£äºĨ":11983,"æ³¨æĦıåĪ°":11984,"Ġæµ·":11985,"å¤§çģ«":11986,"å½ª":11987,"å·ŀåĴĮ":11988,"çĤĴ":11989,"æ°´ä¸Ń":11990,"éĺ¿å¡ŀæĭľçĸĨ":11991,"ä¸ĵæłı":11992,"å¹²æ¶ī":11993,"å®ĭæľĿ":11994,"éĺ¿æĭīæĸ¯":11995,"äº¤æµģéģĵ":11996,"æ°Ķè±¡å±Ģ":11997,"åķ¤éħĴ":11998,"Dav":11999,"Ġend":12000,"åĲĭ":12001,"åľ¨ç¬¬":12002,"åľ¨åĽ½éĻħ":12003,"æĹ¥æĸĩ":12004,"æ¯Ļ":12005,"æĪĺäºĭ":12006,"ä½¿ä»ĸ":12007,"éŁ§":12008,"ä»İå°ı":12009,"çĸ²":12010,"äº¬å¸Ī":12011,"å¥ĸçļĦ":12012,"è¯ºåħĭ":12013,"åĲīç¥¥":12014,"ä¸Ńå¤®çĶµè§Ĩåı°":12015,"åľ°æĸ¹æĶ¿åºľ":12016,"è°ĥæŁ¥å±Ģ":12017,"1904å¹´":12018,"èĢ¶è·¯æĴĴåĨ·":12019,"çļĦå¦»åŃĲ":12020,"ä¸ºä¸»è¦ģ":12021,"è¿Ļä¹Ī":12022,"æľĢå°ĳ":12023,"åı°å¤§":12024,"æ¯Ķ0":12025,"çĶ·äºº":12026,"eĠR":12027,"ä»¥åıĬåħ¶ä»ĸ":12028,"å½±åĵįçļĦ":12029,"èĶ¬":12030,"ç§ŁåĢŁ":12031,"æĬķåħ¥ä½¿çĶ¨":12032,"æĦıåĳ³èĳĹ":12033,"æµıè§Ī":12034,"æ°ĳç±į":12035,"åĮĹéĿ¢":12036,"ä¹Łå¼Ģå§ĭ":12037,"é©¬å°¼":12038,"æĢ»åĢ¼":12039,"çĽ®çļĦåľ°":12040,"æ¼Ķè¯´":12041,"æĹ¥æľ¬äºº":12042,"éĿ¢ç§¯2":12043,"æ´¾äºº":12044,"èĢģèĻİ":12045,"8æľĪ31æĹ¥":12046,"ç¬¬åįģåĽĽ":12047,"æ¼«çĶ»å®¶":12048,"åĢ¡è®®":12049,"!ãĢį":12050,"Ġl":12051,"åħ¨å¸Ĥ":12052,"æ¹¾ä»Ķ":12053,"æĳĬ":12054,"éĩĩè´Ń":12055,"æ³°ç±³å°Ķ":12056,"å¯Įæľī":12057,"åĤ²":12058,"åĲĪä½ľçļĦ":12059,"è¯¯å·®":12060,"æµ·æĭĶé«ĺåº¦2":12061,"è¾ħéŁ³":12062,"æĶ¶å½ķäºĨ":12063,".,":12064,"Br":12065,"de":12066,"der":12067,"ä¸Ģæĸ¹éĿ¢":12068,"å¹¶æĭħä»»":12069,"æ³ķäºº":12070,"èģĬ":12071,"ä¹Łè¢«ç§°ä¸º":12072,"æķ°æ¬¡":12073,"æ¼Ķåıĺ":12074,"ç»ĵçĽŁ":12075,"åħļå§Ķä¹¦è®°":12076,"çĤ¹æĺ¯":12077,"çºªå¾ĭ":12078,"é¾ļ":12079,"æĶ¯åĩº":12080,"æĽ²çº¿":12081,"çļĦä¸ĢæīĢ":12082,"èīºåĲį":12083,"ä¾¿åĪ©":12084,"ä¿ĿçķĻäºĨ":12085,"æĸ¼":12086,"åħ¬çĽĬ":12087,"èĢĮæŃ»":12088,"è¢«æİĪäºĪ":12089,"æĸĩä¹¦":12090,"åĽłçĹħ":12091,"æĪĺä¿ĺ":12092,"ä¹ĲåĿĽ":12093,"éĴ¾":12094,"åıªæľīä¸Ģ":12095,"çłĶç©¶çļĦ":12096,"ç®¡çĲĨçļĦ":12097,"å®¶æĹıçļĦ":12098,"å®ĺæĸ¹ç½ĳç«Ļ":12099,"è¿İæİ¥":12100,"å®īä¸ľå°¼":12101,"æ¦´å¼¹":12102,"Ġå¥¥":12103,"çļĦå®¶åºŃ":12104,"éĩľ":12105,"åĴĮæ°´":12106,"åĩºç§Ł":12107,"çī¹ç§į":12108,"æĻĸ":12109,"çķ¿":12110,"103":12111,"åı·çłģ":12112,"äºĳæŀĹ":12113,"èı²å°Ķ":12114,"è¯¸ä¾¯":12115,"çļĦåľ°éĵģ":12116,"oci":12117,"çĲĨæŁ¥å¾·":12118,"ç¿¡ç¿ł":12119,"ĠåĲİæĿ¥":12120,"ä¸ĭåİ»":12121,"æĸ°åħ´":12122,"åĮĹè·¯":12123,"èĪĸ":12124,"éĹ´éļĶ":12125,"åĮĸçī©":12126,"éĩĳé©¬":12127,"çĭ¸":12128,"èº«è¾¹":12129,"åľŁèĳĹ":12130,"éĩĩéĽĨ":12131,"äºĨä¸Ģåľº":12132,"è®²å¸Ī":12133,"å¾ħéģĩ":12134,"ä¼Łå¤§çļĦ":12135,"Ġäºİ":12136,"Īå½¢çĽ®":12137,"åľ¨åľ°":12138,"åľ¨åį°åº¦":12139,"äººåĿĩ":12140,"åĴĮæŃĮ":12141,"ä¼ļè°Ī":12142,"å¤©çİĭ":12143,"ç½ĹæĿ°":12144,"åħ³èĬĤ":12145,"å¥³å£«":12146,"ä¼łéĢģ":12147,"æ´¾å¾Ģ":12148,"æĦŁåıĹ":12149,"å¾ģåı¬":12150,"å¸ķåħĭ":12151,"æĵįçºµ":12152,"lix":12153,"çİĭæľĿçļĦ":12154,"Ġbegin":12155,"æĸ°çĸĨç»´åĲ¾å°Ķ":12156,"äº¤åıīåı£":12157,"å®¾å¤ķæ³ķ":12158,"EX":12159,"åľ¨2020å¹´":12160,"ä¸Ńä»¥":12161,"éĻĩ":12162,"éķ¿æĹ¶éĹ´":12163,"éĢļåĭ¤":12164,"åħ¨ä¹¦":12165,"åįİè¯Ń":12166,"æĹłéľĢ":12167,"è¿ĺæľīä¸Ģ":12168,"ç´¢å°Ķ":12169,"ä¸ĢçĽ´æĺ¯":12170,"ç¬¬äºĮæ¬¡ä¸ĸçķĮå¤§æĪĺæľŁéĹ´":12171,"back":12172,"Ġal":12173,"çļĦåĲįä¹ī":12174,"åľ¨å¯¹":12175,"æ³µ":12176,"ä¹ĭçĶ¨":12177,"åĵ¨":12178,"åĮĹä¸Ĭ":12179,"ä»¥åıĬä¸ŃåĽ½å¤§éĻĨçļĦ":12180,"çĶ»ä½ľ":12181,"èİ±çī¹":12182,"æľ¨æĿĲ":12183,"äºĨä¸Ģç³»åĪĹ":12184,"çİĽæł¼":12185,"éħĭéķ¿":12186,"Ex":12187,"TR":12188,"pl":12189,"ult":12190,"ĠåĲİ":12191,"ĠèĳĹä½ľ":12192,"çļĦèµĦæĸĻ":12193,"äººæĺ¯":12194,"åŃ¦æ´¾":12195,"ä¹ĭäºĭ":12196,"åĲĮæľŁ":12197,"åı¤åŁİ":12198,"åĪĿä¸Ń":12199,"äº¦è¢«":12200,"å¤ĩåıĹ":12201,"èĢĥéĩı":12202,"çĶ²çº§èģĶèµĽ":12203,"æĸĻçĲĨ":12204,"ç§ĳåŃ¦æĬĢæľ¯":12205,"æĭľä»ģ":12206,"ä½©æĸ¯":12207,"æľĿé²ľåįĬå²Ľ":12208,"å®īå¾·é²ģ":12209,"æķ²åĩº":12210,"åĨħæĶ¿éĥ¨":12211,"æ¶¡è½®":12212,"å¥¹æĽ¾ä»£è¡¨":12213,"çļĦæľº":12214,"çļĦå£°éŁ³":12215,"åľ¨2009å¹´":12216,"äºĨè¿Ļä¸Ģ":12217,"2016":12218,"2018":12219,"åħ¨ç¨ĭ":12220,"ä¸¤é¡¹":12221,"äº¤ä¼ļ":12222,"å¡Ķæĭī":12223,"èĲ¥éĢł":12224,"è´Łæĭħ":12225,"åĺİ":12226,"æĺ¾çĦ¶":12227,"é¢ĦèŃ¦":12228,"æ¸©åĵ¥":12229,"åĨ°å²Ľ":12230,"çŃĶåºĶ":12231,"çĭŃçªĦ":12232,"ystem":12233,"PP":12234,"Ġå¤ļ":12235,"çļĦåıĺåĮĸ":12236,"ä»¥0":12237,"æµ·æ»©":12238,"âĢĿ()":12239,"ä½ĨåĲİæĿ¥":12240,"å°±æŃ¤":12241,"çĸ¼":12242,"å¤ªæŀģ":12243,"ç¬¬ä¸ĢåĲį":12244,"çĽĳæµĭ":12245,"æĸ¯çī¹æĭī":12246,"èµŀæĪĲ":12247,"èĶļ":12248,"éĥĳå·ŀ":12249,"ç½ĳçĲĥåħ¬å¼ĢèµĽ":12250,"çļĦå»ºè®®":12251,"åħĭæ´Ľ":12252,"æĪĺçļĦ":12253,"ç½Ĺå®¾":12254,"18ä¸ĸçºª":12255,"å°±èģĮ":12256,"åĲĦæľī":12257,"è½¬æĬķ":12258,"èĲ¥åľ°":12259,"éĢŁçİĩ":12260,"èĪªè¿Ĳ":12261,"éĤ£æĹ¶":12262,"æ»¡è´¯":12263,"itt":12264,"Ġ1992å¹´":12265,"åŁºç¡Ģä¸Ĭ":12266,"åĪ¶éĢłçļĦ":12267,"Ġ188":12268,"èĶ¡èĭ±æĸĩ":12269,"å¼¯æĽ²":12270,"ç»ıçºªåħ¬åı¸":12271,"æĭ¦æĪª":12272,"æ¸©åĵ¥åįİ":12273,"Ġèĩ³":12274,"çļĦæĿĥåĪ©":12275,"åľ¨2012å¹´":12276,"æµ·å§Ĩ":12277,"å·´å·´":12278,"å®ŀçĶ¨":12279,"éĻ¤éĿŀ":12280,"ä¾Ŀæ³ķ":12281,"å®¡è®®":12282,"äºİ1996å¹´":12283,"æĲŃä¹ĺ":12284,"æĿĨèıĮ":12285,"4åı·":12286,"ĠåĵĪ":12287,"æķĸ":12288,"æ²ģ":12289,"çĽ®å½ķ":12290,"çİĭæľ±":12291,"åħ¶ä»ĸäºº":12292,"èŃ¦åį«":12293,"åıĮéĩį":12294,"çº¢æĹĹ":12295,"å°Ħçº¿":12296,"olog":12297,"è´¢ç»ı":12298,"ç»ĵæĿŁæĹ¶":12299,"æĭįæĳĦçļĦ":12300,"ãĢī,":12301,"å¥Īå°Ķ":12302,"çħ¤çŁ¿":12303,"çĽ¸äºĴä½ľçĶ¨":12304,"IU":12305,"çļĦåı¯":12306,"çļĦéĤ®æĶ¿ç¼ĸçłģä¸º":12307,"ä¸Ĭæ¼Ķ":12308,"ä¸įåĬ¨":12309,"åĬłåī§":12310,"ä¸ŃåĽ½åĽ½å®¶":12311,"anc":12312,"å¯ĨæŃĩ":12313,"æĬ¤çĲĨ":12314,"åĨ³å®ļå°Ĩ":12315,"ret":12316,"æĳĦæĶ¿":12317,"ç«¥å¹´":12318,"urn":12319,"ower":12320,"1906å¹´":12321,"çĶµåĬĽæľºè½¦":12322,"è¿½æº¯èĩ³":12323,"Gam":12324,"åıĳæĶ¾":12325,"èĩªæĦ¿":12326,"å¹³åĿ¦":12327,"æĭīèĲ¨":12328,"éĩįåĬĽ":12329,"å®īè¾¾":12330,"æ¯ĶåĪĨ":12331,"åį¡æ´Ľæĸ¯":12332,"ç¦ıåħĭ":12333,"ä¸īä¸ªæľĪ":12334,"åİļçļĦ":12335,"åµ©":12336,"Google":12337,"æĽĿåħī":12338,"box":12339,"ve":12340,"Ġ5æľĪ":12341,"çļĦåįĹ":12342,"çļĦç»ĵæŀĦ":12343,"åľ¨2018å¹´":12344,"ä¸Ģäºĭ":12345,"çĶ±èĭ±åĽ½":12346,"çİ°éĩĳ":12347,"è¦ģç´ł":12348,"ç¼®":12349,"10æľĪ25æĹ¥":12350,"å¤ĦæŃ»":12351,"å²Ľå¼ı":12352,"incl":12353,"åķ¦":12354,"åķ¸":12355,"æŃ¦åĬŁ":12356,"å¾Īæľī":12357,"å¥ĩå¹»":12358,"äºĨä¸Ģä»½":12359,"é¤Ĳé¥®":12360,"æĭīä¸ģè¯Ń":12361,"Ġæ¦Ĥè¿°":12362,"æ£ķèī²":12363,"å¯ĨæŃĩæł¹":12364,"çļĦå®īåħ¨":12365,"ä¸Ģæŀ¶":12366,"åĴĮé©¬":12367,"åŃ¦åİĨ":12368,"ä¸įæķ¢":12369,"åĲĮä¸Ģä¸ª":12370,"çī¹ç½Ĺ":12371,"åĨħå¤ĸ":12372,"åįģä¹Ŀå¹´":12373,"æĢ»æķ°":12374,"æ°´çļĦ":12375,"å±ŀçļĦä¸Ģç§į":12376,"å¥¥åĪ©":12377,"116":12378,"åıįåĵį":12379,"çĬĢ":12380,"form":12381,"åģľçģ«":12382,"éļ¾åº¦":12383,"å·²ç»ıè¢«":12384,"ä¸¥åİī":12385,"æ²ĥå¤«":12386,"çº½çº¦æĹ¶æĬ¥":12387,"æłĸæģ¯æ·±åº¦":12388,"æĭĵè·ĭ":12389,"ä¸ĩç¾İåħĥçļĦ":12390,"éĵ¸éĢł":12391,"çĽĳå¯Łå¾¡åı²":12392,"æ°¨éħ¸":12393,"ç£·éħ¸":12394,"Facebook":12395,"åľ¨2014å¹´":12396,"è¡Ļ":12397,"å¤§æ³ķå®ĺ":12398,"åŃ¦éĩĳ":12399,"åĪĨçº§":12400,"æ±Łå¸Ĥ":12401,"åĮ»èį¯":12402,"æ·±å¤ľ":12403,"åĩłç§į":12404,"å¼¹éģĵ":12405,"æľįåĬ¡åĻ¨":12406,"æİĴåĲįç¬¬":12407,"äº¤æ±ĩå¤Ħ":12408,"å¤§ä¸ľéĥ¨å¤§åĮº":12409,"360":12410,"Ġç±³":12411,"åľ¨2011å¹´":12412,"éĥ¨ä½ľåĵģ":12413,"ä¸İæĸ°":12414,"æ°ĳæĦı":12415,"å¯¹ç«ĭ":12416,"ä¸īéĩį":12417,"âĢĿâĢľ":12418,"èģĶæĴŃ":12419,"åħ³ç¨İ":12420,"æ·Ĩ":12421,"ç¼ĸç¨ĭ":12422,"æ¸ħæĻ¨":12423,"æŀĦå»º":12424,"åıĳçĶŁåĲİ":12425,"ç£º":12426,"çĪ¶äº²çļĦ":12427,"é¥®æĸĻ":12428,"éħīç§ĳ":12429,"El":12430,"NH":12431,"sch":12432,"Ġè®¸å¤ļ":12433,"çļĦå¤©":12434,"åľ¨2015å¹´":12435,"ä¸º5":12436,"ä½įåľ¨":12437,"åĬłéĩĮ":12438,"åĲĪéĩĳ":12439,"èİ·åĩĨ":12440,"æĶ¶åĽŀ":12441,"çŁ¥åĲįçļĦ":12442,"å²ģä»¥ä¸ĭ":12443,"éĤ®ä»¶":12444,"é¢ĹæģĴæĺŁ":12445,"éĺ»ç¢į":12446,"èĪŀåı°åī§":12447,"ĠæĹ©å¹´çĶŁæ´»":12448,"duc":12449,"æĺ¯è¢«":12450,"éķ¿å´İ":12451,"æŃ¤å¤Ħ":12452,"âĢĿ),":12453,"ç«ĻåĴĮ":12454,"åıĤè®®":12455,"åĬŀåŃ¦":12456,"æŃ¦å£«":12457,"äº¦ä¼ļ":12458,"ä»£è¡¨ä½ľ":12459,"ä»ħåľ¨":12460,"è¯Ŀé¢ĺ":12461,"ä¼łç»Łä¸Ĭ":12462,"æĴ¤åĩº":12463,"åĨ·åį´":12464,"æĿ¡ä»¶ä¸ĭ":12465,"æľīæķĪçļĦ":12466,"æįĲæ¬¾":12467,"ä»£çłģä¸º0":12468,"æ³¢ç½ĹçļĦæµ·":12469,"ount":12470,"sectionĠbegin":12471,"Ġæ²Ļ":12472,"çļĦåĨĽéĺŁ":12473,"çļĦè¿ĩç¨ĭä¸Ń":12474,"ãĢĭ)":12475,"çľ·":12476,"åĮĸå·¥":12477,"ç»Ħéķ¿":12478,"ç»´æĸ°":12479,"è§Ĩè§Ĵ":12480,"ç¬¬ä¸Ģä»»":12481,"å³»":12482,"æ³¨éĩį":12483,"æį¢åıĸ":12484,"é³ļ":12485,"é¢Ŀå¤ĸçļĦ":12486,"act":12487,"æ··æ·Ĩ":12488,"ä¸Ģå¹´åĲİ":12489,"åıĻäºĭ":12490,"åİ¿çļĦåŁİå¸Ĥ":12491,"éªļæī°":12492,"ä¸ĢæľŁ":12493,"å¼Ĭ":12494,"è¥¿å²¸":12495,"å¼Ģéĩĩ":12496,"èİŀ":12497,"èµĽåĲİ":12498,"ä¸ļèĢħ":12499,"ç»Ħä»¶":12500,"åĽĽåĲį":12501,"è¯´è¯Ŀ":12502,"ä¼łæŁĵ":12503,"å®Įç»ĵ":12504,"å¢ŀèĩ³":12505,"æĶ»åħĭ":12506,"éŁ³ä¹Ĳå®¶":12507,"åİĭåĪ¶":12508,"å¯Įåħ°":12509,"æĸŃå±Ĥ":12510,"éĵ¾æİ¥":12511,"åĨħèĴĻåı¤èĩªæ²»åĮº":12512,"çļĦç»Ħç»ĩ":12513,"çļĦçĲĥåĳĺ":12514,"åŃ¦çķĮ":12515,"è¶¾":12516,"éĩįæĴŃ":12517,"ä¼łè¾¾":12518,"ä¿¡éķ¿":12519,"æŀľå®ŀ":12520,"ä»£è¡¨éĺŁ":12521,"éĥ¡çļĦ":12522,"äºĮåįģä¸ĸçºª":12523,"äºİ1994å¹´":12524,"åįķæĽ²æ¦ľ":12525,"è§£åĨ³æĸ¹æ¡Ī":12526,"1çļĦ":12527,"åĽ½åŃĲ":12528,"çī¹åĴĮ":12529,"è¯¥å¸Ĥéķĩ":12530,"å¤©åĲ¯":12531,"æ®´":12532,"124":12533,"12æľĪ28æĹ¥":12534,"æ²³ä¸ľ":12535,"å¨ģæĸ¯":12536,"è¯ĦåĪĨ":12537,"åĬ©æĶ»":12538,"é£ŀèĪ¹":12539,"9æľĪ30æĹ¥":12540,"å®ĿçŁ³":12541,"åį±å®³":12542,"æĸ°å¢ŀå¢ĥå¤ĸè¾ĵåħ¥":12543,"åıĺæĪĲäºĨ":12544,"åĨ¬åŃ£å¥¥æŀĹåĮ¹åħĭè¿ĲåĬ¨ä¼ļ":12545,"è´©åĶ®":12546,"ä¹Įé²ģæľ¨":12547,"ĠçĻ½":12548,"ä¸Ńçİ¯":12549,"éĥ¨ä¸ĭ":12550,"åĪĨå±Ģ":12551,"å®¶åºĦ":12552,"åĬłæ²¹":12553,"æ¡¶":12554,"æµģåħ¥":12555,"äºĶäºº":12556,"é£İåĬĽ":12557,"æ³¢åĪ©":12558,"åģļçļĦ":12559,"ä¿Ħç½Ĺæĸ¯çļĦ":12560,"éģĩåĪ°äºĨ":12561,"åŁ¹èĤ²":12562,"èĤ¯å°¼":12563,"éħįéŁ³åĳĺ":12564,"éĵ¸å¸ģ":12565,"è´ªæ±¡":12566,"ä¸ŃéĢĶ":12567,"å¤§èĦĳ":12568,"èĢ»":12569,"ä¸įåºĶ":12570,"è°İ":12571,"åıĹä½ĵ":12572,"122":12573,"ä¼Ĭä¸ĩ":12574,"çļĦä¸Ģåľº":12575,"æĬ¤èĪª":12576,"çĮ©":12577,"ä¼¦çĲĨ":12578,"143":12579,"å½±åĵįäºĨ":12580,"èĪ¹èĪ¶":12581,"çĤ®å¡Ķ":12582,"æģ¶éŃĶ":12583,"1908å¹´":12584,"åĬ¨åĬĽåŃ¦":12585,"çļĦåŁºç¡Ģä¸Ĭ":12586,"çºłçº·":12587,"Mac":12588,"çļĦè¯Ńè¨Ģ":12589,"çļĦæİ§åĪ¶":12590,"çļĦä»»åĬ¡":12591,"ç¾İèģĶ":12592,"è·¯è½¨":12593,"è¾¹ä¸º":12594,"èµ°äºĨ":12595,"ä¸įè¿ĩåľ¨":12596,"Ġæľ¬é±¼":12597,"èĨĽ":12598,"æİĮç®¡":12599,"åįłé¢ĨäºĨ":12600,"åįłåľ°éĿ¢ç§¯":12601,"åľ¨åħ¨çĲĥ":12602,"ä¸ºéĤ»":12603,"åĽ½éĵģ":12604,"æĹ¶æľī":12605,"å¤ļè¾¾":12606,"åĨħåĬ¡":12607,"éĥ½å¾¡åı²":12608,"æİ¥æīĭ":12609,"éľľ":12610,"åĵĪå¸ĥ":12611,"æ±īäºº":12612,"50ç±³":12613,"æĹĹèĪ°":12614,"æĭīä¸ģç¾İæ´²":12615,"çħ¤çĤŃ":12616,"æĤīå°¼":12617,"3ä¾ĭ":12618,"6Ġ":12619,"land":12620,"éĥ¨åĴĮ":12621,"å¸ĥä¼¦":12622,"å°ıåŃ©":12623,"102":12624,"èģĮå·¥":12625,"ä¸»è¦ģä¸º":12626,"æŃ¦åĬĽ":12627,"è§Ĥå¡ĺ":12628,"1930å¹´ä»£":12629,"ä»ĭäºİ":12630,"æ¼«å¨ģ":12631,"usic":12632,"è¡ĹéģĵåĬŀäºĭå¤Ħ":12633,"ç½ļæ¬¾":12634,"çĲĨå·¥åŃ¦éĻ¢":12635,"é©¬åħĭæĢĿä¸»ä¹ī":12636,"æĢİä¹Ī":12637,"å¯Įåħ°åħĭæŀĹ":12638,"9ç±³":12639,"GP":12640,"ä¸ºä»Ģä¹Ī":12641,"ä¸»æĴŃ":12642,"åĬ¨èĦī":12643,"éĩĮçº¦":12644,"2017":12645,"å°Ĩè¢«":12646,"é©¬æģ©":12647,"ä¸ŃåĽ½æĶ¿åºľ":12648,"éĺ¿æĸ¯":12649,"åĲĳåīį":12650,"æ¸¯æ¾³":12651,"ons":12652,"åıªå¥½":12653,"çłĶç©¶èĢħ":12654,"ä¹Įåħ¹":12655,"åŃ¦çĶŁä¼ļ":12656,"æ°ĳä¸»æ´¾":12657,"èģļä¼ļ":12658,"å®ĩèĪª":12659,"çī¹æ®ĬçļĦ":12660,"èµĦæľ¬ä¸»ä¹ī":12661,"ç¥Īç¥·":12662,"sectionĠend":12663,"ä¹Įé²ģæľ¨é½Ĳ":12664,"çļĦä¸ªäºº":12665,"å¹¶ä»İ":12666,"æľĢéķ¿çļĦ":12667,"é©¬ä¸Ĭ":12668,"11ä¸ª":12669,"åĲīéļĨ":12670,"éĥ¡çİĭ":12671,"å¼ĢåıĳåĮº":12672,"èģĶçĽŁçļĦ":12673,"æ¬£èµı":12674,"éĽĮæĢ§":12675,"èĲ¨å°Ķçĵ¦":12676,"çļĨä¸ºéĻĨåľ°":12677,"èĤ¿çĺ¤":12678,"Ġèĭ¥":12679,"æĹ¶ä¸º":12680,"çĶŁå¹³":12681,"åĪĨåĮĸ":12682,"ä¸ĭè¡Į":12683,"å¯¹å¾ħ":12684,"æĶ¹æĪĲ":12685,"éķĩå®Ī":12686,"æľĿéĺ³":12687,"ä¹ĭåĲİåľ¨":12688,"æŃ¥éª¤":12689,"åĲĮå¹´11æľĪ":12690,"åĤį":12691,"æłĩåĩĨçļĦ":12692,"çĪ¶äº²æĺ¯":12693,"è¯¸å¡ŀ":12694,"è¾©æĬ¤":12695,"æĥ¯ä¾ĭ":12696,"Col":12697,"Ã¼":12698,"Ġçİ°ä»£":12699,"çļĦæŃ£":12700,"ä¸īæĺŁ":12701,"ä¸¤åľ°":12702,"ä¿Ŀå®ļ":12703,"åŀĭæĢģ":12704,"æĽ´å¥½":12705,"ini":12706,"æ°ĶçĲĥ":12707,"åħĪé©±":12708,"å¸ĤéķĩèĮĥåĽ´åĨħ":12709,"åıĳå±ķåĩº":12710,"è¡¥åģ¿":12711,"å¤ºåĽŀ":12712,"ä¸»æ¼ĶçļĦ":12713,"æªĲ":12714,"åĩĳ":12715,"åĨĽçĶ¨":12716,"è¢«èªīä¸º":12717,"åĮĹç«¯":12718,"çº¦è®·":12719,"åıĺåĬ¨":12720,"è¶ħå¸Ĥ":12721,"åĥµ":12722,"lex":12723,"é«ĺéĢŁéĵģè·¯":12724,"æīĢåľ¨çļĦ":12725,"æ·±åľ³å¸Ĥ":12726,"é¥²åħ»":12727,"å¯Ĩè¥¿è¥¿æ¯Ķ":12728,",,":12729,"ä¼º":12730,"åĩºåĵģ":12731,"èĢĮæľī":12732,"å¾·åł¡":12733,"äºļçļĦ":12734,"äºļåĪ©":12735,"çĪ½":12736,"çº¦æĿŁ":12737,"æĶ¹è®¾":12738,"åħ«ä¸ª":12739,"æ¤įè¢«":12740,"èķ´":12741,"å¹´è½»äºº":12742,"å¤§çº²":12743,"ä¸īçĻ¾":12744,"2012":12745,"æĪĺæľº":12746,"ä¸ĸå®Ĺ":12747,"11æĹ¶":12748,"åıįæĶ»":12749,"çº¢å¤ĸ":12750,"å°ļæľī":12751,"å±ĭèĭĳ":12752,"åįĪç§ĳ":12753,"è¯łéĩĬ":12754,"çļĦçĽ¸åħ³":12755,"çļĦåı¯èĥ½æĢ§":12756,"åľ¨åħ¨åĽ½":12757,"åıĳæĸĩ":12758,"å¹¶æŃ¢äºİ":12759,"ç¾ŀ":12760,"æĮ½":12761,"âĢľ\"":12762,"æįŀ":12763,"é©¬è·¯":12764,"åħ¨ç¾İ":12765,"èĤª":12766,"äº¤äºĴ":12767,"æį®ç§°":12768,"2021":12769,"æ¢§":12770,"å¸Īä»İ":12771,"æĶ¾å¤§":12772,"çĻ½éĩĳ":12773,"ator":12774,"æĪ¿åľ°äº§":12775,"éŁ³ä¹Ĳå½ķå½±å¸¦":12776,"ç¤¼ä»ª":12777,"éĢļå¸¸åľ¨":12778,"å·¨æĺŁ":12779,"äºİ1992å¹´":12780,"çļĦçī¹æ®Ĭ":12781,"å¸®åĬ©ä¸ĭ":12782,"èĦĤèĤª":12783,"flix":12784,"Ġæ°ĶåĢĻ":12785,"ä»ĸä»İ":12786,"æ¸Ŀ":12787,"äºĭåıĳ":12788,"åĲĪåħ±":12789,"æ²»æĦĪ":12790,"é¦ĸæŃĮ":12791,"èİ·å¾ĹçļĦ":12792,"ä¸¤ä¸ªæľĪ":12793,"ĠåİĨåı²æ²¿éĿ©":12794,"Ġ1988å¹´":12795,"åĪĽéĢłäºĨ":12796,"å§¿æĢģ":12797,"èĻĲå¾ħ":12798,"éĺ¿åŁºåĿ¦å¤§åĮº":12799,"çļĦæĸĩç«ł":12800,"çĲ¦":12801,"ä¸ĭè¯ı":12802,"æľĢéķ¿":12803,"æīĢä½¿çĶ¨çļĦ":12804,"å±±å¯º":12805,"åħ³åį¡":12806,"åıªä¼ļ":12807,"å¢ŀæı´":12808,"åĢĻè¡¥":12809,"åĲĮå¹´9æľĪ":12810,"èĬĤçĽ®ä¸Ń":12811,"çļĦå¤§å°ı":12812,"äºĮåįģäºĮå¹´":12813,"çİ©åħ·":12814,"è®¾ç½®çļĦ":12815,"éĺħåħµ":12816,"çĦ¦èĻĳ":12817,"æĭĵå±ķ":12818,"éĽĩä½£":12819,"illiam":12820,"çļĦçī¹æľīæ¤įçī©":12821,"åĮĸåŃ¦å¼ıä¸º":12822,"çĢĳå¸ĥ":12823,"æĸ°çĸĨç»´åĲ¾å°Ķèĩªæ²»åĮº":12824,"Ġ20ä¸ĸçºª":12825,"ä¸ĢæĹ¶":12826,"äºļæĸ¯":12827,"è¿ĩå¤ļ":12828,"ç±³åĵĪ":12829,"éĩįåıł":12830,"æł¼ç½Ĺ":12831,"äºĶä»£":12832,"éĵģè¾¾å°¼":12833,"æŃĮèĪŀ":12834,"è¯ĦéĢī":12835,"çĸĳä¼¼":12836,"æ¥ļåĽ½":12837,"æĹģè¾¹":12838,"æĽ¹æĵį":12839,"å¤ļå¹´æĿ¥":12840,"å¸ĪèĮĥåŃ¦æł¡":12841,"åĢ¡å¯¼":12842,"æĸĩèīºå¤įåħ´":12843,"åįıåķĨä¼ļè®®":12844,"BE":12845,"lyĠ":12846,"ual":12847,"ww":12848,"Ġä¸ĩåİĨ":12849,"åľ¨20ä¸ĸçºª":12850,"è½¶":12851,"åĨĽæĶ¿":12852,"åĮĹåĮº":12853,"ä¸īçŃī":12854,"åįķè½¦":12855,"æ²¡æĶ¶":12856,"éĥ¨åĪĨåľ°åĮº":12857,"æŀĦæĥ³":12858,"èĲ¨æĳ©":12859,"17ä¸ĸçºª":12860,"éĽĦæĢ§":12861,"å®³æĢķ":12862,"ç¿»åĶ±":12863,"æ»ĳåĨ°":12864,"çĪ±å¥½èĢħ":12865,"æĺİå°¼èĭıè¾¾å·ŀ":12866,"åİķæīĢ":12867,"6å²ģ":12868,"è¯µ":12869,"ä¸ŃåįĪ":12870,"ä»¥4":12871,"åĲİéĿ¢":12872,"ä¸įåĲ«":12873,"åħ¶éĹ´":12874,"ä¿©":12875,"åĪĨæ³Į":12876,"å¤©åľ°":12877,"èĤ½":12878,"çº¦4":12879,"åħĥèĢģ":12880,"éĴŀ":12881,"æ±Łåİ¿":12882,"æĺ¯ä¸ĢæĿ¡":12883,"å®Ĺåº§":12884,"æĹ©å·²":12885,"str":12886,"æ¾ľ":12887,"æĲģ":12888,"è¿ģåĪ°":12889,"1æĹ¥å¹³åĿĩ":12890,"lesĠ":12891,"çīĽé¡¿":12892,"çļĨæľī":12893,"èĿ´":12894,"1907å¹´":12895,"å¼ķèµ·çļĦ":12896,"ç»ıåİĨäºĨ":12897,"éī´å®ļ":12898,"ä¸ĵç§ĳåŃ¦æł¡":12899,"6æĹ¶":12900,"Fran":12901,"Ġ10æľĪ":12902,"ä¸įçŁ¥éģĵ":12903,"éĽı":12904,"åįĹéĿ¢":12905,"åĬłç´¢":12906,"çĶµç«Ļ":12907,"2010":12908,"åħ¨æĹ¥":12909,"æ¡¦":12910,"è¾¾ç§ĳ":12911,"é»Ķ":12912,"æīĭçļĦ":12913,"èģĮæĿĥ":12914,"èĦĨ":12915,"å¯ĨéĽĨ":12916,"èĩ´ä½¿":12917,"èĢģäºº":12918,"æĥ³åĪ°":12919,"è¯ĳä½ľ":12920,"æĺ¯ä¸Ģé¢ĹæģĴæĺŁ":12921,"æİ©æĬ¤":12922,"ä½Ľç½ĹéĩĮè¾¾":12923,"çķħéĶĢ":12924,"èĿ´èĿ¶":12925,"bo":12926,"ĠéļıèĳĹ":12927,"æĹ¥åĨħ":12928,"æ³¼":12929,"åŃ¦ä¸ļ":12930,"æ³ķæĭī":12931,"æĸ°éĺ¿åŁºåĿ¦å¤§åĮº":12932,"åĮĹæ¬§":12933,"å±±ä¸Ĭ":12934,"ä¸¤å±Ĥ":12935,"æĢ»åĨ³èµĽ":12936,"åıĺå¼Ĥ":12937,"ä¼ĺåĮĸ":12938,"ä¸ĢçĽ´åĪ°":12939,"èµĽäºĭä¸Ń":12940,"å¢ĵåľ°":12941,"åįģå¹´ä»£":12942,"å¦Īå¦Ī":12943,"æĳĨèĦ±":12944,"?ãĢį":12945,"SC":12946,"ĠåĲĦ":12947,"Ġå¥¹":12948,"ĠåŃ¦æł¡":12949,"çļĦé¦Ļæ¸¯":12950,"çļĦçĲĥéĺŁ":12951,"åľ¨è¿ĻäºĽ":12952,"åĴĮæĹ¥æľ¬":12953,"é«ĺå°Ķå¤«":12954,"è¯Ńç³»":12955,"æ¯ıæľĪ":12956,"åı¯ä»¥ä½¿çĶ¨":12957,"å®Ĺå®¤":12958,"éĿĴå±±":12959,"å¤ıæľĹå¾·":12960,"èµ«é²ģ":12961,"æĬĢæľ¯çļĦ":12962,"è®²åº§":12963,"ç¦»å¼ĢäºĨ":12964,"æ´ŀç©´":12965,"æªĢ":12966,"å«ģç»Ļ":12967,"å±¥è¡Į":12968,"åļ":12969,"çļĦé»ĳ":12970,"åĨ¤":12971,"çī¡":12972,"åĲİå¤ĩ":12973,"æ±¾":12974,"äºĭè¿¹":12975,"åº¦è¿ĩ":12976,"æ¸¯åı°":12977,"éĴī":12978,"æĽ´é«ĺçļĦ":12979,"éĽ·è¯º":12980,"èİ±åħĭ":12981,"åĽ½éĻħèµĽ":12982,"åĽłä¸ºå®ĥ":12983,"äºĨä¸Ģé¡¹":12984,"æĳ©æ´Ľ":12985,"æŀªç®¡":12986,"éĺ¿å°ĶåıĬåĪ©äºļ":12987,"Ġcol":12988,"æīĢéľĢçļĦ":12989,"å¾·åħĭèĲ¨æĸ¯å·ŀ":12990,"å·´æĭ¿é©¬":12991,"LL":12992,"RO":12993,"ĠåĲįç§°":12994,"ĠéļıçĿĢ":12995,"çļĦçĬ¶æĢģ":12996,"äººéģĵ":12997,"å¯¹æĪĺ":12998,"èİº":12999,"é«ĺå®Ĺ":13000,"äºļé©¬":13001,"è½¦äººæ¬¡":13002,"ç³Ł":13003,"éĺ¿èĲ¨":13004,"èĳĹçļĦ":13005,"åıĪç§°ä¸º":13006,"åİ»äºĨ":13007,"å¾Īå®¹æĺĵ":13008,"è¯ģä¹¦":13009,"ä¹¡éģĵ":13010,"åĺ²":13011,"æķĮåĨĽ":13012,"åĽºä½ĵ":13013,"åŃĶåŃĲ":13014,"è±ªåįİ":13015,"MO":13016,"çļĦé¢Ĩå¯¼":13017,"è¡ĮæĿİ":13018,"æĬ¹":13019,"èĩªä»İ":13020,"èĪľ":13021,"åı°éĵģ":13022,"åħ¨æ°ĳ":13023,"çº¿æĺ¯":13024,"ç³»æķ°":13025,"æ°´åĬĽ":13026,"åħĥçļĦ":13027,"æīĭæĮģ":13028,"èĲ¨è¯¸å¡ŀ":13029,"äºĨä¸Ģåº§":13030,"çĶŁçī©åŃ¦å®¶":13031,"ç¨İåĬ¡":13032,"è´¢æĶ¿éĥ¨":13033,"5æĹ¶":13034,"çļĦåī¯":13035,"çļĦçĲĨè®º":13036,"æŀķ":13037,"ä¹ĭæīĢä»¥":13038,"æĸ°ä¼ļ":13039,"æľĢå¿«":13040,"è¿ĩæĿ¥":13041,"å²Ľå¼ıæľĪåı°":13042,"åĳ½ä¸Ń":13043,"ç¬¬ä¸ĢåŃ£":13044,"ä»Ĭå±ŀ":13045,"æ³°å±±":13046,"æ¤°":13047,"å¾·åĽ½çļĦ":13048,"èľĺ":13049,"èĿĩ":13050,"çªĹåı£":13051,"å«Įçĸĳ":13052,"uper":13053,"èĥ°å²Ľ":13054,"eth":13055,"ys":13056,"Ð½":13057,"çļĦçİ°è±¡":13058,"æĿĸ":13059,"ä¸Ĭæĺ¯":13060,"åĩºèī²":13061,"åĪĨè¾¨":13062,"é¦Ī":13063,"åŃĲç§ĳ":13064,"æĪĺç¥ŀ":13065,"å¤ĸæĺŁ":13066,"å®īå®ļ":13067,"æİ¥çº³":13068,"æŀĹä¸ļ":13069,"å¤ĦåĪĨ":13070,"æ¸ħæ´ģ":13071,"æ¬§ç¾İ":13072,"çĪ¶åŃĲ":13073,"å»ºçŃĳç¾¤":13074,"åģĩè¯´":13075,"è¯¥çľģä»½ä¸ºæ³ķåĽ½åĮĹéĥ¨":13076,"æ´»è·ĥäºİ":13077,"åĬłåĪ©ç¦ıå°¼äºļ":13078,"AKB48":13079,"åĬłåĭĴæ¯Ķæµ·":13080,"Open":13081,"ÃŃ":13082,"çļĦçīĪæľ¬":13083,"åľ¨åľ£":13084,"åľ¨2005å¹´":13085,"åĲİäºİ":13086,"åĪ°æĿ¥":13087,"åĪ©æ¶¦":13088,"ä»£è¨Ģ":13089,"èĩ³4":13090,"çĶµæºĲ":13091,"2014":13092,"åº¦åģĩ":13093,"éĩįåŀĭ":13094,"æİ¥åı£":13095,"éĩĳéĴ±":13096,"å¼łåŃ¦":13097,"ä¿®çŃĳ":13098,"ä¼¯æģ©":13099,"æ½Ł":13100,"æ¯ĶèµĽçļĦ":13101,"è¿ľçļĦ":13102,"æĺ¥èĬĤ":13103,"æķ°æį®åºĵ":13104,"åįĹåĮĹæľĿ":13105,"é£ĵé£İä¸Ńå¿ĥ":13106,"èħ¾è®¯":13107,"oon":13108,"otĠ":13109,"è¯Ľ":13110,"åĩ¿":13111,"èĢ¿":13112,"çŃīäººçļĦ":13113,"ç§įåĬł":13114,"é¦ĸè½®":13115,"å·´è¾¾":13116,"å·´åĵĪ":13117,"èįĶ":13118,"åİĨç¨ĭ":13119,"è¿ĺæ²¡æľī":13120,"çļĦä¸Ģç³»åĪĹ":13121,"æĿİæ°ı":13122,"ä¾Ľæ°´":13123,"134":13124,"å³Ļ":13125,"åĲĮå¹´8æľĪ":13126,"çģµé¡¿":13127,"æī©åħħ":13128,"æ°ĳä¸»ä¸»ä¹ī":13129,"åįļçī©éĻ¢":13130,"å¤ĸäº¤åħ³ç³»":13131,"çĽ¸å¯¹è®º":13132,"ä¹ĥèĩ³":13133,"å¼ºçĥĪçļĦ":13134,"çİĭå®īçŁ³":13135,"åĪĥ":13136,"åľ¨2016å¹´":13137,"å¤§å±łæĿĢ":13138,"ä¸įåĲĪ":13139,"ä¸»æľº":13140,"åŃĲåĴĮ":13141,"åı¯æĮģç»Ń":13142,"æİ¥åĪ°":13143,"å¤Ħå¤Ħéķ¿":13144,"ä¸ĵå±ŀ":13145,"å¤įåĩº":13146,"åĽŃæŀĹ":13147,"æ¥·":13148,"å¾Īé«ĺ":13149,"å¡ŀæĸ¯":13150,"éŁ³ä¹ĲèĬĤ":13151,"åºķéĥ¨":13152,"æ²¿èĳĹ":13153,"æĽ¿è¡¥":13154,"æºªæµģ":13155,"Ġ1990å¹´":13156,"æĪ´ç»´":13157,"ç¡¬ä»¶":13158,"Ġ1989å¹´":13159,"oph":13160,"æ£Ģå¯Łå®ĺ":13161,"ä¸ºè¾Ĳé³įé±¼çº²é²Īå½¢çĽ®":13162,"ç®¡æİ§ä¸Ńåıĳçİ°":13163,"70å¹´ä»£":13164,"8æľĪ15æĹ¥":13165,"åľ¨æľ¬":13166,"ä¸ºçĥŃå¸¦":13167,"æĺ¯å·´è¥¿":13168,"åĴĮåľ£":13169,"åĪĨéĺŁ":13170,"ç¾İæĭī":13171,"èĬľ":13172,"ç§ĳå¤ļ":13173,"åĽĽä½į":13174,"åŀĦ":13175,"äººåı£çļĦ":13176,"ç»´çī¹":13177,"å¥¥å§Ķä¼ļ":13178,"ä½ıæīĢ":13179,"æĽ¼åĵĪ":13180,"åĩłä¸ªæľĪ":13181,"å®ĮæĪĲåĲİ":13182,"eter":13183,"æķĮå¯¹":13184,"rid":13185,"å¾·éĩĮåħĭ":13186,"æ¤ŃåľĨå½¢":13187,"))":13188,"åľ¨ä¹Įåħĭåħ°":13189,"äººå¯¹":13190,"äºĨèĩªå·±çļĦ":13191,"çĶŁçĲĨ":13192,"ä¹ĭå®¶":13193,"å¼łå®¶":13194,"åĪĴåĪĨä¸º":13195,"è¿ŀä¸²":13196,"æĿĳçļĦ":13197,"ä¾ĽçĶµ":13198,"æ´ĽæŀĹ":13199,"çĻ»åł¡":13200,"è¿ªå°Ķ":13201,"æ¸©åĴĮ":13202,"æ¬§æ´²åĽ½å®¶":13203,"ãģĦ":13204,"å½©èĻ¹":13205,"èİ²èĬ±":13206,"é«ĺçŃīæ³ķéĻ¢":13207,"å¤ļæł·æĢ§":13208,"å¤ĸåĽ´èµĽ":13209,"Netflix":13210,"å½ķéŁ³å®¤ä¸ĵè¾ĳ":13211,"çļĦæĶ¿çŃĸ":13212,"çļĦæľĢå¤§":13213,"èĢĨ":13214,"ä¸įæ¸ħæ¥ļ":13215,"æ°ĳäºĭ":13216,"åħ¨æĸ°":13217,"æĥ¹":13218,"10æĹ¶":13219,"å¤«æĸ¯åŁº":13220,"äºĶå¤§":13221,"æĬ¥åĲį":13222,"ä¿Ħè¯Ń":13223,"åºĨä¸ĭ":13224,"é³Ĺ":13225,"äºĮåįģä¸Ģå¹´":13226,"æŃĮæĽ²çļĦ":13227,"èµŀèµı":13228,"1903å¹´":13229,"å±ıå¹ķ":13230,"æĹ¢æľī":13231,"èľĺèĽĽ":13232,"5åı·":13233,"HO":13234,"çĶ¨åľ¨":13235,"çŃīåĲĮ":13236,"å°ĨæĿ¥":13237,"çĽ®åĩ»":13238,"æıĲéĨĴ":13239,"åıĸåĲĳ":13240,"åħĪè¡Į":13241,"æ´¾å¯¹":13242,"æ¡ĪçļĦ":13243,"è¿ªåħĭ":13244,"éĵģè·¯çļĦ":13245,"èĨĿ":13246,"ä¹ĭéĹ´çļĦåħ³ç³»":13247,"ä¸Ģæ®µæĹ¶éĹ´":13248,"ä¸ŀçĽ¸":13249,"å¼ĹéĽ·å¾·":13250,"Ġ3æľĪ":13251,"çļĦç»Łæ²»":13252,"åľ¨2007å¹´":13253,"äººè¢«":13254,"æĻ®é¡¿":13255,"çĶµå½±éĻ¢":13256,"é¥·":13257,"æŀģåħ¶":13258,"åĪĹè½¦çļĦ":13259,"æļ´éĽ¨":13260,"åĨ²éĶĭ":13261,"æ¿Ĵåį±":13262,"%)":13263,"äººåĬĽ":13264,"äººæŃ»äº¡":13265,"æĺ¯çĳŀå£«":13266,"è§ħ":13267,"ä¸įå¤Ł":13268,"è·¯ä¸İ":13269,"ç«Ļåīį":13270,"10ä¸ĩ":13271,"èµ·èįī":13272,"æ°´æ³¥":13273,"ä»¬çļĦ":13274,"çīĩçļĦ":13275,"æŃ¦çĶ°":13276,"è£ħæľī":13277,"å®Įæ¯ķ":13278,"142":13279,"åģľåĬŀ":13280,"å¹²æĹ±":13281,"ãĤ¹":13282,"äºİ184":13283,"çº¿è·¯åı£":13284,"ä¸¤å¹´åĲİ":13285,"æĴŀåĩ»åĿĳ":13286,"ler":13287,"ĠåĺīéĿĸ":13288,"åľ¨éŁ©åĽ½":13289,"ä¸Ģçº¿":13290,"åŃµ":13291,"åĮ¡":13292,"èĭ·":13293,"ä¹Łä¸İ":13294,"åħ¨åŀĴæīĵ":13295,"æĢ»åħµ":13296,"åİ¿å¸Ĥ":13297,"å°¼ç§ĳ":13298,"ä¿¡æīĺ":13299,"æ¨Ĭ":13300,"åĨįçĶŁ":13301,"æŃ¦æĺĮ":13302,"åħ·åºĨä¸ĭ":13303,"é¡¿æ¶ħ":13304,"roup":13305,"åĪĩæĸŃ":13306,"ley":13307,"ä½©å°Ķ":13308,"èĤ¯èī²":13309,"æĢªçī©":13310,"èĿĻèĿłä¾ł":13311,"2æľĪ24æĹ¥":13312,"RS":13313,"Rob":13314,"åľ¨2017å¹´":13315,"äºĨå¤§éĩı":13316,"åĪ°è®¿":13317,"å¤ļç±³":13318,"å¹³åİ¿":13319,"åĬłå¯Ĩ":13320,"éĢļç§°":13321,"åįİæ²Ļ":13322,"æīĭä¸ĭ":13323,"éĹ¨å¤ĸ":13324,"åŃĹä½ĵ":13325,"çĿ¿":13326,"æĶ»éĻ·":13327,"åįĬåĨ³èµĽ":13328,"äºĭä»¶ä¸Ń":13329,"åį´è¢«":13330,"ãĤĵ":13331,"èĩªåĬ¨åĮĸ":13332,"æ°¯åĮĸ":13333,"æ¸ĹéĢı":13334,"ä¹Įåħ¹åĪ«":13335,"æĳ©æ´Ľåĵ¥":13336,"Ġä¿Ħç½Ĺæĸ¯":13337,"ĠåĶĲ":13338,"ä¸Ģå¥Ĺ":13339,"æ²«":13340,"åĩºå¢ĥ":13341,"ä¿¯":13342,"é©¿":13343,"èİ¹":13344,"å¸ĥè¾¾":13345,"æĢ»ç½²":13346,"éĥ½è¦ģ":13347,"éĺ¿åįľ":13348,"åŀ©":13349,"å¨Ħ":13350,"å¯¼ä½ĵ":13351,"é²¶":13352,"åı¯ä»¥è¢«":13353,"åħ«å¼º":13354,"ä¾¿ä¼ļ":13355,"åį¢æ¯Ķ":13356,"21ä¸ĸçºª":13357,"åĬªæĸ¯":13358,"ãĢī.":13359,"irl":13360,"å¸ĥé²ģæĸ¯":13361,"å¥¥åħĭè¥¿":13362,"è¯¥çī©ç§įçļĦæ¨¡å¼ıäº§åľ°":13363,"Twit":13364,"å¹´ä»½":13365,"æĺ¯éĢļè¿ĩ":13366,"åĴĮåħ¶":13367,"å¹¶éĢļè¿ĩ":13368,"æ¯Ķ1":13369,"åı·åı¬":13370,"åĽĽåĳ¨":13371,"2022":13372,"åįķè¯į":13373,"å¤«å¦»":13374,"è¿ĳæľŁ":13375,"è½¬è¿Ĳ":13376,"åħīçļĦ":13377,"å¥ĸåŃ¦éĩĳ":13378,"å¤®è§Ĩ":13379,"åŁĥæĸ¯":13380,"æħĮ":13381,"å¼Ĺèİ±":13382,"èģļå±ħ":13383,"æĬµåĪ¶":13384,"èĦ±ç»´äºļ":13385,"èĴĭä¸ŃæŃ£":13386,"å¹¿è¥¿å£®":13387,"æķĻç§ĳæĸĩ":13388,"èĤ¯å¡ĶåŁºå·ŀ":13389,"8åħ¬éĩĮ":13390,"å¬":13391,"Ġä¸Ģä¸ª":13392,"çļĦå¼Ģåıĳ":13393,"çļĦå±ħæ°ĳ":13394,"åľ¨2019å¹´":13395,"ä¸Ńä½¿çĶ¨":13396,"å¥¢":13397,"æĹ¶è£ħ":13398,"æ²¾":13399,"æµĬ":13400,"è½¿":13401,"åĪĨä¼ļ":13402,"çĶ±ä¸ŃåĽ½":13403,"åŃĲåŃĻ":13404,"åįģä½Ļ":13405,"èĢħåľ¨":13406,"ç±³åĭĴ":13407,"è¿ĺå°Ĩ":13408,"ä¸ĸçķĮå¤§èµĽ":13409,"å¼ºè¡Į":13410,"å®Įé¢ľ":13411,"æİĴçĲĥ":13412,"åī¯éĻ¢éķ¿":13413,"åįłæľī":13414,"ild":13415,"æ¯ĴæĢ§":13416,"éĢĥèĦ±":13417,"ä¸ľåįĹæİ¥":13418,"çķªèĮĦ":13419,"çİ»åĪ©":13420,"åį°åľ°å®ī":13421,"æĽ¼åĵĪé¡¿":13422,"ç¬¬15":13423,"ä¸ĭå±ŀçļĦ":13424,"å¸Ĥçº§":13425,"éĩĮå°Ķ":13426,"è½¦åİĤ":13427,"åħ³å¿ĥ":13428,"çĽ´æµģ":13429,"èĳĹç§°":13430,"æ³¢å¾·":13431,"è¶³åĪ©":13432,"areĠ":13433,"æķħå±ħ":13434,"æ·±æ°´":13435,"å°Ħæīĭ":13436,"ä¸Ńå¤®æĶ¿åºľ":13437,"å¼ĤæĢ§":13438,"èį·é©¬":13439,"è®¢è´Ń":13440,"èĨı":13441,"æī¬å·ŀ":13442,"ä¸ĩäººæ¬¡":13443,"èĹ¤åİŁ":13444,"ĠofĠtheĠ":13445,"å¹½é»ĺ":13446,"ç°§":13447,"å·´æĭīåľŃ":13448,"Ð¸":13449,"Ġèī¾":13450,"çļĦåıįåºĶ":13451,"çļĦçºªå½ķ":13452,"ä¸Ģçīĩ":13453,"ä¸ĢåĿĹ":13454,"è¡ŀ":13455,"å¤§çķ¥":13456,"æī³":13457,"åĴ¬":13458,"ä»ĸå·ŀ":13459,"æĪĺçº¿":13460,"æŃ£å½ĵ":13461,"éľī":13462,"çĭĻ":13463,"æłĩçŃ¾":13464,"å¼Ģå§ĭåĲİ":13465,"åħīå¤į":13466,"arm":13467,"æĶ¿æ²»åįıåķĨä¼ļè®®":13468,"åĨĻäºĨ":13469,"è¡ĹåºĦ":13470,"æī¿åıĹ":13471,"çļĦäººå£«":13472,"åħħå½ĵ":13473,"æī¾åĪ°äºĨ":13474,"éģ¿éļ¾":13475,"å¸¦æĿ¥äºĨ":13476,"çĲ¼æĸ¯":13477,"éĤªæģ¶":13478,"9æľĪ28æĹ¥":13479,"ood":13480,"Ġæııè¿°":13481,"åľ¨æŁĲäºĽ":13482,"åĴĮæĶ¿æ²»":13483,"ç¾İåĽ½éĻĨåĨĽ":13484,"123":13485,"ç¬¬ä¸Ģä»£":13486,"ç¼ĸæĪĲ":13487,"åĪĽåĪĬ":13488,"ä»£è¡¨æĢ§":13489,"5æľĪ20æĹ¥":13490,"å¾®åĪĨ":13491,"æįķèİ·":13492,"å¤ĸäº¤éĥ¨éķ¿":13493,"ott":13494,"ç¼ĵè§£":13495,"åĲĲèķĥ":13496,"åı°é£İèŃ¦æĬ¥":13497,"Ġåħĥ":13498,"ä¼ļåĲĪ":13499,"ä½ľå®¢":13500,"åĪĨéĥ¨":13501,"å¤ļéĿ¢ä½ĵ":13502,"åĽłåľ¨":13503,"çŃīä»·":13504,"è·¯éĿ¢":13505,"æ¼Ķç»İ":13506,"å¸¸æķ°":13507,"åĭ¿":13508,"å¨ģçī¹":13509,"çª¦":13510,"çħ½":13511,"è¿ªåįĹ":13512,"4æľĪ30æĹ¥":13513,"è½»åŀĭ":13514,"æĶ¶å½ķäºİ":13515,"ç¢°æĴŀ":13516,"çļĦåĴĮ":13517,"å¤§å°Ĩ":13518,"äºĨåľ¨":13519,"å¤ļæĿ¡":13520,"åĪ©æ¯Ķäºļ":13521,"ä¸īåı·":13522,"å°ĨæŃ¤":13523,"åľºé¦Ĩ":13524,"èĭ±èģĶéĤ¦":13525,"åıĤæĪĺ":13526,"çķĮéĿ¢":13527,"æº¢":13528,"å¸ĪçĶŁ":13529,"las":13530,"æĿİåħĭ":13531,"è¯Ħçº§":13532,"çĭ¬è£ģ":13533,"åıĳçİ°äºİ":13534,"åĪĨåĪ«åľ¨":13535,"åĪºæĿĢ":13536,"ãĤ¤":13537,"åıĭå¥½åŁİå¸Ĥ":13538,"Ðµ":13539,"çļĦé£İéĻ©":13540,"åħĸ":13541,"åĴĮæĹłçĹĩçĬ¶æĦŁæŁĵèĢħ":13542,"ä¼ļä¸İ":13543,"ä¸įçĶ¨":13544,"æ´¼":13545,"åħ¬æīĢ":13546,"æ°ĳçĶŁ":13547,"å¤ļçĵ¦":13548,"å¼Ģæĭĵ":13549,"åı¯æĥľ":13550,"è¯¥å¤Ħ":13551,"äº§éĺ¶çº§":13552,"éĹ¨çļĦ":13553,"éĴĻ":13554,"èĮľ":13555,"çļĦä¸Ģåĳĺ":13556,"eĠT":13557,"ä½ľä¸ºä¸Ģä¸ª":13558,"æķħä¹¡":13559,"æ³°ç½Ĺ":13560,"æł¸ç³ĸ":13561,"æĳ©æ³½å°Ķçľģ":13562,"æĪĴä¸¥":13563,"åįĵè¶Ĭ":13564,"åĽ½å®¶éĺŁåıĤåĬł":13565,"æŁ´æ²¹æľº":13566,"Microsof":13567,"åĲīéļĨåĿ¡":13568,"DO":13569,"Ġéķ¿":13570,"æĺ¯å¥¥åľ°åĪ©":13571,"åľ°è¡¨":13572,"æ¸¤":13573,"æ³ķè¥¿æĸ¯":13574,"æĿ¥äºĨ":13575,"2015":13576,"å°ıæıĲçĲ´":13577,"ä½Ĩæľª":13578,"ç§įç§į":13579,"éĩĳéĴŁ":13580,"å¤«çļĦ":13581,"çļĦä¸Ģä¸ªåĮº":13582,"alk":13583,"10æľĪ10æĹ¥":13584,"ä¼ĺå¼Ĥ":13585,"éŁ¦ä¼¯":13586,"ä¸¾åĬŀäºĨ":13587,"åºĶçĶ¨ç¨ĭå¼ı":13588,"Ġ187":13589,"è¿ĩåİ»çļĦ":13590,"æĬĺåıł":13591,"Ġ1937å¹´":13592,"çĶŁéķ¿åľ¨":13593,"è°¥åı·":13594,"æĮīå¯Łåı¸":13595,"(ãĢģ":13596,"2æľĪ1æĹ¥":13597,"ĠæĪĸ":13598,"çĶĦ":13599,"äººæīĢ":13600,"çİº":13601,"çĶŁç´ł":13602,"å¹¶è¦ģæ±Ĥ":13603,"å¾·å·ŀ":13604,"æ¯Ķèµ·":13605,"ç»ĵæĻ¶":13606,"äº¦æĽ¾":13607,"å®ĪåĨĽ":13608,"ç§ĢåĲī":13609,"å®ĭä»£":13610,"èµ¤éģĵ":13611,"irst":13612,"ç¨İæĶ¶":13613,"åİļåº¦":13614,"åı¥è¯Ŀ":13615,"æĸ¯èĴĤèĬ¬":13616,"ç°¿":13617,"ç¦ıå°Ķæĳ©":13618,"çŁ³åĻ¨æĹ¶ä»£":13619,"ç§ĳç½Ĺæĭīå¤ļ":13620,"èĥ°å²Ľç´ł":13621,"Gr":13622,"NO":13623,"VID":13624,"ground":13625,"çļĤ":13626,"çļĦä»·æł¼":13627,"ä¸Ģç»Ħ":13628,"æłĪ":13629,"ä¸įå½ĵ":13630,"åīįæľŁ":13631,"åİŁä½ľ":13632,"å±ŀçī©ç§į":13633,"æİ¥çĿĢ":13634,"åħĥä»¶":13635,"æ¸¯å²Ľ":13636,"ç»ĵå°¾":13637,"çĬ¶çļĦ":13638,"ç¬¬åĽĽæ¬¡":13639,"ç¬ĶåĲį":13640,"å¤ıåŃ£å¥¥è¿Ĳä¼ļ":13641,"çĽ¸ä¼¼çļĦ":13642,"ä½¥äºĭ":13643,"çİĽæł¼ä¸½":13644,"ä¸Ģæī¹":13645,"è¾ľ":13646,"ä¸īæĿ¡":13647,"è¯¥å»ºçŃĳ":13648,"ç¥ģ":13649,"åİ¿åĴĮ":13650,"å±ŀèĤīé£ŁæĢ§":13651,"åĽĽç§į":13652,"åıĤåĨĽ":13653,"æĦıæĦ¿":13654,"inal":13655,"16ä¸ĸçºª":13656,"çĻ»å±±":13657,"è´¥ç»Ļ":13658,"å½Ĵè¿ĺ":13659,"éº¦éĩĳ":13660,"æľºæŀĦçļĦ":13661,"èİīä¸Ŀ":13662,"å®īè£ħåľ¨":13663,"60å¹´ä»£":13664,"å¹´ä»ħ":13665,"åŃ¦è¯´":13666,"åĩºåħ¥":13667,"å¤ļå¹´çļĦ":13668,"åīįåİ»":13669,"åİĨæĹ¶":13670,"æĮĩåįĹ":13671,"æºī":13672,"æĻ®åĪ©":13673,"æĪıéĻ¢":13674,"ç¤¼åłĤ":13675,"å¸ĥèİ±æģ©":13676,"åĢ¾åĲĳäºİ":13677,"include":13678,"ä¸ºçķĮ":13679,"ä¸ŃçļĦä¸Ģä¸ª":13680,"æ¸£":13681,"è½¦è·¯":13682,"è¯¥é¡¹çĽ®":13683,"åħ¨èº«":13684,"ä¸¤èīĺ":13685,"æ¸¸çİ©":13686,"å¹³æĸ¹èĭ±éĩĮ":13687,"ä¸»è¦ģä»¥":13688,"eĠL":13689,"èĩ´æķ¬":13690,"æ¸©æļĸ":13691,"çĽĳæİ§":13692,"7æľĪ7æĹ¥":13693,"è½»æĿ¾":13694,"å¥³æĢ§ä¸º":13695,"éĢĥå¾Ģ":13696,"è¡°èĲ½":13697,"æĭ¼éŁ³":13698,"æŃ£ç¡®çļĦ":13699,",(":13700,"Ġå¤ĸ":13701,"çļĦæĢ§":13702,"çļĦæĸĩåĮĸ":13703,"ä¹ĭæĹħ":13704,"å¹¶æĬĬ":13705,"èĢĮå·²":13706,"è¢«ä¿ĺ":13707,"ç¾İé£Ł":13708,"åºľçŁ¥åºľ":13709,"éĺ¿åĭĴ":13710,"ä»İä¸Ń":13711,"æ¶©":13712,"æ¢Ĺ":13713,"æīĵåĩº":13714,"åįĥå¹´":13715,"çĮ¿":13716,"ica":13717,"é¢ĦèµĽ":13718,"çļ®åŁĥå°Ķ":13719,"å¹¿æĴŃçĶµè§Ĩ":13720,"ä¸īåįģåĽĽå¹´":13721,"åĩ¡å°Ķ":13722,"çİĩä¸º0":13723,"ç¥ŀåľ£ç½Ĺé©¬å¸ĿåĽ½":13724,"å½Ĵç±»ä¸º":13725,"Linux":13726,"èĶ¬èıľ":13727,"çļĦæĢģåº¦":13728,"æĺ¯ä¸ĸçķĮä¸Ĭ":13729,"çĶŁèĤ²":13730,"è¥¿æ±ī":13731,"é¦ĸéķ¿":13732,"åįķçº¯":13733,"éĽĨæĪĲ":13734,"å¥¥å¼Ĺ":13735,"è§£æŀĲ":13736,"ç¦»èģĮ":13737,"çłĶç©¶å®¤":13738,"ç¦ıåħĭæĸ¯":13739,"ä¿®æĸ¯":13740,"å®¢åľº":13741,"å¾Īåı¯èĥ½":13742,"æīĺåĭĴ":13743,"æ°ıçļĦ":13744,"å»¶æľŁ":13745,"ream":13746,"è¿Ļä¸ĢçĤ¹":13747,"è¯ĳåĲį":13748,"è¹Ħ":13749,"å¤§è§Ħæ¨¡çļĦ":13750,"ç§įåĬłè¯į":13751,"3åħ¬éĩĮ":13752,"ãĦ":13753,"ä¸Ńæĸ¹":13754,"æĺ¯ä¸İ":13755,"ä¹ĭäºº":13756,"éĩĮå¸Į":13757,"æĸĩæĸ¯":13758,"ç±»æ¡Īä»¶":13759,"ä»¶äºĭ":13760,"åı¯ä»¥è¿½æº¯åĪ°":13761,"æ¸ħéĻ¤":13762,"è¿ŀéĶģ":13763,"ä¿®ç¼®":13764,"ary":13765,"æĺ¯ä¸ĢæīĢ":13766,"çļĦä¸Ģä¸ªåİ¿":13767,"å©¿":13768,"11æľĪ11æĹ¥":13769,"ç©Ĩå°Ķ":13770,"ä¸ºäººçŁ¥":13771,"ç«ŀæĬĢåľº":13772,"å¾Ĺç¥¨çİĩ":13773,"!!":13774,"ĠéĻ¤":13775,"Ġä¹ĭåĲİ":13776,"ĠII":13777,"å¤§éĥ½ä¼ļ":13778,"åĴĮæĸĩåĮĸ":13779,"ä¸Ĭè¡Į":13780,"åĩºåĬ¨":13781,"å®¶éķ¿":13782,"ä¸ĭè®®éĻ¢":13783,"å¸Ĥäººæ°ĳæĶ¿åºľ":13784,"èµĽä¼ļ":13785,"ç¦½":13786,"åĽĽå¼º":13787,"åı²éĥ½":13788,"ä¸ĩèĭ±éķĳ":13789,"ç»Ńçº¦":13790,"å¼ºå¥¸":13791,"è§Ħå¾ĭ":13792,"çĶµå½±ä¸Ń":13793,"ä¿Ħæ¯Ķäºļ":13794,"ç¾¤çļĦ":13795,"å¾ģæĶ¶":13796,"éŁ©æ°ĳåĽ½":13797,"çī¹åĪ«æĺ¯åľ¨":13798,"å¥īå¤©":13799,"äºİ1991å¹´":13800,"åħ¬å¸ĥçļĦ":13801,"æĬ¢åĬ«":13802,"åĽ½åħ±åĨħæĪĺ":13803,"æĳ©æīĺè½¦":13804,"åŁĥå¡ŀä¿Ħæ¯Ķäºļ":13805,"%ãĢģ":13806,"PG":13807,"RNA":13808,"çļĦæ¼Ķåĩº":13809,"åĩºåİ»":13810,"åĪĨåıĳ":13811,"ä¸ĭè®¾":13812,"å¼Ģå¾Ģ":13813,"å¹³æĹ¥":13814,"äºļä¼¯":13815,"ä¸¤å®¶":13816,"åºĶæĢ¥":13817,"æĽ´å¥½çļĦ":13818,"åıĺä½ĵ":13819,"çĻ½åŀ©":13820,"æĦŁåħ´è¶£":13821,"éŁ³ä¹Ĳåī§":13822,"åº·å¥Īå°Ķ":13823,"åºĦæĿĳ":13824,"è½»è½¨":13825,"äºĮåįģä¸īå¹´":13826,"è°Īè¯Ŀ":13827,"åıĹæ¬¢è¿İçļĦ":13828,"å¥¥åħĭè¥¿å¡Ķå°¼å¤§åĮº":13829,"Fre":13830,"Ġèĭı":13831,"çļĦçŁ³":13832,"çļĦè®°è½½":13833,"æ³Ĺ":13834,"éĩĮå£«":13835,"åĬłè£ħ":13836,"æįį":13837,"è¿ĳåį«":13838,"ä»ĸä»¬è®¤ä¸º":13839,"è§ģçļĦ":13840,"æ¦ķ":13841,"æľŁéĹ´çļĦ":13842,"ç²¾éĢī":13843,"è¶³çĲĥåįıä¼ļ":13844,"ç»¼åĲĪæĢ§":13845,"åı²èĴĤèĬ¬":13846,"äºļåĪ©æ¡ĳ":13847,"å¹¿è¥¿å£®æĹıèĩªæ²»åĮº":13848,"Or":13849,"åĲİåĨį":13850,"âĢ»":13851,"ä½įç´ł":13852,"æľĢå¥½":13853,"é«ĺåİĭ":13854,"å¾Ĺå¥ĸ":13855,"2011":13856,"æĭīèĦ±ç»´äºļ":13857,"é¡½":13858,"ä½Ĩä¹Łæľī":13859,"ç±³æĭī":13860,"èĭ±ä¹Ŀ":13861,"éĺ¿åħĭ":13862,"æŀĹä¸Ń":13863,"çĽ´çº¿":13864,"åķĨä¼ļ":13865,"æ®µæĹ¶éĹ´":13866,"å¤±è¯¯":13867,"æĻ¯åĮº":13868,"ç¤¼çī©":13869,"æķ£æĸĩ":13870,"ä¸ĢèĪ¬çļĦ":13871,"æļĤæĹł":13872,"åŃĶæ³°":13873,"è·¨æĢ§åĪ«":13874,"åĽ°å¢ĥ":13875,"è§Ĥå¯ŁåĪ°":13876,"å¡ĳéĢł":13877,"æ°¨åŁº":13878,"ä¸»æīĵæŃĮ":13879,"éĹ¯åħ¥":13880,"é¡¿æ¶ħèĮ¨åħĭ":13881,"3åı·çº¿":13882,"5åĲį":13883,"M1":13884,"çļĦé£İ":13885,"éĥĿ":13886,"åħ¬åŃĲ":13887,"ç¾ģ":13888,"èĢĮåĩº":13889,"æĸ°æķĻ":13890,"åįİå·ŀ":13891,"å¸¸çĶ¨çļĦ":13892,"çģ«çĦ°":13893,"ä½İåľ°":13894,"æĢ»ç»ŁéĢīä¸¾":13895,"ç»ĵæĿŁäºĨ":13896,"çĽ®æłĩæĺ¯":13897,"æĭĽçĶŁ":13898,"åĽ°æī°":13899,"æĮĳéĢī":13900,"ç»§æī¿äºĨ":13901,"æłĩå¿ĹçĿĢ":13902,"å½»æĸ¯çī¹":13903,"æĬ½è±¡":13904,"æĬ«éľ²":13905,"230":13906,"SL":13907,"Ġå½ĵæĹ¶":13908,"åľ¨å¤ĸ":13909,"ä¸İåĲĮ":13910,"è½¦æ¬¡":13911,"ä¸¤åº¦":13912,"å½±éĽĨ":13913,"éĩıäº§":13914,"12æľĪ25æĹ¥":13915,"å¥¥å¸ĥ":13916,"æł¡æĸ¹":13917,"åĪ«äºº":13918,"æĳ¸":13919,"å¸Įä¼¯":13920,"åī¯æķĻæİĪ":13921,"æĶ»è¯»":13922,"ä»įæľª":13923,"é¢Ħè¨Ģ":13924,"ç¥ĸåĽ½":13925,"ç¥ĸæ¯į":13926,"éªĳå¸Ī":13927,"ode":13928,"èŃ¦å¯Łå±Ģ":13929,"è©¹å§Ĩ":13930,"åıĪåĲįBD":13931,"å¿½çķ¥":13932,"æĺĶæĹ¥":13933,"Pa":13934,"ä¸įåŃĺåľ¨":13935,"å¯¹æµģ":13936,"ç¾İçļĦ":13937,"ä¸ľæŃ£":13938,"ä½¿é¦Ĩ":13939,"ç§ĳç»´å¥ĩ":13940,"åįİä¸Ń":13941,"è§Ĩéĩİ":13942,"æĥħäºº":13943,"èĻĶ":13944,"æ¸ħæľ«":13945,"åľŁæľ¨":13946,"eĠD":13947,"åŃĻæĿĥ":13948,"é¦ĸæ¬¡åľ¨":13949,"åĩ¯çī¹":13950,"åĲĪå¹¶èĢĮæĪĲ":13951,"ä½įäºİè¯¥åĽ½åĮĹéĥ¨":13952,"å¡«è¯į":13953,"éªĳå£«åĽ¢":13954,"åĵĪå¸ĥæĸ¯åł¡":13955,"6æľĪ28æĹ¥":13956,"8Ġ":13957,"Co":13958,"ula":13959,"ä¸ºĠ":13960,"ä¸ºformula":13961,"æľīæĿĥ":13962,"ä¸ľåį°åº¦":13963,"èĲį":13964,"åŁºéĥ¨":13965,"çº¦æĹ¦":13966,"æĪĸè®¸":13967,"èĴĤæĸ¯":13968,"æŀ¶é£ŀæľº":13969,"æĿ¯åĨłåĨĽ":13970,"çĶŁäº§æĢ»åĢ¼":13971,"åºĶçĶ¨ç¨ĭåºı":13972,"çļĦçī¹æĢ§":13973,"åŃ¤ç«ĭ":13974,"ĠUn":13975,"ä¸ĳéĹ»":13976,"å¼ĹæĭīåŁº":13977,"2æĹ¶":13978,"Ġç§ĳ":13979,"Ġæ±ī":13980,"ä¸Ńåı¶":13981,"å¤§åĲį":13982,"20ä¸ª":13983,"æŀ¯":13984,"æ¸Ń":13985,"å¼Ģæŀª":13986,"äºĭçī©":13987,"æİ¥ç§į":13988,"åĮħè£¹":13989,"åı¤ç½Ĺé©¬":13990,"ç¼ĸè¯ĳ":13991,"å¤±åĪ©":13992,"å¤±æľĽ":13993,"æ°ıæĹı":13994,"isc":13995,"åıĳè¡¨å£°æĺİ":13996,"è¿Ļæĺ¯åĽłä¸º":13997,"çī§åľº":13998,"æł¼é²ģåĲīäºļ":13999,"èĦĬæ¤İåĬ¨çī©":14000,"-,":14001,"7åħ¬éĩĮ":14002,"byĠ":14003,"ĠçłĶç©¶":14004,"Ġä»ĸçļĦ":14005,"ĠæĿ¨":14006,"åį¤":14007,"åĴĮåįĹ":14008,"åĴĮä¸ī":14009,"åĬłçļĦ":14010,"æķĻåıĭ":14011,"çģ¶":14012,"åįķè¡Į":14013,"ä»½åŃĲ":14014,"èĩªå·±æĺ¯":14015,"éĻĪåĪĹ":14016,"æĤ¨":14017,"æ£Ģè®¨":14018,"éĶ¦èµĽ":14019,"éļıåĲİåľ¨":14020,"è¥¿éĥ¨çļĦ":14021,"åĨ¬å¤©":14022,"åİŁæľ¬çļĦ":14023,"å½¼å¾Ĺåł¡":14024,"å¯¹åºĶçļĦ":14025,"Ġä»¥ä¸ĭä¸º":14026,"ensis":14027,"å¥¥æĸ¯æĽ¼å¸ĿåĽ½":14028,"åį¯ç§ĳ":14029,"ãĢĭ;":14030,"èģĭ":14031,"è¿Ļä»½":14032,"å¾Ĺå¤ļ":14033,"åħ¥è¯»":14034,"ç«ĭéĿ¢":14035,"éĶĮ":14036,"å°±å¼Ģå§ĭ":14037,"ä¼łåĩº":14038,"æĶ¿æ²»å§Ķåĳĺ":14039,"æīįæĺ¯":14040,"æĪĲåĳĺçļĦ":14041,"çĽĽè¡Į":14042,"ç¼ºå¸Ń":14043,"rip":14044,"éĵľéĶ£":14045,"èĭĹæłĹ":14046,"åĪĽç«ĭäºĨ":14047,"æĶ¹å»ºä¸º":14048,"åħļç»Ħä¹¦è®°":14049,"BR":14050,"CL":14051,"eh":14052,"net":14053,"Ġäºĭä»¶":14054,"æĹ¥åľĨ":14055,"ä¸įå¤§":14056,"è¿Ļå¯¹":14057,"é«ĺæ¸©":14058,"æµ·æĪĺ":14059,"å°Ĩè¿ĳ":14060,"å±±ç«Ļ":14061,"å¼ıå»ºçŃĳ":14062,"éĥ½ç»Ł":14063,"é¦ĸåĳ¨":14064,"æĽ¾å¤ļæ¬¡":14065,"æ¸¸ä¹Ĳ":14066,"æĶ¶çĽĬ":14067,"åº§æ¤ħ":14068,"æĬķè¯ī":14069,"åĬ©æīĭ":14070,"å¡ŀçī¹":14071,"çĻ¾å¼º":14072,"ç¤¾ä¼ļç§ĳåŃ¦":14073,"çķĻå®Ī":14074,"ition":14075,"illa":14076,"å·¡è§Ĩ":14077,"åĪĽä½ľäºĨ":14078,"ð«ļ":14079,"ç§ĳå¤ļå°Ķçľģ":14080,"5æľĪ15æĹ¥":14081,"æ³ķåħ¸":14082,"èĢĮåħ¶":14083,"èĢĮåıĹåĪ°":14084,"è¢«ç§°ä½ľ":14085,"å¤ļåªĴä½ĵ":14086,"æĸĩåĩŃ":14087,"ä½Ĩä»ĸä»¬":14088,"ä¸¤ç«¯":14089,"å°±å·²":14090,"åį¡æ´Ľ":14091,"æĶ¯éħį":14092,"ä¸»è¦ģæľī":14093,"eĠH":14094,"æ³ķåĽ½çļĦ":14095,"åĽ´æ£ĭ":14096,"åħ´å¥ĭ":14097,"è´¹åĪ©":14098,"çľĭåı°":14099,"å½Ĵåħ¥":14100,"éĴŁæ¥¼":14101,"çļĦåľ°ä¸ĭ":14102,"äºİ1993å¹´":14103,"Ġ1984å¹´":14104,"çªĹæĪ·":14105,"ç¯®çĲĥè¿ĲåĬ¨åĳĺ":14106,"å¼ĹæľĹä»Ģ":14107,"åĬłé¾Ļçľģ":14108,"éĺ¿åįľæĿľ":14109,"ru":14110,"ren":14111,"Ġä½ľåĵģ":14112,"çļĦéĥ¨éĺŁ":14113,"ä¸ŃæŃ¢":14114,"å¤§åľ°":14115,"åĪĨéļĶ":14116,"ç¾ļ":14117,"å¼ĢåĽ½":14118,"æīĢç¤º":14119,"çĲĥè¡£":14120,"éĤ¯":14121,"å±ŀåĲį":14122,"æ¼ĶæĬĢ":14123,"åĲĳåħ¬ä¼Ĺ":14124,"åıĹéĤĢ":14125,"å¹¿å¤§":14126,"åıĸæĻ¯":14127,"ä¸ĵçº¿":14128,"æİ¨ä¸¾":14129,"ä¼¯æĺİ":14130,"ä¾§éĿ¢":14131,"æĸ¹éĿ¢åĨĽ":14132,"èĪ¬çļĦ":14133,"æ²¿éĢĶ":14134,"æĵįä½ľç³»ç»Ł":14135,"éĢĨè½¬":14136,"æº¶äºİ":14137,"éŃģåĮĹ":14138,"ç¤¾äº¤åªĴä½ĵ":14139,"æĨ¾":14140,"1åħ¬éĩĮ":14141,"ner":14142,"æĺ¯èĩª":14143,"æĸ¯å¾·":14144,"æ³ķåŃ¦éĻ¢":14145,"å¸Ĥè®®ä¼ļ":14146,"æĦī":14147,"åħ¨åĬĽ":14148,"åİ¿åĲį":14149,"çº¦5":14150,"åįİè£Ķ":14151,"ç²Ł":14152,"ç¬¬äºĮåĲį":14153,"æĶ»ä¸ĭ":14154,"å±ĤéĿ¢":14155,"èŃ¦å¤ĩ":14156,"ital":14157,"ä¾Ŀæ¬¡":14158,"yĠof":14159,"è§Ĵèī²æī®æ¼Ķ":14160,"çıįå¦®":14161,"ä½įäºİè¯¥åĽ½ä¸ľåįĹéĥ¨":14162,"æ°ĶåĢĻåıĺåĮĸ":14163,"è®²è¿°äºĨ":14164,"æİ¢éĻ©éĺŁ":14165,"æĮīå¯Łä½¿":14166,"2ä¸ĩ":14167,"Jo":14168,"vi":14169,"«çĹ":14170,"æĺ¯çĶ¨":14171,"åĴĮåĽ½å®¶":14172,"å¹¶åĪĹ":14173,"åĨħå°Ķ":14174,"æķĻå®¤":14175,"è·¯æĸ¯":14176,"éĶ¤":14177,"å¼Ģå§ĭè¿Ľè¡Į":14178,"è½¬åıĺä¸º":14179,"å¡Ķåħĭ":14180,"èıĩ":14181,"å±Ĥæ¬¡":14182,"æĿĢäºĨ":14183,"ç®¡çĲĨå§Ķåĳĺä¼ļ":14184,"åĲİæĿ¥æĪĲä¸º":14185,"æ³½å°Ķ":14186,"æŀªåĩ»":14187,"äº¤éĢļéĥ¨":14188,"èģļåĲĪçī©":14189,"ç¼ºå°ĳ":14190,"éĺ´æĢ§":14191,"ç¨ĭåº¦çļĦ":14192,"åĽ½å®īæ³ķ":14193,";\"":14194,"çļĦçĶŁäº§":14195,"åħĢ":14196,"åľ¨æµ·":14197,"åľ¨åľº":14198,"åľ¨ä¸ĢäºĽ":14199,"ä¸ŃåįĹéĥ¨":14200,"å¯¹ä¸ŃåĽ½":14201,"æĻĥ":14202,"çī©ä»¶":14203,"ä¸ĸä¿Ĺ":14204,"å¤ĸä¾§":14205,"å·´æ¯Ķ":14206,"æĹłåĬĽ":14207,"åĵĪå¯Ĩ":14208,"å¡Ķæĸ¯":14209,"åŃĺæ´»":14210,"åĩºçİ°äºİ":14211,"ella":14212,"7æľĪ20æĹ¥":14213,"ä¸½çļĦ":14214,"èĥĮåıĽ":14215,"è´µçļĦ":14216,"æĬµå¾¡":14217,"èĳ¬ç¤¼":14218,"çŁ¥åĲįåº¦":14219,"çĭĻåĩ»":14220,"GN":14221,"Ġä¸ĸçķĮ":14222,"Ġ25":14223,"Ġè¿Ļç§į":14224,"çļĦè§Ħå®ļ":14225,"ä¸ľéĿ¢":14226,"éģĵåħ·":14227,"æ°´æŀľ":14228,"åĪĻæĺ¯åľ¨":14229,"åį¡è½¦":14230,"å¸¦åĽŀ":14231,"è§£åīĸ":14232,"åħŃåįģ":14233,"åįĥåı¶":14234,"æ¢ħåĪ©":14235,"æĻļä¼ļ":14236,"æ¦Ĥè¦ģ":14237,"å¹³åı°ä¸Ĭ":14238,"å±ķç¤ºäºĨ":14239,"åįĴäºİ":14240,"æİ¢æµĭåĻ¨":14241,"lic":14242,"ä¸Ńåħ´":14243,"äººåıĹä¼¤":14244,"è¡ĮæĢ§":14245,"çĶŁæ¯į":14246,"çĶŁæ®ĸ":14247,"å¹¶è®¤ä¸º":14248,"åħ±çĶ¨":14249,"é£ĺ":14250,"ç½ĹæĽ¼":14251,"åºĶä»ĺ":14252,"oneĠ":14253,"äº¦ç§°":14254,"ara":14255,"æł¹æį®åľ°":14256,"å±ŀçļĦåĬ¨çī©":14257,"ase":14258,"Inst":14259,"æłĸæģ¯äºİ":14260,"ç²¾ç¥ŀçĹħ":14261,"ç¯®æĿ¿":14262,"é©¬åħĭè¥¿":14263,"æĬķåħ¥æľįåĬ¡":14264,"å±Ĭåħ¨åĽ½äººå¤§ä»£è¡¨":14265,"çģĮæºī":14266,"å¥łåŁº":14267,"æ»¡æ´²åĽ½":14268,"éĩİçĶŁåĬ¨çī©":14269,"å°¼æĹ¥åĪ©äºļ":14270,")ãĢĭ":14271,"çļĦè½¦ç«Ļ":14272,"åľ¨2006å¹´":14273,"ä»¥èĩ´":14274,"æĹ¶æīĢ":14275,"ä¸ªåĽ½å®¶":14276,"åĬ¨çļĦ":14277,"ä»£ä»·":14278,"å¦¾":14279,"å¤©æ°´":14280,"æ¯ĶåĪ©äºļ":14281,"æ£µ":14282,"åį¡æĻ®":14283,"éĹ¨ç¥¨":14284,"only":14285,")ãĢģ(":14286,"é¢ĦçķĻ":14287,"ress":14288,"é¡ºä½į":14289,"åħ¼èģĮ":14290,"éģĩä¸Ĭ":14291,"çĴ§":14292,"åĤ¨å¤ĩ":14293,"è´«ç©·":14294,"éĻªåĲĮ":14295,"è¯ģåĪ¸äº¤æĺĵæīĢ":14296,"æ¤ŃåľĨ":14297,"CS":14298,"Hz":14299,"ioĠ":14300,"Ã³":14301,"ĠåĲİç»Ń":14302,"çļĦèĬĤçĽ®":14303,"çļĦè°ĥæŁ¥":14304,"çļĦè¯Ħä»·":14305,"çļĦæĿĳèĲ½":14306,"ä¸Ģåı°":14307,"æĺ¯å½ĵæĹ¶":14308,"åĴĮè°Ĳ":14309,"ä¼ļå¯¹":14310,"éķ¿è½´":14311,"å¤ļéĥ¨":14312,"æĸĩæ¡£":14313,"èĪµ":14314,"åı°åĲİ":14315,"è¡¨åĨ³":14316,"åŁİå·´":14317,"æĮĩåĲĳ":14318,"æ°Ķæ°Ľ":14319,"7æľĪ31æĹ¥":14320,"åºĨåħ¸":14321,"æ²¹çĶ»":14322,"æķ°éĩıçļĦ":14323,"ç¼ºçĤ¹":14324,"åĪļåĪļ":14325,"è¥¿åĮĹæİ¥":14326,"ç¨³å®ļæĢ§":14327,"æĬ½çŃ¾":14328,"éĽĩåĳĺ":14329,"è¥¿èĹıèĩªæ²»åĮº":14330,"ç¡«éħ¸":14331,"Ġstyle":14332,"orld":14333,"\"ãĢģ":14334,"ng":14335,"åįĹç«Ļ":14336,"åĮĹèĩ³":14337,"ä½Ĩè¯¥":14338,"æ²»æīĢåľ¨":14339,"åĲĦæĸ¹":14340,"çīĩå°¾":14341,"ç¼ĸä¸º":14342,"å¨ģåĬĽ":14343,"å½ķåıĸ":14344,"çĭ¬å®¶":14345,"è®©ä»ĸä»¬":14346,"ite":14347,"åĺīåħ´":14348,"æĢ»ç»Łåºľ":14349,"æ¦Ĥçİĩ":14350,"åĨĮå°ģ":14351,"èģĶåĲĪåĽ½æķĻç§ĳæĸĩ":14352,"éĢĢå½¹åĲİ":14353,"ä¸ºé¦ĸçļĦ":14354,"äºĮæ°§åĮĸç¢³":14355,"Ġå¸ĥ":14356,"ä¸Ģé¢Ĺ":14357,"ä¸Ģå®ļçļĦ":14358,"ä¸Ńå±Ĥ":14359,"åĴĮèĭ±åĽ½":14360,"åľ°çĭ±":14361,"å½ĵäºĭ":14362,"ç§°åħ¶ä¸º":14363,"æ¸¯åºľ":14364,"ç¦ıæĸ¯":14365,"ç¬¬äºĮä»£":14366,"æ±īåı£":14367,"çĶ°çº³è¥¿":14368,"çľŁçĲĨ":14369,"å¯Įè£ķ":14370,"åį´åľ¨":14371,"åĬ³ä¼¦æĸ¯":14372,"é©¬æĿ¥äºļ":14373,"Ġ186":14374,"ä»·åĢ¼çļĦ":14375,"ãĢģãĢģãĢģãĢģ":14376,"æŀ¢å¯Ĩ":14377,"çļĦéĩįè¦ģæĢ§":14378,"uck":14379,"åĽļç¦ģ":14380,"äºļé©¬éĢĬ":14381,"Ġç»ıè¿ĩ":14382,"çļĦåĪĹè½¦":14383,
[...]
