#version: 0.2
n g
a n
s h
z h
j i
a ng
Ġ Ġ
o ng
x i
a o
a i
d e
e i
sh i
y u
o u
y i
e n
c h
i an
u o
e ng
l i
ĠĠ Ġ
ã Ģ
i ng
u i
w ei
u an
zh i
q i
n ian
zh ong
y ou
r en
u n
z ai
d i
g uo
ãĢ ģ
h e
b u
e r
g ong
xi ng
ch eng
d a
zh u
h u
yu an
s i
ji an
yu e
g e
f u
xi an
u e
k e
w u
ch u
sh u
sh eng
ji e
ji a
b i
d ao
z i
b ei
h ui
f a
xi ang
t i
zh eng
m i
t a
ji n
q u
2 0
t ong
r i
j u
ji ng
m ing
l e
h ou
sh ang
sh ou
d ong
c i
f ang
1 9
hu a
yi n
x ue
g uan
zh an
y e
yi ng
z uo
zh e
y an
m ei
ji ao
g u
ch ang
xi n
d ui
l u
b ing
b ao
f en
d an
h uo
j un
ji ang
d u
xi ao
d ian
y ong
q ian
sh e
t ai
xi a
m u
w en
g ai
zh ang
li ang
y a
r u
d ai
h ai
n an
zh ou
z u
w ang
l ai
b an
ji u
d ang
q ing
p ing
sh en
ãĢ ĭ
ãĢ Ĭ
w an
l ian
li ng
l uo
Â ·
mi n
q uan
p i
n i
b o
d uo
t e
b en
g ao
bi ao
s uo
l a
m a
k ai
b a
xi e
x u
b ian
de ng
y ao
y ang
m ian
zh en
d ing
qi u
z ui
s ai
li u
f an
x uan
f ei
s an
sh an
ch e
z ong
m en
ãĢ Į
ãĢ į
t u
t ian
h ao
s u
l ei
n ei
yu n
20 1
l an
f eng
m o
n a
z e
l v
h an
k ou
w ai
n eng
li n
ch uan
ch i
j ue
b ai
p ai
20 0
k u
c ai
z ao
t ing
zh uan
g ang
li e
gu ang
g ui
l un
s ui
p u
c eng
k ong
sh ui
1 0
ch ao
zhu ang
ch a
d ou
c an
t ou
r an
s e
d uan
c un
h uan
c ong
pi n
c e
ch an
x un
g ou
0 0
n v
zh ao
g an
ch ong
sh a
t an
1 8
qi n
k a
m eng
qi ang
hu ang
xi u
1 2
ti ao
m an
sh ao
k uo
l ong
p ian
sh uo
t uan
t ang
r ong
g eng
20 2
ch en
t ui
g en
q ue
ti e
1 1
qi e
w o
p o
p ei
h ang
h ong
19 9
b ang
li ao
chu ang
bi e
r e
t uo
t ao
s ong
w a
m ai
h a
1 5
p an
d un
di ao
qi ao
s a
m ao
l ang
k an
k ang
â Ģ
o r
l ao
z eng
1 6
19 8
k ao
xi ong
1 7
o n
n uo
mi ao
r ang
ku ang
h en
s uan
1 4
3 0
zh un
1 3
19 4
c ao
h un
q un
n ong
19 7
h eng
shu ang
l ou
g ei
ku ai
pi ao
zh a
h ei
ni u
19 5
s en
bi n
r eng
z ou
19 6
ch un
k uan
2 5
âĢ Ķ
r ui
s un
p ao
n ing
f or
p a
c ang
m ou
2 4
p eng
hu ai
2 1
19 3
2 3
mu la
for mula
2 8
z an
r uo
i n
2 2
ch ou
zh ui
a r
m e
2 6
5 0
20 20
2 7
n ai
n u
ï ¼
2 9
sh un
201 0
z a
00 0
lv e
zh ai
20 19
n e
r o
j uan
s t
r a
c ui
k un
201 6
l uan
201 8
c uo
202 1
z ang
201 4
shu ai
201 1
201 5
201 7
201 2
4 0
201 3
n ao
202 2
di e
r uan
k ui
l t
r ou
c u
s ang
200 9
200 8
ã ĥ
6 0
ni ao
a l
r ao
ch ai
10 0
zh uo
202 3
g t
s ou
19 0
3 1
k en
200 7
200 1
t eng
p ang
f ou
c o
f o
gu a
200 0
8 0
200 6
202 4
ã ģ
200 5
z un
ti on
ku a
t he
3 5
7 0
ni e
l o
o f
9 0
l eng
ï¼ į
ã Ĥ
a m
t un
t er
mi e
200 4
t h
t o
4 5
4 8
m ang
202 5
v e
g a
ãĢ ī
ãĢ Ī
3 6
3 8
200 3
3 7
M a
ch ui
p en
l l
18 9
I N
200 2
k eng
T C
d o
3 4
7 5
âĢ ĵ
C o
4 6
c a
199 0
âĢ ¦
c k
3 9
. .
b e
6 5
3 2
S T
4 7
U TC
199 9
199 8
198 0
18 8
5 00
3 3
I n
6 4
s s
T he
v i
S E
5 5
199 7
R e
h i
4 9
I I
e l
6 8
e t
4 4
199 6
o o
qi ong
199 4
g un
b r
gu ai
199 2
199 5
M i
6 7
an d
s ao
e s
199 1
197 0
5 8
195 0
3 00
199 3
18 7
194 9
a t
A T
p e
196 0
4 2
194 5
L i
v er
qi a
198 8
t y
198 9
6 9
R o
i s
r un
SE E
ni ang
IN SEE
h o
5 9
4 3
6 6
5 7
198 5
9 9
S A
ãĢ İ
ãĢ ı
c t
198 4
4 1
8 8
198 6
w i
o l
w s
T V
r y
15 0
M e
n d
4 00
198 7
7 8
198 2
5 6
b eng
V i
P a
t s
198 3
am p
N A
D e
C D
g h
f i
w eng
b er
7 7
W in
p er
z uan
S ta
7 9
O S
W i
Â °
ï ½
de r
18 0
B C
5 4
197 9
6 1
19 20
a s
M o
s eng
9 8
5 2
Y ou
197 8
n o
6 2
5 3
l y
shu a
L a
ï½ ŀ
B A
194 6
C O
5 1
195 8
g i
J o
198 1
197 2
194 8
L e
t w
A M
6 3
A R
c tion
194 1
B S
G a
19 30
D a
P ro
T e
7 6
han s
194 0
193 7
197 6
194 4
J a
8 9
u s
D i
Win do
197 5
ï¼ ı
196 8
h k
c on
F i
u m
S i
10 00
Windo ws
9 5
8 7
na l
M ar
196 6
r d
8 5
N e
R a
k i
6 00
1 20
194 7
S e
A C
195 6
196 4
B e
194 2
Ã ©
195 5
195 2
I S
a d
193 9
193 8
7 2
u r
7 4
C a
v a
197 3
197 4
195 4
A r
A l
E D
19 00
- -
A P
194 3
T o
197 7
l d
197 1
c en
la y
196 7
B a
I C
8 00
P o
L o
E R
zhu a
s ta
8 6
195 9
B o
t t
196 5
J R
196 9
F a
ãĥ »
Ã Ĺ
I D
B i
s on
193 6
16 0
9 7
195 3
S a
M A
196 2
196 1
n en
N a
â Ķ
S o
193 5
co m
H o
ti c
9 6
O N
ï¼ ħ
195 1
S t
195 7
196 3
T u
âĶ Ģ
f e
s o
men t
8 4
H i
202 6
8 2
D o
m er
R i
7 3
n t
9 4
9 2
K i
H a
n ang
on e
I P
A N
l s
193 3
193 1
le s
7 1
n uan
Co m
8 3
9 3
te d
S u
8 1
T i
M u
19 18
N i
H D
U ni
19 28
p p
193 2
C ha
W e
y s
M V
S S
1 10
I T
19 12
N o
19 29
19 27
193 4
c n
7 00
g o
z ei
gh t
st er
25 0
9 1
r t
l li
19 24
ri s
.. .
19 19
nv e
1 30
P i
19 25
G i
P S
b y
e d
me s
A n
P C
14 0
A S
P lay
19 14
k m
D V
ti o
You Tu
S M
b le
g ra
k o
19 11
C on
C h
l la
19 26
l le
G e
P ar
i d
T a
19 22
L in
m p
19 17
H e
K a
E T
N BA
w n
I V
E N
19 23
19 21
sh ai
G oo
ch uo
17 0
à ¸
E C
M S
a li
A L
p h
se ction
YouTu be
E P
B L
19 13
C ar
B u
z en
H K
w e
h n
m m
v en
han t
â Ĩ
190 9
si on
In ter
c ro
M P
A I
W or
P e
d s
U S
p ro
DV D
o k
3 000
E n
19 10
D S
R O
c ou
S te
si s
1 12
G o
r k
A K
R E
19 16
W a
li a
ãĥ ¼
Sta tion
F or
N et
f f
Î ±
of t
in e
de n
l or
re a
tio nal
g n
tu re
g le
C P
U N
â Ī
ar d
19 15
g in
190 5
p s
F C
c al
v o
di a
M y
C N
â Ħ
âĨ Ĵ
ou r
shi Ġ
de Ġ
Ġ shiĠ
Ġ deĠ
yi Ġ
Ġ yiĠ
ji Ġ
wei Ġ
zhi Ġ
yu Ġ
Ġ weiĠ
Ġ jiĠ
Ġ nian
Ġ zhiĠ
Ġ yuĠ
Ġ li
Ġnian Ġ
zhong Ġ
Ġli Ġ
zai Ġ
ren Ġ
you Ġ
guo Ġ
he Ġ
qi Ġ
bu Ġ
di Ġ
Ġ youĠ
Ġ zaiĠ
Ġ renĠ
Ġ yue
Ġ zhongĠ
Ġ heĠ
da Ġ
xi Ġ
xing Ġ
yuan Ġ
er Ġ
gong Ġ
Ġyue Ġ
fu Ġ
si Ġ
ge Ġ
jian Ġ
Ġ guoĠ
wu Ġ
jia Ġ
Ġ buĠ
jie Ġ
ke Ġ
cheng Ġ
zhu Ġ
sheng Ġ
xiang Ġ
xian Ġ
dao Ġ
bei Ġ
zi Ġ
Ġ qiĠ
fa Ġ
hui Ġ
chu Ġ
jin Ġ
Ġ diĠ
shu Ġ
Ġ erĠ
ri Ġ
Ġ xiĠ
ju Ġ
qu Ġ
zheng Ġ
hou Ġ
shou Ġ
ming Ġ
shang Ġ
dong Ġ
le Ġ
ta Ġ
jing Ġ
xue Ġ
fang Ġ
yan Ġ
zhan Ġ
ci Ġ
bao Ġ
hua Ġ
ying Ġ
ye Ġ
tong Ġ
zuo Ġ
zhe Ġ
guan Ġ
Ġ daĠ
Ġ riĠ
yin Ġ
chang Ġ
xin Ġ
jiao Ġ
lu Ġ
dui Ġ
wen Ġ
ti Ġ
fen Ġ
qian Ġ
tai Ġ
jiang Ġ
xiao Ġ
bing Ġ
Ġ siĠ
jun Ġ
dian Ġ
zhang Ġ
ping Ġ
xia Ġ
du Ġ
huo Ġ
yong Ġ
dan Ġ
Ġ keĠ
Ġ jiaĠ
hai Ġ
gai Ġ
wang Ġ
dai Ġ
nan Ġ
ru Ġ
qing Ġ
mu Ġ
bi Ġ
ban Ġ
liang Ġ
lai Ġ
mei Ġ
ya Ġ
shen Ġ
Ġ fuĠ
Ġ xingĠ
zu Ġ
wan Ġ
she Ġ
lian Ġ
min Ġ
mi Ġ
zhou Ġ
an Ġ
jiu Ġ
qiu Ġ
zhen Ġ
ben Ġ
xu Ġ
gao Ġ
Ġ taĠ
bo Ġ
xie Ġ
te Ġ
bian Ġ
ling Ġ
luo Ġ
yao Ġ
deng Ġ
duo Ġ
yang Ġ
quan Ġ
che Ġ
suo Ġ
zui Ġ
tian Ġ
gu Ġ
biao Ġ
fan Ġ
hu Ġ
yun Ġ
xuan Ġ
su Ġ
shan Ġ
fei Ġ
ding Ġ
liu Ġ
zong Ġ
sai Ġ
dang Ġ
ma Ġ
kai Ġ
ba Ġ
hao Ġ
ĠdeĠ yiĠ
Ġ bingĠ
Ġ daoĠ
feng Ġ
kou Ġ
tu Ġ
mian Ġ
men Ġ
nei Ġ
la Ġ
lei Ġ
san Ġ
cai Ġ
wai Ġ
chuan Ġ
jue Ġ
pai Ġ
chi Ġ
Ġ danĠ
Ġ jinĠ
Ġ beiĠ
Ġ gongĠ
Ġ jianĠ
guang Ġ
ĠshiĠ yiĠ
lan Ġ
ni Ġ
gui Ġ
bai Ġ
Ġ ziĠ
lin Ġ
ting Ġ
Ġ zheĠ
pu Ġ
Ġ xiangĠ
na Ġ
gang Ġ
lun Ġ
neng Ġ
han Ġ
lie Ġ
ze Ġ
Ġ zhuĠ
cheng ĠweiĠ
mo Ġ
Ġ yinĠ
Ġ geĠ
Ġ xianĠ
Ġ chuĠ
ĠshiĠ deĠ
mei ĠguoĠ
chan Ġ
shui Ġ
Ġ juĠ
Ġ chengĠ
ĠdeĠ shiĠ
Ġ jieĠ
Ġ gaiĠ
Ġ wuĠ
sui Ġ
xun Ġ
zhuan Ġ
Ġ baoĠ
Ġ pingĠ
lv Ġ
Ġ ta
ao Ġ
zhuang Ġ
li Ġ
tou Ġ
duan Ġ
ĠyiĠ jiĠ
e Ġ
se Ġ
huan Ġ
chong Ġ
ĠweiĠ yuĠ
1 Ġ
ceng Ġ
pin Ġ
a Ġ
cong Ġ
cha Ġ
di ĠyiĠ
cun Ġ
dou Ġ
zao Ġ
Ġ houĠ
kong Ġ
zhao Ġ
gou Ġ
gan Ġ
sha Ġ
Ġ ciĠ
qiang Ġ
ce Ġ
ĠshiĠ jiĠ
chao Ġ
2 Ġ
meng Ġ
kai ĠshiĠ
Ġ yeĠ
man Ġ
tang Ġ
long Ġ
ai Ġ
Ġ dan
kuo Ġ
ke ĠyiĠ
Ġ faĠ
Ġ yuanĠ
ĠyiĠ geĠ
tan Ġ
tuan Ġ
Ġ shengĠ
ĠshiĠ weiĠ
ka Ġ
gong ĠliĠ
ĠzhongĠ guoĠ
qin Ġ
Ġ tong
tie Ġ
ĠshiĠ shiĠ
Ġ bing
zhengĠ fuĠ
Ġ mingĠ
shao Ġ
can Ġ
pian Ġ
Ġ you
huo ĠdeĠ
mian ĠjiĠ
hang Ġ
hong Ġ
geng Ġ
Ġ huoĠ
ji ĠdeĠ
ĠshiĠ yongĠ
tiao Ġ
xiu Ġ
chen Ġ
shuo Ġ
pi Ġ
Ġ dongĠ
ren ĠweiĠ
ĠshiĠ jianĠ
tao Ġ
zhi ĠyiĠ
ran Ġ
zhong ĠdeĠ
zheng ĠzhiĠ
huang Ġ
ĠyiĠ zhiĠ
ĠshiĠ jieĠ
zhongĠ guoĠ
Ġ ri
yue Ġ
chuang Ġ
nv Ġ
qu ĠdeĠ
guo ĠjiĠ
3 Ġ
yi ĠshiĠ
ĠpingĠ fangĠ
wo Ġ
renĠ kouĠ
xing ĠdeĠ
po Ġ
ou Ġ
jinĠ xingĠ
rong Ġ
Ġ shouĠ
liao Ġ
tuo Ġ
diao Ġ
mei ĠyouĠ
song Ġ
Ġ suiĠ
Ġli ĠdeĠ
nian Ġ
Ġli ĠshiĠ
Ġ dang
ĠweiĠ yuanĠ
pei Ġ
Ġ miĠ
pan Ġ
ĠqiĠ zhongĠ
Ġ haoĠ
Ġ fenĠ
zuo ĠweiĠ
gongĠ siĠ
fa ĠguoĠ
biao ĠshiĠ
Ġ wanĠ
ĠĠĠ zaiĠ
yanĠ jiuĠ
Ġ er
zheng ĠshiĠ
Ġ haiĠ
Ġ yin
Ġ shangĠ
ĠdeĠ jiĠ
tui Ġ
que Ġ
Ġ zhe
dian ĠshiĠ
yunĠ dongĠ
Ġ xinĠ
qie Ġ
bang Ġ
Ġ meiĠ
ĠdeĠ diĠ
Ġ taiĠ
cheng ĠshiĠ
zhi ĠshiĠ
Ġ jiangĠ
Ġ jingĠ
Ġ shuĠ
jian ĠdeĠ
ta ĠdeĠ
gong ĠheĠ
shu ĠyuĠ
she ĠjiĠ
Ġ qianĠ
lang Ġ
ĠrenĠ minĠ
dun Ġ
ĠrenĠ kouĠ
zhi ĠdeĠ
qiao Ġ
10 ĠyueĠ
12 ĠyueĠ
ĠdeĠ zhiĠ
jing ĠjiĠ
Ġ yingĠ
7 ĠyueĠ
dianĠ yingĠ
Ġ xiaĠ
Ġ nanĠ
zu ĠzhiĠ
9 ĠyueĠ
Ġ muĠ
Ġ zhangĠ
8 ĠyueĠ
zhu ĠyiĠ
3 ĠyueĠ
Ġ zuiĠ
1 ĠyueĠ
mao Ġ
ĠshiĠ qiĠ
daiĠ biaoĠ
wa Ġ
riĠ benĠ
ying ĠguoĠ
5 Ġ
5 ĠyueĠ
you ĠyiĠ
ji ĠshiĠ
kao Ġ
6 ĠyueĠ
4 Ġ
guo ĠdeĠ
kan Ġ
4 ĠyueĠ
re Ġ
Ġ huiĠ
ĠshiĠ zhenĠ
hen Ġ
mai Ġ
xian ĠdeĠ
wei ĠyiĠ
11 ĠyueĠ
cheĠ zhanĠ
jiao ĠyuĠ
Ġ tongĠ
gen ĠjuĠ
buĠ fenĠ
yi ĠdeĠ
daĠ xueĠ
yu ĠshiĠ
Ġ biĠ
xiangĠ gangĠ
ming ĠweiĠ
xueĠ yuanĠ
ĠdeĠ guoĠ
ĠyiĠ yuanĠ
li ĠshiĠ
ĠdeĠyiĠ geĠ
ĠzhiĠ houĠ
Ġ ruĠ
gen Ġ
dan ĠrenĠ
ĠnianĠ 1ĠyueĠ
Ġ dengĠ
can ĠjiaĠ
ĠyiĠ weiĠ
cao Ġ
kang Ġ
sheĠ huiĠ
Ġ tiĠ
xian ĠshiĠ
ĠdiĠ quĠ
Ġ qingĠ
sa Ġ
yingĠ xiangĠ
taiĠ wanĠ
shu ĠdeĠ
Ġ ran
bie Ġ
Ġyou ĠyuĠ
shang ĠdeĠ
xing ĠshiĠ
ye ĠshiĠ
qi ĠshiĠ
ĠyinĠ ciĠ
formula Ġ
Ġ yanĠ
guan ĠliĠ
lao Ġ
zeng Ġ
gongĠ zuoĠ
tong ĠguoĠ
Ġ xueĠ
le ĠyiĠ
ĠnianĠ 12ĠyueĠ
Ġ xiaoĠ
Ġ lingĠ
xingĠ zhengĠ
bu ĠdeĠ
gongĠheĠ guoĠ
6 Ġ
wei ĠshiĠ
ĠliĠ yaĠ
Ġnian ĠdeĠ
er ĠshiĠ
ren ĠdeĠ
zhun Ġ
zi ĠjiĠ
da ĠdeĠ
2 ĠyueĠ
xiong Ġ
s Ġ
ĠguoĠ jiaĠ
zui ĠzhongĠ
ĠnianĠ 3ĠyueĠ
hui ĠyiĠ
kuang Ġ
ĠĠĠ shengĠ
nong Ġ
cheng ĠliĠ
Ġ liangĠ
ĠpingĠfangĠ gongĠliĠ
luo ĠsiĠ
ku Ġ
ĠnianĠ 7ĠyueĠ
Ġ jiaoĠ
ĠnianĠ 10ĠyueĠ
faĠ xianĠ
chu ĠdeĠ
miao Ġ
ha Ġ
Ġ wangĠ
Ġ zhanĠ
qi ĠdeĠ
ĠbaoĠ kuoĠ
faĠ zhanĠ
ĠnianĠ 9ĠyueĠ
hei Ġ
yuan ĠdeĠ
ĠshiĠ youĠ
ĠshiĠ zhiĠ
qiĠ taĠ
ĠnianĠ 5ĠyueĠ
ĠqiĠ jianĠ
piao Ġ
Ġ tianĠ
suo ĠyouĠ
kuai Ġ
si ĠdeĠ
Ġ boĠ
ĠnianĠ 4ĠyueĠ
ĠnianĠ 6ĠyueĠ
ĠnianĠ 8ĠyueĠ
you ĠyuĠ
Ġ luoĠ
tieĠ luĠ
ĠdaĠ xueĠ
quan ĠguoĠ
ĠshiĠ zaiĠ
dao ĠzhiĠ
dao ĠdeĠ
tong ĠdeĠ
zhuĠ yaoĠ
cheng ĠdeĠ
can ĠyuĠ
lou Ġ
nuo Ġ
shuang Ġ
wenĠ huaĠ
Ġ zhengĠ
s ĠĠĠ
Ġ maĠ
Ġ huaĠ
di ĠliĠ
ĠtaĠ menĠ
Ġ duiĠ
zhong ĠyiĠ
lian ĠheĠ
Ġ luĠ
di ĠdeĠ
ĠzhiĠ daoĠ
Ġ dangĠ
Ġ guĠ
ĠnianĠ 11ĠyueĠ
Ġtong ĠshiĠ
Ġ shenĠ
baoĠ kuoĠ
bu ĠshiĠ
ĠzhongĠ xinĠ
yin ĠyueĠ
ĠĠĠ shiĠ
bei ĠbuĠ
Ġ jiuĠ
shu ĠjiĠ
yong ĠyuĠ
sen Ġ
ĠĠĠ yiĠ
tiĠ gongĠ
Ġ quanĠ
zai ĠyiĠ
xuan ĠbuĠ
Ġ zongĠ
guoĠ jiaĠ
ĠweiĠyuanĠ huiĠ
zuĠ qiuĠ
wenĠ tiĠ
Ġ sui
kuan Ġ
Ġnian ĠzhiĠ
Ġ zuoĠ
xueĠ xiaoĠ
Ġyin ĠweiĠ
sheng ĠyuĠ
ĠshiĠ wuĠ
jian ĠyuĠ
zi ĠyouĠ
en Ġ
qianĠ miĠ
gong ĠyouĠ
guan ĠxiĠ
fang ĠshiĠ
ĠweiĠ zhiĠ
ĠshiĠ zhongĠ
hun Ġ
ĠnianĠ 2ĠyueĠ
ĠĠĠ S
Ġ xuĠ
biĠ saiĠ
hua ĠrenĠminĠ
ying ĠdeĠ
chengĠ yuanĠ
rang Ġ
jianĠ zhuĠ
huoĠ dongĠ
Ġ C
jian ĠliĠ
Ġ gai
heng Ġ
suan Ġ
yu ĠyiĠ
ĠĠĠ liĠshiĠ
ji ĠyiĠ
fen ĠweiĠ
ĠdeĠ renĠ
zuoĠ pinĠ
she ĠyouĠ
ren ĠshiĠ
tong ĠshiĠ
guanĠ junĠ
Ġ dianĠ
Ġ changĠ
Ġ benĠ
da ĠliĠ
ge ĠrenĠ
ĠĠĠshengĠ pingĠ
Ġ chengĠweiĠ
zhuan ĠjiĠ
Ġ anĠ
Ġ jie
yu ĠdeĠ
Ġ xian
ĠdiĠ erĠ
beiĠ jingĠ
ĠjiĠ huaĠ
ĠyouĠ xiĠ
jiu ĠshiĠ
xiao ĠshiĠ
Ġ liuĠ
huaĠrenĠminĠ gongĠheĠguoĠ
yin ĠweiĠ
Ġta ĠdeĠ
gei Ġ
men ĠdeĠ
Ġli ĠyuĠ
qun Ġ
ĠnianĠ daiĠ
dui ĠyuĠ
Ġ baĠ
xi ĠdeĠ
ming ĠdeĠ
Ġ aĠ
jun ĠshiĠ
di ĠshiĠ
tong ĠyiĠ
Ġ congĠ
diĠ erĠ
xin ĠdeĠ
xueĠ jiaĠ
qu ĠyuĠ
ĠbuĠ fenĠ
Ġ A
eĠ luoĠsiĠ
zou Ġ
taĠ menĠ
chun Ġ
er ĠdeĠ
Ġ duoĠ
wei ĠdeĠ
shouĠ daoĠ
min ĠguoĠ
hou ĠdeĠ
sheng ĠdeĠ
lai ĠdeĠ
fangĠ mianĠ
faĠ shengĠ
zhengĠ fu
gong ĠjiĠ
dan ĠweiĠ
xing ĠweiĠ
ĠshiĠ renĠ
ĠyiĠ jingĠ
Ġ fengĠ
yong ĠyouĠ
Ġ huĠ
Ġ fanĠ
Ġ 18
zhong ĠshiĠ
jin ĠshiĠ
ĠxiĠ tongĠ
jueĠ dingĠ
bu ĠyuĠ
Ġ S
Ġ lianĠ
ĠzhongĠ yangĠ
ju ĠyouĠ
Ġ mianĠjiĠ
1 ĠriĠ
Ġ quĠ
tong ĠzhiĠ
diĠ quĠ
niĠ yaĠ
liangĠ geĠ
faĠ xingĠ
7 Ġ
qu ĠweiĠ
ĠriĠ benĠ
Ġ guanĠ
Ġ feiĠ
Ġ gaoĠ
you ĠdeĠ
chuĠ xianĠ
sheng ĠjiĠ
Ġ wenĠ
Ġ teĠ
zh Ġ
hua ĠdeĠ
ĠrenĠkouĠ miĠ
ci ĠshiĠ
Ġ 15
qi ĠyuĠ
zi ĠzhiĠ
wu ĠdeĠ
Ġ suoĠ
juĠ xingĠ
laiĠ ziĠ
Ġta ĠzaiĠ
ling ĠyiĠ
jia ĠdeĠ
ĠjiĠ yuĠ
xian ĠzhiĠ
ĠweiĠ jiĠ
mianĠjiĠ weiĠ
Ġ suo
hui ĠdeĠ
Ġ suĠ
baoĠ huĠ
Ġ sanĠ
nan ĠbuĠ
du ĠliĠ
ĠpingĠfangĠ qianĠmiĠ
shuĠ juĠ
kong ĠzhiĠ
ĠshiĠ yuĠ
zongĠ tongĠ
jinĠ ruĠ
ĠshiĠweiĠ yuĠ
ĠliĠ ruĠ
renĠ wuĠ
qu ĠshiĠ
ke ĠliĠ
yaoĠ qiuĠ
mou Ġ
Ġ 0
Ġ woĠ
ĠĠĠ A
8 Ġ
ĠĠĠ deĠ
Ġ meiĠguoĠ
gt Ġ
Ġ gtĠ
gu ĠshiĠ
cheng ĠjiĠ
Ġran ĠerĠ
Ġ guangĠ
lt Ġ
Ġ ru
xueĠ shengĠ
ĠĠĠ yuĠ
jin ĠdeĠ
Ġ bianĠ
Ġdan ĠshiĠ
wanĠ chengĠ
minĠ zhuĠ
gong ĠshiĠ
ĠyiĠ qiĠ
lieĠ cheĠ
ĠĠĠ C
you ĠjiĠ
Ġ caiĠ
keĠ nengĠ
Ġ ltĠ
ĠyiĠ buĠ
Ġ 16
shen ĠzhiĠ
Ġbing ĠyuĠ
zha Ġ
ren ĠzhiĠ
pingĠ fangĠ
you ĠshiĠ
Ġbing ĠzaiĠ
ĠjiĠ shuĠ
chao ĠguoĠ
Ġ yongĠ
ti ĠyuĠ
yuan ĠshiĠ
cang Ġ
Ġ a
cun ĠzaiĠ
qianĠ wangĠ
ke ĠdeĠ
ya ĠliĠ
dang ĠshiĠ
si ĠshiĠ
xue ĠxiĠ
yong ĠdeĠ
ĠdeĠyiĠ ge
jing ĠguoĠ
nei ĠdeĠ
fa ĠbuĠ
Ġ wan
Ġ ceng
Ġ shanĠ
zuo ĠdeĠ
ĠzhiĠ weiĠ
jian ĠyiĠ
guan ĠyuĠ
Ġ hanĠ
Ġ kaiĠ
ĠĠĠ diĠ
wuĠ keĠ
wu ĠshiĠ
xiangĠ gang
zhu ĠrenĠ
ĠzhiĠ jianĠ
Ġ gongĠliĠ
yinĠ duĠ
Ġ puĠ
zhan ĠshiĠ
zhanĠ zhengĠ
ĠqiĠ taĠ
guo ĠshiĠ
sun Ġ
pao Ġ
Ġ ba
zhuĠ yao
shengĠ huoĠ
zhou ĠdeĠ
xuĠ duoĠ
jian ĠzhiĠ
ĠjiĠ weiĠ
fan ĠweiĠ
ĠyiĠ shuĠ
bin Ġ
ĠjiĠ qiĠ
ĠweiĠ erĠ
chengĠ gongĠ
han ĠguoĠ
ouĠ zhouĠ
zhuĠ xiĠ
lu ĠdeĠ
jieĠ shouĠ
qiuĠ duiĠ
ĠzhiĠ youĠ
Ġ shuĠyuĠ
daiĠ biao
Ġ zai
ĠjiĠ zhongĠ
fuĠ wuĠ
Ġ jin
zeng ĠjiaĠ
ĠbuĠ guoĠ
ban ĠdeĠ
gongĠ yuanĠ
ĠyouĠ xianĠ
Ġ 000
xiaoĠ xingĠ
Ġ moĠ
xia ĠdeĠ
ĠĠĠ gaiĠ
ĠzheĠ xieĠ
shangĠ haiĠ
ĠzhiĠ chuĠ
he ĠyiĠ
duo ĠdeĠ
Ġ aoĠ
hou ĠyiĠ
san ĠshiĠ
ĠĠĠ zhiĠ
Ġ baiĠ
ĠciĠ waiĠ
fu ĠdeĠ
ju ĠliĠ
ning Ġ
si ĠjiĠ
huai Ġ
zuĠ chengĠ
t Ġ
Ġ genĠjuĠ
yunĠdongĠ yuanĠ
jiaoĠ tongĠ
ĠzhiĠ zuoĠ
ĠzhiĠ chiĠ
ma ĠweiĠ
gaoĠ duĠ
Ġ B
chang ĠdeĠ
t ĠĠĠ
ĠnianĠ qiĠ
zhuĠ jiaoĠ
Ġ zhĠ
Ġ 17
zheĠ xieĠ
niu Ġ
ge ĠzhongĠ
xuĠ yaoĠ
ĠzhiĠ wuĠ
ĠzaiĠ ciĠ
jueĠ seĠ
chongĠ xinĠ
chuĠ leĠ
ti ĠdeĠ
tui ĠchuĠ
Ġ cengĠ
Ġli ĠjiĠ
zheĠ geĠ
jing ĠliĠ
xiang ĠdeĠ
Ġ zuiĠzhongĠ
gongĠ chengĠ
Ġdang ĠshiĠ
qi ĠyiĠ
da ĠshiĠ
chu ĠyuĠ
ĠrenĠ heĠ
wu ĠzhongĠ
du ĠweiĠ
renĠ minĠ
zi ĠdeĠ
Ġ ai
Ġ sheĠ
xuanĠ juĠ
lianĠ saiĠ
ĠĠĠ diĠliĠ
ziĠ jiĠdeĠ
y Ġ
Ġ ye
ĠweiĠ leĠ
ĠrenĠ wuĠ
geĠ quĠ
Ġ duĠ
Ġ huo
kaiĠ faĠ
ĠnianĠ jianĠ
dang ĠdiĠ
Ġ ma
fuĠ zeĠ
ĠĠĠ weiĠ
xian ĠzaiĠ
ĠweiĠ qiĠ
gongĠ chanĠ
Ġ laiĠ
ĠzhiĠ yuĠ
ĠrenĠ yuanĠ
zhe ĠyiĠ
liang ĠweiĠ
jieĠ shuĠ
ya ĠdeĠ
chu ĠliĠ
jieĠ muĠ
guan ĠdeĠ
nv ĠziĠ
sai ĠshiĠ
Ġ leiĠ
2010 ĠnianĠ
Ġ E
ding ĠdeĠ
rui Ġ
dui ĠdeĠ
riĠ ben
fanĠ yingĠ
ĠhouĠ laiĠ
chuĠ banĠ
jie ĠdeĠ
chanĠ shengĠ
shouĠ ciĠ
Ġ banĠ
juan Ġ
she ĠshiĠ
lei ĠsiĠ
ĠshiĠyiĠ geĠ
dongĠ wuĠ
ba ĠshiĠ
Ġ yangĠ
jing ĠshiĠ
ĠjiĠ xuĠ
le ĠbuĠ
Ġ naĠ
jie ĠshiĠ
xiang ĠshiĠ
bo ĠshiĠ
an ĠdeĠ
ruo Ġ
keĠ neng
nanĠ ziĠ
d ĠĠĠ
y ĠĠĠ
du ĠdeĠ
guanĠ xiaĠ
Ġ daiĠ
Ġ D
san ĠnianĠ
zao ĠchengĠ
Ġ aiĠ
Ġ jiang
hai ĠshiĠ
yang ĠdeĠ
Ġ mei
dong ĠshiĠ
she ĠliĠ
Ġ 1Ġ
yanĠ jiu
Ġ 10
zhong ĠzhiĠ
daoĠ leĠ
shan ĠxiĠ
Ġ P
guo ĠyiĠ
Ġ zhenĠ
ĠjiĠ zhiĠ
Ġsuo ĠyiĠ
Ġ yaĠ
zhong ĠyuĠ
fen ĠbuĠ
nv ĠxingĠ
ĠheĠ zuoĠ
dou ĠshiĠ
jun ĠdeĠ
guo ĠyuĠ
9 Ġ
ĠĠĠ qiĠ
dong ĠdeĠ
lianĠ mengĠ
dai ĠdeĠ
zheng ĠdeĠ
fangĠ faĠ
ĠzhiĠ zhiĠ
Ġ ãĥ
2020 ĠnianĠ
ĠyiĠ siĠ
jiaoĠ shouĠ
wu ĠliĠ
xiangĠ muĠ
caiĠ yongĠ
fang ĠdeĠ
meiĠ pingĠfangĠ
zhengĠzhiĠ renĠwuĠ
di ĠweiĠ
liang ĠdeĠ
Ġ cong
Ġ tuĠ
ĠzaiĠ diĠ
ĠĠĠ renĠkouĠ
Ġ T
A Ġ
chuanĠ tongĠ
yuan ĠyuĠ
zhan ĠdeĠ
zhu ĠdeĠ
Ġ xuanĠ
Ġ ãĤ
ĠĠĠ youĠ
huaĠ minĠguoĠ
Ġ M
xiĠ tongĠ
cheng ĠrenĠ
Ġri ĠzaiĠ
Ġ ãģ
jiaĠ ruĠ
fa ĠdeĠ
ge ĠshiĠ
2001 ĠnianĠ
Ġ guiĠ
Ġ zeĠ
Ġnian ĠyiĠ
xinĠ wenĠ
yanĠ yuanĠ
Ġ ranĠ
hao ĠdeĠ
ĠliĠ siĠ
ĠjiĠ jiĠ
fu ĠshiĠ
ĠĠĠ jiĠ
Ġ bei
ĠyiĠ huiĠ
xiangĠ guanĠ
ying ĠyuĠ
dao ĠshiĠ
bianĠ maĠweiĠ
taiĠ wan
he ĠshiĠ
ĠjiĠ luĠ
boĠ wuĠ
xue ĠdeĠ
hou ĠzaiĠ
ĠweiĠ fuĠ
lianĠ jieĠ
ĠtaĠ men
ĠdeĠyiĠge ĠshiĠzhenĠ
baoĠ kuo
ĠyiĠ yiĠ
ĠxueĠ mingĠ
xi ĠjiĠ
zui ĠjiaĠ
mingĠ chengĠ
tiĠ chuĠ
ĠxiĠ yaĠ
mu ĠsiĠ
ling ĠshiĠ
Ġzhe ĠshiĠ
er ĠnianĠ
xiao ĠdeĠ
hai ĠyouĠ
Ġ 14
mian ĠdeĠ
ĠweiĠ zhuĠ
ĠrenĠkouĠmiĠ duĠ
Ġ xieĠ
ge ĠdeĠ
Ġli ĠyiĠ
ĠzhiĠ jieĠ
zuiĠ gaoĠ
Ġ laĠ
Ġ zong
dong ĠjiĠ
ĠĠĠ jiaĠ
ĠshiĠyiĠ zhongĠ
Ġ yeĠshiĠ
m Ġ
Ġ zhouĠ
d Ġ
yan ĠdeĠ
xia ĠjiĠ
Ġ yuĠshiĠ
geĠ mingĠ
ye ĠyuĠ
Ġ ci
ĠgongĠ siĠ
ĠnianĠ zaiĠ
yao ĠdeĠ
gai ĠweiĠ
ĠyiĠ xieĠ
zai ĠdeĠ
haiĠ junĠ
shu ĠshiĠ
Ġ fangĠ
jia ĠzhiĠ
Ġ Ð
Ġ junĠ
Ġ qiuĠ
zhe ĠzhongĠ
shengĠ wuĠ
Ġ kaĠ
chang ĠshiĠ
hui ĠshiĠ
yan ĠzhongĠ
gai ĠguoĠ
na ĠdaĠ
Ġ 1
zhu ĠshiĠ
Ġ liang
ĠĠĠ B
zheng ĠyiĠ
bian ĠdeĠ
Ġ 2
qingĠ kuang
zhai Ġ
ke ĠjiĠ
huiĠ fuĠ
ĠzhiĠ qianĠ
meiĠ tiĠ
zai ĠyuĠ
xin ĠxiĠ
luan Ġ
jie ĠguoĠ
Ġ zuoĠweiĠ
ĠyiĠ zhongĠ
gao ĠdeĠ
wenĠ wuĠ
jian ĠshiĠ
qi ĠzhiĠ
ĠjiĠ zaiĠ
minĠ zuĠ
yanĠ changĠ
shui ĠyuĠ
qian ĠdeĠ
he ĠdeĠ
Ġ 2Ġ
Ġ H
Ġ niĠ
zhuĠ jianĠ
chou Ġ
fanĠ duiĠ
ĠĠĠ P
neng ĠliĠ
ĠweiĠ youĠ
ĠkeĠ siĠ
Ġ 12
ĠĠĠ xingĠzhengĠ
gongĠ kaiĠ
ge ĠliĠ
Ġ 3
hua ĠshiĠ
ĠbuĠ tongĠ
xing ĠzhiĠ
si ĠyuĠ
Ġ mi
lei ĠdeĠ
Ġ keĠyiĠ
ĠzhuĠ yaoĠ
bei ĠshiĠ
Ġ chongĠ
huanĠ jingĠ
jieĠ gouĠ
jiangĠ junĠ
zhang ĠdeĠ
xian ĠyuĠ
ĠxiangĠ gangĠ
gaoĠ suĠ
chuangĠ zuoĠ
shangĠ yeĠ
peng Ġ
ĠĠĠ benĠ
zan Ġ
ĠĠĠ formulaĠ
ĠzheĠ geĠ
sai ĠjiĠ
mo ĠshiĠ
a ĠerĠ
zhe ĠdeĠ
biaoĠ xianĠ
Ġ diĠyiĠ
tong ĠjiĠ
ĠzhongĠ huaĠrenĠminĠgongĠheĠguoĠ
Ġ hongĠ
junĠ duiĠ
Ġ ling
Ġli ĠweiĠ
daĠ luĠ
Ġ chenĠ
Ġ F
shengĠ yaĠ
zhu ĠliĠ
ge ĠyueĠ
sheng ĠliĠ
quan ĠliĠ
wuĠ faĠ
zongĠ jiaoĠ
Ġ tangĠ
dong ĠbuĠ
zhou ĠshiĠ
geĠ lanĠ
Ġ yunĠ
Ġnian ĠshiĠ
diaoĠ chaĠ
si ĠnianĠ
tou ĠguoĠ
ĠyiĠ banĠ
buĠ fen
biaoĠ zhunĠ
ĠĠĠ genĠjuĠ
hangĠ kongĠ
biĠ yeĠ
hui ĠzaiĠ
ĠĠĠ ciĠ
shenĠ fenĠ
ĠyiĠ ciĠ
Ġdang ĠdiĠ
di ĠzhiĠ
gongĠ luĠ
Ġ yaoĠ
faĠ yuanĠ
Ġ neiĠ
ĠdeĠyiĠ buĠfenĠ
bu ĠyiĠ
di ĠyuĠ
jia ĠliĠ
gongĠ zuo
jin ĠjiĠ
cheng ĠzhongĠ
bing ĠbuĠ
sai ĠdeĠ
ĠtaiĠ wanĠ
quan ĠbuĠ
baĠ gaoĠduĠ
Ġ G
ĠjiĠ tuanĠ
xieĠ huiĠ
feiĠ changĠ
jiao ĠshiĠ
anĠ quanĠ
dongĠ huaĠ
ĠzhiĠ xingĠ
bi ĠdeĠ
Ġ huangĠ
cha ĠdeĠ
ĠbingĠ qie
Ġ ming
Ġ linĠ
shengĠ chanĠ
ziĠ liaoĠ
fu ĠheĠ
jing ĠdeĠ
tuanĠ tiĠ
Ġ 4
jie ĠzhiĠ
luoĠ maĠ
bei ĠrenĠ
ĠĠĠ T
chao ĠxianĠ
gai ĠdiĠ
fenĠ bie
ding ĠyiĠ
xingĠ dongĠ
xia ĠyiĠ
jinĠ biaoĠ
pingĠ junĠ
Ġ liu
wenĠ xueĠ
ĠjinĠ xingĠ
qingĠ kuangĠ
Ġ zhuanĠ
du ĠshiĠ
Ġ 5
renĠkouĠ puĠ
Ġru ĠguoĠ
la ĠsiĠ
jia ĠjiĠ
gongĠ gongĠ
jieĠ fangĠ
ĠzhiĠ yuanĠ
juĠ minĠ
ĠzhiĠ huiĠ
ĠqiĠ houĠ
dongĠ beiĠ
shou ĠdeĠ
ĠbaoĠ kuo
Ġ gu
shang ĠshiĠ
yanĠ chuĠ
ĠjiĠ diĠ
she ĠzhiĠ
Ġ wo
Ġ fen
qiuĠ yuanĠ
yuan ĠyiĠ
ĠyuĠ jiĠ
sai ĠzhongĠ
ĠĠĠ M
keĠ xueĠ
yan ĠshiĠ
Ġ da
gongĠ tongĠ
lingĠ daoĠ
ren ĠyiĠ
Ġ 13
Ġ zuĠ
Ġ chuanĠ
ĠĠĠ the
zuoĠ pin
er ĠjiĠ
zuo ĠyouĠ
Ġ nan
faĠ biaoĠ
Ġ si
ĠdeĠ zhuĠ
zai ĠshiĠ
28 ĠriĠ
aoĠ yunĠ
kong ĠjianĠ
ye ĠyouĠ
xing ĠjiĠ
gaiĠ bianĠ
sanĠ geĠ
Ġ I
wu ĠzhiĠ
deng ĠdiĠ
ĠlingĠ waiĠ
ĠĠĠ F
l Ġ
jia ĠshiĠ
ĠdiĠ guoĠ
youĠ xiĠ
yuan ĠheĠ
fang ĠzhiĠ
Ġ jiu
deng ĠrenĠ
Ġ zhaoĠ
Ġer ĠshiĠ
xue ĠshiĠ
guan ĠzhongĠ
lan ĠdeĠ
ĠĠĠ G
luĠ xianĠ
xue ĠweiĠ
Ġdan ĠrenĠ
shu ĠweiĠ
ze ĠshiĠ
ju ĠdeĠ
baoĠ daoĠ
Ġli ĠzhiĠ
qi ĠweiĠ
he ĠjiĠ
chu ĠrenĠ
lve Ġ
zhui Ġ
buĠ tongĠ
qing ĠnianĠ
2008 ĠnianĠ
guo ĠliĠ
zuoĠ yongĠ
aoĠ linĠ
bang ĠzhuĠ
pi ĠkeĠ
2016 ĠnianĠ
gong ĠdeĠ
Ġ huoĠdeĠ
zao ĠdaoĠ
ĠkeĠ nengĠ
ai ĠerĠ
ĠyuĠ qiĠ
ĠĠĠ zhongĠ
Ġri ĠzhiĠ
ĠfuĠ zeĠ
jiang ĠqiĠ
zu ĠdeĠ
danĠ quĠ
ĠyuĠ yanĠ
ju ĠjiĠ
lu ĠdiĠ
tongĠ changĠ
Ġ cheĠ
gui ĠdaoĠ
ĠyouĠ guanĠ
ĠdaĠ daoĠ
15 ĠriĠ
banĠ benĠ
Ġ 9
shou ĠjiĠ
ĠyiĠ youĠ
taĠ men
fei ĠjiĠ
ĠyiĠ yuĠ
tu ĠdiĠ
xianĠ daiĠ
yuan ĠnianĠ
ĠbingĠ qieĠ
2009 ĠnianĠ
yaĠ zhouĠ
ma ĠliĠ
sheng ĠdeĠyiĠgeĠshiĠzhenĠ
ĠzhiĠ jianĠdeĠ
xiĠ banĠ
bianĠ huaĠ
ĠmuĠ qianĠ
jie ĠheĠ
jingĠ neiĠ
ĠĠĠ juĠ
ĠshiĠ xingĠ
gongĠ yeĠ
Ġ shuiĠ
hui ĠheĠ
jueĠ saiĠ
wu ĠnianĠ
taiĠ pingĠ
jia ĠyiĠ
zhengĠ ceĠ
hou ĠyuĠ
Ġ dingĠ
2011 ĠnianĠ
ĠsiĠ keĠ
neiĠ rongĠ
2012 ĠnianĠ
zao ĠqiĠ
meiĠ yuanĠ
Ġ Ã
ĠweiĠ zhongĠ
guangĠ boĠ
Ġ mo
Ġ ha
zhan ĠyiĠ
Ġ paiĠ
xian ĠrenĠ
Ġ 8
ta ĠzaiĠ
jiao ĠyiĠ
pi ĠpingĠ
xingĠ chengĠ
ĠhaiĠ baĠgaoĠduĠ
25 ĠriĠ
jiaoĠ huiĠ
Ġ N
miao ĠshuĠ
ĠbuĠ duiĠ
wanĠ quanĠ
ĠzhiĠ yeĠ
ĠerĠ siĠ
xuanĠ zeĠ
Ġdan ĠzaiĠ
yuanĠ yinĠ
ĠsiĠ teĠ
Ġta ĠyuĠ
UTC Ġ
ĠĠĠ E
bo ĠliĠ
pa Ġ
zao ĠdeĠ
Ġ K
ĠheĠ wuĠ
jianĠ sheĠ
Ġyue ĠdeĠ
xie ĠyiĠ
Ġ 7
chu ĠshiĠ
xiaoĠ shuoĠ
wuĠkeĠ lanĠ
chang ĠqiĠ
yunĠdongĠ huiĠ
beiĠ chengĠweiĠ
lianĠ bangĠ
Ġ 6
ĠdiĠ sanĠ
ĠweiĠ diĠ
30 ĠriĠ
ĠjianĠ chengĠ
Ġdang ĠzhongĠ
ĠshiĠ yanĠ
ĠdeĠ daoĠ
chiĠ xuĠ
zui ĠdaĠ
wenĠ hua
20 ĠriĠ
mingĠ mingĠ
Ġ eĠ
zu ĠheĠ
yuanĠ zhuĠ
dianĠ ziĠ
duoĠ shuĠ
se ĠdeĠ
zhuanĠ yeĠ
Ġ renĠweiĠ
Ġta ĠshiĠ
xing ĠyuĠ
ĠyiĠ mingĠ
2014 ĠnianĠ
houĠ laiĠ
Ġ qie
10 ĠriĠ
lin ĠshiĠ
gongĠ si
er ĠweiĠ
sheng ĠheĠ
ĠyouĠ chengĠ
wuĠ yuanĠ
bu ĠliĠ
jieĠ daoĠ
Ġ L
fu ĠzhiĠ
ba ĠliĠ
ziĠ geĠ
chu ĠqiĠ
2018 ĠnianĠ
bu ĠjiĠ
T Ġ
2019 ĠnianĠ
Ġ 5Ġ
erĠ ziĠ
ĠĠĠ of
dongĠ nanĠ
gao ĠzhongĠ
10 Ġ
faĠ lvĠ
taĠ menĠdeĠ
Ġ mengĠ
ĠjiĠ gouĠ
za ĠzhiĠ
ĠdiĠ siĠ
ĠjiĠ jinĠ
Ġ 11
ĠshiĠweiĠyuĠ meiĠguoĠ
daĠ daoĠ
ye ĠdeĠ
ĠjinĠ guanĠ
2013 ĠnianĠ
ĠweiĠyuĠ gaiĠguoĠ
ĠguoĠ minĠ
kui Ġ
faĠ zhan
aĠ laĠ
Ġyue ĠzhiĠ
ĠliĠ keĠ
Ġ 3Ġ
Ġ mianĠ
tu ĠerĠ
sheng ĠweiĠ
ĠshiĠjieĠ daĠ
baoĠ gaoĠ
zhong ĠjiĠ
24 ĠriĠ
dao ĠyiĠ
2015 ĠnianĠ
ĠliĠ yongĠ
ĠliĠ kaiĠ
fangĠ xiangĠ
guiĠ dingĠ
Ġ san
nei ĠbuĠ
ĠyuĠ zhongĠ
guoĠ minĠ
guangĠ dongĠ
wang ĠdeĠ
ĠsuiĠ houĠ
boĠwuĠ guanĠ
luo ĠdeĠ
26 ĠriĠ
canĠ saiĠ
Ġ ke
Ġyue ĠshiĠ
Ġ yingĠguoĠ
Ġ gengĠ
Ġzhe ĠzhongĠ
2007 ĠnianĠ
muĠ biaoĠ
ĠweiĠ siĠ
sheĠ quĠ
ĠyuĠ zhiĠ
guan ĠzhiĠ
Ġtong ĠnianĠ
n Ġ
dian ĠliĠ
2005 ĠnianĠ
gongĠchanĠ dangĠ
Ġ xunĠ
18 ĠriĠ
ĠyouĠ qiĠ
xian ĠyiĠ
ĠxiĠ lieĠ
die Ġ
Ġ O
Ġ waiĠ
ĠfenĠ buĠyuĠ
aoĠlinĠ piĠkeĠ
bing ĠweiĠ
lian ĠxiĠ
gongĠ buĠ
ĠjiĠ changĠ
fu ĠliĠ
juĠ banĠ
mu ĠdeĠ
ĠchuĠ leĠ
Ġ shaĠ
Ġ 2001ĠnianĠ
lie ĠdeĠ
ĠshiĠ heĠ
ĠĠĠ D
chang ĠweiĠ
Ġ ganĠ
quanĠ qiuĠ
wuĠ xianĠ
ĠerĠ shengĠ
bi ĠliĠ
shen ĠdeĠ
ĠĠĠ H
tou ĠziĠ
teĠ bie
ĠshiĠ ziĠ
2017 ĠnianĠ
mu ĠdiĠ
yinĠ hangĠ
16 ĠriĠ
ĠjiĠ heĠ
ding ĠweiĠ
shangĠ shuĠ
dongĠ jingĠ
Ġ duo
guanĠ fangĠ
fu ĠyiĠ
dao ĠyuĠ
dang ĠdeĠ
guo ĠzhiĠ
17 ĠriĠ
paiĠ sheĠ
r Ġ
zi ĠyuĠ
huaĠ xueĠ
shou ĠyuĠ
kaiĠ fangĠ
ĠyouĠxianĠ gongĠsiĠ
ĠĠĠ zhengĠzhiĠ
21 ĠriĠ
bu ĠzhiĠ
ĠdeĠshiĠ zhenĠ
gai ĠnianĠ
27 ĠriĠ
Ġ minĠ
baoĠ faĠ
ĠzhongĠ xueĠ
zhe ĠshiĠ
ka ĠerĠ
19 ĠriĠ
2006 ĠnianĠ
8 ĠriĠ
mingĠ ziĠ
jun ĠweiĠ
ĠliĠ faĠ
yingĠ yongĠ
12 ĠriĠ
23 ĠriĠ
shang ĠyouĠ
Ġ songĠ
ce ĠshiĠ
Ġ que
ĠfuĠ wuĠ
ĠyinĠ ci
xian ĠweiĠ
suĠ lianĠ
meiĠguoĠ renĠkouĠpuĠ
ĠdeĠ weiĠ
7 ĠriĠ
Ġ qieĠ
fei ĠxingĠ
ĠzhiĠ jiĠ
shuĠ liangĠweiĠ
qiĠ jianĠ
de ĠĠĠ
juĠ leĠbuĠ
fu ĠyuĠ
boĠ chuĠ
yin ĠshiĠ
xueĠ zheĠ
huang ĠdiĠ
l ĠĠĠ
hui ĠyuĠ
xiĠ lieĠ
qi ĠjiĠ
2021 ĠnianĠ
ban ĠshiĠ
11 ĠriĠ
Ġ R
ĠdeĠ zhongĠ
22 ĠriĠ
guiĠ moĠ
ĠshiĠ faĠguoĠ
Ġ 6Ġ
a ĠĠĠ
biĠ xuĠ
9 ĠriĠ
ling ĠyuĠ
shanĠ dongĠ
gongĠ nengĠ
29 ĠriĠ
chu ĠyiĠ
yin ĠqiĠ
guanĠ yuanĠ
kun Ġ
ying ĠshiĠ
te ĠdeĠ
xunĠ lianĠ
zuiĠ daĠdeĠ
zheng ĠzaiĠ
ĠyueĠ hanĠ
fengĠ geĠ
ĠjiĠ baiĠ
jingĠ yingĠ
2022 ĠnianĠ
fuĠ jinĠ
ting ĠzhiĠ
suoĠ shuĠdeĠ
nengĠ gouĠ
ĠĠĠthe ĠĠĠ
3 ĠriĠ
pingĠ jiaĠ
shengĠ mingĠ
14 ĠriĠ
geĠ diĠ
21 Ġ
zhu ĠzaiĠ
qingĠkuang ĠxiaĠ
yuan ĠjiĠ
shou ĠshiĠ
tiao ĠjianĠ
5 ĠriĠ
jiao ĠdeĠ
sheng ĠzaiĠ
quĠ huaĠ
shengĠ chan
20 Ġ
tai ĠdeĠ
xi ĠshiĠ
me Ġ
shang ĠweiĠ
she ĠdeĠ
mai ĠkeĠ
ĠĠĠ youĠyuĠ
ya ĠyuĠ
jin ĠzhiĠ
Ġ saiĠ
31 ĠriĠ
ĠbuĠ jiuĠ
jieĠ chuĠ
Ġ daoĠzhiĠ
yuan ĠzhiĠ
ĠdaĠ huiĠ
lianĠ meng
xiaoĠxingĠ xingĠ
4 ĠriĠ
2 ĠriĠ
Ġ lvĠ
chao ĠjiĠ
C Ġ
xiong ĠdiĠ
da ĠjiĠ
ĠrenĠ zhongĠ
zang Ġ
ĠzuiĠ houĠ
6 ĠriĠ
dian ĠdeĠ
hai ĠyuĠ
teĠ zhengĠ
ĠgongĠ chiĠ
ge ĠjiĠ
liu ĠxingĠ
13 ĠriĠ
nanĠ xingĠ
boĠ teĠ
wenĠwuĠ baoĠhuĠ
ĠnianĠ dai
ĠsuiĠ ranĠ
ge ĠweiĠ
renĠ heĠ
Ġ kaiĠshiĠ
wu ĠjiĠ
ĠhaoĠ miĠ
ren ĠjiĠ
manĠ huaĠ
lv ĠyouĠ
zuoĠ jiaĠ
keĠ daĠ
Ġ piĠ
si ĠrenĠ
Ġtong ĠguoĠ
geĠ shouĠ
fen ĠxiĠ
yinĠ ciĠ
Ġ shenĠzhiĠ
huang ĠjiaĠ
Ġ xin
ouĠ zhou
jian ĠweiĠ
zong ĠheĠ
shengĠ fenĠ
Ġ jueĠ
Ġ qiangĠ
Ġ lingĠyiĠ
Ġ br
xuĠ duo
B Ġ
lieĠ che
ju ĠrenĠ
niu ĠyueĠ
Ġbr Ġ
ĠĠĠ jinĠ
ci ĠshiĠjieĠdaĠ
banĠ daoĠ
zhuĠ tiĠ
zhong ĠweiĠ
cheng ĠyiĠ
zai ĠweiĠ
zhuangĠ taiĠ
ĠyouĠ mingĠ
qi ĠnianĠ
ĠtaĠ cengĠ
ĠsuiĠ ran
ben ĠdeĠ
bian ĠweiĠ
fenĠ ziĠ
pin ĠdaoĠ
ĠzaiĠ qiĠ
you ĠyiĠgeĠ
ju ĠzhongĠ
he ĠliĠ
mao ĠyiĠ
20 ĠshiĠjiĠ
ĠzhiĠ zhongĠ
buĠ zhangĠ
renĠkouĠ shuĠliangĠweiĠ
wangĠ luoĠ
hui ĠyouĠ
qian ĠyiĠ
ao ĠsiĠ
2004 ĠnianĠ
shuo ĠshiĠ
xuanĠ shouĠ
jieĠ duanĠ
ĠĠĠ ziĠ
gao ĠjiĠ
zhun ĠbeiĠ
Ġ geng
ci ĠdeĠ
ĠĠĠ O
fa ĠshiĠ
E Ġ
ĠheĠ nanĠ
fangĠ anĠ
fang ĠyuĠ
Ġ chiĠ
mi ĠerĠ
wai ĠdeĠ
daĠ xingĠ
duoĠ ciĠ
Ġ 4Ġ
bing ĠliĠ
Ġ chen
gong ĠzhongĠ
huiĠ daoĠ
bei ĠdeĠ
ĠĠĠ liĠ
mo ĠdeĠ
ĠyiĠ laiĠ
ci ĠzhiĠ
fen ĠzhiĠ
Ġri ĠqiĠ
chengĠ duĠ
bu ĠweiĠ
2000 ĠnianĠ
shuĠ guanĠ
liu ĠnianĠ
ĠzhongĠ buĠ
wuĠ qiĠ
Ġ lanĠ
jie ĠjiĠ
le ĠyiĠgeĠ
yuan ĠweiĠ
baoĠ hanĠ
jun ĠzaiĠ
ĠdiĠ fangĠ
dianĠshiĠ taiĠ
you ĠzhiĠ
zi ĠshiĠ
ĠdeĠyiĠ zhongĠ
xing ĠheĠ
ĠrenĠ kou
ĠrenĠkouĠmiĠ duĠweiĠ
Ġ fan
ju ĠshiĠ
3 ĠnianĠ
Ġ gangĠ
deng ĠjiĠ
luĠ junĠ
xiangĠ tongĠ
xuan ĠweiĠ
4 ĠnianĠ
Ġ douĠ
zheĠ jiangĠ
Ġ yiĠshiĠ
zuiĠ houĠ
biaoĠ yanĠ
qiu ĠjiĠ
siĠ wangĠ
gaiĠ geĠ
sheĠ beiĠ
Ġ chaoĠ
ĠzhuĠ yao
ĠweiĠyuĠ faĠguoĠ
meiĠ zhouĠ
daĠ liangĠ
nong ĠyeĠ
duoĠ geĠ
ĠzhiĠ jinĠ
dianĠshiĠ juĠ
hou ĠyouĠ
gu ĠjiĠ
ĠshiĠ daiĠ
ĠxiĠ banĠ
shang ĠyiĠ
ai ĠdeĠ
Ġ zhao
yang ĠshiĠ
Ġ ze
zhu ĠyuĠ
guangĠ changĠ
liu ĠshiĠ
zhanĠ douĠ
zai ĠjiĠ
fa ĠyuĠ
Ġ zu
Ġ xiang
Ġ touĠ
zhanĠ kaiĠ
wenĠwuĠbaoĠhuĠ danĠweiĠ
Ġ fei
ĠĠĠ daĠ
ĠzhiĠ liĠ
jia ĠheĠ
tiao ĠyueĠ
ĠjiaĠ ruĠ
fuĠ jianĠ
30 Ġ
xieĠ zhuĠ
ĠyiĠ beiĠ
ĠbuĠ zaiĠ
chanĠ pinĠ
muĠ qianĠ
bianĠ chengĠ
mi ĠdeĠ
nu Ġ
huoĠdeĠ leĠ
hangĠ kong
jiang ĠyuĠ
D Ġ
Ġ meiĠyouĠ
youĠ zhengĠ
6 ĠnianĠ
ren ĠyuĠ
fenĠ leiĠ
daoĠ luĠ
gongĠyouĠ renĠkouĠ
ying ĠjiĠ
duan ĠdeĠ
nai Ġ
ĠzhiĠ zaiĠ
qun ĠdaoĠ
Ġ xianĠshiĠ
qing ĠdeĠ
ĠfenĠ bie
biaoĠ zhun
zhenĠ quĠ
ĠbeiĠ qiĠ
haiĠ baĠ
Ġzhe ĠyiĠ
Ġ J
biĠ jiaoĠ
nao Ġ
ĠĠĠ jianĠ
ĠqiĠ yeĠ
zhanĠ zheng
guiĠ huaĠ
shouĠ duĠ
ĠliĠ ziĠ
ĠkeĠ neng
cuo Ġ
ĠxiĠ wangĠ
ĠxingĠ zhengĠ
suĠ duĠ
ju ĠyuĠ
nv ĠerĠ
xiĠ buĠ
ĠzhongĠ huaĠminĠguoĠ
xi ĠweiĠ
ĠĠĠ K
ĠbuĠ huiĠ
Ġ faĠguoĠ
ĠyiĠ renĠ
qiao ĠzhiĠ
ĠgongĠ fenĠ
ĠzaiĠ zhongĠ
meiĠpingĠfangĠ gongĠliĠ
rong ĠyuĠ
dong ĠxiĠ
jiu ĠshiĠzhenĠ
dong ĠliĠ
ĠyiĠ yangĠ
ĠdeĠshiĠ jianĠ
jinĠ gongĠ
diĠyiĠ geĠ
dou ĠyouĠ
Ġ zhou
U Ġ
si ĠheĠ
ĠĠĠ xiĠ
ĠchengĠ quĠ
si ĠweiĠ
maĠ lai
henĠ duoĠ
la ĠdeĠ
2 ĠnianĠ
Ġ 00
ken Ġ
taiĠ beiĠ
ruĠ xiaĠ
ze ĠrenĠ
quĠ daiĠ
Ġ nvĠ
fu ĠrenĠ
xian ĠdeĠyiĠgeĠ
la ĠkeĠ
ĠciĠ houĠ
jinĠbiaoĠ saiĠ
ĠyiĠ xiaĠ
shangĠ wuĠ
yu ĠshiĠdeĠ
S Ġ
ĠyuĠ weiĠ
jian ĠyouĠ
ĠerĠ beiĠ
zong ĠliĠ
wang ĠguoĠ
lianĠ xuĠ
xiangĠ duiĠ
qu ĠyiĠ
min ĠzhongĠ
jieĠ rang
ĠĠĠ fuĠ
reng Ġran
xiao ĠxiĠ
miĠ shuĠ
tie ĠdaoĠ
zhengĠ geĠ
ci ĠjiĠ
zuiĠ houĠyiĠ
ĠĠĠ zheĠ
Ġ ruo
7 ĠnianĠ
jue ĠdeĠ
renĠkouĠshuĠliangĠweiĠ renĠ
8 ĠnianĠ
Ġ heiĠ
ĠzhongĠ xin
Ġ tian
quan ĠdeĠ
niao Ġ
Ġ manĠ
ĠĠĠ zhuĠ
zhanĠ lingĠ
xinĠ jiaĠ
waiĠ jiaoĠ
diĠ sanĠ
jiaĠ naĠdaĠ
Ġ kongĠ
ĠliĠ shuĠyuĠ
ĠrenĠ zaiĠ
tianĠ zhuĠjiaoĠ
ĠĠĠ L
zhen ĠshiĠ
yeĠ wuĠ
Ġ INSEE
chengĠ zhenĠ
ci ĠyuĠ
qiĠ ta
ĠyingĠ chiĠ
Ġnian ĠjiĠ
Ġran ĠhouĠ
yuan ĠyouĠ
ceng ĠzaiĠ
Ġyou ĠyiĠ
P Ġ
Ġ wu
daĠ xue
jianĠ chaĠ
1 ĠnianĠ
zhengĠ quanĠ
ne Ġ
shengĠ chengĠ
shouĠ geĠ
zuoĠ chuĠ
nan ĠjiĠ
ĠdeĠshiĠ houĠ
ĠheĠ beiĠ
ni ĠsiĠ
juĠ jueĠ
lu ĠshiĠ
jiao ĠweiĠ
0 Ġ
quĠ xiaoĠ
ti ĠjiĠ
wangĠ zhanĠ
dian ĠjiĠ
ĠdeĠ yuĠ
Ġjie ĠzhiĠ
Ġ rang
sheng ĠzhiĠ
cheĠ liangĠ
ĠgaiĠ shengĠ
he ĠweiĠ
da ĠliĠyaĠ
zhongĠ xinĠ
dui ĠzaiĠ
xianĠ faĠ
le ĠjiĠ
tianĠ wenĠ
he ĠzhiĠ
diĠ fangĠ
ziĠ xingĠ
zhen ĠdeĠ
lan ĠxiĠ
ĠqiĠ ta
Ġer ĠzaiĠ
ĠzongĠ mianĠjiĠ
yunĠ yingĠ
p Ġ
jieĠ jueĠ
ĠdeĠ liĠ
2002 ĠnianĠ
ĠriĠ ben
ye ĠzaiĠ
2003 ĠnianĠ
I Ġ
mo ĠxiĠ
ĠshiĠ changĠ
Ġ duiĠyuĠ
gong ĠyiĠ
shu ĠzhiĠ
ĠdiĠ qiĠ
ĠjianĠ zhuĠ
er ĠzaiĠ
on Ġ
shou ĠweiĠ
dianĠ ying
ĠrenĠkouĠmiĠduĠ meiĠpingĠfangĠgongĠliĠ
xiaoĠ xueĠ
yingĠ xiang
chaĠdeĠ shuĠjuĠ
youĠzhengĠ bianĠmaĠweiĠ
Ġ tiaoĠ
hui ĠzhiĠ
puĠ taoĠ
gan ĠdaoĠ
ĠxingĠ chengĠ
ĠshiĠzhenĠ bianĠmaĠweiĠ
ĠINSEE ĠshiĠzhenĠbianĠmaĠweiĠ
qing ĠshiĠ
te ĠliĠ
zhuo Ġ
ĠrenĠkouĠmiĠduĠweiĠ meiĠpingĠfangĠ
mengĠ guĠ
mu ĠshiĠ
diĠyiĠ ciĠ
ĠĠĠ buĠ
ĠxiaĠ lingĠshiĠ
xi ĠliĠ
Ġ hao
xuanĠ quĠweiĠ
lei ĠjiĠ
zuoĠ zhanĠ
gao ĠyuĠ
niĠ ya
yuĠshiĠdeĠ renĠkouĠshuĠliangĠweiĠrenĠ
bao ĠdeĠ
si ĠzaiĠ
meiĠguoĠrenĠkouĠpuĠ chaĠdeĠshuĠjuĠ
zuo ĠyiĠ
lu ĠyiĠ
Ġer ĠrenĠkouĠmiĠduĠweiĠmeiĠpingĠfangĠ
ĠdangĠdiĠ gongĠyouĠrenĠkouĠ
xi ĠyuĠ
Ġ zhengĠshiĠ
yun ĠxingĠ
ĠteĠ bie
ĠhuoĠ jiuĠshiĠzhenĠ
jingĠ changĠ
xin ĠliĠ
yuanĠ ziĠ
shengĠjiĠ xuanĠquĠweiĠ
jiang ĠshiĠ
ĠĠĠ nianĠ
faĠ dongĠ
kuaiĠ suĠ
Ġ bo
zhang ĠdaĠ
ĠzhongĠ yang
shao ĠnianĠ
Ġ bai
sheng ĠrenĠ
Ġ huanĠ
ming ĠyiĠ
bian ĠjiĠ
chong ĠjianĠ
fenĠweiĠ faĠguoĠ
ĠgaiĠshengĠ fenĠweiĠfaĠguoĠ
fa ĠqiĠ
gaoĠ dengĠ
Ġ shuangĠ
cong ĠshiĠ
yangĠ huaĠ
shuo ĠfaĠ
ĠyouĠ renĠ
Ġ W
Ġnian ĠyuĠ
cheng ĠliĠyuĠ
2023 ĠnianĠ
jia ĠzhongĠ
jin ĠyiĠbuĠ
na ĠdeĠ
lianĠheĠ guoĠ
yanĠjiuĠ suoĠ
ĠĠĠ 18
zhengĠ mingĠ
fang ĠqiĠ
daĠ quĠ
tai ĠguoĠ
gongĠ xianĠ
gou ĠdeĠ
lunĠ dun
er ĠheĠ
fanĠ huiĠ
aoĠlinĠpiĠkeĠ yunĠdongĠhuiĠ
jieĠrang ĠdeĠshiĠzhenĠ
zi ĠweiĠ
gong ĠrenĠ
yunĠ shuĠ
xiang ĠjiĠ
suoĠshuĠdeĠ shengĠjiĠxuanĠquĠweiĠ
huo ĠshiĠ
ziĠ ran
ĠĠĠ heĠ
yuan ĠliĠ
si ĠliĠ
ti ĠxiĠ
ce ĠdeĠ
jianĠ chengĠ
biao ĠweiĠ
ĠerĠ qie
na ĠliĠ
xingĠ qiĠ
zhuĠ chiĠ
ziĠ yuanĠ
zhanĠ dou
zhongĠ huaĠrenĠminĠgongĠheĠguoĠ
mingĠ danĠ
boĠ lanĠ
xi ĠzaiĠ
dao ĠrenĠ
reĠ daiĠ
xiĠbanĠ yaĠ
Ġ huang
hua ĠweiĠ
cui Ġ
Ġ V
luo ĠfuĠ
fuĠ qinĠ
ĠxiĠ beiĠ
xiaĠ wuĠ
bei ĠyiĠ
pai ĠdeĠ
faĠ sheĠ
ĠdiĠ quĠdeĠ
ni ĠkeĠ
fen ĠdeĠ
wenĠ mingĠ
Ġ haĠ
ĠzhiĠ chengĠ
ĠĠĠ cheĠzhanĠ
ĠheĠ bingĠ
diaoĠ cha
wan ĠjiaĠ
chanĠ yeĠ
an ĠshiĠ
ĠshiĠyiĠ mingĠ
Ġ biaoĠshiĠ
xiangĠ dangĠ
Ġyou ĠshiĠ
sheng ĠshiĠ
Ġ guoĠjiĠ
ĠĠĠ chuĠ
chaoĠ zhengĠzhiĠrenĠwuĠ
jinĠxingĠ leĠ
su ĠdeĠ
ĠweiĠ shengĠ
F Ġ
ĠĠĠ taĠ
jian ĠjiĠ
jin ĠyiĠ
ĠbuĠ nengĠ
nanĠ shengĠ
xuanĠ chuanĠ
ĠshiĠyiĠ weiĠ
ying ĠliĠ
Ġ bi
Ġ kang
bei ĠjiĠ
jingĠ shenĠ
lv ĠshiĠ
za Ġ
xianĠ xiangĠ
shouĠ shangĠ
hu ĠshiĠ
shu ĠzhongĠ
Ġ zaoĠ
zi ĠheĠ
xiĠ yangĠ
Ġ chuangĠ
guanĠ zhuĠ
fuĠzeĠ guanĠxiaĠ
Ġ peiĠ
ĠĠĠ R
paiĠ mingĠ
lian ĠdeĠ
qiĠ zhongĠyiĠ
ba ĠnianĠ
mie Ġ
jiaĠ tingĠ
lanĠ qiuĠ
tongĠ xingĠ
lie ĠweiĠ
shuai Ġ
sai ĠerĠ
Ġyue ĠzaiĠ
zhanĠ houĠ
xuan ĠrenĠ
xiaoĠ zuĠ
liu ĠyuĠ
shuĠ liangĠ
fo ĠjiaoĠ
ke ĠweiĠ
jie ĠyiĠ
daoĠ yanĠ
zhengĠ juĠ
zao ĠnianĠ
ĠerĠ qieĠ
da ĠweiĠ
qiu ĠdeĠ
ĠxiĠ nanĠ
taoĠ lunĠ
wang ĠshiĠ
duĠ jiaoĠ
Ġ 190
yan ĠyiĠ
reĠ dai
Ġ longĠ
ĠzhongĠ gongĠ
zhengĠ dangĠ
ĠĠĠ beiĠ
laiĠ yuanĠ
genĠ ju
wenĠ jianĠ
ming ĠshiĠ
baoĠ chiĠ
Ġ tuoĠ
X Ġ
ĠyiĠ jianĠ
hou ĠqiĠ
zhongĠ yangĠ
ĠzhiĠ xianĠ
rui ĠshiĠ
ĠdaoĠ leĠ
reng ĠranĠ
Ġ 10ĠyueĠ
ĠyiĠ xiĠ
lv ĠkeĠ
pingĠ lunĠ
ĠjiĠ siĠ
Ġ ben
ziĠ dongĠ
Ġzong ĠrenĠkouĠ
xia ĠdeĠyiĠgeĠ
fan ĠdeĠ
ĠwuĠ keĠ
diĠ siĠ
biaoĠ mingĠ
ĠshiĠ xianĠ
xu ĠdeĠ
lu ĠyuĠ
ĠzhiĠ mingĠ
hai ĠdeĠ
pingĠ taiĠ
ĠjiĠ huĠ
luoĠ ma
keĠliĠ siĠ
5 ĠnianĠ
Ġ canĠ
ĠshiĠ jianĠyuĠ
cengĠ jingĠ
xuĠ yao
hao ĠweiĠ
peng ĠyouĠ
ĠliĠ renĠ
da ĠyueĠ
yinĠ hang
fengĠ xianĠ
eĠ luoĠ
nanĠ jingĠ
ĠbeiĠ jingĠ
ĠdeĠdiĠ fangĠ
Ġ lin
Ġ ciĠshiĠ
sheng ĠyiĠ
Ġ queĠ
rao Ġ
ĠnianĠ duĠ
xuanĠ quĠ
gong ĠzhongĠyangĠ
jiaoĠ tangĠ
taiĠpingĠ yangĠ
x Ġ
zheng ĠbuĠ
mo ĠxingĠ
ke ĠzaiĠ
lianĠ bang
jiao ĠbuĠ
xingĠ buĠ
jing ĠyouĠ
yanĠ geĠ
k Ġ
yuan ĠzaiĠ
ĠguoĠ wangĠ
daoĠ daĠ
shen ĠweiĠ
Ġ e
jianĠ duiĠ
chongĠ tuĠ
ĠĠĠ xianĠ
wu ĠrenĠ
jian ĠrenĠ
ĠnianĠ youĠ
tui ĠyiĠ
biao ĠzhiĠ
hua ĠyuĠ
ru ĠheĠ
ĠĠĠ 2021
ke ĠshiĠ
qian ĠshiĠ
sou Ġ
qian ĠzhiĠ
g Ġ
shangĠ yingĠ
xiao ĠguoĠ
ĠyiĠ shangĠ
xian ĠheĠ
dao ĠheĠ
keĠ siĠ
jing ĠweiĠ
ĠgongĠ yuanĠ
ĠĠĠ suiĠ
lei ĠxingĠ
ĠyiĠ liĠ
ĠdaĠ xue
zhou ĠweiĠ
xian ĠjiĠ
ĠnianĠ chuĠ
ye ĠbuĠ
fengĠ baoĠ
Ġ ouĠ
ĠĠĠ 2020
biao ĠdaĠ
guangĠ zhouĠ
ĠĠĠ in
xia ĠshiĠ
dangĠ xuanĠ
zhang ĠshiĠ
liang ĠzhongĠ
xie ĠdeĠ
pang Ġ
biĠ yaĠ
ĠĠĠ V
ĠnianĠ houĠ
shengĠ huo
ding ĠyuĠ
qiĠ yeĠ
tiaoĠ zhanĠ
Ġceng ĠrenĠ
ĠjiĠ beiĠ
jiaoĠ quĠ
pingĠ mianĠ
shenĠ qingĠ
anĠ jianĠ
chengĠ xianĠ
luĠ siĠ
xing ĠyiĠ
ĠzhiĠ fuĠ
fenĠ bieĠ
tuanĠ duiĠ
ĠerĠrenĠkouĠmiĠduĠweiĠmeiĠpingĠfangĠ qianĠmiĠ
rou Ġ
Ġ The
ĠliĠ daĠ
yaoĠ qingĠ
ĠjinĠ ruĠ
cha ĠyiĠ
ĠliĠ lunĠ
yingĠ geĠlanĠ
puĠ tongĠ
yuanĠ zhangĠ
12 Ġ
Ġ qinĠ
yuanĠ suĠ
ĠzhongĠ youĠ
xing ĠrenĠ
jiu ĠnianĠ
xi ĠheĠ
qiuĠ changĠ
ĠtaĠ menĠdeĠ
ri ĠqiĠ
xiaoĠ shouĠ
zhongĠ yaoĠ
teĠ bieĠ
yan ĠzhiĠ
heng ĠxingĠ
neiĠ rong
zi ĠyiĠ
ruĠ ciĠ
queĠ zhenĠ
duiĠ shouĠ
Ġjie ĠguoĠ
Ġ zheng
la ĠfuĠ
Ġ gao
zuo ĠshiĠ
c Ġ
bao ĠweiĠ
cheng ĠyuĠ
laiĠ shuoĠ
Ġ tanĠ
shu ĠyiĠ
hui ĠjiĠ
Ġ qiĠyuĠ
ru ĠguoĠ
Ġyue ĠyuĠ
xueĠ shuĠ
Ġ 19
ĠzhiĠ zaoĠ
he ĠyuĠ
wangĠ luĠ
anĠ naĠ
ĠzhongĠ huaĠ
lun ĠdeĠ
nu ĠliĠ
ni ĠdeĠ
shun Ġ
ta ĠshiĠ
wu ĠyiĠ
Ġ 8ĠyueĠ
zhengĠ zhuangĠ
caiĠ yong
jia ĠrenĠ
quan ĠshiĠ
Ġfen ĠzhongĠ
ting ĠdeĠ
nengĠ gou
ziĠzhiĠ quĠ
dianĠ taiĠ
jieĠfangĠ junĠ
xiaoĠ zhangĠ
min ĠdeĠ
shuĠ ziĠ
haiĠ ziĠ
gengĠ mingĠweiĠ
you ĠliĠ
xiang ĠyuĠ
lan ĠkeĠ
ĠtongĠ changĠ
qu ĠheĠ
chuang ĠliĠ
Ġ maiĠ
xu ĠshiĠ
xin ĠshiĠ
fan ĠyiĠ
2024 ĠnianĠ
chuĠ shenĠ
zongĠ duĠ
ĠĠĠ 2019
duo ĠzhongĠ
Ġ deng
ge ĠyouĠ
fuĠ qin
zhuĠ yanĠ
she ĠyuĠ
jiaĠ geĠ
bo ĠdeĠ
huoĠ dong
jiang ĠxiĠ
Ġ hu
ming ĠyuĠ
sun ĠshiĠ
jiangĠ xiangĠ
banĠ gongĠshiĠ
Ġ miaoĠ
dan ĠdeĠ
shouĠ ruĠ
lin ĠdeĠ
Ġ dai
juĠ xingĠdeĠ
ĠzhongĠ yaoĠ
jingĠ chaĠ
9 ĠnianĠ
Ġ suoĠyouĠ
ĠĠĠ wuĠ
Ġ zaiĠyiĠ
dui ĠyiĠ
sa ĠkeĠ
jie ĠweiĠ
jieĠ jinĠ
ĠweiĠ lianĠ
ĠjiĠ benĠ
jie ĠyuĠ
ka ĠsiĠ
ĠĠĠ a
ĠĠĠ xiaĠ
guanĠ dianĠ
ĠdeĠyiĠ zuoĠ
ĠĠĠ 2018
1999 ĠnianĠ
ĠliĠ heĠ
Ġ laoĠ
jiang ĠdiĠ
shaoĠ shuĠ
wenĠ zhangĠ
kan ĠdaoĠ
ĠjiĠ zheĠ
lunĠ dunĠ
tou ĠxiangĠ
huiĠ shangĠ
luĠdiĠ mianĠjiĠweiĠ
ĠĠĠ geĠ
zhang ĠyuĠ
amp Ġ
shuiĠyuĠ mianĠjiĠweiĠ
jieĠ quanĠguoĠ
ĠdaĠ quĠ
wenĠ ziĠ
M Ġ
zhan ĠjiĠ
11 Ġ
sang Ġ
xingĠ jianĠ
ĠdeĠdiĠ quĠ
chuĠ shengĠ
aoĠ menĠ
Ġ han
zai ĠzhiĠ
Ġ pei
wen ĠyiĠ
kang ĠyiĠ
Ġ cheĠzhanĠ
xiĠ beiĠ
haiĠ anĠ
ĠshiĠ diĠ
ruĠ kouĠ
Ġ zhuan
wai ĠguoĠ
wen ĠdeĠ
jiaoĠ liuĠ
ming ĠdiĠ
24 Ġ
R Ġ
xingĠ xingĠ
zhenĠ duiĠ
tiaoĠ zhengĠ
Ġ xiongĠ
xi ĠzhiĠ
ĠĠĠ keĠ
ĠjiĠ tuan
Ġ pa
xin ĠrenĠ
du ĠyuĠ
tianĠ jinĠ
Ġ ampĠ
ĠĠĠ 2022
cuo ĠshiĠ
zhangĠ keĠdaĠ
ĠĠĠ W
fang ĠzaiĠ
jun ĠdiĠ
tiĠ mingĠ
xuanĠ ze
ĠdangĠzhongĠ luĠdiĠmianĠjiĠweiĠ
ĠerĠ shuiĠyuĠmianĠjiĠweiĠ
poĠ huaiĠ
1998 ĠnianĠ
Ġxian ĠzaiĠ
rong ĠyiĠ
chuĠ faĠ
ĠbeiĠ erĠ
zao ĠyuĠ
jingĠ dianĠ
chi ĠdeĠ
ba ĠxiĠ
guang ĠxiĠ
bianĠ jieĠ
Ġ haiĠyouĠ
luo ĠdiĠ
gou ĠchengĠ
ou ĠyuanĠ
xian ĠyouĠ
xianĠ changĠ
Ġ juĠliĠ
ĠxiangĠ gang
xi ĠyiĠ
shan ĠjiĠ
taiĠ yangĠ
Ġ Î
fu ĠjiĠ
dao ĠjiĠ
ĠfaĠ xianĠ
queĠ dingĠ
teng Ġ
ĠdeĠzhiĠ chiĠ
Ġyue ĠyouĠ
touĠ ruĠ
siĠ chuanĠ
yueĠ taiĠ
ĠĠĠxingĠzhengĠ quĠhuaĠ
Ġ jiĠshiĠ
ming ĠzhiĠ
ĠzaiĠ zheĠ
duiĠ wuĠ
cunĠ zhuangĠ
Ġcong ĠerĠ
Ġ ao
da ĠzhongĠ
jia ĠyuĠ
Ġ jingĠguoĠ
ĠĠĠ J
keng Ġ
ha ĠerĠ
you ĠweiĠ
cun ĠdeĠ
dengĠ luĠ
Ġ 9ĠyueĠ
Ġ saĠ
da ĠzhiĠ
ĠĠĠ 2017
touĠ piaoĠ
geĠ leiĠ
Ġ hou
yuanĠ huiĠ
chang ĠyiĠ
ĠshiĠ liĠ
Ġyue ĠweiĠ
Ġ shou
gong ĠyuĠ
ĠzhiĠ xiaĠ
gongĠ minĠ
yinĠ faĠ
biĠ yeĠyuĠ
jian ĠzhongĠ
nuo ĠweiĠ
tuĠerĠ qiĠ
fang ĠweiĠ
tu ĠdeĠ
tui ĠdongĠ
ĠshiĠ zhongĠguoĠ
ĠĠĠ and
ge ĠyiĠ
zhan ĠdiĠ
hun ĠheĠ
ĠrenĠ menĠ
piĠ zhunĠ
ke ĠyuĠ
juĠ zhuĠ
baoĠ liuĠ
wu ĠyuĠ
qianĠ shuĠ
jinĠ ru
er ĠyuĠ
wenĠ dingĠ
haiĠ daoĠ
leĠ siĠ
ganĠ ran
shu ĠheĠ
biĠ saiĠzhongĠ
ĠtiĠ zhangĠkeĠdaĠ
Ġ formulaĠ
er ĠrenĠ
ziĠ ranĠ
xi ĠzhongĠ
ĠzaiĠ beiĠ
daĠ fuĠ
ĠbuĠ fen
yongĠ huĠ
Ġ 7ĠyueĠ
zi ĠliĠ
nanĠ beiĠ
jun ĠyiĠ
chu ĠjiĠ
qiĠ ziĠ
ĠweiĠfuĠ qiĠyuĠ
heng ĠliĠ
ĠĠĠ 2016
fangĠ wenĠ
xunĠ huiĠ
zhuang ĠjiaĠ
tiĠ gaoĠ
Ġyou ĠjiĠ
ĠwoĠ menĠ
di ĠjiĠ
ma ĠkeĠ
ĠshiĠ quĠ
chengĠ zuoĠ
ĠyuĠ ciĠ
O Ġ
jian ĠheĠ
ĠyiĠ daĠliĠ
xinĠ haoĠ
ĠyinĠ duĠ
xunĠ suĠ
ang Ġ
jinĠ shuĠ
benĠ tuĠ
houĠ xuanĠrenĠ
zhan ĠzhongĠ
xiao ĠliĠ
xianĠ luĠ
pinĠ paiĠ
Ġ an
mo ĠerĠ
xianĠ houĠ
ziĠ jinĠ
jieĠshuĠ houĠ
Ġ zhang
Ġ 12ĠyueĠ
ci ĠweiĠ
xin ĠyiĠ
geĠ geĠ
Ġta ĠyiĠ
guangĠ fanĠ
zhuĠ mingĠdeĠ
zhong ĠliĠ
shang ĠrenĠ
yong ĠyiĠ
1996 ĠnianĠ
zuiĠ chuĠ
ceng ĠyuĠ
yingĠ pianĠ
zhuĠ mingĠ
mouĠ xieĠ
heĠ zuoĠ
Ġ bian
cheng ĠzhiĠ
Ġ 11ĠyueĠ
ĠdeĠyiĠ zhiĠ
Ġ xiuĠ
wu ĠweiĠ
jianĠ zaoĠ
jian ĠzaiĠ
jie ĠyouĠ
lingĠ waiĠ
ĠdeĠshiĠ quĠweiĠ
chuĠ zhanĠ
chuĠ shengĠyuĠ
xiaĠ laiĠ
ĠĠĠdeĠ shiĠ
o Ġ
ĠzhiĠ nengĠ
Ġ 21Ġ
xueĠ huiĠ
buĠ tongĠdeĠ
Ġbing ĠyiĠ
Ġ tw
jiangĠ suĠ
sa ĠerĠ
1997 ĠnianĠ
shuiĠ pingĠ
ĠzhongĠguoĠ gongĠchanĠdangĠ
Ġ tingĠ
ĠĠĠ erĠ
Ġ hong
buĠ duiĠ
ĠjiaĠ shangĠ
dang ĠshiĠdeĠ
zhu ĠbuĠ
shan ĠdaĠ
hans Ġ
Ġ biaoĠ
bo ĠerĠ
Ġ hansĠ
ke ĠheĠ
ĠdiĠ qu
mei ĠnianĠ
xuĠ qiuĠ
ĠjiĠ chengĠ
jianĠ shaoĠ
teĠ shuĠ
Ġtw Ġ
daĠ chengĠ
shan ĠdeĠ
jiaĠ zuĠ
Ġ 2011
ĠĠĠ I
ĠzheĠ xie
Ġ hai
ĠĠĠ li
ĠĠĠ qingĠ
lv ĠweiĠ
ĠrenĠ leiĠ
meiĠ geĠ
paiĠ chuĠ
ĠĠĠ 2014
xiaoĠ shuo
aoĠ daĠliĠyaĠ
Ġri ĠyuĠ
nan ĠyiĠ
ĠĠĠ 2023
jieĠ rangĠ
gongĠ changĠ
siĠ keĠ
ĠdanĠ taĠ
chang ĠheĠ
jieĠ keĠ
jueĠ ding
ĠjiĠ guanĠ
ĠzaiĠ zhongĠguoĠ
sheĠhuiĠ zhuĠyiĠ
ĠchengĠ yuanĠ
ĠhaoĠ xianĠ
zhu ĠyouĠ
zhuang ĠzhiĠ
ĠyuĠ renĠ
ĠxiĠ baoĠ
jingĠ yanĠ
Ġ 189
Ġ 2010ĠnianĠ
faĠ chuĠ
Ġ 30
ziĠ xunĠ
suo ĠdeĠ
wa ĠerĠ
ĠjiĠ renĠ
yinĠ suĠ
ĠjieĠ muĠ
ĠĠĠ 2015
ti ĠshiĠ
yingĠ wenĠ
ĠĠĠ yuanĠ
Ġ menĠ
lu ĠzhiĠ
reng Ġ
1992 ĠnianĠ
ĠhouĠ lai
Ġ eĠluoĠsiĠ
ĠxuĠ duoĠ
tu ĠzhongĠ
kong ĠzhongĠ
sui ĠdaoĠ
bei ĠzhiĠ
hua ĠheĠ
sha ĠsiĠ
yong ĠshiĠ
lingĠ tuĠ
Ġ Ñ
minĠ jianĠ
ĠĠĠ yuĠshiĠdeĠrenĠkouĠshuĠliangĠweiĠrenĠ
ĠĠĠ suoĠshuĠdeĠshengĠjiĠxuanĠquĠweiĠ
xiangĠ siĠ
ĠĠĠdeĠ youĠzhengĠbianĠmaĠweiĠ
ĠĠĠyuĠ jieĠrangĠdeĠshiĠzhenĠ
ĠĠĠdeĠshiĠ quĠweiĠ
geng ĠjiaĠ
ĠguoĠ chengĠ
Ġ jingĠjiĠ
Ġ 2019
Ġ feng
zeng ĠzhangĠ
er ĠyiĠ
nan ĠdeĠ
keĠ chengĠ
jiang ĠdeĠ
ĠzaiĠ daĠ
huiĠ yingĠ
kongĠ junĠ
le ĠshiĠ
ĠfaĠ xingĠ
r ĠĠĠ
Ġ 2009ĠnianĠ
m ĠĠĠ
Ġ U
Ġ wang
Ġ zhongĠdeĠ
guĠ wenĠ
ĠheĠ xiĠ
ĠtaĠ yeĠ
ci ĠyiĠ
guangĠ gaoĠ
te ĠerĠ
ĠshiĠ meiĠguoĠ
ĠĠĠ 2013
jueĠ se
Ġ hk
zhou ĠfuĠ
ĠshengĠ huo
ti ĠyiĠ
wan ĠrenĠ
ĠdiĠ daĠ
wei ĠĠĠ
zong ĠbuĠ
ĠjiĠ youĠ
anĠ paiĠ
hanĠ shuĠ
xianĠ xingĠ
guanĠ biĠ
ĠbingĠ jiangĠ
tian ĠdeĠ
chao ĠshiĠ
tiĠ shengĠ
feiĠ jianĠzhiĠ
ĠĠĠ xinĠ
woĠ menĠ
fang ĠbuĠ
da ĠyuĠ
xu ĠkeĠ
lang ĠdeĠ
zhengĠfu ĠdeĠ
minĠzhuĠ dangĠ
Ġ 6ĠyueĠ
zhuang ĠshiĠ
jiaĠ ru
Ġbing ĠyouĠ
quanĠ mianĠ
Ġ zhuangĠ
Ġhk Ġ
banĠ gongĠ
ĠdeĠguoĠ jiaĠ
jun ĠjiĠ
xingĠ taiĠ
cheĠ zhan
ĠerĠ gaiĠ
ĠheĠ erĠ
diĠ guoĠ
bao ĠliĠ
jieĠ gou
n ĠĠĠ
Ġ zhiĠshiĠ
dui ĠshiĠ
shanĠ mai
ju ĠbuĠ
ling ĠdeĠ
fo Ġ
rui ĠdianĠ
dang ĠyuĠ
luo ĠkeĠ
ĠjiĠ nianĠ
wei ĠyiĠgeĠ
dang ĠzhongĠ
junĠ gongĠ
tuĠ shuĠguanĠ
L Ġ
weiĠ zhiĠ
neiĠ luĠ
zhuan ĠjiaĠ
hua ĠzhongĠ
chengĠ xuĠ
yu ĠĠĠ
ĠyueĠ taiĠ
yunĠ xuĠ
seĠ lieĠ
Ġ laiĠziĠ
huiĠ beiĠ
shan ĠshiĠ
bingĠ meiĠyouĠ
jiuĠ dianĠ
Ġ na
ge ĠzhiĠ
dianĠ nao
ĠkeĠ xueĠ
zuĠ chengĠdeĠ
ĠĠĠ xiangĠ
ĠqiĠ zhongĠyiĠ
dai ĠyouĠ
siĠ xiangĠ
feiĠjianĠzhiĠ diĠquĠ
Ġ 5ĠyueĠ
ba ĠweiĠ
faĠ lv
ĠxiĠ jieĠ
jingĠ zhengĠ
sanĠ jiaoĠ
Ġ maoĠ
guo ĠweiĠ
ĠyiĠ jiaĠ
jinĠ paiĠ
chang ĠyuĠ
tan ĠkeĠ
ĠliĠ buĠ
ĠyouĠ qiĠshiĠ
muĠ qinĠ
tong ĠyuĠ
bing ĠshiĠ
huanĠ yingĠ
Ġ 2018
ma ĠerĠ
xiaĠ jiangĠ
moĠxiĠ geĠ
geĠ lan
zhuan ĠyiĠ
yanĠjiuĠ yuanĠ
Ġ zhengĠfuĠ
Ġ 20
shuĠ xueĠ
gongĠ siĠdeĠ
neiĠ geĠ
ĠshiĠjieĠ beiĠ
jiu ĠdeĠ
ĠliĠ ya
hua ĠrenĠ
fen ĠzhongĠ
1994 ĠnianĠ
mingĠ mingĠweiĠ
ĠgongĠ zuoĠ
jun ĠyouĠ
ĠheĠ diĠ
jiu ĠzhiĠ
1995 ĠnianĠ
laiĠ daoĠ
shengĠ zhangĠ
ĠĠĠjiaĠ zuĠ
deng ĠweiĠ
ĠjiĠ chuĠ
beiĠrenĠ weiĠshiĠ
que ĠfaĠ
ĠdiĠ xiaĠ
xiu ĠgaiĠ
huiĠ zhangĠ
mingĠ lingĠ
yingĠ yunĠ
shuo ĠmingĠ
hu ĠdeĠ
yongĠ laiĠ
Ġ qian
Ġ chuĠyuĠ
dai ĠliĠ
dui ĠqiĠ
ziĠ muĠ
shouĠ fuĠ
on ĠĠĠ
ĠdanĠ youĠyuĠ
wen ĠshiĠ
ruan Ġ
ĠbuĠ tongĠdeĠ
ĠĠĠ zhĠ
maoĠ qiuĠ
Ġ minĠguoĠ
ĠzaiĠ meiĠguoĠ
ĠshiĠyiĠ ge
ĠdeĠdiĠ erĠ
ĠweiĠ weiĠ
zhu ĠjiĠ
i Ġ
Ġ chaĠ
ta ĠyuĠ
15 Ġ
gongĠ juĠ
chengĠweiĠ leĠ
Ġ rangĠ
Ġ 4ĠyueĠ
que ĠrenĠ
liao ĠjieĠ
yeĠ beiĠ
ĠtaĠ beiĠ
leng Ġ
beiĠ erĠ
yin ĠdeĠ
chang ĠdiĠ
faĠ anĠ
feiĠ lvĠ
lieĠ biaoĠ
juĠ zhangĠ
caiĠ quĠ
le ĠĠĠ
ĠĠĠ jieĠzhiĠ
shenĠ tiĠ
changĠ pianĠ
ĠtaĠ haiĠ
shou ĠzhongĠ
ĠzhongĠguoĠ renĠminĠ
cheĠ xiaoĠ
Ġyin ĠyueĠ
ĠshangĠ haiĠ
canĠjiaĠ leĠ
Ġ 2016
boĠ fangĠ
chanĠ pin
ĠerĠ fuĠ
jiaoĠ lianĠ
xie ĠrenĠ
che ĠdeĠ
zhuĠ zuoĠ
banĠ faĠ
Ġ kangĠ
chuanĠ boĠ
fu ĠyouĠ
su ĠweiĠ
ĠyiĠ nianĠ
Ġ 23
Ġ kuanĠ
sui ĠjiĠ
ĠyiĠ juĠ
zhe ĠliĠ
ma ĠsiĠ
ĠweiĠ renĠ
ĠĠĠ zhongĠguoĠ
ĠliĠ ru
qiuĠ huiĠ
tieĠ lu
dian ĠqiĠ
liang ĠshiĠ
ĠĠĠof ĠĠĠ
ĠnianĠ beiĠ
ĠweiĠyuanĠ hui
wangĠ qiuĠ
ma ĠdeĠ
ze ĠyouĠ
ĠqiĠ laiĠ
faĠ dianĠ
gu ĠdeĠ
baiĠ seĠ
Ġ quanĠguoĠ
ĠshiĠyiĠ nianĠ
yueĠ hanĠ
ju ĠheĠ
tai ĠjiĠ
jieĠ hunĠ
chuĠ xiĠ
zhanĠ taiĠ
huaĠ yuanĠ
shenĠ jingĠ
wanĠ shangĠ
ĠdiĠ tieĠ
ling ĠbuĠ
ĠzhiĠ diĠ
ĠyouĠ xieĠ
huoĠ jianĠ
ĠyiĠ zaiĠ
ziĠ zhuĠ
zuĠ jianĠ
ye ĠheĠ
huaĠ shengĠ
ĠxingĠ dongĠ
ĠweiĠ nengĠ
chanĠ shengĠdeĠ
zhaoĠ kaiĠ
ĠrenĠminĠ zhengĠfuĠ
liang ĠrenĠ
ĠyouĠ xiaoĠ
lingĠ xianĠ
2020ĠnianĠ meiĠguoĠrenĠkouĠpuĠchaĠdeĠshuĠjuĠ
yanĠchangĠ huiĠ
maĠlai ĠxiĠyaĠ
xue ĠheĠ
leĠ taĠ
Ġ Ma
chao ĠdeĠ
ĠerĠ buĠ
tongĠ cheĠ
xu ĠliĠyaĠ
chang ĠzaiĠ
yaoĠ wuĠ
qin ĠshiĠ
ruĠ xuanĠ
ti ĠzhongĠ
kuo ĠdaĠ
ĠzaiĠ xiĠ
ĠxiĠ laĠ
1991 ĠnianĠ
chuĠ xianĠzaiĠ
gua Ġ
yinĠ du
geĠ erĠ
xueĠ xiao
Ġ yingĠyuĠ
ĠliĠ shuĠ
geĠ daĠ
ĠĠĠ 2024
ĠĠĠ 2025
xiangĠ xiĠ
xin ĠjiĠ
ĠgongĠ chengĠ
changĠ pian
ĠfuĠ jinĠ
ĠĠĠ qianĠ
dai ĠbuĠ
zhuangĠ kuangĠ
ĠdaĠ buĠfenĠ
shanĠxiĠ shengĠ
xing ĠzhongĠ
Ġ lieĠ
tai ĠshiĠ
siĠ teĠ
kong ĠbuĠ
ĠshiĠdeĠ yiĠ
ĠzhiĠ duĠ
huĠ beiĠ
lv ĠxingĠ
tuo ĠliĠ
Ġ daiĠbiaoĠ
Ġ caoĠ
gongĠ huiĠ
shi ĠĠĠ
shen ĠshiĠ
ĠĠĠ nian
cheng ĠliĠdeĠ
daĠ buĠfenĠ
guiĠ zeĠ
ĠweiĠ liĠ
aoĠ diĠliĠ
shangĠ hai
er ĠĠĠ
daĠ luĠdeĠ
Ġliang ĠrenĠ
lao ĠdongĠ
zhouĠ bianĠ
jing ĠyuĠ
zhuang ĠdeĠ
pei ĠyinĠ
cu ĠjinĠ
ĠyiĠ tongĠ
Ġ ka
tong ĠbuĠ
fen ĠliĠ
xingĠ xiangĠ
ĠliĠshiĠ shangĠ
ci ĠzaiĠ
w Ġ
long ĠdeĠ
suan ĠjiĠ
xingĠ quĠ
ĠC Ġ
ĠmingĠ chaoĠzhengĠzhiĠrenĠwuĠ
Ġ qiaoĠ
suiĠ houĠ
wuĠkeĠ lan
ze ĠweiĠ
pei ĠheĠ
Ġ taoĠ
Ġ sheĠjiĠ
jin ĠbuĠ
bao ĠshiĠ
daiĠbiao ĠdaĠhuiĠ
wu ĠheĠ
ĠzhiĠ ziĠ
zhuĠ changĠ
nan ĠshiĠ
ĠzheĠ jiangĠ
ping ĠweiĠ
teĠ seĠ
xiaĠjiĠ aoĠlinĠpiĠkeĠyunĠdongĠhuiĠ
22 Ġ
jiaoĠ xueĠ
ĠjiĠ erĠ
1988 ĠnianĠ
xie ĠshiĠ
puĠ bianĠ
1Ġ haoĠ
da ĠheĠ
b Ġ
Ġ lu
zhe ĠzaiĠ
piaoĠ fangĠ
la ĠjiĠ
ĠshiĠ tuĠ
Ġ 3ĠyueĠ
zhuan ĠxiangĠ
wenĠ xianĠ
ĠĠĠ xiaoĠ
luo ĠjiĠ
feiĠ zhouĠ
Ġ panĠ
lian ĠrenĠ
ĠxiĠ juĠ
sa ĠsiĠ
ĠweiĠ heĠ
sheĠ jiĠdeĠ
anĠ quan
Ġ 2011ĠnianĠ
dao ĠzhongĠ
25 Ġ
ĠfuĠ jianĠ
kaoĠ lvĠ
tion Ġ
1993 ĠnianĠ
wangĠ chaoĠ
Ġ yaoĠqiuĠ
jie ĠrenĠ
mingĠ xianĠ
ĠweiĠ wuĠ
zhuĠ zhangĠ
ĠĠĠ N
gong ĠzhiĠ
16 Ġ
ĠbuĠ keĠ
ĠxiĠ buĠ
zheng ĠheĠ
tongĠ daoĠ
ĠweiĠ xingĠ
meiĠ guoĠdeĠ
biaoĠ mianĠ
Ġ sun
hu ĠyuĠ
xu ĠzaiĠ
Ġ 188
Ġ nvĠxingĠ
ST Ġ
kou ĠweiĠ
lingĠ daoĠrenĠ
ĠĠĠ guoĠ
biĠ sai
Ġ nai
ĠweiĠ laiĠ
qiĠzhongĠyiĠ zhongĠ
Ġ 2021
zhao ĠdaoĠ
G Ġ
Ġ mai
hongĠ seĠ
siĠ lingĠ
jingĠ cha
fangĠ wuĠ
Ġ sĠĠĠ
ĠliĠ miĠ
yuanĠ gongĠ
Ġ xuanĠbuĠ
zuiĠ hou
yunĠ dong
caiĠ liaoĠ
ĠshiĠweiĠ leĠ
ĠdeĠzhiĠ wuĠ
Ġ jiaoĠyuĠ
ĠĠĠ congĠ
re ĠĠĠ
hun ĠyinĠ
ĠyuĠ leĠ
ĠchengĠ gongĠ
ĠweiĠ huiĠ
ĠxiĠ ya
Ġ ni
ĠjiĠ huiĠ
Ġ2001ĠnianĠ renĠkouĠ
dongĠ nanĠbuĠ
ĠyouĠ buĠ
dongĠ beiĠbuĠ
Ġ 2015
ĠĠĠ 2012
hua ĠjiĠ
fenĠ buĠyuĠ
shou ĠzhiĠ
jun ĠyuĠ
bian ĠshiĠ
ge ĠheĠ
ĠrenĠ shuĠ
yingĠ gaiĠ
fu ĠzaiĠ
ti ĠzhiĠ
ĠxingĠ qiĠ
daĠ chenĠ
bao ĠzhiĠ
2 ĠrenĠ
siĠ geĠ
feiĠ chuĠ
Ġ 2005ĠnianĠ
jin ĠyouĠ
sao Ġ
ĠbuĠ menĠ
dianĠ huaĠ
bao ĠyuĠ
ĠyiĠ ban
yuanĠ xingĠ
qianĠ wang
ĠtiĠ gongĠ
ruan ĠjianĠ
Ġ guanĠyuĠ
ĠĠĠ zaoĠnianĠ
wuĠ taiĠ
ling ĠdiĠ
chi ĠyouĠ
Ġwan ĠrenĠ
Ġ hanĠguoĠ
duiĠ zhangĠ
tui ĠjinĠ
zhuĠ jueĠ
gengĠ duoĠ
Ġyin ĠerĠ
faĠxianĠ leĠ
chuĠ laiĠ
tiĠ daoĠ
yongĠ zuoĠ
suo ĠzaiĠ
zhengĠ changĠ
Ġ zhong
jue ĠshiĠ
Ġsui ĠdeĠ
wuĠ zhuangĠ
guoĠjiĠ jiĠ
mei ĠdeĠ
ben ĠdiĠ
bian ĠxingĠ
douĠ huiĠ
yaĠliĠ shanĠdaĠ
3 ĠrenĠ
jiao ĠdaĠ
gui ĠdeĠ
ĠerĠshuiĠyuĠmianĠjiĠweiĠ 0
riĠ junĠ
poĠ huai
Ġ quan
1990 ĠnianĠ
Ġ zaoĠchengĠ
yin ĠdiĠ
jiao ĠyouĠ
c ĠĠĠ
Ġ tuiĠ
bo ĠsiĠ
tongĠ yangĠ
tai ĠrenĠ
dongĠ fangĠ
huoĠ zheĠ
ĠpingĠfangĠ miĠ
ĠzaiĠ jiaĠ
caoĠ zuoĠ
ĠdaĠ chengĠ
haiĠ waiĠ
mingĠ xingĠ
tuan ĠdeĠ
qingĠ baoĠ
anĠ huiĠ
nei ĠyouĠ
jieĠ shaoĠ
duiĠ waiĠ
yeĠ huiĠ
ĠdaĠ liangĠ
Ġsui ĠzheĠ
Ġ 2017
to ĠĠĠ
jieĠ mu
xia ĠyouĠ
ĠheĠ pingĠ
ĠerĠ gaiĠdiĠ
canĠ mou
Ġ 2020
Ġ 2014
yongĠ tuĠ
Ġ 2013
qiang ĠdeĠ
chuĠ kouĠ
xiang ĠyiĠ
ĠyiĠ duĠ
ĠzhiĠ dingĠ
ĠyuĠ heĠ
gaiĠ shanĠ
aoĠyunĠ huiĠ
e ĠĠĠ
biao ĠdeĠ
la ĠheĠ
ĠxiĠ tong
yanĠ shenĠ
duiĠ xiangĠ
ĠdeĠshiĠ jieĠ
gao ĠjiaĠ
xiĠ nanĠ
ĠyueĠ nanĠ
san ĠjiĠ
50 Ġ
Ġ reng
xianĠ jinĠ
dun ĠdeĠ
zuoĠ quĠ
ĠjiaĠ naĠdaĠ
ĠbaoĠ hanĠ
mei ĠliĠ
guan ĠshiĠ
leĠ daĠ
dengĠ shangĠ
gaoĠsuĠ gongĠluĠ
xiaoĠ quĠ
junĠ quĠ
zhengĠ tiĠ
Ġ shengĠyuĠ
jia ĠzaiĠ
chang ĠyouĠ
leĠ taĠdeĠ
xiaĠ xiaĠdeĠyiĠgeĠ
longĠ jiangĠ
duo ĠrenĠ
yun ĠshiĠ
geĠ lunĠ
Ġ dou
jue ĠyiĠ
shuĠ ruĠ
haiĠ xiaĠ
Ġ xiu
sui ĠzhuĠ
Ġxian ĠrenĠ
Ġye ĠyouĠ
nie Ġ
ĠqiĠ zaiĠ
yunĠ zuoĠ
queĠzhenĠ bingĠliĠ
19 ĠshiĠjiĠ
Ġri ĠdeĠ
ju ĠyiĠ
13 Ġ
ĠshiĠ daĠ
gouĠ zaoĠ
banĠshiĠ chuĠ
Ġ po
ĠweiĠ keĠ
ĠerĠ yanĠ
Ġnan ĠzhiĠ
zhan ĠzhiĠ
liu ĠzaiĠ
1984 ĠnianĠ
faĠ shouĠ
ĠĠĠ zengĠ
zuo ĠrenĠ
dianĠ cheĠ
miĠ miĠ
kang ĠriĠ
shuĠ yuanĠ
jia ĠyouĠ
du ĠheĠ
fei ĠliĠ
junĠ guanĠ
3 ĠgeĠ
kaiĠ zhanĠ
ce ĠĠĠ
ĠshiĠwuĠ keĠ
renĠ daĠ
ĠzhongĠ zaiĠ
Ġ 100
shang ĠyuĠ
bin ĠhaiĠ
ĠdongĠ linĠ
Ġ 2010
jiangĠ huiĠ
xiaĠ ling
liangĠ ciĠ
chuang ĠjianĠ
lingĠ xiuĠ
Ġ shaoĠ
tian ĠshiĠ
zhuang ĠbeiĠ
shouĠ zhangĠ
dongĠ zuoĠ
chuan ĠzhiĠ
chai ĠchuĠ
senĠ linĠ
an ĠdaĠ
shou ĠyiĠ
1989 ĠnianĠ
ĠqiĠ xiangĠ
shouĠ luĠ
ĠtaiĠ wan
caiĠ zhengĠ
touĠ piao
Ġ niu
ya ĠkeĠ
biĠ mianĠ
gu ĠliĠ
ĠqiĠ ziĠ
shanĠ quĠ
huiĠ yuanĠ
4 ĠrenĠ
ĠĠĠ 3
Ġ jianĠyuĠ
bei ĠshiĠweiĠ
ĠnianĠ diĠ
ĠjuĠ xingĠ
Ġ zhengĠzhiĠ
deng ĠdeĠ
tu ĠxingĠ
qin ĠziĠ
ĠerĠ tongĠ
juĠ qingĠ
kaĠ luoĠ
ĠnianĠ1ĠyueĠ 1ĠriĠ
ĠĠĠ siĠ
wuĠ siĠ
1 ĠrenĠ
Ġ qi
hou ĠshiĠ
zuiĠ gao
ĠwanĠ meiĠyuanĠ
ĠtaiĠ yangĠ
zhe ĠbuĠ
waiĠ jiaoĠbuĠ
ĠyiĠ meiĠyuanĠ
liu ĠdeĠ
18 Ġ
ĠsiĠ lingĠ
ceĠ liangĠ
Ġ chengĠliĠ
jingĠ xuanĠ
Ġ hengĠ
hui ĠzhongĠ
shou ĠxiĠ
zhangĠ guanĠ
fanĠ zuiĠ
ban ĠliĠ
ĠjieĠ shouĠ
Ġ 2007ĠnianĠ
ĠĠĠ dangĠ
fu ĠweiĠ
suo ĠshiĠ
bingĠ ruĠ
Ġ s
Ġ dianĠyingĠ
si ĠyiĠ
ĠyouĠ keĠ
ĠerĠ ziĠ
geng ĠweiĠ
ĠnianĠ laiĠ
daiĠ laiĠ
xiangĠ zhengĠ
baoĠ shouĠ
ĠdongĠ beiĠ
fanĠweiĠ neiĠ
ming ĠzhongĠ
pian ĠdeĠ
chuĠ daoĠ
mian ĠshiĠ
meng ĠdeĠ
guoĠ wangĠ
taiĠ fengĠ
ri ĠzhiĠ
ĠerĠ chengĠ
huĠ nanĠ
Ġ 2008ĠnianĠ
ĠĠĠ Ma
ĠqiĠ xiaĠ
ĠzaiĠ duĠ
fangĠ mianĠdeĠ
zun Ġ
ĠyiĠ houĠ
ĠjieĠ keĠ
ĠshengĠhuo ĠxiĠ
yan ĠxiĠ
Ġ huan
Ġ sheĠhuiĠ
ren ĠliĠ
can ĠyiĠyuanĠ
kaiĠ tongĠ
te ĠĠĠ
taiĠ ziĠ
junĠ zhuĠ
qingĠ chuĠ
dingĠ juĠ
ĠnianĠ qianĠ
gongĠ zhuĠ
shengĠ yinĠ
jin ĠweiĠ
hua ĠheĠwuĠ
zhan ĠqiĠjianĠ
Ġ 2012
zhou ĠqiĠ
zu ĠfuĠ
jianĠ jieĠ
yingĠ yeĠ
ĠsiĠ wangĠ
Ġ sheĠyouĠ
liang ĠjiĠ
pi ĠfuĠ
fei ĠdeĠ
wai ĠbuĠ
xiangĠ huĠ
guanĠ chaĠ
xingĠbuĠ mingĠ
H Ġ
dui ĠyouĠ
zhuĠyao ĠdeĠ
5 ĠrenĠ
lei ĠdaĠ
st ĠĠĠ
du ĠliĠdeĠ
ĠnianĠ heĠ
Ġ sha
zhuan ĠdeĠ
er ĠyueĠ
lv ĠdeĠ
xiĠ juĠ
Ġ lao
bing ĠdeĠ
ĠĠĠ mingĠ
jiang ĠjiĠ
maĠ laĠ
touĠ luĠ
chang ĠzhiĠ
gouĠ maiĠ
ĠshengĠhuoĠxiĠ xingĠbuĠmingĠ
ĠyiĠ daiĠ
tian ĠqiĠ
Ġ canĠjiaĠ
que ĠdeĠ
faĠ xingĠdeĠ
tongĠ paiĠ
xinĠ yangĠ
ĠmeiĠ geĠ
zuoĠ biaoĠweiĠ
jiangĠ lingĠ
anĠ zhuangĠ
jiuĠ longĠ
ĠwuĠ faĠ
ĠĠĠ beiĠjingĠ
liangĠ xiangĠ
Ġ yongĠyouĠ
jiaĠliĠ fuĠ
xinĠ xingĠ
huoĠ shanĠ
zuĠ zhiĠdeĠ
guanĠ jianĠ
keĠneng ĠshiĠ
jing ĠzhongĠ
cheng ĠheĠ
lu ĠjiĠ
taiĠ beiĠshiĠ
jiuĠ duĠ
ĠĠĠciĠ waiĠ
Ġ juĠyouĠ
jieĠ sanĠ
ruĠ qinĠ
Ġ dong
er ĠzhiĠ
kong ĠqiĠ
ĠzaiĠ ci
Ġyue ĠzhongĠ
houĠ beiĠ
liang ĠzhiĠ
bai ĠrenĠ
ter Ġ
fangĠ yanĠ
lunĠ wenĠ
keĠyiĠ zaiĠ
zhuĠ yiĠdeĠ
ĠzhongĠguoĠ daĠluĠ
Ġ gongĠyouĠ
shang ĠbuĠ
zheĠ xie
chuanĠ shuoĠ
1985 ĠnianĠ
kaoĠ guĠ
Ġ zhongĠshiĠ
ĠchuĠ xianĠ
fuĠ jinĠdeĠ
Ġ 2009
qu ĠjiĠ
zhangĠ aiĠ
1 ĠliĠ
Ġ yongĠyuĠ
ai ĠjiĠ
chu ĠbuĠ
tong ĠnianĠ
Ġyin ĠqiĠ
man ĠdeĠ
Ġnian ĠĠĠ
jingĠ fangĠ
shenĠ me
ĠshiĠshiĠ jieĠ
xinĠjiaĠ poĠ
Ġ cha
mo ĠsiĠkeĠ
ĠĠĠjuĠ qingĠ
Ġ yang
lian ĠzaiĠ
yuĠ yanĠ
ĠbiĠ ruĠ
cheng ĠnianĠ
kao ĠjinĠ
qian ĠrenĠ
Ġ xiao
ming ĠrenĠ
ĠweiĠ ciĠ
zhanĠ tingĠ
Ġ saiĠjiĠ
guiĠ zuĠ
Ġ di
Ġ diĠshiĠ
yunĠ nanĠ
zuoĠ zheĠ
suoĠ shuĠ
zhongĠ dianĠ
guangĠdongĠ shengĠ
ĠshiĠ riĠbenĠ
muĠ qin
zhou ĠjiĠ
ĠsiĠ chuanĠ
Ġ 2008
Ġ canĠyuĠ
14 Ġ
quĠ leĠ
ĠgongĠ tongĠ
Ġ qiĠshiĠ
zhe ĠweiĠ
gao ĠdaĠ
ĠguoĠ chengĠzhongĠ
baoĠ zhangĠ
taiĠ duĠ
Ġ kai
ĠteĠbie ĠshiĠ
Ġ 1949
Ġ 2013ĠnianĠ
ĠchuĠ shengĠyuĠ
ĠĠĠ ben
zong ĠshiĠ
ĠrenĠ mingĠ
ĠshiĠjiĠ shangĠ
jiang ĠzaiĠ
yinĠ qingĠ
changĠ jianĠdeĠ
shuangĠ fangĠ
qu ĠyiĠhuiĠ
yin ĠheĠ
ĠyouĠ ciĠ
quanĠ zhangĠ
xunĠ yangĠ
faĠ huiĠ
ĠdiĠ wuĠ
le ĠyuĠ
hua ĠyiĠ
yingĠ xiongĠ
xiuĠ zhengĠ
wanĠ gongĠ
hua ĠzhiĠ
gan ĠbuĠ
ĠshiĠdeĠ guoĠ
Ġ duanĠ
fang ĠyiĠ
youĠ xianĠ
ĠqiĠ xiĠ
tiao ĠliĠ
xiangĠ guanĠdeĠ
ĠĠĠ U
chu ĠzaiĠ
chuĠ yanĠ
cuo ĠwuĠ
ĠjiaĠ tingĠ
sui ĠshiĠ
bianĠ juĠ
ĠĠĠdiĠ fangĠ
ĠguoĠ huiĠ
ĠyiĠ xiaoĠshiĠ
shengĠ taiĠ
shouĠ xiangĠ
ĠbingĠ duĠ
nengĠ liangĠ
taoĠ taiĠ
Ġ su
hu ĠbuĠ
ban ĠbuĠ
yuanĠ zeĠ
faĠ lanĠxiĠ
ĠwuĠkeĠ lanĠ
Ġ cai
lao ĠdeĠ
ĠyueĠ tuanĠ
zhouĠ ciĠshiĠ
Ġ zengĠ
ĠĠĠ qiĠtaĠ
shu ĠliĠ
ĠxueĠ xiaoĠ
Ġ re
chu ĠzhiĠ
zui ĠyouĠ
feng ĠweiĠ
luĠ kouĠ
luĠ yingĠ
qingĠ huaĠ
guĠ fen
ĠpingĠ junĠ
yaoĠ qiu
keĠdeĠ qiĠzhongĠyiĠzhongĠ
ĠĠĠ meiĠguoĠ
ĠĠĠ diĠerĠ
hui ĠbuĠ
ĠweiĠ chiĠ
qingĠ qiuĠ
kaiĠ sheĠ
K Ġ
zhi ĠdeĠshiĠ
si ĠzhiĠ
huan ĠchengĠ
faĠ guanĠ
meiĠ shuĠ
dangĠ diĠdeĠ
ĠĠĠ 2010
19 Ġ
ĠzhongĠhuaĠrenĠminĠgongĠheĠguoĠ zhengĠzhiĠrenĠwuĠ
huoĠ xingĠ
gaiĠ chengĠ
4 ĠgeĠ
ĠĠĠ 2
ĠshiĠ yong
ĠheĠ xinĠ
Ġ dui
ling ĠrenĠ
heĠ xinĠ
han ĠyuĠ
han ĠyouĠ
Ġ 2022
hen ĠdaĠ
ĠjiĠ nian
ĠheĠ zhongĠ
dao ĠbuĠ
ĠĠĠ 2011
zhuang ĠjiĠ
cui ĠhuiĠ
luĠ keĠ
chengĠ keĠ
paiĠ mingĠdiĠ
ĠĠĠ danĠ
ĠshiĠ geĠ
qiangĠ diaoĠ
2Ġ haoĠ
xia ĠweiĠ
f Ġ
en ĠshengĠ
dang ĠweiĠ
Ġwan ĠjiaĠ
Ġ 2006ĠnianĠ
zheng ĠweiĠ
xiĠ laĠ
yaĠ junĠ
tianĠ jingĠ
canĠ kaoĠ
yuan ĠzhongĠ
bei ĠweiĠ
ĠyiĠ zuoĠ
zuiĠ gaoĠdeĠ
niĠyaĠ zhouĠ
Ġ maiĠkeĠ
neng ĠzaiĠ
gongĠ yingĠ
Ġ xiong
xiaĠ quĠ
suoĠ chuĠdeĠ
ya ĠyiĠ
chengĠ benĠ
qingĠ xingĠ
dengĠ dengĠ
dangĠ juĠ
tiĠyuĠ changĠ
ĠĠĠ 17
suo ĠzhiĠ
xie ĠerĠ
shangĠ haiĠshiĠ
tuĠ poĠ
ĠA Ġ
sheng ĠyouĠ
bai ĠdeĠ
ĠjiĠ buĠ
xianĠ shengĠ
xieĠ daoĠ
ĠyeĠ jiuĠshiĠ
ĠdaĠ duoĠ
teĠ dingĠ
kun ĠnanĠ
fou Ġ
renĠ yuanĠ
ĠdaĠ xingĠ
yinĠ ruĠ
aĠlaĠ boĠ
tai ĠzhongĠ
xiang ĠweiĠ
xiang ĠyouĠ
1980 ĠnianĠ
ĠyiĠ fuĠ
ĠĠĠ Re
jing ĠzhiĠ
xiu ĠfuĠ
ĠjiĠ duĠ
keĠ xueĠyuanĠ
huoĠ banĠ
huan ĠdeĠ
tan ĠdeĠ
shun ĠliĠ
fenĠbuĠ zaiĠ
laĠ dingĠ
Ġsui ĠzhuĠ
xiĠ baoĠ
zhanĠ xianĠ
7 ĠrenĠ
Ġ qing
cheng ĠguoĠ
le ĠqiĠ
jun ĠzhiĠ
1986 ĠnianĠ
ĠdaĠ fuĠ
ĠxiĠbanĠ yaĠ
Ġ meng
Ġ henĠ
lai ĠshiĠ
daĠ huiĠ
Ġxiang ĠnianĠ
Ġ wenĠhuaĠ
wangĠ yuanĠ
6 ĠrenĠ
ke ĠyouĠ
ĠxiĠ erĠ
ruĠ qin
kaiĠ fa
ĠkeĠ erĠ
qiangĠ lieĠ
Ġ 2012ĠnianĠ
wuĠ ziĠ
duo ĠweiĠ
chuan ĠdeĠ
ĠbuĠ jinĠ
haiĠ yangĠ
h Ġ
ĠĠĠ 1Ġ
jing ĠheĠ
xiaoĠ yuanĠ
zhongĠguoĠ daĠluĠdeĠ
shouĠ gouĠ
haiĠ pingĠmianĠ
gai ĠshiĠ
suo ĠweiĠ
ze ĠzaiĠ
xiu ĠjianĠ
shengĠ chuĠ
ĠtaĠcengĠ daiĠbiaoĠ
ganĠran ĠzheĠ
ĠheĠ lanĠ
tongĠ mengĠ
hongĠ zha
ĠwanĠ yuanĠ
heiĠ seĠ
ĠĠĠ yinĠ
ĠĠĠ aĠ
ĠriĠ junĠ
xue ĠyuĠ
lai ĠyueĠ
Ġzu ĠfuĠ
Ġ00 Ġ
ciĠshiĠjieĠdaĠ zhanĠ
jia ĠweiĠ
le ĠzaiĠ
tai ĠyuĠ
zui ĠweiĠ
huang ĠhouĠ
zhaoĠ pianĠ
li ĠyuĠ
yin ĠliĠ
chui Ġ
yaĠ meiĠ
zhou ĠzhiĠ
zu ĠyiĠ
zhen ĠyuĠ
jing ĠyiĠ
jiang ĠzhiĠ
guĠ daiĠ
geiĠ leĠ
zhu ĠzhiĠ
zhang ĠweiĠ
renĠ leiĠ
dangĠ yuanĠ
manĠ zuĠ
ĠtongĠshiĠ gaiĠdiĠ
bei ĠyuĠ
hou ĠweiĠ
te ĠxingĠ
daĠ jiangĠ
ĠdeĠjiĠ chuĠ
ĠguangĠ dongĠ
ding ĠqiĠ
zuĠqiuĠ yunĠdongĠyuanĠ
boĠshiĠ xueĠweiĠ
xiang ĠheĠ
qiang ĠzhiĠ
beng Ġ
beiĠ jingĠshiĠ
shangĠ changĠ
benĠ shenĠ
nongĠ minĠ
neiĠluĠ shengĠfenĠ
Ġ liaoĠ
chengĠ baoĠ
jiao ĠzhiĠ
liang ĠguoĠ
jiuĠ huiĠ
cheng ĠshiĠdeĠ
zhen ĠjiĠ
keĠ fuĠ
Ġa ĠerĠ
V Ġ
chu ĠyouĠ
ĠhuoĠ zheĠ
bang ĠdeĠ
chuangĠ banĠ
Ġ kuĠ
ĠzhongĠ ziĠ
xiaĠling ĠshiĠjianĠ
tong ĠweiĠ
jing ĠzaiĠ
duan ĠshiĠ
xunĠ zhangĠ
Ġ Z
Ġ pu
hao ĠshiĠ
8 ĠrenĠ
le ĠyouĠ
bianĠ haoĠ
ĠbuĠ diĠ
ke ĠzhiĠ
ri ĠdeĠ
1987 ĠnianĠ
kuoĠ zhanĠ
tanĠ panĠ
ĠmuĠ qian
Ġmei ĠnianĠ
tang ĠdeĠ
xiangĠ xinĠ
shangĠ xiaĠ
luĠ xuĠ
Ġ tieĠ
wan ĠdeĠ
min ĠdiĠ
mo ĠsiĠ
jiu ĠyiĠ
zao ĠzaiĠ
diĠ qiuĠ
Ġ te
wo ĠdeĠ
wuĠ daoĠ
ĠbuĠ luoĠ
ta ĠweiĠ
jun ĠheĠ
chi ĠrenĠ
juĠ daĠ
ĠĠĠjianĠ jieĠ
mu ĠzhiĠ
gao ĠzhiĠ
fan ĠzhiĠ
ĠjiĠ fuĠ
renĠ gongĠ
xiĠ wangĠ
tianĠ tiĠ
xuan ĠdeĠ
1945 ĠnianĠ
weiĠyiĠ yiĠ
Ġ kanĠ
ĠrenĠ qiĠ
muĠ niĠ
Ġ 500
1982 ĠnianĠ
geĠ ming
wuĠ zhengĠzhuangĠ
zheĠ xueĠ
suoĠ youĠdeĠ
kaiĠshiĠ shiĠ
ĠshiĠyiĠge ĠweiĠyuĠ
hui ĠguoĠ
ni ĠerĠ
ĠqiĠ cheĠ
nanĠ fangĠ
liangĠ mingĠ
miĠ yaĠ
ĠxianĠ houĠ
zi ĠzhongĠ
Ġ 1950
qu ĠzhiĠ
xiĠ yaĠ
jiangĠ jinĠ
yueĠ nanĠ
ĠĠĠdiĠfangĠ ziĠliaoĠ
dian ĠheĠ
ya ĠheĠ
rong ĠheĠ
xiangĠ biĠ
diĠyiĠ weiĠ
shaĠ haiĠ
Ġ zhiĠyiĠ
Ġ 2014ĠnianĠ
ling ĠyiĠgeĠ
fei ĠerĠ
feng ĠfuĠ
chuĠ shouĠ
wenĠ duĠ
kaiĠshiĠ zaiĠ
yan ĠyuĠ
bing ĠyiĠ
duiĠ ciĠ
ĠĠĠ jieĠ
fangĠ jianĠ
paiĠ hangĠ
dai ĠshiĠ
ping ĠdeĠ
nuo ĠfuĠ
1983 ĠnianĠ
ĠguoĠ quĠ
Ġ waĠ
zi ĠzaiĠ
changĠ jianĠ
aoĠ zhouĠ
ceng ĠweiĠ
40 Ġ
yinĠ paiĠ
gaoĠ xiong
Ġ song
ĠyiĠsiĠ lanĠ
ye ĠjiĠ
liang ĠnianĠ
shenĠ duĠ
zhou ĠheĠ
san ĠjiaĠ
ĠyiĠ wuĠ
Ġnian ĠweiĠ
qinĠ wangĠ
Ġ0 Ġ
nv ĠzhuĠ
ĠĠĠ yingĠ
xiu ĠdeĠ
naĠ cui
guanĠliĠ juĠ
hu ĠweiĠ
ding ĠshiĠ
daĠ xiĠyangĠ
2 ĠgeĠ
w ĠĠĠ
haiĠ baĠweiĠ
ĠĠĠand ĠĠĠ
z Ġ
Ġ jiuĠshiĠ
pei ĠzhiĠ
ti ĠweiĠ
ĠjiĠ houĠ
ĠkeĠ xiĠ
shanĠ fengĠ
ye ĠyiĠ
tongĠ mingĠ
dongĠshiĠ zhangĠ
Ġ xu
ĠĠĠ zhengĠ
le ĠzhongĠ
zou ĠxiangĠ
ĠyouĠ zhongĠ
xiaoĠ fangĠ
ĠjiaĠ zuĠ
zai ĠliĠ
zhu ĠweiĠ
huan ĠzheĠ
liang ĠdaĠ
han ĠdeĠ
suoĠ caiĠyong
jie ĠzhongĠ
Ġbing ĠweiĠ
ĠbuĠ duanĠ
ĠshiĠyiĠ buĠ
Ġ 28
Ġ ruoĠ
ĠbuĠ erĠ
ĠxiĠ lie
ĠdaĠ duoĠshuĠ
gaiĠ zaoĠ
nengĠ yuanĠ
ve ĠĠĠ
zhanĠ lve
shou ĠrenĠ
jun ĠrenĠ
kaoĠ lv
zhiĠshiĠ qiĠ
Ġ 24
ĠĠĠ jingĠ
wen ĠzhongĠ
jieĠ tiĠ
zhanĠ lanĠ
5 ĠmiĠ
gongĠ chengĠshiĠ
jun ĠzhongĠ
ganĠ ranĠ
mengĠ gu
ba ĠheĠ
man ĠdiĠ
erĠ tongĠ
guĠ dingĠ
Ġ ku
ĠzaiĠ youĠ
geĠ juĠ
ĠĠĠ 4
tai ĠheĠ
lun ĠshiĠ
Ġ cn
leĠ zheĠ
huan ĠxingĠ
ĠguoĠ neiĠ
shangĠ shengĠ
ĠweiĠyuĠ gaiĠ
ge ĠyuĠ
jie ĠliĠ
muĠ qian
boĠ linĠ
jueĠ duiĠ
hui ĠyiĠyuanĠ
zhengĠ xie
gong ĠliĠdeĠ
kou ĠdeĠ
ĠshiĠ yeĠ
ĠerĠ feiĠ
diaoĠ kuai
aiĠerĠ lanĠ
dao ĠweiĠ
xiaoĠ feiĠ
xiaĠ lingĠ
ĠfuĠ qinĠ
mianĠ duiĠ
1 ĠĠĠ
Ġ 187
ĠdeĠyiĠ shuĠ
ĠdongĠ nanĠ
san ĠweiĠ
ĠweiĠ UTCĠ
shengĠ diĠ
zhuĠyiĠ zheĠ
xiongĠ yaĠliĠ
lianĠheĠ huiĠ
Ġ genĠ
zhou ĠyiĠ
yanĠ haiĠ
Ġcn Ġ
ĠĠĠ jiaoĠtongĠ
zhu ĠheĠ
wen ĠheĠ
san ĠdaĠ
ĠerĠ qiĠ
ziĠ shenĠ
diaoĠkuai ĠyiĠxiaoĠshiĠ
cheng ĠyouĠ
zhang ĠyueĠ
chong ĠjiĠ
guoĠ huiĠ
liuĠ xiaĠ
luo ĠshiĠ
lao ĠshiĠ
ĠjiĠ UTCĠ
paiĠ qianĠ
sheĠyouĠ xiaĠlingĠshiĠjianĠ
ĠdeĠshiĠquĠweiĠ UTCĠ
ĠerĠgaiĠdiĠ suoĠcaiĠyong
ĠtongĠshiĠgaiĠdiĠ sheĠyouĠxiaĠlingĠshiĠjianĠ
ĠerĠgaiĠdiĠsuoĠcaiĠyong ĠdeĠshiĠquĠweiĠUTCĠ
ĠĠĠ maĠ
shu ĠrenĠ
nanĠ haiĠ
Ġling ĠyouĠ
mang Ġ
jingĠ gaoĠ
chuangĠ zaoĠ
jianĠliĠ leĠ
o ĠĠĠ
miĠshuĠ zhangĠ
bian ĠyiĠ
xiangĠ tongĠdeĠ
bingĠ feiĠ
guan ĠheĠ
zhang ĠheĠ
cai ĠdeĠ
biĠyeĠ houĠ
gaoĠyuĠ haiĠpingĠmianĠ
Ġ chi
dang ĠjiĠ
qun ĠzhongĠ
ru ĠdeĠ
ĠqiĠ fuĠ
lieĠ ruĠ
gaiĠ mingĠweiĠ
quĠdeĠ mianĠjiĠweiĠ
haiĠbaĠweiĠ gaoĠyuĠhaiĠpingĠmianĠ
Ġ sa
he ĠĠĠ
jinĠ xingĠdeĠ
fa ĠzhiĠ
xuan ĠzhongĠ
jingĠ duĠ
changĠ suoĠ
tan ĠxianĠ
ĠzhongĠ shanĠ
daĠ buĠfen
shouĠ xianĠ
guanĠ cha
ĠgeĠ quĠ
ĠqiĠzhongĠ baoĠkuoĠ
Ġsui ĠshiĠ
Ġ ziĠyouĠ
zhan ĠyuĠ
zhengĠ ce
buĠshiĠ quĠ
fang ĠjiĠ
daĠ louĠ
biaoĠ benĠ
da ĠyiĠ
st Ġ
Ġyue ĠyiĠ
Ġ shanĠxiĠ
shang ĠdiĠ
chao ĠyueĠ
Ġ 2025
Ġ 2015ĠnianĠ
pingĠ guĠ
ben ĠrenĠ
tiao ĠjieĠ
yanĠ seĠ
zhangĠ fuĠ
banĠ ben
cunĠ luoĠ
ĠhuoĠ dongĠ
Ġ rongĠ
dou ĠzaiĠ
tuĠ jingĠ
yi ĠshiĠdeĠ
suo ĠzaiĠdiĠ
shuang ĠdaĠ
qianĠ dingĠ
ĠluoĠ maĠ
ĠdaĠ luĠ
cheĠ xiangĠ
ji ĠĠĠ
li ĠdeĠ
gong ĠweiĠ
deng ĠzhiĠ
gongĠ neng
ĠmeiĠ yuanĠ
suoĠchuĠdeĠ haiĠbaĠweiĠgaoĠyuĠhaiĠpingĠmianĠ
changĠ jingĠ
danĠ baiĠ
Ġ shuoĠ
or Ġ
sheĠ xianĠ
feiĠ erĠdeĠ
tuiĠ xiuĠ
xiao ĠyuĠ
ĠbuĠ xiangĠ
duan ĠshiĠjianĠ
al ĠĠĠ
ĠzaiĠ taĠ
N Ġ
lai ĠsiĠ
yang ĠjiĠ
se ĠfuĠ
jianĠ kangĠ
shenĠ huaĠ
luoĠ faĠ
Ġer ĠdeĠ
san ĠrenĠ
huiĠ guiĠ
ĠerĠ buĠshiĠ
tiĠ xingĠ
ou ĠxiangĠ
yinĠ xiangĠ
ĠdeĠjiĠ luĠ
ĠĠĠ 2Ġ
yan ĠrenĠ
caiĠ nengĠ
yan ĠheĠ
quĠ zhuĠ
Ġwan ĠliĠ
ĠĠĠ anĠ
yin ĠyuĠ
luo ĠyuĠ
juĠ leĠ
naĠ xieĠ
Ġ Y
1978 ĠnianĠ
diĠ xiaĠ
zuĠqiuĠ duiĠ
mian ĠyiĠ
shuai ĠlingĠ
ĠqiĠ xuanĠ
yongĠ leĠ
Ġ xiaoĠshiĠ
ĠshiĠ beiĠ
zuĠ cheng
boĠ lan
yanĠ zhongĠdeĠ
ĠluĠ wa
keĠnengĠ huiĠ
Ġ Mi
ĠyiĠ shengĠ
ĠheĠ daoĠ
canĠ xuanĠ
chu ĠzhongĠ
kong ĠxiĠ
k ĠĠĠ
Ġnian ĠshiĠjieĠ
huĠ xiangĠ
quan ĠyiĠ
lianĠ luoĠ
ĠĠĠ diĠyiĠ
changĠ shangĠ
qingĠ jieĠ
zaiĠyiĠ qiĠ
9 ĠrenĠ
dan ĠshiĠ
zhou ĠliĠ
ĠzhongĠ gongĠzhongĠyangĠ
Ġ 2016ĠnianĠ
tu ĠjiĠ
beiĠ fangĠ
kai ĠdeĠ
tiĠgongĠ leĠ
guan ĠyiĠ
mu ĠerĠ
que ĠshiĠ
beiĠ siĠ
huaĠ jiaĠ
ĠmaĠ lai
Ġ 2007
Ġ 7Ġ
Ġ chaoĠxianĠ
shu ĠbuĠ
fa ĠyiĠ
ding ĠliĠ
xianĠ zhuĠ
duiĠ yingĠ
daiĠ lingĠ
zhenĠ quĠdeĠmianĠjiĠweiĠ
Ġ 2023
ĠĠĠ meiĠ
dai ĠweiĠ
ĠzhiĠ shuĠ
ziĠ chanĠ
faĠ shengĠzaiĠ
zhong ĠyiĠyuanĠ
zhu ĠzhongĠ
nei ĠdiĠ
zhengĠ bianĠ
qian ĠyueĠ
ceng ĠdeĠ
heĠ liuĠ
fuĠ xingĠ
mianĠ feiĠ
ĠshouĠ daoĠ
zuĠqiuĠ juĠleĠbuĠ
ĠĠĠ 2008
qian ĠxiĠ
kao ĠshiĠ
diĠ quĠdeĠ
geĠ guoĠ
baoĠ luoĠ
zuiĠ duoĠ
suĠ geĠlanĠ
ti ĠheĠ
shang ĠjiĠ
yan ĠjiĠ
bing ĠyuĠ
she ĠzaiĠ
ziĠ xun
guanĠ ceĠ
zhuanĠ menĠ
muĠsiĠ linĠ
ru ĠweiĠ
kaĠ laĠ
ĠshouĠ ciĠ
ĠyuanĠ mingĠ
ĠĠĠ xingĠ
shen ĠyiĠ
sheĠ jiĠshiĠ
Ġ 2ĠyueĠ
san ĠbuĠ
zhongĠ yao
wuĠ guanĠ
baoĠ cunĠ
tianĠ houĠ
yang ĠxingĠ
ĠyuĠ xiĠ
zhongĠguoĠ daĠluĠ
ĠbuĠ laĠ
feiĠ yanĠ
mianĠ dianĠ
zaoĠ shangĠ
ĠĠĠ yanĠ
ll Ġ
le ĠdeĠ
duo ĠnianĠ
Ġ 26
xue ĠzhongĠ
qing ĠrenĠ
chu ĠweiĠ
ping ĠguoĠ
tui ĠjianĠ
liao ĠdeĠ
cu Ġ
quanĠ xianĠ
gengĠ xinĠ
ĠĠĠ ran
guoĠ neiĠ
diĠ wuĠ
chuanĠ tongĠdeĠ
ĠbeiĠ chengĠweiĠ
gao ĠshiĠ
juĠ fengĠ
wanĠ zhengĠ
lang ĠzhongĠ
shouĠ quanĠ
ĠxiangĠ guanĠ
shu ĠzaiĠ
pian ĠzhongĠ
tongĠ xunĠ
Ġ shao
hua ĠzaiĠ
bianĠ jingĠ
shanĠ xianĠ
Ġ kan
jue ĠyuĠ
miao ĠhuiĠ
1958 ĠnianĠ
yuanĠ xianĠ
xieĠ zuoĠ
zan ĠzhuĠ
Ġ 50
cheng ĠzaiĠ
mu ĠyuĠ
ĠliĠ chengĠ
guiĠ mo
ju ĠzaiĠ
ba ĠsiĠ
geĠ laĠ
faĠ mingĠ
luoĠ shanĠjiĠ
Ġ 2019ĠnianĠ
li ĠziĠ
feng ĠdeĠ
ĠshiĠ jiaĠ
cheĠ changĠ
tuĠ shuĠ
ĠĠĠ gongĠ
1979 ĠnianĠ
ĠzhiĠ waiĠ
xingĠ muĠ
ĠdiĠ qiuĠ
Ġ jueĠdingĠ
ba ĠdaĠ
ve Ġ
piĠ zhun
Ġ lv
xianĠ ruĠ
jinĠ riĠ
zhangĠ zhuanĠjiĠ
ĠzuiĠ gaoĠ
Ġ 25
Ġ peng
xian ĠzhongĠ
tun Ġ
quĠ jianĠ
1972 ĠnianĠ
fuĠ zhuĠ
Ġ hei
xing ĠzaiĠ
ĠbiĠ saiĠ
beiĠrenĠ mingĠweiĠ
Ġ nuoĠ
ĠĠĠ renĠ
yin Ġyue
zhou ĠrenĠ
jiang ĠyiĠ
pingĠ lun
ĠshanĠ dongĠ
guoĠminĠ dangĠ
dui ĠzhongĠ
ĠyouĠ zaiĠ
jiuĠ yuanĠ
Ġ lianĠheĠ
liang ĠheĠ
bian ĠzhiĠ
ĠshiĠ taĠ
ĠdeĠshiĠ yongĠ
gai ĠzhiĠweiĠ
ĠliĠ liangĠ
chuĠ zhangĠ
luo ĠliĠdaĠ
lin ĠsiĠ
ĠyuĠ beiĠ
juĠ benĠ
jiaoĠ duĠ
tianĠ zhuĠ
Ġ 2017ĠnianĠ
ĠdiĠ diĠ
xiaoĠ yingĠ
zaoĠ chengĠdeĠ
u Ġ
Ġ ge
Ġ sang
su ĠliĠ
shouĠ boĠ
shangĠ xianĠ
ĠshiĠjianĠ zhuĠ
Ġhuo ĠshiĠ
ban ĠjiĠ
zhangĠ ziĠ
huĠ lianĠ
Ġ 2018ĠnianĠ
ao ĠerĠ
Ġ tang
zhanĠ muĠsiĠ
Ġ shuang
ai ĠliĠ
ĠĠĠ dongĠ
fuĠ shuĠ
yun ĠdeĠ
lie ĠshiĠ
tou ĠxianĠ
luĠ zhanĠ
ĠhouĠ zheĠ
1 ĠgeĠ
ĠĠĠ geĠrenĠ
ding ĠjiĠ
ĠweiĠ beiĠ
yunĠ yongĠ
ĠĠĠ duiĠ
ma ĠshiĠ
ĠpuĠ taoĠ
Ġ kouĠ
ĠĠĠ nanĠ
huai ĠyiĠ
Ġci ĠnianĠ
Ġ zuĠzhiĠ
xia ĠzaiĠ
xu ĠjiĠ
ĠyiĠ dongĠ
ĠweiĠyuĠ zhongĠguoĠ
ĠĠĠ baĠ
guan ĠjiĠ
ĠyingĠ wenĠ
can ĠyiĠ
diĠ qiĠ
huoĠ cheĠ
miĠ niĠ
qiangĠ duĠ
Ġ zaĠzhiĠ
yao ĠshiĠ
ĠdiĠ yaĠ
leiĠ siĠdeĠ
Ġai ĠerĠ
shao ĠdeĠ
ĠzhiĠ buĠ
baoĠ hu
xinĠ guanĠ
huoĠ biĠ
Ġ lunĠ
zha ĠdanĠ
chai Ġ
jiaoĠ chaĠ
minĠ zu
chuanĠ meiĠ
ba ĠerĠ
17 Ġ
juĠ banĠdeĠ
xueĠ keĠ
naĠ xiaĠ
ĠgaiĠ bianĠ
dao ĠzaiĠ
ĠshiĠ chengĠ
bingĠ duĠ
canĠ tingĠ
xingĠzhengĠ quĠ
ĠxuĠ yaoĠ
ch Ġ
ĠxinĠ wenĠ
Ġming ĠzhiĠ
ĠĠĠzengĠ zuĠ
ĠzhongĠ xingĠ
xiĠ nanĠbuĠ
taiĠ houĠ
zuiĠ zao
ĠĠĠ 10
xinĠjiaĠ po
ĠĠĠ 2009
wu ĠyueĠ
zheng ĠjiĠ
luo ĠyiĠ
ĠshiĠyiĠ keĠ
gan ĠyuĠ
xiangĠ faĠ
tiĠ chuĠdeĠ
Ġ 35
fa ĠliĠ
ĠshiĠ erĠ
ĠdaĠ buĠfen
Ġ hangĠ
pin ĠdeĠ
juĠ ban
taiĠ kongĠ
zhuanĠ xieĠ
3Ġ haoĠ
Ġ 2006
xi ĠyouĠ
chu ĠguoĠ
xue ĠliĠ
zhe ĠheĠ
zong ĠyiĠ
bai ĠyuĠ
ĠrenĠ weiĠshiĠ
jueĠ sai
ĠshiĠshiĠ yongĠ
zong ĠrenĠkouĠ
teĠ quĠ
suiĠ ran
ĠbingĠ beiĠ
faĠ xianĠdeĠ
ĠxiĠ yinĠ
qingĠ zhuĠ
Ġ 29
jiang ĠliĠ
zhuĠ daoĠ
meiĠ junĠ
Ġ chunĠ
xue ĠjiĠ
tongĠ xinĠ
aĠ genĠ
Ġ 2004ĠnianĠ
ĠzhongĠ dianĠ
shangĠ wangĠ
Ġ yanĠjiuĠ
ĠĠĠ houĠ
ba ĠdeĠ
jinĠ rong
jiaoĠ huanĠ
wuĠzhengĠzhuangĠ ganĠranĠzheĠ
Ġ 2021ĠnianĠ
xing ĠshiĠdeĠ
mi ĠsiĠ
su ĠzhiĠ
tou ĠdeĠ
chengĠ leĠ
Ġma ĠliĠ
sheĠ jiaoĠ
ĠchuĠ banĠ
te ĠjiĠ
sui ĠzheĠ
duanĠ pianĠ
Ġ mao
shen ĠyuĠ
1976 ĠnianĠ
geĠ ziĠ
ĠdiĠ zaiĠ
xinĠ jianĠ
zuĠ jieĠ
ĠdeĠyiĠ yuanĠ
ju ĠzhiĠ
dian ĠweiĠ
min ĠyiĠ
qiĠ zhongĠ
ĠshiĠrenĠ minĠ
xianĠzhiĠ xianĠ
Ġ shui
ĠĠĠ liuĠ
xian ĠliĠ
ta ĠyiĠ
dui ĠjiĠ
1960 ĠnianĠ
daĠ xiaoĠ
Ġ 27
Ġ shun
che ĠdiĠ
fangĠ mian
ĠĠĠ In
shou ĠbuĠ
chuan ĠqiĠ
faĠ sheng
guĠ laĠ
huangĠ seĠ
ĠĠĠ tianĠ
zhengĠ quĠ
biĠ xu
yong ĠzaiĠ
te ĠheĠ
ĠdeĠ huaĠ
huoĠ shengĠ
teĠ dianĠ
Ġta ĠheĠ
ĠĠĠshiĠ yongĠ
Ġ 60
Ġ weiĠyiĠ
Ġ 2020ĠnianĠ
du ĠguoĠ
zhang ĠzhiĠ
zan ĠshiĠ
qiĠ laiĠ
xiĠ beiĠbuĠ
siĠ daĠ
zui ĠdiĠ
1920 ĠnianĠ
luoĠ chengĠ
zuiĠ zaoĠ
yunĠ dongĠdeĠ
bangĠ qiuĠ
buĠdeĠ cunĠzhuangĠ
lin ĠjinĠ
gaoĠ duĠweiĠ
ĠyouĠ zhuĠ
¡ Ġ
lai ĠyuĠ
leĠ yuanĠ
gangĠ kouĠ
xunĠ lian
gongĠyuanĠ qianĠ
ci ĠdiĠ
wuĠ diĠ
chengĠ jiuĠ
xinĠ jiangĠ
gongĠzuo ĠshiĠ
an ĠzhiĠ
ĠshuangĠ fangĠ
dang ĠnianĠ
ĠgongĠ yeĠ
23 Ġ
qiĠ cheĠ
lingĠ chenĠ
dan ĠdaĠ
yong ĠjiĠ
1980 ĠnianĠdaiĠ
ĠshiĠ houĠ
xianĠ chengĠ
faĠ tingĠ
han ĠziĠ
ĠyiĠ gongĠ
zhongĠ huaĠminĠguoĠ
changĠ biĠsaiĠ
shanĠ maiĠ
ĠdeĠyiĠ xieĠ
chuĠbanĠ sheĠ
jingĠneiĠ gongĠyouĠ
Ġ Q
san ĠzhongĠ
ĠyiĠ qianĠ
shengĠ daoĠ
ĠgeĠ shouĠ
hui ĠweiĠ
jiangĠ shuĠ
sanĠ mingĠ
Ġ10 Ġ
Ġ nengĠ
dao ĠyouĠ
hou ĠjiĠ
xianĠ shangĠ
xinĠ jieĠ
ĠxiangĠ muĠ
Ġ Jo
xiao ĠliĠyuĠ
qiĠ houĠ
ĠjiaĠ laĠ
Ġ dianĠshiĠ
daĠ diĠ
lieĠ chuĠ
Ġ 30Ġ
cheng ĠzhiĠweiĠ
xiu ĠdaoĠ
Ġ dunĠ
ĠdaĠ jiaĠ
henĠ kuaiĠ
Ġzhao ĠheĠ
Ġ ì
hai ĠzaiĠ
ĠheĠ liuĠ
zanĠ tingĠ
Ġ ceĠ
bi ĠliĠshiĠ
bai ĠkeĠ
ĠyiĠ bianĠ
laiĠ yinĠ
ĠĠĠ daoĠ
ruan ĠtiĠ
th Ġ
jianĠ duĠ
yeĠ fuĠ
Ġta ĠyouĠ
ĠerĠgaiĠ diĠdeĠ
tong ĠheĠ
ĠdaĠ jiangĠ
ĠdanĠ yinĠ
Ġ i
jin ĠyuĠ
Ġtong ĠyiĠ
ĠliangĠ geĠ
dui ĠheĠ
huo ĠzaiĠ
tiĠ daiĠ
qianĠ tingĠ
ĠĠĠgaiĠ yaoĠ
ĠbuĠ daoĠ
chengĠ quĠ
xiangĠ yingĠ
ĠqiĠ bingĠ
ĠcaiĠ yongĠ
ĠweiĠfuĠqiĠyuĠ gang
ao ĠdeĠ
fa ĠjiĠ
dui ĠdiĠ
ya ĠrenĠ
1990 ĠnianĠdaiĠ
ĠliĠ fuĠ
jingĠ guanĠ
qianĠ jinĠ
wangĠ wangĠ
ĠtaĠmen ĠzaiĠ
tan ĠheĠ
faĠ dongĠjiĠ
ĠzuiĠ chuĠ
Ġ zhuanĠjiĠ
que ĠbaoĠ
maĠ touĠ
Ġ X
an ĠliĠ
xing ĠyouĠ
pin ĠzhongĠ
qun ĠtiĠ
ĠqiĠ heĠ
bianĠ yuanĠ
buĠ menĠ
yun ĠheĠ
na ĠheĠ
Ã© Ġ
fuĠ haoĠ
pingĠ yuanĠ
ĠdeĠshiĠ jiĠ
shuĠ chuĠ
Ġ jinĠshiĠ
chang ĠjiĠ
kuo ĠjianĠ
ĠtaĠ renĠweiĠ
dian ĠshiĠjieĠ
siĠ lanĠ
fenĠ peiĠ
ĠĠĠjiaĠ tingĠ
ĠyueĠ duiĠ
ĠxiĠ tongĠdeĠ
juĠ yuanĠ
yeĠ keĠyiĠ
guiĠ fanĠ
Ġ tao
Ġ 2002ĠnianĠ
jiu ĠzaiĠ
wuĠ shuĠ
beiĠ jing
sheĠ dingĠ
chuangĠ zuoĠdeĠ
leĠyiĠ xieĠ
Ġ 40
fuĠ za
daĠshiĠ guanĠ
riĠben ĠdeĠ
dan ĠyiĠ
Ġli ĠliĠ
jiaoĠ tang
suiĠ ranĠ
canĠ shuĠ
tuiĠ guangĠ
senĠ lin
e ĠguoĠ
Ġ Ro
ĠĠĠ shouĠ
ma ĠkeĠsiĠ
qiu ĠshiĠ
pei ĠbeiĠ
jieĠ duan
quĠ fenĠ
Ġxian ĠweiĠ
ĠzhongĠguoĠrenĠminĠ jieĠfangĠjunĠ
xuan ĠshiĠ
fuĠ muĠ
wuĠ zhuang
saiĠ erĠweiĠ
gengĠ duoĠdeĠ
Ġ Re
Ġ nongĠ
changĠ duĠ
tieĠluĠ cheĠzhanĠ
la ĠweiĠ
beiĠ daĠ
qianĠ shenĠ
yaĠ muĠ
ĠyouĠ liangĠ
ĠzhongĠ jianĠ
ĠĠĠ wangĠ
wan ĠliĠ
duo ĠerĠ
1956 ĠnianĠ
1964 ĠnianĠ
ĠyiĠ meiĠ
zhongĠ buĠ
ĠqiĠ zhong
Ġ guang
Ġ 1970
ĠbuĠ siĠ
shangĠ zhenĠ
baoĠ han
duiĠ fangĠ
deng ĠyuĠ
yeĠ jianĠ
yeĠ shengĠyaĠ
5 ĠgeĠ
wang ĠweiĠ
dou ĠbeiĠ
mai ĠdeĠ
zeĠ dongĠ
zhang ĠjiĠ
ceng ĠshiĠ
chengĠ weiĠyiĠ
Ġ cunĠ
yanĠ jingĠ
banĠ jiangĠ
buĠdeĠ buĠ
al Ġ
ĠzaiĠ neiĠdeĠ
dengĠ changĠ
tuĠ xiangĠ
an ĠjiĠ
shan ĠdiĠ
chuĠ ziĠ
qingĠ chaoĠ
Ġ sunĠ
wen ĠjiĠ
tou ĠbuĠ
ĠgongĠ qingĠ
jun ĠbuĠ
cong ĠweiĠ
huang ĠjinĠ
keĠ yunĠ
teĠ laĠ
suĠ lian
yeĠ shengĠ
x ĠĠĠ
Ġ p
1981 ĠnianĠ
1968 ĠnianĠ
ĠjieĠ shuĠ
lvĠ seĠ
Ġ 8Ġ
xing ĠliĠ
zheĠ yangĠ
banĠ yanĠ
kaiĠ gongĠ
du ĠjiĠ
nan ĠsiĠ
Ġ 45
zhuĠ ceĠ
ĠshiĠshiĠ shangĠ
aĠlaĠ bo
shen ĠkeĠ
chen ĠjiĠ
ĠzaiĠ heĠ
riĠ baoĠ
dangĠ tianĠ
chiĠ xu
ĠziĠ yuanĠ
bei ĠliĠ
zhe ĠzhiĠ
che ĠshiĠ
ĠxiĠ anĠ
xieĠ shangĠ
le ĠdiĠ
xianĠ dai
jinĠ quĠ
fenĠ zhiĠyiĠ
ĠdeĠjiĠ huaĠ
Ġ tun
qu ĠyouĠ
hao ĠyouĠ
ĠqiĠ dongĠ
luĠ shangĠ
ĠfuĠzeĠ guanĠxiaĠ
mu ĠheĠ
deng ĠshiĠ
ze ĠyuĠ
wai ĠweiĠ
zhuan ĠweiĠ
seĠ lie
ĠshiĠshiĠ jiĠ
quan ĠjiĠ
dongĠ xianĠ
xiaoĠ jieĠ
O ĠĠĠ
Ġ wa
dui ĠzhiĠ
weiĠ yuanĠ
shenĠ meĠ
baiĠ wanĠ
Ġ Ï
Ġ bao
xiangĠ qiĠ
cheĠ duiĠ
haoĠ pingĠ
e ĠdeĠ
ĠĠĠ chengĠ
section ĠĠĠ
ĠyiĠ nian
fuĠ erĠ
zhengĠ shuĠ
shouĠ shuĠ
ĠfenĠ bieĠ
ĠĠĠ guĠ
qu ĠzhongĠ
sha ĠdeĠ
ss Ġ
ĠnianĠ qingĠ
daĠ duoĠ
fanĠ ying
zongĠ jianĠ
bing ĠzaiĠ
ĠqiĠ xiĠzaiĠ
mianĠ tiĠ
daiĠbiaoĠ tuanĠ
ĠyiĠ keĠ
ĠzhongĠ qiĠ
xiaoĠ liangĠ
xuanĠ chengĠ
feiĠlvĠ bin
hang ĠyeĠ
teĠ leiĠ
ĠbaoĠ huĠ
Ġbing ĠbuĠ
Ġ sectionĠĠĠ
biao ĠjiĠ
lie ĠsiĠ
yuanĠ benĠ
laiĠ naĠ
canĠ jia
Ġ pi
ĠĠĠ Co
ĠĠĠ zhangĠ
zhan ĠweiĠyuĠ
feng ĠshiĠ
1948 ĠnianĠ
ĠgeĠ leiĠ
zong ĠzhiĠ
ĠheĠ qiĠtaĠ
haiĠ shangĠ
tuĠ chuĠ
ĠĠĠran ĠerĠ
chang ĠdaĠ
jiang ĠyouĠ
bai ĠzhiĠ
niao ĠleiĠ
ĠgongĠ kaiĠ
ĠlianĠ jieĠ
ĠĠĠ The
zhan ĠyouĠ
fenĠ siĠ
ĠqiĠzhongĠ nanĠxingĠ
ĠjiangĠ suĠ
ĠĠĠ guangĠ
ni ĠxiĠyaĠ
jinĠ zhanĠ
baoĠ zha
ĠsiĠ daĠ
Ġ sai
liang ĠbuĠ
hai ĠdiĠ
xie ĠweiĠ
moĠ niĠ
zhongĠguoĠ renĠminĠ
Ġ jianĠliĠ
bi ĠerĠ
zhang ĠyiĠ
ĠshiĠ xiĠ
yanĠ anĠ
shenĠ zhenĠ
puĠtaoĠ yaĠ
xingĠ dong
gongĠ daĠ
geĠ buĠ
ĠĠĠgenĠjuĠ 2020ĠnianĠmeiĠguoĠrenĠkouĠpuĠchaĠdeĠshuĠjuĠ
ju ĠweiĠ
lu ĠyiĠsiĠ
xia ĠdiĠquĠ
ding ĠxingĠ
changĠ jiangĠ
ĠB Ġ
zai ĠyiĠgeĠ
zhan ĠweiĠ
ĠshiĠ buĠ
ĠguoĠ wuĠyuanĠ
daoĠ danĠ
laiĠ ziĠyuĠ
feiĠ yongĠ
Ġliu ĠyuĠ
Ġ fou
Ġ 2024
Ġ Co
ĠĠĠ jingĠjiĠ
hou ĠzhiĠ
chuĠ xianĠdeĠ
xiaoĠ xiangĠ
ĠĠĠ 0
ĠĠĠ 2019ĠnianĠ
gong ĠyueĠ
jiao ĠdiĠ
lu ĠheĠ
zhengĠ mianĠ
1975 ĠnianĠ
1952 ĠnianĠ
ĠyouĠ suoĠ
gongĠkaiĠ saiĠ
Ġ 2000ĠnianĠ
ha ĠliĠ
ĠguoĠ jiaĠdeĠ
ziĠ benĠ
ĠjinĠ shuĠ
kuoĠ zhangĠ
ĠĠĠ s
dang ĠzaiĠ
1966 ĠnianĠ
Ġ 2005
Ġ zuiĠjiaĠ
hou ĠbuĠ
tian ĠjiaĠ
qiong Ġ
xueĠ yeĠ
yuanĠzhuĠ minĠ
1946 ĠnianĠ
fuĠ zhouĠ
ĠweiĠyuanĠhui ĠweiĠyuanĠ
Ġ 200
shu ĠdeĠzhiĠwuĠ
bei ĠyueĠ
wang ĠjiĠ
keĠ erĠ
beiĠ poĠ
yanĠ jiangĠ
taiĠ nanĠ
xuanĠ juĠzhongĠ
huo ĠliĠ
shui ĠdeĠ
gan ĠxianĠ
juĠ min
leĠ duiĠ
zhanĠ shuĠ
ĠshiĠyiĠ zuoĠ
Ġ SA
fa ĠheĠ
duo ĠshiĠ
cha ĠshiĠ
zheĠ yangĠdeĠ
ĠshiĠdeĠ shiĠ
ĠĠĠqiĠ zhongĠ
Ġ kaoĠ
zu ĠrenĠ
lai ĠkeĠ
hant Ġ
ĠzaiĠ buĠ
shaoĠ nvĠ
chengĠliĠ houĠ
ĠjiĠjinĠ huiĠ
nanĠjiĠ zhouĠdeĠ
guĠfen ĠyouĠxianĠgongĠsiĠ
yang ĠheĠ
gan ĠdeĠ
wo ĠerĠ
guĠ dianĠ
daĠ guiĠmoĠ
jianĠ kang
huiĠ daĠ
ĠdiĠ tuĠ
wenĠ tiĠdeĠ
meiĠ guo
zongĠ caiĠ
ĠweiĠfuĠqiĠyuĠ gangĠ
Ġ hantĠ
duo ĠliĠyaĠ
gongĠ anĠ
ĠguoĠ gongĠ
chuĠ changĠ
ĠqianĠ wangĠ
ya ĠzhongĠ
nuo ĠyiĠ
keĠ luoĠ
canĠ kao
reĠdaiĠ fengĠbaoĠ
ing Ġ
hu ĠxiĠ
zuo ĠzhiĠ
shuai Ġling
ĠyuĠ diĠ
ĠzhongĠ wenĠ
Ġta ĠjiĠ
Ġ niuĠ
ĠĠĠ zhuĠyaoĠ
bie ĠdeĠ
xinĠ taiĠ
ĠS Ġ
ĠĠĠ 16
men ĠshiĠ
gongĠ jiaoĠ
zhuĠ banĠ
ĠshiĠyiĠ zhiĠ
zuoĠ faĠ
ĠdaĠ erĠ
naĠ shengĠ
meiĠguoĠ renĠ
zhuanĠ yongĠ
cunĠ zaiĠdeĠ
hangĠ tianĠ
ĠguanĠ fangĠ
Ġ lei
ru ĠyiĠ
100 Ġ
1947 ĠnianĠ
xianĠdeĠyiĠgeĠ feiĠjianĠzhiĠdiĠquĠ
Ġ 2022ĠnianĠ
ĠshiĠ faĠ
ĠzhiĠ shaoĠ
fangĠ miĠ
ĠĠĠ fanĠ
qun ĠdeĠ
ĠzhiĠ jingĠ
1Ġ ri
youĠyiĠ xieĠ
ĠlingĠ wai
mei ĠshiĠ
ding ĠzaiĠ
luĠ wa
ĠxingĠ jianĠ
ĠThe ĠĠĠ
Ġ touĠguoĠ
xue ĠbuĠ
lan ĠyuĠ
ck Ġ
e ĠweiĠ
rao ĠtaiĠyangĠ
1937 ĠnianĠ
liangĠ ziĠ
maĠ laiĠ
ĠnianĠyiĠ laiĠ
shang ĠweiĠyouĠ
bao ĠheĠ
jiu ĠyouĠ
ĠyiĠ xueĠ
ciĠ quĠ
duiĠ kangĠ
xieĠ dingĠ
Ġ yong
Ġ luo
Ġ 2003ĠnianĠ
ing ĠĠĠ
ying ĠerĠ
niang Ġ
ĠĠĠ 2007
ta ĠrenĠ
Ġyue ĠheĠ
duĠ huiĠ
ban ĠrenĠ
chuan ĠguoĠ
ĠshiĠ bingĠ
wuĠ geĠ
sanĠ ciĠ
ĠzheĠ yangĠ
shang ĠheĠ
xuanĠ chuĠ
zongĠ huiĠ
ĠfaĠ zhanĠ
ĠĠĠ jiangĠ
ĠĠĠ 3ĠyueĠ
ge ĠzaiĠ
II Ġ
ĠyiĠ daĠ
boĠ jueĠ
Ġri ĠyouĠ
ĠxinĠ zengĠ
guoĠjiaĠ duiĠ
ĠĠĠqiĠ houĠ
jiaoĠ jieĠ
haiĠbaĠ gaoĠduĠweiĠ
guang ĠdeĠ
ĠyiĠ heĠ
gongĠ jueĠ
leiĠ xingĠdeĠ
ĠshiĠyongĠ leĠ
Ġdang ĠshiĠdeĠ
jiaoĠyuĠ buĠ
wu ĠyouĠ
wenĠ ti
ĠfuĠ qin
ĠjinĠ ru
Ġdan ĠqiĠ
ta ĠheĠ
wang ĠyuĠ
wai ĠxingĠ
gen ĠsuiĠ
ĠyiĠ waiĠ
xingĠ zheng
yanĠ lunĠ
ĠsiĠ taĠ
ĠrenĠminĠ biĠ
fenĠbie ĠweiĠ
Ġ ouĠzhouĠ
jin ĠzaiĠ
ĠdaoĠ yanĠ
nongĠ cun
v Ġ
wang ĠzhiĠ
1954 ĠnianĠ
ĠyiĠ chanĠ
sheĠ yingĠ
lianĠ sai
gaoĠ xiaoĠ
jianĠzhuĠ wuĠ
zhanĠ changĠ
xuanĠ ju
duanĠ zan
ĠdeĠjiĠ huiĠ
qiaoĠ liangĠ
ĠĠĠ yueĠ
ĠĠĠ pingĠjiaĠ
jingĠ saiĠ
ĠpingĠ taiĠ
Ġdan ĠweiĠ
xunĠyangĠ jianĠ
ĠĠĠ faĠ
tuan ĠjieĠ
song ĠdaoĠ
th ĠĠĠ
guoĠ chengĠ
shuĠ muĠ
shouĠ faĠ
fenĠ jieĠ
quanĠ shuĠ
ĠdeĠyiĠ meiĠ
ĠshiĠyiĠ daĠliĠ
Ġ ziĠjiĠ
ĠĠĠ luoĠ
ĠyiĠ xiangĠ
ĠkeĠ luoĠ
zuiĠ zaoĠdeĠ
cengĠ shuiĠyuĠ
a ĠfuĠ
ĠĠĠ chuĠleĠ
xin ĠzhongĠ
shouĠ duanĠ
Ġjiang ĠqiĠ
xiaĠyiĠ xiaĠdiĠquĠ
yingĠxiang ĠliĠ
Ġ chengĠliĠyuĠ
guo ĠshiĠqiĠ
pu ĠliĠ
pingĠ jieĠ
W Ġ
ci ĠzhongĠ
ĠnianĠ lingĠ
xunĠ zhaoĠ
zhuanĠdeĠ xiaoĠxingĠxingĠ
bei ĠheĠ
fa ĠweiĠ
jiaĠ mengĠ
jiangĠ beiĠ
guoĠjiĠjiĠ changĠ
Ġ chao
hua ĠerĠ
guoĠ wuĠyuanĠ
wuĠ zhongĠdeĠ
ĠdiĠ dianĠ
ĠdiĠ liuĠ
juĠ daĠdeĠ
wangĠ ziĠ
ru ĠyuĠ
wang ĠsiĠ
ĠliĠ gongĠ
ĠdeĠshiĠ wuĠ
pinĠ lvĠ
zheĠjiangĠ shengĠ
ĠĠĠ 5ĠyueĠ
zhe ĠyuĠ
10 ĠnianĠ
ĠyiĠ erĠ
ĠjiĠ xingĠ
zheng ĠqiĠ
huang ĠshiĠ
wangĠ shangĠ
Ġ shen
ya ĠzhiĠ
hao ĠyuĠ
guai Ġ
zuĠ xieĠ
zhengĠshiĠ qiĠ
shanĠdongĠ shengĠ
ĠzaiĠ jinĠ
mingĠ juĠrenĠ
tiĠ chuĠleĠ
guangĠ fan
Ġ min
Ġ keĠliĠ
Ġ chuĠrenĠ
1955 ĠnianĠ
ĠshiĠ baĠ
anĠ zhuang
yaoĠ gun
Ġ bangĠ
ĠĠĠ 190
song ĠdeĠ
1974 ĠnianĠ
huoĠ yunĠ
lianĠ tongĠ
a ĠliĠ
Ġ huai
ĠĠĠ de
sheng ĠbuĠ
xiao ĠyouĠ
gao ĠdiĠ
la ĠerĠ
xianĠ zhangĠ
faĠ shengĠdeĠ
baoĠ zhaĠ
yinĠ yongĠ
Ġ sanĠshiĠ
ĠshiĠ jiĠdeĠ
pingĠ minĠ
zhuangĠ kuang
liĠ lunĠ
zaoĠ shouĠ
pingĠjunĠ haiĠbaĠgaoĠduĠweiĠ
xunĠ qiuĠ
6 ĠgeĠ
si ĠyouĠ
zhan ĠzaiĠ
duĠ duĠ
danĠ shuiĠ
yangĠ xianĠ
neiĠ zhanĠ
shaoĠ jiangĠ
ĠĠĠ shenĠ
yin ĠzhongĠzaiĠ
tai ĠerĠ
ru ĠshiĠ
shuo ĠdeĠ
ty Ġ
guĠ fenĠ
ĠzheĠ ciĠ
ganĠ suĠ
ĠnianĠqiĠ jianĠ
ĠerĠgaiĠdiĠdeĠ pingĠjunĠhaiĠbaĠgaoĠduĠweiĠ
jiang ĠzhongĠ
ĠliĠ xueĠ
shangĠ dianĠ
Ġ co
Ġ quĠdeĠ
luo ĠzaiĠ
ma ĠliĠyaĠ
shun ĠshiĠ
chai ĠyouĠjiĠ
chengĠ huĠ
zengĠ qiangĠ
ĠhanĠ zuĠ
2010ĠnianĠ meiĠguoĠrenĠkouĠpuĠchaĠdeĠshuĠjuĠ
shuoĠshiĠ xueĠweiĠ
yinĠzhongĠzaiĠ peiĠ
da ĠzaiĠ
yang ĠzhiĠ
qie ĠerĠ
juĠ tiĠ
jiaoĠ fuĠ
wenĠ huaĠdeĠ
boĠ luoĠ
ĠfaĠ shengĠ
ĠĠĠ 12
ying ĠdiĠ
dai ĠyuĠ
mao ĠxianĠ
faĠ lingĠ
baoĠ xianĠ
yingĠ zhanĠ
qingĠ xiangĠ
5Ġ gongĠliĠ
zuo ĠyuĠ
su ĠshiĠ
ĠbuĠ neng
ĠdaĠ xiĠyangĠ
ĠbiĠ yeĠ
Ġgai ĠweiĠ
Ġ anĠdeĠ
an ĠzhongĠ
ĠĠĠ 2018ĠnianĠ
ban ĠyuĠ
daiĠ maĠ
ĠgongĠ buĠ
renĠgongĠ yinĠzhongĠzaiĠpeiĠ
yi ĠshiĠyongĠ
qing ĠyiĠ
suo ĠyiĠ
jiangĠ taĠ
naĠ ruĠ
Ġkang ĠxiĠ
Ġ 2000
ĠjiĠ liĠ
xunĠ huanĠ
tuiĠ chuĠdeĠ
xiangĠshiĠ diĠ
Ġ mu
mingĠ jinĠshiĠ
jiaoĠ zuoĠ
banĠ ciĠ
lingĠ daoĠdeĠ
ĠbaoĠ daoĠ
ĠxueĠ shengĠ
ĠheĠ yueĠ
dianĠ yingĠdeĠ
ĠquanĠ zhangĠ
Ġ chun
Ġ ruan
Ġ diaoĠ
qu ĠzaiĠ
ye ĠzhiĠ
zhang ĠzaiĠ
1977 ĠnianĠ
ĠheĠ panĠ
chengĠ fenĠ
ĠdaĠ louĠ
guiĠ zhouĠ
ĠxianĠ daiĠ
ĠĠĠ taiĠwanĠ
zheng ĠyueĠ
30 ĠnianĠ
reng ĠyouĠ
zhuĠ zhai
baoĠ chi
diĠyiĠ renĠ
yanĠjiuĠ shengĠ
Ġ cui
ĠĠĠ 2006
fuĠ gaiĠ
faĠ zhanĠdeĠ
xiang ĠzhiĠ
zheng ĠyuĠ
duiĠ yuanĠ
caiĠ chanĠ
ĠshengĠ zhangĠyuĠ
canĠ guanĠ
panĠ jueĠ
ĠyuĠciĠ tongĠshiĠ
Ġ cu
zhuĠ ruĠ
benĠ xianĠ
ĠjuĠ minĠ
hongĠ junĠ
chanĠshengĠ leĠ
bi ĠshiĠ
duo ĠfuĠ
junĠ tuanĠ
xuĠ shuĠ
zhan ĠheĠ
xia ĠzhiĠ
mian ĠyuĠ
zhen ĠrenĠ
dianĠ ziĠyouĠ
huoĠ wuĠ
te ĠyuĠ
fuĠ ze
wanĠ quan
teĠ langĠ
tanĠ dingĠ
ya ĠshiĠ
zhen ĠheĠ
rang ĠtaĠ
shengĠ muĠ
tiĠ jiaoĠ
douĠ zhengĠ
suĠweiĠ aiĠ
Ġ pianĠ
shu ĠqiĠ
lu ĠzaiĠ
changĠ beiĠ
ĠĠĠ 10ĠyueĠ
20 ĠnianĠ
zhuang ĠbingĠduĠ
zhiĠ chiĠ
jieĠ duĠshiĠ
fenĠ quĠ
ĠbeiĠ keĠ
Ġ000 ĠrenĠ
ci ĠyouĠ
50 ĠnianĠ
yinĠ jingĠ
Ġ gongĠjiĠ
shang ĠzhiĠ
ping ĠshiĠ
qiang ĠjiĠ
daĠ buĠ
jianĠ she
yanĠ huaĠ
yingĠ duiĠ
ĠjiaĠ jingĠ
ĠjuĠ qingĠ
ĠsuĠ lianĠ
Ġ leĠ
zheng ĠliĠ
km Ġ
dongĠ niĠ
jiaoĠ keĠ
qianĠ houĠ
ĠfuĠ leiĠ
chuĠxianĠ leĠ
huaĠshengĠ dunĠ
ai ĠguoĠ
dongĠ cheĠ
R ĠĠĠ
le ĠweiĠ
ku ĠdeĠ
sheng ĠzhongĠ
huan ĠjieĠ
fuĠ sheĠ
duiĠ huaĠ
gongĠheĠ dangĠ
zu ĠyuĠ
ĠyouĠ taiĠ
jianĠ zao
daoĠ shangĠ
chuĠ ruĠkouĠ
baoĠ zhengĠ
aiĠ qingĠ
ciĠzhiĠ waiĠ
ĠĠĠ e
zhu ĠguoĠ
ĠrenĠzhongĠ gongĠ
ĠĠĠ 3Ġ
ba ĠyueĠ
mo ĠqiĠ
ĠzaiĠ gaiĠ
ĠheĠ qiĠ
yuanĠ ben
jinĠ qiuĠ
chongĠ qingĠ
ĠfaĠ biaoĠ
ĠnaĠ me
Ġ ãĥ¼
ri ĠyiĠ
youĠ guanĠ
juĠ beiĠ
shenĠ shengĠ
ĠyinĠ faĠ
ĠshiĠzhongĠ huaĠrenĠminĠgongĠheĠguoĠ
zengĠjiaĠ leĠ
renĠminĠ daiĠbiaoĠdaĠhuiĠ
shengĠchan ĠdeĠ
Ġ 80
ĠĠĠ lingĠwaiĠ
ke ĠrenĠ
yin ĠerĠ
xia ĠyuĠ
60 Ġ
1971 ĠnianĠ
shou ĠheĠ
la ĠyuĠ
buĠ luoĠ
xiaĠ fangĠ
ĠguoĠjiaĠ duiĠ
di ĠyiĠjiĠ
chuan ĠdiĠ
siĠ tanĠ
shenĠ wangĠ
baĠ laĠ
gouĠ mai
aiĠdeĠ huaĠ
lei ĠweiĠ
kang ĠxiĠ
chaoĠ tingĠ
ĠĠĠ 2017ĠnianĠ
yue ĠweiĠ
kan ĠdeĠ
xiangĠ mu
shouĠ haiĠ
dongĠ gongĠ
ĠzhuĠ jianĠ
wang ĠyouĠ
duan ĠyuĠ
hang ĠxianĠ
ĠshiĠ yueĠ
Ġnian ĠliĠ
shouĠ feiĠ
zongĠ tong
hanĠ moĠdeĠ
ĠyiĠ xingĠ
xieĠ tiao
luoĠ boĠteĠ
ĠĠĠ xiangĠgangĠ
ding ĠzhiĠ
ĠyiĠ riĠ
geĠ siĠ
jiaoĠ daoĠ
fen ĠqiĠ
te ĠshiĠ
long ĠshiĠ
chengĠ haoĠ
zhuĠ diĠ
ziĠ liao
ĠerĠ houĠ
ĠkeĠneng ĠshiĠ
p ĠĠĠ
ĠĠĠ 2016ĠnianĠ
1962 ĠnianĠ
ĠyouĠ youĠ
mianĠ shangĠ
canĠmou ĠzhangĠ
f ĠĠĠ
Ġ langĠ
xun ĠfuĠ
pen Ġ
1938 ĠnianĠ
jianĠ guoĠ
ciĠ daĠ
ĠbiĠ yeĠyuĠ
ĠaĠ laĠ
Ġ ju
meiĠ zhou
caiĠ liao
ĠxinĠ jiaĠ
ĠlingĠyiĠ fangĠmianĠ
Ġ qiao
Ġ cao
Ġ chengĠshiĠ
ĠzhiĠ luĠ
ĠliĠ xinĠ
ĠĠĠ zhanĠ
kong ĠdeĠ
mingĠ luĠ
huaĠrenĠminĠ gongĠheĠ
Ġmi ĠdeĠdiĠquĠ
nvĠzhuĠ jueĠ
jiao ĠheĠ
na ĠsiĠ
ĠxiĠ huanĠ
longĠ shengĠ
ĠshengĠzhangĠyuĠ haiĠbaĠ
pin ĠzhiĠ
zhui ĠsuĠ
huiĠ xiangĠ
dongĠ yuanĠ
changĠ wu
gaoĠ yuanĠ
fen ĠjiĠ
qian ĠzaiĠ
pai ĠdeĠzhuĠ
jieĠ guanĠ
shangĠ jiaĠ
ĠĠĠsuiĠ ranĠ
du ĠdaĠ
lou ĠdeĠ
bin ĠshiĠ
ĠqiĠ chuĠ
mingĠ queĠ
shangĠ pinĠ
qingĠ xuĠ
Ġzai ĠyuĠ
Ġ pinĠ
ben ĠkeĠ
fuĠ yinĠ
ri ĠjiĠ
zaiĠ ciĠ
ĠheĠ chengĠ
fenĠ xiaoĠ
haiĠ eĠ
huĠ poĠ
ĠjianĠ sheĠ
zhanĠzheng ĠzhongĠ
ye ĠerĠ
ĠshiĠ jingĠ
zhuĠ liuĠ
moĠ luoĠ
ĠtianĠ jinĠ
yin ĠzhiĠ
han ĠyiĠ
guoĠ quĠ
daĠ qiĠ
ĠbuĠ daĠ
rongĠ naĠ
xingĠzhengĠ zhenĠquĠ
zhong ĠdeĠyiĠ
anĠ zhaoĠ
Ġ nĠ
xiang ĠzhongĠ
Ġli ĠshiĠdeĠ
ĠdongĠ wuĠ
eĠluoĠ siĠdeĠ
ĠmaĠlai ĠxiĠyaĠ
ye ĠzhongĠ
quan ĠweiĠ
lei ĠshiĠ
buĠ keĠ
qingĠ daoĠ
ĠĠĠ taiĠ
00 Ġ
1973 ĠnianĠ
duiĠ zhenĠ
huĠ dongĠ
ĠshiĠyongĠ zheĠ
Ġ genĠju
ĠshiĠ zhangĠ
shangĠ leĠ
yingĠ junĠ
zhouĠ zhangĠ
xun ĠdeĠ
fuĠ zhuĠrenĠ
fenĠ lieĠ
gangĠ yuanĠ
ch ĠĠĠ
ĠĠĠ zongĠ
xiang ĠzaiĠ
fei ĠyiĠ
ceng ĠrenĠ
âĢ §
shengĠ jingĠ
tiĠ yanĠ
liangĠ ceĠ
ĠkaiĠ faĠ
Ġ pan
hou ĠbuĠjiuĠ
yong ĠzhiĠ
bo ĠkeĠ
ĠweiĠ yaĠ
gongĠ gaoĠ
ĠwuĠ xianĠ
nvĠ haiĠ
peiĠ yangĠ
ri ĠyuĠ
jiu ĠrenĠ
zao ĠxingĠ
gongĠ shangĠ
zhengĠ duoĠ
guiĠ moĠdeĠ
tuanĠ zhangĠ
qing ĠxiĠ
zhuĠ dongĠ
xiangĠ guan
chu ĠnianĠ
ming ĠyouĠ
ye ĠweiĠ
zuo ĠzhongĠ
zhen ĠdiĠ
shengĠ fuĠ
huiĠ huaĠ
yinĠ shua
Ġ ning
fa ĠliĠyaĠ
dai ĠyiĠ
suan ĠfaĠ
fenĠ lanĠ
shuiĠ kuĠ
ĠqiĠzhongĠ nanĠ
ĠquanĠ qiuĠ
taiĠwan ĠdeĠ
. &
er ĠyouĠ
mei ĠriĠ
miao ĠdeĠ
1959 ĠnianĠ
1936 ĠnianĠ
ĠqiĠ youĠ
tongĠ wangĠ
tianĠ tangĠ
mianĠ linĠ
ĠdeĠrenĠ wuĠ
dong ĠyiĠ
huo ĠyueĠ
xia ĠerĠ
leĠ gaiĠ
yanĠ wuĠ
qianĠ ruĠ
sheĠ hui
ĠshiĠyiĠ jiĠ
ĠhuĠ nanĠ
Ġ poĠ
ĠĠĠ 1949
hou ĠrenĠ
chengĠ zhangĠ
ganĠ jueĠ
Ġke ĠshiĠ
tong ĠzhongĠ
du ĠyiĠ
ĠyuĠ qiĠtaĠ
ĠbuĠ laiĠ
qingĠ shaoĠnianĠ
zhenĠ yaĠ
Ġ15 Ġ
tiĠyuĠ guanĠ
Ġ 22
yi ĠshiĠjianĠ
ĠĠĠ i
ĠĠĠ luĠ
jian ĠliĠdeĠ
1941 ĠnianĠ
ĠbuĠ zuĠ
suĠ danĠ
ĠxiĠbanĠ yaĠyuĠ
dang ĠheĠ
na ĠerĠ
12 ĠnianĠ
fou ĠrenĠ
ĠheĠ heĠ
meiĠ meiĠ
shenĠ chaĠ
mianĠjiĠ heĠ
ĠdongĠ jingĠ
ĠboĠ chuĠ
a ĠjiĠ
ĠĠĠ shangĠ
dui ĠliĠ
Ġ sheĠliĠ
an ĠrenĠ
ĠĠĠ riĠ
ĠĠĠ feiĠ
jie ĠzaiĠ
jie ĠweiĠzhiĠ
fa ĠzhongĠ
es Ġ
shengĠ xiaĠ
duoĠ mingĠ
nvĠ yanĠyuanĠ
ĠguoĠminĠ dangĠ
xiaĠxiaĠdeĠyiĠgeĠ xiangĠ
Ġ gan
Ġ 2004
Ġ zuiĠdaĠ
cha ĠliĠ
1963 ĠnianĠ
weiĠ yuĠ
daĠ duoĠshuĠ
shouĠ lingĠ
quanĠ qiu
guĠ dongĠ
kaiĠ muĠ
ĠdeĠyiĠ siĠ
mouĠ shaĠ
Ġha ĠerĠ
Ġ JR
Ġ chanĠ
Ġ guĠshiĠ
ĠĠĠ X
shu ĠyouĠ
chan ĠdeĠ
ts Ġ
1939 ĠnianĠ
yongĠ jiuĠ
ze ĠyiĠ
nanĠ feiĠ
shenĠ shangĠ
ĠmuĠqianĠ shangĠweiĠyouĠ
Ġ lai
Ġ 36
Ġ 1998ĠnianĠ
la ĠliĠ
su ĠdaĠ
jianĠ daoĠ
danĠ yuanĠ
ĠtiĠ chuĠ
ĠnianĠ12ĠyueĠ 31ĠriĠ
ĠshiĠzhongĠ xinĠ
xiangĠgang ĠdeĠ
Ġ 1ĠyueĠ
Ġ reĠ
ĠĠĠ gaoĠ
ĠĠĠ 2021ĠnianĠ
chuang ĠshiĠrenĠ
xiĠ siĠ
shengĠ geĠweiĠ
tianĠ ran
Ġ xie
ĠshiĠ guĠ
ĠzhiĠ zhengĠ
ĠyouĠ xingĠ
leĠ liangĠ
huoĠ dongĠdeĠ
haiĠ jun
ĠbaoĠ gaoĠ
ĠĠĠ tongĠ
90 ĠnianĠ
ĠyuĠ youĠ
laĠ teĠ
hanĠ linĠ
diĠyiĠ buĠ
canĠyuĠ leĠ
fuĠ luoĠliĠdaĠ
waiĠ guanĠ
Ġdan ĠyiĠ
Ġba ĠliĠ
ĠmuĠqianĠshangĠweiĠyouĠ renĠgongĠyinĠzhongĠzaiĠpeiĠ
ĠĠĠ Li
ĠziĠ liaoĠ
2Ġ miĠ
xianĠdeĠyiĠgeĠ xingĠzhengĠzhenĠquĠ
ji ong
di ceĠ
zhang ĠliĠ
shen ĠjiĠ
1965 ĠnianĠ
1953 ĠnianĠ
fangĠ chengĠ
biĠ ya
chuangĠ xinĠ
Ġ ou
ming ĠheĠ
ĠyiĠ chengĠ
keĠ xue
anĠ pai
tianĠ huangĠ
caiĠ wuĠ
Ġ can
wu ĠzaiĠ
1967 ĠnianĠ
ĠzaiĠ naĠliĠ
ĠrenĠ jiaoĠ
zhuĠ daĠ
ĠqiĠ qiĠ
bianĠ haoĠweiĠ
wuĠliĠ xueĠ
ĠĠĠ boĠ
chou ĠbeiĠ
kaiĠ faĠdeĠ
ĠĠĠ 4ĠyueĠ
daoĠ qianĠ
mingĠ ciĠ
chongĠ manĠ
he ĠyiĠgeĠ
bian ĠyuĠ
tui ĠxingĠ
heĠ pingĠ
yuanĠ quĠ
juĠ changĠ
ĠgaiĠ diĠdeĠ
Ġ bu
me ĠĠĠ
31 Ġ
ĠxiĠ jinĠ
jiaoĠ zongĠ
duĠ jiaĠ
cheĠ daoĠ
ĠzheĠ yeĠshiĠ
Ġzhe ĠbuĠ
lianĠmeng ĠdeĠ
Ġ diao
ĠĠĠ puĠ
tai ĠdaĠ
zhou ĠfuĠzeĠguanĠxiaĠ
kan ĠfaĠ
1944 ĠnianĠ
ĠzaiĠ renĠ
saiĠ baiĠ
zaoĠ qiĠdeĠ
jingĠjiĠ xueĠ
ĠkeĠnengĠ huiĠ
ĠĠĠ 5
mi ĠshiĠ
yin ĠjiĠ
sui ĠdeĠ
xun ĠshiĠ
ĠdaĠ chenĠ
yinĠ ziĠ
guĠ wuĠ
neiĠ mengĠguĠ
laĠ geĠ
dian ĠyuĠ
ĠrenĠ min
ĠerĠ zheĠ
shouĠ huiĠ
ruĠ jingĠ
ĠgongĠ jinĠ
ĠĠĠgeĠrenĠ shengĠhuoĠ
Ġ 1999ĠnianĠ
zeng ĠzhiĠ
ĠdanĠ yeĠ
lun ĠsiĠ
buĠ manĠ
xiangĠ beiĠ
ĠnianĠ7ĠyueĠ 1ĠriĠ
² Ġ
Ġ 21
Ġ CD
ĠĠĠ 7ĠyueĠ
tuo ĠfuĠ
âĦ ĥ
ĠshiĠ xiangĠgangĠ
shengĠ xiaoĠ
tiĠ gongĠdeĠ
wangĠ chao
jiaoĠyuĠ jiĠ
Ġ c
Ġ 34
Ġ buĠshiĠ
Ġ kaĠerĠ
Ġ keĠliĠsiĠ
bu ĠweiĠyuĠ
tian ĠfuĠ
niu ĠsiĠ
ne ĠshengĠ
xueĠ yuanĠdeĠ
xinĠ zengĠ
Ġ gui
jin ĠzhongĠ
duan ĠqiĠ
ĠzhiĠ yaoĠ
zhuĠyao ĠshiĠ
fang ĠheĠ
ll ĠĠĠ
ĠliĠ youĠ
ĠxiĠ yuanĠ
tingĠ yunĠ
Play Station
ĠliĠ qiĠ
ĠbingĠ meiĠyouĠ
ĠĠĠjinĠ guanĠ
jiang ĠheĠ
han ĠshiĠ
xinĠ shengĠ
duiĠ taĠ
shuiĠ shenĠ
xin ĠyuĠ
nuo ĠsiĠ
fuĠ huaĠ
jinĠ xing
gaiĠ mingĠ
baĠ nen
kaĠluoĠ laiĠnaĠ
lao ĠgongĠ
Ġ seĠ
ĠshiĠ nanĠjiĠzhouĠdeĠ
ĠyiĠ xie
zhuĠ longĠ
ĠqingĠ chaoĠ
ĠĠĠ yeĠ
zhong ĠshiĠjiĠ
qian ĠweiĠ
ĠzaiĠ taĠdeĠ
ĠyueĠ laiĠyueĠ
xiangĠ lianĠ
liĠ yongĠ
hou ĠguoĠ
1930 ĠnianĠ
ĠzhiĠ chi
gongĠ zuoĠdeĠ
jiaĠ zhouĠ
zhanĠ zhengĠdeĠ
ciĠ huiĠ
minĠ jinĠ
zongĠ duiĠ
shouĠdaoĠ leĠ
Ġ Ja
yan ĠliĠ
huo ĠyiĠ
liang ĠjiaĠ
wai ĠjiĠ
huan ĠxiangĠ
siĠ xingĠ
siĠ faĠ
yaĠ zhou
niĠ yaĠdeĠ
Ġ 55
Ġ 9Ġ
ĠĠĠ 8ĠyueĠ
peiĠ xunĠ
jing ĠxiĠ
cha ĠjuĠ
faĠ biao
jinĠ shanĠ
zuiĠ duoĠdeĠ
saiĠ cheĠ
baĠ saiĠ
ĠliĠshiĠ xueĠjiaĠ
Ġ zha
ĠĠĠ guĠshiĠ
du ĠzhiĠ
qian ĠyuĠ
feng ĠyuĠ
fuĠ jiaĠ
ziĠ gongĠsiĠ
houĠ fangĠ
dianĠ chiĠ
Ġjie ĠweiĠ
Ġ huiĠyiĠ
ge ĠĠĠ
1935 ĠnianĠ
yanĠ xuĠ
boĠ laĠ
lingĠ yuĠdeĠ
ĠgongĠ gongĠ
yingĠdeĠ leĠ
zhanĠzheng ĠqiĠjianĠ
mianĠjiĠheĠ renĠkouĠ
8 ĠgeĠ
ĠĠĠ jiuĠ
ĠĠĠ quanĠ
ĠĠĠ laĠ
dao ĠliĠ
qian ĠliĠ
she ĠliĠdeĠ
ha ĠdeĠ
ĠyuanĠ xingĠ
nianĠ daiĠ
ĠĠĠ duiĠyuĠ
ni ĠshiĠ
32 Ġ
daĠ xueĠdeĠ
geĠ ciĠ
ĠdeĠjiĠ shuĠ
jiangĠsuĠ shengĠ
Ġ yuan
Ġ 38
nan ĠrenĠ
la ĠdiĠ
lanĠ seĠ
Ġ 75
Ġ Pa
ĠĠĠ 15
gai ĠzhiĠ
wang ĠyiĠ
che ĠliĠ
ce ĠqiĠ
hang ĠxingĠ
erĠ beiĠ
ĠdaĠ buĠ
ĠgaiĠ cun
ĠjingĠ neiĠ
ĠboĠ luoĠ
ĠgaiĠdiĠdeĠ mianĠjiĠheĠrenĠkouĠ
ĠgaiĠdiĠdeĠmianĠjiĠheĠrenĠkouĠ jieĠweiĠzhiĠ
pei ĠdeĠ
weiĠ jiĠ
ciĠ shuĠ
dianĠ naoĠ
xuanĠ chuan
heiĠ longĠjiangĠ
ĠyiĠshuĠ jiaĠ
ĠĠĠyouĠ xiĠ
Ġ Ø
Ġ Li
ĠĠĠ muĠqianĠ
Goo gle
zhongĠ xueĠ
houĠ lai
dangĠ xuanĠweiĠ
Ġ 20Ġ
ĠĠĠ 2015ĠnianĠ
wei ĠshiĠjieĠ
lu ĠweiĠ
lei ĠheĠ
ĠshiĠ zhengĠ
ĠfuĠ ze
zongĠ jingĠliĠ
ĠmingĠ chaoĠ
Ġ La
shou ĠerĠ
se ĠĠĠ
1969 ĠnianĠ
diĠ liuĠ
jiangĠ zuiĠjiaĠ
dangĠ anĠ
tuĠ anĠ
tingĠ kaoĠ
ĠqianĠ longĠ
Ġ 90
an ĠfuĠ
ban ĠnianĠ
zhuang ĠweiĠ
ra Ġ
chui ĠzhiĠ
shangĠ suĠ
tongĠ chang
zhengĠxie ĠweiĠyuanĠ
2 ĠĠĠ
6 ĠmiĠ
Ġ paĠ
Ġ guanĠzhiĠ
Ġ leiĠjiĠ
sui ĠzhiĠ
ĠzaiĠ 18
jiaĠ qiangĠ
ĠbuĠ luĠ
quĠ dongĠ
jiangĠ zheĠ
ĠqianĠ miĠ
zhengĠfu ĠyuĠ
ĠĠĠ jianĠliĠ
mei ĠerĠ
or ĠĠĠ
yanĠ shengĠ
zongĠ shuĠ
ĠtongĠ riĠ
ĠyanĠ changĠ
ĠĠĠyiĠ xiaĠ
ĠfanĠ duiĠ
ĠfenĠbie ĠweiĠ
jiaĠliĠfuĠ niĠyaĠzhouĠ
Ġ com
ĠĠĠ 2014ĠnianĠ
si ĠzhongĠ
ĠyiĠ tiĠ
quĠ ziĠ
gaiĠ jinĠ
anĠ xianĠ
ĠciĠ ciĠ
3Ġ miĠ
E ĠĠĠ
Ġ zhanĠdiĠ
chuan ĠyueĠ
80 ĠnianĠ
1940 ĠnianĠ
jiaĠ naĠ
luĠ duanĠ
nongĠ changĠ
Ġ 2003
fu ĠzhongĠ
dong ĠzhiĠ
mei ĠyiĠ
kuai ĠdeĠ
fenĠ chengĠ
jiuĠ duĠyuĠ
ĠshiĠjiĠ yuĠ
Ġtong ĠzhiĠ
hangĠ zhanĠ
xiuĠ dingĠ
ĠhaiĠ junĠ
faĠshengĠ leĠ
ĠĠĠ jianĠzhuĠ
xin ĠheĠ
1961 ĠnianĠ
ĠqiĠ yongĠ
tongĠ xueĠ
zhouĠ bian
guĠ laoĠdeĠ
ziĠxingĠ cheĠ
li ĠyiĠ
cheng ĠyiĠgeĠ
ri ĠshiĠ
jiao ĠjiĠ
15 ĠnianĠ
1957 ĠnianĠ
jianĠ danĠ
xiangĠ daoĠ
ĠkeĠ laiĠ
liuĠ liangĠ
puĠ chaĠ
ĠwanĠ meiĠ
zuiĠzhongĠ yaoĠdeĠ
pingĠfangĠ miĠ
Ġ ding
Ġ 70
Ġ Vi
ĠĠĠ 9ĠyueĠ
jin ĠnianĠ
shan ĠyuĠ
zhuĠ shouĠ
xiangĠ jiaoĠ
nanĠ minĠ
kaĠ feiĠ
ĠwanĠ chengĠ
geĠyueĠ houĠ
ĠĠĠ 2020ĠnianĠ
zhe ĠjiĠ
ba ĠtaĠ
jingĠ quĠ
duĠ teĠdeĠ
miĠ duĠ
ĠbiĠ xuĠ
ĠhuaĠ shengĠ
suan ĠdeĠ
2025 ĠnianĠ
1931 ĠnianĠ
zhuĠ guanĠ
jinĠ rongĠ
yinĠ niĠ
pingĠ hengĠ
chiĠ jingĠ
eĠ haiĠeĠ
ĠĠĠcheĠzhanĠ jieĠgouĠ
Ġ Wi
Ġ junĠshiĠ
si ĠyueĠ
ĠbuĠ heĠ
beiĠ meiĠ
linĠ shengĠ
touĠ ru
huiĠyiĠ shangĠ
an ĠĠĠ
te ĠzaiĠ
jinĠ chengĠ
zhengĠ jiaoĠ
shangĠ fangĠ
ĠshengĠ chengĠ
wi t
ziĠ shaĠ
Ġdan ĠbuĠ
ĠĠĠzhiĠ zuoĠ
ĠcengĠ jingĠ
fang ĠdiĠ
mu ĠjiĠ
ĠzaiĠ riĠbenĠ
yingĠ geĠlan
ĠdaĠ qiaoĠ
Ġer ĠheĠ
ĠliĠfaĠ huiĠ
sheng ĠrenĠminĠzhengĠfuĠ
zuo ĠheĠ
ka ĠdeĠ
jianĠ chiĠ
Ġ à
ĠĠĠ muĠ
ya ĠsiĠ
is ĠĠĠ
ĠzaiĠ nanĠ
fuĠ buĠzhangĠ
baoĠ fuĠ
mianĠ qianĠ
chengĠliĠ leĠ
Ġ000 Ġ
luoĠfaĠ keĠ
Ġ ga
juĠ feng
fangĠ xingĠ
ĠqiĠzhongĠ youĠ
Ġ xingĠshiĠ
zhuan ĠzhiĠ
kuang ĠjiaĠ
jinĠ zhangĠ
yanĠ faĠ
yingĠ guoĠdeĠ
ĠdeĠshiĠ shiĠ
Ġ heng
ĠĠĠ riĠbenĠ
ĠĠĠ 6ĠyueĠ
ĠĠĠ 2013ĠnianĠ
jin ĠqiĠ
dui ĠweiĠ
huiĠ jiaĠ
juĠ zhuĠzaiĠ
juĠ juĠzhangĠ
jiuĠ beiĠ
chongĠ zuĠ
hangĠ banĠ
tuiĠ fanĠ
Ġ 2002
ĠĠĠ yue
lu ĠxiĠ
bao ĠjiĠ
gongĠchanĠ zhuĠyiĠ
Ġmi ĠzhiĠ
li ĠkeĠ
ĠĠĠ 2010ĠnianĠ
luo ĠweiĠ
duo ĠbuĠ
ku ĠerĠ
1942 ĠnianĠ
1951 ĠnianĠ
ĠshiĠ taiĠwanĠ
ĠdeĠyiĠ jianĠ
ĠzhengĠ geĠ
J Ġ
Ġ 46
ming ĠjiĠ
ci ĠheĠ
fei ĠzhiĠ
yanĠ shenĠzhiĠ
zhanĠ juĠ
zuoĠ leĠ
luoĠ xuanĠ
ĠzhuĠ xiĠ
liĠ liangĠ
ĠtaiĠ pingĠ
wuĠxianĠ dianĠshiĠ
tai ĠweiĠ
dai ĠzhiĠ
lai ĠerĠ
yao ĠzaiĠ
pan ĠdeĠ
reng ĠzaiĠ
run Ġ
keĠ xueĠjiaĠ
fangĠ bianĠ
ĠdaĠ xueĠdeĠ
ĠfuĠ gaiĠ
wanĠ zhengĠdeĠ
ĠbingĠqie ĠzaiĠ
Ġ man
Ġ 150
ĠyouĠ heĠ
wenĠ geĠ
ĠĠĠ 6
ĠĠĠ yongĠ
yan ĠqiĠ
nei ĠsiĠ
ĠshiĠ siĠ
yuanĠ waiĠ
ĠguoĠ fangĠ
ĠxiĠ xiĠ
junĠ beiĠ
meiĠ tianĠ
shou ĠliĠ
zu ĠweiĠ
rou nd
guoĠ fangĠbuĠ
ĠkeĠ laĠ
muĠ jianĠ
zhenĠ zhengĠ
cheĠ tuiĠ
feiĠ chang
baĠ leĠsiĠ
Ġ zhuo
mei ĠzhongĠ
Ġyue ĠrenĠ
shuĠ shuĠ
mengĠ teĠ
ĠĠĠgenĠjuĠ 2010ĠnianĠmeiĠguoĠrenĠkouĠpuĠchaĠdeĠshuĠjuĠ
ĠĠĠ 8
ĠĠĠ huoĠ
ĠĠĠ 2012ĠnianĠ
shen ĠliĠ
ka ĠliĠ
po ĠerĠ
liuĠ xueĠ
qian ĠqiĠ
ben ĠzhiĠ
wangĠ houĠ
zuĠ ziĠzhiĠ
ĠxianĠ jinĠ
Ġ guanĠliĠ
jiang ĠweiĠ
tui ĠliĠ
hei ĠrenĠ
son Ġ
shengĠ jieĠrangĠ
qianĠ xianĠ
mi ĠjiĠ
ta ĠerĠ
chong ĠfuĠ
1933 ĠnianĠ
taiĠ shouĠ
zhuanĠ huanĠ
ĠM Ġ
Ġfei ĠliĠ
Ġ chongĠxinĠ
xiao ĠyiĠ
chen ĠdeĠ
zhengĠ wuĠ
ĠriĠ baoĠ
liuĠ chuanĠ
tuĠ ranĠ
quĠshiĠ houĠ
Ġjiang ĠxiĠ
Ġ long
ĠĠĠ tangĠ
dang ĠriĠ
duo ĠliĠ
ĠshiĠ shangĠ
jianĠ zhuĠshiĠ
jieĠ jieĠ
qianĠ laiĠ
ĠkeĠ chengĠ
ĠdaoĠ daĠ
liaoĠ ning
Ġceng ĠzaiĠ
ĠĠĠ 6Ġ
beiĠ qiĠ
faĠ jueĠ
quĠ neiĠ
quanĠ tiĠ
guangĠ fanĠdeĠ
tanĠ suoĠ
ĠweiĠyuanĠ huiĠdeĠ
e ĠerĠ
Ġ 180
Ġ yuĠyiĠ
ĠĠĠ yanĠgeĠ
jin ĠheĠ
ri ĠerĠ
nan ĠyuĠ
zong ĠdeĠ
ST AT
1960 ĠnianĠdaiĠ
1928 ĠnianĠ
ĠshiĠ fuĠ
daiĠ tiĠ
chongĠ fanĠ
xinĠguanĠ feiĠyanĠ
er ĠzhongĠ
ti ĠbuĠ
hao ĠjiĠ
pu ĠdeĠ
rong ĠdeĠ
huiĠ guanĠ
liuĠ geĠ
tuĠ ran
ĠshiĠshiĠ zhangĠ
ĠP Ġ
c ri
liang ĠyuĠ
che ĠrenĠ
ĠyiĠ qingĠ
xiĠ lie
bianĠ zuĠ
mianĠ xiangĠ
Ġmi ĠdeĠ
ĠyiĠ jiaoĠ
jiaĠ erĠ
jinĠ siĠ
jingĠ yuanĠ
fangĠ xiangĠdeĠ
baoĠ anĠ
feiĠ faĠ
tuĠ shaĠ
gangĠ tieĠ
Ġyou ĠdeĠ
xingĠzhengĠ danĠweiĠ
ĠanĠ huiĠ
ĠdiĠerĠ ciĠ
zhengĠfu ĠzaiĠ
Ġ t
wan ĠqiĠ
kai ĠqiĠ
ken ĠdingĠ
ĠzhongĠ beiĠ
caiĠ zhengĠbuĠ
hangĠkong ĠgongĠsiĠ
ĠshiĠyiĠgeĠweiĠyuĠ meiĠguoĠ
Ġ qin
Ġ zhui
ĠĠĠ gai
dao ĠguoĠ
tuo ĠerĠ
gei ĠtaĠ
ĠyiĠ changĠ
tingĠ zhangĠ
ĠD Ġ
renĠdaĠ daiĠbiaoĠ
Ġ zao
guan ĠzaiĠ
fan ĠfuĠ
Ġ 1997ĠnianĠ
xian ĠbuĠ
xin ĠzhiĠ
lei ĠyuĠ
cun ĠyuĠ
fuĠ qiĠ
leĠ xuĠduoĠ
ĠliuĠyuĠ mianĠjiĠ
ĠĠĠ co
ben ĠjiĠ
che ĠxingĠ
shao ĠyouĠ
renĠ min
zhuĠ chiĠrenĠ
ĠbingĠ biaoĠshiĠ
ĠzhuĠ chiĠ
ying ĠheĠ
zhao ĠshiĠ
ĠgongĠ luĠ
ĠgenĠjuĠ 2020ĠnianĠmeiĠguoĠrenĠkouĠpuĠchaĠdeĠshuĠjuĠ
Ġ Le
Ġ 2023ĠnianĠ
zuo ĠjiĠ
fan ĠjiĠ
chengĠ danĠ
shangĠ jiangĠ
liangĠ haoĠ
duoĠ xiangĠ
fengĠ geĠdeĠ
taoĠ wangĠ
Ġ kua
Ġ gouĠ
ĠĠĠ 2005
ben ĠbuĠ
nv ĠyouĠ
qiao ĠdeĠ
1912 ĠnianĠ
keĠ saĠsiĠ
huoĠ quĠ
boĠ yinĠ
touĠ shouĠ
ĠyeĠ keĠyiĠ
xinĠxiĠ lanĠ
ĠĠĠ 2011ĠnianĠ
nian ĠdeĠ
gu ĠyiĠ
fuĠ siĠ
fenĠ xiangĠ
saiĠ guanĠjunĠ
caiĠ panĠ
zhuanĠ quĠ
ĠfenĠbie ĠshiĠ
Ġ à¸
guan ĠweiĠ
huan ĠweiĠ
ĠqiĠ houĠyuĠ
xiaoĠ sheĠ
ĠjiaĠ ru
ĠtaĠ jiangĠ
ĠdeĠyiĠ weiĠ
huoĠdeĠ deĠ
Ġ zhen
fen ĠshiĠ
ma ĠqiĠ
pao ĠdaoĠ
zhongĠ haiĠ
yuanĠ shuĠ
ĠerĠ ciĠ
ĠxiĠ siĠ
ĠdaĠ diĠ
ĠyunĠ nanĠ
ĠĠĠ ruĠ
ĠĠĠ zuiĠ
ĠĠĠ faĠguoĠ
tai ĠyiĠ
ceng ĠbeiĠ
gongĠ sheĠ
shouĠ mingĠ
yeĠ naĠ
xueĠshiĠ xueĠweiĠ
7 ĠgeĠ
Ġ 37
Ġ 39
Ġ Da
ze ĠdeĠ
gang ĠdeĠ
dou ĠbuĠ
shun ĠxuĠ
ry Ġ
diĠ mianĠ
geĠ tiĠ
jieĠ xiaĠ
qianĠ zeĠ
ĠyinĠweiĠ taĠ
jing ĠbuĠ
qing ĠheĠ
wan ĠnianĠ
ting ĠheĠ
1943 ĠnianĠ
jieĠ ruĠ
dianĠ liuĠ
pingĠ dingĠ
ĠdanĠ zheĠ
ĠshiĠshiĠ yiĠ
ĠxinĠ zeng
ĠĠĠ baiĠ
fei ĠshiĠ
bai ĠxingĠ
ĠshiĠ xiĠbanĠyaĠ
huaĠ mianĠ
zuoĠ yeĠ
ĠsiĠ lingĠbuĠ
meiĠ guoĠyiĠ
keĠneng ĠxingĠ
yaĠmeiĠ niĠyaĠ
ĠĠĠ 189
pan ĠchuĠ
mao ĠdeĠ
chengĠ gongĠdeĠ
faĠ erĠ
yinĠ jinĠ
danĠ xinĠ
duoĠ lunĠ
waiĠ jieĠ
ĠjieĠ fangĠ
qiangĠ daĠdeĠ
Ġ rui
Ġ De
le ĠzhiĠ
zu ĠshiĠ
1927 ĠnianĠ
faĠ buĠdeĠ
fengĠ suoĠ
chuangĠ zao
nvĠ wangĠ
wangĠyuanĠ jingĠ
Ġ qu
Ġ houĠyuĠ
ĠĠĠ di
ting ĠshiĠ
ĠjiĠ xu
yanĠ zou
ranĠ liaoĠ
ĠyingĠ xiangĠ
cha ĠerĠsiĠ
heĠ beiĠ
guanĠ xiĠdeĠ
danĠ duĠ
guan Ġli
yong ĠdiĠ
wen ĠyuĠ
lin ĠyuĠ
shenĠ ruĠ
tiaoĠ wenĠ
dianĠyingĠ jieĠ
ĠrenĠkou ĠdeĠ
Ġ bangĠzhuĠ
yu ĠdeĠguoĠ
1929 ĠnianĠ
zhongĠ huaĠ
ĠliĠ jingĠ
gongĠ zhanĠ
shouĠ huanĠyingĠ
xieĠ daiĠ
shuiĠ mianĠ
yong ĠheĠ
san ĠdeĠ
san ĠyueĠ
sha ĠshiĠ
diĠ tieĠ
jieĠ shou
biĠ saiĠdeĠ
Ġri ĠyiĠ
ĠtongĠshiĠ yeĠ
ĠmianĠjiĠ 0
³ Ġ
ĠĠĠ wenĠhuaĠ
ting ĠjiĠ
1932 ĠnianĠ
diĠ daĠ
xianĠ zaiĠdeĠ
ĠfuĠ erĠ
baĠ geĠ
ĠjieĠ jinĠ
ĠaoĠ daĠliĠyaĠ
zuoĠpin ĠdeĠ
ĠR Ġ
huĠlianĠ wangĠ
yi ĠdeĠshiĠ
huang ĠheĠ
ĠshiĠ keĠ
ĠweiĠ daĠ
jianĠ shao
zhuĠ zhaiĠ
jingĠ neiĠdeĠ
suĠ songĠ
zongĠ zhanĠ
ĠjieĠ gouĠ
28 Ġ
wuĠ renĠjiĠ
fenĠ shuĠ
shanĠ dingĠ
ĠshiĠshiĠ deĠ
ĠĠĠ 1
er i
fa ĠrenĠ
Ġli ĠnianĠ
daĠ lu
ĠdaĠ qiĠ
junĠ jianĠ
sheĠ huiĠdeĠ
ĠyiĠjiĠ zaiĠ
Ġ guoĠliĠ
ĠĠĠ 7
tongĠ baoĠ
wenĠ siĠ
tiĠ quĠ
qianĠ xiaĠ
baĠ faĠliĠyaĠ
hangĠ zhouĠ
ĠhuĠ beiĠ
ĠÐ °
Ġzhou ĠnianĠ
Ġ o
zhou ĠdeĠyiĠgeĠshiĠzhenĠ
1924 ĠnianĠ
luĠ waĠ
banĠ benĠdeĠ
suĠ sheĠ
yanĠjiu ĠzhongĠxinĠ
ĠluĠwa ĠerĠshengĠ
zu ĠjiĠ
zun ĠzhongĠ
boĠ chuĠdeĠ
duoĠ yuanĠ
ĠdaoĠ luĠ
ĠshiĠxingĠ dengĠweiĠ
aĠgenĠ tingĠ
2 ĠliĠ
Ġ zeng
Ġ ED
ĠĠĠ guanĠ
ĠĠĠ dianĠ
tiĠ caiĠ
ĠjingĠ fangĠ
renĠkouĠpuĠ chaĠ
Ġ Mar
le ĠxiĠ
dang ĠbuĠ
shen ĠheĠ
tianĠ wenĠxueĠ
paiĠ lieĠ
ĠaoĠ menĠ
Ġ fu
Ġ nu
Ġ jiĠyiĠ
shen ĠqiĠ
fan ĠdaĠxueĠ
ting ĠyuĠ
ceng ĠyouĠ
wuĠ buĠ
chengĠ shuĠ
xueĠ tangĠ
jiaoĠ gaoĠ
shenĠ fuĠ
Ġ 400
bi ĠyuĠ
jiu ĠyueĠ
jiaĠ xiangĠ
quĠ bieĠ
tongĠ yang
qianĠ yinĠ
duĠ ziĠ
duoĠ guanĠ
xingĠzhengĠ quĠhuaĠ
ĠguangĠ xuĠ
aĠerĠ beiĠsiĠ
reĠdai ĠqiĠxuanĠ
Ġ yuanĠshiĠ
Ġ 1994ĠnianĠ
duo ĠsiĠ
shuĠ faĠ
meiĠ ti
geĠlunĠ biĠyaĠ
ĠĠĠ aiĠ
ĠweiĠ zaiĠ
ĠzhongĠ yaoĠdeĠ
ĠdeĠyiĠ ciĠ
neiĠ ruiĠ
Ġdan ĠyuĠ
Ġ she
Ġ 2001
Ġ 1992ĠnianĠ
yin ĠyouĠ
bo ĠjiĠ
26 Ġ
1934 ĠnianĠ
diĠ fenĠ
quĠ muĠ
shouĠ cang
benĠ shuĠ
shaĠ tianĠ
ĠshengĠ huoĠ
Ġ hengĠliĠ
tong ĠqiĠ
jianĠ ceĠ
ĠbuĠ yaoĠ
ĠdiĠ 1Ġ
jiangĠ xueĠ
puĠ luoĠ
panĠ luanĠ
Ġzai ĠshiĠ
Ġchi ĠweiĠ
Ġ Al
Ġ siĠshiĠ
25 ĠnianĠ
buĠ zaiĠ
ĠyueĠ tuan
xianĠ daoĠ
ĠxianĠ luĠ
yiĠshiĠ daoĠ
tuiĠchuĠ leĠ
ĠxianĠshiĠ youĠ
Ġ 300
lu ĠerĠ
bai ĠnianĠ
13 ĠnianĠ
21 ĠnianĠ
60 ĠnianĠ
gongĠ ziĠ
wuĠ erĠ
ĠdaĠ banĠ
ĠzheĠ zuoĠ
D NA
ĠĠĠ lingĠ
miao ĠyuĠ
27 Ġ
ca Ġ
ĠyouĠ xiĠdeĠ
jinĠ huiĠ
ĠsiĠ houĠ
zhuanĠ jiĠdeĠ
keĠyiĠ tongĠguoĠ
woĠ men
ĠfeiĠ lvĠ
ĠĠĠweiĠ leĠ
gongĠchanĠ dang
5 000
Ġ yao
Ġ houĠyouĠ
ĠzhiĠ ciĠ
zhongĠ gongĠ
diĠyiĠ baiĠ
3 ĠmingĠ
tu ĠshiĠ
shuo ĠfuĠ
ĠjiĠ xieĠ
yuanĠ jianĠ
jieĠ lunĠ
shengĠ huiĠ
ĠdiĠ renĠ
xinĠ zhuĠ
bingĠ wuĠ
zuĠ xianĠ
ĠdeĠyiĠ jiĠ
hanĠ gaiĠ
dianĠshiĠjieĠ muĠ
ĠĠĠ zuoĠweiĠ
qi ĠliĠ
tao ĠyuanĠ
sa ĠdeĠ
fangĠ zhenĠ
tiĠ qianĠ
daiĠ laiĠdeĠ
ĠdeĠyiĠ xiangĠ
ĠziĠ xingĠ
ĠchuĠ ciĠzhiĠwaiĠ
qiangĠ huaĠ
quanĠguoĠ zhongĠdianĠ
luoĠma ĠdiĠguoĠ
18 ĠnianĠ
ID Ġ
keĠ leiĠ
banĠ quanĠ
ĠziĠ ranĠ
tingĠ zhanĠ
ĠzuoĠ biaoĠweiĠ
tianĠwenĠ taiĠ
yong ĠqiĠ
nv ĠrenĠ
80 Ġ
daĠ xuanĠ
jingĠ beiĠ
fangĠ chengĠshiĠ
huaĠ guiĠ
yangĠ ziĠ
zongĠ juĠ
shaĠ baiĠ
maoĠ dunĠ
Ġ en
Ġ biĠdeĠ
Ġ 1996ĠnianĠ
ĠĠĠ 2008ĠnianĠ
hao ĠheĠ
jingĠ touĠ
eĠ huaĠ
seĠ caiĠ
mengĠ junĠ
24Ġ xiaoĠshiĠ
Ġ ë
Ġ chuang
fan ĠshiĠ
nei ĠyiĠ
qia Ġ
yeĠ zhanĠ
duiĠ fuĠ
ruĠ qiuĠ
ĠtongĠshiĠ yeĠshiĠ
zang ĠyuĠ
40 ĠnianĠ
ziĠ woĠ
ciĠ ciĠ
liuĠ dongĠ
zongĠ guanĠ
ĠbingĠ feiĠ
zhaoĠ guĠ
taoĠ wanĠ
ĠzhuĠyao ĠshiĠ
Ġ Si
hao ĠzaiĠ
tion ĠĠĠ
xianĠ mingĠ
ĠshiĠshiĠ shiĠ
ĠdeĠdiĠ sanĠ
ĠdeĠguoĠ chengĠ
ĠwoĠ men
Ġ12 Ġ
ciĠshiĠjieĠdaĠ zhanĠqiĠjianĠ
8 ĠmiĠ
19 ĠnianĠ
ying ĠzhiĠ
ting ĠdaoĠ
zhuan ĠliĠ
33 Ġ
zhuĠ fangĠ
zhuĠ quanĠ
riĠ changĠ
xiaĠ xiaĠ
liangĠ anĠ
zhuanĠ bianĠ
tuoĠ luoĠ
ĠdeĠjiĠ benĠ
j e
ĠĠĠ jingĠliĠ
ta ĠyouĠ
qiu ĠheĠ
tu ĠsiĠ
fuĠ xianĠ
zhanĠ quĠ
huoĠ cheĠzhanĠ
ceĠ lveĠ
ĠshangĠ shuĠ
kaoĠ chaĠ
Ġ In
kai ĠerĠ
ĠzhongĠ guoĠdeĠ
ĠqiĠ B
ĠkeĠ leiĠ
dangĠ xuan
chanĠ wuĠ
cunĠ zaiĠyuĠ
4 ĠmiĠ
ĠĠĠ wanĠ
ya ĠzaiĠ
fan ĠerĠ
jue ĠweiĠ
bai ĠheĠ
xiangĠ dongĠ
houĠ daiĠ
rongĠ liangĠ
Ġ chaoĠguoĠ
le ĠheĠ
zhe ĠyouĠ
ze ĠbeiĠ
pu ĠsiĠ
heĠ lanĠ
buĠ duanĠ
ĠguoĠ jia
fangĠ xianĠ
pianĠ duanĠ
minĠzuĠ zhuĠyiĠ
baoĠfaĠ houĠ
wen ĠdiĠ
ĠyiĠ xianĠ
wuĠ pinĠ
ĠerĠ taĠ
xueĠ xiaoĠdeĠ
ĠjiaĠ erĠ
duoĠ quĠ
ĠbingĠ chengĠ
tongĠzhiĠ zheĠ
Ġ11 Ġ
meiĠguoĠrenĠkouĠpuĠ chaĠ
ĠdiĠqiĠ yaĠ
ĠĠĠ haiĠ
wen ĠbuĠ
chi ĠdaoĠ
guoĠ chengĠzhongĠ
ĠzhongĠ daĠ
jiaĠ suĠ
huiĠ sheĠ
huaĠ fenĠ
moĠ fangĠ
poĠ lunĠ
Ġ la
Ġ zhongĠyuĠ
ĠĠĠ guoĠjiĠ
dong ĠheĠ
diao ĠyuĠ
yuanĠ shengĠ
fuĠ zeĠrenĠ
wuĠ hanĠ
jingĠ lingĠ
fanĠ gongĠ
1Ġ riĠqiĠ
mouĠ xie
gu ĠerĠ
pu ĠjiĠ
niu ĠyueĠshiĠ
geĠ laĠsiĠ
faĠ xian
faĠ daĠ
caiĠ fangĠ
aiĠ haoĠ
ĠtaiĠ beiĠ
ĠĠĠ fenĠleiĠ
qu ĠdeĠyiĠgeĠ
luo ĠheĠ
35 Ġ
ĠjiĠ keĠ
ĠyuĠ leiĠ
ĠguoĠ duĠ
ĠqiĠ yueĠ
huaĠ beiĠ
tiĠ gong
jueĠ seĠdeĠ
Ġa ĠerĠbeiĠ
Ġ nuo
zhi ĠdeĠyiĠ
guan ĠliĠdeĠ
nan ĠxiĠ
qing ĠliĠ
ĠshiĠ eĠluoĠsiĠ
diĠ dianĠ
jiaĠ shangĠ
ĠjinĠ erĠ
xianĠdeĠ feiĠjianĠzhiĠdiĠquĠ
Ġgai ĠshiĠ
erĠdeĠ mingĠ
Ġ pengĠ
yu ĠyiĠgeĠ
ĠĠĠ yaĠ
ĠĠĠ hongĠ
qiu ĠyiĠ
geng ĠshiĠ
reng ĠweiĠ
ĠguoĠ junĠ
chuĠ saiĠ
tiaoĠ kuanĠ
0 ĠzuoĠbiaoĠweiĠ
7 ĠmiĠ
Ġ xia
ĠĠĠ zhenĠ
dui ĠdaĠ
luo ĠerĠ
gan ĠshiĠ
tang ĠheĠ
tao ĠliĠ
sis Ġ
mingĠ chengĠweiĠ
lianĠ saiĠdeĠ
ĠweiĠyuĠ yinĠjingĠ
ĠE Ġ
ĠweiĠwuĠ erĠ
ĠqiĠB 1900
0ĠzuoĠbiaoĠweiĠ chiĠjingĠ
Ġ kuaiĠ
shu ĠdiĠ
qu ĠdiĠ
wen ĠzhiĠ
nan ĠzhiĠ
ï¼ İ
fuĠ nvĠ
chengĠ xiangĠ
shengĠ huoĠdeĠ
dongĠ yaĠ
nanĠ buĠdeĠ
bianĠ maĠ
suoĠ weiĠdeĠ
ĠliĠshiĠ huiĠ
dianĠshiĠ dongĠhuaĠ
ĠzongĠ tongĠ
zhanĠdou ĠjiĠ
da ĠrenĠ
ĠshiĠjiĠ zhongĠ
ĠqingĠ chaoĠzhengĠzhiĠrenĠwuĠ
Ġ hua
Ġ fenĠweiĠ
ĠĠĠ Pro
ĠĠĠ sanĠ
ĠĠĠ 11ĠyueĠ
te ĠsiĠ
mo ĠliĠ
shui ĠzhongĠ
sen ĠdeĠ
sang ĠshiĠ
1909 ĠnianĠ
buĠ huiĠ
yuanĠ xiaoĠ
wuĠ tiĠ
fenĠ pei
zuĠqiuĠ lianĠsaiĠ
ĠguoĠminĠ zhengĠfuĠ
tai ĠzaiĠ
gongĠ dianĠ
ĠerĠ laiĠ
ĠxiĠ zhouĠ
meiĠ dongĠ
ĠfuĠ langĠ
ĠdongĠ huaĠ
ĠyinĠci ĠzaiĠ
ĠĠĠcheĠzhanĠ gouĠzaoĠ
Ġ zou
ĠnianĠ qingĠdeĠ
dongĠ quĠ
yinĠ daoĠ
jiangĠ paiĠ
miĠ qieĠ
xuanĠ yanĠ
henĠ daĠdeĠ
biaoĠxianĠ chuĠ
ĠĠĠ linĠ
ĠĠĠ taĠdeĠ
ĠĠĠ 2022ĠnianĠ
fa ĠzaiĠ
liang ĠyiĠ
daĠ lou
kongĠ zhiĠdeĠ
wanĠchengĠ leĠ
nanĠsiĠ laĠfuĠ
xinĠtaiĠ biĠ
e ĠyuĠ
Ġ 1945
lu ĠzhongĠ
bo ok
te ĠrenĠ
yun ĠzaiĠ
bai ĠshiĠ
juĠ dianĠ
saiĠ naĠ
leiĠ siĠyuĠ
caoĠ zuo
Ġ 1993ĠnianĠ
ĠĠĠ Mo
du ĠzaiĠ
chuan ĠdaoĠ
shao ĠweiĠ
pen ĠdiĠ
yuanĠ zhengĠ
shengĠ danĠ
yingĠ xiangĠdeĠ
xinĠ quĠ
ĠxingĠ zheng
zongĠ shuĠjiĠ
xunĠ zhao
shunĠshiĠ zhenĠyuĠ
4 ĠmingĠ
Ġ taiĠguoĠ
ĠĠĠ biĠ
sha ĠrenĠ
wa ĠdeĠ
yingĠ pian
luĠ jingĠ
faĠbuĠ leĠ
feiĠlvĠ binĠ
ĠweiĠyuĠgaiĠ shengĠ
Ġ boĠshiĠ
ĠĠĠ zuoĠ
zhan ĠyiĠzhongĠ
suan ĠjianĠ
beiĠ renĠweiĠ
ĠqiĠ renĠ
ĠsiĠ xiangĠ
ĠgeĠ mingĠ
aoĠ daĠliĠ
Ġ yingĠdeĠ
Ġ minĠzhuĠ
Ġ guangĠxiĠ
xun ĠxiĠ
daĠ geĠmingĠ
gongĠ wuĠ
changĠ changĠ
feiĠ danĠ
jiaĠruĠ leĠ
zhenĠjiĠ xingĠzhengĠdanĠweiĠ
Ġ 160
you ĠyiĠzhiĠ
fa ĠweiĠyuanĠ
ta ĠliĠ
fei ĠdiĠ
shui ĠheĠ
70 ĠnianĠ
zheĠ xiangĠ
ĠgeĠ erĠ
ĠzhanĠ houĠ
ĠxingĠzhengĠ quĠ
Ġ tan
Ġ pao
Ġ changĠqiĠ
Ġ 1995ĠnianĠ
mu ĠliĠ
ya ĠjiĠ
te ĠweiĠ
duan ĠweiĠ
cong ĠzhongĠ
daĠ banĠ
ĠxiĠ geĠ
jiangĠ nanĠ
benĠ zhanĠ
ĠziĠ ran
hongĠ zhaĠ
Ġ 64
Ġ luoĠsiĠ
ĠĠĠ kaiĠ
qiang ĠdaĠ
gen ĠdiĠ
22 ĠnianĠ
68 ĠnianĠ
ĠqiĠ xi
zuoĠ wuĠ
1 ĠjiaĠ
zhuan ĠkeĠ
zhuan ĠchengĠ
xiu ĠsiĠ
16 ĠnianĠ
14 ĠnianĠ
1970 ĠnianĠdaiĠ
ĠbuĠ tong
ĠbuĠ bingĠ
shangĠ biaoĠ
leĠ biĠ
ĠpingĠ chengĠ
Ġ pang
Ġ tuanĠ
ĠĠĠ 9
lian ĠshiĠ
zui ĠxingĠ
pe Ġ
CD Ġ
ĠyiĠ dingĠ
ĠzhiĠ hou
xueĠ tongĠ
zhanĠ lveĠ
bingĠ beiĠ
shenĠ panĠ
luoĠ teĠ
kaiĠ chuĠ
ĠcongĠ ciĠ
ĠweiĠjiĠ chuĠ
xiaĠxiaĠdeĠyiĠgeĠxiangĠ zhenĠjiĠxingĠzhengĠdanĠweiĠ
t en
Ġ gang
Ġ 58
Ġ aoĠsiĠ
ba ĠjiĠsiĠ
35 ĠnianĠ
ĠyiĠ seĠlieĠ
xiangĠ liangĠ
fangĠ kongĠ
laiĠ kanĠ
chuanĠ shuĠ
lvĠ huaĠ
1Ġ miĠ
ĠF Ġ
c ke
min ĠshiĠ
ĠjiĠ cheĠ
buĠ zuĠ
dianĠ xinĠ
ĠboĠ lanĠ
hunĠ ningĠ
ĠguanĠ zhuangĠbingĠduĠ
zhuiĠsuĠ daoĠ
ĠĠĠ fengĠ
ĠĠĠ 4Ġ
zhan ĠliĠ
erĠ chengĠ
jiaĠ sheĠ
shengĠ qiĠ
mingĠ chaoĠ
ciĠ dianĠ
yinĠ yingĠ
wenĠ shuĠ
gangĠ qinĠ
nanĠjiĠ tiaoĠyueĠ
ao ĠkeĠ
shou ĠzaiĠ
ting ĠzhongĠ
1925 ĠnianĠ
shouĠ sunĠ
zhanĠ shengĠ
luĠ yinĠ
ĠgeĠ guoĠ
ĠgaiĠ shuĠ
ĠshangĠ yeĠ
yanĠjiu ĠdeĠ
ĠshiĠrenĠminĠ zhengĠfuĠ
Ġ kao
Ġ 1999
Ġ piaoĠ
Ġ fenĠbuĠzaiĠ
ĠĠĠ st
ĠĠĠ 2009ĠnianĠ
di ĠshiĠyiĠ
te ĠzhiĠ
mian ĠweiĠ
long ĠkeĠ
rong ĠjiĠ
xiĠ tongĠdeĠ
siĠ houĠ
shouĠ geĠquĠ
ĠtongĠ yangĠ
dongĠjingĠ duĠ
Ġ cang
Ġ duĠliĠ
ming ĠqiĠ
ya ĠerĠ
pai ĠheĠ
buĠ tong
shangĠ keĠ
tiĠ anĠ
yaĠ geĠ
tianĠ xiaĠ
ĠgeĠ lanĠ
qiangĠ diao
ceĠ lve
ĠnanĠ beiĠ
yuan ĠrenĠ
du ĠyueĠ
chuan ĠshiĠ
ĠjiĠ yinĠ
laiĠ zi
paiĠ she
guangĠ bo
zaoĠ chuanĠ
Ġ 1990
Ġ 47
ping ĠrenĠ
11 ĠnianĠ
ĠzhongĠ wen
chuĠ jingĠ
shangĠ jieĠ
guanĠ zhengĠ
changĠ anĠ
ĠziĠ ciĠ
ĠxiangĠ dangĠyuĠ
ĠweiĠyuanĠhuiĠ zhuĠxiĠ
Ġa ĠliĠ
Ġha ĠliĠ
canĠsaiĠ ziĠgeĠ
nanĠjiĠtiaoĠyueĠ tiĠxiĠ
Ġ 1998
ji ĠshiĠshiĠ
ĠĠĠ shuĠ
ĠĠĠ sheĠjiĠ
gai ĠyouĠ
duo ĠyuĠ
tou ĠyuĠ
ĠliĠ xianĠ
ĠzaiĠ xinĠ
beiĠ luĠ
mingĠ xianĠdeĠ
xiaoĠ huaĠ
ĠfuĠ zhuĠ
ĠxiangĠ siĠ
xiuĠdaoĠ yuanĠ
liu ĠyiĠ
ĠshiĠ fenĠ
faĠ yanĠrenĠ
ĠdiĠ mianĠ
shouĠ huĠ
jiaoĠ tuĠ
moĠ faĠ
gengĠ daĠdeĠ
ji ĠshiĠjianĠ
jun ĠqiĠ
lv ĠheĠ
tao ĠfaĠ
sa ĠkeĠsiĠ
jiaoĠ zhanĠ
diĠshiĠ niĠ
Ġda ĠyueĠ
tongĠxingĠ lianĠ
Ġ1949 ĠnianĠ
Ġ 48
jia ĠliĠyaĠ
ban ĠzhiĠ
shui ĠdaoĠ
hun ĠliĠ
ĠdeĠ heĠ
jianĠ cha
guanĠ daoĠ
biĠ yaoĠ
ĠjuĠ jueĠ
ĠhuiĠ fuĠ
weiĠyiĠ zhongĠ
miaoĠ shuĠweiĠ
xiaoĠxingĠ xingĠdeĠ
ĠeĠ luoĠ
ĠĠĠ huaĠ
ying ĠyiĠ
ding ĠyiĠweiĠ
tuo ĠkeĠ
hun Ġyin
ĠshiĠ nianĠ
ĠweiĠ xianĠ
ĠzhongĠ yao
yanĠ zhengĠ
laiĠ wuĠ
ĠfuĠ jinĠdeĠ
yunĠ huiĠ
fengĠ fuĠdeĠ
baiĠ houĠ
ĠzheĠ yangĠdeĠ
ĠhuoĠ chengĠ
diĠerĠ ciĠ
Ġ weiĠshiĠ
Ġ qiĠyiĠ
quan ĠzhiĠ
san ĠxingĠ
ĠyiĠ danĠ
faĠ she
ĠxiĠ fangĠ
zhengĠ xieĠ
houĠ xuĠ
fenĠ geĠ
pingĠ dengĠ
zhouĠ kanĠ
tianĠ huang
ĠĠĠzhiĠ yeĠshengĠyaĠ
shanĠmai ĠdeĠyiĠbuĠfenĠ
quanĠguoĠzhongĠdianĠ wenĠwuĠbaoĠhuĠdanĠweiĠ
nanĠjiĠtiaoĠyueĠtiĠxiĠ guanĠliĠ
Ġ Fi
han ĠjianĠ
bang ĠdiĠ
xingĠ dengĠweiĠ
faĠ xueĠ
fangĠ shouĠ
qingĠ yuanĠ
puĠ luĠshiĠ
zhengĠzhiĠ buĠ
quĠdeĠ leĠ
Ġ Ne
Ġ douĠshiĠ
ĠĠĠ chenĠ
san ĠzhiĠ
faĠ lanĠkeĠ
ĠsiĠ geĠ
ĠyeĠ chengĠ
tangĠ quĠ
Ġ Di
ĠĠĠ baoĠ
jing ĠdiĠ
ma ĠyiĠ
cai ĠshiĠ
shangĠ zuiĠ
jingĠ tiĠ
zheĠ ciĠ
guanĠ fang
duiĠ kang
ĠziĠ shengĠ
kaiĠshiĠ yuĠ
ĠJ Ġ
jieĠquanĠguoĠ renĠminĠdaiĠbiaoĠdaĠhuiĠ
ĠĠĠ zaoĠqiĠ
ĠĠĠ 2007ĠnianĠ
pa ĠerĠ
weng Ġ
gongĠ guoĠ
jiaĠ siĠ
dianĠ xingĠdeĠ
xuanĠ gaoĠ
shanĠ huĠ
laĠ maĠ
keĠyiĠ shengĠ
dongĠshiĠ huiĠ
Ġwo ĠdeĠ
ĠĠĠ liangĠ
ĠĠĠ waiĠbuĠ
qu ĠxiĠ
xiao ĠzhiĠ
zhou ĠnianĠ
ma ĠheĠ
mie ĠwangĠ
ĠjiĠ jieĠ
guoĠ fangĠ
ĠbuĠ zhangĠ
zhuĠ chengĠ
huiĠ baoĠ
shouĠ huanĠ
danĠ yaoĠ
shenĠ yeĠ
xuĠ lieĠ
ĠyiĠzhiĠ zaiĠ
peiĠ changĠ
ĠfanĠ yingĠ
Ġceng ĠyuĠ
1911 ĠnianĠ
zhongĠ yang
nanĠ meiĠzhouĠ
zhenĠ zhuĠ
bianĠ huanĠ
ĠweiĠyuĠ zhongĠhuaĠrenĠminĠgongĠheĠguoĠ
ĠdianĠ ziĠ
ĠgaiĠcun ĠshiĠjianĠyuĠ
ĠĠĠ kaĠ
xiĠ diĠ
xiĠ fangĠ
wuĠ daĠ
mingĠ mingĠdeĠ
zhanĠ jianĠ
guanĠ guangĠ
shuiĠ liangĠ
Ġ tu
xian ĠdeĠdiĠ
mie ĠjueĠ
ĠliĠ aoĠ
xuanĠ minĠ
maĠ zuĠ
naĠ yangĠ
taoĠ lun
guoĠjiĠ zuĠ
ĠĠĠ hanĠ
er ĠshiĠdeĠ
ming ĠzaiĠ
le ĠyueĠ
xue ĠzhiĠ
mian ĠyouĠ
28 ĠnianĠ
1923 ĠnianĠ
xingĠ nengĠ
geĠ diĠdeĠ
mingĠ niĠ
yingĠ xiong
xiaoĠ lvĠ
zhenĠ rongĠ
dangĠ zuoĠ
dangĠ daiĠ
ĠjieĠ daoĠ
chongĠ shengĠ
daiĠbiaoĠ tuan
Ġ jianĠyiĠ
ĠĠĠ fenĠ
bei ĠzhongĠ
duo ĠdaĠ
shui ĠshiĠ
nv ĠdeĠ
rong ĠhuoĠ
1922 ĠnianĠ
xiĠ erĠ
keĠ jianĠ
ziĠ chengĠ
huaĠ ruĠ
nanĠ daoĠ
qiuĠ miĠ
gaoĠ su
kaiĠ banĠ
2Ġ mingĠ
ĠweiĠyuĠgaiĠguoĠ xiĠbuĠ
Ġ 65
lan ĠheĠ
64 ĠnianĠ
xianĠ qianĠ
shuĠ xingĠ
dianĠ changĠ
gaiĠ jianĠ
boĠ geĠ
ĠshiĠyiĠ jiaĠ
lunĠ tanĠ
ĠshiĠdeĠ renĠ
ĠT Ġ
juĠminĠ dianĠ
zuoĠquĠ jiaĠ
bu ĠdeĠyiĠgeĠ
liang ĠqiĠ
xiu ĠshiĠ
xiu ĠxianĠ
wuĠ ran
keĠ yiĠshiĠ
duiĠ biĠ
suoĠ xieĠ
ĠziĠ jiĠdeĠ
ĠmuĠ qinĠ
maoĠ zeĠdongĠ
zai ĠdeĠguoĠ
gu ĠsiĠ
wa rd
qingĠ ganĠ
sheĠ ruĠ
gaoĠ shanĠ
feiĠ teĠ
liuĠ qiuĠ
ĠjinĠ biaoĠ
aiĠ naĠshengĠ
Ġ Me
Ġ 1984ĠnianĠ
ĠĠĠ 2000
1970 ĠnianĠ
ment Ġ
xingĠ zhuangĠ
shenĠ fen
shanĠ chuĠ
paiĠ fangĠ
ge ĠyueĠdeĠ
shu ĠyueĠ
huo ĠerĠ
chong ĠdeĠ
ruan ĠtiaoĠ
70 Ġ
ĠwuĠ qiĠ
zuĠcheng ĠbuĠfenĠ
¼ Ġ
Ġ 1985ĠnianĠ
ĠĠĠ c
dai ĠerĠ
ni ĠfuĠ
zong ĠsiĠlingĠ
mou ĠzhongĠ
90 Ġ
65 ĠnianĠ
fuĠ zhuĠxiĠ
siĠ tan
ĠbuĠ shaoĠ
guanĠ lianĠ
ĠyiĠjiĠ zhongĠguoĠdaĠluĠdeĠ
ganĠ qingĠ
zhuĠyao ĠyouĠ
ĠĠĠzheĠ keĠ
dong ĠyuĠ
shan ĠheĠ
00 ĠnianĠ
deĠ guoĠ
ĠyiĠ diĠ
ĠweiĠ taĠ
geĠ xiangĠ
tongĠ xiangĠ
meiĠ xiaoĠshiĠ
chuanĠ shuo
Ġdan ĠyouĠ
ĠzuiĠ houĠyiĠ
feiĠxingĠ yuanĠ
ĠĠĠ leiĠ
le ĠzhongĠguoĠ
guan ĠdiĠ
du ĠbuĠ
zhang ĠzhongĠ
75 ĠnianĠ
fuĠ chuĠ
jinĠ shengĠ
tongĠ yongĠ
ĠdaĠ jieĠ
jiaoĠ dianĠ
liangĠ zuoĠ
Ġdan ĠshiĠzaiĠ
genĠ benĠ
ĠĠĠ jiaoĠyuĠ
zhong ĠshiĠyongĠ
geng ĠgaiĠ
gun Ġ
ĠzaiĠ haiĠ
xiĠ zangĠ
juĠ liuĠ
ĠfuĠ zhuĠxiĠ
chuĠliĠ qiĠ
luĠyingĠ daiĠ
Ġ gei
ĠĠĠ xiangĠgang
shang ĠzaiĠ
kai ĠjiĠ
nuo ĠdeĠ
diĠ anĠ
daĠ shaĠ
geĠ jieĠ
houĠ xuanĠ
bingĠ buĠshiĠ
ĠtaĠ shuoĠ
ĠbingĠ xiangĠ
gengĠ duo
zhengĠzhiĠ jiaĠ
xiang ĠliĠ
ti ĠqiĠ
xiao ĠweiĠ
mu ĠzhongĠ
âĪ Ĵ
xingĠ bieĠ
faĠ biaoĠdeĠ
chuĠ jueĠ
jiaoĠ xiaoĠ
ĠkeĠ fuĠ
haiĠ baĠgaoĠduĠ
guĠ zhangĠ
ĠquĠ daiĠ
ĠheiĠ longĠjiangĠ
Ġ qiang
ĠĠĠ Ro
wang ĠzaiĠ
zhao ĠjiĠ
ĠyouĠ yongĠ
ĠrenĠ zhengĠ
ĠheĠ ziĠ
shengĠ dianĠ
jinĠ huaĠ
ĠxiĠ shouĠ
yeĠ chengĠweiĠ
jiaoĠ daĠdeĠ
duĠ shuĠ
ĠbingĠ chengĠweiĠ
meiĠguoĠ zongĠtongĠ
ĠhaiĠ baĠ
Ġba ĠyueĠ
fuĠzhiĠ fuĠ
xinĠguanĠfeiĠyanĠ queĠzhenĠbingĠliĠ
Ġ kong
Ġ UĠ
an ĠheĠ
ĠĠĠ re
ni ĠyuĠ
shui ĠliĠ
zhui ĠqiuĠ
ls panĠ
qiĠ yuanĠ
ĠxiĠ faĠ
yingĠ wuĠ
yinĠ jieĠ
ĠtaĠ duiĠ
boĠ duoĠ
zuiĠ da
baĠ maĠ
neiĠ yaĠ
cunĠ minĠ
Ġxian ĠzhiĠ
ĠjiĠzhongĠ xueĠ
ĠÐ ¾
ĠmengĠ guĠ
ĠĠĠwaiĠbuĠ lianĠjieĠ
Ġ 1988ĠnianĠ
ĠĠĠ zhengĠyiĠ
qu ĠyiĠyuanĠ
bao ĠyouĠ
ĠzhongĠ zuĠ
guanĠ kanĠ
qianĠ daoĠ
wanĠ jianĠ
ĠdanĠ reng
ĠdeĠshiĠ qingĠ
a ĠsiĠ
Ġ sĠ
ĠĠĠ Mi
zuo ĠzaiĠ
yang ĠyuĠ
ĠheĠ huaĠ
ĠbuĠ ruĠ
xianĠ quĠ
ĠdaĠ baiĠ
ĠbaoĠ liuĠ
gouĠ tongĠ
ganĠ lanĠqiuĠ
ĠsuoĠ xieĠ
Ġ16 Ġ
gongĠzuo ĠrenĠyuanĠ
ĠxianĠshiĠyouĠ nanĠjiĠtiaoĠyueĠtiĠxiĠguanĠliĠ
Ġ zhaĠ
Ġ 1990ĠnianĠ
ĠĠĠ changĠ
lai ĠzhiĠ
ba ĠyiĠ
zong ĠjiĠ
cun ĠchuĠ
shuai ĠjiaoĠ
kua Ġ
62 ĠnianĠ
1926 ĠnianĠ
beiĠ shangĠ
yingĠ chiĠ
xinĠ tuĠ
chenĠ moĠ
Ġ19 Ġ
c lu
zhong ĠyiĠgeĠ
guan ĠnianĠ
fuĠ luĠ
luĠ yinĠshiĠ
wenĠ dingĠdeĠ
ĠdanĠ quĠ
1Ġ mingĠ
jiaoĠyiĠ suoĠ
yi ĠĠĠ
ĠĠĠ dengĠ
ĠĠĠ moĠ
san ĠqiĠ
shui ĠweiĠ
1919 ĠnianĠ
yanĠ jiuĠshiĠ
ĠxiangĠ zhengĠ
ĠshiĠjiĠ chuĠ
Ġzhe ĠshiĠdeĠ
ĠdaiĠ maĠweiĠ
Ġ 600
jian Ġli
bi ĠjiĠ
cha ĠjiĠ
man ĠyiĠ
17 ĠnianĠ
Wor ld
zhanĠ chuĠ
changĠ daoĠ
zhenĠ wangĠ
ĠshiĠyiĠ keĠweiĠ
Ġyou ĠzhiĠ
caiĠyongĠ leĠ
Ġ Mo
ĠĠĠ fenĠbuĠ
fei ĠqiĠ
1950 ĠnianĠ
shuĠ geĠ
shouĠ cangĠ
yeĠ suĠ
ĠsiĠ maĠ
daiĠ daoĠ
shenĠ miĠ
suoĠ jianĠ
dingĠ dianĠ
ĠsuĠ chengĠ
ĠyaĠ zhouĠ
en ĠsiĠ
nan ĠyueĠ
wang ĠheĠ
ni ĠjiĠ
xiangĠ nanĠ
mingĠ jiaoĠ
yanĠ xianĠ
ĠxingĠ xingĠ
suoĠ zaiĠdeĠ
zhan ĠqiĠ
dan ĠjiĠ
xu ĠyiĠ
ted ĠĠĠ
youĠ taiĠ
fuĠ zhuangĠ
ĠkeĠ yunĠ
lianĠ junĠ
zuiĠ haoĠdeĠ
ĠjuĠ leĠbuĠ
ĠdeĠshiĠ yiĠ
Ġxian ĠyiĠ
maĠlai ĠxiĠya
raoĠtaiĠyangĠ gongĠ
meiĠdongĠ buĠshiĠquĠ
s oft
Ġ hen
ĠĠĠ Ð
zhan ĠbuĠ
dan ĠyouĠ
bian ĠfuĠ
tian ĠdiĠ
lan ĠshiĠ
geng ĠdaĠ
ĠshiĠ xiaĠxiaĠdeĠyiĠgeĠxiangĠzhenĠjiĠxingĠzhengĠdanĠweiĠ
ĠzhongĠ renĠ
geĠ xingĠ
dongĠ ceĠ
bingĠ qieĠ
miĠ suĠliĠ
ĠH Ġ
Ġ 1994
ĠĠĠ 2006ĠnianĠ
cheng ĠbuĠ
bi ĠheĠ
ba ĠkeĠ
us Ġ
ĠzaiĠ keĠ
shengĠ cunĠ
beiĠ faĠ
chuĠ xian
jinĠ junĠ
ruĠ xueĠ
xieĠ tiaoĠ
dingĠ leĠ
ĠdanĠ zuiĠzhongĠ
douĠ meiĠyouĠ
ĠyiĠzhiĠ daoĠ
yiĠshiĠ qiĠ
ĠdeĠdiĠ diĠ
saĠ laĠ
xingĠzhengĠ yuanĠ
ĠI STAT
Ġ jue
Ġ 59
Ġ mingĠweiĠ
hu ĠzhiĠ
qie ĠdeĠ
30 ĠfenĠ
24 ĠnianĠ
37 ĠnianĠ
jieĠ xiĠ
xinĠ fengĠ
jiaoĠ gei
ĠdeĠshiĠ liĠ
ĠpingĠ lunĠ
ĠE STĠ
Y Ġ
Ġ zan
neng ĠdeĠ
lin ĠzhongĠ
ar Ġ
ĠyouĠ siĠ
ĠyouĠ beiĠ
ĠguoĠ houĠ
ĠdiĠ baĠ
shenĠ sheĠ
ĠxingĠ quĠ
zhaoĠ kai
ĠduiĠ ciĠ
ĠweiĠyuĠfaĠguoĠ ao
wen ĠweiĠ
ni ĠdiĠ
na ĠshiĠ
huan ĠbaoĠ
jianĠ danĠdeĠ
quĠ daoĠ
houĠ laiĠdeĠ
qianĠ fangĠ
xiaĠ leĠ
meiĠ guoĠzhiĠ
lingĠ ganĠ
zongĠ lingĠshiĠ
laĠ duoĠ
ĠmingĠ mingĠ
Ġsui ĠjiĠ
zhuĠjiaoĠ lianĠ
ĠxieĠ zhuĠ
guangĠboĠ gongĠsiĠ
jueĠduiĠ xingĠdengĠweiĠ
jueĠsai ĠyiĠ
Ġ 1996
li ĠxiĠ
nei ĠheĠ
pian ĠweiĠ
TV Ġ
1914 ĠnianĠ
aĠ miĠ
ĠyiĠzhiĠ yuĠ
ĠshouĠ fuĠ
Ġ5Ġ diaoĠkuaiĠyiĠxiaoĠshiĠ
biĠliĠ niuĠsiĠ
ĠjiĠbeiĠ meiĠdongĠbuĠshiĠquĠ
ĠED TĠ
ĠshiĠyiĠkeĠweiĠ raoĠtaiĠyangĠgongĠ
ĠshiĠyiĠkeĠweiĠraoĠtaiĠyangĠgongĠ zhuanĠdeĠxiaoĠxingĠxingĠ
Ġ 49
Ġ 1989ĠnianĠ
ĠĠĠ ma
di ĠliĠyaĠ
yin ĠzaiĠ
ni ĠheĠ
ben ĠshiĠ
shao ĠshiĠ
gin Ġ
ĠjiĠ gou
yuanĠ yinĠshiĠ
minĠ dangĠ
Ġta ĠweiĠ
douĠ keĠyiĠ
ĠyuanĠ ziĠ
Ġer ĠjiĠ
ĠL Ġ
saiĠerĠweiĠ yaĠ
xiaoĠxingĠxingĠdeĠ jueĠduiĠxingĠdengĠweiĠ
O R
s ti
Ġ rou
mo ĠnianĠ
guang ĠyiĠ
pian ĠrenĠ
1913 ĠnianĠ
zen Ġ
ĠfuĠ zhouĠ
tianĠ xinĠ
tiaoĠ muĠ
henĠ duo
Ġ he
Ġ tuiĠchuĠ
Ġ boĠliĠ
ĠĠĠ banĠ
ĠĠĠ xuanĠ
zhou ĠyuĠ
qiĠ renĠ
ĠzaiĠ wuĠ
ziĠ shengĠ
guanĠ ce
ĠdeĠyiĠ jiaĠ
diaoĠ suĠ
jiaĠru ĠzhongĠguoĠgongĠchanĠdangĠ
ĠĠĠzheĠkeĠ xiaoĠxingĠxingĠdeĠjueĠduiĠxingĠdengĠweiĠ
Ġ 1997
Ġ 800
pu ĠerĠ
ce book
ĠguoĠ youĠ
beiĠ buĠdeĠ
duĠ zheĠ
yinĠdiĠ anĠnaĠ
Ġ qiaoĠzhiĠ
Ġ 2024ĠnianĠ
Ġ 1991ĠnianĠ
ze ĠerĠ
cai ĠjiĠ
zhai ĠwuĠ
1918 ĠnianĠ
juĠ luoĠ
guanĠ shangĠ
ruĠ leĠ
tianĠ xianĠ
kouĠ jingĠ
erĠshiĠ nianĠ
ĠjiĠzhongĠ zaiĠ
t ha
sen ĠbaoĠ
st o
ĠzhiĠ houĠzaiĠ
xiĠ shouĠ
ĠyueĠ seĠfuĠ
jianĠ huaĠ
taiĠ bei
yongĠ yuanĠ
wanĠ quĠ
shuiĠ shangĠ
ĠyiĠweiĠ zheĠ
9 ĠshiĠ
Ġ Ca
ĠĠĠ huiĠ
ci ĠrenĠ
xiao ĠheĠ
ĠyiĠ jiĠyiĠ
ĠyouĠ wuĠ
xiĠ yuanĠ
xiĠ jieĠ
jianĠ zhengĠ
yanĠ zouĠ
ciĠ tianĠtiĠ
gangĠ tie
diĠyiĠ jieĠ
Ġ 1992
Ġ qiuĠduiĠ
ĠĠĠ miĠ
shou ĠqiĠ
fan ĠdiĠ
zao ĠyiĠ
zhuan ĠrenĠ
lun ĠjiĠ
sou ĠsuoĠ
ct Ġ
geĠ shengĠ
dianĠ zhanĠ
ĠshiĠyiĠ yuanĠ
zhuĠjiaoĠ zuoĠ
shouĠshiĠ lvĠ
ĠheĠdaoĠ quanĠzhangĠ
f li
qi ĠshiĠshiĠ
chuang ĠshiĠ
in Ġ
ĠyouĠ daĠ
ĠdiĠ daiĠ
shangĠ yingĠdeĠ
duĠ xingĠ
zuĠ qunĠ
zhenĠ zhengĠdeĠ
ĠnanĠ jingĠ
junĠshiĠ tanĠdingĠ
keĠliĠ miĠyaĠ
ĠĠĠgaiĠ shuĠ
ĠzhiĠhuiĠ guanĠ
en ĠdeĠ
feng ĠzhiĠ
ĠyiĠ minĠ
ĠyouĠ leĠ
xiĠ jinĠ
fuĠ shuĠjiĠ
quĠ fuĠzeĠguanĠxiaĠ
xueĠ yuan
teĠ dingĠdeĠ
lanĠ kaĠ
ĠjiangĠ shuĠ
yongĠyuĠ zhiĠ
zai ĠĠĠ
hu ĠheĠ
ling ĠxingĠ
lie ĠjianĠ
38 ĠnianĠ
ĠliĠ jieĠ
wuĠ ranĠ
xinĠ chengĠ
qianĠ mingĠ
xiaĠ tianĠ
jiuĠ baĠ
kongĠ jun
ouĠ mengĠ
ĠĠĠof ĠĠĠtheĠĠĠ
siĠchuanĠ shengĠ
zhuanĠyiĠ daoĠ
Ġ cangĠ
cha ĠheĠ
chan ĠyuĠ
chen ĠkeĠ
naĠ geĠ
ĠchuĠ shengĠ
gengĠ gaoĠ
wenĠhua ĠyiĠchanĠ
ĠheĠnanĠ shengĠ
anĠhuiĠ shengĠ
5 ĠwanĠ
Ġ Ù
Ġ jun
xiao ĠjiĠ
mo ĠheĠ
ze ĠerĠshengĠ
pai ĠrenĠ
ĠzaiĠ yingĠguoĠ
shangĠ banĠ
yingĠ chaoĠ
danĠ baiĠzhiĠ
lingĠ xiu
fanĠ mang
ĠdeĠyiĠ yiĠ
ĠzhuĠ zhangĠ
meiĠyouĠ renĠheĠ
henĠ shaoĠ
ĠguiĠ zhouĠ
zuoĠpin ĠzhongĠ
Ġ bie
Ġ Se
pai ĠweiĠ
gou ĠjianĠ
00 ĠpingĠfangĠqianĠmiĠ
kuang ĠwuĠ
2019 ĠguanĠzhuangĠbingĠduĠ
67 ĠnianĠ
ĠshiĠ biĠ
huaĠ xianĠ
gaiĠ bian
wangĠ yeĠ
daiĠ zhuĠ
zongĠ eĠweiĠ
nvĠ shenĠ
Ġ bin
ĠĠĠ gu
ĠĠĠ huangĠ
zhi ĠĠĠ
mi ĠliĠ
23 ĠnianĠ
ĠbuĠ danĠ
beiĠ haiĠdaoĠ
shanĠ kouĠ
paiĠ qiuĠ
ĠjuĠ banĠ
gongĠgongĠ jiaoĠtongĠ
Ġfan ĠerĠ
lianĠxuĠ juĠ
you ĠĠĠ
bi ĠqiĠ
ma ĠjiĠ
ĠweiĠ boĠ
ĠzhiĠ zhanĠ
jingĠ feiĠ
zhanĠ cheĠ
fenĠ huiĠ
xiaoĠ daoĠ
ĠkeĠ daĠ
daiĠ shuĠ
Ġjie ĠshiĠ
diĠshiĠ sanĠ
ĠĠĠzhongĠ huaĠrenĠminĠgongĠheĠguoĠ
eĠluoĠ si
Ġ Lo
li ĠjieĠ
cheng Ġli
qian ĠjiĠ
xuan ĠjiĠ
ĠliĠ wuĠ
xiangĠ yaoĠ
zhengĠ faĠ
danĠ shengĠ
liangĠ duĠ
huĠ nanĠshengĠ
aoĠ di
zhuangĠ yuanĠ
quĠyiĠhuiĠ xuanĠjuĠ
Ġtun ĠqiĠ
ĠĠĠ zheĠgeĠ
ding ĠheĠ
su ĠerĠ
buĠ nengĠ
zhenĠ yingĠ
zhenĠ junĠ
bianĠ xieĠ
Ġ zi
Ġ lieĠcheĠ
ĠĠĠ 13
ĠĠĠ saiĠ
ĠĠĠ guanĠyuĠ
bi ĠsiĠ
hui ĠliĠshiĠ
xia ĠdaĠ
xie ĠheĠ
mian ĠzhiĠ
liu ĠyueĠ
men ĠzaiĠ
chi ĠzhiĠ
tuo ĠsiĠ
ĠzhongĠ shuĠ
siĠ maĠ
xinĠ zang
tiĠ xianĠ
wangĠ laiĠ
liangĠ zheĠ
suoĠ zhangĠ
zuiĠ jinĠdeĠ
ĠbaoĠ luoĠ
Ġtong ĠnianĠ12ĠyueĠ
Ġ18 Ġ
ĠĠĠsuiĠ ran
yuanĠwaiĠ langĠ
Ġ jing
Ġ Ra
you ĠzhiĠwuĠ
gong ĠzaiĠ
qing ĠyuĠ
29 Ġ
gongĠ xueĠyuanĠ
sheĠ qun
luoĠ boĠ
dangĠ di
guangĠ puĠ
ĠgeĠ lunĠ
ĠjieĠ hunĠ
xunĠ luoĠ
baoĠkuo ĠyiĠxiaĠ
luoĠmaĠ niĠyaĠ
B 48
fangĠ kong
fangĠ songĠ
caiĠ huiĠ
chiĠ cunĠ
shuiĠ shouĠ
Ġer ĠrenĠ
tuiĠ xiu
ĠjingĠ changĠ
ĠG Ġ
Ġwu ĠyueĠ
ni ĠxiĠ
dun ĠheĠ
diao ĠxiangĠ
gn Ġ
ĠyuĠ 18
fuĠ buĠ
jingĠ baoĠ
Ġ beiĠbuĠ
Ġ diĠyuĠ
ĠĠĠ Me
chu ĠheĠ
fang ĠyouĠ
1921 ĠnianĠ
ĠshiĠ yingĠ
guoĠ jia
heĠ bingĠ
ĠdaĠ xiaoĠ
muĠ biaoĠshiĠ
teĠ shuĠdeĠ
yunĠ nanĠshengĠ
jueĠ saiĠzhongĠ
xunĠ haoĠ
ĠyuanĠ benĠ
piĠ panĠ
ĠzuiĠ zhongĠyiĠ
ĠdangĠ xuanĠ
Ġ ruiĠ
ĠĠĠ yinĠyueĠ
nang Ġ
ĠweiĠ mingĠ
zhanĠ fangĠ
ĠtaĠ chengĠweiĠ
ĠdanĠ beiĠ
ĠshouĠ xianĠ
ĠnianĠ4ĠyueĠ 1ĠriĠ
ĠĠĠS ch
Ġsan ĠyueĠ
Ġ yaĠliĠ
Ġ xĠ
Ġ zhuĠyouĠ
zheng ĠshiĠdeĠ
guan ĠyouĠ
liang ĠdiĠ
ban ĠheĠ
shui ĠxianĠ
man ĠdiĠguoĠ
ĠliĠ zaiĠ
zhengĠ guiĠ
junĠ tuan
laiĠ wangĠ
ĠgongĠ siĠdeĠ
ĠyeĠ chengĠweiĠ
ĠshiĠweiĠ zheĠ
zhuĠtiĠ quĠ
meiĠzhongĠ buĠshiĠquĠ
5 ĠshiĠ
c or
Ġ qiong
Ġ 1993
Ġ Sa
yang ĠqiĠ
yang ĠfuĠ
ĠdeĠ qiĠ
ĠdeĠ erĠ
chuanĠ yuanĠ
lieĠ dianĠ
ĠgaiĠ cunĠ
Ġyou ĠliĠ
ĠĠĠshiĠ yiĠ
9 ĠmiĠ
Ġ á
ĠĠĠ for
ĠĠĠ yingĠxiangĠ
69 ĠnianĠ
ĠzaiĠ qianĠ
ĠyueĠ qiĠ
shenĠ yangĠ
zhenĠ xianĠ
xuanĠ zhuanĠ
aoĠ men
ĠC STĠ
Ġ6Ġ diaoĠkuaiĠyiĠxiaoĠshiĠ
ĠjiĠbeiĠ meiĠzhongĠbuĠshiĠquĠ
ĠCD TĠ
ĠĠĠ 2005ĠnianĠ
gu ĠheĠ
bing ĠheĠ
lai ĠyiĠ
dang ĠrenĠ
zhen ĠsiĠ
nong ĠliĠ
fou ĠjueĠ
45 Ġ
jianĠ jinĠ
wenĠ quanĠ
bingĠ yuanĠ
gaiĠ zao
zuĠ qiu
jiuĠ jingĠ
paiĠ sheĠdeĠ
ĠzheĠ changĠ
ĠbanĠ benĠ
Ġ sheng
Ġ 1991
ping ĠjiĠ
zhao ĠheĠ
mai ĠjiaĠ
sang ĠshengĠ
ĠyiĠ luĠ
Ġnian ĠshiĠjieĠbeiĠ
chuĠ banĠdeĠ
shouĠ changĠ
zhanĠ ting
yeĠ xianĠ
ĠkeĠ jianĠ
zhuanĠ yuanĠ
Ġ17 Ġ
ĠH RĠĠĠ
ĠĠĠbenĠ shuĠ
ĠjiĠtuanĠ junĠ
ĠdeĠweiĠ zhiĠ
Ġ zeĠshiĠ
liu ĠzhiĠ
tu ĠyuĠ
ĠzaiĠ xiangĠ
ĠbuĠ manĠ
jinĠ tianĠ
jiaoĠ xingĠ
huoĠ jiangĠ
muĠ fuĠ
luoĠ baiĠ
ĠdeĠyiĠ mingĠ
tuoĠ maĠsiĠ
Ġer ĠyuĠ
reĠ menĠ
nuoĠ manĠdiĠ
fenĠbie ĠshiĠ
aoĠlinĠpiĠkeĠ yunĠdongĠ
lieĠche ĠdeĠ
aoĠsiĠ kaĠ
hongĠzha ĠjiĠ
yanĠhaiĠ shengĠfenĠ
banĠjiangĠ dianĠliĠ
p ri
Ġ 1983ĠnianĠ
ĠĠĠ 14
hu ĠliĠ
kan ĠjianĠ
ken ĠtaĠjiĠ
34 ĠnianĠ
heĠ yueĠ
wuĠ gongĠ
chuĠ siĠ
chuĠ juĠ
ĠdaĠ poĠ
ĠjinĠ ciĠyuĠ
tingĠ cheĠchangĠ
tieĠ luĠdeĠ
ĠN Ġ
5 ĠhaoĠ
8 ĠshiĠ
Ġ geĠrenĠ
en dĠ
nei ĠzhiĠ
meng ĠxiangĠ
geng ĠmingĠ
pao ĠdeĠ
shuai ĠxianĠ
zhenĠ xiangĠ
waiĠ shuĠruĠ
zhuanĠ shuĠ
Ġhuo ĠdeĠyiĠmeiĠ
jieĠquanĠguoĠ zhengĠxieĠweiĠyuanĠ
t ri
ĠĠĠ gaiĠdiĠ
bu ĠzhiĠdaoĠ
che ĠweiĠ
jiangĠ huĠ
lanĠ zhouĠ
kongĠ longĠ
Ġzai ĠjiĠ
lianĠsaiĠ guanĠjunĠ
Ġma ĠkeĠ
Ġ14 Ġ
ĠcheĠ xiaoĠ
Ġ To
Ġ Na
Ġ xinĠdeĠ
un i
bing ĠqiĠ
huo ĠjiĠ
wan ĠyuĠ
ma ĠdiĠ
xiĠ anĠ
daoĠ diĠ
luĠ saĠ
wenĠ benĠ
fenĠ fenĠ
laiĠ yuanĠyuĠ
liuĠ chengĠ
ĠbaoĠ chiĠ
keĠyiĠ zhiĠ
ĠshengĠ yaĠ
yu ĠshiĠjieĠ
ĠĠĠ 12ĠyueĠ
er ĠliĠ
qing ĠzhiĠ
ping ĠxiĠ
zhui ĠjiĠ
kun ĠmingĠ
ziĠ nvĠ
fenĠ zuĠ
ĠfuĠ buĠ
jiuĠ long
cheĠ chuĠ
zengĠ sheĠ
hunĠ luanĠ
aĠerĠ baĠ
Ġ liao
Ġ zuĠchengĠ
ĠĠĠ aĠĠĠ
zhou ĠxiĠ
liu ĠjiĠ
lei ĠerĠ
27 ĠnianĠ
faĠ yanĠ
daiĠ muĠ
zuiĠ duo
shuiĠ jingĠ
liĠ yaĠ
liĠ nuoĠyiĠ
woĠ lunĠ
2 ĠshiĠ
zai ĠshiĠjieĠ
mei ĠjiĠ
zhou ĠdaĠxueĠ
wan ĠzaiĠ
wo ĠsiĠ
46 ĠnianĠ
erĠ siĠ
ĠyueĠ guoĠ
dongĠ taiĠ
zongĠ gongĠ
kouĠ haoĠ
aĠ boĠ
ĠciĠ keĠ
Ġda ĠweiĠ
Ġ13 Ġ
Ġ Ar
ĠĠĠ Vi
yin ĠyiĠ
dian ĠliĠjiĠ
la ĠshiĠ
tou ĠshiĠ
xingĠ xiĠ
jiaĠ gouĠ
beiĠ jieĠ
jingĠ xiangĠ
eĠ waiĠ
Ġ chai
ĠĠĠ De
di u
qu ĠweiĠyuĠ
ying ĠzaiĠ
duo ĠjiaĠ
liu ĠjiaĠ
rong ĠweiĠ
ĠshiĠ fou
ĠrenĠ tongĠ
keĠ laiĠ
yeĠ meiĠyouĠ
quĠdeĠ fuĠzeĠguanĠxiaĠ
Ġ 20ĠshiĠjiĠ
ai ĠsiĠ
ĠĠĠ shaĠ
quan ĠyuĠ
lun ĠyuĠ
dou ĠyiĠ
32 ĠnianĠ
ĠweiĠ fanĠ
ĠyouĠ zhengĠ
ĠqiĠ buĠ
huiĠ daoĠzhiĠ
shuĠ jiaĠ
shuĠ xieĠ
ĠdaĠ niĠ
xinĠ beiĠshiĠ
zuĠ gouĠ
bianĠ quĠ
maĠ dingĠ
baĠ baĠ
ĠgaiĠ jianĠ
seĠ qingĠ
ĠqingĠ huaĠ
lvĠkeĠ tieĠdaoĠ
c uan
Ġ Ba
ĠĠĠ lingĠyiĠ
ĠĠĠ teĠzhengĠ
jiao ĠzhongĠ
quan ĠheĠ
chuan ĠjiaĠ
pian ĠyuĠ
po ĠdeĠ
48 ĠnianĠ
61 ĠnianĠ
ĠshiĠ yongĠdeĠ
taiĠ yuanĠ
danĠ mai
ĠgaiĠ zhuangĠ
1Ġ wanĠ
qiangĠ lieĠdeĠ
ĠdongĠ fangĠ
ĠyingĠ cunĠ
taĠmen ĠzaiĠ
ĠwuĠkeĠ lan
an ĠyuĠ
ĠĠĠ yinĠweiĠ
hai ĠweiĠ
xu ĠyuĠ
1905 ĠnianĠ
ĠbuĠ lunĠ
mingĠ eĠ
gaiĠ liangĠ
qiuĠ duiĠdeĠ
ĠwuĠ ziĠ
Ġta ĠerĠ
ĠfaĠ yuanĠ
henĠ kuai
keĠneng ĠdeĠ
Z Ġ
Ġ lianĠheĠguoĠ
zhi ĠshiĠyongĠ
huo ĠqiĠtaĠ
mu ĠweiĠ
pai ĠxiĠ
qin ĠdeĠ
guoĠ wuĠ
ĠzaiĠ faĠguoĠ
gongĠ xiangĠ
ĠqiĠ zhuĠ
jinĠ daiĠ
shangĠ suoĠ
ĠgongĠ zhuĠ
zhuanĠ huiĠ
ĠmingĠ chengĠ
peiĠ jueĠ
Ġer ĠyueĠ
gongĠheĠ guoĠdeĠ
ĠI Ġ
xiao ĠzhongĠ
dian ĠzhiĠ
ding ĠyouĠ
31 ĠnianĠ
39 ĠnianĠ
erĠ yanĠ
ĠqiĠ taĠdeĠ
hunĠningĠ tuĠ
Ġ juanĠ
Ġ 1986ĠnianĠ
bo ĠxiĠ
suo ĠjiĠ
tu ĠxiĠ
ce ĠweiĠ
36 ĠnianĠ
diĠ diĠ
gongĠ ye
jieĠ dianĠ
zhengĠ siĠ
jiaoĠ shaoĠ
jiangĠ zuoĠ
ĠkeĠ linĠ
lianĠ boĠ
zhouĠ moĠ
Ġfou ĠzeĠ
Ġ wai
Ġ teng
Ġ huaiĠ
ĠĠĠ Pa
ling ĠyouĠ
daoĠ qiĠ
zuiĠ houĠdeĠ
kaiĠ yeĠ
baĠ gongĠ
xingĠzhengĠ quĠyuĠ
Ġ h
ĠĠĠ 2023ĠnianĠ
kou ĠyuĠ
xiu ĠxiĠ
kun ĠchongĠ
ĠbuĠ xingĠ
keĠ huĠ
shouĠ jieĠ
mingĠ shengĠ
ĠdaĠ dianĠ
xinĠ xinĠ
qianĠ shuiĠ
bingĠ tuanĠ
maĠ changĠ
ĠxiangĠ duiĠ
huanĠ qiuĠ
enĠ laiĠ
fuĠjianĠ shengĠ
Ġ1950 ĠnianĠ
ĠqiĠxi ĠzaiĠdiĠ
v an
Ä ģ
ha ĠfuĠ
ĠliĠ xingĠ
ĠyouĠ baoĠ
gongĠ dangĠ
xiangĠ muĠdeĠ
beiĠ ceĠ
leĠ ziĠjiĠdeĠ
nanĠ zhuĠjueĠ
guĠ chengĠ
suĠ zhouĠ
ĠshiĠyiĠ yueĠ
moĠ tuoĠ
ĠdeĠshiĠ yanĠ
ĠjieĠ zhuĠ
ĠnanĠ xingĠ
ĠjiĠqiĠ renĠ
ĠĠĠweiĠ yuĠ
dongĠnanĠ yaĠ
tianĠwenĠ xueĠjiaĠ
ĠxinĠjiaĠ poĠ
yuan ĠrenĠminĠbiĠ
zuo ĠweiĠyuĠ
45 ĠnianĠ
ĠyiĠ kaiĠshiĠ
zhongĠ yaoĠdeĠ
wuĠ dingĠ
ĠxiĠ lieĠdeĠ
ĠdanĠ baiĠ
puĠ sheĠ
liĠ changĠ
ĠmeiĠ tiĠ
ĠĠĠ xuĠ
hui ĠqiĠ
hai ĠheĠ
lun ĠheĠ
ĠshiĠ chuĠ
ĠzaiĠ xiangĠgangĠ
wuĠ jianĠ
chengĠ nuoĠ
zhanĠ kai
yinĠ mouĠ
xinĠ yongĠ
banĠ yan
ĠgongĠ chanĠ
xunĠ wenĠ
2Ġ wanĠ
canĠ zhengĠ
luoĠdiĠ yaĠ
zhongĠguoĠrenĠminĠ jieĠfangĠjunĠ
ĠSA OĠĠĠ
4 ĠĠĠ
Ġ zengĠjiaĠ
Ġ niĠkeĠ
xi ĠrenĠ
hua ĠyouĠ
ling ĠzhiĠ
sai ĠheĠ
gang ĠshiĠ
man ĠyuĠ
ĠbuĠ xiĠ
beiĠ gaoĠ
ziĠ fuĠ
changĠ guiĠ
chuanĠ tong
ĠdanĠ meiĠyouĠ
ouĠ meng
Ġ 1920ĠnianĠ
zhen ĠxingĠ
liu ĠrenĠ
buĠ shaoĠ
beiĠ fuĠ
ĠqiĠ diĠ
ĠdiĠ tie
dianĠ xingĠ
benĠ jieĠ
zongĠ mianĠjiĠ
huanĠ guanĠ
Ġ Ga
Ġ Be
Ġ ruiĠdianĠ
she ĠweiĠ
suan ĠyanĠ
kuan ĠdeĠ
yuanĠ diĠ
ĠbuĠ shouĠ
juĠ zhenĠ
dongĠ haiĠ
yingĠ biĠ
yinĠ xingĠ
guiĠ geĠ
Ġbing ĠzhiĠ
ĠxiaĠ wuĠ
ĠbenĠ jieĠ
ĠhongĠ zha
Ġ Bi
gu ĠyuĠ
zhou ĠzhongĠ
ban ĠyouĠ
26 ĠnianĠ
ĠyiĠ daoĠ
ĠliĠ xiangĠ
ziĠ meiĠ
gaiĠ shuĠ
boĠ genĠdiĠ
dengĠ daiĠ
puĠ laĠ
ĠdeĠshiĠ qiĠ
ceĠ huaĠ
Ġzai ĠweiĠ
A G
I G
Ġ 1995
Ġ 1987ĠnianĠ
Ġ 1945ĠnianĠ
ĠĠĠ yingĠguoĠ
lu ĠqiĠ
bing ĠrenĠ
lan ĠdaĠ
cro soft
ĠshiĠ yingĠguoĠ
ciĠ xingĠ
yingĠ jieĠ
xiaĠ xunĠ
moĠ teĠerĠ
shuiĠ ku
tanĠ pan
Ġ wuĠshiĠ
Ġ haiĠshiĠ
Ġ 1978ĠnianĠ
fang ĠzhongĠ
tu ĠheĠ
que ĠliĠ
jianĠ leĠ
ĠguoĠ daoĠ
wuĠ chuĠ
yangĠ zhouĠ
moĠ teĠ
ĠyiĠjiĠ yuĠ
ĠdeĠjiĠ zaiĠ
changĠweiĠ huiĠ
Ġ 1985
Ġ renĠzhiĠ
bo ĠfuĠ
lv ĠdiĠ
guang ĠfuĠ
rou ĠshiĠxingĠ
ĠdeĠ deĠ
ĠyiĠ nanĠ
ĠbuĠ shuĠ
jieĠ fuĠ
jieĠ meiĠ
faĠ shengĠyuĠ
shangĠ xiaoĠ
dongĠ luĠ
jingĠ nei
caiĠ dingĠ
linĠ naĠ
eĠ tuĠ
ĠshiĠjiĠ zhiĠ
ĠdeĠguoĠ chengĠzhongĠ
faĠlanĠxiĠ daĠquĠ
r ai
Ġ ti
Ġ 1989
Ġ kuangĠ
Ġ junĠzaiĠ
ĠĠĠ ta
nv ĠshiĠ
Fa cebook
weiĠ yuanĠhuiĠ
ĠzhiĠ heĠ
qiĠ xiangĠ
taĠ beiĠ
ĠsiĠ tanĠ
zhangĠ woĠ
gaoĠ cengĠ
cheĠ shouĠ
shaoĠ liangĠ
gongĠzuoĠ zheĠ
nongĠ cunĠ
ĠweiĠfuĠ shuĠjiĠ
hangĠkongĠ muĠjianĠ
shengĠhuo ĠzaiĠ
Ġ zui
Ġ Te
Ġ 1958ĠnianĠ
yuan ĠyiĠyuanĠ
jing ĠrenĠ
bing ĠjiĠ
she ĠheĠ
zu ĠliĠ
ling ĠjiĠ
lie ĠdiĠ
qiao ĠchuĠ
43 ĠnianĠ
gongĠ siĠyuĠ
xiaĠ xiaĠyiĠxiaĠdiĠquĠ
bianĠ ruĠ
ĠjinĠ riĠ
ĠnianĠ10ĠyueĠ 1ĠriĠ
ĠduoĠ mingĠ
biaoĠzhun ĠdeĠ
a ĠbuĠ
Ġ 1982ĠnianĠ
xian ĠshiĠdeĠ
ba ĠbuĠ
âĢ ĭ
33 ĠnianĠ
ĠliĠ changĠ
wuĠ suoĠ
chengĠ qiĠ
ĠqiĠ zhongĠdeĠ
jiangĠ huaĠ
ĠziĠ dongĠ
an ĠxiĠ
she ĠxingĠ
tai ĠdiĠ
mu ĠqiĠ
re e
pao ĠbingĠ
xingĠ chengĠdeĠ
junĠ fangĠ
biĠ huaĠ
puĠ leiĠ
chanĠ liangĠ
ĠzhanĠ dou
ĠĠĠ 2004
ĠĠĠ 2004ĠnianĠ
lu ĠyouĠ
bing ĠzhiĠ
suo ĠfuĠ
qiu ĠyuĠ
nv ĠgeĠshouĠ
lo g
ĠshiĠ yinĠduĠ
diĠ baĠ
wanĠ yanĠ
sanĠ xiangĠ
guangĠ zhouĠshiĠ
zhuanĠ boĠ
yiĠdeĠ daoĠ
ĠbeiĠqiĠ shunĠshiĠzhenĠyuĠ
Ġ juan
ĠĠĠ shuiĠ
dian ĠweiĠyuĠ
quan ĠshiĠjieĠ
duo ĠyiĠ
ding ĠbuĠ
tu ĠweiĠ
zhuang ĠyouĠ
guanĠ yinĠ
gengĠ huanĠ
ĠruĠ jinĠ
Ġ cen
Ġ hunĠ
Ġ XĠ
ĠĠĠ 2003
jiu ĠjiĠ
ni ĠdaĠquĠ
bo ĠyuĠ
gou ĠwuĠ
ĠguoĠ min
ĠguoĠ fangĠbuĠ
xiangĠ qianĠ
tongĠ huaĠ
xiaĠ weiĠyiĠ
lunĠ shuĠ
pinĠ fanĠ
piĠ ping
ĠtianĠ wenĠ
xiĠbanĠ ya
Ġniu ĠyueĠshiĠ
5 ĠmingĠ
Ġ yongĠyiĠ
ĠĠĠ tong
mu ĠyiĠ
pai ĠjiĠ
dou ĠzhiĠ
can ĠjiĠrenĠ
zhao ĠdeĠ
44 ĠnianĠ
42 Ġ
1917 ĠnianĠ
gongĠ qingĠ
keĠ huanĠ
jiangĠ xianĠ
duĠ chaĠ
haiĠ guanĠ
meiĠ shuĠguanĠ
tianĠ jinĠshiĠ
xuanĠ piaoĠ
chaoĠjiĠ lianĠsaiĠ
Ġ Ri
Ġ dongĠxiĠ
nuo ĠbeiĠerĠ
nai ĠerĠ
Mu si
youĠ taiĠrenĠ
wuĠ fuĠ
jiangĠ zhangĠ
yaĠ dianĠ
fanĠ dui
Ġta ĠzhiĠ
renĠweiĠ yuanĠ
ĠduoĠ geĠ
ĠzuiĠzhongĠ zaiĠ
mingĠniĠ suĠdaĠ
Ġ n
li ĠyouĠ
qing ĠweiĠ
yuanĠ shouĠ
jianĠ xiaoĠ
zhanĠ fuĠ
yingĠ shuĠ
luoĠ menĠ
chuanĠ xianĠ
ĠgongĠ changĠ
guangĠ xuĠ
ĠzhuĠ saiĠ
ĠgaoĠ suĠ
ĠtaĠcengĠ daiĠbiao
Ġ jian
Ġ kui
wu ĠzhongĠxinĠ
jiang ĠweiĠwuĠerĠ
15 00
1910 ĠnianĠ
zhengĠ lunĠ
shangĠ faĠlanĠxiĠdaĠquĠ
baoĠ luĠ
fenĠ kaiĠ
zuiĠ chuĠdeĠ
ĠbingĠ huoĠdeĠ
Ġ shuo
Ġ junĠweiĠ
xu ĠjiaĠ
ĠyiĠ shangĠdeĠ
ĠliĠ jiaĠ
qiĠ yongĠ
ĠguoĠ anĠ
guanĠ jieĠ
ĠdaĠ gongĠ
jiaoĠ duoĠ
biĠ ciĠ
tianĠ ranĠ
chongĠ fenĠ
chuangĠ zuo
3Ġ gongĠliĠ
Ġ chaoĠjiĠ
ren ĠshiĠdeĠ
qu ĠdeĠyiĠ
tong ĠrenĠ
mei ĠrenĠ
shui ĠxiĠ
10 ĠgeĠ
hong ĠshiĠziĠ
chun ĠjiĠ
zhongĠ daĠ
shangĠ chuanĠ
yingĠ sheĠ
xinĠ xianĠ
xinĠ huaĠ
jiaoĠ tong
junĠ zhangĠ
yaĠ chiĠ
tuĠ luĠ
zhunĠ queĠ
Ġma ĠerĠ
faĠbiaoĠ leĠ
p re
Ġ 1980
Ġ 22Ġ
hu ĠrenĠ
yan ĠweiĠ
bao ĠzhongĠ
du ĠyouĠ
lai ĠjiĠ
gao ĠweiĠ
sun ĠhaiĠ
chou ĠkeĠ
ĠzhiĠ houĠdeĠ
beiĠ songĠ
ĠxiĠ lanĠ
taiĠ nanĠshiĠ
xiaĠ banĠ
nanĠ ceĠ
canĠ yanĠ
ĠzhiĠchiĠ zheĠ
ĠĠĠ ha
mei ĠyuĠ
xia ĠheĠ
cai ĠfuĠ
wangĠ fanĠ
1Ġ mianĠ
Ġai ĠdeĠ
guiĠdaoĠ jiaoĠtongĠ
xianĠdaiĠ huaĠ
dianĠqiĠ huaĠ
5 ĠĠĠ
Ġ chuanĠtongĠ
ĠĠĠ Y
ĠĠĠ suĠ
mu ĠyouĠ
qiu ĠxingĠ
lan ĠqiĠ
47 ĠnianĠ
fuĠ mianĠ
taiĠ zhongĠshiĠ
wangĠ chaoĠdeĠ
muĠ hanĠmoĠdeĠ
luoĠ houĠ
neiĠ zhengĠbuĠ
tuiĠ chu
ĠĠĠ 188
dao ĠyiĠgeĠ
hua ĠbuĠ
dian ĠzaiĠ
xu ĠzhiĠ
29 ĠnianĠ
ĠshiĠ miĠ
ĠshiĠ miĠsiĠ
ĠyiĠ ziĠ
ĠweiĠ guoĠ
gongĠ shuĠ
ĠguoĠ jiaĠjiĠ
fenĠ bianĠ
liangĠ haoĠdeĠ
ĠfuĠ muĠ
bianĠ gengĠ
ĠgaiĠ wuĠzhongĠdeĠ
peiĠ xun
zhengĠfu ĠheĠ
shengĠwuĠ xueĠ
sanĠjiaoĠ xingĠ
9 ĠgeĠ
Ġ fuĠzhiĠ
ue Ġ
le ĠliĠ
gai ĠdeĠ
jiu ĠbuĠ
gao ĠliĠ
66 ĠnianĠ
ys te
zhiĠ zuoĠ
pingĠ xianĠ
danĠ maiĠ
wanĠ shanĠ
ĠzheĠ xiangĠ
hongĠ shuiĠ
wuĠliĠ xueĠjiaĠ
dongĠbuĠ daĠquĠ
aĠjiĠ tan
4 000
Ġ leiĠsiĠ
hui ĠshiĠyongĠ
jiang ĠdaĠ
du ĠzhongĠ
lie ĠtaĠ
huan ĠyouĠ
rui ĠkeĠ
53 ĠnianĠ
buĠ luĠ
jianĠ jiaoĠ
wuĠ yeĠ
shouĠ yingĠ
yanĠ huĠ
ĠdaĠ zhengĠ
gaoĠ xiongĠ
lingĠ shouĠ
guĠ geĠ
ĠzhuĠ yanĠ
Ġtong ĠnianĠ10ĠyueĠ
ĠmaĠ dingĠ
xiaoĠshiĠ houĠ
ĠzhenĠ duiĠ
niuĠyueĠ zhouĠ
Ġ tie
Ġ An
Ġ louĠ
qi ĠyiĠzhiĠ
liang ĠzaiĠ
chen ĠshiĠ
bang ĠdanĠ
xingĠ shengĠ
gongĠ buĠdeĠ
huiĠ shouĠ
ĠdiĠ chuĠ
zhanĠ qianĠ
tongĠ chengĠ
zheĠ changĠ
taiĠ yinĠ
dianĠ luĠ
banĠ dianĠ
zongĠ tiĠ
chuanĠ jiaoĠshiĠ
qinĠ fanĠ
miaoĠ xieĠ
ĠchaoĠ tingĠ
Ġ zun
ĠĠĠ jiaoĠ
hu ĠjiĠ
dao ĠzhongĠguoĠ
dian ĠzhongĠ
kai ĠxingĠ
daĠ xiĠ
jieĠ mianĠ
houĠ zheĠ
zhanĠ duiĠ
guanĠ kan
saiĠ tingĠ
ĠxiangĠ biĠ
lieĠ ru
Ġri ĠheĠ
tuoĠ leiĠ
ĠguangĠ zhouĠ
G B
Ġ faĠbuĠ
Ġ xiangĠshiĠ
ĠĠĠ deĠĠĠ
shu ĠdeĠyiĠzhongĠ
xin ĠnianĠ
zhen ĠzhongĠ
lin ĠheĠ
lun ĠzhongĠ
ĠshiĠ yinĠweiĠ
ĠyiĠ shouĠ
daĠ baiĠ
xingĠ mingĠ
wuĠ jiaĠ
xiangĠ cunĠ
dongĠ wuĠdeĠ
qianĠ fengĠ
zuĠ gouĠdeĠ
gaoĠ fengĠ
luoĠ niĠ
biaoĠ tiĠ
zhuanĠ men
ĠzhanĠ zhengĠ
ĠbuĠguoĠ zaiĠ
faĠxianĠleĠ ciĠtianĠtiĠ
ĠaĠerĠbeiĠ siĠ
4 ĠhaoĠ
B BC
Ġ in
Ġ houĠzaiĠ
ĠĠĠ pingĠ
dui ĠrenĠ
huo ĠzhiĠ
gai ĠjiĠ
liang ĠkeĠ
ting ĠzaiĠ
niu ĠjinĠ
ght Ġ
ĠzaiĠ geĠ
yeĠ tiĠ
wenĠ daiĠ
taiĠ yang
qingĠ haiĠ
sheĠ zhiĠdeĠ
zhenĠ chaĠ
lingĠ duiĠ
kaiĠ boĠ
paiĠ ming
shaoĠ huiĠ
ĠgongĠyuanĠ qianĠ
Ġ zouĠ
xing ĠdeĠshiĠ
tai ĠzhiĠ
sai ĠyuĠ
guang ĠdaĠ
42 ĠnianĠ
jianĠ jianĠ
chuĠ ruĠ
zhengĠ jianĠ
shouĠ qiangĠ
yingĠ jiuĠ
liangĠ tiaoĠ
shenĠ yuanĠ
zuĠ zhangĠ
xuĠ niĠ
caiĠ neng
zhaoĠ muĠ
ĠqiĠzhongĠ baoĠkuo
Ġgai ĠjiĠ
pingĠlun ĠjiaĠ
ĠĠĠ Le
ĠĠĠ Ga
nian ĠjianĠ
ge Ġyue
gai ĠyiĠ
bo ĠliĠyaĠ
yao ĠzhiĠ
pian ĠshiĠ
ning ĠxianĠ
co diceĠ
diĠ zhenĠ
ĠrenĠ mingĠweiĠ
shuĠ niuĠ
zhanĠ siĠ
yangĠ guangĠ
fanĠ dianĠ
niĠ guĠlaĠ
linĠ jinĠdeĠ
ĠgeĠ siĠ
jieĠshouĠ leĠ
Ġ000 ĠmingĠ
zhuĠshiĠ huiĠsheĠ
t ra
Ġ ruiĠshiĠ
ĠĠĠ duoĠ
chang ĠzhongĠ
gai ĠdiĠquĠ
feng ĠxingĠ
12 ĠgeĠ
heng ĠdeĠ
AT P
huiĠ quĠ
yaĠ suoĠ
bianĠ jiangĠ
fanĠ kangĠ
ĠyuanĠ yinĠ
Ġyou ĠweiĠ
xianĠdeĠ chengĠshiĠ
caoĠ anĠ
ĠyouĠxianĠ gongĠsi
ĠjinĠxingĠ leĠ
aiĠerĠ lan
Ġ chou
Ġ 1946
Ġ Su
ĠĠĠ biĠsaiĠ
zheng ĠzhongĠ
mi ĠrenĠ
sai ĠshiĠzhongĠ
bang ĠjiaĠ
mou ĠgeĠ
ĠyiĠ fangĠ
siĠ zhangĠ
wuĠ juĠ
wuĠ mingĠ
beiĠ shaĠ
ĠqiĠ yuanĠ
shuĠ baiĠ
shouĠ piao
duĠ teĠ
ĠkeĠ yiĠshiĠ
fanĠ zui
baĠ mianĠ
chuanĠ shangĠ
Ġbei ĠweiĠ
jieĠyiĠ chanĠ
Ġ 1988
Ġ zhiĠdeĠ
Ġ 1980ĠnianĠ
ĠĠĠ Ne
ĠĠĠ minĠguoĠ
shan ĠzhiĠ
be ginĠ
AK B48
1915 ĠnianĠ
guoĠ jiaĠdeĠ
fuĠ huoĠ
chuĠ kou
jingĠ jieĠ
lianĠ shuĠ
anĠ dongĠniĠ
zuiĠ xinĠ
ĠdanĠ yinĠweiĠ
ĠzhuĠ tiĠ
haĠ laĠ
N C
p ha
Ġ Ni
ĠĠĠ suoĠ
ĠĠĠ 5Ġ
ĠĠĠ 2ĠyueĠ
liu ĠheĠ
na ĠzaiĠ
tuo ĠdeĠ
tun ĠmenĠ
56 ĠnianĠ
yuanĠ chuangĠ
yeĠ keĠ
jueĠ saiĠdeĠ
linĠ xianĠ
ĠjingĠ waiĠshuĠruĠ
ĠĠĠshiĠ jianĠ
ĠdeĠzhongĠ yaoĠ
dianĠziĠyouĠ xiĠ
y leĠ
sh Ġ
ti ĠzaiĠ
ju ĠdiĠ
mo ĠzhiĠ
kua ĠyueĠ
um Ġ
ĠyouĠ huiĠ
zhuĠ ming
junĠ dui
meiĠ you
fanĠ xiangĠ
fanĠ sheĠ
leĠyiĠ zhongĠ
ĠdeĠjiĠchuĠ shangĠ
zongĠyiĠ jieĠmuĠ
Ġ 57
Ġ yuanĠweiĠ
ĠĠĠ La
ĠĠĠ 1ĠyueĠ
yong ĠweiĠ
neng ĠliĠdeĠ
pian ĠyiĠ
chuang ĠyiĠ
gei ĠshiĠzhongĠ
shuai ĠjunĠ
wuĠ luĠ
ĠqiĠ xiaĠdeĠ
quĠ chuĠ
yingĠ bangĠ
luĠ xingĠmuĠ
xiaoĠ haoĠ
touĠ mingĠ
kaoĠ ruĠ
Ġba ĠxiĠ
liaoĠning ĠshengĠ
Ġ ne
Ġ geĠliĠ
sai ĠsiĠ
cun ĠheĠ
38 Ġ
heĠ faĠ
beiĠ geĠ
xiaoĠ chuĠ
daiĠ xieĠ
ruĠ xuan
bianĠ lunĠ
guĠ yongĠ
ĠchengĠ xianĠ
2Ġ mianĠ
Ġdang ĠnianĠ
ĠshangĠ hai
7Ġ gongĠliĠ
Ġjin ĠzhiĠ
wuĠxianĠ dianĠ
zuiĠhouĠyiĠ ciĠ
Ġtian ĠqiĠ
ĠsectionĠĠĠ beginĠ
touĠru ĠshiĠyongĠ
a ĠdeĠ
ai ĠliĠsiĠ
ĠĠĠ zheĠxieĠ
yong ĠliĠ
lei ĠxiĠ
lei ĠkeĠ
gui ĠyuĠ
cao ĠyuanĠ
erĠ yuanĠ
shangĠ huiĠ
jiaoĠ xiangĠ
junĠ wangĠ
ĠjinĠ tianĠ
ĠjianĠ zaoĠ
meiĠguoĠ guoĠjiaĠ
ĠchengĠ duĠ
aiĠ shaĠ
ĠyiĠzhiĠ weiĠ
ĠwangĠ luoĠ
ĠzaiĠci ĠqiĠjianĠ
Ġ daĠliĠ
Ġ heĠyiĠ
an ĠbuĠ
bei ĠyouĠ
xiao ĠshiĠdeĠ
nan ĠweiĠ
suo ĠheĠ
tu ĠzaiĠ
lor Ġ
xingĠ haoĠ
chuĠ shengĠzaiĠ
jinĠ shenĠ
jingĠ chengĠ
ĠdaĠ tongĠ
nanĠ xiaĠ
xuanĠ baĠ
feiĠ zhou
zeĠ renĠweiĠ
panĠ duanĠ
Ġjin ĠjiĠ
Ġjiu ĠyueĠ
ĠdaiĠmaĠweiĠ 0
Ġ xue
Ġ 98
ĠĠĠ Te
bing ĠzhongĠ
ĠyiĠ langĠ
yuanĠ yuanĠ
jiaĠ shuĠ
zhuĠ duoĠ
haiĠ junĠdeĠ
muĠ biao
zuĠ ziĠzhiĠquĠ
teĠ gongĠ
bianĠ liangĠ
guĠ xiangĠ
ĠshouĠ luĠ
ĠwanĠ quanĠ
tuiĠ ceĠ
yinĠyueĠ huiĠ
baĠshiĠ luĠxianĠ
guangĠboĠ dianĠtaiĠ
round Ġ
I L
Ġ neiĠbuĠ
ĠĠĠ 11
bi ĠzhiĠ
ru ĠzhiĠ
jue ĠqiĠ
pei ĠyueĠ
hong ĠqiĠ
cao ĠdiĠ
ga Ġ
Lin u
ĠshiĠ fangĠ
jiĠ shuĠ
buĠ xiangĠ
daĠ lianĠmengĠ
siĠ jiaĠ
riĠ houĠ
jiaoĠ geiĠ
nanĠ yanĠyuanĠ
fengĠ suĠ
fengĠ mianĠ
ĠshiĠweiĠ yuanĠhuiĠ
diĠshiĠ erĠ
Ġduo ĠrenĠ
reĠdai ĠdiĠqiĠyaĠ
G C
Ġ kongĠzhiĠ
ĠĠĠ Z
ying ĠyouĠ
yang ĠrenĠ
ĠzaiĠ xianĠ
ĠbuĠ langĠ
keĠ laĠ
huiĠ mianĠ
chuĠ laiĠdeĠ
xueĠ guanĠ
daiĠ zheĠ
suoĠ xuĠdeĠ
sĠĠĠ of
A D
r on
fei ĠsiĠ
shan ĠsiĠ
na ĠxiĠ
ĠliĠ mianĠ
ĠdaĠ siĠ
fenĠ juĠ
ĠjiaĠ qiangĠ
guangĠ dianĠ
yueĠ qiuĠ
ĠranĠ houĠzaiĠ
Ġsi ĠyueĠ
ĠjinĠshiĠ chuĠshenĠ
Ġ chong
ou n
jiu ĠyuĠ
ling ĠheĠ
su ĠheĠ
pin ĠweiĠ
les Ġ
ĠshiĠ pinĠ
renĠ kou
jieĠ quĠ
keĠ xiĠ
beiĠ pingĠ
ĠdaĠ shaĠ
teĠ youĠzhiĠwuĠ
haoĠ wuĠ
ĠjianĠ chaĠ
zuiĠgaoĠ faĠyuanĠ
jiaĠliĠfuĠ niĠyaĠ
Ġ geiĠ
yi ĠshiĠshiĠ
di o
bu ĠdeĠyiĠ
ke ĠshiĠyongĠ
shan ĠxingĠ
lei ĠliĠ
feng ĠqiĠ
cha ĠzhiĠ
to Ġ
youĠ juĠyuĠ
ĠguoĠ zhongĠ
beiĠ haiĠ
beiĠ faĠxianĠ
laiĠ meiĠ
duoĠ yangĠ
juanĠ zengĠ
O M
c ti
sh uan
ĠĠĠ huĠ
dai ĠzhongĠ
xu ĠweiĠ
bian ĠbuĠ
tui ĠdaoĠ
ly ĠĠĠ
wangĠ luo
nanĠ luĠ
nanĠ nvĠ
banĠ shangĠ
Ġãĥ ³
Ġ f
Ġ 1983
Ġ buĠliĠ
yao ĠxingĠ
po ĠshiĠ
siĠ mingĠ
jianĠ zhu
huiĠ xingĠ
jinĠ saiĠ
tiĠ qinĠ
yangĠ benĠ
chuanĠ zhuĠ
zhaoĠ huiĠ
moĠshiĠ chan
ĠsectionĠĠĠ endĠ
xi ĠyueĠ
ĠĠĠ taĠzaiĠ
ke ĠbuĠ
kai ĠshiĠdeĠ
ĠyiĠ jieĠ
chengĠ qiangĠ
shuĠ fuĠ
juĠ huiĠ
biĠ luĠ
boĠ yingĠ
fengĠ jingĠ
jueĠ zhuĠ
ĠgongĠ zuo
ĠgaiĠ gongĠsiĠ
xunĠ yanĠ
Ġbei ĠzhiĠ
shouĠhuanĠ yingĠdeĠ
da ĠliĠdeĠ
bian ĠliĠ
zuan ĠshiĠ
ĠzaiĠ guoĠ
ĠheĠ fuĠ
ziĠ danĠ
chuĠ ban
ĠxiĠ quĠ
zuoĠ paiĠ
xinĠ wen
jiaoĠ xiaoĠdeĠ
tieĠluĠ juĠ
miĠniĠ zhuanĠjiĠ
B DĠ
Ġ gen
Ġ shengĠrenĠ
dang ĠzhiĠ
kong ĠjuĠ
90 ĠnianĠdaiĠ
ps Ġ
youĠ renĠ
huiĠ jiangĠ
laiĠ leĠ
zuĠ zongĠ
ĠgaiĠ geĠ
ĠĠĠzhuĠ zuoĠ
saĠerĠ waĠ
paiĠhangĠ bangĠ
kaoĠlv ĠdaoĠ
Ġ shang
Ġ ban
yi ĠshiĠjiĠ
ĠĠĠ wuĠkeĠlanĠ
mei ĠheĠ
huo ĠweiĠ
feng ĠjiĠ
geng ĠyouĠ
bie ĠshuĠ
pang ĠqiuĠ
qiĠ xiaĠ
ĠzhongĠ duoĠ
jianĠ ce
chengĠ faĠ
qingĠ daiĠ
muĠ houĠ
luoĠ yangĠ
ĠzhuĠ mingĠ
douĠ yuĠshiĠ
woĠ menĠdeĠ
Ġai ĠliĠ
jiaoĠhuiĠ chuĠ
jiangĠyuĠ liangĠ
ĠjieĠweiĠ luĠdiĠ
Ġ za
hui ĠliĠ
san ĠheĠ
che ĠzaiĠ
lin ĠzhiĠ
ku ĠsiĠ
meng ĠyouĠ
youĠ xiaoĠ
qiĠ zaiĠ
ĠyouĠ taiĠrenĠ
ĠheĠ luĠ
gongĠ tingĠ
jianĠ shuĠ
jinĠ kouĠ
huaĠ tiĠ
tongĠ changĠshiĠ
jiangĠ jieĠ
ĠfuĠ za
wanĠ chengĠdeĠ
miĠ xieĠ
anĠ zhao
suoĠ muĠ
zuiĠ mingĠ
baĠ saiĠerĠ
ĠxuĠ duo
ĠĠĠ Be
ĠĠĠ zhanĠhouĠ
yin ĠyueĠdeĠ
jun ĠdaĠ
zao ĠchuĠ
guang ĠdaoĠ
chan ĠshiĠ
gou ĠxiangĠ
po r
cao ĠdeĠ
ĠqiĠ tuĠ
ĠdiĠ 2Ġ
dongĠ hua
boĠ leiĠ
dengĠ xiaoĠ
huĠ tongĠ
liuĠ xingĠdeĠ
cengĠ danĠrenĠ
ĠhouĠ beiĠ
kongĠ guĠ
ĠciĠ wai
xue ĠshiĠweiĠ
bo ĠheĠ
na ĠweiĠ
song ĠshiĠ
jiĠ chuĠ
ĠzhongĠ wuĠ
fenĠ dianĠ
wangĠ minĠ
zuiĠ juĠ
fanĠ paiĠ
shanĠ luĠ
ĠgongĠ nengĠ
ĠciĠ juĠ
canĠ mouĠ
ĠdeĠzhiĠ zuoĠ
ĠK Ġ
ĠyueĠzhongĠ xunĠ
Ġ zhanĠshiĠ
ĠĠĠ 2003ĠnianĠ
you ĠshiĠyiĠ
jian ĠyueĠ
zi ĠbuĠ
zhou ĠguoĠ
zhou ĠsiĠ
han ĠrenĠ
tiao ĠshiĠ
rang ĠrenĠ
daĠ liangĠdeĠ
daĠ dongĠbuĠdaĠquĠ
jianĠ zaoĠdeĠ
zhanĠ lieĠ
zuĠ qun
teĠ luoĠ
ĠciĠ lieĠcheĠ
ĠĠĠliĠshiĠ yanĠgeĠ
yanĠjiu ĠzhongĠ
u l
Ġ Cha
ĠĠĠ sheĠ
ĠĠĠ tuĠ
ta ĠbuĠ
dai ĠjiaĠ
chuan ĠdaĠ
57 ĠnianĠ
Net fli
ĠshiĠ minĠ
beiĠ mianĠ
ziĠ jiĠshiĠ
huiĠ xianĠ
juĠ ziĠ
tiĠ neiĠ
junĠ fuĠ
xiaĠ shuiĠ
haiĠ wanĠ
jiuĠ ciĠ
diĠyiĠ mingĠ
ĠhouĠ yinĠ
Ġtong ĠyueĠ
ĠluoĠ boĠ
Ġ g
zheng ĠrenĠ
gu ĠdiĠ
nuo ĠkeĠ
lli am
ĠjiĠ xianĠ
daĠ erĠ
jiaĠ zhuangĠ
keĠ qianĠwangĠ
mingĠ dan
ciĠ ziĠ
dengĠ baoĠ
baĠ leiĠ
ĠjinĠ gongĠ
chanĠ sheng
saĠ moĠ
muĠsiĠ teĠ
siĠlingĠ yuanĠ
Ġ 88
Ġ Ch
zhan ĠshiĠqiĠ
min ĠzaiĠ
kan ĠwuĠ
lao ĠhuiĠ
49 ĠnianĠ
xiĠ yinĠ
yuanĠ chengĠ
shuĠ mingĠ
houĠ saiĠ
xinĠ yang
bingĠ chuanĠ
guangĠ xianĠ
keĠyiĠ yongĠ
Ġzhe ĠliĠ
laoĠ banĠ
nongĠ duĠ
Ġgai ĠnianĠ
ĠyaĠ meiĠ
huĠbeiĠ shengĠ
shouĠhaiĠ zheĠ
3 ĠliĠ
Ġ 1986
Ġ 1982
Ġ 700
Ġ qiĠzhiĠ
ĠĠĠ duĠ
chang ĠrenĠ
min ĠheĠ
pi ĠerĠ
che ĠheĠ
lei ĠzaiĠ
36 Ġ
41 ĠnianĠ
quĠ xianĠ
jiaoĠ wangĠ
qianĠ longĠ
ĠxingĠ bie
fanĠ chuanĠ
ĠgaiĠ dangĠ
2Ġ gongĠliĠ
ĠmeiĠ zhouĠ
ĠdeĠdaoĠ luĠ
chengĠduĠ shangĠ
Ġ zuoĠyouĠ
Ġ tuĠerĠqiĠ
Ġ 1947ĠnianĠ
jiao ĠxiĠ
na ĠyiĠ
se ĠheĠ
mao ĠkeĠ
37 Ġ
xiangĠ fuĠ
beiĠ shouĠ
beiĠ anĠ
zuoĠ biaoĠ
ĠdaĠ ziĠ
yinĠ duĠdeĠ
ĠjiaĠ la
muĠ luĠ
maĠ luĠ
ĠjianĠ duĠ
aĠ saiĠbaiĠ
ĠhuaĠ xueĠ
ĠzongĠ jiaoĠ
ĠshiĠyiĠkeĠ hengĠxingĠ
Ġ zhunĠbeiĠ
ĠĠĠ f
jie ĠyueĠ
ye ĠliĠ
bo ĠqiĠ
fan ĠyuĠ
neng ĠyuĠ
huan ĠshiĠ
34 Ġ
fenĠ huaĠ
xiaoĠ fuĠ
qingĠ fuĠ
shenĠ chuĠ
qiuĠ dui
liuĠ mingĠ
2Ġ biĠ
8Ġ gongĠliĠ
ĠaoĠ diĠliĠ
Ġzheng ĠyueĠ
Ġ zaoĠqiĠ
Ġ fuĠliĠ
an ĠdiĠ
ĠĠĠ genĠju
lai ĠweiĠ
II IĠ
zhongĠ zuĠ
shengĠ xingĠ
jinĠ zhuĠ
quĠ zhuĠjianĠ
zhengĠ jiuĠ
changĠ shuĠ
banĠ zhangĠ
shenĠ xueĠ
ĠchengĠ keĠ
3Ġ wanĠ
qunĠ daoĠdeĠ
changĠpian ĠgongĠsiĠ
W T
Ġ nei
Ġ Po
yin ĠrenĠ
xin ĠdiĠ
52 ĠnianĠ
jiaoĠ gaoĠdeĠ
haiĠ yang
guangĠ xueĠ
ĠjieĠ tiĠ
nianĠ duĠ
tongĠguoĠ leĠ
faĠxingĠ leĠ
ĠfeiĠ changĠ
ĠguiĠ dingĠ
gaoĠxiong ĠshiĠ
ĠpuĠtaoĠ yaĠyuĠ
2 ĠjiaĠ
j a
Ġ Bo
Ġ daiĠbiao
ĠĠĠ ruĠguoĠ
dao ĠĠĠ
dong ĠzhongĠ
quan ĠzhongĠ
su ĠyuĠ
bang ĠshangĠ
58 ĠnianĠ
daĠ jiaĠ
yuanĠ laiĠdeĠ
wuĠ jieĠ
yanĠ bianĠ
dengĠ zhanĠ
fanĠ xinĠ
tieĠluĠ gongĠsiĠ
zongĠjiaoĠ quĠ
zuiĠhou ĠyiĠgeĠ
mei ĠkeĠ
ba ĠqiĠ
shao ĠyuĠ
OS Ġ
heĠ chengĠ
Ġyue ĠjiĠ
gongĠ lu
wuĠ xuĠ
ciĠ leiĠ
duiĠ gaiĠ
muĠ diĠshiĠ
meiĠ laĠ
liuĠ jingĠ
ĠshengĠ wuĠ
zhengĠshiĠ chengĠliĠ
dianĠying ĠzhongĠ
li ĠsiĠ
ĠĠĠ v
sai ĠshiĠdeĠ
fan ĠrenĠ
lv ĠbuĠ
cha ĠsiĠ
11 ĠshiĠ
zhai ĠdeĠ
ĠzaiĠ neiĠ
xiĠ quĠ
ĠyueĠ duĠ
leĠ jinĠ
huaĠ wenĠ
ĠriĠ benĠdeĠ
ĠjiaĠ mengĠ
zuĠ lianĠ
lianĠ xianĠ
ĠdanĠ taĠmenĠ
ĠhuiĠ daoĠ
ĠjiaoĠ shouĠ
ĠĠĠshiĠ jieĠ
ĠbianĠ haoĠ
xinĠliĠ xueĠ
xunĠhuiĠ saiĠ
ĠwanĠmeiĠ yuanĠdeĠ
I F
b li
Ġ yu
qiu ĠdaĠ
liu ĠqiĠ
guang ĠweiĠ
tang ĠshiĠ
song ĠzhiĠ
gei ĠchuĠ
jieĠ jingĠ
xiangĠ jiangĠ
jiaoĠ yuĠdeĠ
duiĠ yingĠdeĠ
xiaoĠ zhenĠ
danĠ shuiĠyuĠ
shenĠ shouĠ
ĠfuĠ haoĠ
ĠtaĠ yeĠshiĠ
guĠ baĠ
haoĠ chengĠshiĠ
ĠgaiĠ chengĠ
ĠciĠ qianĠ
guoĠdeĠ teĠyouĠzhiĠwuĠ
ĠanĠ zhaoĠ
ĠlianĠ xuĠ
ĠdeĠyiĠge ĠzhongĠ
fuĠshiĠ zhangĠ
ĠgaiĠshengĠfenĠweiĠfaĠguoĠ beiĠbuĠ
zhanĠdou ĠzhongĠ
Ġ quanĠbuĠ
ĠĠĠ Se
er sĠ
han ĠsiĠ
zou ĠdeĠ
id Ġ
Ġnian ĠzhiĠhouĠ
ĠyouĠ zheĠ
ĠzaiĠ shangĠ
shengĠ fuĠzeĠguanĠxiaĠ
ĠerĠ jiaĠ
tongĠ xun
jiaoĠ yuanĠ
saiĠ juĠ
ĠyanĠ yuanĠ
Ġgai ĠdiĠ
1ĠriĠ pingĠjunĠ
Ġliang ĠguoĠ
keĠjiĠ daĠxueĠ
ĠerĠsiĠ keĠ
kongĠzhongĠ faĠxianĠ
huanĠxingĠ shanĠ
minĠjinĠ dangĠ
Ġ Ki
Ġ zhuiĠ
ĠĠĠ Q
qi ĠshiĠdeĠ
xiao ĠdiĠ
deng ĠyiĠ
bai ĠjinĠ
pai ĠshiĠ
chao ĠxiĠ
tuo ĠyuanĠxingĠ
ĠdeĠ buĠ
ĠdeĠ laĠ
ĠrenĠ neiĠ
jianĠ yanĠ
dingĠ muĠ
dingĠ lvĠ
liuĠ fangĠ
fengĠ biĠ
paiĠ duiĠ
ĠliangĠ zheĠ
Ġ23 Ġ
S O
ta ĠjiĠ
xu ĠheĠ
gui ĠjiĠ
bang ĠdaĠ
ĠyiĠ guoĠ
ĠzaiĠ fuĠ
beiĠ diĠ
zuoĠ chuĠleĠ
tiĠ caoĠ
wangĠ guoĠdeĠ
hanĠ baoĠ
ĠyeĠ keĠ
huoĠdeĠ diĠ
yuĠyiĠ daĠliĠ
ĠbenĠ mingĠ
ĠÐ ½
Ġsi ĠliĠ
ĠweiĠzhongĠ xinĠ
ĠshiĠshiĠjieĠ shangĠ
B M
Ġ miao
ĠĠĠ Di
ĠĠĠ Fi
ĠĠĠ houĠlaiĠ
da ĠyouĠ
ming ĠliĠ
ru ĠdiĠ
xu ĠliĠ
tie ĠdeĠ
pei ĠsiĠ
55 ĠnianĠ
keĠ taĠ
ĠdaĠ lou
tiĠ chu
dangĠ paiĠ
ĠjianĠ shaoĠ
Ġjin ĠyiĠbuĠ
ĠtuĠ jingĠ
kaĠluoĠlaiĠnaĠ zhouĠ
Ġ zhongĠyiĠ
Ġ fangĠzhiĠ
Ġ 1946ĠnianĠ
ai ĠdiĠ
ĠĠĠ canĠkaoĠ
wan ĠshiĠ
zao ĠshiĠ
1900 ĠnianĠ
Ġli ĠweiĠzhiĠ
jianĠ dingĠ
shouĠ piĠ
zhanĠ biĠ
yeĠ chengĠ
jiangĠ gaiĠ
dianĠ ciĠ
wanĠ jieĠ
lianĠ siĠjiĠ
ĠjinĠ guan
zhengĠzhiĠ xieĠshangĠ
ĠlianĠ bangĠ
ĠO Ġ
ĠheĠbeiĠ shengĠ
ĠqiĠxiĠ shenĠduĠ
3 ĠshiĠ
Ġ St
ĠĠĠ wenĠ
ĠĠĠ niĠ
fa ĠyouĠ
zhan ĠguoĠ
dai ĠheĠ
wang ĠdaĠ
48 Ġ
63 ĠnianĠ
ali gnĠ
jinĠ jinĠ
ĠdiĠ keĠ
zhanĠ lieĠjianĠ
huaĠ dongĠ
minĠ yongĠ
ĠtaĠ biaoĠshiĠ
fanĠ yingĠdeĠ
ĠxiangĠ dangĠ
ĠshiĠweiĠ shuĠjiĠ
Ġtong ĠnianĠ11ĠyueĠ
ĠtongĠ chang
saĠkeĠ senĠ
xunĠhuiĠ yanĠchangĠhuiĠ
moĠshiĠchan ĠdiĠzaiĠ
1 ĠzhiĠ
Ġ du
Ġ 1948ĠnianĠ
ĠĠĠ w
er ĠshiĠshiĠjiĠ
suo ĠyuĠ
hao ĠzhongĠziĠ
chun ĠjieĠ
jieĠ zhuĠ
jingĠ xianĠ
yinĠ yuanĠ
sheĠ xiangĠ
meiĠguoĠ haiĠjunĠ
Ġbing ĠshiĠ
shaoĠ nv
2010ĠnianĠ meiĠguoĠrenĠkouĠpuĠchaĠ
Ġmin ĠjiĠ
Ġ 1948
Ġ 1979ĠnianĠ
ĠĠĠ he
ying ĠweiĠ
chi ĠyuĠ
ver Ġ
59 ĠnianĠ
ĠyiĠ zhangĠ
zhenĠ dongĠ
huĠ zhaoĠ
zhuĠyiĠ daoĠ
Ġjiang ĠyuĠ
ziĠgeĠ saiĠ
6 ĠmingĠ
p ouĠ
Ġ m
Ġ henĠduoĠ
ng Ġ
ji ĠyiĠjiĠ
ĠĠĠ faĠxingĠ
Uni ver
ĠyiĠ wenĠ
ĠzhiĠ minĠ
renĠ menĠ
ĠbeiĠ jingĠshiĠ
ĠzheĠ yeĠ
ĠdeĠzhiĠ huiĠ
ĠdengĠ dengĠ
ĠyiĠweiĠ zhuĠ
daoĠzhiĠ leĠ
ĠzuoĠ pinĠ
ĠmianĠ dianĠ
huaĠshengĠ dun
shuaiĠling ĠdeĠ
ĠjuĠqingĠ xiaĠ
Ġ Pi
Ġ 1956ĠnianĠ
ĠĠĠ dianĠyingĠ
nan ĠdaĠ
gao ĠxingĠ
BS Ġ
ĠyouĠ xi
beiĠ keĠ
yingĠ huaĠ
duiĠ chenĠ
liangĠ jieĠ
ĠfuĠ luoĠ
teĠ shengĠ
ĠchuĠ daoĠ
ĠwuĠ diĠ
1Ġ gongĠliĠ
huangĠ puĠ
ouĠ zhouĠdeĠ
ĠneiĠ rongĠ
1 200
Ġ Ha
Ġ zhuĠliĠ
ĠĠĠ Wi
ĠĠĠ Ca
ĠĠĠ caiĠ
nian ĠbeiĠ
sheng ĠyueĠ
hua ĠliĠ
jiang ĠrenĠ
kang ĠdeĠ
chai ĠyouĠ
1916 ĠnianĠ
ĠzaiĠ jianĠ
wuĠ changĠ
xiangĠ xiangĠ
jingĠ bao
ĠsiĠ tan
ĠjiaĠ sheĠ
ruĠ zhuĠ
ĠxingĠ xiangĠ
zuiĠ jinĠ
ĠyinĠ hangĠ
huanĠ rao
tanĠ huaĠ
naĠcui ĠdeĠguoĠ
t ro
Ġ 68
Ġ 99
ai ĠziĠ
sheng ĠdeĠyiĠgeĠ
hui ĠrenĠ
tian ĠyiĠ
tang ĠjiĠ
diao ĠrenĠ
1950 ĠnianĠdaiĠ
51 ĠnianĠ
weiĠ xieĠ
ĠyuĠ zhouĠ
faĠ guoĠdeĠ
ĠxiĠ zang
yeĠ shouĠ
zuĠ chengĠyuanĠ
wanĠ huiĠ
baĠ naĠ
ĠdanĠ houĠlaiĠ
zhuanĠ anĠ
Ġtong ĠnianĠ9ĠyueĠ
ĠãĤ ĵ
zhuiĠ suĠzhiĠ
maiĠkeĠ erĠ
gaoĠdengĠ xueĠxiaoĠ
fuĠqin ĠdeĠ
ĠzhongĠshiĠ yanĠ
ĠbiĠyeĠ houĠ
l en
Ġ jiaĠliĠ
Ġ 1981ĠnianĠ
ĠĠĠ 2002ĠnianĠ
ti ĠyouĠ
hao ĠyueĠtaiĠ
et Ġ
SA Ġ
ĠyiĠ siĠshiĠ
ĠzhiĠ zuoĠdeĠ
ĠzaiĠ taiĠwanĠ
ĠyueĠ qiuĠ
jiaĠ juĠ
jieĠ juĠ
xianĠ qiĠ
jiuĠ keĠyiĠ
manĠhuaĠ jiaĠ
langĠdeĠ shengĠ
ĠkeĠxiĠ taĠ
Ġ hun
Ġ nuoĠweiĠ
ĠĠĠ 2002
fei ĠyuĠ
rong ĠqiĠ
ĠyuĠ jingĠ
taĠ duiĠ
bingĠ faĠ
laiĠ teĠ
ĠfuĠ siĠ
ĠxingĠ bieĠ
fanĠ xueĠxiaoĠ
ĠxianĠ faĠ
ĠjieĠ chuĠ
nianĠ qingĠ
ĠnanĠ ziĠ
zhongĠshiĠ yanĠ
Ġming ĠshiĠ
ĠbuĠjiuĠ houĠ
ĠĠĠ Lo
ĠĠĠ renĠwuĠ
xu ĠyouĠ
zui ĠxiĠ
mai ĠxiaĠ
lou ĠtiĠ
chun ĠdeĠ
ĠzhiĠ xiangĠ
chengĠ duĠdeĠ
beiĠ panĠ
ĠxiĠ la
leĠ zheĠyiĠ
jiaoĠ chuĠ
qianĠ wanĠ
suoĠ xuĠ
ĠzheĠ liangĠ
3 ĠĠĠ
ĠĠĠ So
ĠĠĠ xueĠ
ĠĠĠ aoĠ
ĠĠĠ 2024ĠnianĠ
zai ĠshiĠyongĠ
he ĠshiĠdeĠ
wu ĠguoĠ
zhang ĠshiĠjianĠ
guang ĠshiĠ
xiu ĠzhuĠ
piao ĠdeĠ
ĠshiĠ duanĠ
xiĠ tong
xianĠ fengĠ
bingĠ qiuĠ
dianĠ yaĠ
minĠ zhengĠ
teĠ lanĠ
quanĠ zhouĠ
maĠ enĠshengĠ
aĠ erĠjiĠ
ĠshengĠ chanĠ
Ġzhe ĠshiĠyiĠ
ĠbenĠ zhanĠ
Ġjie ĠheĠ
Ġtian ĠfuĠ
9 00
Ġ chu
ĠĠĠ yangĠ
ĠĠĠ 20ĠshiĠjiĠ
te ĠyiĠ
ben ĠdiĠquĠ
liu ĠweiĠ
gang ĠguoĠ
pang ĠdeĠ
gongĠ fengĠ
geĠ lanĠdeĠ
xianĠ beiĠ
ziĠ youĠshiĠ
faĠ xianĠyuĠ
jiangĠ daoĠ
pingĠ xingĠ
suoĠ shu
sanĠ jianĠ
naĠ poĠlunĠ
eĠ waiĠdeĠ
canĠsaiĠ zheĠ
Ġ 1955ĠnianĠ
dai ĠjiĠ
dai ĠzaiĠ
bian ĠzhongĠ
men ĠdaĠ
wai ĠyuĠ
ĠshiĠ neiĠ
ĠyuĠ jiaĠ
ĠyouĠ fuĠ
xiaĠ shuĠ
qingĠ xieĠ
boĠ luoĠdiĠ
saiĠ maĠ
touĠ yingĠ
eĠ junĠ
minĠzhuĠ zhuĠyiĠ
clu deĠ
ĠgaiĠwuĠzhongĠdeĠ moĠshiĠchanĠdiĠzaiĠ
Ġ Ka
ĠĠĠ Windows
ĠĠĠ heĠĠĠ
hu ĠyiĠ
shou ĠguoĠ
xiong ĠzhangĠ
guoĠ duĠ
shengĠ qianĠ
quĠ jueĠyuĠ
houĠ huiĠ
changĠ shaĠ
luĠ jun
ĠyinĠ niĠ
kaiĠshiĠ leĠ
manĠ guanĠ
teĠbie ĠxingĠzhengĠquĠ
muĠniĠ hei
eĠhaiĠeĠ zhouĠ
x tĠ
Ġ w
Ġ 1987
ĠĠĠ toĠĠĠ
qu ĠliĠ
meng ĠjiaĠlaĠ
man ĠweiĠ
ĠrenĠ shouĠshangĠ
daĠ siĠ
daĠ tongĠ
ĠbuĠ leiĠ
faĠ yinĠ
dongĠ fengĠ
guanĠ junĠdeĠ
xinĠ jiaoĠ
ĠxingĠ chaiĠyouĠjiĠ
xuanĠ xiuĠ
ĠshiĠyiĠ jingĠ
waĠ laĠ
ĠĠĠyiĠ xieĠ
qingĠhuaĠ daĠxueĠ
6 ĠhaoĠ
Ġ leng
ĠĠĠ xiangĠguanĠ
ĠĠĠ miaoĠshuĠ
da ĠliĠshiĠ
wai ĠkeĠ
lin ĠzaiĠ
ĠshiĠ gaiĠ
ĠzhiĠ liangĠ
jieĠ duĠ
shengĠ yuanĠ
beiĠ hanĠ
ĠqiĠ chengĠ
ĠfuĠ lanĠkeĠ
wanĠ daoĠ
panĠ luan
ĠÐ ¸
ĠganĠ suĠ
ĠshiĠwuĠkeĠ lanĠdeĠ
Ġ jianĠzhiĠ
xiang ĠrenĠ
zuo ĠbuĠ
yong ĠrenĠ
jiu ĠyiĠjingĠ
yang ĠyiĠ
sai ĠzhiĠ
54 ĠnianĠ
Ġnian ĠnianĠ
ĠyouĠ ziĠ
ĠzaiĠ jingĠ
keĠ keĠ
yingĠ fuĠ
taiĠ shanĠ
daiĠ huiĠ
cheĠ huiĠ
saiĠ puĠ
Ġye ĠbuĠ
Ġbei ĠrenĠweiĠshiĠ
Ġgu ĠjiĠ
ĠJo hn
lian ĠjiĠ
shan ĠyiĠ
que ĠxianĠ
bang ĠshouĠ
the r
xingĠ fuĠ
huaĠ feiĠ
guanĠ muĠ
gaiĠ zhuangĠ
liangĠ cengĠ
zongĠ zhangĠ
neiĠ waiĠ
ĠxianĠ zaiĠdeĠ
huanĠ yuanĠ
huanĠ manĠ
zhengĠzhiĠ juĠ
ĠÐ µ
7 ĠhaoĠ
Ġ mou
Ġ 1952ĠnianĠ
xian ĠyueĠ
tong ĠyiĠgeĠ
pao ĠtaĠ
der Ġ
shiĠ yiĠ
ĠheĠ youĠ
fuĠ luoĠ
xianĠ jingĠ
zhengĠ queĠ
shangĠ ye
xinĠ zeng
zuiĠ zhuĠmingĠdeĠ
zongĠ zuoĠ
saiĠ eĠ
ĠdeĠyiĠ changĠ
ĠbingĠ duiĠ
ĠgongĠ si
ĠgaiĠ zuĠzhiĠ
ĠshuĠ rouĠshiĠxingĠ
yunĠshiĠ kengĠ
D R
Ġ lan
Ġ tiao
Ġ binĠ
Ġ ouĠzhou
su ĠjiĠ
han ĠweiĠ
pei ĠyuĠ
75 Ġ
zhongĠ xingĠ
shengĠ ziĠ
yinĠ qiĠdeĠ
tiĠ shangĠ
fenĠ sanĠ
taiĠ langĠ
ĠdeĠyiĠ buĠ
ĠyeĠ huiĠ
ĠyiĠzhiĠ youĠ
6Ġ gongĠliĠ
zongĠtongĠ fuĠ
Ġ xun
Ġ 1979
Ġ Fa
Ġ 1937ĠnianĠ
an ĠweiĠ
ni ĠzaiĠ
gao ĠerĠfuĠ
xiu ĠliĠ
zun ĠshouĠ
ĠshiĠ congĠ
jieĠ touĠ
zhuĠ yanĠdeĠ
shengĠ zhengĠfuĠ
faĠ guiĠ
luĠ xiangĠ
biĠ huĠ
qiuĠ fanĠ
kaiĠ fang
tingĠ huoĠ
1Ġ biĠ
nvĠ xingĠdeĠ
ĠxiaĠ xiaĠ
ĠjiaoĠ tongĠ
ĠhuaĠ xueĠshiĠweiĠ
kenĠ seĠ
8 ĠhaoĠ
Ġ 1938
Ġ Do
fen ĠheĠ
sa ĠzhuĠsaiĠ
sang ĠnaĠ
ĠyiĠ chuĠ
jieĠ hun
juĠ mianĠ
shangĠ yanĠ
wangĠ fuĠ
teĠ se
lingĠ muĠ
luoĠ shanĠ
yangĠ junĠ
zuiĠ changĠ
fengĠ mingĠ
jueĠ xinĠ
daiĠbiao ĠdeĠ
Ġmei ĠriĠ
kaĠsiĠ diĠliĠyaĠ
Ġ xueĠxiĠ
ji ĠshiĠjieĠ
nian ĠhouĠ
ke ĠweiĠerĠ
lun ĠweiĠ
shui ĠzhiĠ
re ĠdeĠ
diao ĠdeĠ
ĠzhiĠ qiĠ
jianĠ shouĠ
ĠerĠ xiĠ
ĠerĠ wenĠmingĠ
dongĠ xingĠ
yanĠ se
tongĠ meng
guanĠ bingĠ
xinĠ huiĠ
duiĠ liuĠ
ĠjiaĠ naĠ
liuĠ tongĠ
neiĠ sheĠyouĠ
ĠyinĠ qingĠ
ĠchengĠ xuĠ
zengĠ qiang
ziĠjiĠ zaiĠ
ĠteĠ langĠ
lvĠweiĠ 0
ĠzaiĠzhongĠguoĠ daĠluĠ
T T
ã Ħ
Ġ nvĠziĠ
wang ĠliĠ
kai ĠzhiĠ
na ĠdaoĠ
zhuan ĠxingĠ
cun ĠjiĠ
cang ĠdeĠ
ĠdeĠ junĠ
fuĠ daoĠ
geĠ quĠdeĠ
ĠbuĠ bianĠ
zhuĠ biĠ
ĠdiĠ 2
guanĠ xi
ĠdaĠ shengĠ
anĠ niĠ
suĠ lianĠdeĠ
leiĠ anĠjianĠ
sanĠ jieĠ
guangĠ zhou
baiĠ huoĠ
chongĠ fengĠ
ganĠ junĠ
ĠfaĠ lvĠ
Ġer ĠyiĠ
ĠguĠ ciĠ
ĠranĠ erĠzaiĠ
Ġliu ĠyueĠ
6 ĠshiĠ
I R
Ġ iĠ
ĠĠĠ quĠ
yun ĠjiĠ
qiĠ bingĠ
buĠ heĠ
xiĠ lieĠdeĠ
shouĠ xiaĠ
shouĠ huoĠ
fangĠ ziĠ
taiĠ leiĠ
nanĠ duanĠ
meiĠ tiĠdeĠ
kaiĠ guanĠ
ĠchuĠ xianĠzaiĠ
kaiĠshiĠ zhiĠ
ĠzhiĠweiĠ yuĠ
sanĠshiĠ nianĠ
baoĠhanĠ leĠ
diaoĠcha ĠjuĠ
Ġ Ho
Ġ wuĠliĠ
Ġ jianĠrenĠ
Ġ zhiĠdeĠshiĠ
guo ĠliĠshiĠ
er o
dang ĠyiĠ
suo ĠbuĠtongĠ
zhuang ĠzaiĠ
47 Ġ
ly Ġ
ĠyouĠ xie
gongĠ bu
gongĠ keĠ
siĠ huĠ
jianĠ tingĠ
zhuĠ yuanĠ
beiĠ zhanĠ
ĠdiĠ xingĠ
shuĠ liangĠdeĠ
fangĠ yingĠ
zheĠ huiĠ
qianĠ zhengĠ
junĠ duiĠdeĠ
pingĠ shenĠ
haiĠ baoĠ
daiĠ kuanĠ
sheĠ zhangĠ
dangĠ neiĠ
kouĠ anĠ
ĠxiangĠ tongĠ
shuiĠ zhunĠ
chongĠ baiĠ
daiĠbiaoĠ duiĠ
zhunĠ jueĠsaiĠ
Ġ shu
Ġ zhongĠzhiĠ
zuo ĠguoĠ
mu ĠxiĠ
zu ĠzhongĠ
cai ĠyouĠ
hen ĠyouĠ
ĠyuĠ yuĠ
ĠyuĠ daĠ
siĠ yuanĠ
jiaĠ ciĠ
xianĠ jinĠdeĠ
chuĠ bingĠ
huaĠ banĠ
junĠ xianĠ
junĠ zhengĠ
zhenĠ duanĠ
paiĠ hang
hanĠ liangĠ
ĠyingĠ yongĠ
juĠxingĠ leĠ
ĠgengĠ mingĠweiĠ
O V
Ġ b
Ġ Ge
Ġ biaoĠzhunĠ
li ĠnianĠ
fu ĠliĠdeĠ
qian ĠheĠ
luo ĠliĠ
ba ĠdiĠ
neng ĠshiĠ
âĢ »
hen ĠnanĠ
bin ĠxiĠfaĠ
diĠ daiĠ
diĠ tuĠ
daĠ chen
daĠ gongĠ
jiaĠ qiĠ
xiangĠ jinĠ
ziĠ jiaĠ
ciĠ zhanĠ
huaĠ daĠ
xinĠ aĠjiĠtan
qianĠ liangĠ
miĠ lanĠ
ĠxiangĠ xiĠ
pinĠ kun
ĠshengĠ mingĠ
Ġye ĠzaiĠ
ĠãĤ ¹
tiaoĠjianĠ xiaĠ
C R
Ġ ping
Ġ xinĠxiĠ
da ĠĠĠ
ru ĠjiĠ
deng ĠjiaĠ
lin ĠyiĠ
sha ĠheĠ
qiang ĠjianĠ
zan ĠchengĠ
80 ĠnianĠdaiĠ
ĠshiĠ liuĠ
ĠbuĠ mingĠ
shengĠ riĠ
ziĠ taiĠ
chuĠ xingĠ
yaĠ maĠ
shanĠ guĠ
ĠxiangĠ jiaoĠyuĠ
ĠdeĠjiĠ heĠ
ĠzuiĠ zhongĠyuĠ
feiĠliĠ puĠ
tianĠran ĠqiĠ
Ġ ya
Ġ luan
Ġ mĠ
Ġ piĠpingĠ
li ĠwuĠ
xue ĠqiĠ
dan ĠheĠ
san ĠguoĠ
duan ĠdaoĠ
kao ĠdeĠ
piao ĠjiaĠ
sun ĠziĠ
renĠ mingĠ
ĠzaiĠ yuanĠ
ĠzaiĠ beiĠjingĠ
wuĠ quĠ
shouĠ yaoĠ
ĠriĠ houĠ
haiĠ baoĠkuoĠ
ĠtaĠ danĠrenĠ
lingĠ wai
zongĠ jieĠ
sanĠ cengĠ
tingĠ boĠ
ĠzhuĠ gongĠ
ĠshiĠjiĠ luĠ
youĠyiĠ zuoĠ
4Ġ gongĠliĠ
ĠĠĠC i
Ġai ĠdeĠhuaĠ
Ġling ĠyiĠgeĠ
muĠdiĠ diĠ
ĠyouĠmingĠ BDĠ
ĠzhongĠyang ĠweiĠyuanĠhuiĠ
banĠgongĠ tingĠ
ĠweiĠfuĠqiĠyuĠgangĠ luĠxingĠmuĠ
3 50
Ġ faĠyuĠ
ĠĠĠ 2000ĠnianĠ
wen ĠxiĠ
mian ĠheĠ
pao ĠjiĠ
xiĠ guanĠ
wuĠ fa
xiangĠ siĠdeĠ
dongĠ buĠdeĠ
ciĠ shanĠ
dianĠ yuanĠ
dianĠ tiĠ
qingĠ zhenĠsiĠ
zuiĠ xiaoĠ
shanĠ poĠ
ĠbingĠ jiangĠqiĠ
caiĠ naĠ
linĠ quĠ
ĠjuĠ tiĠ
gengĠ gaoĠdeĠ
Ġsan ĠjiaĠ
E S
g roundĠ
Ġ sanĠnianĠ
Ġ 1938ĠnianĠ
ĠĠĠ 2001
ĠĠĠ sheĠhuiĠ
bao ĠyiĠ
lian ĠxingĠ
long ĠheĠ
am Ġ
yuĠ leiĠ
daĠ geĠ
fuĠ leiĠdeĠ
geĠ changĠ
mingĠ yunĠ
xueĠ shengĠdeĠ
yanĠ houĠ
ĠyiĠjiĠ weiĠ
chuangĠ banĠrenĠ
ĠxueĠ zheĠ
ĠguoĠjiaĠ gongĠyuanĠ
ĠãĤ ¤
ĠjiĠluĠ pianĠ
biĠyeĠ shengĠ
B O
Ġ se
Ġ 1958
Ġ yunĠdongĠ
Ġ xingĠjiĠ
ĠĠĠ 2001ĠnianĠ
lian ĠyiĠ
bo ĠyiĠ
tian ĠzhiĠ
lei ĠbuĠ
reng ĠshiĠ
ĠyuĠ wenĠ
qiĠ dongĠ
ĠzaiĠ diĠerĠ
daĠ jinĠ
yuanĠ guĠ
ĠdiĠ jiuĠ
zhanĠ baiĠ
banĠ jingĠ
miĠ maĠ
ĠdaoĠ fuĠ
chuanĠ chuĠ
lanĠ jieĠ
chongĠ xin
diĠyiĠ zhiĠ
ĠwanĠ pingĠfangĠmiĠ
Ġsi ĠzhiĠ
ĠzhongĠxin ĠweiĠ
suoĠshiĠ yongĠdeĠ
Ġ on
Ġ Pe
Ġ duoĠdeĠ
Ġ pinĠdaoĠ
Ġ naiĠ
Ġ 1954ĠnianĠ
xin ĠyueĠ
dui ĠzhongĠguoĠ
qian ĠyouĠ
nd ro
1930 ĠnianĠdaiĠ
ĠdeĠ siĠ
xianĠ huaĠ
ĠdiĠ zhenĠ
huaĠ gongĠ
huoĠ fuĠ
gaoĠ wenĠ
duoĠ chuĠ
kaiĠshiĠ houĠ
ĠyuanĠ zhuĠ
guoĠjiĠ saiĠ
chengĠyuanĠ guoĠ
Ġmo ĠxiĠgeĠ
ĠĠĠE x
Ġ r
Ġ feiĠjiĠ
ge ĠnianĠ
le ĠrenĠ
wang ĠxiĠ
wang ĠjiaĠ
biao ĠshiĠweiĠ
liu ĠliĠ
tian ĠjiĠ
lei ĠyiĠ
nei ĠshiĠ
bai ĠgongĠ
zhuĠ yiĠdeĠshiĠ
ciĠ juĠ
zheĠ zuoĠ
gaiĠ xiaoĠ
fengĠ tianĠ
laĠ muĠ
ĠciĠ zhanĠ
manĠ zhouĠ
manĠ haĠ
ĠfenĠ lanĠ
faĠshengĠ houĠ
bangĠzhuĠ xiaĠ
luĠyinĠshiĠ zhuanĠjiĠ
a u
Ġ 1984
Ġ Hi
Ġ guanĠzhongĠ
fang ĠrenĠ
na tional
huan ĠjiĠ
pin ĠyinĠ
hong ĠyiĠ
buĠ ruĠ
zhuĠ geĠ
ĠqiĠ daĠ
ĠerĠ diĠ
shouĠ qiuĠ
xueĠ yanĠjiuĠ
guanĠ jun
taiĠ luoĠ
jiuĠ fenĠ
fanĠ changĠ
ĠdeĠyiĠ banĠ
naĠ xie
xiangĠgangĠ dianĠyingĠ
ziĠyouĠ dangĠ
Ġzai ĠzhiĠ
I U
Ġ tiĠyuĠ
an a
bi ĠzhongĠ
wen ĠliĠ
lian ĠsiĠ
tan ĠwuĠ
qiang ĠxingĠ
ĠweiĠ reĠdaiĠ
ĠyuĠ qianĠ
jinĠ gangĠ
yanĠ yongĠ
baoĠ leiĠ
yeĠ kaiĠshiĠ
tongĠ yiĠdeĠ
gaiĠ bianĠweiĠ
zuĠ shuĠjiĠ
haoĠ xianĠ
lanĠ xianĠ
baiĠ fangĠ
tingĠ cheĠ
pinĠ qingĠ
ĠdongĠ riĠbenĠ
ĠguoĠjiaĠ zuĠqiuĠduiĠ
guangĠboĠ dianĠshiĠ
jiaoĠkeĠ wenĠ
R I
wei ĠdeĠguoĠ
zhen ĠzhiĠ
2026 ĠnianĠ
yuanĠ mingĠ
ciĠ qianĠ
ĠjiaĠ siĠ
laiĠ shuo
ĠzheĠ liangĠgeĠ
ĠyeĠ beiĠ
ĠshiĠjieĠ shangĠ
kangĠ zhanĠ
ĠzuoĠ quĠ
shengĠjiĠ weiĠ
waiĠjiaoĠ guanĠxiĠ
ĠkeĠxiĠtaĠ niĠdaĠquĠ
Ġ gua
Ġ 69
Ġ 1981
Ġ So
Ġ huangĠdiĠ
Ġ niuĠyueĠ
ji ĠshiĠyongĠ
mi ĠxiĠxiĠ
zhang ĠyouĠ
jue ĠjiĠ
guoĠ daoĠ
xingĠ geĠ
fuĠ fuĠ
ĠqiĠ mingĠ
xinĠ siĠ
jiangĠ shuiĠ
qingĠ shuiĠ
bianĠ dongĠ
yaoĠ saiĠ
fengĠ shanĠ
tingĠ liuĠ
moĠ shouĠ
zhuanĠ zhuĠyuĠ
aĠfuĠ hanĠ
Ġ 44
Ġ linĠshiĠ
huo ĠrenĠ
biao ĠyuĠ
mian ĠbuĠ
cun ĠzheĠ
yuanĠ junĠ
jieĠ shangĠ
daoĠ fuĠ
ĠxiĠ zangĠ
liangĠ ce
lianĠ xu
ĠdaoĠ danĠ
neiĠ buĠdeĠ
ĠshiĠyiĠ huiĠ
Ġtong ĠnianĠ8ĠyueĠ
Ġsui ĠyiĠ
dongĠjiĠ aoĠlinĠpiĠkeĠyunĠdongĠhuiĠ
jieĠdaoĠ banĠshiĠchuĠ
E E
Ġ 1966ĠnianĠ
dian ĠyouĠ
zhang ĠguoĠ
nan ĠdaĠxueĠ
chen ĠyiĠ
ad Ġ
nt Ġ
ĠyuĠ tiĠ
ĠzaiĠ dongĠ
daĠ saiĠ
wuĠ xingĠ
xiangĠ linĠ
jinĠ xiuĠ
Ġri ĠshiĠ
Ġri ĠjiĠ
shuĠdeĠ dongĠwuĠ
haĠ saĠkeĠsiĠ
ĠdangĠ tianĠ
jinĠshiĠ chuĠshenĠ
ĠyongĠ laiĠ
Ġba ck
ĠchongĠ qingĠ
luoĠmaĠ tianĠzhuĠjiaoĠ
aoĠlinĠ piĠ
ouĠzhou ĠguoĠjiaĠ
shaoĠshuĠ minĠzuĠ
neiĠruiĠ laĠ
ĠniuĠyueĠshiĠ baoĠ
o p
Ġ kuoĠ
ĠĠĠ songĠ
guo ĠyiĠgeĠ
hu ĠshiĠdaiĠ
jin ĠguoĠ
dou ĠyuĠ
long ĠdiĠ
cui ĠhuaĠ
46 Ġ
ss ĠĠĠ
ĠshiĠ gongĠ
ĠyiĠ chengĠweiĠ
siĠ lingĠbuĠ
zuoĠ weiĠshiĠ
lianĠ aiĠ
jiuĠ zhouĠ
ĠbingĠ kaiĠshiĠ
ĠchuĠ xiĠ
ĠdeĠshiĠ tiĠ
zhuangĠ cunĠ
1 ĠyiĠ
m ber
yuan ĠĠĠ
ta ĠzhiĠ
quan ĠliĠdeĠ
feng ĠheĠ
cai ĠzhiĠ
10 ĠwanĠ
kuang ĠyeĠ
lou ĠyuĠ
sun ĠshangĠ
weiĠ erĠ
zhongĠ xin
jieĠ kouĠ
yingĠ yongĠyuĠ
guanĠ dongĠ
quanĠ xinĠ
suoĠ zuoĠdeĠ
suĠ geĠlan
ĠxiangĠ xinĠ
ĠwuĠ erĠ
chaĠ bieĠ
ĠzuiĠ hou
beiĠjingĠ daĠxueĠ
chuĠbanĠ leĠ
ĠyunĠ xuĠ
gongĠsi ĠzaiĠ
ĠnianĠdai ĠzhongĠqiĠ
dangĠweiĠ shuĠjiĠ
nongĠcun ĠjuĠminĠ
zhuĠjiaoĠzuoĠ tangĠ
q ui
Ġ diĠzhiĠ
Ġ luĠyiĠ
Ġ 1909ĠnianĠ
ĠĠĠ eĠluoĠsiĠ
er ĠshiĠweiĠ
qing ĠzhongĠ
ling ĠweiĠ
men ĠheĠ
tu ĠqiĠ
zhongĠ wenĠ
zhuĠ xianĠ
ciĠ quanĠguoĠ
yingĠ yuanĠ
yeĠ luĠsaĠ
bingĠ qie
ĠfuĠ xingĠ
liuĠ danĠ
caiĠ jueĠ
niĠ geĠ
ganĠ shouĠ
poĠ haiĠ
ĠnianĠ11ĠyueĠ 1ĠriĠ
ĠnianĠzhiĠ qianĠ
ĠweiĠyuĠgaiĠguoĠ dongĠnanĠbuĠ
ĠĠĠst yleĠ
t or
Ġ ningĠ
zu ĠguoĠ
lun ĠliĠ
chuang ĠyeĠ
mer i
daĠ daĠ
ziĠ zhuanĠ
shuĠ xiĠ
nanĠ yangĠ
xieĠ chengĠ
bianĠ huĠ
zuiĠ zhangĠdeĠ
baiĠ se
Ġta ĠbuĠ
youĠyiĠ zhongĠ
ziĠyouĠ yongĠ
ĠduoĠ ciĠ
riĠben ĠrenĠ
Ġmi ĠerĠ
lanĠqiuĠ yunĠdongĠyuanĠ
ĠĠĠin ĠĠĠ
- .
s si
Ġ 1941
ĠĠĠ mengĠ
lai ĠbuĠ
nei ĠjiĠ
po rt
liao ĠliĠ
43 Ġ
41 Ġ
ction Ġ
ĠzaiĠ xiaoĠ
zhuĠ muĠ
xiangĠ wangĠ
gaiĠ yaoĠ
zhouĠ weiĠdeĠ
ĠtaĠ congĠ
aĠ laĠsiĠ
longĠ leiĠ
zouĠ leĠ
ĠweiĠerĠ siĠ
ĠaoĠ zhouĠ
gongĠsi ĠheĠ
jingĠcha ĠjuĠ
zhengĠzhiĠxieĠshangĠ huiĠyiĠ
Ġ 170
wu ĠweiĠyuanĠhuiĠ
bi ĠyiĠ
jing ĠqiĠ
wen ĠrenĠ
nan ĠyouĠ
zhen ĠweiĠ
lun ĠjiaĠ
ĠshiĠ erĠyueĠ
ĠdeĠ fuĠ
fuĠ zaĠ
jiaĠ banĠ
xianĠ bingĠ
ĠdiĠ guoĠdeĠ
tongĠ guoĠdeĠ
huoĠ paoĠ
biĠ nanĠ
liangĠ zhouĠ
zuiĠ guĠlaoĠdeĠ
biaoĠ yan
guiĠ dianĠcheĠ
tanĠ taoĠ
qinĠ lve
leĠyiĠ changĠ
ĠlianĠ mengĠ
ĠqiangĠ diaoĠ
C C
Ġ tou
Ġ huangĠjiaĠ
bing ĠerĠchengĠ
lun ĠyiĠ
wa ĠjieĠ
1949 ĠnianĠ
ĠyouĠ jinĠ
ĠrenĠ siĠwangĠ
ĠguoĠ wuĠ
xianĠ xiaĠ
shuĠ liang
duiĠ taĠdeĠ
pingĠ pangĠqiuĠ
haiĠ nanĠ
ĠfuĠ keĠ
ĠfuĠ huaĠ
wanĠ meiĠ
benĠ yingĠ
yaoĠ suĠ
ĠdaoĠ shangĠ
chanĠ jieĠjiĠ
gouĠ ruĠ
ĠyeĠ meiĠyouĠ
ĠshiĠshiĠ jianĠ
ĠmeiĠ ciĠ
boĠshiĠ dunĠ
ĠweiĠzhuĠ tiĠ
5 ĠpingĠfangĠgongĠliĠ
6 ĠpingĠfangĠgongĠliĠ
ĠĠĠ zai
ĠĠĠ 7Ġ
ĠĠĠ cheĠzhan
zu ĠzaiĠ
xie ĠxingĠ
wo rk
wa ĠsiĠ
zeng ĠyuanĠ
ĠshiĠ sanĠ
ĠjiĠ muĠ
renĠ qiĠ
daĠ gangĠ
siĠ taĠ
wuĠ shengĠ
xiangĠ taĠ
huiĠ jianĠ
shuĠ maĠ
jingĠ jiĠdeĠ
huoĠ huaĠ
wanĠ biĠ
liuĠ wangĠ
maĠ piĠ
chongĠ xiuĠ
lingĠyiĠ zhongĠ
ĠshiĠweiĠyuĠmeiĠguoĠ miĠsuĠliĠ
waiĠjiaoĠ guanĠ
ĠxinĠzengĠ benĠtuĠ
8 ĠmingĠ
gang ĠweiĠ
lao ĠrenĠ
xiĠ zang
fuĠ lanĠ
jianĠ qiao
jianĠ mianĠ
ĠguoĠ qiĠ
jieĠ beiĠ
ziĠ diĠ
shangĠ huoĠdeĠ
anĠ chaĠsiĠ
lingĠ dao
chuanĠ chengĠ
ĠdeĠshiĠ daiĠ
ĠshouĠ duĠ
ĠĠĠS tu
ĠminĠ jinĠ
ĠĠĠco lspanĠ
3 D
Ġ chengĠjiĠ
ĠĠĠ Da
gu ĠjiaĠ
nan ĠheĠ
jiu ĠxingĠ
qing ĠqiĠ
te sĠ
te ĠweiĠerĠ
san ĠsiĠ
wa ĠliĠ
24 0
ruo ĠdeĠ
ĠshiĠ tiĠ
ĠshiĠ dangĠdiĠ
youĠ keĠ
ĠzaiĠ shengĠ
shuĠ ciĠ
shouĠ beiĠ
baoĠ dongĠ
zuoĠ weiĠyiĠ
xinĠ cunĠ
qianĠ quĠ
banĠ qiuĠ
shanĠ daoĠ
liuĠ langĠ
zongĠ jiao
zongĠ bingĠ
canĠ junĠ
leĠyiĠ zuoĠ
ĠĠĠA Ġ
daiĠbiao ĠxingĠ
ĠweiĠyuĠgaiĠguoĠ beiĠbuĠ
muĠniĠ heiĠ
an ĠyiĠ
huo ĠdiĠ
hao ĠzhiĠ
lv ĠchengĠ
niu Ġyue
gongĠ lvĠ
jinĠ shengĠweiĠ
juĠ xing
changĠ chengĠ
taiĠ kong
benĠ pianĠ
luoĠ wenĠ
kaiĠ leĠ
ĠdeĠyiĠ keĠ
ĠdeĠzhiĠ yeĠ
ĠshiĠzhenĠ fanĠweiĠneiĠ
ĠwangĠ zhanĠ
ĠĠĠshiĠ shiĠ
ĠrenĠkou ĠweiĠ
ĠfuĠlangĠ shenĠ
A ĠdeĠ
ï ¹
Ġ 1978
Ġ Ti
Ġ 1964ĠnianĠ
Ġ 1975ĠnianĠ
Ġ 1977ĠnianĠ
an i
ĠĠĠ xianĠshiĠ
ke ĠĠĠ
ying ĠzhongĠ
ceng ĠyiĠ
gongĠ wuĠyuanĠ
chengĠ weiĠyiĠgeĠ
zhuĠ chi
huiĠ laiĠ
chuanĠ bo
lunĠ baoĠ
yinĠyueĠ jiaĠ
ĠĠĠyiĠ xiaĠshiĠ
ĠĠĠS er
Ġba ĠshiĠ
ĠnianĠyiĠ houĠ
fenĠbie ĠyuĠ
miaoĠshuĠ leĠ
Ġback groundĠ
2 ĠpingĠfangĠgongĠliĠ
l lo
y n
Ġ Pro
bi ĠxiĠ
zuan Ġ
ĠyiĠ tianĠ
weiĠ laiĠ
ĠjiĠ suanĠjiĠ
ĠzhongĠ yuanĠ
ĠbuĠ jianĠ
jieĠ xianĠ
faĠ dingĠ
ĠerĠ keĠ
shouĠ tiĠ
taĠ shouĠ
yingĠ yun
guanĠ wangĠ
zhangĠ ai
biĠ mian
gaoĠ tieĠ
chongĠ qingĠshiĠ
canĠ zhanĠ
3Ġ fenĠ
zengĠ jiaĠzhiĠ
ĠnianĠ6ĠyueĠ 30ĠriĠ
sheĠliĠ leĠ
Ġcong ĠshiĠ
fuĠluoĠliĠdaĠ zhouĠ
A V
Ġ che
Ġ shouĠyuĠ
ĠĠĠ Ho
min ĠzhiĠ
ma ĠdeĠliĠ
rong ĠyeĠ
diao ĠkeĠ
ĠweiĠ xiaoĠ
ĠjiĠ duĠjiaoĠ
ĠheĠ siĠ
beiĠ po
jinĠ menĠ
zhengĠ houĠ
jingĠ juĠ
ĠdaĠ suanĠ
ĠkeĠ xueĠjiaĠ
sheĠ tuanĠ
lianĠ suoĠ
zhouĠ wuĠ
quanĠ daoĠ
guĠ quanĠ
ĠgongĠ jueĠ
douĠ nengĠ
Ġdan ĠzhiĠ
ĠweiĠsiĠ teĠ
ĠgaiĠbianĠ ziĠ
fuĠza ĠdeĠ
luĠwa ĠerĠshengĠ
3 ĠpingĠfangĠgongĠliĠ
y o
ĠĠĠ huo
ĠĠĠ Bo
wei ĠyiĠjiĠ
luo ĠxiĠ
kai ĠguoĠ
yao ĠyuĠ
zhuan ĠxianĠ
cu ĠchengĠ
wn Ġ
ĠyiĠ liangĠ
heĠ erĠ
xingĠ cheĠ
yuanĠ dongĠ
jianĠ die
chengĠ menĠ
huaĠ fenĠweiĠ
ĠdaĠ qiao
qianĠ tiĠ
zhangĠ chengĠ
banĠ gong
laiĠ enĠ
jiuĠ mingĠ
xieĠ huiĠdeĠ
bianĠ huiĠ
maĠ niĠ
chuanĠ jiaoĠ
ĠyiĠzhiĠ jiĠ
ĠshuĠ juĠ
kanĠ dengĠ
ĠyongĠ huĠ
wuĠkeĠ lanĠdeĠ
xingĠyuĠ leiĠ
Ġ 1960
Ġ 1937
Ġ 1939
ĠĠĠ cong
zhi ĠshiĠdeĠ
bi ĠliĠyaĠ
HD ĠĠĠ
ĠdeĠ jiaĠ
ĠjiĠ geĠ
zhongĠ duoĠ
ĠyouĠ shengĠ
ĠzaiĠ changĠ
ĠbuĠ zhuĠ
jieĠ shao
keĠ cheĠ
shuĠ niu
ĠxiĠ riĠbenĠ
duiĠ zhanĠ
xiaoĠ duiĠ
zhangĠ jiaĠ
duĠ tuĠ
ruĠ tongĠ
jiuĠ yeĠ
quanĠ shengĠ
ĠwuĠ lunĠ
ĠsheĠ xianĠ
ĠyaoĠ qiu
keĠsaĠsiĠ zhouĠ
8 ĠpingĠfangĠgongĠliĠ
Ġ 1944
bie ĠrenĠ
nu ĠsiĠ
ĠweiĠ juĠ
ĠweiĠ jingĠ
ĠyuĠ 2021
ĠyuĠ liĠ
fuĠ diĠ
daoĠ changĠ
ĠqiĠ daoĠ
faĠ junĠ
danĠ daoĠ
minĠ ganĠ
luoĠ naĠ
quanĠ guo
guĠ yuanĠ
huĠ anĠ
zongĠ seĠ
tuĠ jueĠ
sanĠ fenĠzhiĠ
ĠtaiĠ beiĠshiĠ
ĠzhanĠ muĠsiĠ
ĠluoĠ neĠ
canĠyuĠ zheĠ
xuanĠbuĠ jiangĠ
ruoĠ ganĠ
yinĠqiĠ leĠ
yingĠxiang ĠliĠdeĠ
ĠĠĠxiaĠ shuĠ
Ġ 1940
Ġ biaoĠzhiĠ
ĠĠĠ waiĠ
xiang ĠbuĠ
mi ĠbuĠ
ping ĠheĠ
rui ĠshiĠdeĠ
guai ĠwuĠ
is Ġ
ĠyiĠ wanĠ
ĠweiĠ xieĠ
ĠzhiĠ shangĠ
guoĠ qiĠ
gongĠ cheng
gongĠ yongĠ
jianĠ guanĠ
chuĠ beiĠ
yingĠ yangĠ
yeĠ yinĠ
zuoĠ keĠ
ĠdaĠ daĠ
jiaoĠ tongĠbuĠ
junĠ yongĠ
dianĠ dongĠ
huoĠ pao
ĠfuĠ nieĠ
saiĠ teĠ
leiĠ bieĠ
jueĠ ceĠ
ĠziĠ jinĠ
ĠyiĠjiĠ jiĠ
ĠshenĠ tiĠ
ĠĠĠshiĠ jiĠ
Ġjin ĠnianĠ
ĠtaĠmen ĠshiĠ
ĠjianĠzhuĠ mianĠjiĠ
jiangĠxiĠ shengĠ
yaĠmeiĠ niĠya
feiĠteĠ lieĠ
G D
I M
R NA
Ġ chuangĠzuoĠ
si ĠweiĠerĠ
tu r
bai ĠjiĠ
ĠshiĠ hanĠguoĠ
ĠyuĠ daoĠ
youĠ xingĠ
ĠyouĠ liangĠgeĠ
ĠqiĠ leĠ
jingĠ taiĠ
xinĠ jiangĠweiĠwuĠerĠ
gaiĠ sheĠ
minĠ bingĠ
teĠ ding
suĠ chengĠ
paiĠ wangĠ
paiĠ xuĠ
ĠxianĠ luĠkouĠ
chongĠ qing
piĠ quanĠguoĠzhongĠdianĠwenĠwuĠbaoĠhuĠdanĠweiĠ
chuangĠ shangĠ
ĠshangĠ haiĠshiĠ
kaoĠ liangĠ
ĠdeĠyiĠgeĠ quĠ
ch o
ke ĠzhongĠ
ben ĠzhongĠ
xu ĠyueĠ
tian ĠheĠ
gang ĠdaoĠ
sa ĠliĠ
buĠ shuĠ
ĠyouĠ chengĠweiĠ
fuĠ lang
ĠqiĠ yuanĠyuĠ
dongĠ yinĠduĠ
ĠjiaĠ qingĠ
yaĠ teĠ
ĠfuĠ teĠ
guĠ tiĠ
feiĠ chengĠ
haoĠ maĠ
chuanĠ foĠjiaoĠ
ĠjinĠ siĠ
eĠ lieĠ
ĠyuanĠ laiĠ
youĠjiĠ duiĠ
ĠtangĠ chaoĠ
bianĠchengĠ leĠ
luoĠfuĠ siĠkeĠ
cheĠrenĠ ciĠ
Ġ sheĠzhiĠ
Ġ 1968ĠnianĠ
li ĠxiangĠ
ĠĠĠ Ba
ĠĠĠ zaiĠyiĠ
ĠĠĠ juĠliĠ
da ĠliĠyuĠ
tai n
quan ĠnianĠ
huan ĠxianĠ
shuang ĠxiangĠ
st ri
youĠ xiuĠ
guoĠ junĠ
ĠyouĠ gaiĠ
yuanĠ shuai
jieĠ daiĠ
ziĠ ji
yanĠ chiĠ
taiĠ zongĠ
pingĠ fenĠ
yongĠ youĠdeĠ
ĠtaĠ keĠyiĠ
duoĠ yangĠxingĠ
ĠzhuĠ ruĠ
ĠgeĠ linĠ
kaĠ teĠ
nianĠ lingĠ
daoĠshiĠ yueĠtaiĠ
ĠdiĠyiĠ ciĠ
ĠĠĠbuĠ guoĠ
shengĠdaoĠ taiĠ
ĠheiĠlongĠjiangĠ shengĠ
7 ĠmingĠ
Ġ nie
Ġ 1976ĠnianĠ
cheng ĠliĠyiĠ
gu ĠshiĠdeĠ
wai ĠdiĠ
gang ĠzhiĠ
pu ĠbuĠ
cang ĠyuĠ
cu ĠshiĠ
ĠweiĠ taiĠwanĠ
baoĠ guangĠ
xiaĠ menĠ
ĠjiaĠ daĠ
yunĠ xu
shaĠ shouĠ
ĠshangĠ wuĠ
genĠ sui
ĠshiĠweiĠyuĠ wuĠkeĠlanĠ
4 ĠshiĠ
G N
Ġ 78
Ġ chengĠrenĠ
ao ĠbuĠ
ĠĠĠ guiĠdaoĠ
gu ĠzhiĠ
yong ĠzhongĠ
ma ĠdaĠ
zong ĠrenĠkouĠdeĠ
sui ĠrenĠkouĠ
suan ĠshiĠ
ĠyouĠ zhongĠguoĠ
xiangĠ jieĠ
faĠ wenĠ
ĠerĠ geĠ
zhengĠ zhaoĠ
changĠ wuĠ
ĠsiĠ faĠ
dengĠ jiangĠ
quanĠ chengĠ
ĠzheĠ shouĠ
ĠyiĠjiĠ qiĠtaĠ
ĠĠĠyiĠ xiaĠweiĠ
ĠweiĠyuĠgaiĠguoĠ zhongĠbuĠ
Ġhou ĠrenĠ
ĠhouĠlai ĠzaiĠ
taiĠfengĠ jingĠbao
teĠlangĠ puĠ
0 ĠbiĠ
7 ĠshiĠ
T wit
l yin
ĠĠĠ Ja
ĠĠĠ Mar
xin ĠshiĠzhenĠ
deng ĠzhiĠwuĠ
kou ĠshiĠ
peng ĠhuĠ
ãģ ®
zei Ġ
ĠyiĠ tiaoĠ
yuanĠ youĠdeĠ
xiangĠ fanĠ
ĠxiĠ shuĠ
juĠ jue
shouĠ jiaĠ
fangĠ daĠ
ĠfuĠ luĠ
lianĠ qiuĠ
ĠzhongĠguoĠ guoĠminĠdangĠ
ĠÃ ¡Ġ
Ġfan ĠzhiĠ
zongĠduĠ fuĠ
jiaoĠliuĠ daoĠ
ĠÑ Ģ
hangĠzhanĠ louĠ
baĠleĠsiĠ tanĠ
Ġon lyin
Ġonlyin cludeĠ
Ġ nanĠbuĠ
Ġ xuĠliĠyaĠ
zhi ĠshiĠyiĠ
ti ĠliĠ
zhou ĠdiĠ
zhen ĠliĠ
liu ĠzhongĠ
san ĠriĠ
ceng ĠjiĠ
can ĠjianĠ
sha ĠyuĠ
ber tĠĠĠ
92 ĠnianĠ
Gi r
ĠyouĠ diĠ
ĠyouĠ xuĠduoĠ
erĠ zhanĠ
ĠxiĠ ceĠ
ciĠ keĠ
baoĠ gao
ruĠ wuĠ
ĠziĠ chengĠ
ĠgeĠ laĠ
ĠxianĠ shengĠ
ĠyeĠ jianĠ
taoĠ huiĠ
hengĠ kua
ĠĠĠA u
ĠnianĠjianĠ chengĠ
anĠdeĠ lieĠ
ĠkaĠ laĠ
ĠnvĠ xingĠweiĠ
ĠliĠheĠ wuĠzhengĠzhuangĠganĠranĠzheĠ
dongĠcheĠ zuĠ
meiĠguoĠyiĠ liĠnuoĠyiĠ
ĠfeiĠlvĠ binĠ
+ +
3 ĠjiaĠ
7 ĠpingĠfangĠgongĠliĠ
Ġ ST
Ġ Ta
ĠĠĠ Ra
bu ĠshiĠyongĠ
hao ĠyiĠ
200 Ġ
10 ĠshiĠ
gun ĠqiuĠ
Î± Ġ
ĠjiĠ suanĠ
daĠ yingĠ
shuĠ xueĠjiaĠ
riĠ jianĠ
ĠxiĠ junĠ
huaĠ leĠ
tongĠ kuĠ
changĠ yongĠ
yaoĠ daoĠ
ĠdeĠyiĠ tiĠ
tangĠ chaoĠ
poĠ chanĠ
leĠyiĠ fenĠ
Ġ2 ĠĠĠ
guoĠminĠ dang
guoĠminĠ zhengĠfuĠ
ĠteĠbie ĠshiĠzaiĠ
T O
Ġ chang
Ġ 140
Ġ xueĠyuanĠ
Ġ 1960ĠnianĠ
Ġ 1935ĠnianĠ
en ĠheĠ
zhong ĠdeĠyiĠgeĠ
ban ĠdiĠ
bo x
âĢ ¢
50 ĠmiĠ
39 Ġ
ĠweiĠ niĠ
jianĠ puĠ
ĠqiĠ huaĠ
huiĠ luĠ
chuĠ fangĠ
jinĠ ciĠyuĠ
duiĠ daiĠ
xiaoĠ haiĠ
haiĠ yaoĠ
miĠ teĠ
bianĠ tiĠ
duoĠ huiĠ
suoĠ zuoĠ
suoĠ xiaoĠ
yunĠ suanĠ
baĠ biĠ
caiĠ fangĠshiĠ
tingĠ banĠ
tanĠ ceĠ
yiĠshiĠ xingĠtaiĠ
ĠwanĠ zhangĠ
ĠgenĠjuĠ 2010ĠnianĠmeiĠguoĠrenĠkouĠpuĠchaĠ
kangĠriĠ zhanĠzhengĠ
a ĠkeĠ
Ġ luĠdeĠ
Ġ shouĠjiĠ
jin ĠliĠ
lin ĠjiĠ
bai ĠqiĠ
mai ĠdiĠ
kun Ġnan
mm Ġ
ĠweiĠ teĠ
ĠyuĠ 2015
daĠ dangĠ
geĠ ziĠdeĠ
keĠ yongĠ
ziĠ shenĠdeĠ
chuĠ dongĠ
ĠriĠ yuanĠ
gaiĠ yongĠ
qingĠ chao
fanĠ chouĠ
shanĠ shangĠ
shanĠ zhanĠ
ĠxiangĠ fanĠ
gangĠ quĠ
ĠjuĠ baoĠdaoĠ
zhuanĠ ye
nvĠ zi
Ġdang ĠriĠ
ĠsanĠ geĠ
huoĠdong ĠzhongĠ
Ġ2011 ĠnianĠ12ĠyueĠ31ĠriĠ
tanĠxianĠ duiĠ
zhuanĠkeĠ xueĠxiaoĠ
I ON
Ġ nengĠgouĠ
ĠĠĠ longĠ
biao ĠzhongĠ
bian ĠzaiĠ
xuan ĠyiĠ
feng ĠyiĠ
na ĠkeĠ
long ĠyuĠ
mao ĠliĠ
hen ĠjiĠ
hun ĠxiaoĠ
st ra
62 Ġ
zhongĠ jianĠ
xiĠ junĠ
chengĠ xiĠ
chuĠ cunĠ
quĠ yuĠdeĠ
zhengĠ queĠdeĠ
yinĠ siĠ
ĠsiĠ huĠ
zhouĠ xianĠ
ĠbingĠ renĠweiĠ
ĠgongĠ minĠ
ĠjianĠ chiĠ
guangĠ huaĠ
ĠziĠ zhuĠ
ĠshiĠdeĠ jiĠ
ĠjingĠ chaĠ
ĠĠĠbenĠ zhanĠ
ĠweiĠyuĠgaiĠguoĠ nanĠbuĠ
gaoĠdengĠ jiaoĠyuĠ
jieĠquanĠguoĠ renĠdaĠdaiĠbiaoĠ
zhuangĠweiĠ linĠ
Ġ tuo
ĠĠĠ 187
ĠĠĠ Hi
ĠĠĠ bingĠ
ĠĠĠ suiĠzhuĠ
ci ĠbuĠ
huo ĠzhongĠ
ban ĠzhongĠ
ning ĠboĠ
ĠzhiĠ liuĠ
ĠyueĠ tanĠ
jinĠ jiangĠ
zuoĠ zhan
zuoĠ ciĠ
ĠdaĠ duiĠ
haiĠ zhanĠ
ĠfuĠ fuĠ
guĠ shengĠ
biaoĠ zhangĠ
zongĠ tongĠdeĠ
ĠyeĠ wuĠ
tangĠ naĠ
zhengĠzhiĠ weiĠyuanĠ
Ġer ĠyouĠ
touĠruĠ fuĠwuĠ
ĠxinĠzeng ĠjingĠwaiĠshuĠruĠ
duoĠlunĠ duoĠ
baoĠkuoĠyiĠxiaĠ wuĠzhongĠ
9 ĠhaoĠ
Ġ 25Ġ
ĠĠĠ qiuĠ
ĠĠĠ piĠ
ĠĠĠ yinĠciĠ
bei ĠzaiĠ
dong ĠweiĠ
ying ĠqiĠ
dui ĠbuĠ
xiao ĠqiĠ
wen ĠzaiĠ
ling ĠzaiĠ
na ĠjiĠ
sha ĠliĠ
sion Ġ
ĠyiĠ liao
ĠweiĠ zhongĠguoĠ
jianĠ juĠ
huiĠ seĠ
chuĠ quĠ
shuĠ qianĠ
ĠxiĠ linĠ
juĠ huaĠ
ĠdaĠ suan
duĠ chengĠ
qingĠ chun
shenĠ bianĠ
xieĠ leĠ
yangĠ quĠ
maĠ tou
guiĠ ze
xiuĠ shanĠ
ĠnanĠ fangĠ
zuĠqiuĠ jiaĠjiĠ
ĠV Ġ
ĠĠĠzaoĠnianĠ shengĠhuoĠ
ĠqiĠzhong ĠyiĠgeĠ
Ġ 79
Ġ gaoĠzhongĠ
ĠĠĠ Po
du ĠqiĠ
mu ĠzaiĠ
ba ĠjiĠ
feng ĠliĠ
one Ġ
ĠweiĠ huĠ
ĠyouĠ yuanĠ
xiangĠ yingĠdeĠ
chuĠ waiĠ
tongĠ banĠ
duĠ tongĠ
liangĠ jianĠ
miĠ qie
ĠbeiĠ fangĠ
hanĠ minĠguoĠ
ĠshiĠjiĠ moĠ
gengĠ haoĠdeĠ
qiĠshiĠ daiĠ
ĠC hi
wanĠchengĠ houĠ
ĠĠĠdiĠ sanĠ
daiĠbiao ĠdaĠ
haĠerĠ keĠfuĠ
wangĠqiuĠ gongĠkaiĠsaiĠ
1 ĠpingĠfangĠgongĠliĠ
E M
N H
Ġ kenĠ
Ġ yaĠliĠshanĠdaĠ
ĠĠĠ pa
ĠĠĠ 1999ĠnianĠ
ri n
duan ĠjiĠ
duan ĠzhiĠ
chong ĠxianĠ
Jo hn
ĠshiĠ riĠben
wuĠ xiaoĠ
wuĠ laĠ
faĠ diĠ
jingĠ yingĠdeĠ
ĠdaĠ junĠ
nanĠ quĠ
anĠ chaĠshiĠ
ĠtaĠ kaiĠshiĠ
diĠyiĠ jiaĠ
guoĠjiĠ saiĠshiĠ
ĠmuĠ qin
kanĠ saĠsiĠ
xingĠzhengĠ zhangĠguanĠ
ĠshenĠ duĠ
guoĠshiĠ daiĠ
ĠtaĠmen ĠyuĠ
fanĠduiĠ paiĠ
taiĠpingĠ yang
guoĠminĠ geĠmingĠ
dianĠying ĠzhiĠ
siĠlanĠ jiaoĠ
Ġ1970 ĠnianĠ
Ġ nong
Ġ bieĠ
Ġ 1972ĠnianĠ
Ġ 1940ĠnianĠ
xi ĠzhiĠxingĠ
ou ĠdeĠ
ĠĠĠ wi
ĠĠĠ laiĠ
mei ĠyiĠgeĠ
huo ĠqiĠ
lin ĠjiaĠ
pai ĠzaiĠ
gan ĠheĠ
ss o
89 ĠnianĠ
ĠshiĠ shengĠ
ĠdeĠ xinĠ
ĠyouĠ guoĠ
gongĠ ruĠ
changĠ guanĠ
wenĠ nuan
ĠjiaĠ geĠ
saiĠ huiĠ
baiĠ eĠluoĠsiĠ
zhuanĠ huan
diĠyiĠ zuoĠ
shaĠ leĠ
ĠshiĠwuĠ suoĠ
Ġzong ĠheĠ
Ġ1 ĠĠĠ
ĠhuoĠdeĠ leĠ
waiĠguoĠ renĠ
xiuĠzhengĠ anĠ
xingĠzheng ĠzhongĠxinĠ
Ġ 32
Ġ qia
Ġ No
Ġ tĠ
Ġ 1934ĠnianĠ
ĠĠĠ chen
ĠĠĠ shangĠyeĠ
ĠĠĠ rongĠyuĠ
yue ĠyouĠ
shu ĠnianĠ
jie ĠbuĠ
fei ĠweiĠ
tu ĠzhiĠ
lie ĠzhiĠ
chao ĠrenĠ
chan ĠchuĠ
nv ĠshengĠ
zhongĠ gongĠzhongĠyangĠ
daĠ jieĠ
zhuĠ houĠ
ĠxiĠ huan
zhengĠ dang
guanĠ zhangĠ
xiaĠ shuĠdeĠ
bianĠ huaĠdeĠ
lingĠ jianĠ
yunĠ keng
ĠdaoĠ guangĠ
ĠbeiĠ poĠ
niĠ poĠerĠ
ĠdangĠ diĠdeĠ
jueĠseĠ banĠyan
Ġãģ Ħ
ĠzaiĠjiaĠ shangĠ
4 ĠpingĠfangĠgongĠliĠ
â ħ
Ġ qiu
Ġ 1943
Ġ gongĠshiĠ
Ġ 1927ĠnianĠ
ĠĠĠ dangĠshiĠ
you ĠnianĠ
you ĠliĠdeĠ
ge ĠshiĠjiĠ
xin ĠjiĠshuĠ
huo ĠyouĠ
na ĠyuĠ
zhuang ĠheĠ
tuan ĠyuanĠ
peng ĠzhangĠ
xiĠ huanĠ
fuĠ wuĠdeĠ
jieĠ yanĠ
jieĠ shuĠshiĠ
xiaoĠ mie
shenĠ xiangĠ
jiuĠ nengĠ
boĠ huiĠ
kongĠ jianĠdeĠ
zhaoĠ mingĠ
keĠyiĠ youĠ
ĠnianĠ6ĠyueĠ 1ĠriĠ
gaoĠsuĠ tieĠluĠ
ĠjinĠguanĠ ruĠciĠ
ĠshiĠziĠ lvĠ
w er
Ġ mang
Ġ qiuĠjiĠ
Ġ 1933ĠnianĠ
ĠĠĠ zhouĠ
ĠĠĠ guiĠ
er ĠshiĠyiĠ
dao ĠyueĠ
hui ĠweiĠyuanĠ
guan ĠliĠjiĠ
gai ĠrenĠ
wai ĠshiĠ
zang ĠliĠ
buĠ daoĠ
gongĠ guĠ
fuĠ kaĠ
zhengĠ yiĠdeĠ
yeĠ zheĠ
yeĠ jiangĠ
tongĠ zhiĠdeĠ
zheĠ xueĠjiaĠ
danĠ dangĠ
haiĠ an
qingĠ jingĠ
banĠ lvĠ
haoĠ laiĠwuĠ
shuiĠ yuanĠ
ganĠ sheĠ
shaĠ moĠ
nongĠ ye
ĠboĠ geĠ
sanĠshiĠ siĠnianĠ
yuanĠzhuĠ min
zaĠ zhiĠdeĠ
ĠmaoĠ zeĠdongĠ
jiaoĠchaĠ kouĠ
ĠĠĠSch oo
ĠĠĠbenĠshuĠ baoĠkuoĠyiĠxiaĠwuĠzhongĠ
Ġ tui
ĠĠĠ 1945
qi ĠshiĠyongĠ
duo ĠyouĠ
zan ĠyangĠ
heĠ nanĠ
ĠzhongĠ duanĠ
xingĠ rongĠ
gongĠ qiĠ
ĠqiĠ shengĠ
yingĠ jianĠ
xinĠ shangĠ
qianĠ zuoĠ
ĠfuĠ qiĠ
gaoĠ chuĠ
maĠ geĠliĠ
ĠbingĠ ruĠ
ĠbingĠ danĠrenĠ
leiĠ muĠ
sanĠ haoĠ
zhouĠliĠ daĠxueĠ
zhongĠyao ĠxingĠ
ĠhaĠerĠ binĠshiĠ
ĠISTAT ĠdaiĠmaĠweiĠ0
s te
u ro
Ġ 67
Ġ zaoĠzaiĠ
ĠĠĠ Sa
ĠĠĠ zheĠzhongĠ
lai ĠzaiĠ
yao ĠyiĠ
tian ĠyuĠ
chuan ĠyuĠ
zhuang ĠxiangĠ
64 Ġ
keĠ jiaĠ
beiĠ daoĠ
ĠxiĠ guanĠ
quĠ fuĠ
yanĠ geĠdeĠ
changĠ zhuĠ
biĠ yaoĠdeĠ
jiuĠ jinĠshanĠ
suoĠ enĠ
ĠyinĠ yingĠ
ĠgaiĠ mingĠ
1Ġ fenĠ
gouĠ chengĠdeĠ
shaĠ teĠ
ĠyingĠ pianĠ
ĠĠĠzhiĠ houĠ
Ġgao ĠshiĠ
chanĠpin ĠdeĠ
puĠluoĠ wangĠsiĠ
Ġ ken
Ġ 1947
Ġ My
Ġ ziĠzhiĠ
Ġ dongĠjiĠ
Ġ shanĠxiĠshengĠ
ĠĠĠ xieĠ
ãĢ ķ
dong ĠdiĠ
ben ĠweiĠ
kai ĠshiĠyiĠ
fan ĠxingĠ
10 ĠrenĠ
kan ĠchuĠ
ĠweiĠ neng
ĠzhiĠ liĠyuĠ
ĠrenĠ junĠ
yuanĠ dingĠ
ĠbuĠ yuanĠ
shuĠ zhangĠ
fangĠ huĠ
taiĠ zuĠ
xiaĠ lieĠ
lingĠ hunĠ
baĠ qiangĠ
ĠdanĠ que
ĠgaiĠ mingĠweiĠ
ĠyiĠjiĠ qiĠ
2Ġ ri
tangĠ muĠ
ranĠ seĠ
laoĠ huĠ
zhunĠ que
yinĠduĠ jiaoĠ
ĠbuĠsiĠ baoĠ
ĠqiĠzhongĠnanĠ xingĠweiĠ
aiĠhaoĠ zheĠ
dianĠliĠjiĠ cheĠ
Ġ jia
Ġ 1942
Ġ 1931ĠnianĠ
ĠĠĠ ai
sui ĠyiĠ
tan ĠxingĠ
tun ĠbingĠ
diĠ qu
ĠzhongĠ jieĠ
chengĠ yuanĠdeĠ
daoĠ xianĠ
ĠdiĠ shangĠ
jiaoĠ huiĠdeĠ
wanĠ cheng
wanĠ juĠ
duoĠ tianĠ
cheĠ shenĠ
fengĠ xiangĠ
canĠ yuĠdeĠ
ĠjiangĠ junĠ
youĠyiĠ dingĠ
leĠyiĠ xiĠlieĠ
erĠshiĠ yuĠ
ĠmeiĠguoĠ guoĠjiaĠ
xiangĠshiĠ juĠrenĠ
yĠĠĠ of
Ġmo ĠerĠ
ĠmianĠ duiĠ
Ġbo ĠerĠ
genĠju ĠdiĠ
ĠxiongĠ yaĠliĠ
ĠĠĠguangĠ xuĠ
1 ĠshiĠ
G P
Ġ quĠyuĠ
Ġ 1974ĠnianĠ
ãĢ Ķ
hou ĠliĠ
bao ĠerĠ
du ĠerĠ
zhang ĠqiĠ
ya ĠqiĠ
deng ĠguoĠ
tian ĠbuĠ
chuang ĠliĠdeĠ
re ĠheĠ
wa sĠĠĠ
zhui ĠzongĠ
zhiĠ yeĠ
ĠzhiĠ zhuĠ
keĠ yanĠ
shengĠ tai
zhanĠ ling
daiĠ haoĠ
wanĠ faĠ
tianĠ wangĠ
laĠ shengĠ
ĠdanĠ dangĠ
piĠ luĠ
shuangĠ chongĠ
zaiĠyiĠ ciĠ
ĠzuoĠ jiaĠ
ĠyiĠjingĠ beiĠ
2001ĠnianĠ zongĠrenĠkouĠ
laĠjiĠ miĠerĠ
ĠĠĠgaiĠdiĠ 2001ĠnianĠzongĠrenĠkouĠ
M L
f fi
Ġ CO
Ġ wuĠdeĠ
ĠĠĠ No
ĠĠĠ mingĠchengĠ
qing ĠjiĠ
ping ĠyuĠ
sai ĠyiĠ
lan ĠrenĠ
na ĠbuĠ
cun ĠyouĠ
bie ĠmingĠ
ĠweiĠ xinĠ
ĠzhongĠ liangĠ
yuanĠ laiĠ
gongĠ duĠ
xiangĠ dangĠyuĠ
huiĠ yanĠ
shouĠ du
shouĠ gou
ĠtaĠ yinĠ
zuiĠ chu
ĠgongĠ yingĠ
puĠ dunĠ
ĠfaĠ sheĠ
dianĠshiĠ tai
xueĠyuanĠ yuanĠzhangĠ
xueĠshengĠ huiĠ
ĠĠĠzhiĠ beiĠ
chiĠxuĠ daoĠ
Ġ6Ġ suiĠrenĠkouĠ
Ġbo ĠsiĠ
jinĠyiĠ buĠdeĠ
yunĠshiĠ keng
Ġ 1975
Ġ tuĠdiĠ
ĠĠĠ peiĠ
jin ĠweiĠzhiĠ
bing ĠdiĠ
zhang ĠĠĠ
ba ĠzaiĠ
zan ĠshangĠ
BC Ġ
52 Ġ
ĠyueĠ kanĠ
beiĠ juĠ
ĠxiĠ wang
houĠ qin
yanĠ jinĠ
ĠgeĠ luĠ
aĠ kenĠseĠ
ĠshiĠjiĠ weiĠ
shaoĠ qingĠ
yueĠ laiĠyueĠ
ĠyanĠ jiu
Ġmei ĠliĠ
lingĠdaoĠ xiaĠ
Ġzu ĠjiĠ
cuoĠ wuĠdeĠ
xiaoĠfeiĠ zheĠ
M C
Ġ zaoĠdaoĠ
Ġ 1941ĠnianĠ
ji ĠshiĠdeĠ
ĠĠĠ cengĠ
chu ĠyiĠgeĠ
dong ĠqiĠ
huo ĠyuĠ
huo ĠdeĠyiĠ
ni ĠrenĠ
kan ĠqiĠlaiĠ
Inter national
ĠyiĠ ge
ĠheĠ taĠdeĠ
zhuĠ chuĠ
zhuĠ junĠ
zhuĠ boĠ
baoĠ mingĠ
xiaĠ laiĠdeĠ
wangĠ gongĠ
muĠ changĠ
xuanĠ gua
ĠdanĠ gaiĠ
ĠzheĠ leiĠ
zhaoĠ shengĠ
2Ġ fenĠ
Ġtong ĠnianĠ7ĠyueĠ
maoĠ zeĠ
ĠtongĠ yang
ĠyinĠciĠ taĠ
hunĠ luan
jingĠliĠ leĠ
Ġhu ĠyuĠ
ĠyiĠsiĠlanĠ jiaoĠ
Ġà ¤
juĠfeng ĠzhongĠxinĠ
1 18
xue ĠyiĠ
gu ĠxiĠlaĠ
chuo ĠhaoĠ
ĠshiĠ douĠ
ĠdeĠ daĠ
ĠjiĠ bai
ĠjiĠ suan
ĠjiĠ linĠ
ĠzhiĠ neng
ĠheĠ dongĠ
daĠ geĠming
geĠ luoĠ
wuĠ junĠ
zhuĠ gongĠ
zhuĠ jiangĠ
xianĠ xianĠ
tiĠ duĠ
pingĠ tanĠ
yaĠ daoĠ
lianĠ huaĠ
huĠ guangĠ
ĠgongĠ gaoĠ
ranĠ shaoĠ
langĠ manĠ
ĠdiĠerĠ geĠ
ĠĠĠliĠ ruĠ
ĠweiĠyuĠfaĠguoĠ daĠdongĠbuĠdaĠquĠ
Ġlu ĠyiĠsiĠ
2019ĠguanĠzhuangĠbingĠduĠ bingĠyiĠ
Ġ neng
Ġ kuan
Ġ 1956
ĠĠĠ Com
ĠĠĠ xingĠtaiĠ
yong ĠguoĠ
duo ĠzaiĠ
11 ĠgeĠ
65 Ġ
ds Ġ
ĠdeĠ guiĠdaoĠ
ĠzhiĠ jiaĠ
ĠheĠ daĠ
ĠheĠ gongĠ
xingĠ rong
siĠ wang
jianĠ xiĠ
jianĠ geĠ
jieĠ yunĠ
zhuĠ huaĠ
yingĠ gai
yeĠ cengĠ
guanĠ mingĠ
duĠ caiĠ
ganĠ rao
ĠciĠ riĠ
ĠzhongĠguoĠ guoĠjiaĠ
rongĠ ruĠ
zhuĠyiĠ heĠ
ĠtongĠ changĠshiĠ
ĠteĠ bieĠ
shengĠwuĠ xueĠjiaĠ
ĠfenĠbuĠyuĠ nanĠmeiĠzhouĠ
Ġ 1955
ĠĠĠ mo
20 ĠgeĠ
ci ĠxiĠ
bao ĠzaiĠ
che ĠyuĠ
zhuan ĠzhuĠ
zhuan ĠyiĠzhiĠ
lun ĠzaiĠ
ar a
zhongĠ ziĠ
daoĠ taĠ
houĠ caiĠ
huaĠ tingĠ
yongĠ daoĠ
nanĠ duĠ
quanĠ leiĠdaĠ
baiĠ leĠ
ĠwuĠ hanĠ
touĠ sheĠ
cengĠ mianĠ
zhongĠguoĠ gongĠchanĠdangĠ
dianĠyingĠ yuanĠ
kaiĠfaĠ quĠ
youĠxianĠ gongĠsiĠ
Ġcom Ġ
baĠjiĠsiĠ tanĠ
Ġ d
Ġ lian
ĠĠĠ xiaoĠxingĠxingĠ
cheng ĠyiĠzhiĠ
zheng ĠshiĠjieĠ
heĠ tongĠ
shuĠ dianĠ
mingĠ daiĠ
zhanĠ zhengĠshiĠ
huaĠ chengĠ
xinĠ ze
tiĠ huanĠ
fenĠ faĠ
sheĠ zhengĠ
sheĠ qunĠ
ĠdeĠyiĠ tiaoĠ
ĠjinĠ gangĠ
Ġtong ĠjiĠ
yueĠ tuanĠ
ĠzuoĠ zheĠ
anĠdeĠ luĠ
haĠerĠ bin
0 ĠrenĠ
Ġ buĠyiĠ
Ġ 1971ĠnianĠ
ĠĠĠ En
ĠĠĠ yiĠshiĠ
xian ĠshiĠqiĠ
ta lĠĠĠ
zuo ĠqiĠ
pi ĠdeĠ
lan dĠ
77 ĠnianĠ
ĠshiĠ baoĠ
ĠdeĠ xiĠ
ĠzhongĠ zhengĠ
geĠ linĠ
ĠbuĠ shao
jieĠ gouĠdeĠ
zhuĠ suoĠ
ĠxiĠ shengĠ
jingĠ queĠ
tongĠ yangĠdeĠ
fenĠ duiĠ
ĠkeĠ jiaĠ
ĠfuĠ jiaĠ
quanĠ jingĠ
tianĠ qiaoĠ
huanĠ jingĠzhongĠ
cunĠ huoĠ
ĠpingĠfangĠ yingĠliĠ
ĠnianĠ8ĠyueĠ 1ĠriĠ
baoĠkuoĠ leĠ
ĠgaiĠshengĠfenĠweiĠfaĠguoĠ zhongĠ
ĠshiĠwuĠkeĠ lanĠxiĠ
p le
Ġ renĠshiĠ
Ġ 1962ĠnianĠ
ren ĠĠĠ
ru ĠqiĠ
liao ĠfaĠ
mao ĠsiĠ
ning ĠxiaĠ
ĠshiĠ haoĠ
ĠyiĠ shuoĠ
ĠnianĠ jinĠ
diĠ yaĠ
ĠbuĠ juĠ
xiangĠ dang
chuĠ xianĠyuĠ
shangĠ qianĠ
tongĠ lingĠ
pingĠ anĠ
haiĠ tanĠ
ĠfuĠ qinĠshiĠ
waiĠ xianĠ
ĠchuĠ ziĠ
ĠjieĠ jueĠ
songĠ jiangĠ
ĠyingĠ gaiĠ
zuĠzhiĠ buĠ
ĠzhangĠ danĠquĠ
ĠnianĠ3ĠyueĠ 1ĠriĠ
ĠlianĠ saiĠ
liuĠxingĠ yinĠyueĠ
ĠxingĠzhengĠ yuanĠ
geĠlunĠ biĠya
luĠzhanĠ duiĠ
9 ĠpingĠfangĠgongĠliĠ
L L
Ġ 33
ĠĠĠ shanĠ
bi ĠweiĠ
zi ĠrenĠ
xin ĠweiĠ
liang ĠbuĠfenĠ
nan ĠdiĠquĠ
ting ĠyiĠ
tou ĠbaoĠ
chuang ĠdeĠ
pao ĠtaiĠ
76 ĠnianĠ
ĠzhiĠ suoĠzaiĠ
ĠyuĠ 2019
ĠyouĠ haoĠ
changĠ xiaoĠ
qianĠ jingĠ
meiĠ youĠjiĠ
bianĠ houĠ
tianĠ eĠ
kaiĠ yuanĠ
laĠ dingĠyuĠ
waiĠ jiao
chuanĠ ran
lieĠ ning
chengĠweiĠ jiĠ
suiĠ pianĠ
tuoĠ puĠ
ĠdeĠrenĠ kouĠweiĠ
zhongĠyuĠ yanĠ
ĠĠĠzhongĠ huaĠminĠguoĠ
ĠW Ġ
chengĠnianĠ renĠ
Netfli x
Ġ 120
Ġ zhuĠrenĠ
Ġ siĠjiĠ
Ġ jiaĠzhiĠ
li ĠjiĠ
ĠĠĠ To
she ĠyiĠ
70 ĠnianĠdaiĠ
MV Ġ
ĠshiĠ dongĠ
ĠzhiĠ qiuĠduiĠ
ĠyuĠ 2016
guoĠ min
ĠzaiĠ meiĠ
ĠrenĠ chengĠ
gongĠ yanĠ
beiĠ huiĠ
yingĠ quĠ
guanĠ shuiĠ
taiĠ shangĠ
zhangĠ haoĠ
danĠ ciĠ
qingĠ bao
ĠfuĠ lang
ĠfuĠ yinĠ
zhouĠ quĠ
xuĠ gouĠ
zeĠ huiĠ
ĠbaoĠ faĠ
zaoĠ qi
youĠyiĠ mingĠ
daĠxueĠ jiaoĠshouĠ
ĠnianĠ9ĠyueĠ 1ĠriĠ
ĠduoĠ shuĠ
ĠÃ ¶
Ġbi ĠliĠshiĠ
peiĠyinĠ yuanĠ
bengĠ kuiĠ
ĠzhiĠluĠ houĠ
Univer si
3 ĠciĠ
e ĠjiĠ
Ġ jiaĠshiĠ
Ġ 1936ĠnianĠ
ĠĠĠ Si
ĠĠĠ wanĠliĠ
yan ĠyouĠ
lei ĠdiĠ
nei ĠweiĠ
kua ĠguoĠ
99 ĠnianĠ
DVD Ġ
zhongĠ guoĠdeĠ
qiĠ tiĠ
Ġyue ĠĠĠ
beiĠ lieĠweiĠ
chuĠ xuanĠ
shouĠ ciĠzaiĠ
mingĠ que
shangĠ cengĠ
xueĠ jieĠ
jiaoĠ xiang
nanĠ changĠ
qingĠ chenĠ
banĠ changĠ
shenĠ cha
teĠ sheĠ
cheĠ tui
cheĠ huoĠ
ĠgaiĠ xiaoĠ
zaoĠ leĠ
ĠyinĠweiĠ taĠmenĠ
Ġãĥ Ī
ĠriĠqiĠ yongĠ
jianĠchaĠ yuĠshiĠ
jieĠmu ĠzhongĠ
H E
Ġ rong
Ġ 1959ĠnianĠ
yue ĠqiĠ
dian ĠyiĠ
xia ĠdiĠ
fei ĠheĠ
tian ĠzhongĠ
ze ĠshiĠzaiĠ
shao ĠxingĠ
shuo ĠdaoĠ
pa ĠlaĠ
seng Ġ
zhongĠ qiĠ
ĠzaiĠ dangĠshiĠ
xingĠ zouĠ
erĠ geĠ
jieĠ riĠ
beiĠ jingĠdeĠ
ciĠ changĠ
yeĠ jieĠ
fenĠ shouĠ
yongĠ chiĠ
banĠ kuaiĠ
fanĠ shouĠ
liuĠ ruĠ
menĠ jiangĠ
puĠ jingĠ
gangĠ xianĠ
zhuanĠ lanĠ
zhaoĠ pian
hangĠ yunĠ
ĠzhanĠ douĠ
ĠshenĠ zhenĠ
ĠĠĠyiĠ banĠ
yanĠjiu ĠrenĠyuanĠ
boĠwuĠ yuanĠ
Ġrang ĠtaĠ
canĠmou ĠbuĠ
ĠĠĠhouĠ xuĠ
6 000
Ġ de
Ġ Car
Ġ 1951ĠnianĠ
ĠĠĠ Ar
ĠĠĠ yanĠjiuĠ
zi ĠyueĠ
ci ĠqiĠ
gu ĠkeĠ
bao ĠguoĠ
zhen ĠyiĠ
tan ĠshiĠ
shuo ĠtaĠ
ĠyuĠ 2018
daĠ suanĠ
gongĠ pingĠ
chengĠ nuo
shengĠ zhangĠzaiĠ
xianĠ leĠ
shuĠ linĠ
dongĠ zhengĠ
tongĠ riĠ
ĠdaĠ naĠ
qianĠ miĠrenĠ
haiĠ huiĠ
zhenĠ jingĠ
dingĠ baoĠ
maĠ saĠzhuĠsaiĠ
diĠyiĠ piĠ
kaĠ cheĠ
Ġtong ĠshiĠzaiĠ
leĠyiĠ xiangĠ
ĠaĠ boĠ
ĠwenĠ jianĠ
ĠĠĠin ĠĠĠtheĠĠĠ
guangĠxiĠ zhuangĠ
2 ĠxianĠ
I A
Ġ shan
Ġ zhengĠdeĠ
Ġ 1928ĠnianĠ
ĠĠĠ tongĠshiĠ
ci a
zhan ĠĠĠ
hai ĠzhongĠ
tian ĠzaiĠ
lin ĠdiĠ
ĠshiĠ jiĠshiĠ
qiĠ zhongĠyiĠgeĠ
xingĠ faĠ
fuĠ shanĠ
xueĠ sheng
zuoĠ yong
xinĠ geĠ
haiĠ meiĠyouĠ
anĠ quanĠdeĠ
luoĠ muĠ
liuĠ shouĠ
puĠ bian
ĠgeĠ ziĠ
ĠxianĠ changĠ
ĠpingĠ jieĠ
huanĠ jingĠdeĠ
keĠyiĠ zhuiĠsuĠdaoĠ
ĠshiĠjieĠ rangĠ
yiĠshiĠ zaiĠ
songĠ wangĠ
ĠsuiĠ houĠzaiĠ
ĠxinĠ jiangĠ
ĠdeĠdiĠ xiaĠ
ĠjingĠ yingĠ
ĠtongĠ chengĠ
ĠnianĠ12ĠyueĠ 28ĠriĠ
qunĠ dao
ĠzhongĠyangĠ junĠweiĠ
mingĠziĠ mingĠmingĠ
ĠjiĠbaiĠ leĠ
ĠerĠrenĠkouĠmiĠduĠweiĠmeiĠpingĠfangĠ qianĠmiĠrenĠ
gaoĠdengĠ faĠyuanĠ
ĠĠĠ neiĠ
ĠĠĠ suoĠyouĠ
ĠĠĠ jingĠguoĠ
guan ĠbuĠ
ma ĠxiĠ
ba ĠrenĠ
ka ĠheĠ
qiang ĠjieĠ
shuai ĠluoĠ
95 ĠnianĠ
ĠjiĠ jiangĠ
ĠyuĠ 2020
ĠyuĠ 2013
ĠliĠ yuanĠ
ĠliĠ fangĠ
guoĠ jiaĠjiĠ
diĠ renĠ
huiĠ yiĠdeĠ
zhengĠ quan
zhengĠ xuanĠ
zheĠ liangĠ
yangĠ chengĠ
guiĠ shuĠ
meiĠguoĠ heĠ
zhuanĠ touĠ
kongĠ jiangĠ
ĠmeiĠ junĠ
youĠyiĠ weiĠ
riĠben ĠdiĠguoĠ
ĠneiĠ rong
dongĠliĠ xueĠ
H O
Ġ We
Ġ enĠ
Ġ 1963ĠnianĠ
Ġ ãĦ
ĠĠĠ Al
hu ĠfuĠ
dian ĠshiĠjiĠ
ding ĠjiaĠ
lie ĠrenĠ
pang ĠdaĠ
pang ĠbianĠ
74 ĠnianĠ
ĠyiĠ tuĠ
ĠrenĠ quanĠ
ĠheĠ geĠ
jiaĠ zuĠdeĠ
jieĠ shu
chuĠ qiĠdeĠ
yanĠ hai
huaĠ zuoĠ
daiĠ shangĠ
xuanĠ lvĠ
dangĠ zhuĠ
guiĠ leiĠweiĠ
ĠtaiĠ leiĠ
jinĠruĠ leĠ
Ġceng ĠweiĠ
Ġ1 ĠgeĠ
xingĠchengĠ leĠ
faĠdianĠ changĠ
jiangĠxueĠ jinĠ
ĠĠĠ dang
ĠĠĠ xueĠxiaoĠ
ĠĠĠ danĠshiĠ
huo ĠyueĠyuĠ
shen ĠdaĠ
lin ĠliĠ
ĠyuĠ 2024
diĠ mingĠ
gongĠ chiĠ
jiaĠ diĠ
ciĠ houĠ
xiaoĠ wuĠ
shenĠ mingĠ
liuĠ yanĠ
menĠ waiĠ
ĠchuĠ yanĠ
jingĠjiĠ heĠ
henĠ shao
daĠxueĠ shengĠ
ĠlingĠ daoĠ
xueĠzheĠ renĠweiĠ
lianĠheĠguoĠ jiaoĠkeĠwenĠ
Ġ2011ĠnianĠ renĠkouĠ
juĠleĠ buĠdeĠ
Ġ fo
Ġ zaoĠnianĠ
ĠĠĠ hong
ĠĠĠ lanĠ
ci ĠshiĠjianĠ
zhou ĠdaĠ
hao ĠbuĠ
feng ĠxingĠqiĠ
pei ĠerĠ
nie ĠciĠkeĠ
63 Ġ
83 ĠnianĠ
deĠ yiĠ
ĠdeĠ chengĠjiĠ
ĠjiĠ dongĠ
fuĠ chengĠ
wuĠ jiangĠ
huiĠ guĠ
jinĠ miĠ
ĠdiĠ buĠ
shouĠ dao
huaĠ nanĠ
qingĠ laiĠ
biĠ shuĠ
xieĠ xinĠ
dengĠ renĠdeĠ
tuĠ muĠ
niĠ aoĠ
ĠzhuĠ geĠ
zhuanĠ ruĠ
aiĠ zhengĠ
erĠshiĠ erĠnianĠ
guoĠliĠ taiĠwan
guanĠli ĠweiĠyuanĠhuiĠ
Ġ ×
Ġ chanĠshengĠ
Ġ 1953ĠnianĠ
ĠĠĠ 1998
ĠĠĠ zuoĠpinĠ
yue ĠyuĠ
mi ĠyuĠ
jiang ĠbuĠ
luo ĠweiĠqiĠ
la ĠqiĠ
tian ĠyouĠ
cai ĠyiĠ
pin ĠheĠ
fou ĠdingĠ
zun ĠxunĠ
ĠshiĠ qingĠ
ĠliĠ mingĠ
ĠzaiĠ siĠ
gongĠ touĠ
jianĠ ruoĠ
ĠguoĠ xiaoĠ
zhuĠ zha
shengĠ pingĠ
huiĠ gui
huaĠ bingĠ
huaĠ naĠ
xinĠ chengĠliĠdeĠ
ĠkeĠ laĠkeĠ
zuĠ muĠ
suĠ xiangĠ
suĠ lvĠ
ĠzhuĠ changĠ
ĠdeĠshiĠ yeĠ
ĠdongĠ haiĠ
nvĠ zuoĠ
ĠboĠ wuĠguanĠ
ĠdangĠ xuanĠweiĠ
ĠquanĠ chengĠ
junĠshiĠ xingĠdongĠ
ĠgaoĠ xiong
kongĠzhiĠ qiĠ
ĠĠĠC en
Ġwan ĠnianĠ
ĠweiĠyuĠgaiĠguoĠ dongĠbeiĠbuĠ
chuangĠliĠ leĠ
ĠjinĠbiaoĠ saiĠ
2 30
u t
Ġ zhu
Ġ xuan
Ġ diĠliĠ
Ġ heĠjiĠ
Ġ zhuoĠ
Ġ 1973ĠnianĠ
Ġ 1930ĠnianĠ
wei ĠshiĠjiĠ
ben ĠyuĠ
pa ĠdeĠ
ĠweiĠ baoĠ
buĠ bingĠ
ĠyouĠ geĠ
daĠ liang
daĠ poĠ
faĠ lanĠ
tongĠ leiĠ
liangĠ duanĠ
meiĠ youĠdeĠ
miĠ teĠliĠ
xieĠ tongĠ
tianĠ kongĠ
guĠ piaoĠ
fanĠ rongĠ
ĠdeĠyiĠ xiĠlieĠ
tuĠ po
tuĠ rang
aiĠ lunĠ
ĠshengĠ muĠ
ĠnianĠ2ĠyueĠ 24ĠriĠ
Ġxian ĠyouĠ
yinĠduĠ niĠxiĠyaĠ
sunĠ huaiĠ
puĠchaĠ guiĠdingĠ
5 ĠgongĠfenĠ
6 ĠĠĠ
Ġ k
Ġ paoĠ
Ġ zanĠ
Ġ jiaĠyiĠ
Ġ 1913ĠnianĠ
ĠĠĠ xianĠdaiĠ
wei ĠyiĠzhiĠ
ge ĠshiĠzhenĠ
xiang ĠguoĠ
lu ĠbuĠ
she ĠrenĠ
bai ĠliĠ
huan ĠheĠ
nuo ĠweiĠqiĠ
pao ĠdanĠ
EP Ġ
ĠyiĠ mianĠ
ĠyuĠ mingĠ
Ġli ĠshiĠjianĠzhuĠ
ĠheĠ liuĠyuĠ
xiĠ shengĠ
erĠ buĠ
ĠerĠ zhanĠ
leĠ duoĠ
yanĠ huiĠ
daiĠ xiaoĠxingĠxingĠ
duoĠ mianĠtiĠ
suoĠ you
shanĠ beiĠ
caiĠ jingĠ
kuoĠ sanĠ
qinĠ shuĠ
Ġyou ĠyiĠgeĠ
fangĠmianĠ junĠ
Ġmo ĠliĠ
Ġlin ĠjinĠ
ĠgeĠlunĠ biĠyaĠ
3 ĠzhiĠ
C E
U R
huo ĠbuĠ
duo ĠnianĠdeĠ
chong ĠqiĠ
73 ĠnianĠ
ĠyuĠ xianĠ
ĠrenĠ dingĠ
yuanĠ qiĠ
jieĠ ciĠ
juĠ zhuĠdeĠ
leĠ beiĠ
pingĠ heng
biĠ fenĠ
boĠ lin
ĠdanĠ yeĠyouĠ
ĠyiĠjiĠ zhiĠ
tieĠ cheĠzhanĠ
canĠ baiĠ
mianĠjiĠ yueĠ
xiuĠ yangĠ
genĠ zhouĠ
ĠdengĠ jinĠshiĠ
ĠĠĠshengĠ taiĠ
jieĠjueĠ fangĠanĠ
tuiĠyiĠ houĠ
ĠzhongĠhuaĠ minĠ
ĠxiĠtong ĠzhongĠ
aoĠdi ĠliĠdeĠ
kenĠtaĠjiĠ zhouĠ
V IDĠ
Ġ tieĠluĠ
Ġ cunĠzaiĠ
Ġ nongĠyeĠ
ĠĠĠ suiĠzheĠ
dong ĠdiĠquĠ
xia ĠyiĠgeĠ
la ĠdaĠ
su ĠdiĠ
pu ĠyiĠ
ĠdeĠ youĠ
buĠ lieĠtaĠ
ĠzaiĠ zheĠgeĠ
ĠzhongĠ shenĠ
daĠ duiĠ
yuanĠ wangĠ
chuĠ jiaĠ
jinĠ xianĠ
shouĠ quĠ
shangĠ kongĠ
dingĠ xiangĠ
zongĠ buĠweiĠyuĠ
dangĠ qianĠ
ĠdeĠyiĠ tiao
chuanĠ songĠ
ĠbeiĠ geĠ
guiĠ ding
ĠdeĠshiĠ changĠ
ĠgaiĠ zhuang
shaĠ laĠ
chenĠ shuĠ
piĠ jiuĠ
tuiĠ chiĠ
queĠ dianĠ
erĠshiĠ siĠ
haĠ maĠ
ĠdeĠrenĠ heĠ
zaoĠchengĠ leĠ
xiaĠjiĠ aoĠyunĠhuiĠ
geĠliĠ guanĠ
ĠweiĠyuĠgaiĠguoĠ xiĠnanĠbuĠ
Ġkang ĠriĠ
waiĠweiĠ saiĠ
Ġcen terĠ
5 ĠhaoĠmiĠ
q Ġ
Ġ huanĠjingĠ
Ġ lieĠche
Ġ hĠ
ĠĠĠ guoĠjiaĠduiĠ
ta ĠĠĠ
gao ĠjiĠzhongĠxueĠ
deng ĠzaiĠ
lan ĠsiĠ
chi ĠyiĠ
lie ĠyuĠ
ran ĠshiĠ
Mi crosoft
85 ĠnianĠ
ki Ġ
71 ĠnianĠ
ĠjiĠ suĠ
heĠ nanĠshengĠ
fuĠ yuanĠ
jiaĠ zhiĠdeĠ
daoĠ shuĠ
ziĠ junĠ
shouĠ ru
baoĠ jianĠ
meiĠ guiĠ
shenĠ xinĠ
moĠ huĠ
ĠshiĠshiĠ houĠ
chuangĠ xiaĠ
yanĠjiuĠ zheĠ
Ġer ĠweiĠ
Ġzhe ĠweiĠ
caoĠ zongĠ
zaiĠyiĠ daĠliĠ
zuĠqiuĠ xieĠhuiĠ
Ġgai ĠguoĠ
Ġãĥ «
lianĠbangĠ zhengĠfuĠ
ziĠran ĠbaoĠhuĠ
ĠyiĠmeiĠ yuanĠdeĠ
Ġ zhan
Ġ 66
Ġ 1968
ao ĠliĠ
ĠĠĠ teĠ
ĠĠĠ chongĠ
le ĠyiĠzhiĠ
cun ĠyiĠ
gan ĠzhiĠ
qin ĠjiaĠ
chen ĠyuĠ
60 ĠnianĠdaiĠ
the ĠĠĠ
el Ġ
88 ĠnianĠ
56 Ġ
51 Ġ
ĠshiĠ nanĠ
ĠyiĠ benĠ
ĠjiĠ tiĠ
ĠjiĠ longĠ
yuanĠ yin
fuĠ zongĠtongĠ
jieĠ zouĠ
daoĠ zhiĠdeĠ
jinĠ duĠ
zhanĠ gongĠ
junĠ wuĠ
qingĠ xiangĠyuĠ
jiuĠ geĠ
xieĠ ziĠ
maĠ yaĠ
huanĠ quĠ
keĠyiĠ beiĠ
ĠshengĠ chuĠ
kaoĠ zhengĠ
haĠ saĠkeĠ
ĠquanĠ xianĠ
ĠchengĠweiĠ leĠ
ĠyiĠliĠ shaĠbaiĠ
1ĠhaoĠ xianĠ
Ġdi ĠshiĠyiĠ
T E
Ġ cheng
Ġ xiaĠjiĠ
Ġ bianĠjiĠ
Ġ 1939ĠnianĠ
shu ĠguoĠ
xie ĠliĠ
50 ĠwanĠ
ĠdeĠ mingĠ
ĠyuĠ 2012
ĠrenĠ men
ĠheĠ shengĠ
jianĠ qiĠ
jiaoĠ shou
jiaoĠ huĠ
danĠ weiĠdeĠ
ĠxingĠ buĠ
quanĠ xinĠdeĠ
ĠbingĠ tongĠguoĠ
paiĠ ziĠ
ĠziĠ yangĠ
puĠ xianĠ
ĠchuĠ shouĠ
ĠwuĠ daoĠ
ĠzhongĠguoĠ gongĠ
taoĠ tuoĠ
daiĠbiaoĠ zuoĠ
ĠluoĠ boĠteĠ
ĠĠĠyiĠ geĠ
ĠcengĠ danĠrenĠ
huiĠfuĠ zhuĠrenĠ
aoĠsiĠ ka
zhanĠlingĠ leĠ
Ġpei ĠheĠ
mingĠniĠsuĠdaĠ zhouĠ
puĠchaĠguiĠdingĠ juĠminĠdianĠ
5 ĠzhiĠ
m pi
Ġ zhuang
Ġ Sta
Ġ buĠdeĠ
Ġ zhunĠ
Ġ minĠzuĠ
Ġ qingĠnianĠ
Ġ pĠ
Ġ 1912ĠnianĠ
bu ĠshiĠyiĠ
yan ĠzaiĠ
duo ĠkeĠ
zhen ĠzaiĠ
gui ĠyiĠ
shui ĠguoĠ
tou ĠzhiĠ
ct or
nve ĠdaiĠ
ĠzaiĠ zhe
fangĠ sheĠ
yanĠ shuoĠ
xiaoĠ mieĠ
xiaĠ xingĠ
banĠ xueĠ
duoĠ luoĠ
quanĠ ziĠ
xuanĠ xiangĠ
dingĠ yiĠdeĠ
laĠ tuo
ĠshiĠdeĠ guoĠdeĠ
kongĠ tiaoĠ
henĠ gaoĠ
sheĠhuiĠ keĠxueĠ
ĠqingĠ qiuĠ
ĠjiuĠ huiĠ
hengĠ xingĠdeĠ
daoĠshiĠ zhanĠtaiĠ
ĠkongĠ tai
lingĠxianĠ zhuĠyanĠ
ĠliĠxinĠ lvĠweiĠ0
ĠweiĠreĠdaiĠ danĠshuiĠyuĠ
ĠĠĠxiaĠshuĠ wuĠzhongĠ
s ĠdeĠ
Ġ 1972
Ġ xuanĠjuĠ
Ġ lunĠdun
ĠĠĠ St
yuan ĠshiĠdeĠ
ci en
jiang ĠdaĠxueĠ
ya ĠweiĠ
zhou ĠerĠ
ban ĠweiĠ
lv ĠyuĠ
00 ĠwanĠ
12 ĠrenĠ
wo ĠfuĠ
ĠjiĠ yaĠ
Ġli ĠĠĠ
ĠliĠ chaĠ
diĠ fuĠ
ĠyouĠ sanĠ
faĠ songĠ
faĠ xiĠsiĠ
chuĠ shengĠdeĠ
ĠxiĠ xianĠ
baoĠ jiaĠliĠyaĠ
meiĠ youĠyiĠ
ĠxingĠ chengĠdeĠ
dengĠ wenĠtiĠ
quanĠ wanĠ
suoĠ zhuĠ
fengĠ huangĠ
hanĠ guoĠdeĠ
ĠchuĠ kouĠ
chaoĠ guoĠyiĠ
ĠnanĠ feiĠ
yingĠguoĠ huangĠjiaĠ
heiĠ anĠ
ĠnianĠ5ĠyueĠ 1ĠriĠ
ĠfengĠ baoĠ
Ġba ĠerĠ
ĠzheĠshiĠ yinĠweiĠ
fenĠbie ĠzaiĠ
xiaĠdeĠyiĠgeĠ shuĠ
A A
p hi
Ġ 1969
Ġ 1957ĠnianĠ
ou ĠerĠ
he ĠshiĠyongĠ
ye ĠweiĠqiĠ
yan ĠbuĠ
lu ĠguoĠ
bing ĠyouĠ
la ĠyiĠ
zhen ĠshiĠdeĠ
liu ĠriĠ
huang ĠdaoĠ
100 ĠwanĠ
ĠyuĠ fuĠ
diĠ 1Ġ
ĠheĠ tongĠ
yuanĠ linĠ
jieĠ chuĠdeĠ
ĠqiĠ xingĠ
jinĠ ziĠ
riĠ neiĠ
zhengĠ ceĠdeĠ
zheĠ liangĠgeĠ
pingĠ fanĠ
meiĠ tongĠpaiĠ
sheĠ youĠyiĠ
zhenĠ tanĠ
guĠ dingĠdeĠ
feiĠ chuanĠ
feiĠ jiĠdeĠ
puĠ saĠ
shuiĠ quĠ
ĠgaiĠ pian
yueĠ duiĠ
tuoĠ xieĠ
jingĠjiĠ gongĠsiĠ
ĠmianĠjiĠ 1Ġ
ĠxuanĠ zeĠ
Ġgu ĠliĠ
ĠhaiĠbaĠgaoĠduĠ 2Ġ
ĠrenĠkou ĠweiĠrenĠ
ĠmeiĠnianĠ pingĠjunĠ
heiĠlongĠjiangĠ shengĠ
b ri
Ġ 1920
Ġ wuĠnianĠ
Ġ 1942ĠnianĠ
shang ĠerĠ
dou ĠdeĠ
dou ĠweiĠ
huang ĠdeĠ
chen ĠxingĠ
54 Ġ
86 ĠnianĠ
ĠyiĠ lang
geĠ zhouĠ
jianĠ zhuĠdeĠ
chengĠ cheĠ
zhuĠ keĠ
shengĠ biĠdeĠ
beiĠ xiĠ
jinĠ lingĠ
leĠ sanĠ
tongĠ guoĠyiĠ
luĠ quĠ
wenĠ dingĠxingĠ
jiangĠ yuanĠ
ĠsiĠ wang
ĠjiaĠ suĠ
banĠ daoĠdeĠ
ĠtaĠ huiĠ
tuĠ pianĠ
duanĠ cengĠ
ĠhouĠ laiĠdeĠ
chaoĠ xian
Ġdan ĠdeĠ
tieĠ muĠerĠ
nianĠ daiĠweiĠ
diĠshiĠ siĠ
ĠĠĠC or
chengĠrenĠ youĠxiĠ
zuiĠgaoĠ dianĠweiĠ
faĠbiaoĠ shengĠmingĠ
Ġpo ĠshiĠ
maĠkeĠsiĠ zhuĠyiĠ
zhuĠlongĠ caoĠ
e ĠsiĠ
ou nd
ĠĠĠ Par
ĠĠĠ xuĠduoĠ
ĠĠĠ riĠben
shen ĠzhongĠ
wan ĠheĠ
san ĠyiĠ
ce ĠxianĠ
rong ĠxingĠ
tie ĠdaĠniĠ
kun ĠjingĠ
44 Ġ
ĠdeĠ shuoĠfaĠ
youĠ qiĠ
xingĠ bie
zhuĠ ziĠ
huiĠ zhanĠ
ĠdiĠ heĠ
quĠ xiangĠ
shouĠ zhouĠ
xiaoĠ mingĠ
danĠ niĠerĠ
liangĠ changĠ
minĠ suĠ
jiuĠ kaiĠshiĠ
mianĠ baoĠ
mianĠ jiĠdeĠ
guangĠ mingĠ
linĠ yeĠ
ceĠ suoĠ
manĠ lianĠ
yiĠshiĠ zhiĠ
peiĠ tongĠ
yingĠxiangĠ leĠ
quanĠguoĠ renĠdaĠdaiĠbiaoĠ
xiaoĠxingĠ xingĠyuĠ
Ġma ĠliĠyaĠ
anĠdeĠ erĠ
ĠguiĠ huaĠ
Ġda ĠzhiĠ
Ġque ĠfaĠ
ĠshiĠwuĠkeĠ lan
Ġ qiĠweiĠ
di ĠshiĠwuĠ
er ĠshiĠqiĠ
le yĠ
pu ĠshiĠ
sha ĠerĠ
rou ĠdaoĠ
79 ĠnianĠ
ĠshiĠ luoĠmaĠ
ĠyiĠ zhaoĠ
ĠzhiĠ li
gongĠ yuanĠdeĠ
geĠ wuĠ
keĠ chuanĠ
ziĠ jianĠ
jinĠ guanĠ
zhengĠ que
leĠ daĠliangĠ
huaĠ jieĠ
tiĠ siĠ
teĠ quanĠ
maĠ shangĠ
caiĠ gouĠ
ĠxiangĠ guanĠdeĠ
ĠgeĠ diĠ
ĠjuĠ shuoĠ
huanĠ jing
chongĠ dangĠ
aiĠ saiĠeĠ
yinĠyueĠ jieĠ
Ġãĥ ©
ĠxiĠbeiĠ jieĠ
daĠjiangĠ saiĠ
guanĠcha ĠdaoĠ
raoĠtaiĠyangĠ yunĠ
cri tic
banĠzhangĠ zhouĠweiĠ
s er
Ġ lang
Ġ 1959
Ġ 24Ġ
Ġ 1965ĠnianĠ
Ġ 1961ĠnianĠ
ĠĠĠ dan
lai ĠdaĠ
ling ĠyiĠweiĠ
lie ĠriĠ
tiao ĠdeĠ
tao ĠdaoĠ
kan ĠtaiĠ
kuai ĠjiĠ
72 ĠnianĠ
82 ĠnianĠ
ster Ġ
Ġli ĠshiĠshiĠ
ĠyouĠ zhuĠyuĠ
ĠrenĠ daĠ
daĠ huoĠ
chengĠ diĠ
fangĠ xiang
yingĠ dangĠ
zuoĠ chengĠ
zuĠ aiĠ
anĠ suanĠ
benĠ haiĠ
xuĠ muĠ
baĠ qianĠ
ĠgaiĠ xiaoĠxingĠxingĠyuĠ
congĠ shuĠ
tuiĠ guang
piaoĠ lvĠ
ĠbianĠ juĠ
youĠjiĠ huaĠheĠwuĠ
Ġma ĠkeĠsiĠ
xiaĠjiĠ aoĠlinĠpiĠkeĠyunĠdongĠ
ĠÃ Ń
pangĠ daĠdeĠ
taoĠtaiĠ saiĠ
changĠwu ĠweiĠyuanĠhuiĠ
fangĠdiĠ chanĠ
2 ĠzhiĠ
9 ĠyueĠzhiĠ
T S
Ġ chuan
Ġ cuĠjinĠ
ĠĠĠ yingĠyongĠ
di ĠĠĠ
yan ĠguoĠ
jun ĠliĠ
su ĠxingĠ
21 ĠshiĠjiĠ
at Ġ
gra m
ĠweiĠ ruan
ĠzaiĠ yingĠ
jinĠ xingĠshiĠ
ĠxiĠ keĠ
ĠxiĠ boĠ
zheĠ yang
jiangĠ luoĠ
liangĠ beiĠ
lianĠ huanĠ
benĠ zuoĠ
quanĠ huiĠ
linĠ chuangĠ
cengĠ ciĠ
pinĠ pai
tangĠ daiĠ
ĠshiĠjianĠ jieĠ
Ġri ĠĠĠ
tuoĠ baĠ
songĠ huiĠ
ĠbenĠ ciĠ
ĠliuĠ jingĠ
ĠaĠ genĠ
cangĠ kuĠ
ĠhanĠ gaiĠ
xiangĠgang ĠdaoĠ
ĠhaiĠbaĠgaoĠduĠ 1Ġ
ĠweiĠyuĠfaĠguoĠ xinĠaĠjiĠtan
ĠjiaĠruĠ leĠ
foĠ jiao
ĠshiĠyiĠkeĠ raoĠtaiĠyangĠyunĠ
ĠhuaĠshengĠ dun
ĠtaiĠpingĠ yangĠ
ĠshiĠxingĠdengĠweiĠ 6
ĠĠĠguiĠdaoĠ canĠshuĠ
ĠdeĠguiĠdaoĠ banĠzhangĠzhouĠweiĠ
ĠshiĠyiĠkeĠraoĠtaiĠyangĠyunĠ zhuanĠdeĠxiaoĠxingĠxingĠ
2 ĠciĠ
u a
Ġ duan
Ġ jueĠseĠ
Ġ 1932ĠnianĠ
yin ĠzhongĠ
chi ĠheĠ
bai ĠdaĠ
xun ĠdaoĠ
hang ĠyuanĠ
cang ĠshuĠ
sou ĠjiĠ
78 ĠnianĠ
va Ġ
renĠ shuĠ
yuanĠ zuoĠ
daoĠ xiĠ
ĠqiĠ shouĠ
tongĠ hangĠ
guanĠ quĠ
minĠ zuĠdeĠ
xieĠ xiaĠ
xuanĠ buĠyuĠ
ĠgongĠ jinĠjiĠ
ĠshiĠyiĠ kuan
niĠ yaĠyuĠ
ĠjuĠ changĠ
aĠ leiĠ
ĠmeiĠ tianĠ
ĠtongĠ jinĠshiĠchuĠshenĠ
erĠshiĠ tingĠ
faĠzhanĠ chuĠ
ĠwoĠ menĠdeĠ
zengĠjiaĠ daoĠ
ruiĠ dian
ĠweiĠzhuĠ xiaoĠxingĠxingĠ
ĠzhuanĠ menĠ
Ġda ĠjiĠ
laĠheĠ maĠ
sheĠjiaoĠ meiĠtiĠ
junĠshiĠtanĠdingĠ baoĠ
ĠkongĠtai ĠdaĠquĠ
ĠweiĠzhuĠxiaoĠxingĠxingĠ daiĠxiaoĠxingĠxingĠ
K P
L E
Ġ Bu
Ġ qunĠ
Ġ kaĠsiĠ
ĠĠĠ canĠkao
qi ĠĠĠ
ri con
ban ĠyiĠ
wan ĠjiĠ
pi ĠliĠ
na meĠ
dou ĠshiĠyouĠ
ka ĠshiĠ
hang ĠdeĠ
peng ĠjiĠ
nai ĠchuanĠ
th i
53 Ġ
ble Ġ
ĠweiĠ buĠ
ĠnianĠ qing
siĠ quĠ
chengĠ neiĠ
beiĠ quĠ
xueĠ fuĠ
huaĠ wuĠ
meiĠ ciĠ
shenĠ pan
ĠfuĠ sheĠ
lianĠ huiĠ
anĠ dingĠ
benĠ shenĠdeĠ
ĠtaĠ ceng
bianĠ qianĠ
xuanĠ xiu
caiĠ yongĠdeĠ
ĠyinĠ suĠ
Ġta ĠrenĠ
ĠfaĠ dongĠ
Ġri ĠqiĠjianĠ
yiĠshiĠ yuĠ
ĠĠĠC hi
Ġjin ĠyouĠ
jieĠshiĠ leĠ
gaiĠbianĠ ziĠ
kaĠerĠ waĠ
xianĠdeĠyiĠgeĠ zhenĠquĠ
ĠliaoĠ ning
neiĠmengĠguĠ ziĠzhiĠquĠ
ĠshiĠwuĠkeĠlanĠdeĠ cunĠluoĠ
ndro id
9 ĠgongĠliĠ
Ġ alignĠ
ĠĠĠ se
ĠĠĠ 1999
zheng ĠdiĠ
qu ĠqiĠ
ci ĠnianĠ
ci ĠerĠ
huo ĠdeĠyiĠmeiĠ
hai ĠrenĠ
wan ĠzhiĠ
lv ĠbingĠ
chan ĠzhiĠ
zhao ĠdaoĠleĠ
61 Ġ
ls Ġ
ĠshiĠ yuanĠ
ĠyiĠ gangĠyuanĠ
jiaĠ gongĠ
beiĠ dongĠ
faĠ fangĠ
tongĠ huoĠ
zheĠ ge
changĠ tuĠ
xiaĠ guĠ
benĠ shen
sanĠ baiĠ
ĠbeiĠ haiĠ
tingĠ kao
queĠ ding
ĠdeĠdiĠ siĠ
zuĠzhiĠ jiĠ
ĠluĠ junĠ
yinĠyueĠ juĠ
ĠshiĠweiĠyuĠ meiĠguoĠyiĠliĠnuoĠyiĠ
yaĠliĠ sangĠnaĠ
ĠĠĠdiĠ mingĠ
ĠĠĠjiaĠ jingĠ
Ġge ĠnianĠ
ganĠsuĠ shengĠ
4 ĠliĠ
Ġ chuĠqiĠ
Ġ heĠliĠ
ĠĠĠ daiĠ
te ĠdiĠ
10 ĠmiĠ
huan ĠbingĠ
tao ĠdeĠ
55 Ġ
daĠ zhanĠ
fuĠ wu
ziĠ keĠ
ĠqiĠ muĠ
juĠ fuĠ
quĠ jingĠ
shouĠ jiaoĠ
yanĠ chuĠdeĠ
bingĠ tuan
biĠ jinĠ
jiuĠ chengĠ
benĠ haĠ
naĠ me
lieĠ wuĠ
ĠwuĠ yuanĠ
ĠmianĠjiĠ 1
pingĠjunĠ shuiĠpingĠ
Ġjiu ĠzaiĠ
ĠminĠ jianĠ
guiĠmoĠ zuiĠdaĠdeĠ
ĠĠĠU AĠ
Ġcan ĠjianĠ
biĠliĠniuĠsiĠ shengĠ
H C
Ġ 1953
Ġ zhuĠyiĠ
Ġ chouĠ
Ġ kaoĠjinĠ
Ġ pingĠguoĠ
yu ĠshiĠjianĠ
ĠĠĠ ruo
zhi ĠshiĠjianĠ
mi ĠheĠ
ta critic
hao ĠdiĠ
mo n
lin ĠguoĠ
lun ĠziĠ
chou ĠqianĠ
chou ĠwenĠ
nai ĠdeĠ
vi dĠĠĠ
93 ĠnianĠ
ĠzhiĠ zeĠ
daĠ shangĠ
wuĠ duanĠ
jiaĠ ting
beiĠ guanĠjunĠ
chuĠ mingĠ
shouĠ ci
yanĠ xingĠ
wangĠ zhuĠ
muĠ lanĠ
zhouĠ houĠ
boĠ mingĠ
boĠ kuanĠ
fengĠ ciĠ
zhuanĠ tiĠ
congĠ ciĠ
ĠshiĠjiĠ shangĠshiĠ
ĠshengĠ jingĠ
ĠsuiĠ jiĠyiĠ
waĠ jueĠ
ĠtiĠ gaoĠ
ĠtianĠ zhuĠjiaoĠ
tieĠluĠ xianĠ
youĠjiĠ huiĠ
ouĠzhouĠ guanĠjunĠ
ĠchongĠ zhenĠ
wenĠhua ĠheĠ
ĠzhiĠzaoĠ shangĠ
A pp
c re
Ġ rao
Ġ 89
Ġ 112
Ġ 1929ĠnianĠ
bing ĠerĠ
yao ĠjiĠ
che ĠzhiĠ
bai ĠerĠ
th o
ĠweiĠ jieĠ
ĠyuĠ 2014
ĠrenĠ keĠ
gongĠ zhengĠ
daoĠ jiaoĠ
beiĠ guanĠ
ziĠ xiĠ
jinĠ liangĠ
changĠ chun
fenĠ nuĠ
ĠsiĠ xingĠ
zhangĠ jieĠ
meiĠ zhouĠdeĠ
ĠtaĠ keĠ
ĠtaĠ xiangĠ
suoĠ waĠ
tuĠ sha
tuĠ rangĠ
gangĠ taiĠ
duanĠ zanĠ
diaoĠ leĠ
ĠjingĠ shenĠ
ĠbianĠ chengĠ
Ġhuo ĠerĠ
ĠpaiĠ sheĠ
rengĠran ĠshiĠ
ĠqiĠta ĠrenĠ
minĠzhuĠzhuĠyiĠ renĠminĠ
1 ĠdeĠ
Ġ xi
Ġ ying
Ġ 1944ĠnianĠ
yu ĠshiĠyongĠ
li ĠqiĠ
yuan ĠyiĠjiĠ
te ĠkeĠ
nei ĠerĠ
200 ĠmiĠ
meng ĠjiaĠla
pan ĠxingĠ
mou ĠyiĠ
87 ĠnianĠ
ĠyuĠ gaoĠ
ĠzhongĠ shan
gongĠ xueĠ
chuĠ seĠ
tongĠ luoĠ
wenĠ niĠ
ĠsiĠ yuanĠ
danĠ xingĠ
leiĠ dongĠwuĠ
guangĠ chang
ĠshiĠyiĠ yiĠ
douĠ yaoĠ
zhaoĠ shouĠ
ĠrenĠkouĠ puĠ
ĠyingĠ xiongĠ
ĠshiĠzhenĠ mianĠjiĠweiĠ
ĠbenĠ pianĠ
ĠsuoĠ youĠdeĠ
baoĠdaoĠ chengĠ
Ġte xtĠ
Ġco lorĠ
kaĠerĠwaĠ duoĠsiĠ
Y P
s k
Ġ Con
Ġ yanĠzhongĠ
Ġ 1967ĠnianĠ
li ĠchengĠ
ĠĠĠ 1997
ĠĠĠ 1997ĠnianĠ
guo ĠĠĠ
dong ĠzaiĠ
die ĠdeĠ
ĠweiĠ xiĠ
fuĠ nv
daoĠ taiĠ
ziĠ daĠ
zhangĠ danĠquĠ
danĠ cheĠ
qingĠ junĠ
luoĠ jieĠ
ĠxiangĠ shouĠ
ĠxianĠ xiangĠ
ĠguoĠjiaĠ anĠquanĠ
yinĠyueĠ luĠyingĠdaiĠ
gongĠzhongĠ kaiĠfangĠ
ĠdeĠyiĠzuoĠ chengĠshiĠ
S P
Ġ 1976
Ġ juĠjiĠ
Ġ 1943ĠnianĠ
ĠĠĠ p
ĠĠĠ zhe
ĠĠĠ yaoĠ
bu ĠliĠsiĠ
gu ĠzhongĠ
xie ĠyuĠ
bian ĠyouĠ
zhen ĠfuĠ
han ĠzhongĠ
ĠyiĠ seĠlie
ĠjiĠ bingĠ
buĠ shao
ĠzaiĠ zheĠzhongĠ
gongĠ xiaĠ
jianĠ dui
jieĠ luĠ
faĠ shouĠdeĠ
xueĠ paiĠ
fangĠ suoĠ
ĠdaĠ piĠ
yinĠ shuĠ
wenĠ pingĠ
zhangĠ huĠ
ĠjiaĠ juĠ
qingĠ shanĠ
anĠ dongĠ
gaoĠ jieĠ
fanĠ xueĠyuanĠ
kaiĠ caiĠ
caiĠ pan
ĠchuĠ laiĠ
ĠpingĠ jiaĠ
aĠ muĠsiĠteĠ
ĠzhongĠguoĠ zhengĠfuĠ
renĠweiĠ zheĠ
ĠjiangĠ huiĠ
ĠnianĠ3ĠyueĠ 31ĠriĠ
ĠnianĠzhiĠ jinĠ
ĠĠĠS Ġ
ĠĠĠS to
Ġhuo ĠyiĠ
Ġliang ĠzhongĠ
ĠyueĠhanĠ xunĠ
ĠshiĠwuĠkeĠ lanĠ
duoĠerĠ duoĠ
ĠjingĠneiĠ gongĠyouĠ
t onĠ
Ġ nao
ĠĠĠ be
ĠĠĠ dingĠyiĠ
ĠĠĠ 1ĠĠĠ
mi c
lai ĠyouĠ
liu ĠguoĠ
shui ĠliĠfaĠ
zhao ĠriĠ
67 Ġ
97 ĠnianĠ
ĠshiĠ baiĠ
ĠjiĠ xiangĠ
ĠyuĠ 2017
ĠyuĠ zaiĠ
ĠliĠ kai
ĠheĠ kouĠ
ĠbuĠ lanĠ
zhuĠ fuĠ
zhuĠ bianĠ
shengĠ geĠ
faĠ shuĠ
huiĠ ru
ĠdiĠ erĠjiĠ
shouĠ menĠ
taiĠ yangĠdeĠ
benĠ laiĠ
biaoĠ jueĠ
liuĠ paiĠ
waiĠ shengĠ
chuanĠ dongĠ
paiĠ zhaoĠ
ĠdanĠ xinĠ
lunĠ taiĠ
cunĠ zai
manĠ zu
ĠzuiĠ houĠzaiĠ
ĠxiaoĠ fangĠ
ĠluoĠ lunĠ
ĠquĠ xiaoĠ
ĠsuoĠ shuĠ
zhanĠzhengĠ baoĠfaĠ
ĠxingĠchengĠ leĠ
mingĠxingĠ saiĠ
Ġ 1935
Ġ siĠnianĠ
ĠĠĠ yinĠduĠ
er ĠshiĠyiĠnianĠ
yue ĠdeĠ
qu ĠdeĠshiĠ
qian ĠbuĠ
she ĠqiĠ
lei ĠzhiĠ
cai ĠyuĠ
zhao ĠzhiĠ
rong ĠziĠ
pei ĠliĠ
mao ĠziĠ
bin ĠweiĠ
77 Ġ
CO VIDĠ
ĠshiĠ zheĠ
ĠjiĠ shangĠ
fuĠ teĠ
chengĠ qingĠ
faĠ dianĠjiĠ
guanĠ zhongĠdeĠ
fenĠ changĠ
junĠ keĠ
gaiĠ zuĠ
ĠxingĠ xiĠ
anĠ shaĠ
cheĠ zhanĠdeĠ
kaiĠ fangĠdeĠ
baĠ teĠ
ĠgeĠ geĠ
ĠchengĠ zuoĠ
ĠhuoĠ jianĠ
quĠdeĠ deĠ
ĠdeĠjiĠ changĠ
zhengĠfu ĠyiĠ
Ġãģ Ĩ
Ġling ĠrenĠ
xuĠduo ĠrenĠ
yinĠhang ĠdeĠ
ĠyouĠqiĠshiĠ zaiĠ
Ġ dun
Ġ chui
Ġ 1973
Ġ shuĠjiĠ
Ġ fuĠshiĠ
an ĠzaiĠ
ĠĠĠ 1994
he ĠdeĠguoĠ
le ĠguoĠ
yong ĠdaĠ
qian ĠyiĠzhiĠ
xia ĠdeĠyiĠgeĠzhongĠ
dai ĠqiĠ
duo ĠjiĠ
xie ĠyouĠ
sai ĠshiĠyuĠ
lv erĠ
lie ĠkeĠ
49 Ġ
ĠjiĠ daĠ
ĠzhiĠ jiaĠgeĠ
ĠliĠ taoĠwanĠ
chengĠ daĠ
yanĠ shouĠ
tiĠ changĠ
junĠ shuĠ
meiĠ jieĠ
lianĠ saiĠzhongĠ
gaoĠ yaĠ
suĠ qiuĠ
ĠgaiĠ shanĠ
diĠyiĠ daiĠ
qiangĠ poĠ
ĠyeĠ yinĠciĠ
tangĠ niao
jingĠjiĠ buĠ
chengĠyuanĠ zhiĠyiĠ
ĠgaiĠshengĠfenĠweiĠfaĠguoĠ xiĠbeiĠbuĠ
Ġzhuan ĠrenĠ
ĠÐ¾ ĠÐ
e ĠyiĠ
di ĠshiĠqiĠ
qu ĠĠĠ
hou ĠheĠ
she ĠerĠ
duo ĠerĠshengĠ
geng ĠdiĠ
lao ĠnianĠ
lao ĠyuanĠ
13 ĠgeĠ
zhui ĠdongĠwuĠ
zang ĠzuĠ
ĠshiĠ baĠxiĠ
daĠ anĠ
fuĠ shangĠ
fuĠ yuanĠzhangĠ
ĠbuĠ qiĠ
chuĠ fenĠ
chuĠ zuĠ
ĠdiĠ 3Ġ
fangĠ fa
yeĠ yinĠciĠ
fenĠ ziĠdeĠ
ruĠ jinĠ
biĠ teĠ
kaiĠ fangĠshiĠ
ĠbeiĠ jing
moĠ duanĠ
shuiĠ wuĠ
kaiĠshiĠ jinĠxingĠ
ĠliĠshiĠ xueĠ
ĠliĠshiĠ zhangĠ
fuĠwuĠ qiĠ
Ġãĥ ĥ
wenĠhua ĠyiĠ
xiaoĠzuĠ saiĠ
ĠerĠgaiĠdiĠ zuiĠgaoĠdianĠweiĠ
baoĠshouĠ dangĠ
ĠerĠgaiĠdiĠzuiĠgaoĠdianĠweiĠ haiĠbaĠgaoĠduĠ
Ġ niao
ji ĠyiĠgeĠ
yi ĠshiĠyiĠ
jie ĠshiĠweiĠ
mei ĠyueĠ
lai ĠxiĠ
ni ĠxiĠya
tian ĠxingĠ
lin ĠweiĠ
que ĠxiĠ
100 ĠmiĠ
ĠyuĠ zhangĠ
ĠzhongĠ guo
ĠzhongĠ duiĠ
juĠ dongĠ
houĠ mianĠ
ciĠ huiĠyiĠ
ĠdaĠ yingĠ
pingĠ min
xiaĠ xiaĠdeĠ
meiĠ guoĠshiĠ
lingĠ hun
cheĠ liang
yunĠ songĠ
shanĠ changĠ
feiĠ cui
caiĠ beiĠ
baiĠ tuoĠ
ĠxiangĠ huĠ
ĠxianĠ xingĠ
shuiĠ niĠ
ĠliĠshiĠ youĠ
ĠzhengĠ mingĠ
enĠ shengĠheĠ
ĠdiĠerĠ tianĠ
ĠbingĠyuĠ tong
Ġming ĠyiĠ
ĠÃ ¼Ġ
neiĠrong ĠdeĠ
maĠkeĠ xiĠ
Ġ2010ĠnianĠ renĠkouĠ
daiĠlaiĠ leĠ
tha tĠĠĠ
Ġ fangĠyuĠ
Ġ saĠerĠ
ao ĠweiĠhuiĠ
li ĠzhiĠ
lu ĠdaĠ
qian ĠnianĠ
gao ĠyiĠ
suo ĠerĠ
zhuan ĠshiĠ
xun ĠyiĠ
huang ĠziĠ
kuang ĠdeĠ
ted Ġ
ĠyuĠ shangĠ
ĠyouĠ zuoĠ
ĠzaiĠ duiĠ
jiaĠ laiĠ
shuĠ shangĠ
riĠ ziĠ
zuoĠ yongĠdeĠ
dianĠ yingĠshiĠ
yongĠ hu
haiĠ keĠyiĠ
guĠ gongĠ
dingĠ gouĠ
baiĠ yinĠ
ĠbaoĠ han
ganĠ xieĠ
ĠfaĠ shouĠ
ranĠ liao
ĠzhanĠ shenĠ
ĠzhengĠ tiĠ
Ġxian ĠdeĠyiĠgeĠ
Ġwo ĠerĠ
ĠpuĠtaoĠ yaĠ
ĠjinĠru ĠzhiĠluĠhouĠ
Ġ pai
Ġ 110
Ġ jingĠliĠ
ĠĠĠ lianĠ
ĠĠĠ taĠshiĠ
jian ĠĠĠ
dang ĠsiĠ
tian ĠguoĠ
gou ĠheĠ
zha ĠerĠ
25 ĠrenĠ
94 ĠnianĠ
buĠ luĠkeĠ
ĠzaiĠ yueĠ
jiaĠ leĠbiĠ
ĠbuĠ liaoĠ
jieĠ duanĠdeĠ
chengĠ jiangĠ
daoĠ xiaĠ
jingĠ shangĠ
huaĠ xiangĠ
xiaoĠ zu
meiĠ lianĠ
lianĠ duiĠ
bianĠ xiuĠ
duoĠ biĠ
zuiĠ xianĠ
dangĠ xiaoĠ
Ġyin ĠdiĠ
jingĠjiĠ changĠ
ĠnianĠ12ĠyueĠ 1ĠriĠ
ĠnianĠzhiĠ jianĠ
chunĠ qiuĠ
ĠfanĠ huiĠ
ĠniĠ guĠlaĠ
Ġdong ĠyuĠ
2 ĠdeĠ
Ġ guan
Ġ 1966
Ġ 130
Ġ kunĠ
Ġ 1924ĠnianĠ
ĠĠĠ We
ĠĠĠ 1995ĠnianĠ
bi ĠzaiĠ
she ĠfuĠ
pi ĠshiĠ
la ĠjiaĠ
bian ĠdiĠ
ka ĠxiĠ
man ĠheĠ
el lo
98 ĠnianĠ
84 ĠnianĠ
ĠjiĠ hua
heĠ zhongĠ
jiaĠ zhangĠ
chengĠ weiĠshiĠ
xiangĠ fenĠ
huiĠ wuĠ
chuĠ shenĠdeĠ
biĠ yaĠdeĠ
shenĠ jing
ĠfuĠ laiĠ
zuĠ gou
wanĠ yuanĠ
zhouĠ chengĠ
xuanĠ juĠdeĠ
suĠ junĠ
ĠbingĠ yaoĠqiuĠ
ĠchuĠ zhanĠ
ĠgaiĠ pianĠ
aoĠ duoĠ
liĠ shaĠbaiĠ
touĠ jiaoĠ
ĠyuanĠ xianĠ
Ġdai ĠweiĠ
zhuangĠjiĠ kengĠ
wuĠzhuang ĠbuĠduiĠ
ziĠbenĠ zhuĠyiĠ
jieĠxiaĠ laiĠdeĠ
zenĠ me
jueĠseĠbanĠyan ĠyouĠxiĠ
j Ġ
Ġ He
Ġ quĠshiĠ
Ġ shenĠweiĠ
Ġ tuiĠdongĠ
ĠĠĠ lvĠ
ĠĠĠ faĠzhanĠ
ĠĠĠ zhuanĠjiĠ
er a
yin ĠbuĠ
ru ĠjiaĠ
xu ĠliĠya
yao ĠyouĠ
zhuan ĠdaoĠ
zhuang ĠchengĠ
dou ĠkeĠ
ran s
gan ĠxingĠquĠ
shao ĠerĠ
ĠshiĠ yongĠyuĠ
Ġnian ĠdeĠyiĠ
ĠzhiĠ xuĠ
ĠzhiĠ houĠyouĠ
yuanĠ chuang
gongĠ suoĠ
ĠyueĠ zhanĠ
jieĠ cengĠ
quĠ shengĠ
jiangĠ huĠshiĠdaiĠ
gaiĠ daoĠ
ruĠ changĠ
qingĠ dianĠ
ĠtaĠ cengĠzaiĠ
suoĠ xiaĠdeĠyiĠgeĠ
sanĠ shengĠ
caiĠ seĠ
ĠjieĠ shaoĠ
ĠwuĠ dingĠ
ĠfenĠ ziĠ
dianĠshiĠ taiĠdeĠ
ĠdianĠ nao
zhengĠfu ĠweiĠ
ĠlianĠ tongĠ
ĠweiĠjiĠ baiĠkeĠ
buĠfen ĠdeĠ
beiĠrenĠ wei
tianĠjingĠ yunĠdongĠyuanĠ
baĠleĠsiĠ tan
caoĠzuo ĠxiĠtongĠ
ĠweiĠyuĠfaĠguoĠao ĠkeĠxiĠtaĠniĠdaĠquĠ
ĠshiĠweiĠyuĠmeiĠguoĠmiĠsuĠliĠ zhouĠ
P P
l erĠ
m sĠ
Ġ 1965
Ġ yanĠshiĠ
li ĠbuĠ
ĠĠĠ o
ke ĠweiĠqiĠ
ban ĠzaiĠ
te ĠyouĠ
lin ĠdaĠ
13 ĠrenĠ
26 0
nai ĠzhiĠ
st ru
guai ĠshouĠ
96 ĠnianĠ
ĠyuĠ 2022
zhongĠ cengĠshuiĠyuĠ
diĠ tie
diĠ biaoĠ
ĠrenĠ shouĠ
xingĠ daoĠ
jingĠ ziĠ
yanĠ zheĠ
yeĠ ziĠ
jiaoĠ caiĠ
shenĠ gaoĠ
liuĠ xiangĠ
sanĠ tianĠ
ĠchengĠ haoĠ
duanĠ tuĠ
tuanĠ tiĠdeĠ
ĠdeĠzhiĠ yuanĠ
ĠyingĠ geĠlanĠ
ĠqingĠ chao
erĠshiĠ sanĠnianĠ
ĠbenĠ pian
Ġliu ĠxingĠ
ĠdeĠzhiĠchiĠ zheĠ
ĠqiĠxiĠzaiĠdiĠ cengĠshuiĠyuĠ
1 ĠjiĠ
9 ĠmingĠ
Ġ zhengĠzaiĠ
Ġ 1969ĠnianĠ
er e
xue ĠerĠ
ben ĠguoĠ
suo ĠliĠ
shui ĠbuĠ
11 ĠrenĠ
16 ĠgeĠ
ĠyiĠ zuĠ
ĠyuĠ 2023
yuanĠ benĠdeĠ
fuĠ danĠ
ĠbuĠ jiu
jieĠ shouĠdeĠ
beiĠ shouĠyuĠ
jinĠ biĠ
shouĠ lieĠ
fangĠ wen
guanĠ tongĠ
jiaoĠ suoĠ
bingĠ daoĠ
gaiĠ ge
gaiĠ gongĠsiĠ
shenĠ houĠ
sheĠ faĠ
shanĠ chengĠ
sanĠ xianĠ
baiĠ fenĠ
ĠchengĠ baoĠ
touĠ suĠ
ĠweiĠyuĠ taiĠwanĠ
diĠyiĠ ciĠshiĠjieĠdaĠzhanĠ
ĠfaĠ lanĠkeĠ
waĠ leiĠ
yinĠyueĠ xueĠyuanĠ
Ġsui ĠzhiĠ
ĠhongĠ seĠ
yingĠyongĠ chengĠshiĠ
jianĠchaĠ yuanĠ
ĠliĠru ĠzaiĠ
a g
ĠĠĠ lvĠyouĠ
ĠĠĠ 1994ĠnianĠ
ĠĠĠ taĠyuĠ
zhi ĠyiĠjiĠ
xing ĠshiĠweiĠ
yin ĠyueĠshiĠ
xiao ĠerĠ
hai ĠzhiĠ
shen ĠerĠ
zui ĠjiĠ
sai ĠkeĠsiĠ
san ĠdaoĠ
ĠweiĠ meiĠguoĠ
xingĠ cunĠ
gongĠ fuĠ
gongĠ guanĠ
fuĠ laĠ
jiaĠ jingĠ
beiĠ fenĠ
shouĠ chuĠ
leĠ wuĠ
leĠ zheĠgeĠ
jingĠ shuĠ
liangĠ xingĠ
paiĠ chuĠdeĠ
linĠ ken
ĠchengĠ huaĠ
ĠchengĠ weiĠyiĠ
zhuanĠ huaĠweiĠ
cunĠ zaiĠyiĠ
kaĠ luoĠsiĠ
shuoĠ huaĠ
ĠjiangĠ taĠ
ĠshuĠ mingĠ
ĠqianĠ shenĠweiĠ
guanĠjunĠ saiĠ
diĠerĠ ciĠshiĠjieĠdaĠ
huiĠshiĠ diĠ
Ġao ĠerĠ
waiĠjiaoĠbuĠ zhangĠ
yeĠshengĠ dongĠwuĠ
aoĠdaĠliĠ ya
ĠaĠerĠbeiĠsiĠ daĠquĠ
Ġ IS
Ġ 1926ĠnianĠ
ĠĠĠ Na
ĠĠĠ Ri
ĠĠĠ tieĠluĠ
bo ĠweiĠ
zui ĠdeĠ
chi ĠzaiĠ
xiu ĠjiĠ
rui ĠdeĠ
lve ĠyouĠ
AR Ġ
ĠdeĠ shouĠ
ĠdeĠ qianĠ
Ġnian ĠnianĠdiĠ
qiĠ dianĠ
ĠyouĠ meiĠguoĠ
ĠzhongĠ guoĠshiĠ
gongĠ kai
ĠyueĠ keĠ
fuĠ keĠ
zheĠ leiĠ
nanĠ zhanĠ
qingĠ chunĠ
biĠ saiĠshiĠ
ĠfuĠ shuĠ
anĠ shanĠ
zuiĠ zhongĠyiĠ
guĠ shouĠ
chuanĠ ruĠ
chongĠ tu
hongĠ se
zouĠ langĠ
zongĠtongĠ xuanĠjuĠ
Ġgu ĠerĠ
ĠyeĠjiuĠshiĠ shuoĠ
miĠxiĠxiĠ biĠ
3 60
r stĠĠĠ
â Ĺ
Ġ 31
Ġ 1954
Ġ 1923ĠnianĠ
ĠĠĠ bianĠ
ĠĠĠ 1991ĠnianĠ
bu ĠyiĠzhiĠ
jian ĠdeĠshiĠ
yin ĠguoĠ
zhan ĠshiĠdeĠ
ya ĠdiĠ
zhen ĠxiĠ
fan ĠliĠ
mo ĠjiĠ
91 ĠnianĠ
ĠshiĠ xiangĠgang
ĠyiĠ quĠ
siĠ duoĠ
zhuĠ ce
ĠqiĠ wangĠ
huiĠ yinĠ
luĠ junĠdiĠ
nanĠ anĠ
laĠ laĠ
ĠdanĠ taĠdeĠ
ĠshiĠyiĠ yue
niĠ ri
ĠzhuĠ dongĠ
ĠjuĠ chengĠ
kongĠ queĠ
ĠyuanĠ chaoĠ
tuoĠ zhanĠ
ĠdangĠ juĠ
Ġfei ĠerĠ
erĠheĠ panĠ
ĠhouĠlai ĠyouĠ
D CĠ
m b
Ġ 1952
Ġ 1974
ĠĠĠ 1996ĠnianĠ
qu ĠbuĠ
mu ĠdaĠ
qiu ĠzhiĠ
zui ĠnianĠqingĠdeĠ
xuan ĠzhiĠ
chong ĠwuĠ
huang ĠgongĠ
ĠshiĠ jinĠ
ĠyouĠ huaĠ
gongĠ yuan
ĠqiĠ xianĠ
tiĠ cao
huoĠ dongĠshiĠ
ĠkeĠ luĠ
wanĠ baoĠ
miĠ laĠ
boĠ dongĠ
cheĠ tiĠ
guĠ daoĠ
baĠ mingĠ
ĠbeiĠ mianĠ
ĠzheĠ jiuĠshiĠ
ĠyinĠ du
ĠyiĠjiĠ youĠ
2Ġ xianĠdeĠ
shuangĠ bianĠ
ĠyinĠweiĠ zaiĠ
ĠfeiĠ zhouĠ
ĠĠĠqiĠ yuanĠ
ĠĠĠP re
ĠliĠkaiĠ leĠ
ĠyiĠliĠ fangĠmiĠ
yinĠdiĠ anĠrenĠ
shuangĠdaĠ guanĠjunĠ
ĠgaiĠshengĠfenĠweiĠfaĠguoĠbeiĠbuĠ neiĠluĠshengĠfenĠ
D A
N HK
Ġ u
Ġ jiao
Ġ tĠĠĠ
Ġ yuanĠyuĠ
Ġ 1911ĠnianĠ
ĠĠĠ 1998ĠnianĠ
ĠĠĠ biĠyeĠyuĠ
ren ĠyiĠqiĠ
bu ĠweiĠyuanĠ
lan ĠzhiĠ
chen ĠzhiĠ
hong ĠdeĠ
âĢ ²
28 0
teng ĠbaoĠ
diĠ kangĠ
shengĠ mingĠdeĠ
xianĠ gongĠsiĠ
ziĠ youĠdeĠ
ĠxiĠ yaĠdeĠ
juĠ juĠ
zhengĠ shouĠ
dongĠ ciĠ
baoĠ liu
yeĠ zhuĠ
jiangĠ ciĠ
wangĠ zhanĠdeĠ
feiĠ xianĠ
zeĠ biaoĠshiĠ
eĠ moĠ
renĠweiĠ taĠ
ranĠ shao
ĠjiuĠ xiangĠ
Ġa ĠfuĠ
gongĠchanĠ dangĠdeĠ
Ġbei ĠyuĠweiĠ
wenĠyiĠ fuĠ
xinĠjiĠ neiĠyaĠ
ĠjiĠnian ĠbeiĠ
aiĠshaĠ niĠyaĠ
B N
Ġ gong
Ġ moĠshiĠ
Ġ cĠ
ĠĠĠ minĠ
xing ĠshiĠjianĠ
jin ĠnianĠlaiĠ
ju ĠheĠwuĠ
hua ĠqiĠ
huo ĠheĠ
she ĠshiĠdeĠ
hai ĠbuĠ
tu sĠ
gang ĠjinĠ
tiao ĠheĠ
kuo ĠdeĠ
hang ĠjianĠ
hong ĠweiĠ
lao ĠshuĠ
xiong ĠshouĠ
AT Ġ
xingĠ jingĠ
jianĠ diĠ
shengĠ daĠ
beiĠ xuanĠweiĠ
zhengĠ xianĠ
dongĠ yongĠ
fangĠ huoĠ
guanĠ xinĠ
shenĠ zhenĠshiĠ
qiuĠ lingĠ
xuanĠ wuĠ
maĠ shuĠ
Ġdan ĠjiĠ
meiĠyouĠ renĠ
maiĠ aĠmiĠ
ĠbiĠ jiaoĠ
suoĠyouĠ renĠ
zuĠqiuĠ huiĠ
Ġai ĠsiĠ
juanĠ kuanĠ
lingĠshiĠ guanĠ
ĠdeĠzhuĠ tiĠ
shengĠhuo ĠyuĠ
ĠĠĠjuĠqingĠ jianĠjieĠ
ĠlianĠheĠ taiĠfengĠjingĠbao
ĠliĠgongĠ daĠxueĠ
Ġ 1936
Ġ 1951
Ġ luoĠdeĠ
Ġ quanĠshiĠ
ti ĠerĠ
hua ĠguoĠ
lai ĠliĠ
duo ĠzhiĠ
mo ĠyuĠ
xiu ĠxingĠ
shuang ĠrenĠ
chun ĠtianĠ
juan ĠruĠ
ga ĠerĠ
ys Ġ
ĠliĠ baĠnen
jianĠ zhangĠ
ĠqiĠ erĠ
jingĠ wuĠ
xinĠ baoĠ
luĠ mianĠ
qianĠ fuĠ
bingĠ fei
xiaĠ xianĠ
ĠkeĠ zuoĠweiĠ
xuĠ zuoĠ
dengĠ chuĠ
quanĠ meiĠ
suĠ song
ĠdanĠ queĠ
niĠ zhuanĠ
Ġbing ĠjiĠ
erĠshiĠ siĠnianĠ
ĠluĠ xianĠ
diĠerĠ ciĠshiĠjieĠdaĠzhanĠ
ĠĠĠbenĠ jieĠ
ĠweiĠyuĠgaiĠguoĠ xiĠbeiĠbuĠ
nengĠgou ĠzaiĠ
ĠĠĠ tiĠ
zhi ĠshiĠshiĠ
zuo ĠxiĠ
jun ĠshiĠjiĠ
ping ĠdiĠ
ni ĠjiaĠ
hao ĠkeĠ
nei ĠkeĠ
cai ĠheĠ
ran ĠyouĠ
qiang ĠheĠ
sa u
kang ĠfuĠ
jieĠ erĠ
jieĠ jianĠ
chengĠ zan
beiĠ jiaoĠ
ziĠ tiĠ
shouĠ keĠ
yanĠ zhuĠ
fenĠ miĠ
taiĠ fuĠ
pingĠ jun
muĠ shanĠ
ĠfuĠ nvĠ
jiuĠ xiangĠ
bianĠ geĠ
caiĠ kaiĠshiĠ
diĠyiĠ qiĠ
poĠ lieĠ
Ġdang ĠtaĠ
Ġci ĠjiĠ
ĠweiĠdiĠ qiĠ
ĠjiĠzheĠ huiĠ
sheĠhuiĠzhuĠyiĠ gongĠheĠguoĠ
Ġzhong ĠnianĠ
ĠgeĠlanĠ teĠ
4 ĠzhiĠ
Ġ Gi
Ġ fuĠyuĠ
Ġ shunĠ
xing ĠrenĠwuĠ
ti ĠdeĠshiĠ
tong ĠzaiĠ
ju ĠqiĠ
dui ĠxiĠ
bing ĠzhiĠyuĠ
xia ĠbuĠ
pi ĠziĠ
suo ĠbuĠ
gui ĠzhiĠ
lun ĠzheĠ
ka ĠdiĠ
gen ĠzhuĠ
sun ĠhuiĠ
sun ĠzhongĠshanĠ
cuo ĠdeĠ
rd Ġ
qiĠ taĠdeĠ
daĠ jiangĠjunĠ
yuanĠ su
jiaĠ meng
jiaĠ binĠ
shengĠ siĠ
ziĠ wo
juĠ tuanĠ
leĠ fuĠ
huaĠ huiĠ
tongĠ qingĠ
ĠdaĠ mingĠ
wenĠ tiĠshiĠ
liangĠ juĠ
meiĠ guoĠjiĠ
lingĠ zhuĠ
guĠ jianĠzhuĠ
ĠdeĠyiĠ chuĠ
fengĠ jianĠ
shuiĠ xiaĠ
lvĠ zhangĠ
ĠyouĠyuĠ qiĠ
ĠyanĠ chuĠ
miaoĠ zhun
haĠ teĠ
diĠerĠ baiĠ
jinĠbiaoĠ sai
tongĠchangĠ huiĠ
ĠtongĠnianĠ wuĠyueĠ
ĠweiĠyuĠfaĠguoĠ boĠgenĠdiĠ
zhengĠquanĠ jiaoĠyiĠsuoĠ
xuĠkeĠ zhengĠ
maĠlaĠ yaĠ
ĠxingĠzheng ĠzhongĠxinĠweiĠ
canĠjiĠrenĠ aoĠlinĠpiĠkeĠyunĠdongĠhuiĠ
ĠguoĠanĠ faĠ
E X
M O
k erĠ
Ġ 1967
Ġ mouĠ
Ġ qiĠjiĠ
en ĠĠĠ
ĠĠĠ zuiĠzhongĠ
ĠĠĠ neiĠrongĠ
wei ĠshiĠyongĠ
zheng ĠerĠ
du ĠliĠshiĠ
mu ĠkeĠ
jiu ĠweiĠ
ben ĠyiĠ
chuan ĠyiĠ
10 1Ġ
xun ĠzhiĠ
14 ĠgeĠ
BL AC
ture Ġ
ĠshiĠ xinĠ
zhiĠ wuĠ
ĠweiĠ junĠ
youĠ yongĠ
buĠ erĠ
jieĠ mengĠ
riĠ shengĠ
qianĠ beiĠ
xiaoĠ xinĠ
biĠ shangĠ
huĠ hangĠ
maĠ muĠ
jueĠ ce
piĠ aiĠerĠ
taoĠ yuanĠshiĠ
ĠwanĠ dunĠ
ĠdeĠzhiĠ jieĠ
ĠmuĠ fuĠ
renĠminĠ biĠ
juĠbanĠ leĠ
suanĠjianĠ ceĠ
Ġ 1914ĠnianĠ
ĠĠĠ woĠ
ĠĠĠ chengĠshiĠ
qu a
qu ĠerĠ
ci ĠguoĠgongĠ
huo ĠsiĠ
duo ĠqiĠ
lie ĠfuĠ
lun ĠzhiĠ
10 ĠmingĠ
can ĠzhongĠ
tui ĠwuĠ
niao ĠdeĠ
weiĠ lianĠ
zhiĠ youĠ
ĠyouĠ guanĠdeĠ
ĠzaiĠ shangĠhaiĠ
ĠrenĠ youĠ
ĠheĠ feiĠ
xingĠ yunĠ
yuanĠ shuaiĠ
gongĠ jinĠ
fuĠ ziĠ
jieĠ naĠ
chengĠ mingĠ
dongĠ daoĠ
jingĠ ying
xueĠ xi
yeĠ beiĠchengĠweiĠ
xiaoĠ ziĠ
xiaoĠ dongĠ
xiaĠ shu
gaiĠ jianĠweiĠ
zhouĠ enĠlaiĠ
jiuĠ chuĠ
teĠ seĠdeĠ
zuiĠ fanĠ
guĠ dai
guĠ juĠ
biaoĠ qianĠ
ĠgongĠ jianĠ
ĠgongĠ juĠ
diĠyiĠ lunĠ
diĠyiĠ ciĠshiĠjieĠdaĠ
Ġtong ĠshiĠyiĠ
pianĠ changĠ
piĠ linĠ
chuangĠ ruĠ
chuangĠ kouĠ
ĠtaiĠ ziĠ
ĠmuĠ diĠshiĠ
saĠ leiĠ
ĠzongĠ buĠweiĠyuĠ
ĠĠĠdeĠ guoĠ
ĠhanĠ shuĠ
Ġjin ĠnianĠlaiĠ
shengĠchanĠ zongĠzhiĠ
ĠwaiĠ jiaoĠ
siĠliĠ lanĠkaĠ
yinĠfaĠ leĠ
shaĠsiĠ leĠ
junĠzhongĠ jiangĠ
Ġ2025 ĠnianĠ
Linu x
yeĠluĠsaĠ leng
f tĠ
Ġ geĠzhongĠ
Ġ shengĠliĠ
Ġ mouĠxieĠ
bu r
ke ĠyiĠjiĠ
mei ĠweiĠ
zhang ĠerĠ
nan ĠdiĠ
wang ĠzhongĠ
dang ĠnianĠdeĠ
cun ĠshiĠ
pian ĠliĠ
qiao ĠshiĠ
lao ĠsiĠ
chou ĠjianĠ
AM Ġ
ĠshiĠ zhengĠfuĠ
ĠyuĠ 2010
ĠzaiĠ yeĠ
ĠzaiĠ zheĠliĠ
beiĠ yongĠ
juĠ minĠdeĠ
fangĠ keĠ
xinĠ ganĠxianĠ
xiaoĠ sanĠ
zhangĠ zheĠ
ĠkeĠ huĠ
ĠxingĠ rongĠ
guĠ wen
kaiĠ huoĠ
fengĠ boĠ
sanĠ zuoĠ
sanĠ fenĠzhiĠyiĠ
waiĠ yuanĠ
ĠdanĠ daoĠ
ĠjinĠ laiĠ
ĠgaiĠ xianĠ
ĠgaiĠ juĠ
ĠciĠ hou
ĠhaiĠ yangĠ
youĠyiĠ xiaĠ
jueĠdingĠ jiangĠ
ĠyongĠ zhengĠ
ĠĠĠdiĠ 0
renĠminĠ faĠyuanĠ
ĠyiĠsiĠ lan
wenĠxueĠ jiangĠ
erĠjiĠ siĠ
Ġsi lverĠ
ĠsaiĠ erĠweiĠ
ĠnianĠchuĠ shengĠyuĠ
zhengĠxie ĠfuĠzhuĠxiĠ
ĠĠĠxiangĠgang ĠshiĠjianĠ
ĠmeiĠnianĠpingĠjunĠ jiangĠyuĠliangĠ
4 ĠjiaĠ
h y
i r
Ġ tai
Ġ chuĠshiĠ
an ĠqiĠ
ĠĠĠ tiĠyuĠ
ĠĠĠ meiĠtiĠ
ĠĠĠ zongĠjiaoĠ
zhe ĠqiĠ
dang ĠqiĠ
te ĠzhongĠ
ba ĠliĠdeĠ
gui ĠweiĠ
gui ĠfuĠ
lun ĠdiĠ
duan ĠyouĠ
gou ĠyuĠ
sha ĠzhiĠ
hen ĠhaoĠ
ĠshiĠ mingĠ
ĠyiĠ qie
ĠrenĠ wenĠ
gongĠ cheĠ
geĠ renĠdeĠ
wuĠ xiangĠ
beiĠ chengĠzuoĠ
jinĠ qianĠ
ĠriĠ zhiĠshiĠqiĠ
jiaoĠ jieĠchuĠ
ĠkeĠ keĠ
shenĠ xingĠ
ĠfuĠ ziĠ
minĠ shengĠ
jiuĠ huĠ
dengĠ shanĠ
zuiĠ haoĠ
zuiĠ xiaoĠdeĠ
moĠ ni
moĠ zuĠ
ĠmingĠ mingĠweiĠ
ĠdeĠdiĠ dianĠ
ĠdeĠzhiĠ liuĠ
ĠanĠ quanĠ
Ġa ĠsiĠ
ĠãĤ ¢
ĠhuoĠdeĠ diĠ
ĠnianĠdai ĠqiĠ
qianĠshuĠ leĠ
xieĠshiĠ houĠ
0 5
d d
Î ²Ġ
ï ¸
Ġ dongĠshiĠ
Ġ buĠzhiĠ
Ġ shangĠweiĠ
ĠĠĠ 1990
ta l
chang ĠshiĠyongĠ
hai ĠliĠ
zhou ĠyouĠ
ping ĠriĠ
ling ĠtaĠ
ben ĠheĠ
ben ĠxingĠ
gao ĠrenĠ
zhao ĠxiangĠ
tan ĠdaoĠ
tui ĠweiĠ
15 ĠgeĠ
heng ĠliangĠ
50 ĠrenĠ
nu ĠerĠ
ĠyuĠ tong
zhongĠ chengĠ
ĠyouĠ jianĠ
ĠyouĠ yuĠshiĠ
geĠ luĠ
faĠ xueĠyuanĠ
dongĠ jieĠ
jingĠ zhuĠ
yingĠ ziĠ
xiaoĠ shengĠ
danĠ niĠ
caiĠ yuanĠ
ĠgongĠ chengĠshiĠ
ĠziĠ xunĠ
ĠxiangĠ yaoĠ
hanĠ shuĠdeĠ
ĠyuanĠ yinĠshiĠ
Ġer ĠnianĠ
ĠtongĠ xingĠ
ĠbiĠ mianĠ
baoĠhuĠ quĠ
Ġba ĠkeĠ
ĠaiĠ lunĠ
muĠsiĠ lin
Ġda ĠzhongĠ
kunĠ raoĠ
jianĠli ĠyiĠgeĠ
L ED
n erĠ
Ġ 1961
Ġ shangĠdeĠ
Ġ keĠjiĠ
Ġ huaĠshiĠ
Ġ juĠzhongĠ
Ġ junĠjiĠ
ĠĠĠ 1950
hai ĠerĠ
wang ĠweiĠjiĠ
shen ĠzaiĠ
ma sĠĠĠ
tian ĠliĠ
ze ĠzhiĠ
zhui ĠhuiĠ
II I
SS Ġ
buĠ daĠ
daĠ guiĠmo
jianĠ qingĠ
ĠbuĠ renĠ
xianĠ suoĠ
huiĠ duiĠ
zhanĠ huoĠ
zuoĠ luoĠ
jiaoĠ lvĠ
dianĠ fuĠ
zhangĠ laoĠ
haiĠ wai
teĠ xuĠ
suoĠ feiĠ
suoĠ niĠ
baĠ wangĠ
ĠbingĠ congĠ
leiĠ teĠ
ĠjuĠ xingĠdeĠ
ĠwuĠ taiĠ
manĠ enĠ
ouĠ yangĠ
ĠtaĠmenĠ renĠweiĠ
ĠnianĠ2ĠyueĠ 1ĠriĠ
pingĠfangĠ gongĠliĠ
huaiĠ yunĠ
ĠnaĠ meĠ
ĠkeĠyiĠ zaiĠ
luĠwa ĠerĠheĠ
faĠerĠ ciĠ
a ĠgeĠ
Ġ miaoĠshuĠ
Ġ cuiĠ
ong Ġ
ĠĠĠ idĠ
cheng ĠĠĠ
shu ĠĠĠ
jie ĠshiĠdeĠ
tong ĠliĠ
shang ĠzhongĠ
dong ĠrenĠ
fen ĠyiĠ
hai ĠjiĠ
jiu ĠshiĠjiĠ
lian ĠyuĠ
luo ĠzhiĠ
min ĠjiĠ
ting ĠfuĠ
duan ĠyiĠ
qiang ĠyuĠ
gen ĠdeĠ
ĠshiĠ xiangĠ
yuĠ zhiĠ
yuĠ qiĠ
ĠliĠ xiĠ
gongĠ yeĠbuĠ
jianĠ wuĠ
jieĠ yeĠ
yanĠ changĠdeĠ
jiaoĠ huoĠ
fenĠ gongĠsiĠ
gaiĠ jieĠ
meiĠ youĠshiĠ
guĠ muĠ
huĠ waiĠ
zongĠ jueĠsaiĠ
ĠdeĠyiĠ suoĠ
ĠdanĠ ciĠ
chanĠ shuĠ
aoĠ huiĠ
qiangĠ lie
liaoĠ ningĠ
ĠmuĠ hanĠmoĠdeĠ
zuĠqiuĠ jinĠbiaoĠsaiĠ
zheĠyiĠ dianĠ
ruoĠ gan
yaĠzhouĠ dianĠshiĠ
zongĠheĠ xingĠ
ruĠxiaĠ biaoĠ
lunĠdun ĠdeĠ
wuĠtaiĠ juĠ
zhanĠweiĠyuĠ zhongĠhuaĠrenĠminĠgongĠheĠguoĠ
keĠxue ĠjiĠshuĠ
meiĠguoĠzhiĠ bangĠdaĠ
hongĠshiĠziĠ huiĠ
aoĠlinĠpiĠ ke
Ġ biaoĠmingĠ
ai ĠkeĠ
di ĠweiĠyuĠ
ya ĠdaĠ
min ĠyuĠ
yao ĠheĠ
ting ĠjianĠ
cha el
cha ĠbuĠ
can ĠyinĠ
ha ĠbuĠsiĠbaoĠ
16 ĠrenĠ
xiong ĠxingĠ
lou ĠdongĠ
pa ce
chou ĠxiangĠ
68 Ġ
2026 ĠnianĠ1ĠyueĠ
Ġnian ĠshiĠqiĠ
chengĠ yuan
shengĠ gaoĠ
beiĠ xuanĠ
beiĠ pingĠweiĠ
faĠ bingĠ
chuĠ tuĠ
shangĠ bingĠ
xueĠ jianĠ
zuoĠ fuĠ
jiangĠ taĠmenĠ
muĠ yangĠ
zhenĠ xiaĠxiaĠyiĠxiaĠdiĠquĠ
haoĠ huaĠ
ĠbeiĠ haiĠdaoĠ
taoĠ zouĠ
tuoĠ miĠerĠ
zuiĠzhongĠ zaiĠ
ĠboĠ teĠ
ĠnianĠ8ĠyueĠ 31ĠriĠ
ĠdiĠyiĠ geĠ
zuoĠpin ĠyouĠ
jiangĠqiĠ shengĠgeĠweiĠ
Ġ2007ĠnianĠ renĠkouĠ
muĠqin ĠdeĠ
kaiĠshiĠshiĠ yongĠ
ĠsiĠtaĠ fuĠ
aĠerĠbaĠ niĠyaĠ
A ĠjiĠ
Ġ 1922ĠnianĠ
he ĠliĠdeĠ
chang ĠnianĠ
bai ĠbeiĠ
can ĠjiĠ
pian ĠjianĠ
wa ĠkeĠ
14 ĠrenĠ
chou ĠdeĠ
ĠzhiĠ liaoĠ
ĠyuĠ 2011
gongĠ gong
gongĠ jianĠ
keĠ fenĠweiĠ
chengĠ jianĠ
zhuĠ baoĠ
xiangĠ jianĠ
beiĠ duanĠ
huiĠ tanĠ
jinĠ leĠ
huaĠ gangĠ
tongĠ guanĠ
jiaoĠ huan
jiaoĠ paiĠ
jiaoĠ tongĠshiĠ
yongĠ pinĠ
lianĠ shengĠ
zhenĠ suoĠ
lingĠ junĠ
zuiĠ changĠjianĠdeĠ
shanĠ cunĠ
saiĠ daoĠ
ĠjuĠ zhuĠzaiĠ
ĠdeĠshiĠ bingĠ
zhuanĠ bianĠweiĠ
ĠdeĠzhiĠ liangĠ
zhunĠ zeĠ
Ġzong ĠbuĠ
guanĠfangĠ wangĠzhanĠ
ĠzhiĠjinĠ reng
xiaoĠshuo ĠjiaĠ
7 ĠĠĠ
Ġ ð
Ġ 1971
Ġ fanĠweiĠ
Ġ shangĠyouĠ
ai ĠxingĠ
ĠĠĠ xueĠshuĠ
ming ĠxiĠ
mei ĠliĠdeĠ
nan ĠjiaĠ
zong ĠjiĠweiĠ
tiao ĠxianĠ
kuo ĠyeĠ
liao ĠdongĠ
ha ĠliĠfaĠ
piao ĠshuĠ
ĠdeĠ luoĠ
ĠyiĠ guanĠ
ĠyiĠ liaoĠ
ĠzhiĠ shengĠ
ĠyuĠ huiĠ
ĠliĠ muĠ
buĠ jiuĠ
ĠyouĠ qingĠ
jinĠ chuĠ
taĠ suoĠ
yingĠ muĠ
yingĠ lianĠbangĠ
jiaoĠ yeĠ
xiaoĠ huiĠ
ruĠ duĠ
ĠfuĠ huoĠ
duoĠ shaoĠ
ĠbingĠ buĠshiĠ
shuiĠ guanĠ
qiangĠ guanĠ
ĠshiĠjiĠ qiĠ
ĠmingĠ xianĠ
ĠqianĠ houĠ
kanĠ laiĠ
zuĠqiuĠ chaoĠjiĠlianĠsaiĠ
kuanĠ duĠ
ĠĠĠS ho
Ġai ĠjiĠ
ĠriĠzaiĠ meiĠguoĠ
Ġduo ĠerĠ
yingĠjiĠ liĠ
ĠbeiĠqiĠ ruanĠtiaoĠ
Ġ2005ĠnianĠ renĠkouĠ
zhuĠlongĠ cao
ĠfeiĠlvĠ bin
ĠtunĠqiĠ ruanĠtiaoĠ
ĠĠĠlingĠyiĠ fangĠmianĠ
O ricon
Ġ yĠ
ai ĠheĠhuaĠ
sheng ĠguoĠ
jin ĠrenĠ
20 ĠwanĠ
liang ĠyueĠ
bo ĠliĠsiĠ
han ĠheĠ
liao ĠshiĠ
kui ĠbeiĠkeĠ
ter tain
IV Ġ
diĠ qiu
ĠyouĠ erĠ
ĠzaiĠ dangĠdiĠ
xingĠ xinĠguanĠfeiĠyanĠqueĠzhenĠbingĠliĠ
yuanĠ xiĠ
wuĠ xiĠ
ĠbuĠ jiaĠ
ĠbuĠ buĠzhangĠ
chengĠ shouĠ
ĠqiĠ yue
yanĠ moĠ
zhanĠ zhengĠshiĠqiĠ
ĠdaĠ xiĠ
ĠriĠ changĠ
banĠ faĠdeĠ
liangĠ tianĠ
lingĠ quĠ
suoĠ duanĠ
xuanĠ zongĠ
kaiĠ piĠ
chuanĠ mei
ĠzheĠ geĠmingĠ
zeĠ chengĠweiĠ
ĠzhuĠ mingĠdeĠ
1Ġ riĠzhiĠ
gengĠ haoĠ
xiangĠgang ĠdaĠxueĠ
nvĠziĠ tuanĠtiĠ
ĠyaoĠ qingĠ
Ġque ĠbaoĠ
ĠĠĠR Ġ
xiaoĠshuo ĠdeĠ
ĠdongĠnanĠ jieĠ
ĠshiĠxiĠbanĠyaĠ kaĠsiĠdiĠliĠyaĠ
ĠweiĠyuĠfaĠguoĠao ĠfuĠnieĠ
aoĠsiĠka ĠjinĠ
Ġ Par
da Ġli
ma ĠyuĠ
shan ĠrenĠ
su ĠjiaĠ
huang ĠweiĠ
shuang ĠbaoĠ
zha ĠdeĠ
50 ĠnianĠdaiĠ
gua ĠpaiĠ
renĠ zaiĠ
ĠzaiĠ juĠ
jieĠ diĠ
fangĠ faĠshiĠ
baoĠ cun
baoĠ yuanĠ
zuiĠ zhongĠyuĠ
dingĠ danĠ
tuĠ zhuĠ
ĠziĠ geĠ
linĠ jieĠ
tingĠ gaiĠsheĠ
ĠzheĠ yang
gangĠ aoĠ
shuiĠ bianĠ
xunĠ huan
zhuanĠ dongĠ
liĠ faĠ
ganĠ lanĠ
ganĠ zaoĠ
tanĠ ceĠqiĠ
ĠqianĠ zheĠ
reĠ qingĠ
ĠwangĠ wangĠ
ĠzhiĠjianĠdeĠ guanĠxiĠ
touĠziĠ zheĠ
ĠxiĠbanĠ ya
8 ĠĠĠ
O K
S C
Ġ Ä
Ġ houĠyiĠ
Ġ lunĠdunĠ
Ġ yaĠyiĠ
ĠĠĠ 1991
wu ĠyouĠqiĠ
jie ĠjiĠluĠ
ye ĠshiĠyiĠ
lu sĠ
zhang ĠzhiĠwuĠ
ya ĠliĠyuĠ
shan ĠweiĠ
qin ĠyuanĠ
huang ĠqiĠ
rong ĠjieĠ
MS Ġ
ĠshiĠ yue
weiĠ xingĠ
ĠliĠ faĠyuanĠ
ĠyouĠ xiangĠ
jianĠ xingĠ
ĠbuĠ fuĠ
chengĠ xingĠ
zhuĠ renĠweiĠyuanĠ
ĠerĠ baiĠ
tongĠ paiĠdeĠzhuĠ
luĠ guiĠ
qianĠ huĠ
junĠ yunĠ
gaiĠ kuangĠ
biĠ xuĠzaiĠ
gaoĠ qingĠ
dengĠ duoĠ
dengĠ jiĠdeĠ
suoĠ chanĠshengĠdeĠ
liuĠ xiaĠdeĠ
maĠ yeĠ
baĠ dengĠ
menĠ xiaĠ
menĠ kouĠ
ĠbeiĠ songĠ
guiĠ ruĠ
ĠzheĠ shouĠgeĠ
manĠ yanĠ
Ġbing ĠdeĠ
ĠruĠ xiaĠ
kuaiĠ leĠ
yanĠjiu ĠheĠ
ĠshiĠyiĠweiĠ meiĠguoĠ
a ĠyiĠ
Ġ Ste
Ġ shengĠweiĠ
Ġ shuĠzhongĠ
zhong ĠyiĠweiĠ
20 ĠrenĠ
jiang ĠdeĠzhuĠ
dang ĠshiĠyiĠ
ping ĠyiĠ
pi ĠzhiĠ
men ĠyuĠ
tu ĠyiĠ
feng ĠdiĠ
pai ĠbingĠ
ting ĠgongĠ
kong ĠheĠ
tan ĠjiĠ
qiĠ suĠ
ĠyouĠ gongĠ
daĠ suan
jiaĠ zu
ĠqiĠ qiuĠ
dongĠ xiangĠ
fenĠ liangĠ
junĠ faĠ
ĠjiaĠ longĠshengĠ
qiuĠ tianĠ
teĠ dianĠshiĠ
dengĠ huiĠ
niĠ guĠ
guiĠ huanĠ
puĠ dun
ĠxianĠ fengĠ
ceĠ bianĠ
ĠshiĠjiĠ jiĠ
youĠyiĠ tiaoĠ
kangĠ naiĠerĠ
ĠxiaoĠ shuoĠ
ĠĠĠyiĠ jiĠ
wenĠtiĠ shangĠ
youĠshiĠ langĠ
zhuĠyao ĠweiĠ
juanĠ zeng
Ġbei ĠshiĠweiĠ
boĠwuĠ guan
ĠL u
ĠfenĠbuĠyuĠ zhongĠguoĠdaĠluĠdeĠ
yangĠhuaĠ tanĠ
ĠcheĠzhanĠ bianĠhaoĠweiĠ
ĠjiĠtuan ĠdeĠ
jueĠding ĠzaiĠ
e ĠzhiĠ
Ġ shengĠjiĠ
Ġ kĠ
yi ĠshiĠweiĠ
ĠĠĠ He
zhong ĠdeĠshiĠ
you ĠzhiĠyuanĠ
hui ĠĠĠ
hou ĠdiĠ
jun ĠsiĠlingĠ
jiu ĠheĠ
yun ĠzhiĠ
pu ĠheĠ
chao ĠzhongĠ
man ĠshiĠ
pian ĠbeiĠ
zhua ĠzhuĠ
buĠ chongĠ
ĠzhongĠ heĠ
fuĠ feiĠ
zhuĠ sheĠ
ĠerĠ duiĠ
ĠxiĠ niĠ
junĠ duiĠzaiĠ
dianĠ yingĠyuĠ
duĠ changĠ
ĠjiaĠ zhuangĠ
gaiĠ lvĠ
miĠ ha
jiuĠ zhuĠ
benĠ ciĠ
zongĠ xiangĠ
ĠjinĠ junĠ
lanĠ jingĠ
hanĠ jianĠdeĠ
zeĠ lianĠsiĠjiĠ
duanĠ lieĠ
congĠ xiaoĠ
shaĠ qingĠ
tangĠ shuĠ
ĠruĠ tongĠ
ĠguangĠ boĠ
Ġbei ĠyuĠ
ĠĠĠB ro
dongĠhuaĠ dianĠyingĠ
ĠxunĠ huiĠ
ĠrenĠkou ĠyueĠ
Ġwu ĠyiĠ
xianĠdeĠdiĠ tieĠcheĠzhanĠ
minĠzhuĠzhuĠyiĠrenĠminĠ gongĠheĠguoĠ
5 ĠliĠ
C H
Ġ biao
Ġ kun
Ġ 1977
Ġ jiaoĠshiĠ
li ĠweiĠ
guo ĠdeĠyiĠgeĠ
du ĠdiĠ
dian ĠshiĠdeĠ
bo ĠtaĠ
kai ĠliĠ
xiu ĠqiĠ
man ĠxingĠ
bang ĠwanĠ
wa ĠshengĠ
ĠyiĠ xinĠ
ĠrenĠ gongĠ
jieĠ boĠ
beiĠ houĠ
shouĠ jianĠ
shouĠ gaoĠ
shangĠ xueĠ
dongĠ jing
yanĠ changĠzhiĠ
ĠdaĠ xueĠshiĠ
luĠ xianĠdeĠ
qianĠ juĠ
qianĠ shenĠweiĠ
taiĠ jianĠ
nanĠ duoĠ
qingĠ danĠ
muĠ caiĠ
liangĠ ge
shenĠ zhen
shenĠ xianĠ
tianĠ ciĠ
yunĠ xingĠdeĠ
leiĠ su
baiĠ zhanĠting
ĠzheĠ ge
ĠciĠ shuĠ
ĠdongĠ beiĠyuĠ
huangĠ jinĠshiĠ
ĠmeiĠ guoĠdeĠ
ĠdeĠzhiĠ mingĠ
jingĠjiĠ faĠzhanĠ
erĠshiĠ wuĠ
ĠshiĠweiĠyuĠ riĠbenĠ
yinĠduĠ yangĠ
boĠwuĠ guanĠdeĠ
Ġduo ĠnianĠ
ĠdeĠzhiĠchiĠ lvĠ
tongĠweiĠ suĠ
tianĠzhuĠ jiao
je ct
ĠgaiĠcunĠ mianĠjiĠ
moĠtuoĠ cheĠ
4 ĠwanĠ
Q Ġ
Ġ or
Ġ Mu
Ġ Go
Ġ rĠ
ĠĠĠ yueĠtaiĠ
ĠĠĠ 1993ĠnianĠ
shang ĠdeĠyiĠ
lai ĠheĠ
shen ĠdiĠ
gou ĠsiĠ
huang ĠchengĠ
25 00
pa ĠkeĠ
shun ĠzhiĠ
teng ĠtongĠ
ĠjiĠ xiĠ
fuĠ yongĠ
shengĠ keĠ
faĠ chuĠdeĠ
ĠxiĠ mengĠ
shangĠ mianĠ
xueĠ shuoĠ
fangĠ sheĠxingĠ
duiĠ zheĠ
wenĠ keĠ
dangĠ wanĠ
ĠbeiĠ renĠweiĠ
puĠ linĠsiĠ
ĠxiangĠ duiĠyuĠ
ĠzhuĠ yaoĠdeĠ
cengĠ duoĠciĠ
diĠyiĠ zhangĠ
ĠciĠ quĠ
ĠdeĠjiĠ yinĠ
ĠrenĠminĠ gongĠheĠguoĠ
liĠshiĠ shangĠ
ĠluĠ waĠerĠ
ĠbaĠ laĠ
ĠleiĠ xingĠweiĠ
Ġzong ĠjiĠ
lingĠdaoĠ zheĠ
shengĠrenĠ daĠ
boĠlanĠ huiĠ
2ĠhaoĠ xianĠ
geĠming ĠweiĠyuanĠhuiĠ
zuĠqiuĠjiaĠjiĠ lianĠsaiĠ
O P
Ġ kou
Ġ ar
Ġ dengĠrenĠ
Ġ minĠzhongĠ
Ġ xiĠliĠ
Ġ 1925ĠnianĠ
ji ĠshiĠyiĠ
en i
ĠĠĠ 1996
ĠĠĠ zhaoĠ
wei ĠĠĠformulaĠ
xing ĠweiĠyuanĠhuiĠ
wu ĠrenĠyuanĠ
bei ĠyuĠweiĠ
shang ĠdeĠyiĠgeĠ
bian ĠheĠ
lv ĠzhiĠ
cong ĠyiĠ
qin ĠqiĠ
re dĠĠĠ
sa ĠmuĠ
zang ĠzaiĠ
chai ĠjieĠ
do Ġ
zhiĠ duĠ
ĠzhiĠ boĠ
Ġli ĠshiĠjianĠ
xingĠ xingĠweiĠ
yuanĠ yangĠ
zhuĠ tiĠdeĠ
leĠ xinĠ
danĠ bai
ĠfuĠ feiĠ
wanĠ quanĠbuĠ
boĠ chu
boĠ enĠ
tianĠ ziĠ
yunĠ zhuanĠ
suĠ huaĠ
maĠ saiĠ
ĠbingĠ yinĠ
caiĠ huaĠ
guiĠ xiangĠ
ĠzhuĠ jiaoĠ
ĠyiĠjiĠ zhongĠ
gengĠ rongĠyiĠ
qieĠ duanĠ
ĠdengĠ xiaoĠ
ĠnianĠ5ĠyueĠ 20ĠriĠ
shuangĠ cengĠ
ĠmaĠ enĠshengĠ
tiĠgongĠ fuĠwuĠ
minĠzhuĠ gongĠheĠguoĠ
ĠĠĠC Ġ
youĠjiĠ zaiĠ
ĠcaiĠ nengĠ
Ġãĥ ª
ĠĠĠG rou
ĠlanĠ seĠ
Ġdai ĠyouĠ
ĠjiĠbenĠ shangĠ
yangĠheĠ tangĠheĠ
ĠĠĠcanĠkaoĠ wenĠxianĠ
xiĠzhiĠxingĠ guanĠ
c c
Ġ í
Ġ 1964
Ġ Com
Ġ fenĠbuĠ
Ġ zhongĠjiĠ
fang ĠshiĠdeĠ
ru sĠ
hai ĠkeĠ
la ĠbuĠ
ba ĠriĠ
han ĠdanĠ
gan ĠxingĠ
wa ĠziĠshengĠ
qiao ĠheĠ
lang ĠkeĠ
ĠshiĠ liangĠ
ĠyuĠ nanĠ
qiĠ xiĠdiĠ
daĠ mingĠ
erĠ feiĠ
keĠ luoĠdiĠyaĠ
xiangĠ shouĠ
daoĠ fangĠ
huiĠ biĠ
ĠerĠ taĠdeĠ
shouĠ zuoĠ
ĠdaĠ xianĠ
jiaoĠ zhangĠ
fenĠ zhanĠ
ĠxingĠ taiĠ
teĠ youĠdeĠ
biaoĠ shuĠ
fanĠ boĠ
saiĠ jiĠdeĠ
ĠbingĠ wuĠ
neiĠ zhengĠ
baiĠ xueĠ
ĠweiĠyuĠ nanĠ
ĠshiĠjiĠ huaĠ
zhengĠfuĠ junĠ
erĠshiĠ wuĠnianĠ
ĠshiĠzhiĠ youĠ
piaoĠ xuanĠ
faĠshengĠ chongĠtuĠ
ĠsuoĠyiĠ zaiĠ
ĠmengĠ gu
faĠzhan ĠheĠ
Ġ190 3ĠnianĠ
ĠciĠshiĠ xiaĠ
keĠluoĠ laĠduoĠ
ĠshiĠdeĠrenĠ kouĠweiĠ
boĠluoĠdiĠ haiĠ
huiĠru ĠdiĠtuĠ
Ġ shuĠshiĠ
ĠĠĠ to
ĠĠĠ Cha
ĠĠĠ jieĠgouĠ
ĠĠĠ zheĠshiĠ
cheng ĠyueĠ
bi ĠkeĠ
mei ĠsiĠ
gao ĠqiĠ
18 ĠshiĠjiĠ
seng ĠrenĠ
Su per
Ġnian ĠshiĠshiĠ
ĠzhiĠ kongĠ
ĠzhiĠ zuoĠrenĠ
fuĠ lanĠkeĠ
jieĠ jue
beiĠ jianĠ
zhengĠ tongĠ
taĠ chengĠweiĠ
yingĠ pingĠrenĠ
tongĠ junĠ
qianĠ yeĠ
taiĠ ciĠ
xiaoĠ baĠ
danĠ fuĠ
zhouĠ daoĠ
menĠ dianĠ
leiĠ biĠ
guiĠ zeĠdeĠ
ĠgeĠ ciĠ
ĠfaĠ guanĠ
ĠyiĠzhiĠ zhiĠ
zuĠzhiĠ heĠ
taiĠwanĠ shengĠ
ziĠjiĠ weiĠ
diĠerĠ geĠ
Ġye ĠyuĠ
keĠneng ĠyouĠ
ĠĠĠM c
ĠzhiĠyeĠ shengĠyaĠ
teĠbie ĠdeĠ
ĠJ u
jingĠzhengĠ duiĠshouĠ
ĠjieĠkeĠ xunĠ
piĠfuĠ tongĠyiĠ
anĠzhuang ĠzaiĠ
ĠyaĠmeiĠ niĠyaĠ
ĠĠĠ 1995
bi ĠyouĠ
fang ĠshiĠshiĠ
yang ĠguoĠ
shan ĠzhongĠ
che ĠsiĠteĠ
tou ĠchuĠ
pe ci
99 Ġ
ĠweiĠ riĠbenĠ
xiangĠ xiaĠ
tongĠ qinĠ
zuoĠ youĠdeĠ
jiaoĠ sheĠ
haiĠ shuiĠ
banĠ jueĠsaiĠ
ĠxingĠ haoĠ
teĠ wuĠ
yaoĠ qing
yangĠ mingĠ
waiĠ chuĠ
touĠ muĠ
1Ġ ciĠ
zhaoĠ shuĠ
ĠyuanĠ ben
tiaoĠ xuanĠ
tiaoĠ jianĠdeĠ
yueĠ seĠfuĠ
ĠshangĠ yingĠ
leĠyiĠ ciĠ
ĠwenĠ geĠ
ĠwenĠ xueĠ
fanĠweiĠ neiĠdeĠ
nanĠziĠ tuanĠtiĠ
ĠãĤ ¯
chuangĠzuoĠ leĠ
ĠdiĠsanĠ ciĠ
daĠjiĠ lvĠ
ĠzhongĠbuĠ tongĠdeĠ
ĠweiĠyuĠfaĠguoĠ shangĠfaĠlanĠxiĠdaĠquĠ
shouĠluĠ leĠ
luĠjiĠ yaĠ
Ġdong ĠzhiĠ
ĠyiĠnian ĠhouĠ
ĠĠĠ1949 ĠnianĠ
ĠhongĠzha ĠjiĠ
ĠfuĠza ĠdeĠ
4 ĠciĠ
Ġ 1957
Ġ daĠshiĠ
Ġ lvĠyouĠ
ĠĠĠ 1992
ĠĠĠ Ha
huo ĠxiĠ
zhou ĠyiĠhuiĠ
ban ĠguoĠ
jiu ĠriĠ
dang ĠshiĠrenĠ
la ĠxiĠ
hao ĠyueĠ
lan ĠdiĠ
sha ĠdiĠ
st ro
In sta
78 Ġ
ĠjiĠ nanĠ
buĠ jianĠ
buĠ juĠ
daĠ xuanĠzhongĠ
fuĠ jiaoĠshouĠ
zhengĠ baĠ
shangĠ baoĠ
jiangĠ laiĠ
bingĠ chengĠ
qingĠ tingĠ
jiuĠ jinĠ
lingĠ yuanĠ
luoĠ geĠ
liuĠ lang
ĠdanĠ yuanĠ
zhuangĠ shangĠ
chongĠ shenĠ
ĠciĠ xingĠ
zhongĠguoĠ keĠxueĠyuanĠ
ĠnianĠ12ĠyueĠ 30ĠriĠ
ĠshiĠzhiĠ zaiĠ
zhuĠyao ĠyiĠ
ĠnaĠ xieĠ
Ġãģ ®
ĠzhuĠyaoĠ fenĠbuĠyuĠ
yaĠzhouĠ yunĠdongĠhuiĠ
jianĠchaĠ guanĠ
wuĠrenĠ cheĠzhanĠ
saoĠ rao
shengĠdiĠ yaĠgeĠ
canĠjia ĠguoĠ
ĠhuaĠshengĠ dunĠ
nongĠcunĠjuĠminĠ dianĠ
xinĠjiangĠweiĠwuĠerĠ ziĠzhiĠquĠ
guangĠxiĠzhuangĠ zuĠziĠzhiĠquĠ
F L
Ġ fa
Ġ nv
ĠĠĠ saiĠshiĠ
yin ĠxiĠ
zuo ĠliĠ
dan ĠzhiĠ
du ĠsiĠ
jiu ĠguoĠ
bo ĠliĠweiĠ
fan ĠyouĠ
su ĠqiĠ
neng ĠyiĠ
gui ĠguoĠ
pu ĠzaiĠ
chao ĠjianĠ
tiao ĠzhiĠ
re am
15 ĠrenĠ
chou ĠjiĠ
ĠweiĠ yiĠdeĠ
ĠyuĠ guoĠ
qiĠ fuĠ
buĠ mingĠ
ĠheĠ zaiĠ
ĠheĠ changĠ
keĠ xingĠxingĠ
dongĠ anĠ
zuoĠ daoĠ
xinĠ sheĠ
xiaĠ langĠdeĠshengĠ
meiĠ guoĠyuĠ
guĠ lao
shanĠ junĠ
kaiĠ changĠ
ĠbingĠ keĠ
ĠjinĠ shenĠ
tingĠ yuanĠ
huanĠ shangĠ
ĠhouĠ xuĠ
ceĠ mianĠ
ĠshiĠjiĠ shang
chuangĠ huĠ
zhiĠshiĠ fenĠziĠ
henĠ rongĠyiĠ
liĠshiĠ nianĠdaiĠweiĠ
ĠzhiĠyouĠ zaiĠ
keĠneng ĠzaiĠ
ĠzhuĠyao ĠyouĠ
Ġe ĠguoĠ
keĠsiĠ luoĠfaĠkeĠ
baoĠliuĠ leĠ
anĠquan ĠxingĠ
ĠwanĠrenĠ ciĠ
yunĠzaiĠ huoĠjianĠ
ĠĠĠcanĠkao ĠziĠliaoĠ
Ġ fuĠheĠ
Ġ muĠdiĠ
Ġ zhangĠdaĠ
ĠĠĠ 20
ĠĠĠ kaiĠfaĠ
hua ĠxiĠ
yan ĠshiĠdeĠ
feng ĠzaiĠ
zhuan ĠerĠ
cong ĠerĠ
tuo ĠyuanĠ
ĠyiĠ zhuĠ
ĠweiĠ gaiĠ
ĠweiĠ shenĠ
ĠheĠ jinĠ
xiĠ aiĠ
chengĠ jiaoĠ
beiĠ yongĠyuĠ
shouĠ ceĠ
jingĠ huaĠ
yinĠ fuĠ
luĠ teĠ
meiĠ xueĠ
wanĠ jiaĠdeĠ
sheĠ jianĠ
zhouĠ bianĠdeĠ
anĠ shengĠ
kaiĠ laiĠ
kaiĠ qiangĠ
ĠbeiĠ jieĠ
moĠ xingĠdeĠ
aiĠ naĠ
tiaoĠ kuan
heiĠ se
ĠĠĠS yste
Ġgai ĠrenĠ
Ġceng ĠshiĠ
ĠnianĠqiĠ danĠrenĠ
ĠĠĠB Ġ
niĠya ĠheĠ
duiĠwaiĠ kaiĠfangĠ
ĠshiĠxingĠdengĠweiĠ 5
ĠzhongĠwen ĠdaĠxueĠ
ĠteĠlangĠ puĠ
5 ĠjiaĠ
6 ĠwanĠ
O pen
P G
Ġ ê
Ġ Wa
ĠĠĠ b
ĠĠĠ 1988ĠnianĠ
ĠĠĠ 1945ĠnianĠ
xing ĠdeĠyiĠ
xin ĠzaiĠ
ya ĠdiĠquĠ
hai ĠjiaĠ
bo ĠdiĠ
la ck
pai ĠdiĠ
zan ĠyuĠ
mang ĠshenĠ
ĠyiĠ duiĠ
ĠyiĠ yuanĠrenĠminĠbiĠ
ĠzhiĠ zao
zhengĠ zhouĠ
shouĠ chiĠ
dongĠ zhanĠ
jingĠ songĠ
baoĠ miĠ
fenĠ yuanĠ
fenĠ hangĠ
taiĠ miĠerĠ
jiuĠ shengĠ
qiuĠ zhangĠ
guĠ zhuĠ
ĠbingĠ yongĠ
sanĠ tiaoĠ
ĠdanĠ maiĠ
ĠjianĠ duiĠ
ĠziĠ shaĠ
ĠwuĠ luĠ
lvĠ se
kongĠ gu
zhaoĠ zeĠ
longĠ duanĠ
ĠzhongĠguoĠ renĠ
ĠzhongĠguoĠ keĠxueĠyuanĠ
panĠ guanĠ
ĠshuĠ ziĠ
ĠruĠ ciĠ
louĠ mianĠ
ĠshenĠ zhiĠshiĠ
Ġgai ĠshiĠzhenĠ
ĠnianĠyiĠ qianĠ
ĠĠĠjiĠ shuĠ
ĠzhongĠyang ĠweiĠyuanĠ
ĠgaiĠshengĠfenĠweiĠfaĠguoĠ xiĠnanĠbuĠ
fuĠjiĠ niĠyaĠ
ĠĠĠ2025 ĠnianĠ
suoĠmuĠ shengĠ
Twit ter
wuĠyouĠqiĠ suoĠshuĠdeĠ
y c
Ġ 1962
Ġ guoĠyuĠ
Ġ kuiĠ
Ġ ziĠshiĠ
Ġ gongĠyouĠrenĠkouĠ
ĠĠĠ 1993
ĠĠĠ eĠ
bi ĠdaĠ
zhou ĠriĠ
gao ĠyueĠ
ba ĠyuĠ
liu ĠdaĠ
hang ĠdaoĠ
sou ĠxunĠ
58 Ġ
66 Ġ
rt Ġ
ĠshiĠ shouĠ
ĠrenĠ caiĠ
ĠzhongĠ huaĠrenĠminĠgongĠheĠ
chengĠ gong
xiangĠ zhenĠ
faĠ kuanĠ
zhengĠ tingĠ
yeĠ xiangĠ
zuoĠ ye
guanĠ shangĠyuĠ
duĠ leiĠ
shenĠ lingĠ
maĠ maĠ
paiĠ shuiĠ
ĠjinĠ jinĠ
gouĠ zao
ganĠ raoĠ
longĠ touĠyuĠ
huangĠ diĠdeĠ
yanĠjiuĠ faĠxianĠ
ĠshuĠ xueĠ
ĠshiĠqiĠ taĠ
sheĠhuiĠ xueĠ
ĠnianĠ10ĠyueĠ 10ĠriĠ
ĠnianĠ5ĠyueĠ 15ĠriĠ
ĠĠĠC lu
geĠyueĠ neiĠ
ĠĠĠF e
ĠĠĠjuĠ leĠbuĠ
ĠĠĠliĠ yongĠ
Ġe ĠerĠ
Ġhong ĠzhiĠ
luĠyiĠsiĠ anĠnaĠ
guiĠzhouĠ shengĠ
wenĠgeĠ huaĠ
riĠerĠ manĠ
7 ĠyueĠzhiĠ
Ġ x
Ġ wen
Ġ yun
Ġ 42
Ġ chuĠliĠ
Ġ xiaĠyiĠ
Ġ xiĠzhiĠ
ĠĠĠ su
ĠĠĠ haoĠ
ĠĠĠ chiĠ
jian ĠliĠyiĠ
liu ĠyouĠ
fan ĠguoĠ
guang ĠyuĠ
lun ĠbeiĠ
zhao ĠjianĠ
12 ĠshiĠ
nie ĠshengĠ
pen ĠfaĠ
mes Ġ
ĠyiĠ ranĠ
Ġli ĠyiĠjiĠ
ĠyouĠ jiaĠ
ĠzaiĠ qingĠ
xiĠ suĠ
wuĠ chaĠ
shouĠ suoĠ
zhanĠ shangĠ
yeĠ quĠ
duiĠ jiaoĠ
wenĠ mingĠdeĠ
fenĠ lan
qianĠ zheĠ
nanĠ huaĠ
minĠ zhengĠfuĠ
huĠ xianĠ
tuĠ shangĠ
ĠdanĠ niĠerĠ
ĠbeiĠ buĠdeĠcunĠzhuangĠ
ĠshiĠyiĠ tiaoĠ
zeĠ chengĠ
aoĠ tuoĠ
aĠ dengĠ
hangĠ haiĠ
zhongĠdeĠ zhiĠ
chuangĠ banĠdeĠ
meiĠyouĠ zaiĠ
ĠliangĠ renĠyuĠ
ĠnianĠ9ĠyueĠ 28ĠriĠ
siĠdeĠ geĠerĠ
ĠnianĠ4ĠyueĠ 30ĠriĠ
ĠnianĠzaiĠ ciĠ
ĠĠĠciĠ houĠ
Ġsi ĠrenĠ
ĠÑ ģ
ĠĠĠzhongĠguoĠ daĠluĠ
anĠdaĠ lve
ĠhenĠ kuaiĠ
yinĠdiĠanĠnaĠ zhouĠ
5 ĠciĠ
7 000
s p
v al
Ġ daoĠdeĠ
Ġ 1918ĠnianĠ
ji ĠdeĠshiĠ
ĠĠĠ aĠerĠ
si ĠshiĠdeĠ
fang ĠguoĠ
yan ĠdiĠ
te sĠĠĠ
tu ĠbuĠ
ze ĠbuĠ
neng ĠjiĠ
chuan ĠxiĠ
chi ĠweiĠ
zhuang ĠyuĠ
tan ĠzhongĠ
daĠ nao
keĠ kaoĠ
xianĠ cunĠ
beiĠ yangĠ
ĠqiĠ tiĠ
ĠqiĠ suĠ
yeĠ nengĠ
tongĠ shuĠ
tongĠ zhiĠshiĠqiĠ
ĠsiĠ kaĠ
huoĠ yaoĠ
biĠ mingĠ
meiĠ huaĠ
sheĠ quĠdeĠ
gaoĠ chaoĠ
kaiĠ chuangĠ
ĠbingĠ sheĠyouĠ
guiĠ hua
lvĠ guanĠ
douĠ laĠ
ĠmingĠ lingĠ
ĠmuĠ banĠ
danĠrenĠ guoĠ
miaoĠ shuĠdeĠ
ĠnianĠ8ĠyueĠ 15ĠriĠ
fangĠshiĠ laiĠ
jianĠzhuĠ mianĠjiĠ
ĠĠĠA ward
Ġjiang ĠshiĠ
xinĠwenĠ faĠbuĠ
ĠweiĠzhuĠ tiĠdeĠ
Ġwu ĠweiĠ
shuaiĠ tuiĠ
Ġqiong ĠsiĠ
nuoĠmanĠdiĠ daĠquĠ
C L
t on
Ġ xiĠjiĠ
Ġ dĠ
en sisĠ
ĠĠĠ 1980
ĠĠĠ An
qu ĠyueĠ
19 ĠrenĠ
mei ĠxiĠ
chang ĠyiĠjiĠ
qing ĠdiĠ
qing ĠdaĠ
ben ĠjiaĠ
yang ĠweiĠ
yang ĠzaiĠ
pai ĠdaoĠ
ceng ĠyinĠ
10 ĠyueĠzhiĠ
kan ĠchengĠ
sen ĠzaiĠ
23 ĠrenĠ
zhui ĠbuĠ
per Ġ
ĠyiĠ guĠ
buĠ jinĠ
keĠ zuoĠ
chengĠ yinĠ
zhuĠ shuĠ
xiangĠ shangĠ
xiangĠ linĠdeĠ
daoĠ suĠ
ĠerĠ bu
ĠerĠ lingĠyiĠ
jingĠ xinĠ
fangĠ baoĠ
huaĠ xuĠ
changĠ chunĠ
luĠ biĠ
fenĠ lei
danĠ xiaĠ
ĠkeĠ yiĠdeĠdaoĠ
ĠjiaĠ banĠ
liangĠ taiĠ
shenĠ touĠ
sheĠ shouĠ
sheĠ yingĠshiĠ
suoĠ yinĠ
sanĠ leiĠ
ĠxiangĠ jiaoĠ
ĠbaoĠ zhangĠ
liĠ kaiĠ
zhaoĠ biaoĠ
ĠshouĠ gouĠ
ĠnianĠ6ĠyueĠ 28ĠriĠ
shuĠjuĠ kuĠ
jiangĠjunĠ xianĠ
buĠfen ĠdiĠquĠ
buĠyiĠ dingĠ
xuanĠzeĠ leĠ
Ġ28 Ġ
ĠaiĠerĠ lanĠ
a ĠweiĠ
Ġ dao
Ġ 250
Ġ diaoĠchaĠ
Ġ foĠjiaoĠ
ĠĠĠ Con
ĠĠĠ 1992ĠnianĠ
he ĠshiĠjianĠ
jie ĠweiĠshengĠ
20 ĠgongĠliĠ
zhan ĠzhiĠjianĠ
ding ĠdiĠquĠ
che ĠjiĠ
neng ĠheĠ
xun ĠyuĠ
00 ĠmiĠ
16 ĠshiĠjiĠ
17 ĠshiĠjiĠ
nu ĠdeĠ
luan ĠdeĠ
gra mĠ
ĠyuĠ jianĠ
diĠ guoĠdeĠ
ĠzaiĠ faĠ
daĠ menĠ
fuĠ yangĠ
jieĠ shengĠ
ĠdiĠ san
leĠ taĠmenĠ
yingĠ guo
xinĠ pianĠ
qianĠ shenĠshiĠ
jiangĠ wuĠ
dianĠ dengĠ
dianĠ puĠ
danĠ renĠzhiĠ
ĠxingĠ geĠ
wanĠ saiĠ
zongĠ canĠmouĠbuĠ
ĠjinĠ rongĠ
tingĠ zhengĠ
gangĠ gangĠ
keĠyiĠ yiĠ
Ġyin ĠshiĠ
dianĠshiĠ pinĠdaoĠ
erĠshiĠ erĠ
erĠshiĠ baĠnianĠ
ĠnianĠ9ĠyueĠ 30ĠriĠ
ĠnianĠzhiĠ 18
ĠlianĠ bang
minĠzhuĠ paiĠ
ĠzuiĠzhongĠ huanĠxiangĠ
ĠĠĠB ar
ĠnianĠshiĠ erĠyueĠ
ĠliĠkeĠ siĠ
Ġsan ĠrenĠ
miĠerĠ dunĠ
ĠĠĠcheĠzhanĠ zhouĠbianĠ
maĠqiĠ dunĠ
0 1
S D
z o
Ġ 1930
Ġ 87
Ġ xiĠyuĠ
Ġ touĠbuĠ
Ġ 1921ĠnianĠ
ei n
you ĠliĠyuĠ
si ĠĠĠ
mi ĠzhiĠ
gu ĠxiĠ
luo ĠbuĠ
xu ĠerĠ
han ĠdaĠxueĠ
gan ĠsiĠkeĠ
hong ĠshiĠ
pan ĠyuĠ
kang ĠshengĠ
nie ĠfuĠleiĠ
ris Ġ
beiĠ xingĠ
zhengĠ zhanĠ
shouĠ dongĠ
shouĠ junĠ
xueĠ zhe
yingĠ guanĠ
yinĠ xianĠ
changĠ geĠ
luĠ senĠbaoĠ
pingĠ muĠ
muĠ qianĠdeĠ
anĠ beiĠ
teĠ lvĠ
tianĠ tang
dangĠ zhuĠxiĠ
kaiĠ huiĠ
1Ġ zuoĠ
liaoĠ yangĠ
peiĠ daiĠ
shengĠliĠ houĠ
chaoĠxianĠ banĠdaoĠ
gongĠyeĠ quĠ
shengĠweiĠ changĠweiĠ
tieĠdaoĠ bingĠ
ĠtuoĠ maĠsiĠ
ĠĠĠxiaĠ xiaĠ
Ġhan ĠyuĠ
sanĠjiaĠ diĠ
kongĠjun ĠjiĠdiĠ
Ġ hui
Ġ 77
Ġ leiĠdeĠ
Ġ tuĠerĠ
Ġ taiĠzhongĠ
ji ĠshiĠqiĠ
ĠĠĠ taĠmenĠ
ĠĠĠ taiĠwan
wu ĠrenĠheĠ
mi ĠkeĠ
jing ĠyueĠ
zhen ĠyouĠ
sai ĠkeĠ
chuan ĠweiĠ
dun ĠshiĠ
kuai ĠdiĠ
teng ĠyuanĠ
ga ĠmaĠ
ĠshiĠ huiĠ
ĠshiĠ meiĠguo
ĠdeĠ xingĠshiĠ
ĠyiĠ xiaĠweiĠ
qiĠ youĠ
ĠzaiĠ baĠ
yuanĠ langĠ
gongĠ buĠweiĠ
jinĠ eĠ
juĠ baoĠ
mingĠ zhuĠ
huaĠ ziĠ
yeĠ siĠ
zheĠ me
qianĠ biĠ
dianĠ rongĠ
zhangĠ jingĠ
qiuĠ duiĠzaiĠ
fanĠ weiĠdeĠ
huĠ kouĠ
fengĠ chenĠ
chuanĠ zheĠ
ĠbeiĠ hanĠ
ĠshiĠyiĠ nian
guiĠ dingĠdeĠ
ĠshiĠweiĠ fuĠshuĠjiĠ
qinĠ lveĠ
tuoĠ niĠ
yanĠjiuĠ biaoĠmingĠ
ĠchangĠ jiangĠ
ĠzheĠshiĠ taĠ
meiĠtiĠ baoĠdaoĠ
ĠyuĠqiĠ ta
bianĠhuaĠ tuĠ
jiaĠyiĠ xianĠ
teĠbie ĠshiĠ
Ġdai ĠweiĠsiĠ
xiĠzangĠ ziĠzhiĠquĠ
0 2
6 ĠjiaĠ
s se
Ġ ziĠweiĠ
Ġ rengĠranĠ
Ġ jingĠyouĠ
an ĠyouĠ
ĠĠĠ naĠ
ĠĠĠ guoĠjiaĠ
zhu ĠyiĠzhiĠ
luo ĠjiaĠ
lin eĠ
zhuang ĠxianĠ
tou ĠxiĠ
cong ĠdiĠ
ce ĠyouĠ
zhao ĠchuĠ
tao ĠzhiĠ
ff Ġ
ĠdeĠ chengĠyuanĠ
ĠjiĠ miĠ
youĠ xiĠdeĠ
ĠrenĠ shengĠ
daĠ lianĠ
jianĠ duiĠdeĠ
zhuĠ jiaoĠweiĠ
xianĠ zhuangĠ
ziĠ siĠ
shuĠ xiaĠ
quĠ neiĠdeĠ
shangĠ beiĠ
shangĠ xueĠyuanĠ
baoĠ feiĠ
ĠdaĠ jinĠ
jiaoĠ zhuĠ
gaiĠ juĠ
zuĠ jianĠdeĠ
jiuĠ jiangĠ
puĠ linĠ
ĠgeĠ daĠ
qiangĠ shangĠ
zhongĠdeĠ jiĠ
reĠ lieĠ
ĠzhanĠ zongĠrenĠkouĠdeĠ
nuoĠ manĠ
ĠguĠ mingĠ
ĠA u
zongĠjiaoĠ lianĠ
ĠyunĠ shuĠ
biaoĠzhunĠ huaĠ
gaiĠbianĠ chengĠ
ĠguoĠminĠ geĠmingĠ
yinĠdiĠ anĠ
cri p
sti tu
g g
ĠĠĠ Bu
xing ĠĠĠ
hu ĠxingĠ
jian ĠdeĠyiĠ
duo ĠliĠya
san ĠdiĠ
feng ĠsiĠ
chuan ĠheĠ
ting ĠweiĠ
duan ĠheĠ
xun ĠheĠ
long ĠrenĠ
wo ĠshiĠ
MA X
ĠshiĠ zongĠ
ĠzhiĠ zuo
ĠyuĠ zhongĠguoĠ
ĠrenĠ lei
yuanĠ jingĠ
ĠguoĠ huiĠyiĠyuanĠ
jieĠ chengĠ
beiĠ feiĠ
ziĠ chan
shouĠ lunĠ
mingĠ wenĠ
fangĠ song
yanĠ qingĠ
baoĠ zhuĠ
huaĠ lianĠ
duiĠ jueĠ
junĠ zhengĠfuĠ
haiĠ muĠ
banĠ qianĠ
yaĠ shuĠ
yaĠ naĠ
baĠ jieĠ
fengĠ yunĠ
ĠziĠ benĠ
puĠ lu
ĠxianĠ houĠzaiĠ
ĠxianĠ xiaoĠliĠyuĠ
ĠdeĠshiĠ weiĠ
tanĠ ce
Ġtong ĠnianĠ6ĠyueĠ
hangĠ tian
ĠzuiĠ houĠdeĠ
ĠshiĠyouĠ renĠkouĠ
sĠĠĠ A
ĠjiuĠ longĠ
kongĠzhiĠ quanĠ
Ġba ĠjiĠsiĠ
ĠweiĠfuĠ teĠ
ĠtaĠmen ĠyiĠ
ĠyuĠshiĠ zaiĠ
gaiĠdiĠ quĠdeĠ
jieĠfangĠ jun
ĠĠĠsuiĠ houĠ
kangĠyiĠ huoĠdongĠ
ĠbuĠfen ĠdiĠquĠ
ĠĠĠshiĠyongĠ zhuangĠkuangĠ
henĠkuaiĠ jiuĠ
ĠweiĠfuĠqiĠyuĠgang ĠnianĠ
xingĠdong ĠzhongĠ
Ġãĥ¼ Ġãĥ
ĠfenĠbuĠzaiĠ zhongĠguoĠdaĠluĠdeĠ
youĠshiĠyiĠ laiĠ
sso cia
3 ĠweiĠ
c mĠ
h one
Ġ NA
Ġ yuanĠzhiĠ
qi ĠshiĠyiĠ
hu ĠzhongĠ
bi Ġli
le ĠyiĠweiĠ
gai ĠyuĠ
zao ĠjiaĠ
guang ĠzhiĠ
wa ĠheĠ
wa ĠerĠdeĠ
suan ĠheĠ
niu ĠxiĠlanĠ
sang ĠdeĠ
shua ĠxinĠ
81 ĠnianĠ
ĠyiĠ lanĠ
renĠ keĠ
youĠ huaĠ
qiĠ guanĠ
ĠzaiĠ erĠ
ĠzaiĠ benĠ
ĠzaiĠ tianĠ
ĠzaiĠ 20ĠshiĠjiĠ
fuĠ baiĠ
huiĠ chengĠ
zhanĠ leĠ
tongĠ guo
zuoĠ chuĠdeĠ
zuoĠ weiĠyiĠgeĠ
changĠ yongĠdeĠ
luĠ jiaĠ
luĠ tianĠ
huoĠ yanĠ
qingĠ tongĠ
yaĠ yunĠ
yaĠ zuĠlianĠ
anĠ quanĠbuĠ
boĠ lanĠdeĠ
baĠ xianĠ
ĠbingĠ ziĠ
sanĠ yuanĠ
chuanĠ liuĠ
ĠjianĠ cha
ĠgeĠ guoĠjiaĠ
ĠjuĠ beiĠ
zhuanĠ xieĠdeĠ
ĠshiĠweiĠ zhiĠ
ĠnianĠ1ĠyueĠ 15ĠriĠ
ĠdangĠ wanĠ
zuĠqiuĠ yuanĠ
jiaĠzhiĠ guanĠ
gaoĠsuĠ gongĠ
juĠminĠ quĠ
xiangĠhuĠ zuoĠyongĠ
chuangĠzaoĠ leĠ
gongĠneng ĠdeĠ
haĠsaĠkeĠsiĠ tanĠ
8 000
Ġ 1933
Ġ zhengĠyiĠ
ĠĠĠ 1984ĠnianĠ
jie ĠĠĠ
fang ĠliĠ
zhou ĠnianĠjiĠ
chi ĠshiĠ
10 ĠfenĠ
qiang ĠshiĠ
pei ĠjianĠ
chuang ĠweiĠ
30 ĠmiĠ
zhuo ĠyueĠ
co Ġ
1920 ĠnianĠdaiĠ
85 Ġ
AN Ġ
weiĠ xiĠ
ĠyuĠ linĠ
ĠyuĠ meiĠguoĠ
ĠyuĠ riĠbenĠ
jieĠ zhuangĠ
keĠ yuanĠ
chengĠ zanĠ
ĠqiĠ geĠ
ĠqiĠ houĠzaiĠ
ĠxiĠ beiĠbuĠ
zhengĠ jieĠ
houĠ yuanĠ
shouĠ biĠ
tongĠ xin
guanĠ fuĠ
nanĠ jingĠshiĠ
meiĠ miaoĠ
yaĠ taiĠ
lianĠ shouĠ
xuĠ zhouĠ
quanĠ minĠ
shanĠ zhenĠ
kaiĠ wangĠ
leiĠ shengĠ
sanĠ taiĠ
ĠgongĠ chiĠdeĠ
ĠjieĠ ciĠ
zhuanĠ zhanĠ
chongĠ dieĠ
cengĠ jing
cengĠ jingĠshiĠ
manĠ zhouĠguoĠ
ĠshiĠjieĠ geĠdiĠ
ĠmuĠ qinĠshiĠ
waĠ niĠ
Ġjie ĠyouĠ
ĠriĠbenĠ zhengĠfuĠ
ĠF ran
xuanĠze ĠdeĠ
duanĠshiĠjianĠ neiĠ
shenĠshengĠ luoĠmaĠdiĠguoĠ
ĠWi lliam
0ĠbiĠ 2Ġ
ï¸ °
bianĠhuaĠtuĠ shi
ĠĠĠ Bi
he r
20 ĠmiĠ
quan ĠliĠjiĠ
la ĠĠĠ
men ĠyiĠ
men ĠzhiĠ
nei ĠliĠ
ting ĠliĠ
kong ĠziĠ
dou ĠshiĠzaiĠ
72 Ġ
Ġli ĠdeĠyiĠ
buĠ jiaĠ
diĠ jiuĠ
yuanĠ suĠdeĠ
erĠ ciĠ
gongĠ muĠ
xiangĠ xianĠ
chuĠ chuĠzhangĠ
ĠxiĠ luĠ
shouĠ daoĠdeĠ
tongĠ dengĠ
yinĠ bingĠ
duiĠ beiĠ
qianĠ daiĠ
yongĠ kangĠ
gaiĠ dongĠ
ĠfuĠ chuĠ
xuĠ yaoĠdeĠ
boĠ ciĠ
dengĠ diĠdeĠ
shanĠ touĠ
feiĠ wuĠzhiĠ
tingĠ tingĠzhangĠ
ĠbaoĠ shouĠ
touĠ faĠ
huanĠ zhuangĠ
aiĠ meiĠ
keĠyiĠ yuĠ
ĠwanĠ shangĠ
ĠdeĠzhiĠ weiĠ
youĠyiĠ dingĠdeĠ
henĠ xiaoĠ
saĠ haĠ
ĠnianĠ12ĠyueĠ 25ĠriĠ
miaoĠ shu
ĠluoĠ ma
Ġa ĠgeĠ
siĠshiĠ erĠnianĠ
ĠlaiĠ ang
ĠH ar
ĠzhuanĠ yeĠ
taĠmen ĠshiĠ
Ġke ĠzaiĠ
ceĠshiĠ yueĠtaiĠ
Ġ190 4ĠnianĠ
Ġcha ĠliĠ
tongĠmengĠ huiĠ
ĠdaĠbuĠfen ĠdeĠ
leiĠsu ĠyiĠgeĠ
Ġ saiĠshiĠ
Ġ rengĠran
Ġ chongĠjianĠ
ai n
ou ĠjiĠ
ĠĠĠ te
xin ĠdaĠ
xia ĠyiĠyuanĠ
mu ĠzhiĠliĠ
gai ĠerĠ
bo ĠdaĠ
cun ĠrenĠ
sha ĠbeiĠ
man ĠrenĠ
hong ĠwuĠ
kuang ĠshiĠ
bin ĠchengĠ
zou ĠshiĠ
zhui ĠjiaĠ
es ti
seng ĠlvĠ
ĠyuĠ 2008
xingĠ dongĠdeĠ
erĠ jiaĠ
gongĠ zhenĠ
chengĠ baĠ
zhuĠ xi
daoĠ juĠ
chuĠ ciĠ
ĠerĠ jiangĠ
leĠ shuĠ
xueĠ yuanĠheĠ
baoĠ faĠdeĠ
changĠ huiĠ
changĠ qiĠyiĠ
jiaoĠ diĠdeĠ
luĠ kaĠ
zhangĠ huaĠ
muĠ biaoĠdeĠ
sheĠ beiĠdeĠ
zhouĠ beiĠ
zuiĠ zhongĠdeĠ
shanĠ jianĠ
feiĠ wangĠ
zongĠ chengĠ
zongĠ jiaoĠdeĠ
leiĠ si
ĠgongĠ huiĠ
zhuanĠ yunĠ
ĠshengĠ taiĠ
ĠshiĠshiĠ zhiĠ
ĠdeĠjiĠ zhiĠ
wuĠkeĠ lanĠxiĠ
ĠdangĠshiĠ taĠ
ĠsheĠ quĠ
ĠzhouĠ kanĠ
ĠÐ º
Ġming ĠshiĠbingĠ
ĠyouĠqiĠ tuĠxingĠ
Ġduo ĠweiĠ
ĠJ e
ĠdeĠzhiĠchiĠ xiaĠ
wangĠqiuĠ yunĠdongĠyuanĠ
ĠguangĠdongĠ shengĠ
zaoĠchuanĠ changĠ
0 6
Ġ con
Ġ CN
Ġ juĠrenĠ
Ġ huĠshiĠ
Ġ 1919ĠnianĠ
Ġ 1905ĠnianĠ
ao ĠweiĠ
ĠĠĠ gongĠluĠ
ãĢ ľ
mi ĠxiĠ
ju ĠjiĠtuanĠ
yan ĠerĠ
zhang ĠyiĠzhiĠ
quan ĠyouĠ
ni ĠkeĠsiĠ
guang ĠnianĠ
tuan ĠyouĠxianĠgongĠsiĠ
sun ĠdeĠ
ter ĠĠĠ
ĠyuĠ 2025
ĠyuĠ wuĠ
qiĠ faĠ
yuanĠ banĠ
fuĠ leiĠ
ĠqiĠ ciĠ
houĠ jinĠ
houĠ bianĠ
shangĠ chengĠ
changĠ ciĠ
luĠ luĠ
qianĠ xingĠ
qianĠ wuĠ
duĠ liangĠ
duĠ boĠ
haiĠ mianĠ
zuĠ zhiĠyiĠ
dengĠ fangĠmianĠ
huĠ zuĠzhiĠ
yunĠ yingĠdeĠ
dangĠ tuanĠ
sanĠ dengĠ
waiĠ guoĠyuĠ
paiĠ yuanĠ
ĠgongĠ jiaoĠ
puĠ luĠ
ĠjuĠ zhuĠ
Ġta ĠliĠ
duanĠ luoĠ
douĠ jiangĠ
tieĠ daoĠdeĠ
ĠxiaoĠ xueĠ
ĠquanĠ taiĠ
ĠzongĠ gongĠ
ĠchangĠ pian
Ġxian ĠheĠ
ĠsuĠ geĠlanĠ
ĠpuĠ tongĠ
ĠxuanĠ chuanĠ
ĠneiĠ mengĠguĠ
ĠwaiĠ jiaoĠbuĠ
gongĠbuĠ leĠ
quĠdaiĠ leĠ
quĠxiaoĠ leĠ
ĠnianĠchuĠ banĠdeĠ
ĠluoĠmaĠ niĠyaĠ
gongĠanĠ juĠ
ĠaĠlaĠ boĠ
haĠfuĠ daĠxueĠ
d yĠ
t orĠ
w in
Ġ lun
Ġ heĠshiĠ
Ġ biĠliĠ
Ġ xiĠweiĠ
ai ĠdaoĠ
xian ĠyouĠxiĠ
xian ĠdeĠyiĠge
ming ĠĠĠ
mei ĠzhiĠ
liang ĠyouĠ
deng ĠtaĠ
na ĠĠĠ
zao ĠyinĠ
gui ĠrenĠ
dou ĠshiĠyiĠ
dun ĠzaiĠ
300 Ġ
86 Ġ
MA Ġ
ĠyiĠ qieĠ
ĠweiĠ jinĠ
ĠyuĠ wangĠ
ĠliĠ xiaoĠ
ĠzaiĠ jinĠxingĠ
gongĠ jiĠdeĠ
daoĠ laiĠ
beiĠ pan
yanĠ chengĠ
zhanĠ neiĠ
yingĠ xingĠ
ĠdaĠ yeĠ
yinĠ cang
taiĠ lang
jiangĠ jieĠshiĠ
dianĠ dongĠjiĠ
daiĠ kuan
qingĠ guiĠ
shanĠ zhuangĠ
chiĠ duĠ
puĠ sen
lunĠ dianĠ
suiĠ houĠdeĠ
touĠ shenĠ
mengĠ lieĠ
zhengĠfuĠ zuĠzhiĠ
ĠhaiĠ waiĠ
leĠyiĠ mingĠ
ĠliangĠ mingĠ
fangĠfaĠ yuanĠ
wenĠhua ĠzhongĠxinĠ
ĠfenĠbuĠyuĠ xiĠ
tiaoĠzhanĠ saiĠ
r les
t ĠdeĠ
Ġ guoĠshiĠ
ci ĠzhiĠhouĠ
gu ĠyouĠ
lu ĠrenĠ
ru ĠzhongĠguoĠ
zu ĠyouĠ
bo ĠzaiĠ
gao ĠerĠ
mo ĠriĠ
ran ĠdeĠ
wa ĠdiĠ
lle Ġ
ĠshiĠ duiĠ
ĠshiĠ fengĠ
ĠyiĠ geĠrenĠ
ĠzhiĠ renĠ
ĠyuĠ taĠ
renĠ kouĠweiĠ
daĠ zaoĠ
daĠ faĠguanĠ
jiaĠ yuanĠ
jiaĠ miĠ
ĠbuĠ dongĠ
keĠ muĠ
zhuĠ yinĠ
faĠ wangĠ
faĠ shengĠshiĠ
jinĠ yuanĠ
shuĠ shengĠ
zhengĠ bingĠ
baoĠ gaoĠzhongĠ
guanĠ chuanĠ
changĠ fuĠ
tiĠ gongĠyiĠ
qianĠ sanĠ
zhangĠ zhouĠ
duĠ fuĠ
yongĠ faĠ
banĠ kuai
meiĠ lingĠ
shenĠ chuanĠ
shenĠ miaoĠ
ĠxingĠ cheĠ
qiuĠ duiĠyiĠ
ĠtaĠ baĠ
tianĠ yuanĠ
shanĠ xiangĠ
neiĠ xinĠ
tingĠ chanĠ
puĠ bianĠdeĠ
ĠfaĠ dongĠjiĠ
hongĠ seĠdeĠ
tuiĠ guanĠ
sheĠjiĠ heĠ
ĠnianĠ1ĠyueĠ 10ĠriĠ
ĠqingĠ daiĠ
ĠnianĠ3ĠyueĠ 18ĠriĠ
ĠnianĠ4ĠyueĠ 28ĠriĠ
ĠchangĠ biĠsaiĠ
pengĠ zhuangĠ
ĠbiaoĠ mianĠ
ĠheĠerĠ siĠ
zhuĠzhai ĠquĠ
zuĠzongĠ beiĠ
aĠsaiĠbaiĠ jiangĠ
5 ĠfenĠ
D O
Ġ gun
Ġ feiĠxingĠ
Ġ gaoĠjiĠ
Ġ tuĠzhongĠ
ou ĠdaĠ
ĠĠĠ xingĠzhiĠ
ta ĠdeĠyiĠ
ci ĠliĠ
duo ĠdiĠ
tu ĠjiaĠ
qin ĠweiĠ
ha ĠmiĠ
xiong ĠdeĠ
hun ĠhouĠ
28 ĠrenĠ
ruo ĠwangĠ
95 Ġ
ĠyiĠ jiuĠ
ĠyiĠ hanĠ
Ġnian ĠshiĠjianĠ
ĠyouĠ xiĠzhongĠ
xiĠ shuĠ
jieĠ zou
keĠ linĠ
ziĠ dongĠhuaĠ
quĠ gunĠqiuĠ
xueĠ ruoĠ
zhanĠ dianĠ
zuoĠ haoĠ
ĠdaĠ kaiĠ
duiĠ shangĠ
wangĠ xingĠ
yaĠ pianĠ
bianĠ fangĠ
liuĠ junĠ
baĠ erĠdeĠ
tuĠ kuĠ
chanĠ quanĠ
ĠwuĠ lunĠshiĠ
chongĠ ciĠ
congĠ mingĠ
ĠshengĠ chan
peiĠ shenĠ
panĠ dingĠ
ĠdeĠjiĠ chengĠ
ĠdeĠguoĠ wangĠ
canĠjiaĠ gongĠzuoĠ
beiĠbuĠ shengĠ
senĠ teĠ
ĠtaĠdeĠ fuĠqin
Ġsuo ĠweiĠ
ĠR u
changĠwu ĠweiĠyuanĠ
zhengĠzhiĠbuĠ zhuĠrenĠ
saiĠtingĠ yunĠdongĠyuanĠ
0 9
S L
e ĠwuĠ
¨ Ġ
ĠĠĠ da
ĠĠĠ ba
ĠĠĠ xianĠzaiĠ
he ĠjiĠshuĠ
xing ĠshiĠshiĠ
mi u
le x
jun ĠshiĠweiĠyuanĠhuiĠ
dai ĠrenĠ
dang ĠshiĠshiĠ
kou ĠheĠ
tiao ĠweiĠ
30 ĠrenĠ
shun ĠtianĠfuĠ
tt Ġ
ĠshiĠ jiuĠ
ĠyiĠ buĠfenĠ
ĠjiĠ jianĠ
zhongĠ xinĠdeĠ
ĠzaiĠ xiaĠ
jianĠ kongĠ
ĠguoĠ heĠ
jieĠ huoĠ
baoĠ chouĠ
changĠ fangĠ
qianĠ yuanĠ
dianĠ baoĠ
duĠ yinĠ
ĠjiaĠ shang
xuĠ qiu
suoĠ zuĠchengĠ
tianĠ jin
ĠbingĠ huoĠ
laĠ ziĠ
sanĠ fenĠ
ĠjianĠ danĠ
ĠshiĠyiĠ zuo
lieĠ fengĠ
moĠ fanĠ
ĠchuĠ feiĠ
ĠjieĠ duanĠ
zhuangĠ tai
touĠ ziĠjiĠ
ĠweiĠyuĠ weiĠ
diĠyiĠ zhongĠ
aiĠ dingĠbaoĠ
faĠguoĠ pingĠjunĠshuiĠpingĠ
ĠxiaĠ lingĠ
daiĠbiaoĠ xingĠdeĠ
ĠbiĠ ru
ĠguĠ quanĠ
Ġxian ĠyuĠ
ziĠzhiĠ qu
ĠkaiĠ sheĠ
ĠĠĠdiĠ siĠ
ĠÐ »
lianĠbangĠ zhongĠyiĠyuanĠ
aoĠsiĠ manĠdiĠguoĠ
ĠbeiĠqiĠ yingĠjiĠ
mieĠ jueĠdeĠ
ĠweiĠfuĠqiĠyuĠgang ĠliĠ
fuĠjiaĠ saiĠ
A ndroid
Ġ chiĠxuĠ
ĠĠĠ daoĠleĠ
zhong ĠzhiĠyouĠ
you ĠshiĠyongĠ
le ĠdiĠerĠ
guan ĠrenĠ
ye ĠshiĠdeĠ
jiu ĠshiĠyiĠ
la ĠzaiĠ
deng ĠjiĠweiĠ
zhen ĠrenĠkouĠ
ceng ĠxiangĠ
se ĠweiĠ
chan ĠdiĠ
po ĠweiĠ
17 ĠrenĠ
pen ĠsheĠ
jiĠ huaĠ
daĠ tingĠ
ĠbuĠ fenĠdeĠ
ĠqiĠ zhuĠyaoĠ
ĠxiĠ fuĠ
zheĠ zhiĠyiĠ
guanĠ xingĠ
bingĠ chengĠweiĠ
ĠkeĠ qianĠwangĠ
nanĠ nv
shenĠ naiĠchuanĠ
teĠ zhengĠdeĠ
quanĠ shenĠ
suoĠ chengĠ
tianĠ yeĠ
fanĠ qieĠ
sanĠ ziĠ
ĠdanĠ duiĠ
ĠjinĠ yongĠ
ĠjianĠ jieĠ
moĠ tian
moĠ ca
ĠyiĠjiĠ nianĠ
seĠ lieĠdeĠ
Ġdan ĠshiĠjiĠshangĠ
zhengĠfuĠ buĠ
hangĠ zhouĠshiĠ
ĠmiĠ miĠ
panĠ junĠ
ĠhuiĠ guiĠ
buĠshiĠ langĠ
ĠjiuĠ duĠ
dongĠwuĠ yuanĠ
huanĠjingĠ xiaĠ
Ġwo ĠshiĠ
ĠhuoĠdeĠ nanĠziĠ
shengĠhuo ĠzhongĠ
Ġao ĠdeĠ
ĠshiĠluoĠmaĠ niĠyaĠdeĠ
0 8
0 1Ġ
c er
d ra
Ġ ren
Ġ 43
Ġ Windows
Ġ AC
Ġ biaoĠdaĠ
Ġ sangĠ
ĠĠĠ 1989ĠnianĠ
zi ĠĠĠ
mei ĠnianĠdeĠ
lu ĠdaĠxueĠ
yong ĠdeĠshiĠ
she ĠzhongĠ
suo ĠsiĠ
men ĠjiĠ
hao ĠzhongĠ
su ĠliĠshiĠ
00 ĠrenĠ
wo o
nuo ĠerĠ
huai ĠdeĠ
IN K
ER Ġ
PC Ġ
ĠshiĠ xiongĠyaĠliĠ
ĠzhiĠ mingĠdeĠ
ĠnianĠ junĠ
ĠliĠ erĠ
ĠzaiĠ zheĠxieĠ
yuanĠ chuĠ
wuĠ huiĠ
zhuĠ shengĠ
zhuĠ yiĠshiĠ
xiangĠ shuĠ
xianĠ daiĠdeĠ
ĠqiĠ xuan
huiĠ chuĠxianĠ
dongĠ xueĠ
taĠ keĠ
zuoĠ ceĠ
wenĠ xue
qianĠ lieĠ
taiĠ baoĠ
pingĠ xuanĠ
duĠ pinĠ
ĠfuĠ laĠ
fanĠ leĠ
ĠbeiĠ linĠ
baiĠ laoĠhuiĠ
ĠzheĠ duiĠ
ĠzhuĠ banĠ
moĠ biaoĠbenĠ
xunĠ hangĠ
eĠ leiĠ
diĠyiĠ shuĠjiĠ
chaoĠ shengĠ
ĠshiĠjianĠ houĠ
youĠyiĠ xie
zengĠ sunĠ
ĠzhanĠ lingĠ
ĠquanĠ mianĠ
beiĠjingĠ xiaĠ
zhengĠfu ĠjiĠ
Ġru ĠheĠ
ĠranĠ er
ĠweiĠyuĠfaĠguoĠ nuoĠmanĠdiĠdaĠquĠ
ĠxiĠnanĠ jieĠ
ĠĠĠli ĠrenĠ
buĠdeĠyiĠgeĠ xianĠ
jiaĠlaiĠ haiĠxiaĠ
Ġ 51
Ġ shuĠweiĠ
Ġ yangĠshiĠ
Ġ gouĠchengĠ
Ġ 50Ġ
Ġ 1910ĠnianĠ
ĠĠĠ Do
ĠĠĠ 1990ĠnianĠ
sheng ĠshiĠqiĠ
ming ĠbuĠ
ye ĠjiĠshuĠ
fen ĠzaiĠ
xuan ĠdiĠ
lan dĠĠĠ
chao ĠxiangĠ
ran ĠqiĠ
xun ĠzaiĠ
tiao ĠwuĠ
suan ĠxingĠ
shun ĠjianĠ
ĠdeĠ guĠshiĠ
ĠzhiĠ gongĠ
ĠzhiĠ beiĠ
diĠ 2Ġ
ĠyouĠ yingĠguoĠ
ĠguoĠ jiaĠheĠ
wuĠ shuiĠ
jiaĠ riĠ
shengĠ yuĠdeĠ
xiangĠ dengĠ
chuĠ yuanĠ
yeĠ na
xinĠ jinĠ
zhangĠ wenĠ
xiaĠ taiĠ
muĠ di
liangĠ sou
xuĠ gou
teĠ zhengĠshiĠ
guĠ laoĠ
sanĠ lingĠ
sanĠ chongĠ
chuanĠ wenĠ
ĠdanĠ mai
ĠjinĠ shengĠ
ĠjianĠ kangĠ
ĠshiĠyiĠ shuĠ
guiĠ feiĠ
guiĠ lvĠ
ĠziĠ ziĠ
aoĠ guĠsiĠ
aĠ naĠ
kongĠ long
ganĠ yingĠ
kaiĠshiĠ weiĠ
ĠzhongĠguoĠ daĠ
ĠweiĠyuanĠ zhangĠ
ĠdeĠyiĠgeĠ shuĠ
zengĠ jia
ĠnianĠ5ĠyueĠ 31ĠriĠ
sĠĠĠ and
zuĠqiuĠ biĠsaiĠ
ĠtaĠdeĠ fuĠqinĠ
ĠĠĠgaiĠ kuangĠ
xiangĠmuĠ shangĠ
wenĠhua ĠzhongĠ
Ġbai ĠrenĠ
foĠ jiaoĠdeĠ
ĠzaiĠci ĠzhiĠqianĠ
jiaoĠkeĠ shuĠ
quanĠtiĠ huiĠyiĠ
suanĠjianĠ ce
fenĠzuĠ saiĠ
Musi c
saĠerĠwaĠ duoĠ
duoĠerĠduoĠ nieĠshengĠ
v in
Ġ jiaĠjiĠ
Ġ tingĠzhiĠ
Ġ qiĠnianĠ
Ġ yuanĠyouĠ
chang ĠliĠ
du ĠliĠyuĠ
quan ĠjiaĠ
jue ĠheĠ
tou ĠjiĠ
bie ĠyuĠ
wa ĠfuĠ
76 Ġ
ĠzhiĠ shao
ĠliĠ fangĠmiĠ
ĠzaiĠ yanĠ
fuĠ shouĠ
wuĠ jingĠ
ĠbuĠ luĠkeĠ
chengĠ xu
xianĠ xiĠ
ĠqiĠ guoĠ
riĠ guiĠ
ĠxiĠ qiĠ
dongĠ junĠ
ciĠ chuĠ
baoĠ ziĠ
huaĠ qiaoĠ
qianĠ huiĠ
xiaoĠ yeĠ
nanĠ xianĠ
laiĠ yinĠheĠ
luoĠ ruĠ
duoĠ nao
shanĠ shanĠ
tuĠ boĠ
ĠdanĠ xingĠ
ĠziĠ danĠ
tingĠ yongĠ
puĠ tongĠdeĠ
hanĠ wenĠ
ĠzhuĠ jueĠ
cengĠ jingĠzaiĠ
ĠfaĠ lanĠxiĠ
ouĠ meiĠ
tuoĠ yangĠheĠtangĠheĠ
ĠshangĠ mianĠ
ĠzhangĠ ziĠ
ĠyanĠ jingĠ
leĠyiĠ xie
ĠĠĠshengĠ yaĠ
jiĠyiĠ laiĠ
zhanĠshiĠ leĠ
jiaoĠtongĠ daĠxueĠ
dangĠdiĠ renĠ
sheĠzhiĠ leĠ
ĠN ET
ĠsiĠteĠ laĠ
Ġhuang ĠjinĠ
lvĠkeĠ lieĠcheĠ
ĠjiĠtuan ĠyouĠxianĠgongĠsiĠ
kuoĠzhanĠ daoĠ
Ġ45 Ġ
ĠĠĠ190 1ĠnianĠ
aĠerĠbeiĠsiĠ shengĠ
chaĠzhiĠ dingĠdiĠquĠ
ĠlianĠheĠtaiĠfengĠjingĠbao ĠzhongĠxinĠ
BLAC KP
b ra
Ġ gongĠheĠ
Ġ liangĠweiĠ
zhi ĠyiĠgeĠ
zhong ĠyiĠzhiĠ
xia ĠrenĠ
[...]
