{"!":0,"\"":1,"#":2,"$":3,"%":4,"&":5,"'":6,"(":7,")":8,"*":9,"+":10,",":11,"-":12,".":13,"/":14,"0":15,"1":16,"2":17,"3":18,"4":19,"5":20,"6":21,"7":22,"8":23,"9":24,":":25,";":26,"=":27,"?":28,"@":29,"A":30,"B":31,"C":32,"D":33,"E":34,"F":35,"G":36,"H":37,"I":38,"J":39,"K":40,"L":41,"M":42,"N":43,"O":44,"P":45,"Q":46,"R":47,"S":48,"T":49,"U":50,"V":51,"W":52,"X":53,"Y":54,"Z":55,"[":56,"\\":57,"]":58,"^":59,"_":60,"`":61,"a":62,"b":63,"c":64,"d":65,"e":66,"f":67,"g":68,"h":69,"i":70,"j":71,"k":72,"l":73,"m":74,"n":75,"o":76,"p":77,"q":78,"r":79,"s":80,"t":81,"u":82,"v":83,"w":84,"x":85,"y":86,"z":87,"|":88,"~":89,"¡":90,"¢":91,"£":92,"¤":93,"¥":94,"¦":95,"§":96,"¨":97,"©":98,"ª":99,"«":100,"¬":101,"®":102,"¯":103,"°":104,"±":105,"²":106,"³":107,"´":108,"µ":109,"¶":110,"·":111,"¸":112,"¹":113,"º":114,"»":115,"¼":116,"½":117,"¾":118,"¿":119,"Â":120,"Ã":121,"Ä":122,"Å":123,"Æ":124,"Ç":125,"È":126,"É":127,"Ê":128,"Ë":129,"Ì":130,"Í":131,"Î":132,"Ï":133,"Ð":134,"Ñ":135,"Ò":136,"Ó":137,"Ô":138,"Õ":139,"Ö":140,"×":141,"Ø":142,"Ù":143,"Ú":144,"Û":145,"Ü":146,"Þ":147,"ß":148,"à":149,"á":150,"â":151,"ã":152,"ä":153,"ê":154,"ë":155,"ì":156,"í":157,"î":158,"ï":159,"ð":160,"ñ":161,"Ċ":162,"Ġ":163,"ġ":164,"Ģ":165,"ģ":166,"Ĥ":167,"ĥ":168,"Ħ":169,"ħ":170,"Ĩ":171,"ĩ":172,"Ī":173,"ī":174,"Ĭ":175,"ĭ":176,"Į":177,"į":178,"İ":179,"ı":180,"Ĳ":181,"ĳ":182,"Ĵ":183,"ĵ":184,"Ķ":185,"ķ":186,"ĸ":187,"Ĺ":188,"ĺ":189,"Ļ":190,"ļ":191,"Ľ":192,"ľ":193,"Ŀ":194,"ŀ":195,"Ł":196,"ł":197,"Ń":198,"ng":199,"an":200,"sh":201,"zh":202,"ji":203,"ang":204,"ĠĠ":205,"ong":206,"xi":207,"ao":208,"ai":209,"de":210,"ei":211,"shi":212,"yu":213,"ou":214,"yi":215,"en":216,"ch":217,"ian":218,"uo":219,"eng":220,"li":221,"ĠĠĠ":222,"ãĢ":223,"ing":224,"ui":225,"wei":226,"uan":227,"zhi":228,"qi":229,"nian":230,"zhong":231,"you":232,"ren":233,"un":234,"zai":235,"di":236,"guo":237,"ãĢģ":238,"he":239,"bu":240,"er":241,"gong":242,"xing":243,"cheng":244,"da":245,"zhu":246,"hu":247,"yuan":248,"si":249,"jian":250,"yue":251,"ge":252,"fu":253,"xian":254,"ue":255,"ke":256,"wu":257,"chu":258,"shu":259,"sheng":260,"jie":261,"jia":262,"bi":263,"dao":264,"zi":265,"bei":266,"hui":267,"fa":268,"xiang":269,"ti":270,"zheng":271,"mi":272,"ta":273,"jin":274,"qu":275,"20":276,"tong":277,"ri":278,"ju":279,"jing":280,"ming":281,"le":282,"hou":283,"shang":284,"shou":285,"dong":286,"ci":287,"fang":288,"19":289,"hua":290,"yin":291,"xue":292,"guan":293,"zhan":294,"ye":295,"ying":296,"zuo":297,"zhe":298,"yan":299,"mei":300,"jiao":301,"gu":302,"chang":303,"xin":304,"dui":305,"lu":306,"bing":307,"bao":308,"fen":309,"dan":310,"huo":311,"jun":312,"jiang":313,"du":314,"xiao":315,"dian":316,"yong":317,"qian":318,"she":319,"tai":320,"xia":321,"mu":322,"wen":323,"gai":324,"zhang":325,"liang":326,"ya":327,"ru":328,"dai":329,"hai":330,"nan":331,"zhou":332,"zu":333,"wang":334,"lai":335,"ban":336,"jiu":337,"dang":338,"qing":339,"ping":340,"shen":341,"ãĢĭ":342,"ãĢĬ":343,"wan":344,"lian":345,"ling":346,"luo":347,"Â·":348,"min":349,"quan":350,"pi":351,"ni":352,"bo":353,"duo":354,"te":355,"ben":356,"gao":357,"biao":358,"suo":359,"la":360,"ma":361,"kai":362,"ba":363,"xie":364,"xu":365,"bian":366,"deng":367,"yao":368,"yang":369,"mian":370,"zhen":371,"ding":372,"qiu":373,"zui":374,"sai":375,"liu":376,"fan":377,"xuan":378,"fei":379,"san":380,"shan":381,"che":382,"zong":383,"men":384,"ãĢĮ":385,"ãĢį":386,"tu":387,"tian":388,"hao":389,"su":390,"lei":391,"nei":392,"yun":393,"201":394,"lan":395,"feng":396,"mo":397,"na":398,"ze":399,"lv":400,"han":401,"kou":402,"wai":403,"neng":404,"lin":405,"chuan":406,"chi":407,"jue":408,"bai":409,"pai":410,"200":411,"ku":412,"cai":413,"zao":414,"ting":415,"zhuan":416,"gang":417,"lie":418,"guang":419,"gui":420,"lun":421,"sui":422,"pu":423,"ceng":424,"kong":425,"shui":426,"10":427,"chao":428,"zhuang":429,"cha":430,"dou":431,"can":432,"tou":433,"ran":434,"se":435,"duan":436,"cun":437,"huan":438,"cong":439,"pin":440,"ce":441,"chan":442,"xun":443,"gou":444,"00":445,"nv":446,"zhao":447,"gan":448,"chong":449,"sha":450,"tan":451,"18":452,"qin":453,"ka":454,"meng":455,"qiang":456,"huang":457,"xiu":458,"12":459,"tiao":460,"man":461,"shao":462,"kuo":463,"long":464,"pian":465,"shuo":466,"tuan":467,"tang":468,"rong":469,"geng":470,"202":471,"chen":472,"tui":473,"gen":474,"que":475,"tie":476,"11":477,"qie":478,"wo":479,"po":480,"pei":481,"hang":482,"hong":483,"199":484,"bang":485,"liao":486,"chuang":487,"bie":488,"re":489,"tuo":490,"tao":491,"song":492,"wa":493,"mai":494,"ha":495,"15":496,"pan":497,"dun":498,"diao":499,"qiao":500,"sa":501,"mao":502,"lang":503,"kan":504,"kang":505,"âĢ":506,"or":507,"lao":508,"zeng":509,"16":510,"198":511,"kao":512,"xiong":513,"17":514,"on":515,"nuo":516,"miao":517,"rang":518,"kuang":519,"hen":520,"suan":521,"14":522,"30":523,"zhun":524,"13":525,"194":526,"cao":527,"hun":528,"qun":529,"nong":530,"197":531,"heng":532,"shuang":533,"lou":534,"gei":535,"kuai":536,"piao":537,"zha":538,"hei":539,"niu":540,"195":541,"sen":542,"bin":543,"reng":544,"zou":545,"196":546,"chun":547,"kuan":548,"25":549,"âĢĶ":550,"rui":551,"sun":552,"pao":553,"ning":554,"for":555,"pa":556,"cang":557,"mou":558,"24":559,"peng":560,"huai":561,"21":562,"193":563,"23":564,"mula":565,"formula":566,"28":567,"zan":568,"ruo":569,"in":570,"22":571,"chou":572,"zhui":573,"ar":574,"me":575,"26":576,"50":577,"2020":578,"27":579,"nai":580,"nu":581,"ï¼":582,"29":583,"shun":584,"2010":585,"za":586,"000":587,"lve":588,"zhai":589,"2019":590,"ne":591,"ro":592,"juan":593,"st":594,"ra":595,"cui":596,"kun":597,"2016":598,"luan":599,"2018":600,"cuo":601,"2021":602,"zang":603,"2014":604,"shuai":605,"2011":606,"2015":607,"2017":608,"2012":609,"40":610,"2013":611,"nao":612,"2022":613,"die":614,"ruan":615,"kui":616,"lt":617,"rou":618,"cu":619,"sang":620,"2009":621,"2008":622,"ãĥ":623,"60":624,"niao":625,"al":626,"rao":627,"chai":628,"100":629,"zhuo":630,"2023":631,"gt":632,"sou":633,"190":634,"31":635,"ken":636,"2007":637,"2001":638,"teng":639,"pang":640,"fou":641,"co":642,"fo":643,"gua":644,"2000":645,"80":646,"2006":647,"2024":648,"ãģ":649,"2005":650,"zun":651,"tion":652,"kua":653,"the":654,"35":655,"70":656,"nie":657,"lo":658,"of":659,"90":660,"leng":661,"ï¼į":662,"ãĤ":663,"am":664,"tun":665,"ter":666,"mie":667,"2004":668,"th":669,"to":670,"45":671,"48":672,"mang":673,"2025":674,"ve":675,"ga":676,"ãĢī":677,"ãĢĪ":678,"36":679,"38":680,"2003":681,"37":682,"Ma":683,"chui":684,"pen":685,"ll":686,"189":687,"IN":688,"2002":689,"keng":690,"TC":691,"do":692,"34":693,"75":694,"âĢĵ":695,"Co":696,"46":697,"ca":698,"1990":699,"âĢ¦":700,"ck":701,"39":702,"..":703,"be":704,"65":705,"32":706,"ST":707,"47":708,"UTC":709,"1999":710,"1998":711,"1980":712,"188":713,"500":714,"33":715,"In":716,"64":717,"ss":718,"The":719,"vi":720,"SE":721,"55":722,"1997":723,"Re":724,"hi":725,"49":726,"II":727,"el":728,"68":729,"et":730,"44":731,"1996":732,"oo":733,"qiong":734,"1994":735,"gun":736,"br":737,"guai":738,"1992":739,"1995":740,"Mi":741,"67":742,"and":743,"sao":744,"es":745,"1991":746,"1970":747,"58":748,"1950":749,"300":750,"1993":751,"187":752,"1949":753,"at":754,"AT":755,"pe":756,"1960":757,"42":758,"1945":759,"Li":760,"ver":761,"qia":762,"1988":763,"ty":764,"1989":765,"69":766,"Ro":767,"is":768,"run":769,"SEE":770,"niang":771,"INSEE":772,"ho":773,"59":774,"43":775,"66":776,"57":777,"1985":778,"99":779,"SA":780,"ãĢİ":781,"ãĢı":782,"ct":783,"1984":784,"41":785,"88":786,"1986":787,"wi":788,"ol":789,"ws":790,"TV":791,"ry":792,"150":793,"Me":794,"nd":795,"400":796,"1987":797,"78":798,"1982":799,"56":800,"beng":801,"Vi":802,"Pa":803,"ts":804,"1983":805,"amp":806,"NA":807,"De":808,"CD":809,"gh":810,"fi":811,"weng":812,"ber":813,"77":814,"Win":815,"per":816,"zuan":817,"Sta":818,"79":819,"OS":820,"Wi":821,"Â°":822,"ï½":823,"der":824,"180":825,"BC":826,"54":827,"1979":828,"61":829,"1920":830,"as":831,"Mo":832,"seng":833,"98":834,"52":835,"You":836,"1978":837,"no":838,"62":839,"53":840,"ly":841,"shua":842,"La":843,"ï½ŀ":844,"BA":845,"1946":846,"CO":847,"51":848,"1958":849,"gi":850,"Jo":851,"1981":852,"1972":853,"1948":854,"Le":855,"tw":856,"AM":857,"63":858,"AR":859,"ction":860,"1941":861,"BS":862,"Ga":863,"1930":864,"Da":865,"Pro":866,"Te":867,"76":868,"hans":869,"1940":870,"1937":871,"1976":872,"1944":873,"Ja":874,"89":875,"us":876,"Di":877,"Windo":878,"1975":879,"ï¼ı":880,"1968":881,"hk":882,"con":883,"Fi":884,"um":885,"Si":886,"1000":887,"Windows":888,"95":889,"87":890,"nal":891,"Mar":892,"1966":893,"rd":894,"85":895,"Ne":896,"Ra":897,"ki":898,"600":899,"120":900,"1947":901,"Se":902,"AC":903,"1956":904,"1964":905,"Be":906,"1942":907,"Ã©":908,"1955":909,"1952":910,"IS":911,"ad":912,"1939":913,"1938":914,"72":915,"ur":916,"74":917,"Ca":918,"va":919,"1973":920,"1974":921,"1954":922,"Ar":923,"Al":924,"ED":925,"1900":926,"--":927,"AP":928,"1943":929,"To":930,"1977":931,"ld":932,"1971":933,"cen":934,"lay":935,"1967":936,"Ba":937,"IC":938,"800":939,"Po":940,"Lo":941,"ER":942,"zhua":943,"sta":944,"86":945,"1959":946,"Bo":947,"tt":948,"1965":949,"JR":950,"1969":951,"Fa":952,"ãĥ»":953,"ÃĹ":954,"ID":955,"Bi":956,"son":957,"1936":958,"160":959,"97":960,"1953":961,"Sa":962,"MA":963,"1962":964,"1961":965,"nen":966,"Na":967,"âĶ":968,"So":969,"1935":970,"com":971,"Ho":972,"tic":973,"96":974,"ON":975,"ï¼ħ":976,"1951":977,"St":978,"1957":979,"1963":980,"Tu":981,"âĶĢ":982,"fe":983,"so":984,"ment":985,"84":986,"Hi":987,"2026":988,"82":989,"Do":990,"mer":991,"Ri":992,"73":993,"nt":994,"94":995,"92":996,"Ki":997,"Ha":998,"nang":999,"one":1000,"IP":1001,"AN":1002,"ls":1003,"1933":1004,"1931":1005,"les":1006,"71":1007,"nuan":1008,"Com":1009,"83":1010,"93":1011,"ted":1012,"Su":1013,"81":1014,"Ti":1015,"Mu":1016,"1918":1017,"Ni":1018,"HD":1019,"Uni":1020,"1928":1021,"pp":1022,"1932":1023,"Cha":1024,"We":1025,"ys":1026,"MV":1027,"SS":1028,"110":1029,"IT":1030,"1912":1031,"No":1032,"1929":1033,"1927":1034,"1934":1035,"cn":1036,"700":1037,"go":1038,"zei":1039,"ght":1040,"ster":1041,"250":1042,"91":1043,"rt":1044,"lli":1045,"1924":1046,"ris":1047,"...":1048,"1919":1049,"nve":1050,"130":1051,"Pi":1052,"1925":1053,"Gi":1054,"PS":1055,"by":1056,"ed":1057,"mes":1058,"An":1059,"PC":1060,"140":1061,"AS":1062,"Play":1063,"1914":1064,"km":1065,"DV":1066,"tio":1067,"YouTu":1068,"SM":1069,"ble":1070,"gra":1071,"ko":1072,"1911":1073,"Con":1074,"Ch":1075,"lla":1076,"1926":1077,"lle":1078,"Ge":1079,"Par":1080,"id":1081,"Ta":1082,"1922":1083,"Lin":1084,"mp":1085,"1917":1086,"He":1087,"Ka":1088,"ET":1089,"NBA":1090,"wn":1091,"IV":1092,"EN":1093,"1923":1094,"1921":1095,"shai":1096,"Goo":1097,"chuo":1098,"170":1099,"à¸":1100,"EC":1101,"MS":1102,"ali":1103,"AL":1104,"ph":1105,"section":1106,"YouTube":1107,"EP":1108,"BL":1109,"1913":1110,"Car":1111,"Bu":1112,"zen":1113,"HK":1114,"we":1115,"hn":1116,"mm":1117,"ven":1118,"hant":1119,"âĨ":1120,"1909":1121,"sion":1122,"Inter":1123,"cro":1124,"MP":1125,"AI":1126,"Wor":1127,"Pe":1128,"ds":1129,"US":1130,"pro":1131,"DVD":1132,"ok":1133,"3000":1134,"En":1135,"1910":1136,"DS":1137,"RO":1138,"cou":1139,"Ste":1140,"sis":1141,"112":1142,"Go":1143,"rk":1144,"AK":1145,"RE":1146,"1916":1147,"Wa":1148,"lia":1149,"ãĥ¼":1150,"Station":1151,"For":1152,"Net":1153,"ff":1154,"Î±":1155,"oft":1156,"ine":1157,"den":1158,"lor":1159,"rea":1160,"tional":1161,"gn":1162,"ture":1163,"gle":1164,"CP":1165,"UN":1166,"âĪ":1167,"ard":1168,"1915":1169,"gin":1170,"1905":1171,"ps":1172,"FC":1173,"cal":1174,"vo":1175,"dia":1176,"My":1177,"CN":1178,"âĦ":1179,"âĨĴ":1180,"our":1181,"shiĠ":1182,"deĠ":1183,"ĠshiĠ":1184,"ĠdeĠ":1185,"yiĠ":1186,"ĠyiĠ":1187,"jiĠ":1188,"weiĠ":1189,"zhiĠ":1190,"yuĠ":1191,"ĠweiĠ":1192,"ĠjiĠ":1193,"Ġnian":1194,"ĠzhiĠ":1195,"ĠyuĠ":1196,"Ġli":1197,"ĠnianĠ":1198,"zhongĠ":1199,"ĠliĠ":1200,"zaiĠ":1201,"renĠ":1202,"youĠ":1203,"guoĠ":1204,"heĠ":1205,"qiĠ":1206,"buĠ":1207,"diĠ":1208,"ĠyouĠ":1209,"ĠzaiĠ":1210,"ĠrenĠ":1211,"Ġyue":1212,"ĠzhongĠ":1213,"ĠheĠ":1214,"daĠ":1215,"xiĠ":1216,"xingĠ":1217,"yuanĠ":1218,"erĠ":1219,"gongĠ":1220,"ĠyueĠ":1221,"fuĠ":1222,"siĠ":1223,"geĠ":1224,"jianĠ":1225,"ĠguoĠ":1226,"wuĠ":1227,"jiaĠ":1228,"ĠbuĠ":1229,"jieĠ":1230,"keĠ":1231,"chengĠ":1232,"zhuĠ":1233,"shengĠ":1234,"xiangĠ":1235,"xianĠ":1236,"daoĠ":1237,"beiĠ":1238,"ziĠ":1239,"ĠqiĠ":1240,"faĠ":1241,"huiĠ":1242,"chuĠ":1243,"jinĠ":1244,"ĠdiĠ":1245,"shuĠ":1246,"ĠerĠ":1247,"riĠ":1248,"ĠxiĠ":1249,"juĠ":1250,"quĠ":1251,"zhengĠ":1252,"houĠ":1253,"shouĠ":1254,"mingĠ":1255,"shangĠ":1256,"dongĠ":1257,"leĠ":1258,"taĠ":1259,"jingĠ":1260,"xueĠ":1261,"fangĠ":1262,"yanĠ":1263,"zhanĠ":1264,"ciĠ":1265,"baoĠ":1266,"huaĠ":1267,"yingĠ":1268,"yeĠ":1269,"tongĠ":1270,"zuoĠ":1271,"zheĠ":1272,"guanĠ":1273,"ĠdaĠ":1274,"ĠriĠ":1275,"yinĠ":1276,"changĠ":1277,"xinĠ":1278,"jiaoĠ":1279,"luĠ":1280,"duiĠ":1281,"wenĠ":1282,"tiĠ":1283,"fenĠ":1284,"qianĠ":1285,"taiĠ":1286,"jiangĠ":1287,"xiaoĠ":1288,"bingĠ":1289,"ĠsiĠ":1290,"junĠ":1291,"dianĠ":1292,"zhangĠ":1293,"pingĠ":1294,"xiaĠ":1295,"duĠ":1296,"huoĠ":1297,"yongĠ":1298,"danĠ":1299,"ĠkeĠ":1300,"ĠjiaĠ":1301,"haiĠ":1302,"gaiĠ":1303,"wangĠ":1304,"daiĠ":1305,"nanĠ":1306,"ruĠ":1307,"qingĠ":1308,"muĠ":1309,"biĠ":1310,"banĠ":1311,"liangĠ":1312,"laiĠ":1313,"meiĠ":1314,"yaĠ":1315,"shenĠ":1316,"ĠfuĠ":1317,"ĠxingĠ":1318,"zuĠ":1319,"wanĠ":1320,"sheĠ":1321,"lianĠ":1322,"minĠ":1323,"miĠ":1324,"zhouĠ":1325,"anĠ":1326,"jiuĠ":1327,"qiuĠ":1328,"zhenĠ":1329,"benĠ":1330,"xuĠ":1331,"gaoĠ":1332,"ĠtaĠ":1333,"boĠ":1334,"xieĠ":1335,"teĠ":1336,"bianĠ":1337,"lingĠ":1338,"luoĠ":1339,"yaoĠ":1340,"dengĠ":1341,"duoĠ":1342,"yangĠ":1343,"quanĠ":1344,"cheĠ":1345,"suoĠ":1346,"zuiĠ":1347,"tianĠ":1348,"guĠ":1349,"biaoĠ":1350,"fanĠ":1351,"huĠ":1352,"yunĠ":1353,"xuanĠ":1354,"suĠ":1355,"shanĠ":1356,"feiĠ":1357,"dingĠ":1358,"liuĠ":1359,"zongĠ":1360,"saiĠ":1361,"dangĠ":1362,"maĠ":1363,"kaiĠ":1364,"baĠ":1365,"haoĠ":1366,"ĠdeĠyiĠ":1367,"ĠbingĠ":1368,"ĠdaoĠ":1369,"fengĠ":1370,"kouĠ":1371,"tuĠ":1372,"mianĠ":1373,"menĠ":1374,"neiĠ":1375,"laĠ":1376,"leiĠ":1377,"sanĠ":1378,"caiĠ":1379,"waiĠ":1380,"chuanĠ":1381,"jueĠ":1382,"paiĠ":1383,"chiĠ":1384,"ĠdanĠ":1385,"ĠjinĠ":1386,"ĠbeiĠ":1387,"ĠgongĠ":1388,"ĠjianĠ":1389,"guangĠ":1390,"ĠshiĠyiĠ":1391,"lanĠ":1392,"niĠ":1393,"guiĠ":1394,"baiĠ":1395,"ĠziĠ":1396,"linĠ":1397,"tingĠ":1398,"ĠzheĠ":1399,"puĠ":1400,"ĠxiangĠ":1401,"naĠ":1402,"gangĠ":1403,"lunĠ":1404,"nengĠ":1405,"hanĠ":1406,"lieĠ":1407,"zeĠ":1408,"ĠzhuĠ":1409,"chengĠweiĠ":1410,"moĠ":1411,"ĠyinĠ":1412,"ĠgeĠ":1413,"ĠxianĠ":1414,"ĠchuĠ":1415,"ĠshiĠdeĠ":1416,"meiĠguoĠ":1417,"chanĠ":1418,"shuiĠ":1419,"ĠjuĠ":1420,"ĠchengĠ":1421,"ĠdeĠshiĠ":1422,"ĠjieĠ":1423,"ĠgaiĠ":1424,"ĠwuĠ":1425,"suiĠ":1426,"xunĠ":1427,"zhuanĠ":1428,"ĠbaoĠ":1429,"ĠpingĠ":1430,"lvĠ":1431,"Ġta":1432,"aoĠ":1433,"zhuangĠ":1434,"liĠ":1435,"touĠ":1436,"duanĠ":1437,"ĠyiĠjiĠ":1438,"eĠ":1439,"seĠ":1440,"huanĠ":1441,"chongĠ":1442,"ĠweiĠyuĠ":1443,"1Ġ":1444,"cengĠ":1445,"pinĠ":1446,"aĠ":1447,"congĠ":1448,"chaĠ":1449,"diĠyiĠ":1450,"cunĠ":1451,"douĠ":1452,"zaoĠ":1453,"ĠhouĠ":1454,"kongĠ":1455,"zhaoĠ":1456,"gouĠ":1457,"ganĠ":1458,"shaĠ":1459,"ĠciĠ":1460,"qiangĠ":1461,"ceĠ":1462,"ĠshiĠjiĠ":1463,"chaoĠ":1464,"2Ġ":1465,"mengĠ":1466,"kaiĠshiĠ":1467,"ĠyeĠ":1468,"manĠ":1469,"tangĠ":1470,"longĠ":1471,"aiĠ":1472,"Ġdan":1473,"kuoĠ":1474,"keĠyiĠ":1475,"ĠfaĠ":1476,"ĠyuanĠ":1477,"ĠyiĠgeĠ":1478,"tanĠ":1479,"tuanĠ":1480,"ĠshengĠ":1481,"ĠshiĠweiĠ":1482,"kaĠ":1483,"gongĠliĠ":1484,"ĠzhongĠguoĠ":1485,"qinĠ":1486,"Ġtong":1487,"tieĠ":1488,"ĠshiĠshiĠ":1489,"Ġbing":1490,"zhengĠfuĠ":1491,"ĠmingĠ":1492,"shaoĠ":1493,"canĠ":1494,"pianĠ":1495,"Ġyou":1496,"huoĠdeĠ":1497,"mianĠjiĠ":1498,"hangĠ":1499,"hongĠ":1500,"gengĠ":1501,"ĠhuoĠ":1502,"jiĠdeĠ":1503,"ĠshiĠyongĠ":1504,"tiaoĠ":1505,"xiuĠ":1506,"chenĠ":1507,"shuoĠ":1508,"piĠ":1509,"ĠdongĠ":1510,"renĠweiĠ":1511,"ĠshiĠjianĠ":1512,"taoĠ":1513,"zhiĠyiĠ":1514,"ranĠ":1515,"zhongĠdeĠ":1516,"zhengĠzhiĠ":1517,"huangĠ":1518,"ĠyiĠzhiĠ":1519,"ĠshiĠjieĠ":1520,"zhongĠguoĠ":1521,"Ġri":1522,"yueĠ":1523,"chuangĠ":1524,"nvĠ":1525,"quĠdeĠ":1526,"guoĠjiĠ":1527,"3Ġ":1528,"yiĠshiĠ":1529,"ĠpingĠfangĠ":1530,"woĠ":1531,"renĠkouĠ":1532,"xingĠdeĠ":1533,"poĠ":1534,"ouĠ":1535,"jinĠxingĠ":1536,"rongĠ":1537,"ĠshouĠ":1538,"liaoĠ":1539,"tuoĠ":1540,"diaoĠ":1541,"meiĠyouĠ":1542,"songĠ":1543,"ĠsuiĠ":1544,"ĠliĠdeĠ":1545,"nianĠ":1546,"ĠliĠshiĠ":1547,"Ġdang":1548,"ĠweiĠyuanĠ":1549,"peiĠ":1550,"ĠmiĠ":1551,"panĠ":1552,"ĠqiĠzhongĠ":1553,"ĠhaoĠ":1554,"ĠfenĠ":1555,"zuoĠweiĠ":1556,"gongĠsiĠ":1557,"faĠguoĠ":1558,"biaoĠshiĠ":1559,"ĠwanĠ":1560,"ĠĠĠzaiĠ":1561,"yanĠjiuĠ":1562,"Ġer":1563,"zhengĠshiĠ":1564,"ĠhaiĠ":1565,"Ġyin":1566,"ĠshangĠ":1567,"ĠdeĠjiĠ":1568,"tuiĠ":1569,"queĠ":1570,"Ġzhe":1571,"dianĠshiĠ":1572,"yunĠdongĠ":1573,"ĠxinĠ":1574,"qieĠ":1575,"bangĠ":1576,"ĠmeiĠ":1577,"ĠdeĠdiĠ":1578,"ĠtaiĠ":1579,"chengĠshiĠ":1580,"zhiĠshiĠ":1581,"ĠjiangĠ":1582,"ĠjingĠ":1583,"ĠshuĠ":1584,"jianĠdeĠ":1585,"taĠdeĠ":1586,"gongĠheĠ":1587,"shuĠyuĠ":1588,"sheĠjiĠ":1589,"ĠqianĠ":1590,"langĠ":1591,"ĠrenĠminĠ":1592,"dunĠ":1593,"ĠrenĠkouĠ":1594,"zhiĠdeĠ":1595,"qiaoĠ":1596,"10ĠyueĠ":1597,"12ĠyueĠ":1598,"ĠdeĠzhiĠ":1599,"jingĠjiĠ":1600,"ĠyingĠ":1601,"7ĠyueĠ":1602,"dianĠyingĠ":1603,"ĠxiaĠ":1604,"ĠnanĠ":1605,"zuĠzhiĠ":1606,"9ĠyueĠ":1607,"ĠmuĠ":1608,"ĠzhangĠ":1609,"8ĠyueĠ":1610,"zhuĠyiĠ":1611,"3ĠyueĠ":1612,"ĠzuiĠ":1613,"1ĠyueĠ":1614,"maoĠ":1615,"ĠshiĠqiĠ":1616,"daiĠbiaoĠ":1617,"waĠ":1618,"riĠbenĠ":1619,"yingĠguoĠ":1620,"5Ġ":1621,"5ĠyueĠ":1622,"youĠyiĠ":1623,"jiĠshiĠ":1624,"kaoĠ":1625,"6ĠyueĠ":1626,"4Ġ":1627,"guoĠdeĠ":1628,"kanĠ":1629,"4ĠyueĠ":1630,"reĠ":1631,"ĠhuiĠ":1632,"ĠshiĠzhenĠ":1633,"henĠ":1634,"maiĠ":1635,"xianĠdeĠ":1636,"weiĠyiĠ":1637,"11ĠyueĠ":1638,"cheĠzhanĠ":1639,"jiaoĠyuĠ":1640,"ĠtongĠ":1641,"genĠjuĠ":1642,"buĠfenĠ":1643,"yiĠdeĠ":1644,"daĠxueĠ":1645,"yuĠshiĠ":1646,"ĠbiĠ":1647,"xiangĠgangĠ":1648,"mingĠweiĠ":1649,"xueĠyuanĠ":1650,"ĠdeĠguoĠ":1651,"ĠyiĠyuanĠ":1652,"liĠshiĠ":1653,"ĠdeĠyiĠgeĠ":1654,"ĠzhiĠhouĠ":1655,"ĠruĠ":1656,"genĠ":1657,"danĠrenĠ":1658,"ĠnianĠ1ĠyueĠ":1659,"ĠdengĠ":1660,"canĠjiaĠ":1661,"ĠyiĠweiĠ":1662,"caoĠ":1663,"kangĠ":1664,"sheĠhuiĠ":1665,"ĠtiĠ":1666,"xianĠshiĠ":1667,"ĠdiĠquĠ":1668,"ĠqingĠ":1669,"saĠ":1670,"yingĠxiangĠ":1671,"taiĠwanĠ":1672,"shuĠdeĠ":1673,"Ġran":1674,"bieĠ":1675,"ĠyouĠyuĠ":1676,"shangĠdeĠ":1677,"xingĠshiĠ":1678,"yeĠshiĠ":1679,"qiĠshiĠ":1680,"ĠyinĠciĠ":1681,"formulaĠ":1682,"ĠyanĠ":1683,"guanĠliĠ":1684,"laoĠ":1685,"zengĠ":1686,"gongĠzuoĠ":1687,"tongĠguoĠ":1688,"ĠxueĠ":1689,"leĠyiĠ":1690,"ĠnianĠ12ĠyueĠ":1691,"ĠxiaoĠ":1692,"ĠlingĠ":1693,"xingĠzhengĠ":1694,"buĠdeĠ":1695,"gongĠheĠguoĠ":1696,"6Ġ":1697,"weiĠshiĠ":1698,"ĠliĠyaĠ":1699,"ĠnianĠdeĠ":1700,"erĠshiĠ":1701,"renĠdeĠ":1702,"zhunĠ":1703,"ziĠjiĠ":1704,"daĠdeĠ":1705,"2ĠyueĠ":1706,"xiongĠ":1707,"sĠ":1708,"ĠguoĠjiaĠ":1709,"zuiĠzhongĠ":1710,"ĠnianĠ3ĠyueĠ":1711,"huiĠyiĠ":1712,"kuangĠ":1713,"ĠĠĠshengĠ":1714,"nongĠ":1715,"chengĠliĠ":1716,"ĠliangĠ":1717,"ĠpingĠfangĠgongĠliĠ":1718,"luoĠsiĠ":1719,"kuĠ":1720,"ĠnianĠ7ĠyueĠ":1721,"ĠjiaoĠ":1722,"ĠnianĠ10ĠyueĠ":1723,"faĠxianĠ":1724,"chuĠdeĠ":1725,"miaoĠ":1726,"haĠ":1727,"ĠwangĠ":1728,"ĠzhanĠ":1729,"qiĠdeĠ":1730,"ĠbaoĠkuoĠ":1731,"faĠzhanĠ":1732,"ĠnianĠ9ĠyueĠ":1733,"heiĠ":1734,"yuanĠdeĠ":1735,"ĠshiĠyouĠ":1736,"ĠshiĠzhiĠ":1737,"qiĠtaĠ":1738,"ĠnianĠ5ĠyueĠ":1739,"ĠqiĠjianĠ":1740,"piaoĠ":1741,"ĠtianĠ":1742,"suoĠyouĠ":1743,"kuaiĠ":1744,"siĠdeĠ":1745,"ĠboĠ":1746,"ĠnianĠ4ĠyueĠ":1747,"ĠnianĠ6ĠyueĠ":1748,"ĠnianĠ8ĠyueĠ":1749,"youĠyuĠ":1750,"ĠluoĠ":1751,"tieĠluĠ":1752,"ĠdaĠxueĠ":1753,"quanĠguoĠ":1754,"ĠshiĠzaiĠ":1755,"daoĠzhiĠ":1756,"daoĠdeĠ":1757,"tongĠdeĠ":1758,"zhuĠyaoĠ":1759,"chengĠdeĠ":1760,"canĠyuĠ":1761,"louĠ":1762,"nuoĠ":1763,"shuangĠ":1764,"wenĠhuaĠ":1765,"ĠzhengĠ":1766,"sĠĠĠ":1767,"ĠmaĠ":1768,"ĠhuaĠ":1769,"diĠliĠ":1770,"ĠtaĠmenĠ":1771,"ĠduiĠ":1772,"zhongĠyiĠ":1773,"lianĠheĠ":1774,"ĠluĠ":1775,"diĠdeĠ":1776,"ĠzhiĠdaoĠ":1777,"ĠdangĠ":1778,"ĠguĠ":1779,"ĠnianĠ11ĠyueĠ":1780,"ĠtongĠshiĠ":1781,"ĠshenĠ":1782,"baoĠkuoĠ":1783,"buĠshiĠ":1784,"ĠzhongĠxinĠ":1785,"yinĠyueĠ":1786,"ĠĠĠshiĠ":1787,"beiĠbuĠ":1788,"ĠjiuĠ":1789,"shuĠjiĠ":1790,"yongĠyuĠ":1791,"senĠ":1792,"ĠĠĠyiĠ":1793,"tiĠgongĠ":1794,"ĠquanĠ":1795,"zaiĠyiĠ":1796,"xuanĠbuĠ":1797,"ĠzongĠ":1798,"guoĠjiaĠ":1799,"ĠweiĠyuanĠhuiĠ":1800,"zuĠqiuĠ":1801,"wenĠtiĠ":1802,"Ġsui":1803,"kuanĠ":1804,"ĠnianĠzhiĠ":1805,"ĠzuoĠ":1806,"xueĠxiaoĠ":1807,"ĠyinĠweiĠ":1808,"shengĠyuĠ":1809,"ĠshiĠwuĠ":1810,"jianĠyuĠ":1811,"ziĠyouĠ":1812,"enĠ":1813,"qianĠmiĠ":1814,"gongĠyouĠ":1815,"guanĠxiĠ":1816,"fangĠshiĠ":1817,"ĠweiĠzhiĠ":1818,"ĠshiĠzhongĠ":1819,"hunĠ":1820,"ĠnianĠ2ĠyueĠ":1821,"ĠĠĠS":1822,"ĠxuĠ":1823,"biĠsaiĠ":1824,"huaĠrenĠminĠ":1825,"yingĠdeĠ":1826,"chengĠyuanĠ":1827,"rangĠ":1828,"jianĠzhuĠ":1829,"huoĠdongĠ":1830,"ĠC":1831,"jianĠliĠ":1832,"Ġgai":1833,"hengĠ":1834,"suanĠ":1835,"yuĠyiĠ":1836,"ĠĠĠliĠshiĠ":1837,"jiĠyiĠ":1838,"fenĠweiĠ":1839,"ĠdeĠrenĠ":1840,"zuoĠpinĠ":1841,"sheĠyouĠ":1842,"renĠshiĠ":1843,"tongĠshiĠ":1844,"guanĠjunĠ":1845,"ĠdianĠ":1846,"ĠchangĠ":1847,"ĠbenĠ":1848,"daĠliĠ":1849,"geĠrenĠ":1850,"ĠĠĠshengĠpingĠ":1851,"ĠchengĠweiĠ":1852,"zhuanĠjiĠ":1853,"ĠanĠ":1854,"Ġjie":1855,"yuĠdeĠ":1856,"Ġxian":1857,"ĠdiĠerĠ":1858,"beiĠjingĠ":1859,"ĠjiĠhuaĠ":1860,"ĠyouĠxiĠ":1861,"jiuĠshiĠ":1862,"xiaoĠshiĠ":1863,"ĠliuĠ":1864,"huaĠrenĠminĠgongĠheĠguoĠ":1865,"yinĠweiĠ":1866,"ĠtaĠdeĠ":1867,"geiĠ":1868,"menĠdeĠ":1869,"ĠliĠyuĠ":1870,"qunĠ":1871,"ĠnianĠdaiĠ":1872,"duiĠyuĠ":1873,"ĠbaĠ":1874,"xiĠdeĠ":1875,"mingĠdeĠ":1876,"ĠaĠ":1877,"junĠshiĠ":1878,"diĠshiĠ":1879,"tongĠyiĠ":1880,"ĠcongĠ":1881,"diĠerĠ":1882,"xinĠdeĠ":1883,"xueĠjiaĠ":1884,"quĠyuĠ":1885,"ĠbuĠfenĠ":1886,"ĠA":1887,"eĠluoĠsiĠ":1888,"zouĠ":1889,"taĠmenĠ":1890,"chunĠ":1891,"erĠdeĠ":1892,"ĠduoĠ":1893,"weiĠdeĠ":1894,"shouĠdaoĠ":1895,"minĠguoĠ":1896,"houĠdeĠ":1897,"shengĠdeĠ":1898,"laiĠdeĠ":1899,"fangĠmianĠ":1900,"faĠshengĠ":1901,"zhengĠfu":1902,"gongĠjiĠ":1903,"danĠweiĠ":1904,"xingĠweiĠ":1905,"ĠshiĠrenĠ":1906,"ĠyiĠjingĠ":1907,"ĠfengĠ":1908,"yongĠyouĠ":1909,"ĠhuĠ":1910,"ĠfanĠ":1911,"Ġ18":1912,"zhongĠshiĠ":1913,"jinĠshiĠ":1914,"ĠxiĠtongĠ":1915,"jueĠdingĠ":1916,"buĠyuĠ":1917,"ĠS":1918,"ĠlianĠ":1919,"ĠzhongĠyangĠ":1920,"juĠyouĠ":1921,"ĠmianĠjiĠ":1922,"1ĠriĠ":1923,"ĠquĠ":1924,"tongĠzhiĠ":1925,"diĠquĠ":1926,"niĠyaĠ":1927,"liangĠgeĠ":1928,"faĠxingĠ":1929,"7Ġ":1930,"quĠweiĠ":1931,"ĠriĠbenĠ":1932,"ĠguanĠ":1933,"ĠfeiĠ":1934,"ĠgaoĠ":1935,"youĠdeĠ":1936,"chuĠxianĠ":1937,"shengĠjiĠ":1938,"ĠwenĠ":1939,"ĠteĠ":1940,"zhĠ":1941,"huaĠdeĠ":1942,"ĠrenĠkouĠmiĠ":1943,"ciĠshiĠ":1944,"Ġ15":1945,"qiĠyuĠ":1946,"ziĠzhiĠ":1947,"wuĠdeĠ":1948,"ĠsuoĠ":1949,"juĠxingĠ":1950,"laiĠziĠ":1951,"ĠtaĠzaiĠ":1952,"lingĠyiĠ":1953,"jiaĠdeĠ":1954,"ĠjiĠyuĠ":1955,"xianĠzhiĠ":1956,"ĠweiĠjiĠ":1957,"mianĠjiĠweiĠ":1958,"Ġsuo":1959,"huiĠdeĠ":1960,"ĠsuĠ":1961,"baoĠhuĠ":1962,"ĠsanĠ":1963,"nanĠbuĠ":1964,"duĠliĠ":1965,"ĠpingĠfangĠqianĠmiĠ":1966,"shuĠjuĠ":1967,"kongĠzhiĠ":1968,"ĠshiĠyuĠ":1969,"zongĠtongĠ":1970,"jinĠruĠ":1971,"ĠshiĠweiĠyuĠ":1972,"ĠliĠruĠ":1973,"renĠwuĠ":1974,"quĠshiĠ":1975,"keĠliĠ":1976,"yaoĠqiuĠ":1977,"mouĠ":1978,"Ġ0":1979,"ĠwoĠ":1980,"ĠĠĠA":1981,"8Ġ":1982,"ĠĠĠdeĠ":1983,"ĠmeiĠguoĠ":1984,"gtĠ":1985,"ĠgtĠ":1986,"guĠshiĠ":1987,"chengĠjiĠ":1988,"ĠranĠerĠ":1989,"ĠguangĠ":1990,"ltĠ":1991,"Ġru":1992,"xueĠshengĠ":1993,"ĠĠĠyuĠ":1994,"jinĠdeĠ":1995,"ĠbianĠ":1996,"ĠdanĠshiĠ":1997,"wanĠchengĠ":1998,"minĠzhuĠ":1999,"gongĠshiĠ":2000,"ĠyiĠqiĠ":2001,"lieĠcheĠ":2002,"ĠĠĠC":2003,"youĠjiĠ":2004,"ĠcaiĠ":2005,"keĠnengĠ":2006,"ĠltĠ":2007,"ĠyiĠbuĠ":2008,"Ġ16":2009,"shenĠzhiĠ":2010,"ĠbingĠyuĠ":2011,"zhaĠ":2012,"renĠzhiĠ":2013,"pingĠfangĠ":2014,"youĠshiĠ":2015,"ĠbingĠzaiĠ":2016,"ĠjiĠshuĠ":2017,"chaoĠguoĠ":2018,"ĠyongĠ":2019,"tiĠyuĠ":2020,"yuanĠshiĠ":2021,"cangĠ":2022,"Ġa":2023,"cunĠzaiĠ":2024,"qianĠwangĠ":2025,"keĠdeĠ":2026,"yaĠliĠ":2027,"dangĠshiĠ":2028,"siĠshiĠ":2029,"xueĠxiĠ":2030,"yongĠdeĠ":2031,"ĠdeĠyiĠge":2032,"jingĠguoĠ":2033,"neiĠdeĠ":2034,"faĠbuĠ":2035,"Ġwan":2036,"Ġceng":2037,"ĠshanĠ":2038,"zuoĠdeĠ":2039,"ĠzhiĠweiĠ":2040,"jianĠyiĠ":2041,"guanĠyuĠ":2042,"ĠhanĠ":2043,"ĠkaiĠ":2044,"ĠĠĠdiĠ":2045,"wuĠkeĠ":2046,"wuĠshiĠ":2047,"xiangĠgang":2048,"zhuĠrenĠ":2049,"ĠzhiĠjianĠ":2050,"ĠgongĠliĠ":2051,"yinĠduĠ":2052,"ĠpuĠ":2053,"zhanĠshiĠ":2054,"zhanĠzhengĠ":2055,"ĠqiĠtaĠ":2056,"guoĠshiĠ":2057,"sunĠ":2058,"paoĠ":2059,"Ġba":2060,"zhuĠyao":2061,"shengĠhuoĠ":2062,"zhouĠdeĠ":2063,"xuĠduoĠ":2064,"jianĠzhiĠ":2065,"ĠjiĠweiĠ":2066,"fanĠweiĠ":2067,"ĠyiĠshuĠ":2068,"binĠ":2069,"ĠjiĠqiĠ":2070,"ĠweiĠerĠ":2071,"chengĠgongĠ":2072,"hanĠguoĠ":2073,"ouĠzhouĠ":2074,"zhuĠxiĠ":2075,"luĠdeĠ":2076,"jieĠshouĠ":2077,"qiuĠduiĠ":2078,"ĠzhiĠyouĠ":2079,"ĠshuĠyuĠ":2080,"daiĠbiao":2081,"Ġzai":2082,"ĠjiĠzhongĠ":2083,"fuĠwuĠ":2084,"Ġjin":2085,"zengĠjiaĠ":2086,"ĠbuĠguoĠ":2087,"banĠdeĠ":2088,"gongĠyuanĠ":2089,"ĠyouĠxianĠ":2090,"Ġ000":2091,"xiaoĠxingĠ":2092,"ĠmoĠ":2093,"xiaĠdeĠ":2094,"ĠĠĠgaiĠ":2095,"ĠzheĠxieĠ":2096,"shangĠhaiĠ":2097,"ĠzhiĠchuĠ":2098,"heĠyiĠ":2099,"duoĠdeĠ":2100,"ĠaoĠ":2101,"houĠyiĠ":2102,"sanĠshiĠ":2103,"ĠĠĠzhiĠ":2104,"ĠbaiĠ":2105,"ĠciĠwaiĠ":2106,"fuĠdeĠ":2107,"juĠliĠ":2108,"ningĠ":2109,"siĠjiĠ":2110,"huaiĠ":2111,"zuĠchengĠ":2112,"tĠ":2113,"ĠgenĠjuĠ":2114,"yunĠdongĠyuanĠ":2115,"jiaoĠtongĠ":2116,"ĠzhiĠzuoĠ":2117,"ĠzhiĠchiĠ":2118,"maĠweiĠ":2119,"gaoĠduĠ":2120,"ĠB":2121,"changĠdeĠ":2122,"tĠĠĠ":2123,"ĠnianĠqiĠ":2124,"zhuĠjiaoĠ":2125,"ĠzhĠ":2126,"Ġ17":2127,"zheĠxieĠ":2128,"niuĠ":2129,"geĠzhongĠ":2130,"xuĠyaoĠ":2131,"ĠzhiĠwuĠ":2132,"ĠzaiĠciĠ":2133,"jueĠseĠ":2134,"chongĠxinĠ":2135,"chuĠleĠ":2136,"tiĠdeĠ":2137,"tuiĠchuĠ":2138,"ĠcengĠ":2139,"ĠliĠjiĠ":2140,"zheĠgeĠ":2141,"jingĠliĠ":2142,"xiangĠdeĠ":2143,"ĠzuiĠzhongĠ":2144,"gongĠchengĠ":2145,"ĠdangĠshiĠ":2146,"qiĠyiĠ":2147,"daĠshiĠ":2148,"chuĠyuĠ":2149,"ĠrenĠheĠ":2150,"wuĠzhongĠ":2151,"duĠweiĠ":2152,"renĠminĠ":2153,"ziĠdeĠ":2154,"Ġai":2155,"ĠsheĠ":2156,"xuanĠjuĠ":2157,"lianĠsaiĠ":2158,"ĠĠĠdiĠliĠ":2159,"ziĠjiĠdeĠ":2160,"yĠ":2161,"Ġye":2162,"ĠweiĠleĠ":2163,"ĠrenĠwuĠ":2164,"geĠquĠ":2165,"ĠduĠ":2166,"Ġhuo":2167,"kaiĠfaĠ":2168,"ĠnianĠjianĠ":2169,"dangĠdiĠ":2170,"Ġma":2171,"fuĠzeĠ":2172,"ĠĠĠweiĠ":2173,"xianĠzaiĠ":2174,"ĠweiĠqiĠ":2175,"gongĠchanĠ":2176,"ĠlaiĠ":2177,"ĠzhiĠyuĠ":2178,"ĠrenĠyuanĠ":2179,"zheĠyiĠ":2180,"liangĠweiĠ":2181,"jieĠshuĠ":2182,"yaĠdeĠ":2183,"chuĠliĠ":2184,"jieĠmuĠ":2185,"guanĠdeĠ":2186,"nvĠziĠ":2187,"saiĠshiĠ":2188,"ĠleiĠ":2189,"2010ĠnianĠ":2190,"ĠE":2191,"dingĠdeĠ":2192,"ruiĠ":2193,"duiĠdeĠ":2194,"riĠben":2195,"fanĠyingĠ":2196,"ĠhouĠlaiĠ":2197,"chuĠbanĠ":2198,"jieĠdeĠ":2199,"chanĠshengĠ":2200,"shouĠciĠ":2201,"ĠbanĠ":2202,"juanĠ":2203,"sheĠshiĠ":2204,"leiĠsiĠ":2205,"ĠshiĠyiĠgeĠ":2206,"dongĠwuĠ":2207,"baĠshiĠ":2208,"ĠyangĠ":2209,"jingĠshiĠ":2210,"ĠjiĠxuĠ":2211,"leĠbuĠ":2212,"ĠnaĠ":2213,"jieĠshiĠ":2214,"xiangĠshiĠ":2215,"boĠshiĠ":2216,"anĠdeĠ":2217,"ruoĠ":2218,"keĠneng":2219,"nanĠziĠ":2220,"dĠĠĠ":2221,"yĠĠĠ":2222,"duĠdeĠ":2223,"guanĠxiaĠ":2224,"ĠdaiĠ":2225,"ĠD":2226,"sanĠnianĠ":2227,"zaoĠchengĠ":2228,"ĠaiĠ":2229,"Ġjiang":2230,"haiĠshiĠ":2231,"yangĠdeĠ":2232,"Ġmei":2233,"dongĠshiĠ":2234,"sheĠliĠ":2235,"Ġ1Ġ":2236,"yanĠjiu":2237,"Ġ10":2238,"zhongĠzhiĠ":2239,"daoĠleĠ":2240,"shanĠxiĠ":2241,"ĠP":2242,"guoĠyiĠ":2243,"ĠzhenĠ":2244,"ĠjiĠzhiĠ":2245,"ĠsuoĠyiĠ":2246,"ĠyaĠ":2247,"zhongĠyuĠ":2248,"fenĠbuĠ":2249,"nvĠxingĠ":2250,"ĠheĠzuoĠ":2251,"douĠshiĠ":2252,"junĠdeĠ":2253,"guoĠyuĠ":2254,"9Ġ":2255,"ĠĠĠqiĠ":2256,"dongĠdeĠ":2257,"lianĠmengĠ":2258,"daiĠdeĠ":2259,"zhengĠdeĠ":2260,"fangĠfaĠ":2261,"ĠzhiĠzhiĠ":2262,"Ġãĥ":2263,"2020ĠnianĠ":2264,"ĠyiĠsiĠ":2265,"jiaoĠshouĠ":2266,"wuĠliĠ":2267,"xiangĠmuĠ":2268,"caiĠyongĠ":2269,"fangĠdeĠ":2270,"meiĠpingĠfangĠ":2271,"zhengĠzhiĠrenĠwuĠ":2272,"diĠweiĠ":2273,"liangĠdeĠ":2274,"Ġcong":2275,"ĠtuĠ":2276,"ĠzaiĠdiĠ":2277,"ĠĠĠrenĠkouĠ":2278,"ĠT":2279,"AĠ":2280,"chuanĠtongĠ":2281,"yuanĠyuĠ":2282,"zhanĠdeĠ":2283,"zhuĠdeĠ":2284,"ĠxuanĠ":2285,"ĠãĤ":2286,"ĠĠĠyouĠ":2287,"huaĠminĠguoĠ":2288,"ĠM":2289,"xiĠtongĠ":2290,"chengĠrenĠ":2291,"ĠriĠzaiĠ":2292,"Ġãģ":2293,"jiaĠruĠ":2294,"faĠdeĠ":2295,"geĠshiĠ":2296,"2001ĠnianĠ":2297,"ĠguiĠ":2298,"ĠzeĠ":2299,"ĠnianĠyiĠ":2300,"xinĠwenĠ":2301,"yanĠyuanĠ":2302,"ĠranĠ":2303,"haoĠdeĠ":2304,"ĠliĠsiĠ":2305,"ĠjiĠjiĠ":2306,"fuĠshiĠ":2307,"ĠĠĠjiĠ":2308,"Ġbei":2309,"ĠyiĠhuiĠ":2310,"xiangĠguanĠ":2311,"yingĠyuĠ":2312,"daoĠshiĠ":2313,"bianĠmaĠweiĠ":2314,"taiĠwan":2315,"heĠshiĠ":2316,"ĠjiĠluĠ":2317,"boĠwuĠ":2318,"xueĠdeĠ":2319,"houĠzaiĠ":2320,"ĠweiĠfuĠ":2321,"lianĠjieĠ":2322,"ĠtaĠmen":2323,"ĠdeĠyiĠgeĠshiĠzhenĠ":2324,"baoĠkuo":2325,"ĠyiĠyiĠ":2326,"ĠxueĠmingĠ":2327,"xiĠjiĠ":2328,"zuiĠjiaĠ":2329,"mingĠchengĠ":2330,"tiĠchuĠ":2331,"ĠxiĠyaĠ":2332,"muĠsiĠ":2333,"lingĠshiĠ":2334,"ĠzheĠshiĠ":2335,"erĠnianĠ":2336,"xiaoĠdeĠ":2337,"haiĠyouĠ":2338,"Ġ14":2339,"mianĠdeĠ":2340,"ĠweiĠzhuĠ":2341,"ĠrenĠkouĠmiĠduĠ":2342,"ĠxieĠ":2343,"geĠdeĠ":2344,"ĠliĠyiĠ":2345,"ĠzhiĠjieĠ":2346,"zuiĠgaoĠ":2347,"ĠlaĠ":2348,"Ġzong":2349,"dongĠjiĠ":2350,"ĠĠĠjiaĠ":2351,"ĠshiĠyiĠzhongĠ":2352,"ĠyeĠshiĠ":2353,"mĠ":2354,"ĠzhouĠ":2355,"dĠ":2356,"yanĠdeĠ":2357,"xiaĠjiĠ":2358,"ĠyuĠshiĠ":2359,"geĠmingĠ":2360,"yeĠyuĠ":2361,"Ġci":2362,"ĠgongĠsiĠ":2363,"ĠnianĠzaiĠ":2364,"yaoĠdeĠ":2365,"gaiĠweiĠ":2366,"ĠyiĠxieĠ":2367,"zaiĠdeĠ":2368,"haiĠjunĠ":2369,"shuĠshiĠ":2370,"ĠfangĠ":2371,"jiaĠzhiĠ":2372,"ĠÐ":2373,"ĠjunĠ":2374,"ĠqiuĠ":2375,"zheĠzhongĠ":2376,"shengĠwuĠ":2377,"ĠkaĠ":2378,"changĠshiĠ":2379,"huiĠshiĠ":2380,"yanĠzhongĠ":2381,"gaiĠguoĠ":2382,"naĠdaĠ":2383,"Ġ1":2384,"zhuĠshiĠ":2385,"Ġliang":2386,"ĠĠĠB":2387,"zhengĠyiĠ":2388,"bianĠdeĠ":2389,"Ġ2":2390,"qingĠkuang":2391,"zhaiĠ":2392,"keĠjiĠ":2393,"huiĠfuĠ":2394,"ĠzhiĠqianĠ":2395,"meiĠtiĠ":2396,"zaiĠyuĠ":2397,"xinĠxiĠ":2398,"luanĠ":2399,"jieĠguoĠ":2400,"ĠzuoĠweiĠ":2401,"ĠyiĠzhongĠ":2402,"gaoĠdeĠ":2403,"wenĠwuĠ":2404,"jianĠshiĠ":2405,"qiĠzhiĠ":2406,"ĠjiĠzaiĠ":2407,"minĠzuĠ":2408,"yanĠchangĠ":2409,"shuiĠyuĠ":2410,"qianĠdeĠ":2411,"heĠdeĠ":2412,"Ġ2Ġ":2413,"ĠH":2414,"ĠniĠ":2415,"zhuĠjianĠ":2416,"chouĠ":2417,"fanĠduiĠ":2418,"ĠĠĠP":2419,"nengĠliĠ":2420,"ĠweiĠyouĠ":2421,"ĠkeĠsiĠ":2422,"Ġ12":2423,"ĠĠĠxingĠzhengĠ":2424,"gongĠkaiĠ":2425,"geĠliĠ":2426,"Ġ3":2427,"huaĠshiĠ":2428,"ĠbuĠtongĠ":2429,"xingĠzhiĠ":2430,"siĠyuĠ":2431,"Ġmi":2432,"leiĠdeĠ":2433,"ĠkeĠyiĠ":2434,"ĠzhuĠyaoĠ":2435,"beiĠshiĠ":2436,"ĠchongĠ":2437,"huanĠjingĠ":2438,"jieĠgouĠ":2439,"jiangĠjunĠ":2440,"zhangĠdeĠ":2441,"xianĠyuĠ":2442,"ĠxiangĠgangĠ":2443,"gaoĠsuĠ":2444,"chuangĠzuoĠ":2445,"shangĠyeĠ":2446,"pengĠ":2447,"ĠĠĠbenĠ":2448,"zanĠ":2449,"ĠĠĠformulaĠ":2450,"ĠzheĠgeĠ":2451,"saiĠjiĠ":2452,"moĠshiĠ":2453,"aĠerĠ":2454,"zheĠdeĠ":2455,"biaoĠxianĠ":2456,"ĠdiĠyiĠ":2457,"tongĠjiĠ":2458,"ĠzhongĠhuaĠrenĠminĠgongĠheĠguoĠ":2459,"ĠhongĠ":2460,"junĠduiĠ":2461,"Ġling":2462,"ĠliĠweiĠ":2463,"daĠluĠ":2464,"ĠchenĠ":2465,"ĠF":2466,"shengĠyaĠ":2467,"zhuĠliĠ":2468,"geĠyueĠ":2469,"shengĠliĠ":2470,"quanĠliĠ":2471,"wuĠfaĠ":2472,"zongĠjiaoĠ":2473,"ĠtangĠ":2474,"dongĠbuĠ":2475,"zhouĠshiĠ":2476,"geĠlanĠ":2477,"ĠyunĠ":2478,"ĠnianĠshiĠ":2479,"diaoĠchaĠ":2480,"siĠnianĠ":2481,"touĠguoĠ":2482,"ĠyiĠbanĠ":2483,"buĠfen":2484,"biaoĠzhunĠ":2485,"ĠĠĠgenĠjuĠ":2486,"hangĠkongĠ":2487,"biĠyeĠ":2488,"huiĠzaiĠ":2489,"ĠĠĠciĠ":2490,"shenĠfenĠ":2491,"ĠyiĠciĠ":2492,"ĠdangĠdiĠ":2493,"diĠzhiĠ":2494,"gongĠluĠ":2495,"ĠyaoĠ":2496,"faĠyuanĠ":2497,"ĠneiĠ":2498,"ĠdeĠyiĠbuĠfenĠ":2499,"buĠyiĠ":2500,"diĠyuĠ":2501,"jiaĠliĠ":2502,"gongĠzuo":2503,"jinĠjiĠ":2504,"chengĠzhongĠ":2505,"bingĠbuĠ":2506,"saiĠdeĠ":2507,"ĠtaiĠwanĠ":2508,"quanĠbuĠ":2509,"baĠgaoĠduĠ":2510,"ĠG":2511,"ĠjiĠtuanĠ":2512,"xieĠhuiĠ":2513,"feiĠchangĠ":2514,"jiaoĠshiĠ":2515,"anĠquanĠ":2516,"dongĠhuaĠ":2517,"ĠzhiĠxingĠ":2518,"biĠdeĠ":2519,"ĠhuangĠ":2520,"chaĠdeĠ":2521,"ĠbingĠqie":2522,"Ġming":2523,"ĠlinĠ":2524,"shengĠchanĠ":2525,"ziĠliaoĠ":2526,"fuĠheĠ":2527,"jingĠdeĠ":2528,"tuanĠtiĠ":2529,"Ġ4":2530,"jieĠzhiĠ":2531,"luoĠmaĠ":2532,"beiĠrenĠ":2533,"ĠĠĠT":2534,"chaoĠxianĠ":2535,"gaiĠdiĠ":2536,"fenĠbie":2537,"dingĠyiĠ":2538,"xingĠdongĠ":2539,"xiaĠyiĠ":2540,"jinĠbiaoĠ":2541,"pingĠjunĠ":2542,"Ġliu":2543,"wenĠxueĠ":2544,"ĠjinĠxingĠ":2545,"qingĠkuangĠ":2546,"ĠzhuanĠ":2547,"duĠshiĠ":2548,"Ġ5":2549,"renĠkouĠpuĠ":2550,"ĠruĠguoĠ":2551,"laĠsiĠ":2552,"jiaĠjiĠ":2553,"gongĠgongĠ":2554,"jieĠfangĠ":2555,"ĠzhiĠyuanĠ":2556,"juĠminĠ":2557,"ĠzhiĠhuiĠ":2558,"ĠqiĠhouĠ":2559,"dongĠbeiĠ":2560,"shouĠdeĠ":2561,"ĠbaoĠkuo":2562,"Ġgu":2563,"shangĠshiĠ":2564,"yanĠchuĠ":2565,"ĠjiĠdiĠ":2566,"sheĠzhiĠ":2567,"Ġwo":2568,"Ġfen":2569,"qiuĠyuanĠ":2570,"yuanĠyiĠ":2571,"ĠyuĠjiĠ":2572,"saiĠzhongĠ":2573,"ĠĠĠM":2574,"keĠxueĠ":2575,"yanĠshiĠ":2576,"Ġda":2577,"gongĠtongĠ":2578,"lingĠdaoĠ":2579,"renĠyiĠ":2580,"Ġ13":2581,"ĠzuĠ":2582,"ĠchuanĠ":2583,"ĠĠĠthe":2584,"zuoĠpin":2585,"erĠjiĠ":2586,"zuoĠyouĠ":2587,"Ġnan":2588,"faĠbiaoĠ":2589,"Ġsi":2590,"ĠdeĠzhuĠ":2591,"zaiĠshiĠ":2592,"28ĠriĠ":2593,"aoĠyunĠ":2594,"kongĠjianĠ":2595,"yeĠyouĠ":2596,"xingĠjiĠ":2597,"gaiĠbianĠ":2598,"sanĠgeĠ":2599,"ĠI":2600,"wuĠzhiĠ":2601,"dengĠdiĠ":2602,"ĠlingĠwaiĠ":2603,"ĠĠĠF":2604,"lĠ":2605,"jiaĠshiĠ":2606,"ĠdiĠguoĠ":2607,"youĠxiĠ":2608,"yuanĠheĠ":2609,"fangĠzhiĠ":2610,"Ġjiu":2611,"dengĠrenĠ":2612,"ĠzhaoĠ":2613,"ĠerĠshiĠ":2614,"xueĠshiĠ":2615,"guanĠzhongĠ":2616,"lanĠdeĠ":2617,"ĠĠĠG":2618,"luĠxianĠ":2619,"xueĠweiĠ":2620,"ĠdanĠrenĠ":2621,"shuĠweiĠ":2622,"zeĠshiĠ":2623,"juĠdeĠ":2624,"baoĠdaoĠ":2625,"ĠliĠzhiĠ":2626,"qiĠweiĠ":2627,"heĠjiĠ":2628,"chuĠrenĠ":2629,"lveĠ":2630,"zhuiĠ":2631,"buĠtongĠ":2632,"qingĠnianĠ":2633,"2008ĠnianĠ":2634,"guoĠliĠ":2635,"zuoĠyongĠ":2636,"aoĠlinĠ":2637,"bangĠzhuĠ":2638,"piĠkeĠ":2639,"2016ĠnianĠ":2640,"gongĠdeĠ":2641,"ĠhuoĠdeĠ":2642,"zaoĠdaoĠ":2643,"ĠkeĠnengĠ":2644,"aiĠerĠ":2645,"ĠyuĠqiĠ":2646,"ĠĠĠzhongĠ":2647,"ĠriĠzhiĠ":2648,"ĠfuĠzeĠ":2649,"jiangĠqiĠ":2650,"zuĠdeĠ":2651,"danĠquĠ":2652,"ĠyuĠyanĠ":2653,"juĠjiĠ":2654,"luĠdiĠ":2655,"tongĠchangĠ":2656,"ĠcheĠ":2657,"guiĠdaoĠ":2658,"ĠyouĠguanĠ":2659,"ĠdaĠdaoĠ":2660,"15ĠriĠ":2661,"banĠbenĠ":2662,"Ġ9":2663,"shouĠjiĠ":2664,"ĠyiĠyouĠ":2665,"taĠmen":2666,"feiĠjiĠ":2667,"ĠyiĠyuĠ":2668,"tuĠdiĠ":2669,"xianĠdaiĠ":2670,"yuanĠnianĠ":2671,"ĠbingĠqieĠ":2672,"2009ĠnianĠ":2673,"yaĠzhouĠ":2674,"maĠliĠ":2675,"shengĠdeĠyiĠgeĠshiĠzhenĠ":2676,"ĠzhiĠjianĠdeĠ":2677,"xiĠbanĠ":2678,"bianĠhuaĠ":2679,"ĠmuĠqianĠ":2680,"jieĠheĠ":2681,"jingĠneiĠ":2682,"ĠĠĠjuĠ":2683,"ĠshiĠxingĠ":2684,"gongĠyeĠ":2685,"ĠshuiĠ":2686,"huiĠheĠ":2687,"jueĠsaiĠ":2688,"wuĠnianĠ":2689,"taiĠpingĠ":2690,"jiaĠyiĠ":2691,"zhengĠceĠ":2692,"houĠyuĠ":2693,"ĠdingĠ":2694,"2011ĠnianĠ":2695,"ĠsiĠkeĠ":2696,"neiĠrongĠ":2697,"2012ĠnianĠ":2698,"zaoĠqiĠ":2699,"meiĠyuanĠ":2700,"ĠÃ":2701,"ĠweiĠzhongĠ":2702,"guangĠboĠ":2703,"Ġmo":2704,"Ġha":2705,"zhanĠyiĠ":2706,"ĠpaiĠ":2707,"xianĠrenĠ":2708,"Ġ8":2709,"taĠzaiĠ":2710,"jiaoĠyiĠ":2711,"piĠpingĠ":2712,"xingĠchengĠ":2713,"ĠhaiĠbaĠgaoĠduĠ":2714,"25ĠriĠ":2715,"jiaoĠhuiĠ":2716,"ĠN":2717,"miaoĠshuĠ":2718,"ĠbuĠduiĠ":2719,"wanĠquanĠ":2720,"ĠzhiĠyeĠ":2721,"ĠerĠsiĠ":2722,"xuanĠzeĠ":2723,"ĠdanĠzaiĠ":2724,"yuanĠyinĠ":2725,"ĠsiĠteĠ":2726,"ĠtaĠyuĠ":2727,"UTCĠ":2728,"ĠĠĠE":2729,"boĠliĠ":2730,"paĠ":2731,"zaoĠdeĠ":2732,"ĠK":2733,"ĠheĠwuĠ":2734,"jianĠsheĠ":2735,"ĠyueĠdeĠ":2736,"xieĠyiĠ":2737,"Ġ7":2738,"chuĠshiĠ":2739,"xiaoĠshuoĠ":2740,"wuĠkeĠlanĠ":2741,"changĠqiĠ":2742,"yunĠdongĠhuiĠ":2743,"beiĠchengĠweiĠ":2744,"lianĠbangĠ":2745,"Ġ6":2746,"ĠdiĠsanĠ":2747,"ĠweiĠdiĠ":2748,"30ĠriĠ":2749,"ĠjianĠchengĠ":2750,"ĠdangĠzhongĠ":2751,"ĠshiĠyanĠ":2752,"ĠdeĠdaoĠ":2753,"chiĠxuĠ":2754,"zuiĠdaĠ":2755,"wenĠhua":2756,"20ĠriĠ":2757,"mingĠmingĠ":2758,"ĠeĠ":2759,"zuĠheĠ":2760,"yuanĠzhuĠ":2761,"dianĠziĠ":2762,"duoĠshuĠ":2763,"seĠdeĠ":2764,"zhuanĠyeĠ":2765,"ĠrenĠweiĠ":2766,"ĠtaĠshiĠ":2767,"xingĠyuĠ":2768,"ĠyiĠmingĠ":2769,"2014ĠnianĠ":2770,"houĠlaiĠ":2771,"Ġqie":2772,"10ĠriĠ":2773,"linĠshiĠ":2774,"gongĠsi":2775,"erĠweiĠ":2776,"shengĠheĠ":2777,"ĠyouĠchengĠ":2778,"wuĠyuanĠ":2779,"buĠliĠ":2780,"jieĠdaoĠ":2781,"ĠL":2782,"fuĠzhiĠ":2783,"baĠliĠ":2784,"ziĠgeĠ":2785,"chuĠqiĠ":2786,"2018ĠnianĠ":2787,"buĠjiĠ":2788,"TĠ":2789,"2019ĠnianĠ":2790,"Ġ5Ġ":2791,"erĠziĠ":2792,"ĠĠĠof":2793,"dongĠnanĠ":2794,"gaoĠzhongĠ":2795,"10Ġ":2796,"faĠlvĠ":2797,"taĠmenĠdeĠ":2798,"ĠmengĠ":2799,"ĠjiĠgouĠ":2800,"zaĠzhiĠ":2801,"ĠdiĠsiĠ":2802,"ĠjiĠjinĠ":2803,"Ġ11":2804,"ĠshiĠweiĠyuĠmeiĠguoĠ":2805,"daĠdaoĠ":2806,"yeĠdeĠ":2807,"ĠjinĠguanĠ":2808,"2013ĠnianĠ":2809,"ĠweiĠyuĠgaiĠguoĠ":2810,"ĠguoĠminĠ":2811,"kuiĠ":2812,"faĠzhan":2813,"aĠlaĠ":2814,"ĠyueĠzhiĠ":2815,"ĠliĠkeĠ":2816,"Ġ3Ġ":2817,"ĠmianĠ":2818,"tuĠerĠ":2819,"shengĠweiĠ":2820,"ĠshiĠjieĠdaĠ":2821,"baoĠgaoĠ":2822,"zhongĠjiĠ":2823,"24ĠriĠ":2824,"daoĠyiĠ":2825,"2015ĠnianĠ":2826,"ĠliĠyongĠ":2827,"ĠliĠkaiĠ":2828,"fangĠxiangĠ":2829,"guiĠdingĠ":2830,"Ġsan":2831,"neiĠbuĠ":2832,"ĠyuĠzhongĠ":2833,"guoĠminĠ":2834,"guangĠdongĠ":2835,"wangĠdeĠ":2836,"ĠsuiĠhouĠ":2837,"boĠwuĠguanĠ":2838,"luoĠdeĠ":2839,"26ĠriĠ":2840,"canĠsaiĠ":2841,"Ġke":2842,"ĠyueĠshiĠ":2843,"ĠyingĠguoĠ":2844,"ĠgengĠ":2845,"ĠzheĠzhongĠ":2846,"2007ĠnianĠ":2847,"muĠbiaoĠ":2848,"ĠweiĠsiĠ":2849,"sheĠquĠ":2850,"ĠyuĠzhiĠ":2851,"guanĠzhiĠ":2852,"ĠtongĠnianĠ":2853,"nĠ":2854,"dianĠliĠ":2855,"2005ĠnianĠ":2856,"gongĠchanĠdangĠ":2857,"ĠxunĠ":2858,"18ĠriĠ":2859,"ĠyouĠqiĠ":2860,"xianĠyiĠ":2861,"ĠxiĠlieĠ":2862,"dieĠ":2863,"ĠO":2864,"ĠwaiĠ":2865,"ĠfenĠbuĠyuĠ":2866,"aoĠlinĠpiĠkeĠ":2867,"bingĠweiĠ":2868,"lianĠxiĠ":2869,"gongĠbuĠ":2870,"ĠjiĠchangĠ":2871,"fuĠliĠ":2872,"juĠbanĠ":2873,"muĠdeĠ":2874,"ĠchuĠleĠ":2875,"ĠshaĠ":2876,"Ġ2001ĠnianĠ":2877,"lieĠdeĠ":2878,"ĠshiĠheĠ":2879,"ĠĠĠD":2880,"changĠweiĠ":2881,"ĠganĠ":2882,"quanĠqiuĠ":2883,"wuĠxianĠ":2884,"ĠerĠshengĠ":2885,"biĠliĠ":2886,"shenĠdeĠ":2887,"ĠĠĠH":2888,"touĠziĠ":2889,"teĠbie":2890,"ĠshiĠziĠ":2891,"2017ĠnianĠ":2892,"muĠdiĠ":2893,"yinĠhangĠ":2894,"16ĠriĠ":2895,"ĠjiĠheĠ":2896,"dingĠweiĠ":2897,"shangĠshuĠ":2898,"dongĠjingĠ":2899,"Ġduo":2900,"guanĠfangĠ":2901,"fuĠyiĠ":2902,"daoĠyuĠ":2903,"dangĠdeĠ":2904,"guoĠzhiĠ":2905,"17ĠriĠ":2906,"paiĠsheĠ":2907,"rĠ":2908,"ziĠyuĠ":2909,"huaĠxueĠ":2910,"shouĠyuĠ":2911,"kaiĠfangĠ":2912,"ĠyouĠxianĠgongĠsiĠ":2913,"ĠĠĠzhengĠzhiĠ":2914,"21ĠriĠ":2915,"buĠzhiĠ":2916,"ĠdeĠshiĠzhenĠ":2917,"gaiĠnianĠ":2918,"27ĠriĠ":2919,"ĠminĠ":2920,"baoĠfaĠ":2921,"ĠzhongĠxueĠ":2922,"zheĠshiĠ":2923,"kaĠerĠ":2924,"19ĠriĠ":2925,"2006ĠnianĠ":2926,"8ĠriĠ":2927,"mingĠziĠ":2928,"junĠweiĠ":2929,"ĠliĠfaĠ":2930,"yingĠyongĠ":2931,"12ĠriĠ":2932,"23ĠriĠ":2933,"shangĠyouĠ":2934,"ĠsongĠ":2935,"ceĠshiĠ":2936,"Ġque":2937,"ĠfuĠwuĠ":2938,"ĠyinĠci":2939,"xianĠweiĠ":2940,"suĠlianĠ":2941,"meiĠguoĠrenĠkouĠpuĠ":2942,"ĠdeĠweiĠ":2943,"7ĠriĠ":2944,"ĠqieĠ":2945,"feiĠxingĠ":2946,"ĠzhiĠjiĠ":2947,"shuĠliangĠweiĠ":2948,"qiĠjianĠ":2949,"deĠĠĠ":2950,"juĠleĠbuĠ":2951,"fuĠyuĠ":2952,"boĠchuĠ":2953,"yinĠshiĠ":2954,"xueĠzheĠ":2955,"huangĠdiĠ":2956,"lĠĠĠ":2957,"huiĠyuĠ":2958,"xiĠlieĠ":2959,"qiĠjiĠ":2960,"2021ĠnianĠ":2961,"banĠshiĠ":2962,"11ĠriĠ":2963,"ĠR":2964,"ĠdeĠzhongĠ":2965,"22ĠriĠ":2966,"guiĠmoĠ":2967,"ĠshiĠfaĠguoĠ":2968,"Ġ6Ġ":2969,"aĠĠĠ":2970,"biĠxuĠ":2971,"9ĠriĠ":2972,"lingĠyuĠ":2973,"shanĠdongĠ":2974,"gongĠnengĠ":2975,"29ĠriĠ":2976,"chuĠyiĠ":2977,"yinĠqiĠ":2978,"guanĠyuanĠ":2979,"kunĠ":2980,"yingĠshiĠ":2981,"teĠdeĠ":2982,"xunĠlianĠ":2983,"zuiĠdaĠdeĠ":2984,"zhengĠzaiĠ":2985,"ĠyueĠhanĠ":2986,"fengĠgeĠ":2987,"ĠjiĠbaiĠ":2988,"jingĠyingĠ":2989,"2022ĠnianĠ":2990,"fuĠjinĠ":2991,"tingĠzhiĠ":2992,"suoĠshuĠdeĠ":2993,"nengĠgouĠ":2994,"ĠĠĠtheĠĠĠ":2995,"3ĠriĠ":2996,"pingĠjiaĠ":2997,"shengĠmingĠ":2998,"14ĠriĠ":2999,"geĠdiĠ":3000,"21Ġ":3001,"zhuĠzaiĠ":3002,"qingĠkuangĠxiaĠ":3003,"yuanĠjiĠ":3004,"shouĠshiĠ":3005,"tiaoĠjianĠ":3006,"5ĠriĠ":3007,"jiaoĠdeĠ":3008,"shengĠzaiĠ":3009,"quĠhuaĠ":3010,"shengĠchan":3011,"20Ġ":3012,"taiĠdeĠ":3013,"xiĠshiĠ":3014,"meĠ":3015,"shangĠweiĠ":3016,"sheĠdeĠ":3017,"maiĠkeĠ":3018,"ĠĠĠyouĠyuĠ":3019,"yaĠyuĠ":3020,"jinĠzhiĠ":3021,"ĠsaiĠ":3022,"31ĠriĠ":3023,"ĠbuĠjiuĠ":3024,"jieĠchuĠ":3025,"ĠdaoĠzhiĠ":3026,"yuanĠzhiĠ":3027,"ĠdaĠhuiĠ":3028,"lianĠmeng":3029,"xiaoĠxingĠxingĠ":3030,"4ĠriĠ":3031,"2ĠriĠ":3032,"ĠlvĠ":3033,"chaoĠjiĠ":3034,"CĠ":3035,"xiongĠdiĠ":3036,"daĠjiĠ":3037,"ĠrenĠzhongĠ":3038,"zangĠ":3039,"ĠzuiĠhouĠ":3040,"6ĠriĠ":3041,"dianĠdeĠ":3042,"haiĠyuĠ":3043,"teĠzhengĠ":3044,"ĠgongĠchiĠ":3045,"geĠjiĠ":3046,"liuĠxingĠ":3047,"13ĠriĠ":3048,"nanĠxingĠ":3049,"boĠteĠ":3050,"wenĠwuĠbaoĠhuĠ":3051,"ĠnianĠdai":3052,"ĠsuiĠranĠ":3053,"geĠweiĠ":3054,"renĠheĠ":3055,"ĠkaiĠshiĠ":3056,"wuĠjiĠ":3057,"ĠhaoĠmiĠ":3058,"renĠjiĠ":3059,"manĠhuaĠ":3060,"lvĠyouĠ":3061,"zuoĠjiaĠ":3062,"keĠdaĠ":3063,"ĠpiĠ":3064,"siĠrenĠ":3065,"ĠtongĠguoĠ":3066,"geĠshouĠ":3067,"fenĠxiĠ":3068,"yinĠciĠ":3069,"ĠshenĠzhiĠ":3070,"huangĠjiaĠ":3071,"Ġxin":3072,"ouĠzhou":3073,"jianĠweiĠ":3074,"zongĠheĠ":3075,"shengĠfenĠ":3076,"ĠjueĠ":3077,"ĠqiangĠ":3078,"ĠlingĠyiĠ":3079,"Ġbr":3080,"xuĠduo":3081,"BĠ":3082,"lieĠche":3083,"juĠrenĠ":3084,"niuĠyueĠ":3085,"ĠbrĠ":3086,"ĠĠĠjinĠ":3087,"ciĠshiĠjieĠdaĠ":3088,"banĠdaoĠ":3089,"zhuĠtiĠ":3090,"zhongĠweiĠ":3091,"chengĠyiĠ":3092,"zaiĠweiĠ":3093,"zhuangĠtaiĠ":3094,"ĠyouĠmingĠ":3095,"qiĠnianĠ":3096,"ĠtaĠcengĠ":3097,"ĠsuiĠran":3098,"benĠdeĠ":3099,"bianĠweiĠ":3100,"fenĠziĠ":3101,"pinĠdaoĠ":3102,"ĠzaiĠqiĠ":3103,"youĠyiĠgeĠ":3104,"juĠzhongĠ":3105,"heĠliĠ":3106,"maoĠyiĠ":3107,"20ĠshiĠjiĠ":3108,"ĠzhiĠzhongĠ":3109,"buĠzhangĠ":3110,"renĠkouĠshuĠliangĠweiĠ":3111,"wangĠluoĠ":3112,"huiĠyouĠ":3113,"qianĠyiĠ":3114,"aoĠsiĠ":3115,"2004ĠnianĠ":3116,"shuoĠshiĠ":3117,"xuanĠshouĠ":3118,"jieĠduanĠ":3119,"ĠĠĠziĠ":3120,"gaoĠjiĠ":3121,"zhunĠbeiĠ":3122,"Ġgeng":3123,"ciĠdeĠ":3124,"ĠĠĠO":3125,"faĠshiĠ":3126,"EĠ":3127,"ĠheĠnanĠ":3128,"fangĠanĠ":3129,"fangĠyuĠ":3130,"ĠchiĠ":3131,"miĠerĠ":3132,"waiĠdeĠ":3133,"daĠxingĠ":3134,"duoĠciĠ":3135,"Ġ4Ġ":3136,"bingĠliĠ":3137,"Ġchen":3138,"gongĠzhongĠ":3139,"huiĠdaoĠ":3140,"beiĠdeĠ":3141,"ĠĠĠliĠ":3142,"moĠdeĠ":3143,"ĠyiĠlaiĠ":3144,"ciĠzhiĠ":3145,"fenĠzhiĠ":3146,"ĠriĠqiĠ":3147,"chengĠduĠ":3148,"buĠweiĠ":3149,"2000ĠnianĠ":3150,"shuĠguanĠ":3151,"liuĠnianĠ":3152,"ĠzhongĠbuĠ":3153,"wuĠqiĠ":3154,"ĠlanĠ":3155,"jieĠjiĠ":3156,"leĠyiĠgeĠ":3157,"yuanĠweiĠ":3158,"baoĠhanĠ":3159,"junĠzaiĠ":3160,"ĠdiĠfangĠ":3161,"dianĠshiĠtaiĠ":3162,"youĠzhiĠ":3163,"ziĠshiĠ":3164,"ĠdeĠyiĠzhongĠ":3165,"xingĠheĠ":3166,"ĠrenĠkou":3167,"ĠrenĠkouĠmiĠduĠweiĠ":3168,"Ġfan":3169,"juĠshiĠ":3170,"3ĠnianĠ":3171,"ĠgangĠ":3172,"dengĠjiĠ":3173,"luĠjunĠ":3174,"xiangĠtongĠ":3175,"xuanĠweiĠ":3176,"4ĠnianĠ":3177,"ĠdouĠ":3178,"zheĠjiangĠ":3179,"ĠyiĠshiĠ":3180,"zuiĠhouĠ":3181,"biaoĠyanĠ":3182,"qiuĠjiĠ":3183,"siĠwangĠ":3184,"gaiĠgeĠ":3185,"sheĠbeiĠ":3186,"ĠchaoĠ":3187,"ĠzhuĠyao":3188,"ĠweiĠyuĠfaĠguoĠ":3189,"meiĠzhouĠ":3190,"daĠliangĠ":3191,"nongĠyeĠ":3192,"duoĠgeĠ":3193,"ĠzhiĠjinĠ":3194,"dianĠshiĠjuĠ":3195,"houĠyouĠ":3196,"guĠjiĠ":3197,"ĠshiĠdaiĠ":3198,"ĠxiĠbanĠ":3199,"shangĠyiĠ":3200,"aiĠdeĠ":3201,"Ġzhao":3202,"yangĠshiĠ":3203,"Ġze":3204,"zhuĠyuĠ":3205,"guangĠchangĠ":3206,"liuĠshiĠ":3207,"zhanĠdouĠ":3208,"zaiĠjiĠ":3209,"faĠyuĠ":3210,"Ġzu":3211,"Ġxiang":3212,"ĠtouĠ":3213,"zhanĠkaiĠ":3214,"wenĠwuĠbaoĠhuĠdanĠweiĠ":3215,"Ġfei":3216,"ĠĠĠdaĠ":3217,"ĠzhiĠliĠ":3218,"jiaĠheĠ":3219,"tiaoĠyueĠ":3220,"ĠjiaĠruĠ":3221,"fuĠjianĠ":3222,"30Ġ":3223,"xieĠzhuĠ":3224,"ĠyiĠbeiĠ":3225,"ĠbuĠzaiĠ":3226,"chanĠpinĠ":3227,"muĠqianĠ":3228,"bianĠchengĠ":3229,"miĠdeĠ":3230,"nuĠ":3231,"huoĠdeĠleĠ":3232,"hangĠkong":3233,"jiangĠyuĠ":3234,"DĠ":3235,"ĠmeiĠyouĠ":3236,"youĠzhengĠ":3237,"6ĠnianĠ":3238,"renĠyuĠ":3239,"fenĠleiĠ":3240,"daoĠluĠ":3241,"gongĠyouĠrenĠkouĠ":3242,"yingĠjiĠ":3243,"duanĠdeĠ":3244,"naiĠ":3245,"ĠzhiĠzaiĠ":3246,"qunĠdaoĠ":3247,"ĠxianĠshiĠ":3248,"qingĠdeĠ":3249,"ĠfenĠbie":3250,"biaoĠzhun":3251,"zhenĠquĠ":3252,"ĠbeiĠqiĠ":3253,"haiĠbaĠ":3254,"ĠzheĠyiĠ":3255,"ĠJ":3256,"biĠjiaoĠ":3257,"naoĠ":3258,"ĠĠĠjianĠ":3259,"ĠqiĠyeĠ":3260,"zhanĠzheng":3261,"guiĠhuaĠ":3262,"shouĠduĠ":3263,"ĠliĠziĠ":3264,"ĠkeĠneng":3265,"cuoĠ":3266,"ĠxiĠwangĠ":3267,"ĠxingĠzhengĠ":3268,"suĠduĠ":3269,"juĠyuĠ":3270,"nvĠerĠ":3271,"xiĠbuĠ":3272,"ĠzhongĠhuaĠminĠguoĠ":3273,"xiĠweiĠ":3274,"ĠĠĠK":3275,"ĠbuĠhuiĠ":3276,"ĠfaĠguoĠ":3277,"ĠyiĠrenĠ":3278,"qiaoĠzhiĠ":3279,"ĠgongĠfenĠ":3280,"ĠzaiĠzhongĠ":3281,"meiĠpingĠfangĠgongĠliĠ":3282,"rongĠyuĠ":3283,"dongĠxiĠ":3284,"jiuĠshiĠzhenĠ":3285,"dongĠliĠ":3286,"ĠyiĠyangĠ":3287,"ĠdeĠshiĠjianĠ":3288,"jinĠgongĠ":3289,"diĠyiĠgeĠ":3290,"douĠyouĠ":3291,"Ġzhou":3292,"UĠ":3293,"siĠheĠ":3294,"ĠĠĠxiĠ":3295,"ĠchengĠquĠ":3296,"siĠweiĠ":3297,"maĠlai":3298,"henĠduoĠ":3299,"laĠdeĠ":3300,"2ĠnianĠ":3301,"Ġ00":3302,"kenĠ":3303,"taiĠbeiĠ":3304,"ruĠxiaĠ":3305,"zeĠrenĠ":3306,"quĠdaiĠ":3307,"ĠnvĠ":3308,"fuĠrenĠ":3309,"xianĠdeĠyiĠgeĠ":3310,"laĠkeĠ":3311,"ĠciĠhouĠ":3312,"jinĠbiaoĠsaiĠ":3313,"ĠyiĠxiaĠ":3314,"shangĠwuĠ":3315,"yuĠshiĠdeĠ":3316,"SĠ":3317,"ĠyuĠweiĠ":3318,"jianĠyouĠ":3319,"ĠerĠbeiĠ":3320,"zongĠliĠ":3321,"wangĠguoĠ":3322,"lianĠxuĠ":3323,"xiangĠduiĠ":3324,"quĠyiĠ":3325,"minĠzhongĠ":3326,"jieĠrang":3327,"ĠĠĠfuĠ":3328,"rengĠran":3329,"xiaoĠxiĠ":3330,"miĠshuĠ":3331,"tieĠdaoĠ":3332,"zhengĠgeĠ":3333,"ciĠjiĠ":3334,"zuiĠhouĠyiĠ":3335,"ĠĠĠzheĠ":3336,"Ġruo":3337,"7ĠnianĠ":3338,"jueĠdeĠ":3339,"renĠkouĠshuĠliangĠweiĠrenĠ":3340,"8ĠnianĠ":3341,"ĠheiĠ":3342,"ĠzhongĠxin":3343,"Ġtian":3344,"quanĠdeĠ":3345,"niaoĠ":3346,"ĠmanĠ":3347,"ĠĠĠzhuĠ":3348,"zhanĠlingĠ":3349,"xinĠjiaĠ":3350,"waiĠjiaoĠ":3351,"diĠsanĠ":3352,"jiaĠnaĠdaĠ":3353,"ĠkongĠ":3354,"ĠliĠshuĠyuĠ":3355,"ĠrenĠzaiĠ":3356,"tianĠzhuĠjiaoĠ":3357,"ĠĠĠL":3358,"zhenĠshiĠ":3359,"yeĠwuĠ":3360,"ĠINSEE":3361,"chengĠzhenĠ":3362,"ciĠyuĠ":3363,"qiĠta":3364,"ĠyingĠchiĠ":3365,"ĠnianĠjiĠ":3366,"ĠranĠhouĠ":3367,"yuanĠyouĠ":3368,"cengĠzaiĠ":3369,"ĠyouĠyiĠ":3370,"PĠ":3371,"Ġwu":3372,"daĠxue":3373,"jianĠchaĠ":3374,"1ĠnianĠ":3375,"zhengĠquanĠ":3376,"neĠ":3377,"shengĠchengĠ":3378,"shouĠgeĠ":3379,"zuoĠchuĠ":3380,"nanĠjiĠ":3381,"ĠdeĠshiĠhouĠ":3382,"ĠheĠbeiĠ":3383,"niĠsiĠ":3384,"juĠjueĠ":3385,"luĠshiĠ":3386,"jiaoĠweiĠ":3387,"0Ġ":3388,"quĠxiaoĠ":3389,"tiĠjiĠ":3390,"wangĠzhanĠ":3391,"dianĠjiĠ":3392,"ĠdeĠyuĠ":3393,"ĠjieĠzhiĠ":3394,"Ġrang":3395,"shengĠzhiĠ":3396,"cheĠliangĠ":3397,"ĠgaiĠshengĠ":3398,"heĠweiĠ":3399,"daĠliĠyaĠ":3400,"zhongĠxinĠ":3401,"duiĠzaiĠ":3402,"xianĠfaĠ":3403,"leĠjiĠ":3404,"tianĠwenĠ":3405,"heĠzhiĠ":3406,"diĠfangĠ":3407,"ziĠxingĠ":3408,"zhenĠdeĠ":3409,"lanĠxiĠ":3410,"ĠqiĠta":3411,"ĠerĠzaiĠ":3412,"ĠzongĠmianĠjiĠ":3413,"yunĠyingĠ":3414,"pĠ":3415,"jieĠjueĠ":3416,"ĠdeĠliĠ":3417,"2002ĠnianĠ":3418,"ĠriĠben":3419,"yeĠzaiĠ":3420,"2003ĠnianĠ":3421,"IĠ":3422,"moĠxiĠ":3423,"ĠshiĠchangĠ":3424,"ĠduiĠyuĠ":3425,"gongĠyiĠ":3426,"shuĠzhiĠ":3427,"ĠdiĠqiĠ":3428,"ĠjianĠzhuĠ":3429,"erĠzaiĠ":3430,"onĠ":3431,"shouĠweiĠ":3432,"dianĠying":3433,"ĠrenĠkouĠmiĠduĠmeiĠpingĠfangĠgongĠliĠ":3434,"xiaoĠxueĠ":3435,"yingĠxiang":3436,"chaĠdeĠshuĠjuĠ":3437,"youĠzhengĠbianĠmaĠweiĠ":3438,"ĠtiaoĠ":3439,"huiĠzhiĠ":3440,"puĠtaoĠ":3441,"ganĠdaoĠ":3442,"ĠxingĠchengĠ":3443,"ĠshiĠzhenĠbianĠmaĠweiĠ":3444,"ĠINSEEĠshiĠzhenĠbianĠmaĠweiĠ":3445,"qingĠshiĠ":3446,"teĠliĠ":3447,"zhuoĠ":3448,"ĠrenĠkouĠmiĠduĠweiĠmeiĠpingĠfangĠ":3449,"mengĠguĠ":3450,"muĠshiĠ":3451,"diĠyiĠciĠ":3452,"ĠĠĠbuĠ":3453,"ĠxiaĠlingĠshiĠ":3454,"xiĠliĠ":3455,"Ġhao":3456,"xuanĠquĠweiĠ":3457,"leiĠjiĠ":3458,"zuoĠzhanĠ":3459,"gaoĠyuĠ":3460,"niĠya":3461,"yuĠshiĠdeĠrenĠkouĠshuĠliangĠweiĠrenĠ":3462,"baoĠdeĠ":3463,"siĠzaiĠ":3464,"meiĠguoĠrenĠkouĠpuĠchaĠdeĠshuĠjuĠ":3465,"zuoĠyiĠ":3466,"luĠyiĠ":3467,"ĠerĠrenĠkouĠmiĠduĠweiĠmeiĠpingĠfangĠ":3468,"ĠdangĠdiĠgongĠyouĠrenĠkouĠ":3469,"xiĠyuĠ":3470,"ĠzhengĠshiĠ":3471,"yunĠxingĠ":3472,"ĠteĠbie":3473,"ĠhuoĠjiuĠshiĠzhenĠ":3474,"jingĠchangĠ":3475,"xinĠliĠ":3476,"yuanĠziĠ":3477,"shengĠjiĠxuanĠquĠweiĠ":3478,"jiangĠshiĠ":3479,"ĠĠĠnianĠ":3480,"faĠdongĠ":3481,"kuaiĠsuĠ":3482,"Ġbo":3483,"zhangĠdaĠ":3484,"ĠzhongĠyang":3485,"shaoĠnianĠ":3486,"Ġbai":3487,"shengĠrenĠ":3488,"ĠhuanĠ":3489,"mingĠyiĠ":3490,"bianĠjiĠ":3491,"chongĠjianĠ":3492,"fenĠweiĠfaĠguoĠ":3493,"ĠgaiĠshengĠfenĠweiĠfaĠguoĠ":3494,"faĠqiĠ":3495,"gaoĠdengĠ":3496,"ĠshuangĠ":3497,"congĠshiĠ":3498,"yangĠhuaĠ":3499,"shuoĠfaĠ":3500,"ĠyouĠrenĠ":3501,"ĠW":3502,"ĠnianĠyuĠ":3503,"chengĠliĠyuĠ":3504,"2023ĠnianĠ":3505,"jiaĠzhongĠ":3506,"jinĠyiĠbuĠ":3507,"naĠdeĠ":3508,"lianĠheĠguoĠ":3509,"yanĠjiuĠsuoĠ":3510,"ĠĠĠ18":3511,"zhengĠmingĠ":3512,"fangĠqiĠ":3513,"daĠquĠ":3514,"taiĠguoĠ":3515,"gongĠxianĠ":3516,"gouĠdeĠ":3517,"lunĠdun":3518,"erĠheĠ":3519,"fanĠhuiĠ":3520,"aoĠlinĠpiĠkeĠyunĠdongĠhuiĠ":3521,"jieĠrangĠdeĠshiĠzhenĠ":3522,"ziĠweiĠ":3523,"gongĠrenĠ":3524,"yunĠshuĠ":3525,"xiangĠjiĠ":3526,"suoĠshuĠdeĠshengĠjiĠxuanĠquĠweiĠ":3527,"huoĠshiĠ":3528,"ziĠran":3529,"ĠĠĠheĠ":3530,"yuanĠliĠ":3531,"siĠliĠ":3532,"tiĠxiĠ":3533,"ceĠdeĠ":3534,"jianĠchengĠ":3535,"biaoĠweiĠ":3536,"ĠerĠqie":3537,"naĠliĠ":3538,"xingĠqiĠ":3539,"zhuĠchiĠ":3540,"ziĠyuanĠ":3541,"zhanĠdou":3542,"zhongĠhuaĠrenĠminĠgongĠheĠguoĠ":3543,"mingĠdanĠ":3544,"boĠlanĠ":3545,"xiĠzaiĠ":3546,"daoĠrenĠ":3547,"reĠdaiĠ":3548,"xiĠbanĠyaĠ":3549,"Ġhuang":3550,"huaĠweiĠ":3551,"cuiĠ":3552,"ĠV":3553,"luoĠfuĠ":3554,"fuĠqinĠ":3555,"ĠxiĠbeiĠ":3556,"xiaĠwuĠ":3557,"beiĠyiĠ":3558,"paiĠdeĠ":3559,"faĠsheĠ":3560,"ĠdiĠquĠdeĠ":3561,"niĠkeĠ":3562,"fenĠdeĠ":3563,"wenĠmingĠ":3564,"ĠhaĠ":3565,"ĠzhiĠchengĠ":3566,"ĠĠĠcheĠzhanĠ":3567,"ĠheĠbingĠ":3568,"diaoĠcha":3569,"wanĠjiaĠ":3570,"chanĠyeĠ":3571,"anĠshiĠ":3572,"ĠshiĠyiĠmingĠ":3573,"ĠbiaoĠshiĠ":3574,"xiangĠdangĠ":3575,"ĠyouĠshiĠ":3576,"shengĠshiĠ":3577,"ĠguoĠjiĠ":3578,"ĠĠĠchuĠ":3579,"chaoĠzhengĠzhiĠrenĠwuĠ":3580,"jinĠxingĠleĠ":3581,"suĠdeĠ":3582,"ĠweiĠshengĠ":3583,"FĠ":3584,"ĠĠĠtaĠ":3585,"jianĠjiĠ":3586,"jinĠyiĠ":3587,"ĠbuĠnengĠ":3588,"nanĠshengĠ":3589,"xuanĠchuanĠ":3590,"ĠshiĠyiĠweiĠ":3591,"yingĠliĠ":3592,"Ġbi":3593,"Ġkang":3594,"beiĠjiĠ":3595,"jingĠshenĠ":3596,"lvĠshiĠ":3597,"zaĠ":3598,"xianĠxiangĠ":3599,"shouĠshangĠ":3600,"huĠshiĠ":3601,"shuĠzhongĠ":3602,"ĠzaoĠ":3603,"ziĠheĠ":3604,"xiĠyangĠ":3605,"ĠchuangĠ":3606,"guanĠzhuĠ":3607,"fuĠzeĠguanĠxiaĠ":3608,"ĠpeiĠ":3609,"ĠĠĠR":3610,"paiĠmingĠ":3611,"lianĠdeĠ":3612,"qiĠzhongĠyiĠ":3613,"baĠnianĠ":3614,"mieĠ":3615,"jiaĠtingĠ":3616,"lanĠqiuĠ":3617,"tongĠxingĠ":3618,"lieĠweiĠ":3619,"shuaiĠ":3620,"saiĠerĠ":3621,"ĠyueĠzaiĠ":3622,"zhanĠhouĠ":3623,"xuanĠrenĠ":3624,"xiaoĠzuĠ":3625,"liuĠyuĠ":3626,"shuĠliangĠ":3627,"foĠjiaoĠ":3628,"keĠweiĠ":3629,"jieĠyiĠ":3630,"daoĠyanĠ":3631,"zhengĠjuĠ":3632,"zaoĠnianĠ":3633,"ĠerĠqieĠ":3634,"daĠweiĠ":3635,"qiuĠdeĠ":3636,"ĠxiĠnanĠ":3637,"taoĠlunĠ":3638,"wangĠshiĠ":3639,"duĠjiaoĠ":3640,"Ġ190":3641,"yanĠyiĠ":3642,"reĠdai":3643,"ĠlongĠ":3644,"ĠzhongĠgongĠ":3645,"zhengĠdangĠ":3646,"ĠĠĠbeiĠ":3647,"laiĠyuanĠ":3648,"genĠju":3649,"wenĠjianĠ":3650,"mingĠshiĠ":3651,"baoĠchiĠ":3652,"ĠtuoĠ":3653,"XĠ":3654,"ĠyiĠjianĠ":3655,"houĠqiĠ":3656,"zhongĠyangĠ":3657,"ĠzhiĠxianĠ":3658,"ruiĠshiĠ":3659,"ĠdaoĠleĠ":3660,"rengĠranĠ":3661,"Ġ10ĠyueĠ":3662,"ĠyiĠxiĠ":3663,"lvĠkeĠ":3664,"pingĠlunĠ":3665,"ĠjiĠsiĠ":3666,"Ġben":3667,"ziĠdongĠ":3668,"ĠzongĠrenĠkouĠ":3669,"xiaĠdeĠyiĠgeĠ":3670,"fanĠdeĠ":3671,"ĠwuĠkeĠ":3672,"diĠsiĠ":3673,"biaoĠmingĠ":3674,"ĠshiĠxianĠ":3675,"xuĠdeĠ":3676,"luĠyuĠ":3677,"ĠzhiĠmingĠ":3678,"haiĠdeĠ":3679,"pingĠtaiĠ":3680,"ĠjiĠhuĠ":3681,"luoĠma":3682,"keĠliĠsiĠ":3683,"5ĠnianĠ":3684,"ĠcanĠ":3685,"ĠshiĠjianĠyuĠ":3686,"cengĠjingĠ":3687,"xuĠyao":3688,"haoĠweiĠ":3689,"pengĠyouĠ":3690,"ĠliĠrenĠ":3691,"daĠyueĠ":3692,"yinĠhang":3693,"fengĠxianĠ":3694,"eĠluoĠ":3695,"nanĠjingĠ":3696,"ĠbeiĠjingĠ":3697,"ĠdeĠdiĠfangĠ":3698,"Ġlin":3699,"ĠciĠshiĠ":3700,"shengĠyiĠ":3701,"ĠqueĠ":3702,"raoĠ":3703,"ĠnianĠduĠ":3704,"xuanĠquĠ":3705,"gongĠzhongĠyangĠ":3706,"jiaoĠtangĠ":3707,"taiĠpingĠyangĠ":3708,"xĠ":3709,"zhengĠbuĠ":3710,"moĠxingĠ":3711,"keĠzaiĠ":3712,"lianĠbang":3713,"jiaoĠbuĠ":3714,"xingĠbuĠ":3715,"jingĠyouĠ":3716,"yanĠgeĠ":3717,"kĠ":3718,"yuanĠzaiĠ":3719,"ĠguoĠwangĠ":3720,"daoĠdaĠ":3721,"shenĠweiĠ":3722,"Ġe":3723,"jianĠduiĠ":3724,"chongĠtuĠ":3725,"ĠĠĠxianĠ":3726,"wuĠrenĠ":3727,"jianĠrenĠ":3728,"ĠnianĠyouĠ":3729,"tuiĠyiĠ":3730,"biaoĠzhiĠ":3731,"huaĠyuĠ":3732,"ruĠheĠ":3733,"ĠĠĠ2021":3734,"keĠshiĠ":3735,"qianĠshiĠ":3736,"souĠ":3737,"qianĠzhiĠ":3738,"gĠ":3739,"shangĠyingĠ":3740,"xiaoĠguoĠ":3741,"ĠyiĠshangĠ":3742,"xianĠheĠ":3743,"daoĠheĠ":3744,"keĠsiĠ":3745,"jingĠweiĠ":3746,"ĠgongĠyuanĠ":3747,"ĠĠĠsuiĠ":3748,"leiĠxingĠ":3749,"ĠyiĠliĠ":3750,"ĠdaĠxue":3751,"zhouĠweiĠ":3752,"xianĠjiĠ":3753,"ĠnianĠchuĠ":3754,"yeĠbuĠ":3755,"fengĠbaoĠ":3756,"ĠouĠ":3757,"ĠĠĠ2020":3758,"biaoĠdaĠ":3759,"guangĠzhouĠ":3760,"ĠĠĠin":3761,"xiaĠshiĠ":3762,"dangĠxuanĠ":3763,"zhangĠshiĠ":3764,"liangĠzhongĠ":3765,"xieĠdeĠ":3766,"pangĠ":3767,"biĠyaĠ":3768,"ĠĠĠV":3769,"ĠnianĠhouĠ":3770,"shengĠhuo":3771,"dingĠyuĠ":3772,"qiĠyeĠ":3773,"tiaoĠzhanĠ":3774,"ĠcengĠrenĠ":3775,"ĠjiĠbeiĠ":3776,"jiaoĠquĠ":3777,"pingĠmianĠ":3778,"shenĠqingĠ":3779,"anĠjianĠ":3780,"chengĠxianĠ":3781,"luĠsiĠ":3782,"xingĠyiĠ":3783,"ĠzhiĠfuĠ":3784,"fenĠbieĠ":3785,"tuanĠduiĠ":3786,"ĠerĠrenĠkouĠmiĠduĠweiĠmeiĠpingĠfangĠqianĠmiĠ":3787,"rouĠ":3788,"ĠThe":3789,"ĠliĠdaĠ":3790,"yaoĠqingĠ":3791,"ĠjinĠruĠ":3792,"chaĠyiĠ":3793,"ĠliĠlunĠ":3794,"yingĠgeĠlanĠ":3795,"puĠtongĠ":3796,"yuanĠzhangĠ":3797,"12Ġ":3798,"ĠqinĠ":3799,"yuanĠsuĠ":3800,"ĠzhongĠyouĠ":3801,"xingĠrenĠ":3802,"jiuĠnianĠ":3803,"xiĠheĠ":3804,"qiuĠchangĠ":3805,"ĠtaĠmenĠdeĠ":3806,"riĠqiĠ":3807,"xiaoĠshouĠ":3808,"zhongĠyaoĠ":3809,"teĠbieĠ":3810,"yanĠzhiĠ":3811,"hengĠxingĠ":3812,"neiĠrong":3813,"ziĠyiĠ":3814,"ruĠciĠ":3815,"queĠzhenĠ":3816,"duiĠshouĠ":3817,"ĠjieĠguoĠ":3818,"Ġzheng":3819,"laĠfuĠ":3820,"Ġgao":3821,"zuoĠshiĠ":3822,"cĠ":3823,"baoĠweiĠ":3824,"chengĠyuĠ":3825,"laiĠshuoĠ":3826,"ĠtanĠ":3827,"shuĠyiĠ":3828,"huiĠjiĠ":3829,"ĠqiĠyuĠ":3830,"ruĠguoĠ":3831,"ĠyueĠyuĠ":3832,"xueĠshuĠ":3833,"Ġ19":3834,"ĠzhiĠzaoĠ":3835,"heĠyuĠ":3836,"wangĠluĠ":3837,"anĠnaĠ":3838,"ĠzhongĠhuaĠ":3839,"lunĠdeĠ":3840,"nuĠliĠ":3841,"niĠdeĠ":3842,"shunĠ":3843,"taĠshiĠ":3844,"wuĠyiĠ":3845,"Ġ8ĠyueĠ":3846,"zhengĠzhuangĠ":3847,"caiĠyong":3848,"jiaĠrenĠ":3849,"quanĠshiĠ":3850,"ĠfenĠzhongĠ":3851,"tingĠdeĠ":3852,"nengĠgou":3853,"ziĠzhiĠquĠ":3854,"dianĠtaiĠ":3855,"jieĠfangĠjunĠ":3856,"xiaoĠzhangĠ":3857,"minĠdeĠ":3858,"shuĠziĠ":3859,"haiĠziĠ":3860,"gengĠmingĠweiĠ":3861,"youĠliĠ":3862,"xiangĠyuĠ":3863,"lanĠkeĠ":3864,"ĠtongĠchangĠ":3865,"quĠheĠ":3866,"chuangĠliĠ":3867,"ĠmaiĠ":3868,"xuĠshiĠ":3869,"xinĠshiĠ":3870,"fanĠyiĠ":3871,"2024ĠnianĠ":3872,"chuĠshenĠ":3873,"zongĠduĠ":3874,"ĠĠĠ2019":3875,"duoĠzhongĠ":3876,"Ġdeng":3877,"geĠyouĠ":3878,"fuĠqin":3879,"zhuĠyanĠ":3880,"sheĠyuĠ":3881,"jiaĠgeĠ":3882,"boĠdeĠ":3883,"huoĠdong":3884,"jiangĠxiĠ":3885,"Ġhu":3886,"mingĠyuĠ":3887,"sunĠshiĠ":3888,"jiangĠxiangĠ":3889,"banĠgongĠshiĠ":3890,"ĠmiaoĠ":3891,"danĠdeĠ":3892,"shouĠruĠ":3893,"linĠdeĠ":3894,"Ġdai":3895,"juĠxingĠdeĠ":3896,"ĠzhongĠyaoĠ":3897,"jingĠchaĠ":3898,"9ĠnianĠ":3899,"ĠsuoĠyouĠ":3900,"ĠĠĠwuĠ":3901,"ĠzaiĠyiĠ":3902,"duiĠyiĠ":3903,"saĠkeĠ":3904,"jieĠweiĠ":3905,"jieĠjinĠ":3906,"ĠweiĠlianĠ":3907,"ĠjiĠbenĠ":3908,"jieĠyuĠ":3909,"kaĠsiĠ":3910,"ĠĠĠa":3911,"ĠĠĠxiaĠ":3912,"guanĠdianĠ":3913,"ĠdeĠyiĠzuoĠ":3914,"ĠĠĠ2018":3915,"1999ĠnianĠ":3916,"ĠliĠheĠ":3917,"ĠlaoĠ":3918,"jiangĠdiĠ":3919,"shaoĠshuĠ":3920,"wenĠzhangĠ":3921,"kanĠdaoĠ":3922,"ĠjiĠzheĠ":3923,"lunĠdunĠ":3924,"touĠxiangĠ":3925,"huiĠshangĠ":3926,"luĠdiĠmianĠjiĠweiĠ":3927,"ĠĠĠgeĠ":3928,"zhangĠyuĠ":3929,"ampĠ":3930,"shuiĠyuĠmianĠjiĠweiĠ":3931,"jieĠquanĠguoĠ":3932,"ĠdaĠquĠ":3933,"wenĠziĠ":3934,"MĠ":3935,"zhanĠjiĠ":3936,"11Ġ":3937,"sangĠ":3938,"xingĠjianĠ":3939,"ĠdeĠdiĠquĠ":3940,"chuĠshengĠ":3941,"aoĠmenĠ":3942,"Ġhan":3943,"zaiĠzhiĠ":3944,"Ġpei":3945,"wenĠyiĠ":3946,"kangĠyiĠ":3947,"ĠcheĠzhanĠ":3948,"xiĠbeiĠ":3949,"haiĠanĠ":3950,"ĠshiĠdiĠ":3951,"ruĠkouĠ":3952,"Ġzhuan":3953,"waiĠguoĠ":3954,"wenĠdeĠ":3955,"jiaoĠliuĠ":3956,"mingĠdiĠ":3957,"24Ġ":3958,"RĠ":3959,"xingĠxingĠ":3960,"zhenĠduiĠ":3961,"tiaoĠzhengĠ":3962,"ĠxiongĠ":3963,"xiĠzhiĠ":3964,"ĠĠĠkeĠ":3965,"ĠjiĠtuan":3966,"Ġpa":3967,"xinĠrenĠ":3968,"duĠyuĠ":3969,"tianĠjinĠ":3970,"ĠampĠ":3971,"ĠĠĠ2022":3972,"cuoĠshiĠ":3973,"zhangĠkeĠdaĠ":3974,"ĠĠĠW":3975,"fangĠzaiĠ":3976,"junĠdiĠ":3977,"tiĠmingĠ":3978,"xuanĠze":3979,"ĠdangĠzhongĠluĠdiĠmianĠjiĠweiĠ":3980,"ĠerĠshuiĠyuĠmianĠjiĠweiĠ":3981,"poĠhuaiĠ":3982,"1998ĠnianĠ":3983,"ĠxianĠzaiĠ":3984,"rongĠyiĠ":3985,"chuĠfaĠ":3986,"ĠbeiĠerĠ":3987,"zaoĠyuĠ":3988,"jingĠdianĠ":3989,"chiĠdeĠ":3990,"baĠxiĠ":3991,"guangĠxiĠ":3992,"bianĠjieĠ":3993,"ĠhaiĠyouĠ":3994,"luoĠdiĠ":3995,"gouĠchengĠ":3996,"ouĠyuanĠ":3997,"xianĠyouĠ":3998,"xianĠchangĠ":3999,"ĠjuĠliĠ":4000,"ĠxiangĠgang":4001,"xiĠyiĠ":4002,"shanĠjiĠ":4003,"taiĠyangĠ":4004,"ĠÎ":4005,"fuĠjiĠ":4006,"daoĠjiĠ":4007,"ĠfaĠxianĠ":4008,"queĠdingĠ":4009,"tengĠ":4010,"ĠdeĠzhiĠchiĠ":4011,"ĠyueĠyouĠ":4012,"touĠruĠ":4013,"siĠchuanĠ":4014,"yueĠtaiĠ":4015,"ĠĠĠxingĠzhengĠquĠhuaĠ":4016,"ĠjiĠshiĠ":4017,"mingĠzhiĠ":4018,"ĠzaiĠzheĠ":4019,"duiĠwuĠ":4020,"cunĠzhuangĠ":4021,"ĠcongĠerĠ":4022,"Ġao":4023,"daĠzhongĠ":4024,"jiaĠyuĠ":4025,"ĠjingĠguoĠ":4026,"ĠĠĠJ":4027,"kengĠ":4028,"haĠerĠ":4029,"youĠweiĠ":4030,"cunĠdeĠ":4031,"dengĠluĠ":4032,"Ġ9ĠyueĠ":4033,"ĠsaĠ":4034,"daĠzhiĠ":4035,"ĠĠĠ2017":4036,"touĠpiaoĠ":4037,"geĠleiĠ":4038,"Ġhou":4039,"yuanĠhuiĠ":4040,"changĠyiĠ":4041,"ĠshiĠliĠ":4042,"ĠyueĠweiĠ":4043,"Ġshou":4044,"gongĠyuĠ":4045,"ĠzhiĠxiaĠ":4046,"gongĠminĠ":4047,"yinĠfaĠ":4048,"biĠyeĠyuĠ":4049,"jianĠzhongĠ":4050,"nuoĠweiĠ":4051,"tuĠerĠqiĠ":4052,"fangĠweiĠ":4053,"tuĠdeĠ":4054,"tuiĠdongĠ":4055,"ĠshiĠzhongĠguoĠ":4056,"ĠĠĠand":4057,"geĠyiĠ":4058,"zhanĠdiĠ":4059,"hunĠheĠ":4060,"ĠrenĠmenĠ":4061,"piĠzhunĠ":4062,"keĠyuĠ":4063,"juĠzhuĠ":4064,"baoĠliuĠ":4065,"wuĠyuĠ":4066,"qianĠshuĠ":4067,"jinĠru":4068,"erĠyuĠ":4069,"wenĠdingĠ":4070,"haiĠdaoĠ":4071,"leĠsiĠ":4072,"ganĠran":4073,"shuĠheĠ":4074,"biĠsaiĠzhongĠ":4075,"ĠtiĠzhangĠkeĠdaĠ":4076,"ĠformulaĠ":4077,"erĠrenĠ":4078,"ziĠranĠ":4079,"xiĠzhongĠ":4080,"ĠzaiĠbeiĠ":4081,"daĠfuĠ":4082,"ĠbuĠfen":4083,"yongĠhuĠ":4084,"Ġ7ĠyueĠ":4085,"ziĠliĠ":4086,"nanĠbeiĠ":4087,"junĠyiĠ":4088,"chuĠjiĠ":4089,"qiĠziĠ":4090,"ĠweiĠfuĠqiĠyuĠ":4091,"hengĠliĠ":4092,"ĠĠĠ2016":4093,"fangĠwenĠ":4094,"xunĠhuiĠ":4095,"zhuangĠjiaĠ":4096,"tiĠgaoĠ":4097,"ĠyouĠjiĠ":4098,"ĠwoĠmenĠ":4099,"diĠjiĠ":4100,"maĠkeĠ":4101,"ĠshiĠquĠ":4102,"chengĠzuoĠ":4103,"ĠyuĠciĠ":4104,"OĠ":4105,"jianĠheĠ":4106,"ĠyiĠdaĠliĠ":4107,"xinĠhaoĠ":4108,"ĠyinĠduĠ":4109,"xunĠsuĠ":4110,"angĠ":4111,"jinĠshuĠ":4112,"benĠtuĠ":4113,"houĠxuanĠrenĠ":4114,"zhanĠzhongĠ":4115,"xiaoĠliĠ":4116,"xianĠluĠ":4117,"pinĠpaiĠ":4118,"Ġan":4119,"moĠerĠ":4120,"xianĠhouĠ":4121,"ziĠjinĠ":4122,"jieĠshuĠhouĠ":4123,"Ġzhang":4124,"Ġ12ĠyueĠ":4125,"ciĠweiĠ":4126,"xinĠyiĠ":4127,"geĠgeĠ":4128,"ĠtaĠyiĠ":4129,"guangĠfanĠ":4130,"zhuĠmingĠdeĠ":4131,"zhongĠliĠ":4132,"shangĠrenĠ":4133,"yongĠyiĠ":4134,"1996ĠnianĠ":4135,"zuiĠchuĠ":4136,"cengĠyuĠ":4137,"yingĠpianĠ":4138,"zhuĠmingĠ":4139,"mouĠxieĠ":4140,"heĠzuoĠ":4141,"Ġbian":4142,"chengĠzhiĠ":4143,"Ġ11ĠyueĠ":4144,"ĠdeĠyiĠzhiĠ":4145,"ĠxiuĠ":4146,"wuĠweiĠ":4147,"jianĠzaoĠ":4148,"jianĠzaiĠ":4149,"jieĠyouĠ":4150,"lingĠwaiĠ":4151,"ĠdeĠshiĠquĠweiĠ":4152,"chuĠzhanĠ":4153,"chuĠshengĠyuĠ":4154,"xiaĠlaiĠ":4155,"ĠĠĠdeĠshiĠ":4156,"oĠ":4157,"ĠzhiĠnengĠ":4158,"Ġ21Ġ":4159,"xueĠhuiĠ":4160,"buĠtongĠdeĠ":4161,"ĠbingĠyiĠ":4162,"Ġtw":4163,"jiangĠsuĠ":4164,"saĠerĠ":4165,"1997ĠnianĠ":4166,"shuiĠpingĠ":4167,"ĠzhongĠguoĠgongĠchanĠdangĠ":4168,"ĠtingĠ":4169,"ĠĠĠerĠ":4170,"Ġhong":4171,"buĠduiĠ":4172,"ĠjiaĠshangĠ":4173,"dangĠshiĠdeĠ":4174,"zhuĠbuĠ":4175,"shanĠdaĠ":4176,"hansĠ":4177,"ĠbiaoĠ":4178,"boĠerĠ":4179,"ĠhansĠ":4180,"keĠheĠ":4181,"ĠdiĠqu":4182,"meiĠnianĠ":4183,"xuĠqiuĠ":4184,"ĠjiĠchengĠ":4185,"jianĠshaoĠ":4186,"teĠshuĠ":4187,"ĠtwĠ":4188,"daĠchengĠ":4189,"shanĠdeĠ":4190,"jiaĠzuĠ":4191,"Ġ2011":4192,"ĠĠĠI":4193,"ĠzheĠxie":4194,"Ġhai":4195,"ĠĠĠli":4196,"ĠĠĠqingĠ":4197,"lvĠweiĠ":4198,"ĠrenĠleiĠ":4199,"meiĠgeĠ":4200,"paiĠchuĠ":4201,"ĠĠĠ2014":4202,"xiaoĠshuo":4203,"aoĠdaĠliĠyaĠ":4204,"ĠriĠyuĠ":4205,"nanĠyiĠ":4206,"ĠĠĠ2023":4207,"jieĠrangĠ":4208,"gongĠchangĠ":4209,"siĠkeĠ":4210,"ĠdanĠtaĠ":4211,"changĠheĠ":4212,"jieĠkeĠ":4213,"jueĠding":4214,"ĠjiĠguanĠ":4215,"ĠzaiĠzhongĠguoĠ":4216,"sheĠhuiĠzhuĠyiĠ":4217,"ĠchengĠyuanĠ":4218,"ĠhaoĠxianĠ":4219,"zhuĠyouĠ":4220,"zhuangĠzhiĠ":4221,"ĠyuĠrenĠ":4222,"ĠxiĠbaoĠ":4223,"jingĠyanĠ":4224,"Ġ189":4225,"Ġ2010ĠnianĠ":4226,"faĠchuĠ":4227,"Ġ30":4228,"ziĠxunĠ":4229,"suoĠdeĠ":4230,"waĠerĠ":4231,"ĠjiĠrenĠ":4232,"yinĠsuĠ":4233,"ĠjieĠmuĠ":4234,"ĠĠĠ2015":4235,"tiĠshiĠ":4236,"yingĠwenĠ":4237,"ĠĠĠyuanĠ":4238,"ĠmenĠ":4239,"luĠzhiĠ":4240,"rengĠ":4241,"1992ĠnianĠ":4242,"ĠhouĠlai":4243,"ĠeĠluoĠsiĠ":4244,"ĠxuĠduoĠ":4245,"tuĠzhongĠ":4246,"kongĠzhongĠ":4247,"suiĠdaoĠ":4248,"beiĠzhiĠ":4249,"huaĠheĠ":4250,"shaĠsiĠ":4251,"yongĠshiĠ":4252,"lingĠtuĠ":4253,"ĠÑ":4254,"minĠjianĠ":4255,"ĠĠĠyuĠshiĠdeĠrenĠkouĠshuĠliangĠweiĠrenĠ":4256,"ĠĠĠsuoĠshuĠdeĠshengĠjiĠxuanĠquĠweiĠ":4257,"xiangĠsiĠ":4258,"ĠĠĠdeĠyouĠzhengĠbianĠmaĠweiĠ":4259,"ĠĠĠyuĠjieĠrangĠdeĠshiĠzhenĠ":4260,"ĠĠĠdeĠshiĠquĠweiĠ":4261,"gengĠjiaĠ":4262,"ĠguoĠchengĠ":4263,"ĠjingĠjiĠ":4264,"Ġ2019":4265,"Ġfeng":4266,"zengĠzhangĠ":4267,"erĠyiĠ":4268,"nanĠdeĠ":4269,"keĠchengĠ":4270,"jiangĠdeĠ":4271,"ĠzaiĠdaĠ":4272,"huiĠyingĠ":4273,"kongĠjunĠ":4274,"leĠshiĠ":4275,"ĠfaĠxingĠ":4276,"rĠĠĠ":4277,"Ġ2009ĠnianĠ":4278,"mĠĠĠ":4279,"ĠU":4280,"Ġwang":4281,"ĠzhongĠdeĠ":4282,"guĠwenĠ":4283,"ĠheĠxiĠ":4284,"ĠtaĠyeĠ":4285,"ciĠyiĠ":4286,"guangĠgaoĠ":4287,"teĠerĠ":4288,"ĠshiĠmeiĠguoĠ":4289,"ĠĠĠ2013":4290,"jueĠse":4291,"Ġhk":4292,"zhouĠfuĠ":4293,"ĠshengĠhuo":4294,"tiĠyiĠ":4295,"wanĠrenĠ":4296,"ĠdiĠdaĠ":4297,"weiĠĠĠ":4298,"zongĠbuĠ":4299,"ĠjiĠyouĠ":4300,"anĠpaiĠ":4301,"hanĠshuĠ":4302,"xianĠxingĠ":4303,"guanĠbiĠ":4304,"ĠbingĠjiangĠ":4305,"tianĠdeĠ":4306,"chaoĠshiĠ":4307,"tiĠshengĠ":4308,"feiĠjianĠzhiĠ":4309,"ĠĠĠxinĠ":4310,"woĠmenĠ":4311,"fangĠbuĠ":4312,"daĠyuĠ":4313,"xuĠkeĠ":4314,"langĠdeĠ":4315,"zhengĠfuĠdeĠ":4316,"minĠzhuĠdangĠ":4317,"Ġ6ĠyueĠ":4318,"zhuangĠshiĠ":4319,"jiaĠru":4320,"ĠbingĠyouĠ":4321,"quanĠmianĠ":4322,"ĠzhuangĠ":4323,"ĠhkĠ":4324,"banĠgongĠ":4325,"ĠdeĠguoĠjiaĠ":4326,"junĠjiĠ":4327,"xingĠtaiĠ":4328,"cheĠzhan":4329,"ĠerĠgaiĠ":4330,"ĠheĠerĠ":4331,"diĠguoĠ":4332,"baoĠliĠ":4333,"jieĠgou":4334,"nĠĠĠ":4335,"ĠzhiĠshiĠ":4336,"duiĠshiĠ":4337,"shanĠmai":4338,"juĠbuĠ":4339,"lingĠdeĠ":4340,"foĠ":4341,"ruiĠdianĠ":4342,"dangĠyuĠ":4343,"luoĠkeĠ":4344,"ĠjiĠnianĠ":4345,"weiĠyiĠgeĠ":4346,"dangĠzhongĠ":4347,"junĠgongĠ":4348,"tuĠshuĠguanĠ":4349,"LĠ":4350,"weiĠzhiĠ":4351,"neiĠluĠ":4352,"zhuanĠjiaĠ":4353,"huaĠzhongĠ":4354,"chengĠxuĠ":4355,"yuĠĠĠ":4356,"ĠyueĠtaiĠ":4357,"yunĠxuĠ":4358,"seĠlieĠ":4359,"ĠlaiĠziĠ":4360,"huiĠbeiĠ":4361,"shanĠshiĠ":4362,"bingĠmeiĠyouĠ":4363,"jiuĠdianĠ":4364,"Ġna":4365,"geĠzhiĠ":4366,"dianĠnao":4367,"ĠkeĠxueĠ":4368,"zuĠchengĠdeĠ":4369,"ĠĠĠxiangĠ":4370,"ĠqiĠzhongĠyiĠ":4371,"daiĠyouĠ":4372,"siĠxiangĠ":4373,"feiĠjianĠzhiĠdiĠquĠ":4374,"Ġ5ĠyueĠ":4375,"baĠweiĠ":4376,"faĠlv":4377,"ĠxiĠjieĠ":4378,"jingĠzhengĠ":4379,"sanĠjiaoĠ":4380,"ĠmaoĠ":4381,"guoĠweiĠ":4382,"ĠyiĠjiaĠ":4383,"jinĠpaiĠ":4384,"changĠyuĠ":4385,"tanĠkeĠ":4386,"ĠliĠbuĠ":4387,"ĠyouĠqiĠshiĠ":4388,"muĠqinĠ":4389,"tongĠyuĠ":4390,"bingĠshiĠ":4391,"huanĠyingĠ":4392,"Ġ2018":4393,"maĠerĠ":4394,"xiaĠjiangĠ":4395,"moĠxiĠgeĠ":4396,"geĠlan":4397,"zhuanĠyiĠ":4398,"yanĠjiuĠyuanĠ":4399,"ĠzhengĠfuĠ":4400,"Ġ20":4401,"shuĠxueĠ":4402,"gongĠsiĠdeĠ":4403,"neiĠgeĠ":4404,"ĠshiĠjieĠbeiĠ":4405,"jiuĠdeĠ":4406,"ĠliĠya":4407,"huaĠrenĠ":4408,"fenĠzhongĠ":4409,"1994ĠnianĠ":4410,"mingĠmingĠweiĠ":4411,"ĠgongĠzuoĠ":4412,"junĠyouĠ":4413,"ĠheĠdiĠ":4414,"jiuĠzhiĠ":4415,"1995ĠnianĠ":4416,"laiĠdaoĠ":4417,"shengĠzhangĠ":4418,"ĠĠĠjiaĠzuĠ":4419,"dengĠweiĠ":4420,"ĠjiĠchuĠ":4421,"beiĠrenĠweiĠshiĠ":4422,"queĠfaĠ":4423,"ĠdiĠxiaĠ":4424,"xiuĠgaiĠ":4425,"huiĠzhangĠ":4426,"mingĠlingĠ":4427,"yingĠyunĠ":4428,"shuoĠmingĠ":4429,"huĠdeĠ":4430,"yongĠlaiĠ":4431,"Ġqian":4432,"ĠchuĠyuĠ":4433,"daiĠliĠ":4434,"duiĠqiĠ":4435,"ziĠmuĠ":4436,"shouĠfuĠ":4437,"onĠĠĠ":4438,"ĠdanĠyouĠyuĠ":4439,"wenĠshiĠ":4440,"ruanĠ":4441,"ĠbuĠtongĠdeĠ":4442,"ĠĠĠzhĠ":4443,"maoĠqiuĠ":4444,"ĠminĠguoĠ":4445,"ĠzaiĠmeiĠguoĠ":4446,"ĠshiĠyiĠge":4447,"ĠdeĠdiĠerĠ":4448,"ĠweiĠweiĠ":4449,"zhuĠjiĠ":4450,"iĠ":4451,"ĠchaĠ":4452,"taĠyuĠ":4453,"15Ġ":4454,"gongĠjuĠ":4455,"chengĠweiĠleĠ":4456,"ĠrangĠ":4457,"Ġ4ĠyueĠ":4458,"queĠrenĠ":4459,"liaoĠjieĠ":4460,"yeĠbeiĠ":4461,"ĠtaĠbeiĠ":4462,"lengĠ":4463,"beiĠerĠ":4464,"yinĠdeĠ":4465,"changĠdiĠ":4466,"faĠanĠ":4467,"feiĠlvĠ":4468,"lieĠbiaoĠ":4469,"juĠzhangĠ":4470,"caiĠquĠ":4471,"leĠĠĠ":4472,"ĠĠĠjieĠzhiĠ":4473,"shenĠtiĠ":4474,"changĠpianĠ":4475,"ĠtaĠhaiĠ":4476,"shouĠzhongĠ":4477,"ĠzhongĠguoĠrenĠminĠ":4478,"cheĠxiaoĠ":4479,"ĠyinĠyueĠ":4480,"ĠshangĠhaiĠ":4481,"canĠjiaĠleĠ":4482,"Ġ2016":4483,"boĠfangĠ":4484,"chanĠpin":4485,"ĠerĠfuĠ":4486,"jiaoĠlianĠ":4487,"xieĠrenĠ":4488,"cheĠdeĠ":4489,"zhuĠzuoĠ":4490,"banĠfaĠ":4491,"ĠkangĠ":4492,"chuanĠboĠ":4493,"fuĠyouĠ":4494,"suĠweiĠ":4495,"ĠyiĠnianĠ":4496,"Ġ23":4497,"ĠkuanĠ":4498,"suiĠjiĠ":4499,"ĠyiĠjuĠ":4500,"zheĠliĠ":4501,"maĠsiĠ":4502,"ĠweiĠrenĠ":4503,"ĠĠĠzhongĠguoĠ":4504,"ĠliĠru":4505,"qiuĠhuiĠ":4506,"tieĠlu":4507,"dianĠqiĠ":4508,"liangĠshiĠ":4509,"ĠĠĠofĠĠĠ":4510,"ĠnianĠbeiĠ":4511,"ĠweiĠyuanĠhui":4512,"wangĠqiuĠ":4513,"maĠdeĠ":4514,"zeĠyouĠ":4515,"ĠqiĠlaiĠ":4516,"faĠdianĠ":4517,"guĠdeĠ":4518,"baiĠseĠ":4519,"ĠquanĠguoĠ":4520,"ĠshiĠyiĠnianĠ":4521,"yueĠhanĠ":4522,"juĠheĠ":4523,"taiĠjiĠ":4524,"jieĠhunĠ":4525,"chuĠxiĠ":4526,"zhanĠtaiĠ":4527,"huaĠyuanĠ":4528,"shenĠjingĠ":4529,"wanĠshangĠ":4530,"ĠdiĠtieĠ":4531,"lingĠbuĠ":4532,"ĠzhiĠdiĠ":4533,"ĠyouĠxieĠ":4534,"huoĠjianĠ":4535,"ĠyiĠzaiĠ":4536,"ziĠzhuĠ":4537,"zuĠjianĠ":4538,"yeĠheĠ":4539,"huaĠshengĠ":4540,"ĠxingĠdongĠ":4541,"ĠweiĠnengĠ":4542,"chanĠshengĠdeĠ":4543,"zhaoĠkaiĠ":4544,"ĠrenĠminĠzhengĠfuĠ":4545,"liangĠrenĠ":4546,"ĠyouĠxiaoĠ":4547,"lingĠxianĠ":4548,"2020ĠnianĠmeiĠguoĠrenĠkouĠpuĠchaĠdeĠshuĠjuĠ":4549,"yanĠchangĠhuiĠ":4550,"maĠlaiĠxiĠyaĠ":4551,"xueĠheĠ":4552,"leĠtaĠ":4553,"ĠMa":4554,"chaoĠdeĠ":4555,"ĠerĠbuĠ":4556,"tongĠcheĠ":4557,"xuĠliĠyaĠ":4558,"changĠzaiĠ":4559,"yaoĠwuĠ":4560,"qinĠshiĠ":4561,"ruĠxuanĠ":4562,"tiĠzhongĠ":4563,"kuoĠdaĠ":4564,"ĠzaiĠxiĠ":4565,"ĠxiĠlaĠ":4566,"1991ĠnianĠ":4567,"chuĠxianĠzaiĠ":4568,"guaĠ":4569,"yinĠdu":4570,"geĠerĠ":4571,"xueĠxiao":4572,"ĠyingĠyuĠ":4573,"ĠliĠshuĠ":4574,"geĠdaĠ":4575,"ĠĠĠ2024":4576,"ĠĠĠ2025":4577,"xiangĠxiĠ":4578,"xinĠjiĠ":4579,"ĠgongĠchengĠ":4580,"changĠpian":4581,"ĠfuĠjinĠ":4582,"ĠĠĠqianĠ":4583,"daiĠbuĠ":4584,"zhuangĠkuangĠ":4585,"ĠdaĠbuĠfenĠ":4586,"shanĠxiĠshengĠ":4587,"xingĠzhongĠ":4588,"ĠlieĠ":4589,"taiĠshiĠ":4590,"siĠteĠ":4591,"kongĠbuĠ":4592,"ĠshiĠdeĠyiĠ":4593,"ĠzhiĠduĠ":4594,"huĠbeiĠ":4595,"lvĠxingĠ":4596,"tuoĠliĠ":4597,"ĠdaiĠbiaoĠ":4598,"ĠcaoĠ":4599,"gongĠhuiĠ":4600,"shiĠĠĠ":4601,"shenĠshiĠ":4602,"ĠĠĠnian":4603,"chengĠliĠdeĠ":4604,"daĠbuĠfenĠ":4605,"guiĠzeĠ":4606,"ĠweiĠliĠ":4607,"aoĠdiĠliĠ":4608,"shangĠhai":4609,"erĠĠĠ":4610,"daĠluĠdeĠ":4611,"ĠliangĠrenĠ":4612,"laoĠdongĠ":4613,"zhouĠbianĠ":4614,"jingĠyuĠ":4615,"zhuangĠdeĠ":4616,"peiĠyinĠ":4617,"cuĠjinĠ":4618,"ĠyiĠtongĠ":4619,"Ġka":4620,"tongĠbuĠ":4621,"fenĠliĠ":4622,"xingĠxiangĠ":4623,"ĠliĠshiĠshangĠ":4624,"ciĠzaiĠ":4625,"wĠ":4626,"longĠdeĠ":4627,"suanĠjiĠ":4628,"xingĠquĠ":4629,"ĠCĠ":4630,"ĠmingĠchaoĠzhengĠzhiĠrenĠwuĠ":4631,"ĠqiaoĠ":4632,"suiĠhouĠ":4633,"wuĠkeĠlan":4634,"zeĠweiĠ":4635,"peiĠheĠ":4636,"ĠtaoĠ":4637,"ĠsheĠjiĠ":4638,"jinĠbuĠ":4639,"baoĠshiĠ":4640,"daiĠbiaoĠdaĠhuiĠ":4641,"wuĠheĠ":4642,"ĠzhiĠziĠ":4643,"zhuĠchangĠ":4644,"nanĠshiĠ":4645,"ĠzheĠjiangĠ":4646,"pingĠweiĠ":4647,"teĠseĠ":4648,"xiaĠjiĠaoĠlinĠpiĠkeĠyunĠdongĠhuiĠ":4649,"22Ġ":4650,"jiaoĠxueĠ":4651,"ĠjiĠerĠ":4652,"1988ĠnianĠ":4653,"xieĠshiĠ":4654,"puĠbianĠ":4655,"1ĠhaoĠ":4656,"daĠheĠ":4657,"bĠ":4658,"Ġlu":4659,"zheĠzaiĠ":4660,"piaoĠfangĠ":4661,"laĠjiĠ":4662,"ĠshiĠtuĠ":4663,"Ġ3ĠyueĠ":4664,"zhuanĠxiangĠ":4665,"wenĠxianĠ":4666,"ĠĠĠxiaoĠ":4667,"luoĠjiĠ":4668,"feiĠzhouĠ":4669,"ĠpanĠ":4670,"lianĠrenĠ":4671,"ĠxiĠjuĠ":4672,"saĠsiĠ":4673,"ĠweiĠheĠ":4674,"sheĠjiĠdeĠ":4675,"anĠquan":4676,"Ġ2011ĠnianĠ":4677,"daoĠzhongĠ":4678,"25Ġ":4679,"ĠfuĠjianĠ":4680,"kaoĠlvĠ":4681,"tionĠ":4682,"1993ĠnianĠ":4683,"wangĠchaoĠ":4684,"ĠyaoĠqiuĠ":4685,"jieĠrenĠ":4686,"mingĠxianĠ":4687,"ĠweiĠwuĠ":4688,"zhuĠzhangĠ":4689,"ĠĠĠN":4690,"gongĠzhiĠ":4691,"16Ġ":4692,"ĠbuĠkeĠ":4693,"ĠxiĠbuĠ":4694,"zhengĠheĠ":4695,"tongĠdaoĠ":4696,"ĠweiĠxingĠ":4697,"meiĠguoĠdeĠ":4698,"biaoĠmianĠ":4699,"Ġsun":4700,"huĠyuĠ":4701,"xuĠzaiĠ":4702,"Ġ188":4703,"ĠnvĠxingĠ":4704,"STĠ":4705,"kouĠweiĠ":4706,"lingĠdaoĠrenĠ":4707,"ĠĠĠguoĠ":4708,"biĠsai":4709,"Ġnai":4710,"ĠweiĠlaiĠ":4711,"qiĠzhongĠyiĠzhongĠ":4712,"Ġ2021":4713,"zhaoĠdaoĠ":4714,"GĠ":4715,"Ġmai":4716,"hongĠseĠ":4717,"siĠlingĠ":4718,"jingĠcha":4719,"fangĠwuĠ":4720,"ĠsĠĠĠ":4721,"ĠliĠmiĠ":4722,"yuanĠgongĠ":4723,"ĠxuanĠbuĠ":4724,"zuiĠhou":4725,"yunĠdong":4726,"caiĠliaoĠ":4727,"ĠshiĠweiĠleĠ":4728,"ĠdeĠzhiĠwuĠ":4729,"ĠjiaoĠyuĠ":4730,"ĠĠĠcongĠ":4731,"reĠĠĠ":4732,"hunĠyinĠ":4733,"ĠyuĠleĠ":4734,"ĠchengĠgongĠ":4735,"ĠweiĠhuiĠ":4736,"ĠxiĠya":4737,"Ġni":4738,"ĠjiĠhuiĠ":4739,"Ġ2001ĠnianĠrenĠkouĠ":4740,"dongĠnanĠbuĠ":4741,"ĠyouĠbuĠ":4742,"dongĠbeiĠbuĠ":4743,"Ġ2015":4744,"ĠĠĠ2012":4745,"huaĠjiĠ":4746,"fenĠbuĠyuĠ":4747,"shouĠzhiĠ":4748,"junĠyuĠ":4749,"bianĠshiĠ":4750,"geĠheĠ":4751,"ĠrenĠshuĠ":4752,"yingĠgaiĠ":4753,"fuĠzaiĠ":4754,"tiĠzhiĠ":4755,"ĠxingĠqiĠ":4756,"daĠchenĠ":4757,"baoĠzhiĠ":4758,"2ĠrenĠ":4759,"siĠgeĠ":4760,"feiĠchuĠ":4761,"Ġ2005ĠnianĠ":4762,"jinĠyouĠ":4763,"saoĠ":4764,"ĠbuĠmenĠ":4765,"dianĠhuaĠ":4766,"baoĠyuĠ":4767,"ĠyiĠban":4768,"yuanĠxingĠ":4769,"qianĠwang":4770,"ĠtiĠgongĠ":4771,"ruanĠjianĠ":4772,"ĠguanĠyuĠ":4773,"ĠĠĠzaoĠnianĠ":4774,"wuĠtaiĠ":4775,"lingĠdiĠ":4776,"chiĠyouĠ":4777,"ĠwanĠrenĠ":4778,"ĠhanĠguoĠ":4779,"duiĠzhangĠ":4780,"tuiĠjinĠ":4781,"zhuĠjueĠ":4782,"gengĠduoĠ":4783,"ĠyinĠerĠ":4784,"faĠxianĠleĠ":4785,"chuĠlaiĠ":4786,"tiĠdaoĠ":4787,"yongĠzuoĠ":4788,"suoĠzaiĠ":4789,"zhengĠchangĠ":4790,"Ġzhong":4791,"jueĠshiĠ":4792,"ĠsuiĠdeĠ":4793,"wuĠzhuangĠ":4794,"guoĠjiĠjiĠ":4795,"meiĠdeĠ":4796,"benĠdiĠ":4797,"bianĠxingĠ":4798,"douĠhuiĠ":4799,"yaĠliĠshanĠdaĠ":4800,"3ĠrenĠ":4801,"jiaoĠdaĠ":4802,"guiĠdeĠ":4803,"ĠerĠshuiĠyuĠmianĠjiĠweiĠ0":4804,"riĠjunĠ":4805,"poĠhuai":4806,"Ġquan":4807,"1990ĠnianĠ":4808,"ĠzaoĠchengĠ":4809,"yinĠdiĠ":4810,"jiaoĠyouĠ":4811,"cĠĠĠ":4812,"ĠtuiĠ":4813,"boĠsiĠ":4814,"tongĠyangĠ":4815,"taiĠrenĠ":4816,"dongĠfangĠ":4817,"huoĠzheĠ":4818,"ĠpingĠfangĠmiĠ":4819,"ĠzaiĠjiaĠ":4820,"caoĠzuoĠ":4821,"ĠdaĠchengĠ":4822,"haiĠwaiĠ":4823,"mingĠxingĠ":4824,"tuanĠdeĠ":4825,"qingĠbaoĠ":4826,"anĠhuiĠ":4827,"neiĠyouĠ":4828,"jieĠshaoĠ":4829,"duiĠwaiĠ":4830,"yeĠhuiĠ":4831,"ĠdaĠliangĠ":4832,"ĠsuiĠzheĠ":4833,"Ġ2017":4834,"toĠĠĠ":4835,"jieĠmu":4836,"xiaĠyouĠ":4837,"ĠheĠpingĠ":4838,"ĠerĠgaiĠdiĠ":4839,"canĠmou":4840,"Ġ2020":4841,"Ġ2014":4842,"yongĠtuĠ":4843,"Ġ2013":4844,"qiangĠdeĠ":4845,"chuĠkouĠ":4846,"xiangĠyiĠ":4847,"ĠyiĠduĠ":4848,"ĠzhiĠdingĠ":4849,"ĠyuĠheĠ":4850,"gaiĠshanĠ":4851,"aoĠyunĠhuiĠ":4852,"eĠĠĠ":4853,"biaoĠdeĠ":4854,"laĠheĠ":4855,"ĠxiĠtong":4856,"yanĠshenĠ":4857,"duiĠxiangĠ":4858,"ĠdeĠshiĠjieĠ":4859,"gaoĠjiaĠ":4860,"xiĠnanĠ":4861,"ĠyueĠnanĠ":4862,"sanĠjiĠ":4863,"50Ġ":4864,"Ġreng":4865,"xianĠjinĠ":4866,"dunĠdeĠ":4867,"zuoĠquĠ":4868,"ĠjiaĠnaĠdaĠ":4869,"ĠbaoĠhanĠ":4870,"meiĠliĠ":4871,"guanĠshiĠ":4872,"leĠdaĠ":4873,"dengĠshangĠ":4874,"gaoĠsuĠgongĠluĠ":4875,"xiaoĠquĠ":4876,"junĠquĠ":4877,"zhengĠtiĠ":4878,"ĠshengĠyuĠ":4879,"jiaĠzaiĠ":4880,"changĠyouĠ":4881,"leĠtaĠdeĠ":4882,"xiaĠxiaĠdeĠyiĠgeĠ":4883,"longĠjiangĠ":4884,"duoĠrenĠ":4885,"yunĠshiĠ":4886,"geĠlunĠ":4887,"Ġdou":4888,"jueĠyiĠ":4889,"shuĠruĠ":4890,"haiĠxiaĠ":4891,"Ġxiu":4892,"suiĠzhuĠ":4893,"ĠxianĠrenĠ":4894,"ĠyeĠyouĠ":4895,"nieĠ":4896,"ĠqiĠzaiĠ":4897,"yunĠzuoĠ":4898,"queĠzhenĠbingĠliĠ":4899,"19ĠshiĠjiĠ":4900,"ĠriĠdeĠ":4901,"juĠyiĠ":4902,"13Ġ":4903,"ĠshiĠdaĠ":4904,"gouĠzaoĠ":4905,"banĠshiĠchuĠ":4906,"Ġpo":4907,"ĠweiĠkeĠ":4908,"ĠerĠyanĠ":4909,"ĠnanĠzhiĠ":4910,"zhanĠzhiĠ":4911,"liuĠzaiĠ":4912,"1984ĠnianĠ":4913,"faĠshouĠ":4914,"ĠĠĠzengĠ":4915,"zuoĠrenĠ":4916,"dianĠcheĠ":4917,"miĠmiĠ":4918,"kangĠriĠ":4919,"shuĠyuanĠ":4920,"jiaĠyouĠ":4921,"duĠheĠ":4922,"feiĠliĠ":4923,"junĠguanĠ":4924,"3ĠgeĠ":4925,"kaiĠzhanĠ":4926,"ceĠĠĠ":4927,"ĠshiĠwuĠkeĠ":4928,"renĠdaĠ":4929,"ĠzhongĠzaiĠ":4930,"Ġ100":4931,"shangĠyuĠ":4932,"binĠhaiĠ":4933,"ĠdongĠlinĠ":4934,"Ġ2010":4935,"jiangĠhuiĠ":4936,"xiaĠling":4937,"liangĠciĠ":4938,"chuangĠjianĠ":4939,"lingĠxiuĠ":4940,"ĠshaoĠ":4941,"tianĠshiĠ":4942,"zhuangĠbeiĠ":4943,"shouĠzhangĠ":4944,"dongĠzuoĠ":4945,"chuanĠzhiĠ":4946,"chaiĠchuĠ":4947,"senĠlinĠ":4948,"anĠdaĠ":4949,"shouĠyiĠ":4950,"1989ĠnianĠ":4951,"ĠqiĠxiangĠ":4952,"shouĠluĠ":4953,"ĠtaiĠwan":4954,"caiĠzhengĠ":4955,"touĠpiao":4956,"Ġniu":4957,"yaĠkeĠ":4958,"biĠmianĠ":4959,"guĠliĠ":4960,"ĠqiĠziĠ":4961,"shanĠquĠ":4962,"huiĠyuanĠ":4963,"4ĠrenĠ":4964,"ĠĠĠ3":4965,"ĠjianĠyuĠ":4966,"beiĠshiĠweiĠ":4967,"ĠnianĠdiĠ":4968,"ĠjuĠxingĠ":4969,"ĠzhengĠzhiĠ":4970,"dengĠdeĠ":4971,"tuĠxingĠ":4972,"qinĠziĠ":4973,"ĠerĠtongĠ":4974,"juĠqingĠ":4975,"kaĠluoĠ":4976,"ĠnianĠ1ĠyueĠ1ĠriĠ":4977,"ĠĠĠsiĠ":4978,"wuĠsiĠ":4979,"1ĠrenĠ":4980,"Ġqi":4981,"houĠshiĠ":4982,"zuiĠgao":4983,"ĠwanĠmeiĠyuanĠ":4984,"ĠtaiĠyangĠ":4985,"zheĠbuĠ":4986,"waiĠjiaoĠbuĠ":4987,"ĠyiĠmeiĠyuanĠ":4988,"liuĠdeĠ":4989,"18Ġ":4990,"ĠsiĠlingĠ":4991,"ceĠliangĠ":4992,"ĠchengĠliĠ":4993,"jingĠxuanĠ":4994,"ĠhengĠ":4995,"huiĠzhongĠ":4996,"shouĠxiĠ":4997,"zhangĠguanĠ":4998,"fanĠzuiĠ":4999,"banĠliĠ":5000,"ĠjieĠshouĠ":5001,"Ġ2007ĠnianĠ":5002,"ĠĠĠdangĠ":5003,"fuĠweiĠ":5004,"suoĠshiĠ":5005,"bingĠruĠ":5006,"Ġs":5007,"ĠdianĠyingĠ":5008,"siĠyiĠ":5009,"ĠyouĠkeĠ":5010,"ĠerĠziĠ":5011,"gengĠweiĠ":5012,"ĠnianĠlaiĠ":5013,"daiĠlaiĠ":5014,"xiangĠzhengĠ":5015,"baoĠshouĠ":5016,"ĠdongĠbeiĠ":5017,"fanĠweiĠneiĠ":5018,"mingĠzhongĠ":5019,"pianĠdeĠ":5020,"chuĠdaoĠ":5021,"mianĠshiĠ":5022,"mengĠdeĠ":5023,"guoĠwangĠ":5024,"taiĠfengĠ":5025,"riĠzhiĠ":5026,"ĠerĠchengĠ":5027,"huĠnanĠ":5028,"Ġ2008ĠnianĠ":5029,"ĠĠĠMa":5030,"ĠqiĠxiaĠ":5031,"ĠzaiĠduĠ":5032,"fangĠmianĠdeĠ":5033,"zunĠ":5034,"ĠyiĠhouĠ":5035,"ĠjieĠkeĠ":5036,"ĠshengĠhuoĠxiĠ":5037,"yanĠxiĠ":5038,"Ġhuan":5039,"ĠsheĠhuiĠ":5040,"renĠliĠ":5041,"canĠyiĠyuanĠ":5042,"kaiĠtongĠ":5043,"teĠĠĠ":5044,"taiĠziĠ":5045,"junĠzhuĠ":5046,"qingĠchuĠ":5047,"dingĠjuĠ":5048,"ĠnianĠqianĠ":5049,"gongĠzhuĠ":5050,"shengĠyinĠ":5051,"jinĠweiĠ":5052,"huaĠheĠwuĠ":5053,"zhanĠqiĠjianĠ":5054,"Ġ2012":5055,"zhouĠqiĠ":5056,"zuĠfuĠ":5057,"jianĠjieĠ":5058,"yingĠyeĠ":5059,"ĠsiĠwangĠ":5060,"ĠsheĠyouĠ":5061,"liangĠjiĠ":5062,"piĠfuĠ":5063,"feiĠdeĠ":5064,"waiĠbuĠ":5065,"xiangĠhuĠ":5066,"guanĠchaĠ":5067,"xingĠbuĠmingĠ":5068,"HĠ":5069,"duiĠyouĠ":5070,"zhuĠyaoĠdeĠ":5071,"5ĠrenĠ":5072,"leiĠdaĠ":5073,"stĠĠĠ":5074,"duĠliĠdeĠ":5075,"ĠnianĠheĠ":5076,"Ġsha":5077,"zhuanĠdeĠ":5078,"erĠyueĠ":5079,"lvĠdeĠ":5080,"xiĠjuĠ":5081,"Ġlao":5082,"bingĠdeĠ":5083,"ĠĠĠmingĠ":5084,"jiangĠjiĠ":5085,"maĠlaĠ":5086,"touĠluĠ":5087,"changĠzhiĠ":5088,"gouĠmaiĠ":5089,"ĠshengĠhuoĠxiĠxingĠbuĠmingĠ":5090,"ĠyiĠdaiĠ":5091,"tianĠqiĠ":5092,"ĠcanĠjiaĠ":5093,"queĠdeĠ":5094,"faĠxingĠdeĠ":5095,"tongĠpaiĠ":5096,"xinĠyangĠ":5097,"ĠmeiĠgeĠ":5098,"zuoĠbiaoĠweiĠ":5099,"jiangĠlingĠ":5100,"anĠzhuangĠ":5101,"jiuĠlongĠ":5102,"ĠwuĠfaĠ":5103,"ĠĠĠbeiĠjingĠ":5104,"liangĠxiangĠ":5105,"ĠyongĠyouĠ":5106,"jiaĠliĠfuĠ":5107,"xinĠxingĠ":5108,"huoĠshanĠ":5109,"zuĠzhiĠdeĠ":5110,"guanĠjianĠ":5111,"keĠnengĠshiĠ":5112,"jingĠzhongĠ":5113,"chengĠheĠ":5114,"luĠjiĠ":5115,"taiĠbeiĠshiĠ":5116,"jiuĠduĠ":5117,"ĠĠĠciĠwaiĠ":5118,"ĠjuĠyouĠ":5119,"jieĠsanĠ":5120,"ruĠqinĠ":5121,"Ġdong":5122,"erĠzhiĠ":5123,"kongĠqiĠ":5124,"ĠzaiĠci":5125,"ĠyueĠzhongĠ":5126,"houĠbeiĠ":5127,"liangĠzhiĠ":5128,"baiĠrenĠ":5129,"terĠ":5130,"fangĠyanĠ":5131,"lunĠwenĠ":5132,"keĠyiĠzaiĠ":5133,"zhuĠyiĠdeĠ":5134,"ĠzhongĠguoĠdaĠluĠ":5135,"ĠgongĠyouĠ":5136,"shangĠbuĠ":5137,"zheĠxie":5138,"chuanĠshuoĠ":5139,"1985ĠnianĠ":5140,"kaoĠguĠ":5141,"ĠzhongĠshiĠ":5142,"ĠchuĠxianĠ":5143,"fuĠjinĠdeĠ":5144,"Ġ2009":5145,"quĠjiĠ":5146,"zhangĠaiĠ":5147,"1ĠliĠ":5148,"ĠyongĠyuĠ":5149,"aiĠjiĠ":5150,"chuĠbuĠ":5151,"tongĠnianĠ":5152,"ĠyinĠqiĠ":5153,"manĠdeĠ":5154,"ĠnianĠĠĠ":5155,"jingĠfangĠ":5156,"shenĠme":5157,"ĠshiĠshiĠjieĠ":5158,"xinĠjiaĠpoĠ":5159,"Ġcha":5160,"moĠsiĠkeĠ":5161,"ĠĠĠjuĠqingĠ":5162,"Ġyang":5163,"lianĠzaiĠ":5164,"yuĠyanĠ":5165,"ĠbiĠruĠ":5166,"chengĠnianĠ":5167,"kaoĠjinĠ":5168,"qianĠrenĠ":5169,"Ġxiao":5170,"mingĠrenĠ":5171,"ĠweiĠciĠ":5172,"zhanĠtingĠ":5173,"ĠsaiĠjiĠ":5174,"guiĠzuĠ":5175,"Ġdi":5176,"ĠdiĠshiĠ":5177,"yunĠnanĠ":5178,"zuoĠzheĠ":5179,"suoĠshuĠ":5180,"zhongĠdianĠ":5181,"guangĠdongĠshengĠ":5182,"ĠshiĠriĠbenĠ":5183,"muĠqin":5184,"zhouĠjiĠ":5185,"ĠsiĠchuanĠ":5186,"Ġ2008":5187,"ĠcanĠyuĠ":5188,"14Ġ":5189,"quĠleĠ":5190,"ĠgongĠtongĠ":5191,"ĠqiĠshiĠ":5192,"zheĠweiĠ":5193,"gaoĠdaĠ":5194,"ĠguoĠchengĠzhongĠ":5195,"baoĠzhangĠ":5196,"taiĠduĠ":5197,"Ġkai":5198,"ĠteĠbieĠshiĠ":5199,"Ġ1949":5200,"Ġ2013ĠnianĠ":5201,"ĠchuĠshengĠyuĠ":5202,"ĠĠĠben":5203,"zongĠshiĠ":5204,"ĠrenĠmingĠ":5205,"ĠshiĠjiĠshangĠ":5206,"jiangĠzaiĠ":5207,"yinĠqingĠ":5208,"changĠjianĠdeĠ":5209,"shuangĠfangĠ":5210,"quĠyiĠhuiĠ":5211,"yinĠheĠ":5212,"ĠyouĠciĠ":5213,"quanĠzhangĠ":5214,"xunĠyangĠ":5215,"faĠhuiĠ":5216,"ĠdiĠwuĠ":5217,"leĠyuĠ":5218,"huaĠyiĠ":5219,"yingĠxiongĠ":5220,"xiuĠzhengĠ":5221,"wanĠgongĠ":5222,"huaĠzhiĠ":5223,"ganĠbuĠ":5224,"ĠshiĠdeĠguoĠ":5225,"ĠduanĠ":5226,"fangĠyiĠ":5227,"youĠxianĠ":5228,"ĠqiĠxiĠ":5229,"tiaoĠliĠ":5230,"xiangĠguanĠdeĠ":5231,"ĠĠĠU":5232,"chuĠzaiĠ":5233,"chuĠyanĠ":5234,"cuoĠwuĠ":5235,"ĠjiaĠtingĠ":5236,"suiĠshiĠ":5237,"bianĠjuĠ":5238,"ĠĠĠdiĠfangĠ":5239,"ĠguoĠhuiĠ":5240,"ĠyiĠxiaoĠshiĠ":5241,"shengĠtaiĠ":5242,"shouĠxiangĠ":5243,"ĠbingĠduĠ":5244,"nengĠliangĠ":5245,"taoĠtaiĠ":5246,"Ġsu":5247,"huĠbuĠ":5248,"banĠbuĠ":5249,"yuanĠzeĠ":5250,"faĠlanĠxiĠ":5251,"ĠwuĠkeĠlanĠ":5252,"Ġcai":5253,"laoĠdeĠ":5254,"ĠyueĠtuanĠ":5255,"zhouĠciĠshiĠ":5256,"ĠzengĠ":5257,"ĠĠĠqiĠtaĠ":5258,"shuĠliĠ":5259,"ĠxueĠxiaoĠ":5260,"Ġre":5261,"chuĠzhiĠ":5262,"zuiĠyouĠ":5263,"fengĠweiĠ":5264,"luĠkouĠ":5265,"luĠyingĠ":5266,"qingĠhuaĠ":5267,"guĠfen":5268,"ĠpingĠjunĠ":5269,"yaoĠqiu":5270,"keĠdeĠqiĠzhongĠyiĠzhongĠ":5271,"ĠĠĠmeiĠguoĠ":5272,"ĠĠĠdiĠerĠ":5273,"huiĠbuĠ":5274,"ĠweiĠchiĠ":5275,"qingĠqiuĠ":5276,"kaiĠsheĠ":5277,"KĠ":5278,"zhiĠdeĠshiĠ":5279,"siĠzhiĠ":5280,"huanĠchengĠ":5281,"faĠguanĠ":5282,"meiĠshuĠ":5283,"dangĠdiĠdeĠ":5284,"ĠĠĠ2010":5285,"19Ġ":5286,"ĠzhongĠhuaĠrenĠminĠgongĠheĠguoĠzhengĠzhiĠrenĠwuĠ":5287,"huoĠxingĠ":5288,"gaiĠchengĠ":5289,"4ĠgeĠ":5290,"ĠĠĠ2":5291,"ĠshiĠyong":5292,"ĠheĠxinĠ":5293,"Ġdui":5294,"lingĠrenĠ":5295,"heĠxinĠ":5296,"hanĠyuĠ":5297,"hanĠyouĠ":5298,"Ġ2022":5299,"henĠdaĠ":5300,"ĠjiĠnian":5301,"ĠheĠzhongĠ":5302,"daoĠbuĠ":5303,"ĠĠĠ2011":5304,"zhuangĠjiĠ":5305,"cuiĠhuiĠ":5306,"luĠkeĠ":5307,"chengĠkeĠ":5308,"paiĠmingĠdiĠ":5309,"ĠĠĠdanĠ":5310,"ĠshiĠgeĠ":5311,"qiangĠdiaoĠ":5312,"2ĠhaoĠ":5313,"xiaĠweiĠ":5314,"fĠ":5315,"enĠshengĠ":5316,"dangĠweiĠ":5317,"ĠwanĠjiaĠ":5318,"Ġ2006ĠnianĠ":5319,"zhengĠweiĠ":5320,"xiĠlaĠ":5321,"yaĠjunĠ":5322,"tianĠjingĠ":5323,"canĠkaoĠ":5324,"yuanĠzhongĠ":5325,"beiĠweiĠ":5326,"ĠyiĠzuoĠ":5327,"zuiĠgaoĠdeĠ":5328,"niĠyaĠzhouĠ":5329,"ĠmaiĠkeĠ":5330,"nengĠzaiĠ":5331,"gongĠyingĠ":5332,"Ġxiong":5333,"xiaĠquĠ":5334,"suoĠchuĠdeĠ":5335,"yaĠyiĠ":5336,"chengĠbenĠ":5337,"qingĠxingĠ":5338,"dengĠdengĠ":5339,"dangĠjuĠ":5340,"tiĠyuĠchangĠ":5341,"ĠĠĠ17":5342,"suoĠzhiĠ":5343,"xieĠerĠ":5344,"shangĠhaiĠshiĠ":5345,"tuĠpoĠ":5346,"ĠAĠ":5347,"shengĠyouĠ":5348,"baiĠdeĠ":5349,"ĠjiĠbuĠ":5350,"xianĠshengĠ":5351,"xieĠdaoĠ":5352,"ĠyeĠjiuĠshiĠ":5353,"ĠdaĠduoĠ":5354,"teĠdingĠ":5355,"kunĠnanĠ":5356,"fouĠ":5357,"renĠyuanĠ":5358,"ĠdaĠxingĠ":5359,"yinĠruĠ":5360,"aĠlaĠboĠ":5361,"taiĠzhongĠ":5362,"xiangĠweiĠ":5363,"xiangĠyouĠ":5364,"1980ĠnianĠ":5365,"ĠyiĠfuĠ":5366,"ĠĠĠRe":5367,"jingĠzhiĠ":5368,"xiuĠfuĠ":5369,"ĠjiĠduĠ":5370,"keĠxueĠyuanĠ":5371,"huoĠbanĠ":5372,"huanĠdeĠ":5373,"tanĠdeĠ":5374,"shunĠliĠ":5375,"fenĠbuĠzaiĠ":5376,"laĠdingĠ":5377,"ĠsuiĠzhuĠ":5378,"xiĠbaoĠ":5379,"zhanĠxianĠ":5380,"7ĠrenĠ":5381,"Ġqing":5382,"chengĠguoĠ":5383,"leĠqiĠ":5384,"junĠzhiĠ":5385,"1986ĠnianĠ":5386,"ĠdaĠfuĠ":5387,"ĠxiĠbanĠyaĠ":5388,"Ġmeng":5389,"ĠhenĠ":5390,"laiĠshiĠ":5391,"daĠhuiĠ":5392,"ĠxiangĠnianĠ":5393,"ĠwenĠhuaĠ":5394,"wangĠyuanĠ":5395,"6ĠrenĠ":5396,"keĠyouĠ":5397,"ĠxiĠerĠ":5398,"ruĠqin":5399,"kaiĠfa":5400,"ĠkeĠerĠ":5401,"qiangĠlieĠ":5402,"Ġ2012ĠnianĠ":5403,"wuĠziĠ":5404,"duoĠweiĠ":5405,"chuanĠdeĠ":5406,"ĠbuĠjinĠ":5407,"haiĠyangĠ":5408,"hĠ":5409,"ĠĠĠ1Ġ":5410,"jingĠheĠ":5411,"xiaoĠyuanĠ":5412,"zhongĠguoĠdaĠluĠdeĠ":5413,"shouĠgouĠ":5414,"haiĠpingĠmianĠ":5415,"gaiĠshiĠ":5416,"suoĠweiĠ":5417,"zeĠzaiĠ":5418,"xiuĠjianĠ":5419,"shengĠchuĠ":5420,"ĠtaĠcengĠdaiĠbiaoĠ":5421,"ganĠranĠzheĠ":5422,"ĠheĠlanĠ":5423,"tongĠmengĠ":5424,"hongĠzha":5425,"ĠwanĠyuanĠ":5426,"heiĠseĠ":5427,"ĠĠĠyinĠ":5428,"ĠĠĠaĠ":5429,"ĠriĠjunĠ":5430,"xueĠyuĠ":5431,"laiĠyueĠ":5432,"ĠzuĠfuĠ":5433,"Ġ00Ġ":5434,"ciĠshiĠjieĠdaĠzhanĠ":5435,"jiaĠweiĠ":5436,"leĠzaiĠ":5437,"taiĠyuĠ":5438,"zuiĠweiĠ":5439,"huangĠhouĠ":5440,"zhaoĠpianĠ":5441,"liĠyuĠ":5442,"yinĠliĠ":5443,"chuiĠ":5444,"yaĠmeiĠ":5445,"zhouĠzhiĠ":5446,"zuĠyiĠ":5447,"zhenĠyuĠ":5448,"jingĠyiĠ":5449,"jiangĠzhiĠ":5450,"guĠdaiĠ":5451,"geiĠleĠ":5452,"zhuĠzhiĠ":5453,"zhangĠweiĠ":5454,"renĠleiĠ":5455,"dangĠyuanĠ":5456,"manĠzuĠ":5457,"ĠtongĠshiĠgaiĠdiĠ":5458,"beiĠyuĠ":5459,"houĠweiĠ":5460,"teĠxingĠ":5461,"daĠjiangĠ":5462,"ĠdeĠjiĠchuĠ":5463,"ĠguangĠdongĠ":5464,"dingĠqiĠ":5465,"zuĠqiuĠyunĠdongĠyuanĠ":5466,"boĠshiĠxueĠweiĠ":5467,"xiangĠheĠ":5468,"qiangĠzhiĠ":5469,"bengĠ":5470,"beiĠjingĠshiĠ":5471,"shangĠchangĠ":5472,"benĠshenĠ":5473,"nongĠminĠ":5474,"neiĠluĠshengĠfenĠ":5475,"ĠliaoĠ":5476,"chengĠbaoĠ":5477,"jiaoĠzhiĠ":5478,"liangĠguoĠ":5479,"jiuĠhuiĠ":5480,"chengĠshiĠdeĠ":5481,"zhenĠjiĠ":5482,"keĠfuĠ":5483,"ĠaĠerĠ":5484,"VĠ":5485,"chuĠyouĠ":5486,"ĠhuoĠzheĠ":5487,"bangĠdeĠ":5488,"chuangĠbanĠ":5489,"ĠkuĠ":5490,"ĠzhongĠziĠ":5491,"xiaĠlingĠshiĠjianĠ":5492,"tongĠweiĠ":5493,"jingĠzaiĠ":5494,"duanĠshiĠ":5495,"xunĠzhangĠ":5496,"ĠZ":5497,"Ġpu":5498,"haoĠshiĠ":5499,"8ĠrenĠ":5500,"leĠyouĠ":5501,"bianĠhaoĠ":5502,"ĠbuĠdiĠ":5503,"keĠzhiĠ":5504,"riĠdeĠ":5505,"1987ĠnianĠ":5506,"kuoĠzhanĠ":5507,"tanĠpanĠ":5508,"ĠmuĠqian":5509,"ĠmeiĠnianĠ":5510,"tangĠdeĠ":5511,"xiangĠxinĠ":5512,"shangĠxiaĠ":5513,"luĠxuĠ":5514,"ĠtieĠ":5515,"wanĠdeĠ":5516,"minĠdiĠ":5517,"moĠsiĠ":5518,"jiuĠyiĠ":5519,"zaoĠzaiĠ":5520,"diĠqiuĠ":5521,"Ġte":5522,"woĠdeĠ":5523,"wuĠdaoĠ":5524,"ĠbuĠluoĠ":5525,"taĠweiĠ":5526,"junĠheĠ":5527,"chiĠrenĠ":5528,"juĠdaĠ":5529,"ĠĠĠjianĠjieĠ":5530,"muĠzhiĠ":5531,"gaoĠzhiĠ":5532,"fanĠzhiĠ":5533,"ĠjiĠfuĠ":5534,"renĠgongĠ":5535,"xiĠwangĠ":5536,"tianĠtiĠ":5537,"xuanĠdeĠ":5538,"1945ĠnianĠ":5539,"weiĠyiĠyiĠ":5540,"ĠkanĠ":5541,"ĠrenĠqiĠ":5542,"muĠniĠ":5543,"Ġ500":5544,"1982ĠnianĠ":5545,"geĠming":5546,"wuĠzhengĠzhuangĠ":5547,"zheĠxueĠ":5548,"suoĠyouĠdeĠ":5549,"kaiĠshiĠshiĠ":5550,"ĠshiĠyiĠgeĠweiĠyuĠ":5551,"huiĠguoĠ":5552,"niĠerĠ":5553,"ĠqiĠcheĠ":5554,"nanĠfangĠ":5555,"liangĠmingĠ":5556,"miĠyaĠ":5557,"ĠxianĠhouĠ":5558,"ziĠzhongĠ":5559,"Ġ1950":5560,"quĠzhiĠ":5561,"xiĠyaĠ":5562,"jiangĠjinĠ":5563,"yueĠnanĠ":5564,"ĠĠĠdiĠfangĠziĠliaoĠ":5565,"dianĠheĠ":5566,"yaĠheĠ":5567,"rongĠheĠ":5568,"xiangĠbiĠ":5569,"diĠyiĠweiĠ":5570,"shaĠhaiĠ":5571,"ĠzhiĠyiĠ":5572,"Ġ2014ĠnianĠ":5573,"lingĠyiĠgeĠ":5574,"feiĠerĠ":5575,"fengĠfuĠ":5576,"chuĠshouĠ":5577,"wenĠduĠ":5578,"kaiĠshiĠzaiĠ":5579,"yanĠyuĠ":5580,"bingĠyiĠ":5581,"duiĠciĠ":5582,"ĠĠĠjieĠ":5583,"fangĠjianĠ":5584,"paiĠhangĠ":5585,"daiĠshiĠ":5586,"pingĠdeĠ":5587,"nuoĠfuĠ":5588,"1983ĠnianĠ":5589,"ĠguoĠquĠ":5590,"ĠwaĠ":5591,"ziĠzaiĠ":5592,"changĠjianĠ":5593,"aoĠzhouĠ":5594,"cengĠweiĠ":5595,"40Ġ":5596,"yinĠpaiĠ":5597,"gaoĠxiong":5598,"Ġsong":5599,"ĠyiĠsiĠlanĠ":5600,"yeĠjiĠ":5601,"liangĠnianĠ":5602,"shenĠduĠ":5603,"zhouĠheĠ":5604,"sanĠjiaĠ":5605,"ĠyiĠwuĠ":5606,"ĠnianĠweiĠ":5607,"qinĠwangĠ":5608,"Ġ0Ġ":5609,"nvĠzhuĠ":5610,"ĠĠĠyingĠ":5611,"xiuĠdeĠ":5612,"naĠcui":5613,"guanĠliĠjuĠ":5614,"huĠweiĠ":5615,"dingĠshiĠ":5616,"daĠxiĠyangĠ":5617,"2ĠgeĠ":5618,"wĠĠĠ":5619,"haiĠbaĠweiĠ":5620,"ĠĠĠandĠĠĠ":5621,"zĠ":5622,"ĠjiuĠshiĠ":5623,"peiĠzhiĠ":5624,"tiĠweiĠ":5625,"ĠjiĠhouĠ":5626,"ĠkeĠxiĠ":5627,"shanĠfengĠ":5628,"yeĠyiĠ":5629,"tongĠmingĠ":5630,"dongĠshiĠzhangĠ":5631,"Ġxu":5632,"ĠĠĠzhengĠ":5633,"leĠzhongĠ":5634,"zouĠxiangĠ":5635,"ĠyouĠzhongĠ":5636,"xiaoĠfangĠ":5637,"ĠjiaĠzuĠ":5638,"zaiĠliĠ":5639,"zhuĠweiĠ":5640,"huanĠzheĠ":5641,"liangĠdaĠ":5642,"hanĠdeĠ":5643,"suoĠcaiĠyong":5644,"jieĠzhongĠ":5645,"ĠbingĠweiĠ":5646,"ĠbuĠduanĠ":5647,"ĠshiĠyiĠbuĠ":5648,"Ġ28":5649,"ĠruoĠ":5650,"ĠbuĠerĠ":5651,"ĠxiĠlie":5652,"ĠdaĠduoĠshuĠ":5653,"gaiĠzaoĠ":5654,"nengĠyuanĠ":5655,"veĠĠĠ":5656,"zhanĠlve":5657,"shouĠrenĠ":5658,"junĠrenĠ":5659,"kaoĠlv":5660,"zhiĠshiĠqiĠ":5661,"Ġ24":5662,"ĠĠĠjingĠ":5663,"wenĠzhongĠ":5664,"jieĠtiĠ":5665,"zhanĠlanĠ":5666,"5ĠmiĠ":5667,"gongĠchengĠshiĠ":5668,"junĠzhongĠ":5669,"ganĠranĠ":5670,"mengĠgu":5671,"baĠheĠ":5672,"manĠdiĠ":5673,"erĠtongĠ":5674,"guĠdingĠ":5675,"Ġku":5676,"ĠzaiĠyouĠ":5677,"geĠjuĠ":5678,"ĠĠĠ4":5679,"taiĠheĠ":5680,"lunĠshiĠ":5681,"Ġcn":5682,"leĠzheĠ":5683,"huanĠxingĠ":5684,"ĠguoĠneiĠ":5685,"shangĠshengĠ":5686,"ĠweiĠyuĠgaiĠ":5687,"geĠyuĠ":5688,"jieĠliĠ":5689,"muĠqian":5690,"boĠlinĠ":5691,"jueĠduiĠ":5692,"huiĠyiĠyuanĠ":5693,"zhengĠxie":5694,"gongĠliĠdeĠ":5695,"kouĠdeĠ":5696,"ĠshiĠyeĠ":5697,"ĠerĠfeiĠ":5698,"diaoĠkuai":5699,"aiĠerĠlanĠ":5700,"daoĠweiĠ":5701,"xiaoĠfeiĠ":5702,"xiaĠlingĠ":5703,"ĠfuĠqinĠ":5704,"mianĠduiĠ":5705,"1ĠĠĠ":5706,"Ġ187":5707,"ĠdeĠyiĠshuĠ":5708,"ĠdongĠnanĠ":5709,"sanĠweiĠ":5710,"ĠweiĠUTCĠ":5711,"shengĠdiĠ":5712,"zhuĠyiĠzheĠ":5713,"xiongĠyaĠliĠ":5714,"lianĠheĠhuiĠ":5715,"ĠgenĠ":5716,"zhouĠyiĠ":5717,"yanĠhaiĠ":5718,"ĠcnĠ":5719,"ĠĠĠjiaoĠtongĠ":5720,"zhuĠheĠ":5721,"wenĠheĠ":5722,"sanĠdaĠ":5723,"ĠerĠqiĠ":5724,"ziĠshenĠ":5725,"diaoĠkuaiĠyiĠxiaoĠshiĠ":5726,"chengĠyouĠ":5727,"zhangĠyueĠ":5728,"chongĠjiĠ":5729,"guoĠhuiĠ":5730,"liuĠxiaĠ":5731,"luoĠshiĠ":5732,"laoĠshiĠ":5733,"ĠjiĠUTCĠ":5734,"paiĠqianĠ":5735,"sheĠyouĠxiaĠlingĠshiĠjianĠ":5736,"ĠdeĠshiĠquĠweiĠUTCĠ":5737,"ĠerĠgaiĠdiĠsuoĠcaiĠyong":5738,"ĠtongĠshiĠgaiĠdiĠsheĠyouĠxiaĠlingĠshiĠjianĠ":5739,"ĠerĠgaiĠdiĠsuoĠcaiĠyongĠdeĠshiĠquĠweiĠUTCĠ":5740,"ĠĠĠmaĠ":5741,"shuĠrenĠ":5742,"nanĠhaiĠ":5743,"ĠlingĠyouĠ":5744,"mangĠ":5745,"jingĠgaoĠ":5746,"chuangĠzaoĠ":5747,"jianĠliĠleĠ":5748,"oĠĠĠ":5749,"miĠshuĠzhangĠ":5750,"bianĠyiĠ":5751,"xiangĠtongĠdeĠ":5752,"bingĠfeiĠ":5753,"guanĠheĠ":5754,"zhangĠheĠ":5755,"caiĠdeĠ":5756,"biĠyeĠhouĠ":5757,"gaoĠyuĠhaiĠpingĠmianĠ":5758,"Ġchi":5759,"dangĠjiĠ":5760,"qunĠzhongĠ":5761,"ruĠdeĠ":5762,"ĠqiĠfuĠ":5763,"lieĠruĠ":5764,"gaiĠmingĠweiĠ":5765,"quĠdeĠmianĠjiĠweiĠ":5766,"haiĠbaĠweiĠgaoĠyuĠhaiĠpingĠmianĠ":5767,"Ġsa":5768,"heĠĠĠ":5769,"jinĠxingĠdeĠ":5770,"faĠzhiĠ":5771,"xuanĠzhongĠ":5772,"jingĠduĠ":5773,"changĠsuoĠ":5774,"tanĠxianĠ":5775,"ĠzhongĠshanĠ":5776,"daĠbuĠfen":5777,"shouĠxianĠ":5778,"guanĠcha":5779,"ĠgeĠquĠ":5780,"ĠqiĠzhongĠbaoĠkuoĠ":5781,"ĠsuiĠshiĠ":5782,"ĠziĠyouĠ":5783,"zhanĠyuĠ":5784,"zhengĠce":5785,"buĠshiĠquĠ":5786,"fangĠjiĠ":5787,"daĠlouĠ":5788,"biaoĠbenĠ":5789,"daĠyiĠ":5790,"stĠ":5791,"ĠyueĠyiĠ":5792,"ĠshanĠxiĠ":5793,"shangĠdiĠ":5794,"chaoĠyueĠ":5795,"Ġ2025":5796,"Ġ2015ĠnianĠ":5797,"pingĠguĠ":5798,"benĠrenĠ":5799,"tiaoĠjieĠ":5800,"yanĠseĠ":5801,"zhangĠfuĠ":5802,"banĠben":5803,"cunĠluoĠ":5804,"ĠhuoĠdongĠ":5805,"ĠrongĠ":5806,"douĠzaiĠ":5807,"tuĠjingĠ":5808,"yiĠshiĠdeĠ":5809,"suoĠzaiĠdiĠ":5810,"shuangĠdaĠ":5811,"qianĠdingĠ":5812,"ĠluoĠmaĠ":5813,"ĠdaĠluĠ":5814,"cheĠxiangĠ":5815,"jiĠĠĠ":5816,"liĠdeĠ":5817,"gongĠweiĠ":5818,"dengĠzhiĠ":5819,"gongĠneng":5820,"ĠmeiĠyuanĠ":5821,"suoĠchuĠdeĠhaiĠbaĠweiĠgaoĠyuĠhaiĠpingĠmianĠ":5822,"changĠjingĠ":5823,"danĠbaiĠ":5824,"ĠshuoĠ":5825,"orĠ":5826,"sheĠxianĠ":5827,"feiĠerĠdeĠ":5828,"tuiĠxiuĠ":5829,"xiaoĠyuĠ":5830,"ĠbuĠxiangĠ":5831,"duanĠshiĠjianĠ":5832,"alĠĠĠ":5833,"ĠzaiĠtaĠ":5834,"NĠ":5835,"laiĠsiĠ":5836,"yangĠjiĠ":5837,"seĠfuĠ":5838,"jianĠkangĠ":5839,"shenĠhuaĠ":5840,"luoĠfaĠ":5841,"ĠerĠdeĠ":5842,"sanĠrenĠ":5843,"huiĠguiĠ":5844,"ĠerĠbuĠshiĠ":5845,"tiĠxingĠ":5846,"ouĠxiangĠ":5847,"yinĠxiangĠ":5848,"ĠdeĠjiĠluĠ":5849,"ĠĠĠ2Ġ":5850,"yanĠrenĠ":5851,"caiĠnengĠ":5852,"yanĠheĠ":5853,"quĠzhuĠ":5854,"ĠwanĠliĠ":5855,"ĠĠĠanĠ":5856,"yinĠyuĠ":5857,"luoĠyuĠ":5858,"juĠleĠ":5859,"naĠxieĠ":5860,"ĠY":5861,"1978ĠnianĠ":5862,"diĠxiaĠ":5863,"zuĠqiuĠduiĠ":5864,"mianĠyiĠ":5865,"shuaiĠlingĠ":5866,"ĠqiĠxuanĠ":5867,"yongĠleĠ":5868,"ĠxiaoĠshiĠ":5869,"ĠshiĠbeiĠ":5870,"zuĠcheng":5871,"boĠlan":5872,"yanĠzhongĠdeĠ":5873,"ĠluĠwa":5874,"keĠnengĠhuiĠ":5875,"ĠMi":5876,"ĠyiĠshengĠ":5877,"ĠheĠdaoĠ":5878,"canĠxuanĠ":5879,"chuĠzhongĠ":5880,"kongĠxiĠ":5881,"kĠĠĠ":5882,"ĠnianĠshiĠjieĠ":5883,"huĠxiangĠ":5884,"quanĠyiĠ":5885,"lianĠluoĠ":5886,"ĠĠĠdiĠyiĠ":5887,"changĠshangĠ":5888,"qingĠjieĠ":5889,"zaiĠyiĠqiĠ":5890,"9ĠrenĠ":5891,"danĠshiĠ":5892,"zhouĠliĠ":5893,"ĠzhongĠgongĠzhongĠyangĠ":5894,"Ġ2016ĠnianĠ":5895,"tuĠjiĠ":5896,"beiĠfangĠ":5897,"kaiĠdeĠ":5898,"tiĠgongĠleĠ":5899,"guanĠyiĠ":5900,"muĠerĠ":5901,"queĠshiĠ":5902,"beiĠsiĠ":5903,"huaĠjiaĠ":5904,"ĠmaĠlai":5905,"Ġ2007":5906,"Ġ7Ġ":5907,"ĠchaoĠxianĠ":5908,"shuĠbuĠ":5909,"faĠyiĠ":5910,"dingĠliĠ":5911,"xianĠzhuĠ":5912,"duiĠyingĠ":5913,"daiĠlingĠ":5914,"zhenĠquĠdeĠmianĠjiĠweiĠ":5915,"Ġ2023":5916,"ĠĠĠmeiĠ":5917,"daiĠweiĠ":5918,"ĠzhiĠshuĠ":5919,"ziĠchanĠ":5920,"faĠshengĠzaiĠ":5921,"zhongĠyiĠyuanĠ":5922,"zhuĠzhongĠ":5923,"neiĠdiĠ":5924,"zhengĠbianĠ":5925,"qianĠyueĠ":5926,"cengĠdeĠ":5927,"heĠliuĠ":5928,"fuĠxingĠ":5929,"mianĠfeiĠ":5930,"ĠshouĠdaoĠ":5931,"zuĠqiuĠjuĠleĠbuĠ":5932,"ĠĠĠ2008":5933,"qianĠxiĠ":5934,"kaoĠshiĠ":5935,"diĠquĠdeĠ":5936,"geĠguoĠ":5937,"baoĠluoĠ":5938,"zuiĠduoĠ":5939,"suĠgeĠlanĠ":5940,"tiĠheĠ":5941,"shangĠjiĠ":5942,"yanĠjiĠ":5943,"bingĠyuĠ":5944,"sheĠzaiĠ":5945,"ziĠxun":5946,"guanĠceĠ":5947,"zhuanĠmenĠ":5948,"muĠsiĠlinĠ":5949,"ruĠweiĠ":5950,"kaĠlaĠ":5951,"ĠshouĠciĠ":5952,"ĠyuanĠmingĠ":5953,"ĠĠĠxingĠ":5954,"shenĠyiĠ":5955,"sheĠjiĠshiĠ":5956,"Ġ2ĠyueĠ":5957,"sanĠbuĠ":5958,"zhongĠyao":5959,"wuĠguanĠ":5960,"baoĠcunĠ":5961,"tianĠhouĠ":5962,"yangĠxingĠ":5963,"ĠyuĠxiĠ":5964,"zhongĠguoĠdaĠluĠ":5965,"ĠbuĠlaĠ":5966,"feiĠyanĠ":5967,"mianĠdianĠ":5968,"zaoĠshangĠ":5969,"ĠĠĠyanĠ":5970,"llĠ":5971,"leĠdeĠ":5972,"duoĠnianĠ":5973,"Ġ26":5974,"xueĠzhongĠ":5975,"qingĠrenĠ":5976,"chuĠweiĠ":5977,"pingĠguoĠ":5978,"tuiĠjianĠ":5979,"liaoĠdeĠ":5980,"cuĠ":5981,"quanĠxianĠ":5982,"gengĠxinĠ":5983,"ĠĠĠran":5984,"guoĠneiĠ":5985,"diĠwuĠ":5986,"chuanĠtongĠdeĠ":5987,"ĠbeiĠchengĠweiĠ":5988,"gaoĠshiĠ":5989,"juĠfengĠ":5990,"wanĠzhengĠ":5991,"langĠzhongĠ":5992,"shouĠquanĠ":5993,"ĠxiangĠguanĠ":5994,"shuĠzaiĠ":5995,"pianĠzhongĠ":5996,"tongĠxunĠ":5997,"Ġshao":5998,"huaĠzaiĠ":5999,"bianĠjingĠ":6000,"shanĠxianĠ":6001,"Ġkan":6002,"jueĠyuĠ":6003,"miaoĠhuiĠ":6004,"1958ĠnianĠ":6005,"yuanĠxianĠ":6006,"xieĠzuoĠ":6007,"zanĠzhuĠ":6008,"Ġ50":6009,"chengĠzaiĠ":6010,"muĠyuĠ":6011,"ĠliĠchengĠ":6012,"guiĠmo":6013,"juĠzaiĠ":6014,"baĠsiĠ":6015,"geĠlaĠ":6016,"faĠmingĠ":6017,"luoĠshanĠjiĠ":6018,"Ġ2019ĠnianĠ":6019,"liĠziĠ":6020,"fengĠdeĠ":6021,"ĠshiĠjiaĠ":6022,"cheĠchangĠ":6023,"tuĠshuĠ":6024,"ĠĠĠgongĠ":6025,"1979ĠnianĠ":6026,"ĠzhiĠwaiĠ":6027,"xingĠmuĠ":6028,"ĠdiĠqiuĠ":6029,"ĠjueĠdingĠ":6030,"baĠdaĠ":6031,"veĠ":6032,"piĠzhun":6033,"Ġlv":6034,"xianĠruĠ":6035,"jinĠriĠ":6036,"zhangĠzhuanĠjiĠ":6037,"ĠzuiĠgaoĠ":6038,"Ġ25":6039,"Ġpeng":6040,"xianĠzhongĠ":6041,"tunĠ":6042,"quĠjianĠ":6043,"1972ĠnianĠ":6044,"fuĠzhuĠ":6045,"Ġhei":6046,"xingĠzaiĠ":6047,"ĠbiĠsaiĠ":6048,"beiĠrenĠmingĠweiĠ":6049,"ĠnuoĠ":6050,"ĠĠĠrenĠ":6051,"yinĠyue":6052,"zhouĠrenĠ":6053,"jiangĠyiĠ":6054,"pingĠlun":6055,"ĠshanĠdongĠ":6056,"guoĠminĠdangĠ":6057,"duiĠzhongĠ":6058,"ĠyouĠzaiĠ":6059,"jiuĠyuanĠ":6060,"ĠlianĠheĠ":6061,"liangĠheĠ":6062,"bianĠzhiĠ":6063,"ĠshiĠtaĠ":6064,"ĠdeĠshiĠyongĠ":6065,"gaiĠzhiĠweiĠ":6066,"ĠliĠliangĠ":6067,"chuĠzhangĠ":6068,"luoĠliĠdaĠ":6069,"linĠsiĠ":6070,"ĠyuĠbeiĠ":6071,"juĠbenĠ":6072,"jiaoĠduĠ":6073,"tianĠzhuĠ":6074,"Ġ2017ĠnianĠ":6075,"ĠdiĠdiĠ":6076,"xiaoĠyingĠ":6077,"zaoĠchengĠdeĠ":6078,"uĠ":6079,"Ġge":6080,"Ġsang":6081,"suĠliĠ":6082,"shouĠboĠ":6083,"shangĠxianĠ":6084,"ĠshiĠjianĠzhuĠ":6085,"ĠhuoĠshiĠ":6086,"banĠjiĠ":6087,"zhangĠziĠ":6088,"huĠlianĠ":6089,"Ġ2018ĠnianĠ":6090,"aoĠerĠ":6091,"Ġtang":6092,"zhanĠmuĠsiĠ":6093,"Ġshuang":6094,"aiĠliĠ":6095,"ĠĠĠdongĠ":6096,"fuĠshuĠ":6097,"yunĠdeĠ":6098,"lieĠshiĠ":6099,"touĠxianĠ":6100,"luĠzhanĠ":6101,"ĠhouĠzheĠ":6102,"1ĠgeĠ":6103,"ĠĠĠgeĠrenĠ":6104,"dingĠjiĠ":6105,"ĠweiĠbeiĠ":6106,"yunĠyongĠ":6107,"ĠĠĠduiĠ":6108,"maĠshiĠ":6109,"ĠpuĠtaoĠ":6110,"ĠkouĠ":6111,"ĠĠĠnanĠ":6112,"huaiĠyiĠ":6113,"ĠciĠnianĠ":6114,"ĠzuĠzhiĠ":6115,"xiaĠzaiĠ":6116,"xuĠjiĠ":6117,"ĠyiĠdongĠ":6118,"ĠweiĠyuĠzhongĠguoĠ":6119,"ĠĠĠbaĠ":6120,"guanĠjiĠ":6121,"ĠyingĠwenĠ":6122,"canĠyiĠ":6123,"diĠqiĠ":6124,"huoĠcheĠ":6125,"miĠniĠ":6126,"qiangĠduĠ":6127,"ĠzaĠzhiĠ":6128,"yaoĠshiĠ":6129,"ĠdiĠyaĠ":6130,"leiĠsiĠdeĠ":6131,"ĠaiĠerĠ":6132,"shaoĠdeĠ":6133,"ĠzhiĠbuĠ":6134,"baoĠhu":6135,"xinĠguanĠ":6136,"huoĠbiĠ":6137,"ĠlunĠ":6138,"zhaĠdanĠ":6139,"chaiĠ":6140,"jiaoĠchaĠ":6141,"minĠzu":6142,"chuanĠmeiĠ":6143,"baĠerĠ":6144,"17Ġ":6145,"juĠbanĠdeĠ":6146,"xueĠkeĠ":6147,"naĠxiaĠ":6148,"ĠgaiĠbianĠ":6149,"daoĠzaiĠ":6150,"ĠshiĠchengĠ":6151,"bingĠduĠ":6152,"canĠtingĠ":6153,"xingĠzhengĠquĠ":6154,"ĠxuĠyaoĠ":6155,"chĠ":6156,"ĠxinĠwenĠ":6157,"ĠmingĠzhiĠ":6158,"ĠĠĠzengĠzuĠ":6159,"ĠzhongĠxingĠ":6160,"xiĠnanĠbuĠ":6161,"taiĠhouĠ":6162,"zuiĠzao":6163,"ĠĠĠ10":6164,"xinĠjiaĠpo":6165,"ĠĠĠ2009":6166,"wuĠyueĠ":6167,"zhengĠjiĠ":6168,"luoĠyiĠ":6169,"ĠshiĠyiĠkeĠ":6170,"ganĠyuĠ":6171,"xiangĠfaĠ":6172,"tiĠchuĠdeĠ":6173,"Ġ35":6174,"faĠliĠ":6175,"ĠshiĠerĠ":6176,"ĠdaĠbuĠfen":6177,"ĠhangĠ":6178,"pinĠdeĠ":6179,"juĠban":6180,"taiĠkongĠ":6181,"zhuanĠxieĠ":6182,"3ĠhaoĠ":6183,"Ġ2006":6184,"xiĠyouĠ":6185,"chuĠguoĠ":6186,"xueĠliĠ":6187,"zheĠheĠ":6188,"zongĠyiĠ":6189,"baiĠyuĠ":6190,"ĠrenĠweiĠshiĠ":6191,"jueĠsai":6192,"ĠshiĠshiĠyongĠ":6193,"zongĠrenĠkouĠ":6194,"teĠquĠ":6195,"suiĠran":6196,"ĠbingĠbeiĠ":6197,"faĠxianĠdeĠ":6198,"ĠxiĠyinĠ":6199,"qingĠzhuĠ":6200,"Ġ29":6201,"jiangĠliĠ":6202,"zhuĠdaoĠ":6203,"meiĠjunĠ":6204,"ĠchunĠ":6205,"xueĠjiĠ":6206,"tongĠxinĠ":6207,"aĠgenĠ":6208,"Ġ2004ĠnianĠ":6209,"ĠzhongĠdianĠ":6210,"shangĠwangĠ":6211,"ĠyanĠjiuĠ":6212,"ĠĠĠhouĠ":6213,"baĠdeĠ":6214,"jinĠrong":6215,"jiaoĠhuanĠ":6216,"wuĠzhengĠzhuangĠganĠranĠzheĠ":6217,"Ġ2021ĠnianĠ":6218,"xingĠshiĠdeĠ":6219,"miĠsiĠ":6220,"suĠzhiĠ":6221,"touĠdeĠ":6222,"chengĠleĠ":6223,"ĠmaĠliĠ":6224,"sheĠjiaoĠ":6225,"ĠchuĠbanĠ":6226,"teĠjiĠ":6227,"suiĠzheĠ":6228,"duanĠpianĠ":6229,"Ġmao":6230,"shenĠyuĠ":6231,"1976ĠnianĠ":6232,"geĠziĠ":6233,"ĠdiĠzaiĠ":6234,"xinĠjianĠ":6235,"zuĠjieĠ":6236,"ĠdeĠyiĠyuanĠ":6237,"juĠzhiĠ":6238,"dianĠweiĠ":6239,"minĠyiĠ":6240,"qiĠzhongĠ":6241,"ĠshiĠrenĠminĠ":6242,"xianĠzhiĠxianĠ":6243,"Ġshui":6244,"ĠĠĠliuĠ":6245,"xianĠliĠ":6246,"taĠyiĠ":6247,"duiĠjiĠ":6248,"1960ĠnianĠ":6249,"daĠxiaoĠ":6250,"Ġ27":6251,"Ġshun":6252,"cheĠdiĠ":6253,"fangĠmian":6254,"ĠĠĠIn":6255,"shouĠbuĠ":6256,"chuanĠqiĠ":6257,"faĠsheng":6258,"guĠlaĠ":6259,"huangĠseĠ":6260,"ĠĠĠtianĠ":6261,"zhengĠquĠ":6262,"biĠxu":6263,"yongĠzaiĠ":6264,"teĠheĠ":6265,"ĠdeĠhuaĠ":6266,"huoĠshengĠ":6267,"teĠdianĠ":6268,"ĠtaĠheĠ":6269,"ĠĠĠshiĠyongĠ":6270,"Ġ60":6271,"ĠweiĠyiĠ":6272,"Ġ2020ĠnianĠ":6273,"duĠguoĠ":6274,"zhangĠzhiĠ":6275,"zanĠshiĠ":6276,"qiĠlaiĠ":6277,"xiĠbeiĠbuĠ":6278,"siĠdaĠ":6279,"zuiĠdiĠ":6280,"1920ĠnianĠ":6281,"luoĠchengĠ":6282,"zuiĠzaoĠ":6283,"yunĠdongĠdeĠ":6284,"bangĠqiuĠ":6285,"buĠdeĠcunĠzhuangĠ":6286,"linĠjinĠ":6287,"gaoĠduĠweiĠ":6288,"ĠyouĠzhuĠ":6289,"¡Ġ":6290,"laiĠyuĠ":6291,"leĠyuanĠ":6292,"gangĠkouĠ":6293,"xunĠlian":6294,"gongĠyuanĠqianĠ":6295,"ciĠdiĠ":6296,"wuĠdiĠ":6297,"chengĠjiuĠ":6298,"xinĠjiangĠ":6299,"gongĠzuoĠshiĠ":6300,"anĠzhiĠ":6301,"ĠshuangĠfangĠ":6302,"dangĠnianĠ":6303,"ĠgongĠyeĠ":6304,"23Ġ":6305,"qiĠcheĠ":6306,"lingĠchenĠ":6307,"danĠdaĠ":6308,"yongĠjiĠ":6309,"1980ĠnianĠdaiĠ":6310,"ĠshiĠhouĠ":6311,"xianĠchengĠ":6312,"faĠtingĠ":6313,"hanĠziĠ":6314,"ĠyiĠgongĠ":6315,"zhongĠhuaĠminĠguoĠ":6316,"changĠbiĠsaiĠ":6317,"shanĠmaiĠ":6318,"ĠdeĠyiĠxieĠ":6319,"chuĠbanĠsheĠ":6320,"jingĠneiĠgongĠyouĠ":6321,"ĠQ":6322,"sanĠzhongĠ":6323,"ĠyiĠqianĠ":6324,"shengĠdaoĠ":6325,"ĠgeĠshouĠ":6326,"huiĠweiĠ":6327,"jiangĠshuĠ":6328,"sanĠmingĠ":6329,"Ġ10Ġ":6330,"ĠnengĠ":6331,"daoĠyouĠ":6332,"houĠjiĠ":6333,"xianĠshangĠ":6334,"xinĠjieĠ":6335,"ĠxiangĠmuĠ":6336,"ĠJo":6337,"xiaoĠliĠyuĠ":6338,"qiĠhouĠ":6339,"ĠjiaĠlaĠ":6340,"ĠdianĠshiĠ":6341,"daĠdiĠ":6342,"lieĠchuĠ":6343,"Ġ30Ġ":6344,"chengĠzhiĠweiĠ":6345,"xiuĠdaoĠ":6346,"ĠdunĠ":6347,"ĠdaĠjiaĠ":6348,"henĠkuaiĠ":6349,"ĠzhaoĠheĠ":6350,"Ġì":6351,"haiĠzaiĠ":6352,"ĠheĠliuĠ":6353,"zanĠtingĠ":6354,"ĠceĠ":6355,"biĠliĠshiĠ":6356,"baiĠkeĠ":6357,"ĠyiĠbianĠ":6358,"laiĠyinĠ":6359,"ĠĠĠdaoĠ":6360,"ruanĠtiĠ":6361,"thĠ":6362,"jianĠduĠ":6363,"yeĠfuĠ":6364,"ĠtaĠyouĠ":6365,"ĠerĠgaiĠdiĠdeĠ":6366,"tongĠheĠ":6367,"ĠdaĠjiangĠ":6368,"ĠdanĠyinĠ":6369,"Ġi":6370,"jinĠyuĠ":6371,"ĠtongĠyiĠ":6372,"ĠliangĠgeĠ":6373,"duiĠheĠ":6374,"huoĠzaiĠ":6375,"tiĠdaiĠ":6376,"qianĠtingĠ":6377,"ĠĠĠgaiĠyaoĠ":6378,"ĠbuĠdaoĠ":6379,"chengĠquĠ":6380,"xiangĠyingĠ":6381,"ĠqiĠbingĠ":6382,"ĠcaiĠyongĠ":6383,"ĠweiĠfuĠqiĠyuĠgang":6384,"aoĠdeĠ":6385,"faĠjiĠ":6386,"duiĠdiĠ":6387,"yaĠrenĠ":6388,"1990ĠnianĠdaiĠ":6389,"ĠliĠfuĠ":6390,"jingĠguanĠ":6391,"qianĠjinĠ":6392,"wangĠwangĠ":6393,"ĠtaĠmenĠzaiĠ":6394,"tanĠheĠ":6395,"faĠdongĠjiĠ":6396,"ĠzuiĠchuĠ":6397,"ĠzhuanĠjiĠ":6398,"queĠbaoĠ":6399,"maĠtouĠ":6400,"ĠX":6401,"anĠliĠ":6402,"xingĠyouĠ":6403,"pinĠzhongĠ":6404,"qunĠtiĠ":6405,"ĠqiĠheĠ":6406,"bianĠyuanĠ":6407,"buĠmenĠ":6408,"yunĠheĠ":6409,"naĠheĠ":6410,"Ã©Ġ":6411,"fuĠhaoĠ":6412,"pingĠyuanĠ":6413,"ĠdeĠshiĠjiĠ":6414,"shuĠchuĠ":6415,"ĠjinĠshiĠ":6416,"changĠjiĠ":6417,"kuoĠjianĠ":6418,"ĠtaĠrenĠweiĠ":6419,"dianĠshiĠjieĠ":6420,"siĠlanĠ":6421,"fenĠpeiĠ":6422,"ĠĠĠjiaĠtingĠ":6423,"ĠyueĠduiĠ":6424,"ĠxiĠtongĠdeĠ":6425,"juĠyuanĠ":6426,"yeĠkeĠyiĠ":6427,"guiĠfanĠ":6428,"Ġtao":6429,"Ġ2002ĠnianĠ":6430,"jiuĠzaiĠ":6431,"wuĠshuĠ":6432,"beiĠjing":6433,"sheĠdingĠ":6434,"chuangĠzuoĠdeĠ":6435,"leĠyiĠxieĠ":6436,"Ġ40":6437,"fuĠza":6438,"daĠshiĠguanĠ":6439,"riĠbenĠdeĠ":6440,"danĠyiĠ":6441,"ĠliĠliĠ":6442,"jiaoĠtang":6443,"suiĠranĠ":6444,"canĠshuĠ":6445,"tuiĠguangĠ":6446,"senĠlin":6447,"eĠguoĠ":6448,"ĠRo":6449,"ĠĠĠshouĠ":6450,"maĠkeĠsiĠ":6451,"qiuĠshiĠ":6452,"peiĠbeiĠ":6453,"jieĠduan":6454,"quĠfenĠ":6455,"ĠxianĠweiĠ":6456,"ĠzhongĠguoĠrenĠminĠjieĠfangĠjunĠ":6457,"xuanĠshiĠ":6458,"fuĠmuĠ":6459,"wuĠzhuang":6460,"saiĠerĠweiĠ":6461,"gengĠduoĠdeĠ":6462,"ĠRe":6463,"ĠnongĠ":6464,"changĠduĠ":6465,"tieĠluĠcheĠzhanĠ":6466,"laĠweiĠ":6467,"beiĠdaĠ":6468,"qianĠshenĠ":6469,"yaĠmuĠ":6470,"ĠyouĠliangĠ":6471,"ĠzhongĠjianĠ":6472,"ĠĠĠwangĠ":6473,"wanĠliĠ":6474,"duoĠerĠ":6475,"1956ĠnianĠ":6476,"1964ĠnianĠ":6477,"ĠyiĠmeiĠ":6478,"zhongĠbuĠ":6479,"ĠqiĠzhong":6480,"Ġguang":6481,"Ġ1970":6482,"ĠbuĠsiĠ":6483,"shangĠzhenĠ":6484,"baoĠhan":6485,"duiĠfangĠ":6486,"dengĠyuĠ":6487,"yeĠjianĠ":6488,"yeĠshengĠyaĠ":6489,"5ĠgeĠ":6490,"wangĠweiĠ":6491,"douĠbeiĠ":6492,"maiĠdeĠ":6493,"zeĠdongĠ":6494,"zhangĠjiĠ":6495,"cengĠshiĠ":6496,"chengĠweiĠyiĠ":6497,"ĠcunĠ":6498,"yanĠjingĠ":6499,"banĠjiangĠ":6500,"buĠdeĠbuĠ":6501,"alĠ":6502,"ĠzaiĠneiĠdeĠ":6503,"dengĠchangĠ":6504,"tuĠxiangĠ":6505,"anĠjiĠ":6506,"shanĠdiĠ":6507,"chuĠziĠ":6508,"qingĠchaoĠ":6509,"ĠsunĠ":6510,"wenĠjiĠ":6511,"touĠbuĠ":6512,"ĠgongĠqingĠ":6513,"junĠbuĠ":6514,"congĠweiĠ":6515,"huangĠjinĠ":6516,"keĠyunĠ":6517,"teĠlaĠ":6518,"suĠlian":6519,"yeĠshengĠ":6520,"xĠĠĠ":6521,"Ġp":6522,"1981ĠnianĠ":6523,"1968ĠnianĠ":6524,"ĠjieĠshuĠ":6525,"lvĠseĠ":6526,"Ġ8Ġ":6527,"xingĠliĠ":6528,"zheĠyangĠ":6529,"banĠyanĠ":6530,"kaiĠgongĠ":6531,"duĠjiĠ":6532,"nanĠsiĠ":6533,"Ġ45":6534,"zhuĠceĠ":6535,"ĠshiĠshiĠshangĠ":6536,"aĠlaĠbo":6537,"shenĠkeĠ":6538,"chenĠjiĠ":6539,"ĠzaiĠheĠ":6540,"riĠbaoĠ":6541,"dangĠtianĠ":6542,"chiĠxu":6543,"ĠziĠyuanĠ":6544,"beiĠliĠ":6545,"zheĠzhiĠ":6546,"cheĠshiĠ":6547,"ĠxiĠanĠ":6548,"xieĠshangĠ":6549,"leĠdiĠ":6550,"xianĠdai":6551,"jinĠquĠ":6552,"fenĠzhiĠyiĠ":6553,"ĠdeĠjiĠhuaĠ":6554,"Ġtun":6555,"quĠyouĠ":6556,"haoĠyouĠ":6557,"ĠqiĠdongĠ":6558,"luĠshangĠ":6559,"ĠfuĠzeĠguanĠxiaĠ":6560,"muĠheĠ":6561,"dengĠshiĠ":6562,"zeĠyuĠ":6563,"waiĠweiĠ":6564,"zhuanĠweiĠ":6565,"seĠlie":6566,"ĠshiĠshiĠjiĠ":6567,"quanĠjiĠ":6568,"dongĠxianĠ":6569,"xiaoĠjieĠ":6570,"OĠĠĠ":6571,"Ġwa":6572,"duiĠzhiĠ":6573,"weiĠyuanĠ":6574,"shenĠmeĠ":6575,"baiĠwanĠ":6576,"ĠÏ":6577,"Ġbao":6578,"xiangĠqiĠ":6579,"cheĠduiĠ":6580,"haoĠpingĠ":6581,"eĠdeĠ":6582,"ĠĠĠchengĠ":6583,"sectionĠĠĠ":6584,"ĠyiĠnian":6585,"fuĠerĠ":6586,"zhengĠshuĠ":6587,"shouĠshuĠ":6588,"ĠfenĠbieĠ":6589,"ĠĠĠguĠ":6590,"quĠzhongĠ":6591,"shaĠdeĠ":6592,"ssĠ":6593,"ĠnianĠqingĠ":6594,"daĠduoĠ":6595,"fanĠying":6596,"zongĠjianĠ":6597,"bingĠzaiĠ":6598,"ĠqiĠxiĠzaiĠ":6599,"mianĠtiĠ":6600,"daiĠbiaoĠtuanĠ":6601,"ĠyiĠkeĠ":6602,"ĠzhongĠqiĠ":6603,"xiaoĠliangĠ":6604,"xuanĠchengĠ":6605,"feiĠlvĠbin":6606,"hangĠyeĠ":6607,"teĠleiĠ":6608,"ĠbaoĠhuĠ":6609,"ĠbingĠbuĠ":6610,"ĠsectionĠĠĠ":6611,"biaoĠjiĠ":6612,"lieĠsiĠ":6613,"yuanĠbenĠ":6614,"laiĠnaĠ":6615,"canĠjia":6616,"Ġpi":6617,"ĠĠĠCo":6618,"ĠĠĠzhangĠ":6619,"zhanĠweiĠyuĠ":6620,"fengĠshiĠ":6621,"1948ĠnianĠ":6622,"ĠgeĠleiĠ":6623,"zongĠzhiĠ":6624,"ĠheĠqiĠtaĠ":6625,"haiĠshangĠ":6626,"tuĠchuĠ":6627,"ĠĠĠranĠerĠ":6628,"changĠdaĠ":6629,"jiangĠyouĠ":6630,"baiĠzhiĠ":6631,"niaoĠleiĠ":6632,"ĠgongĠkaiĠ":6633,"ĠlianĠjieĠ":6634,"ĠĠĠThe":6635,"zhanĠyouĠ":6636,"fenĠsiĠ":6637,"ĠqiĠzhongĠnanĠxingĠ":6638,"ĠjiangĠsuĠ":6639,"ĠĠĠguangĠ":6640,"niĠxiĠyaĠ":6641,"jinĠzhanĠ":6642,"baoĠzha":6643,"ĠsiĠdaĠ":6644,"Ġsai":6645,"liangĠbuĠ":6646,"haiĠdiĠ":6647,"xieĠweiĠ":6648,"moĠniĠ":6649,"zhongĠguoĠrenĠminĠ":6650,"ĠjianĠliĠ":6651,"biĠerĠ":6652,"zhangĠyiĠ":6653,"ĠshiĠxiĠ":6654,"yanĠanĠ":6655,"shenĠzhenĠ":6656,"puĠtaoĠyaĠ":6657,"xingĠdong":6658,"gongĠdaĠ":6659,"geĠbuĠ":6660,"ĠĠĠgenĠjuĠ2020ĠnianĠmeiĠguoĠrenĠkouĠpuĠchaĠdeĠshuĠjuĠ":6661,"juĠweiĠ":6662,"luĠyiĠsiĠ":6663,"xiaĠdiĠquĠ":6664,"dingĠxingĠ":6665,"changĠjiangĠ":6666,"ĠBĠ":6667,"zaiĠyiĠgeĠ":6668,"zhanĠweiĠ":6669,"ĠshiĠbuĠ":6670,"ĠguoĠwuĠyuanĠ":6671,"daoĠdanĠ":6672,"laiĠziĠyuĠ":6673,"feiĠyongĠ":6674,"ĠliuĠyuĠ":6675,"Ġfou":6676,"Ġ2024":6677,"ĠCo":6678,"ĠĠĠjingĠjiĠ":6679,"houĠzhiĠ":6680,"chuĠxianĠdeĠ":6681,"xiaoĠxiangĠ":6682,"ĠĠĠ0":6683,"ĠĠĠ2019ĠnianĠ":6684,"gongĠyueĠ":6685,"jiaoĠdiĠ":6686,"luĠheĠ":6687,"zhengĠmianĠ":6688,"1975ĠnianĠ":6689,"1952ĠnianĠ":6690,"ĠyouĠsuoĠ":6691,"gongĠkaiĠsaiĠ":6692,"Ġ2000ĠnianĠ":6693,"haĠliĠ":6694,"ĠguoĠjiaĠdeĠ":6695,"ziĠbenĠ":6696,"ĠjinĠshuĠ":6697,"kuoĠzhangĠ":6698,"ĠĠĠs":6699,"dangĠzaiĠ":6700,"1966ĠnianĠ":6701,"Ġ2005":6702,"ĠzuiĠjiaĠ":6703,"houĠbuĠ":6704,"tianĠjiaĠ":6705,"qiongĠ":6706,"xueĠyeĠ":6707,"yuanĠzhuĠminĠ":6708,"1946ĠnianĠ":6709,"fuĠzhouĠ":6710,"ĠweiĠyuanĠhuiĠweiĠyuanĠ":6711,"Ġ200":6712,"shuĠdeĠzhiĠwuĠ":6713,"beiĠyueĠ":6714,"wangĠjiĠ":6715,"keĠerĠ":6716,"beiĠpoĠ":6717,"yanĠjiangĠ":6718,"taiĠnanĠ":6719,"xuanĠjuĠzhongĠ":6720,"huoĠliĠ":6721,"shuiĠdeĠ":6722,"ganĠxianĠ":6723,"juĠmin":6724,"leĠduiĠ":6725,"zhanĠshuĠ":6726,"ĠshiĠyiĠzuoĠ":6727,"ĠSA":6728,"faĠheĠ":6729,"duoĠshiĠ":6730,"chaĠshiĠ":6731,"zheĠyangĠdeĠ":6732,"ĠshiĠdeĠshiĠ":6733,"ĠĠĠqiĠzhongĠ":6734,"ĠkaoĠ":6735,"zuĠrenĠ":6736,"laiĠkeĠ":6737,"hantĠ":6738,"ĠzaiĠbuĠ":6739,"shaoĠnvĠ":6740,"chengĠliĠhouĠ":6741,"ĠjiĠjinĠhuiĠ":6742,"nanĠjiĠzhouĠdeĠ":6743,"guĠfenĠyouĠxianĠgongĠsiĠ":6744,"yangĠheĠ":6745,"ganĠdeĠ":6746,"woĠerĠ":6747,"guĠdianĠ":6748,"daĠguiĠmoĠ":6749,"jianĠkang":6750,"huiĠdaĠ":6751,"ĠdiĠtuĠ":6752,"wenĠtiĠdeĠ":6753,"meiĠguo":6754,"zongĠcaiĠ":6755,"ĠweiĠfuĠqiĠyuĠgangĠ":6756,"ĠhantĠ":6757,"duoĠliĠyaĠ":6758,"gongĠanĠ":6759,"ĠguoĠgongĠ":6760,"chuĠchangĠ":6761,"ĠqianĠwangĠ":6762,"yaĠzhongĠ":6763,"nuoĠyiĠ":6764,"keĠluoĠ":6765,"canĠkao":6766,"reĠdaiĠfengĠbaoĠ":6767,"ingĠ":6768,"huĠxiĠ":6769,"zuoĠzhiĠ":6770,"shuaiĠling":6771,"ĠyuĠdiĠ":6772,"ĠzhongĠwenĠ":6773,"ĠtaĠjiĠ":6774,"ĠniuĠ":6775,"ĠĠĠzhuĠyaoĠ":6776,"bieĠdeĠ":6777,"xinĠtaiĠ":6778,"ĠSĠ":6779,"ĠĠĠ16":6780,"menĠshiĠ":6781,"gongĠjiaoĠ":6782,"zhuĠbanĠ":6783,"ĠshiĠyiĠzhiĠ":6784,"zuoĠfaĠ":6785,"ĠdaĠerĠ":6786,"naĠshengĠ":6787,"meiĠguoĠrenĠ":6788,"zhuanĠyongĠ":6789,"cunĠzaiĠdeĠ":6790,"hangĠtianĠ":6791,"ĠguanĠfangĠ":6792,"Ġlei":6793,"ruĠyiĠ":6794,"100Ġ":6795,"1947ĠnianĠ":6796,"xianĠdeĠyiĠgeĠfeiĠjianĠzhiĠdiĠquĠ":6797,"Ġ2022ĠnianĠ":6798,"ĠshiĠfaĠ":6799,"ĠzhiĠshaoĠ":6800,"fangĠmiĠ":6801,"ĠĠĠfanĠ":6802,"qunĠdeĠ":6803,"ĠzhiĠjingĠ":6804,"1Ġri":6805,"youĠyiĠxieĠ":6806,"ĠlingĠwai":6807,"meiĠshiĠ":6808,"dingĠzaiĠ":6809,"luĠwa":6810,"ĠxingĠjianĠ":6811,"ĠTheĠĠĠ":6812,"ĠtouĠguoĠ":6813,"xueĠbuĠ":6814,"lanĠyuĠ":6815,"ckĠ":6816,"eĠweiĠ":6817,"raoĠtaiĠyangĠ":6818,"1937ĠnianĠ":6819,"liangĠziĠ":6820,"maĠlaiĠ":6821,"ĠnianĠyiĠlaiĠ":6822,"shangĠweiĠyouĠ":6823,"baoĠheĠ":6824,"jiuĠyouĠ":6825,"ĠyiĠxueĠ":6826,"ciĠquĠ":6827,"duiĠkangĠ":6828,"xieĠdingĠ":6829,"Ġyong":6830,"Ġluo":6831,"Ġ2003ĠnianĠ":6832,"ingĠĠĠ":6833,"yingĠerĠ":6834,"niangĠ":6835,"ĠĠĠ2007":6836,"taĠrenĠ":6837,"ĠyueĠheĠ":6838,"duĠhuiĠ":6839,"banĠrenĠ":6840,"chuanĠguoĠ":6841,"ĠshiĠbingĠ":6842,"wuĠgeĠ":6843,"sanĠciĠ":6844,"ĠzheĠyangĠ":6845,"shangĠheĠ":6846,"xuanĠchuĠ":6847,"zongĠhuiĠ":6848,"ĠfaĠzhanĠ":6849,"ĠĠĠjiangĠ":6850,"ĠĠĠ3ĠyueĠ":6851,"geĠzaiĠ":6852,"IIĠ":6853,"ĠyiĠdaĠ":6854,"boĠjueĠ":6855,"ĠriĠyouĠ":6856,"ĠxinĠzengĠ":6857,"guoĠjiaĠduiĠ":6858,"ĠĠĠqiĠhouĠ":6859,"jiaoĠjieĠ":6860,"haiĠbaĠgaoĠduĠweiĠ":6861,"guangĠdeĠ":6862,"ĠyiĠheĠ":6863,"gongĠjueĠ":6864,"leiĠxingĠdeĠ":6865,"ĠshiĠyongĠleĠ":6866,"ĠdangĠshiĠdeĠ":6867,"jiaoĠyuĠbuĠ":6868,"wuĠyouĠ":6869,"wenĠti":6870,"ĠfuĠqin":6871,"ĠjinĠru":6872,"ĠdanĠqiĠ":6873,"taĠheĠ":6874,"wangĠyuĠ":6875,"waiĠxingĠ":6876,"genĠsuiĠ":6877,"ĠyiĠwaiĠ":6878,"xingĠzheng":6879,"yanĠlunĠ":6880,"ĠsiĠtaĠ":6881,"ĠrenĠminĠbiĠ":6882,"fenĠbieĠweiĠ":6883,"ĠouĠzhouĠ":6884,"jinĠzaiĠ":6885,"ĠdaoĠyanĠ":6886,"nongĠcun":6887,"vĠ":6888,"wangĠzhiĠ":6889,"1954ĠnianĠ":6890,"ĠyiĠchanĠ":6891,"sheĠyingĠ":6892,"lianĠsai":6893,"gaoĠxiaoĠ":6894,"jianĠzhuĠwuĠ":6895,"zhanĠchangĠ":6896,"xuanĠju":6897,"duanĠzan":6898,"ĠdeĠjiĠhuiĠ":6899,"qiaoĠliangĠ":6900,"ĠĠĠyueĠ":6901,"ĠĠĠpingĠjiaĠ":6902,"jingĠsaiĠ":6903,"ĠpingĠtaiĠ":6904,"ĠdanĠweiĠ":6905,"xunĠyangĠjianĠ":6906,"ĠĠĠfaĠ":6907,"tuanĠjieĠ":6908,"songĠdaoĠ":6909,"thĠĠĠ":6910,"guoĠchengĠ":6911,"shuĠmuĠ":6912,"shouĠfaĠ":6913,"fenĠjieĠ":6914,"quanĠshuĠ":6915,"ĠdeĠyiĠmeiĠ":6916,"ĠshiĠyiĠdaĠliĠ":6917,"ĠziĠjiĠ":6918,"ĠĠĠluoĠ":6919,"ĠyiĠxiangĠ":6920,"ĠkeĠluoĠ":6921,"zuiĠzaoĠdeĠ":6922,"cengĠshuiĠyuĠ":6923,"aĠfuĠ":6924,"ĠĠĠchuĠleĠ":6925,"xinĠzhongĠ":6926,"shouĠduanĠ":6927,"ĠjiangĠqiĠ":6928,"xiaĠyiĠxiaĠdiĠquĠ":6929,"yingĠxiangĠliĠ":6930,"ĠchengĠliĠyuĠ":6931,"guoĠshiĠqiĠ":6932,"puĠliĠ":6933,"pingĠjieĠ":6934,"WĠ":6935,"ciĠzhongĠ":6936,"ĠnianĠlingĠ":6937,"xunĠzhaoĠ":6938,"zhuanĠdeĠxiaoĠxingĠxingĠ":6939,"beiĠheĠ":6940,"faĠweiĠ":6941,"jiaĠmengĠ":6942,"jiangĠbeiĠ":6943,"guoĠjiĠjiĠchangĠ":6944,"Ġchao":6945,"huaĠerĠ":6946,"guoĠwuĠyuanĠ":6947,"wuĠzhongĠdeĠ":6948,"ĠdiĠdianĠ":6949,"ĠdiĠliuĠ":6950,"juĠdaĠdeĠ":6951,"wangĠziĠ":6952,"ruĠyuĠ":6953,"wangĠsiĠ":6954,"ĠliĠgongĠ":6955,"ĠdeĠshiĠwuĠ":6956,"pinĠlvĠ":6957,"zheĠjiangĠshengĠ":6958,"ĠĠĠ5ĠyueĠ":6959,"zheĠyuĠ":6960,"10ĠnianĠ":6961,"ĠyiĠerĠ":6962,"ĠjiĠxingĠ":6963,"zhengĠqiĠ":6964,"huangĠshiĠ":6965,"wangĠshangĠ":6966,"Ġshen":6967,"yaĠzhiĠ":6968,"haoĠyuĠ":6969,"guaiĠ":6970,"zuĠxieĠ":6971,"zhengĠshiĠqiĠ":6972,"shanĠdongĠshengĠ":6973,"ĠzaiĠjinĠ":6974,"mingĠjuĠrenĠ":6975,"tiĠchuĠleĠ":6976,"guangĠfan":6977,"Ġmin":6978,"ĠkeĠliĠ":6979,"ĠchuĠrenĠ":6980,"1955ĠnianĠ":6981,"ĠshiĠbaĠ":6982,"anĠzhuang":6983,"yaoĠgun":6984,"ĠbangĠ":6985,"ĠĠĠ190":6986,"songĠdeĠ":6987,"1974ĠnianĠ":6988,"huoĠyunĠ":6989,"lianĠtongĠ":6990,"aĠliĠ":6991,"Ġhuai":6992,"ĠĠĠde":6993,"shengĠbuĠ":6994,"xiaoĠyouĠ":6995,"gaoĠdiĠ":6996,"laĠerĠ":6997,"xianĠzhangĠ":6998,"faĠshengĠdeĠ":6999,"baoĠzhaĠ":7000,"yinĠyongĠ":7001,"ĠsanĠshiĠ":7002,"ĠshiĠjiĠdeĠ":7003,"pingĠminĠ":7004,"zhuangĠkuang":7005,"liĠlunĠ":7006,"zaoĠshouĠ":7007,"pingĠjunĠhaiĠbaĠgaoĠduĠweiĠ":7008,"xunĠqiuĠ":7009,"6ĠgeĠ":7010,"siĠyouĠ":7011,"zhanĠzaiĠ":7012,"duĠduĠ":7013,"danĠshuiĠ":7014,"yangĠxianĠ":7015,"neiĠzhanĠ":7016,"shaoĠjiangĠ":7017,"ĠĠĠshenĠ":7018,"yinĠzhongĠzaiĠ":7019,"taiĠerĠ":7020,"ruĠshiĠ":7021,"shuoĠdeĠ":7022,"tyĠ":7023,"guĠfenĠ":7024,"ĠzheĠciĠ":7025,"ganĠsuĠ":7026,"ĠnianĠqiĠjianĠ":7027,"ĠerĠgaiĠdiĠdeĠpingĠjunĠhaiĠbaĠgaoĠduĠweiĠ":7028,"jiangĠzhongĠ":7029,"ĠliĠxueĠ":7030,"shangĠdianĠ":7031,"Ġco":7032,"ĠquĠdeĠ":7033,"luoĠzaiĠ":7034,"maĠliĠyaĠ":7035,"shunĠshiĠ":7036,"chaiĠyouĠjiĠ":7037,"chengĠhuĠ":7038,"zengĠqiangĠ":7039,"ĠhanĠzuĠ":7040,"2010ĠnianĠmeiĠguoĠrenĠkouĠpuĠchaĠdeĠshuĠjuĠ":7041,"shuoĠshiĠxueĠweiĠ":7042,"yinĠzhongĠzaiĠpeiĠ":7043,"daĠzaiĠ":7044,"yangĠzhiĠ":7045,"qieĠerĠ":7046,"juĠtiĠ":7047,"jiaoĠfuĠ":7048,"wenĠhuaĠdeĠ":7049,"boĠluoĠ":7050,"ĠfaĠshengĠ":7051,"ĠĠĠ12":7052,"yingĠdiĠ":7053,"daiĠyuĠ":7054,"maoĠxianĠ":7055,"faĠlingĠ":7056,"baoĠxianĠ":7057,"yingĠzhanĠ":7058,"qingĠxiangĠ":7059,"5ĠgongĠliĠ":7060,"zuoĠyuĠ":7061,"suĠshiĠ":7062,"ĠbuĠneng":7063,"ĠdaĠxiĠyangĠ":7064,"ĠbiĠyeĠ":7065,"ĠgaiĠweiĠ":7066,"ĠanĠdeĠ":7067,"anĠzhongĠ":7068,"ĠĠĠ2018ĠnianĠ":7069,"banĠyuĠ":7070,"daiĠmaĠ":7071,"ĠgongĠbuĠ":7072,"renĠgongĠyinĠzhongĠzaiĠpeiĠ":7073,"yiĠshiĠyongĠ":7074,"qingĠyiĠ":7075,"suoĠyiĠ":7076,"jiangĠtaĠ":7077,"naĠruĠ":7078,"ĠkangĠxiĠ":7079,"Ġ2000":7080,"ĠjiĠliĠ":7081,"xunĠhuanĠ":7082,"tuiĠchuĠdeĠ":7083,"xiangĠshiĠdiĠ":7084,"Ġmu":7085,"mingĠjinĠshiĠ":7086,"jiaoĠzuoĠ":7087,"banĠciĠ":7088,"lingĠdaoĠdeĠ":7089,"ĠbaoĠdaoĠ":7090,"ĠxueĠshengĠ":7091,"ĠheĠyueĠ":7092,"dianĠyingĠdeĠ":7093,"ĠquanĠzhangĠ":7094,"Ġchun":7095,"Ġruan":7096,"ĠdiaoĠ":7097,"quĠzaiĠ":7098,"yeĠzhiĠ":7099,"zhangĠzaiĠ":7100,"1977ĠnianĠ":7101,"ĠheĠpanĠ":7102,"chengĠfenĠ":7103,"ĠdaĠlouĠ":7104,"guiĠzhouĠ":7105,"ĠxianĠdaiĠ":7106,"ĠĠĠtaiĠwanĠ":7107,"zhengĠyueĠ":7108,"30ĠnianĠ":7109,"rengĠyouĠ":7110,"zhuĠzhai":7111,"baoĠchi":7112,"diĠyiĠrenĠ":7113,"yanĠjiuĠshengĠ":7114,"Ġcui":7115,"ĠĠĠ2006":7116,"fuĠgaiĠ":7117,"faĠzhanĠdeĠ":7118,"xiangĠzhiĠ":7119,"zhengĠyuĠ":7120,"duiĠyuanĠ":7121,"caiĠchanĠ":7122,"ĠshengĠzhangĠyuĠ":7123,"canĠguanĠ":7124,"panĠjueĠ":7125,"ĠyuĠciĠtongĠshiĠ":7126,"Ġcu":7127,"zhuĠruĠ":7128,"benĠxianĠ":7129,"ĠjuĠminĠ":7130,"hongĠjunĠ":7131,"chanĠshengĠleĠ":7132,"biĠshiĠ":7133,"duoĠfuĠ":7134,"junĠtuanĠ":7135,"xuĠshuĠ":7136,"zhanĠheĠ":7137,"xiaĠzhiĠ":7138,"mianĠyuĠ":7139,"zhenĠrenĠ":7140,"dianĠziĠyouĠ":7141,"huoĠwuĠ":7142,"teĠyuĠ":7143,"fuĠze":7144,"wanĠquan":7145,"teĠlangĠ":7146,"tanĠdingĠ":7147,"yaĠshiĠ":7148,"zhenĠheĠ":7149,"rangĠtaĠ":7150,"shengĠmuĠ":7151,"tiĠjiaoĠ":7152,"douĠzhengĠ":7153,"suĠweiĠaiĠ":7154,"ĠpianĠ":7155,"shuĠqiĠ":7156,"luĠzaiĠ":7157,"changĠbeiĠ":7158,"ĠĠĠ10ĠyueĠ":7159,"20ĠnianĠ":7160,"zhuangĠbingĠduĠ":7161,"zhiĠchiĠ":7162,"jieĠduĠshiĠ":7163,"fenĠquĠ":7164,"ĠbeiĠkeĠ":7165,"Ġ000ĠrenĠ":7166,"ciĠyouĠ":7167,"50ĠnianĠ":7168,"yinĠjingĠ":7169,"ĠgongĠjiĠ":7170,"shangĠzhiĠ":7171,"pingĠshiĠ":7172,"qiangĠjiĠ":7173,"daĠbuĠ":7174,"jianĠshe":7175,"yanĠhuaĠ":7176,"yingĠduiĠ":7177,"ĠjiaĠjingĠ":7178,"ĠjuĠqingĠ":7179,"ĠsuĠlianĠ":7180,"ĠleĠ":7181,"zhengĠliĠ":7182,"kmĠ":7183,"dongĠniĠ":7184,"jiaoĠkeĠ":7185,"qianĠhouĠ":7186,"ĠfuĠleiĠ":7187,"chuĠxianĠleĠ":7188,"huaĠshengĠdunĠ":7189,"aiĠguoĠ":7190,"dongĠcheĠ":7191,"RĠĠĠ":7192,"leĠweiĠ":7193,"kuĠdeĠ":7194,"shengĠzhongĠ":7195,"huanĠjieĠ":7196,"fuĠsheĠ":7197,"duiĠhuaĠ":7198,"gongĠheĠdangĠ":7199,"zuĠyuĠ":7200,"ĠyouĠtaiĠ":7201,"jianĠzao":7202,"daoĠshangĠ":7203,"chuĠruĠkouĠ":7204,"baoĠzhengĠ":7205,"aiĠqingĠ":7206,"ciĠzhiĠwaiĠ":7207,"ĠĠĠe":7208,"zhuĠguoĠ":7209,"ĠrenĠzhongĠgongĠ":7210,"ĠĠĠ3Ġ":7211,"baĠyueĠ":7212,"moĠqiĠ":7213,"ĠzaiĠgaiĠ":7214,"ĠheĠqiĠ":7215,"yuanĠben":7216,"jinĠqiuĠ":7217,"chongĠqingĠ":7218,"ĠfaĠbiaoĠ":7219,"ĠnaĠme":7220,"Ġãĥ¼":7221,"riĠyiĠ":7222,"youĠguanĠ":7223,"juĠbeiĠ":7224,"shenĠshengĠ":7225,"ĠyinĠfaĠ":7226,"ĠshiĠzhongĠhuaĠrenĠminĠgongĠheĠguoĠ":7227,"zengĠjiaĠleĠ":7228,"renĠminĠdaiĠbiaoĠdaĠhuiĠ":7229,"shengĠchanĠdeĠ":7230,"Ġ80":7231,"ĠĠĠlingĠwaiĠ":7232,"keĠrenĠ":7233,"yinĠerĠ":7234,"xiaĠyuĠ":7235,"60Ġ":7236,"1971ĠnianĠ":7237,"shouĠheĠ":7238,"laĠyuĠ":7239,"buĠluoĠ":7240,"xiaĠfangĠ":7241,"ĠguoĠjiaĠduiĠ":7242,"diĠyiĠjiĠ":7243,"chuanĠdiĠ":7244,"siĠtanĠ":7245,"shenĠwangĠ":7246,"baĠlaĠ":7247,"gouĠmai":7248,"aiĠdeĠhuaĠ":7249,"leiĠweiĠ":7250,"kangĠxiĠ":7251,"chaoĠtingĠ":7252,"ĠĠĠ2017ĠnianĠ":7253,"yueĠweiĠ":7254,"kanĠdeĠ":7255,"xiangĠmu":7256,"shouĠhaiĠ":7257,"dongĠgongĠ":7258,"ĠzhuĠjianĠ":7259,"wangĠyouĠ":7260,"duanĠyuĠ":7261,"hangĠxianĠ":7262,"ĠshiĠyueĠ":7263,"ĠnianĠliĠ":7264,"shouĠfeiĠ":7265,"zongĠtong":7266,"hanĠmoĠdeĠ":7267,"ĠyiĠxingĠ":7268,"xieĠtiao":7269,"luoĠboĠteĠ":7270,"ĠĠĠxiangĠgangĠ":7271,"dingĠzhiĠ":7272,"ĠyiĠriĠ":7273,"geĠsiĠ":7274,"jiaoĠdaoĠ":7275,"fenĠqiĠ":7276,"teĠshiĠ":7277,"longĠshiĠ":7278,"chengĠhaoĠ":7279,"zhuĠdiĠ":7280,"ziĠliao":7281,"ĠerĠhouĠ":7282,"ĠkeĠnengĠshiĠ":7283,"pĠĠĠ":7284,"ĠĠĠ2016ĠnianĠ":7285,"1962ĠnianĠ":7286,"ĠyouĠyouĠ":7287,"mianĠshangĠ":7288,"canĠmouĠzhangĠ":7289,"fĠĠĠ":7290,"ĠlangĠ":7291,"xunĠfuĠ":7292,"penĠ":7293,"1938ĠnianĠ":7294,"jianĠguoĠ":7295,"ciĠdaĠ":7296,"ĠbiĠyeĠyuĠ":7297,"ĠaĠlaĠ":7298,"Ġju":7299,"meiĠzhou":7300,"caiĠliao":7301,"ĠxinĠjiaĠ":7302,"ĠlingĠyiĠfangĠmianĠ":7303,"Ġqiao":7304,"Ġcao":7305,"ĠchengĠshiĠ":7306,"ĠzhiĠluĠ":7307,"ĠliĠxinĠ":7308,"ĠĠĠzhanĠ":7309,"kongĠdeĠ":7310,"mingĠluĠ":7311,"huaĠrenĠminĠgongĠheĠ":7312,"ĠmiĠdeĠdiĠquĠ":7313,"nvĠzhuĠjueĠ":7314,"jiaoĠheĠ":7315,"naĠsiĠ":7316,"ĠxiĠhuanĠ":7317,"longĠshengĠ":7318,"ĠshengĠzhangĠyuĠhaiĠbaĠ":7319,"pinĠzhiĠ":7320,"zhuiĠsuĠ":7321,"huiĠxiangĠ":7322,"dongĠyuanĠ":7323,"changĠwu":7324,"gaoĠyuanĠ":7325,"fenĠjiĠ":7326,"qianĠzaiĠ":7327,"paiĠdeĠzhuĠ":7328,"jieĠguanĠ":7329,"shangĠjiaĠ":7330,"ĠĠĠsuiĠranĠ":7331,"duĠdaĠ":7332,"louĠdeĠ":7333,"binĠshiĠ":7334,"ĠqiĠchuĠ":7335,"mingĠqueĠ":7336,"shangĠpinĠ":7337,"qingĠxuĠ":7338,"ĠzaiĠyuĠ":7339,"ĠpinĠ":7340,"benĠkeĠ":7341,"fuĠyinĠ":7342,"riĠjiĠ":7343,"zaiĠciĠ":7344,"ĠheĠchengĠ":7345,"fenĠxiaoĠ":7346,"haiĠeĠ":7347,"huĠpoĠ":7348,"ĠjianĠsheĠ":7349,"zhanĠzhengĠzhongĠ":7350,"yeĠerĠ":7351,"ĠshiĠjingĠ":7352,"zhuĠliuĠ":7353,"moĠluoĠ":7354,"ĠtianĠjinĠ":7355,"yinĠzhiĠ":7356,"hanĠyiĠ":7357,"guoĠquĠ":7358,"daĠqiĠ":7359,"ĠbuĠdaĠ":7360,"rongĠnaĠ":7361,"xingĠzhengĠzhenĠquĠ":7362,"zhongĠdeĠyiĠ":7363,"anĠzhaoĠ":7364,"ĠnĠ":7365,"xiangĠzhongĠ":7366,"ĠliĠshiĠdeĠ":7367,"ĠdongĠwuĠ":7368,"eĠluoĠsiĠdeĠ":7369,"ĠmaĠlaiĠxiĠyaĠ":7370,"yeĠzhongĠ":7371,"quanĠweiĠ":7372,"leiĠshiĠ":7373,"buĠkeĠ":7374,"qingĠdaoĠ":7375,"ĠĠĠtaiĠ":7376,"00Ġ":7377,"1973ĠnianĠ":7378,"duiĠzhenĠ":7379,"huĠdongĠ":7380,"ĠshiĠyongĠzheĠ":7381,"ĠgenĠju":7382,"ĠshiĠzhangĠ":7383,"shangĠleĠ":7384,"yingĠjunĠ":7385,"zhouĠzhangĠ":7386,"xunĠdeĠ":7387,"fuĠzhuĠrenĠ":7388,"fenĠlieĠ":7389,"gangĠyuanĠ":7390,"chĠĠĠ":7391,"ĠĠĠzongĠ":7392,"xiangĠzaiĠ":7393,"feiĠyiĠ":7394,"cengĠrenĠ":7395,"âĢ§":7396,"shengĠjingĠ":7397,"tiĠyanĠ":7398,"liangĠceĠ":7399,"ĠkaiĠfaĠ":7400,"Ġpan":7401,"houĠbuĠjiuĠ":7402,"yongĠzhiĠ":7403,"boĠkeĠ":7404,"ĠweiĠyaĠ":7405,"gongĠgaoĠ":7406,"ĠwuĠxianĠ":7407,"nvĠhaiĠ":7408,"peiĠyangĠ":7409,"riĠyuĠ":7410,"jiuĠrenĠ":7411,"zaoĠxingĠ":7412,"gongĠshangĠ":7413,"zhengĠduoĠ":7414,"guiĠmoĠdeĠ":7415,"tuanĠzhangĠ":7416,"qingĠxiĠ":7417,"zhuĠdongĠ":7418,"xiangĠguan":7419,"chuĠnianĠ":7420,"mingĠyouĠ":7421,"yeĠweiĠ":7422,"zuoĠzhongĠ":7423,"zhenĠdiĠ":7424,"shengĠfuĠ":7425,"huiĠhuaĠ":7426,"yinĠshua":7427,"Ġning":7428,"faĠliĠyaĠ":7429,"daiĠyiĠ":7430,"suanĠfaĠ":7431,"fenĠlanĠ":7432,"shuiĠkuĠ":7433,"ĠqiĠzhongĠnanĠ":7434,"ĠquanĠqiuĠ":7435,"taiĠwanĠdeĠ":7436,".&":7437,"erĠyouĠ":7438,"meiĠriĠ":7439,"miaoĠdeĠ":7440,"1959ĠnianĠ":7441,"1936ĠnianĠ":7442,"ĠqiĠyouĠ":7443,"tongĠwangĠ":7444,"tianĠtangĠ":7445,"mianĠlinĠ":7446,"ĠdeĠrenĠwuĠ":7447,"dongĠyiĠ":7448,"huoĠyueĠ":7449,"xiaĠerĠ":7450,"leĠgaiĠ":7451,"yanĠwuĠ":7452,"qianĠruĠ":7453,"sheĠhui":7454,"ĠshiĠyiĠjiĠ":7455,"ĠhuĠnanĠ":7456,"ĠpoĠ":7457,"ĠĠĠ1949":7458,"houĠrenĠ":7459,"chengĠzhangĠ":7460,"ganĠjueĠ":7461,"ĠkeĠshiĠ":7462,"tongĠzhongĠ":7463,"duĠyiĠ":7464,"ĠyuĠqiĠtaĠ":7465,"ĠbuĠlaiĠ":7466,"qingĠshaoĠnianĠ":7467,"zhenĠyaĠ":7468,"Ġ15Ġ":7469,"tiĠyuĠguanĠ":7470,"Ġ22":7471,"yiĠshiĠjianĠ":7472,"ĠĠĠi":7473,"ĠĠĠluĠ":7474,"jianĠliĠdeĠ":7475,"1941ĠnianĠ":7476,"ĠbuĠzuĠ":7477,"suĠdanĠ":7478,"ĠxiĠbanĠyaĠyuĠ":7479,"dangĠheĠ":7480,"naĠerĠ":7481,"12ĠnianĠ":7482,"fouĠrenĠ":7483,"ĠheĠheĠ":7484,"meiĠmeiĠ":7485,"shenĠchaĠ":7486,"mianĠjiĠheĠ":7487,"ĠdongĠjingĠ":7488,"ĠboĠchuĠ":7489,"aĠjiĠ":7490,"ĠĠĠshangĠ":7491,"duiĠliĠ":7492,"ĠsheĠliĠ":7493,"anĠrenĠ":7494,"ĠĠĠriĠ":7495,"ĠĠĠfeiĠ":7496,"jieĠzaiĠ":7497,"jieĠweiĠzhiĠ":7498,"faĠzhongĠ":7499,"esĠ":7500,"shengĠxiaĠ":7501,"duoĠmingĠ":7502,"nvĠyanĠyuanĠ":7503,"ĠguoĠminĠdangĠ":7504,"xiaĠxiaĠdeĠyiĠgeĠxiangĠ":7505,"Ġgan":7506,"Ġ2004":7507,"ĠzuiĠdaĠ":7508,"chaĠliĠ":7509,"1963ĠnianĠ":7510,"weiĠyuĠ":7511,"daĠduoĠshuĠ":7512,"shouĠlingĠ":7513,"quanĠqiu":7514,"guĠdongĠ":7515,"kaiĠmuĠ":7516,"ĠdeĠyiĠsiĠ":7517,"mouĠshaĠ":7518,"ĠhaĠerĠ":7519,"ĠJR":7520,"ĠchanĠ":7521,"ĠguĠshiĠ":7522,"ĠĠĠX":7523,"shuĠyouĠ":7524,"chanĠdeĠ":7525,"tsĠ":7526,"1939ĠnianĠ":7527,"yongĠjiuĠ":7528,"zeĠyiĠ":7529,"nanĠfeiĠ":7530,"shenĠshangĠ":7531,"ĠmuĠqianĠshangĠweiĠyouĠ":7532,"Ġlai":7533,"Ġ36":7534,"Ġ1998ĠnianĠ":7535,"laĠliĠ":7536,"suĠdaĠ":7537,"jianĠdaoĠ":7538,"danĠyuanĠ":7539,"ĠtiĠchuĠ":7540,"ĠnianĠ12ĠyueĠ31ĠriĠ":7541,"ĠshiĠzhongĠxinĠ":7542,"xiangĠgangĠdeĠ":7543,"Ġ1ĠyueĠ":7544,"ĠreĠ":7545,"ĠĠĠgaoĠ":7546,"ĠĠĠ2021ĠnianĠ":7547,"chuangĠshiĠrenĠ":7548,"xiĠsiĠ":7549,"shengĠgeĠweiĠ":7550,"tianĠran":7551,"Ġxie":7552,"ĠshiĠguĠ":7553,"ĠzhiĠzhengĠ":7554,"ĠyouĠxingĠ":7555,"leĠliangĠ":7556,"huoĠdongĠdeĠ":7557,"haiĠjun":7558,"ĠbaoĠgaoĠ":7559,"ĠĠĠtongĠ":7560,"90ĠnianĠ":7561,"ĠyuĠyouĠ":7562,"laĠteĠ":7563,"hanĠlinĠ":7564,"diĠyiĠbuĠ":7565,"canĠyuĠleĠ":7566,"fuĠluoĠliĠdaĠ":7567,"waiĠguanĠ":7568,"ĠdanĠyiĠ":7569,"ĠbaĠliĠ":7570,"ĠmuĠqianĠshangĠweiĠyouĠrenĠgongĠyinĠzhongĠzaiĠpeiĠ":7571,"ĠĠĠLi":7572,"ĠziĠliaoĠ":7573,"2ĠmiĠ":7574,"xianĠdeĠyiĠgeĠxingĠzhengĠzhenĠquĠ":7575,"jiong":7576,"diceĠ":7577,"zhangĠliĠ":7578,"shenĠjiĠ":7579,"1965ĠnianĠ":7580,"1953ĠnianĠ":7581,"fangĠchengĠ":7582,"biĠya":7583,"chuangĠxinĠ":7584,"Ġou":7585,"mingĠheĠ":7586,"ĠyiĠchengĠ":7587,"keĠxue":7588,"anĠpai":7589,"tianĠhuangĠ":7590,"caiĠwuĠ":7591,"Ġcan":7592,"wuĠzaiĠ":7593,"1967ĠnianĠ":7594,"ĠzaiĠnaĠliĠ":7595,"ĠrenĠjiaoĠ":7596,"zhuĠdaĠ":7597,"ĠqiĠqiĠ":7598,"bianĠhaoĠweiĠ":7599,"wuĠliĠxueĠ":7600,"ĠĠĠboĠ":7601,"chouĠbeiĠ":7602,"kaiĠfaĠdeĠ":7603,"ĠĠĠ4ĠyueĠ":7604,"daoĠqianĠ":7605,"mingĠciĠ":7606,"chongĠmanĠ":7607,"heĠyiĠgeĠ":7608,"bianĠyuĠ":7609,"tuiĠxingĠ":7610,"heĠpingĠ":7611,"yuanĠquĠ":7612,"juĠchangĠ":7613,"ĠgaiĠdiĠdeĠ":7614,"Ġbu":7615,"meĠĠĠ":7616,"31Ġ":7617,"ĠxiĠjinĠ":7618,"jiaoĠzongĠ":7619,"duĠjiaĠ":7620,"cheĠdaoĠ":7621,"ĠzheĠyeĠshiĠ":7622,"ĠzheĠbuĠ":7623,"lianĠmengĠdeĠ":7624,"Ġdiao":7625,"ĠĠĠpuĠ":7626,"taiĠdaĠ":7627,"zhouĠfuĠzeĠguanĠxiaĠ":7628,"kanĠfaĠ":7629,"1944ĠnianĠ":7630,"ĠzaiĠrenĠ":7631,"saiĠbaiĠ":7632,"zaoĠqiĠdeĠ":7633,"jingĠjiĠxueĠ":7634,"ĠkeĠnengĠhuiĠ":7635,"ĠĠĠ5":7636,"miĠshiĠ":7637,"yinĠjiĠ":7638,"suiĠdeĠ":7639,"xunĠshiĠ":7640,"ĠdaĠchenĠ":7641,"yinĠziĠ":7642,"guĠwuĠ":7643,"neiĠmengĠguĠ":7644,"laĠgeĠ":7645,"dianĠyuĠ":7646,"ĠrenĠmin":7647,"ĠerĠzheĠ":7648,"shouĠhuiĠ":7649,"ruĠjingĠ":7650,"ĠgongĠjinĠ":7651,"ĠĠĠgeĠrenĠshengĠhuoĠ":7652,"Ġ1999ĠnianĠ":7653,"zengĠzhiĠ":7654,"ĠdanĠyeĠ":7655,"lunĠsiĠ":7656,"buĠmanĠ":7657,"xiangĠbeiĠ":7658,"ĠnianĠ7ĠyueĠ1ĠriĠ":7659,"²Ġ":7660,"Ġ21":7661,"ĠCD":7662,"ĠĠĠ7ĠyueĠ":7663,"tuoĠfuĠ":7664,"âĦĥ":7665,"ĠshiĠxiangĠgangĠ":7666,"shengĠxiaoĠ":7667,"tiĠgongĠdeĠ":7668,"wangĠchao":7669,"jiaoĠyuĠjiĠ":7670,"Ġc":7671,"Ġ34":7672,"ĠbuĠshiĠ":7673,"ĠkaĠerĠ":7674,"ĠkeĠliĠsiĠ":7675,"buĠweiĠyuĠ":7676,"tianĠfuĠ":7677,"niuĠsiĠ":7678,"neĠshengĠ":7679,"xueĠyuanĠdeĠ":7680,"xinĠzengĠ":7681,"Ġgui":7682,"jinĠzhongĠ":7683,"duanĠqiĠ":7684,"ĠzhiĠyaoĠ":7685,"zhuĠyaoĠshiĠ":7686,"fangĠheĠ":7687,"llĠĠĠ":7688,"ĠliĠyouĠ":7689,"ĠxiĠyuanĠ":7690,"tingĠyunĠ":7691,"PlayStation":7692,"ĠliĠqiĠ":7693,"ĠbingĠmeiĠyouĠ":7694,"ĠĠĠjinĠguanĠ":7695,"jiangĠheĠ":7696,"hanĠshiĠ":7697,"xinĠshengĠ":7698,"duiĠtaĠ":7699,"shuiĠshenĠ":7700,"xinĠyuĠ":7701,"nuoĠsiĠ":7702,"fuĠhuaĠ":7703,"jinĠxing":7704,"gaiĠmingĠ":7705,"baĠnen":7706,"kaĠluoĠlaiĠnaĠ":7707,"laoĠgongĠ":7708,"ĠseĠ":7709,"ĠshiĠnanĠjiĠzhouĠdeĠ":7710,"ĠyiĠxie":7711,"zhuĠlongĠ":7712,"ĠqingĠchaoĠ":7713,"ĠĠĠyeĠ":7714,"zhongĠshiĠjiĠ":7715,"qianĠweiĠ":7716,"ĠzaiĠtaĠdeĠ":7717,"ĠyueĠlaiĠyueĠ":7718,"xiangĠlianĠ":7719,"liĠyongĠ":7720,"houĠguoĠ":7721,"1930ĠnianĠ":7722,"ĠzhiĠchi":7723,"gongĠzuoĠdeĠ":7724,"jiaĠzhouĠ":7725,"zhanĠzhengĠdeĠ":7726,"ciĠhuiĠ":7727,"minĠjinĠ":7728,"zongĠduiĠ":7729,"shouĠdaoĠleĠ":7730,"ĠJa":7731,"yanĠliĠ":7732,"huoĠyiĠ":7733,"liangĠjiaĠ":7734,"waiĠjiĠ":7735,"huanĠxiangĠ":7736,"siĠxingĠ":7737,"siĠfaĠ":7738,"yaĠzhou":7739,"niĠyaĠdeĠ":7740,"Ġ55":7741,"Ġ9Ġ":7742,"ĠĠĠ8ĠyueĠ":7743,"peiĠxunĠ":7744,"jingĠxiĠ":7745,"chaĠjuĠ":7746,"faĠbiao":7747,"jinĠshanĠ":7748,"zuiĠduoĠdeĠ":7749,"saiĠcheĠ":7750,"baĠsaiĠ":7751,"ĠliĠshiĠxueĠjiaĠ":7752,"Ġzha":7753,"ĠĠĠguĠshiĠ":7754,"duĠzhiĠ":7755,"qianĠyuĠ":7756,"fengĠyuĠ":7757,"fuĠjiaĠ":7758,"ziĠgongĠsiĠ":7759,"houĠfangĠ":7760,"dianĠchiĠ":7761,"ĠjieĠweiĠ":7762,"ĠhuiĠyiĠ":7763,"geĠĠĠ":7764,"1935ĠnianĠ":7765,"yanĠxuĠ":7766,"boĠlaĠ":7767,"lingĠyuĠdeĠ":7768,"ĠgongĠgongĠ":7769,"yingĠdeĠleĠ":7770,"zhanĠzhengĠqiĠjianĠ":7771,"mianĠjiĠheĠrenĠkouĠ":7772,"8ĠgeĠ":7773,"ĠĠĠjiuĠ":7774,"ĠĠĠquanĠ":7775,"ĠĠĠlaĠ":7776,"daoĠliĠ":7777,"qianĠliĠ":7778,"sheĠliĠdeĠ":7779,"haĠdeĠ":7780,"ĠyuanĠxingĠ":7781,"nianĠdaiĠ":7782,"ĠĠĠduiĠyuĠ":7783,"niĠshiĠ":7784,"32Ġ":7785,"daĠxueĠdeĠ":7786,"geĠciĠ":7787,"ĠdeĠjiĠshuĠ":7788,"jiangĠsuĠshengĠ":7789,"Ġyuan":7790,"Ġ38":7791,"nanĠrenĠ":7792,"laĠdiĠ":7793,"lanĠseĠ":7794,"Ġ75":7795,"ĠPa":7796,"ĠĠĠ15":7797,"gaiĠzhiĠ":7798,"wangĠyiĠ":7799,"cheĠliĠ":7800,"ceĠqiĠ":7801,"hangĠxingĠ":7802,"erĠbeiĠ":7803,"ĠdaĠbuĠ":7804,"ĠgaiĠcun":7805,"ĠjingĠneiĠ":7806,"ĠboĠluoĠ":7807,"ĠgaiĠdiĠdeĠmianĠjiĠheĠrenĠkouĠ":7808,"ĠgaiĠdiĠdeĠmianĠjiĠheĠrenĠkouĠjieĠweiĠzhiĠ":7809,"peiĠdeĠ":7810,"weiĠjiĠ":7811,"ciĠshuĠ":7812,"dianĠnaoĠ":7813,"xuanĠchuan":7814,"heiĠlongĠjiangĠ":7815,"ĠyiĠshuĠjiaĠ":7816,"ĠĠĠyouĠxiĠ":7817,"ĠØ":7818,"ĠLi":7819,"ĠĠĠmuĠqianĠ":7820,"Google":7821,"zhongĠxueĠ":7822,"houĠlai":7823,"dangĠxuanĠweiĠ":7824,"Ġ20Ġ":7825,"ĠĠĠ2015ĠnianĠ":7826,"weiĠshiĠjieĠ":7827,"luĠweiĠ":7828,"leiĠheĠ":7829,"ĠshiĠzhengĠ":7830,"ĠfuĠze":7831,"zongĠjingĠliĠ":7832,"ĠmingĠchaoĠ":7833,"ĠLa":7834,"shouĠerĠ":7835,"seĠĠĠ":7836,"1969ĠnianĠ":7837,"diĠliuĠ":7838,"jiangĠzuiĠjiaĠ":7839,"dangĠanĠ":7840,"tuĠanĠ":7841,"tingĠkaoĠ":7842,"ĠqianĠlongĠ":7843,"Ġ90":7844,"anĠfuĠ":7845,"banĠnianĠ":7846,"zhuangĠweiĠ":7847,"raĠ":7848,"chuiĠzhiĠ":7849,"shangĠsuĠ":7850,"tongĠchang":7851,"zhengĠxieĠweiĠyuanĠ":7852,"2ĠĠĠ":7853,"6ĠmiĠ":7854,"ĠpaĠ":7855,"ĠguanĠzhiĠ":7856,"ĠleiĠjiĠ":7857,"suiĠzhiĠ":7858,"ĠzaiĠ18":7859,"jiaĠqiangĠ":7860,"ĠbuĠluĠ":7861,"quĠdongĠ":7862,"jiangĠzheĠ":7863,"ĠqianĠmiĠ":7864,"zhengĠfuĠyuĠ":7865,"ĠĠĠjianĠliĠ":7866,"meiĠerĠ":7867,"orĠĠĠ":7868,"yanĠshengĠ":7869,"zongĠshuĠ":7870,"ĠtongĠriĠ":7871,"ĠyanĠchangĠ":7872,"ĠĠĠyiĠxiaĠ":7873,"ĠfanĠduiĠ":7874,"ĠfenĠbieĠweiĠ":7875,"jiaĠliĠfuĠniĠyaĠzhouĠ":7876,"Ġcom":7877,"ĠĠĠ2014ĠnianĠ":7878,"siĠzhongĠ":7879,"ĠyiĠtiĠ":7880,"quĠziĠ":7881,"gaiĠjinĠ":7882,"anĠxianĠ":7883,"ĠciĠciĠ":7884,"3ĠmiĠ":7885,"EĠĠĠ":7886,"ĠzhanĠdiĠ":7887,"chuanĠyueĠ":7888,"80ĠnianĠ":7889,"1940ĠnianĠ":7890,"jiaĠnaĠ":7891,"luĠduanĠ":7892,"nongĠchangĠ":7893,"Ġ2003":7894,"fuĠzhongĠ":7895,"dongĠzhiĠ":7896,"meiĠyiĠ":7897,"kuaiĠdeĠ":7898,"fenĠchengĠ":7899,"jiuĠduĠyuĠ":7900,"ĠshiĠjiĠyuĠ":7901,"ĠtongĠzhiĠ":7902,"hangĠzhanĠ":7903,"xiuĠdingĠ":7904,"ĠhaiĠjunĠ":7905,"faĠshengĠleĠ":7906,"ĠĠĠjianĠzhuĠ":7907,"xinĠheĠ":7908,"1961ĠnianĠ":7909,"ĠqiĠyongĠ":7910,"tongĠxueĠ":7911,"zhouĠbian":7912,"guĠlaoĠdeĠ":7913,"ziĠxingĠcheĠ":7914,"liĠyiĠ":7915,"chengĠyiĠgeĠ":7916,"riĠshiĠ":7917,"jiaoĠjiĠ":7918,"15ĠnianĠ":7919,"1957ĠnianĠ":7920,"jianĠdanĠ":7921,"xiangĠdaoĠ":7922,"ĠkeĠlaiĠ":7923,"liuĠliangĠ":7924,"puĠchaĠ":7925,"ĠwanĠmeiĠ":7926,"zuiĠzhongĠyaoĠdeĠ":7927,"pingĠfangĠmiĠ":7928,"Ġding":7929,"Ġ70":7930,"ĠVi":7931,"ĠĠĠ9ĠyueĠ":7932,"jinĠnianĠ":7933,"shanĠyuĠ":7934,"zhuĠshouĠ":7935,"xiangĠjiaoĠ":7936,"nanĠminĠ":7937,"kaĠfeiĠ":7938,"ĠwanĠchengĠ":7939,"geĠyueĠhouĠ":7940,"ĠĠĠ2020ĠnianĠ":7941,"zheĠjiĠ":7942,"baĠtaĠ":7943,"jingĠquĠ":7944,"duĠteĠdeĠ":7945,"miĠduĠ":7946,"ĠbiĠxuĠ":7947,"ĠhuaĠshengĠ":7948,"suanĠdeĠ":7949,"2025ĠnianĠ":7950,"1931ĠnianĠ":7951,"zhuĠguanĠ":7952,"jinĠrongĠ":7953,"yinĠniĠ":7954,"pingĠhengĠ":7955,"chiĠjingĠ":7956,"eĠhaiĠeĠ":7957,"ĠĠĠcheĠzhanĠjieĠgouĠ":7958,"ĠWi":7959,"ĠjunĠshiĠ":7960,"siĠyueĠ":7961,"ĠbuĠheĠ":7962,"beiĠmeiĠ":7963,"linĠshengĠ":7964,"touĠru":7965,"huiĠyiĠshangĠ":7966,"anĠĠĠ":7967,"teĠzaiĠ":7968,"jinĠchengĠ":7969,"zhengĠjiaoĠ":7970,"shangĠfangĠ":7971,"ĠshengĠchengĠ":7972,"wit":7973,"ziĠshaĠ":7974,"ĠdanĠbuĠ":7975,"ĠĠĠzhiĠzuoĠ":7976,"ĠcengĠjingĠ":7977,"fangĠdiĠ":7978,"muĠjiĠ":7979,"ĠzaiĠriĠbenĠ":7980,"yingĠgeĠlan":7981,"ĠdaĠqiaoĠ":7982,"ĠerĠheĠ":7983,"ĠliĠfaĠhuiĠ":7984,"shengĠrenĠminĠzhengĠfuĠ":7985,"zuoĠheĠ":7986,"kaĠdeĠ":7987,"jianĠchiĠ":7988,"Ġà":7989,"ĠĠĠmuĠ":7990,"yaĠsiĠ":7991,"isĠĠĠ":7992,"ĠzaiĠnanĠ":7993,"fuĠbuĠzhangĠ":7994,"baoĠfuĠ":7995,"mianĠqianĠ":7996,"chengĠliĠleĠ":7997,"Ġ000Ġ":7998,"luoĠfaĠkeĠ":7999,"Ġga":8000,"juĠfeng":8001,"fangĠxingĠ":8002,"ĠqiĠzhongĠyouĠ":8003,"ĠxingĠshiĠ":8004,"zhuanĠzhiĠ":8005,"kuangĠjiaĠ":8006,"jinĠzhangĠ":8007,"yanĠfaĠ":8008,"yingĠguoĠdeĠ":8009,"ĠdeĠshiĠshiĠ":8010,"Ġheng":8011,"ĠĠĠriĠbenĠ":8012,"ĠĠĠ6ĠyueĠ":8013,"ĠĠĠ2013ĠnianĠ":8014,"jinĠqiĠ":8015,"duiĠweiĠ":8016,"huiĠjiaĠ":8017,"juĠzhuĠzaiĠ":8018,"juĠjuĠzhangĠ":8019,"jiuĠbeiĠ":8020,"chongĠzuĠ":8021,"hangĠbanĠ":8022,"tuiĠfanĠ":8023,"Ġ2002":8024,"ĠĠĠyue":8025,"luĠxiĠ":8026,"baoĠjiĠ":8027,"gongĠchanĠzhuĠyiĠ":8028,"ĠmiĠzhiĠ":8029,"liĠkeĠ":8030,"ĠĠĠ2010ĠnianĠ":8031,"luoĠweiĠ":8032,"duoĠbuĠ":8033,"kuĠerĠ":8034,"1942ĠnianĠ":8035,"1951ĠnianĠ":8036,"ĠshiĠtaiĠwanĠ":8037,"ĠdeĠyiĠjianĠ":8038,"ĠzhengĠgeĠ":8039,"JĠ":8040,"Ġ46":8041,"mingĠjiĠ":8042,"ciĠheĠ":8043,"feiĠzhiĠ":8044,"yanĠshenĠzhiĠ":8045,"zhanĠjuĠ":8046,"zuoĠleĠ":8047,"luoĠxuanĠ":8048,"ĠzhuĠxiĠ":8049,"liĠliangĠ":8050,"ĠtaiĠpingĠ":8051,"wuĠxianĠdianĠshiĠ":8052,"taiĠweiĠ":8053,"daiĠzhiĠ":8054,"laiĠerĠ":8055,"yaoĠzaiĠ":8056,"panĠdeĠ":8057,"rengĠzaiĠ":8058,"runĠ":8059,"keĠxueĠjiaĠ":8060,"fangĠbianĠ":8061,"ĠdaĠxueĠdeĠ":8062,"ĠfuĠgaiĠ":8063,"wanĠzhengĠdeĠ":8064,"ĠbingĠqieĠzaiĠ":8065,"Ġman":8066,"Ġ150":8067,"ĠyouĠheĠ":8068,"wenĠgeĠ":8069,"ĠĠĠ6":8070,"ĠĠĠyongĠ":8071,"yanĠqiĠ":8072,"neiĠsiĠ":8073,"ĠshiĠsiĠ":8074,"yuanĠwaiĠ":8075,"ĠguoĠfangĠ":8076,"ĠxiĠxiĠ":8077,"junĠbeiĠ":8078,"meiĠtianĠ":8079,"shouĠliĠ":8080,"zuĠweiĠ":8081,"round":8082,"guoĠfangĠbuĠ":8083,"ĠkeĠlaĠ":8084,"muĠjianĠ":8085,"zhenĠzhengĠ":8086,"cheĠtuiĠ":8087,"feiĠchang":8088,"baĠleĠsiĠ":8089,"Ġzhuo":8090,"meiĠzhongĠ":8091,"ĠyueĠrenĠ":8092,"shuĠshuĠ":8093,"mengĠteĠ":8094,"ĠĠĠgenĠjuĠ2010ĠnianĠmeiĠguoĠrenĠkouĠpuĠchaĠdeĠshuĠjuĠ":8095,"ĠĠĠ8":8096,"ĠĠĠhuoĠ":8097,"ĠĠĠ2012ĠnianĠ":8098,"shenĠliĠ":8099,"kaĠliĠ":8100,"poĠerĠ":8101,"liuĠxueĠ":8102,"qianĠqiĠ":8103,"benĠzhiĠ":8104,"wangĠhouĠ":8105,"zuĠziĠzhiĠ":8106,"ĠxianĠjinĠ":8107,"ĠguanĠliĠ":8108,"jiangĠweiĠ":8109,"tuiĠliĠ":8110,"heiĠrenĠ":8111,"sonĠ":8112,"shengĠjieĠrangĠ":8113,"qianĠxianĠ":8114,"miĠjiĠ":8115,"taĠerĠ":8116,"chongĠfuĠ":8117,"1933ĠnianĠ":8118,"taiĠshouĠ":8119,"zhuanĠhuanĠ":8120,"ĠMĠ":8121,"ĠfeiĠliĠ":8122,"ĠchongĠxinĠ":8123,"xiaoĠyiĠ":8124,"chenĠdeĠ":8125,"zhengĠwuĠ":8126,"ĠriĠbaoĠ":8127,"liuĠchuanĠ":8128,"tuĠranĠ":8129,"quĠshiĠhouĠ":8130,"ĠjiangĠxiĠ":8131,"Ġlong":8132,"ĠĠĠtangĠ":8133,"dangĠriĠ":8134,"duoĠliĠ":8135,"ĠshiĠshangĠ":8136,"jianĠzhuĠshiĠ":8137,"jieĠjieĠ":8138,"qianĠlaiĠ":8139,"ĠkeĠchengĠ":8140,"ĠdaoĠdaĠ":8141,"liaoĠning":8142,"ĠcengĠzaiĠ":8143,"ĠĠĠ6Ġ":8144,"beiĠqiĠ":8145,"faĠjueĠ":8146,"quĠneiĠ":8147,"quanĠtiĠ":8148,"guangĠfanĠdeĠ":8149,"tanĠsuoĠ":8150,"ĠweiĠyuanĠhuiĠdeĠ":8151,"eĠerĠ":8152,"Ġ180":8153,"ĠyuĠyiĠ":8154,"ĠĠĠyanĠgeĠ":8155,"jinĠheĠ":8156,"riĠerĠ":8157,"nanĠyuĠ":8158,"zongĠdeĠ":8159,"STAT":8160,"1960ĠnianĠdaiĠ":8161,"1928ĠnianĠ":8162,"ĠshiĠfuĠ":8163,"daiĠtiĠ":8164,"chongĠfanĠ":8165,"xinĠguanĠfeiĠyanĠ":8166,"erĠzhongĠ":8167,"tiĠbuĠ":8168,"haoĠjiĠ":8169,"puĠdeĠ":8170,"rongĠdeĠ":8171,"huiĠguanĠ":8172,"liuĠgeĠ":8173,"tuĠran":8174,"ĠshiĠshiĠzhangĠ":8175,"ĠPĠ":8176,"cri":8177,"liangĠyuĠ":8178,"cheĠrenĠ":8179,"ĠyiĠqingĠ":8180,"xiĠlie":8181,"bianĠzuĠ":8182,"mianĠxiangĠ":8183,"ĠmiĠdeĠ":8184,"ĠyiĠjiaoĠ":8185,"jiaĠerĠ":8186,"jinĠsiĠ":8187,"jingĠyuanĠ":8188,"fangĠxiangĠdeĠ":8189,"baoĠanĠ":8190,"feiĠfaĠ":8191,"tuĠshaĠ":8192,"gangĠtieĠ":8193,"ĠyouĠdeĠ":8194,"xingĠzhengĠdanĠweiĠ":8195,"ĠanĠhuiĠ":8196,"ĠdiĠerĠciĠ":8197,"zhengĠfuĠzaiĠ":8198,"Ġt":8199,"wanĠqiĠ":8200,"kaiĠqiĠ":8201,"kenĠdingĠ":8202,"ĠzhongĠbeiĠ":8203,"caiĠzhengĠbuĠ":8204,"hangĠkongĠgongĠsiĠ":8205,"ĠshiĠyiĠgeĠweiĠyuĠmeiĠguoĠ":8206,"Ġqin":8207,"Ġzhui":8208,"ĠĠĠgai":8209,"daoĠguoĠ":8210,"tuoĠerĠ":8211,"geiĠtaĠ":8212,"ĠyiĠchangĠ":8213,"tingĠzhangĠ":8214,"ĠDĠ":8215,"renĠdaĠdaiĠbiaoĠ":8216,"Ġzao":8217,"guanĠzaiĠ":8218,"fanĠfuĠ":8219,"Ġ1997ĠnianĠ":8220,"xianĠbuĠ":8221,"xinĠzhiĠ":8222,"leiĠyuĠ":8223,"cunĠyuĠ":8224,"fuĠqiĠ":8225,"leĠxuĠduoĠ":8226,"ĠliuĠyuĠmianĠjiĠ":8227,"ĠĠĠco":8228,"benĠjiĠ":8229,"cheĠxingĠ":8230,"shaoĠyouĠ":8231,"renĠmin":8232,"zhuĠchiĠrenĠ":8233,"ĠbingĠbiaoĠshiĠ":8234,"ĠzhuĠchiĠ":8235,"yingĠheĠ":8236,"zhaoĠshiĠ":8237,"ĠgongĠluĠ":8238,"ĠgenĠjuĠ2020ĠnianĠmeiĠguoĠrenĠkouĠpuĠchaĠdeĠshuĠjuĠ":8239,"ĠLe":8240,"Ġ2023ĠnianĠ":8241,"zuoĠjiĠ":8242,"fanĠjiĠ":8243,"chengĠdanĠ":8244,"shangĠjiangĠ":8245,"liangĠhaoĠ":8246,"duoĠxiangĠ":8247,"fengĠgeĠdeĠ":8248,"taoĠwangĠ":8249,"Ġkua":8250,"ĠgouĠ":8251,"ĠĠĠ2005":8252,"benĠbuĠ":8253,"nvĠyouĠ":8254,"qiaoĠdeĠ":8255,"1912ĠnianĠ":8256,"keĠsaĠsiĠ":8257,"huoĠquĠ":8258,"boĠyinĠ":8259,"touĠshouĠ":8260,"ĠyeĠkeĠyiĠ":8261,"xinĠxiĠlanĠ":8262,"ĠĠĠ2011ĠnianĠ":8263,"nianĠdeĠ":8264,"guĠyiĠ":8265,"fuĠsiĠ":8266,"fenĠxiangĠ":8267,"saiĠguanĠjunĠ":8268,"caiĠpanĠ":8269,"zhuanĠquĠ":8270,"ĠfenĠbieĠshiĠ":8271,"Ġà¸":8272,"guanĠweiĠ":8273,"huanĠweiĠ":8274,"ĠqiĠhouĠyuĠ":8275,"xiaoĠsheĠ":8276,"ĠjiaĠru":8277,"ĠtaĠjiangĠ":8278,"ĠdeĠyiĠweiĠ":8279,"huoĠdeĠdeĠ":8280,"Ġzhen":8281,"fenĠshiĠ":8282,"maĠqiĠ":8283,"paoĠdaoĠ":8284,"zhongĠhaiĠ":8285,"yuanĠshuĠ":8286,"ĠerĠciĠ":8287,"ĠxiĠsiĠ":8288,"ĠdaĠdiĠ":8289,"ĠyunĠnanĠ":8290,"ĠĠĠruĠ":8291,"ĠĠĠzuiĠ":8292,"ĠĠĠfaĠguoĠ":8293,"taiĠyiĠ":8294,"cengĠbeiĠ":8295,"gongĠsheĠ":8296,"shouĠmingĠ":8297,"yeĠnaĠ":8298,"xueĠshiĠxueĠweiĠ":8299,"7ĠgeĠ":8300,"Ġ37":8301,"Ġ39":8302,"ĠDa":8303,"zeĠdeĠ":8304,"gangĠdeĠ":8305,"douĠbuĠ":8306,"shunĠxuĠ":8307,"ryĠ":8308,"diĠmianĠ":8309,"geĠtiĠ":8310,"jieĠxiaĠ":8311,"qianĠzeĠ":8312,"ĠyinĠweiĠtaĠ":8313,"jingĠbuĠ":8314,"qingĠheĠ":8315,"wanĠnianĠ":8316,"tingĠheĠ":8317,"1943ĠnianĠ":8318,"jieĠruĠ":8319,"dianĠliuĠ":8320,"pingĠdingĠ":8321,"ĠdanĠzheĠ":8322,"ĠshiĠshiĠyiĠ":8323,"ĠxinĠzeng":8324,"ĠĠĠbaiĠ":8325,"feiĠshiĠ":8326,"baiĠxingĠ":8327,"ĠshiĠxiĠbanĠyaĠ":8328,"huaĠmianĠ":8329,"zuoĠyeĠ":8330,"ĠsiĠlingĠbuĠ":8331,"meiĠguoĠyiĠ":8332,"keĠnengĠxingĠ":8333,"yaĠmeiĠniĠyaĠ":8334,"ĠĠĠ189":8335,"panĠchuĠ":8336,"maoĠdeĠ":8337,"chengĠgongĠdeĠ":8338,"faĠerĠ":8339,"yinĠjinĠ":8340,"danĠxinĠ":8341,"duoĠlunĠ":8342,"waiĠjieĠ":8343,"ĠjieĠfangĠ":8344,"qiangĠdaĠdeĠ":8345,"Ġrui":8346,"ĠDe":8347,"leĠzhiĠ":8348,"zuĠshiĠ":8349,"1927ĠnianĠ":8350,"faĠbuĠdeĠ":8351,"fengĠsuoĠ":8352,"chuangĠzao":8353,"nvĠwangĠ":8354,"wangĠyuanĠjingĠ":8355,"Ġqu":8356,"ĠhouĠyuĠ":8357,"ĠĠĠdi":8358,"tingĠshiĠ":8359,"ĠjiĠxu":8360,"yanĠzou":8361,"ranĠliaoĠ":8362,"ĠyingĠxiangĠ":8363,"chaĠerĠsiĠ":8364,"heĠbeiĠ":8365,"guanĠxiĠdeĠ":8366,"danĠduĠ":8367,"guanĠli":8368,"yongĠdiĠ":8369,"wenĠyuĠ":8370,"linĠyuĠ":8371,"shenĠruĠ":8372,"tiaoĠwenĠ":8373,"dianĠyingĠjieĠ":8374,"ĠrenĠkouĠdeĠ":8375,"ĠbangĠzhuĠ":8376,"yuĠdeĠguoĠ":8377,"1929ĠnianĠ":8378,"zhongĠhuaĠ":8379,"ĠliĠjingĠ":8380,"gongĠzhanĠ":8381,"shouĠhuanĠyingĠ":8382,"xieĠdaiĠ":8383,"shuiĠmianĠ":8384,"yongĠheĠ":8385,"sanĠdeĠ":8386,"sanĠyueĠ":8387,"shaĠshiĠ":8388,"diĠtieĠ":8389,"jieĠshou":8390,"biĠsaiĠdeĠ":8391,"ĠriĠyiĠ":8392,"ĠtongĠshiĠyeĠ":8393,"ĠmianĠjiĠ0":8394,"³Ġ":8395,"ĠĠĠwenĠhuaĠ":8396,"tingĠjiĠ":8397,"1932ĠnianĠ":8398,"diĠdaĠ":8399,"xianĠzaiĠdeĠ":8400,"ĠfuĠerĠ":8401,"baĠgeĠ":8402,"ĠjieĠjinĠ":8403,"ĠaoĠdaĠliĠyaĠ":8404,"zuoĠpinĠdeĠ":8405,"ĠRĠ":8406,"huĠlianĠwangĠ":8407,"yiĠdeĠshiĠ":8408,"huangĠheĠ":8409,"ĠshiĠkeĠ":8410,"ĠweiĠdaĠ":8411,"jianĠshao":8412,"zhuĠzhaiĠ":8413,"jingĠneiĠdeĠ":8414,"suĠsongĠ":8415,"zongĠzhanĠ":8416,"ĠjieĠgouĠ":8417,"28Ġ":8418,"wuĠrenĠjiĠ":8419,"fenĠshuĠ":8420,"shanĠdingĠ":8421,"ĠshiĠshiĠdeĠ":8422,"ĠĠĠ1":8423,"eri":8424,"faĠrenĠ":8425,"ĠliĠnianĠ":8426,"daĠlu":8427,"ĠdaĠqiĠ":8428,"junĠjianĠ":8429,"sheĠhuiĠdeĠ":8430,"ĠyiĠjiĠzaiĠ":8431,"ĠguoĠliĠ":8432,"ĠĠĠ7":8433,"tongĠbaoĠ":8434,"wenĠsiĠ":8435,"tiĠquĠ":8436,"qianĠxiaĠ":8437,"baĠfaĠliĠyaĠ":8438,"hangĠzhouĠ":8439,"ĠhuĠbeiĠ":8440,"ĠÐ°":8441,"ĠzhouĠnianĠ":8442,"Ġo":8443,"zhouĠdeĠyiĠgeĠshiĠzhenĠ":8444,"1924ĠnianĠ":8445,"luĠwaĠ":8446,"banĠbenĠdeĠ":8447,"suĠsheĠ":8448,"yanĠjiuĠzhongĠxinĠ":8449,"ĠluĠwaĠerĠshengĠ":8450,"zuĠjiĠ":8451,"zunĠzhongĠ":8452,"boĠchuĠdeĠ":8453,"duoĠyuanĠ":8454,"ĠdaoĠluĠ":8455,"ĠshiĠxingĠdengĠweiĠ":8456,"aĠgenĠtingĠ":8457,"2ĠliĠ":8458,"Ġzeng":8459,"ĠED":8460,"ĠĠĠguanĠ":8461,"ĠĠĠdianĠ":8462,"tiĠcaiĠ":8463,"ĠjingĠfangĠ":8464,"renĠkouĠpuĠchaĠ":8465,"ĠMar":8466,"leĠxiĠ":8467,"dangĠbuĠ":8468,"shenĠheĠ":8469,"tianĠwenĠxueĠ":8470,"paiĠlieĠ":8471,"ĠaoĠmenĠ":8472,"Ġfu":8473,"Ġnu":8474,"ĠjiĠyiĠ":8475,"shenĠqiĠ":8476,"fanĠdaĠxueĠ":8477,"tingĠyuĠ":8478,"cengĠyouĠ":8479,"wuĠbuĠ":8480,"chengĠshuĠ":8481,"xueĠtangĠ":8482,"jiaoĠgaoĠ":8483,"shenĠfuĠ":8484,"Ġ400":8485,"biĠyuĠ":8486,"jiuĠyueĠ":8487,"jiaĠxiangĠ":8488,"quĠbieĠ":8489,"tongĠyang":8490,"qianĠyinĠ":8491,"duĠziĠ":8492,"duoĠguanĠ":8493,"xingĠzhengĠquĠhuaĠ":8494,"ĠguangĠxuĠ":8495,"aĠerĠbeiĠsiĠ":8496,"reĠdaiĠqiĠxuanĠ":8497,"ĠyuanĠshiĠ":8498,"Ġ1994ĠnianĠ":8499,"duoĠsiĠ":8500,"shuĠfaĠ":8501,"meiĠti":8502,"geĠlunĠbiĠyaĠ":8503,"ĠĠĠaiĠ":8504,"ĠweiĠzaiĠ":8505,"ĠzhongĠyaoĠdeĠ":8506,"ĠdeĠyiĠciĠ":8507,"neiĠruiĠ":8508,"ĠdanĠyuĠ":8509,"Ġshe":8510,"Ġ2001":8511,"Ġ1992ĠnianĠ":8512,"yinĠyouĠ":8513,"boĠjiĠ":8514,"26Ġ":8515,"1934ĠnianĠ":8516,"diĠfenĠ":8517,"quĠmuĠ":8518,"shouĠcang":8519,"benĠshuĠ":8520,"shaĠtianĠ":8521,"ĠshengĠhuoĠ":8522,"ĠhengĠliĠ":8523,"tongĠqiĠ":8524,"jianĠceĠ":8525,"ĠbuĠyaoĠ":8526,"ĠdiĠ1Ġ":8527,"jiangĠxueĠ":8528,"puĠluoĠ":8529,"panĠluanĠ":8530,"ĠzaiĠshiĠ":8531,"ĠchiĠweiĠ":8532,"ĠAl":8533,"ĠsiĠshiĠ":8534,"25ĠnianĠ":8535,"buĠzaiĠ":8536,"ĠyueĠtuan":8537,"xianĠdaoĠ":8538,"ĠxianĠluĠ":8539,"yiĠshiĠdaoĠ":8540,"tuiĠchuĠleĠ":8541,"ĠxianĠshiĠyouĠ":8542,"Ġ300":8543,"luĠerĠ":8544,"baiĠnianĠ":8545,"13ĠnianĠ":8546,"21ĠnianĠ":8547,"60ĠnianĠ":8548,"gongĠziĠ":8549,"wuĠerĠ":8550,"ĠdaĠbanĠ":8551,"ĠzheĠzuoĠ":8552,"DNA":8553,"ĠĠĠlingĠ":8554,"miaoĠyuĠ":8555,"27Ġ":8556,"caĠ":8557,"ĠyouĠxiĠdeĠ":8558,"jinĠhuiĠ":8559,"ĠsiĠhouĠ":8560,"zhuanĠjiĠdeĠ":8561,"keĠyiĠtongĠguoĠ":8562,"woĠmen":8563,"ĠfeiĠlvĠ":8564,"ĠĠĠweiĠleĠ":8565,"gongĠchanĠdang":8566,"5000":8567,"Ġyao":8568,"ĠhouĠyouĠ":8569,"ĠzhiĠciĠ":8570,"zhongĠgongĠ":8571,"diĠyiĠbaiĠ":8572,"3ĠmingĠ":8573,"tuĠshiĠ":8574,"shuoĠfuĠ":8575,"ĠjiĠxieĠ":8576,"yuanĠjianĠ":8577,"jieĠlunĠ":8578,"shengĠhuiĠ":8579,"ĠdiĠrenĠ":8580,"xinĠzhuĠ":8581,"bingĠwuĠ":8582,"zuĠxianĠ":8583,"ĠdeĠyiĠjiĠ":8584,"hanĠgaiĠ":8585,"dianĠshiĠjieĠmuĠ":8586,"ĠĠĠzuoĠweiĠ":8587,"qiĠliĠ":8588,"taoĠyuanĠ":8589,"saĠdeĠ":8590,"fangĠzhenĠ":8591,"tiĠqianĠ":8592,"daiĠlaiĠdeĠ":8593,"ĠdeĠyiĠxiangĠ":8594,"ĠziĠxingĠ":8595,"ĠchuĠciĠzhiĠwaiĠ":8596,"qiangĠhuaĠ":8597,"quanĠguoĠzhongĠdianĠ":8598,"luoĠmaĠdiĠguoĠ":8599,"18ĠnianĠ":8600,"IDĠ":8601,"keĠleiĠ":8602,"banĠquanĠ":8603,"ĠziĠranĠ":8604,"tingĠzhanĠ":8605,"ĠzuoĠbiaoĠweiĠ":8606,"tianĠwenĠtaiĠ":8607,"yongĠqiĠ":8608,"nvĠrenĠ":8609,"80Ġ":8610,"daĠxuanĠ":8611,"jingĠbeiĠ":8612,"fangĠchengĠshiĠ":8613,"huaĠguiĠ":8614,"yangĠziĠ":8615,"zongĠjuĠ":8616,"shaĠbaiĠ":8617,"maoĠdunĠ":8618,"Ġen":8619,"ĠbiĠdeĠ":8620,"Ġ1996ĠnianĠ":8621,"ĠĠĠ2008ĠnianĠ":8622,"haoĠheĠ":8623,"jingĠtouĠ":8624,"eĠhuaĠ":8625,"seĠcaiĠ":8626,"mengĠjunĠ":8627,"24ĠxiaoĠshiĠ":8628,"Ġë":8629,"Ġchuang":8630,"fanĠshiĠ":8631,"neiĠyiĠ":8632,"qiaĠ":8633,"yeĠzhanĠ":8634,"duiĠfuĠ":8635,"ruĠqiuĠ":8636,"ĠtongĠshiĠyeĠshiĠ":8637,"zangĠyuĠ":8638,"40ĠnianĠ":8639,"ziĠwoĠ":8640,"ciĠciĠ":8641,"liuĠdongĠ":8642,"zongĠguanĠ":8643,"ĠbingĠfeiĠ":8644,"zhaoĠguĠ":8645,"taoĠwanĠ":8646,"ĠzhuĠyaoĠshiĠ":8647,"ĠSi":8648,"haoĠzaiĠ":8649,"tionĠĠĠ":8650,"xianĠmingĠ":8651,"ĠshiĠshiĠshiĠ":8652,"ĠdeĠdiĠsanĠ":8653,"ĠdeĠguoĠchengĠ":8654,"ĠwoĠmen":8655,"Ġ12Ġ":8656,"ciĠshiĠjieĠdaĠzhanĠqiĠjianĠ":8657,"8ĠmiĠ":8658,"19ĠnianĠ":8659,"yingĠzhiĠ":8660,"tingĠdaoĠ":8661,"zhuanĠliĠ":8662,"33Ġ":8663,"zhuĠfangĠ":8664,"zhuĠquanĠ":8665,"riĠchangĠ":8666,"xiaĠxiaĠ":8667,"liangĠanĠ":8668,"zhuanĠbianĠ":8669,"tuoĠluoĠ":8670,"ĠdeĠjiĠbenĠ":8671,"je":8672,"ĠĠĠjingĠliĠ":8673,"taĠyouĠ":8674,"qiuĠheĠ":8675,"tuĠsiĠ":8676,"fuĠxianĠ":8677,"zhanĠquĠ":8678,"huoĠcheĠzhanĠ":8679,"ceĠlveĠ":8680,"ĠshangĠshuĠ":8681,"kaoĠchaĠ":8682,"ĠIn":8683,"kaiĠerĠ":8684,"ĠzhongĠguoĠdeĠ":8685,"ĠqiĠB":8686,"ĠkeĠleiĠ":8687,"dangĠxuan":8688,"chanĠwuĠ":8689,"cunĠzaiĠyuĠ":8690,"4ĠmiĠ":8691,"ĠĠĠwanĠ":8692,"yaĠzaiĠ":8693,"fanĠerĠ":8694,"jueĠweiĠ":8695,"baiĠheĠ":8696,"xiangĠdongĠ":8697,"houĠdaiĠ":8698,"rongĠliangĠ":8699,"ĠchaoĠguoĠ":8700,"leĠheĠ":8701,"zheĠyouĠ":8702,"zeĠbeiĠ":8703,"puĠsiĠ":8704,"heĠlanĠ":8705,"buĠduanĠ":8706,"ĠguoĠjia":8707,"fangĠxianĠ":8708,"pianĠduanĠ":8709,"minĠzuĠzhuĠyiĠ":8710,"baoĠfaĠhouĠ":8711,"wenĠdiĠ":8712,"ĠyiĠxianĠ":8713,"wuĠpinĠ":8714,"ĠerĠtaĠ":8715,"xueĠxiaoĠdeĠ":8716,"ĠjiaĠerĠ":8717,"duoĠquĠ":8718,"ĠbingĠchengĠ":8719,"tongĠzhiĠzheĠ":8720,"Ġ11Ġ":8721,"meiĠguoĠrenĠkouĠpuĠchaĠ":8722,"ĠdiĠqiĠyaĠ":8723,"ĠĠĠhaiĠ":8724,"wenĠbuĠ":8725,"chiĠdaoĠ":8726,"guoĠchengĠzhongĠ":8727,"ĠzhongĠdaĠ":8728,"jiaĠsuĠ":8729,"huiĠsheĠ":8730,"huaĠfenĠ":8731,"moĠfangĠ":8732,"poĠlunĠ":8733,"Ġla":8734,"ĠzhongĠyuĠ":8735,"ĠĠĠguoĠjiĠ":8736,"dongĠheĠ":8737,"diaoĠyuĠ":8738,"yuanĠshengĠ":8739,"fuĠzeĠrenĠ":8740,"wuĠhanĠ":8741,"jingĠlingĠ":8742,"fanĠgongĠ":8743,"1ĠriĠqiĠ":8744,"mouĠxie":8745,"guĠerĠ":8746,"puĠjiĠ":8747,"niuĠyueĠshiĠ":8748,"geĠlaĠsiĠ":8749,"faĠxian":8750,"faĠdaĠ":8751,"caiĠfangĠ":8752,"aiĠhaoĠ":8753,"ĠtaiĠbeiĠ":8754,"ĠĠĠfenĠleiĠ":8755,"quĠdeĠyiĠgeĠ":8756,"luoĠheĠ":8757,"35Ġ":8758,"ĠjiĠkeĠ":8759,"ĠyuĠleiĠ":8760,"ĠguoĠduĠ":8761,"ĠqiĠyueĠ":8762,"huaĠbeiĠ":8763,"tiĠgong":8764,"jueĠseĠdeĠ":8765,"ĠaĠerĠbeiĠ":8766,"Ġnuo":8767,"zhiĠdeĠyiĠ":8768,"guanĠliĠdeĠ":8769,"nanĠxiĠ":8770,"qingĠliĠ":8771,"ĠshiĠeĠluoĠsiĠ":8772,"diĠdianĠ":8773,"jiaĠshangĠ":8774,"ĠjinĠerĠ":8775,"xianĠdeĠfeiĠjianĠzhiĠdiĠquĠ":8776,"ĠgaiĠshiĠ":8777,"erĠdeĠmingĠ":8778,"ĠpengĠ":8779,"yuĠyiĠgeĠ":8780,"ĠĠĠyaĠ":8781,"ĠĠĠhongĠ":8782,"qiuĠyiĠ":8783,"gengĠshiĠ":8784,"rengĠweiĠ":8785,"ĠguoĠjunĠ":8786,"chuĠsaiĠ":8787,"tiaoĠkuanĠ":8788,"0ĠzuoĠbiaoĠweiĠ":8789,"7ĠmiĠ":8790,"Ġxia":8791,"ĠĠĠzhenĠ":8792,"duiĠdaĠ":8793,"luoĠerĠ":8794,"ganĠshiĠ":8795,"tangĠheĠ":8796,"taoĠliĠ":8797,"sisĠ":8798,"mingĠchengĠweiĠ":8799,"lianĠsaiĠdeĠ":8800,"ĠweiĠyuĠyinĠjingĠ":8801,"ĠEĠ":8802,"ĠweiĠwuĠerĠ":8803,"ĠqiĠB1900":8804,"0ĠzuoĠbiaoĠweiĠchiĠjingĠ":8805,"ĠkuaiĠ":8806,"shuĠdiĠ":8807,"quĠdiĠ":8808,"wenĠzhiĠ":8809,"nanĠzhiĠ":8810,"ï¼İ":8811,"fuĠnvĠ":8812,"chengĠxiangĠ":8813,"shengĠhuoĠdeĠ":8814,"dongĠyaĠ":8815,"nanĠbuĠdeĠ":8816,"bianĠmaĠ":8817,"suoĠweiĠdeĠ":8818,"ĠliĠshiĠhuiĠ":8819,"dianĠshiĠdongĠhuaĠ":8820,"ĠzongĠtongĠ":8821,"zhanĠdouĠjiĠ":8822,"daĠrenĠ":8823,"ĠshiĠjiĠzhongĠ":8824,"ĠqingĠchaoĠzhengĠzhiĠrenĠwuĠ":8825,"Ġhua":8826,"ĠfenĠweiĠ":8827,"ĠĠĠPro":8828,"ĠĠĠsanĠ":8829,"ĠĠĠ11ĠyueĠ":8830,"teĠsiĠ":8831,"moĠliĠ":8832,"shuiĠzhongĠ":8833,"senĠdeĠ":8834,"sangĠshiĠ":8835,"1909ĠnianĠ":8836,"buĠhuiĠ":8837,"yuanĠxiaoĠ":8838,"wuĠtiĠ":8839,"fenĠpei":8840,"zuĠqiuĠlianĠsaiĠ":8841,"ĠguoĠminĠzhengĠfuĠ":8842,"taiĠzaiĠ":8843,"gongĠdianĠ":8844,"ĠerĠlaiĠ":8845,"ĠxiĠzhouĠ":8846,"meiĠdongĠ":8847,"ĠfuĠlangĠ":8848,"ĠdongĠhuaĠ":8849,"ĠyinĠciĠzaiĠ":8850,"ĠĠĠcheĠzhanĠgouĠzaoĠ":8851,"Ġzou":8852,"ĠnianĠqingĠdeĠ":8853,"dongĠquĠ":8854,"yinĠdaoĠ":8855,"jiangĠpaiĠ":8856,"miĠqieĠ":8857,"xuanĠyanĠ":8858,"henĠdaĠdeĠ":8859,"biaoĠxianĠchuĠ":8860,"ĠĠĠlinĠ":8861,"ĠĠĠtaĠdeĠ":8862,"ĠĠĠ2022ĠnianĠ":8863,"faĠzaiĠ":8864,"liangĠyiĠ":8865,"daĠlou":8866,"kongĠzhiĠdeĠ":8867,"wanĠchengĠleĠ":8868,"nanĠsiĠlaĠfuĠ":8869,"xinĠtaiĠbiĠ":8870,"eĠyuĠ":8871,"Ġ1945":8872,"luĠzhongĠ":8873,"book":8874,"teĠrenĠ":8875,"yunĠzaiĠ":8876,"baiĠshiĠ":8877,"juĠdianĠ":8878,"saiĠnaĠ":8879,"leiĠsiĠyuĠ":8880,"caoĠzuo":8881,"Ġ1993ĠnianĠ":8882,"ĠĠĠMo":8883,"duĠzaiĠ":8884,"chuanĠdaoĠ":8885,"shaoĠweiĠ":8886,"penĠdiĠ":8887,"yuanĠzhengĠ":8888,"shengĠdanĠ":8889,"yingĠxiangĠdeĠ":8890,"xinĠquĠ":8891,"ĠxingĠzheng":8892,"zongĠshuĠjiĠ":8893,"xunĠzhao":8894,"shunĠshiĠzhenĠyuĠ":8895,"4ĠmingĠ":8896,"ĠtaiĠguoĠ":8897,"ĠĠĠbiĠ":8898,"shaĠrenĠ":8899,"waĠdeĠ":8900,"yingĠpian":8901,"luĠjingĠ":8902,"faĠbuĠleĠ":8903,"feiĠlvĠbinĠ":8904,"ĠweiĠyuĠgaiĠshengĠ":8905,"ĠboĠshiĠ":8906,"ĠĠĠzuoĠ":8907,"zhanĠyiĠzhongĠ":8908,"suanĠjianĠ":8909,"beiĠrenĠweiĠ":8910,"ĠqiĠrenĠ":8911,"ĠsiĠxiangĠ":8912,"ĠgeĠmingĠ":8913,"aoĠdaĠliĠ":8914,"ĠyingĠdeĠ":8915,"ĠminĠzhuĠ":8916,"ĠguangĠxiĠ":8917,"xunĠxiĠ":8918,"daĠgeĠmingĠ":8919,"gongĠwuĠ":8920,"changĠchangĠ":8921,"feiĠdanĠ":8922,"jiaĠruĠleĠ":8923,"zhenĠjiĠxingĠzhengĠdanĠweiĠ":8924,"Ġ160":8925,"youĠyiĠzhiĠ":8926,"faĠweiĠyuanĠ":8927,"taĠliĠ":8928,"feiĠdiĠ":8929,"shuiĠheĠ":8930,"70ĠnianĠ":8931,"zheĠxiangĠ":8932,"ĠgeĠerĠ":8933,"ĠzhanĠhouĠ":8934,"ĠxingĠzhengĠquĠ":8935,"Ġtan":8936,"Ġpao":8937,"ĠchangĠqiĠ":8938,"Ġ1995ĠnianĠ":8939,"muĠliĠ":8940,"yaĠjiĠ":8941,"teĠweiĠ":8942,"duanĠweiĠ":8943,"congĠzhongĠ":8944,"daĠbanĠ":8945,"ĠxiĠgeĠ":8946,"jiangĠnanĠ":8947,"benĠzhanĠ":8948,"ĠziĠran":8949,"hongĠzhaĠ":8950,"Ġ64":8951,"ĠluoĠsiĠ":8952,"ĠĠĠkaiĠ":8953,"qiangĠdaĠ":8954,"genĠdiĠ":8955,"22ĠnianĠ":8956,"68ĠnianĠ":8957,"ĠqiĠxi":8958,"zuoĠwuĠ":8959,"1ĠjiaĠ":8960,"zhuanĠkeĠ":8961,"zhuanĠchengĠ":8962,"xiuĠsiĠ":8963,"16ĠnianĠ":8964,"14ĠnianĠ":8965,"1970ĠnianĠdaiĠ":8966,"ĠbuĠtong":8967,"ĠbuĠbingĠ":8968,"shangĠbiaoĠ":8969,"leĠbiĠ":8970,"ĠpingĠchengĠ":8971,"Ġpang":8972,"ĠtuanĠ":8973,"ĠĠĠ9":8974,"lianĠshiĠ":8975,"zuiĠxingĠ":8976,"peĠ":8977,"CDĠ":8978,"ĠyiĠdingĠ":8979,"ĠzhiĠhou":8980,"xueĠtongĠ":8981,"zhanĠlveĠ":8982,"bingĠbeiĠ":8983,"shenĠpanĠ":8984,"luoĠteĠ":8985,"kaiĠchuĠ":8986,"ĠcongĠciĠ":8987,"ĠweiĠjiĠchuĠ":8988,"xiaĠxiaĠdeĠyiĠgeĠxiangĠzhenĠjiĠxingĠzhengĠdanĠweiĠ":8989,"ten":8990,"Ġgang":8991,"Ġ58":8992,"ĠaoĠsiĠ":8993,"baĠjiĠsiĠ":8994,"35ĠnianĠ":8995,"ĠyiĠseĠlieĠ":8996,"xiangĠliangĠ":8997,"fangĠkongĠ":8998,"laiĠkanĠ":8999,"chuanĠshuĠ":9000,"lvĠhuaĠ":9001,"1ĠmiĠ":9002,"ĠFĠ":9003,"cke":9004,"minĠshiĠ":9005,"ĠjiĠcheĠ":9006,"buĠzuĠ":9007,"dianĠxinĠ":9008,"ĠboĠlanĠ":9009,"hunĠningĠ":9010,"ĠguanĠzhuangĠbingĠduĠ":9011,"zhuiĠsuĠdaoĠ":9012,"ĠĠĠfengĠ":9013,"ĠĠĠ4Ġ":9014,"zhanĠliĠ":9015,"erĠchengĠ":9016,"jiaĠsheĠ":9017,"shengĠqiĠ":9018,"mingĠchaoĠ":9019,"ciĠdianĠ":9020,"yinĠyingĠ":9021,"wenĠshuĠ":9022,"gangĠqinĠ":9023,"nanĠjiĠtiaoĠyueĠ":9024,"aoĠkeĠ":9025,"shouĠzaiĠ":9026,"tingĠzhongĠ":9027,"1925ĠnianĠ":9028,"shouĠsunĠ":9029,"zhanĠshengĠ":9030,"luĠyinĠ":9031,"ĠgeĠguoĠ":9032,"ĠgaiĠshuĠ":9033,"ĠshangĠyeĠ":9034,"yanĠjiuĠdeĠ":9035,"ĠshiĠrenĠminĠzhengĠfuĠ":9036,"Ġkao":9037,"Ġ1999":9038,"ĠpiaoĠ":9039,"ĠfenĠbuĠzaiĠ":9040,"ĠĠĠst":9041,"ĠĠĠ2009ĠnianĠ":9042,"diĠshiĠyiĠ":9043,"teĠzhiĠ":9044,"mianĠweiĠ":9045,"longĠkeĠ":9046,"rongĠjiĠ":9047,"xiĠtongĠdeĠ":9048,"siĠhouĠ":9049,"shouĠgeĠquĠ":9050,"ĠtongĠyangĠ":9051,"dongĠjingĠduĠ":9052,"Ġcang":9053,"ĠduĠliĠ":9054,"mingĠqiĠ":9055,"yaĠerĠ":9056,"paiĠheĠ":9057,"buĠtong":9058,"shangĠkeĠ":9059,"tiĠanĠ":9060,"yaĠgeĠ":9061,"tianĠxiaĠ":9062,"ĠgeĠlanĠ":9063,"qiangĠdiao":9064,"ceĠlve":9065,"ĠnanĠbeiĠ":9066,"yuanĠrenĠ":9067,"duĠyueĠ":9068,"chuanĠshiĠ":9069,"ĠjiĠyinĠ":9070,"laiĠzi":9071,"paiĠshe":9072,"guangĠbo":9073,"zaoĠchuanĠ":9074,"Ġ1990":9075,"Ġ47":9076,"pingĠrenĠ":9077,"11ĠnianĠ":9078,"ĠzhongĠwen":9079,"chuĠjingĠ":9080,"shangĠjieĠ":9081,"guanĠzhengĠ":9082,"changĠanĠ":9083,"ĠziĠciĠ":9084,"ĠxiangĠdangĠyuĠ":9085,"ĠweiĠyuanĠhuiĠzhuĠxiĠ":9086,"ĠaĠliĠ":9087,"ĠhaĠliĠ":9088,"canĠsaiĠziĠgeĠ":9089,"nanĠjiĠtiaoĠyueĠtiĠxiĠ":9090,"Ġ1998":9091,"jiĠshiĠshiĠ":9092,"ĠĠĠshuĠ":9093,"ĠĠĠsheĠjiĠ":9094,"gaiĠyouĠ":9095,"duoĠyuĠ":9096,"touĠyuĠ":9097,"ĠliĠxianĠ":9098,"ĠzaiĠxinĠ":9099,"beiĠluĠ":9100,"mingĠxianĠdeĠ":9101,"xiaoĠhuaĠ":9102,"ĠfuĠzhuĠ":9103,"ĠxiangĠsiĠ":9104,"xiuĠdaoĠyuanĠ":9105,"liuĠyiĠ":9106,"ĠshiĠfenĠ":9107,"faĠyanĠrenĠ":9108,"ĠdiĠmianĠ":9109,"shouĠhuĠ":9110,"jiaoĠtuĠ":9111,"moĠfaĠ":9112,"gengĠdaĠdeĠ":9113,"jiĠshiĠjianĠ":9114,"junĠqiĠ":9115,"lvĠheĠ":9116,"taoĠfaĠ":9117,"saĠkeĠsiĠ":9118,"jiaoĠzhanĠ":9119,"diĠshiĠniĠ":9120,"ĠdaĠyueĠ":9121,"tongĠxingĠlianĠ":9122,"Ġ1949ĠnianĠ":9123,"Ġ48":9124,"jiaĠliĠyaĠ":9125,"banĠzhiĠ":9126,"shuiĠdaoĠ":9127,"hunĠliĠ":9128,"ĠdeĠheĠ":9129,"jianĠcha":9130,"guanĠdaoĠ":9131,"biĠyaoĠ":9132,"ĠjuĠjueĠ":9133,"ĠhuiĠfuĠ":9134,"weiĠyiĠzhongĠ":9135,"miaoĠshuĠweiĠ":9136,"xiaoĠxingĠxingĠdeĠ":9137,"ĠeĠluoĠ":9138,"ĠĠĠhuaĠ":9139,"yingĠyiĠ":9140,"dingĠyiĠweiĠ":9141,"tuoĠkeĠ":9142,"hunĠyin":9143,"ĠshiĠnianĠ":9144,"ĠweiĠxianĠ":9145,"ĠzhongĠyao":9146,"yanĠzhengĠ":9147,"laiĠwuĠ":9148,"ĠfuĠjinĠdeĠ":9149,"yunĠhuiĠ":9150,"fengĠfuĠdeĠ":9151,"baiĠhouĠ":9152,"ĠzheĠyangĠdeĠ":9153,"ĠhuoĠchengĠ":9154,"diĠerĠciĠ":9155,"ĠweiĠshiĠ":9156,"ĠqiĠyiĠ":9157,"quanĠzhiĠ":9158,"sanĠxingĠ":9159,"ĠyiĠdanĠ":9160,"faĠshe":9161,"ĠxiĠfangĠ":9162,"zhengĠxieĠ":9163,"houĠxuĠ":9164,"fenĠgeĠ":9165,"pingĠdengĠ":9166,"zhouĠkanĠ":9167,"tianĠhuang":9168,"ĠĠĠzhiĠyeĠshengĠyaĠ":9169,"shanĠmaiĠdeĠyiĠbuĠfenĠ":9170,"quanĠguoĠzhongĠdianĠwenĠwuĠbaoĠhuĠdanĠweiĠ":9171,"nanĠjiĠtiaoĠyueĠtiĠxiĠguanĠliĠ":9172,"ĠFi":9173,"hanĠjianĠ":9174,"bangĠdiĠ":9175,"xingĠdengĠweiĠ":9176,"faĠxueĠ":9177,"fangĠshouĠ":9178,"qingĠyuanĠ":9179,"puĠluĠshiĠ":9180,"zhengĠzhiĠbuĠ":9181,"quĠdeĠleĠ":9182,"ĠNe":9183,"ĠdouĠshiĠ":9184,"ĠĠĠchenĠ":9185,"sanĠzhiĠ":9186,"faĠlanĠkeĠ":9187,"ĠsiĠgeĠ":9188,"ĠyeĠchengĠ":9189,"tangĠquĠ":9190,"ĠDi":9191,"ĠĠĠbaoĠ":9192,"jingĠdiĠ":9193,"maĠyiĠ":9194,"caiĠshiĠ":9195,"shangĠzuiĠ":9196,"jingĠtiĠ":9197,"zheĠciĠ":9198,"guanĠfang":9199,"duiĠkang":9200,"ĠziĠshengĠ":9201,"kaiĠshiĠyuĠ":9202,"ĠJĠ":9203,"jieĠquanĠguoĠrenĠminĠdaiĠbiaoĠdaĠhuiĠ":9204,"ĠĠĠzaoĠqiĠ":9205,"ĠĠĠ2007ĠnianĠ":9206,"paĠerĠ":9207,"wengĠ":9208,"gongĠguoĠ":9209,"jiaĠsiĠ":9210,"dianĠxingĠdeĠ":9211,"xuanĠgaoĠ":9212,"shanĠhuĠ":9213,"laĠmaĠ":9214,"keĠyiĠshengĠ":9215,"dongĠshiĠhuiĠ":9216,"ĠwoĠdeĠ":9217,"ĠĠĠliangĠ":9218,"ĠĠĠwaiĠbuĠ":9219,"quĠxiĠ":9220,"xiaoĠzhiĠ":9221,"zhouĠnianĠ":9222,"maĠheĠ":9223,"mieĠwangĠ":9224,"ĠjiĠjieĠ":9225,"guoĠfangĠ":9226,"ĠbuĠzhangĠ":9227,"zhuĠchengĠ":9228,"huiĠbaoĠ":9229,"shouĠhuanĠ":9230,"danĠyaoĠ":9231,"shenĠyeĠ":9232,"xuĠlieĠ":9233,"ĠyiĠzhiĠzaiĠ":9234,"peiĠchangĠ":9235,"ĠfanĠyingĠ":9236,"ĠcengĠyuĠ":9237,"1911ĠnianĠ":9238,"zhongĠyang":9239,"nanĠmeiĠzhouĠ":9240,"zhenĠzhuĠ":9241,"bianĠhuanĠ":9242,"ĠweiĠyuĠzhongĠhuaĠrenĠminĠgongĠheĠguoĠ":9243,"ĠdianĠziĠ":9244,"ĠgaiĠcunĠshiĠjianĠyuĠ":9245,"ĠĠĠkaĠ":9246,"xiĠdiĠ":9247,"xiĠfangĠ":9248,"wuĠdaĠ":9249,"mingĠmingĠdeĠ":9250,"zhanĠjianĠ":9251,"guanĠguangĠ":9252,"shuiĠliangĠ":9253,"Ġtu":9254,"xianĠdeĠdiĠ":9255,"mieĠjueĠ":9256,"ĠliĠaoĠ":9257,"xuanĠminĠ":9258,"maĠzuĠ":9259,"naĠyangĠ":9260,"taoĠlun":9261,"guoĠjiĠzuĠ":9262,"ĠĠĠhanĠ":9263,"erĠshiĠdeĠ":9264,"mingĠzaiĠ":9265,"leĠyueĠ":9266,"xueĠzhiĠ":9267,"mianĠyouĠ":9268,"28ĠnianĠ":9269,"1923ĠnianĠ":9270,"xingĠnengĠ":9271,"geĠdiĠdeĠ":9272,"mingĠniĠ":9273,"yingĠxiong":9274,"xiaoĠlvĠ":9275,"zhenĠrongĠ":9276,"dangĠzuoĠ":9277,"dangĠdaiĠ":9278,"ĠjieĠdaoĠ":9279,"chongĠshengĠ":9280,"daiĠbiaoĠtuan":9281,"ĠjianĠyiĠ":9282,"ĠĠĠfenĠ":9283,"beiĠzhongĠ":9284,"duoĠdaĠ":9285,"shuiĠshiĠ":9286,"nvĠdeĠ":9287,"rongĠhuoĠ":9288,"1922ĠnianĠ":9289,"xiĠerĠ":9290,"keĠjianĠ":9291,"ziĠchengĠ":9292,"huaĠruĠ":9293,"nanĠdaoĠ":9294,"qiuĠmiĠ":9295,"gaoĠsu":9296,"kaiĠbanĠ":9297,"2ĠmingĠ":9298,"ĠweiĠyuĠgaiĠguoĠxiĠbuĠ":9299,"Ġ65":9300,"lanĠheĠ":9301,"64ĠnianĠ":9302,"xianĠqianĠ":9303,"shuĠxingĠ":9304,"dianĠchangĠ":9305,"gaiĠjianĠ":9306,"boĠgeĠ":9307,"ĠshiĠyiĠjiaĠ":9308,"lunĠtanĠ":9309,"ĠshiĠdeĠrenĠ":9310,"ĠTĠ":9311,"juĠminĠdianĠ":9312,"zuoĠquĠjiaĠ":9313,"buĠdeĠyiĠgeĠ":9314,"liangĠqiĠ":9315,"xiuĠshiĠ":9316,"xiuĠxianĠ":9317,"wuĠran":9318,"keĠyiĠshiĠ":9319,"duiĠbiĠ":9320,"suoĠxieĠ":9321,"ĠziĠjiĠdeĠ":9322,"ĠmuĠqinĠ":9323,"maoĠzeĠdongĠ":9324,"zaiĠdeĠguoĠ":9325,"guĠsiĠ":9326,"ward":9327,"qingĠganĠ":9328,"sheĠruĠ":9329,"gaoĠshanĠ":9330,"feiĠteĠ":9331,"liuĠqiuĠ":9332,"ĠjinĠbiaoĠ":9333,"aiĠnaĠshengĠ":9334,"ĠMe":9335,"Ġ1984ĠnianĠ":9336,"ĠĠĠ2000":9337,"1970ĠnianĠ":9338,"mentĠ":9339,"xingĠzhuangĠ":9340,"shenĠfen":9341,"shanĠchuĠ":9342,"paiĠfangĠ":9343,"geĠyueĠdeĠ":9344,"shuĠyueĠ":9345,"huoĠerĠ":9346,"chongĠdeĠ":9347,"ruanĠtiaoĠ":9348,"70Ġ":9349,"ĠwuĠqiĠ":9350,"zuĠchengĠbuĠfenĠ":9351,"¼Ġ":9352,"Ġ1985ĠnianĠ":9353,"ĠĠĠc":9354,"daiĠerĠ":9355,"niĠfuĠ":9356,"zongĠsiĠlingĠ":9357,"mouĠzhongĠ":9358,"90Ġ":9359,"65ĠnianĠ":9360,"fuĠzhuĠxiĠ":9361,"siĠtan":9362,"ĠbuĠshaoĠ":9363,"guanĠlianĠ":9364,"ĠyiĠjiĠzhongĠguoĠdaĠluĠdeĠ":9365,"ganĠqingĠ":9366,"zhuĠyaoĠyouĠ":9367,"ĠĠĠzheĠkeĠ":9368,"dongĠyuĠ":9369,"shanĠheĠ":9370,"00ĠnianĠ":9371,"deĠguoĠ":9372,"ĠyiĠdiĠ":9373,"ĠweiĠtaĠ":9374,"geĠxiangĠ":9375,"tongĠxiangĠ":9376,"meiĠxiaoĠshiĠ":9377,"chuanĠshuo":9378,"ĠdanĠyouĠ":9379,"ĠzuiĠhouĠyiĠ":9380,"feiĠxingĠyuanĠ":9381,"ĠĠĠleiĠ":9382,"leĠzhongĠguoĠ":9383,"guanĠdiĠ":9384,"duĠbuĠ":9385,"zhangĠzhongĠ":9386,"75ĠnianĠ":9387,"fuĠchuĠ":9388,"jinĠshengĠ":9389,"tongĠyongĠ":9390,"ĠdaĠjieĠ":9391,"jiaoĠdianĠ":9392,"liangĠzuoĠ":9393,"ĠdanĠshiĠzaiĠ":9394,"genĠbenĠ":9395,"ĠĠĠjiaoĠyuĠ":9396,"zhongĠshiĠyongĠ":9397,"gengĠgaiĠ":9398,"gunĠ":9399,"ĠzaiĠhaiĠ":9400,"xiĠzangĠ":9401,"juĠliuĠ":9402,"ĠfuĠzhuĠxiĠ":9403,"chuĠliĠqiĠ":9404,"luĠyingĠdaiĠ":9405,"Ġgei":9406,"ĠĠĠxiangĠgang":9407,"shangĠzaiĠ":9408,"kaiĠjiĠ":9409,"nuoĠdeĠ":9410,"diĠanĠ":9411,"daĠshaĠ":9412,"geĠjieĠ":9413,"houĠxuanĠ":9414,"bingĠbuĠshiĠ":9415,"ĠtaĠshuoĠ":9416,"ĠbingĠxiangĠ":9417,"gengĠduo":9418,"zhengĠzhiĠjiaĠ":9419,"xiangĠliĠ":9420,"tiĠqiĠ":9421,"xiaoĠweiĠ":9422,"muĠzhongĠ":9423,"âĪĴ":9424,"xingĠbieĠ":9425,"faĠbiaoĠdeĠ":9426,"chuĠjueĠ":9427,"jiaoĠxiaoĠ":9428,"ĠkeĠfuĠ":9429,"haiĠbaĠgaoĠduĠ":9430,"guĠzhangĠ":9431,"ĠquĠdaiĠ":9432,"ĠheiĠlongĠjiangĠ":9433,"Ġqiang":9434,"ĠĠĠRo":9435,"wangĠzaiĠ":9436,"zhaoĠjiĠ":9437,"ĠyouĠyongĠ":9438,"ĠrenĠzhengĠ":9439,"ĠheĠziĠ":9440,"shengĠdianĠ":9441,"jinĠhuaĠ":9442,"ĠxiĠshouĠ":9443,"yeĠchengĠweiĠ":9444,"jiaoĠdaĠdeĠ":9445,"duĠshuĠ":9446,"ĠbingĠchengĠweiĠ":9447,"meiĠguoĠzongĠtongĠ":9448,"ĠhaiĠbaĠ":9449,"ĠbaĠyueĠ":9450,"fuĠzhiĠfuĠ":9451,"xinĠguanĠfeiĠyanĠqueĠzhenĠbingĠliĠ":9452,"Ġkong":9453,"ĠUĠ":9454,"anĠheĠ":9455,"ĠĠĠre":9456,"niĠyuĠ":9457,"shuiĠliĠ":9458,"zhuiĠqiuĠ":9459,"lspanĠ":9460,"qiĠyuanĠ":9461,"ĠxiĠfaĠ":9462,"yingĠwuĠ":9463,"yinĠjieĠ":9464,"ĠtaĠduiĠ":9465,"boĠduoĠ":9466,"zuiĠda":9467,"baĠmaĠ":9468,"neiĠyaĠ":9469,"cunĠminĠ":9470,"ĠxianĠzhiĠ":9471,"ĠjiĠzhongĠxueĠ":9472,"ĠÐ¾":9473,"ĠmengĠguĠ":9474,"ĠĠĠwaiĠbuĠlianĠjieĠ":9475,"Ġ1988ĠnianĠ":9476,"ĠĠĠzhengĠyiĠ":9477,"quĠyiĠyuanĠ":9478,"baoĠyouĠ":9479,"ĠzhongĠzuĠ":9480,"guanĠkanĠ":9481,"qianĠdaoĠ":9482,"wanĠjianĠ":9483,"ĠdanĠreng":9484,"ĠdeĠshiĠqingĠ":9485,"aĠsiĠ":9486,"ĠsĠ":9487,"ĠĠĠMi":9488,"zuoĠzaiĠ":9489,"yangĠyuĠ":9490,"ĠheĠhuaĠ":9491,"ĠbuĠruĠ":9492,"xianĠquĠ":9493,"ĠdaĠbaiĠ":9494,"ĠbaoĠliuĠ":9495,"gouĠtongĠ":9496,"ganĠlanĠqiuĠ":9497,"ĠsuoĠxieĠ":9498,"Ġ16Ġ":9499,"gongĠzuoĠrenĠyuanĠ":9500,"ĠxianĠshiĠyouĠnanĠjiĠtiaoĠyueĠtiĠxiĠguanĠliĠ":9501,"ĠzhaĠ":9502,"Ġ1990ĠnianĠ":9503,"ĠĠĠchangĠ":9504,"laiĠzhiĠ":9505,"baĠyiĠ":9506,"zongĠjiĠ":9507,"cunĠchuĠ":9508,"shuaiĠjiaoĠ":9509,"kuaĠ":9510,"62ĠnianĠ":9511,"1926ĠnianĠ":9512,"beiĠshangĠ":9513,"yingĠchiĠ":9514,"xinĠtuĠ":9515,"chenĠmoĠ":9516,"Ġ19Ġ":9517,"clu":9518,"zhongĠyiĠgeĠ":9519,"guanĠnianĠ":9520,"fuĠluĠ":9521,"luĠyinĠshiĠ":9522,"wenĠdingĠdeĠ":9523,"ĠdanĠquĠ":9524,"1ĠmingĠ":9525,"jiaoĠyiĠsuoĠ":9526,"yiĠĠĠ":9527,"ĠĠĠdengĠ":9528,"ĠĠĠmoĠ":9529,"sanĠqiĠ":9530,"shuiĠweiĠ":9531,"1919ĠnianĠ":9532,"yanĠjiuĠshiĠ":9533,"ĠxiangĠzhengĠ":9534,"ĠshiĠjiĠchuĠ":9535,"ĠzheĠshiĠdeĠ":9536,"ĠdaiĠmaĠweiĠ":9537,"Ġ600":9538,"jianĠli":9539,"biĠjiĠ":9540,"chaĠjiĠ":9541,"manĠyiĠ":9542,"17ĠnianĠ":9543,"World":9544,"zhanĠchuĠ":9545,"changĠdaoĠ":9546,"zhenĠwangĠ":9547,"ĠshiĠyiĠkeĠweiĠ":9548,"ĠyouĠzhiĠ":9549,"caiĠyongĠleĠ":9550,"ĠMo":9551,"ĠĠĠfenĠbuĠ":9552,"feiĠqiĠ":9553,"1950ĠnianĠ":9554,"shuĠgeĠ":9555,"shouĠcangĠ":9556,"yeĠsuĠ":9557,"ĠsiĠmaĠ":9558,"daiĠdaoĠ":9559,"shenĠmiĠ":9560,"suoĠjianĠ":9561,"dingĠdianĠ":9562,"ĠsuĠchengĠ":9563,"ĠyaĠzhouĠ":9564,"enĠsiĠ":9565,"nanĠyueĠ":9566,"wangĠheĠ":9567,"niĠjiĠ":9568,"xiangĠnanĠ":9569,"mingĠjiaoĠ":9570,"yanĠxianĠ":9571,"ĠxingĠxingĠ":9572,"suoĠzaiĠdeĠ":9573,"zhanĠqiĠ":9574,"danĠjiĠ":9575,"xuĠyiĠ":9576,"tedĠĠĠ":9577,"youĠtaiĠ":9578,"fuĠzhuangĠ":9579,"ĠkeĠyunĠ":9580,"lianĠjunĠ":9581,"zuiĠhaoĠdeĠ":9582,"ĠjuĠleĠbuĠ":9583,"ĠdeĠshiĠyiĠ":9584,"ĠxianĠyiĠ":9585,"maĠlaiĠxiĠya":9586,"raoĠtaiĠyangĠgongĠ":9587,"meiĠdongĠbuĠshiĠquĠ":9588,"soft":9589,"Ġhen":9590,"ĠĠĠÐ":9591,"zhanĠbuĠ":9592,"danĠyouĠ":9593,"bianĠfuĠ":9594,"tianĠdiĠ":9595,"lanĠshiĠ":9596,"gengĠdaĠ":9597,"ĠshiĠxiaĠxiaĠdeĠyiĠgeĠxiangĠzhenĠjiĠxingĠzhengĠdanĠweiĠ":9598,"ĠzhongĠrenĠ":9599,"geĠxingĠ":9600,"dongĠceĠ":9601,"bingĠqieĠ":9602,"miĠsuĠliĠ":9603,"ĠHĠ":9604,"Ġ1994":9605,"ĠĠĠ2006ĠnianĠ":9606,"chengĠbuĠ":9607,"biĠheĠ":9608,"baĠkeĠ":9609,"usĠ":9610,"ĠzaiĠkeĠ":9611,"shengĠcunĠ":9612,"beiĠfaĠ":9613,"chuĠxian":9614,"jinĠjunĠ":9615,"ruĠxueĠ":9616,"xieĠtiaoĠ":9617,"dingĠleĠ":9618,"ĠdanĠzuiĠzhongĠ":9619,"douĠmeiĠyouĠ":9620,"ĠyiĠzhiĠdaoĠ":9621,"yiĠshiĠqiĠ":9622,"ĠdeĠdiĠdiĠ":9623,"saĠlaĠ":9624,"xingĠzhengĠyuanĠ":9625,"ĠISTAT":9626,"Ġjue":9627,"Ġ59":9628,"ĠmingĠweiĠ":9629,"huĠzhiĠ":9630,"qieĠdeĠ":9631,"30ĠfenĠ":9632,"24ĠnianĠ":9633,"37ĠnianĠ":9634,"jieĠxiĠ":9635,"xinĠfengĠ":9636,"jiaoĠgei":9637,"ĠdeĠshiĠliĠ":9638,"ĠpingĠlunĠ":9639,"ĠESTĠ":9640,"YĠ":9641,"Ġzan":9642,"nengĠdeĠ":9643,"linĠzhongĠ":9644,"arĠ":9645,"ĠyouĠsiĠ":9646,"ĠyouĠbeiĠ":9647,"ĠguoĠhouĠ":9648,"ĠdiĠbaĠ":9649,"shenĠsheĠ":9650,"ĠxingĠquĠ":9651,"zhaoĠkai":9652,"ĠduiĠciĠ":9653,"ĠweiĠyuĠfaĠguoĠao":9654,"wenĠweiĠ":9655,"niĠdiĠ":9656,"naĠshiĠ":9657,"huanĠbaoĠ":9658,"jianĠdanĠdeĠ":9659,"quĠdaoĠ":9660,"houĠlaiĠdeĠ":9661,"qianĠfangĠ":9662,"xiaĠleĠ":9663,"meiĠguoĠzhiĠ":9664,"lingĠganĠ":9665,"zongĠlingĠshiĠ":9666,"laĠduoĠ":9667,"ĠmingĠmingĠ":9668,"ĠsuiĠjiĠ":9669,"zhuĠjiaoĠlianĠ":9670,"ĠxieĠzhuĠ":9671,"guangĠboĠgongĠsiĠ":9672,"jueĠduiĠxingĠdengĠweiĠ":9673,"jueĠsaiĠyiĠ":9674,"Ġ1996":9675,"liĠxiĠ":9676,"neiĠheĠ":9677,"pianĠweiĠ":9678,"TVĠ":9679,"1914ĠnianĠ":9680,"aĠmiĠ":9681,"ĠyiĠzhiĠyuĠ":9682,"ĠshouĠfuĠ":9683,"Ġ5ĠdiaoĠkuaiĠyiĠxiaoĠshiĠ":9684,"biĠliĠniuĠsiĠ":9685,"ĠjiĠbeiĠmeiĠdongĠbuĠshiĠquĠ":9686,"ĠEDTĠ":9687,"ĠshiĠyiĠkeĠweiĠraoĠtaiĠyangĠgongĠ":9688,"ĠshiĠyiĠkeĠweiĠraoĠtaiĠyangĠgongĠzhuanĠdeĠxiaoĠxingĠxingĠ":9689,"Ġ49":9690,"Ġ1989ĠnianĠ":9691,"ĠĠĠma":9692,"diĠliĠyaĠ":9693,"yinĠzaiĠ":9694,"niĠheĠ":9695,"benĠshiĠ":9696,"shaoĠshiĠ":9697,"ginĠ":9698,"ĠjiĠgou":9699,"yuanĠyinĠshiĠ":9700,"minĠdangĠ":9701,"ĠtaĠweiĠ":9702,"douĠkeĠyiĠ":9703,"ĠyuanĠziĠ":9704,"ĠerĠjiĠ":9705,"ĠLĠ":9706,"saiĠerĠweiĠyaĠ":9707,"xiaoĠxingĠxingĠdeĠjueĠduiĠxingĠdengĠweiĠ":9708,"OR":9709,"sti":9710,"Ġrou":9711,"moĠnianĠ":9712,"guangĠyiĠ":9713,"pianĠrenĠ":9714,"1913ĠnianĠ":9715,"zenĠ":9716,"ĠfuĠzhouĠ":9717,"tianĠxinĠ":9718,"tiaoĠmuĠ":9719,"henĠduo":9720,"Ġhe":9721,"ĠtuiĠchuĠ":9722,"ĠboĠliĠ":9723,"ĠĠĠbanĠ":9724,"ĠĠĠxuanĠ":9725,"zhouĠyuĠ":9726,"qiĠrenĠ":9727,"ĠzaiĠwuĠ":9728,"ziĠshengĠ":9729,"guanĠce":9730,"ĠdeĠyiĠjiaĠ":9731,"diaoĠsuĠ":9732,"jiaĠruĠzhongĠguoĠgongĠchanĠdangĠ":9733,"ĠĠĠzheĠkeĠxiaoĠxingĠxingĠdeĠjueĠduiĠxingĠdengĠweiĠ":9734,"Ġ1997":9735,"Ġ800":9736,"puĠerĠ":9737,"cebook":9738,"ĠguoĠyouĠ":9739,"beiĠbuĠdeĠ":9740,"duĠzheĠ":9741,"yinĠdiĠanĠnaĠ":9742,"ĠqiaoĠzhiĠ":9743,"Ġ2024ĠnianĠ":9744,"Ġ1991ĠnianĠ":9745,"zeĠerĠ":9746,"caiĠjiĠ":9747,"zhaiĠwuĠ":9748,"1918ĠnianĠ":9749,"juĠluoĠ":9750,"guanĠshangĠ":9751,"ruĠleĠ":9752,"tianĠxianĠ":9753,"kouĠjingĠ":9754,"erĠshiĠnianĠ":9755,"ĠjiĠzhongĠzaiĠ":9756,"tha":9757,"senĠbaoĠ":9758,"sto":9759,"ĠzhiĠhouĠzaiĠ":9760,"xiĠshouĠ":9761,"ĠyueĠseĠfuĠ":9762,"jianĠhuaĠ":9763,"taiĠbei":9764,"yongĠyuanĠ":9765,"wanĠquĠ":9766,"shuiĠshangĠ":9767,"ĠyiĠweiĠzheĠ":9768,"9ĠshiĠ":9769,"ĠCa":9770,"ĠĠĠhuiĠ":9771,"ciĠrenĠ":9772,"xiaoĠheĠ":9773,"ĠyiĠjiĠyiĠ":9774,"ĠyouĠwuĠ":9775,"xiĠyuanĠ":9776,"xiĠjieĠ":9777,"jianĠzhengĠ":9778,"yanĠzouĠ":9779,"ciĠtianĠtiĠ":9780,"gangĠtie":9781,"diĠyiĠjieĠ":9782,"Ġ1992":9783,"ĠqiuĠduiĠ":9784,"ĠĠĠmiĠ":9785,"shouĠqiĠ":9786,"fanĠdiĠ":9787,"zaoĠyiĠ":9788,"zhuanĠrenĠ":9789,"lunĠjiĠ":9790,"souĠsuoĠ":9791,"ctĠ":9792,"geĠshengĠ":9793,"dianĠzhanĠ":9794,"ĠshiĠyiĠyuanĠ":9795,"zhuĠjiaoĠzuoĠ":9796,"shouĠshiĠlvĠ":9797,"ĠheĠdaoĠquanĠzhangĠ":9798,"fli":9799,"qiĠshiĠshiĠ":9800,"chuangĠshiĠ":9801,"inĠ":9802,"ĠyouĠdaĠ":9803,"ĠdiĠdaiĠ":9804,"shangĠyingĠdeĠ":9805,"duĠxingĠ":9806,"zuĠqunĠ":9807,"zhenĠzhengĠdeĠ":9808,"ĠnanĠjingĠ":9809,"junĠshiĠtanĠdingĠ":9810,"keĠliĠmiĠyaĠ":9811,"ĠĠĠgaiĠshuĠ":9812,"ĠzhiĠhuiĠguanĠ":9813,"enĠdeĠ":9814,"fengĠzhiĠ":9815,"ĠyiĠminĠ":9816,"ĠyouĠleĠ":9817,"xiĠjinĠ":9818,"fuĠshuĠjiĠ":9819,"quĠfuĠzeĠguanĠxiaĠ":9820,"xueĠyuan":9821,"teĠdingĠdeĠ":9822,"lanĠkaĠ":9823,"ĠjiangĠshuĠ":9824,"yongĠyuĠzhiĠ":9825,"zaiĠĠĠ":9826,"huĠheĠ":9827,"lingĠxingĠ":9828,"lieĠjianĠ":9829,"38ĠnianĠ":9830,"ĠliĠjieĠ":9831,"wuĠranĠ":9832,"xinĠchengĠ":9833,"qianĠmingĠ":9834,"xiaĠtianĠ":9835,"jiuĠbaĠ":9836,"kongĠjun":9837,"ouĠmengĠ":9838,"ĠĠĠofĠĠĠtheĠĠĠ":9839,"siĠchuanĠshengĠ":9840,"zhuanĠyiĠdaoĠ":9841,"ĠcangĠ":9842,"chaĠheĠ":9843,"chanĠyuĠ":9844,"chenĠkeĠ":9845,"naĠgeĠ":9846,"ĠchuĠshengĠ":9847,"gengĠgaoĠ":9848,"wenĠhuaĠyiĠchanĠ":9849,"ĠheĠnanĠshengĠ":9850,"anĠhuiĠshengĠ":9851,"5ĠwanĠ":9852,"ĠÙ":9853,"Ġjun":9854,"xiaoĠjiĠ":9855,"moĠheĠ":9856,"zeĠerĠshengĠ":9857,"paiĠrenĠ":9858,"ĠzaiĠyingĠguoĠ":9859,"shangĠbanĠ":9860,"yingĠchaoĠ":9861,"danĠbaiĠzhiĠ":9862,"lingĠxiu":9863,"fanĠmang":9864,"ĠdeĠyiĠyiĠ":9865,"ĠzhuĠzhangĠ":9866,"meiĠyouĠrenĠheĠ":9867,"henĠshaoĠ":9868,"ĠguiĠzhouĠ":9869,"zuoĠpinĠzhongĠ":9870,"Ġbie":9871,"ĠSe":9872,"paiĠweiĠ":9873,"gouĠjianĠ":9874,"00ĠpingĠfangĠqianĠmiĠ":9875,"kuangĠwuĠ":9876,"2019ĠguanĠzhuangĠbingĠduĠ":9877,"67ĠnianĠ":9878,"ĠshiĠbiĠ":9879,"huaĠxianĠ":9880,"gaiĠbian":9881,"wangĠyeĠ":9882,"daiĠzhuĠ":9883,"zongĠeĠweiĠ":9884,"nvĠshenĠ":9885,"Ġbin":9886,"ĠĠĠgu":9887,"ĠĠĠhuangĠ":9888,"zhiĠĠĠ":9889,"miĠliĠ":9890,"23ĠnianĠ":9891,"ĠbuĠdanĠ":9892,"beiĠhaiĠdaoĠ":9893,"shanĠkouĠ":9894,"paiĠqiuĠ":9895,"ĠjuĠbanĠ":9896,"gongĠgongĠjiaoĠtongĠ":9897,"ĠfanĠerĠ":9898,"lianĠxuĠjuĠ":9899,"youĠĠĠ":9900,"biĠqiĠ":9901,"maĠjiĠ":9902,"ĠweiĠboĠ":9903,"ĠzhiĠzhanĠ":9904,"jingĠfeiĠ":9905,"zhanĠcheĠ":9906,"fenĠhuiĠ":9907,"xiaoĠdaoĠ":9908,"ĠkeĠdaĠ":9909,"daiĠshuĠ":9910,"ĠjieĠshiĠ":9911,"diĠshiĠsanĠ":9912,"ĠĠĠzhongĠhuaĠrenĠminĠgongĠheĠguoĠ":9913,"eĠluoĠsi":9914,"ĠLo":9915,"liĠjieĠ":9916,"chengĠli":9917,"qianĠjiĠ":9918,"xuanĠjiĠ":9919,"ĠliĠwuĠ":9920,"xiangĠyaoĠ":9921,"zhengĠfaĠ":9922,"danĠshengĠ":9923,"liangĠduĠ":9924,"huĠnanĠshengĠ":9925,"aoĠdi":9926,"zhuangĠyuanĠ":9927,"quĠyiĠhuiĠxuanĠjuĠ":9928,"ĠtunĠqiĠ":9929,"ĠĠĠzheĠgeĠ":9930,"dingĠheĠ":9931,"suĠerĠ":9932,"buĠnengĠ":9933,"zhenĠyingĠ":9934,"zhenĠjunĠ":9935,"bianĠxieĠ":9936,"Ġzi":9937,"ĠlieĠcheĠ":9938,"ĠĠĠ13":9939,"ĠĠĠsaiĠ":9940,"ĠĠĠguanĠyuĠ":9941,"biĠsiĠ":9942,"huiĠliĠshiĠ":9943,"xiaĠdaĠ":9944,"xieĠheĠ":9945,"mianĠzhiĠ":9946,"liuĠyueĠ":9947,"menĠzaiĠ":9948,"chiĠzhiĠ":9949,"tuoĠsiĠ":9950,"ĠzhongĠshuĠ":9951,"siĠmaĠ":9952,"xinĠzang":9953,"tiĠxianĠ":9954,"wangĠlaiĠ":9955,"liangĠzheĠ":9956,"suoĠzhangĠ":9957,"zuiĠjinĠdeĠ":9958,"ĠbaoĠluoĠ":9959,"ĠtongĠnianĠ12ĠyueĠ":9960,"Ġ18Ġ":9961,"ĠĠĠsuiĠran":9962,"yuanĠwaiĠlangĠ":9963,"Ġjing":9964,"ĠRa":9965,"youĠzhiĠwuĠ":9966,"gongĠzaiĠ":9967,"qingĠyuĠ":9968,"29Ġ":9969,"gongĠxueĠyuanĠ":9970,"sheĠqun":9971,"luoĠboĠ":9972,"dangĠdi":9973,"guangĠpuĠ":9974,"ĠgeĠlunĠ":9975,"ĠjieĠhunĠ":9976,"xunĠluoĠ":9977,"baoĠkuoĠyiĠxiaĠ":9978,"luoĠmaĠniĠyaĠ":9979,"B48":9980,"fangĠkong":9981,"fangĠsongĠ":9982,"caiĠhuiĠ":9983,"chiĠcunĠ":9984,"shuiĠshouĠ":9985,"ĠerĠrenĠ":9986,"tuiĠxiu":9987,"ĠjingĠchangĠ":9988,"ĠGĠ":9989,"ĠwuĠyueĠ":9990,"niĠxiĠ":9991,"dunĠheĠ":9992,"diaoĠxiangĠ":9993,"gnĠ":9994,"ĠyuĠ18":9995,"fuĠbuĠ":9996,"jingĠbaoĠ":9997,"ĠbeiĠbuĠ":9998,"ĠdiĠyuĠ":9999,"ĠĠĠMe":10000,"chuĠheĠ":10001,"fangĠyouĠ":10002,"1921ĠnianĠ":10003,"ĠshiĠyingĠ":10004,"guoĠjia":10005,"heĠbingĠ":10006,"ĠdaĠxiaoĠ":10007,"muĠbiaoĠshiĠ":10008,"teĠshuĠdeĠ":10009,"yunĠnanĠshengĠ":10010,"jueĠsaiĠzhongĠ":10011,"xunĠhaoĠ":10012,"ĠyuanĠbenĠ":10013,"piĠpanĠ":10014,"ĠzuiĠzhongĠyiĠ":10015,"ĠdangĠxuanĠ":10016,"ĠruiĠ":10017,"ĠĠĠyinĠyueĠ":10018,"nangĠ":10019,"ĠweiĠmingĠ":10020,"zhanĠfangĠ":10021,"ĠtaĠchengĠweiĠ":10022,"ĠdanĠbeiĠ":10023,"ĠshouĠxianĠ":10024,"ĠnianĠ4ĠyueĠ1ĠriĠ":10025,"ĠĠĠSch":10026,"ĠsanĠyueĠ":10027,"ĠyaĠliĠ":10028,"ĠxĠ":10029,"ĠzhuĠyouĠ":10030,"zhengĠshiĠdeĠ":10031,"guanĠyouĠ":10032,"liangĠdiĠ":10033,"banĠheĠ":10034,"shuiĠxianĠ":10035,"manĠdiĠguoĠ":10036,"ĠliĠzaiĠ":10037,"zhengĠguiĠ":10038,"junĠtuan":10039,"laiĠwangĠ":10040,"ĠgongĠsiĠdeĠ":10041,"ĠyeĠchengĠweiĠ":10042,"ĠshiĠweiĠzheĠ":10043,"zhuĠtiĠquĠ":10044,"meiĠzhongĠbuĠshiĠquĠ":10045,"5ĠshiĠ":10046,"cor":10047,"Ġqiong":10048,"Ġ1993":10049,"ĠSa":10050,"yangĠqiĠ":10051,"yangĠfuĠ":10052,"ĠdeĠqiĠ":10053,"ĠdeĠerĠ":10054,"chuanĠyuanĠ":10055,"lieĠdianĠ":10056,"ĠgaiĠcunĠ":10057,"ĠyouĠliĠ":10058,"ĠĠĠshiĠyiĠ":10059,"9ĠmiĠ":10060,"Ġá":10061,"ĠĠĠfor":10062,"ĠĠĠyingĠxiangĠ":10063,"69ĠnianĠ":10064,"ĠzaiĠqianĠ":10065,"ĠyueĠqiĠ":10066,"shenĠyangĠ":10067,"zhenĠxianĠ":10068,"xuanĠzhuanĠ":10069,"aoĠmen":10070,"ĠCSTĠ":10071,"Ġ6ĠdiaoĠkuaiĠyiĠxiaoĠshiĠ":10072,"ĠjiĠbeiĠmeiĠzhongĠbuĠshiĠquĠ":10073,"ĠCDTĠ":10074,"ĠĠĠ2005ĠnianĠ":10075,"guĠheĠ":10076,"bingĠheĠ":10077,"laiĠyiĠ":10078,"dangĠrenĠ":10079,"zhenĠsiĠ":10080,"nongĠliĠ":10081,"fouĠjueĠ":10082,"45Ġ":10083,"jianĠjinĠ":10084,"wenĠquanĠ":10085,"bingĠyuanĠ":10086,"gaiĠzao":10087,"zuĠqiu":10088,"jiuĠjingĠ":10089,"paiĠsheĠdeĠ":10090,"ĠzheĠchangĠ":10091,"ĠbanĠbenĠ":10092,"Ġsheng":10093,"Ġ1991":10094,"pingĠjiĠ":10095,"zhaoĠheĠ":10096,"maiĠjiaĠ":10097,"sangĠshengĠ":10098,"ĠyiĠluĠ":10099,"ĠnianĠshiĠjieĠbeiĠ":10100,"chuĠbanĠdeĠ":10101,"shouĠchangĠ":10102,"zhanĠting":10103,"yeĠxianĠ":10104,"ĠkeĠjianĠ":10105,"zhuanĠyuanĠ":10106,"Ġ17Ġ":10107,"ĠHRĠĠĠ":10108,"ĠĠĠbenĠshuĠ":10109,"ĠjiĠtuanĠjunĠ":10110,"ĠdeĠweiĠzhiĠ":10111,"ĠzeĠshiĠ":10112,"liuĠzhiĠ":10113,"tuĠyuĠ":10114,"ĠzaiĠxiangĠ":10115,"ĠbuĠmanĠ":10116,"jinĠtianĠ":10117,"jiaoĠxingĠ":10118,"huoĠjiangĠ":10119,"muĠfuĠ":10120,"luoĠbaiĠ":10121,"ĠdeĠyiĠmingĠ":10122,"tuoĠmaĠsiĠ":10123,"ĠerĠyuĠ":10124,"reĠmenĠ":10125,"nuoĠmanĠdiĠ":10126,"fenĠbieĠshiĠ":10127,"aoĠlinĠpiĠkeĠyunĠdongĠ":10128,"lieĠcheĠdeĠ":10129,"aoĠsiĠkaĠ":10130,"hongĠzhaĠjiĠ":10131,"yanĠhaiĠshengĠfenĠ":10132,"banĠjiangĠdianĠliĠ":10133,"pri":10134,"Ġ1983ĠnianĠ":10135,"ĠĠĠ14":10136,"huĠliĠ":10137,"kanĠjianĠ":10138,"kenĠtaĠjiĠ":10139,"34ĠnianĠ":10140,"heĠyueĠ":10141,"wuĠgongĠ":10142,"chuĠsiĠ":10143,"chuĠjuĠ":10144,"ĠdaĠpoĠ":10145,"ĠjinĠciĠyuĠ":10146,"tingĠcheĠchangĠ":10147,"tieĠluĠdeĠ":10148,"ĠNĠ":10149,"5ĠhaoĠ":10150,"8ĠshiĠ":10151,"ĠgeĠrenĠ":10152,"endĠ":10153,"neiĠzhiĠ":10154,"mengĠxiangĠ":10155,"gengĠmingĠ":10156,"paoĠdeĠ":10157,"shuaiĠxianĠ":10158,"zhenĠxiangĠ":10159,"waiĠshuĠruĠ":10160,"zhuanĠshuĠ":10161,"ĠhuoĠdeĠyiĠmeiĠ":10162,"jieĠquanĠguoĠzhengĠxieĠweiĠyuanĠ":10163,"tri":10164,"ĠĠĠgaiĠdiĠ":10165,"buĠzhiĠdaoĠ":10166,"cheĠweiĠ":10167,"jiangĠhuĠ":10168,"lanĠzhouĠ":10169,"kongĠlongĠ":10170,"ĠzaiĠjiĠ":10171,"lianĠsaiĠguanĠjunĠ":10172,"ĠmaĠkeĠ":10173,"Ġ14Ġ":10174,"ĠcheĠxiaoĠ":10175,"ĠTo":10176,"ĠNa":10177,"ĠxinĠdeĠ":10178,"uni":10179,"bingĠqiĠ":10180,"huoĠjiĠ":10181,"wanĠyuĠ":10182,"maĠdiĠ":10183,"xiĠanĠ":10184,"daoĠdiĠ":10185,"luĠsaĠ":10186,"wenĠbenĠ":10187,"fenĠfenĠ":10188,"laiĠyuanĠyuĠ":10189,"liuĠchengĠ":10190,"ĠbaoĠchiĠ":10191,"keĠyiĠzhiĠ":10192,"ĠshengĠyaĠ":10193,"yuĠshiĠjieĠ":10194,"ĠĠĠ12ĠyueĠ":10195,"erĠliĠ":10196,"qingĠzhiĠ":10197,"pingĠxiĠ":10198,"zhuiĠjiĠ":10199,"kunĠmingĠ":10200,"ziĠnvĠ":10201,"fenĠzuĠ":10202,"ĠfuĠbuĠ":10203,"jiuĠlong":10204,"cheĠchuĠ":10205,"zengĠsheĠ":10206,"hunĠluanĠ":10207,"aĠerĠbaĠ":10208,"Ġliao":10209,"ĠzuĠchengĠ":10210,"ĠĠĠaĠĠĠ":10211,"zhouĠxiĠ":10212,"liuĠjiĠ":10213,"leiĠerĠ":10214,"27ĠnianĠ":10215,"faĠyanĠ":10216,"daiĠmuĠ":10217,"zuiĠduo":10218,"shuiĠjingĠ":10219,"liĠyaĠ":10220,"liĠnuoĠyiĠ":10221,"woĠlunĠ":10222,"2ĠshiĠ":10223,"zaiĠshiĠjieĠ":10224,"meiĠjiĠ":10225,"zhouĠdaĠxueĠ":10226,"wanĠzaiĠ":10227,"woĠsiĠ":10228,"46ĠnianĠ":10229,"erĠsiĠ":10230,"ĠyueĠguoĠ":10231,"dongĠtaiĠ":10232,"zongĠgongĠ":10233,"kouĠhaoĠ":10234,"aĠboĠ":10235,"ĠciĠkeĠ":10236,"ĠdaĠweiĠ":10237,"Ġ13Ġ":10238,"ĠAr":10239,"ĠĠĠVi":10240,"yinĠyiĠ":10241,"dianĠliĠjiĠ":10242,"laĠshiĠ":10243,"touĠshiĠ":10244,"xingĠxiĠ":10245,"jiaĠgouĠ":10246,"beiĠjieĠ":10247,"jingĠxiangĠ":10248,"eĠwaiĠ":10249,"Ġchai":10250,"ĠĠĠDe":10251,"diu":10252,"quĠweiĠyuĠ":10253,"yingĠzaiĠ":10254,"duoĠjiaĠ":10255,"liuĠjiaĠ":10256,"rongĠweiĠ":10257,"ĠshiĠfou":10258,"ĠrenĠtongĠ":10259,"keĠlaiĠ":10260,"yeĠmeiĠyouĠ":10261,"quĠdeĠfuĠzeĠguanĠxiaĠ":10262,"Ġ20ĠshiĠjiĠ":10263,"aiĠsiĠ":10264,"ĠĠĠshaĠ":10265,"quanĠyuĠ":10266,"lunĠyuĠ":10267,"douĠyiĠ":10268,"32ĠnianĠ":10269,"ĠweiĠfanĠ":10270,"ĠyouĠzhengĠ":10271,"ĠqiĠbuĠ":10272,"huiĠdaoĠzhiĠ":10273,"shuĠjiaĠ":10274,"shuĠxieĠ":10275,"ĠdaĠniĠ":10276,"xinĠbeiĠshiĠ":10277,"zuĠgouĠ":10278,"bianĠquĠ":10279,"maĠdingĠ":10280,"baĠbaĠ":10281,"ĠgaiĠjianĠ":10282,"seĠqingĠ":10283,"ĠqingĠhuaĠ":10284,"lvĠkeĠtieĠdaoĠ":10285,"cuan":10286,"ĠBa":10287,"ĠĠĠlingĠyiĠ":10288,"ĠĠĠteĠzhengĠ":10289,"jiaoĠzhongĠ":10290,"quanĠheĠ":10291,"chuanĠjiaĠ":10292,"pianĠyuĠ":10293,"poĠdeĠ":10294,"48ĠnianĠ":10295,"61ĠnianĠ":10296,"ĠshiĠyongĠdeĠ":10297,"taiĠyuanĠ":10298,"danĠmai":10299,"ĠgaiĠzhuangĠ":10300,"1ĠwanĠ":10301,"qiangĠlieĠdeĠ":10302,"ĠdongĠfangĠ":10303,"ĠyingĠcunĠ":10304,"taĠmenĠzaiĠ":10305,"ĠwuĠkeĠlan":10306,"anĠyuĠ":10307,"ĠĠĠyinĠweiĠ":10308,"haiĠweiĠ":10309,"xuĠyuĠ":10310,"1905ĠnianĠ":10311,"ĠbuĠlunĠ":10312,"mingĠeĠ":10313,"gaiĠliangĠ":10314,"qiuĠduiĠdeĠ":10315,"ĠwuĠziĠ":10316,"ĠtaĠerĠ":10317,"ĠfaĠyuanĠ":10318,"henĠkuai":10319,"keĠnengĠdeĠ":10320,"ZĠ":10321,"ĠlianĠheĠguoĠ":10322,"zhiĠshiĠyongĠ":10323,"huoĠqiĠtaĠ":10324,"muĠweiĠ":10325,"paiĠxiĠ":10326,"qinĠdeĠ":10327,"guoĠwuĠ":10328,"ĠzaiĠfaĠguoĠ":10329,"gongĠxiangĠ":10330,"ĠqiĠzhuĠ":10331,"jinĠdaiĠ":10332,"shangĠsuoĠ":10333,"ĠgongĠzhuĠ":10334,"zhuanĠhuiĠ":10335,"ĠmingĠchengĠ":10336,"peiĠjueĠ":10337,"ĠerĠyueĠ":10338,"gongĠheĠguoĠdeĠ":10339,"ĠIĠ":10340,"xiaoĠzhongĠ":10341,"dianĠzhiĠ":10342,"dingĠyouĠ":10343,"31ĠnianĠ":10344,"39ĠnianĠ":10345,"erĠyanĠ":10346,"ĠqiĠtaĠdeĠ":10347,"hunĠningĠtuĠ":10348,"ĠjuanĠ":10349,"Ġ1986ĠnianĠ":10350,"boĠxiĠ":10351,"suoĠjiĠ":10352,"tuĠxiĠ":10353,"ceĠweiĠ":10354,"36ĠnianĠ":10355,"diĠdiĠ":10356,"gongĠye":10357,"jieĠdianĠ":10358,"zhengĠsiĠ":10359,"jiaoĠshaoĠ":10360,"jiangĠzuoĠ":10361,"ĠkeĠlinĠ":10362,"lianĠboĠ":10363,"zhouĠmoĠ":10364,"ĠfouĠzeĠ":10365,"Ġwai":10366,"Ġteng":10367,"ĠhuaiĠ":10368,"ĠĠĠPa":10369,"lingĠyouĠ":10370,"daoĠqiĠ":10371,"zuiĠhouĠdeĠ":10372,"kaiĠyeĠ":10373,"baĠgongĠ":10374,"xingĠzhengĠquĠyuĠ":10375,"Ġh":10376,"ĠĠĠ2023ĠnianĠ":10377,"kouĠyuĠ":10378,"xiuĠxiĠ":10379,"kunĠchongĠ":10380,"ĠbuĠxingĠ":10381,"keĠhuĠ":10382,"shouĠjieĠ":10383,"mingĠshengĠ":10384,"ĠdaĠdianĠ":10385,"xinĠxinĠ":10386,"qianĠshuiĠ":10387,"bingĠtuanĠ":10388,"maĠchangĠ":10389,"ĠxiangĠduiĠ":10390,"huanĠqiuĠ":10391,"enĠlaiĠ":10392,"fuĠjianĠshengĠ":10393,"Ġ1950ĠnianĠ":10394,"ĠqiĠxiĠzaiĠdiĠ":10395,"van":10396,"Äģ":10397,"haĠfuĠ":10398,"ĠliĠxingĠ":10399,"ĠyouĠbaoĠ":10400,"gongĠdangĠ":10401,"xiangĠmuĠdeĠ":10402,"beiĠceĠ":10403,"leĠziĠjiĠdeĠ":10404,"nanĠzhuĠjueĠ":10405,"guĠchengĠ":10406,"suĠzhouĠ":10407,"ĠshiĠyiĠyueĠ":10408,"moĠtuoĠ":10409,"ĠdeĠshiĠyanĠ":10410,"ĠjieĠzhuĠ":10411,"ĠnanĠxingĠ":10412,"ĠjiĠqiĠrenĠ":10413,"ĠĠĠweiĠyuĠ":10414,"dongĠnanĠyaĠ":10415,"tianĠwenĠxueĠjiaĠ":10416,"ĠxinĠjiaĠpoĠ":10417,"yuanĠrenĠminĠbiĠ":10418,"zuoĠweiĠyuĠ":10419,"45ĠnianĠ":10420,"ĠyiĠkaiĠshiĠ":10421,"zhongĠyaoĠdeĠ":10422,"wuĠdingĠ":10423,"ĠxiĠlieĠdeĠ":10424,"ĠdanĠbaiĠ":10425,"puĠsheĠ":10426,"liĠchangĠ":10427,"ĠmeiĠtiĠ":10428,"ĠĠĠxuĠ":10429,"huiĠqiĠ":10430,"haiĠheĠ":10431,"lunĠheĠ":10432,"ĠshiĠchuĠ":10433,"ĠzaiĠxiangĠgangĠ":10434,"wuĠjianĠ":10435,"chengĠnuoĠ":10436,"zhanĠkai":10437,"yinĠmouĠ":10438,"xinĠyongĠ":10439,"banĠyan":10440,"ĠgongĠchanĠ":10441,"xunĠwenĠ":10442,"2ĠwanĠ":10443,"canĠzhengĠ":10444,"luoĠdiĠyaĠ":10445,"zhongĠguoĠrenĠminĠjieĠfangĠjunĠ":10446,"ĠSAOĠĠĠ":10447,"4ĠĠĠ":10448,"ĠzengĠjiaĠ":10449,"ĠniĠkeĠ":10450,"xiĠrenĠ":10451,"huaĠyouĠ":10452,"lingĠzhiĠ":10453,"saiĠheĠ":10454,"gangĠshiĠ":10455,"manĠyuĠ":10456,"ĠbuĠxiĠ":10457,"beiĠgaoĠ":10458,"ziĠfuĠ":10459,"changĠguiĠ":10460,"chuanĠtong":10461,"ĠdanĠmeiĠyouĠ":10462,"ouĠmeng":10463,"Ġ1920ĠnianĠ":10464,"zhenĠxingĠ":10465,"liuĠrenĠ":10466,"buĠshaoĠ":10467,"beiĠfuĠ":10468,"ĠqiĠdiĠ":10469,"ĠdiĠtie":10470,"dianĠxingĠ":10471,"benĠjieĠ":10472,"zongĠmianĠjiĠ":10473,"huanĠguanĠ":10474,"ĠGa":10475,"ĠBe":10476,"ĠruiĠdianĠ":10477,"sheĠweiĠ":10478,"suanĠyanĠ":10479,"kuanĠdeĠ":10480,"yuanĠdiĠ":10481,"ĠbuĠshouĠ":10482,"juĠzhenĠ":10483,"dongĠhaiĠ":10484,"yingĠbiĠ":10485,"yinĠxingĠ":10486,"guiĠgeĠ":10487,"ĠbingĠzhiĠ":10488,"ĠxiaĠwuĠ":10489,"ĠbenĠjieĠ":10490,"ĠhongĠzha":10491,"ĠBi":10492,"guĠyuĠ":10493,"zhouĠzhongĠ":10494,"banĠyouĠ":10495,"26ĠnianĠ":10496,"ĠyiĠdaoĠ":10497,"ĠliĠxiangĠ":10498,"ziĠmeiĠ":10499,"gaiĠshuĠ":10500,"boĠgenĠdiĠ":10501,"dengĠdaiĠ":10502,"puĠlaĠ":10503,"ĠdeĠshiĠqiĠ":10504,"ceĠhuaĠ":10505,"ĠzaiĠweiĠ":10506,"AG":10507,"IG":10508,"Ġ1995":10509,"Ġ1987ĠnianĠ":10510,"Ġ1945ĠnianĠ":10511,"ĠĠĠyingĠguoĠ":10512,"luĠqiĠ":10513,"bingĠrenĠ":10514,"lanĠdaĠ":10515,"crosoft":10516,"ĠshiĠyingĠguoĠ":10517,"ciĠxingĠ":10518,"yingĠjieĠ":10519,"xiaĠxunĠ":10520,"moĠteĠerĠ":10521,"shuiĠku":10522,"tanĠpan":10523,"ĠwuĠshiĠ":10524,"ĠhaiĠshiĠ":10525,"Ġ1978ĠnianĠ":10526,"fangĠzhongĠ":10527,"tuĠheĠ":10528,"queĠliĠ":10529,"jianĠleĠ":10530,"ĠguoĠdaoĠ":10531,"wuĠchuĠ":10532,"yangĠzhouĠ":10533,"moĠteĠ":10534,"ĠyiĠjiĠyuĠ":10535,"ĠdeĠjiĠzaiĠ":10536,"changĠweiĠhuiĠ":10537,"Ġ1985":10538,"ĠrenĠzhiĠ":10539,"boĠfuĠ":10540,"lvĠdiĠ":10541,"guangĠfuĠ":10542,"rouĠshiĠxingĠ":10543,"ĠdeĠdeĠ":10544,"ĠyiĠnanĠ":10545,"ĠbuĠshuĠ":10546,"jieĠfuĠ":10547,"jieĠmeiĠ":10548,"faĠshengĠyuĠ":10549,"shangĠxiaoĠ":10550,"dongĠluĠ":10551,"jingĠnei":10552,"caiĠdingĠ":10553,"linĠnaĠ":10554,"eĠtuĠ":10555,"ĠshiĠjiĠzhiĠ":10556,"ĠdeĠguoĠchengĠzhongĠ":10557,"faĠlanĠxiĠdaĠquĠ":10558,"rai":10559,"Ġti":10560,"Ġ1989":10561,"ĠkuangĠ":10562,"ĠjunĠzaiĠ":10563,"ĠĠĠta":10564,"nvĠshiĠ":10565,"Facebook":10566,"weiĠyuanĠhuiĠ":10567,"ĠzhiĠheĠ":10568,"qiĠxiangĠ":10569,"taĠbeiĠ":10570,"ĠsiĠtanĠ":10571,"zhangĠwoĠ":10572,"gaoĠcengĠ":10573,"cheĠshouĠ":10574,"shaoĠliangĠ":10575,"gongĠzuoĠzheĠ":10576,"nongĠcunĠ":10577,"ĠweiĠfuĠshuĠjiĠ":10578,"hangĠkongĠmuĠjianĠ":10579,"shengĠhuoĠzaiĠ":10580,"Ġzui":10581,"ĠTe":10582,"Ġ1958ĠnianĠ":10583,"yuanĠyiĠyuanĠ":10584,"jingĠrenĠ":10585,"bingĠjiĠ":10586,"sheĠheĠ":10587,"zuĠliĠ":10588,"lingĠjiĠ":10589,"lieĠdiĠ":10590,"qiaoĠchuĠ":10591,"43ĠnianĠ":10592,"gongĠsiĠyuĠ":10593,"xiaĠxiaĠyiĠxiaĠdiĠquĠ":10594,"bianĠruĠ":10595,"ĠjinĠriĠ":10596,"ĠnianĠ10ĠyueĠ1ĠriĠ":10597,"ĠduoĠmingĠ":10598,"biaoĠzhunĠdeĠ":10599,"aĠbuĠ":10600,"Ġ1982ĠnianĠ":10601,"xianĠshiĠdeĠ":10602,"baĠbuĠ":10603,"âĢĭ":10604,"33ĠnianĠ":10605,"ĠliĠchangĠ":10606,"wuĠsuoĠ":10607,"chengĠqiĠ":10608,"ĠqiĠzhongĠdeĠ":10609,"jiangĠhuaĠ":10610,"ĠziĠdongĠ":10611,"anĠxiĠ":10612,"sheĠxingĠ":10613,"taiĠdiĠ":10614,"muĠqiĠ":10615,"ree":10616,"paoĠbingĠ":10617,"xingĠchengĠdeĠ":10618,"junĠfangĠ":10619,"biĠhuaĠ":10620,"puĠleiĠ":10621,"chanĠliangĠ":10622,"ĠzhanĠdou":10623,"ĠĠĠ2004":10624,"ĠĠĠ2004ĠnianĠ":10625,"luĠyouĠ":10626,"bingĠzhiĠ":10627,"suoĠfuĠ":10628,"qiuĠyuĠ":10629,"nvĠgeĠshouĠ":10630,"log":10631,"ĠshiĠyinĠduĠ":10632,"diĠbaĠ":10633,"wanĠyanĠ":10634,"sanĠxiangĠ":10635,"guangĠzhouĠshiĠ":10636,"zhuanĠboĠ":10637,"yiĠdeĠdaoĠ":10638,"ĠbeiĠqiĠshunĠshiĠzhenĠyuĠ":10639,"Ġjuan":10640,"ĠĠĠshuiĠ":10641,"dianĠweiĠyuĠ":10642,"quanĠshiĠjieĠ":10643,"duoĠyiĠ":10644,"dingĠbuĠ":10645,"tuĠweiĠ":10646,"zhuangĠyouĠ":10647,"guanĠyinĠ":10648,"gengĠhuanĠ":10649,"ĠruĠjinĠ":10650,"Ġcen":10651,"ĠhunĠ":10652,"ĠXĠ":10653,"ĠĠĠ2003":10654,"jiuĠjiĠ":10655,"niĠdaĠquĠ":10656,"boĠyuĠ":10657,"gouĠwuĠ":10658,"ĠguoĠmin":10659,"ĠguoĠfangĠbuĠ":10660,"xiangĠqianĠ":10661,"tongĠhuaĠ":10662,"xiaĠweiĠyiĠ":10663,"lunĠshuĠ":10664,"pinĠfanĠ":10665,"piĠping":10666,"ĠtianĠwenĠ":10667,"xiĠbanĠya":10668,"ĠniuĠyueĠshiĠ":10669,"5ĠmingĠ":10670,"ĠyongĠyiĠ":10671,"ĠĠĠtong":10672,"muĠyiĠ":10673,"paiĠjiĠ":10674,"douĠzhiĠ":10675,"canĠjiĠrenĠ":10676,"zhaoĠdeĠ":10677,"44ĠnianĠ":10678,"42Ġ":10679,"1917ĠnianĠ":10680,"gongĠqingĠ":10681,"keĠhuanĠ":10682,"jiangĠxianĠ":10683,"duĠchaĠ":10684,"haiĠguanĠ":10685,"meiĠshuĠguanĠ":10686,"tianĠjinĠshiĠ":10687,"xuanĠpiaoĠ":10688,"chaoĠjiĠlianĠsaiĠ":10689,"ĠRi":10690,"ĠdongĠxiĠ":10691,"nuoĠbeiĠerĠ":10692,"naiĠerĠ":10693,"Musi":10694,"youĠtaiĠrenĠ":10695,"wuĠfuĠ":10696,"jiangĠzhangĠ":10697,"yaĠdianĠ":10698,"fanĠdui":10699,"ĠtaĠzhiĠ":10700,"renĠweiĠyuanĠ":10701,"ĠduoĠgeĠ":10702,"ĠzuiĠzhongĠzaiĠ":10703,"mingĠniĠsuĠdaĠ":10704,"Ġn":10705,"liĠyouĠ":10706,"qingĠweiĠ":10707,"yuanĠshouĠ":10708,"jianĠxiaoĠ":10709,"zhanĠfuĠ":10710,"yingĠshuĠ":10711,"luoĠmenĠ":10712,"chuanĠxianĠ":10713,"ĠgongĠchangĠ":10714,"guangĠxuĠ":10715,"ĠzhuĠsaiĠ":10716,"ĠgaoĠsuĠ":10717,"ĠtaĠcengĠdaiĠbiao":10718,"Ġjian":10719,"Ġkui":10720,"wuĠzhongĠxinĠ":10721,"jiangĠweiĠwuĠerĠ":10722,"1500":10723,"1910ĠnianĠ":10724,"zhengĠlunĠ":10725,"shangĠfaĠlanĠxiĠdaĠquĠ":10726,"baoĠluĠ":10727,"fenĠkaiĠ":10728,"zuiĠchuĠdeĠ":10729,"ĠbingĠhuoĠdeĠ":10730,"Ġshuo":10731,"ĠjunĠweiĠ":10732,"xuĠjiaĠ":10733,"ĠyiĠshangĠdeĠ":10734,"ĠliĠjiaĠ":10735,"qiĠyongĠ":10736,"ĠguoĠanĠ":10737,"guanĠjieĠ":10738,"ĠdaĠgongĠ":10739,"jiaoĠduoĠ":10740,"biĠciĠ":10741,"tianĠranĠ":10742,"chongĠfenĠ":10743,"chuangĠzuo":10744,"3ĠgongĠliĠ":10745,"ĠchaoĠjiĠ":10746,"renĠshiĠdeĠ":10747,"quĠdeĠyiĠ":10748,"tongĠrenĠ":10749,"meiĠrenĠ":10750,"shuiĠxiĠ":10751,"10ĠgeĠ":10752,"hongĠshiĠziĠ":10753,"chunĠjiĠ":10754,"zhongĠdaĠ":10755,"shangĠchuanĠ":10756,"yingĠsheĠ":10757,"xinĠxianĠ":10758,"xinĠhuaĠ":10759,"jiaoĠtong":10760,"junĠzhangĠ":10761,"yaĠchiĠ":10762,"tuĠluĠ":10763,"zhunĠqueĠ":10764,"ĠmaĠerĠ":10765,"faĠbiaoĠleĠ":10766,"pre":10767,"Ġ1980":10768,"Ġ22Ġ":10769,"huĠrenĠ":10770,"yanĠweiĠ":10771,"baoĠzhongĠ":10772,"duĠyouĠ":10773,"laiĠjiĠ":10774,"gaoĠweiĠ":10775,"sunĠhaiĠ":10776,"chouĠkeĠ":10777,"ĠzhiĠhouĠdeĠ":10778,"beiĠsongĠ":10779,"ĠxiĠlanĠ":10780,"taiĠnanĠshiĠ":10781,"xiaĠbanĠ":10782,"nanĠceĠ":10783,"canĠyanĠ":10784,"ĠzhiĠchiĠzheĠ":10785,"ĠĠĠha":10786,"meiĠyuĠ":10787,"xiaĠheĠ":10788,"caiĠfuĠ":10789,"wangĠfanĠ":10790,"1ĠmianĠ":10791,"ĠaiĠdeĠ":10792,"guiĠdaoĠjiaoĠtongĠ":10793,"xianĠdaiĠhuaĠ":10794,"dianĠqiĠhuaĠ":10795,"5ĠĠĠ":10796,"ĠchuanĠtongĠ":10797,"ĠĠĠY":10798,"ĠĠĠsuĠ":10799,"muĠyouĠ":10800,"qiuĠxingĠ":10801,"lanĠqiĠ":10802,"47ĠnianĠ":10803,"fuĠmianĠ":10804,"taiĠzhongĠshiĠ":10805,"wangĠchaoĠdeĠ":10806,"muĠhanĠmoĠdeĠ":10807,"luoĠhouĠ":10808,"neiĠzhengĠbuĠ":10809,"tuiĠchu":10810,"ĠĠĠ188":10811,"daoĠyiĠgeĠ":10812,"huaĠbuĠ":10813,"dianĠzaiĠ":10814,"xuĠzhiĠ":10815,"29ĠnianĠ":10816,"ĠshiĠmiĠ":10817,"ĠshiĠmiĠsiĠ":10818,"ĠyiĠziĠ":10819,"ĠweiĠguoĠ":10820,"gongĠshuĠ":10821,"ĠguoĠjiaĠjiĠ":10822,"fenĠbianĠ":10823,"liangĠhaoĠdeĠ":10824,"ĠfuĠmuĠ":10825,"bianĠgengĠ":10826,"ĠgaiĠwuĠzhongĠdeĠ":10827,"peiĠxun":10828,"zhengĠfuĠheĠ":10829,"shengĠwuĠxueĠ":10830,"sanĠjiaoĠxingĠ":10831,"9ĠgeĠ":10832,"ĠfuĠzhiĠ":10833,"ueĠ":10834,"leĠliĠ":10835,"gaiĠdeĠ":10836,"jiuĠbuĠ":10837,"gaoĠliĠ":10838,"66ĠnianĠ":10839,"yste":10840,"zhiĠzuoĠ":10841,"pingĠxianĠ":10842,"danĠmaiĠ":10843,"wanĠshanĠ":10844,"ĠzheĠxiangĠ":10845,"hongĠshuiĠ":10846,"wuĠliĠxueĠjiaĠ":10847,"dongĠbuĠdaĠquĠ":10848,"aĠjiĠtan":10849,"4000":10850,"ĠleiĠsiĠ":10851,"huiĠshiĠyongĠ":10852,"jiangĠdaĠ":10853,"duĠzhongĠ":10854,"lieĠtaĠ":10855,"huanĠyouĠ":10856,"ruiĠkeĠ":10857,"53ĠnianĠ":10858,"buĠluĠ":10859,"jianĠjiaoĠ":10860,"wuĠyeĠ":10861,"shouĠyingĠ":10862,"yanĠhuĠ":10863,"ĠdaĠzhengĠ":10864,"gaoĠxiongĠ":10865,"lingĠshouĠ":10866,"guĠgeĠ":10867,"ĠzhuĠyanĠ":10868,"ĠtongĠnianĠ10ĠyueĠ":10869,"ĠmaĠdingĠ":10870,"xiaoĠshiĠhouĠ":10871,"ĠzhenĠduiĠ":10872,"niuĠyueĠzhouĠ":10873,"Ġtie":10874,"ĠAn":10875,"ĠlouĠ":10876,"qiĠyiĠzhiĠ":10877,"liangĠzaiĠ":10878,"chenĠshiĠ":10879,"bangĠdanĠ":10880,"xingĠshengĠ":10881,"gongĠbuĠdeĠ":10882,"huiĠshouĠ":10883,"ĠdiĠchuĠ":10884,"zhanĠqianĠ":10885,"tongĠchengĠ":10886,"zheĠchangĠ":10887,"taiĠyinĠ":10888,"dianĠluĠ":10889,"banĠdianĠ":10890,"zongĠtiĠ":10891,"chuanĠjiaoĠshiĠ":10892,"qinĠfanĠ":10893,"miaoĠxieĠ":10894,"ĠchaoĠtingĠ":10895,"Ġzun":10896,"ĠĠĠjiaoĠ":10897,"huĠjiĠ":10898,"daoĠzhongĠguoĠ":10899,"dianĠzhongĠ":10900,"kaiĠxingĠ":10901,"daĠxiĠ":10902,"jieĠmianĠ":10903,"houĠzheĠ":10904,"zhanĠduiĠ":10905,"guanĠkan":10906,"saiĠtingĠ":10907,"ĠxiangĠbiĠ":10908,"lieĠru":10909,"ĠriĠheĠ":10910,"tuoĠleiĠ":10911,"ĠguangĠzhouĠ":10912,"GB":10913,"ĠfaĠbuĠ":10914,"ĠxiangĠshiĠ":10915,"ĠĠĠdeĠĠĠ":10916,"shuĠdeĠyiĠzhongĠ":10917,"xinĠnianĠ":10918,"zhenĠzhongĠ":10919,"linĠheĠ":10920,"lunĠzhongĠ":10921,"ĠshiĠyinĠweiĠ":10922,"ĠyiĠshouĠ":10923,"daĠbaiĠ":10924,"xingĠmingĠ":10925,"wuĠjiaĠ":10926,"xiangĠcunĠ":10927,"dongĠwuĠdeĠ":10928,"qianĠfengĠ":10929,"zuĠgouĠdeĠ":10930,"gaoĠfengĠ":10931,"luoĠniĠ":10932,"biaoĠtiĠ":10933,"zhuanĠmen":10934,"ĠzhanĠzhengĠ":10935,"ĠbuĠguoĠzaiĠ":10936,"faĠxianĠleĠciĠtianĠtiĠ":10937,"ĠaĠerĠbeiĠsiĠ":10938,"4ĠhaoĠ":10939,"BBC":10940,"Ġin":10941,"ĠhouĠzaiĠ":10942,"ĠĠĠpingĠ":10943,"duiĠrenĠ":10944,"huoĠzhiĠ":10945,"gaiĠjiĠ":10946,"liangĠkeĠ":10947,"tingĠzaiĠ":10948,"niuĠjinĠ":10949,"ghtĠ":10950,"ĠzaiĠgeĠ":10951,"yeĠtiĠ":10952,"wenĠdaiĠ":10953,"taiĠyang":10954,"qingĠhaiĠ":10955,"sheĠzhiĠdeĠ":10956,"zhenĠchaĠ":10957,"lingĠduiĠ":10958,"kaiĠboĠ":10959,"paiĠming":10960,"shaoĠhuiĠ":10961,"ĠgongĠyuanĠqianĠ":10962,"ĠzouĠ":10963,"xingĠdeĠshiĠ":10964,"taiĠzhiĠ":10965,"saiĠyuĠ":10966,"guangĠdaĠ":10967,"42ĠnianĠ":10968,"jianĠjianĠ":10969,"chuĠruĠ":10970,"zhengĠjianĠ":10971,"shouĠqiangĠ":10972,"yingĠjiuĠ":10973,"liangĠtiaoĠ":10974,"shenĠyuanĠ":10975,"zuĠzhangĠ":10976,"xuĠniĠ":10977,"caiĠneng":10978,"zhaoĠmuĠ":10979,"ĠqiĠzhongĠbaoĠkuo":10980,"ĠgaiĠjiĠ":10981,"pingĠlunĠjiaĠ":10982,"ĠĠĠLe":10983,"ĠĠĠGa":10984,"nianĠjianĠ":10985,"geĠyue":10986,"gaiĠyiĠ":10987,"boĠliĠyaĠ":10988,"yaoĠzhiĠ":10989,"pianĠshiĠ":10990,"ningĠxianĠ":10991,"codiceĠ":10992,"diĠzhenĠ":10993,"ĠrenĠmingĠweiĠ":10994,"shuĠniuĠ":10995,"zhanĠsiĠ":10996,"yangĠguangĠ":10997,"fanĠdianĠ":10998,"niĠguĠlaĠ":10999,"linĠjinĠdeĠ":11000,"ĠgeĠsiĠ":11001,"jieĠshouĠleĠ":11002,"Ġ000ĠmingĠ":11003,"zhuĠshiĠhuiĠsheĠ":11004,"tra":11005,"ĠruiĠshiĠ":11006,"ĠĠĠduoĠ":11007,"changĠzhongĠ":11008,"gaiĠdiĠquĠ":11009,"fengĠxingĠ":11010,"12ĠgeĠ":11011,"hengĠdeĠ":11012,"ATP":11013,"huiĠquĠ":11014,"yaĠsuoĠ":11015,"bianĠjiangĠ":11016,"fanĠkangĠ":11017,"ĠyuanĠyinĠ":11018,"ĠyouĠweiĠ":11019,"xianĠdeĠchengĠshiĠ":11020,"caoĠanĠ":11021,"ĠyouĠxianĠgongĠsi":11022,"ĠjinĠxingĠleĠ":11023,"aiĠerĠlan":11024,"Ġchou":11025,"Ġ1946":11026,"ĠSu":11027,"ĠĠĠbiĠsaiĠ":11028,"zhengĠzhongĠ":11029,"miĠrenĠ":11030,"saiĠshiĠzhongĠ":11031,"bangĠjiaĠ":11032,"mouĠgeĠ":11033,"ĠyiĠfangĠ":11034,"siĠzhangĠ":11035,"wuĠjuĠ":11036,"wuĠmingĠ":11037,"beiĠshaĠ":11038,"ĠqiĠyuanĠ":11039,"shuĠbaiĠ":11040,"shouĠpiao":11041,"duĠteĠ":11042,"ĠkeĠyiĠshiĠ":11043,"fanĠzui":11044,"baĠmianĠ":11045,"chuanĠshangĠ":11046,"ĠbeiĠweiĠ":11047,"jieĠyiĠchanĠ":11048,"Ġ1988":11049,"ĠzhiĠdeĠ":11050,"Ġ1980ĠnianĠ":11051,"ĠĠĠNe":11052,"ĠĠĠminĠguoĠ":11053,"shanĠzhiĠ":11054,"beginĠ":11055,"AKB48":11056,"1915ĠnianĠ":11057,"guoĠjiaĠdeĠ":11058,"fuĠhuoĠ":11059,"chuĠkou":11060,"jingĠjieĠ":11061,"lianĠshuĠ":11062,"anĠdongĠniĠ":11063,"zuiĠxinĠ":11064,"ĠdanĠyinĠweiĠ":11065,"ĠzhuĠtiĠ":11066,"haĠlaĠ":11067,"NC":11068,"pha":11069,"ĠNi":11070,"ĠĠĠsuoĠ":11071,"ĠĠĠ5Ġ":11072,"ĠĠĠ2ĠyueĠ":11073,"liuĠheĠ":11074,"naĠzaiĠ":11075,"tuoĠdeĠ":11076,"tunĠmenĠ":11077,"56ĠnianĠ":11078,"yuanĠchuangĠ":11079,"yeĠkeĠ":11080,"jueĠsaiĠdeĠ":11081,"linĠxianĠ":11082,"ĠjingĠwaiĠshuĠruĠ":11083,"ĠĠĠshiĠjianĠ":11084,"ĠdeĠzhongĠyaoĠ":11085,"dianĠziĠyouĠxiĠ":11086,"yleĠ":11087,"shĠ":11088,"tiĠzaiĠ":11089,"juĠdiĠ":11090,"moĠzhiĠ":11091,"kuaĠyueĠ":11092,"umĠ":11093,"ĠyouĠhuiĠ":11094,"zhuĠming":11095,"junĠdui":11096,"meiĠyou":11097,"fanĠxiangĠ":11098,"fanĠsheĠ":11099,"leĠyiĠzhongĠ":11100,"ĠdeĠjiĠchuĠshangĠ":11101,"zongĠyiĠjieĠmuĠ":11102,"Ġ57":11103,"ĠyuanĠweiĠ":11104,"ĠĠĠLa":11105,"ĠĠĠ1ĠyueĠ":11106,"yongĠweiĠ":11107,"nengĠliĠdeĠ":11108,"pianĠyiĠ":11109,"chuangĠyiĠ":11110,"geiĠshiĠzhongĠ":11111,"shuaiĠjunĠ":11112,"wuĠluĠ":11113,"ĠqiĠxiaĠdeĠ":11114,"quĠchuĠ":11115,"yingĠbangĠ":11116,"luĠxingĠmuĠ":11117,"xiaoĠhaoĠ":11118,"touĠmingĠ":11119,"kaoĠruĠ":11120,"ĠbaĠxiĠ":11121,"liaoĠningĠshengĠ":11122,"Ġne":11123,"ĠgeĠliĠ":11124,"saiĠsiĠ":11125,"cunĠheĠ":11126,"38Ġ":11127,"heĠfaĠ":11128,"beiĠgeĠ":11129,"xiaoĠchuĠ":11130,"daiĠxieĠ":11131,"ruĠxuan":11132,"bianĠlunĠ":11133,"guĠyongĠ":11134,"ĠchengĠxianĠ":11135,"2ĠmianĠ":11136,"ĠdangĠnianĠ":11137,"ĠshangĠhai":11138,"7ĠgongĠliĠ":11139,"ĠjinĠzhiĠ":11140,"wuĠxianĠdianĠ":11141,"zuiĠhouĠyiĠciĠ":11142,"ĠtianĠqiĠ":11143,"ĠsectionĠĠĠbeginĠ":11144,"touĠruĠshiĠyongĠ":11145,"aĠdeĠ":11146,"aiĠliĠsiĠ":11147,"ĠĠĠzheĠxieĠ":11148,"yongĠliĠ":11149,"leiĠxiĠ":11150,"leiĠkeĠ":11151,"guiĠyuĠ":11152,"caoĠyuanĠ":11153,"erĠyuanĠ":11154,"shangĠhuiĠ":11155,"jiaoĠxiangĠ":11156,"junĠwangĠ":11157,"ĠjinĠtianĠ":11158,"ĠjianĠzaoĠ":11159,"meiĠguoĠguoĠjiaĠ":11160,"ĠchengĠduĠ":11161,"aiĠshaĠ":11162,"ĠyiĠzhiĠweiĠ":11163,"ĠwangĠluoĠ":11164,"ĠzaiĠciĠqiĠjianĠ":11165,"ĠdaĠliĠ":11166,"ĠheĠyiĠ":11167,"anĠbuĠ":11168,"beiĠyouĠ":11169,"xiaoĠshiĠdeĠ":11170,"nanĠweiĠ":11171,"suoĠheĠ":11172,"tuĠzaiĠ":11173,"lorĠ":11174,"xingĠhaoĠ":11175,"chuĠshengĠzaiĠ":11176,"jinĠshenĠ":11177,"jingĠchengĠ":11178,"ĠdaĠtongĠ":11179,"nanĠxiaĠ":11180,"xuanĠbaĠ":11181,"feiĠzhou":11182,"zeĠrenĠweiĠ":11183,"panĠduanĠ":11184,"ĠjinĠjiĠ":11185,"ĠjiuĠyueĠ":11186,"ĠdaiĠmaĠweiĠ0":11187,"Ġxue":11188,"Ġ98":11189,"ĠĠĠTe":11190,"bingĠzhongĠ":11191,"ĠyiĠlangĠ":11192,"yuanĠyuanĠ":11193,"jiaĠshuĠ":11194,"zhuĠduoĠ":11195,"haiĠjunĠdeĠ":11196,"muĠbiao":11197,"zuĠziĠzhiĠquĠ":11198,"teĠgongĠ":11199,"bianĠliangĠ":11200,"guĠxiangĠ":11201,"ĠshouĠluĠ":11202,"ĠwanĠquanĠ":11203,"tuiĠceĠ":11204,"yinĠyueĠhuiĠ":11205,"baĠshiĠluĠxianĠ":11206,"guangĠboĠdianĠtaiĠ":11207,"roundĠ":11208,"IL":11209,"ĠneiĠbuĠ":11210,"ĠĠĠ11":11211,"biĠzhiĠ":11212,"ruĠzhiĠ":11213,"jueĠqiĠ":11214,"peiĠyueĠ":11215,"hongĠqiĠ":11216,"caoĠdiĠ":11217,"gaĠ":11218,"Linu":11219,"ĠshiĠfangĠ":11220,"jiĠshuĠ":11221,"buĠxiangĠ":11222,"daĠlianĠmengĠ":11223,"siĠjiaĠ":11224,"riĠhouĠ":11225,"jiaoĠgeiĠ":11226,"nanĠyanĠyuanĠ":11227,"fengĠsuĠ":11228,"fengĠmianĠ":11229,"ĠshiĠweiĠyuanĠhuiĠ":11230,"diĠshiĠerĠ":11231,"ĠduoĠrenĠ":11232,"reĠdaiĠdiĠqiĠyaĠ":11233,"GC":11234,"ĠkongĠzhiĠ":11235,"ĠĠĠZ":11236,"yingĠyouĠ":11237,"yangĠrenĠ":11238,"ĠzaiĠxianĠ":11239,"ĠbuĠlangĠ":11240,"keĠlaĠ":11241,"huiĠmianĠ":11242,"chuĠlaiĠdeĠ":11243,"xueĠguanĠ":11244,"daiĠzheĠ":11245,"suoĠxuĠdeĠ":11246,"sĠĠĠof":11247,"AD":11248,"ron":11249,"feiĠsiĠ":11250,"shanĠsiĠ":11251,"naĠxiĠ":11252,"ĠliĠmianĠ":11253,"ĠdaĠsiĠ":11254,"fenĠjuĠ":11255,"ĠjiaĠqiangĠ":11256,"guangĠdianĠ":11257,"yueĠqiuĠ":11258,"ĠranĠhouĠzaiĠ":11259,"ĠsiĠyueĠ":11260,"ĠjinĠshiĠchuĠshenĠ":11261,"Ġchong":11262,"oun":11263,"jiuĠyuĠ":11264,"lingĠheĠ":11265,"suĠheĠ":11266,"pinĠweiĠ":11267,"lesĠ":11268,"ĠshiĠpinĠ":11269,"renĠkou":11270,"jieĠquĠ":11271,"keĠxiĠ":11272,"beiĠpingĠ":11273,"ĠdaĠshaĠ":11274,"teĠyouĠzhiĠwuĠ":11275,"haoĠwuĠ":11276,"ĠjianĠchaĠ":11277,"zuiĠgaoĠfaĠyuanĠ":11278,"jiaĠliĠfuĠniĠyaĠ":11279,"ĠgeiĠ":11280,"yiĠshiĠshiĠ":11281,"dio":11282,"buĠdeĠyiĠ":11283,"keĠshiĠyongĠ":11284,"shanĠxingĠ":11285,"leiĠliĠ":11286,"fengĠqiĠ":11287,"chaĠzhiĠ":11288,"toĠ":11289,"youĠjuĠyuĠ":11290,"ĠguoĠzhongĠ":11291,"beiĠhaiĠ":11292,"beiĠfaĠxianĠ":11293,"laiĠmeiĠ":11294,"duoĠyangĠ":11295,"juanĠzengĠ":11296,"OM":11297,"cti":11298,"shuan":11299,"ĠĠĠhuĠ":11300,"daiĠzhongĠ":11301,"xuĠweiĠ":11302,"bianĠbuĠ":11303,"tuiĠdaoĠ":11304,"lyĠĠĠ":11305,"wangĠluo":11306,"nanĠluĠ":11307,"nanĠnvĠ":11308,"banĠshangĠ":11309,"Ġãĥ³":11310,"Ġf":11311,"Ġ1983":11312,"ĠbuĠliĠ":11313,"yaoĠxingĠ":11314,"poĠshiĠ":11315,"siĠmingĠ":11316,"jianĠzhu":11317,"huiĠxingĠ":11318,"jinĠsaiĠ":11319,"tiĠqinĠ":11320,"yangĠbenĠ":11321,"chuanĠzhuĠ":11322,"zhaoĠhuiĠ":11323,"moĠshiĠchan":11324,"ĠsectionĠĠĠendĠ":11325,"xiĠyueĠ":11326,"ĠĠĠtaĠzaiĠ":11327,"keĠbuĠ":11328,"kaiĠshiĠdeĠ":11329,"ĠyiĠjieĠ":11330,"chengĠqiangĠ":11331,"shuĠfuĠ":11332,"juĠhuiĠ":11333,"biĠluĠ":11334,"boĠyingĠ":11335,"fengĠjingĠ":11336,"jueĠzhuĠ":11337,"ĠgongĠzuo":11338,"ĠgaiĠgongĠsiĠ":11339,"xunĠyanĠ":11340,"ĠbeiĠzhiĠ":11341,"shouĠhuanĠyingĠdeĠ":11342,"daĠliĠdeĠ":11343,"bianĠliĠ":11344,"zuanĠshiĠ":11345,"ĠzaiĠguoĠ":11346,"ĠheĠfuĠ":11347,"ziĠdanĠ":11348,"chuĠban":11349,"ĠxiĠquĠ":11350,"zuoĠpaiĠ":11351,"xinĠwen":11352,"jiaoĠxiaoĠdeĠ":11353,"tieĠluĠjuĠ":11354,"miĠniĠzhuanĠjiĠ":11355,"BDĠ":11356,"Ġgen":11357,"ĠshengĠrenĠ":11358,"dangĠzhiĠ":11359,"kongĠjuĠ":11360,"90ĠnianĠdaiĠ":11361,"psĠ":11362,"youĠrenĠ":11363,"huiĠjiangĠ":11364,"laiĠleĠ":11365,"zuĠzongĠ":11366,"ĠgaiĠgeĠ":11367,"ĠĠĠzhuĠzuoĠ":11368,"saĠerĠwaĠ":11369,"paiĠhangĠbangĠ":11370,"kaoĠlvĠdaoĠ":11371,"Ġshang":11372,"Ġban":11373,"yiĠshiĠjiĠ":11374,"ĠĠĠwuĠkeĠlanĠ":11375,"meiĠheĠ":11376,"huoĠweiĠ":11377,"fengĠjiĠ":11378,"gengĠyouĠ":11379,"bieĠshuĠ":11380,"pangĠqiuĠ":11381,"qiĠxiaĠ":11382,"ĠzhongĠduoĠ":11383,"jianĠce":11384,"chengĠfaĠ":11385,"qingĠdaiĠ":11386,"muĠhouĠ":11387,"luoĠyangĠ":11388,"ĠzhuĠmingĠ":11389,"douĠyuĠshiĠ":11390,"woĠmenĠdeĠ":11391,"ĠaiĠliĠ":11392,"jiaoĠhuiĠchuĠ":11393,"jiangĠyuĠliangĠ":11394,"ĠjieĠweiĠluĠdiĠ":11395,"Ġza":11396,"huiĠliĠ":11397,"sanĠheĠ":11398,"cheĠzaiĠ":11399,"linĠzhiĠ":11400,"kuĠsiĠ":11401,"mengĠyouĠ":11402,"youĠxiaoĠ":11403,"qiĠzaiĠ":11404,"ĠyouĠtaiĠrenĠ":11405,"ĠheĠluĠ":11406,"gongĠtingĠ":11407,"jianĠshuĠ":11408,"jinĠkouĠ":11409,"huaĠtiĠ":11410,"tongĠchangĠshiĠ":11411,"jiangĠjieĠ":11412,"ĠfuĠza":11413,"wanĠchengĠdeĠ":11414,"miĠxieĠ":11415,"anĠzhao":11416,"suoĠmuĠ":11417,"zuiĠmingĠ":11418,"baĠsaiĠerĠ":11419,"ĠxuĠduo":11420,"ĠĠĠBe":11421,"ĠĠĠzhanĠhouĠ":11422,"yinĠyueĠdeĠ":11423,"junĠdaĠ":11424,"zaoĠchuĠ":11425,"guangĠdaoĠ":11426,"chanĠshiĠ":11427,"gouĠxiangĠ":11428,"por":11429,"caoĠdeĠ":11430,"ĠqiĠtuĠ":11431,"ĠdiĠ2Ġ":11432,"dongĠhua":11433,"boĠleiĠ":11434,"dengĠxiaoĠ":11435,"huĠtongĠ":11436,"liuĠxingĠdeĠ":11437,"cengĠdanĠrenĠ":11438,"ĠhouĠbeiĠ":11439,"kongĠguĠ":11440,"ĠciĠwai":11441,"xueĠshiĠweiĠ":11442,"boĠheĠ":11443,"naĠweiĠ":11444,"songĠshiĠ":11445,"jiĠchuĠ":11446,"ĠzhongĠwuĠ":11447,"fenĠdianĠ":11448,"wangĠminĠ":11449,"zuiĠjuĠ":11450,"fanĠpaiĠ":11451,"shanĠluĠ":11452,"ĠgongĠnengĠ":11453,"ĠciĠjuĠ":11454,"canĠmouĠ":11455,"ĠdeĠzhiĠzuoĠ":11456,"ĠKĠ":11457,"ĠyueĠzhongĠxunĠ":11458,"ĠzhanĠshiĠ":11459,"ĠĠĠ2003ĠnianĠ":11460,"youĠshiĠyiĠ":11461,"jianĠyueĠ":11462,"ziĠbuĠ":11463,"zhouĠguoĠ":11464,"zhouĠsiĠ":11465,"hanĠrenĠ":11466,"tiaoĠshiĠ":11467,"rangĠrenĠ":11468,"daĠliangĠdeĠ":11469,"daĠdongĠbuĠdaĠquĠ":11470,"jianĠzaoĠdeĠ":11471,"zhanĠlieĠ":11472,"zuĠqun":11473,"teĠluoĠ":11474,"ĠciĠlieĠcheĠ":11475,"ĠĠĠliĠshiĠyanĠgeĠ":11476,"yanĠjiuĠzhongĠ":11477,"ul":11478,"ĠCha":11479,"ĠĠĠsheĠ":11480,"ĠĠĠtuĠ":11481,"taĠbuĠ":11482,"daiĠjiaĠ":11483,"chuanĠdaĠ":11484,"57ĠnianĠ":11485,"Netfli":11486,"ĠshiĠminĠ":11487,"beiĠmianĠ":11488,"ziĠjiĠshiĠ":11489,"huiĠxianĠ":11490,"juĠziĠ":11491,"tiĠneiĠ":11492,"junĠfuĠ":11493,"xiaĠshuiĠ":11494,"haiĠwanĠ":11495,"jiuĠciĠ":11496,"diĠyiĠmingĠ":11497,"ĠhouĠyinĠ":11498,"ĠtongĠyueĠ":11499,"ĠluoĠboĠ":11500,"Ġg":11501,"zhengĠrenĠ":11502,"guĠdiĠ":11503,"nuoĠkeĠ":11504,"lliam":11505,"ĠjiĠxianĠ":11506,"daĠerĠ":11507,"jiaĠzhuangĠ":11508,"keĠqianĠwangĠ":11509,"mingĠdan":11510,"ciĠziĠ":11511,"dengĠbaoĠ":11512,"baĠleiĠ":11513,"ĠjinĠgongĠ":11514,"chanĠsheng":11515,"saĠmoĠ":11516,"muĠsiĠteĠ":11517,"siĠlingĠyuanĠ":11518,"Ġ88":11519,"ĠCh":11520,"zhanĠshiĠqiĠ":11521,"minĠzaiĠ":11522,"kanĠwuĠ":11523,"laoĠhuiĠ":11524,"49ĠnianĠ":11525,"xiĠyinĠ":11526,"yuanĠchengĠ":11527,"shuĠmingĠ":11528,"houĠsaiĠ":11529,"xinĠyang":11530,"bingĠchuanĠ":11531,"guangĠxianĠ":11532,"keĠyiĠyongĠ":11533,"ĠzheĠliĠ":11534,"laoĠbanĠ":11535,"nongĠduĠ":11536,"ĠgaiĠnianĠ":11537,"ĠyaĠmeiĠ":11538,"huĠbeiĠshengĠ":11539,"shouĠhaiĠzheĠ":11540,"3ĠliĠ":11541,"Ġ1986":11542,"Ġ1982":11543,"Ġ700":11544,"ĠqiĠzhiĠ":11545,"ĠĠĠduĠ":11546,"changĠrenĠ":11547,"minĠheĠ":11548,"piĠerĠ":11549,"cheĠheĠ":11550,"leiĠzaiĠ":11551,"36Ġ":11552,"41ĠnianĠ":11553,"quĠxianĠ":11554,"jiaoĠwangĠ":11555,"qianĠlongĠ":11556,"ĠxingĠbie":11557,"fanĠchuanĠ":11558,"ĠgaiĠdangĠ":11559,"2ĠgongĠliĠ":11560,"ĠmeiĠzhouĠ":11561,"ĠdeĠdaoĠluĠ":11562,"chengĠduĠshangĠ":11563,"ĠzuoĠyouĠ":11564,"ĠtuĠerĠqiĠ":11565,"Ġ1947ĠnianĠ":11566,"jiaoĠxiĠ":11567,"naĠyiĠ":11568,"seĠheĠ":11569,"maoĠkeĠ":11570,"37Ġ":11571,"xiangĠfuĠ":11572,"beiĠshouĠ":11573,"beiĠanĠ":11574,"zuoĠbiaoĠ":11575,"ĠdaĠziĠ":11576,"yinĠduĠdeĠ":11577,"ĠjiaĠla":11578,"muĠluĠ":11579,"maĠluĠ":11580,"ĠjianĠduĠ":11581,"aĠsaiĠbaiĠ":11582,"ĠhuaĠxueĠ":11583,"ĠzongĠjiaoĠ":11584,"ĠshiĠyiĠkeĠhengĠxingĠ":11585,"ĠzhunĠbeiĠ":11586,"ĠĠĠf":11587,"jieĠyueĠ":11588,"yeĠliĠ":11589,"boĠqiĠ":11590,"fanĠyuĠ":11591,"nengĠyuĠ":11592,"huanĠshiĠ":11593,"34Ġ":11594,"fenĠhuaĠ":11595,"xiaoĠfuĠ":11596,"qingĠfuĠ":11597,"shenĠchuĠ":11598,"qiuĠdui":11599,"liuĠmingĠ":11600,"2ĠbiĠ":11601,"8ĠgongĠliĠ":11602,"ĠaoĠdiĠliĠ":11603,"ĠzhengĠyueĠ":11604,"ĠzaoĠqiĠ":11605,"ĠfuĠliĠ":11606,"anĠdiĠ":11607,"ĠĠĠgenĠju":11608,"laiĠweiĠ":11609,"IIIĠ":11610,"zhongĠzuĠ":11611,"shengĠxingĠ":11612,"jinĠzhuĠ":11613,"quĠzhuĠjianĠ":11614,"zhengĠjiuĠ":11615,"changĠshuĠ":11616,"banĠzhangĠ":11617,"shenĠxueĠ":11618,"ĠchengĠkeĠ":11619,"3ĠwanĠ":11620,"qunĠdaoĠdeĠ":11621,"changĠpianĠgongĠsiĠ":11622,"WT":11623,"Ġnei":11624,"ĠPo":11625,"yinĠrenĠ":11626,"xinĠdiĠ":11627,"52ĠnianĠ":11628,"jiaoĠgaoĠdeĠ":11629,"haiĠyang":11630,"guangĠxueĠ":11631,"ĠjieĠtiĠ":11632,"nianĠduĠ":11633,"tongĠguoĠleĠ":11634,"faĠxingĠleĠ":11635,"ĠfeiĠchangĠ":11636,"ĠguiĠdingĠ":11637,"gaoĠxiongĠshiĠ":11638,"ĠpuĠtaoĠyaĠyuĠ":11639,"2ĠjiaĠ":11640,"ja":11641,"ĠBo":11642,"ĠdaiĠbiao":11643,"ĠĠĠruĠguoĠ":11644,"daoĠĠĠ":11645,"dongĠzhongĠ":11646,"quanĠzhongĠ":11647,"suĠyuĠ":11648,"bangĠshangĠ":11649,"58ĠnianĠ":11650,"daĠjiaĠ":11651,"yuanĠlaiĠdeĠ":11652,"wuĠjieĠ":11653,"yanĠbianĠ":11654,"dengĠzhanĠ":11655,"fanĠxinĠ":11656,"tieĠluĠgongĠsiĠ":11657,"zongĠjiaoĠquĠ":11658,"zuiĠhouĠyiĠgeĠ":11659,"meiĠkeĠ":11660,"baĠqiĠ":11661,"shaoĠyuĠ":11662,"OSĠ":11663,"heĠchengĠ":11664,"ĠyueĠjiĠ":11665,"gongĠlu":11666,"wuĠxuĠ":11667,"ciĠleiĠ":11668,"duiĠgaiĠ":11669,"muĠdiĠshiĠ":11670,"meiĠlaĠ":11671,"liuĠjingĠ":11672,"ĠshengĠwuĠ":11673,"zhengĠshiĠchengĠliĠ":11674,"dianĠyingĠzhongĠ":11675,"liĠsiĠ":11676,"ĠĠĠv":11677,"saiĠshiĠdeĠ":11678,"fanĠrenĠ":11679,"lvĠbuĠ":11680,"chaĠsiĠ":11681,"11ĠshiĠ":11682,"zhaiĠdeĠ":11683,"ĠzaiĠneiĠ":11684,"xiĠquĠ":11685,"ĠyueĠduĠ":11686,"leĠjinĠ":11687,"huaĠwenĠ":11688,"ĠriĠbenĠdeĠ":11689,"ĠjiaĠmengĠ":11690,"zuĠlianĠ":11691,"lianĠxianĠ":11692,"ĠdanĠtaĠmenĠ":11693,"ĠhuiĠdaoĠ":11694,"ĠjiaoĠshouĠ":11695,"ĠĠĠshiĠjieĠ":11696,"ĠbianĠhaoĠ":11697,"xinĠliĠxueĠ":11698,"xunĠhuiĠsaiĠ":11699,"ĠwanĠmeiĠyuanĠdeĠ":11700,"IF":11701,"bli":11702,"Ġyu":11703,"qiuĠdaĠ":11704,"liuĠqiĠ":11705,"guangĠweiĠ":11706,"tangĠshiĠ":11707,"songĠzhiĠ":11708,"geiĠchuĠ":11709,"jieĠjingĠ":11710,"xiangĠjiangĠ":11711,"jiaoĠyuĠdeĠ":11712,"duiĠyingĠdeĠ":11713,"xiaoĠzhenĠ":11714,"danĠshuiĠyuĠ":11715,"shenĠshouĠ":11716,"ĠfuĠhaoĠ":11717,"ĠtaĠyeĠshiĠ":11718,"guĠbaĠ":11719,"haoĠchengĠshiĠ":11720,"ĠgaiĠchengĠ":11721,"ĠciĠqianĠ":11722,"guoĠdeĠteĠyouĠzhiĠwuĠ":11723,"ĠanĠzhaoĠ":11724,"ĠlianĠxuĠ":11725,"ĠdeĠyiĠgeĠzhongĠ":11726,"fuĠshiĠzhangĠ":11727,"ĠgaiĠshengĠfenĠweiĠfaĠguoĠbeiĠbuĠ":11728,"zhanĠdouĠzhongĠ":11729,"ĠquanĠbuĠ":11730,"ĠĠĠSe":11731,"ersĠ":11732,"hanĠsiĠ":11733,"zouĠdeĠ":11734,"idĠ":11735,"ĠnianĠzhiĠhouĠ":11736,"ĠyouĠzheĠ":11737,"ĠzaiĠshangĠ":11738,"shengĠfuĠzeĠguanĠxiaĠ":11739,"ĠerĠjiaĠ":11740,"tongĠxun":11741,"jiaoĠyuanĠ":11742,"saiĠjuĠ":11743,"ĠyanĠyuanĠ":11744,"ĠgaiĠdiĠ":11745,"1ĠriĠpingĠjunĠ":11746,"ĠliangĠguoĠ":11747,"keĠjiĠdaĠxueĠ":11748,"ĠerĠsiĠkeĠ":11749,"kongĠzhongĠfaĠxianĠ":11750,"huanĠxingĠshanĠ":11751,"minĠjinĠdangĠ":11752,"ĠKi":11753,"ĠzhuiĠ":11754,"ĠĠĠQ":11755,"qiĠshiĠdeĠ":11756,"xiaoĠdiĠ":11757,"dengĠyiĠ":11758,"baiĠjinĠ":11759,"paiĠshiĠ":11760,"chaoĠxiĠ":11761,"tuoĠyuanĠxingĠ":11762,"ĠdeĠbuĠ":11763,"ĠdeĠlaĠ":11764,"ĠrenĠneiĠ":11765,"jianĠyanĠ":11766,"dingĠmuĠ":11767,"dingĠlvĠ":11768,"liuĠfangĠ":11769,"fengĠbiĠ":11770,"paiĠduiĠ":11771,"ĠliangĠzheĠ":11772,"Ġ23Ġ":11773,"SO":11774,"taĠjiĠ":11775,"xuĠheĠ":11776,"guiĠjiĠ":11777,"bangĠdaĠ":11778,"ĠyiĠguoĠ":11779,"ĠzaiĠfuĠ":11780,"beiĠdiĠ":11781,"zuoĠchuĠleĠ":11782,"tiĠcaoĠ":11783,"wangĠguoĠdeĠ":11784,"hanĠbaoĠ":11785,"ĠyeĠkeĠ":11786,"huoĠdeĠdiĠ":11787,"yuĠyiĠdaĠliĠ":11788,"ĠbenĠmingĠ":11789,"ĠÐ½":11790,"ĠsiĠliĠ":11791,"ĠweiĠzhongĠxinĠ":11792,"ĠshiĠshiĠjieĠshangĠ":11793,"BM":11794,"Ġmiao":11795,"ĠĠĠDi":11796,"ĠĠĠFi":11797,"ĠĠĠhouĠlaiĠ":11798,"daĠyouĠ":11799,"mingĠliĠ":11800,"ruĠdiĠ":11801,"xuĠliĠ":11802,"tieĠdeĠ":11803,"peiĠsiĠ":11804,"55ĠnianĠ":11805,"keĠtaĠ":11806,"ĠdaĠlou":11807,"tiĠchu":11808,"dangĠpaiĠ":11809,"ĠjianĠshaoĠ":11810,"ĠjinĠyiĠbuĠ":11811,"ĠtuĠjingĠ":11812,"kaĠluoĠlaiĠnaĠzhouĠ":11813,"ĠzhongĠyiĠ":11814,"ĠfangĠzhiĠ":11815,"Ġ1946ĠnianĠ":11816,"aiĠdiĠ":11817,"ĠĠĠcanĠkaoĠ":11818,"wanĠshiĠ":11819,"zaoĠshiĠ":11820,"1900ĠnianĠ":11821,"ĠliĠweiĠzhiĠ":11822,"jianĠdingĠ":11823,"shouĠpiĠ":11824,"zhanĠbiĠ":11825,"yeĠchengĠ":11826,"jiangĠgaiĠ":11827,"dianĠciĠ":11828,"wanĠjieĠ":11829,"lianĠsiĠjiĠ":11830,"ĠjinĠguan":11831,"zhengĠzhiĠxieĠshangĠ":11832,"ĠlianĠbangĠ":11833,"ĠOĠ":11834,"ĠheĠbeiĠshengĠ":11835,"ĠqiĠxiĠshenĠduĠ":11836,"3ĠshiĠ":11837,"ĠSt":11838,"ĠĠĠwenĠ":11839,"ĠĠĠniĠ":11840,"faĠyouĠ":11841,"zhanĠguoĠ":11842,"daiĠheĠ":11843,"wangĠdaĠ":11844,"48Ġ":11845,"63ĠnianĠ":11846,"alignĠ":11847,"jinĠjinĠ":11848,"ĠdiĠkeĠ":11849,"zhanĠlieĠjianĠ":11850,"huaĠdongĠ":11851,"minĠyongĠ":11852,"ĠtaĠbiaoĠshiĠ":11853,"fanĠyingĠdeĠ":11854,"ĠxiangĠdangĠ":11855,"ĠshiĠweiĠshuĠjiĠ":11856,"ĠtongĠnianĠ11ĠyueĠ":11857,"ĠtongĠchang":11858,"saĠkeĠsenĠ":11859,"xunĠhuiĠyanĠchangĠhuiĠ":11860,"moĠshiĠchanĠdiĠzaiĠ":11861,"1ĠzhiĠ":11862,"Ġdu":11863,"Ġ1948ĠnianĠ":11864,"ĠĠĠw":11865,"erĠshiĠshiĠjiĠ":11866,"suoĠyuĠ":11867,"haoĠzhongĠziĠ":11868,"chunĠjieĠ":11869,"jieĠzhuĠ":11870,"jingĠxianĠ":11871,"yinĠyuanĠ":11872,"sheĠxiangĠ":11873,"meiĠguoĠhaiĠjunĠ":11874,"ĠbingĠshiĠ":11875,"shaoĠnv":11876,"2010ĠnianĠmeiĠguoĠrenĠkouĠpuĠchaĠ":11877,"ĠminĠjiĠ":11878,"Ġ1948":11879,"Ġ1979ĠnianĠ":11880,"ĠĠĠhe":11881,"yingĠweiĠ":11882,"chiĠyuĠ":11883,"verĠ":11884,"59ĠnianĠ":11885,"ĠyiĠzhangĠ":11886,"zhenĠdongĠ":11887,"huĠzhaoĠ":11888,"zhuĠyiĠdaoĠ":11889,"ĠjiangĠyuĠ":11890,"ziĠgeĠsaiĠ":11891,"6ĠmingĠ":11892,"pouĠ":11893,"Ġm":11894,"ĠhenĠduoĠ":11895,"ngĠ":11896,"jiĠyiĠjiĠ":11897,"ĠĠĠfaĠxingĠ":11898,"Univer":11899,"ĠyiĠwenĠ":11900,"ĠzhiĠminĠ":11901,"renĠmenĠ":11902,"ĠbeiĠjingĠshiĠ":11903,"ĠzheĠyeĠ":11904,"ĠdeĠzhiĠhuiĠ":11905,"ĠdengĠdengĠ":11906,"ĠyiĠweiĠzhuĠ":11907,"daoĠzhiĠleĠ":11908,"ĠzuoĠpinĠ":11909,"ĠmianĠdianĠ":11910,"huaĠshengĠdun":11911,"shuaiĠlingĠdeĠ":11912,"ĠjuĠqingĠxiaĠ":11913,"ĠPi":11914,"Ġ1956ĠnianĠ":11915,"ĠĠĠdianĠyingĠ":11916,"nanĠdaĠ":11917,"gaoĠxingĠ":11918,"BSĠ":11919,"ĠyouĠxi":11920,"beiĠkeĠ":11921,"yingĠhuaĠ":11922,"duiĠchenĠ":11923,"liangĠjieĠ":11924,"ĠfuĠluoĠ":11925,"teĠshengĠ":11926,"ĠchuĠdaoĠ":11927,"ĠwuĠdiĠ":11928,"1ĠgongĠliĠ":11929,"huangĠpuĠ":11930,"ouĠzhouĠdeĠ":11931,"ĠneiĠrongĠ":11932,"1200":11933,"ĠHa":11934,"ĠzhuĠliĠ":11935,"ĠĠĠWi":11936,"ĠĠĠCa":11937,"ĠĠĠcaiĠ":11938,"nianĠbeiĠ":11939,"shengĠyueĠ":11940,"huaĠliĠ":11941,"jiangĠrenĠ":11942,"kangĠdeĠ":11943,"chaiĠyouĠ":11944,"1916ĠnianĠ":11945,"ĠzaiĠjianĠ":11946,"wuĠchangĠ":11947,"xiangĠxiangĠ":11948,"jingĠbao":11949,"ĠsiĠtan":11950,"ĠjiaĠsheĠ":11951,"ruĠzhuĠ":11952,"ĠxingĠxiangĠ":11953,"zuiĠjinĠ":11954,"ĠyinĠhangĠ":11955,"huanĠrao":11956,"tanĠhuaĠ":11957,"naĠcuiĠdeĠguoĠ":11958,"tro":11959,"Ġ68":11960,"Ġ99":11961,"aiĠziĠ":11962,"shengĠdeĠyiĠgeĠ":11963,"huiĠrenĠ":11964,"tianĠyiĠ":11965,"tangĠjiĠ":11966,"diaoĠrenĠ":11967,"1950ĠnianĠdaiĠ":11968,"51ĠnianĠ":11969,"weiĠxieĠ":11970,"ĠyuĠzhouĠ":11971,"faĠguoĠdeĠ":11972,"ĠxiĠzang":11973,"yeĠshouĠ":11974,"zuĠchengĠyuanĠ":11975,"wanĠhuiĠ":11976,"baĠnaĠ":11977,"ĠdanĠhouĠlaiĠ":11978,"zhuanĠanĠ":11979,"ĠtongĠnianĠ9ĠyueĠ":11980,"ĠãĤĵ":11981,"zhuiĠsuĠzhiĠ":11982,"maiĠkeĠerĠ":11983,"gaoĠdengĠxueĠxiaoĠ":11984,"fuĠqinĠdeĠ":11985,"ĠzhongĠshiĠyanĠ":11986,"ĠbiĠyeĠhouĠ":11987,"len":11988,"ĠjiaĠliĠ":11989,"Ġ1981ĠnianĠ":11990,"ĠĠĠ2002ĠnianĠ":11991,"tiĠyouĠ":11992,"haoĠyueĠtaiĠ":11993,"etĠ":11994,"SAĠ":11995,"ĠyiĠsiĠshiĠ":11996,"ĠzhiĠzuoĠdeĠ":11997,"ĠzaiĠtaiĠwanĠ":11998,"ĠyueĠqiuĠ":11999,"jiaĠjuĠ":12000,"jieĠjuĠ":12001,"xianĠqiĠ":12002,"jiuĠkeĠyiĠ":12003,"manĠhuaĠjiaĠ":12004,"langĠdeĠshengĠ":12005,"ĠkeĠxiĠtaĠ":12006,"Ġhun":12007,"ĠnuoĠweiĠ":12008,"ĠĠĠ2002":12009,"feiĠyuĠ":12010,"rongĠqiĠ":12011,"ĠyuĠjingĠ":12012,"taĠduiĠ":12013,"bingĠfaĠ":12014,"laiĠteĠ":12015,"ĠfuĠsiĠ":12016,"ĠxingĠbieĠ":12017,"fanĠxueĠxiaoĠ":12018,"ĠxianĠfaĠ":12019,"ĠjieĠchuĠ":12020,"nianĠqingĠ":12021,"ĠnanĠziĠ":12022,"zhongĠshiĠyanĠ":12023,"ĠmingĠshiĠ":12024,"ĠbuĠjiuĠhouĠ":12025,"ĠĠĠLo":12026,"ĠĠĠrenĠwuĠ":12027,"xuĠyouĠ":12028,"zuiĠxiĠ":12029,"maiĠxiaĠ":12030,"louĠtiĠ":12031,"chunĠdeĠ":12032,"ĠzhiĠxiangĠ":12033,"chengĠduĠdeĠ":12034,"beiĠpanĠ":12035,"ĠxiĠla":12036,"leĠzheĠyiĠ":12037,"jiaoĠchuĠ":12038,"qianĠwanĠ":12039,"suoĠxuĠ":12040,"ĠzheĠliangĠ":12041,"3ĠĠĠ":12042,"ĠĠĠSo":12043,"ĠĠĠxueĠ":12044,"ĠĠĠaoĠ":12045,"ĠĠĠ2024ĠnianĠ":12046,"zaiĠshiĠyongĠ":12047,"heĠshiĠdeĠ":12048,"wuĠguoĠ":12049,"zhangĠshiĠjianĠ":12050,"guangĠshiĠ":12051,"xiuĠzhuĠ":12052,"piaoĠdeĠ":12053,"ĠshiĠduanĠ":12054,"xiĠtong":12055,"xianĠfengĠ":12056,"bingĠqiuĠ":12057,"dianĠyaĠ":12058,"minĠzhengĠ":12059,"teĠlanĠ":12060,"quanĠzhouĠ":12061,"maĠenĠshengĠ":12062,"aĠerĠjiĠ":12063,"ĠshengĠchanĠ":12064,"ĠzheĠshiĠyiĠ":12065,"ĠbenĠzhanĠ":12066,"ĠjieĠheĠ":12067,"ĠtianĠfuĠ":12068,"900":12069,"Ġchu":12070,"ĠĠĠyangĠ":12071,"ĠĠĠ20ĠshiĠjiĠ":12072,"teĠyiĠ":12073,"benĠdiĠquĠ":12074,"liuĠweiĠ":12075,"gangĠguoĠ":12076,"pangĠdeĠ":12077,"gongĠfengĠ":12078,"geĠlanĠdeĠ":12079,"xianĠbeiĠ":12080,"ziĠyouĠshiĠ":12081,"faĠxianĠyuĠ":12082,"jiangĠdaoĠ":12083,"pingĠxingĠ":12084,"suoĠshu":12085,"sanĠjianĠ":12086,"naĠpoĠlunĠ":12087,"eĠwaiĠdeĠ":12088,"canĠsaiĠzheĠ":12089,"Ġ1955ĠnianĠ":12090,"daiĠjiĠ":12091,"daiĠzaiĠ":12092,"bianĠzhongĠ":12093,"menĠdaĠ":12094,"waiĠyuĠ":12095,"ĠshiĠneiĠ":12096,"ĠyuĠjiaĠ":12097,"ĠyouĠfuĠ":12098,"xiaĠshuĠ":12099,"qingĠxieĠ":12100,"boĠluoĠdiĠ":12101,"saiĠmaĠ":12102,"touĠyingĠ":12103,"eĠjunĠ":12104,"minĠzhuĠzhuĠyiĠ":12105,"cludeĠ":12106,"ĠgaiĠwuĠzhongĠdeĠmoĠshiĠchanĠdiĠzaiĠ":12107,"ĠKa":12108,"ĠĠĠWindows":12109,"ĠĠĠheĠĠĠ":12110,"huĠyiĠ":12111,"shouĠguoĠ":12112,"xiongĠzhangĠ":12113,"guoĠduĠ":12114,"shengĠqianĠ":12115,"quĠjueĠyuĠ":12116,"houĠhuiĠ":12117,"changĠshaĠ":12118,"luĠjun":12119,"ĠyinĠniĠ":12120,"kaiĠshiĠleĠ":12121,"manĠguanĠ":12122,"teĠbieĠxingĠzhengĠquĠ":12123,"muĠniĠhei":12124,"eĠhaiĠeĠzhouĠ":12125,"xtĠ":12126,"Ġw":12127,"Ġ1987":12128,"ĠĠĠtoĠĠĠ":12129,"quĠliĠ":12130,"mengĠjiaĠlaĠ":12131,"manĠweiĠ":12132,"ĠrenĠshouĠshangĠ":12133,"daĠsiĠ":12134,"daĠtongĠ":12135,"ĠbuĠleiĠ":12136,"faĠyinĠ":12137,"dongĠfengĠ":12138,"guanĠjunĠdeĠ":12139,"xinĠjiaoĠ":12140,"ĠxingĠchaiĠyouĠjiĠ":12141,"xuanĠxiuĠ":12142,"ĠshiĠyiĠjingĠ":12143,"waĠlaĠ":12144,"ĠĠĠyiĠxieĠ":12145,"qingĠhuaĠdaĠxueĠ":12146,"6ĠhaoĠ":12147,"Ġleng":12148,"ĠĠĠxiangĠguanĠ":12149,"ĠĠĠmiaoĠshuĠ":12150,"daĠliĠshiĠ":12151,"waiĠkeĠ":12152,"linĠzaiĠ":12153,"ĠshiĠgaiĠ":12154,"ĠzhiĠliangĠ":12155,"jieĠduĠ":12156,"shengĠyuanĠ":12157,"beiĠhanĠ":12158,"ĠqiĠchengĠ":12159,"ĠfuĠlanĠkeĠ":12160,"wanĠdaoĠ":12161,"panĠluan":12162,"ĠÐ¸":12163,"ĠganĠsuĠ":12164,"ĠshiĠwuĠkeĠlanĠdeĠ":12165,"ĠjianĠzhiĠ":12166,"xiangĠrenĠ":12167,"zuoĠbuĠ":12168,"yongĠrenĠ":12169,"jiuĠyiĠjingĠ":12170,"yangĠyiĠ":12171,"saiĠzhiĠ":12172,"54ĠnianĠ":12173,"ĠnianĠnianĠ":12174,"ĠyouĠziĠ":12175,"ĠzaiĠjingĠ":12176,"keĠkeĠ":12177,"yingĠfuĠ":12178,"taiĠshanĠ":12179,"daiĠhuiĠ":12180,"cheĠhuiĠ":12181,"saiĠpuĠ":12182,"ĠyeĠbuĠ":12183,"ĠbeiĠrenĠweiĠshiĠ":12184,"ĠguĠjiĠ":12185,"ĠJohn":12186,"lianĠjiĠ":12187,"shanĠyiĠ":12188,"queĠxianĠ":12189,"bangĠshouĠ":12190,"ther":12191,"xingĠfuĠ":12192,"huaĠfeiĠ":12193,"guanĠmuĠ":12194,"gaiĠzhuangĠ":12195,"liangĠcengĠ":12196,"zongĠzhangĠ":12197,"neiĠwaiĠ":12198,"ĠxianĠzaiĠdeĠ":12199,"huanĠyuanĠ":12200,"huanĠmanĠ":12201,"zhengĠzhiĠjuĠ":12202,"ĠÐµ":12203,"7ĠhaoĠ":12204,"Ġmou":12205,"Ġ1952ĠnianĠ":12206,"xianĠyueĠ":12207,"tongĠyiĠgeĠ":12208,"paoĠtaĠ":12209,"derĠ":12210,"shiĠyiĠ":12211,"ĠheĠyouĠ":12212,"fuĠluoĠ":12213,"xianĠjingĠ":12214,"zhengĠqueĠ":12215,"shangĠye":12216,"xinĠzeng":12217,"zuiĠzhuĠmingĠdeĠ":12218,"zongĠzuoĠ":12219,"saiĠeĠ":12220,"ĠdeĠyiĠchangĠ":12221,"ĠbingĠduiĠ":12222,"ĠgongĠsi":12223,"ĠgaiĠzuĠzhiĠ":12224,"ĠshuĠrouĠshiĠxingĠ":12225,"yunĠshiĠkengĠ":12226,"DR":12227,"Ġlan":12228,"Ġtiao":12229,"ĠbinĠ":12230,"ĠouĠzhou":12231,"suĠjiĠ":12232,"hanĠweiĠ":12233,"peiĠyuĠ":12234,"75Ġ":12235,"zhongĠxingĠ":12236,"shengĠziĠ":12237,"yinĠqiĠdeĠ":12238,"tiĠshangĠ":12239,"fenĠsanĠ":12240,"taiĠlangĠ":12241,"ĠdeĠyiĠbuĠ":12242,"ĠyeĠhuiĠ":12243,"ĠyiĠzhiĠyouĠ":12244,"6ĠgongĠliĠ":12245,"zongĠtongĠfuĠ":12246,"Ġxun":12247,"Ġ1979":12248,"ĠFa":12249,"Ġ1937ĠnianĠ":12250,"anĠweiĠ":12251,"niĠzaiĠ":12252,"gaoĠerĠfuĠ":12253,"xiuĠliĠ":12254,"zunĠshouĠ":12255,"ĠshiĠcongĠ":12256,"jieĠtouĠ":12257,"zhuĠyanĠdeĠ":12258,"shengĠzhengĠfuĠ":12259,"faĠguiĠ":12260,"luĠxiangĠ":12261,"biĠhuĠ":12262,"qiuĠfanĠ":12263,"kaiĠfang":12264,"tingĠhuoĠ":12265,"1ĠbiĠ":12266,"nvĠxingĠdeĠ":12267,"ĠxiaĠxiaĠ":12268,"ĠjiaoĠtongĠ":12269,"ĠhuaĠxueĠshiĠweiĠ":12270,"kenĠseĠ":12271,"8ĠhaoĠ":12272,"Ġ1938":12273,"ĠDo":12274,"fenĠheĠ":12275,"saĠzhuĠsaiĠ":12276,"sangĠnaĠ":12277,"ĠyiĠchuĠ":12278,"jieĠhun":12279,"juĠmianĠ":12280,"shangĠyanĠ":12281,"wangĠfuĠ":12282,"teĠse":12283,"lingĠmuĠ":12284,"luoĠshanĠ":12285,"yangĠjunĠ":12286,"zuiĠchangĠ":12287,"fengĠmingĠ":12288,"jueĠxinĠ":12289,"daiĠbiaoĠdeĠ":12290,"ĠmeiĠriĠ":12291,"kaĠsiĠdiĠliĠyaĠ":12292,"ĠxueĠxiĠ":12293,"jiĠshiĠjieĠ":12294,"nianĠhouĠ":12295,"keĠweiĠerĠ":12296,"lunĠweiĠ":12297,"shuiĠzhiĠ":12298,"reĠdeĠ":12299,"diaoĠdeĠ":12300,"ĠzhiĠqiĠ":12301,"jianĠshouĠ":12302,"ĠerĠxiĠ":12303,"ĠerĠwenĠmingĠ":12304,"dongĠxingĠ":12305,"yanĠse":12306,"tongĠmeng":12307,"guanĠbingĠ":12308,"xinĠhuiĠ":12309,"duiĠliuĠ":12310,"ĠjiaĠnaĠ":12311,"liuĠtongĠ":12312,"neiĠsheĠyouĠ":12313,"ĠyinĠqingĠ":12314,"ĠchengĠxuĠ":12315,"zengĠqiang":12316,"ziĠjiĠzaiĠ":12317,"ĠteĠlangĠ":12318,"lvĠweiĠ0":12319,"ĠzaiĠzhongĠguoĠdaĠluĠ":12320,"TT":12321,"ãĦ":12322,"ĠnvĠziĠ":12323,"wangĠliĠ":12324,"kaiĠzhiĠ":12325,"naĠdaoĠ":12326,"zhuanĠxingĠ":12327,"cunĠjiĠ":12328,"cangĠdeĠ":12329,"ĠdeĠjunĠ":12330,"fuĠdaoĠ":12331,"geĠquĠdeĠ":12332,"ĠbuĠbianĠ":12333,"zhuĠbiĠ":12334,"ĠdiĠ2":12335,"guanĠxi":12336,"ĠdaĠshengĠ":12337,"anĠniĠ":12338,"suĠlianĠdeĠ":12339,"leiĠanĠjianĠ":12340,"sanĠjieĠ":12341,"guangĠzhou":12342,"baiĠhuoĠ":12343,"chongĠfengĠ":12344,"ganĠjunĠ":12345,"ĠfaĠlvĠ":12346,"ĠerĠyiĠ":12347,"ĠguĠciĠ":12348,"ĠranĠerĠzaiĠ":12349,"ĠliuĠyueĠ":12350,"6ĠshiĠ":12351,"IR":12352,"ĠiĠ":12353,"ĠĠĠquĠ":12354,"yunĠjiĠ":12355,"qiĠbingĠ":12356,"buĠheĠ":12357,"xiĠlieĠdeĠ":12358,"shouĠxiaĠ":12359,"shouĠhuoĠ":12360,"fangĠziĠ":12361,"taiĠleiĠ":12362,"nanĠduanĠ":12363,"meiĠtiĠdeĠ":12364,"kaiĠguanĠ":12365,"ĠchuĠxianĠzaiĠ":12366,"kaiĠshiĠzhiĠ":12367,"ĠzhiĠweiĠyuĠ":12368,"sanĠshiĠnianĠ":12369,"baoĠhanĠleĠ":12370,"diaoĠchaĠjuĠ":12371,"ĠHo":12372,"ĠwuĠliĠ":12373,"ĠjianĠrenĠ":12374,"ĠzhiĠdeĠshiĠ":12375,"guoĠliĠshiĠ":12376,"ero":12377,"dangĠyiĠ":12378,"suoĠbuĠtongĠ":12379,"zhuangĠzaiĠ":12380,"47Ġ":12381,"lyĠ":12382,"ĠyouĠxie":12383,"gongĠbu":12384,"gongĠkeĠ":12385,"siĠhuĠ":12386,"jianĠtingĠ":12387,"zhuĠyuanĠ":12388,"beiĠzhanĠ":12389,"ĠdiĠxingĠ":12390,"shuĠliangĠdeĠ":12391,"fangĠyingĠ":12392,"zheĠhuiĠ":12393,"qianĠzhengĠ":12394,"junĠduiĠdeĠ":12395,"pingĠshenĠ":12396,"haiĠbaoĠ":12397,"daiĠkuanĠ":12398,"sheĠzhangĠ":12399,"dangĠneiĠ":12400,"kouĠanĠ":12401,"ĠxiangĠtongĠ":12402,"shuiĠzhunĠ":12403,"chongĠbaiĠ":12404,"daiĠbiaoĠduiĠ":12405,"zhunĠjueĠsaiĠ":12406,"Ġshu":12407,"ĠzhongĠzhiĠ":12408,"zuoĠguoĠ":12409,"muĠxiĠ":12410,"zuĠzhongĠ":12411,"caiĠyouĠ":12412,"henĠyouĠ":12413,"ĠyuĠyuĠ":12414,"ĠyuĠdaĠ":12415,"siĠyuanĠ":12416,"jiaĠciĠ":12417,"xianĠjinĠdeĠ":12418,"chuĠbingĠ":12419,"huaĠbanĠ":12420,"junĠxianĠ":12421,"junĠzhengĠ":12422,"zhenĠduanĠ":12423,"paiĠhang":12424,"hanĠliangĠ":12425,"ĠyingĠyongĠ":12426,"juĠxingĠleĠ":12427,"ĠgengĠmingĠweiĠ":12428,"OV":12429,"Ġb":12430,"ĠGe":12431,"ĠbiaoĠzhunĠ":12432,"liĠnianĠ":12433,"fuĠliĠdeĠ":12434,"qianĠheĠ":12435,"luoĠliĠ":12436,"baĠdiĠ":12437,"nengĠshiĠ":12438,"âĢ»":12439,"henĠnanĠ":12440,"binĠxiĠfaĠ":12441,"diĠdaiĠ":12442,"diĠtuĠ":12443,"daĠchen":12444,"daĠgongĠ":12445,"jiaĠqiĠ":12446,"xiangĠjinĠ":12447,"ziĠjiaĠ":12448,"ciĠzhanĠ":12449,"huaĠdaĠ":12450,"xinĠaĠjiĠtan":12451,"qianĠliangĠ":12452,"miĠlanĠ":12453,"ĠxiangĠxiĠ":12454,"pinĠkun":12455,"ĠshengĠmingĠ":12456,"ĠyeĠzaiĠ":12457,"ĠãĤ¹":12458,"tiaoĠjianĠxiaĠ":12459,"CR":12460,"Ġping":12461,"ĠxinĠxiĠ":12462,"daĠĠĠ":12463,"ruĠjiĠ":12464,"dengĠjiaĠ":12465,"linĠyiĠ":12466,"shaĠheĠ":12467,"qiangĠjianĠ":12468,"zanĠchengĠ":12469,"80ĠnianĠdaiĠ":12470,"ĠshiĠliuĠ":12471,"ĠbuĠmingĠ":12472,"shengĠriĠ":12473,"ziĠtaiĠ":12474,"chuĠxingĠ":12475,"yaĠmaĠ":12476,"shanĠguĠ":12477,"ĠxiangĠjiaoĠyuĠ":12478,"ĠdeĠjiĠheĠ":12479,"ĠzuiĠzhongĠyuĠ":12480,"feiĠliĠpuĠ":12481,"tianĠranĠqiĠ":12482,"Ġya":12483,"Ġluan":12484,"ĠmĠ":12485,"ĠpiĠpingĠ":12486,"liĠwuĠ":12487,"xueĠqiĠ":12488,"danĠheĠ":12489,"sanĠguoĠ":12490,"duanĠdaoĠ":12491,"kaoĠdeĠ":12492,"piaoĠjiaĠ":12493,"sunĠziĠ":12494,"renĠmingĠ":12495,"ĠzaiĠyuanĠ":12496,"ĠzaiĠbeiĠjingĠ":12497,"wuĠquĠ":12498,"shouĠyaoĠ":12499,"ĠriĠhouĠ":12500,"haiĠbaoĠkuoĠ":12501,
[...]
