#version: 0.2
ä ¸
ä º
ç ļ
çļ Ħ
å ħ
å ı
æ ľ
ã Ģ
å ¹
ä »
å ¤
å ľ
å Ĳ
å Ī
å Ľ
å ®
å¹ ´
ä ½
æ Ĺ
ç Ķ
å į
æ ĸ
è ¿
å °
æ ĺ
ä ¹
ç »
ãĢ ģ
åľ ¨
ä¸ º
å Ĭ
æ Ī
ä ¼
ä¸ Ģ
å Ń
å Į
å ¸
è ¯
è ®
ä¸ Ń
å Ĩ
åĽ ½
äº º
æĺ ¯
å º
æ Ŀ
å ¼
å ·
äº İ
å ¾
é ĩ
ç ī
ç §
è ¡
ç º
å¤ §
æ ī
é Ģ
æľ ī
å ±
æ Ķ
å ĩ
å Ĵ
åĴ Į
2 0
æ Ń
é ĥ
è µ
è Ģ
æ ķ
å ½
å İ
æľ Ī
å ¯
æ °
é Ļ
æ ĭ
æĹ ¥
ç Ľ
è ĩ
æ ³
å ¥
æ ł
ç İ
1 9
é ĺ
ä» ¥
åĲ İ
æĹ ¶
â Ģ
å ĳ
äº Ĩ
åľ °
æ ²
ç «
æ µ
ä¼ ļ
åŃ ¦
è §
æ Ģ
è ¾
è ´
æĪ Ĳ
é Ĺ
è ½
é Ŀ
å Ł
ä¸ ª
ç Ĳ
ä¸ Ĭ
éĥ ¨
å ī
æĸ ¯
é ķ
ä¸ İ
è¡ Į
ä» ĸ
åĩ º
ä¸ į
æ ¯
åĮ º
æ ´
æ ŀ
æ Ĭ
æ İ
åħ ¬
ç ¬
åħ ¶
åı ĳ
æ ¸
ç ½
ä½ ľ
çĶ Ł
æ Ľ
å° Ķ
åĲ į
ä ¿
ä¸ »
åĪ Ĩ
è ¢
ç Ń
è ĥ
ä¹ ĭ
é ģ
æĸ ¹
ç¬ ¬
çĶ ¨
å® ¶
å §
ãĢ ĭ
ãĢ Ĭ
è ¥
å¹ ¶
ç ¾
è¥ ¿
æ³ ķ
åĪ °
å ¿
èĢ Į
Â ·
æ ¬
é ¢
åĨ Ľ
å »
åı Ĭ
è¢ «
ä ¾
æĶ ¿
ä½ į
ç ±
çĶ ±
æ Į
æľ ¬
ç ľ
æ ±
æ° ĳ
è ·
é Ľ
é ¦
ä¸ ĭ
å¸ Ĥ
å ĵ
å¯ ¹
åĲ Į
è ģ
è ĭ
åħ ĭ
åĬ ¨
æĿ ¥
çī ¹
éķ ¿
è¿ Ļ
å¤ ļ
ä» »
èĩ ª
å¼ Ģ
éĩ Į
åĳ ĺ
åį Ĺ
é ©
åŃ Ĳ
åı ¯
æĸ °
å¹ ³
è ī
å Ŀ
è İ
åĬ ł
å¾ ·
åĮ Ĺ
ãĢ Į
ãĢ į
æľ Ģ
æĸ ĩ
å £
åĪ ©
æ Ļ
ç¾ İ
é «
åī į
ä¸ ľ
ä» £
é« ĺ
äº ļ
éĿ ¢
æµ ·
æī Ģ
¦ ģ
å¾ Ĺ
èĩ ³
ç ¤
å» º
è Ī
éĹ ´
æŃ ¤
åĨ ħ
åĽ ł
äº ĭ
âĢ ľ
ä¸ ī
âĢ Ŀ
çİ °
è¿ Ľ
çĶ µ
) ,
ä¹ Ł
çī ©
è¿ ĩ
èµ Ľ
20 1
çŃ ī
åı °
åº ¦
è½ ¦
åħ ¥
è¯ ¥
ç» ı
å½ ĵ
éģ ĵ
ç ¥
è ¦ģ
ç« ĭ
æĪ ĺ
å° Ĩ
çĲ Ĩ
ç ©
è¡ ¨
ä½ ĵ
ç Ł
ç ķ
æĭ ī
é ¡
å ¦
è °
å ²
æľ º
æķ Ļ
æľ Ł
ä¸ ĸ
è Ĳ
é ļ
æ ı
å· ¥
åĪ ¶
ç ®
èĥ ½
äº Į
å¤ ĸ
åĲ Ī
æ į
è· ¯
å® ļ
åı £
çľ ģ
å¸ ĥ
æ¬ ¡
æ Ħ
é© ¬
è® ¾
åħ ±
æĢ §
éĺ Ł
åľ º
éĢ ļ
ä¸ ļ
å± ±
å° ı
20 0
çĲ ĥ
ä½ Ĩ
è Ĭ
ä½ ¿
é ĵ
è ¶
åį ģ
ä¸Ģ ä¸ª
èĢ ħ
å· ŀ
åĮ ĸ
åħ ¨
æ ĥ
ç ³
æķ °
ç§ į
é £
ç§ °
å¤ ©
è Ĥ
ç½ Ĺ
ç§ ĳ
ç ł
æ Ł
çº ¿
ç Ļ
å¼ ı
ç± ³
ç« Ļ
éĩ į
å® ī
é Ł
èģ Ķ
æ ģ
ç Ĥ
ä¸ ¤
é Ĥ
ç³ »
æ¯ Ķ
æ ¼
ç ¼
1 0
ç Ī
æ ¡
ç ¦
ç ¨
å ¢
æĢ »
éĢ ī
è¿ Ĳ
åĬ Ľ
åİ ¿
åħ °
å£ «
çĽ ¸
éĻ ¢
æ ¹
åŁ º
åħ ³
ä¸Ń åĽ½
éĥ ½
æ² »
åİ Ł
è¾ ¾
åŁ İ
ç» Ł
å ģ
æł ¼
èµ ·
ç» Ħ
æŃ £
æĺ İ
é »
çº ¦
åı ·
èĭ ±
æ° ´
å½ ±
å° ¼
æĪ ĸ
å± ŀ
åº ľ
å ¡
æİ ¥
åı ¸
è® ¡
éĩ ĳ
çĽ ®
é¦ ĸ
çİ ĭ
è® ®
æı Ĳ
åį İ
ç Ħ
ä» ¬
éĺ ¿
åĽ Ľ
ä» İ
åĪ Ĺ
åħ ĥ
ç ģ
æ¼ Ķ
å· ´
ç¾İ åĽ½
è ĳ
0 0
å¦ Ĥ
äº §
è¯ Ń
å Ģ
é ħ
åı Ĥ
åı ²
éĩ ı
å ŀ
æĶ ¹
å¸ ¸
å¥ ³
æ ®
æ ¶
1 å¹´
éķ ĩ
åĲ ĳ
0 å¹´
è £
è į
åĬ ¡
æŀ Ĺ
5 å¹´
1 8
åĮ ħ
æ¸ ¯
å ¨
) .
æĽ ¾
æĹ ł
èİ ·
2 å¹´
äºº åı£
çĦ ¶
äº ¤
å Ķ
å® ŀ
å¿ ĥ
4 å¹´
é Ķ
åı Ĺ
é ľ
ä½į äºİ
ç» ´
æĦ ı
åİ Ĩ
ç» ĵ
èī ²
çķ Į
çº §
ä¹ Ĳ
3 å¹´
æī ĭ
å§ ĭ
ä¿ Ŀ
å§ Ķ
åĪ Ļ
ä¹ ī
æ Ĵ
å¤ Ħ
1 2
åħ ļ
è§ Ĩ
ä¹ ¦
ç ´
åĽ ¢
8 å¹´
6 å¹´
ç® ¡
å½ ¢
ç¨ ĭ
æ £
å¯ ¼
å ĭ
è® ¤
æį ®
ç± »
æ² ³
å° ±
åį ¡
éĹ ¨
æ ·
æĮ ĩ
æľĪ 2
çĽ ´
20 2
7 å¹´
åį ķ
é Ĵ
ç ĥ
è¯ ´
éŁ ³
äº Ľ
å¹ ¿
åŀ ĭ
å· ²
åº Ķ
æĺ Ł
éĽ Ĩ
ç¤ º
å¥ ¥
æµ ģ
é¢ Ĩ
ç¤ ¾
å ł
ä¼ ł
æ º
æĮ ģ
é ²
åĵ ģ
çĤ ¹
è º
æł ¡
æĽ ´
å± ķ
å¤ «
e r
ç ĭ
åĽ ŀ
è Į
ä¸ ¾
æĻ ®
æ¸ ¸
ä¸ ĩ
1 1
ç§ ¯
èº «
æ ¢
ç© º
19 9
åı į
é ª
èµ Ħ
æĶ¿ åºľ
æĥ ħ
å® ĺ
ç ¡
çº ª
äº Ķ
æ´ »
è¿ ĺ
é ¾
åĩ »
a n
æĶ ¯
é¦ Ļ
æł ĩ
æĬ ¥
æ »
e Ġ
o r
å¸ Ī
åĲ Ħ
æ¹ ¾
éĵ ģ
åĪ «
è Ĵ
éĢ ł
å¤§ åŃ¦
çº ³
è Ļ
åı ĸ
ä½¿ çĶ¨
( )
ç Ĭ
åı ¤
å² Ľ
ç ĸ
æĪĲ ä¸º
å¤ ª
æĹ¥ æľ¬
i n
åī §
å± Ģ
åħ¬ åı¸
åı ĺ
æĭ ¬
9 å¹´
ç ı
æľ ¯
åŃ Ĺ
å ķ
å¥ ¹
ç Ŀ
æĹ ı
ä¸ ĵ
åĳ ½
åĮħ æĭ¬
åľ° åĮº
éĿ ŀ
å¸ ¦
èĳ Ĺ
åĽ½ å®¶
å¼ ł
è® º
è¿ ĳ
åį ³
å¼Ģ å§ĭ
çł Ķ
æľ Ŀ
æ± Ł
åĨ ³
ä¿ ¡
è§ £
æ´ ²
æĽ ²
èĬ Ĥ
ç Ĺ
ç¥ ŀ
é£ İ
o n
çī ĩ
å° ĳ
èģ Į
ä» ¶
ä»¥ åıĬ
ç ²
è¿Ľ è¡Į
ä¼ Ĭ
åĽ ¾
è Ħ
æľ ª
ç ĵ
è® °
åı ª
ç ¿
å¹³ æĸ¹
å® ĥ
æľĪ 1
æł ¹
æĿ ĥ
æ² ¡
çŁ ³
éĻ ħ
ç¬¬ ä¸Ģ
èĭ ı
æ¯ ı
ç¼ ĸ
è§ Ĵ
è½ ¬
åı¯ ä»¥
æĶ ¾
æ³ ¢
æ ¨
äº ¬
ä¾ ĭ
åħ¶ ä¸Ń
æĶ ¶
æĿ ¡
çļĦ ä¸Ģ
åĪ Ĵ
è° ĥ
é¾ Ļ
åħ¬ éĩĮ
é¦Ļ æ¸¯
åĳ ¨
åħ ī
åķ Ĩ
åĪ Ľ
æ¸ ħ
è¿ ŀ
åĪ Ŀ
æ° Ķ
æŃ Į
ç¦ »
æĿ ĳ
å ĸ
æ ĳ
çī Ī
éĻ Ĩ
éĥ¨ åĪĨ
ç© ¶
å Ļ
å¾ Ģ
äºº æ°ĳ
å¤ ´
èİ· å¾Ĺ
è ±
åŃ £
çŁ ¥
ä¸ĸ çķĮ
Ġ 19
åı Ī
éĿ¢ ç§¯
åħ Ī
çłĶ ç©¶
åİ »
å¯ Ĩ
æŀ Ħ
åŁ Ł
æ´ ¾
ä» ¤
æī ĵ
ç» Ń
æŀ ľ
åĬ ŀ
å¼ º
éļ ı
æŁ ¥
å¨ ģ
ä¸» è¦ģ
çĻ ½
åĨ į
åħ µ
äº ī
åº §
æŃ ¦
ä»ĸ ä»¬
ç¦ ı
å¤ į
è§ Ĥ
èĤ ²
è£ ħ
åİĨ åı²
å® Į
åħ Ń
l a
åĻ ¨
è®¤ ä¸º
å¼ ķ
é¡ ¹
æ® µ
æ ļ
é¢ ĺ
è¶ ³
åı° æ¹¾
åĵ Ī
æ²¡ æľī
ä¸ Ķ
æĿ İ
ç ĳ
å¡ Ķ
æľ į
éĻ ¤
å± ħ
å® £
æ¬ §
æĪ ı
ç½ ĳ
æĴ Ń
ç» Ī
è§ Ħ
æĭ ħ
åį ı
èĲ ¥
äº ¦
è® ¸
1 5
åħ¶ ä»ĸ
æİ ¨
è ı
çĵ ¦
åľ £
ä» ½
å§Ķ åĳĺ
å¥ ĸ
åľ Ł
æ¡ Ī
ç½ ®
å½ ķ
ä¿ ®
è´ ¨
è ¨
äº ²
èĲ ¨
è¨ Ģ
çĶ ·
æĺ¯ ä¸Ģ
å Ħ
a r
æº Ĳ
ç¬¬ äºĮ
åŃ ĺ
å¸ Ŀ
ä»£ è¡¨
éĹ ®
åĭ Ĵ
Ġ 201
ä» Ĭ
è¯ Ħ
åĽ Ń
æ ¥
e n
åħ ·
ç» Ļ
æĬ ¤
ä¾ Ľ
éĽ ·
è¿Ĳ åĬ¨
é¦ Ĩ
æŃ »
æĬ ķ
åħ «
çĪ ±
æĶ¿ æ²»
çĶ± äºİ
æ³ķ åĽ½
éĢ Ł
åį ĥ
åĩ Ĩ
å® Ĺ
åį °
å¢ ŀ
è¾ ĥ
è¶ ħ
ä¼ ¯
å¢ ĥ
æ´ Ľ
19 8
å¸ Į
æ± Ĥ
åĬ Ł
è§ ģ
çĶµ å½±
çĶ »
çļĦ ä¸Ģä¸ª
æ± ī
èĩ ´
Ġ åľ¨
( ),
åĿ ĩ
åį ĩ
å¤ ĩ
1 6
åı ¦
è¯ º
åĬ ©
åį «
å·¥ ä½ľ
åį ļ
ç Į
çİ ĩ
èİ ±
éĺ ³
åĦ ¿
è¾ ¹
ä¼ Ĺ
å¥ ½
è Ĺ
é ¥
å ĥ
å® ¢
å® ¹
èĪ ª
ä¼ ¦
åĳ Ĭ
åĲĮ æĹ¶
æĹ ©
æ¨ ¡
åĽł æŃ¤
ç ª
ä¹ Į
åĲ ī
è¯ ķ
ä¿ Ħ
ä½ľ ä¸º
æİ Ĵ
åī ¯
èī º
æł ·
æµ İ
å¾ Ī
çģ «
çİ ¯
æķ ħ
å¡ ŀ
æĪ ĳ
æĶ »
åĽ½ éĻħ
é» Ħ
çĶ °
ç¾ ¤
å· ±
èĬ ±
åı¯ èĥ½
æ¯ į
ä¹ Ŀ
çĪ ¶
æĸ ½
åĵ į
çı Ń
è ħ
åĽ ´
è¡¨ ç¤º
æĬ Ģ
s Ġ
ä¸Ń å¿ĥ
æķ ´
é² ģ
æ² Ļ
ç» §
åĮ »
1 7
æĭħ ä»»
å¤ ±
å¸Ĥ éķĩ
çŃ ĳ
èĲ ½
çĹ ħ
ä¸Ń åįİ
åħ ´
è¯ ģ
ç» ĩ
ç³» ç»Ł
ä¹ĭ åĲİ
åĽł ä¸º
æ ¦
è´ £
ä¹ ¡
å¿ Ĺ
å¸ Ń
éĩ ĩ
éĺ ²
èĪ °
å® ¤
è Ń
å± Ĥ
æī ĺ
éĿ Ĵ
çĽ Ł
3 0
ä¸ ĥ
æĦ Ł
èŃ ¦
éľ Ģ
çĻ »
å½ĵ æĹ¶
åĨ ł
çĭ ¬
èĭ± åĽ½
è´ Ł
åį Ĭ
é º
æ¹ ĸ
æĹ¶ éĹ´
æ¸¸ æĪı
éĢļ è¿ĩ
å£ °
çĶµ è§Ĩ
å§ Ĩ
éĤ £
çĻ ¾
éħ į
ä»ĸ çļĦ
ç ¢
èĩª å·±
åı Į
è½¦ ç«Ļ
) ãĢģ
éĻ Ī
ä¸Ń çļĦ
æł¹ æį®
a l
åł Ĥ
é» ĳ
åıĳ çİ°
æĺ ĵ
çĥ Ń
çļ ĩ
åĨ Ļ
( ,
è¡Į æĶ¿
ç¡ ®
çº ¢
çĬ ¶
é£ ŀ
åıĳ å±ķ
æĪĲ ç«ĭ
æģ ©
ä½ ķ
å¤ ı
æľŁ éĹ´
æ· ±
ä» į
èĢ ĥ
æŀ ģ
ä½ ı
åį ł
ç ħ
é ±
åħ± åĴĮ
æ£ ®
è¡ Ĺ
è¶ Ĭ
éĻ Ĳ
å¤ ®
å° Ħ
é ¸
é± ¼
çĶ ²
æŃ ¥
a t
è®¾ è®¡
ç¤¾ ä¼ļ
âĢ Ķ
é£ Ł
è® ©
1 4
âĢĿ .
å»º çŃĳ
äºİ 19
åĥ ı
åŁ ĥ
è± ¡
ä¹ĭ ä¸Ģ
æĽ ¼
æĿ Ģ
å¯ Ł
è´ ¹
èĮ ĥ
ãĢį ,
å± Ĭ
æİ §
æī ¹
ç¥ ¨
ä» ħ
è¿Ļ äºĽ
æ ½
è´ Ŀ
æĻ ¯
ç»Ħ ç»ĩ
æĸ Ļ
æ Ĥ
åŃ¦ éĻ¢
å¥ ĩ
æ´ ĭ
å² ģ
åıĤ åĬł
ä¸į åĲĮ
æµ ĭ
çķ Ļ
èĢ ģ
ä¸Ń å¤®
å§Ķåĳĺ ä¼ļ
è¿ ª
åĨ ľ
æ¥ ¼
æĸĩ åĮĸ
ä½ İ
æŃ ¢
ä¸ĸ çºª
å· Ŀ
å½± åĵį
æ¯Ķ èµĽ
èĥ ľ
éĿ ©
è¯ į
åĵ ¥
ç§° ä¸º
å¾ ĭ
çī Į
é¡ ¿
s t
æĥ ³
å±ŀ äºİ
æİ Ī
f or
æķ Ī
å ĺ
æ³ °
è¾ ĸ
ä¾ ¿
å¹³æĸ¹ åħ¬éĩĮ
æ ¤
æľ ¨
éĻ į
åĩ ł
ç§ »
è¿ °
çľ Ł
i c
1 3
æ ħ
åģ ľ
æī į
æ° ı
éĵ ¶
æ¡ ¥
ãĢį .
èĴ Ļ
æĪ ¿
å¿ µ
æĺ ¾
éŁ³ ä¹Ĳ
æī ¿
æĢ ģ
çĿ Ģ
è´ ¥
å ©
ç´ ¢
æ ¾
åħ±åĴĮ åĽ½
åº ķ
åº ·
åº ĵ
é¢ Ħ
ä¸» ä¹ī
é Ń
m u
åŃ¦ æł¡
å¾ ģ
ç´ ł
æ´» åĬ¨
20 å¹´
çī Ļ
è¾ ĳ
çľ ĭ
å¼ ¹
åĶ ±
åħ ¸
ä½ľ åĵģ
æŃ£ å¼ı
æ¶ Ī
æıĲ ä¾Ľ
åĪ© äºļ
ç® Ģ
è®¡ åĪĴ
åĩº çİ°
ç½Ĺ æĸ¯
è½ ½
ä¹ ł
19 4
æīĢ æľī
æģ ¯
ä» ·
å ³
ä¹ĭ éĹ´
éĻ Ħ
ç»ı æµİ
ç®¡ çĲĨ
åıĳ çĶŁ
æľĢ ç»Ī
éĵģ è·¯
çł ģ
âĢĿ ,
çĳ ŀ
æī §
æĹ¶ æľŁ
è¿ ľ
19 7
åĿ ¦
æĪ ·
å¹ ²
åı ĭ
åŁİ å¸Ĥ
åĨ µ
ç® Ĺ
ä¾ §
æķĻ èĤ²
ç¥ ĸ
éĢ Ģ
éŁ ©
å® Ī
æ» ¡
äº ĳ
åĲİ æĿ¥
æ³ ¨
èĪ ¹
mu la
å½ĵ åľ°
è¯ ·
è¯ Ŀ
Ġ S
æ¸ ©
éĤ ¦
for mula
5 æĹ¥
åĢ Ļ
ä½ Ļ
ä½ Ľ
æ Ĳ
æĬ Ĭ
ç« ł
ä¸ ģ
è¿Ļ ä¸ª
i t
ç² ¾
æĬ Ĺ
å® ģ
ãĢĭ ,
çĽ ĳ
æľĢ åĲİ
åĪ¶ ä½ľ
åł ¡
Ġ 200
æľ Ľ
a m
æĹ §
è´Ł è´£
å¾· åĽ½
å· ¦
æĪĲ åĳĺ
ä¸Ĭ çļĦ
æĭ ¿
éĹ® é¢ĺ
æľ Ĺ
éª Į
åĬ ¿
è¿Ľ åħ¥
æĢ Ŀ
ä¸ ´
è®¸ å¤ļ
åĪ ĺ
å ´
çª ģ
é ¹
çł ´
å¿ «
å® «
æĹ ħ
ä¾ Ŀ
19 5
d Ġ
åİ ĭ
åº Ħ
ç¬¬ ä¸ī
åĲį ä¸º
èİ «
ä¼ ¼
ä¹Ł æĺ¯
æĪĺ äºī
e l
å¯ Į
æ¢ ħ
çĿ £
åĢ ¼
12 æľĪ
åģ ļ
åħ¨ åĽ½
æĶ¯ æĮģ
å° ģ
èĹ ı
æ° ¸
åĲ «
Ġ 202
6 æĹ¥
å» ¶
7 æĹ¥
æĸ Ĺ
èĴ Ĥ
19 6
ä¸Ģ äºĽ
æĭ Ķ
çĶŁ æ´»
åİ ħ
åį ¢
äºº çļĦ
çħ §
äº ¡
æľį åĬ¡
å¼ Ĺ
éļ ¾
åİ Ĥ
ç» Ĩ
æ¾ ³
4 æĹ¥
åĪ ¤
æ ĵ
æł ¸
10 æľĪ
æŀ ¶
ä¸ ¹
å¤§ çļĦ
éģ Ĺ
ä¼ ¤
å°¼ äºļ
å®£ å¸ĥ
çļ ®
èĻ ½
9 æľĪ
7 æľĪ
å½ Ĵ
åį° åº¦
åı ³
ä¿Ħ ç½Ĺæĸ¯
å·² ç»ı
è¯ Ĩ
åº Ĩ
8 æľĪ
åıĤ ä¸İ
åľ° æĸ¹
ä¸¾ è¡Į
æĸ Ń
åħ³ ç³»
3 æĹ¥
åıĳ è¡Į
éĹ »
3 æľĪ
ç Ĩ
è½ ®
5 0
åįĥ ç±³
é ½
5 æľĪ
åı ¶
äºİ 201
ä¸ ½
æĿ °
åº Ĺ
æĸ¹ éĿ¢
ç¤ ¼
åĶ Ĳ
åĨ³ å®ļ
å·¥ ç¨ĭ
ï ¼
åĲĮ å¹´
éĩį è¦ģ
è Ľ
è¶³ çĲĥ
r o
åĮĹ äº¬
åĪ ĩ
ä¸¤ ä¸ª
ä¼ ĺ
çŃ ĸ
ä¸ ¥
20 20å¹´
ä¸Ĭ æµ·
r e
åº Ń
èµ °
t h
6 æľĪ
å¿ ħ
è¯ »
æĭ ¥
19 å¹´
ç» Ŀ
éģ Ń
1 æľĪ
0å¹´ ä»£
å° ļ
èģĶ åĲĪ
äºº çī©
å¼ Ĥ
åĺ ī
éĥ ¡
äºĭ ä»¶
ç» ĥ
æį ¢
åĮĹ éĥ¨
åĨł åĨĽ
é© »
å½ ¹
èµ «
åŃ¦ å®¶
èĬĤ çĽ®
æ¤ į
Ġ çĶŁ
å² ¸
éº ¦
éĩ İ
åŃ¦ çĶŁ
å¼ Ł
ä¼ļ è®®
19 3
æ² ¹
äººæ°ĳ åħ±åĴĮåĽ½
æĬĢ æľ¯
4 æľĪ
éĢ Ĳ
åĶ ®
èĥ Į
11 æľĪ
æ¯ ķ
æĿ ¾
åĪ° äºĨ
åĬł åħ¥
é ³
å¯ º
èī ¾
è ĵ
åį ´
ä¿Ŀ æĬ¤
00 0
åĪĹ è½¦
ä¹ ħ
æĢ» ç»Ł
æ¬§ æ´²
ç½ ²
èı ²
éļ Ĩ
è®¾ æľī
æĻ ļ
é ¼
å¹³æĸ¹ åįĥç±³
Ġ C
èĪ ¬
å ª
æĿ¥ èĩª
åĪĨ åĪ«
ç« ¯
ä¸º äºĨ
çĽ® åīį
ç ¯
æĺ ¥
çŁ Ń
éĢ ģ
åħ ¹
åĪĨ å¸ĥ
åħĭ åħ°
éľĢ è¦ģ
ç³» åĪĹ
ä¹ ĺ
ä½ ³
å° ½
æĿ Ł
i l
å® Ŀ
å®Į æĪĲ
çļĦ äºº
ä¸Ńåįİ äººæ°ĳåħ±åĴĮåĽ½
éĢļ å¸¸
é¡ º
æ°ĳ åĽ½
ä» Ģ
æ² ¿
æľ «
æĹ Ĺ
å»º ç«ĭ
åĲ ¯
èį ī
æĺ¯ åľ¨
åįĹ éĥ¨
åº ı
åŃĺ åľ¨
éĺ ¶
éĺ µ
èį ¯
å¯¼ èĩ´
èĢ ¶
éĽ Ħ
éħ Ĵ
æļ ´
æĸ¯ çī¹
æ¯ Ľ
æĪĲ åĬŁ
i on
æ³ ½
åħ ¼
é¢ ĳ
åħ± æľī
åĨ ²
è½ »
è¦ģ æ±Ĥ
æĳ Ħ
çĭ¬ ç«ĭ
è· Ŀ
çĦ¶ èĢĮ
äºĨ ä¸Ģ
ç»Ħ æĪĲ
ä¾ĭ å¦Ĥ
æĳ ©
æľĢ é«ĺ
a Ġ
éĶ Ģ
æľĪ1 æĹ¥
æ¬ ¾
c h
è¾ ĵ
åįķ ä½į
Ġ åİĨåı²
èĻ½ çĦ¶
æµ· æĭĶ
å¼Ģ åıĳ
æĭ¥ æľī
å¸ ķ
o l
èĩª çĶ±
ãĢģ ãĢĬ
e t
çģ µ
åŃ Ļ
ä¸ĵ è¾ĳ
çŃ ¾
åª Ĵ
çĽ¸ åħ³
ä¹Į åħĭåħ°
ãĢĭ (
ç± į
å© ļ
çİ Ľ
æĥħ åĨµ
çĶ¨ äºİ
ç½ ª
é¡ »
èīº æľ¯
ĠçĶŁ å¹³
æĿ Ĥ
çº ½
é¥ °
æ£ Ģ
éĽ ħ
å¹¶ ä¸Ķ
é¡ ¶
çĲĥ éĺŁ
éĢī ä¸¾
å¯Ĩ åº¦
æĿ ¨
èģĶ çĽŁ
y Ġ
éĩĩ çĶ¨
ä»ĸ åľ¨
æŀ ª
å Ĥ
æıĲ åĩº
ä» ĭ
åīį å¾Ģ
8 æĹ¥
åĬ ³
ç§ Ģ
åħ į
o u
çķ ¥
åıĹ åĪ°
æ² ĥ
å· ®
æĭ į
2 5
éĢ ı
è¿ ½
å® ³
äº ¿
æ ¿
å· ¡
20 19å¹´
ãĢĭ .
æĸ¹ å¼ı
çĽ ĸ
åĩ ı
èĭ ¥
è§Ĵ èī²
è´ ¢
äºº åĳĺ
éĴ Ł
è¢ Ń
è¿ ģ
éĩ Ĭ
åĽ½ æ°ĳ
çļĦ å¤§
äºĮ åįģ
æĿ ¿
èī ¯
å° ¾
åĲ ´
è® Ń
è ŀ
åħ· æľī
èį £
æĿ ¯
åĲĪ ä½ľ
è° ·
i s
çĪ Ĩ
éħ ¸
äº¤ éĢļ
æķ £
è¿Ļ ä¸Ģ
æı ´
æł ĳ
æŃĮ æĽ²
åĩº çīĪ
å¤§ éĻĨ
e s
éĽĨ åĽ¢
èģĶ èµĽ
äº§ çĶŁ
ç £
æĺ ł
è¿Ļ ç§į
2 æľĪ
Ġ M
é¦ĸ æ¬¡
å® ĭ
ä¼ ģ
è¯ ĳ
è´ Ń
äº Ī
2 4
æķ° æį®
åĸ Ħ
± ä¹Ĳ
å¾ ®
é» İ
å¹¶ åľ¨
æ´ ¥
1 æĹ¥
èĤ ¡
å° º
è¡ ¥
çī¹ åĪ«
æ¯ķ ä¸ļ
è® ¿
å± ĭ
ç»§ ç»Ń
æŃ¤ å¤ĸ
å® ¡
è´ µ
äº Ĵ
l t
è¡ Ģ
é«ĺ åº¦
é¡¹ çĽ®
ç»ĵ æĿŁ
æĻ ĭ
è½ ¨
çĥ Ī
äºİ 200
ä¸ª äºº
åģ ĩ
ä½Ĩ æĺ¯
è® ¯
éŁ ¦
ã ĥ
åľ° çĲĨ
ãĢĭ ãĢģãĢĬ
åħ »
éĻ ©
ç»ĵ æŀĦ
èĩ £
çĶŁ äº§
ä¸Ģ èĪ¬
z h
å¸Ŀ åĽ½
é¢ Ŀ
æı ı
ä»¥ ä¸ĭ
æī ©
æĺ¯ ä¸Ģä¸ª
éĥ¨ éĺŁ
è¥¿ äºļ
è¯Ń è¨Ģ
æķ ĳ
äººåı£ å¯Ĩåº¦
æ¯ Ĵ
æİ§ åĪ¶
é² ľ
å¯¹ äºİ
åĸ ľ
ç§ĳ åŃ¦
æİ¥ åıĹ
å½¢ æĪĲ
ç« ŀ
åıĸ å¾Ĺ
ä»» ä½ķ
æĹ¶ ä»£
æµ· åĨĽ
è¡Į åĬ¨
ä¸» å¸Ń
åĮº åŁŁ
æĮ ¥
å³ °
éĿ¢ç§¯ ä¸º
æķħ äºĭ
å¤ º
æĿ ľ
æ°ĳ ä¸»
èĪ ŀ
æľī ä¸Ģ
æ¦ Ĥ
9 æĹ¥
éĶ ¦
è¯ Ĺ
åĩº çĶŁ
æĹł æ³ķ
è® ²
éĢ Ĥ
éĢ Ķ
æĭ ľ
ä¸ °
æľº æŀĦ
4 0
çİ ©
çĶ ļ
å¢ŀ åĬł
Ġ A
éĢł æĪĲ
2 1
åĮº çļĦ
æľ ±
å¸ ģ
çĸ Ĺ
é½ Ĳ
æ¢ ģ
èį ·
è¾ Ĩ
éĻĦ è¿ĳ
ä¸» æķĻ
è¶ħ è¿ĩ
ç§ ĺ
å» ·
g t
çļĦ æĺ¯
é¢Ĩ å¯¼
æĮ ī
ä¼ł ç»Ł
ç»ĵ æŀľ
ç½Ĺ é©¬
å¾ Ħ
ä¸į è¿ĩ
ç ĩ
å® ¾
éļ ¶
ç ¦ģ
a c
2 3
æĴ ¤
ä¸Ń åħ±
l e
åĿ Ģ
æĿ Ĳ
åį Ī
è´ §
å°ı æĹ¶
åĩ ¯
åĬ¨ çī©
æ¸ Ĳ
10 0
çļĦ æĹ¶
çĬ ¯
èĥ ¡
éļı åĲİ
åı¦ å¤ĸ
åĨĽ äºĭ
æĺ¯ ä½įäºİ
ç« ¥
æķ ¦
èĪª ç©º
åľ Ĩ
ä½ ©
çĽ Ĭ
ä» ª
å¤ Ł
æłĩ åĩĨ
o m
åıĳ å¸ĥ
èģ ļ
è° ¢
in g
æĸ° éĹ»
éª ¨
æ· ·
çĮ ®
åĨħ çļĦ
çĽ Ľ
6 0
è¿ Ķ
ä» ģ
éĥ İ
ä¸Ģ çĽ´
éĺ¿ å°Ķ
çī Ľ
çļ Ĩ
æķ° éĩı
æŁ Ĳ
è® ¨
ç¿ °
åĪ ĳ
ç© Ĩ
çĤ ¸
æį ķ
2 2
å¨ ľ
éĿ© åĳ½
èĮĥ åĽ´
å¤§ åĪ©
å¸ ®
åªĴ ä½ĵ
éĻ¤ äºĨ
å® ½
å¾Ĺ åĪ°
æľº åľº
å¥³ æĢ§
èĮ ¨
å®ī åħ¨
è°ĥ æŁ¥
è¿ĩ ç¨ĭ
è§ ī
å°± æĺ¯
æİ ¢
ä¹ĭ åīį
æł¼ åħ°
ç»ı è¿ĩ
çĤ ®
æĻ º
åº Ļ
åı¦ ä¸Ģ
åĨħ å®¹
åħ¬ åĽŃ
çĪ¶ äº²
å¹ ķ
æĪ ª
åĲ ¦
éģ ĩ
å¤ ľ
: âĢľ
(, ),
éŁ© åĽ½
çĶ· åŃĲ
ä¹ Ķ
åįģ äºĮ
éľ į
èµ ŀ
åħ ħ
è Ķ
æĭ ©
è½ ¯
éĩį æĸ°
å¥³ åŃĲ
åĪ »
æīĢ ä»¥
éľ ²
èµĽ äºĭ
æĽ ¿
ä¼ ĳ
å° ¤
ç§ ģ
åĪ º
ä½į ç½®
å¹³ åĿĩ
201 0å¹´
èĩªå·± çļĦ
è ĸ
å «
Ġ P
åıª æľī
çİ ī
è¿ĲåĬ¨ åĳĺ
æŁ ĵ
çºª å¿µ
å±ħ æ°ĳ
æĿ¥ çļĦ
19 2
å¦Ĥ æŀľ
é¸ Ł
åĪĽ ä½ľ
åıĳ è¡¨
åº Ł
ç¼ º
éĿ ł
ä¸ Ŀ
ã ģ
æľī åħ³
éĴ Ī
æķ Į
åĢ Ł
æĺ Į
çİ° ä»£
è®¾ ç«ĭ
r i
ç» ©
è¯ ī
æº ª
æľī éĻĲ
æĬ µ
éĤ ®
è¡Į ä¸º
èģĶ éĤ¦
åĲ Ľ
. âĢĿ
å· ¨
è ľ
åĲ ¸
å® ĩ
å±ŀ çļĦ
è¥¿ çıŃ
è· Ł
çĪ µ
ä¹ ±
èĵ Ŀ
è¥¿çıŃ çīĻ
éª ĳ
å¾ ¡
å® ª
çľ ¼
è®® ä¼ļ
åıį å¯¹
æ¼Ķ åĳĺ
æ¤į çī©
åĮº ä¸º
åĿ ¡
æ® ¿
åħ± äº§
æķĻ æİĪ
æį Ł
å¾ Ĵ
éĽ ª
å·¥ ä¸ļ
åĽ º
æ°ĳ æĹı
è¯ ¸
ä¾ µ
åĪ Ĭ
Ġ T
çīĪ æľ¬
åĮ ¹
åĲį çļĦ
ç¬¬ åĽĽ
éĢ ĥ
åħ¬ è·¯
çĽ´ æİ¥
çİ° åľ¨
éļ Ķ
è ª
åħĭ æĸ¯
å»º è®¾
èģĮ ä¸ļ
æī ¾
çİ¯ å¢ĥ
è° ĭ
æĺ¯ çĶ±
ä¸¾ åĬŀ
èĦ ĳ
æ¶ ¯
ä¸Ń åŃ¦
ä¹ İ
éĢī æĭ©
åĨĽ éĺŁ
çĹ ĩ
åĩº çļĦ
éĿŀ å¸¸
ç¿ »
æ¬ ¢
èĭı èģĶ
åıį åºĶ
ç¼ĸ çłģ
ä½ ł
çĶ ³
åħ¬ å¼Ģ
ä½ĵ èĤ²
å£ ¤
éĥ ĳ
åĲį ç§°
è¯¥ åľ°
å² ©
æ¦ ľ
è£ ģ
èµĦ æĸĻ
åħ± åĲĮ
ä¸ī å¹´
æ± ĩ
éĵ¶ è¡Į
å½¢ å¼ı
åĨ³ èµĽ
ç© ¿
æĪĺ æĸĹ
Ġ B
è¡Į æĺŁ
åħ Ħ
åı ¬
åĨ °
æĺ¾ ç¤º
éĤ »
æ¼ «
åįı ä¼ļ
æĢ ¥
æ¿ Ģ
è·Ŀ ç¦»
o f
å¥ ī
æĸ¹ æ³ķ
ä¸Ģ ç§į
å¤§ éĩı
ç» ľ
æĶ¹ ä¸º
éķ ľ
æĪ Ī
åŁ ¹
Ġ 199
u n
åĶ ¯
Ġ åľ°çĲĨ
è¯ ¾
å°ı è¯´
ç¬ ¦
èĥ ŀ
åĪ© çĶ¨
æĹ¶ çļĦ
å¤ļ æķ°
ä¸Ģ èµ·
åĲ ¬
éĥ¨ éķ¿
ä¹Ł æľī
æ¯ ģ
è®® åĳĺ
èĬ ¬
è¿ «
ç¾İ åħĥ
ä¹¦ è®°
ä¼ģ ä¸ļ
è® ¢
è° Ī
æĸ° çļĦ
åĳ ¼
é» ĺ
åĮħ åĲ«
èĩª æ²»
å¾ ħ
æ³ķ å¾ĭ
éĽ ¨
é Ĩ
ç®¡ è¾ĸ
æĮĩ æĮ¥
åĳ Ī
èĤ ¯
t Ġ
å°Ķ æĸ¯
åģ ¥
å®Į åħ¨
å¹¶ ä¸į
ä¸» ä»»
æĢ Ģ
èĢ ³
åĪĨ ä¸º
åı° åĮĹ
ä¸Ńåįİ æ°ĳåĽ½
Ġ æľ¬
ï¼ į
çĸ ĳ
æ³ Ľ
è¿Ļ æĺ¯
å®¶ åºŃ
èµ µ
åĿ ļ
ä¸ľ åĮĹ
8 0
æ³ķ éĻ¢
çĽ´ åĪ°
äºº ç±»
å¤Ħ çĲĨ
èİ ī
éĻ µ
æĦ ¿
âĢĶ âĢĶ
ã Ĥ
æĵ į
æĹ ĭ
æĪĳ ä»¬
å®¶ æĹı
èĩª çĦ¶
çĶŁ æ¶¯
å§ ĵ
åŃ¦ ä¹ł
åĨį æ¬¡
è¿ĺ æľī
æ¶ ī
çĶµ åŃĲ
éĥ½ æĺ¯
æŀ ļ
202 1å¹´
a s
é¢ Ĺ
æĶ¿ çŃĸ
åħ³ äºİ
çĶŁ çī©
æĪ ´
æ¯ «
åŃ ©
èĦ ±
åĲİ çļĦ
æĢ§ çļĦ
2 7
åĬ¨ çĶ»
æī§ è¡Į
çĶļ èĩ³
æĮĩ åĩº
çĲĨ è®º
u r
è¡¨ çİ°
èŀ į
: ãĢĮ
å°Ĩ åĨĽ
å¿ħ é¡»
ä¸Ģ å¹´
åĮ» éĻ¢
å®ĥ ä»¬
202 2å¹´
æļ Ĥ
åŁº ç¡
åį ±
ç» ¿
ä»¥ æĿ¥
æĺ¯ä¸Ģ ç§į
å¦ »
ç§ ĭ
çĽ ĺ
ä¸ľ éĥ¨
æľĢ ä½³
æģ Ĵ
å°½ ç®¡
å¢ĥ åĨħ
èĪ į
o w
æī İ
æľĢ åĪĿ
åĿ Ĳ
è Ŀ
é¡ ¾
æĸĩ åŃ¦
åŁºç¡ Ģ
åį ·
æ¨ ª
å½ĵ ä¸Ń
ç¾ ½
æŁ ı
ä¸ŃåĽ½ å¤§éĻĨ
ä¹ Ī
ä¸º ä¸»
åĬ ª
å®ĺ æĸ¹
ç¿ ¼
ç´ §
åįļ çī©
èī ĩ
åķĨ ä¸ļ
ç¯ ĩ
çľģ ä»½
è¾ Ľ
æĶ» åĩ»
æ» ¨
æĦı å¤§åĪ©
è´ ¡
3 5
åħ¬ åħ±
å¥ ı
ä¹ °
çī© ç§į
æŃ» äº¡
æ¡ ĳ
éĴ ±
æĬ¥ åĳĬ
ç±» ä¼¼
åĿ ı
200 1å¹´
æĻ® æŁ¥
éŃ Ķ
ç¼ ©
2 8
æľĿ é²ľ
æĶ¿æ²» äººçī©
æ´ ª
è¯¥ åĽ½
å¸Ĥ åľº
æĹ© æľŁ
èĥ½ åĬĽ
¤ Ĳ
æ½ ľ
a d
2 6
å®ŀ éĻħ
ãĢį (
äºļ æ´²
è Ĩ
æıı è¿°
å¢ ĵ
201 1å¹´
è¯ ¯
ä¸ĭ çļĦ
è§Ħ æ¨¡
çº¦ ç¿°
o Ġ
åĽ¢ ä½ĵ
ä¹ĭéĹ´ çļĦ
åĬł æĭ¿
åħ¶ åĲİ
éģ ¿
å¿ ł
åŃ¦ åĲį
åħ¨ çĲĥ
ç» į
æ® ĸ
åİ» ä¸ĸ
æĭį æĳĦ
å¤§ ä¼ļ
æł ĸ
æµ·æĭĶ é«ĺåº¦
çģ Ń
è¥¿ éĥ¨
å¤ĸ äº¤
, ãĢĬ
Ġ äººåı£
å¹¿ ä¸ľ
çļĦ åľ°
éľ ĩ
æµ Ļ
åĪ¶ éĢł
éĵ ľ
èĥ½ å¤Ł
ä¸¥ éĩį
å» ī
ç¦» å¼Ģ
ç« ¹
çĸ «
åŁº æľ¬
å®Ĺ æķĻ
æģ ¶
æ± ½
å® ľ
è¿ ·
ä¼ į
çºª å½ķ
é³ į
ä½ľ çĶ¨
è¿ ¹
i g
éĹ Ń
å¥ Ĺ
æĮģ ç»Ń
äºİ 18
æİ¨ åĩº
åĿ Ĺ
åģ ı
ä» ĺ
äºİ æĺ¯
è®¡ ç®Ĺ
è·¯ çº¿
200 9å¹´
æī ¬
u s
ç¼ĸçłģ ä¸º
åħ±äº§ åħļ
äºĭ åĬ¡
åŃ Ķ
ç©º éĹ´
çļĦä¸Ģä¸ª å¸Ĥéķĩ
èµ ĸ
7 0
è¡ £
è¿ İ
201 6å¹´
å¥¹ çļĦ
æ³ ī
çļĦ ä¸»
åĪ ļ
è¾ ħ
å¸Į æľĽ
ä»» åĬ¡
çĽ® æłĩ
ä¸į æĺ¯
æŀ Ĳ
èĦ ī
200 8å¹´
æ± ł
ç»Ł æ²»
Ġ æł¹æį®
ä¸ī ä¸ª
æĸ¯ åĿ¦
æİ¥ å£¤
èª ī
ä¼ °
2 9
æĸ¹ åĲĳ
e c
æ¸ ¡
æģ Ĳ
ç¼ ĺ
æĸĩ çī©
ä¸Ģ åĲį
ç¬¬ åįģ
ä¸ľ åįĹ
åĬŁ èĥ½
äºİ 199
èĳ £
æ¼Ķ åĩº
éļ ľ
å¼ ĥ
åįķ æĽ²
éĺ¿ æĭī
19 0
ãĢ ī
ãĢ Ī
åĬłæĭ¿ å¤§
çº½ çº¦
å¢ ¨
éĶ¦ æłĩ
æĭ Ľ
äº «
è· ¨
è®¾ æĸ½
æľĪ åı°
èµ ¤
å¯ »
å®ļ çļĦ
èµĽ åŃ£
èħ Ĭ
åī ĳ
éĢı è¿ĩ
çĶ ĺ
è¢« ç§°ä¸º
äº ķ
ä¿ ±ä¹Ĳ
t er
éĶ ¡
éŃ ı
çĲĥ åĳĺ
éĢ Ĭ
éĺ »
ä»į çĦ¶
åįļçī© é¦Ĩ
åĪĨå¸ĥ äºİ
åıĺ åĮĸ
ä¿±ä¹Ĳ éĥ¨
æĽ¾ ç»ı
æĥ ł
è´ ¸
201 2å¹´
Ġ L
è§£ æĶ¾
çĳ Ł
åĽ½ çİĭ
é¢ ģ
åħ¬ å¸ĥ
ä¸Ģ æ¬¡
å·´ å£«
åĲĪ å¹¶
å¼Ģ æĶ¾
å¹¿ æĴŃ
åĨ ¬
ç» ĺ
Ġ è¯¥
åħĭ éĩĮ
å¤§ åĮº
äº ®
201 8å¹´
å°Ĩ åħ¶
èĤ ī
è¾¾ åĪ°
ä¸į èĥ½
èĢĮ ä¸Ķ
å®ŀ éªĮ
èµ ¢
åĶ¯ ä¸Ģ
åİŁ åĽł
æİĴ åĲį
åĽĽ å¹´
. ãĢį
201 4å¹´
è ¸
202 3å¹´
éĢĲ æ¸Ĳ
4 5
æį ·
èı Į
åıĳ åĬ¨
çĥŃ å¸¦
çº ²
åĦ¿ åŃĲ
ç» ¼
é©¬ æĿ¥
äººåı£ æĻ®æŁ¥
åĵ ²
å½ĵ éĢī
çŁ ¿
è¿ŀ æİ¥
i d
æ¨¡ å¼ı
i r
å¾ Ĳ
è¡ĮæĶ¿ åĮº
åľ¨ æŃ¤
ç ¹
è¾ ŀ
ç¬¬ä¸Ģ æ¬¡
ä¸ľ äº¬
åı· çº¿
çģ ¾
èĴĻ åı¤
ä¸» æĮģ
å®ļ ä¹ī
è¿ĲåĬ¨ ä¼ļ
æĴŃ åĩº
æľīéĻĲ åħ¬åı¸
éĺ ´
çĽ¸ å½ĵ
èĽ ĭ
201 5å¹´
åĲĦ ç§į
è®Ń ç»ĥ
201 3å¹´
æ´ ŀ
ç¨ ³
Ġ R
ç»Ĩ èĥŀ
æ½ ®
èĢħ çļĦ
åĩ» è´¥
å¦ ĩ
å¤ª å¹³
åı Ļ
çĽ¸ åĲĮ
æ¼Ķ åĶ±
é£İ æł¼
e m
çĬ ¹
å¤ª éĺ³
4 8
å¦ ¹
Ġ ä¸İ
ç¹ ģ
I N
æ° §
éģĵ è·¯
ä½ Ĳ
Ġ D
æĪĲ ç»©
æľĪ2 8æĹ¥
æļ Ĺ
(, )
æŃĮ æīĭ
æİ Į
æĭ Ĵ
å¥¥ è¿Ĳ
è§Ħ å®ļ
ä½¿ å¾Ĺ
æ» ĳ
æľĪ1 5æĹ¥
åı¸ ä»¤
æģ ¢
çİ© å®¶
ä¸ĵ ä¸ļ
Ġ formula
19 1
éĺ¶ æ®µ
éĴ ¢
T C
äºº å£«
9 0
è¥¿ åįĹ
åĢ Ĵ
åĨ ·
ä¸įåĲĮ çļĦ
åĨ Į
ä¸Ģ æł·
å°Ķ çľģ
æī¹ è¯Ħ
20 æĹ¥
çŃī äºº
th eĠ
è¥¿ åĮĹ
èĻ İ
çĲ ´
ç§ Ł
å»º éĢł
è®¾ ç½®
äº§ åĵģ
ä¼ Ĳ
âĢ ĵ
201 7å¹´
åĬŀ åħ¬
è½¨ éģĵ
éĿĴ å¹´
æĺ Ĥ
ç¨ İ
10 æĹ¥
Ġ G
é© ±
ä¿ Ĺ
30 æĹ¥
å¾ ½
ä¸º äºº
çı ł
ä»ĸä»¬ çļĦ
éº »
èī ĺ
å¥ Ī
éĶ Ļ
ç¡ ¬
åĿ ĳ
o d
èĥĮ æĻ¯
åľ Ī
å¹ ¼
åĳ ³
3 3
çĶ º
çĪĨ åıĳ
å½ ¼
æµĻ æ±Ł
åĪĨ éĴŁ
å°ı è¡ĮæĺŁ
æĤ £
e d
çļĦä¸Ģ éĥ¨åĪĨ
éĺ ģ
èĳ ¡
Ġ19 8
å¤§ æĪĺ
å¢ Ļ
å½ ©
ä¼¦ æķ¦
ä¹ Ļ
åŃ¦ èĢħ
æµ ¦
æģ¢ å¤į
åľŁ åľ°
åºĶ çĶ¨
å¸Į èħĬ
ä¸ī åįģ
æĶ¹ éĿ©
åį ĸ
å¹´ çļĦ
æ¯į äº²
è§ ¦
Ġ çļĦ
ä¸į ä¼ļ
èº« ä»½
çº ¸
å¯ ¿
u m
éĥ¨ éĹ¨
èŃ¦ å¯Ł
ç¬ Ķ
200 7å¹´
å±± ä¸ľ
è± ª
åĽ °
æ® ĭ
202 4å¹´
é£ŀ æľº
i m
åĪ¶ åº¦
% ,
åī Ĥ
èİ İ
è ķ
ä¿ ĥ
ä¸ĭ è¾ĸ
æľĪ2 5æĹ¥
åĳ½ åĲį
è¯Ħ è®º
æĭī æĸ¯
è¿Ľ å£«
ç² ī
æľĢ å¤§
âĢ ¦
æĬķ èµĦ
èĦ ļ
éĢ Ŀ
é«ĺ éĢŁ
ç½ĳ ç»ľ
çļĦ æĸ°
å¤§ éĥ¨åĪĨ
å¤ı åŃ£
Ġ 18
è£ Ĥ
è¿Ļ æł·
è®° è½½
æ¡ £
æ¥ ļ
æµ ª
èµ ı
æ¢ ¦
Ġ H
å¯¼ æ¼Ķ
ä½Ĩ åľ¨
o s
æ² ī
èµĦ æł¼
18 æĹ¥
ä¸į ä¹ħ
h an
éĽ ¶
ä¸¤ äºº
å¤© æ´¥
å¹¿ å·ŀ
a g
æĺ Ń
çļĦ çī¹
äº ¨
äºĶ å¹´
åĮĸ åŃ¦
æŁ ±
æĭ Ł
å¾Ī å¤ļ
3 6
åģ ¶
åĨ Ī
å° Ĭ
çĶµè§Ĩ åı°
å¸® åĬ©
åįļ å£«
è´Ŀ å°Ķ
éĤ Ģ
çĽ Ĳ
å¼ ±
en t
è® ·
çĸ Ĩ
åı «
éĻ ·
çŃī åľ°
ãĢį ãĢģ
ç¬¬ äºĶ
æ¯« ç±³
åħ¨ éĥ¨
åĪĨ åŃĲ
å´ ĩ
æģ ĭ
ç»´ å°Ķ
ä» Ļ
æ¶ ħ
çĭ ±
ç Ĵ
è¯ Ĭ
at ion
ç¾¤ å²Ľ
éĿ Ļ
âĢĿ (
å¥¥ æŀĹ
ä»» åĳ½
èĭ± è¯Ń
éĻĨ åĨĽ
åĨľ ä¸ļ
æĿĤ å¿Ĺ
æ± Ĺ
ç» ķ
åŁº çĿ£
åĲį åŃĹ
é ¤Ĳ
12 æĹ¥
I n
200 5å¹´
200 6å¹´
åħ¬ å°º
æķ´ ä¸ª
è£ Ķ
åĲ ķ
i v
ç®Ģ ç§°
çĶ· æĢ§
3 8
ç«ĭ æ³ķ
æ¶ ²
è ļ
å¤ļ æ¬¡
ç¥ Ń
é¢Ĩ åŁŁ
æŃ¤ åĲİ
èµ¢ å¾Ĺ
, âĢľ
å»º è®®
ä½ľ å®¶
é¼ ĵ
ç¬¬äºĮ æ¬¡
ä¾ ¯
è¡Ĺ éģĵ
. .
åħĥ å¹´
æ ©
è¿ŀ ç»Ń
åľ° ä¸ĭ
11 æĹ¥
åĪĨ æŀĲ
è¡¨ æ¼Ķ
çĸ ¾
ä¼ ´
åŁİ åĮº
3 7
ä¼ Ł
19 æĹ¥
åįĹ äº¬
éĶ¦æłĩ èµĽ
åĲĮ æł·
èĻ ĳ
å¹¿ åľº
å¥¥æŀĹ åĮ¹
5 00
æĢ» äººåı£
ç»ı å¸¸
Ġ19 4
Ġ F
åħĪ åĲİ
ä¸ ĺ
åĽĽ å·Ŀ
ä¸Ń éĥ¨
åıĳ å°Ħ
çĦ¶ åĲİ
äºī è®®
åĩ ¤
åľ°åĮº çļĦ
é¢ĳ éģĵ
æľĪ2 4æĹ¥
å¹ ħ
é¢ ľ
éĥ Ń
å¡ŀ å°Ķ
å¼ķ èµ·
è§Ĩ ä¸º
åĪĻ æĺ¯
å¤ļ çļĦ
ä¼Ĭ æĸ¯
æľĪ2 6æĹ¥
æĭ Ĩ
åľ° çĲĥ
çī §
ç¤¾ åĮº
éĢŁ åº¦
æĪª èĩ³
åıĬ åħ¶
è®° å½ķ
è®¾ å¤ĩ
é© ¶
æ¯ı å¹´
ç¦ı å»º
æĲ Ń
åĩº ä»»
ä¿Ŀ æĮģ
æĿ¡ ä»¶
æ°´ åŁŁ
ç» ª
æľĪ1 6æĹ¥
è§Ħ åĪĴ
æĹ¥ åĨĽ
å¤§ çº¦
æŁ ¯
% .
æ²³ åįĹ
åıĤ èµĽ
ä¿¡ æģ¯
Ġ å¹´
éģŃ åĪ°
å¹³ åı°
æľĪ1 7æĹ¥
å±ħ ä½ı
å¤ı ä»¤
çļĦ ä¸»è¦ģ
æĺ¯ä½įäºİ ç¾İåĽ½
çī© çĲĨ
é£ŀ è¡Į
U TC
äºº ä»¬
åĤ ¨
ç»Ł è®¡
è¢Ń åĩ»
åĨħ éĥ¨
çĽ¸ å¯¹
å¹¿ æ³Ľ
èĻ «
æķĻ åłĤ
å®ĺ åĳĺ
è¿ĩ åİ»
2 æĹ¥
è¶Ĭ åįĹ
ä¸Ģ æŃ¥
4 6
èĩ³ ä»Ĭ
æĭĴ ç»Ŀ
æĪĺ å½¹
èĶ ¡
æĸ¯ ç§ĳ
r a
æ£ Ĵ
å¤ļ ä¸ª
èĭ± æĸĩ
è´¸ æĺĵ
åħ ģ
è§ Ī
æłĸ æģ¯
å¥¥æŀĹåĮ¹ åħĭ
èĲ Ħ
æĺ¯ æ³ķåĽ½
æ¯Ķ äºļ
èĳ¡ èĲĦ
å¹ ¸
æĺİ æľĿ
ç³ ĸ
åŃ¦ ä½į
åĦ¿ ç«¥
æµģ è¡Į
æľĢ æĹ©
åĩ ½
ç§ ¦
æ· ¡
åıĸ ä»£
æĹ ģ
æ¼« çĶ»
é¥° æ¼Ķ
éĻ ¶
è¿ Ŀ
ç¾İ æ´²
æľĪ2 7æĹ¥
æľª èĥ½
æ³¢ åħ°
æ± ¤
ç»ı åİĨ
ç¢ ĳ
åĩł ä¹İ
æĮ ĳ
å·´ é»İ
æ¦Ĥ å¿µ
èĻ ļ
S t
é ŀ
å®ŀ çİ°
æľĪ2 1æĹ¥
æĮ ¯
3 1æĹ¥
o t
ä»¥ ä¸Ĭ
ç½ĳ ç«Ļ
æľĢ å¤§çļĦ
å¤Ħ äºİ
å·¦ åı³
äºĮ å¹´
é¾ Ħ
æľĪ2 æĹ¥
æĪĸ èĢħ
æľĪ2 2æĹ¥
è®° èĢħ
å°Ķ å¾·
" )
å®ŀ æĸ½
åįı åĬ©
. ãĢĬ
å® ¿
åĴĮ å¹³
éķ¿ çļĦ
åĩı å°ĳ
æĶ¹ åıĺ
æľĪ2 3æĹ¥
èİ·å¾Ĺ äºĨ
è· ĳ
ä¾ į
è¿ Ī
æ® Ĭ
è½¦ è¾Ĩ
èĳ ¬
ä¼ ¸
æĽ¾ ä»»
å±ķ å¼Ģ
éķ¿ æľŁ
åľ° éĵģ
çĨ Ļ
åĪĨ ç±»
çļĩ å¸Ŀ
æľĪ1 4æĹ¥
åŀĭ çļĦ
è¿Ĳ è¾ĵ
è¢« è®¤ä¸º
çļĦ ç¬¬
æĺ Ĩ
ç§ĳ æĬĢ
æľĪ2 9æĹ¥
èĭ± æł¼åħ°
å½± çīĩ
o p
åĩºçĶŁ äºİ
ä¹ ĥ
7 5
çº¿ çļĦ
èĮ ¶
çĬ¶ æĢģ
åİ¿ çļĦ
çļĦæĹ¶ åĮºä¸º
æ¯Ķ è¾ĥ
æĽ¾ åľ¨
éģ į
S T
æľī çļĦ
åįł é¢Ĩ
ç»ı èĲ¥
åī§ æĥħ
å¹¶ äºİ
æ¾³ éĹ¨
æĬķ ç¥¨
ç»§ æī¿
å® ħ
ä½ľ æĪĺ
çĥ §
æ²» çĸĹ
æŃ¦ åĻ¨
åĽ½ çļĦ
æľĪ1 3æĹ¥
T h
éĻĲ åĪ¶
b r
3 2
ä¸ļ åĬ¡
åŁº äºİ
èį· åħ°
çŃ ¹
è§£ åĨ³
çº ¯
å¤© ä¸»æķĻ
çĩ ĥ
èĪ° éĺŁ
å¨ģ å»ī
l i
è½ °
ä¼ļ åľ¨
3 4
å¦ ®
ä¸ª æľĪ
éĶ ®
å®£ ä¼ł
ä½ĵ çļĦ
çº¿ è·¯
åĭ ĭ
çı į
çļĦ æķ°æį®
çģ ¯
åİ ¦
åĩĨ å¤ĩ
çļĦ æĥħåĨµ
ç´ ¯
u b
éĽ ķ
å² Ń
åĿ Ľ
èµĦ æºĲ
è¾ ½
éļ Ĳ
æĬ ĺ
çļĦ å½±åĵį
åĭ ĩ
è¡ ¡
æĸ¯ çļĦ
ä½įäºİ è¯¥åĽ½
S E
èĢĮ åľ¨
åįģ å¹´
æĸ¹ æ¡Ī
èı ľ
ç»Ł ä¸Ģ
: )
åĩº äºĨ
æĿ¥ æºĲ
è¯Ħ ä»·
çĤ İ
è¯ķ åĽ¾
é½ ¿
æ¸ħ æľĿ
Ġ E
åĲĦ åľ°
çĶµè§Ĩ åī§
å³ ¡
æ±½ è½¦
åİŁ æľ¬
I I
ä¹ĭ å¤ĸ
éĵģ éģĵ
æ¾³ å¤§
åħ´ å»º
åŃ Ł
åħĦ å¼Ł
åıĪ ç§°
éĢī æīĭ
5 5
18 9
çł´ åĿı
éģ £
ãĢįãĢģ ãĢĮ
é©¬æĿ¥ è¥¿äºļ
åįı è®®
ç£ ģ
æīĢ åľ¨
èĲ §
éĤ® æĶ¿
çĲ ³
åĽŀ åĪ°
3 9
è½ ´
æķ ¬
éļı èĳĹ
åĶ± çīĩ
è¿Ľ ä¸ĢæŃ¥
å£ ģ
åĪĿ æľŁ
è¿Ĳ è¡Į
é¥ ®
æĽ ¹
å¤§ æ¥¼
è ¦
æĶ¹ ç¼ĸ
çĬ¹ å¤ª
æħ Ī
ç® Ń
Ġ W
å¤§ å¤ļæķ°
è¿Ľ æĶ»
åŁº åľ°
èĩª åĬ¨
å¹ »
è¡ Ķ
æķĻ ä¼ļ
å¨ ±ä¹Ĳ
ä¸Ń æĸĩ
200 4å¹´
ç²¾ ç¥ŀ
æķ ı
å°ı åŃ¦
åħŃ å¹´
ä¸º æ¯ı
èµ ł
ç»´ æĮģ
éĴĪ å¯¹
è¿ĺ æĺ¯
è§Ĥ ä¼Ĺ
æ¢ °
åŁº éĩĳ
è´ ¤
æ² Ī
åı Ľ
éĿ¢ çļĦ
åŁİ éķĩ
è¿Ľè¡Į äºĨ
æľº è½¦
ç»Ħ åĲĪ
ä» Ķ
200 0å¹´
æĢ» éĿ¢ç§¯
çļĦ åīį
è¿Ĳ èĲ¥
ä¸» è§Ĵ
è´ ¾
äººåı£ æķ°éĩı
è¾ Ĳ
éĶ ĭ
ç¯ ®
ä¸ĩ äºº
å·ŀ çļĦ
çľģ çº§
å§ Ĳ
æŃ£ åľ¨
åĬł ä¸Ĭ
o c
æĬ¥ éģĵ
çī¹ å¾ģ
çº ¹
å¤ªå¹³ æ´ĭ
éĥ¨ ä»½
èĹ ¤
çģ °
äº¤ æĺĵ
éĽĨ ä¸Ń
ä¸į å°ĳ
ç©º åĨĽ
ç»¼ åĲĪ
ä¸Ģ ä½į
åĨ ¯
è´Łè´£ ç®¡è¾ĸ
åıĮ æĸ¹
éĤ ĵ
éĻ ķ
æ¯ı ä¸ª
æ¾³å¤§ åĪ©äºļ
Ġ æĶ¿æ²»
éĻĨ åľ°
èµ ´
åľ¨ ç¾İåĽ½
ç¡® å®ļ
çŃ Ķ
æĺ¯ åĲ¦
è§£ éĩĬ
Ġ çĶ±äºİ
ç¾İåĽ½ äººåı£æĻ®æŁ¥
è¯ģ æĺİ
æĺ¯ ä¸ŃåĽ½
åĽ¾ ä¹¦
å¤§ åŀĭ
ä»· åĢ¼
4 7
è¿Ķ åĽŀ
èĳ£ äºĭ
æīĢ å±ŀçļĦ
è¦ Ĩ
åĲį åįķ
åİ ļ
æĦŁ æŁĵ
åĪ Ģ
ç¨ĭ åº¦
éĩįè¦ģ çļĦ
äºĳ åįĹ
ä» °
ä»İ äºĭ
202 5å¹´
, ãĢĮ
a p
çľģ çļĦä¸Ģä¸ªå¸Ĥéķĩ
æ³ ³
è° ±
æ¹ĸ åįĹ
åĽ½ ä¼ļ
æ³ķ åħ°
æľī æĹ¶
çļĩ å®¶
æ²³ æµģ
çĥ Ł
åĢ į
äºİ 198
å°ı ç»Ħ
å®ĥ çļĦ
çİĭ æľĿ
Ġ N
ä¸» æ¼Ķ
åħĥ ç´ł
å¾· éĩĮ
é©¬ åħĭ
å¼ķ åıĳ
å¥³ åĦ¿
åĩ Ń
ä¿Ŀ çķĻ
çº µ
æľº ä¼ļ
ä¸´ æĹ¶
æĢ» çĲĨ
æĹħ æ¸¸
éķĩ åĮº
æľ ĭ
é¦ĸ éĥ½
å¸¸ è§ģ
è¶ħ çº§
é ¬
è´¢ æĶ¿
èĴ ĭ
çĶŁ äºİ
æ² Ł
ãĢĬ ãĢĭ
åħ¬ åħĥ
åĩº èº«
çķ ª
å¤§ èĩ£
åĬł åĿ¡
å¤© æĸĩ
æī¹ åĩĨ
é«ĺ çº§
åĨ² çªģ
åĽ½ éĺ²
ç½ ķ
ç±³ å°Ķ
è®¨ è®º
å° ĸ
åĬĽ éĩı
20 ä¸ĸçºª
ä¸į åĨį
å¦» åŃĲ
åĲĮ æĦı
ä½Ľ æķĻ
çĳŀ å£«
åĽ½æ°ĳ åħļ
ä¸» é¢ĺ
åĽ½ åĨħ
çłĶç©¶ æīĢ
åı ¥
äºĨ ä¸Ģä¸ª
éĿ ĸ
æľº åħ³
è¶ £
åį¡ å°Ķ
é© ¾
æľī æķĪ
ä¸į æĸŃ
æ¡ ĥ
è®® éĻ¢
ç»ĵ åĲĪ
çļĦä¸Ģ ç§į
6 5
åĩ ¡
äº§ ä¸ļ
å¥½ çļĦ
å·ŀ å¸Ĥ
åĬĽ çļĦ
e dĠ
æľī äºĽ
è¾ ī
äºĮ ä¸ĸ
ãĢģ ãĢģ
è· ³
æĸĩçī© ä¿ĿæĬ¤
æŁ ´
è¿ ħ
æĸ° åĬłåĿ¡
Ġ19 7
åİ¿ çļĦä¸Ģä¸ª
æŃ¦ è£ħ
æĹ º
åĽ½ ç«ĭ
æĺ¯ æĮĩ
æĻ® éĢļ
ä¸Ĭ æĺł
å¹´ è½»
ç¼ ĵ
çĨ Ł
å¤§ ä½¿
Ġ19 5
ç§ĺ ä¹¦
å»º æĪĲ
åŁ Ķ
6 4
æ°Ķ åĢĻ
æİ ª
éĢī åĮº
è§£æĶ¾ åĨĽ
æĸ¯ åŁº
ç¥ ¥
ä¸į åı¯
éģ Ĥ
æĺŁ æľŁ
3 00
æ §
æĶ¶ åħ¥
åıĸ æ¶Ī
ç¼ĸ åı·
æ½ ĺ
äºº æķ°
ä¸ĸçķĮ å¤§æĪĺ
æĸĩ ä»¶
åı¯ è¾¾
å¨ģ å°Ķ
æĬķ åħ¥
å¿« éĢŁ
æī¿ è®¤
äºº åľ¨
è¥¿ æ´ĭ
ä¸ŃåĽ½ äººæ°ĳ
è¥¿ çľģ
èĳĹ åĲį
ä¸ŃåĽ½ åħ±äº§åħļ
èŃ¦ æĸ¹
å·´ è¥¿
éĿŀ æ´²
å°ĳ å¹´
æĢ» éĥ¨
ç»´ äºļ
æł¸ å¿ĥ
( "
èĩ³ å°ĳ
3 1
é¹ ¿
å¿ Ĩ
ä¸Ģ ä¸ĸ
éļı çĿĢ
æĸĩçī©ä¿ĿæĬ¤ åįķä½į
è ©
ä½¿çĶ¨ çļĦ
ä» ĵ
æĿ¡ çº¦
ä»¥ èī²
åĭ ¤
é£İ æļ´
åĽ½ åĬ¡
ä¹ ı
ç¬¬ ä¸Ģä¸ª
èĭ Ĺ
èĥľ åĪ©
æĸ¯ åħĭ
å¥¥ æĸ¯
å¦Ĥ ä¸ĭ
èĳĹ ä½ľ
åŃ Ŀ
åİ Ħ
ç¼ ħ
ä¸ĥ å¹´
åĪĽ ç«ĭ
ä»¥èī² åĪĹ
Ġ theĠ
æ³ Ĭ
åĮĸ çļĦ
éĩį å»º
ä»¥ åĲİ
4 9
e sĠ
è© ¹
ç§ Ĵ
å¥¥æŀĹåĮ¹åħĭ è¿ĲåĬ¨ä¼ļ
è®¿ éĹ®
æĹ¶ ä»»
åĽ¢ éĺŁ
æľª æĿ¥
ç¬¬ åħŃ
è´ ¯
çĮ İ
o v
çĹħ æ¯Ĵ
an d
åħ¬ æ°ĳ
æ°ĳ ä¼Ĺ
çļĦ çłĶç©¶
çļĦ å¸Ĥéķĩ
åįĬ å²Ľ
éĥ½ ä¼ļ
æ±Ł èĭı
o g
èİ ²
æĶ¶ å½ķ
æħ ķ
åħģ è®¸
æĴ Ĵ
Ġ 1
å®ª æ³ķ
è¯´ æ³ķ
ç ŀ
æµĭ è¯ķ
èĳ Ľ
è°ĥ æķ´
æĻ ¨
å§Ķ ä¼ļ
u t
ä¼ ı
ç¨ĭ åºı
çĵ ľ
an dĠ
å°Ķ çļĦ
æĭī åħĭ
ä¹Ĳ åĽ¢
åĢ ¾
200 3å¹´
æµ· å²¸
çİĭ åĽ½
èĽĭ çĻ½
ç»ĵ å©ļ
éļ¶ å±ŀäºİ
æĻ ¶
çĶµ èĦĳ
åģľ æŃ¢
åħ¬ åĪĨ
ä½įäºİ æ³ķåĽ½
æ¢ ¯
çĶ¨ æĿ¥
é«ĺ çŃī
åį¢ çĵ¦
æ¨¡ åŀĭ
åĵĪ å°Ķ
æħ ¢
Ġ19 6
am p
éĺ¿æĭī ä¼¯
åľ¨ è¿Ļ
éĥ½ æľī
èī² çļĦ
èĥ ģ
æİ¥ è¿ĳ
èĢĥ èĻĳ
è¡ĮæĶ¿åĮº åĪĴ
ä¸ĭ åįĪ
å±± èĦī
çĲĥ åľº
è´ º
çĶ¨ çļĦ
æ®ĸ æ°ĳ
åĩ Į
å°± è¯»
æĢĿ æĥ³
è¿ĩç¨ĭ ä¸Ń
çĶµ åı°
å°¤ åħ¶
èĹ ©
æĪĺ åĲİ
åĳ¨ è¾¹
Ġ 2
æĸ° å¢ŀ
éĤĢ è¯·
æµ ®
åĮ» çĸĹ
åľ° ä½į
çĽ´ èĩ³
åħ³ æ³¨
ç´ «
çİ° æĹ¶
a k
200 2å¹´
ç¡ ķ
é¬ ¼
çĶ³ è¯·
ä¸Ģ å¸¦
æĥ Ĭ
èħ ¹
ä¸į æĺİ
ä¼¯ çī¹
è§Ĥ å¯Ł
åĿ İ
éĩį çĤ¹
èµ· æĿ¥
å¹´ åº¦
ç¥ĸ çĪ¶
æĶ¿ åħļ
åĨį åº¦
åįģ åĪĨ
Ġ202 1å¹´
C h
çĽ¸ ä¼¼
è¯¾ ç¨ĭ
4 4
Ġ K
å¡ ĳ
åŃ© åŃĲ
èĬ Ŀ
18 8
ä¹Ķ æ²»
åĮ Ī
a v
Ġ 2019å¹´
æĢ ª
ä¿ Ĭ
åĲĪ çī©
è¡¨ è¾¾
é«ĺ ä¸Ń
åħ±æľī äººåı£
Ġ è½¦ç«Ļ
åħ¥ ä¾µ
å£« åħµ
ä» ²
å®ī æİĴ
æĴ °
åĲ ¨
æĿ¥ è¯´
a b
èĭ ¦
æ¯ķä¸ļ äºİ
åĬ ±
ç½ ļ
çļĦ å°ı
Ġ 3
åĪ° è¾¾
åŃ¦ æľ¯
äººæ°ĳ æĶ¿åºľ
å¹¶ æ²¡æľī
a y
å¥ ´
åĽł èĢĮ
æĶ¯ æı´
ç§» åĬ¨
çļĦæĹ¶ åĢĻ
æĺ¯ ç¾İåĽ½
in d
æ³ ¥
æĴ ŀ
A T
éĶĢ åĶ®
å± ¿
åĢĻ éĢī
Ġ è¿Ļ
æĿ ī
è·¯ æĺĵ
çĽ Ĺ
å¤ĸ çļĦ
çĽ® çļĦ
ç¦ Ħ
æĹł çº¿
ä¸º æ³ķåĽ½
è¯ ¦
ä¸ §
ä¼Ĭæĸ¯ åħ°
å Ĺ
è¥¿ åĵ¥
åºĶ è¯¥
çĨ Ĭ
æĹ© å¹´
Ġ è¡ĮæĶ¿
æĹ ¨
æŃ¤ æĹ¶
å¸Ĥ éķ¿
çİ° è±¡
ç¢ į
åīį çļĦ
å¦Ĥ æŃ¤
çī¹ çļĦ
Ġ 2020å¹´
éģĹ åĿĢ
âĢĿ ãĢģ
çĹ Ľ
åıª æĺ¯
ä»ĸ æĽ¾
å¹¶ æľª
5 8
çĶ¨ æĪ·
åıĺ æĪĲ
ç² Ĵ
åľ° åĪ©
çĮ ª
éĩĳ å±ŀ
æĹ§ å¸Ĥéķĩ
ç±» åŀĭ
æĬµ è¾¾
å¸Ĥ åĮº
ä»İ èĢĮ
æĿĲ æĸĻ
é ī
çļĦ é¦ĸ
æĺİ æĺ¾
åħ« å¹´
ä¹ ³
æĢ» çĿ£
æĪĸ æĺ¯
èĩªæ²» åĮº
è´¨ éĩı
Ġ201 8å¹´
éĺ ħ
æıĲ åįĩ
é«ĺ çļĦ
å°¼ æĸ¯
çĦ ¦
æŀĦ æĪĲ
å°ĳ æķ°
èģĮ åĬ¡
åº Ĭ
è· ĥ
çĩ ķ
å®ī è£ħ
äºİ19 7
æŁ ³
åį« æĺŁ
ç¬¬ ä¸ĥ
å½ Ń
ä¿¡ åı·
æ± ¡
äººåı£å¯Ĩåº¦ ä¸ºæ¯ı
éĢĿ ä¸ĸ
6 8
å·¥ åİĤ
æĸ¹ çļĦ
åı¯èĥ½ æĺ¯
æŁĲ äºĽ
åĪĹ ä¸º
æ¯Ķ åĪ©
ãĢģ (
å± ı
çī© è´¨
æ¡ Ĥ
é Ħ
å¹´ éĹ´
èĪ Ĵ
ä½ĵ ç³»
æģĴ æĺŁ
ç¨³ å®ļ
æĬ ļ
åĴ ¸
å¯¹ æīĭ
Ġ19 3
èĢĮ æĺ¯
é¡ µ
å¡ ĺ
å¤± åİ»
: .
ä»ª å¼ı
åĿ Ĭ
å¥¥ åľ°åĪ©
éī ´
SE E
åĩ½ æķ°
åĩº åı£
çĶ ¸
åĪĽ åĬŀ
ç§ĳ çļĦ
æİ ī
éĶ ģ
å¢¨ è¥¿åĵ¥
äººåı£æķ°éĩı ä¸ºäºº
ä¸ľ è¥¿
å»º åĪ¶
åĲ ĥ
æľĭ åıĭ
çĶŁ éķ¿
è° ĵ
æĲ ľ
åĲĮ ä¸Ģ
ä¸į è¶³
æĵį ä½ľ
æİ¥å£¤ çļĦå¸Ĥéķĩ
è¯ ļ
æĸĩ ç«ł
æĸ ĳ
IN SEE
äºĭ ä¸ļ
æĦı è¯Ĩ
æĻ® éģį
æ¯ı å¹³æĸ¹åħ¬éĩĮ
åľ¨ 199
ä¸į å¾Ĺ
æ°§ åĮĸ
çº ¬
ç ĺ
ç§» æ°ĳ
Ġ c
ç¿» è¯ĳ
ä¸Ģ åº¦
æĹł äºº
å¨ģ èĥģ
åĬ¨ åĬĽ
åıª èĥ½
èĤ ĥ
å§ĭ å»º
å°ļ æľª
éĤ®æĶ¿ ç¼ĸçłģä¸º
åĬŀåħ¬ å®¤
æł¡ éķ¿
å°Ķ çī¹
ä¸Ģ åĲĮ
çİ° åľº
å¹¿ åĳĬ
èº« ä½ĵ
åħ¥ åı£
( ;
æ¡Ī ä»¶
è¯ ŀ
åŀ Ĵ
æĹ ¢
æĮ Ĥ
æľº æ¢°
Ġ201 7å¹´
èĥ ¶
åĮĹ ç¾İ
éļ §
å¹³ éĿ¢
ä¸¤ ç§į
çĬ¶ åĨµ
æ¶Ī æģ¯
ä¹Ł åľ¨
éģĹ äº§
åı¬ å¼Ģ
è§Ĥ çĤ¹
å¾Ĺ ä»¥
éĺŁ çļĦ
å¤Ħ çļĦ
äº¤ æµģ
å¾ ª
è¡¨ æĺİ
æĦı ä¹ī
æĿĥ åĬĽ
æ°ĳä¸» åħļ
èĩª è¡Į
æĽ´ åĲįä¸º
ä¸º ä¸Ģ
åįĹ åĮĹ
å¼ ĺ
çľĭ åĪ°
åİ¿ äºº
åĭ ĥ
çŁ¥ éģĵ
æĮĳ æĪĺ
æķ° åŃĹ
èģĶ ç³»
èģĶåĲĪ åĽ½
çķ Ķ
åĽ¾ä¹¦ é¦Ĩ
æħ §
ç¦ģ æŃ¢
æıĲ é«ĺ
åħ¥ éĢī
å§Ĩ æĸ¯
ä»ĸ æĺ¯
åĵģ çīĮ
æłĩ å¿Ĺ
åģ¥ åº·
æĭ ĵ
å² ³
åĪĽ éĢł
æ¬§ åħĥ
Ġ O
å± ¯
èĳ¡èĲĦ çīĻ
ç¥ Ŀ
4 2
Ġ201 6å¹´
e v
ä¼ļ çļĦ
è¢ ĸ
å¸ĥ æĭī
åıĳ çĶµ
ãĢĭ ()
æķĪ åĬĽ
å¤ıä»¤ æĹ¶
åľŁ èĢ³
ä¹ ¾
çº ·
éĩĮ çļĦ
å¤§ éģĵ
æ£® æŀĹ
æľī äºº
æĪ Ĵ
ä¹Ŀ å¹´
åıĳ èµ·
äººåı£å¯Ĩåº¦ æ¯ıå¹³æĸ¹åħ¬éĩĮ
åŃĹ æ¯į
æį Ĳ
åľŁèĢ³ åħ¶
æ° ¢
ç® ±
æ°´ å¹³
å¤± è´¥
åŃĲ çļĦ
å¸Ĥéķĩ ç¼ĸçłģä¸º
INSEE å¸Ĥéķĩç¼ĸçłģä¸º
å½ĵæĹ¶ çļĦ
ãĢ İ
u d
å¹³æĸ¹ ç±³
åİĨåı² ä¸Ĭ
ãĢ ı
å¹¶ éĿŀ
åħ ½
çĳŀ åħ¸
åį ĳ
äºİ æĹ¶çļĦ
åĮ» åŃ¦
äºİæĹ¶çļĦ äººåı£æķ°éĩıä¸ºäºº
æ£ ĭ
éĢī åĮºä¸º
ç¾İåĽ½äººåı£æĻ®æŁ¥ çļĦæķ°æį®
äººåı£å¯Ĩåº¦ä¸ºæ¯ı å¹³æĸ¹åįĥç±³
æĻ ĵ
èĢĮ äººåı£å¯Ĩåº¦ä¸ºæ¯ıå¹³æĸ¹åįĥç±³
å½ĵåľ° åħ±æľīäººåı£
æ²³ åĮĹ
åľ ³
Ġ J
åį ¿
æµ ħ
çī¹ æ®Ĭ
è¯¥ çľģä»½
æĪĸ æĹ§å¸Ĥéķĩ
å»¶ ä¼¸
å¼º è°ĥ
éħĴ åºĹ
çļĦ æĸ¹å¼ı
çľģçº§ éĢīåĮºä¸º
æīĢå±ŀçļĦ çľģçº§éĢīåĮºä¸º
å¸ĥ é²ģ
åį« çĶŁ
æľ¬ åľŁ
Ġ202 2å¹´
e st
ç¼ĸ è¾ĳ
æĺ¯ä¸Ģ åĲį
çļĦ åİŁ
è¯¥çľģä»½ ä¸ºæ³ķåĽ½
èĢĮ è¯¥åľ°
åĲİ èĢħ
å¥ĸ é¡¹
ä¸Ń å±±
18 7
æķĻ åĮº
åĳ½ ä»¤
éľĢ æ±Ĥ
äºº å¤§
éģ¿ åħį
æĬ¥ å¯¼
åıĹ ä¼¤
èĲ¥ è¿Ĳ
ä¼° è®¡
è½° çĤ¸
ç¼º ä¹ı
è¿ħ éĢŁ
æĹ ¦
ç¬¬ 1
æıĲ åĲį
åħ¶ ä½Ļ
æµ· åŁŁ
äºİ19 4
æī °
åĽĽ ä¸ª
èĳĹ åĲįçļĦ
æĲ ¬
æ³¨ æĦı
æ¬¢ è¿İ
çĶŁ åĳ½
å¸Ĥ çļĦ
å¿ĥ çĲĨ
éļ§ éģĵ
æĶ¿ æĿĥ
éĥ Ĭ
åī ©
è¾¾ æĪĲ
åĲ¸ å¼ķ
çĹĩ çĬ¶
å®ī å¾·
æı Ĵ
é² į
åĸ Ģ
éĩĳ çīĮ
è§Ħ åĪĻ
ä»ĭ ç»į
ä¹ĺ å®¢
å¤§ è¥¿æ´ĭ
æĸ¯ å¡Ķ
å¤ĸ åĽ½
éĩĳ èŀį
æķĻ ç»ĥ
e g
æĿ Ĩ
æĴ¤ éĶĢ
çİ »
ä¾ ¦
éľ ¸
ä¸ ²
çļĦ ç¬¬ä¸Ģ
äºº åĴĮ
åı¯èĥ½ ä¼ļ
è´ ŀ
éĥ¨ èĲ½
å´ İ
S A
ä¸» å¼ł
æĪĲä¸º äºĨ
æķ° åŃ¦
å¹¶ å°Ĩ
Ġ201 4å¹´
èĢĮ è¢«
éĵ ¾
i a
6 7
t ion
æĦŁ åĪ°
åħ¬ ä¼Ĺ
æ¬ ²
å½¼ å¾Ĺ
4 00
èĥ İ
er s
ä¹Ł è¢«
äºĭ å®ŀ
å°Ķ åħ°
æķĻ å¸Ī
ä» ¿
éĩĩ åıĸ
ä½ĵ éķ¿
åħ¨ éķ¿
9 9
æµ ĵ
Ġ201 5å¹´
æİ¨ åĬ¨
è ¹
ä¹ĭ ä¸ĭ
ä¼ł è¯´
èµĦ è®¯
è´Ń ä¹°
åħ¶ å®ĥ
ä¿¡ ä»°
15 0
æī§ å¯¼
æŀ ¢
çĲĨ äºĭ
é¼ ł
ä¸Ńåħ± ä¸Ńå¤®
æľ¬ èº«
çļĦä¸Ģ åº§
è¯ ¢
Th eĠ
ä¼ Ļ
ç¥ŀ ç»ı
å½ »
èĽ ĩ
åį ĵ
æĸ¯ èĴĤ
æĶ¾ å¼ĥ
åıĪ åĲį
æķĻ åŃ¦
æľĢåĲİ ä¸Ģ
" ,
æĴŃ æĶ¾
éĩį åºĨ
äº¦ æľī
åįģ åŃĹ
âĢĿãĢģ âĢľ
æ³ķ æ¡Ī
æĽ´ å¤ļ
ç¨ĭ å¼ı
åıĤ èĢĥ
Ġ201 3å¹´
è¥¿ æĸ¹
è´¡ çĮ®
Ġ s
æĭ ³
ç½ĳ è·¯
åįĹ æŀģ
18 6
æīĵ åĩ»
åľ° çļĦ
åĩº æĪĺ
äºİ19 6
å£ ®
èĭ± éĽĦ
å®¹ æĺĵ
el l
u l
ç¬ ĳ
åİ ĺ
åĨĽ çļĦ
æ³° åĽ½
ç§¯ æŀģ
æĵ İ
å½ĵ å±Ģ
æĺ¯ä¸Ģ ä½į
æĬĹ è®®
åĸľ æ¬¢
åĽ½åĬ¡ éĻ¢
æı Ń
æĺ¯ æĹ¥æľ¬
åī ²
çİ° ä»»
äºĭ æķħ
ä¹Ŀ é¾Ļ
å¤º å¾Ĺ
Ġ æŃ¤
çī ł
åħ¨ éĿ¢
äºİ19 5
è¯ģ æį®
åĲ¯ çĶ¨
æĢ§ è´¨
æİ¥ è§¦
äº Ń
éĺŁ ä¼į
æ´ Ĺ
åį ľ
è£ħ çĶ²
æī ®
ä¹Ł ä¼ļ
å° Ŀ
ç»ĵæĿŁ åĲİ
åįģ ä¸Ģ
èµ Ĳ
çŁ¥ è¯Ĩ
å±Ĭ åħ¨åĽ½
çļĦ éĩįè¦ģ
èĤ º
åĲİ æľŁ
å¼º çĥĪ
æ¹ĸ åĮĹ
å¤ļ ç§į
çª Ĺ
èĬ ³
æ¶ī åıĬ
åľ¨ åħ¶
æĮ ª
å®ī å¾½
å¦Ĥ ä½ķ
å±ķ ç¤º
) ;
èĢĮ æĪĲ
çĸ ı
Ġ 4
å¤į æĿĤ
åŃ¦ ä¼ļ
æ¼ĶåĶ± ä¼ļ
Ġ d
ä¸ĸçķĮ æĿ¯
çł ²
ä¸ĩ åħĥ
çŁ¥ åİ¿
å®Į æķ´
çļĦ æµ·
èı² å¾ĭ
åĴĮ åħ¶ä»ĸ
éĩĮ äºļ
èı²å¾ĭ å®¾
æĿ Ń
çĻ½ èī²
ç¬¬ 2
ç»´ å¥ĩ
ç¾½ æ¯Ľ
çİ Ħ
ä¸ĩ ç¾İåħĥ
åħ¬ ä¸»
çĪ± å°Ķåħ°
åĩºçİ° åľ¨
è´ «
èį¯ çī©
æĬ ¢
éĩĮ æĸ¯
ç¾İ æľ¯
åħī ç»ª
7 8
5 9
æĸĩ çĮ®
æĿĳ åºĦ
æĦı è§ģ
çļĦ åľ°æĸ¹
è± Ĩ
éĢ Ĵ
éĵ º
æ°ĳ éĹ´
ä»Ģ ä¹Ī
2 äºº
æ¸ Ķ
å¼ķ æĵİ
éĢ Ĩ
åĨħ éĺģ
åŁĥ åıĬ
å¸Ĥ æ°ĳ
å£ ³
æĿĥ åĪ©
åĪĽ å»º
æĹħ å®¢
å« Į
è¿Ļ æ¬¡
åĢĻéĢī äºº
è´ ´
é«ĺ éĽĦ
5 6
o b
æ¹ ¿
3 äºº
æĬ ½
çĬ ¬
å®¢ è¿Ĳ
çĪ¶ æ¯į
é¢Ĩ åľŁ
èĲ¨ åħĭ
ç®Ģ åįķ
å¾ĭ å¸Ī
æº ¶
çº¢ èī²
æĿ° åħĭ
äºº å·¥
å°ı çļĦ
æİĪ äºĪ
æİª æĸ½
æĭī ä¸ģ
Ġ202 3å¹´
éĽ ĩ
è¡¨ éĿ¢
å®ļ ä¸º
çĮ «
Ġ å¤§
éĻ¢ éķ¿
ç®Ģ ä»ĭ
å¦ ĥ
ä¹¾ éļĨ
A n
èŀ º
èĤ¡ ä»½
N A
æķĪ æŀľ
çŃ¾ ç½²
åĩº éģĵ
èģ ĺ
è±¡ å¾ģ
å¯ Ħ
ç² ®
åıĳ åĶ®
èį£ èªī
æĦı ä¸º
æĭī å¤«
å° ī
1 äºº
Ġ V
éĻį ä½İ
å£° ç§°
æĿ¥ åĪ°
é£ ĵ
æ·± åľ³
æĤ ¬
å½¢ è±¡
åľ° éľĩ
åħĭ ç½Ĺ
e p
äºļ åİĨ
ç¡® è®¤
ç¡® è¯Ĭ
åĽł ç´ł
ä¸ľ åĮĹéĥ¨
å· §
Ġ 6
ç¢ ³
æĮī çħ§
çĬ¯ ç½ª
é£ĵ é£İ
çĽ ¾
çĪĨ çĤ¸
åı Ķ
è¿ Ł
éķ¿ åº¦
ä¹Ł åı¯ä»¥
åĮ» çĶŁ
é¢Ĩ è¢ĸ
ç«ŀ äºī
åľ° çĤ¹
è¢ ģ
ä½ľ èĢħ
T V
çħ ¤
t w
o k
å°Ĩ ä¼ļ
an g
ä¼ł æĴŃ
å·® å¼Ĥ
è¢«è®¤ä¸º æĺ¯
åıĳ åĩº
ç¨ ¿
å® ı
æ´ ģ
æĽ´ åĬł
ä¸ĵ éĹ¨
ä¸ Ī
æĸ ľ
æĸĩ åŃĹ
ä¼Ĭ æľĹ
åıĻ åĪ©äºļ
ä¸į æ»¡
å®ŀéĻħ ä¸Ĭ
çļĦ é«ĺ
ä¸ĵ å®¶
ç¾ Ĭ
åİĭ åĬĽ
åı¤ ä»£
ä¸¾è¡Į çļĦ
æ°Ķ è±¡
8 8
ä¸ Ļ
å¯¹ æŃ¤
å·¥ åħ·
ä¹¡ è¯ķ
èµĦ éĩĳ
Â °
Ġ b
åı° åįĹ
åŁºçĿ£ æķĻ
åĽĽ åįģ
æĪı åī§
çī µ
æ¯ĶèµĽ ä¸Ń
èĨ ľ
èµ· æºĲ
èħ ¾
5 7
= "
æĬ ¼
å° ¸
å°ļ ä¹¦
æ²³ çķĶ
æįŁ å¤±
: "
ï ½
åĨ Ĵ
é«ĺ äºİ
å¤ļ å¹´
å¡ «
ç»Ļ äºĪ
æľī ä¸Ģä¸ª
è¾¹ çķĮ
é³į é±¼
ä¸ľ æĸ¹
å¸Ī èĮĥ
çĸ¾ çĹħ
è¾ ©
åĿ¦ åħĭ
çĽ¸ æ¯Ķ
ç»ı éªĮ
è¡ į
æĺ¯ ä»¥
çĹħ ä¾ĭ
å¥ ĳ
çĲĥ ä¼ļ
è£ ķ
éĴ ¦
æľī æīĢ
åľ¨ æĹ¥æľ¬
ä½ľ æĽ²
ä¸¾ äºº
äº¨ åĪ©
i sĠ
ä» ĳ
ä¸Ģ å®ļ
è¡ °
å§ »
199 8å¹´
æłĩ ä¸º
åĩº å¸Ń
æ° Ł
ç½ ¢
åĪĹ è¡¨
ĠS t
è¸ ª
éĢĢ å½¹
éĿ¢ å¯¹
å·¡ åĽŀ
ä¸į ä»ħ
å½ĵ å¹´
çļĦ ä¸ī
çļĦ ä½ľåĵģ
é¸ ¡
æĺİ æ²»
çº¦ ä¸º
æĶ¹ åĸĦ
æĢ§ åĪ«
çĻ» éĻĨ
è¥¿ èĹı
èĮ Ĥ
ä½ı å®ħ
å²ģ çļĦ
è ²
çĲ ī
ä¹ĭ ä¸Ń
ä¸¤ å¹´
æĶ¹ éĢł
åı¸ æ³ķ
å¹¶ åħ¥
åĪĹ åħ¥
åĽŀ åºĶ
åħĭ èİ±
ç«Ļ åı°
å® Ļ
çİĩ é¢Ĩ
éĤ£ éĩĮ
è´µ æĹı
e w
6 6
èĪŀ åı°
199 9å¹´
è½¬ ç§»
åĪ¶ çļĦ
e b
ç¤¾ä¼ļ ä¸»ä¹ī
å¦ Ī
å®ŀ è¡Į
å£° æĺİ
åĨ¬ åŃ£
C D
åľ° éĿ¢
ç² ¹
ç§į æĹı
èĭ± å°º
çĶµ è½¦
æ¾³ æ´²
èĤ ¥
åŁº åĽł
åıĤ è°ĭ
åĸ ·
åħ³ éĹŃ
åĳ½ åĲįä¸º
èį Ĵ
æµģ åŁŁ
åĥ §
æµ· æ´ĭ
æĪĲ æľ¬
Y ou
åıĤåĬł äºĨ
å¥¹ åľ¨
è£ħ ç½®
ä¸Ģ å®¶
æ ĩ
éģ µ
çĭ Ħ
Ġ201 2å¹´
5 4
ç¤º å¨ģ
è¯Ń çļĦ
å½¢ æĢģ
çĸ« æĥħ
æµ ©
æīį èĥ½
åıĺ å¾Ĺ
å²ģ æĹ¶
ç¡ķ å£«
åľ¨ ä¸ŃåĽ½
èĬ¬ åħ°
é¸ ¿
å´ Ķ
çİĽ ä¸½
åĳ¨ å¹´
ç¬¦ åĲĪ
é©± éĢĲ
æĦı æĢĿ
åħ¬åı¸ çļĦ
åį³ ä½¿
é«ĺéĢŁ åħ¬è·¯
æľº åĻ¨
æµĭ éĩı
æµ· å¤ĸ
çļĦ åĽ½å®¶
é³įé±¼ çº²
æŃ£ å¸¸
å¸ ħ
éĢļ è½¦
èİ« æĸ¯ç§ĳ
æĸ° çĸĨ
å±Ģ éķ¿
å² Ĺ
è¾ĥ ä¸º
B C
ç±³ çļĦ
æĥħ æĬ¥
åı¦ ä¸Ģä¸ª
é¥ Ń
çĶµ åĬĽ
é¡¾ éĹ®
å¯¹ è±¡
å¼Ģ è®¾
èĭı æł¼åħ°
å¼ ¥
éħį åĲĪ
æ·· åĲĪ
é£Ł çī©
æĢ Ĵ
åĩº æĿ¥
ä¿® æĶ¹
al l
æ¶ µ
å§Ķ ä¹¦è®°
æĶ¶ è´Ń
éĻĦè¿ĳ çļĦ
æĻļ ä¸Ĭ
åı°åĮĹ å¸Ĥ
Ġ èĩª
åĵ² åŃ¦
ä¿ ĺ
å¾Ī å¿«
æķ´ ä½ĵ
è¾Ĳ é³įé±¼çº²
èĢ Ĺ
çģ« ç®Ń
å¹¶ ä»¥
åĩł ä¸ª
éĻĨåľ° éĿ¢ç§¯ä¸º
çŁ¥ åĲį
åĪĨ éħį
æ°´åŁŁ éĿ¢ç§¯ä¸º
3 ä¸ª
æ¬ £
10 å¹´
æ¶ ¦
æī© å¤§
u p
åŃ ¤
éħį éŁ³
5 2
èĢ Ģ
å·¥ äºº
å¼Ģ éĢļ
åĮĪ çīĻ
æŃ ĩ
æ¯Ķ ä¾ĭ
çŁ ¶
çĭ Ĥ
æ³ķ å®ĺ
ä¸Ģ åº§
ä¸ľ åįĹéĥ¨
äº¿ åħĥ
èµ ¶
å¹¿ä¸ľ çľģ
å¯¼ å¼¹
æĮª å¨ģ
åĮĪçīĻ åĪ©
çļĦ åİĨåı²
åľ¨ è¯¥
ä¹ĭ åŃĲ
èĢĮ è¨Ģ
åĤ ħ
ä¸Ģ æĿ¡
å¢ŀ éķ¿
ç¥ Ģ
æĥ ¯
è£ħ å¤ĩ
çĭ ®
çļĦ æĹ¶éĹ´
éĻ Ģ
åº· çĨĻ
å¯ ¸
çľģ åĴĮ
ç¿ Į
ï½ ŀ
ä»» èģĮ
åıĳçİ° äºĨ
l eĠ
è¯· æ±Ĥ
åĲĮ çĽŁ
åŁĥ å°Ķ
æıĲ åĪ°
æµ· å³¡
æģĲ æĢ
i k
çĶ¨ ä½ľ
åĬ¨ ä½ľ
åŀ Ĥ
æĪĺ çķ¥
ç¥¨ æĪ¿
å½ĵä¸Ń éĻĨåľ°éĿ¢ç§¯ä¸º
èĢĮ æ°´åŁŁéĿ¢ç§¯ä¸º
Ġ I
çļĦ ä¸Ń
ç§ĺ å¯Ĩ
u c
å¤ª åŃĲ
èĦ Ĥ
å¤ ·
åİ ¢
ä¸ĭ éĻį
æŁ Ķ
9 8
ç§ģ äºº
ç² ¤
äºļåİĨ å±±
ä¸ĭ æĿ¥
18 å¹´
æŃ¦ æ±ī
æĤ ī
å¸ĥ å°Ķ
ç¼ħ çĶ¸
åįİ çĽĽ
çĭ Ĺ
éĢĢ ä¼ĳ
i p
çĶŁ çļĦ
éĹ´ çļĦ
éĥ¨ çļĦ
èµ· ä¹ī
åĩº æ¼Ķ
å§ ļ
åĽŀ å½Ĵ
æ» ļ
æŃ¥ åħµ
è¦Ĩ çĽĸ
; -
Ġ è¡ĮæĶ¿åĮºåĪĴ
7 6
ä¸Ĭ åįĪ
è¯´ æĺİ
ç¼ĸ åī§
ç¢ İ
éĢ ¢
è§Ĥ æµĭ
ä¸ŃåĽ½äººæ°ĳ è§£æĶ¾åĨĽ
æľĢ è¿ĳ
éĩį å¤§
çĮ Ľ
åĬ³ åĬ¨
æī¾ åĪ°
ä¸º è¾Ĳé³įé±¼çº²
ä½ĵéķ¿ åı¯è¾¾
O S
æ·± åº¦
çģ Į
æİ¨ è¿Ľ
åįİçĽĽ é¡¿
è¢« è¿«
é¢Ħ è®¡
å½ °
èĬ Ĵ
åĲĪ çº¦
åĬŀ äºĭ
åħ´ è¶£
å¥¥è¿Ĳ ä¼ļ
æĳ ĩ
åĪ ¸
ç»Ħ å»º
çľŁ æŃ£
5 3
ç¬¬ åħ«
ç»ı åħ¸
é©¬ å°Ķ
è¯ķ éªĮ
åº ŀ
åĳ¨ åĽ´
çļĦ éĹ®é¢ĺ
é£İ éĻ©
æºĲ èĩª
å°Ŀ è¯ķ
ç¾İ åĨĽ
ä¿Ŀ åŃĺ
ä¸º æŃ¢
åĬł çĽŁ
å¼ķ åħ¥
æĬķ éĻį
éĺ² å¾¡
å¾¡ åı²
æłĸæģ¯ åľ¨
å¹¿ è¥¿
æ» ©
èĬ± åĽŃ
æĿĢ æŃ»
i f
ç¬ ¼
å» Ĭ
åľ° åĽ¾
åĮĹ èµ·
ä¼ ª
åĳ İ
Ġ202 4å¹´
åģ ·
å²Ľ å±¿
åĬ¿ åĬĽ
âĢ¦ âĢ¦
éĺ ª
åĮĹäº¬ å¸Ĥ
æľ¬ ç«Ļ
èį Ĳ
éļı åį³
Ġ æĽ¾
å¥ İ
è´£ ä»»
e x
ä¸Ń æľī
ä»£è¡¨ å¤§ä¼ļ
h a
Ġ ä»İ
å¤§ è§Ħæ¨¡
éĢ »
ä¸İ åħ¶ä»ĸ
èĤ ĸ
å£° éŁ³
199 7å¹´
çļĦæĥħåĨµ ä¸ĭ
( ).
ä»¥ åīį
éħ ¶
æĹĹ ä¸ĭ
å¸¦ æĿ¥
è®º æĸĩ
çĶ¨ éĢĶ
çĶŁ æĢģ
åįģ åħ«
199 2å¹´
199 6å¹´
åĽ½å®¶ éĺŁ
çı Ĭ
B A
Ġ U
ä¾ ł
å¯¹ å¤ĸ
æ¸© åº¦
è®² è¿°
i st
åĲ ¾
7 7
äº¿ ç¾İåħĥ
çħ§ çīĩ
æŀ Ŀ
è¿Ĳ ä½ľ
ç»ĦæĪĲ çļĦ
ä¿ĥ è¿Ľ
ä»£ çłģ
å¯¹ åºĶ
4 3
çļĦ æĶ¯æĮģ
æľĢ å¤ļ
ä¼ĺ åĬ¿
è½¯ ä»¶
å¾Ĺ çŁ¥
è§£ æķ£
æ¹ ĺ
ç¿ ģ
ä¸¤ æ¬¡
æĮĩ å¯¼
å¤« äºº
è°Ī åĪ¤
çĴ ĥ
èµ ĭ
éļľ ç¢į
åĲį ä¹ī
å¨ ĥ
åĵ¥ ä¼¦
å¤ıåŃ£ å¥¥æŀĹåĮ¹åħĭè¿ĲåĬ¨ä¼ļ
å¹´ é¾Ħ
Ġ m
åįģ ä¸ī
æŀĦ éĢł
ä¿® å»º
éĺ Ķ
ç»ı çĲĨ
èĥ ¸
åľ¨ å¤§
å¼ ¦
åı° ä¸Ń
æģĲæĢ ĸ
çļĦ å·¥ä½ľ
éŃ Ĥ
éļ¾ ä»¥
åį µ
æł ı
å°ı åŀĭ
æĮĩ æİ§
ä¸ĩ åİĨ
ä» ĩ
äºĨ è§£
4 1
Ġ æ¦Ĥ
ä»ĸ è¿ĺ
åİĨ ä»»
åĲ Ĳ
è¢« è§Ĩä¸º
ä¸Ĭæµ· å¸Ĥ
ar t
Ġ 5
æľ ´
è¥¿ åįĹéĥ¨
çļĦ å±±
é©¬ æĭī
æ¯ķä¸ļ åĲİ
é©¾ é©¶
éĤ£ äºĽ
han s
çļĦ å¤ĸ
åĲ ı
ä¸ī è§Ĵ
çļĦ åıĳå±ķ
åı ł
æ· ĺ
194 5å¹´
åħĭ æĭī
éĤ ¨
æ³¨ åĨĮ
h k
Ġ of
å©ļ å§»
å®ĩ å®Ļ
ind ow
æī® æ¼Ķ
è¥¿ å®ī
çŃī çŃī
ç½ĳ çĲĥ
Ġ201 1å¹´
å± ł
åĮĸ çŁ³
æĳĦ å½±
ç¡ «
åĬł å¼º
æ¬¡ å¹´
éĩı çļĦ
èħ Ĳ
éĶĻ è¯¯
ar d
æĲ º
å¹´ ä»£
åĨĽ åĮº
èĪ ±
åı° é£İ
198 8å¹´
æ·¡ æ°´
9 5
å½ ¦
å®¶ äºº
å¤ª ç©º
æŁı æŀĹ
Ġ p
é¢ľ èī²
åľ¨ é¦Ļæ¸¯
åįģ åħŃ
èĦ Ĭ
æľį å½¹
åĲĪ æĪĲ
éĻĨ ç»Ń
éĢ ®
è² Į
åĺ ´
A R
199 4å¹´
å®¶ çļĦ
éĢĢ åĩº
é¹ °
ä»ĸ è¢«
åįĹ éĿŀ
B S
åĬł åĪ©
éĢļ éģĵ
æĶ¿ åįı
åįĹ æĸ¹
æŃ §
éļ¶ å±ŀ
äºİ19 3
åİŁ ä½ı
Ġ201 0å¹´
æĹ ¬
è¥¿ åĮĹéĥ¨
ç¨ į
æ±Ł è¥¿
åı ī
æĶ¿åºľ çļĦ
an t
åħĭ çļĦ
194 9å¹´
çĲĥ åŃ£
ç³»ç»Ł çļĦ
ä»· æł¼
éĩĬ æĶ¾
A M
ä¹Ĳ éĺŁ
ï¼ ı
å®ļ å±ħ
il l
Ġ 10
å¤§ èµĽ
åĳĪ çİ°
çļĦ æķħäºĭ
ä¸Ģ èĩ´
çĽ¸ ä¿¡
ä½ľ åĩº
å¸¦ æľī
ç¬¬ 3
q u
é¦ĸ åħĪ
å¨ ĺ
ä¿Ŀ ç½Ĺ
åĪĨåĪ« ä¸º
åĪ ·
ç¿ ł
åħ¼ ä»»
éĹ ½
æģ °
æİĴ è¡Į
Ġ çļĦæĹ¶åĮºä¸º
Ġ äºİæĹ¶çļĦäººåı£æķ°éĩıä¸ºäºº
Ġ æīĢå±ŀçļĦçľģçº§éĢīåĮºä¸º
æīĢ å±ŀ
éº¦ åħĭ
éĺ¶ çº§
Ġä¸İ æİ¥å£¤çļĦå¸Ĥéķĩ
ĠçļĦ éĤ®æĶ¿ç¼ĸçłģä¸º
ä¸¤ åĲį
èĿ ¶
7 9
æ¸¸ æ³³
ä»»åĳ½ ä¸º
4 äºº
æĬĹ æĹ¥
æı ¡
çĽ¸ äºĴ
åħ³ éĶ®
ç«ĭ åį³
éĢļ è®¯
ç¯® çĲĥ
Ġ t
èĸ Ħ
åĮĹ æµ·
éªĳ å£«
èĩª èº«
åĿ ª
æ¯Ķ å¦Ĥ
æ· »
éªĳ åħµ
åį± æľº
å© Ĩ
æĸ¯ æŀĹ
éĽ Ģ
å¸¦ é¢Ĩ
éĵ Ń
åİŁ åŃĲ
Ġ19 2
ä¸° å¯Į
1 æľĪ1æĹ¥
å¿ §
è¶ ĭ
ä¼ĺ ç§Ģ
éĨ Ĵ
ç¬¬äºĮæ¬¡ ä¸ĸçķĮå¤§æĪĺ
å· «
å¤§ èĩ´
æ· ®
å±ķ è§Ī
æĸ¹ è¨Ģ
å¯¹ æĬĹ
éĢī ä¸º
æĹ¶æľŁ çļĦ
è®¡ç®Ĺ æľº
åĨħ éĻĨ
ä¾Ľ åºĶ
çľŁ å®ŀ
è¯ ı
éĿŀ å»ºåĪ¶
æĦı å¿Ĺ
é¸ £
ç¾½æ¯Ľ çĲĥ
èīº äºº
é»ĳ èī²
è¾ĵ åħ¥
ä¼Ĺ å¤ļ
éĺŁ éķ¿
C O
6 9
ä»ĸ ä¸İ
åĮĹ æĸ¹
åĽº å®ļ
ä¸Ĭ è¿°
æİ ĺ
åħĪ çĶŁ
åħ· ä½ĵ
åį° å°¼
ä¸Ģ çº§
ä»£ çĲĨ
å·ŀ åºľ
æľĿ å»·
éĺ ®
æ´¾ éģ£
å µ
198 9å¹´
ä¸º 2
å¾Ģ å¾Ģ
æ£Ģ æµĭ
å§ ¬
éĥ½ å¸Ĥ
å¯» æī¾
é»Ħ éĩĳ
é¢Ĩå¯¼ äºº
éĿŀå»ºåĪ¶ åľ°åĮº
s p
18 5
ä»£è¡¨ åĽ¢
çªģ çł´
é¼ »
Ġ ä»¥ä¸ĭ
ä½Ĩ çĶ±äºİ
a in
åįģ äºĶ
çģ« å±±
6 2
A l
çī¹ èī²
åįĹ èĩ³
çĽĳ çĿ£
åĹ £
å¼Ģ å±ķ
æĦ Ī
æ³¢ æĸ¯
æĿī çŁ¶
å·² è¢«
æĽ´ ä¸º
ä¾ĭ åŃĲ
æ´Ľ æĿīçŁ¶
æ° ¯
çĻ» ä¸Ĭ
çĶµ è¯Ŀ
å½ĵ å¤©
ä¸¤ åĽ½
æĸ ¤
æĹ¥ æĬ¥
10 00
å±± è¥¿
åĦ Ĵ
åħ Ĩ
èĭ ĳ
çªģ çĦ¶
å®ŀéªĮ å®¤
èĮ µ
ä¾Ŀ æį®
åģ ¿
Ġ å®¶æĹı
å°¼äºļ å·ŀ
Ġ 8
ä¸º 1
åľº çļĦ
åħ¬ çĪµ
æĳ Ĩ
ä¸¹ éº¦
åį Ĵ
è¡Į çļĦ
æ± ª
çĽ¸åħ³ çļĦ
åĽ½å®¶ çļĦ
çī¹ å®ļ
ä¸ī ä¸ĸ
199 3å¹´
åĲĽ ä¸»
å¯ ¨
åĨĽ å®ĺ
åĳĺ å·¥
: ),
å¤§ å¤ļ
199 5å¹´
å°ĳ å¥³
å¦ĩ å¥³
6 00
å°± ä¼ļ
æ²¿ æµ·
æĺİ ç¡®
ä¸»è¦ģ çļĦ
æĪ¿ å±ĭ
éĢ® æįķ
4 ä¸ª
åı² ä¸Ĭ
199 1å¹´
on g
è½¬ åĲĳ
æī© å±ķ
å¤ ķ
å¤§ æ¡¥
ä¾ ¨
å°¼ åħĭ
èµĦ äº§
5 1
èĦ ı
éĻ ¨
çļĦ åĲĮ
æľº åĪ¶
éĵľ çīĮ
è¯ģ å®ŀ
æŃ¤ æ¬¡
åĪ¶ å®ļ
å®ĥ æĺ¯
ç»Ŀ å¯¹
åĬ Ŀ
å¤§ å¥ĸ
åĩ Ģ
Ġ éĺ¿
ä¸ Ľ
è¾ °
ä¸İ åħ¶
18 0
æ£Ģ æŁ¥
ä¸Ģ æ®µ
å¤§ åİ¦
ç§ĳ å¤«
äºļ ç¾İ
åĮĸ åĲĪçī©
ç² Ĺ
åĲ¯ åĬ¨
Ã ©
æ³ķåħ° è¥¿
çļĦ çĶµå½±
åĪĨ ç¦»
è§Ĩ é¢ĳ
éĵ ¸
Ġ åĴĮ
åľ¨ äºİ
åī§ æľ¬
ç´§ æĢ¥
è¯Ħ ä¼°
åĿĩ ä¸º
Ġ zh
åĨľ æ°ĳ
åĵ¥ä¼¦ æ¯Ķäºļ
åĬł æĭī
æ¶ Ĥ
ä¸ ĳ
çī¹åĪ« æĺ¯
en d
ä¿Ŀ å®Ī
ä¹ł æĢ§
èĲ¨ æĸ¯
åī§ éĻ¢
åºŁ éĻ¤
åĬ «
åŁºéĩĳ ä¼ļ
2 ä¸ª
199 0å¹´
198 5å¹´
çŁ ©
åľº æ¯ĶèµĽ
åĢ ¡
ä¸»è¦ģ æĺ¯
ä¹ĭ æĪĺ
æī «
è´ ©
èĢĮ éĿŀ
æ± °
è´¨ çĸĳ
çŃ¾ è®¢
ä¸Ń è¢«
ä¸Ĭ æľī
çİ° ä»Ĭ
æ± Ģ
åİŁ åĪĻ
åĨĽ åĽ¢
å½¢ å®¹
éĻķ è¥¿
ä¸ĭ ä»¤
éĦ Ĥ
å¼ ¯
åŃ¦ å£«
ç±³ äºļ
åĬª åĬĽ
åħ¶ä¸Ń åĮħæĭ¬
ç»Ļ äºĨ
ä¼ļ éķ¿
ç»´ æĬ¤
å¸Ń ä½į
çīł ä»¬
a st
æĭ ĺ
éĽ Į
æĮĩ å®ļ
åįĩ çº§
é© ³
æ½ Ń
çŃī ä¸º
é¾ Ł
éĺ» æŃ¢
èĥ½ éĩı
åŁİ åł¡
åı· çļĦ
åįİ äºº
èģĮä¸ļ çĶŁæ¶¯
ä¿Ŀ éļľ
åĭĭ ç«ł
æłĩ æľ¬
ç©Ĩ æĸ¯æŀĹ
åĽ° éļ¾
è¿Ļæł· çļĦ
æŃ» åĲİ
çļĩ åĲİ
ç§ĳ åŃ¦éĻ¢
æ¶ Į
198 4å¹´
æĥħåĨµ ä¸ĭ
äºļç¾İ å°¼äºļ
æĹ¶ æ®µ
æĺ¯ä¸Ģ é¢Ĺ
åħ¶ä¸Ń ä¸Ģç§į
Ġ200 8å¹´
åĲİ ç»Ń
åł ª
ç£ ¨
Ġ 7
é¦ĸ ä¸ª
ç§į åŃĲ
çł ĸ
èĲ¨ å°Ķ
çķĻ ä¸ĭ
èĵ ¬
éĨ ĩ
å¯ Ĵ
åĪ© çĽĬ
äºĮ äºº
é©¬ éĩĮ
äº¦ æĺ¯
æ»¡ è¶³
2020å¹´ ç¾İåĽ½äººåı£æĻ®æŁ¥çļĦæķ°æį®
å¥¥ å°Ķ
åĺī éĿĸ
å¿ ½
æĥ Ł
åĢ º
å¤§åŃ¦ çļĦ
æīĭ æľº
åĬ© çĲĨ
å»¶ éķ¿
çļĦ ä¸¤
ä¹Ł ä¸į
åıĤ éĢī
æķ ¢
æľ¬ åľ°
Ġ æĹ©å¹´
ä¸» åĬŀ
åĬł å·ŀ
æĶ¶ è§Ĩ
åĪº åı²
ig h
å° ¹
å¾· çļĦ
å¼Ĺ æľĹ
ä¸Ń éĹ´
ä»¥ å¤ĸ
åħ¬ å®ī
åĳ¨ æľŁ
èĮĥåĽ´ åĨħ
åįģ åĽĽ
æ¶Ī è´¹
çļĦ åħ³ç³»
å¥ Ķ
æıĲä¾Ľ äºĨ
åĭ Ł
æ°Ķ æĹĭ
ä¸Ń æľŁ
æĬ ĳ
è®¾ å®ļ
ç»´ æĸ¯
æº ¯
æĽ´ æĸ°
ä¸ĸçķĮ ä¸Ĭ
1 ä¸ª
å¤§ å¹ħ
å¹¶ ä¸İ
å¤į åħ´
åĬŀäºĭ å¤Ħ
åľ¨ åĨħçļĦ
éĹ ª
ä»¤ äºº
èº« ä¸º
çº³ ç²¹
æ´» è·ĥ
ä¿® æŃ£
éĤ» è¿ĳ
æĺİæľĿ æĶ¿æ²»äººçī©
ä¸ľ ä¸´
ç©º æ°Ķ
åıį æĺł
é¢ ĩ
åİŁ åĲį
å½¢ çĽ®
é¤Ĳ åİħ
A C
èĩ³ äºİ
æī ¶
ä¸Ĭ ä¸ĭ
åĳĬ è¯ī
ç¢ Ł
æļ´ åĬĽ
- -
æĻĭ çº§
s h
ac k
198 6å¹´
8 5
åįı è°ĥ
çİ» çĴĥ
å½ķ éŁ³
æĤ ²
ä¸į åĪ°
Ġ200 9å¹´
è Ł
çİ° å®ŀ
ä¼ł åªĴ
ç¿ ħ
çĽĳ çĭ±
00 å¹´
åħļ çļĦ
æĭ ¼
æĭ ĸ
ä¼ļ ä¸Ĭ
åĩº åıĳ
åĪ© æĸ¯
å¾· å°Ķ
æİ¥ æĶ¶
ä¹¦ éĻ¢
åħ¸ ç¤¼
å½ĵåľ° çļĦ
èķ ¾
æ·ĺ æ±°
æĹ¥ æľŁ
ä»Ĭ å¤©
éĢ ¼
la y
s s
æ¸ħ åįİ
åı¦ æľī
åįģäºĮ å¹´
åİŁ å§ĭ
åįĩ ä»»
éĵ¶ çīĮ
é£Ł åĵģ
19 ä¸ĸçºª
æĸ¯ é¡¿
èģĮ ä½į
æĸ Ĳ
å¯ ĵ
åıĳ æĺİ
åº¦ çļĦ
ç«ĭ æĸ¹
å¸ĥ èİ±
æĤ£ èĢħ
æĹ¥ æ²»
æĳ §
r an
å· ¢
äº§çĶŁ çļĦ
ç¡®è¯Ĭ çĹħä¾ĭ
i an
ä»ĸ ä¹Ł
åħį è´¹
åİŁä½ı æ°ĳ
E D
ç¨ »
é±¼ ç±»
äºļåİĨå±± å¤§
å·² æľī
æİ¨ å¹¿
æı´ åĬ©
u sĠ
åľ¨ ä¸Ģ
è¿ĳ å¹´
åĨľ æĿĳ
1 20
çļĦ è®¾è®¡
äº² çİĭ
è¥¿ åħ°
æ°´ åºĵ
ç»´ åŁĥ
èĢĥ åı¤
åī¯ ä¸»ä»»
æľī æľº
å¼ł ä¸ĵè¾ĳ
åľ¨ ä¸Ń
åĿ Ŀ
ç¥ ł
çĻ Į
ç«ŀ éĢī
198 0å¹´
åī¯ ä¸»å¸Ń
æĺ¾ èĳĹ
Ġ å½ĵ
çĶŁ æĪĲ
åı¸ é©¬
ç» ³
æīĢ è°ĵ
çĲ ¼
å¿ į
å¹³ åİŁ
å¤© çļĩ
æĶ¹ åĲįä¸º
åħ¬åħĥ åīį
6 3
ä¾Ŀ çĦ¶
åĸľ åī§
æł ĭ
è£ħ é¥°
æĺŃ åĴĮ
çĶ± æŃ¤
çĲĨ è§£
åıĳåĬ¨ æľº
ç§° ä½ľ
è½¬ æį¢
é¾Ļ æ±Ł
17 9
åį± éĻ©
æĺ¯ å¾·åĽ½
ç»Ī äºİ
çļĦ æĪĲåĳĺ
åľ Ń
ä¸Ģ è¯į
å±± åĮº
éĤ£ ä¹Ī
æ¸¸ è¡Į
Ġ202 5å¹´
éĿł è¿ĳ
7 2
å¿ Ļ
ç©º ä¸Ń
é¹ ¤
å®Į å·¥
æīĢæľī çļĦ
è´§ å¸ģ
ä¿® å¤į
éļĶ ç¦»
åĩ Ŀ
åľ° å¸¦
ä¸Ī å¤«
æł¡ åĽŃ
ç¡® ä¿Ŀ
ä½ĵèĤ² åľº
2001å¹´ äººåı£
è¿Ľ æŃ¥
èĥ½ æºĲ
éĩĩ è®¿
è¿Ĳ çĶ¨
äºĶ æľĪ
æīĵ ç®Ĺ
æ½ľ èīĩ
çĿ ¡
å¢ŀ å¼º
æľ¬ çīĩ
å¾· åįİ
W indow
çŁ Ľ
èĴ ¸
198 3å¹´
18 4
æ¯ĶåĪ© æĹ¶
ä¼ļ åĳĺ
åį¡ ç½Ĺ
çłģ å¤´
ä¹ī å¤§åĪ©
é² ¤
æĴ° åĨĻ
å¯¹ æĸ¹
èĻ ¹
å¾Ĺ åĲį
éĢļ ä¿¡
æĭ¿ ä¸ĭ
E R
æł ½
æĸ¯ æĭīå¤«
æī§ æĶ¿
éĢĤ åĲĪ
æĭĨ éĻ¤
å§ Ĭ
æ³ķ çļĦ
æĸ¯ æīĺ
èĴĻ çī¹
è©¹ å§Ĩæĸ¯
I S
åĲ ģ
Ġ ç¾İåĽ½
èµĦ æľ¬
çŁ³ æ²¹
æ´¾ åĩº
å±±ä¸ľ çľģ
å¤§ ä¼Ĺ
èĢ Ĳ
æ³¢ ç½Ĺ
åĨħ æĪĺ
ä¹¦ ç±į
åĬŀ çĲĨ
8 7
åĪĻ ä¸º
æĮĩ ç¤º
198 7å¹´
å»ºç«ĭ äºĨ
åĽ´ ç»ķ
I C
åī Ĭ
å¸Ĥ ä¸Ńå¿ĥ
å¼ı çļĦ
ç¿ Ķ
6 1
A P
ä½Ľ ç½Ĺ
è´µ å·ŀ
ä¹Ł å°±æĺ¯
Ġ æĸ°
è®¤ è¯Ĩ
çķĻ åľ¨
å»ºçŃĳ çī©
åį¢çĵ¦ å°Ķçľģ
æ³ ¡
æĪĲ å¹´
æ³ķ åºŃ
èĢĮ ä¸įæĺ¯
å¤© çĦ¶
åİĺ ç±³
åĩº åħ¥åı£
r ic
çļĦ æ°´
æĺ¯ä¸Ģ åº§
èĸ Ľ
æİĪ æĿĥ
åľĨ å½¢
é¦ĸ çĽ¸
æĶ¹ åĪ¶
ç®¡çĲĨ å±Ģ
Ġ åħ¶ä»ĸ
äº ¥
åł Ĩ
è¾¹ å¢ĥ
æĿĢ å®³
ç»¿ èī²
å¸¸è§ģ çļĦ
ä¸Ģ æŀļ
èĩª æĿĢ
å°Ĩ åľ¨
éĶĢ éĩı
æĶ¶ éĽĨ
ãĥ »
èĢĮæ°´åŁŁéĿ¢ç§¯ä¸º 0
Ã Ĺ
éĹ ¸
200 0
æĦı åĳ³
çĽ Ĩ
æĺİ æĺŁ
åĲĦ èĩª
åĲĦ ç±»
è¾½ å®ģ
8 9
ä»¥ åįĹ
åĪĨ æĶ¯
æĢģ åº¦
æľĢ ä½İ
16 0
å¤§ éĢī
è®° å¿Ĩ
åĿļ æĮģ
ä¸ŃåĽ½ çļĦ
åĲī æŀĹ
åĪĨ è£Ĥ
åĲĮ æĢ§
æł¼ æĭī
çĬ¹å¤ª äºº
Ġ ç¬¬
éķ¿ å®ĺ
å¤« åį¡
æĸ ĭ
èŃ¦ åĳĬ
or t
ä»Ĭ æĹ¥
1 ä¾ĭ
è¾¾ å°Ķ
ä¸ĭè¾ĸ çļĦä¸Ģä¸ª
æĬ ĵ
æ± Ŀ
èģĶåĲĪ ä¼ļ
åĽ½æ°ĳ æĶ¿åºľ
ĠT h
å®¶ ä¸Ń
èĥ º
å¹³ æ°ĳ
æŁ´ æ²¹
6 äºº
æĹ¨ åľ¨
èĪ Ł
ç§ĳ åŃ¦å®¶
è¿ŀ ä»»
æµĻæ±Ł çľģ
n e
çİĩ ä¸º
å¼Ł å¼Ł
çļĦ åĲİ
å¹¶ è¢«
å¿ħ è¦ģ
åĪĨåĪ« æĺ¯
ä¸ ŀ
çŃī çº§
æł ª
åı¯ä»¥ åľ¨
a sĠ
å± Ī
çļĦ äºĭ
ä»¥ ä¸º
å¥¹ ä»¬
æĶ¯ æµģ
åī§ éĽĨ
æĹħ è¡Į
Ġ é¦Ļæ¸¯
æĺ¯ é¦Ļæ¸¯
âĢ Ļ
åħĭ æŀĹ
è¿Ļ é¦ĸ
äº² èĩª
æ¯Ľ æ³½
ç¤ ģ
198 2å¹´
èİ± èĮµ
æ»¨ æµ·
æĬ ±
äº¤ æį¢
æĭ ¨
é»Ħ èī²
éĴ »
è§Ħ èĮĥ
Ġ in
æĸ¯ æ´Ľ
å´ ©
æĪĲç«ĭ çļĦ
Ġ ä»ĸ
Ġ æĪªèĩ³
å¹ ½
æ¶Ī å¤±
å® °
é»ĳ é¾Ļæ±Ł
8 00
çł Ĥ
èĪª å¤©
åįł åľ°
ä¸º æŃ¤
ä¸Ĭ å¸Ĥ
å·¥ç¨ĭ å¸Ī
è¿Ŀ åıį
åĳ¼ åĲģ
å°¤åħ¶ æĺ¯
æĳ§ æ¯ģ
çº§ åĪ«
Ġ 9
æĦŁæŁĵ èĢħ
19 20å¹´
æĦı å¤ĸ
ç§į æ¤į
â Ķ
çĭ ¼
æĶ¶ èĹı
çŃ¾ çº¦
è¿ ¦
åľ¨ 197
å¤ļ å°Ķ
æ¬§ çĽŁ
åı¸ä»¤ éĥ¨
Ġ åī§æĥħ
æºĲ äºİ
éķ¿ åŃĲ
æĺ¯ä¸Ģ éĥ¨
åįĩ ä¸º
æ ª
åŃ¦ çļĦ
èĭ± åĨĽ
åį¡ æĭī
åĲī å°Ķ
Ġ200 7å¹´
5 äºº
å°¼ è¥¿äºļ
éĻ ª
è½¦ åİ¢
è¯¥ æĿĳ
æł¡ åĮº
æ³¢ å°Ķ
m an
èĢĮ ä¸į
å¾· æĭī
en s
å© ´
ä»¥ åĮĹ
æ¸¯ åı£
å¾Ī å¤§
æ¦ Ħ
ä»» æľŁ
å¦ Ļ
å®ī å¨ľ
195 0å¹´
æ¯Ľæ³½ ä¸ľ
åħ¶ å®ŀ
æŃĮ è¯į
èĦ ¸
å¾ª çİ¯
åį ¸
å°Ħ åĩ»
1 Ġ
I D
è¿Ļ éĩĮ
å¾Ĺ åĪ°äºĨ
ç§ĺä¹¦ éķ¿
Ġ æŃ¤å¤ĸ
æĬ «
å¯¹ åħ¶
åı¤ åħ¸
èµ° åĲĳ
çī¹ éĩĮ
äºļ åĨĽ
æİ¥ æĽ¿
æ¼Ķ å¥ı
èĳ£äºĭ éķ¿
çļĦ åĦ¿åŃĲ
J R
ä¼ ½
é©¬ æĸ¯
æĢ§ èĥ½
1 2å¹´
åľº æīĢ
çĭ Ń
ï¼ ħ
é¡º åĪ©
b er
å¤§ å°ı
åĴ ĸ
in e
å®¡ æŁ¥
M ar
åĮº è®®ä¼ļ
éĺ² æŃ¢
çĶŁæ´» ä¹łæĢ§
ç¦ ħ
é¦ĸ åºľ
å¼º åº¦
åĽ ļ
é¦ĸ ä½į
ä¸»ä¹ī èĢħ
çļĦ éĥ¨åĪĨ
å¯ ®
æĪĲ éķ¿
è¢ ĭ
å·ŀ åĪºåı²
ç¥ŀ è¯Ŀ
å¤§ åį«
å« ģ
7 4
ç«ĭ åľº
äºĮ æĪĺ
ä» ķ
éĥ¨ çĶµå½±
ç´¯ è®¡
âĶ Ģ
æĭ ±
å¸Ĥ æĶ¿åºľ
7 äºº
çī¹ æĭī
éĢĶ ä¸Ń
è·Ł éļı
å® Ľ
éĽ į
å¾Ĺ ä¸»
é¢Ĩ äºĭ
åķĨ åĵģ
ou n
åįģ ä¹Ŀ
åŁ¹ è®Ń
æıĲ åıĬ
A N
æķ° ä½į
ä¸¤ èĢħ
(, ;
ç¼© åĨĻ
O N
çĤ ī
åıĹ æ¬¢è¿İ
åĲĦ åĽ½
æł¹ å»·
ä¸» åľº
é¦ĸ æĴŃ
ĠC h
ä½Ĩ ä»ĸ
é¦ĸ å¸Ń
å¸ĥ éĩĮ
æ±Łèĭı çľģ
çļĦ å¥³
æĪĲ äºº
èĤ Į
åģľ éĿł
åĲ ¹
å°¼ å°Ķ
çļĦ éŁ³ä¹Ĳ
çĤ¹ çļĦ
éĿ¢ ä¸´
ä½¿ åħ¶
éĻ· åħ¥
çļĦ ç¬¬äºĮ
éķ¿ æ±Ł
çĶŁæ´»ä¹łæĢ§ ä¸įæĺİ
ä¸º åħ¶
è¾ Ł
å¾· è¯Ń
é¼ İ
å¾· åĨĽ
è¾ ¨
éŁ µ
åĩºçīĪ ç¤¾
2 Ġ
èĢ ķ
æľĪ çĲĥ
å°Ĩ é¢Ĩ
ç¦» åŃĲ
ä¸Ĭ åįĩ
æ£ ĺ
æ´¾ çļĦ
ç½Ĺé©¬ å°¼äºļ
æĥ ¨
ä¸Ģ åľº
ä¸Ģ å°ıæĹ¶
èµ« å°Ķ
åŁ ĭ
éķ¿ è¾¾
è¢« æįķ
èĭ ¯
çĶĺ èĤĥ
o h
çļĦ è§Ĵèī²
çĶ «
åľº æĻ¯
ç °
çļĦä¸Ģ äºĽ
å·´ å°Ķ
æī¿ è¯º
ä¼¼ ä¹İ
çĤ¸ å¼¹
20 19
éģ ¥
éĽ ¾
å¤© ä½ĵ
åħļ åĳĺ
éĽ· æĸ¯
åĲĦ ä¸ª
" .
Ġ èĻ½çĦ¶
é¢Ĩ åľ°
æ¯ı æĹ¥
æĿ¡ ä¾ĭ
æĺ¯ ä¹Įåħĭåħ°
åħ¬ æĸ¤
åīį åĲİ
å¤ĸäº¤ éĥ¨
å¸ Ĳ
æķ° çļĦ
çłĶ åıĳ
èĢĥ è¯ķ
åľ¨ åı°æ¹¾
éħį å¤ĩ
è¾¹ ç¼ĺ
ä»ħ æľī
åĬłåĪ© ç¦ı
éģĵ å¾·
ou r
è¹ Ī
S h
éħ ·
çĪ± æĥħ
ä¼ļè®® åĳĺ
ä¸¤ ä¾§
æ¡ Ĩ
å¸¸ åĬ¡
æĶ¯ ä»ĺ
äººæ°ĳ å¸ģ
èı Ĭ
æ²¿ éĿ©
æĬµ æĬĹ
ä¸Ģ åĪĩ
å¹¶ çĶ±
æĸĩ æĺİ
ç§¯ åĪĨ
1 åı·
Ġ èĥĮæĻ¯
Ġ In
åľ° è´¨
æľ¬ äºº
åįģ æľĪ
åĮħ åĽ´
çĽĳ å¯Ł
åħ¬å¼Ģ èµĽ
c e
çļĦ å¹³åĿĩ
å¤ ¹
å¤ļ äºº
åı¦ä¸Ģ æĸ¹éĿ¢
è¥¿ ä¾§
å¹³ è¡¡
ç¦ı å·ŀ
äºİ19 2
æĢĢ çĸĳ
åĮº åĨħ
äºī åıĸ
ä¸ŃåĽ½å¤§éĻĨ çļĦ
è¾ŀ èģĮ
åľ¨ èĭ±åĽ½
çĶŁ åŃĺ
å¼Ģ å¹ķ
è¨Ģ è®º
èĥ Ĩ
çļĦ ä½įç½®
åı¯ è§ģ
åĿ Ĥ
èĤ ł
éĥ½ åľ¨
ä¼¯ çĪµ
æ¸¸æĪı çļĦ
è ¤
å¼ı æľĪåı°
åĩºçİ° äºĨ
å·¡ æ´ĭ
Ġ ä¸ŃåĽ½
åŃ ķ
æīĭ æľ¯
åºĨ ç¥Ŀ
çĲī çĲĥ
æĪĲ äºĨ
è®¾ äºİ
æĮģ æľī
æī £
å·¥ä½ľ å®¤
æ±¡ æŁĵ
åıĳ æĮ¥
æīĢ éĩĩçĶ¨
èĭ± éĩĮ
å¥ ĭ
éĺ¿ æł¹å»·
æĬ¥ çº¸
æ² ª
æ£Ģ å¯Ł
è ¤Ĳ
æī ģ
åıĳ è¨Ģ
éĺ¿ éĩĮ
åĲ« æľī
çŃĸ çķ¥
åĤ ¬
é¼ĵ åĬ±
17 8
èĥľ åĩº
çŁŃ æļĤ
åľ° åĲį
éļ ĭ
çı Ģ
åħ¶ä¸Ń ä¸Ģ
çº¿ ä¸Ĭ
è¶³ å¤Ł
é¢ĳ çİĩ
é¡ ·
ç«Ļ çļĦ
æıĲ è®®
æİ¨ èįĲ
çĪ± å¾·åįİ
èīºæľ¯ å®¶
Ġ 12
åĲ §
ic e
æ®ĸæ°ĳ åľ°
è¥ Ħ
åĪĻ åľ¨
Ġ æį®
è° Ń
é¢ģ åıĳ
åĩĮ æĻ¨
è¯ ±
ç¬¦ åı·
Ġ w
éĹ ²
åĩº åĶ®
ä¸ľ ä¾§
è¾¾ å·ŀ
åıĺ ä¸º
å¤§ èģĶçĽŁ
åįķ çĭ¬
çĻ» åľº
èĵĿ èī²
æĮ ĸ
åħ¶ä¸Ń çĶ·æĢ§
Ġ åľ°æĸ¹
çº ¤
æĪĲ å°±
ä¸ī æľĪ
éĢı éľ²
åĩ ī
åľº åľ°
åĶĲ æľĿ
åľ¨ 196
æĪĺ å£«
æµ· å¹³éĿ¢
ä¿Ħ åĽ½
ä½įäºİ ä¸ŃåĽ½
éĻĦ å±ŀ
it h
éĢĤ åºĶ
å¢ĥåĨħ åħ±æľī
äºļ çĽ®
è½¦ éĺŁ
çĽ´ å¾Ħ
åĻ¨ çļĦ
åĨĻ ä½ľ
èµŀ åĬ©
)ãĢģ ãĢĬ
å¼Ĺ éĩĮ
è¿½ æº¯
é¢ģ å¥ĸ
åĩŃ åĢŁ
å°Ķ å¤«
éĿĴ å²Ľ
è¥¿ æİ¥
é¢ Ī
åĪ¶ çīĩ
æīĢ å¤ĦçļĦ
æł¼ ä¸º
åı² å¯Ĩ
195 8å¹´
æĽ¿ ä»£
ç¬¬ ä¹Ŀ
èģĶ ç»ľ
æ²³ çļĦ
èº« åĪĨ
çĵ¦ å°Ķ
èĸ ª
æĺ¯ åĽłä¸º
é¹ ħ
äºİ201 6å¹´
9 2
æ° ¨
åħ¬ äº¤
æŃ£ éĿ¢
ä»ĸä»¬ åľ¨
f f
åĽĽ æľĪ
äººåı£ ä¸º
åĢ¾ åĲĳ
8 6
åĲ ŀ
æĿĳ èĲ½
çļĦ å½¢å¼ı
ä¸¤ ä½į
æĻ® é²ģ
èħ Ķ
æ£ ķ
æľª æľī
ä¸Ńåįİäººæ°ĳåħ±åĴĮåĽ½ æĶ¿æ²»äººçī©
çļĦ æĸ¹æ³ķ
æĹł çĹĩçĬ¶
éĽĨ åĲĪ
194 8å¹´
åįļå£« åŃ¦ä½į
çļĦ æĢ»
æĽ °
æ±ī æĹı
æ²³åįĹ çľģ
æ¸¸ åĩ»
è¶³ åįı
å®£ ç§°
æĸ ¥
å¥ ¶
å½ĵ æĹ¥
æŃ£ ç¡®
" ),
9 3
åľ¨ ä»ĸ
åĬ ²
å¿ ĺ
ç§ĳ å°Ķ
åľ¨ æĸ°
å·¡æ´ĭ èĪ°
Ġ æľī
é«ĺ è¾¾
å¤© åĲİ
é¢Ħ ç®Ĺ
åĲ¸ æĶ¶
A r
éķ¿ æ²Ļ
Ġ200 6å¹´
æī© å¼ł
ç«ŀ èµĽ
å½ĵéĢī ä¸º
åĨ ķ
åĽ½ åĨĽ
åı¤ èĢģ
éº Ł
000 äºº
7 3
ç§ĳçļĦ åħ¶ä¸Ńä¸Ģç§į
åĽ Ĭ
æĹ¶ åĢĻ
æ³ķ è¯Ń
è¶³çĲĥ éĺŁ
æµ·æĭĶ ä¸º
æĸĩ èīº
åī§ åľº
æ¯ı å¤©
åŁ¹ åħ»
çĲ ª
åħ¬ åĳĬ
è¥¿ éĩĮ
æĪĳ çļĦ
åĲ »
èĪŀ è¹Ī
éĴ ĵ
å·² çŁ¥
åĨ³ è®®
å¹² éĥ¨
èľ ľ
æľº çļĦ
æ°Ķ åİĭ
ç¢ §
Ġ åľ£
æģ© çľģ
U n
i aĠ
Ġ 0
éĿŀ æ³ķ
è± «
ç¢ ±
éŃ ģ
ä¸¥ æł¼
éģŃ éģĩ
æķĪ åºĶ
å® ´
èĪ¹ åıª
äºĴ çĽ¸
è¿Ļ é¡¹
å®ī ä¸ľ
çĶµ æ°Ķ
æĹł è®º
äº« å¹´
è¶³çĲĥ è¿ĲåĬ¨åĳĺ
éĢĲ æŃ¥
é¸Ł ç±»
åī ª
åĪĽ å§ĭ
åĪ¶ä½ľ çļĦ
æİ ł
åĲĪ æ³ķ
æ¼ ı
å¸Ĥ æĶ¿
åĲĮ æĹ¥
è¶ħ è¶Ĭ
è®¾è®¡ çļĦ
1 5å¹´
åĪĨ åĮº
å§ ľ
ç¾İåĽ½ çļĦ
è§Ĩ è§ī
å¤§ å¸Ī
èĢģ å¸Ī
è¶³çĲĥ ä¿±ä¹Ĳéĥ¨
åģ¶ åĥı
å§ĭå»º äºİ
æĪĲ éĥ½
ç© ·
å¤ĸ éĥ¨
åĬł éĢŁ
å½¢ çĬ¶
åıĳçĶŁ åľ¨
å®¡ åĪ¤
å½ķ å½±
åıĮ æīĵ
å¤§ éĺª
æ£ ī
æļ ¨
é¢Ħ æµĭ
æıı ç»ĺ
æł½ åŁ¹
æĿ¥ è¶Ĭ
çĽ´ éļ¶
Ġ ä¸Ń
åĴ ¨
äºİ201 5å¹´
åĽł åħ¶
194 6å¹´
ä»İ æŃ¤
ç¾¤ ä½ĵ
æķĳ æı´
åħħ æ»¡
åĵĪå°Ķ æ»¨
åĪ ł
æĹ¶ åĮº
çº¦ æľī
éĶ Ĳ
æ¸¸ å®¢
åĪĽ æĸ°
æļ ĸ
ä¸»ä¹ī çļĦ
èĭı ä¸¹
ä»ĸæĽ¾ ä»£è¡¨
è· µ
ä¸ī äºº
æİ¥ ä»»
æº ĥ
æĵ ħ
åģĩ è®¾
å¤ıä»¤ æĹ¶éĹ´
Ġ andĠ
çĲĨ å·¥
æģ Ń
éĤ ª
å¯» æ±Ĥ
éĥ¨ ç½²
æĶ¶ åĪ°
æ¨¡ æĭŁ
è¶Ĭ æĿ¥è¶Ĭ
æĸĹ äºī
æĸ ©
æ¯ ħ
æļĤ åģľ
ç¦ıå»º çľģ
çļĦ ç¾İåĽ½
å½± åĥı
èĮ ħ
åĽĽå·Ŀ çľģ
æĺ¯ ä¸º
âĢĿ )
èģĶ ç½ĳ
ç§° åĳ¼
198 1å¹´
éĺ¿å°Ķ åįĳ
Ġ ä¸ĭ
çļĦ åİŁåĽł
å¸ ½
çĲĨ æĥ³
éħį ç½®
åĬłåħ¥ äºĨ
è¿ģ èĩ³
çļĦ åĲįåŃĹ
å¼Ģå§ĭ åľ¨
ç¨ Ģ
è§Ĵ åº¦
åĽ½éĻħ æľºåľº
197 9å¹´
8 2
ç§ ©
18 3
æĹı ç¾¤
åĽ¾ åĥı
ub e
Ġ æĺ¯
ä»¥ ä¾¿
è¾ĵ åĩº
æīĢåľ¨ åľ°
è¡Į ä¸ļ
å·¥ èīº
æīĭ æ®µ
èª ĵ
æļĤ æĹ¶
åĩ ¶
å» ĸ
å±ł æĿĢ
ä¸ľ æµ·
çĽ´ æĴŃ
ä¼Ĭ åĪ©
ä¾Ŀ èµĸ
äºİ201 4å¹´
èģļ éĽĨ
åĲİ è¢«
åģľ è½¦
æĹłçĹĩçĬ¶ æĦŁæŁĵèĢħ
éĺ¿å°Ķåįĳ æĸ¯
å¸¸ å§Ķ
æĺŁ çŃīä¸º
ä½İ äºİ
I P
æĢ ķ
äºİ19 0
ç»Ħç»ĩ çļĦ
ç¼ ´
ä¸¾åĬŀ çļĦ
ç¹ģ æ®ĸ
è·¯æĺĵ æĸ¯
èĤº çĤİ
åľ¨ ä¸Ģèµ·
æĸ¯ åį¡
åĪ¶ä½ľ äºº
éĹ» åĲį
c om
ç« Ł
æķĻ å®Ĺ
äºĮ æľĪ
èĤ ¤
åħ±åĴĮ åħļ
å¸ ĸ
ç½Ĺ ä¼¯çī¹
on t
åľ¨ åĮĹäº¬
ä¸Ń æľĢ
åĲĮæĹ¶ è¯¥åľ°
9 6
ãĢĭ ãĢĬ
ä¾ £
åĪ¶ æĪĲ
å·¨ å¤§
åħĭ å°Ķ
ç»´ å¤ļ
èĲ½ æĪĲ
éŀ ĭ
8 äºº
çļĦ è¯Ŀ
äºİ201 2å¹´
5 ä¸ª
5 ç±³
åŃ¦ ç§ĳ
å®¤ åĨħ
æıĲåĩº äºĨ
åĨħéĻĨ çľģä»½
æ¼ ł
çº¢ åĨĽ
äºİ201 8å¹´
p h
ä¿Ŀ éĻ©
äºĶ åįģ
èĴ ²
çĶ° å¾Ħ
çļĦ æĥħ
ä¼ļ æľī
æľª çŁ¥
å¯Ĩ åĪĩ
è´¹ çĶ¨
å° ¿
è®¤ åı¯
æ¶Ī éĺ²
èĩ³ 2
å¤© åłĤ
éĺ² ç©º
è¾ħ åĬ©
Ġ ä¸º
è½ ©
ä¸» äºĭ
èĭ± åĳİ
äº¤ ç»Ļ
äºĶ ä¸ª
çłĶç©¶ éĻ¢
è§Ĥ çľĭ
v er
éĤ ±
æīĵ çł´
æ¡¥ æ¢ģ
197 8å¹´
| |
ä¸Ģ èģĮ
ç½Ĺ å¾·
ç¨ £
è®¤ è¯ģ
èĩª æĪĳ
è·¯ æ®µ
çĭ¬ç«ĭ çļĦ
åĨĴ éĻ©
éĥ¨ éĥ¨éķ¿
çĲĨ çĶ±
å§Ķ æīĺ
åķĨ åºĹ
çĶ» å®¶
æľĢé«ĺ çļĦ
å« ©
ä¼ļ è¯ķ
çī¹ åĮº
äºİ201 7å¹´
æ£Ĵ çĲĥ
âĢ ĺ
æĪĺ éĺŁ
èĢ¶ ç¨£
å¡ŀå°Ķ ç»´äºļ
å¥ ł
äºº æĿĥ
å·´ æĭī
éĩı åŃĲ
åī¯ ä¹¦è®°
èģļ èĲ½
a h
å¤© æ°Ķ
èµĦ åĬ©
èĬĤ åº¦
ç¬¬ 4
æ¼Ķ åĮĸ
æĶ¹ è¿Ľ
å¼Ĺ éĽ·
åıĳè¡Į çļĦ
Ġ ç®Ģä»ĭ
ä»¥ ä¸ĬçļĦ
æĶ¹ ç§°
è¯Ħ ä¸º
é£Ł çĶ¨
æĴ¤ éĢĢ
å¤©æĸĩ åı°
A S
æľ¬ ä½ľ
åĬł åĵ¥
æī© å»º
l y
å½± è§Ĩ
æł Ĺ
åħ¶ä¸Ń ä¸Ģä¸ª
çļĨ ä¸º
çĽ¸åĲĮ çļĦ
èĬĿ åĬłåĵ¥
ç© ´
éĢļ çŁ¥
åİŁ åħĪ
é©¬ ä¸ģ
çĤ ¼
åº§ æłĩä¸º
æ´Ľ åħĭ
çĻ¾ ä¸ĩ
ic h
è´§ è¿Ĳ
è½°çĤ¸ æľº
ĠæĽ¾ ç¥ĸ
ä»¥ æŃ¤
ä¸į æķĮ
ä½įäºİ è¯¥
Ġåľ°æĸ¹ èµĦæĸĻ
çļĦ æĹ¥
äººæ°ĳ ä»£è¡¨å¤§ä¼ļ
æ¤ İ
äºİ201 3å¹´
å¤§ å¤«
èĭ ¹
å±ķ çİ°
çļĦ æĿĳåºĦ
çº³ åħ¥
è®¸ åı¯
ç» ¥
çľ ł
çī¹ æľĹ
æĸ¹éĿ¢ çļĦ
è´§ çī©
çİĭ åŃĲ
åıª è¦ģ
é¸ Ń
ä¸º æĸ°
æĹ¶ æĬ¥
ä¸ĭ ä¸Ģ
è¿Ļ åº§
ä¼Ĺ è®®éĻ¢
èħ ¿
æ¶µ çĽĸ
i o
Ġ äº¤éĢļ
æĪĺæĸĹ æľº
æł¼ å°Ķ
éľ ŀ
çº¦ çĳŁ
åį³ å°Ĩ
ç¬¬ä¸Ģ ä½į
åħ« æľĪ
æĥ³ è¦ģ
äºİ 2019å¹´
æŃ» åĪĳ
è´¢ äº§
un d
éª ļ
åģļ åĩº
c n
å· ·
æľī è®¸å¤ļ
ä¸į è¦ģ
ä¸ĥ æľĪ
åıĽ ä¹±
ä¸Ĭ éĺµ
æľ¬ çº¿
åĨħ èĴĻåı¤
ç§° åı·
ç«ŀ æĬĢ
u g
194 1å¹´
è½¯ ä½ĵ
ä¸ ¸
äºİ 2020å¹´
æĸ¹ ä¾¿
å¨ ħ
èħ º
å¤ļ åĲį
æľį è£ħ
åĲĮæĹ¶ ä¹Ł
éģŃ åıĹ
9 7
è¿Ľ åħļ
ä¹¦ ä¸Ń
åįķ åħĥ
èħ ĵ
åĮº éĹ´
, ),
æ¶ Ľ
æŁ¥ çĲĨ
å·¦ ç¿¼
å¤§ä½¿ é¦Ĩ
éĩį éĩı
åĽŀ å¿Ĩ
çļĦ æĶ¿æ²»
æĭī çī¹
èį ¡
oc k
ä¸ľ äºļ
è° Ĭ
éĩĳ å±±
è£ģ åĪ¤
åĮº åĪĨ
èµ· åĪĿ
å¨ ¶
çĽ´ åįĩ
ç¤¾ ç¾¤
åĮĹæµ· éģĵ
a i
e y
è°ĥ å¿«
194 4å¹´
r y
æ²³ è°·
è¿Ľè¡Į çļĦ
åĨĻ éģĵ
æ¶ī å«Į
9 äºº
ä¹ĭ ä¸º
èĲ¥ ä¸ļ
åį« éĺŁ
é±¼ éĽ·
åĪĨå¸ĥ åľ¨
è® ¼
è¯¥ çīĩ
éĺ³ å¸Ĥ
ä¼łç»Ł çļĦ
æķĮ äºº
æŃ¤ ç«Ļ
ç©º è¢Ń
åįı å®ļ
16 2
ä¸º UTC
ç§į ç±»
è¾Ĳ å°Ħ
æĺ¯ åı°æ¹¾
ä»¥ ä¸ľ
çī¹ å°Ķ
éĵ ĥ
åł ¤
å¾ģ æľį
èŀį åĲĪ
çļĦ ä¸į
æ³ķ ä»¤
ä½Ĩ åĽł
æł¼ éĽ·
éĿĴ å°ĳå¹´
åĺī ä¹ī
æ¯ Ĺ
æĬ Ħ
æİ ©
åıĤ æķ°
è¿ŀ è½½
åĻ ¶
c eĠ
åıĤ è®®éĻ¢
æ¯ı åĳ¨
æĪĺ æľ¯
è½¬ çļĦ
éĩį è§Ĩ
) :
è¥¿ æĸ¯
åı¯ åľ¨
é¢Ĩ åħĪ
ç»Ī çĤ¹
ç£ ·
è§ī å¾Ĺ
Ġ200 5å¹´
æ³ķåħ° åħĭ
èĪ Į
å¦Ĥ ä»Ĭ
æħ °
è°ĥå¿« ä¸Ģå°ıæĹ¶
ç Ģ
éĥ ģ
17 7
å§Ķåĳĺä¼ļ å§Ķåĳĺ
æ¿ Ĵ
ä¾į éĥİ
èĩ Ĥ
æĪĲ çĨŁ
å¸ĥ æľĹ
ç¤¾ äº¤
åį³ UTC
è®¾æľī å¤ıä»¤æĹ¶éĹ´
çļĦæĹ¶åĮºä¸º UTC
èĢĮè¯¥åľ° æīĢéĩĩçĶ¨
åĲĮæĹ¶è¯¥åľ° è®¾æľīå¤ıä»¤æĹ¶éĹ´
èĢĮè¯¥åľ°æīĢéĩĩçĶ¨ çļĦæĹ¶åĮºä¸ºUTC
æ¼Ķ è®²
åį¡ æĸ¯
åįķ ä¸Ģ
è¿Ļ åľº
éķĩ åĮºçļĦ
äº¤ æ±ĩ
æ»¡ æ´²
å»¶ ç»Ń
8 4
ä»£ çļĦ
éĢļ å¾Ģ
çĥ ¯
es s
çĪµ å£«
å·¥ ä¼ļ
åŁİ çļĦ
ä»İ æľª
åŀĭ åı·
M V
Ġ åħ¶
è´ ·
æĦŁ è§ī
197 2å¹´
ç²ī ä¸Ŀ
é«ĺäºİ æµ·å¹³éĿ¢
1 10
æĢ» çĽĳ
æį· åħĭ
è¯¥ åħ¬åı¸
7 æľĪ1æĹ¥
æĮ ¡
ä½Ļ äºº
æİĴè¡Į æ¦ľ
çļĦ æľĢ
ä¼ļ è¢«
åİ¿ çŁ¥åİ¿
çĽ¸å½ĵ äºİ
æīĢå¤ĦçļĦ æµ·æĭĶä¸º
æīĢå¤ĦçļĦæµ·æĭĶä¸º é«ĺäºİæµ·å¹³éĿ¢
ä¸Ģ ç³»åĪĹ
ä¹ĭ å¤Ħ
éĥ½ è¢«
æŃ£ æľĪ
è¡¥ åħħ
åº ¶
æľī èĳĹ
çİ ²
åŃĲ å¥³
Ġ19 0
æķĻèĤ² éĥ¨
Ġ f
éª Ĺ
ä¼¤ äº¡
å®īå¾½ çľģ
G o
å¸ Ĩ
ä¸» å¯¼
æĸ° åĨł
å¤§ éĿ©åĳ½
èģ ª
æĦ ¤
ä¿Ŀ è¯ģ
æĻ® ç½Ĺ
åıĤä¸İ äºĨ
æĹłäºº æľº
å¼ ĵ
åľ° å½¢
çİ° åŃĺ
åķĨ äºº
o x
Ġ åı°æ¹¾
æ°¸ ä¹ħ
7 00
æĪĺ åľº
åĲĪ åĲĮ
æł¼ éĩĮ
é² ¸
ä½¿çĶ¨ äºĨ
æĹ© ä¸Ĭ
197 6å¹´
è¯¦ ç»Ĩ
ç»´å¤ļ åĪ©äºļ
a w
èį Ĩ
äºİ201 0å¹´
èĦ± ç¦»
ç»ĺ çĶ»
æµ· ä¸Ĭ
åħ· å¤ĩ
å¾Ī å°ĳ
äºĴ åĬ¨
çİ°åľ¨ çļĦ
å·ŀ éķ¿
å°¼ åı¤
å²Ľ ä¸Ĭ
çĵ ¶
å¡Ķ å°Ķ
çĻ» è®°
195 6å¹´
8 1
éĿ¢ ä½ĵ
æ¡ Į
ä¼ł æķĻ
åį³ åĮĹç¾İ
æĮĩæĮ¥ å®ĺ
æĺ¯ ä¿Ħç½Ĺæĸ¯
äºİ 2021å¹´
ç¥ ¯
è·¯ åı£
å²Ľ çļĦ
äº¬ éĥ½
è¯º å¤«
æ¾ Ħ
æ© Ħ
S p
éħ ®
èİ· èĥľ
åºı åĪĹ
èĤ¡ä»½ æľīéĻĲåħ¬åı¸
åľ° äºļ
åįģ ä¸ĥ
éĽĨ ä½ĵ
9 4
I T
æ¸ ł
æ²³ éģĵ
æİ¢ éĻ©
éķĩåĮºçļĦ éĿ¢ç§¯ä¸º
äº ©
æĽ´ å¤ļçļĦ
åį³ ä½į
. âĢľ
ä½ľ ä¸ļ
æĸ½ å·¥
14 0
çļĦ åıį
åº ĩ
ä»¥ è¥¿
åĲİ åľ¨
åĪĨ ä¹ĭä¸Ģ
æµģ ä¼ł
ç¿Į å¹´
äºĨ ä»ĸ
æĢ» è£ģ
éĢī åĩº
åĪĩ å°Ķ
ec tion
èļ Ģ
ä¼Ĭæĸ¯åħ° æķĻ
çļĦ ç¥ŀ
ä¼ ŀ
å§ ¿
èĩª ç§°
åĽĽ ä¸ĸ
è¾ĸ åĮº
193 7å¹´
æķĪåĬĽ äºİ
å§ ĳ
å¤ļ æł·
å¾· æĦıå¿Ĺ
éĤ ĳ
å¤Ħ éķ¿
. (
15 8
åįĹæŀģ æ´²
æ Ĩ
åĽ½ éģĵ
åħ¬ é¡·
16 4
M A
çļĦ è¡Įä¸º
ä¸» åĬ¨
èĬ Ń
æ©Ħ æ¦Ħ
6 ä¸ª
ç» ĳ
è¡Į äºº
èĩ´ åĬĽ
çģŃ ç»Ŀ
ä½Ľç½Ĺ éĩĮ
çļĦ æŃĮæĽ²
çļĦ åŁºç¡Ģ
ç»´ åŁº
æĿŃ å·ŀ
Ġ æĹ¥æľ¬
ä» Ĩ
åº ļ
æ³ Ħ
åĨħ åľ°
æ» ķ
éŃĶ æ³ķ
k m
ä»ĸ ä¸º
äºĮ çº§
æ¤ ħ
äºĴ èģĶç½ĳ
åľ¨ ä½į
ä¹Ł æ²¡æľī
æĶ¹ å»º
8 3
å®¹ çº³
ä¸»æĮģ äºº
æľĢ ä¸º
ç»ı çĶ±
å·´ åĭĴ
195 2å¹´
ä¸ľåįĹ äºļ
æ±ī åŃĹ
ec t
ç¥ Ī
éĢļ çĶ¨
çĽ¸ åıį
çıŃ æ¬¡
i e
çĪ ·
å°ĳ å°Ĩ
åĩº åľº
æĶ¿ åıĺ
æ°Ķ ä½ĵ
193 8å¹´
éĥ¨ å°ļä¹¦
è¢« åĳĬ
æ²¿ å²¸
ig n
ä¸İ æŃ¤
194 7å¹´
çĸ« èĭĹ
i b
å±± è¥¿çľģ
åħŃ æľĪ
ç¾¤ ä¼Ĺ
p er
Ġ çĶ±
åŃ¦ ç³»
ç½ ©
åķĨ åľº
15 7
çļĦ éĿ¢ç§¯
çļĦ æīĢæľī
æĺ¯ ä¸ª
ä»¥ 1
ãĢĭ ãĢģ
åĬł å°Ķ
åį« è§Ĩ
æ¡£ æ¡Ī
çļĦ ç»ĵæŀľ
æ¼Ķ èīº
195 5å¹´
èĭ¹ æŀľ
1 4å¹´
o ok
å¹¶ æĹł
æ¸¯ åħĥ
åķ ¡
åĬ £
æĭħ å¿ĥ
æĶ» åįł
P ro
çº§ èģĶèµĽ
æħ İ
Ġ ä¸ªäºº
å®ŀ ä½ĵ
ãĢĭ( "
éĢ ¸
å¸ĥ éĽ·
è¿ŀ ç»ĵ
äºİ201 1å¹´
r am
s on
å±± åİ¿
æĥ §
æ¸ħ æ¥ļ
é¹ ı
æİ¢ ç´¢
çļĦ çĶµ
éķĩ åİĭ
æĻ®é²ģ å£«
ð «
éķ ĳ
éķ¿ çº¦
198 0å¹´ä»£
æł¸ éħ¸
æŀ¶ æŀĦ
è´ ª
çŁ ®
çĥ ·
å¼ķ çĶ¨
åĢ¼ å¾Ĺ
åĪ¤ åĨ³
ç¬¬ 5
æ°ĳ è¿Ľåħļ
åįķ æīĵ
æĺ¯ä¸Ģä¸ª ä½įäºİ
èľ Ĥ
H D
16 3
é³ ŀ
ä¸Ń å°Ĩ
çİ° ä¸º
e ar
ç»´ åħĭ
P S
æī ĳ
åĲį äºº
åĨĽ äºº
æľŁ çļĦ
æĢ» ä¼ļ
å¥³ çİĭ
æĶ¾ åľ¨
æ¨ ±
çļĦä¸Ģ æĿ¡
ç¦ı å¾·
è¡ĮæĶ¿ éĻ¢
æĪĲç«ĭ äºĨ
éĴ¢ çĲ´
.. .
Ġ ä¸»è¦ģ
è´ ¼
åħ± è®¡
æł¼ æŀĹ
äºİ 2022å¹´
å¹³ çŃī
è° ´
çº³ å·ŀ
è¸ ı
å½» åºķ
åĮĹ ä¾§
åĪ© çļĦ
å¤© çļĦ
å®ŀ è·µ
ä¿Ħ åĨĽ
å»ºçŃĳ å¸Ī
åı²å¯Ĩ æĸ¯
éĢ ¾
åİŁ ä¸º
æĺŁ ç³»
ä¿® éģĵ
ä¹¡ éķĩ
æıĲåĩº çļĦ
o y
éĩį è¿Ķ
ä¿® è®¢
å±Ĥ çļĦ
196 8å¹´
å¤« å¦ĩ
ä¹Ŀ æľĪ
æ²³åĮĹ çľģ
u st
Ġ n
Ġ å¯¹
ä¸» åĬĽ
åĪĨ æł¡
ä¸ĭ äºĨ
æ±Ł æĪ·
å¸Į å°Ķ
åĬ³ å·¥
2 åı·
åĵ ª
è¿ª å£«
çļĦ åŁİå¸Ĥ
åħ¶ ä¸º
çŃ Ĵ
æĸ° å»º
æ¡ĥ åĽŃ
You T
Ġ è¥¿
åľ° ä¸Ń
è¡Į èµ°
æµ· åįĹ
è¯¥ åħļ
ç»´ ä¿®
çª Ħ
èµ Ķ
åįĹ ä¾§
æł¼ é²ģ
åĪĹ åĩº
193 9å¹´
çĶ» éĿ¢
æķ´ åĲĪ
éĻ¨ çŁ³
Ġ é©¬
å¤´ è¡Ķ
äºĭå®ŀ ä¸Ĭ
æķ ²
èĤ ¢
å¼ķ è¿Ľ
Ġ çĽ®åīį
Ġ å®¶åºŃ
åıĹ å®³
å½ķ åĪ¶
å¥½ è¯Ħ
194 0å¹´
çº ł
æĬ Ľ
å½ĵ ä»£
èĹ »
ä¼¤ å®³
çĲĨ æŁ¥
å§Ķ ä»»
è¯ģ åĪ¸
1 1å¹´
è¿ªå£« å°¼
/ &
ä¸Ģ éĥ¨
è¾ĥ ä½İ
ä»į åľ¨
åĲ Ĭ
è° ¥
å¤© ä¸ĭ
195 4å¹´
196 0å¹´
çļĦ è¯´æ³ķ
åĨ Ģ
äºİ 2023å¹´
æŃ¤ åīį
èµ· è¯ī
è®® å¸Ń
194 2å¹´
èĩªè¡Į è½¦
1 3å¹´
åĿ Ł
ä¼Ĭ æĭīåħĭ
çĽŁ åĨĽ
åĩ ¸
åĮº åĪ«
ä¸» æĿĥ
éģ ®
ä½¿çĶ¨ èĢħ
çĻ¾ å¹´
åįł æį®
ä¸Ĭ äºĨ
æĥ ©
å®ĺ èĩ³
åĶ¯ä¸Ģ çļĦ
o st
åľ¨ åĮĹ
äº§çĶŁ äºĨ
t oĠ
Ġ éĻ¤äºĨ
å¤ļ é¡¹
ä»» æķĻ
å»º äºİ
çļĦ æĹ¥æľ¬
ä¹Ł æĽ¾
çĽ® çļĦæĺ¯
åĸ ĩ
åİĨåı² åŃ¦å®¶
åĲİ æĸ¹
æĴŀ åĩ»
a ch
ä¸Ģ é¡¹
å°ģ ä¸º
è¯Ĺ äºº
æŃ ī
è¯º æĽ¼
æĥ³ æ³ķ
æľĽ è¿ľ
1 7å¹´
Ġ åīį
Ġ æĿİ
Ġ çĦ¶èĢĮ
Ġ æķħäºĭ
æĪĺ åĪĹ
è®¤ åĲĮ
èĥĮ é³į
ç¬¬ä¸Ģæ¬¡ ä¸ĸçķĮå¤§æĪĺ
çĩĥ æĸĻ
è¢« ä»»åĳ½ä¸º
æĹłçº¿ çĶµè§Ĩ
i z
çĶ ľ
èµ £
åĪ° çļĦ
æŃ¦ å¸Ŀ
194 3å¹´
æľ µ
æĶ» æīĵ
197 5å¹´
Ġ èĢĮ
å± ¥
åĲĮ åĲį
åĪĻ æľī
æłĩ è®°
çĶ· å¥³
å®ĮæĪĲ äºĨ
æ¬¡ äºİ
æĥħ ç»ª
é£Ł æĢ§
197 0å¹´
æĲº å¸¦
åħ¬ åĬ¡
é¢ ł
èĭı ç»´åŁĥ
è®® é¢ĺ
æĤ ł
äºİ200 9å¹´
ç» µ
æĹ¥ åĲİ
åŁİ å¢Ļ
äº¤ çķĮ
èĽĭçĻ½ è´¨
åİ ¥
ä¸Ĭ è¯ī
æĸ¯ åł¡
äº¤ åıī
æ¨¡ çī¹
å¡ŀ çº³
è°´ è´£
åľ¨ æ³ķåĽ½
æ¸ Ĭ
éĻ¤ æŃ¤
åį° ç¬¬
æĦ¿ æĦı
S S
èµĽ çļĦ
å®ļ æľŁ
èĬ Ļ
æ¢ ¨
è¿ĺ åľ¨
ç»ıæµİ åŃ¦
å¢ŀåĬł äºĨ
er n
åħĪ è¿Ľ
15 6
15 9
æ¹ĸ æ³Ĭ
ä¸ĭè¾ĸ ä»¥ä¸ĭ
çŁĽ çĽ¾
åį §
çī© åĵģ
è¯¥ æł¡
çī¹æľĹ æĻ®
æĺ¯ ä¸Ńåįİäººæ°ĳåħ±åĴĮåĽ½
éĤ µ
éĵģè·¯ è½¦ç«Ļ
æĻº æħ§
å²© çŁ³
ç½Ĺ å¤«
åĽ¢ ç»ĵ
åºĶ å¯¹
éĺ³ åİ¿
è°ĭ æĿĢ
ä¸ŃåĽ½ åĽ½æ°ĳåħļ
12æľĪ 31æĹ¥
ä¼Ļ ä¼´
çĽ´åįĩ æľº
å¼Ģ å·¥
åĿ ł
çĤ Ń
eĠ C
è¿ĳ ä»£
åī ¥
ä»£ æĽ¿
è¿ĩ çļĦ
éģĵ åħī
æ²Ļ çĶ°
æľĢæĹ© çļĦ
çĶŁéķ¿ äºİ
äºº æ¬¡
æĶ¶ è´¹
ç«ĭæ³ķ ä¼ļ
Ġ ä½¿çĶ¨
æĶ¹åĪ¶ ä¸º
éĥ½ çĿ£
æıĲ äº¤
å¸¸ å¸¸
æ¸ħ ä»£
éĢīä¸¾ ä¸Ń
å¦¹ å¦¹
æľĽè¿ľ éķľ
g e
å¤§ éĺŁ
çº¿ æĢ§
ä»į æľī
ä¸º 0
å¥ ¸
éĩĮ åħĭ
çĲĨ å¿µ
çķ ħ
æĽ´ æį¢
a u
a z
æĤ ¦
åıĳçĶŁ äºĨ
èı² åĪ©
å·¨ å¤§çļĦ
å¼Ģ åĬŀ
çľģ çļĦ
çº³ å¾·
æĹ¥æľ¬ çļĦ
ä¸ĵ çĶ¨
åĵĪ åĪ©
ä¹ĭåĲİ çļĦ
éļ¾ æ°ĳ
é¢ģ å¸ĥ
æŀ¢ çº½
éĢ» è¾ĳ
åį°ç¬¬ å®ī
æĮĩ æķ°
æĹ¶ä»£ çļĦ
ä¸ª ä½ĵ
æĶ¹ åĲį
æ´Ľ æĸ¯
éĻį éĽ¨
i al
æĹ ±
ä»¥ 2
æ±Ł åįĹ
æĺ¯ ä¸ºäºĨ
ä¸» ç®¡
åĽĽ å¤§
S M
çļĦ åľ°åĮº
æĶ¿ åĬ¡
å¯¹ éĺµ
æīĢ éľĢ
çĪ± åĽ½
èµĽ ä¸Ń
åħ¨ ä½ĵ
è¯Ń éŁ³
èģĮ åĳĺ
å¼º åĪ¶
æ© ¡
åĲį è¯į
V D
è¡Į é©¶
æİĴ åĪĹ
æµİ åįĹ
(; ),
èĤ ©
è½¬ ä¸º
åįı åķĨ
ä¹ł æĥ¯
å´ ĸ
åıĤè°ĭ éķ¿
ä¸º åŁºç¡Ģ
å¯¹ ç§°
çİ° æľī
è° ģ
å¤ĸ è§Ĥ
éĢī ç§Ģ
196 4å¹´
è¿· ä½ł
å° ĺ
ä¸Ń åıĳçİ°
æĹ¥ å¸¸
ä¸ī åĽ½
æĥ ľ
æł¼ åĭĴ
ä¹¦ åĨĻ
ç½Ĺé©¬ å¸ĿåĽ½
åĪĳ äºĭ
èĸ ĩ
ä¸įå¾Ĺ ä¸į
åĲĪ åĶ±
æĢ§ åĴĮ
æİ¥ èĳĹ
æł¹ æľ¬
å¤´ éĥ¨
å¥ĸ éĩĳ
åį° åĪ·
è¥¿çıŃçīĻ è¯Ń
åĴ¨ è¯¢
1 6å¹´
a la
ç«ĭ éĻ¶
çī ²
ãĢĮ ãĢį
æģ ¨
; /
äºĨ ä»ĸçļĦ
èµĽ è½¦
æ¢ µ
è½¬ ä¼ļ
å¡Ķ å°¼
èĬĤåº¦ ä½¿
å¯¹ è¯Ŀ
è° į
èħ °
ä½į çļĦ
ä¸¤ å²¸
çĪ ª
åĽ¾ æ¡Ī
ä¼Ĳ åĪ©äºļ
1 30
m er
è° Ĳ
or d
åĩĨ ç¡®
åĨł çĬ¶
è®© ä»ĸ
åĵ Ģ
èĩª æŃ¤
æŃ¤ äºĭ
é¦ĸ åº¦
é¢ĺ æĿĲ
ä½ı æĪ¿
çĽ Ī
çĶ¨ ä»¥
ç«Ļ æĪ¿
ç»¼ èīº
åľ¨ è¥¿
æĢ ¡
è§Ĥ åħī
çģ« è½¦
çļĦ åĨħå®¹
ä»ĸ è®¤ä¸º
é«ĺ åİŁ
å¼¹ èį¯
æĻº èĥ½
éķľ å¤´
çĥŃå¸¦ é£İæļ´
åŃŁ åĬłæĭī
æ¹ĸåįĹ çľģ
éĵ İ
èĻ ı
ar k
æĪĲç«ĭ åĲİ
æİ¢ æµĭ
å½ķå½± å¸¦
èĩ Ģ
äºĨ è®¸å¤ļ
ä¸Ĭ å¸Ŀ
åĬ¨ è½¦
è° ¦
èī² å½©
äºİ200 8å¹´
é©¬åħĭ æĢĿ
ä¸Ģ å¤©
çĽ¸ åºĶ
é¾Ļ çļĦ
äºº ä¸º
ç« £
ä½ĵ åĪ¶
ç»´ ä¹Ł
ç»§ ä»»
åıĭ å¥½
ç«ĭéĻ¶ å®Ľ
æĪĲ æŀľ
ä½ĵ éªĮ
çĿ Ľ
çĻ¾ ç§ĳ
è¡į çĶŁ
å¼ Ħ
ç§ĳ ä¼ļè¯ķ
17 0
åĨľ åľº
è¯Ĩ åĪ«
çºªå½ķ çīĩ
æĳĩ æ»ļ
çĳ ľ
åįĩ æł¼ä¸º
ç¢ °
193 6å¹´
æİĮ æı¡
åĴĸ åķ¡
ä¸» æīĵ
åİŁ æĿ¥
æĽ¾ æĺ¯
æ· ĳ
æ±ī è¯Ń
åĲĮæĹ¶ ä¹Łæĺ¯
éĿĴ æĺ¥
æŃ¥ æŀª
çŃ¹ å¤ĩ
Ġ å¤©
æ² ¼
åīį è¿Ľ
èĤ Ŀ
çŁ¥ åºľ
æĻ¯ è§Ĥ
çº¦çĳŁ å¤«
Ġ 11
æĺ¯ ä¸į
ç¼ Ŀ
Ġ ç¬¬ä¸Ģ
æľ Ń
åľ¨ éĤ£éĩĮ
è¿Ļ ç±»
ç±³ åħ°
åĪ¤ å¤Ħ
èļ ģ
æ¹ĸåĮĹ çľģ
å¤ ¸
çļĦ åľ£
èĪ Ĩ
202 6å¹´
ç¼ĸåı· ä¸º
Ġæ¦Ĥ è¦ģ
åľ° äº§
è´ ¬
åħ¨ çº¿
çłĶç©¶ çĶŁ
åĲ¦ è®¤
s e
åľ° ä¸Ĭ
ä¸» æµģ
åĬł åĪ©äºļ
é©±éĢĲ èĪ°
(,; )
çī¹ åħ°
åĨħ æĶ¿
è¯¥ å¸Ĥ
æİ¥ ç®¡
18 2
å®¹ éĩı
èĪª çıŃ
åįĬ å¹´
åĵ¥ åĵ¥
196 6å¹´
åĽ½éĺ² éĥ¨
çŁ© éĺµ
, )
çľģ éģĵ
åħĥ æľĿ
èĿ ł
å¥¥æĸ¯ åį¡
æľ¬ å±Ĭ
çĽ¸ ç»§
åħµ åĽ¢
æ³° åĭĴ
é¢Ħ å¤ĩ
ç®Ĺ æ³ķ
P C
å® ł
å¼Ģ åĲ¯
æĪĺ èĥľ
æĳ Ķ
7 1
c t
ä¸º ä¸ŃåĽ½
æµ Ĩ
è¢« åıĳçİ°
ç¥ Ĳ
æĶ¹ è£ħ
Ġ ç¬¬äºĮ
å±ħä½ı åľ¨
éĻķ è¥¿çľģ
Ġ å°½ç®¡
ä¹ĭ éĻħ
çģ« çģ¾
æĪ¿ éĹ´
2 50
åĲį è¿Ľå£«
çī© ä½ĵ
çļĦ æ¦Ĥå¿µ
ä¸Ģ äºº
ä¸Ģ æĶ¯
e f
à ¸
æ¼ Ĩ
æİ¨ ç¿»
å¿Ĺ æĦ¿
çĻ¾ å§ĵ
æĺ¯ ä»İ
æĪĲ åĪĨ
é¢ ĸ
èĭ± éķĳ
åĽŀ åĽ½
å®¢ æĪ·
æĹ§ åĿĢ
äºİ200 7å¹´
çļĦ ä¸ŃåĽ½
çĮ ľ
åŀĤ çĽ´
åįĹ æµ·
åĽł åºĶ
åĭ ĺ
æ²³æµģ åŁŁ
Ġ åı¦å¤ĸ
åħ Ķ
æĸ° åĮĹ
æĸ° ç«¹
çĶµ æ±ł
åħ¥ åĽ´
å·´ ä¼ĲåĪ©äºļ
æł¡ èĪį
åģļ æ³ķ
ä¼ģ åĽ¾
ç¥Ń ç¥Ģ
äºİ æŃ¤
å¿ Į
éĿ¢ åĲĳ
éĢī æ°ĳ
äºİ åĲĮå¹´
æľ¬ ç§ĳ
è· Į
ç§° ä¹ĭä¸º
ä¿Ŀ å®ī
P lay
éĩį å¤į
è¾ĥ å¤§
ä¹Į æĸ¯
è´Łè´£ äºº
195 9å¹´
èĽ Ľ
è¿ģ ç§»
éĢłæĪĲ çļĦ
ä¼Ĳ åħĭ
çļĦ åŃ¦çĶŁ
è¾ Ī
åıĺ æį¢
Ġ200 4å¹´
ç§© åºı
E T
Ġ æ¸¸æĪı
åĲĮ æŃ¥
at h
ç¬¬åįģ ä¸ī
è¿« ä½¿
éĺħ è¯»
çļĦ éķ¿
æ° ®
ä¸ī ç§į
æĹ© åľ¨
å°º å¯¸
ä¸ºè¾Ĳé³įé±¼çº² é²
å¤§ è¡Ĺ
çī¹ æĢ§
ä¸Ń é¥°æ¼Ķ
åĲį ä¸¾äºº
å±± çļĦ
å¤§éĩı çļĦ
(; )
E C
c l
çī© çļĦ
èı² å°Ķå¾·
ä»ĸ åĴĮ
åıĳ æİĺ
èĢĮ æĿ¥
å±± å¸Ĥ
åĵĪ éĩĮ
ä½ı åľ¨
éĥİ ä¸Ń
han t
åİ¦ éĹ¨
åĮĸ ä¸º
ç¼ĸ ç»Ħ
åİ ī
åħ¬ ä¼ļ
ä»ĸ å¯¹
åĿ ŀ
æŁ¥ å°Ķæĸ¯
æħķ å°¼
ä½ ĳ
åĮ ł
å¸ĥ åħ°
å¹² çº¿
éģĹ ä¼ł
é©± åĬ¨
èµ¢å¾Ĺ äºĨ
äºİ 2024å¹´
èĤ ĩ
æĽ´ æĺ¯
çľ¼ çĿĽ
çĺ ¤
æĬĳ åĪ¶
çļĦ éĺ¿
å¤§ åħ¬
ä¸» ä½ĵ
å·´ èµ«
åĵģ è´¨
çĹħ éĢĿ
æĪĺäºī æľŁéĹ´
æŃ§ è§Ĩ
" (
d eĠ
Ġ h
ä¸º æľŁ
å¤§ å®¶
çī¹ çĤ¹
æ¡ Ĳ
æıĲ åīį
æµģ éĩı
èľ Ģ
E n
s ection
æµ ¸
æĮ º
åįĹ æĸ¯æĭīå¤«
ä¸¤ æĿ¡
èŃ¦ æĬ¥
äºĭåĬ¡ æīĢ
ä¸ľäº¬ éĥ½
åİŁ çĲĨ
åķĨ åĬ¡
ç©¿ è¿ĩ
èµ Į
ä»» åĨħ
é© ¹
åĩĨ åĨ³èµĽ
åı¤ å·´
æĹ¥ è¯Ń
ä¹Ł åı¯
å®ŀ åĬĽ
çķĮ çļĦ
èº« ä¸Ĭ
æĥħ èĬĤ
åİ¿çļĦä¸Ģä¸ª éĿŀå»ºåĪ¶åľ°åĮº
è¤Ĳ èī²
æħķå°¼ é»ĳ
Ġ v
Ġ éĻĪ
æĪ Ĭ
å®¶ ä¹¡
çĵ ·
èİ± æĸ¯
åĩł ä½ķ
æĪĺäºī ä¸Ń
éĽķ å¡ĳ
åĨłçĬ¶ çĹħæ¯Ĵ
æľ¬ ä¹¦
æ´Ľ å¤«
197 4å¹´
ä¾Ŀ çħ§
æĿ¥èĩª äºİ
ç±»ä¼¼ çļĦ
çīµ å¼ķ
ç»´ä¹Ł çº³
I V
åĲİæĿ¥ çļĦ
. )
åįĹ ç¾İæ´²
äºĭ åĲİ
å¢ŀ è®¾
ä»ħ æ¬¡äºİ
ç«£ å·¥
åıĬ åħ¶ä»ĸ
ç»ı çºª
éĻ¢ å£«
çªģ åĩº
195 3å¹´
Ġ åĮĹ
Ġ 16
æķĪ çİĩ
ä¿Ĺ ç§°
æ» ¤
æ» ĭ
åĪĴ å½Ĵ
å¹ķ åºľ
ä¸º çĶ±
æŁ Ħ
èģĶ åĨĽ
æľ¯ è¯Ń
ä¸¥éĩį çļĦ
y p
ä½įäºİ ä¸Ńåįİäººæ°ĳåħ±åĴĮåĽ½
èĮ Ħ
æĿĳ æ°ĳ
åĮ» åŃ¦éĻ¢
æ·» åĬł
å¤§ çĲĨ
çľģ æİ¥å£¤
çĶ² åŁº
ç»ĥ ä¹ł
Ġ åħ¶ä¸Ń
å°Ķ é¡¿
åĨħ æľī
èĬ ¦
çĸ ¯
åľ£ ç»ı
ç»Ĩ èıĮ
æī Ń
ä¸Ĭ æĸ¹
éħ ¯
éģĩ åĪ°
ä¿®éģĵ éĻ¢
M S
è¾¹ çļĦ
æ¿Ģ çĥĪ
çļĦä¸» é¢ĺ
çļĦ åĽ½éĻħ
çļĦ æĪĲç»©
å¤§ æ°Ķ
åīį èº«
ç§° èµŀ
åŁİ åİ¿
å¦Ĥ åĲĮ
ä¿Ŀ åĬłåĪ©äºļ
æĮĩ è´£
åĽŀ åĲĪ
èĢĥ å¯Ł
éĢĶ ç»ı
èĻļ æĭŁ
çļĦ çĪ¶äº²
Ġæł¹æį® 2020å¹´ç¾İåĽ½äººåı£æĻ®æŁ¥çļĦæķ°æį®
çļĦ çĶŁæ´»
çº¦ 1
ç¾İåĽ½ äºº
èİ· å¥ĸ
äºī å¤º
åįģäºĮ æľĪ
â Ĩ
æĶ» åĬ¿
æī¿ æĭħ
çļ® èĤ¤
å¤ļ åħĥ
æ£ į
åŃ£ åĲİ
ä½ľæĽ² å®¶
åĪĨ æĪĲ
æĸ¹ ç¨ĭ
è¶ ģ
åĽ¢ éķ¿
æ£ ±
å°± åľ¨
æľ« æľŁ
é¢Ĩå¯¼ çļĦ
8 ä¸ª
e e
éĺŁ åĳĺ
åĲĳ åĮĹ
èİ· åıĸ
çĽ´ è·¯
ä¹¡ æĿĳ
197 3å¹´
é¡º åºı
è¸ ¢
A L
æĻ ´
åħĥ éŁ³
Ġ è¯Ħä»·
193 5å¹´
åħ¬åħ± äº¤éĢļ
å¸ ľ
åı¸ èģĮ
æ» ¥
é»ĳ äºº
åľ°ä¸Ń æµ·
åıĹ æįŁ
è± ¹
è¡ĮæĶ¿ ä¸Ńå¿ĥ
195 7å¹´
N BA
åħ¶ åľ¨
è¿Ļ ä¹Łæĺ¯
åĿ ¤
æĢ» ç«Ļ
å£« é¡¿
å±Ģ å±Ģéķ¿
åĳ¨ åĪĬ
æİ¨ åĩºçļĦ
èĲ¨ æĭī
ç¥ ¸
å¥³ åŃ©
197 7å¹´
åĩº èµĽ
15 5
é¥ ¶
åĩł å¹´
å®ģ æ³¢
E N
æĺ¯ æĦıå¤§åĪ©
åįģ ä¸Ģå¹´
å¥³ ä¸»è§Ĵ
åĵģ ç§į
åĩºçİ° çļĦ
ç¥ĸ åħĪ
æĲ ŀ
éĺ´ è°ĭ
äºĳåįĹ çľģ
å¤ª åĲİ
æĿ¡ æ¬¾
15 2
çĮ ´
è´Ŀ åħĭ
å©´ åĦ¿
æ·· ä¹±
å±ŀçļĦ æ¤įçī©
æ§ ½
å·´ åŁº
åĵĪ æĭī
éĽ· è¾¾
åĬłåĪ©ç¦ı å°¼äºļå·ŀ
å¦ ¥
ä¿¡ å¾Ĵ
æŃ» äºİ
ä½ĵèĤ² é¦Ĩ
äº® çĽ¸
å¯ ĩ
å±± åľ°
çĶ· åŃ©
is h
P h
èĲ Ŀ
æİ¨ æµĭ
æ¤ Ń
ç»Ĩ èĬĤ
äºİ200 6å¹´
çļĦ éĿ¢ç§¯ä¸º
åĬł ä»¥
æķ° åįģ
éĩį ç»Ħ
åĽ½å®¶ åħ¬åĽŃ
æİ¨ è¡Į
å·´åĭĴ æĸ¯åĿ¦
æľĢ å¤ļçļĦ
åıĸ èĩª
è®º åĿĽ
æĳ© å°Ķ
è¿Ļé¦ĸ æŃĮ
æ¡Ĩ æŀ¶
åľ¨ ä¸Ĭæµ·
ä¸ľ åĮº
çĽ¸ è¿ŀ
å¤ľ éĹ´
è¯ī è®¼
åĳ¼ åĲ¸
é¥® é£Ł
ç¤ºå¨ģ èĢħ
é»ĳé¾Ļæ±Ł çľģ
9 1
i x
å¾ Ļ
çĤ ³
æĻ® æĭī
éĢģ åĪ°
éĢĶ å¾Ħ
å· ©
åĪĨ è§£
æ°´ éĩı
åı¯ä»¥ éĢļè¿ĩ
å¼ķ ç§į
é¥ ¼
éĻĦ åĬł
it y
å¯Į æ±Ĺ
YouT ube
çļĦ åŁİéķĩ
æ¬ ł
197 1å¹´
æĸ°åĨł èĤºçĤİ
çļĦ ä¸ĸçķĮ
æŃĮ åĶ±
ç§» å±ħ
æĭ¿ çł´
è¿½ æ±Ĥ
å±ĭ é¡¶
å°±è¯» äºİ
èĩ´åĬĽ äºİ
H K
è® ½
æĺ¯ èĭ±åĽ½
æĺ¯ è¥¿çıŃçīĻ
ä»ĸ äºº
æľº æŀª
çĽ¸ éĤ»
ç¬¬åįģ ä¸Ģ
æĿ°åħĭ éĢĬ
ç«ĭæĸ¹ ç±³
æľī çĿĢ
ç¾İåĽ½ æĢ»ç»Ł
éĽĨåĽ¢ åĨĽ
è¯Ĭ æĸŃ
æĭ¿çł´ ä»ĳ
. ãĢĮ
é«ĺ æŀ¶
çİ¯ å½¢
æī¹ åĪ¤
195 1å¹´
èĪªç©º åħ¬åı¸
æ£ ļ
æµģ åĬ¨
æ»ĳ éĽª
ä¸Ń å¼ı
ä¸ī å¤§
çī© èµĦ
å¦ ĸ
å¤ĸ åĽ´
æĢ» ç»ıçĲĨ
åĬĽ åŃ¦
ç»Ī æŃ¢
æħĪ åĸĦ
æī ĩ
ä¸ī çĶ²
è° £
æ¡ ĵ
åºķ å±Ĥ
å´ĩ ç¥¯
Ġ ä¸Ģ
åĨ »
åı¸ æľº
èĳ µ
å§ĭ ç»Ī
æłĩ é¢ĺ
åħ¬éĩĮ çļĦ
åħµ åĬĽ
iv eĠ
æ²Ī éĺ³
åĩº èĩª
è¿ĩ æ¸¡
ç¦ §
åĪĻ çĶ±
éĴ ©
å¾· åħĭ
å®ļ çĲĨ
å±± é¡¶
4 æľĪ1æĹ¥
ä¸Ń ä¸ĸçºª
ä¸ĭ æĸ¹
çĪ ¬
è£ ´
åľ£ æ¯į
è¿ĲåĬ¨ çļĦ
ç§ĺ é²ģ
å±ħæ°ĳ çĤ¹
ç²Ĵ åŃĲ
i re
æĸ Į
æŁ ľ
åħĥ å¸ħ
å§Ķ åī¯ä¹¦è®°
æ²³ åı£
çģ« è½¦ç«Ļ
é³ Ħ
Ġ st
åħ¥ å¢ĥ
èĤ ¿
æ¼ Ĥ
17 5
è°¢ å°Ķ
å½¼ æŃ¤
Ġ æľĪ
å·¥ åķĨ
æ¯Ķ å°Ķ
æĴ ĳ
ä¸Ńå¿ĥ çļĦ
æ·± åħ¥
ç¬¬ä¸ī æ¬¡
000 åĲį
éŁ¦ å°Ķ
çļĦ èĥ½åĬĽ
åħ¬ å¯ĵ
çĲĥ è¿·
ä½Ĩ åħ¶
ç»ĵ è®º
ç¡ķå£« åŃ¦ä½į
u re
å± ¡
è¾ ±
æ¬¡ æĹ¥
æīĭ ä¸Ń
çīĪ çļĦ
éĨ ī
E P
åİ Į
äºĨ å¯¹
çĦ ļ
çİ¯ çĲĥ
åĥı æĺ¯
èĵ Ħ
è¯ĳ ä¸º
åľ¨ ä»ĸçļĦ
è¯¥ åī§
èĭı éĩĮ
ç¦ı éŁ³
çª ĥ
æĵ ¦
æĹ©æľŁ çļĦ
çŃī å¾ħ
æł¼ å¼ı
199 0å¹´ä»£
çªģ åİ¥
å¼Ĺ æĭī
ä¼ĺ åħĪ
å¤©æ´¥ å¸Ĥ
èģ Ĥ
åĮĹ éŁ©
çİĭ ä½į
in t
åį° è±¡
åį°åº¦ æķĻ
æ© Ļ
è½¬çļĦ å°ıè¡ĮæĺŁ
çĶ± äººå·¥
å±Ģ çļĦ
è¶³çĲĥ èģĶèµĽ
å®ĥä»¬ çļĦ
çļĦ å¥³åĦ¿
æĺ¯ åįĹæŀģæ´²
åįģ ä¸īå¹´
æĽ² çĽ®
é¢Ħ åĳĬ
æĹ Ń
åıĳ éŁ³
åĬł åĭĴ
ä¸ī æ¬¡
èģĮ æ£Ĵ
ç¦ı åĪ©
ä½İ æ°Ķåİĭ
ç¿° æŀĹ
B L
è¿ĩ äºİ
ç³ ķ
en tĠ
å¾® è½¯
çĥŃå¸¦ æ°ĶæĹĭ
çĲĨäºĭ ä¼ļ
ä¸º é¦ĸ
èĳĹ æľī
ç¬¼ èįī
æł¼ æĭīæĸ¯
çº§ çļĦ
è¯º ä¼Ĭ
å·¥ä½ľ çļĦ
åĪº æ¿Ģ
çĮª ç¬¼èįī
u e
åİ Ŀ
è´ ¿
åı² èĴĤ
çĪ± çļĦ
åī¯ ä½¿
åıĳçĶŁ çļĦ
åµ Į
åľ¨ ä¸Ģä¸ª
åİ¿ åŁİ
åħħ åĪĨ
éĻ¤æŃ¤ ä¹ĭå¤ĸ
çº º
æľī åı¯èĥ½
çīĩ æ®µ
å¼º åĮĸ
åıĸå¾Ĺ äºĨ
éĢĤ çĶ¨äºİ
åħ±äº§ ä¸»ä¹ī
19 00
å¾· æĸ¯
çĶµ åĬ¨
è¯¥ åľ°åĮº
ç¼ Ķ
åĭ ¾
èº ²
ä¸ģ åł¡
ç½ķ é»ĺ
åħĭç½Ĺ åľ°äºļ
å°¸ ä½ĵ
ä¸Ģ çĻ¾
åĴĮ å¤§
åĲį èªī
ä¸ĭ è½½
è¿Ļ ä¸¤ä¸ª
å¥½ åıĭ
é¥ ¥
r it
å»º åĽ½
åıĤ è§Ĥ
æ¯ı æ¬¡
çļĦå¹³åĿĩ æµ·æĭĶé«ĺåº¦
åĲİ åıĪ
çİĭ å®¤
å¥³ æ¼Ķåĳĺ
ç±» åŀĭçļĦ
é£ŀ å¼¹
T A
æİ§ èĤ¡
Ġ200 3å¹´
åģļ ä¸º
åħ¹ çľģ
ãĥ ¼
åıĻ è¿°
èĢĮè¯¥åľ° çļĦå¹³åĿĩæµ·æĭĶé«ĺåº¦
å·´åŁº æĸ¯åĿ¦
å¼ķç§į æł½åŁ¹
åı° å¸ģ
å¸¸ å§Ķä¼ļ
èº« äº¡
è®¾è®¡ å¸Ī
196 7å¹´
å¼Ĥ å¸¸
è´¢ åĬ¡
å½¢æĪĲ çļĦ
Ġ ç»ıæµİ
æĺ ı
è¿Ľ åı£
éĿ¢ç§¯ 1
om p
2010å¹´ ç¾İåĽ½äººåı£æĻ®æŁ¥çļĦæķ°æį®
åĢŁ çĶ±
ä¸İæŃ¤ åĲĮæĹ¶
çļĦ æ¸¸æĪı
éķ¿ å®ī
ä»» å¤©åłĤ
æĽ¾ ä¸º
çĭ¬ çī¹çļĦ
éģĹ è¿¹
è£ ¸
èĪª çº¿
çģ« æĺŁ
ä¹ĺ åĿĲ
è¿Ľå£« åĩºèº«
0 5
p p
Î ±
ãĢį ;
æĿĥ çļĦ
åĸ ī
å®£ åĳĬ
ä¿Ħ äº¥
196 5å¹´
ä¿Ħäº¥ ä¿Ħ
å»º æľī
ç§ĳ å¹»
çº³ å°Ķ
ç¥ŀ åľ£
çħ§ é¡¾
æĸ¯ éĩĮ
åĲĮ åŃ¦
éģĵ çļĦ
å¤© ä½¿
10 æľĪ1æĹ¥
ç¬¬ä¸Ģ å±Ĭ
è½¬ ä»»
åĪĿ å¹´
çĶŁäº§ çļĦ
çĶ±äººå·¥ å¼ķç§įæł½åŁ¹
è¿Ļ æ®µ
æķ° çĻ¾
å½¢ çļĦ
ç¼ĸ åĨĻ
éĤ£ æł·
ro m
å¥´ éļ¶
åľ¨ åĨħ
è¿Ĳ æ²³
æīĭ æŀª
å®£ è¨Ģ
äºº ç§°
ä¸Ĭ æ¸¸
åŁº è¾ħ
åİŁ åĪĽ
çĶµè§Ĩ åĬ¨çĶ»
çļĦå¤§ åŀĭ
ä¸ĭè¾ĸä»¥ä¸ĭ åľ°åĮº
e am
ä¸º 3
åŃĲ å¼¹
å·´ å¡ŀå°Ķ
èį ĥ
èĻ Ĳ
åįģä¸Ģ æľĪ
" ).
åİ ¨
æĸ° äºº
æ¶ ¡
åĪĴ åĪĨ
åĮ» å¸Ī
çºªå¿µ ç¢ĳ
ä¸Ń ä¹¦
ä»¥ å¾Ģ
ä¹ĭ åĲį
åīį çº¿
æĹł éĻĲ
ç½ĳ ä¸Ĭ
æĭ ¦
çķ ľ
æµģ ç»ı
è°ĥ èĬĤ
é²ģ æĸ¯
196 9å¹´
æĿ¥ å¾Ģ
åı· ä¸º
å°¼ å¥¥
éĩĳ åĪļ
èĤ¯ å®ļ
è¯ŀ çĶŁ
è¿Ļ éĥ¨
æĸĩ æľ¬
æĢ» é¢Ŀ
å¸¸ è§Ħ
ä¼Ĭ å°Ķ
è¯º æĸ¯
äºĨ ä¸ĢäºĽ
åı£ å¾Ħ
åĽŀ çŃĶ
or e
èİ·å¾Ĺ ä¸Ģæŀļ
äºİ18 9
æĶ¹ç¼ĸ èĩª
Ġ æĭī
åĮº åĴĮ
åŁº éļĨ
éĺµ å®¹
æ®ĭ çĸ¾
å¹¸ åŃĺ
å¥¥æĸ¯ æĽ¼
åĽ½ è¯Ń
éĺ¿ å¯Įæ±Ĺ
è®¤ å®ļ
æŀģ ç«¯
åŃĺåľ¨ çļĦ
Window sĠ
åĲĮæĢ§ æģĭ
çĽ ²
ä¸į åıĺ
éķ¿ å¤§
ç»´ åĲ¾
èĭı å·ŀ
éĿ¢ç§¯ 0
ä¾Ľ å¥ī
193 3å¹´
èĢ¶ å¤«
çļĦå¤§ éĥ¨åĪĨ
æĮī å¯Ł
ç©Ĩ ç½ķé»ĺ
åĴĮ ä»ĸçļĦ
ä»¥ å¤ĸçļĦ
æĮ ¤
åħ³ èģĶ
åĲĳ åįĹ
ç®¡ åĪ¶
è®¤ çŁ¥
è¿ĺ åĮħæĭ¬
åĬŀ æ³ķ
16 8
åī¯ éĥ¨éķ¿
åĪ¤ æĸŃ
ç´§ å¼ł
ä½įäºİè¯¥ çľģ
â Ī
æĶ Ģ
å¾Ĺ åĪĨ
ä¸ī åĲį
ä¹Ł åĽłæŃ¤
åĸ »
è¯į æ±ĩ
çĽ®åīį å°ļæľª
D S
å² Ĳ
å°± æľī
çĹ ķ
on d
æ°Ķ æ¸©
ar dĠ
æ²ĥ å°Ķ
ç©¿ è¶Ĭ
ç»´åĲ¾ å°Ķ
D VD
å¤ĸ çķĮ
æį ī
é» Ľ
ç¾İåĽ½ åĽ½å®¶
éħ ĭ
åħļ ç»Ħ
åī© ä½Ļ
å¿ĥ èĦı
éª ı
17 6
ç²® é£Ł
æ¬ º
ä¸ĭ æĿ¥çļĦ
å·´ å¸ĥ
éħ ¿
æĬķ æīĭ
çĶµè§Ĩ èĬĤçĽ®
æľĹ å¾·
çĩĥ çĥ§
193 0å¹´
å®¿ èĪį
oh n
7 ä¸ª
åŁ ł
åĬł å·¥
çĶµ æµģ
æ¬¡ æķ°
åİŁ æľī
éĹ®é¢ĺ çļĦ
æį¢ ä¹ĺ
O R
ç¬¬ 6
é¢ Ĥ
er Ġ
åĵĪ å¾·
çªģ åĩ»
çĶŁæ´» åľ¨
åĨ² åĩ»
åĩº äºİ
çĶŁ æķĪ
åŃĲ åħ¬åı¸
æĪĺ è½¦
ç«Ļ åİħ
ç¾İåĽ½ æµ·åĨĽ
åħĭéĩĮ æĸ¯
æľºåĻ¨ äºº
Ġ é«ĺ
åı¯ åīįå¾Ģ
æĹı äºº
ç¥ŀ ç§ĺ
æ²¡æľī ä»»ä½ķ
è¾ĥ é«ĺ
æĬĹ æĪĺ
ä¸´ åºĬ
æģĲ é¾Ļ
åĪĽå§ĭ äºº
ä¸Ģ éĥ¨åĪĨ
ç³ Ĭ
åıĳçİ° çļĦ
å¹¶ä¸Ķ åľ¨
çī©ç§į çļĦ
M P
æĸ° çķĮ
å¾Ĺ ç¥¨
éĢļ è¡Į
åħ° å·ŀ
éħ ī
åıį èĢĮ
å¥ĸ çīĮ
æĹĹ å¸ľ
éĩĩçĶ¨ äºĨ
çļĦå±± å³°
åĨĽ åľ¨
å¡ Į
åıĹ åĪ°äºĨ
æĦı åĽ¾
ç±» çļĦ
èĬĤ å¥ı
å®ĥ åľ¨
åħŃ ä¸ª
åŃĺ åĤ¨
193 1å¹´
å½¢æĪĲ äºĨ
å¤º åıĸ
ç±»ä¼¼ äºİ
3 0å¹´
å¼Ģ ä¸ļ
æĺİ å°¼
å¤ª éĥİ
å®Ī æĬ¤
æĪĪ å°Ķ
4 Ġ
å¹¶ ä¸º
è¢« åĪĹä¸º
è¾ĥ å°ĳ
çĶµå½± èĬĤ
æ°¸ è¿ľ
çĶŁéķ¿äºİ æµ·æĭĶ
åĽ½ æľī
æ³ ª
æŃ¤ ä¸¾
è° ¨
åįģ å¤§
æŃ£ ä¹ī
ä¼ł å¥ĩ
èĻ ¾
å§Ķåĳĺä¼ļ ä¸»å¸Ń
è¿ª äºļ
æĹĭ è½¬
åĿĲ èĲ½
çī©çĲĨ åŃ¦
æĺ Ķ
æľī ä¸¤ä¸ª
åĬ¨ åĳĺ
åŀ ¦
å¥¹ æĽ¾
è¶³ èģĶ
æīĺ é©¬æĸ¯
åıĳå±ķ çļĦ
åĲĪå¹¶ ä¸º
Ġ X
ä¸Ń æĸŃ
ç¬¬äºĮ ä¸ª
U S
â Ħ
Ġ åįĹ
æĹ¶ éĴĪ
è¿Ľ èĢĮ
ç¡® å®ŀ
âĨ Ĵ
åħ¬ çº¦
åħ¥ çĲĥ
åħ¨ ä¸ĸçķĮ
åħī è°±
ic k
æıı åĨĻ
éľį å°Ķ
ç±³çļĦ åľ°åĮº
Ġ çİĭ
çļĦ é©¬
æĪ Į
æķĻ ç§ĳ
å·´ åħĭ
ä¿Ŀ åį«
åĩ» ä¸Ń
16 6
éĻĲ äºİ
æ¶Ī çģŃ
éĢļå¸¸ æĺ¯
èĻļ æŀĦ
C P
ãĢĭ (),
æĸ° è¥¿åħ°
æĢ§ æł¼
é¦ĸ é¢Ĩ
äº§ éĩı
çĳ Ļ
åĿĩ æľī
åĿĲ æłĩä¸º
ä¸ĭ å±ŀ
ä¹Ĳ åĻ¨
å¢ĥ å¤ĸ
æĬĢ èĥ½
æ¸© å¸¦
åĺī åºĨ
åĩºçīĪ çļĦ
åħĭæĸ¯ åĿ¦
ä¼į å¾·
Ġ åĪ¶ä½ľ
å¤§ æī¹
ä¿¡ ä»»
16 5
14 5
åį°åº¦ å°¼è¥¿äºļ
å¸ķ å°Ķ
çļĦåľ° ä½į
åıĳçĶµ åİĤ
3 åı·
y n
åīį èĢħ
éĢī ä¸Ń
åĲĳ ä¸ľ
la t
éĴ¢ éĵģ
ä»¥ åħ¶
æĢ ¨
çº¿ åĴĮ
èµ· çĤ¹
å®¢ å®¶
åı¯èĥ½ æĢ§
196 2å¹´
çº¤ ç»´
Ġ ç®Ģ
Ġ å¯¹äºİ
è· ĭ
çī¹ åĭĴ
å¤ļ ä¸º
è¿ĩ åº¦
æĢ» å±Ģ
åįİ åĮĹ
or g
çª Ŀ
æĶ¯æĮģ èĢħ
çģµ éŃĤ
éĢı æĺİ
å¤§ è¿ŀ
åĴĮ äººåı£
éķ¿ æĺ¥
å¸ĿåĽ½ çļĦ
äºĮ æ¬¡
or k
æĤ ¼
æĻļ æľŁ
åĽ½ æĹĹ
ä»ĸ å°Ĩ
åĲį å½ķ
å¥¥ åħĭ
çº³ æĸ¯
è§£ éĻ¤
èı ±
è¡ĮæĶ¿ éķĩåĮº
ç¡® ç«ĭ
0 1
ä¸Ń æŃ£
è¿Ļ ä¸¤
æ¸¯ éĵģ
åĸ Ŀ
å¾Ģ è¿Ķ
Ġ éĩĳ
æĺ¯ å¯¹
ä½Ĩ ä¸į
éĢī ç¥¨
éĶ ħ
æıĲä¾Ľ çļĦ
åħĭéĩĮ ç±³äºļ
æ²Ł éĢļ
Ġ ä¸ºäºĨ
éĹ ¹
åĶ ¤
éļı ä¹ĭ
è¾ŀ åİ»
æĲŃ è½½
é£ŀè¡Į åĳĺ
St ation
Ġ æĹ¥
éĺ ľ
å·¥ åħļ
æ¸¸æĪı ä¸Ń
é»ĳ æļĹ
é¸ ¦
çļĦ éģĵè·¯
åĽ½ å®ī
å®ļ ä½į
åįģ äºĶå¹´
æ¢ħ å°Ķ
åİ¿çļĦä¸Ģä¸ª è¡ĮæĶ¿éķĩåĮº
A K
U N
çļĦ å¼Ģ
çĽ Ĵ
ä¹ĭ åľ°
å¸ĥ æĶ¿
çĽ¸ è¾ĥ
æ³¢ çī¹
æīĵ å¼Ģ
ä¹Į æĭī
ro s
; &
m ent
Ġ ä»¥
âĢ §
ç«ĭ å¤§åŃ¦
Ġæľ¬ ç«Ļ
H R
çļĦ ä»£è¡¨
å° §
ä¸ĭ çļĦä¸Ģä¸ª
å£« åĿ¦
äº§ çī©
åĲĳ éĩı
æĶ¾ éĢģ
åĵį åºĶ
193 2å¹´
åĮ ª
æľī ä¸¤
åıĬ åĲİ
äºĭ åıĺ
æµģ æµª
åħĪ åīį
èĲ¨æĸ¯ å·ŀ
åľ° å¤Ħ
æĺİ ä»£
äº§ åľ°
ç¥ŀ ç¤¾
am e
èī¯ å¥½
192 8å¹´
ç§Ł çķĮ
åĪ© å¥¥
äºĭ æĥħ
ä¹¦ æ³ķ
æįĲ èµł
äººå¤§ ä»£è¡¨
å¸ĪèĮĥ å¤§åŃ¦
12 5
åį³ åı¯
æ¯į èĪ°
è¯» ä¹¦
ä¼ļè®® ä¸Ĭ
å·¡ éĢ»
O M
Ġ 13
çļĦ è®¡åĪĴ
åĮĹ å¹³
éĹ´ è°į
çĥ Ĥ
åºĵ å°Ķ
Ġ200 2å¹´
ä¸»æķĻ ç»ĥ
åıĳå¸ĥ äºĨ
èķ ĥ
å°Ĭ éĩį
F C
Ġ 20
çļĦ åº§æłĩä¸º
æ°ĳ æĶ¿
æľĢ éĩįè¦ģçļĦ
åİŁ åŀĭ
åĲĳ è¥¿
çłĶç©¶ ä¸Ńå¿ĥ
æĺ¯ä¸Ģ å®¶
196 1å¹´
çļĦ æ¯ĶèµĽ
äºº æīį
æĺĨ æĺİ
æ§ Ł
å¤§ åĲĮ
æĢ İ
ç¼ Ģ
éĥ½ ä¸į
åİŁ å®ļ
æĪĸ ç§°
æ® ·
èĮ İ
çłĶç©¶ åĳĺ
å¼º çļĦ
å¼º å¤§çļĦ
ç²¾ çģµ
å¼Ģåıĳ çļĦ
åĤ¨ åŃĺ
a x
å¤§ åŃĹ
çŃī äºİ
çŃī èģĮ
ä¼¯ æł¼
èĽ Ļ
å»¶ä¼¸ èĩ³
å°¼åı¤ æĭī
i dĠ
Ġ ä½ľä¸º
çļĦ åĲįç§°
åĬ ¾
ä¸Ĭ éĿ¢
ä»ĸ è¯´
æ³ķ åŃ¦
æŃ¤ ç±»
() ãĢģ
æĺ¥ ç§ĭ
æ³½ å°Ķçľģ
çº· çº·
è¯ Ī
åħ¬ ç¤¾
åĬ¨ æĢģ
ä¹Ŀ å·ŀ
éĺ² å®Ī
å·Ŀ åİ¿
åģľ è¿Ĳ
å§ĵ æ°ı
A I
Ġ ä¸ī
åıĳ è¾¾
æĽ¾ è¢«
ç®¡ æİ§
å¼ł åįķæĽ²
ĠS h
äºİ200 5å¹´
åĲĽ å£«åĿ¦
äºº ç¾¤
éĴ ł
èı ©
å°ģ éĹŃ
çŃī çļĦ
å¥ĸ æľĢä½³
å¢ĥ åĨħçļĦ
æĪ· éĥ¨
å¾® åįļ
éĹ ¯
åĳĺ å¤ĸ
åįģ åĽĽå¹´
è½¬ åıĺ
èĽ ®
åıĤ è®®åĳĺ
æĿĢ äºº
æĻ¯ çĤ¹
å°ģ éĶģ
ä½ £
åħ¬ å¼ı
åħĭ éĽ·
è¿Ļ æĹ¶
åĬł æĸ¯
åħ¶ä»ĸ çļĦ
æ³¨ åħ¥
ation al
è¿Ľ çĲĥ
éĺŁ åľ¨
æ³¢ å£«é¡¿
çľĭ è§ģ
æŃĩ å°Ķ
/ /
çĲĨ åŃ¦
åŀ £
æĶ¹ èī¯
éĢł åŀĭ
ä¸ĵ ç§ĳ
ä¸ĵ æ³¨
æ´»åĬ¨ çļĦ
éĩİ çĶŁ
ä¸»é¢ĺ æĽ²
å±¯ éĹ¨
ç¦ ¾
çĦ °
åıĤ æ¼Ķ
è°ĥ ä»»
æŀģ ä¸º
et t
åı¦ä¸Ģ ç§į
çĽ®åīįå°ļæľª çĶ±äººå·¥å¼ķç§įæł½åŁ¹
o ol
Ġ å»ºçŃĳ
åĪĨ äº«
ä»» æĦı
èī ®
æľŁ åĪĬ
ç½Ĺ è®·
éĺ¿ åŁº
å¯¼ å¸Ī
çľŁæŃ£ çļĦ
åīį æĿ¥
é«ĺ å±Ĥ
ç»ı è´¹
åįģ åħŃå¹´
å°¼ æ³Ĭ
eĠ M
åİĭ ç¼©
å·¡ æĬļ
éŀ į
åıĳè¨Ģ äºº
éĺ Ģ
é«ĺ æł¡
ä½ĵ æĵį
éĺ¿ å§Ĩ
æĺŁ çļĦ
ç²¾ ç¡®
åı³ ç¿¼
éĺµ äº¡
èĭ į
éļı æľº
è¯» èĢħ
éĽħ åħ¸
å®ľ åħ°
äºİ18 8
Ġ194 9å¹´
Ġä¸ªäºº çĶŁæ´»
) (
C N
è®¾ åľ¨
æ¶ ¨
çķĻ åŃ¦
èĤ¡ ä¸ľ
çļĦ æľī
åīį éĶĭ
å°Ĩ ä»ĸ
è·¯ å¾Ħ
é¦ĸ å°Ķ
åı¤ å¸ĮèħĬ
çİĩ åĨĽ
åħį çĸ«
è¶ĭ åĬ¿
ç©Ĩç½ķé»ĺ å¾·
çļĦ ç»ıæµİ
ä¸Ń åİŁ
çķ ı
åĪĿ æŃ¥
æĴŃ åĩºçļĦ
196 3å¹´
è´Ń çī©
æ´ª æ°´
ç»Łæ²» èĢħ
å¤©æĸĩ åŃ¦å®¶
çº¦ åħĭ
æıĲ æ¡Ī
åĬłåħ¥ ä¸ŃåĽ½åħ±äº§åħļ
E S
çļĦ ç¤¾ä¼ļ
ä¸Ģ å¼Ģå§ĭ
äºº ä¸İ
äºº æĸĩ
æĺ¯ ä¸ĭè¾ĸçļĦä¸Ģä¸ª
æĹ¶ åĪ»
å°ı å§Ĳ
æ°´ ä¸Ĭ
åĽłæŃ¤ åľ¨
æĦŁ æĥħ
æ²¿ çĶ¨
éĤ® å±Ģ
è¡¨çİ° åĩº
å§Ĭ å¦¹
åıĳ èĤ²
æľ¬ æ¬¡
åı¯ éĿł
å½ĵ ä½ľ
ç¼ Ĩ
æ°´ æ·±
å·´ æĸ¯
æĥħ æĦŁ
å±Ģ åĬ¿
æĬĢ å·§
èĢĥ åħ¥
èį£ èİ·
è®¨ ä¼Ĳ
æĪª æŃ¢
èĥ Ģ
ãĢĬ ãĢĭ(
éĢī æĭĶ
åĸ Ļ
ä»ħ ä»ħ
å½Ĵ ç±»
æĻļ éĹ´
æĭľ åįł
ä¸Ģ åı·
ä¼ļ ç¤¾
å¹¶ è¡¨ç¤º
éĿ¢ ä¸Ĭ
ç¦» å©ļ
è®¤ä¸º æĺ¯
åĶ® ç¥¨
od ice
3 Ġ
çļĦ åĪĨ
ä¸ļ ä½Ļ
éĤ ¹
é¦ĸ æī¹
äº¤ æĪĺ
å¤Ħ åĨ³
çļĦä¸Ģ æ¬¡
çħ Į
æľĢç»Ī åľ¨
191 2å¹´
èµĭ äºĪ
çļĦ èº«ä»½
åĴ ı
å®ī å¦®
åº§ åłĤ
å®¢ è½¦
èŀº æĹĭ
æĶ¿åįı å§Ķåĳĺ
éĻ¨çŁ³ åĿĳ
âĦ ĥ
åĩº åľŁ
ä¹ĭ ä¸Ĭ
å¤ļ ä¼¦
ä½ĵ éĩį
ç¼ ¸
åİ¿ éķ¿
åĨ³ çŃĸ
åĽŃ åĮº
åİ»ä¸ĸ åĲİ
i er
m m
ä¸į çŁ¥
ä¸į ä½³
åĨĽ æĸ¹
å¤© åºľ
igh t
æ¬¡ åĪĹè½¦
å¤ª å®Ī
15 4
ä¼¦ æĸ¯
193 4å¹´
çī§ å¸Ī
éĽķ åĥı
æĦıæĢĿ æĺ¯
E ST
çļĦ ä¸Ĭ
åľ¨ å½ĵæĹ¶
åŃ ļ
åĲİ åĽł
è§Ĥ éŁ³
å¤± è¸ª
æ£® åł¡
å½±åĵį åĬĽ
çĨ Ķ
åĺī å®¾
åĲ¦ åĪĻ
çļĦ æ´»åĬ¨
æĪĺ ç»©
å·¥ä½ľ äººåĳĺ
192 9å¹´
èİİ çĻ½
åľ¨ ä¸İ
äºĨ è¯¥
çĶµ è·¯
å·´ å«©
ç¦ı å°Ķ
en ter
éĩĬ åĩº
æ½ľ åľ¨
ä¿ĥ ä½¿
æ°Ł åĮĸ
çļĦ åħ¨
la r
è§Ħ æł¼
èĭ±åĽ½ çļĦ
çĥŃ éĹ¨
åıĳè¡¨ äºĨ
æĬĹæĹ¥ æĪĺäºī
è¢ ľ
å¹¶ æľī
ä¹Ĳ åĽŃ
éĴ §
æĶ¯ çº¿
eĠ B
é¹ ¦
æľĢé«ĺ æ³ķéĻ¢
èŁ ¹
Ġ æ³ķåĽ½
ä¸º åı°æ¹¾
ä¸ĸçķĮ åĲĦåľ°
å¨ģ å°¼æĸ¯
14 9
æľĢé«ĺ çĤ¹
Ġ åıĤèĢĥ
åľ¨ æ¬§æ´²
æĭ ¯
èĩª ä¸»
éĽĨ ç»ĵ
ä¼ł éĢĴ
è§ģ äºİ
èĪª ç«Ļ
ä¾¦ å¯Ł
èı²åĪ© æĻ®
3 ç±³
5 åħ¬éĩĮ
M ic
çļĦ ä¼łç»Ł
é¢ Į
ä½ĵ ç§¯
é¦ĸ æŃĮæĽ²
é»İ å·´å«©
æ¸ħåįİ å¤§åŃ¦
èĢĮè¯¥åľ°çļĦå¹³åĿĩæµ·æĭĶé«ĺåº¦ ä¸º
æŃ¤ åľ°
åı¤ è¿¹
ç½® äºİ
èŃ¦ åĳĺ
æĲľ ç´¢
äººå¤§ å¸¸å§Ķä¼ļ
D NA
S c
i um
çļĦ ç¬¬ä¸ī
åı¯ æĺ¯
æĪĺ åĽ½
æį® è¯´
å¤ª åİŁ
çłĶ åĪ¶
è§Ĥ èµı
æ¸© æ³ī
äºĮåįģ å¹´
é¢Ŀ å¤ĸ
æĴ¤ ç¦»
å®Įæķ´ çļĦ
ç²¤ è¯Ń
åĵ º
ä½Ĩ ä»į
ç±» åĪ«
ç¡ ħ
ç¡¬ å¸ģ
ä»¥ 3
å£ ¬
éĺŁ åıĭ
äº¤ åĵį
éĽĨ ä¼ļ
è§Ĥ å¿µ
éº ĵ
192 7å¹´
æĲŃ éħį
2 ç±³
æĪ İ
è¯¥ åºĦ
é©¬ åĬĽ
æĮĩ çļĦæĺ¯
æİĴ éĻ¤
æ²¿ çº¿
æĺ¯ä¸Ģä¸ªä½įäºİ ç¾İåĽ½
åº ¸
å¹³ æĪĲ
ç¥ ·
é¦ĸ ä»»
Ġ200 1å¹´
æĹĹ ä¸ĭçļĦ
æĪĲåĬŁ çļĦ
192 4å¹´
åı¬ éĽĨ
æĢ» åħ±
æĽ¾ æĭħä»»
ä¸ĩ å¹´
è¾ĥ å¤§çļĦ
ing Ġ
è¯¥åľ° çļĦéĿ¢ç§¯
éĴĵ é±¼
ð ¬
æŃ ¼
åĨħ äºļ
æķĻ å¾Ĵ
å°± åı¯ä»¥
ä¼ł è¾ĵ
æĳ ĺ
çļĨ æľªçŁ¥
èĿ Ļ
æııè¿° ä¸º
å·¡åĽŀ èµĽ
åĴĮäººåı£ çļĨæľªçŁ¥
è¯¥åľ°çļĦéĿ¢ç§¯ åĴĮäººåı£çļĨæľªçŁ¥
ç¬¬ 10
æľ¬ åľ°åĮº
ä¹Ł ç§°
æ´Ľ çī¹
æĭľåįł åºŃ
a yĠ
ä¸ ¢
å°± ä»»
or l
åĭĴ æĸ¯
æĶ¿æ²» å®¶
æĸĩåĮĸ å¤§éĿ©åĳ½
ä¾Ŀ éĿł
é¡º æĹ¶éĴĪ
æĦıè¯Ĩ åĪ°
çļĦ æ²³æµģ
åĨ ¢
er t
åĳ½ åĲįçļĦ
åĪĴ åħ¥
æĿ° åĩº
çŃĸ åĪĴ
èĿĻ èĿł
è´ ¦
åĩº æĿ¥çļĦ
æľ¬ æĿ¥
å¼Ģ æĴŃ
ç¾İ ä¸½
è¿Ľ åĨĽ
è° ķ
åĪ¶ åĵģ
å±± åı£
ç½ĳ åıĭ
æ¨¡ ä»¿
éĺ² åį«
å©ļ ç¤¼
ç´¯ ç§¯
æĹłçº¿ çĶµ
i Ġ
åĲį åı«
åĲĪ çĲĨ
ç«Ļ èĩ³
è¯Ħè®º å®¶
è¾½å®ģ çľģ
æ° Ľ
æĹ¥ çĽĬ
æ» ŀ
å¡ŀ æĭľ
ĠP ro
çļĦ åħ¶ä»ĸ
ç§ ī
æĸ¹ ç¨ĭå¼ı
é«ĺ å±±
ç½Ĺ ä¼¯
åĥ ļ
Ġ200 0å¹´
åħ¬åĬ¡ åĳĺ
çļĦ å¯¹
åĪĨ ä¹ĭ
æŃ£ æĺ¯
é» ı
åĽĽ äºº
åıĤ è§ģ
æ²Ļ æ¼ł
å¤ı å¨ģ
å¯º éĻ¢
è®¯ æģ¯
Ġ åħ¨
æĪĲ çļĦ
æ± ¶
æĪĺ ä¸Ń
éĵ Ŀ
åĶ ĩ
åıį æĬĹ
é¦Ļæ¸¯ çļĦ
æĸĩåĮĸ éģĹäº§
å¼Ĺ åħ°
èĢ¶ å°Ķ
è¡Ģ æ¶²
åŁºæľ¬ ä¸Ĭ
9 00
C C
çļĦ çĽ®æłĩ
å¾· ç½Ĺ
ãĢį )
ä½ĵ åŀĭ
æĮĩ ä»¤
çĻ½ ä¿Ħç½Ĺæĸ¯
éħį ä¹Ĳ
ä¼ĳ æģ¯
æ¯« æĹł
çº½çº¦ å¸Ĥ
éķ ¶
æĿĥ å¨ģ
ç¼ĸ åĪ¶
åħ´ èµ·
çľŁ äºº
äº¤æĺĵ æīĢ
Ġ ä¸ľ
è¡Į è½¦
ä¹ĭ æĹ¶
å¹¶ èİ·å¾Ĺ
åįİ ä¸º
åł µ
ç¬¬ä¸Ģ çĻ¾
äºĪ ä»¥
åĮħåĲ« äºĨ
ä¸į åıĹ
ä¿ ±
åĬ¨ å·¥
è¿Ĳ ç®Ĺ
è¯Ń ä¸Ń
ä¹ī åĬ¡
åĬ© äºİ
çİ¯ ä¿Ŀ
çģŃ äº¡
å¹» æĥ³
Ġè½¦ç«Ļ ç»ĵæŀĦ
çļĦ æīĭ
åĴĮ ç¾İåĽ½
èĩ³ æŃ¤
åı° ä¸ľ
èĥ½ åľ¨
æĢ» æĺ¯
èĭ± è¶ħ
å½± è¯Ħ
æĿ¡ çĽ®
æİ¢ è®¨
éļĶ å¹´
A D
Ġ 17
çļĦ è¥¿
çļĦ åĲĮæĹ¶
çļĦ å»ºçŃĳ
åĵ Ń
æķ° åįĥ
åħ° åį¡
å¥³ ç¥ŀ
è¯´ æľį
åĳ¨ æľ«
è§ģ åĪ°
åī¯ æĢ»ç»Ł
æ¾ İ
24 å°ıæĹ¶
åıĹå®³ èĢħ
A V
çİ° å·²
ä½ĵ çİ°
æĭī å¾·
å¸ĥ å±Ģ
è¯Ń åĴĮ
åĽ½å®¶ å®īåħ¨
æķ´ çĲĨ
éĿĴ æµ·
è´¹ å°Ķ
æł¼åħ° çī¹
çīĪæľ¬ çļĦ
è·ĳ éģĵ
Play Station
Ġ æĹ©æľŁ
åľ° åĿĢ
çĶ± æĿ¥
ä¸ĭ æ¸¸
éĩĮ éĿ¢
éĽĨ çļĦ
ä¸ĵ åĪ©
æīĵ è´¥
æĹ¶éĹ´ çļĦ
çīĻ é½¿
åĨ° å·Ŀ
å®ļä¹ī ä¸º
åŁºçĿ£ å¾Ĵ
æ¸ħæľĿ æĶ¿æ²»äººçī©
ä¸Ģ ä»½
æľº åĬ¨
å¸Ī éķ¿
ç»Ī èº«
å§Ķåĳĺä¼ļ çļĦ
åħ¸ åŀĭçļĦ
çģµ æĦŁ
ç¾İæľ¯ é¦Ĩ
çļĦ å¤ļ
ç¬¬ åįģäºĮ
åĵ ©
æĿ¥ çľĭ
åĪ¶ è£ģ
è¿ĳ å¹³
æ±ī åł¡
çľĭ æ³ķ
éĿ©åĳ½ åĨĽ
ä¾µ çĬ¯
åĲ ĵ
åľ¨ åīį
å¹¶ æĪĲä¸º
éĵ ħ
æīĵ éĢł
è´Ŀ æł¼
åıĭ è°Ĭ
å¯º åºĻ
åĪł éĻ¤
ä»ĸ ä»¥
èĥ ĥ
ç¬¬ 8
ä¸ī çº§
å¤© æĸĩåŃ¦
åıĺ æĽ´
çĪ± å¥½
æ¦ ´
un g
II I
Ġ é»Ħ
ä¸º å¤§
ä¸º è¯¥
æ¬¡ åŃĲ
åĽ¾ å½¢
æŃĮ åī§
å®£å¸ĥ å°Ĩ
èĭ¥ å¹²
1 12
p en
çļĦ åľŁåľ°
åľ° åŁŁ
åĲį é¢Ŀ
èĢĮ éĹ»åĲį
çĭ Ĳ
åŁİå¸Ĥ çļĦ
çŁŃ çīĩ
åĪĽä½ľ çļĦ
å¹¶ä¸į æĺ¯
åĿĲ æłĩ
æĦıåĳ³ çĿĢ
åģľè½¦ åľº
Ġ æŃ£
çļĦ éĿŀ
çī º
åĨĽ å§Ķ
æĢ» åı¸ä»¤
åĪĻ ä»¥
åĿĩ åľ¨
è¡ĮæĶ¿ åįķä½į
åĨ³èµĽ ä¸Ń
c ol
ä¸º é£Ł
ä¸Ģ æĹ¦
å¹³ å®ī
æ¢ Ń
åľŁ å£¤
é¡º æ²»
æį· è¿Ĳ
èĪªç«Ļ æ¥¼
å¤ıå¨ģ å¤·
Ġ å°ı
æĪ ļ
çĻ ¸
å°± åĥı
éŁ³ èĬĤ
æ´» æĢ§
ä¸ĵ åĳĺ
å¼Ģå§ĭ äºĨ
ãĢī ãĢģ
ç½ķ è§ģ
åĲīæŀĹ çľģ
o o
çļĦ æľºä¼ļ
ç¬¬ 7
èĤ ¾
ä¾¿ æĺ¯
éĺµ èĲ¥
å´ĩ æĭľ
ç¿Į æĹ¥
6 ç±³
çļĦ åĨĽäºĭ
æ±Ł è¥¿çľģ
æĽ¼ èģĶ
ä¹ł è¿ĳå¹³
æĻļ å¹´
åŃĺåľ¨ äºİ
èĩĢ é³į
. &
åĨĽ èĪ°
éĩĮ æĺĤ
å·ŀ è´Łè´£ç®¡è¾ĸ
éĢł èĪ¹
çĳ ļ
èĲ½ åĲİ
æĺ¯ä½įäºİ ä¹Įåħĭåħ°
çº½çº¦ å·ŀ
è·¨ è¶Ĭ
æ¢¦ æĥ³
u k
éĥ½ åı¯ä»¥
éĶ ¥
ç¼ĸ åħ¥
è½¬ ä¹ĺ
èĲ½ è´¥
æĻ¶ ä½ĵ
éĩįçĤ¹ æĸĩçī©ä¿ĿæĬ¤åįķä½į
0 9
éĩĳ éĹ¨
çĶ· ä¸»è§Ĵ
çª ĳ
çģ« åĬĽ
äº« æľī
åĲį ç§°ä¸º
åĳ¨ æģ©
ä¸ĸçķĮ éģĹäº§
ä¼¯ åĪ©äºļ
èĪª è¡Į
å·¡ æ¼Ķ
è¡¥ ç»Ļ
æŁĲ ç§į
Ġæł¹æį® 2010å¹´ç¾İåĽ½äººåı£æĻ®æŁ¥çļĦæķ°æį®
éŀ Ń
I ST
Ġ åį¡
åĴĮ ç¤¾ä¼ļ
æľ¬ è´¨
ç«ĭ å§Ķ
ä½Ĩ æľĢç»Ī
è¯Ħ å®¡
é¢ĳ ç¹ģ
åľ¨è¿Ļ éĩĮ
s k
ãĢĬ ãĢĭ,
èĭ± å¯¸
åı« åģļ
çīº çī²
åį ¯
è¡ĮæĶ¿ éķ¿å®ĺ
å¹¿å·ŀ å¸Ĥ
æĺĨ èĻ«
0 6
æ³ķ åĨĽ
å¹³ å®ļ
æ°´ åĪ©
å®Į ç¾İ
èĲ¥ åħ»
e k
ä¸Ń çŃī
åŃ¦ åłĤ
æķ° ä¸ª
æĶ¹ ç»Ħ
eĠ S
åŃ£ èĬĤ
æ¹ĸ å¹¿
çļĦ è¡¨çİ°
19 18å¹´
æĸ¯ åľ¨
è¢« æĿĢ
ä¸Ģä¸ª æľĪ
æĥ ĳ
äº¤ ä»ĺ
å¾Ģ æĿ¥
ter n
å½° åĮĸ
ä¸į ä½Ĩ
æľ¬ åĲį
éĩĮ å¥¥
ç«ĭ ä½ĵ
çķ ´
åį³ ä¸º
èģĮ è´£
åıĪ åľ¨
197 0å¹´ä»£
å¹¿æ³Ľ çļĦ
å°¼æ³Ĭ å°Ķ
ä¸Ģ è·¯
æ¸ Ĺ
å®¶ å±ŀ
æĪĺ è´¥
ç¦ ¹
å½± å±ķ
æıĲ çĲ´
é£İ æĻ¯
åħī åŃ¦
æĹ§ éĩĳå±±
éĢĥ ç¦»
åĲ¬ åĪ°
çĪĨåıĳ åĲİ
æĶ¶è§Ĩ çİĩ
é©¬ æģ©çľģ
çĲĥ è¿ĲåĬ¨åĳĺ
éĻ¢ æł¡
an n
é¾Ļ ç§ĳ
ä¸ĸçºª çļĦ
è¡¥ åĬ©
èµ¤ çº¬
ä¸Ģ åħ±
ä¸ī ä½į
12 7
å¥¹ ä¸İ
å¸¦ æĿ¥çļĦ
åı°æ¹¾ çļĦ
ç½ĳ æ°ĳ
æĸĩåĮĸ çļĦ
æľĢåĲİ ä¸Ģæ¬¡
å±ı ä¸ľ
æĵħ éķ¿
3 åĲį
N et
Ġ 14
éĺ Ĳ
è¿Ļ ä½į
æĢ» ä½ĵ
äº¦ ä¸º
çİ¯ ç»ķ
L in
æľī çº¿
æĸ¯ åĴĮ
å¹¶ åĲĳ
å°± è¢«
å¤ı å¤©
åĨľ åİĨ
ç´¢ æģ©
ĠA l
as s
é¢ģå¥ĸ åħ¸ç¤¼
ç»´åŁº çĻ¾ç§ĳ
ä¸» äºº
ä»» ä¸Ńåħ±
è¿Ľ å±ķ
å¯Ĩ èĭıéĩĮ
çĻ½ äºº
è¯º è´Ŀå°Ķ
ĠS p
éĺ¿å°Ķ å·´
ä¹ĭåīį çļĦ
ä¿ĺ èĻı
æ¯Ĺ éĤ»
ä¸Ĭ å°Ĩ
æĸ° åı°å¸ģ
æ¹ Ľ
è®® éķ¿
æ· Ģ
æĶ» åħ¥
æĻº åĪ©
éĽ¶ åĶ®
èĳ£äºĭ ä¼ļ
éĽį æŃ£
Ġ æ²¿éĿ©
å¤§ å¸Ŀ
åħ¶ åŃĲ
ç¬¬ 11
å·ŀ çļĦä¸Ģä¸ªå¸Ĥéķĩ
åİ¿ æ²»
å¸¸ ä½ı
æĻ® æŀĹ
è½¬ åŀĭ
ç¦ı çī¹
çģ« çĤ®
è´Ł éĿ¢
åĢĻ è½¦
æīĢè°ĵ çļĦ
è¿½æº¯ åĪ°
G B
ä¸Ģ èĩ³
çī ¢
åĴĮ 1
åĲĮ å¿Ĺ
äºļ ç§ĳ
æĽ´ æĶ¹
æĽ´ å¤§çļĦ
ä¿¡ çĶ¨
æĭħ å½ĵ
æī§ æ³ķ
ä¹ĺ è½¦
çĭ® åŃĲ
I A
æĺ¯ æľī
æĸ° åŁİ
èī °
æĢ» ä¹¦è®°
è§Ĩ æĺŁçŃīä¸º
é¥ ²
ä¹Į é²ģ
æł¹æį® 2020å¹´ç¾İåĽ½äººåı£æĻ®æŁ¥çļĦæķ°æį®
äºİ200 4å¹´
ç«ĭæ³ķ å§Ķåĳĺ
æĺİæĺ¾ çļĦ
é«ĺéĽĦ å¸Ĥ
An d
æ¨¡çī¹ åĦ¿
2 ä¾ĭ
C H
çļĦ æľĢé«ĺ
åĮ ¿
ä¸Ń æĹ¬
åĩ °
ä¸ĭ åįĬ
åħ± è¯Ĩ
æĻĭ åįĩ
ĠA n
èĴ¸ æ±½
% ;
10 5
æĻ® åıĬ
èİ± æĺĤ
30 åĪĨ
æľĢåĲİ çļĦ
191 4å¹´
iv e
åĭĩ å£«
èµĶ åģ¿
äºİ 2025å¹´
æľī å¤ļ
æİ ·
å¾· åĪ©
è½¦ éģĵ
éħ ¬
éª ¸
å±Ģ éĥ¨
åı°æ¹¾ çľģ
15 3
å®« å»·
æĪĺäºī çļĦ
ç§ģ ç«ĭ
è¯¢ éĹ®
æĪĺåĪĹ èĪ°
æĺ¯ æľĢ
çī¹ éĽ·
éĩį ä¿®
çīĪ æĿĥ
åľ£ è¯ŀ
é¢Ħ å®ļ
èĪªç©º æ¯įèĪ°
ow n
èªī ä¸º
æĹ¥æ²» æĹ¶æľŁ
çļĦ åĮºåŁŁ
äºº çĶŁ
è¾ £
éª ¤
æĶ¯ çĲĥéĺŁ
ĠE n
0 8
B BC
w it
çļĦ æłĩåĩĨ
æľī äºĨ
åĪĨ ç»Ħ
å½± ä¸ļ
çĽ´ è¾ĸ
çĵ £
å·¦ æ´¾
å°ģ éĿ¢
è¯¸ å¤ļ
æĭĽ åĭŁ
åħ¬å¸ĥ ä¸º
A d
a f
å¤§ å°ĨåĨĽ
æĸ¯ å¤§
çľ ī
æ± ķ
æµ· åħ³
éģĵ æŃī
éľ ĸ
ä¼Ĺ äºº
åıĳè¡Į äºĨ
åĶ±çīĩ åħ¬åı¸
å±Ĭåħ¨åĽ½ äººæ°ĳä»£è¡¨å¤§ä¼ļ
Ð °
çļĦ åĽĽ
è¿ Ħ
çº Ĥ
å¤§ åŁĶ
åī ¿
ä½ľ çī©
è¢« éĢīä¸º
çļĦä¸Ģ é¡¹
å¤į æ´»
çĽĳ åĪ¶
åī§ ä¸Ń
æ¡Ī ä¾ĭ
æĽ¿ æį¢
æģ¶ åĮĸ
è¿ĳå¹´ æĿ¥
çļĦ è¦ģæ±Ĥ
ä¸Ģ æĸ¹
çľģ éķ¿
æŁ ¬
å¨ ¥
äº¤ çĶ±
å·² åľ¨
æĻ® äº¬
eĠ of
åĨ³ äºİ
çĭ¬ çī¹
èĪ¹ åĳĺ
å¹¿æĴŃ åħ¬åı¸
Ġ18 9
åĬłåĭĴ æ¯Ķ
äºº æ°Ķ
çī Ł
ä¾ Ħ
æĭī çļĦ
ä¸¤ åº§
çĶ² æĿ¿
ä¹ł ä¿Ĺ
Ġ å¼ł
å¯ ¡
ä¸Ĭ ä»»
åĽł åŃĲ
ç½Ĺ å§Ĩ
å±ķ åĩº
åĪĿ çº§
æ²Ļ çī¹
æļ´ åĬ¨
è½¯ æĿ¡
çģ¾ éļ¾
Ġ ä¹Įåħĭåħ°
çļĦ åŃĺåľ¨
19 19å¹´
ä¸į è¯¦
æĭī å¤ļ
ä½Ĩ åį´
å¼Ł åŃĲ
è£ģ å®ļ
æģĲ æĥ§
ç¨ĭåº¦ ä¸Ĭ
æµģåŁŁ éĿ¢ç§¯
åı¤èĢģ çļĦ
0 2
å¾· å·Ŀ
æ¯ı å°ıæĹ¶
é¢Ħ éĺ²
æľĢè¿ĳ çļĦ
èĪĨ è®º
æĭ¯ æķĳ
0 7
çļĦ åıĮ
åĽ½ ä¼ļè®®åĳĺ
æ³ķ å°Ķ
é© °
æ²» å®ī
çº¦ 2
æŃ¢ äºİ
è¾© è®º
èµ ¦
æĹ¥ è®°
åħĭ åĬ³
å®ī ç½®
åį¡ çī¹
åĲĦ é¡¹
äºī è®º
çĽĳ ç®¡
é¹ ī
åĸľ çĪ±
Go og
çļĦ éĩĳ
çļĦ ç»Ŀå¯¹
åĽ½ åħ±
éĺ¿ å¸ĥ
çĭ ©
åıį å°Ħ
è½¬ æĴŃ
13 6
è¡Ģ ç»Ł
è®¯ åı·
çĶµåŃĲ æ¸¸æĪı
æĹ¶ å¸¸
åĬł é¾Ļ
åīį æĸ¹
æľŁ æľĽ
åĪĹ å®ģ
æ¸ħ çľŁ
åĬŁ çİĩ
å·® è·Ŀ
L e
é«ĺ å³°
æŃ£ è§Ħ
çŁ³ åĻ¨
èĮ¨ åħĭ
åįĹ å®ĭ
éħ °
æ¯ı ä¸Ģ
ç§ĭ åŃ£
èµ¤ ç»ı
ç¼ĵ æħ¢
åĵº ä¹³
3 000
ä¹ĭ å¥³
æ± ģ
å¤ļ å¤«
æµ· æ°´
è¯¥ ç»Ħç»ĩ
ç³» çļĦ
éĥ½ æ²¡æľī
å¾Ī éļ¾
æ·± åĪ»
æŀģ å¤§
å¹² é¢Ħ
é©» æīİ
è¿ģ å¾Ģ
æ½ľ æ°´
Ġ Y
Ġ åĪĨç±»
ä½ľ çļĦ
èĥ °
å¹³ è¡Į
äºļ å½ĵ
æ· ³
æĹı èĩªæ²»
çĭ¬ èĩª
å£° ä¼ĺ
è¡Ĺ å¤´
è¿ľ ä¸ľ
æİ¥åıĹ äºĨ
å¹´è½» çļĦ
åı°åįĹ å¸Ĥ
æĸ¯éĩĮ åħ°åį¡
Ġ å®ĥ
Ġ åĽ½éĻħ
æľī åĪ©
æĸ¯ åĽ¾
æĸ¹ å½¢
éĩĮ ç¨ĭ
è½¦ æīĭ
è½¦ åŀĭ
ä¸ĸ çļĦ
æł¡ åıĭ
æ» ´
åĮħæĭ¬ äºĨ
æ´Ľ éĺ³
é©» åľ°
æľĢåĪĿ çļĦ
åıĤèµĽ èµĦæł¼
çļĦåīį èº«
I G
åĴĮ ä¸Ń
åĮĹ çº¦
åİ¿ æĶ¿åºľ
æ²» çĲĨ
å¹¿ ä¹ī
äººæ°ĳ æ³ķéĻ¢
å¨ģ å°Ķæĸ¯
å¤į åĲĪ
çİĩ åħĪ
ä»ª åĻ¨
åīĳ æ¡¥
èµ·æºĲ äºİ
èħĵ çī¹
åĲİ åį«
æ³ķ å®ļ
å®ļ å¾ĭ
æĶ¹ çĶ±
æĶ¯ éĺŁ
ä¸ĵ æ¡Ī
åĻ¨ å®ĺ
åħ¸ åŀĭ
åŃĻ ä¸Ńå±±
æ£Ģ éªĮ
å¤ĦçĲĨ åĻ¨
æİ¨åĩº äºĨ
C R
åĲ Ĺ
æĪĲ åĮĸ
åħĭ åĪ©
åĨħ çĳŀ
çĶµ ä¿¡
åħ± äº«
å¢ ħ
åĲĦ å¤§
æīĵ è¿Ľ
é»Ħ æ²³
æĤ Ł
é¢Ħ æľŁ
å¹² æī°
èĳ¬ äºİ
ç½¢ å·¥
è½¬ç§» åĪ°
ä¿Ħäº¥ä¿Ħ å·ŀ
å¤§ æŃ£
åįĹ æĺĮ
å·´ é©¬
æĽ¾ æľī
åĽ¢ çļĦ
å¤§åŃ¦ æķĻæİĪ
æĶ¾ ç½®
æ¤ Ĵ
è¿ľ å¾ģ
ç³»åĪĹ çļĦ
il li
å¤º åĨł
å¹¿æĴŃ çĶµåı°
çļĦçī¹ å¾ģ
ĠTh eĠ
ä½Ľç½ĹéĩĮ è¾¾å·ŀ
èħĵçī¹ çĥĪ
å¤§ åİħ
ä¸Ĭ çº¿
è¢« æĮĩ
åħĭ é²ģ
èµĽ èīĩ
æķ° åĢ¼
å§Ķ åĨħçĳŀ
åĳ½ è¿Ĳ
æĹ¶éĹ´ ä¸º
ç®Ģ åĮĸ
çĽĨ åľ°
åĳĺå¤ĸ éĥİ
çļĦ åĨħ
ä½Ĩ æĺ¯åľ¨
ä½¿ èĢħ
åįģ ä¸ĥå¹´
å®ī åİ¿
éĤ ¸
èĬ± èİ²
å¯Į å£«
ä»ĭ çŁ³
åĭĥ èī®
å¤ļä¼¦ å¤ļ
æŀ «
ä½ľ è¯į
æīĢ å¾Ĺ
å°¼ æĹ¥
åį³ æĹ¶
æ¸ħ æ°´
çĩ ¥
æĭĺ æįķ
. "
l o
ä¸ĭ æĹ¬
æĸ° ä¸Ģ
ä¸ľ è·¯
å§Ķ å¸¸å§Ķ
åİĤ åķĨ
èįī æ¡Ī
äºİ200 0å¹´
æĪĳä»¬ çļĦ
I L
ä¸į èī¯
æĢ» è®¡
ç¥ŀ çĪ¶
ç»ĩ çĶ°
ç¹ģ å¿Ļ
ä½įäºİè¯¥åĽ½ è¥¿éĥ¨
æµĵ åº¦
é¹¦ é¹ī
ä¹ Ĵ
ç½ Ĳ
äºĮ å±Ĥ
éħ ±
éħ µ
åĽŀ å®¶
ç²¾ èĭ±
ä¾µ çķ¥
å§Ĳ å¦¹
èħĲ è´¥
åĽļ çĬ¯
Ġ äºīè®®
è½¬ èĢĮ
åĲī ä»ĸ
å¾Ī å¤§çļĦ
ç§» æ¤į
æľ« å¹´
èįī åİŁ
å« ¡
åĪĬ çĻ»
åı¸ä»¤ åĳĺ
çİ°æĹ¶ çĶ±
æĸ°åĮĹ å¸Ĥ
l in
Ã ¡
ç» ħ
ä¼ļ éĿ¢
åįĹ ç«¯
å½ĵ æĻļ
åľº åĲĪ
å°± ä¸ļ
æĮĩ æłĩ
å¥ĸ åĬ±
ç»§ ä½į
çıĬ çĳļ
æĦ¤ æĢĴ
åĬ¨ è¯į
è½¦ çļĦ
ç«ĭ æ³ķéĻ¢
èĲ ¤
æķħ æĦı
ä¸ĸçºª åĪĿ
äºİ200 3å¹´
è¯Ĺ æŃĮ
åĩ¤ åĩ°
åĢº åĬ¡
éĻįéĽ¨ éĩı
è½¦ èº«
åıĸ åĨ³äºİ
åĸ Ĭ
æĶ¿æ²» å±Ģ
é¥ ±
çĽĳ ç¦ģ
è¡Ģ ç®¡
æĮĩæĮ¥ éĥ¨
ç®Ģåįķ çļĦ
1 åĲį
t t
Ġ åĪĨå¸ĥ
ä»ĸ æĪĲä¸º
åħ¬ å¹³
åıĳ çļĦ
åĮĹ éŃı
éĩį çļĦ
ç»Ī ç»ĵ
åĪ¶éĢł åķĨ
èĴĭ ä»ĭçŁ³
è´« åĽ°
åĲı éĥ¨
æĶ¿ å§Ķ
åĬł çĥŃ
ä¹Ł åı¯èĥ½
æķ° ä¸º
åİŁ æĿ¥çļĦ
ä½įäºİ éĵ¶
çŃ¾ è¯ģ
çļĦç¬¬ ä¸Ģä¸ª
0 3
u x
Ġ éŁ³ä¹Ĳ
å¯¹ ä»ĸ
åı£ åı·
æĪĸ åħ¶ä»ĸ
åĪĻ è¢«
æµģ äº¡
or n
åĶĲ ä»£
æ°ĳæĹı ä¸»ä¹ī
åİŁåĽł æĺ¯
SA O
åį¸ ä»»
æ³ķ è§Ħ
æľĢ æľī
æµ· çĽĹ
æľº ç»Ħ
æĬ¤ çħ§
åįĬ å¾Ħ
æĳ© æīĺ
æįŁ å®³
æµª æ¼«
åŃ¦å£« åŃ¦ä½į
0 4
S O
ä¸º æĹ¥æľ¬
äºº ä½ĵ
åŃ¦ åĳĺ
è¯¥ å¹´
é¦ĸ æĺł
åĭ ī
å¼¹ åĬ¾
æ¸Ĳ æ¸Ĳ
åĪĳ éĥ¨
å¤§å¥ĸ èµĽ
8 ç±³
æ³ Į
ä¸Ĭ ä¸Ģ
æ°ĳ åħļ
å¯¹ æ¯Ķ
åħĭ æĭīåħĭ
å¤ļ æĸ¯
çº§ è¡ĮæĶ¿åįķä½į
åĩł åĨħäºļ
çļĦçī¹ æľī
åĤ¬ åĮĸ
e ch
çļĦ æ¶Īæģ¯
åľ¨ å½ĵåľ°
åľ¨ ä¸ŃåĽ½å¤§éĻĨ
ä¼ļ å¯¼èĩ´
ä»£ è°¢
10 ä¸ª
è¶ħ äºº
çīĽ æ´¥
192 6å¹´
ç»ĺ åĪ¶
ç¹ģ èį£
å¼ĺ æ²»
i es
æĽ¾ äºİ
å¡Ķ åŁº
å·¥ä½ľ èĢħ
çħ ®
ic al
åİ¿çļĦ éĿŀå»ºåĪ¶åľ°åĮº
é¢Ĩäºĭ é¦Ĩ
è¤ Ĵ
ä¸İ å¤§
ç¬ ĥ
ä¸ĭ åĪĹ
å®ī æīĵ
å¸¦ èĳĹ
å»ºçŃĳ éĿ¢ç§¯
192 5å¹´
æ¦ľ åįķ
ç¯ĩ å°ıè¯´
åĮĸåŃ¦ å¼ı
å¤±åİ» äºĨ
sp an
Window s
Q u
Î ²
æĺ¯ åį°åº¦
éĹ µ
ä¹Ł èĥ½
åŁİ éĻħ
åįİ ä¸ľ
æł· æľ¬
åłĤ åĮº
åħ¨åĽ½ éĩįçĤ¹æĸĩçī©ä¿ĿæĬ¤åįķä½į
ä»ĺ è´¹
æĲŃ æ¡£
ç»§æī¿ äºº
åŃ£åĲİ èµĽ
é¡ºæĹ¶éĴĪ ä¸İ
åĩ» éĢĢ
æĶ¿æ²» éĥ¨
åŃ¦æł¡ çļĦ
éª¨ éª
4 ç±³
å² ĳ
åĪ¶ å¤ĩ
çł į
èī² æĥħ
å¥¥ åı¤
æĶ¯ æĴĳ
æİ¨ çĲĨ
æĵ ¢
å¯¼èĩ´ äºĨ
äºİ200 2å¹´
åĴ Ĵ
ä»£ æķ°
éģĵ å¤«
åĲĦ çº§
äº¦ åı¯
å®« æ®¿
åıĳå¸ĥ çļĦ
190 9å¹´
è¶ħçº§ èģĶèµĽ
çĲĥ æ¯ĶèµĽ
ä½Ĩ æ²¡æľī
æŃ£ ç»Ł
èį «
åºĶ å½ĵ
çº³ çľģ
åĽ½å®¶ è¶³çĲĥéĺŁ
åı¯ä»¥ çĶ¨
çĳ ¶
çĶµå½± çļĦ
åĶĲ çº³
æŁĲ ä¸ª
æľīåħ³ çļĦ
æļĹ ç¤º
åĭĥèī® ç¬¬
åĽ½ å¤ĸ
èĢĮ åĲİ
ä¸ľ æĹ¥æľ¬
ç§ĳ çłĶ
éĺ¿ åĪĹ
çĽ´ å±ŀ
æĺ¯ä¸Ģ æ¬¾
17 2
éĺ² çº¿
æ´ĭ åŁº
ä¸ģ çĽ®
å¾Ĵ åĪĳ
äºİ18 7
ç¨³ å®ļçļĦ
æĪĺå½¹ ä¸Ń
Ġç®Ģ åİĨ
B 1900
e at
âĢĿ ;
è¯¥ ç«Ļ
åĪĹ æĸ¯
æĶ¿åºľ åľ¨
å¥¹ æĺ¯
æĹı çļĦ
å¼ķ å¯¼
éĵ¶ çº¬
192 2å¹´
æĸ°å¢ŀ æľ¬åľŁ
Ġè½¦ç«Ļ æŀĦéĢł
çŃ ĭ
é«ĺ éĵģ
è·¯ åĨĽ
åı¤ å±ĭ
ç¬¬ä¸Ģ æī¹
æĶ¾ å°Ħ
it yĠ
éģĹ ä½ĵ
åĩı å¼±
çĶŁçī© åŃ¦
ä¼ĬåĪ© è¯ºä¼Ĭ
éª¨éª ¼
J ohn
Ġ ç»ıåİĨ
çļĦ ä½¿çĶ¨
åħ¬ ç«ĭ
çī¹ å®ļçļĦ
çĶµ åİĭ
éŃ ħ
re s
éĢģ å¾Ģ
æĿ¥æºĲ äºİ
åĳ¨æģ© æĿ¥
0 åĿĲæłĩä¸º
Ġ g
ä¹ ŀ
å¥ ķ
åħ¶ B1900
è¿Ľ ç¨ĭ
æĭī å§Ĩ
å¢ ©
åŀ ĥ
å¥¥ å¾·
é² ·
æĹı èĩªæ²»åĮº
15 00
è¿ª æĸ¯
2019 åĨłçĬ¶çĹħæ¯Ĵ
ä½įäºİéĵ¶ ç»ı
0åĿĲæłĩä¸º èµ¤ç»ı
, "
C l
I R
ä¿ ŀ
é«ĺ åľ°
çĪ ¸
å¥¥ å¤ļ
14 6
ï¼ İ
å°ĳæķ° æ°ĳæĹı
èĤĮ èĤī
5 ä¸ĩ
ä¸Ģ åįĬ
æĹ¥ çļĦ
è¿ĩ åĲİ
é¢Ĩ éĺŁ
æĽ´ é«ĺ
ä¿¡ å¥ī
on e
å¯Ĩ è¥¿
ol d
ãĥ ³
æ²ī ç§¯
åįĹæŀģ æĿ¡çº¦
æĩ ¿
éĴ» çŁ³
T E
æĺ¯ å¤§
çĶ± åħ¶
çŁ ¢
éħ¸ çĽĲ
åĲ¦ åĨ³
éĢĥ äº¡
å¸ĥæĭī æł¼
å¤įæĿĤ çļĦ
éĢ¢ æĺŁæľŁ
å½ķéŁ³ å®¤
æĺİå°¼ èĭı
1 ç±³
åľ¨ è¿Ļä¸ª
ç»Ń éĽĨ
éĤ£ ä¸ª
æ³½ è¥¿
çİ°ä»£ åĮĸ
ä¸įä¹ħ åĲİ
c odice
Ġ å·´
ä¸Ĭ æł¡
æĻ ·
åįİ åįĹ
11 æľĪ1æĹ¥
åį³ æĺ¯
èī¾ ä¼¦
åĩ»è´¥ äºĨ
è´· æ¬¾
F ac
å½ ¬
åħ¬ ç½²
åı¯ çĶ¨
æīĢ è¾ĸ
è¯´ æĺ¯
æľ¨ åĦ¿
è´¢ å¯Į
Ġ199 9å¹´
ä¸ºä¸» é¢ĺ
191 1å¹´
æĢ»éĥ¨ ä½įäºİ
å¦Ī ç¥ĸ
i i
y st
çļĦ å¥³æĢ§
çļĦ ä½ľçĶ¨
åľ¨ å¾·åĽ½
ç« ĸ
ä¸ĸ ä»£
æľª ç»ı
æľª æĿ¥çļĦ
èĤ¡ æĿĥ
ãģ ®
çĶĺèĤĥ çľģ
Ġ ä¸Ńåįİäººæ°ĳåħ±åĴĮåĽ½
åľ ¾
å½ Ĺ
åħ¶ çĪ¶
ãĢį ()
æ¯Ķ 2
æĶ¹ ä»»
èİ± åĿŀ
çĥĪ å£«
ãĢīãĢģ ãĢĪ
åŀĥ åľ¾
B D
åĮĹ å®ĭ
ä¸ľ é£İ
æĽ¾ ä¸İ
èĪ° èīĩ
åĨ² ç»³
ç£ ħ
åºĻ å®ĩ
é¥Ń åºĹ
3 D
A G
B M
Ġ æĸĩåĮĸ
åįĹ ä¸ĭ
å¾· åħ°
å¼º è¿«
æŀģ éĻĲ
èľ ¥
ç©¿ èĳĹ
éĩįåºĨ å¸Ĥ
æĸ¯æ´Ľ ä¼Ĳåħĭ
å®° çĽ¸
å¡ŀæĭľ çĸĨ
1 åı·çº¿
R e
å¸Ĥ åĨħ
å¸ĥ åĪĹ
é©¬ è¾¾
åİ¿ çº§
ç»ĵ å±Ģ
è¿ĺ è¦ģ
æ´Ľ ä¼Ĭ
ä¾Ŀ æĹ§
ä¸¾è¡Į äºĨ
éħĴ ç²¾
192 1å¹´
å§Ĳ å§Ĳ
ä¹¡éķĩ çº§è¡ĮæĶ¿åįķä½į
åĲİ æīį
ä¹ĭ æĦı
åħ³ ä¸ľ
é¢Ĩ è¡Ķ
å¤ª å®Ĺ
æĿĥ çĽĬ
æ³¢ éŁ³
ç¬¬äºĮ è½®
è´¹ åŁİ
èĩªçĶ± åħļ
æ³ī å·ŀ
åı°ä¸Ń å¸Ĥ
å¤©çĦ¶ æ°Ķ
2 åĲį
ä¸Ģ çĶŁ
åĴĮ æĸ°
åı¯ åĪĨä¸º
çī© æµ¦
é©¬ å¾·éĩĮ
çļĦä¸Ģ ä½į
æ¶Ī éĻ¤
èİ« å°Ķ
æĺ¥ åŃ£
æ·· åĩĿ
è®¾ç«ĭ çļĦ
æ´ª æŃ¦
æĸ¹åĲĳ çļĦ
å¼ķèµ· äºĨ
å¤§ éĥ¨ä»½
ä¸ĵ åĮº
ä¸»æķĻ åº§åłĤ
æķı æĦŁ
å¿ĥçĲĨ åŃ¦
ç» °
èĢĮ å¾ĹåĲį
10 9
æł¼ æĸ¯
12 ä¸ª
è¾ĥ å°ı
åĽ´ æĶ»
çİĽä¸½ äºļ
t r
æľ Ķ
å¤§ äºİ
æ² ¦
ä¸į åıĬ
å°ı å¹³
å¤§åŃ¦ çĶŁ
in a
æ¯ı ä¸Ģä¸ª
æķħ éļľ
ç»ĦæĪĲ éĥ¨åĪĨ
èĮ¨ åŁº
çŀ Ħ
å±±èĦī çļĦä¸Ģéĥ¨åĪĨ
8 æľĪ1æĹ¥
9 æľĪ1æĹ¥
Ġ ç¤¾ä¼ļ
Ġ çĽ¸åħ³
åº µ
å¤§ è´¥
åĴĮ ä¸Ģä¸ª
æ° °
ä¸» ç¼ĸ
åĪĨ æķ£
éĿ¢ åīį
10 8
èµ· äºĨ
16 7
å°Ħ åħ¥
âĢĿ, âĢľ
è½¨éģĵ äº¤éĢļ
çº³ç²¹ å¾·åĽ½
æĸ°åĨłèĤºçĤİ ç¡®è¯ĬçĹħä¾ĭ
Ġ çĶµå½±
Ġ è¿Ļä¸ª
ç» £
çº ±
æ¼ ³
æį® çĤ¹
åıª åľ¨
æŃ¥ è¡Į
æ¿ ĳ
åĽ½æ°ĳ éĿ©åĳ½åĨĽ
æ© ĺ
è¿ŀç»Ń åī§
åŁĶ å¯¨
èĦĤ é²¤
D R
ä¸Ģ è§Ĵ
åŃ ¢
æľĢ å°ı
éĹ´ æİ¥
çĶµ æ¢¯
åĪĽ æĦı
åº§ ä½į
is s
æ²ī æ²¡
æłĸæģ¯ åľ°
ä¼łæķĻ å£«
çºº ç»ĩ
å¯ Ŀ
éĺ İ
æĹ¶ ä¼ļ
åı¯ çĶ±
åĪ© çī©æµ¦
çĶµ å®¹
ä¹Ł æĪĲä¸º
æĭī å°Ķ
çĥ ¦
17 3
14 8
éĽħ åĲĦ
åĵ² åŃ¦å®¶
æŁ¬ åŁĶå¯¨
åĪĨ å¼Ģ
åł ķ
é² ¨
è¶³ ä»¥
åŃ¦éĻ¢ çļĦ
ç´¢ å°¼
æļ´ éľ²
èī¯ å¥½çļĦ
äººç±» çļĦ
çİ¯å½¢ å±±
èįĥ æ¹¾
åįĹæŀģæĿ¡çº¦ ä½ĵç³»
4 åĲį
ä¸İ ä¸ŃåĽ½
ä¸į å¦Ĥ
éĩĳ æĽ²
ç©º è°ĥ
åĪĽ ä¸ĭ
è¿ŀ åĲĮ
åģľ çķĻ
éĩİ æĪĺ
åĲ¯ åıĳ
äºİ199 8å¹´
ç¿°æŀĹ éĻ¢
åİ ķ
ç¬¬ 9
ä½į åĪĹ
æľĢ å¥½çļĦ
èĬ ¯
åħ¨ åı°
ä¸¤ å¤§
åĮħæĭ¬ ä»¥ä¸ĭ
èĬ± è´¹
at t
éŁ³ä¹Ĳ ä¼ļ
è¿ģ å¾Ļ
ç´§ å¯Ĩ
N C
çļĦ è¡ĮåĬ¨
åľ¨ åįĹ
æĹ¶ è¢«
æµ ı
è¾¾ å°¼
èµ· é£ŀ
æĺİ çļĦ
æĹ¶éĹ´ åĨħ
ä½ľåĵģ çļĦ
æ··åĩĿ åľŁ
çļĦ èĢģ
çļĦ çİ¯å¢ĥ
å® ¦
ä¸į åľ¨
å¹¶ å¯¹
å¹¶ ç§°
äºĭ ä¸Ń
è·¯ å¾·
èĬ ½
æķ° çĽ®
åħļ ç±į
çļĦä¸Ģ å®¶
åľ£ æ®¿
åįł æĢ»äººåı£
èĮĥ çķ´
çľŁ çļĦ
åĲİæĿ¥ è¢«
äºİ200 1å¹´
192 3å¹´
é¢Ĺ å°ıè¡ĮæĺŁ
191 3å¹´
åĵĪå°Ķæ»¨ å¸Ĥ
Ġ å®ī
ä¸İ ç¾İåĽ½
ä¹ĭ è·¯
å¾· çĶ²
ç»´ èİ±
åĽŀ å¤į
ç©º éĻį
çº³ è¥¿
æļĹ æĿĢ
æ±Ĺ åĽ½
ä¸Ń åľº
åĽ½ åľŁ
æº ´
ä¸ĸçķĮ çļĦ
åĮĹäº¬ å¤§åŃ¦
ä¼ĺ æĥł
Ġ ç¬¬ä¸ī
é¢ ħ
ç¤º èĮĥ
èĻ ŀ
ç¬¬ä¸Ģ éĥ¨
at e
éªĮ è¯ģ
èĤ¡ ç¥¨
Ð ¾
Ġ èģĮä¸ļçĶŁæ¶¯
å® µ
ä¸º ä»ĸ
ä¸į éľĢè¦ģ
äºĮ æ°§åĮĸ
å¤© ç©º
è¿Ĳ éĢģ
æ¼Ķ ä¹ł
æĥħ å½¢
åĳĬ çŁ¥
è¯¸ å¦Ĥ
ä¸§ å¤±
å§ĶåĨħçĳŀ æĭī
2019åĨłçĬ¶çĹħæ¯Ĵ çĹħ
ä½ ¥
åŃ ľ
åī Į
æĸĩ çļĦ
äºĭ å®ľ
äºĮ çĶ²
å§ĭ äºİ
åıį åĩ»
æŃ¦ æľ¯
çĪ± æ²Ļ
ä½ł ä»¬
åįĹæŀģæĿ¡çº¦ä½ĵç³» ç®¡çĲĨ
Ġ 15
Ġ å¤ĸéĥ¨
âĢľ âĢĿ
ç«ĭ åĪ»
çīĩ ä¸Ń
ç¦ı åĨĪ
åįļ å°Ķ
195 0å¹´ä»£
æ°¸ ä¹Ĳ
ç»į åħ´
çĦ¦ çĤ¹
æłª å¼ı
çĪ±æ²Ļ å°¼äºļ
D C
E d
y l
çļĦ M
åĲį åı¤å±ĭ
ç¾ Į
æĽ´ åĲį
åĩ» èĲ½
åĩºçĶŁ åľ¨
æģĭ çĪ±
å¹¸ ç¦ı
æłªå¼ı ä¼ļç¤¾
r on
æµ ĳ
æĸ° çĶŁ
è° ľ
é©¬ åľº
åħ¨ æķ°
åı² æĸĻ
å°± å·²ç»ı
æĻ® å°Ķ
åħ¶ä¸Ń æľī
åĻ ª
åĵĪ èĲ¨
æĸ½ è¡Į
14 7
éĻį çº§
èĴĻ å¾·
ä¸īè§Ĵ å½¢
æ®ĭçĸ¾ äºº
U R
åī ĸ
éļ Ļ
èĤ Ĩ
ç¼ ł
éĶ ¯
en n
äºĭä»¶ çļĦ
ä¸ĺ éĻµ
æħķ å®¹
åĮºè®®ä¼ļ éĢīä¸¾
t on
äºº è®¤ä¸º
æĺ¯ å½ĵåľ°
åįģ åħ«å¹´
éĩį ä¼¤
æĢ» ç»ĵ
åŁİ éĹ¨
å·´ éĩĮ
åĽ½å®¶ çº§
ç»Ļ ä»ĸ
ç³»ç»Ł ä¸Ń
ä»ĭ åħ¥
èĨ ¨
åħĭéĩĮ æĸ¯èĴĤ
ä¼´ ä¾£
éĽĨä¸Ń åľ¨
å¸ĸ æľ¨åĦ¿
æ² §
çĶ± ç¾İåĽ½
åĲĮ æ²»
12 8
ç¡ Ŀ
è¿ĺ ä¼ļ
åħŃ ä¸ĸ
å®¢ ä¸²
æİĴ æĶ¾
å¹² çĩ¥
ä¸¹ å°¼å°Ķ
éĺµ çº¿
ç½ª åĲį
æ¿Ģ è¿Ľ
å¨ģå°Ķ å£«
åĩ ¹
ä¸Ĭ å±Ĥ
åİŁ åĿĢ
åŁİ åĨħ
æīĭ æ³ķ
ä¿Ŀ èĤ²
æ· ¹
éĢļè¿ĩ äºĨ
éĺµ åľ°
éĢĤ å½ĵ
ç£ģ åľº
èĲ¨åħĭ æ£®
Ġ ç½Ĺ
Ġ èĭ±åĽ½
Ġ æķĻèĤ²
æĸ¹ éĴĪ
å¦ ĵ
ä½Ĩ è¿Ļ
å¤į ä»ĩ
æ¥ ł
åįĥ äºº
åĳĬ ç¤º
æĪ´ ç»´æĸ¯
æĦıè¯Ĩ å½¢æĢģ
ç» Ĵ
åº Ĳ
ä¹ĭ ä¹±
æµ· åºķ
åħ¨ å¹´
ç¨ ļ
åıĪ æľī
ĠS ch
äºİ18 6
å¯¿ åĳ½
B O
çļĦ æ¯ĶèµĽä¸Ń
å·¥ éĥ¨
æĹł éĶ¡
éĴ ¥
åħĪ åıĳ
å®Į åĸĦ
en g
16 9
çĽĳ è§Ĩ
191 7å¹´
çĴ ĭ
ä¸Ĭ ç©º
ä¸į å¤ļ
åħ¨ å¢ĥ
er v
å¼º å¤§
17 4
åĨĻ çļĦ
å»ºç«ĭ çļĦ
èĨ Ģ
æĤł ä¹ħ
I M
i eĠ
Ġ è¿ĻäºĽ
ä¸Ģ æĹ¥
åĮĹ ç¾İæ´²
éĿ¢ 2
èµĽ åĨłåĨĽ
åħĥ é¦ĸ
å¿ĥ çļĦ
è®© äºº
åŁĥ å¾·
éĵ¶ æ²³
è¿½ åĩ»
çī©çĲĨ åŃ¦å®¶
åĵĪå°Ķ ç§ĳå¤«
Ġ æ°ĳåĽ½
åĽ½ ç±į
ä¸į åĪ©
è¥¿ æ¯Ķ
äºĮ åı·
å®ļ äºĨ
æĢ§ è¡Įä¸º
æĹł åħ³
æ· «
äºĶ ä¸ĸ
è§ģ è¯ģ
6æľĪ 30æĹ¥
è´Ń åħ¥
å§ĵ åĲį
Ġ194 5å¹´
çıį çıł
çºµ éĺŁ
çİ°æĹ¶çĶ± åįĹæŀģæĿ¡çº¦ä½ĵç³»ç®¡çĲĨ
? âĢĿ
D A
t or
ä¸Ģ åıª
äºİ é¦Ļæ¸¯
æĮ Ŀ
ç§ĳ è¿Ľå£«
çĽ¸ å¯¹äºİ
èģĮ äººåĳĺ
åĽ¾ æĽ¼
çŁ³ å¤´
éħį è§Ĵ
ro p
é¡¹çĽ® çļĦ
ri st
èģĺ è¯·
çļĦ éĩį
çļĦ ä¸¤ä¸ª
çļĦ è½¨éģĵ
æĻ °
éĿ¢ åĮħ
æĪĺ æĹ¶
å¦ Ĩ
æŃ» èĢħ
èĵ ī
åĢŁ æŃ¤
åİĦ å°Ķ
èı© èĲ¨
çļĦ äººåı£
å¼ §
ä¼ļ ä»¥
åĮĹ æŀģ
è¿ĩ äºĨ
ä½Ĩ ä¹Ł
é¦ĸ å¼ł
æŀĹ èĤ¯
åİĨ ç»ı
æĴŃ æĺł
å¥ĸ ç«ł
å®ĩ æĸĩ
èĦĬ æ¤İ
a dĠ
æµ ´
å¹¶ å¼Ģå§ĭ
ç© Ĺ
æ°´ éĿ¢
åŀ «
ç½ª è¡Į
èĢ³ æĽ¼
åĬŀåħ¬ åİħ
æ¸ħçľŁ å¯º
6 æľĪ1æĹ¥
8 0å¹´ä»£
Ġ åı¤
å¼Ģ è¾Ł
åĪĹ é¢ł
è¯´ çļĦ
æ¨ Ł
æŃ» åİ»
èĶ ½
ç¼© çŁŃ
çģ° èī²
ex t
ä¹ ĵ
ä¸Ģ åĳ¨
ä¸į åı¯èĥ½
æµģ éĢļ
çĵ¦ æĭī
è¾¹ å½¢
åį¢ æ£®åł¡
å®īå¾· çĥĪ
æº¶ æ¶²
1 å®¶
Ġ æ°´
çļĦ è¿ĩç¨ĭ
èģĶ éĺŁ
ç¤¾ åĽ¢
åį° åľ°
ro w
åįĹéĥ¨ çļĦ
æĳ© æł¹
æłĳ æľ¨
é«ĺçŃī æķĻèĤ²
æ©¡ èĥ¶
ä¸Ģ æīĢ
ä¸Ģ ç¾¤
ä¸İ æĹ¥æľ¬
è¥¿ å¾·
å» ¿
æľ¬ åī§
ç½Ĺ éĹ¨
ç§ĳ åĮ»çĶŁ
çº¦ 3
å°ĳ éĩı
çĳ °
è¡ĮæĶ¿ åĮºåŁŁ
åĲİæĿ¥ åľ¨
å¤ªéĺ³ åħ¬
çĹĽ èĭ¦
æ¶Īè´¹ èĢħ
âĪ Ĵ
5 Ġ
c k
çļĦ å®ĺæĸ¹
å¹´ åºķ
åľ° åĬ¿
ä¸» åĶ±
ä¹Ł å°Ĩ
è¯¥ ä¹¦
å¤© æ¡¥
è¿ĺ åİŁ
å¤į åĪ¶
æİ¨ è¿Ł
è´¨ çļĦ
å© ·
æľĢåĲİ ä¸Ģä¸ª
å¹¼ åĦ¿
è£Ķ ç¾İåĽ½äºº
é¢ĨåŁŁ çļĦ
éģµ å¾ª
ç»¼èīº èĬĤçĽ®
9 ä¸ª
F or
W h
ä¸Ģ éĹ´
æľ¬ éĥ¨
å®ĺ èģĮ
æĬ¥ å¤į
è¯Ĩ åŃĹ
åĮĹéĥ¨ çļĦ
æ¯Ĵ åĵģ
å®½ åº¦
åıĳè¡¨ çļĦ
id e
çģ¾ å®³
éļĲ èĹı
eb ook
ä¸º ç¾İåĽ½
å¤§ å¤§
åĲį åĪĹ
è¥¿ è·¯
åıĪ è¢«
7 ç±³
A m
ä¸Ń ä¸ľ
ä¸Ń æīĢ
ä¸Ĭ åľº
ä¸İ ä»ĸ
åĮº è´Łè´£ç®¡è¾ĸ
åħ¬ åĽ½
æĸ° åŀĭ
åĪ© å®ī
é«ĺ ä¸½
è¿ĳ ä¼¼
AT P
æ²³éģĵ åħ¨éķ¿
I F
çļĦ æĹł
å¹¶ å°Ĩåħ¶
äº¤ å¾Ģ
å°± èĥ½
æĪĲä¸º ä¸Ģä¸ª
åķ ¤
æģ© æĸ¯
éĵģè·¯ åħ¬åı¸
Ġ199 8å¹´
è®½ åĪº
1 18
9 0å¹´ä»£
Ġ ä½Ĩ
æľī ä¸ī
æĭ ¾
åĲİ ä¸įä¹ħ
æĹ¶ å°ļ
åĪĨ æŃ§
çľģ è´Łè´£ç®¡è¾ĸ
åİĨ ä»£
åħµ éĥ¨
ç¬¬äºĮ åŃ£
åł¡ åŀĴ
åºŁ å¼ĥ
å½¢å¼ı çļĦ
æĺ¯ä¸ĭè¾ĸçļĦä¸Ģä¸ª ä¹¡éķĩçº§è¡ĮæĶ¿åįķä½į
è¿Ħ ä»Ĭ
å¤§ åĨĽ
è¥¿ èĴĻ
æĪĺ èĪ°
ä¸ĸçºª æľ«
æľĢç»Ī ä»¥
çīĽ æĸ¯
ä¸ľéĥ¨ æĹ¶åĮº
çļĦ çĥŃ
ä¸Ģ è¾Ĩ
ä¸Ĭ èİ·å¾Ĺ
è¢« åĪĹåħ¥
èī ³
æĸĩ éĿ©
æĶ¹ çĶ¨
çª Ł
çĳŀ åħĭ
åİħ éķ¿
æ¨ª æ»¨
æĩ Ĥ
åĬ¨è½¦ ç»Ħ
æľī æĦı
æľī ä¸ĢäºĽ
åĲĮ ä¸º
å¼Ģ è¡Į
æ¡ ¨
åĪĻ è®¤ä¸º
ä¹¦ åºĹ
éĻĲ å®ļ
æĺł å°Ħ
åĪĽåĬŀ äºº
Ġ åĪĺ
Ġ åħ³äºİ
ä¸İ åīį
åħ¬ æĬķ
å¼Ģ æĻ®
èĩ³ 3
èµĽ é©¬
æĶ¶ å¤į
éĻĨ æĪĺéĺŁ
at eĠ
æĤ Ķ
éĻį èĲ½
196 0å¹´ä»£
å·´å£« è·¯çº¿
çĨŁ æĤī
éĦĤ åĽ¾æĽ¼
çĶŁ åīį
å½ĵ åīį
åıĪ è¯ĳ
åĺ Ľ
æ¨ª è·¨
è¿Ī åħĭå°Ķ
å±Ĭåħ¨åĽ½ æĶ¿åįıå§Ķåĳĺ
æĭĺ çķĻ
c on
o th
Ġ æ¯ĶèµĽ
Ġ aĠ
å¯ ħ
çİ «
åĲİ ä»£
çĶ¨ åľ°
è¥¿ ä¼¯åĪ©äºļ
è¢« åĪ¤
å¾Ĺ åĩº
åİŁ æľīçļĦ
åį¡ æĸ¯èĴĤ
ç² ĺ
ç¼ĸ æĽ²
æĪ¿ åŃĲ
çĲĨäºĭ éķ¿
éģµ å®Ī
ED T
IST AT
5 000
çļĦ åįķ
ä¼ļ å°Ĩ
ä¸ª åĪ«
å±± åĿ¡
ç¤¾ éķ¿
ar e
èĲ½ å®ŀ
çī¹åĪ« è¡ĮæĶ¿åĮº
ud e
Ġt oĠ
çĿ¡ çľł
çļĦ å®ļä¹ī
çļĦ æĦıæĢĿ
å¹ ¢
ä¸º 4
æĹ¶ ç©º
æ°ĳ çĶ¨
å¸ĥ æĸ¯
æıĲ åĢ¡
åĽŀ æĿ¥
ä¸ĩ åĲį
æłĩ ç¤º
åī§ ç»Ħ
åĽ¾ å°Ķ
æ¸ħ åĨĽ
ä¼ģ åĪĴ
äºİ199 9å¹´
å»ºéĢł çļĦ
ä»ĵ åºĵ
åį¢çĵ¦ å°Ķ
æĺ¯ä¸Ģé¢Ĺ åĽ´ç»ķ
i el
à ¤
çļĦ éĢŁåº¦
ä¸º ä½ķ
ä¸Ĭ åįĬ
æĬ ¬
æĽ Ŀ
çŃ Ľ
ç¬¬ 12
å°Ĩ äºİ
10 4
åĢ ª
æĺŁ éĻħ
ä»¥åıĬ åľ¨
åĽ¾ çīĩ
çľĭ èµ·æĿ¥
å®Ī å¤ĩ
as h
Ġè¿Ļ é¢Ĺå°ıè¡ĮæĺŁ
åĪ¶çīĩ äºº
ä¹Ĵ ä¹ĵ
Ġ ä¸ĢäºĽ
çļĦ ç¾İ
ä¸Ń æ¯Ĵ
ä¸İ ä¹ĭ
çľģ ä¼ļ
éĢļ æĬ¥
æł¼ èİ±
å±ŀ æĢ§
è§Ĵ éĢĲ
çº¢ åįģåŃĹ
è¡Ĺ åĮº
æĻĭ åįĩä¸º
5 è°ĥå¿«ä¸Ģå°ıæĹ¶
çļĦ ä¿¡
ä¸Ń èİ·å¾Ĺ
äºº äºĭ
æķ° å¹´
æķ° çłģ
ç§ĳ ç½Ĺ
ç«Ļ åľ¨
åħĥ æľĹ
æĻ® éĩĮ
éª Ĥ
æļ ĳ
åį« åĨķ
çĻ» å½ķ
é©» å®Ī
Ġ199 7å¹´
æĹĭ å¾ĭ
äºİ18 5
è¡£ æľį
æĢ»çĿ£ åºľ
åį³åĮĹç¾İ ä¸ľéĥ¨æĹ¶åĮº
å¤ªéĺ³åħ¬ è½¬çļĦå°ıè¡ĮæĺŁ
æĺ¯ä¸Ģé¢ĹåĽ´ç»ķ å¤ªéĺ³åħ¬è½¬çļĦå°ıè¡ĮæĺŁ
Ġ åĽłä¸º
ä¸Ń éĺŁ
åĴĮ éĺ¿
åıĬ æĹ¶
è° ı
é©¬ åĪ©
åįļ è§Ī
æīĺ å°Ķ
å·® åĪ«
æ¯ĶåĪ© çīĽæĸ¯
éĹ½ åįĹ
çļĦ å®¶
æĿ ı
æķ ·
ä¸į ä¸Ģ
çĶŁ æĹ¥
åıĬ åĪ©äºļ
è¦ģ å¡ŀ
èº« é«ĺ
åħ¶ä¸Ń çļĦ
ä¸»è¦ģ çĶ±
èŃ¦ åĬ¡
èĢģ æĮĿ
åģļ äºĨ
æ°¸ åº·
çŁŃ æľŁ
æ¯ģ çģŃ
G e
Ġ å¦Ĥæŀľ
å®ŀ ä¸ļ
æ¶Ī èĢĹ
éĵģè·¯ å±Ģ
eg in
Ġè¿Ļé¢Ĺå°ıè¡ĮæĺŁ çļĦç»Ŀå¯¹
ç¬¬ 13
æĻ ¤
éĥ½ èĥ½
åĲī äºļ
é¡¶ çĤ¹
æ¸Ķ ä¸ļ
æĸ¯å¤§ æŀĹ
Ġ Ð
ä¸º ä¸Ńå¿ĥ
åĽ½ ä¸Ń
ä¹ĭ åĨħ
æĸĩ å¸Ŀ
æµ· æ¹¾
ä¸ŃåĽ½ ç§ĳåŃ¦éĻ¢
åĪ« å¢ħ
æ¸ħ æĻ°
çľŁ çĽ¸
æ³¨ å°Ħ
æ¶² ä½ĵ
çĥ§ æ¯ģ
éĽķ åĪ»
è´µå·ŀ çľģ
E E
çļĦ åħī
ä¸Ģ å¯¹
å¤§ éĹ¨
äºļ ç§į
æŃ¤ å¤©ä½ĵ
å·´ çī¹
çĥ ¹
åıĺ å½¢
èĪ° åıª
é³ ĥ
å¥ī åĳ½
ç» İ
åľ¨ éĺ¿
æĺ¯ è¯¥
ä»¥ æĿ¥çļĦ
äºĨ ä¸¤
åĬ¨ æľº
èĪ ħ
æİ¥ ä¸ĭæĿ¥çļĦ
çİĭ çļĦ
å¤« åĭĴ
åıį å¤į
å¯Ĩ çłģ
åĵĪ èĲ¨åħĭ
æĬ¤ åį«
ç¢ ĺ
åĲ« ä¹ī
ç¿» æĸ°
N ew
çļĦ ä¸Ńå¿ĥ
æľī åĬ©äºİ
ä¸į åĪĹé¢ł
ä¸ľ æ±ī
å¸ĥ ç½Ĺ
è¿Ĳ è½½
éĺ¿ å¯Ĩ
æľª è¢«
åķĨ æłĩ
ç½ĳ é¡µ
äº¦ åľ¨
å¤± ä¸ļ
ä¸įåĲĮ äºİ
å»¶ è¿Ł
æĵ Ĵ
éĺ¶ å±Ĥ
å£ģ çĶ»
ä¸°å¯Į çļĦ
çļĦ åŁºæľ¬
ä¸º ä¸Ń
è¡Į çľģ
åĪ© çī¹
ä¸ī å±Ĥ
åįİ ä¾¨
åıĤ æĶ¿
å¸¸ è¢«
æ® ī
è¾ĥ å¤ļ
éĺ³ åħī
ç§» äº¤
è®°èĢħ ä¼ļ
T O
çļĦ æķ°éĩı
ä¸Ģ å¼ł
ä¸Ģ å±Ĥ
åĽ½ åħ¬
ä¸ĭ æ°´
ä¸ī éĥ¨
çĽ¸ æľº
èģĮ èĥ½
æĶ¾ æĺł
13 8
å© ī
ä¸§ çĶŁ
æ¹¿ åľ°
å¸Ĩ èĪ¹
C om
D P
Ġ çİ°
çļĦ æĬĢæľ¯
ä¸Ģ è¾¹
åĨ ¶
æĮ «
æŃ¤ ä¸Ģ
è¿ĩ ä¸ĸ
åħ¥ çĭ±
10 6
ä¸ĩ å¹³æĸ¹ç±³
æŃ£å¼ı æĪĲç«ĭ
åĲĮå¹´ 12æľĪ
ç¼º éĻ·
è®¾ç«ĭ äºĨ
å¢ĵ èĳ¬
å¤ĸäº¤ å®ĺ
åĪļ æŀľ
è¿Ŀ æ³ķ
å·© åĽº
Ġ åĽł
Ľ èµ·
çļĦ ä¸įåĲĮ
åĮ £
æĹ¶ è¡¨ç¤º
æ°ĳ åħµ
æīĢ éķ¿
ç¼ ª
æ°´ åĩĨ
åĢ Ń
12 9
åıĺ éĩı
çľŁ èıĮ
æī© æķ£
Ġ199 4å¹´
è¯ºæĽ¼ åºķ
çĽ¸è¾ĥ äºİ
æ¾İ æ¹ĸ
a e
çļĦ å¤´
è¡ ·
åĴĮ çļĦ
åĴĮ å°ı
åĲİ è£Ķ
åĵ ĩ
å£ ¶
å·ŀ äºº
åħļ åĨħ
åĪĽ ä¸ļ
æ¸ħ å»·
åĲĮå¹´ 10æľĪ
èµ° å»Ĭ
æľ« ç«¯
è¯¸ èĳĽ
äºİ199 7å¹´
åĴ¸ ä¸°
N G
O n
åĩº å±Ģ
è¿Ļ æĿ¡
åĮĹ æ´ĭ
æĸĩ ä¸Ń
åĪĻ ä¼ļ
éĺ³ æĢ§
éĩĩ çº³
æģ¶ åĬ£
æĤ£ æľī
æĹħå®¢ éĵģéģĵ
2 åı·çº¿
è ł
Ġ æŀĹ
Ġ å½±åĵį
ä¸Ģ çŃī
è¡Į ä½¿
è¿Ļ ä½¿å¾Ĺ
åīį èº«ä¸º
è¯¥ èĪ°
è·¯ ç«Ļ
åŁº å°Ķ
çİĭ åĲİ
00 å¹³æĸ¹åįĥç±³
æĽ´ å¤§
çĹħ äºº
çĻ» è¿Ľå£«
å°Ķæĸ¯ åħĭ
èŀį åħ¥
èĢĥèĻĳ åĪ°
ä¸ĵæ³¨ äºİ
3 æľĪ1æĹ¥
åħ ĳ
åĲİ ä¸ĸ
ç½ ¹
ä»£ åı·
åĵĪ ä½Ľ
13 9
è¿ľ ç¦»
ç¥ĸ ç±į
ä¸¹ å°¼
èĤ¯ å¡ĶåŁº
èĤī é£ŁæĢ§
æ±¤ å§Ĩ
éĥĬ åĮº
9 æĹ¶
ç« Ń
å¾· åĭĴ
å¥³ äºº
å®ŀ ä¹ł
èĭı åĨĽ
çĶ· æ¼Ķåĳĺ
å¥½ èİ±åĿŀ
éĤ£ å·ŀ
æ·± åıĹ
çŃ¾ ä¸ĭ
çĥŃå¸¦ ä½İæ°Ķåİĭ
191 6å¹´
ä¿®æŃ£ æ¡Ī
éĺ¿åŁº åĿ¦
V i
Ġ è®¾è®¡
çļ ĸ
åĮº è®®åĳĺ
åĨĽ éķ¿
ä¹Ł ç§°ä¸º
å¸ĥ ç½®
é¦ĸ å±Ĭ
12 6
è¾ĥ é«ĺçļĦ
çļĩ å®¤
è®¡åĪĴ çļĦ
åľ¨æŃ¤ æľŁéĹ´
é£İæł¼ çļĦ
å²Ń åįĹ
éĤĵ å°ıå¹³
åºķå±Ĥ æ°´åŁŁ
Ġ Z
ä¸Ģ åįĥ
ä¸Ń ç«ĭ
é« ĵ
çī© ä¸ļ
è½¦ ä½ĵ
æµģ æĶ¾
èµĦ æ·±
å±ħ äºİ
ç¢ Ĺ
ä»į æĺ¯
æĿĢ æīĭ
ä¸Ńå¤® å§Ķåĳĺä¼ļ
åģ¶ å°Ķ
å¡Ķå°¼ å¤§åĮº
å¸ĥæĶ¿ ä½¿
8 æĹ¶
C ST
a il
ä¸Ģ èīĺ
20 20
éķ °
æĸ° æĿĳ
åĨħ æĸ¯
èĢħ åĴĮ
çł Į
å°¼ åŁº
éĩĳ é¢Ŀ
å·² æĪĲä¸º
ä¼Ĭ ä¸½
ä¹Į å°Ķ
ä¿ĿæĬ¤ åĮº
åĩºçīĪ äºĨ
ĠA r
å·¨ äºº
å¼ķåıĳ äºĨ
Ġ æĪĺåĲİ
çļĦ æ³ķå¾ĭ
åľ¨ æł¡
åīį å¤ķ
è¿Ľ é©»
æĪĺ åĮº
çĽ¸ è¿ĳ
èĭ± å±ŀ
åºĶ çĶ¨äºİ
ä¼ł æī¿
æĶ¯ éĥ¨
ç¥ŀ åºĻ
æ¦ Ĩ
ç§» éĻ¤
åį°åº¦ æ´ĭ
ç¤¼ æĭľ
èĶ ĵ
åħĦ éķ¿
èħ¹ éĥ¨
åīĬ å¼±
æĭ¨ æ¬¾
æł¸éħ¸ æ£Ģæµĭ
B 48
åľ¨ 2008å¹´
è¥¿ æĹ¥æľ¬
æľĢ åħ·
çĦ ķ
è¯Ń æ³ķ
å¤Ħ ç½ļ
æľįåĬ¡ çļĦ
éģĩ éļ¾
æįŁ åĿı
Ġ199 1å¹´
æ²¼ æ³½
e an
Ġ k
çļĦ æ¯įäº²
å· ¾
å¯ Ĥ
æĸ° åįİ
æľĢ æĸ°
ç¥ ĩ
å¥³ æŃĮæīĭ
éĽĨåĽ¢ æľīéĻĲåħ¬åı¸
çŁ¿ çī©
æĲ¬ åĪ°
C ar
çļĦ æł¸å¿ĥ
åħ¶ é¡¿
è¥¿ åĮº
èĩ³ 1
éĤ ¢
å·´ å¡ŀ
å¸¸ çĶ¨
è£ ¤
åŃĹ ç¬¦
èĪª æµ·
äºĨä¸Ģ ç§į
å¹ķ åĲİ
ç¡¬ æ£ĺ
è¿Ī éĺ¿å¯Ĩ
å·¡åĽŀ æ¼ĶåĶ±ä¼ļ
è´© åįĸ
M et
s c
y le
å¼Ģ åĪĽ
è¿Ľ åĮĸ
æľŁ å¾ĴåĪĳ
æĦ ļ
æ¢ ĵ
åĩ» æ²ī
ä¼Ĺ è®®åĳĺ
åŁĥ å¡ŀ
æ¥¼ æ¢¯
æī§ æķĻ
å»¶ å®ī
çº½ è¥¿åħ°
æĿ¿ åĿĹ
çĤ® åħµ
ä¸īåįģ å¹´
ä¸Ńéĥ¨ æĹ¶åĮº
E M
äº ı
æİ¥ åĬĽ
åĲĦ çķĮ
å¸ķ æĭī
æłĳ æŀĹ
èµĦæł¼ èµĽ
æ¸¸åĩ» éĺŁ
6 è°ĥå¿«ä¸Ģå°ıæĹ¶
çļĦ è§ĤçĤ¹
åĮ ¾
éĩĮ å¥ĩ
åĲĪ èĤ¥
ä¸ĩ å¼ł
ç¡ Ĵ
æĬ¤ å£«
åıįå¯¹ æ´¾
çļĩå®¶ æµ·åĨĽ
ä¾¦ æİ¢
CD T
æ²¿æµ· çľģä»½
åį³åĮĹç¾İ ä¸Ńéĥ¨æĹ¶åĮº
A A
Ġ åħ¶åĲİ
è¿ Ń
å¯¹ è¯¥
å°Ĩ è¯¥
ä½ĵ åĨħ
éŁ ¶
æİ¥ å¾ħ
åı¸ éķ¿
çĽ´ éĢļ
çĥ ¤
åĲĦ çľģ
å¸¦ åĪ°
é¦Ļæ¸¯ çĶµå½±
çłĶç©¶ äººåĳĺ
æ³° å°Ķ
å´ Ľèµ·
ç¤¼ éĥ¨
èī¾ å°Ķ
ç³»åĪĹ èµĽ
è¯Ńè¨Ģ çļĦ
å« Ķ
åľ¨ 2010å¹´
å¤ļ ä½į
æľĢ èĳĹåĲįçļĦ
æĿ¡ çº¹
å¿« ä¹Ĳ
æ¯ķä¸ļ çĶŁ
ä¿Ŀå®Ī åħļ
ä¼ĬåĪ©è¯ºä¼Ĭ å·ŀ
r in
åĴĮ è§£
åĮĹ åį¡ç½Ĺ
è¿ĩ å¾Ģ
ä¼ł è®°
èĮ ¹
ä»ĸçļĦ çĪ¶äº²
èįī åľ°
åŃĻ åŃĲ
èĸ ¯
ri g
å¯Ħ çĶŁ
åı ¹
ä¸º åĲį
å» ĵ
å¤ļ å®¶
åĮĹ ä¼Ĳ
æķĻ å¯¼
å¤ĸ ç±į
å°ı éķĩ
å·´ æĭ¿
ç¬¬ä¸Ģ è½®
æľį é¥°
ç»Ļ äºĭä¸Ń
æī¹ å¤į
æ»¡ æĦı
è¿ģ åħ¥
åĪĬ çī©
ä¸Ńåįİæ°ĳåĽ½ æĶ¿åºľ
èĳ¡èĲĦçīĻ è¯Ń
çĸ¯ çĭĤ
éĺ¿å°Ķå·´ å°¼äºļ
Ġ çī¹å¾ģ
ä¸º ä¸Ģä¸ª
å½ Ŀ
ä½į å±ħ
è¿Ļ ä¹Ł
æĸ° åĮº
ç¼ ī
ç®¡ éģĵ
å¤« çī¹
æ¨¡ ç³Ĭ
åĨĻ æĪĲ
éĢłæĪĲ äºĨ
! âĢĿ
M L
æĸ¯ å¨ģ
åīį ä»»
è¾¾ åĪ°äºĨ
æŃ£ å¾·
åħļ æ´¾
11 5
è§ģ éĿ¢
åįĩ éĻį
ç¤¾ä¼ļ çļĦ
å®ģ åİ¿
çļ® å°Ķ
éĨ Ľ
åī© ä¸ĭ
æĭ³ åĩ»
ç½¢ åħį
S P
å¼ ¼
æĹ¥ èĢ³æĽ¼
å¼Ģ éĻ¤
åı° çļĦ
åĲĪ éĢĤ
åįİ çº³
æĹł æķĪ
11 7
eĠ P
é£İ éĢŁ
åįł æ¯Ķ
ä¹ĭä¸Ģ çļĦ
åħ³ç³» çļĦ
çıł æµ·
å¢ĥå¤ĸ è¾ĵåħ¥
çŀĦ åĩĨ
3 50
a ur
p s
åĨ ¥
åĴĮ ä¸ŃåĽ½
ç«Ļ åĨħ
å°¼ çļĦ
ç»´ æĭī
æĽ´ æľī
ä½ľåĵģ ä¸Ń
å®ģ å¤ı
å·¡ èĪª
åģĩ æĹ¥
åĮºçļĦ è´Łè´£ç®¡è¾ĸ
è¿« å®³
åıĤèµĽ èĢħ
çĲ³ å¨ľ
æĸĳ çĤ¹
æŁ´æ²¹ æľºè½¦
çĶµæ°Ķ åĮĸ
ç»ĳ æŀ¶
o la
åĴĮ é«ĺ
éĽ ģ
äºĮ çĻ¾
çĽ¸ ä¼ł
ç»Ħ çļĦ
æ£ ł
å¹¿ å²Ľ
åĨ³ å¿ĥ
åħī æĺİ
æīĵ åħ¥
åĲī æĸ¯
å¼Ĺ åĲī
åĩı è½»
æĪĺæĸĹ ä¸Ń
çĲĨå·¥ å¤§åŃ¦
: ãĢĬ
p ro
æĹ¶ éĢŁ
äºĨ åħ¶
åı¯ å®¹çº³
è¡¨ å½°
æİ¥ é©³
æ¸¯ åĮº
å®ŀ è´¨
ä¿Ŀ åģ¥
èĬĤ æĹ¥
æ³° åĽł
13 7
100 ç±³
ä¾µ èļĢ
éī´ äºİ
Ġ åİŁ
Ġ åıĳå±ķ
Ġ é¥°
åľ¨ ä»Ĭ
åľ¨ ä¼¦æķ¦
æĺ¯ å°Ĩ
åĩº èµĦ
åħ¬ æŃ£
æ¸ ´
æ¬¡ çļĦ
ä¸Ģä¸ª äºº
10 1
æĻ® æ£®
è¿ĺ åı¯ä»¥
è§£ ä½ĵ
ä¾ĭ å¤ĸ
è± ļ
è¾ĥ å°ıçļĦ
çĽŁ åıĭ
ä¸ĥ ä¸ª
å¹² äºĭ
2010å¹´ ç¾İåĽ½äººåı£æĻ®æŁ¥
æ®¿ è¯ķ
åĽ½ç«ĭ åı°æ¹¾
çľģéģĵ åı°
å¯ĨèĭıéĩĮ å·ŀ
Ġ ä¸Ĭ
ä¸Ģ è¯´
æĺ¯ éŁ©åĽ½
æľĪ åĪĬ
ä¹ĭ åĪĿ
åħĭ ä¼¦
éĩĳ æĸ¯
éĶ £
æ²³ åĨħ
æĺŁ äºĳ
ä¸ĩ åĲ¨
æ» ĩ
ç»Ļ åĩº
éĺ² æĬ¤
åıĮ åĲĳ
Ġ199 5å¹´
æĥ© ç½ļ
å½Ĺ æĺŁ
åį¡æĸ¯èĴĤ åĪ©äºļ
5 æľĪ1æĹ¥
e in
çļĦ å¿ĥ
æĺ¯ ä»ĸ
éķ¿ èĢģ
åħ¥ åŃ¦
å¥¥ æīĺ
åĽ½å®¶ åĴĮ
è®º è¿°
æ´¾ ç³»
éĿĴ éĵľ
re f
è®² è¯Ŀ
çºªå¿µ é¦Ĩ
åĲĽå£«åĿ¦ ä¸ģåł¡
åĽ½ å°ı
åĴĮ è¥¿
æķ ķ
ä¼ļ è®¡
è¡Į ç¨ĭ
åĩº åħµ
èĥ ļ
äºļ çĥŃå¸¦
èĪ ¶
åľº ä¸Ĭ
å°ı é¡¹
åħ° å¾·
çİĭ å®ī
å±Ģ éĿ¢
ç¥ŀ åŃ¦
å¼ķ åĬĽ
æĬķ å½±
èĢģ æĿ¿
åºĦ åĽŃ
ro und
ä¼ĳ éĹ²
å¾·éĩĮ å¸Į
Ġè¿Ļé¢Ĺå°ıè¡ĮæĺŁçļĦç»Ŀå¯¹ æĺŁçŃīä¸º
åľ¨ ä¸ľ
19 10å¹´
æİ¥ ä¸ĭæĿ¥
eĠ d
çĬ ģ
æ¸ħ çĲĨ
ar i
é¥ ¿
éĢĤ çĶ¨
iv ers
æĶ¹ç¼ĸ ä¸º
M C
a j
å¤§ ä¸ľéĥ¨
æľī å¾Īå¤ļ
èµ İ
åıĳ éĢģ
è·¯ ä¸Ĭ
å½¢ åĬ¿
åĪ« åĲį
åİĨåı² å»ºçŃĳ
çİ¯ èĬĤ
åı³ ä¾§
ç»Ŀ å¤§å¤ļæķ°
èľ ¡
æįŁ ä¼¤
æĻ®ç½Ĺ æĹº
Ġ th
çļĦ ä¸ĭ
ä¸į è®º
ä¸į æĦ¿
è¢« è¯Ħä¸º
åĲĮ äºĭ
æīĢ çŁ¥
åı£ å²¸
æĢ» ç®¡
æµģ ç¨ĭ
åī§ åĽ¢
æķħ æŃ¤
æĺ¾ å¾Ĺ
èĥĮ éĿ¢
è¿½ éļı
çİ© æ³ķ
æĤ¬ æĮĤ
åĸĩ åĺĽ
çİ« çĳ°
Ġ for
èµ ļ
éĥ¨ ä½į
éĥ¨ åī¯éĥ¨éķ¿
ãĢĬ ãĢĭ.
åı¯ ä¾Ľ
æĢ» æķĻåĮº
ç¥ŀ çļĦ
çļĦä¸Ģ åĲį
åĪĿ å§ĭ
æĢĿ èĢĥ
åºŁ æŃ¢
åĮĹèµ· é¡ºæĹ¶éĴĪä¸İ
) ãĢį
T S
Ġ è¯¥åľ°
è¿Ľ ä¿®
éģĵ æķĻ
å®ĺ åħµ
é¾Ļ ç±»
é¦Ļæ¸¯ æĶ¿åºľ
éĥ¨åĪĨ çļĦ
å®£ èªĵ
é¡¶ éĥ¨
è½¨ çĶµè½¦
ä¹Ķæ²» äºļ
çĻĮ çĹĩ
O V
ä¸Ģ çĤ¹
äºİ ç¾İåĽ½
åĲİ åĭ¤
ä¹ĭ ç§°
è¥¿ åħĥ
åĲĮ çŁ¥
200 ç±³
ä½Ĩ è¢«
åĽŀ æĶ¶
11 3
å¸¦ çĿĢ
sĠ of
å·¦ ä¾§
æİ§åĪ¶ çļĦ
åı¦ä¸Ģ ä½į
å®ª åħµ
Ġ199 6å¹´
æĢĢ åŃķ
çģĮ æľ¨
æ±ŁæĪ· æĹ¶ä»£
Ä ģ
çļĦ åĪ¶ä½ľ
åĮ Ģ
ç«Ļ ä½įäºİ
ç¨ ½
æĶ¿åºľ åĨĽ
åĨį åĬłä¸Ĭ
è¶³ æĢ»
æİĴ åºı
ç´¢ å§Ĩ
è¿Ľåħ¥ äºĨ
åıĤä¸İ èĢħ
æ³½ è¿ŀ
äº« åıĹ
åĢ¾ æĸľ
ç¢İ çīĩ
èĤĸ åĥı
åºĩ æĬ¤
åĳĬç¤º çīĮ
æ°ĳ èĪª
éĵ Ģ
æĢ» éķ¿
éĩĳ åĥı
æ· ĭ
å½ĵåľ° å±ħæ°ĳ
3æľĪ 31æĹ¥
è¿½ è¸ª
ç½Ĺé©¬ å¤©ä¸»æķĻ
191 5å¹´
åŀĴ æīĵ
çļĦäºĭ æĥħ
Ġ åĪ°
ä» Ĺ
åĪĨ åī²
ä¹ĭ çĪ¶
çĶ¨ äºĨ
çĶµ æľº
é©¬ åĮ¹
é©¬ åħ¶é¡¿
è£ Ļ
ä¼ł åħ¥
11 4
èĬĤ çĤ¹
åŃ£ åĨĽ
è§Ĥ æĶ¿
çĻ¾ è´§
éĢļå¸¸ ä¼ļ
æ¿Ģ ç´ł
æ¨¡å¼ı äº§åľ°
çŀ ¬
éĻ¨ åĿĳ
åī¥ å¤º
çļĦ åĬŁèĥ½
ä¸Ģ å¤Ħ
è¯ ł
ä»ĸ äºİ
ä»ĸ åıĪ
ç¾ Ł
åįĹ è·¯
äºĮ çŃī
ç«Ļ æĺ¯
åı· åĴĮ
åĮħ è£ħ
èİ· é¢ģ
æ¬§ éĺ³
ç¥¨ ä»·
è®¡åĪĴ åľ¨
åĲ« éĩı
24 0
Ġæľ¬ å±ŀ
åŁºç¡Ģ è®¾æĸ½
c c
Ġ åħīç»ª
åĲ ¡
åľ¨ é«ĺ
ä¸Ń ä¹Ł
äºº éĥ½
éĥ¨ ä»¶
éķ¿ å¾ģ
æı ½
åĪ¶ æľį
åħļ éĥ¨
ç¦» å¿ĥ
åħĪ éĶĭ
è¾¹ çĸĨ
åįĬ çĲĥ
çĶŁæ´» çļĦ
è§Ĵèī² çļĦ
çº¦ç¿° éĢĬ
æ³ķåħ°è¥¿ å¤§åĮº
å´© æºĥ
âĶĢ âĶĢ
Ġ ä½įäºİ
ä¸Ģ ä¹¦
ä¸Ń æĹ¥
ä¸Ĭ æ³ķåħ°è¥¿å¤§åĮº
è¥¿ å°Ķ
å¼Ģ å°ģ
çĶµ ç£ģ
å°ı äºİ
åİ¿ éģĵ
åİŁ æĸĻ
å¤ª ç¥ĸ
æĹ¥æľ¬ æĶ¿åºľ
æĢĢ çī¹
é¢Ĺ ç²Ĵ
æ³ķåħ°åħĭ ç¦ı
çĭ© çĮİ
Ġ åıĳè¡Į
ç¬ Ľ
åı¯ æ±Ĺ
èĢħ ä¸º
è£ ¹
ç¿ ¡
æĭħ å¿§
å¸Į çī¹åĭĴ
æł· çļĦ
ac e
190 5å¹´
ag e
é«ĺçŃī åŃ¦æł¡
B l
çļĦ èĭ±åĽ½
åĴ Ģ
ä¸ª æĢ§
åħ¬ æ¼Ķ
åĲĮ æľĪ
åı¯ çĶ¨äºİ
å½ĵ åĪĿ
æĪĺ æŃ»
å·¥ èµĦ
æķ° åŃ¦å®¶
åĵĪ çī¹
13 5
æŁĵ èī²
ros of
ä¼Ĭä¸½ èİİçĻ½
T T
çļĦ ä¸ľ
åľ¨ çº¿
èĩ Ń
19 00å¹´
è¥¿ éĹ¨
æķĻ ä¹ī
çİĭ åĽ½çļĦ
æķ´ æķ°
æīį ä¼ļ
æĪĲåĳĺ åĽ½
å®¾ å¤ķ
æīĵåĩ» çİĩ
è¶³å¤Ł çļĦ
Ġ äºĮ
çļĦ åĨ³å®ļ
æĺ¯ åħ¶
åĳ ¢
ä¸į çŃī
å½ĵ çĦ¶
å±± è°·
è¿Ĳ ä¼ļ
ä¼ł ä½ĽæķĻ
æĶ¶ èİ·
çĻ½ éĵ¶
ç¬¬äºĮ å¤©
ä¸½ ä¸Ŀ
é»İ æĺİ
å³¡ è°·
æĴĴ åĨ·
åıĳçİ°äºĨ æŃ¤å¤©ä½ĵ
æĮĸ æİĺ
çĢ ĳ
åĵĪèĲ¨ åħĭæĸ¯åĿ¦
L E
ä¸º é¦Ļæ¸¯
äºİ æĹ¥æľ¬
åħ¬ è½¦
èĩ´ åĳ½
èĢ¶ è·¯
æµģè¡Į éŁ³ä¹Ĳ
æŃ¦è£ħ éĥ¨éĺŁ
æ¡Ĥ æŀĹ
éĺ¿å§Ĩ æĸ¯çī¹
èĨ¨ èĥĢ
Ġ æĺİ
Ġ ä¼Ĭ
çļĦ äº²
ä¸į å¹¸
çĶŁ æĦı
10 7
åı· åľ¨
ar r
æĦŁ è°¢
èģĶèµĽ åĨłåĨĽ
ç§ĳæĬĢ å¤§åŃ¦
A pp
C E
i en
çļĦ èĩª
å¤§ åĬĽ
æľī 1
âĢ ĭ
æ² Ľ
è¯¥ çī©ç§įçļĦ
èĲ Į
åı² ç§°
12 æľĪ1æĹ¥
æĻ® éĽ·
an k
å¤´ çļĦ
éħį å¥Ĺ
çĶ² ç»Ħ
è´Ŀ æĭī
çł´ äº§
éħĴ åĲ§
æĴ¤ åĽŀ
äºİ199 5å¹´
æĻ®ç½ĹæĹº æĸ¯
æ³½è¿ŀ æĸ¯åŁº
H E
Ġ æ¸ħ
Ġ ä¸ĢèĪ¬
ä¼ļ è§ģ
ä»ĸ æĭħä»»
èĪ ·
å½ĵ å¹´çļĦ
ä½Ĩ åĽłä¸º
åħ³ æĬ¼
é¦ĸ éĥ¨
å¸Ī åĽ¢
èĹ ī
å®¡ çĲĨ
åĬ¨çī© çļĦ
ä¸ĢçĽ´ åľ¨
èģĶéĤ¦ æĶ¿åºľ
çĪµ ä½į
è£ģ åĨ³
Ġ199 3å¹´
ä¸ºä¸» çļĦ
æııè¿° äºĨ
åľ¨ 2013å¹´
è¿Ļ éĥ¨çĶµå½±
åįĹ åĮº
å¢ Ł
ç»ĵ è¯Ĩ
åħļ å§Ķ
çĻ½ å®«
åı¯èĥ½ çļĦ
14 4
ç®Ģ æĺĵ
èµŀ æī¬
ä¼ģä¸ļ å®¶
æıŃ éľ²
è¿·ä½ł ä¸ĵè¾ĳ
çļĦ éľĢæ±Ĥ
åľ¨ ä¸Ĭ
ä¸į å¤ª
åĪĨ æķ°
æ³ķ å¸Ī
èµĽ é©¹
äºĶ çĻ¾
è½¬ åħ¥
æ®µ çļĦ
ä¸Ńå¤® åĨĽå§Ķ
çªģ è¢Ń
åıĸä»£ äºĨ
æ³¨æĦı åĪ°
Ġ æµ·
å¤§ çģ«
å½ ª
å·ŀ åĴĮ
çĤ Ĵ
æ°´ ä¸Ń
éĺ¿ å¡ŀæĭľçĸĨ
ä¸ĵ æłı
å¹² æ¶ī
å®ĭ æľĿ
éĺ¿æĭī æĸ¯
äº¤æµģ éģĵ
æ°Ķè±¡ å±Ģ
åķ¤ éħĴ
D av
Ġ end
åĲ ĭ
åľ¨ ç¬¬
åľ¨ åĽ½éĻħ
æĹ¥ æĸĩ
æ¯ Ļ
æĪĺ äºĭ
ä½¿ ä»ĸ
éŁ §
ä»İ å°ı
çĸ ²
äº¬ å¸Ī
å¥ĸ çļĦ
è¯º åħĭ
åĲī ç¥¥
ä¸Ńå¤® çĶµè§Ĩåı°
åľ°æĸ¹ æĶ¿åºľ
è°ĥæŁ¥ å±Ģ
190 4å¹´
èĢ¶è·¯ æĴĴåĨ·
çļĦ å¦»åŃĲ
ä¸º ä¸»è¦ģ
è¿Ļ ä¹Ī
æľĢ å°ĳ
åı° å¤§
æ¯Ķ 0
eĠ R
ä»¥åıĬ åħ¶ä»ĸ
çĶ· äºº
å½±åĵį çļĦ
èĶ ¬
ç§Ł åĢŁ
æĬķåħ¥ ä½¿çĶ¨
æĦıåĳ³ èĳĹ
æµı è§Ī
æ°ĳ ç±į
åĮĹ éĿ¢
ä¹Ł å¼Ģå§ĭ
é©¬ å°¼
æĢ» åĢ¼
çĽ® çļĦåľ°
æ¼Ķ è¯´
æĹ¥æľ¬ äºº
éĿ¢ç§¯ 2
æ´¾ äºº
èĢģ èĻİ
8æľĪ 31æĹ¥
ç¬¬åįģ åĽĽ
æ¼«çĶ» å®¶
åĢ¡ è®®
! ãĢį
Ġ l
åħ¨ å¸Ĥ
æ¹¾ ä»Ķ
æĳ Ĭ
éĩĩ è´Ń
æ³° ç±³å°Ķ
å¯Į æľī
åĤ ²
åĲĪä½ľ çļĦ
è¯¯ å·®
æµ·æĭĶé«ĺåº¦ 2
è¾ħ éŁ³
æĶ¶å½ķ äºĨ
. ,
B r
d e
d er
ä¸Ģ æĸ¹éĿ¢
å¹¶ æĭħä»»
æ³ķ äºº
èģ Ĭ
ä¹Ł è¢«ç§°ä¸º
æķ° æ¬¡
æ¼Ķ åıĺ
ç»ĵ çĽŁ
åħļ å§Ķä¹¦è®°
çĤ¹ æĺ¯
çºª å¾ĭ
é¾ ļ
æĶ¯ åĩº
æĽ² çº¿
çļĦä¸Ģ æīĢ
èīº åĲį
ä¾¿ åĪ©
ä¿ĿçķĻ äºĨ
æĸ ¼
åħ¬ çĽĬ
èĢĮ æŃ»
è¢« æİĪäºĪ
æĸĩ ä¹¦
åĽł çĹħ
æĪĺ ä¿ĺ
ä¹Ĳ åĿĽ
éĴ ¾
åıª æľīä¸Ģ
çłĶç©¶ çļĦ
ç®¡çĲĨ çļĦ
å®¶æĹı çļĦ
å®ĺæĸ¹ ç½ĳç«Ļ
è¿İ æİ¥
å®īä¸ľ å°¼
æ¦´ å¼¹
Ġ å¥¥
çļĦ å®¶åºŃ
éĩ ľ
åĴĮ æ°´
åĩº ç§Ł
çī¹ ç§į
æĻ ĸ
çķ ¿
10 3
åı· çłģ
äºĳ æŀĹ
èı² å°Ķ
è¯¸ ä¾¯
çļĦåľ° éĵģ
oc i
çĲĨæŁ¥ å¾·
ç¿¡ ç¿ł
Ġ åĲİæĿ¥
ä¸ĭ åİ»
æĸ° åħ´
åĮĹ è·¯
èĪ ĸ
éĹ´ éļĶ
åĮĸ çī©
éĩĳ é©¬
çĭ ¸
èº« è¾¹
åľŁ èĳĹ
éĩĩ éĽĨ
äºĨä¸Ģ åľº
è®² å¸Ī
å¾ħ éģĩ
ä¼Ł å¤§çļĦ
Ġ äºİ
Ī å½¢çĽ®
åľ¨ åľ°
åľ¨ åį°åº¦
äºº åĿĩ
åĴĮ æŃĮ
ä¼ļ è°Ī
å¤© çİĭ
ç½Ĺ æĿ°
åħ³ èĬĤ
å¥³ å£«
ä¼ł éĢģ
æ´¾ å¾Ģ
æĦŁ åıĹ
å¾ģ åı¬
å¸ķ åħĭ
æĵį çºµ
li x
çİĭæľĿ çļĦ
Ġb egin
æĸ°çĸĨ ç»´åĲ¾å°Ķ
äº¤åıī åı£
å®¾å¤ķ æ³ķ
E X
åľ¨ 2020å¹´
ä¸Ń ä»¥
éĻ ĩ
éķ¿ æĹ¶éĹ´
éĢļ åĭ¤
åħ¨ ä¹¦
åįİ è¯Ń
æĹł éľĢ
è¿ĺ æľīä¸Ģ
ç´¢ å°Ķ
ä¸ĢçĽ´ æĺ¯
ç¬¬äºĮæ¬¡ä¸ĸçķĮå¤§æĪĺ æľŁéĹ´
b ack
Ġ al
çļĦ åĲįä¹ī
åľ¨ å¯¹
æ³ µ
ä¹ĭ çĶ¨
åĵ ¨
åĮĹ ä¸Ĭ
ä»¥åıĬ ä¸ŃåĽ½å¤§éĻĨçļĦ
çĶ» ä½ľ
èİ± çī¹
æľ¨ æĿĲ
äºĨä¸Ģ ç³»åĪĹ
çİĽ æł¼
éħĭ éķ¿
E x
T R
p l
u lt
Ġ åĲİ
Ġ èĳĹä½ľ
çļĦ èµĦæĸĻ
äºº æĺ¯
åŃ¦ æ´¾
ä¹ĭ äºĭ
åĲĮ æľŁ
åı¤ åŁİ
åĪĿ ä¸Ń
äº¦ è¢«
å¤ĩ åıĹ
èĢĥ éĩı
çĶ² çº§èģĶèµĽ
æĸĻ çĲĨ
ç§ĳåŃ¦ æĬĢæľ¯
æĭľ ä»ģ
ä½© æĸ¯
æľĿé²ľ åįĬå²Ľ
å®īå¾· é²ģ
æķ² åĩº
åĨħæĶ¿ éĥ¨
æ¶¡ è½®
å¥¹æĽ¾ ä»£è¡¨
çļĦ æľº
çļĦ å£°éŁ³
åľ¨ 2009å¹´
äºĨ è¿Ļä¸Ģ
201 6
201 8
åħ¨ ç¨ĭ
ä¸¤ é¡¹
äº¤ ä¼ļ
å¡Ķ æĭī
èĲ¥ éĢł
è´Ł æĭħ
åĺ İ
æĺ¾ çĦ¶
é¢Ħ èŃ¦
æ¸© åĵ¥
åĨ° å²Ľ
çŃĶ åºĶ
çĭŃ çªĦ
yst em
P P
Ġ å¤ļ
çļĦ åıĺåĮĸ
ä»¥ 0
æµ· æ»©
âĢĿ ()
ä½Ĩ åĲİæĿ¥
å°± æŃ¤
çĸ ¼
å¤ª æŀģ
ç¬¬ä¸Ģ åĲį
çĽĳ æµĭ
æĸ¯çī¹ æĭī
èµŀ æĪĲ
èĶ ļ
éĥĳ å·ŀ
ç½ĳçĲĥ åħ¬å¼ĢèµĽ
çļĦ å»ºè®®
åħĭ æ´Ľ
æĪĺ çļĦ
ç½Ĺ å®¾
18 ä¸ĸçºª
å°± èģĮ
åĲĦ æľī
è½¬ æĬķ
èĲ¥ åľ°
éĢŁ çİĩ
èĪª è¿Ĳ
éĤ£ æĹ¶
æ»¡ è´¯
it t
Ġ199 2å¹´
åŁºç¡Ģ ä¸Ĭ
åĪ¶éĢł çļĦ
Ġ18 8
èĶ¡ èĭ±æĸĩ
å¼¯ æĽ²
ç»ıçºª åħ¬åı¸
æĭ¦ æĪª
æ¸©åĵ¥ åįİ
Ġ èĩ³
çļĦ æĿĥåĪ©
åľ¨ 2012å¹´
æµ· å§Ĩ
å·´ å·´
å®ŀ çĶ¨
éĻ¤ éĿŀ
ä¾Ŀ æ³ķ
å®¡ è®®
äºİ199 6å¹´
æĲŃ ä¹ĺ
æĿĨ èıĮ
4 åı·
Ġ åĵĪ
æķ ĸ
æ² ģ
çĽ® å½ķ
çİĭ æľ±
åħ¶ä»ĸ äºº
èŃ¦ åį«
åıĮ éĩį
çº¢ æĹĹ
å°Ħ çº¿
ol og
è´¢ ç»ı
ç»ĵæĿŁ æĹ¶
æĭįæĳĦ çļĦ
ãĢī ,
å¥Ī å°Ķ
çħ¤ çŁ¿
çĽ¸äºĴ ä½ľçĶ¨
I U
çļĦ åı¯
çļĦ éĤ®æĶ¿ç¼ĸçłģä¸º
ä¸Ĭ æ¼Ķ
ä¸į åĬ¨
åĬł åī§
ä¸ŃåĽ½ åĽ½å®¶
an c
å¯Ĩ æŃĩ
æĬ¤ çĲĨ
åĨ³å®ļ å°Ĩ
re t
æĳĦ æĶ¿
ç«¥ å¹´
ur n
ow er
190 6å¹´
çĶµåĬĽ æľºè½¦
è¿½æº¯ èĩ³
G am
åıĳ æĶ¾
èĩª æĦ¿
å¹³ åĿ¦
æĭī èĲ¨
éĩį åĬĽ
å®ī è¾¾
æ¯Ķ åĪĨ
åį¡ æ´Ľæĸ¯
ç¦ı åħĭ
ä¸īä¸ª æľĪ
åİļ çļĦ
åµ ©
Goog le
æĽĿ åħī
b ox
v e
Ġ 5æľĪ
çļĦ åįĹ
çļĦ ç»ĵæŀĦ
åľ¨ 2018å¹´
ä¸Ģ äºĭ
çĶ± èĭ±åĽ½
çİ° éĩĳ
è¦ģ ç´ł
ç¼ ®
10 æľĪ25æĹ¥
å¤Ħ æŃ»
å²Ľ å¼ı
in cl
åķ ¦
åķ ¸
æŃ¦ åĬŁ
å¾Ī æľī
å¥ĩ å¹»
äºĨä¸Ģ ä»½
é¤Ĳ é¥®
æĭīä¸ģ è¯Ń
Ġæ¦Ĥ è¿°
æ£ķ èī²
å¯ĨæŃĩ æł¹
çļĦ å®īåħ¨
ä¸Ģ æŀ¶
åĴĮ é©¬
åŃ¦ åİĨ
ä¸į æķ¢
åĲĮ ä¸Ģä¸ª
çī¹ ç½Ĺ
åĨħ å¤ĸ
åįģ ä¹Ŀå¹´
æĢ» æķ°
æ°´ çļĦ
å±ŀ çļĦä¸Ģç§į
å¥¥ åĪ©
11 6
åıį åĵį
çĬ Ģ
for m
åģľ çģ«
éļ¾ åº¦
å·²ç»ı è¢«
ä¸¥ åİī
æ²ĥ å¤«
çº½çº¦ æĹ¶æĬ¥
æłĸæģ¯ æ·±åº¦
æĭĵ è·ĭ
ä¸ĩç¾İåħĥ çļĦ
éĵ¸ éĢł
çĽĳå¯Ł å¾¡åı²
æ°¨ éħ¸
ç£· éħ¸
Fac ebook
åľ¨ 2014å¹´
è¡ Ļ
å¤§ æ³ķå®ĺ
åŃ¦ éĩĳ
åĪĨ çº§
æ±Ł å¸Ĥ
åĮ» èį¯
æ·± å¤ľ
åĩł ç§į
å¼¹ éģĵ
æľįåĬ¡ åĻ¨
æİĴåĲį ç¬¬
äº¤æ±ĩ å¤Ħ
å¤§ä¸ľéĥ¨ å¤§åĮº
3 60
Ġ ç±³
åľ¨ 2011å¹´
éĥ¨ ä½ľåĵģ
ä¸İ æĸ°
æ°ĳ æĦı
å¯¹ ç«ĭ
ä¸ī éĩį
âĢĿ âĢľ
èģĶ æĴŃ
åħ³ ç¨İ
æ· Ĩ
ç¼ĸ ç¨ĭ
æ¸ħ æĻ¨
æŀĦ å»º
åıĳçĶŁ åĲİ
ç£ º
çĪ¶äº² çļĦ
é¥® æĸĻ
éħī ç§ĳ
E l
N H
s ch
Ġ è®¸å¤ļ
çļĦ å¤©
åľ¨ 2015å¹´
ä¸º 5
ä½į åľ¨
åĬł éĩĮ
åĲĪ éĩĳ
èİ· åĩĨ
æĶ¶ åĽŀ
çŁ¥ åĲįçļĦ
å²ģ ä»¥ä¸ĭ
éĤ® ä»¶
é¢Ĺ æģĴæĺŁ
éĺ» ç¢į
èĪŀåı° åī§
ĠæĹ©å¹´ çĶŁæ´»
d uc
æĺ¯ è¢«
éķ¿ å´İ
æŃ¤ å¤Ħ
âĢĿ ),
ç«Ļ åĴĮ
åıĤ è®®
åĬŀ åŃ¦
æŃ¦ å£«
äº¦ ä¼ļ
ä»£è¡¨ ä½ľ
ä»ħ åľ¨
è¯Ŀ é¢ĺ
ä¼łç»Ł ä¸Ĭ
æĴ¤ åĩº
åĨ· åį´
æĿ¡ä»¶ ä¸ĭ
æľīæķĪ çļĦ
æįĲ æ¬¾
ä»£çłģ ä¸º0
æ³¢ç½Ĺ çļĦæµ·
oun t
section Ġbegin
Ġ æ²Ļ
çļĦ åĨĽéĺŁ
çļĦ è¿ĩç¨ĭä¸Ń
ãĢĭ )
çľ ·
åĮĸ å·¥
ç»Ħ éķ¿
ç»´ æĸ°
è§Ĩ è§Ĵ
ç¬¬ä¸Ģ ä»»
å³ »
æ³¨ éĩį
æį¢ åıĸ
é³ ļ
é¢Ŀ å¤ĸçļĦ
ac t
æ·· æ·Ĩ
ä¸Ģå¹´ åĲİ
åıĻ äºĭ
åİ¿çļĦ åŁİå¸Ĥ
éªļ æī°
ä¸Ģ æľŁ
å¼ Ĭ
è¥¿ å²¸
å¼Ģ éĩĩ
èİ ŀ
èµĽ åĲİ
ä¸ļ èĢħ
ç»Ħ ä»¶
åĽĽ åĲį
è¯´ è¯Ŀ
ä¼ł æŁĵ
å®Į ç»ĵ
å¢ŀ èĩ³
æĶ» åħĭ
éŁ³ä¹Ĳ å®¶
åİĭ åĪ¶
å¯Į åħ°
æĸŃ å±Ĥ
éĵ¾ æİ¥
åĨħèĴĻåı¤ èĩªæ²»åĮº
çļĦ ç»Ħç»ĩ
çļĦ çĲĥåĳĺ
åŃ¦ çķĮ
è¶ ¾
éĩį æĴŃ
ä¼ł è¾¾
ä¿¡ éķ¿
æŀľ å®ŀ
ä»£è¡¨ éĺŁ
éĥ¡ çļĦ
äºĮåįģ ä¸ĸçºª
äºİ199 4å¹´
åįķæĽ² æ¦ľ
è§£åĨ³ æĸ¹æ¡Ī
1 çļĦ
åĽ½ åŃĲ
çī¹ åĴĮ
è¯¥ å¸Ĥéķĩ
å¤© åĲ¯
æ® ´
12 4
12 æľĪ28æĹ¥
æ²³ ä¸ľ
å¨ģ æĸ¯
è¯Ħ åĪĨ
åĬ© æĶ»
é£ŀ èĪ¹
9æľĪ 30æĹ¥
å®Ŀ çŁ³
åį± å®³
æĸ°å¢ŀ å¢ĥå¤ĸè¾ĵåħ¥
åıĺæĪĲ äºĨ
åĨ¬åŃ£ å¥¥æŀĹåĮ¹åħĭè¿ĲåĬ¨ä¼ļ
è´© åĶ®
ä¹Įé²ģ æľ¨
Ġ çĻ½
ä¸Ń çİ¯
éĥ¨ ä¸ĭ
åĪĨ å±Ģ
å®¶ åºĦ
åĬł æ²¹
æ¡ ¶
æµģ åħ¥
äºĶ äºº
é£İ åĬĽ
æ³¢ åĪ©
åģļ çļĦ
ä¿Ħç½Ĺæĸ¯ çļĦ
éģĩ åĪ°äºĨ
åŁ¹ èĤ²
èĤ¯ å°¼
éħįéŁ³ åĳĺ
éĵ¸ å¸ģ
è´ª æ±¡
çļĦ ä»»åĬ¡
ä¸Ń éĢĶ
å¤§ èĦĳ
èĢ »
ä¸į åºĶ
è° İ
åıĹ ä½ĵ
12 2
ä¼Ĭ ä¸ĩ
çļĦä¸Ģ åľº
æĬ¤ èĪª
çĮ ©
ä¼¦ çĲĨ
14 3
å½±åĵį äºĨ
èĪ¹ èĪ¶
çĤ® å¡Ķ
æģ¶ éŃĶ
190 8å¹´
åĬ¨åĬĽ åŃ¦
çļĦåŁºç¡Ģ ä¸Ĭ
çºł çº·
M ac
çļĦ è¯Ńè¨Ģ
çļĦ æİ§åĪ¶
ç¾İ èģĶ
è·¯ è½¨
è¾¹ ä¸º
èµ° äºĨ
ä¸įè¿ĩ åľ¨
Ġæľ¬ é±¼
èĨ Ľ
æİĮ ç®¡
åįłé¢Ĩ äºĨ
åįłåľ° éĿ¢ç§¯
åľ¨ åħ¨çĲĥ
ä¸º éĤ»
åĽ½ éĵģ
æĹ¶ æľī
å¤ļ è¾¾
åĨħ åĬ¡
éĥ½ å¾¡åı²
æİ¥ æīĭ
éľ ľ
åĵĪ å¸ĥ
æ±ī äºº
50 ç±³
æĹĹ èĪ°
æĭīä¸ģ ç¾İæ´²
çħ¤ çĤŃ
æĤī å°¼
3 ä¾ĭ
6 Ġ
l and
éĥ¨ åĴĮ
å¸ĥ ä¼¦
å°ı åŃ©
10 2
èģĮ å·¥
ä¸»è¦ģ ä¸º
æŃ¦ åĬĽ
è§Ĥ å¡ĺ
193 0å¹´ä»£
ä»ĭ äºİ
æ¼« å¨ģ
us ic
è¡Ĺéģĵ åĬŀäºĭå¤Ħ
ç½ļ æ¬¾
çĲĨå·¥ åŃ¦éĻ¢
é©¬åħĭæĢĿ ä¸»ä¹ī
æĢİ ä¹Ī
å¯Įåħ° åħĭæŀĹ
9 ç±³
G P
ä¸º ä»Ģä¹Ī
ä¸» æĴŃ
åĬ¨ èĦī
éĩĮ çº¦
201 7
å°Ĩ è¢«
é©¬ æģ©
ä¸ŃåĽ½ æĶ¿åºľ
éĺ¿ æĸ¯
åĲĳ åīį
æ¸¯ æ¾³
on s
åıª å¥½
çłĶç©¶ èĢħ
ä¹Į åħ¹
åŃ¦çĶŁ ä¼ļ
æ°ĳä¸» æ´¾
èģļ ä¼ļ
å®ĩ èĪª
çī¹æ®Ĭ çļĦ
èµĦæľ¬ ä¸»ä¹ī
ç¥Ī ç¥·
section Ġend
ä¹Įé²ģæľ¨ é½Ĳ
çļĦ ä¸ªäºº
å¹¶ ä»İ
æľĢ éķ¿çļĦ
é©¬ ä¸Ĭ
11 ä¸ª
åĲī éļĨ
éĥ¡ çİĭ
å¼Ģåıĳ åĮº
èģĶçĽŁ çļĦ
æ¬£ èµı
éĽĮ æĢ§
èĲ¨å°Ķ çĵ¦
çļĨä¸º éĻĨåľ°
èĤ¿ çĺ¤
Ġ èĭ¥
æĹ¶ ä¸º
çĶŁ å¹³
åĪĨ åĮĸ
ä¸ĭ è¡Į
å¯¹ å¾ħ
æĶ¹ æĪĲ
éķĩ å®Ī
æľĿ éĺ³
åħ« ä¸ª
ä¹ĭåĲİ åľ¨
æŃ¥ éª¤
åĲĮå¹´ 11æľĪ
åĤ į
æłĩåĩĨ çļĦ
çĪ¶äº² æĺ¯
è¯¸ å¡ŀ
è¾© æĬ¤
æĥ¯ ä¾ĭ
C ol
Ã ¼
Ġ çİ°ä»£
çļĦ æŃ£
ä¸ī æĺŁ
ä¸¤ åľ°
ä¿Ŀ å®ļ
åŀĭ æĢģ
æĽ´ å¥½
in i
æ°Ķ çĲĥ
åħĪ é©±
å¸Ĥéķĩ èĮĥåĽ´åĨħ
åıĳå±ķ åĩº
è¡¥ åģ¿
å¤º åĽŀ
ä¸»æ¼Ķ çļĦ
æª Ĳ
åĩ ĳ
åĨĽ çĶ¨
è¢« èªīä¸º
åĮĹ ç«¯
çº¦ è®·
åıĺ åĬ¨
è¶ħ å¸Ĥ
åĥ µ
le x
é«ĺéĢŁ éĵģè·¯
æīĢåľ¨ çļĦ
æ·±åľ³ å¸Ĥ
é¥² åħ»
å¯Ĩè¥¿ è¥¿æ¯Ķ
, ,
ä¼ º
åĩº åĵģ
èĢĮ æľī
å¾· åł¡
äºļ çļĦ
äºļ åĪ©
çĪ ½
çº¦ æĿŁ
æĶ¹ è®¾
æ¤į è¢«
èķ ´
å¹´è½» äºº
å¤§ çº²
ä¸ī çĻ¾
201 2
æĪĺ æľº
ä¸ĸ å®Ĺ
11 æĹ¶
åıį æĶ»
çº¢ å¤ĸ
å°ļ æľī
å±ĭ èĭĳ
åįĪ ç§ĳ
è¯ł éĩĬ
çļĦ çĽ¸åħ³
çļĦ åı¯èĥ½æĢ§
åľ¨ åħ¨åĽ½
åıĳ æĸĩ
å¹¶ æŃ¢äºİ
ç¾ ŀ
æĮ ½
âĢľ "
æį ŀ
é©¬ è·¯
åħ¨ ç¾İ
èĤ ª
äº¤ äºĴ
æį® ç§°
202 1
æ¢ §
å¸Ī ä»İ
æĶ¾ å¤§
çĻ½ éĩĳ
at or
æĪ¿ åľ°äº§
éŁ³ä¹Ĳ å½ķå½±å¸¦
ç¤¼ ä»ª
éĢļå¸¸ åľ¨
å·¨ æĺŁ
äºİ199 2å¹´
çļĦçī¹ æ®Ĭ
å¸®åĬ© ä¸ĭ
èĦĤ èĤª
f lix
Ġ æ°ĶåĢĻ
ä»ĸ ä»İ
æ¸ Ŀ
äºĭ åıĳ
åĲĪ åħ±
æ²» æĦĪ
é¦ĸ æŃĮ
èİ·å¾Ĺ çļĦ
ä¸¤ä¸ª æľĪ
ĠåİĨåı² æ²¿éĿ©
Ġ198 8å¹´
åĪĽéĢł äºĨ
å§¿ æĢģ
èĻĲ å¾ħ
éĺ¿åŁºåĿ¦ å¤§åĮº
çļĦ æĸĩç«ł
çĲ ¦
ä¸ĭ è¯ı
æľĢ éķ¿
æīĢ ä½¿çĶ¨çļĦ
å±± å¯º
åħ³ åį¡
åıª ä¼ļ
å¢ŀ æı´
åĢĻ è¡¥
åĲĮå¹´ 9æľĪ
èĬĤçĽ® ä¸Ń
çļĦå¤§ å°ı
äºĮåįģ äºĮå¹´
çİ© åħ·
è®¾ç½® çļĦ
éĺħ åħµ
çĦ¦ èĻĳ
æĭĵ å±ķ
éĽĩ ä½£
illi am
çļĦçī¹æľī æ¤įçī©
åĮĸåŃ¦å¼ı ä¸º
çĢĳ å¸ĥ
æĸ°çĸĨç»´åĲ¾å°Ķ èĩªæ²»åĮº
Ġ 20ä¸ĸçºª
ä¸Ģ æĹ¶
äºļ æĸ¯
è¿ĩ å¤ļ
ç±³ åĵĪ
éĩį åıł
æł¼ ç½Ĺ
äºĶ ä»£
éĵģ è¾¾å°¼
æŃĮ èĪŀ
è¯Ħ éĢī
çĸĳ ä¼¼
æ¥ļ åĽ½
æĹģ è¾¹
æĽ¹ æĵį
å¤ļå¹´ æĿ¥
å¸ĪèĮĥ åŃ¦æł¡
åĢ¡ å¯¼
æĸĩèīº å¤įåħ´
åįıåķĨ ä¼ļè®®
B E
l yĠ
u al
w w
Ġ ä¸ĩåİĨ
åľ¨ 20ä¸ĸçºª
è½ ¶
åĨĽ æĶ¿
åĮĹ åĮº
ä¸ī çŃī
åįķ è½¦
æ²¡ æĶ¶
éĥ¨åĪĨ åľ°åĮº
æŀĦ æĥ³
èĲ¨ æĳ©
17 ä¸ĸçºª
éĽĦ æĢ§
å®³ æĢķ
ç¿» åĶ±
æ»ĳ åĨ°
çĪ±å¥½ èĢħ
æĺİå°¼èĭı è¾¾å·ŀ
åİķ æīĢ
6 å²ģ
è¯ µ
ä¸Ń åįĪ
ä»¥ 4
åĲİ éĿ¢
ä¸į åĲ«
åħ¶ éĹ´
ä¿ ©
åĪĨ æ³Į
å¤© åľ°
èĤ ½
çº¦ 4
åħĥ èĢģ
éĴ ŀ
æ±Ł åİ¿
æĺ¯ä¸Ģ æĿ¡
å®Ĺ åº§
æĹ© å·²
st r
æ¾ ľ
æĲ ģ
è¿ģ åĪ°
1æĹ¥ å¹³åĿĩ
le sĠ
çīĽ é¡¿
çļĨ æľī
èĿ ´
190 7å¹´
å¼ķèµ· çļĦ
ç»ıåİĨ äºĨ
éī´ å®ļ
ä¸ĵç§ĳ åŃ¦æł¡
6 æĹ¶
F ran
Ġ 10æľĪ
ä¸į çŁ¥éģĵ
éĽ ı
åįĹ éĿ¢
åĬł ç´¢
çĶµ ç«Ļ
201 0
åħ¨ æĹ¥
æ¡ ¦
è¾¾ ç§ĳ
é» Ķ
æīĭ çļĦ
èģĮ æĿĥ
èĦ Ĩ
å¯Ĩ éĽĨ
èĩ´ ä½¿
èĢģ äºº
æĥ³ åĪ°
è¯ĳ ä½ľ
æĺ¯ä¸Ģé¢Ĺ æģĴæĺŁ
æİ© æĬ¤
ä½Ľç½ĹéĩĮ è¾¾
çķħ éĶĢ
èĿ´ èĿ¶
b o
Ġ éļıèĳĹ
æĹ¥ åĨħ
æ³ ¼
åŃ¦ ä¸ļ
æ³ķ æĭī
æĸ° éĺ¿åŁºåĿ¦å¤§åĮº
åĮĹ æ¬§
å±± ä¸Ĭ
ä¸¤ å±Ĥ
æĢ» åĨ³èµĽ
åıĺ å¼Ĥ
ä¼ĺ åĮĸ
ä¸ĢçĽ´ åĪ°
èµĽäºĭ ä¸Ń
å¢ĵ åľ°
åįģå¹´ ä»£
å¦Ī å¦Ī
æĳĨ èĦ±
? ãĢį
S C
Ġ åĲĦ
Ġ å¥¹
Ġ åŃ¦æł¡
çļĦ é¦Ļæ¸¯
çļĦ çĲĥéĺŁ
åľ¨ è¿ĻäºĽ
åĴĮ æĹ¥æľ¬
é«ĺ å°Ķå¤«
è¯Ń ç³»
æ¯ı æľĪ
åı¯ä»¥ ä½¿çĶ¨
å®Ĺ å®¤
éĿĴ å±±
å¤ı æľĹå¾·
èµ« é²ģ
æĬĢæľ¯ çļĦ
è®² åº§
ç¦»å¼Ģ äºĨ
æ´ŀ ç©´
æª Ģ
å«ģ ç»Ļ
å±¥ è¡Į
å ļ
çļĦ é»ĳ
åĨ ¤
çī ¡
åĲİ å¤ĩ
æ± ¾
äºĭ è¿¹
åº¦ è¿ĩ
æ¸¯ åı°
éĴ ī
æĽ´ é«ĺçļĦ
éĽ· è¯º
èİ± åħĭ
åĽ½éĻħ èµĽ
åĽłä¸º å®ĥ
äºĨä¸Ģ é¡¹
æĳ© æ´Ľ
æŀª ç®¡
éĺ¿å°Ķ åıĬåĪ©äºļ
Ġc ol
æīĢéľĢ çļĦ
å¾·åħĭ èĲ¨æĸ¯å·ŀ
å·´æĭ¿ é©¬
L L
R O
Ġ åĲįç§°
Ġ éļıçĿĢ
çļĦ çĬ¶æĢģ
äºº éģĵ
å¯¹ æĪĺ
èİ º
é«ĺ å®Ĺ
äºļ é©¬
è½¦ äººæ¬¡
ç³ Ł
éĺ¿ èĲ¨
èĳĹ çļĦ
åıĪ ç§°ä¸º
åİ» äºĨ
å¾Ī å®¹æĺĵ
è¯ģ ä¹¦
ä¹¡ éģĵ
åĺ ²
æķĮ åĨĽ
åĽº ä½ĵ
åŃĶ åŃĲ
è±ª åįİ
M O
çļĦ é¢Ĩå¯¼
è¡Į æĿİ
æĬ ¹
èĩª ä»İ
èĪ ľ
åı° éĵģ
åħ¨ æ°ĳ
çº¿ æĺ¯
ç³» æķ°
æ°´ åĬĽ
åħĥ çļĦ
æīĭ æĮģ
èĲ¨ è¯¸å¡ŀ
äºĨä¸Ģ åº§
çĶŁçī© åŃ¦å®¶
ç¨İ åĬ¡
è´¢æĶ¿ éĥ¨
5 æĹ¶
çļĦ åī¯
çļĦ çĲĨè®º
æŀ ķ
ä¹ĭ æīĢä»¥
æĸ° ä¼ļ
æľĢ å¿«
è¿ĩ æĿ¥
å²Ľ å¼ıæľĪåı°
åĳ½ ä¸Ń
ç¬¬ä¸Ģ åŃ£
ä»Ĭ å±ŀ
æ³° å±±
æ¤ °
å¾·åĽ½ çļĦ
èľ ĺ
èĿ ĩ
çªĹ åı£
å«Į çĸĳ
up er
èĥ° å²Ľ
e th
y s
Ð ½
çļĦ çİ°è±¡
æĿ ĸ
ä¸Ĭ æĺ¯
åĩº èī²
åĪĨ è¾¨
é¦ Ī
åŃĲ ç§ĳ
æĪĺ ç¥ŀ
å¤ĸ æĺŁ
å®ī å®ļ
æİ¥ çº³
æŀĹ ä¸ļ
å¤Ħ åĪĨ
æ¸ħ æ´ģ
æ¬§ ç¾İ
çĪ¶ åŃĲ
å»ºçŃĳ ç¾¤
åģĩ è¯´
è¯¥çľģä»½ä¸ºæ³ķåĽ½ åĮĹéĥ¨
æ´»è·ĥ äºİ
åĬłåĪ©ç¦ı å°¼äºļ
AK B48
åĬłåĭĴæ¯Ķ æµ·
O pen
Ã Ń
çļĦ çīĪæľ¬
åľ¨ åľ£
åľ¨ 2005å¹´
åĲİ äºİ
åĪ° æĿ¥
åĪ© æ¶¦
ä»£ è¨Ģ
èĩ³ 4
çĶµ æºĲ
201 4
åº¦ åģĩ
éĩį åŀĭ
æİ¥ åı£
éĩĳ éĴ±
å¼ł åŃ¦
ä¿® çŃĳ
ä¼¯ æģ©
æ½ Ł
æ¯ĶèµĽ çļĦ
è¿ľ çļĦ
æĺ¥ èĬĤ
æķ°æį® åºĵ
åįĹåĮĹ æľĿ
é£ĵé£İ ä¸Ńå¿ĥ
èħ¾ è®¯
o on
o tĠ
è¯ Ľ
åĩ ¿
èĢ ¿
çŃī äººçļĦ
ç§į åĬł
é¦ĸ è½®
å·´ è¾¾
å·´ åĵĪ
èį Ķ
åİĨ ç¨ĭ
è¿ĺ æ²¡æľī
çļĦä¸Ģ ç³»åĪĹ
æĿİ æ°ı
ä¾Ľ æ°´
13 4
å³ Ļ
åĲĮå¹´ 8æľĪ
çģµ é¡¿
æī© åħħ
æ°ĳä¸» ä¸»ä¹ī
åįļçī© éĻ¢
å¤ĸäº¤ åħ³ç³»
çĽ¸å¯¹ è®º
ä¹ĥ èĩ³
å¼ºçĥĪ çļĦ
çİĭå®ī çŁ³
åĪ ĥ
åľ¨ 2016å¹´
å¤§ å±łæĿĢ
ä¸į åĲĪ
ä¸» æľº
åŃĲ åĴĮ
åı¯ æĮģç»Ń
æİ¥ åĪ°
å¤Ħ å¤Ħéķ¿
ä¸ĵ å±ŀ
å¤į åĩº
åĽŃ æŀĹ
æ¥ ·
å¾Ī é«ĺ
å¡ŀ æĸ¯
éŁ³ä¹Ĳ èĬĤ
åºķ éĥ¨
æ²¿ èĳĹ
æĽ¿ è¡¥
æºª æµģ
Ġ199 0å¹´
æĪ´ ç»´
ç¡¬ ä»¶
Ġ198 9å¹´
op h
æ£Ģå¯Ł å®ĺ
ä¸ºè¾Ĳé³įé±¼çº²é² Īå½¢çĽ®
ç®¡æİ§ ä¸Ńåıĳçİ°
7 0å¹´ä»£
8 æľĪ15æĹ¥
åľ¨ æľ¬
ä¸º çĥŃå¸¦
æĺ¯ å·´è¥¿
åĴĮ åľ£
åĪĨ éĺŁ
ç¾İ æĭī
èĬ ľ
ç§ĳ å¤ļ
åĽĽ ä½į
åŀ Ħ
äººåı£ çļĦ
ç»´ çī¹
å¥¥ å§Ķä¼ļ
ä½ı æīĢ
æĽ¼ åĵĪ
åĩł ä¸ªæľĪ
å®ĮæĪĲ åĲİ
et er
æķĮ å¯¹
ri d
å¾·éĩĮ åħĭ
æ¤Ń åľĨå½¢
) )
åľ¨ ä¹Įåħĭåħ°
äºº å¯¹
äºĨ èĩªå·±çļĦ
çĶŁ çĲĨ
ä¹ĭ å®¶
å¼ł å®¶
åĪĴ åĪĨä¸º
è¿ŀ ä¸²
æĿĳ çļĦ
ä¾Ľ çĶµ
æ´Ľ æŀĹ
çĻ» åł¡
è¿ª å°Ķ
æ¸© åĴĮ
æ¬§æ´² åĽ½å®¶
ãģ Ħ
å½© èĻ¹
èİ² èĬ±
é«ĺçŃī æ³ķéĻ¢
å¤ļæł· æĢ§
å¤ĸåĽ´ èµĽ
Net flix
å½ķéŁ³å®¤ ä¸ĵè¾ĳ
çļĦ æĶ¿çŃĸ
çļĦ æľĢå¤§
èĢ Ĩ
ä¸į æ¸ħæ¥ļ
æ°ĳ äºĭ
åħ¨ æĸ°
æĥ ¹
10 æĹ¶
å¤« æĸ¯åŁº
äºĶ å¤§
æĬ¥ åĲį
ä¿Ħ è¯Ń
åºĨ ä¸ĭ
é³ Ĺ
äºĮåįģ ä¸Ģå¹´
æŃĮæĽ² çļĦ
èµŀ èµı
190 3å¹´
å±ı å¹ķ
æĹ¢ æľī
èľĺ èĽĽ
5 åı·
H O
çļĦ ç»Łæ²»
çĶ¨ åľ¨
çŃī åĲĮ
å°Ĩ æĿ¥
çĽ® åĩ»
æıĲ éĨĴ
åıĸ åĲĳ
åħĪ è¡Į
æ´¾ å¯¹
æ¡Ī çļĦ
è¿ª åħĭ
éĵģè·¯ çļĦ
èĨ Ŀ
ä¹ĭéĹ´çļĦ åħ³ç³»
ä¸Ģæ®µ æĹ¶éĹ´
ä¸ŀ çĽ¸
å¼ĹéĽ· å¾·
Ġ 3æľĪ
åľ¨ 2007å¹´
äºº è¢«
æĻ® é¡¿
çĶµå½± éĻ¢
é¥ ·
æŀģ åħ¶
åĪĹè½¦ çļĦ
æļ´ éĽ¨
åĨ² éĶĭ
æ¿Ĵ åį±
% )
äºº åĬĽ
äºº æŃ»äº¡
æĺ¯ çĳŀå£«
è§ ħ
ä¸į å¤Ł
è·¯ ä¸İ
ç«Ļ åīį
10 ä¸ĩ
èµ· èįī
æ°´ æ³¥
ä»¬ çļĦ
çīĩ çļĦ
æŃ¦ çĶ°
è£ħ æľī
å®Į æ¯ķ
14 2
åģľ åĬŀ
å¹² æĹ±
ãĤ ¹
äºİ18 4
çº¿è·¯ åı£
ä¸¤å¹´ åĲİ
æĴŀåĩ» åĿĳ
l er
Ġ åĺīéĿĸ
åľ¨ éŁ©åĽ½
ä¸Ģ çº¿
åŃ µ
åĮ ¡
èĭ ·
ä¹Ł ä¸İ
åħ¨ åŀĴæīĵ
æĢ» åħµ
åİ¿ å¸Ĥ
å°¼ ç§ĳ
ä¿¡ æīĺ
æ¨ Ĭ
åĨį çĶŁ
æŃ¦ æĺĮ
åħ· åºĨä¸ĭ
é¡¿ æ¶ħ
ro up
åĪĩ æĸŃ
le y
ä½© å°Ķ
èĤ¯ èī²
æĢª çī©
èĿĻèĿł ä¾ł
2 æľĪ24æĹ¥
R S
R ob
åľ¨ 2017å¹´
äºĨ å¤§éĩı
åĪ° è®¿
å¤ļ ç±³
å¹³ åİ¿
åĬł å¯Ĩ
éĢļ ç§°
åįİ æ²Ļ
æīĭ ä¸ĭ
éĹ¨ å¤ĸ
åŃĹ ä½ĵ
çĿ ¿
æĶ» éĻ·
åįĬ åĨ³èµĽ
äºĭä»¶ ä¸Ń
åį´ è¢«
ãĤ ĵ
èĩªåĬ¨ åĮĸ
æ°¯ åĮĸ
æ¸Ĺ éĢı
ä¹Įåħ¹ åĪ«
æĳ©æ´Ľ åĵ¥
Ġ ä¿Ħç½Ĺæĸ¯
Ġ åĶĲ
ä¸Ģ å¥Ĺ
æ² «
åĩº å¢ĥ
ä¿ ¯
é© ¿
èİ ¹
å¸ĥ è¾¾
æĢ» ç½²
éĥ½ è¦ģ
éĺ¿ åįľ
åŀ ©
å¨ Ħ
å¯¼ ä½ĵ
é² ¶
åı¯ä»¥ è¢«
åħ« å¼º
ä¾¿ ä¼ļ
åį¢ æ¯Ķ
21 ä¸ĸçºª
åĬª æĸ¯
ãĢī .
ir l
å¸ĥé²ģ æĸ¯
å¥¥åħĭ è¥¿
è¯¥çī©ç§įçļĦ æ¨¡å¼ıäº§åľ°
T wit
å¹´ ä»½
æĺ¯ éĢļè¿ĩ
åĴĮ åħ¶
å¹¶ éĢļè¿ĩ
æ¯Ķ 1
åı· åı¬
åĽĽ åĳ¨
202 2
åįķ è¯į
å¤« å¦»
è¿ĳ æľŁ
è½¬ è¿Ĳ
åħī çļĦ
å¥ĸ åŃ¦éĩĳ
å¤® è§Ĩ
åŁĥ æĸ¯
æħ Į
å¼Ĺ èİ±
èģļ å±ħ
æĬµ åĪ¶
èĦ± ç»´äºļ
èĴĭ ä¸ŃæŃ£
å¹¿è¥¿ å£®
æķĻç§ĳ æĸĩ
èĤ¯å¡ĶåŁº å·ŀ
8 åħ¬éĩĮ
å ¬
Ġ ä¸Ģä¸ª
çļĦ å¼Ģåıĳ
çļĦ å±ħæ°ĳ
åľ¨ 2019å¹´
ä¸Ń ä½¿çĶ¨
å¥ ¢
æĹ¶ è£ħ
æ² ¾
æµ Ĭ
è½ ¿
åĪĨ ä¼ļ
çĶ± ä¸ŃåĽ½
åŃĲ åŃĻ
åįģ ä½Ļ
èĢħ åľ¨
ç±³ åĭĴ
è¿ĺ å°Ĩ
ä¸ĸçķĮ å¤§èµĽ
å¼º è¡Į
å®Į é¢ľ
æİĴ çĲĥ
åī¯ éĻ¢éķ¿
åįł æľī
il d
æ¯Ĵ æĢ§
éĢĥ èĦ±
ä¸ľåįĹ æİ¥
çķª èĮĦ
çİ» åĪ©
åį°åľ° å®ī
æĽ¼åĵĪ é¡¿
ç¬¬ 15
ä¸ĭ å±ŀçļĦ
å¸Ĥ çº§
éĩĮ å°Ķ
è½¦ åİĤ
åħ³ å¿ĥ
çĽ´ æµģ
èĳĹ ç§°
æ³¢ å¾·
è¶³ åĪ©
ar eĠ
æķħ å±ħ
æ·± æ°´
å°Ħ æīĭ
ä¸Ńå¤® æĶ¿åºľ
å¼Ĥ æĢ§
èį· é©¬
è®¢ è´Ń
èĨ ı
æī¬ å·ŀ
ä¸ĩäºº æ¬¡
èĹ¤ åİŁ
Ġof ĠtheĠ
å¹½ é»ĺ
ç° §
å·´æĭī åľŃ
Ð ¸
Ġ èī¾
çļĦ åıįåºĶ
çļĦ çºªå½ķ
ä¸Ģ çīĩ
ä¸Ģ åĿĹ
è¡ ŀ
å¤§ çķ¥
æī ³
åĴ ¬
ä»ĸ å·ŀ
æĪĺ çº¿
æŃ£ å½ĵ
éľ ī
çĭ Ļ
æłĩ çŃ¾
å¼Ģå§ĭ åĲİ
åħī å¤į
ar m
æĶ¿æ²» åįıåķĨä¼ļè®®
åĨĻ äºĨ
è¡Ĺ åºĦ
æī¿ åıĹ
çļĦäºº å£«
åħħ å½ĵ
æī¾ åĪ°äºĨ
éģ¿ éļ¾
å¸¦æĿ¥ äºĨ
çĲ¼ æĸ¯
éĤª æģ¶
9 æľĪ28æĹ¥
o od
Ġ æııè¿°
åľ¨ æŁĲäºĽ
åĴĮ æĶ¿æ²»
ç¾İåĽ½ éĻĨåĨĽ
12 3
ç¬¬ä¸Ģ ä»£
ç¼ĸ æĪĲ
åĪĽ åĪĬ
ä»£è¡¨ æĢ§
5æľĪ 20æĹ¥
å¾® åĪĨ
æįķ èİ·
å¤ĸäº¤ éĥ¨éķ¿
ot t
ç¼ĵ è§£
åĲĲ èķĥ
åı°é£İ èŃ¦æĬ¥
Ġ åħĥ
ä¼ļ åĲĪ
ä½ľ å®¢
åĪĨ éĥ¨
å¤ļ éĿ¢ä½ĵ
åĽł åľ¨
çŃī ä»·
è·¯ éĿ¢
æ¼Ķ ç»İ
å¸¸ æķ°
åĭ ¿
å¨ģ çī¹
çª ¦
çħ ½
è¿ª åįĹ
4æľĪ 30æĹ¥
è½» åŀĭ
æĶ¶å½ķ äºİ
ç¢° æĴŀ
çļĦ åĴĮ
å¤§ å°Ĩ
äºĨ åľ¨
å¤ļ æĿ¡
åĪ© æ¯Ķäºļ
ä¸ī åı·
å°Ĩ æŃ¤
åľº é¦Ĩ
èĭ± èģĶéĤ¦
åıĤ æĪĺ
çķĮ éĿ¢
æº ¢
å¸Ī çĶŁ
la s
æĿİ åħĭ
è¯Ħ çº§
çĭ¬ è£ģ
åıĳçİ° äºİ
åĪĨåĪ« åľ¨
åĪº æĿĢ
ãĤ ¤
åıĭå¥½ åŁİå¸Ĥ
Ð µ
çļĦ é£İéĻ©
åħ ĸ
åĴĮ æĹłçĹĩçĬ¶æĦŁæŁĵèĢħ
ä¼ļ ä¸İ
ä¸į çĶ¨
æ´ ¼
åħ¬ æīĢ
æ°ĳ çĶŁ
å¤ļ çĵ¦
å¼Ģ æĭĵ
åı¯ æĥľ
è¯¥ å¤Ħ
äº§ éĺ¶çº§
éĹ¨ çļĦ
éĴ Ļ
èĮ ľ
eĠ T
çļĦä¸Ģ åĳĺ
ä½ľä¸º ä¸Ģä¸ª
æķħ ä¹¡
æ³° ç½Ĺ
æł¸ ç³ĸ
æĳ© æ³½å°Ķçľģ
æĪĴ ä¸¥
åįĵ è¶Ĭ
åĽ½å®¶éĺŁ åıĤåĬł
æŁ´æ²¹ æľº
Mic rosof
åĲīéļĨ åĿ¡
D O
Ġ éķ¿
æĺ¯ å¥¥åľ°åĪ©
åľ° è¡¨
æ¸ ¤
æ³ķ è¥¿æĸ¯
æĿ¥ äºĨ
201 5
å°ı æıĲçĲ´
ä½Ĩ æľª
ç§į ç§į
éĩĳ éĴŁ
å¤« çļĦ
çļĦä¸Ģä¸ª åĮº
al k
10æľĪ 10æĹ¥
ä¼ĺ å¼Ĥ
éŁ¦ ä¼¯
ä¸¾åĬŀ äºĨ
åºĶçĶ¨ ç¨ĭå¼ı
Ġ18 7
è¿ĩåİ» çļĦ
æĬĺ åıł
Ġ193 7å¹´
çĶŁéķ¿ åľ¨
è°¥ åı·
æĮīå¯Ł åı¸
( ãĢģ
2 æľĪ1æĹ¥
Ġ æĪĸ
çĶ Ħ
äºº æīĢ
çİ º
çĶŁ ç´ł
å¹¶ è¦ģæ±Ĥ
å¾· å·ŀ
æ¯Ķ èµ·
ç»ĵ æĻ¶
äº¦ æĽ¾
å®Ī åĨĽ
ç§Ģ åĲī
å®ĭ ä»£
èµ¤ éģĵ
ir st
ç¨İ æĶ¶
åİļ åº¦
åı¥ è¯Ŀ
æĸ¯èĴĤ èĬ¬
ç° ¿
ç¦ıå°Ķ æĳ©
çŁ³åĻ¨ æĹ¶ä»£
ç§ĳç½Ĺ æĭīå¤ļ
èĥ°å²Ľ ç´ł
G r
N O
V ID
g round
çļ Ĥ
çļĦ ä»·æł¼
ä¸Ģ ç»Ħ
æł Ī
ä¸į å½ĵ
åīį æľŁ
åİŁ ä½ľ
å±ŀ çī©ç§į
æİ¥ çĿĢ
åħĥ ä»¶
æ¸¯ å²Ľ
ç»ĵ å°¾
çĬ¶ çļĦ
ç¬¬åĽĽ æ¬¡
ç¬Ķ åĲį
å¤ıåŃ£ å¥¥è¿Ĳä¼ļ
çĽ¸ä¼¼ çļĦ
ä½¥ äºĭ
çİĽæł¼ ä¸½
ä¸Ģ æī¹
è¾ ľ
ä¸ī æĿ¡
è¯¥ å»ºçŃĳ
ç¥ ģ
åİ¿ åĴĮ
å±ŀ èĤīé£ŁæĢ§
åĽĽ ç§į
åıĤ åĨĽ
æĦı æĦ¿
in al
16 ä¸ĸçºª
çĻ» å±±
è´¥ ç»Ļ
å½Ĵ è¿ĺ
éº¦ éĩĳ
æľºæŀĦ çļĦ
èİī ä¸Ŀ
å®īè£ħ åľ¨
6 0å¹´ä»£
å¹´ ä»ħ
åŃ¦ è¯´
åĩº åħ¥
å¤ļ å¹´çļĦ
åīį åİ»
åİĨ æĹ¶
æĮĩ åįĹ
æº ī
æĻ® åĪ©
æĪı éĻ¢
ç¤¼ åłĤ
å¸ĥèİ± æģ©
åĢ¾åĲĳ äºİ
incl ude
ä¸º çķĮ
ä¸Ń çļĦä¸Ģä¸ª
æ¸ £
è½¦ è·¯
è¯¥ é¡¹çĽ®
åħ¨ èº«
ä¸¤ èīĺ
æ¸¸ çİ©
eĠ L
å¹³æĸ¹ èĭ±éĩĮ
ä¸»è¦ģ ä»¥
èĩ´ æķ¬
æ¸© æļĸ
çĽĳ æİ§
7æľĪ 7æĹ¥
è½» æĿ¾
å¥³æĢ§ ä¸º
éĢĥ å¾Ģ
è¡° èĲ½
æĭ¼ éŁ³
æŃ£ç¡® çļĦ
, (
Ġ å¤ĸ
çļĦ æĢ§
çļĦ æĸĩåĮĸ
ä¹ĭ æĹħ
å¹¶ æĬĬ
èĢĮ å·²
è¢« ä¿ĺ
ç¾İ é£Ł
åºľ çŁ¥åºľ
éĺ¿ åĭĴ
ä»İ ä¸Ń
æ¶ ©
æ¢ Ĺ
æīĵ åĩº
åįĥ å¹´
çĮ ¿
ic a
é¢Ħ èµĽ
çļ® åŁĥå°Ķ
å¹¿æĴŃ çĶµè§Ĩ
ä¸īåįģ åĽĽå¹´
åĩ¡ å°Ķ
çİĩä¸º 0
ç¥ŀåľ£ ç½Ĺé©¬å¸ĿåĽ½
å½Ĵç±» ä¸º
Lin ux
èĶ¬ èıľ
çļĦ æĢģåº¦
æĺ¯ ä¸ĸçķĮä¸Ĭ
çĶŁ èĤ²
è¥¿ æ±ī
é¦ĸ éķ¿
åįķ çº¯
éĽĨ æĪĲ
å¥¥ å¼Ĺ
è§£ æŀĲ
ç¦» èģĮ
çłĶç©¶ å®¤
ç¦ı åħĭæĸ¯
ä¿® æĸ¯
å®¢ åľº
å¾Ī åı¯èĥ½
æīĺ åĭĴ
æ°ı çļĦ
å»¶ æľŁ
re am
è¿Ļä¸Ģ çĤ¹
è¯ĳ åĲį
è¹ Ħ
å¤§è§Ħæ¨¡ çļĦ
ç§įåĬł è¯į
3 åħ¬éĩĮ
ã Ħ
ä¸Ń æĸ¹
æĺ¯ ä¸İ
ä¹ĭ äºº
éĩĮ å¸Į
æĸĩ æĸ¯
ç±» æ¡Īä»¶
ä»¶ äºĭ
åı¯ä»¥ è¿½æº¯åĪ°
æ¸ħ éĻ¤
è¿ŀ éĶģ
ä¿® ç¼®
æĺ¯ä¸Ģ æīĢ
ar y
çļĦä¸Ģä¸ª åİ¿
å© ¿
11æľĪ 11æĹ¥
ç©Ĩ å°Ķ
ä¸ºäºº çŁ¥
ç«ŀæĬĢ åľº
å¾Ĺç¥¨ çİĩ
! !
Ġ éĻ¤
Ġ ä¹ĭåĲİ
Ġ II
å¤§ éĥ½ä¼ļ
åĴĮ æĸĩåĮĸ
ä¸Ĭ è¡Į
åĩº åĬ¨
å®¶ éķ¿
ä¸ĭ è®®éĻ¢
å¸Ĥ äººæ°ĳæĶ¿åºľ
èµĽ ä¼ļ
ç¦ ½
åĽĽ å¼º
åı² éĥ½
ä¸ĩ èĭ±éķĳ
ç»Ń çº¦
å¼º å¥¸
è§Ħ å¾ĭ
çĶµå½± ä¸Ń
ä¿Ħ æ¯Ķäºļ
ç¾¤ çļĦ
å¾ģ æĶ¶
éŁ© æ°ĳåĽ½
çī¹åĪ« æĺ¯åľ¨
å¥ī å¤©
äºİ199 1å¹´
åħ¬å¸ĥ çļĦ
æĬ¢ åĬ«
åĽ½åħ± åĨħæĪĺ
æĳ©æīĺ è½¦
åŁĥå¡ŀ ä¿Ħæ¯Ķäºļ
% ãĢģ
P G
R NA
çļĦ æ¼Ķåĩº
åĩº åİ»
åĪĨ åıĳ
ä¸ĭ è®¾
å¼Ģ å¾Ģ
å¹³ æĹ¥
äºļ ä¼¯
ä¸¤ å®¶
åºĶ æĢ¥
æĽ´ å¥½çļĦ
åıĺ ä½ĵ
çĻ½ åŀ©
æĦŁ åħ´è¶£
éŁ³ä¹Ĳ åī§
åº· å¥Īå°Ķ
åºĦ æĿĳ
è½» è½¨
äºĮåįģ ä¸īå¹´
è°Ī è¯Ŀ
åıĹæ¬¢è¿İ çļĦ
å¥¥åħĭè¥¿ å¡Ķå°¼å¤§åĮº
F re
Ġ èĭı
çļĦ çŁ³
çļĦ è®°è½½
æ³ Ĺ
éĩĮ å£«
åĬł è£ħ
æį į
è¿ĳ åį«
ä»ĸä»¬ è®¤ä¸º
è§ģ çļĦ
æ¦ ķ
æľŁéĹ´ çļĦ
ç²¾ éĢī
è¶³çĲĥ åįıä¼ļ
ç»¼åĲĪ æĢ§
åı²èĴĤ èĬ¬
äºļåĪ© æ¡ĳ
å¹¿è¥¿å£® æĹıèĩªæ²»åĮº
O r
åĲİ åĨį
âĢ »
ä½į ç´ł
æľĢ å¥½
é«ĺ åİĭ
å¾Ĺ å¥ĸ
201 1
æĭī èĦ±ç»´äºļ
é¡ ½
ä½Ĩ ä¹Łæľī
ç±³ æĭī
èĭ± ä¹Ŀ
éĺ¿ åħĭ
æŀĹ ä¸Ń
çĽ´ çº¿
åķĨ ä¼ļ
æ®µ æĹ¶éĹ´
å¤± è¯¯
æĻ¯ åĮº
ç¤¼ çī©
æķ£ æĸĩ
ä¸ĢèĪ¬ çļĦ
æļĤ æĹł
åŃĶ æ³°
è·¨ æĢ§åĪ«
åĽ° å¢ĥ
è§Ĥå¯Ł åĪ°
å¡ĳ éĢł
æ°¨ åŁº
ä¸»æīĵ æŃĮ
éĹ¯ åħ¥
é¡¿æ¶ħ èĮ¨åħĭ
3 åı·çº¿
5 åĲį
M 1
çļĦ é£İ
éĥ Ŀ
åħ¬ åŃĲ
ç¾ ģ
èĢĮ åĩº
æĸ° æķĻ
åįİ å·ŀ
å¸¸ çĶ¨çļĦ
çģ« çĦ°
ä½İ åľ°
æĢ»ç»Ł éĢīä¸¾
ç»ĵæĿŁ äºĨ
çĽ®æłĩ æĺ¯
æĭĽ çĶŁ
åĽ° æī°
æĮĳ éĢī
ç»§æī¿ äºĨ
æłĩå¿Ĺ çĿĢ
å½» æĸ¯çī¹
æĬ½ è±¡
æĬ« éľ²
2 30
S L
Ġ å½ĵæĹ¶
åľ¨ å¤ĸ
ä¸İ åĲĮ
è½¦ æ¬¡
ä¸¤ åº¦
å½± éĽĨ
éĩı äº§
12 æľĪ25æĹ¥
å¥¥ å¸ĥ
æł¡ æĸ¹
åĪ« äºº
æĳ ¸
å¸Į ä¼¯
åī¯ æķĻæİĪ
æĶ» è¯»
ä»į æľª
é¢Ħ è¨Ģ
ç¥ĸ åĽ½
ç¥ĸ æ¯į
éªĳ å¸Ī
od e
èŃ¦å¯Ł å±Ģ
è©¹ å§Ĩ
åıĪåĲį BD
å¿½ çķ¥
æĺĶ æĹ¥
P a
ä¸į åŃĺåľ¨
å¯¹ æµģ
ç¾İ çļĦ
ä¸ľ æŃ£
ä½¿ é¦Ĩ
ç§ĳ ç»´å¥ĩ
åįİ ä¸Ń
è§Ĩ éĩİ
æĥħ äºº
eĠ D
èĻ Ķ
æ¸ħ æľ«
åľŁ æľ¨
åŃĻ æĿĥ
é¦ĸæ¬¡ åľ¨
åĩ¯ çī¹
åĲĪå¹¶ èĢĮæĪĲ
ä½įäºİè¯¥åĽ½ åĮĹéĥ¨
å¡« è¯į
éªĳå£« åĽ¢
åĵĪå¸ĥ æĸ¯åł¡
6 æľĪ28æĹ¥
8 Ġ
C o
u la
ä¸º Ġ
ä¸º formula
æľī æĿĥ
ä¸ľ åį°åº¦
èĲ į
åŁº éĥ¨
çº¦ æĹ¦
æĪĸ è®¸
èĴĤ æĸ¯
æŀ¶ é£ŀæľº
æĿ¯ åĨłåĨĽ
çĶŁäº§ æĢ»åĢ¼
åºĶçĶ¨ ç¨ĭåºı
çļĦçī¹ æĢ§
åŃ¤ ç«ĭ
ĠU n
ä¸ĳ éĹ»
å¼Ĺæĭī åŁº
2 æĹ¶
Ġ ç§ĳ
Ġ æ±ī
ä¸Ń åı¶
å¤§ åĲį
20 ä¸ª
æŀ ¯
æ¸ Ń
å¼Ģ æŀª
äºĭ çī©
æİ¥ ç§į
åĮħ è£¹
åı¤ ç½Ĺé©¬
ç¼ĸ è¯ĳ
å¤± åĪ©
å¤± æľĽ
æ°ı æĹı
is c
åıĳè¡¨ å£°æĺİ
è¿Ļæĺ¯ åĽłä¸º
çī§ åľº
æł¼é²ģ åĲīäºļ
èĦĬæ¤İ åĬ¨çī©
- ,
7 åħ¬éĩĮ
b yĠ
Ġ çłĶç©¶
Ġ ä»ĸçļĦ
Ġ æĿ¨
åį ¤
åĴĮ åįĹ
åĴĮ ä¸ī
åĬł çļĦ
æķĻ åıĭ
çģ ¶
åįķ è¡Į
ä»½ åŃĲ
èĩªå·± æĺ¯
éĻĪ åĪĹ
æĤ ¨
æ£Ģ è®¨
éĶ¦ èµĽ
éļıåĲİ åľ¨
è¥¿éĥ¨ çļĦ
åĨ¬ å¤©
åİŁæľ¬ çļĦ
å½¼å¾Ĺ åł¡
å¯¹åºĶ çļĦ
Ġä»¥ä¸ĭ ä¸º
ens is
å¥¥æĸ¯æĽ¼ å¸ĿåĽ½
åį¯ ç§ĳ
ãĢĭ ;
èģ ĭ
è¿Ļ ä»½
å¾Ĺ å¤ļ
åħ¥ è¯»
ç«ĭ éĿ¢
éĶ Į
å°± å¼Ģå§ĭ
ä¼ł åĩº
æĶ¿æ²» å§Ķåĳĺ
æīį æĺ¯
æĪĲåĳĺ çļĦ
çĽĽ è¡Į
ç¼º å¸Ń
ri p
éĵľ éĶ£
èĭĹ æłĹ
åĪĽç«ĭ äºĨ
æĶ¹å»º ä¸º
åħļç»Ħ ä¹¦è®°
B R
C L
e h
n et
Ġ äºĭä»¶
æĹ¥ åľĨ
ä¸į å¤§
è¿Ļ å¯¹
é«ĺ æ¸©
æµ· æĪĺ
å°Ĩ è¿ĳ
å±± ç«Ļ
å¼ı å»ºçŃĳ
éĥ½ ç»Ł
é¦ĸ åĳ¨
æĽ¾ å¤ļæ¬¡
æ¸¸ ä¹Ĳ
æĶ¶ çĽĬ
åº§ æ¤ħ
æĬķ è¯ī
åĬ© æīĭ
å¡ŀ çī¹
çĻ¾ å¼º
ç¤¾ä¼ļ ç§ĳåŃ¦
çķĻ å®Ī
it ion
il la
å·¡ è§Ĩ
åĪĽä½ľ äºĨ
ð« ļ
ç§ĳå¤ļ å°Ķçľģ
5 æľĪ15æĹ¥
æ³ķ åħ¸
èĢĮ åħ¶
èĢĮ åıĹåĪ°
è¢« ç§°ä½ľ
å¤ļ åªĴä½ĵ
æĸĩ åĩŃ
ä½Ĩ ä»ĸä»¬
ä¸¤ ç«¯
å°± å·²
åį¡ æ´Ľ
æĶ¯ éħį
eĠ H
ä¸»è¦ģ æľī
æ³ķåĽ½ çļĦ
åĽ´ æ£ĭ
åħ´ å¥ĭ
è´¹ åĪ©
çľĭ åı°
å½Ĵ åħ¥
éĴŁ æ¥¼
çļĦåľ° ä¸ĭ
äºİ199 3å¹´
Ġ198 4å¹´
çªĹ æĪ·
ç¯®çĲĥ è¿ĲåĬ¨åĳĺ
å¼ĹæľĹ ä»Ģ
åĬłé¾Ļ çľģ
éĺ¿åįľ æĿľ
r u
r en
Ġ ä½ľåĵģ
çļĦ éĥ¨éĺŁ
ä¸Ń æŃ¢
å¤§ åľ°
åĪĨ éļĶ
ç¾ ļ
å¼Ģ åĽ½
æīĢ ç¤º
çĲĥ è¡£
éĤ ¯
å±ŀ åĲį
æ¼Ķ æĬĢ
åĲĳ åħ¬ä¼Ĺ
åıĹ éĤĢ
å¹¿ å¤§
åıĸ æĻ¯
ä¸ĵ çº¿
æİ¨ ä¸¾
ä¼¯ æĺİ
ä¾§ éĿ¢
æĸ¹éĿ¢ åĨĽ
èĪ¬ çļĦ
æ²¿ éĢĶ
æĵįä½ľ ç³»ç»Ł
éĢĨ è½¬
æº¶ äºİ
éŃģ åĮĹ
ç¤¾äº¤ åªĴä½ĵ
æĨ ¾
1 åħ¬éĩĮ
n er
æĺ¯ èĩª
æĸ¯ å¾·
æ³ķ åŃ¦éĻ¢
å¸Ĥ è®®ä¼ļ
æĦ ī
åħ¨ åĬĽ
åİ¿ åĲį
çº¦ 5
åįİ è£Ķ
ç² Ł
ç¬¬äºĮ åĲį
æĶ» ä¸ĭ
å±Ĥ éĿ¢
èŃ¦ å¤ĩ
it al
ä¾Ŀ æ¬¡
yĠ of
è§Ĵèī² æī®æ¼Ķ
çıį å¦®
ä½įäºİè¯¥åĽ½ ä¸ľåįĹéĥ¨
æ°ĶåĢĻ åıĺåĮĸ
è®²è¿° äºĨ
æİ¢éĻ© éĺŁ
æĮīå¯Ł ä½¿
2 ä¸ĩ
J o
v i
« çĹ
æĺ¯ çĶ¨
åĴĮ åĽ½å®¶
å¹¶ åĪĹ
åĨħ å°Ķ
æķĻ å®¤
è·¯ æĸ¯
éĶ ¤
å¼Ģå§ĭ è¿Ľè¡Į
è½¬ åıĺä¸º
å¡Ķ åħĭ
èı ĩ
å±Ĥ æ¬¡
æĿĢ äºĨ
ç®¡çĲĨ å§Ķåĳĺä¼ļ
åĲİæĿ¥ æĪĲä¸º
æ³½ å°Ķ
æŀª åĩ»
äº¤éĢļ éĥ¨
èģļ åĲĪçī©
ç¼º å°ĳ
éĺ´ æĢ§
ç¨ĭåº¦ çļĦ
åĽ½å®ī æ³ķ
; "
çļĦ çĶŁäº§
åħ Ģ
åľ¨ æµ·
åľ¨ åľº
åľ¨ ä¸ĢäºĽ
ä¸Ń åįĹéĥ¨
å¯¹ ä¸ŃåĽ½
æĻ ĥ
çī© ä»¶
ä¸ĸ ä¿Ĺ
å¤ĸ ä¾§
å·´ æ¯Ķ
æĹł åĬĽ
åĵĪ å¯Ĩ
å¡Ķ æĸ¯
åŃĺ æ´»
åĩºçİ° äºİ
el la
7æľĪ 20æĹ¥
ä¸½ çļĦ
èĥĮ åıĽ
è´µ çļĦ
æĬµ å¾¡
èĳ¬ ç¤¼
çŁ¥åĲį åº¦
çĭĻ åĩ»
G N
Ġ ä¸ĸçķĮ
Ġ 25
Ġ è¿Ļç§į
çļĦ è§Ħå®ļ
ä¸ľ éĿ¢
éģĵ åħ·
æ°´ æŀľ
åĪĻ æĺ¯åľ¨
åį¡ è½¦
å¸¦ åĽŀ
è§£ åīĸ
åħŃ åįģ
åįĥ åı¶
æ¢ħ åĪ©
æĻļ ä¼ļ
æ¦Ĥ è¦ģ
å¹³åı° ä¸Ĭ
å±ķç¤º äºĨ
åįĴ äºİ
æİ¢æµĭ åĻ¨
l ic
ä¸Ń åħ´
äºº åıĹä¼¤
è¡Į æĢ§
çĶŁ æ¯į
çĶŁ æ®ĸ
å¹¶ è®¤ä¸º
åħ± çĶ¨
é£ ĺ
ç½Ĺ æĽ¼
åºĶ ä»ĺ
on eĠ
äº¦ ç§°
ar a
æł¹æį® åľ°
å±ŀçļĦ åĬ¨çī©
as e
In st
æłĸæģ¯ äºİ
ç²¾ç¥ŀ çĹħ
ç¯® æĿ¿
é©¬åħĭ è¥¿
æĬķåħ¥ æľįåĬ¡
å±Ĭåħ¨åĽ½ äººå¤§ä»£è¡¨
çģĮ æºī
å¥ł åŁº
æ»¡æ´² åĽ½
éĩİçĶŁ åĬ¨çī©
å°¼æĹ¥ åĪ©äºļ
) ãĢĭ
çļĦ è½¦ç«Ļ
åľ¨ 2006å¹´
ä»¥ èĩ´
æĹ¶ æīĢ
ä¸ª åĽ½å®¶
åĬ¨ çļĦ
ä»£ ä»·
å¦ ¾
å¤© æ°´
æ¯Ķ åĪ©äºļ
æ£ µ
åį¡ æĻ®
éĹ¨ ç¥¨
on ly
)ãĢģ (
é¢Ħ çķĻ
re ss
é¡º ä½į
åħ¼ èģĮ
éģĩ ä¸Ĭ
çĴ §
åĤ¨ å¤ĩ
è´« ç©·
éĻª åĲĮ
è¯ģåĪ¸ äº¤æĺĵæīĢ
æ¤Ń åľĨ
C S
H z
i oĠ
Ã ³
Ġ åĲİç»Ń
çļĦ èĬĤçĽ®
çļĦ è°ĥæŁ¥
çļĦ è¯Ħä»·
çļĦ æĿĳèĲ½
ä¸Ģ åı°
æĺ¯ å½ĵæĹ¶
åĴĮ è°Ĳ
ä¼ļ å¯¹
éķ¿ è½´
å¤ļ éĥ¨
æĸĩ æ¡£
èĪ µ
åı° åĲİ
è¡¨ åĨ³
åŁİ å·´
æĮĩ åĲĳ
æ°Ķ æ°Ľ
7æľĪ 31æĹ¥
åºĨ åħ¸
æ²¹ çĶ»
æķ°éĩı çļĦ
ç¼º çĤ¹
åĪļ åĪļ
è¥¿åĮĹ æİ¥
ç¨³å®ļ æĢ§
æĬ½ çŃ¾
éĽĩ åĳĺ
è¥¿èĹı èĩªæ²»åĮº
ç¡« éħ¸
Ġst yle
orl d
" ãĢģ
n g
åįĹ ç«Ļ
åĮĹ èĩ³
ä½Ĩ è¯¥
æ²» æīĢåľ¨
åĲĦ æĸ¹
çīĩ å°¾
ç¼ĸ ä¸º
å¨ģ åĬĽ
å½ķ åıĸ
çĭ¬ å®¶
è®© ä»ĸä»¬
it e
åĺī åħ´
æĢ»ç»Ł åºľ
æ¦Ĥ çİĩ
åĨĮ å°ģ
èģĶåĲĪåĽ½ æķĻç§ĳæĸĩ
éĢĢå½¹ åĲİ
ä¸ºé¦ĸ çļĦ
äºĮæ°§åĮĸ ç¢³
Ġ å¸ĥ
ä¸Ģ é¢Ĺ
ä¸Ģ å®ļçļĦ
ä¸Ń å±Ĥ
åĴĮ èĭ±åĽ½
åľ° çĭ±
å½ĵ äºĭ
ç§° åħ¶ä¸º
æ¸¯ åºľ
ç¦ı æĸ¯
æ±ī åı£
çĶ° çº³è¥¿
çľŁ çĲĨ
å¯Į è£ķ
åį´ åľ¨
åĬ³ ä¼¦æĸ¯
é©¬æĿ¥ äºļ
Ġ18 6
ä»·åĢ¼ çļĦ
ãĢģãĢģ ãĢģãĢģ
æŀ¢ å¯Ĩ
çļĦéĩįè¦ģ æĢ§
uc k
åĽļ ç¦ģ
äºļé©¬ éĢĬ
Ġ ç»ıè¿ĩ
çļĦ åĪĹè½¦
çļĦ å½¢è±¡
åĲİ ä¾¿
çĲ µ
å¤ļ å°ĳ
åįĹ æľĿ
æĸ° æĺŁ
åħ¨ æĸ°çļĦ
è¿Ĳ è½¬
ç»Ł çŃ¹
éĺ¿ èĤ¯èī²
åį³ ä¾¿
ç¬¬äºĮ ä»£
å®¢ æľº
åĽłä¸º ä»ĸ
æīĺ å¤«
èĢĥ è¯ģ
æ´»åĬ¨ ä¸Ń
çľĭ ä½ľ
å°¾ å·´
ç¼© å°ı
åĪĨç±» æ³ķ
åıįæĺł äºĨ
å¥¥å¼Ĺ æ¶ħ
A c
G u
Ġ åį°åº¦
çļĦ åħ¬åı¸
çļĦ æĪĺæĸĹ
ä¸Ģ é¦ĸ
è· ¤
ä¸ī é¡¹
çŃī éĹ®é¢ĺ
ç«ĭ å®ª
è° ħ
é©¬ åĵĪ
æ°´ éģĵ
åı¸ å¾Ĵ
æĹł ç¼ĺ
æĽ´ å®¹æĺĵ
er g
åķ ¶
å°ĳ æŀĹ
å®¹ è®¸
åī¯ å¸Ĥéķ¿
éĿĴ åĽ¢
åĢŁ çĶ¨
190 2å¹´
ä»įçĦ¶ æĺ¯
åŃ¦èĢħ è®¤ä¸º
æĺ¯ä½įäºİç¾İåĽ½ å¯ĨèĭıéĩĮå·ŀ
189 8å¹´
åĽ½éĺ² éĥ¨éķ¿
çĸı æķ£
çĮĽ çĥĪ
åĩ¶ æīĭ
åĵºä¹³ åĬ¨çī©
å®¦ å®ĺ
å¹¼åĦ¿ åĽŃ
6 åĲį
K i
Ġ æ³¨
ä¸» çļĦ
çŃī æĸ¹éĿ¢
å² ļ
é©¬ åĭĴ
ç«Ļ åĲį
ç¾İåĽ½ æĶ¿åºľ
éĴ ®
ä¸ĵ é¢ĺ
ç¬¬äºĮ å¤§
è¾ĥ æĹ©
åĿĩ åĮĢ
é»ĳ æ´ŀ
éĵģè·¯ çº¿
ä½© éĩĮ
éľį å¤«
å®ĩ å¤ļ
åĲ¬ ä¼Ĺ
æ³¨æĦı çļĦæĺ¯
ep h
back ground
çĸ¼ çĹĽ
Ġcol span
( ãĢĬ
2 5å¹´
9 æľĪ15æĹ¥
Ġ ç»´
ä¸Ģ åĽ½
ä¸į æĥ³
åħ¶ æ¬¡
ä¿ ¸
å¹¶ çĶ¨
åĨĽ ä¸Ń
èĭ Ķ
å£ ¹
ä¸ī èı±
æķĻ æĿĲ
å·¥ åĨľ
è®¾ æ³ķ
éħ ļ
æº ¥
åı¤ å°Ķ
è§£ éĽĩ
è½¬ åĮĸä¸º
çļĦä¸Ģ éĥ¨
å®Ĺ æĹ¨
ä¸´ è¿ĳ
è½» å¾®
Ġ198 2å¹´
æ·ĺæ±° èµĽ
æĪĲäºº æ¸¸æĪı
Ġ åĽĽ
Ġ æīĢæľī
Ġ 9æľĪ
åľ¨ è¢«
åĴ ½
å¥ ļ
ä¸İ æĿİ
åĩº èī²çļĦ
åĵ ī
çī¹ åĬ¡
å¤ļ å¤Ħ
ç«Ļ ä¸º
æ°´ æºĲ
è®¤ å®ļä¸º
æĺŁ çĲĥ
åĪĴ ä¸º
å°Ħ ç¨ĭ
at a
13 3
6æľĪ 10æĹ¥
Ġ198 6å¹´
ap p
å¡ĳ æĸĻ
çİĩé¢Ĩ çļĦ
åºŀ å¤§
èĢķ åľ°
éĻĦåĬł èµĽ
åŃĶæ³° å¤§åĮº
c m
ï ¹
æľī æľŁå¾ĴåĪĳ
æ² Ĥ
æ°ĳ ä¿Ĺ
åĬĽ åĴĮ
çĽ¸ éģĩ
åı¸ éĵİ
ä¸¾ éĩį
æłĩ è¯Ĩ
in s
åĪĿ æ¬¡
äººæ°ĳ åħļ
æķħ å®«
14 ä¸ª
æĹħ é¦Ĩ
çļĦäºº åĳĺ
æķĳ æĬ¤
åĪĨå¸ĥäºİ åįĹç¾İæ´²
ç«ŀäºī å¯¹æīĭ
çļĦåĲĮ åĲį
å¦¥ åįı
éĵģè¾¾å°¼ åı·
æįį åį«
éŃģåĮĹ åħĭ
" âĢĿ
Ġ èµĽ
Ġ åĽłæŃ¤
Ġ è½¨éģĵ
çļĦ æĶ»åĩ»
éĿ ¶
ç¬ ł
åįĹ éŁ©
201 3
é©¬ èĭ±ä¹Ŀ
èĢħ æĺ¯
èµ· æĭħä»»
é¦Ļæ¸¯ å¤§åŃ¦
èĤ² æľī
åľŁ åı¸
çĶ±äºİ åħ¶
åħ¼ å®¹
åĿļ åĨ³
åħĭéĩĮ å¤«
æİĮ æİ§
å¸ĮèħĬ è¯Ń
ç³ĸ å°¿
ä»·åĢ¼ è§Ĥ
ä¹Łå°±æĺ¯ è¯´
åįļè§Ī ä¼ļ
9 æľĪ29æĹ¥
Ġ çº¢
Ġ 4æľĪ
Ġ åķĨä¸ļ
çļĦ éŁ³
åľ¨ 2022å¹´
åľ¨ ä¸Ģæ¬¡
ä¸Ń æĭħä»»
çŁ £
10 ç±³
èİ· éĩĬ
ä½įäºİ åı°æ¹¾
ä¹¦ éĿ¢
åıį æ´¾
æĹ¥æľ¬ å¸ĿåĽ½
ä¾§ å¼ıæľĪåı°
çļĦäºº ç±»
é¡¶ çº§
èĭıèģĶ çļĦ
åħ¬å¸ĥ äºĨ
éĽ¶ ä»¶
åĩłä¹İ æ²¡æľī
é«ĺçº§ ä¸ŃåŃ¦
Ġ195 0å¹´
ä»² è£ģ
6 åħ¬éĩĮ
W TA
d i
Ã ¶
Ñ Ģ
Ġ åĲ´
çļĦ å¼Łå¼Ł
éķ į
æĸ° ä»»
âĢĿ ).
çĶµ èį·
è¯¥ éķĩ
ç«ĭ ä¸º
ä¸ļ ä¸»
å®ī èĳ¬
åıĹ è®¿
é±¼ ç§ĳçļĦåħ¶ä¸Ńä¸Ģç§į
èĹı ä¹¦
çħ§ æĺİ
è½¨ è¿¹
çĸĹ æ³ķ
éĢĥ åĪ°
åį· åħ¥
å¹¼ ç¨ļ
æĭĴç»Ŀ äºĨ
åıĤè°ĭ éĥ¨
åīĬ åĩı
1 19
1 200
äºº éĢī
å¤§ åĴĮ
çĽ Ķ
æĸ° åĩłåĨħäºļ
ä¸ī åįĥ
æľº èº«
åĲĪ è®¡
çģ ¿
æŀĹ æĸ¯
åł Ģ
é² Ī
åħī ç¦Ħ
çĵ¦ åħ¹
æł· å¼ı
çĶ° ä¸Ń
æĽ¼ è°·
13 ä¸ª
è½½ å®¢
è¿Ļä¸ª è¯į
æĹħ éķ¿
æĸŃ è£Ĥ
èĥĮ åĲİ
11æľĪ 30æĹ¥
èį¯ åĵģ
ou l
æİ§åĪ¶ åĻ¨
éĤ® æĬ¥
æ¦ľ é¦ĸ
é¡¾ å®¢
æĮģç»Ń åĪ°
å°ıç»Ħ èµĽ
åĩºèº« äºİ
å¤ĸåĽ½ äºº
å¸ĪèĮĥ åŃ¦éĻ¢
é©¬æĭī æĿ¾
æ·¡æ°´ é±¼
éĵĥ æľ¨
çĽ¸åºĶ çļĦ
æ»¥ çĶ¨
è¯ĨåŃĹ çİĩ
ä¹Ĵä¹ĵ çĲĥ
( âĢľ
7 Ġ
G re
Ġ èį£èªī
çļĦ äºĶ
ä¸Ģ éĿ¢
æĺ¯ ä¸Ń
è¡ ¬
èµ ģ
åŃ¦ çłĶç©¶
åħ¬ å¢ĵ
åĪĨ è¡Į
åĪĨ åºĹ
è¢« çĶ¨äºİ
è¯¥ åĮº
å·¥ åŃ¦éĻ¢
åĲĪ èµĦ
éĢī é¡¹
åŁº åĩĨ
éĥ½ ä»¥
åİŁ å±ŀ
æĻ® æľĹ
å¤ª ä¿Ŀ
15 ä¸ª
åĲĮæĹ¶ åľ¨
ç§» èĩ³
åĨłåĨĽ èģĶèµĽ
æĿ¾ å±±
çĤ® å¼¹
190 1å¹´
åĽ½éĺ² åĨĽ
åıĸæ¶Ī äºĨ
æħ¢ æħ¢
æŀ¢ æľº
å¹´ä»£ ä¸º
oun d
èģĤ ä¼¯
æĺ¯åįĹæŀģæ´² çļĦ
S H
çļĦ æĹ§
ä»ĸ è¡¨ç¤º
çĶ¨ åĵģ
è¿Ļ æĺ¯ä¸Ģä¸ª
å¤© é¹ħ
10 äºº
éĩĳ çļĦ
æŀĹ åĮº
æĴ ķ
æ£ º
ä¸ĩ æ¸¯åħĥ
ä¼Ĭ åĭĴ
ç¼ĸ çºĤ
çİĩ åħµ
åī¯ å±Ģéķ¿
åĲĮå¹´ 7æľĪ
äº¿ æ¸¯åħĥ
è¿ģ å±ħ
åģĩ æľŁ
æľºåľº çļĦ
å¹¼ å¹´
ov e
éĺ¿å°Ķåįĳæĸ¯ å¤§åĮº
ç»° åı·
e i
Ġ ä¸Ńåįİæ°ĳåĽ½
Ġ åľ°åĲį
çļĦ çĭ¬ç«ĭ
çĲ ħ
è¥¿ è´¡
åįĹ æ´ĭ
èĩ³ åħĥ
äºĮ æľŁ
éĺ¿ æł¼
é¸ ł
ä¸Ńå¤® å§Ķåĳĺ
éĤ¦ èģĶ
è®¸å¤ļ äºº
12æľĪ 8æĹ¥
æĺ¥ å¤©
èĪŀ æĽ²
å°½ç®¡ å¦ĤæŃ¤
ä½įäºİè¯¥åĽ½ ä¸Ńéĥ¨
æĲľ å¯»
è¡° éĢĢ
éªļ ä¹±
æĳĶ è·¤
çº¢åįģåŃĹ ä¼ļ
K P
Ġ ä¸įè¿ĩ
åľ¨ æİ¥åıĹ
ä¸Ģ ä½ĵ
çĶŁ ä¸ĭ
èĢĮ æĪĲä¸º
å¤© åĨħ
æł¼ çº³
æŃ£ åĢ¼
å¯¼ æķ°
an s
å²Ľ åĴĮ
å¯Ĩ çļĦ
åº· å¤į
æĹħ ç¨ĭ
ĠçĶŁ æĢģ
Ġ198 7å¹´
å¥ĳ çº¦
åŁºåĽł ç»Ħ
çĹķ è¿¹
åı²éĥ½ åįİ
H C
Ġ ä¾ĭå¦Ĥ
ä¸º çºªå¿µ
èĢĮ æĿ¥çļĦ
å¼Ģ æĶ¯
ä¸ľ æ¬§
ä»£ å°Ķ
é«ĺ æ¸ħ
ç¥ Ĥ
æľŁ å¾ħ
å¤ĸ æĿ¥
è·¯ çļĦ
ç§ĳ çī¹
åħ³ è¥¿
å¤Ħ åľ¨
åħļ éŃģ
åĿĩ çĶ±
16 ä¸ª
çİĩ éĥ¨
å¾Ī å¥½
çĿĢ éĻĨ
èĪ¹ éķ¿
è¿Ľåħ¥ çĽ´è·¯
12æľĪ 30æĹ¥
èĴĤ äºļ
8æľĪ 4æĹ¥
è´µ å¦ĥ
åľĨ æŁ±
è¯ī æ±Ĥ
æ±½ æ²¹
Ġ198 3å¹´
Ġ194 6å¹´
å¾Īå¿« å°±
èĬŃ èķ¾
col or
5 0å¹´
7 æľĪ15æĹ¥
Ġ çī¹
ä¸Ģ éģĵ
æĺ¯ æĿ¥èĩª
æľī è¶£
æ¯ ĵ
åĪ° åľº
è¿Ļ å°±æĺ¯
ä¹Ł ä¸º
è¦ģ åľ¨
åİŁ å£°
æıĲ åıĸ
åĪĻ è¡¨ç¤º
åĲī å£«
å½±åĵį åĬĽçļĦ
ç»ıæµİ åıĳå±ķ
è¯· æĦ¿
æĪĺäºī çĪĨåıĳ
ĠC ol
éĢģ ç»Ļ
å®ĮæĪĲ çļĦ
æĭį åįĸ
un t
å°ıè¯´ å®¶
å¿ł è¯ļ
åĢĴ å¡Į
Ġ198 5å¹´
æĸ¯ç§ĳ çī¹
åĲŀ å¹¶
è¡ĮæĶ¿ä¸Ńå¿ĥ ä¸º
tern ational
I s
J am
S D
çļĦ 1
å¹´ å¹¼
æĬ ¨
ä¸ĭ éĿ¢
æµ· é»ĺ
å»º çļĦ
è¿Ľ åº¦
æĢ» éĺŁ
èµ· çļĦ
å¡ ¾
æ³¢ åĬ¨
å¡Ķ åĪ©
èĲ¨ çĵ¦
èĩ´ ä»ķ
è¯º äºļ
5æľĪ 31æĹ¥
é©» åĨĽ
åŃ¦çĶŁ çļĦ
æĿ¾ æ±Ł
es sĠ
æŁĲ ä¸Ģ
æįķ æįī
èİī äºļ
æį· åħĭæĸ¯
è½¬ç§» èĩ³
éļĭ æľĿ
é Ĭ
ä¸Ń è¶ħ
ä¸Ń åŃ¦æł¡
éĢ Ĺ
åĴĮ ä»ĸ
éĹ °
æĸ¯ æĭī
çĶ¨ æ³ķ
å®¶ èĩ£
æľ¬ é±¼
å½ĵ åľº
é©¬ å£«
æ³¢ å¸Į
ä¾ĭ è¡Į
éĻ¤ å¤ĸ
äº² å±ŀ
è¶Ĭ è¿ĩ
ä»ħ åŃĺ
åģľ æ³Ĭ
1æľĪ 31æĹ¥
ç£ ¡
åĪ» æľī
ç©¿ çĿĢ
ä¸ľéĥ¨ çļĦ
æıĴ åħ¥
åĪĩå°Ķ å°¼
æľīçº¿ çĶµè§Ĩ
é¢Ĩè¡Ķ ä¸»æ¼Ķ
æ¸´ æľĽ
only include
2 åħ¬éĩĮ
4 æľĪ28æĹ¥
çļĦ åĬĽéĩı
æĺ Ĭ
åľ¨ å·´é»İ
ä¸Ń åįĹ
æ¸ ¥
éĽ ¯
åĬł åĨķ
å² ±
å¥³ åıĭ
12 æľĪ15æĹ¥
åĲĦ å¼ı
çłĶ è®¨
åįı åĲĮ
æĸ½ æĶ¿
çļĩ å®«
å§Ķåĳĺä¼ļ ä¸»ä»»
åĺ ±
å¼¹ æĢ§
çł´ è£Ĥ
æ°¸ æģĴ
æ²¿ çĿĢ
èĩªçĶ± å¼ı
ou s
å¢ŀåĬł åĪ°
å°ıæĹ¶ åĲİ
åĬ¨çī© åĽŃ
æ·· è¡Ģ
åģ¥ èº«
æĶ¹éĿ© å¼ĢæĶ¾
æĬ¥éģĵ ç§°
æĹħæ¸¸ ä¸ļ
çĺ ¦
è®¸åı¯ è¯ģ
çĪª åĵĩ
rit ic
éĢłèĪ¹ åİĤ
2019åĨłçĬ¶çĹħæ¯ĴçĹħ çĸ«æĥħ
èĶĵ å»¶
æį·åħĭæĸ¯ æ´Ľ
+ +
7 æĹ¶
P ar
Ġ ä¸į
çļ ĵ
æľī ä¸įå°ĳ
æĹ¥ æĻ·
åĲİ ä»»
ä¹ĭ åŃĻ
åīį ä½ľ
é©¬ èµĽ
éĩį åĪĽ
æİ¥ è¿ŀ
æīĭ åĨĮ
åį¡ æĸ¯çī¹
åįĬ éĥ¨
åıĮ è¾¹
æł¹æį® 2010å¹´ç¾İåĽ½äººåı£æĻ®æŁ¥
åĵ¥ çī¹
åİĭ è¿«
è¶³çĲĥ éĶ¦æłĩèµĽ
æľīä¸Ģ å®ļ
åĲ¸ è¡Ģ
2011å¹´ 12æľĪ31æĹ¥
çļĦæĥħ å½¢
åĻ¶ å°Ķ
yp e
C on
D e
I ON
O P
çļĦ æľĢåĲİ
åľ¨ è¿Ļä¸Ģ
ä¸Ń è¡¨ç¤º
âĢ ¢
æĶ¿ äºĭ
æĸ° æĪĲç«ĭçļĦ
æĸ° æ³½è¥¿
è¿Ľ åĩº
ç§ĳ éķ¿
æ¯Ķ çī¹
æ°´ æĻ¶
éª Ĩ
é£İ äºĳ
åıª å¾Ĺ
åħ¶ä¸Ń çĶ·
åĵĪ æł¹
åĭĴ å§Ĩ
åĨĻ ä¿¡
ç¡® åĪĩ
æĵį æİ§
åĬª å°Ķ
å¢¨ å°Ķ
ä½įäºİè¯¥åĽ½ åįĹéĥ¨
è´¯ ç©¿
éĺ¿æĭīä¼¯ è¯Ń
JR ä¸ľæĹ¥æľ¬
ç½Ĺå§Ĩ å°¼
åĮħæĭ¬ä»¥ä¸ĭ çī©ç§į
åŀĦ æĸŃ
æĬ¨ åĩ»
1 ä¸ĩ
7 æľĪ16æĹ¥
S m
X box
çļĦ è½¦
çļĦ äºĮ
çļĦ èĮĥåĽ´
çļĦ æĿĥåĬĽ
åĪ ¹
åľ¨ çº½çº¦
è¥¿ æ¬§
æīĢ ä½ľ
çĲĨ ä¼ļ
æĢ» æķĻç»ĥ
èµ· åħµ
çº¦ åįł
åħļ æł¡
çĿ ¦
æĶ¶ ç¼©
ä¸»è¦ģ çĶ¨äºİ
ä¸»è¦ģ åĪĨå¸ĥäºİ
åħŃ çĶ²
æĪı æĽ²
æİ¨ æĸŃ
è¯º ç»´å¥ĩ
èĩªå·± åľ¨
al d
æī¹ åħ¨åĽ½éĩįçĤ¹æĸĩçī©ä¿ĿæĬ¤åįķä½į
åºĦ ä¸ºéĤ»
å¿ħ çĦ¶
èģĶåĲĪ åı°é£İèŃ¦æĬ¥
åĲ¦ å®ļ
éĢĥ è·ĳ
è¾Ľ åŁº
å¯» å¸¸
å½© èī²
æĩ ĭ
é©³ åĽŀ
æĸ¯å¨ģ å¤«çī¹
èģĶåĲĪåı°é£İèŃ¦æĬ¥ ä¸Ńå¿ĥ
D D
Ġ äººçī©
åľ¨ åħ¶ä»ĸ
å¤§ èĭ±
æł ħ
åŃ¦ åĴĮ
ä»ĸ å¼Ģå§ĭ
ä¸į æĺĵ
æĸ¹ ç´¢
åıĬ é¦Ļæ¸¯
åĬł çī¹
é©¬ åı¯
ä¸¤ éĥ¨
åľ£ åľ°
è®© å¥¹
éº¦ åı¯
éĽħ åħĭ
çĽĸ å°Ķ
èģļ åĲĪ
ä¼ĳ åħ»
è¾½ ä¸ľ
äººåı£æķ°éĩı ä¸º
æĢª åħ½
éĵº è®¾
ä¸Ń è¥¿éĥ¨
åĴĮ 2
ä¸İ ç¤¾ä¼ļ
äºļ å¤ª
æľº åŀĭ
èĤ ļ
åŁº å±Ĥ
åĪĿ éĢī
èĲ½ åħ¥
è½¦ç«Ļ å¤§æ¥¼
åºķ çĽĺ
ä»ģ å®Ĺ
ç¼ĺ æķħ
çŁ¿ ä¸ļ
æĹº è§Ĵ
ä¾¦ æŁ¥
æ±Ŀ æĭī
çħ½ åĬ¨
H e
i esĠ
k e
Ġ æĪĲç«ĭ
Ġ èİ«
çļĦ ä¾ĭåŃĲ
æĸ §
åľ¨ ä¸ľäº¬
åĽ½ èĲ¥
åĮĹ ä¸İ
æķĻ æ´¾
å¸ĥ æŀĹ
ä¸ļ çķĮ
çĽ¸ å®¹
åĽĽ åĨĽ
éĴ Ŀ
çŁ³ çģ°
åķĨ èĪ¹
åľŁ åºĵ
ä¼¯ åĪ©
èĢģ å¹´
çīĻ ä¹°
æ»¡ åĪĨ
éĥ¨éĺŁ çļĦ
éĢīæĭ© äºĨ
ç¿¼ é¾Ļ
èĥ½å¤Ł åľ¨
æĸ¯å¡Ķ å¤«
è¿Ĳè½½ çģ«ç®Ń
å¼ĹæĭīåŁº ç±³å°Ķ
ç³ĸå°¿ çĹħ
M y
N HK
T P
Ġ åĲĮå¹´
çļĦ åı¤
çļĦ ç³»ç»Ł
åľ¨ è¿Ļç§į
æľī è¿ĩ
ä»¥ çºªå¿µ
ä¹ĭ å£°
é«ĺ åĬłç´¢
äºļ å°Ķ
æµ· åĽł
å±± åŁİ
æĹł æĦı
or eĠ
åĲī åĪ©
èĲ½ åľ¨
åıĳçĶŁ äºİ
ä¿Ħç½Ĺæĸ¯ èģĶéĤ¦
il ver
åĩ¯ æĸĩ
äºİ199 0å¹´
äº® çļĦ
æĲľ éĽĨ
æ¶Ĥ è£ħ
C Ġ
h am
t o
Ġ x
çļĦ æĦıè§ģ
æľī äººåı£
åĲİ äºº
ä¸ª äººçļĦ
ä¸į è¢«
æĽ Ļ
çī¹ å·¥
åı¯ ä½ľä¸º
æĸ° å¹²çº¿
ä¸ľ èİŀ
åı° è¯Ń
ç¥ º
æĭī åĽ¾
éĥ½ åŁİ
å·´ é¡¿
åįķ äºº
æľĿ æĹ¥
ç¥ŀ ç¥ĩ
åħī å¹´
ar yĠ
ç¬¬äºĮ å±Ĭ
åĦ¿ å²Ľ
ä¹Ŀ å·´
åĨł åĲį
ç¤¾ä¼ļ åħļ
ä½İ æ¸©
é©» åįİ
èĥ¡ å®ī
è¾ħ å¯¼
è±ª æ£®
åĳ¨å¹´ çºªå¿µ
åºŀ å¤§çļĦ
9 æľĪ25æĹ¥
r al
Ġ åĳ¨
Ġ è´Ŀ
çļĦ èĩªçĶ±
ä¸Ģ ä¸ĩ
ä¸Ń äºļ
ä¸Ĭ ä¹¦
ä¸į äºĨ
åıĳ éħµ
èĥ ¤
åĮĹ ç«Ļ
è° ¬
æ¬¡ åħ¨åĽ½
èĤ ĭ
ç»Ł é¢Ĩ
åį¡ éĢļ
éĹ¨ ä¸ĭ
çĽ´ è¾¾
202 3
åī¯ æł¡éķ¿
çĻ» åŁº
ä½ı éĻ¢
ç´¢ çĵ¦
5æľĪ 10æĹ¥
is ion
éŁ¦ æĸ¯
è´§ è½¦
éļıåĲİ çļĦ
èķ ī
éĻ¶ çĵ·
åħĭç½Ĺ åŁĥ
æľīæīĢ ä¸įåĲĮ
æĭ¼ åĨĻ
å¸¸åĬ¡ å§Ķåĳĺä¼ļ
åĺīä¹ī åİ¿
åħĭéĩĮæĸ¯èĴĤ å®ī
Twit ter
åįķè¡Į æľ¬
Ġ èĲ¨
çļĦ åĨłåĨĽ
ä¸Ń åĴĮ
æĺ¯ æł¹æį®
æĺ¯ ç§ĺé²ģ
å¤§ æķĻåłĤ
åĴĮ çº¦
éĺ ī
åĩº å®¶
ä¸į è®¾
è¥¿ è¥¿éĩĮ
å¯¹ ä»ĺ
âĢĿ (),
çİ° å½¹
è¦ģ ä¹Ī
æ¼Ķ åĩºçļĦ
åĲĳ ä¸Ĭ
æĽ¾ åıĤä¸İ
ä¸»è¦ģ åľ¨
æĪ· å¤ĸ
å°½ å¿«
äºĮåįģ åĽĽå¹´
å¹³åĿĩ éĻįéĽ¨éĩı
ç¬Ķ è®°
åİ¿çļĦä¸Ģä¸ª åŁİéķĩ
å¿½ è§Ĩ
æĺİæĺŁ èµĽ
æ±ķ å¤´
åħĭç½ĹåŁĥ è¥¿äºļ
" -
M D
r yĠ
â ħ
è® ³
å¤§ èµı
éĥ ¸
ä¼ļ æĪĺ
çĶ¨ æ°´
é© ¼
é©¬ åħĭæĸ¯
åħ¨ çľģ
10 æľĪ15æĹ¥
åĽĽ åĽ½
æ²³ å·Ŀ
å²Ľ ä¸ĬçļĦ
å±Ģ éĽĨåĽ¢
åįĬ éķ¿è½´
é±¼ äºļçĽ®
åĩł æ¬¡
çľĭ æĿ¥
ç«ł èĬĤ
8æľĪ 10æĹ¥
è¶³çĲĥ çĶ²çº§èģĶèµĽ
æĳ© æĵ¦
ç»ĵæŀĦ çļĦ
æľīä¸Ģ æĿ¡
çĮ® ç»Ļ
ä½ł çļĦ
æ±ĩ æĬ¥
2001å¹´ æĢ»äººåı£
æµ·æĭĶé«ĺåº¦ 1
åĨ· æĪĺ
åįĹäº¬ å¸Ĥ
åĲĮæł· çļĦ
ĠE x
å¸ĥé²ģ åħĭ
ä½ıå®ħ åĮº
èµ¶ åĪ°
æĳĦå½± å¸Ī
å°¼åħĭ æĿ¾
å¼¯ éģĵ
éĺĲ è¿°
Ġæľ¬å±ŀ åĮħæĭ¬ä»¥ä¸ĭçī©ç§į
2 çļĦ
F i
W illiam
e z
æĺ¯ åŁºäºİ
ä¸į å®ī
è¢« äºº
ä¸ľ å²¸
å¦ Ħ
200 9
ä½Ĩ å¥¹
æ¯Ķ æĸ¯
10 æľĪ28æĹ¥
çº³ ç±³
åı¯ä»¥ å¾ĹåĪ°
æĺ¯ä¸Ģ é¡¹
åħ« è¾¾
çĪ± ä¸½ä¸Ŀ
æŀģ å¤§çļĦ
æĸĩåĮĸ åĴĮ
å·¦ å²¸
åģļ åĩºäºĨ
3æľĪ 18æĹ¥
åĩ¯ æĹĭ
å·¥ä¸ļ åĮº
äºļæ´² è¿ĲåĬ¨ä¼ļ
åħĪåĲİ åľ¨
é¡µ å²©
æī§å¯¼ çļĦ
åľ°éĿ¢ è½¦ç«Ļ
åħ¬å®ī å±Ģ
èµ«å°Ķ è¾ĽåŁº
åº¶ åĲīå£«
åĲĪåĶ± åĽ¢
å®ĩå¤ļ çĶ°
4 åħ¬éĩĮ
Ġ åĨħ
æľī æľºä¼ļ
åĲİ çĶ±
åĲİ æĪĲä¸º
ä¸į éĶĻ
æ´ ½
è¢« å¹¿æ³Ľ
åħĭ åĭĴ
åĪ© å°Ķ
ä½ĵ åŃĹ
é©¬ æŀĹ
éħ ª
å°ĳ åį¿
èĲ¥ åĪ©
6æľĪ 20æĹ¥
è°¢ å°Ķçľģ
ri m
åıĳçĶµ æľº
æĬĹè®® æ´»åĬ¨
é¸¦ çīĩ
æĶ¾å°Ħ æĢ§
ISTAT ä»£çłģä¸º0
3 æľĪ15æĹ¥
R o
l an
Ġ ä»ĸåľ¨
çļĦ éĤ®å±Ģ
å¤§ æ¦Ĥ
æľī åĬŁ
ä¼ļ äº§çĶŁ
ç¬¬ 14
å¹³ æģ¯
å¤ĸ ç§ĳ
åħ± éĿĴåĽ¢
åħ¨ æ¸¯
è§Ĩ ä½ľ
ä¼ł åĬ¨
ä¼ł éĹ»
çĿ ¹
ä¼Ĭ çī¹
è½¬ è®©
æĬķ èº«
åįĩ èĩ³
åĲī æĭī
åĲī ç±³
çĻ¾ èĢģ
çľŁ ç©º
æīį å¼Ģå§ĭ
å¯¼èĩ´ çļĦ
åħ» æ®ĸ
27 0
çļĦåľ° çĤ¹
çŃ¹ å»º
äºİ198 5å¹´
åİĦ å°Ķçľģ
åħ¬åĳĬ çīĮ
çİĽæł¼ä¸½ çī¹
1 åº§
F L
U E
t ain
Ġ ä¸»
ãĢ ķ
åĽ½ èģĶ
å¤§ åľ°éľĩ
éĻ ¡
ä¼ļ é¦Ĩ
åıĳ æºĲäºİ
ä¹ĭ æĺŁ
ç¬¬ 16
è¿Ļ å¼łä¸ĵè¾ĳ
æĸ° é²ľ
å»º äº¤
çº¿ ç´¢
å®ī å¤§çķ¥
æł¼ ä¼¦
æ°´ æīĭ
å±ŀ ä¸ĭçļĦä¸Ģä¸ª
ç² ª
åı¯ä»¥ å°Ĩ
å¼ķ è¿°
åŃĺ æĶ¾
ä»£è¡¨ çļĦ
é»Ħ åŁĶ
éĺ² çĸ«
æ·± æµ·
åĩł ä½į
éŁ³ä¹Ĳ åŃ¦éĻ¢
çĳŀ å®ī
éĢĢ ä¼į
ç¬¬ä¸ī çĶ²
å¼Ģåıĳ èĢħ
çĲĥéĺŁ çļĦ
èĥ¡ åĲĮ
æī§è¡Į å®ĺ
æ±¤ çİĽ
189 5å¹´
çŀ »
åĹ ľ
ç±»åŀĭ ä¸º
ä¹¡è¯ķ ä¸¾äºº
æĿĢæŃ» äºĨ
åħ¶ä¸ŃçĶ·æĢ§ ä¸º
éĩİæĪĺ åĨĽ
æ³¢å¸Į ç±³äºļ
çĻ¾èĢģ æ±ĩ
3 ä¸ĩ
Ġ åĨħå®¹
çļĦ åħ³éĶ®
åľ¨ å®¶
æľī è½¨çĶµè½¦
åĲİ ä¸º
ãĢį (),
çĶµ æĬ¥
200 0å¹´ä»£
çº¦ 6
åįİ å¾·
åĢ ļ
æĹł ç½ª
å¤§åŃ¦ åĴĮ
åŃĹ æł·
å®ĥ ä¸İ
ä¿® è¡Į
å®¢ è§Ĥ
å½Ĵ å±ŀ
çŃ¾ åĲį
åĪ» æĦı
åĨĽéĺŁ çļĦ
éĺ´ å½±
ä¿ĥ æĪĲ
ä¼´ éļı
èĳ¡èĲĦ éħĴ
è¿Ŀ èĥĮ
çĺ Ł
çĮĽ èĻİ
æ£Ģå¯Ł éĻ¢
æ£ī èĬ±
3 æ¬¡
4 åı·çº¿
C A
N S
çļĦ èĬ±
çļĦ æĥ³æ³ķ
ãĢ Ķ
åĲ Ł
ä¸Ń è·¯
è¥¿ å°¼
èģ Ĩ
åĮĹ å²¸
æµ· åľ°
ç§į ç¾¤
ç±³ çī¹éĩĮ
éĩį çĶ³
å¯¼ èĪª
æ²³ æ°´
çļĦä¸Ģ å¤Ħ
çĪ± åĽł
å®Ī åį«
12æľĪ 18æĹ¥
7æľĪ 18æĹ¥
åį´ æĺ¯
éĤ® è½®
ç»¿ åħļ
Ġ197 9å¹´
åĸ· å°Ħ
ä¸īéĥ¨ æĽ²
Ġè¯¥åľ° 2001å¹´æĢ»äººåı£
å¸Įä¼¯ æĿ¥
; )
M an
Ġ åĭĴ
çļĦ çļĦ
åľ¨ 2003å¹´
åŃ¦ éĥ¨
ä¸į ç¡®å®ļ
è¥¿ ä¸´
èĩª åį«
æĸ° å¹´
å¹³ å£¤
éģĵ æł¼æĭīæĸ¯
å·¥ äºĭ
åĲĪ ä¼Ļ
æĢ§ ä¸İ
åĮĸ å¦Ĩ
æķ° æľĪ
èģĶ ä¼ļ
æģ ¼
ä¸¤ éĥ¨åĪĨ
æŃ£ å¦Ĥ
åĽĽ æ¬¡
ç»´ å¸Į
æīĭ æĮĩ
æīĭ ç¨¿
åħī ç¢Ł
çĳ Ľ
åĽ½éĻħ è¶³èģĶ
åĨĻ çľŁ
æ¶Ī åĮĸ
ç¬¬ä¸ī ä¸ª
6æľĪ 12æĹ¥
èĥĮ éĥ¨
ç½ª çĬ¯
è´¢ åĽ¢
äºĮåįģ äºĶå¹´
æķ£ å¸ĥ
æĭľ è®¿
100 ä¸ĩ
çĤ® åı°
éģĩ è§ģ
éľĩ æĥĬ
éĵģéģĵ åħµ
éĽĨä¸Ń èĲ¥
æµ·å²¸ çº¿
æıŃ ç¤º
ä¼ª éĢł
éĤ»è¿ĳ çļĦ
ä¹Įæĭī åľŃ
çĽ´è¾ĸ å¸Ĥ
6å²ģ äººåı£
èģĶåĲĪåĽ½æķĻç§ĳæĸĩ ç»Ħç»ĩ
8 æľĪ24æĹ¥
c enter
Ġ çİ°æĹ¶
çļĦ æķĻèĤ²
åľ¨ ä¸ī
ä»¥ èĩ³
åľ° ä¸»
æ± Ĳ
ä¸ľ èĩ³
è¿Ľ äºĨ
èµĽ éģĵ
ç© ¹
å¸ĥ ä»Ģ
ç±³ çī¹
éĩĳ æĹ¥
çİĭ åºľ
éĹ¨ åı£
in eĠ
ç¥ŀ æĪ·
åı¯ä»¥ æĺ¯
åī¯ ä¼ļéķ¿
å£° èªī
at ch
æīį è¢«
åĪ¶ä½ľ äºĨ
ç¬¬ä¸ī åĲį
æĶ¯æĮģ çļĦ
8æľĪ 8æĹ¥
50 ä¸ĩ
æīİ å°Ķ
ç¯ĩ æĸĩç«ł
è¾Ľ äº¥
çº¸ å¸ģ
æ®ĭ çķĻ
è¯Ħè®º åĳĺ
ä¸ªæľĪ çļĦ
æĭĵ æīĳ
æıŃ å¹ķ
Mar k
æ©Ħæ¦Ħ çĲĥ
a ĠS
Ġ ä½Ĩæĺ¯
çļĦ æľįåĬ¡
çļĦ æĬ¥åĳĬ
çļĦ æī¹è¯Ħ
åľ¨ è¿ĩåİ»
è¯ ¬
äºº å¿ĥ
æİ Ģ
é¦ ¨
èĩ³ 5
ä¸ĸ åĩ¯
çľģ æĶ¿åºľ
ä¸¤ åľº
ç¼ ļ
æł¼ å±Ģ
çİĭ æ°ı
åı² è¯Ĺ
ç¥ŀ å¥Ī
è®° è¿°
æ²¡ èĥ½
en Ġ
åī¯ æĢ»çĲĨ
åı¯èĥ½ æľī
æĦŁ åºĶ
å§Ķåĳĺä¼ļ åī¯ä¸»ä»»
ç®Ģ ç§°ä¸º
10æľĪ 31æĹ¥
8æľĪ 5æĹ¥
è®¿ è°Ī
æĸĩåŃ¦ å¥ĸ
äºļæ´² çĶµè§Ĩ
æĭĽ æĶ¶
æµ¦ ä¸ľ
ov er
åĥ§ ä¾£
åĤį æĻļ
çĪ±åĽł æĸ¯åĿ¦
1 æľĪ15æĹ¥
4 000
Ġ åĲĮæĹ¶
çļĦ äºĭä»¶
çļĦ è¯ģæį®
ç» ¸
åľ¨ 2
äºİ 2
ä¸İ ä¸Ĭ
æĸ¹ æµİ
éĩĮ å°¼
äºļ çī¹åħ°
å±± å³°
200 7
ç§ĳ çĽ®
æĢ» åĨłåĨĽ
é¦ĸ æĶ¯
æµģ æ´¾
é¢Ĩ ä¸»
åł °
åĩ» åĩº
ç¦ı å·ŀå¸Ĥ
åħ« è·¯åĨĽ
æĽ¼ æģ©
re m
1æľĪ 20æĹ¥
åĽº å®ļçļĦ
éĢĥ èµ°
è§Ħæ¨¡ æľĢå¤§çļĦ
è¿¹ è±¡
Ġ194 8å¹´
éģį å¸ĥ
åıĽ åĨĽ
ä½įäºİæ³ķåĽ½ å¤§ä¸ľéĥ¨å¤§åĮº
Ch ar
æ±¡ æ°´
çŃ¾ç½² äºĨ
å¿ħè¦ģ çļĦ
Ġå¤ĸéĥ¨ è¿ŀç»ĵ
è½¦è·¯ å£«
è¿Ľåħ¥çĽ´è·¯ åĲİ
3 æľĪ26æĹ¥
m p
Ġ å¾·åĽ½
Ġ å°ıè¡ĮæĺŁ
åľ¨ åĲĮä¸Ģ
æĪ į
è¢ į
èĥ ĸ
ä¹ĭ ä¹ħ
çĶ± åİŁ
åĲĮ è¿Ľå£«åĩºèº«
åı¯ è¿½æº¯èĩ³
ä¸ľ ä¸İ
äºĭ é¡¹
ä¹Ł ä»¥
æķĻ å£«
ä¸ĸ è¢Ń
çľģ å§Ķ
åŁİ ä¸Ń
ç»Ł å¸ħ
çº³ ç¨İ
è§£ è¯»
ç¬¬äºĮ çĻ¾
éĽ· å¾·
éº ¾
éĻĪ è¿°
æĲ ı
12æľĪ 20æĹ¥
7æľĪ 10æĹ¥
é¡º å¤©åºľ
ãĥ Ī
èģĮä¸ļ è¶³çĲĥ
ç§Ł èµģ
é¤Ĳ é¦Ĩ
ç¤¾ä¼ļä¸»ä¹ī åħ±åĴĮåĽ½
æĪĲå¹´ äºº
ç»ĪçĤ¹ ç«Ļ
åĲįäºº åłĤ
åŃŁåĬłæĭī åĽ½
æ¸¤ æµ·
7 æľĪ28æĹ¥
8 åĲį
L i
r is
ç į
Ġ å¼Ģåıĳ
åľ¨ ä»»
åľ¨ 2004å¹´
ä¸Ń åħ¨
åĽ½ æŃĮ
æķ Ľ
ä»¥ ç¡®ä¿Ŀ
å®¶ åº·
èĢĮ ä¸İ
ä¸ĭ å±Ĥ
æīĢ è¿°
è½¦ éĹ¨
åħ¥ åľº
åı¸ åı¸éķ¿
å·´ æŀĹ
åı² ä»¥æĿ¥
éķĩ çļĦ
å¤ª å¤ļ
çļĦä¸Ģ åĪĩ
ä¸ĸçķĮ åĨłåĨĽ
å®¹ åĻ¨
èĪ° è½½
åıĮ å±Ĥ
å¯Ł éĻ¢
æ¥¼ é«ĺ
åį¢ åį¡
11æľĪ 8æĹ¥
ç½² éķ¿
ä¹° ä¸ĭ
æĶ¹åıĺ äºĨ
åįģåŃĹ åĨĽ
èĲ¤ å¹ķ
æ®ĭçĸ¾äºº å¥¥æŀĹåĮ¹åħĭè¿ĲåĬ¨ä¼ļ
9 åı·
: //
é ĳ
å¹´ åĪĿ
ä¸º ä¾ĭ
ä¸Ģ ä»£
äºİ åħ¶
æ¯ ¯
å¹¶ èİ·
éķ¿ éĢĶ
æµ· åı£
çĶµ åİĤ
çº¿ è½¦ç«Ļ
æģ ¤
æģ ª
ä¸¤ åĳ¨
å§ĭ åıĳ
åħļ åĽ¢
ä¸¾ åĬ¨
åŃ£ é£İ
çĻ½ å¤©
æļ ±
ä¼¯ éĩĮ
åĳĬ ç»Ī
8æľĪ 6æĹ¥
æļ´ é£İ
ac eĠ
åĩ¯ å°Ķ
ä½© æĪ´
åĲ¬ è¯´
å°ıè¡ĮæĺŁ å¸¦
ä¾į ä¸ĭ
ev er
æ·® åįĹ
å§Ķä»» ä¸º
P er
i y
Ġ è¢«
Ġ æł¡
Ġ åŁĥ
çļĦ é£İæł¼
20 3
çĽ İ
åħĭ åĴĮ
åįĹ åįİ
ä¸ľ ç«Ļ
åĨħ è®¾æľī
ä¸ī éĹ´
çİ° æľīçļĦ
æľŁ éĻĲ
åŁº äºļ
é¦ĸ èĦĳ
ç±» åĬ¨çī©
æİ¨ ç§»
ä½İ åİĭ
æĥ³ åĥı
è¿ľ ç¨ĭ
å¹² éģĵ
4æľĪ 18æĹ¥
åĩ¯ å°Ķçī¹
ãĢį( ).
åģ¶ çĦ¶
çģ¯ å¡Ķ
è¾¾æĪĲ åįıè®®
ä¼ĺç§Ģ çļĦ
ç½Ĺä¼¯ éĢĬ
å½±è¯Ħ äºº
éĤ¯ éĥ¸
4 æľĪ15æĹ¥
8 æľĪ28æĹ¥
c o
Ġ èµĽäºĭ
ä¹ į
åĮº çļĦä¸Ģä¸ª
è¥¿ å¤ªå¹³æ´ĭ
æ°ĳ èĲ¥
åħĭ æľį
ä¹Ł å°±
10 æľĪ26æĹ¥
çº¦ 10
çļĦä¸Ģ ä»½
çļĦä¸Ģ éĥ¨ä»½
å½ķ å¾Ĺ
åĩĨ åĪĻ
ä¼¦ çī¹
ä»ĸçļĦ åĦ¿åŃĲ
al ign
è¶Ĭ éĩİ
çķĻ ä¸ĭçļĦ
æ¸© å·ŀ
çĨ ¹
éļĨ åºĨ
å®¡ è®¯
è´¯ éĢļ
æĤ² åī§
æ¾Ħ æ¸ħ
æĻ¤ å£«
5 æľĪ25æĹ¥
A åŀĭ
S ch
j ect
çļĦ æ¹ĸæ³Ĭ
å¹ Į
æ³ »
ä¸Ĭ ä¸İ
éĩĮ å¤«
ä¸¤ äººçļĦ
éĺ¿ å¾·
èĭı æ¢ħ
æľį çĶ¨
çĶ· åıĭ
çº¢ è¢ľ
æŃ£å¼ı çļĦ
12æľĪ 7æĹ¥
å»ºç«ĭ ä¸Ģä¸ª
em p
åĨħéĥ¨ çļĦ
æĺŁæľŁ åħŃ
ä¸įè¶³ ä»¥
æľīæľº åĮĸåĲĪçī©
åħĭæŀĹ é¡¿
çĮľ æµĭ
7 åı·
9 æľĪ23æĹ¥
å¤§ ä¸º
åŁ ķ
ä¸Ĭ ä¼ł
åĨĽ ç±į
æĶ¿ æ³ķ
æĢ§ åľ°
ä½Ĩ å®ĥ
çĽ¸ éļĶ
éĥ½ å¯ŁéĻ¢
åı² åŃ¦å®¶
è§Ĩ å¯Ł
ç»Ń ä½ľ
é¦Ĩ éķ¿
åı¯èĥ½ åľ¨
çĻ¾ åĲĪ
åĥı ç´ł
æ³° æĻ¤å£«
ä¾¿ å®ľ
ç²¾ åº¦
å¯Į è±ª
12æľĪ 12æĹ¥
25 00
å¸ĮæľĽ èĥ½
å¾Ĳ å·ŀ
im e
æİī äºĨ
æĮĳæĪĺ èµĽ
å¸ĥé²ģ åħĭæŀĹ
éĺ® ç¦ı
éĺ´è°ĭ è®º
é¢ĦåĳĬ çīĩ
7 åĲį
çļĦ èĩªçĦ¶
çļĦ ç²¾ç¥ŀ
æľī 2
åĴ ª
åĨĽ éĺĢ
åįĹ å¼Ģ
åĮĹ çĪ±å°Ķåħ°
æľĢ åı¤èĢģçļĦ
çĶµ è½¦ç«Ļ
10 æľĪ17æĹ¥
çĥ Ľ
åŀĭ æŁ´æ²¹æľºè½¦
11 æľĪ15æĹ¥
æ³¢ å¤ļ
åĻ¨ åĴĮ
æľį ä»İ
çĪ± ä¸ģåł¡
ç«ł Ġ
è¶³çĲĥ è¶ħçº§èģĶèµĽ
åª Ľ
ä¸Ńåįİäººæ°ĳåħ±åĴĮåĽ½ é©»
å°¾ é³į
åĮ¹ éħį
æĢ¥ æĢ§
æ½ľ åĬĽ
èĽĭçĻ½ éħ¶
åĮĪ å¥´
åĸĢ å°Ķ
èİ·å¾Ĺä¸Ģæŀļ éĩĳçīĮ
æķĻç§ĳ ä¹¦
æľĢé«ĺçĤ¹ ä¸º
å¸ĥåĪĹ å¡Ķå°¼
b it
çļĦ æĪĺäºī
çļĦ åĶ¯ä¸Ģ
ä¸Ń æİĴåĲį
æľī ä¸ª
åħ¶ ä¸»è¦ģ
çĶ± è¯¥
è¿Ļ æ¬¾
çİ° åĿĢ
ä¹Ł å¯¹
èĬ ¸
æł¼ æĸĹ
æıĲ ç¤º
æĶ¹ ä»¥
æĦı æĮĩ
å·² æķħ
er eĠ
äºĶ åįĥ
åıĸ èĥľ
åıĺ ç§į
çĹ ´
æ²Ļ å°Ķ
åĩł å¤©
ç½Ĺæĸ¯ ç¦ı
éģĹ æĨ¾
1æľĪ 10æĹ¥
çŁŃ ç¼º
å·¡ æĮī
æľīä¸Ģ åº§
Ġæľ¬ çīĩ
å°ĨåĨĽ æ¾³
åŁºæľ¬ æ³ķ
èĪĴ éĢĤ
æľ¬å±Ĭ èµĽäºĭ
å²Ľå¼ı ç«Ļåı°
æīĺåĭĴ å¯Ĩ
éĬ ®
æį·åħĭæĸ¯æ´Ľ ä¼Ĳåħĭ
çīĻä¹° åĬł
8 åı·
Ġ æ¬§æ´²
çļĦ çĽ®çļĦ
æĪĲ åĲį
ä¸Ĭ éĻĲ
ç¬¬ 20
åĪ° åºķ
åĨĽ è¡Ķ
åı² è®°
åĲĳ å¤ĸ
åĬ¡ å±Ģ
ç»´ åĲī
ç»ĵ ä¸ļ
æ²³ åĴĮ
æ· ¤
æīĵ çĤ¹
å§Ķåĳĺ éķ¿
å¸Ŀ çİĭ
åĽ½éĻħ è¶³åįı
çĶµè§Ĩ ç½ĳ
æ¥¼ çļĦ
13 2
èĪ¹ ä¸Ĭ
5æľĪ 8æĹ¥
6æľĪ 6æĹ¥
äºĨä¸Ģ æ¬¡
åĮºåŁŁ çļĦ
åıįå¯¹ åħļ
2011å¹´ äººåı£
å¤§ä¼ļ ä¸Ĭ
æ°§ æ°Ķ
çº¯ ç²¹
ä¸´æĹ¶ æĶ¿åºľ
é¢ħ éª¨
6 åı·
A 1
çļĦ æ³ķåĽ½
åį ¦
æĺ¯ åĶ¯ä¸Ģ
è¢« æ¯ģ
ä»£ ä¹ĭ
ä½Ĩ æľī
è¾¾ çļĦ
æĹł éļľç¢į
202 4
çº³ çļĦ
ç¬¬ä¸Ģ åº§
ç¬¬äºĮ ä½į
çĥŃ æĥħ
ä¸įåĲĮ çļĦæĺ¯
æķĪ çĽĬ
æľĢç»Ī è¢«
æĬĬ ä»ĸ
8æľĪ 20æĹ¥
çķ¥ æľī
åĪĳ æ³ķ
æ±ĩ åħ¥
èŀį èµĦ
äºİ198 9å¹´
å°¤åħ¶ æĺ¯åľ¨
èĢĮäººåı£å¯Ĩåº¦ä¸ºæ¯ıå¹³æĸ¹åįĥç±³ äºº
åĸ· åıĳ
Ġä»¥ä¸ĭ æĺ¯
b e
r ad
Ã ¨
ä¸Ń çº§
å¤§ æ´ĭ
åĴĮ åľ¨
æµ· æĬ¥
å°ı çĶ°
çº¿ ä¸İ
æĬ¥ åĪĬ
ä¿¡ ä¹ī
åĳ¨ æĹ¥
éļı æĹ¶
å¤į æķ°
å½ķ åĥı
åĽłä¸º åľ¨
éĢģ èĩ³
åĲĪä½ľ ä¼Ļä¼´
æİ§åĪ¶ äºĨ
Ġæľ¬ å±Ĭ
åĿļ å®Ī
å»ºéĢł äºĨ
ä½įäºİè¯¥åĽ½ ä¸ľåĮĹéĥ¨
è¢ģ ä¸ĸåĩ¯
åŃ¤ åĦ¿
å¸ĤæĶ¿ åİħ
æ°Ľ åĽ´
åĪĨç»Ħ èµĽ
çī¡ ä¸¹
éĺ¿èĤ¯èī² å·ŀ
2 80
Ġ æĻ®
å¹´ åĿĩ
åľ¨ å¤©
å¤§ ä¸ĵ
æ³ ¸
ä¿ Ń
èĢĮ è¿Ļ
èĬ ®
éĩį åĲ¯
å®ī æĬļ
10 æľĪ21æĹ¥
åĲĳ ä»ĸ
æŀĹ éĥĳ
å¥¥ åĮĪ
äºĶ åĲį
åĲĦ å·ŀ
åİ» éĻ¤
åİĨåı² çļĦ
è§Ħ å®ļçļĦ
èı ģ
ä»Ĭ å¹´
çĪ± èį·
åī¯ ç§ĺä¹¦éķ¿
èīº åĳĺ
æīĺ ç®¡
èĭ±åĽ½ æĶ¿åºľ
éħį åģ¶
æ·± è¿ľ
çħ ŀ
åºķ æłĸ
åºĵ æĸ¯
9æľĪ 20æĹ¥
7æľĪ 12æĹ¥
å½Ĵ åĽ½
5æľĪ 5æĹ¥
ä¼ĺ çĤ¹
æĭ¥ æĬ¤
il e
çļĦäºº ä»¬
æ°ĳä¸» è¿ĽæŃ¥
æĢ¥ è¡Į
Ġæľ¬ ä½ľ
çļĦçī¹ èī²
ä¸ªæľĪ åĲİ
æĶ¹ç¼ĸ æĪĲ
çĥŁ éĽ¾
äºİ198 8å¹´
ä»Ĭå¤© çļĦ
èĮħ æĸ¯
åĪĹæĸ¯ èģĶ
æĹ¥åĨħ çĵ¦
çļ ĭ
çļĦ è·Ŀç¦»
æĹ¥ åħĥ
ä¸İ éĺ¿
åıĳ åĩºçļĦ
ç¬¬ 22
é¢ ļ
ä¹Ł åĽł
çł ¾
èģĶ æīĭ
ä¸ŃåĽ½ äºº
èĭ± çļĩ
é¦ĸ åľº
12 äºº
or th
é£İ æ³¢
åįĥ çĵ¦
åįĬ å¯¼ä½ĵ
å½ĵåľ° äºº
åı³ æ´¾
åĨ³å®ļ åľ¨
6æľĪ 18æĹ¥
ãĥ «
è®¢ åįķ
å¤ªéĺ³ èĥ½
æŀĦæĪĲ çļĦ
åĳ¨åĽ´ çļĦ
ä¾ĽåºĶ åķĨ
å¤ļå°Ķ å¤ļ
æ©Ļ èī²
éĩĳåĥı å¥ĸ
2 20
6 æľĪ15æĹ¥
9 æľĪ24æĹ¥
R E
Ġ å»º
å¹¶ åıĳ
å¯¹ ä¹Įåħĭåħ°
å¤ļ äºİ
åĪ© æ²ĥå¤«
çĶµ è®¯
ç»ı è´¸
åľº éĿ¢
ç½Ĺ éĤ£
æŃ£ æķĻä¼ļ
åı· ç§°
åħ¬åı¸ åľ¨
èĭı å°Ķ
å¤´ è§Ĵ
ç»Ī æŀģ
æ¨¡ ç»Ħ
çİ¯ çĬ¶
æ¯į è¯Ń
æķ´ ä¿®
éº Ĵ
9æľĪ 18æĹ¥
8æľĪ 9æĹ¥
éĥ¡ å¤ªå®Ī
ĠC om
çļĦå¤§ éĩı
åĸĦ äºİ
å°º åº¦
éŁ¦ æģ©
ãĥ ©
åĨĽäºĭ è¡ĮåĬ¨
æŀļ éĩĳçīĮ
æ½® æ¹¿
åīĤ éĩı
æ²ī é»ĺ
ç«ĭæ³ķ ä¼ļè®®åĳĺ
æĬļ åħ»
å¸½ åŃĲ
åĵĪä½Ľ å¤§åŃ¦
6 æľĪ25æĹ¥
9 æľĪ17æĹ¥
åľ¨ æ°´
äºº éĢł
å¤§ èĥľ
æľī 3
ä»¥ èĩ³äºİ
åľ° æłĩ
ç¬¬ èģĤä¼¯
ä¹Ł è®¸
çī© æµģ
é©¬ éŀį
éĺŁ åı²
200 8
é» ľ
äº¤ éħį
éĶ Ī
ä¹Ĳ æĽ²
12 æľĪ26æĹ¥
å¯¼ åĲĳ
åĽŀ é¡¾
an a
çı Ĥ
åķ Ĭ
å¥¹ åĴĮ
åıĪ ä»¥
æ±ī æľĿ
åĳĬ åĪ«
è±¡ æ£ĭ
éĻį æ°´éĩı
åºĵ åħĭ
èĹı ä¼łä½ĽæķĻ
åį°åº¦ çļĦ
å·¥ç¨ĭ åŃ¦éĻ¢
èĽ ¤
1æľĪ 12æĹ¥
äºĮåįģ ä¹Ŀå¹´
è§Ħå®ļ å±ħæ°ĳçĤ¹
è¥¿åįĹ æİ¥
os h
æĭĨ åį¸
èĩ³ä»Ĭ ä»į
ä½įäºİè¯¥åĽ½ è¥¿åįĹéĥ¨
ä¸Ńæĸĩ å¤§åŃ¦
ä¹¾éļĨ å¸Ŀ
å¯¹å¤ĸ å¼ĢæĶ¾
å»¶éķ¿ èĩ³
åŁĭ èĳ¬
éħ¿ éħĴ
åįĩéĻį æľº
, -
3 æľĪ28æĹ¥
4 50
A F
çļĦ èīºæľ¯
ä¸º ä¸ī
æ³ ¾
åĪĨ æīĭ
è¥¿ æ¹ĸ
çī¹ å¾ĭ
æľĢ åħĪ
çº¦ 20
èİ· éĢī
12 æľĪ16æĹ¥
åĽŀ åĪ°äºĨ
å°ĳ æł¡
æ¯ı ä¸ªäºº
åħ¬éĩĮ å¤Ħ
è± ģ
åħ¶ä»ĸ åľ°åĮº
åıĤåĬł è¿ĩ
ç«ł ç¨ĭ
æ°¸ å®ī
4æľĪ 6æĹ¥
ä»Ģ ç»´åħĭ
å¿ħé¡» åľ¨
æĻ®æŁ¥ è§Ħå®ļå±ħæ°ĳçĤ¹
Ġ198 1å¹´
æ®ĭ éª¸
ç¾¤å²Ľ çļĦ
ç»ķ å¤ªéĺ³
Ġ194 1å¹´
éĶ® çĽĺ
åĲĦåľ° çļĦ
çĬ¹å¤ª æķĻ
äºİ198 2å¹´
éľ¸ çİĭ
æº¶ åīĤ
æŁĶ éģĵ
è¥¿éĩĮ è¥¿äºļ
æ¡ĥåĽŃ å¸Ĥ
å¹¸åŃĺ èĢħ
æ¬º éªĹ
And ro
èĤ¯å°¼ è¿ª
9 æľĪ27æĹ¥
A g
R I
m on
w ard
Ġ å°Ĩ
Ġ 24
æĿ ł
æľī è¶ħè¿ĩ
æĹ¶ æĽ¾
ä¼ļ åĴĮ
åĲį å£°
åĪĨ çļĦ
æŃ¤ ç§į
10 æľĪ23æĹ¥
ç»Ħ è£ħ
æĺİ æ¸ħ
æıĲ çĿ£
ä»İ æĿ¥
æĽ¾ åŃĻ
åıĹ çĽĬ
çĸ ¹
åıĺ è¿ģ
å¸¦ åĬ¨
ä¼Ĭ å¤«
èİ·å¾Ĺ çĶ·åŃĲ
åħµ åĻ¨
åİĨåı² ä¸ĬçļĦ
çİĩ çļĦ
åģľ æĪĺ
åĶ± æŃĮ
9æľĪ 7æĹ¥
7æľĪ 6æĹ¥
æĭĽ å¾ħ
é¹¿ åĦ¿å²Ľ
æĸ¯åħĭ å·ŀ
ä¼ı å°Ķ
å®īå¾· æ£®
æĬĽ å¼ĥ
éĿĴæµ· çľģ
ä¼º æľį
6 æľĪ22æĹ¥
N T
Ġ 100
Ġ åĽ½å®¶éĺŁ
åĲİ æŀľ
ä¸Ĭ å¥ı
ä¸į ç¬¦åĲĪ
æľ¬ åŃ£
ãĢį ),
èĲ ĥ
åĽĽ å¤Ħ
èİ· éĢīä¸º
å¿ĥ çģµ
å¸Ī çļĦ
å¤§åŃ¦ å£«
åıĺ éĿ©
åŃĹ å½¢
è¿ŀ çº¿
äºī æī§
åľ£ åħ¬ä¼ļ
çĶ² çĥ·
12æľĪ 10æĹ¥
åį¢ çĶĺ
7æľĪ 19æĹ¥
ç§ĳåŃ¦ ä¸İ
åªĴä½ĵ çļĦ
189 6å¹´
çĮİ äºº
èĢĮæĪĲ çļĦ
æī« æıı
èº² éģ¿
åĮĹåį¡ç½Ĺ èİ±
8 æľĪ16æĹ¥
G O
çļĦ ä¹¦
çļĦ æĹ©æľŁ
çļĦ è·¯çº¿
å¹´ çºª
åĮ Ļ
äºİ åı°æ¹¾
å¤§ åħ´
ç« ¿
åįĹ å®ģ
åŃĲ å¼Ł
æĸĩ äºº
çĶµ ç¦»
10 æľĪ16æĹ¥
åİŁ è®¡åĪĴ
è¾¾ åħĭ
éľ Ĩ
ç¬¬ä¸Ģ å®¶
åŁŁ åĲį
å®£ ç»Ł
æ¥ ŀ
æīĺ æĸ¯
è´Ŀ æĸ¯
ĠS c
æľĢåĲİ åľ¨
åĪ¤ å®ļ
7æľĪ 8æĹ¥
8æľĪ 19æĹ¥
ol l
æĿ¿ æ¡¥
åĩºçīĪ çī©
éĿ©åĳ½ åħļ
æįŁ æ¯ģ
ç¾½ çĲĥ
æĽ¾ç»ı æĺ¯
ed ia
In t
æĮ¯ åħ´
Ġ197 8å¹´
æĻ®éĢļ è¯Ŀ
å»¶ä¼¸ åĪ°
400 ç±³
éĢ¼ è¿ĳ
åĲĮæĢ§ å©ļå§»
æĸ°å¢ŀå¢ĥå¤ĸè¾ĵåħ¥ æĢ§
3 æľĪ25æĹ¥
3 æľĪ17æĹ¥
h e
Ġ 30
çļĦ å¯¹è±¡
ä¸º 6
ä¸Ń åŀĭ
å¤§ æ»¡è´¯
åĴĮ å¯¹
æĹ¶ åľ¨
åŃ¦ åĽŃ
ä»ĸ ä¹Łæĺ¯
åĪĨ èĪ°éĺŁ
ä¹ĭ å¤ľ
åı¯ éĢļè¿ĩ
åĮĹ éĿŀ
è¯¥ å±ŀ
è¯¥ èĬĤçĽ®
å°Ĩ çĶ±
è®¾ çļĦ
åħ¨ å®¶
åħ¨ åĨĽ
æģ ķ
ä¸¤ æłĸ
åįİ çī¹
åĽ¢ åĳĺ
ç®¡ å¼¦
å¼Ģå§ĭ çļĦ
çŁ¥ å·ŀ
åı¯èĥ½ å¯¼èĩ´
æīĺ å°¼
æŀģ åº¦
ä½ı äºĨ
å²ģ åıĬ
èĥľ è´Ł
åºĵ å°Ķå¾·
aĠ M
äºĮåįģ åĽĽ
æ°ĳä¸» åħ±åĴĮåĽ½
æľīä¸Ģ ç§į
åı¦ä¸Ģ åĲį
å¤ľ æĻļ
ç§ģ èĲ¥
Ġ198 0å¹´
èĻļ åģĩ
éĵģéģĵ éĥ¨
çŃĶ æ¡Ī
ãĢģãĢģ ãĢģ
åĲ¸å¼ķ äºĨ
åīª è¾ĳ
æ²Ļçī¹ éĺ¿æĭīä¼¯
çıĬçĳļ ç¤ģ
9 æľĪ2æĹ¥
S i
h t
åľ¨ 2000å¹´
æĺ¯ çĶ±äºİ
å¤§ åłĤ
åĴĮ å¾·åĽ½
ä¼ļ ä½¿çĶ¨
ãĢĮ -
çİ° åĲį
å¸ĥ åĲķ
å·ŀ è®®ä¼ļ
éĩĳ æŃ£
åĬ¡ æ®µ
ä¿Ŀ å¯Ĩ
11 æľĪ28æĹ¥
åĽ¾ ç¤º
çļĦä¸Ģ æĶ¯
ä¼¯ å°Ķ
é»ĳ å¸®
é¢Ħ åħĪ
èİ« æĸ¯
8æľĪ 30æĹ¥
3æľĪ 10æĹ¥
éģŃ åĪ°äºĨ
11æľĪ 5æĹ¥
11æľĪ 3æĹ¥
ĠC l
ç¬¬åĽĽ åĲį
åĬ¨çĶ» çĶµå½±
éĺ» æĮ¡
åħĭéĩĮ æĸ¯æīĺ
ä¼´ å¥ı
æµģè¡Į çļĦ
20ä¸ĸçºª åĪĿ
åı¥ ä¸½
éĻª å®¡
äº¤çķĮ å¤Ħ
4 ä¾ĭ
åħ ľ
åľ¨ å°ı
åľ¨ ä¿Ħç½Ĺæĸ¯
åľ¨ æķ´ä¸ª
æĹ¥ éĹ´
ä¸İ åı°æ¹¾
è¢« åĳ½åĲįä¸º
å¼Ģ çģ«
æľĢ å°ıçļĦ
ä½¿ åĳ½
åįģ ä¸ª
åĮĸ åĴĮ
è¾¾ èµĸ
éĩĳ åįİ
åıĹ åĳ½
æ²³ ä¸Ń
å¸¦ èµ°
æĶ¶ åıĸ
åĻ ¬
åľ£ ä¿Ŀç½Ĺ
é£ŀ å¾Ģ
å¥ĩ æĢª
åĺ »
åºķ çī¹å¾ĭ
å¼Ĺ æ´Ľ
8æľĪ 12æĹ¥
è½® èĥİ
11æľĪ 18æĹ¥
ç«¯ çļĦ
çŁŃ ç¯ĩå°ıè¯´
å°½ éĩı
æĿĤ äº¤
è¿½ åĬł
åģı å¥½
é¥® éħĴ
çķª åı°
åį¡å°Ķ çĵ¦
åī© ä¸ĭçļĦ
é¥¥ é¥¿
ç¦»å¿ĥ çİĩä¸º0
éº¦éĩĳ èİ±
å¤ļå°Ķå¤ļ æ¶ħ
t ext
äºº é©¬
è¡ «
ä¸į éĢĤ
ç¬ ¨
ä¹ĭ ç¥ŀ
å¹¶ è®¾æľī
åĨĽ æĶ¿åºľ
ä¾ ®
åĬł æ³°ç½Ĺ
10 æľĪ24æĹ¥
å±ŀ ä¸ĭ
ä¿Ŀ éĩĬ
çĥ ĥ
ç§¯ ç´¯
çºª å§Ķ
an Ġ
åıª éľĢ
é¦Ļæ¸¯ å²Ľ
æ¸ħ åįķ
ä¸ĸçķĮ æİĴåĲį
æ´Ľ å°¼
é¸ ¾
è´¹ å°Ķå¾·
ç¥¨ éĢī
é¹ Ń
åħ¨åĽ½ äººå¤§ä»£è¡¨
å°ģ å»º
11æľĪ 7æĹ¥
æķĳ æµİ
éľ² å¤©
æ¿Ģ æ´»
éŃĶ æľ¯
èĥ½åĬĽ çļĦ
çī§ åĮº
å¹¸ è¿Ĳ
éŀ ĳ
æ§ Ľ
é¡µ éĿ¢
åįĳ è¯Ĺ
igh tĠ
Ġä¸ĭ å±ŀçī©ç§į
æ»¤ æ³¢
å®ĩèĪª åĳĺ
1 å¹³æĸ¹åħ¬éĩĮ
8 æľĪ26æĹ¥
8 æľĪ21æĹ¥
A b
r at
çļĦ B
çļĦ ç©ºéĹ´
äºİ ä¸Ń
æµ ļ
çĲ ¶
ä¸Ĭ ä»¥
è¯¥ å°ıè¡ĮæĺŁ
ç§ĳ æĻ®
æŃ£ å¥½
åı¸ ä¸»äºĭ
å·´ çĻ»
åıĤ çħ§
12 æľĪ29æĹ¥
å·² å©ļ
çĵ¦ è§£
ä¾Ľ ç»Ļ
ä¼¦ å·´
æĪĳ æĺ¯
æĸ½ åĬł
ä¸Ńå¤® éĵ¶è¡Į
å³ Ń
æĭ¿ åĪ°
10æľĪ 30æĹ¥
9æľĪ 3æĹ¥
5æľĪ 3æĹ¥
éĽħ åĽ¾
è¿½ èµł
äºĮåįģ åİħ
è¯Ĺ éĽĨ
æĿĲ è´¨
ãģ Ĩ
äººç±» åŃ¦
åĿĲ åľ¨
çļĦçī¹ çĤ¹
åŃ©åŃĲ ä»¬
å¸ĥé²ģ å¡ŀå°Ķ
åĽŀå¿Ĩ å½ķ
åĿł æ¯ģ
æ§Ł åŁİ
åĶ®ç¥¨ æľº
è§ĨæĺŁçŃīä¸º 6
åĬłæ³°ç½Ĺ å°¼äºļ
9 æľĪ22æĹ¥
Ã ¤
Ġ å¼Ģ
çļĦ æĪĲåĬŁ
çļĦ å®ĹæķĻ
åľ¨ æ²¡æľī
åľ¨ è®¸å¤ļ
ä¸Ń åĮĹéĥ¨
ä»ĸ æīĢ
åĩº ä½¿
ä¸» çº¿
åĬ¨ èį¡
çī¹ é²ģ
çī¹ èī²çļĦ
éķ¿ èĢħ
æĸ° å¨ĺ
åĬł å¾·
åħ¥ ä¼į
ä¸¤ æĶ¯
10 æľĪ14æĹ¥
éĥ½ å¾Ī
å¨ Ł
èº ¯
åı¤ å»ºçŃĳ
å¼Ģå§ĭ æĹ¶
æŃ¦ å°Ĩ
åºķ è´¨
9æľĪ 9æĹ¥
11æľĪ 9æĹ¥
åįĪ å¤ľ
æĺ¯ä½įäºİ æĹ¥æľ¬
çīĽ èĤī
å¥³åŃĲ åĽ¢ä½ĵ
åı¬ åĽŀ
æĬķèµĦ èĢħ
åİ¿çļĦä¸Ģä¸ª éķĩåĮº
æ¸¸æ³³ æ±ł
ä¿Ŀå®Ī æ´¾
å·´å¸ĥ äºļ
çŀ¬ éĹ´
! ãĢĭ
3 æĹ¶
S e
V al
m a
o z
çļĦ å®ī
çļĦ çº¢
çļĦ èĳĹä½ľ
å· ħ
ä¸į è¶ħè¿ĩ
åħ¬ åİĺ
ä½ľ çĶ»
å¤ļ åįĬ
å¾· åİ¿
æľĢ å¸¸è§ģçļĦ
ç¾İ äºº
çĶµ éĵģ
çĲĨ æĢ§
å¦ ¨
ä¸ĸ éĶ¦èµĽ
ä½Ĩ å®ŀéĻħä¸Ĭ
æĽ¾ ä¸Ģåº¦
å¤Ħ ä»¥
12 æľĪ17æĹ¥
çº³ åħĭ
æĽ² æ£į
ç¥ŀ å®Ĺ
åıª åī©ä¸ĭ
äº¬ åŁİ
ä¼¯ åħĭ
å¡ŀ æµ¦
æ¦ Ī
æīĺ åħĭ
(, ,
æ¥¼ å®ĩ
è¯į åħ¸
èĹı åĵģ
7æľĪ 11æĹ¥
1æľĪ 9æĹ¥
æĺ¥ æĻļ
çŁŃ éĢĶ
åħħ è¶³
å¹³åĿĩ æ°´å¹³
2010å¹´ äººåı£
æ¿Ģ åıĳ
è¯Ĭ æīĢ
Ġ195 8å¹´
ä¸Ńå±± å¤§åŃ¦
åĲ¸å¼ķ åĬĽ
æĺ¯ä¸Ģä½į ç¾İåĽ½
æ¹ĺ æ¶Ľ
ä¸ĩå¹´ åīį
å¹¼ç¨ļ åĽŃ
2 æľĪ28æĹ¥
5 åħ¬åĪĨ
m y
Ġ å½¢æĢģ
çļĦ åı°æ¹¾
å¹´ å¹³åĿĩ
ä¸º 7
ä¸Ģ éĥİ
ä»¥ åīįçļĦ
çī¹ è®¸
åĪ© åŁĥ
æĻ ķ
å½ĵ ä¸ŃçļĦ
åħ¨ èĥ½
çĤ «
æĮĩ å¼ķ
in k
æ¯ı ç§Ĵ
åķĨ åŃ¦éĻ¢
æŃĮ è¿·
åıĮ äºº
åĵ¥ æĭī
æķĪ å¿ł
æľĢç»Ī å¹»æĥ³
ç¬¬ä¸ī åŃ£
12æľĪ 5æĹ¥
12æľĪ 4æĹ¥
ç¯ ·
å¾ĹåĪ° çļĦ
ä¹° åįĸ
æ¯įäº² æĺ¯
ç»ıå¸¸ è¢«
å®ŀçİ° äºĨ
åĭĩ æķ¢
èŁ ¾
æ¼ı æ´ŀ
æ¯ĶåĪ©çīĽæĸ¯ çľģ
çİ»åĪ© ç»´äºļ
N e
O K
Y P
o sĠ
Ġ èµ·æºĲ
ä¸º åľ°ä¸ĭ
å± ĳ
åĲİ åįĬ
æ² Į
åıĳ æĢ§
å®¶ åĽŃ
æ³ķ çİĭ
èĢĮ èİ·å¾Ĺ
æĶ¿ åĿĽ
ä½į åħĥ
ä¸ĭ æĶ¾
èĩª ä¼ł
ä¸ī å¤©
çī© è¯Ń
è½¦ ç¥¨
è¡¨ è¿°
éļ ħ
è¾¾ æĸ¯
åģ ķ
or y
å¸Ī å¸Īéķ¿
å®ĥ åı¯ä»¥
èĭı æĭī
çļĦä¸Ģ å±ŀ
å¨ģ æĸ¯çī¹
ä¿® å¥³
æ¨¡ æłĩæľ¬
å¡ŀ æĭī
åŁĥ éĩĮåħĭ
ä½İ éŁ³
æķĻèĤ² å®¶
10æľĪ 7æĹ¥
10æľĪ 20æĹ¥
7æľĪ 30æĹ¥
åı¶ çīĩ
6æľĪ 9æĹ¥
åĶ® åĩº
èįī æľ¬
èĢ¶ å¾ĭ
äºĮåįģ åħ«å¹´
æĿ¯ åĨ³èµĽ
çļĦä¸» åĬĽ
çļĦå°ı åŀĭ
èµ«å°Ķ æĽ¼
å®ł çī©
çļĦè½¨éģĵ åįĬéķ¿è½´
ç¿¡ç¿ł åı°
èµ«é²ģ æĻĵ
6 æľĪ24æĹ¥
Ġ åı¯
Ġ æĹł
çļĦ 2
çļĦ æķĪæŀľ
åľ¨ åĬłæĭ¿å¤§
äºİ æĺ¯åľ¨
æľī ä¸īä¸ª
åĴĮ é»ĳ
æĢ ľ
æĪĲ åĥı
ä»ĸ åĽł
ä¸į èµ·
ä¸» å§Ķ
æĿ¥ è¿Ľè¡Į
æĿ¥ è¡¨ç¤º
ä¸ī åº§
çŃī èģĮåĬ¡
å±± æĿĳ
å¤© åĽ½
10 æľĪ29æĹ¥
æĢ» åıĤè°ĭéĥ¨
æĺŁ åº§
å¥¥ ä¼ļ
æº ľ
åĽŀ åĵį
ä¿¡ å¿ĥ
è½¬ åĪ°
å¢ŀ åİĭ
åĿĩ ä»¥
çĥŃ åĪº
èİ« éĩĮæĸ¯
4æľĪ 19æĹ¥
èīºæľ¯ åŃ¦éĻ¢
éĽĨåĽ¢ çļĦ
è¶ħè¿ĩ äºĨ
è·Ł è¸ª
çļĦåľ° éĿ¢
æ¸¡ è½®
å¢Ļ å£ģ
os s
åİĦ çĵľ
ç´« èī²
187 1å¹´
æ£ķ æ¦Ī
èĲ¨å°Ķçĵ¦ å¤ļ
2 æľĪ14æĹ¥
3 æľĪ27æĹ¥
M M
çļ Ī
çļĦ æľĢåĲİä¸Ģ
ä¸Ń åŃĲ
æľī åĽĽ
ç¬¬ 17
è¥¿ éĿ¢
åĲĮ è¡Į
åĬ¨ æ¼«
è¿Ļ æľ¬ä¹¦
ç¾İ å®¹
10 æľĪ27æĹ¥
è¿Ĳ è½¬çļĦå°ıè¡ĮæĺŁ
å¼ł åĽ½
çŁ³ ç¢ĳ
éĻĨ ä¸Ĭ
çĳ ¾
æŃ» äºĨ
åħ« ä¸Ģ
èĪª åİ¦
åĲī å®ī
al e
çļĩ å¤ªåĲİ
æĤ ļ
ä¸»ä¹ī åĴĮ
åı³ å²¸
åľ°æĸ¹ æ³ķéĻ¢
5æľĪ 12æĹ¥
çĦ¶èĢĮ åľ¨
å¸ķ çī¹
äºĮåįģ åħŃå¹´
ç»Łæ²» æĹ¶æľŁ
æļĹ ä¸Ń
çĮİ çī©
ä½įäºİæ³ķåĽ½ æĸ°éĺ¿åŁºåĿ¦å¤§åĮº
æĶ¾å¼ĥ äºĨ
åĪ¶å®ļ äºĨ
æĺ¯ä¸Ģé¢Ĺ ç»ķå¤ªéĺ³
åĬłå·ŀ å¤§åŃ¦
è¶ģ æľº
éĵľéĶ£ æ¹¾
ä¸Ńå±Ĥ æ°´åŁŁ
Ġè½¨éģĵ åıĤæķ°
æĺ¯ä¸Ģé¢Ĺç»ķå¤ªéĺ³ è¿Ĳè½¬çļĦå°ıè¡ĮæĺŁ
0 Ġ
1 çº¿
8 æľĪ17æĹ¥
D on
a ir
Ġ è·Ŀç¦»
çļĦ çĪ±
çļĦ è±¡å¾ģ
åľ¨ éĤ£
åĽ½ åĨħçļĦ
æľĪ å¨¥
ä»¥ ç¤º
ä¹ĭ çİĭ
ä¹ĭ å½¹
åĲĮ æĥħ
çī¹ æĢ¥
åįĹ æĬķ
åĬł å¿«
åĮĹ çº¬
åĪ© æĸĩ
æŃ¤ åī§
ä¹Ł åĽłä¸º
å½ĵ ä»ĸ
å°Ĩ æĪĲä¸º
ä¸ĸ ç¥ĸ
åĪ¶ åĬ¨
åĲĪ ç§°
æį §
ç§į å§ĵ
çĦ ī
ç¼ĸ ä¿®
æ¸ħ æ´Ĺ
ç¦» ä»»
åı°æ¹¾ æĢ»çĿ£åºľ
çĵ¦ åħ¹çľģ
èĪª éĢŁ
è´Ŀ éĩĮ
æŃ£å¼ı å®£å¸ĥ
æī§ çħ§
æī§ æĶ¿åħļ
èĢ¶ é²ģ
ç»ĦæĪĲ äºĨ
åģĩ åĲį
åıªæľī ä¸Ģä¸ª
ãĤ ¢
ç»¿ åľ°
èĿ ī
ä¸ºä¸» å°ıè¡ĮæĺŁå¸¦
åĬłæĭ¿ å¤§çļĦ
æ¨¡å¼ı ç§į
è®¾ç½® äºĨ
ag ram
é¼ĵ æ¥¼
çĽĹ çªĥ
ä¸ľè¥¿ åĲĳ
æĿŃ å·ŀå¸Ĥ
åħ¬æĸ¤ çº§
äº¤åĵį æĽ²
ä¸ºä¸»å°ıè¡ĮæĺŁå¸¦ å°ıè¡ĮæĺŁ
1 äº¿
1 æľĪ16æĹ¥
8 æľĪ2æĹ¥
w e
ä¸Ģ å¹¶
æ² ¥
è¡Į éĶĢ
å¹¶ æľĢç»Ī
å¯¹ å³Ļ
æµ· æ»¨
å¸ĥ éĩĮæĸ¯
ç§° åħ¶
æĺİ çĻ½
è®® ä¼ļè®®åĳĺ
éĺ¿ æ³¢ç½Ĺ
æīĭ è¯Ń
åĳ¨ åħŃ
æ¸ħ æ²»
è¿ŀ èĥľ
åįĩ é«ĺ
å¤ĩ å¿ĺ
ä¸Ńå¤® äººæ°ĳæĶ¿åºľ
æķĻèĤ² å±Ģ
12æľĪ 11æĹ¥
1æľĪ 11æĹ¥
ou t
æ´¥ è´´
ri v
å¤ĸäº¤ æĶ¿çŃĸ
åľ¨æŃ¤ ä¹ĭåīį
æ¯ıå¹´ å¹³åĿĩéĻįéĽ¨éĩı
æĮĤ çīĮ
çļĦåİŁ å§ĭ
ä¸ºè¾Ĳé³įé±¼çº² é²¤
IS O
æĺ¯ä¹Įåħĭåħ° çļĦæĿĳèĲ½
çĢ Ľ
åīĳæ¡¥ å¤§åŃ¦
Ð¾ Ð
å¢¨å°Ķ æľ¬
åĺ» åĵĪ
7 æľĪ26æĹ¥
Ġ éĵģè·¯
Ġ ç»ĵæŀĦ
åĴĮ åīį
æ² ½
éķ ģ
åĲĮ ä½įç´ł
å¤ļ æľī
æĸ° æ¸¯
åı£ ç½©
å±± æ°´
ç¨ ł
äº¤ æ¶ī
å°± è¦ģ
æĺŁ çŃī
å¥¥ åħ°
åıį æģĲ
å®ĺ ç½ĳ
æ´¾ åħµ
æ¨¡ åŀĭçļĦ
æīĺ ç±³å°Ķ
æħ ¨
æł¸ æŃ¦åĻ¨
3æľĪ 11æĹ¥
éº¦ è¿ª
æĳ© å¤©
çģµ æ´»
è¯ĳ æľ¬
çĶļèĩ³ æĺ¯
åģı ç¦»
å¼± çļĦ
æĺ¯ä½įäºİç¾İåĽ½ ä¼ĬåĪ©è¯ºä¼Ĭå·ŀ
ç©ºåĨĽ åŁºåľ°
æľīæĹ¶ ä¼ļ
åĩºèº« çļĦ
å¹´åº¦ æľĢä½³
éĦ ŀ
ul l
ĠU A
å¯Ĵ åĨ·
ran s
å¤§éĢī ä¸Ń
è¯¥æĿĳ å§ĭå»ºäºİ
å¾·æĦıå¿Ĺ å¸ĿåĽ½
è´¹å°Ķ åįĹ
åĢĻè½¦ å®¤
è½¶ äºĭ
2 å®¶
y th
Ġ æĿľ
åľ¨ åı°
åĴĮ åĽ½éĻħ
æĭ Ĳ
ä»¥ åħį
è¡Į åĪĹ
ä¾ ı
çĶ± æĹ¥æľ¬
åĲĮ å±ŀ
åŃĲ åĹ£
èĩ³ åħ³
è¯¥ å²Ľ
ç³» ä¸»ä»»
æŀĹ çļĦ
12 æĹ¶
å¥¥ æľ¬
å¥¹ è¿ĺ
åĮħæĭ¬ åľ¨
å®ĥ è¢«
è½¬ åĮĸ
åħī çº¿
çĻ¾ åĪĨ
ä»į ä¸º
è´Ŀ åĭĴ
12æľĪ 6æĹ¥
12æľĪ 19æĹ¥
å·²ç»ı åľ¨
5æľĪ 9æĹ¥
è½» æĺĵ
é¦ĸæ¬¡ äº®çĽ¸
ä¼ģ é¹ħ
å®¡ è®¡
å·¥ä¸ļ å¤§åŃ¦
äºİ18 3
çıł å®Ŀ
Ġ194 2å¹´
Ġ194 4å¹´
åĽ½åĬ¡ åį¿
èĢĹ èµĦ
éº¦åħĭ åĶĲçº³
éĹª çĶµ
å¤§å¸Ī èµĽ
æīŃ æĽ²
èģĮæ£Ĵ å¤§èģĶçĽŁ
éŃħ åĬĽ
ä¸ľæŃ£ æķĻ
5 æľĪ28æĹ¥
8 æľĪ29æĹ¥
H T
S k
Ġ åªĴä½ĵ
Ġ å®ļä¹ī
ä¸º åĽĽ
ä¸Ģ ä¸Ģ
ä¸Ń åĩºçİ°
åĴĮ M
ä¸į è§ĦåĪĻ
åħ¬ ä½¿
æľ¬ åĵĪæł¹
å¸Ĥ å§Ķä¹¦è®°
åĮĹ éĹ¨
åĲĪ ä¸Ģ
å°ı åĮº
ç½Ĺ ç´ł
ç«Ļ çĤ¹
å°¼ åħĭæĸ¯
å¸¸ é©»
éĶ ļ
åĩ» åīĳ
ç¥ŀ å¥ĩ
èĭı é»İ
ç¬¬äºĮ æī¹
æ±ī åĨĽ
è¯º å°Ķ
é¥ ª
èĪª æ¯į
åĲİæĿ¥ åıĪ
3æľĪ 20æĹ¥
1æľĪ 30æĹ¥
æ²ĥ çī¹
ac ritic
åįģäºĮ åİħ
ç§ģ æľī
å®ª ç«ł
æĦ¿ æľĽ
è§¦ åıĳ
æŁ± åĽ½
è¿Ŀ è§Ħ
ç»ıèĲ¥ çļĦ
å¨ģå»ī å§Ĩæĸ¯
çº¹ ç«ł
éĽĨä¸Ń éļĶç¦»
è·³ èĪŀ
å¤±è´¥ åĲİ
è½¬åĲĳ æŀ¶
æ³¢ç½Ĺ çĥŃ
ric on
å¿ĥèĦı çĹħ
ä¸ĭçļĦä¸Ģä¸ª å±ŀ
çĥ¹ é¥ª
åį¡å°Ķçĵ¦ å¤ļæĸ¯
5 0å¹´ä»£
6 æľĪ27æĹ¥
7 å¹³æĸ¹åħ¬éĩĮ
7 æľĪ23æĹ¥
9 æľĪ16æĹ¥
ç µ
Ġ åı²
Ġ æ°¸
çļĦ è¯į
äºº æł¼
åĴĮ ç»ıæµİ
æł ĵ
ä¼ļ å½±åĵį
ä¸İ å°ı
ä¸İ é¦Ļæ¸¯
ä¸į è§ģ
ä¸į åĥı
çĶ± é¦Ļæ¸¯
éĽ ³
å¯¹ ä»ĸçļĦ
å¤ļ çĳĻ
é© ¯
æµ· è±ļ
ç® ķ
å¤ĸ åĢŁ
æ¬¡ éĥİ
åĮĸ åŃ¦å®¶
ç§į çļĦ
å®ī çľģ
æĢ» é¢Ĩäºĭé¦Ĩ
èµ· äºİ
å·´ æ´Ľåħĭ
åıį é©³
æ´² éĻħ
èĬĤ çľģ
çŁ³ åĭĴ
æĿ¡ æĸĩ
ç»Ī å¹´
æ±ī æĸ¯
æİĴ æ°´éĩı
éĢļè¿ĩ çļĦ
åŁİå¸Ĥ åħ¬åħ±äº¤éĢļ
3æľĪ 4æĹ¥
3æľĪ 19æĹ¥
5æľĪ 18æĹ¥
æ²ĥ åħĭ
ç¦ģ ä»¤
æķĮ æĸ¹
un dĠ
äº® åº¦
iv er
èļ Į
çļĦé¦ĸ å¸Ń
ãĢı ,
çļĦä¸Ģåº§ åŁİå¸Ĥ
èİ±èĮµ çľģ
è¥Ħ éĺ³
å¥ł å®ļäºĨ
orl dĠ
æ°ĳä¸»ä¸»ä¹ī äººæ°ĳåħ±åĴĮåĽ½
å¤ĩå¿ĺ å½ķ
- ãĢģ
u eĠ
çļĦ çİĭ
åľ¨ 2021å¹´
æĺ¯ ä¸ĸçķĮ
æĸĩ åºĵ
ä¸ī æĹ¥
ä¸ĸ å®¶
æĢ§ é±¼ç±»
å·ŀ åĮº
å·ŀ éĻħ
æĢ» é¢Ĩäºĭ
ç¾İåĽ½ åĴĮ
éĹ¨ å°Ĩ
åĲī æĢĿ
åĽ½éĻħ çĶµå½±èĬĤ
ãĢį, ãĢĮ
å¥ĩ è¿¹
20å¹´ ä»£
el f
3æľĪ 9æĹ¥
1æľĪ 6æĹ¥
4æľĪ 10æĹ¥
æľ« æĹ¥
æŀª æ¢°
äº¤éĢļ å¤§åŃ¦
åħ» èĢģ
æłĩåĩĨ åĮĸ
éģĩ å®³
æľĿé²ľ æ°ĳä¸»ä¸»ä¹īäººæ°ĳåħ±åĴĮåĽ½
IN K
æ¹ĸåįĹ åį«è§Ĩ
åĵ¥ä¼¦æ¯Ķäºļ å¤§åŃ¦
ç¿ħ èĨĢ
è·¯æĺĵæĸ¯ å®ī
æ³ķå°Ķ èĮ¨
æĹıèĩªæ²» å·ŀ
3 æľĪ29æĹ¥
5 æľĪ13æĹ¥
8 å¹³æĸ¹åħ¬éĩĮ
9 æľĪ26æĹ¥
L C
Ġ æ¯Ķ
Ġ é»ĳ
çļĦ åĩºçİ°
ä¸Ģ çıŃ
åľ° é©¬æĭī
ç« º
åħ¶ æīĢ
åĪ° åıĳ
èĢĮ æĹłæ³ķ
æ°ĳ å»º
è¿Ļ ä¸¤ç§į
å¤© èĬ±
å®ī å¹³
æĺİ æľ«
åħĥ åĴĮ
18 å²ģ
æĹł ç©·
åıĹ è´¿
åĪĻ åı¯
åį¡ å¡Ķå°Ķ
éĹ¨ æ§Ľ
æĶ¯ éĤ£
ç¥ŀ çģµ
åı¯ä»¥ ä»İ
æĿİ ç»´
åĨĻ ä¸ĭ
è®¾è®¡ äºĨ
åıĳçĶŁ åĨ²çªģ
12æľĪ 9æĹ¥
8æľĪ 7æĹ¥
3æľĪ 3æĹ¥
å°½ åı¯èĥ½
aĠ P
æĭ¥æľī çļĦ
æ¿Ģ åħī
æ¹¿ æ¶¦
å¸ĥèİ± åħĭ
æ»¨æµ· å¡ŀçº³
å®īä¸ľ å°¼å¥¥
çĶ°å¾Ħ è¿ĲåĬ¨åĳĺ
æł¼æĭīæĸ¯ åĵ¥
çĶµåĬ¨ æľº
çļĪ ä¾Ŀ
7 æľĪ14æĹ¥
A B
Ġ äºļ
çļĦ åı¦ä¸Ģ
ä¸Ń å¯¹
ä¸Ń æıĲåĪ°
åĽ½ äºº
æĺ¯ å±ŀäºİ
å¤§ æĪĲ
ä¸İ èĭ±åĽ½
åħ¬ é¦Ĩ
åĪĨ éĻ¢
æ³ķ ä¾ĭ
åĿ ľ
çİ° çĬ¶
çĶµ åĻ¨
ç«ĭ äº¤
æĭī æł¼
äºĮ èĢħ
ç§ĳ å¨ģçī¹
å®ŀ åľ¨
æ· ŀ
åĽŀ æĬ¥
åıĺ éĢŁ
å¼ł å½ķéŁ³å®¤ä¸ĵè¾ĳ
ç¥ŀ æĺİ
æľª å©ļ
å¤´ åıĳ
è£ħ ä¿®
la ss
åĽłæŃ¤ è¢«
é£ŀ ç¢Ł
mu n
å®Ī éĹ¨
6æľĪ 4æĹ¥
è®¾æľī 1
ĠM ar
æľīä¸Ģ åĲį
èĥŀ èĥİ
ur g
ç¾½ èģĶ
ç¼© åĩı
æĽ¾ç»ı åľ¨
Ġ194 7å¹´
å¤©ä¸»æķĻ ä¼ļ
å»ºæĪĲ éĢļè½¦
æĲľ æŁ¥
æº¶ è§£
å¼ķåħ¥ äºĨ
æĹłè®º æĺ¯
åıĮæīĵ åĨłåĨĽ
åĿĲèĲ½ äºİ
ç½¹ æĤ£
éķ° ä»ĵ
Microsof tĠ
) âĢĿ
4 æľĪ29æĹ¥
6 å¹³æĸ¹åħ¬éĩĮ
6 æľĪ29æĹ¥
8 æľĪ23æĹ¥
: ,
Ġ æ¢ħ
çļĦ ç®¡çĲĨ
çļĦ ä¿ĿæĬ¤
çļĦ é¢ľèī²
æĺ¯ çļĦ
å¤§ éĥ½
åľ° å±Ĥ
ä¸į ä¾¿
è¥¿ åŁŁ
èĢĮ è¿ĻäºĽ
å¾· æĽ¼
ç¾İ æµĵ
ä»£ ä»Ģ
çŃī åĽłç´ł
ä¸¤ åı°
åĢ ©
è®¤ çľŁ
11 äºº
åĽ½å®¶ ç»Łè®¡
æ¯ı å¹´çļĦ
å¾Ģ åĲİ
æŃ¦ å¾·
la ck
è´¨ åŃĲ
åĽŃ èīº
æĬ¤ éĢģ
åħ« å¤§
ä¸ĥ ä¸ĸ
è´Ł äºİ
å£° æı´
æĻ¯ æ³°
8æľĪ 3æĹ¥
éĩįè¦ģ ä½ľçĶ¨
2æľĪ 10æĹ¥
åģı è¥¿
éŀ ĺ
æĪĸèĢħ æĺ¯
äºİ198 6å¹´
Ġ196 6å¹´
éĽĩ ä¸»
å·§ åħĭ
åĲĮçĽŁ ä¼ļ
æŃ¥åħµ å¸Ī
é©¬æĭī éĽħ
å·« å¸Ī
éĩĩè®¿ æĹ¶
æĳĶ è§Ĵ
éĺ¿å§Ĩæĸ¯çī¹ ä¸¹
å¯ĨæŃĩæł¹ å·ŀ
1 æľĪ13æĹ¥
2 60
6 åı·çº¿
9 æľĪ21æĹ¥
B ar
çļĦ 3
çļĦ ä¸ľè¥¿
çļĦ æ¯Ķä¾ĭ
ãĢģ ãĢĮ
åľ¨ åİŁ
ä¸Ģ çĲĥ
èµ Ĥ
è¡Į åĨĽ
åħ¬ èģĮ
è¥¿ ç«Ļ
æ°ĳ æĿĥ
å¯¹ éĿ¢
åĬ¨ æ¤įçī©
æīĢ ç»ĦæĪĲ
æīĢ åıĸä»£
åĨħ ä¾§
åĪ¶ å®ļçļĦ
10 åĲį
10 æľĪ22æĹ¥
çĽ¸ æİ¥
èĭ± å®Ĺ
å°¼ ç½Ĺ
åĽĽ åįģå¹´
è¯Ń æĸĩ
æĹł æĶ¿åºľ
éľ ¹
çķĮ çº¿
æĻ® æ³ķå°ĶèĮ¨
èº« ç©¿
å¥¹ è¢«
æ¸ħ æĶ¿åºľ
åĵĪ å§Ĩ
åĿĩ è¢«
è¯º å¨ģ
èĬ± å²Ĺ
ç»§ èĢĮ
æĦŁ çŁ¥
åıĳå±ķ æĪĲ
åĵ¥ èĲ¨åħĭ
éĻį èĩ³
3æľĪ 12æĹ¥
èĻ½çĦ¶ åľ¨
åģĩ å¦Ĥ
é²ľ æĺİ
ä¸° èĩ£
æīİ æ³¢ç½ĹçĥŃ
éĿĴå¹´ åĽ¢
äºİ198 4å¹´
äºİ198 7å¹´
çŁ¥è¯Ĩ åĪĨåŃĲ
åı°åĮĹå¸Ĥ æĶ¿åºľ
å¥¥å°Ķ èī¯
è¯± å¯¼
æľīåĪ© äºİ
æ®´ æīĵ
èĲ¨è¯¸å¡ŀ å·ŀ
% )ãĢģ
6 æľĪ16æĹ¥
8 æľĪ27æĹ¥
Ġ re
Ġ æľīäºĽ
çļĦ è¿ĲåĬ¨
æĺ¯ ç½Ĺé©¬å°¼äºļ
åĴĮ ä¸ĢäºĽ
åŃ¦ ä¸Ń
ä¸Ĭ å°ī
èĩª å¹¼
åĮĹ å¤§
çĽ¸ æľĽ
æ°´ æīģ
æıĲ æĹ©
åıĸ äºĨ
åľ°åĮº ä»£è¡¨
æĿĥ éĻĲ
åħŃ åĲį
äº¦ äºİ
å¸Į æĭī
åī¯ çľģéķ¿
åĵ¥ æľ¬åĵĪæł¹
ic s
å»¶ èĩ³
9æľĪ 11æĹ¥
6æľĪ 19æĹ¥
1æľĪ 8æĹ¥
éº¦ åį¡
æ·· éŁ³
æįķ é£Ł
çİī ç±³
çİ¯å¢ĥ ä¸Ń
éĤ» å±ħ
åĲ¬ è§ī
åķĨä¸ļ éĵ¶è¡Į
è·¨ åĽ½
è¾ŀ åħ¸
å¤§éĥ¨åĪĨ çļĦ
Ġ18 4
èĮ¶ åı¶
åĽ½åĨħ å¤ĸ
æĺŁæľŁ æĹ¥
åħ¥ä¾µ ä¹Įåħĭåħ°
è¯¥çľģä»½ä¸ºæ³ķåĽ½ è¥¿åĮĹéĥ¨
æĿ°åħĭ æ£®
è¯¥æĿĳ å§ĭå»º
éĩľ å±±
1 æ¬¡
4 æľĪ17æĹ¥
Ġ äºĶ
Ġ çİ°åľ¨
ä¸ ķ
åľ¨ é©¬
äºº éĺŁ
èĢĮ è¯¥
å¹³ åıį
æĻ Ĵ
æĪĺ åĬŁ
çĤ ¬
èµ· éĻį
æĶ¹ æŃ£
æ¸¸ çī§
åĩ» æºĥ
è¿ĳ æµ·
çŁ³ åĪ»
æŁ¥ è¯¢
è®¤ä¸º è¿Ļ
ä¿® è¯»
åī¯ ä½ľçĶ¨
æĬĢ èīº
å¥ĩ å¼Ĥ
æıĲä¾Ľ æľįåĬ¡
9æľĪ èĩ³
ĠC omp
æĪĲåĬŁ åľ°
æ²ĥ å°Ķå¤«
is m
ãĥ ĥ
åĩ¯ æĴĴ
å®ļä¹ī çļĦ
ä»Ļ å¥³
ä¸ŃåĽ½äººæ°ĳ æĶ¿æ²»åįıåķĨä¼ļè®®
èĢĮè¯¥åľ° æľĢé«ĺçĤ¹ä¸º
æĳ§æ¯ģ äºĨ
æīĵçł´ äºĨ
æĬ¤åį« èĪ°
å¼ĹåĲī å°¼äºļ
éĩĳæĹ¥ æĪĲ
éº¦è¿ª éĢĬ
4 æľĪ25æĹ¥
5 æľĪ24æĹ¥
B e
L ED
çļĦ éģĹ
åľ¨ éĩİ
æĺ¯ éĿŀ
å¤§ ä»Ļ
æľī åı²ä»¥æĿ¥
å°Ķ æĽ¼
æ³ķ åĪ¶
çī¹ æľī
æĸĩ åºĻ
æĻ ı
200 5
èĢħ ä¹ĭä¸Ģ
éĥ½ å°ī
æł¼ éĻµ
æĺİ å¸Ŀ
12 æľĪ22æĹ¥
æ²³ å¸Ĥ
ä¸ĵ åĪ¶
é£İ ä¿Ĺ
å¤´ çĽ®
çŁ¥ äºĭ
çĵ¦ æĸ¯
en c
çļĦä¸Ģä¸ª æĿĳ
æ¨¡ èĮĥ
èĬ± äºĨ
èĢģ é¼ł
çľĭ åĩº
å³ ¨
6æľĪ 11æĹ¥
11æľĪ 19æĹ¥
æµ·åĨĽ éĻĨæĪĺéĺŁ
å°ıæĹ¶ åĨħ
æ·· åıĮ
çĤ® åĩ»
ãģ Ĺ
ç¬¬åįģ äºĶ
çıį å®Ŀ
189 7å¹´
å¦Ĥä¸ĭ è¡¨
å®īè£ħ äºĨ
äº¿åħĥ äººæ°ĳå¸ģ
ha el
èĩªèº« çļĦ
CO VID
èĦ¸ ä¹¦
æĬĦ è¢Ń
åŃļ æĹ¥
ç³Ł ç³ķ
éľ¹ éĽ³
5 åı·çº¿
6 æľĪ26æĹ¥
7 æľĪ17æĹ¥
7 æľĪ29æĹ¥
a ut
Ġ å¥ĸé¡¹
çļĦ æĸ¹åĲĳ
çļĦ ä¿¡æģ¯
åľ¨ è¿Ľè¡Į
åľ¨ ä¸įåĲĮ
å¤§ éŁ©æ°ĳåĽ½
ä»¥ 6
éĿ ¼
ä¸Ĭ çº§
è¡Į è¿Ľ
ä¸į åĮħæĭ¬
æĬ Ĵ
æĸ¹ ä½į
å¼Ģ äºĨ
å¹³ æĹ¶
åĨħ å¿ĥ
çķ ¸
å°ı å·´
å®ī éĹ¨
å¸¸ ä¾į
æŀĹ åľ°
åİĨ å¹´
çº³ æ£®
ä¿¡ ä»¶
èĭı åĮº
çļĦä¸Ģ æ®µ
æŀĦ æĢĿ
åľ£ å½¼å¾Ĺåł¡
ç¬¬äºĮ å¹´
çıŃ æľº
åĽłä¸º åħ¶
æĬĹ äºī
çĿ£ å¯Ł
9æľĪ 10æĹ¥
7æľĪ 3æĹ¥
å·²ç»ı æľī
æķĳ åĩº
æ¦Ĥ åĨµ
In ter
å°ĶçļĦ æĳ©
æĹħå®¢ åĪĹè½¦
åıĶ çĪ¶
åĬĿ è¯´
ç»´åŁĥ çº³çľģ
1920å¹´ ä»£
è¾¾ç§ĳ ä»ĸå·ŀ
å¤ıæľĹå¾· çľģ
b y
Ġ 23
Ġ 22
çļĦ T
çļĦ åĮĹ
åľ¨ å¥¹
åĩº åĩ»
ä¹ĭ å¼Ł
çĶ¨ è¯Ń
ä¸ĭ ä¸Ģä¸ª
å¸Ĥ åĮºçļĦ
ç¾İ å¥ĸ
åīį éĿ¢
é«ĺ åĩº
é«ĺ æ½®
ä¸ī åĪĨä¹ĭä¸Ģ
ä¹Ł å¾Ī
è¿ĩ æ»¤
å°Ĩ ä»¥
æľº å¯Ĩ
æł¼ åĪ©
éĺ¿ æĸ¹ç´¢
å¤Ħ å¥³
éĿ¢ç§¯ 3
ä»Ĭ æ²³åįĹçľģ
åįĩ ä¸Ĭ
å¥½ å¤Ħ
æĭħä»» è¿ĩ
éĿĴ è¡£
å§Ĩ çļĦ
çĶ² å£³
åĨľ çĶ°
ä¾§ çº¿
æĢĿ ç»´
æĬĢæľ¯ åŃ¦éĻ¢
çŁŃ ç¯ĩ
è¾ĵ ç»Ļ
çİĽ åĪ©äºļ
yĠ M
åħį äºİ
èį£ èĢĢ
ç»§ç»Ń åľ¨
ä¸° çĶ°
æķ¦ ä¿ĥ
èģļ çĦ¦
ad e
ä¼° ç®Ĺ
ä½Ĳ æ²»
å¨ģå°Ķ éĢĬ
å¼Ģè®¾ äºĨ
IV E
æ¡ĵ åħ¬
ĠSch ool
å·´å¡ŀ ç½ĹéĤ£
æł¼éĻµ åħ°
2 å¹³æĸ¹åħ¬éĩĮ
7 æľĪ22æĹ¥
Ġ æľĪåı°
çļĦ éĤ£
ä¸Ģ æ¬¾
åĴĮ ä¸ľ
æķ ŀ
éĺ Ļ
åĪĨ åĩº
å»º æŀĦ
è½¦ ç¥¸
è¯¥ è®¡åĪĴ
å±± ä¸ĭ
å°ı å¿ĥ
å°ı åŃ¦æł¡
åįģ ä¸ĩ
æİ¥ åħ¥
åĽĽ åįģäºĮå¹´
åĽĽ åĪĨä¹ĭä¸Ģ
12 æľĪ2æĹ¥
éŁ³ éĢŁ
æº º
æ±Ł æ¹ĸ
æ³¢ åĪ©æĸ¯
åħī èį£
è¿ŀ éĢļ
éħį æľī
è¿Ļä¸ª åĲįåŃĹ
è¿½ æįķ
äº¿ ç«ĭæĸ¹ç±³
è¡ĮåĬ¨ ä¸Ń
éľį æĻ®
éĨ ļ
éļĲ å±ħ
ä½įäºİæ³ķåĽ½ å¥¥åħĭè¥¿å¡Ķå°¼å¤§åĮº
äºĮæĪĺ æľŁéĹ´
å¼ĹéĩĮ å¾·éĩĮå¸Į
å·²çŁ¥ çļĦ
åį°ç¬¬å®ī çº³
åİ¨ æĪ¿
éŀĳ éĿ¼
3 æľĪ21æĹ¥
7 æľĪ25æĹ¥
Ġ æĮī
Ġ æŃ¤åĲİ
çļĦ æĶ¿åºľ
çļĦ çĻ½
å¤§ æµ·
æĹ¥ æ¸Ĳ
ä¸Ĭ è¯¾
ä¸į ç®¡
ä¸į ç¨³å®ļ
åĪĨ åħ¬åı¸
å¼Ģ ä¼ļ
æĪĺ åīį
å°Ĩ ä¹ĭ
è¡¨ æĢģ
è®¾ æĥ³
å¤© åŃĲ
10 åĪĨ
å¹¿ çĶµ
åºĶ åıĺ
åıĸ åĲį
å¤ª å¸¸
åŃĹ åŃĲ
ä¼Ĭ åĬ¿
è§Ĵ é¾Ļ
è°ĥ è§£
æ´¾ åĳĺ
åħµ å½¹
æ¬§ äºļ
åħ¶ä»ĸ åĽ½å®¶
è¾¹ åĮº
èĪ¹ åİĤ
åģļ å¥½
ä¸¥ èĤĥ
è¿ĺæľī ä¸Ģä¸ª
éĹŃ çİ¯
åģı è§ģ
éĺ¿æĭī è´¡
åĩıå°ĳ äºĨ
èĩ³å°ĳ æľī
çİĦ å®Ĺ
æ¸Ķ æ°ĳ
æŁĶ ä½Ľ
çļĦæĶ¯æĮģ èĢħ
Met acritic
Dav idĠ
æł¸ç³ĸ æł¸éħ¸
ä¼¯æĺİ ç¿°
3 20
5 æľĪ17æĹ¥
8 æľĪ25æĹ¥
O ricon
o ch
w ork
Ñ ģ
Ġ æ¯ķä¸ļäºİ
çļĦ åĽ½
çļĦ åĪĽä½ľ
ãĢ ĩ
æĺ¯ æĸ°
ä¸İ ä¿Ħç½Ĺæĸ¯
ä¸» æĶ»
ä¸» çĤ®
ç¬¬ 21
çī¹ åĪ©
ä¸ī éĿ¢
ä¸ī åı¸
çİ° è¡Į
çŃī åĽ½
200 6
åħ¨ åľº
èģĶ è½¦
éĥ½ æĺ¯åľ¨
æ°´ ä½į
ä¹Ĳ ç«ł
an y
æłĩ è¯Ń
æĬ¥ ç¤¾
æ±ī ä¸Ń
ä½ı å®¿
åºķ ä¸Ńå±Ĥæ°´åŁŁ
å¿« è½¦
10æľĪ 5æĹ¥
9æľĪ 19æĹ¥
6æľĪ 8æĹ¥
è¾ĵ éĢģ
éľ² åĩº
è·Ł èĳĹ
ä¹Ļ çĥ¯
æ®ĭ ä½Ļ
èķ Ĭ
189 0å¹´
å¸¸è§ģ äºİ
çļĦåİŁ åĪĻ
æłĸæģ¯åľ¨ åºķå±Ĥæ°´åŁŁ
ä¼ª è£ħ
åħĭæĭī èį·é©¬
ast er
åľ£è¯ŀ èĬĤ
% ).
4 æľĪ27æĹ¥
5 æľĪ22æĹ¥
6 æľĪ2æĹ¥
; ),
M E
m in
Ġ æĸ¯
çļĦ å°ıè¯´
çļĦ éĢīç¥¨
æĪ ®
ä¸Ń æī®æ¼Ķ
ä¸į é¡¾
æŀ £
åĲĮ èĥŀ
éķ¿ ä¹ħ
åı¯ ä½¿çĶ¨
ç¾İ å¼ı
ç¾İ å°ĳå¥³
é«ĺ åı¥ä¸½
ç»ı åĽ½
å½ĵ ä»Ĭ
éģĵ å¥ĩ
å±± è·¯
å±± åºĦ
å¤© çº¿
äº¤ æĽ¿
11 æľĪ2æĹ¥
è¿ĺ èĥ½
åŃĹ å¹ķ
ç¬¬ä¸Ģ æľŁ
åĳ¨ äºĶ
åħĪ çŁ¥
è¾ĥ çŁŃ
æ¨¡ åĿĹ
é²ģ è¿ħ
ä¹ĭåĲİ åıĪ
é»ĳ æµ·
åŁĥ ç±³å°Ķ
ä»ħ ä¸º
10æľĪ 18æĹ¥
7æľĪ 9æĹ¥
6æľĪ 7æĹ¥
1æľĪ 18æĹ¥
11æľĪ 6æĹ¥
11æľĪ 20æĹ¥
æ¯Ľ åĪ©
èīºæľ¯ åĵģ
é¡¶ å°ĸ
é²ľ èĬ±
ä½© å¾·ç½Ĺ
çľ¼ éķľ
å¾½ ç«ł
è¯ģæĺİ äºĨ
çļĦé¦ĸ ä¸ª
æ°¢ æ°Ķ
åĿĤ 46
äº¤åĵį ä¹ĲåĽ¢
6 æľĪ21æĹ¥
9 æľĪ13æĹ¥
F l
T eam
Ġ ä¸ŃåĽ½å¤§éĻĨ
Ġ åºĶçĶ¨
æĹ¶ å¹´
åĪĨ æ²»
ç¬¬ 18
æĸ° æĬĢæľ¯
åĬł æĿ¥
è¯¥ ç³»ç»Ł
å®ļ åĲįä¸º
å°ı éĺŁ
ç§ĳ éļĨ
æł¼ è¾¾
çº¦ 30
é¦ĸ åıĳ
éĶ »
ä¹¦ çļĦ
å¼ł æ°ı
çŁ³ å®¶åºĦ
åķĨ è®®
åķĨ è®¨
å¨ģ åĪ©
æļ ¹
çĵ¦ åĭĴ
16 äºº
16 00
ä¹Ŀ ä¸ª
å¿Ĺ æĺİ
æľ¨ æĺŁ
4æľĪ 8æĹ¥
4æľĪ 20æĹ¥
å¥³æĢ§ çļĦ
å¸Ĥåľº çļĦ
å®ĹæķĻ ä¿¡ä»°
ç¼ĺ åħ³ç³»
ç»ĺ åħ¥
çĩĥ æ²¹
ĠW indow
çºµ åĲĳ
èĹ© ä¸»
Ġ193 9å¹´
çĺ ¾
ç¿»è¯ĳ æĪĲ
æĲ¬ è¿ģ
å²Ĺ ä½į
åı²ä¸Ĭ æľĢ
Un ivers
ä¾Ħ åŃĲ
èµ¦ åħį
äºļåĪ©æ¡ĳ éĤ£å·ŀ
3 æľĪ24æĹ¥
I X
c tion
Ġ éļıåĲİ
Ġ æľĢåĪĿ
çļĦ åħĥç´ł
åľ¨ ä¸ĸçķĮ
åľ¨ å¹¿å·ŀ
çĲ Ľ
ä¸Ĭ çıŃ
åĲį å£«åħµ
ç¬¬ 24
å§ ¨
èĢĮ æ²¡æľī
æĮ £
è· ª
å¯¹ åĨ³
çī¹ æľīçļĦ
éķ¿ åŁİ
å½ĵ æĪĲ
å°Ĩ è¿ĻäºĽ
éĩį çĶŁ
æĢ» ç¼ĸè¾ĳ
çĽ¸ äº¤
ç»Ħ åĪ«
çº¦ å®ļ
æıĲ èµ·
æµģ æĺŁ
ä¸¾ ä¾ĭ
åı¤ åħ°
æĪĲä¸º ä¸ŃåĽ½
è¿ĳ äº²
èĬĤ è½¦åİ¢
ç¦» ä¸ĸ
çłĶç©¶ ä¸Ń
ç¬¬äºĮ éĺ¶æ®µ
èĬ± åºı
ä¹¡ æ°ĳ
éĩĩ æł·
èĪ° éķ¿
ä½ķ å¡ŀ
æĸĩåĮĸ ä¸Ńå¿ĥ
ç²¾ éĢļ
åİĭ åĢĴ
åı³ ä¾įéĥİ
å¿ħ éľĢ
1æľĪ 3æĹ¥
äºĭä»¶ åĲİ
å©ļ åĲİ
ç«¥ åĨĽ
å·¨ åŀĭ
åı¬ åĶ¤
um p
æµª è´¹
éĿĻ èĦī
å¤§çº¦ åľ¨
åľ°éĵģ ç«Ļ
åĽ½ç«ĭ å¤§åŃ¦
Ġ196 0å¹´
æĶ¿åįı åī¯ä¸»å¸Ń
" &
" |
) -
5 æľĪ26æĹ¥
P V
â Ĺ
Ġ åŃ¦æľ¯
çļĦ éĻĲåĪ¶
åľ¨ æĦıå¤§åĪ©
äºº éĹ´
çº ¶
è´ ®
ä»ĸ äº¦
ä¸į åĪĨ
çĶŁ åŃĲ
åĨĽ æł¡
å¸Ĥ å§Ķ
çİ° èº«
åĲĪ æł¼
ä¸¤ å¤©
çº¦ 7
åĽĽ åŃ£
äº§ äºİ
æĶ¹ åĬ¨
åį¡ éĩĮ
å¼Ģå§ĭ å¯¹
é¦Ļæ¸¯ çĶµåı°
è¿ŀ çİ¯
æĺ¯ä¸Ģ é¦ĸ
åį° æ¬§
èŃ¦ ç½²
é¢Ħ éĢī
7æľĪ 5æĹ¥
6æľĪ 5æĹ¥
æ¬§æ´² çļĦ
æ°ĳåĽ½ 3
åĨ² åĪº
åħ» åŃĲ
é½Ĳ åĽ½
æĺ¾ç¤º åĻ¨
èĦ± æ°§
è§Ħæ¨¡ çļĦ
å°Ĩåħ¶ åįĩæł¼ä¸º
è®Ńç»ĥ çıŃ
æıŃ åıĳ
æĬ¢ æķĳ
å¡« æµ·
åĸ· æ³ī
åĥ§ äºº
åĪ· æĸ°
éĵľçīĮ å¾Ĺä¸»
æĥ¨ éĩį
åĪ¶æĪĲ çļĦ
æ¨± èĬ±
åĪ©å¥¥ æ³¢å¾·
äºļå½ĵ æĸ¯
çĻ½åŀ© çºª
çĲµ çĲ¶
1 æľĪ21æĹ¥
3 æľĪ16æĹ¥
3 æľĪ2æĹ¥
3 æľĪ14æĹ¥
5 å¹³æĸ¹åħ¬éĩĮ
M G
i OS
t s
çļĦ é»Ħ
æĺ ¼
å¤§ æ®¿
éķ Ģ
ä¸İ æ³ķåĽ½
åĩº çĭ±
åıĳ æºĲèĩª
ä¹ĭ å¿ĥ
ä¹ĭ æŃĮ
è¥¿ è¾¹
å¸Ĥ åĴĮ
å¾· æ¯Ķ
äºļ è¶³èģĶ
èĩ³ 2021å¹´
å°ı ç±³
ç§ĳ å¤§åŃ¦
çĦ Ĭ
åį¡ å¡Ķ
åį¡ è¿ª
å¹¿ éĺĶ
å®ĺ åĲı
å¤ª çĽĳ
ä¸ĸçķĮ çºªå½ķ
çĶ· çĪµ
çĥŃ çĥĪ
çº¢ ç£¡
åŁĥ çº³çľģ
çļ® çī¹
9æľĪ 5æĹ¥
3æľĪ 30æĹ¥
4æľĪ 3æĹ¥
000 ç¾İåħĥ
èı² æĸ¯
åĲ¯ ç¤º
é¡¶ ç«¯
è¡¥ è´´
æľ± åħĥ
èĪªç©º éĺŁ
æĬµ æĬ¼
éŃĶ é¬¼
å¼ĢæĶ¾ å¼ı
å°Ĭ ä¸¥
ç¥Ń åı¸
ä½įäºİè¯¥åĽ½ è¥¿åĮĹéĥ¨
åī² è®©
æ°Ķè±¡ åİħ
çīłä»¬ çļĦ
èģª æĺİ
é©¬å°¼ æĭī
è¯¥çľģä»½ä¸ºæ³ķåĽ½åĮĹéĥ¨ åĨħéĻĨçľģä»½
è§Ĵèī²æī®æ¼Ķ æ¸¸æĪı
å±ŀä¸ĭçļĦä¸Ģä¸ª ç§į
è¾Ľäº¥ éĿ©åĳ½
2 O
7 37
w ith
ä¸º åīį
ä¸º çĽ®æłĩ
äºº åĲį
å¤§ ä¹ĺ
åĴĮ æĿİ
ä»¥ éģ¿åħį
âĢ ²
ä¹ĭ åıĺ
å¹¶ è¡Į
è¥¿ åĽŃ
ä¹Ł éĥ½
å¤ĸ è¯Ń
é©¬ çī¹
ç§ĳ éĽ·
çĤ ¯
éĺ¿ çº³
èĳ ±
åį¡ çļĦ
æĪĲä¸º è¯¥
å¼Ģå§ĭ ä½¿çĶ¨
å¡Ķ çī¹
ar g
æ±ī æĸĩ
æŃ¥ éģĵ
13 äºº
it ed
12æľĪ 3æĹ¥
10æľĪ 19æĹ¥
èı² äºļ
ä¸Ńåįİäººæ°ĳåħ±åĴĮåĽ½ æĶ¿åºľ
æĳĦ åıĸ
äºĮåįģ äºĶ
è¿Ļä¸Ģ æĹ¶æľŁ
2æľĪ 11æĹ¥
éĢĥ éģ¿
åıįåºĶ çĤī
èĪį äºº
å¤§ä¼ļ åłĤ
èķ ¨
çĦ¶åĲİ åľ¨
èĲ§ æĿ¡
äºİ194 5å¹´
éĢĴ äº¤
äº¿ç¾İåħĥ çļĦ
é¢ĩ ä¸º
çŁ® æĺŁ
èĥĮé³į è½¯æĿ¡
è°¨ æħİ
s ilver
Ġ æľĢç»Ī
Ġ id
çļĦ é¢ĨåľŁ
çļĦ åģļæ³ķ
ä¸º æŃ£
ä¸Ģ æıĲ
å¤§ çİĭ
åĴĮ æ³ķåĽ½
æ³ķ åĪĻ
ä¾ ¬
æĭī æĭī
è° Ł
åĪ¶ è®¢
ç±³ å¾·
çĽ® çĿ¹
äº§ æĿĥ
æĮĩ çļĦ
ä¼ł æİĪ
æĽ´ åħ·
æĽ´ å¿«
11 æľĪ24æĹ¥
11 æľĪ26æĹ¥
è§£ è¯´
åĳ¨ æ°¸åº·
ç¦» åİ»
äº¦ åį³
åı¯èĥ½ ä¸İ
å¸Ĥéķĩ éĿ¢ç§¯ä¸º
ä¸ĸçºª æĹ¶
åº· æĸ¯åĿ¦
å¾ģ æĪĺ
5æľĪ 7æĹ¥
åĲĮå¹´ äºĶæľĪ
åħį åıĹ
äºĴ éĢļ
æĢ¥ åī§
ĠG am
500 ç±³
æĹģ çļĦ
æĺĨ ä»ĳ
æľīæĹ¶ åĢĻ
åĪĽç«ĭ çļĦ
ä¾¦ æµĭ
Ġåī§æĥħ ç®Ģä»ĭ
Ġw h
å¿ĹæĦ¿ åĨĽ
é©¬è¾¾ åĬłæĸ¯
è¯¥çī©ç§įçļĦæ¨¡å¼ıäº§åľ° åľ¨
åĮĹåį¡ç½Ĺèİ± çº³å·ŀ
èµ«é²ģæĻĵ å¤«
2 æ¬¡
5 æľĪ27æĹ¥
Ġ é¾Ļ
çļĦ æľ¬
ç» ŀ
ä¸Ń éĥ½
åĴĮ åįİ
å®¶ éĩĮ
è¢« åıĸæ¶Ī
å¼Ģ æĭį
å¾· èĲ¨
åįģ åĲį
ç±³ æŃĩå°Ķ
èĭ± åĨł
12 æľĪ27æĹ¥
éŁ³ æºĲ
11 æľĪ17æĹ¥
11 æľĪ23æĹ¥
on Ġ
çŁ³ éĹ¨
æºĲ å¤´
æĹ© æĻ¨
éĺ² æļ´
å£° è°ĥ
è¡ĮæĶ¿ æĿĳ
å¼¹ åĮ£
11æľĪ 12æĹ¥
ä¾ĭå¦Ĥ åľ¨
èĮĥåĽ´ åĨħçļĦ
æŃ»äº¡ çļĦ
çļĦä¸» å¼ł
æģĲ æħĮ
èĳ¡èĲĦ ç³ĸ
189 4å¹´
Ġ195 2å¹´
æ°§åĮĸ çī©
çº¬ åº¦
çİĦ æŃ¦
éĶĻè¯¯ çļĦ
å®ļå±ħ çĤ¹
ç¼©åĨĻ ä¸º
é£ŁçĶ¨ é±¼
èħĵ åĬĽ
ä¸»äºº åħ¬
æĹıèĩªæ²» åİ¿
çļĦåľ°éĵģ è½¦ç«Ļ
ä¾® è¾±
3 80
5 æľĪ2æĹ¥
8 æľĪ14æĹ¥
9 å¹³æĸ¹åħ¬éĩĮ
B o
G DP
M e
Ġ ä¸ĵè¾ĳ
çļĦ æĿİ
çļĦ çĶµåŃĲ
å¤§ åŁİå¸Ĥ
åĴĮ å¼¦
åĳ Ĩ
ä¸İ ä»ĸçļĦ
è¡Į äºĭ
åįĹ è¶Ĭ
äºĮ åįĥ
ä¸ŃåĽ½ é©»
èµ· åľ¨
12 æľĪ13æĹ¥
åħļ ä¸»å¸Ń
æ²³ å²¸
éĴ Ĭ
èĮ ±
æ´¾ åĩºçļĦ
é¢ĺ ä¸º
en er
è¡Ĺ çļĦ
è´Ŀ èĴĤ
åģľ æĴŃ
éŁ© è¯Ń
ç¬¬ä¸ī ä»£
11æľĪ 10æĹ¥
çĽ®åīį å·²
èĭ¥ æľĽ
å°¾ éĥ¨
è¿Ļç§į æĥħåĨµ
om e
æ·· æ²Į
ç§ģ ä¸ĭ
åıªæľī åľ¨
èľ Ĺ
éĻµ å¢ĵ
èĩªçĦ¶ ç§ĳåŃ¦
å¥Ī èī¯
å°Ĭ æķ¬
èļ ķ
é¼ĵ æīĭ
æĭĨ è§£
å¸ĥå°Ķ ä»Ģç»´åħĭ
å¾ĹåĲį äºİ
é¢ģå¥ĸ ç¤¼
åįłæĢ»äººåı£ çļĦ
å¼łåŃ¦ èī¯
1 å¤Ħ
3 æľĪ23æĹ¥
8 æľĪ13æĹ¥
U P
m i
Ġ ä¸¤
Ġ åįļ
çļĦ è®°å½ķ
çļĦ çĬ¶åĨµ
åı ±
åŃ¦ å¹´
ä¸į ä¸Ģå®ļ
å°Ķ åĴĮ
å¹¶ æıĲä¾Ľ
å¤ļ å¾·
ãĢĮ ãĢį,
æµ· ä¼¦
ç½Ĺ çĲ³
å·´ å¾·
å¥³ çĶŁ
éķĩ ä¸ĭè¾ĸä»¥ä¸ĭåľ°åĮº
11 æľĪ25æĹ¥
ä»¥åıĬ å¯¹
è½¬ æĪĺ
çļĦä¸Ģ åįĬ
æ´¾ é©»
åĬŁ å¤«
æ²Ļ åĴĢ
èĪ° ä¸Ĭ
ä¸ĥ äºº
å²ģ ä»¥ä¸Ĭ
æĪĺäºī ç»ĵæĿŁåĲİ
çĲĥéĺŁ åľ¨
ç»ıè¿ĩ æľ¬åľ°åĮº
éŃĶ å¥³
éĺ¿æĭī å·´é©¬
éĿĻ æĢģ
å¤©ä¸»æķĻ å¾Ĵ
çļĦå½±åĵį åĬĽ
ä½įäºİæ³ķåĽ½ åĭĥèī®ç¬¬
äºİ197 9å¹´
æī©å±ķ åĪ°
åµĮ åħ¥
âĦĥ ,
åĪĨä¹ĭ äºĮ
èĩĢé³į è½¯æĿ¡
æ·¹ æ²¡
èĭıé»İ ä¸ĸ
ç»ĺåħ¥ åľ°åĽ¾
3 æľĪ22æĹ¥
r ing
Ġ èĬĤçĽ®
çļĦ è¶ħ
ç» «
ä¸Ń å°ī
ä¼ļ ä½¿
ãĢĬ -
åħĭ æĭīæĸ¯
çī¹ æĿĥ
åĳĺ çļĦ
æĸ° ç§Ģ
çŁ ½
äºĮ æ¥¼
æ¯Ķ åħĭ
éĥ½ æĺ¯çĶ±
è®® æ¡Ī
æıĲ æĭĶ
åĲĳ ä¸ľåįĹ
åĲĳ è¥¿åĮĹ
ä½įäºİ ç¾İåĽ½
è§Ĵ çļĦ
æ²Ļ çļĩ
éĺ² æİ§
èĭ±åĽ½ äºº
åŃ¦éĻ¢ éĻ¢éķ¿
æľ¨ åĪ¶
å¼¹ å¤´
åıĭ äºº
çªģ åıĺ
1æľĪ 5æĹ¥
11æľĪ 4æĹ¥
èĩªçĶ± æĦıå¿Ĺ
ç±į è´¯
äºĮåįģ ä¸ĥå¹´
éª¨ å¤´
ç»Ĩèĥŀ çļĦ
æĿĤå¿Ĺ çļĦ
æĬĺ è¿Ķ
è¿Ľä¸ĢæŃ¥ çļĦ
ç¼ĵ åĨ²
åıĶ åıĶ
åįĩçº§ ä¸º
åłª èĲ¨æĸ¯å·ŀ
æĶ¿æ²»éĥ¨ ä¸»ä»»
éĿ¢2 çº¿çļĦ
å®¾å¤ķæ³ķ å°¼äºļå·ŀ
2 æľĪ25æĹ¥
4 æľĪ26æĹ¥
B ill
C G
N ET
Ġ ä¸ĩ
åľ¨ çĶµå½±
æĺ¯ åĮĪçīĻåĪ©
å¤§ åĮºçļĦ
æĹ¥ çħ§
æĹ¶ éļĶ
åħ¶ åĲįç§°
ä½ľ åĩºäºĨ
åĲį èĥľ
ä¹ĭ ä½į
è¥¿ å±±
æĿ¥ çº³å·ŀ
è¿Ļ ä¸İ
åįĹ äºļ
åįĹ éģĵ
ç¾İ åŃ¦
äºļ çĳŁ
æīĢ ä¸º
äººåı£ ä¸ºäºº
éĹ¨ åºĹ
æĮĩ æ´¾
æµģ ä½ĵ
an ce
æ¹¾ åĮº
æĶ¶ åħ»
åĪĽ ä¼¤
èĩ´ æŃ»
èİ± æ¯Ķ
éĺ² æ²»
çĶµè§Ĩ é¢ĳéģĵ
ä»ĸçļĦ åĲįåŃĹ
éĻĪ æ°´æīģ
æ£® çī¹
åģľ äº§
é¢Ħ æĬ¥
è¿ľ æ´ĭ
éĤ¦ çļĦ
7æľĪ 4æĹ¥
5æľĪ 11æĹ¥
ĠC on
èĢ¶ è®·
ou th
å°ıæĹ¶ åĢĻ
ri b
æī¾ åĩº
ä¸ľåĮĹ ä¸İ
å½ĵä¸Ń åĮħæĭ¬
2007å¹´ äººåı£
å¤§çº¦ æľī
188 6å¹´
åľ¨199 9å¹´
ä¹Ŀé¾Ļ å·´å£«
å¾Īå¤§ ç¨ĭåº¦ä¸Ĭ
å¤§éĺª åºľ
æ³Ħ éľ²
åħ«è¾¾ éĢļ
èĢĮè¯¥åľ°æľĢé«ĺçĤ¹ä¸º æµ·æĭĶé«ĺåº¦
1 æľĪ25æĹ¥
2 æľĪ2æĹ¥
4 æľĪ16æĹ¥
A X
H er
J u
æľ ½
åľ¨ æ¸¸æĪı
æĺ¯ åīį
æī Ķ
æľī ä¸¤ç§į
åĴĮ S
ä¸Ĭ åŃ¦
ä¸Ĭ åıĳè¡¨
åıĳ åħī
ç¬¬ 25
é¢ Ĳ
å¼Ģ åħ³
å£ ķ
ç¾İ é¾Ħ
åı° å±±
åĪ¶ å¾Ĺ
éĢļ é£İ
åĮĸ èº«
åĬĽ å£«
çģ ¸
åİĨ å±Ĭ
æĺŁ åĽ¢
åıį åħ±
æłĩ æ³¨
å¤´ éª¨
ç¬¬äºĮ ä»»
æ²Ļ æ»©
æĿĢ éĿĴ
ä½Ľ åĥı
åı³ æīĭ
4æľĪ 4æĹ¥
éĢļå¸¸ çĶ±
åĽ½æ°ĳ è®®ä¼ļ
ç£ Ĳ
çĶ·åŃĲ åĽ¢ä½ĵ
éľį åįİå¾·
èµŀ èªī
æĺ¾ç¤º åĩº
çĲĨè®º çļĦ
2005å¹´ äººåı£
Ġ195 4å¹´
Ġ193 8å¹´
TV B
å¡« è¡¥
åĪĨéħį åĪ°
çŃ¾è®¢ äºĨ
Ġé¦Ļæ¸¯ æĹ¶éĹ´
å¼Ģå¹ķ å¼ı
æµıè§Ī åĻ¨
1 æľĪ28æĹ¥
4 æĹ¶
4 æľĪ2æĹ¥
5 æľĪ16æĹ¥
5 æľĪ23æĹ¥
Ġ ä¿±ä¹Ĳéĥ¨
çļĦ ä¹¡
çļĦ å¨ģèĥģ
ä¸Ń ä¸º
ä¸Ń å¤ĸ
ä¸İ çİĭ
ä¹ĭ ä½ľ
å¹¶ ä½¿çĶ¨
éķ¿ åı²
ä¹Ł åĮħæĭ¬
ä½Ĩ ä»įçĦ¶
å£« æ°Ķ
åİŁ çīĪ
åį¡ èĲ¨
åŀĭ çĶµåĬĽæľºè½¦
æĮģ ä¹ħ
11 æľĪ21æĹ¥
è½¬ å½ķ
è®¤ä¸º åħ¶
æ³ķåĽ½ å¤§éĿ©åĳ½
å¤± æķĪ
æīį æľī
åĢ¼ çļĦ
9æľĪ 8æĹ¥
re et
ç»ĥ é©¬
äºĨä¸Ģ æ®µ
è°· åı·
æĻĭ èº«
ä¸»æķĻ ä¸º
é¢Ĩå¯¼ å°ıç»Ħ
å¸® å¿Ļ
å¥ī è¡Į
ãĤ ¯
od el
æģ¢å¤į äºĨ
ä¸īåįģ åħŃå¹´
ç§¦ åĽ½
åĭĩ æ°Ķ
äºĳåįĹ çŃīåľ°
ä¸Ĭæĺł çļĦ
åĬ³åĬ¨ åħļ
è¾¨ è¯Ĩ
åĵĪéĩĮ åıĳ
çīĽæ´¥ å¤§åŃ¦
ç¾Ł åŁº
7 æľĪ21æĹ¥
A O
M ag
ï ¸
Ġ æ¬§
Ġ å®ĭ
çļĦ æľĢä½³
å¹ ¡
ç» ¶
éĺ ±
ä¸İ ç»ıæµİ
ä»ĸ æĽ¾åľ¨
åĪĨ æĭĨ
ä¸ĭ è¾¾
åįĹ éĺ³
çŃī åĪ°
çŃī å¤Ħ
åľº æ¬¡
éŁ ¬
10 æľĪ13æĹ¥
æ¡ ©
æĢ» éĿ¢ç§¯ä¸º
éĥ½ å°Ĩ
è¾¾ å§Ĩ
æ°´ åİ¿
éĩĳ æĺŁ
ç¾İåĽ½ ç©ºåĨĽ
åĪĻ ç§°
æ²³ ä¸Ĭ
æ¢ ³
éª Ħ
ç¬¬ä¸Ģ åľº
æ°Ķ æµģ
èħ ¥
é²ģ çī¹
çĹħ æĥħ
çĻ¾ ä½Ļ
çĬ¶ åħĥ
èĴĻ åĵ¥
æī¿ åĬŀ
Ġ202 6å¹´
5æľĪ 4æĹ¥
1æľĪ 4æĹ¥
ç«¯ çĤ¹
é¡º å¤©
éĽĦ é±¼
ãĢĭ( ).
2æľĪ 8æĹ¥
éŁ¦ åħĭ
çĤ¸ èį¯
ä½įç½® æĺ¯
å·¥ä¸ļ éĥ¨
å¥ī çĮ®
æĪĪ çĻ»
åĢĴ æķ°
åĢĴ éĹŃ
188 9å¹´
æµħ äºķ
å¥ĳ ä¸¹
åĦĴ å®¶
å¼ĹæľĹ ç´¢çĵ¦
çº§åĪ« çļĦ
åħ¶å®ŀ æĺ¯
1 æľĪ22æĹ¥
4 æľĪ21æĹ¥
Ġ åı¦ä¸Ģæĸ¹éĿ¢
å¹´ åı·
æĺ ķ
ä¸Ģ å°ı
ä¸Ń åĮº
ä¼ļ åĩºçİ°
å®¶ åĴĮ
ä¸ĭ åı°
ä¸ĭ åįĬå¹´
ä¸ľ æĻĭ
å² Ķ
å¤ĸ å½¢
çº¿ æĿ¡
æģ º
çĽ¸ ä½į
éĻ¢ çļĦ
èĭ± ç¾İ
åįİ æĸĩ
å·´ æĸ¯åħĭ
äº¤ åĩº
12 æľĪ21æĹ¥
ä¸ĩ éĩĮ
åıį ä¹ĭ
ç¿ Ł
äºī éľ¸
15 äºº
éĽ· çī¹
è¯ģ äºº
è¡ĮæĶ¿ ç®¡çĲĨ
çīĮ çħ§
ä½ľåĵģ æľī
ç²¾ åį«
6æľĪ 3æĹ¥
000 Ġ
åĲ¯ èĴĻ
yĠ L
åĤ Ģ
ou g
åħħ çĶµ
ä¸Ŀ ç»¸
çº² é¢Ĩ
ç§Ł éĩĳ
åĪĨéĴŁ åĨħ
è±ª æĸ¯
æ®ĭ éħ·
æĦıä¹ī çļĦ
åįģåŃĹ æŀ¶
åıĳåĶ® çļĦ
çļĦæĶ¯æĮģ çİĩ
ç¨į åĲİ
ç¨Ģ å°ĳ
çĽ¸éĤ» çļĦ
é¥¥ èįĴ
åĽ½ç«ĭåı°æ¹¾ å¤§åŃ¦
ä¸ºçĥŃå¸¦ æ·¡æ°´é±¼
6 æľĪ23æĹ¥
y m
Ġ éĿŀ
çļĦ éĵģè·¯
åľ¨ æĹ¥
ä¸º 8
æĸ¯ è¾¾
ä¿ ¾
èĥ ±
å¤ļ ä»¥
åŃĲ å®«
èİ ½
ä¹Ł è¦ģ
å¤ĸ åĩº
å®ī åĵ¥æĭī
10 æľĪ2æĹ¥
å·´ å°ĶçļĦæĳ©
ç¾İåĽ½ åĽ½ä¼ļ
æĽ¾ çĶ¨
å§ĭ ç¥ĸ
åĪĻ ä¸İ
æ¸ħ åĪĿ
å¼ķ çĪĨ
æ²¡æľī è¢«
çĵ¦ éĩĮ
åĦ ¡
èİ± æģ©
çıŃ çº§
ç¤¾ä¼ļ åŃ¦
æŃ£å¼ı æĪĲä¸º
ç»ıæµİ åŃ¦å®¶
æĪĲåĳĺ ä¹ĭä¸Ģ
è½® å»ĵ
èī¾ èİī
éĢīä¸¾ ç»ĵæŀľ
åĽ½æ°ĳ å¤§ä¼ļ
2æľĪ 6æĹ¥
ç¬¬åĽĽ åŃ£
æ¸¡ è¿ĩ
éģ£ ä½¿
Ġ195 5å¹´
Ġ195 6å¹´
èħ¾ åł¡
ä¸īè§Ĵ æ´²
æĤ² ä¼¤
æ¶µçĽĸ äºĨ
å¥¥åı¤ æĸ¯
éĦĤåĽ¾æĽ¼ å¸ĿåĽ½
äºļçī¹åħ° å¤§
" )ãĢģ
4 å¹³æĸ¹åħ¬éĩĮ
9 æľĪ14æĹ¥
L P
u z
u ch
å ¶
çļĦ äººçī©
çļĦ åķĨä¸ļ
çļĦ ä½ľèĢħ
çļĦ çľŁå®ŀ
æľī çĤ¹
åĴ İ
ä¸į åłª
æ³ķ å±ŀ
è¢« çĶ¨ä½ľ
æ°ĳ å±ħ
èĩª æ°ĳåħļ
å¼Ģ åľº
æīĢ äº§çĶŁçļĦ
çŃī ç«Ļ
åı° è¯į
é©¬ ä»Ģ
è®¾ ä¸º
éĩį åĽŀ
åİŁ èĳĹ
çº¦ åľ¨
æ°´ åĴĮ
éĩĳ å¸ģ
å¨ ĩ
ä½įäºİ åįĹ
ç¤¾ çļĦ
æĻ® åħ°
äºĶ ä½į
æ´» å¡ŀ
åħī æ»ĳ
éļı æĦı
çĵ¦ å°Ķå¾·
åįĩ çıŃ
å¡ŀ åĨħ
è¿ĻäºĽ äºº
æ³° åĿ¦
9æľĪ 4æĹ¥
9æľĪ 12æĹ¥
8æľĪ 18æĹ¥
éĩįè¦ģ æĢ§
ç¯ ¡
éĢģ åĽŀ
äºĨä¸Ģ åĲį
åªĴ ä»ĭ
ãĥ ª
ä¸ĢèĪ¬ æĿ¥è¯´
æĸ°éĹ» åıĳå¸ĥ
Ġ197 2å¹´
åĪĽåĬŀ äºĨ
å®ŀéĻħä¸Ĭ æĺ¯
æĶ¶è´Ń äºĨ
éĺĶ åı¶
å½¢å®¹ è¯į
ber g
å¢ĥåĨħåħ±æľī åĲĦç±»
æİł å¤º
çī¹åĮº æĶ¿åºľ
å±¡ æ¬¡
æĶ¹ç»Ħ ä¸º
Ge org
"ãĢģ "
3 å¹³æĸ¹åħ¬éĩĮ
Ġ éĽ·
ãĢģ âĢľ
åľ¨ åı°åĮĹ
ä¸Ģ ä¾§
ä¸Ń ç¾İ
å¤§ åĽ½
åĴĮ å¤ļ
ä¼ļ æīĢ
ä¸İ åĮĹ
ç¬¬ 23
åĨĽ åĪĨåĮº
è¢« æīĵ
çī¹ äºº
è¿Ľ åĪ¶
èµĽ åīį
æĭī æ¯Ķ
è° ¤
å¤ĸ å¢Ļ
å¸ĥ éĩĮäºļ
é©¬ çļĦ
å®ī æģ¯
èģĶ æĺŁ
éĤ º
å¤Ħ ç½®
ä¼Ĭ åĬª
å¸Į å¾·
æ±Ĥ åŃ¦
ç¤¾ä¼ļ ç§ĳåŃ¦éĻ¢
å¾ģ è®¨
çľĭ å®Ī
åģļ åĪ°
çĶŁæ´» äºİ
æĻļ æĬ¥
æ¬¾ é¡¹
2æľĪ 7æĹ¥
ä¼ĳ æĸ¯
æ¿Ģ æĪĺ
ur eĠ
æµ·æĭĶé«ĺåº¦ 3
çŁ¿ äº§
åįĸ ç»Ļ
å¡ĳ èĥ¶
èĥİ åĦ¿
åĪĽå»º äºĨ
ĠSt ud
éĢĢä¼ĳ åĲİ
æĹ¥å¸¸ çĶŁæ´»
å¸¸ä½ı äººåı£
ech n
å¡ŀæµ¦ è·¯æĸ¯
Ġé¦Ļæ¸¯æĹ¶éĹ´ éĢ¢æĺŁæľŁ
åĤĢ åĦ¡
1 åĪĨ
1 èĩ³
5 æľĪ14æĹ¥
7 æľĪ27æĹ¥
l es
Ġ åĪ©çĶ¨
çļĦ æ¬§æ´²
åľ¨ 2023å¹´
ä¸º èĥĮæĻ¯
äºº ç§į
åĴĮ æķĻèĤ²
æ² ®
æĪĲ åĲīæĢĿ
ä¸ª æ¡Ī
ä¸İ è¥¿
ä¸į æĹ¶
åħ¬ è®¤
èĢĮ ä»ĸ
è¢« æİ§
éķ¿ éĩİ
æĸ° å¸Ĥéķĩ
ä¸ľ ç»ı
æīĢ ç½ĹéĹ¨
åĨħ åŃĺ
çŃī å¤ļ
è¯¥ çī©ç§į
å°Ĩ ä»ĸä»¬
200 4
ä½Ĩ æľªèĥ½
ç§ĳ ä¸ĭçļĦä¸Ģä¸ªå±ŀ
èģĶ åĲĮ
åİ¿ ç«ĭ
é¦ĸ æ¼Ķ
18 ä¸ª
ä½įäºİ æĹ¥æľ¬
åŀĭ æľºè½¦
11 æľĪ22æĹ¥
11 æľĪ13æĹ¥
ç¥ŀ åĥı
äººæ°ĳ çļĦ
ä»£è¡¨ äºĨ
åįĥ ä¸ĩ
æİĴ æ°´
é»ĳ çĻ½
æŀģ åħ·
å¯Ł è§ī
æ¥¼ å±Ĥ
æĸĩåĮĸ éĥ¨
è¯į æĽ²
æĥ³ è±¡
åĪ¶ä½ľ åħ¬åı¸
10æľĪ 8æĹ¥
1æľĪ 19æĹ¥
èĢ¶ ç»´å¥ĩ
æ²ĥ æĸ¯
æķ£ éªĳ
2æľĪ 4æĹ¥
åįıä¼ļ çļĦ
æ¿Ģ åĬ±
of f
åı¸ä»¤ å®ĺ
çİ©å®¶ åı¯ä»¥
åĳ³ éģĵ
éĽ¶ æĹ¶
In d
åľ°çĲĥ ä¸Ĭ
äºİ198 3å¹´
æĥĬ æĤļ
æŃ¦æ±ī å¸Ĥ
éĵŃ æĸĩ
æ±ª ç²¾åį«
èĻ¹ æ¡¥
çĭŃ ä¹ī
éĶħ çĤī
9 Ġ
è ĺ
Ġ åıĮ
Ġ ä½ĵèĤ²
ä¼ ¶
åħ¶ ä¸»
æ± ²
èĩª åį«éĺŁ
åįĹ è¾¹
åĪ© ç»´
æľº çİĩ
å±± ä¹¡
åİ¿ è´Łè´£ç®¡è¾ĸ
éĩĳ æľĿ
æĮĩ ç§°
202 5
er sĠ
æ´» ä½Ľ
æĶ¾ åħ¥
æ³¢ ç¾İæĭī
æĿ¡ è§Ħå®ļ
çłĶç©¶ ä¼ļ
æĬķ æİ·
è¾¹ éĺ²
å®¢ äºº
å¾Ī å°ı
å¸Ń æ¬¡
æ¹ĸ åĮº
è½¦ç«Ļ ç¼ĸåı·ä¸º
è´¥ äºİ
æĹ§ ç§°
æĸŃ ç»Ŀ
ä¼ĺ èĥľ
åĶ® ä»·
é³ ħ
éľĢè¦ģ çļĦ
çļĦäºº æķ°
å¼Ģåıĳ åķĨ
åŃĻ æĿ¨
è´¢ çī©
åĨĽäºĭ å§Ķåĳĺä¼ļ
åģı åĲĳ
è¿İ æĪĺ
ec k
ĠL e
å·´å£« ç«Ļ
em ent
éĴ¢ çŃĭ
è£Ķ ç¾İåĽ½
å°ĸ æ²ĻåĴĢ
Ġ197 3å¹´
ä½įäºİæ³ķåĽ½ å¥¥å¼Ĺæ¶ħ
éĢĿä¸ĸ åĲİ
è´ŀ è§Ĥ
åľ°åĽ¾ ä¸Ĭ
èĥ¸ éĥ¨
çİ°ä»Ĭ çļĦ
ä¸ľä¸´ ä¸Ĭ
æĬĵ ä½ı
æĺ¯è¥¿çıŃçīĻ åį¡æĸ¯èĴĤåĪ©äºļ
åĲ¸è¡Ģ é¬¼
æŀĹéĥĳ æľĪå¨¥
æĸ°å¢ŀå¢ĥå¤ĸè¾ĵåħ¥æĢ§ æĸ°åĨłèĤºçĤİç¡®è¯ĬçĹħä¾ĭ
0 äºº
1 æľĪ17æĹ¥
4 æľĪ13æĹ¥
5 äº¿
Ġ å®ĹæķĻ
çļĦ èµ·æºĲ
ä¸Ń æł¡
æľī å¤§
åĲİ è½¬
å¼Ģ åĩº
åĬł å¤§
ãĢĮ ãĢį.
æīĢ èĩ´
å±± æľ¬
éĵ ²
å®ī çļĦ
å®ī åºĨ
éĺ¿ æĽ¼
æĹł æķ°
æ¸¸ è¯´
æ´» åĬĽ
å¤§åŃ¦ åŃ¦ä¹ł
ä¼Ĭ æĸ¯åĿ¦
å¤į æĹ¦
å±ħ å§Ķä¼ļ
çĵ¦ è¥¿
åĽłä¸º ä»ĸä»¬
é»ĳ æ£®
é±¼ çĽ®
æ½ ¼
æ´ĭ è¡Į
èī¾ åĪ©æĸ¯
2æľĪ 20æĹ¥
çİī çİ¯
çİ°ä»£ çļĦ
åĬŁèĥ½ çļĦ
çıł æ±Ł
æĤ£ èĢħçļĦ
è§Ĥæµĭ åĪ°
åĲĦèĩª çļĦ
ç´¢å§Ĩ çľģ
æĪĲåĲīæĢĿ æ±Ĺ
1 æľĪ26æĹ¥
4 æľĪ23æĹ¥
8 æľĪ22æĹ¥
D F
p or
çļĦ éĢīæīĭ
çļĦ åĳ½ä»¤
ä¸º çİĭ
ä¸Ģ å¤§
æĺ¯ åĬłæĭ¿å¤§
å¯ °
éĻ ĭ
æĪĲ ä»½
å¹¶ è¿Ľè¡Į
èĩ³ 2013å¹´
ä½Ĩ äºİ
ä¸¤ åĪ¶
åİ¿ å§Ķ
åħ³ å²Ľ
ä¸ŃåĽ½ ä¼łç»Ł
åįİ å°Ķ
å¥³ çļĩ
åĪĻ å°Ĩ
12 æľĪ23æĹ¥
ä¸¾ æĬ¥
æĶ¯ æŁ±
åıĸ ç¼Ķ
ä¿¡ ä¸Ń
æľª æĽ¾
åħī çĶµ
åįĥ éĩĮ
å®¹ ç§¯
æİĴ æĸ¥
å¡ŀ åħĭæĸ¯
30 ç±³
14 äºº
ä»ħ èĥ½
éĿ© æĸ°
è¿ľ è¿ľ
ç®Ĺ æĺ¯
am b
åį¢ åį¡æĸ¯
3æľĪ 5æĹ¥
ç»Ŀ å¤§éĥ¨åĪĨ
2æľĪ 12æĹ¥
ä¾µ åħ¥
æ¨ª åĲĳ
èĴĻåı¤ åĽ½
IN E
éĺ¶æ®µ çļĦ
éĥ¨éĹ¨ çļĦ
Ġ196 8å¹´
éĩĮæĸ¯ æľ¬
ä¸ĬåįĪ 9æĹ¶
å¨ĥ å¨ĥ
æĸ© é¦ĸ
å¤§çĲĨ çŁ³
ĠåıĤèĢĥ èµĦæĸĻ
æĸ°å¢ŀæľ¬åľŁ æĸ°åĨłèĤºçĤİç¡®è¯ĬçĹħä¾ĭ
2 åĪĨ
7 æľĪ24æĹ¥
9 åħ¬éĩĮ
C y
S R
i qu
r ag
Ġ å¾·
åľ¨ åĲİ
åľ¨ ç¤¾ä¼ļ
ä¸º 10
ä¸Ģ æľ¬
ç§ ĥ
éĻ Ľ
ä¸Ĭ åı°
åıĳ ä½ľ
åĲį å°Ĩ
åĲį åŃ¦çĶŁ
ç¬¬ 19
å¿ Ĵ
èĭ ŀ
åīį åĪĹ
åīį æĢ»ç»Ł
ä¸ľ è¾¹
ä¹Ł æĹłæ³ķ
å² ¬
å±± å§Ĩ
ç§ĳ ç´¢
éĩį äºİ
åİ¿ åĨħ
çİĭ å®¶
æīĭ åĬ¨
12 æľĪ14æĹ¥
æµģ å¤±
æł¡ åĨħ
eĠ F
è®º çĤ¹
äººæ°ĳ æ£Ģå¯ŁéĻ¢
çĻ½ æ²Ļ
æ±ī è¯ºå¨ģ
16 å²ģ
åıĳå±ķ ä¸º
å°Ħ ç®Ń
æ¡¥ å¤´
æŃ£å¼ı åĩºéģĵ
å¾·åĽ½ äºº
æĶ¯æĮģ ä¸ĭ
10æľĪ 9æĹ¥
çļ® äºļ
5æľĪ 30æĹ¥
åĪĩ æį¢
is e
éľ² è¥¿
çİ¯å¢ĥ ä¿ĿæĬ¤
éĴ± å¸ģ
èĨ ³
æģ¶ æĦı
é©¾ å´©
åľ¨199 7å¹´
æ³¡ æ²«
ĠåıĤèĢĥ æĸĩçĮ®
å¼ĢæĻ® åĭĴ
è¶³åĪ© ä¹ī
æķħå®« åįļçī©éĻ¢
Jam esĠ
D OS
Q L
W eb
åĲ µ
äºº è´¨
æĺ¯ çĽ®åīį
æĹ¥ åŃĲ
åľ° è¯´
åŁ ¼
è¥¿ èĩ³
èĢĮ å¯¼èĩ´
è¢« åĪ¤å¤Ħ
èİ Ĵ
ä¸ľ å¾ģ
åĽł ä¸İ
ä¹Ł éļıä¹ĭ
æľº ä¸Ĭ
éĥ½ çĶ±
ä¿Ŀ æľī
ä¼ł è¨Ģ
11 1
åĩ» æ¯Ļ
æĬ¥ ç«ł
ä¼Ĭ æ¯ĶåĪ©äºļ
é¾Ļ çľģ
çĵ¦ å¤«
èİ± å°Ķ
å»ºçŃĳ çļĦ
è¾ĸ å¢ĥ
åģľ åĪĬ
çľĭ ä¼¼
æĪ· ç±į
çªģ åĽ´
ç¬¬ä¸ī è½®
ro l
èµ° ç§ģ
éº¦ éļĨ
è¿½ éĢĲ
å®¡ æł¸
å®¾ é¦Ĩ
æĭĽ æłĩ
æ½® å·ŀ
æµª æ½®
ç¥Ń åħ¸
ä¾į ä¸Ń
è¿Ī åħĭ
äºİ197 5å¹´
å¤ĸåĽ½ è¯Ń
æĥħæĬ¥ å±Ģ
ä¾¨ æ°ĳ
åĲīå°Ķ åĲīæĸ¯
ç»´èİ± è®·
åĻª éŁ³
å¨ģæĸ¯ åº·
1 æľĪ23æĹ¥
D E
I E
S uper
l ine
y d
Ġ çŃī
çļĦ ä»»ä½ķ
äºº ä¹ĭ
è¾ Ĺ
åĩº äº§
æİ ¸
å®¶ åħ·
æĮ ł
çİ° æķĪåĬĽäºİ
è¡¨ æī¬
å±± å½¢
ä½Ĩ å¯¹
ä½Ĩ è¿ĻäºĽ
ä¸¤ è¾¹
æ¡ ħ
æıĲ æĸ¯
éĺ¿ çĻ»
åĽĽ æĸ¹
åĪĹ ä¸¾
åĲĳ ä¸ĭ
æĽ¾ ä»¥
æĽ¾ åıĤåĬł
çĤ¹ çĲĥ
å®ĺ åĥļ
in n
æĶ¶ åĪ°äºĨ
åĪĴ èīĩ
çĵ¦ å°¼
å¢ŀ å¤ļ
é»Ħ æĺı
åĽ´ åŁİ
å·Ŀ æĻ®
åħ±åĴĮåĽ½ çļĦ
éĻĦ æľī
ä¸ģ å¿§
2æľĪ 18æĹ¥
èĮ¨ åł¡
è°Ī è®º
åĿļ åĽº
æī§è¡Į éķ¿
çĲĨè®º ä¸Ĭ
æ½® æµģ
èº«ä»½ è¯ģ
ä¼Ł å¤§
åĩłä¹İ æīĢæľī
ç½ĳç«Ļ ä¸Ĭ
ä¸Ģå¸¦ çļĦ
Ġè½¦ç«Ļ åĳ¨è¾¹
åŃ¦æľ¯ çķĮ
æĹłäºº è½¦ç«Ļ
éĩĳçīĮ å¾Ĺä¸»
é©¬éĩĮ åħ°å·ŀ
çļĦåĲİ è£Ķ
our n
åĪĿçº§ ä¸ŃåŃ¦
åĲīä»ĸ æīĭ
è§ħ é£Ł
åŃµ åĮĸ
å¸ĥè¾¾ ä½©æĸ¯
2 3å¹´
B N
Ġ åħ«
Ġ æľ±
è¢« åĽ½éĻħ
è¿Ļ æĶ¯
æĸ° ä¸ĸ
æŃ¤ ä¹¦
éĶ Ĥ
å¹¿ åŁŁ
11 æľĪ16æĹ¥
åı¤ æĭī
åī§ çĥĪ
éĿŀ çī©è´¨
ç¬¬ä¸Ģ ä¹¦è®°
æŃ¦ å®Ĺ
èĪª èĪ°
èŃ¦ æĪĴ
åĵ¥ å°Ķ
èĹı äºİ
50 äºº
2æľĪ 9æĹ¥
ç«ŀ éĢĲ
éĿ©åĳ½ å§Ķåĳĺä¼ļ
å¥Ĺ ä»¶
ç¬¬åįģ åħŃ
å¹¼ èĻ«
åĪĨéĴŁ çļĦ
æĺ¯ä½įäºİç¾İåĽ½ ä¿Ħäº¥ä¿Ħå·ŀ
äººä»¬ å¯¹
St eam
ut ion
äºİ197 0å¹´
ä»ĩ æģ¨
æ¸¸æ³³ è¿ĲåĬ¨åĳĺ
åĪ¶çīĩ åİĤ
èµĮ åįļ
æŃ¼ çģŃ
æ²¦ éĻ·
æĻ®æľĹ åħĭ
æ±Ŀæĭī çľģ
å®ĪéĹ¨ åĳĺ
æľ±åħĥ çĴĭ
6 æľĪ14æĹ¥
7 æľĪ2æĹ¥
P ol
W i
Ġ åıª
Ġ æ¯ı
çĶ ¥
ä¸Ģ ç¯ĩ
è¯ ħ
ä¸Ń è¥¿
ä»¥ åĨħ
ä¸İ ä¸ľ
åı¯ åı¯
èĩ³ 2018å¹´
æŃ¤ ä¸º
çĶµ ç¼Ĩ
ä¹Ł è®©
é©¬ èµ«
å±± éķĩ
åŁİ ä¹¡
èĭ± æ³ķ
å¹¿ ä¸º
æĺŁ åħī
éĽĨ èµĦ
æł¡ åĿĢ
ç©º éļ¾
é¾Ļ éĹ¨
éĿ¢ç§¯ çº¦ä¸º
è¡¨ç¤º èĩªå·±
å±Ĥ çº§
æī¿ å»º
it ch
åı¶ åŃĲ
4æľĪ 12æĹ¥
éľĢè¦ģ åľ¨
æĳĦ æ°ı
ä¸ĵè¾ĳ æ¦ľ
æ¿ ł
äºĮåįģ åħ«
2æľĪ 5æĹ¥
åĸľ é©¬æĭīéĽħ
è§ī éĨĴ
us h
èĦī åĨ²
èĽĭ ç³ķ
æµ¦ æ±Ł
é½¿ è½®
äºİ198 0å¹´
Ġ195 1å¹´
Ġ193 1å¹´
åįĹåĮĹ åĲĳ
å¼¥ è¡¥
å¸Ĳ æĪ·
çĦļ çĥ§
è¯Ī éªĹ
è¿Ħä»Ĭ ä¸ºæŃ¢
7 æľĪ13æĹ¥
C T
H ar
S K
Ġ æ³¢
Ġ åĮ»çĸĹ
çļĦ åįĬ
çļĦ è¯Ħè®º
çļĦ èĥľåĪ©
æĺ¯ æ¬¡
åĴ ¤
åĴĮ å®ī
åŃ¦ æľŁ
ä¸į åĩº
ä¸į å¥½
æµ· äºĭ
äºĭ åħĪ
ä¸ī çľģ
ä¸ī ç»´
ä¹Ł ä¸įä¼ļ
å°ı éº¦
ç§ĳ ç»Ļäºĭä¸Ń
éĩĳ çĲĥ
åĲĳ ä¸ľåĮĹ
ç»ĵ ä¸º
ç®¡ æ²»
å±ķ åİħ
åı¤ åĿŁ
åİ» å¹´
ä»ĸä»¬ å°Ĩ
å¤į åİŁ
åįı çº¦
ä¿® çĲĨ
çİ¯ çº¿
æĶ» çł´
ç³»ç»Ł åĴĮ
èŃ¦ åį«éĺŁ
çĥŃ çĪ±
ç§» äº¤ç»Ļ
éĹ®é¢ĺ ä¸Ĭ
åŃĻ æĸĩ
æľīéĻĲ è´£ä»»
un ch
ç»¿ åĮĸ
å®ľ è¯ºæĸ¯
éĻ¶ åĻ¨
éĽĨä¸Ń äºİ
åĲįåįķ ä¸Ń
æµ® éĽķ
æ³¨æĦı åĬĽ
åĸĢ ä»Ģ
ç¨į å¾®
ä¸Ģçº§ æĸ¹ç¨ĭå¼ı
åħ¬å®ī éĥ¨
æİ¢éĻ© å®¶
å§¿ åĬ¿
åĿŁ å¢ĵ
éķ¶ åµĮ
åĮ¿ åĲį
æī¹å¤į åĲĮæĦı
éĳ «
1 æľĪ27æĹ¥
4 æľĪ24æĹ¥
5 æ¯«ç±³
Ġ 21
Ġ åıįåºĶ
çļĦ æĿ¡ä»¶
åľ¨ ä¸į
è¯ ĥ
åĽ½ å¤§
éĻ Į
åĲİ ä»¥
å¹¶ æĮĩåĩº
è¢« åĬ¨
ä¸ī åĪĨ
è¯¥ ç³»åĪĹ
å¦ Ĭ
äºĮ æĪĺåĲİ
ç½Ĺ ä¼Ĭ
å°¼ æĺĤ
è¯Ń æĶ¯
åı² åŃ¦
æĹł æľº
ä¹Ĳ éĺŁçļĦ
éĹ¨ æĪ·
æĥħ æĻ¯
åıĸ èĢĮ
ç¥ŀ åŃ¦éĻ¢
å¹³æĸ¹ åĳİ
è§Ĥ çļĦ
å®£ æī¬
ä¼¯ åĭĴ
å¸Į çī¹
åį« æĸ¯
æĸ½ çĵ¦
èĲ½ éĢī
çĻ» è¾ī
è®¾è®¡ åĴĮ
10æľĪ 6æĹ¥
10æľĪ 3æĹ¥
4æľĪ 5æĹ¥
éļĨ å¤´
çĽ®åīį çļĦ
æ²ĥ ä¼¦
å®ĭ ç¾İé¾Ħ
åĩºçĶŁ çļĦ
ãģ ĭ
åľ°çĲĥ çļĦ
ä¹ĥ æľ¨
ä½įäºİæ³ķåĽ½ ä¸Ĭæ³ķåħ°è¥¿å¤§åĮº
äºİ195 8å¹´
éĩĮäºļ çº³
ç»Ħå»º äºĨ
ç½ĳçĲĥ è¿ĲåĬ¨åĳĺ
ä¸ĳ ç§ĳä¼ļè¯ķ
èĢĲ åħĭ
éģ¥ æİ§
éĿĴå²Ľ å¸Ĥ
å¼Ĺåħ° åħĭ
çĮĽèĻİ ç»Ħç»ĩ
æ»¤æ³¢ åĻ¨
èİ±æ¯Ķ éĶ¡
K BS
u tĠ
Ġ åıĤèµĽ
çļĦ ä½İ
çļĦ ç§°åı·
ä¸İ åıĳå±ķ
ä¸į å±ŀäºİ
åĨĽ èĲ¥
å¼Ģ çļĩ
ä¸ī åįģäºĮå¹´
æĪĺ ä¹±
åı£ å¤´
æĢ§ äº¤
çĲĥ èıĮ
çĽ¸ çŃī
å°¼ å¯Ł
éĺ¿ ç¾İ
00 ä¸ĩ
å¸¸ è®¾
èį Ģ
éľ Ħ
èº« åĲİ
åķĨ éĵº
æŃĮ å£°
ç¦» æķ£
èİ·å¾Ĺ åĨłåĨĽ
çłĶç©¶ åıĳçİ°
åħµ é©¬
åİĨåı² æĤłä¹ħ
å¼ķ æ¸¡
çĪ± çŁ¥åİ¿
éĺ³ æĺİ
å¤ı å°Ķ
æİĪ è¯¾
å¼¹ ç°§
åħ¸ èĮĥ
å·²ç»ı æĪĲä¸º
5æľĪ 19æĹ¥
4æľĪ 9æĹ¥
èĵ Ł
èĩªçĶ± æ³³
åľ°çĲĨ ä½įç½®
çĶ³ æĬ¥
åĲ¬ ä»İ
åĲ¬ éĹ»
æŁı æĭīåĽ¾
us s
ä¹Ļ éħ¸
åįļå£« çĶŁ
ä»Ļ å¥´
è¡¡ éĩı
æħĪ ä¾įä¸ĭ
è¡Ķ æİ¥
Ġ197 6å¹´
188 5å¹´
äºİ197 8å¹´
Ġin ĠtheĠ
é¦ĸå¸Ń æī§è¡Įå®ĺ
åĵĪéĩĮ æ£®
Inst agram
å½ĵäºĭ äºº
å·ħ å³°
1 æľĪ29æĹ¥
f t
Ġ åº·çĨĻ
åľ¨ 19ä¸ĸçºª
ä¸º åįķ
çİ ®
ä¸İ éĻĪ
åĪĨ æ®µ
åĲĮ çĲĨ
åĲĮ ä¼´
å¾· åĴĮ
æĸĩ å°¼äºļ
ä¸ľ åįİ
ç»ı æĸĩ
å·¥ å§Ķ
ä½Ĩ æľĢåĲİ
å®ī åĮº
æ°´ ä¸ĭ
æ°´ æ±ł
éĩĳ èī²
åı² é¦Ĩ
è¯´ éģĵ
åĽŀ ä¹¡
å¤§åŃ¦ æł¡éķ¿
æĹ¥æľ¬ æµ·åĨĽ
å°ĳ äºİ
åĽ¾ æĭī
æ³¢ éķ¿
è¶ħ åĩº
åĲī ä¼¦çī¹
çİ¯ æµģ
çĥŃ çļĦ
ä¸įåĲĮ æĦı
éĻį è§£
æī¿ åĮħ
éĻĦ è®¾
ãĢĭ, ãĢĬ
æĿ° æĺİ
åĨłåĨĽ èµĽ
ä»Ģ åı¶
è¯Ńè¨Ģ åŃ¦
åį· é£İ
è¾Ľ æĻ®æ£®
éĶ¡ å®ī
éº» çĥ¦
ä¸ŃåĽ½åħ±äº§åħļ åħļåĳĺ
æħ¢ æĢ§
æĢ§è´¨ çļĦ
åĨľæĿĳ å±ħæ°ĳçĤ¹
æĸ¯æ´Ľ æĸĩå°¼äºļ
HR Ġ
è¯ºæĽ¼åºķ å¤§åĮº
- .
0 åĩ»è´¥
1 æľĪ2æĹ¥
8 åı·çº¿
Ġ çŁ³
Ġ éĺ¿å°Ķ
Ġ æĹħæ¸¸
çļĦ åħ¬
çļĦ ä¸ĵè¾ĳ
çļĦ æııè¿°
çļĦ åĬ¨ä½ľ
åľ¨ èģĮ
æ² ¸
é«ĺ èĢĥ
ä¸ī å®¶
ä¹Ł ä»İ
çł ¸
éĩį å¿ĥ
æ¼ ķ
æŃ£ éĢī
æıĲ äºļ
æīĭ èĩĤ
æ²³ åľ°åĮº
ç¤¾ åĮºçļĦ
èº« æĿĲ
çĿ ¢
åĽ½å®¶ åħĥé¦ĸ
å¼Ģå§ĭ äºİ
ä¼Ĭ èİī
ç¼ĸ å¹´
çĻ½ äºĳ
ar s
ç»Ļ åĩºäºĨ
at er
åĵ¥ ç½Ĺå¾·
ä¾¿ äºİ
èĴĻ å¤§
ç´¢ é©¬éĩĮ
ç®¡çĲĨ å¤Ħ
æĬĬ å®ĥ
è´Łè´£ ç®¡çĲĨ
èİ« éĩĮ
åħ¨åĽ½ æĢ§
10æľĪ 12æĹ¥
çļ® è´¨
éº¦ åħĭæĸ¯
è®¾æľī 2
åŃĻ å¥³
éĩĬ è¿¦
çļĦå¤§ è§Ħæ¨¡
å°¤ ä¸º
éĻµ åĽŃ
äºļæ´² æĿ¯
äºĭåĬ¡ çĶ±åħ¶
çļĦä¸» è§Ĵ
ter tain
éº» éĨī
èİİ æĭī
è¿Ļæł· åģļ
èµı è¯Ĩ
ä¸įä¹ħ ä¹ĭåĲİ
ä¾į åį«
189 9å¹´
èµĦäº§ éĺ¶çº§
çĶŁåŃĺ äºİ
åī§åľº çīĪ
çĥĤ çķªèĮĦ
è§Ĥèµı é±¼
è§ĨæĺŁçŃīä¸º 5
éĿ¢2 çº¿
5 æľĪ29æĹ¥
n ow
Î ¼
ç ¸
çļĦ ç§ĺå¯Ĩ
åľ¨ èĭ±æł¼åħ°
è¯ °
è® ¶
åĲİ æĶ¹ä¸º
éĥ¨ æĹı
åĮº éķ¿
ä½ľ æ³ķ
çĶŁ åľ¨
åıĬ å¤§
ä¸ĭ æ»ĳ
å¼Ģ åħĥ
å¼Ģ åŀ¦
å¾· æĸĩ
å¾· éĽ·
åĮĹ æĿ¡
æīĢ è¯´
åĨħ æł¸
æľº ç¿¼
å®ī å¸Ĥ
ä¸¤ å±Ĭ
åħ³ æĢĢ
èµ· åĽł
é¦ĸ åįķæĽ²
åıĤ èµŀ
11 æľĪ29æĹ¥
åŃĹ çļĦ
åİĨåı² æĸĩåĮĸ
è®¤ä¸º è¿Ļæĺ¯
æİ¨ è®º
æĺ¯ä¸Ģ äºĽ
ç»§ æ¯į
çĻ¾ å¤§
çīĮ åŃĲ
åģľ ç«Ļ
åľ°æĸ¹ çļĦ
è¶³çĲĥ æ¯ĶèµĽ
éľį æģ©
åĢŁ åĬ©
è¯¾ é¢ĺ
è®¢ éĺħ
éĵľ åĥı
çļĦä¸» åľº
èĥĮæĻ¯ ä¸ĭ
èĦļ ç±»
éĻ· éĺ±
çĥŁ èįī
åĬŀåħ¬å®¤ ä¸»ä»»
æĲ¬ è¿ģèĩ³
æ¬² æľĽ
å©Ĩ ç½Ĺ
ä¸»åĬŀ çļĦ
Ġ190 1å¹´
ire ct
BL AC
èī° éļ¾
é¥± åĴĮ
æŁĵèī² ä½ĵ
éĺ¿æĭīæĸ¯ åĬł
duc tion
èĬŃèķ¾ èĪŀ
3 åĪĨ
4 æľĪ22æĹ¥
4 æľĪ14æĹ¥
L O
s g
w an
Ġ Q
Ġ éĢļè¿ĩ
Ġ æ´»åĬ¨
Ġ åĪ°äºĨ
Ġ æĪªæŃ¢
çļĦ çħ§çīĩ
ä¸Ģ å¥³
æľī 4
æŃ Ļ
åŁ Ĺ
ä¸İ é«ĺ
ä¸į ä¿Ĺ
åħ¶ å¯¹
è¢« æĭĨéĻ¤
èĭ Ľ
è¿Ļ ä½¿
åįĹ ç¾İ
å¾· é²ģ
åº¦ éĩı
è½¦ ä¸Ĭ
ä½¿ ä¹ĭ
æĢ» åħ¬åı¸
æ°´ ç³»
éĺ¿ åħ°
æĹł çķı
äººåı£ åıĺåĮĸ
å®ŀ æĹ¶
ç»´ åĪ©
ç»´ èĮ¨
11 æľĪ14æĹ¥
çīĩ å¤´
å®ĥ çĶ±
ç»Ī ç«¯
èĲ¥ æķĳ
èĲ¨ å°Ķçī¹
æŃ» åĽł
åĬŁ èĩ£
åĲī å§Ĩ
è¯ķ éķľ
åī¯ æĢ»è£ģ
ä½ı æĪ·
çķĻ åŃ¦çĶŁ
èĴĻ å½¼
ä½Ľ éĻĢ
ä¸ĢäºĽ äºº
ä¸¹ ä½Ľ
3æľĪ 7æĹ¥
åĲ¯ å¾·
å°ıæĹ¶ çļĦ
éļıåĲİ è¢«
èĶ Ĺ
å±ħæ°ĳ åĮº
åĪĨå¸ĥäºİ ä¸ŃåĽ½å¤§éĻĨçļĦ
å·´å£« æĢ»ç«Ļ
ä¸Ģæł· çļĦ
åĪĨéĴŁ åĲİ
èļ Ĭ
åľ°ä¸ĭ éĵģ
æĺ¯åĲ¦ æľī
Ġ197 0å¹´
çĺ «çĹ
åĭĥ åħ°
è¯¥çľģä»½ä¸ºæ³ķåĽ½ è¥¿åįĹéĥ¨
ä¸² æµģ
ä¸Ńåħ±ä¸Ńå¤® æĢ»ä¹¦è®°
é©¾é©¶ åĳĺ
æ³ķåħ°è¥¿ å²Ľ
é¢ģåıĳ çļĦ
æ¸ł éģĵ
ä½ľä¸ļ ç³»ç»Ł
æĬĳåĪ¶ åīĤ
YouTube é¢ĳéģĵ
èİ·å¾Ĺä¸Ģæŀļ éĵ¶çīĮ
å¥¥åı¤ æĸ¯çī¹
ä¹Ķæ²»äºļ å·ŀ
åħĸ å·ŀ
æļ± ç§°
çĺ«çĹ ª
3 æľĪ13æĹ¥
U C
t e
çļĦ äº§åĵģ
è¯ «
æľī å¤§éĩı
æĭ ¢
æĹ¶ å·²
æ² Ĳ
åĩº ä¸º
çĶŁ æŃ»
å¸Ĥ ç«ĭ
å¤ļ åħĭ
æīĢ çļĦ
è¿Ľ é£Ł
åħ¥ æľĿ
è¯¥ æ³ķæ¡Ī
åħ± æĮ¯
åħ¨ åİ¿
åħ¨ èģĮ
æķ° ä»¥
æĢ» åħ±æľī
éĢī å®ļ
æ°´ æµģ
çİĭ å»º
è¯Ń æĹı
åı² è¿¹
åĶ ĳ
åį¡ å¤«åį¡
äºĽ æĹ¶åĢĻ
çĤ¹ çĩĥ
è£ħ è½½
èĲ¥ éĶĢ
æİ¨ çī¹
å¥ĸ å¾Ĺä¸»
æŃ» ä¼¤
å¢ŀ å¤§
çĶµå½± åħ¬åı¸
åįļ æł¼
çĶ° ç«Ļ
èŃ¦ å®ĺ
çº¢ èī²çļĦ
æŀģ åĬĽ
ä¸Ńå¤® æĶ¿æ²»å±Ģ
ic an
ic eĠ
æī¿ è¢Ń
å®« å´İ
è¾Ľ æł¼
è¯¯ è§£
Ġè¯¥ å°ıè¡ĮæĺŁ
45 åĪĨ
Ġ194 3å¹´
ub lic
è¿ĲèĲ¥ åķĨ
èĥľåĪ© åĲİ
éĥ½ä¼ļ åĮº
äºİ197 2å¹´
åľ¨199 8å¹´
éĺ²å¾¡ çİĩ
æĭĸ å»¶
èĥĮé³į ç¡¬æ£ĺ
åħĭä¼¦ åł¡
å®ªåħµ éĺŁ
è¶³æĢ» æĿ¯
äºĳæŀĹ åİ¿
å¼¹éģĵ å¯¼å¼¹
æĲģ ç½®
èĬľ æ¹ĸ
æĸ¯å¾· åĵ¥å°Ķ
æĸ°æ³½è¥¿ å·ŀ
æĸ¯å¾·åĵ¥å°Ķ æĳ©
" "
1 æľĪ14æĹ¥
2 æľĪ15æĹ¥
m e
çļĦ æ¯Ķ
çļĦ è®¸å¤ļ
åĴĮ æ¬§æ´²
åŃ¦ å¹´åº¦
åĩº éĿ¢
æ´ Ĵ
ä¸» ä¿®
æ³ķ ç½Ĺ
é¢ ¤
æĿ¥ åı°
éķ¿ å¥³
åĮĹ åĳ¨
å¸ĥ æĭīæĸ¯
é©¬ æł¼
çĽ¸ å·®
æĽ¾ èİ·
å®ŀ åľ°
ä¿Ŀ ç¦Ħ
æĮĩ å®ļçļĦ
åĽŀ æĹı
çĿ Ĳ
ç¼ĸ æİĴ
åħ¶ä¸Ń æľĢ
æŃĮ åī§éĻ¢
å®Į èµĽ
åĻ¨ æĿĲ
åĵĪ è¿Ī
çĵ¦ ä¼¦
æ±ī å¯Ĩ
åĽ´ å¢Ļ
éĿĴ çĿĲ
éħį å¯¹
åĨĻ ä¸º
ä»ħ åī©
çŃĸ éªĳ
åĮĹéĥ¨ çļĦæĿĳåºĦ
ĠC ar
ä¸Ńåįİäººæ°ĳåħ±åĴĮåĽ½ æĪĲç«ĭåĲİ
é¡¶ å³°
ou se
23 äºº
èľ ¿
æ¯ģ åĿı
å°ĨåĨĽ è¡Ķ
åĪĨå¸ĥäºİ éĿŀæ´²
åıĳåĬ¨ äºĨ
åĨĪ å±±
èµł éĢģ
Ġ1 Ġ
åºĶè¯¥ æĺ¯
äºİ194 1å¹´
äºİ194 4å¹´
éĥĬ éĩİ
æĬĹè®® èĢħ
ä¸Ģçº§ èµĽ
ä¸Ľ ä¹¦
çķĻä¸ĭ äºĨ
ï¼ħ .
ä¾Ŀèµĸ äºİ
å¥¥æľ¬ æµ·é»ĺ
åĬłæĿ¥ æµ·å³¡
èĴĻå½¼ åĪ©åŁĥ
9 åĲį
C BS
M on
m o
m entĠ
w h
Ġ åĪĿ
çļĦ åĲĪä½ľ
ä½ ¬
æľī åĪ«
åĴĮ åıĳå±ķ
ä¼ļ çĶ¨
ä¸İ å¼ł
ä¹ĭ åŁİ
æľ¬ å¹´
ãĢį ).
è¯¥ åİ¿
è¯¥ å¸Ī
é©¬ åħŃçĶ²
æĢ§ åıĸåĲĳ
å¤© ä¸»
ç§ĳ ä¸¾
ç±³ é«ĺ
åİŁ æĸĩ
è¾¾ å¾·
è¾¾ åĪ©çī¹
åħĥ ä»£
äº¤ éģĵ
ç»´ å°¼
éĹ¨ åīį
11 æľĪ27æĹ¥
åıĸ æĿĲ
å¤ª åĴĮ
äº¬ åī§
åĵĪ éĩĮæĸ¯
çĵ¦ åħĭ
åľ£ äºº
ç»Ļ å®ļ
è¿ĲåĬ¨ åľº
æ±ī ä¹¦
è´Ŀ åĪ©
å²ģ æľĪ
éĻį æ°´
çľŁ ä¸»
æ¶Ī æķ£
ç®¡çĲĨ åĳĺ
åĪĩ éĻ¤
ä¸¥ è°¨
å¾® çĶŁçī©
ä»»ä½ķ äºº
æĿľ å°Ķ
çİī å±±
us e
æĪªèĩ³ 2020å¹´
åįıåĬ© ä¸ĭ
å±ķå¼Ģ äºĨ
ç»Łä¸Ģ çļĦ
è¶ħçº§ èĭ±éĽĦ
Ġ195 3å¹´
Ġ195 9å¹´
av a
æıĲé«ĺ äºĨ
ä¸Ńåħ±ä¸Ńå¤® æĶ¿æ²»å±Ģ
ç½ĳè·¯ ä¸Ĭ
èģĺ ä¸º
èĬĴ ä»Ģ
æºĲèĩª äºİ
åıĳæĺİ äºĨ
åıĳæĮ¥ äºĨ
å¤¸ åħĭ
çļĦä¸»é¢ĺ æĽ²
åīįèº« æĺ¯
æĲŀ ç¬ĳ
6 ä¸ĩ
6 æľĪ17æĹ¥
D an
M R
Ġ r
Ġ åıĳçİ°
Ġ æŃĮæĽ²
åľ¨ æīĢæľī
ä¸Ģ éĹ¨
åĽ½ åºĨ
æĸ¯ å·´è¾¾
åħ¬ åŃĻ
è¢« çĶ¨æĿ¥
æ°ĳ éĢī
åĲĮ æºĲ
å¼Ģ æľº
å¹³ éĺ³
èİ ĵ
æµ· åķ¸
è¯¥ å±Ĭ
å®ļ ç½ª
é©¬ æľ¯
å½± éŁ³
è¯Ń ä¹ī
æĶ¹ å±ŀ
åį¡ çº³
ç¥ŀ æ®¿
æľª èİ·
èĭı çĽĬ
åħĪ å¤©
åº§ çļĦ
ä»ĸä»¬ æĺ¯
æļ ®
å¡Ķ æģ©
äº² æĪļ
è¿ĲåĬ¨ ä¸Ń
æĬķ éĿł
åĩĨ è®¸
æ²Ļ æĭī
çļĩ å¤ªæŀģ
èĪ¹ éĺŁ
å®« çļĦ
9æľĪ 6æĹ¥
4æľĪ 11æĹ¥
il m
åĬ³ åĬ¨åĬĽ
25 äºº
2æľĪ 19æĹ¥
é»İ åĬł
è¯Ńè¨Ģ åŃ¦å®¶
çĤ¸ æ¯ģ
èĸ °
å¸Ĥåľº ä¸Ĭ
åģı åįĹ
å¤ªéĺ³ ç³»
æĺĤ è´µ
åİŁæľ¬ æĺ¯
Ġ196 1å¹´
Ġ196 5å¹´
æıĴ æĽ²
é²į å°Ķ
åį³ä½į åĲİ
çĦļ æ¯ģ
æĺı è¿·
çĪ¸ çĪ¸
åŃ¢ åŃĲ
ç¡Ŀ éħ¸
å·§åħĭ åĬĽ
é©¬è¾¾åĬłæĸ¯ åĬł
: (
R ed
Ġ è¿ĳ
äº µ
ä¸Ń æĢ§
æľī éĥ¨åĪĨ
æĽ ľ
è¢« æĮĩæİ§
æ°ĳ è°ĥ
åĬł æĹ¶
é«ĺ åħ´
ä¸ī åı°
å¸ĥ å®ľè¯ºæĸ¯
èµ· äºĭ
èµ· å¼Ģå§ĭ
æ°´ è´¨
æİ¥ è§ģ
ä¹ī åĭĩ
å·² çģŃç»Ŀ
é¢Ĩ åĨĽ
æĻ® æĸ¯
æĬ¥ åºŁ
åı¤ åŁĥåıĬ
å¤ª ä»Ĩ
è®º è¯ģ
ç¥ŀ èģĮäººåĳĺ
ä¼Ĭ è¾¾
åħŃ äºº
èĲ¨ éĩĮ
èĲ¨ å§Ĩ
åĿĩ åı¯
åıĮ æīĭ
æµĭ å®ļ
åĪĺ å¤ĩ
éº¦ èĤ¯
il le
æŀª æĶ¯
ç§ĳåŃ¦ çłĶç©¶
åįģäºĮ çłģ
èģĶéĤ¦ ä¼Ĺè®®åĳĺ
éĽ¨ éĩı
æĮĩæĮ¥ ä½¿
ä¹Ļ çº§èģĶèµĽ
æ¯įäº² çļĦ
Ġ18 5
é©¶ åħ¥
å±ħä½ı çļĦ
æĬĺ å°Ħ
æľīæķĪ åľ°
æĴ° æĸĩ
å·« æľ¯
èıĬ èĬ±
éĺ²ç©º ç³»ç»Ł
åĢ¼å¾Ĺ ä¸ĢæıĲ
æŃĮåĶ± å¤§èµĽ
è°¢å°Ķ çĽĸ
è´¿ èµĤ
æĪĮ ç§ĳä¼ļè¯ķ
ä¼¦å·´ ç¬¬
è¥¿åĽŃ å¯º
5 æľĪ21æĹ¥
6 000
C omp
D J
W E
Ġ åľ°
Ġ éĢļå¸¸
Ġ ä¸ĭè¾ĸ
çļĦ è¡¨æ¼Ķ
çļĦ è´¨éĩı
æĹ ·
å¸ Ľ
äºº èº«
åĴĮ ä¿Ħç½Ĺæĸ¯
åĴĮ å°ļ
æ³ ·
åĲİ å°Ĩ
ä¸į è¿ľ
éģ ı
æĶ¿ åı¸
çī¹ åľ¨
æľĢ æĸ°çļĦ
èĩ³ 2015å¹´
çŃī è®¾æĸ½
å¤ĸ åĬ¡
æį Ĩ
å±± åįĹ
éĩį åĪ¶
éĢī çĶ¨
ä¸ŃåĽ½ åĨħåľ°
æĴ ¼
æ²³ è¥¿
å¹¿ åıĹ
çºª åħĥ
ä¸ĵ è®¿
ç¦ı æ²»
å®Į å¤ĩ
è¨Ģ è¯Ń
æĺ¯ä¸Ģ åľº
å¢ŀ å»º
åĽ´ åī¿
çĹħ çļĦ
çĶµè§Ĩ å¹¿æĴŃ
ĠS m
æ¢ħ åħĭä¼¦åł¡
5æľĪ 6æĹ¥
æĿ¿ ä¸Ĭ
å±ĭ éĤ¨
æķ¦ çħĮ
æī§è¡Į å§Ķåĳĺä¼ļ
å®ĥä»¬ æĺ¯
æĬ¥åĳĬ ä¸Ń
å¢ĵ ç¢ĳ
han n
æ¶ħ å¤«åĭĴ
ra ph
å¹¶äºİ åĲĮå¹´
189 3å¹´
æī° åĬ¨
åį³ä½¿ åľ¨
ç¡« åĮĸ
æĸ¯æīĺ åħĭ
è®°å¿Ĩ ä½ĵ
èµŀåĬ© åķĨ
æĺ¯åįĹæŀģæ´² çļĦå±±å³°
ä¸Ģèĩ³ äºĶ
é©»æīİ åľ¨
æķĸ å¾·èĲ¨
æľīéĻĲè´£ä»» åħ¬åı¸
åį«æĸ¯ çĲĨ
äºĭåĬ¡çĶ±åħ¶ æīĢå±ŀçļĦ
èľ¿ èľ
èĭıçĽĬ æł¼
) "
1 Ġå¹´
B I
o ot
Ġ i
Ġ ä¸ª
Ġ æĸĩ
Ġ åĨ³èµĽ
è¡ ¢
åĴĮ é¦Ļæ¸¯
æ³ £
ä¸į åħģè®¸
åħ¬ æĬ¥
åħ¬ ä¿¡
åħ¶ èĮĥåĽ´
åĪ° å¤Ħ
ä½į å¤Ħ
ä¸ĭ è·Į
å¼Ģ æĿ¥
èµĽ åĪ¶
æĭī èµ«
æķĻ çļĩ
èĲ ±
çľģ çļĦä¸Ģä¸ª
å°ı å²Ľ
å£« å®ĺ
è¾¾ æĭīæĸ¯
èµ· åĪ°
æıĲ åĪ°äºĨ
åºĶ å¤©åºľ
ä¼Ĭ èİİ
åĽ¾ çļĦ
åĽ¾ ä¸Ń
åĽ¾ æĸ¯
çĻ½ èī²çļĦ
å¡Ķ éĩĮ
é¦Ĩ èĹı
æķ´ ç¼ĸ
æ²Ļ ä¸ĺ
æĽ¼ å½»æĸ¯çī¹
æŃ£å¼ı åĲ¯çĶ¨
æķĻèĤ² çļĦ
åĪĨåĪ« çĶ±
è¡Įä¸º çļĦ
æģĲ åĲĵ
ç¬¬åįģ ä¹Ŀ
ä¸īåįģ ä¸Ģå¹´
è®°å½ķ äºĨ
Ġ196 4å¹´
åĳ¨è¾¹ åľ°åĮº
æıĴ çĶ»
ç¢³ éħ¸
èĥ¸ é³į
ç¨» çĶ°
æĬĦ æľ¬
ä»¥0 æ¯Ķ2
çłĶè®¨ ä¼ļ
èĦ±æ°§ æł¸ç³ĸæł¸éħ¸
åıĸèĢĮ ä»£ä¹ĭ
2 10
2 2å¹´
3 çļĦ
i or
t d
Ġ ä¿ĿæĬ¤
Ġ çĻ»åľº
çļĦ é«ĺåº¦
ä¸º éŁ©åĽ½
ä¸Ģ å¾ĭ
ä¸Ń æ®µ
æĺ¯ æ¬§æ´²
å¤§ ä½ĵ
éĹ ¾
ä¸İ ä¼ļ
å¹¶ åı¯
åĨĽ æ°ĳ
åıĬ çĽ¸åħ³
æĸ° å®¿
ãĢį ãĢĮ
æķĻ åĳĺ
äºĮ åħ«
ç³ Ļ
ä¸ŃåĽ½ åı¤ä»£
å¥³ ä¼ĺ
å¯¼ åħ¥
æĶ¿åºľ ç»Ħç»ĩ
é¾ Ľ
éĵģ çŁ¿
åĨ³ æĪĺ
ç¿ Ĭ
åıĪ ä½ľ
åħŃ åĽĽ
15 ä¸ĸçºª
æİ¨ å®ĺ
æ¡Ī åıĳ
åħ· ä½ĵçļĦ
é»Ħ å¤§ä»Ļ
éĤ£ ä¸į
æ·± çļĦ
åįł çĶ¨
æīį å¾Ĺä»¥
æĹħ é¡º
ç¬¬ä¸ī å±Ĭ
å»¶ è¯¯
åĶĲ å±±
åĪĩ åī²
çĬ¯ äºº
ing s
éĿł èĳĹ
ç¬¬åĽĽ å±Ĭ
åı°åĮĹ åİ¿
èİī å¨ħ
èĿ İ
å¢ĵ å¿Ĺ
åĪ¶éĢł ä¸ļ
äº§åĵģ çļĦ
Ġ198 0å¹´ä»£
ä¸īåįģ ä¸īå¹´
æĺ¯ä½įäºİç¾İåĽ½ åĬłåĪ©ç¦ıå°¼äºļå·ŀ
åºĬ ä½į
åľ¨199 6å¹´
çļĦåİŁ åŀĭ
Sh ow
ç«Ł çĦ¶
æ¿Ĵ ä¸´
æµ·åįĹ çľģ
éĥ½çĿ£ åºľ
åħ¨ä½ĵ ä¼ļè®®
åħļç»Ħ æĪĲåĳĺ
è´¦ åı·
æ·ĭ å·´
éĵ¸å¸ģ å±Ģ
æŀ¢å¯Ĩ éĻ¢
çŁ³åĭĴ èĭıçĽĬæł¼
èĴĻå¤§ æĭ¿
¶ å½¢çĽ®
çļĦ æŃ£å¼ı
åľ¨ éĥ¨åĪĨ
æľī ä¸įåĲĮçļĦ
æľī å¤ļç§į
20 ä¸ĩ
ä»ĸ ä¸į
åĮº åĨħçļĦ
åħ¶ ä¸İ
å¹¶ ç»§ç»Ń
è¥¿ å¤ı
è· Ĩ
åħ± è®¾
å±± ä¸ĺ
ç½Ĺ å°Ķ
æ¸¸ è®°
æĪĲä¸º ä¸ĢåĲį
ä¼Ĭ èĹ¤
è½¬ åĬ¨
çļĦä¸Ģ æ¬¾
è°ĥ åĪ°
éĿ¢ç§¯ 4
åİĨåı² åįļçī©é¦Ĩ
æ´Ľ ä¼¦
æ·± èī²
åģľ çĶ¨
æķĻèĤ² åŃ¦éĻ¢
èĴĤ å°Ķ
æł¸ åĩĨ
10æľĪ 4æĹ¥
åĶĲ ä¹¦
th at
ĠC o
éĢļå¸¸ ä¸º
ĠP h
æľīéĻĲ çļĦ
æ¤įçī© çļĦ
èµµ åĽ½
ä¸Ģå¹´ çļĦ
åŃĶ éĽĢ
è¿İ æĿ¥
éĺ´ éĺ³
ap an
ĠN ew
è·³ è·ĥ
Ġ197 5å¹´
è°ĥæķ´ ä¸º
æĻ®éģį è®¤ä¸º
çļĦæĶ¯æĮģ ä¸ĭ
å¹½ çģµ
ä¸Ĭå¸Ĥ åħ¬åı¸
ä¸¥æł¼ çļĦ
å®´ ä¼ļ
Ġä½¿çĶ¨ çĬ¶åĨµ
ä¸ºè¾Ĳé³įé±¼çº²é² ¶å½¢çĽ®
å·¥åķĨ ç®¡çĲĨ
äºĮæ¬¡ å¤§æĪĺ
å¯¡ å¦ĩ
äºı æįŁ
æ°ĳä¸»è¿ĽæŃ¥ åħļ
æ°ĳå»º èģĶ
è¯ħ åĴĴ
èľ¿èľ Ĵ
4 æ¬¡
E F
Ġ a
Ġ çĪ±
Ġ åħ¬è·¯
çļĦ çĶ·åŃĲ
ä¸Ģ éĺŁ
ä¸Ń ä¸İ
åĴĮ T
20 äºº
æĪĲ æķĪ
åĪĨ æīĵçĤ¹
æľ¬ åĽ½
çī© ä½ĵçļĦ
æĭī èĴĻ
åĮĸ åĲį
èµ· æŃ¥
å·´ åĪ©
å¥³ å·«
æĹł åı¯
æĹł æīĢ
æĮĩ ä»£
åĽŀ åİ»
åĨį è½¬
ç¦ı å¸ĥæĸ¯
çĵ¦ çī¹
ä»£è¡¨ æĢ§çļĦ
çĶ» åĥı
30 äºº
åıĤåĬł å·¥ä½ľ
ic o
è®¡åĪĴ ä¸Ń
ä¾§ æīģ
å½ĵåľ° æĹ¶éĹ´
8æľĪ 11æĹ¥
3æľĪ 6æĹ¥
ä¼ĺ èī¯
åĺī å®ļ
åĶ® åįĸ
aĠ R
åģĩ éĿ¢
ä»¥ä¸ĭ çļĦ
å½¢æĪĲ ä¸Ģä¸ª
é¢Ĩå¯¼ ä¸ĭ
åľĨ éĶ¥
åºŁ å¢Ł
ç¬¦ èħ¾åł¡
åĿļ å®ļ
å»ī ä»·
ĠF or
æĹģ éģ®
è´¢æĶ¿ éĥ¨éķ¿
èĴĭ ç»ıåĽ½
éĺ¿æĭīä¼¯ äºº
åĲĮçĽŁ åĽ½
æ·¡æ°´ æµģåŁŁ
è¯ı ä¹¦
éĵ¶çīĮ å¾Ĺä¸»
æĸĲ è¿ªåįĹ
æĺ¯ä¿Ħç½Ĺæĸ¯ èģĶéĤ¦
ä»Ĩ å°Ħ
é³ŀ çīĩ
æĪĺåĪĹ å·¡æ´ĭèĪ°
åİ¨ å¸Ī
æ²¦ ä¸º
ç¦ıå°Ķæĳ© æĸ¯
åı¤åħ° ç»ı
äººåı£åıĺåĮĸ åĽ¾ç¤º
Ġè¯¥å°ıè¡ĮæĺŁ ä»¥
æĹģéģ® æĻ®
2 Ġå¹´
k a
Ø §
Ġ éĥĳ
Ġ 27
çļĦ éĻĪ
çļĦ çī©ç§į
çļĦ åĲĦç§į
çļĦ ç»Łè®¡
åĴĮ C
20 ç±³
åŃ¦ çĶ²
ä¸İ ä¸Ń
ä¸İ è¥¿çıŃçīĻ
ä»ĸ åĲĳ
åĮº æ®µ
åħ¬ åĲ¨
å®¶ åįıä¼ļ
åĨĽ æľº
çī¹ å¿«
è¿Ļ åľ¨
å¼Ģ å¤´
åĪ¶ èį¯
å¤© æīį
æŁ ł
ä¸¤ ç»Ħ
æ¡ ¢
ç»Ł ç§°
éĺ¿ åį¡
åİĨ æĿ¥
åĪĻ äºİ
12 æľĪ24æĹ¥
æĽ´ åľ¨
å¤ª å¤§
å¥¹ ä¸º
æľĿ åĲĳ
åĸ ±
åĵĪ æ¡ĳ
å±ħ çķĻ
åĬŁ ç»©
17 äºº
èŃ ¬
èŃ¦ éĺŁ
æł¹æį® ç¾İåĽ½
æĪĲç«ĭ äºİ
åıĳçĶŁ è¿ĩ
å´ ģ
çł´ ç¢İ
æĿ° æ£®
å¼Ĥ è®®
ä¸ĵè¾ĳ çļĦ
ãģ ª
çĸĳ éĹ®
æ¯« ä¸į
29 0
è´Ŀå°Ķ ç¦ı
è§£åĨ³ äºĨ
æĥĬ è®¶
äºİ197 3å¹´
äºİ197 6å¹´
æľºæ¢° åĮĸ
ug h
çĮľ æĥ³
å¥¥åĮĪ å¸ĿåĽ½
ï¸ °
G A
Î ³
Ġ è¿Ļæĺ¯
ä¸º çĶŁ
ä¸Ģ æĪĺ
æĺ¯ ä½¿çĶ¨
æī ¯
åĴĮ ä¸į
æľĪ äº®
ä¸Ĭ çĸı
çĶŁ è¿ĺ
ç¬¬ 27
åĪ° æľŁ
åĲĮ ç±»
è¿Ļ æĦıåĳ³çĿĢ
æĸ° åĽĽåĨĽ
ä½Ĩ å½ĵ
å¤© å±±
æŁ ĳ
åİŁ çĶŁ
äº¤ è°Ī
æµģ æĦŁ
å±ķ åĵģ
åıį æ½ľ
åıį åıĽ
æĶ¿åºľ åĴĮ
in ĠtheĠ
å¸¦ çļĦ
èĳĹ æīĭ
åı¯ä»¥ çľĭåĪ°
äººæ°ĳ æĹ¥æĬ¥
en ceĠ
åį° æľī
è§ģ è§£
èİ± å¾·
å®¢ åº§
æĹ© åīį
çİ¯ ç¤ģ
ä¸ĥ æĺŁ
æĦŁ åĬ¨
å°ļ ä¸įæ¸ħæ¥ļ
æ¯Ľ éĩĮ
èĩªçĶ± çļĦ
æ²ĥ æĢĿ
æı´ åĨĽ
çī¹åĪ« çļĦ
æķĳ çĶŁ
é¸Ł çļĦ
æĪĪ å¤«
ad d
åŁºæľ¬ çļĦ
ç©ºéĹ´ çļĦ
åīĳ æ³ķ
äºīè®® çļĦ
ä¸Ńæĸĩ çīĪ
äºİ194 6å¹´
éĻĢ ç½Ĺ
å¿į èĢħ
åłĨ ç§¯
æ³¢å°Ķ å¤ļ
Ġw ith
è¶³åįı æĿ¯
å±ıä¸ľ åİ¿
éĺī åī²
F M
p o
u ri
Ð º
Ñ Ĥ
Ġ è¿Ľåħ¥
Ġ ä¹¾éļĨ
å¤§ ä¸Ń
ä¸Ĭ éĥ¨
ä¸Ĭ æĹ¬
ä»ĸ æĬĬ
å¹¶ å®£å¸ĥ
è¢« æ´¾å¾Ģ
æ± ŀ
çī¹ æķĪ
éĩĮ å¾·
åı¯ åģļä¸º
æĸ° åħļ
æĸĩ åĵ²
çŃī é¢ĨåŁŁ
ç½Ĺ åħ°
ä¸ŃåĽ½ éĵģè·¯
å½± åŃĲ
å°¼ èĮ¨åŁº
åĪĹ å¤«
æ¶ §
å®ŀ çļĦ
åıĹ å½±åĵį
12 ç±³
å¥¹ ä¹Ł
æľª ç§ĳä¼ļè¯ķ
æĶ¶ å®¹
è°ĥ åº¦
ç¦» éĺŁ
åĵĪ èµ¤
ä¸Ķ åľ¨
å¡Ķ çļĦ
æ¬§ æĸĩ
æĴŃ éŁ³
15 æĹ¥
å¥ĸ æĿ¯
èĲ½ çļĦ
å¯Ł åĲĪ
åĨľ ä½ľçī©
è½½ äºº
æī§ ä¸ļ
ĠS er
ç²¾ å½©
è¯» éŁ³
éĺµ åĪĹ
æ²ĥ å¾·
çīĽ å¥¶
æ½ľ åħ¥
éĹŃ å¹ķ
å®¿ ä¸»
çıį è´µ
çŀ Ĵ
Ġ196 7å¹´
åĿİ è´Ŀå°Ķ
ab le
æĮĩå®ļ åľ°åĮº
è¾¾å°Ķ æĸĩ
å¸¸åĬ¡ å§Ķåĳĺ
æĨ ©
é¢ł è¦Ĩ
å¥¥æĸ¯åį¡ æľĢä½³
çķľ çī§
çĪ±èį· åįİå·ŀ
ç»ĥé©¬ å¸Ī
% (
2 æľĪ27æĹ¥
5 ä¾ĭ
U T
Î ¿
Ġ ç»Ħç»ĩ
Ġ åĬłæĭ¿å¤§
ãĢ ľ
èµ Ī
è¡Į ç»ı
æľ¬ èĲ¥
åĮĹ è¾¹
é«ĺ ç¥ĸ
èĩ³ 2012å¹´
æ¬¡ ä¼ļè®®
æĢ§ æ°ĶåĢĻ
æĢ» æĬķèµĦ
ç»Ł æĪĺ
å®ŀ æķ°
æĶ¶ çľĭ
æ´¾ åĪ«
å¼º ç¡¬
ä»ĸä»¬ å¯¹
èĲ¨ åĪ©
æĶ¿æ²» åŃ¦
çĶµå½± åĴĮ
å®¤ å¤ĸ
åįĬ æķ°
çļĩ å¤ªåŃĲ
14 00
èĢģ åŁİ
åº· ä¹Ĳ
çĽĳ æĬ¤
am i
th er
èī¾ ç±³
ä¸ĢèĪ¬ è®¤ä¸º
èį· å°Ķæĸ¯
è®®ä¼ļ éĢīä¸¾
åģı åĮĹ
å¤ıåŃ£ æ®ĭçĸ¾äººå¥¥æŀĹåĮ¹åħĭè¿ĲåĬ¨ä¼ļ
çĽĲ æ°´
éļĲ ç§ģ
æŁ´ æ¹¾
Ġ197 7å¹´
Ch rist
åİŁä½ı æ°ĳæĹı
Al l
æ³Ħ æ¼ı
å¿ĹæĦ¿ èĢħ
å½°åĮĸ åİ¿
èµĽèīĩ è¿ĲåĬ¨åĳĺ
èĥļ èĥİ
æĳ©å¤© å¤§æ¥¼
B åŀĭ
çļĦ èµĦæł¼
çļĦ æĿ¥æºĲ
ä½ ļ
ä¸Ģ è¡Į
ä¸Ń ç¾İæ´²
æĹ¶ å°±
è´ »
æĪĲ éĥ½å¸Ĥ
å¹¶ åĬłåħ¥
è¥¿ éĽħåĽ¾
èĩ³ 2014å¹´
çĶµ éĺ»
æĭī ç±³
é©¬ ä¿®
éĢļ è´§
èĬ ·
åħ¨ æĿĥ
ç½Ĺ æ±ī
å®ī æıĲ
éĥ½ å¿ħé¡»
èĭ± åĲīåĪ©
éĺ¿ çī¹
æĶ¹ ç§°ä¸º
å¸¸ å¹´
æ¸¯ çļĦ
12 åĲį
éĴ µ
éŁ³ é¢ĳ
çŁ³ çļĦ
è½¬ èĩ³
åı¯ä»¥ çĶ±
æ³¢ åıĬ
éĿ¢ç§¯ çº¦
æŁ¥ çľĭ
å¼ķ äºº
æ²¡æľī äºº
æŃ» ç¥ŀ
åĽ´ åĽ°
é²ģ èĥ½
åħ´ çĽĽ
éĿĴ è®Ń
é¸ ½
ç¥¨ æķ°
å·Ŀ å´İ
æī¿ è½½
èĹı æĸĩ
10æľĪ 11æĹ¥
è¶³çĲĥ ä¼ļ
æ£Ģ æł¡
éĢı éķľ
æķĳ åĬ©
21 äºº
ãģ Ł
è°ĭ åıį
åĨĽéĺŁ åľ¨
æŃ»äº¡ äººæķ°
åħĭéĩĮ åħĭ
ä¸īåįģ ä¸ĥå¹´
æģĭ ç«¥
æĺ¯æ³ķåĽ½ ä¸Ĭ
çŃ¹ éĽĨ
åŃŁ ä¹°
ç¿»è¯ĳ ä¸º
äºİ194 9å¹´
åħĭèİ± å°Ķ
éģµ ä¹ī
ç¾½æ¯ĽçĲĥ éĶ¦æłĩèµĽ
èĢĥåı¤ åŃ¦å®¶
ä½Ľç½Ĺ ä¼¦
åĲĽå£«åĿ¦ ä¸ģ
éĴ¥ åĮĻ
èµĽé©¬ ä¼ļ
è·Ĩ æĭ³
èį·å°Ķæĸ¯ æ³°åĽł
4 ä¸ĩ
f er
Ġ æľĢåĲİ
çļĦ åĲį
åľ¨ 2001å¹´
åľ¨ æİ¥ä¸ĭæĿ¥çļĦ
æĺ¯ åĽł
åĴĮ formula
ä»¥ 5
éĥ¨ å°Ĩ
ä»ĸ å°±
ä¸į éĢĤåĲĪ
æ¯ ĭ
ä¹ĭ æĹ¥
ä¹ĭ äºī
å¹¶ æĪĲåĬŁ
è¿Ļ æĺ¯ä¸Ģç§į
èĩª æĪĲ
åĨħ çī¹
ä¹Ł ä¸įèĥ½
èµĽ åĴĮ
è¯¥ å·ŀ
ç«ĭ æ¡Ī
å¸ĥ æ´Ľ
é©¬ ä½į
éĩį æķ´
çĤ ½
éĥ½ ä¸İ
å¸¸ ç»¿
å¹¿ æ·±
èº« å¿ĥ
or s
æ±Ł å±±
ä¿¡ çļĦ
æ¯ı ä½į
åŃĺ æľī
åĲĮæĹ¶ è¿ĺ
åī¯ åı¸ä»¤åĳĺ
å¡ŀ çĲī
èĬ± æł·
æķ´ é¡¿
èĭ±åĽ½ ä¼¦æķ¦
ä»ħ éĻĲäºİ
çīĻ åĮ»
åºĨ éķ¿
3æľĪ 8æĹ¥
åĶĲ çº³å¾·
1æľĪ 7æĹ¥
å¸ķ çī¹éĩĮ
çİĽ éĽħ
äº¤éĢļ è¿Ĳè¾ĵ
éĽĨåĽ¢ åħ¬åı¸
æĻĭ åĽ½
é½Ĳ å¥¥
æ¤įçī© åĽŃ
è¿ĺæľī ä¸ĢäºĽ
æĶ¿çŃĸ çļĦ
ç¬¬åįģ åħ«
åħĭéĩĮ å¥¥å°Ķ
æĺ¯ä½įäºİç¾İåĽ½ æĺİå°¼èĭıè¾¾å·ŀ
æ¼«çĶ» ä½ľåĵģ
Ġ197 1å¹´
Ġ197 4å¹´
ç¾İæľ¯ åŃ¦éĻ¢
çĭĦ æĽ´
å¸¦é¢Ĩ ä¸ĭ
å¼ĹæľĹ èĮ¨
ï¼ħ ,
èĲ¥ä¸ļ é¢Ŀ
åħĪè¿Ľ çļĦ
åİĮ æģ¶
åłķ èĥİ
èģĭ äºº
3 0å¹´ä»£
6 æľĪ13æĹ¥
Ġ çļ®
Ġ åİĨä»»
åľ¨ åĲĮå¹´
åľ¨ 2024å¹´
ä¸Ģ åħ«
ä¸Ģ è´¯
è¯ ½
åĨ ī
å¤§ éĽ¨
åĴĮ å£°
åĴĮ ä¸Ģæŀļ
ä¼ļ æĺ¯
åĮº åıĬ
æ¸ İ
çĶ± æĸ°
å¤ļ å§Ĩ
å¾· ç±³çī¹éĩĮ
æĸĩ éĽĨ
ç¾İ éĩĳ
åīį æīĢ
ä¸ľ å¾·
æīĢ èĳĹ
è¯¥ å¯º
äºĮ ä¸ª
çİĭ æĿİ
ä½įäºİ ä»Ĭ
æį® æĬ¥éģĵ
éŁ³ è¯ĳ
æł¡ å°ī
åıį éĿ©åĳ½
åıĺ èº«
è®º çļĦ
ä¿¡ å¿µ
æ³¢ çļĦ
åĸ Ĥ
åħµ å¤ĩ
æĭħ ä¿Ŀ
çļĦä¸Ģä¸ª å±ŀ
èĹ Ķ
è¯ķ åīĤ
æĦŁ åıĹåĪ°
åįł äºĨ
æĺ¾ å¾®
æ´»åĬ¨ å®¶
èĹı æĹı
è½® æµģ
ç½Ĺé©¬ äºº
ä»ģ å·Ŀ
è´Ŀå°Ķ çº³
è½´ å¿ĥ
æ§ Ĳ
ak e
ä»ĭç»į äºĨ
Ġs p
åĳĪçİ° åĩº
è½¬æį¢ ä¸º
æĸ© æĿĢ
ç»ıçºª äºº
çŃĽ æŁ¥
è¯¸èĳĽ äº®
å·´æ¯Ķ ä¼¦
è±ģ åħį
å·ŀéĻħ åħ¬è·¯
éĿŀçī©è´¨ æĸĩåĮĸéģĹäº§
A s
Ð »
Ġ éĥ¨åĪĨ
Ġ è¿Ļä¸Ģ
çļĦ åħ³æ³¨
çļĦ èģĮåĬ¡
åĪ ®
ä¸Ģ æĺ¯
æĿ ŀ
å¼ Ī
å¼ ĭ
ä»¥ éĺ²æŃ¢
åĮº åĿĹ
èĢĮ å°Ĩ
åĬł çº³
åĮĹ æĬķ
åı° è§Ĩ
è¡¨ éĿ¢çļĦ
æľº åĴĮ
èģĶ éħĭ
è¿Ĳ å¾Ģ
èĭ± äº©
æ²³ ä¸İ
æ¸¸ è§Ī
ç¡ ¼
æĹ¥æľ¬ æ°Ķè±¡åİħ
ç¬¬ä¸Ģ éĺ¶æ®µ
Ġ19 20å¹´
ä¸»è¦ģ ä»İäºĭ
å¡Ķ æ¥¼
éĻ¤ åİ»
åħ« æĹĹ
å¾Ī é«ĺçļĦ
17 ä¸ª
æ¦ ¨
å½ĵæĹ¶ åľ¨
æīĢæľī æĿĥ
å½Ĵ äºİ
åĮĹéĥ¨ çľģ
åħ¹ åł¡
ch em
çİĽ èİī
100 åħ¬å°º
æ·· åĲĪçī©
æľĢåĪĿ çĶ±
å¸ĮèħĬ ç¥ŀè¯Ŀ
éĿĻ åĨĪ
ä¸Ģä¸ĸ çļĦ
æĸĳ é©¬
Ġs h
åº·çĨĻ å¸Ŀ
èħĲ èļĢ
ä½įäºİä¸ŃåĽ½ å¹¿ä¸ľçľģ
é¥¶ èĪĮ
åĨ» ç»ĵ
è´¦ æĪ·
æ²īç§¯ çī©
è¡Ļ éĹ¨
J os
Ġ åĽ½å®¶
Ġ èĢĮåľ¨
Ġ You
åľ¨ åĮĹç¾İ
ä¸Ģ ä¸ĭ
å¥ Ħ
éķ ĸ
åıĳ æºĲ
ä½ľ äºĨ
èĩª å®¶
å¹³ ç«ł
äºļ è¿Ĳä¼ļ
çŃī æĸ¹å¼ı
è¡¨ æł¼
æĭī ç½ķ
è·¯ çĶ±
å®ī åįĹ
äº§ åĢ¼
åı² åħĭ
åħļ æĶ¿
æ· ĩ
in o
in ter
å¥¹ å¯¹
å¼Ģå§ĭ åĩºçİ°
æĿĥ åĬĽçļĦ
æ¡Ī ä¸Ń
äº² å¯Ĩ
æ³ķåĽ½ å¹³åĿĩæ°´å¹³
åįĩ æł¼
ä¼¦ åł¡
æł· åŃĲ
ç¡® å®ļçļĦ
è¶Ĭ åħ±
ç»Ħç»ĩ åĴĮ
ä¾¿ åľ¨
åģľ æ»ŀ
æĺ¾ çİ°
éŁ³ä¹Ĳ åİħ
å¹² è¾¾
éĢĢ åĮĸ
å·¦ æīĭ
ä¸´ æµ·
åĪ¤ å®ĺ
å¿ħ å®ļ
å¼Ĥ æŀĦ
4æľĪ 7æĹ¥
é³ ī
åºı æķ°
çĭ¬ç«ĭ åĲİ
aĠ B
çĶ¨äºİ æ²»çĸĹ
æ²ĥ å°Ķçī¹
éĥ¨éĺŁ åľ¨
40 åĪĨ
åĩ¯ çĳŁ
éª¨ å¹²
è¾Ľ è¾Ľ
è¸ ©
çĪĨåıĳ äºĨ
æµģè¡Į æĸĩåĮĸ
çģ¯ åħī
åħĥç´ł çļĦ
è¾ī çħĮ
Ġ196 9å¹´
åĩ½æķ° çļĦ
äºİ194 2å¹´
çģĮ ä¸Ľ
é²¤ é±¼
èµ«å°Ķ æĿ¾
çĪ±åĽ½ ä¸»ä¹ī
è¯¥å¸Ĥ æľīäººåı£
è´Ńçī© ä¸Ńå¿ĥ
æ·Ģ ç²ī
ç¹ģå¿Ļ æĹ¶éĹ´
è·¯å¾· ç»´å¸Į
åįİçº³ åħĦå¼Ł
Pa ul
éĺ¿æł¼ çº½
% ),
2 1å¹´
2 æľĪ26æĹ¥
2 æľĪ21æĹ¥
U B
t a
Ġ æ¢ģ
Ġ çİ¯å¢ĥ
çļĦ æłĩå¿Ĺ
ä¸º éħįåĲĪ
ä¸Ģ ä¸¾
å¸ §
éĩ ī
æľī æ¯Ĵ
19 äºº
ä»¥ å¤§
åĮº éģĵ
åıĳ å£°
èĢĮ å¯¹
åĵ ĳ
èĭ Ł
çī¹ çº³
éķ¿ å¯¿
èĩª åı¤
åĮĹ è§Ĵ
æľĢ ä¸»è¦ģçļĦ
åĨħ åľ¨
ä¹Ł è¡¨ç¤º
å¤ĸ è¡¨
å±± åĴĮ
ä½¿ ä»ĸä»¬
å¤© èµĭ
ä¸¤ éĺŁ
æĢ» åı¸ä»¤éĥ¨
éĢī åĿĢ
èµ· å§ĭ
çİĭ åħ¬
åįİ ä¸½
åŀ ®
å¥³ åıĮ
18 äºº
æĹł äº§éĺ¶çº§
è¯´ åĩº
äºĶ è§Ĵ
eĠ W
eĠ deĠ
åĽ¾ åį¢
äº¬ åħĨ
åħ¶ä¸Ń ä¸ĢåĲį
ä¸ĸçķĮ ç¾½èģĶ
æĿİ é¸¿
èĢĥ éªĮ
æŃ¢ æŃ¥
æķĻèĤ² åĴĮ
ä½Ļ ä¸ĭ
æĪĺäºī åĲİ
æĪĺäºī ç»ĵæĿŁ
åİħ åİħéķ¿
è½® æ¤ħ
èĽ ¾
åĮĹéĥ¨ åĴĮ
ĠçĶŁ æ¶¯
åį´ åĽł
è¿ģ éĥ½
2æľĪ 3æĹ¥
ĠA d
ç«¥ è¯Ŀ
å¸® æ´¾
éĴĪ çģ¸
åĨ° çĲĥ
2009å¹´ æĹ¶çļĦ
åĪ¶åº¦ çļĦ
å¸®åĬ© çĲĥéĺŁ
æģĭ äºº
åıĽ åıĺ
ä½įäºİæ³ķåĽ½ è¯ºæĽ¼åºķå¤§åĮº
èĪĴ æĽ¼
äºİ194 7å¹´
186 8å¹´
äºİ196 6å¹´
å¼ĹéĽ· å¾·éĩĮåħĭ
åĢ¼å¾Ĺ æ³¨æĦıçļĦæĺ¯
å¤§çĲĨ å¯º
èİ·å¾Ĺä¸Ģæŀļ éĵľçīĮ
Ġå¤ĸéĥ¨ éĵ¾æİ¥
3 å®¶
6 50
8 ä¸ĩ
i j
l et
n a
p ha
Ġ åĪ©
çļĦ é¡¹çĽ®
æĹ¥ é£Ł
æĹ¥ æīĺç±³å°Ķ
ä»¥ ä¸Ģ
ä¼ļ è®©
åŃ¦ ç¤¾
è¢« åĪĴåħ¥
å¼Ģ é¦Ĩ
åįĹ å®ī
é«ĺ æ¡¥
èĩ³ 2017å¹´
æľº éĺŁ
å·¥ åĮł
åı£ çļĦ
ä½Ĩ ä¸İ
éĵ ¨
æķ° åįģå¹´
å¤© çĶŁ
æ¯Ķ å®ī
åİ¿ ä»¤
èµ· ä¼ı
è®® ç¨ĭ
å¸¸ åľ¨
åį¡ åĪ©
å®ĺ åºľ
å¤ª å¤ª
ç¬¬ä¸Ģ æĿ¡
ç¼ĸ éĺŁ
è°ĥ åĬ¨
åĪĽ è®¾
äºī ç«¯
ç¦ı å²Ľ
çĵ¦ è¥¿éĩĮ
åįĥ ä»£
æīĺ æ´Ľ
30 ä¸ĩ
åıĳçİ° èĩªå·±
çĥŃ åĨħ
çĥŃ æ½®
å»ºçŃĳ é£İæł¼
æīĢæľī äºº
å³ ĩ
é¹ «
æ°¸ åĴĮ
æľįåĬ¡ ä¸Ńå¿ĥ
æĿ° åĩºçļĦ
åį´ æ²¡æľī
åĤ »
èģĶèµĽ ä¸Ń
è¡Ģ åİĭ
è¡ĮåĬ¨ çļĦ
çĩ ®
éªĳ é©¬
åĪĨå¸ĥäºİ äºļæ´²
äººåı£æĻ®æŁ¥ æĮĩå®ļåľ°åĮº
ç¡¬ ä½ĵ
è¿Ī å°Ķ
èĩªåĬ¨ åĶ®ç¥¨æľº
äºİ198 1å¹´
ç¼ĵ åĴĮ
äºİ195 0å¹´
å¼ºçĥĪ åıįå¯¹
å°ĺ åŁĥ
åĴĸåķ¡ é¦Ĩ
Mic hael
å®īå¤§çķ¥ çľģ
ç§ĳç´¢ æ²ĥ
O C
Ġ èµµ
Ġ ç¬¬äºĮæ¬¡ä¸ĸçķĮå¤§æĪĺ
å¤§ éº»
åĩº å¾ģ
ä¸į å¿ħ
ä½ľ ä¹ī
æĽ ¦
å¹¶ æĽ¾
è¥¿ æ¹¾
åĬ¨ éĩı
è¿Ļ ä»¶äºĭ
æľĢ å¼º
å°Ĩ å£«
éĢļ ç¼ī
ä½Ĩ å¹¶æľª
éĩį çİ°
æ¹ Ħ
çİĭ åĪĺ
çİĭ èı²
éĺ¿ éŁ¦
åĲĳ åĲİ
æŀĹ æł¹
åıĹ è¿ĩ
åį¡ è¥¿
æ±Ł éĹ¨
è½¬ å¾Ģ
çłĶç©¶ åĴĮ
çłĶç©¶ è¡¨æĺİ
å¡Ķ å°¼äºļ
å®£ å¾·
ä¼¯ å¡Ķ
ä¼Ĺ å¤ļçļĦ
å¾Ī å¥½çļĦ
ä¸Ńå¿ĥ åŁİå¸Ĥ
è¯į è¯Ń
ä¾¿ å¼Ģå§ĭ
éĻį ä¸º
è¿Ļä¸ª éĹ®é¢ĺ
ä¼ĺ è´¨
çĭ¬ç«ĭ äºİ
èīºæľ¯ åįļçī©é¦Ĩ
äº¤éĢļ äºĭæķħ
ĠM an
24 äºº
åĽº éĨĩ
å¥ı è¯·
ra v
å¨ģå»ī æĸ¯
åĸĢ éº¦éļĨ
Ġæ¦Ĥ åĨµ
ain t
éħįå¤ĩ äºĨ
çĽĪ åĪ©
åĤ¬åĮĸ åīĤ
è¿½éļı èĢħ
Andro id
ä¼ºæľį åĻ¨
è·Ĩæĭ³ éģĵ
T el
Ġ æĬĢæľ¯
Ġ åĳ½åĲį
æĺ¯ ç»§
ä¸Ĭ åīį
ä¸İ åĽ½éĻħ
ä¸İ æĸĩåĮĸ
åĩº çº¿
è¿Ļ å°Ĩ
æĸĩ å®Ĺ
åīį ç§°
äºļ æĭī
æķĻ å»·
è¶ Ł
æĢ» åĬ¡
éĢī åĮºçļĦ
çĽ¸ ç»ĵåĲĪ
æŃ£ çº¿
åįķ ä¸ª
ä¼Ĭ æ³½å°Ķçľģ
äº¦ æĶ¹åĪ¶ä¸º
æŃ» çļĦ
å®¢ æµģ
åĲī å¸ĥ
æĸ½ åİĭ
è´Ŀ çī¹
ä¿Ħç½Ĺæĸ¯ å¸ĿåĽ½
åı¶ åīĳ
æĿ° å¤«
æ¯Ĵ ç´ł
æµ·åĨĽ çļĦ
çĸĹ åħ»
è¿· å®«
ec ord
å¹¿æĴŃ åī§
èĦļ æľ¬
æ°ĳä¼Ĺ åħļ
Ġ196 3å¹´
æıĲåįĩ èĩ³
äºİ197 1å¹´
äºİ197 7å¹´
Ġ193 5å¹´
ev el
æľ¬èº« çļĦ
ç¥ŀç»ı ç³»ç»Ł
æĸĩçĮ® ä¸Ń
æīĢå±ŀ è¡ĮæĶ¿åĮºåŁŁ
å¥ĭ æĸĹ
åĪĨå¸ĥåľ¨ ä¸ŃåĽ½å¤§éĻĨçļĦ
GB T
Vi u
æ·±æ°´ åŁĹ
åĩ¡å°Ķ èµĽ
KP INK
åľŁåºĵ æĽ¼
å¤ļå°Ķå¤ļæ¶ħ çľģ
M 2
M B
X X
Ġ åıĹ
Ġ æĶ¿åºľ
Ġ èĪªç©º
Ġ å¤§å¤ļæķ°
Ġ åĩºåħ¥åı£
Ġ è½¶äºĭ
çļĦ åŃ¦æł¡
çļĦ æĦŁè§ī
åľ¨ ä½¿çĶ¨
åľ¨ åįĹäº¬
ä¸Ģ ä»¶
ä¸Ģ è¿ŀä¸²
æĺ¯ ä»ĸçļĦ
è¡Į éģĵ
æ¯ ĺ
æĮ Ł
éĽ ī
åĬ¨ çĶ¨
çī¹ è´¨
èĩ³ 2023å¹´
åĨħ ç½®
çŃī å¤ļä¸ª
å¤ĸ åŀĭ
å®ļ åĲĳ
æĦ ģ
åŁº åº§
æ°´ å¸Ī
æİ¥ èİ·
çİĭ æĺŁ
å¤Ħ å¢ĥ
ç±» æ¯Ķ
åºĶ åĬĽ
ç©º ç¼º
åı¤ è£ħ
å¼ķ èĩ´
å±ħ å®¶
æł· åĵģ
åıĮ èĥŀèĥİ
éĻĪ æ°ı
åħ¸ ç±į
èµ° åĪ°
ä¼ļè®® çļĦ
èī¾ åĵĪè¿Ī
éĢīä¸¾ äº§çĶŁ
éŁ¦ æĸ¯çī¹
éĶ¦ å·ŀ
å®īåħ¨ æĢ§
çĶ·åŃĲ åįķæīĵ
å¥³åŃĲ åįķæīĵ
èģĮä¸ļ è¶³çĲĥè¿ĲåĬ¨åĳĺ
æ¨ª çĲ´
éĶ¡ åħĭ
åĪĨå¸ĥäºİ åį°åº¦
Ġå¹´ ä»£
åī§æĥħ çīĩ
è´¢æĶ¿ æĶ¶åħ¥
188 4å¹´
æĲ¬ åĪ°äºĨ
çĲī çĴĥ
çĶŁæĢģ ç³»ç»Ł
å½¢å®¹ ä¸º
æĬ± æĢ¨
å¸Ĳ åı·
ãĥ¼ ãĥ
åŁİéĻħ éĵģè·¯
åĽ½å®¶åĴĮ åľ°åĮº
æĸ¼ ä¼¦æķ¦
éĹŃçİ¯ ç®¡æİ§ä¸Ńåıĳçİ°
ä¼Ĭèİī èİİçĻ½
ä½Ľç½Ĺä¼¦ èĲ¨
è¯½ è°¤
Ġ çĲĥä¼ļ
çļĦ D
çļĦ å¾·åĽ½
çļĦ æĹ¶ä»£
çļĦ çĶ·æĢ§
çļĦ è¾¹çķĮ
å¹´ åīį
ä¸Ģ ä¸Ń
ä¸Ģ åħ±æľī
åŃ º
æĺ¯ éĿŀå¸¸
åĴĮ éĿŀ
ä¸į æĿ¥
çĶŁ åĮĸ
æ± ´
å¼Ģ æĪĺ
åįĹ å±±
åįĹ å²¸
å¾· æ£®
åĮĹ æľĿ
åīį ä¸¤
ä¸ľ éĹ¨
èĩ³ 2009å¹´
çŃī åĢĻ
å°Ĩ ä¸İ
æĭī æĽ¼
ç§ĳ æĸ¯
èģĶ è§ī
èµ· æĿ¥çļĦ
å½± éĻ¢
æĪĸ åľ¨
è®® äºĭ
éĺ¿ åħ¹
å¥³ å©¿
å¹¿ ä¸ºäººçŁ¥
å¥¥ å·´é©¬
an e
åħĪ åľ¨
å¡Ķ åĲī
åĲĮæĹ¶ æľŁ
èħ ķ
çº¢ çĻ½
è¾ĸ ä¸ĭ
æ¢ħ åħĭ
åĪĩ æĸ¯çī¹
re g
éĢĲ åĩº
ol dĠ
æ¿ ®
éħ¸ æĢ§
æĸ°éĹ» èģĶæĴŃ
å®ª æĶ¿
éĵ¶è¡Į çļĦ
åĲ¬ è¯ģ
ç§ĭ å¤©
åģı ä¸ľ
å¤ªéĺ³ çļĦ
èĻİ å°¾
æħĪ ç¦§
ç»ĵåĲĪ äºĨ
188 0å¹´
av eĠ
Ġ193 6å¹´
186 4å¹´
çļĦåİĨåı² å¹´ä»£ä¸º
Ġp ro
Ġ192 5å¹´
æĹ¥æ²» åĪĿæľŁ
å¥ł å®ļ
Ġæķħäºĭ ç®Ģä»ĭ
åı²èĴĤ å¤«
æķ£éªĳ å¸¸ä¾į
tertain ment
2 æľĪ13æĹ¥
Ġ èİ±
çļĦ çĶŁçī©
æĸ ¡
ä¸Ģ æ¥¼
ä¸Ń è§Ĩ
æĹ¶ æľº
è½ ¼
ä¸Ĭ è¡¨
ä¸į èĤ¯
æĸ¹ èĪŁ
ãĢĭ ),
åĬ¨ ä¹±
å¼Ģ æºĲ
åı¯ ä¸İ
æĸ° åºĦ
æĸ° æ½Ł
ä¹Ł éĹ¨
æĭī æĸĲ
é©¬ èĴĤ
éĢļ åħ³
å·ŀ æĶ¿åºľ
çº¿ åľ¨
éĺ¿ ç±³
å®ŀ å½ķ
å¥¥ æĭī
ä¸ĩ æĪ·
åĮħæĭ¬ æľī
åı¯ä»¥ åĪĨä¸º
æīĵ åį°
èĤ² æľīä¸Ģ
åħŃ ä¸ªæľĪ
æĿİ çĻ»è¾ī
ä½ľä¸º ä¸Ģç§į
éĺ² èĪ°
èĪ° èĪ¹
å£° æľĽ
åıĮ æºª
é£ŀ èīĩ
ä»į ä»¥
ä¸Ńå¤® çłĶç©¶éĻ¢
æľ¨ åħ°
å³ ª
éĢĢ èµĽ
çªģ åĩºçļĦ
å®« åĨħ
èī¾ è¿ª
æĳĦ åĥı
å¸ķ æĸ¯
è¡¥ éĢī
æĮī éĴ®
ä¹Ķ ä¸¹
ç¼º å¤±
åĢŁ åı£
ä¹Łæľī ä¸ĢäºĽ
çĶļèĩ³ åľ¨
æľĢåĪĿ æĺ¯
å¥ı æĽ²
æ¸¡ è¾¹
åľ°ä¸ĭ ä¸Ģå±Ĥ
çļĩå®¶ ç©ºåĨĽ
Ġ195 7å¹´
æĴĴ åĵĪæĭī
å¿ĥçĲĨ åŃ¦å®¶
é¼ł çĸ«
äºİ196 0å¹´
äºİ195 2å¹´
åŃ¤ çĭ¬
åĵĢ æĤ¼
åį°åľ°å®ī çº³å·ŀ
åİŁå£° å¸¦
åĬªå°Ķ åĵĪèµ¤
çĺŁ çĸ«
ç¬¬èģĤä¼¯ ç½Ĺ
ä¼ıå°Ķ åĬł
F 1
L S
Ġ åĬł
Ġ ä¸ĭè¾ĸä»¥ä¸ĭåľ°åĮº
Ġ åĪ¶å¤ĩ
çļĦ æ³ķ
çļĦ åĬ¨çĶ»
ãĢģ -
åľ¨ 18
åº ł
å· ³
åĴĮ å®ĹæķĻ
ä¼ļ éĢłæĪĲ
æľ¬ ä½ĵ
èĩª åĪ¶
å¹³ åĩ¡
ä¸ľ éģĵ
èĩ³ 2019å¹´
ç«ĭ çļĦ
å¦ Ĵ
å¤© åı°
æĺİ çıł
èĭ± åĭĩ
å°¼ åĬłæĭī
éĩĳ éĻµ
éĺ¿ éĥ½
åı² ä¹¦
æīĭ ä¸Ĭ
åĽ¢ åĽ¢éķ¿
æĽ´ æĹ©
æ´» åĮĸ
åıĸ åĲįä¸º
åı¤ æĸ¯å¡Ķå¤«
åį³ ä»Ĭ
ä¼Ĭ çİĽ
ä¼Ĭ çĬģ
èĭı åħ±
è°ĥ çĶ¨
ä»¤ ä»ĸ
çĻ½ çŁ³
è®¤ä¸º ä»ĸ
æĿİ æĸĩ
åįı åĴĮ
åī¯ å¤Ħéķ¿
å¤± æİ§
çļĩ åŃĲ
ç»Ħç»ĩ äºĨ
éŁ³ä¹Ĳ çļĦ
ç½² çĲĨ
æĿĤ è´§
çĶŁäº§ äºĨ
ç¦ģ å¿Į
éĺ¿å°Ķ ä»£ä»Ģ
ä¹Ķ æľ¨
ç§ģ å®¶
éĽª å±±
å¹¶ä¸į èĥ½
éº» çľģ
ä¹Ļ ç»Ħ
çĴ ĩ
ç»ıå¸¸ åľ¨
å±ħä½ı äºİ
çºµ çģ«
ç¼ħ åĽł
188 8å¹´
æŀĦæĪĲ äºĨ
æ´Ĺ æīĭ
éĽĩ çĶ¨
éĺª ç¥ŀ
å¿½ å¿ħ
é¢ĩ æľī
sh ip
ric k
ç»¥ è¿ľ
åį°ç¬¬å®ī äºº
å²Ĳ éĺľ
èŀºæĹĭ æ¡¨
ç¿°æŀĹéĻ¢ åº¶åĲīå£«
éº¾ ä¸ĭ
ä¸Ńçº§ äººæ°ĳæ³ķéĻ¢
åŁ¼ çİī
4 0å¹´
5 èĩ³
6 èĩ³
I CO
Ġ åħ¬åı¸
çļĦ R
çļĦ èµĽäºĭ
çļĦ å¸®åĬ©ä¸ĭ
ç» Ľ
å¸ ĺ
å¤§ ç¢Ł
åĴĮ æµ·
åľ° è²Į
æĪĲ ä¹¦
é¢ į
åĨĽ èĬĤåº¦ä½¿
è¢« éĩįæĸ°
å¹³ åľ°
æīĢ æĿĢ
æŃ¤ æ¡Ī
çŁ «
æľº èĥ½
ç³» æķĻæİĪ
éĩĳ æ£®
è£ ĺ
çĤ¹ åĩ»
èĭı èı²
è°ĥ å¾Ģ
è°ĥ æİ§
åĪĿ æ®µ
åĵĪ ç»´
åĵĪ æģ©
åįĥ æĪ·
æŀģ å°ĳ
çĶ² åįĪ
ç´ł é£Ł
çľĭ åĪ°äºĨ
æ³¨ éĩĬ
å®£å¸ĥ ä¸İ
ä¸½ èİİ
re w
è¶ħè¿ĩ 100
æīĢä»¥ åľ¨
ãģ ¨
ãģ ¾
é»ĺ å°Ķçī¹
ä¸¥éĩį çł´åĿı
åĩ¤ å±±
æŃ¦è£ħ åĬĽéĩı
å»ºåĪ¶ æ´¾
æ°Ķè±¡ ç«Ļ
æ²¿æµ· åľ°åĮº
çŁŃæļĤ çļĦ
ä¸ĭåįĬ åľº
æĺ¯ç½Ĺé©¬å°¼äºļ çļĦä¹¡
ä»Ģåı¶ æ´¾
ç¦ıæ²» è°·åı·
æĺ¯ç½Ĺé©¬å°¼äºļçļĦä¹¡ ä»½
A p
F R
G ame
H S
T r
Ġ e
Ġ éĢī
Ġ èĥ¡
Ġ çĶ¨éĢĶ
çļĦ åĦ¿ç«¥
çļĦ è§£éĩĬ
åľ¨ æĶ¿æ²»
ä¸Ń ä½į
å¤§ ä¸ļ
å¤§ æ¸ħ
å¤§ æĢĴ
åĴĮ æĬĢæľ¯
åĲİ éĥ¨
æĸ¯ æĹº
å¯¹ æĸ¹çļĦ
èĭ ĩ
çī¹ èķ¾
è¿Ļ æī¹
å¼Ģ èĬ±
åĮĹ éģĵ
å»º çī©
æŃ¤ é¡¹
é©¬ èĢ¶è®·
200 3
éĵ Ĥ
åħ¨ ç§°
éĻ¢ éĻ¢å£«
ä¸ŃåĽ½ æ°ĳä¸»
çķĮ éĻĲ
çĤ¹ æķ°
äººæ°ĳ å§Ķåĳĺä¼ļ
åŃ£ çļĦ
la m
ç¬¬äºĮ åįģ
ä»£è¡¨ äººçī©
éĽ· æģ©
çĶ° éĩİ
æķ´ æ²»
æ²Ļ å·´
èĲ½ åľ°
çĹħ æĤ£
ä¸Ńåįİ åı°åĮĹ
è¯ģ ä»¶
çĥŃ å°Ķçľģ
è¡ĮæĶ¿ æľºåħ³
æĤ ĸ
ä¾¿ åı¯
am il
åį¢ æĸ¯
åĪĹè½¦ æľįåĬ¡
é¼ ¬
é¡» è´º
èģĮä¸ļ èģĶèµĽ
æ¬¢ ä¹Ĳ
æ±ĩ çİĩ
è·Ŀç¦» åľ°çĲĥ
æ¯ģ äºİ
28 äºº
åĲĪå¹¶ ä¸ºæĸ°
ç§Ł çĶ¨
ä¿Ĺ åĲį
In ternational
èļ Ĥ
æĬĺ ç£¨
è´¾ æĸ¯
è´Ńä¹° äºĨ
äºİ196 4å¹´
åĽ½åĬ¡éĻ¢ æĢ»çĲĨ
äºİ195 5å¹´
åĽĽåįģ ä¸Ģå¹´
è¾¹çķĮ åľ°å¸¦
è¡į çĶŁçī©
åĤħ ä½ľä¹ī
Ġ192 8å¹´
Ġ192 7å¹´
æĺ¾èĳĹ çļĦ
æĺ¯ä¹Įåħĭåħ° è¥¿éĥ¨
èĢ¶ç¨£ ä¼ļ
è´§è¿Ĳ ä¸ļåĬ¡
åī©ä½Ļ çļĦ
å°¼åı¤æĭī èĢ¶å¤«
ä¹ĺè½¦ äººæ¬¡
åı¶åīĳ èĭ±
å¿½å¿ħ çĥĪ
5 æ¬¡
7 ä¸ĩ
g l
çļĦ æľĭåıĭ
åľ¨ 2002å¹´
ä¸º ä»£è¡¨
ä¸º æł¸å¿ĥ
ä¸Ģ ä¹¦ä¸Ń
äºº å¯¿
æĺ¯ è¥¿
æĺ¯ æĹł
æĭ ·
æĹ¶ æīį
åŁ ¤
æĸ¯ éĢļ
åħ¬ çĲĨ
åĲį æ¬¡
åĪĨ ç«Ļ
çī¹ æ´Ľä¼Ĭ
ä¹Ł åıĹåĪ°
éģĵ å°Ķ
å°Ĩ åİŁ
å¤ĸ åį¡
èĬ ¹
ç§° è°ĵ
éĺ¿ çĳŁ
åĽĽ æµ·
äººåı£ æľī
äº¤ æīĢ
æīĭ å·¥
ä¹¦ çĶ»
ä¼ł æĦŁ
æĮģ èĬĤ
ç¬¬ä¸Ģ å¼ł
æ¯ı äºº
é¦Ļæ¸¯ çī¹åĪ«è¡ĮæĶ¿åĮº
æŃ¦ ä¾ł
å®£ æĪĺ
ä¿® é¥°
ä¹ĭä¸Ģ æĺ¯
æĤ Ħ
æł¸ èĥ½
7æľĪ èĩ³
å¼Ģåıĳ äºĨ
è¿½ æĿĢ
äººåĳĺ çļĦ
è¡Ģ ç³ĸ
22 æĹ¥
æ±ĩ åĲĪ
èİī èİī
æĸĩåŃ¦ ä½ľåĵģ
éģ¿ å¼Ģ
ä¸īåįģ åħ«å¹´
çĭ± ä¸Ń
æŁ¯ æľ¬
Th om
Ġ196 2å¹´
æĸĳ çº¹
åľ¨199 1å¹´
è¯¥çľģä»½ä¸ºæ³ķåĽ½ ä¸ľåĮĹéĥ¨
é²į åĭĥ
ers on
åıĺå¾Ĺ æĽ´åĬł
ä¿ĺ èİ·
èĢĹ å°½
ip p
å§Ĭ å§Ĭ
åĭ¾ ç»ĵ
é©¬åĬĽ è¯º
æĸ°å¢ŀæľ¬åľŁ æĹłçĹĩçĬ¶æĦŁæŁĵèĢħ
æļĳ åģĩ
ç§ĳç½Ĺæĭīå¤ļ å·ŀ
è©¹å§Ĩ å£«
çĶ±è¯¥ éģĵè·¯
è¯¥çľģä»½ä¸ºæ³ķåĽ½ä¸ľåĮĹéĥ¨ åĨħéĻĨçľģä»½
2 æľĪ22æĹ¥
6 ä¸ªæľĪ
S BS
c i
çļĦ éĢīæĭ©
çļĦ ç«ĭåľº
çļĦ å¦¹å¦¹
æĺ¯ ç§į
æĺ¯ ä¸Ńåįİæ°ĳåĽ½
è¡ ħ
å¤§ ä¸»æķĻ
æī Ī
åĲİ ä¼ļ
éĿ ¡
æĸ¯ è¯º
ç¬ ĭ
å®¶ æĿĳ
ä¸ĭ è½¦
åı¯ è¢«
åīį ç«¯
çĶµ è§£
åħ¥ ä½ı
é©¬ è½¦
éĢļ åķĨ
å·ŀ çŁ¥å·ŀ
ç½Ĺ å¾·éĩĮ
çĽ¸ å¤Ħ
æıĲ éĹ®
æ´» æ³¼
çŁ³ çªŁ
åı¯ä»¥ çĶ¨æĿ¥
çļĦä¸Ģ èĪ¬
åĵĪ åº·
åħ« åı·
åĽ½éĻħ å¥¥å§Ķä¼ļ
çĶ° æĿĳ
ä»į æĹ§
åĩł åįģå¹´
13 ä¸ĸçºª
ç´¢ æģ©çľģ
è¿Ļä¸ª è§Ĵèī²
èģĶåĲĪ æĶ¿åºľ
æķĳ çģ¾
ä½© åĭĴ
ri sĠ
è£ģ æĴ¤
éĽ¨ æŀĹ
èµĽåŃ£ ä¸Ń
åİ¿çļĦ æĻ®æŁ¥è§Ħå®ļå±ħæ°ĳçĤ¹
çºµ è´¯
å¿«éĢŁ åĪĹè½¦
çĵľ åĪĨ
çĨĬ çĮ«
äºİ197 4å¹´
åĪĽåĬŀ çļĦ
äºİ196 2å¹´
ĠæŃ¤ ç«Ļ
åı°åįĹ åİ¿
ç§įæĹı éļĶç¦»
åįİçĽĽé¡¿ å·ŀ
if ic
æ´¾åĩº æīĢ
ne y
å§ĳ å¨ĺ
ç»§ä»» èĢħ
èĲĿ æĭī
é¹¦é¹ī åĺ´
é²¨ é±¼
å·¥åĨľ çº¢åĨĽ
æĸ¹æµİ åĲĦ
çµ ®
èĭ±åĲīåĪ© æµ·å³¡
å°¼åĬłæĭī çĵľ
2 4å¹´
2 åº§
D i
F e
çļĦ å¥½
çļĦ èĥ½éĩı
ç» ®
ä¸º çĭ¬ç«ĭ
ä¸Ń åĿľ
æĺ¯ è¶ĬåįĹ
å¤§ å°ıçļĦ
åĲİ éĩĳ
åĲİ å°±
åľ° æĿ¿
æĪĲ åĽł
æĸ¯ æ³°
æĬ ĸ
ãĢĭ (,
è¥¿ çļĦ
å¸Ĥ è¾ĸåĮº
åĲĮ æŀĦ
åĬ¨ è®®
è¿Ļ çīĩ
ç¾İ åĪ©
è·¯ äº¤åıīåı£
ç«Ļ ä¹ĭéĹ´
éĩį çĶ¨
é¦ĸ åº§
åįİ å±±
é¦Ļ æĸĻ
çīĪ ä¸Ń
ç½ĳ éĻħ
åħ« åį¦
å¸Į å§Ĩ
æ±ī åŁİ
åį« åħµ
æĹ© äºİ
çĹħ åİŁ
çĻ» é¡¶
åıĳå±ķ æĪĲä¸º
æģ© æĸ¯çī¹
æ¥¼ éĿ¢
è¾ĸ ä¸ĭçļĦ
çĿĢ æīĭ
åŁİå¸Ĥ è§ĦåĪĴ
æľĢåĲİ ä¸Ģä½į
åį¢ è¥¿å®ī
äº¤éĢļ æŀ¢çº½
é»İ åĲĦ
ä½Ĩæĺ¯ çĶ±äºİ
å¢ŀåĬł èĩ³
éĨ ĭ
èĤ¯ å°¼äºļ
èĩªçĦ¶ èµĦæºĲ
é¢Ĺ æĺŁ
å®ĥä»¬ åľ¨
æ»¨ æĿ¾
ç»į å°Ķ
ĠR e
æĺ¯ä¸ŃåĽ½ çļĦçī¹æľīæ¤įçī©
å¼ķåıĳ çļĦ
188 7å¹´
è¥¿æĸ¹ åĽ½å®¶
äºİ196 7å¹´
æĬĳ éĥģ
çļĦåĲİ ä»£
éĻª ä¼´
JR è¥¿æĹ¥æľ¬
çĶ°å¾Ħ éĶ¦æłĩèµĽ
æ»ĭ çĹħ
æĳ©å°Ķ å¤ļçĵ¦
ä¸ĢåĽ½ ä¸¤åĪ¶
ç¥ŀå¥Ī å·Ŀåİ¿
åĭĥåħ° çĻ»åł¡
å¸ĥå®ľè¯ºæĸ¯ èī¾åĪ©æĸ¯
åĽ¾åį¢ åħ¹
1 æĹ¶
A BC
B ig
F O
G l
H I
çļĦ åĬ¨çī©
çļĦ æĸ°éĹ»
çļĦ æ¼Ķåĳĺ
åľ¨ è¥¿çıŃçīĻ
äºĨ ä¸ŃåĽ½
ä¸į ä¸Ĭ
ãĢĭ ).
å¹¶ è®©
æĶ¿ å±Ģ
åįĹ éĹ¨
åı¯ æĢķ
æĸ° è®¾
æĸĩ æĺĮ
é«ĺ å°Ħ
äºļ è¿°
éĿ¢ åħ·
èĩ³ å¤§
åĽł äºİ
ä¸ī æ²³
åı° çĭ¬
è½¦ èĩ£
èĲ İ
åĪ¶ å®ª
åı£ æľį
å®ī çº³
æ¯Ķ åħ¶ä»ĸ
ç¦ º
æĢ» éĩı
åŁº åºķ
åŁİ æ±ł
èµ· çģ«
æ°´ åĮº
æĶ¹ éļ¶
æ¸¯ çĿ£
ç»´ åº¦
è¯´ ä»ĸ
æĺŁ çº§
æĽ´ æĶ¹ä¸º
éĿŀ èĲ¥åĪ©
åħ¶ä¸Ń ä»¥
ä¸»è¦ģ åĮħæĭ¬
ä¸Ķ æľī
è´¨ ç´ł
æĬķ å¥Ķ
å¾Ī éķ¿
å®¤ çļĦ
æĹ¶éĹ´ éĩĮ
çħ İ
åĨľ äº§åĵģ
éĢĢ ä½į
éĢīä¸¾ å§Ķåĳĺä¼ļ
æįķ é±¼
æİĮ æĿĥ
éķ¿æľŁ ä»¥æĿ¥
çŃ¹ æ¬¾
æĶ¶å½ķ åľ¨
ä¼Ĭæĸ¯åħ° åĽ½
åį«çĶŁ ç»Ħç»ĩ
åĽ½åĬ¡éĻ¢ æī¹åĩĨ
éĺ²å¾¡ å·¥äºĭ
çļĦå¤ĸ è§Ĥ
æª ¬
æĥ¨ è´¥
éĺ¿å°Ķåįĳæĸ¯ çľģ
è¿Ļåº§ åŁİå¸Ĥ
å¼Ģå·¥ å»ºè®¾
ä»£è¨Ģ äºº
å¤©æ°´ åĽ´
æľ¬é±¼ ä½ĵ
æ³¢å¤ļ é»İåĲĦ
2 æľĪ17æĹ¥
F A
R T
m ar
Ġ j
Ġ éŁ©åĽ½
Ġ è¿ĩåİ»
Ġ åĪ«åĲį
çļĦ 4
çļĦ åŃ©åŃĲ
å¤ Ń
ä¸Ń é£İ
æľī ä»¥ä¸ĭ
åĲİ ç»ı
å¹¶ åĽłæŃ¤
åĪ° ç¾İåĽ½
åĲĮ ä¹¡
è¿Ļ éĩĮçļĦ
åı¯ çŁ¥
å¾· åľ¨
åīį è¿°
èĩ³ æŃ£
æĭī å°¼
å·¥ åľº
å±± çĶ°
èµ· çĶ¨
éĴ °
åĽŀ éģ¿
åŃĹ éĿ¢
é£İ çĲ´
åħī åº¦
æ®µ èĲ½
è¨Ģ ä¹ĭ
çĶ· æŃĮæīĭ
éĽ· å°Ķ
æĹ¶éĹ´ è¡¨
åıĮ åŃĲ
çĶ² çĬ¶
æķĪ èĥ½
åºķ ä¸ĭ
ç´ł æĿĲ
åİĤ æĪ¿
éĢģ åħ¥
è·Ŀ ä»Ĭ
è¡Ģ èħ¥
è½¯ éª¨
éĢĥ çĬ¯
ä½ĵèĤ² ä¸Ńå¿ĥ
éĤ» åĽ½
åĶ¯ æľī
IN G
æľĢå¤§ æ°´æ·±
å¾Īå¤ļ äºº
500 ä¸ĩ
æŁ¯ æĸĩåĵ²
è¢Ńåĩ» äºĭä»¶
çļĩå¸Ŀ çļĦ
å½±çīĩ ä¸Ń
æıĴ åĽ¾
æĭīä¸ģ æĸĩ
çīµ è¿ŀ
çĽ¸æ¯Ķ ä¹ĭä¸ĭ
å¿§ éĥģ
ric h
è¶ĬæĿ¥è¶Ĭ å¤ļ
ä¸¢ å¤±
wit ch
è¤Ĵ è´¬
æĭľä»ģ æħķå°¼é»ĳ
ç±³åĵĪ ä¼Ĭå°Ķ
çŃīåĲĮ äºİ
èĻĶ è¯ļ
è¾Ľè¾Ľ éĤ£
- ãĢį
T e
Â ²
Ġ åıįåĵį
çļĦ C
çļĦ çĶµè§Ĩ
åĲ ł
åį ī
åĳ ķ
åŃ¦ å¾Ĵ
åĩº æ²¡
å¹¶ èĩª
åĪ° é¦Ļæ¸¯
çĶ± æ³ķåĽ½
èĩ³ 2008å¹´
è½¦ åĨħ
ç¥ ļ
åľº æ¯ĶèµĽä¸Ń
å°ı å±ĭ
å®ī äºº
æ¯Ķ ä¸Ĭ
10 åı·
è¾¾ æĭī
çº¦ åĲĪ
å±ŀ åľ°
è®¡ ç¨ĭ
é¦ĸ ç§Ģ
éĩı çº§
å¥³ çľŁ
æĺŁ ç©º
æĶ¿åºľ éĥ¨éĹ¨
é¦Ļ å±±
åı¯ä»¥ è®©
ç©¶ ç«Ł
æĿİ åĽ½
å®£ å®Ĺ
è¯º æĭī
åĥ ĸ
å®¢ éĩı
çģ« çł²
çģ« çĤ¬
æ·± éĢł
æ¡¥ æ®µ
è½½ åħ·
ç»Ĩ éķ¿
å¼Ĥ æ¯į
èĩªçĶ± ä¸»ä¹ī
çļĦå¤§ å¤ļæķ°
ä¸ªäºº ä¸ĵè¾ĳ
of ĠtheĠ
ä¼ģä¸ļ çļĦ
éĻµ åİ¿
éĺ» åĬĽ
ä¹Ļ éĨĩ
å¼± åĬ¿
âĢĿ( ).
ä¾¯ çĪµ
åĤ¨ éĩı
Ġ193 3å¹´
å®¢è¿Ĳ ä¸ļåĬ¡
äºİ193 9å¹´
æ³¢æĸ¯ å°¼äºļ
è¿Ļé¦ĸ æŃĮæĽ²
åĴĸ åĸ±
è¤ ¶
çļĦæĹ¥ åŃĲ
å°¼åı¤ æĭīæĸ¯
æľŃ å¹Į
çĶŁéķ¿äºİæµ·æĭĶ 1
å®ľåħ° åİ¿
åįĹå¼Ģ å¤§åŃ¦
' ,
3 A
D is
E v
Ġ äºº
Ġ æĢ»
Ġ å¦Ĥ
Ġ ç¬¬åĽĽ
Ġ isĠ
çļĦ åħ±åĲĮ
å¹´ å°ĳ
åľ¨ ç»ıè¿ĩ
æĪ Ł
ä¼ļ åłĤ
æĪĲ ç¥ĸ
ä¸İ å¦»åŃĲ
å¹¶ åıĸå¾Ĺ
æ³ķ æ²»
è¿Ļ å¯¼èĩ´
èİ Ĩ
å¾· å¡ŀ
æľĢ åıĹæ¬¢è¿İ
ä¸ī æĮ¯
èµĽ ç¨ĭ
è¡¨ æĥħ
å±± èĦļ
åĮĸ å¸Ĥ
å¤© å®Ŀ
éĺ¿ ä¼ĬåĬª
äº¤ æīĭ
æµģ çļĦ
é¢Ĩ åıĸ
åĳ½ é¢ĺ
è®º èĢħ
ä¼Ĭ åĩ¡
æ³¢ æµª
åķĨ ä¸ĺ
å¯Ĩ çī¹
æŃ¦ èŃ¦
é¢ĺ çĽ®
èĲ¥ éķ¿
æİ¨ å¯¼
çĵ¦ çº³
å¸Į å¤«
åĬŁ åĬ³
éĺ³ äºº
éĺ³ éĥ¡
ä¸Ńåįİ èģĮæ£Ĵ
çķĻ è¨Ģ
çĳŀ æĸ¯
çļ® åħĭ
ä¸½ åħ¹
re d
é©» æ¸¯
æĿŁ ç¼ļ
æĹĹ äºº
äºĨä¸Ģ ä½į
äºĨä¸Ģ æĿ¡
ä»ĭ éĿ¢
èĪªç©º èĪªå¤©
åĪ» çĶ»
è®¢ å©ļ
æ³Ľ æ»¥
åĨįæ¬¡ è¢«
ä¸¤äºº åľ¨
æĺ¯æ³ķåĽ½ ä¸Ĭæ³ķåħ°è¥¿å¤§åĮº
åĭĭ çĪµ
çĬ¹å¤ª äººçļĦ
ab leĠ
äºİ195 4å¹´
ss oci
å±ķçİ° åĩº
å¸ĥæĶ¿ åı¸
ç¼Ĩ è½¦
èĩĢé³į ç¡¬æ£ĺ
æĻ®æŀĹ æĸ¯é¡¿
çĽİ æł¼é²ģ
ĠåĽ½å®¶éĺŁ çĶŁæ¶¯
ä¸ºè¾Ĳé³įé±¼çº²é²¤ å½¢çĽ®
P N
Ġ æĢ§è´¨
çļĦ å²Ľå±¿
ä¸Ģ å¤ľ
å½ ¤
æĹ¶ äºĭ
éĿ ´
ä¸Ĭ æ¶¨
ç¬¬ 30
ç¬¬ 38
è¥¿ æĭī
åıĬ æĸĩåĮĸ
ä¸ľ ç«¯
æīĢ çĶ¨çļĦ
è¿ĩ å¢ĥ
è·¯ éļľ
å¸ĥ åį¢
200 2
èĢħ æľī
å¤© é¡º
å®ī æīĺ
çĤ Ķ
10 å¹³æĸ¹åįĥç±³
é¦ĸ æĪĺ
æ¼Ķ åıĺæĪĲ
éķĩ æ±Ł
ä½įäºİ é¦Ļæ¸¯
ä¹Ĳ è¯Ħ
åįķ äºİ
å·² è¾¾
èº ģ
äºĶ æ¬¡
è¿ĺ è®¾æľī
éĢł ä»·
å¤ª å°ī
å¼Ģå§ĭ åīį
æ°Ķ è´¨
ç¬¬äºĮ æľŁ
åħ« åįģ
çĶµå½± åŃ¦éĻ¢
ä½ı æ°ĳ
13 00
åģļ è¿ĩ
0å¹´ä»£ åĪĿ
èī¾ æ£®
000 ä¸ª
ä¸ºäºĨ éģ¿åħį
ou sĠ
åĸľ å¥½
çĶ·åŃĲ è¶³çĲĥè¿ĲåĬ¨åĳĺ
å·¨ é¢Ŀ
æĢ¥ æķĳ
ç¬¬äºĮæ¬¡ åĽ½åħ±åĨħæĪĺ
æĺĨ å£«
æ²Ī éĺ³å¸Ĥ
åľ¨è¿Ļ æ¬¡
çĽĹ è´¼
éĶģ å®ļ
187 6å¹´
éĢļè®¯ ç¤¾
åĦĴ åŃ¦
ä¸Ĭä¸ĭ è½¦äººæ¬¡
è¿¦ å¤ª
é¢Ī éĥ¨
å¿ĺ è®°
æ¶Īéĺ² åĳĺ
ç¾İåĽ½åĽ½å®¶ é£ĵé£İä¸Ńå¿ĥ
èĬ¯ çīĩ
åį«åĨķ åĨłåĨĽ
å¼ĹåĲī å°¼äºļå·ŀ
âĢĭ âĢĭ
ä¹Įåħ¹åĪ« åħĭ
å¯ŁåĲĪ åı°
åĩ¯çĳŁ çĲ³
6 Ġå¹´
I t
R A
o dĠ
p lay
Ġ ç¦ı
Ġ èĮĥ
Ġ ä¸ĸçºª
çļĦ æĮĩæĮ¥
çļĦ è¨Ģè®º
åľ¨ ä¸¤
ä¸Ģ åĲĳ
ä¸Ń é¦ĸæ¬¡
æĺ¯ è¦ģ
ä»¥ åĲİçļĦ
è§ Ĳ
ä¸į åĬŀçĲĨ
ãĢĭ :âĢľ
åĨĽ åĴĮ
å¯¹ ç¾İåĽ½
çī¹ èģĺ
èİ ª
å¾Ĺ çļĦ
æĢ§ æĦŁ
éĥ½ æĭīæĸ¯
åı¸ ç©º
å·´ å°¼
æ® ¡
18 00
å®ŀ è¯ģ
åħļ å§Ķåī¯ä¹¦è®°
æĬ¥ èŃ¦
æ±Ł åĮº
å®ĥ è¿ĺ
Ġ19 18å¹´
åıĪ å°Ĩ
åı°æ¹¾ äºº
äº¦ ä¸į
ä»½ é¢Ŀ
äº² è¿ĳ
å®Ĺ çļĦ
èĩ´ çĶµ
ä½ľä¸º åħ¶
åĨĻ æ³ķ
åĨľ æŀĹ
éĻį æł¼ä¸º
æīį åįİ
åıĳçĶŁ æĹ¶
èĪ¹ ä½ĵ
è¯· è¾ŀ
æ¸© å®¤
ä¼¤ åı£
è½® æ¸¡
èģĶåĲĪ å£°æĺİ
èµ« çī¹
æĢ»ç»Ł åĢĻéĢīäºº
çĶŁäº§ åķĨ
è¡ĮåĬ¨ åħļ
æĭľ çĻ»
èį· å±ŀ
100 åĲį
60 äºº
éĺ¿å°Ķ å¼ĹéĽ·å¾·
22 äºº
èĮĥåĽ´ åĮħæĭ¬
ç©¿ ä¸Ĭ
ãĤ Ĭ
ç´§ éĤ»
ç¬¬åįģ ä¸ĥ
èıĮ å±ŀ
èŃ¦å¯Ł éĥ¨éĺŁ
äº¨ çī¹
è´Ŀå°Ķ æł¼èİ±
æ¹ĸåįĹ æ¹ĺæ¶Ľ
å¨ģå°Ķ ç¬¬
186 7å¹´
äºİ195 9å¹´
èµĲ äºĪ
æ¶¦ æ»ĳ
æĮĩå¯¼ ä¸ĭ
å©Ĩ ç½ĹéĹ¨
åĢº åĪ¸
IC E
èĤł éģĵ
åī¥ åīĬ
ä¸ºä¸ŃåĽ½ çļĦçī¹æľīæ¤įçī©
å®ģæ³¢ å¸Ĥ
æĺ¯ä¸Ģæ¬¾ çĶ±
èŃ¦åĬ¡ å¤Ħ
ä¼łæŁĵ çĹħ
å¥¥å¸ĥ çľģ
èįīæľ¬ æ¤įçī©
æŁł æª¬
I BM
M in
Y O
y a
Ġ åĲī
çļĦ è½¬
åľ¨ èĭıèģĶ
æĺ¯ åįĹ
å¤§ åŀĭçļĦ
è¾ į
ä¸İ åįĹ
ä¸İ é©¬
æİ ³
ç¬¬ æĪİ
çī¹ æĬĢ
å¤ļ ç½Ĺ
ç¾İ å°Ķ
éĿ¢ 1
ä¸ī éĥİ
çŃī åħ¶ä»ĸ
å®ļ ä»·
ç§į åĲį
ä¸¤ åħļ
çĽ¸ è¯Ĩ
çº¦ 15
çº¦ 40
å°¼ å¾·
éĺ¿ ä»Ģ
åı² åīį
éĩı æµĭ
å¸¸ æľī
0å¹´ èĩ³
ç®¡ åĮº
åį¡ è¯º
å¥¥ æģ©çľģ
æĶ¿åºľ å®ĺåĳĺ
å±Ģ ä¸Ĭ
éĿŀ æŃ£å¼ı
æĽ² é£İ
æŃĮ è°£
åħĪ æĺ¯
è£ħ ç®±
åħŃ æĹ¥
æĺ¯ä¸Ģ æĶ¯
en ce
çĶ° åĮº
æ¯į åħ¬åı¸
17 æĹ¥
å§Ķåĳĺä¼ļ æĪĲåĳĺ
ç´¢ å¤«
æŃ£å¼ı åıĳè¡Į
ç²¾ åĩĨ
æŀ¶ ç©º
åģĩ è£ħ
å¤º ä¸ĭ
è¶ħè¿ĩ 1
ãģ į
æºª åİ¿
ĠT V
åį± åľ°é©¬æĭī
26 äºº
çļĦä¸» æĮģ
ä½Ĳ èĹ¤
ä¸īåįģ äºĶå¹´
ç¬¬äºĶ æ¬¡
ç¥Ń åĿĽ
189 2å¹´
çľģçº§ æĸĩçī©ä¿ĿæĬ¤åįķä½į
æŃ¦è£ħ åĪĨåŃĲ
çŀ ³
Ġ193 2å¹´
äºİ194 3å¹´
è±Ĩ èħĲ
ä¿®å»º äºĨ
é¦ĸåºľ è®¾äºİ
ä¼Ĺè®®éĻ¢ è®®åĳĺ
ear ch
ç¬¬ä¸Ģæ¬¡ä¸ĸçķĮå¤§æĪĺ æľŁéĹ´
åĽŀåĽ½ åĲİ
æĤ¼ å¿µ
åĮ¾ é¢Ŀ
åĽ½åŃĲ çĽĳ
ww w
éľī ç´ł
äºļä¼¯ æĭīç½ķ
éĺ¿åįľæĿľ åĭĴ
è·¯æĺĵæĸ¯å®ī éĤ£å·ŀ
åı± åĴ¤
BLAC KPINK
è¿¦å¤ª åŁº
3 10
A lex
S er
Ġ æ¼Ķåĩº
Ġ æ¸ħæľĿ
Ġ ä¹¡éģĵ
çļĦ åıĳçĶŁ
æĸ Ľ
åľ¨ ä¸ĭ
åľ¨ çİ°ä»£
ä¸º é«ĺ
ä¸Ń çļĦä¸Ģ
åĽ½ äº§
æĪĲ ä¸Ģä¸ª
åħ¶ ä¸ĭè¾ĸ
ä¹ĭ éģĵ
ä¹ĭ ä½Ļ
è¢« å®³
å¯¹ å¥¹
åħĭ éļĨ
åŃĲ ä¸Ĭ
åĬł ä¹ĭ
æľĢ çŁŃ
ä»£ è¯į
è¯¥ æĬ¥
æķĻ çļĦ
éļ ĺ
æı Ĩ
äºĮ åħĥ
200 ä¸ĩ
å¤© æŃ£
ç½Ĺ èĲ¨
éĩį å¤§çļĦ
æŃ£ éĿ¢çļĦ
çº¦ 8
åºľ åİ¿
éĺ¿ è¯º
åĽĽ éĿ¢
æŀĹ å®¶
è¿ĺ æľª
æľª å¿ħ
é¦Ļæ¸¯ ä¸Ńæĸĩå¤§åŃ¦
åķĨ çĶ¨
å¤´ çŃī
ä¸ĸçķĮ ç¬¬ä¸Ģ
åħµ åºĵ
åħŃ è§Ĵ
å¼ķ æĿ¥
ä¿® å£«
èĲ½ äºİ
ä¸Ńåįİ åħ¨åĽ½
éĿĴ é¾Ļ
éĿĴ æ£®
çĻ¾ äºº
é¸ ¥
ä»ħ æľīçļĦ
å·Ŀ å¸Ĥ
å½±åĵį åĪ°
æľĢç»Ī äºİ
ç¬¬ä¸ī ä½į
æ°¸ æĺĮ
å½Ĵ æĿ¥
éĩįè¦ģ çļĦæĺ¯
èµ« åĭĴ
åĲ´ åĽ½
å®īåħ¨ çļĦ
åĨħå®¹ çļĦ
çĹĩ åĢĻ
as on
ç¯ĩ è®ºæĸĩ
è¿ŀæİ¥ åĪ°
çĶº æĿĳ
çº¿çļĦ éĵģè·¯è½¦ç«Ļ
ub er
æķĻä¼ļ çļĦ
åľ¨199 5å¹´
åľ¨199 4å¹´
åı¬å¼Ģ çļĦ
å¡« åħħ
è¡° æľŁ
åĮĪçīĻåĪ© è¯Ń
å¼ĹæľĹ è¥¿
åįģä¹Ŀ ä¸ĸçºª
çī² çķľ
ç¬¬åįģä¸ī å±Ĭåħ¨åĽ½äººæ°ĳä»£è¡¨å¤§ä¼ļ
ð¬ ¶
ç»ĩçĶ° ä¿¡éķ¿
æ¤° åŃĲ
åį¢çĶĺ æĸ¯åħĭ
å¤įæĹ¦ å¤§åŃ¦
éĻĽ ä¸ĭ
åĢ¼å¾Ĺä¸ĢæıĲ çļĦæĺ¯
åı²åħĭ å¨ģå°Ķ
1 æľĪ24æĹ¥
2 8å¹´
3 Ġå¹´
H en
K ar
t im
Ġ ä»ĸä»¬
çļ ±
çļĦ ç§ģäºº
ä¸Ń æĺ¯
æĺ¯ æ³¢åħ°
å¤§ èĥĨ
åĲİ ä¸İ
æµ £
éĹ ·
éķ Ĳ
åĩº è¡Į
å®¶ çĶ¨
éķ¿ ä¹Ĳ
éķ¿ çīĩ
åŃĲ ç¾¤
åı¯ ä»İ
å¹³ éĿĻ
æīĢ çĶ¨
èµĽ åĮº
æĪĺ åľ°
èĥ½ åĲ¦
æ¬¡ è¦ģ
åħ± åıĳçĶŁ
ç§° å¸Ŀ
å®ī ä¹Ĳ
è®¡ éĩı
æĹł æĿ¡ä»¶
ç»´ èĢ¶
çĽ´ åĪĹ
å¥¥ åĭĴ
éª ĩ
æĶ¯ éĺŁä¼į
çº³ è¾¾
åī§ ä½ľå®¶
æ¯ı ç»Ħ
åĪĴ åĩº
å¯Ĩ éĴ¥
å®£ åĪ¤
ç½ĳ çĲĥåľº
åŃĺ æ¬¾
ä»£è¡¨ å¤Ħ
æĪĳ æĥ³
è¡¨ç¤º ä¸º
sĠ andĠ
ç¤¾ä¼ļ æ°ĳä¸»åħļ
å±ŀäºİ æ¸©å¸¦
æıĲä¾Ľ ç»Ļ
ĠS T
çªģ åıĳ
çĶŁæ´» æĸ¹å¼ı
åħ³ç³» å¯ĨåĪĩ
åįķä½į çļĦ
çĶļ å°ĳ
èĵĿ æľ¬
åĳ¼ åºĶ
èĤ¯ çī¹
åı« å£°
æģĭ æĥħ
èį·åħ° è¯Ń
åİ¿çļĦä¸Ģä¸ª äººåı£æĻ®æŁ¥æĮĩå®ļåľ°åĮº
æĺŁæľŁ äºĶ
çŀ ©
äºİ196 3å¹´
ä¸Ľ æŀĹ
19ä¸ĸçºª æľ«
èĤĿ èĦı
NBA éĢīç§Ģ
åı¯éĿł æĢ§
24å°ıæĹ¶ åĨħ
éĩĮç¨ĭ ç¢ĳ
éĶ¯ é½¿
åį¢çĵ¦å°Ķ æ²³è°·
æĸ°åįİ ç¤¾
åħĥèĢģ éĻ¢
las sĠ
åĲĳåħ¬ä¼Ĺ å¼ĢæĶ¾
æµ·åĽł éĩĮå¸Į
çļĦè½¨éģĵåįĬéķ¿è½´ ä¸º2
åİĦçĵľ å¤ļå°Ķ
ĠWindow sĠ
ç¼ĸå¹´ åı²
çĶ²çĬ¶ èħº
A 2
C or
S F
f rom
k g
n ew
Î º
Ġ ä½ķ
Ġ åĪĽä½ľ
çļĦ å£«
çļĦ ç¼ĸè¾ĳ
ä¸º å¦»
ä¸Ģ æľĪ
ä¸Ń èĭ±
äºİ 2026å¹´
å¤§ æĺİ
åĩº è¡Ģ
èĢĮ å®ļ
å¯¹ æİ¥
è¿Ļ èµ·
åı¯ å°Ĩ
èĩ³ 2020å¹´
è¿ĩ æķı
è½¦ å¤´
éļ ¼
å¤ĸ è¡ĮæĺŁ
æ¯Ķ åĸ»
åı¸ éĥİä¸Ń
æĽ¾ èİ·å¾Ĺ
æĹł æķĮ
äº¤ éĶĻ
æĦı åį³
çĥ ĺ
è¯´ åĶ±
å·² æĺ¯
eĠ G
åħ¬åı¸ åĴĮ
æľĿ åľ£
çĶ» å»Ĭ
16 æĹ¥
çĮ ¬
é»Ħ å¸Ŀ
al Ġ
é»ĳ èī²çļĦ
æĬĹ åİŁ
é¹ ĥ
ç»Ĩ å·Ŀ
10æľĪ èĩ³
åºĹ éĵº
åĶĲ å¤ªå®Ĺ
è¯» åıĸ
åį´ ä¸į
æĿ¥èĩª ç¾İåĽ½
ä¸ºäºĨ è®©
åĨ² ç§¯
åģĩ å®ļ
æİ¥åıĹ çļĦ
èĪŀ èĢħ
le g
éĺ¿å°Ķ ä¼¯çī¹
ç´§ åĩĳ
ç»ķ è¿ĩ
çļĦåīį æıĲ
çĨŁ çŁ¥
å®īå¾· å°Ķ
åĽĽåįģ ä¸īå¹´
è¡° ç«Ń
å¼ĹæľĹ è¥¿æĸ¯
é¢Ħå¤ĩ éĺŁ
å¯Įå£« çĶµè§Ĩåı°
ç¼ª å°Ķ
å¤ĸæĺŁ äºº
é©¬å£« éĿ©
æļ¹ ç½Ĺ
åį¢è¥¿å®ī è¯º
L a
R ich
Ġ æĻļå¹´
çļĦ åıĳçİ°
çļĦ è§Ĵåº¦
åľ¨ åĲĦ
åľ¨ ç¬¬ä¸Ģ
è¯ ¡
å¤§ åĪĨ
æľī åĲį
åĴĮ ä¸Ĭ
ä¼ļ åĲİ
åĩº åĽ½
åħ¬ åºĻ
å®¶ çĿ£
æ³ķ åĴĮ
èĢĮ åħ¶ä»ĸ
è¢« æĴ¤éĶĢ
åĲĮ äºº
å¤ļ éĩį
èĩª ç«ĭ
æµ· å°Ķ
éĹ´ è·Ŀ
åĽł æ¶īå«Į
ä¸ī æ®µ
å°Ĩ èĩªå·±
è° ļ
åı£ åĳ³
å°ı æŀĹ
ä½¿ å¾Ĵ
æĢ» æĮĩæĮ¥
éĩĳ åŃĹ
å¿ĥ ä¸Ń
ä¹Ĳ è§Ĥ
çĽ´ éĢī
å¥¥ çī¹
åŃĹ åħ¸
æ±Ł æ³½
åħī æ³½
åĪĿ åĽŀ
å¼º é£İ
åĨį ä¸Ģæ¬¡
åħµ éĥ¨å°ļä¹¦
åº§ çļĦä¸Ģ
æŃ¦ å¨ģ
la b
la d
è®¤ä¸º è¯¥
çĵ¦ åĪ©
ä¿® è¾ŀ
åĿĩ æľª
å·¥ä½ľ ç»Ħ
æİĴ ä½į
é»Ħ çŁ³
éĩĩ çŁ¿
é£Ł æĿĲ
åŁĥ æĿ¾
åĵ¥ æĸ¯è¾¾
æľ¨ ç»ĵæŀĦ
ĠS ystem
ä¾Ŀ éĻĦ
åħ¨åĽ½ äººæ°ĳä»£è¡¨å¤§ä¼ļ
åĪ¤ åĪĳ
ä¸¹ å°¼æĸ¯
éģĹ éª¸
æ²¹ ç®±
ç½² åĲį
yĠ B
æŀª æĿĢ
æľīä¸Ģ å®ļçļĦ
çĶļ ä¹Ī
å®½ 0
å¹ķ éĹ¨
æĪª çĦ¶
ä¾µ è¢Ń
çīĪæľ¬ ä¸Ń
èµĦæĸĻ åºĵ
ä¸īå¹´ åĲİ
éĽ¨ æ°´
ç»Łæ²» çļĦ
èĴĻåı¤ æĹı
æĤ£ çĹħ
éĿĻ æŃ¢
Ġ194 0å¹´
çī§ é¦ĸ
ç´« èįĨ
äºİ196 9å¹´
äºİ195 6å¹´
è¯ģæį® è¡¨æĺİ
è¡¨éĿ¢ ä¸Ĭ
èĵ¬ åĭĥ
ä¸Ĭä¸ĭ è¡Į
èµ£ è¯Ń
çĻ¾ç§ĳ åħ¨ä¹¦
æĸ°ç«¹ åİ¿
è°£ è¨Ģ
çĨĶ å²©
æĪĺåĽ½ æĹ¶ä»£
åĿĩåľ¨ éĹŃçİ¯ç®¡æİ§ä¸Ńåıĳçİ°
Ġä¸Ńåįİäººæ°ĳåħ±åĴĮåĽ½ æĪĲç«ĭåĲİ
ç½¹ éļ¾
IU CN
çĮ© çĮ©
ç¾ģ æĬ¼
è¾Ĺ è½¬
è¾Ľè¾ĽéĤ£ æıĲ
K ing
X å°Ħçº¿
Ġ ç¾İ
Ġ å¤§åŃ¦
Ġ æĹ§
Ġ æ¼Ķèīº
çļĦ ç¬¬åĽĽ
çļĦ å®ŀéĻħ
å¹ Ĥ
ä¸Ģ åĵ©
ä¸Ń å°ı
æľī ä¸º
ä»¥ æį¢åıĸ
åĲİ è¿Ľåħ¥
äºĨ è¿Ļä¸ª
ä¼ļ äºİ
ä¸Ĭ æŀ¶
ä¸į è¾¾
ä¸į ç¬¦
åħ¶ æĹ¶
æ¸ ²
ä¹ĭ å¦»
è¥¿ æĻĭ
èĢĮ æľª
è¢« å°ģä¸º
æĮ ļ
å¯¹ ä¸Ĭ
è¿Ļ è®©
èĩª å¼º
å¾· éŁ¦
ä¸ľ åĲ´
éĿ¢ ç²ī
ä¸ī åĪĨä¹ĭäºĮ
æ¬¡ éķ¿
éĢļ åĳĬ
å¤© å®«
æŃ£ æ®¿
åºľ åŁİ
æĹł è§Ĩ
åį¡ çīĩ
ä»¥åıĬ åħ¶
ä¼Ĭ æľ¬
åħ¶ä¸Ń åĮħåĲ«
æ°Ķ åĳ³
å¤į èĭı
ä¿® ä¾ĭ
å¢ŀ æ·»
ä¿Ħ ä¹Į
å¡ŀ å¥¥å¤ļ
æ¸¸æĪı æľº
å£° ä¹Ĳ
ä»ĸçļĦ å¦»åŃĲ
al s
èĢĥ åıĸ
at ic
æ¯ĶèµĽ æĪĲç»©
é¢Ħ ç§ĳ
èµ« æ¢ħåĪ©
et Ġ
åħį èģĮ
å®½ éĺĶ
å°Ķæĸ¯ åŁº
æ³Ľ æĮĩ
è¾ħ ä½Ĳ
ç¬¬äºĶ å±Ĭ
ä»Ļ åı°
æ®Ĭ èį£
å¥¥æĸ¯ æ±Ģ
æµ® æ¸¸
188 3å¹´
äºİ194 0å¹´
ç¥ŀç»ı åħĥ
å¤ļå¹´ çĶŁ
æłĸæģ¯åľ¨ åºķä¸Ńå±Ĥæ°´åŁŁ
ç´§æĢ¥ çĬ¶æĢģ
ç¥ł åłĤ
åħ¬äº¤ çº¿è·¯
æ¡Į éĿ¢
ç¥Ī æ±Ĥ
å¤ļé¡¹ å¼ı
mer ican
æĢ»é¢Ŀ ä¸º
éĽħåĲĦ å¸ĥ
å¯Ĩè¥¿è¥¿æ¯Ķ å·ŀ
æ»¨æµ·å¡ŀçº³ çľģ
T om
Ï ĥ
çļĦ åįķæĽ²
çļĦ åİĭåĬĽ
ä¸Ģ æĸĩ
æĺ¯ ç¬¬ä¸Ģä¸ª
è¡ ®
äºĨ å¥¹
åľ° åľ¨
ä¸Ĭ è¿Ľè¡Į
ä¸į å·²
çĶ¨ åĪ°
æĿ¥ å®ŀçİ°
å¹³ äº¤éģĵ
éĿ¢ è²Į
æµ· éĿ¢
å»º æł¡
æŃ¤ æĽ²
å°Ĩ ä»İ
æĢ» å·¥ä¼ļ
æŃ£ æ¨¡æłĩæľ¬
æĪĸ ä»¥ä¸Ĭ
åĽĽ æĿ¡
åĪĹ åĩºäºĨ
å¸¸ çĶ¨äºİ
æĮĩ å®ļä¸º
ä»¤ åħ¶
æİ¨ å´ĩ
åįĥ ç¦§
Ġåľ¨ ç¾İåĽ½
åĬ© æķĻ
èĪª éģĵ
è´Ł è½½
æĺĵ äºİ
çļĩ æĹı
æ·± å±Ĥ
è¡Ĺ å¸Ĥ
ç¤¾ä¼ļ ä¸Ń
å¥ĩ çļĦ
éĵ¶ å¸ģ
éŁ³ä¹Ĳ äºº
å¯º çļĦ
æľ« ä»£
åĸĦ èī¯
å¿ł è´¤
çļĦä¸» ä½ĵ
éĢĬ å°¼
å¢Ļ ä¸Ĭ
St ar
æľīäºĽ äºº
è·³ æ°´
å¤ºå¾Ĺ åĨłåĨĽ
äºİ195 3å¹´
èĦĬ é«ĵ
æĺ¯å¾·åĽ½ çļĦæ²³æµģ
åĨĴéĻ© æ¸¸æĪı
ç½Ĺå¤« æĸ¯åħĭ
åİŁåŀĭ æľº
äººå¤§å¸¸å§Ķä¼ļ åī¯ä¸»ä»»
æīĢè¾ĸ çļĦä¸Ģä¸ªæĿĳ
éĩĮçº¦ çĥŃåĨħ
å«Įçĸĳ äºº
è¯Ľ æĿĢ
å®ĩå¤ļçĶ° åħī
ĠCl ub
èľĹ çīĽ
éĥĬéĩİ åħ¬åĽŃ
2009å¹´æĹ¶çļĦ äººåı£ä¸º
P eter
l u
w ay
æľī ç½ª
å¹¶ ä½ľä¸º
è¥¿ ç«¯
èĢĮ å¼Ĥ
çĶ± æĿİ
åı¯ è¡ĮæĢ§
åĿ į
ãĢĮ ãĢį(
æµ· çļĦ
èĩ³ 2022å¹´
åĨħ çĩĥ
ä½ĵ èī²
å¤ĸ äºĭ
200 1
ä½Ĩ æŃ¤
æķ° åĲį
éĻ¢ åĨħ
éĻ¢ ç³»
åŁİ éĤ¦
æıĲ å°Ķ
æĦı çĶ²
åįķ å¼ıæľĪåı°
æĻ® çī¹
æĶ¿åºľ å¯¹
åıĺ æĽ´ä¸º
è¿ĳ ä¹İ
çŁ³ å·Ŀ
çļĦä¸Ģ éĿ¢
åıĪ æĺ¯
åħµ è´¥
ä»Ĭ æ²³åĮĹçľģ
åįĩ åħ¥
æİĴ åľ¨
æĸ½ çī¹æĭī
è½¦ç«Ļ çļĦ
ä½Ľ çĳŀ
è¿Ľåħ¥ åĩĨåĨ³èµĽ
æ¢ħ èĬ±
å½Ĵ éĻĦ
ä¿Ħç½Ĺæĸ¯ æĢ»ç»Ł
è¶³çĲĥ èµĽ
éĩİ å¤ĸ
éĩİ å¿ĥ
æľīä¸Ģ å¤©
éª¨ æŀ¶
å®ª å®Ĺ
ä¸ľåĮĹ æİ¥
æĦıå¤§åĪ© è¯Ń
èĨ º
åĪļ å¥½
åĶ¯ä¸Ģ ä¸Ģä¸ª
ra y
èĬĴ æŀľ
åģ· åģ·
å¸Ĥä¸Ńå¿ĥ çļĦ
èĪŁ å±±
åĵª éĩĮ
å½Ĵç±» äºİ
åı¬éĽĨ äºº
éĴĵé±¼ å²Ľ
åħĳ æį¢
å¼łå®¶ åı£
çīĩå°¾ æĽ²
Ġ è¯º
Ġ ä¹Į
çļĦ ç¨ĭåº¦
çļĦ æĢĿæĥ³
çļĦ æĦıä¹ī
çļĦ æĢ§è´¨
å® ¸
ä¸º æľ¬
åĴĮ åĮĹ
æŃ ª
åĲİ æĶ¹
æĪĲ åĵģ
è½ Ń
ä¸Ĭ åİ»
ä¸Ĭ æĿī
ãĢĭ ãĢĮ
ãĢĬ "
è¢« çº³åħ¥
çĶ± éĻĪ
è¿Ļ å¥Ĺ
ä»» ä¸º
åīį åį«
ä¸ľ å±±
æīĢ åŃ¦æł¡
èĩ³ 2007å¹´
ä½Ĩ ä¹ĭåĲİ
å®ī è¿ª
æģ ³
å£« æ¯Ķäºļ
åŁİ åįĹ
æ°´ çĶŁ
éĺ¿ ä»Ļå¥´
æ¼Ķ åıĺä¸º
å·´ ä¼¦
çº§ æĹ¶
éĽĨ è£ħç®±
an i
eĠ A
æĪĲä¸º ç¾İåĽ½
å¤ª è¿ĩ
ä¸ĵ é¡¹
æ±Ł éĻµ
ä¿¡ ä¼Ĺ
åħī åŃĲ
åĨį çĶ±
çĶ· çĶŁ
é»Ħ èľĤ
æŀģ é«ĺ
éĻĲ éĩı
14 ä¸ĸçºª
æī¹ åıĳ
ä½İ è°ĥ
æĪ¿ çļĦ
åĶĲ äºº
æĭ¥ ç«ĭ
000 ç±³
ç»§ç»Ń æĭħä»»
è¯Ńè¨Ģ ä¸Ń
åĮºåŁŁ æĢ§çļĦ
éª¨ æĬĺ
å¿ħé¡» è¦ģ
å¹¿æĴŃ çĶµè§Ĩåı°
åıĳå°Ħ ç®¡
2000å¹´ äººåı£æĻ®æŁ¥
ç§ĺä¹¦ å¤Ħ
é¹¿ æ¸¯
é«ĺä¸Ń çĶŁ
Ġ193 0å¹´
æĭĵ å®½
187 9å¹´
æĭīä¸ģ åŃĹæ¯į
åĲı éĥ¨å°ļä¹¦
å¤ªç©º äºº
å¯ĵ æĦı
èİ±èĮµ åħ°
MA X
å¾·å·Ŀ å®¶åº·
æĸ°ä¸Ģ ä»£
æ¦Ĩ æŀĹ
æ¶© è°·
å²ģåıĬ ä»¥ä¸Ĭ
æ¸² æŁĵ
3 30
E G
L D
O ff
Ġ è¯Ńè¨Ģ
Ġ çĲĥåĳĺ
çļĦ åĨĽ
åľ¨ ä¸ĸ
åľ¨ åħ¶ä¸Ń
ä¸Ĭ åįĬå¹´
ä¸İ éĩĳ
æ³ķ ä¼¦
åĮĹ å¸Ĥ
æµ· éĩĮ
ä¸ī ä¸ĩ
è° Ĵ
å®ļ åĪ¶
åħ± é¸£
çĲĥ çļĦ
ä¸Ģä¸ª æĸ°çļĦ
çº¿ ä¸ĬçļĦ
æł¼ å°¼
èĳ «
00 Ġ
æ¸¯ å¸ģ
äº¤ æİ¥
ç»ĵ æĪĲ
éĽĨ æķ°
èĮ ī
å®ĺ éĤ¸
äºĶ åı·
é¦Ļ æ§Ł
å¥¹ ä»¥
åį³ åľ¨
æ¯ı å½ĵ
é¾Ļ åį·é£İ
éĻĨ çĶŁ
Ġ19 19å¹´
å¯Ĩ å°Ķ
ç¬¬äºĮ éĥ¨
è¶ħ æĸ°æĺŁ
æ´Ľ é©¬
èİ± å§Ĩ
ä¸ĥ åı·
(, ,),
è¯į æºĲ
åĵ¥ åĲīæĭī
åºĵ åŃĺ
éĵģè·¯ åĴĮ
æĬĹ çĶŁç´ł
50 åħ¬å°º
ro undĠ
çŁŃ çŁŃ
å·® ä¸įå¤ļ
é¦ĸæ¬¡ ä»£è¡¨
å¾® åŀĭ
40 äºº
çİī ç¥¥
åĪĬ è½½
å»ºè®¾ çļĦ
æľĿé²ľ çİĭæľĿ
ãĢĪ ãĢī
éĶ¡ éĩĳ
éĿĴå¹´ éĺŁ
èİİ å£«æ¯Ķäºļ
åľ°ä¸ĭ æ°´
ç¢ĳ æĸĩ
ç£ģ éĵģ
ç¡®å®ļ äºĨ
ä¸² èģĶ
åĲįä¹ī ä¸Ĭ
ĠåĴĮ Ġ
Ġn ame
row n
æ®¿è¯ķ çĻ»è¿Ľå£«
å®¾å¤ķæ³ķ å°¼äºļ
é©¬éŀį å±±
3 èĩ³
7 åı·çº¿
J ack
P R
p ar
Ġ åĲĮ
Ġ è§Ĵèī²
çļĦ éķ¿åŃĲ
ä¸º åĩĨ
ä¸Ģ ç±»
äºİ ä¸ŃåĽ½
åĴĮ çİĭ
æĹ¶ åħī
ä¼ļ åľº
åŃ¦ åĪ¶
è¡Į éķ¿
ä¹ĭ åĳ½
åĨĽ éĥ¨
å¸Ĥ éĥĬ
æĿ¥ åĽŀ
çī¹ éģ£
éķ¿ å¹´
å¼Ģ å¿ĥ
ä¸ľ éĿŀ
å¸ĥ èµĸ
æĢ§ æ¬²
ä½Ĩ å½ĵæĹ¶
åĮĸ åİ¿
éĢī ä¾¯
åŁİ ä¸»
æĺİ å¾·
çº¦ ä¼ļ
é¦ĸ é£ŀ
äº§ åįµ
å¸¸ å·ŀ
èİ· æİĪ
äº¤ ä»£
ç»´ äº¬
çķĮ åĪ«
æīĭ ç»Ń
12 1
å½¢ åĪ¶
å¥¥ åħĭåħ°
er o
æĻ® çĵ¦
éĢł åĥı
éĢł è®¿
åı¤ å¢ĵ
ç¿ ĺ
ç¬¬ä¸Ģ ç§į
å¼º åĬĽ
æ¬§ æĭī
å®Ĺ ç¥ł
è¾ĥ å·®
çĶµå½± å¯¼æ¼Ķ
åįĩ ç©º
ç¾¤ ä½ĵçļĦ
èĢĥ çī¹
ä»ħ æĺ¯
è¿ª å¥¥
èĥľ åľ°
æ°ı ä¸º
ç²¾ ç»Ĩ
åıĳè¡Į åĲİ
èĥĮ åĲİçļĦ
ä¹ĺ éĻį
åĩı ä½İ
è¿Ļç§į æĸ¹æ³ķ
åĩ¯ åĪ©
çĬ¯ ä¸ĭ
èµĽäºĭ æĪĲç»©
åºŁ é»ľ
éĢĥ åĩº
çĶ³ ç§ĳ
35 äºº
å¦ĩ äºº
èµı èµĲ
ç¯® çĲĥéĺŁ
çĥŁ åı°
çķª ç¦º
ov eĠ
ak er
åıªèĥ½ åľ¨
äºİ194 8å¹´
èĢķ ä½ľ
åĲŀ åĲĲ
åľ°äºļ åĵ¥
çºł æŃ£
èµĮ åľº
å¤§æŃ£ ä¹Ŀå¹´
ç¤¼æĭľ åłĤ
åĲīç¥¥ çī©
åħ¨æĹ¥ åĪ¶
åº·å¥Īå°Ķ å¤§åŃ¦
å¹¶åıĳ çĹĩ
ç¾İåĪ© åĿļ
2 æľĪ16æĹ¥
6 æ¬¡
E A
H F
m Ġ
â ĸ
Ġ èĬ±
Ġ km
çļĦ æĹ¶æľŁ
çļĦ å¥³åŃĲ
çļĦ èĭ±æĸĩ
çļĦ çĪ¶æ¯į
çļĦ çĲĨçĶ±
åı ¡
ä¸Ń å²Ľ
äºº ä»¥
æĺ¯ ä¸ŃåĽ½å¤§éĻĨ
æľī å®³
20 å¹³æĸ¹åįĥç±³
ä¸Ĭ ä¸ĩ
åħ¶ ç§įåĬłè¯į
èĥ ¥
ä¹ĭ æŃ»
èĢĮ ä¸ĭ
çī¹ é¦ĸ
ä»» æĢ»ç»Ł
å¼Ģ åı£
æĸ° åįĹ
æľĢ åĸľæ¬¢
æĸĩ åı²
ä»£ çī§åĮº
å½ĵ ä¸»
éģĵ åıĬ
æĪĺ çģ«
äºĮ åº¦
çľģ çķ¥
é©¬ åŃ£
èģĶ æį·
çĤ Ģ
ä¸¤ å¹¿
éĢī åħ¥
åŁİ å¤ĸ
æł¼ æ´Ľ
åĢ ¦
å¨ ´
æĽ¾ åħĪåĲİ
å®ŀ åĨµ
éĶ °
å°± ç®Ĺ
æ· Ħ
åįķ ä½ĵ
å·² äºİ
å·² å®ĮæĪĲ
æĮģ æľīçļĦ
çĭ ł
æĬ¥ ä»ĩ
çļĦä¸Ģ å¹´
åĸ ĥ
äººæ°ĳ åĨĽ
çłĶç©¶ æĺ¾ç¤º
ä¸»è¦ģ æĿ¥èĩª
çĶ· åįķ
çĶ±äºİ å½ĵæĹ¶
çª ľ
è¯ķ çĤ¹
èħ »
èĪ° ä½ĵ
æīĺ åĪ©
éħį å±ŀ
al i
æİ§ æĸ¹
æµĭ éªĮ
æĥ³ èµ·
ç²¾ èĩ´
åı³ æĶ¯æµģ
ç¤¼ éĥ¨å°ļä¹¦
äºĨä¸Ģ éĥ¨
äº¤éĢļ å±Ģ
èµĽäºĭ çļĦ
å°¤ éĩĮ
åĮ¹ åħ¹åł¡
åħ±åĲĮ ä½ĵ
Ġæľ¬ ç§ĳ
å¢ĵ åĽŃ
è¯¯ å¯¼
æĮģç»Ń äºĨ
ä»»åĬ¡ çļĦ
ä¸»æĮģ çļĦ
éĺ´ éģĵ
åįļå£« åĲİ
æĹģ çĻ½
å°ĸ éĶĲ
Ġ193 4å¹´
æ£®æŀĹ åħ¬åĽŃ
æľīäºº è®¤ä¸º
äºİ196 1å¹´
äºİ196 5å¹´
ä¿ĥè¿Ľ äºĨ
éļĶç¦» ç®¡æİ§ä¸Ńåıĳçİ°
èĴ¸ åıĳ
ç¦ħ å¸Ī
æ¢µ èĴĤ
Ph il
äºĭåıĺ åĲİ
ĠAl l
èł ¢
olog y
é¢ĦéĢī èµĽ
è¯¥çľģä»½ä¸ºæ³ķåĽ½è¥¿åįĹéĥ¨ åĨħéĻĨçľģä»½
æ³ķåħ°è¥¿å²Ľ å¤§åĮº
, .
7 èĩ³
L A
N ational
O l
d el
Ï Ģ
Ġ ä¸Ĭæµ·
çļĦ å»ºè®¾
çļĦ æĶ¶åħ¥
çļĦ æĸĩä»¶
ä¸º å¥¹
ä¸Ń ä¿¡
åĴĮ äºĮ
æĭ Ļ
åĲİ å¼Ģå§ĭ
åĲİ ç¼Ģ
ä¸į æĦ¿æĦı
ä¹ĭ è¯´
èĢĮ æĹł
çĶ± ä¸Ģä¸ª
åĬł æ²Ļ
ç¾İ æĸ¹
éĿ¢ éĺĶ
æīĢ éĥ¨
âĢľ âĢĿ(
å°Ĩ è¦ģ
å°Ĩ ä»ĸçļĦ
é©¬ åĪ©äºļ
å±± ä¸Ń
åĽĽ åº§
å¥³ æĿĥ
å¨ ±
æĽ¾ è¡¨ç¤º
ä¹¦ ä¿¡
çĽ´ ç«ĭ
éŁ³ çļĦ
åĲĦ ç«Ļ
in aĠ
ä¸ĵ èĳĹ
æĶ¾ å®½
ä¸ĸçķĮ æĹ¶
æľį åĪĳ
äº¦ ä»¥
15 åĪĨ
å·¥ä½ľ å§Ķåĳĺä¼ļ
ä¿Ħ åįł
åī¯ å°Ĩ
æĶ» åŁİ
æĶ» åĿļ
ä¹Ŀ æ±Ł
éĺ² èĮĥ
åįĬ èĩªåĬ¨
å£° æ¯į
åıĮ è¯Ń
çº¢ æĺŁ
ä½ı æĮģ
å°Ħ æĿĢ
14 å²ģ
æĻ¯ è±¡
ç²¾ å¿ĥ
éģĹ çķĻ
è¶³çĲĥ åľº
4æľĪ èĩ³
å»ºç«ĭ èµ·
è¡¥ ä¹ł
å¹ķ åĥļ
å¹³åĿĩ æ¯ı
åıįå¯¹ èĢħ
èĢ³ æľµ
å®ĺæĸ¹ å®£å¸ĥ
ä»ĺ æ¬¾
ä»»åĬ¡ æĺ¯
æ¶ħ å¤«
åľ°ä¸ĭ äºĮå±Ĥ
ä¸ĭåįĪ 2æĹ¶
å¤§è¥¿æ´ĭ åį¢çĵ¦å°Ķçľģ
äºİ196 8å¹´
ç§¯æŀģ åıĤä¸İ
çĸ¾çĹħ çļĦ
å¼ĢéĢļ è¿ĲèĲ¥
äºİ193 7å¹´
ç¯®çĲĥ èģĶèµĽ
èİ±èĮµ æ²³
é¼İ çĽĽ
å·´å°Ķ å¹²
æīģ å¹³
åĩºåĶ® ç»Ļ
åħ¶ä¸Ńä¸Ģä¸ª ç§į
èŀįåĲĪ äºĨ
çĳľ ä¼½
çľŁäºº ç§Ģ
æ°ĳçĶ¨ èĪªç©º
ç»ĵè¯Ĩ äºĨ
è´¹å°ĶåįĹ å¤ļ
å¡ŀçĲī åı¤
è¤Ĵè´¬ ä¸įä¸Ģ
A çº§
T im
U p
ð ª
Ġ 40
çļĦ æŀĹ
çļĦ å½¢æĪĲ
çļĦ å½±çīĩ
çļĦ å®£ä¼ł
çļĦ èģĶç³»
ä¸Ģ æĬĬ
åŃ Ģ
åĴĮ B
åĴĮ å¤ĸ
åĲİ èĢħçļĦ
ä¼ļ æĬĬ
çĲ Ĳ
ä¸Ĭ è¡Ĺ
ä¸į æī¿è®¤
è· »
è· ĸ
è¿Ļ çĤ¹
å¤ļ éĹ´
æĸ° æŃĮ
åĬł æ·±
æĸĩ æŃ¦
æľº ä½ĵ
æķĻ è®Ń
èĲ ¼
åĪ¶ å¼ı
æĦ §
åıĤ æĭľ
è®¤ ç½ª
æį® æŃ¤
æį® æĬ¥å¯¼
çĽ´ èĲ½
å®ĺ è¯Ŀ
an ceĠ
éĵģ äºº
èĭı è½¼
çļĦä¸Ģ çº§
é¾Ļ åįİ
èİ·å¾Ĺ ç¬¬
åħĪ ç¥ĸ
æ´¾ åı°
å¼º åĬ²
åĵĪ æĸ¯
åľ£ ä¹Ķæ²»
è¾ĥ éķ¿
çļĦä¸Ģä¸ª éĵģè·¯è½¦ç«Ļ
æķħ åĲį
é»Ħ æ³¥
ä¹¡ çļĦ
ä¸ĥ åįģ
æİ§ åĳĬ
å© º
ä¹ĭéĹ´ æľī
ç®¡çĲĨ åŃ¦éĻ¢
å¹² æµģ
ä½Ľ å¯º
å®« ä¸Ń
æ¢ħ éĩĮ
å¼Ĺ ç½Ĺ
çĽ®åīį ä¸ºæŃ¢
å¼Ģåıĳ åĽ¢éĺŁ
å¾® ç¬ĳ
æ·· æĪĲ
éļĶ æĹ¥
æŀļ éĵľçīĮ
åıĳå°Ħ åĻ¨
åĩ¤ ç¿Ķ
è¢Ńåĩ» äºĨ
op er
æĽ¹ éŃı
å»ºæĪĲ åĲİ
éĶĢåĶ® éĩı
æĺ¯ä¸ĢåĲį ç¾İåĽ½
è£ħçĶ² å¸Ī
æĤ¬ å´ĸ
æĺİæ²» ç»´æĸ°
çĸ«æĥħ éĺ²æİ§
æŃ¥åħµ åĽ¢
æģĲæĢĸ ä¸»ä¹ī
æ¶Į åħ¥
)ãĢģãĢĬ ãĢĭ(
ä¸ľæµ· éģĵ
ç¼´ èİ·
èįĨ å·ŀ
èĹ» ç±»
è½¬ä¼ļ èĩ³
ç»ĥä¹ł çĶŁ
å¤§æ°Ķ å±Ĥ
ç¡®ç«ĭ äºĨ
æĪ·éĥ¨ ä¸»äºĭ
åĵĪå°Ķç§ĳå¤« å·ŀ
åį¢çĵ¦å°Ķ æ²³åľ°åĮº
çĶ°çº³è¥¿ å·ŀ
èĢ¶é²ģ å¤§åŃ¦
ä¹ĥæľ¨ åĿĤ46
åºł çĶŁ
éĩĮçº¦çĥŃåĨħ åį¢
- (
D M
R C
Ġ æ³ķ
Ġ åıį
Ġ è°¢
Ġ çĽ´åĪ°
Ġ èĩ³äºİ
Ġ çĶµè§ĨåĬ¨çĶ»
çļĦ ç»ıéªĮ
çļĦ åħ´è¶£
åľ¨ åįİ
å¤§ æ²³
20 åĲį
æĹ¶ è®¾ç½®çļĦ
ä¸į å®ļ
ä¸į åģľ
åĮº æīĢå±ŀ
ä¹ĭ æīĭ
åĨĽ åĮ»
æľ¬ å²Ľ
å¯¹ å²¸
åįĹ åį¡ç½Ĺ
äºļ ç»Ĩ
æīĢ ç»ĦæĪĲçļĦ
å»º æ¨¡
åĨħ å¸ĥæĭīæĸ¯
ä¸ī åľº
è¯¥ åłĤ
æķĻ èģĮ
äºĮ åŃĹ
å±± éĹ¨
å¤© é¾Ļ
æ¯Ķ æķ°
è¾¾ èį·
æ°´ å¡ĺ
çİĭ åĨł
éĴ ¼
æĶ¯ å®īæīĵ
åĲĦ æł·çļĦ
åı¤ ä»Ĭ
åıĪ è¢«ç§°ä¸º
æīĵ åĲ¡
æŀľ æķ¢
åĨį è§ģ
çº¢ æµ·
é±¼ ç§ĳ
äºİ19 18å¹´
æ¯ĶèµĽ å¼Ģå§ĭåĲİ
çīĮ åĿĬ
æľ¨ è´¨
æŀ¶ æĹłäººæľº
éģĹ å¿ĺ
ä¼ĺ éĽħ
éĩİ æīĭ
é³ Ĳ
é¡º å¾·
èīºæľ¯ ä¸İ
ä»ĭ è´¨
24 ä¸ª
21 ä¸ª
è´§ æŁľ
è®¨ åİĮ
åĨ° åİŁ
èĩªçĦ¶ ä¿ĿæĬ¤åĮº
æĬ¥åĳĬ ç§°
çĬ¹ è±«
åĲķ å®ĭ
ç¾İæ´² åİŁä½ıæ°ĳ
é¥® çĶ¨
æ³³ ä¸ī
çĨĬ æľ¬
å¢¨è¥¿åĵ¥ æ¹¾
çº· äºī
æĪĴ å¤ĩ
186 5å¹´
äººå·¥ æĻºèĥ½
é£ĵé£İ åŃ£
ç«Ļåı° å±Ĥ
åĵ¥ä¼¦ å¸ĥ
çľŁå®ŀ çļĦ
ç¾½æ¯ĽçĲĥ è¿ĲåĬ¨åĳĺ
ç¾½æ¯ĽçĲĥ åĽ½éĻħèµĽ
æ²³çļĦ åı³æĶ¯æµģ
åĬ² çĪĨ
ç¨Ģ æľī
æµİåįĹ å¸Ĥ
åĢĻè¡¥ å§Ķåĳĺ
æİĢ èµ·
æ³¢ç¾İæĭī å°¼äºļ
æ¢µèĴĤ åĨĪ
2 æŀļ
F T
N E
S on
i P
Ġ y
Ġ ch
Ġ æĢ»éĿ¢ç§¯
Ġ asĠ
å¹´ èĢģ
åľ¨ äºļæ´²
åľ¨ å¤©æ´¥
ä¸º ä¹ĭ
ä¸º ä¸Ńå¿ĥçļĦ
åĽ½ åĲĽ
åĴĮ éĩĳ
è¾ Ļ
ä¸Ĭ çĽĸ
ä¸į ä¸¹
è¢« ç¾İåĽ½
æ°ĳ è°£
åĬł è¾¾
ç¾İ å¥³
é«ĺ éĺ¶
èĩ³ 2011å¹´
å»º æĿĲ
çŃī æµ·åŁŁ
å°Ĩ å¥¹
é©¬ ä¸¹
å±± éļ§éģĵ
åħ¨ é£Ł
ä¸¤ èĢħçļĦ
åħ³ ä¸Ń
ç»ĵ æł¸
ä¿Ŀ ç®¡
éŁ³ ç¬¦
èº º
èº« å¤Ħ
å¤§åŃ¦ æł¡
åī§ ä¸Ńé¥°æ¼Ķ
å±Ģ ä¸ĭ
åŃĹ èĬĤ
è¿Ľè¡Į è¿ĩ
åı¯ä»¥ éĢıè¿ĩ
å¾Ģ åįĹ
æīĵ åİĭ
åį« æĬ¥
å»ºçŃĳ è®¾è®¡
æĽ¼ å°¼
it a
ç²¾ éĶĲ
åł¡ çļĦ
æ¢ħ ç«¹
åħ¨åĽ½ åĲĦåľ°
æ°¸ å®ļ
æĢ»ç»Ł çļĦ
çļĦäºº çĶŁ
èĭ¥ æĺ¯
40 ç±³
é¢Ĩå¯¼ èĢħ
åĩ¯ æģ©
èĥ¡ å¿Ĺæĺİ
èĮ¨ åĿ¦
ãĤ ·
è£Ĥ åıĺ
åĪĨåŃĲ çļĦ
æ¢¯ éĺŁ
åį¢çĵ¦ éĽ·
ç´« å¤ĸ
æıĲåįĩ ä¸º
186 2å¹´
An n
çĶµåĬĽ åħ¬åı¸
åįİçĽĽé¡¿ çī¹åĮº
åİŁåŃĲ å¼¹
ä¹ĭæĪĺ ä¸Ń
ç° ĩ
æĵħ èĩª
çĢ ļ
åĿĲèĲ½ åľ¨
è½¿ è½¦
æĺ¾å¾® éķľ
èĳ« èĬ¦
2 æľĪ23æĹ¥
E r
M TV
W S
o j
Ġ æľªæĿ¥
Ġ äºĭæķħ
çļĦ é£Łçī©
çļĦ æĪĺç»©
ä¸º ä¸ľ
ä¸Ń æŀ¢
åĴĮ ä¸¤ä¸ª
èĩ ¼
åľ° å§Ķ
ä¸Ĭ å±Ĭ
åĩº ç¤º
ä¸į ä¸ĭ
åħ¬ åŃ¦æł¡
çĶ± å¾·åĽ½
æĸ° è¡Ĺ
æĸĩ æķĻ
æĻ ¦
èĩ³ 20
çŃī å¤ļç§į
æĭī è¶Ĭ
æľº çĶµ
èĥ½ è®©
å¤ĸ åľ°
åı£ è¢ĭ
éĢļ åĪ¤
ä½Ĩ å¦Ĥæŀľ
éĵ ¬
é¦ĸ è¦ģ
å¥³ æİĴ
åĮħ å¤´
çīĪ åĽ¾
å¨ģ åħĭ
è¿ĲåĬ¨ å®¶
é¥ µ
çª ¥
ä¹Į åħ°
çģ« èį¯
çģ« çĥ§
ç¾¤ ç»Ħ
30 ä¸ª
é£Ł åłĤ
æĿĢ æĪ®
è¿ª çº³
st er
ç»ıæµİ éĥ¨
æľįåĬ¡ äºİ
çĨ ı
re at
åĽ½æ°ĳ å°ıåŃ¦
äº¤éĢļ å·¥åħ·
æŃ¤å¤ĸ è¿ĺæľī
åĲĽ åŃĲ
å·¥ä¸ļ åĮĸ
çİ¯å¢ĥ çļĦ
è¿Ļæĺ¯ ä»ĸ
æ½ľ èĪ°
æ±ł çĶ°
äººå£« çļĦ
èīĺ èĪ¹
é£ŀæľº çļĦ
å¤§éĥ¨åĪĨ åľ°åĮº
å¤§çº¦ æĺ¯
å¥¥æŀĹåĮ¹åħĭ å§Ķåĳĺä¼ļ
ep t
åį³ä½¿ æĺ¯
èĤĸ æĪĺ
è®¤è¯Ĩ åĪ°
ĠæĪªèĩ³ 2024å¹´
(,; ),
æııç»ĺ äºĨ
ä»¥ä¾¿ äºİ
ä½İäºİ æ³ķåĽ½å¹³åĿĩæ°´å¹³
èĭıç»´åŁĥ ç¤¾ä¼ļä¸»ä¹īåħ±åĴĮåĽ½
ä¸ĵçĶ¨ çº¿
OM E
èįĶ æŀĿ
åį¡å°Ķçĵ¦å¤ļæĸ¯ çľģ
èŃ¬ å¦Ĥ
èµ«æ¢ħåĪ© å°¼èĮ¨åŁº
2 äº¿
3 ä¸ªæľĪ
E le
L GBT
N a
P I
Ġ ä½įç½®
Ġ è·¯çº¿
çļĦ æĬ¥éģĵ
çļĦ å£«åħµ
ä¸º åĽ½å®¶
èĩ »
ä¸Ĭ ä¹Ł
ä¸İ åħ¶å®ĥ
ä¸į æ²»
ä¹ĭ ç±»çļĦ
ç¾ ²
èĢĮ å¾Ĺ
èĢĮ åİ»
èĩª å°ı
åįĹ è¥¿
æĸ° æľĪ
åĬł åĽº
é«ĺ æīĭ
äºļ éĩĮå£«
èĩ³ 2016å¹´
ä¸ī è·¯
ä¸ī å±Ĭ
éģĵ çĲĨ
éģĵ çĽĳå¯Łå¾¡åı²
é©¬ ä¸»
ä½¿ äºº
å®ī å®ģ
æ¯Ķ çİĩ
æĺİ æĹ¥
åı· ç§įåŃĲ
æ°´ è§£
æ°´ éĽ·
éĺ¿ éģĵå¤«
å·´ çº¦è®·
æŀĹ ä¸ĭ
å®ŀ ä¾ĭ
æīĭ çĲĥ
ä¿Ŀ éĢģ
åºĶ ä¸º
éª ł
æ±Ł åĮĹ
èĭı éĹ¨
æĶ¶ æķĽ
åĪĿ ä»£
åĸ ĺ
ç¬¬äºĮ åľº
éĹ® ä¸ĸ
éĽ· å°Ħ
åĩĨ åĻ¶å°Ķ
åĲĮæĹ¶ äº¦
æİĴ åĩº
åī¯ åı¸ä»¤
èĲ½ å·®
æ·± å¤Ħ
çķĻ æĦı
è¿ľ ç«¯
åĪĺ æĺĵ
å»¶ åĲİ
ä¼ĺ è¶Ĭ
å¼Ĥ åĲį
æ²¹ çĶ°
ç³»åĪĹ çĶµå½±
èĩªçĶ± è´¸æĺĵ
èĩªçĶ± æ°ĳä¸»åħļ
ou tĠ
è¿½ å°ģ
èĤ¡ ä»·
è¶ħè¿ĩ 10
åľĨ çİ¯
åĲ¸ åħ¥
è°Ī åĪ°
åľ¨æŃ¤ æĹ¶
ed er
ç²ī æľ«
çŃīåľ° çļĦ
åĨ¯ çİīç¥¥
64 å²ģ
æĻ¶ çīĩ
åį¢çĵ¦ çľģ
å±ı éļľ
éľ¸ æĿĥ
æ»ļ çŁ³
æ³¢æĸ¯ è¯Ń
æī§æĶ¿ å®ĺ
ä¼½ ç½Ĺ
éħ· åĪĳ
ç»´åħĭ å¤ļ
ç»´åħĭ æīĺ
åįłæį® äºĨ
[...]
