#version: 0.2
ä ¸
ä º
ç ļ
çļ Ħ
å ħ
å ı
æ ľ
ã Ģ
å ¹
ä »
å ¤
å ľ
å Ĳ
å Ī
å Ľ
å ®
å¹ ´
ä ½
æ Ĺ
ç Ķ
å į
æ ĸ
è ¿
å °
æ ĺ
ä ¹
ç »
ãĢ ģ
åľ ¨
ä¸ º
å Ĭ
æ Ī
ä ¼
ä¸ Ģ
å Ń
å Į
å ¸
è ¯
è ®
ä¸ Ń
å Ĩ
åĽ ½
äº º
æĺ ¯
å º
æ Ŀ
å ¼
å ·
äº İ
å ¾
é ĩ
ç ī
ç §
è ¡
ç º
å¤ §
æ ī
é Ģ
æľ ī
å ±
æ Ķ
å ĩ
å Ĵ
åĴ Į
2 0
æ Ń
é ĥ
è µ
è Ģ
æ ķ
å ½
å İ
æľ Ī
å ¯
æ °
é Ļ
æ ĭ
æĹ ¥
ç Ľ
è ĩ
æ ³
å ¥
æ ł
ç İ
1 9
é ĺ
ä» ¥
åĲ İ
æĹ ¶
â Ģ
å ĳ
äº Ĩ
åľ °
æ ²
ç «
æ µ
ä¼ ļ
åŃ ¦
è §
æ Ģ
è ¾
è ´
æĪ Ĳ
é Ĺ
è ½
é Ŀ
å Ł
ä¸ ª
ç Ĳ
ä¸ Ĭ
éĥ ¨
å ī
æĸ ¯
é ķ
ä¸ İ
è¡ Į
ä» ĸ
åĩ º
ä¸ į
æ ¯
åĮ º
æ ´
æ ŀ
æ Ĭ
æ İ
åħ ¬
ç ¬
åħ ¶
åı ĳ
æ ¸
ç ½
ä½ ľ
çĶ Ł
æ Ľ
å° Ķ
åĲ į
ä ¿
ä¸ »
åĪ Ĩ
è ¢
ç Ń
è ĥ
ä¹ ĭ
é ģ
æĸ ¹
ç¬ ¬
çĶ ¨
å® ¶
å §
ãĢ ĭ
ãĢ Ĭ
è ¥
å¹ ¶
ç ¾
è¥ ¿
æ³ ķ
åĪ °
å ¿
èĢ Į
Â ·
æ ¬
é ¢
åĨ Ľ
å »
åı Ĭ
è¢ «
ä ¾
æĶ ¿
ä½ į
ç ±
çĶ ±
æ Į
æľ ¬
ç ľ
æ ±
æ° ĳ
è ·
é Ľ
é ¦
ä¸ ĭ
å¸ Ĥ
å ĵ
å¯ ¹
åĲ Į
è ģ
è ĭ
åħ ĭ
åĬ ¨
æĿ ¥
çī ¹
éķ ¿
è¿ Ļ
å¤ ļ
ä» »
èĩ ª
å¼ Ģ
éĩ Į
åĳ ĺ
åį Ĺ
é ©
åŃ Ĳ
åı ¯
æĸ °
å¹ ³
è ī
å Ŀ
è İ
åĬ ł
å¾ ·
åĮ Ĺ
ãĢ Į
ãĢ į
æľ Ģ
æĸ ĩ
å £
åĪ ©
æ Ļ
ç¾ İ
é «
åī į
ä¸ ľ
ä» £
é« ĺ
äº ļ
éĿ ¢
æµ ·
æī Ģ
¦ ģ
å¾ Ĺ
èĩ ³
ç ¤
å» º
è Ī
éĹ ´
æŃ ¤
åĨ ħ
åĽ ł
äº ĭ
âĢ ľ
ä¸ ī
âĢ Ŀ
çİ °
è¿ Ľ
çĶ µ
) ,
ä¹ Ł
çī ©
è¿ ĩ
èµ Ľ
20 1
çŃ ī
åı °
åº ¦
è½ ¦
åħ ¥
è¯ ¥
ç» ı
å½ ĵ
éģ ĵ
ç ¥
è ¦ģ
ç« ĭ
æĪ ĺ
å° Ĩ
çĲ Ĩ
ç ©
è¡ ¨
ä½ ĵ
ç Ł
ç ķ
æĭ ī
é ¡
å ¦
è °
å ²
æľ º
æķ Ļ
æľ Ł
ä¸ ĸ
è Ĳ
é ļ
æ ı
å· ¥
åĪ ¶
ç ®
èĥ ½
äº Į
å¤ ĸ
åĲ Ī
æ į
è· ¯
å® ļ
åı £
çľ ģ
å¸ ĥ
æ¬ ¡
æ Ħ
é© ¬
è® ¾
åħ ±
æĢ §
å¹´ ,
éĺ Ł
åľ º
éĢ ļ
ä¸ ļ
å± ±
å° ı
20 0
çĲ ĥ
ä½ Ĩ
è Ĭ
ä½ ¿
é ĵ
è ¶
, å¹¶
åį ģ
ä¸Ģ ä¸ª
èĢ ħ
å· ŀ
åĮ ĸ
åħ ¨
æ ĥ
ç ³
æķ °
ç§ į
é £
ç§ °
å¤ ©
è Ĥ
ç½ Ĺ
ç§ ĳ
ç ł
æ Ł
çº ¿
ç Ļ
å¼ ı
ç± ³
ç« Ļ
éĩ į
å® ī
é Ł
èģ Ķ
æ ģ
ç Ĥ
ä¸ ¤
é Ĥ
ç³ »
æ¯ Ķ
æ ¼
ç ¼
1 0
ç Ī
æ ¡
ç ¦
ç ¨
å ¢
æĢ »
éĢ ī
è¿ Ĳ
åĬ Ľ
æĹ¥ ,
åİ ¿
åħ °
å£ «
çĽ ¸
éĻ ¢
æ ¹
åŁ º
åħ ³
ä¸Ń åĽ½
éĥ ½
æ² »
åİ Ł
è¾ ¾
åŁ İ
ç» Ł
å ģ
æł ¼
èµ ·
ç» Ħ
æŃ £
æĺ İ
é »
çº ¦
åı ·
èĭ ±
æ° ´
å½ ±
å° ¼
æĪ ĸ
åĲİ ,
å± ŀ
, ä½Ĩ
åº ľ
å ¡
æİ ¥
åı ¸
è® ¡
éĩ ĳ
çĽ ®
é¦ ĸ
çİ ĭ
è® ®
æı Ĳ
åį İ
ç Ħ
ä» ¬
éĺ ¿
åĽ Ľ
ä» İ
åĪ Ĺ
åħ ĥ
ç ģ
æ¼ Ķ
å· ´
ç¾İ åĽ½
è ĳ
0 0
å¦ Ĥ
äº §
è¯ Ń
å Ģ
é ħ
åı Ĥ
åı ²
éĩ ı
å ŀ
æĶ ¹
å¸ ¸
å¥ ³
æ ®
æ ¶
éķ ĩ
åĲ ĳ
è £
è į
åĬ ¡
æŀ Ĺ
1 8
åĮ ħ
æ¸ ¯
å ¨
) .
æĽ ¾
æĹ ł
èİ ·
äºº åı£
çĦ ¶
äº ¤
å Ķ
å® ŀ
å¿ ĥ
é Ķ
åı Ĺ
é ľ
1 2
ä½į äºİ
ç» ´
æĦ ı
åİ Ĩ
ç» ĵ
èī ²
çķ Į
çº §
ä¹ Ĳ
æī ĭ
å§ ĭ
ä¿ Ŀ
å§ Ķ
åĪ Ļ
ä¹ ī
æ Ĵ
å¤ Ħ
åħ ļ
è§ Ĩ
ä¹ ¦
ç ´
åĽ ¢
0 å¹´
ç® ¡
. 19
å½ ¢
ç¨ ĭ
, èĢĮ
æ £
å¯ ¼
å ĭ
1 å¹´
è® ¤
æį ®
ç± »
æ² ³
å° ±
åį ¡
éĹ ¨
æ ·
æĮ ĩ
æľĪ 2
, åľ¨
çĽ ´
20 2
5 å¹´
åį ķ
é Ĵ
ç ĥ
è¯ ´
éŁ ³
äº Ľ
å¹ ¿
åŀ ĭ
å· ²
åº Ķ
4 å¹´
æĺ Ł
éĽ Ĩ
ç¤ º
å¥ ¥
æµ ģ
é¢ Ĩ
ç¤ ¾
æľĪ ,
å ł
ä¼ ł
æ º
æĮ ģ
é ²
åĵ ģ
çĤ ¹
) æĺ¯
è º
æł ¡
æĽ ´
2 å¹´
å± ķ
å¤ «
3 å¹´
e r
ç ĭ
åĽ ŀ
è Į
, åħ¶
ä¸ ¾
æĻ ®
1 1
æ¸ ¸
ä¸ ĩ
ç§ ¯
8 å¹´
èº «
6 å¹´
æ ¢
ç© º
åı į
é ª
èµ Ħ
æĶ¿ åºľ
æĥ ħ
å® ĺ
ç ¡
çº ª
äº Ķ
æ´ »
è¿ ĺ
é ¾
åĩ »
a n
æĶ ¯
é¦ Ļ
æł ĩ
æĬ ¥
æ »
o r
å¸ Ī
åĲ Ħ
æ¹ ¾
éĵ ģ
åĪ «
7 å¹´
è Ĵ
éĢ ł
å¤§ åŃ¦
çº ³
è Ļ
åı ĸ
ä½¿ çĶ¨
ç Ĭ
, ä»¥
åı ¤
å² Ľ
ç ĸ
æĪĲ ä¸º
å¤ ª
æĹ¥ æľ¬
i n
åī §
å± Ģ
åħ¬ åı¸
åı ĺ
æĭ ¬
ç ı
æľ ¯
åŃ Ĺ
å ķ
. åľ¨
å¥ ¹
ç Ŀ
æĹ ı
ä¸ ĵ
åĳ ½
åĮħ æĭ¬
åľ° åĮº
éĿ ŀ
å¸ ¦
èĳ Ĺ
åĽ½ å®¶
å¼ ł
è® º
è¿ ĳ
åį ³
å¼Ģ å§ĭ
çł Ķ
æľ Ŀ
æ± Ł
ä¸Ń ,
åĨ ³
ä¿ ¡
è§ £
æ´ ²
æĽ ²
èĬ Ĥ
ç Ĺ
ç¥ ŀ
é£ İ
o n
çī ĩ
å° ĳ
èģ Į
ä» ¶
ç ²
è¿Ľ è¡Į
æĹ¶ ,
ä¼ Ĭ
åĽ ¾
è Ħ
æľ ª
ç ĵ
è® °
åı ª
ç ¿
å¹³ æĸ¹
å® ĥ
æľĪ 1
æł ¹
æĿ ĥ
æ² ¡
çŁ ³
éĻ ħ
ç¬¬ ä¸Ģ
èĭ ı
æ¯ ı
ç¼ ĸ
è§ Ĵ
è½ ¬
åı¯ ä»¥
æĶ ¾
æ³ ¢
æ ¨
, æĺ¯
äº ¬
ä¾ ĭ
19 9
æĶ ¶
æĿ ¡
çļĦ ä¸Ģ
åĪ Ĵ
è° ĥ
é¾ Ļ
åħ¬ éĩĮ
é¦Ļ æ¸¯
åĳ ¨
åħ ī
åķ Ĩ
åĪ Ľ
æ¸ ħ
è¿ ŀ
åĪ Ŀ
9 å¹´
æ° Ķ
æŃ Į
ç¦ »
æĿ ĳ
å ĸ
æ ĳ
çī Ī
éĻ Ĩ
éĥ¨ åĪĨ
ç© ¶
å Ļ
å¾ Ģ
äºº æ°ĳ
å¤ ´
èİ· å¾Ĺ
è ±
åŃ £
çŁ ¥
ä¸ĸ çķĮ
åı Ī
éĿ¢ ç§¯
åħ Ī
çłĶ ç©¶
åİ »
å¯ Ĩ
äºº ,
æŀ Ħ
åŁ Ł
æ´ ¾
ä» ¤
æī ĵ
ç» Ń
æŀ ľ
åĬ ŀ
å¼ º
éļ ı
æŁ ¥
å¨ ģ
ä¸» è¦ģ
çĻ ½
åĨ į
åħ µ
äº ī
åº §
äºº .
æŃ ¦
ä»ĸ ä»¬
ç¦ ı
å¤ į
è§ Ĥ
èĤ ²
è£ ħ
åİĨ åı²
å® Į
å¹´ (
åħ Ń
l a
åĻ ¨
è®¤ ä¸º
å¼ ķ
é¡ ¹
æ® µ
, åĽł
æ ļ
é¢ ĺ
è¶ ³
åı° æ¹¾
åĵ Ī
æ²¡ æľī
ä¸ Ķ
æĿ İ
ç ĳ
å¡ Ķ
æľ į
éĻ ¤
å± ħ
å® £
æ¬ §
1 5
æĪ ı
ç½ ĳ
æĴ Ń
ç» Ī
è§ Ħ
æĭ ħ
åį ı
èĲ ¥
äº ¦
è® ¸
æİ ¨
è ı
çĵ ¦
åľ £
ä» ½
å§Ķ åĳĺ
å¥ ĸ
åľ Ł
æ¡ Ī
ç½ ®
å½ ķ
ä¿ ®
è´ ¨
è ¨
äº ²
èĲ ¨
è¨ Ģ
çĶ ·
å Ħ
a r
æº Ĳ
ç¬¬ äºĮ
åŃ ĺ
å¸ Ŀ
ä»£ è¡¨
éĹ ®
åĭ Ĵ
ä» Ĭ
è¯ Ħ
åĽ Ń
æ ¥
e n
åħ ·
ç» Ļ
æĬ ¤
ä¾ Ľ
, è¿Ļ
éĽ ·
è¿Ĳ åĬ¨
é¦ Ĩ
æŃ »
æĬ ķ
åħ «
çĪ ±
æĶ¿ æ²»
çĶ± äºİ
æ³ķ åĽ½
éĢ Ł
åħ¶ ä»ĸ
åį ĥ
åĩ Ĩ
å® Ĺ
åį °
å¢ ŀ
è¾ ĥ
è¶ ħ
ä¼ ¯
å¢ ĥ
æ´ Ľ
å¸ Į
æ± Ĥ
åĬ Ł
è§ ģ
çĶµ å½±
çĶ »
çļĦ ä¸Ģä¸ª
æ± ī
1 6
èĩ ´
( ),
åĿ ĩ
åį ĩ
å¤ ĩ
åı ¦
è¯ º
åĬ ©
åį «
å·¥ ä½ľ
åį ļ
ç Į
çİ ĩ
èİ ±
éĺ ³
åĦ ¿
è¾ ¹
ä¼ Ĺ
å¥ ½
è Ĺ
é ¥
å ĥ
å® ¢
å® ¹
èĪ ª
ä¼ ¦
åĳ Ĭ
19 8
æĹ ©
æ¨ ¡
ç ª
ä¹ Į
åĲ ī
è¯ ķ
ä¿ Ħ
ä½ľ ä¸º
ä»¥ åıĬ
æİ Ĵ
åī ¯
èī º
æł ·
æµ İ
å¾ Ī
çģ «
çİ ¯
æķ ħ
å¡ ŀ
æĪ ĳ
æĶ »
åĽ½ éĻħ
é» Ħ
çĶ °
ç¾ ¤
å· ±
èĬ ±
åı¯ èĥ½
æ¯ į
ä¹ Ŀ
çĪ ¶
æĸ ½
åĵ į
çı Ń
. è¿Ļ
è ħ
åĽ ´
ä¸Ń å¿ĥ
è¡¨ ç¤º
1 7
æĬ Ģ
. ä»ĸ
æķ ´
, ä»ĸ
é² ģ
æ² Ļ
ç» §
åĮ »
æĭħ ä»»
3 0
å¤ ±
å¸Ĥ éķĩ
çŃ ĳ
èĲ ½
çĹ ħ
ä¸Ń åįİ
åħ ´
è¯ ģ
ç» ĩ
) ãĢģ
ç³» ç»Ł
æ ¦
è´ £
ä¹ ¡
å¿ Ĺ
å¸ Ń
éĩ ĩ
éĺ ²
èĪ °
å® ¤
è Ń
å± Ĥ
æī ĺ
ä¸Ń çļĦ
éĿ Ĵ
çĽ Ł
ä¸ ĥ
, ä¸º
æĦ Ł
èŃ ¦
éľ Ģ
çĻ »
åĨ ł
æĹ¶ éĹ´
çĭ ¬
èĭ± åĽ½
è´ Ł
åį Ĭ
é º
æ¹ ĸ
æ¸¸ æĪı
éĢļ è¿ĩ
å£ °
çĶµ è§Ĩ
å§ Ĩ
éĤ £
çĻ ¾
éħ į
ç ¢
èĩª å·±
åı Į
è½¦ ç«Ļ
éĻ Ī
æł¹ æį®
a l
åł Ĥ
é» ĳ
åıĳ çİ°
æĺ ĵ
çĥ Ń
çļ ĩ
åĨ Ļ
å½ĵ æĹ¶
è¡Į æĶ¿
( ,
ç¡ ®
( )æĺ¯
çº ¢
çĬ ¶
é£ ŀ
åıĳ å±ķ
æĪĲ ç«ĭ
æģ ©
ä½ ķ
å¤ ı
æľŁ éĹ´
æ· ±
ä» į
èĢ ĥ
æŀ ģ
ä½ ı
åį ł
ç ħ
é ±
åħ± åĴĮ
æ£ ®
è¡ Ĺ
1 4
è¶ Ĭ
éĻ Ĳ
å¤ ®
å° Ħ
é ¸
é± ¼
çĶ ²
åĲĮ æĹ¶
æŃ ¥
a t
è®¾ è®¡
ç¤¾ ä¼ļ
âĢ Ķ
é£ Ł
è® ©
å»º çŃĳ
äºİ 19
åĥ ı
åŁ ĥ
è± ¡
ä¹ĭ ä¸Ģ
æĽ ¼
æĿ Ģ
å¯ Ł
è´ ¹
èĮ ĥ
å± Ĭ
, ä¹Ł
æİ §
æī ¹
ç¥ ¨
ä» ħ
, çĶ±
æ ½
è´ Ŀ
æĻ ¯
ç»Ħ ç»ĩ
æĸ Ļ
æ Ĥ
åŃ¦ éĻ¢
å¥ ĩ
e s
ä¸į åĲĮ
æ´ ĭ
å² ģ
åıĤ åĬł
æµ ĭ
çķ Ļ
èĢ ģ
ä¸Ń å¤®
å§Ķåĳĺ ä¼ļ
è¿ ª
åĨ ľ
æ¥ ¼
æĸĩ åĮĸ
ä½ İ
æŃ ¢
ä¸ĸ çºª
å· Ŀ
å½± åĵį
æ¯Ķ èµĽ
èĥ ľ
éĿ ©
è¯ į
åĵ ¥
ç§° ä¸º
. è¯¥
å¾ ĭ
çī Į
é¡ ¿
æĥ ³
å±ŀ äºİ
æİ Ī
f or
æķ Ī
1 3
å ĺ
æ³ °
è¾ ĸ
ä¾ ¿
, ä½įäºİ
å¹³æĸ¹ åħ¬éĩĮ
æ ¤
æľ ¨
éĻ į
åĩ ł
ç§ »
è¿ °
çľ Ł
i c
æ ħ
åģ ľ
æī į
æ° ı
éĵ ¶
æ¡ ¥
( )
èĴ Ļ
æĪ ¿
å¿ µ
æĺ ¾
éŁ³ ä¹Ĳ
t ;
æī ¿
æĢ ģ
çĿ Ģ
è´ ¥
âĢĿ .
å ©
,åħ¶ ä¸Ń
ç´ ¢
æ ¾
åħ±åĴĮ åĽ½
åº ķ
åº ·
åº ĵ
é¢ Ħ
ä¸» ä¹ī
é Ń
m u
åŃ¦ æł¡
å¤ĸ ,
å¾ ģ
ç´ ł
æ´» åĬ¨
ç±³ ,
çī Ļ
è¾ ĳ
çľ ĭ
å¼ ¹
åĶ ±
åħ ¸
ä½ľ åĵģ
æŃ£ å¼ı
æ¶ Ī
æıĲ ä¾Ľ
åĪ© äºļ
ç® Ģ
è®¡ åĪĴ
åĩº çİ°
ç½Ĺ æĸ¯
è½ ½
ä¹ ł
ä»ĸ çļĦ
æīĢ æľī
æģ ¯
ä» ·
å ³
ä¹ĭ éĹ´
éĻ Ħ
ç»ı æµİ
ç®¡ çĲĨ
åıĳ çĶŁ
æľĢ ç»Ī
éĵģ è·¯
çł ģ
ãĢį .
çĳ ŀ
, è¯¥
æī §
æĹ¶ æľŁ
è¿ ľ
i s
åĿ ¦
æĪ ·
ä¸Ģ ç§į
å¹ ²
åı ĭ
åŁİ å¸Ĥ
åĨ µ
ç® Ĺ
ä¾ §
æķĻ èĤ²
ç¥ ĸ
éĢ Ģ
éŁ ©
å® Ī
æ» ¡
åĲİ æĿ¥
äº ĳ
æ³ ¨
èĪ ¹
mu la
å½ĵ åľ°
è¯ ·
è¯ Ŀ
æ¸ ©
éĤ ¦
for mula
formula _
åĢ Ļ
ä½ Ļ
, ä¸į
ä½ Ľ
æ Ĳ
æĬ Ĭ
ç« ł
ä¸ ģ
ç² ¾
i t
, äºİ
æĬ Ĺ
å® ģ
çĽ ĳ
19 7
åĪ¶ ä½ľ
åł ¡
19 4
20 å¹´
æľ Ľ
. 201
a m
æĹ §
è´Ł è´£
å¾· åĽ½
å· ¦
æĪĲ åĳĺ
ä¸Ĭ çļĦ
æĭ ¿
) çļĦ
éĹ® é¢ĺ
æľ Ĺ
éª Į
h e
åĬ ¿
è¿Ľ åħ¥
æĢ Ŀ
ä¸ ´
. æŃ¤
è®¸ å¤ļ
åĪ ĺ
å ´
çª ģ
é ¹
çł ´
å¿ «
å® «
æĹ ħ
ä¾ Ŀ
åİ ĭ
åº Ħ
ç¬¬ ä¸ī
åĲį ä¸º
èİ «
æľĢ åĲİ
ä¼ ¼
æĪĺ äºī
å¯ Į
ä¸Ģ äºĽ
æ¢ ħ
çĿ £
åĢ ¼
åģ ļ
åħ¨ åĽ½
æĶ¯ æĮģ
å° ģ
èĹ ı
æ° ¸
,åĽł æŃ¤
åĲ «
å» ¶
æĸ Ĺ
èĴ Ĥ
5 0
æĭ Ķ
çĶŁ æ´»
åĽł ä¸º
åİ ħ
ä¹ĭ åĲİ
åį ¢
äºº çļĦ
çħ §
äº ¡
æľį åĬ¡
å¼ Ĺ
éļ ¾
l e
åİ Ĥ
ç» Ĩ
æ¾ ³
åĪ ¤
æ ĵ
æł ¸
æŀ ¶
ä¸ ¹
å¤§ çļĦ
éģ Ĺ
ä¼ ¤
å°¼ äºļ
å®£ å¸ĥ
çļ ®
èĻ ½
å½ Ĵ
åį° åº¦
åı ³
ä¿Ħ ç½Ĺæĸ¯
å·² ç»ı
è¯ Ĩ
åº Ĩ
åıĤ ä¸İ
åľ° æĸ¹
ä¸¾ è¡Į
æĸ Ń
åħ³ ç³»
åıĳ è¡Į
éĹ »
19 6
. åħ¶
ç Ĩ
è½ ®
é ½
åı ¶
ä¸ ½
æĿ °
åº Ĺ
æĸ¹ éĿ¢
ç¤ ¼
åĶ Ĳ
åĨ³ å®ļ
å·¥ ç¨ĭ
ï ¼
éĩį è¦ģ
è Ľ
è¶³ çĲĥ
r o
åĮĹ äº¬
åĪ ĩ
ä¸¤ ä¸ª
ä¼ ĺ
çŃ ĸ
ä¸ ¥
, æľī
ä¸Ĭ æµ·
åº Ń
èµ °
ãĢį ,
å¿ ħ
è¯ »
æĭ ¥
ç» Ŀ
éģ Ń
0å¹´ ä»£
å° ļ
èģĶ åĲĪ
äºº çī©
å¼ Ĥ
r e
åĺ ī
éĥ ¡
äºĭ ä»¶
ç» ĥ
æį ¢
åĮĹ éĥ¨
åĨł åĨĽ
é© »
å½ ¹
èµ «
åŃ¦ å®¶
èĬĤ çĽ®
æ¤ į
å² ¸
éº ¦
éĩ İ
åŃ¦ çĶŁ
å¼ Ł
ä¼ļ è®®
19 5
æ² ¹
äººæ°ĳ åħ±åĴĮåĽ½
æĬĢ æľ¯
éĢ Ĳ
åĶ ®
èĥ Į
. 5
æ¯ ķ
æĿ ¾
åĪ° äºĨ
åĬł åħ¥
é ³
å¯ º
00 0
èī ¾
è ĵ
åį ´
ä¿Ŀ æĬ¤
e l
åĪĹ è½¦
ä¹ ħ
æĢ» ç»Ł
æ¬§ æ´²
ç½ ²
20 19
èı ²
éļ Ĩ
è®¾ æľī
æĻ ļ
é ¼
å¹³æĸ¹ åįĥ
èĪ ¬
s t
å ª
åĪĨ åĪ«
æĿ¥ èĩª
ç« ¯
20 20å¹´
çĽ® åīį
ç ¯
. 200
æĺ ¥
çŁ Ń
å¹³ .
éĢ ģ
åħ ¹
åĪĨ å¸ĥ
åħĭ åħ°
éľĢ è¦ģ
ç³» åĪĹ
ä¸ĭ ,
ä¹ ĺ
,ä»¥ åıĬ
ä½ ³
å° ½
æĿ Ł
å® Ŀ
å®Į æĪĲ
ä¸Ńåįİ äººæ°ĳåħ±åĴĮåĽ½
éĢļ å¸¸
é¡ º
æ°ĳ åĽ½
ä» Ģ
åĲĮ å¹´
æ² ¿
æľ «
æĹ Ĺ
åİĨåı² .
å»º ç«ĭ
åĲ ¯
èį ī
åįĹ éĥ¨
åº ı
åŃĺ åľ¨
éĺ ¶
éĺ µ
èį ¯
å¯¼ èĩ´
èĢ ¶
éĽ Ħ
éħ Ĵ
æļ ´
æĸ¯ çī¹
æ¯ Ľ
æĸ¯ Â·
æĪĲ åĬŁ
i on
æ³ ½
åħ ¼
é¢ ĳ
äºİ 201
ä¸Ĭ ,
åħ± æľī
åĨ ²
è½ »
è¦ģ æ±Ĥ
æĳ Ħ
çĭ¬ ç«ĭ
è· Ŀ
çĦ¶ èĢĮ
2 5
ç»Ħ æĪĲ
ä¾ĭ å¦Ĥ
æĳ ©
è¿Ļ äºĽ
æľĢ é«ĺ
éĶ Ģ
æ¬ ¾
è¿Ļ ä¸ª
è¾ ĵ
åįķ ä½į
ãĢĭ çļĦ
èĻ½ çĦ¶
æµ· æĭĶ
12 æľĪ
å¼Ģ åıĳ
æĭ¥ æľī
å¸ ķ
èĩª çĶ±
ãĢĭ (
ãĢĭ ãĢģ
çģ µ
åŃ Ļ
ä¸ĵ è¾ĳ
æĺ¯ åľ¨
çŃ ¾
åª Ĵ
çĽ¸ åħ³
ä¹Į åħĭåħ°
ç± į
å© ļ
çİ Ľ
æĥħ åĨµ
çĶ¨ äºİ
ç½ ª
19 3
é¡ »
èīº æľ¯
æĺ¯ ä¸Ģ
, åĮħæĭ¬
çĶŁ å¹³.
æĿ Ĥ
äºº åĳĺ
çº ½
é¥ °
æ£ Ģ
éĽ ħ
e t
åĲį .
é¡ ¶
çĲĥ éĺŁ
âĢĿ ,
éĢī ä¸¾
å¯Ĩ åº¦
æĿ ¨
èģĶ çĽŁ
éĩĩ çĶ¨
æŀ ª
i l
å Ĥ
æıĲ åĩº
2 4
ä» ĭ
äºĨ ä¸Ģ
åīį å¾Ģ
åĮº .
åĬ ³
ç§ Ģ
åħ į
o u
7 æľĪ
çķ ¥
åıĹ åĪ°
æ² ĥ
å· ®
æĭ į
éĢ ı
è¿ ½
å® ³
äº ¿
æ ¿
ãĢĭ ,
å· ¡
o l
æĸ¹ å¼ı
9 æľĪ
1 .
çĽ ĸ
åĩ ı
èĭ ¥
çļĦ ãĢĬ
è§Ĵ èī²
è´ ¢
ä¸º äºĨ
10 æľĪ
éĴ Ł
è¢ Ń
8 æľĪ
è¿ ģ
éĩ Ĭ
, ä¸Ģ
åĽ½ æ°ĳ
äºĮ åįģ
æĿ ¿
èī ¯
a c
å° ¾
åĲ ´
, ä¸İ
çļĦ .
å¤§ éĻĨ
è® Ń
è ŀ
åħ· æľī
çŃī .
èį £
æĿ ¯
åĲĪ ä½ľ
3 æľĪ
è° ·
çĪ Ĩ
, å¦Ĥ
éħ ¸
äº¤ éĢļ
æķ £
æı ´
æł ĳ
æŃĮ æĽ²
åĩº çīĪ
éĽĨ åĽ¢
1 ,
å°Ķ Â·
èģĶ èµĽ
äº§ çĶŁ
ç £
æĺ ł
çļĦ å¤§
é¦ĸ æ¬¡
å® ĭ
ä¼ ģ
è¯ ĳ
è´ Ń
äº Ī
æķ° æį®
åĸ Ħ
± ä¹Ĳ
å¾ ®
é» İ
æ´ ¥
åħ¶ ä¸Ń
èĤ ¡
å° º
è¡ ¥
çī¹ åĪ«
æ¯ķ ä¸ļ
è® ¿
å± ĭ
ç»§ ç»Ń
å® ¡
è´ µ
äº Ĵ
è¡ Ģ
é«ĺ åº¦
. ä½Ĩ
é¡¹ çĽ®
ç»ĵ æĿŁ
6 æľĪ
æĻ ĭ
è½ ¨
çĶŁ äº§
çĥ Ī
åģ ĩ
0 .
åĽł æŃ¤
è® ¯
çĲĨ .
éŁ ¦
ã ĥ
ãĢĭãĢģ ãĢĬ
åħ »
éĻ ©
ç»ĵ æŀĦ
èĩ £
h -
5 æľĪ
å¸Ŀ åĽ½
é¢ Ŀ
æı ı
æī ©
2 3
éĥ¨ éĺŁ
è¥¿ äºļ
å¹³æĸ¹åħ¬éĩĮ ,
. èĢĮ
ä¸ª äºº
è¯Ń è¨Ģ
æķ ĳ
äººåı£ å¯Ĩåº¦
æ¯ Ĵ
æİ§ åĪ¶
é² ľ
å¯¹ äºİ
åĸ ľ
ç§ĳ åŃ¦
2 .
æİ¥ åıĹ
å½¢ æĪĲ
ç« ŀ
1 æľĪ
åıĸ å¾Ĺ
ä»» ä½ķ
æĹ¶ ä»£
æµ· åĨĽ
è¡Į åĬ¨
ä¸» å¸Ń
åĮº åŁŁ
æĮ ¥
å³ °
éĿ¢ç§¯ ä¸º
æķħ äºĭ
, åĲİ
å¤ º
æĿ ľ
æ°ĳ ä¸»
èĪ ŀ
æ¦ Ĥ
éĶ ¦
è¯ Ĺ
åĩº çĶŁ
z h-
æĹł æ³ķ
è® ²
4 æľĪ
éĢ Ĥ
11 æľĪ
éĢ Ķ
çļĦ æĺ¯
ä¹Ł æĺ¯
æĭ ľ
ä¸ °
æľº æŀĦ
çİ ©
çĶ ļ
å¢ŀ åĬł
åĮº çļĦ
éĢł æĪĲ
4 0
2019 å¹´
æľ ±
å¸ ģ
çĸ Ĺ
é½ Ĳ
æ¢ ģ
èį ·
è¾ Ĩ
éĻĦ è¿ĳ
ä¸» æķĻ
è¶ħ è¿ĩ
çļĦ äºº
ç§ ĺ
å» ·
é¢Ĩ å¯¼
æĮ ī
ä¼ł ç»Ł
ç»ĵ æŀľ
ç½Ĺ é©¬
å¾ Ħ
ä»¥ ä¸ĭ
ç ĩ
å® ¾
éļ ¶
202 1å¹´
ç ¦ģ
, åį³
ãĢį çļĦ
æĴ ¤
ä¸Ń åħ±
åĿ Ģ
æĿ Ĳ
åį Ī
in g
è´ §
& g
&g t;
åĩ ¯
åĬ¨ çī©
æ¸ Ĳ
çĬ ¯
èĥ ¡
202 2å¹´
a s
åĨĽ äºĭ
2 1
ç« ¥
æķ ¦
èĪª ç©º
åľ Ĩ
ä½ ©
çĽ Ĭ
çļĦ æĹ¶
ä» ª
å¤ Ł
æłĩ åĩĨ
o m
åıĳ å¸ĥ
5 æĹ¥
èģ ļ
è° ¢
10 0
æĸ° éĹ»
6 0
éª ¨
æ· ·
çĮ ®
çĽ Ľ
, ä»İ
åĨħ çļĦ
è¿ Ķ
åıª æľī
ãĢĭ .
ä» ģ
éĥ İ
l t;
& lt;
, ä½¿
çī Ľ
,å¹¶ ä¸Ķ
çļ Ĩ
æķ° éĩı
æŁ Ĳ
è® ¨
å°± æĺ¯
ç¿ °
åĪ ĳ
ç© Ĩ
çĤ ¸
æį ķ
éĺ¿ å°Ķ
å¨ ľ
éĿ© åĳ½
èĮĥ åĽ´
äºİ 200
c h
å¤§ åĪ©
å¸ ®
åªĴ ä½ĵ
e d
, å°Ĩ
éĻ¤ äºĨ
å® ½
å¾Ĺ åĪ°
æľº åľº
å¥³ æĢ§
èĮ ¨
å®ī åħ¨
è°ĥ æŁ¥
è¿ĩ ç¨ĭ
,å¹¶ åľ¨
è§ ī
æİ ¢
ä¹ĭ åīį
æł¼ åħ°
ç»ı è¿ĩ
çĤ ®
æĻ º
åº Ļ
åĨħ å®¹
åħ¬ åĽŃ
çĪ¶ äº²
å¹ ķ
æĪ ª
åĲ ¦
éģ ĩ
å¤ ľ
: âĢľ
(, ),
éŁ© åĽ½
çĶ· åŃĲ
ä¹ Ķ
åįģ äºĮ
éľ į
èµ ŀ
åħ ħ
è Ķ
æĭ ©
2 2
è½ ¯
éĩį æĸ°
å¥³ åŃĲ
å¹³æĸ¹åįĥ ç±³
åĪ »
) åĴĮ
æīĢ ä»¥
éľ ²
èµĽ äºĭ
æĽ ¿
7 æĹ¥
ä¼ ĳ
å° ¤
ç§ ģ
,åĽł ä¸º
åĪ º
ä¹ĭ åĲİ,
ä½į ç½®
å¹³ åĿĩ
è ĸ
, è¢«
å «
èĩªå·± çļĦ
çİ ī
è¿ĲåĬ¨ åĳĺ
æŁ ĵ
çºª å¿µ
å±ħ æ°ĳ
6 æĹ¥
201 0å¹´
ä¸Ģ èĪ¬
é¸ Ł
åĪĽ ä½ľ
çľģ ,
åıĳ è¡¨
åº Ł
ä¸Ģ åĲį
ç¼ º
éĿ ł
u s
ä¸ Ŀ
ã ģ
éĴ Ī
æķ Į
, æĽ¾
åĢ Ł
æĺ Į
çİ° ä»£
ä¸º .
è®¾ ç«ĭ
ç» ©
çļĦ ãĢĮ
è¯ ī
æº ª
æĬ µ
éĤ ®
æľī éĻĲ
èģĶ éĤ¦
åľ° ,
åĲ Ľ
å· ¨
è ľ
åĲ ¸
å® ĩ
è¥¿ çıŃ
è· Ł
çĪ µ
ä¹ ±
å±ŀ çļĦ
.19 9
èĵ Ŀ
è¥¿çıŃ çīĻ
éª ĳ
å¾ ¡
2 8
å® ª
æĹ¶ çļĦ
3 1
çľ ¼
è®® ä¼ļ
åıį å¯¹
æ¼Ķ åĳĺ
æ¤į çī©
ä¸Ģ çĽ´
åĿ ¡
æ® ¿
åħ± äº§
æķĻ æİĪ
æį Ł
å¾ Ĵ
éĽ ª
æĿ¥ çļĦ
å·¥ ä¸ļ
åĽ º
æ°ĳ æĹı
âĢĿ çļĦ
è¯ ¸
ä¾ µ
åĪ Ĭ
çīĪ æľ¬
åĮ ¹
æľī åħ³
, å¤§
ç¬¬ åĽĽ
éĢ ĥ
åħ¬ è·¯
çĽ´ æİ¥
çİ° åľ¨
éļ Ķ
202 3å¹´
è ª
å»º è®¾
4 æĹ¥
èģĮ ä¸ļ
æī ¾
çİ¯ å¢ĥ
è° ĭ
ä¸¾ åĬŀ
èĦ ĳ
æ¶ ¯
éļı åĲİ
ä¸Ń åŃ¦
3 æĹ¥
ä¹ İ
éĢī æĭ©
åĨĽ éĺŁ
çĹ ĩ
è¿ĺ æľī
éĿŀ å¸¸
ç¿ »
æ¬ ¢
èĭı èģĶ
åıį åºĶ
ç¼ĸ çłģ
, æŃ¤
, åĲĮæĹ¶
ä½ ł
( ä»Ĭ
çĶ ³
åħ¬ å¼Ģ
d e
ä½ĵ èĤ²
å£ ¤
éĥ ĳ
å² ©
éĵ¶ è¡Į
ä¸º ãĢĮ
éķ¿ .
æ¦ ľ
è£ ģ
èµĦ æĸĻ
åħ± åĲĮ
æ± ĩ
å½¢ å¼ı
åĨ³ èµĽ
ç© ¿
æĪĺ æĸĹ
è¡Į æĺŁ
åħ Ħ
åı ¬
éĥ½ æĺ¯
åĨ °
æĺ¾ ç¤º
éĤ »
æ¼ «
åįı ä¼ļ
2 æľĪ
æĢ ¥
æ¿ Ģ
åĲį ç§°
. âĢĿ
è·Ŀ ç¦»
. å®ĥ
2 7
o f
å¥ ī
æĸ¹ æ³ķ
ç» ľ
éķ ľ
æĪ Ī
åŁ ¹
u n
åĶ ¯
æİ¨ åĩº
åĲį çļĦ
è¯ ¾
å°ı è¯´
ç¬ ¦
èĥ ŀ
åĪ© çĶ¨
, åıĪ
å¤ļ æķ°
åĲ ¬
çĶŁ æ¶¯
åľ° .
æ¯ ģ
è®® åĳĺ
èĬ ¬
è¿ «
ç¾İ åħĥ
çĽ´ åĪ°
æĸ¯ åĿ¦
ä¹¦ è®°
ä¼ģ ä¸ļ
è® ¢
è° Ī
åĳ ¼
é» ĺ
åĮħ åĲ«
èĩª æ²»
ä¸º âĢľ
å¾ ħ
æ³ķ å¾ĭ
éĽ ¨
ä¹ĭä¸Ģ .
é Ĩ
ä¸Ģ èµ·
ç®¡ è¾ĸ
æĮĩ æĮ¥
åĳ Ī
èĤ ¯
S t
è¿Ļ ä¸Ģ
åģ ¥
å®Į åħ¨
( C
ä¸» ä»»
æĢ Ģ
èĢ ³
åı° åĮĹ
ä¸Ńåįİ æ°ĳåĽ½
çĶŁ çī©
æĸ° çļĦ
ï¼ į
çĸ ĳ
æ³ Ľ
å®¶ åºŃ
éķ¿ ,
èµ µ
åĿ ļ
ä¸ľ åĮĹ
ä¸į æĺ¯
2 6
æ³ķ éĻ¢
äºº ç±»
åľ° çĲĨ.
èİ ī
éĻ µ
æĦ ¿
en t
âĢĶ âĢĶ
ã Ĥ
. çĶ±äºİ
an d
æĵ į
æĹ ĭ
æĪĳ ä»¬
å®¶ æĹı
èĩª çĦ¶
å§ ĵ
åı¦ ä¸Ģ
æľī ä¸Ģ
åŃ¦ ä¹ł
åľ° çļĦ
åĨį æ¬¡
r i
202 4å¹´
æ¶ ī
çĶµ åŃĲ
å¤§ éĩı
, æĪĲä¸º
, å®ĥ
æŀ ļ
æĮĩ åĩº
é¢ Ĺ
æĶ¿ çŃĸ
åħ³ äºİ
, å±ŀäºİ
æĪ ´
æ¯ «
åŃ ©
èĦ ±
æī§ è¡Į
åĬ¨ çĶ»
çĶļ èĩ³
åĪĨ ä¸º
201 6å¹´
çĲĨ è®º
3 5
3 .
åĲį :
è¡¨ çİ°
èŀ į
: ãĢĮ
æľĪ1 æĹ¥
åĲİ çļĦ
å¿ħ é¡»
åĮ» éĻ¢
, 000
ä½į .
2 9
æļ Ĥ
åŁº ç¡
åį ±
ç» ¿
ä»¥ æĿ¥
è¡Į ä¸º
å°Ĩ åĨĽ
å¦ »
8 å¹´,
ç§ ĭ
ä¸ľ éĥ¨
çĽ ĺ
æľĢ ä½³
æģ Ĵ
å¢ĥ åĨħ
å°½ ç®¡
201 1å¹´
èĪ į
o w
æī İ
æĢ§ çļĦ
.19 8
æľĢ åĪĿ
åĿ Ĳ
è Ŀ
é¡ ¾
æĸĩ åŃ¦
åŁºç¡ Ģ
æĶ¹ ä¸º
åį ·
æ¨ ª
201 8å¹´
ç¾ ½
æŁ ı
ä¸ŃåĽ½ å¤§éĻĨ
ä¹ Ī
å¾· Â·
åĬ ª
å®ĺ æĸ¹
()æĺ¯ ä½įäºİ
ç¿ ¼
ç´ §
åįļ çī©
èī ĩ
2 å¹´,
åķĨ ä¸ļ
ç¯ ĩ
çľģ ä»½
è¾ Ľ
æĶ» åĩ»
3 å¹´,
æ» ¨
æĦı å¤§åĪ©
è´ ¡
5 æĹ¥,
åħ¬ åħ±
å¥ ı
ä¹ °
çī© ç§į
æŃ» äº¡
æĴŃ åĩº
u r
æ¡ ĳ
éĴ ±
æĬ¥ åĳĬ
ç±» ä¼¼
åĿ ı
æĻ® æŁ¥
æľŁéĹ´ ,
éŃ Ķ
ç¼ ©
åĮº ,
ä¸Ń .
æľĿ é²ľ
1 å¹´,
5 å¹´,
æĶ¿æ²» äººçī©
æ´ ª
å¸Ĥ åľº
201 4å¹´
æĹ© æľŁ
èĥ½ åĬĽ
¤ Ĳ
æ½ ľ
4 å¹´,
å®ŀ éĻħ
äºļ æ´²
è Ĩ
æıı è¿°
å¢ ĵ
a d
è¯ ¯
æ¼Ķ åĩº
è§Ħ æ¨¡
8 0
çº¦ ç¿°
åĽ¢ ä½ĵ
åĬł æĭ¿
6 å¹´,
éģ ¿
å¿ ł
åħ¨ çĲĥ
ç» į
æ® ĸ
åİ» ä¸ĸ
æĭį æĳĦ
å¤Ħ çĲĨ
æĺ¯ ä¸Ģä¸ª
æł ĸ
æµ·æĭĶ é«ĺåº¦
çģ Ń
ä¹ĭéĹ´ çļĦ
è¥¿ éĥ¨
å¤ĸ äº¤
å¹¿ ä¸ľ
ä¸ĭ çļĦ
éľ ĩ
æµ Ļ
201 7å¹´
201 2å¹´
åĪ¶ éĢł
éĵ ľ
èµ· ,
201 5å¹´
èĥ½ å¤Ł
ä¸¥ éĩį
å¤§ ä¼ļ
å» ī
ç¦» å¼Ģ
ç« ¹
çļĦ åľ°
äººåı£ .
çĸ «
åŁº æľ¬
ãĢį (
å®Ĺ æķĻ
æģ ¶
æ± ½
å® ľ
è¿ ·
i g
ä¼ į
çºª å½ķ
é³ į
ä¸º ä¸»
ä½ľ çĶ¨
è¿ ¹
è¿Ļ ç§į
çļĦ âĢľ
éĹ Ń
å¥ Ĺ
200 1å¹´
æĮģ ç»Ń
åĿ Ĺ
åģ ı
å°ı æĹ¶
ä» ĺ
è®¡ ç®Ĺ
201 3å¹´
è·¯ çº¿
200 9å¹´
18 9
t h
(), æĺ¯
æī ¬
.19 4
åħ±äº§ åħļ
äºĭ åĬ¡
åŃ Ķ
è¯¥ åĽ½
ç©º éĹ´
çļĦä¸Ģä¸ª å¸Ĥéķĩ
èµ ĸ
è¡ £
8 æĹ¥
è¿ İ
,ä½Ĩ æĺ¯
7 0
6 æĹ¥,
å°Ķ æĸ¯
æ³ ī
åĪ ļ
7 å¹´,
è¾ ħ
t he
å¸Į æľĽ
ä»» åĬ¡
4 æĹ¥,
çĽ® æłĩ
æŀ Ĳ
èĦ ī
ä¸ī ä¸ª
å¥¹ çļĦ
æ± ł
ç»Ł æ²»
æİ¥ å£¤
èª ī
ä¼ °
åı¦ å¤ĸ
æĸ¹ åĲĳ
æ¸ ¡
æģ Ĳ
ç¼ ĺ
æĸĩ çī©
( åŃ¦
ç¬¬ åįģ
ä¸ľ åįĹ
åĬŁ èĥ½
èĳ £
éļ ľ
7 æĹ¥,
å¼ ĥ
å¹´ çļĦ
, åı¯
åįķ æĽ²
éĺ¿ æĭī
ãĢ ī
ãĢ Ī
åĬłæĭ¿ å¤§
çº½ çº¦
å¢ ¨
éĶ¦ æłĩ
æĭ Ľ
äº «
è· ¨
è®¾ æĸ½
æľĪ åı°
èµ ¤
å¯ »
19 2
èµĽ åŃ£
. çĦ¶èĢĮ
èħ Ĭ
æĺ¯ çĶ±
åī ĳ
éĢı è¿ĩ
çĶ ĺ
äº ķ
ä¿ ±ä¹Ĳ
è§Ħ å®ļ
ä¸» æĮģ
éĶ ¡
éŃ ı
çĲĥ åĳĺ
éĢ Ĭ
ä¿±ä¹Ĳ éĥ¨
éĺ »
åĪĨå¸ĥ äºİ
(åŃ¦ åĲį:
ä»į çĦ¶
åįļçī© é¦Ĩ
éĢī åĮº
åıĺ åĮĸ
æĥ ł
åĲĪ å¹¶
è´ ¸
åĲį ,
è§£ æĶ¾
åĽ½ çİĭ
çĳ Ł
ä¸Ģ æ¬¡
, æīĢä»¥
é¢ ģ
åħ¬ å¸ĥ
å·´ å£«
å¼Ģ æĶ¾
å¹¿ æĴŃ
åĨ ¬
åħĭ æĸ¯
ç» ĺ
å¦Ĥ æŀľ
, å¯¹
åħĭ éĩĮ
4 .
äº ®
200 8å¹´
3 æĹ¥,
ä»ĸ åľ¨
èĤ ī
è¾¾ åĪ°
å®ŀ éªĮ
èµ ¢
ä¹Ł æľī
, æľĢç»Ī
åĶ¯ ä¸Ģ
åİŁ åĽł
, ä»ĸä»¬
è ¸
å½ĵ ä¸Ń
éĢĲ æ¸Ĳ
æį ·
èı Į
åıĳ åĬ¨
éĥ¨ éķ¿
äººåı£ æĻ®æŁ¥
çĥŃ å¸¦
çº ²
åĦ¿ åŃĲ
ç» ¼
é©¬ æĿ¥
åĵ ²
çŁ ¿
è¿ŀ æİ¥
å½ĵ éĢī
4 5
æ¨¡ å¼ı
å¾ Ĳ
ç ¹
å¤§ åĮº
è¾ ŀ
ç¬¬ä¸Ģ æ¬¡
ä¸ľ äº¬
åı· çº¿
çģ ¾
èĴĻ åı¤
åħĭ Â·
è¿ĲåĬ¨ ä¼ļ
å®ļ ä¹ī
2 ,
è¯Ń :
i d
, æ¯ı
æľīéĻĲ åħ¬åı¸
o s
çĽ¸ å½ĵ
éĺ ´
èĽ ĭ
åĲĦ ç§į
è®Ń ç»ĥ
æ´ ŀ
ç¨ ³
ç»Ĩ èĥŀ
æ½ ®
çĽ¸ åĲĮ
r a
åĩ» è´¥
, æĪĸ
å¦ ĩ
åı Ļ
æ¼Ķ åĶ±
é£İ æł¼
å¤ª å¹³
çĬ ¹
å¤ª éĺ³
å¦ ¹
19 0
, ä¾ĭå¦Ĥ
èĢħ çļĦ
ç¹ ģ
I N
æ° §
éģĵ è·¯
ä½ Ĳ
c t
æĪĲ ç»©
4 8
æļ Ĺ
æŃĮ æīĭ
æİ Į
T C
æĭ Ĵ
å¥¥ è¿Ĳ
æ» ĳ
åı¸ ä»¤
( åį³
æģ ¢
çİ© å®¶
ä¸ĵ ä¸ļ
å¹¶ ä¸į
éĺ¶ æ®µ
äºº å£«
, ä¸Ķ
t er
éĴ ¢
.19 5
è¥¿ åįĹ
åĢ Ĵ
202 5å¹´
åĨ ·
åĨ Į
æī¹ è¯Ħ
. ãĢį
è¥¿ åĮĹ
èĻ İ
çĲ ´
ä¸įåĲĮ çļĦ
ç§ Ł
å»º éĢł
ä¸Ģ æł·
è®¾ ç½®
äº§ åĵģ
ä¼ Ĳ
, åĮĹ
âĢ ĵ
zh- h
åĬŀ åħ¬
è½¨ éģĵ
åĪĨ ,
æĺ Ĥ
ç¨ İ
9 å¹´,
é© ±
ä¿ Ĺ
. å½ĵ
å¾ ½
äºİ 199
ä¸į è¿ĩ
è¡ĮæĶ¿ åĮº
çı ł
è¢« ç§°ä¸º
éº »
èī ĺ
å¥ Ī
éĶ Ļ
ç¡ ¬
åĿ ĳ
èĥĮ æĻ¯
åľ Ī
å®ļ çļĦ
å¹ ¼
åĳ ³
çĶ º
çĪĨ åıĳ
å½ ¼
æĬ¥ ãĢĭ
æµĻ æ±Ł
åĪĨ éĴŁ
å°ı è¡ĮæĺŁ
æĤ £
çļĦä¸Ģ éĥ¨åĪĨ
éĺ ģ
çī¹ Â·
èĳ ¡
å¢ Ļ
å½ ©
ä¼¦ æķ¦
ä¹ Ļ
9 0
åŃ¦ èĢħ
å¤§ æĪĺ
æµ ¦
æģ¢ å¤į
åºĶ çĶ¨
å¸Į èħĬ
ä¸ī åįģ
æĶ¹ éĿ©
çļĦ ä¸»
åį ĸ
æ¯į äº²
è§ ¦
9 æĹ¥
èº« ä»½
çº ¸
å¯ ¿
u m
çļĦ ,
3 6
éĥ¨ éĹ¨
èŃ¦ å¯Ł
æİĴ åĲį
ç¬ Ķ
å±± ä¸ľ
è± ª
åĽ °
æ® ĭ
é£ŀ æľº
i m
åĪ¶ åº¦
åī Ĥ
ä¸Ģ ä½į
éĿĴ å¹´
ä¸į èĥ½
èİ İ
è ķ
è¡¨ç¤º ,
ä¿ ĥ
, äº¦
çĤ¹ .
ä¸ĭ è¾ĸ
è¯Ħ è®º
è¿Ľ å£«
ç² ī
æĽ¾ ç»ı
æľĢ å¤§
âĢ ¦
æĬķ èµĦ
,ä¹Ł æĺ¯
èĦ ļ
éĢ Ŀ
é«ĺ éĢŁ
ç½ĳ ç»ľ
i r
å¤ı åŃ£
o t
è£ Ĥ
è®° è½½
æ¡ £
æ¥ ļ
æµ ª
èµ ı
æ¢ ¦
å°Ĩ åħ¶
å¯¼ æ¼Ķ
3 8
åĮĸ åŃ¦
æ² ī
èµĦ æł¼
éĽ ¶
( A
å¤© æ´¥
o d
å¹¿ å·ŀ
æĺ Ń
äº ¨
ãĢį ãĢģ
æŁ ±
æĭ Ł
å¾Ī å¤ļ
åģ ¶
åĨ Ī
å° Ĭ
çĶµè§Ĩ åı°
å¸® åĬ©
åįļ å£«
éĤ Ģ
çļĦ æĸ°
çĽ Ĳ
200 7å¹´
å¼ ±
éģĵ ,
éķ¿ ãĢģ
è® ·
çĸ Ĩ
åı «
ç¬¬ äºĶ
éĻ ·
, çİ°
åħ¨ éĥ¨
åĪĨ åŃĲ
å´ ĩ
æģ ĭ
ä» Ļ
æ¶ ħ
çĭ ±
ç Ĵ
è¯ Ĭ
at ion
3 7
ç±³ .
ç¾¤ å²Ľ
äºİ 18
éĿ Ļ
å¥¥ æŀĹ
ä»» åĳ½
, ä¸¤
éĻĨ åĨĽ
åĨľ ä¸ļ
æĿĤ å¿Ĺ
æ± Ĺ
ç» ķ
åŁº çĿ£
é ¤Ĳ
I n
çļĦ çī¹
ä¸į ä¼ļ
åħ¬ å°º
. æł¹æį®
æķ´ ä¸ª
åĲį åŃĹ
è£ Ķ
v e
åĲ ķ
ç®Ģ ç§°
çĶ· æĢ§
ãĢĭ ä¸Ń
ç«ĭ æ³ķ
æ¶ ²
è ļ
å¤ļ æ¬¡
ç¥ Ń
é¢Ĩ åŁŁ
èµ¢ å¾Ĺ
. å¥¹
å»º è®®
åıĬ åħ¶
è´Ŀ å°Ķ
ä½ľ å®¶
é¼ ĵ
ç¬¬äºĮ æ¬¡
ä¾ ¯
( M
æ ©
è¿ŀ ç»Ń
æĿĳ ãĢģ
åĪĨ æŀĲ
è¡¨ æ¼Ķ
çĸ ¾
ä¼ ´
ä¼ Ł
åįĹ äº¬
i a
ä»ĸä»¬ çļĦ
éĶ¦æłĩ èµĽ
åĲĮ æł·
èĻ ĳ
å¹¿ åľº
åĮħæĭ¬ :
å¥¥æŀĹ åĮ¹
æĢ» äººåı£
ç»ı å¸¸
åĩº çļĦ
(, )æĺ¯
åħ¬éĩĮ ,
åĪĻ æĺ¯
ä¸ ĺ
åĽĽ å·Ŀ
åĮº ä¸º
åħĪ åĲİ
åıĳ å°Ħ
ä¸Ń éĥ¨
äºī è®®
5 00
åĩ ¤
6 .
( S
å¹ ħ
åľ° ä¸ĭ
é¢ ľ
éĥ Ń
åŃĲ .
åľ° çĲĥ
æĭ Ĩ
çī §
çŃī äºº
éĢŁ åº¦
æĪª èĩ³
è®° å½ķ
è®¾ å¤ĩ
é© ¶
ç¦ı å»º
äºº ä»¬
ç»´ å°Ķ
æĲ Ń
åĩº ä»»
ä¿Ŀ æĮģ
åľ°åĮº çļĦ
æĿ¡ ä»¶
å¼ķ èµ·
æ°´ åŁŁ
5 .
200 6å¹´
ç» ª
æĭī æĸ¯
.19 7
çľģ çļĦä¸Ģä¸ªå¸Ĥéķĩ
è§Ħ åĪĴ
æĹ¥ åĨĽ
ä¼Ĭ æĸ¯
æŁ ¯
æ²³ åįĹ
åıĤ èµĽ
ä¿¡ æģ¯
, ä¸»è¦ģ
éģŃ åĪ°
å¹³ åı°
å±ħ ä½ı
çľģ ãĢģ
å¤ı ä»¤
å¤ļ çļĦ
è¯¥ åľ°
é£ŀ è¡Į
U TC
åĤ ¨
ç»Ł è®¡
è¢Ń åĩ»
åĨħ éĥ¨
çĽ¸ å¯¹
å¹¿ æ³Ľ
èĻ «
çī© çĲĨ
è¿ĩ åİ»
æķĻ åłĤ
å®ĺ åĳĺ
, å¥¹
è¶Ĭ åįĹ
( æĪĸ
S T
èĩ³ ä»Ĭ
ä¸Ģ æŃ¥
æĪĺ å½¹
200 5å¹´
æĭĴ ç»Ŀ
èĶ ¡
æĸ¯ ç§ĳ
å¤ļ ä¸ª
æ£ Ĵ
èĭ± æĸĩ
è´¸ æĺĵ
åħ ģ
è§ Ī
æłĸ æģ¯
çĵ¦ å°Ķ
å¥¥æŀĹåĮ¹ åħĭ
åŁİ åĮº
èĲ Ħ
æ¯Ķ äºļ
èĳ¡ èĲĦ
åŃĲ ,
å¹ ¸
æĺİ æľĿ
ç³ ĸ
åĦ¿ ç«¥
a g
æµģ è¡Į
åľ¨ ãĢĬ
æľĢ æĹ©
æľĪ1 æĹ¥,
åĩ ½
å¡ŀ å°Ķ
ç§ ¦
æ· ¡
åıĸ ä»£
æľĪ2 1
æĹ ģ
é¢ĳ éģĵ
æ¼« çĶ»
()æĺ¯ä½įäºİ ç¾İåĽ½
é¥° æ¼Ķ
éĻ ¶
è¿ Ŀ
ç¾İ æ´²
æľª èĥ½
æ³¢ åħ°
ç»ı åİĨ
è¡Ĺ éģĵ
æ± ¤
ç¢ ĳ
çļĦ ä¸»è¦ģ
æľĪ2 2
åĩł ä¹İ
æĮ ĳ
å·´ é»İ
æ¦Ĥ å¿µ
èĻ ļ
ãĢģ å¤§
é ŀ
å®ŀ çİ°
æĮ ¯
), æĺ¯
âĢĿ (
ç½ĳ ç«Ļ
å¤Ħ äºİ
æľĢ å¤§çļĦ
å·¦ åı³
é¾ Ħ
çĦ¶ åĲİ
è®° èĢħ
å¹´( 15
å®ŀ æĸ½
åįı åĬ©
å® ¿
åĩı å°ĳ
æĶ¹ åıĺ
èİ·å¾Ĺ äºĨ
è§Ĩ ä¸º
,èĢĮ ä¸Ķ
è· ĳ
ä¾ į
è¿ Ī
æ® Ĭ
) ä¸º
è½¦ è¾Ĩ
èĳ ¬
åľ° éĵģ
ä¼ ¸
éķ¿ æľŁ
å±ķ å¼Ģ
çĨ Ļ
åĪĨ ç±»
çļĩ å¸Ŀ
æĢ§ .
è¿Ĳ è¾ĵ
æĺ Ĩ
ç§ĳ æĬĢ
å¤§ éĥ¨åĪĨ
èĭ± æł¼åħ°
åĩºçĶŁ äºİ
éķ¿ çļĦ
å½± çīĩ
ç±» åŀĭ
, æķħ
o p
ä¼ļ åľ¨
ä¹ ĥ
èĮ ¶
çĬ¶ æĢģ
çļĦæĹ¶ åĮºä¸º
æ¯Ķ è¾ĥ
éģ į
ç¬¬ ä¸Ģä¸ª
ç»ı èĲ¥
åįł é¢Ĩ
åİ¿ çļĦ
åī§ æĥħ
æ¾³ éĹ¨
çº¿ çļĦ
æĬķ ç¥¨
ç»§ æī¿
å® ħ
ä½ľ æĪĺ
çĥ §
åĽ½ çļĦ
ä¼ļ .
æ²» çĸĹ
æŃ¦ åĻ¨
éĻĲ åĪ¶
3 4
7 .
åįģ ä¸Ģ
b r
ä¸ļ åĬ¡
åŁº äºİ
è¯´ ,
èį· åħ°
çŃ ¹
8 æĹ¥,
è§£ åĨ³
çº ¯
å¤© ä¸»æķĻ
çĩ ĥ
èĪ° éĺŁ
å¨ģ å»ī
è½ °
% çļĦ
åĴĮ å¹³
å¦ ®
éĶ ®
å®£ ä¼ł
l i
çº¿ è·¯
åĭ ĭ
.æŃ¤ å¤ĸ,
çı į
S E
çģ ¯
åľŁ åľ°
åİ ¦
åĩĨ å¤ĩ
u b
ç´ ¯
éĽ ķ
å² Ń
åĿ Ľ
èµĦ æºĲ
T he
è¾ ½
éļ Ĳ
æĬ ĺ
çļĦ æķ°æį®
.19 3
åĭ ĩ
3 9
åĩº äºĨ
è¡ ¡
UTC -
s e
ä½ĵ çļĦ
. åĲĮ
a y
æĸ¹ æ¡Ī
èı ľ
æĿ¥ æºĲ
ç»Ł ä¸Ģ
è¯Ħ ä»·
, ä¸ŃåĽ½
çĤ İ
è¯ķ åĽ¾
é½ ¿
æ¸ħ æľĿ
äºº ãĢģ
çĶµè§Ĩ åī§
,ä½įäºİ è¯¥åĽ½
å³ ¡
æ±½ è½¦
åİŁ æľ¬
I I
æ¾³ å¤§
å¤§ çº¦
å®ĥ ä»¬
åĮº ãĢģ
æĸ¯ çļĦ
åħ´ å»º
åŃ Ł
åħĦ å¼Ł
çļĦ æĥħåĨµ
éĵģ éģĵ
éĢī æīĭ
äºº åľ¨
çł´ åĿı
ãĢįãĢģ ãĢĮ
éģ £
.è¿Ļ äºĽ
é©¬æĿ¥ è¥¿äºļ
åįı è®®
ç£ ģ
æīĢ åľ¨
èĲ §
éĤ® æĶ¿
7 5
çĲ ³
åĽŀ åĪ°
C h
è½ ´
3 ,
æķ ¬
éļı èĳĹ
åĶ± çīĩ
ä¸º æ¯ı
è¿Ľ ä¸ĢæŃ¥
å£ ģ
åĪĿ æľŁ
çļĦ å½±åĵį
è¿Ĳ è¡Į
. .
4 6
éĹ´ ,
é¥ ®
ä¸» è§Ĵ
æĽ ¹
è ¦
, åıª
æĶ¹ ç¼ĸ
çĬ¹ å¤ª
æħ Ī
ç® Ń
è¿Ľ æĶ»
èĩª åĬ¨
å¹ »
è¡ Ķ
å¨ ±ä¹Ĳ
è¿ĺ æĺ¯
ç²¾ ç¥ŀ
æķ ı
å°ı åŃ¦
èµ ł
ç»´ æĮģ
éĴĪ å¯¹
ä¸Ń æĸĩ
, çĶ±äºİ
è§Ĥ ä¼Ĺ
æ¢ °
åŁº éĩĳ
åľº .
e m
è´ ¤
æ² Ī
åı Ľ
è¿Ľè¡Į äºĨ
åŁİ éķĩ
å¹³æĸ¹åįĥ ç±³,
, å½ĵ
æľº è½¦
18 8
å¤§ æ¥¼
ä¸Ĭ .
çĶŁ äºİ
ç»Ħ åĲĪ
ä» Ķ
æĢ» éĿ¢ç§¯
èĢħ .
è¿Ĳ èĲ¥
è´ ¾
ä¸» é¢ĺ
.19 6
äººåı£ æķ°éĩı
åľ¨ æŃ¤
è¾ Ĳ
ä¸į ä¹ħ
éĶ ĭ
ç¯ ®
çī¹ å¾ģ
çľģ çº§
å§ Ĳ
æŃ£ åľ¨
, åĪĻ
çº ¹
å¤ªå¹³ æ´ĭ
. ãĢĬ
éĥ¨ ä»½
åĬł ä¸Ĭ
å·ŀ çļĦ
èĹ ¤
è¢« è®¤ä¸º
çģ °
äº¤ æĺĵ
o c
v er
éĿ¢ çļĦ
ç©º åĨĽ
ç»¼ åĲĪ
åĨ ¯
å¤§ åŀĭ
è´Łè´£ ç®¡è¾ĸ
åıĮ æĸ¹
éĤ ĵ
ç¡® å®ļ
éĻ ķ
æ¾³å¤§ åĪ©äºļ
9 æĹ¥,
, å°±
, åįĹ
, èĩª
èµ ´
æķĻ ä¼ļ
% .
çŃ Ķ
æľī çļĦ
è§£ éĩĬ
ç¾İåĽ½ äººåı£æĻ®æŁ¥
è¯ģ æĺİ
åĽ¾ ä¹¦
ä»· åĢ¼
è¿Ķ åĽŀ
èĳ£ äºĭ
, æľ¬
,è¿Ļ äºĽ
è¦ Ĩ
åĲį åįķ
åİ ļ
æīĢ å±ŀçļĦ
ä¸º ,
å¾· éĩĮ
æĦŁ æŁĵ
åĪ Ģ
ç¨ĭ åº¦
äºĳ åįĹ
ä» °
3 2
æ³ ³
è° ±
æ¹ĸ åįĹ
æ³ķ åħ°
( P
ä¸» æ¼Ķ
ä½į ,
çļĩ å®¶
æ²³ æµģ
çĥ Ł
åĢ į
å°ı ç»Ħ
çİĭ æľĿ
çļĦ åīį
åħĥ ç´ł
å¼ķ åıĳ
å°Ķ å¾·
å¥³ åĦ¿
åĩ Ń
ä¿Ŀ çķĻ
çº µ
a p
æĹħ æ¸¸
æľ ĭ
æ¨¡ åŀĭ
é¦ĸ éĥ½
åħ¬ åħĥ
å¸¸ è§ģ
åľ°åĮº .
è¶ħ çº§
é ¬
æĺ¯ ä¸Ģç§į
è´¢ æĶ¿
èĴ ĭ
æ² Ł
ä¸´ æĹ¶
äººåı£æķ°éĩı ä¸º
åĩº èº«
çķ ª
åĬł åĿ¡
u t
å¤© æĸĩ
æī¹ åĩĨ
, åħ¨
. åĲĮå¹´
é«ĺ çº§
å¹´( 16
åĨ² çªģ
åĽ½ éĺ²
ç½ ķ
è®¨ è®º
å° ĸ
åĬĽ éĩı
æĺ¯ åĲ¦
ç¬¬ åħŃ
20 ä¸ĸçºª
ä½Ľ æķĻ
åĽ½ ä¼ļ
( E
çĳŀ å£«
åĲĮ æĦı
åĽ½æ°ĳ åħļ
åĽ½ åĨħ
æ¯ı å¹´
éĩįè¦ģ çļĦ
äºĨ ä¸Ģä¸ª
çłĶç©¶ æīĢ
çĶµå½± ãĢĬ
åı ¥
éĿ ĸ
,ä½Ĩ åľ¨
æľº åħ³
3 00
è¶ £
é© ¾
å¹´ è½»
å¤§ èĩ£
æ¡ ĥ
è®® éĻ¢
200 4å¹´
ç»ĵ åĲĪ
çļĦä¸Ģ ç§į
åĩ ¡
, åĲİæĿ¥
äº§ ä¸ļ
å·ŀ å¸Ĥ
è¾ ī
äºĮ ä¸ĸ
è· ³
æĸĩçī© ä¿ĿæĬ¤
,ä¸į è¿ĩ
åĬĽ çļĦ
9 .
æĸ° åĬłåĿ¡
æŁ ´
è¿ ħ
æĽ¾ åľ¨
å¤ĸ çļĦ
, è®©
åİ¿ çļĦä¸Ģä¸ª
æŃ¦ è£ħ
æĹ º
åĽ½ ç«ĭ
æĻ® éĢļ
ä¸Ĭ æĺł
200 0å¹´
ç¼ ĵ
çĨ Ł
8 .
, å½ĵæĹ¶
,å¹¶ äºİ
ä¸ª æľĪ
éĽĨ ä¸Ń
ç§ĺ ä¹¦
å»º æĪĲ
ä¸Ģ å¹´
åŁ Ķ
æ°Ķ åĢĻ
åįģ ä¸ī
, åİŁ
æİ ª
,äºİ æĺ¯
æĸ¯ åŁº
è§£æĶ¾ åĨĽ
, åı¯ä»¥
å¤§ ä½¿
ç¥ ¥
éģ Ĥ
æĺŁ æľŁ
å¥½ çļĦ
æ §
æĶ¶ åħ¥
åıĸ æ¶Ī
ç¼ĸ åı·
äºº æķ°
åľ¨ ç¾İåĽ½
æ½ ĺ
å°Ķ çļĦ
ä¸ĸçķĮ å¤§æĪĺ
æĸĩ ä»¶
æ³ķ .
æĬķ åħ¥
å¿« éĢŁ
æī¿ è®¤
an s
è¥¿ æ´ĭ
åı¯ è¾¾
èŃ¦ æĸ¹
an t
éĿŀ æ´²
( "
æĢ» éĥ¨
å·´ è¥¿
ç»´ äºļ
br &gt;
ãĢģ ãĢģ
èĩ³ å°ĳ
&lt; br&gt;
æł¸ å¿ĥ
. æľ¬
é¹ ¿
å¿ Ĩ
å¤§ å¤ļæķ°
äºĨ .
éļı çĿĢ
æĸĩçī©ä¿ĿæĬ¤ åįķä½į
è ©
6 5
ä» ĵ
æĿ¡ çº¦
4 7
åĭ ¤
é£İ æļ´
åĽ½ åĬ¡
ä¹ ı
èĭ Ĺ
ä¸į æĸŃ
èĥľ åĪ©
è¿Ļ æł·
ä¸į å°ĳ
èī² åĪĹ
æĢ» çĲĨ
èĭ± è¯Ń
æĸ¯ åħĭ
èĳĹ ä½ľ
c e
åŃ Ŀ
åİ Ħ
19 1
ç¼ ħ
åĪĽ ç«ĭ
æ³ Ĭ
åŃĲ çļĦ
éĩį å»º
äºº ,èĢĮ
9 æľĪ2
10 æľĪ2
è© ¹
æĹ¶ ä»»
ç§ Ĵ
ä»İ äºĭ
å¥¥æŀĹåĮ¹åħĭ è¿ĲåĬ¨ä¼ļ
æľª æĿ¥
æľī æķĪ
å¥¥ æĸ¯
è®¿ éĹ®
åĽ¢ éĺŁ
æĶ¿æ²» .
o g
è´ ¯
çĮ İ
çº¦ç¿° Â·
çĹħ æ¯Ĵ
åħ¬ æ°ĳ
è¥¿ çľģ
æ°ĳ ä¼Ĺ
åįĬ å²Ľ
æ±Ł èĭı
ä¸Ģ åº§
çļĦ å¸Ĥéķĩ
èİ ²
ä¸ŃåĽ½ äººæ°ĳ
æĶ¶ å½ķ
æħ ķ
åħģ è®¸
é©¬ åħĭ
å¹´ åº¦
æĴ Ĵ
, ä¹ĭåĲİ
èĳĹ åĲį
3 3
ç ŀ
æµĭ è¯ķ
çīĮ .
èĳ Ľ
è°ĥ æķ´
åĮĸ çļĦ
æĻ ¨
åİ¿ ,
ä¼ ı
ç¨ĭ åºı
çĵ ľ
éĥ½ ä¼ļ
å°ĳ å¹´
ä¹Ĳ åĽ¢
åĢ ¾
18 7
ä¸Ģ ä¸ĸ
æµ· å²¸
, æĽ´
.åħ¶ ä¸Ń
çİĭ åĽ½
èĽĭ çĻ½
10 æľĪ,
ç»ĵ å©ļ
éļ¶ å±ŀäºİ
æĻ ¶
éĥ½ æľī
u l
ç¬¬ ä¸ĥ
çĶµ èĦĳ
åģľ æŃ¢
çĶ¨ æĿ¥
æ¢ ¯
é«ĺ çŃī
ä»¥ ä¸Ĭ
æħ ¢
äºº (
åĵĪ å°Ķ
çĶŁæ¶¯ .
çļĦ çłĶç©¶
èī² ,
am p
éĺ¿æĭī ä¼¯
èĥ ģ
æİ¥ è¿ĳ
ä¸ĭ åįĪ
èĢĥ èĻĳ
è¡ĮæĶ¿åĮº åĪĴ
å±± èĦī
äºİ 198
( J
è´ º
åĬĽ .
å°¤ åħ¶
æ®ĸ æ°ĳ
åĩ Į
æĢĿ æĥ³
çĶµ åı°
ä¸ŃåĽ½ åħ±äº§åħļ
çĽ´ èĩ³
èĹ ©
åĳ¨ è¾¹
æĸ° å¢ŀ
ä¸Ģ å¸¦
éĤĢ è¯·
æµ ®
å§Ķ ä¼ļ
åĮ» çĸĹ
ä¸į åı¯
åīį ,
èµ· æĿ¥
(), åŃĹ
åħ³ æ³¨
æĸ¹éĿ¢ ,
ä½¿çĶ¨ çļĦ
ç´ «
åįģ åħŃ
ç¡ ķ
é¬ ¼
6 4
å¦Ĥ ä¸ĭ
çĶ³ è¯·
, å¯¼èĩ´
æĥ Ĭ
èħ ¹
in d
åİ¿ .
è§Ĥ å¯Ł
åĿ İ
åįģ äºĶ
æĺİ æĺ¾
åĨį åº¦
ç¥ĸ çĪ¶
æĶ¿ åħļ
5 5
åįģ åĪĨ
çĽ¸ ä¼¼
è¯¾ ç¨ĭ
å¡ ĳ
èĬ Ŀ
ä¹Ķ æ²»
åĮ Ī
æĢ ª
ä¿ Ĭ
åĲĪ çī©
å®ª æ³ķ
äºĭ ,
è¡¨ è¾¾
åħ±æľī äººåı£
åħ¥ ä¾µ
å£« åħµ
ä» ²
å®ī æİĴ
æĴ °
åĲ ¨
èĭ ¦
æ¯ķä¸ļ äºİ
a k
åĬ ±
ç½ ļ
åĪ° è¾¾
äººæ°ĳ æĶ¿åºľ
A T
å¨ģ å°Ķ
3 æľĪ,
å¥ ´
æĶ¯ æı´
ç§» åĬ¨
åŃ¦ æľ¯
æ³ ¥
æĴ ŀ
, è¥¿
ä¸į åĨį
18 6
3 æľĪ2
éĶĢ åĶ®
( B
å± ¿
åĢĻ éĢī
æĿ ī
è·¯ æĺĵ
çĽ Ĺ
% ,
æĭī åħĭ
å·¥ä½ľ .
ç¦ Ħ
0 å¹´,
éĩį çĤ¹
çĶ¨ çļĦ
æĹł çº¿
9 æľĪ,
è¯ ¦
1 æľĪ,
ä¸ §
ä¼Ĭæĸ¯ åħ°
å Ĺ
. æľī
12 æľĪ2
åºĶ è¯¥
çĨ Ĭ
âĢĿ ãĢģ
, ãĢĬ
ãĢĭ åĴĮ
æĹ ¨
è¥¿ åĵ¥
çī¹ çļĦ
, ä¸ľ
8 æľĪ2
ä»¥ èī²åĪĹ
ç¢ į
çļĦæĹ¶ åĢĻ
çİ° è±¡
å¦» åŃĲ
éģĹ åĿĢ
çĹ Ľ
ä¸º æ³ķåĽ½
ä¼ļ ,
çĶ¨ æĪ·
åıĺ æĪĲ
ç² Ĵ
åľ° åĪ©
èī² çļĦ
çĮ ª
å°± è¯»
åı¯èĥ½ æĺ¯
éĩĳ å±ŀ
æĹ§ å¸Ĥéķĩ
6 æľĪ2
æĬµ è¾¾
. åĽłæŃ¤
åįģ åĽĽ
æĿĲ æĸĻ
æĹ© å¹´
é ī
12 æľĪ,
, è¿ĺ
éĤ®æĶ¿ ç¼ĸçłģ
ä¹ ³
æĢ» çĿ£
è´¨ éĩı
éĺ ħ
æıĲ åįĩ
ä¸į æĺİ
çĦ ¦
4 9
æŀĦ æĪĲ
å°ĳ æķ°
åįģ åħ«
åīį çļĦ
èģĮ åĬ¡
a b
åº Ĭ
è· ĥ
çĩ ķ
å®ī è£ħ
æŁ ³
åı· .
ç¨³ å®ļ
8 æľĪ,
åį« æĺŁ
å½ Ń
20 æĹ¥
æ± ¡
äººåı£å¯Ĩåº¦ ä¸ºæ¯ı
é«ĺ çļĦ
éĢĿ ä¸ĸ
å·¥ åİĤ
ar d
æŁĲ äºĽ
æ¯Ķ åĪ©
äºĭ .
30 æĹ¥
å± ı
å¹´ ä»£
æ¡ Ĥ
é Ħ
èĪ Ĵ
çº¿ .
ä½ĵ ç³»
æģĴ æĺŁ
æĬ ļ
çī© è´¨
åĴ ¸
é¡ µ
å¡ ĺ
å»º äºİ
å¤± åİ»
7 æľĪ,
ä»ª å¼ı
åĿ Ĭ
ä½ĵ .
SE E
å¥¥ åľ°åĪ©
éī ´
200 3å¹´
éĻĨ åľ°
äºİ19 7
åĩ½ æķ°
äºº /
åĩº åı£
ç¤¾ åĮº
çĶ ¸
ç§ĳ çļĦ
åĪĽ åĬŀ
ãĢģ (
æİ ī
éĶ ģ
çĤ¹ ,
éĺŁ çļĦ
å¢¨ è¥¿åĵ¥
æĸ¹ çļĦ
å»º åĪ¶
èĢħ ,
ä½¿ å¾Ĺ
,ä½įäºİ æ³ķåĽ½
åĲ ĥ
æľĭ åıĭ
è° ĵ
æĲ ľ
æĵį ä½ľ
æİ¥å£¤ çļĦå¸Ĥéķĩ
è¯ ļ
æĸ ĳ
æĸĩ ç«ł
éģĵ .
èĲ¨ åħĭ
IN SEE
äºĭ ä¸ļ
æĦı è¯Ĩ
æĻ® éģį
å¤« Â·
æ°§ åĮĸ
, âĢľ
çº ¬
ç ĺ
çļĦ å°ı
ç§» æ°ĳ
6 æľĪ,
æ¯ı å¹³æĸ¹åħ¬éĩĮ
ç¿» è¯ĳ
4 æľĪ2
å¨ģ èĥģ
æ¯ı ä¸ª
å¾Ĺ ä»¥
èĤ ĥ
å°ļ æľª
åĬŀåħ¬ å®¤
4 æľĪ,
æľĪ1 5æĹ¥
å¹¿ åĳĬ
) åľ¨
7 æľĪ2
åħ¥ åı£
æĹł äºº
æ¡Ī ä»¶
è¯ ŀ
çĶ¨ .
åŀ Ĵ
æĹ ¢
æĮ Ĥ
æľº æ¢°
t o
èĥ ¶
éļ §
å¹³ éĿ¢
11 æľĪ,
æĪĸ èĢħ
( ;
ä¾ĭ ,
çĬ¶ åĨµ
æ¶Ī æģ¯
å¦Ĥ æŃ¤
ä¼ļ çļĦ
éģĹ äº§
åı¬ å¼Ģ
4 4
è¡ĮæĶ¿ .
ä¸¤ äºº
äº¤ æµģ
, çĽ´åĪ°
å¾ ª
è¡¨ æĺİ
æĦı ä¹ī
æ°ĳä¸» åħļ
, çĦ¶åĲİ
æĮĳ æĪĺ
200 2å¹´
10 æĹ¥
äºĨ ãĢĬ
å¯¹ æīĭ
æıĲ é«ĺ
, åĨį
, æľĢåĲİ
å¼ ĺ
èģĶåĲĪ åĽ½
çľĭ åĪ°
åĭ ĥ
è¯´ æ³ķ
æķ° åŃĹ
èģĶ ç³»
çķ Ķ
çļĦæķ°æį® ,
æĶ¿æ²»äººçī© .
åĽ¾ä¹¦ é¦Ĩ
æħ §
ç¦ģ æŃ¢
åĮħæĭ¬: .
åħ¥ éĢī
æ´»åĬ¨ .
åħĥ ,
ãĢģ æĿİ
åĮĹ ç¾İ
ä¸į è¶³
èº« ä½ĵ
æłĩ å¿Ĺ
ç¬¬ 1
å¤Ħ çļĦ
çĲĥ åľº
å¹³æĸ¹åħ¬éĩĮ, æµ·æĭĶé«ĺåº¦
åģ¥ åº·
, ä½ĵ
æĭ ĵ
å² ³
å¸ĥ æĭī
åĪĽ éĢł
å± ¯
èĳ¡èĲĦ çīĻ
å®¶ ãĢģ
ç¥ Ŀ
ç±³ å°Ķ
è¢ ĸ
åıĳ çĶµ
ä½¿çĶ¨ .
åľŁ èĢ³
ä¹ ¾
çº ·
éĩĮ ,
( D
ä¸¤ ç§į
æ£® æŀĹ
æĹ¶ ).
æĪ Ĵ
äººåı£å¯Ĩåº¦ æ¯ıå¹³æĸ¹åħ¬éĩĮ
åľŁèĢ³ åħ¶
n e
åŃĹ æ¯į
æį Ĳ
æ° ¢
i e
ç® ±
èĩªæ²» åĮº
å¤± è´¥
. åĲİæĿ¥
. èĻ½çĦ¶
å¹´ )
å¸Ĥéķĩ ç¼ĸçłģ
ä¸º, INSEE
éĤ®æĶ¿ç¼ĸçłģ ä¸º,INSEE
å¸Ĥéķĩç¼ĸçłģ ä¸º.
éĤ®æĶ¿ç¼ĸçłģä¸º,INSEE å¸Ĥéķĩç¼ĸçłģä¸º.
äººåı£æķ°éĩıä¸º äºº.
5 æľĪ,
ãĢ İ
çī¹ æ®Ĭ
åĮ» åŃ¦
åŁİåĮº )
ãĢ ı
åħ ½
çĳŀ åħ¸
çļĦ é¦ĸ
åį ĳ
äºİ æĹ¶çļĦ
å®¶ .
() éĿ¢ç§¯
äºİæĹ¶çļĦ äººåı£æķ°éĩıä¸ºäºº.
ç±³ çļĦ
åĪĹ ä¸º
æ£ ĭ
ä¸Ģ åĲĮ
, åĪĨåĪ«
å¤ıä»¤ æĹ¶).
çļĦæĹ¶åĮºä¸º ãĢģ(
äººåı£å¯Ĩåº¦ä¸ºæ¯ı å¹³æĸ¹åįĥç±³
çļĦæĹ¶åĮºä¸ºãĢģ( å¤ıä»¤æĹ¶).
åĲĮ ä¸Ģ
æĻ ĵ
å½ĵåľ° åħ±æľīäººåı£
äºº,èĢĮ äººåı£å¯Ĩåº¦ä¸ºæ¯ıå¹³æĸ¹åįĥç±³
çĶŁ åĳ½
åİ¿ ãĢģ
æ²³ åĮĹ
äºº å¤§
åľ ³
èĩª è¡Į
åį ¿
æµ ħ
ä¸ľ è¥¿
ãĢģ åŁİåĮº)
é«ĺ ä¸Ń
å»¶ ä¼¸
(æĪĸ æĹ§å¸Ĥéķĩ
æİ¥å£¤çļĦå¸Ĥéķĩ (æĪĸæĹ§å¸Ĥéķĩ
ãĢģåŁİåĮº) åĮħæĭ¬:.
æİ¥å£¤çļĦå¸Ĥéķĩ(æĪĸæĹ§å¸Ĥéķĩ ãĢģåŁİåĮº)åĮħæĭ¬:.
å¼º è°ĥ
,è¿Ļ æĺ¯
éħĴ åºĹ
çľģ ,è¯¥
çľģçº§ éĢīåĮº
æīĢå±ŀçļĦ çľģçº§éĢīåĮº
çľģ,è¯¥ çľģä»½
å¸ĥ é²ģ
åį« çĶŁ
å¹¶ æ²¡æľī
çľģ åĴĮ
()éĿ¢ç§¯ ,ä½įäºİæ³ķåĽ½
åĬ¨ åĬĽ
åĲĦ åľ°
ç¼ĸ è¾ĳ
çľģ,è¯¥çľģä»½ ä¸ºæ³ķåĽ½
æīĢå±ŀçļĦçľģçº§éĢīåĮº ä¸º.
æĭī Â·
å¥ĸ é¡¹
. ä¸įè¿ĩ
ä¸Ń å±±
11 æľĪ2
çĽ® çļĦ
éľĢ æ±Ĥ
åĳ½ ä»¤
éģ¿ åħį
6 8
æĬ¥ å¯¼
åıĹ ä¼¤
èĲ¥ è¿Ĳ
ä¼° è®¡
è½° çĤ¸
åıĪ ç§°
ç¼º ä¹ı
æľ¬ åľŁ
è¿ħ éĢŁ
æĹ ¦
åıĳ èµ·
ä¸Ģ å®¶
æµ· åŁŁ
R e
æī °
18 æĹ¥
æĲ ¬
æ³¨ æĦı
æ¬¢ è¿İ
æĶ¿ æĿĥ
éĩĮ çļĦ
ä¸» å¼ł
åİĨåı² ä¸Ĭ
å¹¶ æľª
éĥ Ĭ
åī ©
äºİ19 4
è¾¾ æĪĲ
æĸ¯ å¡Ķ
åĲ¸ å¼ķ
çĹĩ çĬ¶
ä¿¡ åı·
æı Ĵ
é² į
åĸ Ģ
å¤ĸ åĽ½
çŁ¥ éģĵ
è§Ħ åĪĻ
åĽĽ ä¸ª
ä»ĭ ç»į
S A
äºº åĴĮ
å®ī å¾·
ä¹ĺ å®¢
ç¾İåĽ½äººåı£æĻ®æŁ¥ çļĦæķ°æį®,
éĩĳ èŀį
æķĻ ç»ĥ
å¿ĥ çĲĨ
, çĶļèĩ³
æĿ Ĩ
æĴ¤ éĶĢ
çİ »
ä¾ ¦
éľ ¸
ä¸ ²
is t
å°¼ æĸ¯
è´ ŀ
åı¯èĥ½ ä¼ļ
æķ° åŃ¦
éĥ¨ èĲ½
å´ İ
å¸Ĥ çļĦ
ä¹Ł åľ¨
æĽ´ åĲįä¸º
31 æĹ¥
T V
an g
ç¬¬ 2
5 æľĪ2
åĳĺ .
éĵ ¾
ä½ľåĵģ .
æĦŁ åĪ°
- 1
åħ¬ ä¼Ĺ
æ¬ ²
å½¼ å¾Ĺ
èĥ İ
èµĽ .
åħĥ å¹´(
æķĪ åĬĽ
äºº/ å¹³æĸ¹åħ¬éĩĮ
A n
äºĭ å®ŀ
4 00
çĶŁ éķ¿
å°Ķ åħ°
æķĻ å¸Ī
ä» ¿
ç«Ļ .
éĩĩ åıĸ
æİ¨ åĬ¨
,èĢĮ æĺ¯
æķĻ åŃ¦
es t
æµ ĵ
è ¹
åįĹ åĮĹ
èĳĹ åĲįçļĦ
å¤§ è¥¿æ´ĭ
èµĦ è®¯
è´Ń ä¹°
ä¿¡ ä»°
æī§ å¯¼
æŀ ¢
é¼ ł
ä¸Ńåħ± ä¸Ńå¤®
æĸ¯ èĴĤ
çļĦä¸Ģ åº§
( å¦Ĥ
è¯ ¢
çļĦ æĸ¹å¼ı
ä¼ Ļ
ç¥ŀ ç»ı
åľ¨ 199
å½ »
èĽ ĩ
åį ĵ
æĶ¾ å¼ĥ
4 ,
åŁº åľ°
çİ° åľº
çļĦ éĤ®æĶ¿ç¼ĸçłģä¸º,INSEEå¸Ĥéķĩç¼ĸçłģä¸º.
æĬ¥ éģĵ
12 æĹ¥
ä¹ĭä¸Ģ ,
æĴŃ æĶ¾
19 æĹ¥
éĩį åºĨ
åĵģ çīĮ
åı¦ å¤ĸ,
çļĦ åĲĮ
2 æľĪ2
åįģ åŃĹ
âĢĿãĢģ âĢľ
å¤§ éģĵ
æ³ķ æ¡Ī
. ä¸İ
æĺ¯ âĢľ
ç¨ĭ å¼ı
åıĤ èĢĥ
çļĦ ç¬¬ä¸Ģ
è´¡ çĮ®
æĭ ³
ç½ĳ è·¯
åĩº æĪĺ
æīĵ åĩ»
åĳ½ åĲį
å£ ®
èĭ± éĽĦ
å®¹ æĺĵ
) ;
ç±³ (åį³
. åĲİ
11 æĹ¥
ç¬ ĳ
åİ ĺ
åĨĽ çļĦ
æ³° åĽ½
åįĹ æŀģ
ç§¯ æŀģ
æĵ İ
æĬĹ è®®
åĸľ æ¬¢
åĽ½åĬ¡ éĻ¢
ä¸Ģ åº¦
æı Ń
åī ²
äºĭ æķħ
, éĿ¢ç§¯
ä¸Ģ æĿ¡
å¥ĸ .
ä¹Ŀ é¾Ļ
å¤º å¾Ĺ
çī ł
è¯ģ æį®
äºİ19 6
æĢ§ è´¨
æİ¥ è§¦
äº Ń
éĺŁ ä¼į
N A
æ´ Ĺ
åį ľ
è£ħ çĶ²
æī ®
å° Ŀ
èµ Ĳ
. ä»İ
å¤ļ ç§į
çŁ¥ è¯Ĩ
å±Ĭ åħ¨åĽ½
åį¡ å°Ķ
èĤ º
. æį®
äºİ19 5
çĶŁ æĢģ
å¼º çĥĪ
æ¹ĸ åĮĹ
çª Ĺ
èĬ ³
æĮ ª
å®ī å¾½
å±ķ ç¤º
2 æľĪ,
çĸ ı
å¤į æĿĤ
èĢĮ è¢«
æ¶ī åıĬ
æĽ´ å¤ļ
æľ¬ èº«
ä¸ĸçķĮ æĿ¯
çł ²
å®Į æķ´
èı² å¾ĭ
æĿĥ åĬĽ
çļĦ åİŁ
éĩĮ äºļ
èı²å¾ĭ å®¾
äºº å·¥
æĿ Ń
è¥¿ æĸ¹
å¸Ĥ åĮº
åĪĿ ,
ç§°ä¸º ãĢĮ
çŃī ,
ç»´ å¥ĩ
èģĮ .
ç¾½ æ¯Ľ
çİ Ħ
ä¸ĩ ç¾İåħĥ
åħ¬ ä¸»
çĪ± å°Ķåħ°
è´ «
èį¯ çī©
æĬ ¢
åħ¶ å®ĥ
ç¾İ æľ¯
åħī ç»ª
.ä»ĸ åľ¨
, èİ·å¾Ĺ
ä¸į å¾Ĺ
èĢĮ æĪĲ
,ä»İ èĢĮ
æĺ¯ ãĢĮ
æĸĩ çĮ®
æĿĳ åºĦ
æĦı è§ģ
è± Ĩ
éĢ Ĵ
å¤© ,
ä¸ī å¹´
æĿ¥ ,
éĵ º
5 8
ä»Ģ ä¹Ī
å²ģ .
1 æľĪ2
æ¸ Ķ
å¸Ĥ æ°ĳ
å¼ķ æĵİ
éĢ Ĩ
åĨħ éĺģ
in e
åŁĥ åıĬ
å½±åĵį .
å£ ³
æĿĥ åĪ©
æĹħ å®¢
å« Į
è´ ´
é«ĺ éĽĦ
çļĦ éĩįè¦ģ
åŃ¦ ä½į
æ¹ ¿
t e
æĬ ½
é¢Ĩ åľŁ
çĬ ¬
å®¢ è¿Ĳ
çĪ¶ æ¯į
ç®Ģ åįķ
çļĦ æµ·
å¾ĭ å¸Ī
æº ¶
æİĪ äºĪ
æİª æĸ½
è¡¨ éĿ¢
æĭī ä¸ģ
éĽ ĩ
æľº ä¼ļ
çĮ «
æľĢåĲİ ä¸Ģ
ç®Ģ ä»ĭ
æ°ĳ éĹ´
å¦ ĥ
ä¹¾ éļĨ
åĴĮ åħ¶ä»ĸ
éķ¿ åº¦
èŀ º
èĤ¡ ä»½
, ä»ħ
æķĪ æŀľ
çŃ¾ ç½²
èģ ĺ
è±¡ å¾ģ
å¯ Ħ
ç² ®
åıĳ åĶ®
èį£ èªī
æĸ¯ æĭī
åľ° éľĩ
ä¼ł è¯´
è½¦ç«Ļ .
å° ī
éĻį ä½İ
; èĢĮ
å£° ç§°
o b
é£ ĵ
æ·± åľ³
æĤ ¬
å½¢ è±¡
åħĭ ç½Ĺ
l y
äºļ åİĨ
ç¡® è®¤
ç¡® è¯Ĭ
4 2
ä¹Ł è¢«
å¦Ĥ ä½ķ
å· §
åĽł ç´ł
æĿ¥ åĪ°
åħ¨ éĿ¢
æ°´ å¹³
ç¢ ³
æĮī çħ§
çĬ¯ ç½ª
åĨłåĨĽ .
é£ĵ é£İ
çĽ ¾
åıĳ åĩº
å·ŀ ãĢģ
çĪĨ çĤ¸
åı Ķ
è¿ Ł
æľĪ1 6æĹ¥
å°ı çļĦ
é¢Ĩ è¢ĸ
åĮ» çĶŁ
ç«ŀ äºī
è¢ ģ
è¯´ :âĢľ
çĶŁæ´» .
çħ ¤
t w
æĹ¶æľŁ ,
æľī æīĢ
åĩºçİ° åľ¨
å®¶ ,
å·® å¼Ĥ
åŃ¦ ä¼ļ
ä¼ł æĴŃ
( H
è·¯ ãĢģ
ç¨ ¿
åħĥ .
å® ı
æ´ ģ
ä¸ĵ éĹ¨
æľĪ1 7æĹ¥
6 7
ä¸ Ī
æĸ ľ
ä¸ĭ .
æĸĩ åŃĹ
ä¼Ĭ æľĹ
åıĻ åĪ©äºļ
åĨĽ .
ç¾ Ĭ
åı¤ ä»£
æ°Ķ è±¡
ä¸ Ļ
å·¥ åħ·
ä¹¡ è¯ķ
åŁºçĿ£ æķĻ
O S
æĿ¥ .
: 00
åĲİ æľŁ
æ¯« ç±³
èµĦ éĩĳ
Â °
åı° åįĹ
éļ§ éģĵ
, ä¸Ĭ
= "
æĪı åī§
çī µ
èĨ ľ
èħ ¾
å½ĵæĹ¶ çļĦ
é«ĺ äºİ
èµ· æºĲ
æĬ ¼
å° ¸
åıª æĺ¯
å°ļ ä¹¦
. ä»ĸä»¬
æ²³ çķĶ
æįŁ å¤±
æľĪ22 æĹ¥
ï ½
çļĦ åľ°æĸ¹
åĨ Ĵ
ä»¥ ãĢĮ
å¡ «
ç»Ļ äºĪ
åıª èĥ½
è¾¹ çķĮ
åı°åĮĹ å¸Ĥ
é³į é±¼
, åĪĨå¸ĥäºİ
ãĢģ å¼ł
å¸Ī èĮĥ
çĸ¾ çĹħ
è¾ ©
ä¸º ä¸Ģ
çĽ¸ æ¯Ķ
åĿ¦ åħĭ
ä¸į æ»¡
è®¤ä¸º ,
éĹ®é¢ĺ .
ç»ı éªĮ
å°Ķ çī¹
éĿ¢ å¯¹
çĲĨ äºĭ
è¡ į
å¹¶ éĿŀ
18 5
( G
, æĶ¹
1 -
o k
å¥ ĳ
è£ ķ
éĴ ¦
B C
( L
a v
ä½ľ æĽ²
äº¨ åĪ©
ä» ĳ
è¡ °
å§ »
ä¸ľ åĮĹéĥ¨
åĩº å¸Ń
, åį´
æ° Ł
ç½ ¢
æľ¬ ç«Ļ
è¸ ª
åĪĹ è¡¨
éĢĢ å½¹
å·¡ åĽŀ
æľĪ1 4æĹ¥
å²ģ çļĦ
åĪĽ å»º
é¸ ¡
æĺİ æ²»
çĻ» éĻĨ
æĢ§ åĪ«
æĪĲä¸º äºĨ
, çĽ®åīį
èĮ Ĥ
ä½ı å®ħ
ç®Ģä»ĭ .
9 9
è ²
çĲ ī
( T
, 199
ãĢĭ çŃī
åľ° éĿ¢
åŃ© åŃĲ
åĪĹ åħ¥
åĽŀ åºĶ
åħĭ èİ±
æľĪ21 æĹ¥
åİ¿ äºº,
å® Ļ
ç«Ļ åı°
åı¸ æ³ķ
çİĩ é¢Ĩ
è´µ æĹı
èĪŀ åı°
åĩł ä¸ª
è½¬ ç§»
ç¤¾ä¼ļ ä¸»ä¹ī
, è®¤ä¸º
å¦ Ī
å®ŀ è¡Į
å£° æĺİ
åĨ¬ åŃ£
åŁº åĽł
ä¸¾è¡Į çļĦ
ç² ¹
æĪĺ åĲİ
èĭ± å°º
çĶµ è½¦
ç§į æĹı
æ¾³ æ´²
èµĦæĸĻ .
æµ· æ´ĭ
èĤ ¥
å¨ľ Â·
çļĦ é«ĺ
äºİ æĺ¯
å°ı åŀĭ
çº¦ ä¸º
åıĤ è°ĭ
åĸ ·
åħ³ éĹŃ
æĽ´ åĬł
ç¬¬ åħ«
åĳ½ åĲįä¸º
èį Ĵ
æµģ åŁŁ
åĥ §
, èĩ³
3 ä¸ª
ä¸ľ æĸ¹
å¤§ ,
æĪĲ æľ¬
Y ou
åįģ ä¸ĥ
7 8
éĺŁ .
è£ħ ç½®
ä¿® æĶ¹
è¾ĥ ä¸º
ãĢģ éĻĪ
) ä¸İ
æ ĩ
éģ µ
çĭ Ħ
ç¤º å¨ģ
åį¢ çĵ¦å°Ķ
A l
ä¸Ģ å®ļ
åľ°åĮº ,
( R
å½¢ æĢģ
çĸ« æĥħ
éĹ´ çļĦ
, åīį
æµ ©
ar t
åıĳè¡Į .
æīį èĥ½
ãĢĭåĴĮ ãĢĬ
åıĺ å¾Ĺ
å·ŀ ,
ç¡ķ å£«
å½ĵ å±Ģ
åıĤåĬł äºĨ
èĬ¬ åħ°
é¸ ¿
å´ Ķ
åħ³ç³» .
çİĽ ä¸½
ç¬¦ åĲĪ
é©± éĢĲ
æĦı æĢĿ
æľĪ1 3æĹ¥
é«ĺéĢŁ åħ¬è·¯
æľº åĻ¨
æµĭ éĩı
h a
é³įé±¼ çº²
ãĢĭ æĺ¯
æŃ£ å¸¸
ãĢģ çİĭ
å¸ ħ
éĢļ è½¦
æĮĩ å®ļ
èİ« æĸ¯ç§ĳ
æĸ° çĸĨ
çļĦ ä¸ī
å² Ĺ
çļĦ åĽ½å®¶
) åıĬ
åı¦ ä¸Ģä¸ª
é¥ Ń
. æĢ»éĿ¢ç§¯
é¡¾ éĹ®
å¼Ģ è®¾
æĥħ æĬ¥
6 6
èĭı æł¼åħ°
, åĴĮ
å¼ ¥
åįģ ä¹Ŀ
ä¸Ń æľī
éħį åĲĪ
é£Ł çī©
æ·· åĲĪ
æĢ Ĵ
èī² .
ç§° âĢľ
æĶ¹ éĢł
æ¶ µ
å§Ķ ä¹¦è®°
æĶ¶ è´Ń
åĵ² åŃ¦
ä¿ ĺ
å¾Ī å¿«
åħ¬åı¸ çļĦ
ä¸ĵè¾ĳ ãĢĬ
è¾Ĳ é³įé±¼çº²
èĢ Ĺ
åľº ,
çģ« ç®Ń
éĻĨåľ° éĿ¢ç§¯ä¸º
9 5
åĪĨ éħį
æ°´åŁŁ éĿ¢ç§¯ä¸º
æ¬ £
æ¶ ¦
u p
), èĢĮ
è¯´ æĺİ
åŃ ¤
ä¹Ł ä¼ļ
æľº .
åĲİ, ä»ĸ
éħį éŁ³
èĢ Ģ
h t
å¼Ģ éĢļ
åĮĪ çīĻ
æŃ ĩ
éķĩ åĮº
è¥¿ èĹı
åıĳçİ° äºĨ
ä½ľ èĢħ
çŁ ¶
çĭ Ĥ
æķ´ ä½ĵ
( N
åĪĨ .
æ³ķ å®ĺ
éĻĦè¿ĳ çļĦ
èµ ¶
å¯¼ å¼¹
è¡ĮæĶ¿åĮºåĪĴ .
æĮª å¨ģ
åĮĪçīĻ åĪ©
es s
8 8
éķ¿ åı¯è¾¾
15 0
åĤ ħ
èĢĮ è¨Ģ
å¯¹ è±¡
ç¥ Ģ
æĥ ¯
è£ħ å¤ĩ
çĭ ®
7å¹´ )
éĻ Ģ
åº· çĨĻ
å¯ ¸
ç¿ Į
ï½ ŀ
æľĪ1 5æĹ¥,
æµ· å¤ĸ
åħĭ æĭī
, åħ±
è¯· æ±Ĥ
æıĲ åĪ°
æĶ¹ åĸĦ
æģĲ æĢ
i k
å¯¹ æŃ¤
çĶ¨ ä½ľ
åĬ¨ ä½ľ
æµ· å³¡
åŀ Ĥ
5å¹´ )
,åħ¶ åĲİ
.è¿Ļ ä¸ª
æĪĺ çķ¥
ç¥¨ æĪ¿
amp ;
å½ĵä¸Ń éĻĨåľ°éĿ¢ç§¯ä¸º
å¹³æĸ¹åįĥç±³, å½ĵä¸ŃéĻĨåľ°éĿ¢ç§¯ä¸º
& amp;
åľ¨ åħ¶
ä¸Ģ éĥ¨
,èĢĮ æ°´åŁŁéĿ¢ç§¯ä¸º
å¹³æĸ¹åįĥç±³ ,èĢĮæ°´åŁŁéĿ¢ç§¯ä¸º
ç§ĺ å¯Ĩ
ä¸ĭ éĻį
çĶµ åĬĽ
çĹħ ä¾ĭ
ç½Ĺ ä¼¯
èĦ Ĥ
er s
å¤ ·
åİ ¢
æŁ Ķ
ç² ¤
äºļåİĨ å±±
åĬ³ åĬ¨
åľ° çĲĨ
ä¸ľ åįĹéĥ¨
æłĩ ä¸º
æŃ¦ æ±ī
æĤ ī
ç¼ħ çĶ¸
åįİ çĽĽ
çĭ Ĺ
éĤ£ éĩĮ
éĢĢ ä¼ĳ
i p
åľ° ä½į
å®¶ çļĦ
å¸Ĥ éķ¿
äº¦ æľī
ãĢģ åįĹ
å¹¿ä¸ľ çľģ
äºĮ å¹´(
å¸ĥ å°Ķ
åĩº æ¼Ķ
å§ ļ
èµ· ä¹ī
åĽŀ å½Ĵ
æ» ļ
æŃ¥ åħµ
è¦Ĩ çĽĸ
å¼Ģå§ĭ ,
ç¼ĸ åī§
ç¢ İ
éĢ ¢
è§Ĥ æµĭ
ç§ģ äºº
æľĢ è¿ĳ
å°Ĩ ä¼ļ
çĮ Ľ
,ä½¿ å¾Ĺ
æī¾ åĪ°
, åı·
, éļıåĲİ
åľ¨ æĹ¥æľ¬
æ¯Ķ ä¾ĭ
4å¹´ )
u e
åľ° åĽ¾
B A
çĲĥ ä¼ļ
æ·± åº¦
åľº æ¯ĶèµĽ
çģ Į
.ä½Ĩ æĺ¯
æİ¨ è¿Ľ
åįİçĽĽ é¡¿
.ä»ĸ æĽ¾
é¢Ħ è®¡
å½ °
ä»» èģĮ
èĬ Ĵ
åĲĪ çº¦
åħ´ è¶£
æĳ ĩ
å®ŀéĻħ ä¸Ĭ
åĪ ¸
æľī ä¸Ģä¸ª
ä¸ĩ äºº
çľŁ æŃ£
ç»ı åħ¸
éĥ¨ çļĦ
ç¬¬ 5
å¹¿ è¥¿
è¯ķ éªĮ
åº ŀ
ç»Ħ å»º
åĳ¨ åĽ´
åĨħ ,
éĩį å¤§
é£İ éĻ©
æºĲ èĩª
å°Ŀ è¯ķ
ä¿Ŀ åŃĺ
å®ĥ çļĦ
åĬł çĽŁ
å¼ķ åħ¥
æĬķ éĻį
éĺ² å¾¡
å¾¡ åı²
æłĸæģ¯ åľ¨
ow s
å¹¶ åħ¥
æ» ©
èĬ± åĽŃ
æĿĢ æŃ»
i f
ç¬ ¼
å¹¶ ä¸Ķ
å» Ĭ
, ãĢĮ
ä¼ ª
åĳ İ
çĶŁ çļĦ
ç¬¬ 3
ç¾İ åĨĽ
åģ ·
å²Ľ å±¿
åĪ¶ çļĦ
åĮĹäº¬ å¸Ĥ
âĢ¦ âĢ¦
éĺ ª
å¸¦ æĿ¥
æľī æĹ¶
, åĲĳ
10 æĹ¥,
èį Ĳ
éļı åį³
å¹´ éĹ´
æľĢ å¤ļ
ä¸Ĭ åįĪ
å¥ İ
åĬŀ äºĭ
è´£ ä»»
è©¹ å§Ĩ
ä»£è¡¨ å¤§ä¼ļ
éĢ »
èĤ ĸ
.ä»ĸ çļĦ
å£° éŁ³
ä¸º æŃ¢
éħ ¶
å¤Ħ .
å¹´ é¾Ħ
è®º æĸĩ
çĶ¨ éĢĶ
éĩĮ æĸ¯
,å¹¶ å°Ĩ
åİĭ åĬĽ
çı Ĭ
ä¾ ł
è¿Ļ æĺ¯
3å¹´ )
æ¸© åº¦
è®² è¿°
åĲ ¾
Â· éĺ¿
äº¿ ç¾İåħĥ
çħ§ çīĩ
çļĦ ä¸Ń
çļĦ æĹ¶éĹ´
æľī äºº
æŀ Ŀ
è¿Ĳ ä½ľ
ä¿ĥ è¿Ľ
ä»£ çłģ
åľ¨ è¿Ļ
ä¼ĺ åĬ¿
W ind
å¤§ è§Ħæ¨¡
å¾Ĺ çŁ¥
æĮĩ å¯¼
è½¯ ä»¶
è§£ æķ£
è¢«è®¤ä¸º æĺ¯
åĲĮ çĽŁ
æĢ§ ,
æ¹ ĺ
ç¿ ģ
è°Ī åĪ¤
çĴ ĥ
èµ ĭ
éļľ ç¢į
, éķ¿
åĲį ä¹ī
; -
18 0
å¨ ĥ
åĵ¥ ä¼¦
å¤ıåŃ£ å¥¥æŀĹåĮ¹åħĭè¿ĲåĬ¨ä¼ļ
å¤ļ å¹´
ä¸ŃåĽ½äººæ°ĳ è§£æĶ¾åĨĽ
æŀĦ éĢł
éĺ Ķ
èĥ ¸
å·ŀ .
çº¢ èī²
éļ¾ ä»¥
4 3
å¼ ¦
æģĲæĢ ĸ
çļĦ ä¸¤
æĮĩ æİ§
éŃ Ĥ
åį µ
æľī äºĽ
æł ı
äºĨ è§£
A R
ä¸ĩ åİĨ
A M
- zh-h
ä» ĩ
ic e
,å¦Ĥ æŀľ
çŁ¥ åĲį
9 8
ä¸Ĭæµ· å¸Ĥ
el l
åİĨ ä»»
åĲ Ĳ
ä¹ĭ å¤ĸ,
B S
æ±Ł è¥¿
I C
g e
æľ ´
åıĳå±ķ .
é©¾ é©¶
éĤ£ äºĽ
åĲ ı
ä¸ī è§Ĵ
è¯Ń çļĦ
éĩı çļĦ
åı ł
æ· ĺ
ç½ĳ çĲĥ
æĹĹ ä¸ĭ
( ).
7 6
éĤ ¨
20 æĹ¥,
æ³¨ åĨĮ
å©ļ å§»
ä¸Ģ é¢Ĺ
, æĢ»
æĪĸ æĺ¯
.è¿Ļ ç§į
å®ĩ å®Ļ
æī® æ¼Ķ
åħ¬ åĪĨ,
åı° ä¸Ń
å± ł
åĮĸ çŁ³
åĬł å¼º
æĳĦ å½±
ç¡ «
é©¬ æĭī
ãĢģ ä¸Ń
èħ Ĳ
éĶĻ è¯¯
ä¸ī å¹´(
é©¬ å°Ķ
æĲ º
æ¼ĶåĶ± ä¼ļ
èĪ ±
åı° é£İ
åĩº .
æķĻ åĮº
æ·¡ æ°´
s p
6å¹´ )
å½ ¦
å¤ª ç©º
ç³»ç»Ł çļĦ
è¥¿ åįĹéĥ¨
æŁı æŀĹ
b o
åħĭ çļĦ
èĦ Ĭ
æľį å½¹
åĲĪ æĪĲ
éĻĨ ç»Ń
éĢ ®
è² Į
æī© å¤§
æĺ¯ æĮĩ
åĺ ´
åĪ¶ .
18 4
é¹ °
åĬł åĪ©
å¹³æĸ¹åħ¬éĩĮ, æĢ»äººåı£
æĿĥ .
å·¥ä½ľ ,
è§Ĥ çĤ¹
çļĦ å±±
æĶ¿ åįı
éļ¶ å±ŀ
ans :
u d
æŃ §
ä½ľ åĩº
èĥĮæĻ¯ .
" )
æĽ¾ ä»»
å¸¦ æľī
æĹ ¬
. èĩª
å°ı æĹ¶,
ç¨ į
åı ī
çĻ½ èī²
çĲĥ åŃ£
äººåı£ ä¸º
ä»· æł¼
éĩĬ æĶ¾
8å¹´ )
æĶ¿åºľ çļĦ
. 8
åľ¨ ä¸ŃåĽ½
ï¼ ı
åĳĪ çİ°
, æĹł
åĨĽ ,
å®ļ å±ħ
,ä»ĸ çļĦ
çĽ¸ ä¿¡
18 æĹ¥,
å¸Ĥ .
ãĢģ æĸ°
30 æĹ¥,
æīĢ å±ŀ
é¦ĸ åħĪ
å¨ ĺ
ä¿Ŀ ç½Ĺ
åĪ ·
ç¿ ł
åħ¼ ä»»
åĽº å®ļ
( F
zh- tw
æİĴ è¡Į
éĹ ½
æģ °
ä¸İ æİ¥å£¤çļĦå¸Ĥéķĩ(æĪĸæĹ§å¸ĤéķĩãĢģåŁİåĮº)åĮħæĭ¬:.
éĺ¶ çº§
è¥¿ åĮĹéĥ¨
æł¡ éķ¿
èĿ ¶
zh-tw :
ct ion
ç¯® çĲĥ
çļĦ åİĨåı²
æ¸¸ æ³³
åĳĺ ,
æı ¡
çĽ¸ äºĴ
åħ³ éĶ®
è¥¿ å®ī
ç«ĭ åį³
åŀĭ çļĦ
4 ä¸ª
7 7
éĢļ è®¯
åįģ å¹´
è®¾ å®ļ
èĸ Ħ
éªĳ å£«
k :
åĿ ª
ä½ı æ°ĳ
çĶŁ .
å¯¹ å¤ĸ
æ¯Ķ å¦Ĥ
æ· »
éªĳ åħµ
å© Ĩ
æĸ¯ æŀĹ
éĽ Ģ
çİ° æĹ¶
å¸¦ é¢Ĩ
éĵ Ń
æĸ¹ è¨Ģ
ä¸Ģ èĩ´
10 00
ä¿® å»º
ä¸° å¯Į
å¿ §
è¶ ĭ
ä¼ĺ ç§Ģ
éĨ Ĵ
ç¬¬äºĮæ¬¡ ä¸ĸçķĮå¤§æĪĺ
, çĦ¶èĢĮ
2 ä¸ª
6 00
å· «
æ· ®
å±ķ è§Ī
al l
. å½ĵæĹ¶
åľ° çĤ¹
åĪ¶ å®ļ
1å¹´ )
åĨħ éĻĨ
ä¾Ľ åºĶ
çľŁ å®ŀ
åĮĸ .
2 -
è¯ ı
éĿŀ å»ºåĪ¶
ç¾½æ¯Ľ çĲĥ
ä¼Ĺ å¤ļ
æĺ¯ ä»¥
æĦı å¿Ĺ
å¤ª åŃĲ
é¸ £
åĬ¿ åĬĽ
è¾ĵ åħ¥
Wind ows
å®¶æĹı .
ä»»åĳ½ ä¸º
ä¸¤ æ¬¡
æĬĹ æĹ¥
çļĦ å¤ĸ
æİ ĺ
en d
åħ· ä½ĵ
,åĮĹ èµ·
æ³ķ ,
åĲĮ æĹ¶,
åį° å°¼
èĩª èº«
å·ŀ åºľ
æľĿ å»·
éĺ ®
å·¥ äºº
ç§°ä¸º âĢľ
å·² è¢«
æ´¾ éģ£
å µ
å¤ļ å°Ķ
å±± è¥¿
æĹ¶æľŁ çļĦ
ç»ĵæŀĦ .
å¾Ģ å¾Ģ
æ£Ģ æµĭ
å§ ¬
å¯» æī¾
ä¸İ åħ¶ä»ĸ
å¯¹ åºĶ
P ro
äºİ19 3
,åĽł èĢĮ
æľº çļĦ
é»Ħ éĩĳ
ä»£è¡¨ åĽ¢
çªģ çł´
é¼ »
æĿ° åħĭ
ç»ĦæĪĲ çļĦ
åľ¨ è¯¥
ä¹Ĳ éĺŁ
ä¹ĭ æĪĺ
ãĢĬ ãĢĭ
çģ« å±±
çĽĳ çĿ£
åĹ £
å¼Ģ å±ķ
æĦ Ī
,æĽ¾ ä»»
æĿī çŁ¶
S p
éĩĳ çīĮ
æ´Ľ æĿīçŁ¶
çĽ¸åħ³ çļĦ
,ä½ĵ éķ¿åı¯è¾¾
æ° ¯
12 æĹ¥,
çĶµ è¯Ŀ
è¿ĩç¨ĭ ä¸Ń
, äººåı£å¯Ĩåº¦æ¯ıå¹³æĸ¹åħ¬éĩĮ
æĸ ¤
è¢« è¿«
æıĲ åĲį
æ³¢ æĸ¯
åĦ Ĵ
çĻ» ä¸Ĭ
ä»¥æĿ¥ ,
åħ Ĩ
èĭ ĳ
çªģ çĦ¶
åĮĹ æµ·
çİ° ä»»
ä¸¹ éº¦
å®ŀéªĮ å®¤
æĺ¯ ä¸ŃåĽ½
ç§° ãĢĮ
èĮ µ
åĽ½å®¶ çļĦ
ä¾Ŀ æį®
åħ¶ åĲİ
éĢĢ åĩº
çº¿ ,
i o
çī¹ å®ļ
åģ ¿
åįĹ æĸ¹
ä¸Ģ çº§
ä¸Ģ æ®µ
åħ¬ çĪµ
æĳ Ĩ
åį Ĵ
æ± ª
ä¸ī ä¸ĸ
il l
åĳĺ å·¥
æĻļ ä¸Ĭ
åĲĽ ä¸»
å¯ ¨
åĨĽ å®ĺ
æľĪ1 6æĹ¥,
åľº çļĦ
å°ĳ å¥³
ac e
r y
å¦ĩ å¥³
æĺİ ç¡®
æ²¿ æµ·
åĳ¨ å¹´
å¤§ æ¡¥
æĪ¿ å±ĭ
éĢ® æįķ
,ä»ĸ åľ¨
çľģçļĦä¸Ģä¸ªå¸Ĥéķĩ ,å±ŀäºİ
åĨĽ åĮº
ç§° ,
è½¬ åĲĳ
å¥¥è¿Ĳ ä¼ļ
æľĪ1 7æĹ¥,
æī© å±ķ
å¦Ĥä¸ĭ :
å¤ ķ
ä¾ ¨
éĥ½ å¸Ĥ
èµĦ äº§
7 9
èĦ ı
éĻ ¨
4 1
éģĵ ãĢģ
çľģ .
ä»£ çĲĨ
è¯ģ å®ŀ
ç»Ŀ å¯¹
æ¬§ åħĥ
S h
åľ¨ é¦Ļæ¸¯
åĬ Ŀ
åĩ Ģ
å¯¹ æĬĹ
å¤§ åİ¦
la y
8 5
ä¸ Ľ
è¾ °
æ£Ģ æŁ¥
on g
äºĨ âĢľ
äºļ ç¾İ
è§Ĩ é¢ĳ
åĽ½å®¶ éĺŁ
a in
åĮĸ åĲĪçī©
ç² Ĺ
åĲ¯ åĬ¨
çī¹åĪ« æĺ¯
Ã ©
2å¹´ )
æ°ı .
, ä¸Ń
æ³ķåħ° è¥¿
åĪĨ ç¦»
U n
æľī ãĢĬ
éĵ ¸
åİŁ åĪĻ
å¤§ èµĽ
åŃĲ ãĢģ
11 æĹ¥,
åī§ æľ¬
ç´§ æĢ¥
è¯Ħ ä¼°
ä¸ĵ å®¶
åĮĹ æĸ¹
ä¸¤ å¹´
åĨľ æ°ĳ
åĵ¥ä¼¦ æ¯Ķäºļ
6 9
éĻķ è¥¿
åĬł æĭī
æ¶ Ĥ
åĿĩ ä¸º
ä¸ ĳ
çŃī ä¸º
, ä»¤
9å¹´ )
æľįåĬ¡ .
è®¡ç®Ĺ æľº
æĽ´ ä¸º
UTC- 5
b e
ç§ĳ å¤«
A C
ä¿Ŀ å®Ī
çī© .
åī§ éĻ¢
åºŁ éĻ¤
åĬ «
ä¸Ń è¢«
ç»ı çĲĨ
L e
çŁ ©
åĢ ¡
çķĻ ä¸ĭ
I S
, èĻ½çĦ¶
æī «
è´ ©
æ± °
è´¨ çĸĳ
çŃ¾ è®¢
åı² ä¸Ĭ
é¦ĸ ä¸ª
åħĪ çĶŁ
æ± Ģ
1 ä¸ª
åĨĽ åĽ¢
å½¢ å®¹
ä¸ĭ ä»¤
ä¸Ĭ è¿°
.19 2
èĲ¨ æĸ¯
ä¹ĭåīį ,
éĦ Ĥ
1 20
æĹ¶ æ®µ
æľĪ21 æĹ¥,
å¼ ¯
ç±³ äºļ
. çĶ±
çĶ· ,
. ä¾ĭå¦Ĥ
ç»´ æĬ¤
O N
çīł ä»¬
åŃ¦ å£«
ä¸į ä»ħ
èĥ½ éĩı
éĢī ä¸º
æĭ ĺ
éĽ Į
ä¸»è¦ģ çļĦ
åįĩ çº§
çİĩ ä¸º
åĲ¯ çĶ¨
é© ³
åİŁ åŃĲ
æ½ Ń
zh-h k:
a st
ãĢģ é»Ħ
åħļ çļĦ
é¾ Ł
åī§ ãĢĬ
éĺ» æŃ¢
åŁİ åł¡
å½ĵ å¹´
å¤© çļĦ
ä¿Ŀ éļľ
. å°½ç®¡
åĭĭ ç«ł
æłĩ æľ¬
ç©Ĩ æĸ¯æŀĹ
åĽ° éļ¾
çŃī åľ°
ç§ĳ åŃ¦éĻ¢
æ¶ Į
äºļç¾İ å°¼äºļ
åľ¨ å¤§
or t
åħ¨ éķ¿
åł ª
äºĭä»¶ .
ç£ ¨
æıĲä¾Ľ äºĨ
åı· çļĦ
, ä¸»
çł ĸ
ç»Ļ äºĨ
èĵ ¬
éĨ ĩ
å¯ Ĵ
åĪ© çĽĬ
ç³»ç»Ł .
æ»¡ è¶³
åĢĻéĢī äºº
åĺī éĿĸ
å¥¥ å°Ķ
p h
å¿ ½
æĿ¥ è¯´
é©¬ éĩĮ
æĥ Ł
åĢ º
å¤§åŃ¦ çļĦ
19 æĹ¥,
åįĹ éĿŀ
æ¸¸ è¡Į
åıĤ éĢī
æķ ¢
, æĸ°
, 198
. èĩ³
åľ¨ äºİ
ä¸ĸçķĮ ä¸Ĭ
å§Ĩ Â·
-zh-h ans:
éĥ¨ ãĢģ
æĶ¶ è§Ĩ
åĪº åı²
å° ¹
20 20
å¼Ĺ æľĹ
. 0
åħ¬ å®ī
åĳ¨ æľŁ
æ¶Ī è´¹
å¥ Ķ
çŃī åľ°,
åĭ Ł
æ°Ķ æĹĭ
éº¦ åħĭ
æĬ ĳ
- -
çļĦ æķħäºĭ
æº ¯
å¤į åħ´
éĹ ª
çº³ ç²¹
æĸ¯ é¡¿
æ´» è·ĥ
ä¿® æŃ£
éĤ» è¿ĳ
ãĢģ ä¸ī
å¤« äºº
ç©º æ°Ķ
åıį æĺł
åıĳçİ° .
é¢ ĩ
å½¢ çĽ®
é¤Ĳ åİħ
(,)æĺ¯ æ³ķåĽ½
6 2
199 8å¹´
å¹´( 17
æī ¶
199 9å¹´
åĳĬ è¯ī
2020å¹´ ç¾İåĽ½äººåı£æĻ®æŁ¥çļĦæķ°æį®,
æŃ¤ å¤ĸ,
ç¢ Ł
å°¼äºļ å·ŀ
æł¼ æĭī
æĻĭ çº§
æľĪ22 æĹ¥,
çļĦ æ°´
ä¸Ń æľŁ
ä¸Ĭ æľī
æĽ´ æĸ°
ac k
åįı è°ĥ
åħ¶ä¸Ń ä¸Ģç§į
çİ» çĴĥ
, åĪ°
çļĦ ä½ľåĵģ
19 ä¸ĸçºª
å½ķ éŁ³
æĤ ²
éĿ¢ .
å¢ŀ éķ¿
è Ł
ä¼ł åªĴ
ç¿ ħ
æĹ¶æľŁ .
çĽĳ çĭ±
å®¶ äºº
,å¹¶ ä»¥
æĭ ¼
æĭ ĸ
åĩº åıĳ
ä¹¦ éĻ¢
åı¦ æľī
200 0
æİ¥ æĶ¶
æ¸ħ åįİ
èĲ¨ å°Ķ
åħ¸ ç¤¼
æĪĲåĳĺ .
èķ ¾
æ·ĺ æ±°
æĹ¥ æľŁ
çĶŁ æĪĲ
æľ¬ åľ°
å±± ãĢģ
éĢ ¼
194 5å¹´
åįĩ ä»»
å¤© çļĩ
é£Ł åĵģ
.çĦ¶èĢĮ ,
æĸ Ĳ
å¯ ĵ
åıĳ æĺİ
è¢« è§Ĩä¸º
æľĪ1 4æĹ¥,
C D
åŃ¦ ãĢģ
ç«ĭ æĸ¹
å¤§ å¥ĸ
å¸ĥ èİ±
æĹ¥ æ²»
å·² æľī
æĳ §
å· ¢
ä¹Ł åı¯ä»¥
è¯Ń ãĢģ
æľĪ1 3æĹ¥,
, éĢļå¸¸
å°¼ Â·
åħį è´¹
é¢ľ èī²
åĽ½ .
åĬł å·ŀ
ç§° ä½ľ
ä¸¤ åĲį
ç¨ »
é±¼ ç±»
çļĦ åĲİ
æİ¨ å¹¿
æı´ åĬ©
çİ° å®ŀ
åľ¨ åĨħçļĦ
ç»´ åŁĥ
äº² çİĭ
äºļåİĨå±± å¤§
æĸ¯ æīĺ
æķ° .
èĢĥ åı¤
( K
ä¸» åĬŀ
åº¦ çļĦ
åĪ¶ ,
åī¯ ä¸»ä»»
åĿ Ŀ
ç¥ ł
çĻ Į
ç«ŀ éĢī
å¹³ åİŁ
æīĢ è°ĵ
åī¯ ä¸»å¸Ń
æĺ¾ èĳĹ
å½ĵåľ° çļĦ
è¿Ļ æ¬¡
åı¸ é©¬
it y
ç» ³
è¥¿ åħ°
åŁºéĩĳ ä¼ļ
, åĲĮå¹´
, ç»ĵæŀľ
çĲ ¼
å¿ į
äºĮ æĪĺ
åħ¬åħĥ åīį
çĲĨ è§£
ä¾Ŀ çĦ¶
, çĶ¨
M A
ä¸Ģ è¯į
æł ĭ
è£ħ é¥°
åĨľ æĿĳ
æĺŃ åĴĮ
åĨħ æĪĺ
8 00
åĳ½ åĲį.
è½¬ æį¢
é¾Ļ æ±Ł
åį± éĻ©
ç»Ī äºİ
äº¤éĢļ .
D e
åľ Ń
ä¸į åĪ°
éĤ£ ä¹Ī
ä»£è¡¨ .
éĿł è¿ĳ
å¿ Ļ
é¹ ¤
å¾· çļĦ
å®Į å·¥
è´§ å¸ģ
åİ»ä¸ĸ ,
E n
ä¿® å¤į
éļĶ ç¦»
åĩ Ŀ
åľ° å¸¦
ä¸Ī å¤«
, å°¤åħ¶
æł¡ åĽŃ
ç¡® ä¿Ŀ
éĩĮ Â·
è¿Ľ æŃ¥
èĥ½ æºĲ
éĩĩ è®¿
æļ´ åĬĽ
æīĵ ç®Ĺ
å»ºçŃĳ .
æ½ľ èīĩ
åŃ¦ .
ãĢĭ ()æĺ¯
å¾· åįİ
åİŁ å§ĭ
çĿ ¡
å¢ŀ å¼º
æīĢæľī çļĦ
äºīè®® .
ä¸¤ åĽ½
i ve
çŁ Ľ
èĴ ¸
èº« ä¸º
åİŁ ä½ıæ°ĳ
åħ¬éĩĮ .
èĬĤçĽ® ãĢĬ
A r
æ°´ åºĵ
åį¡ ç½Ĺ
çłģ å¤´
ãĢģ è¥¿
æĹħ è¡Į
ä¹ī å¤§åĪ©
é² ¤
æ´¾ åĩº
åŁİå¸Ĥ .
æĴ° åĨĻ
å¤§ å¹ħ
èĻ ¹
194 9å¹´
éĢļ ä¿¡
å¹³æĸ¹åįĥç±³ .
åĬª åĬĽ
æł ½
æī§ æĶ¿
éĢĤ åĲĪ
2001å¹´ äººåı£
æĭĨ éĻ¤
å§ Ĭ
,åħ¶ ä»ĸ
3 -
çļĦ æ¯ĶèµĽ
åĬ© çĲĨ
ä¸İ åħ¶
åĩº éģĵ
åĲ ģ
, é«ĺ
E R
o v
äºº ,åħ¶ä¸Ń
èµĦ æľ¬
çŁ³ æ²¹
5 9
èĢ Ĳ
æ³¢ ç½Ĺ
å²ģ æĹ¶
åľ¨ 198
ä¹¦ ç±į
æĮĩ ç¤º
çķĻ åľ¨
ä¸¾è¡Į .
åĽ´ ç»ķ
åī Ĭ
å¸Ĥ ä¸Ńå¿ĥ
ç¿ Ķ
åº¦ .
å®ĺ .
ä½Ľ ç½Ĺ
çļĦ è®¾è®¡
åĩº ,
è®¤ è¯Ĩ
æ³ ¡
æ³ķ åºŃ
å¤© çĦ¶
, è¦ģæ±Ĥ
çļĦ åıĳå±ķ
æľī æľº
åĩº åħ¥åı£
ä¸ĩ åħĥ
å¤§ å¤ļ
.19 0
èĸ Ľ
s h
.æŃ¤ å¤ĸ
é¦ĸ çĽ¸
ç®¡çĲĨ å±Ģ
è¿ĳ å¹´
é»ĳ èī²
åľĨ å½¢
c om
å¤§ ä¼Ĺ
äº ¥
åł Ĩ
è¾¹ å¢ĥ
æĿĢ å®³
æĭ¿ ä¸ĭ
æ¯ĶåĪ© æĹ¶
N e
åįİ äºº
æīĭ æľº
éĶĢ éĩı
å¤« åį¡
,è¿Ļ ä¸ª
æĮĩåĩº ,
' s
å¤§ éĢī
æĶ¶ éĽĨ
ãĥ »
I D
Ã Ĺ
éĹ ¸
æĦı åĳ³
çĽ Ĩ
æĺİ æĺŁ
or e
åĲĦ èĩª
è¾½ å®ģ
ä¸Ģ åľº
åĪĨ æĶ¯
ä»¤ äºº
è½¦ç«Ļ ,
ç¡®è¯Ĭ çĹħä¾ĭ
" ,
æľĢ ä½İ
ä»» .
è®° å¿Ĩ
un d
b er
ç©º ä¸Ń
åĿļ æĮģ
(åŃ¦åĲį: "
åĲī æŀĹ
ä¸Ģ æŀļ
åĪĨ è£Ĥ
ç»´ æĸ¯
12 å¹´
èĴĻ çī¹
( çİ°
å°± ä¼ļ
æİ¥å£¤ .
å±±ä¸ľ çľģ
æĸ ĭ
èĩª æĿĢ
èŃ¦ åĳĬ
çļĩ åĲİ
çļĦ æĶ¯æĮģ
ä¹ł æĢ§
åĽ½æ°ĳ æĶ¿åºľ
åī§ éĽĨ
ä¸ĭè¾ĸ çļĦä¸Ģä¸ª
. ä¸º
ä»¥ åįĹ
ä»¥ åĲİ,
æĬ ĵ
æ± Ŀ
199 7å¹´
å»ºç«ĭ äºĨ
å¨ģå»ī Â·
7 2
æĪĲ å¹´
èĥ º
å¹³ æ°ĳ
èĮĥåĽ´ åĨħ
æŁ´ æ²¹
è¦ģ .
åĲĦ ç±»
æĹ¨ åľ¨
æ³ķ ãĢĭ
èĪ Ł
ç§ĳ åŃ¦å®¶
å¼ı çļĦ
å¼Ł å¼Ł
7 4
, ä¼ļ
ä¸ ŀ
çŃī çº§
6 3
o h
æł ª
å± Ī
D T
åĲĮ æĢ§
å¾· å°Ķ
æĶ¯ æµģ
åħĭ æŀĹ
i an
âĢ Ļ
äº² èĩª
æ¯Ľ æ³½
, ä½ľä¸º
ç¤ ģ
èİ± èĮµ
äº§çĶŁ çļĦ
æ»¨ æµ·
, æĿİ
æĬ ±
äº¤ æį¢
,åħ¶ ä½Ļ
C O
ãĢģ åĪĺ
æĭ ¨
æĸ¯ æ´Ľ
ãĢģ é«ĺ
éĴ »
è§Ħ èĮĥ
m an
ä¸Ĭ ä¸ĭ
å´ ©
, ç»ı
i v
æĹ¶ åĢĻ
è¯Ħä»· .
å¹ ½
æ¶Ī å¤±
å® °
ç¬¬ ä¹Ŀ
é»ĳ é¾Ļæ±Ł
æ³ķ çļĦ
çł Ĥ
å¸Ī .
è¿Ŀ åıį
åĳ¼ åĲģ
æµĻæ±Ł çľģ
æĳ§ æ¯ģ
åĪ© æĸ¯
äºĮ äºº
çº§ åĪ«
, ç¾İåĽ½
å¸¸è§ģ çļĦ
ä»¥ åīį
ç§į æ¤į
6 ,
â Ķ
ãĢģ ä¸ľ
çĭ ¼
æĶ¶ èĹı
çŃ¾ çº¦
. å¤§
T e
è¿ ¦
å¯¹ æĸ¹
è¾¾ å°Ķ
æ¬§ çĽŁ
æºĲ äºİ
at e
, ä¾¿
å»¶ éķ¿
çľģä»½ ,åĮĹèµ·
r ic
æ ª
çī¹ æĭī
è¡Į çļĦ
å°¼ è¥¿äºļ
æİĪ æĿĥ
, ç§°
éĻ ª
è½¦ åİ¢
è¿Ĳ çĶ¨
å© ´
å¿ħ è¦ģ
å¹³æĸ¹åįĥç±³,èĢĮæ°´åŁŁéĿ¢ç§¯ä¸º 0.
ä»» æľŁ
æ¸¯ åı£
æ¦ Ħ
( W
å¦ Ļ
199 6å¹´
åįł åľ°
æ¯Ľæ³½ ä¸ľ
; åľ¨
n :
æŃĮ è¯į
ç®¡çĲĨ .
é¦ĸ å¸Ń
èĦ ¸
å¾ª çİ¯
åį ¸
åŃ¦ çļĦ
å°Ħ åĩ»
é¦ĸ åºľ
,è¿Ļ ç§į
åį± æľº
æĤ£ èĢħ
èĪª å¤©
å¾Ĺ åĪ°äºĨ
æĶ¹ åĲįä¸º
ãĢģ é©¬
äºº ;
æĬ «
åı¤ åħ¸
åĬŀ çĲĨ
èµ° åĲĳ
éĢļ éģĵ
æİ¥ æĽ¿
æ¼Ķ å¥ı
æĶ¹ åĪ¶
åįĩ ä¸º
am e
åľº æīĢ
ä¼ ½
æĢ§ èĥ½
çĭ Ń
199 2å¹´
ï¼ ħ
é¡º åĪ©
åĴ ĸ
åĪĻ ä¸º
å·¥ä½ľ å®¤
å®¡ æŁ¥
éĺ² æŃ¢
åĮº è®®ä¼ļ
ç¦ ħ
åĽ ļ
ç«Ļ ,
åŁİ ,
å¯ ®
è¢ ĭ
å·ŀ åĪºåı²
åĽĽ å¹´
ç¥ŀ è¯Ŀ
çĶŁ ,
å« ģ
éķ¿ å®ĺ
æ³¢ å°Ķ
ä» ķ
éĺ¿ æł¹
å¤Ħ ,
ç´¯ è®¡
âĶ Ģ
æĭ ±
.è¿Ļ æĺ¯
é¦ĸ æĴŃ
åķĨ åĵģ
è·Ł éļı
å® Ľ
éĽ į
å¾Ĺ ä¸»
èģĶåĲĪ ä¼ļ
,ä¸Ģ èĪ¬
å¤ĸäº¤ éĥ¨
ä»¥ åĮĹ
åŁĥ å°Ķ
ou n
åŁ¹ è®Ń
æıĲ åıĬ
äºĶ å¹´
å¸Ĥ æĶ¿åºľ
(, ;
ç¼© åĨĻ
, æ²¡æľī
å¸ĥ éĩĮ
çĤ ī
åıĹ æ¬¢è¿İ
åį¡ æĭī
è¿ĲåĬ¨åĳĺ ,
éĺ¿æł¹ å»·
A P
s s
å°¼ åħĭ
çĶŁæ´» ä¹łæĢ§
éĺŁ ,
18 å¹´
èĤ Į
ä¸ŃåĽ½ çļĦ
åģľ éĿł
q u
åĲ ¹
åĩº æĿ¥
æķ° ä½į
èĭ± åĨĽ
199 4å¹´
æ¸¸æĪı çļĦ
1 åı·
ç»ĵæĿŁ åĲİ,
ä¸Ĭ åįĩ
éĿ¢ ä¸´
G o
éĻ· åħ¥
çĶŁæ´»ä¹łæĢ§ ä¸įæĺİ
è¾ Ł
æĮģ æľī
é¼ İ
, å±ŀ
. çĽ®åīį
C om
18 3
æ´¾ çļĦ
( ä¾ĭå¦Ĥ
å¤§ èĩ´
è¾ ¨
éŁ µ
çĤ¹ çļĦ
åĩºçīĪ ç¤¾
åĸľ åī§
( åĮħæĭ¬
èĢ ķ
æľĪ çĲĥ
æ£ ĺ
åĲĦ åĽ½
ç½Ĺé©¬ å°¼äºļ
çİ° ä»Ĭ
æĥ ¨
c on
å°Ĩ åľ¨
ä½ĵèĤ² åľº
äºº/å¹³æĸ¹åħ¬éĩĮ .
åŁ ĭ
èĭ ¯
ç¾İåĽ½ çļĦ
çŁ¥ .
çĶĺ èĤĥ
)ãĢģ ãĢĬ
éĩĮ è¾¾
åľº æĻ¯
åı¸ä»¤ éĥ¨
çĶ «
å®ļ ä¸º
æķ° çļĦ
M ar
ç °
éģĵ å¾·
çļĦä¸Ģ äºĽ
æĸ¯æĭī å¤«
ä¸Ģ é¡¹
è¢« æįķ
äºº, äººåı£å¯Ĩåº¦
æī¿ è¯º
ä¼¼ ä¹İ
çĤ¸ å¼¹
éģ ¥
ä½ĵ ,
éĽ ¾
çłĶ åıĳ
(åŃ¦åĲį: )ä¸º
åĲĦ ä¸ª
é¦ĸ æŃĮ
å·´ å°Ķ
æĿĳ èĲ½
åħ¬ æĸ¤
çĶŁ åŃĺ
åĲī å°Ķ
å¸ Ĳ
ä»Ĭ æĹ¥
èĢĥ è¯ķ
éĥ½ åľ¨
éħį å¤ĩ
çľģ, ä¸ľ
8 7
è¾¹ ç¼ĺ
åĬłåĪ© ç¦ı
æīĭ .
å±Ģ éķ¿
ub e
è¹ Ī
éķ¿ æ±Ł
éħ ·
å§Ķåĳĺ .
çĪ± æĥħ
åľ° è´¨
æľ¬ çīĩ
æ¡ Ĩ
å¸¸ åĬ¡
æĶ¯ ä»ĺ
äººæ°ĳ å¸ģ
èı Ĭ
æ²¿ éĿ©
æĬµ æĬĹ
çļĦ åĦ¿åŃĲ
æĸĩ æĺİ
) çŃī
åĮĸ ,
åĮħ åĽ´
çĽĳ å¯Ł
31 æĹ¥,
. 9
å¤ ¹
å°Ĩ é¢Ĩ
è¿Ľå£« .
å¹³ è¡¡
æĢĢ çĸĳ
çļĦ ç¬¬
äºī åıĸ
å¼Ģ å¹ķ
è¨Ģ è®º
17 9
èĥ Ĩ
ä¸ŃåĽ½å¤§éĻĨ çļĦ
èµ« å°Ķ
æ±Łèĭı çľģ
åĿ Ĥ
èĤ ł
çº¿ ãĢģ
åı¯ä»¥ åľ¨
è ¤
è®¾ äºİ
å¼ı æľĪåı°
ou r
å·¡ æ´ĭ
åŃ ķ
åĽ½ ,
æīĭ æľ¯
ä¼¯ çĪµ
åºĨ ç¥Ŀ
çĲī çĲĥ
åĲ« æľī
æī £
éķ¿ è¾¾
æ±¡ æŁĵ
åıĳ æĮ¥
å¯¹ åħ¶
æľĢ ä¸º
æīĢ éĩĩçĶ¨
å¥ ĭ
æĬ¥ çº¸
6 -
æ² ª
æ£Ģ å¯Ł
, ä¸ī
è ¤Ĳ
æī ģ
åıĳ è¨Ģ
åŁİ .
åĻ¨ çļĦ
çŃĸ çķ¥
åĤ ¬
é¼ĵ åĬ±
, è·Ŀç¦»
å¤§ èģĶçĽŁ
çŁŃ æļĤ
éļ ĭ
çı Ģ
, åıĬ
è¶³ å¤Ł
. ä¹ĭåĲİ
é¡ ·
æıĲ è®®
æİ¨ èįĲ
çĪ± å¾·åįİ
æĺİæľĿ æĶ¿æ²»äººçī©.
åĲ §
å¹´( 14
I P
T h
è¥ Ħ
æĪĳ çļĦ
å¾· åĨĽ
è° Ń
é¢ģ åıĳ
åĩĮ æĻ¨
è¯ ±
19 00
æľª æľī
åºķ ,
éĹ ²
åĩº åĶ®
æĸ¹éĿ¢ çļĦ
é¢ĳ çİĩ
éĻ¢ éķ¿
å§ĭ å»ºäºİ
åįķ çĭ¬
. ä¸ºäºĨ
æĮ ĸ
æĹı ,
çº ¤
åıĪ åĲį
éĢı éľ²
çļĦ ä½įç½®
åĩ ī
çº¦ æľī
åĶĲ æľĿ
: 30
æĪĲ å°±
æµ· å¹³éĿ¢
æĪĺ å£«
åĲį ãĢģ
æ²³ çļĦ
æĿ¡ ä¾ĭ
éĻĦ å±ŀ
å·¥ç¨ĭ å¸Ī
åĴĮ âĢľ
æĪĲç«ĭ çļĦ
,å®ĥ ä»¬
éĢĤ åºĶ
èµŀ åĬ©
å¢ĥåĨħ åħ±æľī
ä½į çļĦ
äºļ çĽ®
äºĭ æĥħ
åĨĻ ä½ľ
åıĳåĬ¨ æľº
6 1
åĮº åĨħ
çĽ´ å¾Ħ
æ¦Ĥ è¦ģ.
4 -
5 ,
ãĢģ åĮĹ
éĿ¢ ,
è¿½ æº¯
åĩŃ åĢŁ
5 2
éĿĴ å²Ľ
A N
é¢ Ī
ä¸ĭ æĿ¥
åĪ¶ çīĩ
æīĢ å¤ĦçļĦ
åı² å¯Ĩ
é¢Ĩå¯¼ äºº
æĽ¿ ä»£
8 9
èģĶ ç»ľ
èĸ ª
é¹ ħ
æ° ¨
åħ¬ äº¤
f f
åĢ¾ åĲĳ
åĲ ŀ
æĪĲ äºº
æĻ® é²ģ
199 1å¹´
èħ Ķ
æ£ ķ
ç«Ļ çļĦ
æĹł çĹĩçĬ¶
æµ·æĭĶ ä¸º
åħ¬å¼Ģ èµĽ
æĽ °
æĹ¥æľ¬ çļĦ
en s
éĽĨ åĲĪ
æ¸¸ åĩ»
è¶³ åįı
æĸ ¥
å¥ ¶
ä»¥ åĲİ
æŃ£ ç¡®
åĬ ²
å¿ ĺ
,ä½Ĩ ä»ĸ
é¦ĸ ä½į
ãĢģ åĴĮ
æĦı å¤ĸ
å·¡æ´ĭ èĪ°
èĭ± éĩĮ
é¢Ħ ç®Ĺ
åĲ¸ æĶ¶
ä¸º ãĢĬ
æĽ¾ ç¥ĸ
,åħ¶ä¸Ń åĮħæĭ¬
åıĳçĶŁ åľ¨
æī© å¼ł
çļĦ éĥ¨åĪĨ
åĨ ķ
S e
å¤§ å°ı
æĸĩ èīº
åı¤ èĢģ
éº Ł
æ²ĥ å°Ķ
é¢ģ å¥ĸ
ãĢģ ä¸ŃåĽ½
å»ºçŃĳ çī©
æĦŁæŁĵ èĢħ
ç§ĳçļĦ åħ¶ä¸Ńä¸Ģç§į
åĽ Ĭ
5 3
çļĦ éĹ®é¢ĺ
åŁ¹ åħ»
åİ»ä¸ĸ .
çĲ ª
åħ¬ åĳĬ
éĿŀ æ³ķ
æ°Ķ åİĭ
åĲ »
å·² çŁ¥
èĪŀ è¹Ī
å½ĵéĢī ä¸º
éĴ ĵ
åĨ³ è®®
èľ ľ
ä¸º :
ç¢ §
it h
æĺŁ çŃīä¸º
ä¿Ħ åĽ½
è± «
ç¢ ±
éŃ ģ
ä¸¥ æł¼
éģŃ éģĩ
åĲİ ç»Ń
å¾· æĭī
æķĪ åºĶ
å® ´
ä¸Ń éĹ´
ç§ĳ å°Ķ
èĪ¹ åıª
äºĴ çĽ¸
å®ī ä¸ľ
æł¼ ä¸º
ç»Ħç»ĩ çļĦ
çĶµ æ°Ķ
ä¸»è¦ģ æĺ¯
åĩºçİ° äºĨ
äº« å¹´
æĸ¯ åį¡
éĢĲ æŃ¥
é¸Ł ç±»
æĪĲ äºĨ
åī ª
å¤ĸ éĥ¨
æ¬¡ å¹´
åĪĽ å§ĭ
. 7
çļĦ ç¬¬äºĮ
æĪĲ éĥ½
æİ ł
æ¼ ı
199 5å¹´
ç±³, 2001å¹´äººåı£
L E
ä¹ĭ å¤ĸ
è¶ħ è¶Ĭ
ç»ıåİĨ .
çļĦ å¥³
å§ ľ
åĬł éĢŁ
è½¦ .
å§ĭ å»º
è§Ĩ è§ī
æ²¿éĿ© .
ä¸Ģ åĪĩ
ä¹ĭ åŃĲ
å¸Ĥ æĶ¿
è¶³çĲĥ ä¿±ä¹Ĳéĥ¨
åģ¶ åĥı
ãĢģ éĩĳ
ç© ·
p e
åĪĻ åľ¨
å½¢ çĬ¶
å®¡ åĪ¤
åħ¬åĪĨ, æłĸæģ¯åľ¨
å¡Ķ å°Ķ
å½ķ å½±
åıĮ æīĵ
æ£ ī
æļ ¨
é¢Ħ æµĭ
æıı ç»ĺ
å¹³æĸ¹åįĥç±³. å½ĵåľ°åħ±æľīäººåı£
æł½ åŁ¹
æĿ¥ è¶Ĭ
éķ¿ æ²Ļ
çĽ´ éļ¶
åıĺ ä¸º
ä¸Ńå¿ĥ .
è´µ å·ŀ
è°¢ å°Ķ
åĴ ¨
ç¦» åŃĲ
å¼º åº¦
å¾Ī å¤§
ç§į .
è¿Ļæł· çļĦ
åĪĽ æĸ°
æķĳ æı´
åħħ æ»¡
åĵĪå°Ķ æ»¨
åĪ ł
ä¸Ģ ç³»åĪĹ
å¤§ åį«
éĶ Ĳ
æ¸¸ å®¢
å¼Ģå§ĭ åľ¨
æļ ĸ
éĥ¨ çĶµå½±
èĭı ä¸¹
è· µ
æŃ£ éĿ¢
æº ĥ
æĵ ħ
åģĩ è®¾
æ²³åįĹ çľģ
å¤ıä»¤ æĹ¶éĹ´
ä»¥ âĢľ
çĲĨ å·¥
æģ Ń
éĤ ª
on e
å¯» æ±Ĥ
, éĢłæĪĲ
éĥ¨ ç½²
ä¸» åľº
åİ¿ çŁ¥
æĶ¶ åĪ°
æ¨¡ æĭŁ
è¶Ĭ æĿ¥è¶Ĭ
ä¸»ä¹ī çļĦ
æĸĹ äºī
æĸ ©
åľ¨ ä¸Ģèµ·
æ¯ ħ
æļĤ åģľ
5 6
Â· é©¬
, åŃĹ
å½± åĥı
èĮ ħ
æĹı ç¾¤
éĥ¨ ,
èģĶ ç½ĳ
æĺ¯ä¸Ģ åĲį
è¿ģ èĩ³
éĺ¿å°Ķ åįĳ
å¸ ½
ç¬¬ 4
é«ĺ è¾¾
çĲĨ æĥ³
åĲĪ æ³ķ
çĻ¾ ä¸ĩ
éħį ç½®
æĢģ åº¦
å·¥ èīº
ç¨ Ģ
æ¡Ī .
åĽ½éĻħ æľºåľº
æļĤ æĹ¶
ç§ ©
æĹ¶ åĮº
å¸¸ å§Ķ
é¢Ĩ äºĭ
åĽ¾ åĥı
å·´ æĭī
ç¦ı å·ŀ
c k
è¡Į ä¸ļ
å¸Ĥ ,
åı· ,
æīĭ æ®µ
èª ĵ
.ä»ĸæĽ¾ ä»£è¡¨
7 00
åĩ ¶
å» ĸ
å±ł æĿĢ
ç§° åĳ¼
0å¹´ )
çĽ´ æĴŃ
ä¼Ĭ åĪ©
ä¾Ŀ èµĸ
èģļ éĽĨ
åľ¨ 197
éĺ¿å°Ķåįĳ æĸ¯
åĪ¶ æĪĲ
åħ±åĴĮ åħļ
ä½İ äºİ
æĢ ķ
äºİ19 0
m a
ç¼ ´
ç¹ģ æ®ĸ
èĤº çĤİ
èĭ±å°º ).
, æĮĩ
çļĦ æĸ¹æ³ķ
åĽ½ åĨĽ
éĽ· æĸ¯
, åĬłä¸Ĭ
ç« Ł
åĬł å°Ķ
æķĻ å®Ĺ
èĤ ¤
, éĥ½
å¸ ĸ
æľ¬ ä½ľ
æľº åĪ¶
äºĶ ä¸ª
1 10
ä¼ļ æľī
ä¾ £
202 6å¹´
å±± åĮº
ä½¿ ,
èĲ½ æĪĲ
åĲĮæĹ¶ è¯¥åľ°
æĪĺ .
ç»´ å¤ļ
éŀ ĭ
ä¸»ä¹ī èĢħ
åİ¿ (ä»Ĭ
åŃ¦ ç§ĳ
æ¼ ł
ä¿Ŀ éĻ©
èĴ ²
åħ¬åı¸ .
çĶ° å¾Ħ
æģ© Â·
åĪĨå¸ĥ åľ¨
H D
éĺŁ éķ¿
ç¦ıå»º çľģ
ä¸º åħ¶
åī§ åľº
åį³ ä½¿
å¯Ĩ åĪĩ
198 8å¹´
æ£Ĵ çĲĥ
å° ¿
è®¤ åı¯
ä¾ĭ .
æ¶Ī éĺ²
åĽĽå·Ŀ çľģ
åĬŀäºĭ å¤Ħ
, å¤ļ
1 .5
å¤© åłĤ
éĺ² ç©º
è¾ħ åĬ©
çļĦ è§Ĵèī²
è½ ©
10 å¹´
èĭ± åĳİ
,ä½Ĩ çĶ±äºİ
äº¤ ç»Ļ
çłĶç©¶ éĻ¢
è§Ĥ çľĭ
, æĪĳ
. å¦Ĥæŀľ
éĤ ±
æīĵ çł´
æ¡¥ æ¢ģ
| |
ç¨ £
è®¤ è¯ģ
çļĦä¸Ģéĥ¨åĪĨ ,
è·¯ æ®µ
åĨĴ éĻ©
çĲĨ çĶ±
éķĩ .
å§Ķ æīĺ
åķĨ åºĹ
å« ©
å¤© æ°Ķ
0å¹´ä»£ ,
ç«ŀ èµĽ
19 å¹´
âĢ ĺ
èĢ¶ ç¨£
æľĢé«ĺ çļĦ
å¡ŀå°Ķ ç»´äºļ
å¥ ł
è¥¿ ä¾§
æĭī çī¹
æĦı ä¸ºâĢľ
5 4
éĩı åŃĲ
åī¯ ä¹¦è®°
,ä¸º äºĨ
åĪ¶ä½ľ .
èģļ èĲ½
çļĦ å·¥ä½ľ
çļĦ åİŁåĽł
èµĦ åĬ©
åĬłåħ¥ äºĨ
ä¼ļ è¯ķ
åĻ¨ .
å¼Ĺ éĽ·
,åĲİ èĢħ
æĪĲç«ĭ ,
æĴ¤ éĢĢ
å¤©æĸĩ åı°
çľģ,ä¸ľ ä¸´
ä¼ļ åĳĺ
åĬł åĵ¥
äºº ä¸º
åįĹ èĩ³
è®¾è®¡ .
æī© å»º
I T
æł Ĺ
èĬĿ åĬłåĵ¥
6 ä¸ª
çļĦ æĢ»
ä»¥ ä¸º
ç© ´
5 ä¸ª
å®¶ ä¸Ń
çĤ ¼
è´§ è¿Ĳ
å½± è§Ĩ
å®¤ åĨħ
åľ°æĸ¹ èµĦæĸĻ.
ç»ĦæĪĲ .
çļĦ éŁ³ä¹Ĳ
ä»¥ ä¸ĬçļĦ
è¢« ä»»åĳ½ä¸º
äººæ°ĳ ä»£è¡¨å¤§ä¼ļ
æ¤ İ
Â· åį¡
ä¸ĭ å±ŀ
èĭ ¹
èĩª æĪĳ
å±ķ çİ°
çļĦ ç¾İåĽ½
ç§¯ åĪĨ
çº³ åħ¥
æ¯ı æĹ¥
è®¸ åı¯
ç» ¥
çľ ł
åº§ æłĩä¸º
åģľ è½¦
äºº æĿĥ
é¸ Ń
çļĦ è¯Ŀ
ä¼Ĺ è®®éĻ¢
èħ ¿
å¼Ĺ éĩĮ
æ¶µ çĽĸ
, å°½ç®¡
åİŁ åĲį
in t
è§Ĵ åº¦
èĢģ å¸Ī
åģļ åĩº
ç»¿ èī²
) æĪĸ
å¤§ å¸Ī
éľ ŀ
èĬĤ åº¦
çľģ, è¥¿
çļĦ éķ¿
çº¦ çĳŁ
æĥ³ è¦ģ
çļĨ ä¸º
çļĦ æĿĳåºĦ
ä¹Ł ä¸į
çļĦ æĹ¥
ä¹ĭ ä¸ĭ
è¿Ľ åħļ
æŃ» åĪĳ
, çĽ´èĩ³
p er
ä¸į æķĮ
è´¢ äº§
åľ¨ èĭ±åĽ½
éĥ¨ .
,å¹¶ ä¸İ
ä¸¤ ä½į
ä¸¤ ä¾§
éª ļ
ä¸¹ å°¼
5 7
å· ·
æĸ¹ ä¾¿
ãĢĭ ãĢĬ
åıĽ ä¹±
åĨħ èĴĻåı¤
ç«ŀ æĬĢ
M V
m ent
å¥¹ åľ¨
.201 8å¹´
äº¡ .
æ¤įçī© .
ä¸ ¸
å¤§ å¤«
çī¹ æľĹ
å¨ ħ
èħ º
è½¦ éĺŁ
æľį è£ħ
éģŃ åıĹ
ãĢģ æŀĹ
èħ ĵ
çĭ¬ç«ĭ çļĦ
æľ¬ äºº
çº¿ ä¸Ĭ
èģĮ ,
a i
è¡Į .
è¥¿ éĩĮ
éĩį éĩı
è¯Ń .
æ¶ Ľ
199 3å¹´
å·¦ ç¿¼
U -
ä¸Ģ å°ıæĹ¶,
åĽŀ å¿Ĩ
çĶµè§Ĩåī§ ãĢĬ
çļĦ å½¢å¼ı
èį ¡
äºĨ ä»ĸ
è° Ĭ
çĽ´ åįĩ
è£ģ åĪ¤
é©¬ æģ©
å¨ ¶
ç¤¾ ç¾¤
oc k
è°ĥ å¿«
å±Ĥ ,
ä»ħ æľī
æ²³ è°·
æ¶ī å«Į
æŁ¥ çĲĨ
å®£ ç§°
èĲ¥ ä¸ļ
é±¼ éĽ·
è® ¼
å¼ł ä¸ĵè¾ĳ
åįı å®ļ
çĽ¸åĲĮ çļĦ
äºº æ¬¡
æł¼ éĽ·
æĶ¹ è¿Ľ
ç©º è¢Ń
ST ).
åº§æłĩä¸º ,èĢĮ
æĸ° åĨł
è¾Ĳ å°Ħ
çļĦ æľĢ
åľ¨ åı°æ¹¾
ä¸Ĭ éĺµ
éĵ ĥ
,å¹¶ çĶ±
åł ¤
æĥħ ç»ª
å¾ģ æľį
è®¾æĸ½ .
å¤§ä½¿ é¦Ĩ
æ³ķ ä»¤
åĺī ä¹ī
æ³½ å°Ķ
èŀį åĲĪ
8 6
æ¯ Ĺ
æĬ Ħ
äºİ ãĢĬ
æİ ©
è¿ŀ è½½
åĻ ¶
ãĢģ å°ı
), å¹¶
åıĤ è®®éĻ¢
ä¾ĭ åŃĲ
ä½ľçĶ¨ .
,ä¸¤ äºº
ä»¥ ä¸ľ
æĪĺ æľ¯
è¯´ :ãĢĮ
ä¼ļ è¢«
é¢Ĩ åħĪ
éĩį è§Ĩ
æ´Ľ åħĭ
çļĦ åĲįåŃĹ
åľ¨ 196
äºĨ ,
ç£ ·
è§ī å¾Ĺ
æĸĩçī©ä¿ĿæĬ¤åįķä½į .
éĢļ çŁ¥
èº« åĪĨ
è½¬ çļĦ
16 0
a "
æĪĲ çĨŁ
èĪ Į
å½ĵ ä»£
æħ °
èĵĿ èī²
DT ).
è°ĥå¿« ä¸Ģå°ıæĹ¶,
ç Ģ
éĥ ģ
åı¯ è§ģ
æ¿ Ĵ
ä¾į éĥİ
çĬ¹å¤ª äºº
èĩ Ĥ
å¸ĥ æľĹ
ç¤¾ äº¤
è®¾æľī å¤ıä»¤æĹ¶éĹ´
è¯¥åľ° æīĢéĩĩçĶ¨
åĲĮæĹ¶è¯¥åľ° è®¾æľīå¤ıä»¤æĹ¶éĹ´
ST). åĲĮæĹ¶è¯¥åľ°è®¾æľīå¤ıä»¤æĹ¶éĹ´
è°ĥå¿«ä¸Ģå°ıæĹ¶, åį³
è¯¥åľ°æīĢéĩĩçĶ¨ çļĦæĹ¶åĮºä¸º
ST).åĲĮæĹ¶è¯¥åľ°è®¾æľīå¤ıä»¤æĹ¶éĹ´ ,ä¸º
, ç®Ģç§°
æ¼Ķ è®²
.201 6å¹´
å·¨ å¤§
éķĩ åĮºçļĦ
äº¤ æ±ĩ
.è¯¥ æĿĳ
æ»¡ æ´²
å»¶ ç»Ń
ä¸ĭ ä¸Ģ
éĢļ å¾Ģ
çĥ ¯
çĪµ å£«
.åĲĮ æĹ¶,
ä¸ľ ä¾§
åįķ ä¸Ģ
åĲįä¸º ãĢĮ
5 -
è´ ·
æĦŁ è§ī
ç²ī ä¸Ŀ
é«ĺäºİ æµ·å¹³éĿ¢
. 2
u re
199 0å¹´
çļĦ åħ³ç³»
æĢ» çĽĳ
ä¼ł æķĻ
æį· åħĭ
çĽ¸å½ĵ äºİ
a h
æĮ ¡
åŃĲ å¥³
æİĴè¡Į æ¦ľ
èīº äºº
è´§ çī©
),èĢĮ è¯¥åľ°æīĢéĩĩçĶ¨çļĦæĹ¶åĮºä¸º
æīĢå¤ĦçļĦ æµ·æĭĶä¸º
èĭ±åĳİ ),èĢĮè¯¥åľ°æīĢéĩĩçĶ¨çļĦæĹ¶åĮºä¸º
æīĢå¤ĦçļĦæµ·æĭĶä¸º é«ĺäºİæµ·å¹³éĿ¢
è¾ĵ åĩº
è¡¥ åħħ
, éĢļè¿ĩ
c ol
ä¸Ń æľĢ
åº ¶
çİ ²
éķĩ åĮº.
çĶŁæ´»ä¹łæĢ§ä¸įæĺİ .
åľ° å½¢
æ¼Ķ åĮĸ
éª Ĺ
è®¾è®¡ çļĦ
å½±åĵį ,
ç¬¦ åı·
çī¹å¾ģ .
ç§į åŃĲ
å¸ Ĩ
å®¶åºŃ .
ç»ĺ çĶ»
C o
u g
åľ¨ ä¸Ń
å¤§ éĿ©åĳ½
èģ ª
æĦ ¤
ä¿Ŀ è¯ģ
æĻ® ç½Ĺ
æĹłçĹĩçĬ¶ æĦŁæŁĵèĢħ
å¼ ĵ
è¡ĮæĶ¿ éĻ¢
)æĺ¯ æ³ķåĽ½
æ°¸ ä¹ħ
å¸Ĥ ãĢģ
åĨħ .
åĲĪ åĲĮ
é² ¸
è¯¦ ç»Ĩ
ç»´å¤ļ åĪ©äºļ
èį Ĩ
åĪ¶ä½ľ çļĦ
æıĲåĩº äºĨ
èĦ± ç¦»
çī¹ å°Ķ
æĪĺ éĺŁ
åŁİ çļĦ
äº¬ éĥ½
åħ· å¤ĩ
å¾Ī å°ĳ
äºĴ åĬ¨
r an
å¤§ éĺª
ä½Ĩ æĺ¯
å°¼ åı¤
or d
çĵ ¶
çĻ» è®°
7 3
æ¡ Į
,åį³ åĮĹç¾İ
( I
ç¥ ¯
è·¯ åı£
) :
ãĢĭ ä¸Ģ
æł¼ å°Ķ
æĥħ èĬĤ
å±Ģ .
ar e
æ¾ Ħ
.201 0å¹´
zh- c
æ© Ħ
a w
åľ° äºļ
åĮº éĹ´
èĭ± è¯Ń:
éĺ¿ éĩĮ
éħ ®
èİ· èĥľ
æķĻèĤ² éĥ¨
åºı åĪĹ
äºİ201 6å¹´
èĤ¡ä»½ æľīéĻĲåħ¬åı¸
S S
o y
æ¯« ç±³,
. 3
æ¸ ł
æİ¢ éĻ©
éķĩåĮºçļĦ éĿ¢ç§¯ä¸º
äº ©
çī¹ éĩĮ
ä½ľ ä¸ļ
æł¼ éĩĮ
æĸ½ å·¥
éķĩåĮº ()æĺ¯ä½įäºİç¾İåĽ½
ä¸º æĸ°
åº ĩ
ãĢĭ åľ¨
æŃ¤ æ¬¡
æµģ ä¼ł
UTC- 6
ä½įäºİ ç¾İåĽ½
çº¢ åĨĽ
èļ Ģ
ä¼Ĭæĸ¯åħ° æķĻ
. ä¸Ģ
ä¼ ŀ
å§ ¿
å¤ļ åĲį
åĽĽ ä¸ĸ
ä¸¾ äºº,
8 2
å§ ĳ
å¾· æĦıå¿Ĺ
éĤ ĳ
è¯º å¤«
è½°çĤ¸ æľº
éĿĴ å°ĳå¹´
æķĪåĬĽ äºİ
æ Ĩ
åħ¬ é¡·
åĩºèº« .
ä¸» å¯¼
ãĢį ä¹ĭ
èĬ Ń
ç±» çļĦ
.è¿Ļ ä¸Ģ
æ´»åĬ¨ ,
ä¼łç»Ł çļĦ
zh-c n:
æ©Ħ æ¦Ħ
ç» ĳ
æĶ¾ åľ¨
å²Ľ çļĦ
æĿĳ .
èĩ´ åĬĽ
çģŃ ç»Ŀ
ä¼ļ ä¸Ĭ
è¿Ļ éĩĮ
ç»´ åŁº
ä½Ľç½Ĺ éĩĮè¾¾
ä» Ĩ
åº ļ
æ³ Ħ
æ» ķ
çİ°åľ¨ çļĦ
åįĹæŀģ æ´²
. 6
å¤ļ æł·
äºĮ çº§
æĢ» è£ģ
äºİ19 2
æ¤ ħ
äºĴ èģĶç½ĳ
åĬĽ ,
å®¹ çº³
äº¿ åħĥ
æ®ĸæ°ĳ åľ°
æľ¬ ç§ĳ
æµ· ä¸Ĭ
å·´ åĭĴ
åİĨåı² åŃ¦å®¶
17 8
ãĢĭ( "
ä¸ľåįĹ äºļ
æ²Ī éĺ³
ä¸ľ äºļ
æ±ī åŃĹ
,ä¹Ł æľī
7 ,
ç¥ Ī
çĽ¸ åıį
å®ĺ ,
çıŃ æ¬¡
()æĺ¯ ä¸Ģä¸ª
çĪ ·
å°ĳ å°Ĩ
æĪĺæĸĹ æľº
k m
çļĦ æĶ¿æ²»
æĶ¿ åıĺ
çļĦ ä¸į
éĥ¨ å°ļä¹¦
æ²¿ å²¸
éĽĨ ä½ĵ
åį³ å°Ĩ
åį« éĺŁ
çĸ« èĭĹ
éĩĳ å±±
ç¾¤ ä¼Ĺ
åľ¨ åĮĹäº¬
åŃ¦ ç³»
ç½ ©
çī¹ èī²
æ¼Ķ èīº
å®īå¾½ çľģ
è©¹å§Ĩ æĸ¯Â·
è¿ĳ ä»£
è¿ŀ ä»»
ç¾¤ ä½ĵ
åĪĨ åĮº
å¸ĥ éĽ·
å®ī Â·
åį« è§Ĩ
èĭ¹ æŀľ
, æĹ¥æľ¬
åĪĨ æł¡
éĢļ çĶ¨
æĢ» ä¼ļ
åķ ¡
åĬ £
æĿ¥ è¯´,
ä½¿çĶ¨ äºĨ
æĭħ å¿ĥ
æĶ» åįł
çļĦæĥħåĨµ ä¸ĭ
. åĽł
çº§ èģĶèµĽ
198 9å¹´
æħ İ
P lay
ä¸İ ãĢĬ
ä»į æľī
åıĤä¸İ äºĨ
m e
éĢ ¸
ãĢį åĴĮ
è¿ŀ ç»ĵ
å¹² éĥ¨
æ°ĳ è¿Ľåħļ
å·¥ ä¼ļ
çļĦ çĶµ
ä»¥ è¥¿
ä»ĸ æĺ¯
æĥ §
æ¸ħ æ¥ļ
é¹ ı
äººçī© .
æİ¢ ç´¢
, åıªæľī
2 50
éķĩ åİĭ
æĻ®é²ģ å£«
ð «
éķ ĳ
çľģ çļĦ
å¹³æĸ¹ ç±³,
æŃ» .
æł¸ éħ¸
æŀ¶ æŀĦ
è´ ª
å½ĵ å¤©
çŁ ®
éĥ½ è¢«
åįķ æīĵ
çĥ ·
åĢ¼ å¾Ĺ
åĪ¤ åĨ³
éķ¿ çº¦
è¿ĩç¨ĭ ä¸Ń,
èľ Ĥ
çļĦ åıį
ç»Ħ .
ä»İ æľª
é³ ŀ
å¥³ çİĭ
å¤« å¦ĩ
, ),
, å¸¸
çļĦ ç»ĵæŀľ
ç¬¬ä¸Ģ ä½į
å°ıè¯´ ãĢĬ
æī ĳ
å±± è¥¿çľģ
æ¨ ±
çļĦä¸Ģ æĿ¡
æ¸ħ ä»£
éĴ¢ çĲ´
, ä»»
è´ ¼
æł¼ æŀĹ
å®ŀ è·µ
æĽ´ å¤ļçļĦ
å¤§åŃ¦ ãĢģ
èīºæľ¯ å®¶
åĲİ èĢħ
æŃ¤ ç«Ļ
è° ´
.201 5å¹´
è¸ ı
, èĭ¥
i re
æĸ¯ åľ¨
åĨĽ åľ¨
æĪĺ ,
åĽĽ å¹´(
éĢ ¾
å®ļ æľŁ
æĺŁ ç³»
,ä½įäºİ è¯¥
åĮĹæµ· éģĵ
ä»ĸ ä¸İ
è¯¥ åľ°çļĦ
éĩį è¿Ķ
ä¿® è®¢
åĪĩ å°Ķ
2019 å¹´,
å½» åºķ
9 6
åĬ³ å·¥
u st
åħ¶ å®ŀ
å¥¹ ä»¬
æ±Ł æĪ·
æĪĲ éķ¿
åĵ ª
æµ· åįĹ
è¿ª å£«
æĦ¿ æĦı
ig ht
( O
, çİĭ
çŃ Ĵ
åıĳè¡Į çļĦ
ä¼ļè®® åĳĺ
åįķä½į .
æ¡ĥ åĽŃ
You T
- 21
S c
ä¸Ń å°Ĩ
è¡Į èµ°
åĪ© Â·
çª Ħ
èµ Ķ
äºĨ ä»ĸçļĦ
åŃ¦ ä½į.
æł¼ é²ģ
æĺ¯ä¸Ģ ä½į
è½¯ ä½ĵ
éŃĶ æ³ķ
P S
éĻ¨ çŁ³
, ä¸ĭ
å¤´ è¡Ķ
æķ´ åĲĪ
2 åı·
D V
s )
çļĦ ç¥ŀ
æķ ²
åŃ¦ ,
ä¸ľ æµ·
èĤ ¢
ç»´ ä¿®
å¼ķ è¿Ľ
å¥½ è¯Ħ
ä»į åľ¨
æĴŃåĩº .
åİŁ åħĪ
åıĹ å®³
å±Ĥ çļĦ
s on
çº ł
æĬ Ľ
èĹ »
ä¼¤ å®³
è¡Į ,
çĲĨ æŁ¥
è¯ģ åĪ¸
. 4
i z
,èĢĮ åľ¨
åĵĪ èĲ¨åħĭ
è¢«ç§°ä¸º âĢľ
ä¹Ķæ²» Â·
è¿ªå£« å°¼
åĲİ åľ¨
, æĬĬ
çļĦ åŁºç¡Ģ
åĲİ è¢«
è¾ĥ ä½İ
æĶ¿æ²»äººçī© ãĢģ
åĲ Ĭ
19 20å¹´
è° ¥
è·¯ .
ä½¿ .
3å¹´ ),
ä¸Ģ æĶ¯
åĨ Ģ
198 4å¹´
æĸ¯ åł¡
èµ· è¯ī
è®® å¸Ń
è®° ãĢĭ
åĿ Ł
å®ĺ èĩ³
ä¼Ĭ æĭīåħĭ
ä¼¯ çī¹
c l
åĩ ¸
åĮº åĪ«
éģ ®
åįł æį®
p t
çļĦ æľº
æĥ ©
åĨħ åľ°
å£« .
é»Ħ èī²
, è¿ĺæľī
. åı¦å¤ĸ
; zh-tw:
ç»´ åħĭ
, å½¢æĪĲ
i b
ä¸º äºº
ä¸» åĬ¨
çī¹ åĮº
åĪ© çļĦ
çĽ® çļĦæĺ¯
åĸ ĩ
ä¹¡ éķĩ
, éĺ¿
, å¼Ģå§ĭ
, 197
åľ¨ æĸ°
æľī :
è¢« åĳĬ
ä¿® éģĵ
äº§çĶŁ äºĨ
æĴŀ åĩ»
( V
/ &gt;
ç½Ĺ å¾·
formula_ 1
.201 4å¹´
äºİ201 5å¹´
æŃ ī
è¯º æĽ¼
æľĽ è¿ľ
,æĪĸ èĢħ
æĪĺ åĪĹ
èµ· åĪĿ
è®¤ åĲĮ
èĥĮ é³į
äºİ201 4å¹´
ç¬¬ä¸Ģæ¬¡ ä¸ĸçķĮå¤§æĪĺ
çĩĥ æĸĻ
çļĦ ä¸Ĭ
é£Ł çĶ¨
æĹłçº¿ çĶµè§Ĩ
çĶ ľ
åĽ½ éģĵ
èµ £
çİĭ åŃĲ
æŃ¦ å¸Ŀ
å¸Į å°Ķ
i al
æľ µ
å§Ķ ä»»
éĻ¤ æŃ¤
æĶ» æīĵ
äºİ201 8å¹´
çºªå½ķ .
çļĦ çĶµå½±
çļĦ æīĢæľī
å± ¥
åľ° åĲį
æłĩ è®°
çĶ· å¥³
. åı¦å¤ĸ,
å¤ļ é¡¹
æĲº å¸¦
P C
ãĢģ æ°´
åħ¬ åĬ¡
é¢ ł
æĶ¹ å»º
202 1å¹´,
èĭı ç»´åŁĥ
.201 3å¹´
æ¡£ æ¡Ī
åĽ½éĺ² éĥ¨
è®® é¢ĺ
åĪĹ åĩº
æ¨¡ çī¹
æĤ ł
éĢĶ ä¸Ń
ä¸Ģæł· ,
a )
ç» µ
åŁİ å¢Ļ
äº¤ çķĮ
ç»Ī çĤ¹
è´¹ çĶ¨
äºİ201 7å¹´
èĽĭçĻ½ è´¨
B e
çļĦ æŃĮæĽ²
åİ ¥
äºĨ è®¸å¤ļ
äº¤ åıī
å¡ŀ çº³
æ³ķåħ° åħĭ
è°´ è´£
9 7
çļĦ æĪĲåĳĺ
æ¸ Ĭ
åį° ç¬¬
èı² åĪ©
åĨħå®¹ .
æĸ¯ åĴĮ
èĬ Ļ
æ¢ ¨
å»ºçŃĳ å¸Ī
ä¹¦ .
åħĪ è¿Ľ
æ¹ĸ æ³Ĭ
ä¸ĭè¾ĸ ä»¥ä¸ĭ
çŁĽ çĽ¾
" .
åį §
æĺ¯ åĽłä¸º
çī© åĵģ
è¿ĺ åľ¨
ä»Ĭ å¤©
çī¹æľĹ æĻ®
. 1
éĤ µ
æ²³ éģĵ
æĻº æħ§
å²© çŁ³
æľī ãĢĮ
åľ° ä¸Ń
åĲį è¯į
ä¹Ł æĽ¾
åĽ¢ ç»ĵ
åºĶ å¯¹
è°ĭ æĿĢ
, åĽĽ
å¤§ .
åĲİ æĸ¹
åı¯ åľ¨
ä¼¦ Â·
çĶŁéķ¿ äºİ
ä¼Ļ ä¼´
å¼Ģ å·¥
åĿ ł
çĤ Ń
ä¸¾åĬŀ çļĦ
ãĢģ ä»¥åıĬ
åī ¥
ä»£ æĽ¿
éģĵ åħī
å®ŀ ä½ĵ
åŀĭ .
æ²Ļ çĶ°
2å¹´ ),
,æĺ¯ ä¸ŃåĽ½
æĶ¶ è´¹
è¶³çĲĥ éĺŁ
åĶ¯ä¸Ģ çļĦ
8 4
äºİ 2020å¹´
æľ¬ çº¿
åİĨ .
4å¹´ ),
ç½Ĺ å¤«
æıĲ äº¤
èģĮ ä½į
è¿Ľè¡Į çļĦ
å¦¹ å¦¹
æľĽè¿ľ éķľ
, å¼ł
i es
m er
äºİ æŃ¤
ä»» æķĻ
A S
å¥ ¸
çĲĨ å¿µ
çķ ħ
åľº åľ°
éģĩ åĪ°
æ²³åĮĹ çľģ
ãĢģ åĲ´
æĢ§ åĴĮ
çº³ å·ŀ
æĤ ¦
å·¨ å¤§çļĦ
9 3
å¼Ģ åĬŀ
å®ī å¨ľ
7å¹´ ),
éļ¾ æ°ĳ
é¢ģ å¸ĥ
æŀ¢ çº½
éĢ» è¾ĳ
åį°ç¬¬ å®ī
ç¦ı å¾·
éĻį éĽ¨
çľģ, åįĹèĩ³
æĹ ±
ãĢģ ãĢĬ
æ±Ł åįĹ
æł¹æį® 2020å¹´ç¾İåĽ½äººåı£æĻ®æŁ¥çļĦæķ°æį®,
ä¸įåĲĮ ,
ic h
äºİ201 2å¹´
l d
è¯Ń éŁ³
ä¸ĵ çĶ¨
çİĩ .
æĶ¿ åĬ¡
æīĢ éľĢ
å¤ĸ è§Ĥ
.200 8å¹´
1 æľĪ1æĹ¥
æĹ¥ å¸¸
èµĽ çļĦ
çĪ± åĽ½
ç±į ,
åįķæĽ² ãĢĬ
æ© ¡
æľŁ çļĦ
è¡Į é©¶
éĥ½ çĿ£
ä¹¦ ,
å²Ľ ä¸Ĭ
å¼º åĪ¶
å¼ķ çĶ¨
æİĴ åĪĹ
æµİ åįĹ
æľĢæĹ© çļĦ
ãĢį ä¸º
èĤ ©
ä½ı åľ¨
ä¹¦ åĨĻ
åįı åķĨ
ä¹ł æĥ¯
å´ ĸ
æĹłäºº æľº
, è¿Ľ
ç»ı çĶ±
è° ģ
éĢī åĩº
éĢī ç§Ģ
,è¿Ļ ä¸Ģ
æł¹æį® 2010å¹´
14 0
è¿· ä½ł
çļĦä¸Ģéĥ¨åĪĨ .
D S
å° ĺ
æľī èĳĹ
æ³ķ è¯Ń
æĥ ľ
æł¼ åĭĴ
é¦ĸ æŃĮæĽ²
åĽĽ å¤§
(), çĶ·,
.201 7å¹´
ç½Ĺé©¬ å¸ĿåĽ½
èĸ ĩ
. æľĢç»Ī
åĲĪ åĶ±
çº¿ æĢ§
æİ¥ èĳĹ
åį¡ æĸ¯
é¢Ĩ åľ°
æł¹ æľ¬
å¥ĸ éĩĳ
åį° åĪ·
æĹ¶ä»£ çļĦ
åĴ¨ è¯¢
, æĪĲç«ĭ
ä¸Ĭ äºĨ
ä¸ĭ äºĨ
ç«ĭ éĻ¶
,ä½Ĩ åĽł
èĥľ åĩº
åĪĳ äºĭ
. åĽłä¸º
çī ²
æģ ¨
5å¹´ ),
åľ£ ç»ı
è¯Ħ ä¸º
æ¢ µ
198 0å¹´
198 6å¹´
è° į
ä¿Ħ åĨĽ
èħ °
çĻ¾ å¹´
( 15
- åį¢çĵ¦å°Ķ
äºİ 2019å¹´
ä¸į è¦ģ
çĪ ª
å¡Ķ å°¼
ä¼Ĳ åĪ©äºļ
æĿŃ å·ŀ
ç½Ĺä¼¯ çī¹Â·
5 1
åĲĮ åĲį
è° Ĳ
åĩĨ ç¡®
åĨł çĬ¶
R E
åĵ Ģ
é«ĺ ,
è¿ĩ çļĦ
ç§° ä¹ĭ
é¦ĸ åº¦
é¢ĺ æĿĲ
ä½ı æĪ¿
,åıĪ åĲį
çĽ Ī
ç«Ļ æĪ¿
æ°Ķ ä½ĵ
ç»¼ èīº
æĢ ¡
ä»ĸ è¢«
è§Ĥ åħī
å¢ŀåĬł äºĨ
ç¼ĸåı· ä¸º
èī² å½©
è½¬ ä¸º
æ¯ĶèµĽ ,èİ·å¾Ĺ
å¼¹ èį¯
äºİ201 3å¹´
æĻº èĥ½
éķľ å¤´
çĥŃå¸¦ é£İæļ´
åŃŁ åĬłæĭī
çļĦ ä¸ŃåĽ½
å¯¹ è¯Ŀ
éĵ İ
çİĭ .
èĻ ı
æ¯ı åĳ¨
åıĭ å¥½
æİ¢ æµĭ
å½ķå½± å¸¦
èĩ Ģ
åħ¥ åĽ´
è° ¦
ä¸¤ èĢħ
6å¹´ ),
è®¡åĪĴ .
è¿« ä½¿
é©¬åħĭ æĢĿ
çĽ¸ åºĶ
çĻ¾ ç§ĳ
åĪĨåĪ« ä¸º
å±ħä½ı åľ¨
, åĲĦ
, éĻ¤äºĨ
ç« £
é«ĺ åİŁ
çĲĥ .
ç»´ ä¹Ł
1å¹´ ),
ç«ĭéĻ¶ å®Ľ
çļĦ æĹ¥æľ¬
æľī è®¸å¤ļ
æĪĲ æŀľ
åĮº åĪĨ
ç«ĭ åľº
æ¯ı å¤©
, æŃ£
1 30
B -
l o
çĿ Ľ
èĩªè¡Į è½¦
å¼ Ħ
åįģ æľĪ
ç§ĳ ä¼ļè¯ķ
è¯Ĩ åĪ«
çºªå½ķ çīĩ
æĳĩ æ»ļ
ãĢģ åı°æ¹¾
åĬ¨ è½¦
æĸ° å»º
æĥħ å½¢
çĳ ľ
ç¢ °
æĸĩåĮĸ .
.201 2å¹´
æİĮ æı¡
åĴĸ åķ¡
, æľĢ
M e
N BA
äºļ Â·
æ· ĳ
éĿĴ æĺ¥
æŃ¥ æŀª
çŃ¹ å¤ĩ
æ² ¼
èĤ Ŀ
çŁ¥ åºľ
æĻ¯ è§Ĥ
ç¼ Ŀ
198 5å¹´
, 195
æľ Ń
ä¸» æĿĥ
æĭī å°Ķ
æ¬¡ äºİ
ç±³ åħ°
è®¤ä¸º æĺ¯
åıĳçĶŁ äºĨ
ç«ĭæ³ķ ä¼ļ
èļ ģ
å¤ ¸
æĪĲç«ĭ .
çī©ç§į .
åı²å¯Ĩ æĸ¯
åľ¨ ä¸Ģ
åľ° äº§
å¹³ çŃī
èĪ Ĩ
ar k
çĽŁ åĨĽ
,ä¸º è¾Ĳé³įé±¼çº²
åĪ¤ å¤Ħ
è´ ¬
çī¹ åħ°
éĹ¨ .
å®¹ éĩı
åĲ¦ è®¤
ä¸º åŁºç¡Ģ
åĬł åĪ©äºļ
åīį è¿Ľ
&lt; /
é©±éĢĲ èĪ°
çĽ´åįĩ æľº
å¯¹ ç§°
åīį èº«
åĨħ æĶ¿
çĽ¸ ç»§
æİ¥ ç®¡
èĪª çıŃ
åĵ¥ åĵ¥
äºº/å¹³æĸ¹åħ¬éĩĮ (
çŁ© éĺµ
âĢĿ åĴĮâĢľ
åħĥ æľĿ
æĽ´ æį¢
èĿ ł
å¥¥æĸ¯ åį¡
è¡į çĶŁ
( çº¦
ãĢģ æĿ¨
å¯¹ éĺµ
ä¸ī äºº
æł¡ åĮº
åħµ åĽ¢
æ³° åĭĴ
é¢Ħ å¤ĩ
æĪĲç»© .
P h
å® ł
å¼Ģ åĲ¯
æĪĺ èĥľ
èµĽ ,
æĳ Ķ
æµ Ĩ
, å·²
ç¥ Ĳ
åįķ åħĥ
è½¬ ä¼ļ
å¸Ń ä½į
194 8å¹´
,æŃ¤ åĲİ
c o
éĩĮ .
æĸ° åĮĹ
), äººåı£å¯Ĩåº¦
ä½ĵ éªĮ
èĩ³ äºİ
æĮĩ æķ°
åŀĭ åı·
ä½¿çĶ¨ èĢħ
çģ« è½¦
çģ« çģ¾
çİ° åŃĺ
äºĮ å¹´
éļı åĲİ,
å°ģ ä¸º
æĿ¥èĩª äºİ
æīĺ é©¬
, éĥ¨åĪĨ
à ¸
ä¹ĭ éĻħ
æŃ¤ æĹ¶
æ¼ Ĩ
æł¡ èĪį
æİ¨ ç¿»
å¿Ĺ æĦ¿
çĻ¾ å§ĵ
æ°ı ,
ä¹ĭ ä¸ĭ,
ãĢĭ ä¸Ń,
é¢ ĸ
èĭ± éķĳ
å®¢ æĪ·
æ¸¸æĪı .
() çļĦ
æĹ§ åĿĢ
; zh-hk:
J R
èµĽ è½¦
çĮ ľ
è¿ĲåĬ¨åĳĺ .ä»ĸæĽ¾ä»£è¡¨
åĪĨç±» .
åŀĤ çĽ´
, æĭħä»»
, å¸ĮæľĽ
ä¸Ń ä¸ĸçºª
çĶµ æ±ł
åĭ ĺ
æĥħ æĦŁ
æķĻèĤ² .
æ²³æµģ åŁŁ
, åĪĨ
åħ Ķ
å·´ ä¼ĲåĪ©äºļ
æĽ¾ æĺ¯
ç¨ĭ .
é¾Ļ çļĦ
æĹ© ä¸Ĭ
åĪĨå¸ĥ .
ä¼ģ åĽ¾
èµĦæł¼ .
ç¥Ń ç¥Ģ
æ¹ĸåįĹ çľģ
å¿ Į
éĿ¢ åĲĳ
å±± ,
åħ¨ ä½ĵ
éĢī æ°ĳ
,èĢĮ ä¸įæĺ¯
ä¼Ĳ åħĭ
è· Į
æķ° åįģ
ä¿Ŀ å®ī
åįĩ æł¼ä¸º
ä¸» æµģ
éĩį å¤į
èĽ Ľ
è¿ģ ç§»
è¾ Ī
åıĺ æį¢
ç¬¬åįģ ä¸ī
ç§© åºı
, åĲĮ
åįĹ ä¾§
, åĬł
C on
å¹¶ åľ¨
ç¾İåĽ½ æĢ»ç»Ł
éĺħ è¯»
æ° ®
ä¸» åĬĽ
å°º å¯¸
ç»ĵæĿŁ .
1 /
I V
çī© çļĦ
åľ£ æ¯į
è¿° .
è§Ĵèī² .
é©± åĬ¨
éĿŀå»ºåĪ¶ åľ°åĮº.
8 3
ãĢģ H
æĺ¯ ä¸ª
ä¸ī åĽ½
äºĶ æľĪ
å½ķ åĪ¶
M S
a la
ä¸Ĭ è¯ī
çľģ éģĵ
194 4å¹´
èģĮä¸ļ çĶŁæ¶¯
se ction
9 2
åıĳ æİĺ
å¤§ è¡Ĺ
æ¹ĸåĮĹ çľģ
YouT ube
åİ ī
c he
ãĢģ éĺ¿
å¤§ éĺŁ
åĿ ŀ
