#version: 0.2
n g
a n
s h
z h
j i
a ng
Ġ Ġ
o ng
x i
a o
a i
d e
e i
sh i
y u
o u
y i
e n
c h
i an
u o
e ng
l i
ĠĠ Ġ
ã Ģ
i ng
u i
w ei
u an
zh i
q i
n ian
zh ong
y ou
r en
u n
z ai
d i
g uo
ãĢ ģ
h e
b u
e r
g ong
xi ng
ch eng
d a
zh u
h u
yu an
s i
ji an
yu e
g e
f u
xi an
u e
k e
w u
ch u
sh u
sh eng
ji e
ji a
b i
d ao
z i
b ei
h ui
f a
xi ang
t i
zh eng
m i
t a
ji n
q u
2 0
t ong
r i
j u
ji ng
m ing
l e
h ou
sh ang
sh ou
d ong
c i
f ang
1 9
hu a
yi n
x ue
g uan
zh an
y e
yi ng
z uo
zh e
y an
m ei
ji ao
g u
ch ang
xi n
d ui
l u
b ing
b ao
f en
d an
h uo
j un
ji ang
d u
xi ao
d ian
y ong
q ian
sh e
t ai
xi a
m u
w en
g ai
zh ang
li ang
y a
r u
d ai
h ai
n an
zh ou
z u
w ang
l ai
b an
ji u
d ang
q ing
p ing
sh en
ãĢ ĭ
ãĢ Ĭ
w an
l ian
li ng
l uo
Â ·
mi n
q uan
p i
n i
b o
d uo
t e
b en
g ao
bi ao
s uo
l a
m a
k ai
b a
xi e
x u
b ian
de ng
y ao
y ang
m ian
zh en
d ing
qi u
z ui
s ai
li u
f an
x uan
f ei
s an
sh an
ch e
z ong
m en
ãĢ Į
ãĢ į
t u
t ian
h ao
s u
l ei
n ei
yu n
20 1
l an
f eng
m o
n a
z e
l v
h an
k ou
w ai
n eng
li n
ch uan
ch i
j ue
b ai
p ai
20 0
k u
c ai
z ao
t ing
zh uan
g ang
li e
gu ang
g ui
l un
s ui
p u
c eng
k ong
sh ui
1 0
ch ao
zhu ang
ch a
d ou
c an
t ou
r an
s e
d uan
c un
h uan
c ong
pi n
c e
ch an
x un
g ou
0 0
n v
zh ao
g an
ch ong
sh a
t an
1 8
qi n
k a
m eng
qi ang
hu ang
xi u
1 2
ti ao
m an
sh ao
k uo
l ong
p ian
sh uo
t uan
t ang
r ong
g eng
20 2
ch en
t ui
g en
q ue
ti e
1 1
qi e
w o
p o
p ei
h ang
h ong
19 9
b ang
li ao
chu ang
bi e
r e
t uo
t ao
s ong
w a
m ai
h a
1 5
p an
d un
di ao
qi ao
s a
m ao
l ang
k an
k ang
â Ģ
o r
l ao
z eng
1 6
19 8
k ao
xi ong
1 7
o n
n uo
mi ao
r ang
ku ang
h en
s uan
1 4
3 0
zh un
1 3
19 4
c ao
h un
q un
n ong
19 7
h eng
shu ang
l ou
g ei
ku ai
pi ao
zh a
h ei
ni u
19 5
s en
bi n
r eng
z ou
19 6
ch un
k uan
2 5
âĢ Ķ
r ui
s un
p ao
n ing
f or
p a
c ang
m ou
2 4
p eng
hu ai
2 1
19 3
2 3
mu la
for mula
2 8
z an
r uo
i n
2 2
ch ou
zh ui
a r
m e
2 6
5 0
20 20
2 7
n ai
n u
ï ¼
2 9
sh un
201 0
z a
00 0
lv e
zh ai
20 19
n e
r o
j uan
s t
r a
c ui
k un
201 6
l uan
201 8
c uo
202 1
. 5
z ang
201 4
shu ai
201 1
201 5
201 7
201 2
4 0
201 3
n ao
202 2
di e
r uan
k ui
l t
r ou
c u
s ang
200 9
200 8
ã ĥ
6 0
ni ao
a l
r ao
ch ai
10 0
zh uo
202 3
g t
s ou
19 0
3 1
k en
200 7
200 1
t eng
p ang
0 .
f ou
c o
f o
gu a
200 0
8 0
200 6
202 4
ã ģ
1 .
200 5
z un
ti on
ku a
t he
3 5
7 0
ni e
l o
o f
9 0
2 .
l eng
ï¼ į
ã Ĥ
a m
t un
t er
mi e
200 4
t h
t o
4 5
4 8
m ang
202 5
v e
g a
ãĢ ī
ãĢ Ī
3 6
3 8
200 3
3 7
M a
ch ui
p en
l l
18 9
I N
200 2
3 .
k eng
T C
d o
3 4
7 5
âĢ ĵ
C o
4 6
c a
199 0
âĢ ¦
c k
3 9
. .
b e
6 5
3 2
S T
4 7
U TC
199 9
199 8
198 0
18 8
5 00
3 3
I n
6 4
s s
T he
v i
. 8
S E
5 5
199 7
R e
h i
4 9
I I
e l
6 8
e t
4 4
199 6
o o
qi ong
199 4
g un
b r
gu ai
. 0
. 7
199 2
199 5
. 9
M i
6 7
an d
s ao
e s
199 1
197 0
5 8
195 0
3 00
199 3
18 7
194 9
. 6
a t
A T
p e
196 0
4 2
194 5
L i
v er
qi a
198 8
t y
198 9
6 9
R o
i s
r un
SE E
ni ang
IN SEE
h o
5 9
4 3
6 6
5 7
198 5
9 9
S A
ãĢ İ
ãĢ ı
c t
198 4
4 1
8 8
198 6
w i
o l
w s
T V
r y
15 0
M e
n d
4 00
198 7
7 8
198 2
5 6
b eng
V i
P a
t s
198 3
am p
N A
D e
C D
g h
f i
w eng
b er
7 7
W in
p er
z uan
S ta
7 9
O S
W i
Â °
ï ½
de r
18 0
B C
5 4
197 9
6 1
19 20
. 2
a s
M o
s eng
9 8
5 2
Y ou
197 8
. 1
n o
6 2
5 3
l y
shu a
L a
ï½ ŀ
B A
194 6
C O
5 1
195 8
g i
J o
198 1
. 3
197 2
194 8
. 4
L e
t w
A M
6 3
A R
c tion
194 1
B S
G a
19 30
D a
P ro
T e
7 6
han s
194 0
193 7
197 6
194 4
J a
8 9
u s
D i
Win do
197 5
ï¼ ı
196 8
h k
c on
F i
u m
S i
10 00
Windo ws
9 5
8 7
na l
M ar
196 6
r d
8 5
N e
R a
k i
6 00
1 20
194 7
S e
A C
195 6
196 4
B e
194 2
Ã ©
195 5
195 2
I S
a d
193 9
193 8
7 2
u r
7 4
C a
v a
197 3
197 4
195 4
A r
A l
E D
19 00
- -
A P
194 3
T o
197 7
l d
197 1
c en
la y
196 7
B a
I C
8 00
P o
L o
E R
zhu a
s ta
8 6
195 9
B o
t t
196 5
J R
196 9
F a
ãĥ »
Ã Ĺ
I D
B i
s on
193 6
16 0
9 7
195 3
S a
M A
196 2
196 1
n en
N a
â Ķ
S o
193 5
co m
H o
ti c
9 6
O N
ï¼ ħ
195 1
S t
195 7
196 3
T u
âĶ Ģ
f e
s o
men t
8 4
H i
202 6
8 2
D o
m er
R i
7 3
n t
9 4
9 2
K i
H a
n ang
on e
I P
A N
l s
193 3
193 1
le s
7 1
n uan
Co m
8 3
9 3
te d
S u
8 1
T i
M u
19 18
N i
H D
U ni
19 28
p p
193 2
C ha
W e
y s
M V
S S
1 10
I T
19 12
N o
19 29
19 27
193 4
c n
7 00
g o
1 .5
z ei
gh t
st er
25 0
9 1
r t
l li
19 24
ri s
.. .
19 19
nv e
1 30
P i
19 25
G i
P S
b y
e d
me s
A n
P C
14 0
A S
P lay
19 14
k m
D V
ti o
You Tu
S M
b le
g ra
k o
19 11
C on
C h
l la
19 26
l le
G e
P ar
i d
T a
19 22
L in
m p
19 17
H e
K a
E T
N BA
w n
I V
E N
19 23
19 21
sh ai
G oo
ch uo
0. 0
17 0
à ¸
E C
M S
a li
A L
p h
se ction
YouTu be
E P
B L
19 13
C ar
B u
z en
H K
w e
h n
m m
v en
han t
2 .5
â Ĩ
190 9
si on
In ter
c ro
M P
A I
W or
P e
d s
U S
p ro
DV D
o k
3 000
E n
19 10
D S
R O
c ou
S te
si s
1 12
G o
r k
A K
R E
19 16
W a
li a
ãĥ ¼
Sta tion
F or
N et
f f
Î ±
of t
in e
de n
l or
re a
tio nal
g n
tu re
g le
C P
U N
â Ī
ar d
19 15
g in
190 5
p s
F C
c al
v o
di a
M y
C N
â Ħ
âĨ Ĵ
ou r
er s
190 1
en t
A u
D NA
E x
âĢ §
9 00
en d
H R
di ce
. &
the r
ta l
C H
T A
T O
190 6
190 4
2. 0
A V
te s
M O
ji ong
Jo hn
m y
er i
co dice
M an
âĦ ĥ
d y
Play Station
C hi
0 5
C C
ti ve
di u
A nd
190 7
di o
190 8
Goo gle
A G
C i
E ST
0 .5
M I
S O
L E
si c
re e
B O
in t
wi t
B BC
S ch
A D
I G
lan d
II I
c ri
4 .
t on
15 00
5 000
c y
rou nd
w er
I ST
m s
r on
M E
C R
u l
3 D
j e
6 .
I A
le y
10 5
a u
Ð °
ri a
10 1
190 3
t or
G B
v an
0 9
T E
L u
190 2
B D
N C
P ri
F e
x t
3 50
p ou
Ã ¡
SA O
5 .
de s
D C
j a
Î ²
c ke
B 1900
B1900 .0
bo ok
ha t
E S
al l
B M
ï¼ İ
ãĥ ³
R u
n er
189 8
re s
0 6
1 18
o p
ãģ ®
3 60
D R
Ne w
0 1
D A
H u
O pen
189 5
g er
12 5
S ho
3 .5
H O
M C
1 %
S an
AT P
Mi cro
ct or
Ð ¾
10 8
f t
2 %
c or
o s
N G
K e
c lu
g y
gra m
p ri
wa rd
st y
I F
C u
F ran
O ne
ne t
s oft
k er
p t
âĪ Ĵ
0 7
0 8
2 30
Fa ce
10 4
pa ce
ls pan
C or
P er
B ar
Wor ld
A pp
ED T
IST AT
c uan
Lo ve
.5 %
K o
à ¤
H ar
N O
S tu
189 6
L L
u x
10 9
D P
la s
A A
f li
R I
J u
p ha
S er
lu s
lin e
R T
t ri
S P
E X
B 48
10 6
18 90
r ai
s ti
mo n
C ST
M L
o d
un i
CD T
ber t
J e
r s
ru s
re d
3 %
D O
P u
k y
H E
C ou
a tion
M on
0 4
4 000
11 5
1 200
M 1
P re
50 %
0 3
l er
G P
de l
C E
Ä ģ
Li ve
be gin
188 9
oo l
Da vi
wi th
6 %
ar a
189 9
co lspan
tai n
ba ck
187 1
R S
st o
Face book
E d
S ha
Micro soft
mi c
te m
âĢ ĭ
24 0
16 00
L O
T ri
t en
ti n
B E
lo w
10 2
bo x
10 %
clu de
A d
T T
189 7
S ou
s er
N H
E E
D u
ce s
P P
11 7
S C
4 %
v al
0 2
po r
5 %
c m
Ma c
sty le
C he
r st
10 3
AK B48
D an
M D
N or
P h
10 7
ra l
H er
O n
p re
r ing
A s
a re
Wi lli
te l
0. 00
Lin ux
li s
O ri
w w
8 %
D is
sh uan
g ue
ma s
4 50
B er
V ID
12 7
Mu sic
I s
A i
G re
c er
Ã ¼
tu s
V o
t ra
12 8
4 .5
1. 2
fli x
9 %
C L
Net flix
B ro
y o
189 4
Ga me
2 20
C an
G ra
ni n
re f
Ð ½
Willi am
B ri
I L
ali gn
S H
b li
or y
O r
T wit
18 80
Re d
ol d
Ã Ń
R NA
13 6
P G
Ð ¸
ãģ Ħ
ro m
T R
20 %
Te am
7 %
18 00
ãĤ ¹
Uni ver
g round
i a
188 5
l en
11 4
ãĤ ĵ
H z
co lor
G en
T y
11 6
28 0
U R
p le
Ð µ
11 3
188 6
7 .
ei n
ãĤ ¤
T S
P O
189 3
la r
.9 %
e x
r n
y n
1. 8
M c
na me
11 1
S L
ã Ħ
.8 %
Su per
S he
st ra
.4 %
A ll
G u
ci al
la ss
.3 %
âĢ »
Davi d
13 5
.7 %
je ct
A c
26 0
C en
E u
l f
18 60
po rt
ha m
90 %
Ge or
ch o
na tional
Cha r
5 .5
U n
W TA
lv er
d ge
wo rk
.1 %
H C
T h
80 %
8 .
t ro
Sch ool
B an
k s
ss o
t ch
ti s
188 8
.2 %
M or
q ui
te xt
.6 %
S D
Ã ³
- .
U A
rou p
ll y
ca tion
on y
1. 6
back ground
Me ta
ro id
a c
mer i
T ra
12 9
G O
S to
di s
18 70
G N
ï ¹
re am
30 %
188 7
Sho w
Q u
c le
18 68
6 000
Ã ¶
Ñ Ģ
188 3
N F
V A
ma r
V er
da y
3 20
X box
C S
wa s
A ng
N HK
T ho
A F
F o
Twit ter
D D
l yin
on lyin
onlyin clude
+ +
K P
d on
18 64
âĢ ¢
Gi r
I ON
188 4
1 19
B la
R C
U E
ai n
mi u
12 2
V a
25 00
189 2
2 10
6 .5
A 1
cen ter
cke t
15 5
IS O
â ħ
14 5
st ri
189 1
6 50
7 .5
9 .
wa y
And roid
N S
C lu
ãĢ ķ
O R
f fi
h tt
m ber
ãĢ Ķ
18 50
F u
P hi
a ge
m b
w in
x y
C y
K u
k ing
Inter national
si a
18 67
lo gy
C e
I M
ãĥ Ī
187 9
Sta r
ri e
Ja mes
En ter
c c
ll er
3 80
A B
U P
ne y
E ng
40 %
187 6
S pe
W ar
n y
1. 4
Stu dio
z o
Geor ge
A b
A ni
18 75
18 61
27 0
Univer si
Ga mes
B ra
I R
12 6
2. 4
N T
Ã ¨
ti me
ar t
E s
P or
NG C
st ru
ãĥ «
187 3
H en
M G
p hi
er o
12 3
ãĥ ©
P V
n s
100 %
B en
D ra
H T
Co lle
G roup
P an
c ar
m pi
ran s
S un
i t
u t
16 8
cu s
CO VID
B lo
F M
M B
S ys
ou s
se d
18 65
Clu b
A O
A meri
P L
he r
i m
12 1
D E
D on
t hat
1. 0
Ai r
Cen ter
17 5
ar y
ãģ Ĩ
We b
H 2
Y P
f rom
Ã ¤
14 00
MA X
cri tic
A le
t z
13 8
2 28
H an
T P
18 48
1. 3
18 62
60 %
3 30
12 4
ãĤ ¢
188 1
188 2
7 37
Le a
A li
U C
h y
187 8
5 50
V e
sa u
b ri
bi t
187 2
E l
L C
In sta
M in
ra tion
70 %
IN K
Meta critic
el d
Ori con
S ai
W hi
s co
15 6
B oo
M TV
s p
16 5
L ED
18 40
IV E
Y a
c re
k in
7 50
ãĥ ĥ
13 00
ãģ Ĺ
H y
13 7
Mi cha
Mar k
7 000
H el
er a
1. 1
9 3.
D OS
S Q
U B
22 9
I U
G DP
K ing
O K
Ñ ģ
2. 2
ty pe
G ran
ni c
Hi gh
T ai
a st
15 2
TV B
Ch ris
15 9
187 7
Ro bert
C han
p y
s y
t le
â Ĺ
ci en
18 66
H ou
i OS
o t
Ð »
Pro du
S K
S hi
si lver
18 69
âĢ ²
th i
T HE
U p
Da y
4 .0
C ro
D M
E le
15 %
St re
Pe ter
I t
N ET
t ter
2. 8
F ree
J an
Ð º
13 9
Ph one
Insta gram
A t
B I
C ++
S ur
p la
BL AC
Ty pe
Ð ²
or a
App le
D J
S y
W al
0. 3
C G
W E
co de
ãĤ ¯
Micha el
D F
S h
ï ¸
1 100
ci a
15 8
ne ss
Bi g
2 25
P la
P at
S am
Y e
v in
ni a
30 5
13 3
IN E
Pa ul
Te ch
Na tional
t te
ou n
ni s
ãĥ ª
A ward
R A
Y O
13 2
Ste am
20 5
18 63
ra y
I E
pan y
25 %
1. 7
Me dia
tain ment
2 15
B r
Universi ty
F O
L ou
V al
en sis
tion s
3. 6
Bi ll
ph y
C A
F 1
K BS
bu r
14 8
13 1
S mi
k g
16 6
2. 7
187 4
X X
de o
18 58
pa r
E F
s or
ri n
ru m
C ho
c lo
14 7
2. 6
H ol
min i
F ri
25 6
ãģ ĭ
M 2
18 30
2. 3
C BS
U T
g on
l m
18 51
Le e
B N
G A
H I
U I
li p
ri c
19 2
Par k
t d
Î ¼
8 000
M er
3. 0
no w
Enter tainment
3 10
4 .8
14 3
hi s
M k
18 55
Ci ty
Bla ck
Wi l
Po wer
C hu
E M
I X
S pace
g ar
w hi
G M
R AM
ð «
18 5
18 59
th o
ST AR
Ja ck
Char les
13 4
Ja va
Di re
A BC
G ar
T er
s pe
shi p
18 54
14 6
30 1
17 00
in ter
Vi u
sti tu
3 70
F la
K en
18 57
Al pha
L an
S tan
ou t
lo s
D ar
Ø §
10 .
29 0
ãģ ª
Li fe
ï¸ °
v s
Î ³
2 14
4 20
C am
Ñ Ĥ
1. 9
Re cor
Com pany
F un
Î ¿
ãĢ ľ
18 56
18 53
Pro ject
D ream
F an
S en
di um
ãģ Ł
fi rst
Ti me
Tho mas
Hou se
P en
14 4
Sai nt
F A
O VA
P y
S pi
75 %
C ent
V O
e k
fa ce
A 2
I O
d d
v on
16 7
Ja pan
Stre et
3 A
C la
H S
S BS
ren ce
bi li
ri st
cha rd
18 41
ver y
Eu ro
L P
P lan
a k
i e
r p
ba l
et y
Ale x
3 40
P M
b un
i f
l ue
BLAC KP
7 .6
9 2.
S co
T al
d ra
ch er
20 8
se s
18 15
17 8
So ci
CP U
BLACKP INK
2 23
3 3.
s pace
8 50
L GB
S ing
S po
e w
t ta
ce ss
oo d
ww w
I BM
z er
mi s
Ar t
por ts
B at
B ur
S F
20 7
ma tion
wo r
17 1
23 5
ãģ ¨
ãģ ¾
L IVE
S U
S oft
20 3
B 2
F er
V E
SQ L
t ha
18 46
16 4
Colle ge
A m
c ra
15 7
lt er
vi ce
ber g
Ameri can
B R
L T
N E
P ol
14 1
for d
IC E
4 .7
4 .6
8 .5
A ma
B 1
P E
nv i
17 6
IN G
Gir ls
A sso
G er
L S
s te
Â ²
tu rn
pu bli
se lf
18 12
18 45
18 44
st ro
3. 2
Ro ad
no t
O ffi
W o
d ro
ba ll
23 1
ar ch
c ture
c lass
l on
es ti
Ro ck
C l
H F
L td
M 3
p lay
le a
bo ard
ãĤ Ĭ
wit ch
LGB T
l lo
s g
he re
20 9
ãģ į
2. 1
2. 9
NA SA
Te le
GN U
L A
V an
g s
ta tion
Jo se
we ll
T our
IU CN
Smi th
2 16
P N
R ou
Î º
18 49
15 3
C T
N BC
20 4
23 8
ne s
Goo d
Produ ction
B B
C al
G T
b ra
de d
Vi deo
O 2
e p
f er
Ï ĥ
mi ted
pi e
ro w
H all
P R
da e
20 6
th y
Pa d
Ga la
Bo y
eri es
4 60
5 .0
A f
T or
se t
18 14
ve l
der s
sau rus
2 18
E li
T ur
wo od
Je an
S I
T en
ne l
vi sion
IG N
5 .8
A ct
L D
P A
f ra
â ĸ
Ri chard
F F
K ar
W S
o m
Ï Ģ
ta r
18 47
15 4
ve d
3. 4
5 80
6 .0
M BC
si de
ma c
che m
18 43
Be st
pt r
Sys tem
4 30
S ky
Z i
ri ch
ci s
17 7
40 1
ll s
4 10
F le
si n
man n
ãĤ ·
NF L
Viu TV
S witch
da r
16 3
0. 2
AM D
Di gi
AP I
Par a
I CO
S ma
da ta
men ts
18 52
16 2
th on
Ma x
V II
ce d
18 20
11 .
ãģ ı
We st
A g
G lo
T un
V ol
a ch
z on
14 2
23 4
sta r
cri pt
5 .7
V R
s ys
si gn
ma x
17 2
ãģ Ĭ
ãģ ķ
Co re
Recor ds
6 40
M et
l ti
16 9
35 00
th is
Li mited
B lue
K C
R an
T 1
c to
Â ±
18 39
23 2
3. 7
Cou n
4 80
C M
17 9
ca de
In c
Gre en
u se
20 30
ri o
or g
14 9
0. 1
36 5
3. 3
In stitu
La u
lu m
tu be
18 21
wa r
ãĥ Ń
ãģ ¿
Vi r
Uni code
RO M
CC TV
3 90
B U
bu s
ti a
30 6
22 2
60 1
0. 4
5 .9
o na
17 3
Bo b
E A
F ar
G ui
J i
P F
Y u
Z e
k h
r ue
ba r
12 .
wa re
24 7
oo t
He a
Pri n
mpi on
E r
K K
M r
V en
X P
g na
j o
17 90
um p
2 11
5 60
O H
S N
z y
ke t
ci ation
or n
ne w
ãĥ ¬
B F
P ra
V M
t v
of f
ve lo
3. 8
M U
P D
R en
S qu
S cien
18 3
17 95
30 3
For ce
âĹ ĭ
P H
T an
23 3
ãģ ¡
180 1
2 13
T rans
ta ry
ãĥ ŀ
.0 %
He art
US B
M en
b ro
17 4
3. 1
Po p
tt le
MV P
B el
C K
o per
Ï ģ
á Ģ
ì Ŀ
ke y
18 6
18 38
or s
Fi re
Sto re
5 20
C ri
D DR
s tan
mi ly
ha r
ck er
Ch rist
6 10
L on
a b
u p
16 1
50 1
ãĥ ī
htt p
2 24
C F
e m
i Pad
t to
bi le
su b
18 13
ãĤ ī
Ma g
Da ta
G E
Ï Ħ
ri ty
mo r
18 2
18 32
18 42
25 5
lo gi
as on
Soci ety
A E
d th
i Phone
su r
18 4
tie s
0. 6
ãĤ «
do m
Mi ni
7 20
K I
Q ue
S cript
e le
g re
â ĺ
la te
18 36
17 93
ãĤ ª
Co mic
In tel
Ki Ha
Mu se
bun tu
2 21
H BO
M T
P in
f fe
mu s
18 33
17 89
cen t
Ho me
tic s
Ri ver
htt ps
Dire ct
Asso ciation
Gala xy
B al
D r
D AM
M 4
Q Q
a e
se arch
18 35
15 1
ar s
ãĤ ¿
wi dth
per i
tic al
Lea gue
2 19
2 17
3 38
5 .6
6 .7
F T
J YP
Q ui
R ai
S R
U buntu
W A
m g
ð Ĳ
fu l
âĢ °
do wn
180 4
ON E
CE O
4 70
7 40
8 30
B ui
f un
s si
v ing
ne d
Mar tin
Ban k
Hen ry
M ai
Y G
Ï Ĥ
Ð ´
â ī
li ght
bo r
ma t
Ma ster
.8 1
To p
Cha mpion
D y
E ar
L INE
M W
Î ½
ma l
be l
AR T
Ne ws
Chi na
2 12
D K
D ou
E m
S p
Ñ ĥ
un ch
18 28
0. 7
co re
ãĤ ³
AP AN
Ho t
Par t
Net work
Gen er
0 %
F R
F lo
L ong
d or
ci l
19 1
re w
30 2
0. 8
You ng
95 %
Bill board
Offi ce
6 80
A da
E pi
F ra
G old
M Hz
P I
S ong
S NH
n m
p lo
Î ¹
ta ble
ri es
18 1
16 24
23 7
ãĤ ĭ
Ni ght
No te
Jose ph
SNH 48
4 .9
F DA
J APAN
P K
à ¹
á ¹
pu r
16 44
30 8
0. 9
Co de
CO M
4 40
C ra
D B
G R
z z
li st
ti al
le d
le ss
10 000
18 37
pa rt
23 9
st on
180 6
Si r
Ra dio
Uni ted
mac OS
C V
U 21
V is
s ing
Ã ¢
Ã ®
Î ´
à ¥
â ĳ
de f
su s
18 19
29 9
3. 9
34 6
Re gi
HT ML
7 80
E ast
c s
un d
18 25
24 5
23 6
50 5
27 9
ãģ «
Ma ri
5 40
7 .8
E V
G am
H 5
P al
m uni
13 .
rp m
3 25
7 .9
Y o
t re
ri ght
00 1
17 76
ãģ ĺ
Chi ld
NC AA
Ser ver
Digi tal
F AT
K ong
te a
18 18
po n
mai n
14 .
pa ra
26 5
ãģ ĵ
es ta
Hel lo
G S
L ang
ai r
te lli
18 24
18 31
202 7
re y
Do wn
D ri
O b
R PG
p ho
s pi
Ã §
Ã ´
li o
si o
ri ck
la tion
38 6
Ma t
Ser vice
âħ ¡
Tech no
5 1.
A na
A do
U M
n on
ren t
ge s
te mp
BS D
Py thon
1 A
C W
D en
X ML
Î »
sh o
27 5
27 00
You tube
Ed ward
Whi te
3 12
5 G
7 30
D es
H L
O M
T BS
en a
ha s
me d
26 4
29 5
180 2
Fi rst
BL UE
bur g
publi c
Institu te
3 2.
6 30
E nvi
G ro
T M
o ri
y er
Ã º
Ã ł
su al
18 22
28 8
ãĤ ¸
Pol y
4 .2
6 .8
J T
O ut
S um
Ù Ħ
mo nd
24 4
ãĥ ķ
va te
To m
IT F
2 D
6 .9
O T
i se
v ar
x el
re turn
24 9
35 %
90 3
ve s
Ca p
Squ are
6 .6
H ong
P ID
S eries
T his
Z a
Ä «
Å ¡
ya l
tu m
tu al
24 3
28 00
Ra p
Cu p
9 1.
D el
F X
J en
J ump
N P
_ _
s ch
si g
chu ai
18 10
15 .
16 22
17 92
30 7
st s
70 1
SA RS
Fran k
PO P
Gran d
5 .1
9 60
K in
S HO
V V
s ca
Î µ
di t
tu r
16 50
80 1
Pa la
Ch ro
MI UI
Cou nt
Tun es
2 100
C ur
H or
c ci
Ð ¼
18 26
ha ve
15 73
st ory
Ste p
Un der
7 47
J our
y on
bu t
te ms
18 34
30 4
22 6
27 8
ãĥ Ł
ãĤ Ĥ
ter i
37 5
180 5
Di e
AC T
AP P
AI R
Au to
Nor th
B ran
H A
K an
c ing
i ce
pu s
00 7
29 6
29 8
38 5
AT A
Blo ck
3 35
5 90
9 000
B or
C U
S ports
W N
m l
r ei
Ï ī
â ĭ
le t
ding s
12 %
ha d
17 80
13 %
22 7
ãĥ ł
You r
IF A
3 15
6 3.
L es
O s
P ho
R ei
i i
i Tunes
p H
Â »
gai n
25 1
27 7
Re al
gh ts
CN N
2 A
O p
O ver
R FC
di n
di tion
zi ne
ma d
ma p
mo re
18 .
15 82
17 99
25 9
24 6
24 8
180 9
Dan i
Eng ine
5 30
C 2
C as
D LC
E i
Â «
er e
18 23
16 21
27 2
40 5
vi lle
AT ION
Sta te
180 3
Inter net
EE E
val ue
pre ss
3 34
6 20
7 70
B ou
C lo
C lass
G ol
H al
S G
W at
a pp
b re
r ch
16 25
28 4
28 5
in o
lt on
ãĤ µ
Mi t
con d
3 11
8 80
C le
S ony
U r
V I
v y
Ã ī
á »
25 8
for m
27 6
ãģ Į
Wi i
Mo on
Mo bile
Ba y
G ri
K O
O per
T ru
X T
t han
à ¦
ge t
or k
25 3
35 7
ter s
Ma ria
Ra y
Pu bli
6 60
B on
C li
I m
N M
S V
U L
e e
u ng
Ð ¹
ue l
ãĥ Ĺ
ST A
vi a
Al f
Do t
IP v
Ni co
Uni x
Sou th
Ang e
Boo k
Euro pe
5 70
G et
U 19
W F
b lo
h r
Ð ³
18 27
15 70
ãģ Ĥ
ga zine
ck s
ss on
vi ew
Pi er
0.0 1
3 14
3 DS
6 90
B BS
C 6
D SM
I EEE
M ou
M al
S B
W WE
t rans
ta s
18 17
16 40
16 36
rang e
26 8
40 2
40 4
ãģ ¯
Sou nd
whi ch
4 G
7 .7
A X
T W
f y
f ri
g al
de i
17 75
25 4
46 5
at or
85 %
3 23
7 .0
G al
H P
O P
T re
de a
ti na
lu tion
17 50
30 9
vi s
No w
3 29
6 70
6 .1
8 .1
J on
N u
P lus
shi ng
tu de
18 16
ka r
po li
17 .
za tion
ãĥ ģ
ãĤ £
45 00
fi eld
CO N
Be au
Po li
TO P
pri nt
Cu be
. -
7 10
9 10
9 50
D I
H am
M K
a p
o ther
la ris
16 %
lou d
24 1
23 00
cu r
Me di
Fi lm
IS BN
Wa y
tv N
3 26
A sia
F in
L y
T 2
c tive
t ti
à ½
en ce
cha r
15 92
45 %
34 7
75 8
Gi l
op le
6 1.
A ra
D T
T ro
c ti
e ven
ma rk
tu ral
10 .5
12 .5
sa l
16 28
17 88
25 2
24 2
26 9
ãĥ ĭ
Ma y
nal d
fe a
Ti k
Chan nel
3 18
3 36
5 3.
9 .5
9 78
C B
D L
F esti
M US
N 2
O 3
R un
á ĥ
hu r
la m
16 27
17 83
17 91
28 9
40 6
35 4
IN N
Jo y
To k
Pi xel
Dis ney
âĸ ¡
velo p
Vis ta
7 3.
9 0.
A cade
E L
F 4
I B
L AN
L TE
N an
P T
W an
16 .
17 97
nu m
ï¼ »
ï¼ ½
65 %
55 6
Re search
Be at
Ci r
Gir l
Lou is
Soft ware
D MS
F re
O F
T H
a g
g is
t r
17 79
17 96
60 7
ãģ ¤
ãģ ł
35 2
180 8
con o
ER T
fe rence
km 2
mp le
Wor ks
NC T
Ali ce
Chris tian
âĭ ¯
3 21
3 37
4 .3
A 4
C er
C ry
T 3
d ri
ni ght
18 29
sa r
17 78
17 94
28 3
me ga
27 3
ãĥ £
ãĥ Ĳ
ãĤ ¨
th ing
ca st
oo m
ct ro
Vi sual
Jo han
AS C
YouTu ber
Ch ine
Is land
Bat tle
wor ld
3 13
5 10
8 40
8 60
I l
M net
R ain
S in
Ã ±
Î ¸
en i
17 98
22 %
ãģ ¦
45 6
37 2
EC T
ctor y
age ment
Award s
sys tem
. 00
4 48
8 70
r or
mi t
18 %
re ss
re ad
15 80
16 12
16 34
17 87
28 1
26 7
ãĥ ĩ
fo re
ãģ £
lo st
ãĤ ¦
vi l
ver n
Ro yal
Hi ll
we b
mm y
Pre mi
Fo re
Glo bal
6 2.
9 11
D G
D ai
F oot
M F
T N
â ĩ
li ke
ren a
15 67
16 48
27 1
lt ra
pe dia
Mar y
Ar ts
BO X
rai n
Spe cial
Scien ce
Envi ro
4 2.
5 2.
7 2.
A H
D er
E 3
H un
L et
M M
W ei
Y ork
o i
s che
19 .
po p
re t
26 2
36 7
ck y
OS HI
gi c
AC E
Ki m
Com pu
EN T
AG A
Gre at
Qu a
- &
3 22
4 3.
G or
M ON
O li
O TT
S al
V B
f la
hu s
si ze
ti fi
ni ca
bo n
po si
15 50
15 68
or d
16 15
16 30
14 %
for mation
28 6
ar r
ãĥ ĸ
co l
Ma gazine
Mo del
CH 3
Bro wn
Ama zon
Muse um
Dani el
Festi val
C AS
E nd
F ro
F BI
L G
O 4
S IG
T ou
U SA
d t
o le
p lan
de nt
li na
ke s
che s
12 .7
16 45
16 46
28 %
ãĤ Ń
33 3
.9 5
and y
CO LL
AR D
Se cre
Com muni
En core
Go d
ture s
On line
Tai wan
Que en
Tik Tok
MUS IC
9 .8
9 .7
A h
A mi
C at
T hun
c ka
g g
Ø ±
an i
16 26
26 1
29 7
lt h
35 5
49 %
An to
Dar k
Gener al
Chine se
3 28
8 20
C rea
M ur
P RO
S 2
S on
o ver
p ra
da l
16 37
24 00
70 5
90 1
36 4
38 4
37 8
33 %
44 2
Me mo
Wi ki
gi o
Po int
VID IA
6 18
7 0.
7 1.
A U
C BC
H B
N VIDIA
T 48
Ð ¡
Ñ ĭ
ri ne
que s
16 10
16 42
25 7
28 2
me t
26 00
Sta dium
Se a
Ca pi
Ba se
160 9
one y
lli on
Red mi
Ye ar
Tal k
Ado be
5 .4
7 60
7 67
C AN
P et
S et
U 17
V C
W on
W ho
W hat
a f
b ps
l k
Ñ Į
de on
ci o
te ch
po ration
15 85
15 83
sa y
13 .5
ãĤ Ħ
Co l
ca s
58 3
wi ki
180 7
AR M
Te X
ther n
Cy clo
Sys tems
Met ro
9 30
F al
F IFA
J U
K E
L ei
M el
O D
S che
a te
b s
hou se
11 %
16 23
27 4
.0 4
Pa y
Ar chi
To wn
Ni ko
Ge o
ï¹ ĳ
H2 O
B ru
C hang
E ye
E OS
F IN
I EC
J uni
p es
ti um
11 .5
15 71
17 %
17 84
26 3
50 9
29 3
st ein
die s
rou gh
35 1
do s
99 9
De ep
con st
Ne o
Uni on
ster n
Ke y
rs tea
ple x
oun da
. 10
2 200
4 28
5 .2
A J
D un
G UN
p to
u ts
w ing
x x
ch t
16 20
17 23
17 86
50 4
ãĥ ¥
35 3
ve y
39 5
Mi ke
43 %
So laris
St ra
so me
pri vate
Phi lip
Cro ss
Jour nal
Dot A
4 19
4 32
A 3
C loud
F N
G L
H as
S W
Å į
ì ķ
an der
14 50
ãģ Ļ
Ma u
Li ttle
ct s
cou n
Studio s
4 27
4 .1
C ine
F E
H IV
I ma
K 6
V in
V PN
a ce
h oo
Ä į
ge l
zi lla
15 77
16 18
16 43
38 7
39 9
be th
.8 2
.8 3
Lin e
LO VE
Fle et
Techno logy
3 17
3 31
3 45
5 12
5 65
A ven
B ai
C r
F I
H 1
M Y
R 2
S 1
U 18
U SS
U ltra
Ñ ı
li ve
mi a
te st
ba se
mo l
ha rd
15 86
17 77
14 53
21 %
80 6
lo t
CD MA
Sta ge
Ra deon
AL L
Ex p
Va lve
Child ren
3 27
4 11
4 90
4 45
4 46
5 35
A th
M 87
O f
R am
U 23
W ol
w here
Ã ª
li c
ci ty
ma te
mo del
chi e
se y
ce ll
15 21
or o
17 65
17 74
on o
39 8
47 %
49 9
Po st
Mu lti
Ta y
BM W
Cent re
Acade my
Juni or
4 16
E MI
H TC
K B
O mega
k W
m 3
p ter
s tu
Å «
di na
da s
16 16
26 %
nu s
70 7
36 9
39 7
Pa ss
Sta tes
Wi re
Jo e
tio na
Fe de
GP U
bili ty
Dy na
6 13
6 .4
G un
N R
W O
W OR
Z A
n or
Î ·
Î Ķ
Ð Ĳ
da rd
ran a
gan i
15 64
17 85
22 .
cu l
36 8
.0 8
67 %
TV BS
De mo
Mar ket
Bi o
Lin k
My SQL
mis sion
3 C
8 10
B T
J r
K h
L ar
S ara
W I
b rea
e u
g ni
i o
j or
Ð Ķ
he ad
ci n
ci fi
ba s
16 62
in clude
26 6
29 1
58 8
Di stri
Ne xt
Be ta
vo id
MO D
Cor poration
M1 A1
GUN DAM
3 16
5 37
6 21
7 42
C I
E 48
E ric
N D
T I
c ted
h l
i l
o pen
Ã «
Ù Ĩ
qu a
po int
15 40
15 74
17 72
24 .
28 7
60 5
45 4
38 8
34 3
be s
.8 6
88 8
La w
Su b
0.0 2
Man agement
Fri ed
Alex ander
4 25
4 75
9 .9
9 .6
M X
O ther
S ui
S ar
f lo
o b
ti ne
19 %
lan t
12 50
16 19
16 29
16 83
27 %
29 %
29 2
ro s
36 3
37 6
ST S
55 2
68 6
Mi ss
La dy
Fi nal
ad d
Ar c
Ho w
Au gu
wer e
Dra w
Sco tt
Lon don
Cyclo l
6 27
B RT
D ol
F L
T ar
h t
Ð ±
ni co
14 .5
24 %
ï¼ Ĥ
st d
31 %
to s
48 8
Ma s
.8 4
.8 8
99 %
Pa s
fi ni
Spo t
ðĲ Ń
Sp ring
4 49
5 A
6 25
7 38
8 1.
8 3.
C ul
F ron
H ER
L and
P B
R ue
S c
T ony
V ER
W ing
e a
p per
s ky
t ran
Ð ļ
an a
ri na
pu t
sha red
15 90
15 79
16 33
ãĥ Ĭ
fo x
lo g
ãĤ °
32 %
Li ght
Ro se
150 7
De sign
La ke
CH 2
Ani max
Ear th
4 12
8 .7
L F
L R
S mo
S ca
S ON
V 8
Ð ¿
í ķ
en s
mi x
bo dy
la unch
16 31
16 80
17 73
21 .
29 4
40 7
cu m
ãĤ Į
39 6
33 00
42 %
Le o
Fa mily
160 4
Ha mi
An der
Par ty
PG A
Dri ve
4 1.
7 .1
8 2.
8 .6
9 80
A re
C 4
F old
G C
H on
K at
L M
a da
c la
i r
i ni
y l
Ä ĩ
É Ļ
ke d
ri al
ri us
15 75
16 97
17 55
14 92
80 5
36 00
Ma d
46 7
47 1
The o
Si mon
Se cu
pp y
mic s
Ad van
ï¹ Ĳ
SK E48
Rou nd
Sum mer
Thun der
0 x
3 19
H ei
J 2
S ti
S we
T hi
X C
bi o
ma tic
15 61
15 89
15 95
17 81
14 65
50 8
st re
ãĥ Ĩ
ãģ ²
34 4
.8 5
44 %
.9 9
58 9
160 3
160 6
160 7
ko v
CN BLUE
Ru by
Epi c
velop ment
4 15
8 55
9 40
9 70
I r
L un
u age
x 86
Ã ¸
Ã ħ
Ã Ł
à ®
man i
15 22
15 26
15 56
16 13
16 60
50 2
50 6
ãĥ Ģ
37 7
47 8
55 4
.0 7
Mi che
Vi ta
mer cial
Ti m
TO UR
William s
cation s
Hy per
oun tain
Br ian
ìĿ ´
âĺ Ĩ
Ange la
Foot ball
4 17
5 25
7 .4
9 20
9 25
L U
M oo
P on
U K
U RI
W el
c ard
l ding
w ho
z zo
Ù ħ
mi r
ni o
ba by
che d
su re
se cond
15 25
15 91
16 67
.5 5
40 8
48 5
46 %
64 %
64 3
AM O
Fi esta
Ba ck
tt en
Ste ve
DO HC
Mon t
Por t
Af ter
3 24
4 22
5 15
5 38
5 34
F ounda
G ao
Q S
R ang
S 4
S han
S yn
V T
a h
m RNA
x e
z za
Ä ĵ
â Ĥ
15 10
16 38
17 30
on ly
pa l
me dia
ãĥ ĳ
34 2
39 3
47 9
.0 2
.0 6
150 8
Vi lla
Mo zilla
La st
HK T48
Wa ter
Wa lter
vo lution
Ameri ca
Sur face
Chu rch
7.6 2
. 25
3 200
5 31
5 46
7 .2
C amp
C las
E G
G Hz
I TV
J er
M ei
M BA
T G
T oo
V S
b les
i PS
p he
u d
li sh
mo nt
tan a
202 8
15 43
14 57
.5 2
36 6
38 1
39 2
vi e
.7 8
Hi story
Je ff
pla ce
. 12
1 st
4 13
4 26
6 .3
E du
F 3
G PS
K ha
L Z
N I
R us
S or
T han
U 20
W nt
f b
Ù Ĭ
le ft
gen t
15 65
15 59
15 87
15 97
âĢ ł
16 35
16 88
17 33
17 82
st ry
ra t
.5 3
60 6
al d
co me
ãģ ĳ
37 3
In du
el la
Wi ll
Al bert
Ti mes
Au stra
John son
tor y
sco re
Jan e
Coun cil
. 11
5 24
6 12
6 .2
8 90
B y
F S
J im
M R
S ol
T ran
U D
i ts
l low
Â £
Ð Ł
Ñ ĩ
te x
lv a
15 88
15 98
50 7
al so
34 %
Co s
64 1
Re p
49 5
68 %
68 2
.9 7
.6 9
66 6
amp le
Com mon
0.0 5
CL A
sco pe
Pla ce
Tele gram
Pier re
Founda tion
3 32
4 A
4 K
4 35
5 75
7 90
A stro
B ad
T MA
e se
o la
an s
en do
li ty
bi rd
ti sh
ti ca
na r
15 23
15 35
16 49
16 61
17 70
14 99
23 %
nu mber
ra m
0. 25
ãĤ ¬
ãĤ ı
36 1
46 6
39 1
.. ..
vi ces
55 1
.0 1
fi nal
Mo der
Po d
160 1
PC I
ali ty
TO K
Fran cis
Ac Fun
tro l
Fla sh
wor th
cra ft
Won der
5 28
5 500
9 90
A nt
B ang
H TT
g ne
mi tte
ma ster
men tal
12 .8
wo rd
15 11
17 60
17 69
in du
sou r
35 8
36 %
37 1
46 9
el low
68 4
58 7
Di a
St ory
94 .
pp m
SM AP
0.0 3
And rew
tri bu
Ed ge
ac tive
Gol den
Exp lor
5 48
A W
K ai
L ui
L oo
M AC
e xt
o ni
s ma
t hen
ei l
ch y
200 00
10 80
15 000
15 76
15 94
16 89
36 2
38 3
ll en
TC P
34 1
Mi s
41 %
NA SL
98 %
Pro gram
ki a
Se ven
cou nt
Sou l
Bri dge
Ang el
kin s
Mat the
Europe an
8 0.
9 21
B un
L 1
M MC
N EX
R B
T as
U FO
V F
e f
z ar
ð ª
20 .
ri t
liu s
tou r
ce p
18 11
15 17
15 14
15 78
15 52
âĢ ķ
16 39
16 84
.5 1
60 8
co s
to p
38 %
34 9
64 4
55 7
.0 5
.7 6
.7 9
.9 2
58 5
59 7
So me
No t
gin s
ther s
Dan ce
Eli za
Gam er
temp late
Step hen
Tay lor
3 48
4 36
5 49
8 .2
A ST
B et
C re
D NS
F red
L am
R N
S pa
T F
b la
i c
si t
po ly
17 63
13 50
in te
ï¼ ĭ
40 3
90 8
Ma rie
do re
65 00
Ro man
150 5
Me ga
Vi ew
77 7
Ga ga
Te st
ki e
Ca st
Con ne
MG 42
Christ op
yon d
vern ment
5 47
5 67
6 68
A po
C 5
F ai
F AN
J us
K on
N K
T 4
Y OSHI
f is
p el
p pe
Â ³
Ñ ĸ
te c
na s
10 50
se l
tan t
po s
16 14
17 20
27 .
1. 25
37 4
Co V
49 4
.0 3
.7 3
ver se
ly n
Ne ver
Ar ti
ID E
Hi t
Ki t
IP S
PS P
Pe ople
UN IX
San ta
Ju st
âħ ł
Phi l
Fra me
IPv 4
Explor er
4 .4
5 14
5 22
5 45
5 68
5 .3
6 19
6 75
B lu
C SS
D 1
E BU
J or
K T
M ountain
b n
un e
si e
si ness
la u
se a
15 16
15 13
15 34
15 47
15 69
16 V
14 60
26 .
st one
cu la
ãģ §
35 9
ter a
75 7
64 2
.8 9
.9 3
58 1
150 2
51 %
ction s
Ra w
So lo
Ge Force
à¸ £
SO HC
Ph y
Sun day
Art hur
Kar l
COLL AR
mitte e
4 18
4 14
4 24
4 33
5 44
A lan
C J
D TS
F 2
I nv
J O
M MO
P EN
T wo
T rue
X IV
r ian
w y
Ð Ĵ
er ing
si ve
ci ne
lan ds
man d
17 31
17 68
17 71
14 90
hei r
ne ws
40 9
ãĥ ı
60 4
80 2
ãĤ ±
ãĤ ĩ
ãĤ į
38 9
75 00
39 4
be en
47 6
.8 7
49 3
.7 4
.6 6
Mo d
us ta
Be ll
ER O
Bo x
Hi p
Ri ft
Wor k
AG E
Pri me
pre sen
FO X
sor t
whi le
JT BC
âĩ Ķ
Cine ma
Aven ue
4 31
5 39
7 45
A ri
A BS
B re
D ro
E O
E ver
I ta
K er
L ord
O h
V 6
j q
s k
s ka
Ä ±
li ca
bo w
mo s
15 93
17 24
17 52
14 69
14 98
13 70
ro ws
ãģ Ī
48 %
ga te
38 2
75 5
46 4
44 4
57 1
150 1
Vi ctor
De velopment
Mo de
no va
gi nal
Na me
Ki ds
PS 3
pro t
Ex press
Cou rt
Bri tish
Dra gon
AGA SA
Fried rich
6 46
6 67
A sh
A lt
C IA
D 2
G W
H ard
I RT
K ei
M 6
X F
Z J
a po
b our
c z
c ca
e st
f ree
de x
ou ld
ti fy
she d
min e
na ment
15 20
15 60
15 53
16 51
17 40
14 93
23 .
60 2
90 4
to wn
ck ing
In telli
Re a
49 6
49 8
44 3
.7 2
.9 6
.6 2
Vi a
Wi th
us er
Bo ys
Fa mi
MA N
Ho tel
Do nald
An na
UN G
AG UE
LE AGUE
qui d
Fire fox
Dou g
à¥ į
Ath lon
6 11
6 45
9 45
A pa
A gain
C 1
C BA
D EC
E a
N at
O ld
Q U
T el
T AM
U 2
t wo
u te
w is
x a
Ã ¥
á º
ai s
er gy
bi a
chang e
ma de
15 96
16 32
16 79
17 18
17 35
17 45
17 58
25 G
ï¼ Ŀ
lt y
cu lus
ãĥ ¡
90 7
ãĤ ģ
ãĤ Ĩ
Ma chi
58 4
150 6
De ar
Wi ld
Si de
Ne u
Ba by
160 5
We ek
nve st
pro du
RE AM
Ele ctro
Stan dard
Cent ral
Hea lth
Ada m
sio nal
Christop her
YOSHI KI
0 50
4 39
5 33
7 31
7 32
7 41
7 62
9 62
C ree
D al
E ve
G in
H 3
I CD
N U
N um
R CP
S hu
S and
T L
T ha
U CLA
W ood
a y
j an
Ï ħ
â Ļ
er t
ti ce
ze d
12 60
15 66
16 .5
17 25
17 48
ãĥ Ħ
0. 10
70 6
ãĤ Ī
ãĤ Ĵ
45 7
37 9
do or
75 6
ca se
In fo
ss or
55 3
67 3
Li st
Li ber
57 4
57 6
Vi sion
98 5
gi a
Bi r
97 3
pri se
Jack son
Alpha Fold
Mit che
Capi tal
Fleet line
Angela baby
Matthe w
5 16
6 17
6 39
7 22
7 35
D U
E cono
H MS
P 2
S ty
c ter
e b
g lo
n p
á ¸
20 50
ce l
15 28
15 72
16 52
17 27
17 61
13 68
ra s
.5 9
ãĥ ¯
ãĥ İ
al s
35 6
70 4
48 2
37 %
65 5
55 .
br ary
.9 8
Ro bin
AR E
Fi sh
To wer
sta te
Com mittee
Pi e
mp son
BL E
Har ry
Pre ss
Min d
Jon es
Ander son
Gao n
Eliza beth
4 47
8 63
9 26
9 61
C ru
J uan
L X
R ATP
S el
S port
T win
V P
W W
c rea
g or
n ers
v or
w el
z ing
de fea
la d
la de
mo d
15 31
15 38
16 47
16 81
in to
80 3
the y
70 8
ãĤ ĥ
45 2
45 3
Co lspan
be d
65 1
.0 9
58 6
57 2
150 4
Le on
Be yond
ED G
AP G
Ba sic
IC A
fe ssor
170 1
ali s
HO ME
Dis co
cc ff
cc ccff
Eng lish
Pat rick
Gar den
Wo men
fra me
FIN AL
3 M
4 38
5 11
9 33
I LE
J am
S wi
S our
S NC
c ta
Î ©
Ð ·
Ø ª
ì ļ
sh op
li t
xu s
su m
lin k
15 30
15 37
17 36
ï¼ Ĩ
60 3
80 8
Co lor
46 1
46 8
vi ty
68 1
ki t
ON G
170 9
Car l
Ke vin
Sou thern
Game Spot
Twit ch
Ab du
Java Script
Direct X
Moder n
3 G
5 41
6 29
6 48
7 25
C AR
E LE
M ain
N N
N PC
P 4
R h
U RE
a mi
g ran
m bo
o van
v at
Ñ ħ
xi s
di re
er y
te am
su l
su per
re do
15 19
15 29
15 55
16 87
17 28
me l
me ter
.5 6
ãĥ Ŀ
lo ca
90 5
48 4
Ma ker
be fore
65 3
55 %
55 9
49 1
.9 4
67 9
.6 3
Ro y
fi sh
79 6
OS S
Si lver
tt on
Sa u
MA D
Con cer
cke tt
UR L
AO A
Ya hoo
Spo tify
cture s
Prin ce
ASC II
Omega T
Frame work
prot ein
Mitche ll
4 23
5 36
6 32
7 15
8 25
8 33
A us
A rea
B 3
B rea
C AL
D 9
F low
G RO
J es
K 2
M oney
M bps
N ar
R DS
T hat
d f
p l
li b
li m
si ble
si cal
20 35
ri um
se u
11 20
wa rt
17 67
50 .
.5 7
lo ve
47 3
49 .
49 2
.6 1
66 1
56 2
Vi ole
De bian
De ad
as o
Bi rd
PS 2
An ne
Ed die
Her o
TR A
Zi co
sig ned
Chro me
Count down
Oper ation
Secre t
TOK YO
Viole tta
3 39
4 29
5 32
6 65
7 75
7 69
B and
D 5
F on
J I
O ff
R 1
R F
R ing
R on
S NS
T ol
Y an
g ma
Õ ¡
de lla
ou nd
ti er
ba t
men tary
su ch
lv in
se e
12 20
15 45
16 64
16 59
17 19
14 95
14 96
13 88
st or
.5 8
70 2
70 3
do w
ST ATION
vi r
hi m
68 9
.9 1
Mi l
Mi x
Li ke
69 2
79 8
Ja co
Fi l
74 %
ER S
sta l
St or
AN D
An ti
An th
SM .81
gra phy
Ste ven
Fe li
IF F
Hen ri
Rai l
cifi c
Clas sic
0 10
4 34
6 36
7 29
7 61
8 78
A ction
B us
E 1
E ri
E 231
G EN
H and
I so
K ur
L 2
L en
M ang
M us
P AGASA
R K
Z ERO
b ble
o is
p res
Ð ĳ
Ð ľ
Ñ Ĩ
ì Ĺ
shi on
ian a
ri te
lai r
se ll
gen e
15 46
15 49
15 62
16 70
16 90
16 54
16 53
16 94
17 59
14 66
ar tic
ãĥ ¢
80 7
70 9
45 8
ga me
46 3
55 5
hi gh
59 6
66 2
Pa ris
gi e
con stru
Se e
St ri
Ha ppy
Cha l
Inter active
John ny
fli ght
Vo ice
Gu ard
Fo x
Ken ne
FA ST
Bui ld
HTT P
. 39
1 2000
5 27
6 38
6 69
7 12
7 11
9 .4
B P
D REAM
H ein
I ng
I MAX
K 11
L V
M 5
N CC
R SA
Z en
k on
o v
o li
p et
Î ¬
di ca
ri sh
le e
la st
su ng
ce pt
wo n
15 58
15 81
17 38
14 74
13 75
pa ss
ST AT
47 7
In te
The re
68 000
AT E
59 5
59 8
59 9
57 8
Sta rs
Mo re
Ga lant
sta rs
160 8
Cha rt
EP A
pro gram
den ce
0.5 %
au to
EX ILE
GP L
Sam uel
NM B48
5 21
6 28
6 22
7 21
8 67
8 77
8 .3
9 65
B Y
F 5
G on
J et
O ST
R X
S r
S chi
S UP
V EN
W P
Z Z
a th
e z
f in
f es
de pen
ri l
le m
she ll
bo ra
la ti
12 80
âĢ ³
16 65
17 32
17 44
17 56
14 89
14 87
13 40
29 .
000 rpm
cu lar
ãĥ ĵ
90 6
ãĤ º
45 1
.7 1
99 7
ws ki
gi na
Pro to
Ja c
St ru
Play er
Bu siness
Chi ll
cke ts
pri n
Ani me
Wil son
SHO W
Mou nt
Fore ver
Secu rity
Sour ce
2 nd
5 19
5 17
6 24
6 23
8 35
8 76
9 38
9 54
9 51
A p
B 9
C AP
D 3
E U
F w
F ly
G DDR
I MD
L CD
N er
N IC
Q t
R yan
Y F
h in
s se
v as
w ould
y d
Ð ĺ
ð ¤
li fe
di ne
fa r
le u
ye ar
mu m
tu ra
mo de
se ed
mai l
15 24
15 32
15 84
16 58
16 57
16 99
17 62
13 37
ï¼ ŀ
.5 4
ter o
47 2
47 4
64 9
49 7
68 7
68 8
69 8
Ro ber
57 9
88 %
78 4
Jo na
Da ve
72 %
Bi ke
Ho lly
140 6
Car los
DS P
à¤ ¾
SH IN
Cla u
Sma ck
âĺ ħ
Publi c
Compu ter
MON STA
Tou ch
ht ml
Smo sh
Apa che
0 54
6 16
7 19
8 65
9 46
9 88
D H
G 1
H 4
H 10
K y
P ha
S 3
S b
W HO
X G
Z o
b b
e g
u sed
Ã ¦
Ï Ĩ
mi cro
ci d
la w
san a
11 .2
po wer
re l
wa ys
sa ge
16 68
17 39
17 64
for mat
28 .
fo llow
do x
Re s
300 00
Li brary
wi ll
78 7
Fi le
Al bu
PS V
Ta ke
170 2
Hu man
LL VM
tri e
Mer cu
Sen se
rows pan
Smack Down
0 52
4 21
4 37
6 14
6 26
6 37
8 15
8 16
9 75
B in
E cho
G F
I f
I ce
J P
M es
Y A
Z O
c li
d ley
k ha
Ð ł
ë °
en e
bi s
ti l
ri son
lei n
mo st
00 00
12 75
11 .3
15 36
pan i
16 75
14 64
ra te
45 5
IN D
64 .
.7 7
67 1
67 8
Jo s
Pro fessor
Te x
Ca ta
Fa shion
Bi t
97 %
St one
Hi sto
Gi ovan
Lin er
170 5
TO WN
App li
She et
lea se
KK BOX
Christ mas
fun ction
Champion ship
Lang uage
sca pe
Alf redo
af ter
5 42
6 34
8 21
9 12
C IT
C fb
D X
D ur
E di
H at
H PV
M OS
M IT
N XT
S Y
S pin
S IM
W H
W ong
c am
f le
g he
g roup
v ai
Ï ĩ
â ģ
ã ħ
ì Ħ
he a
lian ce
la tive
ma y
gen cy
re c
15 63
or t
16 17
16 63
16 85
17 .5
17 53
on s
14 77
13 80
50 3
80 9
ãģ İ
the re
lo ck
ãĤ ½
48 3
48 6
Ma ch
Ma ke
Ma te
75 4
ca t
be ca
be at
65 6
The at
Re v
Mi d
67 6
AT X
66 %
99 .
SA N
78 5
56 1
NA S
61 %
AR K
AR P
Fi eld
Si ri
Mar s
ki yo
AC H
Bo ard
So cket
84 %
IP TV
AN G
We stern
à¸ ²
UN ES
Au dio
ron o
Fran ces
Mor ning
RC A
Colle ction
Han s
Space X
Fan ta
Af ri
TW ICE
Cir cle
Crea tive
Mel on
Wol f
Indu stri
SUP ER
2 DS
5 18
5 26
5 66
7 16
7 14
7 65
7 64
7 44
7 .3
8 26
8 47
9 18
9 36
A bu
A ce
B ei
B NO
C in
E very
G I
I an
K ra
M RI
N am
R P
S UN
V IP
W TT
Y i
h p
i nv
o wn
Å Ĥ
Ù Ī
â Ĭ
ë ¦
ð ¬
an t
ci ous
du s
mu lti
te en
ma ry
10 24
16 69
16 56
16 72
16 92
17 54
14 20
14 80
in k
lve t
31 .
0. 15
75 1
ca p
65 .
65 8
vi o
59 4
wi ck
79 1
Wi t
AM C
AM P
Ca the
Ri ght
Su l
IT A
170 4
170 8
Wa re
Wa ve
For t
AG P
ML B
Her e
Fu ture
DM R
Sh ine
Cla rk
Plan et
logi cal
part ment
Fron t
Moo re
2 B
7 13
7 27
7 48
7 68
8 75
8 .8
9 15
9 29
9 47
B IG
C YP
E BS
F rom
G ian
I sa
I SA
J ason
N ICO
O ME
R 3
S ter
T rai
U F
V IS
X III
a w
i or
s ki
s yn
u er
x c
Ð ¢
Ø ³
an ti
un der
bu ry
chu s
hou t
te au
ma ri
10 75
12 77
12 79
12 76
11 11
14 40
14 88
14 72
13 71
ro ad
ãĥ §
90 2
48 9
In dian
69 9
99 2
88 1
98 6
tw e
Ja y
con fi
con tribu
AP M
160 2
com mercial
go s
Bu g
Inter play
cro ss
AI M
RE AS
CR H5
Gre g
Vo gue
Ver sion
Wal ker
Wil he
dd le
Ji mmy
Bui lding
Oper a
Distri ct
Thunder bird
Swe et
Fil ms
0 30
6 33
7 78
8 12
9 55
9 57
9 .3
C 3
C 14
E Y
F ol
L NG
L IF
M IC
N Y
N int
P OS
R SS
S AT
T am
T NT
V ar
W here
a to
c co
d 4
g li
s po
t su
t heir
Ã ½
Ø ¨
Ø ¯
shi re
en ds
da d
ti no
ri ce
ci es
lai n
ban d
min al
la un
tu ry
10 .6
00 2
00 4
12 30
long i
15 27
15 .5
16 11
ãģ Ľ
48 7
ve ment
IN T
46 .
In formation
vi ch
vi er
55 8
68 5
ho l
57 7
78 1
Pa ge
per t
79 2
79 4
Wi MAX
98 1
CO 2
AR C
Ja lan
Si x
Sa y
fe ct
mer s
Ni ck
Ge mini
En ergy
Ste wart
112 2
RE S
ES PN
Tri ckett
As ian
All en
Sto p
Tho mpson
Por table
Ve lvet
Qui n
sho w
ìķ Ħ
Jona than
ð¬ ĵ
Nint endo
0 70
5 43
6 15
7 17
8 28
8 39
9 39
A zu
B as
C el
E 2
F D
G 2
G G
G y
K S
M ED
N 1
P ur
Q uan
R Y
S 7
U FC
V 1
V 2
X i
a ve
b ui
e sa
m 2
p pa
t ent
ã İ
ê °
da le
ti ful
pi s
ma jor
ba sed
wa ter
15 12
15 41
16 66
17 21
17 26
17 37
17 47
17 43
17 41
14 30
30 .
25 000
me di
ra d
0. 1%
48 1
Ma tch
47 .
67 4
Li quid
69 7
ho st
88 9
De uts
fi t
77 %
98 2
98 9
74 .
96 %
81 %
Ti tan
PC R
0.0 4
à¸ Ļ
AV E
Hu b
Ad ven
NH S
Gra ce
She r
Enter prise
hy th
Production s
Bru ce
Doug las
2 TV
5 13
8 46
8 66
8 57
B 12
C ong
F air
G ary
H Y
J 1
J XG
O culus
T D
W M
a gain
e y
k Hz
ng e
ke e
mi um
qu ali
bo v
ba ch
na e
12 17
12 74
gen er
po nen
15 15
15 42
17 12
17 11
17 15
14 35
14 56
13 28
13 85
for man
pa s
co la
ãģ ¶
1. 05
48 .
48 00
do l
34 00
II T
Ro sa
Ro ger
150 9
Sta ff
as y
gi r
Di ck
Windo w
IS C
97 1
Ki ll
Ha y
No ve
AS H
Net scape
tal k
IG HT
Sho p
GP 40
Dra ma
hy dro
bri dge
nic s
Sur f
Pen tium
face book
Ten nis
Prin cess
Pin k
Del ta
SHIN ee
0 55
6 47
7 28
7 26
8 11
8 .4
9 13
B run
C Z
C CD
C OS
H ai
I a
M g
P r
S ang
S now
T AI
U ta
W ai
W er
W oo
Z ero
c tus
d one
k ra
o c
p r
z zi
Î ¯
Î ¶
ian o
ta ge
ci sion
pi a
ni ty
10 .1
sha rk
11 50
15 44
17 57
14 24
14 70
14 54
ar ray
29 00
ro om
90 9
45 9
38 .
37 00
34 .
75 9
Co o
be t
ST ER
67 2
58 2
AT S
ver s
69 .
ho me
59 1
99 3
SA P
56 .
gi on
Di vision
Lo st
Bo w
mer al
Ki r
93 %
Ni cho
Ta c
pro ject
DS L
eri a
Fran ce
uni que
Univer sal
Gen e
ham mad
dge t
work s
âħ ¢
IM F
Eng land
stru ct
Ben ja
bri d
CG TN
Lou ise
Anto nio
Archi te
CDMA 2000
WOR LD
Rep Rap
Mis sion
seu do
Holly wood
8 23
8 29
8 .9
9 27
9 35
9 .2
A 5
A er
B all
E mi
F 7
F l
F our
G IS
J C
K N
K now
L MS
L PL
R al
T B
U SE
W D
b ran
c ken
e v
f ts
m un
o g
s cien
v ard
li er
li con
bi g
bei ng
mi cal
ri er
se ts
ce ae
12 35
12 64
15 54
or der
17 22
17 34
17 66
14 71
13 30
13 90
ne u
ãĥ į
60 .
60 9
the m
Ma kiyo
ll on
be ta
65 2
65 9
ss er
Re mix
pe d
69 5
57 3
78 3
Vi cto
De an
gh ter
fi ed
ber ry
77 1
Win d
Mo tor
Ga te
Si e
Ca re
Al liance
Ho p
82 %
92 %
ster s
Bu zz
âĪ Ī
Sho t
Ke lly
AA A
DO CO
ser va
Ori ginal
Bro thers
Or gani
Ac tive
Phi lli
Alpha Go
Para dox
Vir gi
ab out
Engine ering
ECT ION
tour nament
Cree k
defea ted
Concer t
trie ved
Surf shark
1 180
3 100
5 29
7 24
7 36
8 32
9 32
9 67
9 76
A rena
B EST
D N
F 6
F G
G as
H M
H Q
H oo
J ar
K A
K un
K am
M un
N 3
N ON
O L
O l
O ly
P RE
R AD
S RAM
U 16
V CD
X Y
g ers
g ood
i des
k t
p m
x on
Â ½
Ã £
Ï Į
Ð ŀ
× Ļ
ð ¡
de ri
eng er
le dge
min a
bo ot
te o
tu a
tan ce
12 .6
15 57
15 51
16 55
16 78
16 96
17 46
17 49
14 75
14 41
14 84
13 99
25 .
st ring
ra p
Ma xi
75 2
Co oper
68 3
Ro d
Ro ss
Te a
87 %
87 4
Mar ga
AC S
sta tic
86 %
St r
Uni t
140 2
à¸ ¡
Pe ace
Man a
cy clo
CR H
Pri ze
BM T
Hu lu
Bro ad
Bro ok
Red dit
All stars
Mor gan
Val ley
Hol dings
GM MTV
VO CAL
ori gin
Pala zzo
Ur ban
IPv 6
Rain bow
Premi er
sma ll
PEN OME
fes sional
Mercu ry
DOCO MO
PENOME CO
6 35
8 64
9 31
9 37
9 56
9 72
E dition
F ren
F all
F IR
J in
K w
K or
L yn
N AT
P RI
S ue
T ang
b ber
f low
h on
m me
t hu
Ã ĸ
Å ĭ
Ñ Ī
ð °
en ne
ch s
di stri
gu s
ni cal
la v
ma tch
na rd
10 20
10 10
ran ce
12 66
12 61
po em
16 41
17 51
13 46
pa th
ne st
0. 12
0. 65
ãģ Ń
th ree
th rough
ga s
38 .5
TC H
ca u
Mi r
Mi ra
Mi ller
99 5
88 4
88 5
88 6
Pa u
54 .
You Bike
Le ona
Te d
89 %
Si d
Si g
Se p
IS P
IS S
Lo ck
Hi g
83 %
An n
He ad
Wor d
AG M
M1 A2
CL OS
CS I
phi c
Sam sung
YO U
Sma ll
Coun ty
Wat ch
Beau tiful
Dai ly
Augu st
user name
Twin s
Giovan ni
Theat re
Wilhe lm
Benja min
0 60
5 64
6 64
8 17
8 31
8 53
9 19
9 58
9 42
9 59
9 79
B W
C hen
E c
F K
F NC
G UI
H g
I ATA
I nvest
J B
N L
N el
O C
P U
P X
P DF
Q R
U CC
a ma
c ry
g b
g ger
h or
m ba
t hus
Î £
Ð Ŀ
xi t
er on
si te
fa ri
fa mily
mo tion
pin e
12 84
202 9
16 73
17 13
14 25
14 68
13 82
for mer
ar chi
me mber
ãĥ ľ
0. 20
80 4
80 2.
ãģ ©
1. 75
36 .
38 00
Ma de
Co lo
65 7
AT I
57 .
De partment
CO NC
AM X
AR I
Ga u
87 3
120 4
va ria
IC C
Fa ctory
Ho ward
Hi l
Do cu
Ha w
Pi a
0.0 9
à¸ ±
Car o
CR 400
Ser vices
SP A
od on
Nor d
Dis c
5.5 6
cre en
Fla g
Tru st
LAN D
Hun ter
Fede ration
brea k
Edu cation
Jor dan
contribu tor
5 69
6 31
7 88
8 27
8 45
8 52
9 .1
A 330
B 7
B MP
E van
G 6
G IR
I Q
K ris
P el
R ER
S wing
T TC
Y S
f eld
g am
i bn
k no
l ling
Ä ĥ
ì ĭ
he l
si l
ta ra
ye s
mu r
lin es
chi ld
10 .0
cha ft
12 27
12 83
12 91
ha u
ha us
15 39
16 95
16 82
17 10
14 81
13 56
me o
ne tt
ãĥ Ļ
0. 28
0. 3%
ãģ µ
Ma la
39 %
39 .
In dia
vi rus
Re gu
68 .
44 1
67 7
69 1
Ro b
Ro bo
99 1
56 %
De f
79 7
53 %
89 7
87 .
Ra ja
AC G
ad y
Ca li
AP S
nen sis
Ho pe
Ki ss
Ki wi
Ni ke
No kia
140 5
Ge m
EN D
170 7
Car d
112 4
MI R
cri p
cke d
à¤ °
Har t
tri x
EX O
Ac cess
Es meral
mpi c
los ing
HS CR
Sing le
Asso cia
Sma rt
Vir tual
DK Z
Dou ble
Song s
Premi um
Chang e
coun ter
Wire Guard
Rus sell
Num ber
Sty le
Disco very
twe en
Nicho las
0 20
2 K
3 166
5 23
8 42
8 41
9 77
A Y
A e
A 320
B our
C #
C hai
C rai
D 4
E B
E ven
G RE
I ni
J DG
K han
O u
O 305
P un
P 10
P res
R MS
R yo
T EP
V HS
W ri
W all
W right
W 3C
X M
Z n
d l
e du
f ai
h d
i re
o me
w hat
Â µ
Ã °
Ã »
Ð ĵ
ji to
de le
ei gn
you r
da m
da te
hu man
si r
bi na
zi e
fa u
ta u
ta x
ta le
ci r
19 .7
ye d
ni k
la e
mo thy
10 66
dou ble
se o
18 .5
12 41
12 95
que t
11 30
14 33
14 49
13 76
100 1
0. 75
ãģ °
ãģ Ķ
ãĤ »
th ro
Ma j
46 2
be tween
58 .
69 6
SA E
78 6
56 3
per ia
no s
62 %
95 .
Ar ray
Al ber
sta mp
Ho spi
fe e
fe at
Do mini
Pi ctures
PC S
0.0 7
0.0 8
170 3
EC E
sion s
CH O
And y
AD A
Or der
Gu y
mar ch
time stamp
Blo od
type def
Tai pei
Shi p
thi rd
Free BSD
Val en
Stan d
Tal king
Cl 2
Memo rial
Stadium s
Advan ced
Dro p
Jaco b
Anth ony
Chal leng
Esmeral da
4 D
7 49
7 66
7 99
8 38
8 44
8 43
8 54
9 68
A y
A ve
B 6
C all
C andy
F B
G 3
I Z
I ron
N on
O BE
R d
R is
R IA
S ei
T in
T REAS
W B
a ta
a es
b ye
e ch
e ar
s eries
t rue
¸ ©
ì Ĥ
an y
di ffe
bi tal
mi d
ri d
mu se
ma la
na m
10 .7
10 .2
12 90
12 65
12 62
12 86
po st
ha ra
17 29
17 42
14 38
14 59
14 .4
hei ght
21 .5
ï¼ ĳ
ro me
st r
ãĤ §
ãĤ ħ
75 .
Co le
Re Mi
et te
Li p
Li sa
66 3
Me d
Me e
79 %
Mo jito
63 %
AR S
76 .
Di plo
Fi nan
AP EC
Fa ker
Na ture
Do ReMi
71 %
No va
0.0 6
RO R
Go vernment
van t
ser vice
ex e
âĹ ı
BLAC K
par ti
Sco re
Count ry
fri Day
Johan n
met ry
Austra lian
ðª ¸©
SNC F
Jac ques
B9 TL
TREAS URE
1 190
7 18
7 33
8 37
8 .0
8 79
9 28
9 22
9 48
9 66
A 9
A Z
A la
B 5
B len
C 7
C our
C BD
E rn
F OR
G ai
K L
L lo
L SA
M n
M am
N RA
N eil
O ce
O BC
P ET
P DP
R ED
S chu
S 22
T es
U HF
a ri
e li
f fa
o va
â Ł
ì ł
di c
si ty
ti t
ti tle
19 .5
bo y
lin s
lie s
10 40
12 40
12 70
gen ce
po inter
wa l
15 99
17 17
14 47
13 69
13 73
ãĥ ļ
0. 11
lo ok
ãĤ ¶
37 .
Ma p
Ma tt
75 3
ca re
vi lla
Li ving
88 2
De fen
fi re
98 3
BA S
BA NG
Le vel
Le wis
89 .
con ne
Se cond
-- -
MA G
Mu l
140 3
AS P
Ch in
lla h
lla r
MP EG
112 1
ff er
Pri ce
Ru ss
IF PI
Fran ci
YO UNG
Spi rit
PE G
ICO CA
Far ms
Ven tures
gre en
DAM P
Ana ly
tiona ry
aso nic
depen dent
1 x
1 198
4 x
7 46
8 19
8 14
8 13
8 24
8 51
9 64
A ero
C ERT
D or
E p
E mer
F r
H in
M bit
P sy
R at
S py
U s
V L
W C
W u
a co
d ding
j ar
o su
á ŀ
ê ¸
ì ŀ
de ra
ren e
ge o
ta b
qu en
mu sic
dai n
nan ensis
te k
la ter
su p
ce pha
12 19
12 54
11 .9
11 .4
sa tion
16 76
17 14
14 29
14 34
14 44
14 62
14 51
14 83
13 64
22 .5
ï¼ ¡
st en
cu t
0. 13
0. 24
1. 35
lo ad
of fi
Ma h
Co ok
SE N
II c
Li te
59 3
99 6
88 3
Me lo
Pa cific
CD R
77 4
Win ter
Wi se
Le ga
Pro fessional
89 2
89 5
Se ason
IS IL
ur s
So phi
St rong
Hi ME
Ri ck
Ha ve
Gi b
140 7
gra ph
Con ference
Ka ren
à¸ Ń
pro cess
And rea
Fe a
Mon o
Ad rian
Che e
Dis play
ex ample
ãĦ §
ãĦ Ľ
DD 53
stru cture
Hel en
Cro wn
Ele ct
mini stra
Fun d
PH P
har ma
sing le
Ob ject
Cap tain
map frame
Get chu
Qua si
Gor don
NEX T
inte ger
Abdu l
Azu re
VOCAL O
2 S
3 rd
8 62
9 .0
A no
E 5
G r
J AK
K 10
K is
N 64
P ai
P AS
R D
S wan
S na
S at
S OS
T 7
V G
a a
a way
g ing
g ro
j n
o re
s v
de t
ei s
ian s
zhu ai
si i
ti i
mi R
mi li
ri cal
le b
ma ge
10 86
ran e
ka ra
12 25
12 24
12 58
po t
sa ry
or dina
16 86
14 86
14 97
13 10
13 29
13 .6
13 91
ï¼ Ĵ
al loca
0. 18
0. 30
0. 2%
the ory
ck i
Re public
hi cle
58 %
AT H
pe ople
Li sp
69 %
69 3
De ath
77 .
98 7
BA C
AR A
Ga ming
89 6
Fi t
Si m
Ne ss
Ne xus
Se an
com ment
so cket
73 %
110 8
go v
140 4
Con trol
mp h
ph one
Pe ar
For mation
âĪ ŀ
Ex tra
AV C
Pri x
DC T
Fran z
Per son
NO ME
Du al
SD K
sp lay
Sy m
Lan e
âī ¥
posi tion
Sca la
Cast le
apo re
Ner f
LIF E
Victo ria
Fren ch
Franci sco
VOCALO ID
0 40
0 80
6 A
7 23
8 500
8 58
8 59
9 14
9 34
9 44
9 69
9 53
B GM
B lair
E va
E lli
E MD
F lor
F RAM
G len
G NOME
H is
H IG
K no
K ara
L as
N 4
O G
O Z
P lu
P ST
P AL
R R
R GB
S lo
X peria
Y ellow
Z u
Z ICO
a me
d le
d ron
p ti
Ã ¯
Å Ľ
Ë ĭ
á ¼
ing s
ui nt
er ror
ti mes
tai l
pi d
ni g
bo l
10 .9
dou bles
00 3
12 36
12 78
12 .1
12 63
11 40
ha l
sa t
âĢ Į
17 16
14 42
14 78
13 60
13 65
13 33
13 41
13 .2
pa y
24 .5
st ream
0. 26
0. 35
lo cal
2. 75
45 .
Co me
ST EM
AT M
66 .
78 2
fi cation
77 2
77 9
per s
ly s
Da ys
76 %
89 1
Mar t
Mar ch
Ra cing
120 8
Se x
IS IS
sta rt
Bi li
Bi lly
So cial
Ri ch
Ki ii
Com mission
Con ti
à¸ ŀ
Car ter
Car ol
AI L
sis tant
Ex peri
And re
SO 3
BO RN
au x
TE EN
PP P
ple te
Cen tury
cle ar
mb H
Hy brid
OK A
At lan
BI OS
Ter ry
LGBT Q
Qui ck
Part ners
Bran d
Pho to
Alf red
Fore st
Fro llo
cka ge
WI SE
Advan ce
Fanta sy
Ern st
1 a
1 194
8 34
8 49
9 41
A x
B ye
B WF
B OSS
C AT
D AI
E nt
F RE
F IA
G U
I van
J J
K al
M 24
O ur
P b
S pen
S ki
U l
W ang
W ha
W AN
a ting
c ty
d r
f x
o mp
u a
w ri
Å Ħ
× ķ
Ø ©
à ¼
ë ĭ
ì ĺ
de z
shi ps
li en
di gi
bu rn
bu cket
ti us
qu ar
ba ra
che ster
pu l
10 30
10 99
can s
12 21
12 .2
12 72
re st
re cor
15 33
16 98
16 71
14 13
14 43
13 58
13 96
Ma tter
59 .
99 8
ry o
78 9
CD K
77 3
Ra b
Ra zer
ki en
120 6
Ar n
Ba si
Lo w
Bo dy
So rana
EP HE
HK IFF
MP I
pro per
dy na
Ko ta
Davi s
SC I
Char lie
Fu ll
im port
Min ute
UT F
Stan ley
Plan e
