{"!":0,"\"":1,"#":2,"$":3,"%":4,"&":5,"'":6,"(":7,")":8,"*":9,"+":10,",":11,"-":12,".":13,"/":14,"0":15,"1":16,"2":17,"3":18,"4":19,"5":20,"6":21,"7":22,"8":23,"9":24,":":25,";":26,"=":27,"?":28,"@":29,"A":30,"B":31,"C":32,"D":33,"E":34,"F":35,"G":36,"H":37,"I":38,"J":39,"K":40,"L":41,"M":42,"N":43,"O":44,"P":45,"Q":46,"R":47,"S":48,"T":49,"U":50,"V":51,"W":52,"X":53,"Y":54,"Z":55,"[":56,"\\":57,"]":58,"^":59,"_":60,"`":61,"a":62,"b":63,"c":64,"d":65,"e":66,"f":67,"g":68,"h":69,"i":70,"j":71,"k":72,"l":73,"m":74,"n":75,"o":76,"p":77,"q":78,"r":79,"s":80,"t":81,"u":82,"v":83,"w":84,"x":85,"y":86,"z":87,"|":88,"~":89,"¡":90,"¢":91,"£":92,"¤":93,"¥":94,"¦":95,"§":96,"¨":97,"©":98,"ª":99,"«":100,"¬":101,"®":102,"¯":103,"°":104,"±":105,"²":106,"³":107,"´":108,"µ":109,"¶":110,"·":111,"¸":112,"¹":113,"º":114,"»":115,"¼":116,"½":117,"¾":118,"¿":119,"Â":120,"Ã":121,"Ä":122,"Å":123,"Æ":124,"Ç":125,"È":126,"É":127,"Ê":128,"Ë":129,"Ì":130,"Í":131,"Î":132,"Ï":133,"Ð":134,"Ñ":135,"Ò":136,"Ó":137,"Ô":138,"Õ":139,"Ö":140,"×":141,"Ø":142,"Ù":143,"Ú":144,"Û":145,"Ü":146,"Þ":147,"ß":148,"à":149,"á":150,"â":151,"ã":152,"ä":153,"ê":154,"ë":155,"ì":156,"í":157,"î":158,"ï":159,"ð":160,"ñ":161,"Ċ":162,"Ġ":163,"ġ":164,"Ģ":165,"ģ":166,"Ĥ":167,"ĥ":168,"Ħ":169,"ħ":170,"Ĩ":171,"ĩ":172,"Ī":173,"ī":174,"Ĭ":175,"ĭ":176,"Į":177,"į":178,"İ":179,"ı":180,"Ĳ":181,"ĳ":182,"Ĵ":183,"ĵ":184,"Ķ":185,"ķ":186,"ĸ":187,"Ĺ":188,"ĺ":189,"Ļ":190,"ļ":191,"Ľ":192,"ľ":193,"Ŀ":194,"ŀ":195,"Ł":196,"ł":197,"Ń":198,"ng":199,"an":200,"sh":201,"zh":202,"ji":203,"ang":204,"ĠĠ":205,"ong":206,"xi":207,"ao":208,"ai":209,"de":210,"ei":211,"shi":212,"yu":213,"ou":214,"yi":215,"en":216,"ch":217,"ian":218,"uo":219,"eng":220,"li":221,"ĠĠĠ":222,"ãĢ":223,"ing":224,"ui":225,"wei":226,"uan":227,"zhi":228,"qi":229,"nian":230,"zhong":231,"you":232,"ren":233,"un":234,"zai":235,"di":236,"guo":237,"ãĢģ":238,"he":239,"bu":240,"er":241,"gong":242,"xing":243,"cheng":244,"da":245,"zhu":246,"hu":247,"yuan":248,"si":249,"jian":250,"yue":251,"ge":252,"fu":253,"xian":254,"ue":255,"ke":256,"wu":257,"chu":258,"shu":259,"sheng":260,"jie":261,"jia":262,"bi":263,"dao":264,"zi":265,"bei":266,"hui":267,"fa":268,"xiang":269,"ti":270,"zheng":271,"mi":272,"ta":273,"jin":274,"qu":275,"20":276,"tong":277,"ri":278,"ju":279,"jing":280,"ming":281,"le":282,"hou":283,"shang":284,"shou":285,"dong":286,"ci":287,"fang":288,"19":289,"hua":290,"yin":291,"xue":292,"guan":293,"zhan":294,"ye":295,"ying":296,"zuo":297,"zhe":298,"yan":299,"mei":300,"jiao":301,"gu":302,"chang":303,"xin":304,"dui":305,"lu":306,"bing":307,"bao":308,"fen":309,"dan":310,"huo":311,"jun":312,"jiang":313,"du":314,"xiao":315,"dian":316,"yong":317,"qian":318,"she":319,"tai":320,"xia":321,"mu":322,"wen":323,"gai":324,"zhang":325,"liang":326,"ya":327,"ru":328,"dai":329,"hai":330,"nan":331,"zhou":332,"zu":333,"wang":334,"lai":335,"ban":336,"jiu":337,"dang":338,"qing":339,"ping":340,"shen":341,"ãĢĭ":342,"ãĢĬ":343,"wan":344,"lian":345,"ling":346,"luo":347,"Â·":348,"min":349,"quan":350,"pi":351,"ni":352,"bo":353,"duo":354,"te":355,"ben":356,"gao":357,"biao":358,"suo":359,"la":360,"ma":361,"kai":362,"ba":363,"xie":364,"xu":365,"bian":366,"deng":367,"yao":368,"yang":369,"mian":370,"zhen":371,"ding":372,"qiu":373,"zui":374,"sai":375,"liu":376,"fan":377,"xuan":378,"fei":379,"san":380,"shan":381,"che":382,"zong":383,"men":384,"ãĢĮ":385,"ãĢį":386,"tu":387,"tian":388,"hao":389,"su":390,"lei":391,"nei":392,"yun":393,"201":394,"lan":395,"feng":396,"mo":397,"na":398,"ze":399,"lv":400,"han":401,"kou":402,"wai":403,"neng":404,"lin":405,"chuan":406,"chi":407,"jue":408,"bai":409,"pai":410,"200":411,"ku":412,"cai":413,"zao":414,"ting":415,"zhuan":416,"gang":417,"lie":418,"guang":419,"gui":420,"lun":421,"sui":422,"pu":423,"ceng":424,"kong":425,"shui":426,"10":427,"chao":428,"zhuang":429,"cha":430,"dou":431,"can":432,"tou":433,"ran":434,"se":435,"duan":436,"cun":437,"huan":438,"cong":439,"pin":440,"ce":441,"chan":442,"xun":443,"gou":444,"00":445,"nv":446,"zhao":447,"gan":448,"chong":449,"sha":450,"tan":451,"18":452,"qin":453,"ka":454,"meng":455,"qiang":456,"huang":457,"xiu":458,"12":459,"tiao":460,"man":461,"shao":462,"kuo":463,"long":464,"pian":465,"shuo":466,"tuan":467,"tang":468,"rong":469,"geng":470,"202":471,"chen":472,"tui":473,"gen":474,"que":475,"tie":476,"11":477,"qie":478,"wo":479,"po":480,"pei":481,"hang":482,"hong":483,"199":484,"bang":485,"liao":486,"chuang":487,"bie":488,"re":489,"tuo":490,"tao":491,"song":492,"wa":493,"mai":494,"ha":495,"15":496,"pan":497,"dun":498,"diao":499,"qiao":500,"sa":501,"mao":502,"lang":503,"kan":504,"kang":505,"âĢ":506,"or":507,"lao":508,"zeng":509,"16":510,"198":511,"kao":512,"xiong":513,"17":514,"on":515,"nuo":516,"miao":517,"rang":518,"kuang":519,"hen":520,"suan":521,"14":522,"30":523,"zhun":524,"13":525,"194":526,"cao":527,"hun":528,"qun":529,"nong":530,"197":531,"heng":532,"shuang":533,"lou":534,"gei":535,"kuai":536,"piao":537,"zha":538,"hei":539,"niu":540,"195":541,"sen":542,"bin":543,"reng":544,"zou":545,"196":546,"chun":547,"kuan":548,"25":549,"âĢĶ":550,"rui":551,"sun":552,"pao":553,"ning":554,"for":555,"pa":556,"cang":557,"mou":558,"24":559,"peng":560,"huai":561,"21":562,"193":563,"23":564,"mula":565,"formula":566,"28":567,"zan":568,"ruo":569,"in":570,"22":571,"chou":572,"zhui":573,"ar":574,"me":575,"26":576,"50":577,"2020":578,"27":579,"nai":580,"nu":581,"ï¼":582,"29":583,"shun":584,"2010":585,"za":586,"000":587,"lve":588,"zhai":589,"2019":590,"ne":591,"ro":592,"juan":593,"st":594,"ra":595,"cui":596,"kun":597,"2016":598,"luan":599,"2018":600,"cuo":601,"2021":602,".5":603,"zang":604,"2014":605,"shuai":606,"2011":607,"2015":608,"2017":609,"2012":610,"40":611,"2013":612,"nao":613,"2022":614,"die":615,"ruan":616,"kui":617,"lt":618,"rou":619,"cu":620,"sang":621,"2009":622,"2008":623,"ãĥ":624,"60":625,"niao":626,"al":627,"rao":628,"chai":629,"100":630,"zhuo":631,"2023":632,"gt":633,"sou":634,"190":635,"31":636,"ken":637,"2007":638,"2001":639,"teng":640,"pang":641,"0.":642,"fou":643,"co":644,"fo":645,"gua":646,"2000":647,"80":648,"2006":649,"2024":650,"ãģ":651,"1.":652,"2005":653,"zun":654,"tion":655,"kua":656,"the":657,"35":658,"70":659,"nie":660,"lo":661,"of":662,"90":663,"2.":664,"leng":665,"ï¼į":666,"ãĤ":667,"am":668,"tun":669,"ter":670,"mie":671,"2004":672,"th":673,"to":674,"45":675,"48":676,"mang":677,"2025":678,"ve":679,"ga":680,"ãĢī":681,"ãĢĪ":682,"36":683,"38":684,"2003":685,"37":686,"Ma":687,"chui":688,"pen":689,"ll":690,"189":691,"IN":692,"2002":693,"3.":694,"keng":695,"TC":696,"do":697,"34":698,"75":699,"âĢĵ":700,"Co":701,"46":702,"ca":703,"1990":704,"âĢ¦":705,"ck":706,"39":707,"..":708,"be":709,"65":710,"32":711,"ST":712,"47":713,"UTC":714,"1999":715,"1998":716,"1980":717,"188":718,"500":719,"33":720,"In":721,"64":722,"ss":723,"The":724,"vi":725,".8":726,"SE":727,"55":728,"1997":729,"Re":730,"hi":731,"49":732,"II":733,"el":734,"68":735,"et":736,"44":737,"1996":738,"oo":739,"qiong":740,"1994":741,"gun":742,"br":743,"guai":744,".0":745,".7":746,"1992":747,"1995":748,".9":749,"Mi":750,"67":751,"and":752,"sao":753,"es":754,"1991":755,"1970":756,"58":757,"1950":758,"300":759,"1993":760,"187":761,"1949":762,".6":763,"at":764,"AT":765,"pe":766,"1960":767,"42":768,"1945":769,"Li":770,"ver":771,"qia":772,"1988":773,"ty":774,"1989":775,"69":776,"Ro":777,"is":778,"run":779,"SEE":780,"niang":781,"INSEE":782,"ho":783,"59":784,"43":785,"66":786,"57":787,"1985":788,"99":789,"SA":790,"ãĢİ":791,"ãĢı":792,"ct":793,"1984":794,"41":795,"88":796,"1986":797,"wi":798,"ol":799,"ws":800,"TV":801,"ry":802,"150":803,"Me":804,"nd":805,"400":806,"1987":807,"78":808,"1982":809,"56":810,"beng":811,"Vi":812,"Pa":813,"ts":814,"1983":815,"amp":816,"NA":817,"De":818,"CD":819,"gh":820,"fi":821,"weng":822,"ber":823,"77":824,"Win":825,"per":826,"zuan":827,"Sta":828,"79":829,"OS":830,"Wi":831,"Â°":832,"ï½":833,"der":834,"180":835,"BC":836,"54":837,"1979":838,"61":839,"1920":840,".2":841,"as":842,"Mo":843,"seng":844,"98":845,"52":846,"You":847,"1978":848,".1":849,"no":850,"62":851,"53":852,"ly":853,"shua":854,"La":855,"ï½ŀ":856,"BA":857,"1946":858,"CO":859,"51":860,"1958":861,"gi":862,"Jo":863,"1981":864,".3":865,"1972":866,"1948":867,".4":868,"Le":869,"tw":870,"AM":871,"63":872,"AR":873,"ction":874,"1941":875,"BS":876,"Ga":877,"1930":878,"Da":879,"Pro":880,"Te":881,"76":882,"hans":883,"1940":884,"1937":885,"1976":886,"1944":887,"Ja":888,"89":889,"us":890,"Di":891,"Windo":892,"1975":893,"ï¼ı":894,"1968":895,"hk":896,"con":897,"Fi":898,"um":899,"Si":900,"1000":901,"Windows":902,"95":903,"87":904,"nal":905,"Mar":906,"1966":907,"rd":908,"85":909,"Ne":910,"Ra":911,"ki":912,"600":913,"120":914,"1947":915,"Se":916,"AC":917,"1956":918,"1964":919,"Be":920,"1942":921,"Ã©":922,"1955":923,"1952":924,"IS":925,"ad":926,"1939":927,"1938":928,"72":929,"ur":930,"74":931,"Ca":932,"va":933,"1973":934,"1974":935,"1954":936,"Ar":937,"Al":938,"ED":939,"1900":940,"--":941,"AP":942,"1943":943,"To":944,"1977":945,"ld":946,"1971":947,"cen":948,"lay":949,"1967":950,"Ba":951,"IC":952,"800":953,"Po":954,"Lo":955,"ER":956,"zhua":957,"sta":958,"86":959,"1959":960,"Bo":961,"tt":962,"1965":963,"JR":964,"1969":965,"Fa":966,"ãĥ»":967,"ÃĹ":968,"ID":969,"Bi":970,"son":971,"1936":972,"160":973,"97":974,"1953":975,"Sa":976,"MA":977,"1962":978,"1961":979,"nen":980,"Na":981,"âĶ":982,"So":983,"1935":984,"com":985,"Ho":986,"tic":987,"96":988,"ON":989,"ï¼ħ":990,"1951":991,"St":992,"1957":993,"1963":994,"Tu":995,"âĶĢ":996,"fe":997,"so":998,"ment":999,"84":1000,"Hi":1001,"2026":1002,"82":1003,"Do":1004,"mer":1005,"Ri":1006,"73":1007,"nt":1008,"94":1009,"92":1010,"Ki":1011,"Ha":1012,"nang":1013,"one":1014,"IP":1015,"AN":1016,"ls":1017,"1933":1018,"1931":1019,"les":1020,"71":1021,"nuan":1022,"Com":1023,"83":1024,"93":1025,"ted":1026,"Su":1027,"81":1028,"Ti":1029,"Mu":1030,"1918":1031,"Ni":1032,"HD":1033,"Uni":1034,"1928":1035,"pp":1036,"1932":1037,"Cha":1038,"We":1039,"ys":1040,"MV":1041,"SS":1042,"110":1043,"IT":1044,"1912":1045,"No":1046,"1929":1047,"1927":1048,"1934":1049,"cn":1050,"700":1051,"go":1052,"1.5":1053,"zei":1054,"ght":1055,"ster":1056,"250":1057,"91":1058,"rt":1059,"lli":1060,"1924":1061,"ris":1062,"...":1063,"1919":1064,"nve":1065,"130":1066,"Pi":1067,"1925":1068,"Gi":1069,"PS":1070,"by":1071,"ed":1072,"mes":1073,"An":1074,"PC":1075,"140":1076,"AS":1077,"Play":1078,"1914":1079,"km":1080,"DV":1081,"tio":1082,"YouTu":1083,"SM":1084,"ble":1085,"gra":1086,"ko":1087,"1911":1088,"Con":1089,"Ch":1090,"lla":1091,"1926":1092,"lle":1093,"Ge":1094,"Par":1095,"id":1096,"Ta":1097,"1922":1098,"Lin":1099,"mp":1100,"1917":1101,"He":1102,"Ka":1103,"ET":1104,"NBA":1105,"wn":1106,"IV":1107,"EN":1108,"1923":1109,"1921":1110,"shai":1111,"Goo":1112,"chuo":1113,"0.0":1114,"170":1115,"à¸":1116,"EC":1117,"MS":1118,"ali":1119,"AL":1120,"ph":1121,"section":1122,"YouTube":1123,"EP":1124,"BL":1125,"1913":1126,"Car":1127,"Bu":1128,"zen":1129,"HK":1130,"we":1131,"hn":1132,"mm":1133,"ven":1134,"hant":1135,"2.5":1136,"âĨ":1137,"1909":1138,"sion":1139,"Inter":1140,"cro":1141,"MP":1142,"AI":1143,"Wor":1144,"Pe":1145,"ds":1146,"US":1147,"pro":1148,"DVD":1149,"ok":1150,"3000":1151,"En":1152,"1910":1153,"DS":1154,"RO":1155,"cou":1156,"Ste":1157,"sis":1158,"112":1159,"Go":1160,"rk":1161,"AK":1162,"RE":1163,"1916":1164,"Wa":1165,"lia":1166,"ãĥ¼":1167,"Station":1168,"For":1169,"Net":1170,"ff":1171,"Î±":1172,"oft":1173,"ine":1174,"den":1175,"lor":1176,"rea":1177,"tional":1178,"gn":1179,"ture":1180,"gle":1181,"CP":1182,"UN":1183,"âĪ":1184,"ard":1185,"1915":1186,"gin":1187,"1905":1188,"ps":1189,"FC":1190,"cal":1191,"vo":1192,"dia":1193,"My":1194,"CN":1195,"âĦ":1196,"âĨĴ":1197,"our":1198,"ers":1199,"1901":1200,"ent":1201,"Au":1202,"DNA":1203,"Ex":1204,"âĢ§":1205,"900":1206,"end":1207,"HR":1208,"dice":1209,".&":1210,"ther":1211,"tal":1212,"CH":1213,"TA":1214,"TO":1215,"1906":1216,"1904":1217,"2.0":1218,"AV":1219,"tes":1220,"MO":1221,"jiong":1222,"John":1223,"my":1224,"eri":1225,"codice":1226,"Man":1227,"âĦĥ":1228,"dy":1229,"PlayStation":1230,"Chi":1231,"05":1232,"CC":1233,"tive":1234,"diu":1235,"And":1236,"1907":1237,"dio":1238,"1908":1239,"Google":1240,"AG":1241,"Ci":1242,"EST":1243,"0.5":1244,"MI":1245,"SO":1246,"LE":1247,"sic":1248,"ree":1249,"BO":1250,"int":1251,"wit":1252,"BBC":1253,"Sch":1254,"AD":1255,"IG":1256,"land":1257,"III":1258,"cri":1259,"4.":1260,"ton":1261,"1500":1262,"5000":1263,"cy":1264,"round":1265,"wer":1266,"IST":1267,"ms":1268,"ron":1269,"ME":1270,"CR":1271,"ul":1272,"3D":1273,"je":1274,"6.":1275,"IA":1276,"ley":1277,"105":1278,"au":1279,"Ð°":1280,"ria":1281,"101":1282,"1903":1283,"tor":1284,"GB":1285,"van":1286,"09":1287,"TE":1288,"Lu":1289,"1902":1290,"BD":1291,"NC":1292,"Pri":1293,"Fe":1294,"xt":1295,"350":1296,"pou":1297,"Ã¡":1298,"SAO":1299,"5.":1300,"des":1301,"DC":1302,"ja":1303,"Î²":1304,"cke":1305,"B1900":1306,"B1900.0":1307,"book":1308,"hat":1309,"ES":1310,"all":1311,"BM":1312,"ï¼İ":1313,"ãĥ³":1314,"Ru":1315,"ner":1316,"1898":1317,"res":1318,"06":1319,"118":1320,"op":1321,"ãģ®":1322,"360":1323,"DR":1324,"New":1325,"01":1326,"DA":1327,"Hu":1328,"Open":1329,"1895":1330,"ger":1331,"125":1332,"Sho":1333,"3.5":1334,"HO":1335,"MC":1336,"1%":1337,"San":1338,"ATP":1339,"Micro":1340,"ctor":1341,"Ð¾":1342,"108":1343,"ft":1344,"2%":1345,"cor":1346,"os":1347,"NG":1348,"Ke":1349,"clu":1350,"gy":1351,"gram":1352,"pri":1353,"ward":1354,"sty":1355,"IF":1356,"Cu":1357,"Fran":1358,"One":1359,"net":1360,"soft":1361,"ker":1362,"pt":1363,"âĪĴ":1364,"07":1365,"08":1366,"230":1367,"Face":1368,"104":1369,"pace":1370,"lspan":1371,"Cor":1372,"Per":1373,"Bar":1374,"World":1375,"App":1376,"EDT":1377,"ISTAT":1378,"cuan":1379,"Love":1380,".5%":1381,"Ko":1382,"à¤":1383,"Har":1384,"NO":1385,"Stu":1386,"1896":1387,"LL":1388,"ux":1389,"109":1390,"DP":1391,"las":1392,"AA":1393,"fli":1394,"RI":1395,"Ju":1396,"pha":1397,"Ser":1398,"lus":1399,"line":1400,"RT":1401,"tri":1402,"SP":1403,"EX":1404,"B48":1405,"106":1406,"1890":1407,"rai":1408,"sti":1409,"mon":1410,"CST":1411,"ML":1412,"od":1413,"uni":1414,"CDT":1415,"bert":1416,"Je":1417,"rs":1418,"rus":1419,"red":1420,"3%":1421,"DO":1422,"Pu":1423,"ky":1424,"HE":1425,"Cou":1426,"ation":1427,"Mon":1428,"04":1429,"4000":1430,"115":1431,"1200":1432,"M1":1433,"Pre":1434,"50%":1435,"03":1436,"ler":1437,"GP":1438,"del":1439,"CE":1440,"Äģ":1441,"Live":1442,"begin":1443,"1889":1444,"ool":1445,"Davi":1446,"with":1447,"6%":1448,"ara":1449,"1899":1450,"colspan":1451,"tain":1452,"back":1453,"1871":1454,"RS":1455,"sto":1456,"Facebook":1457,"Ed":1458,"Sha":1459,"Microsoft":1460,"mic":1461,"tem":1462,"âĢĭ":1463,"240":1464,"1600":1465,"LO":1466,"Tri":1467,"ten":1468,"tin":1469,"BE":1470,"low":1471,"102":1472,"box":1473,"10%":1474,"clude":1475,"Ad":1476,"TT":1477,"1897":1478,"Sou":1479,"ser":1480,"NH":1481,"EE":1482,"Du":1483,"ces":1484,"PP":1485,"117":1486,"SC":1487,"4%":1488,"val":1489,"02":1490,"por":1491,"5%":1492,"cm":1493,"Mac":1494,"style":1495,"Che":1496,"rst":1497,"103":1498,"AKB48":1499,"Dan":1500,"MD":1501,"Nor":1502,"Ph":1503,"107":1504,"ral":1505,"Her":1506,"On":1507,"pre":1508,"ring":1509,"As":1510,"are":1511,"Willi":1512,"tel":1513,"0.00":1514,"Linux":1515,"lis":1516,"Ori":1517,"ww":1518,"8%":1519,"Dis":1520,"shuan":1521,"gue":1522,"mas":1523,"450":1524,"Ber":1525,"VID":1526,"127":1527,"Music":1528,"Is":1529,"Ai":1530,"Gre":1531,"cer":1532,"Ã¼":1533,"tus":1534,"Vo":1535,"tra":1536,"128":1537,"4.5":1538,"1.2":1539,"flix":1540,"9%":1541,"CL":1542,"Netflix":1543,"Bro":1544,"yo":1545,"1894":1546,"Game":1547,"220":1548,"Can":1549,"Gra":1550,"nin":1551,"ref":1552,"Ð½":1553,"William":1554,"Bri":1555,"IL":1556,"align":1557,"SH":1558,"bli":1559,"ory":1560,"Or":1561,"Twit":1562,"1880":1563,"Red":1564,"old":1565,"ÃŃ":1566,"RNA":1567,"136":1568,"PG":1569,"Ð¸":1570,"ãģĦ":1571,"rom":1572,"TR":1573,"20%":1574,"Team":1575,"7%":1576,"1800":1577,"ãĤ¹":1578,"Univer":1579,"ground":1580,"ia":1581,"1885":1582,"len":1583,"114":1584,"ãĤĵ":1585,"Hz":1586,"color":1587,"Gen":1588,"Ty":1589,"116":1590,"280":1591,"UR":1592,"ple":1593,"Ðµ":1594,"113":1595,"1886":1596,"7.":1597,"ein":1598,"ãĤ¤":1599,"TS":1600,"PO":1601,"1893":1602,"lar":1603,".9%":1604,"ex":1605,"rn":1606,"yn":1607,"1.8":1608,"Mc":1609,"name":1610,"111":1611,"SL":1612,"ãĦ":1613,".8%":1614,"Super":1615,"She":1616,"stra":1617,".4%":1618,"All":1619,"Gu":1620,"cial":1621,"lass":1622,".3%":1623,"âĢ»":1624,"David":1625,"135":1626,".7%":1627,"ject":1628,"Ac":1629,"260":1630,"Cen":1631,"Eu":1632,"lf":1633,"1860":1634,"port":1635,"ham":1636,"90%":1637,"Geor":1638,"cho":1639,"national":1640,"Char":1641,"5.5":1642,"Un":1643,"WTA":1644,"lver":1645,"dge":1646,"work":1647,".1%":1648,"HC":1649,"Th":1650,"80%":1651,"8.":1652,"tro":1653,"School":1654,"Ban":1655,"ks":1656,"sso":1657,"tch":1658,"tis":1659,"1888":1660,".2%":1661,"Mor":1662,"qui":1663,"text":1664,".6%":1665,"SD":1666,"Ã³":1667,"-.":1668,"UA":1669,"roup":1670,"lly":1671,"cation":1672,"ony":1673,"1.6":1674,"background":1675,"Meta":1676,"roid":1677,"ac":1678,"meri":1679,"Tra":1680,"129":1681,"GO":1682,"Sto":1683,"dis":1684,"1870":1685,"GN":1686,"ï¹":1687,"ream":1688,"30%":1689,"1887":1690,"Show":1691,"Qu":1692,"cle":1693,"1868":1694,"6000":1695,"Ã¶":1696,"ÑĢ":1697,"1883":1698,"NF":1699,"VA":1700,"mar":1701,"Ver":1702,"day":1703,"320":1704,"Xbox":1705,"CS":1706,"was":1707,"Ang":1708,"NHK":1709,"Tho":1710,"AF":1711,"Fo":1712,"Twitter":1713,"DD":1714,"lyin":1715,"onlyin":1716,"onlyinclude":1717,"++":1718,"KP":1719,"don":1720,"1864":1721,"âĢ¢":1722,"Gir":1723,"ION":1724,"1884":1725,"119":1726,"Bla":1727,"RC":1728,"UE":1729,"ain":1730,"miu":1731,"122":1732,"Va":1733,"2500":1734,"1892":1735,"210":1736,"6.5":1737,"A1":1738,"center":1739,"cket":1740,"155":1741,"ISO":1742,"âħ":1743,"145":1744,"stri":1745,"1891":1746,"650":1747,"7.5":1748,"9.":1749,"way":1750,"Android":1751,"NS":1752,"Clu":1753,"ãĢķ":1754,"OR":1755,"ffi":1756,"htt":1757,"mber":1758,"ãĢĶ":1759,"1850":1760,"Fu":1761,"Phi":1762,"age":1763,"mb":1764,"win":1765,"xy":1766,"Cy":1767,"Ku":1768,"king":1769,"International":1770,"sia":1771,"1867":1772,"logy":1773,"Ce":1774,"IM":1775,"ãĥĪ":1776,"1879":1777,"Star":1778,"rie":1779,"James":1780,"Enter":1781,"cc":1782,"ller":1783,"380":1784,"AB":1785,"UP":1786,"ney":1787,"Eng":1788,"40%":1789,"1876":1790,"Spe":1791,"War":1792,"ny":1793,"1.4":1794,"Studio":1795,"zo":1796,"George":1797,"Ab":1798,"Ani":1799,"1875":1800,"1861":1801,"270":1802,"Universi":1803,"Games":1804,"Bra":1805,"IR":1806,"126":1807,"2.4":1808,"NT":1809,"Ã¨":1810,"time":1811,"art":1812,"Es":1813,"Por":1814,"NGC":1815,"stru":1816,"ãĥ«":1817,"1873":1818,"Hen":1819,"MG":1820,"phi":1821,"ero":1822,"123":1823,"ãĥ©":1824,"PV":1825,"ns":1826,"100%":1827,"Ben":1828,"Dra":1829,"HT":1830,"Colle":1831,"Group":1832,"Pan":1833,"car":1834,"mpi":1835,"rans":1836,"Sun":1837,"it":1838,"ut":1839,"168":1840,"cus":1841,"COVID":1842,"Blo":1843,"FM":1844,"MB":1845,"Sys":1846,"ous":1847,"sed":1848,"1865":1849,"Club":1850,"AO":1851,"Ameri":1852,"PL":1853,"her":1854,"im":1855,"121":1856,"DE":1857,"Don":1858,"that":1859,"1.0":1860,"Air":1861,"Center":1862,"175":1863,"ary":1864,"ãģĨ":1865,"Web":1866,"H2":1867,"YP":1868,"from":1869,"Ã¤":1870,"1400":1871,"MAX":1872,"critic":1873,"Ale":1874,"tz":1875,"138":1876,"228":1877,"Han":1878,"TP":1879,"1848":1880,"1.3":1881,"1862":1882,"60%":1883,"330":1884,"124":1885,"ãĤ¢":1886,"1881":1887,"1882":1888,"737":1889,"Lea":1890,"Ali":1891,"UC":1892,"hy":1893,"1878":1894,"550":1895,"Ve":1896,"sau":1897,"bri":1898,"bit":1899,"1872":1900,"El":1901,"LC":1902,"Insta":1903,"Min":1904,"ration":1905,"70%":1906,"INK":1907,"Metacritic":1908,"eld":1909,"Oricon":1910,"Sai":1911,"Whi":1912,"sco":1913,"156":1914,"Boo":1915,"MTV":1916,"sp":1917,"165":1918,"LED":1919,"1840":1920,"IVE":1921,"Ya":1922,"cre":1923,"kin":1924,"750":1925,"ãĥĥ":1926,"1300":1927,"ãģĹ":1928,"Hy":1929,"137":1930,"Micha":1931,"Mark":1932,"7000":1933,"Hel":1934,"era":1935,"1.1":1936,"93.":1937,"DOS":1938,"SQ":1939,"UB":1940,"229":1941,"IU":1942,"GDP":1943,"King":1944,"OK":1945,"Ñģ":1946,"2.2":1947,"type":1948,"Gran":1949,"nic":1950,"High":1951,"Tai":1952,"ast":1953,"152":1954,"TVB":1955,"Chris":1956,"159":1957,"1877":1958,"Robert":1959,"Chan":1960,"py":1961,"sy":1962,"tle":1963,"âĹ":1964,"cien":1965,"1866":1966,"Hou":1967,"iOS":1968,"ot":1969,"Ð»":1970,"Produ":1971,"SK":1972,"Shi":1973,"silver":1974,"1869":1975,"âĢ²":1976,"thi":1977,"THE":1978,"Up":1979,"Day":1980,"4.0":1981,"Cro":1982,"DM":1983,"Ele":1984,"15%":1985,"Stre":1986,"Peter":1987,"It":1988,"NET":1989,"tter":1990,"2.8":1991,"Free":1992,"Jan":1993,"Ðº":1994,"139":1995,"Phone":1996,"Instagram":1997,"At":1998,"BI":1999,"C++":2000,"Sur":2001,"pla":2002,"BLAC":2003,"Type":2004,"Ð²":2005,"ora":2006,"Apple":2007,"DJ":2008,"Sy":2009,"Wal":2010,"0.3":2011,"CG":2012,"WE":2013,"code":2014,"ãĤ¯":2015,"Michael":2016,"DF":2017,"Sh":2018,"ï¸":2019,"1100":2020,"cia":2021,"158":2022,"ness":2023,"Big":2024,"225":2025,"Pla":2026,"Pat":2027,"Sam":2028,"Ye":2029,"vin":2030,"nia":2031,"305":2032,"133":2033,"INE":2034,"Paul":2035,"Tech":2036,"National":2037,"tte":2038,"oun":2039,"nis":2040,"ãĥª":2041,"Award":2042,"RA":2043,"YO":2044,"132":2045,"Steam":2046,"205":2047,"1863":2048,"ray":2049,"IE":2050,"pany":2051,"25%":2052,"1.7":2053,"Media":2054,"tainment":2055,"215":2056,"Br":2057,"University":2058,"FO":2059,"Lou":2060,"Val":2061,"ensis":2062,"tions":2063,"3.6":2064,"Bill":2065,"phy":2066,"CA":2067,"F1":2068,"KBS":2069,"bur":2070,"148":2071,"131":2072,"Smi":2073,"kg":2074,"166":2075,"2.7":2076,"1874":2077,"XX":2078,"deo":2079,"1858":2080,"par":2081,"EF":2082,"sor":2083,"rin":2084,"rum":2085,"Cho":2086,"clo":2087,"147":2088,"2.6":2089,"Hol":2090,"mini":2091,"Fri":2092,"256":2093,"ãģĭ":2094,"M2":2095,"1830":2096,"2.3":2097,"CBS":2098,"UT":2099,"gon":2100,"lm":2101,"1851":2102,"Lee":2103,"BN":2104,"GA":2105,"HI":2106,"UI":2107,"lip":2108,"ric":2109,"192":2110,"Park":2111,"td":2112,"Î¼":2113,"8000":2114,"Mer":2115,"3.0":2116,"now":2117,"Entertainment":2118,"310":2119,"4.8":2120,"143":2121,"his":2122,"Mk":2123,"1855":2124,"City":2125,"Black":2126,"Wil":2127,"Power":2128,"Chu":2129,"EM":2130,"IX":2131,"Space":2132,"gar":2133,"whi":2134,"GM":2135,"RAM":2136,"ð«":2137,"185":2138,"1859":2139,"tho":2140,"STAR":2141,"Jack":2142,"Charles":2143,"134":2144,"Java":2145,"Dire":2146,"ABC":2147,"Gar":2148,"Ter":2149,"spe":2150,"ship":2151,"1854":2152,"146":2153,"301":2154,"1700":2155,"inter":2156,"Viu":2157,"stitu":2158,"370":2159,"Fla":2160,"Ken":2161,"1857":2162,"Alpha":2163,"Lan":2164,"Stan":2165,"out":2166,"los":2167,"Dar":2168,"Ø§":2169,"10.":2170,"290":2171,"ãģª":2172,"Life":2173,"ï¸°":2174,"vs":2175,"Î³":2176,"214":2177,"420":2178,"Cam":2179,"ÑĤ":2180,"1.9":2181,"Recor":2182,"Company":2183,"Fun":2184,"Î¿":2185,"ãĢľ":2186,"1856":2187,"1853":2188,"Project":2189,"Dream":2190,"Fan":2191,"Sen":2192,"dium":2193,"ãģŁ":2194,"first":2195,"Time":2196,"Thomas":2197,"House":2198,"Pen":2199,"144":2200,"Saint":2201,"FA":2202,"OVA":2203,"Py":2204,"Spi":2205,"75%":2206,"Cent":2207,"VO":2208,"ek":2209,"face":2210,"A2":2211,"IO":2212,"dd":2213,"von":2214,"167":2215,"Japan":2216,"Street":2217,"3A":2218,"Cla":2219,"HS":2220,"SBS":2221,"rence":2222,"bili":2223,"rist":2224,"chard":2225,"1841":2226,"very":2227,"Euro":2228,"LP":2229,"Plan":2230,"ak":2231,"ie":2232,"rp":2233,"bal":2234,"ety":2235,"Alex":2236,"340":2237,"PM":2238,"bun":2239,"if":2240,"lue":2241,"BLACKP":2242,"7.6":2243,"92.":2244,"Sco":2245,"Tal":2246,"dra":2247,"cher":2248,"208":2249,"ses":2250,"1815":2251,"178":2252,"Soci":2253,"CPU":2254,"BLACKPINK":2255,"223":2256,"33.":2257,"space":2258,"850":2259,"LGB":2260,"Sing":2261,"Spo":2262,"ew":2263,"tta":2264,"cess":2265,"ood":2266,"www":2267,"IBM":2268,"zer":2269,"mis":2270,"Art":2271,"ports":2272,"Bat":2273,"Bur":2274,"SF":2275,"207":2276,"mation":2277,"wor":2278,"171":2279,"235":2280,"ãģ¨":2281,"ãģ¾":2282,"LIVE":2283,"SU":2284,"Soft":2285,"203":2286,"B2":2287,"Fer":2288,"VE":2289,"SQL":2290,"tha":2291,"1846":2292,"164":2293,"College":2294,"Am":2295,"cra":2296,"157":2297,"lter":2298,"vice":2299,"berg":2300,"American":2301,"BR":2302,"LT":2303,"NE":2304,"Pol":2305,"141":2306,"ford":2307,"ICE":2308,"4.7":2309,"4.6":2310,"8.5":2311,"Ama":2312,"B1":2313,"PE":2314,"nvi":2315,"176":2316,"ING":2317,"Girls":2318,"Asso":2319,"Ger":2320,"LS":2321,"ste":2322,"Â²":2323,"turn":2324,"publi":2325,"self":2326,"1812":2327,"1845":2328,"1844":2329,"stro":2330,"3.2":2331,"Road":2332,"not":2333,"Offi":2334,"Wo":2335,"dro":2336,"ball":2337,"231":2338,"arch":2339,"cture":2340,"class":2341,"lon":2342,"esti":2343,"Rock":2344,"Cl":2345,"HF":2346,"Ltd":2347,"M3":2348,"play":2349,"lea":2350,"board":2351,"ãĤĬ":2352,"witch":2353,"LGBT":2354,"llo":2355,"sg":2356,"here":2357,"209":2358,"ãģį":2359,"2.1":2360,"2.9":2361,"NASA":2362,"Tele":2363,"GNU":2364,"LA":2365,"Van":2366,"gs":2367,"tation":2368,"Jose":2369,"well":2370,"Tour":2371,"IUCN":2372,"Smith":2373,"216":2374,"PN":2375,"Rou":2376,"Îº":2377,"1849":2378,"153":2379,"CT":2380,"NBC":2381,"204":2382,"238":2383,"nes":2384,"Good":2385,"Production":2386,"BB":2387,"Cal":2388,"GT":2389,"bra":2390,"ded":2391,"Video":2392,"O2":2393,"ep":2394,"fer":2395,"Ïĥ":2396,"mited":2397,"pie":2398,"row":2399,"Hall":2400,"PR":2401,"dae":2402,"206":2403,"thy":2404,"Pad":2405,"Gala":2406,"Boy":2407,"eries":2408,"460":2409,"5.0":2410,"Af":2411,"Tor":2412,"set":2413,"1814":2414,"vel":2415,"ders":2416,"saurus":2417,"218":2418,"Eli":2419,"Tur":2420,"wood":2421,"Jean":2422,"SI":2423,"Ten":2424,"nel":2425,"vision":2426,"IGN":2427,"5.8":2428,"Act":2429,"LD":2430,"PA":2431,"fra":2432,"âĸ":2433,"Richard":2434,"FF":2435,"Kar":2436,"WS":2437,"om":2438,"ÏĢ":2439,"tar":2440,"1847":2441,"154":2442,"ved":2443,"3.4":2444,"580":2445,"6.0":2446,"MBC":2447,"side":2448,"mac":2449,"chem":2450,"1843":2451,"Best":2452,"ptr":2453,"System":2454,"430":2455,"Sky":2456,"Zi":2457,"rich":2458,"cis":2459,"177":2460,"401":2461,"lls":2462,"410":2463,"Fle":2464,"sin":2465,"mann":2466,"ãĤ·":2467,"NFL":2468,"ViuTV":2469,"Switch":2470,"dar":2471,"163":2472,"0.2":2473,"AMD":2474,"Digi":2475,"API":2476,"Para":2477,"ICO":2478,"Sma":2479,"data":2480,"ments":2481,"1852":2482,"162":2483,"thon":2484,"Max":2485,"VII":2486,"ced":2487,"1820":2488,"11.":2489,"ãģı":2490,"West":2491,"Ag":2492,"Glo":2493,"Tun":2494,"Vol":2495,"ach":2496,"zon":2497,"142":2498,"234":2499,"star":2500,"cript":2501,"5.7":2502,"VR":2503,"sys":2504,"sign":2505,"max":2506,"172":2507,"ãģĬ":2508,"ãģķ":2509,"Core":2510,"Records":2511,"640":2512,"Met":2513,"lti":2514,"169":2515,"3500":2516,"this":2517,"Limited":2518,"Blue":2519,"KC":2520,"Ran":2521,"T1":2522,"cto":2523,"Â±":2524,"1839":2525,"232":2526,"3.7":2527,"Coun":2528,"480":2529,"CM":2530,"179":2531,"cade":2532,"Inc":2533,"Green":2534,"use":2535,"2030":2536,"rio":2537,"org":2538,"149":2539,"0.1":2540,"365":2541,"3.3":2542,"Institu":2543,"Lau":2544,"lum":2545,"tube":2546,"1821":2547,"war":2548,"ãĥŃ":2549,"ãģ¿":2550,"Vir":2551,"Unicode":2552,"ROM":2553,"CCTV":2554,"390":2555,"BU":2556,"bus":2557,"tia":2558,"306":2559,"222":2560,"601":2561,"0.4":2562,"5.9":2563,"ona":2564,"173":2565,"Bob":2566,"EA":2567,"Far":2568,"Gui":2569,"Ji":2570,"PF":2571,"Yu":2572,"Ze":2573,"kh":2574,"rue":2575,"bar":2576,"12.":2577,"ware":2578,"247":2579,"oot":2580,"Hea":2581,"Prin":2582,"mpion":2583,"Er":2584,"KK":2585,"Mr":2586,"Ven":2587,"XP":2588,"gna":2589,"jo":2590,"1790":2591,"ump":2592,"211":2593,"560":2594,"OH":2595,"SN":2596,"zy":2597,"ket":2598,"ciation":2599,"orn":2600,"new":2601,"ãĥ¬":2602,"BF":2603,"Pra":2604,"VM":2605,"tv":2606,"off":2607,"velo":2608,"3.8":2609,"MU":2610,"PD":2611,"Ren":2612,"Squ":2613,"Scien":2614,"183":2615,"1795":2616,"303":2617,"Force":2618,"âĹĭ":2619,"PH":2620,"Tan":2621,"233":2622,"ãģ¡":2623,"1801":2624,"213":2625,"Trans":2626,"tary":2627,"ãĥŀ":2628,".0%":2629,"Heart":2630,"USB":2631,"Men":2632,"bro":2633,"174":2634,"3.1":2635,"Pop":2636,"ttle":2637,"MVP":2638,"Bel":2639,"CK":2640,"oper":2641,"Ïģ":2642,"áĢ":2643,"ìĿ":2644,"key":2645,"186":2646,"1838":2647,"ors":2648,"Fire":2649,"Store":2650,"520":2651,"Cri":2652,"DDR":2653,"stan":2654,"mily":2655,"har":2656,"cker":2657,"Christ":2658,"610":2659,"Lon":2660,"ab":2661,"up":2662,"161":2663,"501":2664,"ãĥī":2665,"http":2666,"224":2667,"CF":2668,"em":2669,"iPad":2670,"tto":2671,"bile":2672,"sub":2673,"1813":2674,"ãĤī":2675,"Mag":2676,"Data":2677,"GE":2678,"ÏĦ":2679,"rity":2680,"mor":2681,"182":2682,"1832":2683,"1842":2684,"255":2685,"logi":2686,"ason":2687,"Society":2688,"AE":2689,"dth":2690,"iPhone":2691,"sur":2692,"184":2693,"ties":2694,"0.6":2695,"ãĤ«":2696,"dom":2697,"Mini":2698,"720":2699,"KI":2700,"Que":2701,"Script":2702,"ele":2703,"gre":2704,"âĺ":2705,"late":2706,"1836":2707,"1793":2708,"ãĤª":2709,"Comic":2710,"Intel":2711,"KiHa":2712,"Muse":2713,"buntu":2714,"221":2715,"HBO":2716,"MT":2717,"Pin":2718,"ffe":2719,"mus":2720,"1833":2721,"1789":2722,"cent":2723,"Home":2724,"tics":2725,"River":2726,"https":2727,"Direct":2728,"Association":2729,"Galaxy":2730,"Bal":2731,"Dr":2732,"DAM":2733,"M4":2734,"QQ":2735,"ae":2736,"search":2737,"1835":2738,"151":2739,"ars":2740,"ãĤ¿":2741,"width":2742,"peri":2743,"tical":2744,"League":2745,"219":2746,"217":2747,"338":2748,"5.6":2749,"6.7":2750,"FT":2751,"JYP":2752,"Qui":2753,"Rai":2754,"SR":2755,"Ubuntu":2756,"WA":2757,"mg":2758,"ðĲ":2759,"ful":2760,"âĢ°":2761,"down":2762,"1804":2763,"ONE":2764,"CEO":2765,"470":2766,"740":2767,"830":2768,"Bui":2769,"fun":2770,"ssi":2771,"ving":2772,"ned":2773,"Martin":2774,"Bank":2775,"Henry":2776,"Mai":2777,"YG":2778,"ÏĤ":2779,"Ð´":2780,"âī":2781,"light":2782,"bor":2783,"mat":2784,"Master":2785,".81":2786,"Top":2787,"Champion":2788,"Dy":2789,"Ear":2790,"LINE":2791,"MW":2792,"Î½":2793,"mal":2794,"bel":2795,"ART":2796,"News":2797,"China":2798,"212":2799,"DK":2800,"Dou":2801,"Em":2802,"Sp":2803,"Ñĥ":2804,"unch":2805,"1828":2806,"0.7":2807,"core":2808,"ãĤ³":2809,"APAN":2810,"Hot":2811,"Part":2812,"Network":2813,"Gener":2814,"0%":2815,"FR":2816,"Flo":2817,"Long":2818,"dor":2819,"cil":2820,"191":2821,"rew":2822,"302":2823,"0.8":2824,"Young":2825,"95%":2826,"Billboard":2827,"Office":2828,"680":2829,"Ada":2830,"Epi":2831,"Fra":2832,"Gold":2833,"MHz":2834,"PI":2835,"Song":2836,"SNH":2837,"nm":2838,"plo":2839,"Î¹":2840,"table":2841,"ries":2842,"181":2843,"1624":2844,"237":2845,"ãĤĭ":2846,"Night":2847,"Note":2848,"Joseph":2849,"SNH48":2850,"4.9":2851,"FDA":2852,"JAPAN":2853,"PK":2854,"à¹":2855,"á¹":2856,"pur":2857,"1644":2858,"308":2859,"0.9":2860,"Code":2861,"COM":2862,"440":2863,"Cra":2864,"DB":2865,"GR":2866,"zz":2867,"list":2868,"tial":2869,"led":2870,"less":2871,"10000":2872,"1837":2873,"part":2874,"239":2875,"ston":2876,"1806":2877,"Sir":2878,"Radio":2879,"United":2880,"macOS":2881,"CV":2882,"U21":2883,"Vis":2884,"sing":2885,"Ã¢":2886,"Ã®":2887,"Î´":2888,"à¥":2889,"âĳ":2890,"def":2891,"sus":2892,"1819":2893,"299":2894,"3.9":2895,"346":2896,"Regi":2897,"HTML":2898,"780":2899,"East":2900,"cs":2901,"und":2902,"1825":2903,"245":2904,"236":2905,"505":2906,"279":2907,"ãģ«":2908,"Mari":2909,"540":2910,"7.8":2911,"EV":2912,"Gam":2913,"H5":2914,"Pal":2915,"muni":2916,"13.":2917,"rpm":2918,"325":2919,"7.9":2920,"Yo":2921,"tre":2922,"right":2923,"001":2924,"1776":2925,"ãģĺ":2926,"Child":2927,"NCAA":2928,"Server":2929,"Digital":2930,"FAT":2931,"Kong":2932,"tea":2933,"1818":2934,"pon":2935,"main":2936,"14.":2937,"para":2938,"265":2939,"ãģĵ":2940,"esta":2941,"Hello":2942,"GS":2943,"Lang":2944,"air":2945,"telli":2946,"1824":2947,"1831":2948,"2027":2949,"rey":2950,"Down":2951,"Dri":2952,"Ob":2953,"RPG":2954,"pho":2955,"spi":2956,"Ã§":2957,"Ã´":2958,"lio":2959,"sio":2960,"rick":2961,"lation":2962,"386":2963,"Mat":2964,"Service":2965,"âħ¡":2966,"Techno":2967,"51.":2968,"Ana":2969,"Ado":2970,"UM":2971,"non":2972,"rent":2973,"ges":2974,"temp":2975,"BSD":2976,"Python":2977,"1A":2978,"CW":2979,"Den":2980,"XML":2981,"Î»":2982,"sho":2983,"275":2984,"2700":2985,"Youtube":2986,"Edward":2987,"White":2988,"312":2989,"5G":2990,"730":2991,"Des":2992,"HL":2993,"OM":2994,"TBS":2995,"ena":2996,"has":2997,"med":2998,"264":2999,"295":3000,"1802":3001,"First":3002,"BLUE":3003,"burg":3004,"public":3005,"Institute":3006,"32.":3007,"630":3008,"Envi":3009,"Gro":3010,"TM":3011,"ori":3012,"yer":3013,"Ãº":3014,"Ãł":3015,"sual":3016,"1822":3017,"288":3018,"ãĤ¸":3019,"Poly":3020,"4.2":3021,"6.8":3022,"JT":3023,"Out":3024,"Sum":3025,"ÙĦ":3026,"mond":3027,"244":3028,"ãĥķ":3029,"vate":3030,"Tom":3031,"ITF":3032,"2D":3033,"6.9":3034,"OT":3035,"ise":3036,"var":3037,"xel":3038,"return":3039,"249":3040,"35%":3041,"903":3042,"ves":3043,"Cap":3044,"Square":3045,"6.6":3046,"Hong":3047,"PID":3048,"Series":3049,"This":3050,"Za":3051,"Ä«":3052,"Å¡":3053,"yal":3054,"tum":3055,"tual":3056,"243":3057,"2800":3058,"Rap":3059,"Cup":3060,"91.":3061,"Del":3062,"FX":3063,"Jen":3064,"Jump":3065,"NP":3066,"__":3067,"sch":3068,"sig":3069,"chuai":3070,"1810":3071,"15.":3072,"1622":3073,"1792":3074,"307":3075,"sts":3076,"701":3077,"SARS":3078,"Frank":3079,"POP":3080,"Grand":3081,"5.1":3082,"960":3083,"Kin":3084,"SHO":3085,"VV":3086,"sca":3087,"Îµ":3088,"dit":3089,"tur":3090,"1650":3091,"801":3092,"Pala":3093,"Chro":3094,"MIUI":3095,"Count":3096,"Tunes":3097,"2100":3098,"Cur":3099,"Hor":3100,"cci":3101,"Ð¼":3102,"1826":3103,"have":3104,"1573":3105,"story":3106,"Step":3107,"Under":3108,"747":3109,"Jour":3110,"yon":3111,"but":3112,"tems":3113,"1834":3114,"304":3115,"226":3116,"278":3117,"ãĥŁ":3118,"ãĤĤ":3119,"teri":3120,"375":3121,"1805":3122,"Die":3123,"ACT":3124,"APP":3125,"AIR":3126,"Auto":3127,"North":3128,"Bran":3129,"HA":3130,"Kan":3131,"cing":3132,"ice":3133,"pus":3134,"007":3135,"296":3136,"298":3137,"385":3138,"ATA":3139,"Block":3140,"335":3141,"590":3142,"9000":3143,"Bor":3144,"CU":3145,"Sports":3146,"WN":3147,"ml":3148,"rei":3149,"Ïī":3150,"âĭ":3151,"let":3152,"dings":3153,"12%":3154,"had":3155,"1780":3156,"13%":3157,"227":3158,"ãĥł":3159,"Your":3160,"IFA":3161,"315":3162,"63.":3163,"Les":3164,"Os":3165,"Pho":3166,"Rei":3167,"ii":3168,"iTunes":3169,"pH":3170,"Â»":3171,"gain":3172,"251":3173,"277":3174,"Real":3175,"ghts":3176,"CNN":3177,"2A":3178,"Op":3179,"Over":3180,"RFC":3181,"din":3182,"dition":3183,"zine":3184,"mad":3185,"map":3186,"more":3187,"18.":3188,"1582":3189,"1799":3190,"259":3191,"246":3192,"248":3193,"1809":3194,"Dani":3195,"Engine":3196,"530":3197,"C2":3198,"Cas":3199,"DLC":3200,"Ei":3201,"Â«":3202,"ere":3203,"1823":3204,"1621":3205,"272":3206,"405":3207,"ville":3208,"ATION":3209,"State":3210,"1803":3211,"Internet":3212,"EEE":3213,"value":3214,"press":3215,"334":3216,"620":3217,"770":3218,"Bou":3219,"Clo":3220,"Class":3221,"Gol":3222,"Hal":3223,"SG":3224,"Wat":3225,"app":3226,"bre":3227,"rch":3228,"1625":3229,"284":3230,"285":3231,"ino":3232,"lton":3233,"ãĤµ":3234,"Mit":3235,"cond":3236,"311":3237,"880":3238,"Cle":3239,"Sony":3240,"Ur":3241,"VI":3242,"vy":3243,"Ãī":3244,"á»":3245,"258":3246,"form":3247,"276":3248,"ãģĮ":3249,"Wii":3250,"Moon":3251,"Mobile":3252,"Bay":3253,"Gri":3254,"KO":3255,"Oper":3256,"Tru":3257,"XT":3258,"than":3259,"à¦":3260,"get":3261,"ork":3262,"253":3263,"357":3264,"ters":3265,"Maria":3266,"Ray":3267,"Publi":3268,"660":3269,"Bon":3270,"Cli":3271,"Im":3272,"NM":3273,"SV":3274,"UL":3275,"ee":3276,"ung":3277,"Ð¹":3278,"uel":3279,"ãĥĹ":3280,"STA":3281,"via":3282,"Alf":3283,"Dot":3284,"IPv":3285,"Nico":3286,"Unix":3287,"South":3288,"Ange":3289,"Book":3290,"Europe":3291,"570":3292,"Get":3293,"U19":3294,"WF":3295,"blo":3296,"hr":3297,"Ð³":3298,"1827":3299,"1570":3300,"ãģĤ":3301,"gazine":3302,"cks":3303,"sson":3304,"view":3305,"Pier":3306,"0.01":3307,"314":3308,"3DS":3309,"690":3310,"BBS":3311,"C6":3312,"DSM":3313,"IEEE":3314,"Mou":3315,"Mal":3316,"SB":3317,"WWE":3318,"trans":3319,"tas":3320,"1817":3321,"1640":3322,"1636":3323,"range":3324,"268":3325,"402":3326,"404":3327,"ãģ¯":3328,"Sound":3329,"which":3330,"4G":3331,"7.7":3332,"AX":3333,"TW":3334,"fy":3335,"fri":3336,"gal":3337,"dei":3338,"1775":3339,"254":3340,"465":3341,"ator":3342,"85%":3343,"323":3344,"7.0":3345,"Gal":3346,"HP":3347,"OP":3348,"Tre":3349,"dea":3350,"tina":3351,"lution":3352,"1750":3353,"309":3354,"vis":3355,"Now":3356,"329":3357,"670":3358,"6.1":3359,"8.1":3360,"Jon":3361,"Nu":3362,"Plus":3363,"shing":3364,"tude":3365,"1816":3366,"kar":3367,"poli":3368,"17.":3369,"zation":3370,"ãĥģ":3371,"ãĤ£":3372,"4500":3373,"field":3374,"CON":3375,"Beau":3376,"Poli":3377,"TOP":3378,"print":3379,"Cube":3380,".-":3381,"710":3382,"910":3383,"950":3384,"DI":3385,"Ham":3386,"MK":3387,"ap":3388,"other":3389,"laris":3390,"16%":3391,"loud":3392,"241":3393,"2300":3394,"cur":3395,"Medi":3396,"Film":3397,"ISBN":3398,"Way":3399,"tvN":3400,"326":3401,"Asia":3402,"Fin":3403,"Ly":3404,"T2":3405,"ctive":3406,"tti":3407,"à½":3408,"ence":3409,"char":3410,"1592":3411,"45%":3412,"347":3413,"758":3414,"Gil":3415,"ople":3416,"61.":3417,"Ara":3418,"DT":3419,"Tro":3420,"cti":3421,"even":3422,"mark":3423,"tural":3424,"10.5":3425,"12.5":3426,"sal":3427,"1628":3428,"1788":3429,"252":3430,"242":3431,"269":3432,"ãĥĭ":3433,"May":3434,"nald":3435,"fea":3436,"Tik":3437,"Channel":3438,"318":3439,"336":3440,"53.":3441,"9.5":3442,"978":3443,"CB":3444,"DL":3445,"Festi":3446,"MUS":3447,"N2":3448,"O3":3449,"Run":3450,"áĥ":3451,"hur":3452,"lam":3453,"1627":3454,"1783":3455,"1791":3456,"289":3457,"406":3458,"354":3459,"INN":3460,"Joy":3461,"Tok":3462,"Pixel":3463,"Disney":3464,"âĸ¡":3465,"velop":3466,"Vista":3467,"73.":3468,"90.":3469,"Acade":3470,"EL":3471,"F4":3472,"IB":3473,"LAN":3474,"LTE":3475,"Nan":3476,"PT":3477,"Wan":3478,"16.":3479,"1797":3480,"num":3481,"ï¼»":3482,"ï¼½":3483,"65%":3484,"556":3485,"Research":3486,"Beat":3487,"Cir":3488,"Girl":3489,"Louis":3490,"Software":3491,"DMS":3492,"Fre":3493,"OF":3494,"TH":3495,"ag":3496,"gis":3497,"tr":3498,"1779":3499,"1796":3500,"607":3501,"ãģ¤":3502,"ãģł":3503,"352":3504,"1808":3505,"cono":3506,"ERT":3507,"ference":3508,"km2":3509,"mple":3510,"Works":3511,"NCT":3512,"Alice":3513,"Christian":3514,"âĭ¯":3515,"321":3516,"337":3517,"4.3":3518,"A4":3519,"Cer":3520,"Cry":3521,"T3":3522,"dri":3523,"night":3524,"1829":3525,"sar":3526,"1778":3527,"1794":3528,"283":3529,"mega":3530,"273":3531,"ãĥ£":3532,"ãĥĲ":3533,"ãĤ¨":3534,"thing":3535,"cast":3536,"oom":3537,"ctro":3538,"Visual":3539,"Johan":3540,"ASC":3541,"YouTuber":3542,"Chine":3543,"Island":3544,"Battle":3545,"world":3546,"313":3547,"510":3548,"840":3549,"860":3550,"Il":3551,"Mnet":3552,"Rain":3553,"Sin":3554,"Ã±":3555,"Î¸":3556,"eni":3557,"1798":3558,"22%":3559,"ãģ¦":3560,"456":3561,"372":3562,"ECT":3563,"ctory":3564,"agement":3565,"Awards":3566,"system":3567,".00":3568,"448":3569,"870":3570,"ror":3571,"mit":3572,"18%":3573,"ress":3574,"read":3575,"1580":3576,"1612":3577,"1634":3578,"1787":3579,"281":3580,"267":3581,"ãĥĩ":3582,"fore":3583,"ãģ£":3584,"lost":3585,"ãĤ¦":3586,"vil":3587,"vern":3588,"Royal":3589,"Hill":3590,"web":3591,"mmy":3592,"Premi":3593,"Fore":3594,"Global":3595,"62.":3596,"911":3597,"DG":3598,"Dai":3599,"Foot":3600,"MF":3601,"TN":3602,"âĩ":3603,"like":3604,"rena":3605,"1567":3606,"1648":3607,"271":3608,"ltra":3609,"pedia":3610,"Mary":3611,"Arts":3612,"BOX":3613,"rain":3614,"Special":3615,"Science":3616,"Enviro":3617,"42.":3618,"52.":3619,"72.":3620,"AH":3621,"Der":3622,"E3":3623,"Hun":3624,"Let":3625,"MM":3626,"Wei":3627,"York":3628,"oi":3629,"sche":3630,"19.":3631,"pop":3632,"ret":3633,"262":3634,"367":3635,"cky":3636,"OSHI":3637,"gic":3638,"ACE":3639,"Kim":3640,"Compu":3641,"ENT":3642,"AGA":3643,"Great":3644,"Qua":3645,"-&":3646,"322":3647,"43.":3648,"Gor":3649,"MON":3650,"Oli":3651,"OTT":3652,"Sal":3653,"VB":3654,"fla":3655,"hus":3656,"size":3657,"tifi":3658,"nica":3659,"bon":3660,"posi":3661,"1550":3662,"1568":3663,"ord":3664,"1615":3665,"1630":3666,"14%":3667,"formation":3668,"286":3669,"arr":3670,"ãĥĸ":3671,"col":3672,"Magazine":3673,"Model":3674,"CH3":3675,"Brown":3676,"Amazon":3677,"Museum":3678,"Daniel":3679,"Festival":3680,"CAS":3681,"End":3682,"Fro":3683,"FBI":3684,"LG":3685,"O4":3686,"SIG":3687,"Tou":3688,"USA":3689,"dt":3690,"ole":3691,"plan":3692,"dent":3693,"lina":3694,"kes":3695,"ches":3696,"12.7":3697,"1645":3698,"1646":3699,"28%":3700,"ãĤŃ":3701,"333":3702,".95":3703,"andy":3704,"COLL":3705,"ARD":3706,"Secre":3707,"Communi":3708,"Encore":3709,"God":3710,"tures":3711,"Online":3712,"Taiwan":3713,"Queen":3714,"TikTok":3715,"MUSIC":3716,"9.8":3717,"9.7":3718,"Ah":3719,"Ami":3720,"Cat":3721,"Thun":3722,"cka":3723,"gg":3724,"Ø±":3725,"ani":3726,"1626":3727,"261":3728,"297":3729,"lth":3730,"355":3731,"49%":3732,"Anto":3733,"Dark":3734,"General":3735,"Chinese":3736,"328":3737,"820":3738,"Crea":3739,"Mur":3740,"PRO":3741,"S2":3742,"Son":3743,"over":3744,"pra":3745,"dal":3746,"1637":3747,"2400":3748,"705":3749,"901":3750,"364":3751,"384":3752,"378":3753,"33%":3754,"442":3755,"Memo":3756,"Wiki":3757,"gio":3758,"Point":3759,"VIDIA":3760,"618":3761,"70.":3762,"71.":3763,"AU":3764,"CBC":3765,"HB":3766,"NVIDIA":3767,"T48":3768,"Ð¡":3769,"Ñĭ":3770,"rine":3771,"ques":3772,"1610":3773,"1642":3774,"257":3775,"282":3776,"met":3777,"2600":3778,"Stadium":3779,"Sea":3780,"Capi":3781,"Base":3782,"1609":3783,"oney":3784,"llion":3785,"Redmi":3786,"Year":3787,"Talk":3788,"Adobe":3789,"5.4":3790,"760":3791,"767":3792,"CAN":3793,"Pet":3794,"Set":3795,"U17":3796,"VC":3797,"Won":3798,"Who":3799,"What":3800,"af":3801,"bps":3802,"lk":3803,"ÑĮ":3804,"deon":3805,"cio":3806,"tech":3807,"poration":3808,"1585":3809,"1583":3810,"say":3811,"13.5":3812,"ãĤĦ":3813,"Col":3814,"cas":3815,"583":3816,"wiki":3817,"1807":3818,"ARM":3819,"TeX":3820,"thern":3821,"Cyclo":3822,"Systems":3823,"Metro":3824,"930":3825,"Fal":3826,"FIFA":3827,"JU":3828,"KE":3829,"Lei":3830,"Mel":3831,"OD":3832,"Sche":3833,"ate":3834,"bs":3835,"house":3836,"11%":3837,"1623":3838,"274":3839,".04":3840,"Pay":3841,"Archi":3842,"Town":3843,"Niko":3844,"Geo":3845,"ï¹ĳ":3846,"H2O":3847,"Bru":3848,"Chang":3849,"Eye":3850,"EOS":3851,"FIN":3852,"IEC":3853,"Juni":3854,"pes":3855,"tium":3856,"11.5":3857,"1571":3858,"17%":3859,"1784":3860,"263":3861,"509":3862,"293":3863,"stein":3864,"dies":3865,"rough":3866,"351":3867,"dos":3868,"999":3869,"Deep":3870,"const":3871,"Neo":3872,"Union":3873,"stern":3874,"Key":3875,"rstea":3876,"plex":3877,"ounda":3878,".10":3879,"2200":3880,"428":3881,"5.2":3882,"AJ":3883,"Dun":3884,"GUN":3885,"pto":3886,"uts":3887,"wing":3888,"xx":3889,"cht":3890,"1620":3891,"1723":3892,"1786":3893,"504":3894,"ãĥ¥":3895,"353":3896,"vey":3897,"395":3898,"Mike":3899,"43%":3900,"Solaris":3901,"Stra":3902,"some":3903,"private":3904,"Philip":3905,"Cross":3906,"Journal":3907,"DotA":3908,"419":3909,"432":3910,"A3":3911,"Cloud":3912,"FN":3913,"GL":3914,"Has":3915,"SW":3916,"Åį":3917,"ìķ":3918,"ander":3919,"1450":3920,"ãģĻ":3921,"Mau":3922,"Little":3923,"cts":3924,"coun":3925,"Studios":3926,"427":3927,"4.1":3928,"Cine":3929,"FE":3930,"HIV":3931,"Ima":3932,"K6":3933,"Vin":3934,"VPN":3935,"ace":3936,"hoo":3937,"Äį":3938,"gel":3939,"zilla":3940,"1577":3941,"1618":3942,"1643":3943,"387":3944,"399":3945,"beth":3946,".82":3947,".83":3948,"Line":3949,"LOVE":3950,"Fleet":3951,"Technology":3952,"317":3953,"331":3954,"345":3955,"512":3956,"565":3957,"Aven":3958,"Bai":3959,"Cr":3960,"FI":3961,"H1":3962,"MY":3963,"R2":3964,"S1":3965,"U18":3966,"USS":3967,"Ultra":3968,"Ñı":3969,"live":3970,"mia":3971,"test":3972,"base":3973,"mol":3974,"hard":3975,"1586":3976,"1777":3977,"1453":3978,"21%":3979,"806":3980,"lot":3981,"CDMA":3982,"Stage":3983,"Radeon":3984,"ALL":3985,"Exp":3986,"Valve":3987,"Children":3988,"327":3989,"411":3990,"490":3991,"445":3992,"446":3993,"535":3994,"Ath":3995,"M87":3996,"Of":3997,"Ram":3998,"U23":3999,"Wol":4000,"where":4001,"Ãª":4002,"lic":4003,"city":4004,"mate":4005,"model":4006,"chie":4007,"sey":4008,"cell":4009,"1521":4010,"oro":4011,"1765":4012,"1774":4013,"ono":4014,"398":4015,"47%":4016,"499":4017,"Post":4018,"Multi":4019,"Tay":4020,"BMW":4021,"Centre":4022,"Academy":4023,"Junior":4024,"416":4025,"EMI":4026,"HTC":4027,"KB":4028,"Omega":4029,"kW":4030,"m3":4031,"pter":4032,"stu":4033,"Å«":4034,"dina":4035,"das":4036,"1616":4037,"26%":4038,"nus":4039,"707":4040,"369":4041,"397":4042,"Pass":4043,"States":4044,"Wire":4045,"Joe":4046,"tiona":4047,"Fede":4048,"GPU":4049,"bility":4050,"Dyna":4051,"613":4052,"6.4":4053,"Gun":4054,"NR":4055,"WO":4056,"WOR":4057,"ZA":4058,"nor":4059,"Î·":4060,"ÎĶ":4061,"ÐĲ":4062,"dard":4063,"rana":4064,"gani":4065,"1564":4066,"1785":4067,"22.":4068,"cul":4069,"368":4070,".08":4071,"67%":4072,"TVBS":4073,"Demo":4074,"Market":4075,"Bio":4076,"Link":4077,"MySQL":4078,"mission":4079,"3C":4080,"810":4081,"BT":4082,"Jr":4083,"Kh":4084,"Lar":4085,"Sara":4086,"WI":4087,"brea":4088,"eu":4089,"gni":4090,"io":4091,"jor":4092,"ÐĶ":4093,"head":4094,"cin":4095,"cifi":4096,"bas":4097,"1662":4098,"include":4099,"266":4100,"291":4101,"588":4102,"Distri":4103,"Next":4104,"Beta":4105,"void":4106,"MOD":4107,"Corporation":4108,"M1A1":4109,"GUNDAM":4110,"316":4111,"537":4112,"621":4113,"742":4114,"CI":4115,"E48":4116,"Eric":4117,"ND":4118,"TI":4119,"cted":4120,"hl":4121,"il":4122,"open":4123,"Ã«":4124,"ÙĨ":4125,"qua":4126,"point":4127,"1540":4128,"1574":4129,"1772":4130,"24.":4131,"287":4132,"605":4133,"454":4134,"388":4135,"343":4136,"bes":4137,".86":4138,"888":4139,"Law":4140,"Sub":4141,"0.02":4142,"Management":4143,"Fried":4144,"Alexander":4145,"425":4146,"475":4147,"9.9":4148,"9.6":4149,"MX":4150,"Other":4151,"Sui":4152,"Sar":4153,"flo":4154,"ob":4155,"tine":4156,"19%":4157,"lant":4158,"1250":4159,"1619":4160,"1629":4161,"1683":4162,"27%":4163,"29%":4164,"292":4165,"ros":4166,"363":4167,"376":4168,"STS":4169,"552":4170,"686":4171,"Miss":4172,"Lady":4173,"Final":4174,"add":4175,"Arc":4176,"How":4177,"Augu":4178,"were":4179,"Draw":4180,"Scott":4181,"London":4182,"Cyclol":4183,"627":4184,"BRT":4185,"Dol":4186,"FL":4187,"Tar":4188,"ht":4189,"Ð±":4190,"nico":4191,"14.5":4192,"24%":4193,"ï¼Ĥ":4194,"std":4195,"31%":4196,"tos":4197,"488":4198,"Mas":4199,".84":4200,".88":4201,"99%":4202,"Pas":4203,"fini":4204,"Spot":4205,"ðĲŃ":4206,"Spring":4207,"449":4208,"5A":4209,"625":4210,"738":4211,"81.":4212,"83.":4213,"Cul":4214,"Fron":4215,"HER":4216,"Land":4217,"PB":4218,"Rue":4219,"Sc":4220,"Tony":4221,"VER":4222,"Wing":4223,"ea":4224,"pper":4225,"sky":4226,"tran":4227,"Ðļ":4228,"ana":4229,"rina":4230,"put":4231,"shared":4232,"1590":4233,"1579":4234,"1633":4235,"ãĥĬ":4236,"fox":4237,"log":4238,"ãĤ°":4239,"32%":4240,"Light":4241,"Rose":4242,"1507":4243,"Design":4244,"Lake":4245,"CH2":4246,"Animax":4247,"Earth":4248,"412":4249,"8.7":4250,"LF":4251,"LR":4252,"Smo":4253,"Sca":4254,"SON":4255,"V8":4256,"Ð¿":4257,"íķ":4258,"ens":4259,"mix":4260,"body":4261,"launch":4262,"1631":4263,"1680":4264,"1773":4265,"21.":4266,"294":4267,"407":4268,"cum":4269,"ãĤĮ":4270,"396":4271,"3300":4272,"42%":4273,"Leo":4274,"Family":4275,"1604":4276,"Hami":4277,"Ander":4278,"Party":4279,"PGA":4280,"Drive":4281,"41.":4282,"7.1":4283,"82.":4284,"8.6":4285,"980":4286,"Are":4287,"C4":4288,"Fold":4289,"GC":4290,"Hon":4291,"Kat":4292,"LM":4293,"ada":4294,"cla":4295,"ir":4296,"ini":4297,"yl":4298,"Äĩ":4299,"ÉĻ":4300,"ked":4301,"rial":4302,"rius":4303,"1575":4304,"1697":4305,"1755":4306,"1492":4307,"805":4308,"3600":4309,"Mad":4310,"467":4311,"471":4312,"Theo":4313,"Simon":4314,"Secu":4315,"ppy":4316,"mics":4317,"Advan":4318,"ï¹Ĳ":4319,"SKE48":4320,"Round":4321,"Summer":4322,"Thunder":4323,"0x":4324,"319":4325,"Hei":4326,"J2":4327,"Sti":4328,"Swe":4329,"Thi":4330,"XC":4331,"bio":4332,"matic":4333,"1561":4334,"1589":4335,"1595":4336,"1781":4337,"1465":4338,"508":4339,"stre":4340,"ãĥĨ":4341,"ãģ²":4342,"344":4343,".85":4344,"44%":4345,".99":4346,"589":4347,"1603":4348,"1606":4349,"1607":4350,"kov":4351,"CNBLUE":4352,"Ruby":4353,"Epic":4354,"velopment":4355,"415":4356,"855":4357,"940":4358,"970":4359,"Ir":4360,"Lun":4361,"uage":4362,"x86":4363,"Ã¸":4364,"Ãħ":4365,"ÃŁ":4366,"à®":4367,"mani":4368,"1522":4369,"1526":4370,"1556":4371,"1613":4372,"1660":4373,"502":4374,"506":4375,"ãĥĢ":4376,"377":4377,"478":4378,"554":4379,".07":4380,"Miche":4381,"Vita":4382,"mercial":4383,"Tim":4384,"TOUR":4385,"Williams":4386,"cations":4387,"Hyper":4388,"ountain":4389,"Brian":4390,"ìĿ´":4391,"âĺĨ":4392,"Angela":4393,"Football":4394,"417":4395,"525":4396,"7.4":4397,"920":4398,"925":4399,"LU":4400,"Moo":4401,"Pon":4402,"UK":4403,"URI":4404,"Wel":4405,"card":4406,"lding":4407,"who":4408,"zzo":4409,"Ùħ":4410,"mir":4411,"nio":4412,"baby":4413,"ched":4414,"sure":4415,"second":4416,"1525":4417,"1591":4418,"1667":4419,".55":4420,"408":4421,"485":4422,"46%":4423,"64%":4424,"643":4425,"AMO":4426,"Fiesta":4427,"Back":4428,"tten":4429,"Steve":4430,"DOHC":4431,"Mont":4432,"Port":4433,"After":4434,"324":4435,"422":4436,"515":4437,"538":4438,"534":4439,"Founda":4440,"Gao":4441,"QS":4442,"Rang":4443,"S4":4444,"Shan":4445,"Syn":4446,"VT":4447,"ah":4448,"mRNA":4449,"xe":4450,"zza":4451,"Äĵ":4452,"âĤ":4453,"1510":4454,"1638":4455,"1730":4456,"only":4457,"pal":4458,"media":4459,"ãĥĳ":4460,"342":4461,"393":4462,"479":4463,".02":4464,".06":4465,"1508":4466,"Villa":4467,"Mozilla":4468,"Last":4469,"HKT48":4470,"Water":4471,"Walter":4472,"volution":4473,"America":4474,"Surface":4475,"Church":4476,"7.62":4477,".25":4478,"3200":4479,"531":4480,"546":4481,"7.2":4482,"Camp":4483,"Clas":4484,"EG":4485,"GHz":4486,"ITV":4487,"Jer":4488,"Mei":4489,"MBA":4490,"TG":4491,"Too":4492,"VS":4493,"bles":4494,"iPS":4495,"phe":4496,"ud":4497,"lish":4498,"mont":4499,"tana":4500,"2028":4501,"1543":4502,"1457":4503,".52":4504,"366":4505,"381":4506,"392":4507,"vie":4508,".78":4509,"History":4510,"Jeff":4511,"place":4512,".12":4513,"1st":4514,"413":4515,"426":4516,"6.3":4517,"Edu":4518,"F3":4519,"GPS":4520,"Kha":4521,"LZ":4522,"NI":4523,"Rus":4524,"Sor":4525,"Than":4526,"U20":4527,"Wnt":4528,"fb":4529,"ÙĬ":4530,"left":4531,"gent":4532,"1565":4533,"1559":4534,"1587":4535,"1597":4536,"âĢł":4537,"1635":4538,"1688":4539,"1733":4540,"1782":4541,"stry":4542,"rat":4543,".53":4544,"606":4545,"ald":4546,"come":4547,"ãģĳ":4548,"373":4549,"Indu":4550,"ella":4551,"Will":4552,"Albert":4553,"Times":4554,"Austra":4555,"Johnson":4556,"tory":4557,"score":4558,"Jane":4559,"Council":4560,".11":4561,"524":4562,"612":4563,"6.2":4564,"890":4565,"By":4566,"FS":4567,"Jim":4568,"MR":4569,"Sol":4570,"Tran":4571,"UD":4572,"its":4573,"llow":4574,"Â£":4575,"ÐŁ":4576,"Ñĩ":4577,"tex":4578,"lva":4579,"1588":4580,"1598":4581,"507":4582,"also":4583,"34%":4584,"Cos":4585,"641":4586,"Rep":4587,"495":4588,"68%":4589,"682":4590,".97":4591,".69":4592,"666":4593,"ample":4594,"Common":4595,"0.05":4596,"CLA":4597,"scope":4598,"Place":4599,"Telegram":4600,"Pierre":4601,"Foundation":4602,"332":4603,"4A":4604,"4K":4605,"435":4606,"575":4607,"790":4608,"Astro":4609,"Bad":4610,"TMA":4611,"ese":4612,"ola":4613,"ans":4614,"endo":4615,"lity":4616,"bird":4617,"tish":4618,"tica":4619,"nar":4620,"1523":4621,"1535":4622,"1649":4623,"1661":4624,"1770":4625,"1499":4626,"23%":4627,"number":4628,"ram":4629,"0.25":4630,"ãĤ¬":4631,"ãĤı":4632,"361":4633,"466":4634,"391":4635,"....":4636,"vices":4637,"551":4638,".01":4639,"final":4640,"Moder":4641,"Pod":4642,"1601":4643,"PCI":4644,"ality":4645,"TOK":4646,"Francis":4647,"AcFun":4648,"trol":4649,"Flash":4650,"worth":4651,"craft":4652,"Wonder":4653,"528":4654,"5500":4655,"990":4656,"Ant":4657,"Bang":4658,"HTT":4659,"gne":4660,"mitte":4661,"master":4662,"mental":4663,"12.8":4664,"word":4665,"1511":4666,"1760":4667,"1769":4668,"indu":4669,"sour":4670,"358":4671,"36%":4672,"371":4673,"469":4674,"ellow":4675,"684":4676,"587":4677,"Dia":4678,"Story":4679,"94.":4680,"ppm":4681,"SMAP":4682,"0.03":4683,"Andrew":4684,"tribu":4685,"Edge":4686,"active":4687,"Golden":4688,"Explor":4689,"548":4690,"AW":4691,"Kai":4692,"Lui":4693,"Loo":4694,"MAC":4695,"ext":4696,"oni":4697,"sma":4698,"then":4699,"eil":4700,"chy":4701,"20000":4702,"1080":4703,"15000":4704,"1576":4705,"1594":4706,"1689":4707,"362":4708,"383":4709,"llen":4710,"TCP":4711,"341":4712,"Mis":4713,"41%":4714,"NASL":4715,"98%":4716,"Program":4717,"kia":4718,"Seven":4719,"count":4720,"Soul":4721,"Bridge":4722,"Angel":4723,"kins":4724,"Matthe":4725,"European":4726,"80.":4727,"921":4728,"Bun":4729,"L1":4730,"MMC":4731,"NEX":4732,"RB":4733,"Tas":4734,"UFO":4735,"VF":4736,"ef":4737,"zar":4738,"ðª":4739,"20.":4740,"rit":4741,"lius":4742,"tour":4743,"cep":4744,"1811":4745,"1517":4746,"1514":4747,"1578":4748,"1552":4749,"âĢķ":4750,"1639":4751,"1684":4752,".51":4753,"608":4754,"cos":4755,"top":4756,"38%":4757,"349":4758,"644":4759,"557":4760,".05":4761,".76":4762,".79":4763,".92":4764,"585":4765,"597":4766,"Some":4767,"Not":4768,"gins":4769,"thers":4770,"Dance":4771,"Eliza":4772,"Gamer":4773,"template":4774,"Stephen":4775,"Taylor":4776,"348":4777,"436":4778,"549":4779,"8.2":4780,"AST":4781,"Bet":4782,"Cre":4783,"DNS":4784,"Fred":4785,"Lam":4786,"RN":4787,"Spa":4788,"TF":4789,"bla":4790,"ic":4791,"sit":4792,"poly":4793,"1763":4794,"1350":4795,"inte":4796,"ï¼ĭ":4797,"403":4798,"908":4799,"Marie":4800,"dore":4801,"6500":4802,"Roman":4803,"1505":4804,"Mega":4805,"View":4806,"777":4807,"Gaga":4808,"Test":4809,"kie":4810,"Cast":4811,"Conne":4812,"MG42":4813,"Christop":4814,"yond":4815,"vernment":4816,"547":4817,"567":4818,"668":4819,"Apo":4820,"C5":4821,"Fai":4822,"FAN":4823,"Jus":4824,"Kon":4825,"NK":4826,"T4":4827,"YOSHI":4828,"fis":4829,"pel":4830,"ppe":4831,"Â³":4832,"Ñĸ":4833,"tec":4834,"nas":4835,"1050":4836,"sel":4837,"tant":4838,"pos":4839,"1614":4840,"1720":4841,"27.":4842,"1.25":4843,"374":4844,"CoV":4845,"494":4846,".03":4847,".73":4848,"verse":4849,"lyn":4850,"Never":4851,"Arti":4852,"IDE":4853,"Hit":4854,"Kit":4855,"IPS":4856,"PSP":4857,"People":4858,"UNIX":4859,"Santa":4860,"Just":4861,"âħł":4862,"Phil":4863,"Frame":4864,"IPv4":4865,"Explorer":4866,"4.4":4867,"514":4868,"522":4869,"545":4870,"568":4871,"5.3":4872,"619":4873,"675":4874,"Blu":4875,"CSS":4876,"D1":4877,"EBU":4878,"Jor":4879,"KT":4880,"Mountain":4881,"bn":4882,"une":4883,"sie":4884,"siness":4885,"lau":4886,"sea":4887,"1516":4888,"1513":4889,"1534":4890,"1547":4891,"1569":4892,"16V":4893,"1460":4894,"26.":4895,"stone":4896,"cula":4897,"ãģ§":4898,"359":4899,"tera":4900,"757":4901,"642":4902,".89":4903,".93":4904,"581":4905,"1502":4906,"51%":4907,"ctions":4908,"Raw":4909,"Solo":4910,"GeForce":4911,"à¸£":4912,"SOHC":4913,"Phy":4914,"Sunday":4915,"Arthur":4916,"Karl":4917,"COLLAR":4918,"mittee":4919,"418":4920,"414":4921,"424":4922,"433":4923,"544":4924,"Alan":4925,"CJ":4926,"DTS":4927,"F2":4928,"Inv":4929,"JO":4930,"MMO":4931,"PEN":4932,"Two":4933,"True":4934,"XIV":4935,"rian":4936,"wy":4937,"ÐĴ":4938,"ering":4939,"sive":4940,"cine":4941,"lands":4942,"mand":4943,"1731":4944,"1768":4945,"1771":4946,"1490":4947,"heir":4948,"news":4949,"409":4950,"ãĥı":4951,"604":4952,"802":4953,"ãĤ±":4954,"ãĤĩ":4955,"ãĤį":4956,"389":4957,"7500":4958,"394":4959,"been":4960,"476":4961,".87":4962,"493":4963,".74":4964,".66":4965,"Mod":4966,"usta":4967,"Bell":4968,"ERO":4969,"Box":4970,"Hip":4971,"Rift":4972,"Work":4973,"AGE":4974,"Prime":4975,"presen":4976,"FOX":4977,"sort":4978,"while":4979,"JTBC":4980,"âĩĶ":4981,"Cinema":4982,"Avenue":4983,"431":4984,"539":4985,"745":4986,"Ari":4987,"ABS":4988,"Bre":4989,"Dro":4990,"EO":4991,"Ever":4992,"Ita":4993,"Ker":4994,"Lord":4995,"Oh":4996,"V6":4997,"jq":4998,"sk":4999,"ska":5000,"Ä±":5001,"lica":5002,"bow":5003,"mos":5004,"1593":5005,"1724":5006,"1752":5007,"1469":5008,"1498":5009,"1370":5010,"rows":5011,"ãģĪ":5012,"48%":5013,"gate":5014,"382":5015,"755":5016,"464":5017,"444":5018,"571":5019,"1501":5020,"Victor":5021,"Development":5022,"Mode":5023,"nova":5024,"ginal":5025,"Name":5026,"Kids":5027,"PS3":5028,"prot":5029,"Express":5030,"Court":5031,"British":5032,"Dragon":5033,"AGASA":5034,"Friedrich":5035,"646":5036,"667":5037,"Ash":5038,"Alt":5039,"CIA":5040,"D2":5041,"GW":5042,"Hard":5043,"IRT":5044,"Kei":5045,"M6":5046,"XF":5047,"ZJ":5048,"apo":5049,"bour":5050,"cz":5051,"cca":5052,"est":5053,"free":5054,"dex":5055,"ould":5056,"tify":5057,"shed":5058,"mine":5059,"nament":5060,"1520":5061,"1560":5062,"1553":5063,"1651":5064,"1740":5065,"1493":5066,"23.":5067,"602":5068,"904":5069,"town":5070,"cking":5071,"Intelli":5072,"Rea":5073,"496":5074,"498":5075,"443":5076,".72":5077,".96":5078,".62":5079,"Via":5080,"With":5081,"user":5082,"Boys":5083,"Fami":5084,"MAN":5085,"Hotel":5086,"Donald":5087,"Anna":5088,"UNG":5089,"AGUE":5090,"LEAGUE":5091,"quid":5092,"Firefox":5093,"Doug":5094,"à¥į":5095,"Athlon":5096,"611":5097,"645":5098,"945":5099,"Apa":5100,"Again":5101,"C1":5102,"CBA":5103,"DEC":5104,"Ea":5105,"Nat":5106,"Old":5107,"QU":5108,"Tel":5109,"TAM":5110,"U2":5111,"two":5112,"ute":5113,"wis":5114,"xa":5115,"Ã¥":5116,"áº":5117,"ais":5118,"ergy":5119,"bia":5120,"change":5121,"made":5122,"1596":5123,"1632":5124,"1679":5125,"1718":5126,"1735":5127,"1745":5128,"1758":5129,"25G":5130,"ï¼Ŀ":5131,"lty":5132,"culus":5133,"ãĥ¡":5134,"907":5135,"ãĤģ":5136,"ãĤĨ":5137,"Machi":5138,"584":5139,"1506":5140,"Dear":5141,"Wild":5142,"Side":5143,"Neu":5144,"Baby":5145,"1605":5146,"Week":5147,"nvest":5148,"produ":5149,"REAM":5150,"Electro":5151,"Standard":5152,"Central":5153,"Health":5154,"Adam":5155,"sional":5156,"Christopher":5157,"YOSHIKI":5158,"050":5159,"439":5160,"533":5161,"731":5162,"732":5163,"741":5164,"762":5165,"962":5166,"Cree":5167,"Dal":5168,"Eve":5169,"Gin":5170,"H3":5171,"ICD":5172,"NU":5173,"Num":5174,"RCP":5175,"Shu":5176,"Sand":5177,"TL":5178,"Tha":5179,"UCLA":5180,"Wood":5181,"ay":5182,"jan":5183,"Ïħ":5184,"âĻ":5185,"ert":5186,"tice":5187,"zed":5188,"1260":5189,"1566":5190,"16.5":5191,"1725":5192,"1748":5193,"ãĥĦ":5194,"0.10":5195,"706":5196,"ãĤĪ":5197,"ãĤĴ":5198,"457":5199,"379":5200,"door":5201,"756":5202,"case":5203,"Info":5204,"ssor":5205,"553":5206,"673":5207,"List":5208,"Liber":5209,"574":5210,"576":5211,"Vision":5212,"985":5213,"gia":5214,"Bir":5215,"973":5216,"prise":5217,"Jackson":5218,"AlphaFold":5219,"Mitche":5220,"Capital":5221,"Fleetline":5222,"Angelababy":5223,"Matthew":5224,"516":5225,"617":5226,"639":5227,"722":5228,"735":5229,"DU":5230,"Econo":5231,"HMS":5232,"P2":5233,"Sty":5234,"cter":5235,"eb":5236,"glo":5237,"np":5238,"á¸":5239,"2050":5240,"cel":5241,"1528":5242,"1572":5243,"1652":5244,"1727":5245,"1761":5246,"1368":5247,"ras":5248,".59":5249,"ãĥ¯":5250,"ãĥİ":5251,"als":5252,"356":5253,"704":5254,"482":5255,"37%":5256,"655":5257,"55.":5258,"brary":5259,".98":5260,"Robin":5261,"ARE":5262,"Fish":5263,"Tower":5264,"state":5265,"Committee":5266,"Pie":5267,"mpson":5268,"BLE":5269,"Harry":5270,"Press":5271,"Mind":5272,"Jones":5273,"Anderson":5274,"Gaon":5275,"Elizabeth":5276,"447":5277,"863":5278,"926":5279,"961":5280,"Cru":5281,"Juan":5282,"LX":5283,"RATP":5284,"Sel":5285,"Sport":5286,"Twin":5287,"VP":5288,"WW":5289,"crea":5290,"gor":5291,"ners":5292,"vor":5293,"wel":5294,"zing":5295,"defea":5296,"lad":5297,"lade":5298,"mod":5299,"1531":5300,"1538":5301,"1647":5302,"1681":5303,"into":5304,"803":5305,"they":5306,"708":5307,"ãĤĥ":5308,"452":5309,"453":5310,"Colspan":5311,"bed":5312,"651":5313,".09":5314,"586":5315,"572":5316,"1504":5317,"Leon":5318,"Beyond":5319,"EDG":5320,"APG":5321,"Basic":5322,"ICA":5323,"fessor":5324,"1701":5325,"alis":5326,"HOME":5327,"Disco":5328,"ccff":5329,"ccccff":5330,"English":5331,"Patrick":5332,"Garden":5333,"Women":5334,"frame":5335,"FINAL":5336,"3M":5337,"438":5338,"511":5339,"933":5340,"ILE":5341,"Jam":5342,"Swi":5343,"Sour":5344,"SNC":5345,"cta":5346,"Î©":5347,"Ð·":5348,"Øª":5349,"ìļ":5350,"shop":5351,"lit":5352,"xus":5353,"sum":5354,"link":5355,"1530":5356,"1537":5357,"1736":5358,"ï¼Ĩ":5359,"603":5360,"808":5361,"Color":5362,"461":5363,"468":5364,"vity":5365,"681":5366,"kit":5367,"ONG":5368,"1709":5369,"Carl":5370,"Kevin":5371,"Southern":5372,"GameSpot":5373,"Twitch":5374,"Abdu":5375,"JavaScript":5376,"DirectX":5377,"Modern":5378,"3G":5379,"541":5380,"629":5381,"648":5382,"725":5383,"CAR":5384,"ELE":5385,"Main":5386,"NN":5387,"NPC":5388,"P4":5389,"Rh":5390,"URE":5391,"ami":5392,"gran":5393,"mbo":5394,"ovan":5395,"vat":5396,"Ñħ":5397,"xis":5398,"dire":5399,"ery":5400,"team":5401,"sul":5402,"super":5403,"redo":5404,"1519":5405,"1529":5406,"1555":5407,"1687":5408,"1728":5409,"mel":5410,"meter":5411,".56":5412,"ãĥĿ":5413,"loca":5414,"905":5415,"484":5416,"Maker":5417,"before":5418,"653":5419,"55%":5420,"559":5421,"491":5422,".94":5423,"679":5424,".63":5425,"Roy":5426,"fish":5427,"796":5428,"OSS":5429,"Silver":5430,"tton":5431,"Sau":5432,"MAD":5433,"Concer":5434,"ckett":5435,"URL":5436,"AOA":5437,"Yahoo":5438,"Spotify":5439,"ctures":5440,"Prince":5441,"ASCII":5442,"OmegaT":5443,"Framework":5444,"protein":5445,"Mitchell":5446,"423":5447,"536":5448,"632":5449,"715":5450,"825":5451,"833":5452,"Aus":5453,"Area":5454,"B3":5455,"Brea":5456,"CAL":5457,"D9":5458,"Flow":5459,"GRO":5460,"Jes":5461,"K2":5462,"Money":5463,"Mbps":5464,"Nar":5465,"RDS":5466,"That":5467,"df":5468,"pl":5469,"lib":5470,"lim":5471,"sible":5472,"sical":5473,"2035":5474,"rium":5475,"seu":5476,"1120":5477,"wart":5478,"1767":5479,"50.":5480,".57":5481,"love":5482,"473":5483,"49.":5484,"492":5485,".61":5486,"661":5487,"562":5488,"Viole":5489,"Debian":5490,"Dead":5491,"aso":5492,"Bird":5493,"PS2":5494,"Anne":5495,"Eddie":5496,"Hero":5497,"TRA":5498,"Zico":5499,"signed":5500,"Chrome":5501,"Countdown":5502,"Operation":5503,"Secret":5504,"TOKYO":5505,"Violetta":5506,"339":5507,"429":5508,"532":5509,"665":5510,"775":5511,"769":5512,"Band":5513,"D5":5514,"Fon":5515,"JI":5516,"Off":5517,"R1":5518,"RF":5519,"Ring":5520,"Ron":5521,"SNS":5522,"Tol":5523,"Yan":5524,"gma":5525,"Õ¡":5526,"della":5527,"ound":5528,"tier":5529,"bat":5530,"mentary":5531,"such":5532,"lvin":5533,"see":5534,"1220":5535,"1545":5536,"1664":5537,"1659":5538,"1719":5539,"1495":5540,"1496":5541,"1388":5542,"stor":5543,".58":5544,"702":5545,"703":5546,"dow":5547,"STATION":5548,"vir":5549,"him":5550,"689":5551,".91":5552,"Mil":5553,"Mix":5554,"Like":5555,"692":5556,"798":5557,"Jaco":5558,"Fil":5559,"74%":5560,"ERS":5561,"stal":5562,"Stor":5563,"AND":5564,"Anti":5565,"Anth":5566,"SM.81":5567,"graphy":5568,"Steven":5569,"Feli":5570,"IFF":5571,"Henri":5572,"Rail":5573,"cific":5574,"Classic":5575,"010":5576,"434":5577,"636":5578,"729":5579,"761":5580,"878":5581,"Action":5582,"Bus":5583,"E1":5584,"Eri":5585,"E231":5586,"GEN":5587,"Hand":5588,"Iso":5589,"Kur":5590,"L2":5591,"Len":5592,"Mang":5593,"Mus":5594,"PAGASA":5595,"RK":5596,"ZERO":5597,"bble":5598,"ois":5599,"pres":5600,"Ðĳ":5601,"Ðľ":5602,"ÑĨ":5603,"ìĹ":5604,"shion":5605,"iana":5606,"rite":5607,"lair":5608,"sell":5609,"gene":5610,"1546":5611,"1549":5612,"1562":5613,"1670":5614,"1690":5615,"1654":5616,"1653":5617,"1694":5618,"1759":5619,"1466":5620,"artic":5621,"ãĥ¢":5622,"807":5623,"709":5624,"458":5625,"game":5626,"463":5627,"555":5628,"high":5629,"596":5630,"662":5631,"Paris":5632,"gie":5633,"constru":5634,"See":5635,"Stri":5636,"Happy":5637,"Chal":5638,"Interactive":5639,"Johnny":5640,"flight":5641,"Voice":5642,"Guard":5643,"Fox":5644,"Kenne":5645,"FAST":5646,"Build":5647,"HTTP":5648,".39":5649,"12000":5650,"527":5651,"638":5652,"669":5653,"712":5654,"711":5655,"9.4":5656,"BP":5657,"DREAM":5658,"Hein":5659,"Ing":5660,"IMAX":5661,"K11":5662,"LV":5663,"M5":5664,"NCC":5665,"RSA":5666,"Zen":5667,"kon":5668,"ov":5669,"oli":5670,"pet":5671,"Î¬":5672,"dica":5673,"rish":5674,"lee":5675,"last":5676,"sung":5677,"cept":5678,"won":5679,"1558":5680,"1581":5681,"1738":5682,"1474":5683,"1375":5684,"pass":5685,"STAT":5686,"477":5687,"Inte":5688,"There":5689,"68000":5690,"ATE":5691,"595":5692,"598":5693,"599":5694,"578":5695,"Stars":5696,"More":5697,"Galant":5698,"stars":5699,"1608":5700,"Chart":5701,"EPA":5702,"program":5703,"dence":5704,"0.5%":5705,"auto":5706,"EXILE":5707,"GPL":5708,"Samuel":5709,"NMB48":5710,"521":5711,"628":5712,"622":5713,"721":5714,"867":5715,"877":5716,"8.3":5717,"965":5718,"BY":5719,"F5":5720,"Gon":5721,"Jet":5722,"OST":5723,"RX":5724,"Sr":5725,"Schi":5726,"SUP":5727,"VEN":5728,"WP":5729,"ZZ":5730,"ath":5731,"ez":5732,"fin":5733,"fes":5734,"depen":5735,"ril":5736,"lem":5737,"shell":5738,"bora":5739,"lati":5740,"1280":5741,"âĢ³":5742,"1665":5743,"1732":5744,"1744":5745,"1756":5746,"1489":5747,"1487":5748,"1340":5749,"29.":5750,"000rpm":5751,"cular":5752,"ãĥĵ":5753,"906":5754,"ãĤº":5755,"451":5756,".71":5757,"997":5758,"wski":5759,"gina":5760,"Proto":5761,"Jac":5762,"Stru":5763,"Player":5764,"Business":5765,"Chill":5766,"ckets":5767,"prin":5768,"Anime":5769,"Wilson":5770,"SHOW":5771,"Mount":5772,"Forever":5773,"Security":5774,"Source":5775,"2nd":5776,"519":5777,"517":5778,"624":5779,"623":5780,"835":5781,"876":5782,"938":5783,"954":5784,"951":5785,"Ap":5786,"B9":5787,"CAP":5788,"D3":5789,"EU":5790,"Fw":5791,"Fly":5792,"GDDR":5793,"IMD":5794,"LCD":5795,"Ner":5796,"NIC":5797,"Qt":5798,"Ryan":5799,"YF":5800,"hin":5801,"sse":5802,"vas":5803,"would":5804,"yd":5805,"Ðĺ":5806,"ð¤":5807,"life":5808,"dine":5809,"far":5810,"leu":5811,"year":5812,"mum":5813,"tura":5814,"mode":5815,"seed":5816,"mail":5817,"1524":5818,"1532":5819,"1584":5820,"1658":5821,"1657":5822,"1699":5823,"1762":5824,"1337":5825,"ï¼ŀ":5826,".54":5827,"tero":5828,"472":5829,"474":5830,"649":5831,"497":5832,"687":5833,"688":5834,"698":5835,"Rober":5836,"579":5837,"88%":5838,"784":5839,"Jona":5840,"Dave":5841,"72%":5842,"Bike":5843,"Holly":5844,"1406":5845,"Carlos":5846,"DSP":5847,"à¤¾":5848,"SHIN":5849,"Clau":5850,"Smack":5851,"âĺħ":5852,"Public":5853,"Computer":5854,"MONSTA":5855,"Touch":5856,"html":5857,"Smosh":5858,"Apache":5859,"054":5860,"616":5861,"719":5862,"865":5863,"946":5864,"988":5865,"DH":5866,"G1":5867,"H4":5868,"H10":5869,"Ky":5870,"Pha":5871,"S3":5872,"Sb":5873,"WHO":5874,"XG":5875,"Zo":5876,"bb":5877,"eg":5878,"used":5879,"Ã¦":5880,"ÏĨ":5881,"micro":5882,"cid":5883,"law":5884,"sana":5885,"11.2":5886,"power":5887,"rel":5888,"ways":5889,"sage":5890,"1668":5891,"1739":5892,"1764":5893,"format":5894,"28.":5895,"follow":5896,"dox":5897,"Res":5898,"30000":5899,"Library":5900,"will":5901,"787":5902,"File":5903,"Albu":5904,"PSV":5905,"Take":5906,"1702":5907,"Human":5908,"LLVM":5909,"trie":5910,"Mercu":5911,"Sense":5912,"rowspan":5913,"SmackDown":5914,"052":5915,"421":5916,"437":5917,"614":5918,"626":5919,"637":5920,"815":5921,"816":5922,"975":5923,"Bin":5924,"Echo":5925,"GF":5926,"If":5927,"Ice":5928,"JP":5929,"Mes":5930,"YA":5931,"ZO":5932,"cli":5933,"dley":5934,"kha":5935,"Ðł":5936,"ë°":5937,"ene":5938,"bis":5939,"til":5940,"rison":5941,"lein":5942,"most":5943,"0000":5944,"1275":5945,"11.3":5946,"1536":5947,"pani":5948,"1675":5949,"1464":5950,"rate":5951,"455":5952,"IND":5953,"64.":5954,".77":5955,"671":5956,"678":5957,"Jos":5958,"Professor":5959,"Tex":5960,"Cata":5961,"Fashion":5962,"Bit":5963,"97%":5964,"Stone":5965,"Histo":5966,"Giovan":5967,"Liner":5968,"1705":5969,"TOWN":5970,"Appli":5971,"Sheet":5972,"lease":5973,"KKBOX":5974,"Christmas":5975,"function":5976,"Championship":5977,"Language":5978,"scape":5979,"Alfredo":5980,"after":5981,"542":5982,"634":5983,"821":5984,"912":5985,"CIT":5986,"Cfb":5987,"DX":5988,"Dur":5989,"Edi":5990,"Hat":5991,"HPV":5992,"MOS":5993,"MIT":5994,"NXT":5995,"SY":5996,"Spin":5997,"SIM":5998,"WH":5999,"Wong":6000,"cam":6001,"fle":6002,"ghe":6003,"group":6004,"vai":6005,"Ïĩ":6006,"âģ":6007,"ãħ":6008,"ìĦ":6009,"hea":6010,"liance":6011,"lative":6012,"may":6013,"gency":6014,"rec":6015,"1563":6016,"ort":6017,"1617":6018,"1663":6019,"1685":6020,"17.5":6021,"1753":6022,"ons":6023,"1477":6024,"1380":6025,"503":6026,"809":6027,"ãģİ":6028,"there":6029,"lock":6030,"ãĤ½":6031,"483":6032,"486":6033,"Mach":6034,"Make":6035,"Mate":6036,"754":6037,"cat":6038,"beca":6039,"beat":6040,"656":6041,"Theat":6042,"Rev":6043,"Mid":6044,"676":6045,"ATX":6046,"66%":6047,"99.":6048,"SAN":6049,"785":6050,"561":6051,"NAS":6052,"61%":6053,"ARK":6054,"ARP":6055,"Field":6056,"Siri":6057,"Mars":6058,"kiyo":6059,"ACH":6060,"Board":6061,"Socket":6062,"84%":6063,"IPTV":6064,"ANG":6065,"Western":6066,"à¸²":6067,"UNES":6068,"Audio":6069,"rono":6070,"Frances":6071,"Morning":6072,"RCA":6073,"Collection":6074,"Hans":6075,"SpaceX":6076,"Fanta":6077,"Afri":6078,"TWICE":6079,"Circle":6080,"Creative":6081,"Melon":6082,"Wolf":6083,"Industri":6084,"SUPER":6085,"2DS":6086,"518":6087,"526":6088,"566":6089,"716":6090,"714":6091,"765":6092,"764":6093,"744":6094,"7.3":6095,"826":6096,"847":6097,"918":6098,"936":6099,"Abu":6100,"Ace":6101,"Bei":6102,"BNO":6103,"Cin":6104,"Every":6105,"GI":6106,"Ian":6107,"Kra":6108,"MRI":6109,"Nam":6110,"RP":6111,"SUN":6112,"VIP":6113,"WTT":6114,"Yi":6115,"hp":6116,"inv":6117,"own":6118,"ÅĤ":6119,"ÙĪ":6120,"âĬ":6121,"ë¦":6122,"ð¬":6123,"ant":6124,"cious":6125,"dus":6126,"multi":6127,"teen":6128,"mary":6129,"1024":6130,"1669":6131,"1656":6132,"1672":6133,"1692":6134,"1754":6135,"1420":6136,"1480":6137,"ink":6138,"lvet":6139,"31.":6140,"0.15":6141,"751":6142,"cap":6143,"65.":6144,"658":6145,"vio":6146,"594":6147,"wick":6148,"791":6149,"Wit":6150,"AMC":6151,"AMP":6152,"Cathe":6153,"Right":6154,"Sul":6155,"ITA":6156,"1704":6157,"1708":6158,"Ware":6159,"Wave":6160,"Fort":6161,"AGP":6162,"MLB":6163,"Here":6164,"Future":6165,"DMR":6166,"Shine":6167,"Clark":6168,"Planet":6169,"logical":6170,"partment":6171,"Front":6172,"Moore":6173,"2B":6174,"713":6175,"727":6176,"748":6177,"768":6178,"875":6179,"8.8":6180,"915":6181,"929":6182,"947":6183,"BIG":6184,"CYP":6185,"EBS":6186,"From":6187,"Gian":6188,"Isa":6189,"ISA":6190,"Jason":6191,"NICO":6192,"OME":6193,"R3":6194,"Ster":6195,"Trai":6196,"UF":6197,"VIS":6198,"XIII":6199,"aw":6200,"ior":6201,"ski":6202,"syn":6203,"uer":6204,"xc":6205,"Ð¢":6206,"Ø³":6207,"anti":6208,"under":6209,"bury":6210,"chus":6211,"hout":6212,"teau":6213,"mari":6214,"1075":6215,"1277":6216,"1279":6217,"1276":6218,"1111":6219,"1440":6220,"1488":6221,"1472":6222,"1371":6223,"road":6224,"ãĥ§":6225,"902":6226,"489":6227,"Indian":6228,"699":6229,"992":6230,"881":6231,"986":6232,"twe":6233,"Jay":6234,"confi":6235,"contribu":6236,"APM":6237,"1602":6238,"commercial":6239,"gos":6240,"Bug":6241,"Interplay":6242,"cross":6243,"AIM":6244,"REAS":6245,"CRH5":6246,"Greg":6247,"Vogue":6248,"Version":6249,"Walker":6250,"Wilhe":6251,"ddle":6252,"Jimmy":6253,"Building":6254,"Opera":6255,"District":6256,"Thunderbird":6257,"Sweet":6258,"Films":6259,"030":6260,"633":6261,"778":6262,"812":6263,"955":6264,"957":6265,"9.3":6266,"C3":6267,"C14":6268,"EY":6269,"Fol":6270,"LNG":6271,"LIF":6272,"MIC":6273,"NY":6274,"Nint":6275,"POS":6276,"RSS":6277,"SAT":6278,"Tam":6279,"TNT":6280,"Var":6281,"Where":6282,"ato":6283,"cco":6284,"d4":6285,"gli":6286,"spo":6287,"tsu":6288,"their":6289,"Ã½":6290,"Ø¨":6291,"Ø¯":6292,"shire":6293,"ends":6294,"dad":6295,"tino":6296,"rice":6297,"cies":6298,"lain":6299,"band":6300,"minal":6301,"laun":6302,"tury":6303,"10.6":6304,"002":6305,"004":6306,"1230":6307,"longi":6308,"1527":6309,"15.5":6310,"1611":6311,"ãģĽ":6312,"487":6313,"vement":6314,"INT":6315,"46.":6316,"Information":6317,"vich":6318,"vier":6319,"558":6320,"685":6321,"hol":6322,"577":6323,"781":6324,"Page":6325,"pert":6326,"792":6327,"794":6328,"WiMAX":6329,"981":6330,"CO2":6331,"ARC":6332,"Jalan":6333,"Six":6334,"Say":6335,"fect":6336,"mers":6337,"Nick":6338,"Gemini":6339,"Energy":6340,"Stewart":6341,"1122":6342,"RES":6343,"ESPN":6344,"Trickett":6345,"Asian":6346,"Allen":6347,"Stop":6348,"Thompson":6349,"Portable":6350,"Velvet":6351,"Quin":6352,"show":6353,"ìķĦ":6354,"Jonathan":6355,"ð¬ĵ":6356,"Nintendo":6357,"070":6358,"543":6359,"615":6360,"717":6361,"828":6362,"839":6363,"939":6364,"Azu":6365,"Bas":6366,"Cel":6367,"E2":6368,"FD":6369,"G2":6370,"GG":6371,"Gy":6372,"KS":6373,"MED":6374,"N1":6375,"Pur":6376,"Quan":6377,"RY":6378,"S7":6379,"UFC":6380,"V1":6381,"V2":6382,"Xi":6383,"ave":6384,"bui":6385,"esa":6386,"m2":6387,"ppa":6388,"tent":6389,"ãİ":6390,"ê°":6391,"dale":6392,"tiful":6393,"pis":6394,"major":6395,"based":6396,"water":6397,"1512":6398,"1541":6399,"1666":6400,"1721":6401,"1726":6402,"1737":6403,"1747":6404,"1743":6405,"1741":6406,"1430":6407,"30.":6408,"25000":6409,"medi":6410,"rad":6411,"0.1%":6412,"481":6413,"Match":6414,"47.":6415,"674":6416,"Liquid":6417,"697":6418,"host":6419,"889":6420,"Deuts":6421,"fit":6422,"77%":6423,"982":6424,"989":6425,"74.":6426,"96%":6427,"81%":6428,"Titan":6429,"PCR":6430,"0.04":6431,"à¸Ļ":6432,"AVE":6433,"Hub":6434,"Adven":6435,"NHS":6436,"Grace":6437,"Sher":6438,"Enterprise":6439,"hyth":6440,"Productions":6441,"Bruce":6442,"Douglas":6443,"2TV":6444,"513":6445,"846":6446,"866":6447,"857":6448,"B12":6449,"Cong":6450,"Fair":6451,"Gary":6452,"HY":6453,"J1":6454,"JXG":6455,"Oculus":6456,"TD":6457,"WM":6458,"again":6459,"ey":6460,"kHz":6461,"nge":6462,"kee":6463,"mium":6464,"quali":6465,"bov":6466,"bach":6467,"nae":6468,"1217":6469,"1274":6470,"gener":6471,"ponen":6472,"1515":6473,"1542":6474,"1712":6475,"1711":6476,"1715":6477,"1435":6478,"1456":6479,"1328":6480,"1385":6481,"forman":6482,"pas":6483,"cola":6484,"ãģ¶":6485,"1.05":6486,"48.":6487,"4800":6488,"dol":6489,"3400":6490,"IIT":6491,"Rosa":6492,"Roger":6493,"1509":6494,"Staff":6495,"asy":6496,"gir":6497,"Dick":6498,"Window":6499,"ISC":6500,"971":6501,"Kill":6502,"Hay":6503,"Nove":6504,"ASH":6505,"Netscape":6506,"talk":6507,"IGHT":6508,"Shop":6509,"GP40":6510,"Drama":6511,"hydro":6512,"bridge":6513,"nics":6514,"Surf":6515,"Pentium":6516,"facebook":6517,"Tennis":6518,"Princess":6519,"Pink":6520,"Delta":6521,"SHINee":6522,"055":6523,"647":6524,"728":6525,"726":6526,"811":6527,"8.4":6528,"913":6529,"Brun":6530,"CZ":6531,"CCD":6532,"COS":6533,"Hai":6534,"Ia":6535,"Mg":6536,"Pr":6537,"Sang":6538,"Snow":6539,"TAI":6540,"Uta":6541,"Wai":6542,"Wer":6543,"Woo":6544,"Zero":6545,"ctus":6546,"done":6547,"kra":6548,"oc":6549,"pr":6550,"zzi":6551,"Î¯":6552,"Î¶":6553,"iano":6554,"tage":6555,"cision":6556,"pia":6557,"nity":6558,"10.1":6559,"shark":6560,"1150":6561,"1544":6562,"1757":6563,"1424":6564,"1470":6565,"1454":6566,"array":6567,"2900":6568,"room":6569,"909":6570,"459":6571,"38.":6572,"3700":6573,"34.":6574,"759":6575,"Coo":6576,"bet":6577,"STER":6578,"672":6579,"582":6580,"ATS":6581,"vers":6582,"69.":6583,"home":6584,"591":6585,"993":6586,"SAP":6587,"56.":6588,"gion":6589,"Division":6590,"Lost":6591,"Bow":6592,"meral":6593,"Kir":6594,"93%":6595,"Nicho":6596,"Tac":6597,"project":6598,"DSL":6599,"eria":6600,"France":6601,"unique":6602,"Universal":6603,"Gene":6604,"hammad":6605,"dget":6606,"works":6607,"âħ¢":6608,"IMF":6609,"England":6610,"struct":6611,"Benja":6612,"brid":6613,"CGTN":6614,"Louise":6615,"Antonio":6616,"Archite":6617,"CDMA2000":6618,"WORLD":6619,"RepRap":6620,"Mission":6621,"seudo":6622,"Hollywood":6623,"823":6624,"829":6625,"8.9":6626,"927":6627,"935":6628,"9.2":6629,"A5":6630,"Aer":6631,"Ball":6632,"Emi":6633,"F7":6634,"Fl":6635,"Four":6636,"GIS":6637,"JC":6638,"KN":6639,"Know":6640,"LMS":6641,"LPL":6642,"Ral":6643,"TB":6644,"USE":6645,"WD":6646,"bran":6647,"cken":6648,"ev":6649,"fts":6650,"mun":6651,"og":6652,"scien":6653,"vard":6654,"lier":6655,"licon":6656,"big":6657,"being":6658,"mical":6659,"rier":6660,"sets":6661,"ceae":6662,"1235":6663,"1264":6664,"1554":6665,"order":6666,"1722":6667,"1734":6668,"1766":6669,"1471":6670,"1330":6671,"1390":6672,"neu":6673,"ãĥį":6674,"60.":6675,"609":6676,"them":6677,"Makiyo":6678,"llon":6679,"beta":6680,"652":6681,"659":6682,"sser":6683,"Remix":6684,"ped":6685,"695":6686,"573":6687,"783":6688,"Victo":6689,"Dean":6690,"ghter":6691,"fied":6692,"berry":6693,"771":6694,"Wind":6695,"Motor":6696,"Gate":6697,"Sie":6698,"Care":6699,"Alliance":6700,"Hop":6701,"82%":6702,"92%":6703,"sters":6704,"Buzz":6705,"âĪĪ":6706,"Shot":6707,"Kelly":6708,"AAA":6709,"DOCO":6710,"serva":6711,"Original":6712,"Brothers":6713,"Organi":6714,"Active":6715,"Philli":6716,"AlphaGo":6717,"Paradox":6718,"Virgi":6719,"about":6720,"Engineering":6721,"ECTION":6722,"tournament":6723,"Creek":6724,"defeated":6725,"Concert":6726,"trieved":6727,"Surfshark":6728,"1180":6729,"3100":6730,"529":6731,"724":6732,"736":6733,"832":6734,"932":6735,"967":6736,"976":6737,"Arena":6738,"BEST":6739,"DN":6740,"F6":6741,"FG":6742,"Gas":6743,"HM":6744,"HQ":6745,"Hoo":6746,"Jar":6747,"KA":6748,"Kun":6749,"Kam":6750,"Mun":6751,"N3":6752,"NON":6753,"OL":6754,"Ol":6755,"Oly":6756,"PRE":6757,"RAD":6758,"SRAM":6759,"U16":6760,"VCD":6761,"XY":6762,"gers":6763,"good":6764,"ides":6765,"kt":6766,"pm":6767,"xon":6768,"Â½":6769,"Ã£":6770,"ÏĮ":6771,"Ðŀ":6772,"×Ļ":6773,"ð¡":6774,"deri":6775,"enger":6776,"ledge":6777,"mina":6778,"boot":6779,"teo":6780,"tua":6781,"tance":6782,"12.6":6783,"1557":6784,"1551":6785,"1655":6786,"1678":6787,"1696":6788,"1746":6789,"1749":6790,"1475":6791,"1441":6792,"1484":6793,"1399":6794,"25.":6795,"string":6796,"rap":6797,"Maxi":6798,"752":6799,"Cooper":6800,"683":6801,"Rod":6802,"Ross":6803,"Tea":6804,"87%":6805,"874":6806,"Marga":6807,"ACS":6808,"static":6809,"86%":6810,"Str":6811,"Unit":6812,"1402":6813,"à¸¡":6814,"Peace":6815,"Mana":6816,"cyclo":6817,"CRH":6818,"Prize":6819,"BMT":6820,"Hulu":6821,"Broad":6822,"Brook":6823,"Reddit":6824,"Allstars":6825,"Morgan":6826,"Valley":6827,"Holdings":6828,"GMMTV":6829,"VOCAL":6830,"origin":6831,"Palazzo":6832,"Urban":6833,"IPv6":6834,"Rainbow":6835,"Premier":6836,"small":6837,"PENOME":6838,"fessional":6839,"Mercury":6840,"DOCOMO":6841,"PENOMECO":6842,"635":6843,"864":6844,"931":6845,"937":6846,"956":6847,"972":6848,"Edition":6849,"Fren":6850,"Fall":6851,"FIR":6852,"Jin":6853,"Kw":6854,"Kor":6855,"Lyn":6856,"NAT":6857,"PRI":6858,"Sue":6859,"Tang":6860,"bber":6861,"flow":6862,"hon":6863,"mme":6864,"thu":6865,"Ãĸ":6866,"Åĭ":6867,"ÑĪ":6868,"ð°":6869,"enne":6870,"chs":6871,"distri":6872,"gus":6873,"nical":6874,"lav":6875,"match":6876,"nard":6877,"1020":6878,"1010":6879,"rance":6880,"1266":6881,"1261":6882,"poem":6883,"1641":6884,"1751":6885,"1346":6886,"path":6887,"nest":6888,"0.12":6889,"0.65":6890,"ãģŃ":6891,"three":6892,"through":6893,"gas":6894,"38.5":6895,"TCH":6896,"cau":6897,"Mir":6898,"Mira":6899,"Miller":6900,"995":6901,"884":6902,"885":6903,"886":6904,"Pau":6905,"54.":6906,"YouBike":6907,"Leona":6908,"Ted":6909,"89%":6910,"Sid":6911,"Sig":6912,"Sep":6913,"ISP":6914,"ISS":6915,"Lock":6916,"Hig":6917,"83%":6918,"Ann":6919,"Head":6920,"Word":6921,"AGM":6922,"M1A2":6923,"CLOS":6924,"CSI":6925,"phic":6926,"Samsung":6927,"YOU":6928,"Small":6929,"County":6930,"Watch":6931,"Beautiful":6932,"Daily":6933,"August":6934,"username":6935,"Twins":6936,"Giovanni":6937,"Theatre":6938,"Wilhelm":6939,"Benjamin":6940,"060":6941,"564":6942,"664":6943,"817":6944,"831":6945,"853":6946,"919":6947,"958":6948,"942":6949,"959":6950,"979":6951,"BW":6952,"Chen":6953,"Ec":6954,"FK":6955,"FNC":6956,"GUI":6957,"Hg":6958,"IATA":6959,"Invest":6960,"JB":6961,"NL":6962,"Nel":6963,"OC":6964,"PU":6965,"PX":6966,"PDF":6967,"QR":6968,"UCC":6969,"ama":6970,"cry":6971,"gb":6972,"gger":6973,"hor":6974,"mba":6975,"thus":6976,"Î£":6977,"ÐĿ":6978,"xit":6979,"eron":6980,"site":6981,"fari":6982,"family":6983,"motion":6984,"pine":6985,"1284":6986,"2029":6987,"1673":6988,"1713":6989,"1425":6990,"1468":6991,"1382":6992,"former":6993,"archi":6994,"member":6995,"ãĥľ":6996,"0.20":6997,"804":6998,"802.":6999,"ãģ©":7000,"1.75":7001,"36.":7002,"3800":7003,"Made":7004,"Colo":7005,"657":7006,"ATI":7007,"57.":7008,"Department":7009,"CONC":7010,"AMX":7011,"ARI":7012,"Gau":7013,"873":7014,"1204":7015,"varia":7016,"ICC":7017,"Factory":7018,"Howard":7019,"Hil":7020,"Docu":7021,"Haw":7022,"Pia":7023,"0.09":7024,"à¸±":7025,"Caro":7026,"CR400":7027,"Services":7028,"SPA":7029,"odon":7030,"Nord":7031,"Disc":7032,"5.56":7033,"creen":7034,"Flag":7035,"Trust":7036,"LAND":7037,"Hunter":7038,"Federation":7039,"break":7040,"Education":7041,"Jordan":7042,"contributor":7043,"569":7044,"631":7045,"788":7046,"827":7047,"845":7048,"852":7049,"9.1":7050,"A330":7051,"B7":7052,"BMP":7053,"Evan":7054,"G6":7055,"GIR":7056,"IQ":7057,"Kris":7058,"Pel":7059,"RER":7060,"Swing":7061,"TTC":7062,"YS":7063,"feld":7064,"gam":7065,"ibn":7066,"kno":7067,"lling":7068,"Äĥ":7069,"ìĭ":7070,"hel":7071,"sil":7072,"tara":7073,"yes":7074,"mur":7075,"lines":7076,"child":7077,"10.0":7078,"chaft":7079,"1227":7080,"1283":7081,"1291":7082,"hau":7083,"haus":7084,"1539":7085,"1695":7086,"1682":7087,"1710":7088,"1481":7089,"1356":7090,"meo":7091,"nett":7092,"ãĥĻ":7093,"0.28":7094,"0.3%":7095,"ãģµ":7096,"Mala":7097,"39%":7098,"39.":7099,"India":7100,"virus":7101,"Regu":7102,"68.":7103,"441":7104,"677":7105,"691":7106,"Rob":7107,"Robo":7108,"991":7109,"56%":7110,"Def":7111,"797":7112,"53%":7113,"897":7114,"87.":7115,"Raja":7116,"ACG":7117,"ady":7118,"Cali":7119,"APS":7120,"nensis":7121,"Hope":7122,"Kiss":7123,"Kiwi":7124,"Nike":7125,"Nokia":7126,"1405":7127,"Gem":7128,"END":7129,"1707":7130,"Card":7131,"1124":7132,"MIR":7133,"crip":7134,"cked":7135,"à¤°":7136,"Hart":7137,"trix":7138,"EXO":7139,"Access":7140,"Esmeral":7141,"mpic":7142,"losing":7143,"HSCR":7144,"Single":7145,"Associa":7146,"Smart":7147,"Virtual":7148,"DKZ":7149,"Double":7150,"Songs":7151,"Premium":7152,"Change":7153,"counter":7154,"WireGuard":7155,"Russell":7156,"Number":7157,"Style":7158,"Discovery":7159,"tween":7160,"Nicholas":7161,"020":7162,"2K":7163,"3166":7164,"523":7165,"842":7166,"841":7167,"977":7168,"AY":7169,"Ae":7170,"A320":7171,"Bour":7172,"C#":7173,"Chai":7174,"Crai":7175,"D4":7176,"EB":7177,"Even":7178,"GRE":7179,"Ini":7180,"JDG":7181,"Khan":7182,"Ou":7183,"O305":7184,"Pun":7185,"P10":7186,"Pres":7187,"RMS":7188,"Ryo":7189,"TEP":7190,"VHS":7191,"Wri":7192,"Wall":7193,"Wright":7194,"W3C":7195,"XM":7196,"Zn":7197,"dl":7198,"edu":7199,"fai":7200,"hd":7201,"ire":7202,"ome":7203,"what":7204,"Âµ":7205,"Ã°":7206,"Ã»":7207,"Ðĵ":7208,"jito":7209,"dele":7210,"eign":7211,"your":7212,"dam":7213,"date":7214,"human":7215,"sir":7216,"bina":7217,"zie":7218,"fau":7219,"tau":7220,"tax":7221,"tale":7222,"cir":7223,"19.7":7224,"yed":7225,"nik":7226,"lae":7227,"mothy":7228,"1066":7229,"double":7230,"seo":7231,"18.5":7232,"1241":7233,"1295":7234,"quet":7235,"1130":7236,"1433":7237,"1449":7238,"1376":7239,"1001":7240,"0.75":7241,"ãģ°":7242,"ãģĶ":7243,"ãĤ»":7244,"thro":7245,"Maj":7246,"462":7247,"between":7248,"58.":7249,"696":7250,"SAE":7251,"786":7252,"563":7253,"peria":7254,"nos":7255,"62%":7256,"95.":7257,"Array":7258,"Alber":7259,"stamp":7260,"Hospi":7261,"fee":7262,"feat":7263,"Domini":7264,"Pictures":7265,"PCS":7266,"0.07":7267,"0.08":7268,"1703":7269,"ECE":7270,"sions":7271,"CHO":7272,"Andy":7273,"ADA":7274,"Order":7275,"Guy":7276,"march":7277,"timestamp":7278,"Blood":7279,"typedef":7280,"Taipei":7281,"Ship":7282,"third":7283,"FreeBSD":7284,"Valen":7285,"Stand":7286,"Talking":7287,"Cl2":7288,"Memorial":7289,"Stadiums":7290,"Advanced":7291,"Drop":7292,"Jacob":7293,"Anthony":7294,"Challeng":7295,"Esmeralda":7296,"4D":7297,"749":7298,"766":7299,"799":7300,"838":7301,"844":7302,"843":7303,"854":7304,"968":7305,"Ay":7306,"Ave":7307,"B6":7308,"Call":7309,"Candy":7310,"FB":7311,"G3":7312,"IZ":7313,"Iron":7314,"Non":7315,"OBE":7316,"Rd":7317,"Ris":7318,"RIA":7319,"Sei":7320,"Tin":7321,"TREAS":7322,"WB":7323,"ata":7324,"aes":7325,"bye":7326,"ech":7327,"ear":7328,"series":7329,"true":7330,"¸©":7331,"ìĤ":7332,"any":7333,"diffe":7334,"bital":7335,"mid":7336,"rid":7337,"muse":7338,"mala":7339,"nam":7340,"10.7":7341,"10.2":7342,"1290":7343,"1265":7344,"1262":7345,"1286":7346,"post":7347,"hara":7348,"1729":7349,"1742":7350,"1438":7351,"1459":7352,"14.4":7353,"height":7354,"21.5":7355,"ï¼ĳ":7356,"rome":7357,"str":7358,"ãĤ§":7359,"ãĤħ":7360,"75.":7361,"Cole":7362,"ReMi":7363,"ette":7364,"Lip":7365,"Lisa":7366,"663":7367,"Med":7368,"Mee":7369,"79%":7370,"Mojito":7371,"63%":7372,"ARS":7373,"76.":7374,"Diplo":7375,"Finan":7376,"APEC":7377,"Faker":7378,"Nature":7379,"DoReMi":7380,"71%":7381,"Nova":7382,"0.06":7383,"ROR":7384,"Government":7385,"vant":7386,"service":7387,"exe":7388,"âĹı":7389,"BLACK":7390,"parti":7391,"Score":7392,"Country":7393,"friDay":7394,"Johann":7395,"metry":7396,"Australian":7397,"ðª¸©":7398,"SNCF":7399,"Jacques":7400,"B9TL":7401,"TREASURE":7402,"1190":7403,"718":7404,"733":7405,"837":7406,"8.0":7407,"879":7408,"928":7409,"922":7410,"948":7411,"966":7412,"A9":7413,"AZ":7414,"Ala":7415,"B5":7416,"Blen":7417,"C7":7418,"Cour":7419,"CBD":7420,"Ern":7421,"FOR":7422,"Gai":7423,"KL":7424,"Llo":7425,"LSA":7426,"Mn":7427,"Mam":7428,"NRA":7429,"Neil":7430,"Oce":7431,"OBC":7432,"PET":7433,"PDP":7434,"RED":7435,"Schu":7436,"S22":7437,"Tes":7438,"UHF":7439,"ari":7440,"eli":7441,"ffa":7442,"ova":7443,"âŁ":7444,"ìł":7445,"dic":7446,"sity":7447,"tit":7448,"title":7449,"19.5":7450,"boy":7451,"lins":7452,"lies":7453,"1040":7454,"1240":7455,"1270":7456,"gence":7457,"pointer":7458,"wal":7459,"1599":7460,"1717":7461,"1447":7462,"1369":7463,"1373":7464,"ãĥļ":7465,"0.11":7466,"look":7467,"ãĤ¶":7468,"37.":7469,"Map":7470,"Matt":7471,"753":7472,"care":7473,"villa":7474,"Living":7475,"882":7476,"Defen":7477,"fire":7478,"983":7479,"BAS":7480,"BANG":7481,"Level":7482,"Lewis":7483,"89.":7484,"conne":7485,"Second":7486,"---":7487,"MAG":7488,"Mul":7489,"1403":7490,"ASP":7491,"Chin":7492,"llah":7493,"llar":7494,"MPEG":7495,"1121":7496,"ffer":7497,"Price":7498,"Russ":7499,"IFPI":7500,"Franci":7501,"YOUNG":7502,"Spirit":7503,"PEG":7504,"ICOCA":7505,"Farms":7506,"Ventures":7507,"green":7508,"DAMP":7509,"Analy":7510,"tionary":7511,"asonic":7512,"dependent":7513,"1x":7514,"1198":7515,"4x":7516,"746":7517,"819":7518,"814":7519,"813":7520,"824":7521,"851":7522,"964":7523,"Aero":7524,"CERT":7525,"Dor":7526,"Ep":7527,"Emer":7528,"Fr":7529,"Hin":7530,"Mbit":7531,"Psy":7532,"Rat":7533,"Spy":7534,"Us":7535,"VL":7536,"WC":7537,"Wu":7538,"aco":7539,"dding":7540,"jar":7541,"osu":7542,"áŀ":7543,"ê¸":7544,"ìŀ":7545,"dera":7546,"rene":7547,"geo":7548,"tab":7549,"quen":7550,"music":7551,"dain":7552,"nanensis":7553,"tek":7554,"later":7555,"sup":7556,"cepha":7557,"1219":7558,"1254":7559,"11.9":7560,"11.4":7561,"sation":7562,"1676":7563,"1714":7564,"1429":7565,"1434":7566,"1444":7567,"1462":7568,"1451":7569,"1483":7570,"1364":7571,"22.5":7572,"ï¼¡":7573,"sten":7574,"cut":7575,"0.13":7576,"0.24":7577,"1.35":7578,"load":7579,"offi":7580,"Mah":7581,"Cook":7582,"SEN":7583,"IIc":7584,"Lite":7585,"593":7586,"996":7587,"883":7588,"Melo":7589,"Pacific":7590,"CDR":7591,"774":7592,"Winter":7593,"Wise":7594,"Lega":7595,"Professional":7596,"892":7597,"895":7598,"Season":7599,"ISIL":7600,"urs":7601,"Sophi":7602,"Strong":7603,"HiME":7604,"Rick":7605,"Have":7606,"Gib":7607,"1407":7608,"graph":7609,"Conference":7610,"Karen":7611,"à¸Ń":7612,"process":7613,"Andrea":7614,"Fea":7615,"Mono":7616,"Adrian":7617,"Chee":7618,"Display":7619,"example":7620,"ãĦ§":7621,"ãĦĽ":7622,"DD53":7623,"structure":7624,"Helen":7625,"Crown":7626,"Elect":7627,"ministra":7628,"Fund":7629,"PHP":7630,"harma":7631,"single":7632,"Object":7633,"Captain":7634,"mapframe":7635,"Getchu":7636,"Quasi":7637,"Gordon":7638,"NEXT":7639,"integer":7640,"Abdul":7641,"Azure":7642,"VOCALO":7643,"2S":7644,"3rd":7645,"862":7646,"9.0":7647,"Ano":7648,"E5":7649,"Gr":7650,"JAK":7651,"K10":7652,"Kis":7653,"N64":7654,"Pai":7655,"PAS":7656,"RD":7657,"Swan":7658,"Sna":7659,"Sat":7660,"SOS":7661,"T7":7662,"VG":7663,"aa":7664,"away":7665,"ging":7666,"gro":7667,"jn":7668,"ore":7669,"sv":7670,"det":7671,"eis":7672,"ians":7673,"zhuai":7674,"sii":7675,"tii":7676,"miR":7677,"mili":7678,"rical":7679,"leb":7680,"mage":7681,"1086":7682,"rane":7683,"kara":7684,"1225":7685,"1224":7686,"1258":7687,"pot":7688,"sary":7689,"ordina":7690,"1686":7691,"1486":7692,"1497":7693,"1310":7694,"1329":7695,"13.6":7696,"1391":7697,"ï¼Ĵ":7698,"alloca":7699,"0.18":7700,"0.30":7701,"0.2%":7702,"theory":7703,"cki":7704,"Republic":7705,"hicle":7706,"58%":7707,"ATH":7708,"people":7709,"Lisp":7710,"69%":7711,"693":7712,"Death":7713,"77.":7714,"987":7715,"BAC":7716,"ARA":7717,"Gaming":7718,"896":7719,"Fit":7720,"Sim":7721,"Ness":7722,"Nexus":7723,"Sean":7724,"comment":7725,"socket":7726,"73%":7727,"1108":7728,"gov":7729,"1404":7730,"Control":7731,"mph":7732,"phone":7733,"Pear":7734,"Formation":7735,"âĪŀ":7736,"Extra":7737,"AVC":7738,"Prix":7739,"DCT":7740,"Franz":7741,"Person":7742,"NOME":7743,"Dual":7744,"SDK":7745,"splay":7746,"Sym":7747,"Lane":7748,"âī¥":7749,"position":7750,"Scala":7751,"Castle":7752,"apore":7753,"Nerf":7754,"LIFE":7755,"Victoria":7756,"French":7757,"Francisco":7758,"VOCALOID":7759,"040":7760,"080":7761,"6A":7762,"723":7763,"8500":7764,"858":7765,"859":7766,"914":7767,"934":7768,"944":7769,"969":7770,"953":7771,"BGM":7772,"Blair":7773,"Eva":7774,"Elli":7775,"EMD":7776,"Flor":7777,"FRAM":7778,"Glen":7779,"GNOME":7780,"His":7781,"HIG":7782,"Kno":7783,"Kara":7784,"Las":7785,"N4":7786,"OG":7787,"OZ":7788,"Plu":7789,"PST":7790,"PAL":7791,"RR":7792,"RGB":7793,"Slo":7794,"Xperia":7795,"Yellow":7796,"Zu":7797,"ZICO":7798,"ame":7799,"dle":7800,"dron":7801,"pti":7802,"Ã¯":7803,"ÅĽ":7804,"Ëĭ":7805,"á¼":7806,"ings":7807,"uint":7808,"error":7809,"times":7810,"tail":7811,"pid":7812,"nig":7813,"bol":7814,"10.9":7815,"doubles":7816,"003":7817,"1236":7818,"1278":7819,"12.1":7820,"1263":7821,"1140":7822,"hal":7823,"sat":7824,"âĢĮ":7825,"1716":7826,"1442":7827,"1478":7828,"1360":7829,"1365":7830,"1333":7831,"1341":7832,"13.2":7833,"pay":7834,"24.5":7835,"stream":7836,"0.26":7837,"0.35":7838,"local":7839,"2.75":7840,"45.":7841,"Come":7842,"STEM":7843,"ATM":7844,"66.":7845,"782":7846,"fication":7847,"772":7848,"779":7849,"pers":7850,"lys":7851,"Days":7852,"76%":7853,"891":7854,"Mart":7855,"March":7856,"Racing":7857,"1208":7858,"Sex":7859,"ISIS":7860,"start":7861,"Bili":7862,"Billy":7863,"Social":7864,"Rich":7865,"Kiii":7866,"Commission":7867,"Conti":7868,"à¸ŀ":7869,"Carter":7870,"Carol":7871,"AIL":7872,"sistant":7873,"Experi":7874,"Andre":7875,"SO3":7876,"BORN":7877,"aux":7878,"TEEN":7879,"PPP":7880,"plete":7881,"Century":7882,"clear":7883,"mbH":7884,"Hybrid":7885,"OKA":7886,"Atlan":7887,"BIOS":7888,"Terry":7889,"LGBTQ":7890,"Quick":7891,"Partners":7892,"Brand":7893,"Photo":7894,"Alfred":7895,"Forest":7896,"Frollo":7897,"ckage":7898,"WISE":7899,"Advance":7900,"Fantasy":7901,"Ernst":7902,"1a":7903,"1194":7904,"834":7905,"849":7906,"941":7907,"Ax":7908,"Bye":7909,"BWF":7910,"BOSS":7911,"CAT":7912,"DAI":7913,"Ent":7914,"FRE":7915,"FIA":7916,"GU":7917,"Ivan":7918,"JJ":7919,"Kal":7920,"M24":7921,"Our":7922,"Pb":7923,"Spen":7924,"Ski":7925,"Ul":7926,"Wang":7927,"Wha":7928,"WAN":7929,"ating":7930,"cty":7931,"dr":7932,"fx":7933,"omp":7934,"ua":7935,"wri":7936,"ÅĦ":7937,"×ķ":7938,"Ø©":7939,"à¼":7940,"ëĭ":7941,"ìĺ":7942,"dez":7943,"ships":7944,"lien":7945,"digi":7946,"burn":7947,"bucket":7948,"tius":7949,"quar":7950,"bara":7951,"chester":7952,"pul":7953,"1030":7954,"1099":7955,"cans":7956,"1221":7957,"12.2":7958,"1272":7959,"rest":7960,"recor":7961,"1533":7962,"1698":7963,"1671":7964,"1413":7965,"1443":7966,"1358":7967,"1396":7968,"Matter":7969,"59.":7970,"998":7971,"ryo":7972,"789":7973,"CDK":7974,"773":7975,"Rab":7976,"Razer":7977,"kien":7978,"1206":7979,"Arn":7980,"Basi":7981,"Low":7982,"Body":7983,"Sorana":7984,"EPHE":7985,"HKIFF":7986,"MPI":7987,"proper":7988,"dyna":7989,"Kota":7990,"Davis":7991,"SCI":7992,"Charlie":7993,"Full":7994,"import":7995,"Minute":7996,"UTF":7997,"Stanley":7998,"Plane":7999}