#version: 0.2
n g
a n
s h
z h
j i
a ng
Ġ Ġ
o ng
x i
a o
a i
d e
e i
sh i
y u
o u
y i
e n
c h
i an
u o
e ng
l i
ĠĠ Ġ
ã Ģ
i ng
u i
w ei
u an
zh i
q i
n ian
zh ong
y ou
r en
u n
z ai
d i
g uo
ãĢ ģ
h e
b u
e r
g ong
xi ng
ch eng
d a
zh u
h u
yu an
s i
ji an
yu e
g e
f u
xi an
u e
k e
w u
ch u
sh u
sh eng
ji e
ji a
b i
d ao
z i
b ei
h ui
f a
xi ang
t i
zh eng
m i
t a
ji n
q u
2 0
t ong
r i
j u
ji ng
m ing
l e
h ou
sh ang
sh ou
d ong
c i
f ang
1 9
hu a
yi n
x ue
g uan
zh an
y e
yi ng
z uo
zh e
y an
m ei
ji ao
g u
ch ang
xi n
d ui
l u
b ing
b ao
f en
d an
h uo
j un
ji ang
d u
xi ao
d ian
y ong
q ian
sh e
t ai
xi a
m u
w en
g ai
zh ang
li ang
y a
r u
d ai
h ai
n an
zh ou
z u
w ang
l ai
b an
ji u
d ang
q ing
p ing
sh en
ãĢ ĭ
ãĢ Ĭ
w an
l ian
li ng
l uo
Â ·
mi n
q uan
p i
n i
b o
d uo
t e
b en
g ao
bi ao
s uo
l a
m a
k ai
b a
xi e
x u
b ian
de ng
y ao
y ang
m ian
zh en
d ing
qi u
z ui
s ai
li u
f an
x uan
f ei
s an
sh an
ch e
z ong
m en
ãĢ Į
ãĢ į
t u
t ian
h ao
s u
l ei
n ei
yu n
20 1
l an
f eng
m o
n a
z e
l v
h an
k ou
w ai
n eng
li n
ch uan
ch i
j ue
b ai
p ai
20 0
k u
c ai
z ao
t ing
zh uan
g ang
li e
gu ang
g ui
l un
s ui
p u
c eng
k ong
sh ui
1 0
ch ao
zhu ang
ch a
d ou
c an
t ou
r an
s e
d uan
c un
h uan
c ong
pi n
c e
ch an
x un
g ou
0 0
n v
zh ao
g an
ch ong
sh a
t an
1 8
qi n
k a
m eng
qi ang
hu ang
xi u
1 2
ti ao
m an
sh ao
k uo
l ong
p ian
sh uo
t uan
t ang
r ong
g eng
20 2
ch en
t ui
g en
q ue
ti e
1 1
qi e
w o
p o
p ei
h ang
h ong
19 9
b ang
li ao
chu ang
bi e
r e
t uo
t ao
s ong
w a
m ai
h a
1 5
p an
d un
di ao
qi ao
s a
m ao
l ang
k an
k ang
â Ģ
o r
l ao
z eng
1 6
19 8
k ao
xi ong
1 7
o n
n uo
mi ao
r ang
ku ang
h en
s uan
1 4
3 0
zh un
1 3
19 4
c ao
h un
q un
n ong
19 7
h eng
shu ang
l ou
g ei
ku ai
pi ao
zh a
h ei
ni u
19 5
s en
bi n
r eng
z ou
19 6
ch un
k uan
2 5
âĢ Ķ
r ui
s un
p ao
n ing
f or
p a
c ang
m ou
2 4
p eng
hu ai
2 1
19 3
2 3
mu la
for mula
2 8
z an
r uo
i n
2 2
ch ou
zh ui
a r
m e
2 6
5 0
20 20
2 7
n ai
n u
ï ¼
2 9
sh un
201 0
z a
00 0
lv e
zh ai
20 19
n e
r o
j uan
s t
r a
c ui
k un
201 6
l uan
201 8
c uo
202 1
z ang
201 4
shu ai
201 1
201 5
201 7
201 2
4 0
201 3
n ao
202 2
di e
r uan
k ui
l t
r ou
c u
s ang
200 9
200 8
ã ĥ
6 0
ni ao
a l
r ao
ch ai
10 0
zh uo
202 3
g t
s ou
19 0
3 1
k en
200 7
200 1
t eng
p ang
f ou
c o
f o
gu a
200 0
8 0
200 6
202 4
ã ģ
200 5
z un
ti on
ku a
t he
3 5
7 0
ni e
l o
o f
9 0
l eng
ï¼ į
ã Ĥ
a m
t un
t er
mi e
200 4
t h
t o
4 5
4 8
m ang
202 5
v e
g a
ãĢ ī
ãĢ Ī
3 6
3 8
200 3
3 7
M a
ch ui
p en
l l
18 9
I N
200 2
k eng
T C
d o
3 4
7 5
âĢ ĵ
C o
4 6
c a
199 0
âĢ ¦
c k
3 9
. .
b e
6 5
3 2
S T
4 7
U TC
199 9
199 8
198 0
18 8
5 00
3 3
I n
6 4
s s
T he
v i
S E
5 5
199 7
R e
h i
4 9
I I
e l
6 8
e t
4 4
199 6
o o
qi ong
199 4
g un
b r
gu ai
199 2
199 5
M i
6 7
an d
s ao
e s
199 1
197 0
5 8
195 0
3 00
199 3
18 7
194 9
a t
A T
p e
196 0
4 2
194 5
L i
v er
qi a
198 8
t y
198 9
6 9
R o
i s
r un
SE E
ni ang
IN SEE
h o
5 9
4 3
6 6
5 7
198 5
9 9
S A
ãĢ İ
ãĢ ı
c t
198 4
4 1
8 8
198 6
w i
o l
w s
T V
r y
15 0
M e
n d
4 00
198 7
7 8
198 2
5 6
b eng
V i
P a
t s
198 3
am p
N A
D e
C D
g h
f i
w eng
b er
7 7
W in
p er
z uan
S ta
7 9
O S
W i
Â °
ï ½
de r
18 0
B C
5 4
197 9
6 1
19 20
a s
M o
s eng
9 8
5 2
Y ou
197 8
n o
6 2
5 3
l y
shu a
L a
ï½ ŀ
B A
194 6
C O
5 1
195 8
g i
J o
198 1
197 2
194 8
L e
t w
A M
6 3
A R
c tion
194 1
B S
G a
19 30
D a
P ro
T e
7 6
han s
194 0
193 7
197 6
194 4
J a
8 9
u s
D i
Win do
197 5
ï¼ ı
196 8
h k
c on
F i
u m
S i
10 00
Windo ws
9 5
8 7
na l
M ar
196 6
r d
8 5
N e
R a
k i
6 00
1 20
194 7
S e
A C
195 6
196 4
B e
194 2
Ã ©
195 5
195 2
I S
a d
193 9
193 8
7 2
u r
7 4
C a
v a
197 3
197 4
195 4
A r
A l
E D
19 00
- -
A P
194 3
T o
197 7
l d
197 1
c en
la y
196 7
B a
I C
8 00
P o
L o
E R
zhu a
s ta
8 6
195 9
B o
t t
196 5
J R
196 9
F a
ãĥ »
Ã Ĺ
I D
B i
s on
193 6
16 0
9 7
195 3
S a
M A
196 2
196 1
n en
N a
â Ķ
S o
193 5
co m
H o
ti c
9 6
O N
ï¼ ħ
195 1
S t
195 7
196 3
T u
âĶ Ģ
f e
s o
shi Ġ
de Ġ
Ġ shiĠ
Ġ deĠ
yi Ġ
Ġ yiĠ
ji Ġ
wei Ġ
zhi Ġ
yu Ġ
Ġ weiĠ
Ġ jiĠ
Ġ nian
Ġ zhiĠ
Ġ yuĠ
Ġ li
Ġnian Ġ
zhong Ġ
Ġli Ġ
zai Ġ
ren Ġ
you Ġ
guo Ġ
he Ġ
qi Ġ
bu Ġ
di Ġ
Ġ youĠ
Ġ zaiĠ
Ġ renĠ
Ġ yue
Ġ zhongĠ
Ġ heĠ
da Ġ
xi Ġ
xing Ġ
yuan Ġ
er Ġ
gong Ġ
Ġyue Ġ
fu Ġ
si Ġ
ge Ġ
jian Ġ
Ġ guoĠ
wu Ġ
jia Ġ
Ġ buĠ
jie Ġ
ke Ġ
cheng Ġ
zhu Ġ
sheng Ġ
xiang Ġ
xian Ġ
dao Ġ
bei Ġ
zi Ġ
Ġ qiĠ
fa Ġ
hui Ġ
chu Ġ
jin Ġ
Ġ diĠ
shu Ġ
Ġ erĠ
ri Ġ
Ġ xiĠ
ju Ġ
qu Ġ
zheng Ġ
hou Ġ
shou Ġ
ming Ġ
shang Ġ
dong Ġ
le Ġ
ta Ġ
jing Ġ
xue Ġ
fang Ġ
yan Ġ
zhan Ġ
ci Ġ
bao Ġ
hua Ġ
ying Ġ
ye Ġ
tong Ġ
zuo Ġ
zhe Ġ
guan Ġ
Ġ daĠ
Ġ riĠ
yin Ġ
chang Ġ
xin Ġ
jiao Ġ
lu Ġ
dui Ġ
wen Ġ
ti Ġ
fen Ġ
qian Ġ
tai Ġ
jiang Ġ
xiao Ġ
bing Ġ
Ġ siĠ
jun Ġ
dian Ġ
zhang Ġ
ping Ġ
xia Ġ
du Ġ
huo Ġ
yong Ġ
dan Ġ
Ġ keĠ
Ġ jiaĠ
hai Ġ
gai Ġ
wang Ġ
dai Ġ
nan Ġ
ru Ġ
qing Ġ
mu Ġ
bi Ġ
ban Ġ
liang Ġ
lai Ġ
mei Ġ
ya Ġ
shen Ġ
zu Ġ
Ġ xingĠ
Ġ fuĠ
wan Ġ
she Ġ
lian Ġ
min Ġ
mi Ġ
zhou Ġ
an Ġ
jiu Ġ
qiu Ġ
zhen Ġ
ben Ġ
xu Ġ
gao Ġ
bo Ġ
Ġ taĠ
xie Ġ
te Ġ
bian Ġ
ling Ġ
luo Ġ
yao Ġ
deng Ġ
duo Ġ
yang Ġ
quan Ġ
che Ġ
suo Ġ
zui Ġ
tian Ġ
gu Ġ
biao Ġ
fan Ġ
hu Ġ
yun Ġ
xuan Ġ
su Ġ
shan Ġ
fei Ġ
ding Ġ
liu Ġ
zong Ġ
sai Ġ
dang Ġ
ma Ġ
kai Ġ
ba Ġ
hao Ġ
ĠdeĠ yiĠ
Ġ bingĠ
Ġ daoĠ
feng Ġ
kou Ġ
tu Ġ
mian Ġ
men Ġ
nei Ġ
la Ġ
lei Ġ
san Ġ
cai Ġ
wai Ġ
chuan Ġ
jue Ġ
pai Ġ
chi Ġ
Ġ danĠ
Ġ jinĠ
Ġ beiĠ
Ġ gongĠ
Ġ jianĠ
guang Ġ
ĠshiĠ yiĠ
lan Ġ
ni Ġ
gui Ġ
bai Ġ
Ġ ziĠ
lin Ġ
ting Ġ
Ġ zheĠ
pu Ġ
Ġ xiangĠ
na Ġ
gang Ġ
lun Ġ
neng Ġ
han Ġ
lie Ġ
ze Ġ
Ġ zhuĠ
cheng ĠweiĠ
mo Ġ
Ġ yinĠ
Ġ geĠ
Ġ xianĠ
Ġ chuĠ
ĠshiĠ deĠ
mei ĠguoĠ
chan Ġ
shui Ġ
Ġ juĠ
Ġ chengĠ
ĠdeĠ shiĠ
Ġ jieĠ
Ġ gaiĠ
Ġ wuĠ
sui Ġ
xun Ġ
zhuan Ġ
Ġ baoĠ
lv Ġ
Ġ pingĠ
Ġ ta
e Ġ
ao Ġ
li Ġ
zhuang Ġ
tou Ġ
duan Ġ
1 Ġ
ĠyiĠ jiĠ
se Ġ
huan Ġ
chong Ġ
ĠweiĠ yuĠ
ceng Ġ
pin Ġ
a Ġ
cong Ġ
cha Ġ
di ĠyiĠ
cun Ġ
dou Ġ
zao Ġ
Ġ houĠ
kong Ġ
zhao Ġ
gou Ġ
2 Ġ
gan Ġ
sha Ġ
Ġ ciĠ
qiang Ġ
ce Ġ
ĠshiĠ jiĠ
chao Ġ
ai Ġ
meng Ġ
kai ĠshiĠ
man Ġ
Ġ yeĠ
tang Ġ
long Ġ
kuo Ġ
Ġ dan
ke ĠyiĠ
Ġ faĠ
ĠyiĠ geĠ
Ġ yuanĠ
tan Ġ
tuan Ġ
Ġ shengĠ
ĠshiĠ weiĠ
ka Ġ
gong ĠliĠ
ĠzhongĠ guoĠ
qin Ġ
Ġ tong
tie Ġ
ĠshiĠ shiĠ
Ġ bing
zhengĠ fuĠ
Ġ mingĠ
shao Ġ
can Ġ
pian Ġ
Ġ you
huo ĠdeĠ
mian ĠjiĠ
hang Ġ
hong Ġ
geng Ġ
Ġ huoĠ
ji ĠdeĠ
ĠshiĠ yongĠ
tiao Ġ
xiu Ġ
chen Ġ
shuo Ġ
pi Ġ
3 Ġ
Ġ dongĠ
ren ĠweiĠ
ĠshiĠ jianĠ
tao Ġ
zhi ĠyiĠ
ran Ġ
zhong ĠdeĠ
zheng ĠzhiĠ
huang Ġ
ĠyiĠ zhiĠ
ĠshiĠ jieĠ
zhongĠ guoĠ
yue Ġ
chuang Ġ
nv Ġ
qu ĠdeĠ
guo ĠjiĠ
Ġ ri
yi ĠshiĠ
ĠpingĠ fangĠ
wo Ġ
renĠ kouĠ
xing ĠdeĠ
po Ġ
ou Ġ
jinĠ xingĠ
rong Ġ
Ġ shouĠ
liao Ġ
tuo Ġ
diao Ġ
mei ĠyouĠ
song Ġ
Ġli ĠdeĠ
nian Ġ
Ġ suiĠ
Ġli ĠshiĠ
Ġ dang
ĠweiĠ yuanĠ
pei Ġ
pan Ġ
ĠqiĠ zhongĠ
Ġ miĠ
Ġ fenĠ
zuo ĠweiĠ
gongĠ siĠ
fa ĠguoĠ
biao ĠshiĠ
Ġ haoĠ
ĠĠĠ zaiĠ
Ġ wanĠ
yanĠ jiuĠ
Ġ er
zheng ĠshiĠ
Ġ haiĠ
Ġ yin
Ġ shangĠ
ĠdeĠ jiĠ
tui Ġ
que Ġ
Ġ zhe
dian ĠshiĠ
yunĠ dongĠ
Ġ xinĠ
qie Ġ
bang Ġ
Ġ meiĠ
ĠdeĠ diĠ
Ġ taiĠ
cheng ĠshiĠ
zhi ĠshiĠ
Ġ jiangĠ
Ġ jingĠ
Ġ shuĠ
jian ĠdeĠ
ta ĠdeĠ
gong ĠheĠ
shu ĠyuĠ
she ĠjiĠ
lang Ġ
Ġ qianĠ
ĠrenĠ minĠ
dun Ġ
ĠrenĠ kouĠ
zhi ĠdeĠ
qiao Ġ
10 ĠyueĠ
12 ĠyueĠ
ĠdeĠ zhiĠ
jing ĠjiĠ
7 ĠyueĠ
dianĠ yingĠ
Ġ yingĠ
Ġ xiaĠ
Ġ nanĠ
zu ĠzhiĠ
9 ĠyueĠ
Ġ muĠ
Ġ zhangĠ
8 ĠyueĠ
zhu ĠyiĠ
4 Ġ
3 ĠyueĠ
Ġ zuiĠ
1 ĠyueĠ
mao Ġ
ĠshiĠ qiĠ
daiĠ biaoĠ
wa Ġ
riĠ benĠ
5 Ġ
s Ġ
ying ĠguoĠ
5 ĠyueĠ
you ĠyiĠ
ji ĠshiĠ
kao Ġ
6 ĠyueĠ
re Ġ
guo ĠdeĠ
kan Ġ
4 ĠyueĠ
ĠshiĠ zhenĠ
Ġ huiĠ
hen Ġ
mai Ġ
xian ĠdeĠ
wei ĠyiĠ
11 ĠyueĠ
cheĠ zhanĠ
jiao ĠyuĠ
gen ĠjuĠ
Ġ tongĠ
buĠ fenĠ
yi ĠdeĠ
daĠ xueĠ
yu ĠshiĠ
Ġ biĠ
xiangĠ gangĠ
ming ĠweiĠ
xueĠ yuanĠ
ĠdeĠ guoĠ
ĠyiĠ yuanĠ
li ĠshiĠ
ĠdeĠyiĠ geĠ
ĠzhiĠ houĠ
Ġ ruĠ
dan ĠrenĠ
gen Ġ
ĠnianĠ 1ĠyueĠ
can ĠjiaĠ
Ġ dengĠ
ĠyiĠ weiĠ
cao Ġ
kang Ġ
sheĠ huiĠ
xian ĠshiĠ
Ġ tiĠ
ĠdiĠ quĠ
sa Ġ
Ġ qingĠ
yingĠ xiangĠ
taiĠ wanĠ
s ĠĠĠ
shu ĠdeĠ
Ġ ran
bie Ġ
Ġyou ĠyuĠ
shang ĠdeĠ
xing ĠshiĠ
ye ĠshiĠ
qi ĠshiĠ
ĠyinĠ ciĠ
formula Ġ
guan ĠliĠ
lao Ġ
Ġ yanĠ
zeng Ġ
gongĠ zuoĠ
tong ĠguoĠ
le ĠyiĠ
Ġ xueĠ
ĠnianĠ 12ĠyueĠ
6 Ġ
Ġ xiaoĠ
Ġ lingĠ
xingĠ zhengĠ
bu ĠdeĠ
gongĠheĠ guoĠ
wei ĠshiĠ
ĠliĠ yaĠ
er ĠshiĠ
Ġnian ĠdeĠ
ren ĠdeĠ
zhun Ġ
zi ĠjiĠ
da ĠdeĠ
xiong Ġ
2 ĠyueĠ
ĠguoĠ jiaĠ
zui ĠzhongĠ
ĠnianĠ 3ĠyueĠ
hui ĠyiĠ
kuang Ġ
ĠĠĠ shengĠ
nong Ġ
cheng ĠliĠ
ĠpingĠfangĠ gongĠliĠ
Ġ liangĠ
luo ĠsiĠ
ku Ġ
ĠnianĠ 7ĠyueĠ
Ġ jiaoĠ
ĠnianĠ 10ĠyueĠ
faĠ xianĠ
chu ĠdeĠ
miao Ġ
ha Ġ
Ġ wangĠ
Ġ zhanĠ
ĠbaoĠ kuoĠ
qi ĠdeĠ
faĠ zhanĠ
ĠnianĠ 9ĠyueĠ
Ġ C
hei Ġ
yuan ĠdeĠ
ĠshiĠ youĠ
ĠshiĠ zhiĠ
qiĠ taĠ
ĠnianĠ 5ĠyueĠ
ĠqiĠ jianĠ
piao Ġ
kuai Ġ
suo ĠyouĠ
si ĠdeĠ
Ġ boĠ
Ġ tianĠ
ĠnianĠ 4ĠyueĠ
ĠnianĠ 6ĠyueĠ
en Ġ
ĠnianĠ 8ĠyueĠ
you ĠyuĠ
tieĠ luĠ
ĠdaĠ xueĠ
quan ĠguoĠ
ĠshiĠ zaiĠ
dao ĠzhiĠ
Ġ luoĠ
dao ĠdeĠ
tong ĠdeĠ
zhuĠ yaoĠ
cheng ĠdeĠ
can ĠyuĠ
lou Ġ
nuo Ġ
shuang Ġ
Ġ 19
wenĠ huaĠ
Ġ zhengĠ
Ġ maĠ
Ġ huaĠ
di ĠliĠ
zhong ĠyiĠ
ĠtaĠ menĠ
Ġ duiĠ
lian ĠheĠ
di ĠdeĠ
ĠzhiĠ daoĠ
Ġ luĠ
ĠnianĠ 11ĠyueĠ
baoĠ kuoĠ
Ġ dangĠ
Ġtong ĠshiĠ
Ġ guĠ
Ġ shenĠ
bu ĠshiĠ
ĠĠĠ S
ĠzhongĠ xinĠ
yin ĠyueĠ
ĠĠĠ shiĠ
bei ĠbuĠ
sen Ġ
shu ĠjiĠ
yong ĠyuĠ
Ġ jiuĠ
ĠĠĠ yiĠ
tiĠ gongĠ
zai ĠyiĠ
Ġ quanĠ
xuan ĠbuĠ
guoĠ jiaĠ
Ġ zongĠ
ĠweiĠyuanĠ huiĠ
zuĠ qiuĠ
wenĠ tiĠ
Ġnian ĠzhiĠ
Ġ sui
kuan Ġ
xueĠ xiaoĠ
Ġyin ĠweiĠ
sheng ĠyuĠ
ĠshiĠ wuĠ
jian ĠyuĠ
zi ĠyouĠ
Ġ zuoĠ
qianĠ miĠ
Ġ A
gong ĠyouĠ
guan ĠxiĠ
fang ĠshiĠ
ĠweiĠ zhiĠ
ĠshiĠ zhongĠ
hun Ġ
ĠnianĠ 2ĠyueĠ
Ġ xuĠ
biĠ saiĠ
hua ĠrenĠminĠ
chengĠ yuanĠ
ying ĠdeĠ
rang Ġ
jianĠ zhuĠ
huoĠ dongĠ
jian ĠliĠ
Ġ gai
heng Ġ
suan Ġ
yu ĠyiĠ
t Ġ
ĠĠĠ liĠshiĠ
ji ĠyiĠ
fen ĠweiĠ
ĠdeĠ renĠ
zuoĠ pinĠ
she ĠyouĠ
ren ĠshiĠ
tong ĠshiĠ
guanĠ junĠ
Ġ dianĠ
Ġ S
Ġ benĠ
Ġ changĠ
ĠĠĠ C
da ĠliĠ
ge ĠrenĠ
ĠĠĠshengĠ pingĠ
Ġ chengĠweiĠ
zhuan ĠjiĠ
Ġ anĠ
Ġ jie
yu ĠdeĠ
ĠdiĠ erĠ
beiĠ jingĠ
Ġ xian
ĠjiĠ huaĠ
ĠyouĠ xiĠ
jiu ĠshiĠ
xiao ĠshiĠ
Ġ liuĠ
huaĠrenĠminĠ gongĠheĠguoĠ
yin ĠweiĠ
Ġta ĠdeĠ
Ġ baĠ
men ĠdeĠ
Ġli ĠyuĠ
qun Ġ
ĠnianĠ daiĠ
dui ĠyuĠ
Ġ aĠ
xi ĠdeĠ
ming ĠdeĠ
jun ĠshiĠ
di ĠshiĠ
tong ĠyiĠ
Ġ congĠ
gei Ġ
diĠ erĠ
xin ĠdeĠ
xueĠ jiaĠ
qu ĠyuĠ
ĠbuĠ fenĠ
eĠ luoĠsiĠ
zou Ġ
t ĠĠĠ
taĠ menĠ
er ĠdeĠ
chun Ġ
Ġ duoĠ
wei ĠdeĠ
shouĠ daoĠ
min ĠguoĠ
hou ĠdeĠ
sheng ĠdeĠ
lai ĠdeĠ
fangĠ mianĠ
faĠ shengĠ
zhengĠ fu
gong ĠjiĠ
dan ĠweiĠ
xing ĠweiĠ
ĠshiĠ renĠ
ĠyiĠ jingĠ
Ġ fengĠ
yong ĠyouĠ
Ġ huĠ
Ġ fanĠ
Ġ 18
zhong ĠshiĠ
jin ĠshiĠ
ĠxiĠ tongĠ
jueĠ dingĠ
bu ĠyuĠ
ĠzhongĠ yangĠ
ju ĠyouĠ
Ġ lianĠ
Ġ mianĠjiĠ
1 ĠriĠ
tong ĠzhiĠ
Ġ quĠ
diĠ quĠ
niĠ yaĠ
liangĠ geĠ
faĠ xingĠ
7 Ġ
qu ĠweiĠ
ĠriĠ benĠ
Ġ guanĠ
Ġ feiĠ
Ġ gaoĠ
you ĠdeĠ
chuĠ xianĠ
sheng ĠjiĠ
ĠĠĠ A
Ġ wenĠ
Ġ teĠ
zh Ġ
hua ĠdeĠ
ĠrenĠkouĠ miĠ
ci ĠshiĠ
Ġ 15
qi ĠyuĠ
zi ĠzhiĠ
wu ĠdeĠ
juĠ xingĠ
laiĠ ziĠ
Ġta ĠzaiĠ
ling ĠyiĠ
jia ĠdeĠ
Ġ suoĠ
ĠjiĠ yuĠ
xian ĠzhiĠ
ĠweiĠ jiĠ
mianĠjiĠ weiĠ
Ġ suo
hui ĠdeĠ
Ġ suĠ
baoĠ huĠ
Ġ sanĠ
nan ĠbuĠ
du ĠliĠ
ĠpingĠfangĠ qianĠmiĠ
shuĠ juĠ
kong ĠzhiĠ
ĠshiĠ yuĠ
zongĠ tongĠ
jinĠ ruĠ
ĠshiĠweiĠ yuĠ
ĠliĠ ruĠ
renĠ wuĠ
qu ĠshiĠ
ke ĠliĠ
yaoĠ qiuĠ
mou Ġ
Ġ 0
8 Ġ
Ġ woĠ
Ġ meiĠguoĠ
gt Ġ
Ġ gtĠ
gu ĠshiĠ
ĠĠĠ deĠ
cheng ĠjiĠ
Ġ a
Ġran ĠerĠ
d ĠĠĠ
Ġ guangĠ
lt Ġ
Ġ ru
xueĠ shengĠ
ĠĠĠ yuĠ
jin ĠdeĠ
Ġdan ĠshiĠ
wanĠ chengĠ
Ġ bianĠ
minĠ zhuĠ
gong ĠshiĠ
ĠyiĠ qiĠ
lieĠ cheĠ
Ġ P
you ĠjiĠ
keĠ nengĠ
Ġ caiĠ
Ġ ltĠ
ĠyiĠ buĠ
Ġ 16
shen ĠzhiĠ
Ġbing ĠyuĠ
zha Ġ
ren ĠzhiĠ
pingĠ fangĠ
you ĠshiĠ
Ġbing ĠzaiĠ
ĠjiĠ shuĠ
chao ĠguoĠ
ti ĠyuĠ
Ġ yongĠ
yuan ĠshiĠ
cang Ġ
cun ĠzaiĠ
qianĠ wangĠ
ke ĠdeĠ
ya ĠliĠ
dang ĠshiĠ
si ĠshiĠ
xue ĠxiĠ
yong ĠdeĠ
ĠdeĠyiĠ ge
jing ĠguoĠ
nei ĠdeĠ
fa ĠbuĠ
zuo ĠdeĠ
ĠzhiĠ weiĠ
Ġ shanĠ
Ġ ceng
jian ĠyiĠ
guan ĠyuĠ
Ġ hanĠ
Ġ wan
Ġ B
wuĠ keĠ
ĠĠĠ diĠ
xiangĠ gang
wu ĠshiĠ
zhu ĠrenĠ
ĠzhiĠ jianĠ
yinĠ duĠ
Ġ puĠ
Ġ kaiĠ
zhan ĠshiĠ
zhanĠ zhengĠ
ĠqiĠ taĠ
guo ĠshiĠ
sun Ġ
pao Ġ
Ġ ba
zhuĠ yao
shengĠ huoĠ
zhou ĠdeĠ
xuĠ duoĠ
jian ĠzhiĠ
ĠjiĠ weiĠ
Ġ gongĠliĠ
fan ĠweiĠ
ĠyiĠ shuĠ
ĠjiĠ qiĠ
ĠweiĠ erĠ
bin Ġ
chengĠ gongĠ
han ĠguoĠ
Ġ 17
ouĠ zhouĠ
zhuĠ xiĠ
lu ĠdeĠ
fuĠ wuĠ
jieĠ shouĠ
qiuĠ duiĠ
ĠzhiĠ youĠ
Ġ shuĠyuĠ
daiĠ biao
ĠjiĠ zhongĠ
Ġ zai
Ġ jin
zeng ĠjiaĠ
ĠbuĠ guoĠ
ban ĠdeĠ
gongĠ yuanĠ
ĠyouĠ xianĠ
Ġ M
xiaoĠ xingĠ
Ġ 000
Ġ moĠ
xia ĠdeĠ
ĠĠĠ gaiĠ
ĠzheĠ xieĠ
shangĠ haiĠ
ĠzhiĠ chuĠ
he ĠyiĠ
duo ĠdeĠ
Ġ aoĠ
ĠĠĠ P
hou ĠyiĠ
san ĠshiĠ
ĠĠĠ zhiĠ
Ġ baiĠ
ĠciĠ waiĠ
fu ĠdeĠ
ju ĠliĠ
si ĠjiĠ
Ġ H
zuĠ chengĠ
huai Ġ
Ġ genĠjuĠ
ning Ġ
yunĠdongĠ yuanĠ
jiaoĠ tongĠ
ĠzhiĠ zuoĠ
ĠzhiĠ chiĠ
y Ġ
Ġ E
ma ĠweiĠ
gaoĠ duĠ
chang ĠdeĠ
ĠnianĠ qiĠ
m Ġ
zhuĠ jiaoĠ
Ġ zhĠ
Ġ D
zheĠ xieĠ
niu Ġ
d Ġ
ge ĠzhongĠ
xuĠ yaoĠ
ĠzhiĠ wuĠ
Ġ ãĥ
ĠzaiĠ ciĠ
jueĠ seĠ
chongĠ xinĠ
chuĠ leĠ
y ĠĠĠ
ti ĠdeĠ
tui ĠchuĠ
Ġli ĠjiĠ
zheĠ geĠ
jing ĠliĠ
Ġ cengĠ
xiang ĠdeĠ
Ġ zuiĠzhongĠ
gongĠ chengĠ
Ġdang ĠshiĠ
n Ġ
qi ĠyiĠ
da ĠshiĠ
chu ĠyuĠ
ĠrenĠ heĠ
wu ĠzhongĠ
du ĠweiĠ
renĠ minĠ
zi ĠdeĠ
Ġ T
xuanĠ juĠ
Ġ ai
Ġ sheĠ
lianĠ saiĠ
ĠĠĠ diĠliĠ
ziĠ jiĠdeĠ
kaiĠ faĠ
ĠweiĠ leĠ
ĠrenĠ wuĠ
geĠ quĠ
Ġ ye
ĠnianĠ jianĠ
Ġ duĠ
dang ĠdiĠ
Ġ huo
fuĠ zeĠ
Ġ ma
xian ĠzaiĠ
ĠweiĠ qiĠ
gongĠ chanĠ
ĠĠĠ weiĠ
ĠzhiĠ yuĠ
ĠrenĠ yuanĠ
zhe ĠyiĠ
Ġ laiĠ
liang ĠweiĠ
jieĠ shuĠ
ya ĠdeĠ
chu ĠliĠ
jieĠ muĠ
guan ĠdeĠ
nv ĠziĠ
sai ĠshiĠ
Ġ leiĠ
2010 ĠnianĠ
ding ĠdeĠ
rui Ġ
dui ĠdeĠ
fanĠ yingĠ
Ġ 1
riĠ ben
ĠhouĠ laiĠ
chuĠ banĠ
jie ĠdeĠ
chanĠ shengĠ
shouĠ ciĠ
juan Ġ
she ĠshiĠ
lei ĠsiĠ
ĠshiĠyiĠ geĠ
ba ĠshiĠ
dongĠ wuĠ
Ġ G
jing ĠshiĠ
ĠjiĠ xuĠ
le ĠbuĠ
jie ĠshiĠ
Ġ zuĠ
xiang ĠshiĠ
Ġ banĠ
Ġ naĠ
bo ĠshiĠ
an ĠdeĠ
keĠ neng
ruo Ġ
nanĠ ziĠ
du ĠdeĠ
guanĠ xiaĠ
san ĠnianĠ
Ġ aiĠ
zao ĠchengĠ
hai ĠshiĠ
yang ĠdeĠ
dong ĠshiĠ
Ġ mei
Ġ jiang
she ĠliĠ
10 Ġ
Ġ 1Ġ
yanĠ jiu
Ġ yangĠ
zhong ĠzhiĠ
daoĠ leĠ
shan ĠxiĠ
guo ĠyiĠ
9 Ġ
ĠjiĠ zhiĠ
Ġsuo ĠyiĠ
zhong ĠyuĠ
fen ĠbuĠ
nv ĠxingĠ
ĠheĠ zuoĠ
Ġ zhenĠ
dou ĠshiĠ
Ġ yaĠ
jun ĠdeĠ
guo ĠyuĠ
ĠĠĠ qiĠ
dong ĠdeĠ
lianĠ mengĠ
dai ĠdeĠ
zheng ĠdeĠ
fangĠ faĠ
ĠzhiĠ zhiĠ
Ġ 14
2020 ĠnianĠ
caiĠ yongĠ
ĠyiĠ siĠ
jiaoĠ shouĠ
wu ĠliĠ
xiangĠ muĠ
fang ĠdeĠ
meiĠ pingĠfangĠ
zhengĠzhiĠ renĠwuĠ
di ĠweiĠ
liang ĠdeĠ
ĠzaiĠ diĠ
Ġ cong
ĠĠĠ renĠkouĠ
Ġ tuĠ
chuanĠ tongĠ
yuan ĠyuĠ
zhan ĠdeĠ
zhu ĠdeĠ
Ġ ãĤ
huaĠ minĠguoĠ
ĠĠĠ youĠ
xiĠ tongĠ
cheng ĠrenĠ
A Ġ
ĠĠĠ B
Ġ ãģ
jiaĠ ruĠ
fa ĠdeĠ
ge ĠshiĠ
2001 ĠnianĠ
ĠĠĠ G
Ġnian ĠyiĠ
yanĠ yuanĠ
xinĠ wenĠ
Ġ daiĠ
Ġ ranĠ
hao ĠdeĠ
Ġ guiĠ
Ġ zeĠ
ĠliĠ siĠ
ĠjiĠ jiĠ
fu ĠshiĠ
ĠyiĠ huiĠ
ĠĠĠ jiĠ
xiangĠ guanĠ
ying ĠyuĠ
dao ĠshiĠ
bianĠ maĠweiĠ
bei ĠrenĠ
taiĠ wan
he ĠshiĠ
ĠjiĠ luĠ
ĠĠĠ M
Ġ xuanĠ
ĠtaĠ men
boĠ wuĠ
xue ĠdeĠ
hou ĠzaiĠ
lianĠ jieĠ
ĠweiĠ fuĠ
ĠdeĠyiĠge ĠshiĠzhenĠ
ĠyiĠ yiĠ
Ġri ĠzaiĠ
ĠxueĠ mingĠ
tiĠ chuĠ
mingĠ chengĠ
xi ĠjiĠ
zui ĠjiaĠ
ĠxiĠ yaĠ
mu ĠsiĠ
baoĠ kuo
er ĠnianĠ
ling ĠshiĠ
Ġzhe ĠshiĠ
xiao ĠdeĠ
hai ĠyouĠ
mian ĠdeĠ
ĠweiĠ zhuĠ
ĠrenĠkouĠmiĠ duĠ
ge ĠdeĠ
Ġli ĠyiĠ
ĠzhiĠ jieĠ
zuiĠ gaoĠ
Ġ laĠ
Ġ xieĠ
dong ĠjiĠ
Ġ zong
ĠĠĠ H
ĠĠĠ jiaĠ
ĠĠĠ T
ĠshiĠyiĠ zhongĠ
Ġ yeĠshiĠ
bei ĠshiĠ
yan ĠdeĠ
xia ĠjiĠ
Ġ yuĠshiĠ
ye ĠyuĠ
geĠ mingĠ
Ġ zhouĠ
ĠnianĠ zaiĠ
yao ĠdeĠ
gai ĠweiĠ
ĠgongĠ siĠ
ĠyiĠ xieĠ
zai ĠdeĠ
haiĠ junĠ
shu ĠshiĠ
Ġ ci
jia ĠzhiĠ
Ġ Ð
Ġ fangĠ
zhe ĠzhongĠ
shengĠ wuĠ
chang ĠshiĠ
hui ĠshiĠ
yan ĠzhongĠ
gai ĠguoĠ
na ĠdaĠ
Ġ kaĠ
zhu ĠshiĠ
luan Ġ
zheng ĠyiĠ
bian ĠdeĠ
Ġ qiuĠ
qingĠ kuang
ke ĠjiĠ
huiĠ fuĠ
ĠzhiĠ qianĠ
Ġ N
chou Ġ
Ġ liang
zai ĠyuĠ
meiĠ tiĠ
minĠ zuĠ
xin ĠxiĠ
zhai Ġ
Ġ F
jie ĠguoĠ
ĠyiĠ zhongĠ
Ġ junĠ
gao ĠdeĠ
wenĠ wuĠ
Ġ 2Ġ
Ġ zuoĠweiĠ
Ġ 2
Ġ 3
jian ĠshiĠ
qi ĠzhiĠ
ĠjiĠ zaiĠ
yanĠ changĠ
shui ĠyuĠ
qian ĠdeĠ
he ĠdeĠ
zhuĠ jianĠ
Ġ niĠ
fanĠ duiĠ
neng ĠliĠ
ĠweiĠ youĠ
ĠkeĠ siĠ
Ġ 12
ĠĠĠ xingĠzhengĠ
gongĠ kaiĠ
ge ĠliĠ
hua ĠshiĠ
ĠbuĠ tongĠ
xing ĠzhiĠ
3 ĠnianĠ
si ĠyuĠ
lei ĠdeĠ
ĠzhuĠ yaoĠ
Ġ chongĠ
jieĠ gouĠ
huanĠ jingĠ
jiangĠ junĠ
zhang ĠdeĠ
xian ĠyuĠ
Ġ keĠyiĠ
gaoĠ suĠ
ĠxiangĠ gangĠ
chuangĠ zuoĠ
shangĠ yeĠ
zan Ġ
ĠĠĠ benĠ
Ġ K
peng Ġ
ĠĠĠ formulaĠ
sai ĠjiĠ
ĠzheĠ geĠ
mo ĠshiĠ
a ĠerĠ
Ġ I
Ġ mi
zhe ĠdeĠ
biaoĠ xianĠ
Ġ diĠyiĠ
tong ĠjiĠ
ĠzhongĠ huaĠrenĠminĠgongĠheĠguoĠ
junĠ duiĠ
Ġ ling
Ġli ĠweiĠ
daĠ luĠ
Ġ chenĠ
shengĠ yaĠ
zhu ĠliĠ
ge ĠyueĠ
sheng ĠliĠ
Ġ hongĠ
wuĠ faĠ
quan ĠliĠ
zongĠ jiaoĠ
Ġ 7
Ġ 9
dong ĠbuĠ
Ġ tangĠ
zhou ĠshiĠ
geĠ lanĠ
Ġnian ĠshiĠ
diaoĠ chaĠ
si ĠnianĠ
tou ĠguoĠ
ĠyiĠ banĠ
buĠ fen
Ġ yunĠ
biaoĠ zhunĠ
ĠĠĠ genĠjuĠ
hangĠ kongĠ
biĠ yeĠ
hui ĠzaiĠ
shenĠ fenĠ
ĠĠĠ ciĠ
ĠyiĠ ciĠ
Ġdang ĠdiĠ
di ĠzhiĠ
gongĠ luĠ
Ġ 8
faĠ yuanĠ
ĠdeĠyiĠ buĠfenĠ
ĠĠĠ E
Ġ yaoĠ
bu ĠyiĠ
Ġ neiĠ
di ĠyuĠ
jia ĠliĠ
gongĠ zuo
jin ĠjiĠ
cheng ĠzhongĠ
bing ĠbuĠ
sai ĠdeĠ
quan ĠbuĠ
ĠtaiĠ wanĠ
baĠ gaoĠduĠ
xieĠ huiĠ
ĠjiĠ tuanĠ
feiĠ changĠ
jiao ĠshiĠ
anĠ quanĠ
dongĠ huaĠ
ĠzhiĠ xingĠ
bi ĠdeĠ
Ġ huangĠ
cha ĠdeĠ
ĠbingĠ qie
ĠĠĠ F
Ġ linĠ
shengĠ chanĠ
ziĠ liaoĠ
fu ĠheĠ
jing ĠdeĠ
tuanĠ tiĠ
Ġ 4
jie ĠzhiĠ
luoĠ maĠ
Ġ 10
chao ĠxianĠ
gai ĠdiĠ
fenĠ bie
1 ĠnianĠ
xingĠ dongĠ
pingĠ junĠ
ding ĠyiĠ
xia ĠyiĠ
jinĠ biaoĠ
Ġ liu
wenĠ xueĠ
ĠjinĠ xingĠ
qingĠ kuangĠ
ĠĠĠ 19
du ĠshiĠ
Ġ 5
renĠkouĠ puĠ
Ġru ĠguoĠ
la ĠsiĠ
Ġ ming
jia ĠjiĠ
Ġ zhuanĠ
gongĠ gongĠ
4 ĠnianĠ
jieĠ fangĠ
ĠzhiĠ yuanĠ
juĠ minĠ
ĠzhiĠ huiĠ
ĠqiĠ houĠ
dongĠ beiĠ
shou ĠdeĠ
Ġ gu
shang ĠshiĠ
yanĠ chuĠ
Ġ wo
S Ġ
ĠjiĠ diĠ
she ĠzhiĠ
ĠbaoĠ kuo
2 ĠnianĠ
qiuĠ yuanĠ
yuan ĠyiĠ
ĠyuĠ jiĠ
sai ĠzhongĠ
keĠ xueĠ
yan ĠshiĠ
gongĠ tongĠ
lingĠ daoĠ
Ġ da
ren ĠyiĠ
Ġ 13
zuoĠ pin
Ġ chuanĠ
er ĠjiĠ
zuo ĠyouĠ
Ġ si
Ġ nan
faĠ biaoĠ
T Ġ
zai ĠshiĠ
ĠdeĠ zhuĠ
28 ĠriĠ
sanĠ geĠ
aoĠ yunĠ
ye ĠyouĠ
kong ĠjianĠ
xing ĠjiĠ
gaiĠ bianĠ
wu ĠzhiĠ
deng ĠdiĠ
ĠlingĠ waiĠ
l Ġ
jia ĠshiĠ
ĠdiĠ guoĠ
youĠ xiĠ
yuan ĠheĠ
fang ĠzhiĠ
deng ĠrenĠ
Ġer ĠshiĠ
Ġ jiu
xue ĠshiĠ
guan ĠzhongĠ
lan ĠdeĠ
Ġ zhaoĠ
luĠ xianĠ
xue ĠweiĠ
fen ĠzhongĠ
shu ĠweiĠ
ze ĠshiĠ
ju ĠdeĠ
baoĠ daoĠ
Ġdan ĠrenĠ
Ġli ĠzhiĠ
Ġ R
qi ĠweiĠ
he ĠjiĠ
lve Ġ
chu ĠrenĠ
zhui Ġ
buĠ tongĠ
qing ĠnianĠ
2008 ĠnianĠ
ĠĠĠ the
guo ĠliĠ
zuoĠ yongĠ
aoĠ linĠ
bang ĠzhuĠ
pi ĠkeĠ
2016 ĠnianĠ
gong ĠdeĠ
ai ĠerĠ
zao ĠdaoĠ
ĠyuĠ qiĠ
ĠkeĠ nengĠ
ĠĠĠ zhongĠ
banĠ benĠ
jiang ĠqiĠ
zu ĠdeĠ
danĠ quĠ
taĠ men
Ġ huoĠdeĠ
ĠyuĠ yanĠ
ju ĠjiĠ
lu ĠdiĠ
tongĠ changĠ
gui ĠdaoĠ
ĠyouĠ guanĠ
ĠdaĠ daoĠ
15 ĠriĠ
ĠfuĠ zeĠ
shou ĠjiĠ
C Ġ
ĠyiĠ youĠ
fei ĠjiĠ
ĠyiĠ yuĠ
Ġ cheĠ
ĠĠĠ D
tu ĠdiĠ
xianĠ daiĠ
yuan ĠnianĠ
ĠzhiĠ jianĠdeĠ
ĠbingĠ qieĠ
2009 ĠnianĠ
ma ĠliĠ
yaĠ zhouĠ
sheng ĠdeĠyiĠgeĠshiĠzhenĠ
xiĠ banĠ
bianĠ huaĠ
ĠmuĠ qianĠ
Ġ L
jie ĠheĠ
jingĠ neiĠ
ĠĠĠ juĠ
gongĠ yeĠ
ĠshiĠ xingĠ
hui ĠheĠ
jueĠ saiĠ
wu ĠnianĠ
taiĠ pingĠ
Ġ shuiĠ
jia ĠyiĠ
zhengĠ ceĠ
hou ĠyuĠ
pa Ġ
2011 ĠnianĠ
ĠsiĠ keĠ
neiĠ rongĠ
2012 ĠnianĠ
zao ĠqiĠ
meiĠ yuanĠ
Ġri ĠzhiĠ
guangĠ boĠ
P Ġ
ĠweiĠ zhongĠ
zhan ĠyiĠ
xian ĠrenĠ
ta ĠzaiĠ
xingĠ chengĠ
jiao ĠyiĠ
pi ĠpingĠ
Ġ ha
Ġ dingĠ
ĠhaiĠ baĠgaoĠduĠ
25 ĠriĠ
jiaoĠ huiĠ
miao ĠshuĠ
ĠbuĠ duiĠ
wanĠ quanĠ
ĠzhiĠ yeĠ
ĠerĠ siĠ
Ġ mo
xuanĠ zeĠ
Ġdan ĠzaiĠ
yuanĠ yinĠ
ĠsiĠ teĠ
Ġ bei
Ġta ĠyuĠ
UTC Ġ
bo ĠliĠ
zao ĠdeĠ
ĠheĠ wuĠ
jianĠ sheĠ
Ġ paiĠ
r Ġ
Ġyue ĠdeĠ
xie ĠyiĠ
chu ĠshiĠ
xiaoĠ shuoĠ
wuĠkeĠ lanĠ
chang ĠqiĠ
yunĠdongĠ huiĠ
beiĠ chengĠweiĠ
lianĠ bangĠ
Ġ 6
ĠdiĠ sanĠ
ĠweiĠ diĠ
30 ĠriĠ
ĠjianĠ chengĠ
Ġdang ĠzhongĠ
ĠshiĠ yanĠ
ĠdeĠ daoĠ
chiĠ xuĠ
zui ĠdaĠ
wenĠ hua
20 ĠriĠ
mingĠ mingĠ
Ġ eĠ
zu ĠheĠ
yuanĠ zhuĠ
dianĠ ziĠ
duoĠ shuĠ
se ĠdeĠ
zhuanĠ yeĠ
Ġta ĠshiĠ
xing ĠyuĠ
ĠyiĠ mingĠ
houĠ laiĠ
2014 ĠnianĠ
10 ĠriĠ
gongĠ si
Ġ qie
lin ĠshiĠ
er ĠweiĠ
sheng ĠheĠ
ĠyouĠ chengĠ
bu ĠliĠ
wuĠ yuanĠ
jieĠ daoĠ
fu ĠzhiĠ
ba ĠliĠ
ziĠ geĠ
chu ĠqiĠ
Ġ renĠweiĠ
2018 ĠnianĠ
bu ĠjiĠ
2019 ĠnianĠ
Ġ 5Ġ
erĠ ziĠ
dongĠ nanĠ
faĠ lvĠ
gao ĠzhongĠ
taĠ menĠdeĠ
ĠjiĠ gouĠ
za ĠzhiĠ
ĠdiĠ siĠ
ĠjiĠ jinĠ
Ġ mengĠ
Ġ 11
ĠshiĠweiĠyuĠ meiĠguoĠ
daĠ daoĠ
ye ĠdeĠ
ĠjinĠ guanĠ
2013 ĠnianĠ
kui Ġ
ĠweiĠyuĠ gaiĠguoĠ
ĠguoĠ minĠ
faĠ zhan
Ġyue ĠzhiĠ
aĠ laĠ
30 Ġ
Ġ 3Ġ
ĠliĠ keĠ
tu ĠerĠ
sheng ĠweiĠ
ĠshiĠjieĠ daĠ
baoĠ gaoĠ
Ġ mianĠ
ĠĠĠ K
zhong ĠjiĠ
24 ĠriĠ
dao ĠyiĠ
2015 ĠnianĠ
ĠliĠ yongĠ
ĠliĠ kaiĠ
fangĠ xiangĠ
guiĠ dingĠ
nei ĠbuĠ
ĠyuĠ zhongĠ
guoĠ minĠ
guangĠ dongĠ
wang ĠdeĠ
ĠsuiĠ houĠ
Ġ san
boĠwuĠ guanĠ
ĠĠĠ W
luo ĠdeĠ
26 ĠriĠ
canĠ saiĠ
Ġyue ĠshiĠ
Ġ yingĠguoĠ
Ġzhe ĠzhongĠ
2007 ĠnianĠ
muĠ biaoĠ
ĠweiĠ siĠ
sheĠ quĠ
ĠyuĠ zhiĠ
guan ĠzhiĠ
dian ĠliĠ
Ġtong ĠnianĠ
2005 ĠnianĠ
20 Ġ
gongĠchanĠ dangĠ
Ġ gengĠ
18 ĠriĠ
Ġ ke
ĠyouĠ qiĠ
xian ĠyiĠ
ĠxiĠ lieĠ
Ġ O
die Ġ
ĠfenĠ buĠyuĠ
aoĠlinĠ piĠkeĠ
bing ĠweiĠ
lian ĠxiĠ
gongĠ buĠ
ĠjiĠ changĠ
juĠ banĠ
fu ĠliĠ
Ġ waiĠ
mu ĠdeĠ
ĠchuĠ leĠ
Ġ 2001ĠnianĠ
lie ĠdeĠ
ĠshiĠ heĠ
chang ĠweiĠ
quanĠ qiuĠ
wuĠ xianĠ
ĠerĠ shengĠ
bi ĠliĠ
D Ġ
shen ĠdeĠ
tou ĠziĠ
teĠ bie
ĠshiĠ ziĠ
Ġ shaĠ
2017 ĠnianĠ
mu ĠdiĠ
yinĠ hangĠ
16 ĠriĠ
ĠjiĠ heĠ
guanĠ fangĠ
ding ĠweiĠ
xunĠ lianĠ
shangĠ shuĠ
dongĠ jingĠ
Ġ ganĠ
fen ĠzhiĠ
fu ĠyiĠ
dao ĠyuĠ
dang ĠdeĠ
a ĠĠĠ
paiĠ sheĠ
guo ĠzhiĠ
17 ĠriĠ
Ġ Ã
zi ĠyuĠ
huaĠ xueĠ
kaiĠ fangĠ
shou ĠyuĠ
ĠyouĠxianĠ gongĠsiĠ
ĠĠĠ zhengĠzhiĠ
21 ĠriĠ
bu ĠzhiĠ
ĠdeĠshiĠ zhenĠ
gai ĠnianĠ
27 ĠriĠ
zhe ĠshiĠ
baoĠ faĠ
ka ĠerĠ
ĠzhongĠ xueĠ
Ġ minĠ
yingĠ yongĠ
2006 ĠnianĠ
8 ĠriĠ
ĠĠĠ of
mingĠ ziĠ
jun ĠweiĠ
ĠliĠ faĠ
12 ĠriĠ
23 ĠriĠ
shang ĠyouĠ
Ġ songĠ
ce ĠshiĠ
ĠyinĠ ci
xian ĠweiĠ
suĠ lianĠ
meiĠguoĠ renĠkouĠpuĠ
ĠdeĠ weiĠ
7 ĠriĠ
fei ĠxingĠ
shuĠ liangĠweiĠ
qiĠ jianĠ
Ġ qieĠ
juĠ leĠbuĠ
Ġ que
fu ĠyuĠ
boĠ chuĠ
yin ĠshiĠ
6 ĠnianĠ
fen ĠxiĠ
xueĠ zheĠ
huang ĠdiĠ
hui ĠyuĠ
xiĠ lieĠ
qi ĠjiĠ
2021 ĠnianĠ
ban ĠshiĠ
11 ĠriĠ
ĠdeĠ zhongĠ
22 ĠriĠ
guiĠ moĠ
ĠshiĠ faĠguoĠ
Ġ 6Ġ
21 Ġ
biĠ xuĠ
9 ĠriĠ
ling ĠyuĠ
19 ĠriĠ
shanĠ dongĠ
gongĠ nengĠ
29 ĠriĠ
chu ĠyiĠ
ĠfuĠ wuĠ
ting ĠzhiĠ
kun Ġ
Ġ 190
yin ĠqiĠ
me Ġ
guanĠ yuanĠ
ying ĠshiĠ
te ĠdeĠ
zuiĠ daĠdeĠ
zheng ĠzaiĠ
fuĠ jinĠ
fengĠ geĠ
ĠyueĠ hanĠ
ĠjiĠ baiĠ
jingĠ yingĠ
Ġ W
2022 ĠnianĠ
jin ĠzhiĠ
3 ĠriĠ
pingĠ jiaĠ
suoĠ shuĠdeĠ
nengĠ gouĠ
shengĠ mingĠ
14 ĠriĠ
geĠ diĠ
zhu ĠzaiĠ
qingĠkuang ĠxiaĠ
yuan ĠjiĠ
shou ĠshiĠ
tiao ĠjianĠ
0 Ġ
5 ĠriĠ
jiao ĠdeĠ
sheng ĠzaiĠ
quĠ huaĠ
shengĠ chan
yuan ĠzhiĠ
tai ĠdeĠ
xi ĠshiĠ
ĠĠĠ R
shang ĠweiĠ
ĠĠĠ youĠyuĠ
she ĠdeĠ
mai ĠkeĠ
ya ĠyuĠ
31 ĠriĠ
ĠbuĠ jiuĠ
jieĠ chuĠ
Ġ xunĠ
Ġ daoĠzhiĠ
ĠdaĠ huiĠ
lianĠ meng
xiaoĠxingĠ xingĠ
4 ĠriĠ
2 ĠriĠ
chao ĠjiĠ
da ĠjiĠ
Ġ lvĠ
ĠrenĠ zhongĠ
ĠzuiĠ houĠ
6 ĠriĠ
zang Ġ
dian ĠdeĠ
teĠ zhengĠ
hai ĠyuĠ
ĠgongĠ chiĠ
ge ĠjiĠ
liu ĠxingĠ
13 ĠriĠ
nanĠ xingĠ
Ġ saiĠ
boĠ teĠ
wenĠwuĠ baoĠhuĠ
ĠnianĠ dai
ĠsuiĠ ranĠ
ge ĠweiĠ
renĠ heĠ
wu ĠjiĠ
ren ĠjiĠ
manĠ huaĠ
lv ĠyouĠ
Ġ duo
zuoĠ jiaĠ
keĠ daĠ
E Ġ
si ĠrenĠ
geĠ shouĠ
Ġtong ĠguoĠ
xiong ĠdiĠ
yinĠ ciĠ
huang ĠjiaĠ
Ġ shenĠzhiĠ
zong ĠheĠ
ouĠ zhou
B Ġ
jian ĠweiĠ
shengĠ fenĠ
ĠhaoĠ miĠ
Ġ lingĠyiĠ
Ġ br
Ġ piĠ
xuĠ duo
Ġ xin
Ġ U
Ġ jueĠ
lieĠ che
Ġ kaiĠshiĠ
ju ĠrenĠ
niu ĠyueĠ
Ġbr Ġ
ĠĠĠ jinĠ
ci ĠshiĠjieĠdaĠ
banĠ daoĠ
zhuĠ tiĠ
zhong ĠweiĠ
Ġ qiangĠ
cheng ĠyiĠ
ĠzhiĠ jiĠ
zai ĠweiĠ
zhuangĠ taiĠ
ĠyouĠ mingĠ
qi ĠnianĠ
ĠtaĠ cengĠ
ĠsuiĠ ran
ben ĠdeĠ
bian ĠweiĠ
fenĠ ziĠ
ĠĠĠ O
pin ĠdaoĠ
you ĠyiĠgeĠ
ĠzaiĠ qiĠ
ju ĠzhongĠ
he ĠliĠ
mao ĠyiĠ
20 ĠshiĠjiĠ
wangĠ luoĠ
buĠ zhangĠ
renĠkouĠ shuĠliangĠweiĠ
hui ĠyouĠ
ĠĠĠ ziĠ
qian ĠyiĠ
ao ĠsiĠ
2004 ĠnianĠ
xuanĠ shouĠ
shuo ĠshiĠ
jieĠ duanĠ
ci ĠdeĠ
gao ĠjiĠ
zhun ĠbeiĠ
Ġ han
fa ĠshiĠ
bei ĠdeĠ
ĠheĠ nanĠ
fangĠ anĠ
fang ĠyuĠ
mi ĠerĠ
Ġ 4Ġ
wai ĠdeĠ
daĠ xingĠ
duoĠ ciĠ
Ġ geng
ci ĠzhiĠ
bing ĠliĠ
Ġ chen
gong ĠzhongĠ
huiĠ daoĠ
ĠĠĠ liĠ
mo ĠdeĠ
ĠyiĠ laiĠ
ĠzhiĠ zhongĠ
Ġ chiĠ
ĠĠĠ L
chengĠ duĠ
bu ĠweiĠ
2000 ĠnianĠ
on Ġ
shuĠ guanĠ
liu ĠnianĠ
wuĠ qiĠ
jie ĠjiĠ
le ĠyiĠgeĠ
yuan ĠweiĠ
baoĠ hanĠ
jun ĠzaiĠ
ĠdiĠ fangĠ
dianĠshiĠ taiĠ
you ĠzhiĠ
zi ĠshiĠ
ĠdeĠyiĠ zhongĠ
xing ĠheĠ
Ġ lanĠ
ĠrenĠ kou
ĠrenĠkouĠmiĠ duĠweiĠ
ju ĠshiĠ
deng ĠjiĠ
ĠzhongĠ buĠ
luĠ junĠ
xiangĠ tongĠ
ĠĠĠ N
xuan ĠweiĠ
Ġ fan
zheĠ jiangĠ
zuiĠ houĠ
biaoĠ yanĠ
Ġ yiĠshiĠ
qiu ĠjiĠ
Ġ gangĠ
sheĠ beiĠ
siĠ wangĠ
gaiĠ geĠ
ĠzhuĠ yao
ĠweiĠyuĠ faĠguoĠ
ai ĠdeĠ
meiĠ zhouĠ
daĠ liangĠ
nong ĠyeĠ
duoĠ geĠ
gu ĠjiĠ
Ġ douĠ
ĠzhiĠ jinĠ
dianĠshiĠ juĠ
hou ĠyouĠ
ĠshiĠ daiĠ
ĠxiĠ banĠ
Ġ chaoĠ
shang ĠyiĠ
yang ĠshiĠ
zhu ĠyuĠ
zhanĠ douĠ
guangĠ changĠ
liu ĠshiĠ
zai ĠjiĠ
Ġ zhao
mi ĠdeĠ
Ġri ĠqiĠ
fa ĠyuĠ
p Ġ
zhanĠ kaiĠ
wenĠwuĠbaoĠhuĠ danĠweiĠ
Ġ fei
ĠĠĠ daĠ
ĠzhiĠ liĠ
jia ĠheĠ
nu Ġ
tiao ĠyueĠ
ĠjiaĠ ruĠ
fuĠ jianĠ
xieĠ zhuĠ
ĠyiĠ beiĠ
Ġ xiang
ĠbuĠ zaiĠ
chanĠ pinĠ
muĠ qianĠ
jiang ĠyuĠ
bianĠ chengĠ
huoĠdeĠ leĠ
hangĠ kong
nai Ġ
youĠ zhengĠ
Ġ ze
ren ĠyuĠ
fenĠ leiĠ
daoĠ luĠ
gongĠyouĠ renĠkouĠ
5 ĠnianĠ
ying ĠjiĠ
duan ĠdeĠ
Ġ touĠ
qun ĠdaoĠ
ĠzhiĠ zaiĠ
qing ĠdeĠ
ĠfenĠ bie
biaoĠ zhun
zhenĠ quĠ
ĠbeiĠ qiĠ
haiĠ baĠ
Ġ meiĠyouĠ
Ġzhe ĠyiĠ
Ġ J
biĠ jiaoĠ
ĠĠĠ jianĠ
nao Ġ
ĠqiĠ yeĠ
Ġ xianĠshiĠ
zhanĠ zheng
guiĠ huaĠ
shouĠ duĠ
9 ĠnianĠ
cuo Ġ
ĠliĠ ziĠ
ĠkeĠ neng
suĠ duĠ
ju ĠyuĠ
nv ĠerĠ
xiĠ buĠ
ĠxiĠ wangĠ
xi ĠweiĠ
ĠzhongĠ huaĠminĠguoĠ
ĠxingĠ zhengĠ
ĠbuĠ huiĠ
ĠyiĠ renĠ
Ġ faĠguoĠ
qiao ĠzhiĠ
ĠgongĠ fenĠ
ĠzaiĠ zhongĠ
meiĠpingĠfangĠ gongĠliĠ
rong ĠyuĠ
de ĠĠĠ
dong ĠxiĠ
jiu ĠshiĠzhenĠ
dong ĠliĠ
ĠyiĠ yangĠ
ĠdeĠshiĠ jianĠ
jinĠ gongĠ
diĠyiĠ geĠ
dou ĠyouĠ
k Ġ
si ĠheĠ
ĠĠĠ xiĠ
ĠchengĠ quĠ
la ĠdeĠ
ken Ġ
si ĠweiĠ
xian ĠdeĠyiĠgeĠ
maĠ lai
henĠ duoĠ
Ġ 00
taiĠ beiĠ
ruĠ xiaĠ
quĠ daiĠ
ze ĠrenĠ
fu ĠrenĠ
la ĠkeĠ
jinĠbiaoĠ saiĠ
ĠciĠ houĠ
ĠyiĠ xiaĠ
ang Ġ
shangĠ wuĠ
ĠĠĠthe ĠĠĠ
Ġ nvĠ
yu ĠshiĠdeĠ
ĠyuĠ weiĠ
I Ġ
jian ĠyouĠ
ĠerĠ beiĠ
zong ĠliĠ
wang ĠguoĠ
lianĠ xuĠ
xiangĠ duiĠ
ĠĠĠ fuĠ
qu ĠyiĠ
min ĠzhongĠ
jieĠ rang
reng Ġran
xiao ĠxiĠ
miĠ shuĠ
Ġ ruo
tie ĠdaoĠ
Ġ zhou
zhengĠ geĠ
ci ĠjiĠ
zuiĠ houĠyiĠ
ĠĠĠ zheĠ
7 ĠnianĠ
jue ĠdeĠ
renĠkouĠshuĠliangĠweiĠ renĠ
niao Ġ
8 ĠnianĠ
ĠzhongĠ xin
quan ĠdeĠ
Ġ heiĠ
ĠĠĠ zhuĠ
fen ĠdeĠ
zhanĠ lingĠ
Ġ manĠ
xinĠ jiaĠ
waiĠ jiaoĠ
diĠ sanĠ
jiaĠ naĠdaĠ
ĠliĠ shuĠyuĠ
tianĠ zhuĠjiaoĠ
zhen ĠshiĠ
ĠrenĠ zaiĠ
yeĠ wuĠ
Ġ INSEE
chengĠ zhenĠ
ci ĠyuĠ
qiĠ ta
Ġ tian
Ġnian ĠjiĠ
Ġran ĠhouĠ
ceng ĠzaiĠ
yuan ĠyouĠ
daĠ xue
Ġ wu
jianĠ chaĠ
Ġyou ĠyiĠ
zhengĠ quanĠ
shengĠ chengĠ
zuoĠ chuĠ
ne Ġ
shouĠ geĠ
nan ĠjiĠ
ĠdeĠshiĠ houĠ
ĠheĠ beiĠ
ni ĠsiĠ
juĠ jueĠ
wangĠ zhanĠ
Ġ kongĠ
lu ĠshiĠ
jiao ĠweiĠ
quĠ xiaoĠ
ti ĠjiĠ
l ĠĠĠ
cheĠ liangĠ
dian ĠjiĠ
Ġjie ĠzhiĠ
Ġ rang
sheng ĠzhiĠ
le ĠjiĠ
ĠgaiĠ shengĠ
he ĠweiĠ
ĠyingĠ chiĠ
da ĠliĠyaĠ
zhongĠ xinĠ
dui ĠzaiĠ
tianĠ wenĠ
zhen ĠdeĠ
xianĠ faĠ
ziĠ xingĠ
yunĠ yingĠ
he ĠzhiĠ
diĠ fangĠ
lan ĠxiĠ
ĠqiĠ ta
Ġer ĠzaiĠ
ĠzongĠ mianĠjiĠ
V Ġ
ĠdeĠ yuĠ
jieĠ jueĠ
o Ġ
ye ĠzaiĠ
2002 ĠnianĠ
ĠriĠ ben
2003 ĠnianĠ
er ĠzaiĠ
mo ĠxiĠ
gong ĠyiĠ
shu ĠzhiĠ
ĠshiĠ changĠ
ĠdeĠ liĠ
ĠdiĠ qiĠ
ĠjianĠ zhuĠ
Ġ duiĠyuĠ
shou ĠweiĠ
dianĠ ying
ĠrenĠkouĠmiĠduĠ meiĠpingĠfangĠgongĠliĠ
xiaoĠ xueĠ
yingĠ xiang
chaĠdeĠ shuĠjuĠ
youĠzhengĠ bianĠmaĠweiĠ
puĠ taoĠ
hui ĠzhiĠ
gan ĠdaoĠ
ĠshiĠzhenĠ bianĠmaĠweiĠ
ĠINSEE ĠshiĠzhenĠbianĠmaĠweiĠ
qing ĠshiĠ
te ĠliĠ
ĠrenĠkouĠmiĠduĠweiĠ meiĠpingĠfangĠ
zhuo Ġ
ruan Ġ
mengĠ guĠ
diĠyiĠ ciĠ
mu ĠshiĠ
zuoĠ zhanĠ
ĠxingĠ chengĠ
ĠĠĠ buĠ
ĠxiaĠ lingĠshiĠ
xi ĠliĠ
xuanĠ quĠweiĠ
lei ĠjiĠ
gao ĠyuĠ
niĠ ya
yuĠshiĠdeĠ renĠkouĠshuĠliangĠweiĠrenĠ
bao ĠdeĠ
meiĠguoĠrenĠkouĠpuĠ chaĠdeĠshuĠjuĠ
si ĠzaiĠ
zuo ĠyiĠ
lu ĠyiĠ
Ġer ĠrenĠkouĠmiĠduĠweiĠmeiĠpingĠfangĠ
ĠdangĠdiĠ gongĠyouĠrenĠkouĠ
xi ĠyuĠ
yun ĠxingĠ
jingĠ changĠ
ĠteĠ bie
ĠhuoĠ jiuĠshiĠzhenĠ
xin ĠliĠ
yuanĠ ziĠ
jiang ĠshiĠ
shengĠjiĠ xuanĠquĠweiĠ
ĠĠĠ nianĠ
faĠ dongĠ
kuaiĠ suĠ
ming ĠyiĠ
zhang ĠdaĠ
shao ĠnianĠ
sheng ĠrenĠ
Ġ c
bian ĠjiĠ
ĠzhongĠ yang
chong ĠjianĠ
fenĠweiĠ faĠguoĠ
ĠgaiĠshengĠ fenĠweiĠfaĠguoĠ
fa ĠqiĠ
yangĠ huaĠ
Ġ bai
gaoĠ dengĠ
cong ĠshiĠ
shuo ĠfaĠ
ĠyouĠ renĠ
Ġnian ĠyuĠ
Ġ huanĠ
cheng ĠliĠyuĠ
2023 ĠnianĠ
Ġ shuangĠ
jia ĠzhongĠ
jin ĠyiĠbuĠ
na ĠdeĠ
lianĠheĠ guoĠ
yanĠjiuĠ suoĠ
zhengĠ mingĠ
ĠĠĠ 18
fang ĠqiĠ
daĠ quĠ
tai ĠguoĠ
er ĠheĠ
Ġ zhengĠshiĠ
gongĠ xianĠ
gou ĠdeĠ
12 Ġ
lunĠ dun
fanĠ huiĠ
aoĠlinĠpiĠkeĠ yunĠdongĠhuiĠ
xiang ĠjiĠ
jieĠrang ĠdeĠshiĠzhenĠ
zi ĠweiĠ
yunĠ shuĠ
gong ĠrenĠ
huo ĠshiĠ
suoĠshuĠdeĠ shengĠjiĠxuanĠquĠweiĠ
Ġ bo
ziĠ ran
yuan ĠliĠ
si ĠliĠ
zhanĠ dou
ti ĠxiĠ
ce ĠdeĠ
jianĠ chengĠ
cui Ġ
xingĠ qiĠ
biao ĠweiĠ
ĠĠĠ heĠ
ĠerĠ qie
na ĠliĠ
zhuĠ chiĠ
ziĠ yuanĠ
zhongĠ huaĠrenĠminĠgongĠheĠguoĠ
mingĠ danĠ
boĠ lanĠ
xi ĠzaiĠ
bei ĠyiĠ
dao ĠrenĠ
reĠ daiĠ
xiĠbanĠ yaĠ
fuĠ qinĠ
hua ĠweiĠ
luo ĠfuĠ
ĠxiĠ beiĠ
xiaĠ wuĠ
pai ĠdeĠ
faĠ sheĠ
Ġ huang
ĠdiĠ quĠdeĠ
ni ĠkeĠ
xiaoĠ zuĠ
wenĠ mingĠ
Ġ haĠ
ĠzhiĠ chengĠ
ĠĠĠ cheĠzhanĠ
wan ĠjiaĠ
ĠheĠ bingĠ
diaoĠ cha
chanĠ yeĠ
F Ġ
an ĠshiĠ
ĠshiĠyiĠ mingĠ
xiangĠ dangĠ
Ġyou ĠshiĠ
sheng ĠshiĠ
ĠĠĠ chuĠ
chaoĠ zhengĠzhiĠrenĠwuĠ
jinĠxingĠ leĠ
bei ĠjiĠ
su ĠdeĠ
ĠweiĠ shengĠ
xuanĠ chuanĠ
jian ĠjiĠ
jin ĠyiĠ
ĠbuĠ nengĠ
nanĠ shengĠ
ĠĠĠ taĠ
hao ĠweiĠ
ĠshiĠyiĠ weiĠ
ying ĠliĠ
jingĠ shenĠ
paiĠ mingĠ
lv ĠshiĠ
xianĠ xiangĠ
shouĠ shangĠ
Ġ guoĠjiĠ
hu ĠshiĠ
shu ĠzhongĠ
Ġ kang
zi ĠheĠ
xiĠ yangĠ
Ġ Î
guanĠ zhuĠ
fuĠzeĠ guanĠxiaĠ
Ġ bi
lian ĠdeĠ
qiĠ zhongĠyiĠ
mie Ġ
ba ĠnianĠ
Ġ zaoĠ
lanĠ qiuĠ
jiaĠ tingĠ
za Ġ
tongĠ xingĠ
lie ĠweiĠ
shuai Ġ
Ġ peiĠ
sai ĠerĠ
Ġyue ĠzaiĠ
zhanĠ houĠ
xuan ĠrenĠ
liu ĠyuĠ
shuĠ liangĠ
fo ĠjiaoĠ
ke ĠweiĠ
jie ĠyiĠ
Ġ chuangĠ
daoĠ yanĠ
zhengĠ juĠ
zao ĠnianĠ
ĠerĠ qieĠ
da ĠweiĠ
qiu ĠdeĠ
ĠxiĠ nanĠ
taoĠ lunĠ
Ġ biaoĠshiĠ
wang ĠshiĠ
duĠ jiaoĠ
yan ĠyiĠ
Ġ 193
reĠ dai
ming ĠshiĠ
zhengĠ dangĠ
laiĠ yuanĠ
ĠĠĠ beiĠ
wenĠ jianĠ
Ġ longĠ
genĠ ju
baoĠ chiĠ
X Ġ
ĠzhongĠ gongĠ
tiaoĠ zhanĠ
ĠyiĠ jianĠ
pingĠ lunĠ
hou ĠqiĠ
zhongĠ yangĠ
rui ĠshiĠ
ĠzhiĠ xianĠ
reng ĠranĠ
ĠdaoĠ leĠ
Ġ tuoĠ
Ġ 10ĠyueĠ
ĠyiĠ xiĠ
lv ĠkeĠ
ĠĠĠ U
ĠjiĠ siĠ
Ġzong ĠrenĠkouĠ
ziĠ dongĠ
xia ĠdeĠyiĠgeĠ
fan ĠdeĠ
ĠwuĠ keĠ
diĠ siĠ
Ġ ben
biaoĠ mingĠ
ĠshiĠ xianĠ
pingĠ taiĠ
M Ġ
xu ĠdeĠ
lu ĠyuĠ
ĠzhiĠ mingĠ
hai ĠdeĠ
cengĠ jingĠ
luoĠ ma
keĠliĠ siĠ
ĠjiĠ huĠ
ĠshiĠ jianĠyuĠ
xuĠ yao
mo ĠxingĠ
peng ĠyouĠ
ĠliĠ renĠ
Ġ hao
da ĠyueĠ
yinĠ hang
eĠ luoĠ
fengĠ xianĠ
nanĠ jingĠ
Ġ canĠ
ĠbeiĠ jingĠ
ĠdeĠdiĠ fangĠ
sheng ĠyiĠ
xuanĠ quĠ
Ġ ciĠshiĠ
rao Ġ
Ġ lin
gong ĠzhongĠyangĠ
jiaoĠ tangĠ
taiĠpingĠ yangĠ
ke ĠzaiĠ
x Ġ
zheng ĠbuĠ
jiao ĠbuĠ
lianĠ bang
Ġ queĠ
xingĠ buĠ
jing ĠyouĠ
yanĠ geĠ
ri ĠqiĠ
yuan ĠzaiĠ
ĠguoĠ wangĠ
daoĠ daĠ
shen ĠweiĠ
jianĠ duiĠ
chongĠ tuĠ
wu ĠrenĠ
ĠĠĠ xianĠ
jian ĠrenĠ
tui ĠyiĠ
biao ĠzhiĠ
hua ĠyuĠ
ru ĠheĠ
Ġ e
ĠĠĠ 2021
ke ĠshiĠ
qian ĠshiĠ
ĠnianĠ duĠ
qian ĠzhiĠ
g Ġ
xian ĠheĠ
shangĠ yingĠ
xiao ĠguoĠ
sou Ġ
dao ĠheĠ
ĠyiĠ shangĠ
keĠ siĠ
jing ĠweiĠ
ĠgongĠ yuanĠ
lei ĠxingĠ
ĠyiĠ liĠ
ĠĠĠ suiĠ
ĠdaĠ xue
zhou ĠweiĠ
xian ĠjiĠ
dangĠ xuanĠ
ye ĠbuĠ
fengĠ baoĠ
biao ĠdaĠ
guangĠ zhouĠ
xia ĠshiĠ
pang Ġ
ĠĠĠ 2020
liang ĠzhongĠ
zhang ĠshiĠ
xie ĠdeĠ
Ġ ouĠ
biĠ yaĠ
chuĠ shengĠ
shengĠ huo
ding ĠyuĠ
tiaoĠ zhengĠ
qiĠ yeĠ
Ġceng ĠrenĠ
shenĠ qingĠ
jiu ĠnianĠ
pingĠ mianĠ
rou Ġ
ĠjiĠ beiĠ
jiaoĠ quĠ
n ĠĠĠ
anĠ jianĠ
chengĠ xianĠ
luĠ siĠ
xing ĠyiĠ
ĠzhiĠ fuĠ
fenĠ bieĠ
tuanĠ duiĠ
ĠerĠrenĠkouĠmiĠduĠweiĠmeiĠpingĠfangĠ qianĠmiĠ
Ġ The
ĠliĠ daĠ
yaoĠ qingĠ
ĠjinĠ ruĠ
cha ĠyiĠ
ĠliĠ lunĠ
yingĠ geĠlanĠ
puĠ tongĠ
yuanĠ zhangĠ
yuanĠ suĠ
xing ĠrenĠ
Ġ qinĠ
xi ĠheĠ
xiaoĠ shouĠ
qiuĠ changĠ
ĠtaĠ menĠdeĠ
teĠ bieĠ
zhongĠ yaoĠ
chuĠ shengĠyuĠ
yan ĠzhiĠ
heng ĠxingĠ
neiĠ rong
zi ĠyiĠ
ruĠ ciĠ
queĠ zhenĠ
duiĠ shouĠ
ĠĠĠ a
la ĠfuĠ
Ġjie ĠguoĠ
11 Ġ
ĠnianĠ houĠ
ĠzhongĠ youĠ
Ġ zheng
zuo ĠshiĠ
bao ĠweiĠ
laiĠ shuoĠ
xueĠ shuĠ
cheng ĠyuĠ
shu ĠyiĠ
hui ĠjiĠ
beiĠrenĠ weiĠshiĠ
Ġ qiĠyuĠ
ru ĠguoĠ
Ġyue ĠyuĠ
ĠzhiĠ zaoĠ
24 Ġ
he ĠyuĠ
2024 ĠnianĠ
wangĠ luĠ
Ġ gao
anĠ naĠ
shun Ġ
ĠzhongĠ huaĠ
Ġ tanĠ
lun ĠdeĠ
nu ĠliĠ
ni ĠdeĠ
wu ĠyiĠ
ta ĠshiĠ
ĠnianĠ youĠ
duo ĠzhongĠ
Ġ 8ĠyueĠ
caiĠ yong
jia ĠrenĠ
quan ĠshiĠ
zhengĠ zhuangĠ
ting ĠdeĠ
nengĠ gou
ziĠzhiĠ quĠ
xiaoĠ zhangĠ
dianĠ taiĠ
jieĠfangĠ junĠ
gengĠ mingĠweiĠ
min ĠdeĠ
shuĠ ziĠ
haiĠ ziĠ
xiang ĠyuĠ
you ĠliĠ
lan ĠkeĠ
ĠtongĠ changĠ
qu ĠheĠ
chuang ĠliĠ
chuĠ shenĠ
xu ĠshiĠ
fan ĠyiĠ
xin ĠshiĠ
zongĠ duĠ
e ĠĠĠ
Ġ maiĠ
fuĠ qin
ĠĠĠ 2019
ge ĠyouĠ
zhuĠ yanĠ
she ĠyuĠ
L Ġ
jiaĠ geĠ
xunĠ huiĠ
bo ĠdeĠ
huoĠ dong
jiang ĠxiĠ
1999 ĠnianĠ
ming ĠyuĠ
sun ĠshiĠ
banĠ gongĠshiĠ
shouĠ ruĠ
jiangĠ xiangĠ
dan ĠdeĠ
jie ĠweiĠ
lin ĠdeĠ
le ĠĠĠ
juĠ xingĠdeĠ
Ġ hu
jingĠ chaĠ
dui ĠyiĠ
sa ĠkeĠ
ĠĠĠ wuĠ
jieĠ jinĠ
Ġ suoĠyouĠ
ĠweiĠ lianĠ
ĠjiĠ benĠ
jie ĠyuĠ
ka ĠsiĠ
guanĠ dianĠ
ĠĠĠ xiaĠ
ĠdeĠyiĠ zuoĠ
ĠĠĠ 2018
ĠliĠ heĠ
sang Ġ
Ġ laoĠ
jiang ĠdiĠ
shaoĠ shuĠ
wenĠ zhangĠ
kan ĠdaoĠ
ĠjiĠ zheĠ
lunĠ dunĠ
Ġ zaiĠyiĠ
dai ĠyouĠ
tou ĠxiangĠ
luĠdiĠ mianĠjiĠweiĠ
Ġ deng
Ġ xiongĠ
ĠĠĠ geĠ
zhang ĠyuĠ
amp Ġ
shuiĠyuĠ mianĠjiĠweiĠ
xingĠ jianĠ
jieĠ quanĠguoĠ
ĠdaĠ quĠ
wenĠ ziĠ
zhan ĠjiĠ
ĠdeĠdiĠ quĠ
aoĠ menĠ
zai ĠzhiĠ
wen ĠyiĠ
kang ĠyiĠ
Ġ miaoĠ
Ġ cheĠzhanĠ
1998 ĠnianĠ
xiĠ beiĠ
haiĠ anĠ
paiĠ ming
ruĠ kouĠ
R Ġ
Ġ pei
wai ĠguoĠ
ĠshiĠ diĠ
wen ĠdeĠ
jiaoĠ liuĠ
xingĠ xingĠ
zhenĠ duiĠ
Ġ V
xi ĠzhiĠ
xin ĠrenĠ
ĠjiĠ tuan
ĠĠĠ keĠ
tianĠ jinĠ
du ĠyuĠ
Ġ ampĠ
ĠĠĠ 2022
cuo ĠshiĠ
zhangĠ keĠdaĠ
fang ĠzaiĠ
xuanĠ ze
Ġ zhuan
jun ĠdiĠ
tiĠ mingĠ
ĠdangĠzhongĠ luĠdiĠmianĠjiĠweiĠ
chuĠ faĠ
ĠerĠ shuiĠyuĠmianĠjiĠweiĠ
poĠ huaiĠ
huiĠ shangĠ
rong ĠyiĠ
teng Ġ
taiĠ yangĠ
ĠbeiĠ erĠ
jingĠ dianĠ
Ġxian ĠzaiĠ
zao ĠyuĠ
O Ġ
chi ĠdeĠ
ba ĠxiĠ
ĠzhongĠ yaoĠ
Ġ pa
guang ĠxiĠ
bianĠ jieĠ
luo ĠdiĠ
gou ĠchengĠ
xian ĠyouĠ
ou ĠyuanĠ
xianĠ changĠ
Ġ juĠliĠ
Ġ haiĠyouĠ
xi ĠyiĠ
shan ĠjiĠ
ĠxiangĠ gang
fu ĠjiĠ
dao ĠjiĠ
ha ĠerĠ
touĠ ruĠ
queĠ dingĠ
ĠdeĠzhiĠ chiĠ
Ġyue ĠyouĠ
siĠ chuanĠ
yueĠ taiĠ
ĠĠĠxingĠzhengĠ quĠhuaĠ
ĠfaĠ xianĠ
Ġ jiĠshiĠ
keng Ġ
ĠzaiĠ zheĠ
duiĠ wuĠ
cunĠ zhuangĠ
Ġcong ĠerĠ
da ĠzhongĠ
ĠĠĠ I
jia ĠyuĠ
ming ĠzhiĠ
Ġ ao
you ĠweiĠ
Ġ jingĠguoĠ
cun ĠdeĠ
da ĠzhiĠ
dengĠ luĠ
Ġ 9ĠyueĠ
touĠ piaoĠ
ĠĠĠ 2017
15 Ġ
geĠ leiĠ
yuanĠ huiĠ
chang ĠyiĠ
Ġyue ĠweiĠ
gong ĠyuĠ
ĠshiĠ liĠ
ĠzhiĠ xiaĠ
gongĠ minĠ
yinĠ faĠ
biĠ yeĠyuĠ
jian ĠzhongĠ
nuo ĠweiĠ
Ġ hou
er ĠyuĠ
dai ĠliĠ
tuĠerĠ qiĠ
fang ĠweiĠ
tu ĠdeĠ
tui ĠdongĠ
ĠshiĠ zhongĠguoĠ
ge ĠyiĠ
zhan ĠdiĠ
ke ĠyuĠ
hun ĠheĠ
piĠ zhunĠ
juĠ zhuĠ
baoĠ liuĠ
qianĠ shuĠ
wu ĠyuĠ
er ĠrenĠ
jinĠ ru
ĠzaiĠ beiĠ
wenĠ dingĠ
haiĠ daoĠ
leĠ siĠ
yongĠ huĠ
ganĠ ran
shu ĠheĠ
biĠ saiĠzhongĠ
ĠtiĠ zhangĠkeĠdaĠ
Ġ formulaĠ
Ġ shou
ziĠ ranĠ
xi ĠzhongĠ
ĠĠĠ in
daĠ fuĠ
ĠĠĠ V
Ġ 7ĠyueĠ
zi ĠliĠ
nanĠ beiĠ
jun ĠyiĠ
ĠrenĠ menĠ
chu ĠjiĠ
qiĠ ziĠ
ĠweiĠfuĠ qiĠyuĠ
heng ĠliĠ
fangĠ wenĠ
Ġ saĠ
zhuang ĠjiaĠ
tiĠ gaoĠ
Ġyou ĠjiĠ
ĠĠĠ 2016
Ġ tingĠ
ĠwoĠ menĠ
di ĠjiĠ
ma ĠkeĠ
1996 ĠnianĠ
ĠshiĠ quĠ
chengĠ zuoĠ
ĠyuĠ ciĠ
xunĠ suĠ
jian ĠheĠ
ĠyiĠ daĠliĠ
xinĠ haoĠ
ĠyinĠ duĠ
jinĠ shuĠ
benĠ tuĠ
houĠ xuanĠrenĠ
mo ĠerĠ
zhan ĠzhongĠ
xiao ĠliĠ
xianĠ luĠ
xianĠ houĠ
ziĠ jinĠ
ci ĠweiĠ
jieĠshuĠ houĠ
Ġ 12ĠyueĠ
xin ĠyiĠ
pinĠ paiĠ
geĠ geĠ
Ġta ĠyiĠ
N Ġ
Ġ an
guangĠ fanĠ
Ġ zhang
zhuĠ mingĠdeĠ
zuiĠ chuĠ
zhong ĠliĠ
shang ĠrenĠ
yong ĠyiĠ
ceng ĠyuĠ
yingĠ pianĠ
zhuĠ mingĠ
1997 ĠnianĠ
heĠ zuoĠ
mouĠ xieĠ
cheng ĠzhiĠ
Ġ 11ĠyueĠ
ĠdeĠyiĠ zhiĠ
wu ĠweiĠ
jianĠ zaoĠ
chuĠ zhanĠ
jie ĠyouĠ
mei ĠnianĠ
jian ĠzaiĠ
lingĠ waiĠ
Ġ xiuĠ
ĠdeĠshiĠ quĠweiĠ
Ġ 21Ġ
jiaĠ zuĠ
xiaĠ laiĠ
xueĠ huiĠ
ĠzhiĠ nengĠ
buĠ tongĠdeĠ
ĠĠĠdeĠ shiĠ
Ġ tw
zhu ĠbuĠ
jiangĠ suĠ
Ġbing ĠyiĠ
sa ĠerĠ
shuiĠ pingĠ
ĠzhongĠguoĠ gongĠchanĠdangĠ
buĠ duiĠ
ĠdiĠ qu
ĠjiaĠ shangĠ
ĠĠĠ erĠ
dang ĠshiĠdeĠ
shan ĠdaĠ
reng Ġ
bo ĠerĠ
hans Ġ
Ġ hansĠ
ke ĠheĠ
xuĠ qiuĠ
ĠjiĠ chengĠ
jianĠ shaoĠ
teĠ shuĠ
Ġtw Ġ
Ġ hong
daĠ chengĠ
shan ĠdeĠ
i Ġ
Ġ bian
Ġ 2011
biaoĠ mianĠ
ĠzheĠ xie
meiĠ geĠ
ĠĠĠ qingĠ
lv ĠweiĠ
paiĠ chuĠ
ĠĠĠ 2014
xiaoĠ shuo
aoĠ daĠliĠyaĠ
nan ĠyiĠ
ĠbuĠ fen
jieĠ rangĠ
ĠĠĠ 2023
1992 ĠnianĠ
ĠrenĠ leiĠ
jueĠ ding
gongĠ changĠ
siĠ keĠ
c Ġ
chang ĠheĠ
ĠyuĠ renĠ
jieĠ keĠ
ĠdanĠ taĠ
ĠjiĠ guanĠ
ĠzaiĠ zhongĠguoĠ
ĠĠĠ li
sheĠhuiĠ zhuĠyiĠ
zhu ĠyouĠ
zhuang ĠzhiĠ
ĠchengĠ yuanĠ
ĠhaoĠ xianĠ
bei ĠzhiĠ
ĠxiĠ baoĠ
jingĠ yanĠ
U Ġ
Ġ 189
Ġ 2010ĠnianĠ
wan ĠrenĠ
faĠ chuĠ
ziĠ xunĠ
suo ĠdeĠ
wa ĠerĠ
ĠjiĠ renĠ
yinĠ suĠ
ĠjieĠ muĠ
ti ĠshiĠ
yingĠ wenĠ
ĠĠĠ 2015
ĠĠĠ yuanĠ
lu ĠzhiĠ
ĠhouĠ lai
Ġ hai
ĠxuĠ duoĠ
Ġ eĠluoĠsiĠ
ĠĠĠ J
tu ĠzhongĠ
kong ĠzhongĠ
sui ĠdaoĠ
hua ĠheĠ
sha ĠsiĠ
Ġri ĠyuĠ
yong ĠshiĠ
fo Ġ
lingĠ tuĠ
Ġ Ñ
geng ĠjiaĠ
minĠ jianĠ
ĠĠĠ yuĠshiĠdeĠrenĠkouĠshuĠliangĠweiĠrenĠ
ĠĠĠ suoĠshuĠdeĠshengĠjiĠxuanĠquĠweiĠ
xiangĠ siĠ
ĠĠĠdeĠ youĠzhengĠbianĠmaĠweiĠ
ĠĠĠyuĠ jieĠrangĠdeĠshiĠzhenĠ
ĠĠĠdeĠshiĠ quĠweiĠ
ĠguoĠ chengĠ
Ġ 2019
le ĠshiĠ
Ġ feng
zeng ĠzhangĠ
er ĠyiĠ
nan ĠdeĠ
ĠzaiĠ daĠ
jiang ĠdeĠ
keĠ chengĠ
huiĠ yingĠ
kongĠ junĠ
Ġ jingĠjiĠ
Ġ 2009ĠnianĠ
ci ĠyiĠ
ĠdiĠ daĠ
guĠ wenĠ
ĠheĠ xiĠ
ĠtaĠ yeĠ
guangĠ gaoĠ
jueĠ se
ĠfaĠ xingĠ
Ġ wang
te ĠerĠ
ĠshiĠ meiĠguoĠ
hanĠ shuĠ
ĠĠĠ 2013
Ġ hk
zhou ĠfuĠ
tian ĠdeĠ
ti ĠyiĠ
zong ĠbuĠ
ĠshengĠ huo
Ġ 30
ĠjiĠ youĠ
guanĠ biĠ
anĠ paiĠ
xianĠ xingĠ
ĠbingĠ jiangĠ
chao ĠshiĠ
Ġ menĠ
tiĠ shengĠ
feiĠ jianĠzhiĠ
woĠ menĠ
da ĠyuĠ
fang ĠbuĠ
xu ĠkeĠ
ĠĠĠ xinĠ
lang ĠdeĠ
zhengĠfu ĠdeĠ
minĠzhuĠ dangĠ
Ġ 6ĠyueĠ
zhuang ĠshiĠ
jiaĠ ru
quanĠ mianĠ
Ġbing ĠyouĠ
Ġhk Ġ
xingĠ taiĠ
banĠ gongĠ
ĠdeĠguoĠ jiaĠ
jun ĠjiĠ
cheĠ zhan
ĠerĠ gaiĠ
ĠheĠ erĠ
diĠ guoĠ
bao ĠliĠ
jieĠ gou
dui ĠshiĠ
shanĠ mai
Ġ zhiĠshiĠ
ju ĠbuĠ
ling ĠdeĠ
zhuan ĠjiaĠ
rui ĠdianĠ
dang ĠyuĠ
luo ĠkeĠ
ĠjiĠ nianĠ
wei ĠyiĠgeĠ
junĠ gongĠ
tuĠ shuĠguanĠ
dang ĠzhongĠ
weiĠ zhiĠ
neiĠ luĠ
hua ĠzhongĠ
chengĠ xuĠ
ĠyueĠ taiĠ
3 ĠrenĠ
yunĠ xuĠ
huiĠ beiĠ
jiuĠ dianĠ
seĠ lieĠ
Ġ laiĠziĠ
shan ĠshiĠ
dianĠ nao
dai ĠbuĠ
bingĠ meiĠyouĠ
ge ĠzhiĠ
ĠkeĠ xueĠ
Ġ na
ĠĠĠ xiangĠ
ĠqiĠ zhongĠyiĠ
zuĠ chengĠdeĠ
siĠ xiangĠ
feiĠjianĠzhiĠ diĠquĠ
Ġ 5ĠyueĠ
ĠĠĠ Co
ĠĠĠ and
1995 ĠnianĠ
Ġ zhuangĠ
fen ĠliĠ
ba ĠweiĠ
ĠxiĠ jieĠ
1994 ĠnianĠ
sanĠ jiaoĠ
jingĠ zhengĠ
guo ĠweiĠ
ĠyiĠ jiaĠ
chang ĠyuĠ
tan ĠkeĠ
ĠyouĠ qiĠshiĠ
muĠ qinĠ
Ġ zhongĠdeĠ
tong ĠyuĠ
bing ĠshiĠ
huanĠ yingĠ
faĠ lv
Ġ 2018
ma ĠerĠ
ĠdiĠ xiaĠ
moĠxiĠ geĠ
geĠ lan
que ĠfaĠ
gongĠ siĠdeĠ
jinĠ paiĠ
yanĠjiuĠ yuanĠ
Ġ zhengĠfuĠ
zhuan ĠyiĠ
25 Ġ
xiaĠ jiangĠ
shuĠ xueĠ
neiĠ geĠ
ĠshiĠjieĠ beiĠ
jiu ĠdeĠ
ĠliĠ ya
hua ĠrenĠ
mingĠ mingĠweiĠ
laiĠ daoĠ
jun ĠyouĠ
jiu ĠzhiĠ
ĠheĠ diĠ
2 ĠrenĠ
ĠgongĠ zuoĠ
ĠĠĠjiaĠ zuĠ
wei ĠĠĠ
shengĠ zhangĠ
deng ĠweiĠ
ĠjiĠ chuĠ
ĠliĠ buĠ
xiu ĠgaiĠ
huiĠ zhangĠ
mingĠ lingĠ
yingĠ yunĠ
shuo ĠmingĠ
hu ĠdeĠ
yongĠ laiĠ
1 ĠrenĠ
Ġ maoĠ
dui ĠqiĠ
Ġ chuĠyuĠ
ziĠ muĠ
shouĠ fuĠ
Ġ 20
ĠzaiĠ meiĠguoĠ
ĠdanĠ youĠyuĠ
wen ĠshiĠ
ĠĠĠ zhĠ
ĠbuĠ tongĠdeĠ
maoĠ qiuĠ
Ġ minĠguoĠ
gongĠ juĠ
ĠshiĠyiĠ ge
ĠdeĠdiĠ erĠ
ĠweiĠ weiĠ
K Ġ
zhu ĠjiĠ
que ĠrenĠ
leng Ġ
chengĠweiĠ leĠ
ta ĠyuĠ
yeĠ beiĠ
Ġ 4ĠyueĠ
liao ĠjieĠ
gua Ġ
ĠtaĠ beiĠ
beiĠ erĠ
feiĠ lvĠ
Ġ rangĠ
yin ĠdeĠ
chang ĠdiĠ
faĠ anĠ
juĠ zhangĠ
caiĠ quĠ
lieĠ biaoĠ
Ġ qian
shou ĠzhongĠ
ĠĠĠ jieĠzhiĠ
changĠ pianĠ
shenĠ tiĠ
ĠtaĠ haiĠ
ĠzhongĠguoĠ renĠminĠ
22 Ġ
cheĠ xiaoĠ
Ġyin ĠyueĠ
ĠshangĠ haiĠ
canĠjiaĠ leĠ
chuĠ xiĠ
chuanĠ boĠ
Ġ 2016
chanĠ pin
1991 ĠnianĠ
ĠyiĠ nianĠ
ĠerĠ fuĠ
jiaoĠ lianĠ
banĠ faĠ
xie ĠrenĠ
che ĠdeĠ
zhuĠ zuoĠ
boĠ fangĠ
fu ĠyouĠ
su ĠweiĠ
sui ĠjiĠ
Ġ 23
zhe ĠliĠ
ĠyiĠ juĠ
ma ĠsiĠ
16 Ġ
ĠweiĠ renĠ
Ġ kangĠ
ĠĠĠ zhongĠguoĠ
ze ĠyouĠ
ĠliĠ ru
qiuĠ huiĠ
tieĠ lu
dian ĠqiĠ
liang ĠshiĠ
1Ġ haoĠ
ĠweiĠyuanĠ hui
ĠdiĠ tieĠ
wangĠ qiuĠ
ma ĠdeĠ
ĠqiĠ laiĠ
faĠ dianĠ
ĠshiĠyiĠ nianĠ
gu ĠdeĠ
baiĠ seĠ
shenĠ jingĠ
yueĠ hanĠ
ju ĠheĠ
tai ĠjiĠ
zhanĠ taiĠ
huaĠ yuanĠ
tion Ġ
jieĠ hunĠ
wanĠ shangĠ
Ġ quanĠguoĠ
ling ĠbuĠ
ĠzhiĠ diĠ
ziĠ zhuĠ
huoĠ jianĠ
zuĠ jianĠ
ye ĠheĠ
ĠyiĠ zaiĠ
ĠyouĠ xieĠ
huaĠ shengĠ
lingĠ xianĠ
liang ĠrenĠ
chanĠ shengĠdeĠ
zhaoĠ kaiĠ
ĠrenĠminĠ zhengĠfuĠ
yanĠchangĠ huiĠ
ĠweiĠ nengĠ
2020ĠnianĠ meiĠguoĠrenĠkouĠpuĠchaĠdeĠshuĠjuĠ
maĠlai ĠxiĠyaĠ
xue ĠheĠ
ĠyouĠ xiaoĠ
or Ġ
ĠxingĠ dongĠ
Ġ Ma
chao ĠdeĠ
ĠzaiĠ xiĠ
ĠerĠ buĠ
tongĠ cheĠ
ĠĠĠ 2025
xu ĠliĠyaĠ
leĠ taĠ
chuĠ xianĠzaiĠ
yaoĠ wuĠ
Ġ kuanĠ
qin ĠshiĠ
ruĠ xuanĠ
ti ĠzhongĠ
1988 ĠnianĠ
changĠ pian
r ĠĠĠ
chang ĠzaiĠ
kuo ĠdaĠ
ĠxiĠ laĠ
m ĠĠĠ
ĠĠĠ 2024
yinĠ du
geĠ erĠ
xueĠ xiao
geĠ daĠ
xiangĠ xiĠ
Ġ yingĠyuĠ
xin ĠjiĠ
ĠliĠ shuĠ
ĠgongĠ chengĠ
ĠĠĠ qianĠ
zhuangĠ kuangĠ
ĠdaĠ buĠfenĠ
shanĠxiĠ shengĠ
xing ĠzhongĠ
tai ĠshiĠ
siĠ teĠ
kong ĠbuĠ
ĠzhiĠ duĠ
ĠshiĠdeĠ yiĠ
huĠ beiĠ
lv ĠxingĠ
tuo ĠliĠ
gongĠ huiĠ
shen ĠshiĠ
cheng ĠliĠdeĠ
daĠ buĠfenĠ
ĠfuĠ jinĠ
guiĠ zeĠ
ĠĠĠ nian
ĠweiĠ liĠ
aoĠ diĠliĠ
shangĠ hai
daĠ luĠdeĠ
Ġliang ĠrenĠ
lao ĠdongĠ
Ġ daiĠbiaoĠ
zhouĠ bianĠ
jing ĠyuĠ
zhuang ĠdeĠ
pei ĠyinĠ
cu ĠjinĠ
ĠyiĠ tongĠ
er ĠĠĠ
tong ĠbuĠ
xingĠ xiangĠ
Ġ caoĠ
ci ĠzaiĠ
Ġ ka
ĠliĠshiĠ shangĠ
yu ĠĠĠ
w Ġ
ze ĠweiĠ
long ĠdeĠ
suan ĠjiĠ
1993 ĠnianĠ
xingĠ quĠ
ĠC Ġ
ĠmingĠ chaoĠzhengĠzhiĠrenĠwuĠ
suiĠ houĠ
pei ĠheĠ
wuĠkeĠ lan
4 ĠrenĠ
jin ĠbuĠ
bao ĠshiĠ
daiĠbiao ĠdaĠhuiĠ
wu ĠheĠ
zhuĠ changĠ
nan ĠshiĠ
Ġ qiaoĠ
ĠzhiĠ ziĠ
ĠzheĠ jiangĠ
ping ĠweiĠ
teĠ seĠ
xiaĠjiĠ aoĠlinĠpiĠkeĠyunĠdongĠhuiĠ
12 ĠnianĠ
jiaoĠ xueĠ
ĠjiĠ erĠ
b Ġ
da ĠheĠ
xie ĠshiĠ
puĠ bianĠ
zhe ĠzaiĠ
Ġ panĠ
zhuan ĠxiangĠ
piaoĠ fangĠ
la ĠjiĠ
50 Ġ
ĠĠĠ xiaoĠ
ĠshiĠ tuĠ
G Ġ
Ġ 3ĠyueĠ
wenĠ xianĠ
sheĠ jiĠdeĠ
luo ĠjiĠ
feiĠ zhouĠ
lian ĠrenĠ
ĠxiĠ juĠ
sa ĠsiĠ
anĠ quan
Ġ sheĠjiĠ
Ġ 2011ĠnianĠ
dao ĠzhongĠ
kaoĠ lvĠ
Ġ lu
ĠweiĠ heĠ
ĠfuĠ jianĠ
13 Ġ
wangĠ chaoĠ
jie ĠrenĠ
mingĠ xianĠ
zhuĠ zhangĠ
Ġ yaoĠqiuĠ
gong ĠzhiĠ
zheng ĠheĠ
ĠweiĠ wuĠ
ĠxiĠ buĠ
hu ĠyuĠ
ĠbuĠ keĠ
tongĠ daoĠ
meiĠ guoĠdeĠ
xu ĠzaiĠ
ST Ġ
ĠweiĠ xingĠ
f Ġ
Ġ sun
Ġ 188
Ġ nvĠxingĠ
ĠĠĠ guoĠ
kou ĠweiĠ
lingĠ daoĠrenĠ
biĠ sai
18 Ġ
ĠweiĠ laiĠ
qiĠzhongĠyiĠ zhongĠ
Ġ 2021
zhao ĠdaoĠ
hongĠ seĠ
yuanĠ gongĠ
siĠ lingĠ
jingĠ cha
fangĠ wuĠ
Ġ taoĠ
Ġ sĠĠĠ
ĠliĠ miĠ
ĠĠĠ congĠ
zuiĠ hou
yunĠ dong
caiĠ liaoĠ
ĠshiĠweiĠ leĠ
ĠdeĠzhiĠ wuĠ
hun ĠyinĠ
ĠyuĠ leĠ
ĠchengĠ gongĠ
Ġ mai
ĠweiĠ huiĠ
1990 ĠnianĠ
ĠxiĠ ya
ĠjiĠ huiĠ
Ġ2001ĠnianĠ renĠkouĠ
Ġ ni
dongĠ nanĠbuĠ
bian ĠshiĠ
ĠyouĠ buĠ
dongĠ beiĠbuĠ
Ġ 2015
shou ĠzhiĠ
hua ĠjiĠ
fenĠ buĠyuĠ
ĠĠĠ 2012
jun ĠyuĠ
Ġ nai
yingĠ gaiĠ
Ġ biaoĠ
ge ĠheĠ
ĠrenĠ shuĠ
fu ĠzaiĠ
ti ĠzhiĠ
daĠ chenĠ
Ġ à
bao ĠzhiĠ
re ĠĠĠ
siĠ geĠ
feiĠ chuĠ
ri ĠzhiĠ
ĠxingĠ qiĠ
Ġ 2005ĠnianĠ
jin ĠyouĠ
dianĠ huaĠ
Ġ lieĠ
Ġ jiaoĠyuĠ
sao Ġ
ĠbuĠ menĠ
qianĠ wang
bao ĠyuĠ
ĠyiĠ ban
yuanĠ xingĠ
ruan ĠjianĠ
ĠĠĠ zaoĠnianĠ
duo ĠrenĠ
wuĠ taiĠ
ling ĠdiĠ
chi ĠyouĠ
duiĠ zhangĠ
faĠxianĠ leĠ
Ġ guanĠyuĠ
Ġ hanĠguoĠ
shi ĠĠĠ
tui ĠjinĠ
gengĠ duoĠ
zhuĠ jueĠ
Ġyin ĠerĠ
chuĠ laiĠ
tiĠ daoĠ
on ĠĠĠ
yongĠ zuoĠ
suo ĠzaiĠ
zhengĠ changĠ
ben ĠdiĠ
jue ĠshiĠ
ĠnianĠ beiĠ
wuĠ zhuangĠ
guoĠjiĠ jiĠ
mei ĠdeĠ
bian ĠxingĠ
douĠ huiĠ
yaĠliĠ shanĠdaĠ
jiao ĠdaĠ
gui ĠdeĠ
ĠerĠshuiĠyuĠmianĠjiĠweiĠ 0
riĠ junĠ
poĠ huai
ĠtiĠ gongĠ
bo ĠsiĠ
Ġ zhong
Ġ zaoĠchengĠ
yin ĠdiĠ
jiao ĠyouĠ
dongĠ fangĠ
tongĠ yangĠ
3 ĠgeĠ
tai ĠrenĠ
huoĠ zheĠ
ĠzaiĠ jiaĠ
qingĠ baoĠ
ĠpingĠfangĠ miĠ
caoĠ zuoĠ
Ġ quan
mingĠ xingĠ
ĠdaĠ chengĠ
haiĠ waiĠ
Ġ zu
yeĠ huiĠ
tuan ĠdeĠ
anĠ huiĠ
Ġ chaĠ
nei ĠyouĠ
jieĠ shaoĠ
chuĠ kouĠ
duiĠ waiĠ
Ġsui ĠdeĠ
ĠdaĠ liangĠ
Ġsui ĠzheĠ
Ġ 2017
jieĠ mu
xia ĠyouĠ
ĠheĠ pingĠ
ĠerĠ gaiĠdiĠ
canĠ mou
Ġ 2020
Ġ 2014
xiang ĠyiĠ
yongĠ tuĠ
Ġ 2013
la ĠheĠ
qiang ĠdeĠ
ĠyiĠ duĠ
ĠzhiĠ dingĠ
duiĠ xiangĠ
gaiĠ shanĠ
aoĠyunĠ huiĠ
biao ĠdeĠ
san ĠjiĠ
ĠyuĠ heĠ
yanĠ shenĠ
ĠdeĠshiĠ jieĠ
gao ĠjiaĠ
ĠyueĠ nanĠ
ĠxiĠ tong
Ġ tuiĠ
xiĠ nanĠ
xianĠ jinĠ
Ġwan ĠrenĠ
zuoĠ quĠ
dun ĠdeĠ
ĠjiaĠ naĠdaĠ
ĠbaoĠ hanĠ
Ġ xuanĠbuĠ
mei ĠliĠ
1984 ĠnianĠ
dengĠ shangĠ
guan ĠshiĠ
leĠ daĠ
gaoĠsuĠ gongĠluĠ
xiaoĠ quĠ
junĠ quĠ
zhengĠ tiĠ
zengĠ zuĠ
jia ĠzaiĠ
chang ĠyouĠ
leĠ taĠdeĠ
xiaĠ xiaĠdeĠyiĠgeĠ
longĠ jiangĠ
Ġ reng
yun ĠshiĠ
geĠ lunĠ
jue ĠyiĠ
shuĠ ruĠ
haiĠ xiaĠ
faĠ shouĠ
sui ĠzhuĠ
Ġxian ĠrenĠ
Ġ shengĠyuĠ
nie Ġ
ĠqiĠ zaiĠ
yunĠ zuoĠ
Ġye ĠyouĠ
queĠzhenĠ bingĠliĠ
ĠĠĠ In
ju ĠyiĠ
14 Ġ
gouĠ zaoĠ
banĠshiĠ chuĠ
Ġ xiu
liu ĠzaiĠ
ĠweiĠ keĠ
ĠerĠ yanĠ
Ġnan ĠzhiĠ
Ġ po
zhan ĠzhiĠ
1989 ĠnianĠ
zuo ĠrenĠ
dianĠ cheĠ
miĠ miĠ
ĠshiĠ daĠ
kang ĠriĠ
shuĠ yuanĠ
junĠ guanĠ
Ġ dou
jia ĠyouĠ
du ĠheĠ
fei ĠliĠ
kaiĠ zhanĠ
ĠshiĠwuĠ keĠ
10 ĠnianĠ
renĠ daĠ
ĠzhongĠ zaiĠ
Ġ 100
shang ĠyuĠ
bin ĠhaiĠ
ĠdongĠ linĠ
Ġ 2010
duo ĠnianĠ
jiangĠ huiĠ
liangĠ ciĠ
lingĠ xiuĠ
chuang ĠjianĠ
chuĠ daoĠ
shouĠ zhangĠ
xiaĠ ling
tian ĠshiĠ
zhuang ĠbeiĠ
dongĠ zuoĠ
shou ĠyiĠ
chuan ĠzhiĠ
chai ĠchuĠ
touĠ piao
senĠ linĠ
an ĠdaĠ
ĠqiĠ xiangĠ
shouĠ luĠ
caiĠ zhengĠ
ĠtaiĠ wan
Ġ niu
ĠĠĠ 3
ya ĠkeĠ
biĠ mianĠ
gu ĠliĠ
ĠqiĠ ziĠ
huiĠ yuanĠ
shanĠ quĠ
Ġ shaoĠ
bei ĠshiĠweiĠ
deng ĠdeĠ
ĠdiĠ wuĠ
Ġ zhengĠzhiĠ
Ġ jianĠyuĠ
tu ĠxingĠ
qin ĠziĠ
ĠerĠ tongĠ
juĠ qingĠ
kaĠ luoĠ
ĠĠĠ siĠ
ĠnianĠ1ĠyueĠ 1ĠriĠ
hou ĠshiĠ
zhe ĠbuĠ
dai ĠweiĠ
zuiĠ gao
ĠjuĠ xingĠ
zun Ġ
1985 ĠnianĠ
waiĠ jiaoĠbuĠ
ĠwanĠ meiĠyuanĠ
ĠyiĠ meiĠyuanĠ
Ġ qi
liu ĠdeĠ
ĠsiĠ lingĠ
ceĠ liangĠ
shou ĠxiĠ
jingĠ xuanĠ
hui ĠzhongĠ
suo ĠshiĠ
zhangĠ guanĠ
fanĠ zuiĠ
fu ĠweiĠ
ban ĠliĠ
daiĠ laiĠ
ĠjieĠ shouĠ
Ġ hengĠ
Ġ 2007ĠnianĠ
ĠĠĠ dangĠ
geng ĠweiĠ
bingĠ ruĠ
si ĠyiĠ
ĠerĠ ziĠ
tong ĠnianĠ
ĠyouĠ keĠ
xiangĠ zhengĠ
baoĠ shouĠ
ĠdongĠ beiĠ
fanĠweiĠ neiĠ
pian ĠdeĠ
mian ĠshiĠ
meng ĠdeĠ
guoĠ wangĠ
taiĠ fengĠ
ĠtaiĠ yangĠ
Ġ chengĠliĠ
ĠerĠ chengĠ
huĠ nanĠ
Ġ 2008ĠnianĠ
ĠzaiĠ duĠ
Ġ s
ĠqiĠ xiaĠ
Ġri ĠdeĠ
fangĠ mianĠdeĠ
ĠyiĠ houĠ
ĠjieĠ keĠ
ĠshengĠhuo ĠxiĠ
H Ġ
yan ĠxiĠ
ren ĠliĠ
can ĠyiĠyuanĠ
junĠ zhuĠ
kaiĠ tongĠ
taiĠ ziĠ
qingĠ chuĠ
dingĠ juĠ
Ġ sheĠhuiĠ
gongĠ zhuĠ
shengĠ yinĠ
jin ĠweiĠ
hua ĠheĠwuĠ
zhan ĠqiĠjianĠ
huan ĠchengĠ
Ġ 2012
zhou ĠqiĠ
Ġ dianĠyingĠ
jianĠ jieĠ
yingĠ yeĠ
ĠsiĠ wangĠ
liang ĠjiĠ
pi ĠfuĠ
fei ĠdeĠ
wai ĠbuĠ
xiangĠ huĠ
guanĠ chaĠ
xingĠbuĠ mingĠ
5 ĠrenĠ
Ġ sheĠyouĠ
dui ĠyouĠ
28 ĠnianĠ
zhuĠyao ĠdeĠ
lei ĠdaĠ
du ĠliĠdeĠ
er ĠyueĠ
zhuan ĠdeĠ
touĠ luĠ
Ġ se
lv ĠdeĠ
xiĠ juĠ
ĠĠĠ mingĠ
bing ĠdeĠ
jiang ĠjiĠ
wuĠ siĠ
maĠ laĠ
h Ġ
chang ĠzhiĠ
faĠ xingĠdeĠ
gouĠ maiĠ
ĠshengĠhuoĠxiĠ xingĠbuĠmingĠ
to ĠĠĠ
Ġ lao
tian ĠqiĠ
ĠyiĠ daiĠ
que ĠdeĠ
ter Ġ
xinĠ yangĠ
Ġ canĠjiaĠ
tongĠ paiĠ
zuoĠ biaoĠweiĠ
jiangĠ lingĠ
ĠmeiĠ geĠ
anĠ zhuangĠ
jiuĠ longĠ
Ġ sha
ĠĠĠ beiĠjingĠ
liangĠ xiangĠ
ĠwuĠ faĠ
jiaĠliĠ fuĠ
xinĠ xingĠ
huoĠ shanĠ
guanĠ jianĠ
zuĠ zhiĠdeĠ
keĠneng ĠshiĠ
jing ĠzhongĠ
lu ĠjiĠ
25 ĠnianĠ
cheng ĠheĠ
taiĠ beiĠshiĠ
jiuĠ duĠ
ĠĠĠ Ma
er ĠzhiĠ
ĠĠĠciĠ waiĠ
1 ĠliĠ
Ġ yongĠyouĠ
jieĠ sanĠ
ruĠ qinĠ
liang ĠzhiĠ
houĠ beiĠ
keĠyiĠ zaiĠ
Ġ dong
kong ĠqiĠ
Ġyue ĠzhongĠ
bai ĠrenĠ
ĠzaiĠ ci
fangĠ yanĠ
lunĠ wenĠ
shang ĠbuĠ
zhuĠ yiĠdeĠ
guiĠ zuĠ
ĠzhongĠguoĠ daĠluĠ
Ġ di
zhangĠ aiĠ
ai ĠjiĠ
zheĠ xie
chuanĠ shuoĠ
2Ġ haoĠ
kaoĠ guĠ
Ġ juĠyouĠ
cheng ĠnianĠ
1949 ĠnianĠ
fuĠ jinĠdeĠ
ĠchuĠ xianĠ
Ġ gongĠyouĠ
Ġ 2009
chu ĠbuĠ
qu ĠjiĠ
yuĠ yanĠ
Ġyin ĠqiĠ
Ġ yongĠyuĠ
man ĠdeĠ
jingĠ fangĠ
ĠshiĠshiĠ jieĠ
xinĠjiaĠ poĠ
Ġ zhongĠshiĠ
mo ĠsiĠkeĠ
geĠ ming
ĠĠĠjuĠ qingĠ
lian ĠzaiĠ
ĠbiĠ ruĠ
huan ĠzheĠ
kao ĠjinĠ
shenĠ me
suoĠ shuĠ
qian ĠrenĠ
1980 ĠnianĠ
ĠĠĠ 2010
ĠweiĠ ciĠ
zhanĠ tingĠ
ĠshiĠjiĠ shangĠ
ĠĠĠ 2011
4 ĠgeĠ
yunĠ nanĠ
Ġ diĠshiĠ
ming ĠrenĠ
le ĠyuĠ
zuoĠ zheĠ
zhou ĠjiĠ
zhongĠ dianĠ
guangĠdongĠ shengĠ
gao ĠdaĠ
ĠshiĠ riĠbenĠ
muĠ qin
Ġ xiao
ĠĠĠ ben
ĠsiĠ chuanĠ
Ġ 2008
quĠ leĠ
zhe ĠweiĠ
ĠguoĠ chengĠzhongĠ
baoĠ zhangĠ
taiĠ duĠ
ĠgongĠ tongĠ
ĠteĠbie ĠshiĠ
Ġ qiĠshiĠ
Ġ 2013ĠnianĠ
zong ĠshiĠ
ĠchuĠ shengĠyuĠ
yang ĠjiĠ
chuĠ yanĠ
jiang ĠzaiĠ
yinĠ qingĠ
shuangĠ fangĠ
24 ĠnianĠ
changĠ jianĠdeĠ
Ġ kai
ĠĠĠ 17
qu ĠyiĠhuiĠ
yin ĠheĠ
ĠyouĠ ciĠ
quanĠ zhangĠ
Ġ canĠyuĠ
40 Ġ
xunĠ yangĠ
faĠ huiĠ
wanĠ gongĠ
ĠrenĠ mingĠ
hua ĠyiĠ
yingĠ xiongĠ
xiuĠ zhengĠ
hua ĠzhiĠ
gan ĠbuĠ
youĠ xianĠ
ĠshiĠdeĠ guoĠ
1 ĠĠĠ
fang ĠyiĠ
sui ĠshiĠ
ĠqiĠ xiĠ
tiao ĠliĠ
1986 ĠnianĠ
xiangĠ guanĠdeĠ
chu ĠzaiĠ
cuo ĠwuĠ
ĠjiaĠ tingĠ
bianĠ juĠ
ĠĠĠdiĠ fangĠ
Ġ re
ĠguoĠ huiĠ
ban ĠbuĠ
ĠyiĠ xiaoĠshiĠ
shengĠ taiĠ
shouĠ xiangĠ
ĠbingĠ duĠ
taoĠ taiĠ
ĠĠĠ qiĠtaĠ
hu ĠbuĠ
nengĠ liangĠ
ĠĠĠ meiĠguoĠ
yuanĠ zeĠ
faĠ lanĠxiĠ
ĠwuĠkeĠ lanĠ
Ġ su
lao ĠdeĠ
ĠyueĠ tuanĠ
zhouĠ ciĠshiĠ
shu ĠliĠ
ĠxueĠ xiaoĠ
Ġ cai
chu ĠzhiĠ
zui ĠyouĠ
feng ĠweiĠ
luĠ yingĠ
luĠ kouĠ
ĠĠĠ diĠerĠ
qingĠ huaĠ
yaoĠ qiu
guĠ fen
keĠdeĠ qiĠzhongĠyiĠzhongĠ
Ġ duanĠ
hui ĠbuĠ
huoĠ xingĠ
qingĠ qiuĠ
kaiĠ sheĠ
zhi ĠdeĠshiĠ
si ĠzhiĠ
faĠ guanĠ
meiĠ shuĠ
dangĠ diĠdeĠ
ĠweiĠ chiĠ
ĠzhongĠhuaĠrenĠminĠgongĠheĠguoĠ zhengĠzhiĠrenĠwuĠ
heĠ xinĠ
gaiĠ chengĠ
n uan
ĠheĠ xinĠ
Ġ cha
dai ĠshiĠ
ling ĠrenĠ
han ĠyuĠ
Ġ 2022
hen ĠdaĠ
fou Ġ
ĠheĠ zhongĠ
ĠpingĠ junĠ
dao ĠbuĠ
ĠĠĠ Re
zhuang ĠjiĠ
cui ĠhuiĠ
ĠjiĠ nian
luĠ keĠ
han ĠyouĠ
chengĠ keĠ
qiangĠ diaoĠ
1945 ĠnianĠ
ĠĠĠ danĠ
xia ĠweiĠ
Ġ dui
en ĠshengĠ
lai ĠshiĠ
dang ĠweiĠ
Ġ 25
Ġ 2006ĠnianĠ
bei ĠweiĠ
huan ĠxingĠ
yaĠ junĠ
canĠ kaoĠ
Ġwan ĠjiaĠ
zheng ĠweiĠ
1987 ĠnianĠ
tianĠ jingĠ
beiĠrenĠ mingĠweiĠ
yuan ĠzhongĠ
huan ĠdeĠ
gongĠ yingĠ
zuiĠ gaoĠdeĠ
niĠyaĠ zhouĠ
Ġ maiĠkeĠ
ri ĠdeĠ
neng ĠzaiĠ
ĠyiĠ zuoĠ
xiĠ laĠ
ĠA Ġ
dengĠ dengĠ
liang ĠnianĠ
22 ĠnianĠ
xiaĠ quĠ
suoĠ chuĠdeĠ
dangĠ juĠ
ya ĠyiĠ
suo ĠzhiĠ
xiu ĠfuĠ
27 ĠnianĠ
chengĠ benĠ
qingĠ xingĠ
xieĠ daoĠ
tiĠyuĠ changĠ
Ġ xiong
xie ĠerĠ
shangĠ haiĠshiĠ
tuĠ poĠ
sheng ĠyouĠ
bai ĠdeĠ
21 ĠnianĠ
xianĠ shengĠ
ĠyeĠ jiuĠshiĠ
18 ĠnianĠ
ĠdaĠ duoĠ
teĠ dingĠ
kun ĠnanĠ
renĠ yuanĠ
ĠdaĠ xingĠ
yinĠ ruĠ
xiang ĠweiĠ
tai ĠzhongĠ
ĠshiĠ yong
aĠlaĠ boĠ
xiang ĠyouĠ
ĠyiĠ fuĠ
ĠjiĠ buĠ
kaiĠ fa
jing ĠzhiĠ
keĠ xueĠyuanĠ
huoĠ banĠ
19 ĠnianĠ
duo ĠweiĠ
tan ĠdeĠ
shun ĠliĠ
1982 ĠnianĠ
fenĠbuĠ zaiĠ
le ĠqiĠ
laĠ dingĠ
Ġsui ĠzhuĠ
le ĠzaiĠ
xiĠ baoĠ
hongĠ zha
7 ĠrenĠ
cheng ĠguoĠ
jun ĠzhiĠ
zhanĠ xianĠ
ĠdaĠ fuĠ
ĠxiĠbanĠ yaĠ
Ġ meng
daĠ huiĠ
Ġxiang ĠnianĠ
15 ĠnianĠ
chui Ġ
wangĠ yuanĠ
ke ĠyouĠ
6 ĠrenĠ
ĠxiĠ erĠ
ruĠ qin
qiangĠ lieĠ
ze ĠzaiĠ
13 ĠnianĠ
shouĠ gouĠ
ĠkeĠ erĠ
henĠ kuaiĠ
Ġ qing
Ġ 2012ĠnianĠ
wuĠ ziĠ
manĠ zuĠ
Ġ p
Ġ wenĠhuaĠ
chuan ĠdeĠ
ĠbuĠ jinĠ
haiĠ yangĠ
jing ĠheĠ
gai ĠshiĠ
zhongĠguoĠ daĠluĠdeĠ
ĠĠĠ 2
xiaoĠ yuanĠ
haiĠ pingĠmianĠ
Ġ00 Ġ
suo ĠweiĠ
xiu ĠjianĠ
shengĠ chuĠ
ĠtaĠcengĠ daiĠbiaoĠ
ganĠran ĠzheĠ
11 ĠnianĠ
1983 ĠnianĠ
ĠshiĠ geĠ
ĠheĠ lanĠ
tongĠ mengĠ
heiĠ seĠ
zu ĠyiĠ
ĠriĠ junĠ
li ĠyuĠ
ĠĠĠ yinĠ
bei ĠyuĠ
xue ĠyuĠ
lai ĠyueĠ
Ġ te
ciĠshiĠjieĠdaĠ zhanĠ
ĠĠĠ aĠ
jia ĠweiĠ
tai ĠyuĠ
zui ĠweiĠ
huang ĠhouĠ
zhaoĠ pianĠ
yin ĠliĠ
beng Ġ
yaĠ meiĠ
zhou ĠzhiĠ
ĠzuĠ fuĠ
jiang ĠzhiĠ
zhen ĠyuĠ
paiĠming ĠdiĠ
jing ĠyiĠ
hao ĠshiĠ
guĠ daiĠ
geiĠ leĠ
zhu ĠzhiĠ
zhang ĠweiĠ
renĠ leiĠ
dangĠ yuanĠ
ĠwanĠ yuanĠ
ĠtongĠshiĠ gaiĠdiĠ
hou ĠweiĠ
daĠ jiangĠ
ĠdeĠjiĠ chuĠ
ĠguangĠ dongĠ
ding ĠqiĠ
ĠjiĠ duĠ
shangĠ changĠ
benĠ shenĠ
zuĠqiuĠ yunĠdongĠyuanĠ
boĠshiĠ xueĠweiĠ
2 ĠgeĠ
xiang ĠheĠ
qiang ĠzhiĠ
beiĠ jingĠshiĠ
jiuĠ huiĠ
nongĠ minĠ
neiĠluĠ shengĠfenĠ
chengĠ baoĠ
Ġmei ĠnianĠ
jiao ĠzhiĠ
liang ĠguoĠ
ĠzhongĠ ziĠ
Ġa ĠerĠ
cheng ĠshiĠdeĠ
zhen ĠjiĠ
keĠ fuĠ
chu ĠyouĠ
chuangĠ banĠ
bang ĠdeĠ
ĠhuoĠ zheĠ
o ĠĠĠ
chuĠ shouĠ
xunĠ zhangĠ
xiaĠling ĠshiĠjianĠ
tong ĠweiĠ
jing ĠzaiĠ
le ĠyouĠ
duan ĠshiĠ
Ġ Z
te ĠxingĠ
mo ĠsiĠ
8 ĠrenĠ
Ġ pu
bianĠ haoĠ
tanĠ panĠ
Ġ liaoĠ
Ġ kuĠ
14 ĠnianĠ
Ġ saiĠjiĠ
ke ĠzhiĠ
ĠbuĠ diĠ
kuoĠ zhanĠ
ĠmuĠ qian
tang ĠdeĠ
xiangĠ xinĠ
shangĠ xiaĠ
luĠ xuĠ
Ġ 10Ġ
wan ĠdeĠ
min ĠdiĠ
diĠ qiuĠ
jiu ĠyiĠ
zao ĠzaiĠ
wo ĠdeĠ
wuĠ daoĠ
ĠbuĠ luoĠ
19 ĠshiĠjiĠ
paiĠ hangĠ
ta ĠweiĠ
jun ĠheĠ
chi ĠrenĠ
juĠ daĠ
ĠĠĠjianĠ jieĠ
mu ĠzhiĠ
gao ĠzhiĠ
fan ĠzhiĠ
renĠ gongĠ
xiĠ wangĠ
tianĠ tiĠ
kaiĠshiĠ shiĠ
Ġ tieĠ
xuan ĠdeĠ
weiĠyiĠ yiĠ
ĠjiĠ fuĠ
muĠ niĠ
Ġ 500
ĠrenĠ qiĠ
wuĠ zhengĠzhuangĠ
zheĠ xueĠ
suoĠ youĠdeĠ
ĠshiĠyiĠge ĠweiĠyuĠ
Ġ kanĠ
hui ĠguoĠ
ni ĠerĠ
ĠqiĠ cheĠ
nanĠ fangĠ
liangĠ mingĠ
miĠ yaĠ
ĠxianĠ houĠ
zi ĠzhongĠ
29 ĠnianĠ
Ġ 1950
xiĠ yaĠ
xiangĠ biĠ
jiangĠ jinĠ
shaĠ haiĠ
kaiĠshiĠ zaiĠ
yueĠ nanĠ
ĠĠĠdiĠfangĠ ziĠliaoĠ
qu ĠzhiĠ
dian ĠheĠ
ya ĠheĠ
rong ĠheĠ
diĠyiĠ weiĠ
Ġ 2014ĠnianĠ
bing ĠyiĠ
ling ĠyiĠgeĠ
fei ĠerĠ
feng ĠfuĠ
Ġnian ĠĠĠ
wenĠ duĠ
ĠĠĠ zengĠzuĠ
yan ĠyuĠ
duiĠ ciĠ
fangĠ jianĠ
Ġ tiaoĠ
Ġ zhiĠyiĠ
ping ĠdeĠ
nuo ĠfuĠ
ĠguoĠ quĠ
zi ĠzaiĠ
ceng ĠweiĠ
ĠĠĠ i
changĠ jianĠ
aoĠ zhouĠ
Ġ waĠ
yinĠ paiĠ
gaoĠ xiong
Ġ song
ye ĠjiĠ
ĠyiĠsiĠ lanĠ
ĠĠĠ jieĠ
zhou ĠheĠ
san ĠjiaĠ
shenĠ duĠ
ĠyiĠ wuĠ
Ġnian ĠweiĠ
qinĠ wangĠ
Ġ0 Ġ
nv ĠzhuĠ
ĠĠĠ 1Ġ
ding ĠshiĠ
xiu ĠdeĠ
ĠzhongĠ daĠ
ĠjiaĠ zuĠ
naĠ cui
guanĠliĠ juĠ
hu ĠweiĠ
yang ĠxingĠ
pei ĠzhiĠ
haiĠ baĠweiĠ
z Ġ
Ġ Co
ti ĠweiĠ
ĠkeĠ xiĠ
shanĠ fengĠ
ye ĠyiĠ
ĠjiĠ houĠ
tongĠ mingĠ
dongĠshiĠ zhangĠ
Ġ jiuĠshiĠ
zou ĠxiangĠ
xiaoĠ fangĠ
ĠĠĠ zhengĠ
zai ĠliĠ
zhu ĠweiĠ
te ĠĠĠ
ĠyouĠ zhongĠ
daĠ xiĠyangĠ
Ġ xu
liang ĠdaĠ
suoĠ caiĠyong
Ġbing ĠweiĠ
Ġ zengĠ
ĠĠĠ yingĠ
ĠbuĠ duanĠ
zhanĠ lve
ĠshiĠyiĠ buĠ
ĠxiĠ lie
ĠdaĠ duoĠshuĠ
gaiĠ zaoĠ
nengĠ yuanĠ
shou ĠrenĠ
erĠ tongĠ
19 Ġ
jun ĠrenĠ
ce ĠĠĠ
gongĠ chengĠshiĠ
23 ĠnianĠ
zhanĠ lanĠ
zhiĠshiĠ qiĠ
kaoĠ lv
5 ĠmiĠ
han ĠdeĠ
jieĠ tiĠ
ganĠ ranĠ
z ei
guĠ dingĠ
mengĠ gu
ba ĠheĠ
man ĠdiĠ
ĠbuĠ erĠ
wen ĠzhongĠ
ĠzaiĠ youĠ
geĠ juĠ
ĠĠĠ jingĠ
tai ĠheĠ
lun ĠshiĠ
leĠ zheĠ
Ġ ruoĠ
Ġ ku
jun ĠzhongĠ
ĠguoĠ neiĠ
shangĠ shengĠ
boĠ linĠ
ĠweiĠyuĠ gaiĠ
ge ĠyuĠ
jie ĠliĠ
muĠ qian
jueĠ duiĠ
jie ĠzhongĠ
hui ĠyiĠyuanĠ
zhengĠ xie
gong ĠliĠdeĠ
kou ĠdeĠ
ĠshiĠ yeĠ
ĠerĠ feiĠ
diaoĠ kuai
aiĠerĠ lanĠ
c ĠĠĠ
dao ĠweiĠ
xiaoĠ feiĠ
ĠfuĠ qinĠ
mianĠ duiĠ
Ġ 187
qianĠ dingĠ
xiaĠ lingĠ
ĠdeĠyiĠ shuĠ
ĠdongĠ nanĠ
san ĠweiĠ
ĠweiĠ UTCĠ
shengĠ diĠ
zhuĠyiĠ zheĠ
xiongĠ yaĠliĠ
lianĠheĠ huiĠ
Ġ 28
zhou ĠyiĠ
san ĠdaĠ
yanĠ haiĠ
Ġc nĠ
ĠĠĠ jiaoĠtongĠ
zhu ĠheĠ
wen ĠheĠ
ĠerĠ qiĠ
ziĠ shenĠ
diaoĠkuai ĠyiĠxiaoĠshiĠ
Ġ genĠ
ĠĠĠ maĠ
cheng ĠyouĠ
zhang ĠyueĠ
chong ĠjiĠ
1978 ĠnianĠ
guoĠ huiĠ
liuĠ xiaĠ
chuangĠ zaoĠ
luo ĠshiĠ
bian ĠyiĠ
lao ĠshiĠ
ĠjiĠ UTCĠ
paiĠ qianĠ
sheĠyouĠ xiaĠlingĠshiĠjianĠ
ĠdeĠshiĠquĠweiĠ UTCĠ
ĠerĠgaiĠdiĠ suoĠcaiĠyong
ĠtongĠshiĠgaiĠdiĠ sheĠyouĠxiaĠlingĠshiĠjianĠ
ĠerĠgaiĠdiĠsuoĠcaiĠyong ĠdeĠshiĠquĠweiĠUTCĠ
shu ĠrenĠ
nanĠ haiĠ
Ġling ĠyouĠ
jingĠ gaoĠ
jianĠliĠ leĠ
miĠshuĠ zhangĠ
ming ĠzhongĠ
xiangĠ tongĠdeĠ
bingĠ feiĠ
lieĠ ruĠ
guan ĠheĠ
zhang ĠheĠ
cai ĠdeĠ
in Ġ
biĠyeĠ houĠ
gaoĠyuĠ haiĠpingĠmianĠ
dang ĠjiĠ
ĠzhongĠ gongĠzhongĠyangĠ
ru ĠdeĠ
ĠqiĠ fuĠ
biaoĠ benĠ
Ġ chi
Ġ sa
ĠzhongĠ shanĠ
gaiĠ mingĠweiĠ
quĠdeĠ mianĠjiĠweiĠ
ĠqiĠzhongĠ baoĠkuoĠ
haiĠbaĠweiĠ gaoĠyuĠhaiĠpingĠmianĠ
jinĠ xingĠdeĠ
fa ĠzhiĠ
mang Ġ
jingĠ duĠ
guanĠ cha
changĠ suoĠ
tan ĠxianĠ
shouĠ xianĠ
ĠgeĠ quĠ
zhan ĠyuĠ
ĠshiĠ beiĠ
buĠshiĠ quĠ
Ġ ziĠyouĠ
fang ĠjiĠ
daĠ louĠ
zhengĠ ce
banĠ ben
da ĠyiĠ
st Ġ
.. .
Ġyue ĠyiĠ
Ġ shanĠxiĠ
shang ĠdiĠ
chao ĠyueĠ
qun ĠzhongĠ
26 ĠnianĠ
al ĠĠĠ
Ġ 2025
Ġ 2015ĠnianĠ
ben ĠrenĠ
dou ĠzaiĠ
pingĠ guĠ
tiao ĠjieĠ
yanĠ seĠ
zhangĠ fuĠ
cunĠ luoĠ
st ĠĠĠ
tuĠ jingĠ
yi ĠshiĠdeĠ
suo ĠzaiĠdiĠ
shuang ĠdaĠ
1972 ĠnianĠ
cheĠ xiangĠ
ĠhuoĠ dongĠ
ĠluoĠ maĠ
li ĠdeĠ
deng ĠzhiĠ
ĠdaĠ luĠ
Ġ 24
danĠ baiĠ
Ġ rongĠ
gong ĠweiĠ
17 Ġ
gongĠ neng
suoĠchuĠdeĠ haiĠbaĠweiĠgaoĠyuĠhaiĠpingĠmianĠ
changĠ jingĠ
3Ġ haoĠ
tuiĠ xiuĠ
sheĠ xianĠ
feiĠ erĠdeĠ
xiao ĠyuĠ
ĠbuĠ xiangĠ
ĠĠĠ 190
duan ĠshiĠjianĠ
lai ĠsiĠ
jianĠ kangĠ
shenĠ huaĠ
luoĠ faĠ
Ġer ĠdeĠ
ou ĠxiangĠ
san ĠrenĠ
diĠ xiaĠ
ĠzaiĠ taĠ
huiĠ guiĠ
ĠerĠ buĠshiĠ
tiĠ xingĠ
yinĠ xiangĠ
caiĠ nengĠ
ĠdeĠjiĠ luĠ
ĠĠĠ anĠ
le ĠdeĠ
yan ĠrenĠ
daĠ buĠfen
Ġ shuoĠ
yan ĠheĠ
ction ĠĠĠ
quĠ zhuĠ
ĠmeiĠ yuanĠ
yin ĠyuĠ
luo ĠyuĠ
juĠ leĠ
naĠ xieĠ
Ġ Y
zuĠqiuĠ duiĠ
ĠĠĠ 4
mian ĠyiĠ
shuai ĠlingĠ
ĠqiĠ xuanĠ
zaiĠyiĠ qiĠ
ĠĠĠ 2Ġ
xuan ĠzhongĠ
1979 ĠnianĠ
boĠ lan
keĠnengĠ huiĠ
qian ĠyueĠ
yanĠ zhongĠdeĠ
yongĠ leĠ
ĠluĠ wa
Ġ Mi
ĠyiĠ shengĠ
ĠheĠ daoĠ
zuĠ cheng
Ġwan ĠliĠ
canĠ xuanĠ
kong ĠxiĠ
ĠzhongĠ dianĠ
Ġsui ĠshiĠ
ĠĠĠ diĠyiĠ
Ġnian ĠshiĠjieĠ
huĠ xiangĠ
quan ĠyiĠ
se ĠfuĠ
fuĠ xingĠ
changĠ shangĠ
lianĠ luoĠ
zhou ĠliĠ
qingĠ jieĠ
9 ĠrenĠ
dan ĠshiĠ
Ġ 2016ĠnianĠ
tu ĠjiĠ
1958 ĠnianĠ
tiĠgongĠ leĠ
que ĠshiĠ
beiĠ fangĠ
daiĠ lingĠ
kai ĠdeĠ
beiĠ siĠ
guan ĠyiĠ
mu ĠerĠ
17 ĠnianĠ
huaĠ jiaĠ
ĠmaĠ lai
Ġ 2007
Ġ 7Ġ
Ġ chaoĠxianĠ
shu ĠbuĠ
fa ĠyiĠ
ding ĠliĠ
60 Ġ
xianĠ zhuĠ
duiĠ yingĠ
zhenĠ quĠdeĠmianĠjiĠweiĠ
Ġ 2023
ĠĠĠ meiĠ
23 Ġ
ĠzhiĠ shuĠ
ziĠ chanĠ
faĠ shengĠzaiĠ
1 ĠgeĠ
zhong ĠyiĠyuanĠ
nei ĠdiĠ
heĠ liuĠ
ceng ĠdeĠ
diĠ quĠdeĠ
zhengĠ bianĠ
mianĠ feiĠ
u Ġ
er i
diĠ wuĠ
zuiĠ duoĠ
zhuanĠ menĠ
zuĠqiuĠ juĠleĠbuĠ
ĠĠĠ 2008
qian ĠxiĠ
kao ĠshiĠ
geĠ guoĠ
baoĠ luoĠ
suĠ geĠlanĠ
ĠshouĠ daoĠ
ti ĠheĠ
shang ĠjiĠ
yan ĠjiĠ
bing ĠyuĠ
she ĠzaiĠ
ziĠ xun
guanĠ ceĠ
muĠsiĠ linĠ
ru ĠweiĠ
kaĠ laĠ
ĠyuanĠ mingĠ
shen ĠyiĠ
sheĠ jiĠshiĠ
ĠshouĠ ciĠ
Ġ 2ĠyueĠ
san ĠbuĠ
zhongĠ yao
baoĠ cunĠ
tianĠ houĠ
ĠĠĠ yanĠ
ĠyuĠ xiĠ
wuĠ guanĠ
ĠĠĠ xingĠ
ĠbuĠ laĠ
feiĠ yanĠ
zaoĠ shangĠ
zhongĠguoĠ daĠluĠ
k ĠĠĠ
o nal
ll Ġ
16 ĠnianĠ
mianĠ dianĠ
gengĠ xinĠ
qing ĠrenĠ
1976 ĠnianĠ
ĠĠĠ ran
chu ĠweiĠ
ping ĠguoĠ
tui ĠjianĠ
liao ĠdeĠ
cu Ġ
quanĠ xianĠ
gao ĠshiĠ
chai Ġ
guoĠ neiĠ
chuanĠ tongĠdeĠ
ĠbeiĠ chengĠweiĠ
1960 ĠnianĠ
juĠ fengĠ
wanĠ zhengĠ
shouĠ quanĠ
ĠxiangĠ guanĠ
zhu ĠzhongĠ
shu ĠzaiĠ
lang ĠzhongĠ
tongĠ xunĠ
hua ĠzaiĠ
bianĠ jingĠ
shanĠ xianĠ
jue ĠyuĠ
00 Ġ
miao ĠhuiĠ
yuanĠ xianĠ
xieĠ zuoĠ
Ġ kan
fuĠ zhuĠ
zan ĠzhuĠ
ĠdiĠ diĠ
tuĠ shuĠ
l li
Ġ shao
cheng ĠzaiĠ
mu ĠyuĠ
guiĠ mo
ju ĠzaiĠ
ba ĠsiĠ
pian ĠzhongĠ
geĠ laĠ
faĠ mingĠ
ĠdiĠ qiuĠ
luoĠ shanĠjiĠ
cheĠ changĠ
Ġ peng
Ġ 2019ĠnianĠ
li ĠziĠ
feng ĠdeĠ
ve Ġ
You Tu
ĠzhongĠ xingĠ
piĠ zhun
p p
Ġ 50
ĠĠĠ gongĠ
ĠshiĠ jiaĠ
ĠzhiĠ waiĠ
ĠliĠ chengĠ
ĠĠĠof ĠĠĠ
ba ĠdaĠ
tun Ġ
xingĠ muĠ
xianĠ ruĠ
jinĠ riĠ
quĠ jianĠ
zhangĠ zhuanĠjiĠ
ĠzuiĠ gaoĠ
Ġ lv
xing ĠzaiĠ
xue ĠzhongĠ
ĠnianĠ laiĠ
ĠbiĠ saiĠ
Ġ nuoĠ
yin Ġyue
zhou ĠrenĠ
pingĠ lun
jiang ĠyiĠ
ĠshanĠ dongĠ
guoĠminĠ dangĠ
Ġ hei
Ġ 26
Ġ xiaoĠshiĠ
Ġ jueĠdingĠ
liang ĠheĠ
bian ĠzhiĠ
jiuĠ yuanĠ
ĠĠĠ renĠ
chuĠ zhangĠ
ĠdeĠshiĠ yongĠ
Ġci ĠnianĠ
gai ĠzhiĠweiĠ
ĠliĠ liangĠ
ĠyouĠ zaiĠ
luo ĠliĠdaĠ
lin ĠsiĠ
ĠshiĠ taĠ
ĠyuĠ beiĠ
juĠ benĠ
jiaoĠ duĠ
tianĠ zhuĠ
zaoĠ chengĠdeĠ
Ġ 2017ĠnianĠ
xiaoĠ yingĠ
g ra
ao ĠerĠ
shouĠ boĠ
su ĠliĠ
ĠshiĠjianĠ zhuĠ
ban ĠjiĠ
1920 ĠnianĠ
shangĠ xianĠ
zhangĠ ziĠ
huĠ lianĠ
Ġ 2018ĠnianĠ
ĠĠĠ dongĠ
diĠ qiĠ
Ġhuo ĠshiĠ
Ġ i
fuĠ shuĠ
zhanĠ muĠsiĠ
ai ĠliĠ
Ġ tang
Ġ lianĠheĠ
yun ĠdeĠ
lie ĠshiĠ
tou ĠxianĠ
luĠ zhanĠ
ĠhouĠ zheĠ
ji ĠĠĠ
ĠĠĠ geĠrenĠ
ding ĠjiĠ
ĠweiĠ beiĠ
yunĠ yongĠ
ma ĠshiĠ
co l
naĠ xiaĠ
ĠĠĠ nanĠ
huai ĠyiĠ
ĠpuĠ taoĠ
ĠĠĠ duiĠ
xia ĠzaiĠ
xu ĠjiĠ
ĠyiĠ dongĠ
ĠweiĠyuĠ zhongĠguoĠ
ĠĠĠ baĠ
chu ĠzhongĠ
guan ĠjiĠ
miĠ niĠ
ĠyingĠ wenĠ
Ġ sang
can ĠyiĠ
ĠdiĠ yaĠ
huoĠ cheĠ
qiangĠ duĠ
yao ĠshiĠ
baoĠ hu
leiĠ siĠdeĠ
Ġai ĠerĠ
shao ĠdeĠ
xinĠ guanĠ
huoĠ biĠ
Ġ shuang
zha ĠdanĠ
jiaoĠ chaĠ
ba ĠerĠ
ĠzhiĠ buĠ
juĠ banĠdeĠ
xueĠ keĠ
chuanĠ meiĠ
ĠgaiĠ bianĠ
canĠ tingĠ
Ġ zaĠzhiĠ
dao ĠzaiĠ
dui ĠzhongĠ
ĠnianĠ diĠ
bingĠ duĠ
xingĠzhengĠ quĠ
ĠxuĠ yaoĠ
Ġ zuĠzhiĠ
ch Ġ
ĠshiĠ chengĠ
xiĠ nanĠbuĠ
zuiĠ zao
taiĠ houĠ
Ġming ĠzhiĠ
xinĠjiaĠ po
wu ĠyueĠ
zheng ĠjiĠ
luo ĠyiĠ
faĠ xianĠdeĠ
tiĠ chuĠdeĠ
ĠshiĠyiĠ keĠ
ĠxinĠ wenĠ
gan ĠyuĠ
Ġ 35
Ġ kouĠ
Ġ 30Ġ
fa ĠliĠ
ĠdaĠ buĠfen
zhuanĠ xieĠ
Ġ yang
ĠĠĠ 2009
zong ĠyiĠ
juĠ ban
taiĠ kongĠ
Ġ 2006
xi ĠyouĠ
chu ĠguoĠ
xue ĠliĠ
zhe ĠheĠ
bai ĠyuĠ
pin ĠdeĠ
ĠshiĠ erĠ
jueĠ sai
ĠshiĠshiĠ yongĠ
zong ĠrenĠkouĠ
teĠ quĠ
suiĠ ran
Ġ lunĠ
ĠĠĠ 10
dai ĠyiĠ
ĠbingĠ beiĠ
Ġ hangĠ
zhuĠ daoĠ
xiangĠ faĠ
ĠxiĠ yinĠ
qingĠ zhuĠ
jiang ĠliĠ
meiĠ junĠ
ĠĠĠ houĠ
xue ĠjiĠ
al Ġ
ĠdiĠ zaiĠ
tongĠ xinĠ
Ġ chunĠ
Ġ 2004ĠnianĠ
shangĠ wangĠ
ba ĠdeĠ
ĠnianĠ qianĠ
jinĠ rong
jiaoĠ huanĠ
wuĠzhengĠzhuangĠ ganĠranĠzheĠ
Ġ yanĠjiuĠ
Ġ 2021ĠnianĠ
xing ĠshiĠdeĠ
su ĠzhiĠ
tou ĠdeĠ
fuĠ muĠ
he ĠĠĠ
mi ĠsiĠ
te ĠjiĠ
chengĠ leĠ
sheĠ jiaoĠ
duanĠ pianĠ
Ġma ĠliĠ
ĠchuĠ banĠ
aĠ genĠ
sui ĠzheĠ
xinĠ jianĠ
shen ĠyuĠ
ve ĠĠĠ
geĠ ziĠ
ĠdeĠyiĠ yuanĠ
ju ĠzhiĠ
dui ĠjiĠ
dian ĠweiĠ
min ĠyiĠ
1968 ĠnianĠ
qiĠ zhongĠ
zuĠ jieĠ
ĠshiĠrenĠ minĠ
xianĠzhiĠ xianĠ
Ġ 29
ĠĠĠ liuĠ
xian ĠliĠ
ta ĠyiĠ
che ĠdiĠ
fangĠ mian
minĠ zu
Ġ shui
shou ĠbuĠ
chuan ĠqiĠ
1964 ĠnianĠ
faĠ sheng
guĠ laĠ
huangĠ seĠ
ĠĠĠ tianĠ
dang ĠnianĠ
1956 ĠnianĠ
biĠ xu
yong ĠzaiĠ
te ĠheĠ
ĠdeĠ huaĠ
daĠ xiaoĠ
zhengĠ quĠ
huoĠ shengĠ
teĠ dianĠ
Ġta ĠheĠ
ĠĠĠshiĠ yongĠ
Ġ 2020ĠnianĠ
du ĠguoĠ
zhang ĠzhiĠ
zan ĠshiĠ
Ġ mao
qiĠ laiĠ
xiĠ beiĠbuĠ
siĠ daĠ
Ġ shun
zui ĠdiĠ
lin ĠjinĠ
leĠ yuanĠ
luoĠ chengĠ
zuiĠ zaoĠ
yunĠ dongĠdeĠ
bangĠ qiuĠ
buĠdeĠ cunĠzhuangĠ
Ġ huan
gaoĠ duĠweiĠ
ĠyouĠ zhuĠ
lai ĠyuĠ
changĠ biĠsaiĠ
gangĠ kouĠ
xunĠ lian
gongĠyuanĠ qianĠ
Ġ ge
ci ĠdiĠ
chengĠ jiuĠ
xinĠ jiangĠ
gongĠzuo ĠshiĠ
an ĠzhiĠ
dan ĠdaĠ
wuĠ diĠ
Ġ weiĠyiĠ
yong ĠjiĠ
ĠgongĠ yeĠ
ĠshuangĠ fangĠ
qiĠ cheĠ
lingĠ chenĠ
1980 ĠnianĠdaiĠ
xianĠ chengĠ
faĠ tingĠ
e ĠdeĠ
Ġ 27
ĠshiĠ houĠ
zhongĠ huaĠminĠguoĠ
shanĠ maiĠ
ĠdeĠyiĠ xieĠ
chuĠbanĠ sheĠ
jingĠneiĠ gongĠyouĠ
Ġ Q
xian ĠzhongĠ
shengĠ daoĠ
Ġ ì
hui ĠweiĠ
xianĠ shangĠ
jiangĠ shuĠ
sanĠ mingĠ
dao ĠyouĠ
hou ĠjiĠ
han ĠziĠ
ĠyiĠ gongĠ
xinĠ jieĠ
ĠxiangĠ muĠ
ĠgeĠ shouĠ
Ġ Jo
xiao ĠliĠyuĠ
hai ĠzaiĠ
qiĠ houĠ
ĠjiaĠ laĠ
le ĠzhongĠ
lieĠ chuĠ
cheng ĠzhiĠweiĠ
san ĠzhongĠ
xiu ĠdaoĠ
Ġ henĠ
ĠdaĠ jiaĠ
qianĠ jinĠ
ĠheĠ liuĠ
daĠ diĠ
laiĠ yinĠ
zanĠ tingĠ
bi ĠliĠshiĠ
bai ĠkeĠ
ĠyiĠ bianĠ
Ġzhao ĠheĠ
w ĠĠĠ
ruan ĠtiĠ
th Ġ
jianĠ duĠ
yeĠ fuĠ
Ġta ĠyouĠ
ĠerĠgaiĠ diĠdeĠ
ĠĠĠ daoĠ
tong ĠheĠ
ĠdaĠ jiangĠ
ĠdanĠ yinĠ
jin ĠyuĠ
fen ĠqiĠ
dui ĠheĠ
huo ĠzaiĠ
qianĠ tingĠ
Ġtong ĠyiĠ
ĠliangĠ geĠ
tiĠ daiĠ
ĠĠĠgaiĠ yaoĠ
ĠbuĠ daoĠ
xiangĠ yingĠ
ĠweiĠfuĠqiĠyuĠ gang
ao ĠdeĠ
dui ĠdiĠ
ya ĠrenĠ
1990 ĠnianĠdaiĠ
chengĠ quĠ
jingĠ guanĠ
wangĠ wangĠ
ĠtaĠmen ĠzaiĠ
fa ĠjiĠ
tan ĠheĠ
faĠ dongĠjiĠ
Ġ dianĠshiĠ
an ĠliĠ
que ĠbaoĠ
maĠ touĠ
ĠzuiĠ chuĠ
ĠcaiĠ yongĠ
xing ĠyouĠ
qun ĠtiĠ
1970 ĠnianĠ
ĠqiĠ bingĠ
bianĠ yuanĠ
Ġ X
dan ĠyiĠ
buĠ menĠ
ch uo
yun ĠheĠ
na ĠheĠ
pin ĠzhongĠ
1981 ĠnianĠ
Ġli ĠliĠ
fuĠ haoĠ
pingĠ yuanĠ
ĠdeĠshiĠ jiĠ
wan ĠliĠ
shuĠ chuĠ
Ġ ceĠ
Ġ jinĠshiĠ
chang ĠjiĠ
jiu ĠzaiĠ
kuo ĠjianĠ
ĠtaĠ renĠweiĠ
dian ĠshiĠjieĠ
siĠ lanĠ
yeĠ keĠyiĠ
fenĠ peiĠ
ĠĠĠjiaĠ tingĠ
ĠyueĠ duiĠ
ĠxiĠ tongĠdeĠ
juĠ yuanĠ
guiĠ fanĠ
Ġ nengĠ
Ġ 2002ĠnianĠ
1948 ĠnianĠ
fuĠ za
sheĠ dingĠ
canĠ shuĠ
chuangĠ zuoĠdeĠ
pei ĠbeiĠ
wuĠ shuĠ
leĠyiĠ xieĠ
beiĠ jing
tuiĠ guangĠ
daĠshiĠ guanĠ
riĠben ĠdeĠ
quĠ fenĠ
jiaoĠ tang
suiĠ ranĠ
senĠ lin
e ĠguoĠ
Ġ Ro
ĠĠĠ shouĠ
ma ĠkeĠsiĠ
qiu ĠshiĠ
jieĠ duan
ĠzhongĠguoĠrenĠminĠ jieĠfangĠjunĠ
D ĠĠĠ
xuan ĠshiĠ
1952 ĠnianĠ
wuĠ zhuang
qianĠ shenĠ
saiĠ erĠweiĠ
gengĠ duoĠdeĠ
Ġxian ĠweiĠ
Ġ 40
Ġ Re
la ĠweiĠ
changĠ duĠ
tieĠluĠ cheĠzhanĠ
ĠzhongĠ jianĠ
beiĠ daĠ
yaĠ muĠ
duo ĠerĠ
ĠqiĠ zhong
zhongĠ buĠ
ĠyouĠ liangĠ
deng ĠyuĠ
ĠliĠ fuĠ
ĠqiĠ heĠ
shangĠ zhenĠ
baoĠ han
yeĠ jianĠ
duiĠ fangĠ
Ġ nongĠ
Ġ zhuanĠjiĠ
ĠĠĠ wangĠ
le ĠdiĠ
dou ĠbeiĠ
ĠbuĠ siĠ
chuĠ ziĠ
yeĠ shengĠyaĠ
5 ĠgeĠ
wang ĠweiĠ
mai ĠdeĠ
chengĠ weiĠyiĠ
yanĠ jingĠ
zeĠ dongĠ
zhang ĠjiĠ
ceng ĠshiĠ
banĠ jiangĠ
dengĠ changĠ
buĠdeĠ buĠ
ĠzaiĠ neiĠdeĠ
tuĠ xiangĠ
Ġ sunĠ
an ĠjiĠ
shan ĠdiĠ
ĠyiĠ meiĠ
qingĠ chaoĠ
s te
wen ĠjiĠ
tou ĠbuĠ
cong ĠweiĠ
keĠ yunĠ
zuĠ fuĠ
ĠgongĠ qingĠ
jun ĠbuĠ
huang ĠjinĠ
yeĠ shengĠ
teĠ laĠ
suĠ lian
Ġ 8Ġ
ze ĠyuĠ
kaiĠ gongĠ
ĠjieĠ shuĠ
lvĠ seĠ
YouTu be
xing ĠliĠ
hao ĠyouĠ
100 Ġ
zheĠ yangĠ
banĠ yanĠ
bei ĠliĠ
du ĠjiĠ
nan ĠsiĠ
Ġ tao
Ġ 45
1975 ĠnianĠ
zhuĠ ceĠ
xieĠ shangĠ
chiĠ xu
ĠshiĠshiĠ shangĠ
Ġ cunĠ
ĠĠĠ 193
shen ĠkeĠ
chen ĠjiĠ
1946 ĠnianĠ
1966 ĠnianĠ
riĠ baoĠ
dangĠ tianĠ
ĠziĠ yuanĠ
zhe ĠzhiĠ
che ĠshiĠ
ĠzaiĠ heĠ
ĠxiĠ anĠ
aĠlaĠ bo
jinĠ quĠ
fenĠ zhiĠyiĠ
xiaoĠ jieĠ
cheĠ duiĠ
ĠdeĠjiĠ huaĠ
Ġ tun
qu ĠyouĠ
quan ĠjiĠ
zhuan ĠweiĠ
Ã© Ġ
luĠ shangĠ
shenĠ meĠ
ĠfuĠzeĠ guanĠxiaĠ
mu ĠheĠ
deng ĠshiĠ
wai ĠweiĠ
dongĠ xianĠ
seĠ lie
ĠshiĠshiĠ jiĠ
Ġ Ï
sha ĠdeĠ
weiĠ yuanĠ
ĠqiĠ dongĠ
baiĠ wanĠ
dui ĠzhiĠ
ĠyiĠ qianĠ
xiangĠ qiĠ
haoĠ pingĠ
m p
ĠĠĠ chengĠ
bao ĠheĠ
fuĠ erĠ
zhengĠ shuĠ
shouĠ shuĠ
fanĠ ying
ĠfenĠ bieĠ
Ġ guang
ss Ġ
xuanĠ chengĠ
zongĠ jianĠ
ĠĠĠ guĠ
bing ĠzaiĠ
ĠzhongĠ qiĠ
mianĠ tiĠ
daiĠbiaoĠ tuanĠ
feiĠlvĠ bin
Ġ wa
ĠqiĠ xiĠzaiĠ
xiaoĠ liangĠ
qu ĠzhongĠ
hang ĠyeĠ
teĠ leiĠ
ĠbaoĠ huĠ
i r
ĠĠĠ de
biao ĠjiĠ
lie ĠsiĠ
yuanĠ benĠ
laiĠ naĠ
canĠ jia
Ġse ctionĠĠĠ
ĠĠĠ zhangĠ
zhan ĠweiĠyuĠ
feng ĠshiĠ
ĠyiĠ nian
ĠgeĠ leiĠ
Ġbing ĠbuĠ
ĠĠĠran ĠerĠ
lu ĠheĠ
zong ĠzhiĠ
ĠyuĠ 19
chuĠ xianĠdeĠ
haiĠ shangĠ
chang ĠdaĠ
jiang ĠyouĠ
bai ĠzhiĠ
niao ĠleiĠ
ĠyiĠ keĠ
fenĠ siĠ
tuĠ chuĠ
ĠgongĠ kaiĠ
zhan ĠyouĠ
duo ĠshiĠ
ĠqiĠzhongĠ nanĠxingĠ
ĠjiangĠ suĠ
Ġ pi
ĠĠĠ guangĠ
liang ĠbuĠ
hai ĠdiĠ
ni ĠxiĠyaĠ
1947 ĠnianĠ
jinĠ zhanĠ
baoĠ zha
ĠsiĠ daĠ
xie ĠweiĠ
gongĠ daĠ
moĠ niĠ
shaoĠ nvĠ
zhongĠguoĠ renĠminĠ
Ġ jianĠliĠ
bi ĠerĠ
zhang ĠyiĠ
dai ĠyuĠ
yanĠ anĠ
shenĠ zhenĠ
puĠtaoĠ yaĠ
xingĠ dong
geĠ buĠ
ĠĠĠgenĠjuĠ 2020ĠnianĠmeiĠguoĠrenĠkouĠpuĠchaĠdeĠshuĠjuĠ
¡ Ġ
ju ĠweiĠ
hou ĠzhiĠ
lu ĠyiĠsiĠ
xia ĠdiĠquĠ
ding ĠxingĠ
tion ĠĠĠ
changĠ jiangĠ
ĠlianĠ jieĠ
â Ĩ
zai ĠyiĠgeĠ
zhan ĠweiĠ
ĠguoĠ wuĠyuanĠ
daoĠ danĠ
laiĠ ziĠyuĠ
feiĠ yongĠ
Ġliu ĠyuĠ
Ġ fou
ĠĠĠ jingĠjiĠ
daĠ duoĠ
fuĠ zhouĠ
xiaoĠ xiangĠ
ĠĠĠ 2019ĠnianĠ
gong ĠyueĠ
jiao ĠdiĠ
zhengĠ mianĠ
fa ĠheĠ
ha ĠliĠ
1937 ĠnianĠ
ĠyouĠ suoĠ
gongĠkaiĠ saiĠ
Ġ 2000ĠnianĠ
zu ĠrenĠ
tian ĠjiaĠ
qiong Ġ
ĠshiĠ xiĠ
ĠguoĠ jiaĠdeĠ
ziĠ benĠ
ĠjinĠ shuĠ
kuoĠ zhangĠ
A N
ĠĠĠ The
dang ĠzaiĠ
Ġ 2005
hou ĠbuĠ
ĠshiĠ buĠ
xueĠ yeĠ
yuanĠzhuĠ minĠ
keĠ erĠ
beiĠ poĠ
ĠweiĠyuanĠhui ĠweiĠyuanĠ
Ġ 200
Ġ 2024
shu ĠdeĠzhiĠwuĠ
bei ĠyueĠ
wang ĠjiĠ
yang ĠheĠ
cha ĠshiĠ
1954 ĠnianĠ
ĠzaiĠ buĠ
leĠ duiĠ
yanĠ jiangĠ
taiĠ nanĠ
xuanĠ juĠzhongĠ
ĠB Ġ
ĠĠĠ 0
huo ĠliĠ
shui ĠdeĠ
gan ĠxianĠ
ĠnianĠ qingĠ
juĠ min
ĠshiĠyiĠ zuoĠ
Ġ SA
Ġ zuiĠjiaĠ
zhanĠ shuĠ
ĠshiĠdeĠ shiĠ
ĠĠĠqiĠ zhongĠ
Ġ In
lai ĠkeĠ
chuĠ changĠ
zheĠ yangĠdeĠ
chengĠliĠ houĠ
ĠjiĠjinĠ huiĠ
nanĠjiĠ zhouĠdeĠ
guĠfen ĠyouĠxianĠgongĠsiĠ
Ġ sai
gan ĠdeĠ
wo ĠerĠ
guĠ dianĠ
ri ĠyiĠ
jianĠ kang
huiĠ daĠ
wenĠ tiĠdeĠ
meiĠ guo
zongĠ caiĠ
ĠweiĠfuĠqiĠyuĠ gangĠ
ta ĠrenĠ
duo ĠliĠyaĠ
daĠ guiĠmoĠ
gongĠ anĠ
ĠguoĠ gongĠ
Ġhan tĠ
nuo ĠyiĠ
keĠ luoĠ
reĠdaiĠ fengĠbaoĠ
Ġ kaoĠ
ing Ġ
hu ĠxiĠ
ri ĠyuĠ
zuo ĠzhiĠ
shuai Ġling
1974 ĠnianĠ
Ġta ĠjiĠ
canĠ kao
ĠS Ġ
Ġ niuĠ
ĠĠĠ zhuĠyaoĠ
bie ĠdeĠ
ĠyuĠ diĠ
xinĠ taiĠ
men ĠshiĠ
ĠzhongĠ wenĠ
gongĠ jiaoĠ
zhuĠ banĠ
ĠdiĠ tuĠ
xuanĠ chuĠ
ĠshiĠyiĠ zhiĠ
cunĠ zaiĠdeĠ
ĠqianĠ wangĠ
ĠheĠ qiĠtaĠ
zuoĠ faĠ
ĠdaĠ erĠ
naĠ shengĠ
zhuanĠ yongĠ
hangĠ tianĠ
ru ĠyiĠ
meiĠguoĠ renĠ
xianĠdeĠyiĠgeĠ feiĠjianĠzhiĠdiĠquĠ
Ġ 2022ĠnianĠ
ya ĠzhongĠ
ĠzhiĠ shaoĠ
fangĠ miĠ
Ġ bao
Ġ lei
ĠĠĠ fanĠ
xue ĠbuĠ
qun ĠdeĠ
ĠshiĠ faĠ
youĠyiĠ xieĠ
ĠlingĠ wai
mei ĠshiĠ
ban ĠrenĠ
ding ĠzaiĠ
ĠzhiĠ jingĠ
luĠ wa
liangĠ ziĠ
lan ĠyuĠ
ck Ġ
duiĠ kangĠ
e ĠweiĠ
rao ĠtaiĠyangĠ
1955 ĠnianĠ
ciĠ quĠ
maĠ laiĠ
ĠnianĠyiĠ laiĠ
Ġ dunĠ
shang ĠweiĠyouĠ
jiu ĠyouĠ
ĠxingĠ jianĠ
xieĠ dingĠ
Ġ luo
Ġ 2003ĠnianĠ
ge ĠzaiĠ
ying ĠerĠ
niang Ġ
Ġ touĠguoĠ
ĠĠĠ 16
Ġyue ĠheĠ
duĠ huiĠ
chuan ĠguoĠ
wuĠ geĠ
sanĠ ciĠ
ĠzheĠ yangĠ
c ro
Ġ yong
ĠĠĠ 2007
shang ĠheĠ
II Ġ
zongĠ huiĠ
ĠfaĠ zhanĠ
ĠĠĠ 3ĠyueĠ
boĠ jueĠ
ĠxinĠ zengĠ
guoĠjiaĠ duiĠ
ĠguanĠ fangĠ
ĠĠĠqiĠ houĠ
jiaoĠ jieĠ
ĠshiĠyongĠ leĠ
haiĠbaĠ gaoĠduĠweiĠ
guang ĠdeĠ
gongĠ jueĠ
leiĠ xingĠdeĠ
Ġdang ĠshiĠdeĠ
jiaoĠyuĠ buĠ
wu ĠyouĠ
xingĠ zheng
wenĠ ti
ĠfuĠ qin
ĠjinĠ ru
Ġdan ĠqiĠ
ĠĠĠ jiangĠ
ta ĠheĠ
wai ĠxingĠ
gen ĠsuiĠ
ĠdiĠ liuĠ
yanĠ lunĠ
ĠsiĠ taĠ
ĠrenĠminĠ biĠ
fenĠbie ĠweiĠ
jin ĠzaiĠ
wang ĠzhiĠ
ĠdaoĠ yanĠ
nongĠ cun
Ġ ouĠzhouĠ
ĠyiĠ daĠ
daiĠ maĠ
sheĠ yingĠ
lianĠ sai
gaoĠ xiaoĠ
jianĠzhuĠ wuĠ
v Ġ
wang ĠyuĠ
zhanĠ changĠ
xuanĠ ju
ĠdeĠjiĠ huiĠ
qiaoĠ liangĠ
a ĠfuĠ
ĠĠĠ luoĠ
ĠĠĠ yueĠ
ĠĠĠ pingĠjiaĠ
fen ĠjiĠ
ĠdiĠ dianĠ
jingĠ saiĠ
Ġdan ĠweiĠ
xunĠyangĠ jianĠ
W Ġ
tuan ĠjieĠ
song ĠdaoĠ
ĠshiĠ bingĠ
guoĠ chengĠ
shuĠ muĠ
shouĠ faĠ
fenĠ jieĠ
quanĠ shuĠ
ĠdeĠyiĠ meiĠ
ĠshiĠyiĠ daĠliĠ
bei ĠheĠ
ĠyiĠ waiĠ
ĠkeĠ luoĠ
zuiĠ zaoĠdeĠ
cengĠ shuiĠyuĠ
ĠĠĠ faĠ
guai Ġ
ĠyiĠ chanĠ
shouĠ duanĠ
duanĠ zan
xiaĠyiĠ xiaĠdiĠquĠ
yingĠxiang ĠliĠ
ĠĠĠ chuĠleĠ
guo ĠshiĠqiĠ
pu ĠliĠ
ĠyiĠ heĠ
pingĠ jieĠ
xunĠ zhaoĠ
zhuanĠdeĠ xiaoĠxingĠxingĠ
fa ĠweiĠ
xin ĠzhongĠ
ĠyiĠ xiangĠ
jiaĠ mengĠ
jiangĠ beiĠ
Ġjiang ĠqiĠ
guoĠjiĠjiĠ changĠ
hua ĠerĠ
guoĠ wuĠyuanĠ
wuĠ zhongĠdeĠ
juĠ daĠdeĠ
wangĠ ziĠ
ĠpingĠ taiĠ
Ġ chao
Ġ fenĠzhongĠ
Ġ chengĠliĠyuĠ
wang ĠsiĠ
ĠdeĠshiĠ wuĠ
pinĠ lvĠ
zheĠjiangĠ shengĠ
ĠĠĠ 5ĠyueĠ
ru ĠyuĠ
ĠliĠ gongĠ
tiĠ chuĠleĠ
zhengĠshiĠ qiĠ
zheng ĠqiĠ
zhe ĠyuĠ
huang ĠshiĠ
202 6
ĠyiĠ erĠ
wangĠ shangĠ
Ġ ziĠjiĠ
ya ĠzhiĠ
ĠjiĠ xingĠ
ĠzaiĠ jinĠ
mingĠ juĠrenĠ
zuĠ xieĠ
guangĠ fan
shanĠdongĠ shengĠ
Ġ shen
1977 ĠnianĠ
qianĠ houĠ
yaoĠ gun
a ĠliĠ
Ġ min
Ġ keĠliĠ
gao ĠdiĠ
30 ĠnianĠ
ĠshiĠ baĠ
yinĠ yongĠ
anĠ zhuang
f ĠĠĠ
Ġ chuĠrenĠ
sheng ĠbuĠ
xiao ĠyouĠ
song ĠdeĠ
ĠnianĠ lingĠ
huoĠ yunĠ
Ġri ĠyouĠ
Ġ huai
la ĠerĠ
xianĠ zhangĠ
faĠ shengĠdeĠ
baoĠ zhaĠ
lianĠ tongĠ
Ġ sanĠshiĠ
ĠshiĠ jiĠdeĠ
pingĠ minĠ
zhuangĠ kuang
zengĠ qiangĠ
pingĠjunĠ haiĠbaĠgaoĠduĠweiĠ
duĠ duĠ
xunĠ qiuĠ
liĠ lunĠ
zaoĠ shouĠ
shaoĠ jiangĠ
6 ĠgeĠ
ou n
si ĠyouĠ
zhan ĠzaiĠ
yang ĠzhiĠ
danĠ shuiĠ
yangĠ xianĠ
neiĠ zhanĠ
ĠĠĠ shenĠ
yin ĠzhongĠzaiĠ
tai ĠerĠ
ru ĠshiĠ
shuo ĠdeĠ
ty Ġ
guĠ fenĠ
ĠzheĠ ciĠ
ganĠ suĠ
tuiĠ chuĠdeĠ
ĠnianĠqiĠ jianĠ
ĠerĠgaiĠdiĠdeĠ pingĠjunĠhaiĠbaĠgaoĠduĠweiĠ
g o
da ĠzaiĠ
shun ĠshiĠ
ĠliĠ xueĠ
shangĠ dianĠ
baoĠ xianĠ
ĠĠĠand ĠĠĠ
luo ĠzaiĠ
ma ĠliĠyaĠ
chai ĠyouĠjiĠ
chengĠ huĠ
qingĠ xiangĠ
ĠhanĠ zuĠ
2010ĠnianĠ meiĠguoĠrenĠkouĠpuĠchaĠdeĠshuĠjuĠ
shuoĠshiĠ xueĠweiĠ
yinĠzhongĠzaiĠ peiĠ
qie ĠerĠ
juĠ tiĠ
jiaoĠ fuĠ
wenĠ huaĠdeĠ
boĠ luoĠ
an ĠzhongĠ
ying ĠdiĠ
mao ĠxianĠ
faĠ lingĠ
yingĠ zhanĠ
xunĠ huanĠ
ĠfaĠ shengĠ
5Ġ gongĠliĠ
ri ĠjiĠ
qing ĠyiĠ
su ĠshiĠ
1971 ĠnianĠ
ĠbuĠ neng
ĠdaĠ xiĠyangĠ
ĠbiĠ yeĠ
Ġgai ĠweiĠ
Ġ anĠdeĠ
ĠĠĠ 2018ĠnianĠ
naĠ ruĠ
renĠgongĠ yinĠzhongĠzaiĠpeiĠ
Ġ quĠdeĠ
yi ĠshiĠyongĠ
jiang ĠzhongĠ
suo ĠyiĠ
hao ĠyuĠ
zhuĠ zhai
jiangĠ taĠ
lingĠ daoĠdeĠ
ĠgongĠ buĠ
Ġkang ĠxiĠ
Ġ 2000
mingĠ jinĠshiĠ
xiangĠshiĠ diĠ
Ġ 60
ĠyiĠ xueĠ
jiaoĠ zuoĠ
banĠ ciĠ
N BA
Ġ mu
ti onal
ye ĠzhiĠ
ĠheĠ yueĠ
dianĠ yingĠdeĠ
ĠbaoĠ daoĠ
panĠ jueĠ
ĠxueĠ shengĠ
ĠquanĠ zhangĠ
qu ĠzaiĠ
zhang ĠzaiĠ
reng ĠyouĠ
chengĠ fenĠ
ĠdaĠ louĠ
guiĠ zhouĠ
ĠxianĠ daiĠ
w e
ĠĠĠ taiĠwanĠ
zheng ĠyueĠ
baoĠ chi
diĠyiĠ renĠ
yanĠjiuĠ shengĠ
k mĠ
Ġ chun
fuĠ gaiĠ
faĠ zhanĠdeĠ
O ĠĠĠ
Ġ cui
xiang ĠzhiĠ
50 ĠnianĠ
ĠheĠ panĠ
duiĠ yuanĠ
caiĠ chanĠ
ĠshengĠ zhangĠyuĠ
canĠ guanĠ
ĠyuĠciĠ tongĠshiĠ
zheng ĠyuĠ
duo ĠfuĠ
zhen ĠrenĠ
zhuĠ ruĠ
junĠ tuanĠ
benĠ xianĠ
ĠjuĠ minĠ
hongĠ junĠ
chanĠshengĠ leĠ
Ġ cu
bi ĠshiĠ
1938 ĠnianĠ
fuĠ ze
xuĠ shuĠ
20 ĠnianĠ
zhan ĠheĠ
xia ĠzhiĠ
1962 ĠnianĠ
huoĠ wuĠ
Ġ diaoĠ
ĠĠĠ 2006
mian ĠyuĠ
dianĠ ziĠyouĠ
wanĠ quan
teĠ langĠ
tanĠ dingĠ
zuo ĠyuĠ
ya ĠshiĠ
zhen ĠheĠ
rang ĠtaĠ
shengĠ muĠ
tiĠ jiaoĠ
douĠ zhengĠ
suĠweiĠ aiĠ
x ĠĠĠ
shu ĠqiĠ
lu ĠzaiĠ
po r
zhiĠ chiĠ
changĠ beiĠ
ĠĠĠ 10ĠyueĠ
zhuang ĠbingĠduĠ
jieĠ duĠshiĠ
fenĠ quĠ
ĠbeiĠ keĠ
Ġ000 ĠrenĠ
Ġãĥ ¼
ke ĠrenĠ
le ĠweiĠ
ci ĠyouĠ
qiang ĠjiĠ
yinĠ jingĠ
â Ī
shang ĠzhiĠ
ping ĠshiĠ
ĠjiĠ liĠ
jianĠ she
yanĠ huaĠ
yingĠ duiĠ
ĠjiaĠ jingĠ
ĠjuĠ qingĠ
ĠsuĠ lianĠ
ai ĠguoĠ
zheng ĠliĠ
ban ĠyuĠ
xianĠ dai
dongĠ niĠ
jiaoĠ keĠ
ĠfuĠ leiĠ
chuĠxianĠ leĠ
huaĠshengĠ dunĠ
zu ĠyuĠ
ku ĠdeĠ
daĠ buĠ
dongĠ cheĠ
Ġ gongĠjiĠ
huan ĠjieĠ
fuĠ sheĠ
duiĠ huaĠ
gongĠheĠ dangĠ
Ġ bangĠ
jianĠ zao
daoĠ shangĠ
chuĠ ruĠkouĠ
baoĠ zhengĠ
aiĠ qingĠ
ciĠzhiĠ waiĠ
zhu ĠguoĠ
ĠyouĠ taiĠ
ĠrenĠzhongĠ gongĠ
shou ĠheĠ
ba ĠyueĠ
mo ĠqiĠ
youĠ guanĠ
ĠzaiĠ gaiĠ
yuanĠ ben
jinĠ qiuĠ
chongĠ qingĠ
juĠ beiĠ
ĠyinĠ faĠ
ĠshiĠzhongĠ huaĠrenĠminĠgongĠheĠguoĠ
zengĠjiaĠ leĠ
renĠminĠ daiĠbiaoĠdaĠhuiĠ
ĠnaĠ me
shengĠchan ĠdeĠ
Ġ 80
ĠĠĠ lingĠwaiĠ
yin ĠerĠ
te ĠyuĠ
buĠ luoĠ
ĠheĠ qiĠ
shenĠ shengĠ
ĠfaĠ biaoĠ
u l
ĠĠĠ p
di ĠyiĠjiĠ
1973 ĠnianĠ
xiaĠ fangĠ
ĠguoĠjiaĠ duiĠ
xia ĠyuĠ
chuan ĠdiĠ
siĠ tanĠ
shenĠ wangĠ
gouĠ mai
aiĠdeĠ huaĠ
Ġ leĠ
la ĠyuĠ
lei ĠweiĠ
kang ĠxiĠ
chaoĠ tingĠ
k o
ĠĠĠ 2017ĠnianĠ
yue ĠweiĠ
kan ĠdeĠ
xiangĠ mu
shouĠ haiĠ
shouĠ feiĠ
dongĠ gongĠ
ĠzhuĠ jianĠ
wang ĠyouĠ
hang ĠxianĠ
ĠshiĠ yueĠ
Ġnian ĠliĠ
ciĠ daĠ
zongĠ tong
baĠ laĠ
hanĠ moĠdeĠ
ĠaĠ laĠ
duan ĠyuĠ
ĠyiĠ xingĠ
xieĠ tiao
luoĠ boĠteĠ
ĠĠĠ xiangĠgangĠ
ding ĠzhiĠ
ĠyiĠ riĠ
geĠ siĠ
jiaoĠ daoĠ
2Ġ miĠ
te ĠshiĠ
long ĠshiĠ
chengĠ haoĠ
zhuĠ diĠ
ziĠ liao
ĠerĠ houĠ
ĠkeĠneng ĠshiĠ
9 3
ĠĠĠ 2016ĠnianĠ
nv eĠ
canĠmou ĠzhangĠ
â Ħ
ĠĠĠ 12
ci ĠzhongĠ
xun ĠfuĠ
pen Ġ
ĠyouĠ youĠ
jianĠ guoĠ
ĠbiĠ yeĠyuĠ
âĨ Ĵ
Ġ nĠ
1936 ĠnianĠ
meiĠ zhou
caiĠ liao
ĠxinĠ jiaĠ
ĠlingĠyiĠ fangĠmianĠ
ĠliĠ xinĠ
Ġ ju
Ġ langĠ
ĠĠĠ zhanĠ
kong ĠdeĠ
ĠzhiĠ luĠ
mingĠ luĠ
gangĠ yuanĠ
huaĠrenĠminĠ gongĠheĠ
nvĠzhuĠ jueĠ
p h
jiao ĠheĠ
na ĠsiĠ
1941 ĠnianĠ
1959 ĠnianĠ
ĠxiĠ huanĠ
shangĠ jiaĠ
longĠ shengĠ
ĠshengĠzhangĠyuĠ haiĠbaĠ
pin ĠzhiĠ
zhui ĠsuĠ
jieĠ guanĠ
huiĠ xiangĠ
dongĠ yuanĠ
changĠ wu
gaoĠ yuanĠ
qian ĠzaiĠ
pai ĠdeĠzhuĠ
3Ġ miĠ
ĠĠĠsuiĠ ranĠ
Ġ qiao
Ġ cao
du ĠdaĠ
ben ĠkeĠ
lou ĠdeĠ
bin ĠshiĠ
mingĠ queĠ
shangĠ pinĠ
qingĠ xuĠ
zaiĠ ciĠ
ĠzhongĠ beiĠ
fuĠ yinĠ
ĠqiĠ chuĠ
qingĠ daoĠ
Ġmi ĠdeĠdiĠquĠ
Ġ pianĠ
ĠheĠ chengĠ
fenĠ xiaoĠ
haiĠ eĠ
huĠ poĠ
ĠjianĠ sheĠ
Ġzai ĠyuĠ
ye ĠerĠ
1939 ĠnianĠ
zhuĠ liuĠ
moĠ luoĠ
rongĠ naĠ
Ġ chengĠshiĠ
zhong ĠdeĠyiĠ
yin ĠzhiĠ
lei ĠshiĠ
1963 ĠnianĠ
guoĠ quĠ
xingĠzhengĠ zhenĠquĠ
ĠtianĠ jinĠ
han ĠyiĠ
anĠ zhaoĠ
quan ĠweiĠ
Ġli ĠshiĠdeĠ
ĠbuĠ daĠ
ĠdongĠ wuĠ
eĠluoĠ siĠdeĠ
ĠmaĠlai ĠxiĠyaĠ
I P
R ĠĠĠ
ĠĠĠ taiĠ
buĠ keĠ
huĠ dongĠ
v en
ĠshiĠ jingĠ
duiĠ zhenĠ
ĠshiĠyongĠ zheĠ
Ġ genĠju
shangĠ leĠ
yingĠ junĠ
qianĠ ruĠ
zhouĠ zhangĠ
z enĠ
xun ĠdeĠ
1967 ĠnianĠ
fuĠ zhuĠrenĠ
fenĠ lieĠ
xiang ĠzaiĠ
yong ĠzhiĠ
bo ĠkeĠ
fei ĠyiĠ
ceng ĠrenĠ
âĢ §
shengĠ jingĠ
shangĠ suĠ
tiĠ yanĠ
liangĠ ceĠ
A S
ĠĠĠ zongĠ
chu ĠnianĠ
hou ĠbuĠjiuĠ
1953 ĠnianĠ
gongĠ gaoĠ
ĠwuĠ xianĠ
nvĠ haiĠ
peiĠ yangĠ
ĠĠĠ e
ye ĠweiĠ
jiu ĠrenĠ
zao ĠxingĠ
daĠ qiĠ
zhengĠ duoĠ
guiĠ moĠdeĠ
tuanĠ zhangĠ
ri ĠshiĠ
qing ĠxiĠ
ĠweiĠ yaĠ
zhuĠ dongĠ
xiangĠ guan
huiĠ huaĠ
zhen ĠdiĠ
1965 ĠnianĠ
gongĠ shangĠ
shengĠ fuĠ
leĠ gaiĠ
shuiĠ kuĠ
I T
Ġ ning
Ġ pinĠ
fa ĠliĠyaĠ
suan ĠfaĠ
yinĠ shua
fenĠ lanĠ
mianĠ linĠ
ĠqiĠzhongĠ nanĠ
ĠquanĠ qiuĠ
taiĠwan ĠdeĠ
. &
er ĠyouĠ
mei ĠriĠ
miao ĠdeĠ
1970 ĠnianĠdaiĠ
ĠqiĠ youĠ
tongĠ wangĠ
tianĠ tangĠ
ĠdeĠrenĠ wuĠ
Ġ15 Ġ
Ġke ĠshiĠ
Ġ pan
dong ĠyiĠ
huo ĠyueĠ
xia ĠerĠ
chengĠ zhangĠ
yanĠ wuĠ
sheĠ hui
ĠshiĠyiĠ jiĠ
ĠhuĠ nanĠ
a ĠjiĠ
hou ĠrenĠ
qingĠ shaoĠnianĠ
ganĠ jueĠ
du ĠyiĠ
ĠbuĠ laiĠ
ĠbuĠ zuĠ
zhenĠ yaĠ
tiĠyuĠ guanĠ
yi ĠshiĠjianĠ
jian ĠliĠdeĠ
ye ĠzhongĠ
1944 ĠnianĠ
suĠ danĠ
ĠxiĠbanĠ yaĠyuĠ
ming ĠyouĠ
dang ĠheĠ
na ĠerĠ
fou ĠrenĠ
90 ĠnianĠ
ĠyuĠ qiĠtaĠ
ĠheĠ heĠ
meiĠ meiĠ
shenĠ chaĠ
mianĠjiĠ heĠ
ĠdongĠ jingĠ
ĠboĠ chuĠ
jie ĠzaiĠ
dui ĠliĠ
es Ġ
Ġ sheĠliĠ
Ġ 1998ĠnianĠ
an ĠrenĠ
ĠĠĠ riĠ
ĠĠĠ luĠ
ĠĠĠ feiĠ
jie ĠweiĠzhiĠ
tong ĠzhongĠ
sui ĠdeĠ
shengĠ xiaĠ
duoĠ mingĠ
quanĠ qiu
kaiĠ faĠdeĠ
nvĠ yanĠyuanĠ
ĠguoĠminĠ dangĠ
xiaĠxiaĠdeĠyiĠgeĠ xiangĠ
Ġ dai
Ġ 2004
Ġ zuiĠdaĠ
ĠĠĠ 3Ġ
zuo ĠzhongĠ
ze ĠyiĠ
cha ĠliĠ
weiĠ yuĠ
shouĠ lingĠ
guĠ dongĠ
kaiĠ muĠ
ĠdeĠyiĠ siĠ
mouĠ shaĠ
Ġ JR
shu ĠyouĠ
chan ĠdeĠ
ts Ġ
keĠ xue
yongĠ jiuĠ
3 000
nanĠ feiĠ
ĠmuĠqianĠ shangĠweiĠyouĠ
Ġ lai
Ġ 36
yuan ĠrenĠ
la ĠliĠ
su ĠdaĠ
jianĠ daoĠ
danĠ yuanĠ
ĠnianĠ12ĠyueĠ 31ĠriĠ
canĠyuĠ leĠ
ĠshiĠzhongĠ xinĠ
xiangĠgang ĠdeĠ
2 ĠĠĠ
Ġ 1ĠyueĠ
ĠĠĠ 2021ĠnianĠ
chuang ĠshiĠrenĠ
daĠ duoĠshuĠ
xiĠ siĠ
shengĠ geĠweiĠ
chuĠ banĠdeĠ
tianĠ ran
chongĠ manĠ
Ġ ou
Ġ chanĠ
Ġ guĠshiĠ
te dĠĠĠ
ĠzhiĠ zhengĠ
leĠ liangĠ
huoĠ dongĠdeĠ
haiĠ jun
ĠbaoĠ gaoĠ
ĠshiĠ guĠ
ĠyouĠ xingĠ
shenĠ shangĠ
laĠ teĠ
waiĠ guanĠ
hanĠ linĠ
diĠyiĠ buĠ
sh aiĠ
ĠĠĠ tongĠ
ĠyuĠ youĠ
fuĠ luoĠliĠdaĠ
Ġba ĠliĠ
ĠmuĠqianĠshangĠweiĠyouĠ renĠgongĠyinĠzhongĠzaiĠpeiĠ
Ġ xie
Ġ poĠ
Ġ reĠ
sheng ĠzhongĠ
zhang ĠliĠ
shen ĠjiĠ
ĠziĠ liaoĠ
ĠtiĠ chuĠ
xianĠdeĠyiĠgeĠ xingĠzhengĠzhenĠquĠ
ji ong
di ceĠ
fa ĠzhongĠ
31 Ġ
ĠyiĠ chengĠ
fangĠ chengĠ
biĠ ya
chuangĠ xinĠ
ĠĠĠ shangĠ
anĠ pai
tianĠ huangĠ
caiĠ wuĠ
wu ĠzaiĠ
ĠzaiĠ naĠliĠ
zhuĠ daĠ
ĠqiĠ qiĠ
bianĠ haoĠweiĠ
wuĠliĠ xueĠ
fen ĠshiĠ
chou ĠbeiĠ
1930 ĠnianĠ
daoĠ qianĠ
jiaoĠ zongĠ
Ġ can
ĠĠĠ gaoĠ
ĠĠĠ 4ĠyueĠ
zhou ĠfuĠzeĠguanĠxiaĠ
heĠ pingĠ
mingĠ ciĠ
he ĠyiĠgeĠ
bian ĠyuĠ
tui ĠxingĠ
yuanĠ quĠ
juĠ changĠ
duĠ jiaĠ
ĠgaiĠ diĠdeĠ
Ġzhe ĠbuĠ
ĠĠĠ boĠ
xun ĠshiĠ
ĠyiĠ xie
cheĠ daoĠ
ĠzheĠ yeĠshiĠ
zaoĠ qiĠdeĠ
Ġha ĠerĠ
lianĠmeng ĠdeĠ
Ġ diao
ĠĠĠ puĠ
mi ĠshiĠ
ming ĠheĠ
tai ĠdaĠ
kan ĠfaĠ
ĠxiĠ jinĠ
guĠ wuĠ
saiĠ baiĠ
jingĠjiĠ xueĠ
Ġ 1999ĠnianĠ
yin ĠjiĠ
ĠzaiĠ renĠ
ĠdaĠ chenĠ
yinĠ ziĠ
mianĠ shangĠ
neiĠ mengĠguĠ
laĠ geĠ
ĠkeĠnengĠ huiĠ
Ġ bu
ĠrenĠ min
ĠerĠ zheĠ
shouĠ huiĠ
ruĠ jingĠ
ĠgongĠ jinĠ
ĠĠĠgeĠrenĠ shengĠhuoĠ
zeng ĠzhiĠ
co diceĠ
1935 ĠnianĠ
buĠ manĠ
ĠdanĠ yeĠ
ĠĠĠ s
lun ĠsiĠ
1969 ĠnianĠ
xiangĠ beiĠ
tiĠ gongĠdeĠ
jiaoĠyuĠ jiĠ
ĠnianĠ7ĠyueĠ 1ĠriĠ
Ġ gan
Ġ CD
ĠĠĠ 7ĠyueĠ
tuo ĠfuĠ
1942 ĠnianĠ
wangĠ chao
ĠkaiĠ faĠ
zhanĠzheng ĠzhongĠ
Ġà ¸
âĦ ĥ
Ġ 22
Ġ 34
Ġ 20Ġ
Ġ kaĠerĠ
Ġ keĠliĠsiĠ
bu ĠweiĠyuĠ
tian ĠfuĠ
niu ĠsiĠ
ne ĠshengĠ
1961 ĠnianĠ
shengĠ xiaoĠ
xueĠ yuanĠdeĠ
xinĠ zengĠ
duan ĠqiĠ
zhuĠyao ĠshiĠ
Ġ gui
Ġ buĠshiĠ
fang ĠheĠ
1940 ĠnianĠ
ĠliĠ youĠ
tingĠ yunĠ
xiang ĠzhongĠ
dian ĠyuĠ
han ĠshiĠ
lay Sta
ĠshiĠ xiangĠgangĠ
duiĠ taĠ
ĠbingĠ meiĠyouĠ
ĠĠĠjinĠ guanĠ
jiang ĠheĠ
32 Ġ
ĠzhiĠ yaoĠ
fuĠ huaĠ
ĠxiĠ yuanĠ
xinĠ shengĠ
shuiĠ shenĠ
D V
nuo ĠsiĠ
oo g
ĠliĠ qiĠ
gaiĠ mingĠ
baĠ nen
kaĠluoĠ laiĠnaĠ
xin ĠyuĠ
qian ĠweiĠ
lao ĠgongĠ
jinĠ xing
1957 ĠnianĠ
ĠshiĠ nanĠjiĠzhouĠdeĠ
zhuĠ longĠ
ĠqingĠ chaoĠ
zhong ĠshiĠjiĠ
ĠzaiĠ taĠdeĠ
gongĠ zuoĠdeĠ
fuĠ jiaĠ
xiangĠ lianĠ
ciĠ huiĠ
hou ĠguoĠ
liang ĠjiaĠ
ĠzhiĠ chi
ĠyueĠ laiĠyueĠ
zhanĠ zhengĠdeĠ
yaĠ zhou
minĠ jinĠ
zongĠ duiĠ
saiĠ cheĠ
liĠ yongĠ
Ġdan ĠyiĠ
peiĠ xunĠ
shouĠdaoĠ leĠ
1 10
Ġ Ja
jin ĠzhongĠ
yan ĠliĠ
huo ĠyiĠ
wai ĠjiĠ
huan ĠxiangĠ
siĠ xingĠ
siĠ faĠ
niĠ yaĠdeĠ
Ġ 55
Ġ paĠ
ĠĠĠ 8ĠyueĠ
ban ĠnianĠ
1951 ĠnianĠ
jiaĠ zhouĠ
jing ĠxiĠ
cha ĠjuĠ
ha ĠdeĠ
faĠ biao
jinĠ shanĠ
zuiĠ duoĠdeĠ
seĠ caiĠ
ĠliĠshiĠ xueĠjiaĠ
Ġ 9Ġ
ĠĠĠ guĠshiĠ
du ĠzhiĠ
feng ĠyuĠ
ziĠ gongĠsiĠ
houĠ fangĠ
dianĠ chiĠ
ĠĠĠ laĠ
qian ĠyuĠ
Ga me
boĠ laĠ
lingĠ yuĠdeĠ
ĠgongĠ gongĠ
huiĠyiĠ shangĠ
zhanĠzheng ĠqiĠjianĠ
mianĠjiĠheĠ renĠkouĠ
8 ĠgeĠ
Ġ zha
dao ĠliĠ
qian ĠliĠ
she ĠliĠdeĠ
ni ĠshiĠ
yanĠ xuĠ
ĠyuanĠ xingĠ
nianĠ daiĠ
Ġ Ø
ĠĠĠ yeĠ
ĠĠĠ jiuĠ
shou ĠerĠ
nan ĠrenĠ
duo ĠbuĠ
daĠ xueĠdeĠ
geĠ ciĠ
baĠ saiĠ
ĠdeĠjiĠ shuĠ
yingĠdeĠ leĠ
jiangĠsuĠ shengĠ
l la
Ġ 38
wang ĠyiĠ
la ĠdiĠ
ĠshiĠ zhangĠ
C ĠĠĠ
Ġ 75
Ġ Pa
ĠĠĠ quanĠ
ĠĠĠ duiĠyuĠ
gai ĠzhiĠ
che ĠliĠ
ce ĠqiĠ
hang ĠxingĠ
erĠ beiĠ
ĠdaĠ buĠ
lanĠ seĠ
ĠgaiĠ cun
ĠjingĠ neiĠ
ĠboĠ luoĠ
ĠgaiĠdiĠdeĠ mianĠjiĠheĠrenĠkouĠ
ĠgaiĠdiĠdeĠmianĠjiĠheĠrenĠkouĠ jieĠweiĠzhiĠ
sui ĠzhiĠ
pei ĠdeĠ
weiĠ jiĠ
diĠ liuĠ
ciĠ shuĠ
xuanĠ chuan
dangĠ xuanĠweiĠ
heiĠ longĠjiangĠ
ĠyiĠshuĠ jiaĠ
ĠĠĠyouĠ xiĠ
Ġ ruan
Ġ Li
ĠĠĠ muĠqianĠ
zhongĠ xueĠ
houĠ lai
ĠĠĠ 2015ĠnianĠ
wei ĠshiĠjieĠ
lu ĠweiĠ
lei ĠheĠ
80 ĠnianĠ
2025 ĠnianĠ
zongĠ jingĠliĠ
ĠmingĠ chaoĠ
Ġ La
an ĠfuĠ
ĠzaiĠ 19
jiangĠ zuiĠjiaĠ
dianĠ naoĠ
dangĠ anĠ
tuĠ anĠ
tingĠ kaoĠ
ĠqianĠ longĠ
Ġ 90
zhuang ĠweiĠ
ra Ġ
chui ĠzhiĠ
quĠ dongĠ
tongĠ chang
ĠfuĠ ze
Ġjie ĠweiĠ
zhengĠxie ĠweiĠyuanĠ
6 ĠmiĠ
Ġ guanĠzhiĠ
ĠĠĠ X
jiaĠ qiangĠ
jiangĠ zheĠ
mei ĠerĠ
ĠzaiĠ 18
quĠ ziĠ
zongĠ shuĠ
ĠtongĠ riĠ
ĠĠĠyiĠ xiaĠ
ĠfanĠ duiĠ
ĠfenĠbie ĠweiĠ
jiaĠliĠfuĠ niĠyaĠzhouĠ
Ġ com
Ġ leiĠjiĠ
ĠĠĠ jianĠliĠ
ĠyiĠ tiĠ
yanĠ shengĠ
gaiĠ jinĠ
anĠ xianĠ
jiuĠ duĠyuĠ
Ġ zhanĠdiĠ
ĠĠĠ 2014ĠnianĠ
chuan ĠyueĠ
luĠ duanĠ
ĠciĠ ciĠ
nongĠ changĠ
9 2
Ġ 2003
dong ĠzhiĠ
mei ĠyiĠ
kuai ĠdeĠ
jiaĠ naĠ
fenĠ chengĠ
ĠshiĠjiĠ yuĠ
hangĠ zhanĠ
xiuĠ dingĠ
faĠshengĠ leĠ
ĠĠĠ jianĠzhuĠ
ing ĠĠĠ
si ĠzhongĠ
jin ĠnianĠ
xin ĠheĠ
ha r
ĠzaiĠ riĠbenĠ
tongĠ xueĠ
zhouĠ bian
guĠ laoĠdeĠ
ĠhaiĠ junĠ
ziĠxingĠ cheĠ
ou r
li ĠyiĠ
cheng ĠyiĠgeĠ
jiao ĠjiĠ
jianĠ danĠ
ĠbuĠ luĠ
xiangĠ daoĠ
ĠqiĠ yongĠ
ĠkeĠ laiĠ
liuĠ liangĠ
puĠ chaĠ
kaĠ feiĠ
ĠyanĠ changĠ
zuiĠzhongĠ yaoĠdeĠ
pingĠfangĠ miĠ
Ġ 70
Ġ Vi
ĠĠĠ 9ĠyueĠ
zhe ĠjiĠ
ba ĠtaĠ
zhuĠ shouĠ
xiangĠ jiaoĠ
nanĠ minĠ
Ġtong ĠzhiĠ
geĠyueĠ houĠ
ĠĠĠ 2020ĠnianĠ
28 Ġ
jingĠ quĠ
duĠ teĠdeĠ
miĠ duĠ
ĠwanĠ meiĠ
ĠbiĠ xuĠ
ĠhuaĠ shengĠ
suan ĠdeĠ
run Ġ
zhuĠ guanĠ
jinĠ rongĠ
pingĠ hengĠ
chiĠ jingĠ
eĠ haiĠeĠ
touĠ ru
ĠwanĠ chengĠ
Ġ000 Ġ
ĠĠĠcheĠzhanĠ jieĠgouĠ
Ġ Wi
ĠĠĠ Li
si ĠyueĠ
fu ĠzhongĠ
dai ĠzhiĠ
zhengĠ jiaoĠ
yinĠ niĠ
linĠ shengĠ
J Ġ
v o
Ġ junĠshiĠ
jinĠ chengĠ
shangĠ fangĠ
1 30
shan ĠyuĠ
wi t
ziĠ shaĠ
ĠqianĠ miĠ
zhengĠfu ĠyuĠ
fang ĠdiĠ
mu ĠjiĠ
ka ĠdeĠ
yingĠ geĠlan
ĠdaĠ qiaoĠ
chongĠ zuĠ
ĠshengĠ chengĠ
Ġer ĠheĠ
ĠliĠfaĠ huiĠ
ĠĠĠ muĠ
sheng ĠrenĠminĠzhengĠfuĠ
zuo ĠheĠ
ĠzaiĠ nanĠ
jianĠ chiĠ
jiuĠ beiĠ
Ġ ding
ya ĠsiĠ
fuĠ buĠzhangĠ
baoĠ fuĠ
mianĠ qianĠ
chengĠliĠ leĠ
luoĠfaĠ keĠ
Ġ huiĠyiĠ
ĠbuĠ heĠ
juĠ feng
fangĠ xingĠ
ĠqiĠzhongĠ youĠ
ĠĠĠzhiĠ zuoĠ
ĠcengĠ jingĠ
Ġ ga
ĠĠĠ c
zhuan ĠzhiĠ
kuang ĠjiaĠ
jinĠ zhangĠ
yanĠ faĠ
yingĠ guoĠdeĠ
ĠdeĠshiĠ shiĠ
hangĠ banĠ
Ġ heng
Ġ 21
ĠĠĠ yue
ĠĠĠ riĠbenĠ
ĠĠĠ 6ĠyueĠ
jin ĠqiĠ
ci ĠheĠ
dui ĠweiĠ
bao ĠjiĠ
huiĠ jiaĠ
juĠ zhuĠzaiĠ
juĠ juĠzhangĠ
tuiĠ fanĠ
Ġ 2002
ĠĠĠ 2013ĠnianĠ
lu ĠxiĠ
liĠ liangĠ
gongĠchanĠ zhuĠyiĠ
li ĠkeĠ
ĠĠĠ 2010ĠnianĠ
luo ĠweiĠ
ku ĠerĠ
26 Ġ
ĠshiĠ taiĠwanĠ
ĠdeĠyiĠ jianĠ
ĠzhengĠ geĠ
Ġ 46
fei ĠzhiĠ
yanĠ shenĠzhiĠ
zhanĠ juĠ
zuoĠ leĠ
luoĠ xuanĠ
ĠzhuĠ xiĠ
ĠtaiĠ pingĠ
Ġmi ĠzhiĠ
wuĠxianĠ dianĠshiĠ
tai ĠweiĠ
lai ĠerĠ
pan ĠdeĠ
keĠ xueĠjiaĠ
fangĠ bianĠ
ĠdaĠ xueĠdeĠ
junĠ beiĠ
ĠfuĠ gaiĠ
wanĠ zhengĠdeĠ
E N
Ġ 150
reng ĠzaiĠ
wenĠ geĠ
ĠbingĠqie ĠzaiĠ
shou ĠliĠ
yan ĠqiĠ
te ĠzaiĠ
nei ĠsiĠ
hei ĠrenĠ
ĠyouĠ heĠ
ĠguoĠ fangĠ
meiĠ tianĠ
Ġ man
ĠĠĠ yongĠ
zu ĠweiĠ
yao ĠzaiĠ
hao ĠjiĠ
rou nd
1943 ĠnianĠ
guoĠ fangĠbuĠ
yuanĠ waiĠ
ĠkeĠ laĠ
muĠ jianĠ
zhenĠ zhengĠ
cheĠ tuiĠ
feiĠ chang
Ġ zhuo
ka ĠliĠ
ĠshiĠ siĠ
Ġyue ĠrenĠ
shuĠ shuĠ
ĠxiĠ xiĠ
mengĠ teĠ
ĠĠĠgenĠjuĠ 2010ĠnianĠmeiĠguoĠrenĠkouĠpuĠchaĠdeĠshuĠjuĠ
ĠĠĠ huoĠ
ĠĠĠ 2012ĠnianĠ
mei ĠzhongĠ
shen ĠliĠ
bo o
ben ĠzhiĠ
po ĠerĠ
liuĠ xueĠ
baĠ leĠsiĠ
Ġ xingĠshiĠ
jiang ĠweiĠ
qian ĠqiĠ
wangĠ houĠ
daiĠ tiĠ
zuĠ ziĠzhiĠ
ĠxianĠ jinĠ
tui ĠliĠ
son Ġ
shengĠ jieĠrangĠ
beiĠ meiĠ
qianĠ xianĠ
tuĠ ranĠ
e ĠerĠ
mi ĠjiĠ
ta ĠerĠ
chong ĠfuĠ
Ġli ĠnianĠ
qianĠ laiĠ
taiĠ shouĠ
zhuanĠ huanĠ
ĠM Ġ
Ġfei ĠliĠ
s si
xiao ĠyiĠ
duo ĠliĠ
chen ĠdeĠ
27 Ġ
ĠriĠ baoĠ
liuĠ chuanĠ
quĠshiĠ houĠ
Ġjiang ĠxiĠ
Ġ long
