{"!":0,"\"":1,"#":2,"$":3,"%":4,"&":5,"'":6,"(":7,")":8,"*":9,"+":10,",":11,"-":12,".":13,"/":14,"0":15,"1":16,"2":17,"3":18,"4":19,"5":20,"6":21,"7":22,"8":23,"9":24,":":25,";":26,"=":27,"?":28,"@":29,"A":30,"B":31,"C":32,"D":33,"E":34,"F":35,"G":36,"H":37,"I":38,"J":39,"K":40,"L":41,"M":42,"N":43,"O":44,"P":45,"Q":46,"R":47,"S":48,"T":49,"U":50,"V":51,"W":52,"X":53,"Y":54,"Z":55,"[":56,"\\":57,"]":58,"^":59,"_":60,"`":61,"a":62,"b":63,"c":64,"d":65,"e":66,"f":67,"g":68,"h":69,"i":70,"j":71,"k":72,"l":73,"m":74,"n":75,"o":76,"p":77,"q":78,"r":79,"s":80,"t":81,"u":82,"v":83,"w":84,"x":85,"y":86,"z":87,"|":88,"~":89,"¡":90,"¢":91,"£":92,"¤":93,"¥":94,"¦":95,"§":96,"¨":97,"©":98,"ª":99,"«":100,"¬":101,"®":102,"¯":103,"°":104,"±":105,"²":106,"³":107,"´":108,"µ":109,"¶":110,"·":111,"¸":112,"¹":113,"º":114,"»":115,"¼":116,"½":117,"¾":118,"¿":119,"Â":120,"Ã":121,"Ä":122,"Å":123,"Æ":124,"Ç":125,"È":126,"É":127,"Ê":128,"Ë":129,"Ì":130,"Í":131,"Î":132,"Ï":133,"Ð":134,"Ñ":135,"Ò":136,"Ó":137,"Ô":138,"Õ":139,"Ö":140,"×":141,"Ø":142,"Ù":143,"Ú":144,"Û":145,"Ü":146,"Þ":147,"ß":148,"à":149,"á":150,"â":151,"ã":152,"ä":153,"ê":154,"ë":155,"ì":156,"í":157,"î":158,"ï":159,"ð":160,"ñ":161,"Ċ":162,"Ġ":163,"ġ":164,"Ģ":165,"ģ":166,"Ĥ":167,"ĥ":168,"Ħ":169,"ħ":170,"Ĩ":171,"ĩ":172,"Ī":173,"ī":174,"Ĭ":175,"ĭ":176,"Į":177,"į":178,"İ":179,"ı":180,"Ĳ":181,"ĳ":182,"Ĵ":183,"ĵ":184,"Ķ":185,"ķ":186,"ĸ":187,"Ĺ":188,"ĺ":189,"Ļ":190,"ļ":191,"Ľ":192,"ľ":193,"Ŀ":194,"ŀ":195,"Ł":196,"ł":197,"Ń":198,"ng":199,"an":200,"sh":201,"zh":202,"ji":203,"ang":204,"ĠĠ":205,"ong":206,"xi":207,"ao":208,"ai":209,"de":210,"ei":211,"shi":212,"yu":213,"ou":214,"yi":215,"en":216,"ch":217,"ian":218,"uo":219,"eng":220,"li":221,"ĠĠĠ":222,"ãĢ":223,"ing":224,"ui":225,"wei":226,"uan":227,"zhi":228,"qi":229,"nian":230,"zhong":231,"you":232,"ren":233,"un":234,"zai":235,"di":236,"guo":237,"ãĢģ":238,"he":239,"bu":240,"er":241,"gong":242,"xing":243,"cheng":244,"da":245,"zhu":246,"hu":247,"yuan":248,"si":249,"jian":250,"yue":251,"ge":252,"fu":253,"xian":254,"ue":255,"ke":256,"wu":257,"chu":258,"shu":259,"sheng":260,"jie":261,"jia":262,"bi":263,"dao":264,"zi":265,"bei":266,"hui":267,"fa":268,"xiang":269,"ti":270,"zheng":271,"mi":272,"ta":273,"jin":274,"qu":275,"20":276,"tong":277,"ri":278,"ju":279,"jing":280,"ming":281,"le":282,"hou":283,"shang":284,"shou":285,"dong":286,"ci":287,"fang":288,"19":289,"hua":290,"yin":291,"xue":292,"guan":293,"zhan":294,"ye":295,"ying":296,"zuo":297,"zhe":298,"yan":299,"mei":300,"jiao":301,"gu":302,"chang":303,"xin":304,"dui":305,"lu":306,"bing":307,"bao":308,"fen":309,"dan":310,"huo":311,"jun":312,"jiang":313,"du":314,"xiao":315,"dian":316,"yong":317,"qian":318,"she":319,"tai":320,"xia":321,"mu":322,"wen":323,"gai":324,"zhang":325,"liang":326,"ya":327,"ru":328,"dai":329,"hai":330,"nan":331,"zhou":332,"zu":333,"wang":334,"lai":335,"ban":336,"jiu":337,"dang":338,"qing":339,"ping":340,"shen":341,"ãĢĭ":342,"ãĢĬ":343,"wan":344,"lian":345,"ling":346,"luo":347,"Â·":348,"min":349,"quan":350,"pi":351,"ni":352,"bo":353,"duo":354,"te":355,"ben":356,"gao":357,"biao":358,"suo":359,"la":360,"ma":361,"kai":362,"ba":363,"xie":364,"xu":365,"bian":366,"deng":367,"yao":368,"yang":369,"mian":370,"zhen":371,"ding":372,"qiu":373,"zui":374,"sai":375,"liu":376,"fan":377,"xuan":378,"fei":379,"san":380,"shan":381,"che":382,"zong":383,"men":384,"ãĢĮ":385,"ãĢį":386,"tu":387,"tian":388,"hao":389,"su":390,"lei":391,"nei":392,"yun":393,"201":394,"lan":395,"feng":396,"mo":397,"na":398,"ze":399,"lv":400,"han":401,"kou":402,"wai":403,"neng":404,"lin":405,"chuan":406,"chi":407,"jue":408,"bai":409,"pai":410,"200":411,"ku":412,"cai":413,"zao":414,"ting":415,"zhuan":416,"gang":417,"lie":418,"guang":419,"gui":420,"lun":421,"sui":422,"pu":423,"ceng":424,"kong":425,"shui":426,"10":427,"chao":428,"zhuang":429,"cha":430,"dou":431,"can":432,"tou":433,"ran":434,"se":435,"duan":436,"cun":437,"huan":438,"cong":439,"pin":440,"ce":441,"chan":442,"xun":443,"gou":444,"00":445,"nv":446,"zhao":447,"gan":448,"chong":449,"sha":450,"tan":451,"18":452,"qin":453,"ka":454,"meng":455,"qiang":456,"huang":457,"xiu":458,"12":459,"tiao":460,"man":461,"shao":462,"kuo":463,"long":464,"pian":465,"shuo":466,"tuan":467,"tang":468,"rong":469,"geng":470,"202":471,"chen":472,"tui":473,"gen":474,"que":475,"tie":476,"11":477,"qie":478,"wo":479,"po":480,"pei":481,"hang":482,"hong":483,"199":484,"bang":485,"liao":486,"chuang":487,"bie":488,"re":489,"tuo":490,"tao":491,"song":492,"wa":493,"mai":494,"ha":495,"15":496,"pan":497,"dun":498,"diao":499,"qiao":500,"sa":501,"mao":502,"lang":503,"kan":504,"kang":505,"âĢ":506,"or":507,"lao":508,"zeng":509,"16":510,"198":511,"kao":512,"xiong":513,"17":514,"on":515,"nuo":516,"miao":517,"rang":518,"kuang":519,"hen":520,"suan":521,"14":522,"30":523,"zhun":524,"13":525,"194":526,"cao":527,"hun":528,"qun":529,"nong":530,"197":531,"heng":532,"shuang":533,"lou":534,"gei":535,"kuai":536,"piao":537,"zha":538,"hei":539,"niu":540,"195":541,"sen":542,"bin":543,"reng":544,"zou":545,"196":546,"chun":547,"kuan":548,"25":549,"âĢĶ":550,"rui":551,"sun":552,"pao":553,"ning":554,"for":555,"pa":556,"cang":557,"mou":558,"24":559,"peng":560,"huai":561,"21":562,"193":563,"23":564,"mula":565,"formula":566,"28":567,"zan":568,"ruo":569,"in":570,"22":571,"chou":572,"zhui":573,"ar":574,"me":575,"26":576,"50":577,"2020":578,"27":579,"nai":580,"nu":581,"ï¼":582,"29":583,"shun":584,"2010":585,"za":586,"000":587,"lve":588,"zhai":589,"2019":590,"ne":591,"ro":592,"juan":593,"st":594,"ra":595,"cui":596,"kun":597,"2016":598,"luan":599,"2018":600,"cuo":601,"2021":602,"zang":603,"2014":604,"shuai":605,"2011":606,"2015":607,"2017":608,"2012":609,"40":610,"2013":611,"nao":612,"2022":613,"die":614,"ruan":615,"kui":616,"lt":617,"rou":618,"cu":619,"sang":620,"2009":621,"2008":622,"ãĥ":623,"60":624,"niao":625,"al":626,"rao":627,"chai":628,"100":629,"zhuo":630,"2023":631,"gt":632,"sou":633,"190":634,"31":635,"ken":636,"2007":637,"2001":638,"teng":639,"pang":640,"fou":641,"co":642,"fo":643,"gua":644,"2000":645,"80":646,"2006":647,"2024":648,"ãģ":649,"2005":650,"zun":651,"tion":652,"kua":653,"the":654,"35":655,"70":656,"nie":657,"lo":658,"of":659,"90":660,"leng":661,"ï¼į":662,"ãĤ":663,"am":664,"tun":665,"ter":666,"mie":667,"2004":668,"th":669,"to":670,"45":671,"48":672,"mang":673,"2025":674,"ve":675,"ga":676,"ãĢī":677,"ãĢĪ":678,"36":679,"38":680,"2003":681,"37":682,"Ma":683,"chui":684,"pen":685,"ll":686,"189":687,"IN":688,"2002":689,"keng":690,"TC":691,"do":692,"34":693,"75":694,"âĢĵ":695,"Co":696,"46":697,"ca":698,"1990":699,"âĢ¦":700,"ck":701,"39":702,"..":703,"be":704,"65":705,"32":706,"ST":707,"47":708,"UTC":709,"1999":710,"1998":711,"1980":712,"188":713,"500":714,"33":715,"In":716,"64":717,"ss":718,"The":719,"vi":720,"SE":721,"55":722,"1997":723,"Re":724,"hi":725,"49":726,"II":727,"el":728,"68":729,"et":730,"44":731,"1996":732,"oo":733,"qiong":734,"1994":735,"gun":736,"br":737,"guai":738,"1992":739,"1995":740,"Mi":741,"67":742,"and":743,"sao":744,"es":745,"1991":746,"1970":747,"58":748,"1950":749,"300":750,"1993":751,"187":752,"1949":753,"at":754,"AT":755,"pe":756,"1960":757,"42":758,"1945":759,"Li":760,"ver":761,"qia":762,"1988":763,"ty":764,"1989":765,"69":766,"Ro":767,"is":768,"run":769,"SEE":770,"niang":771,"INSEE":772,"ho":773,"59":774,"43":775,"66":776,"57":777,"1985":778,"99":779,"SA":780,"ãĢİ":781,"ãĢı":782,"ct":783,"1984":784,"41":785,"88":786,"1986":787,"wi":788,"ol":789,"ws":790,"TV":791,"ry":792,"150":793,"Me":794,"nd":795,"400":796,"1987":797,"78":798,"1982":799,"56":800,"beng":801,"Vi":802,"Pa":803,"ts":804,"1983":805,"amp":806,"NA":807,"De":808,"CD":809,"gh":810,"fi":811,"weng":812,"ber":813,"77":814,"Win":815,"per":816,"zuan":817,"Sta":818,"79":819,"OS":820,"Wi":821,"Â°":822,"ï½":823,"der":824,"180":825,"BC":826,"54":827,"1979":828,"61":829,"1920":830,"as":831,"Mo":832,"seng":833,"98":834,"52":835,"You":836,"1978":837,"no":838,"62":839,"53":840,"ly":841,"shua":842,"La":843,"ï½ŀ":844,"BA":845,"1946":846,"CO":847,"51":848,"1958":849,"gi":850,"Jo":851,"1981":852,"1972":853,"1948":854,"Le":855,"tw":856,"AM":857,"63":858,"AR":859,"ction":860,"1941":861,"BS":862,"Ga":863,"1930":864,"Da":865,"Pro":866,"Te":867,"76":868,"hans":869,"1940":870,"1937":871,"1976":872,"1944":873,"Ja":874,"89":875,"us":876,"Di":877,"Windo":878,"1975":879,"ï¼ı":880,"1968":881,"hk":882,"con":883,"Fi":884,"um":885,"Si":886,"1000":887,"Windows":888,"95":889,"87":890,"nal":891,"Mar":892,"1966":893,"rd":894,"85":895,"Ne":896,"Ra":897,"ki":898,"600":899,"120":900,"1947":901,"Se":902,"AC":903,"1956":904,"1964":905,"Be":906,"1942":907,"Ã©":908,"1955":909,"1952":910,"IS":911,"ad":912,"1939":913,"1938":914,"72":915,"ur":916,"74":917,"Ca":918,"va":919,"1973":920,"1974":921,"1954":922,"Ar":923,"Al":924,"ED":925,"1900":926,"--":927,"AP":928,"1943":929,"To":930,"1977":931,"ld":932,"1971":933,"cen":934,"lay":935,"1967":936,"Ba":937,"IC":938,"800":939,"Po":940,"Lo":941,"ER":942,"zhua":943,"sta":944,"86":945,"1959":946,"Bo":947,"tt":948,"1965":949,"JR":950,"1969":951,"Fa":952,"ãĥ»":953,"ÃĹ":954,"ID":955,"Bi":956,"son":957,"1936":958,"160":959,"97":960,"1953":961,"Sa":962,"MA":963,"1962":964,"1961":965,"nen":966,"Na":967,"âĶ":968,"So":969,"1935":970,"com":971,"Ho":972,"tic":973,"96":974,"ON":975,"ï¼ħ":976,"1951":977,"St":978,"1957":979,"1963":980,"Tu":981,"âĶĢ":982,"fe":983,"so":984,"ment":985,"84":986,"Hi":987,"2026":988,"82":989,"Do":990,"mer":991,"Ri":992,"73":993,"nt":994,"94":995,"92":996,"Ki":997,"Ha":998,"nang":999,"one":1000,"IP":1001,"AN":1002,"ls":1003,"1933":1004,"1931":1005,"les":1006,"71":1007,"nuan":1008,"Com":1009,"83":1010,"93":1011,"ted":1012,"Su":1013,"81":1014,"Ti":1015,"Mu":1016,"1918":1017,"Ni":1018,"HD":1019,"Uni":1020,"1928":1021,"pp":1022,"1932":1023,"Cha":1024,"We":1025,"ys":1026,"MV":1027,"SS":1028,"110":1029,"IT":1030,"1912":1031,"No":1032,"1929":1033,"1927":1034,"1934":1035,"cn":1036,"700":1037,"go":1038,"zei":1039,"ght":1040,"ster":1041,"250":1042,"91":1043,"rt":1044,"lli":1045,"1924":1046,"ris":1047,"...":1048,"1919":1049,"nve":1050,"130":1051,"Pi":1052,"1925":1053,"Gi":1054,"PS":1055,"by":1056,"ed":1057,"mes":1058,"An":1059,"PC":1060,"140":1061,"AS":1062,"Play":1063,"1914":1064,"km":1065,"DV":1066,"tio":1067,"YouTu":1068,"SM":1069,"ble":1070,"gra":1071,"ko":1072,"1911":1073,"Con":1074,"Ch":1075,"lla":1076,"1926":1077,"lle":1078,"Ge":1079,"Par":1080,"id":1081,"Ta":1082,"1922":1083,"Lin":1084,"mp":1085,"1917":1086,"He":1087,"Ka":1088,"ET":1089,"NBA":1090,"wn":1091,"IV":1092,"EN":1093,"1923":1094,"1921":1095,"shai":1096,"Goo":1097,"chuo":1098,"170":1099,"à¸":1100,"EC":1101,"MS":1102,"ali":1103,"AL":1104,"ph":1105,"section":1106,"YouTube":1107,"EP":1108,"BL":1109,"1913":1110,"Car":1111,"Bu":1112,"zen":1113,"HK":1114,"we":1115,"hn":1116,"mm":1117,"ven":1118,"hant":1119,"âĨ":1120,"1909":1121,"sion":1122,"Inter":1123,"cro":1124,"MP":1125,"AI":1126,"Wor":1127,"Pe":1128,"ds":1129,"US":1130,"pro":1131,"DVD":1132,"ok":1133,"3000":1134,"En":1135,"1910":1136,"DS":1137,"RO":1138,"cou":1139,"Ste":1140,"sis":1141,"112":1142,"Go":1143,"rk":1144,"AK":1145,"RE":1146,"1916":1147,"Wa":1148,"lia":1149,"ãĥ¼":1150,"Station":1151,"For":1152,"Net":1153,"ff":1154,"Î±":1155,"oft":1156,"ine":1157,"den":1158,"lor":1159,"rea":1160,"tional":1161,"gn":1162,"ture":1163,"gle":1164,"CP":1165,"UN":1166,"âĪ":1167,"ard":1168,"1915":1169,"gin":1170,"1905":1171,"ps":1172,"FC":1173,"cal":1174,"vo":1175,"dia":1176,"My":1177,"CN":1178,"âĦ":1179,"âĨĴ":1180,"our":1181,"ers":1182,"1901":1183,"ent":1184,"Au":1185,"DNA":1186,"Ex":1187,"âĢ§":1188,"900":1189,"end":1190,"HR":1191,"dice":1192,".&":1193,"ther":1194,"tal":1195,"CH":1196,"TA":1197,"TO":1198,"1906":1199,"1904":1200,"AV":1201,"tes":1202,"MO":1203,"jiong":1204,"John":1205,"my":1206,"eri":1207,"codice":1208,"Man":1209,"âĦĥ":1210,"dy":1211,"PlayStation":1212,"Chi":1213,"05":1214,"CC":1215,"tive":1216,"diu":1217,"And":1218,"1907":1219,"dio":1220,"1908":1221,"Google":1222,"AG":1223,"Ci":1224,"EST":1225,"MI":1226,"SO":1227,"LE":1228,"sic":1229,"ree":1230,"BO":1231,"int":1232,"wit":1233,"BBC":1234,"Sch":1235,"AD":1236,"IG":1237,"land":1238,"III":1239,"cri":1240,"ton":1241,"1500":1242,"5000":1243,"cy":1244,"round":1245,"wer":1246,"IST":1247,"ms":1248,"ron":1249,"ME":1250,"CR":1251,"ul":1252,"3D":1253,"je":1254,"IA":1255,"ley":1256,"105":1257,"au":1258,"Ð°":1259,"ria":1260,"101":1261,"1903":1262,"tor":1263,"GB":1264,"van":1265,"09":1266,"TE":1267,"Lu":1268,"1902":1269,"BD":1270,"NC":1271,"Pri":1272,"Fe":1273,"xt":1274,"350":1275,"pou":1276,"Ã¡":1277,"SAO":1278,"des":1279,"DC":1280,"ja":1281,"Î²":1282,"cke":1283,"B1900":1284,"book":1285,"hat":1286,"ES":1287,"all":1288,"BM":1289,"ï¼İ":1290,"ãĥ³":1291,"Ru":1292,"ner":1293,"1898":1294,"res":1295,"06":1296,"118":1297,"op":1298,"ãģ®":1299,"360":1300,"DR":1301,"New":1302,"01":1303,"DA":1304,"Hu":1305,"Open":1306,"1895":1307,"ger":1308,"125":1309,"Sho":1310,"HO":1311,"MC":1312,"San":1313,"ATP":1314,"Micro":1315,"ctor":1316,"Ð¾":1317,"108":1318,"ft":1319,"cor":1320,"os":1321,"NG":1322,"Ke":1323,"clu":1324,"gy":1325,"gram":1326,"pri":1327,"ward":1328,"sty":1329,"IF":1330,"Cu":1331,"Fran":1332,"One":1333,"net":1334,"soft":1335,"ker":1336,"pt":1337,"âĪĴ":1338,"07":1339,"08":1340,"230":1341,"Face":1342,"104":1343,"pace":1344,"lspan":1345,"Cor":1346,"Per":1347,"Bar":1348,"World":1349,"App":1350,"EDT":1351,"ISTAT":1352,"cuan":1353,"Love":1354,"Ko":1355,"à¤":1356,"Har":1357,"NO":1358,"Stu":1359,"1896":1360,"LL":1361,"ux":1362,"109":1363,"DP":1364,"las":1365,"AA":1366,"fli":1367,"RI":1368,"Ju":1369,"pha":1370,"Ser":1371,"lus":1372,"line":1373,"RT":1374,"tri":1375,"SP":1376,"EX":1377,"B48":1378,"106":1379,"1890":1380,"rai":1381,"sti":1382,"mon":1383,"CST":1384,"ML":1385,"od":1386,"uni":1387,"CDT":1388,"bert":1389,"Je":1390,"rs":1391,"rus":1392,"red":1393,"DO":1394,"Pu":1395,"ky":1396,"HE":1397,"Cou":1398,"ation":1399,"Mon":1400,"04":1401,"4000":1402,"115":1403,"1200":1404,"M1":1405,"Pre":1406,"03":1407,"ler":1408,"GP":1409,"del":1410,"CE":1411,"Äģ":1412,"Live":1413,"begin":1414,"1889":1415,"ool":1416,"Davi":1417,"with":1418,"ara":1419,"1899":1420,"colspan":1421,"tain":1422,"back":1423,"1871":1424,"RS":1425,"sto":1426,"Facebook":1427,"Ed":1428,"Sha":1429,"Microsoft":1430,"mic":1431,"tem":1432,"âĢĭ":1433,"240":1434,"1600":1435,"LO":1436,"Tri":1437,"ten":1438,"tin":1439,"BE":1440,"low":1441,"102":1442,"box":1443,"clude":1444,"Ad":1445,"TT":1446,"1897":1447,"Sou":1448,"ser":1449,"NH":1450,"EE":1451,"Du":1452,"ces":1453,"PP":1454,"117":1455,"SC":1456,"val":1457,"02":1458,"por":1459,"cm":1460,"Mac":1461,"style":1462,"Che":1463,"rst":1464,"103":1465,"AKB48":1466,"Dan":1467,"MD":1468,"Nor":1469,"Ph":1470,"107":1471,"ral":1472,"Her":1473,"On":1474,"pre":1475,"ring":1476,"As":1477,"are":1478,"Willi":1479,"tel":1480,"Linux":1481,"lis":1482,"Ori":1483,"ww":1484,"Dis":1485,"shuan":1486,"gue":1487,"mas":1488,"450":1489,"Ber":1490,"VID":1491,"127":1492,"Music":1493,"Is":1494,"Ai":1495,"Gre":1496,"cer":1497,"Ã¼":1498,"tus":1499,"Vo":1500,"tra":1501,"128":1502,"flix":1503,"CL":1504,"Netflix":1505,"Bro":1506,"yo":1507,"1894":1508,"Game":1509,"220":1510,"Can":1511,"Gra":1512,"nin":1513,"ref":1514,"Ð½":1515,"William":1516,"Bri":1517,"IL":1518,"align":1519,"SH":1520,"bli":1521,"ory":1522,"Or":1523,"Twit":1524,"1880":1525,"Red":1526,"old":1527,"ÃŃ":1528,"RNA":1529,"136":1530,"PG":1531,"Ð¸":1532,"ãģĦ":1533,"rom":1534,"TR":1535,"Team":1536,"1800":1537,"ãĤ¹":1538,"Univer":1539,"ground":1540,"ia":1541,"1885":1542,"len":1543,"114":1544,"ãĤĵ":1545,"Hz":1546,"color":1547,"Gen":1548,"Ty":1549,"116":1550,"280":1551,"UR":1552,"ple":1553,"Ðµ":1554,"113":1555,"1886":1556,"ein":1557,"ãĤ¤":1558,"TS":1559,"PO":1560,"1893":1561,"lar":1562,"ex":1563,"rn":1564,"yn":1565,"Mc":1566,"name":1567,"111":1568,"SL":1569,"ãĦ":1570,"Super":1571,"She":1572,"stra":1573,"All":1574,"Gu":1575,"cial":1576,"lass":1577,"âĢ»":1578,"David":1579,"135":1580,"ject":1581,"Ac":1582,"260":1583,"Cen":1584,"Eu":1585,"lf":1586,"1860":1587,"port":1588,"ham":1589,"Geor":1590,"cho":1591,"national":1592,"Char":1593,"Un":1594,"WTA":1595,"lver":1596,"dge":1597,"work":1598,"HC":1599,"Th":1600,"tro":1601,"School":1602,"Ban":1603,"ks":1604,"sso":1605,"tch":1606,"tis":1607,"1888":1608,"Mor":1609,"qui":1610,"text":1611,"SD":1612,"Ã³":1613,"-.":1614,"UA":1615,"roup":1616,"lly":1617,"cation":1618,"ony":1619,"background":1620,"Meta":1621,"roid":1622,"ac":1623,"meri":1624,"Tra":1625,"129":1626,"GO":1627,"Sto":1628,"dis":1629,"1870":1630,"GN":1631,"ï¹":1632,"ream":1633,"1887":1634,"Show":1635,"Qu":1636,"cle":1637,"1868":1638,"6000":1639,"Ã¶":1640,"ÑĢ":1641,"1883":1642,"NF":1643,"VA":1644,"mar":1645,"Ver":1646,"day":1647,"320":1648,"Xbox":1649,"CS":1650,"was":1651,"Ang":1652,"NHK":1653,"Tho":1654,"AF":1655,"Fo":1656,"Twitter":1657,"DD":1658,"lyin":1659,"onlyin":1660,"onlyinclude":1661,"++":1662,"KP":1663,"don":1664,"1864":1665,"âĢ¢":1666,"Gir":1667,"ION":1668,"1884":1669,"119":1670,"Bla":1671,"RC":1672,"UE":1673,"ain":1674,"miu":1675,"122":1676,"Va":1677,"2500":1678,"1892":1679,"210":1680,"A1":1681,"center":1682,"cket":1683,"155":1684,"ISO":1685,"âħ":1686,"145":1687,"stri":1688,"1891":1689,"650":1690,"way":1691,"Android":1692,"NS":1693,"Clu":1694,"ãĢķ":1695,"OR":1696,"ffi":1697,"htt":1698,"mber":1699,"ãĢĶ":1700,"1850":1701,"Fu":1702,"Phi":1703,"age":1704,"mb":1705,"win":1706,"xy":1707,"Cy":1708,"Ku":1709,"king":1710,"International":1711,"sia":1712,"1867":1713,"logy":1714,"Ce":1715,"IM":1716,"ãĥĪ":1717,"1879":1718,"Star":1719,"rie":1720,"James":1721,"Enter":1722,"cc":1723,"ller":1724,"380":1725,"AB":1726,"UP":1727,"ney":1728,"Eng":1729,"1876":1730,"Spe":1731,"War":1732,"ny":1733,"Studio":1734,"zo":1735,"George":1736,"Ab":1737,"Ani":1738,"1875":1739,"1861":1740,"270":1741,"Universi":1742,"Games":1743,"Bra":1744,"IR":1745,"126":1746,"NT":1747,"Ã¨":1748,"time":1749,"art":1750,"Es":1751,"Por":1752,"NGC":1753,"stru":1754,"ãĥ«":1755,"1873":1756,"Hen":1757,"MG":1758,"phi":1759,"ero":1760,"123":1761,"ãĥ©":1762,"PV":1763,"ns":1764,"Ben":1765,"Dra":1766,"HT":1767,"Colle":1768,"Group":1769,"Pan":1770,"car":1771,"mpi":1772,"rans":1773,"Sun":1774,"it":1775,"ut":1776,"168":1777,"cus":1778,"COVID":1779,"Blo":1780,"FM":1781,"MB":1782,"Sys":1783,"ous":1784,"sed":1785,"1865":1786,"Club":1787,"AO":1788,"Ameri":1789,"PL":1790,"her":1791,"im":1792,"121":1793,"DE":1794,"Don":1795,"that":1796,"Air":1797,"Center":1798,"175":1799,"ary":1800,"ãģĨ":1801,"Web":1802,"H2":1803,"YP":1804,"from":1805,"Ã¤":1806,"1400":1807,"MAX":1808,"critic":1809,"Ale":1810,"tz":1811,"138":1812,"228":1813,"Han":1814,"TP":1815,"1848":1816,"1862":1817,"330":1818,"124":1819,"ãĤ¢":1820,"1881":1821,"1882":1822,"737":1823,"Lea":1824,"Ali":1825,"UC":1826,"hy":1827,"1878":1828,"550":1829,"Ve":1830,"sau":1831,"bri":1832,"bit":1833,"1872":1834,"El":1835,"LC":1836,"Insta":1837,"Min":1838,"ration":1839,"INK":1840,"Metacritic":1841,"eld":1842,"Oricon":1843,"Sai":1844,"Whi":1845,"sco":1846,"156":1847,"Boo":1848,"MTV":1849,"sp":1850,"165":1851,"LED":1852,"1840":1853,"IVE":1854,"Ya":1855,"cre":1856,"kin":1857,"750":1858,"ãĥĥ":1859,"1300":1860,"ãģĹ":1861,"Hy":1862,"137":1863,"Micha":1864,"Mark":1865,"7000":1866,"Hel":1867,"era":1868,"DOS":1869,"SQ":1870,"UB":1871,"229":1872,"IU":1873,"GDP":1874,"King":1875,"OK":1876,"Ñģ":1877,"type":1878,"Gran":1879,"nic":1880,"High":1881,"Tai":1882,"ast":1883,"152":1884,"TVB":1885,"Chris":1886,"159":1887,"1877":1888,"Robert":1889,"Chan":1890,"py":1891,"sy":1892,"tle":1893,"âĹ":1894,"cien":1895,"1866":1896,"Hou":1897,"iOS":1898,"ot":1899,"Ð»":1900,"Produ":1901,"SK":1902,"Shi":1903,"silver":1904,"1869":1905,"âĢ²":1906,"thi":1907,"THE":1908,"Up":1909,"Day":1910,"Cro":1911,"DM":1912,"Ele":1913,"Stre":1914,"Peter":1915,"It":1916,"NET":1917,"tter":1918,"Free":1919,"Jan":1920,"Ðº":1921,"139":1922,"Phone":1923,"Instagram":1924,"At":1925,"BI":1926,"Sur":1927,"pla":1928,"BLAC":1929,"Type":1930,"Ð²":1931,"ora":1932,"Apple":1933,"DJ":1934,"Sy":1935,"Wal":1936,"CG":1937,"WE":1938,"code":1939,"ãĤ¯":1940,"Michael":1941,"DF":1942,"Sh":1943,"ï¸":1944,"1100":1945,"cia":1946,"158":1947,"ness":1948,"Big":1949,"225":1950,"Pla":1951,"Pat":1952,"Sam":1953,"Ye":1954,"vin":1955,"nia":1956,"305":1957,"133":1958,"INE":1959,"Paul":1960,"Tech":1961,"National":1962,"tte":1963,"oun":1964,"nis":1965,"ãĥª":1966,"Award":1967,"RA":1968,"YO":1969,"132":1970,"Steam":1971,"205":1972,"1863":1973,"ray":1974,"IE":1975,"pany":1976,"Media":1977,"tainment":1978,"215":1979,"Br":1980,"University":1981,"FO":1982,"Lou":1983,"Val":1984,"ensis":1985,"tions":1986,"Bill":1987,"phy":1988,"CA":1989,"F1":1990,"KBS":1991,"bur":1992,"148":1993,"131":1994,"Smi":1995,"kg":1996,"166":1997,"1874":1998,"XX":1999,"deo":2000,"1858":2001,"par":2002,"EF":2003,"sor":2004,"rin":2005,"rum":2006,"Cho":2007,"clo":2008,"147":2009,"Hol":2010,"mini":2011,"Fri":2012,"256":2013,"ãģĭ":2014,"M2":2015,"1830":2016,"CBS":2017,"UT":2018,"gon":2019,"lm":2020,"1851":2021,"Lee":2022,"BN":2023,"GA":2024,"HI":2025,"UI":2026,"lip":2027,"ric":2028,"192":2029,"Park":2030,"td":2031,"Î¼":2032,"8000":2033,"Mer":2034,"now":2035,"Entertainment":2036,"310":2037,"143":2038,"his":2039,"Mk":2040,"1855":2041,"City":2042,"Black":2043,"Wil":2044,"Power":2045,"Chu":2046,"EM":2047,"IX":2048,"Space":2049,"gar":2050,"whi":2051,"GM":2052,"RAM":2053,"ð«":2054,"185":2055,"1859":2056,"tho":2057,"STAR":2058,"Jack":2059,"Charles":2060,"134":2061,"Java":2062,"Dire":2063,"ABC":2064,"Gar":2065,"Ter":2066,"spe":2067,"ship":2068,"1854":2069,"146":2070,"301":2071,"1700":2072,"inter":2073,"Viu":2074,"stitu":2075,"370":2076,"Fla":2077,"Ken":2078,"1857":2079,"Alpha":2080,"Lan":2081,"Stan":2082,"out":2083,"los":2084,"Dar":2085,"Ø§":2086,"290":2087,"ãģª":2088,"Life":2089,"ï¸°":2090,"vs":2091,"Î³":2092,"214":2093,"420":2094,"Cam":2095,"ÑĤ":2096,"Recor":2097,"Company":2098,"Fun":2099,"Î¿":2100,"ãĢľ":2101,"1856":2102,"1853":2103,"Project":2104,"Dream":2105,"Fan":2106,"Sen":2107,"dium":2108,"ãģŁ":2109,"first":2110,"Time":2111,"Thomas":2112,"House":2113,"Pen":2114,"144":2115,"Saint":2116,"FA":2117,"OVA":2118,"Py":2119,"Spi":2120,"Cent":2121,"VO":2122,"ek":2123,"face":2124,"A2":2125,"IO":2126,"dd":2127,"von":2128,"167":2129,"Japan":2130,"Street":2131,"3A":2132,"Cla":2133,"HS":2134,"SBS":2135,"rence":2136,"bili":2137,"rist":2138,"chard":2139,"1841":2140,"very":2141,"Euro":2142,"LP":2143,"Plan":2144,"ak":2145,"ie":2146,"rp":2147,"bal":2148,"ety":2149,"Alex":2150,"340":2151,"PM":2152,"bun":2153,"if":2154,"lue":2155,"BLACKP":2156,"Sco":2157,"Tal":2158,"shiĠ":2159,"deĠ":2160,"ĠshiĠ":2161,"ĠdeĠ":2162,"yiĠ":2163,"ĠyiĠ":2164,"jiĠ":2165,"weiĠ":2166,"zhiĠ":2167,"yuĠ":2168,"ĠweiĠ":2169,"ĠjiĠ":2170,"Ġnian":2171,"ĠzhiĠ":2172,"ĠyuĠ":2173,"Ġli":2174,"ĠnianĠ":2175,"zhongĠ":2176,"ĠliĠ":2177,"zaiĠ":2178,"renĠ":2179,"youĠ":2180,"guoĠ":2181,"heĠ":2182,"qiĠ":2183,"buĠ":2184,"diĠ":2185,"ĠyouĠ":2186,"ĠzaiĠ":2187,"ĠrenĠ":2188,"Ġyue":2189,"ĠzhongĠ":2190,"ĠheĠ":2191,"daĠ":2192,"xiĠ":2193,"xingĠ":2194,"yuanĠ":2195,"erĠ":2196,"gongĠ":2197,"ĠyueĠ":2198,"fuĠ":2199,"siĠ":2200,"geĠ":2201,"jianĠ":2202,"ĠguoĠ":2203,"wuĠ":2204,"jiaĠ":2205,"ĠbuĠ":2206,"jieĠ":2207,"keĠ":2208,"chengĠ":2209,"zhuĠ":2210,"shengĠ":2211,"xiangĠ":2212,"xianĠ":2213,"daoĠ":2214,"beiĠ":2215,"ziĠ":2216,"ĠqiĠ":2217,"faĠ":2218,"huiĠ":2219,"chuĠ":2220,"jinĠ":2221,"ĠdiĠ":2222,"shuĠ":2223,"ĠerĠ":2224,"riĠ":2225,"ĠxiĠ":2226,"juĠ":2227,"quĠ":2228,"zhengĠ":2229,"houĠ":2230,"shouĠ":2231,"mingĠ":2232,"shangĠ":2233,"dongĠ":2234,"taĠ":2235,"jingĠ":2236,"leĠ":2237,"xueĠ":2238,"fangĠ":2239,"yanĠ":2240,"zhanĠ":2241,"ciĠ":2242,"baoĠ":2243,"huaĠ":2244,"yingĠ":2245,"yeĠ":2246,"tongĠ":2247,"zuoĠ":2248,"zheĠ":2249,"guanĠ":2250,"ĠdaĠ":2251,"ĠriĠ":2252,"yinĠ":2253,"changĠ":2254,"xinĠ":2255,"jiaoĠ":2256,"luĠ":2257,"duiĠ":2258,"wenĠ":2259,"tiĠ":2260,"fenĠ":2261,"qianĠ":2262,"taiĠ":2263,"jiangĠ":2264,"xiaoĠ":2265,"bingĠ":2266,"ĠsiĠ":2267,"junĠ":2268,"dianĠ":2269,"zhangĠ":2270,"pingĠ":2271,"xiaĠ":2272,"duĠ":2273,"huoĠ":2274,"yongĠ":2275,"danĠ":2276,"ĠkeĠ":2277,"ĠjiaĠ":2278,"haiĠ":2279,"gaiĠ":2280,"wangĠ":2281,"daiĠ":2282,"nanĠ":2283,"ruĠ":2284,"qingĠ":2285,"muĠ":2286,"biĠ":2287,"banĠ":2288,"liangĠ":2289,"laiĠ":2290,"meiĠ":2291,"yaĠ":2292,"shenĠ":2293,"ĠfuĠ":2294,"ĠxingĠ":2295,"zuĠ":2296,"wanĠ":2297,"sheĠ":2298,"lianĠ":2299,"minĠ":2300,"miĠ":2301,"zhouĠ":2302,"jiuĠ":2303,"qiuĠ":2304,"anĠ":2305,"zhenĠ":2306,"benĠ":2307,"xuĠ":2308,"gaoĠ":2309,"ĠtaĠ":2310,"boĠ":2311,"xieĠ":2312,"teĠ":2313,"bianĠ":2314,"lingĠ":2315,"luoĠ":2316,"yaoĠ":2317,"dengĠ":2318,"duoĠ":2319,"yangĠ":2320,"quanĠ":2321,"cheĠ":2322,"suoĠ":2323,"zuiĠ":2324,"tianĠ":2325,"guĠ":2326,"biaoĠ":2327,"fanĠ":2328,"huĠ":2329,"yunĠ":2330,"xuanĠ":2331,"suĠ":2332,"shanĠ":2333,"feiĠ":2334,"dingĠ":2335,"liuĠ":2336,"zongĠ":2337,"saiĠ":2338,"dangĠ":2339,"maĠ":2340,"kaiĠ":2341,"baĠ":2342,"haoĠ":2343,"ĠdeĠyiĠ":2344,"ĠbingĠ":2345,"ĠdaoĠ":2346,"fengĠ":2347,"kouĠ":2348,"tuĠ":2349,"mianĠ":2350,"menĠ":2351,"neiĠ":2352,"laĠ":2353,"leiĠ":2354,"sanĠ":2355,"caiĠ":2356,"waiĠ":2357,"chuanĠ":2358,"jueĠ":2359,"paiĠ":2360,"chiĠ":2361,"ĠdanĠ":2362,"ĠjinĠ":2363,"ĠbeiĠ":2364,"ĠgongĠ":2365,"ĠjianĠ":2366,"guangĠ":2367,"ĠshiĠyiĠ":2368,"lanĠ":2369,"niĠ":2370,"guiĠ":2371,"baiĠ":2372,"ĠziĠ":2373,"linĠ":2374,"tingĠ":2375,"ĠzheĠ":2376,"puĠ":2377,"ĠxiangĠ":2378,"naĠ":2379,"gangĠ":2380,"lunĠ":2381,"nengĠ":2382,"hanĠ":2383,"lieĠ":2384,"zeĠ":2385,"ĠzhuĠ":2386,"chengĠweiĠ":2387,"moĠ":2388,"ĠyinĠ":2389,"ĠgeĠ":2390,"ĠxianĠ":2391,"ĠchuĠ":2392,"ĠshiĠdeĠ":2393,"meiĠguoĠ":2394,"chanĠ":2395,"shuiĠ":2396,"ĠjuĠ":2397,"ĠchengĠ":2398,"ĠdeĠshiĠ":2399,"ĠjieĠ":2400,"ĠgaiĠ":2401,"ĠwuĠ":2402,"suiĠ":2403,"xunĠ":2404,"zhuanĠ":2405,"ĠbaoĠ":2406,"ĠpingĠ":2407,"lvĠ":2408,"Ġta":2409,"aoĠ":2410,"zhuangĠ":2411,"liĠ":2412,"touĠ":2413,"duanĠ":2414,"ĠyiĠjiĠ":2415,"seĠ":2416,"huanĠ":2417,"eĠ":2418,"chongĠ":2419,"ĠweiĠyuĠ":2420,"cengĠ":2421,"pinĠ":2422,"congĠ":2423,"chaĠ":2424,"diĠyiĠ":2425,"cunĠ":2426,"1Ġ":2427,"aĠ":2428,"douĠ":2429,"zaoĠ":2430,"ĠhouĠ":2431,"kongĠ":2432,"zhaoĠ":2433,"gouĠ":2434,"ganĠ":2435,"ĠciĠ":2436,"shaĠ":2437,"qiangĠ":2438,"ĠshiĠjiĠ":2439,"chaoĠ":2440,"mengĠ":2441,"ĠyeĠ":2442,"kaiĠshiĠ":2443,"manĠ":2444,"ceĠ":2445,"tangĠ":2446,"longĠ":2447,"aiĠ":2448,"Ġdan":2449,"kuoĠ":2450,"keĠyiĠ":2451,"ĠyuanĠ":2452,"ĠfaĠ":2453,"ĠyiĠgeĠ":2454,"2Ġ":2455,"tanĠ":2456,"tuanĠ":2457,"ĠshengĠ":2458,"ĠshiĠweiĠ":2459,"kaĠ":2460,"gongĠliĠ":2461,"ĠzhongĠguoĠ":2462,"qinĠ":2463,"Ġtong":2464,"tieĠ":2465,"ĠshiĠshiĠ":2466,"Ġbing":2467,"ĠmingĠ":2468,"zhengĠfuĠ":2469,"shaoĠ":2470,"canĠ":2471,"pianĠ":2472,"Ġyou":2473,"huoĠdeĠ":2474,"mianĠjiĠ":2475,"hangĠ":2476,"hongĠ":2477,"gengĠ":2478,"ĠhuoĠ":2479,"jiĠdeĠ":2480,"ĠshiĠyongĠ":2481,"tiaoĠ":2482,"xiuĠ":2483,"chenĠ":2484,"shuoĠ":2485,"piĠ":2486,"ĠdongĠ":2487,"renĠweiĠ":2488,"ĠshiĠjianĠ":2489,"taoĠ":2490,"zhiĠyiĠ":2491,"zhongĠdeĠ":2492,"zhengĠzhiĠ":2493,"huangĠ":2494,"ranĠ":2495,"ĠyiĠzhiĠ":2496,"ĠshiĠjieĠ":2497,"zhongĠguoĠ":2498,"Ġri":2499,"yueĠ":2500,"chuangĠ":2501,"nvĠ":2502,"quĠdeĠ":2503,"guoĠjiĠ":2504,"yiĠshiĠ":2505,"ĠpingĠfangĠ":2506,"woĠ":2507,"renĠkouĠ":2508,"xingĠdeĠ":2509,"poĠ":2510,"ĠshouĠ":2511,"jinĠxingĠ":2512,"rongĠ":2513,"ĠhaoĠ":2514,"ĠsuiĠ":2515,"liaoĠ":2516,"meiĠyouĠ":2517,"diaoĠ":2518,"tuoĠ":2519,"songĠ":2520,"ouĠ":2521,"ĠmiĠ":2522,"ĠliĠdeĠ":2523,"ĠliĠshiĠ":2524,"nianĠ":2525,"Ġdang":2526,"ĠweiĠyuanĠ":2527,"ĠfenĠ":2528,"ĠwanĠ":2529,"peiĠ":2530,"ĠqiĠzhongĠ":2531,"zuoĠweiĠ":2532,"gongĠsiĠ":2533,"faĠguoĠ":2534,"biaoĠshiĠ":2535,"ĠĠĠzaiĠ":2536,"yanĠjiuĠ":2537,"Ġer":2538,"ĠshangĠ":2539,"zhengĠshiĠ":2540,"ĠhaiĠ":2541,"Ġyin":2542,"ĠdeĠjiĠ":2543,"panĠ":2544,"tuiĠ":2545,"ĠmeiĠ":2546,"ĠxinĠ":2547,"Ġzhe":2548,"dianĠshiĠ":2549,"yunĠdongĠ":2550,"queĠ":2551,"bangĠ":2552,"qieĠ":2553,"ĠtaiĠ":2554,"ĠdeĠdiĠ":2555,"chengĠshiĠ":2556,"zhiĠshiĠ":2557,"ĠshuĠ":2558,"ĠjiangĠ":2559,"ĠjingĠ":2560,"jianĠdeĠ":2561,"3Ġ":2562,"taĠdeĠ":2563,"gongĠheĠ":2564,"shuĠyuĠ":2565,"sheĠjiĠ":2566,"ĠqianĠ":2567,"langĠ":2568,"ĠrenĠminĠ":2569,"dunĠ":2570,"ĠrenĠkouĠ":2571,"zhiĠdeĠ":2572,"qiaoĠ":2573,"10ĠyueĠ":2574,"12ĠyueĠ":2575,"ĠdeĠzhiĠ":2576,"ĠyingĠ":2577,"jingĠjiĠ":2578,"dianĠyingĠ":2579,"7ĠyueĠ":2580,"ĠxiaĠ":2581,"ĠnanĠ":2582,"zuĠzhiĠ":2583,"ĠmuĠ":2584,"9ĠyueĠ":2585,"ĠzhangĠ":2586,"8ĠyueĠ":2587,"zhuĠyiĠ":2588,"3ĠyueĠ":2589,"ĠzuiĠ":2590,"1ĠyueĠ":2591,"maoĠ":2592,"ĠshiĠqiĠ":2593,"daiĠbiaoĠ":2594,"waĠ":2595,"riĠbenĠ":2596,"yingĠguoĠ":2597,"5ĠyueĠ":2598,"youĠyiĠ":2599,"jiĠshiĠ":2600,"kaoĠ":2601,"6ĠyueĠ":2602,"guoĠdeĠ":2603,"kanĠ":2604,"4ĠyueĠ":2605,"ĠhuiĠ":2606,"ĠshiĠzhenĠ":2607,"reĠ":2608,"henĠ":2609,"maiĠ":2610,"xianĠdeĠ":2611,"ĠbiĠ":2612,"weiĠyiĠ":2613,"11ĠyueĠ":2614,"cheĠzhanĠ":2615,"jiaoĠyuĠ":2616,"ĠtongĠ":2617,"genĠjuĠ":2618,"buĠfenĠ":2619,"yiĠdeĠ":2620,"daĠxueĠ":2621,"yuĠshiĠ":2622,"xiangĠgangĠ":2623,"mingĠweiĠ":2624,"xueĠyuanĠ":2625,"ĠdeĠguoĠ":2626,"ĠyiĠyuanĠ":2627,"4Ġ":2628,"liĠshiĠ":2629,"ĠdeĠyiĠgeĠ":2630,"ĠzhiĠhouĠ":2631,"ĠruĠ":2632,"ĠdengĠ":2633,"danĠrenĠ":2634,"ĠnianĠ1ĠyueĠ":2635,"genĠ":2636,"canĠjiaĠ":2637,"ĠyiĠweiĠ":2638,"caoĠ":2639,"kangĠ":2640,"5Ġ":2641,"sheĠhuiĠ":2642,"ĠtiĠ":2643,"xianĠshiĠ":2644,"ĠdiĠquĠ":2645,"ĠqingĠ":2646,"saĠ":2647,"yingĠxiangĠ":2648,"taiĠwanĠ":2649,"shuĠdeĠ":2650,"Ġran":2651,"ĠyanĠ":2652,"ĠyouĠyuĠ":2653,"shangĠdeĠ":2654,"xingĠshiĠ":2655,"yeĠshiĠ":2656,"ĠxueĠ":2657,"qiĠshiĠ":2658,"ĠyinĠciĠ":2659,"formulaĠ":2660,"bieĠ":2661,"guanĠliĠ":2662,"laoĠ":2663,"zengĠ":2664,"gongĠzuoĠ":2665,"tongĠguoĠ":2666,"leĠyiĠ":2667,"ĠnianĠ12ĠyueĠ":2668,"ĠxiaoĠ":2669,"ĠlingĠ":2670,"xingĠzhengĠ":2671,"buĠdeĠ":2672,"gongĠheĠguoĠ":2673,"weiĠshiĠ":2674,"ĠliĠyaĠ":2675,"ĠnianĠdeĠ":2676,"erĠshiĠ":2677,"renĠdeĠ":2678,"zhunĠ":2679,"ziĠjiĠ":2680,"daĠdeĠ":2681,"2ĠyueĠ":2682,"xiongĠ":2683,"ĠguoĠjiaĠ":2684,"ĠliangĠ":2685,"zuiĠzhongĠ":2686,"ĠnianĠ3ĠyueĠ":2687,"huiĠyiĠ":2688,"kuangĠ":2689,"ĠĠĠshengĠ":2690,"chengĠliĠ":2691,"nongĠ":2692,"ĠpingĠfangĠgongĠliĠ":2693,"luoĠsiĠ":2694,"kuĠ":2695,"ĠnianĠ7ĠyueĠ":2696,"ĠjiaoĠ":2697,"ĠnianĠ10ĠyueĠ":2698,"faĠxianĠ":2699,"ĠwangĠ":2700,"chuĠdeĠ":2701,"miaoĠ":2702,"ĠzhanĠ":2703,"haĠ":2704,"qiĠdeĠ":2705,"ĠbaoĠkuoĠ":2706,"faĠzhanĠ":2707,"ĠnianĠ9ĠyueĠ":2708,"ĠtianĠ":2709,"yuanĠdeĠ":2710,"ĠshiĠyouĠ":2711,"ĠshiĠzhiĠ":2712,"qiĠtaĠ":2713,"heiĠ":2714,"ĠnianĠ5ĠyueĠ":2715,"ĠqiĠjianĠ":2716,"piaoĠ":2717,"suoĠyouĠ":2718,"kuaiĠ":2719,"siĠdeĠ":2720,"ĠboĠ":2721,"ĠnianĠ4ĠyueĠ":2722,"ĠnianĠ6ĠyueĠ":2723,"ĠnianĠ8ĠyueĠ":2724,"youĠyuĠ":2725,"ĠluoĠ":2726,"tieĠluĠ":2727,"ĠdaĠxueĠ":2728,"quanĠguoĠ":2729,"ĠshiĠzaiĠ":2730,"6Ġ":2731,"daoĠzhiĠ":2732,"daoĠdeĠ":2733,"tongĠdeĠ":2734,"zhuĠyaoĠ":2735,"chengĠdeĠ":2736,"canĠyuĠ":2737,"louĠ":2738,"ĠmaĠ":2739,"ĠzhengĠ":2740,"wenĠhuaĠ":2741,"shuangĠ":2742,"nuoĠ":2743,"ĠhuaĠ":2744,"diĠliĠ":2745,"ĠduiĠ":2746,"ĠtaĠmenĠ":2747,"ĠluĠ":2748,"zhongĠyiĠ":2749,"lianĠheĠ":2750,"diĠdeĠ":2751,"ĠzhiĠdaoĠ":2752,"ĠdangĠ":2753,"ĠguĠ":2754,"ĠnianĠ11ĠyueĠ":2755,"ĠtongĠshiĠ":2756,"ĠshenĠ":2757,"baoĠkuoĠ":2758,"buĠshiĠ":2759,"ĠzhongĠxinĠ":2760,"ĠĠĠshiĠ":2761,"yinĠyueĠ":2762,"beiĠbuĠ":2763,"ĠjiuĠ":2764,"shuĠjiĠ":2765,"yongĠyuĠ":2766,"senĠ":2767,"ĠĠĠyiĠ":2768,"tiĠgongĠ":2769,"ĠquanĠ":2770,"ĠzongĠ":2771,"zaiĠyiĠ":2772,"xuanĠbuĠ":2773,"guoĠjiaĠ":2774,"ĠweiĠyuanĠhuiĠ":2775,"zuĠqiuĠ":2776,"Ġsui":2777,"wenĠtiĠ":2778,"ĠzuoĠ":2779,"ĠnianĠzhiĠ":2780,"kuanĠ":2781,"ĠyinĠweiĠ":2782,"xueĠxiaoĠ":2783,"shengĠyuĠ":2784,"ĠshiĠwuĠ":2785,"jianĠyuĠ":2786,"ziĠyouĠ":2787,"qianĠmiĠ":2788,"gongĠyouĠ":2789,"guanĠxiĠ":2790,"fangĠshiĠ":2791,"ĠweiĠzhiĠ":2792,"ĠshiĠzhongĠ":2793,"hunĠ":2794,"ĠnianĠ2ĠyueĠ":2795,"ĠxuĠ":2796,"enĠ":2797,"biĠsaiĠ":2798,"huaĠrenĠminĠ":2799,"yingĠdeĠ":2800,"rangĠ":2801,"chengĠyuanĠ":2802,"jianĠzhuĠ":2803,"huoĠdongĠ":2804,"jianĠliĠ":2805,"Ġgai":2806,"hengĠ":2807,"suanĠ":2808,"yuĠyiĠ":2809,"ĠĠĠliĠshiĠ":2810,"jiĠyiĠ":2811,"fenĠweiĠ":2812,"ĠdeĠrenĠ":2813,"sheĠyouĠ":2814,"renĠshiĠ":2815,"zuoĠpinĠ":2816,"ĠchangĠ":2817,"ĠdianĠ":2818,"tongĠshiĠ":2819,"guanĠjunĠ":2820,"ĠbenĠ":2821,"daĠliĠ":2822,"geĠrenĠ":2823,"ĠchengĠweiĠ":2824,"ĠĠĠshengĠpingĠ":2825,"Ġjie":2826,"Ġxian":2827,"ĠanĠ":2828,"zhuanĠjiĠ":2829,"yuĠdeĠ":2830,"ĠdiĠerĠ":2831,"beiĠjingĠ":2832,"ĠjiĠhuaĠ":2833,"ĠyouĠxiĠ":2834,"jiuĠshiĠ":2835,"xiaoĠshiĠ":2836,"ĠliuĠ":2837,"huaĠrenĠminĠgongĠheĠguoĠ":2838,"yinĠweiĠ":2839,"geiĠ":2840,"ĠtaĠdeĠ":2841,"menĠdeĠ":2842,"ĠliĠyuĠ":2843,"qunĠ":2844,"ĠnianĠdaiĠ":2845,"ĠbaĠ":2846,"duiĠyuĠ":2847,"xiĠdeĠ":2848,"mingĠdeĠ":2849,"ĠaĠ":2850,"junĠshiĠ":2851,"ĠcongĠ":2852,"diĠshiĠ":2853,"tongĠyiĠ":2854,"diĠerĠ":2855,"xinĠdeĠ":2856,"quĠyuĠ":2857,"ĠbuĠfenĠ":2858,"xueĠjiaĠ":2859,"eĠluoĠsiĠ":2860,"zouĠ":2861,"taĠmenĠ":2862,"ĠduoĠ":2863,"chunĠ":2864,"weiĠdeĠ":2865,"shouĠdaoĠ":2866,"minĠguoĠ":2867,"houĠdeĠ":2868,"erĠdeĠ":2869,"shengĠdeĠ":2870,"laiĠdeĠ":2871,"fangĠmianĠ":2872,"faĠshengĠ":2873,"zhengĠfu":2874,"gongĠjiĠ":2875,"danĠweiĠ":2876,"ĠfengĠ":2877,"ĠhuĠ":2878,"xingĠweiĠ":2879,"ĠshiĠrenĠ":2880,"ĠyiĠjingĠ":2881,"yongĠyouĠ":2882,"ĠfanĠ":2883,"zhongĠshiĠ":2884,"jinĠshiĠ":2885,"ĠlianĠ":2886,"ĠxiĠtongĠ":2887,"jueĠdingĠ":2888,"buĠyuĠ":2889,"ĠgongĠliĠ":2890,"ĠquĠ":2891,"ĠzhongĠyangĠ":2892,"juĠyouĠ":2893,"ĠmianĠjiĠ":2894,"1ĠriĠ":2895,"tongĠzhiĠ":2896,"diĠquĠ":2897,"niĠyaĠ":2898,"liangĠgeĠ":2899,"ĠguanĠ":2900,"faĠxingĠ":2901,"quĠweiĠ":2902,"ĠriĠbenĠ":2903,"ĠgaoĠ":2904,"ĠfeiĠ":2905,"ĠwenĠ":2906,"youĠdeĠ":2907,"chuĠxianĠ":2908,"ĠteĠ":2909,"shengĠjiĠ":2910,"ĠsuoĠ":2911,"zhĠ":2912,"huaĠdeĠ":2913,"ĠrenĠkouĠmiĠ":2914,"ciĠshiĠ":2915,"qiĠyuĠ":2916,"ziĠzhiĠ":2917,"wuĠdeĠ":2918,"laiĠziĠ":2919,"juĠxingĠ":2920,"ĠtaĠzaiĠ":2921,"lingĠyiĠ":2922,"jiaĠdeĠ":2923,"ĠjiĠyuĠ":2924,"xianĠzhiĠ":2925,"Ġsuo":2926,"ĠweiĠjiĠ":2927,"mianĠjiĠweiĠ":2928,"ĠsuĠ":2929,"huiĠdeĠ":2930,"sĠ":2931,"baoĠhuĠ":2932,"ĠsanĠ":2933,"nanĠbuĠ":2934,"duĠliĠ":2935,"ĠpingĠfangĠqianĠmiĠ":2936,"shuĠjuĠ":2937,"kongĠzhiĠ":2938,"ĠshiĠyuĠ":2939,"zongĠtongĠ":2940,"jinĠruĠ":2941,"ĠshiĠweiĠyuĠ":2942,"ĠliĠruĠ":2943,"renĠwuĠ":2944,"quĠshiĠ":2945,"keĠliĠ":2946,"yaoĠqiuĠ":2947,"mouĠ":2948,"ĠĠĠdeĠ":2949,"Ġ15":2950,"ĠwoĠ":2951,"ĠmeiĠguoĠ":2952,"gtĠ":2953,"ĠgtĠ":2954,"guĠshiĠ":2955,"chengĠjiĠ":2956,"ĠranĠerĠ":2957,"ĠguangĠ":2958,"ltĠ":2959,"Ġru":2960,"xueĠshengĠ":2961,"ĠbianĠ":2962,"ĠĠĠyuĠ":2963,"Ġwan":2964,"jinĠdeĠ":2965,"ĠdanĠshiĠ":2966,"minĠzhuĠ":2967,"ĠcaiĠ":2968,"gongĠshiĠ":2969,"wanĠchengĠ":2970,"ĠyiĠqiĠ":2971,"lieĠcheĠ":2972,"youĠjiĠ":2973,"keĠnengĠ":2974,"ĠltĠ":2975,"ĠyiĠbuĠ":2976,"shenĠzhiĠ":2977,"ĠbingĠyuĠ":2978,"zhaĠ":2979,"renĠzhiĠ":2980,"pingĠfangĠ":2981,"youĠshiĠ":2982,"ĠyongĠ":2983,"ĠbingĠzaiĠ":2984,"ĠjiĠshuĠ":2985,"chaoĠguoĠ":2986,"tiĠyuĠ":2987,"yuanĠshiĠ":2988,"cangĠ":2989,"cunĠzaiĠ":2990,"qianĠwangĠ":2991,"keĠdeĠ":2992,"yaĠliĠ":2993,"dangĠshiĠ":2994,"siĠshiĠ":2995,"xueĠxiĠ":2996,"yongĠdeĠ":2997,"ĠdeĠyiĠge":2998,"jingĠguoĠ":2999,"Ġceng":3000,"ĠkaiĠ":3001,"neiĠdeĠ":3002,"faĠbuĠ":3003,"ĠshanĠ":3004,"zuoĠdeĠ":3005,"ĠzhiĠweiĠ":3006,"jianĠyiĠ":3007,"ĠhanĠ":3008,"guanĠyuĠ":3009,"Ġa":3010,"ĠĠĠdiĠ":3011,"wuĠkeĠ":3012,"wuĠshiĠ":3013,"xiangĠgang":3014,"zhuĠrenĠ":3015,"ĠzhiĠjianĠ":3016,"Ġ16":3017,"yinĠduĠ":3018,"ĠpuĠ":3019,"zhanĠshiĠ":3020,"zhanĠzhengĠ":3021,"ĠqiĠtaĠ":3022,"guoĠshiĠ":3023,"sunĠ":3024,"paoĠ":3025,"zhuĠyao":3026,"shengĠhuoĠ":3027,"zhouĠdeĠ":3028,"xuĠduoĠ":3029,"jianĠzhiĠ":3030,"ĠjiĠweiĠ":3031,"fanĠweiĠ":3032,"binĠ":3033,"ĠyiĠshuĠ":3034,"ĠjiĠqiĠ":3035,"ĠweiĠerĠ":3036,"chengĠgongĠ":3037,"hanĠguoĠ":3038,"ouĠzhouĠ":3039,"zhuĠxiĠ":3040,"luĠdeĠ":3041,"jieĠshouĠ":3042,"qiuĠduiĠ":3043,"ĠzhiĠyouĠ":3044,"ĠshuĠyuĠ":3045,"Ġzai":3046,"daiĠbiao":3047,"ĠjiĠzhongĠ":3048,"Ġjin":3049,"fuĠwuĠ":3050,"zengĠjiaĠ":3051,"ĠbuĠguoĠ":3052,"banĠdeĠ":3053,"sĠĠĠ":3054,"ĠbaiĠ":3055,"gongĠyuanĠ":3056,"ĠyouĠxianĠ":3057,"ĠmoĠ":3058,"Ġ000":3059,"xiaoĠxingĠ":3060,"xiaĠdeĠ":3061,"ĠĠĠgaiĠ":3062,"ĠzheĠxieĠ":3063,"ĠzhiĠchuĠ":3064,"heĠyiĠ":3065,"shangĠhaiĠ":3066,"duoĠdeĠ":3067,"ĠaoĠ":3068,"houĠyiĠ":3069,"sanĠshiĠ":3070,"ĠĠĠzhiĠ":3071,"ningĠ":3072,"ĠciĠwaiĠ":3073,"fuĠdeĠ":3074,"juĠliĠ":3075,"huaiĠ":3076,"siĠjiĠ":3077,"zuĠchengĠ":3078,"ĠgenĠjuĠ":3079,"Ġba":3080,"yunĠdongĠyuanĠ":3081,"jiaoĠtongĠ":3082,"ĠzhiĠzuoĠ":3083,"ĠzhiĠchiĠ":3084,"maĠweiĠ":3085,"gaoĠduĠ":3086,"7Ġ":3087,"changĠdeĠ":3088,"ĠnianĠqiĠ":3089,"zhuĠjiaoĠ":3090,"ĠzhĠ":3091,"zheĠxieĠ":3092,"niuĠ":3093,"geĠzhongĠ":3094,"ĠcengĠ":3095,"ĠzhiĠwuĠ":3096,"xuĠyaoĠ":3097,"ĠzaiĠciĠ":3098,"jueĠseĠ":3099,"chongĠxinĠ":3100,"chuĠleĠ":3101,"tiĠdeĠ":3102,"tuiĠchuĠ":3103,"ĠliĠjiĠ":3104,"zheĠgeĠ":3105,"jingĠliĠ":3106,"Ġ17":3107,"xiangĠdeĠ":3108,"ĠzuiĠzhongĠ":3109,"gongĠchengĠ":3110,"ĠdangĠshiĠ":3111,"qiĠyiĠ":3112,"daĠshiĠ":3113,"chuĠyuĠ":3114,"ĠrenĠheĠ":3115,"Ġai":3116,"ĠsheĠ":3117,"wuĠzhongĠ":3118,"duĠweiĠ":3119,"renĠminĠ":3120,"ziĠdeĠ":3121,"ĠduĠ":3122,"xuanĠjuĠ":3123,"lianĠsaiĠ":3124,"ĠĠĠdiĠliĠ":3125,"ziĠjiĠdeĠ":3126,"Ġye":3127,"ĠweiĠleĠ":3128,"ĠrenĠwuĠ":3129,"geĠquĠ":3130,"Ġhuo":3131,"ĠnianĠjianĠ":3132,"dangĠdiĠ":3133,"kaiĠfaĠ":3134,"ĠlaiĠ":3135,"fuĠzeĠ":3136,"ĠĠĠweiĠ":3137,"ĠweiĠqiĠ":3138,"gongĠchanĠ":3139,"xianĠzaiĠ":3140,"ĠzhiĠyuĠ":3141,"ĠrenĠyuanĠ":3142,"Ġma":3143,"zheĠyiĠ":3144,"liangĠweiĠ":3145,"jieĠshuĠ":3146,"yaĠdeĠ":3147,"chuĠliĠ":3148,"jieĠmuĠ":3149,"ĠleiĠ":3150,"guanĠdeĠ":3151,"ĠbanĠ":3152,"nvĠziĠ":3153,"saiĠshiĠ":3154,"2010ĠnianĠ":3155,"dingĠdeĠ":3156,"ruiĠ":3157,"duiĠdeĠ":3158,"riĠben":3159,"ĠhouĠlaiĠ":3160,"fanĠyingĠ":3161,"chuĠbanĠ":3162,"jieĠdeĠ":3163,"chanĠshengĠ":3164,"juanĠ":3165,"shouĠciĠ":3166,"sheĠshiĠ":3167,"leiĠsiĠ":3168,"ĠshiĠyiĠgeĠ":3169,"ĠyangĠ":3170,"dongĠwuĠ":3171,"baĠshiĠ":3172,"ĠC":3173,"jingĠshiĠ":3174,"ĠjiĠxuĠ":3175,"ĠnaĠ":3176,"leĠbuĠ":3177,"jieĠshiĠ":3178,"8Ġ":3179,"xiangĠshiĠ":3180,"ruoĠ":3181,"boĠshiĠ":3182,"keĠneng":3183,"ĠdaiĠ":3184,"anĠdeĠ":3185,"nanĠziĠ":3186,"ĠA":3187,"Ġjiang":3188,"duĠdeĠ":3189,"guanĠxiaĠ":3190,"sanĠnianĠ":3191,"ĠaiĠ":3192,"zaoĠchengĠ":3193,"Ġmei":3194,"haiĠshiĠ":3195,"yangĠdeĠ":3196,"dongĠshiĠ":3197,"sheĠliĠ":3198,"Ġ1Ġ":3199,"zhongĠzhiĠ":3200,"yanĠjiu":3201,"daoĠleĠ":3202,"shanĠxiĠ":3203,"Ġ0":3204,"guoĠyiĠ":3205,"ĠzhenĠ":3206,"ĠyaĠ":3207,"ĠsuoĠyiĠ":3208,"ĠjiĠzhiĠ":3209,"zhongĠyuĠ":3210,"fenĠbuĠ":3211,"nvĠxingĠ":3212,"ĠheĠzuoĠ":3213,"douĠshiĠ":3214,"junĠdeĠ":3215,"ĠĠĠqiĠ":3216,"guoĠyuĠ":3217,"dongĠdeĠ":3218,"daiĠdeĠ":3219,"lianĠmengĠ":3220,"zhengĠdeĠ":3221,"fangĠfaĠ":3222,"ĠzhiĠzhiĠ":3223,"2020ĠnianĠ":3224,"ĠyiĠsiĠ":3225,"wuĠliĠ":3226,"xiangĠmuĠ":3227,"jiaoĠshouĠ":3228,"fangĠdeĠ":3229,"meiĠpingĠfangĠ":3230,"zhengĠzhiĠrenĠwuĠ":3231,"caiĠyongĠ":3232,"diĠweiĠ":3233,"ĠtuĠ":3234,"Ġcong":3235,"liangĠdeĠ":3236,"ĠzaiĠdiĠ":3237,"ĠxuanĠ":3238,"ĠĠĠrenĠkouĠ":3239,"chuanĠtongĠ":3240,"yuanĠyuĠ":3241,"zhanĠdeĠ":3242,"zhuĠdeĠ":3243,"ĠĠĠyouĠ":3244,"huaĠminĠguoĠ":3245,"xiĠtongĠ":3246,"chengĠrenĠ":3247,"ĠzeĠ":3248,"ĠriĠzaiĠ":3249,"ĠguiĠ":3250,"jiaĠruĠ":3251,"faĠdeĠ":3252,"2001ĠnianĠ":3253,"geĠshiĠ":3254,"ĠnianĠyiĠ":3255,"xinĠwenĠ":3256,"ĠranĠ":3257,"yanĠyuanĠ":3258,"haoĠdeĠ":3259,"ĠliĠsiĠ":3260,"ĠĠĠjiĠ":3261,"ĠjiĠjiĠ":3262,"fuĠshiĠ":3263,"Ġbei":3264,"ĠyiĠhuiĠ":3265,"xiangĠguanĠ":3266,"yingĠyuĠ":3267,"daoĠshiĠ":3268,"bianĠmaĠweiĠ":3269,"taiĠwan":3270,"heĠshiĠ":3271,"ĠjiĠluĠ":3272,"boĠwuĠ":3273,"xueĠdeĠ":3274,"houĠzaiĠ":3275,"ĠweiĠfuĠ":3276,"ĠtaĠmen":3277,"lianĠjieĠ":3278,"ĠdeĠyiĠgeĠshiĠzhenĠ":3279,"baoĠkuo":3280,"ĠyiĠyiĠ":3281,"10Ġ":3282,"ĠxueĠmingĠ":3283,"xiĠjiĠ":3284,"zuiĠjiaĠ":3285,"mingĠchengĠ":3286,"ĠxiĠyaĠ":3287,"tiĠchuĠ":3288,"muĠsiĠ":3289,"ĠxieĠ":3290,"lingĠshiĠ":3291,"ĠzheĠshiĠ":3292,"erĠnianĠ":3293,"xiaoĠdeĠ":3294,"haiĠyouĠ":3295,"mianĠdeĠ":3296,"ĠweiĠzhuĠ":3297,"ĠrenĠkouĠmiĠduĠ":3298,"Ġzong":3299,"ĠliĠyiĠ":3300,"geĠdeĠ":3301,"ĠzhiĠjieĠ":3302,"ĠlaĠ":3303,"zuiĠgaoĠ":3304,"dongĠjiĠ":3305,"ĠzhouĠ":3306,"ĠĠĠjiaĠ":3307,"ĠyeĠshiĠ":3308,"ĠshiĠyiĠzhongĠ":3309,"yanĠdeĠ":3310,"xiaĠjiĠ":3311,"ĠyuĠshiĠ":3312,"geĠmingĠ":3313,"Ġci":3314,"yeĠyuĠ":3315,"ĠgongĠsiĠ":3316,"ĠfangĠ":3317,"ĠnianĠzaiĠ":3318,"yaoĠdeĠ":3319,"ĠqiuĠ":3320,"gaiĠweiĠ":3321,"ĠyiĠxieĠ":3322,"zaiĠdeĠ":3323,"shuĠshiĠ":3324,"haiĠjunĠ":3325,"ĠjunĠ":3326,"ĠkaĠ":3327,"jiaĠzhiĠ":3328,"ĠS":3329,"shengĠwuĠ":3330,"zheĠzhongĠ":3331,"changĠshiĠ":3332,"Ġliang":3333,"huiĠshiĠ":3334,"yanĠzhongĠ":3335,"gaiĠguoĠ":3336,"naĠdaĠ":3337,"zhuĠshiĠ":3338,"qingĠkuang":3339,"zhengĠyiĠ":3340,"zhaiĠ":3341,"bianĠdeĠ":3342,"keĠjiĠ":3343,"ĠzuoĠweiĠ":3344,"huiĠfuĠ":3345,"ĠzhiĠqianĠ":3346,"meiĠtiĠ":3347,"zaiĠyuĠ":3348,"luanĠ":3349,"xinĠxiĠ":3350,"ĠyiĠzhongĠ":3351,"gaoĠdeĠ":3352,"wenĠwuĠ":3353,"jieĠguoĠ":3354,"jianĠshiĠ":3355,"qiĠzhiĠ":3356,"ĠjiĠzaiĠ":3357,"Ġ18":3358,"minĠzuĠ":3359,"shuiĠyuĠ":3360,"qianĠdeĠ":3361,"heĠdeĠ":3362,"yanĠchangĠ":3363,"ĠniĠ":3364,"chouĠ":3365,"zhuĠjianĠ":3366,"fanĠduiĠ":3367,"Ġ2Ġ":3368,"nengĠliĠ":3369,"ĠweiĠyouĠ":3370,"ĠkeĠsiĠ":3371,"ĠĠĠS":3372,"ĠĠĠxingĠzhengĠ":3373,"ĠkeĠyiĠ":3374,"geĠliĠ":3375,"gongĠkaiĠ":3376,"huaĠshiĠ":3377,"ĠbuĠtongĠ":3378,"xingĠzhiĠ":3379,"Ġmi":3380,"siĠyuĠ":3381,"leiĠdeĠ":3382,"ĠzhuĠyaoĠ":3383,"ĠchongĠ":3384,"beiĠshiĠ":3385,"huanĠjingĠ":3386,"jieĠgouĠ":3387,"jiangĠjunĠ":3388,"zhangĠdeĠ":3389,"pengĠ":3390,"ĠxiangĠgangĠ":3391,"chuangĠzuoĠ":3392,"xianĠyuĠ":3393,"shangĠyeĠ":3394,"ĠĠĠbenĠ":3395,"zanĠ":3396,"ĠĠĠformulaĠ":3397,"Ġ14":3398,"gaoĠsuĠ":3399,"ĠzheĠgeĠ":3400,"saiĠjiĠ":3401,"moĠshiĠ":3402,"aĠerĠ":3403,"ĠdiĠyiĠ":3404,"zheĠdeĠ":3405,"biaoĠxianĠ":3406,"ĠzhongĠhuaĠrenĠminĠgongĠheĠguoĠ":3407,"tongĠjiĠ":3408,"ĠhongĠ":3409,"Ġling":3410,"junĠduiĠ":3411,"ofĠĠĠ":3412,"ĠliĠweiĠ":3413,"daĠluĠ":3414,"ĠchenĠ":3415,"zhuĠliĠ":3416,"shengĠyaĠ":3417,"geĠyueĠ":3418,"ĠyunĠ":3419,"shengĠliĠ":3420,"theĠĠĠ":3421,"quanĠliĠ":3422,"wuĠfaĠ":3423,"ĠtangĠ":3424,"dongĠbuĠ":3425,"zhouĠshiĠ":3426,"zongĠjiaoĠ":3427,"geĠlanĠ":3428,"ĠnianĠshiĠ":3429,"diaoĠchaĠ":3430,"siĠnianĠ":3431,"touĠguoĠ":3432,"ĠyiĠbanĠ":3433,"buĠfen":3434,"biaoĠzhunĠ":3435,"ĠĠĠgenĠjuĠ":3436,"hangĠkongĠ":3437,"biĠyeĠ":3438,"huiĠzaiĠ":3439,"ĠĠĠciĠ":3440,"ĠyiĠciĠ":3441,"ĠdangĠdiĠ":3442,"shenĠfenĠ":3443,"ĠyaoĠ":3444,"diĠzhiĠ":3445,"gongĠluĠ":3446,"faĠyuanĠ":3447,"Ġ1":3448,"ĠneiĠ":3449,"ĠdeĠyiĠbuĠfenĠ":3450,"buĠyiĠ":3451,"diĠyuĠ":3452,"jiaĠliĠ":3453,"gongĠzuo":3454,"jinĠjiĠ":3455,"chengĠzhongĠ":3456,"bingĠbuĠ":3457,"saiĠdeĠ":3458,"ĠtaiĠwanĠ":3459,"Ġ9":3460,"quanĠbuĠ":3461,"baĠgaoĠduĠ":3462,"ĠbingĠqie":3463,"ĠjiĠtuanĠ":3464,"Ġming":3465,"xieĠhuiĠ":3466,"jiaoĠshiĠ":3467,"feiĠchangĠ":3468,"dongĠhuaĠ":3469,"anĠquanĠ":3470,"ĠzhiĠxingĠ":3471,"biĠdeĠ":3472,"ĠhuangĠ":3473,"chaĠdeĠ":3474,"ĠlinĠ":3475,"shengĠchanĠ":3476,"ziĠliaoĠ":3477,"fuĠheĠ":3478,"jingĠdeĠ":3479,"tuanĠtiĠ":3480,"luoĠmaĠ":3481,"jieĠzhiĠ":3482,"ĠB":3483,"beiĠrenĠ":3484,"fenĠbie":3485,"chaoĠxianĠ":3486,"gaiĠdiĠ":3487,"ĠzhuanĠ":3488,"Ġ2":3489,"dingĠyiĠ":3490,"xingĠdongĠ":3491,"xiaĠyiĠ":3492,"jinĠbiaoĠ":3493,"pingĠjunĠ":3494,"Ġliu":3495,"ĠĠĠA":3496,"ĠjinĠxingĠ":3497,"wenĠxueĠ":3498,"duĠshiĠ":3499,"ĠruĠguoĠ":3500,"renĠkouĠpuĠ":3501,"laĠsiĠ":3502,"qingĠkuangĠ":3503,"jiaĠjiĠ":3504,"gongĠgongĠ":3505,"jieĠfangĠ":3506,"ĠzhiĠyuanĠ":3507,"ĠzuĠ":3508,"juĠminĠ":3509,"ĠzhiĠhuiĠ":3510,"ĠqiĠhouĠ":3511,"Ġgu":3512,"dongĠbeiĠ":3513,"shouĠdeĠ":3514,"ĠbaoĠkuo":3515,"shangĠshiĠ":3516,"ĠjiĠdiĠ":3517,"Ġ3":3518,"sheĠzhiĠ":3519,"ĠĠĠofĠĠĠ":3520,"Ġwo":3521,"yanĠchuĠ":3522,"qiuĠyuanĠ":3523,"yuanĠyiĠ":3524,"ĠyuĠjiĠ":3525,"saiĠzhongĠ":3526,"keĠxueĠ":3527,"yanĠshiĠ":3528,"Ġfen":3529,"Ġda":3530,"ĠchuanĠ":3531,"gongĠtongĠ":3532,"lingĠdaoĠ":3533,"Ġ5":3534,"renĠyiĠ":3535,"Ġ4":3536,"zuoĠpin":3537,"zuoĠyouĠ":3538,"Ġnan":3539,"erĠjiĠ":3540,"ĠdeĠzhuĠ":3541,"faĠbiaoĠ":3542,"zaiĠshiĠ":3543,"28ĠriĠ":3544,"aoĠyunĠ":3545,"kongĠjianĠ":3546,"xingĠjiĠ":3547,"gaiĠbianĠ":3548,"yeĠyouĠ":3549,"sanĠgeĠ":3550,"wuĠzhiĠ":3551,"dengĠdiĠ":3552,"ĠlingĠwaiĠ":3553,"jiaĠshiĠ":3554,"ĠzhaoĠ":3555,"ĠdiĠguoĠ":3556,"youĠxiĠ":3557,"deĠĠĠ":3558,"Ġjiu":3559,"yuanĠheĠ":3560,"fangĠzhiĠ":3561,"dengĠrenĠ":3562,"ĠerĠshiĠ":3563,"xueĠshiĠ":3564,"guanĠzhongĠ":3565,"lanĠdeĠ":3566,"ĠcheĠ":3567,"luĠxianĠ":3568,"ĠdanĠrenĠ":3569,"xueĠweiĠ":3570,"dĠĠĠ":3571,"shuĠweiĠ":3572,"zeĠshiĠ":3573,"juĠdeĠ":3574,"baoĠdaoĠ":3575,"ĠhuoĠdeĠ":3576,"ĠliĠzhiĠ":3577,"qiĠweiĠ":3578,"zhuiĠ":3579,"heĠjiĠ":3580,"lveĠ":3581,"chuĠrenĠ":3582,"buĠtongĠ":3583,"qingĠnianĠ":3584,"2008ĠnianĠ":3585,"guoĠliĠ":3586,"zuoĠyongĠ":3587,"bangĠzhuĠ":3588,"aoĠlinĠ":3589,"piĠkeĠ":3590,"2016ĠnianĠ":3591,"gongĠdeĠ":3592,"zaoĠdaoĠ":3593,"ĠkeĠnengĠ":3594,"aiĠerĠ":3595,"ĠyuĠqiĠ":3596,"ĠriĠzhiĠ":3597,"ĠfuĠzeĠ":3598,"ĠĠĠzhongĠ":3599,"zuĠdeĠ":3600,"danĠquĠ":3601,"ĠyuĠyanĠ":3602,"jiangĠqiĠ":3603,"juĠjiĠ":3604,"luĠdiĠ":3605,"ĠdaĠdaoĠ":3606,"guiĠdaoĠ":3607,"ĠyouĠguanĠ":3608,"15ĠriĠ":3609,"tongĠchangĠ":3610,"shouĠjiĠ":3611,"ĠyiĠyouĠ":3612,"taĠmen":3613,"banĠbenĠ":3614,"feiĠjiĠ":3615,"ĠyiĠyuĠ":3616,"tuĠdiĠ":3617,"xianĠdaiĠ":3618,"yuanĠnianĠ":3619,"2009ĠnianĠ":3620,"Ġ12":3621,"shengĠdeĠyiĠgeĠshiĠzhenĠ":3622,"maĠliĠ":3623,"ĠzhiĠjianĠdeĠ":3624,"yaĠzhouĠ":3625,"xiĠbanĠ":3626,"ĠmuĠqianĠ":3627,"bianĠhuaĠ":3628,"ĠshuiĠ":3629,"ĠĠĠjuĠ":3630,"jingĠneiĠ":3631,"jieĠheĠ":3632,"paĠ":3633,"tĠ":3634,"ĠshiĠxingĠ":3635,"gongĠyeĠ":3636,"huiĠheĠ":3637,"jueĠsaiĠ":3638,"wuĠnianĠ":3639,"taiĠpingĠ":3640,"jiaĠyiĠ":3641,"houĠyuĠ":3642,"ĠbingĠqieĠ":3643,"2011ĠnianĠ":3644,"ĠpaiĠ":3645,"ĠsiĠkeĠ":3646,"2012ĠnianĠ":3647,"zaoĠqiĠ":3648,"neiĠrongĠ":3649,"zhengĠceĠ":3650,"ĠweiĠzhongĠ":3651,"guangĠboĠ":3652,"Ġ8":3653,"zhanĠyiĠ":3654,"ĠdingĠ":3655,"xianĠrenĠ":3656,"taĠzaiĠ":3657,"meiĠyuanĠ":3658,"Ġmo":3659,"jiaoĠyiĠ":3660,"piĠpingĠ":3661,"xingĠchengĠ":3662,"ĠhaiĠbaĠgaoĠduĠ":3663,"25ĠriĠ":3664,"jiaoĠhuiĠ":3665,"miaoĠshuĠ":3666,"mĠ":3667,"ĠbuĠduiĠ":3668,"Ġha":3669,"ĠzhiĠyeĠ":3670,"ĠerĠsiĠ":3671,"wanĠquanĠ":3672,"ĠdanĠzaiĠ":3673,"xuanĠzeĠ":3674,"yuanĠyinĠ":3675,"ĠsiĠteĠ":3676,"ĠtaĠyuĠ":3677,"UTCĠ":3678,"Ġsi":3679,"boĠliĠ":3680,"zaoĠdeĠ":3681,"ĠE":3682,"ĠheĠwuĠ":3683,"jianĠsheĠ":3684,"ĠyueĠdeĠ":3685,"xieĠyiĠ":3686,"chuĠshiĠ":3687,"xiaoĠshuoĠ":3688,"wuĠkeĠlanĠ":3689,"changĠqiĠ":3690,"yunĠdongĠhuiĠ":3691,"ĠD":3692,"beiĠchengĠweiĠ":3693,"lianĠbangĠ":3694,"ĠdiĠsanĠ":3695,"ĠweiĠdiĠ":3696,"ĠrenĠweiĠ":3697,"ĠjianĠchengĠ":3698,"30ĠriĠ":3699,"ĠdangĠzhongĠ":3700,"10ĠriĠ":3701,"ĠshiĠyanĠ":3702,"ĠdeĠdaoĠ":3703,"chiĠxuĠ":3704,"zuiĠdaĠ":3705,"wenĠhua":3706,"ĠeĠ":3707,"Ġqie":3708,"20ĠriĠ":3709,"mingĠmingĠ":3710,"ĠxunĠ":3711,"zuĠheĠ":3712,"yuanĠzhuĠ":3713,"duoĠshuĠ":3714,"dianĠziĠ":3715,"seĠdeĠ":3716,"zhuanĠyeĠ":3717,"ĠyiĠmingĠ":3718,"ĠtaĠshiĠ":3719,"xingĠyuĠ":3720,"2014ĠnianĠ":3721,"houĠlaiĠ":3722,"linĠshiĠ":3723,"gongĠsi":3724,"ĠT":3725,"ĠmianĠ":3726,"shengĠheĠ":3727,"ĠyouĠchengĠ":3728,"erĠweiĠ":3729,"wuĠyuanĠ":3730,"buĠliĠ":3731,"jieĠdaoĠ":3732,"ĠmengĠ":3733,"fuĠzhiĠ":3734,"baĠliĠ":3735,"ziĠgeĠ":3736,"Ġ7":3737,"chuĠqiĠ":3738,"2018ĠnianĠ":3739,"buĠjiĠ":3740,"2019ĠnianĠ":3741,"Ġ6":3742,"erĠziĠ":3743,"Ġ5Ġ":3744,"tĠĠĠ":3745,"dongĠnanĠ":3746,"gaoĠzhongĠ":3747,"faĠlvĠ":3748,"taĠmenĠdeĠ":3749,"ĠjiĠgouĠ":3750,"zaĠzhiĠ":3751,"ĠjiĠjinĠ":3752,"ĠdiĠsiĠ":3753,"ĠshiĠweiĠyuĠmeiĠguoĠ":3754,"daĠdaoĠ":3755,"ĠjinĠguanĠ":3756,"yeĠdeĠ":3757,"2013ĠnianĠ":3758,"ĠweiĠyuĠgaiĠguoĠ":3759,"ĠguoĠminĠ":3760,"faĠzhan":3761,"aĠlaĠ":3762,"kuiĠ":3763,"ĠyueĠzhiĠ":3764,"ĠliĠkeĠ":3765,"tuĠerĠ":3766,"shengĠweiĠ":3767,"ĠshiĠjieĠdaĠ":3768,"Ġsan":3769,"baoĠgaoĠ":3770,"zhongĠjiĠ":3771,"24ĠriĠ":3772,"daoĠyiĠ":3773,"2015ĠnianĠ":3774,"ĠliĠyongĠ":3775,"ĠliĠkaiĠ":3776,"fangĠxiangĠ":3777,"ĠsuiĠhouĠ":3778,"neiĠbuĠ":3779,"ĠyuĠzhongĠ":3780,"guoĠminĠ":3781,"guangĠdongĠ":3782,"guiĠdingĠ":3783,"wangĠdeĠ":3784,"9Ġ":3785,"boĠwuĠguanĠ":3786,"Ġke":3787,"ĠgengĠ":3788,"luoĠdeĠ":3789,"26ĠriĠ":3790,"ĠãĤ":3791,"canĠsaiĠ":3792,"ĠM":3793,"ĠyueĠshiĠ":3794,"ĠyingĠguoĠ":3795,"ĠzheĠzhongĠ":3796,"2007ĠnianĠ":3797,"muĠbiaoĠ":3798,"ĠweiĠsiĠ":3799,"sheĠquĠ":3800,"ĠyuĠzhiĠ":3801,"guanĠzhiĠ":3802,"ĠtongĠnianĠ":3803,"dianĠliĠ":3804,"2005ĠnianĠ":3805,"Ġãģ":3806,"gongĠchanĠdangĠ":3807,"dieĠ":3808,"18ĠriĠ":3809,"ĠyouĠqiĠ":3810,"ĠxiĠlieĠ":3811,"xianĠyiĠ":3812,"ĠwaiĠ":3813,"teĠbie":3814,"ĠfenĠbuĠyuĠ":3815,"aoĠlinĠpiĠkeĠ":3816,"lianĠxiĠ":3817,"bingĠweiĠ":3818,"gongĠbuĠ":3819,"ĠjiĠchangĠ":3820,"fuĠliĠ":3821,"juĠbanĠ":3822,"ĠshaĠ":3823,"muĠdeĠ":3824,"ĠchuĠleĠ":3825,"Ġ2001ĠnianĠ":3826,"ĠganĠ":3827,"lieĠdeĠ":3828,"ĠshiĠheĠ":3829,"changĠweiĠ":3830,"wuĠxianĠ":3831,"ĠerĠshengĠ":3832,"ĠP":3833,"biĠliĠ":3834,"quanĠqiuĠ":3835,"shenĠdeĠ":3836,"touĠziĠ":3837,"ĠshiĠziĠ":3838,"2017ĠnianĠ":3839,"muĠdiĠ":3840,"16ĠriĠ":3841,"ĠjiĠheĠ":3842,"yinĠhangĠ":3843,"dingĠweiĠ":3844,"Ġque":3845,"Ġduo":3846,"dongĠjingĠ":3847,"shangĠshuĠ":3848,"fuĠyiĠ":3849,"daoĠyuĠ":3850,"dangĠdeĠ":3851,"guanĠfangĠ":3852,"Ġ13":3853,"guoĠzhiĠ":3854,"17ĠriĠ":3855,"paiĠsheĠ":3856,"ziĠyuĠ":3857,"huaĠxueĠ":3858,"shouĠyuĠ":3859,"kaiĠfangĠ":3860,"ĠminĠ":3861,"ĠyouĠxianĠgongĠsiĠ":3862,"ĠĠĠzhengĠzhiĠ":3863,"21ĠriĠ":3864,"buĠzhiĠ":3865,"ĠdeĠshiĠzhenĠ":3866,"gaiĠnianĠ":3867,"27ĠriĠ":3868,"baoĠfaĠ":3869,"ĠzhongĠxueĠ":3870,"zheĠshiĠ":3871,"kaĠerĠ":3872,"19ĠriĠ":3873,"2006ĠnianĠ":3874,"8ĠriĠ":3875,"junĠweiĠ":3876,"11ĠriĠ":3877,"ĠliĠfaĠ":3878,"mingĠziĠ":3879,"yingĠyongĠ":3880,"12ĠriĠ":3881,"23ĠriĠ":3882,"shangĠyouĠ":3883,"ceĠshiĠ":3884,"ĠsongĠ":3885,"ĠhaoĠmiĠ":3886,"ĠfuĠwuĠ":3887,"ĠyinĠci":3888,"suĠlianĠ":3889,"meiĠguoĠrenĠkouĠpuĠ":3890,"xianĠweiĠ":3891,"ĠdeĠweiĠ":3892,"feiĠxingĠ":3893,"ĠzhiĠjiĠ":3894,"shuĠliangĠweiĠ":3895,"7ĠriĠ":3896,"qiĠjianĠ":3897,"juĠleĠbuĠ":3898,"fuĠyuĠ":3899,"yinĠshiĠ":3900,"xueĠzheĠ":3901,"huangĠdiĠ":3902,"huiĠyuĠ":3903,"qiĠjiĠ":3904,"2021ĠnianĠ":3905,"banĠshiĠ":3906,"xiĠlieĠ":3907,"boĠchuĠ":3908,"ĠdeĠzhongĠ":3909,"ĠqieĠ":3910,"22ĠriĠ":3911,"guiĠmoĠ":3912,"ĠshiĠfaĠguoĠ":3913,"ĠsaiĠ":3914,"biĠxuĠ":3915,"lingĠyuĠ":3916,"9ĠriĠ":3917,"Ġ3Ġ":3918,"shanĠdongĠ":3919,"gongĠnengĠ":3920,"Ġãĥ":3921,"29ĠriĠ":3922,"chuĠyiĠ":3923,"ĠG":3924,"yinĠqiĠ":3925,"Ġ6Ġ":3926,"guanĠyuanĠ":3927,"yingĠshiĠ":3928,"teĠdeĠ":3929,"zuiĠdaĠdeĠ":3930,"zhengĠzaiĠ":3931,"ĠyueĠhanĠ":3932,"xunĠlianĠ":3933,"kunĠ":3934,"ĠjiĠbaiĠ":3935,"jingĠyingĠ":3936,"fengĠgeĠ":3937,"ĠF":3938,"2022ĠnianĠ":3939,"fuĠjinĠ":3940,"tingĠzhiĠ":3941,"nengĠgouĠ":3942,"suoĠshuĠdeĠ":3943,"pingĠjiaĠ":3944,"shengĠmingĠ":3945,"3ĠriĠ":3946,"14ĠriĠ":3947,"geĠdiĠ":3948,"zhuĠzaiĠ":3949,"qingĠkuangĠxiaĠ":3950,"yuanĠjiĠ":3951,"shouĠshiĠ":3952,"tiaoĠjianĠ":3953,"jiaoĠdeĠ":3954,"21Ġ":3955,"5ĠriĠ":3956,"shengĠzaiĠ":3957,"quĠhuaĠ":3958,"ĠĠĠC":3959,"shengĠchan":3960,"taiĠdeĠ":3961,"xiĠshiĠ":3962,"shangĠweiĠ":3963,"ĠpiĠ":3964,"sheĠdeĠ":3965,"maiĠkeĠ":3966,"ĠĠĠyouĠyuĠ":3967,"yaĠyuĠ":3968,"ĠdaoĠzhiĠ":3969,"jinĠzhiĠ":3970,"31ĠriĠ":3971,"ĠbuĠjiuĠ":3972,"jieĠchuĠ":3973,"ĠkaiĠshiĠ":3974,"ĠlvĠ":3975,"yuanĠzhiĠ":3976,"ĠdaĠhuiĠ":3977,"lianĠmeng":3978,"xiaoĠxingĠxingĠ":3979,"4ĠriĠ":3980,"chaoĠjiĠ":3981,"2ĠriĠ":3982,"xiongĠdiĠ":3983,"daĠjiĠ":3984,"ĠrenĠzhongĠ":3985,"ĠzuiĠhouĠ":3986,"dianĠdeĠ":3987,"6ĠriĠ":3988,"AĠ":3989,"haiĠyuĠ":3990,"zangĠ":3991,"ĠĠĠtheĠĠĠ":3992,"boĠteĠ":3993,"ĠgongĠchiĠ":3994,"liuĠxingĠ":3995,"geĠjiĠ":3996,"13ĠriĠ":3997,"nanĠxingĠ":3998,"ĠsuiĠranĠ":3999,"wenĠwuĠbaoĠhuĠ":4000,"ĠnianĠdai":4001,"teĠzhengĠ":4002,"renĠheĠ":4003,"wuĠjiĠ":4004,"ĠmanĠ":4005,"geĠweiĠ":4006,"ĠqiangĠ":4007,"renĠjiĠ":4008,"lvĠyouĠ":4009,"zuoĠjiaĠ":4010,"keĠdaĠ":4011,"siĠrenĠ":4012,"ĠtongĠguoĠ":4013,"geĠshouĠ":4014,"Ġxin":4015,"ĠjueĠ":4016,"ĠshenĠzhiĠ":4017,"yinĠciĠ":4018,"huangĠjiaĠ":4019,"fenĠxiĠ":4020,"ouĠzhou":4021,"brĠ":4022,"jianĠweiĠ":4023,"shengĠfenĠ":4024,"ĠlingĠyiĠ":4025,"zongĠheĠ":4026,"xuĠduo":4027,"dĠ":4028,"lieĠche":4029,"rĠ":4030,"juĠrenĠ":4031,"niuĠyueĠ":4032,"ĠbrĠ":4033,"ĠĠĠjinĠ":4034,"banĠdaoĠ":4035,"ciĠshiĠjieĠdaĠ":4036,"zhuĠtiĠ":4037,"zhongĠweiĠ":4038,"Ġ10":4039,"chengĠyiĠ":4040,"zaiĠweiĠ":4041,"zhuangĠtaiĠ":4042,"ĠsuiĠran":4043,"ĠyouĠmingĠ":4044,"qiĠnianĠ":4045,"ĠtaĠcengĠ":4046,"benĠdeĠ":4047,"bianĠweiĠ":4048,"ĠdouĠ":4049,"pinĠdaoĠ":4050,"ĠzaiĠqiĠ":4051,"youĠyiĠgeĠ":4052,"juĠzhongĠ":4053,"fenĠziĠ":4054,"heĠliĠ":4055,"maoĠyiĠ":4056,"20ĠshiĠjiĠ":4057,"ĠzhiĠzhongĠ":4058,"TheĠĠĠ":4059,"buĠzhangĠ":4060,"renĠkouĠshuĠliangĠweiĠ":4061,"ĠchiĠ":4062,"wangĠluoĠ":4063,"huiĠyouĠ":4064,"Ġgeng":4065,"qianĠyiĠ":4066,"ĠĠĠziĠ":4067,"aoĠsiĠ":4068,"2004ĠnianĠ":4069,"shuoĠshiĠ":4070,"jieĠduanĠ":4071,"xuanĠshouĠ":4072,"gaoĠjiĠ":4073,"zhunĠbeiĠ":4074,"faĠshiĠ":4075,"ĠheĠnanĠ":4076,"ciĠdeĠ":4077,"fangĠanĠ":4078,"fangĠyuĠ":4079,"miĠerĠ":4080,"waiĠdeĠ":4081,"daĠxingĠ":4082,"duoĠciĠ":4083,"Ġzhou":4084,"Ġchen":4085,"bingĠliĠ":4086,"gongĠzhongĠ":4087,"ĠĠĠliĠ":4088,"beiĠdeĠ":4089,"huiĠdaoĠ":4090,"Ġ4Ġ":4091,"moĠdeĠ":4092,"ĠyiĠlaiĠ":4093,"ĠriĠqiĠ":4094,"chengĠduĠ":4095,"fenĠzhiĠ":4096,"ĠlanĠ":4097,"ciĠzhiĠ":4098,"ĠgangĠ":4099,"buĠweiĠ":4100,"2000ĠnianĠ":4101,"shuĠguanĠ":4102,"liuĠnianĠ":4103,"11Ġ":4104,"ĠzhongĠbuĠ":4105,"wuĠqiĠ":4106,"jieĠjiĠ":4107,"leĠyiĠgeĠ":4108,"yuanĠweiĠ":4109,"baoĠhanĠ":4110,"junĠzaiĠ":4111,"ĠdiĠfangĠ":4112,"dianĠshiĠtaiĠ":4113,"Ġfan":4114,"youĠzhiĠ":4115,"ziĠshiĠ":4116,"ĠdeĠyiĠzhongĠ":4117,"xingĠheĠ":4118,"ĠrenĠkou":4119,"ĠrenĠkouĠmiĠduĠweiĠ":4120,"juĠshiĠ":4121,"dengĠjiĠ":4122,"ĠyiĠshiĠ":4123,"luĠjunĠ":4124,"xuanĠweiĠ":4125,"xiangĠtongĠ":4126,"ĠchaoĠ":4127,"zheĠjiangĠ":4128,"Ġze":4129,"ĠxianĠshiĠ":4130,"zuiĠhouĠ":4131,"biaoĠyanĠ":4132,"qiuĠjiĠ":4133,"ĠtouĠ":4134,"siĠwangĠ":4135,"gaiĠgeĠ":4136,"ĠzhuĠyao":4137,"ĠweiĠyuĠfaĠguoĠ":4138,"sheĠbeiĠ":4139,"nongĠyeĠ":4140,"daĠliangĠ":4141,"duoĠgeĠ":4142,"meiĠzhouĠ":4143,"ĠzhiĠjinĠ":4144,"dianĠshiĠjuĠ":4145,"houĠyouĠ":4146,"ĠshiĠdaiĠ":4147,"Ġzu":4148,"Ġzhao":4149,"ĠxiĠbanĠ":4150,"ĠK":4151,"guĠjiĠ":4152,"shangĠyiĠ":4153,"aiĠdeĠ":4154,"yangĠshiĠ":4155,"zhuĠyuĠ":4156,"guangĠchangĠ":4157,"Ġxiang":4158,"liuĠshiĠ":4159,"zaiĠjiĠ":4160,"zhanĠdouĠ":4161,"faĠyuĠ":4162,"Ġfei":4163,"wenĠwuĠbaoĠhuĠdanĠweiĠ":4164,"ĠĠĠdaĠ":4165,"zhanĠkaiĠ":4166,"ĠmeiĠyouĠ":4167,"ĠzhiĠliĠ":4168,"jiaĠheĠ":4169,"lĠ":4170,"tiaoĠyueĠ":4171,"ĠjiaĠruĠ":4172,"fuĠjianĠ":4173,"xieĠzhuĠ":4174,"ĠyiĠbeiĠ":4175,"ĠbuĠzaiĠ":4176,"chanĠpinĠ":4177,"muĠqianĠ":4178,"hangĠkong":4179,"bianĠchengĠ":4180,"jiangĠyuĠ":4181,"youĠzhengĠ":4182,"ĠfenĠbie":4183,"huoĠdeĠleĠ":4184,"renĠyuĠ":4185,"miĠdeĠ":4186,"fenĠleiĠ":4187,"daoĠluĠ":4188,"gongĠyouĠrenĠkouĠ":4189,"yingĠjiĠ":4190,"duanĠdeĠ":4191,"ĠzhiĠzaiĠ":4192,"qunĠdaoĠ":4193,"qingĠdeĠ":4194,"biaoĠzhun":4195,"zhenĠquĠ":4196,"ĠbeiĠqiĠ":4197,"ĠzheĠyiĠ":4198,"haiĠbaĠ":4199,"ĠĠĠjianĠ":4200,"naoĠ":4201,"biĠjiaoĠ":4202,"naiĠ":4203,"ĠqiĠyeĠ":4204,"guiĠhuaĠ":4205,"zhanĠzheng":4206,"cuoĠ":4207,"ĠĠĠB":4208,"ĠliĠziĠ":4209,"ĠkeĠneng":4210,"20Ġ":4211,"ĠxiĠwangĠ":4212,"ĠxingĠzhengĠ":4213,"suĠduĠ":4214,"juĠyuĠ":4215,"nvĠerĠ":4216,"xiĠbuĠ":4217,"ĠzhongĠhuaĠminĠguoĠ":4218,"shouĠduĠ":4219,"xiĠweiĠ":4220,"nuĠ":4221,"ĠL":4222,"ĠbuĠhuiĠ":4223,"ĠfaĠguoĠ":4224,"ĠyiĠrenĠ":4225,"qiaoĠzhiĠ":4226,"ĠgongĠfenĠ":4227,"Ġzhang":4228,"ĠzaiĠzhongĠ":4229,"meiĠpingĠfangĠgongĠliĠ":4230,"rongĠyuĠ":4231,"dongĠxiĠ":4232,"jiuĠshiĠzhenĠ":4233,"dongĠliĠ":4234,"ĠyiĠyangĠ":4235,"manĠhuaĠ":4236,"ĠdeĠshiĠjianĠ":4237,"jinĠgongĠ":4238,"diĠyiĠgeĠ":4239,"douĠyouĠ":4240,"siĠheĠ":4241,"ĠR":4242,"ĠĠĠxiĠ":4243,"ĠchengĠquĠ":4244,"siĠweiĠ":4245,"UĠ":4246,"henĠduoĠ":4247,"ĠI":4248,"maĠlai":4249,"laĠdeĠ":4250,"Ġ00":4251,"ĠnvĠ":4252,"kenĠ":4253,"ĠĠĠT":4254,"ruĠxiaĠ":4255,"taiĠbeiĠ":4256,"zeĠrenĠ":4257,"fuĠrenĠ":4258,"laĠkeĠ":4259,"ĠO":4260,"quĠdaiĠ":4261,"ĠciĠhouĠ":4262,"xianĠdeĠyiĠgeĠ":4263,"jinĠbiaoĠsaiĠ":4264,"ĠyiĠxiaĠ":4265,"shangĠwuĠ":4266,"yuĠshiĠdeĠ":4267,"Ġ30":4268,"ĠyuĠweiĠ":4269,"ĠkongĠ":4270,"jianĠyouĠ":4271,"ĠerĠbeiĠ":4272,"zongĠliĠ":4273,"aĠĠĠ":4274,"Ġtian":4275,"wangĠguoĠ":4276,"xiangĠduiĠ":4277,"lianĠxuĠ":4278,"ĠĠĠfuĠ":4279,"quĠyiĠ":4280,"minĠzhongĠ":4281,"jieĠrang":4282,"rengĠran":4283,"xiaoĠxiĠ":4284,"miĠshuĠ":4285,"Ġhao":4286,"tieĠdaoĠ":4287,"zhengĠgeĠ":4288,"ĠĠĠzheĠ":4289,"zuiĠhouĠyiĠ":4290,"ciĠjiĠ":4291,"jueĠdeĠ":4292,"renĠkouĠshuĠliangĠweiĠrenĠ":4293,"Ġruo":4294,"ĠtiaoĠ":4295,"ĠzhongĠxin":4296,"ĠĠĠzhuĠ":4297,"quanĠdeĠ":4298,"zhanĠlingĠ":4299,"xinĠjiaĠ":4300,"ĠĠĠF":4301,"waiĠjiaoĠ":4302,"diĠsanĠ":4303,"jiaĠnaĠdaĠ":4304,"ĠliĠshuĠyuĠ":4305,"ĠrenĠzaiĠ":4306,"tianĠzhuĠjiaoĠ":4307,"ĠyingĠchiĠ":4308,"zhenĠshiĠ":4309,"ĠINSEE":4310,"yeĠwuĠ":4311,"chengĠzhenĠ":4312,"ciĠyuĠ":4313,"qiĠta":4314,"ĠheiĠ":4315,"Ġwu":4316,"ĠnianĠjiĠ":4317,"ĠranĠhouĠ":4318,"yuanĠyouĠ":4319,"ĠyouĠyiĠ":4320,"cengĠzaiĠ":4321,"daĠxue":4322,"niaoĠ":4323,"jianĠchaĠ":4324,"zhengĠquanĠ":4325,"shengĠchengĠ":4326,"shouĠgeĠ":4327,"nanĠjiĠ":4328,"zuoĠchuĠ":4329,"ĠdeĠshiĠhouĠ":4330,"ĠheĠbeiĠ":4331,"niĠsiĠ":4332,"juĠjueĠ":4333,"luĠshiĠ":4334,"jiaoĠweiĠ":4335,"ĠN":4336,"quĠxiaoĠ":4337,"tiĠjiĠ":4338,"Ġrang":4339,"ĠjieĠzhiĠ":4340,"ĠdeĠyuĠ":4341,"dianĠjiĠ":4342,"shengĠzhiĠ":4343,"cheĠliangĠ":4344,"ĠgaiĠshengĠ":4345,"wangĠzhanĠ":4346,"heĠweiĠ":4347,"daĠliĠyaĠ":4348,"zhongĠxinĠ":4349,"duiĠzaiĠ":4350,"nĠ":4351,"xianĠfaĠ":4352,"leĠjiĠ":4353,"Ġbai":4354,"heĠzhiĠ":4355,"diĠfangĠ":4356,"ĠduiĠyuĠ":4357,"ziĠxingĠ":4358,"zhenĠdeĠ":4359,"lanĠxiĠ":4360,"ĠqiĠta":4361,"ĠerĠzaiĠ":4362,"ĠzongĠmianĠjiĠ":4363,"ĠzhengĠshiĠ":4364,"yunĠyingĠ":4365,"ĠdeĠliĠ":4366,"jieĠjueĠ":4367,"tianĠwenĠ":4368,"2002ĠnianĠ":4369,"ĠriĠben":4370,"2003ĠnianĠ":4371,"moĠxiĠ":4372,"ĠshiĠchangĠ":4373,"gongĠyiĠ":4374,"shuĠzhiĠ":4375,"yeĠzaiĠ":4376,"ĠdiĠqiĠ":4377,"ĠjianĠzhuĠ":4378,"shouĠweiĠ":4379,"dianĠying":4380,"ĠrenĠkouĠmiĠduĠmeiĠpingĠfangĠgongĠliĠ":4381,"xiaoĠxueĠ":4382,"yingĠxiang":4383,"chaĠdeĠshuĠjuĠ":4384,"youĠzhengĠbianĠmaĠweiĠ":4385,"huiĠzhiĠ":4386,"ganĠdaoĠ":4387,"ĠxingĠchengĠ":4388,"puĠtaoĠ":4389,"ĠshiĠzhenĠbianĠmaĠweiĠ":4390,"ĠINSEEĠshiĠzhenĠbianĠmaĠweiĠ":4391,"qingĠshiĠ":4392,"teĠliĠ":4393,"ĠrenĠkouĠmiĠduĠweiĠmeiĠpingĠfangĠ":4394,"mengĠguĠ":4395,"ĠĠĠbuĠ":4396,"muĠshiĠ":4397,"ĠxiaĠlingĠshiĠ":4398,"diĠyiĠciĠ":4399,"xiĠliĠ":4400,"zhuoĠ":4401,"erĠzaiĠ":4402,"xuanĠquĠweiĠ":4403,"leiĠjiĠ":4404,"zuoĠzhanĠ":4405,"siĠzaiĠ":4406,"gaoĠyuĠ":4407,"niĠya":4408,"yuĠshiĠdeĠrenĠkouĠshuĠliangĠweiĠrenĠ":4409,"baoĠdeĠ":4410,"meiĠguoĠrenĠkouĠpuĠchaĠdeĠshuĠjuĠ":4411,"zuoĠyiĠ":4412,"luĠyiĠ":4413,"ĠerĠrenĠkouĠmiĠduĠweiĠmeiĠpingĠfangĠ":4414,"ĠdangĠdiĠgongĠyouĠrenĠkouĠ":4415,"ĠhuanĠ":4416,"xiĠyuĠ":4417,"ĠteĠbie":4418,"yunĠxingĠ":4419,"ĠhuoĠjiuĠshiĠzhenĠ":4420,"xinĠliĠ":4421,"jingĠchangĠ":4422,"shengĠjiĠxuanĠquĠweiĠ":4423,"jiangĠshiĠ":4424,"yuanĠziĠ":4425,"faĠdongĠ":4426,"kuaiĠsuĠ":4427,"ĠshuangĠ":4428,"Ġbo":4429,"ĠzhongĠyang":4430,"shaoĠnianĠ":4431,"shengĠrenĠ":4432,"bianĠjiĠ":4433,"chongĠjianĠ":4434,"fenĠweiĠfaĠguoĠ":4435,"ĠgaiĠshengĠfenĠweiĠfaĠguoĠ":4436,"faĠqiĠ":4437,"ĠĠĠnianĠ":4438,"gaoĠdengĠ":4439,"ĠbiaoĠshiĠ":4440,"mingĠyiĠ":4441,"congĠshiĠ":4442,"ĠĠĠG":4443,"shuoĠfaĠ":4444,"ĠnianĠchuĠ":4445,"yangĠhuaĠ":4446,"ĠyouĠrenĠ":4447,"ĠnianĠyuĠ":4448,"chengĠliĠyuĠ":4449,"jiaĠzhongĠ":4450,"jinĠyiĠbuĠ":4451,"naĠdeĠ":4452,"yĠ":4453,"lianĠheĠguoĠ":4454,"ĠerĠqie":4455,"yanĠjiuĠsuoĠ":4456,"zhengĠmingĠ":4457,"fangĠqiĠ":4458,"daĠquĠ":4459,"taiĠguoĠ":4460,"gongĠxianĠ":4461,"gouĠdeĠ":4462,"lunĠdun":4463,"ĠĠĠheĠ":4464,"fanĠhuiĠ":4465,"aoĠlinĠpiĠkeĠyunĠdongĠhuiĠ":4466,"jieĠrangĠdeĠshiĠzhenĠ":4467,"ĠguoĠjiĠ":4468,"ziĠweiĠ":4469,"gongĠrenĠ":4470,"suoĠshuĠdeĠshengĠjiĠxuanĠquĠweiĠ":4471,"siĠliĠ":4472,"yunĠshuĠ":4473,"xiangĠjiĠ":4474,"meĠ":4475,"huoĠshiĠ":4476,"ziĠran":4477,"yuanĠliĠ":4478,"2023ĠnianĠ":4479,"neĠ":4480,"tiĠxiĠ":4481,"jianĠchengĠ":4482,"biaoĠweiĠ":4483,"ĠH":4484,"naĠliĠ":4485,"zhuĠchiĠ":4486,"xingĠqiĠ":4487,"zhongĠhuaĠrenĠminĠgongĠheĠguoĠ":4488,"mingĠdanĠ":4489,"boĠlanĠ":4490,"Ġhuang":4491,"xiĠzaiĠ":4492,"ziĠyuanĠ":4493,"daoĠrenĠ":4494,"reĠdaiĠ":4495,"xiĠbanĠyaĠ":4496,"ceĠdeĠ":4497,"Ġhu":4498,"huaĠweiĠ":4499,"luoĠfuĠ":4500,"fuĠqinĠ":4501,"ĠxiĠbeiĠ":4502,"xiaĠwuĠ":4503,"zhanĠdou":4504,"BĠ":4505,"erĠheĠ":4506,"paiĠdeĠ":4507,"ĠnianĠyouĠ":4508,"faĠsheĠ":4509,"ĠdiĠquĠdeĠ":4510,"beiĠyiĠ":4511,"fenĠdeĠ":4512,"niĠkeĠ":4513,"cuiĠ":4514,"ĠhaĠ":4515,"wenĠmingĠ":4516,"ĠĠĠcheĠzhanĠ":4517,"ĠzhiĠchengĠ":4518,"ĠheĠbingĠ":4519,"diaoĠcha":4520,"chanĠyeĠ":4521,"ĠnianĠhouĠ":4522,"ĠshiĠyiĠmingĠ":4523,"wanĠjiaĠ":4524,"anĠshiĠ":4525,"xiangĠdangĠ":4526,"ĠĠĠchuĠ":4527,"ĠyouĠshiĠ":4528,"shengĠshiĠ":4529,"Ġkang":4530,"ĠzaoĠ":4531,"chaoĠzhengĠzhiĠrenĠwuĠ":4532,"suĠdeĠ":4533,"jinĠxingĠleĠ":4534,"ĠweiĠshengĠ":4535,"ĠchuangĠ":4536,"ĠĠĠtaĠ":4537,"jianĠjiĠ":4538,"ĠbuĠnengĠ":4539,"nanĠshengĠ":4540,"ĠpeiĠ":4541,"jinĠyiĠ":4542,"xuanĠchuanĠ":4543,"ĠshiĠyiĠweiĠ":4544,"yingĠliĠ":4545,"jingĠshenĠ":4546,"beiĠjiĠ":4547,"lvĠshiĠ":4548,"xianĠxiangĠ":4549,"zaĠ":4550,"shuĠzhongĠ":4551,"shouĠshangĠ":4552,"ziĠheĠ":4553,"xiĠyangĠ":4554,"fuĠzeĠguanĠxiaĠ":4555,"guanĠzhuĠ":4556,"lianĠdeĠ":4557,"qiĠzhongĠyiĠ":4558,"mieĠ":4559,"jiaĠtingĠ":4560,"paiĠmingĠ":4561,"tongĠxingĠ":4562,"lieĠweiĠ":4563,"saiĠerĠ":4564,"ĠyueĠzaiĠ":4565,"zhanĠhouĠ":4566,"xuanĠrenĠ":4567,"liuĠyuĠ":4568,"shuĠliangĠ":4569,"xiaoĠzuĠ":4570,"foĠjiaoĠ":4571,"lanĠqiuĠ":4572,"shuaiĠ":4573,"keĠweiĠ":4574,"ĠĠĠP":4575,"Ġbi":4576,"jieĠyiĠ":4577,"daoĠyanĠ":4578,"zhengĠjuĠ":4579,"qiuĠdeĠ":4580,"ĠxiĠnanĠ":4581,"daĠweiĠ":4582,"taoĠlunĠ":4583,"baĠnianĠ":4584,"wangĠshiĠ":4585,"duĠjiaoĠ":4586,"yanĠyiĠ":4587,"ĠlongĠ":4588,"reĠdai":4589,"yĠĠĠ":4590,"ĠĠĠbeiĠ":4591,"ĠzhongĠgongĠ":4592,"zhengĠdangĠ":4593,"laiĠyuanĠ":4594,"genĠju":4595,"ĠshiĠxianĠ":4596,"baoĠchiĠ":4597,"ĠtuoĠ":4598,"wenĠjianĠ":4599,"ĠyiĠjianĠ":4600,"houĠqiĠ":4601,"ĠnianĠduĠ":4602,"ĠerĠqieĠ":4603,"zhongĠyangĠ":4604,"ĠzhiĠxianĠ":4605,"Ġben":4606,"ĠdaoĠleĠ":4607,"rengĠranĠ":4608,"Ġ10ĠyueĠ":4609,"ĠyiĠxiĠ":4610,"lvĠkeĠ":4611,"ruiĠshiĠ":4612,"ĠcanĠ":4613,"ĠjiĠsiĠ":4614,"pingĠlunĠ":4615,"mingĠshiĠ":4616,"ziĠdongĠ":4617,"ĠzongĠrenĠkouĠ":4618,"xiaĠdeĠyiĠgeĠ":4619,"fanĠdeĠ":4620,"ĠwuĠkeĠ":4621,"diĠsiĠ":4622,"zaoĠnianĠ":4623,"biaoĠmingĠ":4624,"xuĠdeĠ":4625,"luĠyuĠ":4626,"ĠzhiĠmingĠ":4627,"haiĠdeĠ":4628,"ĠjiĠhuĠ":4629,"pingĠtaiĠ":4630,"luoĠma":4631,"keĠliĠsiĠ":4632,"ĠĠĠE":4633,"ĠshiĠjianĠyuĠ":4634,"haoĠweiĠ":4635,"raoĠ":4636,"cengĠjingĠ":4637,"xuĠyao":4638,"pengĠyouĠ":4639,"ĠliĠrenĠ":4640,"daĠyueĠ":4641,"yinĠhang":4642,"fengĠxianĠ":4643,"eĠluoĠ":4644,"nanĠjingĠ":4645,"ĠĠĠM":4646,"ĠbeiĠjingĠ":4647,"ĠciĠshiĠ":4648,"ĠdeĠdiĠfangĠ":4649,"shengĠyiĠ":4650,"gongĠzhongĠyangĠ":4651,"taiĠpingĠyangĠ":4652,"jiaoĠtangĠ":4653,"zhengĠbuĠ":4654,"lianĠbang":4655,"ĠouĠ":4656,"jiaoĠbuĠ":4657,"xuanĠquĠ":4658,"xingĠbuĠ":4659,"keĠzaiĠ":4660,"jingĠyouĠ":4661,"yanĠgeĠ":4662,"queĠdingĠ":4663,"yuanĠzaiĠ":4664,"souĠ":4665,"ĠguoĠwangĠ":4666,"daoĠdaĠ":4667,"shenĠweiĠ":4668,"jianĠduiĠ":4669,"chongĠtuĠ":4670,"ĠĠĠxianĠ":4671,"wuĠrenĠ":4672,"jianĠrenĠ":4673,"ĠyiĠshangĠ":4674,"moĠxingĠ":4675,"ĠĠĠ2021":4676,"biaoĠzhiĠ":4677,"huaĠyuĠ":4678,"ruĠheĠ":4679,"Ġlin":4680,"qianĠshiĠ":4681,"keĠshiĠ":4682,"ĠmiaoĠ":4683,"qianĠzhiĠ":4684,"tuiĠyiĠ":4685,"xiaoĠguoĠ":4686,"zhangĠdaĠ":4687,"shangĠyingĠ":4688,"daoĠheĠ":4689,"keĠsiĠ":4690,"ĠgongĠyuanĠ":4691,"jingĠweiĠ":4692,"ĠĠĠsuiĠ":4693,"leiĠxingĠ":4694,"ĠyiĠliĠ":4695,"ĠdaĠxue":4696,"zhouĠweiĠ":4697,"xianĠjiĠ":4698,"queĠzhenĠ":4699,"yeĠbuĠ":4700,"biaoĠdaĠ":4701,"fengĠbaoĠ":4702,"guangĠzhouĠ":4703,"ĠĠĠ2020":4704,"xiaĠshiĠ":4705,"dangĠxuanĠ":4706,"xieĠdeĠ":4707,"biĠyaĠ":4708,"ĠtanĠ":4709,"xianĠheĠ":4710,"shengĠhuo":4711,"pangĠ":4712,"liangĠzhongĠ":4713,"dingĠyuĠ":4714,"qiĠyeĠ":4715,"ĠcengĠrenĠ":4716,"ĠjiĠbeiĠ":4717,"jiaoĠquĠ":4718,"pingĠmianĠ":4719,"ĠĠĠand":4720,"anĠjianĠ":4721,"chengĠxianĠ":4722,"shenĠqingĠ":4723,"luĠsiĠ":4724,"xingĠyiĠ":4725,"ĠzhiĠfuĠ":4726,"tuanĠduiĠ":4727,"ĠerĠrenĠkouĠmiĠduĠweiĠmeiĠpingĠfangĠqianĠmiĠ":4728,"ĠjinĠruĠ":4729,"ĠliĠdaĠ":4730,"Ġdeng":4731,"ĠqinĠ":4732,"chaĠyiĠ":4733,"ĠliĠlunĠ":4734,"yingĠgeĠlanĠ":4735,"yaoĠqingĠ":4736,"neiĠrong":4737,"puĠtongĠ":4738,"ĠJ":4739,"yuanĠzhangĠ":4740,"0Ġ":4741,"yuanĠsuĠ":4742,"ĠzhongĠyouĠ":4743,"Ġgao":4744,"xingĠrenĠ":4745,"jiuĠnianĠ":4746,"ĠjieĠguoĠ":4747,"xiĠheĠ":4748,"ĠtaĠmenĠdeĠ":4749,"Ġzheng":4750,"riĠqiĠ":4751,"qiuĠchangĠ":4752,"xiaoĠshouĠ":4753,"rouĠ":4754,"zhongĠyaoĠ":4755,"yanĠzhiĠ":4756,"hengĠxingĠ":4757,"ziĠyiĠ":4758,"ruĠciĠ":4759,"duiĠshouĠ":4760,"laĠfuĠ":4761,"fenĠbieĠ":4762,"tiaoĠzhanĠ":4763,"zuoĠshiĠ":4764,"baoĠweiĠ":4765,"chengĠyuĠ":4766,"shuĠyiĠ":4767,"laiĠshuoĠ":4768,"ĠqiĠyuĠ":4769,"huiĠjiĠ":4770,"ĠyueĠyuĠ":4771,"ruĠguoĠ":4772,"ĠzhiĠzaoĠ":4773,"xueĠshuĠ":4774,"heĠyuĠ":4775,"12Ġ":4776,"anĠnaĠ":4777,"ĠzhongĠhuaĠ":4778,"wangĠluĠ":4779,"lunĠdeĠ":4780,"nuĠliĠ":4781,"lĠĠĠ":4782,"yuĠĠĠ":4783,"niĠdeĠ":4784,"ĠshiĠdiĠ":4785,"wuĠyiĠ":4786,"shunĠ":4787,"Ġ8ĠyueĠ":4788,"zhengĠzhuangĠ":4789,"jiaĠrenĠ":4790,"caiĠyong":4791,"tingĠdeĠ":4792,"nengĠgou":4793,"ziĠzhiĠquĠ":4794,"Ġ11":4795,"jieĠfangĠjunĠ":4796,"ĠmaiĠ":4797,"xiaoĠzhangĠ":4798,"dianĠtaiĠ":4799,"teĠbieĠ":4800,"ĠhaoĠxianĠ":4801,"minĠdeĠ":4802,"haiĠziĠ":4803,"ĠtongĠchangĠ":4804,"youĠliĠ":4805,"taĠshiĠ":4806,"lanĠkeĠ":4807,"shuĠziĠ":4808,"xiangĠyuĠ":4809,"quĠheĠ":4810,"gengĠmingĠweiĠ":4811,"ĠĠĠK":4812,"chuangĠliĠ":4813,"quanĠshiĠ":4814,"2024ĠnianĠ":4815,"zongĠduĠ":4816,"xuĠshiĠ":4817,"fanĠyiĠ":4818,"duoĠzhongĠ":4819,"fuĠqin":4820,"zhuĠyanĠ":4821,"geĠyouĠ":4822,"sheĠyuĠ":4823,"jiaĠgeĠ":4824,"chuĠshenĠ":4825,"Ġ19":4826,"ĠĠĠin":4827,"huoĠdong":4828,"ĠW":4829,"jiangĠxiĠ":4830,"ĠĠĠ2019":4831,"xinĠshiĠ":4832,"boĠdeĠ":4833,"ĠzaiĠyiĠ":4834,"Ġdai":4835,"huĠshiĠ":4836,"mingĠyuĠ":4837,"jiangĠxiangĠ":4838,"banĠgongĠshiĠ":4839,"danĠdeĠ":4840,"sunĠshiĠ":4841,"shouĠruĠ":4842,"gĠ":4843,"linĠdeĠ":4844,"Ġe":4845,"ĠsuoĠyouĠ":4846,"ĠĠĠwuĠ":4847,"ĠzhongĠyaoĠ":4848,"juĠxingĠdeĠ":4849,"Ġpei":4850,"duiĠyiĠ":4851,"jingĠchaĠ":4852,"saĠkeĠ":4853,"ĠlaoĠ":4854,"jieĠjinĠ":4855,"ĠweiĠlianĠ":4856,"ĠjiĠbenĠ":4857,"jieĠweiĠ":4858,"jieĠyuĠ":4859,"kaĠsiĠ":4860,"ĠĠĠxiaĠ":4861,"guanĠdianĠ":4862,"ĠdeĠyiĠzuoĠ":4863,"1999ĠnianĠ":4864,"ĠliĠheĠ":4865,"jiangĠdiĠ":4866,"shaoĠshuĠ":4867,"kanĠdaoĠ":4868,"wenĠzhangĠ":4869,"ĠjiĠzheĠ":4870,"lunĠdunĠ":4871,"ĠĠĠ2018":4872,"touĠxiangĠ":4873,"huiĠshangĠ":4874,"luĠdiĠmianĠjiĠweiĠ":4875,"ĠĠĠgeĠ":4876,"Ġhan":4877,"ampĠ":4878,"shuiĠyuĠmianĠjiĠweiĠ":4879,"Ġzhuan":4880,"jieĠquanĠguoĠ":4881,"ĠdaĠquĠ":4882,"wenĠziĠ":4883,"zhanĠjiĠ":4884,"xingĠjianĠ":4885,"ĠdeĠdiĠquĠ":4886,"sangĠ":4887,"aoĠmenĠ":4888,"zaiĠzhiĠ":4889,"wenĠyiĠ":4890,"ĠcheĠzhanĠ":4891,"zhangĠshiĠ":4892,"kangĠyiĠ":4893,"ĠĠĠL":4894,"lengĠ":4895,"xiĠbeiĠ":4896,"haiĠanĠ":4897,"ruĠkouĠ":4898,"waiĠguoĠ":4899,"ĠxiongĠ":4900,"wenĠdeĠ":4901,"chuĠshengĠ":4902,"jiaoĠliuĠ":4903,"ĠĠĠkeĠ":4904,"mingĠdiĠ":4905,"24Ġ":4906,"ĠjiĠtuan":4907,"xingĠxingĠ":4908,"xiĠzhiĠ":4909,"zhenĠduiĠ":4910,"xinĠrenĠ":4911,"duĠyuĠ":4912,"pĠ":4913,"ĠampĠ":4914,"cuoĠshiĠ":4915,"zhangĠkeĠdaĠ":4916,"tianĠjinĠ":4917,"tiaoĠzhengĠ":4918,"ĠxianĠzaiĠ":4919,"fangĠzaiĠ":4920,"poĠhuaiĠ":4921,"junĠdiĠ":4922,"tiĠmingĠ":4923,"ĠfenĠzhongĠ":4924,"xuanĠze":4925,"ĠdangĠzhongĠluĠdiĠmianĠjiĠweiĠ":4926,"TĠ":4927,"ĠerĠshuiĠyuĠmianĠjiĠweiĠ":4928,"1998ĠnianĠ":4929,"FĠ":4930,"rongĠyiĠ":4931,"chuĠfaĠ":4932,"ĠĠĠ2022":4933,"ĠbeiĠerĠ":4934,"zaoĠyuĠ":4935,"jingĠdianĠ":4936,"chiĠdeĠ":4937,"ĠjuĠliĠ":4938,"baĠxiĠ":4939,"ĠhaiĠyouĠ":4940,"ĠjiĠshiĠ":4941,"guangĠxiĠ":4942,"luoĠdiĠ":4943,"gouĠchengĠ":4944,"bianĠjieĠ":4945,"ouĠyuanĠ":4946,"xianĠyouĠ":4947,"xianĠchangĠ":4948,"ĠxiangĠgang":4949,"kĠ":4950,"xiĠyiĠ":4951,"shanĠjiĠ":4952,"ĠfaĠxianĠ":4953,"taiĠyangĠ":4954,"fuĠjiĠ":4955,"daoĠjiĠ":4956,"haĠerĠ":4957,"ĠdeĠzhiĠchiĠ":4958,"ĠyueĠyouĠ":4959,"siĠchuanĠ":4960,"yueĠtaiĠ":4961,"ĠĠĠxingĠzhengĠquĠhuaĠ":4962,"mingĠzhiĠ":4963,"Ġao":4964,"ĠyuĠciĠ":4965,"ĠzaiĠzheĠ":4966,"duiĠwuĠ":4967,"XĠ":4968,"tengĠ":4969,"cunĠzhuangĠ":4970,"Ġshou":4971,"ĠjingĠguoĠ":4972,"ĠcongĠerĠ":4973,"daĠzhongĠ":4974,"touĠruĠ":4975,"weiĠĠĠ":4976,"kengĠ":4977,"ĠnianĠbeiĠ":4978,"youĠweiĠ":4979,"cunĠdeĠ":4980,"Ġhou":4981,"ĠsaĠ":4982,"dengĠluĠ":4983,"Ġ9ĠyueĠ":4984,"daĠzhiĠ":4985,"touĠpiaoĠ":4986,"ĠshiĠliĠ":4987,"geĠleiĠ":4988,"yuanĠhuiĠ":4989,"changĠyiĠ":4990,"ĠyueĠweiĠ":4991,"ĠĠĠ2017":4992,"ĠzhiĠxiaĠ":4993,"gongĠminĠ":4994,"yinĠfaĠ":4995,"biĠyeĠyuĠ":4996,"Ġpa":4997,"jianĠzhongĠ":4998,"zhangĠyuĠ":4999,"nuoĠweiĠ":5000,"ĠĠĠR":5001,"tuĠerĠqiĠ":5002,"jiaĠyuĠ":5003,"fangĠweiĠ":5004,"tuĠdeĠ":5005,"tuiĠdongĠ":5006,"ĠshiĠzhongĠguoĠ":5007,"gongĠyuĠ":5008,"zhanĠdiĠ":5009,"geĠyiĠ":5010,"hunĠheĠ":5011,"ĠrenĠmenĠ":5012,"juĠzhuĠ":5013,"baoĠliuĠ":5014,"qianĠshuĠ":5015,"jinĠru":5016,"wenĠdingĠ":5017,"haiĠdaoĠ":5018,"leĠsiĠ":5019,"ganĠran":5020,"shuĠheĠ":5021,"biĠsaiĠzhongĠ":5022,"ĠtiĠzhangĠkeĠdaĠ":5023,"ĠformulaĠ":5024,"erĠrenĠ":5025,"ĠzaiĠbeiĠ":5026,"ziĠranĠ":5027,"xiĠzhongĠ":5028,"ĠbuĠfen":5029,"daĠfuĠ":5030,"Ġ7ĠyueĠ":5031,"wuĠyuĠ":5032,"ziĠliĠ":5033,"nanĠbeiĠ":5034,"junĠyiĠ":5035,"piĠzhunĠ":5036,"keĠyuĠ":5037,"chuĠjiĠ":5038,"qiĠziĠ":5039,"yongĠhuĠ":5040,"ĠweiĠfuĠqiĠyuĠ":5041,"hengĠliĠ":5042,"fangĠwenĠ":5043,"zhuangĠjiaĠ":5044,"tiĠgaoĠ":5045,"ĠyouĠjiĠ":5046,"ĠwoĠmenĠ":5047,"diĠjiĠ":5048,"maĠkeĠ":5049,"ĠshiĠquĠ":5050,"ĠnianĠheĠ":5051,"chengĠzuoĠ":5052,"Ġbian":5053,"erĠyuĠ":5054,"jianĠheĠ":5055,"angĠ":5056,"ĠĠĠ2016":5057,"ĠyiĠdaĠliĠ":5058,"ziĠjinĠ":5059,"ĠyinĠduĠ":5060,"xunĠsuĠ":5061,"ĠbiaoĠ":5062,"benĠtuĠ":5063,"houĠxuanĠrenĠ":5064,"xinĠhaoĠ":5065,"Ġan":5066,"zhanĠzhongĠ":5067,"moĠerĠ":5068,"xiaoĠliĠ":5069,"xianĠluĠ":5070,"pinĠpaiĠ":5071,"ĠtingĠ":5072,"jinĠshuĠ":5073,"jieĠshuĠhouĠ":5074,"Ġ12ĠyueĠ":5075,"ciĠweiĠ":5076,"geĠgeĠ":5077,"ĠtaĠyiĠ":5078,"xinĠyiĠ":5079,"guangĠfanĠ":5080,"zhuĠmingĠdeĠ":5081,"zhongĠliĠ":5082,"shangĠrenĠ":5083,"yongĠyiĠ":5084,"xianĠhouĠ":5085,"zuiĠchuĠ":5086,"yingĠpianĠ":5087,"zhuĠmingĠ":5088,"cengĠyuĠ":5089,"mouĠxieĠ":5090,"ĠxiuĠ":5091,"chengĠzhiĠ":5092,"Ġ11ĠyueĠ":5093,"ĠdeĠyiĠzhiĠ":5094,"jianĠzaoĠ":5095,"wuĠweiĠ":5096,"Ġhai":5097,"jianĠzaiĠ":5098,"jieĠyouĠ":5099,"lingĠwaiĠ":5100,"ĠdeĠshiĠquĠweiĠ":5101,"chuĠzhanĠ":5102,"xiaĠlaiĠ":5103,"ĠĠĠdeĠshiĠ":5104,"ĠTheĠĠĠ":5105,"ĠzhiĠnengĠ":5106,"Ġhong":5107,"xueĠhuiĠ":5108,"buĠtongĠdeĠ":5109,"ĠbingĠyiĠ":5110,"Ġtw":5111,"heĠzuoĠ":5112,"jiangĠsuĠ":5113,"ĠzhongĠdeĠ":5114,"saĠerĠ":5115,"ĠzhongĠguoĠgongĠchanĠdangĠ":5116,"buĠduiĠ":5117,"ĠjiaĠshangĠ":5118,"dangĠshiĠdeĠ":5119,"ĠĠĠli":5120,"zhuĠbuĠ":5121,"shanĠdaĠ":5122,"shuiĠpingĠ":5123,"Ġ21Ġ":5124,"hansĠ":5125,"ĠĠĠerĠ":5126,"boĠerĠ":5127,"ĠhansĠ":5128,"keĠheĠ":5129,"ĠdiĠqu":5130,"meiĠnianĠ":5131,"xuĠqiuĠ":5132,"ĠjiĠchengĠ":5133,"jianĠshaoĠ":5134,"teĠshuĠ":5135,"ĠtwĠ":5136,"daĠchengĠ":5137,"shanĠdeĠ":5138,"ĠĠĠO":5139,"jiaĠzuĠ":5140,"Ġ2011":5141,"ĠĠĠD":5142,"ĠzheĠxie":5143,"lvĠweiĠ":5144,"ĠrenĠleiĠ":5145,"paiĠchuĠ":5146,"SĠ":5147,"xĠ":5148,"ĠĠĠqingĠ":5149,"xiaoĠshuo":5150,"aoĠdaĠliĠyaĠ":5151,"ĠriĠyuĠ":5152,"nanĠyiĠ":5153,"jieĠrangĠ":5154,"gongĠchangĠ":5155,"siĠkeĠ":5156,"ĠdanĠtaĠ":5157,"ĠchengĠyuanĠ":5158,"changĠheĠ":5159,"jieĠkeĠ":5160,"ziĠxunĠ":5161,"ĠjiĠguanĠ":5162,"jueĠding":5163,"ĠzaiĠzhongĠguoĠ":5164,"sheĠhuiĠzhuĠyiĠ":5165,"ĠĠĠ2023":5166,"ĠyuĠrenĠ":5167,"zhuĠyouĠ":5168,"zhuangĠzhiĠ":5169,"faĠchuĠ":5170,"ĠxiĠbaoĠ":5171,"jingĠyanĠ":5172,"Ġ2010ĠnianĠ":5173,"CĠ":5174,"ĠĠĠ2014":5175,"waĠerĠ":5176,"ĠjiĠrenĠ":5177,"yinĠsuĠ":5178,"suoĠdeĠ":5179,"rengĠ":5180,"ĠjieĠmuĠ":5181,"tiĠshiĠ":5182,"1997ĠnianĠ":5183,"yingĠwenĠ":5184,"fenĠzhongĠ":5185,"luĠzhiĠ":5186,"ĠhouĠlai":5187,"ĠeĠluoĠsiĠ":5188,"ĠxuĠduoĠ":5189,"ĠĠĠyuanĠ":5190,"tuĠzhongĠ":5191,"kongĠzhongĠ":5192,"suiĠdaoĠ":5193,"chuĠshengĠyuĠ":5194,"beiĠzhiĠ":5195,"huaĠheĠ":5196,"shaĠsiĠ":5197,"yongĠshiĠ":5198,"lingĠtuĠ":5199,"ĠmenĠ":5200,"ĠjingĠjiĠ":5201,"meiĠgeĠ":5202,"ĠĠĠyuĠshiĠdeĠrenĠkouĠshuĠliangĠweiĠrenĠ":5203,"ĠĠĠsuoĠshuĠdeĠshengĠjiĠxuanĠquĠweiĠ":5204,"minĠjianĠ":5205,"ĠĠĠdeĠyouĠzhengĠbianĠmaĠweiĠ":5206,"ĠĠĠyuĠjieĠrangĠdeĠshiĠzhenĠ":5207,"ĠĠĠdeĠshiĠquĠweiĠ":5208,"gengĠjiaĠ":5209,"ĠguoĠchengĠ":5210,"xiangĠsiĠ":5211,"Ġ2019":5212,"ĠĠĠ2015":5213,"zengĠzhangĠ":5214,"ĠfaĠxingĠ":5215,"nanĠdeĠ":5216,"ĠzaiĠdaĠ":5217,"keĠchengĠ":5218,"jiangĠdeĠ":5219,"kongĠjunĠ":5220,"huiĠyingĠ":5221,"Ġ2009ĠnianĠ":5222,"erĠyiĠ":5223,"leĠshiĠ":5224,"guĠwenĠ":5225,"ĠheĠxiĠ":5226,"ĠtaĠyeĠ":5227,"ciĠyiĠ":5228,"guangĠgaoĠ":5229,"PĠ":5230,"teĠerĠ":5231,"ĠshiĠmeiĠguoĠ":5232,"1996ĠnianĠ":5233,"cĠ":5234,"Ġhk":5235,"zhouĠfuĠ":5236,"ĠshengĠhuo":5237,"Ġwang":5238,"tiĠyiĠ":5239,"ĠjiĠyouĠ":5240,"ĠdiĠdaĠ":5241,"jueĠse":5242,"anĠpaiĠ":5243,"ĠĠĠ2013":5244,"xianĠxingĠ":5245,"ĠbingĠjiangĠ":5246,"chaoĠshiĠ":5247,"guanĠbiĠ":5248,"hanĠshuĠ":5249,"zongĠbuĠ":5250,"tiĠshengĠ":5251,"feiĠjianĠzhiĠ":5252,"ĠzhiĠshiĠ":5253,"woĠmenĠ":5254,"ĠzhuangĠ":5255,"ĠĠĠxinĠ":5256,"fangĠbuĠ":5257,"daĠyuĠ":5258,"xuĠkeĠ":5259,"langĠdeĠ":5260,"minĠzhuĠdangĠ":5261,"Ġ6ĠyueĠ":5262,"zhuangĠshiĠ":5263,"jiaĠru":5264,"ĠbingĠyouĠ":5265,"zhengĠfuĠdeĠ":5266,"quanĠmianĠ":5267,"ĠhkĠ":5268,"banĠgongĠ":5269,"ĠdeĠguoĠjiaĠ":5270,"Ġfeng":5271,"junĠjiĠ":5272,"xingĠtaiĠ":5273,"cheĠzhan":5274,"ĠerĠgaiĠ":5275,"ĠheĠerĠ":5276,"baoĠliĠ":5277,"diĠguoĠ":5278,"jieĠgou":5279,"duiĠshiĠ":5280,"tianĠdeĠ":5281,"shanĠmai":5282,"juĠbuĠ":5283,"lingĠdeĠ":5284,"foĠ":5285,"ruiĠdianĠ":5286,"dangĠyuĠ":5287,"luoĠkeĠ":5288,"weiĠyiĠgeĠ":5289,"junĠgongĠ":5290,"dangĠzhongĠ":5291,"weiĠzhiĠ":5292,"tuĠshuĠguanĠ":5293,"neiĠluĠ":5294,"ĠlaiĠziĠ":5295,"huaĠzhongĠ":5296,"zhuanĠjiaĠ":5297,"ĠjiĠnianĠ":5298,"ĠyueĠtaiĠ":5299,"chengĠxuĠ":5300,"ĠV":5301,"huiĠbeiĠ":5302,"seĠlieĠ":5303,"shiĠĠĠ":5304,"shanĠshiĠ":5305,"yunĠxuĠ":5306,"bingĠmeiĠyouĠ":5307,"jiuĠdianĠ":5308,"geĠzhiĠ":5309,"ĠkeĠxueĠ":5310,"ĠqiĠzhongĠyiĠ":5311,"ĠĠĠxiangĠ":5312,"1992ĠnianĠ":5313,"siĠxiangĠ":5314,"feiĠjianĠzhiĠdiĠquĠ":5315,"Ġ5ĠyueĠ":5316,"daiĠyouĠ":5317,"zuĠchengĠdeĠ":5318,"baĠweiĠ":5319,"faĠlv":5320,"ĠxiĠjieĠ":5321,"ĠmaoĠ":5322,"jingĠzhengĠ":5323,"ĠyiĠjiaĠ":5324,"dianĠnao":5325,"guoĠweiĠ":5326,"jinĠpaiĠ":5327,"sanĠjiaoĠ":5328,"changĠyuĠ":5329,"tanĠkeĠ":5330,"ĠliĠbuĠ":5331,"ĠyouĠqiĠshiĠ":5332,"muĠqinĠ":5333,"tongĠyuĠ":5334,"bingĠshiĠ":5335,"huanĠyingĠ":5336,"Ġ2018":5337,"ĠxuanĠbuĠ":5338,"maĠerĠ":5339,"xiaĠjiangĠ":5340,"moĠxiĠgeĠ":5341,"ĠzhengĠfuĠ":5342,"geĠlan":5343,"yanĠjiuĠyuanĠ":5344,"ĠwanĠrenĠ":5345,"Ġqian":5346,"shuĠxueĠ":5347,"jiuĠdeĠ":5348,"neiĠgeĠ":5349,"ĠshiĠjieĠbeiĠ":5350,"onĠ":5351,"ĠliĠya":5352,"huaĠrenĠ":5353,"zhuanĠyiĠ":5354,"gongĠsiĠdeĠ":5355,"ĠgongĠzuoĠ":5356,"junĠyouĠ":5357,"jiuĠzhiĠ":5358,"ĠheĠdiĠ":5359,"mingĠmingĠweiĠ":5360,"ĠĠĠjiaĠzuĠ":5361,"toĠĠĠ":5362,"ĠjiĠchuĠ":5363,"shengĠzhangĠ":5364,"laiĠdaoĠ":5365,"ĠdiĠxiaĠ":5366,"beiĠrenĠweiĠshiĠ":5367,"ĠlieĠ":5368,"dengĠweiĠ":5369,"yingĠyunĠ":5370,"ĠchuĠyuĠ":5371,"xiuĠgaiĠ":5372,"mingĠlingĠ":5373,"shuoĠmingĠ":5374,"huiĠzhangĠ":5375,"queĠfaĠ":5376,"yongĠlaiĠ":5377,"Ġna":5378,"duiĠqiĠ":5379,"huĠdeĠ":5380,"ziĠmuĠ":5381,"xunĠhuiĠ":5382,"ĠchaĠ":5383,"shouĠfuĠ":5384,"daiĠliĠ":5385,"ĠdanĠyouĠyuĠ":5386,"wenĠshiĠ":5387,"ĠbuĠtongĠdeĠ":5388,"Ġ20":5389,"ĠĠĠzhĠ":5390,"maoĠqiuĠ":5391,"ĠminĠguoĠ":5392,"ĠzaiĠmeiĠguoĠ":5393,"ĠshiĠyiĠge":5394,"ĠdeĠdiĠerĠ":5395,"ĠweiĠweiĠ":5396,"ĠrangĠ":5397,"zhuĠjiĠ":5398,"gongĠjuĠ":5399,"ĠĠĠandĠĠĠ":5400,"taĠyuĠ":5401,"ruanĠ":5402,"ĠyinĠyueĠ":5403,"Ġ4ĠyueĠ":5404,"chengĠweiĠleĠ":5405,"liaoĠjieĠ":5406,"ĠtaĠbeiĠ":5407,"yeĠbeiĠ":5408,"yinĠdeĠ":5409,"changĠdiĠ":5410,"feiĠlvĠ":5411,"queĠrenĠ":5412,"faĠanĠ":5413,"juĠzhangĠ":5414,"ĠĠĠjieĠzhiĠ":5415,"caiĠquĠ":5416,"shenĠtiĠ":5417,"beiĠerĠ":5418,"changĠpianĠ":5419,"ĠtaĠhaiĠ":5420,"ĠshangĠhaiĠ":5421,"ĠzhongĠguoĠrenĠminĠ":5422,"ĠkangĠ":5423,"shouĠzhongĠ":5424,"cheĠxiaoĠ":5425,"canĠjiaĠleĠ":5426,"1995ĠnianĠ":5427,"Ġ2016":5428,"boĠfangĠ":5429,"chanĠpin":5430,"ĠkuanĠ":5431,"ĠerĠfuĠ":5432,"jiaoĠlianĠ":5433,"xieĠrenĠ":5434,"cheĠdeĠ":5435,"zhuĠzuoĠ":5436,"banĠfaĠ":5437,"fuĠyouĠ":5438,"suĠweiĠ":5439,"chuanĠboĠ":5440,"Ġ23":5441,"ĠyiĠjuĠ":5442,"ĠyiĠnianĠ":5443,"ĠĠĠH":5444,"zheĠliĠ":5445,"huaĠyuanĠ":5446,"maĠsiĠ":5447,"1994ĠnianĠ":5448,"ĠweiĠrenĠ":5449,"ĠquanĠguoĠ":5450,"ĠĠĠzhongĠguoĠ":5451,"suiĠjiĠ":5452,"ĠliĠru":5453,"tieĠlu":5454,"dianĠqiĠ":5455,"liangĠshiĠ":5456,"qiuĠhuiĠ":5457,"ĠtaoĠ":5458,"ĠweiĠyuanĠhui":5459,"maĠdeĠ":5460,"ĠqiĠlaiĠ":5461,"faĠdianĠ":5462,"wangĠqiuĠ":5463,"zeĠyouĠ":5464,"baiĠseĠ":5465,"ĠshiĠyiĠnianĠ":5466,"yueĠhanĠ":5467,"juĠheĠ":5468,"taiĠjiĠ":5469,"jieĠhunĠ":5470,"shenĠjingĠ":5471,"guĠdeĠ":5472,"chuĠxiĠ":5473,"zhanĠtaiĠ":5474,"wanĠshangĠ":5475,"ĠqueĠ":5476,"ĠdiĠtieĠ":5477,"lingĠbuĠ":5478,"ĠzhiĠdiĠ":5479,"ĠyouĠxieĠ":5480,"ĠyiĠzaiĠ":5481,"ziĠzhuĠ":5482,"ĠsheĠjiĠ":5483,"yeĠheĠ":5484,"huaĠshengĠ":5485,"ĠxingĠdongĠ":5486,"chanĠshengĠdeĠ":5487,"ĠrenĠminĠzhengĠfuĠ":5488,"ĠweiĠnengĠ":5489,"liangĠrenĠ":5490,"ĠyouĠxiaoĠ":5491,"zuĠjianĠ":5492,"lingĠxianĠ":5493,"zhaoĠkaiĠ":5494,"2020ĠnianĠmeiĠguoĠrenĠkouĠpuĠchaĠdeĠshuĠjuĠ":5495,"xueĠheĠ":5496,"maĠlaiĠxiĠyaĠ":5497,"ĠdaiĠbiaoĠ":5498,"leĠtaĠ":5499,"Ġka":5500,"ĠcaoĠ":5501,"chaoĠdeĠ":5502,"ĠerĠbuĠ":5503,"tongĠcheĠ":5504,"yanĠchangĠhuiĠ":5505,"xuĠliĠyaĠ":5506,"changĠzaiĠ":5507,"yaoĠwuĠ":5508,"qinĠshiĠ":5509,"huoĠjianĠ":5510,"tiĠzhongĠ":5511,"ruĠxuanĠ":5512,"kuoĠdaĠ":5513,"ĠzaiĠxiĠ":5514,"ĠxiĠlaĠ":5515,"chuĠxianĠzaiĠ":5516,"yinĠdu":5517,"lieĠbiaoĠ":5518,"ĠĠĠ2025":5519,"15Ġ":5520,"ĠyingĠyuĠ":5521,"ĠĠĠnian":5522,"ĠliĠshuĠ":5523,"geĠdaĠ":5524,"geĠerĠ":5525,"xueĠxiao":5526,"ĠĠĠ2024":5527,"xiangĠxiĠ":5528,"ĠgongĠchengĠ":5529,"xinĠjiĠ":5530,"ĠfuĠjinĠ":5531,"guaĠ":5532,"ĠĠĠqianĠ":5533,"ĠdaĠbuĠfenĠ":5534,"shanĠxiĠshengĠ":5535,"xingĠzhongĠ":5536,"daiĠbuĠ":5537,"taiĠshiĠ":5538,"siĠteĠ":5539,"changĠpian":5540,"kongĠbuĠ":5541,"ĠshiĠdeĠyiĠ":5542,"ĠzhiĠduĠ":5543,"huĠbeiĠ":5544,"lvĠxingĠ":5545,"tuoĠliĠ":5546,"gongĠhuiĠ":5547,"shenĠshiĠ":5548,"chengĠliĠdeĠ":5549,"daĠbuĠfenĠ":5550,"IĠ":5551,"teĠĠĠ":5552,"ĠweiĠliĠ":5553,"aoĠdiĠliĠ":5554,"guiĠzeĠ":5555,"ĠliangĠrenĠ":5556,"daĠluĠdeĠ":5557,"ĠCĠ":5558,"laoĠdongĠ":5559,"shangĠhai":5560,"1991ĠnianĠ":5561,"ĠyiĠtongĠ":5562,"jingĠyuĠ":5563,"zhuangĠdeĠ":5564,"cuĠjinĠ":5565,"zhouĠbianĠ":5566,"tongĠbuĠ":5567,"ĠqiaoĠ":5568,"peiĠyinĠ":5569,"xingĠxiangĠ":5570,"ciĠzaiĠ":5571,"fenĠliĠ":5572,"Ġlu":5573,"zhuangĠkuangĠ":5574,"ĠliĠshiĠshangĠ":5575,"longĠdeĠ":5576,"suanĠjiĠ":5577,"xingĠquĠ":5578,"DĠ":5579,"ĠmingĠchaoĠzhengĠzhiĠrenĠwuĠ":5580,"3ĠnianĠ":5581,"ĠĠĠJ":5582,"wuĠkeĠlan":5583,"jinĠbuĠ":5584,"baoĠshiĠ":5585,"daiĠbiaoĠdaĠhuiĠ":5586,"RĠ":5587,"wuĠheĠ":5588,"ĠzhiĠziĠ":5589,"nanĠshiĠ":5590,"zhuĠchangĠ":5591,"peiĠheĠ":5592,"ĠzheĠjiangĠ":5593,"ĠĠĠa":5594,"pingĠweiĠ":5595,"zeĠweiĠ":5596,"teĠseĠ":5597,"suiĠhouĠ":5598,"xiaĠjiĠaoĠlinĠpiĠkeĠyunĠdongĠhuiĠ":5599,"22Ġ":5600,"jiaoĠxueĠ":5601,"wanĠrenĠ":5602,"ĠjiĠerĠ":5603,"xieĠshiĠ":5604,"puĠbianĠ":5605,"ĠĠĠW":5606,"daĠheĠ":5607,"zheĠzaiĠ":5608,"piaoĠfangĠ":5609,"laĠjiĠ":5610,"ĠshiĠtuĠ":5611,"Ġ3ĠyueĠ":5612,"ĠyaoĠqiuĠ":5613,"wenĠxianĠ":5614,"luoĠjiĠ":5615,"feiĠzhouĠ":5616,"ĠĠĠxiaoĠ":5617,"lianĠrenĠ":5618,"ĠxiĠjuĠ":5619,"saĠsiĠ":5620,"ĠweiĠheĠ":5621,"anĠquan":5622,"Ġ2011ĠnianĠ":5623,"daoĠzhongĠ":5624,"zhuanĠxiangĠ":5625,"ĠfuĠjianĠ":5626,"kaoĠlvĠ":5627,"leĠĠĠ":5628,"sheĠjiĠdeĠ":5629,"wangĠchaoĠ":5630,"Ġnai":5631,"jieĠrenĠ":5632,"mingĠxianĠ":5633,"16Ġ":5634,"ĠweiĠwuĠ":5635,"ĠpanĠ":5636,"zhuĠzhangĠ":5637,"gongĠzhiĠ":5638,"ĠbuĠkeĠ":5639,"ĠxiĠbuĠ":5640,"zhengĠheĠ":5641,"tongĠdaoĠ":5642,"mĠĠĠ":5643,"Ġsun":5644,"ĠweiĠxingĠ":5645,"4ĠnianĠ":5646,"Ġmai":5647,"xuĠzaiĠ":5648,"biaoĠmianĠ":5649,"ĠnvĠxingĠ":5650,"ĠĠĠguoĠ":5651,"ĠÐ":5652,"kouĠweiĠ":5653,"meiĠguoĠdeĠ":5654,"lingĠdaoĠrenĠ":5655,"ĠjiaoĠyuĠ":5656,"ĠweiĠlaiĠ":5657,"biĠsai":5658,"qiĠzhongĠyiĠzhongĠ":5659,"Ġ2021":5660,"zhaoĠdaoĠ":5661,"huĠyuĠ":5662,"siĠlingĠ":5663,"1993ĠnianĠ":5664,"jingĠcha":5665,"fangĠwuĠ":5666,"hongĠseĠ":5667,"1988ĠnianĠ":5668,"ĠliĠmiĠ":5669,"ĠyuĠleĠ":5670,"yuanĠgongĠ":5671,"zuiĠhou":5672,"ĠshiĠweiĠleĠ":5673,"ĠdeĠzhiĠwuĠ":5674,"ĠĠĠcongĠ":5675,"hunĠyinĠ":5676,"yunĠdong":5677,"caiĠliaoĠ":5678,"ĠchengĠgongĠ":5679,"ĠsĠĠĠ":5680,"ĠweiĠhuiĠ":5681,"ĠxiĠya":5682,"ĠjiĠhuiĠ":5683,"Ġ2001ĠnianĠrenĠkouĠ":5684,"dongĠnanĠbuĠ":5685,"ĠnianĠqianĠ":5686,"ĠyouĠbuĠ":5687,"dongĠbeiĠbuĠ":5688,"Ġ2015":5689,"huaĠjiĠ":5690,"fenĠbuĠyuĠ":5691,"iĠ":5692,"junĠyuĠ":5693,"shouĠzhiĠ":5694,"ĠtuiĠ":5695,"fuĠzaiĠ":5696,"bianĠshiĠ":5697,"yingĠgaiĠ":5698,"ĠxingĠqiĠ":5699,"ĠĠĠ2012":5700,"tiĠzhiĠ":5701,"ĠrenĠshuĠ":5702,"daĠchenĠ":5703,"baoĠzhiĠ":5704,"ĠhanĠguoĠ":5705,"ĠĠĠV":5706,"siĠgeĠ":5707,"feiĠchuĠ":5708,"ĠtiĠgongĠ":5709,"Ġ2005ĠnianĠ":5710,"jinĠyouĠ":5711,"25Ġ":5712,"dianĠhuaĠ":5713,"geĠheĠ":5714,"ĠbuĠmenĠ":5715,"Ġzhong":5716,"baoĠyuĠ":5717,"ĠyiĠban":5718,"ĠMa":5719,"ruanĠjianĠ":5720,"saoĠ":5721,"ĠguanĠyuĠ":5722,"yuanĠxingĠ":5723,"wuĠtaiĠ":5724,"MĠ":5725,"lingĠdiĠ":5726,"chiĠyouĠ":5727,"duiĠzhangĠ":5728,"tuiĠjinĠ":5729,"zhuĠjueĠ":5730,"gengĠduoĠ":5731,"ĠyinĠerĠ":5732,"ĠsuiĠdeĠ":5733,"faĠxianĠleĠ":5734,"ĠnianĠdiĠ":5735,"Ġquan":5736,"chuĠlaiĠ":5737,"tiĠdaoĠ":5738,"yongĠzuoĠ":5739,"suoĠzaiĠ":5740,"zhengĠchangĠ":5741,"jueĠshiĠ":5742,"wuĠzhuangĠ":5743,"1ĠhaoĠ":5744,"guoĠjiĠjiĠ":5745,"meiĠdeĠ":5746,"yaĠliĠshanĠdaĠ":5747,"benĠdiĠ":5748,"bianĠxingĠ":5749,"EĠ":5750,"ĠdaĠchengĠ":5751,"guiĠdeĠ":5752,"ĠerĠshuiĠyuĠmianĠjiĠweiĠ0":5753,"riĠjunĠ":5754,"ĠzaoĠchengĠ":5755,"yinĠdiĠ":5756,"jiaoĠyouĠ":5757,"boĠsiĠ":5758,"douĠhuiĠ":5759,"poĠhuai":5760,"taiĠrenĠ":5761,"dongĠfangĠ":5762,"tongĠyangĠ":5763,"jiaoĠdaĠ":5764,"huoĠzheĠ":5765,"ĠpingĠfangĠmiĠ":5766,"ĠzaiĠjiaĠ":5767,"ĠdaĠliangĠ":5768,"haiĠwaiĠ":5769,"tuanĠdeĠ":5770,"reĠĠĠ":5771,"mingĠxingĠ":5772,"qingĠbaoĠ":5773,"anĠhuiĠ":5774,"neiĠyouĠ":5775,"duiĠwaiĠ":5776,"caoĠzuoĠ":5777,"jieĠshaoĠ":5778,"qianĠwang":5779,"Ġreng":5780,"ĠsuiĠzheĠ":5781,"Ġ2017":5782,"jieĠmu":5783,"yeĠhuiĠ":5784,"xiaĠyouĠ":5785,"ĠheĠpingĠ":5786,"ĠerĠgaiĠdiĠ":5787,"canĠmou":5788,"Ġ2020":5789,"Ġ2014":5790,"Ġdou":5791,"ĠĠĠzaoĠnianĠ":5792,"xiangĠyiĠ":5793,"onĠĠĠ":5794,"yongĠtuĠ":5795,"Ġ2013":5796,"qiangĠdeĠ":5797,"ĠyuĠheĠ":5798,"chuĠkouĠ":5799,"ĠyiĠduĠ":5800,"ĠzhiĠdingĠ":5801,"gaiĠshanĠ":5802,"aoĠyunĠhuiĠ":5803,"biaoĠdeĠ":5804,"laĠheĠ":5805,"18Ġ":5806,"ĠxiĠtong":5807,"ĠdeĠshiĠjieĠ":5808,"gaoĠjiaĠ":5809,"xiĠnanĠ":5810,"ĠyueĠnanĠ":5811,"duiĠxiangĠ":5812,"2ĠnianĠ":5813,"xianĠjinĠ":5814,"yanĠshenĠ":5815,"queĠzhenĠbingĠliĠ":5816,"dunĠdeĠ":5817,"ĠjiaĠnaĠdaĠ":5818,"ĠbaoĠhanĠ":5819,"meiĠliĠ":5820,"sanĠjiĠ":5821,"zuoĠquĠ":5822,"ĠshiĠdaĠ":5823,"leĠdaĠ":5824,"xiaoĠquĠ":5825,"junĠquĠ":5826,"dengĠshangĠ":5827,"Ġxiu":5828,"ĠshengĠyuĠ":5829,"zhengĠtiĠ":5830,"jiaĠzaiĠ":5831,"changĠyouĠ":5832,"leĠtaĠdeĠ":5833,"xiaĠxiaĠdeĠyiĠgeĠ":5834,"longĠjiangĠ":5835,"geĠlunĠ":5836,"ĠyeĠyouĠ":5837,"duoĠrenĠ":5838,"jueĠyiĠ":5839,"shuĠruĠ":5840,"haiĠxiaĠ":5841,"ĠdianĠyingĠ":5842,"guanĠshiĠ":5843,"suiĠzhuĠ":5844,"nieĠ":5845,"ĠxianĠrenĠ":5846,"yunĠshiĠ":5847,"ĠqiĠzaiĠ":5848,"yunĠzuoĠ":5849,"ĠriĠdeĠ":5850,"19ĠshiĠjiĠ":5851,"juĠyiĠ":5852,"13Ġ":5853,"ĠweiĠkeĠ":5854,"gouĠzaoĠ":5855,"banĠshiĠchuĠ":5856,"ĠerĠyanĠ":5857,"ĠnanĠzhiĠ":5858,"zhanĠzhiĠ":5859,"liuĠzaiĠ":5860,"ĠĠĠMa":5861,"ĠĠĠzengĠ":5862,"zuoĠrenĠ":5863,"dianĠcheĠ":5864,"ĠsaiĠjiĠ":5865,"faĠshouĠ":5866,"gaoĠsuĠgongĠluĠ":5867,"ĠnianĠlaiĠ":5868,"kangĠriĠ":5869,"shuĠyuanĠ":5870,"jiaĠyouĠ":5871,"duĠheĠ":5872,"feiĠliĠ":5873,"junĠguanĠ":5874,"miĠmiĠ":5875,"1990ĠnianĠ":5876,"kaiĠzhanĠ":5877,"ĠshiĠwuĠkeĠ":5878,"renĠdaĠ":5879,"ĠzhongĠzaiĠ":5880,"Ġ100":5881,"shangĠyuĠ":5882,"binĠhaiĠ":5883,"ĠdongĠlinĠ":5884,"Ġ2010":5885,"shenĠme":5886,"ĠwanĠmeiĠyuanĠ":5887,"ĠshaoĠ":5888,"xiaĠling":5889,"tianĠshiĠ":5890,"chuangĠjianĠ":5891,"jiangĠhuiĠ":5892,"liangĠciĠ":5893,"lingĠxiuĠ":5894,"zhuangĠbeiĠ":5895,"dongĠzuoĠ":5896,"Ġniu":5897,"chuanĠzhiĠ":5898,"chaiĠchuĠ":5899,"senĠlinĠ":5900,"ĠchengĠliĠ":5901,"shouĠyiĠ":5902,"ĠqiĠxiangĠ":5903,"shouĠzhangĠ":5904,"ĠtaiĠwan":5905,"caiĠzhengĠ":5906,"anĠdaĠ":5907,"yaĠkeĠ":5908,"biĠmianĠ":5909,"guĠliĠ":5910,"ĠqiĠziĠ":5911,"touĠpiao":5912,"shanĠquĠ":5913,"ĠzhengĠzhiĠ":5914,"huiĠyuanĠ":5915,"ĠĠĠsiĠ":5916,"ĠjuĠxingĠ":5917,"Ġpo":5918,"ĠjianĠyuĠ":5919,"beiĠshiĠweiĠ":5920,"tuĠxingĠ":5921,"qinĠziĠ":5922,"ĠerĠtongĠ":5923,"juĠqingĠ":5924,"kaĠluoĠ":5925,"Ġqi":5926,"ĠnianĠ1ĠyueĠ1ĠriĠ":5927,"shouĠluĠ":5928,"ĠhengĠ":5929,"wuĠsiĠ":5930,"ĠtaiĠyangĠ":5931,"zuiĠgao":5932,"houĠshiĠ":5933,"zheĠbuĠ":5934,"waiĠjiaoĠbuĠ":5935,"ĠyiĠmeiĠyuanĠ":5936,"dengĠdeĠ":5937,"liuĠdeĠ":5938,"ĠsiĠlingĠ":5939,"ceĠliangĠ":5940,"1989ĠnianĠ":5941,"jingĠxuanĠ":5942,"ĠmeiĠgeĠ":5943,"huiĠzhongĠ":5944,"zhangĠguanĠ":5945,"fanĠzuiĠ":5946,"ĠjieĠshouĠ":5947,"5ĠnianĠ":5948,"bĠ":5949,"banĠliĠ":5950,"Ġhuan":5951,"Ġ2007ĠnianĠ":5952,"ĠĠĠdangĠ":5953,"siĠyiĠ":5954,"fuĠweiĠ":5955,"suoĠshiĠ":5956,"bingĠruĠ":5957,"ĠyouĠkeĠ":5958,"xiangĠzhengĠ":5959,"ĠerĠziĠ":5960,"shouĠxiĠ":5961,"gengĠweiĠ":5962,"daiĠlaiĠ":5963,"mingĠzhongĠ":5964,"baoĠshouĠ":5965,"ĠdongĠbeiĠ":5966,"fanĠweiĠneiĠ":5967,"pianĠdeĠ":5968,"3ĠgeĠ":5969,"mianĠshiĠ":5970,"mengĠdeĠ":5971,"guoĠwangĠ":5972,"taiĠfengĠ":5973,"riĠzhiĠ":5974,"ĠerĠchengĠ":5975,"huĠnanĠ":5976,"Ġ2008ĠnianĠ":5977,"ĠqiĠxiaĠ":5978,"chuĠdaoĠ":5979,"zunĠ":5980,"ĠzaiĠduĠ":5981,"ĠsheĠhuiĠ":5982,"ĠyiĠhouĠ":5983,"ĠjieĠkeĠ":5984,"ĠshengĠhuoĠxiĠ":5985,"yanĠxiĠ":5986,"fangĠmianĠdeĠ":5987,"renĠliĠ":5988,"canĠyiĠyuanĠ":5989,"kaiĠtongĠ":5990,"ĠyongĠyouĠ":5991,"taiĠziĠ":5992,"junĠzhuĠ":5993,"qingĠchuĠ":5994,"dingĠjuĠ":5995,"gongĠzhuĠ":5996,"shengĠyinĠ":5997,"ĠsheĠyouĠ":5998,"huaĠheĠwuĠ":5999,"zhanĠqiĠjianĠ":6000,"Ġ2012":6001,"jinĠweiĠ":6002,"1984ĠnianĠ":6003,"zhouĠqiĠ":6004,"zuĠfuĠ":6005,"jianĠjieĠ":6006,"ĠsiĠwangĠ":6007,"liangĠjiĠ":6008,"piĠfuĠ":6009,"feiĠdeĠ":6010,"waiĠbuĠ":6011,"xiangĠhuĠ":6012,"yingĠyeĠ":6013,"guanĠchaĠ":6014,"xingĠbuĠmingĠ":6015,"duiĠyouĠ":6016,"zhuĠyaoĠdeĠ":6017,"leiĠdaĠ":6018,"duĠliĠdeĠ":6019,"Ġsha":6020,"Ġlao":6021,"ĠjuĠyouĠ":6022,"zhuanĠdeĠ":6023,"ĠÃ":6024,"ĠĠĠmingĠ":6025,"lvĠdeĠ":6026,"xiĠjuĠ":6027,"ĠcanĠjiaĠ":6028,"bingĠdeĠ":6029,"jiangĠjiĠ":6030,"erĠyueĠ":6031,"changĠzhiĠ":6032,"maĠlaĠ":6033,"gouĠmaiĠ":6034,"ĠshengĠhuoĠxiĠxingĠbuĠmingĠ":6035,"ĠyiĠdaiĠ":6036,"tianĠqiĠ":6037,"eĠĠĠ":6038,"queĠdeĠ":6039,"tongĠpaiĠ":6040,"xinĠyangĠ":6041,"niĠerĠ":6042,"ĠnianĠĠĠ":6043,"faĠxingĠdeĠ":6044,"zuoĠbiaoĠweiĠ":6045,"jiangĠlingĠ":6046,"touĠluĠ":6047,"jiuĠlongĠ":6048,"anĠzhuangĠ":6049,"ĠwuĠfaĠ":6050,"ĠĠĠbeiĠjingĠ":6051,"liangĠxiangĠ":6052,"jiaĠliĠfuĠ":6053,"xinĠxingĠ":6054,"huoĠshanĠ":6055,"zuĠzhiĠdeĠ":6056,"keĠnengĠshiĠ":6057,"jingĠzhongĠ":6058,"chengĠheĠ":6059,"guanĠjianĠ":6060,"taiĠbeiĠshiĠ":6061,"Ġdong":6062,"Ġxiao":6063,"ĠgongĠyouĠ":6064,"luĠjiĠ":6065,"jiuĠduĠ":6066,"ĠĠĠciĠwaiĠ":6067,"ĠyongĠyuĠ":6068,"jieĠsanĠ":6069,"ruĠqinĠ":6070,"ĠzhongĠshiĠ":6071,"kongĠqiĠ":6072,"ĠzaiĠci":6073,"ĠyueĠzhongĠ":6074,"liangĠzhiĠ":6075,"baiĠrenĠ":6076,"fangĠyanĠ":6077,"lunĠwenĠ":6078,"erĠzhiĠ":6079,"zhuĠyiĠdeĠ":6080,"ĠzhongĠguoĠdaĠluĠ":6081,"shangĠbuĠ":6082,"zheĠxie":6083,"chuanĠshuoĠ":6084,"keĠyiĠzaiĠ":6085,"1985ĠnianĠ":6086,"kaoĠguĠ":6087,"houĠbeiĠ":6088,"Ġcha":6089,"ĠchuĠxianĠ":6090,"Ġyang":6091,"quĠjiĠ":6092,"fuĠjinĠdeĠ":6093,"Ġ2009":6094,"zhangĠaiĠ":6095,"Ġkai":6096,"aiĠjiĠ":6097,"chuĠbuĠ":6098,"ĠyinĠqiĠ":6099,"oĠ":6100,"tongĠnianĠ":6101,"manĠdeĠ":6102,"jingĠfangĠ":6103,"ĠshiĠshiĠjieĠ":6104,"xinĠjiaĠpoĠ":6105,"ĠduanĠ":6106,"moĠsiĠkeĠ":6107,"ĠĠĠjuĠqingĠ":6108,"ĠcanĠyuĠ":6109,"lianĠzaiĠ":6110,"yuĠyanĠ":6111,"ĠbiĠruĠ":6112,"2ĠrenĠ":6113,"chengĠnianĠ":6114,"kaoĠjinĠ":6115,"3ĠrenĠ":6116,"ĠdiĠshiĠ":6117,"qianĠrenĠ":6118,"ĠweiĠciĠ":6119,"zhanĠtingĠ":6120,"guiĠzuĠ":6121,"1ĠliĠ":6122,"mingĠrenĠ":6123,"yunĠnanĠ":6124,"zhongĠdianĠ":6125,"zuoĠzheĠ":6126,"guangĠdongĠshengĠ":6127,"ĠshiĠriĠbenĠ":6128,"muĠqin":6129,"ĠqiĠshiĠ":6130,"ĠsiĠchuanĠ":6131,"ĠgongĠtongĠ":6132,"Ġ2008":6133,"quĠleĠ":6134,"zheĠweiĠ":6135,"ĠguoĠchengĠzhongĠ":6136,"baoĠzhangĠ":6137,"taiĠduĠ":6138,"ĠchuĠshengĠyuĠ":6139,"ĠteĠbieĠshiĠ":6140,"Ġ1949":6141,"Ġ2013ĠnianĠ":6142,"zhouĠjiĠ":6143,"gaoĠdaĠ":6144,"ĠrenĠmingĠ":6145,"zongĠshiĠ":6146,"ĠshiĠjiĠshangĠ":6147,"ĠĠĠben":6148,"yinĠqingĠ":6149,"changĠjianĠdeĠ":6150,"suoĠshuĠ":6151,"shuangĠfangĠ":6152,"quĠyiĠhuiĠ":6153,"yinĠheĠ":6154,"jiangĠzaiĠ":6155,"ĠyouĠciĠ":6156,"quanĠzhangĠ":6157,"xunĠyangĠ":6158,"faĠhuiĠ":6159,"ĠdiĠwuĠ":6160,"yingĠxiongĠ":6161,"Ġ50":6162,"huaĠyiĠ":6163,"xiuĠzhengĠ":6164,"huaĠzhiĠ":6165,"ganĠbuĠ":6166,"ĠshiĠdeĠguoĠ":6167,"fangĠyiĠ":6168,"youĠxianĠ":6169,"ĠqiĠxiĠ":6170,"leĠyuĠ":6171,"tiaoĠliĠ":6172,"ĠÎ":6173,"chuĠzaiĠ":6174,"ĠzengĠ":6175,"cuoĠwuĠ":6176,"ĠjiaĠtingĠ":6177,"chuĠyanĠ":6178,"ĠĠĠdiĠfangĠ":6179,"ĠguoĠhuiĠ":6180,"bianĠjuĠ":6181,"Ġcai":6182,"suiĠshiĠ":6183,"ĠyiĠxiaoĠshiĠ":6184,"ĠxueĠxiaoĠ":6185,"shengĠtaiĠ":6186,"ĠbingĠduĠ":6187,"shouĠxiangĠ":6188,"wanĠgongĠ":6189,"nengĠliangĠ":6190,"huĠbuĠ":6191,"banĠbuĠ":6192,"yuanĠzeĠ":6193,"faĠlanĠxiĠ":6194,"ĠwuĠkeĠlanĠ":6195,"Ġsu":6196,"laoĠdeĠ":6197,"ĠyueĠtuanĠ":6198,"zhouĠciĠshiĠ":6199,"taoĠtaiĠ":6200,"ĠĠĠqiĠtaĠ":6201,"shuĠliĠ":6202,"xiangĠguanĠdeĠ":6203,"Ġdui":6204,"chuĠzhiĠ":6205,"zuiĠyouĠ":6206,"fengĠweiĠ":6207,"luĠkouĠ":6208,"luĠyingĠ":6209,"qingĠhuaĠ":6210,"ĠwanĠyuanĠ":6211,"ĠĠĠ2010":6212,"ĠnianĠkaiĠshiĠ":6213,"ĠpingĠjunĠ":6214,"ĠĠĠdiĠerĠ":6215,"guĠfen":6216,"keĠdeĠqiĠzhongĠyiĠzhongĠ":6217,"ĠĠĠmeiĠguoĠ":6218,"huiĠbuĠ":6219,"ĠweiĠchiĠ":6220,"qingĠqiuĠ":6221,"zhiĠdeĠshiĠ":6222,"faĠguanĠ":6223,"yaoĠqiu":6224,"dangĠdiĠdeĠ":6225,"kaiĠsheĠ":6226,"heĠĠĠ":6227,"huanĠchengĠ":6228,"30Ġ":6229,"ĠzhongĠhuaĠrenĠminĠgongĠheĠguoĠzhengĠzhiĠrenĠwuĠ":6230,"rĠĠĠ":6231,"siĠzhiĠ":6232,"ĠjiĠnian":6233,"ĠheĠxinĠ":6234,"huoĠxingĠ":6235,"gaiĠchengĠ":6236,"ĠshiĠyong":6237,"ĠĠĠdanĠ":6238,"lingĠrenĠ":6239,"heĠxinĠ":6240,"Ġ2022":6241,"hanĠyouĠ":6242,"henĠdaĠ":6243,"ĠheĠzhongĠ":6244,"meiĠshuĠ":6245,"daoĠbuĠ":6246,"hanĠyuĠ":6247,"zhuangĠjiĠ":6248,"cuiĠhuiĠ":6249,"luĠkeĠ":6250,"ĠshiĠgeĠ":6251,"chengĠkeĠ":6252,"ĠwanĠjiaĠ":6253,"paiĠmingĠdiĠ":6254,"xiaĠweiĠ":6255,"ĠĠĠ2011":6256,"qiangĠdiaoĠ":6257,"Ġ2006ĠnianĠ":6258,"enĠshengĠ":6259,"dangĠweiĠ":6260,"ĠmaiĠkeĠ":6261,"zhengĠweiĠ":6262,"xiĠlaĠ":6263,"yaĠjunĠ":6264,"Ġxiong":6265,"yuanĠzhongĠ":6266,"beiĠweiĠ":6267,"ĠyiĠzuoĠ":6268,"zuiĠgaoĠdeĠ":6269,"tianĠjingĠ":6270,"niĠyaĠzhouĠ":6271,"nengĠzaiĠ":6272,"gongĠyingĠ":6273,"ĠhenĠ":6274,"jiĠĠĠ":6275,"xiaĠquĠ":6276,"suoĠchuĠdeĠ":6277,"canĠkaoĠ":6278,"yaĠyiĠ":6279,"chengĠbenĠ":6280,"dangĠjuĠ":6281,"tiĠyuĠchangĠ":6282,"6ĠnianĠ":6283,"xieĠerĠ":6284,"shangĠhaiĠshiĠ":6285,"shengĠyouĠ":6286,"suoĠzhiĠ":6287,"14Ġ":6288,"ĠjiĠbuĠ":6289,"tuĠpoĠ":6290,"ĠyeĠjiuĠshiĠ":6291,"ĠAĠ":6292,"ĠdaĠduoĠ":6293,"teĠdingĠ":6294,"dengĠdengĠ":6295,"kunĠnanĠ":6296,"renĠyuanĠ":6297,"ĠdaĠxingĠ":6298,"yinĠruĠ":6299,"aĠlaĠboĠ":6300,"Ġqing":6301,"taiĠzhongĠ":6302,"baiĠdeĠ":6303,"xieĠdaoĠ":6304,"nĠĠĠ":6305,"xiangĠyouĠ":6306,"fouĠ":6307,"ĠyiĠfuĠ":6308,"Ġmeng":6309,"ĠwenĠhuaĠ":6310,"jingĠzhiĠ":6311,"ĠjiĠduĠ":6312,"keĠxueĠyuanĠ":6313,"tanĠdeĠ":6314,"shunĠliĠ":6315,"huoĠbanĠ":6316,"fenĠbuĠzaiĠ":6317,"7ĠnianĠ":6318,"huanĠdeĠ":6319,"xiuĠfuĠ":6320,"xianĠshengĠ":6321,"ĠdaĠfuĠ":6322,"laĠdingĠ":6323,"ĠsuiĠzhuĠ":6324,"xiĠbaoĠ":6325,"zhanĠxianĠ":6326,"ĠĠĠ1Ġ":6327,"chengĠguoĠ":6328,"leĠqiĠ":6329,"junĠzhiĠ":6330,"qingĠxingĠ":6331,"ĠxiĠbanĠyaĠ":6332,"ĠĠĠ3":6333,"xiangĠweiĠ":6334,"laiĠshiĠ":6335,"daĠhuiĠ":6336,"ĠxiangĠnianĠ":6337,"ĠĠĠaĠ":6338,"wangĠyuanĠ":6339,"ĠxiĠerĠ":6340,"ruĠqin":6341,"ĠbuĠjinĠ":6342,"ĠkeĠerĠ":6343,"Ġ2012ĠnianĠ":6344,"wuĠziĠ":6345,"duoĠweiĠ":6346,"chuanĠdeĠ":6347,"haiĠyangĠ":6348,"jingĠheĠ":6349,"xiaoĠyuanĠ":6350,"kaiĠfa":6351,"zhongĠguoĠdaĠluĠdeĠ":6352,"keĠyouĠ":6353,"haiĠpingĠmianĠ":6354,"gaiĠshiĠ":6355,"suoĠweiĠ":6356,"xiuĠjianĠ":6357,"shengĠchuĠ":6358,"ĠtaĠcengĠdaiĠbiaoĠ":6359,"ganĠranĠzheĠ":6360,"ĠheĠlanĠ":6361,"tongĠmengĠ":6362,"qiangĠlieĠ":6363,"heiĠseĠ":6364,"wĠ":6365,"zeĠzaiĠ":6366,"ĠriĠjunĠ":6367,"1ĠrenĠ":6368,"ĠĠĠyinĠ":6369,"xueĠyuĠ":6370,"laiĠyueĠ":6371,"1980ĠnianĠ":6372,"ĠzuĠfuĠ":6373,"Ġ00Ġ":6374,"hongĠzha":6375,"ciĠshiĠjieĠdaĠzhanĠ":6376,"jiaĠweiĠ":6377,"taiĠyuĠ":6378,"zuiĠweiĠ":6379,"shouĠgouĠ":6380,"zhaoĠpianĠ":6381,"leĠzaiĠ":6382,"yinĠliĠ":6383,"chuiĠ":6384,"yaĠmeiĠ":6385,"ĠU":6386,"zhouĠzhiĠ":6387,"zhenĠyuĠ":6388,"jingĠyiĠ":6389,"guĠdaiĠ":6390,"geiĠleĠ":6391,"liĠyuĠ":6392,"zhuĠzhiĠ":6393,"jiangĠzhiĠ":6394,"zuĠyiĠ":6395,"huangĠhouĠ":6396,"1986ĠnianĠ":6397,"renĠleiĠ":6398,"dangĠyuanĠ":6399,"ĠtongĠshiĠgaiĠdiĠ":6400,"4ĠrenĠ":6401,"ĠĠĠ17":6402,"beiĠyuĠ":6403,"zhangĠweiĠ":6404,"teĠxingĠ":6405,"daĠjiangĠ":6406,"ĠdeĠjiĠchuĠ":6407,"ĠguangĠdongĠ":6408,"houĠweiĠ":6409,"dingĠqiĠ":6410,"ceĠĠĠ":6411,"manĠzuĠ":6412,"ĠliaoĠ":6413,"zuĠqiuĠyunĠdongĠyuanĠ":6414,"boĠshiĠxueĠweiĠ":6415,"4ĠgeĠ":6416,"ĠkuĠ":6417,"qiangĠzhiĠ":6418,"bengĠ":6419,"beiĠjingĠshiĠ":6420,"shangĠchangĠ":6421,"nongĠminĠ":6422,"neiĠluĠshengĠfenĠ":6423,"xiangĠheĠ":6424,"jiaoĠzhiĠ":6425,"liangĠguoĠ":6426,"chengĠbaoĠ":6427,"jiuĠhuiĠ":6428,"benĠshenĠ":6429,"chengĠshiĠdeĠ":6430,"zhenĠjiĠ":6431,"keĠfuĠ":6432,"ĠhuoĠzheĠ":6433,"ĠaĠerĠ":6434,"chuĠyouĠ":6435,"bangĠdeĠ":6436,"ĠtieĠ":6437,"stĠĠĠ":6438,"ĠzhongĠziĠ":6439,"xunĠzhangĠ":6440,"chuangĠbanĠ":6441,"xiaĠlingĠshiĠjianĠ":6442,"Ġpu":6443,"tongĠweiĠ":6444,"jingĠzaiĠ":6445,"duanĠshiĠ":6446,"ĠZ":6447,"moĠsiĠ":6448,"ĠzhiĠyiĠ":6449,"leĠyouĠ":6450,"bianĠhaoĠ":6451,"ĠmuĠqian":6452,"ĠbuĠdiĠ":6453,"keĠzhiĠ":6454,"kuoĠzhanĠ":6455,"ĠmeiĠnianĠ":6456,"riĠdeĠ":6457,"tangĠdeĠ":6458,"ĠrenĠqiĠ":6459,"xiangĠxinĠ":6460,"luĠxuĠ":6461,"minĠdiĠ":6462,"shangĠxiaĠ":6463,"jiuĠyiĠ":6464,"zaoĠzaiĠ":6465,"diĠqiuĠ":6466,"Ġdi":6467,"19Ġ":6468,"woĠdeĠ":6469,"ĠbuĠluoĠ":6470,"wuĠdaoĠ":6471,"taĠweiĠ":6472,"junĠheĠ":6473,"wanĠdeĠ":6474,"juĠdaĠ":6475,"ĠĠĠjianĠjieĠ":6476,"Ġ10Ġ":6477,"muĠzhiĠ":6478,"ĠjiĠfuĠ":6479,"renĠgongĠ":6480,"ĠĠĠ2":6481,"gaoĠzhiĠ":6482,"fanĠzhiĠ":6483,"xuanĠdeĠ":6484,"xiĠwangĠ":6485,"geĠming":6486,"tianĠtiĠ":6487,"weiĠyiĠyiĠ":6488,"ĠkanĠ":6489,"ĠĠĠjieĠ":6490,"chiĠrenĠ":6491,"muĠniĠ":6492,"Ġ500":6493,"1945ĠnianĠ":6494,"wuĠzhengĠzhuangĠ":6495,"ĠqiĠcheĠ":6496,"zheĠxueĠ":6497,"suoĠyouĠdeĠ":6498,"tanĠpanĠ":6499,"ĠshiĠyiĠgeĠweiĠyuĠ":6500,"huiĠguoĠ":6501,"nanĠfangĠ":6502,"liangĠmingĠ":6503,"miĠyaĠ":6504,"ĠxianĠhouĠ":6505,"ziĠzhongĠ":6506,"Ġ1950":6507,"quĠzhiĠ":6508,"xiĠyaĠ":6509,"jiangĠjinĠ":6510,"yueĠnanĠ":6511,"ĠĠĠdiĠfangĠziĠliaoĠ":6512,"dianĠheĠ":6513,"yaĠheĠ":6514,"rongĠheĠ":6515,"xiangĠbiĠ":6516,"shaĠhaiĠ":6517,"Ġ2014ĠnianĠ":6518,"ĠĠĠ2Ġ":6519,"feiĠerĠ":6520,"fengĠfuĠ":6521,"wenĠduĠ":6522,"diĠyiĠweiĠ":6523,"yanĠyuĠ":6524,"bingĠyiĠ":6525,"lingĠyiĠgeĠ":6526,"ĠwaĠ":6527,"duiĠciĠ":6528,"Ġni":6529,"Ġsong":6530,"daiĠshiĠ":6531,"pingĠdeĠ":6532,"nuoĠfuĠ":6533,"ĠguoĠquĠ":6534,"fangĠjianĠ":6535,"ziĠzaiĠ":6536,"chuĠshouĠ":6537,"yinĠpaiĠ":6538,"changĠjianĠ":6539,"aoĠzhouĠ":6540,"hĠ":6541,"ĠjiuĠshiĠ":6542,"cengĠweiĠ":6543,"gaoĠxiong":6544,"paiĠhangĠ":6545,"ĠyiĠsiĠlanĠ":6546,"yeĠjiĠ":6547,"ĠyiĠwuĠ":6548,"shenĠduĠ":6549,"liangĠnianĠ":6550,"ĠnianĠweiĠ":6551,"qinĠwangĠ":6552,"sanĠjiaĠ":6553,"nvĠzhuĠ":6554,"Ġ0Ġ":6555,"ĠĠĠyingĠ":6556,"zhouĠheĠ":6557,"xiuĠdeĠ":6558,"1987ĠnianĠ":6559,"naĠcui":6560,"guanĠliĠjuĠ":6561,"dingĠshiĠ":6562,"daĠxiĠyangĠ":6563,"Ġxu":6564,"haoĠshiĠ":6565,"haiĠbaĠweiĠ":6566,"ĠruoĠ":6567,"tiĠweiĠ":6568,"ĠjiĠhouĠ":6569,"ĠkeĠxiĠ":6570,"shanĠfengĠ":6571,"zhengĠce":6572,"tongĠmingĠ":6573,"ĠjiaĠzuĠ":6574,"dongĠshiĠzhangĠ":6575,"yeĠyiĠ":6576,"peiĠzhiĠ":6577,"zouĠxiangĠ":6578,"ĠyouĠzhongĠ":6579,"xiaoĠfangĠ":6580,"zaiĠliĠ":6581,"zhuĠweiĠ":6582,"liangĠdaĠ":6583,"ĠxiĠlie":6584,"suoĠcaiĠyong":6585,"ĠbingĠweiĠ":6586,"LĠ":6587,"jieĠzhongĠ":6588,"ĠbuĠduanĠ":6589,"ĠshiĠyiĠbuĠ":6590,"hanĠdeĠ":6591,"huanĠzheĠ":6592,"ĠbuĠerĠ":6593,"ĠdaĠduoĠshuĠ":6594,"gaiĠzaoĠ":6595,"nengĠyuanĠ":6596,"leĠzhongĠ":6597,"ĠgenĠ":6598,"huĠweiĠ":6599,"junĠrenĠ":6600,"1983ĠnianĠ":6601,"zhanĠlve":6602,"kaoĠlv":6603,"ĠxiaoĠshiĠ":6604,"shouĠrenĠ":6605,"1982ĠnianĠ":6606,"zhiĠshiĠqiĠ":6607,"Ġku":6608,"wenĠzhongĠ":6609,"mangĠ":6610,"zhanĠlanĠ":6611,"gongĠchengĠshiĠ":6612,"jieĠtiĠ":6613,"ĠĠĠIn":6614,"junĠzhongĠ":6615,"ganĠranĠ":6616,"baĠheĠ":6617,"manĠdiĠ":6618,"ĠshiĠyeĠ":6619,"erĠtongĠ":6620,"guĠdingĠ":6621,"mengĠgu":6622,"Ġ40":6623,"ĠĠĠjingĠ":6624,"ĠzaiĠyouĠ":6625,"geĠjuĠ":6626,"taiĠheĠ":6627,"Ġcn":6628,"leĠzheĠ":6629,"huanĠxingĠ":6630,"ĠguoĠneiĠ":6631,"ĠweiĠyuĠgaiĠ":6632,"lunĠshiĠ":6633,"zhengĠxie":6634,"shangĠshengĠ":6635,"boĠlinĠ":6636,"geĠyuĠ":6637,"jieĠliĠ":6638,"huiĠyiĠyuanĠ":6639,"jueĠduiĠ":6640,"gongĠliĠdeĠ":6641,"kouĠdeĠ":6642,"ĠerĠfeiĠ":6643,"muĠqian":6644,"diaoĠkuai":6645,"aiĠerĠlanĠ":6646,"daoĠweiĠ":6647,"xiaoĠfeiĠ":6648,"xiaĠlingĠ":6649,"ĠfuĠqinĠ":6650,"ĠdeĠyiĠshuĠ":6651,"mianĠduiĠ":6652,"ĠdongĠnanĠ":6653,"ĠweiĠUTCĠ":6654,"shengĠdiĠ":6655,"zhuĠyiĠzheĠ":6656,"lianĠheĠhuiĠ":6657,"yanĠhaiĠ":6658,"kaiĠshiĠshiĠ":6659,"xiongĠyaĠliĠ":6660,"ĠcnĠ":6661,"Ġluo":6662,"ĠĠĠzhengĠ":6663,"ĠĠĠmaĠ":6664,"ĠĠĠjiaoĠtongĠ":6665,"zhuĠheĠ":6666,"wenĠheĠ":6667,"ĠerĠqiĠ":6668,"zhouĠyiĠ":6669,"sanĠweiĠ":6670,"sanĠdaĠ":6671,"ziĠshenĠ":6672,"diaoĠkuaiĠyiĠxiaoĠshiĠ":6673,"chengĠyouĠ":6674,"chongĠjiĠ":6675,"guoĠhuiĠ":6676,"liuĠxiaĠ":6677,"Ġchi":6678,"laoĠshiĠ":6679,"ĠjiĠUTCĠ":6680,"paiĠqianĠ":6681,"ĠmeiĠyuanĠ":6682,"sheĠyouĠxiaĠlingĠshiĠjianĠ":6683,"ĠlingĠyouĠ":6684,"ĠdeĠshiĠquĠweiĠUTCĠ":6685,"ĠerĠgaiĠdiĠsuoĠcaiĠyong":6686,"ĠtongĠshiĠgaiĠdiĠsheĠyouĠxiaĠlingĠshiĠjianĠ":6687,"ĠerĠgaiĠdiĠsuoĠcaiĠyongĠdeĠshiĠquĠweiĠUTCĠ":6688,"shuĠrenĠ":6689,"zhangĠyueĠ":6690,"jingĠgaoĠ":6691,"nanĠhaiĠ":6692,"NĠ":6693,"chuangĠzaoĠ":6694,"jianĠliĠleĠ":6695,"ĠwanĠliĠ":6696,"miĠshuĠzhangĠ":6697,"xiangĠtongĠdeĠ":6698,"bingĠfeiĠ":6699,"ĠgeĠquĠ":6700,"guanĠheĠ":6701,"caiĠdeĠ":6702,"biĠyeĠhouĠ":6703,"gaoĠyuĠhaiĠpingĠmianĠ":6704,"dangĠjiĠ":6705,"qunĠzhongĠ":6706,"GĠ":6707,"ruĠdeĠ":6708,"ĠqiĠfuĠ":6709,"ĠshiĠbeiĠ":6710,"quĠdeĠmianĠjiĠweiĠ":6711,"haiĠbaĠweiĠgaoĠyuĠhaiĠpingĠmianĠ":6712,"zhangĠheĠ":6713,"jinĠxingĠdeĠ":6714,"gaiĠmingĠweiĠ":6715,"Ġge":6716,"ĠziĠyouĠ":6717,"faĠzhiĠ":6718,"xuanĠzhongĠ":6719,"jingĠduĠ":6720,"changĠsuoĠ":6721,"lieĠruĠ":6722,"tanĠxianĠ":6723,"ĠzhongĠshanĠ":6724,"daĠbuĠfen":6725,"guanĠcha":6726,"ĠqiĠzhongĠbaoĠkuoĠ":6727,"ĠrongĠ":6728,"ĠshuoĠ":6729,"zhanĠyuĠ":6730,"buĠshiĠquĠ":6731,"1ĠnianĠ":6732,"fangĠjiĠ":6733,"daĠlouĠ":6734,"8ĠnianĠ":6735,"daĠyiĠ":6736,"ĠyueĠyiĠ":6737,"Ġshuang":6738,"ĠshanĠxiĠ":6739,"ĠĠĠ4":6740,"shangĠdiĠ":6741,"chaoĠyueĠ":6742,"huaĠjiaĠ":6743,"biaoĠbenĠ":6744,"ĠhuoĠdongĠ":6745,"Ġsa":6746,"Ġ2025":6747,"Ġ2015ĠnianĠ":6748,"pingĠguĠ":6749,"ĠĠĠyanĠ":6750,"tiaoĠjieĠ":6751,"zhangĠfuĠ":6752,"cunĠluoĠ":6753,"shouĠxianĠ":6754,"tuĠjingĠ":6755,"yiĠshiĠdeĠ":6756,"teĠjiĠ":6757,"suoĠzaiĠdiĠ":6758,"bianĠyiĠ":6759,"douĠzaiĠ":6760,"kaiĠshiĠzaiĠ":6761,"ĠluoĠmaĠ":6762,"ĠdaĠluĠ":6763,"cheĠxiangĠ":6764,"KĠ":6765,"liĠdeĠ":6766,"benĠrenĠ":6767,"banĠben":6768,"2ĠgeĠ":6769,"gongĠweiĠ":6770,"gongĠneng":6771,"suoĠchuĠdeĠhaiĠbaĠweiĠgaoĠyuĠhaiĠpingĠmianĠ":6772,"ĠĠĠRe":6773,"changĠjingĠ":6774,"danĠbaiĠ":6775,"feiĠerĠdeĠ":6776,"ĠbuĠxiangĠ":6777,"qianĠdingĠ":6778,"sheĠxianĠ":6779,"dengĠzhiĠ":6780,"duanĠshiĠjianĠ":6781,"ĠzaiĠtaĠ":6782,"tuiĠxiuĠ":6783,"xiaoĠyuĠ":6784,"laiĠsiĠ":6785,"yangĠjiĠ":6786,"seĠfuĠ":6787,"jianĠkangĠ":6788,"ĠerĠbuĠshiĠ":6789,"luoĠfaĠ":6790,"ĠerĠdeĠ":6791,"ĠĠĠanĠ":6792,"sanĠrenĠ":6793,"huiĠguiĠ":6794,"tiĠxingĠ":6795,"2ĠhaoĠ":6796,"yinĠxiangĠ":6797,"shenĠhuaĠ":6798,"ĠdeĠjiĠluĠ":6799,"ouĠxiangĠ":6800,"ĠĠĠI":6801,"yanĠrenĠ":6802,"yongĠleĠ":6803,"yanĠheĠ":6804,"caiĠnengĠ":6805,"ĠkouĠ":6806,"juĠleĠ":6807,"quĠzhuĠ":6808,"naĠxieĠ":6809,"ĠsuiĠshiĠ":6810,"yinĠyuĠ":6811,"zuĠqiuĠduiĠ":6812,"mianĠyiĠ":6813,"shuaiĠlingĠ":6814,"ĠqiĠxuanĠ":6815,"diĠxiaĠ":6816,"zuĠcheng":6817,"boĠlan":6818,"ĠyiĠshengĠ":6819,"ĠluĠwa":6820,"keĠnengĠhuiĠ":6821,"ĠheĠdaoĠ":6822,"canĠxuanĠ":6823,"ĠĠĠdiĠyiĠ":6824,"chuĠzhongĠ":6825,"kongĠxiĠ":6826,"ĠnianĠshiĠjieĠ":6827,"quanĠyiĠ":6828,"lianĠluoĠ":6829,"huĠxiangĠ":6830,"Ġ2023":6831,"qingĠjieĠ":6832,"danĠshiĠ":6833,"zhouĠliĠ":6834,"ĠzhongĠgongĠzhongĠyangĠ":6835,"changĠshangĠ":6836,"Ġ2016ĠnianĠ":6837,"tuĠjiĠ":6838,"zaiĠyiĠqiĠ":6839,"9ĠnianĠ":6840,"yanĠzhongĠdeĠ":6841,"ĠyuĠbeiĠ":6842,"ĠmaĠlai":6843,"ĠchaoĠxianĠ":6844,"guanĠyiĠ":6845,"muĠerĠ":6846,"kaiĠdeĠ":6847,"ĠshouĠciĠ":6848,"Ġ2007":6849,"ĠĠĠmeiĠ":6850,"shuĠbuĠ":6851,"faĠyiĠ":6852,"dingĠliĠ":6853,"duiĠyingĠ":6854,"zhenĠquĠdeĠmianĠjiĠweiĠ":6855,"tiĠgongĠleĠ":6856,"HĠ":6857,"Ġhei":6858,"ĠĠĠ2008":6859,"ĠzhiĠshuĠ":6860,"ziĠchanĠ":6861,"faĠshengĠzaiĠ":6862,"ĠshouĠdaoĠ":6863,"zhongĠyiĠyuanĠ":6864,"zhuĠzhongĠ":6865,"daiĠweiĠ":6866,"neiĠdiĠ":6867,"ĠĠĠxingĠ":6868,"queĠshiĠ":6869,"1978ĠnianĠ":6870,"ĠyuĠxiĠ":6871,"heĠliuĠ":6872,"fuĠxingĠ":6873,"xianĠzhuĠ":6874,"beiĠsiĠ":6875,"yanĠseĠ":6876,"zuĠqiuĠjuĠleĠbuĠ":6877,"qianĠxiĠ":6878,"kaoĠshiĠ":6879,"diĠquĠdeĠ":6880,"geĠguoĠ":6881,"zhengĠbianĠ":6882,"baoĠluoĠ":6883,"zuiĠduoĠ":6884,"suĠgeĠlanĠ":6885,"tiĠheĠ":6886,"shangĠjiĠ":6887,"yanĠjiĠ":6888,"sheĠzaiĠ":6889,"ziĠxun":6890,"mianĠfeiĠ":6891,"muĠsiĠlinĠ":6892,"daiĠlingĠ":6893,"zhuanĠmenĠ":6894,"kaĠlaĠ":6895,"ruĠweiĠ":6896,"ĠshiĠjiaĠ":6897,"ĠyuanĠmingĠ":6898,"shenĠyiĠ":6899,"wuĠguanĠ":6900,"guanĠceĠ":6901,"sheĠjiĠshiĠ":6902,"Ġ2ĠyueĠ":6903,"sanĠbuĠ":6904,"zhongĠyao":6905,"beiĠfangĠ":6906,"baoĠcunĠ":6907,"zhongĠguoĠdaĠluĠ":6908,"qianĠyueĠ":6909,"ĠbuĠlaĠ":6910,"feiĠyanĠ":6911,"zaoĠshangĠ":6912,"ĠdunĠ":6913,"mianĠdianĠ":6914,"Ġlv":6915,"Ġkan":6916,"yangĠxingĠ":6917,"cengĠdeĠ":6918,"ĠlunĠ":6919,"ĠĠĠran":6920,"xueĠzhongĠ":6921,"Ġ24":6922,"chuĠweiĠ":6923,"bingĠyuĠ":6924,"qingĠrenĠ":6925,"pingĠguoĠ":6926,"tuiĠjianĠ":6927,"liaoĠdeĠ":6928,"quanĠxianĠ":6929,"Ġs":6930,"guoĠneiĠ":6931,"chuanĠtongĠdeĠ":6932,"ĠbeiĠchengĠweiĠ":6933,"juĠfengĠ":6934,"gengĠxinĠ":6935,"Ġshao":6936,"ĠlianĠheĠ":6937,"ĠjueĠdingĠ":6938,"ĠĠĠgongĠ":6939,"duoĠnianĠ":6940,"langĠzhongĠ":6941,"diĠwuĠ":6942,"tianĠhouĠ":6943,"ĠxiangĠguanĠ":6944,"shuĠzaiĠ":6945,"gaoĠshiĠ":6946,"pianĠzhongĠ":6947,"tongĠxunĠ":6948,"wanĠzhengĠ":6949,"huaĠzaiĠ":6950,"bianĠjingĠ":6951,"shanĠxianĠ":6952,"fengĠdeĠ":6953,"miaoĠhuiĠ":6954,"yuanĠxianĠ":6955,"shouĠquanĠ":6956,"xieĠzuoĠ":6957,"zanĠzhuĠ":6958,"chengĠzaiĠ":6959,"leĠdeĠ":6960,"ĠliĠchengĠ":6961,"guiĠmo":6962,"juĠzaiĠ":6963,"muĠyuĠ":6964,"baĠdaĠ":6965,"baĠsiĠ":6966,"jueĠyuĠ":6967,"geĠlaĠ":6968,"faĠmingĠ":6969,"luoĠshanĠjiĠ":6970,"Ġ2019ĠnianĠ":6971,"ĠĠĠrenĠ":6972,"tuĠshuĠ":6973,"liĠziĠ":6974,"Ã©Ġ":6975,"xingĠmuĠ":6976,"ĠdiĠqiuĠ":6977,"Ġpeng":6978,"ĠzhiĠwaiĠ":6979,"zhangĠzhuanĠjiĠ":6980,"ĠzuiĠgaoĠ":6981,"ĠbiĠsaiĠ":6982,"7ĠrenĠ":6983,"alĠĠĠ":6984,"xianĠruĠ":6985,"jinĠriĠ":6986,"shuangĠdaĠ":6987,"tunĠ":6988,"quĠjianĠ":6989,"xingĠzaiĠ":6990,"xianĠzhongĠ":6991,"fuĠzhuĠ":6992,"cheĠchangĠ":6993,"beiĠrenĠmingĠweiĠ":6994,"yinĠyue":6995,"zhouĠrenĠ":6996,"ĠshiĠtaĠ":6997,"Ġ28":6998,"duiĠzhongĠ":6999,"ĠshiĠerĠ":7000,"ĠshanĠdongĠ":7001,"guoĠminĠdangĠ":7002,"ĠdianĠshiĠ":7003,"liangĠheĠ":7004,"ĠyouĠzaiĠ":7005,"pingĠlun":7006,"jiuĠyuanĠ":7007,"Ġ7Ġ":7008,"ĠdeĠshiĠyongĠ":7009,"Ġsang":7010,"jiangĠyiĠ":7011,"gaiĠzhiĠweiĠ":7012,"bianĠzhiĠ":7013,"ĠshiĠchengĠ":7014,"ĠliĠliangĠ":7015,"chuĠzhangĠ":7016,"linĠsiĠ":7017,"stĠ":7018,"juĠbenĠ":7019,"jiaoĠduĠ":7020,"tianĠzhuĠ":7021,"ĠzuĠzhiĠ":7022,"Ġ2017ĠnianĠ":7023,"luoĠliĠdaĠ":7024,"ĠdiĠdiĠ":7025,"xiaoĠyingĠ":7026,"1958ĠnianĠ":7027,"piĠzhun":7028,"ĠzaĠzhiĠ":7029,"ĠĠĠdongĠ":7030,"suĠliĠ":7031,"shangĠxianĠ":7032,"zaoĠchengĠdeĠ":7033,"ĠshiĠjianĠzhuĠ":7034,"Ġtang":7035,"ĠhangĠ":7036,"ĠĠĠ1":7037,"banĠjiĠ":7038,"shouĠboĠ":7039,"zhangĠziĠ":7040,"huĠlianĠ":7041,"Ġ2018ĠnianĠ":7042,"ĠnuoĠ":7043,"aoĠerĠ":7044,"ĠĠĠnanĠ":7045,"tionĠ":7046,"zhanĠmuĠsiĠ":7047,"aiĠliĠ":7048,"ĠĠĠbaĠ":7049,"1979ĠnianĠ":7050,"fuĠshuĠ":7051,"ĠĠĠduiĠ":7052,"yunĠdeĠ":7053,"touĠxianĠ":7054,"1972ĠnianĠ":7055,"luĠzhanĠ":7056,"ĠhouĠzheĠ":7057,"ĠhuoĠshiĠ":7058,"ĠĠĠgeĠrenĠ":7059,"dingĠjiĠ":7060,"ĠweiĠbeiĠ":7061,"yunĠyongĠ":7062,"ĠpuĠtaoĠ":7063,"baĠerĠ":7064,"maĠshiĠ":7065,"huaiĠyiĠ":7066,"xiaĠzaiĠ":7067,"xuĠjiĠ":7068,"ĠyiĠdongĠ":7069,"ĠweiĠyuĠzhongĠguoĠ":7070,"guanĠjiĠ":7071,"baoĠhu":7072,"ĠyingĠwenĠ":7073,"canĠyiĠ":7074,"huoĠcheĠ":7075,"qiangĠduĠ":7076,"ĠciĠnianĠ":7077,"chaiĠ":7078,"ĠdiĠyaĠ":7079,"miĠniĠ":7080,"ĠaiĠerĠ":7081,"shaoĠdeĠ":7082,"ĠzhiĠbuĠ":7083,"xinĠguanĠ":7084,"huoĠbiĠ":7085,"ĠxuĠyaoĠ":7086,"ĠchunĠ":7087,"zhaĠdanĠ":7088,"cuĠ":7089,"jiaoĠchaĠ":7090,"leiĠsiĠdeĠ":7091,"chuanĠmeiĠ":7092,"juĠbanĠdeĠ":7093,"minĠzu":7094,"ĠgaiĠbianĠ":7095,"ĠyanĠjiuĠ":7096,"daoĠzaiĠ":7097,"luoĠshiĠ":7098,"xueĠkeĠ":7099,"5ĠrenĠ":7100,"17Ġ":7101,"diĠqiĠ":7102,"bingĠduĠ":7103,"ĠxinĠwenĠ":7104,"xingĠzhengĠquĠ":7105,"ĠĠĠ2009":7106,"naĠxiaĠ":7107,"ĠmingĠzhiĠ":7108,"ĠĠĠzengĠzuĠ":7109,"lieĠshiĠ":7110,"ĠzhongĠxingĠ":7111,"xiĠnanĠbuĠ":7112,"taiĠhouĠ":7113,"zuiĠzao":7114,"wuĠyueĠ":7115,"zhengĠjiĠ":7116,"ĠshiĠyiĠkeĠ":7117,"xinĠjiaĠpo":7118,"yaoĠshiĠ":7119,"pinĠdeĠ":7120,"ganĠyuĠ":7121,"xiangĠfaĠ":7122,"tiĠchuĠdeĠ":7123,"canĠtingĠ":7124,"Ġ35":7125,"faĠliĠ":7126,"luoĠyuĠ":7127,"ĠdaĠbuĠfen":7128,"ĠrenĠweiĠshiĠ":7129,"juĠban":7130,"taiĠkongĠ":7131,"Ġ2006":7132,"xiĠyouĠ":7133,"chuĠguoĠ":7134,"xueĠliĠ":7135,"zheĠheĠ":7136,"baiĠyuĠ":7137,"jueĠsai":7138,"ĠshiĠshiĠyongĠ":7139,"zongĠyiĠ":7140,"zongĠrenĠkouĠ":7141,"teĠquĠ":7142,"qingĠzhuĠ":7143,"ĠbingĠbeiĠ":7144,"zhuanĠxieĠ":7145,"faĠxianĠdeĠ":7146,"jinĠrong":7147,"ĠxiĠyinĠ":7148,"ĠĠĠhouĠ":7149,"jiangĠliĠ":7150,"ĠzhongĠdianĠ":7151,"zhuĠdaoĠ":7152,"xueĠjiĠ":7153,"tongĠxinĠ":7154,"meiĠjunĠ":7155,"Ġ2004ĠnianĠ":7156,"shangĠwangĠ":7157,"suiĠran":7158,"aĠgenĠ":7159,"ĠmaĠliĠ":7160,"Ġmao":7161,"baĠdeĠ":7162,"chengĠleĠ":7163,"jiaoĠhuanĠ":7164,"wuĠzhengĠzhuangĠganĠranĠzheĠ":7165,"Ġ2021ĠnianĠ":7166,"xingĠshiĠdeĠ":7167,"suĠzhiĠ":7168,"touĠdeĠ":7169,"miĠsiĠ":7170,"sheĠjiaoĠ":7171,"ĠyiĠgongĠ":7172,"ĠchuĠbanĠ":7173,"ĠĠĠliuĠ":7174,"suiĠzheĠ":7175,"Ġshun":7176,"ĠweiĠyiĠ":7177,"llĠ":7178,"ĠyiĠqianĠ":7179,"ĠdiĠzaiĠ":7180,"xinĠjianĠ":7181,"zuĠjieĠ":7182,"ĠdeĠyiĠyuanĠ":7183,"Ġshui":7184,"juĠzhiĠ":7185,"dianĠweiĠ":7186,"shenĠyuĠ":7187,"ĠshiĠrenĠminĠ":7188,"xianĠzhiĠxianĠ":7189,"ĠĠĠ18":7190,"ĠĠĠtianĠ":7191,"xianĠliĠ":7192,"duiĠjiĠ":7193,"daĠxiaoĠ":7194,"geĠziĠ":7195,"cheĠdiĠ":7196,"fangĠmian":7197,"duanĠpianĠ":7198,"chuanĠqiĠ":7199,"qiĠzhongĠ":7200,"faĠsheng":7201,"guĠlaĠ":7202,"huangĠseĠ":7203,"minĠyiĠ":7204,"teĠheĠ":7205,"biĠxu":7206,"ĠĠĠshiĠyongĠ":7207,"yongĠzaiĠ":7208,"ĠdeĠhuaĠ":7209,"zhengĠquĠ":7210,"huoĠshengĠ":7211,"teĠdianĠ":7212,"ĠtaĠheĠ":7213,"6ĠrenĠ":7214,"Ġ60":7215,"Ġ2020ĠnianĠ":7216,"duĠguoĠ":7217,"zhangĠzhiĠ":7218,"zanĠshiĠ":7219,"shouĠbuĠ":7220,"1960ĠnianĠ":7221,"qiĠlaiĠ":7222,"xiĠbeiĠbuĠ":7223,"8ĠrenĠ":7224,"zuiĠdiĠ":7225,"siĠdaĠ":7226,"luoĠchengĠ":7227,"zuiĠzaoĠ":7228,"yunĠdongĠdeĠ":7229,"bangĠqiuĠ":7230,"buĠdeĠcunĠzhuangĠ":7231,"ĠzhuanĠjiĠ":7232,"gaoĠduĠweiĠ":7233,"ĠnengĠ":7234,"linĠjinĠ":7235,"ĠshiĠhouĠ":7236,"ĠyouĠzhuĠ":7237,"1ĠgeĠ":7238,"laiĠyuĠ":7239,"leĠyuanĠ":7240,"gangĠkouĠ":7241,"gongĠyuanĠqianĠ":7242,"ciĠdiĠ":7243,"1976ĠnianĠ":7244,"wuĠdiĠ":7245,"xinĠjiangĠ":7246,"anĠzhiĠ":7247,"chengĠjiuĠ":7248,"xunĠlian":7249,"gongĠzuoĠshiĠ":7250,"ĠshuangĠfangĠ":7251,"ĠceĠ":7252,"ĠgongĠyeĠ":7253,"seĠĠĠ":7254,"lingĠchenĠ":7255,"danĠdaĠ":7256,"yongĠjiĠ":7257,"1980ĠnianĠdaiĠ":7258,"ĠyiĠbianĠ":7259,"qiĠcheĠ":7260,"faĠtingĠ":7261,"ĠcaiĠyongĠ":7262,"zhongĠhuaĠminĠguoĠ":7263,"xianĠchengĠ":7264,"shanĠmaiĠ":7265,"ĠdeĠyiĠxieĠ":7266,"chuĠbanĠsheĠ":7267,"jingĠneiĠgongĠyouĠ":7268,"Ġguang":7269,"dangĠnianĠ":7270,"sanĠzhongĠ":7271,"ĠgeĠshouĠ":7272,"Ġì":7273,"huiĠweiĠ":7274,"hanĠziĠ":7275,"1920ĠnianĠ":7276,"jiangĠshuĠ":7277,"sanĠmingĠ":7278,"Ġ26":7279,"daoĠyouĠ":7280,"xinĠjieĠ":7281,"ĠxiangĠmuĠ":7282,"houĠjiĠ":7283,"xiaoĠliĠyuĠ":7284,"23Ġ":7285,"ĠjiaĠlaĠ":7286,"qiĠhouĠ":7287,"daĠdiĠ":7288,"xianĠshangĠ":7289,"chengĠzhiĠweiĠ":7290,"shengĠdaoĠ":7291,"lieĠchuĠ":7292,"ĠzhaoĠheĠ":7293,"xiuĠdaoĠ":7294,"thĠ":7295,"ĠdaĠjiaĠ":7296,"ĠĠĠdaoĠ":7297,"ĠheĠliuĠ":7298,"zanĠtingĠ":7299,"Ġtao":7300,"biĠliĠshiĠ":7301,"baiĠkeĠ":7302,"changĠbiĠsaiĠ":7303,"haiĠzaiĠ":7304,"ruanĠtiĠ":7305,"jianĠduĠ":7306,"yeĠfuĠ":7307,"laiĠyinĠ":7308,"ĠtaĠyouĠ":7309,"ĠliangĠgeĠ":7310,"ĠerĠgaiĠdiĠdeĠ":7311,"tongĠheĠ":7312,"ĠdaĠjiangĠ":7313,"ĠdanĠyinĠ":7314,"ĠtongĠyiĠ":7315,"jinĠyuĠ":7316,"henĠkuaiĠ":7317,"erĠĠĠ":7318,"huoĠzaiĠ":7319,"duiĠheĠ":7320,"tiĠdaiĠ":7321,"qianĠtingĠ":7322,"ĠĠĠgaiĠyaoĠ":7323,"Ġ25":7324,"ĠbuĠdaoĠ":7325,"xiangĠyingĠ":7326,"ĠqiĠbingĠ":7327,"ĠweiĠfuĠqiĠyuĠgang":7328,"faĠjiĠ":7329,"yaĠrenĠ":7330,"1990ĠnianĠdaiĠ":7331,"ĠliĠfuĠ":7332,"jingĠguanĠ":7333,"qianĠjinĠ":7334,"ĠtaĠmenĠzaiĠ":7335,"kĠĠĠ":7336,"aoĠdeĠ":7337,"duiĠdiĠ":7338,"tanĠheĠ":7339,"chengĠquĠ":7340,"wangĠwangĠ":7341,"ĠzuiĠchuĠ":7342,"queĠbaoĠ":7343,"maĠtouĠ":7344,"Ġ29":7345,"ĠnongĠ":7346,"anĠliĠ":7347,"xingĠyouĠ":7348,"taĠyiĠ":7349,"pinĠzhongĠ":7350,"qunĠtiĠ":7351,"ĠqiĠheĠ":7352,"bianĠyuanĠ":7353,"buĠmenĠ":7354,"yunĠheĠ":7355,"naĠheĠ":7356,"fuĠhaoĠ":7357,"faĠdongĠjiĠ":7358,"pingĠyuanĠ":7359,"ĠdeĠshiĠjiĠ":7360,"ĠjinĠshiĠ":7361,"changĠjiĠ":7362,"kuoĠjianĠ":7363,"ĠyueĠduiĠ":7364,"ĠtaĠrenĠweiĠ":7365,"dianĠshiĠjieĠ":7366,"siĠlanĠ":7367,"ĠĠĠjiaĠtingĠ":7368,"wuĠshuĠ":7369,"ĠxiĠtongĠdeĠ":7370,"juĠyuanĠ":7371,"eĠguoĠ":7372,"Ġ2002ĠnianĠ":7373,"yeĠkeĠyiĠ":7374,"guiĠfanĠ":7375,"ĠĠĠshouĠ":7376,"fuĠza":7377,"shuĠchuĠ":7378,"quĠfenĠ":7379,"sheĠdingĠ":7380,"leĠyiĠxieĠ":7381,"jiuĠzaiĠ":7382,"ĠxianĠweiĠ":7383,"daĠshiĠguanĠ":7384,"riĠbenĠdeĠ":7385,"ĠcunĠ":7386,"danĠyiĠ":7387,"ĠliĠliĠ":7388,"ĠnianĠqingĠ":7389,"jiaoĠtang":7390,"senĠlin":7391,"maĠkeĠsiĠ":7392,"qiuĠshiĠ":7393,"jieĠduan":7394,"tuiĠguangĠ":7395,"ĠzhongĠguoĠrenĠminĠjieĠfangĠjunĠ":7396,"xuanĠshiĠ":7397,"fuĠmuĠ":7398,"wuĠzhuang":7399,"saiĠerĠweiĠ":7400,"gengĠduoĠdeĠ":7401,"canĠshuĠ":7402,"tieĠluĠcheĠzhanĠ":7403,"ĠĠĠwangĠ":7404,"wangĠweiĠ":7405,"laĠweiĠ":7406,"peiĠbeiĠ":7407,"changĠduĠ":7408,"fenĠpeiĠ":7409,"yaĠmuĠ":7410,"ĠyiĠmeiĠ":7411,"ĠyouĠliangĠ":7412,"ĠzhongĠjianĠ":7413,"beiĠjing":7414,"ĠĠĠdeĠĠĠ":7415,"duoĠerĠ":7416,"zhongĠbuĠ":7417,"beiĠdaĠ":7418,"ĠqiĠzhong":7419,"qianĠshenĠ":7420,"suiĠranĠ":7421,"chuangĠzuoĠdeĠ":7422,"Ġ1970":7423,"ĠĠĠCo":7424,"ĠbuĠsiĠ":7425,"shangĠzhenĠ":7426,"baoĠhan":7427,"vĠ":7428,"yeĠjianĠ":7429,"yeĠshengĠyaĠ":7430,"duiĠfangĠ":7431,"maiĠdeĠ":7432,"zeĠdongĠ":7433,"zhangĠjiĠ":7434,"chengĠweiĠyiĠ":7435,"yanĠjingĠ":7436,"banĠjiangĠ":7437,"buĠdeĠbuĠ":7438,"ĠsunĠ":7439,"cengĠshiĠ":7440,"douĠbeiĠ":7441,"ĠzaiĠneiĠdeĠ":7442,"dengĠchangĠ":7443,"Ġ30Ġ":7444,"shanĠdiĠ":7445,"chuĠziĠ":7446,"tuĠxiangĠ":7447,"ĠgongĠqingĠ":7448,"wenĠjiĠ":7449,"touĠbuĠ":7450,"ĠBĠ":7451,"anĠjiĠ":7452,"junĠbuĠ":7453,"keĠyunĠ":7454,"teĠlaĠ":7455,"suĠlian":7456,"9ĠrenĠ":7457,"congĠweiĠ":7458,"huangĠjinĠ":7459,"Ġsai":7460,"dengĠyuĠ":7461,"ĠjieĠshuĠ":7462,"lvĠseĠ":7463,"chĠ":7464,"xingĠliĠ":7465,"yeĠshengĠ":7466,"zheĠyangĠ":7467,"banĠyanĠ":7468,"kaiĠgongĠ":7469,"ĠziĠyuanĠ":7470,"duĠjiĠ":7471,"nanĠsiĠ":7472,"1956ĠnianĠ":7473,"Ġ45":7474,"ĠshiĠshiĠshangĠ":7475,"aĠlaĠbo":7476,"shenĠkeĠ":7477,"chenĠjiĠ":7478,"ĠzaiĠheĠ":7479,"riĠbaoĠ":7480,"dangĠtianĠ":7481,"Ġtun":7482,"beiĠliĠ":7483,"zheĠzhiĠ":7484,"cheĠshiĠ":7485,"1964ĠnianĠ":7486,"zhuĠceĠ":7487,"ĠxiĠanĠ":7488,"xieĠshangĠ":7489,"chiĠxu":7490,"leĠdiĠ":7491,"xianĠdai":7492,"jinĠquĠ":7493,"fenĠzhiĠyiĠ":7494,"ĠdeĠjiĠhuaĠ":7495,"quĠyouĠ":7496,"luĠshangĠ":7497,"ĠÏ":7498,"ĠqiĠdongĠ":7499,"seĠlie":7500,"ĠfuĠzeĠguanĠxiaĠ":7501,"Ġbao":7502,"muĠheĠ":7503,"waiĠweiĠ":7504,"ĠshiĠshiĠjiĠ":7505,"quanĠjiĠ":7506,"zhuanĠweiĠ":7507,"ĠyiĠkeĠ":7508,"dongĠxianĠ":7509,"Ġpi":7510,"weiĠyuanĠ":7511,"ĠĠĠzhangĠ":7512,"ĠĠĠguĠ":7513,"dengĠshiĠ":7514,"haoĠyouĠ":7515,"zeĠyuĠ":7516,"ĠyiĠnian":7517,"xiangĠqiĠ":7518,"haoĠpingĠ":7519,"ĠĠĠN":7520,"ĠĠĠchengĠ":7521,"1968ĠnianĠ":7522,"sectionĠĠĠ":7523,"fuĠerĠ":7524,"zhengĠshuĠ":7525,"xiaoĠjieĠ":7526,"qingĠchaoĠ":7527,"quĠzhongĠ":7528,"duiĠzhiĠ":7529,"shaĠdeĠ":7530,"daĠduoĠ":7531,"zongĠjianĠ":7532,"bingĠzaiĠ":7533,"ĠqiĠxiĠzaiĠ":7534,"fanĠying":7535,"mianĠtiĠ":7536,"ĠzhongĠqiĠ":7537,"xiaoĠliangĠ":7538,"VĠ":7539,"hangĠyeĠ":7540,"teĠleiĠ":7541,"xuanĠchengĠ":7542,"ĠbaoĠhuĠ":7543,"ĠbingĠbuĠ":7544,"ĠsectionĠĠĠ":7545,"biaoĠjiĠ":7546,"lieĠsiĠ":7547,"yuanĠbenĠ":7548,"shouĠshuĠ":7549,"laiĠnaĠ":7550,"ĠgeĠleiĠ":7551,"feiĠlvĠbin":7552,"ĠÑ":7553,"zhanĠweiĠyuĠ":7554,"fengĠshiĠ":7555,"ĠlianĠjieĠ":7556,"wanĠliĠ":7557,"zongĠzhiĠ":7558,"ĠheĠqiĠtaĠ":7559,"haiĠshangĠ":7560,"tuĠchuĠ":7561,"ĠgongĠkaiĠ":7562,"canĠjia":7563,"ĠfenĠbieĠ":7564,"daiĠbiaoĠtuanĠ":7565,"ĠĠĠranĠerĠ":7566,"Ġwa":7567,"ĠĠĠguangĠ":7568,"changĠdaĠ":7569,"jiangĠyouĠ":7570,"baiĠzhiĠ":7571,"niaoĠleiĠ":7572,"Ġ27":7573,"zhanĠyouĠ":7574,"ĠshiĠxiĠ":7575,"ĠqiĠzhongĠnanĠxingĠ":7576,"ĠjiangĠsuĠ":7577,"ĠjianĠliĠ":7578,"niĠxiĠyaĠ":7579,"1981ĠnianĠ":7580,"jinĠzhanĠ":7581,"baoĠzha":7582,"fenĠsiĠ":7583,"ĠsiĠdaĠ":7584,"xieĠweiĠ":7585,"moĠniĠ":7586,"zhongĠguoĠrenĠminĠ":7587,"ĠSĠ":7588,"haiĠdiĠ":7589,"yanĠanĠ":7590,"shenĠzhenĠ":7591,"puĠtaoĠyaĠ":7592,"Ġfou":7593,"liangĠbuĠ":7594,"xingĠdong":7595,"gongĠdaĠ":7596,"ĠĠĠgenĠjuĠ2020ĠnianĠmeiĠguoĠrenĠkouĠpuĠchaĠdeĠshuĠjuĠ":7597,"ĠzuiĠjiaĠ":7598,"juĠweiĠ":7599,"luĠyiĠsiĠ":7600,"xiaĠdiĠquĠ":7601,"dingĠxingĠ":7602,"ĠshiĠbuĠ":7603,"geĠbuĠ":7604,"changĠjiangĠ":7605,"ĠĠĠjingĠjiĠ":7606,"zaiĠyiĠgeĠ":7607,"zhanĠweiĠ":7608,"ĠguoĠwuĠyuanĠ":7609,"daoĠdanĠ":7610,"laiĠziĠyuĠ":7611,"feiĠyongĠ":7612,"ĠliuĠyuĠ":7613,"Ġ2024":7614,"houĠzhiĠ":7615,"1948ĠnianĠ":7616,"xiaoĠxiangĠ":7617,"Ġ8Ġ":7618,"ĠĠĠ2019ĠnianĠ":7619,"gongĠyueĠ":7620,"jiaoĠdiĠ":7621,"chuĠxianĠdeĠ":7622,"cheĠduiĠ":7623,"biĠerĠ":7624,"luĠheĠ":7625,"haĠliĠ":7626,"ĠyouĠsuoĠ":7627,"gongĠkaiĠsaiĠ":7628,"Ġ2000ĠnianĠ":7629,"ĠguoĠjiaĠdeĠ":7630,"ziĠbenĠ":7631,"zhengĠmianĠ":7632,"ĠjinĠshuĠ":7633,"kuoĠzhangĠ":7634,"dangĠzaiĠ":7635,"ĠyiĠheĠ":7636,"Ġ2005":7637,"qiongĠ":7638,"xueĠyeĠ":7639,"houĠbuĠ":7640,"tianĠjiaĠ":7641,"fuĠzhouĠ":7642,"yuanĠzhuĠminĠ":7643,"ĠweiĠyuanĠhuiĠweiĠyuanĠ":7644,"Ġ200":7645,"ĠbangĠ":7646,"shuĠdeĠzhiĠwuĠ":7647,"wangĠjiĠ":7648,"keĠerĠ":7649,"taiĠnanĠ":7650,"xuanĠjuĠzhongĠ":7651,"ĠĠĠqiĠzhongĠ":7652,"xĠĠĠ":7653,"beiĠyueĠ":7654,"faĠheĠ":7655,"huoĠliĠ":7656,"shuiĠdeĠ":7657,"ganĠxianĠ":7658,"juĠmin":7659,"leĠduiĠ":7660,"yanĠjiangĠ":7661,"zhanĠshuĠ":7662,"ĠshiĠyiĠzuoĠ":7663,"Ġ1946":7664,"duoĠshiĠ":7665,"chaĠshiĠ":7666,"ĠshiĠdeĠshiĠ":7667,"ĠguanĠfangĠ":7668,"ĠjiĠjinĠhuiĠ":7669,"ĠkaoĠ":7670,"ĠĠĠyueĠ":7671,"zuĠrenĠ":7672,"laiĠkeĠ":7673,"hantĠ":7674,"ĠzaiĠbuĠ":7675,"zheĠyangĠdeĠ":7676,"nanĠjiĠzhouĠdeĠ":7677,"Ġlei":7678,"ganĠdeĠ":7679,"woĠerĠ":7680,"guĠdianĠ":7681,"baiĠwanĠ":7682,"shaoĠnvĠ":7683,"ĠqianĠwangĠ":7684,"chengĠliĠhouĠ":7685,"guĠfenĠyouĠxianĠgongĠsiĠ":7686,"eĠdeĠ":7687,"ĠniuĠ":7688,"ĠtouĠguoĠ":7689,"daĠguiĠmoĠ":7690,"jianĠkang":7691,"beiĠpoĠ":7692,"ĠdiĠtuĠ":7693,"wenĠtiĠdeĠ":7694,"meiĠguo":7695,"ĠweiĠfuĠqiĠyuĠgangĠ":7696,"ĠhantĠ":7697,"duoĠliĠyaĠ":7698,"gongĠanĠ":7699,"ĠguoĠgongĠ":7700,"huiĠdaĠ":7701,"chuĠchangĠ":7702,"zongĠcaiĠ":7703,"chĠĠĠ":7704,"yaĠzhongĠ":7705,"yangĠheĠ":7706,"1952ĠnianĠ":7707,"ĠzhongĠwenĠ":7708,"keĠluoĠ":7709,"canĠkao":7710,"reĠdaiĠfengĠbaoĠ":7711,"huĠxiĠ":7712,"zuoĠzhiĠ":7713,"shuaiĠling":7714,"ĠyuĠdiĠ":7715,"ĠtaĠjiĠ":7716,"ĠĠĠzhuĠyaoĠ":7717,"bieĠdeĠ":7718,"xinĠtaiĠ":7719,"ĠpianĠ":7720,"ĠĠĠfanĠ":7721,"luoĠyiĠ":7722,"menĠshiĠ":7723,"1975ĠnianĠ":7724,"gongĠjiaoĠ":7725,"zhuĠbanĠ":7726,"ĠshiĠyiĠzhiĠ":7727,"1966ĠnianĠ":7728,"zuoĠfaĠ":7729,"ĠdaĠerĠ":7730,"naĠshengĠ":7731,"meiĠguoĠrenĠ":7732,"zhuanĠyongĠ":7733,"cunĠzaiĠdeĠ":7734,"ĠjinĠru":7735,"xianĠdeĠyiĠgeĠfeiĠjianĠzhiĠdiĠquĠ":7736,"Ġ2022ĠnianĠ":7737,"nuoĠyiĠ":7738,"ĠshiĠfaĠ":7739,"ĠzhiĠshaoĠ":7740,"fangĠmiĠ":7741,"hangĠtianĠ":7742,"dingĠzaiĠ":7743,"qunĠdeĠ":7744,"ĠzhiĠjingĠ":7745,"1Ġri":7746,"youĠyiĠxieĠ":7747,"ĠlingĠwai":7748,"ĠĠĠ2007":7749,"niangĠ":7750,"luĠwa":7751,"ĠxingĠjianĠ":7752,"xueĠbuĠ":7753,"meiĠshiĠ":7754,"lanĠyuĠ":7755,"ĠyiĠxueĠ":7756,"ĠĠĠjiangĠ":7757,"raoĠtaiĠyangĠ":7758,"liangĠziĠ":7759,"ĠnianĠyiĠlaiĠ":7760,"Ġyong":7761,"shangĠweiĠyouĠ":7762,"baoĠheĠ":7763,"duiĠkangĠ":7764,"maĠlaiĠ":7765,"ĠY":7766,"ĠquĠdeĠ":7767,"Ġ2003ĠnianĠ":7768,"yingĠerĠ":7769,"jiuĠyouĠ":7770,"ĠshiĠbingĠ":7771,"eĠweiĠ":7772,"taĠrenĠ":7773,"ĠyiĠdaĠ":7774,"ĠyiĠxiangĠ":7775,"ĠyueĠheĠ":7776,"ciĠquĠ":7777,"duĠhuiĠ":7778,"xieĠdingĠ":7779,"banĠrenĠ":7780,"chuanĠguoĠ":7781,"1947ĠnianĠ":7782,"wuĠgeĠ":7783,"sanĠciĠ":7784,"ĠzheĠyangĠ":7785,"shangĠheĠ":7786,"zongĠhuiĠ":7787,"ĠfaĠzhanĠ":7788,"ĠĠĠ3ĠyueĠ":7789,"boĠjueĠ":7790,"xuanĠchuĠ":7791,"ĠriĠyouĠ":7792,"ĠxinĠzengĠ":7793,"guoĠjiaĠduiĠ":7794,"ĠĠĠqiĠhouĠ":7795,"5ĠmiĠ":7796,"1937ĠnianĠ":7797,"WindowsĠĠĠ":7798,"jiaoĠjieĠ":7799,"haiĠbaĠgaoĠduĠweiĠ":7800,"zĠ":7801,"guangĠdeĠ":7802,"ĠyiĠwaiĠ":7803,"ĠshiĠyongĠleĠ":7804,"ĠdangĠshiĠdeĠ":7805,"jiaoĠyuĠbuĠ":7806,"ĠouĠzhouĠ":7807,"wuĠyouĠ":7808,"wenĠti":7809,"ĠfuĠqin":7810,"leiĠxingĠdeĠ":7811,"zhuangĠkuang":7812,"ĠdanĠqiĠ":7813,"ĠpinĠ":7814,"ĠdiaoĠ":7815,"wangĠyuĠ":7816,"waiĠxingĠ":7817,"genĠsuiĠ":7818,"ĠyiĠchanĠ":7819,"xingĠzheng":7820,"yanĠlunĠ":7821,"ĠsiĠtaĠ":7822,"ĠrenĠminĠbiĠ":7823,"fenĠbieĠweiĠ":7824,"ĠziĠjiĠ":7825,"geĠzaiĠ":7826,"taĠheĠ":7827,"jinĠzaiĠ":7828,"wangĠzhiĠ":7829,"gongĠjueĠ":7830,"ĠdaoĠyanĠ":7831,"nongĠcun":7832,"sheĠyingĠ":7833,"lianĠsai":7834,"gaoĠxiaoĠ":7835,"jianĠzhuĠwuĠ":7836,"ĠjiangĠqiĠ":7837,"ĠĠĠfaĠ":7838,"llĠĠĠ":7839,"ĠnianĠlingĠ":7840,"zhanĠchangĠ":7841,"xuanĠju":7842,"ĠpingĠtaiĠ":7843,"ĠdeĠjiĠhuiĠ":7844,"oĠĠĠ":7845,"ĠCo":7846,"ĠĠĠpingĠjiaĠ":7847,"IIĠ":7848,"shuĠmuĠ":7849,"jingĠsaiĠ":7850,"duanĠzan":7851,"ĠdanĠweiĠ":7852,"qiaoĠliangĠ":7853,"xunĠyangĠjianĠ":7854,"5ĠgeĠ":7855,"ĠchengĠliĠyuĠ":7856,"ĠĠĠluoĠ":7857,"tuanĠjieĠ":7858,"songĠdaoĠ":7859,"guoĠchengĠ":7860,"shouĠfaĠ":7861,"fenĠjieĠ":7862,"quanĠshuĠ":7863,"ĠdeĠyiĠmeiĠ":7864,"ĠshiĠyiĠdaĠliĠ":7865,"ĠleĠ":7866,"zhangĠyiĠ":7867,"ĠkeĠluoĠ":7868,"zuiĠzaoĠdeĠ":7869,"cengĠshuiĠyuĠ":7870,"aĠfuĠ":7871,"Ġchao":7872,"ĠĠĠchuĠleĠ":7873,"xinĠzhongĠ":7874,"xiaĠyiĠxiaĠdiĠquĠ":7875,"yingĠxiangĠliĠ":7876,"guoĠshiĠqiĠ":7877,"puĠliĠ":7878,"shouĠduanĠ":7879,"pingĠjieĠ":7880,"ĠQ":7881,"ciĠzhongĠ":7882,"zhuanĠdeĠxiaoĠxingĠxingĠ":7883,"Ġhua":7884,"beiĠheĠ":7885,"faĠweiĠ":7886,"ĠdiĠdianĠ":7887,"jiangĠbeiĠ":7888,"xunĠzhaoĠ":7889,"guoĠjiĠjiĠchangĠ":7890,"wangĠsiĠ":7891,"1954ĠnianĠ":7892,"ĠyiĠerĠ":7893,"guoĠwuĠyuanĠ":7894,"wuĠzhongĠdeĠ":7895,"ĠdiĠliuĠ":7896,"juĠdaĠdeĠ":7897,"fĠ":7898,"ruĠyuĠ":7899,"ĠliĠgongĠ":7900,"wangĠziĠ":7901,"ĠdeĠshiĠwuĠ":7902,"zheĠjiangĠshengĠ":7903,"ĠĠĠ5ĠyueĠ":7904,"zheĠyuĠ":7905,"ĠjiĠxingĠ":7906,"ĠĠĠinĠĠĠ":7907,"cĠĠĠ":7908,"Ġshen":7909,"zhengĠqiĠ":7910,"yaĠzhiĠ":7911,"ruĠyiĠ":7912,"huangĠshiĠ":7913,"ĠzaiĠjinĠ":7914,"jiaĠmengĠ":7915,"wangĠshangĠ":7916,"zuĠxieĠ":7917,"shanĠdongĠshengĠ":7918,"ĠchuĠrenĠ":7919,"40Ġ":7920,"ĠshiĠbaĠ":7921,"guangĠfan":7922,"zhengĠshiĠqiĠ":7923,"aĠliĠ":7924,"Ġhuai":7925,"ĠkeĠliĠ":7926,"tiĠchuĠleĠ":7927,"anĠzhuang":7928,"songĠdeĠ":7929,"mingĠjuĠrenĠ":7930,"yinĠyongĠ":7931,"huoĠyunĠ":7932,"yaoĠgun":7933,"shengĠbuĠ":7934,"xiaoĠyouĠ":7935,"laĠerĠ":7936,"xianĠzhangĠ":7937,"faĠshengĠdeĠ":7938,"baoĠzhaĠ":7939,"ĠĠĠofĠĠĠtheĠĠĠ":7940,"ĠsanĠshiĠ":7941,"ĠĠĠshenĠ":7942,"guaiĠ":7943,"ĠshiĠjiĠdeĠ":7944,"pingĠminĠ":7945,"lianĠtongĠ":7946,"pingĠjunĠhaiĠbaĠgaoĠduĠweiĠ":7947,"Ġchun":7948,"siĠyouĠ":7949,"liĠlunĠ":7950,"zhanĠzaiĠ":7951,"duĠduĠ":7952,"danĠshuiĠ":7953,"yangĠxianĠ":7954,"neiĠzhanĠ":7955,"xunĠqiuĠ":7956,"shaoĠjiangĠ":7957,"WĠ":7958,"ĠĠĠtoĠĠĠ":7959,"yinĠzhongĠzaiĠ":7960,"taiĠerĠ":7961,"ruĠshiĠ":7962,"shuoĠdeĠ":7963,"guĠfenĠ":7964,"ĠzheĠciĠ":7965,"zaoĠshouĠ":7966,"ganĠsuĠ":7967,"ĠnianĠqiĠjianĠ":7968,"ĠerĠgaiĠdiĠdeĠpingĠjunĠhaiĠbaĠgaoĠduĠweiĠ":7969,"daĠzaiĠ":7970,"jiangĠzhongĠ":7971,"ĠliĠxueĠ":7972,"luoĠzaiĠ":7973,"maĠliĠyaĠ":7974,"chaiĠyouĠjiĠ":7975,"ĠfaĠshengĠ":7976,"ĠbiĠyeĠ":7977,"ĠhanĠzuĠ":7978,"2010ĠnianĠmeiĠguoĠrenĠkouĠpuĠchaĠdeĠshuĠjuĠ":7979,"shuoĠshiĠxueĠweiĠ":7980,"yinĠzhongĠzaiĠpeiĠ":7981,"ĠĠĠ16":7982,"yangĠzhiĠ":7983,"haoĠyuĠ":7984,"qieĠerĠ":7985,"shunĠshiĠ":7986,"chengĠhuĠ":7987,"juĠtiĠ":7988,"jiaoĠfuĠ":7989,"wenĠhuaĠdeĠ":7990,"boĠluoĠ":7991,"ĠxueĠshengĠ":7992,"yingĠdiĠ":7993,"daiĠyuĠ":7994,"gaoĠdiĠ":7995,"faĠlingĠ":7996,"baoĠxianĠ":7997,"yingĠzhanĠ":7998,"qingĠxiangĠ":7999,"ĠgaiĠweiĠ":8000,"Ġcui":8001,"ĠanĠdeĠ":8002,"zuoĠyuĠ":8003,"suĠshiĠ":8004,"100Ġ":8005,"ĠbuĠneng":8006,"shangĠdianĠ":8007,"ĠdaĠxiĠyangĠ":8008,"zengĠqiangĠ":8009,"ĠĠĠ2018ĠnianĠ":8010,"banĠyuĠ":8011,"1955ĠnianĠ":8012,"ĠgongĠbuĠ":8013,"renĠgongĠyinĠzhongĠzaiĠpeiĠ":8014,"anĠzhongĠ":8015,"yiĠshiĠyongĠ":8016,"maoĠxianĠ":8017,"jiangĠtaĠ":8018,"ĠkangĠxiĠ":8019,"OĠ":8020,"Ġcu":8021,"Ġ2000":8022,"qingĠyiĠ":8023,"suoĠyiĠ":8024,"10ĠnianĠ":8025,"naĠruĠ":8026,"ĠbaoĠdaoĠ":8027,"xiangĠshiĠdiĠ":8028,"Ġmu":8029,"daiĠmaĠ":8030,"banĠciĠ":8031,"shenĠmeĠ":8032,"ĠnaĠme":8033,"Ġruan":8034,"ĠjiĠliĠ":8035,"ĠheĠyueĠ":8036,"mingĠjinĠshiĠ":8037,"jiaoĠzuoĠ":8038,"dianĠyingĠdeĠ":8039,"ĠquanĠzhangĠ":8040,"ĠyuĠciĠtongĠshiĠ":8041,"quĠzaiĠ":8042,"rengĠyouĠ":8043,"1974ĠnianĠ":8044,"chengĠfenĠ":8045,"ĠdaĠlouĠ":8046,"lingĠdaoĠdeĠ":8047,"guiĠzhouĠ":8048,"ĠxianĠdaiĠ":8049,"panĠjueĠ":8050,"ĠĠĠtaiĠwanĠ":8051,"xiangĠzhiĠ":8052,"zhengĠyueĠ":8053,"yeĠzhiĠ":8054,"zhangĠzaiĠ":8055,"zhuĠzhai":8056,"baoĠchi":8057,"xunĠhuanĠ":8058,"diĠyiĠrenĠ":8059,"yanĠjiuĠshengĠ":8060,"ĠnĠ":8061,"ĠĠĠ2006":8062,"fuĠgaiĠ":8063,"faĠzhanĠdeĠ":8064,"Ġxia":8065,"zhengĠyuĠ":8066,"duiĠyuanĠ":8067,"caiĠchanĠ":8068,"Ġzhen":8069,"zhuĠruĠ":8070,"benĠxianĠ":8071,"ĠjuĠminĠ":8072,"ĠshengĠzhangĠyuĠ":8073,"canĠguanĠ":8074,"hongĠjunĠ":8075,"chanĠshengĠleĠ":8076,"biĠshiĠ":8077,"duoĠfuĠ":8078,"tuiĠchuĠdeĠ":8079,"zhanĠheĠ":8080,"mianĠyuĠ":8081,"dianĠziĠyouĠ":8082,"huoĠwuĠ":8083,"xuĠshuĠ":8084,"Ġmin":8085,"teĠshiĠ":8086,"50Ġ":8087,"fuĠze":8088,"junĠtuanĠ":8089,"wanĠquan":8090,"teĠlangĠ":8091,"tanĠdingĠ":8092,"yaĠshiĠ":8093,"teĠyuĠ":8094,"shengĠmuĠ":8095,"tiĠjiaoĠ":8096,"suĠweiĠaiĠ":8097,"ĠgongĠjiĠ":8098,"shuĠqiĠ":8099,"rangĠtaĠ":8100,"changĠbeiĠ":8101,"douĠzhengĠ":8102,"Ġãĥ¼":8103,"ĠĠĠ10ĠyueĠ":8104,"luĠzaiĠ":8105,"zhuangĠbingĠduĠ":8106,"zhiĠchiĠ":8107,"jieĠduĠshiĠ":8108,"ĠbeiĠkeĠ":8109,"Ġ000ĠrenĠ":8110,"ciĠyouĠ":8111,"kmĠ":8112,"ĠheĠpanĠ":8113,"yinĠjingĠ":8114,"shangĠzhiĠ":8115,"pingĠshiĠ":8116,"qiangĠjiĠ":8117,"isĠĠĠ":8118,"daĠbuĠ":8119,"jianĠshe":8120,"yingĠduiĠ":8121,"ĠjiaĠjingĠ":8122,"ĠjuĠqingĠ":8123,"ĠsuĠlianĠ":8124,"zhengĠliĠ":8125,"dongĠniĠ":8126,"jiaoĠkeĠ":8127,"ĠfuĠleiĠ":8128,"chuĠxianĠleĠ":8129,"huaĠshengĠdunĠ":8130,"dongĠcheĠ":8131,"yanĠhuaĠ":8132,"ĠfaĠbiaoĠ":8133,"aiĠguoĠ":8134,"shengĠzhongĠ":8135,"huanĠjieĠ":8136,"fuĠsheĠ":8137,"duiĠhuaĠ":8138,"gongĠheĠdangĠ":8139,"kuĠdeĠ":8140,"ĠyouĠtaiĠ":8141,"jianĠzao":8142,"daoĠshangĠ":8143,"chuĠruĠkouĠ":8144,"baoĠzhengĠ":8145,"aiĠqingĠ":8146,"ciĠzhiĠwaiĠ":8147,"zhuĠguoĠ":8148,"leĠweiĠ":8149,"zuĠyuĠ":8150,"ĠheĠqiĠ":8151,"ĠrenĠzhongĠgongĠ":8152,"baĠyueĠ":8153,"moĠqiĠ":8154,"ĠzaiĠgaiĠ":8155,"yuanĠben":8156,"jinĠqiuĠ":8157,"chongĠqingĠ":8158,"riĠyiĠ":8159,"1977ĠnianĠ":8160,"youĠguanĠ":8161,"shenĠshengĠ":8162,"ĠyinĠfaĠ":8163,"ĠshiĠzhongĠhuaĠrenĠminĠgongĠheĠguoĠ":8164,"zengĠjiaĠleĠ":8165,"renĠminĠdaiĠbiaoĠdaĠhuiĠ":8166,"Ġ80":8167,"ĠĠĠlingĠwaiĠ":8168,"keĠrenĠ":8169,"juĠbeiĠ":8170,"shengĠchanĠdeĠ":8171,"Ġre":8172,"yinĠerĠ":8173,"laĠyuĠ":8174,"buĠluoĠ":8175,"xiaĠfangĠ":8176,"ĠguoĠjiaĠduiĠ":8177,"chuanĠdiĠ":8178,"siĠtanĠ":8179,"shenĠwangĠ":8180,"gouĠmai":8181,"aiĠdeĠhuaĠ":8182,"leiĠweiĠ":8183,"kangĠxiĠ":8184,"chaoĠtingĠ":8185,"ĠĠĠ2017ĠnianĠ":8186,"yueĠweiĠ":8187,"shouĠheĠ":8188,"ĠshiĠyueĠ":8189,"xiangĠmu":8190,"dongĠgongĠ":8191,"fenĠquĠ":8192,"luoĠboĠteĠ":8193,"ĠzhuĠjianĠ":8194,"ĠchengĠshiĠ":8195,"ĠĠĠfor":8196,"duanĠyuĠ":8197,"hangĠxianĠ":8198,"kanĠdeĠ":8199,"ĠnianĠliĠ":8200,"zongĠtong":8201,"hanĠmoĠdeĠ":8202,"ĠlangĠ":8203,"wangĠyouĠ":8204,"ĠyiĠxingĠ":8205,"ĠerĠhouĠ":8206,"shouĠhaiĠ":8207,"xieĠtiao":8208,"baĠlaĠ":8209,"Ġqiao":8210,"ĠRe":8211,"ĠĠĠxiangĠgangĠ":8212,"fenĠqiĠ":8213,"dingĠzhiĠ":8214,"ĠyiĠriĠ":8215,"geĠsiĠ":8216,"jiaoĠdaoĠ":8217,"pinĠlvĠ":8218,"Ġju":8219,"ĠĠĠ6":8220,"longĠshiĠ":8221,"zhuĠdiĠ":8222,"ziĠliao":8223,"ĠkeĠnengĠshiĠ":8224,"Ġi":8225,"ĠĠĠzhanĠ":8226,"ĠĠĠ2016ĠnianĠ":8227,"ĠyouĠyouĠ":8228,"shouĠfeiĠ":8229,"caiĠliao":8230,"canĠmouĠzhangĠ":8231,"xunĠfuĠ":8232,"jianĠguoĠ":8233,"mianĠshangĠ":8234,"ĠxinĠjiaĠ":8235,"ĠbiĠyeĠyuĠ":8236,"ĠaĠlaĠ":8237,"Ġcao":8238,"ĠĠĠshangĠ":8239,"chengĠhaoĠ":8240,"ciĠdaĠ":8241,"meiĠzhou":8242,"ĠlingĠyiĠfangĠmianĠ":8243,"ĠĠĠriĠ":8244,"ĠzhiĠluĠ":8245,"ĠliĠxinĠ":8246,"diĠyiĠjiĠ":8247,"zhenĠheĠ":8248,"kongĠdeĠ":8249,"mingĠluĠ":8250,"huaĠrenĠminĠgongĠheĠ":8251,"nvĠzhuĠjueĠ":8252,"Ġ1938":8253,"jiaoĠheĠ":8254,"naĠsiĠ":8255,"ĠxiĠhuanĠ":8256,"longĠshengĠ":8257,"ĠshengĠzhangĠyuĠhaiĠbaĠ":8258,"pinĠzhiĠ":8259,"zhuiĠsuĠ":8260,"huiĠxiangĠ":8261,"changĠwu":8262,"gaoĠyuanĠ":8263,"Ġpan":8264,"qianĠzaiĠ":8265,"paiĠdeĠzhuĠ":8266,"ĠshiĠjingĠ":8267,"jieĠguanĠ":8268,"dongĠyuanĠ":8269,"qianĠhouĠ":8270,"ĠzaiĠyuĠ":8271,"ĠmiĠdeĠdiĠquĠ":8272,"ĠĠĠsuiĠranĠ":8273,"ĠĠĠ5":8274,"duĠdaĠ":8275,"louĠdeĠ":8276,"ĠheĠchengĠ":8277,"ĠqiĠchuĠ":8278,"qingĠxuĠ":8279,"ĠkaiĠfaĠ":8280,"benĠkeĠ":8281,"1962ĠnianĠ":8282,"zaiĠciĠ":8283,"fuĠyinĠ":8284,"ĠtianĠjinĠ":8285,"fenĠjiĠ":8286,"binĠshiĠ":8287,"1971ĠnianĠ":8288,"fenĠxiaoĠ":8289,"haiĠeĠ":8290,"huĠpoĠ":8291,"ĠjianĠsheĠ":8292,"zhanĠzhengĠzhongĠ":8293,"riĠjiĠ":8294,"yeĠerĠ":8295,"zhuĠliuĠ":8296,"moĠluoĠ":8297,"yinĠzhiĠ":8298,"guoĠquĠ":8299,"ĠbuĠdaĠ":8300,"rongĠnaĠ":8301,"xingĠzhengĠzhenĠquĠ":8302,"hanĠyiĠ":8303,"daĠqiĠ":8304,"ĠboĠchuĠ":8305,"ĠmaĠlaiĠxiĠyaĠ":8306,"ĠX":8307,"ckĠ":8308,"ĠshiĠzhangĠ":8309,"ĠliĠshiĠdeĠ":8310,"mingĠqueĠ":8311,"ĠdongĠwuĠ":8312,"eĠluoĠsiĠdeĠ":8313,"ĠpiaoĠ":8314,"ĠgenĠju":8315,"ĠĠĠtaiĠ":8316,"ĠĠĠzongĠ":8317,"zhongĠdeĠyiĠ":8318,"yeĠzhongĠ":8319,"buĠkeĠ":8320,"shangĠjiaĠ":8321,"qingĠdaoĠ":8322,"anĠzhaoĠ":8323,"quanĠweiĠ":8324,"leiĠshiĠ":8325,"duiĠzhenĠ":8326,"huĠdongĠ":8327,"ĠshiĠyongĠzheĠ":8328,"xiangĠzhongĠ":8329,"shangĠleĠ":8330,"yingĠjunĠ":8331,"zhouĠzhangĠ":8332,"xunĠdeĠ":8333,"thĠĠĠ":8334,"fuĠzhuĠrenĠ":8335,"ĠMi":8336,"ĠĠĠ3Ġ":8337,"xiangĠzaiĠ":8338,"feiĠyiĠ":8339,"cengĠrenĠ":8340,"shengĠjingĠ":8341,"tiĠyanĠ":8342,"fenĠlieĠ":8343,"mingĠyouĠ":8344,"houĠbuĠjiuĠ":8345,"yongĠzhiĠ":8346,"ĠweiĠyaĠ":8347,"gongĠgaoĠ":8348,"ĠwuĠxianĠ":8349,"nvĠhaiĠ":8350,"peiĠyangĠ":8351,"ĠquanĠqiuĠ":8352,"riĠyuĠ":8353,"boĠkeĠ":8354,"zaoĠxingĠ":8355,"guiĠmoĠdeĠ":8356,"tuanĠzhangĠ":8357,"jiuĠrenĠ":8358,"gongĠshangĠ":8359,"zhuĠdongĠ":8360,"xiangĠguan":8361,"huiĠhuaĠ":8362,"zhengĠduoĠ":8363,"shangĠpinĠ":8364,"liangĠceĠ":8365,"Ġning":8366,"ĠpoĠ":8367,"zuoĠzhongĠ":8368,"qingĠxiĠ":8369,"shengĠfuĠ":8370,"yinĠshua":8371,"chuĠnianĠ":8372,"faĠliĠyaĠ":8373,"yeĠweiĠ":8374,"daiĠyiĠ":8375,"suanĠfaĠ":8376,"fenĠlanĠ":8377,"mianĠlinĠ":8378,"shuiĠkuĠ":8379,"ĠqiĠzhongĠnanĠ":8380,"taiĠwanĠdeĠ":8381,"ĠĠĠtongĠ":8382,"miaoĠdeĠ":8383,"ĠyuĠqiĠtaĠ":8384,"ĠqiĠyouĠ":8385,"tianĠtangĠ":8386,"gangĠyuanĠ":8387,"ĠdeĠrenĠwuĠ":8388,"meiĠriĠ":8389,"huoĠyueĠ":8390,"esĠ":8391,"yanĠwuĠ":8392,"sheĠhui":8393,"ĠshiĠyiĠjiĠ":8394,"ĠhuĠnanĠ":8395,"ĠkeĠshiĠ":8396,"Ġlai":8397,"Ġgan":8398,"ĠĠĠ1949":8399,"ĠĠĠluĠ":8400,"houĠrenĠ":8401,"chengĠzhangĠ":8402,"leĠgaiĠ":8403,"ganĠjueĠ":8404,"erĠyouĠ":8405,"tongĠzhongĠ":8406,"dongĠyiĠ":8407,"duĠyiĠ":8408,"ĠbuĠlaiĠ":8409,"qingĠshaoĠnianĠ":8410,"zhenĠyaĠ":8411,"tiĠyuĠguanĠ":8412,"yiĠshiĠjianĠ":8413,"jianĠliĠdeĠ":8414,"ĠbuĠzuĠ":8415,"qianĠruĠ":8416,"suĠdanĠ":8417,"ĠxiĠbanĠyaĠyuĠ":8418,"ĠĠĠfeiĠ":8419,"dangĠheĠ":8420,"naĠerĠ":8421,"1973ĠnianĠ":8422,"ĠheĠheĠ":8423,"shenĠchaĠ":8424,"mianĠjiĠheĠ":8425,"ĠdongĠjingĠ":8426,"Ġ15Ġ":8427,"Ġdiao":8428,"ĠsheĠliĠ":8429,"duiĠliĠ":8430,"12ĠnianĠ":8431,"tsĠ":8432,"6ĠgeĠ":8433,"ĠchanĠ":8434,"ĠzuiĠdaĠ":8435,"anĠrenĠ":8436,"jieĠzaiĠ":8437,"jieĠweiĠzhiĠ":8438,"faĠzhongĠ":8439,"fouĠrenĠ":8440,"daĠduoĠshuĠ":8441,"shengĠxiaĠ":8442,"meiĠmeiĠ":8443,"nvĠyanĠyuanĠ":8444,"ĠguoĠminĠdangĠ":8445,"xiaĠxiaĠdeĠyiĠgeĠxiangĠ":8446,"aĠjiĠ":8447,"Ġ2004":8448,"ĠRo":8449,"ĠreĠ":8450,"20ĠnianĠ":8451,"chaĠliĠ":8452,"chanĠdeĠ":8453,"weiĠyuĠ":8454,"shouĠlingĠ":8455,"duoĠmingĠ":8456,"quanĠqiu":8457,"guĠdongĠ":8458,"kaiĠmuĠ":8459,"ĠdeĠyiĠsiĠ":8460,"mouĠshaĠ":8461,"ĠJR":8462,"ĠguĠshiĠ":8463,"shuĠyouĠ":8464,"1936ĠnianĠ":8465,"ĠyuĠyouĠ":8466,"yongĠjiuĠ":8467,"Ġxie":8468,"ĠyiĠchengĠ":8469,"ĠzhiĠzhengĠ":8470,"tongĠwangĠ":8471,"shenĠshangĠ":8472,"ĠtiĠchuĠ":8473,"ĠmuĠqianĠshangĠweiĠyouĠ":8474,"Ġ36":8475,"Ġ1998ĠnianĠ":8476,"ĠĠĠgaoĠ":8477,"laĠliĠ":8478,"suĠdaĠ":8479,"ĠshiĠguĠ":8480,"jianĠdaoĠ":8481,"danĠyuanĠ":8482,"nanĠfeiĠ":8483,"ĠnianĠ12ĠyueĠ31ĠriĠ":8484,"ĠshiĠzhongĠxinĠ":8485,"xiangĠgangĠdeĠ":8486,"Ġ1ĠyueĠ":8487,"ĠĠĠ2021ĠnianĠ":8488,"chuangĠshiĠrenĠ":8489,"ĠyouĠxingĠ":8490,"xiĠsiĠ":8491,"shengĠgeĠweiĠ":8492,"tianĠran":8493,"1941ĠnianĠ":8494,"1959ĠnianĠ":8495,"1963ĠnianĠ":8496,"huoĠdongĠdeĠ":8497,"haiĠjun":8498,"ĠbaoĠgaoĠ":8499,"leĠliangĠ":8500,"laĠteĠ":8501,"hanĠlinĠ":8502,"diĠyiĠbuĠ":8503,"wĠĠĠ":8504,"fuĠluoĠliĠdaĠ":8505,"ĠwanĠpingĠfangĠ":8506,"ĠbaĠliĠ":8507,"ĠmuĠqianĠshangĠweiĠyouĠrenĠgongĠyinĠzhongĠzaiĠpeiĠ":8508,"zeĠyiĠ":8509,"waiĠguanĠ":8510,"ĠziĠliaoĠ":8511,"ĠdanĠyiĠ":8512,"canĠyuĠleĠ":8513,"xianĠdeĠyiĠgeĠxingĠzhengĠzhenĠquĠ":8514,"shenĠjiĠ":8515,"biĠya":8516,"Ġcan":8517,"keĠxue":8518,"anĠpai":8519,"tianĠhuangĠ":8520,"ĠĠĠboĠ":8521,"wuĠzaiĠ":8522,"mingĠheĠ":8523,"ĠzaiĠnaĠliĠ":8524,"ĠrenĠjiaoĠ":8525,"zhuĠdaĠ":8526,"ĠqiĠqiĠ":8527,"fangĠchengĠ":8528,"bianĠhaoĠweiĠ":8529,"caiĠwuĠ":8530,"chuangĠxinĠ":8531,"wuĠliĠxueĠ":8532,"zhangĠliĠ":8533,"chouĠbeiĠ":8534,"Ġ21":8535,"ĠĠĠ4ĠyueĠ":8536,"1939ĠnianĠ":8537,"daoĠqianĠ":8538,"mingĠciĠ":8539,"chongĠmanĠ":8540,"ĠseĠ":8541,"heĠyiĠgeĠ":8542,"tuiĠxingĠ":8543,"heĠpingĠ":8544,"yuanĠquĠ":8545,"juĠchangĠ":8546,"ĠgaiĠdiĠdeĠ":8547,"ĠzhouĠnianĠ":8548,"bianĠyuĠ":8549,"ĠrenĠmin":8550,"ĠxiĠjinĠ":8551,"jiaoĠzongĠ":8552,"kaiĠfaĠdeĠ":8553,"ĠzheĠyeĠshiĠ":8554,"ĠzheĠbuĠ":8555,"ĠhaĠerĠ":8556,"lianĠmengĠdeĠ":8557,"ĠbuĠshiĠ":8558,"ĠĠĠpuĠ":8559,"taiĠdaĠ":8560,"kanĠfaĠ":8561,"duĠjiaĠ":8562,"saiĠbaiĠ":8563,"zaoĠqiĠdeĠ":8564,"jingĠjiĠxueĠ":8565,"ĠkeĠnengĠhuiĠ":8566,"ĠĠĠyue":8567,"miĠshiĠ":8568,"yinĠjiĠ":8569,"xunĠshiĠ":8570,"ĠzaiĠrenĠ":8571,"ĠdaĠchenĠ":8572,"yinĠziĠ":8573,"cheĠdaoĠ":8574,"guĠwuĠ":8575,"neiĠmengĠguĠ":8576,"laĠgeĠ":8577,"Ġgui":8578,"dianĠyuĠ":8579,"zhouĠfuĠzeĠguanĠxiaĠ":8580,"ĠerĠzheĠ":8581,"shouĠhuiĠ":8582,"ruĠjingĠ":8583,"ĠgongĠjinĠ":8584,"ĠĠĠgeĠrenĠshengĠhuoĠ":8585,"Ġà¸":8586,"Ġ1999ĠnianĠ":8587,"zengĠzhiĠ":8588,"31Ġ":8589,"codiceĠ":8590,"ĠdanĠyeĠ":8591,"ĠĠĠ10":8592,"ĠĠĠ7ĠyueĠ":8593,"buĠweiĠyuĠ":8594,"zhenĠdiĠ":8595,"lunĠsiĠ":8596,"buĠmanĠ":8597,"xiangĠbeiĠ":8598,"ĠnianĠ7ĠyueĠ1ĠriĠ":8599,"ĠĠĠTheĠĠĠ":8600,"xiaĠyuĠ":8601,"tuoĠfuĠ":8602,"ĠshiĠxiangĠgangĠ":8603,"shengĠxiaoĠ":8604,"tiĠgongĠdeĠ":8605,"wangĠchao":8606,"Ġ34":8607,"ĠkaĠerĠ":8608,"ĠkeĠliĠsiĠ":8609,"xiaĠzhiĠ":8610,"niuĠsiĠ":8611,"neĠshengĠ":8612,"xueĠyuanĠdeĠ":8613,"xinĠzengĠ":8614,"jiaoĠyuĠjiĠ":8615,"ingĠĠĠ":8616,"jinĠzhongĠ":8617,"suiĠdeĠ":8618,"duanĠqiĠ":8619,"1965ĠnianĠ":8620,"1953ĠnianĠ":8621,"ĠzhiĠyaoĠ":8622,"zhuĠyaoĠshiĠ":8623,"Ġyuan":8624,"ĠpaĠ":8625,"ĠĠĠyeĠ":8626,"fangĠheĠ":8627,"tianĠfuĠ":8628,"ĠliĠyouĠ":8629,"ĠxiĠyuanĠ":8630,"1967ĠnianĠ":8631,"ĠliĠqiĠ":8632,"ĠbingĠmeiĠyouĠ":8633,"tingĠyunĠ":8634,"ĠĠĠjinĠguanĠ":8635,"xinĠshengĠ":8636,"duiĠtaĠ":8637,"shuiĠshenĠ":8638,"ĠĠĠRo":8639,"jiangĠheĠ":8640,"nuoĠsiĠ":8641,"alĠ":8642,"1944ĠnianĠ":8643,"fuĠhuaĠ":8644,"jinĠxing":8645,"gaiĠmingĠ":8646,"baĠnen":8647,"kaĠluoĠlaiĠnaĠ":8648,"Ġ90":8649,"ĠĠĠe":8650,"xinĠyuĠ":8651,"laoĠgongĠ":8652,"ĠzaiĠtaĠdeĠ":8653,"ĠqingĠchaoĠ":8654,"Ġzha":8655,"ĠshiĠnanĠjiĠzhouĠdeĠ":8656,"ĠyiĠxie":8657,"zhuĠlongĠ":8658,"ĠyanĠchangĠ":8659,"Ġbu":8660,"zhongĠshiĠjiĠ":8661,"qianĠweiĠ":8662,"ĠyueĠlaiĠyueĠ":8663,"xiangĠlianĠ":8664,"ĠxingĠshiĠ":8665,"ĠĠĠX":8666,"ĠĠĠquanĠ":8667,"hanĠshiĠ":8668,"ĠzhiĠchi":8669,"jiaĠzhouĠ":8670,"zhanĠzhengĠdeĠ":8671,"ciĠhuiĠ":8672,"zongĠduiĠ":8673,"shouĠdaoĠleĠ":8674,"ĠĠĠ8":8675,"houĠguoĠ":8676,"yanĠliĠ":8677,"huoĠyiĠ":8678,"liangĠjiaĠ":8679,"waiĠjiĠ":8680,"huanĠxiangĠ":8681,"gongĠzuoĠdeĠ":8682,"siĠxingĠ":8683,"siĠfaĠ":8684,"minĠjinĠ":8685,"niĠyaĠdeĠ":8686,"liĠyongĠ":8687,"Ġ55":8688,"ĠhuiĠyiĠ":8689,"ĠĠĠMo":8690,"ĠĠĠ8ĠyueĠ":8691,"dianĠnaoĠ":8692,"ĠjieĠweiĠ":8693,"jingĠxiĠ":8694,"chaĠjuĠ":8695,"jinĠshanĠ":8696,"yaĠzhou":8697,"zuiĠduoĠdeĠ":8698,"ĠliĠshiĠxueĠjiaĠ":8699,"peiĠxunĠ":8700,"ĠĠĠguĠshiĠ":8701,"duĠzhiĠ":8702,"qianĠyuĠ":8703,"fengĠyuĠ":8704,"fuĠjiaĠ":8705,"ziĠgongĠsiĠ":8706,"dianĠchiĠ":8707,"baĠsaiĠ":8708,"ĠyuanĠxingĠ":8709,"ĠouĠyuanĠ":8710,"ĠĠĠlaĠ":8711,"faĠbiao":8712,"houĠfangĠ":8713,"yanĠxuĠ":8714,"boĠlaĠ":8715,"ĠgongĠgongĠ":8716,"ĠqianĠmiĠ":8717,"yingĠdeĠleĠ":8718,"mianĠjiĠheĠrenĠkouĠ":8719,"ĠĠĠjiuĠ":8720,"ĠĠĠduiĠyuĠ":8721,"daoĠliĠ":8722,"qianĠliĠ":8723,"sheĠliĠdeĠ":8724,"1930ĠnianĠ":8725,"lingĠyuĠdeĠ":8726,"nianĠdaiĠ":8727,"zhanĠzhengĠqiĠjianĠ":8728,"niĠshiĠ":8729,"zhenĠrenĠ":8730,"haĠdeĠ":8731,"daĠxueĠdeĠ":8732,"geĠciĠ":8733,"ĠdeĠjiĠshuĠ":8734,"jiangĠsuĠshengĠ":8735,"Ġ38":8736,"nanĠrenĠ":8737,"wangĠyiĠ":8738,"laĠdiĠ":8739,"lanĠseĠ":8740,"Ġ75":8741,"gaiĠzhiĠ":8742,"cheĠliĠ":8743,"ceĠqiĠ":8744,"hangĠxingĠ":8745,"ĠdaĠbuĠ":8746,"ĠgaiĠcun":8747,"ĠjingĠneiĠ":8748,"ĠboĠluoĠ":8749,"ĠgaiĠdiĠdeĠmianĠjiĠheĠrenĠkouĠ":8750,"ĠgaiĠdiĠdeĠmianĠjiĠheĠrenĠkouĠjieĠweiĠzhiĠ":8751,"Ġ11Ġ":8752,"weiĠjiĠ":8753,"houĠlai":8754,"ciĠshuĠ":8755,"heiĠlongĠjiangĠ":8756,"ĠyiĠshuĠjiaĠ":8757,"ĠĠĠyouĠxiĠ":8758,"ĠĠĠmuĠqianĠ":8759,"peiĠdeĠ":8760,"zhongĠxueĠ":8761,"xuanĠchuan":8762,"dangĠxuanĠweiĠ":8763,"ĠĠĠ2015ĠnianĠ":8764,"weiĠshiĠjieĠ":8765,"ĠshiĠzhengĠ":8766,"erĠbeiĠ":8767,"ĠfuĠze":8768,"ĠmingĠchaoĠ":8769,"ĠLa":8770,"shouĠerĠ":8771,"leiĠheĠ":8772,"jiangĠzuiĠjiaĠ":8773,"zongĠjingĠliĠ":8774,"tuĠanĠ":8775,"tingĠkaoĠ":8776,"ĠqianĠlongĠ":8777,"zhengĠxieĠweiĠyuanĠ":8778,"ĠguanĠzhiĠ":8779,"anĠfuĠ":8780,"ĠĠĠjianĠliĠ":8781,"luĠweiĠ":8782,"zhuangĠweiĠ":8783,"chuiĠzhiĠ":8784,"tongĠchang":8785,"Ġding":8786,"ĠjunĠshiĠ":8787,"ĠleiĠjiĠ":8788,"1935ĠnianĠ":8789,"diĠliuĠ":8790,"jiaĠqiangĠ":8791,"ĠbuĠluĠ":8792,"quĠdongĠ":8793,"jiangĠzheĠ":8794,"dangĠanĠ":8795,"zhengĠfuĠyuĠ":8796,"Ġou":8797,"meiĠerĠ":8798,"suiĠzhiĠ":8799,"shangĠsuĠ":8800,"zongĠshuĠ":8801,"ĠwanĠmeiĠ":8802,"ĠtongĠriĠ":8803,"ĠĠĠyiĠxiaĠ":8804,"ĠfanĠduiĠ":8805,"ĠfenĠbieĠweiĠ":8806,"jiaĠliĠfuĠniĠyaĠzhouĠ":8807,"Ġ22":8808,"Ġcom":8809,"ĠzhanĠdiĠ":8810,"ĠyiĠtiĠ":8811,"yanĠshengĠ":8812,"gaiĠjinĠ":8813,"anĠxianĠ":8814,"saiĠcheĠ":8815,"ĠciĠciĠ":8816,"ĠwanĠchengĠ":8817,"siĠzhongĠ":8818,"chuanĠyueĠ":8819,"jiaĠnaĠ":8820,"quĠziĠ":8821,"luĠduanĠ":8822,"ĠhaiĠjunĠ":8823,"nongĠchangĠ":8824,"Ġ2003":8825,"ĠĠĠ2014ĠnianĠ":8826,"fuĠzhongĠ":8827,"dongĠzhiĠ":8828,"meiĠyiĠ":8829,"teĠzaiĠ":8830,"kuaiĠdeĠ":8831,"jiuĠduĠyuĠ":8832,"ĠshiĠjiĠyuĠ":8833,"ĠtongĠzhiĠ":8834,"xiuĠdingĠ":8835,"faĠshengĠleĠ":8836,"ĠĠĠjianĠzhuĠ":8837,"xinĠheĠ":8838,"jianĠdanĠ":8839,"ĠqiĠyongĠ":8840,"tongĠxueĠ":8841,"zhouĠbian":8842,"guĠlaoĠdeĠ":8843,"ziĠxingĠcheĠ":8844,"Ġ1940":8845,"liĠyiĠ":8846,"chengĠyiĠgeĠ":8847,"riĠshiĠ":8848,"jiaoĠjiĠ":8849,"xiangĠdaoĠ":8850,"fenĠchengĠ":8851,"ĠkeĠlaiĠ":8852,"liuĠliangĠ":8853,"puĠchaĠ":8854,"zuiĠzhongĠyaoĠdeĠ":8855,"Ġ70":8856,"ĠĠĠ9ĠyueĠ":8857,"shanĠyuĠ":8858,"zhuĠshouĠ":8859,"xiangĠjiaoĠ":8860,"nanĠminĠ":8861,"geĠyueĠhouĠ":8862,"ĠMĠ":8863,"Ġzhuo":8864,"ĠĠĠ2020ĠnianĠ":8865,"zheĠjiĠ":8866,"jingĠquĠ":8867,"ĠbiĠxuĠ":8868,"ĠhuaĠshengĠ":8869,"ĠĠĠ6Ġ":8870,"baĠtaĠ":8871,"suanĠdeĠ":8872,"32Ġ":8873,"zhuĠguanĠ":8874,"yinĠniĠ":8875,"pingĠhengĠ":8876,"duĠteĠdeĠ":8877,"miĠduĠ":8878,"chiĠjingĠ":8879,"ĠĠĠcheĠzhanĠjieĠgouĠ":8880,"siĠyueĠ":8881,"xiaĠerĠ":8882,"ĠbuĠheĠ":8883,"shangĠfangĠ":8884,"linĠshengĠ":8885,"eĠhaiĠeĠ":8886,"kaĠfeiĠ":8887,"ĠcengĠjingĠ":8888,"jinĠchengĠ":8889,"zhengĠjiaoĠ":8890,"ĠshengĠchengĠ":8891,"huiĠyiĠshangĠ":8892,"ziĠshaĠ":8893,"touĠru":8894,"ĠdanĠbuĠ":8895,"ĠerĠheĠ":8896,"ĠĠĠzhiĠzuoĠ":8897,"jinĠnianĠ":8898,"fangĠdiĠ":8899,"muĠjiĠ":8900,"2025ĠnianĠ":8901,"ĠzaiĠriĠbenĠ":8902,"jinĠrongĠ":8903,"yingĠgeĠlan":8904,"ĠdaĠqiaoĠ":8905,"ĠliĠfaĠhuiĠ":8906,"Ġga":8907,"shengĠrenĠminĠzhengĠfuĠ":8908,"zuoĠheĠ":8909,"1969ĠnianĠ":8910,"1961ĠnianĠ":8911,"ĠerĠlaiĠ":8912,"ĠĠĠmuĠ":8913,"yaĠsiĠ":8914,"penĠ":8915,"ĠzaiĠnanĠ":8916,"fuĠbuĠzhangĠ":8917,"jianĠchiĠ":8918,"beiĠmeiĠ":8919,"fangĠxingĠ":8920,"baoĠfuĠ":8921,"mianĠqianĠ":8922,"luoĠfaĠkeĠ":8923,"Ġheng":8924,"15ĠnianĠ":8925,"1931ĠnianĠ":8926,"juĠfeng":8927,"hangĠzhanĠ":8928,"ĠqiĠzhongĠyouĠ":8929,"ĠRĠ":8930,"banĠnianĠ":8931,"kuangĠjiaĠ":8932,"jinĠzhangĠ":8933,"yingĠguoĠdeĠ":8934,"ĠdeĠshiĠshiĠ":8935,"ĠĠĠhuoĠ":8936,"ĠĠĠriĠbenĠ":8937,"ĠĠĠ6ĠyueĠ":8938,"ĠĠĠ2013ĠnianĠ":8939,"jinĠqiĠ":8940,"duiĠweiĠ":8941,"zhuanĠzhiĠ":8942,"huiĠjiaĠ":8943,"juĠzhuĠzaiĠ":8944,"juĠjuĠzhangĠ":8945,"jiuĠbeiĠ":8946,"chongĠzuĠ":8947,"tuiĠfanĠ":8948,"ĠmiĠzhiĠ":8949,"Ġman":8950,"Ġ2002":8951,"Ġ20Ġ":8952,"ĠĠĠ12":8953,"baoĠjiĠ":8954,"duoĠbuĠ":8955,"yanĠfaĠ":8956,"gongĠchanĠzhuĠyiĠ":8957,"liĠkeĠ":8958,"ciĠheĠ":8959,"luĠxiĠ":8960,"luoĠweiĠ":8961,"yaoĠzaiĠ":8962,"1957ĠnianĠ":8963,"ĠshiĠtaiĠwanĠ":8964,"ĠdeĠyiĠjianĠ":8965,"chengĠliĠleĠ":8966,"ĠzhengĠgeĠ":8967,"ĠbingĠqieĠzaiĠ":8968,"Ġ46":8969,"ĠĠĠyongĠ":8970,"daiĠzhiĠ":8971,"feiĠzhiĠ":8972,"kaĠdeĠ":8973,"ĠshiĠsiĠ":8974,"zhanĠjuĠ":8975,"ĠzhuĠxiĠ":8976,"liĠliangĠ":8977,"ĠtaiĠpingĠ":8978,"wuĠxianĠdianĠshiĠ":8979,"taiĠweiĠ":8980,"keĠxueĠjiaĠ":8981,"fangĠbianĠ":8982,"yanĠshenĠzhiĠ":8983,"ĠdaĠxueĠdeĠ":8984,"ĠfuĠgaiĠ":8985,"wanĠzhengĠdeĠ":8986,"luoĠxuanĠ":8987,"Ġ150":8988,"ĠchongĠxinĠ":8989,"ĠĠĠ2010ĠnianĠ":8990,"kuĠerĠ":8991,"ĠyouĠheĠ":8992,"zuoĠleĠ":8993,"wenĠgeĠ":8994,"hangĠbanĠ":8995,"ĠguanĠliĠ":8996,"mingĠjiĠ":8997,"yanĠqiĠ":8998,"neiĠsiĠ":8999,"rengĠzaiĠ":9000,"ĠshiĠfuĠ":9001,"ĠguoĠfangĠ":9002,"ĠxiĠxiĠ":9003,"junĠbeiĠ":9004,"ĠmiĠdeĠ":9005,"shouĠliĠ":9006,"zuĠweiĠ":9007,"guoĠfangĠbuĠ":9008,"ĠkeĠlaĠ":9009,"muĠjianĠ":9010,"zhenĠzhengĠ":9011,"cheĠtuiĠ":9012,"feiĠchang":9013,"baĠleĠsiĠ":9014,"pĠĠĠ":9015,"ĠĠĠ15":9016,"meiĠzhongĠ":9017,"1951ĠnianĠ":9018,"ĠyueĠrenĠ":9019,"yuanĠwaiĠ":9020,"shuĠshuĠ":9021,"mengĠteĠ":9022,"ĠĠĠgenĠjuĠ2010ĠnianĠmeiĠguoĠrenĠkouĠpuĠchaĠdeĠshuĠjuĠ":9023,"ĠgouĠ":9024,"ĠĠĠ2012ĠnianĠ":9025,"shenĠliĠ":9026,"kaĠliĠ":9027,"liuĠxueĠ":9028,"poĠerĠ":9029,"wangĠhouĠ":9030,"zuĠziĠzhiĠ":9031,"ĠxianĠjinĠ":9032,"ĠcengĠzaiĠ":9033,"ĠDĠ":9034,"Ġlong":9035,"jiangĠweiĠ":9036,"qianĠqiĠ":9037,"laiĠerĠ":9038,"benĠzhiĠ":9039,"tuiĠliĠ":9040,"heiĠrenĠ":9041,"sonĠ":9042,"shengĠjieĠrangĠ":9043,"qianĠxianĠ":9044,"ĠPĠ":9045,"Ġzhui":9046,"chongĠfuĠ":9047,"1942ĠnianĠ":9048,"taiĠshouĠ":9049,"meiĠtianĠ":9050,"zhuanĠhuanĠ":9051,"ĠfeiĠliĠ":9052,"ĠyuĠyiĠ":9053,"xiaoĠyiĠ":9054,"chenĠdeĠ":9055,"ĠshiĠshangĠ":9056,"zhengĠwuĠ":9057,"ĠriĠbaoĠ":9058,"liuĠchuanĠ":9059,"tuĠranĠ":9060,"quĠshiĠhouĠ":9061,"ĠjiangĠxiĠ":9062,"ĠĠĠ2005":9063,"ĠĠĠtangĠ":9064,"miĠjiĠ":9065,"dangĠriĠ":9066,"duoĠliĠ":9067,"jianĠzhuĠshiĠ":9068,"jieĠjieĠ":9069,"qianĠlaiĠ":9070,"ĠkeĠchengĠ":9071,"feiĠfaĠ":9072,"ĠdaoĠdaĠ":9073,"liaoĠning":9074,"taĠerĠ":9075,"quĠneiĠ":9076,"quanĠtiĠ":9077,"guangĠfanĠdeĠ":9078,"ĠweiĠyuanĠhuiĠdeĠ":9079,"zhengĠfuĠzaiĠ":9080,"eĠerĠ":9081,"Ġzao":9082,"Ġ180":9083,"ĠĠĠyanĠgeĠ":9084,"jinĠheĠ":9085,"riĠerĠ":9086,"nanĠyuĠ":9087,"zongĠdeĠ":9088,"30ĠnianĠ":9089,"1960ĠnianĠdaiĠ":9090,"beiĠqiĠ":9091,"chongĠfanĠ":9092,"xinĠguanĠfeiĠyanĠ":9093,"tiĠbuĠ":9094,"puĠdeĠ":9095,"rongĠdeĠ":9096,"huiĠguanĠ":9097,"liuĠgeĠ":9098,"tuĠran":9099,"ĠshiĠshiĠzhangĠ":9100,"liangĠyuĠ":9101,"cheĠrenĠ":9102,"panĠdeĠ":9103,"ĠyiĠqingĠ":9104,"jiaĠerĠ":9105,"tanĠsuoĠ":9106,"Ġqin":9107,"Ġpao":9108,"erĠzhongĠ":9109,"1933ĠnianĠ":9110,"ĠyiĠjiaoĠ":9111,"xiĠlie":9112,"faĠjueĠ":9113,"jinĠsiĠ":9114,"jingĠyuanĠ":9115,"fangĠxiangĠdeĠ":9116,"baoĠanĠ":9117,"daiĠtiĠ":9118,"tuĠshaĠ":9119,"mianĠxiangĠ":9120,"ĠyouĠdeĠ":9121,"xingĠzhengĠdanĠweiĠ":9122,"ĠanĠhuiĠ":9123,"ĠdiĠerĠciĠ":9124,"ĠĠĠgai":9125,"guanĠzaiĠ":9126,"kaiĠqiĠ":9127,"kenĠdingĠ":9128,"ĠyiĠchangĠ":9129,"ĠjiĠcheĠ":9130,"caiĠzhengĠbuĠ":9131,"gangĠtieĠ":9132,"hangĠkongĠgongĠsiĠ":9133,"ĠshiĠyiĠgeĠweiĠyuĠmeiĠguoĠ":9134,"daoĠguoĠ":9135,"tuoĠerĠ":9136,"geiĠtaĠ":9137,"ĠzhongĠbeiĠ":9138,"tingĠzhangĠ":9139,"renĠdaĠdaiĠbiaoĠ":9140,"fanĠfuĠ":9141,"1928ĠnianĠ":9142,"ĠĠĠLi":9143,"ĠĠĠDe":9144,"xianĠbuĠ":9145,"xinĠzhiĠ":9146,"leiĠyuĠ":9147,"cunĠyuĠ":9148,"fuĠqiĠ":9149,"leĠxuĠduoĠ":9150,"ĠliuĠyuĠmianĠjiĠ":9151,"wanĠqiĠ":9152,"benĠjiĠ":9153,"cheĠxingĠ":9154,"shaoĠyouĠ":9155,"renĠmin":9156,"bianĠzuĠ":9157,"ĠbingĠbiaoĠshiĠ":9158,"ĠzhuĠchiĠ":9159,"ĠVi":9160,"yingĠheĠ":9161,"zhaoĠshiĠ":9162,"zhuĠchiĠrenĠ":9163,"ĠgongĠluĠ":9164,"ĠgenĠjuĠ2020ĠnianĠmeiĠguoĠrenĠkouĠpuĠchaĠdeĠshuĠjuĠ":9165,"Ġkua":9166,"ĠdaĠdiĠ":9167,"duoĠxiangĠ":9168,"ĠyeĠkeĠyiĠ":9169,"taoĠwangĠ":9170,"ĠfenĠbieĠshiĠ":9171,"ĠjiĠyiĠ":9172,"zuoĠjiĠ":9173,"benĠbuĠ":9174,"fanĠjiĠ":9175,"nvĠyouĠ":9176,"qiaoĠdeĠ":9177,"keĠsaĠsiĠ":9178,"chengĠdanĠ":9179,"huoĠquĠ":9180,"boĠyinĠ":9181,"fengĠgeĠdeĠ":9182,"touĠshouĠ":9183,"xinĠxiĠlanĠ":9184,"ĠĠĠfaĠguoĠ":9185,"ĠĠĠ2011ĠnianĠ":9186,"nianĠdeĠ":9187,"fuĠsiĠ":9188,"ĠjiaĠru":9189,"saiĠguanĠjunĠ":9190,"ĠdeĠyiĠweiĠ":9191,"zhuanĠquĠ":9192,"ĠtuiĠchuĠ":9193,"ĠĠĠzuiĠ":9194,"guanĠweiĠ":9195,"guĠyiĠ":9196,"ĠqiĠhouĠyuĠ":9197,"shangĠjiangĠ":9198,"xiaoĠsheĠ":9199,"ĠtaĠjiangĠ":9200,"caiĠpanĠ":9201,"huoĠdeĠdeĠ":9202,"5ĠgongĠliĠ":9203,"ĠĠĠruĠ":9204,"maĠqiĠ":9205,"huanĠweiĠ":9206,"zhongĠhaiĠ":9207,"yuanĠshuĠ":9208,"ĠerĠciĠ":9209,"ĠxiĠsiĠ":9210,"fenĠxiangĠ":9211,"ĠyunĠnanĠ":9212,"fenĠshiĠ":9213,"taiĠyiĠ":9214,"ĠjiĠxu":9215,"gongĠsheĠ":9216,"shouĠmingĠ":9217,"yeĠnaĠ":9218,"xueĠshiĠxueĠweiĠ":9219,"Ġqu":9220,"Ġ37":9221,"Ġ39":9222,"zeĠdeĠ":9223,"gangĠdeĠ":9224,"shunĠxuĠ":9225,"1912ĠnianĠ":9226,"diĠmianĠ":9227,"geĠtiĠ":9228,"jieĠxiaĠ":9229,"qianĠzeĠ":9230,"ĠyinĠweiĠtaĠ":9231,"ĠtuanĠ":9232,"Ġ2023ĠnianĠ":9233,"jingĠbuĠ":9234,"qingĠheĠ":9235,"tingĠheĠ":9236,"cengĠbeiĠ":9237,"ryĠ":9238,"jieĠruĠ":9239,"dianĠliuĠ":9240,"pingĠdingĠ":9241,"ĠdanĠzheĠ":9242,"ĠshiĠshiĠyiĠ":9243,"ĠxinĠzeng":9244,"Ġ1997ĠnianĠ":9245,"ĠĠĠs":9246,"ĠĠĠdi":9247,"ĠĠĠbaiĠ":9248,"feiĠshiĠ":9249,"baiĠxingĠ":9250,"ĠshiĠxiĠbanĠyaĠ":9251,"huaĠmianĠ":9252,"zuoĠyeĠ":9253,"ĠsiĠlingĠbuĠ":9254,"meiĠguoĠyiĠ":9255,"keĠnengĠxingĠ":9256,"yaĠmeiĠniĠyaĠ":9257,"Ġte":9258,"douĠbuĠ":9259,"maoĠdeĠ":9260,"chengĠgongĠdeĠ":9261,"faĠerĠ":9262,"yinĠjinĠ":9263,"danĠxinĠ":9264,"duoĠlunĠ":9265,"waiĠjieĠ":9266,"ĠjieĠfangĠ":9267,"qiangĠdaĠdeĠ":9268,"Ġrui":9269,"ĠDe":9270,"ĠhouĠyuĠ":9271,"leĠzhiĠ":9272,"panĠchuĠ":9273,"ssĠ":9274,"faĠbuĠdeĠ":9275,"nvĠwangĠ":9276,"ĠyingĠxiangĠ":9277,"wangĠyuanĠjingĠ":9278,"wanĠnianĠ":9279,"tingĠshiĠ":9280,"fengĠsuoĠ":9281,"chuangĠzao":9282,"ĠbangĠzhuĠ":9283,"chaĠerĠsiĠ":9284,"yanĠzou":9285,"guanĠxiĠdeĠ":9286,"danĠduĠ":9287,"tiaoĠwenĠ":9288,"guanĠli":9289,"yongĠdiĠ":9290,"wenĠyuĠ":9291,"zhongĠhuaĠ":9292,"shenĠruĠ":9293,"dianĠyingĠjieĠ":9294,"ĠrenĠkouĠdeĠ":9295,"8ĠgeĠ":9296,"yuĠdeĠguoĠ":9297,"zuĠshiĠ":9298,"linĠyuĠ":9299,"1927ĠnianĠ":9300,"ĠliĠjingĠ":9301,"gongĠzhanĠ":9302,"shouĠhuanĠyingĠ":9303,"ĠtongĠshiĠyeĠ":9304,"ĠfenĠweiĠ":9305,"zaiĠĠĠ":9306,"yongĠheĠ":9307,"sanĠdeĠ":9308,"sanĠyueĠ":9309,"shaĠshiĠ":9310,"heĠbeiĠ":9311,"jieĠshou":9312,"biĠsaiĠdeĠ":9313,"xieĠdaiĠ":9314,"shuiĠmianĠ":9315,"ĠriĠyiĠ":9316,"ĠmianĠjiĠ0":9317,"ĠĠĠwenĠhuaĠ":9318,"tingĠjiĠ":9319,"ĠshiĠkeĠ":9320,"ĠweiĠdaĠ":9321,"diĠtieĠ":9322,"xianĠzaiĠdeĠ":9323,"ĠfuĠerĠ":9324,"baĠgeĠ":9325,"ĠjieĠjinĠ":9326,"ĠjieĠgouĠ":9327,"ĠaoĠdaĠliĠyaĠ":9328,"huĠlianĠwangĠ":9329,"yiĠdeĠshiĠ":9330,"huangĠheĠ":9331,"jianĠshao":9332,"zhuĠzhaiĠ":9333,"jingĠneiĠdeĠ":9334,"zongĠzhanĠ":9335,"wuĠrenĠjiĠ":9336,"fenĠshuĠ":9337,"suĠsongĠ":9338,"shanĠdingĠ":9339,"ĠshiĠshiĠdeĠ":9340,"zuoĠpinĠdeĠ":9341,"Ġnu":9342,"ĠĠĠdianĠ":9343,"faĠrenĠ":9344,"1943ĠnianĠ":9345,"diĠdaĠ":9346,"daĠlu":9347,"ĠdaĠqiĠ":9348,"junĠjianĠ":9349,"sheĠhuiĠdeĠ":9350,"ĠyiĠjiĠzaiĠ":9351,"Ġxue":9352,"ĠÐ°":9353,"ĠguoĠliĠ":9354,"ĠĠĠre":9355,"ĠĠĠguanĠ":9356,"1932ĠnianĠ":9357,"ĠliĠnianĠ":9358,"tongĠbaoĠ":9359,"wenĠsiĠ":9360,"tiĠquĠ":9361,"baĠfaĠliĠyaĠ":9362,"hangĠzhouĠ":9363,"ĠhuĠbeiĠ":9364,"Ġzeng":9365,"zhouĠdeĠyiĠgeĠshiĠzhenĠ":9366,"luĠwaĠ":9367,"suĠsheĠ":9368,"ĠdaoĠluĠ":9369,"Ġ000Ġ":9370,"ĠluĠwaĠerĠshengĠ":9371,"Ġfu":9372,"zunĠzhongĠ":9373,"tiĠcaiĠ":9374,"qianĠxiaĠ":9375,"boĠchuĠdeĠ":9376,"duoĠyuanĠ":9377,"yanĠjiuĠzhongĠxinĠ":9378,"ĠshiĠxingĠdengĠweiĠ":9379,"1929ĠnianĠ":9380,"banĠbenĠdeĠ":9381,"ĠjingĠfangĠ":9382,"renĠkouĠpuĠchaĠ":9383,"aĠgenĠtingĠ":9384,"Ġchuang":9385,"leĠxiĠ":9386,"zuĠjiĠ":9387,"dangĠbuĠ":9388,"shenĠheĠ":9389,"tianĠwenĠxueĠ":9390,"paiĠlieĠ":9391,"ĠaoĠmenĠ":9392,"Ġshe":9393,"shenĠqiĠ":9394,"fanĠdaĠxueĠ":9395,"tingĠyuĠ":9396,"wuĠbuĠ":9397,"chengĠshuĠ":9398,"xueĠtangĠ":9399,"liangĠhaoĠ":9400,"shenĠfuĠ":9401,"ranĠliaoĠ":9402,"Ġ400":9403,"ĠyuanĠshiĠ":9404,"ĠĠĠaiĠ":9405,"biĠyuĠ":9406,"jiuĠyueĠ":9407,"cengĠyouĠ":9408,"jiaoĠgaoĠ":9409,"qianĠyinĠ":9410,"xingĠzhengĠquĠhuaĠ":9411,"ĠguangĠxuĠ":9412,"aĠerĠbeiĠsiĠ":9413,"reĠdaiĠqiĠxuanĠ":9414,"Ġtan":9415,"youĠĠĠ":9416,"duoĠsiĠ":9417,"jiaĠxiangĠ":9418,"shuĠfaĠ":9419,"tongĠyang":9420,"duĠziĠ":9421,"meiĠti":9422,"duoĠguanĠ":9423,"geĠlunĠbiĠyaĠ":9424,"orĠ":9425,"1924ĠnianĠ":9426,"ĠweiĠzaiĠ":9427,"ĠzhongĠyaoĠdeĠ":9428,"quĠbieĠ":9429,"ĠdeĠyiĠciĠ":9430,"neiĠruiĠ":9431,"ĠdanĠyuĠ":9432,"ĠxianĠshiĠyouĠ":9433,"Ġ2001":9434,"ĠdiĠ1Ġ":9435,"quĠmuĠ":9436,"benĠshuĠ":9437,"shaĠtianĠ":9438,"ĠshengĠhuoĠ":9439,"Ġyao":9440,"ĠsiĠshiĠ":9441,"ĠhengĠliĠ":9442,"tongĠqiĠ":9443,"yinĠyouĠ":9444,"boĠjiĠ":9445,"diĠfenĠ":9446,"ĠbuĠyaoĠ":9447,"jiangĠxueĠ":9448,"puĠluoĠ":9449,"panĠluanĠ":9450,"ĠzaiĠshiĠ":9451,"ĠchiĠweiĠ":9452,"tyĠ":9453,"buĠzaiĠ":9454,"ĠyueĠtuan":9455,"ĠxianĠluĠ":9456,"yiĠshiĠdaoĠ":9457,"Ġ300":9458,"ĠĠĠlingĠ":9459,"caĠ":9460,"ĠzaiĠwuĠ":9461,"gongĠziĠ":9462,"jianĠceĠ":9463,"ĠdaĠbanĠ":9464,"ĠzheĠzuoĠ":9465,"ĠkuaiĠ":9466,"ĠzhongĠyuĠ":9467,"ĠhouĠyouĠ":9468,"miaoĠyuĠ":9469,"13ĠnianĠ":9470,"1934ĠnianĠ":9471,"ĠyouĠxiĠdeĠ":9472,"xianĠdaoĠ":9473,"shouĠcang":9474,"ĠsiĠhouĠ":9475,"zhuanĠjiĠdeĠ":9476,"woĠmen":9477,"ĠfeiĠlvĠ":9478,"ĠĠĠweiĠleĠ":9479,"gongĠchanĠdang":9480,"21ĠnianĠ":9481,"ĠjiĠxieĠ":9482,"ĠzhiĠciĠ":9483,"zhongĠgongĠ":9484,"jinĠhuiĠ":9485,"bingĠwuĠ":9486,"diĠyiĠbaiĠ":9487,"keĠyiĠtongĠguoĠ":9488,"Ġtu":9489,"Ġnuo":9490,"ĠĠĠzuoĠweiĠ":9491,"shuoĠfuĠ":9492,"yuanĠjianĠ":9493,"jieĠlunĠ":9494,"shengĠhuiĠ":9495,"ĠdiĠrenĠ":9496,"xinĠzhuĠ":9497,"zuĠxianĠ":9498,"ĠdeĠyiĠjiĠ":9499,"hanĠgaiĠ":9500,"dianĠshiĠjieĠmuĠ":9501,"taoĠyuanĠ":9502,"saĠdeĠ":9503,"fangĠzhenĠ":9504,"tiĠqianĠ":9505,"daiĠlaiĠdeĠ":9506,"ĠdeĠyiĠxiangĠ":9507,"ĠziĠxingĠ":9508,"ĠchuĠciĠzhiĠwaiĠ":9509,"quanĠguoĠzhongĠdianĠ":9510,"luoĠmaĠdiĠguoĠ":9511,"qiĠliĠ":9512,"ĠyiĠxianĠ":9513,"keĠleiĠ":9514,"banĠquanĠ":9515,"ĠziĠranĠ":9516,"qiangĠhuaĠ":9517,"ĠzuoĠbiaoĠweiĠ":9518,"tianĠwenĠtaiĠ":9519,"ĠĠĠhaiĠ":9520,"yongĠqiĠ":9521,"nvĠrenĠ":9522,"daĠxuanĠ":9523,"jingĠbeiĠ":9524,"fangĠchengĠshiĠ":9525,"huaĠguiĠ":9526,"yangĠziĠ":9527,"zongĠjuĠ":9528,"tingĠzhanĠ":9529,"ĠgeĠguoĠ":9530,"shaĠbaiĠ":9531,"ĠbiĠdeĠ":9532,"ĠĠĠ2008ĠnianĠ":9533,"jingĠtouĠ":9534,"eĠhuaĠ":9535,"mengĠjunĠ":9536,"maoĠdunĠ":9537,"24ĠxiaoĠshiĠ":9538,"ĠHR":9539,"ĠĠĠ4Ġ":9540,"luĠerĠ":9541,"fanĠshiĠ":9542,"orĠĠĠ":9543,"duiĠfuĠ":9544,"ruĠqiuĠ":9545,"ĠtongĠshiĠyeĠshiĠ":9546,"Ġë":9547,"ĠchaoĠguoĠ":9548,"zangĠyuĠ":9549,"CDĠ":9550,"ziĠwoĠ":9551,"ciĠciĠ":9552,"yeĠzhanĠ":9553,"liuĠdongĠ":9554,"zongĠguanĠ":9555,"ĠbingĠfeiĠ":9556,"zhaoĠguĠ":9557,"2ĠmiĠ":9558,"taoĠwanĠ":9559,"ĠshangĠshuĠ":9560,"ĠzhuĠyaoĠshiĠ":9561,"2ĠliĠ":9562,"3ĠmiĠ":9563,"ĠSi":9564,"neiĠyiĠ":9565,"ĠshiĠshiĠshiĠ":9566,"ĠdeĠdiĠsanĠ":9567,"ĠdeĠguoĠchengĠ":9568,"ĠwoĠmen":9569,"ciĠshiĠjieĠdaĠzhanĠqiĠjianĠ":9570,"ĠĠĠ7":9571,"ĠĠĠwanĠ":9572,"yingĠzhiĠ":9573,"qiuĠheĠ":9574,"tingĠdaoĠ":9575,"27Ġ":9576,"zhuĠfangĠ":9577,"zhuĠquanĠ":9578,"riĠchangĠ":9579,"xiaĠxiaĠ":9580,"liangĠanĠ":9581,"zhuanĠbianĠ":9582,"tuoĠluoĠ":9583,"ĠdeĠjiĠbenĠ":9584,"ĠĠĠjingĠliĠ":9585,"taĠyouĠ":9586,"haoĠheĠ":9587,"zhuanĠliĠ":9588,"fuĠxianĠ":9589,"huoĠcheĠzhanĠ":9590,"kaoĠchaĠ":9591,"JĠ":9592,"kaiĠerĠ":9593,"18ĠnianĠ":9594,"ĠzhongĠguoĠdeĠ":9595,"zhanĠquĠ":9596,"ĠkeĠleiĠ":9597,"dangĠxuan":9598,"chanĠwuĠ":9599,"cunĠzaiĠyuĠ":9600,"ĠSAO":9601,"jueĠweiĠ":9602,"xiangĠdongĠ":9603,"ceĠlveĠ":9604,"zheĠyouĠ":9605,"fanĠerĠ":9606,"haoĠzaiĠ":9607,"puĠsiĠ":9608,"25ĠnianĠ":9609,"ĠjiĠkeĠ":9610,"ĠyuĠleiĠ":9611,"buĠduanĠ":9612,"ĠguoĠjia":9613,"xianĠmingĠ":9614,"houĠdaiĠ":9615,"fangĠxianĠ":9616,"rongĠliangĠ":9617,"minĠzuĠzhuĠyiĠ":9618,"ĠEĠ":9619,"baoĠfaĠhouĠ":9620,"leĠheĠ":9621,"19ĠnianĠ":9622,"wenĠdiĠ":9623,"baiĠheĠ":9624,"runĠ":9625,"wuĠpinĠ":9626,"ĠerĠtaĠ":9627,"xueĠxiaoĠdeĠ":9628,"ĠjiaĠerĠ":9629,"duoĠquĠ":9630,"ĠbingĠchengĠ":9631,"tongĠzhiĠzheĠ":9632,"meiĠguoĠrenĠkouĠpuĠchaĠ":9633,"ĠdiĠqiĠyaĠ":9634,"ĠĠĠguoĠjiĠ":9635,"taĠĠĠ":9636,"wenĠbuĠ":9637,"zeĠbeiĠ":9638,"chiĠdaoĠ":9639,"heĠlanĠ":9640,"ĠzhongĠdaĠ":9641,"wuĠerĠ":9642,"jiaĠsuĠ":9643,"huiĠsheĠ":9644,"huaĠfenĠ":9645,"moĠfangĠ":9646,"poĠlunĠ":9647,"ĠLi":9648,"ĠĠĠhongĠ":9649,"dongĠheĠ":9650,"yuanĠshengĠ":9651,"fuĠzeĠrenĠ":9652,"jingĠlingĠ":9653,"fanĠgongĠ":9654,"caiĠfangĠ":9655,"1ĠriĠqiĠ":9656,"ĠtaiĠbeiĠ":9657,"mouĠxie":9658,"7ĠgeĠ":9659,"ĠĠĠyaĠ":9660,"yaĠzaiĠ":9661,"tedĠĠĠ":9662,"ĠshiĠeĠluoĠsiĠ":9663,"guoĠchengĠzhongĠ":9664,"geĠlaĠsiĠ":9665,"faĠxian":9666,"faĠdaĠ":9667,"aiĠhaoĠ":9668,"pianĠduanĠ":9669,"Ġ12Ġ":9670,"2ĠĠĠ":9671,"Ġ1994ĠnianĠ":9672,"ĠĠĠfenĠleiĠ":9673,"faĠzaiĠ":9674,"quĠdeĠyiĠgeĠ":9675,"guĠerĠ":9676,"diaoĠyuĠ":9677,"26Ġ":9678,"lyĠĠĠ":9679,"ĠguoĠduĠ":9680,"ĠqiĠyueĠ":9681,"huaĠbeiĠ":9682,"tiĠgong":9683,"fenĠpei":9684,"ĠaĠerĠbeiĠ":9685,"ĠpengĠ":9686,"ĠĠĠzhenĠ":9687,"zhiĠdeĠyiĠ":9688,"guanĠliĠdeĠ":9689,"nanĠxiĠ":9690,"qingĠliĠ":9691,"luoĠheĠ":9692,"niuĠyueĠshiĠ":9693,"diĠdianĠ":9694,"jiaĠshangĠ":9695,"jueĠseĠdeĠ":9696,"ĠjinĠerĠ":9697,"xianĠdeĠfeiĠjianĠzhiĠdiĠquĠ":9698,"ĠgaiĠshiĠ":9699,"yuĠyiĠgeĠ":9700,"qiuĠyiĠ":9701,"rengĠweiĠ":9702,"ryĠĠĠ":9703,"ĠguoĠjunĠ":9704,"seĠcaiĠ":9705,"erĠdeĠmingĠ":9706,"0ĠzuoĠbiaoĠweiĠ":9707,"ĠboĠshiĠ":9708,"huaĠerĠ":9709,"ganĠshiĠ":9710,"tangĠheĠ":9711,"taoĠliĠ":9712,"ĠqiĠB1900":9713,"mingĠchengĠweiĠ":9714,"lianĠsaiĠdeĠ":9715,"ĠweiĠyuĠyinĠjingĠ":9716,"ĠweiĠwuĠerĠ":9717,"0ĠzuoĠbiaoĠweiĠchiĠjingĠ":9718,"ĠyingĠdeĠ":9719,"shuĠdiĠ":9720,"quĠdiĠ":9721,"duiĠdaĠ":9722,"wenĠzhiĠ":9723,"nanĠzhiĠ":9724,"luoĠerĠ":9725,"puĠjiĠ":9726,"gengĠshiĠ":9727,"fuĠnvĠ":9728,"shengĠhuoĠdeĠ":9729,"dongĠyaĠ":9730,"ĠsiĠxiangĠ":9731,"nanĠbuĠdeĠ":9732,"suoĠweiĠdeĠ":9733,"ĠliĠshiĠhuiĠ":9734,"dianĠshiĠdongĠhuaĠ":9735,"ĠzongĠtongĠ":9736,"ĠyinĠciĠzaiĠ":9737,"Ġãĥ³":9738,"daĠrenĠ":9739,"chengĠxiangĠ":9740,"ĠshiĠjiĠzhongĠ":9741,"ĠqingĠchaoĠzhengĠzhiĠrenĠwuĠ":9742,"ĠĠĠsanĠ":9743,"ĠĠĠ11ĠyueĠ":9744,"moĠliĠ":9745,"shuiĠzhongĠ":9746,"senĠdeĠ":9747,"sangĠshiĠ":9748,"buĠhuiĠ":9749,"yuanĠxiaoĠ":9750,"chuĠsaiĠ":9751,"zuĠqiuĠlianĠsaiĠ":9752,"ĠguoĠminĠzhengĠfuĠ":9753,"Ġzou":9754,"taiĠzaiĠ":9755,"gongĠdianĠ":9756,"ĠxiĠzhouĠ":9757,"ĠfuĠlangĠ":9758,"ĠdongĠhuaĠ":9759,"ĠFĠ":9760,"ĠĠĠcheĠzhanĠgouĠzaoĠ":9761,"ĠĠĠ2022ĠnianĠ":9762,"teĠsiĠ":9763,"baiĠnianĠ":9764,"dongĠquĠ":9765,"yinĠdaoĠ":9766,"jiangĠpaiĠ":9767,"miĠqieĠ":9768,"xuanĠyanĠ":9769,"henĠdaĠdeĠ":9770,"biaoĠxianĠchuĠ":9771,"Ġ1945":9772,"yiĠĠĠ":9773,"ĠĠĠbiĠ":9774,"ĠĠĠlinĠ":9775,"ĠĠĠtaĠdeĠ":9776,"liangĠyiĠ":9777,"60Ġ":9778,"ĠnianĠqingĠdeĠ":9779,"daĠlou":9780,"meiĠdongĠ":9781,"nanĠsiĠlaĠfuĠ":9782,"xinĠtaiĠbiĠ":9783,"ĠIn":9784,"Ġ1992ĠnianĠ":9785,"luĠzhongĠ":9786,"teĠrenĠ":9787,"baiĠshiĠ":9788,"juĠdianĠ":9789,"saiĠnaĠ":9790,"kongĠzhiĠdeĠ":9791,"feiĠlvĠbinĠ":9792,"ĠĠĠzuoĠ":9793,"yunĠzaiĠ":9794,"chuanĠdaoĠ":9795,"shaoĠweiĠ":9796,"35Ġ":9797,"veĠĠĠ":9798,"penĠdiĠ":9799,"1909ĠnianĠ":9800,"yuanĠzhengĠ":9801,"gongĠwuĠ":9802,"shengĠdanĠ":9803,"yingĠxiangĠdeĠ":9804,"xinĠquĠ":9805,"ĠxingĠzheng":9806,"zongĠshuĠjiĠ":9807,"leiĠsiĠyuĠ":9808,"xunĠzhao":9809,"wanĠchengĠleĠ":9810,"ĠJĠ":9811,"shunĠshiĠzhenĠyuĠ":9812,"Ġla":9813,"ĠchangĠqiĠ":9814,"ĠtaiĠguoĠ":9815,"ĠĠĠ9":9816,"duĠzaiĠ":9817,"shaĠrenĠ":9818,"28Ġ":9819,"yingĠpian":9820,"luĠjingĠ":9821,"ĠgeĠmingĠ":9822,"faĠbuĠleĠ":9823,"ĠweiĠyuĠgaiĠshengĠ":9824,"zhanĠyiĠzhongĠ":9825,"tuĠshiĠ":9826,"waĠdeĠ":9827,"suanĠjianĠ":9828,"beiĠrenĠweiĠ":9829,"ĠqiĠrenĠ":9830,"bianĠmaĠ":9831,"ĠminĠzhuĠ":9832,"ĠguangĠxiĠ":9833,"xunĠxiĠ":9834,"daĠgeĠmingĠ":9835,"wuĠtiĠ":9836,"changĠchangĠ":9837,"aoĠdaĠliĠ":9838,"jiaĠruĠleĠ":9839,"zhenĠjiĠxingĠzhengĠdanĠweiĠ":9840,"Ġ1990":9841,"Ġ160":9842,"ĠĠĠkaiĠ":9843,"youĠyiĠzhiĠ":9844,"faĠweiĠyuanĠ":9845,"taĠliĠ":9846,"teĠweiĠ":9847,"feiĠdiĠ":9848,"shuiĠheĠ":9849,"paoĠdaoĠ":9850,"zheĠxiangĠ":9851,"feiĠdanĠ":9852,"ĠgeĠerĠ":9853,"hongĠzhaĠ":9854,"ĠzhanĠhouĠ":9855,"ĠxingĠzhengĠquĠ":9856,"zhanĠdouĠjiĠ":9857,"muĠliĠ":9858,"yaĠjiĠ":9859,"duanĠweiĠ":9860,"congĠzhongĠ":9861,"daĠbanĠ":9862,"ĠxiĠgeĠ":9863,"jiangĠnanĠ":9864,"benĠzhanĠ":9865,"ĠziĠran":9866,"Ġgang":9867,"Ġ64":9868,"ĠluoĠsiĠ":9869,"ĠduĠliĠ":9870,"qiangĠdaĠ":9871,"genĠdiĠ":9872,"ĠqiĠxi":9873,"zuoĠwuĠ":9874,"Ġ1993ĠnianĠ":9875,"zhuanĠkeĠ":9876,"xiuĠsiĠ":9877,"16ĠnianĠ":9878,"1970ĠnianĠdaiĠ":9879,"ĠbuĠtong":9880,"ĠbuĠbingĠ":9881,"shangĠbiaoĠ":9882,"leĠbiĠ":9883,"zhanĠlveĠ":9884,"ĠpingĠchengĠ":9885,"tiaoĠkuanĠ":9886,"Ġ9Ġ":9887,"eĠyuĠ":9888,"Ġpang":9889,"lianĠshiĠ":9890,"zuiĠxingĠ":9891,"zhuanĠchengĠ":9892,"ĠyiĠdingĠ":9893,"ĠyiĠseĠlieĠ":9894,"ĠzhiĠhou":9895,"luoĠteĠ":9896,"ĠcongĠciĠ":9897,"ĠweiĠjiĠchuĠ":9898,"xiaĠxiaĠdeĠyiĠgeĠxiangĠzhenĠjiĠxingĠzhengĠdanĠweiĠ":9899,"Ġ58":9900,"ĠaoĠsiĠ":9901,"ĠĠĠZ":9902,"ĠĠĠfengĠ":9903,"baĠjiĠsiĠ":9904,"33Ġ":9905,"xueĠtongĠ":9906,"laiĠkanĠ":9907,"kaiĠchuĠ":9908,"chuanĠshuĠ":9909,"lvĠhuaĠ":9910,"Ġcang":9911,"minĠshiĠ":9912,"35ĠnianĠ":9913,"qiaĠ":9914,"buĠzuĠ":9915,"xiangĠliangĠ":9916,"fangĠkongĠ":9917,"bingĠbeiĠ":9918,"dianĠxinĠ":9919,"shenĠpanĠ":9920,"ĠboĠlanĠ":9921,"hunĠningĠ":9922,"ĠguanĠzhuangĠbingĠduĠ":9923,"zhuiĠsuĠdaoĠ":9924,"Ġkao":9925,"zhanĠliĠ":9926,"shengĠqiĠ":9927,"mingĠchaoĠ":9928,"yinĠyingĠ":9929,"wenĠshuĠ":9930,"gangĠqinĠ":9931,"ĠshangĠyeĠ":9932,"nanĠjiĠtiaoĠyueĠ":9933,"aoĠkeĠ":9934,"shouĠzaiĠ":9935,"tingĠzhongĠ":9936,"ESTĠ":9937,"jiaĠsheĠ":9938,"shouĠsunĠ":9939,"ĠgaiĠshuĠ":9940,"ceĠlve":9941,"ĠtongĠyangĠ":9942,"ĠshiĠrenĠminĠzhengĠfuĠ":9943,"Ġ1999":9944,"ĠfenĠbuĠzaiĠ":9945,"ĠĠĠma":9946,"ĠĠĠVi":9947,"diĠshiĠyiĠ":9948,"teĠzhiĠ":9949,"mianĠweiĠ":9950,"longĠkeĠ":9951,"rongĠjiĠ":9952,"22ĠnianĠ":9953,"ĠjiĠyinĠ":9954,"xiĠtongĠdeĠ":9955,"siĠhouĠ":9956,"ciĠdianĠ":9957,"ĠgeĠlanĠ":9958,"yanĠjiuĠdeĠ":9959,"dongĠjingĠduĠ":9960,"3ĠmingĠ":9961,"ĠĠĠ2009ĠnianĠ":9962,"yaĠerĠ":9963,"paiĠheĠ":9964,"buĠtong":9965,"erĠchengĠ":9966,"shangĠkeĠ":9967,"luĠyinĠ":9968,"tiĠanĠ":9969,"yaĠgeĠ":9970,"tianĠxiaĠ":9971,"guangĠbo":9972,"qiangĠdiao":9973,"ĠnanĠbeiĠ":9974,"ĠweiĠshiĠ":9975,"Ġ1995ĠnianĠ":9976,"ĠĠĠfenĠ":9977,"ingĠ":9978,"yuanĠrenĠ":9979,"mingĠqiĠ":9980,"duĠyueĠ":9981,"tuĠsiĠ":9982,"chuanĠshiĠ":9983,"laiĠzi":9984,"paiĠshe":9985,"Ġ47":9986,"Ġ1996ĠnianĠ":9987,"ĠĠĠsheĠjiĠ":9988,"geĠĠĠ":9989,"pingĠrenĠ":9990,"14ĠnianĠ":9991,"raĠ":9992,"ĠzhongĠwen":9993,"chuĠjingĠ":9994,"guanĠzhengĠ":9995,"changĠanĠ":9996,"ĠziĠciĠ":9997,"ĠxiangĠsiĠ":9998,"ĠxiangĠdangĠyuĠ":9999,"zaoĠchuanĠ":10000,"ĠweiĠyuanĠhuiĠzhuĠxiĠ":10001,"ĠaĠliĠ":10002,"ĠTĠ":10003,"canĠsaiĠziĠgeĠ":10004,"nanĠjiĠtiaoĠyueĠtiĠxiĠ":10005,"Ġ1998":10006,"ĠdouĠshiĠ":10007,"jiĠshiĠshiĠ":10008,"ĠĠĠshuĠ":10009,"gaiĠyouĠ":10010,"touĠyuĠ":10011,"ĠshiĠfenĠ":10012,"ĠliĠxianĠ":10013,"ĠzaiĠxinĠ":10014,"mingĠxianĠdeĠ":10015,"shangĠjieĠ":10016,"jiaoĠzhanĠ":10017,"xiaoĠhuaĠ":10018,"ĠfuĠzhuĠ":10019,"caoĠzuo":10020,"ĠhaĠliĠ":10021,"xiuĠdaoĠyuanĠ":10022,"ĠĠĠmoĠ":10023,"duoĠyuĠ":10024,"1925ĠnianĠ":10025,"faĠyanĠrenĠ":10026,"ĠdiĠmianĠ":10027,"jiaoĠtuĠ":10028,"gengĠdaĠdeĠ":10029,"jiĠshiĠjianĠ":10030,"ĠĠĠU":10031,"junĠqiĠ":10032,"liuĠyiĠ":10033,"11ĠnianĠ":10034,"taoĠfaĠ":10035,"saĠkeĠsiĠ":10036,"beiĠluĠ":10037,"shouĠhuĠ":10038,"shouĠgeĠquĠ":10039,"ĠhuiĠfuĠ":10040,"diĠshiĠniĠ":10041,"ĠdaĠyueĠ":10042,"tongĠxingĠlianĠ":10043,"3ĠhaoĠ":10044,"Ġ48":10045,"Ġ1996":10046,"ĠqiĠyiĠ":10047,"ĠĠĠbaoĠ":10048,"jiaĠliĠyaĠ":10049,"banĠzhiĠ":10050,"shuiĠdaoĠ":10051,"hunĠliĠ":10052,"jianĠcha":10053,"guanĠdaoĠ":10054,"biĠyaoĠ":10055,"laiĠwuĠ":10056,"ĠjuĠjueĠ":10057,"ĠhuoĠchengĠ":10058,"weiĠyiĠzhongĠ":10059,"xiaoĠxingĠxingĠdeĠ":10060,"ĠeĠluoĠ":10061,"zhiĠĠĠ":10062,"yingĠyiĠ":10063,"lvĠheĠ":10064,"tuoĠkeĠ":10065,"hunĠyin":10066,"ĠshiĠnianĠ":10067,"ĠweiĠxianĠ":10068,"ĠzhongĠyao":10069,"fangĠshouĠ":10070,"ĠfuĠjinĠdeĠ":10071,"yunĠhuiĠ":10072,"fengĠfuĠdeĠ":10073,"baiĠhouĠ":10074,"ĠzheĠyangĠdeĠ":10075,"diĠerĠciĠ":10076,"quanĠzhiĠ":10077,"ĠdeĠheĠ":10078,"ĠyiĠdanĠ":10079,"faĠshe":10080,"zhengĠxieĠ":10081,"houĠxuĠ":10082,"zhanĠshengĠ":10083,"pingĠdengĠ":10084,"zhouĠkanĠ":10085,"tianĠhuang":10086,"miaoĠshuĠweiĠ":10087,"ĠĠĠzhiĠyeĠshengĠyaĠ":10088,"shanĠmaiĠdeĠyiĠbuĠfenĠ":10089,"Ġ1949ĠnianĠ":10090,"quanĠguoĠzhongĠdianĠwenĠwuĠbaoĠhuĠdanĠweiĠ":10091,"nanĠjiĠtiaoĠyueĠtiĠxiĠguanĠliĠ":10092,"ĠFi":10093,"ĠĠĠhuaĠ":10094,"quĠxiĠ":10095,"dingĠyiĠweiĠ":10096,"sanĠxingĠ":10097,"hanĠjianĠ":10098,"bangĠdiĠ":10099,"xingĠdengĠweiĠ":10100,"faĠxueĠ":10101,"yanĠzhengĠ":10102,"qingĠyuanĠ":10103,"puĠluĠshiĠ":10104,"ĠyeĠchengĠ":10105,"zhengĠzhiĠbuĠ":10106,"ĠfanĠyingĠ":10107,"Ġen":10108,"sanĠzhiĠ":10109,"haoĠjiĠ":10110,"faĠlanĠkeĠ":10111,"ĠsiĠgeĠ":10112,"tangĠquĠ":10113,"ĠdianĠziĠ":10114,"ĠPa":10115,"ĠĠĠliangĠ":10116,"ĠĠĠzaoĠqiĠ":10117,"jingĠdiĠ":10118,"wengĠ":10119,"wuĠhanĠ":10120,"shangĠzuiĠ":10121,"jingĠtiĠ":10122,"zheĠciĠ":10123,"guanĠfang":10124,"duiĠkang":10125,"ĠziĠshengĠ":10126,"ĠcengĠyuĠ":10127,"jieĠquanĠguoĠrenĠminĠdaiĠbiaoĠdaĠhuiĠ":10128,"6ĠmiĠ":10129,"ĠjianĠyiĠ":10130,"ĠĠĠPro":10131,"caiĠshiĠ":10132,"paĠerĠ":10133,"gongĠguoĠ":10134,"jiaĠsiĠ":10135,"dianĠxingĠdeĠ":10136,"xuanĠgaoĠ":10137,"shanĠhuĠ":10138,"laĠmaĠ":10139,"keĠyiĠshengĠ":10140,"quĠdeĠleĠ":10141,"dongĠshiĠhuiĠ":10142,"ĠwoĠdeĠ":10143,"xiaoĠzhiĠ":10144,"mieĠwangĠ":10145,"ĠjiĠjieĠ":10146,"guoĠfangĠ":10147,"ĠbuĠzhangĠ":10148,"zhuĠchengĠ":10149,"huiĠbaoĠ":10150,"ĠxiĠfangĠ":10151,"shouĠhuanĠ":10152,"danĠyaoĠ":10153,"shenĠyeĠ":10154,"ĠyiĠzhiĠzaiĠ":10155,"waiĠbuĠlianĠjieĠ":10156,"ĠĠĠ0":10157,"ĠĠĠkaĠ":10158,"zhongĠyang":10159,"nanĠmeiĠzhouĠ":10160,"zhenĠzhuĠ":10161,"bianĠhuanĠ":10162,"ĠweiĠyuĠzhongĠhuaĠrenĠminĠgongĠheĠguoĠ":10163,"peiĠchangĠ":10164,"ĠgaiĠcunĠshiĠjianĠyuĠ":10165,"ĠĠĠ2007ĠnianĠ":10166,"xiĠdiĠ":10167,"xiĠfangĠ":10168,"zhanĠjianĠ":10169,"guanĠguangĠ":10170,"xuĠlieĠ":10171,"shuiĠliangĠ":10172,"taoĠlun":10173,"Ġgei":10174,"xianĠdeĠdiĠ":10175,"mieĠjueĠ":10176,"ĠliĠaoĠ":10177,"fenĠgeĠ":10178,"xuanĠminĠ":10179,"maĠzuĠ":10180,"naĠyangĠ":10181,"chenĠmoĠ":10182,"Ġ1994":10183,"ĠsĠ":10184,"keĠĠĠ":10185,"leĠyueĠ":10186,"mianĠyouĠ":10187,"xingĠnengĠ":10188,"geĠdiĠdeĠ":10189,"mingĠniĠ":10190,"mingĠmingĠdeĠ":10191,"yingĠxiong":10192,"xiaoĠlvĠ":10193,"ĠshiĠdeĠrenĠ":10194,"ĠjieĠdaoĠ":10195,"chongĠshengĠ":10196,"guoĠjiĠzuĠ":10197,"ĠĠĠhanĠ":10198,"beiĠzhongĠ":10199,"duoĠdaĠ":10200,"shuiĠshiĠ":10201,"nvĠdeĠ":10202,"rongĠhuoĠ":10203,"xiĠerĠ":10204,"keĠjianĠ":10205,"ziĠchengĠ":10206,"shuĠxingĠ":10207,"huaĠruĠ":10208,"nanĠdaoĠ":10209,"zhenĠrongĠ":10210,"gaoĠsu":10211,"dangĠzuoĠ":10212,"dangĠdaiĠ":10213,"daiĠbiaoĠtuan":10214,"ĠweiĠyuĠgaiĠguoĠxiĠbuĠ":10215,"Ġ65":10216,"xianĠqianĠ":10217,"dianĠchangĠ":10218,"gaiĠjianĠ":10219,"boĠgeĠ":10220,"kaiĠbanĠ":10221,"ĠshiĠyiĠjiaĠ":10222,"juĠminĠdianĠ":10223,"zuoĠquĠjiaĠ":10224,"Ġo":10225,"ĠAl":10226,"buĠdeĠyiĠgeĠ":10227,"mingĠzaiĠ":10228,"lanĠheĠ":10229,"xiuĠshiĠ":10230,"xiuĠxianĠ":10231,"1922ĠnianĠ":10232,"keĠyiĠshiĠ":10233,"duiĠbiĠ":10234,"qiuĠmiĠ":10235,"suoĠxieĠ":10236,"ĠziĠjiĠdeĠ":10237,"ĠmuĠqinĠ":10238,"maoĠzeĠdongĠ":10239,"Ġ1992":10240,"zaiĠdeĠguoĠ":10241,"erĠshiĠdeĠ":10242,"guĠsiĠ":10243,"wuĠran":10244,"wuĠdaĠ":10245,"qingĠganĠ":10246,"sheĠruĠ":10247,"gaoĠshanĠ":10248,"feiĠteĠ":10249,"liuĠqiuĠ":10250,"ĠjinĠbiaoĠ":10251,"aiĠnaĠshengĠ":10252,"1ĠjiaĠ":10253,"maĠyiĠ":10254,"kuaĠ":10255,"1911ĠnianĠ":10256,"ĠheĠziĠ":10257,"xingĠzhuangĠ":10258,"shenĠfen":10259,"shanĠchuĠ":10260,"paiĠfangĠ":10261,"4ĠmingĠ":10262,"shuĠyueĠ":10263,"huoĠerĠ":10264,"chongĠdeĠ":10265,"ruanĠtiaoĠ":10266,"ĠwuĠqiĠ":10267,"ĠquĠdaiĠ":10268,"zuĠchengĠbuĠfenĠ":10269,"ĠzhaĠ":10270,"Ġ1985ĠnianĠ":10271,"geĠyueĠdeĠ":10272,"daiĠerĠ":10273,"niĠfuĠ":10274,"zongĠsiĠlingĠ":10275,"mouĠzhongĠ":10276,"1923ĠnianĠ":10277,"fuĠzhuĠxiĠ":10278,"siĠtan":10279,"ĠbuĠshaoĠ":10280,"guanĠlianĠ":10281,"ĠyiĠjiĠzhongĠguoĠdaĠluĠdeĠ":10282,"ganĠqingĠ":10283,"zhuĠyaoĠyouĠ":10284,"ĠĠĠzheĠkeĠ":10285,"ĠHĠ":10286,"dongĠyuĠ":10287,"liangĠqiĠ":10288,"wangĠzaiĠ":10289,"ĠyiĠdiĠ":10290,"ĠweiĠtaĠ":10291,"geĠxiangĠ":10292,"ĠdaĠjieĠ":10293,"meiĠxiaoĠshiĠ":10294,"chuanĠshuo":10295,"ĠdanĠyouĠ":10296,"ĠzuiĠhouĠyiĠ":10297,"feiĠxingĠyuanĠ":10298,"ĠqiuĠduiĠ":10299,"ĠĠĠleiĠ":10300,"leĠzhongĠguoĠ":10301,"guanĠdiĠ":10302,"duĠbuĠ":10303,"zhangĠzhongĠ":10304,"fuĠchuĠ":10305,"geĠjieĠ":10306,"jinĠshengĠ":10307,"jiaoĠdianĠ":10308,"liangĠzuoĠ":10309,"ĠdanĠshiĠzaiĠ":10310,"Ġqiang":10311,"ĠĠĠjiaoĠyuĠ":10312,"maĠheĠ":10313,"deĠguoĠ":10314,"xiĠzangĠ":10315,"juĠliuĠ":10316,"tongĠxiangĠ":10317,"tongĠyongĠ":10318,"ĠfuĠzhuĠxiĠ":10319,"lunĠtanĠ":10320,"genĠbenĠ":10321,"chuĠliĠqiĠ":10322,"luĠyingĠdaiĠ":10323,"Ġá":10324,"ĠĠĠxiangĠgang":10325,"shanĠheĠ":10326,"gengĠgaiĠ":10327,"nuoĠdeĠ":10328,"diĠanĠ":10329,"faĠbiaoĠdeĠ":10330,"houĠxuanĠ":10331,"ĠtaĠshuoĠ":10332,"ĠbingĠxiangĠ":10333,"gengĠduo":10334,"zhengĠzhiĠjiaĠ":10335,"ĠÙ":10336,"Ġkong":10337,"tiĠqiĠ":10338,"xiaoĠweiĠ":10339,"muĠzhongĠ":10340,"ĠzaiĠhaiĠ":10341,"daĠshaĠ":10342,"chuĠjueĠ":10343,"jiaoĠxiaoĠ":10344,"bingĠbuĠshiĠ":10345,"ĠkeĠfuĠ":10346,"haiĠbaĠgaoĠduĠ":10347,"guĠzhangĠ":10348,"ĠheiĠlongĠjiangĠ":10349,"ĠUĠ":10350,"shangĠzaiĠ":10351,"zhaoĠjiĠ":10352,"ĠyouĠyongĠ":10353,"ĠrenĠzhengĠ":10354,"shengĠdianĠ":10355,"jinĠhuaĠ":10356,"ĠxiĠshouĠ":10357,"jiaoĠdaĠdeĠ":10358,"duĠshuĠ":10359,"ĠbingĠchengĠweiĠ":10360,"meiĠguoĠzongĠtongĠ":10361,"kaiĠshiĠyuĠ":10362,"ĠhaiĠbaĠ":10363,"ĠbaĠyueĠ":10364,"fuĠzhiĠfuĠ":10365,"Ġ19Ġ":10366,"xinĠguanĠfeiĠyanĠqueĠzhenĠbingĠliĠ":10367,"ĠÐ¾":10368,"zhongĠshiĠyongĠ":10369,"xiangĠliĠ":10370,"niĠyuĠ":10371,"shuiĠliĠ":10372,"28ĠnianĠ":10373,"zhuiĠqiuĠ":10374,"qiĠyuanĠ":10375,"ĠheĠhuaĠ":10376,"ĠxiĠfaĠ":10377,"yingĠwuĠ":10378,"yeĠchengĠweiĠ":10379,"yinĠjieĠ":10380,"ĠtaĠduiĠ":10381,"boĠduoĠ":10382,"zuiĠda":10383,"baĠmaĠ":10384,"neiĠyaĠ":10385,"cunĠminĠ":10386,"ĠxianĠzhiĠ":10387,"ĠjiĠzhongĠxueĠ":10388,"ĠmengĠguĠ":10389,"ĠĠĠwaiĠbuĠlianĠjieĠ":10390,"quĠyiĠyuanĠ":10391,"baoĠyouĠ":10392,"ĠzhongĠzuĠ":10393,"ĠdaĠbaiĠ":10394,"qianĠdaoĠ":10395,"ĠdanĠreng":10396,"ĠdeĠshiĠqingĠ":10397,"aĠsiĠ":10398,"ĠJo":10399,"ĠĠĠchangĠ":10400,"ĠĠĠzhengĠyiĠ":10401,"baĠyiĠ":10402,"yangĠyuĠ":10403,"ĠbuĠruĠ":10404,"xianĠquĠ":10405,"guanĠkanĠ":10406,"ĠbaoĠliuĠ":10407,"ĠsuoĠxieĠ":10408,"ĠyaĠzhouĠ":10409,"gongĠzuoĠrenĠyuanĠ":10410,"ĠxianĠshiĠyouĠnanĠjiĠtiaoĠyueĠtiĠxiĠguanĠliĠ":10411,"Ġhen":10412,"zuoĠzaiĠ":10413,"laiĠzhiĠ":10414,"sanĠqiĠ":10415,"cunĠchuĠ":10416,"shuaiĠjiaoĠ":10417,"terĠ":10418,"xingĠbieĠ":10419,"beiĠshangĠ":10420,"xinĠtuĠ":10421,"gouĠtongĠ":10422,"ganĠlanĠqiuĠ":10423,"ĠĠĠdengĠ":10424,"zongĠjiĠ":10425,"1970ĠnianĠ":10426,"fuĠluĠ":10427,"wenĠdingĠdeĠ":10428,"wanĠjianĠ":10429,"ĠdanĠquĠ":10430,"Ġ16Ġ":10431,"jiaoĠyiĠsuoĠ":10432,"anĠheĠ":10433,"zhongĠyiĠgeĠ":10434,"shuiĠweiĠ":10435,"luĠyinĠshiĠ":10436,"ĠxiangĠzhengĠ":10437,"zhaoĠkai":10438,"ĠshiĠjiĠchuĠ":10439,"ĠzheĠshiĠdeĠ":10440,"ĠdaiĠmaĠweiĠ":10441,"Ġ600":10442,"ĠmingĠweiĠ":10443,"ĠĠĠaĠĠĠ":10444,"jianĠli":10445,"biĠjiĠ":10446,"guanĠnianĠ":10447,"chaĠjiĠ":10448,"manĠyiĠ":10449,"shouĠcangĠ":10450,"yanĠjiuĠshiĠ":10451,"zhanĠchuĠ":10452,"changĠdaoĠ":10453,"zhenĠwangĠ":10454,"ĠshiĠyiĠkeĠweiĠ":10455,"moĠfaĠ":10456,"ĠyouĠzhiĠ":10457,"ĠMo":10458,"ĠĠĠfenĠbuĠ":10459,"feiĠqiĠ":10460,"1926ĠnianĠ":10461,"shuĠgeĠ":10462,"zhanĠkai":10463,"ĠsiĠmaĠ":10464,"daiĠdaoĠ":10465,"shenĠmiĠ":10466,"suoĠjianĠ":10467,"dingĠdianĠ":10468,"ĠxianĠyiĠ":10469,"ĠsuĠchengĠ":10470,"Ġzan":10471,"Ġ1997":10472,"enĠsiĠ":10473,"ĠĠĠheĠĠĠ":10474,"nanĠyueĠ":10475,"wangĠheĠ":10476,"niĠjiĠ":10477,"17ĠnianĠ":10478,"usĠ":10479,"xiangĠnanĠ":10480,"mingĠjiaoĠ":10481,"yanĠxianĠ":10482,"yeĠsuĠ":10483,"ĠxingĠxingĠ":10484,"suoĠzaiĠdeĠ":10485,"ĠjuĠleĠbuĠ":10486,"ĠLĠ":10487,"zhanĠqiĠ":10488,"danĠjiĠ":10489,"xuĠyiĠ":10490,"1919ĠnianĠ":10491,"ĠyouĠbeiĠ":10492,"fuĠzhuangĠ":10493,"ĠkeĠyunĠ":10494,"lianĠjunĠ":10495,"zuiĠhaoĠdeĠ":10496,"ĠdeĠshiĠyiĠ":10497,"ĠpingĠlunĠ":10498,"maĠlaiĠxiĠya":10499,"raoĠtaiĠyangĠgongĠ":10500,"meiĠdongĠbuĠshiĠquĠ":10501,"ĠjuanĠ":10502,"ĠĠĠmiĠ":10503,"zhanĠbuĠ":10504,"bianĠfuĠ":10505,"tianĠdiĠ":10506,"lanĠshiĠ":10507,"gengĠdaĠ":10508,"ĠshiĠxiaĠxiaĠdeĠyiĠgeĠxiangĠzhenĠjiĠxingĠzhengĠdanĠweiĠ":10509,"ĠzhongĠrenĠ":10510,"geĠxingĠ":10511,"caiĠyongĠleĠ":10512,"Ġjue":10513,"ĠISTAT":10514,"chengĠbuĠ":10515,"baĠkeĠ":10516,"youĠtaiĠ":10517,"ĠzaiĠkeĠ":10518,"shengĠcunĠ":10519,"jinĠjunĠ":10520,"dongĠceĠ":10521,"ruĠxueĠ":10522,"xieĠtiaoĠ":10523,"ĠdanĠzuiĠzhongĠ":10524,"ĠyiĠzhiĠdaoĠ":10525,"yiĠshiĠqiĠ":10526,"ĠdeĠdiĠdiĠ":10527,"saĠlaĠ":10528,"xingĠzhengĠyuanĠ":10529,"ĠsuiĠjiĠ":10530,"tuiĠchuĠleĠ":10531,"Ġ59":10532,"ĠESTĠ":10533,"ĠĠĠ2006ĠnianĠ":10534,"biĠheĠ":10535,"qieĠdeĠ":10536,"beiĠfaĠ":10537,"chuĠxian":10538,"ĠdeĠshiĠliĠ":10539,"ĠerĠjiĠ":10540,"ĠduiĠciĠ":10541,"YĠ":10542,"Ġrou":10543,"ĠEDT":10544,"danĠyouĠ":10545,"nengĠdeĠ":10546,"linĠzhongĠ":10547,"30ĠfenĠ":10548,"ĠyouĠsiĠ":10549,"ĠguoĠhouĠ":10550,"jieĠxiĠ":10551,"ĠdiĠbaĠ":10552,"xinĠfengĠ":10553,"jiaoĠgei":10554,"meiĠguoĠzhiĠ":10555,"shenĠsheĠ":10556,"ĠxingĠquĠ":10557,"ĠmingĠmingĠ":10558,"ĠxieĠzhuĠ":10559,"ĠweiĠyuĠfaĠguoĠao":10560,"ĠkongĠzhiĠ":10561,"huĠzhiĠ":10562,"wenĠweiĠ":10563,"niĠdiĠ":10564,"naĠshiĠ":10565,"huanĠbaoĠ":10566,"ĠjiĠgou":10567,"jianĠdanĠdeĠ":10568,"quĠdaoĠ":10569,"houĠlaiĠdeĠ":10570,"qianĠfangĠ":10571,"xiaĠleĠ":10572,"lingĠganĠ":10573,"zongĠlingĠshiĠ":10574,"laĠduoĠ":10575,"ĠshouĠfuĠ":10576,"zhuĠjiaoĠlianĠ":10577,"guangĠboĠgongĠsiĠ":10578,"jueĠduiĠxingĠdengĠweiĠ":10579,"jueĠsaiĠyiĠ":10580,"ĠØ":10581,"Ġ1990ĠnianĠ":10582,"liĠxiĠ":10583,"benĠshiĠ":10584,"neiĠheĠ":10585,"pianĠweiĠ":10586,"24ĠnianĠ":10587,"aĠmiĠ":10588,"ĠyiĠzhiĠyuĠ":10589,"Ġ5ĠdiaoĠkuaiĠyiĠxiaoĠshiĠ":10590,"biĠliĠniuĠsiĠ":10591,"ĠjiĠbeiĠmeiĠdongĠbuĠshiĠquĠ":10592,"ĠshiĠyiĠkeĠweiĠraoĠtaiĠyangĠgongĠ":10593,"ĠEDTĠ":10594,"ĠshiĠyiĠkeĠweiĠraoĠtaiĠyangĠgongĠzhuanĠdeĠxiaoĠxingĠxingĠ":10595,"Ġ49":10596,"Ġ1984ĠnianĠ":10597,"ĠĠĠbanĠ":10598,"ĠĠĠxuanĠ":10599,"diĠliĠyaĠ":10600,"niĠheĠ":10601,"shaoĠshiĠ":10602,"veĠ":10603,"yuanĠyinĠshiĠ":10604,"guanĠce":10605,"minĠdangĠ":10606,"ĠtaĠweiĠ":10607,"ĠyuanĠziĠ":10608,"2ĠmingĠ":10609,"saiĠerĠweiĠyaĠ":10610,"xiaoĠxingĠxingĠdeĠjueĠduiĠxingĠdengĠweiĠ":10611,"ĠĠĠha":10612,"guangĠyiĠ":10613,"pianĠrenĠ":10614,"1914ĠnianĠ":10615,"zenĠ":10616,"yingĠchiĠ":10617,"ĠfuĠzhouĠ":10618,"tianĠxinĠ":10619,"tiaoĠmuĠ":10620,"henĠduo":10621,"Ġsheng":10622,"ĠboĠliĠ":10623,"zhouĠyuĠ":10624,"qiĠrenĠ":10625,"ziĠshengĠ":10626,"bingĠqieĠ":10627,"miĠsuĠliĠ":10628,"ĠdeĠyiĠjiaĠ":10629,"ĠGĠ":10630,"jiaĠruĠzhongĠguoĠgongĠchanĠdangĠ":10631,"ĠĠĠzheĠkeĠxiaoĠxingĠxingĠdeĠjueĠduiĠxingĠdengĠweiĠ":10632,"Ġjun":10633,"Ġ800":10634,"ĠqiaoĠzhiĠ":10635,"yinĠzaiĠ":10636,"puĠerĠ":10637,"ĠguoĠyouĠ":10638,"beiĠbuĠdeĠ":10639,"duĠzheĠ":10640,"yinĠdiĠanĠnaĠ":10641,"Ġ2024ĠnianĠ":10642,"Ġ1988ĠnianĠ":10643,"moĠnianĠ":10644,"zeĠerĠ":10645,"caiĠjiĠ":10646,"zhaiĠwuĠ":10647,"gunĠ":10648,"juĠluoĠ":10649,"guanĠshangĠ":10650,"ruĠleĠ":10651,"meiĠyouĠrenĠheĠ":10652,"erĠshiĠnianĠ":10653,"ĠjiĠzhongĠzaiĠ":10654,"Ġ1989ĠnianĠ":10655,"ĠĠĠPa":10656,"ĠĠĠhuiĠ":10657,"senĠbaoĠ":10658,"ĠzhiĠhouĠzaiĠ":10659,"xiĠshouĠ":10660,"ĠyueĠseĠfuĠ":10661,"taiĠbei":10662,"wanĠquĠ":10663,"tianĠxianĠ":10664,"douĠkeĠyiĠ":10665,"diaoĠsuĠ":10666,"ĠyiĠweiĠzheĠ":10667,"ĠCa":10668,"ĠĠĠchenĠ":10669,"ciĠrenĠ":10670,"xiaoĠheĠ":10671,"50ĠnianĠ":10672,"1913ĠnianĠ":10673,"ĠyiĠjiĠyiĠ":10674,"ĠyouĠwuĠ":10675,"xiĠjieĠ":10676,"jianĠzhengĠ":10677,"jianĠhuaĠ":10678,"ciĠtianĠtiĠ":10679,"shuiĠshangĠ":10680,"diĠyiĠjieĠ":10681,"Ġbie":10682,"ĠĠĠLa":10683,"shouĠqiĠ":10684,"zaoĠyiĠ":10685,"zhuanĠrenĠ":10686,"lunĠjiĠ":10687,"souĠsuoĠ":10688,"1950ĠnianĠ":10689,"1918ĠnianĠ":10690,"xiĠyuanĠ":10691,"geĠshengĠ":10692,"yanĠzouĠ":10693,"yongĠyuanĠ":10694,"ĠshiĠyiĠyuanĠ":10695,"gangĠtie":10696,"1ĠmingĠ":10697,"zhuĠjiaoĠzuoĠ":10698,"shouĠshiĠlvĠ":10699,"ĠheĠdaoĠquanĠzhangĠ":10700,"1ĠĠĠ":10701,"ĠlieĠcheĠ":10702,"ĠĠĠgu":10703,"qiĠshiĠshiĠ":10704,"37ĠnianĠ":10705,"ĠdiĠdaiĠ":10706,"shangĠyingĠdeĠ":10707,"duĠxingĠ":10708,"zuĠqunĠ":10709,"zhenĠzhengĠdeĠ":10710,"ĠnanĠjingĠ":10711,"junĠshiĠtanĠdingĠ":10712,"keĠliĠmiĠyaĠ":10713,"ĠĠĠgaiĠshuĠ":10714,"ĠzhiĠhuiĠguanĠ":10715,"Ġ1991ĠnianĠ":10716,"fangĠyouĠ":10717,"fanĠdiĠ":10718,"fengĠzhiĠ":10719,"chuangĠshiĠ":10720,"ĠyiĠminĠ":10721,"fuĠshuĠjiĠ":10722,"quĠfuĠzeĠguanĠxiaĠ":10723,"dianĠzhanĠ":10724,"teĠdingĠdeĠ":10725,"lanĠkaĠ":10726,"ĠjiangĠshuĠ":10727,"ĠLe":10728,"ĠMar":10729,"lingĠxingĠ":10730,"lieĠjianĠ":10731,"ĠliĠjieĠ":10732,"xiĠjinĠ":10733,"wuĠranĠ":10734,"xueĠyuan":10735,"qianĠmingĠ":10736,"xiaĠtianĠ":10737,"kongĠjun":10738,"siĠchuanĠshengĠ":10739,"Ġtiao":10740,"chaĠheĠ":10741,"chanĠyuĠ":10742,"chenĠkeĠ":10743,"ĠzaiĠyingĠguoĠ":10744,"xinĠchengĠ":10745,"jiuĠbaĠ":10746,"naĠgeĠ":10747,"ĠchuĠshengĠ":10748,"gengĠgaoĠ":10749,"ouĠmengĠ":10750,"wenĠhuaĠyiĠchanĠ":10751,"ĠheĠnanĠshengĠ":10752,"anĠhuiĠshengĠ":10753,"ĠcangĠ":10754,"moĠheĠ":10755,"zeĠerĠshengĠ":10756,"paiĠrenĠ":10757,"ĠyouĠleĠ":10758,"shangĠbanĠ":10759,"yingĠchaoĠ":10760,"danĠbaiĠzhiĠ":10761,"lingĠxiu":10762,"fanĠmang":10763,"ĠdeĠyiĠyiĠ":10764,"ĠzhuĠzhangĠ":10765,"yongĠyuĠzhiĠ":10766,"ĠjieĠshiĠ":10767,"ĠbanĠbenĠ":10768,"ĠguiĠzhouĠ":10769,"zuoĠpinĠzhongĠ":10770,"ĠSe":10771,"huĠheĠ":10772,"xiaoĠjiĠ":10773,"paiĠweiĠ":10774,"gouĠjianĠ":10775,"kuangĠwuĠ":10776,"2019ĠguanĠzhuangĠbingĠduĠ":10777,"38ĠnianĠ":10778,"huaĠxianĠ":10779,"gaiĠbian":10780,"wangĠyeĠ":10781,"daiĠzhuĠ":10782,"zongĠeĠweiĠ":10783,"nvĠshenĠ":10784,"Ġbin":10785,"enĠdeĠ":10786,"miĠliĠ":10787,"1901ĠnianĠ":10788,"ĠshiĠbiĠ":10789,"ĠzhiĠzhanĠ":10790,"ĠbuĠdanĠ":10791,"shanĠkouĠ":10792,"paiĠqiuĠ":10793,"ĠjuĠbanĠ":10794,"henĠshaoĠ":10795,"gongĠgongĠjiaoĠtongĠ":10796,"ĠfanĠerĠ":10797,"lianĠxuĠjuĠ":10798,"zhuanĠyiĠdaoĠ":10799,"Ġzi":10800,"ĠgeĠrenĠ":10801,"ĠĠĠMi":10802,"ĠĠĠhuangĠ":10803,"23ĠnianĠ":10804,"ĠweiĠboĠ":10805,"beiĠhaiĠdaoĠ":10806,"jingĠfeiĠ":10807,"fenĠhuiĠ":10808,"xiaoĠdaoĠ":10809,"ĠkeĠdaĠ":10810,"ĠshouĠxianĠ":10811,"diĠshiĠsanĠ":10812,"ĠĠĠzhongĠhuaĠrenĠminĠgongĠheĠguoĠ":10813,"ĠNĠ":10814,"eĠluoĠsi":10815,"liĠjieĠ":10816,"ĠĠĠzheĠgeĠ":10817,"chengĠli":10818,"biĠqiĠ":10819,"xuanĠjiĠ":10820,"ĠliĠwuĠ":10821,"xiangĠyaoĠ":10822,"zhengĠfaĠ":10823,"danĠshengĠ":10824,"daiĠshuĠ":10825,"liangĠduĠ":10826,"huĠnanĠshengĠ":10827,"aoĠdi":10828,"quĠyiĠhuiĠxuanĠjuĠ":10829,"ĠtunĠqiĠ":10830,"4ĠmiĠ":10831,"Ġjing":10832,"ĠzuĠchengĠ":10833,"qianĠjiĠ":10834,"dingĠheĠ":10835,"suĠerĠ":10836,"buĠnengĠ":10837,"xinĠzang":10838,"zhenĠyingĠ":10839,"zhenĠjunĠ":10840,"bianĠxieĠ":10841,"zhuangĠyuanĠ":10842,"Ġ1993":10843,"ĠdiĠyuĠ":10844,"ĠĠĠyinĠyueĠ":10845,"biĠsiĠ":10846,"huiĠliĠshiĠ":10847,"xieĠheĠ":10848,"mianĠzhiĠ":10849,"liuĠyueĠ":10850,"menĠzaiĠ":10851,"00ĠpingĠfangĠqianĠmiĠ":10852,"tuoĠsiĠ":10853,"ĠzhongĠshuĠ":10854,"tiĠxianĠ":10855,"wangĠlaiĠ":10856,"liangĠzheĠ":10857,"suoĠzhangĠ":10858,"zuiĠjinĠdeĠ":10859,"ĠbaoĠluoĠ":10860,"ĠtongĠnianĠ12ĠyueĠ":10861,"ĠĠĠsuiĠran":10862,"yuanĠwaiĠlangĠ":10863,"ĠRa":10864,"ĠĠĠBo":10865,"ĠĠĠsaiĠ":10866,"youĠzhiĠwuĠ":10867,"gongĠzaiĠ":10868,"qingĠyuĠ":10869,"maĠjiĠ":10870,"chiĠzhiĠ":10871,"ĠyouĠdaĠ":10872,"gongĠxueĠyuanĠ":10873,"ĠdaĠxiaoĠ":10874,"guangĠpuĠ":10875,"ĠgeĠlunĠ":10876,"ĠjieĠhunĠ":10877,"xunĠluoĠ":10878,"douĠmeiĠyouĠ":10879,"ĠjingĠchangĠ":10880,"baoĠkuoĠyiĠxiaĠ":10881,"luoĠmaĠniĠyaĠ":10882,"ĠbeiĠbuĠ":10883,"ĠfaĠbuĠ":10884,"ĠshiĠyingĠ":10885,"siĠmaĠ":10886,"kouĠjingĠ":10887,"caiĠhuiĠ":10888,"chiĠcunĠ":10889,"shuiĠshouĠ":10890,"ĠerĠrenĠ":10891,"ĠwuĠyueĠ":10892,"ĠĠĠMe":10893,"ĠĠĠguanĠyuĠ":10894,"niĠxiĠ":10895,"dunĠheĠ":10896,"diaoĠxiangĠ":10897,"fuĠbuĠ":10898,"jingĠbaoĠ":10899,"fangĠsongĠ":10900,"zhanĠcheĠ":10901,"luoĠboĠ":10902,"tuiĠxiu":10903,"ĠzeĠshiĠ":10904,"chuĠheĠ":10905,"ĠweiĠmingĠ":10906,"guoĠjia":10907,"fangĠkong":10908,"muĠbiaoĠshiĠ":10909,"teĠshuĠdeĠ":10910,"yunĠnanĠshengĠ":10911,"dangĠdi":10912,"ĠgongĠsiĠdeĠ":10913,"xunĠhaoĠ":10914,"ĠyuanĠbenĠ":10915,"ĠzuiĠzhongĠyiĠ":10916,"ĠdangĠxuanĠ":10917,"ĠĠĠshiĠyiĠ":10918,"Ġ1991":10919,"ĠruiĠ":10920,"ĠxĠ":10921,"ĠzhuĠyouĠ":10922,"xiaĠdaĠ":10923,"zhanĠfangĠ":10924,"sheĠqun":10925,"ĠtaĠchengĠweiĠ":10926,"jueĠsaiĠzhongĠ":10927,"ĠdanĠbeiĠ":10928,"ĠyeĠchengĠweiĠ":10929,"piĠpanĠ":10930,"ĠnianĠ4ĠyueĠ1ĠriĠ":10931,"ĠsanĠyueĠ":10932,"Ġhe":10933,"ĠyaĠliĠ":10934,"zhengĠshiĠdeĠ":10935,"guanĠyouĠ":10936,"liangĠdiĠ":10937,"banĠheĠ":10938,"shuiĠxianĠ":10939,"manĠdiĠguoĠ":10940,"nangĠ":10941,"HDĠĠĠ":10942,"1921ĠnianĠ":10943,"ĠdeĠqiĠ":10944,"ĠliĠzaiĠ":10945,"erĠsiĠ":10946,"zhengĠguiĠ":10947,"laiĠwangĠ":10948,"ĠshiĠweiĠzheĠ":10949,"zhuĠtiĠquĠ":10950,"meiĠzhongĠbuĠshiĠquĠ":10951,"Ġqiong":10952,"ĠDi":10953,"ĠSa":10954,"ĠCST":10955,"anĠĠĠ":10956,"yangĠqiĠ":10957,"yangĠfuĠ":10958,"endĠ":10959,"chuanĠyuanĠ":10960,"ĠgaiĠcunĠ":10961,"ĠyouĠliĠ":10962,"ĠCDT":10963,"ĠĠĠyingĠxiangĠ":10964,"ĠzaiĠqianĠ":10965,"ĠyueĠqiĠ":10966,"bingĠyuanĠ":10967,"shenĠyangĠ":10968,"zhenĠxianĠ":10969,"paiĠsheĠdeĠ":10970,"lieĠdianĠ":10971,"zhuanĠyuanĠ":10972,"aoĠmen":10973,"Ġ17Ġ":10974,"Ġ18Ġ":10975,"Ġ6ĠdiaoĠkuaiĠyiĠxiaoĠshiĠ":10976,"ĠjiĠbeiĠmeiĠzhongĠbuĠshiĠquĠ":10977,"ĠCSTĠ":10978,"ĠCDTĠ":10979,"ĠĠĠ2005ĠnianĠ":10980,"bingĠheĠ":10981,"laiĠyiĠ":10982,"dangĠrenĠ":10983,"zhenĠsiĠ":10984,"nongĠliĠ":10985,"jianĠjinĠ":10986,"wenĠquanĠ":10987,"gaiĠzao":10988,"zuĠqiu":10989,"jiuĠjingĠ":10990,"ĠzheĠchangĠ":10991,"ĠerĠyuĠ":10992,"guĠheĠ":10993,"pingĠjiĠ":10994,"tuĠyuĠ":10995,"sangĠshengĠ":10996,"fouĠjueĠ":10997,"ĠyiĠluĠ":10998,"ĠnianĠshiĠjieĠbeiĠ":10999,"shouĠchangĠ":11000,"zhanĠting":11001,"yeĠxianĠ":11002,"ĠkeĠjianĠ":11003,"1ĠmiĠ":11004,"ĠĠĠbenĠshuĠ":11005,"ĠjiĠtuanĠjunĠ":11006,"ĠdeĠweiĠzhiĠ":11007,"liuĠzhiĠ":11008,"ĠzaiĠxiangĠ":11009,"ĠbuĠmanĠ":11010,"jinĠtianĠ":11011,"huoĠjiangĠ":11012,"muĠfuĠ":11013,"xuanĠzhuanĠ":11014,"ĠdeĠyiĠmingĠ":11015,"tuoĠmaĠsiĠ":11016,"nuoĠmanĠdiĠ":11017,"aoĠlinĠpiĠkeĠyunĠdongĠ":11018,"lieĠcheĠdeĠ":11019,"aoĠsiĠkaĠ":11020,"yanĠhaiĠshengĠfenĠ":11021,"banĠjiangĠdianĠliĠ":11022,"zhaoĠheĠ":11023,"maiĠjiaĠ":11024,"kenĠtaĠjiĠ":11025,"45Ġ":11026,"wuĠgongĠ":11027,"chuĠsiĠ":11028,"chuĠjuĠ":11029,"ĠdaĠpoĠ":11030,"jiaoĠxingĠ":11031,"junĠtuan":11032,"ĠjinĠciĠyuĠ":11033,"tingĠcheĠchangĠ":11034,"tieĠluĠdeĠ":11035,"¡Ġ":11036,"huĠliĠ":11037,"neiĠzhiĠ":11038,"mengĠxiangĠ":11039,"kanĠjianĠ":11040,"paoĠdeĠ":11041,"shuaiĠxianĠ":11042,"zhenĠxiangĠ":11043,"dingĠleĠ":11044,"waiĠshuĠruĠ":11045,"ĠshengĠyaĠ":11046,"ĠmingĠchengĠ":11047,"reĠmenĠ":11048,"ĠhuoĠdeĠyiĠmeiĠ":11049,"fenĠbieĠshiĠ":11050,"ĠcheĠxiaoĠ":11051,"jieĠquanĠguoĠzhengĠxieĠweiĠyuanĠ":11052,"ĠĠĠgaiĠdiĠ":11053,"buĠzhiĠdaoĠ":11054,"cheĠweiĠ":11055,"meĠĠĠ":11056,"29Ġ":11057,"heĠbingĠ":11058,"daoĠdiĠ":11059,"jiangĠhuĠ":11060,"lanĠzhouĠ":11061,"ĠzaiĠjiĠ":11062,"lianĠsaiĠguanĠjunĠ":11063,"ĠmaĠkeĠ":11064,"hongĠzhaĠjiĠ":11065,"8ĠmiĠ":11066,"Ġchai":11067,"ĠTo":11068,"ĠxinĠdeĠ":11069,"bingĠqiĠ":11070,"huoĠjiĠ":11071,"maĠdiĠ":11072,"34ĠnianĠ":11073,"xiĠanĠ":11074,"luĠsaĠ":11075,"fenĠfenĠ":11076,"liuĠchengĠ":11077,"zhuanĠshuĠ":11078,"ĠbaoĠchiĠ":11079,"yuĠshiĠjieĠ":11080,"ĠĠĠ12ĠyueĠ":11081,"erĠliĠ":11082,"qingĠzhiĠ":11083,"pingĠxiĠ":11084,"zhuiĠjiĠ":11085,"ziĠnvĠ":11086,"wenĠbenĠ":11087,"fenĠzuĠ":11088,"ĠfuĠbuĠ":11089,"jiuĠlong":11090,"luoĠbaiĠ":11091,"hunĠluanĠ":11092,"aĠerĠbaĠ":11093,"Ġliao":11094,"wanĠzaiĠ":11095,"liuĠjiĠ":11096,"leiĠerĠ":11097,"TVĠ":11098,"ĠshiĠfou":11099,"faĠyanĠ":11100,"daiĠmuĠ":11101,"laiĠyuanĠyuĠ":11102,"zuiĠduo":11103,"feiĠzhou":11104,"shuiĠjingĠ":11105,"liĠyaĠ":11106,"keĠyiĠzhiĠ":11107,"ĠdaĠweiĠ":11108,"ĠĠĠshaĠ":11109,"zaiĠshiĠjieĠ":11110,"yingĠzaiĠ":11111,"zhouĠdaĠxueĠ":11112,"woĠsiĠ":11113,"ĠyueĠguoĠ":11114,"dongĠtaiĠ":11115,"cheĠchuĠ":11116,"zongĠgongĠ":11117,"kouĠhaoĠ":11118,"aĠboĠ":11119,"ĠciĠkeĠ":11120,"zengĠsheĠ":11121,"9ĠshiĠ":11122,"ĠAr":11123,"ĠrenĠzhiĠ":11124,"yinĠyiĠ":11125,"meiĠjiĠ":11126,"dianĠliĠjiĠ":11127,"lunĠyuĠ":11128,"touĠshiĠ":11129,"27ĠnianĠ":11130,"kunĠmingĠ":11131,"ĠdeĠerĠ":11132,"xingĠxiĠ":11133,"shuĠjiaĠ":11134,"jingĠxiangĠ":11135,"woĠlunĠ":11136,"Ġ1983ĠnianĠ":11137,"ĠĠĠ2000":11138,"laĠshiĠ":11139,"liuĠjiaĠ":11140,"rongĠweiĠ":11141,"gengĠmingĠ":11142,"46ĠnianĠ":11143,"ĠrenĠtongĠ":11144,"keĠlaiĠ":11145,"beiĠjieĠ":11146,"ĠqiĠbuĠ":11147,"liĠnuoĠyiĠ":11148,"eĠwaiĠ":11149,"quĠdeĠfuĠzeĠguanĠxiaĠ":11150,"ĠyingĠcunĠ":11151,"Ġ20ĠshiĠjiĠ":11152,"aiĠsiĠ":11153,"ĠĠĠlingĠyiĠ":11154,"quĠweiĠyuĠ":11155,"quanĠyuĠ":11156,"duoĠjiaĠ":11157,"douĠyiĠ":11158,"pianĠyuĠ":11159,"80Ġ":11160,"ĠshiĠyongĠdeĠ":11161,"ĠweiĠfanĠ":11162,"ĠyouĠzhengĠ":11163,"huiĠdaoĠzhiĠ":11164,"shuĠxieĠ":11165,"yeĠmeiĠyouĠ":11166,"ĠdaĠniĠ":11167,"xinĠbeiĠshiĠ":11168,"zuĠgouĠ":11169,"bianĠquĠ":11170,"maĠdingĠ":11171,"baĠbaĠ":11172,"ĠgaiĠjianĠ":11173,"seĠqingĠ":11174,"ĠqingĠhuaĠ":11175,"Ġ13Ġ":11176,"lvĠkeĠtieĠdaoĠ":11177,"ĠBa":11178,"ĠzengĠjiaĠ":11179,"anĠyuĠ":11180,"ĠĠĠyinĠweiĠ":11181,"ĠĠĠteĠzhengĠ":11182,"jiaoĠzhongĠ":11183,"quanĠheĠ":11184,"xuĠyuĠ":11185,"chuanĠjiaĠ":11186,"poĠdeĠ":11187,"32ĠnianĠ":11188,"jiaĠgouĠ":11189,"taiĠyuanĠ":11190,"danĠmai":11191,"ĠgaiĠzhuangĠ":11192,"ĠdongĠfangĠ":11193,"taĠmenĠzaiĠ":11194,"ĠwuĠkeĠlan":11195,"7ĠmiĠ":11196,"ĠbuĠlunĠ":11197,"gaiĠliangĠ":11198,"ĠwuĠziĠ":11199,"ĠtaĠerĠ":11200,"qiangĠlieĠdeĠ":11201,"ĠfaĠyuanĠ":11202,"henĠkuai":11203,"keĠnengĠdeĠ":11204,"ĠlianĠheĠguoĠ":11205,"ĠĠĠta":11206,"zhiĠshiĠyongĠ":11207,"muĠweiĠ":11208,"paiĠxiĠ":11209,"qinĠdeĠ":11210,"guoĠwuĠ":11211,"ĠzaiĠfaĠguoĠ":11212,"gongĠxiangĠ":11213,"ĠqiĠzhuĠ":11214,"jinĠdaiĠ":11215,"mingĠeĠ":11216,"shangĠsuoĠ":11217,"qiuĠduiĠdeĠ":11218,"ĠgongĠzhuĠ":11219,"peiĠjueĠ":11220,"ĠerĠyueĠ":11221,"gongĠheĠguoĠdeĠ":11222,"ĠgaoĠsuĠ":11223,"ĠIĠ":11224,"Ġwai":11225,"huoĠqiĠtaĠ":11226,"xiaoĠzhongĠ":11227,"dianĠzhiĠ":11228,"haiĠweiĠ":11229,"dingĠyouĠ":11230,"erĠyanĠ":11231,"ĠqiĠtaĠdeĠ":11232,"zhuanĠhuiĠ":11233,"hunĠningĠtuĠ":11234,"Ġ1995":11235,"ĠhuaiĠ":11236,"boĠxiĠ":11237,"suoĠjiĠ":11238,"tuĠxiĠ":11239,"ceĠweiĠ":11240,"ĠyiĠdaoĠ":11241,"diĠdiĠ":11242,"gongĠye":11243,"zhengĠsiĠ":11244,"jiaoĠshaoĠ":11245,"ĠkeĠlinĠ":11246,"zhouĠmoĠ":11247,"Ġ14Ġ":11248,"ĠfouĠzeĠ":11249,"Ġteng":11250,"kouĠyuĠ":11251,"39ĠnianĠ":11252,"shouĠjieĠ":11253,"jiangĠzuoĠ":11254,"lianĠboĠ":11255,"kaiĠyeĠ":11256,"baĠgongĠ":11257,"tanĠpan":11258,"xingĠzhengĠquĠyuĠ":11259,"xueĠzhiĠ":11260,"lingĠyouĠ":11261,"bianĠliĠ":11262,"xiuĠxiĠ":11263,"kunĠchongĠ":11264,"31ĠnianĠ":11265,"1905ĠnianĠ":11266,"ĠbuĠxingĠ":11267,"keĠhuĠ":11268,"mingĠshengĠ":11269,"ĠdaĠdianĠ":11270,"xinĠxinĠ":11271,"qianĠshuiĠ":11272,"bingĠtuanĠ":11273,"ĠxiangĠduiĠ":11274,"ĠjieĠzhuĠ":11275,"enĠlaiĠ":11276,"fuĠjianĠshengĠ":11277,"ĠqiĠxiĠzaiĠdiĠ":11278,"ĠĠĠBe":11279,"36ĠnianĠ":11280,"ĠshiĠchuĠ":11281,"ĠyouĠbaoĠ":11282,"gongĠdangĠ":11283,"jieĠdianĠ":11284,"xiangĠmuĠdeĠ":11285,"ĠxiĠlieĠdeĠ":11286,"nanĠzhuĠjueĠ":11287,"zuiĠhouĠdeĠ":11288,"guĠchengĠ":11289,"suĠzhouĠ":11290,"ĠshiĠyiĠyueĠ":11291,"ĠdeĠshiĠyanĠ":11292,"ĠnanĠxingĠ":11293,"ĠzhanĠdou":11294,"ĠjiĠqiĠrenĠ":11295,"ĠĠĠweiĠyuĠ":11296,"dongĠnanĠyaĠ":11297,"tianĠwenĠxueĠjiaĠ":11298,"ĠxinĠjiaĠpoĠ":11299,"zuoĠweiĠyuĠ":11300,"manĠyuĠ":11301,"ĠyiĠkaiĠshiĠ":11302,"zhongĠyaoĠdeĠ":11303,"wuĠdingĠ":11304,"beiĠceĠ":11305,"leĠziĠjiĠdeĠ":11306,"maĠchangĠ":11307,"ĠdanĠbaiĠ":11308,"puĠsheĠ":11309,"liĠchangĠ":11310,"ĠmeiĠtiĠ":11311,"ĠĠĠxuĠ":11312,"huiĠqiĠ":11313,"lunĠheĠ":11314,"ĠzhiĠheĠ":11315,"ĠzaiĠxiangĠgangĠ":11316,"wuĠjianĠ":11317,"chengĠnuoĠ":11318,"chuĠbanĠdeĠ":11319,"yinĠmouĠ":11320,"xinĠyongĠ":11321,"banĠyan":11322,"ĠgongĠchanĠ":11323,"huanĠqiuĠ":11324,"kongĠlongĠ":11325,"canĠzhengĠ":11326,"ĠhongĠzha":11327,"luoĠdiĠyaĠ":11328,"zhongĠguoĠrenĠminĠjieĠfangĠjunĠ":11329,"ĠkuangĠ":11330,"ĠhaiĠshiĠ":11331,"ĠniĠkeĠ":11332,"Ġ1986ĠnianĠ":11333,"xiĠrenĠ":11334,"ĠĠĠSe":11335,"ĠĠĠ2023ĠnianĠ":11336,"haiĠheĠ":11337,"lingĠzhiĠ":11338,"saiĠheĠ":11339,"gangĠshiĠ":11340,"ĠbuĠxiĠ":11341,"daoĠqiĠ":11342,"beiĠgaoĠ":11343,"changĠguiĠ":11344,"chuanĠtong":11345,"ĠdanĠmeiĠyouĠ":11346,"xunĠwenĠ":11347,"Ġ1950ĠnianĠ":11348,"ĠĠĠi":11349,"90Ġ":11350,"buĠshaoĠ":11351,"beiĠfuĠ":11352,"ĠqiĠdiĠ":11353,"ĠdiĠtie":11354,"dianĠxingĠ":11355,"benĠjieĠ":11356,"zongĠmianĠjiĠ":11357,"huanĠguanĠ":11358,"ouĠmeng":11359,"Ġ1989":11360,"ĠBe":11361,"ĠruiĠdianĠ":11362,"Ġ1920ĠnianĠ":11363,"guĠyuĠ":11364,"liuĠrenĠ":11365,"suanĠyanĠ":11366,"kuanĠdeĠ":11367,"yuanĠdiĠ":11368,"ĠbuĠshouĠ":11369,"juĠzhenĠ":11370,"yingĠbiĠ":11371,"yinĠxingĠ":11372,"ĠbingĠzhiĠ":11373,"ĠxiaĠwuĠ":11374,"ĠbenĠjieĠ":11375,"ĠpinĠdaoĠ":11376,"luĠqiĠ":11377,"sheĠweiĠ":11378,"banĠyouĠ":11379,"colspanĠ":11380,"ĠyiĠziĠ":11381,"dongĠhaiĠ":11382,"gaiĠshuĠ":11383,"boĠgenĠdiĠ":11384,"dengĠdaiĠ":11385,"guiĠgeĠ":11386,"puĠlaĠ":11387,"moĠtuoĠ":11388,"ĠdeĠshiĠqiĠ":11389,"ceĠhuaĠ":11390,"ĠtianĠwenĠ":11391,"ĠzaiĠweiĠ":11392,"ĠwuĠshiĠ":11393,"ĠchaoĠjiĠ":11394,"ĠĠĠyingĠguoĠ":11395,"leĠliĠ":11396,"bingĠrenĠ":11397,"lanĠdaĠ":11398,"ĠshiĠyingĠguoĠ":11399,"ziĠmeiĠ":11400,"ciĠxingĠ":11401,"yingĠjieĠ":11402,"xiaĠxunĠ":11403,"moĠteĠerĠ":11404,"shuiĠku":11405,"Ġzui":11406,"Ġ1945ĠnianĠ":11407,"fangĠzhongĠ":11408,"zhenĠxingĠ":11409,"tuĠheĠ":11410,"queĠliĠ":11411,"70Ġ":11412,"ĠdeĠdeĠ":11413,"gongĠqingĠ":11414,"jianĠleĠ":11415,"ĠguoĠdaoĠ":11416,"wuĠchuĠ":11417,"yangĠzhouĠ":11418,"moĠteĠ":11419,"ĠyiĠjiĠyuĠ":11420,"ĠdeĠjiĠzaiĠ":11421,"changĠweiĠhuiĠ":11422,"Ġ1985":11423,"ĠjunĠzaiĠ":11424,"zuĠliĠ":11425,"kaiĠjiĠ":11426,"lvĠdiĠ":11427,"guangĠfuĠ":11428,"rouĠshiĠxingĠ":11429,"mentĠ":11430,"ĠyiĠnanĠ":11431,"ĠbuĠshuĠ":11432,"jieĠfuĠ":11433,"jieĠmeiĠ":11434,"faĠshengĠyuĠ":11435,"dongĠluĠ":11436,"caiĠdingĠ":11437,"linĠnaĠ":11438,"eĠtuĠ":11439,"ĠshiĠjiĠzhiĠ":11440,"ĠdeĠguoĠchengĠzhongĠ":11441,"faĠlanĠxiĠdaĠquĠ":11442,"ĠlouĠ":11443,"ĠĠĠde":11444,"yuanĠrenĠminĠbiĠ":11445,"boĠfuĠ":11446,"nvĠshiĠ":11447,"26ĠnianĠ":11448,"45ĠnianĠ":11449,"weiĠyuanĠhuiĠ":11450,"qiĠxiangĠ":11451,"taĠbeiĠ":11452,"jingĠnei":11453,"ĠsiĠtanĠ":11454,"zhangĠwoĠ":11455,"gaoĠcengĠ":11456,"shaoĠliangĠ":11457,"gongĠzuoĠzheĠ":11458,"nongĠcunĠ":11459,"ĠduoĠmingĠ":11460,"ĠweiĠfuĠshuĠjiĠ":11461,"hangĠkongĠmuĠjianĠ":11462,"shengĠhuoĠzaiĠ":11463,"uĠ":11464,"daĠĠĠ":11465,"yuanĠyiĠyuanĠ":11466,"jingĠrenĠ":11467,"bingĠjiĠ":11468,"lieĠdiĠ":11469,"gongĠsiĠyuĠ":11470,"dongĠhua":11471,"xiaĠxiaĠyiĠxiaĠdiĠquĠ":11472,"bianĠruĠ":11473,"ĠjinĠriĠ":11474,"ĠnianĠ10ĠyueĠ1ĠriĠ":11475,"biaoĠzhunĠdeĠ":11476,"aĠbuĠ":11477,"ĠhunĠ":11478,"Ġ1987ĠnianĠ":11479,"ĠĠĠ2004ĠnianĠ":11480,"xianĠshiĠdeĠ":11481,"sheĠheĠ":11482,"baĠbuĠ":11483,"tsĠĠĠ":11484,"xingĠchengĠdeĠ":11485,"chengĠqiĠ":11486,"ĠqiĠzhongĠdeĠ":11487,"jiangĠhuaĠ":11488,"fĠĠĠ":11489,"Ġjuan":11490,"sheĠxingĠ":11491,"taiĠdiĠ":11492,"muĠqiĠ":11493,"boĠyuĠ":11494,"qiuĠyuĠ":11495,"40ĠnianĠ":11496,"43ĠnianĠ":11497,"ĠshiĠyinĠduĠ":11498,"wuĠsuoĠ":11499,"junĠfangĠ":11500,"cheĠshouĠ":11501,"puĠleiĠ":11502,"chanĠliangĠ":11503,"Ġn":11504,"Ġjian":11505,"Ġ1980":11506,"anĠxiĠ":11507,"ĠĠĠ2004":11508,"bingĠzhiĠ":11509,"zhouĠnianĠ":11510,"lingĠjiĠ":11511,"suoĠfuĠ":11512,"nvĠgeĠshouĠ":11513,"qiaoĠchuĠ":11514,"xiangĠqianĠ":11515,"shangĠxiaoĠ":11516,"biĠhuaĠ":11517,"sanĠxiangĠ":11518,"guangĠzhouĠshiĠ":11519,"zhuanĠboĠ":11520,"yiĠdeĠdaoĠ":11521,"ĠbeiĠqiĠshunĠshiĠzhenĠyuĠ":11522,"ĠniuĠyueĠshiĠ":11523,"Ġdu":11524,"ĠfuĠzhiĠ":11525,"Ġ1978ĠnianĠ":11526,"dianĠweiĠyuĠ":11527,"jiuĠjiĠ":11528,"quanĠshiĠjieĠ":11529,"dingĠbuĠ":11530,"tuĠweiĠ":11531,"zhuangĠyouĠ":11532,"33ĠnianĠ":11533,"diĠbaĠ":11534,"guanĠyinĠ":11535,"wanĠyanĠ":11536,"pinĠfanĠ":11537,"ĠruĠjinĠ":11538,"4ĠĠĠ":11539,"ĠĠĠshuiĠ":11540,"luĠyouĠ":11541,"wanĠyuĠ":11542,"niĠdaĠquĠ":11543,"gouĠwuĠ":11544,"ĠguoĠmin":11545,"ĠguoĠfangĠbuĠ":11546,"tongĠhuaĠ":11547,"xiaĠweiĠyiĠ":11548,"lunĠshuĠ":11549,"piĠping":11550,"xiĠbanĠya":11551,"ĠdongĠxiĠ":11552,"ĠXĠ":11553,"ĠyongĠyiĠ":11554,"ĠĠĠtong":11555,"ĠĠĠ2003":11556,"paiĠjiĠ":11557,"douĠzhiĠ":11558,"canĠjiĠrenĠ":11559,"zhaoĠdeĠ":11560,"paoĠbingĠ":11561,"ĠliĠxiangĠ":11562,"keĠhuanĠ":11563,"ziĠfuĠ":11564,"jiangĠxianĠ":11565,"duĠchaĠ":11566,"haiĠguanĠ":11567,"tianĠjinĠshiĠ":11568,"gengĠhuanĠ":11569,"8ĠshiĠ":11570,"Ġshuo":11571,"Ġkui":11572,"Ġ1988":11573,"ĠRi":11574,"ĠleiĠsiĠ":11575,"Ġ1982ĠnianĠ":11576,"Ġ1958ĠnianĠ":11577,"duoĠyiĠ":11578,"nuoĠbeiĠerĠ":11579,"naiĠerĠ":11580,"44ĠnianĠ":11581,"youĠtaiĠrenĠ":11582,"wuĠfuĠ":11583,"jiangĠzhangĠ":11584,"yaĠdianĠ":11585,"fanĠdui":11586,"xuanĠpiaoĠ":11587,"ĠtaĠzhiĠ":11588,"1ĠwanĠ":11589,"renĠweiĠyuanĠ":11590,"ĠduoĠgeĠ":11591,"ĠzuiĠzhongĠzaiĠ":11592,"ĠwanĠpingĠfangĠmiĠ":11593,"mingĠniĠsuĠdaĠ":11594,"ĠjunĠweiĠ":11595,"liĠyouĠ":11596,"qingĠweiĠ":11597,"yuanĠshouĠ":11598,"jianĠxiaoĠ":11599,"zhanĠfuĠ":11600,"yingĠshuĠ":11601,"luoĠmenĠ":11602,"chuanĠxianĠ":11603,"ĠgongĠchangĠ":11604,"guangĠxuĠ":11605,"ĠzhuĠsaiĠ":11606,"ĠtaĠcengĠdaiĠbiao":11607,"enĠĠĠ":11608,"wuĠzhongĠxinĠ":11609,"daoĠĠĠ":11610,"jiangĠweiĠwuĠerĠ":11611,"haĠfuĠ":11612,"ĠliĠchangĠ":11613,"zhengĠlunĠ":11614,"shangĠfaĠlanĠxiĠdaĠquĠ":11615,"baoĠluĠ":11616,"zuiĠchuĠdeĠ":11617,"ĠbingĠhuoĠdeĠ":11618,"chaoĠjiĠlianĠsaiĠ":11619,"ĠyiĠshangĠdeĠ":11620,"qiĠyongĠ":11621,"ĠguoĠanĠ":11622,"ĠdaĠgongĠ":11623,"jiaoĠduoĠ":11624,"fenĠkaiĠ":11625,"meiĠshuĠguanĠ":11626,"tianĠranĠ":11627,"ĠziĠdongĠ":11628,"chongĠfenĠ":11629,"chuangĠzuo":11630,"renĠshiĠdeĠ":11631,"quĠdeĠyiĠ":11632,"tongĠrenĠ":11633,"meiĠrenĠ":11634,"zhouĠzhongĠ":11635,"xuĠjiaĠ":11636,"shuiĠxiĠ":11637,"hongĠshiĠziĠ":11638,"zhongĠdaĠ":11639,"shangĠchuanĠ":11640,"yingĠsheĠ":11641,"guanĠjieĠ":11642,"xinĠxianĠ":11643,"xinĠhuaĠ":11644,"jiaoĠtong":11645,"junĠzhangĠ":11646,"biĠciĠ":11647,"yaĠchiĠ":11648,"tuĠluĠ":11649,"zhunĠqueĠ":11650,"ĠmaĠerĠ":11651,"faĠbiaoĠleĠ":11652,"Ġ22Ġ":11653,"ĠĠĠsuĠ":11654,"yanĠweiĠ":11655,"baoĠzhongĠ":11656,"muĠyiĠ":11657,"gaoĠweiĠ":11658,"sunĠhaiĠ":11659,"chouĠkeĠ":11660,"ĠzhiĠhouĠdeĠ":11661,"heĠyueĠ":11662,"ĠxiĠlanĠ":11663,"taiĠnanĠshiĠ":11664,"xiaĠbanĠ":11665,"ĠzhiĠchiĠzheĠ":11666,"ĠchuanĠtongĠ":11667,"huĠrenĠ":11668,"meiĠyuĠ":11669,"liangĠzaiĠ":11670,"caiĠfuĠ":11671,"1917ĠnianĠ":11672,"beiĠsongĠ":11673,"nanĠceĠ":11674,"canĠyanĠ":11675,"ĠaiĠdeĠ":11676,"guiĠdaoĠjiaoĠtongĠ":11677,"xianĠdaiĠhuaĠ":11678,"dianĠqiĠhuaĠ":11679,"dianĠzaiĠ":11680,"xiaĠheĠ":11681,"muĠyouĠ":11682,"laiĠjiĠ":11683,"qiuĠxingĠ":11684,"lanĠqiĠ":11685,"fuĠmianĠ":11686,"taiĠzhongĠshiĠ":11687,"wangĠchaoĠdeĠ":11688,"muĠhanĠmoĠdeĠ":11689,"neiĠzhengĠbuĠ":11690,"1ĠmianĠ":11691,"daoĠyiĠgeĠ":11692,"gaoĠliĠ":11693,"xuĠzhiĠ":11694,"ĠshiĠmiĠ":11695,"ĠshiĠmiĠsiĠ":11696,"ĠweiĠguoĠ":11697,"gongĠshuĠ":11698,"ĠguoĠjiaĠjiĠ":11699,"fenĠbianĠ":11700,"ĠfuĠmuĠ":11701,"bianĠgengĠ":11702,"luoĠhouĠ":11703,"ĠgaiĠwuĠzhongĠdeĠ":11704,"peiĠxun":11705,"zhengĠfuĠheĠ":11706,"shengĠwuĠxueĠ":11707,"sanĠjiaoĠxingĠ":11708,"2ĠshiĠ":11709,"Ġtie":11710,"gaiĠdeĠ":11711,"47ĠnianĠ":11712,"zhiĠzuoĠ":11713,"ĠliĠjiaĠ":11714,"pingĠxianĠ":11715,"wanĠshanĠ":11716,"2ĠwanĠ":11717,"hongĠshuiĠ":11718,"xiaoĠshiĠhouĠ":11719,"ĠzhenĠduiĠ":11720,"wuĠliĠxueĠjiaĠ":11721,"dongĠbuĠdaĠquĠ":11722,"aĠjiĠtan":11723,"Ġzun":11724,"huiĠshiĠyongĠ":11725,"jiangĠdaĠ":11726,"jiuĠbuĠ":11727,"lieĠtaĠ":11728,"huanĠyouĠ":11729,"ruiĠkeĠ":11730,"29ĠnianĠ":11731,"buĠluĠ":11732,"jianĠjiaoĠ":11733,"wuĠyeĠ":11734,"shouĠyingĠ":11735,"yanĠhuĠ":11736,"ĠdaĠzhengĠ":11737,"wangĠfanĠ":11738,"gaoĠxiongĠ":11739,"lingĠshouĠ":11740,"guĠgeĠ":11741,"lieĠru":11742,"ĠzhuĠyanĠ":11743,"ĠtongĠnianĠ10ĠyueĠ":11744,"ĠmaĠdingĠ":11745,"niuĠyueĠzhouĠ":11746,"ĠKĠ":11747,"ĠAn":11748,"ĠxiangĠshiĠ":11749,"ĠĠĠ5Ġ":11750,"qiĠyiĠzhiĠ":11751,"zhouĠxiĠ":11752,"tingĠzaiĠ":11753,"chenĠshiĠ":11754,"bangĠdanĠ":11755,"42Ġ":11756,"1910ĠnianĠ":11757,"xingĠshengĠ":11758,"ĠdiĠchuĠ":11759,"zhanĠqianĠ":11760,"tongĠchengĠ":11761,"zheĠchangĠ":11762,"dianĠluĠ":11763,"zongĠtiĠ":11764,"chuanĠjiaoĠshiĠ":11765,"ĠzheĠxiangĠ":11766,"qinĠfanĠ":11767,"tuiĠchu":11768,"miaoĠxieĠ":11769,"ĠchaoĠtingĠ":11770,"ĠĠĠFi":11771,"ĠĠĠjiaoĠ":11772,"daoĠzhongĠguoĠ":11773,"dianĠzhongĠ":11774,"kaiĠxingĠ":11775,"saiĠyuĠ":11776,"chunĠjiĠ":11777,"1908ĠnianĠ":11778,"daĠxiĠ":11779,"xingĠmingĠ":11780,"gongĠbuĠdeĠ":11781,"huiĠshouĠ":11782,"houĠzheĠ":11783,"guanĠkan":11784,"taiĠyinĠ":11785,"saiĠtingĠ":11786,"ĠxiangĠbiĠ":11787,"ĠriĠheĠ":11788,"tuoĠleiĠ":11789,"ĠzhanĠzhengĠ":11790,"ĠguangĠzhouĠ":11791,"Ġban":11792,"ĠzouĠ":11793,"ĠĠĠCa":11794,"shuĠdeĠyiĠzhongĠ":11795,"liangĠkeĠ":11796,"zhenĠzhongĠ":11797,"linĠheĠ":11798,"lunĠzhongĠ":11799,"ĠshiĠyinĠweiĠ":11800,"ĠyiĠshouĠ":11801,"daĠbaiĠ":11802,"wuĠjiaĠ":11803,"jieĠmianĠ":11804,"xiangĠcunĠ":11805,"dongĠwuĠdeĠ":11806,"qianĠfengĠ":11807,"banĠdianĠ":11808,"zuĠgouĠdeĠ":11809,"gaoĠfengĠ":11810,"luoĠniĠ":11811,"biaoĠtiĠ":11812,"zhuanĠmen":11813,"shaoĠhuiĠ":11814,"ĠbuĠguoĠzaiĠ":11815,"faĠxianĠleĠciĠtianĠtiĠ":11816,"ĠaĠerĠbeiĠsiĠ":11817,"ZĠ":11818,"ĠzhiĠdeĠ":11819,"ĠhouĠzaiĠ":11820,"ĠĠĠpingĠ":11821,"xinĠnianĠ":11822,"duiĠrenĠ":11823,"gaiĠjiĠ":11824,"niuĠjinĠ":11825,"ghtĠ":11826,"1904ĠnianĠ":11827,"ĠzaiĠgeĠ":11828,"wenĠdaiĠ":11829,"taiĠyang":11830,"qingĠhaiĠ":11831,"liangĠhaoĠdeĠ":11832,"sheĠzhiĠdeĠ":11833,"zhenĠchaĠ":11834,"lingĠduiĠ":11835,"kaiĠboĠ":11836,"paiĠming":11837,"ĠgongĠyuanĠqianĠ":11838,"ĠĠĠDi":11839,"ĠĠĠduoĠ":11840,"xingĠdeĠshiĠ":11841,"taiĠzhiĠ":11842,"guangĠdaĠ":11843,"jianĠjianĠ":11844,"chuĠruĠ":11845,"shuĠniuĠ":11846,"zhengĠjianĠ":11847,"yingĠjiuĠ":11848,"yeĠtiĠ":11849,"danĠmaiĠ":11850,"liangĠtiaoĠ":11851,"shenĠyuanĠ":11852,"zuĠzhangĠ":11853,"xuĠniĠ":11854,"ĠgeĠsiĠ":11855,"ĠqiĠzhongĠbaoĠkuo":11856,"ĠgaiĠjiĠ":11857,"pingĠlunĠjiaĠ":11858,"Ġchou":11859,"ĠĠĠ14":11860,"nianĠjianĠ":11861,"huĠjiĠ":11862,"geĠyue":11863,"huoĠzhiĠ":11864,"boĠliĠyaĠ":11865,"yaoĠzhiĠ":11866,"leiĠzaiĠ":11867,"pianĠshiĠ":11868,"ningĠxianĠ":11869,"ĠyiĠfangĠ":11870,"diĠzhenĠ":11871,"ĠyouĠhuiĠ":11872,"ĠrenĠmingĠweiĠ":11873,"shouĠqiangĠ":11874,"yangĠguangĠ":11875,"fanĠdianĠ":11876,"caiĠneng":11877,"niĠguĠlaĠ":11878,"linĠjinĠdeĠ":11879,"zhaoĠmuĠ":11880,"ĠshouĠluĠ":11881,"Ġ000ĠmingĠ":11882,"zhuĠshiĠhuiĠsheĠ":11883,"ĠjinĠxingĠleĠ":11884,"ĠheĠyiĠ":11885,"ĠruiĠshiĠ":11886,"huaĠbuĠ":11887,"changĠzhongĠ":11888,"gaiĠdiĠquĠ":11889,"naĠzaiĠ":11890,"12ĠgeĠ":11891,"hengĠdeĠ":11892,"80ĠnianĠ":11893,"huiĠquĠ":11894,"zhanĠsiĠ":11895,"yaĠsuoĠ":11896,"bianĠjiangĠ":11897,"fanĠkangĠ":11898,"ĠyuanĠyinĠ":11899,"ĠyouĠweiĠ":11900,"xianĠdeĠchengĠshiĠ":11901,"caoĠanĠ":11902,"jieĠshouĠleĠ":11903,"ĠyouĠxianĠgongĠsi":11904,"aiĠerĠlan":11905,"ĠĠĠHo":11906,"ĠĠĠsuoĠ":11907,"ĠĠĠbiĠsaiĠ":11908,"zhengĠzhongĠ":11909,"miĠrenĠ":11910,"yongĠliĠ":11911,"fengĠxingĠ":11912,"10ĠgeĠ":11913,"bangĠjiaĠ":11914,"mouĠgeĠ":11915,"42ĠnianĠ":11916,"siĠzhangĠ":11917,"wuĠjuĠ":11918,"wuĠmingĠ":11919,"ĠqiĠyuanĠ":11920,"shuĠbaiĠ":11921,"duĠteĠ":11922,"ĠkeĠyiĠshiĠ":11923,"fanĠzui":11924,"baĠmianĠ":11925,"chuanĠshangĠ":11926,"ĠbeiĠweiĠ":11927,"jieĠyiĠchanĠ":11928,"ĠĠĠminĠguoĠ":11929,"shanĠzhiĠ":11930,"beginĠ":11931,"chuĠkou":11932,"shouĠpiao":11933,"jingĠjieĠ":11934,"zhanĠduiĠ":11935,"lianĠshuĠ":11936,"anĠdongĠniĠ":11937,"ĠdanĠyinĠweiĠ":11938,"ĠzhuĠtiĠ":11939,"haĠlaĠ":11940,"ĠNi":11941,"ĠĠĠ2ĠyueĠ":11942,"tiĠzaiĠ":11943,"gaiĠyiĠ":11944,"liuĠheĠ":11945,"tuoĠdeĠ":11946,"tionĠĠĠ":11947,"tunĠmenĠ":11948,"yuanĠchuangĠ":11949,"fuĠhuoĠ":11950,"beiĠshaĠ":11951,"yeĠkeĠ":11952,"zuiĠxinĠ":11953,"jueĠsaiĠdeĠ":11954,"linĠxianĠ":11955,"ĠshangĠhai":11956,"ĠjingĠwaiĠshuĠruĠ":11957,"ĠĠĠshiĠjianĠ":11958,"ĠdeĠzhongĠyaoĠ":11959,"dianĠziĠyouĠxiĠ":11960,"Ġgen":11961,"juĠdiĠ":11962,"saiĠshiĠzhongĠ":11963,"moĠzhiĠ":11964,"kuaĠyueĠ":11965,"zhuĠming":11966,"junĠdui":11967,"fanĠxiangĠ":11968,"fanĠsheĠ":11969,"leĠyiĠzhongĠ":11970,"ĠbaĠxiĠ":11971,"ĠdeĠjiĠchuĠshangĠ":11972,"Ġ57":11973,"ĠyuanĠweiĠ":11974,"ĠĠĠ1ĠyueĠ":11975,"yongĠweiĠ":11976,"nengĠliĠdeĠ":11977,"geiĠshiĠzhongĠ":11978,"shuaiĠjunĠ":11979,"1946ĠnianĠ":11980,"1915ĠnianĠ":11981,"wuĠluĠ":11982,"ĠqiĠxiaĠdeĠ":11983,"quĠchuĠ":11984,"luĠxingĠmuĠ":11985,"xiaoĠhaoĠ":11986,"touĠmingĠ":11987,"kaoĠruĠ":11988,"ĠjinĠzhiĠ":11989,"zongĠyiĠjieĠmuĠ":11990,"liaoĠningĠshengĠ":11991,"ĠgeĠliĠ":11992,"ĠĠĠzheĠxieĠ":11993,"saiĠsiĠ":11994,"tuĠzaiĠ":11995,"cunĠheĠ":11996,"pianĠyiĠ":11997,"heĠfaĠ":11998,"xiaoĠchuĠ":11999,"daiĠxieĠ":12000,"ruĠxuan":12001,"bianĠlunĠ":12002,"guĠyongĠ":12003,"ĠjinĠtianĠ":12004,"ĠchengĠxianĠ":12005,"2ĠmianĠ":12006,"ĠwanĠquanĠ":12007,"ĠwangĠluoĠ":12008,"ĠjinĠjiĠ":12009,"ĠxunĠhuiĠ":12010,"wuĠxianĠdianĠ":12011,"ĠtianĠqiĠ":12012,"zuiĠhouĠyiĠciĠ":12013,"ĠsectionĠĠĠbeginĠ":12014,"9ĠmiĠ":12015,"ĠneiĠbuĠ":12016,"shĠ":12017,"aiĠliĠsiĠ":12018,"duĠyouĠ":12019,"leiĠxiĠ":12020,"leiĠkeĠ":12021,"chuangĠyiĠ":12022,"caoĠyuanĠ":12023,"90ĠnianĠ":12024,"ĠyiĠlangĠ":12025,"yingĠbangĠ":12026,"jiaoĠxiangĠ":12027,"junĠwangĠ":12028,"ĠjianĠzaoĠ":12029,"meiĠguoĠguoĠjiaĠ":12030,"ĠchengĠduĠ":12031,"aiĠshaĠ":12032,"ĠyiĠzhiĠweiĠ":12033,"ĠdangĠnianĠ":12034,"ĠzaiĠciĠqiĠjianĠ":12035,"Ġ1983":12036,"ĠdaĠliĠ":12037,"anĠbuĠ":12038,"nanĠweiĠ":12039,"suoĠheĠ":12040,"guiĠyuĠ":12041,"ĠshiĠpinĠ":12042,"ĠrenĠshouĠshangĠ":12043,"xingĠhaoĠ":12044,"erĠyuanĠ":12045,"huiĠmianĠ":12046,"jinĠshenĠ":12047,"jingĠchengĠ":12048,"ĠdaĠtongĠ":12049,"nanĠxiaĠ":12050,"panĠduanĠ":12051,"ĠjiuĠyueĠ":12052,"touĠruĠshiĠyongĠ":12053,"Ġmiao":12054,"Ġ98":12055,"beiĠyouĠ":12056,"bingĠzhongĠ":12057,"ĠshiĠfangĠ":12058,"guoĠjiaĠdeĠ":12059,"yuanĠyuanĠ":12060,"zhuĠduoĠ":12061,"jiaoĠgeiĠ":12062,"haiĠjunĠdeĠ":12063,"muĠbiao":12064,"zuĠziĠzhiĠquĠ":12065,"teĠgongĠ":12066,"bianĠliangĠ":12067,"guĠxiangĠ":12068,"baĠshiĠluĠxianĠ":12069,"guangĠboĠdianĠtaiĠ":12070,"ĠgeiĠ":12071,"biĠzhiĠ":12072,"ruĠzhiĠ":12073,"jiuĠyuĠ":12074,"jueĠqiĠ":12075,"hongĠqiĠ":12076,"caoĠdiĠ":12077,"BDĠ":12078,"buĠxiangĠ":12079,"daĠlianĠmengĠ":12080,"siĠjiaĠ":12081,"jiaĠshuĠ":12082,"beiĠgeĠ":12083,"riĠhouĠ":12084,"nanĠyanĠyuanĠ":12085,"fengĠsuĠ":12086,"fengĠmianĠ":12087,"zeĠrenĠweiĠ":12088,"ĠshiĠweiĠyuanĠhuiĠ":12089,"yinĠyueĠhuiĠ":12090,"reĠdaiĠdiĠqiĠyaĠ":12091,"Ġshang":12092,"Ġ1980ĠnianĠ":12093,"yingĠyouĠ":12094,"yangĠrenĠ":12095,"pinĠweiĠ":12096,"peiĠyueĠ":12097,"ĠbuĠlangĠ":12098,"keĠlaĠ":12099,"chuĠlaiĠdeĠ":12100,"shangĠhuiĠ":12101,"xueĠguanĠ":12102,"daiĠzheĠ":12103,"suoĠxuĠdeĠ":12104,"xuanĠbaĠ":12105,"diĠshiĠerĠ":12106,"Ġchong":12107,"ĠĠĠhuĠ":12108,"feiĠsiĠ":12109,"shanĠsiĠ":12110,"suĠheĠ":12111,"naĠxiĠ":12112,"gaĠ":12113,"jiĠshuĠ":12114,"ĠliĠmianĠ":12115,"ĠdaĠsiĠ":12116,"fenĠjuĠ":12117,"ĠjiaĠqiangĠ":12118,"guangĠdianĠ":12119,"yueĠqiuĠ":12120,"tuiĠceĠ":12121,"ĠranĠhouĠzaiĠ":12122,"ĠsiĠyueĠ":12123,"ĠjinĠshiĠchuĠshenĠ":12124,"lingĠheĠ":12125,"leiĠliĠ":12126,"fengĠqiĠ":12127,"ĠzaiĠxianĠ":12128,"jieĠquĠ":12129,"ĠdaĠshaĠ":12130,"laiĠmeiĠ":12131,"teĠyouĠzhiĠwuĠ":12132,"ĠjianĠchaĠ":12133,"zuiĠgaoĠfaĠyuanĠ":12134,"jiaĠliĠfuĠniĠyaĠ":12135,"Ġt":12136,"yiĠshiĠshiĠ":12137,"buĠdeĠyiĠ":12138,"keĠshiĠyongĠ":12139,"shanĠxingĠ":12140,"chaĠzhiĠ":12141,"1906ĠnianĠ":12142,"renĠkou":12143,"youĠjuĠyuĠ":12144,"ĠzhongĠduoĠ":12145,"ĠguoĠzhongĠ":12146,"keĠxiĠ":12147,"beiĠpingĠ":12148,"banĠshangĠ":12149,"ĠĠĠÐ":12150,"ĠĠĠ13":12151,"ĠĠĠBa":12152,"xuĠweiĠ":12153,"tuiĠdaoĠ":12154,"beiĠhaiĠ":12155,"huiĠjiangĠ":12156,"nanĠluĠ":12157,"nanĠnvĠ":12158,"juanĠzengĠ":12159,"Ġxun":12160,"ĠzuoĠyouĠ":12161,"ĠbuĠliĠ":12162,"xiaoĠshiĠdeĠ":12163,"daiĠzhongĠ":12164,"bianĠbuĠ":12165,"yaoĠxingĠ":12166,"poĠshiĠ":12167,"toĠ":12168,"SAĠ":12169,"siĠmingĠ":12170,"jianĠzhu":12171,"beiĠfaĠxianĠ":12172,"huiĠxingĠ":12173,"jinĠsaiĠ":12174,"tiĠqinĠ":12175,"wangĠluo":12176,"duoĠyangĠ":12177,"yangĠbenĠ":12178,"chuanĠzhuĠ":12179,"moĠshiĠchan":12180,"ĠsectionĠĠĠendĠ":12181,"Ġza":12182,"xiĠyueĠ":12183,"ĠĠĠtaĠzaiĠ":12184,"keĠbuĠ":12185,"kaiĠshiĠdeĠ":12186,"ĠyiĠjieĠ":12187,"chengĠqiangĠ":12188,"shuĠfuĠ":12189,"biĠluĠ":12190,"boĠyingĠ":12191,"fengĠjingĠ":12192,"jueĠzhuĠ":12193,"ĠgongĠzuo":12194,"ĠgaiĠgongĠsiĠ":12195,"xunĠyanĠ":12196,"zhaoĠhuiĠ":12197,"ĠbeiĠzhiĠ":12198,"shouĠhuanĠyingĠdeĠ":12199,"ĠshengĠrenĠ":12200,"daĠliĠdeĠ":12201,"zuanĠshiĠ":12202,"ĠzaiĠguoĠ":12203,"jianĠce":12204,"ziĠdanĠ":12205,"ĠxiĠquĠ":12206,"juĠhuiĠ":12207,"zuoĠpaiĠ":12208,"xinĠwen":12209,"jiaoĠxiaoĠdeĠ":12210,"haoĠwuĠ":12211,"tieĠluĠjuĠ":12212,"miĠniĠzhuanĠjiĠ":12213,"ĠzhanĠshiĠ":12214,"ĠĠĠRa":12215,"ĠĠĠwuĠkeĠlanĠ":12216,"meiĠheĠ":12217,"dangĠzhiĠ":12218,"fengĠjiĠ":12219,"kongĠjuĠ":12220,"psĠ":12221,"laiĠleĠ":12222,"meiĠyou":12223,"zuĠzongĠ":12224,"ĠgaiĠgeĠ":12225,"ĠĠĠzhuĠzuoĠ":12226,"saĠerĠwaĠ":12227,"kaoĠlvĠdaoĠ":12228,"5ĠshiĠ":12229,"yiĠshiĠjiĠ":12230,"ĠĠĠAr":12231,"huoĠweiĠ":12232,"bieĠshuĠ":12233,"pangĠqiuĠ":12234,"ĠliĠxingĠ":12235,"youĠrenĠ":12236,"ĠyouĠtaiĠrenĠ":12237,"ĠheĠfuĠ":12238,"chengĠfaĠ":12239,"qingĠdaiĠ":12240,"muĠhouĠ":12241,"luoĠyangĠ":12242,"ĠzhuĠmingĠ":12243,"douĠyuĠshiĠ":12244,"woĠmenĠdeĠ":12245,"ĠxuĠduo":12246,"ĠaiĠliĠ":12247,"jiaoĠhuiĠchuĠ":12248,"jiangĠyuĠliangĠ":12249,"ĠjieĠweiĠluĠdiĠ":12250,"Ġ1986":12251,"huiĠliĠ":12252,"sanĠheĠ":12253,"cheĠzaiĠ":12254,"linĠzhiĠ":12255,"kuĠsiĠ":12256,"mengĠyouĠ":12257,"gengĠyouĠ":12258,"60ĠnianĠ":12259,"qiĠzaiĠ":12260,"qiĠxiaĠ":12261,"ĠheĠluĠ":12262,"gongĠtingĠ":12263,"jianĠshuĠ":12264,"jinĠkouĠ":12265,"huaĠtiĠ":12266,"tongĠchangĠshiĠ":12267,"jiangĠjieĠ":12268,"ĠfuĠza":12269,"wanĠchengĠdeĠ":12270,"miĠxieĠ":12271,"anĠzhao":12272,"suoĠmuĠ":12273,"zuiĠmingĠ":12274,"baĠsaiĠerĠ":12275,"Ġp":12276,"Ġ1982":12277,"ĠqiĠzhiĠ":12278,"ĠĠĠsheĠ":12279,"ĠĠĠzhanĠhouĠ":12280,"yinĠyueĠdeĠ":12281,"zaoĠchuĠ":12282,"guangĠdaoĠ":12283,"chanĠshiĠ":12284,"gouĠxiangĠ":12285,"caoĠdeĠ":12286,"38Ġ":12287,"youĠxiaoĠ":12288,"ĠzhongĠwuĠ":12289,"daĠliangĠdeĠ":12290,"ĠqiĠtuĠ":12291,"chuĠban":12292,"ĠdiĠ2Ġ":12293,"ĠdaĠziĠ":12294,"boĠleiĠ":12295,"dengĠxiaoĠ":12296,"huĠtongĠ":12297,"liuĠxingĠdeĠ":12298,"cengĠdanĠrenĠ":12299,"ĠhouĠbeiĠ":12300,"ĠciĠwai":12301,"ĠciĠlieĠcheĠ":12302,"paiĠhangĠbangĠ":12303,"xueĠshiĠweiĠ":12304,"songĠshiĠ":12305,"jiĠchuĠ":12306,"fenĠdianĠ":12307,"wangĠminĠ":12308,"zuiĠjuĠ":12309,"fanĠpaiĠ":12310,"shanĠluĠ":12311,"ĠgongĠnengĠ":12312,"ĠciĠjuĠ":12313,"canĠmouĠ":12314,"ĠdeĠzhiĠzuoĠ":12315,"ĠyueĠzhongĠxunĠ":12316,"ĠĠĠ2003ĠnianĠ":12317,"youĠshiĠyiĠ":12318,"ziĠbuĠ":12319,"zhouĠguoĠ":12320,"naĠweiĠ":12321,"hanĠrenĠ":12322,"rangĠrenĠ":12323,"lesĠ":12324,"daĠdongĠbuĠdaĠquĠ":12325,"jianĠzaoĠdeĠ":12326,"chuĠshengĠzaiĠ":12327,"xiaĠshuiĠ":12328,"zuĠqun":12329,"teĠluoĠ":12330,"ĠĠĠliĠshiĠyanĠgeĠ":12331,"yanĠjiuĠzhongĠ":12332,"ĠMe":12333,"ĠĠĠtuĠ":12334,"taĠbuĠ":12335,"daiĠjiaĠ":12336,"minĠzaiĠ":12337,"1907ĠnianĠ":12338,"ĠshiĠminĠ":12339,"beiĠmianĠ":12340,"ziĠjiĠshiĠ":12341,"huiĠxianĠ":12342,"juĠziĠ":12343,"zhanĠlieĠ":12344,"tiĠneiĠ":12345,"junĠfuĠ":12346,"haiĠwanĠ":12347,"jiuĠciĠ":12348,"ĠhouĠyinĠ":12349,"kongĠguĠ":12350,"ĠtongĠyueĠ":12351,"ĠmeiĠzhouĠ":12352,"ĠluoĠboĠ":12353,"ĠISTATĠdaiĠmaĠweiĠ":12354,"jianĠyueĠ":12355,"guĠdiĠ":12356,"boĠheĠ":12357,"nuoĠkeĠ":12358,"ĠjiĠxianĠ":12359,"daĠerĠ":12360,"jiaĠzhuangĠ":12361,"keĠqianĠwangĠ":12362,"dengĠbaoĠ":12363,"ĠjinĠgongĠ":12364,"chanĠsheng":12365,"diĠyiĠmingĠ":12366,"muĠsiĠteĠ":12367,"siĠlingĠyuanĠ":12368,"Ġ88":12369,"ĠĠĠY":12370,"ĠĠĠSo":12371,"zhanĠshiĠqiĠ":12372,"zhouĠsiĠ":12373,"chuanĠdaĠ":12374,"11ĠshiĠ":12375,"kanĠwuĠ":12376,"laoĠhuiĠ":12377,"xiĠyinĠ":12378,"shuĠmingĠ":12379,"houĠsaiĠ":12380,"mingĠdan":12381,"ciĠziĠ":12382,"bingĠchuanĠ":12383,"guangĠxianĠ":12384,"ĠzheĠliĠ":12385,"saĠmoĠ":12386,"nongĠduĠ":12387,"ĠzongĠjiaoĠ":12388,"ĠyaĠmeiĠ":12389,"huĠbeiĠshengĠ":12390,"Ġ700":12391,"ĠzaoĠqiĠ":12392,"ĠĠĠduĠ":12393,"changĠrenĠ":12394,"junĠdaĠ":12395,"minĠheĠ":12396,"piĠerĠ":12397,"cheĠheĠ":12398,"yuanĠchengĠ":12399,"quĠxianĠ":12400,"xinĠyang":12401,"jiaoĠwangĠ":12402,"qianĠlongĠ":12403,"banĠzhangĠ":12404,"ĠxingĠbie":12405,"fanĠchuanĠ":12406,"baĠleiĠ":12407,"ĠgaiĠdangĠ":12408,"ĠgaiĠnianĠ":12409,"ĠdeĠdaoĠluĠ":12410,"chengĠduĠshangĠ":12411,"shouĠhaiĠzheĠ":12412,"ĠtuĠerĠqiĠ":12413,"jiaoĠxiĠ":12414,"duĠzhongĠ":12415,"fanĠyuĠ":12416,"naĠyiĠ":12417,"seĠheĠ":12418,"maoĠkeĠ":12419,"xiangĠfuĠ":12420,"beiĠanĠ":12421,"zuoĠbiaoĠ":12422,"yinĠduĠdeĠ":12423,"ĠjiaĠla":12424,"muĠluĠ":12425,"maĠluĠ":12426,"ĠjianĠduĠ":12427,"aĠsaiĠbaiĠ":12428,"keĠyiĠyongĠ":12429,"ĠhuaĠxueĠ":12430,"ĠshiĠyiĠkeĠhengĠxingĠ":12431,"9ĠgeĠ":12432,"aĠdeĠ":12433,"ĠdaiĠbiao":12434,"ĠzhunĠbeiĠ":12435,"yeĠliĠ":12436,"boĠqiĠ":12437,"huanĠshiĠ":12438,"49ĠnianĠ":12439,"beiĠshouĠ":12440,"fenĠhuaĠ":12441,"xiaoĠfuĠ":12442,"qingĠfuĠ":12443,"shenĠchuĠ":12444,"liuĠmingĠ":12445,"ĠzuoĠpinĠ":12446,"ĠaoĠdiĠliĠ":12447,"ĠguiĠdingĠ":12448,"ĠzhengĠyueĠ":12449,"ĠfuĠliĠ":12450,"anĠdiĠ":12451,"ĠĠĠgenĠju":12452,"jieĠyueĠ":12453,"zhengĠrenĠ":12454,"huaĠyouĠ":12455,"laiĠweiĠ":12456,"nengĠyuĠ":12457,"zhongĠzuĠ":12458,"shengĠxingĠ":12459,"jinĠzhuĠ":12460,"quĠzhuĠjianĠ":12461,"zhengĠjiuĠ":12462,"shenĠxueĠ":12463,"qiuĠdui":12464,"ĠchengĠkeĠ":12465,"ĠjieĠtiĠ":12466,"qunĠdaoĠdeĠ":12467,"ĠfeiĠchangĠ":12468,"Ġnei":12469,"ĠbiaoĠzhunĠ":12470,"Ġ1947ĠnianĠ":12471,"yinĠrenĠ":12472,"xinĠdiĠ":12473,"baĠqiĠ":12474,"daĠjiaĠ":12475,"jiaoĠgaoĠdeĠ":12476,"haiĠyang":12477,"2ĠbiĠ":12478,"nianĠduĠ":12479,"tongĠguoĠleĠ":12480,"ĠjiaoĠshouĠ":12481,"gaoĠxiongĠshiĠ":12482,"ĠpuĠtaoĠyaĠyuĠ":12483,"ĠBo":12484,"ĠĠĠruĠguoĠ":12485,"dongĠzhongĠ":12486,"quanĠzhongĠ":12487,"suĠyuĠ":12488,"bangĠshangĠ":12489,"52ĠnianĠ":12490,"yuanĠlaiĠdeĠ":12491,"gongĠlu":12492,"wuĠjieĠ":12493,"yanĠbianĠ":12494,"dengĠzhanĠ":12495,"fanĠxinĠ":12496,"guangĠxueĠ":12497,"laoĠbanĠ":12498,"tieĠluĠgongĠsiĠ":12499,"faĠxingĠleĠ":12500,"zongĠjiaoĠquĠ":12501,"zuiĠhouĠyiĠgeĠ":12502,"ĠzhongĠyiĠ":12503,"meiĠkeĠ":12504,"shaoĠyuĠ":12505,"styleĠ":12506,"ĠdeĠbuĠ":12507,"heĠchengĠ":12508,"ĠzaiĠneiĠ":12509,"ĠyueĠjiĠ":12510,"wuĠxuĠ":12511,"changĠshuĠ":12512,"duiĠgaiĠ":12513,"muĠdiĠshiĠ":12514,"liuĠjingĠ":12515,"ĠshengĠwuĠ":12516,"ĠhuiĠdaoĠ":12517,"ĠlianĠxuĠ":12518,"dianĠyingĠzhongĠ":12519,"changĠpianĠgongĠsiĠ":12520,"ĠwanĠmeiĠyuanĠdeĠ":12521,"ĠquanĠbuĠ":12522,"ĠzhuiĠ":12523,"liĠsiĠ":12524,"fanĠrenĠ":12525,"chaĠsiĠ":12526,"xiĠquĠ":12527,"ĠyueĠduĠ":12528,"ciĠleiĠ":12529,"huaĠwenĠ":12530,"ĠriĠbenĠdeĠ":12531,"ĠjiaĠmengĠ":12532,"meiĠlaĠ":12533,"lianĠxianĠ":12534,"ĠdanĠtaĠmenĠ":12535,"ĠyanĠyuanĠ":12536,"ĠĠĠshiĠjieĠ":12537,"ĠbianĠhaoĠ":12538,"xinĠliĠxueĠ":12539,"qiuĠdaĠ":12540,"saiĠshiĠdeĠ":12541,"liuĠqiĠ":12542,"haoĠzhongĠziĠ":12543,"lvĠbuĠ":12544,"guangĠweiĠ":12545,"tangĠshiĠ":12546,"songĠzhiĠ":12547,"zhaiĠdeĠ":12548,"ĠshiĠduanĠ":12549,"jieĠjingĠ":12550,"xiangĠjiangĠ":12551,"leĠjinĠ":12552,"jiaoĠyuĠdeĠ":12553,"duiĠyingĠdeĠ":12554,"xiaoĠzhenĠ":12555,"danĠshuiĠyuĠ":12556,"shenĠshouĠ":12557,"ĠfuĠhaoĠ":12558,"zuĠlianĠ":12559,"ĠtaĠyeĠshiĠ":12560,"guĠbaĠ":12561,"haoĠchengĠshiĠ":12562,"ĠgaiĠchengĠ":12563,"ĠciĠqianĠ":12564,"zhengĠshiĠchengĠliĠ":12565,"3ĠgongĠliĠ":12566,"guoĠdeĠteĠyouĠzhiĠwuĠ":12567,"ĠanĠzhaoĠ":12568,"ĠdeĠyiĠgeĠzhongĠ":12569,"fuĠshiĠzhangĠ":12570,"ĠgaiĠshengĠfenĠweiĠfaĠguoĠbeiĠbuĠ":12571,"zhanĠdouĠzhongĠ":12572,"tiĠyouĠ":12573,"hanĠsiĠ":12574,"ĠnianĠzhiĠhouĠ":12575,"ĠzaiĠshangĠ":12576,"jianĠyanĠ":12577,"shengĠfuĠzeĠguanĠxiaĠ":12578,"ĠerĠjiaĠ":12579,"jiaoĠyuanĠ":12580,"saiĠjuĠ":12581,"ĠgaiĠdiĠ":12582,"1ĠriĠpingĠjunĠ":12583,"ĠliangĠguoĠ":12584,"keĠjiĠdaĠxueĠ":12585,"ĠerĠsiĠkeĠ":12586,"kongĠzhongĠfaĠxianĠ":12587,"huanĠxingĠshanĠ":12588,"ĠKi":12589,"qiĠshiĠdeĠ":12590,"xiaoĠdiĠ":12591,"baiĠjinĠ":12592,"chaoĠxiĠ":12593,"tuoĠyuanĠxingĠ":12594,"zouĠdeĠ":12595,"ĠdeĠlaĠ":12596,"ĠyiĠguoĠ":12597,"ĠrenĠneiĠ":12598,"tongĠxun":12599,"dingĠlvĠ":12600,"liuĠfangĠ":12601,"fengĠbiĠ":12602,"ĠliangĠzheĠ":12603,"minĠjinĠdangĠ":12604,"taĠjiĠ":12605,"xuĠheĠ":12606,"paiĠshiĠ":12607,"guiĠjiĠ":12608,"bangĠdaĠ":12609,"1903ĠnianĠ":12610,"ĠzaiĠfuĠ":12611,"beiĠdiĠ":12612,"zuoĠchuĠleĠ":12613,"tiĠcaoĠ":12614,"dangĠpaiĠ":12615,"hanĠbaoĠ":12616,"ĠyeĠkeĠ":12617,"yuĠyiĠdaĠliĠ":12618,"ĠbenĠmingĠ":12619,"ĠjiangĠyuĠ":12620,"ĠweiĠzhongĠxinĠ":12621,"ĠshiĠshiĠjieĠshangĠ":12622,"Ġ68":12623,"ĠÐ½":12624,"ĠĠĠhouĠlaiĠ":12625,"daĠyouĠ":12626,"ruĠdiĠ":12627,"xuĠliĠ":12628,"naĠĠĠ":12629,"tieĠdeĠ":12630,"peiĠsiĠ":12631,"geiĠchuĠ":12632,"ĠyiĠwenĠ":12633,"keĠtaĠ":12634,"ĠdaĠlou":12635,"wangĠguoĠdeĠ":12636,"dingĠmuĠ":12637,"paiĠduiĠ":12638,"ĠjianĠshaoĠ":12639,"huoĠdeĠdiĠ":12640,"ĠjinĠyiĠbuĠ":12641,"ĠtuĠjingĠ":12642,"ĠOĠ":12643,"kaĠluoĠlaiĠnaĠzhouĠ":12644,"ĠfangĠzhiĠ":12645,"aiĠdiĠ":12646,"ĠĠĠwenĠ":12647,"ĠĠĠcanĠkaoĠ":12648,"faĠyouĠ":12649,"ĠyuĠjingĠ":12650,"ĠliĠweiĠzhiĠ":12651,"shouĠpiĠ":12652,"zhanĠbiĠ":12653,"huaĠdongĠ":12654,"tiĠchu":12655,"dianĠciĠ":12656,"wanĠjieĠ":12657,"lianĠsiĠjiĠ":12658,"zhengĠzhiĠxieĠshangĠ":12659,"ĠlianĠbangĠ":12660,"ĠheĠbeiĠshengĠ":12661,"Ġ23Ġ":12662,"ĠqiĠxiĠshenĠduĠ":12663,"ĠĠĠfaĠxingĠ":12664,"mingĠliĠ":12665,"zhanĠguoĠ":12666,"daiĠheĠ":12667,"wangĠdaĠ":12668,"tiaoĠshiĠ":12669,"34Ġ":12670,"alignĠ":12671,"jianĠdingĠ":12672,"jinĠjinĠ":12673,"ĠdiĠkeĠ":12674,"zhanĠlieĠjianĠ":12675,"yeĠchengĠ":12676,"jiangĠgaiĠ":12677,"ĠtaĠbiaoĠshiĠ":12678,"fanĠyingĠdeĠ":12679,"ĠxiangĠdangĠ":12680,"ĠshiĠweiĠshuĠjiĠ":12681,"ĠtongĠnianĠ11ĠyueĠ":12682,"ĠtongĠchang":12683,"ĠdengĠdengĠ":12684,"saĠkeĠsenĠ":12685,"moĠshiĠchanĠdiĠzaiĠ":12686,"3ĠliĠ":12687,"Ġ1948":12688,"ĠmĠ":12689,"ĠĠĠcaiĠ":12690,"erĠshiĠshiĠjiĠ":12691,"yingĠweiĠ":12692,"suoĠyuĠ":12693,"chunĠjieĠ":12694,"ĠyiĠzhangĠ":12695,"yinĠyuanĠ":12696,"minĠyongĠ":12697,"ĠjinĠguan":12698,"meiĠguoĠhaiĠjunĠ":12699,"ĠbingĠshiĠ":12700,"shaoĠnv":12701,"2010ĠnianĠmeiĠguoĠrenĠkouĠpuĠchaĠ":12702,"Ġ1946ĠnianĠ":12703,"ĠminĠjiĠ":12704,"4ĠhaoĠ":12705,"Ġ1948ĠnianĠ":12706,"chiĠyuĠ":12707,"zaoĠshiĠ":12708,"ĠyouĠzheĠ":12709,"jieĠzhuĠ":12710,"sheĠxiangĠ":12711,"zhenĠdongĠ":12712,"huĠzhaoĠ":12713,"ĠchuĠdaoĠ":12714,"zhuĠyiĠdaoĠ":12715,"ĠmianĠdianĠ":12716,"ziĠgeĠsaiĠ":12717,"ĠduoĠrenĠ":12718,"ĠhenĠduoĠ":12719,"jiĠyiĠjiĠ":12720,"verĠ":12721,"ĠzhiĠminĠ":12722,"renĠmenĠ":12723,"ĠbeiĠjingĠshiĠ":12724,"ĠzheĠyeĠ":12725,"ĠdeĠzhiĠhuiĠ":12726,"ĠyiĠweiĠzhuĠ":12727,"daoĠzhiĠleĠ":12728,"xunĠhuiĠyanĠchangĠhuiĠ":12729,"huaĠshengĠdun":12730,"shuaiĠlingĠdeĠ":12731,"ĠjuĠqingĠxiaĠ":12732,"ĠPi":12733,"ĠĠĠxueĠ":12734,"ĠĠĠdianĠyingĠ":12735,"nanĠdaĠ":12736,"gaoĠxingĠ":12737,"linĠzaiĠ":12738,"36Ġ":12739,"1900ĠnianĠ":12740,"ĠyuĠjiaĠ":12741,"yingĠhuaĠ":12742,"duiĠchenĠ":12743,"ĠjiaĠsheĠ":12744,"liangĠjieĠ":12745,"ĠfuĠluoĠ":12746,"teĠshengĠ":12747,"ĠyinĠhangĠ":12748,"ĠwuĠdiĠ":12749,"huangĠpuĠ":12750,"ouĠzhouĠdeĠ":12751,"ĠsiĠliĠ":12752,"ĠzhongĠshiĠyanĠ":12753,"ĠHa":12754,"ĠzhuĠliĠ":12755,"Ġ1979ĠnianĠ":12756,"nianĠbeiĠ":12757,"shengĠyueĠ":12758,"huaĠliĠ":12759,"jiangĠrenĠ":12760,"kangĠdeĠ":12761,"ĠyuĠzhouĠ":12762,"ĠyouĠxi":12763,
[...]
