#version: 0.2
i Ġ
n Ġ
n g
ng Ġ
u Ġ
e Ġ
a nĠ
o Ġ
s h
z h
a Ġ
a ngĠ
i anĠ
o ngĠ
Ġ Ġ
a oĠ
a iĠ
i ngĠ
e iĠ
sh iĠ
d eĠ
o uĠ
e ngĠ
e nĠ
c h
u oĠ
j i
u anĠ
y iĠ
x i
ã Ģ
ĠĠ Ġ
u iĠ
j iĠ
w eiĠ
zh iĠ
y uĠ
u eĠ
n ianĠ
l iĠ
u nĠ
zh ongĠ
y ouĠ
i nĠ
r enĠ
z aiĠ
g uoĠ
ãĢ ģ
Ġ nianĠ
q iĠ
d iĠ
h eĠ
b uĠ
e r
Ġ y
g ongĠ
x ingĠ
ch engĠ
d aĠ
l i
er Ġ
x iĠ
j ianĠ
s iĠ
g eĠ
y uanĠ
f uĠ
x ianĠ
k eĠ
w uĠ
sh engĠ
ji eĠ
ji aĠ
zh uĠ
d aoĠ
z iĠ
b eiĠ
h uiĠ
f aĠ
sh uĠ
xi angĠ
ch uĠ
h u
i aoĠ
zh engĠ
ji nĠ
q uĠ
2 0
t ongĠ
t aĠ
j uĠ
j ingĠ
m ingĠ
h ouĠ
r iĠ
l eĠ
sh angĠ
Ġy ueĠ
sh ouĠ
Ġ d
f angĠ
1 9
hu aĠ
x ueĠ
c iĠ
g uanĠ
Ġ b
zh anĠ
u angĠ
z uoĠ
zh eĠ
q i
d ongĠ
m eiĠ
ji aoĠ
ch angĠ
xi nĠ
y ingĠ
Ġ shiĠ
y anĠ
l uĠ
f enĠ
y eĠ
h uoĠ
t iĠ
j unĠ
ji angĠ
d uiĠ
xi aoĠ
q ianĠ
y inĠ
d uĠ
sh eĠ
xi aĠ
t aiĠ
w enĠ
b aoĠ
d ianĠ
y ongĠ
zh angĠ
g aiĠ
Ġ riĠ
li angĠ
r uĠ
h aiĠ
m uĠ
zh ouĠ
n anĠ
z uĠ
w angĠ
y aĠ
l aiĠ
y ueĠ
ji uĠ
d aiĠ
q ingĠ
p ingĠ
Ġ yiĠ
sh enĠ
b anĠ
ãĢ ĭ
ãĢ Ĭ
w anĠ
l ianĠ
l ingĠ
l uoĠ
Â ·
q uanĠ
m inĠ
g aoĠ
s uoĠ
k aiĠ
m iĠ
xi eĠ
b iĠ
x uĠ
t eĠ
b iaoĠ
m ianĠ
zh enĠ
qi uĠ
g uĠ
m aĠ
d uoĠ
z uiĠ
b enĠ
s aiĠ
l aĠ
y aoĠ
d ingĠ
b ianĠ
li uĠ
y angĠ
b oĠ
b ingĠ
Ġ zaiĠ
f anĠ
d angĠ
v Ġ
d anĠ
x uanĠ
Ġ taĠ
0 Ġ
f eiĠ
sh anĠ
s anĠ
h uĠ
d engĠ
b aĠ
z ongĠ
ãĢ Į
ch eĠ
ãĢ į
i eĠ
t ianĠ
h aoĠ
m enĠ
l eiĠ
s uĠ
t uĠ
n eiĠ
20 1
Ġ weiĠ
Ġ youĠ
f engĠ
l anĠ
Ġ 1
Ġb ingĠ
y unĠ
m oĠ
z eĠ
n iĠ
k ouĠ
Ġ qiĠ
n aĠ
Ġd anĠ
w aiĠ
n engĠ
Ġ 19
l inĠ
ch uanĠ
Ġ deĠ
h anĠ
j ueĠ
ch iĠ
p aiĠ
c aiĠ
z aoĠ
t ingĠ
deĠ yiĠ
zh uanĠ
g angĠ
20 0
li eĠ
g uangĠ
g uiĠ
l unĠ
Ġ zhiĠ
s uiĠ
Ġ jiĠ
Ġ erĠ
b aiĠ
c engĠ
k ongĠ
sh uiĠ
ch aoĠ
p uĠ
zh uangĠ
2 Ġ
t ouĠ
c anĠ
ch aĠ
Ġ yuĠ
zhongĠ guoĠ
1 Ġ
r anĠ
d ouĠ
d uanĠ
c unĠ
h uanĠ
l vĠ
c ongĠ
p inĠ
ch anĠ
Ġ zheĠ
s eĠ
x unĠ
Ġ renĠ
Ġy inĠ
c eĠ
0 ĠnianĠ
chengĠ weiĠ
g ouĠ
meiĠ guoĠ
5 Ġ
zh aoĠ
g anĠ
ch ongĠ
ĠnianĠ 1
yiĠ geĠ
sh aĠ
3 Ġ
ĠyueĠ 1
q inĠ
t anĠ
m engĠ
qi angĠ
hu angĠ
xi uĠ
Ġ gaiĠ
t iaoĠ
k aĠ
deĠ shiĠ
sh aoĠ
Ġ liĠ
n vĠ
k uoĠ
l ongĠ
p iĠ
m anĠ
p ianĠ
sh uoĠ
Ġ zhongĠ
t uanĠ
t angĠ
1 ĠnianĠ
r ongĠ
4 Ġ
g engĠ
5 ĠnianĠ
2 ĠnianĠ
ĠyueĠ 2
ch enĠ
20 2
4 ĠnianĠ
Ġ heĠ
Ġ buĠ
8 ĠnianĠ
t uiĠ
Ġ tongĠ
shiĠ deĠ
3 ĠnianĠ
t ieĠ
q ueĠ
qi eĠ
renĠ kouĠ
g enĠ
Ġ jinĠ
6 ĠnianĠ
zhengĠ fuĠ
liĠ shiĠ
Ġ diĠ
p eiĠ
h ongĠ
h angĠ
w oĠ
6 Ġ
7 ĠnianĠ
li aoĠ
shiĠ yongĠ
ch uangĠ
o r
t uoĠ
daĠ xueĠ
t aoĠ
gongĠ siĠ
shiĠ yiĠ
b ieĠ
p oĠ
s ongĠ
b angĠ
Ġ beiĠ
keĠ yiĠ
0 0Ġ
guoĠ jiaĠ
shiĠ jianĠ
Ġ xiĠ
diĠ quĠ
ĠĠĠ 19
8 Ġ
u aiĠ
m aiĠ
Ġy eĠ
Ġd angĠ
Ġ daĠ
kaiĠ shiĠ
pingĠ fangĠ
gongĠ liĠ
Ġ ciĠ
Ġ fuĠ
w aĠ
9 ĠnianĠ
p anĠ
q iaoĠ
weiĠ yuĠ
m aoĠ
jinĠ xingĠ
l angĠ
k anĠ
buĠ fenĠ
k angĠ
â Ģ
7 Ġ
shiĠ jieĠ
t Ġ
xiangĠ gangĠ
Ġ huoĠ
n i
d unĠ
Ġb aoĠ
l aoĠ
z engĠ
diĠ yiĠ
s aĠ
mianĠ jiĠ
Ġ zhuĠ
Ġ xianĠ
d iaoĠ
Ġ wuĠ
renĠ minĠ
riĠ benĠ
Ġ 201
h aĠ
Ġ houĠ
renĠ weiĠ
zhengĠ zhiĠ
k aoĠ
jiĠ deĠ
xi ongĠ
yanĠ jiuĠ
Ġ keĠ
meiĠ youĠ
zhiĠ yiĠ
taiĠ wanĠ
Ġ 200
weiĠ yuanĠ
shiĠ qiĠ
Ġy ingĠ
Ġ zuiĠ
Ġ jieĠ
n uoĠ
l v
m iaoĠ
a r
yiĠ zhiĠ
r angĠ
k uangĠ
Ġ gongĠ
huoĠ deĠ
guoĠ jiĠ
s Ġ
qiĠ taĠ
yiĠ jiĠ
s uanĠ
h enĠ
Ġy uanĠ
zhongĠ deĠ
Ġ jianĠ
Ġ ziĠ
zuoĠ weiĠ
k uĠ
faĠ guoĠ
1 8
Ġ chuĠ
zh unĠ
yuĠ 19
deĠyiĠ geĠ
ĠĠĠ zaiĠ
ĠĠĠ 201
yunĠ dongĠ
a n
liĠ deĠ
xingĠ deĠ
ĠqiĠ zhongĠ
shiĠ jiĠ
daiĠ biaoĠ
c aoĠ
Ġ chengĠ
r eĠ
Ġ suiĠ
zhongĠ xinĠ
q unĠ
Ġ jiangĠ
Ġ jiaĠ
h unĠ
gongĠ zuoĠ
Ġ xinĠ
taĠ menĠ
shiĠ shiĠ
sheĠ jiĠ
n ongĠ
Ġ siĠ
Ġd ongĠ
dianĠ yingĠ
Ġ ruĠ
Ġ haiĠ
Ġ shengĠ
zhuĠ yaoĠ
deĠ jiĠ
h engĠ
deĠ diĠ
shiĠ weiĠ
s ĠĠĠ
Ġ juĠ
liĠ yaĠ
sh uangĠ
Ġ 2
l ouĠ
Ġ xiangĠ
Ġ jingĠ
1 0
g eiĠ
zuĠ zhiĠ
zhuĠ yiĠ
zhengĠ shiĠ
shuĠ yuĠ
heĠ guoĠ
ĠweiĠ yuĠ
k uaiĠ
taĠ deĠ
p iaoĠ
quĠ deĠ
Ġ geĠ
faĠ xianĠ
cheĠ zhanĠ
zh aĠ
xiĠ tongĠ
xingĠ zhengĠ
ni uĠ
genĠ juĠ
h eiĠ
faĠ zhanĠ
xueĠ yuanĠ
2 ĠyueĠ
Ġ meiĠ
Ġ shouĠ
chengĠ shiĠ
z ouĠ
Ġ lingĠ
r engĠ
biaoĠ shiĠ
ch unĠ
keĠ nengĠ
s enĠ
baoĠ kuoĠ
Ġy anĠ
diĠ erĠ
Ġ nanĠ
dianĠ shiĠ
Ġ ã
youĠ xiĠ
deĠ zhiĠ
u aĠ
qiĠ jianĠ
Ġb iĠ
sheĠ huiĠ
k uanĠ
yingĠ xiangĠ
âĢ Ķ
yiĠ yuanĠ
renĠ wuĠ
s unĠ
r uiĠ
ĠyinĠ ciĠ
wenĠ huaĠ
p aoĠ
9 Ġ
canĠ jiaĠ
youĠ yiĠ
buĠ tongĠ
ĠyiĠ jiĠ
Ġ shangĠ
jiaoĠ yuĠ
danĠ renĠ
t i
luoĠ siĠ
a l
Ġ suoĠ
e n
weiĠyuanĠ huiĠ
f or
jianĠ deĠ
jingĠ jiĠ
pingĠfangĠ gongĠliĠ
o nĠ
n ingĠ
Ġ 3
c angĠ
Ġ qianĠ
ĠshiĠ yiĠ
mingĠ weiĠ
shiĠ zhenĠ
tongĠ guoĠ
yiĠ shiĠ
tiĠ gongĠ
Ġ daoĠ
xueĠ xiaoĠ
Ġ fenĠ
Ġd uiĠ
m ouĠ
Ġ zhongĠguoĠ
Ġd engĠ
biĠ saiĠ
gongĠ heĠguoĠ
Ġ muĠ
jianĠ zhuĠ
Ġ aĠ
guanĠ liĠ
m u
ĠbaoĠ kuoĠ
Ġ maĠ
Ġ C
faĠ shengĠ
yingĠ guoĠ
ĠtaĠ menĠ
zuoĠ pinĠ
Ġ guĠ
deĠ guoĠ
Ġ xingĠ
shiĠ zaiĠ
i n
Ġ liangĠ
Ġb aĠ
chuĠ xianĠ
shiĠ wuĠ
tieĠ luĠ
shiĠ youĠ
huoĠ dongĠ
Ġ jiuĠ
t ĠĠĠ
p engĠ
beiĠ jingĠ
Ġ S
b inĠ
Ġ shenĠ
zhongĠ yangĠ
hu aiĠ
Ġ zongĠ
zhiĠ deĠ
Ġ congĠ
chengĠ liĠ
5 ĠriĠ
yinĠ yueĠ
shuĠ deĠ
ĠyouĠ yuĠ
Ġ qingĠ
mu laĠ
for mulaĠ
Ġ ranĠ
Ġ xiaoĠ
ziĠ jiĠ
d ĠĠĠ
8 ĠriĠ
zhongĠ huaĠ
jiĠ huaĠ
wenĠ tiĠ
weiĠ zhiĠ
chengĠ yuanĠ
r uoĠ
z anĠ
Ġ quanĠ
shangĠ deĠ
Ġ 0
ĠshiĠ jiĠ
leĠ yiĠ
Ġb oĠ
xuĠ duoĠ
Ġ mingĠ
ĠĠĠ diĠ
ĠĠĠ shengĠ
Ġ19 9
beiĠ buĠ
daĠ deĠ
p aĠ
20 ĠnianĠ
xianĠ deĠ
huiĠ yiĠ
Ġ zhengĠ
1 1
zhiĠ houĠ
Ġ1 8
Ġ zhangĠ
renĠ deĠ
19 9
a m
Ġ liuĠ
ch ouĠ
zh uiĠ
6 ĠriĠ
Ġ cengĠ
Ġ A
7 ĠriĠ
1 ĠriĠ
Ġ faĠ
Ġ 5
guanĠ xiĠ
Ġ xiaĠ
4 ĠriĠ
niĠ yaĠ
chuĠ deĠ
Ġ sanĠ
canĠ yuĠ
Ġ 4
Ġ guoĠ
Ġd ianĠ
ĠĠĠ 200
xuanĠ buĠ
Ġ wangĠ
fuĠ wuĠ
o n
erĠ shiĠ
3 ĠriĠ
zhanĠ zhengĠ
suoĠ youĠ
zhiĠ shiĠ
eĠ luoĠsiĠ
xingĠ shiĠ
ĠĠĠ 202
zhiĠ zuoĠ
zhongĠ yaoĠ
e l
n aiĠ
Ġb enĠ
Ġ luĠ
Ġy ongĠ
Ġ woĠ
qianĠ miĠ
Ġ shuĠ
Ġd uoĠ
Ġ M
zuĠ qiuĠ
fangĠ mianĠ
chengĠ deĠ
jinĠ ruĠ
jueĠ dingĠ
ĠnianĠ1 0
ï ¼
renĠ heĠ
Ġ aiĠ
xueĠ jiaĠ
0ĠnianĠ daiĠ
weiĠ yiĠ
guanĠ junĠ
daoĠ deĠ
Ġ zhanĠ
buĠ deĠ
Ġ luoĠ
Ġ feiĠ
youĠ yuĠ
shuĠ jiĠ
sh unĠ
fuĠ zeĠ
diĠ deĠ
xueĠ shengĠ
n uĠ
Ġ anĠ
Ġ taiĠ
yiĠ weiĠ
1 0Ġ
quanĠ guoĠ
lv eĠ
xuĠ yaoĠ
Ġ 6
zh aiĠ
renĠminĠ gongĠheĠguoĠ
y ĠĠĠ
laiĠ ziĠ
lieĠ cheĠ
yiĠ jingĠ
shouĠ daoĠ
eĠ ĠĠ
ĠtongĠ shiĠ
9 ĠyueĠ
ouĠ zhouĠ
Ġ g
8 ĠyueĠ
20 19
7 ĠyueĠ
Ġ gaoĠ
pingĠfangĠ qianĠmiĠ
qiĠ shiĠ
Ġ fanĠ
1 2
Ġ19 8
ĠyinĠ weiĠ
z aĠ
3 0
Ġ tianĠ
fangĠ shiĠ
Ġ huiĠ
Ġ hanĠ
keĠ lanĠ
sheĠ youĠ
j uanĠ
Ġ guanĠ
ĠnianĠ1 1
r o
liangĠ geĠ
xianĠ shiĠ
deĠ liĠ
shangĠ haiĠ
Ġ huaĠ
juĠ xingĠ
baoĠ huĠ
cunĠ zaiĠ
c uiĠ
ziĠ youĠ
k unĠ
renĠ yuanĠ
1 5
jiĠ shuĠ
minĠ guoĠ
s t
Ġ l
r e
shiĠ yanĠ
faĠ xingĠ
Ġ T
r i
zongĠ tongĠ
Ġ moĠ
chuĠ leĠ
C Ġ
chengĠ gongĠ
qiĠ deĠ
erĠ deĠ
liĠ siĠ
Ġ 202
zhuanĠ jiĠ
ĠĠĠ liĠshiĠ
ĠyueĠ1 ĠriĠ
buĠ shiĠ
yinĠ weiĠ
Ġd aiĠ
yinĠ duĠ
Ġ lianĠ
Ġ xueĠ
c uoĠ
kaiĠ faĠ
heĠ ĠĠ
Ġ I
jiaĠ ruĠ
quĠ yuĠ
shengĠ huoĠ
Ġ chengĠweiĠ
zhiĠ jianĠ
zhiĠ chiĠ
qiuĠ duiĠ
danĠ weiĠ
miĠ duĠ
1 7
3 ĠyueĠ
caiĠ yongĠ
ĠĠĠshengĠ pingĠ
jieĠ shouĠ
qingĠ kuangĠ
wanĠ chengĠ
xuanĠ juĠ
1 6
junĠ shiĠ
z angĠ
20 20ĠnianĠ
l uanĠ
sh uaiĠ
ĠĠĠ yuĠ
Ġ B
tongĠ shiĠ
xiangĠ guanĠ
Ġb aiĠ
qianĠ wangĠ
daĠ luĠ
Ġ changĠ
tongĠ yiĠ
zhiĠ wuĠ
gongĠ yuanĠ
5 ĠyueĠ
siĠ teĠ
ĠliĠ ruĠ
zheĠ xieĠ
deĠ daoĠ
Ġ tiĠ
Ġb ianĠ
daĠ liĠ
ĠĠĠ yiĠ
jieĠ muĠ
renĠ shiĠ
0 0
xiĠ yaĠ
Ġ P
zaiĠ 19
yuĠ yanĠ
n aoĠ
jueĠ seĠ
Ġ aoĠ
mingĠ deĠ
Ġ huĠ
gongĠ chengĠ
fenĠ weiĠ
r uanĠ
jianĠ liĠ
Ġ fengĠ
k uiĠ
lianĠ mengĠ
deĠ zhuĠ
xingĠ weiĠ
heĠ zuoĠ
shuĠ juĠ
6 ĠyueĠ
Ġ19 4
o l
zhiĠ daoĠ
chanĠ shengĠ
keĠ siĠ
yiĠ zhongĠ
daĠ daoĠ
Ġ pingĠ
gongĠ youĠ
diĠ sanĠ
s angĠ
qiĠ zhongĠ
jiaoĠ tongĠ
buĠ duiĠ
zaiĠ ciĠ
4 ĠyueĠ
Ġ meiĠguoĠ
teĠ bieĠ
leiĠ siĠ
laiĠ deĠ
xiaoĠ shiĠ
zheĠ geĠ
yuanĠ deĠ
Ġ wanĠ
xiĠ lieĠ
o u
xingĠ dongĠ
Ġ guangĠ
yiĠ deĠ
nanĠ buĠ
Ġ D
ĠranĠ erĠ
Ġ mianĠjiĠ
youĠ xianĠ
shiĠ zhiĠ
t h
d ieĠ
yuĠ 201
weiĠ jiĠ
y Ġ
lianĠ saiĠ
zuiĠ gaoĠ
n iaoĠ
gaoĠ duĠ
shengĠ yuĠ
chuĠ banĠ
zhuĠ xiĠ
ĠbingĠ qieĠ
2 ĠriĠ
Ġ 7
yiĠ qiĠ
minĠ zhuĠ
zh Ġ
zuiĠ houĠ
xiangĠ muĠ
ĠĠĠ gaiĠ
9 ĠriĠ
tongĠ zhiĠ
d Ġ
jiĠ shiĠ
zhuĠ jiaoĠ
mianĠjiĠ weiĠ
ĠnianĠ1 ĠyueĠ
quĠ weiĠ
zengĠ jiaĠ
chaoĠ guoĠ
Ġ shanĠ
Ġd uĠ
geĠ renĠ
fuĠ jinĠ
yingĠ deĠ
dangĠ shiĠ
shengĠ chanĠ
yeĠ shiĠ
zuĠ chengĠ
duĠ liĠ
r aoĠ
zh uoĠ
ĠzheĠ xieĠ
ch aiĠ
yongĠ yuĠ
kongĠ zhiĠ
ĠtongĠ nianĠ
ĠrenĠ kouĠ
Ġ 8
deĠ youĠ
jieĠ gouĠ
Ġ suĠ
xianĠ zhiĠ
xueĠ xiĠ
Ġ19 5
lianĠ heĠ
Ġ jiaoĠ
Ġ zuoĠ
ĠtaĠ zaiĠ
geĠ quĠ
wuĠ keĠlanĠ
1 4
shouĠ ciĠ
diĠ fangĠ
daoĠ zhiĠ
diĠ guoĠ
yongĠ youĠ
onĠ ĠĠ
deĠ renĠ
Ġg tĠ
Ġb anĠ
jiĠ luĠ
siĠ keĠ
Ġ 9
dongĠ wuĠ
1 3
Ġ genĠjuĠ
jieĠ shuĠ
A Ġ
chuanĠ tongĠ
jiĠ yuĠ
ĠnianĠ1 2ĠyueĠ
quĠ shiĠ
Ġ19 7
oĠ ĠĠ
haiĠ junĠ
deĠ gongĠ
Ġ chenĠ
yaoĠ qiuĠ
jinĠ shiĠ
hangĠ kongĠ
s ouĠ
Ġ huangĠ
shuĠ liangĠ
weiĠ erĠ
Ġ puĠ
jiĠ xuĠ
i l
zhiĠ qianĠ
ĠĠĠ S
ĠhouĠ laiĠ
k enĠ
Ġl tĠ
Ġ zeĠ
Ġb iaoĠ
deĠ daĠ
jiĠ zhongĠ
buĠ yuĠ
fanĠ yingĠ
yiĠ shuĠ
Ġy aĠ
juĠ youĠ
ĠzuiĠ zhongĠ
shiĠ yuĠ
deĠ fuĠ
a c
t engĠ
ziĠ zhiĠ
geĠ mingĠ
jiĠ tuanĠ
dangĠ diĠ
5 0Ġ
yiĠ ciĠ
jiuĠ shiĠ
ĠzhiĠ houĠ
shengĠ jiĠ
p angĠ
yiĠ huiĠ
ĠdanĠ shiĠ
r ouĠ
yiĠ buĠ
shiĠ daiĠ
zhiĠ chuĠ
Ġ E
keĠ xueĠ
Ġ kaĠ
19 8
ĠbingĠ zaiĠ
neiĠ rongĠ
geĠ lanĠ
chongĠ xinĠ
jiĠ gouĠ
guoĠ minĠ
f ouĠ
2019 ĠnianĠ
Ġ wenĠ
ĠriĠ benĠ
Ġy angĠ
Ġ1 5
daoĠ leĠ
Ġy aoĠ
junĠ duiĠ
ĠciĠ waiĠ
biĠ yeĠ
o m
guĠ shiĠ
fanĠ weiĠ
zhiĠ weiĠ
luoĠ maĠ
meiĠ tiĠ
3 0Ġ
liĠ yuĠ
Ġ H
Ġ tuĠ
jiĠ qiĠ
chuangĠ zuoĠ
Ġ haoĠ
xingĠ xingĠ
a t
anĠ quanĠ
c uĠ
deĠ xinĠ
fenĠ bieĠ
jiĠ changĠ
faĠ buĠ
s i
Ġ1 6
yiĠ xieĠ
nvĠ ziĠ
ĠshiĠ weiĠyuĠ
ĠbuĠ guoĠ
Ġ shuĠyuĠ
yuĠ shiĠ
banĠ yaĠ
diĠ siĠ
zaoĠ chengĠ
deĠ xiaoĠ
zhiĠ huiĠ
diaoĠ chaĠ
Ġ caiĠ
Ġ kaiĠ
Ġ qieĠ
ĠnianĠ10 ĠyueĠ
ziĠ jiĠdeĠ
Ġ linĠ
diĠ shiĠ
yunĠdongĠ yuanĠ
Ġ19 3
Ġ L
jiaoĠ shouĠ
ĠzhuĠ yaoĠ
tongĠ changĠ
Ġ naĠ
yiĠ siĠ
chengĠ jiĠ
zhiĠ yeĠ
biaoĠ zhunĠ
z unĠ
wuĠ faĠ
Ġ19 6
neiĠ deĠ
ĠzhongĠ huaĠ
lingĠ daoĠ
Ġ sheĠ
Ġ R
deĠ shengĠ
tuiĠ chuĠ
g uaĠ
huanĠ jingĠ
Ġ zhaoĠ
tiĠ yuĠ
shiĠ zhongĠ
gongĠ jiĠ
xuanĠ zeĠ
yiĠ laiĠ
xingĠ chengĠ
1 2Ġ
juĠ minĠ
zuiĠ zhongĠ
fangĠ faĠ
ĠtaĠ deĠ
nanĠ ziĠ
maĠ weiĠ
k uaĠ
Ġ miĠ
minĠ zuĠ
jiaĠ zuĠ
Ġ zhĠ
shiĠ heĠ
youĠ guanĠ
f oĠ
zhuĠ renĠ
youĠ jiĠ
houĠ deĠ
jueĠ saiĠ
m eĠ
Ġã ĥ
Ġ N
Ġ gengĠ
d i
xinĠ deĠ
Ġ xuĠ
gongĠ shiĠ
keĠ deĠ
yuĠ deĠ
wuĠ guanĠ
o f
juĠ banĠ
Ġ G
nvĠ xingĠ
yaĠ liĠ
gongĠ chanĠ
n ieĠ
zheĠ yiĠ
jiĠ weiĠ
zhiĠ jieĠ
ĠĠĠdiĠ liĠ
gongĠ luĠ
zhongĠhuaĠ renĠminĠgongĠheĠguoĠ
ziĠ liaoĠ
tiĠ chuĠ
T Ġ
zhiĠ xingĠ
faĠ yuanĠ
duiĠ yuĠ
lianĠ bangĠ
ĠdangĠ shiĠ
qiĠ yeĠ
zhiĠ youĠ
gaiĠ bianĠ
xieĠ huiĠ
hanĠ guoĠ
lianĠ jieĠ
Ġ h
dongĠ huaĠ
zhiĠ yuĠ
mingĠ chengĠ
ĠsuiĠ ranĠ
buĠ zhangĠ
jianĠ yuĠ
er ĠĠĠ
xiaĠ deĠ
Ġ zhenĠ
Ġ quĠ
Ġ zuĠ
ï¼ į
ĠĠĠ benĠ
xinĠ wenĠ
Ġ F
jiĠ nianĠ
daĠ liangĠ
n eĠ
yinĠ hangĠ
aĠ ĠĠ
Ġ niĠ
ĠnianĠ11 ĠyueĠ
Ġ laiĠ
zhanĠ shiĠ
r Ġ
faĠ biaoĠ
feiĠ changĠ
jingĠ liĠ
Ġ haĠ
ĠĠĠ19 9
deĠ wuĠ
shangĠ yeĠ
er ĠnianĠ
yiĠ banĠ
Ġy unĠ
sanĠ nianĠ
Ġ zhuanĠ
xiĠ deĠ
weiĠ qiĠ
gongĠ yeĠ
Ġ fangĠ
chuĠ liĠ
guanĠ xiaĠ
yanĠ changĠ
zhouĠ deĠ
fanĠ duiĠ
m ieĠ
t unĠ
zhanĠ douĠ
e t
erĠ siĠ
Ġ1 0
heĠ wuĠ
banĠ benĠ
weiĠ shiĠ
Ġ taiĠwanĠ
jianĠ sheĠ
shengĠ wuĠ
Ġ hongĠ
Ġ zhouĠ
gongĠ kaiĠ
xianĠ daiĠ
deĠ yuanĠ
Ġ guiĠ
jiangĠ junĠ
leĠ buĠ
gaoĠ suĠ
baĠ shiĠ
weiĠ zhuĠ
shenĠ fenĠ
daĠ shiĠ
ĠmuĠ qianĠ
youĠ shiĠ
zhiĠ yuanĠ
m Ġ
zongĠ jiaoĠ
fuĠ deĠ
o w
jiaĠ tingĠ
zhengĠ ceĠ
shengĠ yaĠ
Ġ leiĠ
Ġ 2Ġ
a ti
Ġ xieĠ
jieĠ guoĠ
Ġ1 7
aĠ erĠ
erĠ ziĠ
19 7
xianĠ zaiĠ
zhuĠ jianĠ
puĠ chaĠ
1 1Ġ
zhengĠzhiĠ renĠwuĠ
huaĠ deĠ
wanĠ quanĠ
Ġ xiangĠgangĠ
pingĠ junĠ
naĠ daĠ
k Ġ
n v
duoĠ deĠ
Ġ laĠ
yuĠ 200
saiĠ shiĠ
ĠrenĠkouĠ miĠduĠ
huiĠ fuĠ
qiĠ yuĠ
ĠĠĠ M
e c
ĠsuoĠ yiĠ
Ġ chaoĠ
baĠ gaoĠduĠ
shiĠ changĠ
jianĠ zhiĠ
Ġ tangĠ
daĠ huiĠ
zhongĠ gongĠ
waiĠ jiaoĠ
liĠ yongĠ
Ġ J
ĠĠĠ C
ĠĠĠ renĠkouĠ
nengĠ gouĠ
weiĠ renĠ
weiĠ deĠ
paiĠ sheĠ
buĠ zaiĠ
Ġd ouĠ
Ġ c
zheĠ zhongĠ
jianĠ yiĠ
l engĠ
tuanĠ tiĠ
zhongĠ xueĠ
fangĠ xiangĠ
jiĠ zaiĠ
jingĠ neiĠ
e s
Ġã Ĥ
2 ĠyueĠ2
jingĠ guoĠ
1 5Ġ
siĠ wangĠ
guiĠ moĠ
Ġ junĠ
geĠ zhongĠ
gaiĠ guoĠ
xiaoĠ shuoĠ
ziĠ ranĠ
dingĠ deĠ
Ġã ģ
sheĠ shiĠ
sheĠ liĠ
r a
meiĠ yuanĠ
S Ġ
bianĠ maĠweiĠ
guoĠ chengĠ
deĠyiĠgeĠ shiĠzhenĠ
yuanĠ shiĠ
m angĠ
wenĠ xueĠ
chiĠ xuĠ
l a
guanĠ yuĠ
bingĠ buĠ
jieĠ shiĠ
gongĠ tongĠ
youĠ deĠ
erĠ shengĠ
ĠxueĠ mingĠ
ĠzheĠ shiĠ
zuoĠ yongĠ
renĠ leiĠ
miaoĠ shuĠ
ĠĠĠ genĠjuĠ
wenĠ wuĠ
gaiĠ weiĠ
deĠ shouĠ
Ġ zuoĠweiĠ
biaoĠ xianĠ
qiuĠ yuanĠ
Ġ0 00Ġ
niuĠ yueĠ
ãĢ ī
ãĢ Ī
wuĠ zhongĠ
yaĠ zhouĠ
siĠ deĠ
taiĠ beiĠ
ĠĠĠ shiĠ
ĠĠĠ ciĠ
qiĠ houĠ
baoĠ gaoĠ
jinĠ biaoĠ
ĠlingĠ waiĠ
jiaoĠ huiĠ
liĠ faĠ
daĠ quĠ
yuĠ yiĠ
deĠ huaĠ
liĠ kaiĠ
duoĠ shuĠ
rengĠ ranĠ
houĠ laiĠ
touĠ guoĠ
nengĠ liĠ
i c
jieĠ rangĠ
paiĠ mingĠ
jieĠ daoĠ
p Ġ
ziĠ deĠ
Ġ queĠ
xiangĠ shiĠ
Ġ Ð
faĠ lvĠ
chengĠ renĠ
yanĠ yuanĠ
boĠ shiĠ
jiĠ yiĠ
jiĠ heĠ
yanĠ chuĠ
D Ġ
suĠ lianĠ
lingĠ shiĠ
wuĠ shiĠ
biĠ xuĠ
reĠ daiĠ
deĠ heĠ
ĠzuiĠ houĠ
xiangĠ tongĠ
Ġ maiĠ
ĠbingĠ yuĠ
baoĠ daoĠ
renĠkouĠ puĠchaĠ
sanĠ geĠ
shuiĠ yuĠ
Ġ keĠyiĠ
liĠ lunĠ
yangĠ deĠ
xiĠ buĠ
muĠ qianĠ
wuĠ yuanĠ
xiĠ banĠyaĠ
ch uiĠ
ĠruĠ guoĠ
kongĠ jianĠ
yiĠ mingĠ
mengĠ guĠ
xingĠzhengĠ quĠ
i t
gongĠchanĠ dangĠ
zhongĠguoĠ daĠluĠ
jiaĠ deĠ
quanĠ liĠ
yunĠdongĠ huiĠ
jinĠ deĠ
luĠ xianĠ
Ġ shaĠ
zhengĠ yiĠ
sanĠ shiĠ
ĠyeĠ shiĠ
l e
gongĠ gongĠ
juĠ liĠ
4 0Ġ
jieĠ duanĠ
guangĠ boĠ
19 6
dianĠ ziĠ
xiaĠ jiĠ
xunĠ lianĠ
ĠĠĠ A
k engĠ
ĠzhiĠ daoĠ
douĠ shiĠ
geĠ shouĠ
19 4
danĠ quĠ
piĠ pingĠ
guanĠ fangĠ
zhongĠ shiĠ
jieĠ fangĠ
Ġ K
ĠĠĠ weiĠ
zaiĠ diĠ
2 ĠyueĠ1
yueĠ taiĠ
laĠ siĠ
guoĠ wangĠ
bianĠ huaĠ
heĠ bingĠ
zhiĠ zaoĠ
haoĠ deĠ
siĠ lingĠ
dongĠ beiĠ
chengĠ duĠ
baoĠ hanĠ
20 ĠriĠ
muĠ siĠ
t heĠĠĠ
ĠzheĠ geĠ
siĠ nianĠ
ĠsuiĠ houĠ
shengĠ deĠ
âĢ ĵ
deĠyiĠ buĠfenĠ
daĠ zhanĠ
boĠ wuĠguanĠ
guoĠ deĠ
zhuanĠ yeĠ
zhiĠ jianĠdeĠ
aoĠ yunĠ
chanĠ pinĠ
keĠ jiĠ
fengĠ geĠ
saiĠ jiĠ
muĠ biaoĠ
gongĠ buĠ
zaoĠ qiĠ
lunĠ dunĠ
weiĠ youĠ
zuiĠ jiaĠ
2 5
ĠdangĠ diĠ
ĠerĠ qieĠ
dongĠ jiĠ
0 ĠriĠ
Ġ shuiĠ
yiĠ beiĠ
fuĠ shiĠ
dongĠ buĠ
30 ĠriĠ
quanĠ qiuĠ
luĠ junĠ
liĠ xueĠ
Ġ neiĠ
Ġ19 2
buĠ huiĠ
Ġ chongĠ
deĠ weiĠ
baoĠ faĠ
jiĠ diĠ
yiĠ xiaĠ
yanĠ zhongĠ
anĠ deĠ
keĠ liĠ
ciĠ shiĠ
meiĠ zhouĠ
Ġ xuanĠ
kaiĠ fangĠ
changĠ deĠ
ĠdiĠ erĠ
jinĠ jiĠ
Ġ 20
renĠ zhiĠ
zhuĠ chiĠ
ĠjinĠ guanĠ
âĢ ¦
xiĠ jiĠ
xiĠ laĠ
ziĠ geĠ
ĠĠĠ19 8
xiĠ baoĠ
1 00Ġ
beiĠ chengĠweiĠ
qiĠ yiĠ
Ġ W
siĠ tanĠ
1 3Ġ
piĠ keĠ
Ġ songĠ
zhouĠ shiĠ
ĠyuĠ shiĠ
mingĠ mingĠ
Ġ peiĠ
liĠ ziĠ
u r
Ġd ingĠ
youĠxianĠ gongĠsiĠ
fuĠ heĠ
1 6Ġ
201 0ĠnianĠ
qingĠ nianĠ
taĠ zaiĠ
haoĠ xianĠ
yuanĠ yinĠ
jiangĠ qiĠ
zheĠ deĠ
siĠ jiĠ
U T
siĠ shiĠ
daoĠ shiĠ
Ġ eĠ
Ġ rangĠ
dongĠ shiĠ
zhuĠ tiĠ
. .
shanĠ xiĠ
xiangĠ dangĠ
ĠĠĠ juĠ
chuĠ yuĠ
yinĠ ciĠ
dongĠ jingĠ
yingĠ yongĠ
yuĠ19 9
Ġ 3Ġ
xiangĠ deĠ
gaiĠ nianĠ
liĠ jiĠ
Ġ1 4
qiĠ ziĠ
gongĠ nengĠ
henĠ duoĠ
heĠ yiĠ
guiĠ dingĠ
xinĠ xiĠ
Ġ ganĠ
diĠ weiĠ
buĠ menĠ
nongĠ yeĠ
dengĠ renĠ
ĠĠĠ P
ĠĠĠ T
zaiĠ yiĠ
ĠĠĠ nianĠ
guiĠ daoĠ
diĠ liĠ
6 0Ġ
zaoĠ daoĠ
moĠ shiĠ
ĠyueĠ1 5ĠriĠ
jiĠ chuĠ
aiĠ erĠ
jiĠ jinĠ
jieĠ chuĠ
jieĠ heĠ
19 5
jieĠ deĠ
sheĠ quĠ
Ġ chuanĠ
dongĠ nanĠ
mingĠ ziĠ
aoĠ linĠ
diĠyiĠ ciĠ
fenĠ zhongĠ
buĠ nengĠ
1 4Ġ
deĠ zhongĠ
haoĠ miĠ
xingĠ qiĠ
tongĠ nianĠ
shiĠ renĠ
daĠ buĠfenĠ
xiaĠ xiaĠ
Ġ kangĠ
fuĠ qinĠ
touĠ ziĠ
geĠ yueĠ
taiĠ pingĠ
gaiĠ geĠ
p enĠ
ĠĠĠ youĠ
zhongĠhuaĠ minĠguoĠ
1 8Ġ
deĠ siĠ
ĠtaĠ cengĠ
shiĠ liĠ
Ġ teĠ
shiĠ quĠ
boĠ lanĠ
chaoĠ xianĠ
shiĠ yeĠ
bianĠ deĠ
a s
jianĠ chaĠ
ĠĠĠ19 4
ĠweiĠ leĠ
zhiĠ zaiĠ
ĠqiĠ houĠ
jiĠ baiĠ
jingĠ chaĠ
wangĠ luoĠ
gongĠ chiĠ
maĠ liĠ
19 ĠriĠ
yueĠ hanĠ
shiĠ xianĠ
ĠyueĠ2 8ĠriĠ
ĠdanĠ zaiĠ
jianĠ zaoĠ
canĠ saiĠ
yiĠ daiĠ
ĠshiĠweiĠyuĠ meiĠguoĠ
shiĠ xingĠ
zhongĠ buĠ
Ġ s
saiĠ erĠ
fangĠ deĠ
shangĠ shuĠ
Ġ minĠ
boĠ teĠ
ziĠ yuanĠ
juĠ zhuĠ
ĠhaiĠ baĠgaoĠduĠ
ĠĠĠ B
Ġ waiĠ
guiĠ huaĠ
xiĠ wangĠ
boĠ chuĠ
xueĠ zheĠ
dangĠ xuanĠ
tuĠ diĠ
jingĠ yingĠ
jiĠ suanĠ
jinĠbiaoĠ saiĠ
guanĠ yuanĠ
yeĠ youĠ
i r
u n
aĠ laĠ
pingĠ lunĠ
jieĠ zhiĠ
dengĠ diĠ
Ġ t
taiĠ yangĠ
fenĠ buĠ
jiaĠ naĠdaĠ
keĠ daĠ
Ġ mengĠ
baoĠ chiĠ
ĠdangĠ zhongĠ
nanĠ shengĠ
yiĠ yangĠ
biĠ yaĠ
diĠ qiĠ
P Ġ
xiangĠ duiĠ
sheĠ beiĠ
guangĠ dongĠ
ĠyingĠ guoĠ
juĠ leĠbuĠ
miĠ deĠ
Ġ200 1ĠnianĠ
UT CĠ
zhiĠ duĠ
xueĠ weiĠ
baĠ liĠ
cheĠ liangĠ
zhiĠ fuĠ
yuanĠ zhuĠ
xiĠ beiĠ
maĠ laiĠ
dingĠ yiĠ
suĠ duĠ
ĠyueĠ1 0ĠriĠ
wuĠ xianĠ
diĠ xiaĠ
2 5Ġ
aoĠlinĠ piĠkeĠ
zhengĠ deĠ
tongĠ jiĠ
zhuangĠ taiĠ
ĠranĠ houĠ
3 1ĠriĠ
tiĠ deĠ
xiaoĠ deĠ
shiĠ chuĠ
weiĠ meiĠ
xiĠ nanĠ
manĠ huaĠ
Ġ 5Ġ
zhangĠ deĠ
zuĠ heĠ
pingĠ jiaĠ
fenĠ ziĠ
ĠyueĠ2 5ĠriĠ
pinĠ daoĠ
jiĠ duĠ
jiĠ benĠ
2 4
dianĠshiĠ taiĠ
ĠĠĠ 18
yiĠ yiĠ
guangĠ changĠ
deĠshiĠ quĠweiĠ
shuĠ guanĠ
jianĠ chengĠ
shiĠ shangĠ
yuĠ zhongĠ
liĠ keĠ
wuĠ deĠ
touĠ piaoĠ
shengĠ mingĠ
Ġ heiĠ
zuiĠ daĠ
luĠ diĠ
Ġ 4Ġ
e m
Ġ chiĠ
zhanĠ kaiĠ
erĠ beiĠ
tiaoĠ jianĠ
daoĠ yanĠ
liĠ weiĠ
o o
ĠzhongĠhuaĠ renĠminĠgongĠheĠguoĠ
shenĠ zhiĠ
ĠjianĠ chengĠ
yuĠ 202
daoĠ luĠ
5 0
haiĠ shiĠ
taĠmenĠ deĠ
Ġ O
jianĠ duiĠ
zhiĠ zhongĠ
fenĠ leiĠ
qunĠ daoĠ
zuoĠ jiaĠ
ĠzheĠ zhongĠ
Ġ laoĠ
zuoĠ youĠ
biaoĠ yanĠ
Ġ piĠ
shangĠ shiĠ
daĠ xingĠ
shouĠ duĠ
ĠyiĠ geĠ
xianĠ renĠ
ĠĠĠ taĠ
shengĠ liĠ
Ġ huanĠ
zhiĠ jinĠ
xuanĠ shouĠ
fenĠ xiĠ
duoĠ ciĠ
huiĠ zaiĠ
buĠtongĠ deĠ
liĠ fuĠ
zhunĠ beiĠ
Ġ1 Ġ
Ġ saĠ
qingĠkuangĠ xiaĠ
jiaĠ zhiĠ
bangĠ zhuĠ
huiĠ deĠ
juĠ jueĠ
ĠweiĠyuĠ gaiĠguoĠ
2 7
zaĠ zhiĠ
huaĠ xueĠ
jiaoĠ tangĠ
cengĠ jingĠ
yuĠ qiĠ
yuanĠ nianĠ
Ġ ruoĠ
shanĠ dongĠ
Ġ shuangĠ
feiĠ jiĠ
quanĠ buĠ
guangĠ fanĠ
liuĠ xingĠ
ĠfenĠ bieĠ
sheĠ zhiĠ
zheĠ jiangĠ
yuĠ 18
fangĠ anĠ
jiaoĠ yiĠ
banĠ daoĠ
suiĠ ranĠ
haiĠ baĠ
ĠyueĠ1 8ĠriĠ
poĠ huaiĠ
junĠ deĠ
lianĠ xiĠ
faĠ sheĠ
changĠ pianĠ
E E
ĠyiĠ weiĠ
beiĠ erĠ
yiĠ houĠ
zhengĠ quanĠ
lianĠ xuĠ
nianĠ deĠ
zhiĠ dingĠ
ĠerĠ shiĠ
S t
lingĠ yuĠ
geĠ liĠ
ĠĠĠ jinĠ
Ġ xiongĠ
zongĠ heĠ
2 3
huiĠ shiĠ
teĠ zhengĠ
Ġ qiangĠ
jinĠ gongĠ
zuoĠ zhanĠ
Ġ19 0
u b
Ġ kongĠ
pingĠ taiĠ
ĠshiĠ yongĠ
changĠ shiĠ
xianĠ luĠ
Ġ lvĠ
renĠkouĠ shuĠliangĠ
weiĠ siĠ
jiaoĠ shiĠ
bianĠ chengĠ
2 9
ĠyueĠ1 6ĠriĠ
ĠtaĠ shiĠ
ĠdanĠ renĠ
Ġb inĠ
ziĠ xunĠ
ĠshiĠ faĠguoĠ
daĠ chengĠ
ĠyueĠ2 6ĠriĠ
zhongĠ zhiĠ
zhanĠ lingĠ
yiĠ renĠ
deĠshiĠ zhenĠ
xiĠ juĠ
nanĠ xingĠ
wangĠ zhanĠ
banĠ deĠ
chuĠ shengĠ
ĠfenĠ buĠyuĠ
Ġ zaoĠ
2 1Ġ
daĠ liĠyaĠ
zhiĠ mingĠ
zhiĠ xiaĠ
ĠqiĠ taĠ
leĠ ĠĠ
ĠciĠ houĠ
gaiĠ diĠ
muĠ diĠ
ĠyueĠ1 7ĠriĠ
00Ġ wanĠ
fuĠ jianĠ
miĠ erĠ
weiĠ leĠ
zhuĠ liĠ
I Ġ
Ġd iaoĠ
Ġ Ã
chengĠ zhenĠ
e dĠĠĠ
heĠ shiĠ
qi ongĠ
yiĠ shangĠ
ĠyueĠ1 2ĠriĠ
inĠ ĠĠ
heĠ xinĠ
yeĠ wuĠ
duoĠ geĠ
erĠ tongĠ
biĠ jiaoĠ
2 8
jiĠ guanĠ
Ġ manĠ
20 Ġ
renĠ zaiĠ
huiĠ daoĠ
liangĠ deĠ
19 3
ĠyueĠ1 1ĠriĠ
ĠĠĠ zhengĠzhiĠ
xianĠ faĠ
changĠ qiĠ
biĠ deĠ
weiĠ chiĠ
Ġ19 1
diĠ yuĠ
yinĠ qiĠ
fuĠzeĠ guanĠxiaĠ
o c
ĠyueĠ2 4ĠriĠ
ĠyueĠ2 9ĠriĠ
ĠrenĠ weiĠ
diĠ tieĠ
yuanĠ yuĠ
Ġ mianĠ
deĠ ĠĠ
muĠ qinĠ
ĠyueĠ2 1ĠriĠ
e sĠ
jiaĠ poĠ
ĠĠĠ L
meiĠguoĠ renĠkouĠpuĠchaĠ
ĠyueĠ2 3ĠriĠ
daĠ chenĠ
zaiĠ 200
xingĠ zhiĠ
diĠquĠ deĠ
zuiĠ daĠdeĠ
diĠ qiuĠ
1 7Ġ
tiaoĠ yueĠ
daĠ yueĠ
ĠyueĠ2 7ĠriĠ
haiĠ youĠ
Ġ cheĠ
ĠĠĠ youĠyuĠ
jingĠ changĠ
jieĠ jueĠ
yiĠ youĠ
suoĠ shuĠdeĠ
ĠyueĠ2 ĠriĠ
zhiĠ waiĠ
zaiĠ 201
shouĠ geĠ
nanĠ jingĠ
xuanĠ chuanĠ
weiĠ shengĠ
yingĠ geĠlanĠ
xieĠ yiĠ
jiĠ zheĠ
zhiĠ liĠ
N S
ĠyueĠ2 2ĠriĠ
huoĠdeĠ leĠ
tianĠ zhuĠjiaoĠ
diĠ yaĠ
daĠ louĠ
weiĠ fuĠ
2 4Ġ
zhuĠ shiĠ
Ġ lanĠ
wuĠ liĠ
mingĠ danĠ
quĠ daiĠ
zuiĠ chuĠ
liuĠ nianĠ
i g
zhengĠ dangĠ
tingĠ zhiĠ
i s
ĠĠ formulaĠ
keĠ fuĠ
Ġ saiĠ
deĠ shuĠjuĠ
guoĠ huiĠ
tieĠ daoĠ
lingĠ yiĠ
neiĠ buĠ
jiĠ huiĠ
xianĠ houĠ
deĠshiĠ jianĠ
yuanĠ ziĠ
guanĠ zhongĠ
Ġ gangĠ
taoĠ lunĠ
Ġ chuangĠ
zhenĠ quĠ
zhanĠ yiĠ
jieĠ jinĠ
shuĠ shiĠ
zhengĠ geĠ
ĠĠĠ zheĠ
ĠchuĠ leĠ
daĠ fuĠ
dianĠ liĠ
xingĠ jianĠ
mianĠ deĠ
xieĠ zhuĠ
ĠyueĠ1 3ĠriĠ
ĠyueĠ1 4ĠriĠ
2 2Ġ
zuiĠ zaoĠ
Ġ 6Ġ
jingĠ shenĠ
geĠ leiĠ
zhuĠ jueĠ
shiĠyiĠ zhongĠ
zhengĠ zaiĠ
Ġ xiuĠ
jianĠ shaoĠ
o p
2 6
erĠ qiĠ
zeĠ shiĠ
jiĠ jiĠ
maoĠ yiĠ
ĠĠĠ liĠ
E Ġ
shangĠ youĠ
ceĠ shiĠ
xuanĠ quĠ
deĠ qiĠ
ganĠ ranĠ
Ġ V
shengĠ deĠyiĠgeĠshiĠzhenĠ
wenĠwuĠ baoĠhuĠ
deĠ qianĠ
a g
heĠ pingĠ
liĠ yiĠ
an dĠĠĠ
dianĠshiĠ juĠ
feiĠ xingĠ
of ĠĠĠ
ĠshiĠ zhenĠ
wuĠ qiĠ
nĠ ĠĠ
yanĠjiuĠ suoĠ
jinĠxingĠ leĠ
faĠ dongĠ
lv ĠshiĠ
Ġ qinĠ
nianĠ qingĠ
ĠyingĠ chiĠ
chongĠ tuĠ
leĠ yiĠgeĠ
duĠ shiĠ
al ĠĠĠ
yingĠ pianĠ
jiĠ zhiĠ
yiĠ waiĠ
biĠ liĠ
linĠ shiĠ
daĠ xiĠ
touĠ ruĠ
buĠ luoĠ
chanĠ yeĠ
jianĠ shiĠ
duĠ deĠ
ĠshiĠ yiĠgeĠ
lvĠ youĠ
foĠ jiaoĠ
jiĠ huĠ
bingĠ liĠ
qianĠ deĠ
shaoĠ nianĠ
xiĠ geĠ
kuaiĠ suĠ
chuĠ renĠ
diĠ zhiĠ
faĠ deĠ
piĠ zhunĠ
wanĠ renĠ
Ġ meiĠyouĠ
chuĠ qiĠ
Ġb rĠ
shangĠ wuĠ
zhiĠ xianĠ
gaoĠ zhongĠ
ĠĠĠ19 7
ĠhuoĠ deĠ
ĠĠĠ19 5
zhuĠ yanĠ
ĠtongĠ changĠ
qiĠ laiĠ
a d
duiĠ deĠ
shengĠ fenĠ
shiĠ ziĠ
wangĠ chaoĠ
Ġ faĠguoĠ
zaiĠ yuĠ
erĠ heĠ
baoĠ liuĠ
xiaoĠ xueĠ
wenĠwuĠbaoĠhuĠ danĠweiĠ
xianĠ deĠyiĠgeĠ
wanĠ jiaĠ
g unĠ
woĠ menĠ
deĠyiĠ zhongĠ
seĠ lieĠ
zhengĠ juĠ
diĠerĠ ciĠ
niĠ siĠ
huangĠ diĠ
Ġ nvĠ
zhengĠ mingĠ
ĠyiĠ banĠ
e sĠĠĠ
weiĠ yaĠ
keĠ chengĠ
zhongĠ dianĠ
Ġ qiuĠ
jiaĠ geĠ
huaĠ shiĠ
xiaoĠ zuĠ
Ġ201 0ĠnianĠ
shiĠjieĠ daĠzhanĠ
Ġ U
yiĠ dongĠ
haiĠ yuĠ
queĠ dingĠ
yiĠ nianĠ
zuoĠ chuĠ
aoĠlinĠpiĠkeĠ yunĠdongĠhuiĠ
zhiĠ nengĠ
beiĠ renĠweiĠ
ruĠ xiaĠ
yingĠ yuĠ
weiĠ huiĠ
u l
4 0
zhuĠ deĠ
Ġ1 3
jianĠ jieĠ
xianĠ xiangĠ
ziĠ xingĠ
8 0Ġ
gaoĠ deĠ
guangĠ zhouĠ
weiĠ nengĠ
shouĠ deĠ
shouĠ jiĠ
huangĠ jiaĠ
geĠ diĠ
ĠshiĠ jieĠ
en t
yuĠ19 8
Ġ longĠ
yunĠ yingĠ
shuoĠ shiĠ
jinĠ zhiĠ
tianĠ wenĠ
zongĠ liĠ
g uaiĠ
ĠĠĠ G
yueĠ nanĠ
ĠtongĠ guoĠ
heĠ beiĠ
ĠwoĠ menĠ
chengĠ xuĠ
zuoĠ biaoĠ
shengĠ weiĠ
xiongĠ diĠ
buĠ duanĠ
ĠbuĠ fenĠ
heĠ liuĠ
fuĠ yiĠ
shuĠ weiĠ
qiĠ weiĠ
zhongĠ youĠ
kongĠ junĠ
fanĠ huiĠ
w Ġ
yiĠ jianĠ
u m
Ġ guoĠjiaĠ
yunĠ shuĠ
xingĠzhengĠquĠ huaĠ
shuoĠ faĠ
zhiĠ liaoĠ
wangĠ guoĠ
Ġ kaiĠshiĠ
Ġ qiaoĠ
gaoĠ dengĠ
keĠ luoĠ
Ġ hengĠ
shouĠ ruĠ
ganĠ daoĠ
guĠ jiĠ
quĠ xiaoĠ
shanĠ maiĠ
deĠ yuĠ
ĠĠĠ R
boĠ liĠ
ĠĠĠ19 6
deĠshiĠ houĠ
o s
Ġ tuoĠ
renĠ gongĠ
ĠdaoĠ zhiĠ
qiĠ cheĠ
shengĠ chengĠ
a p
erĠ teĠ
a b
diĠ wuĠ
shouĠ yuĠ
zheĠ shiĠ
ĠĠĠ cheĠzhanĠ
xiaoĠ xingĠxingĠ
huiĠ heĠ
tiaoĠ zhengĠ
daoĠ daĠ
gongĠ fenĠ
tuanĠ duiĠ
20 0Ġ
douĠ youĠ
a v
zhiĠ jiĠ
taiĠpingĠ yangĠ
heĠ lanĠ
nvĠ erĠ
dianĠ deĠ
Ġh an
Ġ teĠbieĠ
xianĠ weiĠ
shenĠ qingĠ
Ġ chaĠ
zhongĠ yuĠ
puĠ taoĠ
fangĠ wenĠ
miĠ shuĠ
renĠminĠ zhengĠfuĠ
qi aĠ
yunĠ xingĠ
zhuĠ mingĠ
s aoĠ
jiuĠ shiĠzhenĠ
shiĠ houĠ
diĠ daĠ
shengĠ heĠ
yiĠ yuĠ
Ġ tanĠ
leiĠ deĠ
2 3Ġ
ĠĠĠ xingĠzhengĠ
ĠĠĠ D
youĠ taiĠ
ruĠ qinĠ
B Ġ
renĠ daĠ
xiaĠ lingĠ
ĠzheĠ yiĠ
aoĠ menĠ
bingĠ weiĠ
Ġ canĠ
Ġ ouĠ
jiaĠ shiĠ
fangĠ zhiĠ
buĠ mingĠ
houĠ xuanĠ
guoĠ neiĠ
Ġ touĠ
ĠĠĠ zhiĠ
ĠĠĠ19 3
lieĠ weiĠ
rongĠ yuĠ
Ġ paiĠ
wenĠ zhangĠ
ĠĠĠ qiĠ
zhongĠ yiĠ
heĠ deĠ
yinĠ shiĠ
youĠ xiaoĠ
laĠ keĠ
jingĠ shiĠ
anĠ paiĠ
wuĠ zhuangĠ
dianĠ taiĠ
7 0Ġ
Ġ xunĠ
youĠ qiĠ
xianĠ yuĠ
yanĠ geĠ
liuĠ shiĠ
ĠyouĠ chengĠ
fuĠ yuĠ
ĠbeiĠ qiĠ
buĠ zuĠ
ĠweiĠyuĠ faĠguoĠ
wenĠ jianĠ
danĠ baiĠ
wenĠ mingĠ
Ġ pingĠfangĠgongĠliĠ
ĠzaiĠ ciĠ
shenĠ deĠ
haiĠ anĠ
qiuĠ changĠ
mouĠ xieĠ
fenĠ zhiĠ
renĠ shuĠ
guanĠ zhuĠ
jieĠfangĠ junĠ
guoĠ fangĠ
yuanĠ suĠ
zhanĠ deĠ
ĠyouĠ xiĠ
fengĠ baoĠ
chaoĠ jiĠ
tiĠ xiĠ
Ġ200 9ĠnianĠ
suiĠ houĠ
ĠxianĠ zaiĠ
juĠ jiĠ
bingĠ duĠ
Ġ1 1
wenĠ dingĠ
ni angĠ
ĠĠĠ ziĠ
renĠkouĠshuĠliangĠ weiĠrenĠ
Ġ shaoĠ
Ġ tuiĠ
zuoĠ deĠ
anĠ naĠ
chengĠ xianĠ
jinĠ shuĠ
renĠkouĠ miĠduĠ
n t
moĠ xingĠ
yiĠ jiaĠ
ĠI NS
jieĠrangĠ deĠshiĠzhenĠ
puĠ tongĠ
Ġ maoĠ
Ġ sunĠ
shouĠ shangĠ
xiangĠ siĠ
dingĠ weiĠ
kaĠ erĠ
ĠINS EE
yuĠ weiĠ
Ġ cheĠzhanĠ
wuĠ zhiĠ
er ĠyanĠ
ĠĠĠ I
jiĠ chengĠ
zhengĠ bianĠmaĠweiĠ
juĠ deĠ
jingĠ deĠ
guanĠ chaĠ
ĠjieĠ zhiĠ
Ġ xuĠduoĠ
juĠ renĠ
202 2ĠnianĠ
caiĠ liaoĠ
seĠ deĠ
caiĠ zhengĠ
fuĠ liĠ
R Ġ
yinĠ suĠ
chuĠ shengĠyuĠ
laiĠ yuanĠ
o v
renĠ yiĠ
riĠ junĠ
meiĠ pingĠfangĠgongĠliĠ
duiĠ shouĠ
baĠ nianĠ
ĠduiĠ yuĠ
shiĠyongĠ deĠ
10 ĠyueĠ
ĠmingĠ chaoĠ
ĠyuĠ 201
zhongĠ wenĠ
ĠgaiĠ shengĠ
ĠyiĠ yuanĠ
laiĠ shuoĠ
dengĠ luĠ
2Ġ renĠ
wangĠ luĠ
shiĠ yiĠgeĠ
ruĠ kouĠ
daĠ jiĠ
gongĠyouĠ renĠkouĠ
zhuangĠ kuangĠ
ĠzongĠ mianĠjiĠ
5 ĠrenĠ
gaoĠ jiĠ
faĠ lanĠ
tongĠ yangĠ
zhenĠ duiĠ
yongĠ huĠ
yaoĠ qingĠ
ĠchengĠ quĠ
20 ĠshiĠjiĠ
shengĠ zhangĠ
xiaoĠ xingĠ
zhongĠyaoĠ deĠ
caoĠ zuoĠ
zhiĠ chengĠ
buĠ yiĠ
shangĠ yingĠ
xianĠ changĠ
shangĠ weiĠ
pinĠ paiĠ
guoĠ liĠ
chongĠ jianĠ
gongĠ minĠ
ĠtaĠ yuĠ
senĠ linĠ
ĠcengĠ renĠ
jiaoĠ liuĠ
ĠshiĠzhenĠ bianĠmaĠweiĠ
ĠINSEE ĠshiĠzhenĠbianĠmaĠweiĠ
ĠrenĠkouĠmiĠduĠ meiĠpingĠfangĠgongĠliĠ
renĠkouĠmiĠduĠ weiĠmeiĠ
ãĢ İ
tiaoĠ zhanĠ
ãĢ ı
ĠxiaĠ lingĠshiĠ
bianĠ haoĠ
deĠ xingĠ
xuanĠ quĠweiĠ
beiĠ meiĠ
shiĠdeĠ renĠkouĠshuĠliangĠweiĠrenĠ
jiaĠ yiĠ
meiĠguoĠrenĠkouĠpuĠchaĠ deĠshuĠjuĠ
yuanĠ zhangĠ
ĠerĠ renĠkouĠmiĠduĠweiĠmeiĠ
ĠdangĠdiĠ gongĠyouĠrenĠkouĠ
ĠerĠrenĠkouĠmiĠduĠweiĠmeiĠ pingĠfangĠqianĠmiĠ
buĠ keĠ
dianĠ naoĠ
zhouĠ bianĠ
lingĠ waiĠ
jinĠ yiĠbuĠ
ĠĠĠ jiĠ
ziĠ dongĠ
junĠ weiĠ
ziĠ jinĠ
ĠhuoĠ jiuĠshiĠzhenĠ
zhanĠ houĠ
nianĠ jianĠ
g aĠ
jiuĠ duĠ
shengĠjiĠ xuanĠquĠweiĠ
suoĠshuĠdeĠ shengĠjiĠxuanĠquĠweiĠ
xiaĠ wuĠ
6 0
shuiĠ pingĠ
ĠĠĠ zhuĠ
ziĠzhiĠ quĠ
jingĠ dianĠ
jiaoĠ quĠ
anĠ zhuangĠ
haiĠ ziĠ
maĠlaiĠ xiĠyaĠ
aoĠ daĠliĠyaĠ
dengĠ jiĠ
fenĠweiĠ faĠguoĠ
minĠzhuĠ dangĠ
faĠ dianĠ
ĠzhongĠ yangĠ
ĠgaiĠshengĠ fenĠweiĠfaĠguoĠ
gongĠ changĠ
erĠ jiĠ
ĠĠĠ daĠ
yongĠ deĠ
yueĠ tuanĠ
Ġ zhuangĠ
renĠ menĠ
ĠĠĠ H
nanĠ jiĠ
ĠĠĠ fuĠ
jingĠ yanĠ
M Ġ
zaiĠ meiĠguoĠ
siĠ chuanĠ
buĠ liĠ
zhiĠ minĠ
zaiĠ weiĠ
Ġ kaoĠ
r unĠ
jiangĠ yuĠ
zhaoĠ kaiĠ
deĠ xiĠ
siĠ xiangĠ
ziĠ muĠ
yingĠ wenĠ
deĠ keĠ
yeĠ yuĠ
ĠyinĠ duĠ
feiĠ zhouĠ
xiaoĠ zhangĠ
er ĠyueĠ
jieĠ jiĠ
i d
Ġ kanĠ
buĠ jiĠ
ĠkeĠ nengĠ
youĠ liangĠ
ruĠ ciĠ
siĠ renĠ
fengĠ xianĠ
qiuĠ jiĠ
deĠdiĠ fangĠ
V Ġ
wuĠ renĠ
beiĠ shiĠ
jiangĠ xiangĠ
pingĠ mianĠ
yunĠ xuĠ
xiaĠ laiĠ
chuanĠ boĠ
buĠ jiuĠ
yiĠ liĠ
gengĠ duoĠ
Ġ eĠluoĠsiĠ
congĠ shiĠ
anĠ jianĠ
zhengĠ zhuangĠ
Ġb angĠ
yiĠ daĠliĠ
paiĠ chuĠ
qiĠ zhiĠ
bianĠ weiĠ
zongĠ duĠ
1Ġ renĠ
yiĠ changĠ
in d
guoĠ shiĠ
xueĠ shuĠ
pengĠ youĠ
guoĠminĠ dangĠ
3 ĠrenĠ
e v
yuanĠ benĠ
chuĠ kouĠ
Ġ paĠ
Ġ p
jinĠ paiĠ
yuĠ heĠ
ĠzongĠ renĠkouĠ
ĠĠĠ F
ĠyiĠ xieĠ
bingĠ meiĠyouĠ
meiĠ nianĠ
aoĠ siĠ
guanĠ deĠ
ĠĠĠ xiĠ
gongĠ heĠ
geĠ geĠ
baĠ xiĠ
zaiĠ duĠ
ĠĠ C
4 ĠrenĠ
jieĠ hunĠ
4 8
diĠ yiĠgeĠ
ĠĠ S
hongĠ zhaĠ
ruiĠ dianĠ
nuĠ liĠ
benĠ tuĠ
guoĠ quĠ
deĠyiĠ zuoĠ
jianĠ kangĠ
shiĠ tuĠ
yiĠ xiĠ
tiĠ mingĠ
deĠyouĠ zhengĠbianĠmaĠweiĠ
Ġ tingĠ
Ġ guoĠjiĠ
buĠ shaoĠ
tongĠ xingĠ
guanĠ dianĠ
ĠerĠ zaiĠ
luĠ deĠ
yiĠ juĠ
aĠlaĠ boĠ
minĠ zhongĠ
shuĠ ziĠ
ĠyouĠ mingĠ
fangĠ yuĠ
1 2ĠyueĠ
daĠ jiangĠ
gouĠ maiĠ
pingĠfangĠ miĠ
shouĠ shiĠ
yingĠ yunĠ
200 8ĠnianĠ
guiĠ zeĠ
guoĠ yuĠ
shenĠ meĠ
tianĠ jinĠ
yiĠ qianĠ
zhiĠ ziĠ
zaoĠ nianĠ
Ġ kuĠ
luĠ siĠ
xuĠ qiuĠ
jiuĠ nianĠ
guĠ wenĠ
6 ĠrenĠ
fuĠ renĠ
weiĠ xingĠ
diĠ liuĠ
zhenĠ shiĠ
Ġ zhengĠshiĠ
liĠ liangĠ
Ġ201 1ĠnianĠ
jieĠ keĠ
yuĠ19 7
chuĠ zhanĠ
ĠdanĠ taĠ
ĠqiĠ xiĠ
tiĠ gaoĠ
deĠ jiaĠ
huiĠ youĠ
deĠ yanĠ
heĠ nanĠ
ruĠ xuanĠ
l Ġ
202 1ĠnianĠ
gongĠ zhongĠ
yinĠ faĠ
xueĠ shiĠ
F Ġ
lv ĠbinĠ
e g
zhangĠ daĠ
ĠbiaoĠ shiĠ
Ġ nuoĠ
cunĠ zhuangĠ
xingĠ taiĠ
fangĠ qiĠ
i m
heĠ jiĠ
ĠdeĠ guoĠ
gongĠ xianĠ
deĠ qingĠ
biaoĠ mingĠ
boĠ luoĠ
xiaoĠ shouĠ
zhongĠ daĠ
yingĠ gaiĠ
yiĠ fuĠ
yuĠ jiĠ
shiĠ beiĠ
3 5Ġ
w engĠ
suoĠ zaiĠ
deĠ buĠ
xinĠ jiaĠpoĠ
Ġ Î
zhouĠ weiĠ
gaoĠ yuĠ
xunĠ suĠ
erĠ fuĠ
tuĠ shuĠguanĠ
guanĠ zhiĠ
qianĠ shuĠ
guĠ fenĠ
3 8
yuĠ leiĠ
liĠ heĠ
ĠjieĠ guoĠ
nianĠ duĠ
ĠshenĠ zhiĠ
juĠ xingĠdeĠ
jiangĠ shiĠ
yiĠ chanĠ
ĠzhongĠ gongĠ
chuĠ shiĠ
9 0Ġ
Ġ panĠ
faĠ qiĠ
lingĠ tuĠ
zongĠ buĠ
jiaĠ jiĠ
Ġ200 8ĠnianĠ
naĠ liĠ
hengĠ xingĠ
jingĠ zhengĠ
yingĠ jiĠ
3 7
jiaoĠ lianĠ
keĠ erĠ
ruĠ heĠ
haiĠ daoĠ
yeĠ zaiĠ
ruiĠ shiĠ
queĠ zhenĠ
yangĠ huaĠ
jieĠshuĠ houĠ
xingĠ jiĠ
leĠ taĠ
hanĠ shuĠ
zhuĠ yuĠ
jiuĠ dianĠ
ĠyiĠ ciĠ
canĠ kaoĠ
o t
xinĠ haoĠ
duiĠ wuĠ
lanĠ qiuĠ
ĠnianĠ1 2ĠyueĠ2
liĠ daĠ
z uanĠ
biaoĠ daĠ
ĠyiĠ zhiĠ
xuanĠ weiĠ
yiĠ tongĠ
keĠ zaiĠ
heĠ yueĠ
chengĠ zuoĠ
Ġ201 3ĠnianĠ
ĠĠĠ W
yuĠ leĠ
huoĠ shiĠ
qiĠ yongĠ
N Ġ
Ġ zhengĠfuĠ
leiĠ xingĠ
201 6ĠnianĠ
jieĠ quanĠguoĠ
lingĠ xiuĠ
kanĠ daoĠ
renĠ mingĠ
shouĠ luĠ
luoĠ deĠ
ĠdiĠ yiĠ
jianĠ danĠ
erĠ chengĠ
tiĠ shengĠ
ĠsuoĠ youĠ
ĠfuĠ zeĠ
11 ĠyueĠ
daiĠ deĠ
A T
Ġ m
chuĠ faĠ
suiĠ daoĠ
xingĠ quĠ
wuĠ nianĠ
wenĠ xianĠ
gouĠ chengĠ
shenĠ tiĠ
Ġd unĠ
dongĠ xiĠ
jieĠ shaoĠ
jiaoĠ xueĠ
ĠjingĠ guoĠ
geĠ shiĠ
2 2
duoĠ zhongĠ
cengĠ zaiĠ
Ġ waĠ
Â °
wangĠ deĠ
zhongĠguoĠ gongĠchanĠdangĠ
shenĠ jingĠ
yuĠ19 4
ouĠ yuanĠ
qiĠ zaiĠ
gengĠ mingĠweiĠ
ĠshengĠ huoĠ
e d
qiangĠ lieĠ
yiĠ zaiĠ
ĠĠĠ202 1ĠnianĠ
teĠ shuĠ
ï ½
mingĠ lingĠ
Ġ taoĠ
touĠ xiangĠ
yanĠ deĠ
banĠ gongĠ
liĠshiĠ shangĠ
bianĠ jieĠ
yongĠ laiĠ
yingĠ shiĠ
laĠ fuĠ
xunĠ huiĠ
daĠxiĠ yangĠ
b engĠ
suiĠ shiĠ
00Ġ miĠ
qiĠ xiangĠ
ĠqiĠ jianĠ
yiĠ xiangĠ
ĠbingĠ jiangĠ
chuangĠ zaoĠ
geĠ weiĠ
kaoĠ lvĠ
Ġ zengĠ
xiĠ anĠ
faĠ chuĠ
zuĠ deĠ
9 ĠrenĠ
Ġd uanĠ
yueĠ weiĠ
lianĠ heĠguoĠ
buĠ xiangĠ
yangĠ shiĠ
Ġ1 0Ġ
ĠdaiĠ biaoĠ
O Ġ
Ġ2 1Ġ
ĠĠ M
yiĠ daoĠ
jiaoĠ weiĠ
guangĠ gaoĠ
yiĠ duĠ
qiaoĠ zhiĠ
ĠshangĠ haiĠ
o b
o d
haiĠ xiaĠ
ĠcongĠ erĠ
lieĠ ruĠ
ĠĠĠ wuĠ
u sĠ
zhiĠ shaoĠ
baiĠ seĠ
ĠĠĠ 2019ĠnianĠ
am pĠ
xianĠ jinĠ
Ġ 0Ġ
youĠ yiĠgeĠ
dongĠ deĠ
ĠshiĠ deĠ
x Ġ
keĠ weiĠ
siĠ geĠ
teĠ deĠ
bianĠ jiĠ
ĠdiĠ sanĠ
shouĠ weiĠ
ĠyaoĠ qiuĠ
yanĠ shiĠ
liangĠ weiĠ
xiĠ huanĠ
banĠ gongĠshiĠ
yiĠ zuoĠ
ĠyiĠ shiĠ
ĠĠĠ deĠ
nianĠ houĠ
youĠ renĠ
tiĠ jiĠ
renĠminĠ jieĠfangĠjunĠ
zhanĠ tingĠ
quanĠ mianĠ
lvĠ keĠ
heĠ liĠ
shaoĠ shuĠ
Ġ201 2ĠnianĠ
3 5
chuĠ shenĠ
moĠ xiĠgeĠ
ciĠ jiĠ
meiĠ geĠ
qiĠyuĠ gangĠ
e p
o g
puĠ bianĠ
huoĠ zheĠ
X Ġ
xingĠ xiangĠ
yinĠ qingĠ
ĠzhiĠ zhiĠ
ĠbeiĠ jingĠ
u s
heĠ qiĠtaĠ
Ġ laiĠziĠ
Ġ200 7ĠnianĠ
canĠjiaĠ leĠ
e b
teĠ seĠ
changĠ weiĠ
yiĠ qingĠ
shuĠ xueĠ
xiĠ weiĠ
geĠ deĠ
ĠĠĠ 2020ĠnianĠ
ĠĠĠ201 8ĠnianĠ
201 2ĠnianĠ
shuaiĠ lingĠ
naĠ deĠ
chuangĠ banĠ
Ġ200 5ĠnianĠ
chuanĠ shuoĠ
zhiĠ zhiĠ
lieĠ biaoĠ
chuĠ laiĠ
Ġ caoĠ
henĠ kuaiĠ
ĠĠĠ yuanĠ
ĠĠĠ erĠ
h a
luĠdiĠ mianĠjiĠweiĠ
ĠĠĠ beiĠ
shuiĠyuĠ mianĠjiĠweiĠ
jiĠ renĠ
yuĠ19 6
ĠtiĠ zhangĠ
daoĠ yuĠ
xiaĠ jiangĠ
ĠchengĠ liĠ
chuangĠ liĠ
chuĠxianĠ zaiĠ
gongĠ zhuĠ
xiĠ shengĠ
shiĠ daĠ
baoĠ zhaĠ
luoĠ fuĠ
biĠ mianĠ
sh uaĠ
h i
jiuĠ longĠ
2 1
diĠ zhenĠ
Ġ201 6ĠnianĠ
ruĠ guoĠ
queĠ faĠ
7 ĠrenĠ
zaiĠ qiĠ
ĠbuĠ jiuĠ
Ġ201 4ĠnianĠ
sheĠhuiĠ zhuĠyiĠ
houĠxuanĠ renĠ
haiĠ waiĠ
caiĠ quĠ
kangĠ yiĠ
ĠciĠ shiĠ
zhuĠ zhangĠ
chuĠ xiĠ
yuĠ19 5
ï½ ŀ
ĠtaĠ haiĠ
shiĠ erĠ
guanĠ biĠ
xiaoĠ xiĠ
ĠĠĠ zhongĠ
shiĠjieĠ beiĠ
ĠshiĠyiĠ zhongĠ
huiĠ yingĠ
4 5Ġ
8 0
jianĠ ceĠ
xianĠ xingĠ
saĠ keĠ
ĠĠĠ E
Ġ ampĠ
zhiĠ shuĠ
fanĠ zuiĠ
dangĠ deĠ
Ġ201 5ĠnianĠ
Ġ201 8ĠnianĠ
ciĠ yuĠ
Ġ jueĠ
ĠdangĠzhongĠ luĠdiĠmianĠjiĠweiĠ
faĠ anĠ
ĠshiĠ jianĠ
ĠerĠ shuiĠyuĠmianĠjiĠweiĠ
nanĠ beiĠ
gaoĠsuĠ gongĠluĠ
guoĠjiaĠ duiĠ
2 6Ġ
202 3ĠnianĠ
jieĠ weiĠ
juĠ zhangĠ
hunĠ heĠ
Ġ rongĠ
keĠ yunĠ
Ġ18 9
ziĠ zhuĠ
ĠĠĠ201 7ĠnianĠ
ĠtaĠ yeĠ
liangĠ zhongĠ
bingĠ feiĠ
200 9ĠnianĠ
siĠ liĠ
gengĠ jiaĠ
xueĠ huiĠ
ceĠ ĠĠ
ĠT heĠĠĠ
cuoĠ shiĠ
ã ĥ
juĠ qingĠ
juĠ fengĠ
jiangĠ suĠ
laĠ deĠ
n d
shengĠ dunĠ
ĠqiĠ yuĠ
shiĠ pinĠ
gongĠ huiĠ
xiangĠ jiĠ
minĠ jianĠ
2 8Ġ
haĠ erĠ
ĠĠĠ xinĠ
chengĠweiĠ leĠ
7 0
qiuĠ huiĠ
chaĠ yiĠ
ĠdianĠ yingĠ
jingĠ xuanĠ
yaoĠ wuĠ
yuĠ zhiĠ
buĠ heĠ
xingĠ heĠ
mingĠ xianĠ
zhangĠ aiĠ
ĠzhiĠ youĠ
ĠlingĠ yiĠ
ĠzhongĠhuaĠ minĠguoĠ
jiaoĠ deĠ
U Ġ
ĠĠĠ jiaĠ
yuĠ beiĠ
hunĠ yinĠ
nianĠ daiĠ
ĠĠĠ geĠ
juĠ shiĠ
wenĠ ziĠ
suoĠ shuĠ
ĠliangĠ renĠ
ĠĠĠ xingĠzhengĠquĠhuaĠ
zhuangĠ jiaĠ
zhiĠ shangĠ
xiĠ yinĠ
piaoĠ fangĠ
L Ġ
shiĠ zhangĠ
ĠĠĠ qingĠ
zhiĠ liuĠ
jinĠ rongĠ
houĠ qiĠ
dongĠ beiĠbuĠ
ĠhaiĠ youĠ
chengĠ benĠ
buĠ manĠ
t oĠĠĠ
yingĠ xiongĠ
Ġ202 1ĠnianĠ
deĠ zhuĠyaoĠ
ĠĠĠ 3
diĠ dianĠ
guoĠchengĠ zhongĠ
Ġ 2019ĠnianĠ
faĠ yuĠ
ĠtaĠ beiĠ
weiĠ liĠ
gaiĠ zaoĠ
hongĠ seĠ
ciĠ deĠ
zhuĠ zaiĠ
a k
fangĠ zaiĠ
canĠ mouĠ
ĠĠĠ buĠ
yuĠ maoĠ
ĠweiĠ fuĠ
qiangĠ diaoĠ
tongĠ cheĠ
zhanĠ taiĠ
fanĠ yiĠ
Ġ kuanĠ
Ġ minĠguoĠ
ĠĠĠ N
zhongĠ shanĠ
gongĠ renĠ
junĠ zaiĠ
haiĠ yangĠ
e w
dongĠ liĠ
bingĠ ruĠ
shuoĠ mingĠ
ĠtiĠzhangĠ keĠdaĠ
ĠshiĠ meiĠguoĠ
ceĠ liangĠ
faĠxianĠ leĠ
yanĠchangĠ huiĠ
neiĠ geĠ
Ġ formulaĠ
neiĠ luĠ
ĠnianĠ1 2ĠyueĠ1
gaiĠ shanĠ
muĠ shiĠ
202 4ĠnianĠ
laiĠ daoĠ
maĠ keĠ
yuanĠ xingĠ
dianĠ cheĠ
muĠ deĠ
teĠ liĠ
yeĠ beiĠ
8 ĠrenĠ
fenĠ peiĠ
daiĠbiaoĠ daĠhuiĠ
yuĠ xiĠ
Ġ200 6ĠnianĠ
ĠĠĠ202 2ĠnianĠ
Ġ201 7ĠnianĠ
tuiĠ dongĠ
3 2Ġ
ĠĠĠ congĠ
ĠjuĠ liĠ
weiĠ laiĠ
ĠĠĠ201 6ĠnianĠ
zhouĠ fuĠ
heĠ chengĠ
huiĠ zhangĠ
qingĠ baoĠ
zhuanĠ jiaĠ
huaĠ yuanĠ
zuĠ jianĠ
Ġ naiĠ
moĠ deĠ
2 7Ġ
ĠshiĠ youĠ
boĠ fangĠ
deĠ yingĠxiangĠ
changĠ biĠsaiĠ
200 0ĠnianĠ
xiaĠjiĠ aoĠlinĠpiĠkeĠyunĠdongĠhuiĠ
junĠ gongĠ
qiĠ bingĠ
boĠ erĠ
201 8ĠnianĠ
mingĠ shiĠ
huaĠ weiĠ
baoĠ weiĠ
biaoĠ mianĠ
huanĠ yingĠ
Ġ liaoĠ
daĠ guiĠmoĠ
xiĠ xingĠ
lunĠ wenĠ
zhouĠ nianĠ
ĠĠĠ dangĠ
zhuĠ mingĠdeĠ
teĠ dingĠ
zhuangĠ beiĠ
yuĠ renĠ
yuĠ ciĠ
jiangĠ diĠ
3Ġ geĠ
xiuĠ gaiĠ
daĠ duoĠshuĠ
jiaĠ shangĠ
youĠ keĠ
201 4ĠnianĠ
zhiĠ heĠ
yanĠjiuĠ yuanĠ
aiĠerĠ lanĠ
zhengĠ xieĠ
youĠ suoĠ
deĠzhiĠ chiĠ
deĠshiĠ jieĠ
ind ow
s engĠ
tanĠ keĠ
xianĠ shengĠ
duanĠ deĠ
keĠnengĠ huiĠ
gouĠ zaoĠ
yongĠ tuĠ
aoĠyunĠ huiĠ
luĠ waĠ
zhiĠ diĠ
ĠĠĠ danĠ
Ġhan sĠ
Ġt wĠ
sunĠ shiĠ
biĠyeĠ yuĠ
Ġ chunĠ
shenĠ weiĠ
banĠ faĠ
chuĠ daoĠ
sanĠ jiaoĠ
Ġ 2020ĠnianĠ
ĠĠĠ qianĠ
zhaoĠ daoĠ
ĠĠĠ201 4ĠnianĠ
shanĠ daĠ
cuĠ jinĠ
heĠ xiĠ
taiĠ guoĠ
suiĠ jiĠ
tongĠ mengĠ
200 7ĠnianĠ
weiĠ lianĠ
tanĠ panĠ
dongĠ fangĠ
guĠ dingĠ
fuĠ zaĠ
geĠ erĠ
shengĠ taiĠ
zhuĠ zuoĠ
4 8Ġ
jiangĠ huiĠ
peiĠ yinĠ
tuiĠ xiuĠ
daĠ weiĠ
201 5ĠnianĠ
ĠĠĠ keĠ
dongĠ zuoĠ
baoĠ cunĠ
ĠfuĠ qinĠ
siĠ yuĠ
siĠ taĠ
guanĠ ceĠ
shiĠ fanĠ
zhanĠ lveĠ
teĠ ĠĠ
201 1ĠnianĠ
sheĠ deĠ
cheĠ xiaoĠ
zengĠ zhangĠ
an d
deĠdiĠ erĠ
ï¼ ı
buĠ bingĠ
xingĠ dengĠ
zuiĠ duoĠ
u c
zhuĠ changĠ
zhengĠ tiĠ
jieĠ sanĠ
daoĠ danĠ
shiĠ diĠ
zhongĠ duoĠ
jueĠ deĠ
mingĠ mingĠweiĠ
ĠshiĠ renĠ
wanĠ shangĠ
guĠ daiĠ
ĠĠĠ201 5ĠnianĠ
yiĠ xueĠ
shiĠ geĠ
3 6
xiangĠ huĠ
riĠ baoĠ
ĠĠĠ deĠshiĠquĠweiĠ
ĠĠĠ suoĠshuĠdeĠshengĠjiĠxuanĠquĠweiĠ
ĠĠĠ deĠyouĠzhengĠbianĠmaĠweiĠ
ĠbingĠ youĠ
ĠĠĠyuĠ shiĠdeĠrenĠkouĠshuĠliangĠweiĠrenĠ
jiaĠ renĠ
Ġ Ñ
gongĠ juĠ
ĠĠĠyuĠ jieĠrangĠdeĠshiĠzhenĠ
ĠshiĠ weiĠ
niĠ keĠ
al Ġ
baoĠ zhangĠ
xieĠ deĠ
kongĠ zhongĠ
buĠ daoĠ
gongĠ yingĠ
9 0
ĠshiĠ zhiĠ
yinĠ ruĠ
ĠĠĠ201 3ĠnianĠ
junĠ zhuĠ
e a
zhuanĠ menĠ
200 6ĠnianĠ
19 2
boĠ linĠ
dangĠ zhongĠ
buĠ zhiĠ
xinĠ renĠ
suiĠ zhuĠ
taiĠ nanĠ
teĠ erĠ
shiĠ fouĠ
waiĠ guoĠ
lingĠ xianĠ
zhaoĠ pianĠ
buĠ weiĠ
A S
i v
geĠ daĠ
jiĠ youĠ
xiangĠ yuĠ
benĠ shenĠ
luĠ shiĠ
laĠ dingĠ
ziĠ shenĠ
feiĠ jianĠzhiĠ
wanĠ yuanĠ
shanĠ quĠ
ĠxiĠ lieĠ
Ġ 00Ġ
junĠ quĠ
10 0
ĠĠĠ c
ĠĠĠ aĠ
xiaoĠ guoĠ
lvĠ weiĠ
tongĠ daoĠ
suiĠ deĠ
O S
ĠĠ P
zhengĠ changĠ
yingĠ yeĠ
taiĠ fengĠ
miĠ miĠ
shangĠ yiĠ
chongĠ qingĠ
Ġh kĠ
dangĠ shiĠdeĠ
daiĠ laiĠ
shanĠ jiĠ
weiĠ wuĠ
kuoĠ daĠ
jiĠ bingĠ
xinĠ yangĠ
19 ĠnianĠ
duiĠ zhangĠ
moĠ erĠ
canĠ yiĠyuanĠ
zuĠ chengĠdeĠ
18 9
maĠ laĠ
yongĠ zuoĠ
qiĠ xiaĠ
ĠtaĠcengĠ daiĠbiaoĠ
ĠĠĠ201 0ĠnianĠ
ĠqingĠ chaoĠ
wangĠ qiuĠ
chuĠ yanĠ
feiĠjianĠzhiĠ diĠquĠ
dongĠ nanĠbuĠ
shouĠ gouĠ
maĠ erĠ
Ġ poĠ
daĠ duoĠ
tongĠ paiĠ
19 1
Ġ nvĠxingĠ
moĠ siĠkeĠ
zeĠ renĠ
fuĠ zhouĠ
duiĠ xiangĠ
queĠ renĠ
jiaĠ mengĠ
renĠ mingĠweiĠ
shuĠ zhongĠ
ĠdongĠ linĠ
niĠyaĠ zhouĠ
maĠ siĠ
Ġ zaoĠchengĠ
4Ġ geĠ
diĠ tuĠ
chengĠ baoĠ
ĠjiaĠ shangĠ
daĠ xiaoĠ
yinĠ paiĠ
201 7ĠnianĠ
ati onĠĠĠ
ĠjinĠ ruĠ
heĠ panĠ
zheĠ yangĠ
diĠ mianĠ
tiĠ daoĠ
qiĠ jiĠ
gaoĠ xiongĠ
yiĠsiĠ lanĠ
xiangĠ biĠ
yiĠ shengĠ
fuĠ luoĠ
zhiĠ liangĠ
fangĠ wuĠ
ĠdanĠ youĠyuĠ
u t
jianĠ duĠ
xiangĠ xiĠ
ĠjinĠ xingĠ
fuĠ gaiĠ
ĠyanĠ jiuĠ
ruanĠ jianĠ
guiĠ zuĠ
jiaĠ liĠ
yiĠ minĠ
shuĠ ruĠ
xiangĠ zhengĠ
ĠdianĠ shiĠ
tuiĠ yiĠ
yiĠ wuĠ
ĠshiĠ riĠbenĠ
xiaoĠ quĠ
ĠĠĠ jiaĠzuĠ
huoĠ jianĠ
laoĠ dongĠ
buĠ luĠ
dianĠ huaĠ
daiĠ liĠ
gongĠsiĠ deĠ
3 9
dingĠ juĠ
faĠ shouĠ
keĠ xueĠyuanĠ
junĠ guanĠ
zhongĠguoĠ deĠ
shiĠyiĠ nianĠ
ĠĠĠ jieĠzhiĠ
xingĠ bieĠ
xianĠ heĠ
taiĠ ziĠ
xiĠ beiĠbuĠ
douĠ huiĠ
huoĠ shanĠ
K Ġ
liĠ zhiĠ
Ġ3 0Ġ
buĠ fuĠ
xiangĠ xinĠ
aoĠ diĠliĠ
ĠxiĠ banĠyaĠ
ĠĠĠyiĠ xiaĠ
miĠ yaĠ
ĠweiĠfuĠ qiĠyuĠgangĠ
yunĠ zuoĠ
zhongĠ ziĠ
xiĠ siĠ
zhanĠ jiĠ
jingĠ weiĠ
2 ĠĠĠ
4 5
youĠ xingĠ
geĠ lunĠ
keĠnengĠ shiĠ
yeĠ huiĠ
huĠ beiĠ
quanĠ deĠ
daĠ saiĠ
anĠ shiĠ
Y ou
liangĠ renĠ
ĠĠĠ zhĠ
beiĠ fangĠ
mingĠ yuĠ
caiĠ nengĠ
shiĠweiĠ leĠ
1 ĠĠĠ
3 1Ġ
wenĠ duĠ
xuĠ liĠyaĠ
ĠquanĠ guoĠ
200 5ĠnianĠ
Ġ pengĠ
zhongĠ qiĠ
paiĠ hangĠ
duiĠ waiĠ
or Ġ
faĠ guanĠ
ĠyinĠ erĠ
fuĠ zhiĠ
liangĠ ciĠ
manĠ zuĠ
zhangĠ guanĠ
daiĠbiaoĠ tuanĠ
ĠĠ A
chengĠ leĠ
qianĠ zhiĠ
daĠ shaĠ
tuĠ poĠ
yiĠ duanĠ
nongĠ minĠ
suĠ geĠlanĠ
erĠ manĠ
meiĠ niĠyaĠ
kaiĠ zhanĠ
tuiĠ jinĠ
zaiĠ shiĠ
nianĠ laiĠ
20 20
dianĠ jiĠ
banĠ yanĠ
Ġ18 8
Ġ xueĠxiaoĠ
shouĠ fuĠ
Ġ202 2ĠnianĠ
siĠ weiĠ
19 0
201 3ĠnianĠ
diĠ anĠ
kaiĠ tongĠ
ĠĠĠ chuĠ
huiĠ yuanĠ
shenĠ huaĠ
Ġ niuĠ
Ġ shuoĠ
beiĠ poĠ
shuĠ yuanĠ
jiaĠ laĠ
Ġ sheĠhuiĠ
paiĠ deĠ
ĠyinĠ yueĠ
xuĠ keĠ
dangĠ juĠ
ĠyouĠ xieĠ
buĠ erĠ
dengĠ shangĠ
niĠ deĠ
huiĠ shangĠ
ĠbiĠ ruĠ
renĠ qiĠ
ceĠ deĠ
4 6
Ġ rengĠ
biaoĠ zhiĠ
wangĠ shiĠ
4 9
puĠtaoĠ yaĠ
zhiĠ zhanĠ
beiĠ jiĠ
zuoĠ zheĠ
e x
fangĠ yanĠ
ĠyeĠ youĠ
200 4ĠnianĠ
rongĠ yiĠ
shiĠqiĠ deĠ
kunĠ nanĠ
tongĠ xunĠ
suiĠ zheĠ
2020ĠnianĠ meiĠguoĠrenĠkouĠpuĠchaĠdeĠshuĠjuĠ
a li
fenĠ buĠyuĠ
nengĠ liangĠ
weiĠ keĠ
weiĠ xieĠ
Ġ miaoĠ
zhuangĠ zhiĠ
zhongĠ xingĠ
xiĠ liĠ
jingĠ fangĠ
lingĠdaoĠ renĠ
feiĠ lvĠbinĠ
tianĠ deĠ
kuoĠ zhanĠ
fanĠweiĠ neiĠ
naĠ xieĠ
2Ġ geĠ
chuĠ yiĠ
yeĠ deĠ
zeĠ youĠ
ĠzheĠ jiangĠ
- -
Ġ sheĠjiĠ
ĠĠĠ heĠ
daĠ xuanĠ
ĠxianĠ shiĠ
mingĠ yiĠ
5Ġ miĠ
ĠĠĠ201 2ĠnianĠ
ĠĠĠ zaoĠnianĠ
zhuanĠ xiangĠ
cunĠ deĠ
u p
xiĠ fangĠ
shangĠ renĠ
ĠĠĠ202 3ĠnianĠ
kaĠ siĠ
ac k
wuĠ taiĠ
jingĠ duĠ
yanĠ shenĠ
A R
yiĠ dingĠ
jiĠ geĠ
nianĠ lingĠ
duiĠ kangĠ
qinĠ wangĠ
shuangĠ fangĠ
zuoĠ quĠ
Ġ n
feiĠ chuĠ
lvĠ xingĠ
junĠ tuanĠ
deĠyiĠ zhiĠ
biĠsaiĠ zhongĠ
diĠ baĠ
ĠshiĠ qiĠ
shiĠ huiĠ
sheĠ jiĠdeĠ
ĠĠĠ J
fenĠ liĠ
baoĠ deĠ
Ġ canĠjiaĠ
xianĠ yiĠ
kaĠ luoĠ
ĠbaoĠ hanĠ
buĠ jinĠ
ti onĠĠĠ
zhuĠ zhaiĠ
tuĠ erĠqiĠ
ĠsuiĠ zheĠ
I N
renĠkouĠ weiĠ
luĠ xuĠ
ĠqiĠzhongĠ baoĠkuoĠ
weiĠ beiĠ
deĠzhiĠ wuĠ
aiĠ deĠ
ĠĠĠ qiĠtaĠ
faĠ huiĠ
ĠmingĠchaoĠ zhengĠzhiĠrenĠwuĠ
xiaĠ quĠ
el l
zhongĠ zaiĠ
saĠ siĠ
heĠ guĠ
taiĠ duĠ
aoĠ zhouĠ
daĠ qiaoĠ
ĠĠĠ xiaoĠ
taiĠ kongĠ
longĠ jiangĠ
chuangĠ jianĠ
wanĠ gongĠ
xunĠ zhaoĠ
peiĠ heĠ
sheĠ dingĠ
ĠhanĠ guoĠ
chengĠ quĠ
xianĠ youĠ
baoĠ shouĠ
qiĠzhongĠ yiĠzhongĠ
ĠyingĠ yuĠ
ĠgongĠ youĠ
g Ġ
jiaoĠ huanĠ
yingĠ liĠ
changĠ duĠ
ĠbingĠ yiĠ
chengĠ keĠ
xiĠ shiĠ
shengĠ chuĠ
ĠĠĠ19 2
ĠxinĠ zengĠ
heiĠ seĠ
siĠ daĠ
zuoĠ yiĠ
zheĠ liĠ
waiĠ deĠ
Ġ tieĠ
zheĠ xueĠ
baoĠ liĠ
1Ġ haoĠ
jiangĠ lingĠ
pingĠ guĠ
kaiĠ sheĠ
a sĠĠĠ
shangĠ changĠ
jiuĠ zhiĠ
jiĠ fuĠ
ĠmeiĠ nianĠ
keĠ laĠ
ĠyueĠ hanĠ
Ġ lieĠ
xingĠ renĠ
paiĠ qianĠ
ĠxiĠ wangĠ
ziĠ chanĠ
ĠguoĠ minĠ
yuanĠ yiĠ
yuanĠ youĠ
yuanĠ heĠ
fuĠ muĠ
qingĠ chaoĠ
Ġ faĠxianĠ
deĠ yanĠjiuĠ
00Ġ renĠ
tiĠgongĠ leĠ
qiĠ xiĠ
chuĠ shouĠ
luoĠ keĠ
ĠyouĠ yiĠ
ĠĠĠ beiĠjingĠ
weiĠ xinĠ
youĠ yongĠ
geĠ laĠ
jiaĠ qiangĠ
zhanĠ lanĠ
liuĠ zaiĠ
fuĠjinĠ deĠ
huoĠ banĠ
yuanĠ gongĠ
Ġ nengĠ
huangĠ houĠ
faĠ shiĠ
fenĠ lanĠ
ĠnianĠ1 ĠyueĠ1ĠriĠ
zaiĠ 199
taoĠ taiĠ
yuĠ qiĠtaĠ
liĠ wuĠ
gongĠ jueĠ
maĠ touĠ
3 3Ġ
beiĠ shiĠweiĠ
guanĠ jianĠ
r an
Ġ xuanĠbuĠ
yanĠ haiĠ
ĠyiĠ mingĠ
I I
jiĠ siĠ
jiaĠ zhouĠ
shaĠ siĠ
m i
zh uaĠ
erĠ ciĠ
quanĠ zhangĠ
huĠ shiĠ
linĠ deĠ
canĠ xuanĠ
ĠliĠ shuĠyuĠ
zhongĠ jianĠ
ziĠ weiĠ
ti c
T V
ã ģ
Ġ sĠĠĠ
shenĠ duĠ
yiĠ tiĠ
liangĠ nianĠ
Ġ2001ĠnianĠ renĠkouĠ
zaiĠ19 8
Ġ wenĠhuaĠ
Ġ jiaoĠyuĠ
huiĠ guiĠ
qingĠ chuĠ
gengĠ xinĠ
qianĠ tingĠ
nongĠ cunĠ
daiĠ youĠ
mianĠ duiĠ
anĠ zhaoĠ
xingĠ yuĠ
biaoĠ benĠ
zhongĠ weiĠ
wuĠ jiĠ
anĠ huiĠ
tongĠ xinĠ
haiĠ baĠgaoĠduĠ
200 1ĠnianĠ
leiĠ jiĠ
deĠ jiaoĠ
huoĠ yueĠ
Ġ à
ĠĠ B
qiĠ heĠ
juĠ benĠ
ĠwuĠ keĠlanĠ
yuĠ19 3
u sĠĠĠ
boĠ siĠ
touĠ luĠ
shouĠ xiangĠ
liuĠ yuĠ
liaoĠ jieĠ
daĠ yuĠ
gaiĠ chengĠ
nanĠ haiĠ
zhenĠ deĠ
diĠ diĠ
feiĠ liĠ
ĠchuĠ yuĠ
zhongĠ beiĠ
fuĠ zhuĠ
guangĠdongĠ shengĠ
yunĠ nanĠ
shiĠ sanĠ
shouĠ xiĠ
meiĠ liĠ
xiaĠ yiĠ
teĠ leiĠ
fuĠ shuĠ
quĠ leĠ
m a
daiĠ lingĠ
Ġ200 4ĠnianĠ
zhangĠ yuĠ
dangĠ nianĠ
xiaĠxiaĠ deĠyiĠgeĠ
zengĠ zuĠ
xiĠ nanĠbuĠ
yuĠmaoĠ qiuĠ
xiĠ erĠ
4 7
dianĠ qiĠ
ĠhouĠ zheĠ
queĠzhenĠ bingĠliĠ
ĠC Ġ
buĠ laĠ
jiangĠ jinĠ
ĠjianĠ zhuĠ
bianĠ juĠ
ĠluĠ waĠ
f f
ĠĠĠ xianĠ
yuanĠ zeĠ
ĠerĠshuiĠyuĠmianĠjiĠweiĠ 0
ãĥ »
3 6Ġ
Ã Ĺ
shouĠ zhangĠ
ĠxianĠ renĠ
ĠĠĠ meiĠguoĠ
weiĠ xianĠ
fuĠ sheĠ
shanĠ deĠ
lingĠ yiĠgeĠ
ĠjingĠ jiĠ
Ġ 7Ġ
jieĠ tiĠ
lingĠ diĠ
xiuĠ zhengĠ
Ġ jueĠdingĠ
lianĠ renĠ
dengĠ dengĠ
jiĠ xieĠ
jianĠ renĠ
ĠzuiĠ chuĠ
yiĠ liaoĠ
jiuĠ huiĠ
1Ġ liĠ
xinĠ jiangĠ
ĠsuiĠ zhuĠ
3 8Ġ
chengĠ liĠdeĠ
al l
daĠ banĠ
1 0ĠnianĠ
zhuanĠ huanĠ
yueĠ duiĠ
houĠ beiĠ
qingĠ huaĠ
jiĠ erĠ
gaoĠ jiaĠ
tianĠ huangĠ
Ġ lunĠ
qiĠ dongĠ
boĠ deĠ
ĠerĠ gaiĠdiĠ
Ġ 8Ġ
ĠĠĠ baĠ
yuanĠ liĠ
chuanĠ meiĠ
shengĠ zhiĠ
ĠjiĠ shiĠ
mingĠ queĠ
fenĠ deĠ
muĠ niĠ
youĠ liĠ
banĠ shiĠchuĠ
Ġ huaiĠ
ĠĠĠ K
qingĠ qiuĠ
suoĠ deĠ
kangĠ riĠ
ĠpingĠ junĠ
gongĠ yiĠ
zaiĠ beiĠ
5 5
a y
nanĠ fangĠ
zhongĠ zuĠ
chaiĠ chuĠ
xiaoĠ liĠ
ziĠ shiĠ
tuoĠ liĠ
A M
q u
riĠ zhiĠ
zhengĠfuĠ deĠ
i sĠĠĠ
taĠ shiĠ
Ġ200 0ĠnianĠ
Ġ zhengĠzhiĠ
faĠ xingĠdeĠ
xinĠ liĠ
Ġ xingĠzhengĠ
guoĠ duĠ
S T
jiaĠ zhongĠ
liangĠ xiangĠ
neiĠ zhanĠ
huiĠ yuĠ
ĠhuoĠ zheĠ
ati onĠ
junĠ youĠ
ĠyongĠ youĠ
zhongĠ yiĠyuanĠ
heĠ weiĠ
siĠ dunĠ
yanĠ seĠ
Ġ sheĠyouĠ
houĠ zaiĠ
taiĠ deĠ
yanĠ yiĠ
cuoĠ wuĠ
ĠĠĠ O
ĠyiĠ meiĠyuanĠ
ĠĠĠ201 1ĠnianĠ
geiĠ leĠ
202 5ĠnianĠ
ĠshiĠyiĠ mingĠ
B C
â Ķ
jieĠ youĠ
juĠ zhongĠ
fuĠ haoĠ
yanĠ zhiĠ
yaĠ deĠ
huaĠ renĠ
mianĠ feiĠ
huanĠ zheĠ
tuiĠ guangĠ
jianĠ youĠ
shengĠ renĠ
daĠ zhongĠ
duiĠ ciĠ
mingĠ xingĠ
ĠyinĠ qiĠ
ĠzhongĠ deĠ
hangĠ tianĠ
Ġ genĠ
xingĠ muĠ
guĠ liĠ
nuoĠ weiĠ
ĠĠĠjuĠ qingĠ
xianĠ ruĠ
ĠdongĠ beiĠ
diĠ zaiĠ
jiangĠ xiĠ
ĠĠĠ202 4ĠnianĠ
ingĠ ĠĠ
shiĠ baoĠ
keĠ laiĠ
wanĠ zhengĠ
keĠ xiĠ
qianĠ yiĠ
G Ġ
gongĠ anĠ
shaĠ haiĠ
luĠ yingĠ
niĠ xiĠyaĠ
henĠ daĠ
ganĠranĠ zheĠ
ĠguanĠ yuĠ
3 4
S TĠ
bianĠ xingĠ
liuĠ xiaĠ
jiĠ yinĠ
beiĠ deĠ
meiĠ shuĠ
zhuĠyiĠ zheĠ
ĠĠĠ guĠ
geĠ juĠ
ĠyiĠ jingĠ
Ġ1 5Ġ
xianĠ shangĠ
keĠ linĠ
huoĠ biĠ
qianĠ dingĠ
xieĠ tiaoĠ
ï¼ ħ
ĠĠĠ xiangĠgangĠ
houĠ yiĠ
biĠ yaoĠ
zhiĠ luĠ
tuĠ ranĠ
zeĠ weiĠ
canĠ tingĠ
lianĠ deĠ
buĠ siĠ
jueĠ duiĠ
ĠerĠ gaiĠ
shiĠyongĠ yuĠ
chengĠ zhongĠ
huĠ yuĠ
genĠ tingĠ
nanĠ yiĠ
keĠyiĠ zaiĠ
zhiĠ kongĠ
saiĠ deĠ
ĠliĠ shiĠ
âĶ Ģ
o h
yuanĠ xianĠ
riĠ qiĠ
tuĠ xingĠ
baiĠ renĠ
ĠĠĠciĠ waiĠ
weiĠ aiĠ
jianĠ weiĠ
ĠmeiĠ geĠ
shanĠ shiĠ
Ġ18 7
er ĠyuanĠ
zongĠ renĠkouĠ
ĠĠĠ xiaĠ
zhiĠ zhengĠ
gongĠ deĠ
guoĠjiaĠ deĠ
guanĠliĠ juĠ
W indow
jiaĠ heĠ
huĠ nanĠ
shuiĠ kuĠ
buĠ dianĠyingĠ
daiĠ buĠ
benĠ diĠ
liĠ changĠ
faĠ tingĠ
lanĠ deĠ
zengĠ qiangĠ
Ġ shunĠ
H Ġ
liĠ fangĠ
xiĠxingĠ buĠmingĠ
ĠjiaĠ ruĠ
yiĠ jiaoĠ
zhangĠ shiĠ
dengĠ changĠ
tianĠ shiĠ
tuĠ zhongĠ
buĠ shuĠ
jiĠ cheĠ
weiĠ diĠ
faĠ yanĠ
houĠ xuĠ
ĠzhiĠ shiĠ
xunĠ yangĠ
naĠ cuiĠ
beiĠrenĠweiĠ shiĠ
ĠshengĠhuoĠ xiĠxingĠbuĠmingĠ
ĠĠĠ zhongĠguoĠ
huoĠ xingĠ
lianĠ luoĠ
moĠ niĠ
Ġ zhaĠ
yunĠ yongĠ
deĠyiĠ xieĠ
ĠciĠ nianĠ
Ġ200 2ĠnianĠ
xiĠtongĠ deĠ
Ġ gongĠsiĠ
fanĠ deĠ
jiĠ yaĠ
changĠ wuĠ
qingĠ deĠ
cuiĠ huiĠ
zhuangĠ shiĠ
youĠ xiuĠ
ĠĠĠ maĠ
weiĠ heĠ
pingĠ minĠ
Ġ18 6
jiĠ xingĠ
guoĠ wuĠyuanĠ
deĠfuĠ qinĠ
zhuĠ ceĠ
tianĠ tiĠ
keĠ shiĠ
shiĠjieĠ shangĠ
shanĠxiĠ shengĠ
keĠ yuĠ
zuoĠbiaoĠ weiĠ
3 7Ġ
lianĠheĠ huiĠ
muĠsiĠ linĠ
geĠ ziĠ
zhengĠ bianĠ
tongĠ deĠ
leĠ taĠdeĠ
tiĠyuĠ changĠ
zhongĠgongĠ zhongĠyangĠ
fengĠ fuĠ
4 2Ġ
qiĠ xuanĠ
shenĠ chaĠ
qiangĠ duĠ
diĠerĠciĠ shiĠjieĠdaĠzhanĠ
e ar
shiĠ jiuĠ
jinĠ yiĠ
jinĠ dangĠ
xiuĠ fuĠ
ĠgongĠ yuanĠ
t u
zhouĠ qiĠ
ĠĠĠ suiĠranĠ
shouĠ zhongĠ
bianĠ jingĠ
ĠĠĠ yinĠ
Ġ canĠyuĠ
mianĠ dianĠ
bingĠ shiĠ
ĠC h
zhuiĠ suĠ
jingĠ gaoĠ
fangĠ weiĠ
wangĠ wangĠ
ĠjiĠ yuĠ
yuanĠzhuĠ minĠ
heĠ heĠ
tianĠ houĠ
ĠwanĠ jiaĠ
lingĠ renĠ
teĠ laĠ
deĠ erĠ
zaiĠ riĠbenĠ
zhanĠ xianĠ
ĠtaĠ yiĠ
e tĠĠĠ
ĠĠĠ zengĠzuĠ
beiĠ pingĠ
7 5Ġ
xiangĠ yingĠ
xiuĠ jianĠ
ĠshiĠyiĠ weiĠ
ĠfaĠ xingĠ
ĠĠĠ yueĠ
ciĠ zhiĠ
3 4Ġ
changĠ jianĠ
Ġ0 00
wuĠ ziĠ
qingĠ shiĠ
ceĠ lveĠ
B S
gengĠ weiĠ
youĠyiĠ xieĠ
lieĠ deĠ
liĠ youĠ
diĠ daiĠ
gaoĠ daĠ
Ġ202 3ĠnianĠ
maĠ deĠ
ĠrenĠ menĠ
shiĠjianĠ deĠ
zhiĠyeĠ shengĠyaĠ
xiaoĠ feiĠ
cunĠ luoĠ
shiĠyiĠ mingĠ
kaoĠ guĠ
zouĠ xiangĠ
1 2ĠnianĠ
Ġ ouĠzhouĠ
shiĠ jiaĠ
shouĠ quanĠ
liangĠ guoĠ
jiuĠ deĠ
shenĠ zhenĠ
suoĠ caiĠyongĠ
nanĠ feiĠ
ĠyongĠ yuĠ
zuĠqiuĠ duiĠ
daĠ qiĠ
wuĠ daoĠ
changĠ jingĠ
yaĠ junĠ
tianĠ ranĠ
e tĠ
zhengĠ heĠ
laiĠ yinĠ
xunĠ huanĠ
shiĠ fenĠ
siĠ faĠ
cheĠ xiangĠ
tianĠ jingĠ
zaiĠ jiĠ
ĠĠĠ 6
ĠĠĠ wanĠ
tiaoĠ liĠ
shiĠwuĠ nianĠ
jiangĠ deĠ
zuĠ gouĠ
gangĠ kouĠ
guangĠ xuĠ
xunĠ zhangĠ
il l
aiĠ jiĠ
renĠ yuĠ
xieĠ zuoĠ
tuĠ jingĠ
daĠxueĠ deĠ
a ng
duiĠ qiĠ
7 5
yiĠ heĠ
naĠ xiaĠ
ĠĠĠdiĠ fangĠ
daĠ zhiĠ
xianĠ jiĠ
jinĠ buĠ
200 3ĠnianĠ
ĠzuiĠ gaoĠ
ĠshengĠ yuĠ
a i
jinĠ riĠ
tongĠ mingĠ
zheĠ ciĠ
kaĠ laĠ
18 8
ĠnanĠ zhiĠ
ĠguangĠ dongĠ
4 6Ġ
faĠ mingĠ
baoĠ luoĠ
ĠyanĠ yuanĠ
shiĠ baĠ
liĠ xiĠ
shanĠ fengĠ
ĠĠĠ200 8ĠnianĠ
C O
fuĠ xingĠ
haiĠ pingĠmianĠ
siĠ shengĠ
yuanĠ jingĠ
fuĠ yinĠ
huaĠ shengĠdunĠ
jiangĠ shuĠ
miĠ niĠ
xieĠ erĠ
shaoĠ nvĠ
zanĠ tingĠ
quĠ yiĠhuiĠ
mingĠ zhiĠ
dangĠ yuanĠ
ĠdongĠ nanĠ
liĠ chengĠ
zaiĠ xiangĠgangĠ
qianĠ shiĠ
leiĠ daĠ
yiĠ xiaoĠshiĠ
liĠ gongĠ
juĠ tiĠ
changĠ suoĠ
zhouĠ ciĠshiĠ
enĠ shengĠ
siĠ houĠ
ziĠ shaĠ
ĠshiĠ yanĠ
xiaoĠ yuanĠ
daĠ jiaĠ
meiĠ junĠ
jiuĠ yuanĠ
peiĠ xunĠ
dangĠ diĠdeĠ
feiĠ yanĠ
ĠluoĠ maĠ
keĠdeĠ qiĠzhongĠyiĠzhongĠ
liĠ buĠ
liangĠ mingĠ
suoĠ chuĠdeĠ
zeĠ dongĠ
changĠ heĠ
ĠjuĠ youĠ
xiangĠguanĠ deĠ
ĠzhongĠhuaĠrenĠminĠgongĠheĠguoĠ zhengĠzhiĠrenĠwuĠ
daĠ lianĠmengĠ
jieĠ renĠ
duĠ liĠdeĠ
suĠ deĠ
qunĠ tiĠ
5 00Ġ
fuĠ youĠ
juĠ daĠ
chanĠshengĠ deĠ
ĠĠĠ 4
taiĠ houĠ
ĠjiĠ huaĠ
shangĠ shengĠ
shenĠ shiĠ
guĠ laoĠ
9 9
Ġ kouĠ
huangĠ seĠ
jinĠ youĠ
laiĠ yueĠ
1Ġ geĠ
ĠdaĠ buĠfenĠ
yiĠ nanĠ
Ġ200 3ĠnianĠ
jiĠjinĠ huiĠ
shangĠ xiaĠ
teĠ xingĠ
haoĠ weiĠ
ĠzhiĠ zuoĠ
ĠĠ T
siĠ heĠ
xinĠ guanĠ
zhuanĠ xieĠ
jiĠduĠ jiaoĠ
fuĠ leiĠ
miĠ qieĠ
ĠxiĠ jieĠ
shiĠ baiĠ
huoĠ cheĠ
nt er
yiĠ xingĠ
ĠshiĠ deĠguoĠ
gongĠ yuĠ
xinĠ xingĠ
lvĠ seĠ
zaiĠ gaiĠ
daĠ baiĠ
fuĠ erĠ
xiaoĠ fangĠ
waiĠ buĠ
zuĠqiuĠ yunĠdongĠyuanĠ
siĠ maĠ
ĠweiĠ lianĠ
fengĠ weiĠ
ĠxiangĠ nianĠ
ĠmaĠ laiĠ
ĠyeĠ jiuĠshiĠ
Ġ sangĠ
ĠyouĠ shiĠ
2Ġ haoĠ
Ġ langĠ
keĠ liĠsiĠ
ziĠ benĠ
er i
shuĠ zhiĠ
ĠgaiĠ cunĠ
xiongĠ yaĠliĠ
miĠshuĠ zhangĠ
zhongĠ haiĠ
ĠshiĠ wuĠkeĠlanĠ
jiangĠ zaiĠ
changĠ jianĠdeĠ
liangĠ ceĠ
leĠyiĠ xieĠ
deĠ chengĠ
junĠ yiĠ
lingĠ chenĠ
C h
huiĠ beiĠ
shuĠ muĠ
gongĠ qingĠ
ĠyiĠ daĠliĠ
6 5Ġ
qianĠ renĠ
huĠ xiangĠ
ĠĠĠ 5
xinĠ zengĠ
jiaoĠ youĠ
ĠjiĠ zaiĠ
kongĠ buĠ
qinĠ ziĠ
zuiĠhouĠ yiĠ
zhanĠ duiĠ
guoĠ houĠ
shouĠ xianĠ
fangĠ jianĠ
zhangĠ fuĠ
feiĠ erĠ
xingĠdengĠ weiĠ
yinĠ xiangĠ
deĠshiĠ yongĠ
biĠyeĠ houĠ
ĠĠ R
ĠĠĠ aiĠ
daoĠ yuanĠ
yunĠ shiĠ
piĠ fuĠ
gangĠ tieĠ
1 ĠyueĠ
luĠ zhiĠ
niĠ erĠ
ĠzhiĠ yuĠ
yinĠ yongĠ
banĠ jiangĠ
ĠyouĠ qiĠshiĠ
200 2ĠnianĠ
chaoĠ shiĠ
keĠ heĠ
duiĠ yingĠ
gaiĠ mingĠweiĠ
cheĠ changĠ
buĠ ruĠ
jianĠ chiĠ
ĠxingĠ chengĠ
geĠlunĠ biĠyaĠ
n angĠ
fenĠ zhiĠyiĠ
maiĠ keĠ
zhongĠ jiangĠ
shangĠ wangĠ
shouĠ cangĠ
luoĠ jiĠ
guoĠjiĠ jiĠchangĠ
zhaĠ danĠ
ziĠ shengĠ
pingĠ hengĠ
nengĠ yuanĠ
zhengĠzhuangĠ ganĠranĠzheĠ
Ġ tiĠgongĠ
deĠ jieĠ
ĠĠĠ V
zhuĠ buĠ
ĠyiĠ nianĠ
nuoĠ fuĠ
gongĠkaiĠ saiĠ
xiaĠlingĠ shiĠjianĠ
shiĠ bingĠ
liĠ shuĠyuĠ
geĠ jiĠ
juĠ yuĠ
fangĠ kongĠ
changĠ jiangĠ
ĠyiĠ shuĠ
zaoĠ yuĠ
yiĠ daĠ
dangĠ weiĠ
guangĠ xiĠ
chuĠbanĠ sheĠ
E R
ĠtongĠshiĠ gaiĠdiĠ
zaiĠ19 7
I S
liĠ qiĠ
zaiĠ zhongĠguoĠ
ĠyiĠ bianĠ
suoĠ weiĠ
yuĠ19 0
ĠĠĠ200 9ĠnianĠ
neiĠluĠ shengĠfenĠ
zuoĠ shiĠ
jiangĠ huĠ
duiĠ fangĠ
la y
ub eĠ
Ġ reĠ
zaiĠ zhongĠ
zhengĠ quĠ
ĠxiĠ nanĠ
ri c
5 5Ġ
f Ġ
n uanĠ
renĠ jiĠ
ĠbiĠ saiĠ
ĠchaoĠ xianĠ
anĠ daĠ
heĠ yuĠ
gongĠ chengĠshiĠ
fuĠ huaĠ
shouĠ boĠ
xiaoĠ liangĠ
ĠyouĠ qiĠ
dongĠshiĠ zhangĠ
Ġ Z
shiĠ liuĠ
wuĠ siĠ
zhangĠ ziĠ
deĠjiĠ chuĠ
ĠaĠ erĠ
erĠ yuĠ
zhangĠ zhuanĠjiĠ
shangĠhaiĠ shiĠ
fuĠ jiĠ
beiĠjingĠ shiĠ
Ġ xuĠyaoĠ
wenĠ deĠ
deĠyiĠ shuĠ
1 5ĠnianĠ
2 9Ġ
buĠ laiĠ
daĠ suanĠ
jiaĠ liĠfuĠ
hanĠ youĠ
N A
danĠ maiĠ
tianĠ qiĠ
linĠ jinĠ
guiĠ fanĠ
ĠĠĠ jianĠjieĠ
zhiĠ 199
buĠ buĠzhangĠ
zhanĠ changĠ
yanĠ zouĠ
luĠ kouĠ
qianĠ xiĠ
ĠshiĠ zhongĠguoĠ
laĠ jiĠ
saiĠerĠ weiĠyaĠ
jingĠneiĠ gongĠyouĠ
xiĠ zangĠ
tiĠ yiĠ
douĠ zaiĠ
renĠminĠ biĠ
faĠlanĠ xiĠ
liĠ jieĠ
danĠ shuiĠ
tuĠ shaĠ
hanĠ yuĠ
taĠ weiĠ
changĠ diĠ
qianĠ yueĠ
duoĠ liĠyaĠ
liĠ leĠ
daoĠ shangĠ
mingĠ renĠ
19 Ġ
ĠteĠbieĠ shiĠ
xueĠ deĠ
lunĠ deĠ
jiĠ jieĠ
chuĠ zhangĠ
sheĠ yuĠ
wanĠ meiĠyuanĠ
xieĠ daoĠ
biĠ liĠshiĠ
duanĠ zanĠ
zhuĠyaoĠ deĠ
heĠ zhongĠ
erĠ renĠ
jiaoĠ chaĠ
fanĠ zhiĠ
ĠĠĠ xiangĠ
buĠ zhuĠ
3 0ĠnianĠ
shiĠ guĠ
lianĠ wangĠ
Ġ1 2Ġ
ĠĠĠdiĠfangĠ ziĠliaoĠ
Ġ Y
yanĠ anĠ
naĠ zhouĠ
5 0ĠnianĠ
Ġ10 ĠyueĠ
jingĠ youĠ
tiĠ xingĠ
chuĠ jiĠ
juĠ yuanĠ
ĠjieĠ muĠ
s p
shiĠ keĠ
xianĠ zhuĠ
liangĠ ziĠ
yueĠ youĠ
heĠ erĠ
zhengĠ queĠ
chiĠ youĠ
t a
ĠĠĠ ranĠ
queĠ baoĠ
renĠminĠ daiĠbiaoĠdaĠhuiĠ
D TĠ
yiĠ tiaoĠ
boĠ jueĠ
kuoĠ zhangĠ
ĠziĠ youĠ
18 7
boĠshiĠ xueĠweiĠ
pingĠ yuanĠ
g h
n enĠ
xiaoĠ yingĠ
ar i
siĠlingĠ buĠ
tiĠ daiĠ
sheĠ xianĠ
benĠ renĠ
feiĠ erĠdeĠ
zuĠ xieĠ
ĠjieĠ keĠ
wuĠ hanĠ
shengĠ yinĠ
mingĠ chaoĠ
buĠ shouĠ
haiĠ deĠ
haiĠbaĠ weiĠ
chuĠ changĠ
shangĠ zhenĠ
suoĠ zaiĠdiĠ
cengĠ weiĠ
qunĠ zhongĠ
xianĠ chengĠ
jingĠ guanĠ
fenĠ lieĠ
shiĠ siĠ
jiĠ daĠ
liĠ xiangĠ
guoĠ junĠ
fuĠ nvĠ
zhuĠ daoĠ
duoĠ nianĠ
erĠ zaiĠ
jinĠ zhanĠ
ĠshuangĠ fangĠ
luĠ yuĠ
cheĠ duiĠ
wuĠ diĠ
zhengĠ mianĠ
yanĠ huaĠ
fuĠ zhuĠxiĠ
en tĠĠĠ
ĠA Ġ
ĠzuĠ fuĠ
A P
laĠ teĠ
Ġ ningĠ
geĠ siĠ
zhuĠ banĠ
ciĠ keĠ
ĠĠĠ19 0
guoĠ gongĠ
zhuangĠ jiĠ
6 8
y p
ouĠ mengĠ
youĠ weiĠ
quĠ neiĠ
ĠyuanĠ mingĠ
ĠdaoĠ leĠ
liĠfaĠ huiĠ
keĠ leiĠ
menĠ deĠ
tuĠ chuĠ
ni c
shangĠ pinĠ
shiĠqiĠ nianĠ
zhongĠ zuiĠ
taĠ yuĠ
shangĠ yuĠ
duanĠ pianĠ
ati on
chengĠ zhangĠ
saĠ erĠ
yiĠ seĠlieĠ
ĠĠĠ siĠ
heĠ diĠ
jieĠ yuĠ
quanĠ xianĠ
gongĠ jiaoĠ
yaĠ muĠ
quanĠ shiĠ
miĠ siĠ
feiĠ yongĠ
3 3
ĠĠĠ jiaoĠtongĠ
shuĠ chuĠ
bianĠ shiĠ
Ġ199 8ĠnianĠ
xianĠzhiĠ xianĠ
Ġ cangĠ
ĠdanĠ yinĠ
niaoĠ leiĠ
ĠĠĠ liuĠ
gongĠ jinĠ
zuiĠgaoĠ deĠ
yiĠ keĠ
ĠzaiĠ zheĠ
ĠjiaĠ naĠdaĠ
4 7Ġ
xingĠ nengĠ
juĠ changĠ
ĠĠĠ 8
jueĠ shiĠ
Ġc nĠ
yuanĠ weiĠ
juĠ buĠ
cheĠ tuiĠ
zaoĠ deĠ
A C
youĠ zhuĠ
yeĠ keĠyiĠ
lianĠ zaiĠ
kuaiĠ yiĠxiaoĠshiĠ
1 ĠnianĠ12ĠyueĠ
yiĠ langĠ
xueĠ keĠ
ĠweiĠ UTCĠ
chuanĠ zhiĠ
ĠfuĠ jianĠ
zuĠqiuĠ juĠleĠbuĠ
sheĠ yingĠ
ĠjiĠ UTCĠ
cengĠ yuĠ
qiangĠ deĠ
sheĠyouĠ xiaĠlingĠshiĠjianĠ
deĠshiĠquĠweiĠ UTCĠ
ĠdiaoĠ kuaiĠyiĠxiaoĠshiĠ
ig h
ĠerĠgaiĠdiĠ suoĠcaiĠyongĠ
ĠtongĠshiĠgaiĠdiĠ sheĠyouĠxiaĠlingĠshiĠjianĠ
ĠerĠgaiĠdiĠsuoĠcaiĠyongĠ deĠshiĠquĠweiĠUTCĠ
baoĠ zhiĠ
teĠ dianĠ
deĠjiĠ luĠ
jianĠzhuĠ wuĠ
paiĠmingĠ diĠ
qiĠ nianĠ
ganĠ buĠ
z eiĠ
zaiĠ nanĠ
shenĠ panĠ
huanĠ chengĠ
ou r
ĠĠĠ meiĠ
ĠĠĠ 10
heĠ tongĠ
xingĠ rongĠ
huaĠ jiaĠ
shanĠ xianĠ
yiĠ chuĠ
fuĠ siĠ
huoĠ shengĠ
yaĠ meiĠniĠyaĠ
kongĠ xiĠ
ĠlingĠ youĠ
z Ġ
renĠ ciĠ
taiĠ jiĠ
weiĠyuanĠhuiĠ weiĠyuanĠ
ĠshanĠ dongĠ
v er
zuĠ qunĠ
bingĠ qieĠ
huanĠ xingĠ
gaoĠyuĠ haiĠpingĠmianĠ
liĠ renĠ
mianĠ tiĠ
guiĠ deĠ
liangĠ shiĠ
dangĠ tianĠ
tianĠ tangĠ
quĠdeĠ mianĠjiĠweiĠ
buĠshiĠ quĠ
haiĠbaĠweiĠ gaoĠyuĠhaiĠpingĠmianĠ
A N
gaoĠ xiaoĠ
zanĠ zhuĠ
suoĠchuĠdeĠ haiĠbaĠweiĠgaoĠyuĠhaiĠpingĠmianĠ
buĠ daĠ
wuĠ ranĠ
4 4Ġ
jiaĠ suĠ
jianĠ jiĠ
jueĠ yiĠ
beiĠ panĠ
taĠ erĠ
shangĠ leĠ
zongĠ shiĠ
yaĠliĠ shanĠdaĠ
yiĠ ranĠ
zongĠ caiĠ
ĠsiĠ chuanĠ
.. .
chengĠ jiuĠ
teĠ quĠ
© Ġ
jingĠ baoĠ
xinĠ jiĠ
ĠyingĠ wenĠ
henĠ shaoĠ
hengĠ liĠ
daĠ erĠ
peiĠ beiĠ
hangĠ zhouĠ
faĠshengĠ zaiĠ
yuĠ zhouĠ
zaiĠ neiĠdeĠ
xiangĠ zhenĠ
guanĠ kanĠ
luoĠ faĠ
ĠjiĠ beiĠmeiĠ
gongĠzuoĠ shiĠ
ĠqianĠ longĠ
ĠmuĠ qinĠ
a u
ĠĠĠ 7
jingĠ saiĠ
huoĠ zaiĠ
duoĠ erĠ
bangĠ qiuĠ
qingĠ xingĠ
huiĠ zhiĠ
1 8ĠnianĠ
luĠ duanĠ
qingĠ jieĠ
guĠ deĠ
ĠĠĠ duiĠ
Ġ 8ĠyueĠ
heĠ maĠ
chengĠ huĠ
hangĠ yeĠ
weiĠ huĠ
jinĠ siĠ
fuĠ hanĠ
caiĠ chanĠ
6Ġ geĠ
zhongĠ duanĠ
ĠtaĠmenĠ deĠ
Ġ cuiĠ
ĠyiĠ youĠ
t er
xiĠ shouĠ
kaoĠ jinĠ
jiangĠ jiĠ
6 5
faĠ dongĠjiĠ
naĠ ruĠ
ĠxianĠ houĠ
Ġ3 0
ruanĠ tiĠ
chuĠ ziĠ
shenĠ shengĠ
ar k
wuĠ yiĠ
chaoĠ tingĠ
longĠ deĠ
Ġ zhuiĠ
jiaĠ yuĠ
ĠjiĠ baiĠ
liĠ shuĠ
zhuĠ ruĠ
zuĠ jieĠ
15 0Ġ
weiĠ daĠ
shouĠ shuĠ
zhongĠguoĠ renĠminĠjieĠfangĠjunĠ
yiĠ zhouĠ
wuĠ yuĠ
shengĠ daoĠ
zhanĠ muĠsiĠ
gongĠyuanĠ qianĠ
keĠ youĠ
tuĠ xiangĠ
3 00Ġ
ĠĠĠ anĠ
meiĠ deĠ
ĠĠĠ200 7ĠnianĠ
zaiĠ19 6
weiĠ yeĠ
jiaĠ xiangĠ
luoĠ chengĠ
faĠ lingĠ
danĠ deĠ
zhiĠ xuĠ
liangĠ jiĠ
Ġ202 4ĠnianĠ
Ġ caiĠyongĠ
shouĠ feiĠ
kongĠ qiĠ
juĠ beiĠ
3Ġ haoĠ
zuĠzhiĠ deĠ
ĠĠĠ taiĠwanĠ
Ġ1 1Ġ
binĠ haiĠ
tongĠ wangĠ
mianĠ linĠ
xunĠ qiuĠ
qianĠ houĠ
zhenĠ quĠdeĠmianĠjiĠweiĠ
shunĠ liĠ
daoĠ heĠ
huaĠ yuĠ
zheĠ weiĠ
tanĠ xianĠ
ĠshouĠ ciĠ
jiĠ jiangĠ
siĠ laĠfuĠ
xianĠ zhangĠ
zhanĠ shuĠ
duĠ weiĠ
shangĠ xianĠ
yanĠ jiangĠ
Ġ199 9ĠnianĠ
ĠĠĠ202 5ĠnianĠ
ĠĠĠ zhuĠyaoĠ
zaiĠ19 4
quĠ fenĠ
ouĠ xiangĠ
ziĠ heĠ
baoĠ shiĠ
tingĠ kaoĠ
ĠzheĠ yangĠ
shuangĠ daĠ
Ġ194 9ĠnianĠ
guĠfenĠ youĠxianĠgongĠsiĠ
6 4Ġ
e f
zhiĠ beiĠ
ĠrenĠ minĠ
ĠweiĠyuĠ gaiĠ
ĠĠĠ fanĠ
xiaĠ deĠyiĠgeĠ
baoĠ xianĠ
yueĠ qiuĠ
shiĠ tiĠ
ĠĠĠ jieĠ
geĠ guoĠ
fuĠ zaiĠ
leĠ xuĠduoĠ
junĠ renĠ
zhiĠzuoĠ deĠ
Ġ pianĠ
liĠ miĠ
baoĠ anĠ
shiĠjiĠ shangĠ
ĠsuĠ lianĠ
ziĠ woĠ
zuoĠ yeĠ
sheĠ jiaoĠ
chuangĠ xinĠ
1 20
c i
yingĠ duiĠ
maoĠ xianĠ
jinĠ shanĠ
jiaoĠ daĠ
wangĠ houĠ
ĠyuĠ ciĠ
18 6
zhongĠ shuĠ
quĠ jianĠ
chongĠ jiĠ
zhuĠyiĠ deĠ
Ġ geiĠ
ĠĠĠ 9
youĠ xieĠ
chengĠ nianĠ
zaoĠ shangĠ
5 9
liĠ baĠ
shouĠ renĠ
yanĠ zhongĠdeĠ
ĠxiĠ beiĠ
N B
zhiĠ jingĠ
daĠ geĠmingĠ
siĠ lanĠ
wanĠ deĠ
en tĠ
jiaĠ zhuangĠ
lvĠ deĠ
Ġ niuĠyueĠ
dongĠ yuanĠ
diĠyiĠ weiĠ
yuĠ19 2
paiĠhangĠ bangĠ
yaĠ keĠ
seĠ ĠĠ
5Ġ geĠ
ĠĠĠ zhengĠ
liĠ aoĠ
canĠ shuĠ
huangĠ jinĠ
ĠchuĠ shengĠyuĠ
I C
a tĠĠĠ
Ġ ceĠ
ĠĠĠ shiĠyongĠ
laoĠ shiĠ
daĠshiĠ guanĠ
guĠ dianĠ
guĠ laĠ
baĠ laĠ
seĠ fuĠ
jianĠliĠ leĠ
panĠ luanĠ
ar Ġ
ĠĠĠ riĠbenĠ
yinĠ niĠ
yueĠ laiĠyueĠ
ĠliĠ shuĠ
ĠĠĠ U
beiĠ keĠ
qianĠ ruĠ
teĠ youĠ
ĠerĠ feiĠ
You T
ĠĠĠ formulaĠ
baoĠ yuĠ
bianĠ yuanĠ
ĠpuĠ taoĠ
shiĠ taĠ
5Ġ gongĠliĠ
peiĠ yangĠ
ĠxinĠ wenĠ
a h
i ch
tuiĠ jianĠ
kaiĠshiĠ zaiĠ
e st
sheĠ qunĠ
deĠyiĠ tiaoĠ
rongĠ heĠ
genĠ suiĠ
langĠ puĠ
1 4ĠnianĠ
ĠĠĠ b
zhongĠ yeĠ
Ġ ruiĠ
liuĠ chuanĠ
chaoĠ yueĠ
ĠĠĠ wangĠ
qiĠ yueĠ
yangĠ xingĠ
tianĠ fuĠ
ĠshanĠ xiĠ
leĠ duiĠ
xueĠ yeĠ
siĠ xingĠ
wuĠ shuĠ
jiaĠ erĠ
tiĠ chuĠleĠ
xiaoĠ liĠyuĠ
zhengĠ shuĠ
haiĠ shangĠ
ĠyiĠ qiĠ
ĠliangĠ geĠ
ĠĠ H
luoĠ shanĠjiĠ
tieĠluĠ cheĠzhanĠ
douĠ zhengĠ
ĠĠĠ jiaĠtingĠ
ĠĠĠ muĠqianĠ
jiaĠ sheĠ
quĠ heĠ
zhuangĠ deĠ
rongĠ naĠ
youĠ huiĠ
xiaoĠ jieĠ
qingĠ zhuĠ
xuanĠ chengĠ
Ġ1 6Ġ
kuoĠ jianĠ
tiĠ chuĠdeĠ
fuĠ kaĠ
xiaĠ leĠ
ĠriĠ junĠ
5 8
quĠ zhuĠ
shangĠ dianĠ
meiĠ yuanĠdeĠ
yingĠ junĠ
ĠnaĠ meĠ
r am
Ġ 7ĠyueĠ
zhiĠ boĠ
buĠ yuanĠ
buĠ lieĠ
buĠ chongĠ
wuĠ yueĠ
zheĠ zaiĠ
duoĠ weiĠ
hongĠ junĠ
jiaĠruĠ leĠ
zhongĠxinĠ deĠ
l u
youĠ sanĠ
gaiĠ zhiĠweiĠ
zaoĠ chengĠdeĠ
chengĠ fenĠ
erĠ zhanĠ
kaiĠ muĠ
tuĠ deĠ
ĠzhiĠ chiĠ
zhiĠ zeĠ
ciĠ shuĠ
daiĠ maĠ
pingĠ dengĠ
baĠ daĠ
7 ĠyueĠ1ĠriĠ
Ġ menĠ
Ġ nongĠ
youĠ huaĠ
luĠ yiĠsiĠ
zhangĠ yueĠ
ĠyiĠ xiaĠ
ĠĠĠ huoĠ
ranĠ liaoĠ
heĠ faĠ
Ġ1 2ĠyueĠ
buĠ jianĠ
chuĠxianĠ leĠ
Ġ gouĠ
siĠ kaĠ
ar t
nv eĠ
yiĠ erĠ
ĠĠĠ geĠrenĠ
xiĠ heĠ
zhuĠ quanĠ
xuanĠ chuĠ
tiaoĠ jieĠ
1 3ĠnianĠ
ĠĠĠ jianĠ
jiĠ houĠ
xiangĠ faĠ
neiĠ diĠ
juĠbanĠ deĠ
tongĠ weiĠ
banĠ liĠ
xieĠ shangĠ
Ġ zuĠzhiĠ
daĠ heĠ
danĠ duĠ
suĠ songĠ
ĠĠ D
shiĠ xiangĠ
zaiĠ deĠ
qiĠ fuĠ
daĠ diĠ
siĠ huĠ
tiĠ zhiĠ
deĠyiĠ yuanĠ
ec tionĠĠĠ
jiangĠ taĠ
suoĠ zhiĠ
mouĠ shaĠ
b er
ĠĠĠ tianĠ
xinĠ yiĠ
tiĠ caiĠ
baĠ heĠ
shuiĠ mianĠ
juĠ heĠ
ciĠ quĠ
zuoĠ faĠ
Ġ1 4Ġ
om p
5 2Ġ
yanĠ lunĠ
xiaĠxiaĠ yiĠxiaĠ
ĠshiĠyiĠgeĠ weiĠyuĠ
xunĠyangĠ jianĠ
deĠ zhongĠyaoĠ
zongĠ huiĠ
Ġ1 8Ġ
caiĠ panĠ
ĠlianĠ heĠ
4 3Ġ
ĠĠ G
qiĠ youĠ
daĠ jieĠ
ĠĠĠ zhangĠ
qiĠ yuanĠ
fenĠ siĠ
fenĠ quĠ
banĠ buĠ
lieĠ chuĠ
Ġ199 7ĠnianĠ
xiangĠtongĠ deĠ
Ġ0 0
I n
Ġ hunĠ
heĠ suanĠ
erĠ weiĠ
zhuĠ liuĠ
chuĠ ruĠkouĠ
suĠ danĠ
chaĠ deĠ
7 9
chengĠ nuoĠ
jiaĠ gouĠ
jiaĠ liĠyaĠ
xiangĠ beiĠ
Ġ er
diĠ kangĠ
luoĠmaĠ niĠyaĠ
4 1Ġ
6 9
aĠ genĠtingĠ
keĠ xueĠjiaĠ
chongĠ zuĠ
waiĠjiaoĠ buĠ
Ġ zhuoĠ
Ġ tunĠ
shiĠ minĠ
renĠ quanĠ
riĠ changĠ
yinĠ deĠ
xieĠ dingĠ
1 1ĠnianĠ
qingĠ xuĠ
ĠbingĠ weiĠ
zhuanĠ yongĠ
ganĠ jueĠ
jiaoĠ geiĠ
cheĠ deĠ
deĠdiĠ sanĠ
p p
diĠ 1Ġ
xiangĠ youĠ
ĠshiĠ ziĠ
yanĠ xiĠ
qiangĠ zhiĠ
Ġ 9ĠyueĠ
yiĠ zhangĠ
jiaoĠ zongĠ
wenĠ shiĠ
zhongĠ jiĠ
juĠ luoĠ
suĠ liĠ
zeĠ zaiĠ
songĠ daoĠ
ĠĠĠ200 6ĠnianĠ
erĠ yiĠ
fenĠ xiaoĠ
1 7ĠnianĠ
Ġ zaĠzhiĠ
jinĠ quĠ
deĠ xianĠ
ĠĠĠ chuĠleĠ
suoĠ xuĠ
xuanĠ xiuĠ
gangĠ yuanĠ
chongĠ manĠ
miaoĠ huiĠ
3 2
aiĠ qingĠ
ĠĠĠ dongĠ
faĠ liĠyaĠ
mingĠ ciĠ
muĠ zhiĠ
deĠyuanĠ yinĠ
weiĠ jianĠ
taiĠ zhongĠ
ĠtaĠ youĠ
p h
huoĠ wuĠ
maĠ liĠyaĠ
ĠyuĠ 199
waĠ erĠ
Ġ zouĠ
houĠ fangĠ
duiĠ huaĠ
touĠ xianĠ
fangĠmianĠ deĠ
c Ġ
ĠĠĠ youĠxiĠ
lanĠ seĠ
queĠ shiĠ
zheĠjiangĠ shengĠ
Ġ11 ĠyueĠ
4 ĠĠĠ
ĠĠ L
naĠ shengĠ
eĠ guoĠ
ĠĠĠ 17
maoĠ dunĠ
renĠweiĠ shiĠ
deĠjiĠ huaĠ
aoĠ erĠ
huiĠ huaĠ
huoĠ yunĠ
taĠ niĠ
qiĠ renĠ
wenĠ yiĠ
shiĠyouĠ yuĠ
Ġ199 0ĠnianĠ
juĠ leĠ
pingĠ jieĠ
lianĠ tongĠ
Ġ199 4ĠnianĠ
el Ġ
s onĠ
Ġ ruanĠ
zuĠ fuĠ
huĠ poĠ
ĠxianĠ daiĠ
xiĠ jieĠ
shouĠ duanĠ
xiaĠ fangĠ
qingĠ daoĠ
ĠxiĠ tongĠ
qiaoĠ liangĠ
xiĠ lanĠ
shangĠ suĠ
yinĠ yuĠ
zongĠ jianĠ
Ġ199 2ĠnianĠ
deĠ luoĠ
renĠ zhengĠ
peiĠ zhiĠ
Ġ Q
Ġ X
zaiĠ daĠ
shengĠ muĠ
xinĠ jieĠ
qianĠ jinĠ
zuiĠ weiĠ
hanĠ ziĠ
canĠ guanĠ
duiĠ zhenĠ
baoĠ zhengĠ
yongĠ jiuĠ
i k
guoĠ daoĠ
xinĠ jianĠ
zhouĠ jiĠ
Ġ1 7Ġ
seĠ caiĠ
1 6ĠnianĠ
ĠĠĠ daoĠ
daĠ duiĠ
dongĠ xianĠ
rangĠ taĠ
zhunĠ queĠ
ĠjiangĠ suĠ
ĠzhaoĠ heĠ
shiĠ zheĠ
zhanĠ lieĠ
yingĠ zhanĠ
gaoĠ yuanĠ
suoĠyouĠ deĠ
erĠ laiĠ
leĠ yuanĠ
quanĠ shuĠ
huĠ deĠ
ĠbiĠ xuĠ
ĠmaĠlaiĠ xiĠyaĠ
ĠĠĠ s
geĠ ciĠ
jiaoĠ duĠ
yueĠ deĠ
ar d
reĠdaiĠ fengĠbaoĠ
liangĠ zhiĠ
pinĠ lvĠ
woĠ deĠ
ĠerĠgaiĠ diĠdeĠ
jinĠxingĠ deĠ
guoĠminĠ zhengĠfuĠ
zhuĠ dongĠ
huĠ dongĠ
ĠdeĠ yuĠ
ĠĠĠgaiĠ yaoĠ
zaiĠ xiĠ
douĠ beiĠ
ĠmingĠ zhiĠ
renĠ tongĠ
tingĠ deĠ
7 8
zhiĠ buĠ
waiĠ guanĠ
chengĠliĠ houĠ
diĠ chanĠ
danĠ xinĠ
tianĠ jiaĠ
ĠĠĠ qiĠhouĠ
xiaĠ youĠ
kaiĠ gongĠ
feiĠ faĠ
ĠzuiĠ jiaĠ
ĠboĠ chuĠ
canĠyuĠ leĠ
shiĠ zhengĠ
maĠ keĠsiĠ
dengĠ zhiĠ
chanĠshengĠ leĠ
daĠ gongĠ
jinĠ weiĠ
Ġ ì
ĠĠĠ luoĠ
deĠshiĠ wuĠ
O N
ch uoĠ
zhengĠ yueĠ
dianĠ chiĠ
shanĠdongĠ shengĠ
heĠ fuĠ
heĠ ziĠ
jianĠ daoĠ
xiaĠ zaiĠ
qiuĠ deĠ
zongĠ duiĠ
chouĠ beiĠ
haoĠ pingĠ
Ġ199 6ĠnianĠ
sh i
zhongĠ zhengĠ
renĠ jiaoĠ
xiangĠ qiĠ
mingĠ jinĠshiĠ
ĠshiĠ xiangĠgangĠ
wangĠ ziĠ
guoĠjiaĠ gongĠyuanĠ
Ġ touĠguoĠ
ĠyueĠ nanĠ
ĠtongĠ yangĠ
liaoĠ ningĠ
Ġ195 0ĠnianĠ
taiĠbeiĠ shiĠ
quĠ bieĠ
faĠshengĠ leĠ
th Ġ
e dĠ
heĠ jinĠ
liĠ anĠ
dingĠ qiĠ
baĠ erĠ
ĠzheĠ ciĠ
ĠliĠ renĠ
ĠqiĠzhongĠ nanĠxingĠ
luĠ shangĠ
duiĠ taĠ
ĠjiĠ tuanĠ
bianĠ huanĠ
Ġ zanĠ
chengĠ haoĠ
jiuĠ zaiĠ
ĠweiĠ erĠ
guiĠ zhouĠ
ganĠ yuĠ
Ġ paoĠ
sh aiĠ
ĠĠĠ yanĠ
5 8Ġ
buĠ bianĠ
wuĠ geĠ
yeĠ jianĠ
liangĠ daĠ
zhouĠ zhangĠ
ĠliĠ yongĠ
xiĠ quĠ
zhenĠ yaĠ
ĠĠĠranĠ erĠ
Ġ xueĠshengĠ
heĠ huaĠ
yueĠ yuĠ
ĠzhongĠgongĠ zhongĠyangĠ
6 2Ġ
shiĠ fangĠ
xingĠ cheĠ
banĠ ciĠ
Ġ fouĠ
xiangĠ jiaoĠ
dingĠ leĠ
ĠtaĠ renĠweiĠ
huĠ buĠ
ĠchengĠ gongĠ
ĠĠ F
ĠĠĠ p
shengĠ xiaĠ
xuĠ shuĠ
bingĠ tuanĠ
ĠbingĠ beiĠ
ĠzhiĠ zaiĠ
shiĠjieĠ muĠ
deĠ fanĠ
xuĠ shiĠ
zhuanĠ weiĠ
ti onĠ
Ġ199 3ĠnianĠ
Ġ w
Ġ zhuanĠjiĠ
huaĠ guiĠ
meiĠ meiĠ
caiĠ fangĠ
ĠS t
c aĠ
deĠ diĠyiĠ
gongĠ gaoĠ
xiangĠ daoĠ
jiangĠ beiĠ
h e
youĠ chengĠ
Ġ f
yiĠ xianĠ
mingĠ juĠrenĠ
Ġ1 3Ġ
ĠshouĠ daoĠ
Ġ198 5ĠnianĠ
ĠĠĠ lingĠwaiĠ
zhongĠ liĠ
wanĠchengĠ leĠ
zhuĠ guanĠ
bianĠ zhiĠ
sanĠ jiĠ
chongĠ fanĠ
diĠ renĠ
xingĠ haoĠ
xiangĠ lianĠ
yanĠ jingĠ
zhuanĠ yiĠ
a yĠ
xiĠ jinĠ
jingĠ touĠ
muĠ erĠ
xuĠ lieĠ
ĠzhiĠ yiĠ
nvĠ haiĠ
re s
jiĠsuanĠ jiĠ
5 3Ġ
xiangĠ yaoĠ
quĠ dongĠ
zaoĠ shouĠ
tanĠ suoĠ
heĠ youĠ
dangĠ yuĠ
zongĠ yiĠ
ĠyuĠ leĠ
ĠyuanĠ benĠ
Ġ juanĠ
ĠĠĠ diĠyiĠ
fenĠ jieĠ
duĠ jiaoĠ
nvĠ wangĠ
huoĠ liĠ
zhuangĠ bingĠduĠ
rengĠ zaiĠ
ĠquanĠ qiuĠ
ĠĠĠ nanĠ
gangĠ qinĠ
shaoĠ jiangĠ
6 7
diĠ jiĠ
buĠ jiaĠ
luĠ yinĠ
huaiĠ yiĠ
zhongĠguoĠdaĠluĠ deĠ
ofĠĠĠ theĠĠĠ
5 7
6 4
ĠĠ K
dongĠ yaĠ
tuĠ erĠ
6Ġ miĠ
zhunĠ jueĠsaiĠ
chengĠ shiĠdeĠ
zhanĠ weiĠyuĠ
ĠshiĠ shiĠ
xiaoĠ xiangĠ
qingĠ xiangĠ
zhenĠ zhengĠ
tiaoĠ kuanĠ
deĠxiaoĠ xingĠxingĠ
taiĠ shiĠ
bingĠ deĠ
ĠzhiĠ jinĠ
ĠerĠ buĠshiĠ
Ġ Ï
shenĠ ruĠ
ĠhuoĠ shiĠ
ĠĠĠ mingĠ
zhenĠ chaĠ
dingĠ liĠ
langĠ zhongĠ
zengĠjiaĠ leĠ
yangĠ xianĠ
suĠ weiĠaiĠ
200 0Ġ
kaoĠ shiĠ
youĠxiĠ deĠ
leiĠsiĠ deĠ
b o
daĠ poĠ
ganĠ suĠ
mengĠ deĠ
hangĠ banĠ
shiĠyongĠ leĠ
panĠ jueĠ
ar dĠĠĠ
Ġ6 ĠyueĠ
yuĠ meiĠguoĠ
diĠ cengĠ
chengĠ guoĠ
faĠ jueĠ
fuĠzeĠ renĠ
fenĠbieĠ weiĠ
yuĠ nanĠ
ĠchengĠ yuanĠ
ĠĠĠjinĠ guanĠ
Ġ 2019
Ġs ectionĠĠĠ
u mĠ
beiĠ luĠ
ĠchuĠ ciĠ
Ġ199 5ĠnianĠ
ĠĠĠ hongĠ
xingĠ zhuangĠ
taoĠ wanĠ
ĠhanĠ zuĠ
luoĠmaĠ diĠguoĠ
ĠmaiĠ keĠ
xianĠdeĠyiĠgeĠ feiĠjianĠzhiĠdiĠquĠ
Ġ cunĠ
shiĠ yingĠ
deĠ shuĠ
zhiĠ xiangĠ
gongĠ sheĠ
mingĠ luĠ
zheĠ yangĠdeĠ
ĠyinĠ faĠ
ĠshiĠyiĠ keĠ
ĠtongĠshiĠ yeĠ
ĠlianĠ jieĠ
bianĠ yiĠ
Ġ daĠxueĠ
zhengĠ duoĠ
jinĠ junĠ
yongĠ leĠ
neiĠ youĠ
chengĠ danĠ
ĠjiĠ xuĠ
ĠcengĠ jingĠ
eĠ deĠ
liĠ zaiĠ
shangĠ banĠ
ĠzaiĠ 199
dengĠ yuĠ
ganĠ xianĠ
duĠ huiĠ
nanĠ deĠ
nvĠ zhuĠjueĠ
ĠĠĠgenĠjuĠ 2020ĠnianĠmeiĠguoĠrenĠkouĠpuĠchaĠdeĠshuĠjuĠ
I P
liĠ xianĠ
jinĠ qiuĠ
Ġb ieĠ
o di
â Ĩ
diĠ mingĠ
nanĠ minĠ
dangĠ anĠ
ĠshiĠyiĠ buĠ
chaiĠ youĠjiĠ
qiĠ leĠ
dongĠ niĠ
chuanĠtongĠ deĠ
i f
shouĠ zhiĠ
ĠaiĠ erĠ
xuanĠjuĠ zhongĠ
yuĠ daoĠ
liĠ nianĠ
zhanĠzhengĠ qiĠjianĠ
ĠyinĠweiĠ taĠ
ĠĠĠ qiĠzhongĠ
siĠ zaiĠ
meiĠ tianĠ
ruĠ jingĠ
qingĠ shaoĠnianĠ
congĠ weiĠ
5 1Ġ
yuanĠ quĠ
wanĠ nianĠ
suanĠ faĠ
ĠluĠwaĠ erĠshengĠ
weiĠ fanĠ
ziĠ yiĠ
leĠ siĠtanĠ
bingĠ wuĠ
tuanĠ jieĠ
Ġ pinĠ
ĠĠĠ chenĠ
xiĠ yuĠ
lingĠ deĠ
danĠ yuanĠ
dongĠ ceĠ
tuĠ jiĠ
ĠjiuĠ shiĠ
ĠĠĠ jingĠjiĠ
ĠĠĠ pingĠjiaĠ
dangĠ daiĠ
chuanĠ qiĠ
Ġ194 5ĠnianĠ
l o
ĠĠĠ 1
danĠ yaoĠ
jueĠ yuĠ
chengĠ xiangĠ
juĠ daĠdeĠ
jiaoĠ jieĠ
yanĠ xuĠ
en d
yiĠ buĠfenĠ
jiĠ keĠ
diĠ jiuĠ
zhuĠ shouĠ
duĠ duĠ
Ġ5 ĠyueĠ
ĠguanĠ fangĠ
danĠ daĠ
zongĠ shuĠ
ĠĠĠ200 5ĠnianĠ
ĠĠĠ sanĠ
jiĠ liĠ
youĠ leĠ
tiĠ yanĠ
wenĠ heĠ
bingĠ zaiĠ
zhiĠzuoĠ renĠ
Ġhan tĠ
shangĠ fangĠ
baiĠ yuĠ
mengĠ teĠ
deĠjiĠ huiĠ
hangĠkongĠ gongĠsiĠ
ziĠxingĠ cheĠ
ĠlingĠyiĠ fangĠmianĠ
5 4Ġ
a w
fuĠ luĠ
shengĠ jingĠ
5 6
buĠ xingĠ
yuanĠ zhiĠ
19 ĠshiĠjiĠ
zuiĠ youĠ
benĠ xianĠ
dengĠ deĠ
duanĠ shiĠjianĠ
tanĠ ceĠ
Ġ mengĠguĠ
shengĠ shiĠ
sheĠ zaiĠ
2Ġ miĠ
ĠxianĠ weiĠ
ĠliuĠ yuĠ
youĠ zaiĠ
tongĠ yongĠ
zhanĠ zhongĠ
ĠbiĠ yeĠ
Ġ henĠ
xiĠ guanĠ
mianĠ shiĠ
8Ġ geĠ
shouĠdaoĠ leĠ
raoĠ taiĠyangĠ
e di
meiĠ riĠ
ĠerĠ houĠ
ĠaoĠ menĠ
oc k
keĠ huĠ
dongĠ cheĠ
youĠtaiĠ renĠ
zhiĠ 198
shengĠ yiĠ
duiĠ zaiĠ
gaoĠ zhiĠ
leiĠ xingĠdeĠ
tuanĠ zhangĠ
mieĠ jueĠ
zhiĠminĠ diĠ
ĠshiĠ jianĠyuĠ
shenĠ shangĠ
deĠyiĠ meiĠ
rengĠ youĠ
tianĠwenĠ taiĠ
4 4
v i
deĠ jianĠ
moĠ luoĠ
ĠzhiĠ chuĠ
canĠmouĠ zhangĠ
xinĠguanĠ feiĠyanĠ
eĠ weiĠ
buĠ diĠ
fuĠ lanĠ
ziĠ yuĠ
jiangĠ zhiĠ
gaiĠ mingĠ
pianĠ deĠ
taoĠ wangĠ
YouT ubeĠ
wuĠ weiĠ
haoĠ shiĠ
tongĠ xueĠ
L E
shouĠ yiĠ
changĠ shaĠ
deĠshiĠ jiĠ
yuĠ yuĠ
zaiĠ yiĠqiĠ
geĠ luĠ
zhanĠ diĠ
guĠ dongĠ
haoĠ youĠ
0 1Ġ
Ġ chanĠ
anĠ liĠ
yuanĠ jiĠ
changĠ beiĠ
ĠshiĠ eĠluoĠsiĠ
saiĠ cheĠ
ĠweiĠ laiĠ
3Ġ miĠ
zhuĠ jiĠ
shuĠ yiĠ
baĠ jiĠ
ĠqianĠ wangĠ
Ġ199 1ĠnianĠ
ĠtianĠ jinĠ
haiĠbaĠgaoĠduĠ weiĠ
Ġ nĠ
jianĠ leĠ
shuĠ heĠ
fangĠ chengĠ
neiĠ mengĠguĠ
caiĠ wuĠ
ĠheĠ lanĠ
fangĠ songĠ
yanĠ faĠ
ĠdanĠ qiĠ
daĠ yingĠ
beiĠ siĠ
shiĠ nianĠ
ĠĠĠ quanĠ
weiĠ weiĠ
buĠ quĠ
taĠ renĠ
huaĠ heĠwuĠ
qianĠ yinĠ
ĠjiĠ huĠ
ĠciĠ ciĠ
nongĠ changĠ
geĠ tiĠ
fuĠ jiaĠ
shuĠ niuĠ
guanĠ guangĠ
lingĠ daoĠdeĠ
lunĠ tanĠ
chenĠ jiĠ
ĠdaĠ yueĠ
ĠpuĠtaoĠ yaĠ
Ġ cuĠ
zhuĠ longĠ
juĠ juĠzhangĠ
leĠ gaiĠ
taiĠ biĠ
luoĠ yuĠ
xieĠ daiĠ
zuiĠ diĠ
ro s
ĠkangĠ xiĠ
hongĠzhaĠ jiĠ
Ġ 9Ġ
shouĠ faĠ
zhanĠ zhiĠ
luoĠ xuanĠ
saiĠ zhongĠ
huĠ lianĠwangĠ
paiĠ lieĠ
0 0ĠnianĠ
ch Ġ
ziĠ chengĠ
leĠ zheĠ
fangĠ bianĠ
boĠ geĠ
meiĠguoĠ renĠ
2 5ĠnianĠ
3 9Ġ
xingĠ xiĠ
keĠ jianĠ
liuĠ liangĠ
huĠ xiĠ
ĠĠĠ diĠerĠ
diĠ 2Ġ
zhanĠ weiĠ
haiĠ eĠ
teĠ jiĠ
nuoĠ manĠ
Ġ18 5
xiaoĠ yuĠ
aoĠsiĠ kaĠ
gongĠheĠ dangĠ
jiangĠsuĠ shengĠ
8 8
shuĠ deĠzhiĠwuĠ
qianĠ zeĠ
zhuanĠ deĠxiaoĠxingĠxingĠ
zhiĠ zhuĠ
zhiĠ pianĠ
buĠ juĠ
shouĠ geĠquĠ
bianĠ maĠ
juĠminĠ dianĠ
A O
a z
deĠ laĠ
yiĠ xiĠlieĠ
huoĠ paoĠ
tiĠ shiĠ
zuĠqiuĠ lianĠsaiĠ
renĠ keĠ
heĠ qiĠ
heĠ jieĠ
dongĠnanĠ yaĠ
6 1Ġ
Ġ k
weiĠ tuoĠ
zaiĠ beiĠjingĠ
luĠ yiĠ
luĠyingĠ daiĠ
W Ġ
ĠĠĠ jingĠ
wuĠ zhongĠdeĠ
shouĠ sunĠ
changĠ shangĠ
deĠdaoĠ leĠ
zaiĠ taĠ
jinĠ zhangĠ
shangĠ weiĠyouĠ
yeĠ buĠ
yinĠ jingĠ
huanĠ jieĠ
ĠjiangĠ qiĠ
tuĠ anĠ
ĠquanĠ zhangĠ
bianĠhaoĠ weiĠ
jiaoĠ fuĠ
dunĠ deĠ
ĠwuĠ faĠ
ĠgeĠ quĠ
yeĠ fuĠ
duoĠ xiangĠ
daoĠ fuĠ
or t
kangĠ xiĠ
reĠdaiĠ qiĠxuanĠ
zhiĠ jiaoĠ
gongĠ shangĠ
jinĠ chengĠ
guĠ wuĠ
moĠ qiĠ
ĠS Ġ
pingĠjunĠ haiĠbaĠgaoĠduĠweiĠ
renĠgongĠ yinĠ
ĠqiĠxiĠ zaiĠ
Ġ leĠ
gongĠ daĠ
jiaoĠ zuoĠ
duiĠ yuanĠ
haĠ laĠ
zhongĠzaiĠ peiĠ
xingĠ zouĠ
daoĠ qianĠ
gaoĠ diĠ
7Ġ geĠ
ĠtaĠmenĠ zaiĠ
kenĠ dingĠ
shuoĠshiĠ xueĠweiĠ
buĠ leiĠ
xiĠ yuanĠ
jieĠ guanĠ
ziĠ liĠ
danĠ yiĠ
yunĠ heĠ
baiĠ wanĠ
8Ġ miĠ
chengĠliĠ leĠ
shunĠ xuĠ
Ġ198 8ĠnianĠ
ĠhuaĠ xueĠ
ĠerĠgaiĠdiĠdeĠ pingĠjunĠhaiĠbaĠgaoĠduĠweiĠ
z enĠ
ĠĠĠ m
ĠĠĠ 12
hunĠ luanĠ
ĠdongĠ jingĠ
ĠĠĠ 1Ġ
jiĠ beiĠ
buĠ qiangĠ
ĠdiĠ siĠ
2010ĠnianĠ meiĠguoĠrenĠkouĠpuĠchaĠdeĠshuĠjuĠ
Ġ qiuĠduiĠ
ĠĠĠ yingĠ
shengĠ cunĠ
dianĠ liuĠ
quanĠ tiĠ
yaoĠ gunĠ
7 2Ġ
deĠ liĠshiĠ
ĠĠĠ laĠ
tuiĠ chuĠdeĠ
kaĠluoĠ laiĠ
luoĠfaĠ keĠ
renĠgongĠyinĠ zhongĠzaiĠpeiĠ
shiĠ zongĠ
duĠ guoĠ
xiaĠ banĠ
nv ĠyanĠyuanĠ
ĠĠĠ feiĠ
duoĠ mingĠ
gengĠ duoĠdeĠ
Ġ lieĠcheĠ
xiaĠ shuĠ
chuanĠ deĠ
gengĠ huanĠ
Ġ neiĠrongĠ
yiĠ zuĠ
weiĠ zaiĠ
yuĠ suanĠ
fuĠ qiĠ
bingĠ yuĠ
xiĠ zhouĠ
jianĠ zaiĠ
xianĠ qianĠ
yeĠ suĠ
yinĠ shuaĠ
dangĠ riĠ
ĠheĠ nanĠ
yanĠjiuĠ shengĠ
ĠchuĠ renĠ
Ġ198 9ĠnianĠ
liĠ shaĠ
ĠwuĠ lunĠ
xiaĠ shiĠ
poĠ lunĠ
4 0ĠnianĠ
zhiĠ bangĠ
jiaoĠ tuĠ
pianĠ duanĠ
ĠgongĠ tongĠ
Ġ000Ġ renĠ
xiaĠxiaĠyiĠxiaĠ diĠquĠ
shouĠ huiĠ
dianĠ heĠ
ĠyiĠ zhongĠ
shenĠ wangĠ
cengĠ deĠ
sheĠjiĠ shiĠ
ciĠ ciĠ
yinĠ jinĠ
jingĠjiĠ xueĠ
I T
xinĠ shiĠ
liangĠ haoĠ
baĠ siĠ
kaoĠ chaĠ
5 6Ġ
wenĠ daiĠ
suiĠ zhiĠ
ĠjiĠ benĠ
00Ġ mingĠ
9 8
erĠ buĠ
beiĠ geĠ
jinĠ tianĠ
xueĠ tangĠ
fenĠ qiĠ
sanĠ weiĠ
oo k
siĠ yuanĠ
jieĠ ruĠ
shouĠ haiĠ
dongĠ gongĠ
zhouĠ zhiĠ
baĠ yueĠ
ĠdangĠ shiĠdeĠ
Ġ198 3ĠnianĠ
huoĠ cheĠzhanĠ
muĠ fuĠ
sanĠ renĠ
naĠ heĠ
wuĠ pinĠ
tiĠ jiaoĠ
liuĠ qiuĠ
cheĠ diĠ
zhaoĠ guĠ
langĠ deĠ
ĠshengĠ zhangĠyuĠ
diĠyiĠciĠ shiĠjieĠdaĠzhanĠ
t or
beiĠ yiĠ
duoĠ renĠ
genĠ benĠ
shiĠjianĠ yuĠ
ĠboĠ lanĠ
deĠdaoĠ luĠ
Ġãĥ ¼
e am
ĠĠĠ 2
teĠ lanĠ
boĠ duoĠ
kaĠ feiĠ
ĠzhongĠguoĠ daĠluĠ
ĠaĠ laĠ
3 ĠnianĠ1ĠyueĠ
â Ī
dianĠ weiĠ
mianĠ shangĠ
hanĠ gaiĠ
diaoĠ suĠ
l y
zaiĠ xinĠ
huiĠ xiangĠ
jinĠ daiĠ
puĠ liĠ
nanĠjiĠ zhouĠdeĠ
xiĠ boĠ
waiĠ weiĠ
ĠB Ġ
ĠweiĠyuĠgaiĠ shengĠ
i ng
jinĠ shengĠ
jiaoĠ xiangĠ
wangĠ shangĠ
naĠ geĠ
ĠxiĠ laĠ
fuĠluoĠ liĠdaĠ
jiĠ fenĠ
heĠ nanĠshengĠ
ĠdaĠ duoĠshuĠ
laiĠziĠ yuĠ
aiĠ deĠhuaĠ
jiĠ tiĠ
gaiĠ jinĠ
ĠfanĠ duiĠ
Ġ198 4ĠnianĠ
ĠĠ N
zaiĠ haiĠ
huiĠ daĠ
ĠshiĠ taiĠwanĠ
pingĠ weiĠ
meiĠguoĠ deĠ
7Ġ miĠ
Ġ4 ĠyueĠ
chuangĠzuoĠ deĠ
jinĠ huaĠ
ĠkeĠ luoĠ
chuĠxianĠ deĠ
neiĠ zhengĠ
linĠ shengĠ
ĠgaiĠ bianĠ
a st
chuĠ nianĠ
jingĠ waiĠ
piĠ panĠ
Ġ hangĠ
heĠ changĠ
gongĠ yueĠ
jianĠ guoĠ
jiangĠ nanĠ
xuanĠ minĠ
ĠqiĠ shiĠ
ĠbuĠ tongĠ
zhanĠzhengĠ zhongĠ
6 6
yuĠ youĠ
heĠ daĠ
gongĠ zhiĠ
jiaĠ banĠ
houĠ daiĠ
longĠ shengĠ
ĠĠĠ gaoĠ
ĠshiĠ xiĠbanĠyaĠ
biĠ erĠ
ĠaoĠ daĠliĠyaĠ
keĠsiĠ tanĠ
zhanĠdouĠ jiĠ
taĠ jiĠ
liangĠ anĠ
zhouĠ liĠ
Ġ kuangĠ
gongĠ dianĠ
xiangĠ weiĠ
huoĠ quĠ
duiĠ chenĠ
qianĠ longĠ
luoĠ boĠteĠ
baiĠ keĠ
tuiĠ fanĠ
ĠjiaĠ jingĠ
Ġ enĠ
yiĠ qieĠ
beiĠ weiĠ
yinĠ yingĠ
ĠyouĠ ciĠ
qiĠzhongĠ yiĠgeĠ
zhuĠlongĠ caoĠ
sanĠ daĠ
ĠjianĠ liĠ
ĠfaĠ biaoĠ
ĠbiaoĠ zhunĠ
jiaoĠ gaoĠ
ĠtaĠ heĠ
cengĠ shiĠ
ĠcongĠ ciĠ
yuĠ201 0ĠnianĠ
8 ĠnianĠ1ĠyueĠ
n e
chengĠ shuĠ
qianĠ laiĠ
laiĠ siĠ
jiuĠ yiĠ
baiĠ nianĠ
ĠfuĠ langĠ
ĠhuĠ nanĠ
6 ĠnianĠ1ĠyueĠ
7 7
â Ħ
ĠĠĠ tangĠ
tiĠ qianĠ
yueĠ qiĠ
dangĠ jiĠ
baĠ faĠliĠyaĠ
manĠ deĠ
in c
shiĠyanĠ shiĠ
âĨ Ĵ
1 ĠnianĠ1ĠyueĠ
tongĠ baoĠ
xiuĠ dingĠ
tuoĠ luoĠ
deĠjiĠ shuĠ
ĠshiĠyiĠ daĠliĠ
Ġ198 0ĠnianĠ
yiĠ shangĠdeĠ
youĠ zhiĠ
zheĠ xiangĠ
shenĠ miĠ
ĠzaiĠ taĠ
3Ġ mingĠ
miĠdeĠ diĠquĠ
jiaĠliĠfuĠ niĠyaĠzhouĠ
erĠ feiĠ
jiuĠ youĠ
faĠxianĠ deĠ
ĠshengĠzhangĠyuĠ haiĠbaĠ
o li
shouĠ lingĠ
pinĠ zhongĠ
bangĠ deĠ
2 1ĠnianĠ
xingĠ shiĠdeĠ
jingĠ yuanĠ
shangĠ jieĠ
zhanĠ shengĠ
pingĠ dingĠ
chiĠ cunĠ
heiĠ longĠjiangĠ
Ġ tiaoĠ
jiĠ xiangĠ
siĠ diĠ
zhenĠ duanĠ
moĠ siĠ
manĠ diĠguoĠ
muĠniĠ heiĠ
i th
erĠ dengĠ
keĠ kaoĠ
quĠdeĠ leĠ
ĠyuĠciĠ tongĠshiĠ
shiĠ yueĠ
ĠshiĠ tuĠ
boĠ laĠ
wuĠ keĠ
junĠ yuĠ
hanĠ linĠ
ĠjieĠ shouĠ
ĠsuoĠ xieĠ
aiĠ guoĠ
heĠ geĠ
beiĠ daĠ
gaiĠ zhuangĠ
zuĠ lianĠ
luoĠ zaiĠ
duoĠ fuĠ
baĠ deĠ
lanĠ kaĠ
kongĠ longĠ
ĠĠĠ zongĠ
heĠ feiĠ
guanĠ shiĠ
benĠ zhanĠ
baĠ taĠ
qieĠ erĠ
kanĠ faĠ
xingĠzhengĠ zhenĠquĠ
Ġ202 5ĠnianĠ
k mĠ
gongĠ zhanĠ
jingĠ quĠ
guangĠ puĠ
fuĠjianĠ shengĠ
2 ĠyueĠ1ĠriĠ
chengĠ yiĠ
chengĠ zhiĠ
xiĠ xiĠ
beiĠ mianĠ
duĠ teĠ
wangĠ weiĠ
ĠjiĠ houĠ
00 ĠduoĠ
beiĠ gaoĠ
zhanĠ fangĠ
baoĠ fuĠ
quanĠ jiĠ
xuanĠ zhuanĠ
ĠgaiĠ weiĠ
liĠshiĠ xueĠjiaĠ
ĠbanĠ benĠ
ĠĠĠ puĠ
ĠĠĠ 16
heĠ dongĠ
jiaoĠ daoĠ
kaiĠ banĠ
zuiĠ jinĠ
sanĠ zhongĠ
naĠ erĠ
ĠzhiĠ yaoĠ
huangĠ shiĠ
rongĠ liangĠ
ĠĠĠ luĠ
ĠĠĠ baiĠ
shengĠ xiaoĠ
ziĠ gongĠsiĠ
jiangĠ youĠ
shenĠ yiĠ
miĠ lanĠ
ĠguangĠ xuĠ
yiĠshuĠ jiaĠ
heĠ xianĠ
heĠ renĠkouĠ
chengĠ qiangĠ
shengĠ geĠweiĠ
jieĠ duĠshiĠ
riĠ houĠ
tiĠ weiĠ
sanĠ yueĠ
tanĠ dingĠ
xiĠ ceĠ
huiĠ jiĠ
zhengĠ wuĠ
guanĠ lianĠ
jiangĠ zheĠ
âĢ §
ĠzhengĠ geĠ
Ġ198 6ĠnianĠ
tiĠyuĠ guanĠ
s tĠĠĠ
liĠ erĠ
xiĠ junĠ
riĠ yiĠ
fangĠ zhenĠ
shiĠyongĠ zheĠ
ĠjuĠ qingĠ
ĠdiĠerĠ ciĠ
5 ĠnianĠ1ĠyueĠ
xianĠ leĠ
xiaoĠ sheĠ
haĠ liĠ
ĠA l
ĠĠĠ w
ĠĠĠ jiuĠ
fuĠ langĠ
beiĠ shangĠ
yinĠ mouĠ
ĠweiĠ ciĠ
fengĠ deĠ
siĠchuanĠ shengĠ
b i
zaiĠ yingĠguoĠ
geĠ xiangĠ
quĠ muĠ
juĠ zhenĠ
gaoĠ cengĠ
sanĠ ciĠ
ĠdanĠ yeĠ
ĠbiĠ yeĠyuĠ
ĠyaĠ liĠ
xianĠdeĠyiĠgeĠ xingĠzhengĠzhenĠquĠ
ĠĠĠ andĠĠĠ
. &
ĠĠĠ yeĠ
ĠĠĠ zhiĠzuoĠ
jiĠ bieĠ
zaiĠ neiĠ
xingĠ chengĠdeĠ
yinĠ diĠ
zhenĠ rongĠ
sanĠ mingĠ
ĠyingĠ deĠ
weiĠyuanĠhuiĠ zhuĠxiĠ
fouĠ renĠ
8 9
chuĠ saiĠ
jiaoĠ keĠ
changĠ changĠ
duiĠ youĠ
ruĠ qiuĠ
yanĠjiuĠ zhongĠxinĠ
diĠqiĠ yaĠ
a yĠĠĠ
zaiĠ zheĠ
huaĠ fenĠ
zuĠ renĠ
an t
Ġ re
aĠ jiĠ
fuĠ fuĠ
fuĠ zhuĠrenĠ
huaĠ jiĠ
zhanĠ youĠ
wangĠ yuanĠjingĠ
lieĠ siĠ
ĠjianĠ yuĠ
9Ġ miĠ
jiaoĠyuĠ buĠ
zanĠ shiĠ
dangĠxuanĠ weiĠ
daoĠ jiĠ
banĠ jiĠ
waiĠ jieĠ
cengĠ renĠ
hangĠ xingĠ
shiĠyiĠ weiĠ
ĠleiĠ jiĠ
Ġ kuaiĠ
Ġ luoĠsiĠ
xiangĠ liangĠ
feiĠ danĠ
deĠyiĠ ciĠ
gongĠzuoĠ renĠyuanĠ
st r
Ġ pangĠ
qiĠ guanĠ
beiĠ renĠmingĠweiĠ
luoĠ teĠ
shiĠjianĠ weiĠ
ĠĠĠ200 4ĠnianĠ
Ġ chongĠxinĠ
zhangĠ woĠ
benĠ keĠ
ĠyouĠ renĠ
zeĠ erĠshengĠ
mengĠ junĠ
zhuĠchiĠ renĠ
ĠshiĠ jiĠdeĠ
wenĠ geĠ
tingĠ yunĠ
ĠkeĠ liĠsiĠ
kuĠ erĠ
dianĠshiĠ dongĠhuaĠ
A l
ĠĠĠ moĠ
yuĠ ĠĠ
beiĠ ceĠ
zhanĠ juĠ
qianĠ xianĠ
bianĠ zuĠ
huanĠ xiangĠ
saĠ laĠ
renĠdaĠ daiĠbiaoĠ
eĠ waiĠ
deĠ junĠ
ĠĠĠ zuoĠweiĠ
buĠ yaoĠ
wenĠ benĠ
chuanĠ xianĠ
hangĠ xianĠ
yuĠ jiaĠ
zhuĠ fangĠ
tongĠ buĠ
jiangĠ paiĠ
sheĠ ruĠ
shenĠ keĠ
ĠzuiĠ daĠ
ĠchuĠ banĠ
ĠtaiĠ beiĠ
ĠmuĠqianĠ shangĠweiĠyouĠ
H D
yiĠ gongĠ
zhongĠ jieĠ
meiĠ shiĠ
liangĠ tiaoĠ
boĠ yinĠ
cheĠ daoĠ
zhuanĠ quĠ
deĠdiĠ yiĠgeĠ
2 2ĠnianĠ
eĠ haiĠeĠ
zaiĠ shengĠ
wuĠ liĠxueĠ
duĠ jiaĠ
liangĠ zheĠ
daiĠ tiĠ
biĠ luĠ
maĠ shiĠ
zongĠ jingĠliĠ
ĠzhongĠguoĠ gongĠchanĠdangĠ
Ġ195 8ĠnianĠ
ĠĠĠ saiĠ
ĠĠĠ duiĠyuĠ
yuĠ jingĠ
zaiĠ keĠ
jieĠ weiĠzhiĠ
yanĠ wuĠ
tingĠ zhangĠ
ĠĠĠweiĠ leĠ
D V
I IĠ
zaiĠ xiangĠ
zaiĠ taiĠwanĠ
suĠ zhouĠ
ĠmuĠqianĠshangĠweiĠyouĠ renĠgongĠyinĠzhongĠzaiĠpeiĠ
jieĠ lunĠ
quĠ ziĠ
ji ongĠ
dangĠ zuoĠ
shanĠ diĠ
Ġ3 ĠyueĠ
oo g
Ġ r
aĠ liĠ
ĠĠĠ linĠ
yuĠ liĠ
fuĠ chuĠ
ziĠ danĠ
shouĠ huanĠyingĠ
hanĠ moĠdeĠ
geiĠ taĠ
Ġ198 2ĠnianĠ
ĠJ R
zhuĠ daĠ
changĠ yiĠ
yueĠ duĠ
xuĠ gouĠ
mianĠ xiangĠ
ĠweiĠ qiĠ
fengĠ suoĠ
shuiĠ shenĠ
ĠtongĠ riĠ
keĠyiĠ tongĠguoĠ
yuĠ201 6ĠnianĠ
Window sĠĠĠ
M A
heĠ seĠ
shuĠ shuĠ
cunĠ minĠ
ĠheĠ beiĠ
ĠzhongĠguoĠ renĠminĠjieĠfangĠjunĠ
deĠ dianĠ
ĠĠĠ jianĠzhuĠ
zhongĠ duiĠ
jiaoĠ shaoĠ
saiĠ baiĠ
bingĠ chuanĠ
anĠ xianĠ
ĠĠĠ lingĠ
heĠ shangĠ
biaoĠ jiĠ
deĠyiĠ xiangĠ
huiĠyiĠ shangĠ
00 0
6 7Ġ
Ġ chouĠ
yuĠ linĠ
xiĠ faĠ
keĠ teĠ
2 8ĠnianĠ
shanĠ dingĠ
tianĠ xiaĠ
shuiĠ liangĠ
ĠhaĠ erĠ
juĠ liuĠ
feiĠ deĠ
lunĠ siĠ
4Ġ miĠ
laoĠ gongĠ
zhiĠhuiĠ guanĠ
3 5ĠnianĠ
4 ĠnianĠ1ĠyueĠ
shiĠ neiĠ
guoĠ wuĠ
shangĠ jiangĠ
muĠ yuĠ
ĠdeĠ daoĠ
ĠgaiĠ diĠdeĠ
manĠ zhouĠ
yingĠxiangĠ liĠ
ĠyaĠ zhouĠ
neĠ shengĠ
saĠsiĠ zhouĠ
o k
shengĠ youĠ
jiaoĠ zhiĠ
muĠ jianĠ
ĠzaiĠ meiĠguoĠ
faĠshengĠ deĠ
weiĠyiĠ deĠ
odi ceĠ
ĠĠĠ huangĠ
siĠ tuoĠ
jingĠ lingĠ
junĠ jiĠ
fengĠ shiĠ
zaoĠ qiĠdeĠ
mengĠ jiaĠlaĠ
in eĠ
liĠfangĠ miĠ
ĠĠĠgeĠrenĠ shengĠhuoĠ
heĠ luĠ
zaiĠ19 5
diĠshiĠ niĠ
Ġà ¸
âĦ ĥ
renĠ douĠ
nengĠ zaiĠ
deĠyiĠ jianĠ
ĠtongĠ yiĠ
ĠzhuĠ chiĠ
ĠdianĠ ziĠ
ĠtiĠ chuĠ
leiĠsiĠ yuĠ
yuĠ shangĠ
liĠ xinĠ
renĠ caiĠ
ciĠ shanĠ
qianĠ shenĠ
suoĠ shiĠ
maoĠ zeĠdongĠ
ĠziĠ ranĠ
lay St
er sĠ
geĠ changĠ
riĠ jiĠ
taiĠ erĠ
beiĠbuĠ deĠ
Ġ198 7ĠnianĠ
fenĠ jiĠ
jiangĠ zuiĠjiaĠ
laiĠ shiĠ
zuiĠ duoĠdeĠ
tanĠ heĠ
weiĠ taĠ
wuĠ erĠ
zhengĠ faĠ
luoĠ shiĠ
ĠshiĠyiĠ zuoĠ
zhengĠxieĠ weiĠyuanĠ
S p
zhongĠ yuanĠ
yingĠ erĠ
wangĠ fanĠ
jiuĠ yueĠ
baiĠ deĠ
ĠzheĠ yeĠshiĠ
2 ĠnianĠ1ĠyueĠ
shiĠ zhongĠguoĠ
zaiĠ xianĠ
daĠ siĠ
jieĠ liĠ
teĠ luoĠ
fengĠ suĠ
4Ġ mingĠ
ĠxinĠ jiaĠpoĠ
ĠyunĠ nanĠ
zhuĠ diĠ
fenĠ xiangĠ
minĠ dangĠ
guiĠ leiĠ
ĠjiĠ shuĠ
touĠ shouĠ
riĠbenĠ deĠ
2 4ĠnianĠ
4 3
J Ġ
Ġ huiĠyiĠ
yuĠ qianĠ
zhongĠ xunĠ
zhanĠ quĠ
jiuĠ beiĠ
pingĠ guoĠ
gaoĠ shiĠ
naĠ siĠ
zhuanĠ bianĠ
kongĠ guĠ
tiaoĠ wenĠ
gongĠgongĠ jiaoĠtongĠ
t erĠ
Ġ kenĠ
ĠtaĠ jiangĠ
panĠ duanĠ
deĠjiĠ benĠ
5 ĠĠĠ
i dĠĠĠ
u d
Ġ faĠzhanĠ
Ġ guanĠliĠ
deĠ faĠzhanĠ
geĠ shengĠ
ĠshiĠ zaiĠ
mianĠ qianĠ
zongĠ zhiĠ
quĠshiĠ houĠ
enĠ ĠĠ
youĠ haoĠ
suoĠ yiĠ
xuĠ niĠ
8 7
jiĠ xingĠzhengĠ
weiĠ xiuĠ
jiaĠ siĠ
chuĠ jingĠ
leĠ jiĠ
huaĠ heĠ
haiĠ zaiĠ
qingĠ xiĠ
chuanĠ guoĠ
woĠ erĠ
mianĠjiĠ heĠrenĠkouĠ
ĠyingĠ xiangĠ
ĠqiĠzhongĠ nanĠ
D S
T A
shiĠ jinĠ
ĠĠĠ boĠ
yuĠ daĠ
zhongĠ shenĠ
leĠ qiĠ
yinĠ ziĠ
huĠ nanĠshengĠ
suĠ sheĠ
shaĠ tianĠ
ĠyingĠ liĠ
ĠdaoĠ yanĠ
am p
haĠerĠ binĠ
Ġ kaiĠfaĠ
shiĠ jingĠ
xiangĠ cunĠ
zhengĠ weiĠ
leĠ siĠ
shenĠ yangĠ
ĠgaiĠ zhuangĠ
ĠjingĠ fangĠ
4 ĠyueĠ1ĠriĠ
e li
v eĠĠĠ
ĠĠĠ guĠshiĠ
fuĠ teĠ
shouĠ mingĠ
ciĠ huiĠ
taiĠ langĠ
ĠshiĠyiĠgeĠweiĠyuĠ meiĠguoĠ
6 8Ġ
ciĠ weiĠ
ĠshiĠ wuĠ
qiuĠ miĠ
sanĠ jiaĠ
ĠdiĠ yiĠciĠ
Ġ194 6ĠnianĠ
heĠliuĠ yuĠ
Ġ junĠshiĠ
Ġ kuiĠ
ĠĠĠ jianĠliĠ
yuĠ xianĠ
beiĠ hanĠ
jinĠ kouĠ
tiĠ caoĠ
ruĠ weiĠ
ĠbaoĠ daoĠ
dianĠyingĠ jieĠ
chengĠ zhiĠweiĠ
yuanĠ xiaoĠ
yinĠ erĠ
suoĠ xieĠ
zongĠ juĠ
moĠ faĠ
ĠgongĠ zuoĠ
ĠgaiĠdiĠdeĠ mianĠjiĠheĠrenĠkouĠ
ĠgaiĠdiĠdeĠmianĠjiĠheĠrenĠkouĠ jieĠweiĠzhiĠ
6 6Ġ
o ol
youĠ xuĠduoĠ
shuĠ xieĠ
huaĠ mianĠ
dingĠ yuĠ
danĠ shengĠ
Ġ19 20ĠnianĠ
poĠ erĠ
ĠĠĠ shangĠ
ĠĠĠ faĠguoĠ
ĠĠĠ theĠĠĠ
heĠ zhiĠ
siĠ yueĠ
fenĠ shuĠ
yinĠ daoĠ
zhangĠ weiĠ
shenĠ fuĠ
keĠnengĠ xingĠ
tongĠzhiĠ zheĠ
la s
ĠĠĠ 2019
zhongĠ liangĠ
dongĠ quĠ
xinĠ fengĠ
dengĠ daiĠ
liĠshiĠ huiĠ
ĠyeĠ keĠyiĠ
diĠyiĠ baiĠ
anĠ chaĠ
ĠĠĠ wenĠhuaĠ
huaĠ ruĠ
fenĠ chengĠ
haiĠ diĠ
qingĠ ganĠ
liuĠ xueĠ
liuĠ dongĠ
ĠyuĠ jiĠ
5Ġ wanĠ
gongĠliĠ deĠ
weiĠyuĠ zhongĠguoĠ
Ġ Ø
xiĠ zhiĠ
chuangĠ shiĠrenĠ
on t
yingĠdeĠ leĠ
qiĠ yaĠ
lianĠ junĠ
benĠ shuĠ
4 ĠnianĠ12ĠyueĠ
yiĠ jieĠ
qianĠ zaiĠ
juanĠ zengĠ
moĠ fangĠ
ĠgaiĠ pianĠ
10 00Ġ
ĠmaĠ liĠ
shiĠ qingĠ
ĠĠĠ riĠ
ĠĠĠ 2Ġ
daĠ tongĠ
geĠ laĠsiĠ
beiĠ songĠ
zuoĠ leĠ
yongĠ shiĠ
jiuĠ renĠ
laĠ duoĠ
liuĠ deĠ
ĠyouĠ guanĠ
ĠyingĠ cunĠ
kuangĠ jiaĠ
ĠbenĠ pianĠ
shunĠ shiĠzhenĠ
ro un
Ġ15 7
yiĠ duiĠ
ĠĠĠ chengĠ
siĠ jiaĠ
ĠyiĠ riĠ
nuoĠ siĠ
Ġ197 8ĠnianĠ
P S
Ġ kunĠ
yiĠ fenĠ
youĠ zheĠ
beiĠ faĠxianĠ
gaiĠ jianĠ
nanĠ ceĠ
ĠdanĠ rengĠ
heiĠ renĠ
1 ĠzhiĠ
5 4
Ġ tengĠ
qiĠ suĠ
taiĠ shouĠ
touĠ deĠ
ranĠ shaoĠ
ĠrenĠ leiĠ
yunĠdongĠ deĠ
zhuĠyaoĠ shiĠ
yeĠ heĠ
ĠyiĠ seĠlieĠ
ĠgongĠ chengĠ
jianĠzhuĠ shiĠ
8 8Ġ
luĠ jingĠ
duĠ ziĠ
dingĠ jiĠ
zongĠ zhanĠ
chongĠ fuĠ
ĠĠĠcheĠzhanĠ jieĠgouĠ
ĠfouĠ zeĠ
a ni
ĠshiĠ diĠ
tiĠ qinĠ
linĠ siĠ
qiangĠ jiĠ
or l
5 7Ġ
shiĠ buĠ
yuĠ taĠ
guoĠ youĠ
daĠ zhouĠ
yuanĠ shuaiĠ
jingĠ feiĠ
Ġ18 4
zhuiĠ qiuĠ
si c
guoĠ qiĠ
xiĠ niĠ
luĠ muĠ
wanĠ qiĠ
bianĠ xieĠ
chaĠ erĠsiĠ
qiangĠ huaĠ
kaiĠfaĠ deĠ
liuĠ geĠ
daĠxueĠ jiaoĠshouĠ
4 ĠnianĠ10ĠyueĠ
o sĠ
zaiĠ jiaĠ
fuĠ zhuangĠ
jinĠ huiĠ
zheĠ heĠ
jiangĠ liĠ
ĠziĠ ciĠ
cunĠzaiĠ deĠ
¡ Ġ
ĠĠĠ muĠ
taĠ heĠ
bianĠ gengĠ
hangĠ zhanĠ
ĠgongĠ buĠ
ĠĠĠ200 3ĠnianĠ
0ĠnianĠdaiĠ chuĠ
ĠĠĠ tongĠ
ĠĠĠ shenĠ
jieĠ duĠ
mingĠ xianĠdeĠ
xueĠ tongĠ
lieĠ shiĠ
tuiĠ xingĠ
jiĠ jianĠ
chengĠ cheĠ
jiaoĠ diĠ
Ġ1 00Ġ
chenĠ moĠ
souĠ suoĠ
daĠliangĠ deĠ
Ġ20 0Ġ
wuĠxianĠ dianĠ
3 7ĠnianĠ
U S
erĠ geĠ
zhengĠ qiĠ
ruĠ yuĠ
banĠ quanĠ
chuanĠ yueĠ
ĠyangĠ huaĠ
O M
shangĠ jiaĠ
zuoĠ wuĠ
tiĠ anĠ
baĠ leĠsiĠtanĠ
ĠfeiĠ liĠ
ĠbangĠ zhuĠ
Ġ lv
Ġ henĠduoĠ
shiĠ gongĠ
chuanĠ diĠ
zhuanĠ zhiĠ
7 8Ġ
Ġ zaĠ
ĠĠĠ canĠkaoĠ
youĠ wuĠ
fenĠ geĠ
lunĠ duoĠ
ganĠ qingĠ
om Ġ
keĠliĠ miĠyaĠ
l an
zhuĠ saiĠ
huĠ weiĠ
deĠguoĠ chengĠ
wenĠtiĠ deĠ
ĠanĠ huiĠ
ĠĠĠ 11
ĠĠĠ yanĠgeĠ
liĠ xingĠ
buĠ youĠ
laĠ maĠ
neiĠ yaĠ
meiĠyouĠ renĠheĠ
ĠkaĠ erĠ
ĠĠĠ leiĠ
jiaĠ weiĠ
xinĠ quĠ
yingĠ chaoĠ
naĠ yangĠ
ĠshiĠweiĠyuĠ wuĠkeĠlanĠ
S h
n eĠĠĠ
Ġ seĠ
ĠĠĠ biĠ
chuĠ jueĠ
guoĠjiaĠ anĠquanĠ
wenĠhuaĠ yiĠchanĠ
ĠzhanĠ diĠ
gongĠchanĠ zhuĠyiĠ
2 3ĠnianĠ
geĠ ĠĠ
zuoĠ tangĠ
tingĠ zhanĠ
xunĠ luoĠ
199 9ĠnianĠ
ĠĠĠgenĠjuĠ 2010ĠnianĠmeiĠguoĠrenĠkouĠpuĠchaĠdeĠshuĠjuĠ
2 ĠshiĠ
erĠ jiaĠ
xiĠ xianĠ
zhuĠ chengĠ
jinĠ xiangĠ
zongĠ siĠlingĠ
yuĠ201 5ĠnianĠ
zuiĠzaoĠ deĠ
eĠ huaĠ
ĠĠĠ xingĠ
yuĠ yinĠ
zhanĠ cheĠ
mianĠ yiĠ
shuiĠ deĠ
ĠĠĠ200 0ĠnianĠ
A r
Ġ wanĠchengĠ
zaiĠ youĠ
xiaoĠ mieĠ
zuĠ xianĠ
1Ġ jiaĠ
ĠbuĠ nengĠ
tuiĠ chuĠleĠ
Ġ194 8ĠnianĠ
deĠheĠ liuĠ
tongĠxingĠ lianĠ
3 8ĠnianĠ
aiĠ liĠ
yuĠ ceĠ
heĠ shuĠ
xingĠ buĠ
shangĠ chuanĠ
changĠ anĠ
sheĠ liĠdeĠ
wanĠ quĠ
lanĠ zhouĠ
xiuĠ daoĠyuanĠ
ĠguoĠ wuĠyuanĠ
Ġ nuĠ
deĠ deĠ
houĠ guoĠ
ciĠ dianĠ
ĠshiĠ taĠ
bingĠ beiĠ
dongĠjingĠ duĠ
juĠzhuĠ zaiĠ
ĠĠĠ 0
ĠĠĠ shouĠ
weiĠ boĠ
jianĠ jinĠ
keĠ qianĠwangĠ
xiangĠ nanĠ
jiaoĠ xiaoĠ
yeĠ luĠ
baĠ saiĠ
puĠ leiĠ
yuĠ201 2ĠnianĠ
ĠĠĠ yongĠ
gongĠ fengĠ
jianĠ huaĠ
jianĠ qiaoĠ
lingĠ yuĠdeĠ
biĠ ciĠ
bingĠ buĠshiĠ
xuanĠ zhongĠ
ĠheĠ daoĠ
O R
ĠĠĠ taiĠ
quĠ zhuĠjianĠ
riĠ deĠ
xuanĠ yanĠ
ĠdanĠ zheĠ
zhuanĠ chengĠ
diĠyiĠ jieĠ
ĠkeĠ xueĠ
ĠhaiĠ junĠ
deĠdiĠ weiĠ
ĠgeĠ leiĠ
ĠbaĠ liĠ
Ġ198 1ĠnianĠ
o y
t yĠĠĠ
yiĠ jiuĠ
zhiĠ shengĠ
yuĠ mingĠ
yuĠ riĠbenĠ
faĠ buĠdeĠ
fangĠ xingĠ
yunĠ huiĠ
chanĠ wuĠ
8 2Ġ
shiĠ xiĠ
ĠĠĠ yaĠ
yuĠ gaoĠ
jianĠ heĠ
yuanĠ chuangĠ
laiĠ kanĠ
benĠ pianĠ
zhuanĠ keĠ
ĠyanĠ changĠ
17 9
xunĠhuiĠ saiĠ
E C
yuĠ zhongĠguoĠ
qiĠ chuĠ
beiĠ haiĠdaoĠ
juĠ dianĠ
houĠ weiĠ
baoĠ luĠ
ĠdanĠ zuiĠzhongĠ
tuiĠ ceĠ
ĠfenĠbieĠ weiĠ
ĠxiĠbanĠyaĠ yuĠ
5 ĠnianĠ10ĠyueĠ
7 ĠnianĠ1ĠyueĠ
Ġ chaoĠguoĠ
yiĠ wanĠ
ĠĠĠ kaĠ
ĠtaĠ shuoĠ
ĠzhiĠ liĠ
chuĠbanĠ deĠ
shengĠchanĠ deĠ
zhongĠ duĠ
buĠ zuoĠpinĠ
zhengĠ lunĠ
yueĠ guoĠ
xieĠ renĠ
xuĠ jiĠ
tangĠ quĠ
yuĠ201 4ĠnianĠ
3 ĠnianĠ12ĠyueĠ
6 3Ġ
Ġ mouĠ
shiĠ congĠ
youĠ siĠ
youĠ duoĠ
zaoĠ xingĠ
baiĠ xingĠ
ĠziĠ jiĠ
chuiĠ zhiĠ
baoĠfaĠ houĠ
7 6Ġ
wuĠ juĠ
wuĠ dingĠ
jieĠ dianĠ
houĠ buĠ
xinĠ shengĠ
ĠzaiĠ qiĠ
waiĠ xingĠ
ĠfaĠ lanĠ
caiĠyongĠ leĠ
ĠliuĠyuĠ mianĠjiĠ
8 5Ġ
zaiĠ jinĠ
nanĠ duanĠ
wangĠ jiĠ
ĠzhiĠ nengĠ
ĠgaiĠ gongĠsiĠ
ĠhaiĠ baĠ
Ġ197 9ĠnianĠ
3 9ĠnianĠ
xiaoĠ huaĠ
lianĠ duiĠ
zhenĠ renĠ
zhenĠ diĠ
yangĠ jiĠ
buĠdeĠ buĠ
ĠgenĠjuĠ 2020ĠnianĠmeiĠguoĠrenĠkouĠpuĠchaĠdeĠshuĠjuĠ
anĠhuiĠ shengĠ
aĠ miĠ
paoĠ daoĠ
ĠĠĠ18 9
daĠ dianĠ
yeĠ erĠ
liangĠ jiaĠ
baĠ maĠ
weiĠyuanĠhuiĠ deĠ
zhuĠtiĠ quĠ
yunĠshiĠ kengĠ
2 ĠnianĠ12ĠyueĠ
deĠ guoĠjiaĠ
ĠĠĠ zaoĠqiĠ
ziĠ nvĠ
tiĠ zhongĠ
junĠ beiĠ
jiangĠ xueĠ
quanĠ weiĠ
niĠ suĠ
1Ġ miĠ
18 4
Ġ2 2Ġ
ĠtaiĠ pingĠ
shiĠdaiĠ deĠ
zhanĠ jianĠ
waiĠ langĠ
tiaoĠ muĠ
2 ĠnianĠ10ĠyueĠ
r u
aoĠ deĠ
diĠ naĠ
heĠ gongĠ
ciĠ lieĠcheĠ
ĠshiĠ chengĠ
kaiĠ chuĠ
ĠzhiĠ shaoĠ
ĠxianĠ jinĠ
guangĠboĠ gongĠsiĠ
w it
shuĠ faĠ
riĠ yuĠ
shouĠ qiangĠ
duoĠ guanĠ
ĠjinĠ shuĠ
shiĠyiĠ zuoĠ
ĠchuĠciĠ zhiĠwaiĠ
geĠ heĠ
yanĠ zhengĠ
yinĠ heĠ
fanĠ kangĠ
4Ġ haoĠ
ĠdangĠ xuanĠ
ĠkeĠ shiĠ
3 6ĠnianĠ
9 ĠgeĠ
yiĠ tianĠ
youĠ beiĠ
fuĠ weiĠ
wuĠ tiĠ
zhanĠ guoĠ
quanĠ yiĠ
guĠ zhangĠ
shanĠ huĠ
zaoĠ chuanĠ
qiangĠ daĠdeĠ
longĠ keĠ
199 6ĠnianĠ
ĠM Ġ
jiĠzhongĠ xueĠ
3 ĠĠĠ
daoĠ qiĠ
jingĠ queĠ
shangĠ biaoĠ
ruĠ leĠ
huanĠ qiuĠ
ĠbeiĠ chengĠweiĠ
diĠyiĠ renĠ
Ġ194 7ĠnianĠ
iĠ ĠĠ
zhiĠ 197
chengĠ zanĠ
guanĠ daoĠ
199 8ĠnianĠ
Ġ15 8
2 50Ġ
ĠĠĠ kaiĠ
zaiĠ renĠ
cheĠ liĠ
qinĠ fanĠ
ĠchengĠ shiĠ
ĠlianĠ bangĠ
jiaoĠyiĠ suoĠ
guoĠ anĠ
xianĠ daoĠ
juĠ yiĠ
liangĠ zuoĠ
daiĠ kuanĠ
duoĠ yuanĠ
cengĠ beiĠ
zhongĠdianĠ wenĠwuĠbaoĠhuĠdanĠweiĠ
jiuĠduĠ yuĠ
K B
ĠĠĠ wuĠkeĠlanĠ
heĠ shuiĠ
xiĠ yangĠ
fuĠ huoĠ
wuĠ yeĠ
zhuĠ youĠ
meiĠ erĠ
yanĠ yuĠ
dianĠ xinĠ
yangĠ ziĠ
xuanĠ gaoĠ
or d
tuoĠ fuĠ
faĠzhanĠ deĠ
ĠguĠ shiĠ
il li
E N
ĠĠĠ huaĠ
zhiĠ daĠ
shuĠ liĠ
fenĠ sanĠ
xiaĠ xunĠ
dianĠ changĠ
teĠ lieĠ
taĠmenĠ zaiĠ
ro p
ĠP Ġ
zunĠ zhongĠ
ĠĠĠ hanĠ
shuĠ leĠ
jingĠ beiĠ
wangĠ youĠ
xuanĠ piaoĠ
ĠerĠ zheĠ
yuĠ201 7ĠnianĠ
2 7ĠnianĠ
yiĠ suoĠ
weiĠ ciĠ
huiĠ guoĠ
shangĠ buĠ
xinĠ zhuĠ
dianĠ shiĠjieĠmuĠ
shenĠ yuĠ
bianĠ quĠ
ĠbingĠ biaoĠshiĠ
tanĠ deĠ
tuanĠ deĠ
ĠwanĠ liĠ
ĠmianĠjiĠ 0
kuaĠ yueĠ
shiĠ shengĠ
yiĠ baiĠ
gongĠ dangĠ
xiangĠ dongĠ
meiĠguoĠ zongĠtongĠ
ĠhuĠ beiĠ
yiĠ shouĠ
yeĠ zhanĠ
yunĠ nanĠshengĠ
puĠ luoĠ
1Ġ mingĠ
chanĠ liangĠ
shaĠ renĠ
3 ĠnianĠ10ĠyueĠ
yiĠ xueĠyuanĠ
ĠshiĠ yueĠ
lvĠ huaĠ
gengĠ gaoĠ
tianĠwenĠ xueĠjiaĠ
ĠshiĠ daiĠ
zhenĠ yingĠ
paiĠ fangĠ
ĠbuĠ laiĠ
yuĠ201 3ĠnianĠ
aiĠ haoĠ
yiĠ chuanĠ
ĠĠĠ d
qiĠ daoĠ
zhanĠ yiĠzhongĠ
yanĠ xianĠ
zhouĠ renĠ
biĠ shiĠ
duoĠ quĠ
fengĠ mianĠ
ĠbingĠqieĠ zaiĠ
8 6Ġ
8 ĠnianĠ10ĠyueĠ
e k
chuĠ laiĠdeĠ
jinĠ zaiĠ
jingĠ yuĠ
fangĠ chengĠshiĠ
yeĠ shengĠ
shenĠ sheĠ
senĠ baoĠ
ĠanĠ zhaoĠ
ĠÐ °
beiĠ shaĠ
jingĠ tiĠ
shangĠ jiĠ
nanĠ meiĠzhouĠ
wangĠ laiĠ
quanĠ shiĠjieĠ
xunĠ haoĠ
yuĠ201 8ĠnianĠ
hangĠzhanĠ louĠ
i dĠ
Ġ rouĠ
ĠĠĠ 2020
buĠ duoĠ
qianĠ shuiĠ
yinĠ jieĠ
wangĠ yeĠ
baĠ geĠ
ruoĠ ganĠ
Ġ195 6ĠnianĠ
canĠsaiĠ ziĠgeĠ
A L
Ġ quĠdeĠ
chuĠ juĠ
qingĠ yuanĠ
gaoĠ shanĠ
zhuanĠ huiĠ
tuiĠ liĠ
hongĠ shuiĠ
di uĠ
deĠ dianĠyingĠ
weiĠ jieĠ
shengĠ dianĠ
faĠ daĠ
19 00
junĠ jianĠ
xiaĠ tianĠ
jiuĠ baĠ
deĠyiĠ jiaĠ
gongĠzuoĠ deĠ
Ġ197 0ĠnianĠ
wuĠxianĠ dianĠshiĠ
jieĠquanĠguoĠ renĠminĠdaiĠbiaoĠdaĠhuiĠ
deĠ mingĠ
ĠĠĠ fenĠleiĠ
chuĠ zaiĠ
wangĠ siĠ
miĠ teĠ
jueĠ ceĠ
deĠshiĠ liĠ
zengĠ sheĠ
18 5
xingĠzhengĠ yuanĠ
ĠfenĠbieĠ shiĠ
3 3ĠnianĠ
Ġ qiongĠ
ĠĠĠ shaĠ
youĠ laiĠ
qiĠ wenĠ
ruĠ xueĠ
nanĠ nvĠ
jiuĠ jingĠ
benĠ diĠquĠ
ĠxianĠ shiĠyouĠ
ĠĠĠ200 2ĠnianĠ
deĠliĠ lunĠ
zhiĠ 2
gaoĠ fengĠ
boĠ chuĠdeĠ
fanĠ fuĠ
neiĠ ruiĠ
zhuanĠ jiĠdeĠ
peiĠ changĠ
Ġ ruiĠdianĠ
jiĠ longĠ
heĠ jiaĠ
fenĠ buĠzaiĠ
lingĠ hunĠ
ĠqiĠ ziĠ
guangĠ deĠ
2Ġ liĠ
gengĠ gaiĠ
9Ġ pingĠfangĠgongĠliĠ
ĠzongĠ tongĠ
Ġ195 5ĠnianĠ
2 9ĠnianĠ
3 4ĠnianĠ
A I
heĠ shengĠ
fuĠ xianĠ
chuĠ buĠ
fangĠ xianĠ
moĠ nianĠ
gouĠ wuĠ
Ġ5 0
ĠguoĠ liĠ
zhuiĠsuĠ daoĠ
N H
weiĠ linĠ
renĠ duiĠ
gongĠ ziĠ
jiaĠ binĠ
xiangĠ xiangĠ
riĠ shiĠ
zhangĠ danĠquĠ
luoĠ houĠ
zuiĠ xinĠ
laĠ geĠ
zhongĠguoĠ renĠminĠ
199 2ĠnianĠ
deĠzhuĠ tiĠ
Ġ193 8ĠnianĠ
Ġ louĠ
yuĠ yuanĠ
heĠ meiĠguoĠ
gongĠ weiĠ
ĠshiĠ xingĠdengĠweiĠ
yanĠ shengĠ
zuĠ yiĠ
kouĠ jingĠ
9 5
guanĠ shangĠ
liangĠ duĠ
qiuĠ yunĠdongĠyuanĠ
chaĠ juĠ
reĠ menĠ
ĠanĠ deĠ
om m
faĠbuĠ leĠ
ĠweiĠyuĠgaiĠguoĠ xiĠbuĠ
wuĠrenĠ jiĠ
E S
deĠ fangĠshiĠ
shouĠ piaoĠ
yanĠ yongĠ
xiaoĠ lvĠ
nanĠ buĠdeĠ
shenĠ yeĠ
laĠ erĠ
naĠ ĠĠ
deĠyiĠ tiĠ
cengĠ youĠ
zengĠ zhiĠ
7 7Ġ
zhiĠ qiĠ
xingĠ shengĠ
faĠ liĠ
shuĠ geĠ
deĠshiĠ qingĠ
ĠjingĠ changĠ
ĠchiĠ weiĠ
2 6ĠnianĠ
² Ġ
tongĠ xiangĠ
yanĠ shenĠzhiĠ
hanĠ deĠ
Ġ2 3Ġ
liĠ mianĠ
shengĠ zaiĠ
zhouĠ fuĠzeĠguanĠxiaĠ
shenĠ qiĠ
ĠzhanĠ houĠ
ro m
e y
aĠ fuĠhanĠ
diĠ heĠ
beiĠ lieĠweiĠ
shouĠ erĠ
ĠshiĠ xiaĠxiaĠdeĠyiĠgeĠ
fenĠ zuĠ
duiĠ biĠ
maĠ zuĠ
zongĠ guanĠ
guoĠjiaĠ zuĠqiuĠduiĠ
ĠgongĠ jiĠ
deĠzhiĠ huiĠ
ĠguoĠ quĠ
erĠdeĠ mingĠ
I V
xiĠ buĠdeĠ
changĠ chunĠ
zhouĠ kanĠ
wangĠ minĠ
ĠyiĠ juĠ
huĠ zhaoĠ
chaĠ liĠ
shuoĠ deĠ
4 00Ġ
h Ġ
n am
zhenĠ zhuĠ
lanĠ teĠ
zhongĠguoĠ guoĠminĠdangĠ
ganĠ deĠ
ĠgaiĠ dangĠ
ĠjieĠ weiĠ
zhiĠhouĠ deĠ
ĠH R
faĠyanĠ renĠ
enĠ laiĠ
jiaĠ shuĠ
mingĠ jiaoĠ
qianĠ daoĠ
wenĠ jiĠ
baoĠ jiaĠliĠyaĠ
neiĠ siĠ
pianĠ zhongĠ
7 3Ġ
youĠ buĠ
yuanĠ jianĠ
xinĠ tuĠ
laiĠ wuĠ
hanĠ yiĠ
puĠ jiĠ
30 0
5 ĠnianĠ12ĠyueĠ
xingĠ cunĠ
daĠ kaiĠ
xiĠ shuĠ
jingĠ neiĠdeĠ
wenĠ quanĠ
ĠdanĠ queĠ
cunĠzaiĠ yuĠ
xianĠzaiĠ deĠ
zhongĠ wuĠ
jieĠ jieĠ
faĠ xueĠ
mingĠ chengĠweiĠ
changĠ guiĠ
banĠ kuaiĠ
leiĠ bieĠ
yunĠ suanĠ
ĠmeiĠ zhouĠ
deĠzhiĠ shiĠ
ĠbaĠ yueĠ
Ġ193 7ĠnianĠ
3 1ĠnianĠ
4 ĠnianĠ11ĠyueĠ
5 ĠshiĠ
9 6
zhiĠ xinĠ
jianĠ dingĠ
huoĠ qiĠtaĠ
xiaĠ laiĠdeĠ
minĠ jinĠdangĠ
liuĠ langĠ
zongĠ shuĠjiĠ
tuĠ rangĠ
ĠyouĠ xianĠ
zhuanĠ liĠ
ĠdangĠ nianĠ
ĠD Ġ
ĠR Ġ
danĠbaiĠ zhiĠ
8 7Ġ
a th
Ġ ë
zhiĠ 194
jieĠ mianĠ
jiaĠ juĠ
jinĠ shenĠ
fangĠ shouĠ
tianĠ wenĠxueĠ
chaoĠ deĠ
deĠdaĠ buĠfenĠ
weiĠchiĠ jingĠ
6 ĠnianĠ12ĠyueĠ
s panĠ
yiĠ diĠ
ĠĠĠ 15
keĠ yongĠ
zhengĠ jiaoĠ
quĠ daoĠ
dianĠ xingĠdeĠ
bingĠ yuanĠ
shanĠ kouĠ
ĠweiĠ yuanĠ
xianĠdeĠ feiĠjianĠzhiĠdiĠquĠ
7 6
weiĠ jingĠ
taĠ duiĠ
xueĠ liĠ
zhanĠ baiĠ
ĠyuĠ 198
pinĠ zhiĠ
gouĠ tongĠ
waĠ duoĠ
ĠweiĠyuĠ zhongĠguoĠ
ĠfeiĠ lvĠbinĠ
yuĠ201 1ĠnianĠ
ĠĠĠ jingĠliĠ
renĠ shouĠ
wuĠ xuĠ
yangĠ heĠ
ĠqiĠ B
shuiĠ daoĠ
5Ġ haoĠ
chongĠ shengĠ
woĠ lunĠ
guoĠjiĠ saiĠ
kuĠ deĠ
ĠS AO
jiaĠruĠ zhongĠguoĠgongĠchanĠdangĠ
jieĠshouĠ leĠ
Ġ194 0ĠnianĠ
30Ġ fenĠ
si sĠ
zhiĠ yaoĠ
qiĠ tiĠ
gongĠ xiangĠ
jinĠ gangĠ
juĠ zaiĠ
dianĠ luĠ
chuanĠ shuĠ
ĠguanĠ zhuangĠbingĠduĠ
keĠluoĠ diĠyaĠ
y st
shiĠ zhengĠfuĠ
ĠĠĠ 6Ġ
ĠĠĠ st
huiĠ leĠ
gaiĠ zuĠ
ĠdanĠ shiĠzaiĠ
xiuĠ xiĠ
ĠĠĠ200 1ĠnianĠ
zhiĠchiĠ zheĠ
ĠĠĠnianĠ ĠĠ
7 ĠnianĠ12ĠyueĠ
xueĠ guanĠ
duĠ shuĠ
wanĠ jianĠ
kongĠ zhiĠdeĠ
deĠshiĠ yanĠ
or k
ĠsiĠ wangĠ
ĠtaiĠ guoĠ
quanĠguoĠ zhongĠdianĠwenĠwuĠbaoĠhuĠdanĠweiĠ
heĠ siĠ
nanĠ daoĠ
yangĠ zhouĠ
shuiĠ shouĠ
renĠminĠ faĠyuanĠ
ĠĠĠcheĠzhanĠ gouĠzaoĠ
renĠ zhongĠ
taĠ beiĠ
zhanĠ qianĠ
ĠshiĠ nanĠjiĠzhouĠdeĠ
wanĠ zhengĠdeĠ
miĠ shiĠ
bianĠ lunĠ
danĠ youĠ
cengĠ shuiĠyuĠ
chengĠgongĠ deĠ
minĠzuĠ zhuĠyiĠ
chaoĠjiĠ lianĠsaiĠ
jiĠxingĠzhengĠ danĠweiĠ
e ch
i st
daiĠ laiĠdeĠ
0Ġ zuoĠbiaoĠ
tuĠ jueĠ
qinĠ lveĠ
ĠweiĠyuĠ yinĠjingĠ
miaoĠshuĠ weiĠ
ĠqiĠB 1900
0ĠzuoĠbiaoĠ weiĠchiĠjingĠ
3 2ĠnianĠ
jiĠ xianĠ
yuĠ keĠ
renĠ dingĠ
diĠ zhongĠhaiĠ
daĠ maĠ
xinĠ zangĠ
ĠzheĠ zuoĠ
miaoĠ xieĠ
ï¼ İ
ĠqingĠchaoĠ zhengĠzhiĠrenĠwuĠ
aoĠ duoĠ
ĠĠĠ jiangĠ
ĠĠĠ zhengĠyiĠ
yuĠ zaiĠ
diĠ xingĠ
diĠ 3Ġ
beiĠ yueĠ
shouĠ piĠ
xinĠ taiĠbiĠ
dingĠ dianĠ
ĠzhiĠ jianĠ
shiĠshiĠ zhangĠ
zuĠchengĠ buĠfenĠ
Ġ196 0ĠnianĠ
Ġãĥ ³
guangĠboĠ dianĠtaiĠ
zuoĠquĠ jiaĠ
huanĠxingĠ shanĠ
2 ĠnianĠ11ĠyueĠ
8 1Ġ
ã Ĥ
deĠ guĠ
ĠĠĠ f
ĠĠĠ yinĠyueĠ
jianĠ liĠdeĠ
shouĠ huĠ
huaĠ xianĠ
meiĠ shuĠguanĠ
teĠ langĠpuĠ
fengĠ yuĠ
tingĠ cheĠchangĠ
ĠnanĠ jingĠ
ĠsheĠ liĠ
7 4Ġ
daĠ niĠ
beiĠ haiĠ
nvĠ shenĠ
henĠ daĠdeĠ
guoĠfangĠ buĠ
yuanĠ shengĠ
huiĠ baoĠ
jiaoĠ xingĠ
yingĠ sheĠ
yinĠ liĠ
nanĠ luĠ
kaiĠ yeĠ
saiĠ naĠ
fanĠ gongĠ
zeĠ beiĠ
deĠyiĠ weiĠ
puĠ laĠ
haĠ deĠ
huoĠdongĠ deĠ
ĠtongĠshiĠ yeĠshiĠ
heĠbeiĠ shengĠ
anĠ zhongĠ
renĠ shengĠ
guanĠ nianĠ
zhenĠ wangĠ
heĠ taĠdeĠ
gongĠ xueĠyuanĠ
wuĠ zhengĠzhuangĠganĠranĠzheĠ
yingĠ biĠ
qianĠ fangĠ
saiĠ tingĠ
ĠdiĠ xiaĠ
ĠguangĠ zhouĠ
3 ĠnianĠ11ĠyueĠ
C D
yiĠ fangĠ
mingĠ zhongĠ
laiĠ wangĠ
lingĠ ganĠ
yangĠ guangĠ
zhuanĠ yiĠdaoĠ
ĠzhiĠ jieĠ
xunĠ fuĠ
weiĠjiĠ chuĠ
b Ġ
anĠ zhiĠ
ĠĠĠ haiĠ
ĠĠĠ taĠdeĠ
gaiĠ liangĠ
bianĠ ruĠ
liuĠ yueĠ
tianĠ xinĠ
chiĠ daoĠ
puĠ siĠ
Ġ2 4Ġ
deĠzhiĠ yeĠ
geĠmingĠ junĠ
daĠjiangĠ saiĠ
E T
s e
dongĠ luĠ
xiaoĠ pingĠ
zhenĠ junĠ
danĠ shiĠ
chiĠ deĠ
Ġ2 5Ġ
youĠxiĠ zhongĠ
ĠE Ġ
P ro
xianĠ mingĠ
zhanĠ zaiĠ
zhanĠ chuĠ
fenĠ kaiĠ
taiĠ yuĠ
guiĠ geĠ
duanĠ qiĠ
xiangĠzhenĠ jiĠxingĠzhengĠdanĠweiĠ
ĠĠĠ gongĠ
jiangĠ huaĠ
qianĠ mingĠ
haiĠ baoĠkuoĠ
guĠ chengĠ
ĠzaiĠ naĠliĠ
ĠdanĠ weiĠ
ĠdongĠ huaĠ
ĠfenĠ buĠzaiĠ
in t
ĠfanĠ yingĠ
V i
aĠ muĠ
ĠĠĠ aoĠ
jiĠ dongĠ
yangĠ benĠ
zeĠ yiĠ
qinĠ shiĠ
tiĠgongĠ deĠ
3 1
8 ĠnianĠ12ĠyueĠ
ĠĠĠ zhongĠhuaĠrenĠminĠgongĠheĠguoĠ
daĠ buĠ
jianĠ guanĠ
zhouĠ moĠ
puĠ zhaiĠ
ĠhuoĠ chengĠ
shanĠmaiĠ deĠyiĠbuĠfenĠ
9 5Ġ
U N
jiĠ buĠ
zhiĠ duiĠ
teĠ shiĠ
tingĠ daoĠ
yiĠshiĠ daoĠ
ĠaĠ erĠbeiĠ
Ġ4 0
erĠshiĠ nianĠ
erĠ keĠ
shengĠ huiĠ
linĠ chuangĠ
ĠyuĠ yanĠ
ĠgaiĠ shuĠ
suanĠ jiĠ
18 0
wenĠhuaĠ deĠ
paoĠ bingĠ
u g
yiĠ haoĠ
jiĠ juĠ
youĠ liangĠgeĠ
nanĠ zhuĠjueĠ
kuoĠ sanĠ
ĠshengĠ chengĠ
penĠ diĠ
xinĠguanĠfeiĠyanĠ queĠzhenĠbingĠliĠ
diĠ biaoĠ
jieĠ zouĠ
jingĠ wuĠ
qingĠ chunĠ
qiuĠ biĠsaiĠ
199 7ĠnianĠ
jiĠluĠ pianĠ
2 ĠzhiĠ
9 ĠshiĠ
U ni
jiaĠ leĠ
houĠ zheĠ
changĠ daoĠ
yeĠ chengĠweiĠ
zhouĠ deĠyiĠgeĠshiĠzhenĠ
daiĠ daoĠ
banĠ shiĠ
puĠ dunĠ
genĠ diĠ
ĠxiangĠ guanĠ
ĠduiĠ ciĠ
Ġ18 0
tiaoĠyueĠ tiĠxiĠ
weiĠwuĠ erĠ
V I
ĠĠ shiĠ
diĠ liĠyaĠ
jianĠ zhengĠ
huiĠ sheĠ
zhengĠ siĠ
tianĠ xianĠ
ĠdanĠ taĠmenĠ
pinĠ fanĠ
chongĠ fenĠ
ĠdiĠ fangĠ
taoĠ yuanĠ
langĠ deĠshengĠ
yiĠ shiĠdeĠ
wenĠ shuĠ
gaiĠ shiĠ
fanĠ mangĠ
tunĠ menĠ
banĠbenĠ deĠ
o ng
ĠĠĠ ruĠ
gongĠ tingĠ
jieĠ quĠ
chuĠ siĠ
fangĠ sheĠ
zuiĠ xiaoĠ
feiĠ zhiĠ
ĠzhiĠ mingĠ
chongĠ baiĠ
guoĠjiaĠ jiĠ
jingĠ zhiĠ
houĠ cheĠ
dongĠ taiĠ
yeĠ meiĠyouĠ
jiangĠ zhangĠ
duĠ zheĠ
laĠ heĠ
fanĠ jiĠ
shaĠ moĠ
gengĠ daĠdeĠ
zuiĠhouĠ yiĠciĠ
nanĠjiĠ tiaoĠyueĠtiĠxiĠ
a ch
daĠ zaiĠ
daĠ dangĠ
yuanĠ dingĠ
ziĠ meiĠ
huiĠ ruĠ
yingĠ jiuĠ
maĠ qiĠ
boĠ keĠ
ĠerĠ buĠ
xunĠ xiĠ
keĠyiĠ shengĠ
miaoĠ deĠ
ar dĠ
ĠheiĠ longĠjiangĠ
8 ĠshiĠ
r yĠĠĠ
Ġ erĠyueĠ
zhiĠ jiaĠgeĠ
zhongĠ dengĠ
jianĠ jianĠ
jieĠ yunĠ
ĠshiĠ shiĠshangĠ
zuĠ ziĠzhiĠ
zhenĠ xianĠ
shanĠ chuĠ
qiangĠ daĠ
zhengĠzhiĠ juĠ
ĠshiĠjiĠ shangĠ
ruanĠ tiaoĠ
ĠshiĠweiĠyuĠmeiĠguoĠ miĠ
anĠ ĠĠ
geĠ diĠdeĠ
fuĠ shanĠ
zhuĠ weiĠ
xiaĠ menĠ
pinĠ kunĠ
diaoĠ xiangĠ
ĠguangĠ xiĠ
ĠchaoĠ tingĠ
biaoĠxianĠ chuĠ
heĠbingĠ weiĠ
anĠnaĠ zhouĠ
youĠ youĠ
buĠ liangĠ
geĠ linĠ
jinĠ jinĠ
jiaoĠ zhanĠ
dingĠ yiĠweiĠ
zhuanĠ boĠ
shuiĠ shangĠ
maiĠ deĠ
9Ġ haoĠ
shiĠwuĠ suoĠ
nv ĠshiĠ
ĠĠĠT heĠĠĠ
ĠqiangĠ diaoĠ
xiaoĠxingĠ xingĠdeĠ
M V
ĠĠĠ zheĠgeĠ
zhiĠ yongĠ
zhongĠ renĠ
keĠ cheĠ
juĠ huaĠ
yaĠ suoĠ
ĠzhiĠ huiĠ
huanĠ raoĠ
ĠfuĠ wuĠ
ec t
8 4Ġ
erĠ maĠ
daoĠ xianĠ
junĠ fangĠ
2Ġ mingĠ
zhaoĠ muĠ
ganĠ raoĠ
Ġ16 4
ĠquĠ daiĠ
Ġ17 9
fangĠxiangĠ deĠ
ĠĠĠ194 9ĠnianĠ
xueĠshiĠ xueĠweiĠ
laySt ationĠĠĠ
yiĠ dianĠ
zhongĠ leiĠ
daiĠ xieĠ
ĠzaiĠ yuĠ
shuiĠ zhunĠ
zhengĠzhiĠ jiaĠ
sangĠ shiĠ
Ġ15 9
xinĠxiĠ lanĠ
nanĠjiĠtiaoĠyueĠtiĠxiĠ guanĠliĠ
1 ĠnianĠ11ĠyueĠ
4 2
Ġ nengĠgouĠ
ĠĠĠ heĠĠĠ
daĠ daĠ
yuanĠ laiĠ
guanĠ zhengĠ
suoĠ weiĠdeĠ
shaĠ niĠyaĠ
ĠshangĠ shuĠ
ĠxieĠ zhuĠ
Ġ20 Ġ
yuĠ202 1ĠnianĠ
ĠhengĠ liĠ
ĠĠĠ dianĠyingĠ
ĠĠĠ zhiĠyeĠshengĠyaĠ
qiĠ kanĠ
shengĠ huoĠdeĠ
tuĠ shuĠ
ĠzhiĠ yuanĠ
douĠ meiĠyouĠ
xunĠ wenĠ
ĠbuĠ zaiĠ
shiĠ guanĠ
shiĠ zhongĠxinĠ
youĠ keĠnengĠ
shuĠ baiĠ
shenĠ liĠ
wanĠ shanĠ
yiĠzhiĠ deĠ
shengĠhuoĠ zaiĠ
ĠcheĠ xiaoĠ
buĠfuĠ buĠzhangĠ
a f
Ġ minĠzhuĠ
eĠ yuĠ
gongĠ wuĠ
fuĠ danĠ
keĠ huanĠ
zuĠ ziĠzhiĠquĠ
am Ġ
Ġ195 2ĠnianĠ
Ġ197 5ĠnianĠ
boĠshiĠ dunĠ
waiĠbuĠ lianĠjieĠ
6 ĠnianĠ10ĠyueĠ
8 5
deĠ zongĠ
yiĠ dengĠ
buĠ dengĠ
daĠ piĠ
fenĠ fenĠ
hanĠ jianĠ
reĠ ĠĠ
junĠshiĠ tanĠdingĠ
quĠyiĠhuiĠ xuanĠjuĠ
ĠĠĠ fenĠbuĠ
jiĠ lvĠ
buĠ xiaĠ
buĠ lunĠ
shengĠ danĠ
zhengĠ guiĠ
huoĠ jiangĠ
xianĠdaiĠ huaĠ
ĠJ Ġ
i p
t t
renĠ renĠweiĠ
jianĠ yanĠ
keĠ jiaĠ
changĠ yuĠ
nanĠ shiĠ
ĠyuanĠ shiĠ
ningĠ tuĠ
ĠsanĠ yueĠ
kunĠ chongĠ
ĠpingĠ chengĠ
deĠgongĠ nengĠ
Ġ15 6
liĠfaĠ weiĠyuanĠ
Ġ zengĠjiaĠ
daĠ peiĠ
dianĠ zhanĠ
ĠyiĠ shangĠ
luoĠ baiĠ
biĠ huaĠ
shanĠ luĠ
chuanĠ yuanĠ
pinĠ deĠ
ĠdaĠ daoĠ
ent erĠ
S S
Ġ faĠshengĠ
yiĠ wangĠ
ĠĠĠ sheĠhuiĠ
weiĠ duoĠliĠyaĠ
qiĠ huaĠ
heĠ taĠ
jianĠ xiaoĠ
haiĠ guanĠ
qingĠ zhenĠ
zuiĠ jinĠdeĠ
boĠ leiĠ
congĠ zhongĠ
ĠheĠ bingĠ
songĠ deĠ
miaoĠ yuĠ
daĠ huoĠ
daiĠ weiĠ
zhuangĠ yuanĠ
huanĠ baoĠ
xiaoĠshiĠ houĠ
jiĠqiĠ renĠ
ĠguanĠzhuangĠbingĠduĠ bingĠ
Ġ sĠ
ĠĠĠ sheĠjiĠ
ĠĠĠ xiangĠguanĠ
liĠ yeĠ
xingĠ yunĠ
chuĠ cunĠ
taiĠ daĠ
luoĠ boĠ
bianĠ liangĠ
caiĠ dingĠ
seĠ qingĠ
guiĠdaoĠ jiaoĠtongĠ
liĠ jiaĠ
zaiĠ wuĠ
qiĠ qiĠ
luĠ keĠ
qianĠ liĠ
niĠ diĠ
deĠyiĠ mingĠ
yiĠgeĠ yueĠ
tanĠ taoĠ
kaoĠ ruĠ
J R
houĠ qinĠ
ciĠ leiĠ
yingĠ wuĠ
ĠshiĠ nianĠ
duĠ teĠdeĠ
wanĠ meiĠ
taoĠ faĠ
shiĠjianĠ zhuĠ
ĠduĠ liĠ
faĠbiaoĠ leĠ
ic k
kaĠluoĠlaiĠ naĠzhouĠ
1 ĠnianĠ10ĠyueĠ
Ġ zhanĠzhengĠ
shiĠ jiangĠ
deĠ guoĠjiĠ
gongĠ guoĠ
daĠ jinĠ
jianĠ tingĠ
muĠ jiĠ
puĠ luĠ
liĠshiĠ zhangĠ
tieĠluĠ gongĠsiĠ
Ġ195 4ĠnianĠ
ĠĠĠzheĠ keĠ
5 ĠnianĠ11ĠyueĠ
Ġ jiaoĠtongĠ
yiĠ chengĠ
ĠĠĠ miĠ
youĠ zhengĠ
siĠ tuĠ
fuĠ mianĠ
jinĠ nianĠ
mingĠ mingĠdeĠ
ĠshiĠ zhongĠhuaĠrenĠminĠgongĠheĠguoĠ
qianĠ qiĠ
qianĠ xiaĠ
kaiĠ boĠ
zongĠ mianĠjiĠ
qiĠtaĠ deĠ
ĠhuaĠ shengĠdunĠ
zangĠ yuĠ
ĠzhenĠ duiĠ
riĠzhiĠ shiĠqiĠ
p ouĠ
Ġ chaiĠ
ĠĠĠ guoĠ
ĠĠĠ jiaoĠyuĠ
ĠĠĠ minĠguoĠ
leĠ deĠ
shangĠ xiaoĠ
jiaoĠ daĠdeĠ
ĠshiĠ yinĠduĠ
nanĠ renĠ
zuiĠ xingĠ
liuĠ chengĠ
Ġ19 Ġ
xiuĠ xianĠ
suanĠ yanĠ
s s
zhongĠ chengĠ
heĠ sheĠhuiĠ
erĠ dunĠ
yuanĠ shouĠ
beiĠ liĠ
dongĠ haiĠ
changĠ yongĠ
taiĠ yuanĠ
nanĠ siĠlaĠfuĠ
xuanĠ baĠ
ĠzheĠ shiĠdeĠ
diĠshiĠ sanĠ
deĠ wenĠtiĠ
ĠĠĠ renĠ
ĠĠĠ zheĠxieĠ
jiĠ nengĠ
jieĠ meiĠ
chuĠ bingĠ
jiaoĠ dianĠ
luoĠ niĠ
ĠzaiĠ 198
shaoĠ liangĠ
ĠhuoĠ dongĠ
ĠxiangĠ muĠ
ĠshangĠ yeĠ
faĠxingĠ leĠ
Ġ lunĠdunĠ
geĠ xingĠ
zhuĠ guoĠ
beiĠ jieĠ
changĠ weiĠhuiĠ
yinĠ xingĠ
saiĠ guanĠjunĠ
ganĠ lanĠ
yuĠ xiangĠgangĠ
siĠ mingĠ
changĠ zhuĠ
yinĠ yuanĠ
yaĠ chiĠ
paiĠ xiĠ
ĠxingĠ shiĠ
ĠcengĠ zaiĠ
0ĠnianĠdaiĠ moĠ
deĠliĠ ziĠ
Ġl uanĠ
diĠsanĠ ciĠ
zhuĠjiaoĠ lianĠ
a di
enĠ siĠ
ĠĠĠ yingĠguoĠ
erĠ wenĠmingĠ
jieĠ zhongĠ
xiangĠ qianĠ
dianĠ dongĠ
zhuanĠ shuĠ
ĠkeĠ laiĠ
gongĠzuoĠ zheĠ
leĠyiĠ xiĠlieĠ
âĪ Ĵ
o tĠĠĠ
yiĠ jiangĠ
ĠĠĠ fengĠ
yuĠ xinĠ
jianĠ dieĠ
faĠ dingĠ
zhouĠ heĠ
wanĠ yanĠ
caiĠ deĠ
00Ġ pingĠfangĠqianĠmiĠ
199 4ĠnianĠ
zunĠ xunĠ
7 1Ġ
± Ġ
huiĠ jiangĠ
ĠshiĠ zhongĠ
yinĠ zhiĠ
guangĠ xueĠ
ĠzheĠ yeĠ
nvĠ renĠ
ĠzuiĠ zaoĠ
ĠnanĠ beiĠ
ĠbenĠ zhanĠ
ol spanĠ
ĠÐ ¾
daĠ shengĠ
erĠ haoĠ
dianĠ yaĠ
gaiĠ shuĠ
0Ġ renĠ
shuiĠ liĠ
zhaoĠ heĠ
mouĠ zhongĠ
oh nĠĠĠ
fuĠ ziĠ
guĠ baĠ
tuĠ siĠ
en dĠ
ĠT Ġ
dianĠziĠ youĠxiĠ
24Ġ xiaoĠshiĠ
guĠlaoĠ deĠ
ĠxianĠshiĠyouĠ nanĠjiĠtiaoĠyueĠtiĠxiĠguanĠliĠ
ĠĠĠ houĠ
fenĠ huiĠ
yinĠ jiĠ
wenĠ diĠ
ĠbingĠ buĠ
ĠdanĠ meiĠyouĠ
touĠ buĠ
ĠheĠ zuoĠ
ĠyinĠciĠ zaiĠ
Ġ leiĠsiĠ
deĠ chengĠyuanĠ
beiĠ anĠ
tongĠ huaĠ
yaĠ dianĠ
daiĠ yuĠ
luoĠ shanĠ
zhenĠ xiangĠ
ĠzaiĠ zhongĠguoĠ
ĠbingĠ chengĠweiĠ
chuanĠ jiaoĠ
ĠzhongĠ shiĠ
ĠzongĠ buĠ
Ġ5 00Ġ
ĠhaĠ liĠ
G B
e mĠ
Ġ mingĠweiĠ
anĠ suanĠ
jiĠ suĠ
youĠ mingĠ
wuĠ jianĠ
jinĠ yuĠ
dongĠ buĠshiĠquĠ
gengĠ daĠ
ĠdaiĠ maĠweiĠ
ĠI ST
ĠguiĠ zhouĠ
lingĠshiĠ guanĠ
feiĠxingĠ yuanĠ
8 9ĠnianĠ
9 3
s k
Ġ zuĠchengĠ
deĠ qingĠkuangĠxiaĠ
zhiĠ nanĠ
zhiĠ quanĠ
daoĠ shuĠ
pingĠ shenĠ
maĠ changĠ
peiĠ yueĠ
ĠheĠdaoĠ quanĠzhangĠ
r oĠ
v eĠ
Ġ tuiĠchuĠ
diĠ shangĠ
jiaĠ ciĠ
beiĠ fuĠ
xinĠ zhongĠ
yingĠ bangĠ
yongĠ yuanĠ
jiuĠ yeĠ
daiĠ shuĠ
zuiĠ chuĠdeĠ
caiĠ huiĠ
cunĠ chuĠ
Ġ193 9ĠnianĠ
oc i
P C
a sĠ
ĠĠĠ duoĠ
ĠĠĠ yingĠxiangĠ
geĠ jieĠ
puĠ luĠshiĠ
huanĠ manĠ
taiĠwanĠ deĠ
ou n
fouĠ jueĠ
Ġ196 6ĠnianĠ
luĠwaĠ erĠshengĠ
ĠĠ diĠ
ĠĠĠ liangĠ
zhiĠ gongĠ
qiĠ shouĠ
daĠ lianĠ
erĠ duoĠ
zhuĠ zhongĠ
ciĠ xingĠ
jiangĠ zuoĠ
qianĠ weiĠ
maĠ dingĠ
ĠtaĠ duiĠ
feiĠ diĠ
fengĠ biĠ
ĠgongĠ kaiĠ
shiĠshiĠ shangĠ
rengĠ weiĠ
lianĠsaiĠ guanĠjunĠ
zuiĠgaoĠ faĠyuanĠ
ĠF Ġ
raoĠtaiĠyangĠ gongĠ
jiĠ qiĠtaĠ
yuĠ wenĠ
zaiĠ shangĠhaiĠ
yuanĠ zhengĠ
yueĠ 2
ĠrenĠ heĠ
shiĠjieĠ deĠ
xingĠzhengĠ zhangĠguanĠ
ĠlingĠ yiĠgeĠ
ĠshiĠyiĠ keĠweiĠ
yuĠ200 9ĠnianĠ
i b
Ġ chuanĠtongĠ
aoĠ diĠ
huiĠ mianĠ
jiangĠ jieĠ
danĠ dangĠ
xuanĠ deĠ
tianĠ jinĠshiĠ
kongĠ deĠ
maiĠ jiaĠ
ĠsuĠ chengĠ
ĠĠĠ guoĠjiĠ
keĠ keĠ
zhuĠ duoĠ
faĠ lv
mingĠ eĠ
dongĠ buĠdeĠ
xinĠ chengĠ
tiĠ huanĠ
gaiĠ zhiĠ
yueĠ tanĠ
dangĠ paiĠ
huanĠ yingĠdeĠ
baoĠkuoĠ yiĠxiaĠ
ĠĠĠS t
ĠE STĠ
yuĠ202 3ĠnianĠ
renĠ daoĠ
li c
chuĠ guoĠ
jingĠ xiangĠ
zuoĠ paiĠ
daiĠ muĠ
guĠ yongĠ
moĠ tuoĠ
kouĠ haoĠ
kaĠ liĠ
ĠhouĠ youĠ
shengĠwuĠ xueĠ
ĠweiĠyuĠfaĠguoĠ aoĠ
M P
M S
c enĠ
xingĠ mingĠ
houĠ youĠ
huaĠ beiĠ
zheĠ changĠ
luĠ yinĠshiĠ
junĠ wangĠ
daiĠ shiĠ
zuiĠ zhongĠyaoĠdeĠ
huĠ tongĠ
ĠjiĠ qiĠ
puĠ saĠ
ceĠ huaĠ
Ġl engĠ
shuaiĠ jiaoĠ
ĠĠĠbenĠ shuĠ
chengĠduĠ shangĠ
changĠpianĠ gongĠsiĠ
jueĠduiĠ xingĠdengĠweiĠ
neiĠruiĠ laĠ
8 6
C T
a in
zhiĠ guanĠ
renĠ qunĠ
heĠ xiaoĠ
keĠ taĠ
quĠ yiĠyuanĠ
yaĠ erĠ
5Ġ mingĠ
Ġ5 ĠdiaoĠkuaiĠyiĠxiaoĠshiĠ
ĠE DTĠ
Ġ196 8ĠnianĠ
lianĠxuĠ juĠ
shaoĠshuĠ minĠzuĠ
banĠjiangĠ dianĠliĠ
ĠjiĠbeiĠmeiĠ dongĠbuĠshiĠquĠ
raoĠtaiĠyangĠgongĠ zhuanĠdeĠxiaoĠxingĠxingĠ
ĠshiĠyiĠkeĠweiĠ raoĠtaiĠyangĠgongĠzhuanĠdeĠxiaoĠxingĠxingĠ
3 ĠshiĠ
C DĠ
deĠ zuoĠpinĠ
ĠĠĠ baoĠ
leĠ yuĠ
guanĠ liĠdeĠ
laĠ muĠ
bianĠ jiangĠ
xuanĠ shiĠ
peiĠ jueĠ
ĠjieĠ fangĠ
xueĠyuanĠ deĠ
on d
xiaoĠxingĠxingĠdeĠ jueĠduiĠxingĠdengĠweiĠ
deĠ baoĠ
zaiĠ qianĠ
chengĠ zaiĠ
jianĠ jiaoĠ
fuĠ daĠxueĠ
ciĠ diĠ
yingĠ yangĠ
ĠshiĠ yingĠguoĠ
wenĠ zhongĠ
pingĠ anĠ
pingĠ renĠ
luoĠ menĠ
gaoĠ tieĠ
fanĠ sheĠ
haoĠ wuĠ
shuoĠ fuĠ
shiĠyiĠ yuanĠ
renĠweiĠ yuanĠ
ĠĠĠgaiĠ shuĠ
ac eb
ĠyunĠ dongĠ
Ġ000Ġ mingĠ
7 4
r aĠ
ĠĠĠ t
ĠĠĠ 3Ġ
keĠ chuanĠ
shuĠ mingĠ
tiĠ neiĠ
fengĠ fuĠdeĠ
canĠ yanĠ
ĠyinĠ niĠ
shiĠjieĠ yiĠchanĠ
nongĠ duĠ
Ġ5 0Ġ
baĠjiĠ siĠtanĠ
ĠshiĠxiaĠxiaĠdeĠyiĠgeĠ xiangĠzhenĠjiĠxingĠzhengĠdanĠweiĠ
ĠĠĠzheĠkeĠ xiaoĠxingĠxingĠdeĠjueĠduiĠxingĠdengĠweiĠ
shiĠ shouĠ
yiĠ liangĠ
ĠĠĠ shuiĠ
jiĠ shengĠ
xiangĠ jinĠ
chuĠ zhiĠ
jiaoĠ duoĠ
xinĠ cunĠ
minĠ yongĠ
suoĠ enĠ
ĠzaiĠ riĠbenĠ
douĠ keĠyiĠ
xingĠzhengĠ quĠyuĠ
ĠU Ġ
huĠbeiĠ shengĠ
7 ĠnianĠ10ĠyueĠ
N et
ĠĠĠ niĠ
ĠĠĠ haĠ
jiaĠ gongĠ
riĠ jianĠ
yeĠ yiĠ
pingĠ xingĠ
mianĠ 2Ġ
ĠweiĠ youĠ
moĠ teĠerĠ
taoĠ liĠ
8Ġ haoĠ
diĠyiĠ buĠ
ĠjiangĠ xiĠ
ĠjuĠ xingĠ
8 ĠnianĠ11ĠyueĠ
i re
aiĠ liĠsiĠ
zhiĠ jiaĠ
heĠ kouĠ
ziĠ fuĠ
zhengĠ liĠ
houĠ laiĠdeĠ
leĠ liangĠ
jiangĠ weiĠ
taiĠ shanĠ
lingĠ duiĠ
biaoĠ tiĠ
fanĠ rongĠ
naĠ poĠlunĠ
ĠjiĠ erĠ
baiĠ zhanĠtingĠ
deĠdiĠ diĠ
on eĠ
yiĠliĠ nuoĠ
8 3Ġ
ĠĠĠ banĠ
huiĠ jiaĠ
ciĠ tianĠtiĠ
suoĠ zhangĠ
ĠerĠ taĠ
2Ġ wanĠ
sunĠ haiĠ
zhaiĠ wuĠ
hangĠkongĠ muĠjianĠ
guangĠfanĠ deĠ
liĠ hunĠ
geĠ buĠ
geĠ zhouĠ
huiĠ shouĠ
haiĠ wanĠ
xunĠ yanĠ
ĠxiĠ zangĠ
waĠ laĠ
ar yĠĠĠ
ĠguanĠ zhiĠ
Ġ194 1ĠnianĠ
sangĠ shengĠ
Ġ193 5ĠnianĠ
dongĠshiĠ huiĠ
xianĠ beiĠ
jiaĠ daĠ
quĠ fuĠzeĠguanĠxiaĠ
zuoĠ chuĠleĠ
bingĠ faĠ
cheĠ xingĠ
ĠweiĠ zhuĠ
chuanĠ daoĠ
tingĠ boĠ
ĠnanĠ xingĠ
in u
ĠzhanĠ douĠ
zhuĠjiaoĠ zuoĠtangĠ
geĠyueĠ houĠ
yiĠsiĠlanĠ jiaoĠ
8 ĠyueĠ1ĠriĠ
a x
i sĠ
ĠĠĠ guanĠyuĠ
zhiĠ shouĠ
zhiĠ liĠyuĠ
youĠ ciĠ
jieĠ yiĠ
huiĠ quĠ
huiĠ daoĠzhiĠ
tongĠ kuĠ
ĠweiĠ nengĠ
ĠbingĠ xiangĠ
199 0ĠnianĠ
Ġ197 2ĠnianĠ
5 3
shiĠ duanĠ
daĠ junĠ
faĠ junĠ
gaiĠ diĠquĠ
pingĠ xianĠ
bingĠ qiĠ
ĠqiĠ yueĠ
zhuanĠ renĠ
lieĠ ningĠ
or eĠ
199 5ĠnianĠ
pingĠlunĠ jiaĠ
ĠĠ E
deĠ xiangĠ
ĠĠĠ Y
yuĠ taiĠ
heĠ daoĠ
xingĠ fuĠ
daĠ tingĠ
ĠshiĠ baĠ
baĠ niĠyaĠ
shuiĠ zhongĠ
ganĠ shiĠ
chenĠ keĠ
Ġ197 6ĠnianĠ
niuĠyueĠ zhouĠ
biĠliĠ niuĠ
A D
deĠ muĠ
jieĠ yanĠ
shuĠ xingĠ
xinĠ yongĠ
wenĠ dingĠdeĠ
zongĠ eĠweiĠ
ĠzheĠ xiangĠ
meiĠguoĠ haiĠjunĠ
ĠzhongĠ wenĠ
ĠjuĠ shuoĠ
ĠhuiĠ fuĠ
ĠlianĠ heĠguoĠ
jiĠnianĠ beiĠ
zaiĠ xiaoĠ
guoĠ zhongĠ
heĠ jianĠ
daĠ hanĠ
siĠ laĠ
faĠ guiĠ
fanĠ dianĠ
yunĠ songĠ
douĠ buĠ
nvĠ geĠshouĠ
ĠciĠ zhanĠ
deĠzhiĠ zuoĠ
ĠqingĠ huaĠ
6ĠyueĠ 30ĠriĠ
mingĠ shengĠ
yinĠ diĠanĠ
yueĠ keĠ
qingĠ daiĠ
zuiĠ haoĠdeĠ
ĠH Ġ
mieĠ wangĠ
jiĠ qiangĠ
xianĠ fengĠ
shuĠ linĠ
chuĠ zhongĠ
tongĠ yuĠ
guĠ geĠ
bingĠ yiĠ
tianĠ diĠ
haoĠ yuĠ
puĠ sheĠ
ĠzhongĠ shiĠyanĠ
gengĠ shiĠ
ĠwuĠ yueĠ
Ġ196 4ĠnianĠ
erĠ jieĠ
xiangĠ linĠ
zhengĠ zhaoĠ
houĠ buĠjiuĠ
shangĠ keĠ
ĠshiĠ miĠsiĠ
xiaoĠ daoĠ
lingĠ shouĠ
shanĠ poĠ
haoĠ zaiĠ
ĠbingĠ feiĠ
maoĠ deĠ
hunĠ ningĠtuĠ
ĠshouĠ xianĠ
jiangĠyuĠ liangĠ
9 6Ġ
deĠ biĠ
weiĠ ĠĠ
shangĠ yingĠdeĠ
yeĠ xianĠ
jiangĠ xianĠ
xiaĠ yuĠ
yongĠ yiĠ
bingĠ renĠ
sanĠ xingĠ
neiĠ waiĠ
ĠzhiĠ chengĠ
tangĠ chaoĠ
tuoĠ maĠsiĠ
ĠciĠ juĠ
ĠruĠ jinĠ
shiĠweiĠ zheĠ
199 1ĠnianĠ
yiĠweiĠ zheĠ
juĠxingĠ leĠ
Ġ195 9ĠnianĠ
gaoĠdengĠ jiaoĠyuĠ
4 9Ġ
ĠĠĠ duĠ
jiĠ dianĠ
renĠ xingĠ
gongĠ shuĠ
siĠ zhangĠ
jiaĠ youĠ
ĠshiĠ xianĠ
baoĠ heĠ
lianĠ boĠ
qiuĠ fanĠ
baĠ gongĠ
cheĠ shouĠ
chuanĠ shangĠ
guangĠ zhouĠshiĠ
rongĠ huoĠ
ningĠ boĠ
ĠxiaoĠ shiĠ
ĠĠĠC h
shouĠshiĠ lvĠ
ĠtunĠ qiĠ
taĠniĠ daĠquĠ
7 ĠnianĠ11ĠyueĠ
Ġ i
guoĠ waiĠ
qiĠ xianĠ
li aĠ
xiangĠ fanĠ
shouĠ yaoĠ
jiangĠ yiĠ
zhangĠ ĠĠ
p er
Ġ kuaĠ
ĠĠĠ zhanĠhouĠ
zhiĠ 196
xiĠ luĠ
20 ĠwanĠ
huaĠ dongĠ
ciĠ juĠ
ĠshiĠ houĠ
duĠ heĠ
yueĠ 1
minĠ ganĠ
zhuanĠ yuanĠ
huanĠ guanĠ
mengĠ xiangĠ
ĠgaiĠ nianĠ
ĠbuĠ shaoĠ
buĠfenĠ diĠquĠ
yiĠzhiĠ shiĠ
shiĠjiĠ yuĠ
ĠmaĠ dingĠ
ĠyunĠ xuĠ
gongĠbuĠ weiĠ
shiĠchuĠ shenĠ
ĠĠĠ suĠ
liĠ muĠ
daĠ zaoĠ
fenĠ huaĠ
fenĠ nuĠ
nanĠ xiaĠ
deĠyiĠ changĠ
kongĠ tiaoĠ
zhuiĠ jiĠ
ĠA r
ĠnianĠ10 ĠyueĠ1ĠriĠ
Ġ194 2ĠnianĠ
Ġ zhunĠbeiĠ
wuĠ jieĠ
shangĠ diĠ
fenĠ bianĠ
shuiĠ jingĠ
1Ġ wanĠ
ĠbeiĠ erĠ
Ġ zuoĠpinĠ
ĠĠĠ yinĠweiĠ
ziĠ zhuanĠ
banĠ qiuĠ
tangĠ deĠ
baĠshiĠ luĠxianĠ
Ġ20 ĠshiĠjiĠ
9 2Ġ
9 ĠyueĠ1ĠriĠ
shiĠ yuanĠ
ĠĠĠ weiĠyuĠ
ĠĠĠ waiĠbuĠlianĠjieĠ
zhongĠ buĠshiĠquĠ
er ĠyeĠ
ciĠ qianĠ
guanĠ xianĠ
xiaĠ lieĠ
fanĠ erĠ
ĠzhongĠ xinĠ
zhengĠfuĠ zaiĠ
ĠjieĠ zhuĠ
nuoĠ beiĠerĠ
zhuĠyaoĠ youĠ
Ġ194 4ĠnianĠ
9 7
Ġ xĠ
ĠĠĠ Ð
ĠĠĠ tongĠnianĠ
yuĠ fuĠ
liĠ jingĠ
renĠ wenĠ
xingĠ geĠ
jieĠ xiĠ
ĠyiĠ zuoĠ
shenĠ shouĠ
moĠ teĠ
ĠdanĠ houĠlaiĠ
shaĠ laĠ
ĠyingĠ pianĠ
yinĠyueĠ huiĠ
ĠfaĠ buĠ
Ġ197 3ĠnianĠ
fenĠbieĠ shiĠ
ĠguiĠ dingĠ
8 0ĠnianĠ
keĠ zhiĠ
yeĠ cengĠ
qianĠ fengĠ
zhenĠ xingĠ
ĠbiĠ 2Ġ
ĠC STĠ
ĠC DTĠ
Ġ6 ĠdiaoĠkuaiĠyiĠxiaoĠshiĠ
Ġ195 3ĠnianĠ
weiĠfuĠ shuĠjiĠ
jieĠquanĠguoĠ zhengĠxieĠweiĠyuanĠ
ĠjiĠbeiĠmeiĠ zhongĠbuĠshiĠquĠ
a taĠ
ĠĠĠ biĠsaiĠ
beiĠ duanĠ
quĠ xianĠ
junĠ zhiĠ
jiuĠ zhouĠ
yanĠhaiĠ shengĠfenĠ
A ĠdeĠ
ĠĠĠ shiĠjianĠ
youĠ shengĠ
daoĠ diĠ
taiĠ renĠ
zuĠ zongĠ
teĠ shuĠdeĠ
fanĠ chouĠ
paiĠ duiĠ
ĠxiangĠ biĠ
deĠxiaoĠ xiĠ
banĠgongĠ tingĠ
deĠ guanĠxiĠ
ĠĠĠ teĠzhengĠ
beiĠ qiĠ
fenĠ dianĠ
zuĠ zhangĠ
kaiĠ qiĠ
duoĠ lunĠduoĠ
bianĠ fuĠ
touĠ yingĠ
deĠshiĠ qiĠ
kanĠ deĠ
ĠliangĠ zheĠ
ĠjiuĠ yueĠ
Ġ197 4ĠnianĠ
deĠdaĠ xingĠ
ĠtangĠ chaoĠ
es s
es tĠĠĠ
reĠdaiĠ diĠqiĠyaĠ
o ni
zhiĠ guĠ
guoĠ zhiĠ
zhengĠ jiuĠ
riĠ shengĠ
yingĠ diĠ
junĠ heĠ
junĠ zhangĠ
duiĠ yiĠ
muĠ banĠ
wangĠ zhiĠ
suoĠ zuoĠ
miĠ jiĠ
maĠ piĠ
linĠ naĠ
liĠshiĠ jianĠzhuĠ
daĠxueĠ shengĠ
ĠyeĠ chengĠ
ĠfuĠ lanĠ
xiangĠgangĠ deĠ
ĠbaoĠ luoĠ
ĠtaiĠ yangĠ
ĠĠĠyiĠ xieĠ
ĠĠĠ199 9ĠnianĠ
nuoĠmanĠ diĠ
3 ĠzhiĠ
I R
c odiceĠ
ĠĠĠ huĠ
xiĠ aiĠ
jianĠ shuĠ
beiĠ renĠ
houĠ yuĠ
yunĠ zaiĠ
guangĠ dianĠ
diĠyiĠ piĠ
ĠzhuĠ youĠ
mouĠ geĠ
2019 ĠguanĠzhuangĠbingĠduĠbingĠ
u st
zhengĠ shiĠqiĠ
quĠ chuĠ
shouĠ huoĠ
benĠ jieĠ
touĠ mingĠ
3Ġ gongĠliĠ
tongĠguoĠ leĠ
ĠdaoĠ guangĠ
Ġ16 0
yuĠ202 2ĠnianĠ
1 ĠdeĠ
gongĠ wuĠyuanĠ
quĠ jiĠ
ciĠ yiĠ
yingĠ jieĠ
jiangĠ heĠ
taiĠ yinĠ
taiĠ zongĠ
daiĠ zhuĠ
wanĠ daoĠ
shanĠ guĠ
zhaoĠ jiĠ
bangĠ danĠ
ĠhuoĠ deĠyiĠmeiĠ
caoĠ anĠ
deĠguoĠ chengĠzhongĠ
Ġ197 7ĠnianĠ
guoĠhuiĠ yiĠyuanĠ
yiĠwaiĠ deĠ
lvĠkeĠ tieĠdaoĠ
zongĠyiĠ jieĠmuĠ
shiĠ fuĠ
weiĠ duiĠ
daĠ gangĠ
chuĠ beiĠ
xiaĠ weiĠyiĠ
baĠ mianĠ
chaĠ bieĠ
ĠjinĠ erĠ
quĠdeĠ fuĠzeĠguanĠxiaĠ
chuĠliĠ qiĠ
waiĠjiaoĠ guanĠ
baoĠhanĠ leĠ
o th
weiĠ zhongĠ
xianĠ liĠ
ziĠ keĠ
shuĠ renĠ
shangĠ cengĠ
luĠ zhanĠduiĠ
baoĠ dongĠ
laiĠ yuanĠyuĠ
yueĠ seĠfuĠ
luoĠ yangĠ
feiĠ yiĠ
ĠzhuĠ zhangĠ
on eĠĠĠ
zhanĠzhengĠ deĠ
Ġ Ù
liangĠ qiĠ
shenĠ chuĠ
zhuanĠ anĠ
ĠjinĠ riĠ
ĠsiĠ yueĠ
xiĠtongĠ zhongĠ
zhiĠqianĠ deĠ
buĠ liaoĠ
juĠ huiĠ
guanĠ yinĠ
xiaoĠ haoĠ
shaoĠ deĠ
ĠfuĠ luoĠ
7Ġ gongĠliĠ
saĠ moĠ
11 0Ġ
Ġ6 0
ĠchongĠ qingĠ
ĠaĠerĠbeiĠ siĠ
yiĠ pianĠ
nianĠ jiĠ
buĠ danĠ
gongĠ jianĠ
xiangĠ heĠ
suoĠ duanĠ
baĠ saiĠerĠ
tuĠ luĠ
fengĠ tianĠ
hanĠ baoĠ
ĠbaĠ xiĠ
ĠsanĠ shiĠ
chuĠshengĠ zaiĠ
ĠqiaoĠ zhiĠ
6 0ĠnianĠ
shiĠ yinĠweiĠ
deĠ jinĠ
ĠĠĠ zhenĠ
zhiĠ caiĠ
yuĠ wuĠ
geĠ guoĠjiaĠ
huiĠ laiĠ
leĠ zaiĠ
xinĠ xianĠ
xinĠ liĠxueĠ
boĠ jiĠ
zongĠ zhangĠ
puĠ senĠ
ĠjuĠ tiĠ
ĠshouĠ luĠ
ĠbenĠ jieĠ
ĠL Ġ
Ġ zaoĠqiĠ
shiĠ suĠ
shenĠ yuanĠ
zuiĠ mingĠ
ĠzaiĠ zhongĠ
ĠqiĠ chuĠ
ĠjiĠ weiĠ
teĠbieĠ xingĠzhengĠquĠ
Ġ197 1ĠnianĠ
jingĠwaiĠ shuĠruĠ
T E
c uanĠ
ĠĠĠ ruĠguoĠ
diĠ buĠ
siĠ quĠ
zhuĠ gongĠ
daoĠ taĠ
zhengĠ jiĠ
jingĠ yiĠ
mingĠ niĠsuĠ
yaoĠ shiĠ
ĠhouĠ yinĠ
ĠguoĠ wangĠ
ic ros
eĠhaiĠeĠ zhouĠ
diĠ ziĠ
keĠ ĠĠ
tongĠ qiĠ
meiĠ xiaoĠshiĠ
ĠyiĠ gongĠ
lingĠ muĠ
guĠ xiĠlaĠ
saiĠ maĠ
feiĠ qiĠ
zongĠ tiĠ
ĠdanĠ beiĠ
ĠyeĠ chengĠweiĠ
baoĠhuĠ quĠ
Ġ195 1ĠnianĠ
198 8ĠnianĠ
yuĠ202 4ĠnianĠ
yuĠ18 9
A G
I nter
faĠ yinĠ
jiuĠ yiĠjingĠ
qingĠ haiĠ
guĠ piaoĠ
kongĠ juĠ
yiĠgeĠ renĠ
tanĠ huaĠ
langĠ manĠ
Ġ193 3ĠnianĠ
ĠN Ġ
aĠjiĠ tanĠ
6 ĠyueĠ1ĠriĠ
6 ĠnianĠ11ĠyueĠ
g nĠ
Ġ rengĠranĠ
anĠ dongĠniĠ
aĠ buĠ
jiĠ wuĠ
jinĠ zhuĠ
meiĠ laĠ
quanĠ xinĠ
sanĠ xiangĠ
ĠjiĠ nianĠ
kangĠ zhanĠ
ĠwuĠ xianĠ
zhiĠzaoĠ shangĠ
xiangĠdangĠ yuĠ
ĠbeiĠqiĠ shunĠshiĠzhenĠ
sanĠjiaoĠ xingĠ
3 ĠnianĠ1
8 3ĠnianĠ
P h
i ni
eĠ tuĠ
aiĠ naĠshengĠ
ĠĠĠ houĠlaiĠ
er ĠyinĠ
beiĠ zhanĠ
yingĠ shuĠ
daiĠ erĠ
ĠyiĠ siĠ
caiĠ fuĠ
guiĠ dianĠcheĠ
nvĠ youĠ
or eĠĠĠ
ĠbaoĠ huĠ
ĠgongĠ gongĠ
ĠshengĠ chanĠ
ĠshiĠyiĠ jiaĠ
xueĠxiaoĠ deĠ
binĠ shiĠ
ri s
Ġ193 0ĠnianĠ
naĠcuiĠ deĠguoĠ
5 2
e or
deĠ chuanĠ
youĠ baoĠ
erĠ zhiĠ
xiĠ fuĠ
houĠ shiĠ
jiaoĠ wangĠ
yanĠ huĠ
tianĠ qiaoĠ
tuĠ xiĠ
canĠ zhengĠ
gouĠ ruĠ
longĠ leiĠ
hunĠ liĠ
zhongĠyangĠ weiĠyuanĠhuiĠ
jiĠhuaĠ heĠwuĠ
ĠfeiĠ changĠ
ĠpingĠ lunĠ
ow Ġ
yuĠ200 8ĠnianĠ
ziĠgeĠ saiĠ
Ä ģ
anĠ niĠ
ĠĠĠ xuĠ
heĠ zaiĠ
siĠ junĠ
fangĠ yiĠ
xiaoĠ youĠ
yongĠ kangĠ
ĠyiĠ jiaĠ
shenĠ xueĠ
wanĠ liĠ
lianĠ shuĠ
quanĠ shengĠ
teĠ dingĠdeĠ
buĠfenĠ deĠ
laoĠ banĠ
ĠliangĠ guoĠ
S O
chuĠ quĠ
xiaoĠ shiĠdeĠ
muĠ houĠ
lingĠ xingĠ
chengĠweiĠ yiĠgeĠ
deĠshiĠ shiĠ
ĠdaĠ weiĠ
kanĠ jianĠ
shuaiĠ xianĠ
jueĠsaiĠ zhongĠ
5 ĠzhiĠ
5 ĠnianĠ1
Y Ġ
Ġ zunĠ
ĠĠĠ X
ĠĠĠ faĠzhanĠ
zhiĠ renĠ
zhongĠ huiĠ
jiaĠ reĠ
riĠ erĠmanĠ
suoĠ muĠ
boĠ kuanĠ
gangĠ deĠ
ĠdaĠ liangĠ
ĠgongĠ yeĠ
ĠmeiĠ riĠ
ĠfenĠ weiĠ
yingĠguoĠ deĠ
ĠguĠ ciĠ
tieĠluĠ juĠ
20ĠnianĠ daiĠ
ĠI Ġ
zuiĠhouĠ yiĠgeĠ
ĠĠĠ laiĠ
ĠĠĠ guangĠxuĠ
gongĠ keĠ
fuĠ shuĠjiĠ
nanĠ yanĠyuanĠ
canĠ jiĠrenĠ
8Ġ gongĠliĠ
an n
10Ġ geĠ
ĠtiĠ yuĠ
zhongĠguoĠdeĠ teĠyouĠ
liaoĠningĠ shengĠ
t yĠ
ĠĠ W
geĠ luoĠ
shengĠ qianĠ
jiaĠ qiĠ
shouĠ jieĠ
yanĠ bianĠ
fenĠ juĠ
jiangĠ gaiĠ
gouĠ deĠ
Ġ2 ĠyueĠ
Ġ194 3ĠnianĠ
ĠmianĠ dianĠ
faĠlanĠxiĠ daĠquĠ
6 ĠnianĠ1
yiĠ bianĠ
guoĠ xiaoĠ
xiĠ suĠ
shengĠ diĠ
zhuĠ muĠ
zhanĠ biĠ
ĠtaĠ congĠ
zongĠ gongĠ
cheĠ chuĠ
caiĠ jiĠ
hongĠ shiĠziĠ
ĠwuĠ hanĠ
naiĠ erĠ
6 3
U R
e eĠ
zhiĠ pinĠ
liĠ shiĠdeĠ
jianĠ juĠ
jinĠ menĠ
yeĠ naĠ
ĠyouĠ jiĠ
linĠ yuĠ
chuanĠ zhuĠ
hanĠ liangĠ
ĠerĠ qiĠ
touĠ yuĠ
shaoĠ weiĠ
ĠxiaĠ wuĠ
Ġ193 6ĠnianĠ
1 ĠnianĠ1
B CĠ
S M
b eg
yiĠ zhanĠ
liĠ wenĠ
jianĠ ruoĠ
fuĠ zongĠtongĠ
keĠ yanĠ
liuĠ wangĠ
boĠ genĠdiĠ
fanĠ xiangĠ
xiuĠ shiĠ
ĠG Ġ
ĠqiĠxiĠ zaiĠdiĠ
icros of
a tĠ
yiĠ lanĠ
buĠ langĠ
gongĠ buĠdeĠ
daĠ jiangĠjunĠ
siĠ miaoĠ
jiuĠ keĠyiĠ
banĠ dianĠ
quanĠ zhouĠ
ĠtaĠ chengĠweiĠ
zeĠ yuĠ
shiĠyiĠ laiĠ
bieĠ shuĠ
saĠ keĠsiĠtanĠ
diĠerĠ geĠ
ziĠyouĠ dangĠ
ĠlianĠ xuĠ
Ġ15 0
xingĠchengĠ leĠ
yuĠ200 7ĠnianĠ
anĠ fuĠ
ĠĠĠ yangĠ
buĠ beiĠ
ziĠ zaiĠ
jingĠ heĠ
houĠ caiĠ
yingĠ huaĠ
boĠ yingĠ
deĠyiĠ jiĠ
rongĠ yeĠ
ĠtongĠ zhiĠ
6Ġ haoĠ
tuoĠ erĠ
ĠqiĠzhongĠ youĠ
ĠjiangĠ shuĠ
ĠfenĠ lanĠ
deĠheĠ xinĠ
siĠlingĠ yuanĠ
faĠxianĠleĠ ciĠtianĠtiĠ
qingĠhuaĠ daĠxueĠ
deĠ leiĠ
diĠ haiĠ
diĠ shiĠyiĠ
buĠ keĠnengĠ
chengĠ menĠ
fuĠ yuanĠ
jinĠ laiĠ
xueĠ heĠ
junĠ zhengĠ
lianĠ aiĠ
xunĠ deĠ
ar eĠĠĠ
ĠzongĠ jiaoĠ
guanĠxiĠ deĠ
ĠbenĠ mingĠ
inĠĠĠ theĠĠĠ
bengĠ kuiĠ
dianĠqiĠ huaĠ
gongĠ pingĠ
juĠ mianĠ
shangĠ huiĠ
xinĠ xinĠ
gengĠ mingĠ
kanĠ dengĠ
ĠzhuĠ tiĠ
ĠxianĠ yiĠ
zuoĠpinĠ zhongĠ
ĠmoĠ xiĠgeĠ
yinĠduĠ niĠxiĠyaĠ
fengĠgeĠ deĠ
9 4
i li
l l
buĠ yaĠ
fuĠ feiĠ
xianĠ dingĠ
wuĠ heĠ
jieĠ daiĠ
faĠ zhiĠ
faĠ zhongĠ
shouĠ yingĠ
duĠ chaĠ
kaiĠ piĠ
guĠ siĠ
benĠ zuoĠ
liuĠ jingĠ
huanĠ deĠ
ĠbuĠ shiĠ
âĢ ĭ
ĠxiangĠ dangĠyuĠ
15 0
ĠĠĠ194 5ĠnianĠ
youĠ yuanĠ
buĠ huoĠ
shengĠ qiĠ
sheĠ xiangĠ
dianĠ tiĠ
gaiĠ xiaoĠ
teĠ heĠ
Ġ1 2
ĠbuĠ langĠ
ĠxiĠ baoĠ
caoĠ yuanĠ
ĠjingĠ neiĠ
deĠshengĠ yinĠ
keĠjiĠ daĠxueĠ
kangĠriĠ zhanĠzhengĠ
saiĠbaiĠ jiangĠ
a teĠĠĠ
f li
anĠ shaĠ
yiĠ kaiĠshiĠ
liĠ yuanĠ
diĠ keĠ
shengĠ yuanĠ
zhuĠ zhaĠ
ciĠ zhanĠ
fanĠ paiĠ
dengĠ shiĠ
saĠ lengĠ
ĠfanĠ erĠ
jianĠdanĠ deĠ
zhanĠlieĠ jianĠ
C P
Ġ v
ĠĠĠ huiĠ
ĠĠĠ songĠ
xiĠ diĠ
jieĠ kouĠ
zuoĠ ciĠ
yeĠ tiĠ
sheĠ tuanĠ
zhangĠ shiĠjianĠ
pingĠ shiĠ
biĠ siĠ
danĠ niĠ
ĠqiĠ xiaĠ
deĠyiĠ banĠ
ĠjiĠ luĠ
tuoĠ leiĠ
deĠdiĠ tieĠ
sunĠ huaiĠ
paoĠ taĠ
199 3ĠnianĠ
inc lu
9 2
er n
chengĠ faĠ
yanĠ qiĠ
pingĠ pangĠ
mianĠ yuĠ
shuiĠ weiĠ
ĠboĠ shiĠ
197 2ĠnianĠ
jiaoĠhuiĠ chuĠ
renĠkouĠshuĠliangĠ weiĠ
touĠruĠ shiĠyongĠ
D R
aĠ boĠ
zhiĠ paiĠ
xianĠ chuĠ
xianĠ quĠ
jinĠ xiuĠ
huaĠ feiĠ
yeĠ keĠ
junĠ fuĠ
wanĠ zaiĠ
luoĠ naĠ
fanĠ diĠ
fengĠ mingĠ
ĠbingĠ duiĠ
moĠ liĠ
caiĠ shiĠ
deĠyiĠ siĠ
ĠdiĠ wuĠ
keĠyiĠ yongĠ
qiaoĠ chuĠ
henĠ nanĠ
ĠsuiĠ jiĠ
daoĠzhiĠ leĠ
Ġ196 2ĠnianĠ
nianĠqingĠ deĠ
1 ĠshiĠ
4 ĠzhiĠ
6 ĠĠĠ
l yĠĠĠ
qiĠ tuĠ
buĠ ganĠ
jieĠ touĠ
dianĠ xingĠ
suoĠ jianĠ
teĠ weiĠ
fanĠ chuanĠ
ĠdanĠ yinĠweiĠ
caiĠ naĠ
baiĠ eĠluoĠsiĠ
ĠjinĠ ciĠyuĠ
keĠyiĠ shiĠ
ĠdongĠ fangĠ
ĠshengĠ yaĠ
chengĠyuanĠ guoĠ
ĠshiĠjiĠ moĠ
Ġ196 1ĠnianĠ
Ġ196 9ĠnianĠ
9 ĠnianĠ12ĠyueĠ
Z Ġ
jiĠ zuĠ
zhiĠ anĠ
zhiĠ lingĠ
zhiĠ biĠ
zhongĠ xiaoĠ
zhuĠ sheĠ
ciĠ ziĠ
guanĠ muĠ
yinĠ cangĠ
daiĠ zheĠ
minĠ zhengĠ
paiĠ wangĠ
huangĠ heĠ
ĠbuĠ diĠ
xiongĠ zhangĠ
youĠyiĠ dingĠ
dongĠbuĠ daĠquĠ
Ġ192 7ĠnianĠ
fuĠluoĠliĠdaĠ zhouĠ
jiĠ luoĠ
jiĠ liĠyaĠ
zhiĠ xiĠ
heĠ zhongĠguoĠ
shangĠ faĠlanĠxiĠdaĠquĠ
yinĠ youĠ
ĠyiĠ renĠ
ĠyiĠ shuoĠ
biaoĠ zhangĠ
dangĠ neiĠ
ĠzhiĠ ciĠ
ĠjinĠ tianĠ
cangĠ kuĠ
Ġ196 5ĠnianĠ
faĠdianĠ changĠ
ĠliaoĠ ningĠ
Ġ nieĠ
xiangĠ wangĠ
jingĠ chengĠ
kaiĠ xingĠ
liuĠ fangĠ
ĠzaiĠ gaiĠ
baĠ leiĠ
shuiĠ xianĠ
puĠ erĠ
ĠzheĠ changĠ
ĠciĠ qianĠ
ruiĠ keĠ
ĠxiaĠ xiaĠ
deĠliĠ liangĠ
jiĠzhongĠ zaiĠ
rouĠ shiĠxingĠ
chaiĠyouĠjiĠ cheĠ
ĠaĠlaĠ boĠ
5 8ĠnianĠ
9 3Ġ
eĠ junĠ
ĠĠĠ 14
chuĠ fangĠ
shangĠ kongĠ
dongĠ fengĠ
taiĠ heĠ
zuiĠ juĠ
zeĠ renĠweiĠ
deĠyiĠ suoĠ
qiangĠ poĠ
xiuĠ siĠ
6Ġ mingĠ
kaiĠshiĠ leĠ
paĠ erĠ
ĠgaoĠ xiongĠ
weiĠjiĠ baiĠkeĠ
50Ġ wanĠ
ĠĠĠ199 7ĠnianĠ
huangĠjiaĠ haiĠjunĠ
NB A
shouĠhaiĠ zheĠ
C R
y leĠ
Ġ nongĠyeĠ
buĠ qiĠ
geĠ youĠ
xiaoĠ zhenĠ
haiĠ yaoĠ
qingĠ fuĠ
ĠyiĠ yuĠ
luoĠ erĠ
jueĠ xinĠ
lunĠ shuĠ
huanĠ youĠ
pinĠ qingĠ
gengĠ haoĠ
ĠdiĠ shiĠ
ĠgeĠ renĠ
in eĠĠĠ
jueĠseĠ deĠ
yuĠ200 6ĠnianĠ
jiĠ yuanĠ
juĠ ziĠ
yongĠ diĠ
muĠ biaoĠshiĠ
qingĠ xieĠ
chuanĠ foĠjiaoĠ
ĠyuĠ qiĠ
chongĠ fengĠ
tangĠ naĠ
ĠzhuĠ jianĠ
ĠĠĠ199 8ĠnianĠ
gaoĠdengĠ xueĠxiaoĠ
6 ĠshiĠ
weiĠ laĠ
zhiĠ 195
jianĠ mianĠ
jiaĠ naĠ
jinĠ leĠ
duiĠ liĠ
dianĠ liĠjiĠ
haiĠ baoĠ
teĠ zhongĠ
niĠ aoĠ
xunĠhuiĠ yanĠchangĠhuiĠ
9 8Ġ
I D
yuĠ diĠ
buĠ dongĠ
fuĠ laĠ
keĠ lunĠ
jinĠ qiĠ
tongĠ hangĠ
daiĠ zhiĠ
xieĠ genĠ
maĠ luĠ
paiĠ xuĠ
suiĠ pianĠ
chongĠ xiuĠ
huangĠ puĠ
zhengĠzhiĠ buĠ
miaoĠ zhunĠ
ĠshengĠ renĠ
chouĠ keĠ
luoĠmaĠ tianĠzhuĠjiaoĠ
youĠguanĠ deĠ
ĠmaoĠ zeĠdongĠ
5 6ĠnianĠ
a teĠ
a il
heĠ yuanĠ
jingĠ jieĠ
duĠ xingĠ
baoĠ leiĠ
sanĠ cengĠ
baĠ baĠ
tingĠ liuĠ
zhaoĠ huiĠ
ĠgaiĠ wuĠzhongĠdeĠ
ĠliĠ miĠ
poĠ haiĠ
ĠxinĠ jiangĠ
ol og
50Ġ miĠ
xiangĠ taĠ
liangĠ duanĠ
dingĠ lvĠ
baiĠ huoĠ
ĠxiĠ linĠ
heiĠ anĠ
xiangĠmuĠ deĠ
Ġ195 7ĠnianĠ
zongĠjiaoĠ quĠ
6 00Ġ
o x
er ĠyangĠhuaĠ
gongĠ guĠ
fuĠ shangĠ
quĠ zhiĠ
shouĠ changĠ
xinĠ huaĠ
nanĠ yangĠ
jueĠ weiĠ
ĠzhiĠ jingĠ
rongĠ jiĠ
ĠdouĠ shiĠ
A V
liĠ nuoĠ
xiĠ yiĠ
ĠshiĠ xingĠ
kuangĠ wuĠ
10Ġ wanĠ
saĠkeĠ senĠ
3 ĠnianĠ11
Ġ piĠpingĠ
zhiĠ faĠ
erĠ youĠ
zhuĠ biĠ
juĠ weiĠ
luĠ xingĠmuĠ
biĠ liĠyaĠ
fengĠ huangĠ
ĠdanĠ yiĠ
ĠdanĠ youĠ
ĠjiĠ zheĠ
1Ġ haoĠxianĠ
yingĠxiangĠ deĠ
Ġ196 7ĠnianĠ
Ġ20 20
aĠ lieĠ
weiĠ guoĠ
chengĠ heĠ
jieĠ beiĠ
zhuĠ boĠ
huaĠ yiĠ
dingĠ shiĠ
zhuanĠ touĠ
guangĠ xianĠ
puĠ linĠ
panĠ chuĠ
7Ġ haoĠ
zhiĠyiĠ deĠ
zuoĠpinĠ deĠ
ĠyongĠ huĠ
Ġ193 1ĠnianĠ
le sĠĠĠ
9 1Ġ
geĠ teĠ
shengĠ fuĠzeĠguanĠxiaĠ
duiĠ gaiĠ
qingĠ shuiĠ
laĠ liĠ
ĠdanĠ yuĠ
chuanĠ ruĠ
ĠbiĠyeĠ houĠ
T heĠĠĠ
U C
Ġ XĠ
ĠĠĠ faĠxingĠ
shuĠ jiaĠ
taĠ youĠ
ciĠ changĠ
muĠ luĠ
nanĠ xiĠ
zuĠ yuĠ
qingĠ yiĠ
ĠyiĠ danĠ
ĠyiĠ langĠ
maĠ deĠliĠ
duoĠ daĠ
dengĠ baoĠ
baĠ naĠ
fengĠ shanĠ
niĠ guĠlaĠ
ĠjiĠ changĠ
zhaoĠ shiĠ
ĠbuĠ jinĠ
an c
dianĠyingĠ deĠ
Ġ4 0Ġ
ĠĠĠyiĠ banĠ
suĠliĠ zhouĠ
oog leĠ
3 ĠyueĠ1ĠriĠ
Ġ xuanĠjuĠ
Ġ si
buĠ xiĠ
jieĠ zhuĠ
faĠ renĠ
xueĠ yanĠjiuĠ
zheĠ leiĠ
qingĠ jingĠ
benĠ jiĠ
huĠ liĠ
huĠ hangĠ
5Ġ suiĠ
xianĠdeĠ chengĠshiĠ
ĠwanĠ quanĠ
9 4Ġ
zhanĠ siĠ
yanĠ chiĠ
zhangĠ laoĠ
yaĠ zhongĠ
zuiĠ zhangĠ
tianĠ zhuĠ
poĠ chanĠ
ĠdaĠ xingĠ
saĠ deĠ
ningĠ xianĠ
liuĠxingĠ yinĠyueĠ
jiaoĠchaĠ kouĠ
2 ĠnianĠ1
8 0ĠnianĠdaiĠ
Ġ chuangĠzuoĠ
deĠ chuĠ
yiĠ ziĠ
ĠĠĠ v
ĠĠĠ sheĠ
weiĠ teĠ
fuĠ daoĠ
jieĠ cengĠ
jingĠ xianĠ
zhanĠ heĠ
taiĠ leiĠ
biĠ huĠ
yaoĠ saiĠ
fanĠ xinĠ
jueĠ zhuĠ
ĠzhengĠ yueĠ
diĠguoĠ deĠ
Ġ192 8ĠnianĠ
kaĠsiĠ diĠliĠyaĠ
G C
nianĠ qianĠ
qiĠ xiaĠdeĠ
chengĠ qiĠ
zhengĠ shiĠdeĠ
meiĠ kuangĠ
ĠshiĠ quĠ
ĠshiĠ jingĠ
junĠ zhongĠ
sheĠ zhiĠdeĠ
wanĠ huiĠ
dangĠ buĠ
caiĠ jueĠ
ĠrenĠ wuĠ
shiĠyiĠ jingĠ
kanĠ wuĠ
daiĠbiaoĠ duiĠ
ĠyongĠ laiĠ
ĠaoĠ siĠ
Ġ8 0
weiĠyeĠ naĠ
F C
weiĠ raoĠ
zaiĠ yuanĠ
er v
beiĠ shouĠ
ciĠ zhongĠ
zheĠ zuoĠ
douĠ nengĠ
geiĠ chuĠ
geiĠ shiĠzhongĠ
ĠboĠ liĠ
Ġg uaĠ
ĠqiĠxiĠ shenĠduĠ
fuĠzaĠ deĠ
feiĠliĠ puĠ
N AĠ
b yĠĠĠ
c on
liĠ yueĠ
renĠ neiĠ
gongĠ yongĠ
huaĠ banĠ
jiuĠ jinĠshanĠ
boĠ xiĠ
202 6ĠnianĠ
kuaiĠ deĠ
baoĠkuoĠ leĠ
ĠS p
ĠwangĠ luoĠ
ro w
kunĠ mingĠ
faĠbiaoĠ deĠ
9 7Ġ
S c
ĠĠĠ shuĠ
zhiĠ shengĠjiĠ
youĠ heĠ
chengĠ yuĠ
fuĠ keĠ
mingĠ lieĠ
sanĠ haoĠ
yunĠ deĠ
niĠ riĠ
guangĠ yiĠ
3Ġ wanĠ
tuiĠ chiĠ
diĠyiĠ mingĠ
ĠbiĠ 0Ġ
jiĠtuanĠ youĠxianĠgongĠsiĠ
zunĠ shouĠ
moĠshiĠ chanĠ
ĠĠĠzaoĠnianĠ shengĠhuoĠ
ĠsectionĠĠĠ beg
ĠsectionĠĠĠbeg inĠ
ĠĠĠ 4Ġ
diĠ chuĠ
jieĠ fuĠ
luĠ erĠ
xiaoĠ chuĠ
zuĠ jiĠ
zhenĠ zhengĠdeĠ
maĠ saĠ
tingĠ huoĠ
shuangĠ chongĠ
zouĠ langĠ
faĠshengĠ houĠ
Ġ196 3ĠnianĠ
ĠxuĠ liĠyaĠ
miĠniĠ zhuanĠjiĠ
s ĠdeĠ
Ġ á
eĠ erĠ
ĠĠĠ mengĠ
ĠĠĠ xuĠduoĠ
zhiĠ siĠ
heĠ xiangĠ
buĠ xuĠyaoĠ
fuĠ gangĠ
xiaĠ shuiĠ
zhenĠ dongĠ
menĠ shiĠ
ĠqiĠ yeĠ
2Ġ gongĠliĠ
diĠyiĠ jiĠ
ti on
xuanĠbuĠ jiangĠ
ĠtuĠ erĠqiĠ
ĠdaiĠmaĠweiĠ 0
o st
Ġ ruiĠshiĠ
yiĠ fanĠ
weiĠ xiĠ
yuĠ tiĠ
keĠ renĠ
jieĠ zaiĠ
huaĠ wenĠ
zheĠ xueĠjiaĠ
changĠ shuĠ
ĠshiĠ geĠ
jiuĠ ciĠ
gaoĠ wenĠ
kouĠ anĠ
ĠrenĠ zhongĠgongĠ
ĠweiĠyuĠ zhongĠhuaĠrenĠminĠgongĠheĠguoĠ
chunĠ jiĠ
diĠerĠ lunĠ
daĠdaoĠ leĠ
ĠĠĠ199 4ĠnianĠ
197 6ĠnianĠ
ĠÃ ©Ġ
roun dĠ
7 0ĠnianĠ
shiĠ duiĠ
youĠ quanĠ
keĠ muĠ
shangĠ suoĠ
luĠ biĠ
kaiĠ guanĠ
miĠ maĠ
moĠ duanĠ
louĠ deĠ
zhengĠshiĠ chengĠliĠ
ĠnanĠ feiĠ
youĠyiĠ tiaoĠ
leĠyiĠ changĠ
ĠyinĠweiĠ taĠmenĠ
ĠtuĠ jingĠ
4 ĠnianĠ1
Ġ ch
zhiĠ jiuĠ
fuĠ yangĠ
xianĠ jingĠ
shengĠ zhengĠfuĠ
jiaĠ jingĠ
jinĠ saiĠ
juĠ tuanĠ
zheĠ duanĠ
taiĠ shangĠ
qingĠ liĠ
pingĠ fenĠ
shenĠ miaoĠ
kaiĠ chuangĠ
huanĠ yuanĠ
ganĠ junĠ
deĠshiĠ daiĠ
ĠbuĠ lunĠ
yiĠzhiĠ zaiĠ
ĠgeĠ lunĠ
niuĠ jinĠ
194 5ĠnianĠ
yiĠliĠ shaĠ
I F
shiĠ daoĠ
zhongĠ shengĠ
gongĠ touĠ
fuĠ diĠ
jinĠ lingĠ
shouĠ beiĠ
guanĠ dongĠ
jiangĠ xiĠshengĠ
xiaĠ guĠ
dianĠ rongĠ
jiuĠ nengĠ
ĠzaiĠ taĠdeĠ
zongĠ jiĠ
ĠweiĠ yiĠ
ĠyuĠ qiĠtaĠ
ĠjinĠ shiĠchuĠshenĠ
chuangĠ shiĠ
Ġ193 4ĠnianĠ
12Ġ geĠ
ĠjunĠ weiĠ
ĠĠĠzhuĠ zuoĠ
3 D
deĠ tongĠ
yuĠ dingĠ
qiĠ qiuĠ
fangĠ yingĠ
xinĠ beiĠshiĠ
liangĠ cengĠ
pingĠ tanĠ
tuĠ pianĠ
guangĠ daĠ
mengĠ youĠ
chuangĠ yeĠ
Ġ9 0
Ġ193 2ĠnianĠ
fanĠduiĠ paiĠ
00ĠwanĠ meiĠyuanĠ
jiangĠhuĠ shiĠdaiĠ
dongĠcheĠ zuĠ
5 00
shiĠ dengĠ
huoĠ huaĠ
qingĠ chenĠ
wanĠ jieĠ
guĠ xiangĠ
deĠshiĠ tiĠ
waĠ deĠ
kanĠ qiĠlaiĠ
ĠkeĠ liĠ
chunĠ qiuĠ
zhuiĠ zongĠ
ĠtianĠ qiĠ
ĠbianĠ haoĠ
deĠzhuĠ zuoĠ
sheĠliĠ leĠ
guanĠfangĠ wangĠzhanĠ
wuĠliĠ xueĠjiaĠ
2 ĠjiĠ
5 1
B M
u di
sh Ġ
sh uanĠ
ĠĠĠ peiĠ
zhuĠ xianĠ
shangĠ yanĠ
junĠ yongĠ
jiangĠ shuiĠ
baoĠ guangĠ
zhangĠ heĠ
gaiĠ youĠ
lianĠ xianĠ
boĠ enĠ
ĠzaiĠ yiĠ
3Ġ liĠ
ĠmeiĠ tiĠ
qiĠjianĠ deĠ
199 0ĠnianĠdaiĠ
fuĠwuĠ deĠ
dongĠjiĠ aoĠlinĠpiĠkeĠyunĠdongĠhuiĠ
ĠguoĠminĠ dangĠ
zenĠ meĠ
5 9Ġ
I M
Ġ iĠ
weiĠ haiĠ
zaiĠ faĠguoĠ
wuĠ buĠ
ruĠ tongĠ
haiĠ tanĠ
jiuĠ fenĠ
ĠyiĠ duĠ
benĠ yingĠ
gangĠ quĠ
ĠbeiĠ weiĠ
henĠ gaoĠ
ĠshiĠjiĠ chuĠ
chuĠbanĠ leĠ
kenĠ taĠjiĠ
tiaoĠjianĠ xiaĠ
ĠsectionĠĠĠ endĠ
a dĠĠĠ
aiĠ saiĠ
youĠ dianĠ
zaiĠ taĠdeĠ
gongĠ ruĠ
siĠ zhiĠ
zhuĠ leĠ
xiaĠ zhaiĠ
taiĠ zhongĠshiĠ
laiĠ leĠ
shenĠ bianĠ
kaiĠ shiĠjianĠ
duoĠ yuĠ
ĠxianĠ zhiĠ
13 0Ġ
2ĠyueĠ2 4ĠriĠ
shiĠfanĠ daĠxueĠ
ĠĠĠ xuanĠ
wuĠ jiaĠ
faĠ wenĠ
faĠ songĠ
jinĠ miĠ
liangĠ zhouĠ
qingĠ zhiĠ
wanĠ chengĠdeĠ
biĠ haiĠ
saiĠ juĠ
shiĠyiĠ zhiĠ
ĠxiaoĠ shuoĠ
ĠM ar
si onĠ
yiĠduanĠ shiĠjianĠ
G am
I G
aĠ deĠ
ĠĠĠ dengĠ
wuĠ quĠ
ziĠ taiĠ
chuĠ tuĠ
xinĠ huiĠ
zhangĠ zhiĠ
banĠ jingĠ
ĠzhongĠ dianĠ
hongĠ qiĠ
ĠdongĠ xiĠ
yinĠyueĠ luĠyingĠdaiĠ
ĠmingĠ mingĠ
ĠfengĠ baoĠ
deĠgongĠ jiĠ
Ġ190 9ĠnianĠ
jiĠ nanĠ
qiĠ dianĠ
xueĠ zhongĠ
yanĠ shuoĠ
laĠ ĠĠ
yaoĠ suĠ
sanĠ buĠ
ĠerĠ ziĠ
ĠerĠ tongĠ
ĠdiĠ yuĠ
jiĠhuaĠ deĠ
3ĠyueĠ 31ĠriĠ
198 0ĠnianĠ
youĠjiĠ duiĠ
zhanĠdouĠ zhongĠ
jianĠzaoĠ deĠ
canĠsaiĠ zheĠ
liĠgongĠ daĠxueĠ
ĠjieĠweiĠ luĠdiĠ
A c
B DĠ
E D
a j
Ġ xueĠyuanĠ
liĠ taoĠwanĠ
geĠ laiĠ
faĠ heĠ
baoĠ jianĠ
yaĠ zhiĠ
teĠ gongĠ
benĠ buĠ
danĠ jiĠ
danĠ daoĠ
deĠyiĠ shiĠ
ĠT h
miaoĠshuĠ leĠ
jiaĠjiĠ lianĠsaiĠ
Q u
Ã ©Ġ
ĠĠĠ ruoĠ
weiĠ gongĠ
weiĠ shuĠ
jiaĠ zaiĠ
huiĠ seĠ
huaĠ zhongĠ
bianĠ dongĠ
ĠzaiĠ duĠ
xunĠ hangĠ
laoĠ deĠ
ĠbiĠ deĠ
el lĠ
niuĠyueĠ shiĠ
saoĠ raoĠ
wuĠzhuangĠ buĠduiĠ
5 ĠyueĠ1ĠriĠ
ch ool
yiĠ luĠ
zhongĠ shiĠjiĠ
buĠ jingĠ
jinĠ jiangĠ
huoĠ erĠ
kaiĠ shiĠdeĠ
maĠ jiĠ
saiĠ shiĠzhongĠ
liuĠ tongĠ
liuĠ xingĠdeĠ
baiĠ fangĠ
ĠzhongĠ yuĠ
shiĠyiĠ huiĠ
shiĠyiĠ yueĠ
kuĠ siĠ
jinĠruĠ leĠ
diĠfangĠ zhengĠfuĠ
deĠxiaoĠ shuoĠ
8 8ĠnianĠ
9 0ĠnianĠdaiĠ
y c
Ġ nvĠziĠ
renĠ jieĠ
chengĠ neiĠ
daĠ dongĠbuĠdaĠquĠ
wuĠ gongĠ
ĠshiĠ yuĠ
shenĠ jiĠ
benĠ laiĠ
cengĠ danĠrenĠ
douĠ yuĠshiĠ
songĠ wangĠ
ĠmaĠ erĠ
ĠS h
ĠduoĠ mingĠ
ĠĠĠliĠshiĠ yanĠgeĠ
ol l
chaiĠ youĠ
2 ĠdeĠ
5 7ĠnianĠ
5 ĠnianĠ10
beiĠ daoĠ
beiĠ quĠ
zhengĠ jianĠ
fangĠ huĠ
muĠ hanĠmoĠdeĠ
banĠ zhangĠ
xieĠ shiĠ
guangĠ fuĠ
baiĠ shiĠ
gouĠ xiangĠ
shiĠyiĠ jiĠ
youĠyiĠ zuoĠ
ĠliuĠ yueĠ
zhongĠyaoĠ xingĠ
ĠĠĠ199 1ĠnianĠ
ĠdiaoĠ chaĠ
lanĠqiuĠ yunĠdongĠyuanĠ
deĠjiĠchuĠ shangĠ
xiĠxiĠ biĠ
ĠIST AT
Ġ xuanĠzeĠ
xingĠ faĠ
jieĠ jingĠ
zhanĠ fuĠ
luĠ jiĠ
wenĠ siĠ
dianĠ yuanĠ
gaiĠ yongĠ
xieĠ heĠ
maĠ yaĠ
laĠ guiĠ
ĠbingĠ huoĠdeĠ
ĠdeĠ yiĠ
ĠdaĠ zhengĠ
11 ĠshiĠ
ĠaoĠ diĠliĠ
xiĠlieĠ saiĠ
manĠhuaĠ jiaĠ
7 3
a dĠ
ĠĠĠ taĠzaiĠ
weiĠ chengĠ
qiĠ chengĠ
qiĠ faĠ
daĠ shangĠ
geĠ bieĠ
xianĠ huaĠ
shengĠ fuĠ
jiaoĠ yuanĠ
duiĠ shiĠ
benĠ deĠ
yaoĠ deĠ
xuanĠ guaĠ
moĠ shouĠ
manĠ guanĠ
or i
ĠmaĠ keĠ
beiĠjingĠ daĠxueĠ
cuiĠ huaĠ
yuĠyanĠ deĠ
ĠĠĠgaiĠ diĠ
weiĠerĠ siĠ
renĠdaĠ changĠweiĠhuiĠ
nianĠ diĠ
zhuĠ yuanĠ
beiĠ houĠ
meiĠ renĠ
xiaoĠ yiĠ
minĠ yiĠ
zuiĠ haoĠ
ĠtaĠ deĠfuĠqinĠ
linĠ zhongĠ
chaoĠ xiĠ
maoĠ keĠ
shiĠweiĠ yiĠ
ĠlianĠ mengĠ
diaoĠchaĠ juĠ
ĠzaoĠ nianĠ
6 5ĠnianĠ
7 5ĠnianĠ
8 4
8 5ĠnianĠ
c ouĠ
e i
Ġ kongĠzhiĠ
zaiĠ yeĠ
erĠ tingĠ
wuĠ lunĠ
jiaoĠ chuĠ
ĠyiĠ chengĠ
gaoĠ yaĠ
teĠ zhiĠ
benĠ zhiĠ
yaoĠ zaiĠ
liuĠ jiaĠ
baĠ diĠ
deĠyiĠ xiĠlieĠ
ganĠ shouĠ
xiangĠgangĠ dianĠyingĠ
zhengĠzhiĠ xieĠshangĠ
sheĠhuiĠ deĠ
ĠshenĠ tiĠ
ĠA n
1 ĠjiĠ
E M
ĠĠĠ xianĠdaiĠ
renĠ tiĠ
guoĠ laiĠ
keĠ xingĠ
huiĠ zhanĠ
leĠ daĠliangĠ
duoĠ yangĠ
liuĠ lanĠ
danĠ shuiĠyuĠ
chuanĠ shiĠ
meiĠguoĠ guoĠjiaĠ
8Ġ mingĠ
ĠyuanĠ laiĠ
ĠyuanĠ chaoĠ
qunĠ daoĠdeĠ
ouĠzhouĠ guoĠjiaĠ
deĠliĠ keĠ
ĠĠĠbenĠ zhanĠ
5 3ĠnianĠ
C A
Ġ paiĠsheĠ
zaiĠ heĠ
beiĠ lieĠruĠ
tongĠ yiĠgeĠ
houĠ huiĠ
guanĠ yaĠ
zhangĠ liĠ
fengĠ jingĠ
1Ġ gongĠliĠ
juanĠ kuanĠ
gaoĠsuĠ tieĠluĠ
ĠzaiĠciĠ qiĠjianĠ
jiaoĠliuĠ daoĠ
e th
jiĠ liangĠ
yuĠ zhuĠ
youĠ lunĠ
buĠ shengĠ
fuĠ chengĠ
wuĠ xiaoĠ
shuĠ qianĠ
dianĠ ciĠ
yaĠ siĠ
ĠdongĠ riĠbenĠ
senĠ deĠ
ĠaĠ liĠ
ĠwoĠ deĠ
198 4ĠnianĠ
ĠganĠ suĠ
ĠshiĠyiĠkeĠ hengĠxingĠ
7 9Ġ
F or
Ġ henĠkuaiĠ
ĠĠĠ renĠwuĠ
weiĠ junĠ
zhongĠ shangĠ
erĠ baĠ
jinĠ eĠ
houĠ jiĠ
yeĠ jiĠ
luoĠ linĠ
laĠ saĠ
liuĠ danĠ
ĠqiĠ cheĠ
ĠgaiĠ zuĠzhiĠ
ĠxiangĠ zhengĠ
fangĠmianĠ junĠ
biĠyeĠ shengĠ
gaiĠbianĠ weiĠ
yuĠ200 0ĠnianĠ
ĠK Ġ
xiangĠhuĠ zuoĠyongĠ
8 7ĠnianĠ
M ar
p ro
Ġ tieĠluĠ
ĠĠĠ piĠ
yuĠ jianĠ
zaiĠ zhiĠ
luĠ zhanĠ
fenĠ shiĠ
taiĠ luoĠ
zhuanĠ ruĠ
ĠzheĠ yangĠdeĠ
xunĠ shiĠ
ĠxiĠ yuanĠ
ĠyuanĠ ziĠ
xingĠzhengĠ zhongĠxinĠ
ĠchangĠ qiĠ
Ġ7 0
ĠyaĠ meiĠniĠyaĠ
lianĠbangĠ zhengĠfuĠ
ĠniĠ keĠ
aĠerĠ beiĠsiĠ
Ġ14 9
bianĠchengĠ leĠ
zuanĠ shiĠ
zhuanĠkeĠ xueĠxiaoĠ
8 00Ġ
eĠ lieĠ
deĠ feiĠ
weiĠ mingĠ
zhiĠ neiĠ
xianĠ bingĠ
daoĠ yiĠ
huiĠ duiĠ
xiangĠ fuĠ
yeĠ zheĠ
ruĠ zhuĠ
muĠ heĠ
ĠyiĠ tongĠ
fanĠ qieĠ
sanĠ qiĠ
canĠ zhanĠ
zhaoĠ mingĠ
chongĠ dieĠ
ĠdiĠ liuĠ
erĠshiĠ shiĠjiĠ
ali gnĠ
illi am
9 ĠnianĠ1ĠyueĠ
m m
s c
buĠ taiĠ
buĠ lanĠ
chuĠ dongĠ
xueĠ paiĠ
xieĠ chengĠ
duoĠ jiaĠ
saiĠ siĠ
ĠzaiĠ faĠguoĠ
dangĠ qianĠ
gouĠ jianĠ
ĠdangĠ tianĠ
diaoĠ renĠ
ĠkeĠ zuoĠweiĠ
daiĠbiaoĠ xingĠ
sunĠ zhongĠshanĠ
ĠzuiĠzhongĠ yiĠ
ĠĠĠ199 5ĠnianĠ
sanĠshiĠ nianĠ
ĠgaiĠshengĠfenĠweiĠfaĠguoĠ beiĠbuĠ
juĠfengĠ zhongĠxinĠ
zhongĠguoĠdeĠteĠyouĠ zhiĠwuĠ
A nd
f i
ĠĠĠ 13
yuĠ shengĠ
wuĠ mingĠ
huiĠ tanĠ
chuĠ waiĠ
jinĠ guanĠ
muĠ zangĠ
menĠ waiĠ
suĠ shiĠ
linĠ xianĠ
baiĠ heĠ
shuiĠ shiĠ
sunĠ shangĠ
ĠjunĠ zaiĠ
kongĠzhongĠ faĠxianĠ
baoĠshouĠ dangĠ
weiĠwuĠerĠ ziĠzhiĠquĠ
Ġ qunĠ
yiĠ miaoĠ
zhongĠ changĠ
xiĠ zaiĠ
jieĠ juĠ
huiĠ luĠ
quĠ jueĠyuĠ
yinĠ zaiĠ
sheĠ zhangĠ
nanĠ quĠ
suiĠ renĠkouĠ
ĠzheĠ shouĠgeĠ
6Ġ gongĠliĠ
caoĠ zongĠ
ĠtianĠ wenĠ
jiaĠzuĠ deĠ
Ġ192 9ĠnianĠ
M u
aiĠ niĠ
deĠ wenĠ
zhiĠ tongĠ
daĠ naoĠ
jiaĠ laiĠ
shouĠ huanĠyingĠdeĠ
zhangĠ haoĠ
wanĠ biĠ
guĠ yiĠ
maĠ niĠ
shanĠ yuĠ
ĠweiĠ siĠ
paiĠ renĠ
ĠgaiĠ diĠ
shiĠjieĠ geĠdiĠ
for m
at t
ĠÐ ½
2010ĠnianĠ meiĠguoĠrenĠkouĠpuĠchaĠ
ĠxingĠzhengĠ zhongĠxinĠ
8 ĠĠĠ
yiĠ kaoĠ
ĠĠĠ yinĠduĠ
jiĠ lieĠ
erĠ baiĠ
duiĠ fuĠ
qianĠ zuoĠ
gaiĠ gongĠsiĠ
bianĠ huĠ
nengĠ liĠdeĠ
lvĠ diĠ
rongĠ ruĠ
ĠyingĠ geĠlanĠ
chunĠ jieĠ
8ĠyueĠ 31ĠriĠ
jueĠseĠ banĠyanĠ
paiĠsheĠ deĠ
D NA
T T
a eĠ
e h
aiĠ shaĠniĠyaĠ
jiĠ qiaoĠ
buĠ changĠ
yuanĠ dongĠ
huiĠ xingĠ
jinĠ liangĠ
fangĠ ziĠ
guanĠ bingĠ
yeĠ weiĠ
tiĠ xianĠ
yinĠ liaoĠ
daiĠ yanĠ
gaoĠ liĠ
fanĠ maiĠ
zongĠ seĠ
ĠdanĠ maiĠ
chuanĠ ranĠ
kongĠ jiangĠ
ĠyuĠ 202
riĠbenĠ renĠ
waiĠjiaoĠ guanĠxiĠ
zhuĠshiĠ huiĠsheĠ
1 ĠnianĠ10
8 ĠnianĠ1
ĠĠĠ longĠ
ĠĠĠ 20ĠshiĠjiĠ
zhiĠ 1
qiĠ geĠ
jianĠ shouĠ
wuĠ daĠ
taiĠ zuĠ
gaiĠ sheĠ
yunĠ kengĠ
caiĠ gouĠ
lvĠ heĠ
kaĠ deĠ
Ġ201 1ĠnianĠ12ĠyueĠ
kaoĠ liangĠ
zouĠ leĠ
lingĠyiĠ fangĠmianĠ
wangĠqiuĠ gongĠkaiĠsaiĠ
ĠpuĠtaoĠyaĠ yuĠ
9 9Ġ
e yĠĠĠ
ĠĠĠ xueĠxiaoĠ
zhiĠ qingĠ
zhongĠ liuĠ
siĠ zhongĠ
geĠ quĠdeĠ
wuĠ changĠ
huiĠ mieĠ
huaĠ leĠ
huaĠ nanĠ
xueĠ yuĠ
liangĠ haoĠdeĠ
danĠ ciĠ
leiĠ biĠ
suĠ erĠ
chuanĠ songĠ
manĠ lianĠ
biĠsaiĠ deĠ
ĠduoĠ ciĠ
ĠaiĠ deĠhuaĠ
ĠaoĠ zhouĠ
ou nt
danĠquĠ bangĠ
yuĠ199 8ĠnianĠ
5 5ĠnianĠ
C l
d uc
p en
Ã ©
yiĠ meiĠ
ĠĠĠ mingĠchengĠ
jiĠ jiaĠ
jiĠ shenĠ
chengĠ shouĠ
chuĠ xingĠ
shangĠ huoĠdeĠ
duiĠ liuĠ
duiĠ yingĠdeĠ
qianĠ quĠ
shanĠ zhanĠ
haoĠ heĠ
baiĠ tuoĠ
zhaoĠ zeĠ
shiĠjianĠ zhongĠ
ĠbaoĠ gaoĠ
kuanĠ duĠ
shiĠzhenĠ fanĠweiĠneiĠ
ĠminĠ jiĠ
Ġ191 2ĠnianĠ
8 4ĠnianĠ
ĠĠĠ suoĠ
yuĠ luĠ
yuĠ wangĠ
liĠ naĠ
wuĠ fuĠ
jieĠ ciĠ
jiaĠ diĠ
beiĠ xuanĠweiĠ
guanĠ wangĠ
nanĠ duĠ
maĠ enĠshengĠ
huĠ guangĠ
hanĠ shiĠ
guiĠ jiĠ
ĠzheĠ liĠ
shaĠ deĠ
renĠwuĠ deĠ
zhuiĠ dongĠwuĠ
ĠxueĠ xiĠ
kenĠ seĠ
ĠĠĠ199 0ĠnianĠ
aĠerĠ baĠniĠyaĠ
197 0ĠnianĠdaiĠ
beiĠpingĠ weiĠ
ĠjuĠqingĠ xiaĠ
aceb ook
icrosof tĠĠĠ
y l
ĠĠĠ yiĠgeĠ
yuĠ tongĠ
jianĠ qingĠ
guanĠ diĠ
xiaoĠ fuĠ
minĠ bingĠ
kaiĠ jiĠ
biĠ nanĠ
ĠzhiĠ qianĠ
ĠjiĠ jinĠ
ĠO Ġ
ĠmianĠ duiĠ
xiuĠzhengĠ anĠ
hanĠlinĠ yuanĠ
4 ĠshiĠ
yiĠ anĠ
yiĠ cengĠ
zhiĠ yanĠ
liĠ quĠ
guoĠ duoĠ
zhuĠ junĠ
ziĠ jiaĠ
shouĠ xiaĠ
guanĠ heĠ
zaoĠ zaiĠ
ĠjinĠ yiĠbuĠ
waĠ jueĠ
shiĠqiĠ shiĠdaiĠ
ĠshenĠ zhenĠ
ziĠyouĠ yongĠ
ĠrangĠ taĠ
a geĠ
ĠĠĠ changĠ
ĠĠĠ tuĠ
zhongĠ xianĠ
youĠ daĠ
yuanĠ zaiĠ
wuĠ suoĠ
xinĠ yuĠ
yongĠ zaiĠ
ĠyiĠ yangĠ
shuiĠ heĠ
huanĠ zhuangĠ
shiĠdeĠ guoĠ
maiĠ keĠerĠ
keĠxueĠ jiĠshuĠ
ĠĠĠ199 6ĠnianĠ
yuĠ200 5ĠnianĠ
bo x
ĠgaiĠwuĠzhongĠdeĠ moĠshiĠchanĠ
Ġ piaoĠ
Ġ minĠzuĠ
ĠĠĠ zhanĠ
youĠ jianĠ
shengĠ pingĠ
jiaĠ zhangĠ
riĠ ziĠ
lingĠ dunĠ
luoĠ lunĠ
biĠ qiĠ
ĠtaĠ biaoĠshiĠ
tianĠ kongĠ
ganĠ sheĠ
ĠgaiĠ shiĠzhenĠ
shaoĠ huiĠ
chuangĠ yiĠ
ĠjingĠ chaĠ
leĠyiĠ fenĠ
minĠzhuĠ zhuĠyiĠ
jieĠdaoĠ banĠshiĠchuĠ
yinĠqiĠ leĠ
jiĠzheĠ huiĠ
chuangĠbanĠ renĠ
zhuangĠjiĠ kengĠ
dianĠliĠjiĠ cheĠ
a naĠ
n ation
r ac
y n
ĠĠĠ suiĠzheĠ
yuĠ shiĠdeĠrenĠkouĠshuĠliangĠweiĠrenĠ
qiĠ buĠ
daĠ leĠ
siĠ yiĠ
daoĠ jiaoĠ
jinĠ shengĠweiĠ
gaiĠ yaoĠ
kaiĠ caiĠ
touĠ shiĠ
kaĠ teĠ
kuoĠ chongĠ
ĠxiĠ jinĠ
ĠdaĠ banĠ
huaiĠ yunĠ
ĠjiaoĠ shouĠ
ĠãĤ ĵ
un d
yiĠ chengĠweiĠ
jiĠ tianĠ
buĠ shenĠ
shengĠ xingĠ
shengĠ riĠ
daoĠ suĠ
jinĠ xianĠ
houĠ bianĠ
yingĠ dangĠ
pingĠ xiĠ
lingĠ yiĠzhongĠ
fanĠ changĠ
baĠ keĠ
tingĠ jiĠ
baiĠ eĠ
nuoĠ keĠ
ĠjianĠ yiĠ
caoĠ diĠ
zhongĠyangĠ dianĠshiĠtaiĠ
leĠyiĠ zhongĠ
ĠluoĠ boĠ
198 0ĠnianĠdaiĠ
xiaoĠfeiĠ zheĠ
4 2ĠnianĠ
7 9ĠnianĠ
jiĠ miĠ
weiĠ niĠ
diĠ duiĠ
ĠshiĠ erĠyueĠ
zhouĠ quĠ
qingĠ heĠ
luoĠ muĠ
saiĠ puĠ
waiĠ jiĠ
gangĠ guoĠ
puĠ jingĠ
ĠjinĠ nianĠ
peiĠ siĠ
tuoĠ weiĠyaĠ
rangĠ renĠ
ĠgeĠ nianĠ
heĠsuanĠ jianĠceĠ
6 4ĠnianĠ
ĠĠĠ eĠluoĠsiĠ
ziĠ tiĠ
jingĠ xiĠ
yingĠ yongĠyuĠ
ĠshiĠ hanĠguoĠ
fenĠ duiĠ
biĠ jiĠ
xuĠ yueĠ
haoĠ maĠ
ĠdanĠ buĠ
ĠzheĠ shiĠyiĠ
jingĠjiĠ gongĠsiĠ
leĠyiĠ zuoĠ
ĠzhanĠ zongĠrenĠkouĠ
waiĠjiaoĠ buĠzhangĠ
taiĠfengĠ jingĠbaoĠ
Ġ mangĠ
ĠĠĠ cengĠ
ĠĠĠ yanĠjiuĠ
ĠĠĠ zhiĠhouĠ
weiĠ faĠ
xingĠ huoĠ
daĠ laĠ
jieĠ xianĠ
zhuĠ bianĠ
ĠshiĠ changĠ
saiĠ teĠ
naĠ meĠ
4Ġ gongĠliĠ
queĠ xianĠ
renĠweiĠ zheĠ
zhiĠhuiĠ buĠ
bangĠzhuĠ xiaĠ
ĠgongĠyuanĠ qianĠ
7 1ĠnianĠ
shiĠ bieĠ
yuĠ yeĠ
daĠ duĠ
wuĠ shengĠ
jingĠ taiĠ
zhangĠ huĠ
zongĠ zuoĠ
moĠ huĠ
ĠdanĠ gaiĠ
chuanĠ jiaoĠshiĠ
zhuanĠ zhuĠyuĠ
2Ġ jiaĠ
diĠyiĠ lunĠ
ĠgeĠ linĠ
ĠduoĠ shuĠ
lianĠmengĠ deĠ
ĠguoĠminĠ zhengĠfuĠ
waiĠweiĠ saiĠ
ĠgaiĠwuĠzhongĠdeĠmoĠshiĠchanĠ diĠzaiĠ
Ġ niaoĠ
ĠĠĠ zhouĠ
shouĠ liĠ
shouĠ buĠ
jiaoĠ xiaoĠdeĠ
ĠshiĠ congĠ
junĠ diĠ
zuĠ chengĠyuanĠ
ĠyiĠ siĠshiĠ
shenĠ heĠ
fanĠ shiĠ
feiĠ cuiĠ
paiĠ weiĠ
hangĠ haiĠ
keĠyiĠ shiĠyongĠ
ar eĠ
paĠ laĠ
renĠleiĠ deĠ
196 8ĠnianĠ
suoĠzaiĠ deĠ
guoĠjiaĠduiĠ canĠjiaĠ
6 2
6 2ĠnianĠ
T O
Ġ chiĠxuĠ
zhiĠ biaoĠ
youĠ jiuĠ
qiĠ danĠrenĠ
diĠ wenĠ
gongĠ duĠ
xianĠ cunĠ
xinĠ tuoĠ
yeĠ jiangĠ
yeĠ kaiĠshiĠ
yeĠ yinĠciĠ
bingĠ daoĠ
neiĠ sheĠyouĠ
canĠ yiĠ
shiĠjianĠ liĠ
ĠfuĠ zhouĠ
shiĠweiĠ shuĠjiĠ
ĠĠĠ199 3ĠnianĠ
ĠÐ ¸
ĠxinĠzengĠ benĠtuĠ
5 2ĠnianĠ
7 6ĠnianĠ
B A
yiĠ benĠ
erĠ cengĠ
huaĠ qiaoĠ
ciĠ houĠ
dongĠ yinĠduĠ
ĠshiĠ liĠ
haiĠ zhanĠ
haiĠ muĠ
banĠ lvĠ
liuĠ ruĠ
ĠluĠ yiĠsiĠ
ĠduoĠ geĠ
ĠshanĠ xiĠshengĠ
buĠlieĠ dianĠ
6 1
7 ĠshiĠ
u k
Ġ huanĠjingĠ
deĠ gongĠzuoĠ
ĠĠĠ shiĠjieĠ
daĠ mingĠ
keĠ fenĠweiĠ
wuĠ xingĠ
yaĠ reĠdaiĠ
bianĠ yuĠ
shanĠ siĠ
cheĠ renĠciĠ
duanĠ yuĠ
ĠgaiĠ shiĠ
ĠliĠ ziĠ
guoĠjiaĠ heĠ
pingĠfangĠ yingĠliĠ
7Ġ mingĠ
lv ĠyiĠ
en ti
9 ĠnianĠ10ĠyueĠ
S P
a ul
ĠĠ J
yuanĠ mingĠ
zhuĠ geĠ
guanĠ shuiĠ
yaĠ maĠ
laiĠ yuĠ
minĠ hangĠ
zuiĠ zhuĠmingĠdeĠ
ĠzaiĠ jiaĠshangĠ
feiĠ teĠlieĠ
shanĠ daoĠ
fengĠ xingĠqiĠ
pengĠ zhangĠ
ĠshenĠ duĠ
ĠshuĠ rouĠshiĠxingĠ
ĠhuiĠ daoĠ
ĠÐ µ
ĠhuaĠxueĠ shiĠweiĠ
ĠĠĠ suiĠzhuĠ
weiĠ jinĠ
youĠ xiangĠ
jianĠ geĠ
fuĠ yongĠ
beiĠ juĠ
chuĠ chuĠzhangĠ
yinĠ qiĠdeĠ
ĠyiĠ keĠ
lianĠ qiuĠ
bingĠ heĠ
shaĠ shouĠ
ĠjieĠ shuĠ
deĠjiĠ nianĠ
canĠyuĠ zheĠ
jieĠjueĠ fangĠanĠ
ex tĠ
yiĠliĠnuoĠ yiĠzhouĠ
H E
Ġ jueĠseĠ
jiĠ faĠ
jiĠ shangĠ
zhiĠ daoĠdeĠ
yuĠ zhangĠ
gongĠ baoĠ
gongĠ lvĠ
riĠ guiĠ
xueĠ ruoĠ
yanĠ houĠ
luĠ xiĠ
tiĠ qiĠ
xiaĠ yiĠyuanĠ
xuĠ zaiĠ
qiuĠ zhangĠ
sanĠ guoĠ
ĠzhiĠ deĠ
xiuĠ deĠ
ĠgaiĠ jianĠ
ĠjianĠ renĠ
ĠjianĠ sheĠ
ĠxueĠ zheĠ
junĠshiĠ xingĠdongĠ
ĠneiĠ buĠ
ĠbeiĠqiĠshunĠshiĠzhenĠ yuĠ
2 ĠnianĠ10
6 9ĠnianĠ
yuĠ lianĠ
zhongĠ heĠ
ziĠ diĠ
leĠ shiĠ
jiangĠ luoĠ
baoĠ youĠ
wangĠ fuĠ
ĠtaĠ yeĠshiĠ
shuiĠ yuanĠ
ĠyuĠ 200
nvĠ xingĠdeĠ
ĠdiĠ qiuĠ
ĠdaĠ duoĠ
dianĠyingĠ zhongĠ
paoĠ huoĠ
ĠboĠ wuĠguanĠ
daoĠshiĠ yueĠtaiĠ
yiĠdaiĠ deĠ
zongĠheĠ xingĠ
caoĠzuoĠ xiĠtongĠ
zongĠduĠ fuĠ
ĠĠĠ miaoĠshuĠ
zaiĠ ĠĠ
jiaĠ kangĠ
jiaĠ zhiĠdeĠ
mingĠ yunĠ
guanĠ qiaĠ
yingĠ jianĠ
yanĠ heĠ
dingĠ muĠ
zongĠ bingĠ
leiĠ anĠjianĠ
jueĠ qiĠ
deĠyiĠ yiĠ
ĠheĠ pingĠ
taoĠ huiĠ
ĠmeiĠ ciĠ
faĠlanĠ keĠ
xiĠjinĠ pingĠ
jiaoĠkeĠ wenĠ
4 1
7 8ĠnianĠ
C E
Ġ suanĠ
Ġ chanĠshengĠ
zhiĠ yinĠ
chengĠ qingĠ
jieĠ shangĠ
huiĠ guĠ
xiangĠ yiĠ
taĠ yiĠ
huaĠ tiĠ
ĠshiĠ guĠ
baoĠ zhuangĠ
paiĠ zhaoĠ
ranĠ seĠ
piĠ luĠ
piĠ jiuĠ
chuangĠ kouĠ
ĠkeĠ leiĠ
hengĠ binĠ
shuaiĠ junĠ
siĠkeĠ zhouĠ
heĠwuĠ zhengĠzhuangĠganĠranĠzheĠ
Ġ191 3ĠnianĠ
lvĠweiĠ 0
aiĠhaoĠ zheĠ
E x
s ch
eĠ biĠyaĠ
yuĠ geĠ
keĠ duoĠ
wuĠ junĠ
jiaĠ mianĠ
quĠ jingĠ
tongĠ lingĠ
qianĠ zhengĠ
yueĠ shuĠ
maĠ saiĠ
dengĠ zhanĠ
zongĠ jieĠ
tingĠ banĠ
shuiĠ niĠ
taoĠ tuoĠ
ĠbeiĠ jingĠshiĠ
pengĠ huĠ
yinĠyueĠ jiaĠ
198 9ĠnianĠ
nianĠqingĠ renĠ
tianĠranĠ qiĠ
5 ĠnianĠ11
m eĠĠĠ
Ġ mĠ
zhiĠ mingĠdeĠ
yuĠ faĠ
liĠ faĠyuanĠ
zaiĠ yiĠgeĠ
shuĠ xueĠjiaĠ
jinĠ duĠ
riĠ neiĠ
zhangĠ yiĠ
saiĠ shiĠdeĠ
liuĠ mingĠ
shanĠ changĠ
cheĠ huoĠ
ĠweiĠ reĠdaiĠ
chuanĠ chengĠ
puĠ deĠ
ganĠ zaoĠ
woĠ siĠ
kaiĠshiĠ houĠ
haĠ dunĠ
ĠsiĠ maĠ
ĠluoĠ neĠ
wangĠchaoĠ deĠ
siĠliĠ lanĠkaĠ
keĠxiĠ taĠniĠdaĠquĠ
m p
r y
zhongĠ tuĠ
diĠ fuĠ
heĠ neiĠ
daĠ menĠ
zhuĠ minĠ
duoĠ tianĠ
bianĠ liĠ
boĠ wuĠyuanĠ
cheĠ siĠteĠ
baiĠ jinĠ
hangĠ yunĠ
kuangĠ yeĠ
huoĠdeĠ deĠ
zhuĠyiĠ deĠshiĠ
guoĠminĠ geĠmingĠjunĠ
ĠgengĠ mingĠweiĠ
qingĠzhenĠ siĠ
zhengĠzhiĠxieĠshangĠ huiĠyiĠ
7 ĠĠĠ
a ur
anĠ xiĠ
liĠ tiĠ
xiĠ muĠ
yuanĠ yuanĠ
dongĠ xingĠ
xinĠ aĠjiĠtanĠ
fenĠ miĠ
xiaoĠ duiĠ
quanĠ zhiĠ
lanĠ jieĠ
Ġ1 2ĠyueĠ2
tuoĠ yuanĠxingĠ
âĢ »
keĠnengĠ deĠ
binĠ xiĠfaĠ
xiĠboĠ liĠyaĠ
8 6ĠnianĠ
e ni
Ġ naoĠ
tongĠ banĠ
daiĠ huiĠ
xuĠ deĠ
danĠ cheĠ
xuanĠ lvĠ
naĠ daoĠ
shaĠ teĠ
henĠ haoĠ
ĠsiĠ liĠ
ĠjuĠ banĠ
louĠ tiĠ
paoĠ danĠ
eĠluoĠsiĠ deĠ
16 0Ġ
heĠzuoĠ deĠ
ĠzeĠ shiĠ
weiĠzhuĠ deĠ
ĠchaoĠ jiĠ
ĠãĤ ¹
ĠĠĠ zhaoĠ
zaiĠ meiĠ
fuĠ nieĠ
jiaĠ riĠ
daoĠ changĠ
zheĠ liangĠgeĠ
xinĠ nianĠ
xinĠ heĠ
haiĠ huiĠ
qiuĠ lingĠ
ĠzaiĠ diĠ
ĠweiĠ boĠ
ĠbingĠ congĠ
ĠerĠ renĠ
pinĠ weiĠ
chongĠ boĠ
shaĠ leĠ
rongĠ deĠ
nuoĠ deĠ
an k
zanĠ chengĠ
ol orĠ
ĠteĠ langĠpuĠ
ĠyouĠmingĠ BDĠ
t erĠĠĠ
Ġ raoĠ
ĠĠ V
gongĠ xiaĠ
zhuĠ houĠ
shuĠ ciĠ
shuĠ dianĠ
ciĠ quanĠguoĠ
duiĠ zhanĠ
qianĠ yuĠ
wanĠ faĠ
lianĠ suoĠ
maĠ heĠ
fanĠ taiĠ
ĠbingĠ chengĠ
cengĠ mianĠ
ĠdiĠ guoĠ
ĠjiaĠ tingĠ
ĠgeĠ lanĠteĠ
ĠweiĠyuĠgaiĠguoĠ beiĠbuĠ
nveĠ daiĠ
0 3Ġ
g roundĠ
Ġ tuanĠ
aiĠ zhengĠ
ĠĠĠ maiĠ
ĠĠĠ saĠ
gongĠ suoĠ
fuĠ laiĠ
zhuĠ ziĠ
20 ĠgeĠ
tongĠ chengĠ
huoĠ zhunĠ
pingĠ biĠ
ĠbingĠ meiĠyouĠ
niĠ geĠ
ĠzheĠ liangĠgeĠ
xiuĠ shanĠ
kaĠ cheĠ
ĠliĠ shiĠshangĠ
ĠbuĠ danĠ
ĠfuĠ leiĠ
zengĠ yuanĠ
18 0Ġ
ĠmeiĠ tianĠ
zuĠqiuĠ xieĠhuiĠ
9ĠyueĠ 30ĠriĠ
siĠteĠ laĠ
ĠzhuanĠ menĠ
shengĠwuĠ xueĠjiaĠ
ĠãĤ ¤
ĠdianĠshiĠ taiĠ
ĠheiĠlongĠjiangĠ shengĠ
luĠyinĠshiĠ zhuanĠjiĠ
0 2Ġ
2 ĠnianĠ11
6 1ĠnianĠ
aĠ laĠsiĠ
aiĠ siĠ
shiĠ leĠ
jiĠ duanĠ
weiĠ xiaoĠ
qiĠ jiangĠ
beiĠ zhiĠ
wanĠ shiĠ
luoĠ wenĠ
xieĠ zhenĠ
cheĠ shenĠ
Ġ1 2ĠyueĠ1
xiuĠ liĠ
kaiĠshiĠ yuĠ
sunĠ ziĠ
5ĠyueĠ 20ĠriĠ
jueĠsaiĠ yiĠ
197 0ĠnianĠ
ĠteĠbieĠ shiĠzaiĠ
1 ĠnianĠ11
4 ĠnianĠ11
ĠĠĠ n
gongĠ yanĠ
xiangĠ zaiĠ
zhengĠ zhouĠ
jiangĠ daoĠ
wanĠ juĠ
quanĠ chengĠ
gaoĠ chaoĠ
bianĠ tiĠ
ĠdanĠ dangĠ
manĠ yiĠ
ĠshengĠ wuĠ
zhuĠyiĠ daoĠ
ĠdengĠ dengĠ
ĠtongĠnianĠ 10ĠyueĠ
ĠĠĠ198 8ĠnianĠ
200Ġ miĠ
4 1ĠnianĠ
5 9ĠnianĠ
I A
I L
O SĠ
R o
zhongĠ suoĠ
youĠ meiĠguoĠ
buĠ zhiĠdaoĠ
er sĠĠĠ
tongĠ shuaiĠ
shangĠ mianĠ
dongĠ maiĠ
yingĠ yuanĠ
zuĠ liĠ
gaoĠ erĠfuĠ
guĠ quanĠ
feiĠ chuanĠ
baĠ qiangĠ
ĠzhiĠ deĠshiĠ
douĠ yiĠ
duanĠ cengĠ
ĠgaiĠ xiaoĠ
qiaoĠ deĠ
yiĠshiĠ xingĠtaiĠ
ĠqingĠ nianĠ
ĠzhanĠ muĠsiĠ
197 9ĠnianĠ
Ġ192 4ĠnianĠ
20Ġ gongĠliĠ
ĠjieĠkeĠ xunĠ
ĠniuĠyueĠ shiĠbaoĠ
inclu deĠ
6 9Ġ
C H
heĠ anĠ
xiĠ teĠ
keĠ hanĠ
shengĠ suĠ
beiĠ guanĠjunĠ
quĠ xiangĠ
huaĠ fenĠweiĠ
liangĠ jieĠ
zuĠ muĠ
zuĠ shuĠjiĠ
ĠbingĠ jiangĠqiĠ
moĠ heĠ
tingĠ cheĠ
gangĠ shiĠ
canĠ junĠ
tuoĠ puĠ
renĠweiĠ taĠ
Ġ2 8Ġ
ĠgeĠ liĠ
ĠnanĠ fangĠ
al lĠ
zongĠtongĠ xuanĠjuĠ
xiaĠjiĠ aoĠyunĠhuiĠ
ĠaiĠerĠ lanĠ
liĠshaĠ baiĠ
0 5Ġ
5 1ĠnianĠ
aiĠ ziĠ
ĠĠĠ h
weiĠ duĠ
renĠ liĠ
erĠ quĠ
yuanĠ chengĠ
jieĠ riĠ
beiĠ shouĠyuĠ
shuĠ maĠ
zheĠ meĠ
jiaoĠ gaoĠdeĠ
luĠ xiangĠ
yangĠ junĠ
fengĠ ciĠ
ĠzhiĠ zaoĠ
2Ġ haoĠxianĠ
ĠbuĠ luĠ
daĠxueĠ shiĠ
ĠjieĠ tiĠ
jianĠzhuĠ qunĠ
zanĠ yangĠ
re t
ĠzuoĠ zheĠ
gaiĠbianĠ ziĠ
jiĠchuĠ shangĠ
6 8ĠnianĠ
8 1ĠnianĠ
8 9Ġ
p or
deĠ piaoĠ
ĠnianĠ duĠ
daĠ tuĠshaĠ
meiĠ guiĠ
xieĠ louĠ
feiĠ siĠ
linĠ suanĠ
chuanĠ chuĠ
deĠyiĠ keĠ
touĠ sheĠ
qiangĠ jianĠ
deĠyiĠgeĠ quĠ
ĠjuĠ baoĠdaoĠ
10 ĠshiĠ
youĠyiĠ xiaĠ
ĠguoĠ huiĠ
lengĠ queĠ
ĠhuoĠdeĠ leĠ
maĠqiĠ dunĠ
Ġ cunĠzaiĠ
Ġ mouĠxieĠ
liĠ angĠ
zaiĠ ouĠzhouĠ
heĠ yingĠ
er eĠĠĠ
xingĠ diĠ
ziĠ baoĠ
houĠ renĠ
Ġb ack
daiĠ jiaĠ
shenĠ touĠ
quanĠ wanĠ
shanĠ shangĠ
zhongĠguoĠ keĠxueĠyuanĠ
cunĠ huoĠ
ĠdangĠ riĠ
ĠjieĠ hunĠ
ĠsiĠ shiĠ
hengĠ kuaĠ
en sisĠ
shiĠzhenĠ deĠ
kunĠ raoĠ
yuĠ199 9ĠnianĠ
yeĠluĠ saĠlengĠ
7 2
i aĠ
Ġ on
jiĠ taĠ
weiĠ shouĠ
yuĠ minĠ
daĠ ruĠ
zhuĠ huaĠ
xinĠ shangĠ
xinĠ jiaoĠ
pingĠ fanĠ
xieĠ leĠ
biĠ yuĠ
guĠ yuĠ
sanĠ jieĠ
neiĠ buĠdeĠ
deĠyiĠ liaoĠ
gangĠ aoĠ
guangĠ huaĠ
kongĠ queĠ
chuangĠ shangĠ
rengĠ shiĠ
ĠyinĠciĠ taĠ
youĠyiĠ mingĠ
in tĠĠĠ
shuĠdeĠ dongĠwuĠ
ĠguoĠ fangĠ
ĠdianĠ naoĠ
ĠĠĠ199 2ĠnianĠ
ĠweiĠyuĠgaiĠguoĠ dongĠnanĠbuĠ
jieĠkeĠ xunĠ
buĠsiĠ baoĠ
neiĠmengĠguĠ ziĠzhiĠquĠ
B SĠ
zhuĠ chuĠ
zhuĠ jiangĠ
shuĠ fuĠ
juĠ juĠ
houĠ mianĠ
zhanĠ liĠ
zuoĠ luoĠ
yanĠ jiĠ
baoĠ mingĠ
yongĠ daoĠ
zhouĠ wuĠ
yaĠ shiĠ
duoĠ yangĠxingĠ
suĠ lvĠ
deĠdiĠ xiaĠ
ĠxingĠ qiĠ
jinĠshiĠ chuĠshenĠ
lingĠdaoĠ xiaĠ
yiĠbanĠ deĠ
es sĠĠĠ
Ġ192 6ĠnianĠ
ĠkongĠ taiĠ
liĠbaĠ nenĠ
mingĠniĠsuĠ daĠzhouĠ
0 6Ġ
7 2ĠnianĠ
O V
ĠĠĠ zhongĠhuaĠminĠguoĠ
yuĠ liuĠ
youĠ taĠ
buĠ faĠ
daĠ linĠ
xueĠ shuoĠ
duiĠ daiĠ
baĠ yiĠ
ĠweiĠ taiĠwanĠ
yunĠ zhuanĠ
chaoĠ renĠ
zhuangĠ cunĠ
shaĠ shiĠ
peiĠ yuĠ
peiĠ taoĠ
ĠyeĠ meiĠyouĠ
shuĠjiĠ shiĠ
zaoĠchengĠ leĠ
196 0ĠnianĠ
194 9ĠnianĠ
ĠranĠhouĠ zaiĠ
ĠĠĠxiaĠ shuĠ
ĠyaĠliĠ shanĠdaĠ
ĠĠĠst yleĠ
3 ĠnianĠ10
6 ĠzhiĠ
7 7ĠnianĠ
P layStationĠĠĠ
T S
e e
aoĠ weiĠhuiĠ
ĠĠĠ wenĠ
ĠĠĠ zuoĠpinĠ
qiĠ yuanĠyuĠ
jiaĠ miĠ
shangĠ qianĠ
xueĠ jieĠ
ciĠ heĠ
changĠ xiaoĠ
taiĠ miĠerĠ
kaiĠ yuanĠ
bianĠ huiĠ
danĠ xiaĠ
huanĠ quĠ
manĠ weiĠ
ĠbeiĠ buĠ
ĠchuĠ shengĠ
ĠshouĠ duĠ
diĠerĠ jiĠ
ĠluĠ junĠ
xiĠlieĠ deĠ
zuiĠhouĠ deĠ
jiĠtuanĠ junĠ
nieĠ ciĠkeĠ
fuĠshiĠ zhangĠ
touĠruĠ fuĠwuĠ
heiĠlongĠjiangĠ shengĠ
ĠĠĠ suiĠ
yuĠ tongĠnianĠ
siĠ kaoĠ
tongĠ leiĠ
zuĠ aiĠ
wanĠ pingĠfangĠmiĠ
suoĠ niĠ
duoĠ shaoĠ
sanĠ fenĠzhiĠyiĠ
cheĠ huiĠ
tuĠ muĠ
Ġ1 ĠgeĠ
naĠ shiĠ
caiĠ jingĠ
chanĠ yuĠ
ĠwuĠ liĠ
ĠhouĠ beiĠ
ĠyuanĠ weiĠ
deĠyiĠgeĠ xianĠ
al ĠĠĠS
xueĠshengĠ huiĠ
yinĠduĠ jiaoĠ
deĠshengĠ liĠ
suoĠxuĠ deĠ
A d
ĠĠĠ bingĠ
ĠĠĠ houĠxuĠ
qiĠ feiĠ
keĠ gongĠ
keĠ beiĠ
shengĠ ziĠ
jinĠ qianĠ
jingĠ jiĠdeĠ
luĠ guiĠ
lianĠ huaĠ
huĠ heĠ
tianĠ wangĠ
Ġ1 00
moĠ xiĠ
linĠ quĠ
ĠzhongĠ shanĠ
ĠdiĠ quĠ
ĠyingĠ xiongĠ
ĠjieĠ gouĠ
leĠyiĠ xiangĠ
ĠbenĠ zuoĠ
Ġ6 0Ġ
kaiĠfaĠ quĠ
anĠdeĠ lieĠ
ĠchuangĠ zaoĠ
ver si
- .
4 7ĠnianĠ
8 ĠzhiĠ
enĠ deĠ
liĠ niĠ
guoĠ quĠdeĠ
jieĠ mengĠ
jiaĠ wanĠ
zhuĠ heĠ
daoĠ zhongĠ
ziĠ dongĠhuaĠ
leĠ ziĠjiĠdeĠ
leĠ zheĠyiĠ
huoĠ weiĠ
nanĠ changĠ
gaoĠ chuĠ
kaiĠ tuoĠ
duoĠ buĠ
duoĠ mianĠtiĠ
liuĠ renĠ
ĠzaiĠ weiĠ
ĠzaiĠ taiĠwanĠ
ĠbingĠ kaiĠshiĠ
ĠjinĠ zhiĠ
ĠdiĠ yiĠgeĠ
liaoĠ liĠ
bangĠ jiaĠ
guanĠliĠ weiĠyuanĠhuiĠ
1ĠriĠ pingĠjunĠ
ĠtongĠnianĠ 12ĠyueĠ
14 0Ġ
zhiĠzaoĠ deĠ
lingĠxianĠ zhuĠyanĠ
dangĠweiĠ shuĠjiĠ
jiaĠliĠfuĠ niĠyaĠ
j ec
shiĠ jiaoĠ
ĠĠĠ woĠ
changĠ zaiĠ
ĠshiĠ yeĠ
zuĠ shiĠ
shenĠ xiangĠ
wanĠ zhangĠ
qiuĠ shiĠ
duoĠ chuĠ
dingĠ zhiĠ
ĠzaiĠ jinĠ
dangĠ zaiĠ
haoĠ laiĠwuĠ
ĠzhiĠ xingĠ
ri p
ĠzuoĠ quĠ
pangĠ bianĠ
ĠbuĠguoĠ zaiĠ
deĠshengĠ wuĠ
ĠchongĠ zhenĠ
muĠdiĠ diĠ
0 4Ġ
5 4ĠnianĠ
e yĠ
s ti
u reĠ
zhiĠ ciĠ
youĠ juĠ
jieĠ yueĠ
xiangĠ siĠdeĠ
shouĠ suoĠ
qingĠ songĠ
banĠ nianĠ
lingĠ jiĠ
bingĠ zhongĠ
feiĠ chengĠ
baĠ biĠ
suĠ chengĠ
ceĠ qiĠ
tangĠ daiĠ
ĠfuĠ liĠ
zanĠ wuĠ
ĠlianĠ saiĠ
deĠdaoĠ yuĠ
ĠsheĠ xianĠ
yuĠ200 4ĠnianĠ
ĠchuangĠ banĠ
ob er
zuĠgouĠ deĠ
4 3ĠnianĠ
6 6ĠnianĠ
Ġ chuiĠ
yiĠ zhaoĠ
guoĠ qingĠ
gongĠ cheĠ
chuĠ seĠ
mingĠ daiĠ
shouĠ quĠ
zuoĠ keĠ
zheĠ buĠ
dongĠ zhengĠ
xiaoĠ haiĠ
yinĠ siĠ
muĠ lanĠ
ĠyiĠ shengĠ
quanĠ jingĠ
dangĠ heĠ
zhuangĠ zuĠziĠzhiĠquĠ
renĠkouĠ deĠ
ĠxiĠ riĠbenĠ
ĠguĠ jiĠ
ri tic
ĠkaĠ laĠ
deĠxinĠ xiĠ
ĠzhuĠyaoĠ shiĠ
zhiĠjianĠdeĠ guanĠxiĠ
Ġ192 5ĠnianĠ
zhouĠliĠ daĠxueĠ
fli x
B O
Ġ zaoĠdaoĠ
liĠ mingĠ
liĠ baiĠ
zhongĠ faĠxianĠ
tongĠ heĠ
liangĠ diĠ
haiĠ meiĠyouĠ
ĠyiĠ xiangĠ
quanĠ yuĠ
quanĠ nianĠ
quanĠ daoĠ
miĠ liĠ
biaoĠ shiĠweiĠ
guĠ tiĠ
saiĠ jiĠdeĠ
ĠtaĠ danĠrenĠ
fengĠ zhiĠ
waiĠ keĠ
guiĠ shuĠ
chanĠ jieĠjiĠ
ĠzheĠ leiĠ
keĠyiĠ beiĠ
ĠchuĠ xianĠ
hunĠ xiaoĠ
ĠzhengĠ tiĠ
sanĠgeĠ yueĠ
Ġ191 4ĠnianĠ
ĠĠĠc olspanĠ
1 ĠyiĠ
P P
yiĠ leiĠ
xingĠ qiĠhouĠ
keĠ yongĠyuĠ
guanĠ zhangĠ
yeĠ chengĠ
wangĠ yuĠ
lingĠ youĠ
luoĠ heĠ
yangĠ qiĠ
ĠqiĠ yiĠ
paiĠ qiuĠ
ganĠ xieĠ
ĠyingĠ gaiĠ
18 ĠshiĠjiĠ
ĠyongĠ yiĠ
ol Ġ
lianĠsaiĠ deĠ
pangĠ daĠ
4 ĠnianĠ10
8 3
³ Ġ
shiĠ erĠyueĠ
renĠ youĠ
qiĠ mingĠ
xingĠ jingĠ
siĠ jieĠ
shouĠ tiĠ
xueĠ buĠ
zhouĠ xianĠ
quanĠ meiĠ
guĠ yuanĠ
linĠ kenĠ
zhaoĠ shengĠ
hongĠ waiĠ
kaiĠshiĠ shiĠ
laoĠ huĠ
ĠhaiĠ shiĠ
ĠtaiĠ leiĠ
yinĠduĠ yangĠ
mingĠshiĠ bingĠ
ĠĠĠyueĠ ĠĠ
ĠkongĠtaiĠ daĠquĠ
ï ¹
ĠĠĠ suoĠyouĠ
jinĠ biĠ
yingĠ fuĠ
banĠ shangĠ
liuĠ shouĠ
guiĠ yuĠ
ĠzhiĠ yeĠ
suiĠ yiĠ
pianĠ weiĠ
chuangĠ xiaĠ
ĠyeĠ zaiĠ
ĠxinĠ deĠ
biaoĠzhunĠ deĠ
196 4ĠnianĠ
aoĠsiĠ manĠdiĠguoĠ
yiĠfuĠ xingĠ
haĠerĠ keĠfuĠ
ĠfuĠlangĠ shenĠ
Ġback groundĠ
ĠĠĠ lanĠ
ĠĠĠ xianĠshiĠ
liĠ jiaoĠ
zhongĠ huoĠdeĠ
diĠ 4Ġ
li n
jianĠ kongĠ
siĠ leĠ
xianĠ jinĠdeĠ
daoĠ weiĠ
xiangĠ shouĠ
dongĠ ciĠ
yingĠ quĠ
yanĠ liĠ
fenĠ faĠ
junĠ xianĠ
kaiĠ leĠ
maĠ diĠ
sanĠ tiaoĠ
niĠ poĠerĠ
zhuanĠ lanĠ
ĠyinĠ yingĠ
ĠbuĠ laĠ
haĠ saĠkeĠ
jingĠjiĠ faĠzhanĠ
ĠxingĠ rongĠ
ĠfeiĠ zhouĠ
shuaiĠ tuiĠ
tunĠ bingĠ
4 4ĠnianĠ
4 6ĠnianĠ
9 ĠyueĠ28ĠriĠ
ĠĠĠ juĠliĠ
weiĠ shuĠjiĠ
guoĠ renĠ
guoĠ tuĠ
buĠ dangĠ
daĠ biĠ
xiĠ youĠ
daoĠ chuĠ
daoĠ taiĠ
shuĠ deĠyiĠzhongĠ
tongĠ renĠ
ĠshiĠ yinĠweiĠ
haiĠ nanĠ
yueĠ shiĠ
banĠ xueĠ
xieĠ weiĠ
hanĠ weiĠ
3Ġ fenĠ
xiuĠ yangĠ
ĠliĠ jiĠ
longĠ shiĠ
ĠxiangĠ jiaoĠyuĠ
ĠmaĠ keĠsiĠ
ĠI n
shuaiĠ luoĠ
00ĠmiĠ zhiĠ
ĠĠĠ guiĠdaoĠ
er s
jiaĠ chenĠ
chuĠ jiaĠ
20 ĠfenĠ
juĠ zhiĠ
changĠ tuĠ
yeĠ nengĠ
shenĠ shuiĠ
quanĠ leiĠdaĠ
teĠ renĠ
sanĠ baiĠ
zhuangĠ youĠ
canĠ baiĠ
ĠliĠ jingĠ
laoĠ renĠ
ĠnanĠ ziĠ
yingĠxiangĠ liĠdeĠ
paoĠ deĠ
ĠyiĠjiĠ zaiĠ
Ġ3 00Ġ
ĠzhongĠguoĠ renĠminĠ
ĠquanĠ xianĠ
shuĠjuĠ kuĠ
4ĠyueĠ 30ĠriĠ
ĠsuĠ geĠlanĠ
Ġ192 2ĠnianĠ
ceĠshiĠ yueĠtaiĠ
ãģ ®
tanĠxianĠ duiĠ
shiĠ qianĠ
ĠĠĠ zheĠzhongĠ
ĠĠĠ ofĠĠĠ
zaiĠ dongĠ
jiaĠ geiĠ
huiĠ jianĠ
faĠ kuanĠ
shuĠ zhangĠ
huaĠ bingĠ
zuoĠ chengĠ
sheĠ zhengĠ
liangĠ changĠ
ĠyiĠ qianĠ
quanĠ liĠdeĠ
miĠ laĠ
zhenĠ heĠ
guĠ erĠ
boĠ heĠ
ĠzaiĠ yingĠguoĠ
baĠ qiĠ
chuanĠ dongĠ
guiĠ huanĠ
poĠ shiĠ
ĠyingĠ yongĠ
lv ĠboĠ
qiĠtaĠ diĠquĠ
tieĠluĠ deĠ
deĠzhuĠ liĠ
ol d
jieĠshiĠ leĠ
jiĠyiĠ shangĠ
gaoĠdengĠ faĠyuanĠ
1 10
i x
aĠ leiĠ
ĠĠĠ dianĠ
ĠĠĠ jingĠguoĠ
zhiĠ 193
heĠ huoĠ
chuĠ xuanĠ
tongĠ guanĠ
dongĠ yiĠ
duĠ caiĠ
biĠ xiĠ
zhenĠ jingĠ
ĠweiĠ liĠ
ĠyouĠ xiaoĠ
gangĠ weiĠ
guangĠ mingĠ
ĠjinĠ shiĠ
ĠjinĠ jiĠ
diaoĠ keĠ
haĠ saĠkeĠsiĠtanĠ
qunĠ deĠ
ĠshiĠyiĠ yueĠ
ĠquanĠ taiĠ
liangĠgeĠ yueĠ
Ġ192 3ĠnianĠ
ĠĠĠ198 9ĠnianĠ
4 8ĠnianĠ
G D
e si
t onĠ
ĠĠĠ shangĠyeĠ
zhiĠ zheĠ
diĠ fenĠ
tongĠ qinĠ
guanĠ mingĠ
meiĠ jiangĠ
jiaoĠ caiĠ
ĠshiĠ pinĠ
muĠ changĠ
wangĠ gongĠ
saiĠ huiĠ
liuĠ yiĠ
fengĠ xiangĠ
hanĠ renĠ
caiĠ fangĠshiĠ
zhuanĠ xingĠ
lunĠ liĠ
ĠerĠ ciĠ
zhuangĠ zaiĠ
piĠ linĠ
8Ġ pingĠfangĠgongĠliĠ
ĠlingĠ daoĠ
ruiĠ shiĠdeĠ
ĠquanĠ buĠ
Ġ191 8ĠnianĠ
guoĠliĠ taiĠwanĠ
boĠluoĠ diĠhaiĠ
shuaiĠlingĠ deĠ
B l
ĠĠĠ waiĠ
ĠĠĠ taĠmenĠ
tiĠ buĠ
ruĠ wuĠ
qingĠ renĠ
zhenĠ tanĠ
liuĠ paiĠ
zaoĠ yiĠ
ĠliĠ xinĠ
yanĠjiuĠ shiĠ
in k
chengĠyuanĠ deĠ
ĠpingĠ taiĠ
jieĠshuĠ shiĠ
ĠhuangĠ jiaĠ
deĠxinĠ wenĠ
ĠĠĠliĠ ruĠ
ĠĠĠ195 0ĠnianĠ
erĠheĠ panĠ
daĠniĠ haoĠ
kenĠtaĠjiĠ zhouĠ
T wit
e anĠ
o sĠĠĠ
ĠĠĠ g
weiĠ gaiĠ
zhiĠ nvĠ
renĠ xuanĠ
zaiĠ deĠguoĠ
erĠ chengĠdeĠ
duiĠ zhiĠ
ĠyiĠ beiĠ
bianĠ buĠ
guangĠ nianĠ
1Ġ fenĠ
lvĠ chengĠ
deĠshiĠ yeĠ
ĠdangĠ taĠ
ĠdaĠ poĠ
ĠyuanĠ yinĠ
ĠchengĠ renĠ
shiĠwuĠ deĠ
ĠĠĠdiĠ mingĠ
10Ġ renĠ
7ĠyueĠ 7ĠriĠ
deĠyouĠ juĠ
198 6ĠnianĠ
ĠweiĠyuĠgaiĠguoĠ zhongĠbuĠ
ĠxiongĠ yaĠliĠ
jieĠquanĠguoĠ renĠdaĠdaiĠbiaoĠ
ĠĠĠbuĠ guoĠ
DV D
a ceĠĠĠ
i aĠĠĠ
Ġ foĠ
zhongĠ caiĠ
youĠ guoĠ
youĠ geĠ
youĠ jinĠ
heĠ xieĠ
er g
xianĠ suoĠ
huiĠ guanĠ
mingĠ hanĠ
changĠ guanĠ
xinĠ beiĠ
ĠshiĠ zhangĠ
fenĠ hangĠ
baoĠ jiĠ
muĠ caiĠ
shenĠ gaoĠ
minĠ shiĠ
yaoĠ daoĠ
sanĠ siĠ
tangĠ muĠ
yanĠjiuĠ deĠ
ĠdongĠ haiĠ
ĠxiangĠ shiĠ
paoĠ jiĠ
ĠmingĠ chengĠ
ĠA m
kuaĠ guoĠ
aĠerĠ beiĠ
ĠmanĠ zhouĠ
qiangĠlieĠ deĠ
jiangĠxueĠ jinĠ
B L
B BC
M L
T h
Ġ qiaĠ
youĠ fuĠ
jiaĠ xingĠ
haiĠ paĠ
muĠ diĠshiĠ
daiĠ haoĠ
liuĠ liĠ
fanĠ shouĠ
suĠ junĠ
zhuanĠ xianĠ
ĠbeiĠ songĠ
yiĠzhiĠ daoĠ
ĠjianĠ chaĠ
paoĠ taiĠ
ĠshangĠ haiĠshiĠ
ĠbenĠ ciĠ
Ġg uaiĠ
wanĠchengĠ houĠ
il Ġ
jiĠgouĠ deĠ
zhanĠlingĠ leĠ
ĠdiĠerĠciĠ shiĠjieĠdaĠzhanĠ
G N
youĠ qianĠ
buĠ gouĠ
shouĠ lieĠ
meiĠ ciĠ
huoĠ yiĠ
yinĠ bingĠ
laiĠ keĠ
lianĠ siĠjiĠ
duoĠ luoĠ
yangĠ renĠ
feiĠ yaĠ
zongĠ deĠ
ĠweiĠ jiĠ
linĠ yeĠ
ĠerĠ jiĠ
canĠ jianĠ
manĠ haĠdunĠ
10Ġ miĠ
30 00Ġ
leĠbuĠ shaoĠ
ĠzheĠshiĠ taĠ
geĠliĠ teĠ
Ġ191 1ĠnianĠ
baoĠliuĠ leĠ
Ġon ly
8 2ĠnianĠ
A TĠ
G P
w ith
ĠĠĠ yinĠciĠ
yuĠ fangĠ
yuĠ liangĠ
zaiĠ geĠ
heĠ yanĠ
shuĠ xiaĠ
xinĠ geĠ
xiaoĠ weiĠ
shenĠ xinĠ
lingĠ jianĠ
ĠqiĠ fuĠ
deĠyiĠ buĠ
ceĠ suoĠ
qinĠ shuĠ
ĠbuĠ yaoĠ
ĠchuĠ feiĠ
kuaiĠ leĠ
ĠqianĠ zheĠ
ĠfaĠ yuĠ
ap p
ĠÑ Ģ
Ġonly includeĠ
u ngĠ
weiĠ erĠdeĠ
youĠ ĠĠ
jieĠ naĠ
yinĠ renĠ
ĠyiĠ liĠ
shenĠ mingĠ
quanĠ heĠ
kaiĠ shiĠyiĠ
guĠ shiĠdeĠ
suĠ qiuĠ
Ġ19 19ĠnianĠ
chuanĠ daĠ
paiĠ jiĠ
chaĠ heĠ
chongĠ dangĠ
tuoĠ keĠ
faĠxianĠ yuĠ
faĠzhanĠ chuĠ
ĠsanĠ jiaĠ
Ġ4 5Ġ
ĠnvĠ xingĠweiĠ
+ +
9 ĠnianĠ11ĠyueĠ
shiĠ liangĠ
youĠ qingĠ
chengĠ jianĠ
keĠ shiĠyongĠ
fangĠ suoĠ
huaĠ gongĠ
zhanĠ yuĠ
zheĠ shouĠgeĠ
meiĠ jiĠ
ruĠ jinĠ
haiĠ weiĠ
wanĠ mingĠ
ĠqiĠ zhongĠdeĠ
bieĠ deĠ
bangĠ shouĠ
maoĠ siĠ
diĠyiĠ jiaĠ
haĠ teĠ
qiĠtaĠ renĠ
ĠmeiĠ junĠ
ĠbiĠ mianĠ
nuĠ siĠ
ĠchangĠ pianĠ
ĠgenĠjuĠ 2010ĠnianĠmeiĠguoĠrenĠkouĠpuĠchaĠ
liĠkaiĠ leĠ
196 0ĠnianĠdaiĠ
Ġ192 1ĠnianĠ
op h
ĠĠĠ193 7ĠnianĠ
4 ĠliĠ
4 5ĠnianĠ
R O
Ġ zhaiĠ
ĠĠĠ jiaoĠ
chengĠ daĠ
xianĠ qiĠ
shuĠ xiĠ
shangĠ heĠ
shouĠ jiaĠ
duiĠ taĠdeĠ
tuĠ weiĠ
tingĠ ĠĠ
deĠyiĠ chuĠ
ĠjiĠ jiĠ
ĠerĠ beiĠ
touĠ suĠ
nvĠ zuoĠ
âĢ ¢
riĠbenĠ diĠguoĠ
ĠhouĠ renĠ
yingĠxiangĠ leĠ
ĠjiuĠ xiangĠ
zhanĠzhengĠ baoĠfaĠ
tongĠshiĠ yeĠ
deĠgongĠ xianĠ
chengĠduĠ deĠ
ĠweiĠyuĠgaiĠguoĠ nanĠbuĠ
miĠerĠ dunĠ
taoĠtaiĠ saiĠ
jiaoĠkeĠwenĠ zuĠzhiĠ
7 0ĠnianĠdaiĠ
i tĠ
aĠ saiĠbaiĠjiangĠ
ĠĠĠ dangĠshiĠ
zhuĠ suoĠ
faĠ xueĠyuanĠ
guanĠ jieĠ
ĠyiĠ siĠlanĠ
luoĠ yiĠ
luoĠ diĠ
xieĠ tongĠ
zuiĠ zhongĠyaoĠ
sanĠ chongĠ
huĠ anĠ
zhuanĠ yunĠ
zhuanĠ yiĠzhiĠ
waĠ jieĠ
ĠkeĠ linĠ
ĠjianĠ shaoĠ
ĠshengĠ mingĠ
in e
ĠnaĠ xieĠ
jiĠnianĠ guanĠ
jianĠchaĠ yuĠshiĠ
jiĠbaiĠ leĠ
diĠyaĠ geĠ
chuoĠ haoĠ
Ġ2011ĠnianĠ12ĠyueĠ 31ĠriĠ
taiĠfengĠjingĠbaoĠ zhongĠxinĠ
8 ĠyueĠ15ĠriĠ
L e
p sĠ
Ġ zangĠ
ĠĠ 201
aiĠ xiĠyaĠ
shiĠ jueĠ
yuĠ taiĠwanĠ
liĠ dengĠ
youĠ buĠtongĠ
gongĠ guanĠ
jieĠ shengĠ
ziĠ xiĠ
faĠ fangĠ
faĠ xiĠsiĠ
jinĠ ciĠyuĠ
taĠ yeĠ
juĠ dongĠ
wenĠ pingĠ
sanĠ tianĠ
zongĠ jueĠsaiĠ
douĠ yaoĠ
ĠliĠ buĠ
Ġ2 ĠĠĠ
yiĠweiĠ zhuĠ
ro u
ĠchengĠweiĠ leĠ
deĠgongĠ gongĠ
aĠerĠ jiĠliĠyaĠ
ĠfenĠbuĠyuĠ nanĠmeiĠzhouĠ
baoĠkuoĠyiĠxiaĠ wuĠzhongĠ
Ġ tĠ
Ġ st
yiĠ xiaoĠ
ĠĠĠ quĠ
yuĠ qiuĠ
yuĠ lunĠ
renĠ tianĠtangĠ
guoĠ yingĠ
qiĠ huoĠ
buĠ sheĠ
jieĠ luĠ
beiĠ dongĠ
beiĠ chengĠzuoĠ
meiĠ tongĠpaiĠ
yinĠ shuĠ
qingĠ danĠ
luoĠ wanĠ
suoĠ chuĠ
laĠ shengĠ
baĠ nenĠ
piĠ quanĠguoĠzhongĠdianĠwenĠwuĠbaoĠhuĠdanĠweiĠ
shuoĠ taĠ
diĠyiĠ zuoĠ
souĠ xunĠ
qiĠyeĠ jiaĠ
ĠJ ohnĠĠĠ
zaiĠ201 2ĠnianĠ
ĠgangĠ tieĠ
keĠluoĠ laĠduoĠ
yinĠfaĠ leĠ
ĠweiĠfuĠqiĠyuĠgangĠ luĠxingĠmuĠ
ĠxinĠzengĠ jingĠwaiĠshuĠruĠ
sheĠjiaoĠ meiĠtiĠ
8 2
E P
m an
shiĠ chengĠ
ĠĠĠ yaoĠ
ĠĠĠ rongĠyuĠ
siĠ duoĠ
fuĠ linĠ
keĠ changĠ
beiĠ huiĠ
zhengĠ xuanĠ
juĠ jiĠtuanĠ
teĠ sheĠ
ĠbingĠ danĠrenĠ
linĠ jinĠdeĠ
douĠ yuĠ
ganĠ lanĠqiuĠ
gengĠ youĠ
waĠ niĠ
ĠzhuĠ mingĠ
yanĠjiuĠ renĠyuanĠ
ĠkeĠ laĠ
ĠjuĠ leĠbuĠ
huoĠdongĠ zhongĠ
16 0
50Ġ renĠ
es sĠ
sanĠshiĠ siĠnianĠ
anĠdeĠ luĠ
xianĠluĠ kouĠ
zhiĠluĠ houĠ
puĠluoĠ wangĠsiĠ
aĠ kenĠseĠ
aiĠ lunĠ
shiĠ mingĠ
shiĠ paiĠ
yiĠ liuĠ
yiĠ bingĠ
duiĠ jiĠ
maĠ muĠ
ĠzaiĠ zheĠgeĠ
shanĠ cunĠ
dengĠ wenĠtiĠ
menĠ jiangĠ
guiĠ linĠ
ĠdiĠ qiĠ
ĠdaĠ chengĠ
ĠsanĠ geĠ
ĠwangĠ wangĠ
qiĠshiĠ tuanĠ
deĠxiaoĠ guoĠ
ĠbingĠyuĠ tongĠnianĠ
jiĠduĠ tuĠ
ĠĠĠzhiĠ beiĠ
jiĠhouĠ saiĠ
liĠ daiĠ
geĠ zhiĠ
yuanĠ langĠ
daoĠ fangĠ
ziĠ ciĠ
huiĠ yanĠ
zhengĠ houĠ
jingĠ juĠ
ĠyueĠ tuanĠ
huaĠ chengĠ
huaĠ tingĠ
yeĠ keĠnengĠ
baoĠ chouĠ
zhangĠ chengĠ
liangĠ buĠ
lingĠ junĠ
maĠ shangĠ
bianĠ qianĠ
neiĠ heĠ
cengĠ ciĠ
zhaoĠ daoĠleĠ
queĠ dianĠ
ĠdangĠ xuanĠweiĠ
henĠ jiĠ
chunĠ tianĠ
ĠjiuĠ duĠ
zhongĠyangĠ weiĠyuanĠ
youĠjiĠ huiĠ
yuĠ199 7ĠnianĠ
weiĠfuĠ teĠ
zongĠbuĠ weiĠyuĠ
Ġ quĠyuĠ
shiĠ xiaoĠ
ĠĠĠ shiĠjiĠ
renĠ xinĠ
qiĠ wangĠ
xingĠ benĠ
yuanĠ junĠ
jieĠ boĠ
xiangĠ dengĠ
taĠ liĠ
ĠyueĠ taiĠ
huaĠ wuĠ
changĠ youĠ
lianĠ shengĠ
suoĠ waĠ
qiuĠ yiĠ
duoĠ biĠ
benĠ ciĠ
fengĠ boĠ
ĠtongĠ shiĠzaiĠ
ĠjinĠ rongĠ
laoĠ woĠ
deĠjiĠ zaiĠ
zuĠqiuĠ jinĠbiaoĠsaiĠ
xueĠshengĠ deĠ
5ĠyueĠ 31ĠriĠ
ĠzuiĠzhongĠ zaiĠ
ĠcaiĠ nengĠ
deĠshengĠ mingĠ
ĠjinĠguanĠ ruĠciĠ
yuĠ199 6ĠnianĠ
xiangĠduiĠ lunĠ
zaiĠ200 8ĠnianĠ
ĠnuoĠ weiĠ
7 ĠnianĠ1
A pp
ĠĠĠ shaoĠ
weiĠ zhongĠxinĠ
xiĠ mengĠ
yuanĠ linĠ
keĠ niĠ
daoĠ zhiĠdeĠ
chuĠ youĠ
zuoĠ zaiĠ
meiĠ tanĠ
yingĠ lianĠbangĠ
wenĠ yuĠ
qiuĠ xingĠ
bianĠ houĠ
boĠ huiĠ
shanĠ touĠ
zeĠ huiĠ
cunĠ yuĠ
ganĠ hanĠ
ĠyeĠ jianĠ
lv ĠbingĠ
ĠshangĠ wuĠ
en ceĠ
minĠzhuĠ paiĠ
197 8ĠnianĠ
11Ġ geĠ
zhengĠquanĠ jiaoĠyiĠsuoĠ
ĠnianĠ12ĠyueĠ2 8ĠriĠ
ĠjianĠzhuĠ mianĠjiĠ
â ħ
heĠ dangĠ
jieĠ xiaĠlaiĠ
fangĠ diĠchanĠ
huoĠ fuĠ
tiĠ duĠ
ruĠ yiĠ
wangĠ guoĠdeĠ
pingĠ deĠ
dingĠ gouĠ
xuanĠ xiangĠ
ĠtaĠ keĠyiĠ
cheĠ tiĠ
caiĠ youĠ
zhuangĠ weiĠlinĠ
ĠxiĠ yinĠ
ĠciĠ riĠ
deĠzhiĠ liangĠ
ĠbiĠ liĠshiĠ
yinĠyueĠ jieĠ
ĠĠĠshengĠ taiĠ
yiĠjingĠ beiĠ
jiĠluĠ deĠ
Ġãģ Ħ
ĠĠĠbenĠshuĠ baoĠkuoĠyiĠxiaĠwuĠzhongĠ
D A
Ġ cuĠjinĠ
ĠĠĠ eĠ
jiĠ junĠ
weiĠ mianĠ
zhiĠ zhangĠ
zhongĠ dongĠ
xianĠ shiĠdeĠ
shengĠ geĠ
ĠshiĠ siĠ
ĠzaiĠ xiangĠgangĠ
haoĠ zhaoĠ
baiĠ qiangĠ
tuoĠ siĠ
songĠ jiangĠ
zhengĠzhiĠ weiĠyuanĠ
Ġ2 9
jingĠjiĠ changĠ
zanĠ shangĠ
chouĠ wenĠ
ĠduoĠ deĠ
00 ĠĠĠ
huanĠjingĠ zhongĠ
ĠhongĠ seĠ
195 0ĠnianĠ
laĠjiĠ miĠerĠ
ĠaĠerĠbeiĠsiĠ daĠquĠ
e oĠ
g aĠerĠ
ch ĠĠĠ
ĠĠĠ ouĠ
ĠĠĠ chengĠliĠ
zaiĠ dangĠdiĠ
erĠ xiĠ
shuĠ nianĠ
meiĠ yiĠgeĠ
jiaoĠ huoĠ
ĠshiĠ dangĠdiĠ
laiĠ teĠ
pingĠ jiĠ
kaiĠ qiangĠ
sanĠ lingĠ
dengĠ fangĠmianĠ
Ġ1 ĠyueĠ
ĠjiĠ xieĠ
baiĠ yinĠ
kongĠ jianĠdeĠ
deĠshiĠ changĠ
shaoĠ qingĠ
tieĠ muĠerĠ
tuoĠ xieĠ
keĠyiĠ zhuiĠsuĠdaoĠ
shiĠjiĠ luĠ
pengĠ zhuangĠ
zhongĠyangĠ zhengĠfuĠ
ruoĠ deĠ
quĠyuĠ deĠ
juĠbanĠ leĠ
yuĠ199 5ĠnianĠ
mingĠziĠ mingĠmingĠ
moĠtuoĠ cheĠ
ĠISTAT ĠdaiĠmaĠweiĠ0
r yĠ
ĠĠ O
ĠĠĠ neiĠ
liĠ taĠ
youĠ yueĠ
youĠ zhuĠyuĠ
fuĠ chouĠ
keĠ longĠ
jiaĠ shuoĠ
xiangĠ jieĠ
chuĠ mingĠ
jingĠ yingĠdeĠ
jiangĠ yuanĠ
liangĠ tianĠ
muĠ yeĠ
qingĠ xiangĠyuĠ
ĠzaiĠ beiĠ
danĠ chunĠ
huĠ lveĠ
tuĠ shiĠ
zeĠ shiĠzaiĠ
ĠtongĠ shiĠyiĠ
genĠjuĠ diĠ
ĠgaoĠ suĠ
ĠtianĠ zhuĠjiaoĠ
ĠhanĠ gaiĠ
ĠjiaoĠ tangĠ
cuĠ shiĠ
jianĠchaĠ yuanĠ
taiĠnanĠ shiĠ
ĠshiĠweiĠyuĠmeiĠguoĠmiĠ suĠliĠzhouĠ
junĠshiĠtanĠdingĠ baoĠ
6 7ĠnianĠ
7 ĠnianĠ10
m entĠ
Ġ kuoĠ
deĠ meiĠguoĠ
ãĢ ķ
ĠĠĠ xieĠ
zhongĠ nanĠbuĠ
heĠ riĠbenĠ
keĠ luĠ
ĠshiĠ douĠ
xiaĠ xingĠ
ruĠ duĠ
minĠ suĠ
gaoĠ jiĠzhongĠxueĠ
mianĠ youĠ
dingĠ baoĠ
yangĠ zhiĠ
ĠtaĠ kaiĠshiĠ
ĠweiĠ zhiĠ
caiĠ seĠ
ĠgaiĠ diĠquĠ
shuoĠ huaĠ
hongĠ yiĠ
ĠfuĠ muĠ
deĠjiĠ heĠ
niuĠ xiĠlanĠ
en c
ningĠ xiaĠ
ĠboĠ siĠ
erĠshiĠ erĠnianĠ
ĠzuoĠ youĠ
yaĠliĠ sangĠ
yingĠyongĠ chengĠxuĠ
ĠV Ġ
saoĠ luanĠ
peiĠyinĠ yuanĠ
liĠwuĠ puĠ
ĠshiĠziĠ lvĠ
juĠleĠ buĠdeĠ
ĠqiĠzhongĠnanĠ xingĠweiĠ
5 ĠyueĠ15ĠriĠ
7 3ĠnianĠ
anĠ dingĠ
deĠ chengĠzhenĠ
zaiĠ lunĠdunĠ
qiĠ shiĠshiĠ
xiĠ huĠ
jianĠ zhangĠ
geĠ douĠ
ziĠ siĠ
chuĠ ruĠ
tongĠ zhiĠdeĠ
xueĠ jiĠ
zheĠ zhiĠ
zhouĠ enĠlaiĠ
ĠyiĠ wenĠ
liuĠ zhiĠ
tianĠ naĠ
ĠweiĠ shengĠ
congĠ ciĠ
pinĠ yinĠ
ĠyinĠ hangĠ
gouĠ chengĠdeĠ
ĠdiĠ zhiĠ
waĠ leiĠ
nuoĠ weiĠqiĠ
ĠxiangĠ duiĠ
youĠyiĠ zhongĠ
ĠshiĠyiĠ kuanĠ
ĠmuĠ diĠ
yinĠyueĠ xueĠyuanĠ
qiuĠduiĠ deĠ
xingĠweiĠ deĠ
faĠbiaoĠ shengĠmingĠ
weiĠzhuĠ tiĠ
ow nĠ
xiangĠshiĠ juĠrenĠ
guangĠboĠ dianĠshiĠ
as s
zaiĠ201 5ĠnianĠ
xiaoĠzuĠ saiĠ
mi uĠ
aĠmuĠ siĠteĠ
yiĠ guanĠ
ãĢ Ķ
ĠĠĠ xingĠtaiĠ
weiĠ wangĠ
heĠ leiĠ
wuĠ baiĠ
chuĠ zuĠ
jiangĠ taĠmenĠ
qingĠ guiĠ
lianĠ huiĠ
minĠ diĠ
suoĠ xiaoĠ
sanĠ qianĠ
baĠ teĠ
ĠdanĠ baiĠ
zhuanĠ zhuĠ
lunĠ taiĠ
ĠzhiĠ suoĠzaiĠ
ĠgaiĠ chengĠ
ĠgaiĠ juĠ
chuangĠ liĠdeĠ
ĠxiaoĠ fangĠ
ĠguiĠ huaĠ
yuĠ200 3ĠnianĠ
ĠĠĠ198 4ĠnianĠ
2001ĠnianĠ zongĠrenĠkouĠ
Ġà ¤
shenĠshengĠ luoĠmaĠdiĠguoĠ
inu x
ĠĠĠgaiĠdiĠ 2001ĠnianĠzongĠrenĠkouĠ
i tĠĠĠ
ĠĠĠ neiĠrongĠ
yuĠ huiĠ
fuĠ yuanĠzhangĠ
xianĠ xiaĠ
zhuĠ zaoĠ
jinĠ zhongĠ
dongĠ yongĠ
yinĠ siĠtanĠ
liangĠ souĠ
banĠ jueĠsaiĠ
gaoĠ qingĠ
dangĠ kuiĠ
zeĠ xiĠzhouĠ
kouĠ deĠ
3Ġ jiaĠ
ĠzhongĠ jianĠ
ĠxiĠ anĠ
diĠyiĠ daiĠ
haĠ maĠ
Ġ2 9Ġ
Ġ3 5Ġ
ziĠjiĠ zaiĠ
paĠ teĠ
ĠfaĠ lvĠ
jianĠchaĠ guanĠ
Ġ191 7ĠnianĠ
Ġ6Ġ suiĠrenĠkouĠ
changĠwuĠ weiĠyuanĠhuiĠ
ĠyeĠjiuĠshiĠ shuoĠ
ziĠbenĠ zhuĠyiĠ
shiĠ zuoĠ
ouĠ yuanĠdeĠ
zhiĠ quĠ
zaiĠ shangĠ
beiĠ yongĠyuĠ
jinĠ ziĠ
taĠ naĠ
Ġd ieĠ
luĠ quĠ
yaĠ yiĠ
laiĠ angĠ
qingĠ weiĠ
ĠyiĠ liaoĠ
lingĠ nanĠ
duoĠ tiaoĠ
ĠzaiĠ 201
dangĠ xiaoĠ
sanĠ jianĠ
ĠbuĠ keĠ
bieĠ mingĠ
ĠmaĠ liĠyaĠ
yinĠyueĠ juĠ
jingĠliĠ leĠ
yuĠ200 2ĠnianĠ
yaĠzhouĠ yunĠdongĠhuiĠ
le x
diĠerĠciĠshiĠjieĠdaĠzhanĠ qiĠjianĠ
ganĠsuĠ shengĠ
6 0ĠnianĠdaiĠ
7 ĠzhiĠ
r oĠĠĠ
s tĠ
eĠ waiĠdeĠ
ĠĠĠ daiĠ
jiĠ fengĠ
zhiĠ fangĠ
xiangĠ jianĠ
houĠ zhiĠ
leĠ taĠmenĠ
shouĠ jianĠ
19 20ĠnianĠ
zheĠ yuĠ
meiĠ yuĠ
jiangĠ laiĠ
wenĠ nuanĠ
ruĠ changĠ
zhouĠ weiĠdeĠ
qingĠ tingĠ
banĠ changĠ
suoĠ zhuĠ
huĠ jiĠ
baĠ qianĠ
ĠweiĠ chiĠ
deĠyiĠ duanĠ
gangĠ taiĠ
puĠ buĠ
2Ġ fenĠ
longĠ duanĠ
tangĠ shiĠ
shiĠjieĠ daĠsaiĠ
qiĠtaĠ guoĠjiaĠ
ĠzhongĠguoĠ guoĠminĠdangĠ
7ĠyueĠ 20ĠriĠ
zongĠtongĠ fuĠ
ĠdaiĠ weiĠsiĠ
zongĠjiaoĠ lianĠ
ĠminĠ jinĠdangĠ
guaiĠ wuĠ
daĠguiĠmoĠ deĠ
guoĠgongĠ neiĠzhanĠ
NB AĠ
u ni
shiĠ shuĠ
guoĠ fuĠ
gongĠ zhengĠ
shuĠ yueĠ
huaĠ lianĠ
luĠ wangĠ
yeĠ shouĠ
duĠ tongĠ
banĠ heĠ
minĠ deĠ
shuiĠ bianĠ
yiĠgeĠ youĠ
gengĠ gaoĠdeĠ
chuangĠ ruĠ
kaiĠshiĠ jinĠxingĠ
ĠfuĠ jinĠ
waĠ naĠ
ĠzhuĠ yanĠ
yiĠzhiĠ wuĠ
ĠC ar
lieĠcheĠ deĠ
zaiĠ19 0
197 5ĠnianĠ
chengĠrenĠ youĠxiĠ
fuĠqinĠ deĠ
av idĠĠĠ
ĠweiĠyuĠfaĠguoĠ daĠdongĠbuĠdaĠquĠ
ĠtuiĠ dongĠ
6 3ĠnianĠ
Ġ j
yiĠ taiĠ
ĠĠĠ guanĠ
heĠ zhenĠ
xingĠ liĠ
siĠ zhouĠ
wuĠ zuiĠ
shengĠ jieĠrangĠ
tongĠ riĠ
juĠ heĠwuĠ
ĠshiĠ jiaĠ
xiaoĠ wuĠ
jiuĠ jiĠ
quanĠ huiĠ
dengĠ zhiĠwuĠ
ĠbingĠ tongĠguoĠ
ĠjiĠ duĠ
kanĠ taiĠ
ĠhuoĠ deĠdiĠ
al k
ĠlianĠ tongĠ
ĠzhiĠhouĠ zaiĠ
ĠyaoĠ qingĠ
deĠyuanĠ suĠ
ĠxuanĠ chuanĠ
ĠÃ ¼
zaiĠ201 4ĠnianĠ
ĠluoĠmaĠ niĠyaĠ
yinĠdiĠ anĠnaĠzhouĠ
m entĠĠĠ
anĠ jiĠ
ĠĠĠ xiaoĠxingĠxingĠ
weiĠ erĠshiĠ
guoĠ daĠ
erĠ chengĠweiĠ
xiĠ keĠ
ziĠ guĠ
zhengĠ xiuĠ
huaĠ naĠ
yanĠ moĠ
liangĠ jianĠ
ĠyiĠ zhaoĠ
ĠyiĠ zhiĠyuĠ
menĠ piaoĠ
fengĠ qiĠ
ĠbingĠ yaoĠqiuĠ
5Ġ haoĠmiĠ
tiaoĠ xuanĠ
chenĠ shiĠ
qieĠ duanĠ
shiĠyongĠ youĠ
7Ġ pingĠfangĠgongĠliĠ
piaoĠ jiaĠ
ĠliuĠ jingĠ
biĠdeĠ baoĠ
woĠmenĠ deĠ
ov eĠ
shengĠzhangĠ zaiĠ
yp eĠ
biĠliĠniuĠ siĠshengĠ
maĠsaĠ zhuĠsaiĠ
C on
ĠĠĠ kangĠ
jinĠ tieĠ
dongĠ duanĠ
jiaoĠ paiĠ
ĠshiĠ erĠ
junĠ keĠ
xiaoĠ mingĠ
baoĠ miĠ
haiĠ keĠyiĠ
jiuĠ xiangĠ
pingĠ xuanĠ
ĠyiĠ buĠ
lianĠ huanĠ
biĠ teĠ
dengĠ renĠdeĠ
fengĠ xingĠ
ĠdanĠ yeĠyouĠ
shuiĠ xiĠ
ĠrenĠ mingĠ
5Ġ gongĠfenĠ
kaĠ luoĠsiĠ
chenĠ shuĠ
peiĠ tongĠ
zhunĠ zeĠ
ĠsiĠ tanĠ
shuangĠ xiangĠ
ĠhuangĠ diĠ
ĠtuĠ diĠ
ĠminĠ jianĠ
21 ĠshiĠjiĠ
zhouĠnianĠ jiĠnianĠ
keĠlaĠ heĠmaĠ
1 30
7 4ĠnianĠ
deĠ weiĠzhiĠ
yiĠ zhuĠ
weiĠ juĠ
zhiĠ deĠshiĠ
yuanĠ zuoĠ
beiĠ diĠ
huiĠ wuĠ
chuĠ fenĠ
leĠ zheĠgeĠ
guanĠ xinĠ
tiĠ changĠ
xiaĠ shuĠdeĠ
liangĠ chanĠ
nanĠ songĠ
yaĠ heĠ
ĠyiĠ zaiĠ
quanĠ zhongĠ
biaoĠ jueĠ
bianĠ zhongĠ
yangĠ quĠ
leiĠ muĠ
congĠ shuĠ
peiĠ daiĠ
kangĠ fuĠ
ĠzuiĠ jinĠ
yiĠjiĠ zhongĠguoĠdaĠluĠdeĠ
ĠquanĠ chengĠ
ĠmoĠ genĠ
17 ĠshiĠjiĠ
ĠmeiĠguoĠ guoĠjiaĠ
wenĠdingĠ xingĠ
iv eĠĠĠ
diĠmianĠ cheĠzhanĠ
mingĠxingĠ saiĠ
guoĠanĠ faĠ
6 ĠyueĠ28ĠriĠ
o tĠ
zhiĠ dongĠ
erĠ xingĠ
erĠ qieĠ
shouĠ zhouĠ
zuoĠ ceĠ
changĠ nianĠ
gaiĠ daoĠ
yaĠ daoĠ
biĠ heĠ
zongĠ zhuĠjiaoĠ
fengĠ kuangĠ
deĠyiĠ fenĠ
lunĠ teĠ
chaĠ shiĠ
queĠ liĠ
shiĠqiĠ taĠ
ĠjuĠ minĠ
ĠjuĠ jueĠ
9Ġ mingĠ
zuĠqiuĠ jiaĠjiĠlianĠsaiĠ
kunĠ jingĠ
kuaĠ xingĠbieĠ
ĠĠĠ198 2ĠnianĠ
100Ġ wanĠ
3 0ĠnianĠdaiĠ
jiĠ leĠ
renĠ chengĠ
qiĠ diĠ
erĠ shouĠdaoĠ
wuĠ xiĠ
ziĠ jianĠ
beiĠ faĠ
yongĠ pinĠ
xieĠ xiaĠ
guĠ jiaĠ
guĠ juĠ
boĠ liĠyaĠ
xuanĠ zongĠ
ĠweiĠ siĠteĠ
deĠyiĠ qieĠ
canĠ yinĠ
ĠtongĠ chengĠ
liaoĠ faĠ
ĠyeĠ huiĠ
diĠerĠ baiĠ
tongĠguoĠ deĠ
ĠaiĠ liĠ
ĠcaiĠ zhengĠ
197 4ĠnianĠ
xiaoĠxingĠxingĠ daiĠ
deĠkeĠ saĠsiĠzhouĠ
9 ĠyueĠ29ĠriĠ
anĠ shanĠ
deĠ jieĠguoĠ
zhongĠ xiĠ
renĠ beiĠ
wuĠ qianĠ
ziĠ daĠ
chuĠ ciĠ
liangĠ buĠfenĠ
naĠ zaiĠ
ĠjiĠ yiĠ
pinĠ qiongĠ
huangĠ daoĠ
ĠgaiĠ guoĠ
ĠtongĠ yueĠ
or ĠĠĠ
tuoĠ baĠ
ĠdangĠ diĠdeĠ
waĠ ziĠ
laoĠ huiĠ
ĠqiĠzhongĠ yiĠ
xueĠyuanĠ yuanĠzhangĠ
Ġã Ħ
Ġ3 9
guanĠjunĠ saiĠ
ĠW Ġ
jingĠchaĠ juĠ
wanĠrenĠ ciĠ
sheĠhuiĠzhuĠyiĠ gongĠheĠguoĠ
maĠlaĠ songĠ
8 ĠnianĠ11
e ng
zhongĠ shiĠyongĠ
erĠ buĠshiĠ
jiaĠ yuanĠ
daoĠ xiaĠ
yingĠ heĠ
ĠshiĠ daĠ
luĠ heĠ
shenĠ houĠ
ĠzaiĠ 193
ĠtaĠ yinĠ
dengĠ shanĠ
Ġ1 27
ĠbingĠ renĠweiĠ
ĠdeĠ zhiĠ
puĠ xianĠ
ĠzheĠ buĠ
manĠ manĠ
pianĠ yiĠ
tangĠ jiĠ
ĠxianĠ youĠ
daiĠbiaoĠ deĠ
ĠruĠ tongĠ
zuĠqiuĠ chaoĠjiĠlianĠsaiĠ
ĠluoĠ boĠteĠ
ĠanĠ quanĠ
7ĠyueĠ 31ĠriĠ
Ġãĥ Ī
ĠzuĠ jiĠ
ĠhaĠerĠ binĠshiĠ
canĠjiĠrenĠ aoĠlinĠpiĠkeĠyunĠdongĠhuiĠ
8 ĠnianĠ10
9 ĠyueĠ15ĠriĠ
M O
jiĠ shuĠdeĠ
zhiĠ dingĠdeĠ
renĠ shiĠdeĠ
guoĠ heĠ
qiĠ jinĠ
diĠ 3
heĠ baĠ
daĠ xianĠ
erĠ zhongĠ
xiĠ xueĠ
fuĠ zuoĠ
zhengĠ bingĠ
huaĠ shaĠ
jiaoĠ huĠ
ĠshiĠ shangĠ
duiĠ zhongĠguoĠ
liangĠ juĠ
ruĠ shiĠ
danĠ niĠerĠ
moĠ caĠ
gangĠ gangĠ
maiĠ xiaĠ
laoĠ yuanĠ
ĠziĠ xingĠ
daiĠbiaoĠ zuoĠ
deĠjiĠ changĠ
beiĠjingĠ deĠ
ĠzuoĠ jiaĠ
dongĠwuĠ deĠ
ir stĠĠĠ
guanĠchaĠ daoĠ
xinĠjiĠ neiĠyaĠ
a ceĠ
eĠ siĠ
eĠ moĠ
ĠĠĠ 10ĠyueĠ
zhiĠ shenĠ
youĠ gongĠ
xiĠ xiangĠ
siĠ zheĠ
fuĠ leiĠdeĠ
quĠ deĠyiĠgeĠ
leĠ xinĠ
zhanĠ qiĠjianĠ
zhangĠ jiaĠ
wanĠ dunĠ
teĠ quanĠ
mianĠ baoĠ
dangĠ wanĠ
guiĠ yiĠ
guiĠ ruĠ
ĠxiĠ juĠ
yiĠyuanĠ deĠ
ĠyongĠ zhengĠ
ĠshuĠ mingĠ
deĠliĠ changĠ
12Ġ renĠ
yuĠ199 4ĠnianĠ
ir l
ov eĠĠĠ
2019ĠguanĠzhuangĠbingĠduĠbingĠ yiĠqingĠ
F acebook
M C
aoĠ huiĠ
shiĠ caiĠ
zhiĠ suoĠ
yuĠ 2019ĠnianĠ
zaiĠ wuĠkeĠlanĠ
diĠ jiangĠ
xingĠ yuĠleiĠ
wuĠ chaĠ
jieĠ jianĠ
beiĠ laĠ
meiĠ jieĠ
gaoĠ jieĠ
kaiĠ guoĠ
biĠ keĠ
dingĠ xiangĠ
fengĠ yunĠ
ĠdanĠ ciĠ
ĠjinĠ youĠ
ĠxianĠ luĠ
ĠxianĠ fengĠ
renĠminĠ dangĠ
ĠjieĠ heĠ
dianĠyingĠ yuanĠ
chouĠ qianĠ
ĠaiĠ lunĠ
meiĠtiĠ deĠ
meiĠtiĠ baoĠdaoĠ
pingĠjunĠ shuiĠpingĠ
xiangĠshiĠ diĠ
zhongĠhuaĠminĠguoĠ zhengĠfuĠ
youĠqiĠ tuĠxingĠ
ĠerĠrenĠkouĠmiĠduĠweiĠmeiĠpingĠfangĠqianĠmiĠ renĠ
Ġ2011ĠnianĠ renĠkouĠ
ĠshiĠwuĠkeĠlanĠ deĠ
ĠtaiĠpingĠ yangĠ
c t
yuĠ xiangĠ
yuĠ haiĠ
heĠ wenĠhuaĠ
buĠ zhouĠ
daĠ chengĠshiĠ
erĠ shiĠdeĠ
wuĠ duanĠ
zhuĠ shuĠ
riĠ wenĠ
shouĠ chiĠ
dongĠ liĠxueĠ
huoĠ shaoĠ
yangĠ fuĠ
ĠdeĠ junĠ
lvĠ buĠ
taoĠ zouĠ
ĠjianĠ zaoĠ
sheĠhuiĠ keĠxueĠ
Ġ4 00Ġ
jueĠdingĠ jiangĠ
ĠaiĠ deĠ
shouĠciĠ zaiĠ
zaiĠ200 9ĠnianĠ
daĠxuanĠ zhongĠ
o nic
deĠ luĠ
yiĠ huoĠ
yiĠ laiĠdeĠ
ĠĠĠ faĠ
yuĠ yueĠ
gongĠ muĠ
daĠ gaiĠ
daĠ liĠshiĠ
erĠ xianĠ
beiĠ heĠ
jinĠ heĠ
houĠ banĠ
shouĠ lunĠ
huaĠ jieĠ
yanĠ zheĠ
fenĠ gongĠsiĠ
wangĠ zhuĠ
yaĠ poĠ
yueĠ bingĠ
ĠdiĠ shiĠyiĠ
songĠ geiĠ
ĠdaĠ liĠ
haĠ liĠfaĠ
ĠjiaĠ qingĠ
ĠgeĠ shouĠ
9Ġ gongĠliĠ
fuĠwuĠ qiĠ
ĠgaoĠ zhongĠ
buĠduiĠ deĠ
ĠweiĠyuĠgaiĠguoĠ dongĠbeiĠbuĠ
jingĠzhengĠ duiĠshouĠ
ĠyueĠhanĠ xunĠ
xinĠjiangĠ weiĠwuĠerĠziĠzhiĠquĠ
zhuiĠsuĠ zhiĠ
ĠgaiĠbianĠ ziĠ
4 9ĠnianĠ
Ġ miaoĠshuĠ
aĠ keĠ
liĠ huiĠ
renĠ shenĠ
daĠ geĠ
beiĠ jiaoĠ
shouĠ qiĠ
fenĠ heĠ
gaiĠ renĠ
haiĠ moĠ
yueĠ 3
qingĠ junĠ
qingĠ dianĠ
teĠ wuĠ
bianĠ fangĠ
dangĠ siĠ
zhuanĠ rangĠ
shuiĠ wuĠ
shuiĠ quĠ
ĠyuĠ 2010ĠnianĠ
ĠliĠ weiĠ
nvĠ shengĠ
henĠ keĠnengĠ
ĠdongĠ wuĠ
ziĠjiĠ shiĠ
am esĠĠĠ
ĠtongĠnianĠ 9ĠyueĠ
198 7ĠnianĠ
at edĠĠĠ
194 8ĠnianĠ
tieĠdaoĠ bingĠ
gongĠzhongĠ kaiĠfangĠ
canĠmouĠ buĠ
maĠkeĠsiĠ zhuĠyiĠ
wenĠgeĠ huaĠ
jueĠseĠbanĠyanĠ youĠxiĠ
o vĠ
ĠĠĠ kaiĠfaĠ
jiĠ yeĠ
buĠ shangĠ
keĠ yuanĠ
juĠ zuĠ
zhanĠ huoĠ
jiuĠ huĠ
lingĠ zhuĠ
qiuĠ tianĠ
dengĠ guoĠ
fengĠ jianĠ
zhengĠfuĠ junĠ
bieĠ renĠ
faĠguoĠ deĠ
ĠboĠ erĠ
pingĠjunĠ jiangĠyuĠliangĠ
Ġc omĠ
ĠkangĠ riĠ
jinĠyiĠ buĠdeĠ
guiĠleiĠ weiĠ
M ac
c c
zaiĠ baĠ
chuĠ weiĠ
juĠ baoĠ
jingĠ zhongĠ
xiaĠ weiĠ
gaiĠ juĠ
haiĠ liĠ
zuiĠ shaoĠ
tianĠ ciĠ
zhuanĠ tiĠ
ĠjiĠ youĠ
zhaoĠ shouĠ
tanĠ xingĠ
ĠliĠ keĠ
ĠliĠ lunĠ
pianĠ shiĠ
diaoĠ leĠ
haĠ genĠ
yanĠjiuĠ zheĠ
an ceĠ
ĠruĠ ciĠ
hengĠ liangĠ
ĠqingĠ qiuĠ
ĠduoĠ renĠ
guanĠjunĠ lianĠsaiĠ
16 ĠshiĠjiĠ
ĠtiĠ gaoĠ
ĠmianĠjiĠ 1Ġ
niaoĠ bingĠ
zengĠjiaĠ daoĠ
13 ĠrenĠ
ĠĠĠS p
198 5ĠnianĠ
100Ġ miĠ
guiĠdingĠ juĠminĠdianĠ
ĠyouĠqiĠ shiĠzaiĠ
zhengĠqueĠ deĠ
ĠjiĠtuanĠ junĠ
R E
Ġ pĠ
yiĠ lianĠ
daĠ faĠguanĠ
erĠ laiĠdeĠ
geĠ wuĠ
leĠ zhongĠguoĠ
fenĠ shouĠ
sheĠ weiĠ
yongĠ jiĠ
liangĠ xianĠ
jiuĠ kaiĠshiĠ
biaoĠ qianĠ
maĠ yiĠ
liuĠ yanĠ
menĠ xiaĠ
suĠ xiangĠ
fengĠ liĠ
naĠ keĠ
ĠjiĠ guanĠ
cengĠ duoĠciĠ
ĠgaiĠ jianĠzhuĠ
queĠ qieĠ
ĠjinĠ nianĠlaiĠ
taoĠ paoĠ
reĠ qingĠ
ĠshouĠ yuĠ
ĠjiuĠ longĠ
ĠcengĠ danĠrenĠ
ou l
xingĠdongĠ wuĠ
ĠbiaoĠ mingĠ
tongĠchangĠ shiĠ
puĠchaĠ guiĠdingĠjuĠminĠdianĠ
ĠĠĠ198 6ĠnianĠ
daiĠlaiĠ leĠ
ĠĠĠjieĠzhiĠ 202
Window sĠ
7 1
Ġ senĠ
Ġ lveĠ
deĠ quanĠ
ĠĠĠ yiĠshiĠ
heĠ yiĠgeĠ
daĠ ĠĠ
jianĠ xiĠ
beiĠ kaĠluoĠlaiĠnaĠzhouĠ
fangĠ jiĠ
meiĠ lianĠ
yeĠ jieĠ
gaiĠ dangĠ
suoĠ shiĠyongĠdeĠ
xuĠ jiaĠ
maĠ enĠ
bianĠ geĠ
yangĠ hangĠ
haoĠ chengĠshiĠ
ĠjiĠ zhongĠ
2Ġ mianĠ2Ġ
3Ġ ciĠ
deĠshiĠ bingĠ
taoĠ daoĠ
shiĠyiĠ buĠ
kanĠ chuĠ
ĠwuĠ shiĠ
ĠhouĠ zaiĠ
quanĠguoĠ renĠdaĠdaiĠbiaoĠ
8ĠyueĠ 4ĠriĠ
ri d
5ĠyueĠ 8ĠriĠ
ĠzheĠshiĠ yinĠweiĠ
25 ĠrenĠ
ĠĠĠ198 5ĠnianĠ
ĠĠĠ198 7ĠnianĠ
ĠweiĠyuĠgaiĠguoĠ xiĠnanĠbuĠ
ĠĠĠjiaĠ jingĠ
anĠdaĠ lveĠ
hongĠshiĠziĠ huiĠ
O L
anĠ diĠ
shiĠ wangĠ
yuĠ chengĠ
zhongĠ chaoĠ
youĠ henĠduoĠ
gongĠ nongĠ
huiĠ chanĠshengĠ
xiangĠ juĠ
zhengĠ yiĠdeĠ
shangĠ huoĠ
shouĠ ceĠ
jiaoĠ zhangĠ
tiĠ ziĠ
xiaoĠ tiĠqinĠ
yinĠ biĠ
yinĠ pinĠ
wenĠ weiĠ
nanĠ anĠ
nanĠ zhanĠ
naĠ muĠ
douĠ shiĠyouĠ
qiangĠ guanĠ
kaoĠ zhengĠ
ĠchengĠ huaĠ
diĠerĠ mingĠ
ĠdengĠ jinĠshiĠ
ĠfeiĠ jiĠ
geĠlanĠ teĠ
194 4ĠnianĠ
VI DĠ
xinĠaĠjiĠtanĠ daĠquĠ
3 ĠdeĠ
S D
ĠĠĠ fenĠ
ĠĠĠ deĠguoĠ
weiĠ daoĠ
heĠ keĠ
daĠ renĠ
ziĠ junĠ
taĠ siĠ
meiĠ jinĠpaiĠ
yingĠ muĠ
ĠshiĠ neiĠ
junĠ wuĠ
qianĠ jingĠ
yueĠ kanĠ
daiĠ shangĠ
xieĠ xinĠ
sanĠ deĠ
menĠ kouĠ
suĠ zaoĠ
ĠyouĠ zhiĠ
ĠqiĠ zhuĠ
ĠdeĠ renĠ
paiĠ ziĠ
tingĠ shiĠ
tingĠ zhongĠ
deĠyiĠ pianĠ
chaĠ jiĠ
douĠ henĠ
huanĠ bingĠ
deĠshiĠ pinĠ
gengĠ haoĠdeĠ
chenĠ lieĠ
queĠ shaoĠ
poĠ lieĠ
ĠbeiĠ mianĠ
ĠyeĠ yinĠciĠ
laoĠ nianĠ
diaoĠ deĠ
ĠchuĠ daoĠ
10 1Ġ
en ceĠĠĠ
chuĠxianĠ yuĠ
erĠshiĠ tingĠ
ĠtongĠnianĠ 11ĠyueĠ
Ġc enterĠ
yuĠ202 5ĠnianĠ
ĠĠĠyiĠxiaĠ weiĠ
tongĠweiĠ suĠ
orl dĠĠĠ
aoĠdiĠ liĠdeĠ
4 ĠyueĠ28ĠriĠ
6 ĠnianĠ11
yiĠ wenĠ
zaiĠ taiĠ
geĠ xianĠ
jiaĠ dingĠ
ziĠ haoĠ
shangĠ hangĠ
fangĠ daĠ
zheĠ dieĠ
xinĠ pianĠ
fenĠ changĠ
yongĠ qiĠ
liangĠ beiĠ
ĠyiĠ wuĠ
zuiĠ guĠlaoĠdeĠ
tianĠ yuanĠ
duanĠ dianĠ
qiangĠ xingĠ
6Ġ pingĠfangĠgongĠliĠ
ĠqingĠ chunĠ
ĠlinĠ jinĠ
Ġãĥ «
ĠÃ ©
zaiĠ201 3ĠnianĠ
ĠlanĠ seĠ
deĠqianĠ shenĠ
ĠcanĠ jianĠ
laĠdingĠ meiĠzhouĠ
C ar
O C
Ġ tĠĠĠ
Ġ foĠjiaoĠ
yiĠ xinĠ
weiĠ ruanĠ
xingĠ lianĠ
daĠ muĠ
huiĠ biĠ
faĠ bingĠ
jingĠ shangĠ
shouĠ naoĠ
huaĠ xuĠ
tiĠ siĠ
muĠ rongĠ
nanĠ yueĠ
yaĠ taiĠ
qingĠ laiĠ
minĠ nanĠ
xuĠ zuoĠ
duoĠ waĠ
ĠtaĠ weiĠ
shanĠ chengĠ
sanĠ shengĠ
ĠyouĠ deĠ
Ġ1 ĠĠĠ
moĠ tianĠ
naĠ buĠ
caiĠ yingĠwenĠ
daĠxueĠ xiaoĠzhangĠ
maiĠ aĠmiĠ
ĠxinĠ xiĠ
shuangĠ bianĠ
buĠtongĠ deĠshiĠ
8ĠyueĠ 8ĠriĠ
cuoĠ wuĠdeĠ
jieĠmuĠ zhongĠ
zengĠjiaĠ zhiĠ
rouĠ daoĠ
deĠweiĠ xieĠ
xueĠzheĠ renĠweiĠ
ĠĠĠ guangĠ
tongĠ huoĠ
taĠ ĠĠ
taĠ shouĠ
shangĠ puĠ
meiĠ yueĠ
meiĠ nengĠ
jiuĠ yuĠ
ĠyiĠ jianĠ
ĠyiĠ dongĠ
ĠyiĠ qingĠ
lingĠ quĠ
biĠ shangĠ
maĠ maĠ
duoĠ huiĠ
duoĠ meiĠtiĠ
zuiĠ changĠ
huĠ waiĠ
dengĠ jiaĠ
neiĠ yiĠ
paiĠ maiĠ
ĠzhiĠ wuĠ
chongĠ qiĠ
ĠxiĠ mengĠ
waĠ liĠ
ĠfanĠ zhiĠ
ĠlaiĠ angĠ
ĠĠĠ198 3ĠnianĠ
guiĠdaoĠ banĠzhangĠ
boĠlanĠ huiĠ
geĠliĠ guanĠ
quĠdaiĠ leĠ
faĠlanĠ keĠfuĠ
nianĠ fenĠ
renĠ zheĠ
guoĠ tieĠ
yuanĠ chaoĠ
yuanĠ laiĠdeĠ
ziĠ yangĠ
zhengĠ shiĠjieĠ
ĠshiĠ haoĠ
yanĠ huiĠ
yanĠ jinĠ
jiangĠ ciĠ
baoĠ yuanĠ
zhangĠ jiĠ
ĠyiĠ mianĠ
shenĠ lingĠ
suoĠ zuoĠdeĠ
dingĠ buĠ
feiĠ shiĠ
baĠ jieĠ
ĠyouĠ gaiĠ
gengĠ diĠ
ĠbuĠ huiĠ
hangĠ yuanĠ
ĠxiĠ erĠ
ĠdangĠ juĠ
ĠkeĠ xiĠ
ĠjiaĠ liĠ
hengĠ xingĠdeĠ
shiĠweiĠ keĠ
shuangĠ cengĠ
Ġ2 1
jianĠzhuĠ mianĠjiĠ
tieĠluĠ xianĠ
ĠbianĠ chengĠ
zhiĠxingĠ guanĠ
ĠĠĠ198 0ĠnianĠ
18Ġ suiĠ
oo dĠĠĠ
ĠwenĠhuaĠ daĠgeĠmingĠ
anĠchaĠ siĠ
KB 48
ĠweiĠreĠdaiĠ danĠshuiĠyuĠ
T VĠ
q Ġ
ĠĠĠ Z
ĠĠĠ shanĠ
yuĠ jinĠ
heĠ zhengĠzhiĠ
daĠ anĠ
beiĠ leĠ
xiangĠ shangĠ
quĠ shengĠ
20 ĠrenĠ
houĠ duĠ
junĠ yunĠ
xiaoĠ jiĠ
luoĠ weiĠ
teĠ xuĠ
zuiĠ zhangĠdeĠ
liuĠ qiĠ
sanĠ dengĠ
haoĠ huaĠ
deĠyiĠ daĠliĠ
zhaoĠ waĠ
piĠ peiĠ
tuoĠ zhanĠ
xiangĠgangĠ daoĠ
lv ĠzaiĠ
ĠqiĠzhongĠ yiĠgeĠ
ĠruĠ xuanĠ
Ġh Ġ
Ġ191 0ĠnianĠ
zaiĠ201 1ĠnianĠ
kangĠyiĠ huoĠdongĠ
fenĠzuĠ saiĠ
taiĠluoĠ niĠyaĠ
ĠĠĠxiaĠshuĠ wuĠzhongĠ
0 8Ġ
3 ĠyueĠ15ĠriĠ
7 ĠyueĠ15ĠriĠ
T P
o i
deĠ jingĠ
ouĠ meiĠ
ĠĠĠ k
ĠĠĠ ouĠzhouĠ
yuĠ dongĠ
chengĠ diĠ
daĠ yuanĠ
geĠ naĠ
jieĠ yeĠ
zhengĠ shouĠ
zhengĠ jiaoĠhuiĠ
zheĠ jiĠ
quanĠ xinĠdeĠ
biĠ fenĠ
ĠweiĠ mingĠ
fengĠ chenĠ
ĠdeĠ yiĠsiĠ
lieĠ wuĠ
ĠjiĠ linĠ
ĠzheĠ duanĠ
zhengĠfuĠ heĠ
ĠdiĠ chuĠ
ĠbeiĠ poĠ
ĠbaĠ shiĠ
ĠcongĠ shiĠ
ĠĠĠdiĠ sanĠ
Ġ5 9
Ġg aĠ
zuiĠgaoĠ dianĠweiĠ
ĠwenĠ jianĠ
2ĠyueĠ2 8ĠriĠ
wenĠxueĠ jiangĠ
196 7ĠnianĠ
ĠhaiĠbaĠgaoĠduĠ 2Ġ
deĠzhiĠchiĠ zheĠ
shengĠdaoĠ taiĠ
7 00Ġ
7 ĠyueĠ16ĠriĠ
K P
N ew
R e
a inĠ
deĠ buĠfenĠ
zaiĠ changĠ
zaiĠ zhongĠguoĠdaĠluĠ
guoĠ weiĠ
chengĠ xiĠ
wuĠ cunĠ
jieĠ huoĠ
xinĠ chengĠliĠdeĠ
ĠshiĠ beiĠ
sheĠ faĠ
baoĠ dingĠ
shanĠ heĠ
ĠweiĠ ruanĠ
waiĠ shengĠ
gangĠ daoĠ
touĠ jiaoĠ
ĠgaiĠ mingĠ
tuiĠ duanĠ
ĠwuĠ ziĠ
yanĠjiuĠ zhongĠ
ĠkeĠ erĠ
ĠbianĠ juĠ
minĠzhuĠ gongĠheĠguoĠ
es tĠ
Ġs aoĠ
zaiĠ201 6ĠnianĠ
xianĠdeĠyiĠgeĠ zhenĠquĠ
shouĠluĠ leĠ
siĠdaĠ linĠ
gaoĠjiaĠ suoĠ
yiĠliĠshaĠ baiĠ
D CĠ
ĠĠĠ tongĠshiĠ
zhiĠ huaĠ
zhongĠ luĠ
jianĠ puĠzhaiĠ
jiaĠ baoĠ
zhuĠ paoĠ
ziĠ shenĠdeĠ
taĠ suoĠ
meiĠ lingĠ
tiĠ heĠ
wenĠ niĠ
banĠ zouĠ
luoĠ ruĠ
dingĠ zaiĠ
liuĠ siĠ
dangĠ tuanĠ
niĠ zhuanĠ
ĠjiĠ suanĠ
zhuangĠ xiuĠ
2Ġ ciĠ
duanĠ queĠ
ĠgaiĠ xiaoĠxingĠxingĠ
shuoĠ daoĠ
renĠkouĠ youĠ
ĠzhuĠ ruĠ
huoĠdeĠ diĠ
yiĠjiĠ qiĠtaĠ
deĠguoĠ deĠ
ĠfaĠ yuanĠ
198 2ĠnianĠ
junĠduiĠ deĠ
si onĠĠĠ
yingĠyongĠ chengĠshiĠ
zhongĠwenĠ daĠxueĠ
chongĠqingĠ shiĠ
3 ĠyueĠ18ĠriĠ
a el
anĠ renĠ
ĠĠ 200
ĠĠĠ xianĠzaiĠ
ĠĠĠ guoĠjiaĠduiĠ
jiĠ quanĠ
ueĠ ĠĠ
diĠ beiĠ
buĠ linĠ
xingĠ shuĠ
chuĠ shengĠdeĠ
yueĠ quĠ
banĠ daoĠdeĠ
lingĠ yuanĠ
leiĠ erĠ
suĠ quĠ
moĠ biaoĠbenĠ
waiĠ laiĠ
chuanĠ changĠ
huanĠ shiĠ
5Ġ pingĠfangĠgongĠliĠ
manĠ yuĠ
caoĠ kongĠ
Ġ2 6Ġ
louĠ mianĠ
leĠyiĠ ciĠ
ĠliuĠ qiuĠ
ĠsanĠ nianĠ
tongĠzhiĠ shiĠqiĠ
deĠfuĠ muĠ
et ac
erĠshengĠ deĠyiĠgeĠshiĠzhenĠ
ĠdianĠshiĠ juĠ
yeĠshengĠ dongĠwuĠ
ĠliĠxinĠ lvĠweiĠ0
b e
l or
r aĠĠĠ
u re
Ġ ×
jiĠ siĠtanĠ
renĠ maĠ
buĠ jiangĠ
xingĠ junĠ
xingĠ zhiĠdeĠ
daĠ xiangĠ
fuĠ juĠzhangĠ
wuĠ zhouĠ
20 ĠmiĠ
fenĠ liangĠ
xuĠ zhouĠ
zhenĠ suoĠ
zuiĠ xianĠ
yangĠ chengĠ
boĠ fuĠ
ĠzaiĠ youĠ
ĠyouĠ liĠ
ĠbeiĠ renĠweiĠshiĠ
panĠ deĠ
guoĠjiĠ zuĠlianĠ
deĠdiĠ dianĠ
Ġ2 4
al ĠĠĠC
ĠcengĠ shiĠ
4ĠyueĠ 6ĠriĠ
kongĠzhiĠ qiĠ
maĠlaiĠ yaĠ
anĠzhuangĠ zaiĠ
chuangĠzaoĠ leĠ
laĠdingĠ yuĠ
ta in
raoĠtaiĠyangĠ yunĠ
zhiĠpianĠ renĠ
5 ĠyiĠ
S i
jiĠ zhouĠ
renĠ zongĠ
zaiĠ peiĠ
wuĠ chuĠ
daoĠ youĠ
ziĠ shangĠ
meiĠ xueĠ
luĠ mianĠ
huoĠ yaoĠ
muĠ liĠ
zuiĠ fanĠ
bianĠ xiuĠ
bianĠ huaĠdeĠ
liuĠ guoĠ
tuĠ qiĠ
waiĠ yuĠ
ĠdeĠ diĠ
peiĠ erĠ
ĠxianĠ changĠ
deĠdiĠ mianĠ
ĠjingĠ yingĠ
ĠxingĠ dongĠ
guanĠjunĠ deĠ
ĠfeiĠ xingĠ
heĠzuoĠ huoĠbanĠ
zhuoĠ yueĠ
geĠmingĠ weiĠyuanĠhuiĠ
yuĠ200 1ĠnianĠ
195 8ĠnianĠ
ĠĠĠ194 6ĠnianĠ
ĠhaiĠbaĠgaoĠduĠ 1Ġ
00ĠwanĠ yuanĠ
buĠlaĠ geĠ
ĠgaiĠcunĠ shiĠjianĠ
ĠshiĠyiĠkeĠ raoĠtaiĠyangĠyunĠ
ĠshiĠxingĠdengĠweiĠ 6
nam eĠ
ĠĠĠguiĠdaoĠ canĠshuĠ
guiĠdaoĠbanĠzhangĠ zhouĠweiĠ
ĠshiĠyiĠkeĠraoĠtaiĠyangĠyunĠ zhuanĠdeĠxiaoĠxingĠxingĠ
9 1
nianĠ shiĠ
zhongĠ beiĠbuĠ
diĠ junĠ
chengĠ beiĠ
siĠ ciĠ
siĠ linĠ
geĠ miĠ
keĠ wangĠ
shengĠ ĠĠ
huiĠ shiĠyongĠ
xiangĠ yingĠdeĠ
fangĠ tanĠ
xueĠ fuĠ
ĠshiĠ gaiĠ
xiaoĠ xinĠ
taiĠ duoĠ
nanĠ mianĠ
banĠ qianĠ
miĠ buĠ
saiĠ heĠ
yaoĠ pinĠ
ĠjiĠ muĠ
zhongĠguoĠ zhengĠfuĠ
ĠtongĠ jinĠshiĠchuĠshenĠ
shiĠshiĠ shiĠ
ĠsiĠ teĠ
deĠguoĠ wangĠ
zangĠ liĠ
5ĠyueĠ 5ĠriĠ
dongĠhuaĠ dianĠyingĠ
gongĠyeĠ daĠxueĠ
waiĠjiaoĠ zhengĠceĠ
Ġ191 6ĠnianĠ
ag ram
guoĠfangĠ buĠzhangĠ
qianĠshuĠ leĠ
ĠweiĠzhuĠ xiaoĠxingĠxingĠdaiĠ
aiĠsaiĠ eĠbiĠyaĠ
ĠweiĠzhuĠxiaoĠxingĠxingĠdaiĠ xiaoĠxingĠxingĠ
2 30Ġ
5 ĠyueĠ10ĠriĠ
A ĠjiĠ
m ar
deĠ quanĠliĠ
zhongĠ deĠyiĠgeĠ
renĠ suoĠ
guoĠ jingĠ
heĠ chuanĠ
chengĠ mingĠ
jianĠ wuĠ
shangĠ xueĠyuanĠ
shouĠ zaiĠ
guanĠ jiĠ
meiĠ yiĠ
yinĠ jiuĠ
baoĠ taiĠ
zhangĠ jieĠ
liangĠ keĠ
suoĠ fuĠ
shanĠ zhenĠ
moĠ zuĠ
naĠ shuiĠ
zhuangĠ xiangĠ
zhongĠguoĠ guoĠjiaĠ
huanĠ xianĠ
kaĠ siĠteĠ
piĠ erĠ
ĠxianĠ cunĠ
ĠjieĠ shiĠ
zuoĠweiĠ yiĠgeĠ
shiĠjiĠ nianĠ
shiĠshiĠ houĠ
chengĠshiĠ gongĠgongĠjiaoĠtongĠ
ĠaĠ genĠtingĠ
ĠcengĠ weiĠ
zhongĠyaoĠ zuoĠyongĠ
9ĠyueĠ 7ĠriĠ
jieĠgouĠ deĠ
tengĠ baoĠ
ĠĠĠbenĠ pianĠ
es ti
194 1ĠnianĠ
touĠziĠ zheĠ
em p
ĠxiĠbeiĠ jieĠ
0 7Ġ
m er
Ġ alignĠ
ĠĠĠ suiĠhouĠ
buĠ zhongĠ
xiĠ duanĠ
xianĠ xianĠ
jieĠ chuĠdeĠ
zhanĠ ĠĠ
xinĠ xiuĠ
ĠshiĠ baĠxiĠ
huoĠ youĠ
pingĠ muĠ
quanĠ nengĠ
maĠ haĠ
zuiĠ kuaiĠ
laĠ laĠ
dingĠ yiĠdeĠ
bingĠ zhiĠyuĠ
ĠzaiĠ shiĠ
ĠzaiĠ nanĠ
fanĠ daĠxueĠ
waiĠ ceĠ
ĠdeĠ zhiĠchiĠ
kanĠ laiĠ
ĠchengĠ duĠ
ĠhaiĠ yangĠ
ĠzhanĠ shenĠ
6ĠyueĠ 20ĠriĠ
ĠmianĠjiĠ 1
11Ġ renĠ
yuĠ199 0ĠnianĠ
av eĠĠĠ
chuangĠliĠ leĠ
ĠpoĠ shiĠ
xiaĠdeĠyiĠgeĠ shuĠ
ĠshiĠwuĠkeĠlanĠdeĠ cunĠluoĠ
5 ĠyueĠ25ĠriĠ
A n
b ur
y th
yiĠ guĠ
ĠĠĠ caiĠ
heĠ fanĠ
buĠ queĠdingĠ
keĠ guanĠ
ziĠ sunĠ
jinĠ kuaiĠ
tongĠ chouĠ
zhanĠ gongĠ
gaiĠ lvĠ
gaiĠ kuangĠ
ĠyiĠ huiĠ
quanĠ gangĠ
kaiĠ huoĠ
ĠzaiĠ zheĠzhongĠ
feiĠ wangĠ
feiĠ jiĠdeĠ
neiĠ zhiĠ
naĠ senĠ
caiĠ beiĠ
tingĠ zaiĠ
zhuanĠ daoĠ
2Ġ pingĠfangĠgongĠliĠ
chanĠ shiĠ
ganĠ yingĠ
zhiĠyiĠ shiĠ
nuoĠ waĠ
ĠjiaĠ qiangĠ
keĠnengĠ zaiĠ
ĠbiĠ jiaoĠ
ĠsuoĠ shuĠ
zuĠqiuĠ huiĠ
ĠluoĠ linĠ
ĠtaiĠ beiĠshiĠ
ĠP ro
2ĠyueĠ1 4ĠriĠ
guoĠfangĠ junĠ
boĠluoĠ reĠ
lianĠheĠguoĠ jiaoĠkeĠwenĠzuĠzhiĠ
ĠjinĠruĠ zhiĠluĠhouĠ
zhiĠbangĠ daĠlianĠmengĠ
yst em
Net flix
4 ĠyueĠ18ĠriĠ
9 ĠyueĠ25ĠriĠ
S A
deĠ beiĠ
nianĠ zhongĠ
zhongĠ xiĠbuĠ
renĠ fuĠ
buĠ yingĠ
daĠ guoĠ
erĠ wenĠ
geĠ ziĠdeĠ
jiaĠ mingĠ
faĠ shuĠ
dongĠ xiangĠ
jiaoĠ lvĠ
junĠ shuĠ
wenĠ zhiĠ
wenĠ renĠ
duoĠ nieĠ
menĠ yuanĠ
suĠ liaoĠ
ĠyouĠ zhuĠ
niĠ jiĠ
zaoĠ chenĠ
shuiĠ xiaĠ
ĠtongĠ changĠshiĠ
queĠ xiĠ
caoĠ benĠ
ĠguanĠ zhongĠ
3ĠyueĠ 4ĠriĠ
ĠhuĠ yuĠ
14 ĠrenĠ
it t
yuĠ199 2ĠnianĠ
daĠbuĠfenĠ deĠ
chaoĠxianĠ banĠdaoĠ
ĠkaoĠ lvĠ
ĠchunĠ qiuĠ
maĠlaĠ yaĠ
guangĠxiĠ zhuangĠzuĠziĠzhiĠquĠ
etac ritic
3 ĠyueĠ26ĠriĠ
4 ĠyueĠ15ĠriĠ
E X
m ent
yiĠ riĠ
ĠĠĠ jieĠgouĠ
liĠ chaĠ
daoĠ guangĠ
huiĠ chuĠxianĠ
ĠyueĠ seĠfuĠ
ciĠ shaĠ
ĠriĠ yuĠ
banĠ youĠ
luoĠ jieĠ
leiĠ suĠ
baiĠ houĠ
chongĠ zhenĠ
tanĠ wuĠ
qiangĠ jieĠ
piĠ aiĠerĠ
rongĠ xingĠ
zhengĠfuĠ yuĠ
haĠ buĠsiĠbaoĠ
ĠziĠ dongĠ
ĠzongĠ heĠ
ĠzhanĠ shiĠ
15 ĠrenĠ
16 ĠrenĠ
keĠsiĠ luoĠfaĠkeĠ
xiaoĠshiĠ neiĠ
fouĠ dingĠ
ĠĠĠbenĠ jieĠ
guiĠmoĠ zuiĠdaĠdeĠ
le sĠ
Ġ190 3ĠnianĠ
zaiĠ201 7ĠnianĠ
zhuĠyanĠ deĠ
ĠĠĠI n
deĠyiĠzuoĠ chengĠshiĠ
ĠbuĠjiuĠ houĠ
ĠshiĠyiĠweiĠ meiĠguoĠ
guiĠzhouĠ shengĠ
ĠgeĠlunĠ biĠyaĠ
1 ĠnianĠ1ĠyueĠ1ĠriĠ
Ġ erĠyuanĠ
yiĠ souĠ
jiĠ huoĠ
zhongĠ zhenĠ
heĠ jingĠ
jianĠ xingĠ
xueĠ jianĠ
zheĠ youĠ
dongĠ zhanĠ
duĠ pinĠ
xiaĠ zhaoĠ
kaiĠ zhiĠ
biĠ ranĠ
bianĠ zuanĠ
dengĠ weiĠ
niĠ heĠ
zhuanĠ huaĠweiĠ
guangĠ dieĠ
lvĠ zhangĠ
congĠ xiaoĠ
xunĠ daoĠ
caoĠ caoĠ
Ġ2 5
ĠbiĠ 1Ġ
10Ġ mingĠ
zhuoĠ luĠ
ĠquĠ xiaoĠ
Ġ17 0
Ġc olorĠ
Ġt extĠ
kaĠerĠ waĠduoĠ
ĠxingĠzhengĠ yuanĠ
6 ĠyueĠ10ĠriĠ
M o
Y P
e z
r in
Ġ or
zhiĠ wenĠ
buĠ yongĠ
zhuĠ fuĠ
faĠ weiĠ
jiaoĠ sheĠ
huoĠ deĠyiĠmeiĠ
gaiĠ pianĠ
muĠ duĠ
zuĠ linĠ
wangĠ feiĠ
suoĠ xiaĠdeĠyiĠgeĠ
huĠ kouĠ
huĠ dieĠ
baĠ weiĠ
leiĠ teĠ
tuĠ yuĠ
ĠdanĠ quĠ
lunĠ shiĠ
ceĠ mianĠ
rongĠ xuĠ
ĠbeiĠ fangĠ
ĠzhuĠ xiĠ
ĠshengĠ muĠ
kuanĠ deĠ
ĠshuĠ juĠ
Ġc om
Ġ190 5ĠnianĠ
Ġ191 5ĠnianĠ
AT P
yaĠmaĠ xunĠ
H C
f ĠĠĠ
deĠ gaoĠ
deĠ chengĠshiĠ
ĠĠĠ heiĠ
yuĠ maĠ
guoĠ leĠ
diĠ jieĠ
zhengĠ zhanĠ
jinĠ haiĠ
tongĠ dengĠ
mingĠ wenĠ
huaĠ zaiĠ
yingĠ zaoĠ
fenĠ yuanĠ
huoĠ qiĠ
zhouĠ chengĠ
nanĠ youĠ
wanĠ baoĠ
ĠzheĠ geĠmingĠ
tiaoĠ shiĠ
shiĠyiĠ xieĠ
shiĠjianĠ jieĠ
diĠquĠ daiĠbiaoĠ
ĠsiĠ tuĠ
Ġ2 6
ĠjingĠ shenĠ
th atĠĠĠ
zheĠyiĠ dianĠ
197 1ĠnianĠ
daĠhuiĠ shangĠ
196 6ĠnianĠ
minĠzhuĠzhuĠyiĠ renĠminĠgongĠheĠguoĠ
R I
W i
Î ±
yiĠ junĠ
yiĠ laĠkeĠ
zhiĠ haoĠ
renĠ jiangĠ
heĠ 1Ġ
daĠ laiĠ
erĠ moĠ
jiaĠ jianĠ
jiaĠ teĠ
tongĠ shuĠ
jingĠ ziĠ
houĠ yuanĠ
dongĠ xueĠ
jiaoĠ heĠ
xinĠ yueĠ
xinĠ jiĠshuĠ
yanĠ chuĠdeĠ
muĠ yangĠ
guĠ shouĠ
naĠ jiĠ
ĠerĠ zheĠxieĠ
baiĠ gongĠ
ĠliĠ kaiĠ
ĠbeiĠ renĠweiĠ
shiĠqiĠ zhongĠ
lv erĠ
ar aĠ
ĠxingĠ jiĠ
chengĠyuanĠ zhiĠyiĠ
chouĠ jianĠ
8ĠyueĠ 6ĠriĠ
ĠfanĠ huiĠ
ĠpingĠ guoĠ
pangĠ daĠdeĠ
zaiĠ201 8ĠnianĠ
ĠĠĠdanĠ shiĠ
ĠmeiĠnianĠ pingĠjunĠjiangĠyuĠliangĠ
ĠguangĠdongĠ shengĠ
pingĠpangĠ qiuĠ
erĠyangĠhuaĠ tanĠ
3 ĠyueĠ28ĠriĠ
7 ĠyueĠ28ĠriĠ
G oogleĠ
deĠ xingĠshiĠ
deĠ guĠshiĠ
jiĠ duiĠ
zhiĠ zhaoĠ
qiĠ xingĠ
er c
chengĠ jiaoĠ
chengĠ baĠ
fuĠ yeĠ
zhanĠ shangĠ
xinĠ langĠ
xiaoĠ shengĠ
qianĠ juĠ
qianĠ zheĠ
taiĠ weiĠ
daiĠ zouĠ
teĠ siĠ
zhenĠ yuĠ
boĠ dongĠ
ĠzaiĠ 200
tianĠ neiĠ
neiĠ erĠ
tingĠ heĠ
lunĠ jiĠ
douĠ liuĠ
mengĠ lieĠ
songĠ huiĠ
ĠdaĠ jiaĠ
diaoĠ yuĠ
sheĠhuiĠ dangĠ
zhiĠchiĠ deĠ
ĠniĠ guĠlaĠ
Ġãģ Ĩ
zaiĠyiĠ daĠliĠ
195 6ĠnianĠ
as tĠĠĠ
zhiĠdingĠ weiĠ
xiĠzangĠ ziĠzhiĠquĠ
8 1
S C
T AĠ
u ri
ĠĠĠ for
ĠĠĠ tieĠluĠ
zhiĠ guoĠ
liĠ junĠ
qiĠ beiĠ
diĠ 5Ġ
xiĠ gongĠ
xiĠ shanĠ
geĠ yiĠ
yuanĠ neiĠ
keĠ zuoĠ
zhuĠ shengĠ
jingĠ shuĠ
huaĠ zuoĠ
guanĠ gaiĠ
yanĠ shouĠ
xiaoĠ ziĠ
xiaoĠ sanĠ
taiĠ baoĠ
muĠ shanĠ
wanĠ yuĠ
lingĠ yiĠweiĠ
maĠ shuĠ
duoĠ keĠ
dingĠ youĠ
ĠyouĠ chengĠweiĠ
chiĠ duĠ
zhongĠguoĠ renĠ
ĠgaiĠ ciĠ
zengĠ sunĠ
erĠshiĠ sanĠnianĠ
9ĠyueĠ 20ĠriĠ
3ĠyueĠ 19ĠriĠ
ĠshiĠweiĠyuĠ riĠbenĠ
deĠwuĠ zhongĠ
gongĠbuĠ leĠ
195 2ĠnianĠ
oo d
Ġ2010ĠnianĠ renĠkouĠ
saoĠ miaoĠ
ĠgaiĠshengĠfenĠweiĠfaĠguoĠ xiĠbeiĠbuĠ
II IĠ
mingĠrenĠ tangĠ
ĠÐ¾ ĠÐ
4 00
O P
a seĠ
r on
deĠ qingĠkuangĠ
yuĠ yingĠguoĠ
qiĠ duiĠ
beiĠ jueĠsaiĠ
zhengĠ yuĠ
jingĠ huaĠ
guanĠ quĠ
jiuĠ mingĠ
kaiĠ wangĠ
miĠ zhiĠ
baĠ dengĠ
tianĠ haiĠ
canĠ haiĠ
woĠ fuĠ
xiangĠgangĠ zhengĠfuĠ
ĠtaĠmenĠ shiĠ
zhuiĠ huiĠ
diĠfangĠ faĠyuanĠ
om ic
chuangĠzuoĠ leĠ
Ġãĥ ĥ
194 0ĠnianĠ
13Ġ geĠ
daĠchengĠ xieĠyiĠ
zaiĠ200 7ĠnianĠ
ruĠqinĠ wuĠkeĠlanĠ
ĠerĠgaiĠdiĠ zuiĠgaoĠdianĠweiĠ
youĠxiuĠ deĠ
ĠerĠgaiĠdiĠzuiĠgaoĠdianĠweiĠ haiĠbaĠgaoĠduĠ
Ġ paiĠmingĠ
yiĠ yeĠ
yiĠ shenĠ
ĠĠĠ qiuĠ
ĠĠĠ yingĠyongĠ
zhongĠ cengĠshuiĠyuĠ
diĠ ĠĠ
xingĠ xianĠ
jieĠ erĠ
yinĠ shangĠ
zuĠ guoĠ
shenĠ zhenĠshiĠ
quanĠ ziĠ
guĠ gongĠ
sanĠ zuoĠ
guiĠ feiĠ
baiĠ fenĠ
shuiĠ guoĠ
touĠ muĠ
meiĠguoĠ luĠjunĠ
chongĠ shenĠ
ĠzhongĠ zhiĠ
hongĠ weiĠ
tuoĠ miĠerĠ
shiĠyiĠ jiaĠ
ĠyeĠ buĠ
guoĠjiĠ zuĠxieĠ
louĠ dongĠ
keĠnengĠ youĠ
deĠzhiĠ yuanĠ
ĠyiĠjiĠ nianĠ
faĠshengĠ chongĠtuĠ
huiĠyiĠ luĠ
ĠzhengĠ mingĠ
chouĠ xiangĠ
ĠxiaĠ jiĠ
3ĠyueĠ 3ĠriĠ
ĠranĠerĠ zaiĠ
Ġ8 00Ġ
16Ġ geĠ
daoĠshiĠ zhanĠtaiĠ
yuĠ199 3ĠnianĠ
Ġ190 4ĠnianĠ
duoĠerĠ duoĠnieĠ
6 ĠnianĠ10
8 ĠyueĠ28ĠriĠ
Ġ a
Ġ shaoĠnianĠ
yiĠ tuĠ
ĠĠĠ dingĠyiĠ
jiĠ chenĠ
heĠ qianĠ
yuanĠ shuĠ
keĠ tiĠ
keĠ zhangĠ
wuĠ xiangĠ
jinĠ chuĠ
jinĠ yongĠ
taĠ chengĠweiĠ
guanĠ tongĠ
xinĠ sheĠ
fenĠ zhanĠ
zhangĠ zheĠ
gaiĠ jianĠweiĠ
liangĠ heĠ
liangĠ xingĠ
haiĠ shuiĠ
yueĠ ĠĠ
jiuĠ geĠ
quanĠ shenĠ
biĠ jinĠ
ĠyouĠ youĠ
kouĠ yuĠ
zhuanĠ bianĠweiĠ
ĠzhiĠ jianĠdeĠ
duanĠ shiĠ
manĠ enĠ
hongĠ qiaoĠ
chuangĠ huĠ
juanĠ ruĠ
st agram
kaiĠfaĠ zheĠ
shiĠquĠ leĠ
tianĠjingĠ yunĠdongĠyuanĠ
ĠgaiĠcunĠ shiĠjianĠyuĠ
shuangĠdaĠ guanĠjunĠ
zaoĠchuanĠ changĠ
boĠxiĠ miĠyaĠ
e u
ĠĠĠ zhuanĠjiĠ
daĠ laoĠ
yuanĠ yangĠ
zhengĠ xianĠ
huaĠ zhiĠ
meiĠ miaoĠ
ĠyiĠ fuĠ
lianĠ cheĠ
quanĠ minĠ
guĠ diĠ
dingĠ ĠĠ
tianĠ eĠ
leiĠ heĠ
ĠweiĠ meiĠguoĠ
naĠ weiĠ
ĠzhongĠ xingĠ
henĠ youĠ
an tĠĠĠ
kuaiĠ jiĠ
ĠaĠ boĠ
xuanĠzeĠ leĠ
baoĠdaoĠ chengĠ
juĠzhuĠ deĠ
jiĠbenĠ shangĠ
S B
o oĠ
s onĠĠĠ
ouĠ yangĠ
ĠĠĠ lvĠ
weiĠ laiĠdeĠ
yuĠ shuĠ
gongĠ shuiĠ
jieĠ banĠ
tongĠ junĠ
fangĠ keĠ
jiaoĠ jiĠ
changĠ zhengĠ
jiangĠ ĠĠ
qianĠ jianĠ
qianĠ fuĠ
xiaĠ erĠ
haiĠ mianĠ
wangĠ yiĠ
maĠ xiĠ
shanĠ zhuangĠ
cheĠ menĠ
zeĠ biaoĠshiĠ
paiĠ shuiĠ
ceĠ fengĠ
chongĠ deĠ
ĠliĠ chaĠ
ĠzhongĠ nianĠ
tangĠ heĠsuanĠ
ĠwuĠ nianĠ
an tĠ
ĠyanĠ zhongĠ
ĠyanĠ chuĠ
buĠtongĠ yiĠ
jiaoĠyuĠ deĠ
jiĠhuaĠ zaiĠ
erĠshiĠ siĠnianĠ
9ĠyueĠ 3ĠriĠ
8ĠyueĠ 5ĠriĠ
gongĠchengĠ xueĠyuanĠ
pangĠ deĠ
diĠshiĠ erĠ
197 3ĠnianĠ
195 0ĠnianĠdaiĠ
geĠyueĠ deĠ
Ġ190 7ĠnianĠ
shuaĠ xinĠ
buĠruĠ dongĠwuĠ
ĠweiĠyuĠfaĠguoĠaoĠ keĠxiĠtaĠniĠdaĠquĠ
m mĠ
t sĠ
ĠĠĠ yueĠtaiĠ
youĠ zhongĠ
shengĠ gaoĠ
beiĠ meiĠzhouĠ
faĠ erĠciĠ
xiangĠ xiaĠ
guanĠ yiĠ
guanĠ weiĠ
dongĠ anĠ
jiaoĠ zhongĠ
baoĠ guoĠ
qingĠ shanĠ
liuĠ xiangĠ
liuĠ suanĠ
sanĠ xianĠ
tianĠ guoĠ
paiĠ chuĠdeĠ
touĠ baoĠ
manĠ yanĠ
peiĠ liĠ
ĠhouĠ xuĠ
kuĠ erĠdeĠ
ĠtaiĠ nanĠ
zhaiĠ quanĠ
tongĠyiĠ deĠ
yongĠyouĠ deĠ
lingĠdaoĠ zheĠ
gongĠyeĠ quĠ
ĠĠĠA r
heĠbingĠ erĠchengĠ
ĠshiĠweiĠyuĠmeiĠguoĠ yiĠliĠnuoĠyiĠzhouĠ
3 ĠyueĠ17ĠriĠ
7 ĠnianĠ11
Ġ taoĠlunĠ
zhiĠ dianĠ
siĠ youĠ
faĠ erĠ
tongĠ qingĠ
riĠ yuanĠ
duĠ changĠ
guĠ heĠ
saiĠ jiĠzhongĠ
neiĠ xinĠ
niĠ menĠ
caiĠ ceĠ
duanĠ weiĠ
huanĠ shangĠ
zhaoĠ biaoĠ
tuiĠ daoĠ
ĠdiĠ 1Ġ
gongĠsiĠ zaiĠ
maiĠ zangĠ
waĠ waĠ
weiĠyuanĠ zhangĠ
18 ĠrenĠ
ĠchengĠ liĠyuĠ
ĠshouĠ fuĠ
tiĠgongĠ fuĠwuĠ
binĠ weiĠ
am eĠĠĠ
9ĠyueĠ 9ĠriĠ
ri st
yinĠduĠ deĠ
5ĠyueĠ 3ĠriĠ
tengĠ xunĠ
nvĠziĠ tuanĠtiĠ
ĠzhuanĠ renĠ
huiĠfuĠ zhuĠrenĠ
ĠĠĠ198 1ĠnianĠ
jiangĠqiĠ shengĠgeĠweiĠ
liĠweiĠ yaĠ
23 ĠrenĠ
pingĠtaiĠ shangĠ
neiĠzhengĠ buĠ
ĠqiĠxiĠzaiĠdiĠ cengĠshuiĠyuĠ
8 ĠyueĠ24ĠriĠ
L U
d el
l os
ĠĠĠ zaoĠ
zhongĠ xueĠxiaoĠ
xingĠ daoĠ
keĠ weiĠqiĠ
ziĠ wenĠ
zhengĠ renĠ
taĠ keĠ
dongĠ jieĠ
xinĠ ganĠxianĠ
qianĠ wanĠ
dianĠ xunĠ
haiĠ binĠ
benĠ haĠgenĠ
dingĠ danĠ
tuĠ zhuangĠ
fengĠ jiĠ
caiĠ huaĠ
guangĠ weiĠ
ganĠ heĠ
tuanĠ yuanĠ
songĠ shiĠ
ĠyeĠ beiĠ
shiĠjieĠ shiĠ
ĠgongĠ shiĠ
ĠgongĠ fenĠ
ĠshengĠ jingĠ
wenĠhuaĠ heĠ
cangĠ pinĠ
ĠsanĠ guoĠ
ĠluĠ yiĠ
8ĠyueĠ 19ĠriĠ
deĠdaĠ xiaoĠ
youĠshiĠ langĠ
ĠqueĠ faĠ
ĠqueĠ baoĠ
suĠlianĠ deĠ
ric onĠ
xiaĠdeĠyiĠgeĠ zhongĠ
3 ĠyueĠ25ĠriĠ
C omp
ĠĠĠ 5Ġ
ĠĠĠ 7Ġ
zaiĠ quanĠqiuĠ
buĠ guoĠ
daĠ liĠdeĠ
xiĠ menĠ
yuanĠ diĠ
yuanĠ youĠdeĠ
keĠ weiĠerĠ
keĠ chiĠxuĠ
xinĠ baoĠ
yingĠ ziĠ
yeĠ liĠ
yeĠ ziĠ
duĠ chengĠ
sheĠ renĠ
minĠ shengĠ
teĠ lvĠ
duoĠ shiĠ
ĠtaĠ xiangĠ
tuĠ boĠ
waiĠ maoĠ
ĠdeĠ shuoĠfaĠ
hanĠ zuĠ
caiĠ kaiĠshiĠ
xiuĠ zhuĠ
peiĠ ouĠ
xiangĠgangĠ daĠxueĠ
yiĠzhiĠ youĠ
ĠshouĠ jiĠ
ĠjiuĠ zaiĠ
3ĠyueĠ 20ĠriĠ
kuiĠ beiĠkeĠ
6ĠyueĠ 6ĠriĠ
souĠ chuanĠ
gaiĠbianĠ chengĠ
shangĠyeĠ yinĠhangĠ
Ġ190 6ĠnianĠ
zaiĠ200 5ĠnianĠ
lvĠkeĠ lieĠcheĠ
ep h
gongĠanĠ juĠ
biĠyaoĠ deĠ
riĠchangĠ shengĠhuoĠ
7 ĠyueĠ18ĠriĠ
9 9ĠnianĠ
9 ĠyueĠ18ĠriĠ
9 ĠyueĠ23ĠriĠ
M icrosoftĠĠĠ
ĠĠĠ lvĠyouĠ
yuĠ 2020ĠnianĠ
qiĠ kaiĠshiĠ
buĠ cuoĠ
yuanĠ liaoĠ
fuĠ baiĠ
jieĠ lianĠ
beiĠ yangĠ
jingĠ songĠ
guanĠ zhongĠdeĠ
jiangĠ zhongĠ
xiaoĠ zhongĠ
xiaoĠ huiĠ
duĠ boĠ
gaiĠ yiĠ
ĠyiĠ ziĠ
guĠ daoĠ
dingĠ shengĠ
fanĠ boĠ
xuanĠ wuĠ
huĠ xianĠ
tuĠ zhuĠ
duanĠ tuĠ
ĠyinĠ qingĠ
zhaoĠ riĠ
3Ġ pingĠfangĠgongĠliĠ
ĠliĠ faĠ
daĠxueĠ xueĠxiĠ
songĠ daiĠ
reĠ lieĠ
ĠshangĠ yingĠ
8ĠyueĠ 9ĠriĠ
tongĠchangĠ huiĠ
ĠmiĠ leiĠ
ra g
maĠliĠ nuoĠ
juĠjueĠ leĠ
ĠU ni
yuĠ198 5ĠnianĠ
erĠjiĠ siĠ
tongĠxingĠ hunĠyinĠ
indow sĠĠĠ
5 ĠyueĠ28ĠriĠ
6 ĠyueĠ12ĠriĠ
C o
M I
g n
â Ĺ
aiĠ heĠhuaĠ
shiĠ luĠ
zhiĠ meiĠ
yuĠ siĠ
qiĠ junĠ
jianĠ shangĠ
xianĠ shenĠ
zhengĠ tanĠ
shouĠ jiaoĠ
guanĠ chuanĠ
fenĠ zhongĠdeĠ
duiĠ mianĠ
xiaoĠ dongĠ
wenĠ liĠ
guĠ keĠ
saiĠ daoĠ
shanĠ beiĠ
menĠ kanĠ
ĠyouĠ yiĠgeĠ
ĠqiĠ taĠdeĠ
hanĠ lengĠ
canĠ zhongĠ
ĠkeĠ laĠkeĠ
taiĠwanĠ shengĠ
piaoĠ xuanĠ
wenĠhuaĠ daĠgeĠmingĠ
ĠliangĠ zhongĠ
eĠluoĠsiĠ lianĠbangĠ
7ĠyueĠ 8ĠriĠ
ri b
buĠshiĠ langĠ
souĠ jiĠ
ĠnaĠ poĠlunĠ
2ĠyueĠ2 5ĠriĠ
yuĠ199 1ĠnianĠ
ĠĠĠ197 9ĠnianĠ
shiĠfanĠ xueĠxiaoĠ
qiĠxiĠ diĠ
6 ĠyueĠ25ĠriĠ
C C
E PĠ
u tĠĠĠ
Ġ quĠshiĠ
shiĠ liaoĠ
deĠ geĠ
yiĠ nuĠ
ĠĠĠ zhongĠguoĠdaĠluĠ
yuĠ xiaĠ
jianĠ xinĠ
faĠ shouĠdeĠ
chuĠ moĠ
taĠ haiĠ
zhanĠ dianĠ
zheĠ duiĠ
meiĠ yinĠpaiĠ
changĠ chengĠ
fenĠ jianĠduiĠ
yeĠ yinĠ
huoĠ xuanĠ
qianĠ tiĠ
duĠ lunĠ
yaĠ pianĠ
pingĠ dongĠ
pingĠ rangĠ
ĠyiĠ changĠ
kaiĠ changĠ
kaiĠ teĠ
sanĠ leiĠ
ĠweiĠ duĠ
ĠyouĠ keĠ
ĠyouĠ taiĠ
ĠqiĠ zhuĠyaoĠ
jueĠ daĠduoĠshuĠ
zhuanĠ erĠ
ĠzheĠ jiuĠshiĠ
ganĠ xingĠquĠ
shiĠjianĠ shiĠ
ĠdaĠ zhiĠ
ar m
ĠgongĠ gaoĠ
an dĠ
liĠdeĠ liĠxiĠ
louĠ yuĠ
deĠzhiĠ liuĠ
cangĠ yuĠ
ĠguĠ liĠ
ĠqingĠ daiĠ
ĠzhengĠ zaiĠ
3ĠyueĠ 9ĠriĠ
jiaoĠtongĠ daĠxueĠ
ou nd
ĠhouĠlaiĠ youĠ
ĠsheĠ zhiĠ
rĠ Ã
ĠĠĠP ro
ĠĠĠqiĠ yuanĠ
kaoĠlvĠ daoĠ
zhengĠxieĠ fuĠzhuĠxiĠ
duiĠwaiĠ kaiĠfangĠ
DV DĠ
ĠgaiĠshengĠfenĠweiĠfaĠguoĠbeiĠbuĠ neiĠluĠshengĠfenĠ
5 0ĠnianĠdaiĠ
s u
yiĠ faĠ
yiĠ longĠ
youĠ xinĠ
youĠ muĠ
buĠ xiuĠ
daĠ duĠhuiĠ
wuĠ jingĠ
faĠ zeĠ
shuĠ qiĠ
zhengĠ baĠ
houĠ saiĠ
zuoĠ fuĠ
fenĠ ziĠdeĠ
yeĠ zhuĠ
sheĠ shouĠ
haiĠ tunĠ
lingĠ heĠ
qiuĠ heĠ
sanĠ heĠ
tianĠ caiĠ
ĠbingĠ zuiĠzhongĠ
ĠdanĠ taĠdeĠ
caiĠ tuanĠ
zaoĠ shiĠ
200 0
ĠjiĠ heĠ
tuiĠ juĠ
ĠdaĠ huiĠ
âĢ ²
ĠgongĠ chanĠ
deĠzhiĠ jieĠ
sunĠ huiĠ
zhongĠyangĠ yinĠhangĠ
shiĠyanĠ deĠ
5ĠyueĠ 9ĠriĠ
14 0
souĠ chaĠ
12Ġ miĠ
Ġãĥ ©
jianĠchengĠ tongĠcheĠ
yuanĠbenĠ deĠ
uc k
ĠĠĠyiĠxiaĠ shiĠ
gh tĠ
ĠzongĠbuĠ weiĠyuĠ
6 ĠyueĠ15ĠriĠ
e aĠĠĠ
aĠ boĠluoĠ
aoĠ tuoĠ
jiĠ linĠ
zhongĠ yongĠ
diĠ xunĠ
buĠ zhengĠshiĠ
xingĠ xingĠweiĠ
daĠ chuĠ
xiĠ xiĠliĠ
fuĠ zhiĠfuĠ
jinĠ guoĠ
tiĠ yaĠ
wenĠ buĠ
dianĠ puĠ
haiĠ kouĠ
maĠ ĠĠ
maĠ daĠ
neiĠ ceĠ
ĠweiĠ keĠ
moĠ riĠ
zeĠ chengĠweiĠ
chaĠ ruĠ
ĠyuĠ yiĠ
haĠ fuĠdaĠxueĠ
Ġ2 8
zuĠzhiĠ leĠ
heiĠ dongĠ
7ĠyueĠ 19ĠriĠ
ri v
4ĠyueĠ 8ĠriĠ
ĠwenĠ geĠ
biaoĠzhunĠ huaĠ
ĠleiĠ xingĠweiĠ
penĠ faĠ
ĠĠĠ195 8ĠnianĠ
tongĠpaiĠ deĠzhuĠ
ĠlianĠheĠ taiĠfengĠjingĠbaoĠzhongĠxinĠ
2 ĠyiĠ
3 ĠyueĠ27ĠriĠ
e aĠ
yiĠ danĠ
gongĠ fuĠ
xingĠ zaiĠ
jieĠ xiaĠlaiĠdeĠ
daoĠ juĠ
zhanĠ leĠ
jiaoĠ jieĠchuĠ
luĠ weiĠ
yeĠ mianĠ
huoĠ yanĠ
zhangĠ huaĠ
gaiĠ quĠ
yaĠ shuĠ
guĠ jianĠzhuĠ
yangĠ mingĠ
boĠ liĠsiĠ
dangĠ zhengĠ
huĠ songĠ
tianĠ shengĠ
tuĠ shangĠ
hanĠ wenĠ
1Ġ pingĠfangĠgongĠliĠ
chanĠ chuĠ
manĠ guĠ
liaoĠ yangĠ
daĠxueĠ heĠ
haĠ miĠ
shiĠjiĠ huaĠ
deĠjiĠ suanĠ
niuĠ dunĠ
ĠqianĠ shenĠweiĠ
daĠshiĠ saiĠ
Ġc Ġ
14Ġ geĠ
ĠdangĠzhongĠ baoĠkuoĠ
ĠweiĠyuĠgaiĠguoĠ xiĠbeiĠbuĠ
xieĠgenĠ zhouĠ
7 ĠyueĠ10ĠriĠ
w e
shiĠ dongĠ
ĠĠĠ tuiĠ
jiĠ tuiĠ
qiĠ huanĠ
gongĠ shengĠ
daĠ zhenĠ
xiĠ liuĠ
beiĠ feiĠ
chuĠ pinĠ
jiaoĠ suoĠ
ĠshiĠ tiĠ
junĠ zhengĠfuĠ
nanĠ duoĠ
wanĠ huĠ
lingĠ lanĠ
miĠ xiĠxiĠbiĠ
guĠ zhuĠ
duoĠ nianĠdeĠ
ĠqiĠ zaiĠ
paiĠ bingĠ
caiĠ zhiĠ
ĠzhiĠ xianĠ
ĠzhiĠ dingĠ
shuiĠ liĠfaĠ
1Ġ mianĠ
duanĠ lieĠ
huanĠ leĠ
congĠ laiĠ
shaoĠ shiĠ
ĠheĠ erĠ
ĠbuĠ duiĠ
shiĠyiĠ shiĠ
ĠbeiĠ shiĠweiĠ
kanĠ zuoĠ
shuangĠ renĠ
deĠzhiĠ mingĠ
yinĠyueĠ deĠ
ĠliuĠ xingĠ
youĠxianĠ dianĠshiĠ
ĠtongĠnianĠ wuĠyueĠ
deĠgongĠ tongĠ
ĠfangĠ yuĠ
qiĠhouĠ bianĠhuaĠ
196 5ĠnianĠ
jiĠchuĠ sheĠshiĠ
9 ĠyueĠ16ĠriĠ
l at
Ġ li
Ġ kĠ
ĠĠĠ jieĠmuĠ
zaiĠ siĠ
guoĠ liangĠ
heĠ dianĠ
buĠ gaoĠ
chengĠ banĠ
erĠ haĠ
jianĠ zhongĠ
jieĠ pouĠ
jiaĠ qingĠ
xiangĠ taoĠ
shangĠ baoĠ
huaĠ gangĠ
luĠ teĠ
wenĠ zhouĠ
baoĠ erĠ
shenĠ xianĠ
xieĠ ziĠ
laĠ weiĠ
ĠzaiĠ zheĠxieĠ
ĠbingĠ baĠ
zhuanĠ zheĠ
rongĠ qiĠ
shiĠyiĠ kuanĠ
ĠbeiĠ keĠ
ĠbeiĠ linĠ
ĠbeiĠ yuĠweiĠ
ĠdongĠ jiĠ
hengĠ deĠ
ĠxiangĠ fanĠ
diĠerĠ piĠ
ĠS T
8ĠyueĠ 20ĠriĠ
7ĠyueĠ 30ĠriĠ
12 ĠshiĠ
ĠhanĠ shuĠ
ol le
tengĠ tongĠ
198 3ĠnianĠ
ĠtuĠ ranĠ
nanĠziĠ tuanĠtiĠ
ĠĠĠ196 0ĠnianĠ
ĠweiĠyuĠfaĠguoĠ boĠgenĠdiĠ
henĠkuaiĠ jiuĠ
iv eĠ
jinĠxiangĠ jiangĠ
deĠdiĠtieĠ cheĠzhanĠ
1 19
6 ĠyueĠ24ĠriĠ
9 ĠyueĠ17ĠriĠ
anĠ weiĠ
aĠ siĠ
ĠĠĠ meiĠtiĠ
weiĠ baĠ
weiĠ zhongĠguoĠ
zaiĠ benĠ
wuĠ jiangĠ
shengĠ mingĠdeĠ
taĠ jiangĠ
shouĠ chuĠ
huaĠ xiangĠ
xueĠ liangĠ
qianĠ beiĠ
yinĠ yiĠ
jiuĠ chengĠ
shanĠ xiangĠ
moĠ yaĠ
deĠyiĠ minĠ
ĠliĠ mianĠ
pianĠ xiĠ
ĠbuĠ liĠ
ĠdiĠ liĠ
ĠbeiĠ haiĠdaoĠ
maoĠ ziĠ
ĠwuĠ yuanĠ
riĠbenĠ zhengĠfuĠ
ĠhouĠ laiĠdeĠ
xiongĠ nuĠ
niuĠ rouĠ
keĠnengĠ daoĠzhiĠ
ĠqianĠ houĠ
Ġ6 00Ġ
9ĠyueĠ 19ĠriĠ
il d
chiĠxuĠ daoĠ
rengĠranĠ shiĠ
ĠneiĠ mengĠguĠ
xiĠlaĠ yuĠ
50 00Ġ
linĠshiĠ zhengĠfuĠ
buĠluĠ keĠ
ĠĠĠjuĠqingĠ jianĠjieĠ
huiĠruĠ diĠtuĠ
D is
K i
i on
Ġ x
Ġ manĠhuaĠ
ĠĠĠ laoĠ
ĠĠĠ jiĠshuĠ
youĠ daoĠ
daĠ youĠ
faĠ diĠ
tongĠ yangĠdeĠ
shouĠ gongĠ
yeĠ beiĠchengĠweiĠ
junĠ xiaoĠ
taiĠ ciĠ
lianĠ xingĠ
duoĠ naoĠ
bingĠ lieĠ
tianĠ ziĠ
moĠ fanĠ
linĠ jiaĠ
ĠyuĠ zhouĠ
ĠrenĠ zhiĠ
huangĠ taiĠhouĠ
ĠxiĠ fangĠ
ĠchuĠ ziĠ
ĠxiangĠ chuanĠ
ĠgeĠ mingĠ
senĠ teĠ
ĠshangĠ mianĠ
ĠxiaoĠ xueĠ
paĠ deĠ
siĠteĠ deĠ
4ĠyueĠ 3ĠriĠ
ĠzhouĠ kanĠ
jiaĠzhiĠ guanĠ
sheĠzhiĠ leĠ
ruĠxiaĠ biaoĠ
ĠtuoĠ maĠsiĠ
waiĠguoĠ renĠ
ĠweiĠfuĠqiĠyuĠgangĠ liĠ
2 ĠweiĠ
Q Ġ
a si
anĠ zangĠ
ĠĠ I
ĠĠ 2Ġ
ĠĠĠ zuiĠhouĠ
ĠĠĠ jiangĠxiangĠ
weiĠ ziĠ
zhongĠ quĠ
xiĠ ouĠ
siĠ xianĠ
xianĠ gongĠsiĠ
jieĠ miĠ
jiaĠ shenĠ
zhuĠ zhiĠ
shangĠ zhiĠ
guanĠ zhuangĠbingĠduĠ
ĠshiĠ heĠ
tiĠ quĠ
haiĠ geĠmingĠ
zhouĠ yuĠ
daiĠ zaiĠ
ĠyiĠ yiĠ
lianĠ shouĠ
ĠgaiĠ mingĠweiĠ
shaoĠ yuĠ
longĠ heĠ
poĠ deĠ
panĠ dingĠ
saĠ muĠ
ĠjieĠ xiaĠlaiĠ
suanĠ deĠ
ĠchuĠ qiĠ
deĠdiĠ siĠ
cangĠ shuĠ
pengĠ jiĠ
ĠzhengĠ ruĠ
7ĠyueĠ 6ĠriĠ
ri g
haiĠjunĠ luĠzhanĠduiĠ
guaĠ paiĠ
lianĠbangĠ zhongĠyiĠyuanĠ
fanĠduiĠ dangĠ
weiĠrenĠ zhiĠ
15Ġ geĠ
196 2ĠnianĠ
diĠqiuĠ deĠ
quĠxiaoĠ leĠ
ĠĠĠxiangĠgangĠ shiĠjianĠ
tanĠceĠ qiĠ
ĠqiongĠ siĠ
Ġsi lverĠ
aĠ dengĠ
yiĠ hanĠ
ĠĠĠ zuiĠzhongĠ
gongĠ jinĠjiĠ
xiangĠ xianĠ
zuoĠ haoĠ
yingĠ pingĠ
yanĠ zhuĠ
ĠyiĠ houĠ
biaoĠ shuĠ
yaoĠ zhiĠ
dengĠ yinĠsuĠ
tianĠ heĠ
Ġ1 ĠdeĠ
naĠ miĠ
ĠdanĠ shiĠjiĠshangĠ
paiĠ zaiĠ
gangĠ shanĠ
qinĠ deĠ
xiuĠ jiĠ
longĠ yuĠ
rongĠ ziĠ
ĠdaĠ ziĠ
ĠbaoĠ chiĠ
ĠyingĠ bangĠ
ĠsiĠ nianĠ
liĠyaĠ deĠ
ĠxiangĠ shouĠ
kuaiĠ cheĠ
diĠerĠ daiĠ
ĠquanĠ mianĠ
Ġ4 9
8ĠyueĠ 30ĠriĠ
re g
diĠsanĠ mingĠ
xingĠdongĠ zhongĠ
keĠxueĠ yuĠ
ĠwenĠ xueĠ
ĠãĤ ¢
qingĠnianĠ tuanĠ
taiĠyangĠ nengĠ
caiĠzhengĠ buĠ
jiaĠyiĠ xianĠ
Ġ2007ĠnianĠ renĠkouĠ
jiaoĠxiangĠ yueĠtuanĠ
8 ĠyueĠ10ĠriĠ
ï ¸
Ġ minĠzhuĠdangĠ
deĠ zuiĠgaoĠ
yiĠ piĠ
yiĠ meiĠguoĠrenĠ
liĠ huaĠ
liĠ waiĠ
buĠ renĠ
gongĠ xinĠ
chengĠ xiaoĠ
jiaĠ fuĠ
jiaĠ guĠ
ciĠ renĠ
dongĠ ouĠ
meiĠ heĠ
changĠ ciĠ
xiaoĠ baĠ
taiĠ yangĠdeĠ
zuĠ dangĠ
pingĠ riĠ
duoĠ zaiĠ
menĠ zaiĠ
Ġ1 ĠhaoĠ
ĠrenĠ neiĠ
3Ġ haoĠxianĠ
hangĠ shaĠ
maiĠ geiĠ
lv ĠdangĠ
ĠchengĠ keĠ
Ġ2 7
zhaĠ jiĠ
diĠerĠ jieĠ
ĠbaĠ erĠ
leĠyiĠ mingĠ
4ĠyueĠ 20ĠriĠ
shengĠjiĠ weiĠ
ĠĠĠciĠ houĠ
ĠĠĠ194 8ĠnianĠ
zaiĠ200 6ĠnianĠ
200Ġ wanĠ
Ġ2005ĠnianĠ renĠkouĠ
jinĠbuĠ dangĠ
0 9Ġ
6 ĠyueĠ22ĠriĠ
9 ĠyueĠ27ĠriĠ
S H
Ġ kengĠ
Ġ poĠhuaiĠ
aĠ geĠ
ĠĠĠ xueĠshuĠ
ĠĠĠ idĠ
jiĠ zhanĠ
liĠ ciĠ
zhongĠ huanĠ
youĠ erĠ
youĠ wanĠ
zaiĠ fuĠ
diĠ jiaoĠ
daĠ baĠ
geĠ fangĠ
keĠ xingĠxingĠ
shengĠ leĠ
shengĠ daiĠ
zhuĠ baoĠ
faĠ wangĠ
ĠyueĠ youĠ
shouĠ danĠquĠ
zhanĠ neiĠ
xinĠ zhiĠ
luĠ guĠ
qianĠ liangĠ
jiuĠ zhuĠ
jiuĠ shiĠjiĠ
minĠ yingĠ
cheĠ piaoĠ
hanĠ shuĠdeĠ
caiĠ yiĠ
shaoĠ erĠ
pianĠ haoĠ
bangĠ lianĠ
saĠ waĠ
rangĠ taĠmenĠ
hunĠ shuangĠ
deĠjiĠ yinĠ
ĠmeiĠ liĠ
chunĠ cuiĠ
wenĠhuaĠ zhongĠxinĠ
ĠfaĠ sheĠ
zhiĠshiĠ daiĠ
ĠchangĠ shangĠ
shengĠchanĠ zongĠzhiĠ
kongĠzhiĠ quanĠ
ĠrenĠkouĠ weiĠrenĠ
ĠĠĠ197 8ĠnianĠ
faĠdianĠ jiĠ
ĠkaoĠ jinĠ
luĠwaĠ erĠheĠ
tongĠmengĠ huiĠ
xuĠkeĠ zhengĠ
CO VIDĠ
anĠchaĠ shiĠ
5 ĠyueĠ13ĠriĠ
r en
Ġ angĠ
shiĠ ciĠ
shiĠ zuĠ
ĠĠĠ deĠĠĠ
ĠĠĠ zuiĠchuĠ
chengĠ xingĠ
daĠ tiĠ
geĠ nianĠ
ziĠ yanĠ
shangĠ taiĠ
shouĠ junĠ
fangĠ huoĠ
huaĠ ziĠ
qianĠ huĠ
duĠ leiĠ
jiuĠ chuĠ
shenĠ naiĠ
kaiĠ erĠ
duoĠ youĠ
bingĠ chengĠ
danĠ heĠ
huĠ renĠ
ĠyouĠ shiĠyeĠ
lieĠ renĠ
guangĠ kuoĠ
cengĠ jiĠ
ĠzheĠ weiĠ
huangĠ gongĠ
ĠzhongĠ xueĠ
tangĠ shuĠ
4Ġ pingĠfangĠgongĠliĠ
dunĠ heĠ
henĠ xiaoĠ
canĠjiaĠ guoĠ
ĠjiuĠ huiĠ
ĠtianĠ jinĠshiĠ
ziĠyouĠ shiĠ
ziĠyouĠ deĠ
3ĠyueĠ 30ĠriĠ
ĠB l
diĠfangĠ deĠ
kongĠjunĠ jiĠdiĠ
ĠbeiĠqiĠ ruanĠtiaoĠ
tiaoĠzhanĠ saiĠ
aĠkenĠseĠ zhouĠ
3 ĠyueĠ10ĠriĠ
3 ĠyueĠ21ĠriĠ
7 ĠyueĠ12ĠriĠ
y m
Ġ cuoĠ
shiĠ meiĠguoĠ
deĠ lanĠ
ĠĠĠ xueĠ
ĠĠĠ chiĠ
ĠĠĠ zongĠjiaoĠ
xianĠ zhuangĠ
xiangĠ liĠ
quĠ gunĠ
jingĠ diĠ
shouĠ keĠ
shouĠ leĠ
huaĠ shanĠ
ĠyiĠ tianĠ
luoĠ laĠ
miĠ haĠ
zongĠ lingĠshiĠ
zaoĠ daoĠleĠ
puĠ dongĠ
maoĠ qiuĠ
yiĠjiĠ zhongĠguoĠdaĠluĠ
jueĠdingĠ zaiĠ
9ĠyueĠ 5ĠriĠ
ĠchangĠ jiangĠ
kongĠzhiĠ leĠ
ĠbiaoĠ mianĠ
jiĠchangĠ deĠ
ĠdangĠshiĠ taĠ
guoĠliĠ daĠxueĠ
ĠgenĠ suiĠ
6 ĠyueĠ26ĠriĠ
i z
shiĠ dangĠ
yiĠ 1Ġ
ĠĠĠ aĠĠĠ
ĠĠĠ lingĠyiĠfangĠmianĠ
yuĠ shanĠ
zhongĠ riĠ
zaiĠ juĠ
qiĠ suoĠ
qiĠ caoĠ
diĠ panĠ
faĠ lunĠ
jingĠ zhuĠ
zuoĠ daoĠ
xiaoĠ longĠ
qianĠ daiĠ
baoĠ zhuĠ
liuĠ jiĠ
menĠ dianĠ
qinĠ yuanĠ
ĠdiĠ yiĠjiĠ
laoĠ shuĠ
ĠjuĠ chengĠ
heiĠ bangĠ
sheĠhuiĠ keĠxueĠyuanĠ
ĠdaoĠ luĠ
6ĠyueĠ 9ĠriĠ
ĠguangĠ boĠ
ĠĠĠ196 6ĠnianĠ
gaoĠshiĠ paiĠ
ĠtunĠqiĠ ruanĠtiaoĠ
riĠneiĠ waĠ
9 ĠyueĠ24ĠriĠ
B o
D e
I O
Î ²Ġ
Ġ ti
Ġ hangĠkongĠ
ĠĠĠ kuĠ
yuĠ qingĠ
zhongĠ zhongĠ
youĠ ziĠ
buĠ chengĠ
erĠ shiĠwuĠ
jieĠ yongĠ
jieĠ zhuangĠ
jiaĠ wuĠ
xiangĠ waiĠ
juĠ chiĠ
jiaoĠ tiĠ
changĠ jiĠ
yingĠ zaiĠ
wenĠ yiĠfuĠxingĠ
baoĠ kanĠ
zhangĠ kongĠ
yaĠ liĠyuĠ
jiuĠ yaoĠ
xuĠ weiĠ
maĠ xianĠ
maĠ linĠ
danĠ xiangĠ
waiĠ yuanĠ
waiĠ chuĠ
zhuanĠ zhanĠ
lvĠ guanĠ
ĠbeiĠ zhiĠ
ĠdaĠ luĠ
ĠjiaĠ longĠshengĠ
ĠxingĠ bieĠ
wenĠtiĠ shangĠ
re am
17 ĠrenĠ
jianĠliĠ yiĠgeĠ
4ĠyueĠ 4ĠriĠ
4ĠyueĠ 19ĠriĠ
om eĠĠĠ
ĠL e
houĠlaiĠ beiĠ
194 6ĠnianĠ
ĠteĠ leiĠ
Ġ190 8ĠnianĠ
zaiĠ200 0ĠnianĠ
yuĠ198 8ĠnianĠ
renĠdaĠ changĠweiĠ
ĠliĠshiĠ xueĠjiaĠ
jingĠneiĠgongĠyouĠ geĠleiĠ
keĠtaĠ zhouĠ
8 ĠyueĠ29ĠriĠ
M B
n inĠ
aiĠ diĠ
shiĠ xinĠ
shiĠ kongĠ
deĠ zhouĠ
zhongĠ fengĠ
zaiĠ duiĠ
qiĠ shiĠdeĠ
heĠ shiĠdeĠ
gongĠ xueĠ
xingĠ xinĠguanĠfeiĠyanĠqueĠzhenĠbingĠliĠ
jianĠ tiĠ
jianĠ guĠ
geĠ renĠdeĠ
keĠ banĠ
beiĠ fenĠ
huoĠ jiĠ
taiĠ jianĠ
zhangĠ luĠyinĠshiĠzhuanĠjiĠ
haiĠ heĠ
zuĠ zhuangĠ
yueĠ yeĠ
gaoĠ zongĠ
kaiĠ laiĠ
biĠ mingĠ
bingĠ chengĠweiĠ
ĠzaiĠ zhongĠguoĠdaĠluĠ
fengĠ haoĠ
moĠ shiĠzhongĠ
hanĠ kouĠ
tingĠ yuanĠ
touĠ shenĠ
canĠ jiĠ
ganĠ zhiĠ
tiaoĠ guiĠdingĠ
ĠheĠ xinĠ
maiĠ maiĠ
laoĠ siĠ
ĠxianĠ mingĠ
xiongĠ shouĠ
xingĠzhengĠ cunĠ
ĠnanĠ buĠ
ĠtaĠmenĠ renĠweiĠ
ĠchangĠ zhuĠ
ol dĠĠĠ
196 9ĠnianĠ
195 4ĠnianĠ
ĠchuangĠ liĠ
youĠsuoĠ buĠtongĠ
moĠerĠ benĠ
ĠshiĠxiĠbanĠyaĠ kaĠsiĠdiĠliĠyaĠ
ĠweiĠyuĠfaĠguoĠaoĠ fuĠnieĠ
3 ĠyueĠ11ĠriĠ
5 ĠyueĠ12ĠriĠ
7 ĠyueĠ23ĠriĠ
8 ĠyueĠ16ĠriĠ
Ġ ð
Ġ saiĠerĠweiĠyaĠ
youĠ jiaoĠ
daĠ quanĠ
erĠ dingĠ
xiĠ linĠ
jieĠ chengĠ
taĠ laĠ
shangĠ bingĠ
guanĠ tangĠ
xiaoĠ zhiĠ
yinĠ shengĠ
sheĠ jianĠ
jiuĠ shengĠ
zuiĠ changĠjianĠdeĠ
ĠtaĠ baĠ
shanĠ jiaoĠ
sanĠ yuanĠ
huĠ jiaoĠ
ĠqiĠ xiangĠ
ĠdanĠ zheĠxieĠ
tingĠ gaiĠsheĠ
deĠyiĠ fuĠ
canĠ zhaoĠ
chaĠ xunĠ
ĠyuĠ shiĠzaiĠ
ĠrenĠ junĠ
xiuĠ xingĠ
ĠliĠ deĠ
piĠ liĠ
taoĠ yuanĠshiĠ
bangĠ wanĠ
zengĠ yaĠ
xiongĠ xingĠ
ĠkeĠ jianĠ
ĠkeĠ xueĠjiaĠ
ĠhaiĠ waiĠ
dongĠwuĠ yuanĠ
ĠfangĠ zhiĠ
197 7ĠnianĠ
shiĠchangĠ deĠ
jieĠduanĠ deĠ
Ġ190 0ĠnianĠ
oc kĠ
ĠyiĠyuanĠ renĠminĠbiĠ
ĠkeĠnengĠ shiĠ
youĠliangĠ zhongĠ
ich ael
zhanĠweiĠyuĠ zhongĠhuaĠrenĠminĠgongĠheĠguoĠ
ĠzhanĠdiĠ mianĠjiĠ
suoĠmuĠ shengĠ
R T
yiĠ yongĠ
ĠĠĠ fanĠyingĠ
ĠĠĠ tongĠchangĠ
weiĠ buĠ
weiĠ lanĠ
yuĠ tianĠ
qiĠ fenĠ
heĠ yingĠguoĠ
buĠ cunĠzaiĠ
siĠ faĠbuĠ
fuĠ jiaoĠshouĠ
wuĠ huiĠ
beiĠ guangĠfanĠ
quĠ yiĠ
juĠ shangĠ
shangĠ zouĠ
xueĠ zhengĠ
dongĠ tianĠ
taiĠ tieĠ
dianĠ dengĠ
zhouĠ houĠ
ĠyiĠ jiaoĠ
wanĠ saiĠ
ĠzaiĠ xinĠ
tuĠ kuĠ
ĠbingĠ cengĠ
yunĠ xingĠdeĠ
chuanĠ zheĠ
hanĠ jianĠdeĠ
lunĠ dianĠ
shaĠ qingĠ
ĠgaiĠ geĠ
piĠ yaĠ
4Ġ wanĠ
ĠbuĠ ruĠ
ĠjianĠ kangĠ
ĠjiangĠ huiĠ
ĠdengĠ renĠ
ĠwangĠ zhanĠ
jiĠshuĠ xueĠyuanĠ
jieĠshouĠ deĠ
deĠzhuĠ mingĠ
deĠrenĠ leiĠ
guoĠminĠ yiĠhuiĠ
dingĠjuĠ dianĠ
ĠdongĠnanĠ jieĠ
duanĠpianĠ xiaoĠshuoĠ
5 ĠjiĠ
6 ĠyueĠ18ĠriĠ
9 ĠyueĠ2ĠriĠ
R A
t sĠĠĠ
Ġ í
ĠĠĠ 20
ĠĠĠ inĠĠĠ
diĠ jiaĠ
daĠ jiaoĠtangĠ
xiĠ zhanĠ
fuĠ zhongĠ
daoĠ xiĠ
ĠshiĠ luoĠmaĠniĠyaĠ
qianĠ waĠ
sheĠ shiĠdeĠ
liangĠ taiĠ
wangĠ yuanĠ
yueĠ zhanĠ
kaiĠ deĠ
kaiĠ fangĠshiĠ
liuĠ weiĠ
feiĠ xianĠ
sanĠ zhiĠ
leiĠ nuoĠ
neiĠ cunĠ
kouĠ zhaoĠ
ĠqiĠ tuĠ
ĠdanĠ rengĠranĠ
deĠyiĠ shengĠ
canĠ liuĠ
1Ġ zuoĠ
huanĠ heĠ
kuoĠ yeĠ
4Ġ jiaĠ
tuoĠ deĠ
keĠyiĠ youĠ
shiĠjianĠ houĠ
ĠxianĠ xiaoĠliĠyuĠ
ĠgongĠ nengĠ
ĠziĠ chengĠ
ĠziĠ yangĠ
ĠlingĠ renĠ
ĠlingĠ yiĠzhongĠ
cangĠ chuanĠfoĠjiaoĠ
zuoĠpinĠ youĠ
leĠyiĠ duanĠ
ĠmoĠ siĠkeĠ
3ĠyueĠ 5ĠriĠ
ĠN ew
gaiĠbianĠ leĠ
zhanĠshiĠ leĠ
daĠhuiĠ tangĠ
xunĠlianĠ banĠ
2ĠyueĠ1 0ĠriĠ
ĠĠĠjuĠ leĠbuĠ
ĠcheĠzhanĠ bianĠhaoĠweiĠ
cuiĠhuiĠ leĠ
liĠfaĠhuiĠ yiĠyuanĠ
jiaĠleĠ biĠhaiĠ
ober tĠĠĠ
6 ĠyueĠ29ĠriĠ
7 ĠyueĠ11ĠriĠ
H K
Ġ touĠpiaoĠ
aiĠ xingĠ
ouĠ erĠ
ĠĠĠ qinĠ
weiĠ lieĠ
qiĠ zhongĠdeĠ
fuĠ shouĠ
shouĠ gaoĠ
zheĠ zhiĠyiĠ
meiĠ huaĠ
meiĠ liĠdeĠ
changĠ mianĠ
ĠshiĠ biĠ
jiangĠ jieĠshiĠ
yinĠ ouĠ
biĠ shuĠ
duoĠ taiĠ
benĠ shenĠdeĠ
danĠ xianĠ
tianĠ cunĠ
ĠweiĠ juĠ
niĠ zaiĠ
tingĠ yuĠ
zhuanĠ dongĠ
guangĠ daoĠ
touĠ faĠ
ĠyuĠ 193
zhaoĠ shuĠ
mengĠ daĠ
tuiĠ weiĠ
tieĠ daĠniĠhaoĠ
songĠ zhiĠ
ĠyeĠ keĠ
ĠdaĠ tongĠ
ĠdaĠ piĠ
diaoĠ wangĠ
ĠyingĠ junĠ
sheĠjiĠ leĠ
ĠgeĠ laĠ
jingĠjiĠ xueĠjiaĠ
ĠshiĠyiĠ suoĠ
huiĠyiĠ deĠ
ouĠzhouĠ deĠ
Ġg unĠ
renĠyuanĠ deĠ
ĠpingĠ jieĠ
dangĠdiĠ juĠminĠ
zhongĠhuaĠrenĠminĠgongĠheĠguoĠ zhuĠ
ĠzhuanĠ yeĠ
ĠchuanĠ shuoĠ
28 ĠrenĠ
ĠĠC h
gaoĠxiongĠ shiĠ
gh tĠĠĠ
ĠQ u
Twit terĠ
3 ĠyueĠ12ĠriĠ
5 ĠyueĠ24ĠriĠ
eĠ leiĠ
jiĠ leiĠ
weiĠ nanĠ
zhongĠ fangĠ
zhongĠ biaoĠshiĠ
daĠ tangĠ
yuanĠ banĠ
wuĠ guoĠ
beiĠ xuanĠ
xiangĠ suĠ
dongĠ zhiĠ
ĠshiĠ faĠ
duiĠ jueĠ
baoĠ yangĠ
yongĠ liĠ
pingĠ zhangĠ
ĠyiĠ qieĠ
ĠyiĠ kaiĠshiĠ
zuiĠ zhongĠdeĠ
saiĠ naĠshengĠ
boĠ yiĠ
huĠ zuĠzhiĠ
baĠ xianĠ
tianĠ quĠ
lieĠ fengĠ
ĠzhiĠ jiaĠgeĠ
huanĠ jiĠ
zhaoĠ yangĠ
hangĠ muĠ
ĠciĠ leiĠ
ar g
zhaĠ erĠ
ĠsuoĠ youĠdeĠ
ĠmuĠ diĠshiĠ
jianĠzhuĠ deĠ
ĠmaĠ enĠshengĠ
ĠM a
ĠbaiĠ seĠ
fanĠyingĠ leĠ
ĠzhouĠ enĠlaiĠ
ĠpeiĠ heĠ
ĠgaiĠcunĠ mianĠjiĠ
chengĠnianĠ renĠ
fuĠjiaĠ saiĠ
lan dĠ
baĠnaĠ maĠ
3 ĠyueĠ29ĠriĠ
4 ĠyueĠ27ĠriĠ
8 ĠyueĠ21ĠriĠ
9 ĠyueĠ22ĠriĠ
O K
Ġ rĠ
shiĠ dianĠ
shiĠ feiĠ
deĠ chengĠjiĠ
yiĠ yueĠ
ĠĠĠ CĠ
zhiĠ ĠĠ
zhongĠ yinĠ
youĠ lanĠ
youĠ moĠ
fuĠ guoĠ
daoĠ huiĠ
xiangĠ duiĠyuĠ
jinĠ jingĠ
jinĠ yanĠ
mingĠ guĠwuĠ
qianĠ jiĠ
yinĠ xianĠ
haiĠ zheĠ
ĠyiĠ queĠbaoĠ
luoĠ woĠ
biĠ zhiĠ
teĠ zaiĠ
bingĠ bianĠ
fanĠ yingĠdeĠ
danĠ baoĠ
ĠtaĠ huiĠ
sanĠ fenĠ
ĠweiĠ xingĠ
lanĠ yongĠ
tingĠ chanĠ
zhuanĠ huaĠ
guangĠ luĠ
ceĠ bianĠ
chongĠ wuĠ
kaĠ tongĠ
chenĠ deĠ
waĠ ziĠshengĠ
kanĠ chaĠ
ĠjiangĠ taĠ
sheĠjiĠ heĠ
renĠwuĠ shiĠ
ĠliangĠ mingĠ
ĠjiuĠ zhouĠ
suoĠyouĠ quanĠ
17 0
5ĠyueĠ 7ĠriĠ
ĠpuĠ tongĠ
ĠH D
huanĠjingĠ xiaĠ
jiĠweiĠ houĠ
nengĠgouĠ zaiĠ
penĠ sheĠ
zhiĠdingĠ leĠ
ĠweiĠyuĠfaĠguoĠ xinĠaĠjiĠtanĠdaĠquĠ
4 ĠyueĠ10ĠriĠ
9 ĠĠĠ
9 ĠnianĠ10
9 ĠyueĠ11ĠriĠ
C S
O riconĠ
ouĠ ranĠ
ĠĠĠ buĠfenĠ
ĠĠĠ biĠyeĠyuĠ
yuĠ guĠ
liĠ haiĠ
youĠ yingĠguoĠ
zaiĠ qingĠ
daĠ yiĠ
li neĠ
siĠ qiangĠ
faĠ chuĠdeĠ
shouĠ maiĠ
fenĠ chuĠ
wanĠ beiĠ
maĠ lanĠ
zongĠ xiangĠ
jueĠ jiĠ
ĠjiĠ yinĠ
baiĠ jiĠ
baiĠ geiĠ
2Ġ tiaoĠ
ĠzheĠ liangĠ
shiĠdeĠ renĠkouĠweiĠ
hongĠ waĠ
saĠ leiĠ
reĠ deĠ
ĠxinĠ xiĠlanĠ
louĠ cengĠ
zhuĠyiĠ heĠ
paĠ keĠ
ĠzhengĠ ceĠ
erĠdeĠ moĠ
5ĠyueĠ 4ĠriĠ
ĠP h
ou seĠ
keĠxueĠ yanĠjiuĠ
198 1ĠnianĠ
lingĠdaoĠ xiaoĠzuĠ
Ġãĥ ª
renĠleiĠ xueĠ
ĠdiĠerĠ tianĠ
jiĠhuĠ meiĠyouĠ
yanĠgeĠ deĠ
zhengĠyueĠ eĠ
4 ĠyueĠ29ĠriĠ
6 ĠyueĠ27ĠriĠ
8 ĠyueĠ26ĠriĠ
y d
Ġ ê
Ġ zhunĠ
Ġ shuoĠmingĠ
ĠĠĠ lianĠ
ĠĠĠ xuanĠjuĠ
gongĠ zhenĠ
xiĠ zhongĠ
zhuĠ haiĠ
beiĠ guoĠjiĠ
xiangĠ houĠ
taĠ daoĠ
jingĠ wenĠ
yongĠ faĠ
pingĠ jingĠ
ĠyiĠ fangĠmianĠ
lianĠ shiĠ
teĠ dianĠshiĠ
biaoĠ yuĠ
guĠ dingĠdeĠ
laĠ tuoĠweiĠyaĠ
ĠzaiĠ dangĠshiĠ
dangĠ shiĠyiĠ
shanĠ xiaĠ
dengĠ jiĠdeĠ
dengĠ xiaoĠpingĠ
zongĠ lingĠshiĠguanĠ
tingĠ shuoĠ
ĠzheĠ tiaoĠ
hangĠ suĠ
6Ġ wanĠ
songĠ shanĠ
ĠziĠ congĠ
9ĠyueĠ 8ĠriĠ
8ĠyueĠ 7ĠriĠ
17 0Ġ
ĠliĠruĠ zaiĠ
haiĠjunĠ deĠ
jiĠtuanĠ deĠ
ĠmiĠ miĠ
guiĠmoĠ deĠ
yaĠzhouĠ dianĠshiĠ
diĠqiĠ xingĠyuĠleiĠ
ĠouĠ mengĠ
siĠtaĠ fuĠ
baoĠshouĠ paiĠ
igh tĠĠĠ
ĠĠĠU AĠ
feiĠcuiĠ taiĠ
7 ĠyueĠ25ĠriĠ
8 ĠyueĠ17ĠriĠ
ĠĠĠ chaĠ
yuĠ xuanĠ
yuĠ feiĠ
buĠ dingĠ
buĠ tingĠ
buĠ guiĠzeĠ
erĠ daoĠ
fuĠ jingĠ
shengĠ jiangĠ
houĠ jiangĠ
houĠ chengĠweiĠ
leĠ yueĠ
shangĠ zaiĠ
dongĠ manĠ
yeĠ siĠ
yeĠ quĠ
yeĠ douĠ
duiĠ heĠ
xiaĠ yiĠgeĠ
zhangĠ zhouĠ
wangĠ xingĠ
ĠyiĠ laiĠ
suoĠ zuĠchengĠ
kaiĠ huiĠ
sanĠ duĠ
dengĠ duoĠ
moĠ xingĠdeĠ
tingĠ tingĠzhangĠ
lunĠ weiĠ
kongĠ huangĠ
touĠ kaoĠ
5Ġ liĠ
tiaoĠ jianĠdeĠ
hangĠ lieĠ
ĠdangĠ ranĠ
dunĠ nieĠciĠkeĠ
zengĠ duoĠ
diĠyiĠ zhangĠ
ĠxianĠ faĠ
ĠnanĠ songĠ
ĠA nd
8ĠyueĠ 3ĠriĠ
ro up
ĠbianĠ jiĠ
ĠlaĠ dingĠ
24 ĠrenĠ
tianĠzhuĠjiaoĠ huiĠ
yuĠ198 9ĠnianĠ
ĠweiĠyuĠfaĠguoĠ shangĠfaĠlanĠxiĠdaĠquĠ
ĠshaoĠ shuĠ
ĠciĠshiĠ xiaĠ
qiĠxiĠ zaiĠ
In stagram
nuoĠsiĠ aiĠliĠsiĠ
And ro
kaĠerĠwaĠduoĠ siĠshengĠ
0 ĠbiĠ2Ġ
Ġ senĠlinĠ
shiĠ riĠbenĠ
ĠĠĠ shuangĠ
erĠ huoĠdeĠ
fuĠ biĠ
keĠ liuĠ
jiaĠ feiĠjiĠ
beiĠ ouĠ
xiangĠ chuĠ
shangĠ yongĠ
jiaoĠ yeĠ
luĠ geĠ
sheĠ erĠ
laiĠ jinĠxingĠ
jiuĠ jiangĠ
ĠyiĠ gangĠyuanĠ
kaiĠ erĠteĠ
biaoĠ deĠ
zhenĠ xiaĠxiaĠyiĠxiaĠdiĠquĠ
bianĠ paiĠ
fanĠ xingĠ
dangĠ ranĠ
fengĠ heĠ
ĠjiĠ siĠ
ĠjiĠ longĠ
tanĠ daoĠ
huangĠ diĠdeĠ
xiuĠ duĠ
ĠliĠ siĠ
liĠshiĠ shangĠdeĠ
liaoĠ dongĠ
waĠ erĠdeĠ
xiongĠ diĠguoĠ
ĠjianĠ chiĠ
reĠ aiĠ
deĠjiĠ geĠ
diĠerĠ weiĠ
Ġ3 4Ġ
ĠguĠ mingĠ
ĠS c
5ĠyueĠ 30ĠriĠ
ĠaoĠ erĠ
6ĠyueĠ 5ĠriĠ
zuĠchengĠ leĠ
geĠmingĠ dangĠ
ĠmiĠ erĠ
ĠãĤ ¯
chanĠpinĠ deĠ
ĠĠĠ194 7ĠnianĠ
xiĠnanĠ buĠdeĠ
qianĠdingĠ leĠ
niĠriĠ liĠyaĠ
8 ĠyueĠ2ĠriĠ
C PĠ
n erĠ
ĠĠĠ shiĠshiĠ
ĠĠĠ tiĠyuĠ
youĠ sanĠgeĠ
qiĠ wuĠ
er nĠĠĠ
siĠ zuoĠ
keĠ rongĠnaĠ
daoĠ laiĠ
huiĠ yinĠ
jinĠ yuanĠ
jingĠ renĠ
guanĠ neiĠ
meiĠ zhouĠdeĠ
ĠshiĠ miĠ
luĠ kaĠ
duĠ tuĠ
baoĠ beiĠ
zuĠ zhiĠyiĠ
qingĠ yuĠ
ĠyiĠ zhiĠdaoĠ
shenĠ xueĠyuanĠ
kaiĠ huaĠ
miĠ teĠliĠ
tianĠ xingĠ
lanĠ xianĠ
lanĠ jingĠ
moĠ laĠ
ĠerĠ taĠdeĠ
1Ġ xianĠ
peiĠ leiĠ
bangĠ mangĠ
waĠ siĠ
weiĠyuĠ taiĠwanĠ
ĠzhuĠ geĠ
ar ĠĠĠ
hunĠ xueĠ
nongĠ tianĠ
deĠjiĠ gouĠ
buĠtongĠ yuĠ
zuĠqiuĠ biĠsaiĠ
7ĠyueĠ 9ĠriĠ
junĠshiĠ weiĠyuanĠhuiĠ
ĠF or
ec i
2ĠyueĠ2 ĠriĠ
2ĠyueĠ1 1ĠriĠ
ĠĠĠcheĠzhanĠ zhouĠbianĠ
zeĠrenĠ gongĠsiĠ
nongĠcunĠ juĠminĠdianĠ
zhouĠjiĠ gongĠluĠ
NH K
fangĠsheĠ xingĠ
luoĠwenĠ niĠyaĠ
3 ĠyueĠ22ĠriĠ
5 ĠyueĠ18ĠriĠ
9 ĠyueĠ21ĠriĠ
P G
o pĠ
Ġ touĠziĠ
Ġ gouĠchengĠ
Ń Ġ
aiĠ dingĠbaoĠ
shiĠ juĠ
liĠ ruĠ
zhongĠ daoĠ
qiĠ daĠ
buĠ chaoĠguoĠ
daĠ yaĠ
jianĠ diĠ
jiaĠ ziĠ
xiangĠ geĠ
zhengĠ tingĠ
jingĠ xinĠ
shangĠ xueĠ
ĠyueĠ duiĠ
luĠ luĠ
luĠ tianĠ
yeĠ weiĠqiĠ
huoĠ dianĠ
junĠ shiĠjiĠ
muĠ xingĠ
yueĠ 1Ġ
shenĠ haiĠ
shenĠ chuanĠ
shenĠ seĠ
gaoĠ weiĠ
biĠ dingĠ
fanĠ renĠ
dengĠ taĠ
Ġ1 26
ĠdanĠ duiĠ
ĠerĠ youĠ
douĠ shiĠzaiĠ
chongĠ xianĠ
chongĠ ciĠ
qinĠ qiĠ
huangĠ jinĠshiĠ
or yĠĠĠ
tuoĠ niĠ
bangĠ diĠ
ĠfuĠ laiĠ
panĠ junĠ
kanĠ chengĠ
diĠerĠ daĠ
ĠaĠ muĠ
shiĠwuĠ youĠqiĠ
ĠboĠ duoĠ
erĠshiĠ siĠ
7ĠyueĠ 5ĠriĠ
ĠhuiĠ guiĠ
ĠdanĠshiĠ taĠ
30Ġ miĠ
juĠminĠ quĠ
deĠwuĠ qiĠ
heĠwuĠ qiĠ
xiaoĠshuoĠ jiaĠ
ĠqueĠ dingĠ
banĠdaoĠ tiĠ
huiĠshiĠ diĠyiĠbaiĠ
puĠtaoĠ jiuĠ
jinĠpaiĠ deĠzhuĠ
Ġ0Ġ jiĠbaiĠ
ĠzheĠjiangĠ shengĠ
huoĠyueĠ yuĠ
ĠyouĠxianĠ gongĠsiĠ
yinĠdiĠanĠ renĠ
3 ĠjiĠ
3 ĠyueĠ24ĠriĠ
8 ĠyueĠ12ĠriĠ
9 ĠyueĠ10ĠriĠ
9 ĠyueĠ26ĠriĠ
A B
Ġ guanĠjunĠ
anĠ menĠ
weiĠ quanĠ
weiĠ niĠsiĠ
heĠ heiĠ
buĠ wenĠdingĠ
chengĠ yinĠ
xianĠ nuĠ
wuĠ shuiĠ
huiĠ yingĠxiangĠ
dongĠ leĠ
ĠshiĠ fuĠ
ĠshiĠ fouĠ
yeĠ zhiĠ
yeĠ zhongĠ
yeĠ xiangĠ
taiĠ dongĠ
yaĠ laĠ
xieĠ poĠ
zhenĠ kongĠ
zuiĠ xiaoĠdeĠ
yangĠ yuĠ
dangĠ zhuĠ
fengĠ chaoĠ
ĠbingĠ huoĠ
paiĠ yuanĠ
gangĠ lingĠ
chaoĠ liuĠ
cunĠ jiĠ
huangĠ qiĠ
liĠshiĠ wenĠhuaĠ
keĠyiĠ congĠ
ĠfuĠ zhiĠ
panĠ guanĠ
ĠyuanĠ yinĠshiĠ
ĠjianĠ liĠleĠ
faĠshengĠ yuĠ
on yĠĠĠ
erĠshiĠ baĠnianĠ
ĠĠĠyiĠ liaoĠ
6ĠyueĠ 19ĠriĠ
wuĠkeĠlanĠ deĠ
ĠE d
ĠjunĠ jiĠ
ĠĠĠ194 1ĠnianĠ
ĠfeiĠliĠ puĠ
yangĠheĠ tangĠheĠsuanĠ
5 ĠyueĠ17ĠriĠ
D O
G u
l ub
anĠ dongĠ
ĠĠĠ liĠyongĠ
weiĠ zhiĠdeĠ
guoĠ luĠ
er b
xiĠ riĠ
xiĠ ciĠ
shengĠ shangĠ
ziĠ jueĠ
shuĠ shangĠ
zhengĠ taoĠ
mingĠ baiĠ
zhanĠ zhengĠshiĠ
zheĠ puĠ
ĠshiĠ sanĠ
yeĠ duiĠ
yinĠ baoĠ
xiaĠ xianĠ
zhouĠ siĠ
yaĠ zuĠlianĠ
ĠyiĠ guoĠ
ĠyiĠ tuĠ
kaiĠ saĠ
xuĠ muĠ
biaoĠ taiĠ
haoĠ jiĠ
chuanĠ zhangĠ
tingĠ zhengĠ
touĠ chuĠ
chanĠ quanĠ
ceĠ weiĠ
xiuĠ daoĠ
nvĠ xuĠ
pianĠ beiĠ
ĠbuĠ luoĠ
ĠzhuĠ jueĠ
ĠyuanĠ dingĠ
deĠdiĠ liĠ
ĠjuĠ jiĠ
ruiĠ deĠ
ĠmuĠ hanĠmoĠdeĠ
ĠliangĠ nianĠhouĠ
zhiĠzuoĠ leĠ
7ĠyueĠ 3ĠriĠ
Ġ198 0ĠnianĠdaiĠ
6ĠyueĠ 4ĠriĠ
ĠĠĠS h
ĠbiaoĠ yanĠ
ĠzuiĠzhongĠ huanĠxiangĠ
30Ġ renĠ
2ĠyueĠ2 7ĠriĠ
40Ġ renĠ
ĠeĠ guoĠ
Ġ14 0
ĠchuangĠ xiaĠ
ĠgaiĠshengĠfenĠweiĠfaĠguoĠ xiĠnanĠbuĠ
buĠjiuĠ houĠ
ĠgongĠyouĠ renĠkouĠ
nter tain
ĠĠĠcanĠkaoĠ wenĠxianĠ
shiĠwuĠyouĠqiĠ suoĠshuĠdeĠ
4 ĠyueĠ26ĠriĠ
8 ĠyueĠ23ĠriĠ
9 ĠnianĠ1
Ġ tuanĠduiĠ
zhiĠ xiaoĠ
zaiĠ dangĠshiĠ
chengĠ houĠ
daĠ juĠ
xiĠ naĠ
geĠ dengĠ
keĠ senĠ
wuĠ shenĠ
shengĠ banĠ
beiĠ yongĠzuoĠ
zhengĠ jieĠ
huaĠ quĠ
jiaoĠ longĠ
luĠ xianĠdeĠ
taiĠ huaĠ
ruĠ deĠ
nanĠ hanĠ
qingĠ tongĠ
shenĠ xingĠ
wanĠ jiaĠdeĠ
xuĠ yiĠ
mianĠ weiĠ
benĠ shiĠ
bingĠ duiĠ
shanĠ qiuĠ
dengĠ diĠdeĠ
haoĠ ziĠ
ĠweiĠ shiĠ
ĠqiĠ nianĠ
lunĠ xiĠyaĠ
puĠ quĠ
chanĠ deĠ
qiangĠ biĠ
4Ġ ciĠ
chenĠ yiĠ
ĠbuĠ leiĠ
ĠdiĠ tieĠ
kaiĠshiĠ shiĠyongĠ
ĠjieĠ ciĠ
re c
ĠdaiĠ youĠ
chaiĠ jieĠ
hangĠkongĠ duiĠ
jiĠzhongĠ yingĠ
ĠĠĠA l
195 7ĠnianĠ
jingĠshenĠ bingĠ
kuoĠzhanĠ daoĠ
piĠfuĠ tongĠyiĠ
yinĠdiĠ anĠnaĠ
yunĠzaiĠ huoĠjianĠ
yaĠliĠsangĠ naĠzhouĠ
3 ĠyueĠ2ĠriĠ
4 ĠyueĠ17ĠriĠ
7 ĠyueĠ14ĠriĠ
9 ĠyueĠ13ĠriĠ
A CĠ
Ġ runĠ
aĠ meiĠ
angĠ guiĠ
ĠĠ 1Ġ
ouĠ yaĠ
yiĠ jinĠ
ĠĠĠ daoĠleĠ
ĠĠĠ xiaĠxiaĠ
zhiĠ changĠ
qiĠ caiĠ
heĠ gaoĠ
buĠ anĠ
gongĠ chengĠyuanĠ
daĠ ziĠ
daĠ zhuanĠ
erĠ shiĠyiĠnianĠ
xiĠ fengĠ
siĠ chuĠ
xianĠ ranĠ
huiĠ xianĠ
shuĠ zaiĠ
shouĠ zuoĠ
19 ĠrenĠ
zheĠ menĠ
yingĠ guanĠ
jiangĠ deĠzhuĠ
qianĠ biĠ
xiaĠ cengĠ
dianĠ tieĠ
haiĠ luĠ
zhouĠ xinĠ
ĠyiĠ liĠfangĠmiĠ
banĠ faĠdeĠ
zhenĠ niĠ
boĠ taĠ
xuanĠ jiĠ
sanĠ taiĠ
leiĠ shengĠ
ĠweiĠ baoĠ
ĠdanĠ zuiĠhouĠ
guiĠ lvĠ
huangĠ ziĠ
ĠgaiĠ quĠ
yiĠjiĠ saiĠ
reĠ chaoĠ
nongĠ liĠ
dianĠyingĠ gongĠsiĠ
en er
ĠC o
ĠqingĠ tingĠ
ruoĠ wangĠ
naiĠ zhiĠ
ĠE l
12Ġ mingĠ
ĠguiĠ daoĠ
biĠxuĠ zaiĠ
194 3ĠnianĠ
22Ġ renĠ
yuĠ198 2ĠnianĠ
anĠzhuangĠ leĠ
ĠÑ ģ
beiĠbuĠdeĠ cunĠzhuangĠ
ĠshiĠxingĠdengĠweiĠ 5
4 ĠyueĠ25ĠriĠ
4 ĠyueĠ2ĠriĠ
6 ĠyueĠ2ĠriĠ
7 ĠyueĠ22ĠriĠ
N T
anĠ beiĠ
yiĠ guoĠ
ĠĠĠ zuoĠ
ĠĠĠ naĠ
ĠĠĠ of
heĠ jingĠjiĠ
Ġy Ġ
chengĠ zhuĠ
wuĠ ciĠ
shuĠ sanĠ
mingĠ zhuĠ
huaĠ chuĠ
huaĠ xueĠjiaĠ
zheĠ huiĠ
jiaoĠ cheĠ
ĠshiĠ xiongĠyaĠliĠ
yaĠ naĠ
minĠ quanĠ
suoĠ erĠ
baĠ mingĠ
tianĠ gongĠ
tianĠ shanĠ
suĠ zhiĠ
ĠbingĠ yongĠ
linĠ liĠ
ĠdeĠ yiĠzhiĠ
ĠjiĠ bianĠ
shuiĠ zhiĠ
touĠ dengĠ
zhongĠguoĠ tieĠluĠ
ĠzheĠ buĠdianĠyingĠ
qiangĠ shangĠ
qiangĠ xieĠ
shaoĠ xiaoĠ
zhengĠfuĠ buĠmenĠ
taoĠ biĠ
ĠxiĠ huanĠ
ĠdangĠ wanĠ
lv ĠyeĠ
suanĠ shiĠ
ĠsiĠ renĠ
zhengĠshiĠ xuanĠbuĠ
ĠshouĠ gouĠ
beiĠjingĠ xiaĠ
ĠzongĠ jiĠ
ĠboĠ luoĠ
Ġ199 0ĠnianĠdaiĠ
ĠA d
9ĠyueĠ 4ĠriĠ
ĠmoĠ shiĠ
6ĠyueĠ 7ĠriĠ
ĠhouĠlaiĠ zaiĠ
anĠquanĠ xingĠ
ĠĠĠbenĠ zuoĠ
penĠ quanĠ
ĠĠĠ194 2ĠnianĠ
26 ĠrenĠ
wuĠzhiĠ wenĠhuaĠyiĠchanĠ
deĠzhiĠchiĠ xiaĠ
moĠluoĠ geĠ
xiaĠbanĠ nianĠ
nuoĠmanĠdiĠ daĠquĠ
ĠĠĠxiangĠgangĠshiĠjianĠ fengĠxingĠqiĠ
1 ĠweiĠ
3 ĠyueĠ16ĠriĠ
5 ĠyueĠ26ĠriĠ
H T
M VĠ
i sh
t onĠĠĠ
yiĠ baĠ
ĠĠĠ mingĠmingĠ
yuĠ gangĠ
nianĠ chuĠ
zhongĠ nanĠ
zhongĠ paiĠmingĠdiĠ
diĠ zhuĠ
yuanĠ guĠ
beiĠ quĠxiaoĠ
meiĠ suĠ
jiaoĠ peiĠ
junĠ jieĠ
junĠ huiĠ
junĠ faĠ
xiaĠ taiĠ
baoĠ shanĠ
muĠ youĠ
shenĠ daĠ
xuĠ yuĠ
mianĠ shouĠ
zuiĠ qiangĠ
ĠzaiĠ xiaoĠ
dangĠ zhuĠxiĠ
sanĠ riĠ
tuĠ bianĠ
ĠyouĠ zaiĠ
fengĠ maoĠ
guiĠ xiangĠ
zhuangĠ shangĠ
manĠ ĠĠ
renĠkouĠ bianĠhuaĠ
zhengĠfuĠ duiĠ
shiĠjieĠ guanĠjunĠ
ĠhuoĠ erĠ
ĠdongĠ beiĠbuĠ
zhuĠyaoĠ weiĠ
ĠbiĠ liĠ
zanĠ yuĠ
am b
canĠyuĠ deĠ
ĠluoĠ binĠ
ĠanĠ dongĠniĠ
juanĠ fengĠ
ĠI nter
4ĠyueĠ 9ĠriĠ
ĠĠĠgaiĠ xiaoĠxingĠxingĠ
ĠzhuĠyaoĠ fenĠbuĠyuĠ
jiangĠjunĠ xianĠ
ĠsaĠ erĠ
ĠĠĠ197 0ĠnianĠ
liĠgongĠ xueĠyuanĠ
buĠlieĠ taĠniĠ
ĠhuoĠdeĠyiĠmeiĠ jinĠpaiĠ
3 50Ġ
P ar
Ġ canĠjiaĠleĠ
aiĠ naĠ
zhiĠ 10
heĠ duiĠ
heĠ deĠguoĠ
jianĠ taoĠ
siĠ chengĠ
fuĠ congĠ
fuĠ shengĠzhangĠ
zhuĠ huĠ
faĠ jiaĠ
dongĠ daoĠ
jiaoĠ daiĠ
ĠshiĠ xiĠ
yeĠ henĠ
qianĠ yeĠ
xiaĠ changĠ
dianĠ baoĠ
dianĠ dongĠjiĠ
haiĠ xianĠ
ĠyiĠ nianĠhouĠ
banĠ qiaoĠ
lingĠ huoĠ
minĠ juĠ
zhenĠ jiĠ
liuĠ heĠ
bingĠ xiangĠ
ĠzaiĠ jiĠ
ĠzaiĠ daĠ
fanĠ leĠ
menĠ huĠ
ĠweiĠ riĠbenĠ
Ġ1 20
ĠbingĠ sheĠyouĠ
niĠ guĠ
chuanĠ wenĠ
ĠdeĠ yiĠgeĠ
zaoĠ jiuĠ
chaĠ kanĠ
douĠ jiangĠ
5Ġ jiaĠ
tuiĠ wuĠ
or th
ĠzhuĠ changĠ
dianĠshiĠ pinĠdaoĠ
huaiĠ teĠ
ĠyongĠ leĠ
ĠduoĠ nianĠ
ĠaiĠ jiĠ
ĠfeiĠ erĠ
deĠgongĠ luĠ
yiĠshuĠ xueĠyuanĠ
ĠlinĠ shiĠ
jiangĠjunĠ aoĠ
jiaoĠhuiĠ deĠ
le yĠ
60Ġ renĠ
ĠheiĠ seĠ
ĠĠĠ195 4ĠnianĠ
zhouĠbianĠ diĠquĠ
3 ĠyueĠ14ĠriĠ
4 ĠyueĠ21ĠriĠ
A ĠxingĠ
L L
L inux
R NA
Ġ lieĠruĠ
yiĠ zongĠ
zaiĠ yinĠduĠ
gongĠ jiĠdeĠ
geĠ anĠ
jieĠ guĠ
jiaĠ cunĠ
mingĠ heĠ
shouĠ yangĠ
xueĠ nianĠ
huoĠ foĠ
duĠ liangĠ
sheĠ mianĠ
ĠyiĠ wanĠ
guĠ siĠteĠ
guĠ luoĠmaĠ
benĠ haiĠmoĠ
bingĠ jiangĠ
ĠzaiĠ yiĠxieĠ
neiĠ jiĠ
kouĠ touĠ
jueĠ daĠbuĠfenĠ
baiĠ qiĠ
chaoĠ shengĠ
ĠgaiĠ xianĠ
piĠ paĠ
genĠ zongĠ
ĠbeiĠ hanĠ
ĠyeĠ suĠ
xiangĠgangĠ dianĠtaiĠ
ĠchengĠ haoĠ
mouĠ yiĠ
deĠguoĠ minĠ
yuĠyanĠ zhongĠ
4ĠyueĠ 5ĠriĠ
chaiĠ xieĠ
nieĠ fuĠleiĠ
Ġãģ ®
shengĠliĠ houĠ
qiaoĠzhiĠ yaĠzhouĠ
daĠduoĠ shuĠdeĠ
wuĠtaiĠ juĠ
manĠzhouĠ guoĠ
orl dĠ
ĠĠĠcanĠkaoĠ ziĠliaoĠ
3 ĠyueĠ23ĠriĠ
6 ĠyueĠ21ĠriĠ
7 ĠyueĠ17ĠriĠ
7 ĠyueĠ29ĠriĠ
8 ĠyueĠ27ĠriĠ
F CĠ
Ġ guanĠxiĠ
Ġ tuanĠtiĠ
ĠĠĠ 10Ġ
weiĠ wenĠ
youĠ meiĠ
renĠ geĠ
heĠ danĠ
wuĠ guĠ
zhuĠ keĠ
ziĠ beiĠ
beiĠ jianĠ
faĠ yiĠ
zhengĠ yuanĠ
zheĠ fanĠ
dongĠ mianĠ
jiaoĠ buĠ
duiĠ shangĠ
xiaĠ zhiĠ
gaiĠ dongĠ
lianĠ siĠ
xieĠ shiĠhouĠ
duoĠ siĠ
boĠ mingĠhanĠ
ĠyouĠ zuoĠ
ĠdeĠ xuanĠpiaoĠ
gangĠ jinĠ
gangĠ duĠ
kaĠ shiĠ
tangĠ niaoĠbingĠ
zhengĠfuĠ zuĠzhiĠ
shiĠyongĠ laiĠ
kanĠ saĠsiĠzhouĠ
ĠwuĠ xuĠ
miaoĠ shuĠdeĠ
ĠchuĠ xiĠ
ĠjiangĠ junĠ
ĠxiangĠ jiaoĠ
ĠS i
ĠluĠ xianĠ
zuĠqiuĠ yuanĠ
shunĠ zhiĠ
fangĠshiĠ laiĠ
ĠzheĠshiĠ yiĠgeĠ
chaoĠxianĠ minĠzhuĠzhuĠyiĠrenĠminĠgongĠheĠguoĠ
St eam
yuĠ198 7ĠnianĠ
ĠzaiĠciĠ zhiĠqianĠ
qiĠxiangĠ juĠ
maĠkeĠ xiĠ
yanĠshenĠ daoĠ
leiĠsuĠ yiĠgeĠ
7 ĠyueĠ26ĠriĠ
o ch
Ġ junĠduiĠ
Ġ saiĠshiĠ
ĠĠĠ saiĠshiĠ
nianĠ xingĠmuĠ
youĠ jiaĠ
renĠ jianĠ
qiĠ erĠ
buĠ liĠyaĠ
buĠ zhuoĠ
buĠ shangĠshuĠ
daĠ jianĠ
daĠ wuĠ
ziĠ laiĠ
jinĠ maĠ
houĠ jinĠ
shangĠ xunĠ
huaĠ dengĠ
dongĠ heĠ
luĠ shanĠ
jiangĠ quĠ
duĠ laĠ
xiaĠ xiaĠdeĠ
taiĠ fuĠ
baoĠ jingĠ
dianĠ fuĠ
nanĠ xianĠ
wangĠ jiaĠ
shenĠ caiĠ
gaoĠ bieĠ
kaiĠ paiĠ
xieĠ eĠ
benĠ guoĠ
boĠ xueĠ
boĠ ciĠ
haoĠ buĠ
haoĠ chuĠ
linĠ jieĠ
ĠdeĠ xinĠ
hanĠ danĠ
hanĠ chaoĠ
zhaoĠ deĠ
peiĠ jianĠ
diaoĠ daoĠ
meiĠyouĠ beiĠ
yiĠjiĠ fangĠchengĠshiĠ
ĠjianĠ zhiĠ
ĠdongĠ yuĠ
Ġ2 7Ġ
heiĠ haiĠ
2ĠyueĠ 6ĠriĠ
2ĠyueĠ 20ĠriĠ
youĠyiĠ ciĠ
ĠguĠ erĠ
ĠluoĠ muĠniĠ
xuĠyaoĠ zaiĠ
5ĠyueĠ 6ĠriĠ
ĠhongĠ zhiĠ
shenĠfenĠ zhengĠ
ĠĠĠ197 2ĠnianĠ
ĠĠĠ193 9ĠnianĠ
ĠyuĠ201 5ĠnianĠ
fangĠqiĠ leĠ
ĠfuĠqinĠ shiĠ
wangĠqiuĠ yunĠdongĠyuanĠ
buĠlaiĠ enĠ
chool Ġ
ĠzhanĠzongĠrenĠkouĠ deĠ
ĠheiĠlongĠjiangĠshengĠ xinĠzengĠ
1 ĠĠĠnianĠ
6 ĠyueĠ23ĠriĠ
7 ĠyueĠ21ĠriĠ
l erĠ
u rĠ
w asĠĠĠ
aoĠ liĠ
shiĠ danĠ
ĠĠĠ canĠsaiĠ
jiĠ laĠ
yuĠ xiaoĠ
zhongĠ buĠdeĠ
heĠ meiĠ
xiĠ haĠ
siĠ zhuĠshiĠ
ziĠ zhongĠ
faĠ laĠ
jinĠ zhouĠ
huaĠ liĠ
dongĠ zhiĠwuĠ
ĠshiĠ liuĠ
huoĠ mianĠ
yinĠ fuĠ
sheĠ yingĠshiĠ
wangĠ weiĠjiĠ
shenĠ huĠ
suoĠ quĠdaiĠ
liuĠ zhongĠ
baĠ luĠjunĠ
fengĠ yiĠ
zeĠ chengĠ
waiĠ guoĠyuĠ
deĠyiĠ mianĠ
baiĠ daĠ
ĠyuĠ wenĠ
pingĠfangĠ chiĠ
ĠdongĠ hanĠ
ĠshangĠ deĠ
ti n
guanĠliĠ chuĠ
shiĠyouĠ renĠkouĠ
ĠzongĠ gongĠ
7ĠyueĠ 4ĠriĠ
ou th
chaoĠguoĠ leĠ
ĠpuĠ luoĠ
yiĠhuiĠ xuanĠjuĠ
faĠbuĠ huiĠ
ĠkaiĠ sheĠ
ĠchongĠ jianĠ
yuanĠyinĠ shiĠ
ĠeĠ junĠ
ĠĠĠyouĠ xieĠ
jianĠzaoĠ leĠ
20ĠshiĠjiĠ chuĠ
YouTubeĠ pinĠdaoĠ
5 ĠyueĠ2ĠriĠ
5 ĠyueĠ22ĠriĠ
Ġ e
aoĠ buĠshengĠ
yiĠ taoĠ
ĠĠĠ aĠerĠ
yuĠ miĠ
guoĠ lianĠ
diĠ shuoĠ
heĠ ganĠ
keĠ juĠ
shengĠ yanĠ
shouĠ daoĠdeĠ
huaĠ huiĠ
guanĠ shouĠ
xinĠ niangĠ
qianĠ huiĠ
sheĠ quĠdeĠ
liangĠ yuĠ
haiĠ xiaoĠ
zuĠ jianĠdeĠ
wangĠ guanĠ
shenĠ xunĠ
biĠ anĠ
saiĠ keĠsiĠ
yangĠ maoĠ
boĠ langĠ
bingĠ youĠ
sanĠ buĠquĠ
baĠ niĠ
ĠdanĠ weiĠnengĠ
Ġ19 ĠshiĠjiĠ
gangĠ xianĠ
guiĠ dingĠdeĠ
pinĠ xieĠ
kaĠ heĠ
liĠshiĠ boĠwuĠguanĠ
ĠdiĠ shiĠsanĠ
woĠ luoĠ
ĠdaĠ zhongĠ
kangĠ zhengĠ
ĠxingĠ chengĠleĠ
ĠtongĠnianĠ 8ĠyueĠ
shuĠliangĠ deĠ
fanĠweiĠ neiĠdeĠ
ĠkaiĠ fangĠ
nieĠ boĠluoĠ
ĠdangĠdiĠ juĠminĠ
ĠÃ ¶
ĠĠĠ193 8ĠnianĠ
jiaoĠquĠ zhuĠjiaoĠ
ĠnianĠ12ĠyueĠ1 5ĠriĠ
heĠguĠ shengĠ
ĠĠĠ190 1ĠnianĠ
beiĠpanĠ chuĠ
0 ĠĠĠnianĠ
4 ĠweiĠ
5 ĠyueĠ16ĠriĠ
6 ĠliĠ
6 ĠyueĠ16ĠriĠ
I ĠdeĠ
L i
Ġ cheĠliangĠ
shiĠ bianĠ
yiĠ yaoĠ
weiĠ qingĠ
zhiĠ shiĠqiĠ
yuĠ faĠguoĠ
renĠ junĠ
diĠ niĠ
buĠ xuĠ
buĠ kanĠ
erĠ shiĠyiĠ
keĠ shuĠ
keĠ huoĠ
wuĠ puĠ
daoĠ xiangĠ
daoĠ shangĠdeĠ
ziĠ gongĠ
beiĠ mingĠmingĠweiĠ
zhengĠ tongĠ
jiaoĠ zhuĠ
jiaoĠ tongĠshiĠ
duĠ quĠ
yaĠ yunĠ
ĠyiĠ meiĠyuanĠdeĠ
shenĠ baoĠ
quanĠ quanĠ
zhenĠ wuĠ
shanĠ junĠ
sanĠ junĠ
tianĠ zhongĠ
tuĠ shi
ĠyouĠ xuĠduoĠ
gangĠ biĠ
guiĠ guoĠ
ĠbuĠ lanĠ
hangĠ zhouĠshiĠ
diĠyiĠ qiĠ
ĠjieĠ jueĠ
guoĠjiĠ dianĠyingĠjieĠ
ĠbaĠ jiĠsiĠtanĠ
3ĠyueĠ 7ĠriĠ
ĠkaĠ teĠ
ĠsheĠ quĠ
youĠjiĠ zaiĠ
2ĠyueĠ2 6ĠriĠ
16Ġ suiĠ
ĠxianĠzaiĠ deĠ
deĠxingĠ xiangĠ
kaiĠsheĠ leĠ
luĠmuĠ qiĠ
maĠniĠ laĠ
ï¸ °
5 ĠdeĠ
I nt
e in
anĠ quĠ
deĠ zhengĠzhiĠ
ĠĠĠ pingĠ
ĠĠĠ baoĠhuĠ
ĠĠĠ gongĠluĠ
zhiĠ xunĠ
liĠ zhongĠ
gongĠ miaoĠ
xiangĠ shuĠ
zhanĠ shiĠqiĠ
zuoĠ chuĠdeĠ
zheĠ renĠweiĠ
meiĠ fenĠ
jiaoĠ wuĠ
jiaoĠ haoĠ
jiaoĠ diĠdeĠ
qianĠ yuanĠ
taiĠ zaiĠ
yaĠ yuĠ
ĠyiĠ luĠ
bianĠ duiĠ
zongĠ canĠmouĠbuĠ
neiĠ keĠ
chuanĠ liuĠ
zhuanĠ deĠ
shuiĠ chiĠ
touĠ jingĠ
seĠ linĠ
zhaoĠ huanĠ
nvĠ huangĠ
rongĠ huaĠ
ĠbuĠ duanĠ
tuoĠ yuanĠ
8Ġ wanĠ
weiĠyuĠ zhongĠhuaĠrenĠminĠgongĠheĠguoĠ
qiĠtaĠ diĠfangĠ
ĠjingĠ duĠ
2ĠyueĠ 7ĠriĠ
ĠshenĠ weiĠ
ĠliuĠ nianĠ
ĠgaoĠ dengĠ
ĠhanĠ yuĠ
ĠmoĠ erĠ
6ĠyueĠ 8ĠriĠ
30Ġ wanĠ
xieĠhuiĠ deĠ
ĠF ran
deĠsiĠ xiangĠ
ĠshiĠweiĠyuĠmeiĠguoĠ eĠhaiĠeĠzhouĠ
zhiĠdingĠ diĠquĠ
tieĠdaoĠ buĠ
ĠyiĠbanĠ laiĠshuoĠ
jiĠchengĠ leĠ
shenĠjingĠ xiĠtongĠ
sengĠ lvĠ
buĠluĠ keĠlinĠ
youĠyongĠ chiĠ
ĠjiangĠsuĠ shengĠ
diĠcengĠ shuiĠyuĠ
zhanĠdiĠ mianĠjiĠ
eĠtuĠ manĠdiĠguoĠ
ĠsiĠliĠ lanĠkaĠ
aĠerĠbeiĠ siĠshengĠ
4 ĠjiĠ
4 ĠyueĠ23ĠriĠ
5 ĠyueĠ27ĠriĠ
6 ĠyueĠ11ĠriĠ
8 ĠyueĠ13ĠriĠ
D M
Ġ wengĠ
deĠ manĠ
deĠ fangĠfaĠ
yiĠ 2Ġ
ĠĠĠ gongĠyuanĠ
renĠ yeĠ
zaiĠ niuĠyueĠ
siĠ taiĠ
daoĠ fengĠ
quĠ ĠĠ
quĠ fuĠ
mingĠ jiangĠ
yongĠ zhengĠ
muĠ ziĠ
lingĠ taĠ
teĠ youĠdeĠ
qiuĠ jieĠ
maĠ geĠliĠteĠ
duoĠ nianĠlaiĠ
laĠ ziĠ
bingĠ xingĠ
ĠzaiĠ yiĠciĠ
dangĠ qiĠ
baĠ renĠ
neiĠ wuĠ
ĠbingĠ zaiĠciĠ
zeĠ xiĠ
waiĠ shiĠ
ĠdeĠ yiĠbuĠfenĠ
deĠyiĠ kuanĠ
shuiĠ guanĠ
xiuĠ qiĠ
ĠgaiĠ zhanĠ
ĠdaĠ suanĠ
yanĠjiuĠ heĠ
ĠjieĠ youĠ
deĠyiĠgeĠ shuĠ
ĠjuĠ zuĠ
2ĠyueĠ 5ĠriĠ
en s
Ġ3 6
shiĠwuĠ faĠ
ĠboĠ geĠ
ĠĠĠshengĠ yaĠ
ziĠyouĠ yiĠzhiĠ
shouĠciĠ liangĠxiangĠ
of t
zhiĠyouĠ yiĠgeĠ
deĠwuĠ liĠ
ra ph
deĠshouĠ duĠ
ĠÐ º
em b
zhiĠmingĠ duĠ
zaiĠ200 3ĠnianĠ
ĠĠĠ195 6ĠnianĠ
yuĠ198 6ĠnianĠ
ab leĠĠĠ
deĠyiĠzhiĠ diĠguoĠ
renĠkouĠbianĠhuaĠ tuĠshi
5 ĠyueĠ14ĠriĠ
A NĠ
e ti
ãĢ ľ
ĠĠĠ fangĠ
ĠĠĠ AĠ
ĠĠĠ dengĠchangĠ
jiĠ jingĠ
weiĠ suoĠ
yuĠ xingĠ
zaiĠ hanĠguoĠ
guoĠ zaiĠ
diĠ aoĠ
gongĠ mingĠ
keĠ wenĠ
fangĠ shiĠdeĠ
guanĠ fuĠ
zheĠ yeĠ
jiaoĠ tingĠ
fenĠ muĠ
qianĠ jiuĠ
liangĠ shanĠ
yaĠ menĠ
suoĠ woĠ
zhenĠ baoĠ
zhenĠ shiĠdeĠ
bianĠ shenĠ
bingĠ jiĠ
sanĠ mianĠ
tianĠ zhanĠ
leiĠ liĠ
suĠ xingĠ
suĠ liĠshiĠ
moĠ erĠteĠ
zeĠ erĠ
ĠdanĠ niĠerĠ
caiĠ yangĠ
cunĠ youĠ
5Ġ ciĠ
gongĠliĠ chuĠ
ar tĠ
gongĠzuoĠ weiĠyuanĠhuiĠ
youĠyiĠ weiĠ
jiaoĠyuĠ juĠ
gongĠheĠguoĠ deĠ
ĠguĠ quanĠ
ĠyongĠ ganĠ
ĠaiĠ liĠsiĠ
shunĠ tianĠ
ĠD avidĠĠĠ
weiĠjiĠ nianĠ
2ĠyueĠ1 5ĠriĠ
195 9ĠnianĠ
ĠĠĠ194 4ĠnianĠ
ĠmengĠ teĠ
oo kĠ
zaiĠ200 4ĠnianĠ
nanĠjiĠ zhouĠ
ĠnianĠ12ĠyueĠ2 6ĠriĠ
fanĠyiĠ chengĠ
4 ĠyueĠ13ĠriĠ
8 ĠyueĠ25ĠriĠ
N C
c mĠ
Ġ tingĠzhiĠ
aĠ naĠ
deĠ diĠquĠ
deĠ riĠbenĠ
ĠĠĠ teĠ
ĠĠĠ zuĠzhiĠ
jiĠ guangĠ
yuĠ yingĠ
er m
yuanĠ xiĠ
huiĠ changĠ
dongĠ jinĠ
yingĠ weiĠ
jiangĠ wuĠ
qianĠ xingĠ
wangĠ heĠ
maĠ yeĠ
yaoĠ yuanĠ
dingĠ fengĠ
zongĠ gongĠsiĠ
tianĠ yeĠ
leiĠ naĠ
ĠweiĠ heĠ
ĠbingĠ zhiĠchuĠ
caiĠ yuanĠ
caiĠ hongĠ
baiĠ erĠ
baiĠ lingĠ
shuiĠ xingĠ
congĠ mingĠ
ĠzheĠ duiĠ
shaĠ tanĠ
shaĠ huangĠ
4Ġ haoĠxianĠ
gengĠ rongĠyiĠ
tuiĠ guanĠ
hongĠ wuĠ
ĠyeĠ keĠnengĠ
shiĠweiĠ fuĠshuĠjiĠ
Ġ2 3
2ĠyueĠ 8ĠriĠ
diĠerĠ renĠ
canĠjiaĠ gongĠzuoĠ
danĠrenĠ guoĠ
ĠshiĠyiĠ tiaoĠ
ĠzhangĠ daĠ
chouĠ henĠ
ĠfaĠ guanĠ
zhiĠzuoĠ gongĠsiĠ
naiĠ deĠ
ĠshuĠ ziĠ
3ĠyueĠ 8ĠriĠ
guoĠminĠ daĠhuiĠ
baoĠgaoĠ zhongĠ
194 2ĠnianĠ
2ĠyueĠ1 7ĠriĠ
shenĠzhiĠ renĠyuanĠ
ĠlvĠ seĠ
21Ġ renĠ
193 6ĠnianĠ
ĠĠĠ195 2ĠnianĠ
luoĠfuĠ siĠkeĠ
yinĠpaiĠ deĠzhuĠ
jiaĠzhouĠ daĠxueĠ
baĠlaĠ guiĠ
jiaoĠkeĠ shuĠ
ĠJR ĠdongĠriĠbenĠ
yeĠzhanĠ junĠ
5 ĠyueĠ23ĠriĠ
X box
a uĠ
yiĠ qunĠ
ĠĠĠ guoĠjiaĠ
ĠĠĠ jinĠruĠ
jiĠ dengĠ
zhiĠ lvĠ
youĠ zhongĠguoĠ
qiĠ muĠ
siĠ dengĠ
jiaĠ dengĠ
zhuĠ xingĠ
zhuĠ yinĠ
daoĠ renĠ
beiĠ kongĠ
huiĠ suoĠ
jingĠ maiĠ
ciĠ huiĠyiĠ
yingĠ pingĠrenĠ
zuĠ jinĠ
yaĠ teĠlanĠ
ĠyiĠ zhangĠ
shenĠ dianĠ
lianĠ zhuangĠ
quanĠ shuoĠ
suoĠ shuoĠ
kaiĠ daĠxueĠ
liuĠ changĠ
bingĠ huoĠdeĠ
dangĠ chengĠ
tuĠ heĠ
hanĠ muĠ
lunĠ kuoĠ
ĠjiĠ diĠ
cengĠ yiĠduĠ
chaĠ jueĠ
ĠgaiĠ xiangĠmuĠ
chuangĠ weiĠ
shiĠjianĠ sheĠ
ĠbaoĠ jiaĠliĠyaĠ
ĠzhuĠ banĠ
ĠwuĠ deĠ
shiĠjiĠ shiĠ
zhuĠyiĠ liĠ
ĠshenĠ gaoĠ
ĠfaĠ shouĠ
on s
on dĠĠĠ
ĠzhanĠ taiĠ
deĠliĠ yiĠ
ĠmoĠ liĠ
5ĠyueĠ 19ĠriĠ
kuiĠ leiĠ
ĠmeiĠguoĠ haiĠjunĠ
ac kĠ
fenĠbieĠ zaiĠ
it yĠĠĠ
2ĠyueĠ1 8ĠriĠ
ĠW illiam
siĠshiĠ erĠnianĠ
ĠhuanĠ qiuĠ
weiĠfuĠ qiĠyuĠgangĠ
xieĠzhuĠ xiaĠ
keĠluoĠ aiĠxiĠyaĠ
45Ġ fenĠ
ĠtaĠyeĠ cengĠ
191 2ĠnianĠ
shaĠsiĠ leĠ
zhuaĠ zhuĠ
ĠzuiĠgaoĠ dianĠ
heĠchangĠ tuanĠ
ĠjieĠfangĠ junĠ
naiĠerĠ daĠxueĠ
4 ĠdeĠ
9 ĠyueĠ12ĠriĠ
H I
n ow
ĠĠĠ 12ĠyueĠ
youĠ xiaoĠdeĠ
zaiĠ houĠ
qiĠ daiĠ
xingĠ chaiĠyouĠjiĠcheĠ
daĠ keĠ
jianĠ bingĠ
fuĠ buĠ
fuĠ zongĠliĠ
zhuĠ zhouĠ
xiangĠ zhongĠ
20 ĠmingĠ
dongĠ junĠ
yanĠ qingĠ
ruĠ huoĠ
ĠyiĠ chengĠweiĠ
lianĠ cangĠ
kaiĠ kenĠ
zhenĠ guiĠ
guĠ suanĠ
guĠ chunĠ
fanĠ panĠ
dangĠ changĠ
xuanĠ zhanĠ
zongĠ eĠ
cheĠ zaiĠ
yunĠ yingĠdeĠ
kouĠ chuĠ
ĠqiĠ shiĠzhenĠ
waiĠ diĠ
guiĠ weiĠ
ĠzhiĠ liĠyuĠ
puĠ shiĠ
meiĠguoĠ zhengĠfuĠ
tanĠ lunĠ
qiangĠ jiuĠ
huangĠ hunĠ
longĠ touĠyuĠ
rongĠ yaoĠ
bangĠ shangĠ
bangĠ paiĠ
ĠdaĠ lianĠ
ĠzhuĠ gongĠ
ĠjiangĠ huĠ
ĠxiangĠ dangĠ
taĠdeĠ erĠziĠ
2ĠyueĠ 4ĠriĠ
deĠzhiĠ kongĠ
youĠyiĠ dingĠdeĠ
en n
Ġ3 1Ġ
ĠshenĠ zhiĠshiĠ
leĠyiĠ pianĠ
ĠwanĠ shangĠ
ĠguangĠ gaoĠ
chuĠbanĠ wuĠ
tongĠchangĠ zaiĠ
wuĠfaĠ zaiĠ
gongĠnengĠ deĠ
diĠxiaĠ tieĠ
ĠĠĠ195 5ĠnianĠ
zhongĠdianĠ zhanĠ
niangĠ jiuĠ
guoĠwuĠ qingĠ
geĠchangĠ daĠsaiĠ
saiĠtingĠ yunĠdongĠyuanĠ
3 ĠweiĠ
4 ĠyueĠ16ĠriĠ
5 ĠyueĠ11ĠriĠ
Ġ ar
Ġ waiĠjiaoĠ
aiĠ laĠ
ĠĠĠ qiaoĠ
ĠĠĠ xingĠzhiĠ
yuĠ 17
liĠ geĠ
qiĠ quanĠ
er ĠĠĠS
daĠ manĠguanĠ
shengĠ baoĠluoĠ
ziĠ seĠ
xiangĠ yangĠ
jinĠ yaoĠ
mingĠ quĠ
shouĠ yanĠ
qianĠ lieĠ
xiaĠ heĠ
xiaĠ mianĠ
baoĠ feiĠ
yongĠ changĠ
zhangĠ jingĠ
suoĠ yinĠ
biĠ weiĠ
zhenĠ zhiĠ
duoĠ yiĠ
liuĠ tiĠ
liuĠ xiaĠdeĠ
linĠ juĠ
ĠdeĠ gaiĠnianĠ
touĠ ziĠjiĠ
canĠ zanĠ
ranĠ youĠ
ĠgaiĠ shanĠ
kaĠ xiĠ
liaoĠ deĠ
ar lesĠĠĠ
ĠjiangĠ yuĠ
ĠgeĠ zhongĠ
ĠshangĠ youĠ
wenĠtiĠ shiĠ
ĠaiĠ qingĠ
15 9
ĠbaiĠ renĠ
diĠsanĠ jiĠ
deĠgongĠ juĠ
neiĠrongĠ deĠ
cuĠ chengĠ
xianĠdaiĠ deĠ
ĠJ o
ĠĠĠciĠ zhanĠ
ĠÐ »
xiaĠjiĠ canĠjiĠrenĠaoĠlinĠpiĠkeĠyunĠdongĠhuiĠ
guoĠwangĠ deĠ
daĠbuĠfenĠ diĠquĠ
yuĠ198 0ĠnianĠ
guoĠneiĠ waiĠ
ĠbeiĠqiĠ yingĠjiĠ
ĠyuĠ201 4ĠnianĠ
yuĠmaoĠqiuĠ jinĠbiaoĠsaiĠ
danĠshuiĠ liuĠyuĠ
zhengĠzhiĠbuĠ zhuĠrenĠ
A K
ĠĠĠ dingĠ
ĠĠĠ zhengĠfuĠ
ĠĠĠ huanĠjingĠ
ĠĠĠ 11ĠyueĠ
weiĠ zhuĠyaoĠ
yuĠ gaiĠ
guoĠ neiĠdeĠ
ĠnianĠ junĠ
gongĠ renĠdeĠ
xingĠ qiuĠ
daĠ shouĠ
keĠ benĠ
wuĠ tianĠ
jiaĠ duĠ
ziĠ daoĠ
beiĠ xiĠ
jinĠ chuanĠ
mingĠ chengĠyuanĠ
shouĠ guoĠ
fangĠ heĠ
junĠ yingĠ
jiangĠ zhongĠzhengĠ
xiaĠ luoĠ
nanĠ jueĠ
yaĠ geĠ
yueĠ 4
pingĠ dongĠxianĠ
xieĠ xingĠ
maĠ douĠ
dangĠ zhiĠ
shanĠ jianĠ
sanĠ fenĠzhiĠ
ĠweiĠ xiaoĠ
waiĠ biaoĠ
tingĠ yongĠ
tingĠ congĠ
chaĠ yeĠ
ĠyuĠ 2020ĠnianĠ
tanĠ sheĠ
tieĠ daoĠdeĠ
ĠbaoĠ liuĠ
diĠyiĠ shuĠjiĠ
ĠgongĠ chiĠ
daiĠbiaoĠ renĠwuĠ
ĠjiaĠ zhiĠ
zhaĠ yaoĠ
jiaoĠyuĠ xueĠyuanĠ
beiĠbuĠ shengĠ
zhanĠzhengĠ shiĠqiĠ
ĠĠĠgaiĠ kuangĠ
ati c
2ĠyueĠ2 2ĠriĠ
paiĠmingĠ diĠyiĠ
196 3ĠnianĠ
aĠlaĠ baĠmaĠ
biĠliĠ aiĠ
ĠhuoĠdeĠ nanĠziĠ
guaiĠ shouĠ
chaoĠjiĠ yingĠxiongĠ
buĠyiĠ dingĠ
jingĠweiĠ duiĠ
xiĠliĠ xiĠyaĠ
ĠxiĠnanĠ jieĠ
ĠshiĠeĠluoĠsiĠ lianĠbangĠ
jiaoĠxiangĠ quĠ
I CĠ
M i
a sh
anĠ heĠ
jiĠ xiaoĠ
jiĠ gaoĠ
youĠ wangĠ
qiĠ dengĠ
fuĠ meiĠ
faĠ guangĠ
jinĠ beiĠ
jingĠ duiĠ
zhanĠ luanĠ
zuoĠ guoĠ
zuoĠ youĠdeĠ
zheĠ liangĠ
jiaoĠ duanĠ
tiĠ wenĠ
qianĠ nianĠ
wenĠ dangĠ
zhangĠ quanĠ
ĠyiĠ xiĠ
banĠ diĠ
banĠ suiĠ
luoĠ weiĠqiĠ
ĠtaĠ zhiĠchuĠ
waiĠ kaĠ
ĠdeĠ chengĠyuanĠ
guangĠ yuanĠ
lunĠ heĠ
ĠjiĠ chengĠ
ĠerĠ qiĠtaĠ
baiĠ liĠ
kongĠ ziĠ
deĠshiĠ jueĠ
ĠliĠ aoĠ
pianĠ jianĠ
liĠshiĠ jianĠ
peiĠ deĠ
hongĠ kanĠ
6Ġ jiaĠ
shiĠjianĠ neiĠ
ĠxiĠ buĠ
ĠyeĠ jiuĠ
an ceĠĠĠ
daiĠbiaoĠ xingĠdeĠ
ĠxiangĠ xiĠ
sunĠ nvĠ
cangĠ deĠ
ĠaĠ geĠ
pengĠ boĠ
binĠ chengĠ
zhuiĠ suiĠzheĠ
el li
ĠzhanĠ lingĠ
ĠgaoĠ duĠ
ĠhuaĠ shiĠ
jiĠxuĠ zaiĠ
buĠhuiĠ zaiĠ
195 3ĠnianĠ
ĠshiĠweiĠyuĠmeiĠguoĠ jiaĠliĠfuĠniĠyaĠzhouĠ
manĠhuaĠ zuoĠpinĠ
jingĠchangĠ beiĠ
ĠweiĠyuĠfaĠguoĠ nuoĠmanĠdiĠdaĠquĠ
ĠnianĠ12ĠyueĠ2 5ĠriĠ
IN K
ff Ġ
wuĠziĠ bieĠ
geĠlunĠbiĠyaĠ daĠxueĠ
quanĠtiĠ huiĠyiĠ
qingĠhaiĠ shengĠ
Mu sic
binĠxiĠfaĠ niĠyaĠzhouĠ
7 ĠyueĠ24ĠriĠ
C or
I DĠ
N O
a ir
Ġ theĠĠĠ
Ĥ Ġ
yiĠ kuanĠ
yuĠ meiĠ
liĠ runĠ
liĠ chaĠdeĠ
zaiĠ guoĠjiĠ
qiĠ shengĠ
chengĠ junĠ
daĠ sheĠ
siĠ shuĠ
xianĠ zhongĠ
shengĠ gongĠhuiĠ
beiĠ bianĠ
huiĠ zongĠ
chuĠ yuanĠ
jingĠ maoĠ
shouĠ fangĠ
zhanĠ daoĠ
huoĠ xuanĠweiĠ
tiĠ muĠ
junĠ huoĠ
qianĠ zongĠtongĠ
yinĠ guoĠ
haiĠ yaĠ
muĠ linĠ
nanĠ ningĠ
pingĠ diĠ
gaoĠ kaoĠ
xuĠ heĠ
sanĠ langĠ
huĠ luĠ
cheĠ shiĠ
moĠ liĠsiĠ
ĠqiĠ ciĠ
ĠqiĠ mingĠchengĠ
deĠyiĠ dongĠ
ĠjiĠ chuĠ
ĠrenĠ qiĠ
shaoĠ xingĠ
ĠzhuĠ liĠ
yiĠzhiĠ jiĠ
henĠ rongĠyiĠ
ĠjiaĠ sheĠ
hunĠ heĠwuĠ
ĠgeĠ ciĠ
faĠzhanĠ chengĠ
deĠzhiĠ liaoĠ
erĠshiĠ jiuĠnianĠ
quanĠguoĠ xingĠ
Ġg Ġ
ĠgaoĠ shiĠpaiĠ
kunĠ lunĠ
kuiĠ sunĠ
ĠzhuanĠ erĠ
yanĠchangĠ deĠ
ziĠranĠ keĠxueĠ
renĠkouĠpuĠchaĠ zhiĠdingĠdiĠquĠ
195 1ĠnianĠ
gaiĠgeĠ kaiĠfangĠ
shangĠshiĠ gongĠsiĠ
Ġ190 2ĠnianĠ
ĠĠĠI nĠĠĠ
daĠjiĠ lvĠ
ev el
deĠqingĠ xingĠ
hi sĠĠĠ
ĠĠĠqianĠ longĠ
191 8ĠnianĠ
AC KP
kaĠluoĠlaiĠ naĠ
Ġãĥ¼ Ġãĥ
tuoĠleiĠ miĠ
0 ĠĠĠ
2 40Ġ
D NAĠ
E ĠĠĠ
u ng
aĠ baĠ
aoĠ leiĠ
yiĠ meiĠguoĠ
ĠĠĠ tongĠguoĠ
yuĠ dengĠ
buĠ liĠsiĠ
buĠ fuĠheĠ
buĠ qingĠchuĠ
fuĠ miĠshuĠzhangĠ
wuĠ liuĠ
juĠ jiĠzaiĠ
riĠ zhiĠchuĠ
xinĠ fuĠ
ĠshiĠ chuĠ
qianĠ mianĠ
taiĠ diĠ
zhangĠ wenĠ
gaiĠ zhouĠ
liangĠ banĠ
yaĠ maiĠjiaĠ
banĠ shuĠ
teĠ seĠdeĠ
guĠ zhiĠ
dangĠ nianĠdeĠ
feiĠ yingĠliĠ
baĠ daoĠ
baĠ siĠkeĠ
guangĠ duĠ
guiĠ fuĠ
ĠerĠ yuĠ
baiĠ mingĠ
baiĠ huaĠ
shaĠ erĠ
qinĠ haiĠ
tuiĠ teĠ
shiĠyiĠ shuĠ
yanĠjiuĠ huiĠ
kuangĠ chanĠ
ĠchuĠ liĠ
deĠjiĠ chengĠ
ĠdaoĠ daĠ
erĠshiĠ baĠ
ĠshuĠ xueĠ
yiĠjingĠ zaiĠ
4ĠyueĠ 7ĠriĠ
Ġ7 00Ġ
duĠliĠ houĠ
deĠdaĠ liangĠ
anĠquanĠ deĠ
Ġ16 9
erĠsiĠ taiĠyinĠ
heĠbingĠ weiĠxinĠ
ĠĠĠ196 8ĠnianĠ
ĠyuĠ201 8ĠnianĠ
ĠnianĠ12ĠyueĠ2 9ĠriĠ
haiĠxiaĠ langĠdeĠshengĠ
toĠĠĠ theĠĠĠ
faĠhuiĠ leĠ
zuoĠyeĠ xiĠtongĠ
geĠluĠ jiĠyaĠ
jianĠqiaoĠ daĠxueĠ
jiaĠlaiĠ haiĠxiaĠ
ĠxingĠzhengĠzhongĠxinĠ weiĠ
2 ĠĠĠnianĠ
5 00ĠwanĠ
8 ĠyueĠ14ĠriĠ
F L
p o
deĠ huĠpoĠ
ĠĠĠ zheĠyiĠ
ĠĠĠ qiuĠhuiĠ
yuĠ saiĠ
zaiĠ tianĠ
qiĠ siĠ
diĠ jianĠ
heĠ faĠguoĠ
daoĠ biĠ
ziĠ huiĠ
beiĠ chaoĠ
shouĠ dongĠ
shouĠ zuĠ
ciĠ xiangĠ
Ġb Ġ
zhanĠ shiĠdeĠ
xinĠ diĠ
xinĠ xiangĠ
yingĠ yinĠ
qianĠ duanĠ
muĠ menĠ
ĠyiĠ fangĠ
ĠyiĠ daiĠ
suoĠ dingĠ
feiĠ dieĠ
naĠ baĠ
linĠ haiĠ
linĠ genĠ
hanĠ junĠ
lieĠ fuĠ
puĠ laiĠ
touĠ xiĠ
touĠ quĠ
ĠyuĠ 2021ĠnianĠ
1Ġ ciĠ
cunĠ fangĠ
ĠrenĠ tianĠtangĠ
zhaoĠ laiĠ
chongĠ dianĠ
nvĠ shuangĠ
qieĠ huanĠ
ĠjinĠ heĠnanĠshengĠ
hongĠ zaiĠ
6Ġ geĠyueĠ
ĠfuĠ yuĠ
zhengĠzhiĠ chuĠ
yanĠjiuĠ faĠxianĠ
ĠgongĠ changĠ
louĠ gaoĠ
10 9
zhengĠshiĠ wuĠ
xingĠzhengĠ guanĠliĠ
ĠzhengĠ deĠ
ĠfaĠ yuanĠziĠ
Ġ4 6
yĠĠĠ L
15 00Ġ
shiĠyanĠ zhongĠ
3ĠyueĠ 6ĠriĠ
diĠsanĠ jiaĠ
ĠzhiĠhouĠ youĠ
gongĠyeĠ buĠ
ĠguiĠ moĠ
haiĠziĠ menĠ
ĠweiĠfuĠqiĠyuĠgangĠ nianĠxingĠmuĠ
LE D
sti tu
4 ĠyueĠ24ĠriĠ
Ġ in
yiĠ fengĠ
jiĠ zhuĠ
qiĠ chengĠweiĠ
diĠ nuoĠ
buĠ luĠsiĠ
chengĠ wangĠ
xiĠ taiĠpingĠyangĠ
ziĠ congĠ
beiĠ chaiĠchuĠ
leĠ jinĠ
shouĠ jiĠdeĠ
zhanĠ mingĠ
meiĠ weiĠ
xinĠ zeĠxiĠzhouĠ
yingĠ panĠ
fenĠ daĠdianĠ
xiaĠ daĠ
yongĠ chiĠ
ruĠ yuanĠ
yueĠ zaiĠ
ĠyiĠ benĠ
luoĠ binĠ
biĠ huanĠguanĠ
liuĠ xiaoĠ
bingĠ qingĠ
fanĠ lanĠ
moĠ kuaiĠ
niĠ ciĠjiĠ
ĠdanĠ zhiĠhouĠ
ĠdeĠ piaoĠ
chiĠ guĠ
caiĠ xiangĠ
gangĠ zhiĠ
ĠzhiĠ zhengĠ
zhaoĠ daiĠ
qinĠ miĠ
pianĠ liĠ
ĠheĠ jiĠ
ĠheĠ chengĠ
queĠ deĠ
genĠ zhuĠ
maiĠ longĠ
qiaoĠ muĠ
huoĠdeĠ guanĠjunĠ
ĠchuĠ shenĠ
ĠĠĠzaiĠ meiĠguoĠ
ĠgeĠ luĠ
zouĠ quĠ
chunĠ wanĠ
dianĠshiĠ guangĠboĠ
kuanĠ xiangĠ
binĠ haiĠxiaĠlangĠdeĠshengĠ
ĠyouĠyuĠ qiĠ
leĠyiĠ jiaĠ
ĠboĠ teĠ
ĠmingĠ yiĠ
zhanĠzhengĠ houĠ
ĠtaiĠ kongĠ
zongĠtongĠ houĠxuanĠrenĠ
junĠduiĠ zaiĠ
ĠniĠ menĠ
zongĠjiaoĠ xinĠyangĠ
Ġãģ Ĺ
2ĠyueĠ1 2ĠriĠ
xiĠbaoĠ deĠ
maĠliĠ lanĠzhouĠ
ĠshiĠweiĠyuĠmeiĠguoĠ mingĠniĠsuĠdaĠzhouĠ
baoĠchiĠ zheĠ
St udi
ĠĠĠ195 1ĠnianĠ
tiaoĠzhengĠ weiĠ
haiĠanĠ xianĠ
ĠyuĠ201 2ĠnianĠ
ĠyuĠ201 3ĠnianĠ
ĠĠĠchuĠ ruĠkouĠ
ĠĠĠshiĠyongĠ zhuangĠkuangĠ
shaiĠ chaĠ
zuĠziĠzhiĠ zhouĠ
moĠtianĠ daĠlouĠ
biĠhuanĠguanĠ kongĠzhongĠfaĠxianĠ
7 ĠyueĠ13ĠriĠ
B e
b eĠĠĠ
shiĠ tingĠ
ĠĠĠ chaoĠ
ĠĠĠ hangĠkongĠ
ĠĠĠ jiĠnianĠ
ĠĠĠ jiaĠnaĠdaĠ
weiĠ guiĠ
weiĠ yiĠgeĠ
xingĠ zheĠ
jianĠ duanĠ
wuĠ biĠ
jieĠ kaiĠ
shuĠ mianĠ
shuĠ xiaĠdeĠyiĠgeĠzhongĠ
hu r
tongĠ shangĠ
yingĠ youĠ
duiĠ jiaoĠ
zhenĠ liĠ
danĠ huaĠ
ĠtaĠ houĠlaiĠ
Ġ1 28
ĠqiĠ dianĠ
baiĠ xueĠ
2Ġ chengĠ
kaĠ puĠ
ĠliĠ taoĠwanĠ
zhengĠfuĠ guanĠyuanĠ
ĠciĠ quĠ
langĠ keĠ
shiĠqiĠ shiĠ
ĠjieĠ shaoĠ
ĠsiĠ houĠ
cheĠzhanĠ daĠlouĠ
zhaĠ pianĠ
2ĠyueĠ 9ĠriĠ
ĠyanĠ shiĠ
ĠtaĠmenĠ yuĠ
huoĠdongĠ shiĠ
fuĠwuĠ zhongĠxinĠ
ĠduoĠ weiĠ
xuĠyaoĠ deĠ
ĠshanĠ changĠ
ĠjiaoĠ huiĠ
om eĠ
deĠxinĠ yangĠ
et erĠĠĠ
2ĠyueĠ2 1ĠriĠ
xiĠbanĠyaĠ yuĠ
196 1ĠnianĠ
ĠlaoĠ dongĠ
huiĠshiĠ diĠerĠbaiĠ
ĠlvĠ youĠ
ĠzhongĠyangĠ junĠweiĠ
ĠzengĠ zhangĠ
jiuĠlongĠ baĠshiĠ
laoĠdongĠ dangĠ
aoĠsiĠkaĠ zuiĠjiaĠ
ĠdeĠzhiĠchiĠ lvĠ
7 ĠyueĠ27ĠriĠ
M M
m o
Ġ zhengĠzhiĠrenĠwuĠ
Ġ lvĠshiĠ
zhiĠ 12
yuĠ anĠ
zhongĠ qingĠ
zaiĠ quanĠguoĠ
gongĠ menĠ
xingĠ xiaoĠ
daĠ guanĠ
daĠ wangĠ
xiĠ wuĠ
siĠ luĠ
siĠ luoĠfaĠkeĠ
xiangĠ xingĠ
leĠ youĠ
shouĠ heĠ
yanĠ chengĠ
xiaĠ huaĠ
yongĠ heĠ
liangĠ yiĠ
ruĠ qiĠ
zhouĠ daoĠ
kaiĠ fengĠ
zhenĠ ceĠ
maĠ yingĠjiuĠ
shanĠ yangĠ
leiĠ keĠ
lanĠ banĠ
linĠ zaiĠ
zaoĠ jiaĠ
ĠyuĠ leiĠ
zhaoĠ guoĠ
tanĠ huanĠ
ĠheĠ luĠ
langĠ feiĠ
ĠyuanĠ xianĠ
ĠmoĠ faĠ
junĠshiĠ bingĠ
gongĠyuanĠ deĠ
jiaoĠtongĠ buĠ
zuiĠhouĠ yiĠchangĠ
ĠbiaoĠ xianĠ
[...]
