{
  "version": "1.0",
  "truncation": null,
  "padding": null,
  "added_tokens": [],
  "normalizer": null,
  "pre_tokenizer": {
    "type": "Sequence",
    "pretokenizers": [
      {
        "type": "Split",
        "pattern": {
          "Regex": "[^\\p{L}\\p{N}\\s]+|[\\r\\n]+"
        },
        "behavior": "Isolated",
        "invert": false
      },
      {
        "type": "ByteLevel",
        "add_prefix_space": false,
        "trim_offsets": true,
        "use_regex": false
      }
    ]
  },
  "post_processor": null,
  "decoder": null,
  "model": {
    "type": "BPE",
    "dropout": null,
    "unk_token": null,
    "continuing_subword_prefix": null,
    "end_of_word_suffix": null,
    "fuse_unk": false,
    "byte_fallback": false,
    "ignore_merges": false,
    "vocab": {
      "!": 0,
      "\"": 1,
      "#": 2,
      "$": 3,
      "%": 4,
      "&": 5,
      "'": 6,
      "(": 7,
      ")": 8,
      "*": 9,
      "+": 10,
      ",": 11,
      "-": 12,
      ".": 13,
      "/": 14,
      "0": 15,
      "1": 16,
      "2": 17,
      "3": 18,
      "4": 19,
      "5": 20,
      "6": 21,
      "7": 22,
      "8": 23,
      "9": 24,
      ":": 25,
      ";": 26,
      "=": 27,
      "?": 28,
      "@": 29,
      "A": 30,
      "B": 31,
      "C": 32,
      "D": 33,
      "E": 34,
      "F": 35,
      "G": 36,
      "H": 37,
      "I": 38,
      "J": 39,
      "K": 40,
      "L": 41,
      "M": 42,
      "N": 43,
      "O": 44,
      "P": 45,
      "Q": 46,
      "R": 47,
      "S": 48,
      "T": 49,
      "U": 50,
      "V": 51,
      "W": 52,
      "X": 53,
      "Y": 54,
      "Z": 55,
      "[": 56,
      "\\": 57,
      "]": 58,
      "^": 59,
      "_": 60,
      "`": 61,
      "a": 62,
      "b": 63,
      "c": 64,
      "d": 65,
      "e": 66,
      "f": 67,
      "g": 68,
      "h": 69,
      "i": 70,
      "j": 71,
      "k": 72,
      "l": 73,
      "m": 74,
      "n": 75,
      "o": 76,
      "p": 77,
      "q": 78,
      "r": 79,
      "s": 80,
      "t": 81,
      "u": 82,
      "v": 83,
      "w": 84,
      "x": 85,
      "y": 86,
      "z": 87,
      "|": 88,
      "~": 89,
      "¡": 90,
      "¢": 91,
      "£": 92,
      "¤": 93,
      "¥": 94,
      "¦": 95,
      "§": 96,
      "¨": 97,
      "©": 98,
      "ª": 99,
      "«": 100,
      "¬": 101,
      "®": 102,
      "¯": 103,
      "°": 104,
      "±": 105,
      "²": 106,
      "³": 107,
      "´": 108,
      "µ": 109,
      "¶": 110,
      "·": 111,
      "¸": 112,
      "¹": 113,
      "º": 114,
      "»": 115,
      "¼": 116,
      "½": 117,
      "¾": 118,
      "¿": 119,
      "Â": 120,
      "Ã": 121,
      "Ä": 122,
      "Å": 123,
      "Æ": 124,
      "Ç": 125,
      "È": 126,
      "É": 127,
      "Ê": 128,
      "Ë": 129,
      "Ì": 130,
      "Í": 131,
      "Î": 132,
      "Ï": 133,
      "Ð": 134,
      "Ñ": 135,
      "Ò": 136,
      "Ó": 137,
      "Ô": 138,
      "Õ": 139,
      "Ö": 140,
      "×": 141,
      "Ø": 142,
      "Ù": 143,
      "Ú": 144,
      "Û": 145,
      "Ü": 146,
      "Þ": 147,
      "ß": 148,
      "à": 149,
      "á": 150,
      "â": 151,
      "ã": 152,
      "ä": 153,
      "ê": 154,
      "ë": 155,
      "ì": 156,
      "í": 157,
      "î": 158,
      "ï": 159,
      "ð": 160,
      "ñ": 161,
      "Ċ": 162,
      "Ġ": 163,
      "ġ": 164,
      "Ģ": 165,
      "ģ": 166,
      "Ĥ": 167,
      "ĥ": 168,
      "Ħ": 169,
      "ħ": 170,
      "Ĩ": 171,
      "ĩ": 172,
      "Ī": 173,
      "ī": 174,
      "Ĭ": 175,
      "ĭ": 176,
      "Į": 177,
      "į": 178,
      "İ": 179,
      "ı": 180,
      "Ĳ": 181,
      "ĳ": 182,
      "Ĵ": 183,
      "ĵ": 184,
      "Ķ": 185,
      "ķ": 186,
      "ĸ": 187,
      "Ĺ": 188,
      "ĺ": 189,
      "Ļ": 190,
      "ļ": 191,
      "Ľ": 192,
      "ľ": 193,
      "Ŀ": 194,
      "ŀ": 195,
      "Ł": 196,
      "ł": 197,
      "Ń": 198,
      "iĠ": 199,
      "nĠ": 200,
      "ng": 201,
      "ngĠ": 202,
      "uĠ": 203,
      "eĠ": 204,
      "anĠ": 205,
      "oĠ": 206,
      "sh": 207,
      "zh": 208,
      "aĠ": 209,
      "angĠ": 210,
      "ianĠ": 211,
      "ongĠ": 212,
      "ĠĠ": 213,
      "aoĠ": 214,
      "aiĠ": 215,
      "ingĠ": 216,
      "eiĠ": 217,
      "shiĠ": 218,
      "deĠ": 219,
      "ouĠ": 220,
      "engĠ": 221,
      "enĠ": 222,
      "ch": 223,
      "uoĠ": 224,
      "ji": 225,
      "uanĠ": 226,
      "yiĠ": 227,
      "xi": 228,
      "ãĢ": 229,
      "ĠĠĠ": 230,
      "uiĠ": 231,
      "jiĠ": 232,
      "weiĠ": 233,
      "zhiĠ": 234,
      "yuĠ": 235,
      "ueĠ": 236,
      "nianĠ": 237,
      "liĠ": 238,
      "unĠ": 239,
      "zhongĠ": 240,
      "youĠ": 241,
      "inĠ": 242,
      "renĠ": 243,
      "zaiĠ": 244,
      "guoĠ": 245,
      "ãĢģ": 246,
      "ĠnianĠ": 247,
      "qiĠ": 248,
      "diĠ": 249,
      "heĠ": 250,
      "buĠ": 251,
      "er": 252,
      "Ġy": 253,
      "gongĠ": 254,
      "xingĠ": 255,
      "chengĠ": 256,
      "daĠ": 257,
      "li": 258,
      "erĠ": 259,
      "xiĠ": 260,
      "jianĠ": 261,
      "siĠ": 262,
      "geĠ": 263,
      "yuanĠ": 264,
      "fuĠ": 265,
      "xianĠ": 266,
      "keĠ": 267,
      "wuĠ": 268,
      "shengĠ": 269,
      "jieĠ": 270,
      "jiaĠ": 271,
      "zhuĠ": 272,
      "daoĠ": 273,
      "ziĠ": 274,
      "beiĠ": 275,
      "huiĠ": 276,
      "faĠ": 277,
      "shuĠ": 278,
      "xiangĠ": 279,
      "chuĠ": 280,
      "hu": 281,
      "iaoĠ": 282,
      "zhengĠ": 283,
      "jinĠ": 284,
      "quĠ": 285,
      "20": 286,
      "tongĠ": 287,
      "taĠ": 288,
      "juĠ": 289,
      "jingĠ": 290,
      "mingĠ": 291,
      "houĠ": 292,
      "riĠ": 293,
      "leĠ": 294,
      "shangĠ": 295,
      "ĠyueĠ": 296,
      "shouĠ": 297,
      "Ġd": 298,
      "fangĠ": 299,
      "19": 300,
      "huaĠ": 301,
      "xueĠ": 302,
      "ciĠ": 303,
      "guanĠ": 304,
      "Ġb": 305,
      "zhanĠ": 306,
      "uangĠ": 307,
      "zuoĠ": 308,
      "zheĠ": 309,
      "qi": 310,
      "dongĠ": 311,
      "meiĠ": 312,
      "jiaoĠ": 313,
      "changĠ": 314,
      "xinĠ": 315,
      "yingĠ": 316,
      "ĠshiĠ": 317,
      "yanĠ": 318,
      "luĠ": 319,
      "fenĠ": 320,
      "yeĠ": 321,
      "huoĠ": 322,
      "tiĠ": 323,
      "junĠ": 324,
      "jiangĠ": 325,
      "duiĠ": 326,
      "xiaoĠ": 327,
      "qianĠ": 328,
      "yinĠ": 329,
      "duĠ": 330,
      "sheĠ": 331,
      "xiaĠ": 332,
      "taiĠ": 333,
      "wenĠ": 334,
      "baoĠ": 335,
      "dianĠ": 336,
      "yongĠ": 337,
      "zhangĠ": 338,
      "gaiĠ": 339,
      "ĠriĠ": 340,
      "liangĠ": 341,
      "ruĠ": 342,
      "haiĠ": 343,
      "muĠ": 344,
      "zhouĠ": 345,
      "nanĠ": 346,
      "zuĠ": 347,
      "wangĠ": 348,
      "yaĠ": 349,
      "laiĠ": 350,
      "yueĠ": 351,
      "jiuĠ": 352,
      "daiĠ": 353,
      "qingĠ": 354,
      "pingĠ": 355,
      "ĠyiĠ": 356,
      "shenĠ": 357,
      "banĠ": 358,
      "ãĢĭ": 359,
      "ãĢĬ": 360,
      "wanĠ": 361,
      "lianĠ": 362,
      "lingĠ": 363,
      "luoĠ": 364,
      "Â·": 365,
      "quanĠ": 366,
      "minĠ": 367,
      "gaoĠ": 368,
      "suoĠ": 369,
      "kaiĠ": 370,
      "miĠ": 371,
      "xieĠ": 372,
      "biĠ": 373,
      "xuĠ": 374,
      "teĠ": 375,
      "biaoĠ": 376,
      "mianĠ": 377,
      "zhenĠ": 378,
      "qiuĠ": 379,
      "guĠ": 380,
      "maĠ": 381,
      "duoĠ": 382,
      "zuiĠ": 383,
      "benĠ": 384,
      "saiĠ": 385,
      "laĠ": 386,
      "yaoĠ": 387,
      "dingĠ": 388,
      "bianĠ": 389,
      "liuĠ": 390,
      "yangĠ": 391,
      "boĠ": 392,
      "bingĠ": 393,
      "ĠzaiĠ": 394,
      "fanĠ": 395,
      "dangĠ": 396,
      "vĠ": 397,
      "danĠ": 398,
      "xuanĠ": 399,
      "ĠtaĠ": 400,
      "0Ġ": 401,
      "feiĠ": 402,
      "shanĠ": 403,
      "sanĠ": 404,
      "huĠ": 405,
      "dengĠ": 406,
      "baĠ": 407,
      "zongĠ": 408,
      "ãĢĮ": 409,
      "cheĠ": 410,
      "ãĢį": 411,
      "ieĠ": 412,
      "tianĠ": 413,
      "haoĠ": 414,
      "menĠ": 415,
      "leiĠ": 416,
      "suĠ": 417,
      "tuĠ": 418,
      "neiĠ": 419,
      "201": 420,
      "ĠweiĠ": 421,
      "ĠyouĠ": 422,
      "fengĠ": 423,
      "lanĠ": 424,
      "Ġ1": 425,
      "ĠbingĠ": 426,
      "yunĠ": 427,
      "moĠ": 428,
      "zeĠ": 429,
      "niĠ": 430,
      "kouĠ": 431,
      "ĠqiĠ": 432,
      "naĠ": 433,
      "ĠdanĠ": 434,
      "waiĠ": 435,
      "nengĠ": 436,
      "Ġ19": 437,
      "linĠ": 438,
      "chuanĠ": 439,
      "ĠdeĠ": 440,
      "hanĠ": 441,
      "jueĠ": 442,
      "chiĠ": 443,
      "paiĠ": 444,
      "caiĠ": 445,
      "zaoĠ": 446,
      "tingĠ": 447,
      "deĠyiĠ": 448,
      "zhuanĠ": 449,
      "gangĠ": 450,
      "200": 451,
      "lieĠ": 452,
      "guangĠ": 453,
      "guiĠ": 454,
      "lunĠ": 455,
      "ĠzhiĠ": 456,
      "suiĠ": 457,
      "ĠjiĠ": 458,
      "ĠerĠ": 459,
      "baiĠ": 460,
      "cengĠ": 461,
      "kongĠ": 462,
      "shuiĠ": 463,
      "chaoĠ": 464,
      "puĠ": 465,
      "zhuangĠ": 466,
      "2Ġ": 467,
      "touĠ": 468,
      "canĠ": 469,
      "chaĠ": 470,
      "ĠyuĠ": 471,
      "zhongĠguoĠ": 472,
      "1Ġ": 473,
      "ranĠ": 474,
      "douĠ": 475,
      "duanĠ": 476,
      "cunĠ": 477,
      "huanĠ": 478,
      "lvĠ": 479,
      "congĠ": 480,
      "pinĠ": 481,
      "chanĠ": 482,
      "ĠzheĠ": 483,
      "seĠ": 484,
      "xunĠ": 485,
      "ĠrenĠ": 486,
      "ĠyinĠ": 487,
      "ceĠ": 488,
      "0ĠnianĠ": 489,
      "chengĠweiĠ": 490,
      "gouĠ": 491,
      "meiĠguoĠ": 492,
      "5Ġ": 493,
      "zhaoĠ": 494,
      "ganĠ": 495,
      "chongĠ": 496,
      "ĠnianĠ1": 497,
      "yiĠgeĠ": 498,
      "shaĠ": 499,
      "3Ġ": 500,
      "ĠyueĠ1": 501,
      "qinĠ": 502,
      "tanĠ": 503,
      "mengĠ": 504,
      "qiangĠ": 505,
      "huangĠ": 506,
      "xiuĠ": 507,
      "ĠgaiĠ": 508,
      "tiaoĠ": 509,
      "kaĠ": 510,
      "deĠshiĠ": 511,
      "shaoĠ": 512,
      "ĠliĠ": 513,
      "nvĠ": 514,
      "kuoĠ": 515,
      "longĠ": 516,
      "piĠ": 517,
      "manĠ": 518,
      "pianĠ": 519,
      "shuoĠ": 520,
      "ĠzhongĠ": 521,
      "tuanĠ": 522,
      "tangĠ": 523,
      "1ĠnianĠ": 524,
      "rongĠ": 525,
      "4Ġ": 526,
      "gengĠ": 527,
      "5ĠnianĠ": 528,
      "2ĠnianĠ": 529,
      "ĠyueĠ2": 530,
      "chenĠ": 531,
      "202": 532,
      "4ĠnianĠ": 533,
      "ĠheĠ": 534,
      "ĠbuĠ": 535,
      "8ĠnianĠ": 536,
      "tuiĠ": 537,
      "ĠtongĠ": 538,
      "shiĠdeĠ": 539,
      "3ĠnianĠ": 540,
      "tieĠ": 541,
      "queĠ": 542,
      "qieĠ": 543,
      "renĠkouĠ": 544,
      "genĠ": 545,
      "ĠjinĠ": 546,
      "6ĠnianĠ": 547,
      "zhengĠfuĠ": 548,
      "liĠshiĠ": 549,
      "ĠdiĠ": 550,
      "peiĠ": 551,
      "hongĠ": 552,
      "hangĠ": 553,
      "woĠ": 554,
      "6Ġ": 555,
      "7ĠnianĠ": 556,
      "liaoĠ": 557,
      "shiĠyongĠ": 558,
      "chuangĠ": 559,
      "or": 560,
      "tuoĠ": 561,
      "daĠxueĠ": 562,
      "taoĠ": 563,
      "gongĠsiĠ": 564,
      "shiĠyiĠ": 565,
      "bieĠ": 566,
      "poĠ": 567,
      "songĠ": 568,
      "bangĠ": 569,
      "ĠbeiĠ": 570,
      "keĠyiĠ": 571,
      "00Ġ": 572,
      "guoĠjiaĠ": 573,
      "shiĠjianĠ": 574,
      "ĠxiĠ": 575,
      "diĠquĠ": 576,
      "ĠĠĠ19": 577,
      "8Ġ": 578,
      "uaiĠ": 579,
      "maiĠ": 580,
      "ĠyeĠ": 581,
      "ĠdangĠ": 582,
      "ĠdaĠ": 583,
      "kaiĠshiĠ": 584,
      "pingĠfangĠ": 585,
      "gongĠliĠ": 586,
      "ĠciĠ": 587,
      "ĠfuĠ": 588,
      "waĠ": 589,
      "9ĠnianĠ": 590,
      "panĠ": 591,
      "qiaoĠ": 592,
      "weiĠyuĠ": 593,
      "maoĠ": 594,
      "jinĠxingĠ": 595,
      "langĠ": 596,
      "kanĠ": 597,
      "buĠfenĠ": 598,
      "kangĠ": 599,
      "âĢ": 600,
      "7Ġ": 601,
      "shiĠjieĠ": 602,
      "tĠ": 603,
      "xiangĠgangĠ": 604,
      "ĠhuoĠ": 605,
      "ni": 606,
      "dunĠ": 607,
      "ĠbaoĠ": 608,
      "laoĠ": 609,
      "zengĠ": 610,
      "diĠyiĠ": 611,
      "saĠ": 612,
      "mianĠjiĠ": 613,
      "ĠzhuĠ": 614,
      "ĠxianĠ": 615,
      "diaoĠ": 616,
      "ĠwuĠ": 617,
      "renĠminĠ": 618,
      "riĠbenĠ": 619,
      "Ġ201": 620,
      "haĠ": 621,
      "ĠhouĠ": 622,
      "renĠweiĠ": 623,
      "zhengĠzhiĠ": 624,
      "kaoĠ": 625,
      "jiĠdeĠ": 626,
      "xiongĠ": 627,
      "yanĠjiuĠ": 628,
      "ĠkeĠ": 629,
      "meiĠyouĠ": 630,
      "zhiĠyiĠ": 631,
      "taiĠwanĠ": 632,
      "Ġ200": 633,
      "weiĠyuanĠ": 634,
      "shiĠqiĠ": 635,
      "ĠyingĠ": 636,
      "ĠzuiĠ": 637,
      "ĠjieĠ": 638,
      "nuoĠ": 639,
      "lv": 640,
      "miaoĠ": 641,
      "ar": 642,
      "yiĠzhiĠ": 643,
      "rangĠ": 644,
      "kuangĠ": 645,
      "ĠgongĠ": 646,
      "huoĠdeĠ": 647,
      "guoĠjiĠ": 648,
      "sĠ": 649,
      "qiĠtaĠ": 650,
      "yiĠjiĠ": 651,
      "suanĠ": 652,
      "henĠ": 653,
      "ĠyuanĠ": 654,
      "zhongĠdeĠ": 655,
      "ĠjianĠ": 656,
      "ĠziĠ": 657,
      "zuoĠweiĠ": 658,
      "kuĠ": 659,
      "faĠguoĠ": 660,
      "18": 661,
      "ĠchuĠ": 662,
      "zhunĠ": 663,
      "yuĠ19": 664,
      "deĠyiĠgeĠ": 665,
      "ĠĠĠzaiĠ": 666,
      "ĠĠĠ201": 667,
      "yunĠdongĠ": 668,
      "an": 669,
      "liĠdeĠ": 670,
      "xingĠdeĠ": 671,
      "ĠqiĠzhongĠ": 672,
      "shiĠjiĠ": 673,
      "daiĠbiaoĠ": 674,
      "caoĠ": 675,
      "ĠchengĠ": 676,
      "reĠ": 677,
      "ĠsuiĠ": 678,
      "zhongĠxinĠ": 679,
      "qunĠ": 680,
      "ĠjiangĠ": 681,
      "ĠjiaĠ": 682,
      "hunĠ": 683,
      "gongĠzuoĠ": 684,
      "ĠxinĠ": 685,
      "taĠmenĠ": 686,
      "shiĠshiĠ": 687,
      "sheĠjiĠ": 688,
      "nongĠ": 689,
      "ĠsiĠ": 690,
      "ĠdongĠ": 691,
      "dianĠyingĠ": 692,
      "ĠruĠ": 693,
      "ĠhaiĠ": 694,
      "ĠshengĠ": 695,
      "zhuĠyaoĠ": 696,
      "deĠjiĠ": 697,
      "hengĠ": 698,
      "deĠdiĠ": 699,
      "shiĠweiĠ": 700,
      "sĠĠĠ": 701,
      "ĠjuĠ": 702,
      "liĠyaĠ": 703,
      "shuangĠ": 704,
      "Ġ2": 705,
      "louĠ": 706,
      "ĠxiangĠ": 707,
      "ĠjingĠ": 708,
      "10": 709,
      "geiĠ": 710,
      "zuĠzhiĠ": 711,
      "zhuĠyiĠ": 712,
      "zhengĠshiĠ": 713,
      "shuĠyuĠ": 714,
      "heĠguoĠ": 715,
      "ĠweiĠyuĠ": 716,
      "kuaiĠ": 717,
      "taĠdeĠ": 718,
      "piaoĠ": 719,
      "quĠdeĠ": 720,
      "ĠgeĠ": 721,
      "faĠxianĠ": 722,
      "cheĠzhanĠ": 723,
      "zhaĠ": 724,
      "xiĠtongĠ": 725,
      "xingĠzhengĠ": 726,
      "niuĠ": 727,
      "genĠjuĠ": 728,
      "heiĠ": 729,
      "faĠzhanĠ": 730,
      "xueĠyuanĠ": 731,
      "2ĠyueĠ": 732,
      "ĠmeiĠ": 733,
      "ĠshouĠ": 734,
      "chengĠshiĠ": 735,
      "zouĠ": 736,
      "ĠlingĠ": 737,
      "rengĠ": 738,
      "biaoĠshiĠ": 739,
      "chunĠ": 740,
      "keĠnengĠ": 741,
      "senĠ": 742,
      "baoĠkuoĠ": 743,
      "ĠyanĠ": 744,
      "diĠerĠ": 745,
      "ĠnanĠ": 746,
      "dianĠshiĠ": 747,
      "Ġã": 748,
      "youĠxiĠ": 749,
      "deĠzhiĠ": 750,
      "uaĠ": 751,
      "qiĠjianĠ": 752,
      "ĠbiĠ": 753,
      "sheĠhuiĠ": 754,
      "kuanĠ": 755,
      "yingĠxiangĠ": 756,
      "âĢĶ": 757,
      "yiĠyuanĠ": 758,
      "renĠwuĠ": 759,
      "sunĠ": 760,
      "ruiĠ": 761,
      "ĠyinĠciĠ": 762,
      "wenĠhuaĠ": 763,
      "paoĠ": 764,
      "9Ġ": 765,
      "canĠjiaĠ": 766,
      "youĠyiĠ": 767,
      "buĠtongĠ": 768,
      "ĠyiĠjiĠ": 769,
      "ĠshangĠ": 770,
      "jiaoĠyuĠ": 771,
      "danĠrenĠ": 772,
      "ti": 773,
      "luoĠsiĠ": 774,
      "al": 775,
      "ĠsuoĠ": 776,
      "en": 777,
      "weiĠyuanĠhuiĠ": 778,
      "for": 779,
      "jianĠdeĠ": 780,
      "jingĠjiĠ": 781,
      "pingĠfangĠgongĠliĠ": 782,
      "onĠ": 783,
      "ningĠ": 784,
      "Ġ3": 785,
      "cangĠ": 786,
      "ĠqianĠ": 787,
      "ĠshiĠyiĠ": 788,
      "mingĠweiĠ": 789,
      "shiĠzhenĠ": 790,
      "tongĠguoĠ": 791,
      "yiĠshiĠ": 792,
      "tiĠgongĠ": 793,
      "ĠdaoĠ": 794,
      "xueĠxiaoĠ": 795,
      "ĠfenĠ": 796,
      "ĠduiĠ": 797,
      "mouĠ": 798,
      "ĠzhongĠguoĠ": 799,
      "ĠdengĠ": 800,
      "biĠsaiĠ": 801,
      "gongĠheĠguoĠ": 802,
      "ĠmuĠ": 803,
      "jianĠzhuĠ": 804,
      "ĠaĠ": 805,
      "guanĠliĠ": 806,
      "mu": 807,
      "ĠbaoĠkuoĠ": 808,
      "ĠmaĠ": 809,
      "ĠC": 810,
      "faĠshengĠ": 811,
      "yingĠguoĠ": 812,
      "ĠtaĠmenĠ": 813,
      "zuoĠpinĠ": 814,
      "ĠguĠ": 815,
      "deĠguoĠ": 816,
      "ĠxingĠ": 817,
      "shiĠzaiĠ": 818,
      "in": 819,
      "ĠliangĠ": 820,
      "ĠbaĠ": 821,
      "chuĠxianĠ": 822,
      "shiĠwuĠ": 823,
      "tieĠluĠ": 824,
      "shiĠyouĠ": 825,
      "huoĠdongĠ": 826,
      "ĠjiuĠ": 827,
      "tĠĠĠ": 828,
      "pengĠ": 829,
      "beiĠjingĠ": 830,
      "ĠS": 831,
      "binĠ": 832,
      "ĠshenĠ": 833,
      "zhongĠyangĠ": 834,
      "huaiĠ": 835,
      "ĠzongĠ": 836,
      "zhiĠdeĠ": 837,
      "ĠcongĠ": 838,
      "chengĠliĠ": 839,
      "5ĠriĠ": 840,
      "yinĠyueĠ": 841,
      "shuĠdeĠ": 842,
      "ĠyouĠyuĠ": 843,
      "ĠqingĠ": 844,
      "mulaĠ": 845,
      "formulaĠ": 846,
      "ĠranĠ": 847,
      "ĠxiaoĠ": 848,
      "ziĠjiĠ": 849,
      "dĠĠĠ": 850,
      "8ĠriĠ": 851,
      "zhongĠhuaĠ": 852,
      "jiĠhuaĠ": 853,
      "wenĠtiĠ": 854,
      "weiĠzhiĠ": 855,
      "chengĠyuanĠ": 856,
      "ruoĠ": 857,
      "zanĠ": 858,
      "ĠquanĠ": 859,
      "shangĠdeĠ": 860,
      "Ġ0": 861,
      "ĠshiĠjiĠ": 862,
      "leĠyiĠ": 863,
      "ĠboĠ": 864,
      "xuĠduoĠ": 865,
      "ĠmingĠ": 866,
      "ĠĠĠdiĠ": 867,
      "ĠĠĠshengĠ": 868,
      "Ġ199": 869,
      "beiĠbuĠ": 870,
      "daĠdeĠ": 871,
      "paĠ": 872,
      "20ĠnianĠ": 873,
      "xianĠdeĠ": 874,
      "huiĠyiĠ": 875,
      "ĠzhengĠ": 876,
      "11": 877,
      "zhiĠhouĠ": 878,
      "Ġ18": 879,
      "ĠzhangĠ": 880,
      "renĠdeĠ": 881,
      "199": 882,
      "am": 883,
      "ĠliuĠ": 884,
      "chouĠ": 885,
      "zhuiĠ": 886,
      "6ĠriĠ": 887,
      "ĠcengĠ": 888,
      "ĠA": 889,
      "7ĠriĠ": 890,
      "1ĠriĠ": 891,
      "ĠfaĠ": 892,
      "Ġ5": 893,
      "guanĠxiĠ": 894,
      "ĠxiaĠ": 895,
      "4ĠriĠ": 896,
      "niĠyaĠ": 897,
      "chuĠdeĠ": 898,
      "ĠsanĠ": 899,
      "canĠyuĠ": 900,
      "Ġ4": 901,
      "ĠguoĠ": 902,
      "ĠdianĠ": 903,
      "ĠĠĠ200": 904,
      "xuanĠbuĠ": 905,
      "ĠwangĠ": 906,
      "fuĠwuĠ": 907,
      "on": 908,
      "erĠshiĠ": 909,
      "3ĠriĠ": 910,
      "zhanĠzhengĠ": 911,
      "suoĠyouĠ": 912,
      "zhiĠshiĠ": 913,
      "eĠluoĠsiĠ": 914,
      "xingĠshiĠ": 915,
      "ĠĠĠ202": 916,
      "zhiĠzuoĠ": 917,
      "zhongĠyaoĠ": 918,
      "el": 919,
      "naiĠ": 920,
      "ĠbenĠ": 921,
      "ĠluĠ": 922,
      "ĠyongĠ": 923,
      "ĠwoĠ": 924,
      "qianĠmiĠ": 925,
      "ĠshuĠ": 926,
      "ĠduoĠ": 927,
      "ĠM": 928,
      "zuĠqiuĠ": 929,
      "fangĠmianĠ": 930,
      "chengĠdeĠ": 931,
      "jinĠruĠ": 932,
      "jueĠdingĠ": 933,
      "ĠnianĠ10": 934,
      "ï¼": 935,
      "renĠheĠ": 936,
      "ĠaiĠ": 937,
      "xueĠjiaĠ": 938,
      "0ĠnianĠdaiĠ": 939,
      "weiĠyiĠ": 940,
      "guanĠjunĠ": 941,
      "daoĠdeĠ": 942,
      "ĠzhanĠ": 943,
      "buĠdeĠ": 944,
      "ĠluoĠ": 945,
      "ĠfeiĠ": 946,
      "youĠyuĠ": 947,
      "shuĠjiĠ": 948,
      "shunĠ": 949,
      "fuĠzeĠ": 950,
      "diĠdeĠ": 951,
      "xueĠshengĠ": 952,
      "nuĠ": 953,
      "ĠanĠ": 954,
      "ĠtaiĠ": 955,
      "yiĠweiĠ": 956,
      "10Ġ": 957,
      "quanĠguoĠ": 958,
      "lveĠ": 959,
      "xuĠyaoĠ": 960,
      "Ġ6": 961,
      "zhaiĠ": 962,
      "renĠminĠgongĠheĠguoĠ": 963,
      "yĠĠĠ": 964,
      "laiĠziĠ": 965,
      "lieĠcheĠ": 966,
      "yiĠjingĠ": 967,
      "shouĠdaoĠ": 968,
      "eĠĠĠ": 969,
      "ĠtongĠshiĠ": 970,
      "9ĠyueĠ": 971,
      "ouĠzhouĠ": 972,
      "Ġg": 973,
      "8ĠyueĠ": 974,
      "2019": 975,
      "7ĠyueĠ": 976,
      "ĠgaoĠ": 977,
      "pingĠfangĠqianĠmiĠ": 978,
      "qiĠshiĠ": 979,
      "ĠfanĠ": 980,
      "12": 981,
      "Ġ198": 982,
      "ĠyinĠweiĠ": 983,
      "zaĠ": 984,
      "30": 985,
      "ĠtianĠ": 986,
      "fangĠshiĠ": 987,
      "ĠhuiĠ": 988,
      "ĠhanĠ": 989,
      "keĠlanĠ": 990,
      "sheĠyouĠ": 991,
      "juanĠ": 992,
      "ĠguanĠ": 993,
      "ĠnianĠ11": 994,
      "ro": 995,
      "liangĠgeĠ": 996,
      "xianĠshiĠ": 997,
      "deĠliĠ": 998,
      "shangĠhaiĠ": 999,
      "ĠhuaĠ": 1000,
      "juĠxingĠ": 1001,
      "baoĠhuĠ": 1002,
      "cunĠzaiĠ": 1003,
      "cuiĠ": 1004,
      "ziĠyouĠ": 1005,
      "kunĠ": 1006,
      "renĠyuanĠ": 1007,
      "15": 1008,
      "jiĠshuĠ": 1009,
      "minĠguoĠ": 1010,
      "st": 1011,
      "Ġl": 1012,
      "re": 1013,
      "shiĠyanĠ": 1014,
      "faĠxingĠ": 1015,
      "ĠT": 1016,
      "ri": 1017,
      "zongĠtongĠ": 1018,
      "ĠmoĠ": 1019,
      "chuĠleĠ": 1020,
      "CĠ": 1021,
      "chengĠgongĠ": 1022,
      "qiĠdeĠ": 1023,
      "erĠdeĠ": 1024,
      "liĠsiĠ": 1025,
      "Ġ202": 1026,
      "zhuanĠjiĠ": 1027,
      "ĠĠĠliĠshiĠ": 1028,
      "ĠyueĠ1ĠriĠ": 1029,
      "buĠshiĠ": 1030,
      "yinĠweiĠ": 1031,
      "ĠdaiĠ": 1032,
      "yinĠduĠ": 1033,
      "ĠlianĠ": 1034,
      "ĠxueĠ": 1035,
      "cuoĠ": 1036,
      "kaiĠfaĠ": 1037,
      "heĠĠĠ": 1038,
      "ĠI": 1039,
      "jiaĠruĠ": 1040,
      "quĠyuĠ": 1041,
      "shengĠhuoĠ": 1042,
      "ĠchengĠweiĠ": 1043,
      "zhiĠjianĠ": 1044,
      "zhiĠchiĠ": 1045,
      "qiuĠduiĠ": 1046,
      "danĠweiĠ": 1047,
      "miĠduĠ": 1048,
      "17": 1049,
      "3ĠyueĠ": 1050,
      "caiĠyongĠ": 1051,
      "ĠĠĠshengĠpingĠ": 1052,
      "jieĠshouĠ": 1053,
      "qingĠkuangĠ": 1054,
      "wanĠchengĠ": 1055,
      "xuanĠjuĠ": 1056,
      "16": 1057,
      "junĠshiĠ": 1058,
      "zangĠ": 1059,
      "2020ĠnianĠ": 1060,
      "luanĠ": 1061,
      "shuaiĠ": 1062,
      "ĠĠĠyuĠ": 1063,
      "ĠB": 1064,
      "tongĠshiĠ": 1065,
      "xiangĠguanĠ": 1066,
      "ĠbaiĠ": 1067,
      "qianĠwangĠ": 1068,
      "daĠluĠ": 1069,
      "ĠchangĠ": 1070,
      "tongĠyiĠ": 1071,
      "zhiĠwuĠ": 1072,
      "gongĠyuanĠ": 1073,
      "5ĠyueĠ": 1074,
      "siĠteĠ": 1075,
      "ĠliĠruĠ": 1076,
      "zheĠxieĠ": 1077,
      "deĠdaoĠ": 1078,
      "ĠtiĠ": 1079,
      "ĠbianĠ": 1080,
      "daĠliĠ": 1081,
      "ĠĠĠyiĠ": 1082,
      "jieĠmuĠ": 1083,
      "renĠshiĠ": 1084,
      "00": 1085,
      "xiĠyaĠ": 1086,
      "ĠP": 1087,
      "zaiĠ19": 1088,
      "yuĠyanĠ": 1089,
      "naoĠ": 1090,
      "jueĠseĠ": 1091,
      "ĠaoĠ": 1092,
      "mingĠdeĠ": 1093,
      "ĠhuĠ": 1094,
      "gongĠchengĠ": 1095,
      "fenĠweiĠ": 1096,
      "ruanĠ": 1097,
      "jianĠliĠ": 1098,
      "ĠfengĠ": 1099,
      "kuiĠ": 1100,
      "lianĠmengĠ": 1101,
      "deĠzhuĠ": 1102,
      "xingĠweiĠ": 1103,
      "heĠzuoĠ": 1104,
      "shuĠjuĠ": 1105,
      "6ĠyueĠ": 1106,
      "Ġ194": 1107,
      "ol": 1108,
      "zhiĠdaoĠ": 1109,
      "chanĠshengĠ": 1110,
      "keĠsiĠ": 1111,
      "yiĠzhongĠ": 1112,
      "daĠdaoĠ": 1113,
      "ĠpingĠ": 1114,
      "gongĠyouĠ": 1115,
      "diĠsanĠ": 1116,
      "sangĠ": 1117,
      "qiĠzhongĠ": 1118,
      "jiaoĠtongĠ": 1119,
      "buĠduiĠ": 1120,
      "zaiĠciĠ": 1121,
      "4ĠyueĠ": 1122,
      "ĠmeiĠguoĠ": 1123,
      "teĠbieĠ": 1124,
      "leiĠsiĠ": 1125,
      "laiĠdeĠ": 1126,
      "xiaoĠshiĠ": 1127,
      "zheĠgeĠ": 1128,
      "yuanĠdeĠ": 1129,
      "ĠwanĠ": 1130,
      "xiĠlieĠ": 1131,
      "ou": 1132,
      "xingĠdongĠ": 1133,
      "ĠguangĠ": 1134,
      "yiĠdeĠ": 1135,
      "nanĠbuĠ": 1136,
      "ĠD": 1137,
      "ĠranĠerĠ": 1138,
      "ĠmianĠjiĠ": 1139,
      "youĠxianĠ": 1140,
      "shiĠzhiĠ": 1141,
      "th": 1142,
      "dieĠ": 1143,
      "yuĠ201": 1144,
      "weiĠjiĠ": 1145,
      "yĠ": 1146,
      "lianĠsaiĠ": 1147,
      "zuiĠgaoĠ": 1148,
      "niaoĠ": 1149,
      "gaoĠduĠ": 1150,
      "shengĠyuĠ": 1151,
      "chuĠbanĠ": 1152,
      "zhuĠxiĠ": 1153,
      "ĠbingĠqieĠ": 1154,
      "2ĠriĠ": 1155,
      "Ġ7": 1156,
      "yiĠqiĠ": 1157,
      "minĠzhuĠ": 1158,
      "zhĠ": 1159,
      "zuiĠhouĠ": 1160,
      "xiangĠmuĠ": 1161,
      "ĠĠĠgaiĠ": 1162,
      "9ĠriĠ": 1163,
      "tongĠzhiĠ": 1164,
      "dĠ": 1165,
      "jiĠshiĠ": 1166,
      "zhuĠjiaoĠ": 1167,
      "mianĠjiĠweiĠ": 1168,
      "ĠnianĠ1ĠyueĠ": 1169,
      "quĠweiĠ": 1170,
      "zengĠjiaĠ": 1171,
      "chaoĠguoĠ": 1172,
      "ĠshanĠ": 1173,
      "ĠduĠ": 1174,
      "geĠrenĠ": 1175,
      "fuĠjinĠ": 1176,
      "yingĠdeĠ": 1177,
      "dangĠshiĠ": 1178,
      "shengĠchanĠ": 1179,
      "yeĠshiĠ": 1180,
      "zuĠchengĠ": 1181,
      "duĠliĠ": 1182,
      "raoĠ": 1183,
      "zhuoĠ": 1184,
      "ĠzheĠxieĠ": 1185,
      "chaiĠ": 1186,
      "yongĠyuĠ": 1187,
      "kongĠzhiĠ": 1188,
      "ĠtongĠnianĠ": 1189,
      "ĠrenĠkouĠ": 1190,
      "Ġ8": 1191,
      "deĠyouĠ": 1192,
      "jieĠgouĠ": 1193,
      "ĠsuĠ": 1194,
      "xianĠzhiĠ": 1195,
      "xueĠxiĠ": 1196,
      "Ġ195": 1197,
      "lianĠheĠ": 1198,
      "ĠjiaoĠ": 1199,
      "ĠzuoĠ": 1200,
      "ĠtaĠzaiĠ": 1201,
      "geĠquĠ": 1202,
      "wuĠkeĠlanĠ": 1203,
      "14": 1204,
      "shouĠciĠ": 1205,
      "diĠfangĠ": 1206,
      "daoĠzhiĠ": 1207,
      "diĠguoĠ": 1208,
      "yongĠyouĠ": 1209,
      "onĠĠĠ": 1210,
      "deĠrenĠ": 1211,
      "ĠgtĠ": 1212,
      "ĠbanĠ": 1213,
      "jiĠluĠ": 1214,
      "siĠkeĠ": 1215,
      "Ġ9": 1216,
      "dongĠwuĠ": 1217,
      "13": 1218,
      "ĠgenĠjuĠ": 1219,
      "jieĠshuĠ": 1220,
      "AĠ": 1221,
      "chuanĠtongĠ": 1222,
      "jiĠyuĠ": 1223,
      "ĠnianĠ12ĠyueĠ": 1224,
      "quĠshiĠ": 1225,
      "Ġ197": 1226,
      "oĠĠĠ": 1227,
      "haiĠjunĠ": 1228,
      "deĠgongĠ": 1229,
      "ĠchenĠ": 1230,
      "yaoĠqiuĠ": 1231,
      "jinĠshiĠ": 1232,
      "hangĠkongĠ": 1233,
      "souĠ": 1234,
      "ĠhuangĠ": 1235,
      "shuĠliangĠ": 1236,
      "weiĠerĠ": 1237,
      "ĠpuĠ": 1238,
      "jiĠxuĠ": 1239,
      "il": 1240,
      "zhiĠqianĠ": 1241,
      "ĠĠĠS": 1242,
      "ĠhouĠlaiĠ": 1243,
      "kenĠ": 1244,
      "ĠltĠ": 1245,
      "ĠzeĠ": 1246,
      "ĠbiaoĠ": 1247,
      "deĠdaĠ": 1248,
      "jiĠzhongĠ": 1249,
      "buĠyuĠ": 1250,
      "fanĠyingĠ": 1251,
      "yiĠshuĠ": 1252,
      "ĠyaĠ": 1253,
      "juĠyouĠ": 1254,
      "ĠzuiĠzhongĠ": 1255,
      "shiĠyuĠ": 1256,
      "deĠfuĠ": 1257,
      "ac": 1258,
      "tengĠ": 1259,
      "ziĠzhiĠ": 1260,
      "geĠmingĠ": 1261,
      "jiĠtuanĠ": 1262,
      "dangĠdiĠ": 1263,
      "50Ġ": 1264,
      "yiĠciĠ": 1265,
      "jiuĠshiĠ": 1266,
      "ĠzhiĠhouĠ": 1267,
      "shengĠjiĠ": 1268,
      "pangĠ": 1269,
      "yiĠhuiĠ": 1270,
      "ĠdanĠshiĠ": 1271,
      "rouĠ": 1272,
      "yiĠbuĠ": 1273,
      "shiĠdaiĠ": 1274,
      "zhiĠchuĠ": 1275,
      "ĠE": 1276,
      "keĠxueĠ": 1277,
      "ĠkaĠ": 1278,
      "198": 1279,
      "ĠbingĠzaiĠ": 1280,
      "neiĠrongĠ": 1281,
      "geĠlanĠ": 1282,
      "chongĠxinĠ": 1283,
      "jiĠgouĠ": 1284,
      "guoĠminĠ": 1285,
      "fouĠ": 1286,
      "2019ĠnianĠ": 1287,
      "ĠwenĠ": 1288,
      "ĠriĠbenĠ": 1289,
      "ĠyangĠ": 1290,
      "Ġ15": 1291,
      "daoĠleĠ": 1292,
      "ĠyaoĠ": 1293,
      "junĠduiĠ": 1294,
      "ĠciĠwaiĠ": 1295,
      "biĠyeĠ": 1296,
      "om": 1297,
      "guĠshiĠ": 1298,
      "fanĠweiĠ": 1299,
      "zhiĠweiĠ": 1300,
      "luoĠmaĠ": 1301,
      "meiĠtiĠ": 1302,
      "30Ġ": 1303,
      "liĠyuĠ": 1304,
      "ĠH": 1305,
      "ĠtuĠ": 1306,
      "jiĠqiĠ": 1307,
      "chuangĠzuoĠ": 1308,
      "ĠhaoĠ": 1309,
      "xingĠxingĠ": 1310,
      "at": 1311,
      "anĠquanĠ": 1312,
      "cuĠ": 1313,
      "deĠxinĠ": 1314,
      "fenĠbieĠ": 1315,
      "jiĠchangĠ": 1316,
      "faĠbuĠ": 1317,
      "si": 1318,
      "Ġ16": 1319,
      "yiĠxieĠ": 1320,
      "nvĠziĠ": 1321,
      "ĠshiĠweiĠyuĠ": 1322,
      "ĠbuĠguoĠ": 1323,
      "ĠshuĠyuĠ": 1324,
      "yuĠshiĠ": 1325,
      "banĠyaĠ": 1326,
      "diĠsiĠ": 1327,
      "zaoĠchengĠ": 1328,
      "deĠxiaoĠ": 1329,
      "zhiĠhuiĠ": 1330,
      "diaoĠchaĠ": 1331,
      "ĠcaiĠ": 1332,
      "ĠkaiĠ": 1333,
      "ĠqieĠ": 1334,
      "ĠnianĠ10ĠyueĠ": 1335,
      "ziĠjiĠdeĠ": 1336,
      "ĠlinĠ": 1337,
      "diĠshiĠ": 1338,
      "yunĠdongĠyuanĠ": 1339,
      "Ġ193": 1340,
      "ĠL": 1341,
      "jiaoĠshouĠ": 1342,
      "ĠzhuĠyaoĠ": 1343,
      "tongĠchangĠ": 1344,
      "ĠnaĠ": 1345,
      "yiĠsiĠ": 1346,
      "chengĠjiĠ": 1347,
      "zhiĠyeĠ": 1348,
      "biaoĠzhunĠ": 1349,
      "zunĠ": 1350,
      "wuĠfaĠ": 1351,
      "Ġ196": 1352,
      "neiĠdeĠ": 1353,
      "ĠzhongĠhuaĠ": 1354,
      "lingĠdaoĠ": 1355,
      "ĠsheĠ": 1356,
      "ĠR": 1357,
      "deĠshengĠ": 1358,
      "tuiĠchuĠ": 1359,
      "guaĠ": 1360,
      "huanĠjingĠ": 1361,
      "ĠzhaoĠ": 1362,
      "tiĠyuĠ": 1363,
      "shiĠzhongĠ": 1364,
      "gongĠjiĠ": 1365,
      "xuanĠzeĠ": 1366,
      "yiĠlaiĠ": 1367,
      "xingĠchengĠ": 1368,
      "12Ġ": 1369,
      "juĠminĠ": 1370,
      "zuiĠzhongĠ": 1371,
      "fangĠfaĠ": 1372,
      "ĠtaĠdeĠ": 1373,
      "nanĠziĠ": 1374,
      "maĠweiĠ": 1375,
      "kuaĠ": 1376,
      "ĠmiĠ": 1377,
      "minĠzuĠ": 1378,
      "jiaĠzuĠ": 1379,
      "ĠzhĠ": 1380,
      "shiĠheĠ": 1381,
      "youĠguanĠ": 1382,
      "foĠ": 1383,
      "zhuĠrenĠ": 1384,
      "youĠjiĠ": 1385,
      "houĠdeĠ": 1386,
      "jueĠsaiĠ": 1387,
      "meĠ": 1388,
      "Ġãĥ": 1389,
      "ĠN": 1390,
      "ĠgengĠ": 1391,
      "di": 1392,
      "xinĠdeĠ": 1393,
      "ĠxuĠ": 1394,
      "gongĠshiĠ": 1395,
      "keĠdeĠ": 1396,
      "yuĠdeĠ": 1397,
      "wuĠguanĠ": 1398,
      "of": 1399,
      "juĠbanĠ": 1400,
      "ĠG": 1401,
      "nvĠxingĠ": 1402,
      "yaĠliĠ": 1403,
      "gongĠchanĠ": 1404,
      "nieĠ": 1405,
      "zheĠyiĠ": 1406,
      "jiĠweiĠ": 1407,
      "zhiĠjieĠ": 1408,
      "ĠĠĠdiĠliĠ": 1409,
      "gongĠluĠ": 1410,
      "zhongĠhuaĠrenĠminĠgongĠheĠguoĠ": 1411,
      "ziĠliaoĠ": 1412,
      "tiĠchuĠ": 1413,
      "TĠ": 1414,
      "zhiĠxingĠ": 1415,
      "faĠyuanĠ": 1416,
      "duiĠyuĠ": 1417,
      "lianĠbangĠ": 1418,
      "ĠdangĠshiĠ": 1419,
      "qiĠyeĠ": 1420,
      "zhiĠyouĠ": 1421,
      "gaiĠbianĠ": 1422,
      "xieĠhuiĠ": 1423,
      "hanĠguoĠ": 1424,
      "lianĠjieĠ": 1425,
      "Ġh": 1426,
      "dongĠhuaĠ": 1427,
      "zhiĠyuĠ": 1428,
      "mingĠchengĠ": 1429,
      "ĠsuiĠranĠ": 1430,
      "buĠzhangĠ": 1431,
      "jianĠyuĠ": 1432,
      "erĠĠĠ": 1433,
      "xiaĠdeĠ": 1434,
      "ĠzhenĠ": 1435,
      "ĠquĠ": 1436,
      "ĠzuĠ": 1437,
      "ï¼į": 1438,
      "ĠĠĠbenĠ": 1439,
      "xinĠwenĠ": 1440,
      "ĠF": 1441,
      "jiĠnianĠ": 1442,
      "daĠliangĠ": 1443,
      "neĠ": 1444,
      "yinĠhangĠ": 1445,
      "aĠĠĠ": 1446,
      "ĠniĠ": 1447,
      "ĠnianĠ11ĠyueĠ": 1448,
      "ĠlaiĠ": 1449,
      "zhanĠshiĠ": 1450,
      "rĠ": 1451,
      "faĠbiaoĠ": 1452,
      "feiĠchangĠ": 1453,
      "jingĠliĠ": 1454,
      "ĠhaĠ": 1455,
      "ĠĠĠ199": 1456,
      "deĠwuĠ": 1457,
      "shangĠyeĠ": 1458,
      "erĠnianĠ": 1459,
      "yiĠbanĠ": 1460,
      "ĠyunĠ": 1461,
      "sanĠnianĠ": 1462,
      "ĠzhuanĠ": 1463,
      "xiĠdeĠ": 1464,
      "weiĠqiĠ": 1465,
      "gongĠyeĠ": 1466,
      "ĠfangĠ": 1467,
      "chuĠliĠ": 1468,
      "guanĠxiaĠ": 1469,
      "yanĠchangĠ": 1470,
      "zhouĠdeĠ": 1471,
      "fanĠduiĠ": 1472,
      "mieĠ": 1473,
      "tunĠ": 1474,
      "zhanĠdouĠ": 1475,
      "et": 1476,
      "erĠsiĠ": 1477,
      "Ġ10": 1478,
      "heĠwuĠ": 1479,
      "banĠbenĠ": 1480,
      "weiĠshiĠ": 1481,
      "ĠtaiĠwanĠ": 1482,
      "jianĠsheĠ": 1483,
      "shengĠwuĠ": 1484,
      "ĠhongĠ": 1485,
      "ĠzhouĠ": 1486,
      "gongĠkaiĠ": 1487,
      "xianĠdaiĠ": 1488,
      "deĠyuanĠ": 1489,
      "ĠguiĠ": 1490,
      "jiangĠjunĠ": 1491,
      "leĠbuĠ": 1492,
      "gaoĠsuĠ": 1493,
      "baĠshiĠ": 1494,
      "weiĠzhuĠ": 1495,
      "shenĠfenĠ": 1496,
      "daĠshiĠ": 1497,
      "ĠmuĠqianĠ": 1498,
      "youĠshiĠ": 1499,
      "zhiĠyuanĠ": 1500,
      "mĠ": 1501,
      "zongĠjiaoĠ": 1502,
      "fuĠdeĠ": 1503,
      "ow": 1504,
      "jiaĠtingĠ": 1505,
      "zhengĠceĠ": 1506,
      "shengĠyaĠ": 1507,
      "ĠleiĠ": 1508,
      "Ġ2Ġ": 1509,
      "ati": 1510,
      "ĠxieĠ": 1511,
      "jieĠguoĠ": 1512,
      "Ġ17": 1513,
      "aĠerĠ": 1514,
      "erĠziĠ": 1515,
      "197": 1516,
      "xianĠzaiĠ": 1517,
      "zhuĠjianĠ": 1518,
      "puĠchaĠ": 1519,
      "11Ġ": 1520,
      "zhengĠzhiĠrenĠwuĠ": 1521,
      "huaĠdeĠ": 1522,
      "wanĠquanĠ": 1523,
      "ĠxiangĠgangĠ": 1524,
      "pingĠjunĠ": 1525,
      "naĠdaĠ": 1526,
      "kĠ": 1527,
      "nv": 1528,
      "duoĠdeĠ": 1529,
      "ĠlaĠ": 1530,
      "yuĠ200": 1531,
      "saiĠshiĠ": 1532,
      "ĠrenĠkouĠmiĠduĠ": 1533,
      "huiĠfuĠ": 1534,
      "qiĠyuĠ": 1535,
      "ĠĠĠM": 1536,
      "ec": 1537,
      "ĠsuoĠyiĠ": 1538,
      "ĠchaoĠ": 1539,
      "baĠgaoĠduĠ": 1540,
      "shiĠchangĠ": 1541,
      "jianĠzhiĠ": 1542,
      "ĠtangĠ": 1543,
      "daĠhuiĠ": 1544,
      "zhongĠgongĠ": 1545,
      "waiĠjiaoĠ": 1546,
      "liĠyongĠ": 1547,
      "ĠJ": 1548,
      "ĠĠĠC": 1549,
      "ĠĠĠrenĠkouĠ": 1550,
      "nengĠgouĠ": 1551,
      "weiĠrenĠ": 1552,
      "weiĠdeĠ": 1553,
      "paiĠsheĠ": 1554,
      "buĠzaiĠ": 1555,
      "ĠdouĠ": 1556,
      "Ġc": 1557,
      "zheĠzhongĠ": 1558,
      "jianĠyiĠ": 1559,
      "lengĠ": 1560,
      "tuanĠtiĠ": 1561,
      "zhongĠxueĠ": 1562,
      "fangĠxiangĠ": 1563,
      "jiĠzaiĠ": 1564,
      "jingĠneiĠ": 1565,
      "es": 1566,
      "ĠãĤ": 1567,
      "2ĠyueĠ2": 1568,
      "jingĠguoĠ": 1569,
      "15Ġ": 1570,
      "siĠwangĠ": 1571,
      "guiĠmoĠ": 1572,
      "ĠjunĠ": 1573,
      "geĠzhongĠ": 1574,
      "gaiĠguoĠ": 1575,
      "xiaoĠshuoĠ": 1576,
      "ziĠranĠ": 1577,
      "dingĠdeĠ": 1578,
      "Ġãģ": 1579,
      "sheĠshiĠ": 1580,
      "sheĠliĠ": 1581,
      "ra": 1582,
      "meiĠyuanĠ": 1583,
      "SĠ": 1584,
      "bianĠmaĠweiĠ": 1585,
      "guoĠchengĠ": 1586,
      "deĠyiĠgeĠshiĠzhenĠ": 1587,
      "yuanĠshiĠ": 1588,
      "mangĠ": 1589,
      "wenĠxueĠ": 1590,
      "chiĠxuĠ": 1591,
      "la": 1592,
      "guanĠyuĠ": 1593,
      "bingĠbuĠ": 1594,
      "jieĠshiĠ": 1595,
      "gongĠtongĠ": 1596,
      "youĠdeĠ": 1597,
      "erĠshengĠ": 1598,
      "ĠxueĠmingĠ": 1599,
      "ĠzheĠshiĠ": 1600,
      "zuoĠyongĠ": 1601,
      "renĠleiĠ": 1602,
      "miaoĠshuĠ": 1603,
      "ĠĠĠgenĠjuĠ": 1604,
      "wenĠwuĠ": 1605,
      "gaiĠweiĠ": 1606,
      "deĠshouĠ": 1607,
      "ĠzuoĠweiĠ": 1608,
      "biaoĠxianĠ": 1609,
      "qiuĠyuanĠ": 1610,
      "Ġ000Ġ": 1611,
      "niuĠyueĠ": 1612,
      "ãĢī": 1613,
      "ãĢĪ": 1614,
      "wuĠzhongĠ": 1615,
      "yaĠzhouĠ": 1616,
      "siĠdeĠ": 1617,
      "taiĠbeiĠ": 1618,
      "ĠĠĠshiĠ": 1619,
      "ĠĠĠciĠ": 1620,
      "qiĠhouĠ": 1621,
      "baoĠgaoĠ": 1622,
      "jinĠbiaoĠ": 1623,
      "ĠlingĠwaiĠ": 1624,
      "jiaoĠhuiĠ": 1625,
      "liĠfaĠ": 1626,
      "daĠquĠ": 1627,
      "yuĠyiĠ": 1628,
      "deĠhuaĠ": 1629,
      "liĠkaiĠ": 1630,
      "duoĠshuĠ": 1631,
      "rengĠranĠ": 1632,
      "houĠlaiĠ": 1633,
      "touĠguoĠ": 1634,
      "nengĠliĠ": 1635,
      "ic": 1636,
      "jieĠrangĠ": 1637,
      "paiĠmingĠ": 1638,
      "jieĠdaoĠ": 1639,
      "pĠ": 1640,
      "ziĠdeĠ": 1641,
      "ĠqueĠ": 1642,
      "xiangĠshiĠ": 1643,
      "ĠÐ": 1644,
      "faĠlvĠ": 1645,
      "chengĠrenĠ": 1646,
      "yanĠyuanĠ": 1647,
      "boĠshiĠ": 1648,
      "jiĠyiĠ": 1649,
      "jiĠheĠ": 1650,
      "yanĠchuĠ": 1651,
      "DĠ": 1652,
      "suĠlianĠ": 1653,
      "lingĠshiĠ": 1654,
      "wuĠshiĠ": 1655,
      "biĠxuĠ": 1656,
      "reĠdaiĠ": 1657,
      "deĠheĠ": 1658,
      "ĠzuiĠhouĠ": 1659,
      "xiangĠtongĠ": 1660,
      "ĠmaiĠ": 1661,
      "ĠbingĠyuĠ": 1662,
      "baoĠdaoĠ": 1663,
      "renĠkouĠpuĠchaĠ": 1664,
      "sanĠgeĠ": 1665,
      "shuiĠyuĠ": 1666,
      "ĠkeĠyiĠ": 1667,
      "liĠlunĠ": 1668,
      "yangĠdeĠ": 1669,
      "xiĠbuĠ": 1670,
      "muĠqianĠ": 1671,
      "wuĠyuanĠ": 1672,
      "xiĠbanĠyaĠ": 1673,
      "chuiĠ": 1674,
      "ĠruĠguoĠ": 1675,
      "kongĠjianĠ": 1676,
      "yiĠmingĠ": 1677,
      "mengĠguĠ": 1678,
      "xingĠzhengĠquĠ": 1679,
      "it": 1680,
      "gongĠchanĠdangĠ": 1681,
      "zhongĠguoĠdaĠluĠ": 1682,
      "jiaĠdeĠ": 1683,
      "quanĠliĠ": 1684,
      "yunĠdongĠhuiĠ": 1685,
      "jinĠdeĠ": 1686,
      "luĠxianĠ": 1687,
      "ĠshaĠ": 1688,
      "zhengĠyiĠ": 1689,
      "sanĠshiĠ": 1690,
      "ĠyeĠshiĠ": 1691,
      "le": 1692,
      "gongĠgongĠ": 1693,
      "juĠliĠ": 1694,
      "40Ġ": 1695,
      "jieĠduanĠ": 1696,
      "guangĠboĠ": 1697,
      "196": 1698,
      "dianĠziĠ": 1699,
      "xiaĠjiĠ": 1700,
      "xunĠlianĠ": 1701,
      "ĠĠĠA": 1702,
      "kengĠ": 1703,
      "ĠzhiĠdaoĠ": 1704,
      "douĠshiĠ": 1705,
      "geĠshouĠ": 1706,
      "194": 1707,
      "danĠquĠ": 1708,
      "piĠpingĠ": 1709,
      "guanĠfangĠ": 1710,
      "zhongĠshiĠ": 1711,
      "jieĠfangĠ": 1712,
      "ĠK": 1713,
      "ĠĠĠweiĠ": 1714,
      "zaiĠdiĠ": 1715,
      "2ĠyueĠ1": 1716,
      "yueĠtaiĠ": 1717,
      "laĠsiĠ": 1718,
      "guoĠwangĠ": 1719,
      "bianĠhuaĠ": 1720,
      "heĠbingĠ": 1721,
      "zhiĠzaoĠ": 1722,
      "haoĠdeĠ": 1723,
      "siĠlingĠ": 1724,
      "dongĠbeiĠ": 1725,
      "chengĠduĠ": 1726,
      "baoĠhanĠ": 1727,
      "20ĠriĠ": 1728,
      "muĠsiĠ": 1729,
      "theĠĠĠ": 1730,
      "ĠzheĠgeĠ": 1731,
      "siĠnianĠ": 1732,
      "ĠsuiĠhouĠ": 1733,
      "shengĠdeĠ": 1734,
      "âĢĵ": 1735,
      "deĠyiĠbuĠfenĠ": 1736,
      "daĠzhanĠ": 1737,
      "boĠwuĠguanĠ": 1738,
      "guoĠdeĠ": 1739,
      "zhuanĠyeĠ": 1740,
      "zhiĠjianĠdeĠ": 1741,
      "aoĠyunĠ": 1742,
      "chanĠpinĠ": 1743,
      "keĠjiĠ": 1744,
      "fengĠgeĠ": 1745,
      "saiĠjiĠ": 1746,
      "muĠbiaoĠ": 1747,
      "gongĠbuĠ": 1748,
      "zaoĠqiĠ": 1749,
      "lunĠdunĠ": 1750,
      "weiĠyouĠ": 1751,
      "zuiĠjiaĠ": 1752,
      "25": 1753,
      "ĠdangĠdiĠ": 1754,
      "ĠerĠqieĠ": 1755,
      "dongĠjiĠ": 1756,
      "0ĠriĠ": 1757,
      "ĠshuiĠ": 1758,
      "yiĠbeiĠ": 1759,
      "fuĠshiĠ": 1760,
      "dongĠbuĠ": 1761,
      "30ĠriĠ": 1762,
      "quanĠqiuĠ": 1763,
      "luĠjunĠ": 1764,
      "liĠxueĠ": 1765,
      "ĠneiĠ": 1766,
      "Ġ192": 1767,
      "buĠhuiĠ": 1768,
      "ĠchongĠ": 1769,
      "deĠweiĠ": 1770,
      "baoĠfaĠ": 1771,
      "jiĠdiĠ": 1772,
      "yiĠxiaĠ": 1773,
      "yanĠzhongĠ": 1774,
      "anĠdeĠ": 1775,
      "keĠliĠ": 1776,
      "ciĠshiĠ": 1777,
      "meiĠzhouĠ": 1778,
      "ĠxuanĠ": 1779,
      "kaiĠfangĠ": 1780,
      "changĠdeĠ": 1781,
      "ĠdiĠerĠ": 1782,
      "jinĠjiĠ": 1783,
      "Ġ20": 1784,
      "renĠzhiĠ": 1785,
      "zhuĠchiĠ": 1786,
      "ĠjinĠguanĠ": 1787,
      "âĢ¦": 1788,
      "xiĠjiĠ": 1789,
      "xiĠlaĠ": 1790,
      "ziĠgeĠ": 1791,
      "ĠĠĠ198": 1792,
      "xiĠbaoĠ": 1793,
      "100Ġ": 1794,
      "beiĠchengĠweiĠ": 1795,
      "qiĠyiĠ": 1796,
      "ĠW": 1797,
      "siĠtanĠ": 1798,
      "13Ġ": 1799,
      "piĠkeĠ": 1800,
      "ĠsongĠ": 1801,
      "zhouĠshiĠ": 1802,
      "ĠyuĠshiĠ": 1803,
      "mingĠmingĠ": 1804,
      "ĠpeiĠ": 1805,
      "liĠziĠ": 1806,
      "ur": 1807,
      "ĠdingĠ": 1808,
      "youĠxianĠgongĠsiĠ": 1809,
      "fuĠheĠ": 1810,
      "16Ġ": 1811,
      "2010ĠnianĠ": 1812,
      "qingĠnianĠ": 1813,
      "taĠzaiĠ": 1814,
      "haoĠxianĠ": 1815,
      "yuanĠyinĠ": 1816,
      "jiangĠqiĠ": 1817,
      "zheĠdeĠ": 1818,
      "siĠjiĠ": 1819,
      "UT": 1820,
      "siĠshiĠ": 1821,
      "daoĠshiĠ": 1822,
      "ĠeĠ": 1823,
      "ĠrangĠ": 1824,
      "dongĠshiĠ": 1825,
      "zhuĠtiĠ": 1826,
      "..": 1827,
      "shanĠxiĠ": 1828,
      "xiangĠdangĠ": 1829,
      "ĠĠĠjuĠ": 1830,
      "chuĠyuĠ": 1831,
      "yinĠciĠ": 1832,
      "dongĠjingĠ": 1833,
      "yingĠyongĠ": 1834,
      "yuĠ199": 1835,
      "Ġ3Ġ": 1836,
      "xiangĠdeĠ": 1837,
      "gaiĠnianĠ": 1838,
      "liĠjiĠ": 1839,
      "Ġ14": 1840,
      "qiĠziĠ": 1841,
      "gongĠnengĠ": 1842,
      "henĠduoĠ": 1843,
      "heĠyiĠ": 1844,
      "guiĠdingĠ": 1845,
      "xinĠxiĠ": 1846,
      "ĠganĠ": 1847,
      "diĠweiĠ": 1848,
      "buĠmenĠ": 1849,
      "nongĠyeĠ": 1850,
      "dengĠrenĠ": 1851,
      "ĠĠĠP": 1852,
      "ĠĠĠT": 1853,
      "zaiĠyiĠ": 1854,
      "ĠĠĠnianĠ": 1855,
      "guiĠdaoĠ": 1856,
      "diĠliĠ": 1857,
      "60Ġ": 1858,
      "zaoĠdaoĠ": 1859,
      "moĠshiĠ": 1860,
      "ĠyueĠ15ĠriĠ": 1861,
      "jiĠchuĠ": 1862,
      "aiĠerĠ": 1863,
      "jiĠjinĠ": 1864,
      "jieĠchuĠ": 1865,
      "jieĠheĠ": 1866,
      "195": 1867,
      "jieĠdeĠ": 1868,
      "sheĠquĠ": 1869,
      "ĠchuanĠ": 1870,
      "dongĠnanĠ": 1871,
      "mingĠziĠ": 1872,
      "aoĠlinĠ": 1873,
      "diĠyiĠciĠ": 1874,
      "fenĠzhongĠ": 1875,
      "buĠnengĠ": 1876,
      "14Ġ": 1877,
      "deĠzhongĠ": 1878,
      "haoĠmiĠ": 1879,
      "xingĠqiĠ": 1880,
      "tongĠnianĠ": 1881,
      "shiĠrenĠ": 1882,
      "daĠbuĠfenĠ": 1883,
      "xiaĠxiaĠ": 1884,
      "ĠkangĠ": 1885,
      "fuĠqinĠ": 1886,
      "touĠziĠ": 1887,
      "geĠyueĠ": 1888,
      "taiĠpingĠ": 1889,
      "gaiĠgeĠ": 1890,
      "penĠ": 1891,
      "ĠĠĠyouĠ": 1892,
      "zhongĠhuaĠminĠguoĠ": 1893,
      "18Ġ": 1894,
      "deĠsiĠ": 1895,
      "ĠtaĠcengĠ": 1896,
      "shiĠliĠ": 1897,
      "ĠteĠ": 1898,
      "shiĠquĠ": 1899,
      "boĠlanĠ": 1900,
      "chaoĠxianĠ": 1901,
      "shiĠyeĠ": 1902,
      "bianĠdeĠ": 1903,
      "as": 1904,
      "jianĠchaĠ": 1905,
      "ĠĠĠ194": 1906,
      "ĠweiĠleĠ": 1907,
      "zhiĠzaiĠ": 1908,
      "ĠqiĠhouĠ": 1909,
      "jiĠbaiĠ": 1910,
      "jingĠchaĠ": 1911,
      "wangĠluoĠ": 1912,
      "gongĠchiĠ": 1913,
      "maĠliĠ": 1914,
      "19ĠriĠ": 1915,
      "yueĠhanĠ": 1916,
      "shiĠxianĠ": 1917,
      "ĠyueĠ28ĠriĠ": 1918,
      "ĠdanĠzaiĠ": 1919,
      "jianĠzaoĠ": 1920,
      "canĠsaiĠ": 1921,
      "yiĠdaiĠ": 1922,
      "ĠshiĠweiĠyuĠmeiĠguoĠ": 1923,
      "shiĠxingĠ": 1924,
      "zhongĠbuĠ": 1925,
      "Ġs": 1926,
      "saiĠerĠ": 1927,
      "fangĠdeĠ": 1928,
      "shangĠshuĠ": 1929,
      "ĠminĠ": 1930,
      "boĠteĠ": 1931,
      "ziĠyuanĠ": 1932,
      "juĠzhuĠ": 1933,
      "ĠhaiĠbaĠgaoĠduĠ": 1934,
      "ĠĠĠB": 1935,
      "ĠwaiĠ": 1936,
      "guiĠhuaĠ": 1937,
      "xiĠwangĠ": 1938,
      "boĠchuĠ": 1939,
      "xueĠzheĠ": 1940,
      "dangĠxuanĠ": 1941,
      "tuĠdiĠ": 1942,
      "jingĠyingĠ": 1943,
      "jiĠsuanĠ": 1944,
      "jinĠbiaoĠsaiĠ": 1945,
      "guanĠyuanĠ": 1946,
      "yeĠyouĠ": 1947,
      "ir": 1948,
      "un": 1949,
      "aĠlaĠ": 1950,
      "pingĠlunĠ": 1951,
      "jieĠzhiĠ": 1952,
      "dengĠdiĠ": 1953,
      "Ġt": 1954,
      "taiĠyangĠ": 1955,
      "fenĠbuĠ": 1956,
      "jiaĠnaĠdaĠ": 1957,
      "keĠdaĠ": 1958,
      "ĠmengĠ": 1959,
      "baoĠchiĠ": 1960,
      "ĠdangĠzhongĠ": 1961,
      "nanĠshengĠ": 1962,
      "yiĠyangĠ": 1963,
      "biĠyaĠ": 1964,
      "diĠqiĠ": 1965,
      "PĠ": 1966,
      "xiangĠduiĠ": 1967,
      "sheĠbeiĠ": 1968,
      "guangĠdongĠ": 1969,
      "ĠyingĠguoĠ": 1970,
      "juĠleĠbuĠ": 1971,
      "miĠdeĠ": 1972,
      "Ġ2001ĠnianĠ": 1973,
      "UTCĠ": 1974,
      "zhiĠduĠ": 1975,
      "xueĠweiĠ": 1976,
      "baĠliĠ": 1977,
      "cheĠliangĠ": 1978,
      "zhiĠfuĠ": 1979,
      "yuanĠzhuĠ": 1980,
      "xiĠbeiĠ": 1981,
      "maĠlaiĠ": 1982,
      "dingĠyiĠ": 1983,
      "suĠduĠ": 1984,
      "ĠyueĠ10ĠriĠ": 1985,
      "wuĠxianĠ": 1986,
      "diĠxiaĠ": 1987,
      "25Ġ": 1988,
      "aoĠlinĠpiĠkeĠ": 1989,
      "zhengĠdeĠ": 1990,
      "tongĠjiĠ": 1991,
      "zhuangĠtaiĠ": 1992,
      "ĠranĠhouĠ": 1993,
      "31ĠriĠ": 1994,
      "tiĠdeĠ": 1995,
      "xiaoĠdeĠ": 1996,
      "shiĠchuĠ": 1997,
      "weiĠmeiĠ": 1998,
      "xiĠnanĠ": 1999,
      "manĠhuaĠ": 2000,
      "Ġ5Ġ": 2001,
      "zhangĠdeĠ": 2002,
      "zuĠheĠ": 2003,
      "pingĠjiaĠ": 2004,
      "fenĠziĠ": 2005,
      "ĠyueĠ25ĠriĠ": 2006,
      "pinĠdaoĠ": 2007,
      "jiĠduĠ": 2008,
      "jiĠbenĠ": 2009,
      "24": 2010,
      "dianĠshiĠtaiĠ": 2011,
      "ĠĠĠ18": 2012,
      "yiĠyiĠ": 2013,
      "guangĠchangĠ": 2014,
      "deĠshiĠquĠweiĠ": 2015,
      "shuĠguanĠ": 2016,
      "jianĠchengĠ": 2017,
      "shiĠshangĠ": 2018,
      "yuĠzhongĠ": 2019,
      "liĠkeĠ": 2020,
      "wuĠdeĠ": 2021,
      "touĠpiaoĠ": 2022,
      "shengĠmingĠ": 2023,
      "ĠheiĠ": 2024,
      "zuiĠdaĠ": 2025,
      "luĠdiĠ": 2026,
      "Ġ4Ġ": 2027,
      "em": 2028,
      "ĠchiĠ": 2029,
      "zhanĠkaiĠ": 2030,
      "erĠbeiĠ": 2031,
      "tiaoĠjianĠ": 2032,
      "daoĠyanĠ": 2033,
      "liĠweiĠ": 2034,
      "oo": 2035,
      "ĠzhongĠhuaĠrenĠminĠgongĠheĠguoĠ": 2036,
      "shenĠzhiĠ": 2037,
      "ĠjianĠchengĠ": 2038,
      "yuĠ202": 2039,
      "daoĠluĠ": 2040,
      "50": 2041,
      "haiĠshiĠ": 2042,
      "taĠmenĠdeĠ": 2043,
      "ĠO": 2044,
      "jianĠduiĠ": 2045,
      "zhiĠzhongĠ": 2046,
      "fenĠleiĠ": 2047,
      "qunĠdaoĠ": 2048,
      "zuoĠjiaĠ": 2049,
      "ĠzheĠzhongĠ": 2050,
      "ĠlaoĠ": 2051,
      "zuoĠyouĠ": 2052,
      "biaoĠyanĠ": 2053,
      "ĠpiĠ": 2054,
      "shangĠshiĠ": 2055,
      "daĠxingĠ": 2056,
      "shouĠduĠ": 2057,
      "ĠyiĠgeĠ": 2058,
      "xianĠrenĠ": 2059,
      "ĠĠĠtaĠ": 2060,
      "shengĠliĠ": 2061,
      "ĠhuanĠ": 2062,
      "zhiĠjinĠ": 2063,
      "xuanĠshouĠ": 2064,
      "fenĠxiĠ": 2065,
      "duoĠciĠ": 2066,
      "huiĠzaiĠ": 2067,
      "buĠtongĠdeĠ": 2068,
      "liĠfuĠ": 2069,
      "zhunĠbeiĠ": 2070,
      "Ġ1Ġ": 2071,
      "ĠsaĠ": 2072,
      "qingĠkuangĠxiaĠ": 2073,
      "jiaĠzhiĠ": 2074,
      "bangĠzhuĠ": 2075,
      "huiĠdeĠ": 2076,
      "juĠjueĠ": 2077,
      "ĠweiĠyuĠgaiĠguoĠ": 2078,
      "27": 2079,
      "zaĠzhiĠ": 2080,
      "huaĠxueĠ": 2081,
      "jiaoĠtangĠ": 2082,
      "cengĠjingĠ": 2083,
      "yuĠqiĠ": 2084,
      "yuanĠnianĠ": 2085,
      "ĠruoĠ": 2086,
      "shanĠdongĠ": 2087,
      "ĠshuangĠ": 2088,
      "feiĠjiĠ": 2089,
      "quanĠbuĠ": 2090,
      "guangĠfanĠ": 2091,
      "liuĠxingĠ": 2092,
      "ĠfenĠbieĠ": 2093,
      "sheĠzhiĠ": 2094,
      "zheĠjiangĠ": 2095,
      "yuĠ18": 2096,
      "fangĠanĠ": 2097,
      "jiaoĠyiĠ": 2098,
      "banĠdaoĠ": 2099,
      "suiĠranĠ": 2100,
      "haiĠbaĠ": 2101,
      "ĠyueĠ18ĠriĠ": 2102,
      "poĠhuaiĠ": 2103,
      "junĠdeĠ": 2104,
      "lianĠxiĠ": 2105,
      "faĠsheĠ": 2106,
      "changĠpianĠ": 2107,
      "EE": 2108,
      "ĠyiĠweiĠ": 2109,
      "beiĠerĠ": 2110,
      "yiĠhouĠ": 2111,
      "zhengĠquanĠ": 2112,
      "lianĠxuĠ": 2113,
      "nianĠdeĠ": 2114,
      "zhiĠdingĠ": 2115,
      "ĠerĠshiĠ": 2116,
      "St": 2117,
      "lingĠyuĠ": 2118,
      "geĠliĠ": 2119,
      "ĠĠĠjinĠ": 2120,
      "ĠxiongĠ": 2121,
      "zongĠheĠ": 2122,
      "23": 2123,
      "huiĠshiĠ": 2124,
      "teĠzhengĠ": 2125,
      "ĠqiangĠ": 2126,
      "jinĠgongĠ": 2127,
      "zuoĠzhanĠ": 2128,
      "Ġ190": 2129,
      "ub": 2130,
      "ĠkongĠ": 2131,
      "pingĠtaiĠ": 2132,
      "ĠshiĠyongĠ": 2133,
      "changĠshiĠ": 2134,
      "xianĠluĠ": 2135,
      "ĠlvĠ": 2136,
      "renĠkouĠshuĠliangĠ": 2137,
      "weiĠsiĠ": 2138,
      "jiaoĠshiĠ": 2139,
      "bianĠchengĠ": 2140,
      "29": 2141,
      "ĠyueĠ16ĠriĠ": 2142,
      "ĠtaĠshiĠ": 2143,
      "ĠdanĠrenĠ": 2144,
      "ĠbinĠ": 2145,
      "ziĠxunĠ": 2146,
      "ĠshiĠfaĠguoĠ": 2147,
      "daĠchengĠ": 2148,
      "ĠyueĠ26ĠriĠ": 2149,
      "zhongĠzhiĠ": 2150,
      "zhanĠlingĠ": 2151,
      "yiĠrenĠ": 2152,
      "deĠshiĠzhenĠ": 2153,
      "xiĠjuĠ": 2154,
      "nanĠxingĠ": 2155,
      "wangĠzhanĠ": 2156,
      "banĠdeĠ": 2157,
      "chuĠshengĠ": 2158,
      "ĠfenĠbuĠyuĠ": 2159,
      "ĠzaoĠ": 2160,
      "21Ġ": 2161,
      "daĠliĠyaĠ": 2162,
      "zhiĠmingĠ": 2163,
      "zhiĠxiaĠ": 2164,
      "ĠqiĠtaĠ": 2165,
      "leĠĠĠ": 2166,
      "ĠciĠhouĠ": 2167,
      "gaiĠdiĠ": 2168,
      "muĠdiĠ": 2169,
      "ĠyueĠ17ĠriĠ": 2170,
      "00ĠwanĠ": 2171,
      "fuĠjianĠ": 2172,
      "miĠerĠ": 2173,
      "weiĠleĠ": 2174,
      "zhuĠliĠ": 2175,
      "IĠ": 2176,
      "ĠdiaoĠ": 2177,
      "ĠÃ": 2178,
      "chengĠzhenĠ": 2179,
      "edĠĠĠ": 2180,
      "heĠshiĠ": 2181,
      "qiongĠ": 2182,
      "yiĠshangĠ": 2183,
      "ĠyueĠ12ĠriĠ": 2184,
      "inĠĠĠ": 2185,
      "heĠxinĠ": 2186,
      "yeĠwuĠ": 2187,
      "duoĠgeĠ": 2188,
      "erĠtongĠ": 2189,
      "biĠjiaoĠ": 2190,
      "28": 2191,
      "jiĠguanĠ": 2192,
      "ĠmanĠ": 2193,
      "20Ġ": 2194,
      "renĠzaiĠ": 2195,
      "huiĠdaoĠ": 2196,
      "liangĠdeĠ": 2197,
      "193": 2198,
      "ĠyueĠ11ĠriĠ": 2199,
      "ĠĠĠzhengĠzhiĠ": 2200,
      "xianĠfaĠ": 2201,
      "changĠqiĠ": 2202,
      "biĠdeĠ": 2203,
      "weiĠchiĠ": 2204,
      "Ġ191": 2205,
      "diĠyuĠ": 2206,
      "yinĠqiĠ": 2207,
      "fuĠzeĠguanĠxiaĠ": 2208,
      "oc": 2209,
      "ĠyueĠ24ĠriĠ": 2210,
      "ĠyueĠ29ĠriĠ": 2211,
      "ĠrenĠweiĠ": 2212,
      "diĠtieĠ": 2213,
      "yuanĠyuĠ": 2214,
      "ĠmianĠ": 2215,
      "deĠĠĠ": 2216,
      "muĠqinĠ": 2217,
      "ĠyueĠ21ĠriĠ": 2218,
      "esĠ": 2219,
      "jiaĠpoĠ": 2220,
      "ĠĠĠL": 2221,
      "meiĠguoĠrenĠkouĠpuĠchaĠ": 2222,
      "ĠyueĠ23ĠriĠ": 2223,
      "daĠchenĠ": 2224,
      "zaiĠ200": 2225,
      "xingĠzhiĠ": 2226,
      "diĠquĠdeĠ": 2227,
      "zuiĠdaĠdeĠ": 2228,
      "diĠqiuĠ": 2229,
      "17Ġ": 2230,
      "tiaoĠyueĠ": 2231,
      "daĠyueĠ": 2232,
      "ĠyueĠ27ĠriĠ": 2233,
      "haiĠyouĠ": 2234,
      "ĠcheĠ": 2235,
      "ĠĠĠyouĠyuĠ": 2236,
      "jingĠchangĠ": 2237,
      "jieĠjueĠ": 2238,
      "yiĠyouĠ": 2239,
      "suoĠshuĠdeĠ": 2240,
      "ĠyueĠ2ĠriĠ": 2241,
      "zhiĠwaiĠ": 2242,
      "zaiĠ201": 2243,
      "shouĠgeĠ": 2244,
      "nanĠjingĠ": 2245,
      "xuanĠchuanĠ": 2246,
      "weiĠshengĠ": 2247,
      "yingĠgeĠlanĠ": 2248,
      "xieĠyiĠ": 2249,
      "jiĠzheĠ": 2250,
      "zhiĠliĠ": 2251,
      "NS": 2252,
      "ĠyueĠ22ĠriĠ": 2253,
      "huoĠdeĠleĠ": 2254,
      "tianĠzhuĠjiaoĠ": 2255,
      "diĠyaĠ": 2256,
      "daĠlouĠ": 2257,
      "weiĠfuĠ": 2258,
      "24Ġ": 2259,
      "zhuĠshiĠ": 2260,
      "ĠlanĠ": 2261,
      "wuĠliĠ": 2262,
      "mingĠdanĠ": 2263,
      "quĠdaiĠ": 2264,
      "zuiĠchuĠ": 2265,
      "liuĠnianĠ": 2266,
      "ig": 2267,
      "zhengĠdangĠ": 2268,
      "tingĠzhiĠ": 2269,
      "is": 2270,
      "ĠĠformulaĠ": 2271,
      "keĠfuĠ": 2272,
      "ĠsaiĠ": 2273,
      "deĠshuĠjuĠ": 2274,
      "guoĠhuiĠ": 2275,
      "tieĠdaoĠ": 2276,
      "lingĠyiĠ": 2277,
      "neiĠbuĠ": 2278,
      "jiĠhuiĠ": 2279,
      "xianĠhouĠ": 2280,
      "deĠshiĠjianĠ": 2281,
      "yuanĠziĠ": 2282,
      "guanĠzhongĠ": 2283,
      "ĠgangĠ": 2284,
      "taoĠlunĠ": 2285,
      "ĠchuangĠ": 2286,
      "zhenĠquĠ": 2287,
      "zhanĠyiĠ": 2288,
      "jieĠjinĠ": 2289,
      "shuĠshiĠ": 2290,
      "zhengĠgeĠ": 2291,
      "ĠĠĠzheĠ": 2292,
      "ĠchuĠleĠ": 2293,
      "daĠfuĠ": 2294,
      "dianĠliĠ": 2295,
      "xingĠjianĠ": 2296,
      "mianĠdeĠ": 2297,
      "xieĠzhuĠ": 2298,
      "ĠyueĠ13ĠriĠ": 2299,
      "ĠyueĠ14ĠriĠ": 2300,
      "22Ġ": 2301,
      "zuiĠzaoĠ": 2302,
      "Ġ6Ġ": 2303,
      "jingĠshenĠ": 2304,
      "geĠleiĠ": 2305,
      "zhuĠjueĠ": 2306,
      "shiĠyiĠzhongĠ": 2307,
      "zhengĠzaiĠ": 2308,
      "ĠxiuĠ": 2309,
      "jianĠshaoĠ": 2310,
      "op": 2311,
      "26": 2312,
      "erĠqiĠ": 2313,
      "zeĠshiĠ": 2314,
      "jiĠjiĠ": 2315,
      "maoĠyiĠ": 2316,
      "ĠĠĠliĠ": 2317,
      "EĠ": 2318,
      "shangĠyouĠ": 2319,
      "ceĠshiĠ": 2320,
      "xuanĠquĠ": 2321,
      "deĠqiĠ": 2322,
      "ganĠranĠ": 2323,
      "ĠV": 2324,
      "shengĠdeĠyiĠgeĠshiĠzhenĠ": 2325,
      "wenĠwuĠbaoĠhuĠ": 2326,
      "deĠqianĠ": 2327,
      "ag": 2328,
      "heĠpingĠ": 2329,
      "liĠyiĠ": 2330,
      "andĠĠĠ": 2331,
      "dianĠshiĠjuĠ": 2332,
      "feiĠxingĠ": 2333,
      "ofĠĠĠ": 2334,
      "ĠshiĠzhenĠ": 2335,
      "wuĠqiĠ": 2336,
      "nĠĠĠ": 2337,
      "yanĠjiuĠsuoĠ": 2338,
      "jinĠxingĠleĠ": 2339,
      "faĠdongĠ": 2340,
      "lvĠshiĠ": 2341,
      "ĠqinĠ": 2342,
      "nianĠqingĠ": 2343,
      "ĠyingĠchiĠ": 2344,
      "chongĠtuĠ": 2345,
      "leĠyiĠgeĠ": 2346,
      "duĠshiĠ": 2347,
      "alĠĠĠ": 2348,
      "yingĠpianĠ": 2349,
      "jiĠzhiĠ": 2350,
      "yiĠwaiĠ": 2351,
      "biĠliĠ": 2352,
      "linĠshiĠ": 2353,
      "daĠxiĠ": 2354,
      "touĠruĠ": 2355,
      "buĠluoĠ": 2356,
      "chanĠyeĠ": 2357,
      "jianĠshiĠ": 2358,
      "duĠdeĠ": 2359,
      "ĠshiĠyiĠgeĠ": 2360,
      "lvĠyouĠ": 2361,
      "foĠjiaoĠ": 2362,
      "jiĠhuĠ": 2363,
      "bingĠliĠ": 2364,
      "qianĠdeĠ": 2365,
      "shaoĠnianĠ": 2366,
      "xiĠgeĠ": 2367,
      "kuaiĠsuĠ": 2368,
      "chuĠrenĠ": 2369,
      "diĠzhiĠ": 2370,
      "faĠdeĠ": 2371,
      "piĠzhunĠ": 2372,
      "wanĠrenĠ": 2373,
      "ĠmeiĠyouĠ": 2374,
      "chuĠqiĠ": 2375,
      "ĠbrĠ": 2376,
      "shangĠwuĠ": 2377,
      "zhiĠxianĠ": 2378,
      "gaoĠzhongĠ": 2379,
      "ĠĠĠ197": 2380,
      "ĠhuoĠdeĠ": 2381,
      "ĠĠĠ195": 2382,
      "zhuĠyanĠ": 2383,
      "ĠtongĠchangĠ": 2384,
      "qiĠlaiĠ": 2385,
      "ad": 2386,
      "duiĠdeĠ": 2387,
      "shengĠfenĠ": 2388,
      "shiĠziĠ": 2389,
      "wangĠchaoĠ": 2390,
      "ĠfaĠguoĠ": 2391,
      "zaiĠyuĠ": 2392,
      "erĠheĠ": 2393,
      "baoĠliuĠ": 2394,
      "xiaoĠxueĠ": 2395,
      "wenĠwuĠbaoĠhuĠdanĠweiĠ": 2396,
      "xianĠdeĠyiĠgeĠ": 2397,
      "wanĠjiaĠ": 2398,
      "gunĠ": 2399,
      "woĠmenĠ": 2400,
      "deĠyiĠzhongĠ": 2401,
      "seĠlieĠ": 2402,
      "zhengĠjuĠ": 2403,
      "diĠerĠciĠ": 2404,
      "niĠsiĠ": 2405,
      "huangĠdiĠ": 2406,
      "ĠnvĠ": 2407,
      "zhengĠmingĠ": 2408,
      "ĠyiĠbanĠ": 2409,
      "esĠĠĠ": 2410,
      "weiĠyaĠ": 2411,
      "keĠchengĠ": 2412,
      "zhongĠdianĠ": 2413,
      "ĠqiuĠ": 2414,
      "jiaĠgeĠ": 2415,
      "huaĠshiĠ": 2416,
      "xiaoĠzuĠ": 2417,
      "Ġ2010ĠnianĠ": 2418,
      "shiĠjieĠdaĠzhanĠ": 2419,
      "ĠU": 2420,
      "yiĠdongĠ": 2421,
      "haiĠyuĠ": 2422,
      "queĠdingĠ": 2423,
      "yiĠnianĠ": 2424,
      "zuoĠchuĠ": 2425,
      "aoĠlinĠpiĠkeĠyunĠdongĠhuiĠ": 2426,
      "zhiĠnengĠ": 2427,
      "beiĠrenĠweiĠ": 2428,
      "ruĠxiaĠ": 2429,
      "yingĠyuĠ": 2430,
      "weiĠhuiĠ": 2431,
      "ul": 2432,
      "40": 2433,
      "zhuĠdeĠ": 2434,
      "Ġ13": 2435,
      "jianĠjieĠ": 2436,
      "xianĠxiangĠ": 2437,
      "ziĠxingĠ": 2438,
      "80Ġ": 2439,
      "gaoĠdeĠ": 2440,
      "guangĠzhouĠ": 2441,
      "weiĠnengĠ": 2442,
      "shouĠdeĠ": 2443,
      "shouĠjiĠ": 2444,
      "huangĠjiaĠ": 2445,
      "geĠdiĠ": 2446,
      "ĠshiĠjieĠ": 2447,
      "ent": 2448,
      "yuĠ198": 2449,
      "ĠlongĠ": 2450,
      "yunĠyingĠ": 2451,
      "shuoĠshiĠ": 2452,
      "jinĠzhiĠ": 2453,
      "tianĠwenĠ": 2454,
      "zongĠliĠ": 2455,
      "guaiĠ": 2456,
      "ĠĠĠG": 2457,
      "yueĠnanĠ": 2458,
      "ĠtongĠguoĠ": 2459,
      "heĠbeiĠ": 2460,
      "ĠwoĠmenĠ": 2461,
      "chengĠxuĠ": 2462,
      "zuoĠbiaoĠ": 2463,
      "shengĠweiĠ": 2464,
      "xiongĠdiĠ": 2465,
      "buĠduanĠ": 2466,
      "ĠbuĠfenĠ": 2467,
      "heĠliuĠ": 2468,
      "fuĠyiĠ": 2469,
      "shuĠweiĠ": 2470,
      "qiĠweiĠ": 2471,
      "zhongĠyouĠ": 2472,
      "kongĠjunĠ": 2473,
      "fanĠhuiĠ": 2474,
      "wĠ": 2475,
      "yiĠjianĠ": 2476,
      "um": 2477,
      "ĠguoĠjiaĠ": 2478,
      "yunĠshuĠ": 2479,
      "xingĠzhengĠquĠhuaĠ": 2480,
      "shuoĠfaĠ": 2481,
      "zhiĠliaoĠ": 2482,
      "wangĠguoĠ": 2483,
      "ĠkaiĠshiĠ": 2484,
      "ĠqiaoĠ": 2485,
      "gaoĠdengĠ": 2486,
      "keĠluoĠ": 2487,
      "ĠhengĠ": 2488,
      "shouĠruĠ": 2489,
      "ganĠdaoĠ": 2490,
      "guĠjiĠ": 2491,
      "quĠxiaoĠ": 2492,
      "shanĠmaiĠ": 2493,
      "deĠyuĠ": 2494,
      "ĠĠĠR": 2495,
      "boĠliĠ": 2496,
      "ĠĠĠ196": 2497,
      "deĠshiĠhouĠ": 2498,
      "os": 2499,
      "ĠtuoĠ": 2500,
      "renĠgongĠ": 2501,
      "ĠdaoĠzhiĠ": 2502,
      "qiĠcheĠ": 2503,
      "shengĠchengĠ": 2504,
      "ap": 2505,
      "erĠteĠ": 2506,
      "ab": 2507,
      "diĠwuĠ": 2508,
      "shouĠyuĠ": 2509,
      "zheĠshiĠ": 2510,
      "ĠĠĠcheĠzhanĠ": 2511,
      "xiaoĠxingĠxingĠ": 2512,
      "huiĠheĠ": 2513,
      "tiaoĠzhengĠ": 2514,
      "daoĠdaĠ": 2515,
      "gongĠfenĠ": 2516,
      "tuanĠduiĠ": 2517,
      "200Ġ": 2518,
      "douĠyouĠ": 2519,
      "av": 2520,
      "zhiĠjiĠ": 2521,
      "taiĠpingĠyangĠ": 2522,
      "heĠlanĠ": 2523,
      "nvĠerĠ": 2524,
      "dianĠdeĠ": 2525,
      "Ġhan": 2526,
      "ĠteĠbieĠ": 2527,
      "xianĠweiĠ": 2528,
      "shenĠqingĠ": 2529,
      "ĠchaĠ": 2530,
      "zhongĠyuĠ": 2531,
      "puĠtaoĠ": 2532,
      "fangĠwenĠ": 2533,
      "miĠshuĠ": 2534,
      "renĠminĠzhengĠfuĠ": 2535,
      "qiaĠ": 2536,
      "yunĠxingĠ": 2537,
      "zhuĠmingĠ": 2538,
      "saoĠ": 2539,
      "jiuĠshiĠzhenĠ": 2540,
      "shiĠhouĠ": 2541,
      "diĠdaĠ": 2542,
      "shengĠheĠ": 2543,
      "yiĠyuĠ": 2544,
      "ĠtanĠ": 2545,
      "leiĠdeĠ": 2546,
      "23Ġ": 2547,
      "ĠĠĠxingĠzhengĠ": 2548,
      "ĠĠĠD": 2549,
      "youĠtaiĠ": 2550,
      "ruĠqinĠ": 2551,
      "BĠ": 2552,
      "renĠdaĠ": 2553,
      "xiaĠlingĠ": 2554,
      "ĠzheĠyiĠ": 2555,
      "aoĠmenĠ": 2556,
      "bingĠweiĠ": 2557,
      "ĠcanĠ": 2558,
      "ĠouĠ": 2559,
      "jiaĠshiĠ": 2560,
      "fangĠzhiĠ": 2561,
      "buĠmingĠ": 2562,
      "houĠxuanĠ": 2563,
      "guoĠneiĠ": 2564,
      "ĠtouĠ": 2565,
      "ĠĠĠzhiĠ": 2566,
      "ĠĠĠ193": 2567,
      "lieĠweiĠ": 2568,
      "rongĠyuĠ": 2569,
      "ĠpaiĠ": 2570,
      "wenĠzhangĠ": 2571,
      "ĠĠĠqiĠ": 2572,
      "zhongĠyiĠ": 2573,
      "heĠdeĠ": 2574,
      "yinĠshiĠ": 2575,
      "youĠxiaoĠ": 2576,
      "laĠkeĠ": 2577,
      "jingĠshiĠ": 2578,
      "anĠpaiĠ": 2579,
      "wuĠzhuangĠ": 2580,
      "dianĠtaiĠ": 2581,
      "70Ġ": 2582,
      "ĠxunĠ": 2583,
      "youĠqiĠ": 2584,
      "xianĠyuĠ": 2585,
      "yanĠgeĠ": 2586,
      "liuĠshiĠ": 2587,
      "ĠyouĠchengĠ": 2588,
      "fuĠyuĠ": 2589,
      "ĠbeiĠqiĠ": 2590,
      "buĠzuĠ": 2591,
      "ĠweiĠyuĠfaĠguoĠ": 2592,
      "wenĠjianĠ": 2593,
      "danĠbaiĠ": 2594,
      "wenĠmingĠ": 2595,
      "ĠpingĠfangĠgongĠliĠ": 2596,
      "ĠzaiĠciĠ": 2597,
      "shenĠdeĠ": 2598,
      "haiĠanĠ": 2599,
      "qiuĠchangĠ": 2600,
      "mouĠxieĠ": 2601,
      "fenĠzhiĠ": 2602,
      "renĠshuĠ": 2603,
      "guanĠzhuĠ": 2604,
      "jieĠfangĠjunĠ": 2605,
      "guoĠfangĠ": 2606,
      "yuanĠsuĠ": 2607,
      "zhanĠdeĠ": 2608,
      "ĠyouĠxiĠ": 2609,
      "fengĠbaoĠ": 2610,
      "chaoĠjiĠ": 2611,
      "tiĠxiĠ": 2612,
      "Ġ2009ĠnianĠ": 2613,
      "suiĠhouĠ": 2614,
      "ĠxianĠzaiĠ": 2615,
      "juĠjiĠ": 2616,
      "bingĠduĠ": 2617,
      "Ġ11": 2618,
      "wenĠdingĠ": 2619,
      "niangĠ": 2620,
      "ĠĠĠziĠ": 2621,
      "renĠkouĠshuĠliangĠweiĠrenĠ": 2622,
      "ĠshaoĠ": 2623,
      "ĠtuiĠ": 2624,
      "zuoĠdeĠ": 2625,
      "anĠnaĠ": 2626,
      "chengĠxianĠ": 2627,
      "jinĠshuĠ": 2628,
      "renĠkouĠmiĠduĠ": 2629,
      "nt": 2630,
      "moĠxingĠ": 2631,
      "yiĠjiaĠ": 2632,
      "ĠINS": 2633,
      "jieĠrangĠdeĠshiĠzhenĠ": 2634,
      "puĠtongĠ": 2635,
      "ĠmaoĠ": 2636,
      "ĠsunĠ": 2637,
      "shouĠshangĠ": 2638,
      "xiangĠsiĠ": 2639,
      "dingĠweiĠ": 2640,
      "kaĠerĠ": 2641,
      "ĠINSEE": 2642,
      "yuĠweiĠ": 2643,
      "ĠcheĠzhanĠ": 2644,
      "wuĠzhiĠ": 2645,
      "erĠyanĠ": 2646,
      "ĠĠĠI": 2647,
      "jiĠchengĠ": 2648,
      "zhengĠbianĠmaĠweiĠ": 2649,
      "juĠdeĠ": 2650,
      "jingĠdeĠ": 2651,
      "guanĠchaĠ": 2652,
      "ĠjieĠzhiĠ": 2653,
      "ĠxuĠduoĠ": 2654,
      "juĠrenĠ": 2655,
      "2022ĠnianĠ": 2656,
      "caiĠliaoĠ": 2657,
      "seĠdeĠ": 2658,
      "caiĠzhengĠ": 2659,
      "fuĠliĠ": 2660,
      "RĠ": 2661,
      "yinĠsuĠ": 2662,
      "chuĠshengĠyuĠ": 2663,
      "laiĠyuanĠ": 2664,
      "ov": 2665,
      "renĠyiĠ": 2666,
      "riĠjunĠ": 2667,
      "meiĠpingĠfangĠgongĠliĠ": 2668,
      "duiĠshouĠ": 2669,
      "baĠnianĠ": 2670,
      "ĠduiĠyuĠ": 2671,
      "shiĠyongĠdeĠ": 2672,
      "10ĠyueĠ": 2673,
      "ĠmingĠchaoĠ": 2674,
      "ĠyuĠ201": 2675,
      "zhongĠwenĠ": 2676,
      "ĠgaiĠshengĠ": 2677,
      "ĠyiĠyuanĠ": 2678,
      "laiĠshuoĠ": 2679,
      "dengĠluĠ": 2680,
      "2ĠrenĠ": 2681,
      "wangĠluĠ": 2682,
      "shiĠyiĠgeĠ": 2683,
      "ruĠkouĠ": 2684,
      "daĠjiĠ": 2685,
      "gongĠyouĠrenĠkouĠ": 2686,
      "zhuangĠkuangĠ": 2687,
      "ĠzongĠmianĠjiĠ": 2688,
      "5ĠrenĠ": 2689,
      "gaoĠjiĠ": 2690,
      "faĠlanĠ": 2691,
      "tongĠyangĠ": 2692,
      "zhenĠduiĠ": 2693,
      "yongĠhuĠ": 2694,
      "yaoĠqingĠ": 2695,
      "ĠchengĠquĠ": 2696,
      "20ĠshiĠjiĠ": 2697,
      "shengĠzhangĠ": 2698,
      "xiaoĠxingĠ": 2699,
      "zhongĠyaoĠdeĠ": 2700,
      "caoĠzuoĠ": 2701,
      "zhiĠchengĠ": 2702,
      "buĠyiĠ": 2703,
      "shangĠyingĠ": 2704,
      "xianĠchangĠ": 2705,
      "shangĠweiĠ": 2706,
      "pinĠpaiĠ": 2707,
      "guoĠliĠ": 2708,
      "chongĠjianĠ": 2709,
      "gongĠminĠ": 2710,
      "ĠtaĠyuĠ": 2711,
      "senĠlinĠ": 2712,
      "ĠcengĠrenĠ": 2713,
      "jiaoĠliuĠ": 2714,
      "ĠshiĠzhenĠbianĠmaĠweiĠ": 2715,
      "ĠINSEEĠshiĠzhenĠbianĠmaĠweiĠ": 2716,
      "ĠrenĠkouĠmiĠduĠmeiĠpingĠfangĠgongĠliĠ": 2717,
      "renĠkouĠmiĠduĠweiĠmeiĠ": 2718,
      "ãĢİ": 2719,
      "tiaoĠzhanĠ": 2720,
      "ãĢı": 2721,
      "ĠxiaĠlingĠshiĠ": 2722,
      "bianĠhaoĠ": 2723,
      "deĠxingĠ": 2724,
      "xuanĠquĠweiĠ": 2725,
      "beiĠmeiĠ": 2726,
      "shiĠdeĠrenĠkouĠshuĠliangĠweiĠrenĠ": 2727,
      "jiaĠyiĠ": 2728,
      "meiĠguoĠrenĠkouĠpuĠchaĠdeĠshuĠjuĠ": 2729,
      "yuanĠzhangĠ": 2730,
      "ĠerĠrenĠkouĠmiĠduĠweiĠmeiĠ": 2731,
      "ĠdangĠdiĠgongĠyouĠrenĠkouĠ": 2732,
      "ĠerĠrenĠkouĠmiĠduĠweiĠmeiĠpingĠfangĠqianĠmiĠ": 2733,
      "buĠkeĠ": 2734,
      "dianĠnaoĠ": 2735,
      "zhouĠbianĠ": 2736,
      "lingĠwaiĠ": 2737,
      "jinĠyiĠbuĠ": 2738,
      "ĠĠĠjiĠ": 2739,
      "ziĠdongĠ": 2740,
      "junĠweiĠ": 2741,
      "ziĠjinĠ": 2742,
      "ĠhuoĠjiuĠshiĠzhenĠ": 2743,
      "zhanĠhouĠ": 2744,
      "nianĠjianĠ": 2745,
      "gaĠ": 2746,
      "jiuĠduĠ": 2747,
      "shengĠjiĠxuanĠquĠweiĠ": 2748,
      "suoĠshuĠdeĠshengĠjiĠxuanĠquĠweiĠ": 2749,
      "xiaĠwuĠ": 2750,
      "60": 2751,
      "shuiĠpingĠ": 2752,
      "ĠĠĠzhuĠ": 2753,
      "ziĠzhiĠquĠ": 2754,
      "jingĠdianĠ": 2755,
      "jiaoĠquĠ": 2756,
      "anĠzhuangĠ": 2757,
      "haiĠziĠ": 2758,
      "maĠlaiĠxiĠyaĠ": 2759,
      "aoĠdaĠliĠyaĠ": 2760,
      "dengĠjiĠ": 2761,
      "fenĠweiĠfaĠguoĠ": 2762,
      "minĠzhuĠdangĠ": 2763,
      "faĠdianĠ": 2764,
      "ĠzhongĠyangĠ": 2765,
      "ĠgaiĠshengĠfenĠweiĠfaĠguoĠ": 2766,
      "gongĠchangĠ": 2767,
      "erĠjiĠ": 2768,
      "ĠĠĠdaĠ": 2769,
      "yongĠdeĠ": 2770,
      "yueĠtuanĠ": 2771,
      "ĠzhuangĠ": 2772,
      "renĠmenĠ": 2773,
      "ĠĠĠH": 2774,
      "nanĠjiĠ": 2775,
      "ĠĠĠfuĠ": 2776,
      "jingĠyanĠ": 2777,
      "MĠ": 2778,
      "zaiĠmeiĠguoĠ": 2779,
      "siĠchuanĠ": 2780,
      "buĠliĠ": 2781,
      "zhiĠminĠ": 2782,
      "zaiĠweiĠ": 2783,
      "ĠkaoĠ": 2784,
      "runĠ": 2785,
      "jiangĠyuĠ": 2786,
      "zhaoĠkaiĠ": 2787,
      "deĠxiĠ": 2788,
      "siĠxiangĠ": 2789,
      "ziĠmuĠ": 2790,
      "yingĠwenĠ": 2791,
      "deĠkeĠ": 2792,
      "yeĠyuĠ": 2793,
      "ĠyinĠduĠ": 2794,
      "feiĠzhouĠ": 2795,
      "xiaoĠzhangĠ": 2796,
      "erĠyueĠ": 2797,
      "jieĠjiĠ": 2798,
      "id": 2799,
      "ĠkanĠ": 2800,
      "buĠjiĠ": 2801,
      "ĠkeĠnengĠ": 2802,
      "youĠliangĠ": 2803,
      "ruĠciĠ": 2804,
      "siĠrenĠ": 2805,
      "fengĠxianĠ": 2806,
      "qiuĠjiĠ": 2807,
      "deĠdiĠfangĠ": 2808,
      "VĠ": 2809,
      "wuĠrenĠ": 2810,
      "beiĠshiĠ": 2811,
      "jiangĠxiangĠ": 2812,
      "pingĠmianĠ": 2813,
      "yunĠxuĠ": 2814,
      "xiaĠlaiĠ": 2815,
      "chuanĠboĠ": 2816,
      "buĠjiuĠ": 2817,
      "yiĠliĠ": 2818,
      "gengĠduoĠ": 2819,
      "ĠeĠluoĠsiĠ": 2820,
      "congĠshiĠ": 2821,
      "anĠjianĠ": 2822,
      "zhengĠzhuangĠ": 2823,
      "ĠbangĠ": 2824,
      "yiĠdaĠliĠ": 2825,
      "paiĠchuĠ": 2826,
      "qiĠzhiĠ": 2827,
      "bianĠweiĠ": 2828,
      "zongĠduĠ": 2829,
      "1ĠrenĠ": 2830,
      "yiĠchangĠ": 2831,
      "ind": 2832,
      "guoĠshiĠ": 2833,
      "xueĠshuĠ": 2834,
      "pengĠyouĠ": 2835,
      "guoĠminĠdangĠ": 2836,
      "3ĠrenĠ": 2837,
      "ev": 2838,
      "yuanĠbenĠ": 2839,
      "chuĠkouĠ": 2840,
      "ĠpaĠ": 2841,
      "Ġp": 2842,
      "jinĠpaiĠ": 2843,
      "yuĠheĠ": 2844,
      "ĠzongĠrenĠkouĠ": 2845,
      "ĠĠĠF": 2846,
      "ĠyiĠxieĠ": 2847,
      "bingĠmeiĠyouĠ": 2848,
      "meiĠnianĠ": 2849,
      "aoĠsiĠ": 2850,
      "guanĠdeĠ": 2851,
      "ĠĠĠxiĠ": 2852,
      "gongĠheĠ": 2853,
      "geĠgeĠ": 2854,
      "baĠxiĠ": 2855,
      "zaiĠduĠ": 2856,
      "ĠĠC": 2857,
      "4ĠrenĠ": 2858,
      "jieĠhunĠ": 2859,
      "48": 2860,
      "diĠyiĠgeĠ": 2861,
      "ĠĠS": 2862,
      "hongĠzhaĠ": 2863,
      "ruiĠdianĠ": 2864,
      "nuĠliĠ": 2865,
      "benĠtuĠ": 2866,
      "guoĠquĠ": 2867,
      "deĠyiĠzuoĠ": 2868,
      "jianĠkangĠ": 2869,
      "shiĠtuĠ": 2870,
      "yiĠxiĠ": 2871,
      "tiĠmingĠ": 2872,
      "deĠyouĠzhengĠbianĠmaĠweiĠ": 2873,
      "ĠtingĠ": 2874,
      "ĠguoĠjiĠ": 2875,
      "buĠshaoĠ": 2876,
      "tongĠxingĠ": 2877,
      "guanĠdianĠ": 2878,
      "ĠerĠzaiĠ": 2879,
      "luĠdeĠ": 2880,
      "yiĠjuĠ": 2881,
      "aĠlaĠboĠ": 2882,
      "minĠzhongĠ": 2883,
      "shuĠziĠ": 2884,
      "ĠyouĠmingĠ": 2885,
      "fangĠyuĠ": 2886,
      "12ĠyueĠ": 2887,
      "daĠjiangĠ": 2888,
      "gouĠmaiĠ": 2889,
      "pingĠfangĠmiĠ": 2890,
      "shouĠshiĠ": 2891,
      "yingĠyunĠ": 2892,
      "2008ĠnianĠ": 2893,
      "guiĠzeĠ": 2894,
      "guoĠyuĠ": 2895,
      "shenĠmeĠ": 2896,
      "tianĠjinĠ": 2897,
      "yiĠqianĠ": 2898,
      "zhiĠziĠ": 2899,
      "zaoĠnianĠ": 2900,
      "ĠkuĠ": 2901,
      "luĠsiĠ": 2902,
      "xuĠqiuĠ": 2903,
      "jiuĠnianĠ": 2904,
      "guĠwenĠ": 2905,
      "6ĠrenĠ": 2906,
      "fuĠrenĠ": 2907,
      "weiĠxingĠ": 2908,
      "diĠliuĠ": 2909,
      "zhenĠshiĠ": 2910,
      "ĠzhengĠshiĠ": 2911,
      "liĠliangĠ": 2912,
      "Ġ2011ĠnianĠ": 2913,
      "jieĠkeĠ": 2914,
      "yuĠ197": 2915,
      "chuĠzhanĠ": 2916,
      "ĠdanĠtaĠ": 2917,
      "ĠqiĠxiĠ": 2918,
      "tiĠgaoĠ": 2919,
      "deĠjiaĠ": 2920,
      "huiĠyouĠ": 2921,
      "deĠyanĠ": 2922,
      "heĠnanĠ": 2923,
      "ruĠxuanĠ": 2924,
      "lĠ": 2925,
      "2021ĠnianĠ": 2926,
      "gongĠzhongĠ": 2927,
      "yinĠfaĠ": 2928,
      "xueĠshiĠ": 2929,
      "FĠ": 2930,
      "lvĠbinĠ": 2931,
      "eg": 2932,
      "zhangĠdaĠ": 2933,
      "ĠbiaoĠshiĠ": 2934,
      "ĠnuoĠ": 2935,
      "cunĠzhuangĠ": 2936,
      "xingĠtaiĠ": 2937,
      "fangĠqiĠ": 2938,
      "im": 2939,
      "heĠjiĠ": 2940,
      "ĠdeĠguoĠ": 2941,
      "gongĠxianĠ": 2942,
      "deĠqingĠ": 2943,
      "biaoĠmingĠ": 2944,
      "boĠluoĠ": 2945,
      "xiaoĠshouĠ": 2946,
      "zhongĠdaĠ": 2947,
      "yingĠgaiĠ": 2948,
      "yiĠfuĠ": 2949,
      "yuĠjiĠ": 2950,
      "shiĠbeiĠ": 2951,
      "35Ġ": 2952,
      "wengĠ": 2953,
      "suoĠzaiĠ": 2954,
      "deĠbuĠ": 2955,
      "xinĠjiaĠpoĠ": 2956,
      "ĠÎ": 2957,
      "zhouĠweiĠ": 2958,
      "gaoĠyuĠ": 2959,
      "xunĠsuĠ": 2960,
      "erĠfuĠ": 2961,
      "tuĠshuĠguanĠ": 2962,
      "guanĠzhiĠ": 2963,
      "qianĠshuĠ": 2964,
      "guĠfenĠ": 2965,
      "38": 2966,
      "yuĠleiĠ": 2967,
      "liĠheĠ": 2968,
      "ĠjieĠguoĠ": 2969,
      "nianĠduĠ": 2970,
      "ĠshenĠzhiĠ": 2971,
      "juĠxingĠdeĠ": 2972,
      "jiangĠshiĠ": 2973,
      "yiĠchanĠ": 2974,
      "ĠzhongĠgongĠ": 2975,
      "chuĠshiĠ": 2976,
      "90Ġ": 2977,
      "ĠpanĠ": 2978,
      "faĠqiĠ": 2979,
      "lingĠtuĠ": 2980,
      "zongĠbuĠ": 2981,
      "jiaĠjiĠ": 2982,
      "Ġ2008ĠnianĠ": 2983,
      "naĠliĠ": 2984,
      "hengĠxingĠ": 2985,
      "jingĠzhengĠ": 2986,
      "yingĠjiĠ": 2987,
      "37": 2988,
      "jiaoĠlianĠ": 2989,
      "keĠerĠ": 2990,
      "ruĠheĠ": 2991,
      "haiĠdaoĠ": 2992,
      "yeĠzaiĠ": 2993,
      "ruiĠshiĠ": 2994,
      "queĠzhenĠ": 2995,
      "yangĠhuaĠ": 2996,
      "jieĠshuĠhouĠ": 2997,
      "xingĠjiĠ": 2998,
      "leĠtaĠ": 2999,
      "hanĠshuĠ": 3000,
      "zhuĠyuĠ": 3001,
      "jiuĠdianĠ": 3002,
      "ĠyiĠciĠ": 3003,
      "canĠkaoĠ": 3004,
      "ot": 3005,
      "xinĠhaoĠ": 3006,
      "duiĠwuĠ": 3007,
      "lanĠqiuĠ": 3008,
      "ĠnianĠ12ĠyueĠ2": 3009,
      "liĠdaĠ": 3010,
      "zuanĠ": 3011,
      "biaoĠdaĠ": 3012,
      "ĠyiĠzhiĠ": 3013,
      "xuanĠweiĠ": 3014,
      "yiĠtongĠ": 3015,
      "keĠzaiĠ": 3016,
      "heĠyueĠ": 3017,
      "chengĠzuoĠ": 3018,
      "Ġ2013ĠnianĠ": 3019,
      "ĠĠĠW": 3020,
      "yuĠleĠ": 3021,
      "huoĠshiĠ": 3022,
      "qiĠyongĠ": 3023,
      "NĠ": 3024,
      "ĠzhengĠfuĠ": 3025,
      "leiĠxingĠ": 3026,
      "2016ĠnianĠ": 3027,
      "jieĠquanĠguoĠ": 3028,
      "lingĠxiuĠ": 3029,
      "kanĠdaoĠ": 3030,
      "renĠmingĠ": 3031,
      "shouĠluĠ": 3032,
      "luoĠdeĠ": 3033,
      "ĠdiĠyiĠ": 3034,
      "jianĠdanĠ": 3035,
      "erĠchengĠ": 3036,
      "tiĠshengĠ": 3037,
      "ĠsuoĠyouĠ": 3038,
      "ĠfuĠzeĠ": 3039,
      "11ĠyueĠ": 3040,
      "daiĠdeĠ": 3041,
      "AT": 3042,
      "Ġm": 3043,
      "chuĠfaĠ": 3044,
      "suiĠdaoĠ": 3045,
      "xingĠquĠ": 3046,
      "wuĠnianĠ": 3047,
      "wenĠxianĠ": 3048,
      "gouĠchengĠ": 3049,
      "shenĠtiĠ": 3050,
      "ĠdunĠ": 3051,
      "dongĠxiĠ": 3052,
      "jieĠshaoĠ": 3053,
      "jiaoĠxueĠ": 3054,
      "ĠjingĠguoĠ": 3055,
      "geĠshiĠ": 3056,
      "22": 3057,
      "duoĠzhongĠ": 3058,
      "cengĠzaiĠ": 3059,
      "ĠwaĠ": 3060,
      "Â°": 3061,
      "wangĠdeĠ": 3062,
      "zhongĠguoĠgongĠchanĠdangĠ": 3063,
      "shenĠjingĠ": 3064,
      "yuĠ194": 3065,
      "ouĠyuanĠ": 3066,
      "qiĠzaiĠ": 3067,
      "gengĠmingĠweiĠ": 3068,
      "ĠshengĠhuoĠ": 3069,
      "ed": 3070,
      "qiangĠlieĠ": 3071,
      "yiĠzaiĠ": 3072,
      "ĠĠĠ2021ĠnianĠ": 3073,
      "teĠshuĠ": 3074,
      "ï½": 3075,
      "mingĠlingĠ": 3076,
      "ĠtaoĠ": 3077,
      "touĠxiangĠ": 3078,
      "yanĠdeĠ": 3079,
      "banĠgongĠ": 3080,
      "liĠshiĠshangĠ": 3081,
      "bianĠjieĠ": 3082,
      "yongĠlaiĠ": 3083,
      "yingĠshiĠ": 3084,
      "laĠfuĠ": 3085,
      "xunĠhuiĠ": 3086,
      "daĠxiĠyangĠ": 3087,
      "bengĠ": 3088,
      "suiĠshiĠ": 3089,
      "00ĠmiĠ": 3090,
      "qiĠxiangĠ": 3091,
      "ĠqiĠjianĠ": 3092,
      "yiĠxiangĠ": 3093,
      "ĠbingĠjiangĠ": 3094,
      "chuangĠzaoĠ": 3095,
      "geĠweiĠ": 3096,
      "kaoĠlvĠ": 3097,
      "ĠzengĠ": 3098,
      "xiĠanĠ": 3099,
      "faĠchuĠ": 3100,
      "zuĠdeĠ": 3101,
      "9ĠrenĠ": 3102,
      "ĠduanĠ": 3103,
      "yueĠweiĠ": 3104,
      "lianĠheĠguoĠ": 3105,
      "buĠxiangĠ": 3106,
      "yangĠshiĠ": 3107,
      "Ġ10Ġ": 3108,
      "ĠdaiĠbiaoĠ": 3109,
      "OĠ": 3110,
      "Ġ21Ġ": 3111,
      "ĠĠM": 3112,
      "yiĠdaoĠ": 3113,
      "jiaoĠweiĠ": 3114,
      "guangĠgaoĠ": 3115,
      "yiĠduĠ": 3116,
      "qiaoĠzhiĠ": 3117,
      "ĠshangĠhaiĠ": 3118,
      "ob": 3119,
      "od": 3120,
      "haiĠxiaĠ": 3121,
      "ĠcongĠerĠ": 3122,
      "lieĠruĠ": 3123,
      "ĠĠĠwuĠ": 3124,
      "usĠ": 3125,
      "zhiĠshaoĠ": 3126,
      "baiĠseĠ": 3127,
      "ĠĠĠ2019ĠnianĠ": 3128,
      "ampĠ": 3129,
      "xianĠjinĠ": 3130,
      "Ġ0Ġ": 3131,
      "youĠyiĠgeĠ": 3132,
      "dongĠdeĠ": 3133,
      "ĠshiĠdeĠ": 3134,
      "xĠ": 3135,
      "keĠweiĠ": 3136,
      "siĠgeĠ": 3137,
      "teĠdeĠ": 3138,
      "bianĠjiĠ": 3139,
      "ĠdiĠsanĠ": 3140,
      "shouĠweiĠ": 3141,
      "ĠyaoĠqiuĠ": 3142,
      "yanĠshiĠ": 3143,
      "liangĠweiĠ": 3144,
      "xiĠhuanĠ": 3145,
      "banĠgongĠshiĠ": 3146,
      "yiĠzuoĠ": 3147,
      "ĠyiĠshiĠ": 3148,
      "ĠĠĠdeĠ": 3149,
      "nianĠhouĠ": 3150,
      "youĠrenĠ": 3151,
      "tiĠjiĠ": 3152,
      "renĠminĠjieĠfangĠjunĠ": 3153,
      "zhanĠtingĠ": 3154,
      "quanĠmianĠ": 3155,
      "lvĠkeĠ": 3156,
      "heĠliĠ": 3157,
      "shaoĠshuĠ": 3158,
      "Ġ2012ĠnianĠ": 3159,
      "35": 3160,
      "chuĠshenĠ": 3161,
      "moĠxiĠgeĠ": 3162,
      "ciĠjiĠ": 3163,
      "meiĠgeĠ": 3164,
      "qiĠyuĠgangĠ": 3165,
      "ep": 3166,
      "og": 3167,
      "puĠbianĠ": 3168,
      "huoĠzheĠ": 3169,
      "XĠ": 3170,
      "xingĠxiangĠ": 3171,
      "yinĠqingĠ": 3172,
      "ĠzhiĠzhiĠ": 3173,
      "ĠbeiĠjingĠ": 3174,
      "us": 3175,
      "heĠqiĠtaĠ": 3176,
      "ĠlaiĠziĠ": 3177,
      "Ġ2007ĠnianĠ": 3178,
      "canĠjiaĠleĠ": 3179,
      "eb": 3180,
      "teĠseĠ": 3181,
      "changĠweiĠ": 3182,
      "yiĠqingĠ": 3183,
      "shuĠxueĠ": 3184,
      "xiĠweiĠ": 3185,
      "geĠdeĠ": 3186,
      "ĠĠĠ2020ĠnianĠ": 3187,
      "ĠĠĠ2018ĠnianĠ": 3188,
      "2012ĠnianĠ": 3189,
      "shuaiĠlingĠ": 3190,
      "naĠdeĠ": 3191,
      "chuangĠbanĠ": 3192,
      "Ġ2005ĠnianĠ": 3193,
      "chuanĠshuoĠ": 3194,
      "zhiĠzhiĠ": 3195,
      "lieĠbiaoĠ": 3196,
      "chuĠlaiĠ": 3197,
      "ĠcaoĠ": 3198,
      "henĠkuaiĠ": 3199,
      "ĠĠĠyuanĠ": 3200,
      "ĠĠĠerĠ": 3201,
      "ha": 3202,
      "luĠdiĠmianĠjiĠweiĠ": 3203,
      "ĠĠĠbeiĠ": 3204,
      "shuiĠyuĠmianĠjiĠweiĠ": 3205,
      "jiĠrenĠ": 3206,
      "yuĠ196": 3207,
      "ĠtiĠzhangĠ": 3208,
      "daoĠyuĠ": 3209,
      "xiaĠjiangĠ": 3210,
      "ĠchengĠliĠ": 3211,
      "chuangĠliĠ": 3212,
      "chuĠxianĠzaiĠ": 3213,
      "gongĠzhuĠ": 3214,
      "xiĠshengĠ": 3215,
      "shiĠdaĠ": 3216,
      "baoĠzhaĠ": 3217,
      "luoĠfuĠ": 3218,
      "biĠmianĠ": 3219,
      "shuaĠ": 3220,
      "hi": 3221,
      "jiuĠlongĠ": 3222,
      "21": 3223,
      "diĠzhenĠ": 3224,
      "Ġ2016ĠnianĠ": 3225,
      "ruĠguoĠ": 3226,
      "queĠfaĠ": 3227,
      "7ĠrenĠ": 3228,
      "zaiĠqiĠ": 3229,
      "ĠbuĠjiuĠ": 3230,
      "Ġ2014ĠnianĠ": 3231,
      "sheĠhuiĠzhuĠyiĠ": 3232,
      "houĠxuanĠrenĠ": 3233,
      "haiĠwaiĠ": 3234,
      "caiĠquĠ": 3235,
      "kangĠyiĠ": 3236,
      "ĠciĠshiĠ": 3237,
      "zhuĠzhangĠ": 3238,
      "chuĠxiĠ": 3239,
      "yuĠ195": 3240,
      "ï½ŀ": 3241,
      "ĠtaĠhaiĠ": 3242,
      "shiĠerĠ": 3243,
      "guanĠbiĠ": 3244,
      "xiaoĠxiĠ": 3245,
      "ĠĠĠzhongĠ": 3246,
      "shiĠjieĠbeiĠ": 3247,
      "ĠshiĠyiĠzhongĠ": 3248,
      "huiĠyingĠ": 3249,
      "45Ġ": 3250,
      "80": 3251,
      "jianĠceĠ": 3252,
      "xianĠxingĠ": 3253,
      "saĠkeĠ": 3254,
      "ĠĠĠE": 3255,
      "ĠampĠ": 3256,
      "zhiĠshuĠ": 3257,
      "fanĠzuiĠ": 3258,
      "dangĠdeĠ": 3259,
      "Ġ2015ĠnianĠ": 3260,
      "Ġ2018ĠnianĠ": 3261,
      "ciĠyuĠ": 3262,
      "ĠjueĠ": 3263,
      "ĠdangĠzhongĠluĠdiĠmianĠjiĠweiĠ": 3264,
      "faĠanĠ": 3265,
      "ĠshiĠjianĠ": 3266,
      "ĠerĠshuiĠyuĠmianĠjiĠweiĠ": 3267,
      "nanĠbeiĠ": 3268,
      "gaoĠsuĠgongĠluĠ": 3269,
      "guoĠjiaĠduiĠ": 3270,
      "26Ġ": 3271,
      "2023ĠnianĠ": 3272,
      "jieĠweiĠ": 3273,
      "juĠzhangĠ": 3274,
      "hunĠheĠ": 3275,
      "ĠrongĠ": 3276,
      "keĠyunĠ": 3277,
      "Ġ189": 3278,
      "ziĠzhuĠ": 3279,
      "ĠĠĠ2017ĠnianĠ": 3280,
      "ĠtaĠyeĠ": 3281,
      "liangĠzhongĠ": 3282,
      "bingĠfeiĠ": 3283,
      "2009ĠnianĠ": 3284,
      "siĠliĠ": 3285,
      "gengĠjiaĠ": 3286,
      "xueĠhuiĠ": 3287,
      "ceĠĠĠ": 3288,
      "ĠTheĠĠĠ": 3289,
      "cuoĠshiĠ": 3290,
      "ãĥ": 3291,
      "juĠqingĠ": 3292,
      "juĠfengĠ": 3293,
      "jiangĠsuĠ": 3294,
      "laĠdeĠ": 3295,
      "nd": 3296,
      "shengĠdunĠ": 3297,
      "ĠqiĠyuĠ": 3298,
      "shiĠpinĠ": 3299,
      "gongĠhuiĠ": 3300,
      "xiangĠjiĠ": 3301,
      "minĠjianĠ": 3302,
      "28Ġ": 3303,
      "haĠerĠ": 3304,
      "ĠĠĠxinĠ": 3305,
      "chengĠweiĠleĠ": 3306,
      "70": 3307,
      "qiuĠhuiĠ": 3308,
      "chaĠyiĠ": 3309,
      "ĠdianĠyingĠ": 3310,
      "jingĠxuanĠ": 3311,
      "yaoĠwuĠ": 3312,
      "yuĠzhiĠ": 3313,
      "buĠheĠ": 3314,
      "xingĠheĠ": 3315,
      "mingĠxianĠ": 3316,
      "zhangĠaiĠ": 3317,
      "ĠzhiĠyouĠ": 3318,
      "ĠlingĠyiĠ": 3319,
      "ĠzhongĠhuaĠminĠguoĠ": 3320,
      "jiaoĠdeĠ": 3321,
      "UĠ": 3322,
      "ĠĠĠjiaĠ": 3323,
      "yuĠbeiĠ": 3324,
      "hunĠyinĠ": 3325,
      "nianĠdaiĠ": 3326,
      "ĠĠĠgeĠ": 3327,
      "juĠshiĠ": 3328,
      "wenĠziĠ": 3329,
      "suoĠshuĠ": 3330,
      "ĠliangĠrenĠ": 3331,
      "ĠĠĠxingĠzhengĠquĠhuaĠ": 3332,
      "zhuangĠjiaĠ": 3333,
      "zhiĠshangĠ": 3334,
      "xiĠyinĠ": 3335,
      "piaoĠfangĠ": 3336,
      "LĠ": 3337,
      "shiĠzhangĠ": 3338,
      "ĠĠĠqingĠ": 3339,
      "zhiĠliuĠ": 3340,
      "jinĠrongĠ": 3341,
      "houĠqiĠ": 3342,
      "dongĠbeiĠbuĠ": 3343,
      "ĠhaiĠyouĠ": 3344,
      "chengĠbenĠ": 3345,
      "buĠmanĠ": 3346,
      "toĠĠĠ": 3347,
      "yingĠxiongĠ": 3348,
      "Ġ2021ĠnianĠ": 3349,
      "deĠzhuĠyaoĠ": 3350,
      "ĠĠĠ3": 3351,
      "diĠdianĠ": 3352,
      "guoĠchengĠzhongĠ": 3353,
      "Ġ2019ĠnianĠ": 3354,
      "faĠyuĠ": 3355,
      "ĠtaĠbeiĠ": 3356,
      "weiĠliĠ": 3357,
      "gaiĠzaoĠ": 3358,
      "hongĠseĠ": 3359,
      "ciĠdeĠ": 3360,
      "zhuĠzaiĠ": 3361,
      "ak": 3362,
      "fangĠzaiĠ": 3363,
      "canĠmouĠ": 3364,
      "ĠĠĠbuĠ": 3365,
      "yuĠmaoĠ": 3366,
      "ĠweiĠfuĠ": 3367,
      "qiangĠdiaoĠ": 3368,
      "tongĠcheĠ": 3369,
      "zhanĠtaiĠ": 3370,
      "fanĠyiĠ": 3371,
      "ĠkuanĠ": 3372,
      "ĠminĠguoĠ": 3373,
      "ĠĠĠN": 3374,
      "zhongĠshanĠ": 3375,
      "gongĠrenĠ": 3376,
      "junĠzaiĠ": 3377,
      "haiĠyangĠ": 3378,
      "ew": 3379,
      "dongĠliĠ": 3380,
      "bingĠruĠ": 3381,
      "shuoĠmingĠ": 3382,
      "ĠtiĠzhangĠkeĠdaĠ": 3383,
      "ĠshiĠmeiĠguoĠ": 3384,
      "ceĠliangĠ": 3385,
      "faĠxianĠleĠ": 3386,
      "yanĠchangĠhuiĠ": 3387,
      "neiĠgeĠ": 3388,
      "ĠformulaĠ": 3389,
      "neiĠluĠ": 3390,
      "ĠnianĠ12ĠyueĠ1": 3391,
      "gaiĠshanĠ": 3392,
      "muĠshiĠ": 3393,
      "2024ĠnianĠ": 3394,
      "laiĠdaoĠ": 3395,
      "maĠkeĠ": 3396,
      "yuanĠxingĠ": 3397,
      "dianĠcheĠ": 3398,
      "muĠdeĠ": 3399,
      "teĠliĠ": 3400,
      "yeĠbeiĠ": 3401,
      "8ĠrenĠ": 3402,
      "fenĠpeiĠ": 3403,
      "daiĠbiaoĠdaĠhuiĠ": 3404,
      "yuĠxiĠ": 3405,
      "Ġ2006ĠnianĠ": 3406,
      "ĠĠĠ2022ĠnianĠ": 3407,
      "Ġ2017ĠnianĠ": 3408,
      "tuiĠdongĠ": 3409,
      "32Ġ": 3410,
      "ĠĠĠcongĠ": 3411,
      "ĠjuĠliĠ": 3412,
      "weiĠlaiĠ": 3413,
      "ĠĠĠ2016ĠnianĠ": 3414,
      "zhouĠfuĠ": 3415,
      "heĠchengĠ": 3416,
      "huiĠzhangĠ": 3417,
      "qingĠbaoĠ": 3418,
      "zhuanĠjiaĠ": 3419,
      "huaĠyuanĠ": 3420,
      "zuĠjianĠ": 3421,
      "ĠnaiĠ": 3422,
      "moĠdeĠ": 3423,
      "27Ġ": 3424,
      "ĠshiĠyouĠ": 3425,
      "boĠfangĠ": 3426,
      "deĠyingĠxiangĠ": 3427,
      "changĠbiĠsaiĠ": 3428,
      "2000ĠnianĠ": 3429,
      "xiaĠjiĠaoĠlinĠpiĠkeĠyunĠdongĠhuiĠ": 3430,
      "junĠgongĠ": 3431,
      "qiĠbingĠ": 3432,
      "boĠerĠ": 3433,
      "2018ĠnianĠ": 3434,
      "mingĠshiĠ": 3435,
      "huaĠweiĠ": 3436,
      "baoĠweiĠ": 3437,
      "biaoĠmianĠ": 3438,
      "huanĠyingĠ": 3439,
      "ĠliaoĠ": 3440,
      "daĠguiĠmoĠ": 3441,
      "xiĠxingĠ": 3442,
      "lunĠwenĠ": 3443,
      "zhouĠnianĠ": 3444,
      "ĠĠĠdangĠ": 3445,
      "zhuĠmingĠdeĠ": 3446,
      "teĠdingĠ": 3447,
      "zhuangĠbeiĠ": 3448,
      "yuĠrenĠ": 3449,
      "yuĠciĠ": 3450,
      "jiangĠdiĠ": 3451,
      "3ĠgeĠ": 3452,
      "xiuĠgaiĠ": 3453,
      "daĠduoĠshuĠ": 3454,
      "jiaĠshangĠ": 3455,
      "youĠkeĠ": 3456,
      "2014ĠnianĠ": 3457,
      "zhiĠheĠ": 3458,
      "yanĠjiuĠyuanĠ": 3459,
      "aiĠerĠlanĠ": 3460,
      "zhengĠxieĠ": 3461,
      "youĠsuoĠ": 3462,
      "deĠzhiĠchiĠ": 3463,
      "deĠshiĠjieĠ": 3464,
      "indow": 3465,
      "sengĠ": 3466,
      "tanĠkeĠ": 3467,
      "xianĠshengĠ": 3468,
      "duanĠdeĠ": 3469,
      "keĠnengĠhuiĠ": 3470,
      "gouĠzaoĠ": 3471,
      "yongĠtuĠ": 3472,
      "aoĠyunĠhuiĠ": 3473,
      "luĠwaĠ": 3474,
      "zhiĠdiĠ": 3475,
      "ĠĠĠdanĠ": 3476,
      "ĠhansĠ": 3477,
      "ĠtwĠ": 3478,
      "sunĠshiĠ": 3479,
      "biĠyeĠyuĠ": 3480,
      "ĠchunĠ": 3481,
      "shenĠweiĠ": 3482,
      "banĠfaĠ": 3483,
      "chuĠdaoĠ": 3484,
      "sanĠjiaoĠ": 3485,
      "Ġ2020ĠnianĠ": 3486,
      "ĠĠĠqianĠ": 3487,
      "zhaoĠdaoĠ": 3488,
      "ĠĠĠ2014ĠnianĠ": 3489,
      "shanĠdaĠ": 3490,
      "cuĠjinĠ": 3491,
      "heĠxiĠ": 3492,
      "taiĠguoĠ": 3493,
      "suiĠjiĠ": 3494,
      "tongĠmengĠ": 3495,
      "2007ĠnianĠ": 3496,
      "weiĠlianĠ": 3497,
      "tanĠpanĠ": 3498,
      "dongĠfangĠ": 3499,
      "guĠdingĠ": 3500,
      "fuĠzaĠ": 3501,
      "geĠerĠ": 3502,
      "shengĠtaiĠ": 3503,
      "zhuĠzuoĠ": 3504,
      "48Ġ": 3505,
      "jiangĠhuiĠ": 3506,
      "peiĠyinĠ": 3507,
      "tuiĠxiuĠ": 3508,
      "daĠweiĠ": 3509,
      "2015ĠnianĠ": 3510,
      "ĠĠĠkeĠ": 3511,
      "dongĠzuoĠ": 3512,
      "baoĠcunĠ": 3513,
      "ĠfuĠqinĠ": 3514,
      "siĠyuĠ": 3515,
      "siĠtaĠ": 3516,
      "guanĠceĠ": 3517,
      "shiĠfanĠ": 3518,
      "zhanĠlveĠ": 3519,
      "teĠĠĠ": 3520,
      "2011ĠnianĠ": 3521,
      "sheĠdeĠ": 3522,
      "cheĠxiaoĠ": 3523,
      "zengĠzhangĠ": 3524,
      "and": 3525,
      "deĠdiĠerĠ": 3526,
      "ï¼ı": 3527,
      "buĠbingĠ": 3528,
      "xingĠdengĠ": 3529,
      "zuiĠduoĠ": 3530,
      "uc": 3531,
      "zhuĠchangĠ": 3532,
      "zhengĠtiĠ": 3533,
      "jieĠsanĠ": 3534,
      "daoĠdanĠ": 3535,
      "shiĠdiĠ": 3536,
      "zhongĠduoĠ": 3537,
      "jueĠdeĠ": 3538,
      "mingĠmingĠweiĠ": 3539,
      "ĠshiĠrenĠ": 3540,
      "wanĠshangĠ": 3541,
      "guĠdaiĠ": 3542,
      "ĠĠĠ2015ĠnianĠ": 3543,
      "yiĠxueĠ": 3544,
      "shiĠgeĠ": 3545,
      "36": 3546,
      "xiangĠhuĠ": 3547,
      "riĠbaoĠ": 3548,
      "ĠĠĠdeĠshiĠquĠweiĠ": 3549,
      "ĠĠĠsuoĠshuĠdeĠshengĠjiĠxuanĠquĠweiĠ": 3550,
      "ĠĠĠdeĠyouĠzhengĠbianĠmaĠweiĠ": 3551,
      "ĠbingĠyouĠ": 3552,
      "ĠĠĠyuĠshiĠdeĠrenĠkouĠshuĠliangĠweiĠrenĠ": 3553,
      "jiaĠrenĠ": 3554,
      "ĠÑ": 3555,
      "gongĠjuĠ": 3556,
      "ĠĠĠyuĠjieĠrangĠdeĠshiĠzhenĠ": 3557,
      "ĠshiĠweiĠ": 3558,
      "niĠkeĠ": 3559,
      "alĠ": 3560,
      "baoĠzhangĠ": 3561,
      "xieĠdeĠ": 3562,
      "kongĠzhongĠ": 3563,
      "buĠdaoĠ": 3564,
      "gongĠyingĠ": 3565,
      "90": 3566,
      "ĠshiĠzhiĠ": 3567,
      "yinĠruĠ": 3568,
      "ĠĠĠ2013ĠnianĠ": 3569,
      "junĠzhuĠ": 3570,
      "ea": 3571,
      "zhuanĠmenĠ": 3572,
      "2006ĠnianĠ": 3573,
      "192": 3574,
      "boĠlinĠ": 3575,
      "dangĠzhongĠ": 3576,
      "buĠzhiĠ": 3577,
      "xinĠrenĠ": 3578,
      "suiĠzhuĠ": 3579,
      "taiĠnanĠ": 3580,
      "teĠerĠ": 3581,
      "shiĠfouĠ": 3582,
      "waiĠguoĠ": 3583,
      "lingĠxianĠ": 3584,
      "zhaoĠpianĠ": 3585,
      "buĠweiĠ": 3586,
      "AS": 3587,
      "iv": 3588,
      "geĠdaĠ": 3589,
      "jiĠyouĠ": 3590,
      "xiangĠyuĠ": 3591,
      "benĠshenĠ": 3592,
      "luĠshiĠ": 3593,
      "laĠdingĠ": 3594,
      "ziĠshenĠ": 3595,
      "feiĠjianĠzhiĠ": 3596,
      "wanĠyuanĠ": 3597,
      "shanĠquĠ": 3598,
      "ĠxiĠlieĠ": 3599,
      "Ġ00Ġ": 3600,
      "junĠquĠ": 3601,
      "100": 3602,
      "ĠĠĠc": 3603,
      "ĠĠĠaĠ": 3604,
      "xiaoĠguoĠ": 3605,
      "lvĠweiĠ": 3606,
      "tongĠdaoĠ": 3607,
      "suiĠdeĠ": 3608,
      "OS": 3609,
      "ĠĠP": 3610,
      "zhengĠchangĠ": 3611,
      "yingĠyeĠ": 3612,
      "taiĠfengĠ": 3613,
      "miĠmiĠ": 3614,
      "shangĠyiĠ": 3615,
      "chongĠqingĠ": 3616,
      "ĠhkĠ": 3617,
      "dangĠshiĠdeĠ": 3618,
      "daiĠlaiĠ": 3619,
      "shanĠjiĠ": 3620,
      "weiĠwuĠ": 3621,
      "kuoĠdaĠ": 3622,
      "jiĠbingĠ": 3623,
      "xinĠyangĠ": 3624,
      "19ĠnianĠ": 3625,
      "duiĠzhangĠ": 3626,
      "moĠerĠ": 3627,
      "canĠyiĠyuanĠ": 3628,
      "zuĠchengĠdeĠ": 3629,
      "189": 3630,
      "maĠlaĠ": 3631,
      "yongĠzuoĠ": 3632,
      "qiĠxiaĠ": 3633,
      "ĠtaĠcengĠdaiĠbiaoĠ": 3634,
      "ĠĠĠ2010ĠnianĠ": 3635,
      "ĠqingĠchaoĠ": 3636,
      "wangĠqiuĠ": 3637,
      "chuĠyanĠ": 3638,
      "feiĠjianĠzhiĠdiĠquĠ": 3639,
      "dongĠnanĠbuĠ": 3640,
      "shouĠgouĠ": 3641,
      "maĠerĠ": 3642,
      "ĠpoĠ": 3643,
      "daĠduoĠ": 3644,
      "tongĠpaiĠ": 3645,
      "191": 3646,
      "ĠnvĠxingĠ": 3647,
      "moĠsiĠkeĠ": 3648,
      "zeĠrenĠ": 3649,
      "fuĠzhouĠ": 3650,
      "duiĠxiangĠ": 3651,
      "queĠrenĠ": 3652,
      "jiaĠmengĠ": 3653,
      "renĠmingĠweiĠ": 3654,
      "shuĠzhongĠ": 3655,
      "ĠdongĠlinĠ": 3656,
      "niĠyaĠzhouĠ": 3657,
      "maĠsiĠ": 3658,
      "ĠzaoĠchengĠ": 3659,
      "4ĠgeĠ": 3660,
      "diĠtuĠ": 3661,
      "chengĠbaoĠ": 3662,
      "ĠjiaĠshangĠ": 3663,
      "daĠxiaoĠ": 3664,
      "yinĠpaiĠ": 3665,
      "2017ĠnianĠ": 3666,
      "ationĠĠĠ": 3667,
      "ĠjinĠruĠ": 3668,
      "heĠpanĠ": 3669,
      "zheĠyangĠ": 3670,
      "diĠmianĠ": 3671,
      "tiĠdaoĠ": 3672,
      "qiĠjiĠ": 3673,
      "gaoĠxiongĠ": 3674,
      "yiĠsiĠlanĠ": 3675,
      "xiangĠbiĠ": 3676,
      "yiĠshengĠ": 3677,
      "fuĠluoĠ": 3678,
      "zhiĠliangĠ": 3679,
      "fangĠwuĠ": 3680,
      "ĠdanĠyouĠyuĠ": 3681,
      "ut": 3682,
      "jianĠduĠ": 3683,
      "xiangĠxiĠ": 3684,
      "ĠjinĠxingĠ": 3685,
      "fuĠgaiĠ": 3686,
      "ĠyanĠjiuĠ": 3687,
      "ruanĠjianĠ": 3688,
      "guiĠzuĠ": 3689,
      "jiaĠliĠ": 3690,
      "yiĠminĠ": 3691,
      "shuĠruĠ": 3692,
      "xiangĠzhengĠ": 3693,
      "ĠdianĠshiĠ": 3694,
      "tuiĠyiĠ": 3695,
      "yiĠwuĠ": 3696,
      "ĠshiĠriĠbenĠ": 3697,
      "xiaoĠquĠ": 3698,
      "ĠĠĠjiaĠzuĠ": 3699,
      "huoĠjianĠ": 3700,
      "laoĠdongĠ": 3701,
      "buĠluĠ": 3702,
      "dianĠhuaĠ": 3703,
      "daiĠliĠ": 3704,
      "gongĠsiĠdeĠ": 3705,
      "39": 3706,
      "dingĠjuĠ": 3707,
      "faĠshouĠ": 3708,
      "keĠxueĠyuanĠ": 3709,
      "junĠguanĠ": 3710,
      "zhongĠguoĠdeĠ": 3711,
      "shiĠyiĠnianĠ": 3712,
      "ĠĠĠjieĠzhiĠ": 3713,
      "xingĠbieĠ": 3714,
      "xianĠheĠ": 3715,
      "taiĠziĠ": 3716,
      "xiĠbeiĠbuĠ": 3717,
      "douĠhuiĠ": 3718,
      "huoĠshanĠ": 3719,
      "KĠ": 3720,
      "liĠzhiĠ": 3721,
      "Ġ30Ġ": 3722,
      "buĠfuĠ": 3723,
      "xiangĠxinĠ": 3724,
      "aoĠdiĠliĠ": 3725,
      "ĠxiĠbanĠyaĠ": 3726,
      "ĠĠĠyiĠxiaĠ": 3727,
      "miĠyaĠ": 3728,
      "ĠweiĠfuĠqiĠyuĠgangĠ": 3729,
      "yunĠzuoĠ": 3730,
      "zhongĠziĠ": 3731,
      "xiĠsiĠ": 3732,
      "zhanĠjiĠ": 3733,
      "jingĠweiĠ": 3734,
      "2ĠĠĠ": 3735,
      "45": 3736,
      "youĠxingĠ": 3737,
      "geĠlunĠ": 3738,
      "keĠnengĠshiĠ": 3739,
      "yeĠhuiĠ": 3740,
      "huĠbeiĠ": 3741,
      "quanĠdeĠ": 3742,
      "daĠsaiĠ": 3743,
      "anĠshiĠ": 3744,
      "You": 3745,
      "liangĠrenĠ": 3746,
      "ĠĠĠzhĠ": 3747,
      "beiĠfangĠ": 3748,
      "mingĠyuĠ": 3749,
      "caiĠnengĠ": 3750,
      "shiĠweiĠleĠ": 3751,
      "1ĠĠĠ": 3752,
      "31Ġ": 3753,
      "wenĠduĠ": 3754,
      "xuĠliĠyaĠ": 3755,
      "ĠquanĠguoĠ": 3756,
      "2005ĠnianĠ": 3757,
      "ĠpengĠ": 3758,
      "zhongĠqiĠ": 3759,
      "paiĠhangĠ": 3760,
      "duiĠwaiĠ": 3761,
      "orĠ": 3762,
      "faĠguanĠ": 3763,
      "ĠyinĠerĠ": 3764,
      "fuĠzhiĠ": 3765,
      "liangĠciĠ": 3766,
      "manĠzuĠ": 3767,
      "zhangĠguanĠ": 3768,
      "daiĠbiaoĠtuanĠ": 3769,
      "ĠĠA": 3770,
      "chengĠleĠ": 3771,
      "qianĠzhiĠ": 3772,
      "daĠshaĠ": 3773,
      "tuĠpoĠ": 3774,
      "yiĠduanĠ": 3775,
      "nongĠminĠ": 3776,
      "suĠgeĠlanĠ": 3777,
      "erĠmanĠ": 3778,
      "meiĠniĠyaĠ": 3779,
      "kaiĠzhanĠ": 3780,
      "tuiĠjinĠ": 3781,
      "zaiĠshiĠ": 3782,
      "nianĠlaiĠ": 3783,
      "2020": 3784,
      "dianĠjiĠ": 3785,
      "banĠyanĠ": 3786,
      "Ġ188": 3787,
      "ĠxueĠxiaoĠ": 3788,
      "shouĠfuĠ": 3789,
      "Ġ2022ĠnianĠ": 3790,
      "siĠweiĠ": 3791,
      "190": 3792,
      "2013ĠnianĠ": 3793,
      "diĠanĠ": 3794,
      "kaiĠtongĠ": 3795,
      "ĠĠĠchuĠ": 3796,
      "huiĠyuanĠ": 3797,
      "shenĠhuaĠ": 3798,
      "ĠniuĠ": 3799,
      "ĠshuoĠ": 3800,
      "beiĠpoĠ": 3801,
      "shuĠyuanĠ": 3802,
      "jiaĠlaĠ": 3803,
      "ĠsheĠhuiĠ": 3804,
      "paiĠdeĠ": 3805,
      "ĠyinĠyueĠ": 3806,
      "xuĠkeĠ": 3807,
      "dangĠjuĠ": 3808,
      "ĠyouĠxieĠ": 3809,
      "buĠerĠ": 3810,
      "dengĠshangĠ": 3811,
      "niĠdeĠ": 3812,
      "huiĠshangĠ": 3813,
      "ĠbiĠruĠ": 3814,
      "renĠqiĠ": 3815,
      "ceĠdeĠ": 3816,
      "46": 3817,
      "ĠrengĠ": 3818,
      "biaoĠzhiĠ": 3819,
      "wangĠshiĠ": 3820,
      "49": 3821,
      "puĠtaoĠyaĠ": 3822,
      "zhiĠzhanĠ": 3823,
      "beiĠjiĠ": 3824,
      "zuoĠzheĠ": 3825,
      "ex": 3826,
      "fangĠyanĠ": 3827,
      "ĠyeĠyouĠ": 3828,
      "2004ĠnianĠ": 3829,
      "rongĠyiĠ": 3830,
      "shiĠqiĠdeĠ": 3831,
      "kunĠnanĠ": 3832,
      "tongĠxunĠ": 3833,
      "suiĠzheĠ": 3834,
      "2020ĠnianĠmeiĠguoĠrenĠkouĠpuĠchaĠdeĠshuĠjuĠ": 3835,
      "ali": 3836,
      "fenĠbuĠyuĠ": 3837,
      "nengĠliangĠ": 3838,
      "weiĠkeĠ": 3839,
      "weiĠxieĠ": 3840,
      "ĠmiaoĠ": 3841,
      "zhuangĠzhiĠ": 3842,
      "zhongĠxingĠ": 3843,
      "xiĠliĠ": 3844,
      "jingĠfangĠ": 3845,
      "lingĠdaoĠrenĠ": 3846,
      "feiĠlvĠbinĠ": 3847,
      "tianĠdeĠ": 3848,
      "kuoĠzhanĠ": 3849,
      "fanĠweiĠneiĠ": 3850,
      "naĠxieĠ": 3851,
      "2ĠgeĠ": 3852,
      "chuĠyiĠ": 3853,
      "yeĠdeĠ": 3854,
      "zeĠyouĠ": 3855,
      "ĠzheĠjiangĠ": 3856,
      "--": 3857,
      "ĠsheĠjiĠ": 3858,
      "ĠĠĠheĠ": 3859,
      "daĠxuanĠ": 3860,
      "ĠxianĠshiĠ": 3861,
      "mingĠyiĠ": 3862,
      "5ĠmiĠ": 3863,
      "ĠĠĠ2012ĠnianĠ": 3864,
      "ĠĠĠzaoĠnianĠ": 3865,
      "zhuanĠxiangĠ": 3866,
      "cunĠdeĠ": 3867,
      "up": 3868,
      "xiĠfangĠ": 3869,
      "shangĠrenĠ": 3870,
      "ĠĠĠ2023ĠnianĠ": 3871,
      "kaĠsiĠ": 3872,
      "ack": 3873,
      "wuĠtaiĠ": 3874,
      "jingĠduĠ": 3875,
      "yanĠshenĠ": 3876,
      "AR": 3877,
      "yiĠdingĠ": 3878,
      "jiĠgeĠ": 3879,
      "nianĠlingĠ": 3880,
      "duiĠkangĠ": 3881,
      "qinĠwangĠ": 3882,
      "shuangĠfangĠ": 3883,
      "zuoĠquĠ": 3884,
      "Ġn": 3885,
      "feiĠchuĠ": 3886,
      "lvĠxingĠ": 3887,
      "junĠtuanĠ": 3888,
      "deĠyiĠzhiĠ": 3889,
      "biĠsaiĠzhongĠ": 3890,
      "diĠbaĠ": 3891,
      "ĠshiĠqiĠ": 3892,
      "shiĠhuiĠ": 3893,
      "sheĠjiĠdeĠ": 3894,
      "ĠĠĠJ": 3895,
      "fenĠliĠ": 3896,
      "baoĠdeĠ": 3897,
      "ĠcanĠjiaĠ": 3898,
      "xianĠyiĠ": 3899,
      "kaĠluoĠ": 3900,
      "ĠbaoĠhanĠ": 3901,
      "buĠjinĠ": 3902,
      "tionĠĠĠ": 3903,
      "zhuĠzhaiĠ": 3904,
      "tuĠerĠqiĠ": 3905,
      "ĠsuiĠzheĠ": 3906,
      "IN": 3907,
      "renĠkouĠweiĠ": 3908,
      "luĠxuĠ": 3909,
      "ĠqiĠzhongĠbaoĠkuoĠ": 3910,
      "weiĠbeiĠ": 3911,
      "deĠzhiĠwuĠ": 3912,
      "aiĠdeĠ": 3913,
      "ĠĠĠqiĠtaĠ": 3914,
      "faĠhuiĠ": 3915,
      "ĠmingĠchaoĠzhengĠzhiĠrenĠwuĠ": 3916,
      "xiaĠquĠ": 3917,
      "ell": 3918,
      "zhongĠzaiĠ": 3919,
      "saĠsiĠ": 3920,
      "heĠguĠ": 3921,
      "taiĠduĠ": 3922,
      "aoĠzhouĠ": 3923,
      "daĠqiaoĠ": 3924,
      "ĠĠĠxiaoĠ": 3925,
      "taiĠkongĠ": 3926,
      "longĠjiangĠ": 3927,
      "chuangĠjianĠ": 3928,
      "wanĠgongĠ": 3929,
      "xunĠzhaoĠ": 3930,
      "peiĠheĠ": 3931,
      "sheĠdingĠ": 3932,
      "ĠhanĠguoĠ": 3933,
      "chengĠquĠ": 3934,
      "xianĠyouĠ": 3935,
      "baoĠshouĠ": 3936,
      "qiĠzhongĠyiĠzhongĠ": 3937,
      "ĠyingĠyuĠ": 3938,
      "ĠgongĠyouĠ": 3939,
      "gĠ": 3940,
      "jiaoĠhuanĠ": 3941,
      "yingĠliĠ": 3942,
      "changĠduĠ": 3943,
      "ĠbingĠyiĠ": 3944,
      "chengĠkeĠ": 3945,
      "xiĠshiĠ": 3946,
      "shengĠchuĠ": 3947,
      "ĠĠĠ192": 3948,
      "ĠxinĠzengĠ": 3949,
      "heiĠseĠ": 3950,
      "siĠdaĠ": 3951,
      "zuoĠyiĠ": 3952,
      "zheĠliĠ": 3953,
      "waiĠdeĠ": 3954,
      "ĠtieĠ": 3955,
      "zheĠxueĠ": 3956,
      "baoĠliĠ": 3957,
      "1ĠhaoĠ": 3958,
      "jiangĠlingĠ": 3959,
      "pingĠguĠ": 3960,
      "kaiĠsheĠ": 3961,
      "asĠĠĠ": 3962,
      "shangĠchangĠ": 3963,
      "jiuĠzhiĠ": 3964,
      "jiĠfuĠ": 3965,
      "ĠmeiĠnianĠ": 3966,
      "keĠlaĠ": 3967,
      "ĠyueĠhanĠ": 3968,
      "ĠlieĠ": 3969,
      "xingĠrenĠ": 3970,
      "paiĠqianĠ": 3971,
      "ĠxiĠwangĠ": 3972,
      "ziĠchanĠ": 3973,
      "ĠguoĠminĠ": 3974,
      "yuanĠyiĠ": 3975,
      "yuanĠyouĠ": 3976,
      "yuanĠheĠ": 3977,
      "fuĠmuĠ": 3978,
      "qingĠchaoĠ": 3979,
      "ĠfaĠxianĠ": 3980,
      "deĠyanĠjiuĠ": 3981,
      "00ĠrenĠ": 3982,
      "tiĠgongĠleĠ": 3983,
      "qiĠxiĠ": 3984,
      "chuĠshouĠ": 3985,
      "luoĠkeĠ": 3986,
      "ĠyouĠyiĠ": 3987,
      "ĠĠĠbeiĠjingĠ": 3988,
      "weiĠxinĠ": 3989,
      "youĠyongĠ": 3990,
      "geĠlaĠ": 3991,
      "jiaĠqiangĠ": 3992,
      "zhanĠlanĠ": 3993,
      "liuĠzaiĠ": 3994,
      "fuĠjinĠdeĠ": 3995,
      "huoĠbanĠ": 3996,
      "yuanĠgongĠ": 3997,
      "ĠnengĠ": 3998,
      "huangĠhouĠ": 3999,
      "faĠshiĠ": 4000,
      "fenĠlanĠ": 4001,
      "ĠnianĠ1ĠyueĠ1ĠriĠ": 4002,
      "zaiĠ199": 4003,
      "taoĠtaiĠ": 4004,
      "yuĠqiĠtaĠ": 4005,
      "liĠwuĠ": 4006,
      "gongĠjueĠ": 4007,
      "maĠtouĠ": 4008,
      "33Ġ": 4009,
      "beiĠshiĠweiĠ": 4010,
      "guanĠjianĠ": 4011,
      "ran": 4012,
      "ĠxuanĠbuĠ": 4013,
      "yanĠhaiĠ": 4014,
      "ĠyiĠmingĠ": 4015,
      "II": 4016,
      "jiĠsiĠ": 4017,
      "jiaĠzhouĠ": 4018,
      "shaĠsiĠ": 4019,
      "mi": 4020,
      "zhuaĠ": 4021,
      "erĠciĠ": 4022,
      "quanĠzhangĠ": 4023,
      "huĠshiĠ": 4024,
      "linĠdeĠ": 4025,
      "canĠxuanĠ": 4026,
      "ĠliĠshuĠyuĠ": 4027,
      "zhongĠjianĠ": 4028,
      "ziĠweiĠ": 4029,
      "tic": 4030,
      "TV": 4031,
      "ãģ": 4032,
      "ĠsĠĠĠ": 4033,
      "shenĠduĠ": 4034,
      "yiĠtiĠ": 4035,
      "liangĠnianĠ": 4036,
      "Ġ2001ĠnianĠrenĠkouĠ": 4037,
      "zaiĠ198": 4038,
      "ĠwenĠhuaĠ": 4039,
      "ĠjiaoĠyuĠ": 4040,
      "huiĠguiĠ": 4041,
      "qingĠchuĠ": 4042,
      "gengĠxinĠ": 4043,
      "qianĠtingĠ": 4044,
      "nongĠcunĠ": 4045,
      "daiĠyouĠ": 4046,
      "mianĠduiĠ": 4047,
      "anĠzhaoĠ": 4048,
      "xingĠyuĠ": 4049,
      "biaoĠbenĠ": 4050,
      "zhongĠweiĠ": 4051,
      "wuĠjiĠ": 4052,
      "anĠhuiĠ": 4053,
      "tongĠxinĠ": 4054,
      "haiĠbaĠgaoĠduĠ": 4055,
      "2001ĠnianĠ": 4056,
      "leiĠjiĠ": 4057,
      "deĠjiaoĠ": 4058,
      "huoĠyueĠ": 4059,
      "Ġà": 4060,
      "ĠĠB": 4061,
      "qiĠheĠ": 4062,
      "juĠbenĠ": 4063,
      "ĠwuĠkeĠlanĠ": 4064,
      "yuĠ193": 4065,
      "usĠĠĠ": 4066,
      "boĠsiĠ": 4067,
      "touĠluĠ": 4068,
      "shouĠxiangĠ": 4069,
      "liuĠyuĠ": 4070,
      "liaoĠjieĠ": 4071,
      "daĠyuĠ": 4072,
      "gaiĠchengĠ": 4073,
      "nanĠhaiĠ": 4074,
      "zhenĠdeĠ": 4075,
      "diĠdiĠ": 4076,
      "feiĠliĠ": 4077,
      "ĠchuĠyuĠ": 4078,
      "zhongĠbeiĠ": 4079,
      "fuĠzhuĠ": 4080,
      "guangĠdongĠshengĠ": 4081,
      "yunĠnanĠ": 4082,
      "shiĠsanĠ": 4083,
      "shouĠxiĠ": 4084,
      "meiĠliĠ": 4085,
      "xiaĠyiĠ": 4086,
      "teĠleiĠ": 4087,
      "fuĠshuĠ": 4088,
      "quĠleĠ": 4089,
      "ma": 4090,
      "daiĠlingĠ": 4091,
      "Ġ2004ĠnianĠ": 4092,
      "zhangĠyuĠ": 4093,
      "dangĠnianĠ": 4094,
      "xiaĠxiaĠdeĠyiĠgeĠ": 4095,
      "zengĠzuĠ": 4096,
      "xiĠnanĠbuĠ": 4097,
      "yuĠmaoĠqiuĠ": 4098,
      "xiĠerĠ": 4099,
      "47": 4100,
      "dianĠqiĠ": 4101,
      "ĠhouĠzheĠ": 4102,
      "queĠzhenĠbingĠliĠ": 4103,
      "ĠCĠ": 4104,
      "buĠlaĠ": 4105,
      "jiangĠjinĠ": 4106,
      "ĠjianĠzhuĠ": 4107,
      "bianĠjuĠ": 4108,
      "ĠluĠwaĠ": 4109,
      "ff": 4110,
      "ĠĠĠxianĠ": 4111,
      "yuanĠzeĠ": 4112,
      "ĠerĠshuiĠyuĠmianĠjiĠweiĠ0": 4113,
      "ãĥ»": 4114,
      "36Ġ": 4115,
      "ÃĹ": 4116,
      "shouĠzhangĠ": 4117,
      "ĠxianĠrenĠ": 4118,
      "ĠĠĠmeiĠguoĠ": 4119,
      "weiĠxianĠ": 4120,
      "fuĠsheĠ": 4121,
      "shanĠdeĠ": 4122,
      "lingĠyiĠgeĠ": 4123,
      "ĠjingĠjiĠ": 4124,
      "Ġ7Ġ": 4125,
      "jieĠtiĠ": 4126,
      "lingĠdiĠ": 4127,
      "xiuĠzhengĠ": 4128,
      "ĠjueĠdingĠ": 4129,
      "lianĠrenĠ": 4130,
      "dengĠdengĠ": 4131,
      "jiĠxieĠ": 4132,
      "jianĠrenĠ": 4133,
      "ĠzuiĠchuĠ": 4134,
      "yiĠliaoĠ": 4135,
      "jiuĠhuiĠ": 4136,
      "1ĠliĠ": 4137,
      "xinĠjiangĠ": 4138,
      "ĠsuiĠzhuĠ": 4139,
      "38Ġ": 4140,
      "chengĠliĠdeĠ": 4141,
      "all": 4142,
      "daĠbanĠ": 4143,
      "10ĠnianĠ": 4144,
      "zhuanĠhuanĠ": 4145,
      "yueĠduiĠ": 4146,
      "houĠbeiĠ": 4147,
      "qingĠhuaĠ": 4148,
      "jiĠerĠ": 4149,
      "gaoĠjiaĠ": 4150,
      "tianĠhuangĠ": 4151,
      "ĠlunĠ": 4152,
      "qiĠdongĠ": 4153,
      "boĠdeĠ": 4154,
      "ĠerĠgaiĠdiĠ": 4155,
      "Ġ8Ġ": 4156,
      "ĠĠĠbaĠ": 4157,
      "yuanĠliĠ": 4158,
      "chuanĠmeiĠ": 4159,
      "shengĠzhiĠ": 4160,
      "ĠjiĠshiĠ": 4161,
      "mingĠqueĠ": 4162,
      "fenĠdeĠ": 4163,
      "muĠniĠ": 4164,
      "youĠliĠ": 4165,
      "banĠshiĠchuĠ": 4166,
      "ĠhuaiĠ": 4167,
      "ĠĠĠK": 4168,
      "qingĠqiuĠ": 4169,
      "suoĠdeĠ": 4170,
      "kangĠriĠ": 4171,
      "ĠpingĠjunĠ": 4172,
      "gongĠyiĠ": 4173,
      "zaiĠbeiĠ": 4174,
      "55": 4175,
      "ay": 4176,
      "nanĠfangĠ": 4177,
      "zhongĠzuĠ": 4178,
      "chaiĠchuĠ": 4179,
      "xiaoĠliĠ": 4180,
      "ziĠshiĠ": 4181,
      "tuoĠliĠ": 4182,
      "AM": 4183,
      "qu": 4184,
      "riĠzhiĠ": 4185,
      "zhengĠfuĠdeĠ": 4186,
      "isĠĠĠ": 4187,
      "taĠshiĠ": 4188,
      "Ġ2000ĠnianĠ": 4189,
      "ĠzhengĠzhiĠ": 4190,
      "faĠxingĠdeĠ": 4191,
      "xinĠliĠ": 4192,
      "ĠxingĠzhengĠ": 4193,
      "guoĠduĠ": 4194,
      "ST": 4195,
      "jiaĠzhongĠ": 4196,
      "liangĠxiangĠ": 4197,
      "neiĠzhanĠ": 4198,
      "huiĠyuĠ": 4199,
      "ĠhuoĠzheĠ": 4200,
      "ationĠ": 4201,
      "junĠyouĠ": 4202,
      "ĠyongĠyouĠ": 4203,
      "zhongĠyiĠyuanĠ": 4204,
      "heĠweiĠ": 4205,
      "siĠdunĠ": 4206,
      "yanĠseĠ": 4207,
      "ĠsheĠyouĠ": 4208,
      "houĠzaiĠ": 4209,
      "taiĠdeĠ": 4210,
      "yanĠyiĠ": 4211,
      "cuoĠwuĠ": 4212,
      "ĠĠĠO": 4213,
      "ĠyiĠmeiĠyuanĠ": 4214,
      "ĠĠĠ2011ĠnianĠ": 4215,
      "geiĠleĠ": 4216,
      "2025ĠnianĠ": 4217,
      "ĠshiĠyiĠmingĠ": 4218,
      "BC": 4219,
      "âĶ": 4220,
      "jieĠyouĠ": 4221,
      "juĠzhongĠ": 4222,
      "fuĠhaoĠ": 4223,
      "yanĠzhiĠ": 4224,
      "yaĠdeĠ": 4225,
      "huaĠrenĠ": 4226,
      "mianĠfeiĠ": 4227,
      "huanĠzheĠ": 4228,
      "tuiĠguangĠ": 4229,
      "jianĠyouĠ": 4230,
      "shengĠrenĠ": 4231,
      "daĠzhongĠ": 4232,
      "duiĠciĠ": 4233,
      "mingĠxingĠ": 4234,
      "ĠyinĠqiĠ": 4235,
      "ĠzhongĠdeĠ": 4236,
      "hangĠtianĠ": 4237,
      "ĠgenĠ": 4238,
      "xingĠmuĠ": 4239,
      "guĠliĠ": 4240,
      "nuoĠweiĠ": 4241,
      "ĠĠĠjuĠqingĠ": 4242,
      "xianĠruĠ": 4243,
      "ĠdongĠbeiĠ": 4244,
      "diĠzaiĠ": 4245,
      "jiangĠxiĠ": 4246,
      "ĠĠĠ2024ĠnianĠ": 4247,
      "ingĠĠĠ": 4248,
      "shiĠbaoĠ": 4249,
      "keĠlaiĠ": 4250,
      "wanĠzhengĠ": 4251,
      "keĠxiĠ": 4252,
      "qianĠyiĠ": 4253,
      "GĠ": 4254,
      "gongĠanĠ": 4255,
      "shaĠhaiĠ": 4256,
      "luĠyingĠ": 4257,
      "niĠxiĠyaĠ": 4258,
      "henĠdaĠ": 4259,
      "ganĠranĠzheĠ": 4260,
      "ĠguanĠyuĠ": 4261,
      "34": 4262,
      "STĠ": 4263,
      "bianĠxingĠ": 4264,
      "liuĠxiaĠ": 4265,
      "jiĠyinĠ": 4266,
      "beiĠdeĠ": 4267,
      "meiĠshuĠ": 4268,
      "zhuĠyiĠzheĠ": 4269,
      "ĠĠĠguĠ": 4270,
      "geĠjuĠ": 4271,
      "ĠyiĠjingĠ": 4272,
      "Ġ15Ġ": 4273,
      "xianĠshangĠ": 4274,
      "keĠlinĠ": 4275,
      "huoĠbiĠ": 4276,
      "qianĠdingĠ": 4277,
      "xieĠtiaoĠ": 4278,
      "ï¼ħ": 4279,
      "ĠĠĠxiangĠgangĠ": 4280,
      "houĠyiĠ": 4281,
      "biĠyaoĠ": 4282,
      "zhiĠluĠ": 4283,
      "tuĠranĠ": 4284,
      "zeĠweiĠ": 4285,
      "canĠtingĠ": 4286,
      "lianĠdeĠ": 4287,
      "buĠsiĠ": 4288,
      "jueĠduiĠ": 4289,
      "ĠerĠgaiĠ": 4290,
      "shiĠyongĠyuĠ": 4291,
      "chengĠzhongĠ": 4292,
      "huĠyuĠ": 4293,
      "genĠtingĠ": 4294,
      "nanĠyiĠ": 4295,
      "keĠyiĠzaiĠ": 4296,
      "zhiĠkongĠ": 4297,
      "saiĠdeĠ": 4298,
      "ĠliĠshiĠ": 4299,
      "âĶĢ": 4300,
      "oh": 4301,
      "yuanĠxianĠ": 4302,
      "riĠqiĠ": 4303,
      "tuĠxingĠ": 4304,
      "baiĠrenĠ": 4305,
      "ĠĠĠciĠwaiĠ": 4306,
      "weiĠaiĠ": 4307,
      "jianĠweiĠ": 4308,
      "ĠmeiĠgeĠ": 4309,
      "shanĠshiĠ": 4310,
      "Ġ187": 4311,
      "erĠyuanĠ": 4312,
      "zongĠrenĠkouĠ": 4313,
      "ĠĠĠxiaĠ": 4314,
      "zhiĠzhengĠ": 4315,
      "gongĠdeĠ": 4316,
      "guoĠjiaĠdeĠ": 4317,
      "guanĠliĠjuĠ": 4318,
      "Window": 4319,
      "jiaĠheĠ": 4320,
      "huĠnanĠ": 4321,
      "shuiĠkuĠ": 4322,
      "buĠdianĠyingĠ": 4323,
      "daiĠbuĠ": 4324,
      "benĠdiĠ": 4325,
      "liĠchangĠ": 4326,
      "faĠtingĠ": 4327,
      "lanĠdeĠ": 4328,
      "zengĠqiangĠ": 4329,
      "ĠshunĠ": 4330,
      "HĠ": 4331,
      "liĠfangĠ": 4332,
      "xiĠxingĠbuĠmingĠ": 4333,
      "ĠjiaĠruĠ": 4334,
      "yiĠjiaoĠ": 4335,
      "zhangĠshiĠ": 4336,
      "dengĠchangĠ": 4337,
      "tianĠshiĠ": 4338,
      "tuĠzhongĠ": 4339,
      "buĠshuĠ": 4340,
      "jiĠcheĠ": 4341,
      "weiĠdiĠ": 4342,
      "faĠyanĠ": 4343,
      "houĠxuĠ": 4344,
      "ĠzhiĠshiĠ": 4345,
      "xunĠyangĠ": 4346,
      "naĠcuiĠ": 4347,
      "beiĠrenĠweiĠshiĠ": 4348,
      "ĠshengĠhuoĠxiĠxingĠbuĠmingĠ": 4349,
      "ĠĠĠzhongĠguoĠ": 4350,
      "huoĠxingĠ": 4351,
      "lianĠluoĠ": 4352,
      "moĠniĠ": 4353,
      "ĠzhaĠ": 4354,
      "yunĠyongĠ": 4355,
      "deĠyiĠxieĠ": 4356,
      "ĠciĠnianĠ": 4357,
      "Ġ2002ĠnianĠ": 4358,
      "xiĠtongĠdeĠ": 4359,
      "ĠgongĠsiĠ": 4360,
      "fanĠdeĠ": 4361,
      "jiĠyaĠ": 4362,
      "changĠwuĠ": 4363,
      "qingĠdeĠ": 4364,
      "cuiĠhuiĠ": 4365,
      "zhuangĠshiĠ": 4366,
      "youĠxiuĠ": 4367,
      "ĠĠĠmaĠ": 4368,
      "weiĠheĠ": 4369,
      "pingĠminĠ": 4370,
      "Ġ186": 4371,
      "jiĠxingĠ": 4372,
      "guoĠwuĠyuanĠ": 4373,
      "deĠfuĠqinĠ": 4374,
      "zhuĠceĠ": 4375,
      "tianĠtiĠ": 4376,
      "keĠshiĠ": 4377,
      "shiĠjieĠshangĠ": 4378,
      "shanĠxiĠshengĠ": 4379,
      "keĠyuĠ": 4380,
      "zuoĠbiaoĠweiĠ": 4381,
      "37Ġ": 4382,
      "lianĠheĠhuiĠ": 4383,
      "muĠsiĠlinĠ": 4384,
      "geĠziĠ": 4385,
      "zhengĠbianĠ": 4386,
      "tongĠdeĠ": 4387,
      "leĠtaĠdeĠ": 4388,
      "tiĠyuĠchangĠ": 4389,
      "zhongĠgongĠzhongĠyangĠ": 4390,
      "fengĠfuĠ": 4391,
      "42Ġ": 4392,
      "qiĠxuanĠ": 4393,
      "shenĠchaĠ": 4394,
      "qiangĠduĠ": 4395,
      "diĠerĠciĠshiĠjieĠdaĠzhanĠ": 4396,
      "ear": 4397,
      "shiĠjiuĠ": 4398,
      "jinĠyiĠ": 4399,
      "jinĠdangĠ": 4400,
      "xiuĠfuĠ": 4401,
      "ĠgongĠyuanĠ": 4402,
      "tu": 4403,
      "zhouĠqiĠ": 4404,
      "ĠĠĠsuiĠranĠ": 4405,
      "shouĠzhongĠ": 4406,
      "bianĠjingĠ": 4407,
      "ĠĠĠyinĠ": 4408,
      "ĠcanĠyuĠ": 4409,
      "mianĠdianĠ": 4410,
      "bingĠshiĠ": 4411,
      "ĠCh": 4412,
      "zhuiĠsuĠ": 4413,
      "jingĠgaoĠ": 4414,
      "fangĠweiĠ": 4415,
      "wangĠwangĠ": 4416,
      "ĠjiĠyuĠ": 4417,
      "yuanĠzhuĠminĠ": 4418,
      "heĠheĠ": 4419,
      "tianĠhouĠ": 4420,
      "ĠwanĠjiaĠ": 4421,
      "lingĠrenĠ": 4422,
      "teĠlaĠ": 4423,
      "deĠerĠ": 4424,
      "zaiĠriĠbenĠ": 4425,
      "zhanĠxianĠ": 4426,
      "ĠtaĠyiĠ": 4427,
      "etĠĠĠ": 4428,
      "ĠĠĠzengĠzuĠ": 4429,
      "beiĠpingĠ": 4430,
      "75Ġ": 4431,
      "xiangĠyingĠ": 4432,
      "xiuĠjianĠ": 4433,
      "ĠshiĠyiĠweiĠ": 4434,
      "ĠfaĠxingĠ": 4435,
      "ĠĠĠyueĠ": 4436,
      "ciĠzhiĠ": 4437,
      "34Ġ": 4438,
      "changĠjianĠ": 4439,
      "Ġ000": 4440,
      "wuĠziĠ": 4441,
      "qingĠshiĠ": 4442,
      "ceĠlveĠ": 4443,
      "BS": 4444,
      "gengĠweiĠ": 4445,
      "youĠyiĠxieĠ": 4446,
      "lieĠdeĠ": 4447,
      "liĠyouĠ": 4448,
      "diĠdaiĠ": 4449,
      "gaoĠdaĠ": 4450,
      "Ġ2023ĠnianĠ": 4451,
      "maĠdeĠ": 4452,
      "ĠrenĠmenĠ": 4453,
      "shiĠjianĠdeĠ": 4454,
      "zhiĠyeĠshengĠyaĠ": 4455,
      "xiaoĠfeiĠ": 4456,
      "cunĠluoĠ": 4457,
      "shiĠyiĠmingĠ": 4458,
      "kaoĠguĠ": 4459,
      "zouĠxiangĠ": 4460,
      "12ĠnianĠ": 4461,
      "ĠouĠzhouĠ": 4462,
      "shiĠjiaĠ": 4463,
      "shouĠquanĠ": 4464,
      "liangĠguoĠ": 4465,
      "jiuĠdeĠ": 4466,
      "shenĠzhenĠ": 4467,
      "suoĠcaiĠyongĠ": 4468,
      "nanĠfeiĠ": 4469,
      "ĠyongĠyuĠ": 4470,
      "zuĠqiuĠduiĠ": 4471,
      "daĠqiĠ": 4472,
      "wuĠdaoĠ": 4473,
      "changĠjingĠ": 4474,
      "yaĠjunĠ": 4475,
      "tianĠranĠ": 4476,
      "etĠ": 4477,
      "zhengĠheĠ": 4478,
      "laiĠyinĠ": 4479,
      "xunĠhuanĠ": 4480,
      "shiĠfenĠ": 4481,
      "siĠfaĠ": 4482,
      "cheĠxiangĠ": 4483,
      "tianĠjingĠ": 4484,
      "zaiĠjiĠ": 4485,
      "ĠĠĠ6": 4486,
      "ĠĠĠwanĠ": 4487,
      "tiaoĠliĠ": 4488,
      "shiĠwuĠnianĠ": 4489,
      "jiangĠdeĠ": 4490,
      "zuĠgouĠ": 4491,
      "gangĠkouĠ": 4492,
      "guangĠxuĠ": 4493,
      "xunĠzhangĠ": 4494,
      "ill": 4495,
      "aiĠjiĠ": 4496,
      "renĠyuĠ": 4497,
      "xieĠzuoĠ": 4498,
      "tuĠjingĠ": 4499,
      "daĠxueĠdeĠ": 4500,
      "ang": 4501,
      "duiĠqiĠ": 4502,
      "75": 4503,
      "yiĠheĠ": 4504,
      "naĠxiaĠ": 4505,
      "ĠĠĠdiĠfangĠ": 4506,
      "daĠzhiĠ": 4507,
      "xianĠjiĠ": 4508,
      "jinĠbuĠ": 4509,
      "2003ĠnianĠ": 4510,
      "ĠzuiĠgaoĠ": 4511,
      "ĠshengĠyuĠ": 4512,
      "ai": 4513,
      "jinĠriĠ": 4514,
      "tongĠmingĠ": 4515,
      "zheĠciĠ": 4516,
      "kaĠlaĠ": 4517,
      "188": 4518,
      "ĠnanĠzhiĠ": 4519,
      "ĠguangĠdongĠ": 4520,
      "46Ġ": 4521,
      "faĠmingĠ": 4522,
      "baoĠluoĠ": 4523,
      "ĠyanĠyuanĠ": 4524,
      "shiĠbaĠ": 4525,
      "liĠxiĠ": 4526,
      "shanĠfengĠ": 4527,
      "ĠĠĠ2008ĠnianĠ": 4528,
      "CO": 4529,
      "fuĠxingĠ": 4530,
      "haiĠpingĠmianĠ": 4531,
      "siĠshengĠ": 4532,
      "yuanĠjingĠ": 4533,
      "fuĠyinĠ": 4534,
      "huaĠshengĠdunĠ": 4535,
      "jiangĠshuĠ": 4536,
      "miĠniĠ": 4537,
      "xieĠerĠ": 4538,
      "shaoĠnvĠ": 4539,
      "zanĠtingĠ": 4540,
      "quĠyiĠhuiĠ": 4541,
      "mingĠzhiĠ": 4542,
      "dangĠyuanĠ": 4543,
      "ĠdongĠnanĠ": 4544,
      "liĠchengĠ": 4545,
      "zaiĠxiangĠgangĠ": 4546,
      "qianĠshiĠ": 4547,
      "leiĠdaĠ": 4548,
      "yiĠxiaoĠshiĠ": 4549,
      "liĠgongĠ": 4550,
      "juĠtiĠ": 4551,
      "changĠsuoĠ": 4552,
      "zhouĠciĠshiĠ": 4553,
      "enĠshengĠ": 4554,
      "siĠhouĠ": 4555,
      "ziĠshaĠ": 4556,
      "ĠshiĠyanĠ": 4557,
      "xiaoĠyuanĠ": 4558,
      "daĠjiaĠ": 4559,
      "meiĠjunĠ": 4560,
      "jiuĠyuanĠ": 4561,
      "peiĠxunĠ": 4562,
      "dangĠdiĠdeĠ": 4563,
      "feiĠyanĠ": 4564,
      "ĠluoĠmaĠ": 4565,
      "keĠdeĠqiĠzhongĠyiĠzhongĠ": 4566,
      "liĠbuĠ": 4567,
      "liangĠmingĠ": 4568,
      "suoĠchuĠdeĠ": 4569,
      "zeĠdongĠ": 4570,
      "changĠheĠ": 4571,
      "ĠjuĠyouĠ": 4572,
      "xiangĠguanĠdeĠ": 4573,
      "ĠzhongĠhuaĠrenĠminĠgongĠheĠguoĠzhengĠzhiĠrenĠwuĠ": 4574,
      "daĠlianĠmengĠ": 4575,
      "jieĠrenĠ": 4576,
      "duĠliĠdeĠ": 4577,
      "suĠdeĠ": 4578,
      "qunĠtiĠ": 4579,
      "500Ġ": 4580,
      "fuĠyouĠ": 4581,
      "juĠdaĠ": 4582,
      "chanĠshengĠdeĠ": 4583,
      "ĠĠĠ4": 4584,
      "taiĠhouĠ": 4585,
      "ĠjiĠhuaĠ": 4586,
      "shangĠshengĠ": 4587,
      "shenĠshiĠ": 4588,
      "guĠlaoĠ": 4589,
      "99": 4590,
      "ĠkouĠ": 4591,
      "huangĠseĠ": 4592,
      "jinĠyouĠ": 4593,
      "laiĠyueĠ": 4594,
      "1ĠgeĠ": 4595,
      "ĠdaĠbuĠfenĠ": 4596,
      "yiĠnanĠ": 4597,
      "Ġ2003ĠnianĠ": 4598,
      "jiĠjinĠhuiĠ": 4599,
      "shangĠxiaĠ": 4600,
      "teĠxingĠ": 4601,
      "haoĠweiĠ": 4602,
      "ĠzhiĠzuoĠ": 4603,
      "ĠĠT": 4604,
      "siĠheĠ": 4605,
      "xinĠguanĠ": 4606,
      "zhuanĠxieĠ": 4607,
      "jiĠduĠjiaoĠ": 4608,
      "fuĠleiĠ": 4609,
      "miĠqieĠ": 4610,
      "ĠxiĠjieĠ": 4611,
      "shiĠbaiĠ": 4612,
      "huoĠcheĠ": 4613,
      "nter": 4614,
      "yiĠxingĠ": 4615,
      "ĠshiĠdeĠguoĠ": 4616,
      "gongĠyuĠ": 4617,
      "xinĠxingĠ": 4618,
      "lvĠseĠ": 4619,
      "zaiĠgaiĠ": 4620,
      "daĠbaiĠ": 4621,
      "fuĠerĠ": 4622,
      "xiaoĠfangĠ": 4623,
      "waiĠbuĠ": 4624,
      "zuĠqiuĠyunĠdongĠyuanĠ": 4625,
      "siĠmaĠ": 4626,
      "ĠweiĠlianĠ": 4627,
      "fengĠweiĠ": 4628,
      "ĠxiangĠnianĠ": 4629,
      "ĠmaĠlaiĠ": 4630,
      "ĠyeĠjiuĠshiĠ": 4631,
      "ĠsangĠ": 4632,
      "ĠyouĠshiĠ": 4633,
      "2ĠhaoĠ": 4634,
      "ĠlangĠ": 4635,
      "keĠliĠsiĠ": 4636,
      "ziĠbenĠ": 4637,
      "eri": 4638,
      "shuĠzhiĠ": 4639,
      "ĠgaiĠcunĠ": 4640,
      "xiongĠyaĠliĠ": 4641,
      "miĠshuĠzhangĠ": 4642,
      "zhongĠhaiĠ": 4643,
      "ĠshiĠwuĠkeĠlanĠ": 4644,
      "jiangĠzaiĠ": 4645,
      "changĠjianĠdeĠ": 4646,
      "liangĠceĠ": 4647,
      "leĠyiĠxieĠ": 4648,
      "deĠchengĠ": 4649,
      "junĠyiĠ": 4650,
      "lingĠchenĠ": 4651,
      "Ch": 4652,
      "huiĠbeiĠ": 4653,
      "shuĠmuĠ": 4654,
      "gongĠqingĠ": 4655,
      "ĠyiĠdaĠliĠ": 4656,
      "65Ġ": 4657,
      "qianĠrenĠ": 4658,
      "huĠxiangĠ": 4659,
      "ĠĠĠ5": 4660,
      "xinĠzengĠ": 4661,
      "jiaoĠyouĠ": 4662,
      "ĠjiĠzaiĠ": 4663,
      "kongĠbuĠ": 4664,
      "qinĠziĠ": 4665,
      "zuiĠhouĠyiĠ": 4666,
      "zhanĠduiĠ": 4667,
      "guoĠhouĠ": 4668,
      "shouĠxianĠ": 4669,
      "fangĠjianĠ": 4670,
      "zhangĠfuĠ": 4671,
      "feiĠerĠ": 4672,
      "xingĠdengĠweiĠ": 4673,
      "yinĠxiangĠ": 4674,
      "deĠshiĠyongĠ": 4675,
      "biĠyeĠhouĠ": 4676,
      "ĠĠR": 4677,
      "ĠĠĠaiĠ": 4678,
      "daoĠyuanĠ": 4679,
      "yunĠshiĠ": 4680,
      "piĠfuĠ": 4681,
      "gangĠtieĠ": 4682,
      "1ĠyueĠ": 4683,
      "luĠzhiĠ": 4684,
      "niĠerĠ": 4685,
      "ĠzhiĠyuĠ": 4686,
      "yinĠyongĠ": 4687,
      "banĠjiangĠ": 4688,
      "ĠyouĠqiĠshiĠ": 4689,
      "2002ĠnianĠ": 4690,
      "chaoĠshiĠ": 4691,
      "keĠheĠ": 4692,
      "duiĠyingĠ": 4693,
      "gaiĠmingĠweiĠ": 4694,
      "cheĠchangĠ": 4695,
      "buĠruĠ": 4696,
      "jianĠchiĠ": 4697,
      "ĠxingĠchengĠ": 4698,
      "geĠlunĠbiĠyaĠ": 4699,
      "nangĠ": 4700,
      "fenĠzhiĠyiĠ": 4701,
      "maiĠkeĠ": 4702,
      "zhongĠjiangĠ": 4703,
      "shangĠwangĠ": 4704,
      "shouĠcangĠ": 4705,
      "luoĠjiĠ": 4706,
      "guoĠjiĠjiĠchangĠ": 4707,
      "zhaĠdanĠ": 4708,
      "ziĠshengĠ": 4709,
      "pingĠhengĠ": 4710,
      "nengĠyuanĠ": 4711,
      "zhengĠzhuangĠganĠranĠzheĠ": 4712,
      "ĠtiĠgongĠ": 4713,
      "deĠjieĠ": 4714,
      "ĠĠĠV": 4715,
      "zhuĠbuĠ": 4716,
      "ĠyiĠnianĠ": 4717,
      "nuoĠfuĠ": 4718,
      "gongĠkaiĠsaiĠ": 4719,
      "xiaĠlingĠshiĠjianĠ": 4720,
      "shiĠbingĠ": 4721,
      "liĠshuĠyuĠ": 4722,
      "geĠjiĠ": 4723,
      "juĠyuĠ": 4724,
      "fangĠkongĠ": 4725,
      "changĠjiangĠ": 4726,
      "ĠyiĠshuĠ": 4727,
      "zaoĠyuĠ": 4728,
      "yiĠdaĠ": 4729,
      "dangĠweiĠ": 4730,
      "guangĠxiĠ": 4731,
      "chuĠbanĠsheĠ": 4732,
      "ER": 4733,
      "ĠtongĠshiĠgaiĠdiĠ": 4734,
      "zaiĠ197": 4735,
      "IS": 4736,
      "liĠqiĠ": 4737,
      "zaiĠzhongĠguoĠ": 4738,
      "ĠyiĠbianĠ": 4739,
      "suoĠweiĠ": 4740,
      "yuĠ190": 4741,
      "ĠĠĠ2009ĠnianĠ": 4742,
      "neiĠluĠshengĠfenĠ": 4743,
      "zuoĠshiĠ": 4744,
      "jiangĠhuĠ": 4745,
      "duiĠfangĠ": 4746,
      "lay": 4747,
      "ubeĠ": 4748,
      "ĠreĠ": 4749,
      "zaiĠzhongĠ": 4750,
      "zhengĠquĠ": 4751,
      "ĠxiĠnanĠ": 4752,
      "ric": 4753,
      "55Ġ": 4754,
      "fĠ": 4755,
      "nuanĠ": 4756,
      "renĠjiĠ": 4757,
      "ĠbiĠsaiĠ": 4758,
      "ĠchaoĠxianĠ": 4759,
      "anĠdaĠ": 4760,
      "heĠyuĠ": 4761,
      "gongĠchengĠshiĠ": 4762,
      "fuĠhuaĠ": 4763,
      "shouĠboĠ": 4764,
      "xiaoĠliangĠ": 4765,
      "ĠyouĠqiĠ": 4766,
      "dongĠshiĠzhangĠ": 4767,
      "ĠZ": 4768,
      "shiĠliuĠ": 4769,
      "wuĠsiĠ": 4770,
      "zhangĠziĠ": 4771,
      "deĠjiĠchuĠ": 4772,
      "ĠaĠerĠ": 4773,
      "erĠyuĠ": 4774,
      "zhangĠzhuanĠjiĠ": 4775,
      "shangĠhaiĠshiĠ": 4776,
      "fuĠjiĠ": 4777,
      "beiĠjingĠshiĠ": 4778,
      "ĠxuĠyaoĠ": 4779,
      "wenĠdeĠ": 4780,
      "deĠyiĠshuĠ": 4781,
      "15ĠnianĠ": 4782,
      "29Ġ": 4783,
      "buĠlaiĠ": 4784,
      "daĠsuanĠ": 4785,
      "jiaĠliĠfuĠ": 4786,
      "hanĠyouĠ": 4787,
      "NA": 4788,
      "danĠmaiĠ": 4789,
      "tianĠqiĠ": 4790,
      "linĠjinĠ": 4791,
      "guiĠfanĠ": 4792,
      "ĠĠĠjianĠjieĠ": 4793,
      "zhiĠ199": 4794,
      "buĠbuĠzhangĠ": 4795,
      "zhanĠchangĠ": 4796,
      "yanĠzouĠ": 4797,
      "luĠkouĠ": 4798,
      "qianĠxiĠ": 4799,
      "ĠshiĠzhongĠguoĠ": 4800,
      "laĠjiĠ": 4801,
      "saiĠerĠweiĠyaĠ": 4802,
      "jingĠneiĠgongĠyouĠ": 4803,
      "xiĠzangĠ": 4804,
      "tiĠyiĠ": 4805,
      "douĠzaiĠ": 4806,
      "renĠminĠbiĠ": 4807,
      "faĠlanĠxiĠ": 4808,
      "liĠjieĠ": 4809,
      "danĠshuiĠ": 4810,
      "tuĠshaĠ": 4811,
      "hanĠyuĠ": 4812,
      "taĠweiĠ": 4813,
      "changĠdiĠ": 4814,
      "qianĠyueĠ": 4815,
      "duoĠliĠyaĠ": 4816,
      "liĠleĠ": 4817,
      "daoĠshangĠ": 4818,
      "mingĠrenĠ": 4819,
      "19Ġ": 4820,
      "ĠteĠbieĠshiĠ": 4821,
      "xueĠdeĠ": 4822,
      "lunĠdeĠ": 4823,
      "jiĠjieĠ": 4824,
      "chuĠzhangĠ": 4825,
      "sheĠyuĠ": 4826,
      "wanĠmeiĠyuanĠ": 4827,
      "xieĠdaoĠ": 4828,
      "biĠliĠshiĠ": 4829,
      "duanĠzanĠ": 4830,
      "zhuĠyaoĠdeĠ": 4831,
      "heĠzhongĠ": 4832,
      "erĠrenĠ": 4833,
      "jiaoĠchaĠ": 4834,
      "fanĠzhiĠ": 4835,
      "ĠĠĠxiangĠ": 4836,
      "buĠzhuĠ": 4837,
      "30ĠnianĠ": 4838,
      "shiĠguĠ": 4839,
      "lianĠwangĠ": 4840,
      "Ġ12Ġ": 4841,
      "ĠĠĠdiĠfangĠziĠliaoĠ": 4842,
      "ĠY": 4843,
      "yanĠanĠ": 4844,
      "naĠzhouĠ": 4845,
      "50ĠnianĠ": 4846,
      "Ġ10ĠyueĠ": 4847,
      "jingĠyouĠ": 4848,
      "tiĠxingĠ": 4849,
      "chuĠjiĠ": 4850,
      "juĠyuanĠ": 4851,
      "ĠjieĠmuĠ": 4852,
      "sp": 4853,
      "shiĠkeĠ": 4854,
      "xianĠzhuĠ": 4855,
      "liangĠziĠ": 4856,
      "yueĠyouĠ": 4857,
      "heĠerĠ": 4858,
      "zhengĠqueĠ": 4859,
      "chiĠyouĠ": 4860,
      "ta": 4861,
      "ĠĠĠranĠ": 4862,
      "queĠbaoĠ": 4863,
      "renĠminĠdaiĠbiaoĠdaĠhuiĠ": 4864,
      "DTĠ": 4865,
      "yiĠtiaoĠ": 4866,
      "boĠjueĠ": 4867,
      "kuoĠzhangĠ": 4868,
      "ĠziĠyouĠ": 4869,
      "187": 4870,
      "boĠshiĠxueĠweiĠ": 4871,
      "pingĠyuanĠ": 4872,
      "gh": 4873,
      "nenĠ": 4874,
      "xiaoĠyingĠ": 4875,
      "ari": 4876,
      "siĠlingĠbuĠ": 4877,
      "tiĠdaiĠ": 4878,
      "sheĠxianĠ": 4879,
      "benĠrenĠ": 4880,
      "feiĠerĠdeĠ": 4881,
      "zuĠxieĠ": 4882,
      "ĠjieĠkeĠ": 4883,
      "wuĠhanĠ": 4884,
      "shengĠyinĠ": 4885,
      "mingĠchaoĠ": 4886,
      "buĠshouĠ": 4887,
      "haiĠdeĠ": 4888,
      "haiĠbaĠweiĠ": 4889,
      "chuĠchangĠ": 4890,
      "shangĠzhenĠ": 4891,
      "suoĠzaiĠdiĠ": 4892,
      "cengĠweiĠ": 4893,
      "qunĠzhongĠ": 4894,
      "xianĠchengĠ": 4895,
      "jingĠguanĠ": 4896,
      "fenĠlieĠ": 4897,
      "shiĠsiĠ": 4898,
      "jiĠdaĠ": 4899,
      "liĠxiangĠ": 4900,
      "guoĠjunĠ": 4901,
      "fuĠnvĠ": 4902,
      "zhuĠdaoĠ": 4903,
      "duoĠnianĠ": 4904,
      "erĠzaiĠ": 4905,
      "jinĠzhanĠ": 4906,
      "ĠshuangĠfangĠ": 4907,
      "luĠyuĠ": 4908,
      "cheĠduiĠ": 4909,
      "wuĠdiĠ": 4910,
      "zhengĠmianĠ": 4911,
      "yanĠhuaĠ": 4912,
      "fuĠzhuĠxiĠ": 4913,
      "entĠĠĠ": 4914,
      "ĠAĠ": 4915,
      "ĠzuĠfuĠ": 4916,
      "AP": 4917,
      "laĠteĠ": 4918,
      "ĠningĠ": 4919,
      "geĠsiĠ": 4920,
      "zhuĠbanĠ": 4921,
      "ciĠkeĠ": 4922,
      "ĠĠĠ190": 4923,
      "guoĠgongĠ": 4924,
      "zhuangĠjiĠ": 4925,
      "68": 4926,
      "yp": 4927,
      "ouĠmengĠ": 4928,
      "youĠweiĠ": 4929,
      "quĠneiĠ": 4930,
      "ĠyuanĠmingĠ": 4931,
      "ĠdaoĠleĠ": 4932,
      "liĠfaĠhuiĠ": 4933,
      "keĠleiĠ": 4934,
      "menĠdeĠ": 4935,
      "tuĠchuĠ": 4936,
      "nic": 4937,
      "shangĠpinĠ": 4938,
      "shiĠqiĠnianĠ": 4939,
      "zhongĠzuiĠ": 4940,
      "taĠyuĠ": 4941,
      "shangĠyuĠ": 4942,
      "duanĠpianĠ": 4943,
      "ation": 4944,
      "chengĠzhangĠ": 4945,
      "saĠerĠ": 4946,
      "yiĠseĠlieĠ": 4947,
      "ĠĠĠsiĠ": 4948,
      "heĠdiĠ": 4949,
      "jieĠyuĠ": 4950,
      "quanĠxianĠ": 4951,
      "gongĠjiaoĠ": 4952,
      "yaĠmuĠ": 4953,
      "quanĠshiĠ": 4954,
      "miĠsiĠ": 4955,
      "feiĠyongĠ": 4956,
      "33": 4957,
      "ĠĠĠjiaoĠtongĠ": 4958,
      "shuĠchuĠ": 4959,
      "bianĠshiĠ": 4960,
      "Ġ1998ĠnianĠ": 4961,
      "xianĠzhiĠxianĠ": 4962,
      "ĠcangĠ": 4963,
      "ĠdanĠyinĠ": 4964,
      "niaoĠleiĠ": 4965,
      "ĠĠĠliuĠ": 4966,
      "gongĠjinĠ": 4967,
      "zuiĠgaoĠdeĠ": 4968,
      "yiĠkeĠ": 4969,
      "ĠzaiĠzheĠ": 4970,
      "ĠjiaĠnaĠdaĠ": 4971,
      "47Ġ": 4972,
      "xingĠnengĠ": 4973,
      "juĠchangĠ": 4974,
      "ĠĠĠ8": 4975,
      "jueĠshiĠ": 4976,
      "ĠcnĠ": 4977,
      "yuanĠweiĠ": 4978,
      "juĠbuĠ": 4979,
      "cheĠtuiĠ": 4980,
      "zaoĠdeĠ": 4981,
      "AC": 4982,
      "youĠzhuĠ": 4983,
      "yeĠkeĠyiĠ": 4984,
      "lianĠzaiĠ": 4985,
      "kuaiĠyiĠxiaoĠshiĠ": 4986,
      "1ĠnianĠ12ĠyueĠ": 4987,
      "yiĠlangĠ": 4988,
      "xueĠkeĠ": 4989,
      "ĠweiĠUTCĠ": 4990,
      "chuanĠzhiĠ": 4991,
      "ĠfuĠjianĠ": 4992,
      "zuĠqiuĠjuĠleĠbuĠ": 4993,
      "sheĠyingĠ": 4994,
      "ĠjiĠUTCĠ": 4995,
      "cengĠyuĠ": 4996,
      "qiangĠdeĠ": 4997,
      "sheĠyouĠxiaĠlingĠshiĠjianĠ": 4998,
      "deĠshiĠquĠweiĠUTCĠ": 4999,
      "ĠdiaoĠkuaiĠyiĠxiaoĠshiĠ": 5000,
      "igh": 5001,
      "ĠerĠgaiĠdiĠsuoĠcaiĠyongĠ": 5002,
      "ĠtongĠshiĠgaiĠdiĠsheĠyouĠxiaĠlingĠshiĠjianĠ": 5003,
      "ĠerĠgaiĠdiĠsuoĠcaiĠyongĠdeĠshiĠquĠweiĠUTCĠ": 5004,
      "baoĠzhiĠ": 5005,
      "teĠdianĠ": 5006,
      "deĠjiĠluĠ": 5007,
      "jianĠzhuĠwuĠ": 5008,
      "paiĠmingĠdiĠ": 5009,
      "qiĠnianĠ": 5010,
      "ganĠbuĠ": 5011,
      "zeiĠ": 5012,
      "zaiĠnanĠ": 5013,
      "shenĠpanĠ": 5014,
      "huanĠchengĠ": 5015,
      "our": 5016,
      "ĠĠĠmeiĠ": 5017,
      "ĠĠĠ10": 5018,
      "heĠtongĠ": 5019,
      "xingĠrongĠ": 5020,
      "huaĠjiaĠ": 5021,
      "shanĠxianĠ": 5022,
      "yiĠchuĠ": 5023,
      "fuĠsiĠ": 5024,
      "huoĠshengĠ": 5025,
      "yaĠmeiĠniĠyaĠ": 5026,
      "kongĠxiĠ": 5027,
      "ĠlingĠyouĠ": 5028,
      "zĠ": 5029,
      "renĠciĠ": 5030,
      "taiĠjiĠ": 5031,
      "weiĠyuanĠhuiĠweiĠyuanĠ": 5032,
      "ĠshanĠdongĠ": 5033,
      "ver": 5034,
      "zuĠqunĠ": 5035,
      "bingĠqieĠ": 5036,
      "huanĠxingĠ": 5037,
      "gaoĠyuĠhaiĠpingĠmianĠ": 5038,
      "liĠrenĠ": 5039,
      "mianĠtiĠ": 5040,
      "guiĠdeĠ": 5041,
      "liangĠshiĠ": 5042,
      "dangĠtianĠ": 5043,
      "tianĠtangĠ": 5044,
      "quĠdeĠmianĠjiĠweiĠ": 5045,
      "buĠshiĠquĠ": 5046,
      "haiĠbaĠweiĠgaoĠyuĠhaiĠpingĠmianĠ": 5047,
      "AN": 5048,
      "gaoĠxiaoĠ": 5049,
      "zanĠzhuĠ": 5050,
      "suoĠchuĠdeĠhaiĠbaĠweiĠgaoĠyuĠhaiĠpingĠmianĠ": 5051,
      "buĠdaĠ": 5052,
      "wuĠranĠ": 5053,
      "44Ġ": 5054,
      "jiaĠsuĠ": 5055,
      "jianĠjiĠ": 5056,
      "jueĠyiĠ": 5057,
      "beiĠpanĠ": 5058,
      "taĠerĠ": 5059,
      "shangĠleĠ": 5060,
      "zongĠshiĠ": 5061,
      "yaĠliĠshanĠdaĠ": 5062,
      "yiĠranĠ": 5063,
      "zongĠcaiĠ": 5064,
      "ĠsiĠchuanĠ": 5065,
      "...": 5066,
      "chengĠjiuĠ": 5067,
      "teĠquĠ": 5068,
      "©Ġ": 5069,
      "jingĠbaoĠ": 5070,
      "xinĠjiĠ": 5071,
      "ĠyingĠwenĠ": 5072,
      "henĠshaoĠ": 5073,
      "hengĠliĠ": 5074,
      "daĠerĠ": 5075,
      "peiĠbeiĠ": 5076,
      "hangĠzhouĠ": 5077,
      "faĠshengĠzaiĠ": 5078,
      "yuĠzhouĠ": 5079,
      "zaiĠneiĠdeĠ": 5080,
      "xiangĠzhenĠ": 5081,
      "guanĠkanĠ": 5082,
      "luoĠfaĠ": 5083,
      "ĠjiĠbeiĠmeiĠ": 5084,
      "gongĠzuoĠshiĠ": 5085,
      "ĠqianĠlongĠ": 5086,
      "ĠmuĠqinĠ": 5087,
      "au": 5088,
      "ĠĠĠ7": 5089,
      "jingĠsaiĠ": 5090,
      "huoĠzaiĠ": 5091,
      "duoĠerĠ": 5092,
      "bangĠqiuĠ": 5093,
      "qingĠxingĠ": 5094,
      "huiĠzhiĠ": 5095,
      "18ĠnianĠ": 5096,
      "luĠduanĠ": 5097,
      "qingĠjieĠ": 5098,
      "guĠdeĠ": 5099,
      "ĠĠĠduiĠ": 5100,
      "Ġ8ĠyueĠ": 5101,
      "heĠmaĠ": 5102,
      "chengĠhuĠ": 5103,
      "hangĠyeĠ": 5104,
      "weiĠhuĠ": 5105,
      "jinĠsiĠ": 5106,
      "fuĠhanĠ": 5107,
      "caiĠchanĠ": 5108,
      "6ĠgeĠ": 5109,
      "zhongĠduanĠ": 5110,
      "ĠtaĠmenĠdeĠ": 5111,
      "ĠcuiĠ": 5112,
      "ĠyiĠyouĠ": 5113,
      "ter": 5114,
      "xiĠshouĠ": 5115,
      "kaoĠjinĠ": 5116,
      "jiangĠjiĠ": 5117,
      "65": 5118,
      "faĠdongĠjiĠ": 5119,
      "naĠruĠ": 5120,
      "ĠxianĠhouĠ": 5121,
      "Ġ30": 5122,
      "ruanĠtiĠ": 5123,
      "chuĠziĠ": 5124,
      "shenĠshengĠ": 5125,
      "ark": 5126,
      "wuĠyiĠ": 5127,
      "chaoĠtingĠ": 5128,
      "longĠdeĠ": 5129,
      "ĠzhuiĠ": 5130,
      "jiaĠyuĠ": 5131,
      "ĠjiĠbaiĠ": 5132,
      "liĠshuĠ": 5133,
      "zhuĠruĠ": 5134,
      "zuĠjieĠ": 5135,
      "150Ġ": 5136,
      "weiĠdaĠ": 5137,
      "shouĠshuĠ": 5138,
      "zhongĠguoĠrenĠminĠjieĠfangĠjunĠ": 5139,
      "yiĠzhouĠ": 5140,
      "wuĠyuĠ": 5141,
      "shengĠdaoĠ": 5142,
      "zhanĠmuĠsiĠ": 5143,
      "gongĠyuanĠqianĠ": 5144,
      "keĠyouĠ": 5145,
      "tuĠxiangĠ": 5146,
      "300Ġ": 5147,
      "ĠĠĠanĠ": 5148,
      "meiĠdeĠ": 5149,
      "ĠĠĠ2007ĠnianĠ": 5150,
      "zaiĠ196": 5151,
      "weiĠyeĠ": 5152,
      "jiaĠxiangĠ": 5153,
      "luoĠchengĠ": 5154,
      "faĠlingĠ": 5155,
      "danĠdeĠ": 5156,
      "zhiĠxuĠ": 5157,
      "liangĠjiĠ": 5158,
      "Ġ2024ĠnianĠ": 5159,
      "ĠcaiĠyongĠ": 5160,
      "shouĠfeiĠ": 5161,
      "kongĠqiĠ": 5162,
      "juĠbeiĠ": 5163,
      "3ĠhaoĠ": 5164,
      "zuĠzhiĠdeĠ": 5165,
      "ĠĠĠtaiĠwanĠ": 5166,
      "Ġ11Ġ": 5167,
      "binĠhaiĠ": 5168,
      "tongĠwangĠ": 5169,
      "mianĠlinĠ": 5170,
      "xunĠqiuĠ": 5171,
      "qianĠhouĠ": 5172,
      "zhenĠquĠdeĠmianĠjiĠweiĠ": 5173,
      "shunĠliĠ": 5174,
      "daoĠheĠ": 5175,
      "huaĠyuĠ": 5176,
      "zheĠweiĠ": 5177,
      "tanĠxianĠ": 5178,
      "ĠshouĠciĠ": 5179,
      "jiĠjiangĠ": 5180,
      "siĠlaĠfuĠ": 5181,
      "xianĠzhangĠ": 5182,
      "zhanĠshuĠ": 5183,
      "duĠweiĠ": 5184,
      "shangĠxianĠ": 5185,
      "yanĠjiangĠ": 5186,
      "Ġ1999ĠnianĠ": 5187,
      "ĠĠĠ2025ĠnianĠ": 5188,
      "ĠĠĠzhuĠyaoĠ": 5189,
      "zaiĠ194": 5190,
      "quĠfenĠ": 5191,
      "ouĠxiangĠ": 5192,
      "ziĠheĠ": 5193,
      "baoĠshiĠ": 5194,
      "tingĠkaoĠ": 5195,
      "ĠzheĠyangĠ": 5196,
      "shuangĠdaĠ": 5197,
      "Ġ1949ĠnianĠ": 5198,
      "guĠfenĠyouĠxianĠgongĠsiĠ": 5199,
      "64Ġ": 5200,
      "ef": 5201,
      "zhiĠbeiĠ": 5202,
      "ĠrenĠminĠ": 5203,
      "ĠweiĠyuĠgaiĠ": 5204,
      "ĠĠĠfanĠ": 5205,
      "xiaĠdeĠyiĠgeĠ": 5206,
      "baoĠxianĠ": 5207,
      "yueĠqiuĠ": 5208,
      "shiĠtiĠ": 5209,
      "ĠĠĠjieĠ": 5210,
      "geĠguoĠ": 5211,
      "fuĠzaiĠ": 5212,
      "leĠxuĠduoĠ": 5213,
      "junĠrenĠ": 5214,
      "zhiĠzuoĠdeĠ": 5215,
      "ĠpianĠ": 5216,
      "liĠmiĠ": 5217,
      "baoĠanĠ": 5218,
      "shiĠjiĠshangĠ": 5219,
      "ĠsuĠlianĠ": 5220,
      "ziĠwoĠ": 5221,
      "zuoĠyeĠ": 5222,
      "sheĠjiaoĠ": 5223,
      "chuangĠxinĠ": 5224,
      "120": 5225,
      "ci": 5226,
      "yingĠduiĠ": 5227,
      "maoĠxianĠ": 5228,
      "jinĠshanĠ": 5229,
      "jiaoĠdaĠ": 5230,
      "wangĠhouĠ": 5231,
      "ĠyuĠciĠ": 5232,
      "186": 5233,
      "zhongĠshuĠ": 5234,
      "quĠjianĠ": 5235,
      "chongĠjiĠ": 5236,
      "zhuĠyiĠdeĠ": 5237,
      "ĠgeiĠ": 5238,
      "ĠĠĠ9": 5239,
      "youĠxieĠ": 5240,
      "chengĠnianĠ": 5241,
      "zaoĠshangĠ": 5242,
      "59": 5243,
      "liĠbaĠ": 5244,
      "shouĠrenĠ": 5245,
      "yanĠzhongĠdeĠ": 5246,
      "ĠxiĠbeiĠ": 5247,
      "NB": 5248,
      "zhiĠjingĠ": 5249,
      "daĠgeĠmingĠ": 5250,
      "siĠlanĠ": 5251,
      "wanĠdeĠ": 5252,
      "entĠ": 5253,
      "jiaĠzhuangĠ": 5254,
      "lvĠdeĠ": 5255,
      "ĠniuĠyueĠ": 5256,
      "dongĠyuanĠ": 5257,
      "diĠyiĠweiĠ": 5258,
      "yuĠ192": 5259,
      "paiĠhangĠbangĠ": 5260,
      "yaĠkeĠ": 5261,
      "seĠĠĠ": 5262,
      "5ĠgeĠ": 5263,
      "ĠĠĠzhengĠ": 5264,
      "liĠaoĠ": 5265,
      "canĠshuĠ": 5266,
      "huangĠjinĠ": 5267,
      "ĠchuĠshengĠyuĠ": 5268,
      "IC": 5269,
      "atĠĠĠ": 5270,
      "ĠceĠ": 5271,
      "ĠĠĠshiĠyongĠ": 5272,
      "laoĠshiĠ": 5273,
      "daĠshiĠguanĠ": 5274,
      "guĠdianĠ": 5275,
      "guĠlaĠ": 5276,
      "baĠlaĠ": 5277,
      "seĠfuĠ": 5278,
      "jianĠliĠleĠ": 5279,
      "panĠluanĠ": 5280,
      "arĠ": 5281,
      "ĠĠĠriĠbenĠ": 5282,
      "yinĠniĠ": 5283,
      "yueĠlaiĠyueĠ": 5284,
      "ĠliĠshuĠ": 5285,
      "ĠĠĠU": 5286,
      "beiĠkeĠ": 5287,
      "qianĠruĠ": 5288,
      "teĠyouĠ": 5289,
      "ĠerĠfeiĠ": 5290,
      "YouT": 5291,
      "ĠĠĠformulaĠ": 5292,
      "baoĠyuĠ": 5293,
      "bianĠyuanĠ": 5294,
      "ĠpuĠtaoĠ": 5295,
      "shiĠtaĠ": 5296,
      "5ĠgongĠliĠ": 5297,
      "peiĠyangĠ": 5298,
      "ĠxinĠwenĠ": 5299,
      "ah": 5300,
      "ich": 5301,
      "tuiĠjianĠ": 5302,
      "kaiĠshiĠzaiĠ": 5303,
      "est": 5304,
      "sheĠqunĠ": 5305,
      "deĠyiĠtiaoĠ": 5306,
      "rongĠheĠ": 5307,
      "genĠsuiĠ": 5308,
      "langĠpuĠ": 5309,
      "14ĠnianĠ": 5310,
      "ĠĠĠb": 5311,
      "zhongĠyeĠ": 5312,
      "ĠruiĠ": 5313,
      "liuĠchuanĠ": 5314,
      "chaoĠyueĠ": 5315,
      "ĠĠĠwangĠ": 5316,
      "qiĠyueĠ": 5317,
      "yangĠxingĠ": 5318,
      "tianĠfuĠ": 5319,
      "ĠshanĠxiĠ": 5320,
      "leĠduiĠ": 5321,
      "xueĠyeĠ": 5322,
      "siĠxingĠ": 5323,
      "wuĠshuĠ": 5324,
      "jiaĠerĠ": 5325,
      "tiĠchuĠleĠ": 5326,
      "xiaoĠliĠyuĠ": 5327,
      "zhengĠshuĠ": 5328,
      "haiĠshangĠ": 5329,
      "ĠyiĠqiĠ": 5330,
      "ĠliangĠgeĠ": 5331,
      "ĠĠH": 5332,
      "luoĠshanĠjiĠ": 5333,
      "tieĠluĠcheĠzhanĠ": 5334,
      "douĠzhengĠ": 5335,
      "ĠĠĠjiaĠtingĠ": 5336,
      "ĠĠĠmuĠqianĠ": 5337,
      "jiaĠsheĠ": 5338,
      "quĠheĠ": 5339,
      "zhuangĠdeĠ": 5340,
      "rongĠnaĠ": 5341,
      "youĠhuiĠ": 5342,
      "xiaoĠjieĠ": 5343,
      "qingĠzhuĠ": 5344,
      "xuanĠchengĠ": 5345,
      "Ġ16Ġ": 5346,
      "kuoĠjianĠ": 5347,
      "tiĠchuĠdeĠ": 5348,
      "fuĠkaĠ": 5349,
      "xiaĠleĠ": 5350,
      "ĠriĠjunĠ": 5351,
      "58": 5352,
      "quĠzhuĠ": 5353,
      "shangĠdianĠ": 5354,
      "meiĠyuanĠdeĠ": 5355,
      "yingĠjunĠ": 5356,
      "ĠnaĠmeĠ": 5357,
      "ram": 5358,
      "Ġ7ĠyueĠ": 5359,
      "zhiĠboĠ": 5360,
      "buĠyuanĠ": 5361,
      "buĠlieĠ": 5362,
      "buĠchongĠ": 5363,
      "wuĠyueĠ": 5364,
      "zheĠzaiĠ": 5365,
      "duoĠweiĠ": 5366,
      "hongĠjunĠ": 5367,
      "jiaĠruĠleĠ": 5368,
      "zhongĠxinĠdeĠ": 5369,
      "lu": 5370,
      "youĠsanĠ": 5371,
      "gaiĠzhiĠweiĠ": 5372,
      "zaoĠchengĠdeĠ": 5373,
      "chengĠfenĠ": 5374,
      "erĠzhanĠ": 5375,
      "kaiĠmuĠ": 5376,
      "tuĠdeĠ": 5377,
      "ĠzhiĠchiĠ": 5378,
      "zhiĠzeĠ": 5379,
      "ciĠshuĠ": 5380,
      "daiĠmaĠ": 5381,
      "pingĠdengĠ": 5382,
      "baĠdaĠ": 5383,
      "7ĠyueĠ1ĠriĠ": 5384,
      "ĠmenĠ": 5385,
      "ĠnongĠ": 5386,
      "youĠhuaĠ": 5387,
      "luĠyiĠsiĠ": 5388,
      "zhangĠyueĠ": 5389,
      "ĠyiĠxiaĠ": 5390,
      "ĠĠĠhuoĠ": 5391,
      "ranĠliaoĠ": 5392,
      "heĠfaĠ": 5393,
      "Ġ12ĠyueĠ": 5394,
      "buĠjianĠ": 5395,
      "chuĠxianĠleĠ": 5396,
      "ĠgouĠ": 5397,
      "siĠkaĠ": 5398,
      "art": 5399,
      "nveĠ": 5400,
      "yiĠerĠ": 5401,
      "ĠĠĠgeĠrenĠ": 5402,
      "xiĠheĠ": 5403,
      "zhuĠquanĠ": 5404,
      "xuanĠchuĠ": 5405,
      "tiaoĠjieĠ": 5406,
      "13ĠnianĠ": 5407,
      "ĠĠĠjianĠ": 5408,
      "jiĠhouĠ": 5409,
      "xiangĠfaĠ": 5410,
      "neiĠdiĠ": 5411,
      "juĠbanĠdeĠ": 5412,
      "tongĠweiĠ": 5413,
      "banĠliĠ": 5414,
      "xieĠshangĠ": 5415,
      "ĠzuĠzhiĠ": 5416,
      "daĠheĠ": 5417,
      "danĠduĠ": 5418,
      "suĠsongĠ": 5419,
      "ĠĠD": 5420,
      "shiĠxiangĠ": 5421,
      "zaiĠdeĠ": 5422,
      "qiĠfuĠ": 5423,
      "daĠdiĠ": 5424,
      "siĠhuĠ": 5425,
      "tiĠzhiĠ": 5426,
      "deĠyiĠyuanĠ": 5427,
      "ectionĠĠĠ": 5428,
      "jiangĠtaĠ": 5429,
      "suoĠzhiĠ": 5430,
      "mouĠshaĠ": 5431,
      "ber": 5432,
      "ĠĠĠtianĠ": 5433,
      "xinĠyiĠ": 5434,
      "tiĠcaiĠ": 5435,
      "baĠheĠ": 5436,
      "shuiĠmianĠ": 5437,
      "juĠheĠ": 5438,
      "ciĠquĠ": 5439,
      "zuoĠfaĠ": 5440,
      "Ġ14Ġ": 5441,
      "omp": 5442,
      "52Ġ": 5443,
      "yanĠlunĠ": 5444,
      "xiaĠxiaĠyiĠxiaĠ": 5445,
      "ĠshiĠyiĠgeĠweiĠyuĠ": 5446,
      "xunĠyangĠjianĠ": 5447,
      "deĠzhongĠyaoĠ": 5448,
      "zongĠhuiĠ": 5449,
      "Ġ18Ġ": 5450,
      "caiĠpanĠ": 5451,
      "ĠlianĠheĠ": 5452,
      "43Ġ": 5453,
      "ĠĠG": 5454,
      "qiĠyouĠ": 5455,
      "daĠjieĠ": 5456,
      "ĠĠĠzhangĠ": 5457,
      "qiĠyuanĠ": 5458,
      "fenĠsiĠ": 5459,
      "fenĠquĠ": 5460,
      "banĠbuĠ": 5461,
      "lieĠchuĠ": 5462,
      "Ġ1997ĠnianĠ": 5463,
      "xiangĠtongĠdeĠ": 5464,
      "Ġ00": 5465,
      "In": 5466,
      "ĠhunĠ": 5467,
      "heĠsuanĠ": 5468,
      "erĠweiĠ": 5469,
      "zhuĠliuĠ": 5470,
      "chuĠruĠkouĠ": 5471,
      "suĠdanĠ": 5472,
      "chaĠdeĠ": 5473,
      "79": 5474,
      "chengĠnuoĠ": 5475,
      "jiaĠgouĠ": 5476,
      "jiaĠliĠyaĠ": 5477,
      "xiangĠbeiĠ": 5478,
      "Ġer": 5479,
      "diĠkangĠ": 5480,
      "luoĠmaĠniĠyaĠ": 5481,
      "41Ġ": 5482,
      "69": 5483,
      "aĠgenĠtingĠ": 5484,
      "keĠxueĠjiaĠ": 5485,
      "chongĠzuĠ": 5486,
      "waiĠjiaoĠbuĠ": 5487,
      "ĠzhuoĠ": 5488,
      "ĠtunĠ": 5489,
      "shiĠminĠ": 5490,
      "renĠquanĠ": 5491,
      "riĠchangĠ": 5492,
      "yinĠdeĠ": 5493,
      "xieĠdingĠ": 5494,
      "11ĠnianĠ": 5495,
      "qingĠxuĠ": 5496,
      "ĠbingĠweiĠ": 5497,
      "zhuanĠyongĠ": 5498,
      "ganĠjueĠ": 5499,
      "jiaoĠgeiĠ": 5500,
      "cheĠdeĠ": 5501,
      "deĠdiĠsanĠ": 5502,
      "pp": 5503,
      "diĠ1Ġ": 5504,
      "xiangĠyouĠ": 5505,
      "ĠshiĠziĠ": 5506,
      "yanĠxiĠ": 5507,
      "qiangĠzhiĠ": 5508,
      "Ġ9ĠyueĠ": 5509,
      "yiĠzhangĠ": 5510,
      "jiaoĠzongĠ": 5511,
      "wenĠshiĠ": 5512,
      "zhongĠjiĠ": 5513,
      "juĠluoĠ": 5514,
      "suĠliĠ": 5515,
      "zeĠzaiĠ": 5516,
      "songĠdaoĠ": 5517,
      "ĠĠĠ2006ĠnianĠ": 5518,
      "erĠyiĠ": 5519,
      "fenĠxiaoĠ": 5520,
      "17ĠnianĠ": 5521,
      "ĠzaĠzhiĠ": 5522,
      "jinĠquĠ": 5523,
      "deĠxianĠ": 5524,
      "ĠĠĠchuĠleĠ": 5525,
      "suoĠxuĠ": 5526,
      "xuanĠxiuĠ": 5527,
      "gangĠyuanĠ": 5528,
      "chongĠmanĠ": 5529,
      "miaoĠhuiĠ": 5530,
      "32": 5531,
      "aiĠqingĠ": 5532,
      "ĠĠĠdongĠ": 5533,
      "faĠliĠyaĠ": 5534,
      "mingĠciĠ": 5535,
      "muĠzhiĠ": 5536,
      "deĠyuanĠyinĠ": 5537,
      "weiĠjianĠ": 5538,
      "taiĠzhongĠ": 5539,
      "ĠtaĠyouĠ": 5540,
      "ph": 5541,
      "huoĠwuĠ": 5542,
      "maĠliĠyaĠ": 5543,
      "ĠyuĠ199": 5544,
      "waĠerĠ": 5545,
      "ĠzouĠ": 5546,
      "houĠfangĠ": 5547,
      "duiĠhuaĠ": 5548,
      "touĠxianĠ": 5549,
      "fangĠmianĠdeĠ": 5550,
      "cĠ": 5551,
      "ĠĠĠyouĠxiĠ": 5552,
      "lanĠseĠ": 5553,
      "queĠshiĠ": 5554,
      "zheĠjiangĠshengĠ": 5555,
      "Ġ11ĠyueĠ": 5556,
      "4ĠĠĠ": 5557,
      "ĠĠL": 5558,
      "naĠshengĠ": 5559,
      "eĠguoĠ": 5560,
      "ĠĠĠ17": 5561,
      "maoĠdunĠ": 5562,
      "renĠweiĠshiĠ": 5563,
      "deĠjiĠhuaĠ": 5564,
      "aoĠerĠ": 5565,
      "huiĠhuaĠ": 5566,
      "huoĠyunĠ": 5567,
      "taĠniĠ": 5568,
      "qiĠrenĠ": 5569,
      "wenĠyiĠ": 5570,
      "shiĠyouĠyuĠ": 5571,
      "Ġ1990ĠnianĠ": 5572,
      "juĠleĠ": 5573,
      "pingĠjieĠ": 5574,
      "lianĠtongĠ": 5575,
      "Ġ1994ĠnianĠ": 5576,
      "elĠ": 5577,
      "sonĠ": 5578,
      "ĠruanĠ": 5579,
      "zuĠfuĠ": 5580,
      "huĠpoĠ": 5581,
      "ĠxianĠdaiĠ": 5582,
      "xiĠjieĠ": 5583,
      "shouĠduanĠ": 5584,
      "xiaĠfangĠ": 5585,
      "qingĠdaoĠ": 5586,
      "ĠxiĠtongĠ": 5587,
      "qiaoĠliangĠ": 5588,
      "xiĠlanĠ": 5589,
      "shangĠsuĠ": 5590,
      "yinĠyuĠ": 5591,
      "zongĠjianĠ": 5592,
      "Ġ1992ĠnianĠ": 5593,
      "deĠluoĠ": 5594,
      "renĠzhengĠ": 5595,
      "peiĠzhiĠ": 5596,
      "ĠQ": 5597,
      "ĠX": 5598,
      "zaiĠdaĠ": 5599,
      "shengĠmuĠ": 5600,
      "xinĠjieĠ": 5601,
      "qianĠjinĠ": 5602,
      "zuiĠweiĠ": 5603,
      "hanĠziĠ": 5604,
      "canĠguanĠ": 5605,
      "duiĠzhenĠ": 5606,
      "baoĠzhengĠ": 5607,
      "yongĠjiuĠ": 5608,
      "ik": 5609,
      "guoĠdaoĠ": 5610,
      "xinĠjianĠ": 5611,
      "zhouĠjiĠ": 5612,
      "Ġ17Ġ": 5613,
      "seĠcaiĠ": 5614,
      "16ĠnianĠ": 5615,
      "ĠĠĠdaoĠ": 5616,
      "daĠduiĠ": 5617,
      "dongĠxianĠ": 5618,
      "rangĠtaĠ": 5619,
      "zhunĠqueĠ": 5620,
      "ĠjiangĠsuĠ": 5621,
      "ĠzhaoĠheĠ": 5622,
      "shiĠzheĠ": 5623,
      "zhanĠlieĠ": 5624,
      "yingĠzhanĠ": 5625,
      "gaoĠyuanĠ": 5626,
      "suoĠyouĠdeĠ": 5627,
      "erĠlaiĠ": 5628,
      "leĠyuanĠ": 5629,
      "quanĠshuĠ": 5630,
      "huĠdeĠ": 5631,
      "ĠbiĠxuĠ": 5632,
      "ĠmaĠlaiĠxiĠyaĠ": 5633,
      "ĠĠĠs": 5634,
      "geĠciĠ": 5635,
      "jiaoĠduĠ": 5636,
      "yueĠdeĠ": 5637,
      "ard": 5638,
      "reĠdaiĠfengĠbaoĠ": 5639,
      "liangĠzhiĠ": 5640,
      "pinĠlvĠ": 5641,
      "woĠdeĠ": 5642,
      "ĠerĠgaiĠdiĠdeĠ": 5643,
      "jinĠxingĠdeĠ": 5644,
      "guoĠminĠzhengĠfuĠ": 5645,
      "zhuĠdongĠ": 5646,
      "huĠdongĠ": 5647,
      "ĠdeĠyuĠ": 5648,
      "ĠĠĠgaiĠyaoĠ": 5649,
      "zaiĠxiĠ": 5650,
      "douĠbeiĠ": 5651,
      "ĠmingĠzhiĠ": 5652,
      "renĠtongĠ": 5653,
      "tingĠdeĠ": 5654,
      "78": 5655,
      "zhiĠbuĠ": 5656,
      "waiĠguanĠ": 5657,
      "chengĠliĠhouĠ": 5658,
      "diĠchanĠ": 5659,
      "danĠxinĠ": 5660,
      "tianĠjiaĠ": 5661,
      "ĠĠĠqiĠhouĠ": 5662,
      "xiaĠyouĠ": 5663,
      "kaiĠgongĠ": 5664,
      "feiĠfaĠ": 5665,
      "ĠzuiĠjiaĠ": 5666,
      "ĠboĠchuĠ": 5667,
      "canĠyuĠleĠ": 5668,
      "shiĠzhengĠ": 5669,
      "maĠkeĠsiĠ": 5670,
      "dengĠzhiĠ": 5671,
      "chanĠshengĠleĠ": 5672,
      "daĠgongĠ": 5673,
      "jinĠweiĠ": 5674,
      "Ġì": 5675,
      "ĠĠĠluoĠ": 5676,
      "deĠshiĠwuĠ": 5677,
      "ON": 5678,
      "chuoĠ": 5679,
      "zhengĠyueĠ": 5680,
      "dianĠchiĠ": 5681,
      "shanĠdongĠshengĠ": 5682,
      "heĠfuĠ": 5683,
      "heĠziĠ": 5684,
      "jianĠdaoĠ": 5685,
      "xiaĠzaiĠ": 5686,
      "qiuĠdeĠ": 5687,
      "zongĠduiĠ": 5688,
      "chouĠbeiĠ": 5689,
      "haoĠpingĠ": 5690,
      "Ġ1996ĠnianĠ": 5691,
      "shi": 5692,
      "zhongĠzhengĠ": 5693,
      "renĠjiaoĠ": 5694,
      "xiangĠqiĠ": 5695,
      "mingĠjinĠshiĠ": 5696,
      "ĠshiĠxiangĠgangĠ": 5697,
      "wangĠziĠ": 5698,
      "guoĠjiaĠgongĠyuanĠ": 5699,
      "ĠtouĠguoĠ": 5700,
      "ĠyueĠnanĠ": 5701,
      "ĠtongĠyangĠ": 5702,
      "liaoĠningĠ": 5703,
      "Ġ1950ĠnianĠ": 5704,
      "taiĠbeiĠshiĠ": 5705,
      "quĠbieĠ": 5706,
      "faĠshengĠleĠ": 5707,
      "thĠ": 5708,
      "edĠ": 5709,
      "heĠjinĠ": 5710,
      "liĠanĠ": 5711,
      "dingĠqiĠ": 5712,
      "baĠerĠ": 5713,
      "ĠzheĠciĠ": 5714,
      "ĠliĠrenĠ": 5715,
      "ĠqiĠzhongĠnanĠxingĠ": 5716,
      "luĠshangĠ": 5717,
      "duiĠtaĠ": 5718,
      "ĠjiĠtuanĠ": 5719,
      "bianĠhuanĠ": 5720,
      "ĠzanĠ": 5721,
      "chengĠhaoĠ": 5722,
      "jiuĠzaiĠ": 5723,
      "ĠweiĠerĠ": 5724,
      "guiĠzhouĠ": 5725,
      "ganĠyuĠ": 5726,
      "ĠpaoĠ": 5727,
      "shaiĠ": 5728,
      "ĠĠĠyanĠ": 5729,
      "58Ġ": 5730,
      "buĠbianĠ": 5731,
      "wuĠgeĠ": 5732,
      "yeĠjianĠ": 5733,
      "liangĠdaĠ": 5734,
      "zhouĠzhangĠ": 5735,
      "ĠliĠyongĠ": 5736,
      "xiĠquĠ": 5737,
      "zhenĠyaĠ": 5738,
      "ĠĠĠranĠerĠ": 5739,
      "ĠxueĠshengĠ": 5740,
      "heĠhuaĠ": 5741,
      "yueĠyuĠ": 5742,
      "ĠzhongĠgongĠzhongĠyangĠ": 5743,
      "62Ġ": 5744,
      "shiĠfangĠ": 5745,
      "xingĠcheĠ": 5746,
      "banĠciĠ": 5747,
      "ĠfouĠ": 5748,
      "xiangĠjiaoĠ": 5749,
      "dingĠleĠ": 5750,
      "ĠtaĠrenĠweiĠ": 5751,
      "huĠbuĠ": 5752,
      "ĠchengĠgongĠ": 5753,
      "ĠĠF": 5754,
      "ĠĠĠp": 5755,
      "shengĠxiaĠ": 5756,
      "xuĠshuĠ": 5757,
      "bingĠtuanĠ": 5758,
      "ĠbingĠbeiĠ": 5759,
      "ĠzhiĠzaiĠ": 5760,
      "shiĠjieĠmuĠ": 5761,
      "deĠfanĠ": 5762,
      "xuĠshiĠ": 5763,
      "zhuanĠweiĠ": 5764,
      "tionĠ": 5765,
      "Ġ1993ĠnianĠ": 5766,
      "Ġw": 5767,
      "ĠzhuanĠjiĠ": 5768,
      "huaĠguiĠ": 5769,
      "meiĠmeiĠ": 5770,
      "caiĠfangĠ": 5771,
      "ĠSt": 5772,
      "caĠ": 5773,
      "deĠdiĠyiĠ": 5774,
      "gongĠgaoĠ": 5775,
      "xiangĠdaoĠ": 5776,
      "jiangĠbeiĠ": 5777,
      "he": 5778,
      "youĠchengĠ": 5779,
      "Ġf": 5780,
      "yiĠxianĠ": 5781,
      "mingĠjuĠrenĠ": 5782,
      "Ġ13Ġ": 5783,
      "ĠshouĠdaoĠ": 5784,
      "Ġ1985ĠnianĠ": 5785,
      "ĠĠĠlingĠwaiĠ": 5786,
      "zhongĠliĠ": 5787,
      "wanĠchengĠleĠ": 5788,
      "zhuĠguanĠ": 5789,
      "bianĠzhiĠ": 5790,
      "sanĠjiĠ": 5791,
      "chongĠfanĠ": 5792,
      "diĠrenĠ": 5793,
      "xingĠhaoĠ": 5794,
      "xiangĠlianĠ": 5795,
      "yanĠjingĠ": 5796,
      "zhuanĠyiĠ": 5797,
      "ayĠ": 5798,
      "xiĠjinĠ": 5799,
      "jingĠtouĠ": 5800,
      "muĠerĠ": 5801,
      "xuĠlieĠ": 5802,
      "ĠzhiĠyiĠ": 5803,
      "nvĠhaiĠ": 5804,
      "res": 5805,
      "jiĠsuanĠjiĠ": 5806,
      "53Ġ": 5807,
      "xiangĠyaoĠ": 5808,
      "quĠdongĠ": 5809,
      "zaoĠshouĠ": 5810,
      "tanĠsuoĠ": 5811,
      "heĠyouĠ": 5812,
      "dangĠyuĠ": 5813,
      "zongĠyiĠ": 5814,
      "ĠyuĠleĠ": 5815,
      "ĠyuanĠbenĠ": 5816,
      "ĠjuanĠ": 5817,
      "ĠĠĠdiĠyiĠ": 5818,
      "fenĠjieĠ": 5819,
      "duĠjiaoĠ": 5820,
      "nvĠwangĠ": 5821,
      "huoĠliĠ": 5822,
      "zhuangĠbingĠduĠ": 5823,
      "rengĠzaiĠ": 5824,
      "ĠquanĠqiuĠ": 5825,
      "ĠĠĠnanĠ": 5826,
      "gangĠqinĠ": 5827,
      "shaoĠjiangĠ": 5828,
      "67": 5829,
      "diĠjiĠ": 5830,
      "buĠjiaĠ": 5831,
      "luĠyinĠ": 5832,
      "huaiĠyiĠ": 5833,
      "zhongĠguoĠdaĠluĠdeĠ": 5834,
      "ofĠĠĠtheĠĠĠ": 5835,
      "57": 5836,
      "64": 5837,
      "ĠĠK": 5838,
      "dongĠyaĠ": 5839,
      "tuĠerĠ": 5840,
      "6ĠmiĠ": 5841,
      "zhunĠjueĠsaiĠ": 5842,
      "chengĠshiĠdeĠ": 5843,
      "zhanĠweiĠyuĠ": 5844,
      "ĠshiĠshiĠ": 5845,
      "xiaoĠxiangĠ": 5846,
      "qingĠxiangĠ": 5847,
      "zhenĠzhengĠ": 5848,
      "tiaoĠkuanĠ": 5849,
      "deĠxiaoĠxingĠxingĠ": 5850,
      "taiĠshiĠ": 5851,
      "bingĠdeĠ": 5852,
      "ĠzhiĠjinĠ": 5853,
      "ĠerĠbuĠshiĠ": 5854,
      "ĠÏ": 5855,
      "shenĠruĠ": 5856,
      "ĠhuoĠshiĠ": 5857,
      "ĠĠĠmingĠ": 5858,
      "zhenĠchaĠ": 5859,
      "dingĠliĠ": 5860,
      "langĠzhongĠ": 5861,
      "zengĠjiaĠleĠ": 5862,
      "yangĠxianĠ": 5863,
      "suĠweiĠaiĠ": 5864,
      "2000Ġ": 5865,
      "kaoĠshiĠ": 5866,
      "youĠxiĠdeĠ": 5867,
      "leiĠsiĠdeĠ": 5868,
      "bo": 5869,
      "daĠpoĠ": 5870,
      "ganĠsuĠ": 5871,
      "mengĠdeĠ": 5872,
      "hangĠbanĠ": 5873,
      "shiĠyongĠleĠ": 5874,
      "panĠjueĠ": 5875,
      "ardĠĠĠ": 5876,
      "Ġ6ĠyueĠ": 5877,
      "yuĠmeiĠguoĠ": 5878,
      "diĠcengĠ": 5879,
      "chengĠguoĠ": 5880,
      "faĠjueĠ": 5881,
      "fuĠzeĠrenĠ": 5882,
      "fenĠbieĠweiĠ": 5883,
      "yuĠnanĠ": 5884,
      "ĠchengĠyuanĠ": 5885,
      "ĠĠĠjinĠguanĠ": 5886,
      "Ġ2019": 5887,
      "ĠsectionĠĠĠ": 5888,
      "umĠ": 5889,
      "beiĠluĠ": 5890,
      "ĠchuĠciĠ": 5891,
      "Ġ1995ĠnianĠ": 5892,
      "ĠĠĠhongĠ": 5893,
      "xingĠzhuangĠ": 5894,
      "taoĠwanĠ": 5895,
      "ĠhanĠzuĠ": 5896,
      "luoĠmaĠdiĠguoĠ": 5897,
      "ĠmaiĠkeĠ": 5898,
      "xianĠdeĠyiĠgeĠfeiĠjianĠzhiĠdiĠquĠ": 5899,
      "ĠcunĠ": 5900,
      "shiĠyingĠ": 5901,
      "deĠshuĠ": 5902,
      "zhiĠxiangĠ": 5903,
      "gongĠsheĠ": 5904,
      "mingĠluĠ": 5905,
      "zheĠyangĠdeĠ": 5906,
      "ĠyinĠfaĠ": 5907,
      "ĠshiĠyiĠkeĠ": 5908,
      "ĠtongĠshiĠyeĠ": 5909,
      "ĠlianĠjieĠ": 5910,
      "bianĠyiĠ": 5911,
      "ĠdaĠxueĠ": 5912,
      "zhengĠduoĠ": 5913,
      "jinĠjunĠ": 5914,
      "yongĠleĠ": 5915,
      "neiĠyouĠ": 5916,
      "chengĠdanĠ": 5917,
      "ĠjiĠxuĠ": 5918,
      "ĠcengĠjingĠ": 5919,
      "eĠdeĠ": 5920,
      "liĠzaiĠ": 5921,
      "shangĠbanĠ": 5922,
      "ĠzaiĠ199": 5923,
      "dengĠyuĠ": 5924,
      "ganĠxianĠ": 5925,
      "duĠhuiĠ": 5926,
      "nanĠdeĠ": 5927,
      "nvĠzhuĠjueĠ": 5928,
      "ĠĠĠgenĠjuĠ2020ĠnianĠmeiĠguoĠrenĠkouĠpuĠchaĠdeĠshuĠjuĠ": 5929,
      "IP": 5930,
      "liĠxianĠ": 5931,
      "jinĠqiuĠ": 5932,
      "ĠbieĠ": 5933,
      "odi": 5934,
      "âĨ": 5935,
      "diĠmingĠ": 5936,
      "nanĠminĠ": 5937,
      "dangĠanĠ": 5938,
      "ĠshiĠyiĠbuĠ": 5939,
      "chaiĠyouĠjiĠ": 5940,
      "qiĠleĠ": 5941,
      "dongĠniĠ": 5942,
      "chuanĠtongĠdeĠ": 5943,
      "if": 5944,
      "shouĠzhiĠ": 5945,
      "ĠaiĠerĠ": 5946,
      "xuanĠjuĠzhongĠ": 5947,
      "yuĠdaoĠ": 5948,
      "liĠnianĠ": 5949,
      "zhanĠzhengĠqiĠjianĠ": 5950,
      "ĠyinĠweiĠtaĠ": 5951,
      "ĠĠĠqiĠzhongĠ": 5952,
      "siĠzaiĠ": 5953,
      "meiĠtianĠ": 5954,
      "ruĠjingĠ": 5955,
      "qingĠshaoĠnianĠ": 5956,
      "congĠweiĠ": 5957,
      "51Ġ": 5958,
      "yuanĠquĠ": 5959,
      "wanĠnianĠ": 5960,
      "suanĠfaĠ": 5961,
      "ĠluĠwaĠerĠshengĠ": 5962,
      "weiĠfanĠ": 5963,
      "ziĠyiĠ": 5964,
      "leĠsiĠtanĠ": 5965,
      "bingĠwuĠ": 5966,
      "tuanĠjieĠ": 5967,
      "ĠpinĠ": 5968,
      "ĠĠĠchenĠ": 5969,
      "xiĠyuĠ": 5970,
      "lingĠdeĠ": 5971,
      "danĠyuanĠ": 5972,
      "dongĠceĠ": 5973,
      "tuĠjiĠ": 5974,
      "ĠjiuĠshiĠ": 5975,
      "ĠĠĠjingĠjiĠ": 5976,
      "ĠĠĠpingĠjiaĠ": 5977,
      "dangĠdaiĠ": 5978,
      "chuanĠqiĠ": 5979,
      "Ġ1945ĠnianĠ": 5980,
      "lo": 5981,
      "ĠĠĠ1": 5982,
      "danĠyaoĠ": 5983,
      "jueĠyuĠ": 5984,
      "chengĠxiangĠ": 5985,
      "juĠdaĠdeĠ": 5986,
      "jiaoĠjieĠ": 5987,
      "yanĠxuĠ": 5988,
      "end": 5989,
      "yiĠbuĠfenĠ": 5990,
      "jiĠkeĠ": 5991,
      "diĠjiuĠ": 5992,
      "zhuĠshouĠ": 5993,
      "duĠduĠ": 5994,
      "Ġ5ĠyueĠ": 5995,
      "ĠguanĠfangĠ": 5996,
      "danĠdaĠ": 5997,
      "zongĠshuĠ": 5998,
      "ĠĠĠ2005ĠnianĠ": 5999,
      "ĠĠĠsanĠ": 6000,
      "jiĠliĠ": 6001,
      "youĠleĠ": 6002,
      "tiĠyanĠ": 6003,
      "wenĠheĠ": 6004,
      "bingĠzaiĠ": 6005,
      "zhiĠzuoĠrenĠ": 6006,
      "ĠhantĠ": 6007,
      "shangĠfangĠ": 6008,
      "baiĠyuĠ": 6009,
      "mengĠteĠ": 6010,
      "deĠjiĠhuiĠ": 6011,
      "hangĠkongĠgongĠsiĠ": 6012,
      "ziĠxingĠcheĠ": 6013,
      "ĠlingĠyiĠfangĠmianĠ": 6014,
      "54Ġ": 6015,
      "aw": 6016,
      "fuĠluĠ": 6017,
      "shengĠjingĠ": 6018,
      "56": 6019,
      "buĠxingĠ": 6020,
      "yuanĠzhiĠ": 6021,
      "19ĠshiĠjiĠ": 6022,
      "zuiĠyouĠ": 6023,
      "benĠxianĠ": 6024,
      "dengĠdeĠ": 6025,
      "duanĠshiĠjianĠ": 6026,
      "tanĠceĠ": 6027,
      "ĠmengĠguĠ": 6028,
      "shengĠshiĠ": 6029,
      "sheĠzaiĠ": 6030,
      "2ĠmiĠ": 6031,
      "ĠxianĠweiĠ": 6032,
      "ĠliuĠyuĠ": 6033,
      "youĠzaiĠ": 6034,
      "tongĠyongĠ": 6035,
      "zhanĠzhongĠ": 6036,
      "ĠbiĠyeĠ": 6037,
      "ĠhenĠ": 6038,
      "xiĠguanĠ": 6039,
      "mianĠshiĠ": 6040,
      "8ĠgeĠ": 6041,
      "shouĠdaoĠleĠ": 6042,
      "raoĠtaiĠyangĠ": 6043,
      "edi": 6044,
      "meiĠriĠ": 6045,
      "ĠerĠhouĠ": 6046,
      "ĠaoĠmenĠ": 6047,
      "ock": 6048,
      "keĠhuĠ": 6049,
      "dongĠcheĠ": 6050,
      "youĠtaiĠrenĠ": 6051,
      "zhiĠ198": 6052,
      "shengĠyiĠ": 6053,
      "duiĠzaiĠ": 6054,
      "gaoĠzhiĠ": 6055,
      "leiĠxingĠdeĠ": 6056,
      "tuanĠzhangĠ": 6057,
      "mieĠjueĠ": 6058,
      "zhiĠminĠdiĠ": 6059,
      "ĠshiĠjianĠyuĠ": 6060,
      "shenĠshangĠ": 6061,
      "deĠyiĠmeiĠ": 6062,
      "rengĠyouĠ": 6063,
      "tianĠwenĠtaiĠ": 6064,
      "44": 6065,
      "vi": 6066,
      "deĠjianĠ": 6067,
      "moĠluoĠ": 6068,
      "ĠzhiĠchuĠ": 6069,
      "canĠmouĠzhangĠ": 6070,
      "xinĠguanĠfeiĠyanĠ": 6071,
      "eĠweiĠ": 6072,
      "buĠdiĠ": 6073,
      "fuĠlanĠ": 6074,
      "ziĠyuĠ": 6075,
      "jiangĠzhiĠ": 6076,
      "gaiĠmingĠ": 6077,
      "pianĠdeĠ": 6078,
      "taoĠwangĠ": 6079,
      "YouTubeĠ": 6080,
      "wuĠweiĠ": 6081,
      "haoĠshiĠ": 6082,
      "tongĠxueĠ": 6083,
      "LE": 6084,
      "shouĠyiĠ": 6085,
      "changĠshaĠ": 6086,
      "deĠshiĠjiĠ": 6087,
      "yuĠyuĠ": 6088,
      "zaiĠyiĠqiĠ": 6089,
      "geĠluĠ": 6090,
      "zhanĠdiĠ": 6091,
      "guĠdongĠ": 6092,
      "haoĠyouĠ": 6093,
      "01Ġ": 6094,
      "ĠchanĠ": 6095,
      "anĠliĠ": 6096,
      "yuanĠjiĠ": 6097,
      "changĠbeiĠ": 6098,
      "ĠshiĠeĠluoĠsiĠ": 6099,
      "saiĠcheĠ": 6100,
      "ĠweiĠlaiĠ": 6101,
      "3ĠmiĠ": 6102,
      "zhuĠjiĠ": 6103,
      "shuĠyiĠ": 6104,
      "baĠjiĠ": 6105,
      "ĠqianĠwangĠ": 6106,
      "Ġ1991ĠnianĠ": 6107,
      "ĠtianĠjinĠ": 6108,
      "haiĠbaĠgaoĠduĠweiĠ": 6109,
      "ĠnĠ": 6110,
      "jianĠleĠ": 6111,
      "shuĠheĠ": 6112,
      "fangĠchengĠ": 6113,
      "neiĠmengĠguĠ": 6114,
      "caiĠwuĠ": 6115,
      "ĠheĠlanĠ": 6116,
      "fangĠsongĠ": 6117,
      "yanĠfaĠ": 6118,
      "ĠdanĠqiĠ": 6119,
      "daĠyingĠ": 6120,
      "beiĠsiĠ": 6121,
      "shiĠnianĠ": 6122,
      "ĠĠĠquanĠ": 6123,
      "weiĠweiĠ": 6124,
      "buĠquĠ": 6125,
      "taĠrenĠ": 6126,
      "huaĠheĠwuĠ": 6127,
      "qianĠyinĠ": 6128,
      "ĠjiĠhuĠ": 6129,
      "ĠciĠciĠ": 6130,
      "nongĠchangĠ": 6131,
      "geĠtiĠ": 6132,
      "fuĠjiaĠ": 6133,
      "shuĠniuĠ": 6134,
      "guanĠguangĠ": 6135,
      "lingĠdaoĠdeĠ": 6136,
      "lunĠtanĠ": 6137,
      "chenĠjiĠ": 6138,
      "ĠdaĠyueĠ": 6139,
      "ĠpuĠtaoĠyaĠ": 6140,
      "ĠcuĠ": 6141,
      "zhuĠlongĠ": 6142,
      "juĠjuĠzhangĠ": 6143,
      "leĠgaiĠ": 6144,
      "taiĠbiĠ": 6145,
      "luoĠyuĠ": 6146,
      "xieĠdaiĠ": 6147,
      "zuiĠdiĠ": 6148,
      "ros": 6149,
      "ĠkangĠxiĠ": 6150,
      "hongĠzhaĠjiĠ": 6151,
      "Ġ9Ġ": 6152,
      "shouĠfaĠ": 6153,
      "zhanĠzhiĠ": 6154,
      "luoĠxuanĠ": 6155,
      "saiĠzhongĠ": 6156,
      "huĠlianĠwangĠ": 6157,
      "paiĠlieĠ": 6158,
      "00ĠnianĠ": 6159,
      "chĠ": 6160,
      "ziĠchengĠ": 6161,
      "leĠzheĠ": 6162,
      "fangĠbianĠ": 6163,
      "boĠgeĠ": 6164,
      "meiĠguoĠrenĠ": 6165,
      "25ĠnianĠ": 6166,
      "39Ġ": 6167,
      "xingĠxiĠ": 6168,
      "keĠjianĠ": 6169,
      "liuĠliangĠ": 6170,
      "huĠxiĠ": 6171,
      "ĠĠĠdiĠerĠ": 6172,
      "diĠ2Ġ": 6173,
      "zhanĠweiĠ": 6174,
      "haiĠeĠ": 6175,
      "teĠjiĠ": 6176,
      "nuoĠmanĠ": 6177,
      "Ġ185": 6178,
      "xiaoĠyuĠ": 6179,
      "aoĠsiĠkaĠ": 6180,
      "gongĠheĠdangĠ": 6181,
      "jiangĠsuĠshengĠ": 6182,
      "88": 6183,
      "shuĠdeĠzhiĠwuĠ": 6184,
      "qianĠzeĠ": 6185,
      "zhuanĠdeĠxiaoĠxingĠxingĠ": 6186,
      "zhiĠzhuĠ": 6187,
      "zhiĠpianĠ": 6188,
      "buĠjuĠ": 6189,
      "shouĠgeĠquĠ": 6190,
      "bianĠmaĠ": 6191,
      "juĠminĠdianĠ": 6192,
      "AO": 6193,
      "az": 6194,
      "deĠlaĠ": 6195,
      "yiĠxiĠlieĠ": 6196,
      "huoĠpaoĠ": 6197,
      "tiĠshiĠ": 6198,
      "zuĠqiuĠlianĠsaiĠ": 6199,
      "renĠkeĠ": 6200,
      "heĠqiĠ": 6201,
      "heĠjieĠ": 6202,
      "dongĠnanĠyaĠ": 6203,
      "61Ġ": 6204,
      "Ġk": 6205,
      "weiĠtuoĠ": 6206,
      "zaiĠbeiĠjingĠ": 6207,
      "luĠyiĠ": 6208,
      "luĠyingĠdaiĠ": 6209,
      "WĠ": 6210,
      "ĠĠĠjingĠ": 6211,
      "wuĠzhongĠdeĠ": 6212,
      "shouĠsunĠ": 6213,
      "changĠshangĠ": 6214,
      "deĠdaoĠleĠ": 6215,
      "zaiĠtaĠ": 6216,
      "jinĠzhangĠ": 6217,
      "shangĠweiĠyouĠ": 6218,
      "yeĠbuĠ": 6219,
      "yinĠjingĠ": 6220,
      "huanĠjieĠ": 6221,
      "ĠjiangĠqiĠ": 6222,
      "tuĠanĠ": 6223,
      "ĠquanĠzhangĠ": 6224,
      "bianĠhaoĠweiĠ": 6225,
      "jiaoĠfuĠ": 6226,
      "dunĠdeĠ": 6227,
      "ĠwuĠfaĠ": 6228,
      "ĠgeĠquĠ": 6229,
      "yeĠfuĠ": 6230,
      "duoĠxiangĠ": 6231,
      "daoĠfuĠ": 6232,
      "ort": 6233,
      "kangĠxiĠ": 6234,
      "reĠdaiĠqiĠxuanĠ": 6235,
      "zhiĠjiaoĠ": 6236,
      "gongĠshangĠ": 6237,
      "jinĠchengĠ": 6238,
      "guĠwuĠ": 6239,
      "moĠqiĠ": 6240,
      "ĠSĠ": 6241,
      "pingĠjunĠhaiĠbaĠgaoĠduĠweiĠ": 6242,
      "renĠgongĠyinĠ": 6243,
      "ĠqiĠxiĠzaiĠ": 6244,
      "ĠleĠ": 6245,
      "gongĠdaĠ": 6246,
      "jiaoĠzuoĠ": 6247,
      "duiĠyuanĠ": 6248,
      "haĠlaĠ": 6249,
      "zhongĠzaiĠpeiĠ": 6250,
      "xingĠzouĠ": 6251,
      "daoĠqianĠ": 6252,
      "gaoĠdiĠ": 6253,
      "7ĠgeĠ": 6254,
      "ĠtaĠmenĠzaiĠ": 6255,
      "kenĠdingĠ": 6256,
      "shuoĠshiĠxueĠweiĠ": 6257,
      "buĠleiĠ": 6258,
      "xiĠyuanĠ": 6259,
      "jieĠguanĠ": 6260,
      "ziĠliĠ": 6261,
      "danĠyiĠ": 6262,
      "yunĠheĠ": 6263,
      "baiĠwanĠ": 6264,
      "8ĠmiĠ": 6265,
      "chengĠliĠleĠ": 6266,
      "shunĠxuĠ": 6267,
      "Ġ1988ĠnianĠ": 6268,
      "ĠhuaĠxueĠ": 6269,
      "ĠerĠgaiĠdiĠdeĠpingĠjunĠhaiĠbaĠgaoĠduĠweiĠ": 6270,
      "zenĠ": 6271,
      "ĠĠĠm": 6272,
      "ĠĠĠ12": 6273,
      "hunĠluanĠ": 6274,
      "ĠdongĠjingĠ": 6275,
      "ĠĠĠ1Ġ": 6276,
      "jiĠbeiĠ": 6277,
      "buĠqiangĠ": 6278,
      "ĠdiĠsiĠ": 6279,
      "2010ĠnianĠmeiĠguoĠrenĠkouĠpuĠchaĠdeĠshuĠjuĠ": 6280,
      "ĠqiuĠduiĠ": 6281,
      "ĠĠĠyingĠ": 6282,
      "shengĠcunĠ": 6283,
      "dianĠliuĠ": 6284,
      "quanĠtiĠ": 6285,
      "yaoĠgunĠ": 6286,
      "72Ġ": 6287,
      "deĠliĠshiĠ": 6288,
      "ĠĠĠlaĠ": 6289,
      "tuiĠchuĠdeĠ": 6290,
      "kaĠluoĠlaiĠ": 6291,
      "luoĠfaĠkeĠ": 6292,
      "renĠgongĠyinĠzhongĠzaiĠpeiĠ": 6293,
      "shiĠzongĠ": 6294,
      "duĠguoĠ": 6295,
      "xiaĠbanĠ": 6296,
      "nvĠyanĠyuanĠ": 6297,
      "ĠĠĠfeiĠ": 6298,
      "duoĠmingĠ": 6299,
      "gengĠduoĠdeĠ": 6300,
      "ĠlieĠcheĠ": 6301,
      "xiaĠshuĠ": 6302,
      "chuanĠdeĠ": 6303,
      "gengĠhuanĠ": 6304,
      "ĠneiĠrongĠ": 6305,
      "yiĠzuĠ": 6306,
      "weiĠzaiĠ": 6307,
      "yuĠsuanĠ": 6308,
      "fuĠqiĠ": 6309,
      "bingĠyuĠ": 6310,
      "xiĠzhouĠ": 6311,
      "jianĠzaiĠ": 6312,
      "xianĠqianĠ": 6313,
      "yeĠsuĠ": 6314,
      "yinĠshuaĠ": 6315,
      "dangĠriĠ": 6316,
      "ĠheĠnanĠ": 6317,
      "yanĠjiuĠshengĠ": 6318,
      "ĠchuĠrenĠ": 6319,
      "Ġ1989ĠnianĠ": 6320,
      "liĠshaĠ": 6321,
      "ĠwuĠlunĠ": 6322,
      "xiaĠshiĠ": 6323,
      "poĠlunĠ": 6324,
      "40ĠnianĠ": 6325,
      "zhiĠbangĠ": 6326,
      "jiaoĠtuĠ": 6327,
      "pianĠduanĠ": 6328,
      "ĠgongĠtongĠ": 6329,
      "Ġ000ĠrenĠ": 6330,
      "xiaĠxiaĠyiĠxiaĠdiĠquĠ": 6331,
      "shouĠhuiĠ": 6332,
      "dianĠheĠ": 6333,
      "ĠyiĠzhongĠ": 6334,
      "shenĠwangĠ": 6335,
      "cengĠdeĠ": 6336,
      "sheĠjiĠshiĠ": 6337,
      "ciĠciĠ": 6338,
      "yinĠjinĠ": 6339,
      "jingĠjiĠxueĠ": 6340,
      "IT": 6341,
      "xinĠshiĠ": 6342,
      "liangĠhaoĠ": 6343,
      "baĠsiĠ": 6344,
      "kaoĠchaĠ": 6345,
      "56Ġ": 6346,
      "wenĠdaiĠ": 6347,
      "suiĠzhiĠ": 6348,
      "ĠjiĠbenĠ": 6349,
      "00ĠmingĠ": 6350,
      "98": 6351,
      "erĠbuĠ": 6352,
      "beiĠgeĠ": 6353,
      "jinĠtianĠ": 6354,
      "xueĠtangĠ": 6355,
      "fenĠqiĠ": 6356,
      "sanĠweiĠ": 6357,
      "ook": 6358,
      "siĠyuanĠ": 6359,
      "jieĠruĠ": 6360,
      "shouĠhaiĠ": 6361,
      "dongĠgongĠ": 6362,
      "zhouĠzhiĠ": 6363,
      "baĠyueĠ": 6364,
      "ĠdangĠshiĠdeĠ": 6365,
      "Ġ1983ĠnianĠ": 6366,
      "huoĠcheĠzhanĠ": 6367,
      "muĠfuĠ": 6368,
      "sanĠrenĠ": 6369,
      "naĠheĠ": 6370,
      "wuĠpinĠ": 6371,
      "tiĠjiaoĠ": 6372,
      "liuĠqiuĠ": 6373,
      "cheĠdiĠ": 6374,
      "zhaoĠguĠ": 6375,
      "langĠdeĠ": 6376,
      "ĠshengĠzhangĠyuĠ": 6377,
      "diĠyiĠciĠshiĠjieĠdaĠzhanĠ": 6378,
      "tor": 6379,
      "beiĠyiĠ": 6380,
      "duoĠrenĠ": 6381,
      "genĠbenĠ": 6382,
      "shiĠjianĠyuĠ": 6383,
      "ĠboĠlanĠ": 6384,
      "deĠdaoĠluĠ": 6385,
      "Ġãĥ¼": 6386,
      "eam": 6387,
      "ĠĠĠ2": 6388,
      "teĠlanĠ": 6389,
      "boĠduoĠ": 6390,
      "kaĠfeiĠ": 6391,
      "ĠzhongĠguoĠdaĠluĠ": 6392,
      "ĠaĠlaĠ": 6393,
      "3ĠnianĠ1ĠyueĠ": 6394,
      "âĪ": 6395,
      "dianĠweiĠ": 6396,
      "mianĠshangĠ": 6397,
      "hanĠgaiĠ": 6398,
      "diaoĠsuĠ": 6399,
      "ly": 6400,
      "zaiĠxinĠ": 6401,
      "huiĠxiangĠ": 6402,
      "jinĠdaiĠ": 6403,
      "puĠliĠ": 6404,
      "nanĠjiĠzhouĠdeĠ": 6405,
      "xiĠboĠ": 6406,
      "waiĠweiĠ": 6407,
      "ĠBĠ": 6408,
      "ĠweiĠyuĠgaiĠshengĠ": 6409,
      "ing": 6410,
      "jinĠshengĠ": 6411,
      "jiaoĠxiangĠ": 6412,
      "wangĠshangĠ": 6413,
      "naĠgeĠ": 6414,
      "ĠxiĠlaĠ": 6415,
      "fuĠluoĠliĠdaĠ": 6416,
      "jiĠfenĠ": 6417,
      "heĠnanĠshengĠ": 6418,
      "ĠdaĠduoĠshuĠ": 6419,
      "laiĠziĠyuĠ": 6420,
      "aiĠdeĠhuaĠ": 6421,
      "jiĠtiĠ": 6422,
      "gaiĠjinĠ": 6423,
      "ĠfanĠduiĠ": 6424,
      "Ġ1984ĠnianĠ": 6425,
      "ĠĠN": 6426,
      "zaiĠhaiĠ": 6427,
      "huiĠdaĠ": 6428,
      "ĠshiĠtaiĠwanĠ": 6429,
      "pingĠweiĠ": 6430,
      "meiĠguoĠdeĠ": 6431,
      "7ĠmiĠ": 6432,
      "Ġ4ĠyueĠ": 6433,
      "chuangĠzuoĠdeĠ": 6434,
      "jinĠhuaĠ": 6435,
      "ĠkeĠluoĠ": 6436,
      "chuĠxianĠdeĠ": 6437,
      "neiĠzhengĠ": 6438,
      "linĠshengĠ": 6439,
      "ĠgaiĠbianĠ": 6440,
      "ast": 6441,
      "chuĠnianĠ": 6442,
      "jingĠwaiĠ": 6443,
      "piĠpanĠ": 6444,
      "ĠhangĠ": 6445,
      "heĠchangĠ": 6446,
      "gongĠyueĠ": 6447,
      "jianĠguoĠ": 6448,
      "jiangĠnanĠ": 6449,
      "xuanĠminĠ": 6450,
      "ĠqiĠshiĠ": 6451,
      "ĠbuĠtongĠ": 6452,
      "zhanĠzhengĠzhongĠ": 6453,
      "66": 6454,
      "yuĠyouĠ": 6455,
      "heĠdaĠ": 6456,
      "gongĠzhiĠ": 6457,
      "jiaĠbanĠ": 6458,
      "houĠdaiĠ": 6459,
      "longĠshengĠ": 6460,
      "ĠĠĠgaoĠ": 6461,
      "ĠshiĠxiĠbanĠyaĠ": 6462,
      "biĠerĠ": 6463,
      "ĠaoĠdaĠliĠyaĠ": 6464,
      "keĠsiĠtanĠ": 6465,
      "zhanĠdouĠjiĠ": 6466,
      "taĠjiĠ": 6467,
      "liangĠanĠ": 6468,
      "zhouĠliĠ": 6469,
      "ĠkuangĠ": 6470,
      "gongĠdianĠ": 6471,
      "xiangĠweiĠ": 6472,
      "huoĠquĠ": 6473,
      "duiĠchenĠ": 6474,
      "qianĠlongĠ": 6475,
      "luoĠboĠteĠ": 6476,
      "baiĠkeĠ": 6477,
      "tuiĠfanĠ": 6478,
      "ĠjiaĠjingĠ": 6479,
      "ĠenĠ": 6480,
      "yiĠqieĠ": 6481,
      "beiĠweiĠ": 6482,
      "yinĠyingĠ": 6483,
      "ĠyouĠciĠ": 6484,
      "qiĠzhongĠyiĠgeĠ": 6485,
      "zhuĠlongĠcaoĠ": 6486,
      "sanĠdaĠ": 6487,
      "ĠjianĠliĠ": 6488,
      "ĠfaĠbiaoĠ": 6489,
      "ĠbiaoĠzhunĠ": 6490,
      "jiaoĠgaoĠ": 6491,
      "ĠtaĠheĠ": 6492,
      "cengĠshiĠ": 6493,
      "ĠcongĠciĠ": 6494,
      "yuĠ2010ĠnianĠ": 6495,
      "8ĠnianĠ1ĠyueĠ": 6496,
      "ne": 6497,
      "chengĠshuĠ": 6498,
      "qianĠlaiĠ": 6499,
      "laiĠsiĠ": 6500,
      "jiuĠyiĠ": 6501,
      "baiĠnianĠ": 6502,
      "ĠfuĠlangĠ": 6503,
      "ĠhuĠnanĠ": 6504,
      "6ĠnianĠ1ĠyueĠ": 6505,
      "77": 6506,
      "âĦ": 6507,
      "ĠĠĠtangĠ": 6508,
      "tiĠqianĠ": 6509,
      "yueĠqiĠ": 6510,
      "dangĠjiĠ": 6511,
      "baĠfaĠliĠyaĠ": 6512,
      "manĠdeĠ": 6513,
      "inc": 6514,
      "shiĠyanĠshiĠ": 6515,
      "âĨĴ": 6516,
      "1ĠnianĠ1ĠyueĠ": 6517,
      "tongĠbaoĠ": 6518,
      "xiuĠdingĠ": 6519,
      "tuoĠluoĠ": 6520,
      "deĠjiĠshuĠ": 6521,
      "ĠshiĠyiĠdaĠliĠ": 6522,
      "Ġ1980ĠnianĠ": 6523,
      "yiĠshangĠdeĠ": 6524,
      "youĠzhiĠ": 6525,
      "zheĠxiangĠ": 6526,
      "shenĠmiĠ": 6527,
      "ĠzaiĠtaĠ": 6528,
      "3ĠmingĠ": 6529,
      "miĠdeĠdiĠquĠ": 6530,
      "jiaĠliĠfuĠniĠyaĠzhouĠ": 6531,
      "erĠfeiĠ": 6532,
      "jiuĠyouĠ": 6533,
      "faĠxianĠdeĠ": 6534,
      "ĠshengĠzhangĠyuĠhaiĠbaĠ": 6535,
      "oli": 6536,
      "shouĠlingĠ": 6537,
      "pinĠzhongĠ": 6538,
      "bangĠdeĠ": 6539,
      "21ĠnianĠ": 6540,
      "xingĠshiĠdeĠ": 6541,
      "jingĠyuanĠ": 6542,
      "shangĠjieĠ": 6543,
      "zhanĠshengĠ": 6544,
      "pingĠdingĠ": 6545,
      "chiĠcunĠ": 6546,
      "heiĠlongĠjiangĠ": 6547,
      "ĠtiaoĠ": 6548,
      "jiĠxiangĠ": 6549,
      "siĠdiĠ": 6550,
      "zhenĠduanĠ": 6551,
      "moĠsiĠ": 6552,
      "manĠdiĠguoĠ": 6553,
      "muĠniĠheiĠ": 6554,
      "ith": 6555,
      "erĠdengĠ": 6556,
      "keĠkaoĠ": 6557,
      "quĠdeĠleĠ": 6558,
      "ĠyuĠciĠtongĠshiĠ": 6559,
      "shiĠyueĠ": 6560,
      "ĠshiĠtuĠ": 6561,
      "boĠlaĠ": 6562,
      "wuĠkeĠ": 6563,
      "junĠyuĠ": 6564,
      "hanĠlinĠ": 6565,
      "ĠjieĠshouĠ": 6566,
      "ĠsuoĠxieĠ": 6567,
      "aiĠguoĠ": 6568,
      "heĠgeĠ": 6569,
      "beiĠdaĠ": 6570,
      "gaiĠzhuangĠ": 6571,
      "zuĠlianĠ": 6572,
      "luoĠzaiĠ": 6573,
      "duoĠfuĠ": 6574,
      "baĠdeĠ": 6575,
      "lanĠkaĠ": 6576,
      "kongĠlongĠ": 6577,
      "ĠĠĠzongĠ": 6578,
      "heĠfeiĠ": 6579,
      "guanĠshiĠ": 6580,
      "benĠzhanĠ": 6581,
      "baĠtaĠ": 6582,
      "qieĠerĠ": 6583,
      "kanĠfaĠ": 6584,
      "xingĠzhengĠzhenĠquĠ": 6585,
      "Ġ2025ĠnianĠ": 6586,
      "kmĠ": 6587,
      "gongĠzhanĠ": 6588,
      "jingĠquĠ": 6589,
      "guangĠpuĠ": 6590,
      "fuĠjianĠshengĠ": 6591,
      "2ĠyueĠ1ĠriĠ": 6592,
      "chengĠyiĠ": 6593,
      "chengĠzhiĠ": 6594,
      "xiĠxiĠ": 6595,
      "beiĠmianĠ": 6596,
      "duĠteĠ": 6597,
      "wangĠweiĠ": 6598,
      "ĠjiĠhouĠ": 6599,
      "00ĠduoĠ": 6600,
      "beiĠgaoĠ": 6601,
      "zhanĠfangĠ": 6602,
      "baoĠfuĠ": 6603,
      "quanĠjiĠ": 6604,
      "xuanĠzhuanĠ": 6605,
      "ĠgaiĠweiĠ": 6606,
      "liĠshiĠxueĠjiaĠ": 6607,
      "ĠbanĠbenĠ": 6608,
      "ĠĠĠpuĠ": 6609,
      "ĠĠĠ16": 6610,
      "heĠdongĠ": 6611,
      "jiaoĠdaoĠ": 6612,
      "kaiĠbanĠ": 6613,
      "zuiĠjinĠ": 6614,
      "sanĠzhongĠ": 6615,
      "naĠerĠ": 6616,
      "ĠzhiĠyaoĠ": 6617,
      "huangĠshiĠ": 6618,
      "rongĠliangĠ": 6619,
      "ĠĠĠluĠ": 6620,
      "ĠĠĠbaiĠ": 6621,
      "shengĠxiaoĠ": 6622,
      "ziĠgongĠsiĠ": 6623,
      "jiangĠyouĠ": 6624,
      "shenĠyiĠ": 6625,
      "miĠlanĠ": 6626,
      "ĠguangĠxuĠ": 6627,
      "yiĠshuĠjiaĠ": 6628,
      "heĠxianĠ": 6629,
      "heĠrenĠkouĠ": 6630,
      "chengĠqiangĠ": 6631,
      "shengĠgeĠweiĠ": 6632,
      "jieĠduĠshiĠ": 6633,
      "riĠhouĠ": 6634,
      "tiĠweiĠ": 6635,
      "sanĠyueĠ": 6636,
      "tanĠdingĠ": 6637,
      "xiĠceĠ": 6638,
      "huiĠjiĠ": 6639,
      "zhengĠwuĠ": 6640,
      "guanĠlianĠ": 6641,
      "jiangĠzheĠ": 6642,
      "âĢ§": 6643,
      "ĠzhengĠgeĠ": 6644,
      "Ġ1986ĠnianĠ": 6645,
      "tiĠyuĠguanĠ": 6646,
      "stĠĠĠ": 6647,
      "liĠerĠ": 6648,
      "xiĠjunĠ": 6649,
      "riĠyiĠ": 6650,
      "fangĠzhenĠ": 6651,
      "shiĠyongĠzheĠ": 6652,
      "ĠjuĠqingĠ": 6653,
      "ĠdiĠerĠciĠ": 6654,
      "5ĠnianĠ1ĠyueĠ": 6655,
      "xianĠleĠ": 6656,
      "xiaoĠsheĠ": 6657,
      "haĠliĠ": 6658,
      "ĠAl": 6659,
      "ĠĠĠw": 6660,
      "ĠĠĠjiuĠ": 6661,
      "fuĠlangĠ": 6662,
      "beiĠshangĠ": 6663,
      "yinĠmouĠ": 6664,
      "ĠweiĠciĠ": 6665,
      "fengĠdeĠ": 6666,
      "siĠchuanĠshengĠ": 6667,
      "bi": 6668,
      "zaiĠyingĠguoĠ": 6669,
      "geĠxiangĠ": 6670,
      "quĠmuĠ": 6671,
      "juĠzhenĠ": 6672,
      "gaoĠcengĠ": 6673,
      "sanĠciĠ": 6674,
      "ĠdanĠyeĠ": 6675,
      "ĠbiĠyeĠyuĠ": 6676,
      "ĠyaĠliĠ": 6677,
      "xianĠdeĠyiĠgeĠxingĠzhengĠzhenĠquĠ": 6678,
      "ĠĠĠandĠĠĠ": 6679,
      ".&": 6680,
      "ĠĠĠyeĠ": 6681,
      "ĠĠĠzhiĠzuoĠ": 6682,
      "jiĠbieĠ": 6683,
      "zaiĠneiĠ": 6684,
      "xingĠchengĠdeĠ": 6685,
      "yinĠdiĠ": 6686,
      "zhenĠrongĠ": 6687,
      "sanĠmingĠ": 6688,
      "ĠyingĠdeĠ": 6689,
      "weiĠyuanĠhuiĠzhuĠxiĠ": 6690,
      "fouĠrenĠ": 6691,
      "89": 6692,
      "chuĠsaiĠ": 6693,
      "jiaoĠkeĠ": 6694,
      "changĠchangĠ": 6695,
      "duiĠyouĠ": 6696,
      "ruĠqiuĠ": 6697,
      "yanĠjiuĠzhongĠxinĠ": 6698,
      "diĠqiĠyaĠ": 6699,
      "ayĠĠĠ": 6700,
      "zaiĠzheĠ": 6701,
      "huaĠfenĠ": 6702,
      "zuĠrenĠ": 6703,
      "ant": 6704,
      "Ġre": 6705,
      "aĠjiĠ": 6706,
      "fuĠfuĠ": 6707,
      "fuĠzhuĠrenĠ": 6708,
      "huaĠjiĠ": 6709,
      "zhanĠyouĠ": 6710,
      "wangĠyuanĠjingĠ": 6711,
      "lieĠsiĠ": 6712,
      "ĠjianĠyuĠ": 6713,
      "9ĠmiĠ": 6714,
      "jiaoĠyuĠbuĠ": 6715,
      "zanĠshiĠ": 6716,
      "dangĠxuanĠweiĠ": 6717,
      "daoĠjiĠ": 6718,
      "banĠjiĠ": 6719,
      "waiĠjieĠ": 6720,
      "cengĠrenĠ": 6721,
      "hangĠxingĠ": 6722,
      "shiĠyiĠweiĠ": 6723,
      "ĠleiĠjiĠ": 6724,
      "ĠkuaiĠ": 6725,
      "ĠluoĠsiĠ": 6726,
      "xiangĠliangĠ": 6727,
      "feiĠdanĠ": 6728,
      "deĠyiĠciĠ": 6729,
      "gongĠzuoĠrenĠyuanĠ": 6730,
      "str": 6731,
      "ĠpangĠ": 6732,
      "qiĠguanĠ": 6733,
      "beiĠrenĠmingĠweiĠ": 6734,
      "luoĠteĠ": 6735,
      "shiĠjianĠweiĠ": 6736,
      "ĠĠĠ2004ĠnianĠ": 6737,
      "ĠchongĠxinĠ": 6738,
      "zhangĠwoĠ": 6739,
      "benĠkeĠ": 6740,
      "ĠyouĠrenĠ": 6741,
      "zeĠerĠshengĠ": 6742,
      "mengĠjunĠ": 6743,
      "zhuĠchiĠrenĠ": 6744,
      "ĠshiĠjiĠdeĠ": 6745,
      "wenĠgeĠ": 6746,
      "tingĠyunĠ": 6747,
      "ĠkeĠliĠsiĠ": 6748,
      "kuĠerĠ": 6749,
      "dianĠshiĠdongĠhuaĠ": 6750,
      "Al": 6751,
      "ĠĠĠmoĠ": 6752,
      "yuĠĠĠ": 6753,
      "beiĠceĠ": 6754,
      "zhanĠjuĠ": 6755,
      "qianĠxianĠ": 6756,
      "bianĠzuĠ": 6757,
      "huanĠxiangĠ": 6758,
      "saĠlaĠ": 6759,
      "renĠdaĠdaiĠbiaoĠ": 6760,
      "eĠwaiĠ": 6761,
      "deĠjunĠ": 6762,
      "ĠĠĠzuoĠweiĠ": 6763,
      "buĠyaoĠ": 6764,
      "wenĠbenĠ": 6765,
      "chuanĠxianĠ": 6766,
      "hangĠxianĠ": 6767,
      "yuĠjiaĠ": 6768,
      "zhuĠfangĠ": 6769,
      "tongĠbuĠ": 6770,
      "jiangĠpaiĠ": 6771,
      "sheĠruĠ": 6772,
      "shenĠkeĠ": 6773,
      "ĠzuiĠdaĠ": 6774,
      "ĠchuĠbanĠ": 6775,
      "ĠtaiĠbeiĠ": 6776,
      "ĠmuĠqianĠshangĠweiĠyouĠ": 6777,
      "HD": 6778,
      "yiĠgongĠ": 6779,
      "zhongĠjieĠ": 6780,
      "meiĠshiĠ": 6781,
      "liangĠtiaoĠ": 6782,
      "boĠyinĠ": 6783,
      "cheĠdaoĠ": 6784,
      "zhuanĠquĠ": 6785,
      "deĠdiĠyiĠgeĠ": 6786,
      "22ĠnianĠ": 6787,
      "eĠhaiĠeĠ": 6788,
      "zaiĠshengĠ": 6789,
      "wuĠliĠxueĠ": 6790,
      "duĠjiaĠ": 6791,
      "liangĠzheĠ": 6792,
      "daiĠtiĠ": 6793,
      "biĠluĠ": 6794,
      "maĠshiĠ": 6795,
      "zongĠjingĠliĠ": 6796,
      "ĠzhongĠguoĠgongĠchanĠdangĠ": 6797,
      "Ġ1958ĠnianĠ": 6798,
      "ĠĠĠsaiĠ": 6799,
      "ĠĠĠduiĠyuĠ": 6800,
      "yuĠjingĠ": 6801,
      "zaiĠkeĠ": 6802,
      "jieĠweiĠzhiĠ": 6803,
      "yanĠwuĠ": 6804,
      "tingĠzhangĠ": 6805,
      "ĠĠĠweiĠleĠ": 6806,
      "DV": 6807,
      "IIĠ": 6808,
      "zaiĠxiangĠ": 6809,
      "zaiĠtaiĠwanĠ": 6810,
      "suĠzhouĠ": 6811,
      "ĠmuĠqianĠshangĠweiĠyouĠrenĠgongĠyinĠzhongĠzaiĠpeiĠ": 6812,
      "jieĠlunĠ": 6813,
      "quĠziĠ": 6814,
      "jiongĠ": 6815,
      "dangĠzuoĠ": 6816,
      "shanĠdiĠ": 6817,
      "Ġ3ĠyueĠ": 6818,
      "oog": 6819,
      "Ġr": 6820,
      "aĠliĠ": 6821,
      "ĠĠĠlinĠ": 6822,
      "yuĠliĠ": 6823,
      "fuĠchuĠ": 6824,
      "ziĠdanĠ": 6825,
      "shouĠhuanĠyingĠ": 6826,
      "hanĠmoĠdeĠ": 6827,
      "geiĠtaĠ": 6828,
      "Ġ1982ĠnianĠ": 6829,
      "ĠJR": 6830,
      "zhuĠdaĠ": 6831,
      "changĠyiĠ": 6832,
      "yueĠduĠ": 6833,
      "xuĠgouĠ": 6834,
      "mianĠxiangĠ": 6835,
      "ĠweiĠqiĠ": 6836,
      "fengĠsuoĠ": 6837,
      "shuiĠshenĠ": 6838,
      "ĠtongĠriĠ": 6839,
      "keĠyiĠtongĠguoĠ": 6840,
      "yuĠ2016ĠnianĠ": 6841,
      "WindowsĠĠĠ": 6842,
      "MA": 6843,
      "heĠseĠ": 6844,
      "shuĠshuĠ": 6845,
      "cunĠminĠ": 6846,
      "ĠheĠbeiĠ": 6847,
      "ĠzhongĠguoĠrenĠminĠjieĠfangĠjunĠ": 6848,
      "deĠdianĠ": 6849,
      "ĠĠĠjianĠzhuĠ": 6850,
      "zhongĠduiĠ": 6851,
      "jiaoĠshaoĠ": 6852,
      "saiĠbaiĠ": 6853,
      "bingĠchuanĠ": 6854,
      "anĠxianĠ": 6855,
      "ĠĠĠlingĠ": 6856,
      "heĠshangĠ": 6857,
      "biaoĠjiĠ": 6858,
      "deĠyiĠxiangĠ": 6859,
      "huiĠyiĠshangĠ": 6860,
      "000": 6861,
      "67Ġ": 6862,
      "ĠchouĠ": 6863,
      "yuĠlinĠ": 6864,
      "xiĠfaĠ": 6865,
      "keĠteĠ": 6866,
      "28ĠnianĠ": 6867,
      "shanĠdingĠ": 6868,
      "tianĠxiaĠ": 6869,
      "shuiĠliangĠ": 6870,
      "ĠhaĠerĠ": 6871,
      "juĠliuĠ": 6872,
      "feiĠdeĠ": 6873,
      "lunĠsiĠ": 6874,
      "4ĠmiĠ": 6875,
      "laoĠgongĠ": 6876,
      "zhiĠhuiĠguanĠ": 6877,
      "35ĠnianĠ": 6878,
      "4ĠnianĠ1ĠyueĠ": 6879,
      "shiĠneiĠ": 6880,
      "guoĠwuĠ": 6881,
      "shangĠjiangĠ": 6882,
      "muĠyuĠ": 6883,
      "ĠdeĠdaoĠ": 6884,
      "ĠgaiĠdiĠdeĠ": 6885,
      "manĠzhouĠ": 6886,
      "yingĠxiangĠliĠ": 6887,
      "ĠyaĠzhouĠ": 6888,
      "neĠshengĠ": 6889,
      "saĠsiĠzhouĠ": 6890,
      "ok": 6891,
      "shengĠyouĠ": 6892,
      "jiaoĠzhiĠ": 6893,
      "muĠjianĠ": 6894,
      "ĠzaiĠmeiĠguoĠ": 6895,
      "faĠshengĠdeĠ": 6896,
      "weiĠyiĠdeĠ": 6897,
      "odiceĠ": 6898,
      "ĠĠĠhuangĠ": 6899,
      "siĠtuoĠ": 6900,
      "jingĠlingĠ": 6901,
      "junĠjiĠ": 6902,
      "fengĠshiĠ": 6903,
      "zaoĠqiĠdeĠ": 6904,
      "mengĠjiaĠlaĠ": 6905,
      "ineĠ": 6906,
      "liĠfangĠmiĠ": 6907,
      "ĠĠĠgeĠrenĠshengĠhuoĠ": 6908,
      "heĠluĠ": 6909,
      "zaiĠ195": 6910,
      "diĠshiĠniĠ": 6911,
      "Ġà¸": 6912,
      "âĦĥ": 6913,
      "renĠdouĠ": 6914,
      "nengĠzaiĠ": 6915,
      "deĠyiĠjianĠ": 6916,
      "ĠtongĠyiĠ": 6917,
      "ĠzhuĠchiĠ": 6918,
      "ĠdianĠziĠ": 6919,
      "ĠtiĠchuĠ": 6920,
      "leiĠsiĠyuĠ": 6921,
      "yuĠshangĠ": 6922,
      "liĠxinĠ": 6923,
      "renĠcaiĠ": 6924,
      "ciĠshanĠ": 6925,
      "qianĠshenĠ": 6926,
      "suoĠshiĠ": 6927,
      "maoĠzeĠdongĠ": 6928,
      "ĠziĠranĠ": 6929,
      "laySt": 6930,
      "ersĠ": 6931,
      "geĠchangĠ": 6932,
      "riĠjiĠ": 6933,
      "taiĠerĠ": 6934,
      "beiĠbuĠdeĠ": 6935,
      "Ġ1987ĠnianĠ": 6936,
      "fenĠjiĠ": 6937,
      "jiangĠzuiĠjiaĠ": 6938,
      "laiĠshiĠ": 6939,
      "zuiĠduoĠdeĠ": 6940,
      "tanĠheĠ": 6941,
      "weiĠtaĠ": 6942,
      "wuĠerĠ": 6943,
      "zhengĠfaĠ": 6944,
      "luoĠshiĠ": 6945,
      "ĠshiĠyiĠzuoĠ": 6946,
      "zhengĠxieĠweiĠyuanĠ": 6947,
      "Sp": 6948,
      "zhongĠyuanĠ": 6949,
      "yingĠerĠ": 6950,
      "wangĠfanĠ": 6951,
      "jiuĠyueĠ": 6952,
      "baiĠdeĠ": 6953,
      "ĠzheĠyeĠshiĠ": 6954,
      "2ĠnianĠ1ĠyueĠ": 6955,
      "shiĠzhongĠguoĠ": 6956,
      "zaiĠxianĠ": 6957,
      "daĠsiĠ": 6958,
      "jieĠliĠ": 6959,
      "teĠluoĠ": 6960,
      "fengĠsuĠ": 6961,
      "4ĠmingĠ": 6962,
      "ĠxinĠjiaĠpoĠ": 6963,
      "ĠyunĠnanĠ": 6964,
      "zhuĠdiĠ": 6965,
      "fenĠxiangĠ": 6966,
      "minĠdangĠ": 6967,
      "guiĠleiĠ": 6968,
      "ĠjiĠshuĠ": 6969,
      "touĠshouĠ": 6970,
      "riĠbenĠdeĠ": 6971,
      "24ĠnianĠ": 6972,
      "43": 6973,
      "JĠ": 6974,
      "ĠhuiĠyiĠ": 6975,
      "yuĠqianĠ": 6976,
      "zhongĠxunĠ": 6977,
      "zhanĠquĠ": 6978,
      "jiuĠbeiĠ": 6979,
      "pingĠguoĠ": 6980,
      "gaoĠshiĠ": 6981,
      "naĠsiĠ": 6982,
      "zhuanĠbianĠ": 6983,
      "kongĠguĠ": 6984,
      "tiaoĠwenĠ": 6985,
      "gongĠgongĠjiaoĠtongĠ": 6986,
      "terĠ": 6987,
      "ĠkenĠ": 6988,
      "ĠtaĠjiangĠ": 6989,
      "panĠduanĠ": 6990,
      "deĠjiĠbenĠ": 6991,
      "5ĠĠĠ": 6992,
      "idĠĠĠ": 6993,
      "ud": 6994,
      "ĠfaĠzhanĠ": 6995,
      "ĠguanĠliĠ": 6996,
      "deĠfaĠzhanĠ": 6997,
      "geĠshengĠ": 6998,
      "ĠshiĠzaiĠ": 6999,
      "mianĠqianĠ": 7000,
      "zongĠzhiĠ": 7001,
      "quĠshiĠhouĠ": 7002,
      "enĠĠĠ": 7003,
      "youĠhaoĠ": 7004,
      "suoĠyiĠ": 7005,
      "xuĠniĠ": 7006,
      "87": 7007,
      "jiĠxingĠzhengĠ": 7008,
      "weiĠxiuĠ": 7009,
      "jiaĠsiĠ": 7010,
      "chuĠjingĠ": 7011,
      "leĠjiĠ": 7012,
      "huaĠheĠ": 7013,
      "haiĠzaiĠ": 7014,
      "qingĠxiĠ": 7015,
      "chuanĠguoĠ": 7016,
      "woĠerĠ": 7017,
      "mianĠjiĠheĠrenĠkouĠ": 7018,
      "ĠyingĠxiangĠ": 7019,
      "ĠqiĠzhongĠnanĠ": 7020,
      "DS": 7021,
      "TA": 7022,
      "shiĠjinĠ": 7023,
      "ĠĠĠboĠ": 7024,
      "yuĠdaĠ": 7025,
      "zhongĠshenĠ": 7026,
      "leĠqiĠ": 7027,
      "yinĠziĠ": 7028,
      "huĠnanĠshengĠ": 7029,
      "suĠsheĠ": 7030,
      "shaĠtianĠ": 7031,
      "ĠyingĠliĠ": 7032,
      "ĠdaoĠyanĠ": 7033,
      "amp": 7034,
      "haĠerĠbinĠ": 7035,
      "ĠkaiĠfaĠ": 7036,
      "shiĠjingĠ": 7037,
      "xiangĠcunĠ": 7038,
      "zhengĠweiĠ": 7039,
      "leĠsiĠ": 7040,
      "shenĠyangĠ": 7041,
      "ĠgaiĠzhuangĠ": 7042,
      "ĠjingĠfangĠ": 7043,
      "4ĠyueĠ1ĠriĠ": 7044,
      "eli": 7045,
      "veĠĠĠ": 7046,
      "ĠĠĠguĠshiĠ": 7047,
      "fuĠteĠ": 7048,
      "shouĠmingĠ": 7049,
      "ciĠhuiĠ": 7050,
      "taiĠlangĠ": 7051,
      "ĠshiĠyiĠgeĠweiĠyuĠmeiĠguoĠ": 7052,
      "68Ġ": 7053,
      "ciĠweiĠ": 7054,
      "ĠshiĠwuĠ": 7055,
      "qiuĠmiĠ": 7056,
      "sanĠjiaĠ": 7057,
      "ĠdiĠyiĠciĠ": 7058,
      "Ġ1946ĠnianĠ": 7059,
      "heĠliuĠyuĠ": 7060,
      "ĠjunĠshiĠ": 7061,
      "ĠkuiĠ": 7062,
      "ĠĠĠjianĠliĠ": 7063,
      "yuĠxianĠ": 7064,
      "beiĠhanĠ": 7065,
      "jinĠkouĠ": 7066,
      "tiĠcaoĠ": 7067,
      "ruĠweiĠ": 7068,
      "ĠbaoĠdaoĠ": 7069,
      "dianĠyingĠjieĠ": 7070,
      "chengĠzhiĠweiĠ": 7071,
      "yuanĠxiaoĠ": 7072,
      "yinĠerĠ": 7073,
      "suoĠxieĠ": 7074,
      "zongĠjuĠ": 7075,
      "moĠfaĠ": 7076,
      "ĠgongĠzuoĠ": 7077,
      "ĠgaiĠdiĠdeĠmianĠjiĠheĠrenĠkouĠ": 7078,
      "ĠgaiĠdiĠdeĠmianĠjiĠheĠrenĠkouĠjieĠweiĠzhiĠ": 7079,
      "66Ġ": 7080,
      "ool": 7081,
      "youĠxuĠduoĠ": 7082,
      "shuĠxieĠ": 7083,
      "huaĠmianĠ": 7084,
      "dingĠyuĠ": 7085,
      "danĠshengĠ": 7086,
      "Ġ1920ĠnianĠ": 7087,
      "poĠerĠ": 7088,
      "ĠĠĠshangĠ": 7089,
      "ĠĠĠfaĠguoĠ": 7090,
      "ĠĠĠtheĠĠĠ": 7091,
      "heĠzhiĠ": 7092,
      "siĠyueĠ": 7093,
      "fenĠshuĠ": 7094,
      "yinĠdaoĠ": 7095,
      "zhangĠweiĠ": 7096,
      "shenĠfuĠ": 7097,
      "keĠnengĠxingĠ": 7098,
      "tongĠzhiĠzheĠ": 7099,
      "las": 7100,
      "ĠĠĠ2019": 7101,
      "zhongĠliangĠ": 7102,
      "dongĠquĠ": 7103,
      "xinĠfengĠ": 7104,
      "dengĠdaiĠ": 7105,
      "liĠshiĠhuiĠ": 7106,
      "ĠyeĠkeĠyiĠ": 7107,
      "diĠyiĠbaiĠ": 7108,
      "anĠchaĠ": 7109,
      "ĠĠĠwenĠhuaĠ": 7110,
      "huaĠruĠ": 7111,
      "fenĠchengĠ": 7112,
      "haiĠdiĠ": 7113,
      "qingĠganĠ": 7114,
      "liuĠxueĠ": 7115,
      "liuĠdongĠ": 7116,
      "ĠyuĠjiĠ": 7117,
      "5ĠwanĠ": 7118,
      "gongĠliĠdeĠ": 7119,
      "weiĠyuĠzhongĠguoĠ": 7120,
      "ĠØ": 7121,
      "xiĠzhiĠ": 7122,
      "chuangĠshiĠrenĠ": 7123,
      "ont": 7124,
      "yingĠdeĠleĠ": 7125,
      "qiĠyaĠ": 7126,
      "lianĠjunĠ": 7127,
      "benĠshuĠ": 7128,
      "4ĠnianĠ12ĠyueĠ": 7129,
      "yiĠjieĠ": 7130,
      "qianĠzaiĠ": 7131,
      "juanĠzengĠ": 7132,
      "moĠfangĠ": 7133,
      "ĠgaiĠpianĠ": 7134,
      "1000Ġ": 7135,
      "ĠmaĠliĠ": 7136,
      "shiĠqingĠ": 7137,
      "ĠĠĠriĠ": 7138,
      "ĠĠĠ2Ġ": 7139,
      "daĠtongĠ": 7140,
      "geĠlaĠsiĠ": 7141,
      "beiĠsongĠ": 7142,
      "zuoĠleĠ": 7143,
      "yongĠshiĠ": 7144,
      "jiuĠrenĠ": 7145,
      "laĠduoĠ": 7146,
      "liuĠdeĠ": 7147,
      "ĠyouĠguanĠ": 7148,
      "ĠyingĠcunĠ": 7149,
      "kuangĠjiaĠ": 7150,
      "ĠbenĠpianĠ": 7151,
      "shunĠshiĠzhenĠ": 7152,
      "roun": 7153,
      "Ġ157": 7154,
      "yiĠduiĠ": 7155,
      "ĠĠĠchengĠ": 7156,
      "siĠjiaĠ": 7157,
      "ĠyiĠriĠ": 7158,
      "nuoĠsiĠ": 7159,
      "Ġ1978ĠnianĠ": 7160,
      "PS": 7161,
      "ĠkunĠ": 7162,
      "yiĠfenĠ": 7163,
      "youĠzheĠ": 7164,
      "beiĠfaĠxianĠ": 7165,
      "gaiĠjianĠ": 7166,
      "nanĠceĠ": 7167,
      "ĠdanĠrengĠ": 7168,
      "heiĠrenĠ": 7169,
      "1ĠzhiĠ": 7170,
      "54": 7171,
      "ĠtengĠ": 7172,
      "qiĠsuĠ": 7173,
      "taiĠshouĠ": 7174,
      "touĠdeĠ": 7175,
      "ranĠshaoĠ": 7176,
      "ĠrenĠleiĠ": 7177,
      "yunĠdongĠdeĠ": 7178,
      "zhuĠyaoĠshiĠ": 7179,
      "yeĠheĠ": 7180,
      "ĠyiĠseĠlieĠ": 7181,
      "ĠgongĠchengĠ": 7182,
      "jianĠzhuĠshiĠ": 7183,
      "88Ġ": 7184,
      "luĠjingĠ": 7185,
      "duĠziĠ": 7186,
      "dingĠjiĠ": 7187,
      "zongĠzhanĠ": 7188,
      "chongĠfuĠ": 7189,
      "ĠĠĠcheĠzhanĠjieĠgouĠ": 7190,
      "ĠfouĠzeĠ": 7191,
      "ani": 7192,
      "ĠshiĠdiĠ": 7193,
      "tiĠqinĠ": 7194,
      "linĠsiĠ": 7195,
      "qiangĠjiĠ": 7196,
      "orl": 7197,
      "57Ġ": 7198,
      "shiĠbuĠ": 7199,
      "yuĠtaĠ": 7200,
      "guoĠyouĠ": 7201,
      "daĠzhouĠ": 7202,
      "yuanĠshuaiĠ": 7203,
      "jingĠfeiĠ": 7204,
      "Ġ184": 7205,
      "zhuiĠqiuĠ": 7206,
      "sic": 7207,
      "guoĠqiĠ": 7208,
      "xiĠniĠ": 7209,
      "luĠmuĠ": 7210,
      "wanĠqiĠ": 7211,
      "bianĠxieĠ": 7212,
      "chaĠerĠsiĠ": 7213,
      "qiangĠhuaĠ": 7214,
      "kaiĠfaĠdeĠ": 7215,
      "liuĠgeĠ": 7216,
      "daĠxueĠjiaoĠshouĠ": 7217,
      "4ĠnianĠ10ĠyueĠ": 7218,
      "osĠ": 7219,
      "zaiĠjiaĠ": 7220,
      "fuĠzhuangĠ": 7221,
      "jinĠhuiĠ": 7222,
      "zheĠheĠ": 7223,
      "jiangĠliĠ": 7224,
      "ĠziĠciĠ": 7225,
      "cunĠzaiĠdeĠ": 7226,
      "¡Ġ": 7227,
      "ĠĠĠmuĠ": 7228,
      "taĠheĠ": 7229,
      "bianĠgengĠ": 7230,
      "hangĠzhanĠ": 7231,
      "ĠgongĠbuĠ": 7232,
      "ĠĠĠ2003ĠnianĠ": 7233,
      "0ĠnianĠdaiĠchuĠ": 7234,
      "ĠĠĠtongĠ": 7235,
      "ĠĠĠshenĠ": 7236,
      "jieĠduĠ": 7237,
      "mingĠxianĠdeĠ": 7238,
      "xueĠtongĠ": 7239,
      "lieĠshiĠ": 7240,
      "tuiĠxingĠ": 7241,
      "jiĠjianĠ": 7242,
      "chengĠcheĠ": 7243,
      "jiaoĠdiĠ": 7244,
      "Ġ100Ġ": 7245,
      "chenĠmoĠ": 7246,
      "souĠsuoĠ": 7247,
      "daĠliangĠdeĠ": 7248,
      "Ġ200Ġ": 7249,
      "wuĠxianĠdianĠ": 7250,
      "37ĠnianĠ": 7251,
      "US": 7252,
      "erĠgeĠ": 7253,
      "zhengĠqiĠ": 7254,
      "ruĠyuĠ": 7255,
      "banĠquanĠ": 7256,
      "chuanĠyueĠ": 7257,
      "ĠyangĠhuaĠ": 7258,
      "OM": 7259,
      "shangĠjiaĠ": 7260,
      "zuoĠwuĠ": 7261,
      "tiĠanĠ": 7262,
      "baĠleĠsiĠtanĠ": 7263,
      "ĠfeiĠliĠ": 7264,
      "ĠbangĠzhuĠ": 7265,
      "Ġlv": 7266,
      "ĠhenĠduoĠ": 7267,
      "shiĠgongĠ": 7268,
      "chuanĠdiĠ": 7269,
      "zhuanĠzhiĠ": 7270,
      "78Ġ": 7271,
      "ĠzaĠ": 7272,
      "ĠĠĠcanĠkaoĠ": 7273,
      "youĠwuĠ": 7274,
      "fenĠgeĠ": 7275,
      "lunĠduoĠ": 7276,
      "ganĠqingĠ": 7277,
      "omĠ": 7278,
      "keĠliĠmiĠyaĠ": 7279,
      "lan": 7280,
      "zhuĠsaiĠ": 7281,
      "huĠweiĠ": 7282,
      "deĠguoĠchengĠ": 7283,
      "wenĠtiĠdeĠ": 7284,
      "ĠanĠhuiĠ": 7285,
      "ĠĠĠ11": 7286,
      "ĠĠĠyanĠgeĠ": 7287,
      "liĠxingĠ": 7288,
      "buĠyouĠ": 7289,
      "laĠmaĠ": 7290,
      "neiĠyaĠ": 7291,
      "meiĠyouĠrenĠheĠ": 7292,
      "ĠkaĠerĠ": 7293,
      "ĠĠĠleiĠ": 7294,
      "jiaĠweiĠ": 7295,
      "xinĠquĠ": 7296,
      "yingĠchaoĠ": 7297,
      "naĠyangĠ": 7298,
      "ĠshiĠweiĠyuĠwuĠkeĠlanĠ": 7299,
      "Sh": 7300,
      "neĠĠĠ": 7301,
      "ĠseĠ": 7302,
      "ĠĠĠbiĠ": 7303,
      "chuĠjueĠ": 7304,
      "guoĠjiaĠanĠquanĠ": 7305,
      "wenĠhuaĠyiĠchanĠ": 7306,
      "ĠzhanĠdiĠ": 7307,
      "gongĠchanĠzhuĠyiĠ": 7308,
      "23ĠnianĠ": 7309,
      "geĠĠĠ": 7310,
      "zuoĠtangĠ": 7311,
      "tingĠzhanĠ": 7312,
      "xunĠluoĠ": 7313,
      "1999ĠnianĠ": 7314,
      "ĠĠĠgenĠjuĠ2010ĠnianĠmeiĠguoĠrenĠkouĠpuĠchaĠdeĠshuĠjuĠ": 7315,
      "2ĠshiĠ": 7316,
      "erĠjiaĠ": 7317,
      "xiĠxianĠ": 7318,
      "zhuĠchengĠ": 7319,
      "jinĠxiangĠ": 7320,
      "zongĠsiĠlingĠ": 7321,
      "yuĠ2015ĠnianĠ": 7322,
      "zuiĠzaoĠdeĠ": 7323,
      "eĠhuaĠ": 7324,
      "ĠĠĠxingĠ": 7325,
      "yuĠyinĠ": 7326,
      "zhanĠcheĠ": 7327,
      "mianĠyiĠ": 7328,
      "shuiĠdeĠ": 7329,
      "ĠĠĠ2000ĠnianĠ": 7330,
      "Ar": 7331,
      "ĠwanĠchengĠ": 7332,
      "zaiĠyouĠ": 7333,
      "xiaoĠmieĠ": 7334,
      "zuĠxianĠ": 7335,
      "1ĠjiaĠ": 7336,
      "ĠbuĠnengĠ": 7337,
      "tuiĠchuĠleĠ": 7338,
      "Ġ1948ĠnianĠ": 7339,
      "deĠheĠliuĠ": 7340,
      "tongĠxingĠlianĠ": 7341,
      "38ĠnianĠ": 7342,
      "aiĠliĠ": 7343,
      "yuĠceĠ": 7344,
      "heĠshuĠ": 7345,
      "xingĠbuĠ": 7346,
      "shangĠchuanĠ": 7347,
      "changĠanĠ": 7348,
      "sheĠliĠdeĠ": 7349,
      "wanĠquĠ": 7350,
      "lanĠzhouĠ": 7351,
      "xiuĠdaoĠyuanĠ": 7352,
      "ĠguoĠwuĠyuanĠ": 7353,
      "ĠnuĠ": 7354,
      "deĠdeĠ": 7355,
      "houĠguoĠ": 7356,
      "ciĠdianĠ": 7357,
      "ĠshiĠtaĠ": 7358,
      "bingĠbeiĠ": 7359,
      "dongĠjingĠduĠ": 7360,
      "juĠzhuĠzaiĠ": 7361,
      "ĠĠĠ0": 7362,
      "ĠĠĠshouĠ": 7363,
      "weiĠboĠ": 7364,
      "jianĠjinĠ": 7365,
      "keĠqianĠwangĠ": 7366,
      "xiangĠnanĠ": 7367,
      "jiaoĠxiaoĠ": 7368,
      "yeĠluĠ": 7369,
      "baĠsaiĠ": 7370,
      "puĠleiĠ": 7371,
      "yuĠ2012ĠnianĠ": 7372,
      "ĠĠĠyongĠ": 7373,
      "gongĠfengĠ": 7374,
      "jianĠhuaĠ": 7375,
      "jianĠqiaoĠ": 7376,
      "lingĠyuĠdeĠ": 7377,
      "biĠciĠ": 7378,
      "bingĠbuĠshiĠ": 7379,
      "xuanĠzhongĠ": 7380,
      "ĠheĠdaoĠ": 7381,
      "OR": 7382,
      "ĠĠĠtaiĠ": 7383,
      "quĠzhuĠjianĠ": 7384,
      "riĠdeĠ": 7385,
      "xuanĠyanĠ": 7386,
      "ĠdanĠzheĠ": 7387,
      "zhuanĠchengĠ": 7388,
      "diĠyiĠjieĠ": 7389,
      "ĠkeĠxueĠ": 7390,
      "ĠhaiĠjunĠ": 7391,
      "deĠdiĠweiĠ": 7392,
      "ĠgeĠleiĠ": 7393,
      "ĠbaĠliĠ": 7394,
      "Ġ1981ĠnianĠ": 7395,
      "oy": 7396,
      "tyĠĠĠ": 7397,
      "yiĠjiuĠ": 7398,
      "zhiĠshengĠ": 7399,
      "yuĠmingĠ": 7400,
      "yuĠriĠbenĠ": 7401,
      "faĠbuĠdeĠ": 7402,
      "fangĠxingĠ": 7403,
      "yunĠhuiĠ": 7404,
      "chanĠwuĠ": 7405,
      "82Ġ": 7406,
      "shiĠxiĠ": 7407,
      "ĠĠĠyaĠ": 7408,
      "yuĠgaoĠ": 7409,
      "jianĠheĠ": 7410,
      "yuanĠchuangĠ": 7411,
      "laiĠkanĠ": 7412,
      "benĠpianĠ": 7413,
      "zhuanĠkeĠ": 7414,
      "ĠyanĠchangĠ": 7415,
      "179": 7416,
      "xunĠhuiĠsaiĠ": 7417,
      "EC": 7418,
      "yuĠzhongĠguoĠ": 7419,
      "qiĠchuĠ": 7420,
      "beiĠhaiĠdaoĠ": 7421,
      "juĠdianĠ": 7422,
      "houĠweiĠ": 7423,
      "baoĠluĠ": 7424,
      "ĠdanĠzuiĠzhongĠ": 7425,
      "tuiĠceĠ": 7426,
      "ĠfenĠbieĠweiĠ": 7427,
      "ĠxiĠbanĠyaĠyuĠ": 7428,
      "5ĠnianĠ10ĠyueĠ": 7429,
      "7ĠnianĠ1ĠyueĠ": 7430,
      "ĠchaoĠguoĠ": 7431,
      "yiĠwanĠ": 7432,
      "ĠĠĠkaĠ": 7433,
      "ĠtaĠshuoĠ": 7434,
      "ĠzhiĠliĠ": 7435,
      "chuĠbanĠdeĠ": 7436,
      "shengĠchanĠdeĠ": 7437,
      "zhongĠduĠ": 7438,
      "buĠzuoĠpinĠ": 7439,
      "zhengĠlunĠ": 7440,
      "yueĠguoĠ": 7441,
      "xieĠrenĠ": 7442,
      "xuĠjiĠ": 7443,
      "tangĠquĠ": 7444,
      "yuĠ2014ĠnianĠ": 7445,
      "3ĠnianĠ12ĠyueĠ": 7446,
      "63Ġ": 7447,
      "ĠmouĠ": 7448,
      "shiĠcongĠ": 7449,
      "youĠsiĠ": 7450,
      "youĠduoĠ": 7451,
      "zaoĠxingĠ": 7452,
      "baiĠxingĠ": 7453,
      "ĠziĠjiĠ": 7454,
      "chuiĠzhiĠ": 7455,
      "baoĠfaĠhouĠ": 7456,
      "76Ġ": 7457,
      "wuĠjuĠ": 7458,
      "wuĠdingĠ": 7459,
      "jieĠdianĠ": 7460,
      "houĠbuĠ": 7461,
      "xinĠshengĠ": 7462,
      "ĠzaiĠqiĠ": 7463,
      "waiĠxingĠ": 7464,
      "ĠfaĠlanĠ": 7465,
      "caiĠyongĠleĠ": 7466,
      "ĠliuĠyuĠmianĠjiĠ": 7467,
      "85Ġ": 7468,
      "zaiĠjinĠ": 7469,
      "nanĠduanĠ": 7470,
      "wangĠjiĠ": 7471,
      "ĠzhiĠnengĠ": 7472,
      "ĠgaiĠgongĠsiĠ": 7473,
      "ĠhaiĠbaĠ": 7474,
      "Ġ1979ĠnianĠ": 7475,
      "39ĠnianĠ": 7476,
      "xiaoĠhuaĠ": 7477,
      "lianĠduiĠ": 7478,
      "zhenĠrenĠ": 7479,
      "zhenĠdiĠ": 7480,
      "yangĠjiĠ": 7481,
      "buĠdeĠbuĠ": 7482,
      "ĠgenĠjuĠ2020ĠnianĠmeiĠguoĠrenĠkouĠpuĠchaĠdeĠshuĠjuĠ": 7483,
      "anĠhuiĠshengĠ": 7484,
      "aĠmiĠ": 7485,
      "paoĠdaoĠ": 7486,
      "ĠĠĠ189": 7487,
      "daĠdianĠ": 7488,
      "yeĠerĠ": 7489,
      "liangĠjiaĠ": 7490,
      "baĠmaĠ": 7491,
      "weiĠyuanĠhuiĠdeĠ": 7492,
      "zhuĠtiĠquĠ": 7493,
      "yunĠshiĠkengĠ": 7494,
      "2ĠnianĠ12ĠyueĠ": 7495,
      "deĠguoĠjiaĠ": 7496,
      "ĠĠĠzaoĠqiĠ": 7497,
      "ziĠnvĠ": 7498,
      "tiĠzhongĠ": 7499,
      "junĠbeiĠ": 7500,
      "jiangĠxueĠ": 7501,
      "quanĠweiĠ": 7502,
      "niĠsuĠ": 7503,
      "1ĠmiĠ": 7504,
      "184": 7505,
      "Ġ22Ġ": 7506,
      "ĠtaiĠpingĠ": 7507,
      "shiĠdaiĠdeĠ": 7508,
      "zhanĠjianĠ": 7509,
      "waiĠlangĠ": 7510,
      "tiaoĠmuĠ": 7511,
      "2ĠnianĠ10ĠyueĠ": 7512,
      "ru": 7513,
      "aoĠdeĠ": 7514,
      "diĠnaĠ": 7515,
      "heĠgongĠ": 7516,
      "ciĠlieĠcheĠ": 7517,
      "ĠshiĠchengĠ": 7518,
      "kaiĠchuĠ": 7519,
      "ĠzhiĠshaoĠ": 7520,
      "ĠxianĠjinĠ": 7521,
      "guangĠboĠgongĠsiĠ": 7522,
      "wit": 7523,
      "shuĠfaĠ": 7524,
      "riĠyuĠ": 7525,
      "shouĠqiangĠ": 7526,
      "duoĠguanĠ": 7527,
      "ĠjinĠshuĠ": 7528,
      "shiĠyiĠzuoĠ": 7529,
      "ĠchuĠciĠzhiĠwaiĠ": 7530,
      "geĠheĠ": 7531,
      "yanĠzhengĠ": 7532,
      "yinĠheĠ": 7533,
      "fanĠkangĠ": 7534,
      "4ĠhaoĠ": 7535,
      "ĠdangĠxuanĠ": 7536,
      "ĠkeĠshiĠ": 7537,
      "36ĠnianĠ": 7538,
      "9ĠgeĠ": 7539,
      "yiĠtianĠ": 7540,
      "youĠbeiĠ": 7541,
      "fuĠweiĠ": 7542,
      "wuĠtiĠ": 7543,
      "zhanĠguoĠ": 7544,
      "quanĠyiĠ": 7545,
      "guĠzhangĠ": 7546,
      "shanĠhuĠ": 7547,
      "zaoĠchuanĠ": 7548,
      "qiangĠdaĠdeĠ": 7549,
      "longĠkeĠ": 7550,
      "1996ĠnianĠ": 7551,
      "ĠMĠ": 7552,
      "jiĠzhongĠxueĠ": 7553,
      "3ĠĠĠ": 7554,
      "daoĠqiĠ": 7555,
      "jingĠqueĠ": 7556,
      "shangĠbiaoĠ": 7557,
      "ruĠleĠ": 7558,
      "huanĠqiuĠ": 7559,
      "ĠbeiĠchengĠweiĠ": 7560,
      "diĠyiĠrenĠ": 7561,
      "Ġ1947ĠnianĠ": 7562,
      "iĠĠĠ": 7563,
      "zhiĠ197": 7564,
      "chengĠzanĠ": 7565,
      "guanĠdaoĠ": 7566,
      "1998ĠnianĠ": 7567,
      "Ġ158": 7568,
      "250Ġ": 7569,
      "ĠĠĠkaiĠ": 7570,
      "zaiĠrenĠ": 7571,
      "cheĠliĠ": 7572,
      "qinĠfanĠ": 7573,
      "ĠchengĠshiĠ": 7574,
      "ĠlianĠbangĠ": 7575,
      "jiaoĠyiĠsuoĠ": 7576,
      "guoĠanĠ": 7577,
      "xianĠdaoĠ": 7578,
      "juĠyiĠ": 7579,
      "liangĠzuoĠ": 7580,
      "daiĠkuanĠ": 7581,
      "duoĠyuanĠ": 7582,
      "cengĠbeiĠ": 7583,
      "zhongĠdianĠwenĠwuĠbaoĠhuĠdanĠweiĠ": 7584,
      "jiuĠduĠyuĠ": 7585,
      "KB": 7586,
      "ĠĠĠwuĠkeĠlanĠ": 7587,
      "heĠshuiĠ": 7588,
      "xiĠyangĠ": 7589,
      "fuĠhuoĠ": 7590,
      "wuĠyeĠ": 7591,
      "zhuĠyouĠ": 7592,
      "meiĠerĠ": 7593,
      "yanĠyuĠ": 7594,
      "dianĠxinĠ": 7595,
      "yangĠziĠ": 7596,
      "xuanĠgaoĠ": 7597,
      "ord": 7598,
      "tuoĠfuĠ": 7599,
      "faĠzhanĠdeĠ": 7600,
      "ĠguĠshiĠ": 7601,
      "illi": 7602,
      "EN": 7603,
      "ĠĠĠhuaĠ": 7604,
      "zhiĠdaĠ": 7605,
      "shuĠliĠ": 7606,
      "fenĠsanĠ": 7607,
      "xiaĠxunĠ": 7608,
      "dianĠchangĠ": 7609,
      "teĠlieĠ": 7610,
      "taĠmenĠzaiĠ": 7611,
      "rop": 7612,
      "ĠPĠ": 7613,
      "zunĠzhongĠ": 7614,
      "ĠĠĠhanĠ": 7615,
      "shuĠleĠ": 7616,
      "jingĠbeiĠ": 7617,
      "wangĠyouĠ": 7618,
      "xuanĠpiaoĠ": 7619,
      "ĠerĠzheĠ": 7620,
      "yuĠ2017ĠnianĠ": 7621,
      "27ĠnianĠ": 7622,
      "yiĠsuoĠ": 7623,
      "weiĠciĠ": 7624,
      "huiĠguoĠ": 7625,
      "shangĠbuĠ": 7626,
      "xinĠzhuĠ": 7627,
      "dianĠshiĠjieĠmuĠ": 7628,
      "shenĠyuĠ": 7629,
      "bianĠquĠ": 7630,
      "ĠbingĠbiaoĠshiĠ": 7631,
      "tanĠdeĠ": 7632,
      "tuanĠdeĠ": 7633,
      "ĠwanĠliĠ": 7634,
      "ĠmianĠjiĠ0": 7635,
      "kuaĠyueĠ": 7636,
      "shiĠshengĠ": 7637,
      "yiĠbaiĠ": 7638,
      "gongĠdangĠ": 7639,
      "xiangĠdongĠ": 7640,
      "meiĠguoĠzongĠtongĠ": 7641,
      "ĠhuĠbeiĠ": 7642,
      "yiĠshouĠ": 7643,
      "yeĠzhanĠ": 7644,
      "yunĠnanĠshengĠ": 7645,
      "puĠluoĠ": 7646,
      "1ĠmingĠ": 7647,
      "chanĠliangĠ": 7648,
      "shaĠrenĠ": 7649,
      "3ĠnianĠ10ĠyueĠ": 7650,
      "yiĠxueĠyuanĠ": 7651,
      "ĠshiĠyueĠ": 7652,
      "lvĠhuaĠ": 7653,
      "gengĠgaoĠ": 7654,
      "tianĠwenĠxueĠjiaĠ": 7655,
      "ĠshiĠdaiĠ": 7656,
      "zhenĠyingĠ": 7657,
      "paiĠfangĠ": 7658,
      "ĠbuĠlaiĠ": 7659,
      "yuĠ2013ĠnianĠ": 7660,
      "aiĠhaoĠ": 7661,
      "yiĠchuanĠ": 7662,
      "ĠĠĠd": 7663,
      "qiĠdaoĠ": 7664,
      "zhanĠyiĠzhongĠ": 7665,
      "yanĠxianĠ": 7666,
      "zhouĠrenĠ": 7667,
      "biĠshiĠ": 7668,
      "duoĠquĠ": 7669,
      "fengĠmianĠ": 7670,
      "ĠbingĠqieĠzaiĠ": 7671,
      "86Ġ": 7672,
      "8ĠnianĠ10ĠyueĠ": 7673,
      "ek": 7674,
      "chuĠlaiĠdeĠ": 7675,
      "jinĠzaiĠ": 7676,
      "jingĠyuĠ": 7677,
      "fangĠchengĠshiĠ": 7678,
      "yeĠshengĠ": 7679,
      "shenĠsheĠ": 7680,
      "senĠbaoĠ": 7681,
      "ĠanĠzhaoĠ": 7682,
      "ĠÐ°": 7683,
      "beiĠshaĠ": 7684,
      "jingĠtiĠ": 7685,
      "shangĠjiĠ": 7686,
      "nanĠmeiĠzhouĠ": 7687,
      "wangĠlaiĠ": 7688,
      "quanĠshiĠjieĠ": 7689,
      "xunĠhaoĠ": 7690,
      "yuĠ2018ĠnianĠ": 7691,
      "hangĠzhanĠlouĠ": 7692,
      "idĠ": 7693,
      "ĠrouĠ": 7694,
      "ĠĠĠ2020": 7695,
      "buĠduoĠ": 7696,
      "qianĠshuiĠ": 7697,
      "yinĠjieĠ": 7698,
      "wangĠyeĠ": 7699,
      "baĠgeĠ": 7700,
      "ruoĠganĠ": 7701,
      "Ġ1956ĠnianĠ": 7702,
      "canĠsaiĠziĠgeĠ": 7703,
      "AL": 7704,
      "ĠquĠdeĠ": 7705,
      "chuĠjuĠ": 7706,
      "qingĠyuanĠ": 7707,
      "gaoĠshanĠ": 7708,
      "zhuanĠhuiĠ": 7709,
      "tuiĠliĠ": 7710,
      "hongĠshuiĠ": 7711,
      "diuĠ": 7712,
      "deĠdianĠyingĠ": 7713,
      "weiĠjieĠ": 7714,
      "shengĠdianĠ": 7715,
      "faĠdaĠ": 7716,
      "1900": 7717,
      "junĠjianĠ": 7718,
      "xiaĠtianĠ": 7719,
      "jiuĠbaĠ": 7720,
      "deĠyiĠjiaĠ": 7721,
      "gongĠzuoĠdeĠ": 7722,
      "Ġ1970ĠnianĠ": 7723,
      "wuĠxianĠdianĠshiĠ": 7724,
      "jieĠquanĠguoĠrenĠminĠdaiĠbiaoĠdaĠhuiĠ": 7725,
      "deĠmingĠ": 7726,
      "ĠĠĠfenĠleiĠ": 7727,
      "chuĠzaiĠ": 7728,
      "wangĠsiĠ": 7729,
      "miĠteĠ": 7730,
      "jueĠceĠ": 7731,
      "deĠshiĠliĠ": 7732,
      "zengĠsheĠ": 7733,
      "185": 7734,
      "xingĠzhengĠyuanĠ": 7735,
      "ĠfenĠbieĠshiĠ": 7736,
      "33ĠnianĠ": 7737,
      "ĠqiongĠ": 7738,
      "ĠĠĠshaĠ": 7739,
      "youĠlaiĠ": 7740,
      "qiĠwenĠ": 7741,
      "ruĠxueĠ": 7742,
      "nanĠnvĠ": 7743,
      "jiuĠjingĠ": 7744,
      "benĠdiĠquĠ": 7745,
      "ĠxianĠshiĠyouĠ": 7746,
      "ĠĠĠ2002ĠnianĠ": 7747,
      "deĠliĠlunĠ": 7748,
      "zhiĠ2": 7749,
      "gaoĠfengĠ": 7750,
      "boĠchuĠdeĠ": 7751,
      "fanĠfuĠ": 7752,
      "neiĠruiĠ": 7753,
      "zhuanĠjiĠdeĠ": 7754,
      "peiĠchangĠ": 7755,
      "ĠruiĠdianĠ": 7756,
      "jiĠlongĠ": 7757,
      "heĠjiaĠ": 7758,
      "fenĠbuĠzaiĠ": 7759,
      "lingĠhunĠ": 7760,
      "ĠqiĠziĠ": 7761,
      "guangĠdeĠ": 7762,
      "2ĠliĠ": 7763,
      "gengĠgaiĠ": 7764,
      "9ĠpingĠfangĠgongĠliĠ": 7765,
      "ĠzongĠtongĠ": 7766,
      "Ġ1955ĠnianĠ": 7767,
      "29ĠnianĠ": 7768,
      "34ĠnianĠ": 7769,
      "AI": 7770,
      "heĠshengĠ": 7771,
      "fuĠxianĠ": 7772,
      "chuĠbuĠ": 7773,
      "fangĠxianĠ": 7774,
      "moĠnianĠ": 7775,
      "gouĠwuĠ": 7776,
      "Ġ50": 7777,
      "ĠguoĠliĠ": 7778,
      "zhuiĠsuĠdaoĠ": 7779,
      "NH": 7780,
      "weiĠlinĠ": 7781,
      "renĠduiĠ": 7782,
      "gongĠziĠ": 7783,
      "jiaĠbinĠ": 7784,
      "xiangĠxiangĠ": 7785,
      "riĠshiĠ": 7786,
      "zhangĠdanĠquĠ": 7787,
      "luoĠhouĠ": 7788,
      "zuiĠxinĠ": 7789,
      "laĠgeĠ": 7790,
      "zhongĠguoĠrenĠminĠ": 7791,
      "1992ĠnianĠ": 7792,
      "deĠzhuĠtiĠ": 7793,
      "Ġ1938ĠnianĠ": 7794,
      "ĠlouĠ": 7795,
      "yuĠyuanĠ": 7796,
      "heĠmeiĠguoĠ": 7797,
      "gongĠweiĠ": 7798,
      "ĠshiĠxingĠdengĠweiĠ": 7799,
      "yanĠshengĠ": 7800,
      "zuĠyiĠ": 7801,
      "kouĠjingĠ": 7802,
      "95": 7803,
      "guanĠshangĠ": 7804,
      "liangĠduĠ": 7805,
      "qiuĠyunĠdongĠyuanĠ": 7806,
      "chaĠjuĠ": 7807,
      "reĠmenĠ": 7808,
      "ĠanĠdeĠ": 7809,
      "omm": 7810,
      "faĠbuĠleĠ": 7811,
      "ĠweiĠyuĠgaiĠguoĠxiĠbuĠ": 7812,
      "wuĠrenĠjiĠ": 7813,
      "ES": 7814,
      "deĠfangĠshiĠ": 7815,
      "shouĠpiaoĠ": 7816,
      "yanĠyongĠ": 7817,
      "xiaoĠlvĠ": 7818,
      "nanĠbuĠdeĠ": 7819,
      "shenĠyeĠ": 7820,
      "laĠerĠ": 7821,
      "naĠĠĠ": 7822,
      "deĠyiĠtiĠ": 7823,
      "cengĠyouĠ": 7824,
      "zengĠzhiĠ": 7825,
      "77Ġ": 7826,
      "zhiĠqiĠ": 7827,
      "xingĠshengĠ": 7828,
      "faĠliĠ": 7829,
      "shuĠgeĠ": 7830,
      "deĠshiĠqingĠ": 7831,
      "ĠjingĠchangĠ": 7832,
      "ĠchiĠweiĠ": 7833,
      "26ĠnianĠ": 7834,
      "²Ġ": 7835,
      "tongĠxiangĠ": 7836,
      "yanĠshenĠzhiĠ": 7837,
      "hanĠdeĠ": 7838,
      "Ġ23Ġ": 7839,
      "liĠmianĠ": 7840,
      "shengĠzaiĠ": 7841,
      "zhouĠfuĠzeĠguanĠxiaĠ": 7842,
      "shenĠqiĠ": 7843,
      "ĠzhanĠhouĠ": 7844,
      "rom": 7845,
      "ey": 7846,
      "aĠfuĠhanĠ": 7847,
      "diĠheĠ": 7848,
      "beiĠlieĠweiĠ": 7849,
      "shouĠerĠ": 7850,
      "ĠshiĠxiaĠxiaĠdeĠyiĠgeĠ": 7851,
      "fenĠzuĠ": 7852,
      "duiĠbiĠ": 7853,
      "maĠzuĠ": 7854,
      "zongĠguanĠ": 7855,
      "guoĠjiaĠzuĠqiuĠduiĠ": 7856,
      "ĠgongĠjiĠ": 7857,
      "deĠzhiĠhuiĠ": 7858,
      "ĠguoĠquĠ": 7859,
      "erĠdeĠmingĠ": 7860,
      "IV": 7861,
      "xiĠbuĠdeĠ": 7862,
      "changĠchunĠ": 7863,
      "zhouĠkanĠ": 7864,
      "wangĠminĠ": 7865,
      "ĠyiĠjuĠ": 7866,
      "huĠzhaoĠ": 7867,
      "chaĠliĠ": 7868,
      "shuoĠdeĠ": 7869,
      "400Ġ": 7870,
      "hĠ": 7871,
      "nam": 7872,
      "zhenĠzhuĠ": 7873,
      "lanĠteĠ": 7874,
      "zhongĠguoĠguoĠminĠdangĠ": 7875,
      "ganĠdeĠ": 7876,
      "ĠgaiĠdangĠ": 7877,
      "ĠjieĠweiĠ": 7878,
      "zhiĠhouĠdeĠ": 7879,
      "ĠHR": 7880,
      "faĠyanĠrenĠ": 7881,
      "enĠlaiĠ": 7882,
      "jiaĠshuĠ": 7883,
      "mingĠjiaoĠ": 7884,
      "qianĠdaoĠ": 7885,
      "wenĠjiĠ": 7886,
      "baoĠjiaĠliĠyaĠ": 7887,
      "neiĠsiĠ": 7888,
      "pianĠzhongĠ": 7889,
      "73Ġ": 7890,
      "youĠbuĠ": 7891,
      "yuanĠjianĠ": 7892,
      "xinĠtuĠ": 7893,
      "laiĠwuĠ": 7894,
      "hanĠyiĠ": 7895,
      "puĠjiĠ": 7896,
      "300": 7897,
      "5ĠnianĠ12ĠyueĠ": 7898,
      "xingĠcunĠ": 7899,
      "daĠkaiĠ": 7900,
      "xiĠshuĠ": 7901,
      "jingĠneiĠdeĠ": 7902,
      "wenĠquanĠ": 7903,
      "ĠdanĠqueĠ": 7904,
      "cunĠzaiĠyuĠ": 7905,
      "xianĠzaiĠdeĠ": 7906,
      "zhongĠwuĠ": 7907,
      "jieĠjieĠ": 7908,
      "faĠxueĠ": 7909,
      "mingĠchengĠweiĠ": 7910,
      "changĠguiĠ": 7911,
      "banĠkuaiĠ": 7912,
      "leiĠbieĠ": 7913,
      "yunĠsuanĠ": 7914,
      "ĠmeiĠzhouĠ": 7915,
      "deĠzhiĠshiĠ": 7916,
      "ĠbaĠyueĠ": 7917,
      "Ġ1937ĠnianĠ": 7918,
      "31ĠnianĠ": 7919,
      "4ĠnianĠ11ĠyueĠ": 7920,
      "5ĠshiĠ": 7921,
      "96": 7922,
      "zhiĠxinĠ": 7923,
      "jianĠdingĠ": 7924,
      "huoĠqiĠtaĠ": 7925,
      "xiaĠlaiĠdeĠ": 7926,
      "minĠjinĠdangĠ": 7927,
      "liuĠlangĠ": 7928,
      "zongĠshuĠjiĠ": 7929,
      "tuĠrangĠ": 7930,
      "ĠyouĠxianĠ": 7931,
      "zhuanĠliĠ": 7932,
      "ĠdangĠnianĠ": 7933,
      "ĠDĠ": 7934,
      "ĠRĠ": 7935,
      "danĠbaiĠzhiĠ": 7936,
      "87Ġ": 7937,
      "ath": 7938,
      "Ġë": 7939,
      "zhiĠ194": 7940,
      "jieĠmianĠ": 7941,
      "jiaĠjuĠ": 7942,
      "jinĠshenĠ": 7943,
      "fangĠshouĠ": 7944,
      "tianĠwenĠxueĠ": 7945,
      "chaoĠdeĠ": 7946,
      "deĠdaĠbuĠfenĠ": 7947,
      "weiĠchiĠjingĠ": 7948,
      "6ĠnianĠ12ĠyueĠ": 7949,
      "spanĠ": 7950,
      "yiĠdiĠ": 7951,
      "ĠĠĠ15": 7952,
      "keĠyongĠ": 7953,
      "zhengĠjiaoĠ": 7954,
      "quĠdaoĠ": 7955,
      "dianĠxingĠdeĠ": 7956,
      "bingĠyuanĠ": 7957,
      "shanĠkouĠ": 7958,
      "ĠweiĠyuanĠ": 7959,
      "xianĠdeĠfeiĠjianĠzhiĠdiĠquĠ": 7960,
      "76": 7961,
      "weiĠjingĠ": 7962,
      "taĠduiĠ": 7963,
      "xueĠliĠ": 7964,
      "zhanĠbaiĠ": 7965,
      "ĠyuĠ198": 7966,
      "pinĠzhiĠ": 7967,
      "gouĠtongĠ": 7968,
      "waĠduoĠ": 7969,
      "ĠweiĠyuĠzhongĠguoĠ": 7970,
      "ĠfeiĠlvĠbinĠ": 7971,
      "yuĠ2011ĠnianĠ": 7972,
      "ĠĠĠjingĠliĠ": 7973,
      "renĠshouĠ": 7974,
      "wuĠxuĠ": 7975,
      "yangĠheĠ": 7976,
      "ĠqiĠB": 7977,
      "shuiĠdaoĠ": 7978,
      "5ĠhaoĠ": 7979,
      "chongĠshengĠ": 7980,
      "woĠlunĠ": 7981,
      "guoĠjiĠsaiĠ": 7982,
      "kuĠdeĠ": 7983,
      "ĠSAO": 7984,
      "jiaĠruĠzhongĠguoĠgongĠchanĠdangĠ": 7985,
      "jieĠshouĠleĠ": 7986,
      "Ġ1940ĠnianĠ": 7987,
      "30ĠfenĠ": 7988,
      "sisĠ": 7989,
      "zhiĠyaoĠ": 7990,
      "qiĠtiĠ": 7991,
      "gongĠxiangĠ": 7992,
      "jinĠgangĠ": 7993,
      "juĠzaiĠ": 7994,
      "dianĠluĠ": 7995,
      "chuanĠshuĠ": 7996,
      "ĠguanĠzhuangĠbingĠduĠ": 7997,
      "keĠluoĠdiĠyaĠ": 7998,
      "yst": 7999,
      "shiĠzhengĠfuĠ": 8000,
      "ĠĠĠ6Ġ": 8001,
      "ĠĠĠst": 8002,
      "huiĠleĠ": 8003,
      "gaiĠzuĠ": 8004,
      "ĠdanĠshiĠzaiĠ": 8005,
      "xiuĠxiĠ": 8006,
      "ĠĠĠ2001ĠnianĠ": 8007,
      "zhiĠchiĠzheĠ": 8008,
      "ĠĠĠnianĠĠĠ": 8009,
      "7ĠnianĠ12ĠyueĠ": 8010,
      "xueĠguanĠ": 8011,
      "duĠshuĠ": 8012,
      "wanĠjianĠ": 8013,
      "kongĠzhiĠdeĠ": 8014,
      "deĠshiĠyanĠ": 8015,
      "ork": 8016,
      "ĠsiĠwangĠ": 8017,
      "ĠtaiĠguoĠ": 8018,
      "quanĠguoĠzhongĠdianĠwenĠwuĠbaoĠhuĠdanĠweiĠ": 8019,
      "heĠsiĠ": 8020,
      "nanĠdaoĠ": 8021,
      "yangĠzhouĠ": 8022,
      "shuiĠshouĠ": 8023,
      "renĠminĠfaĠyuanĠ": 8024,
      "ĠĠĠcheĠzhanĠgouĠzaoĠ": 8025,
      "renĠzhongĠ": 8026,
      "taĠbeiĠ": 8027,
      "zhanĠqianĠ": 8028,
      "ĠshiĠnanĠjiĠzhouĠdeĠ": 8029,
      "wanĠzhengĠdeĠ": 8030,
      "miĠshiĠ": 8031,
      "bianĠlunĠ": 8032,
      "danĠyouĠ": 8033,
      "cengĠshuiĠyuĠ": 8034,
      "chengĠgongĠdeĠ": 8035,
      "minĠzuĠzhuĠyiĠ": 8036,
      "chaoĠjiĠlianĠsaiĠ": 8037,
      "jiĠxingĠzhengĠdanĠweiĠ": 8038,
      "ech": 8039,
      "ist": 8040,
      "daiĠlaiĠdeĠ": 8041,
      "0ĠzuoĠbiaoĠ": 8042,
      "tuĠjueĠ": 8043,
      "qinĠlveĠ": 8044,
      "ĠweiĠyuĠyinĠjingĠ": 8045,
      "miaoĠshuĠweiĠ": 8046,
      "ĠqiĠB1900": 8047,
      "0ĠzuoĠbiaoĠweiĠchiĠjingĠ": 8048,
      "32ĠnianĠ": 8049,
      "jiĠxianĠ": 8050,
      "yuĠkeĠ": 8051,
      "renĠdingĠ": 8052,
      "diĠzhongĠhaiĠ": 8053,
      "daĠmaĠ": 8054,
      "xinĠzangĠ": 8055,
      "ĠzheĠzuoĠ": 8056,
      "miaoĠxieĠ": 8057,
      "ï¼İ": 8058,
      "ĠqingĠchaoĠzhengĠzhiĠrenĠwuĠ": 8059,
      "aoĠduoĠ": 8060,
      "ĠĠĠjiangĠ": 8061,
      "ĠĠĠzhengĠyiĠ": 8062,
      "yuĠzaiĠ": 8063,
      "diĠxingĠ": 8064,
      "diĠ3Ġ": 8065,
      "beiĠyueĠ": 8066,
      "shouĠpiĠ": 8067,
      "xinĠtaiĠbiĠ": 8068,
      "dingĠdianĠ": 8069,
      "ĠzhiĠjianĠ": 8070,
      "shiĠshiĠzhangĠ": 8071,
      "zuĠchengĠbuĠfenĠ": 8072,
      "Ġ1960ĠnianĠ": 8073,
      "Ġãĥ³": 8074,
      "guangĠboĠdianĠtaiĠ": 8075,
      "zuoĠquĠjiaĠ": 8076,
      "huanĠxingĠshanĠ": 8077,
      "2ĠnianĠ11ĠyueĠ": 8078,
      "81Ġ": 8079,
      "ãĤ": 8080,
      "deĠguĠ": 8081,
      "ĠĠĠf": 8082,
      "ĠĠĠyinĠyueĠ": 8083,
      "jianĠliĠdeĠ": 8084,
      "shouĠhuĠ": 8085,
      "huaĠxianĠ": 8086,
      "meiĠshuĠguanĠ": 8087,
      "teĠlangĠpuĠ": 8088,
      "fengĠyuĠ": 8089,
      "tingĠcheĠchangĠ": 8090,
      "ĠnanĠjingĠ": 8091,
      "ĠsheĠliĠ": 8092,
      "74Ġ": 8093,
      "daĠniĠ": 8094,
      "beiĠhaiĠ": 8095,
      "nvĠshenĠ": 8096,
      "henĠdaĠdeĠ": 8097,
      "guoĠfangĠbuĠ": 8098,
      "yuanĠshengĠ": 8099,
      "huiĠbaoĠ": 8100,
      "jiaoĠxingĠ": 8101,
      "yingĠsheĠ": 8102,
      "yinĠliĠ": 8103,
      "nanĠluĠ": 8104,
      "kaiĠyeĠ": 8105,
      "saiĠnaĠ": 8106,
      "fanĠgongĠ": 8107,
      "zeĠbeiĠ": 8108,
      "deĠyiĠweiĠ": 8109,
      "puĠlaĠ": 8110,
      "haĠdeĠ": 8111,
      "huoĠdongĠdeĠ": 8112,
      "ĠtongĠshiĠyeĠshiĠ": 8113,
      "heĠbeiĠshengĠ": 8114,
      "anĠzhongĠ": 8115,
      "renĠshengĠ": 8116,
      "guanĠnianĠ": 8117,
      "zhenĠwangĠ": 8118,
      "heĠtaĠdeĠ": 8119,
      "gongĠxueĠyuanĠ": 8120,
      "wuĠzhengĠzhuangĠganĠranĠzheĠ": 8121,
      "yingĠbiĠ": 8122,
      "qianĠfangĠ": 8123,
      "saiĠtingĠ": 8124,
      "ĠdiĠxiaĠ": 8125,
      "ĠguangĠzhouĠ": 8126,
      "3ĠnianĠ11ĠyueĠ": 8127,
      "CD": 8128,
      "yiĠfangĠ": 8129,
      "mingĠzhongĠ": 8130,
      "laiĠwangĠ": 8131,
      "lingĠganĠ": 8132,
      "yangĠguangĠ": 8133,
      "zhuanĠyiĠdaoĠ": 8134,
      "ĠzhiĠjieĠ": 8135,
      "xunĠfuĠ": 8136,
      "weiĠjiĠchuĠ": 8137,
      "bĠ": 8138,
      "anĠzhiĠ": 8139,
      "ĠĠĠhaiĠ": 8140,
      "ĠĠĠtaĠdeĠ": 8141,
      "gaiĠliangĠ": 8142,
      "bianĠruĠ": 8143,
      "liuĠyueĠ": 8144,
      "tianĠxinĠ": 8145,
      "chiĠdaoĠ": 8146,
      "puĠsiĠ": 8147,
      "Ġ24Ġ": 8148,
      "deĠzhiĠyeĠ": 8149,
      "geĠmingĠjunĠ": 8150,
      "daĠjiangĠsaiĠ": 8151,
      "ET": 8152,
      "se": 8153,
      "dongĠluĠ": 8154,
      "xiaoĠpingĠ": 8155,
      "zhenĠjunĠ": 8156,
      "danĠshiĠ": 8157,
      "chiĠdeĠ": 8158,
      "Ġ25Ġ": 8159,
      "youĠxiĠzhongĠ": 8160,
      "ĠEĠ": 8161,
      "Pro": 8162,
      "xianĠmingĠ": 8163,
      "zhanĠzaiĠ": 8164,
      "zhanĠchuĠ": 8165,
      "fenĠkaiĠ": 8166,
      "taiĠyuĠ": 8167,
      "guiĠgeĠ": 8168,
      "duanĠqiĠ": 8169,
      "xiangĠzhenĠjiĠxingĠzhengĠdanĠweiĠ": 8170,
      "ĠĠĠgongĠ": 8171,
      "jiangĠhuaĠ": 8172,
      "qianĠmingĠ": 8173,
      "haiĠbaoĠkuoĠ": 8174,
      "guĠchengĠ": 8175,
      "ĠzaiĠnaĠliĠ": 8176,
      "ĠdanĠweiĠ": 8177,
      "ĠdongĠhuaĠ": 8178,
      "ĠfenĠbuĠzaiĠ": 8179,
      "int": 8180,
      "ĠfanĠyingĠ": 8181,
      "Vi": 8182,
      "aĠmuĠ": 8183,
      "ĠĠĠaoĠ": 8184,
      "jiĠdongĠ": 8185,
      "yangĠbenĠ": 8186,
      "zeĠyiĠ": 8187,
      "qinĠshiĠ": 8188,
      "tiĠgongĠdeĠ": 8189,
      "31": 8190,
      "8ĠnianĠ12ĠyueĠ": 8191,
      "ĠĠĠzhongĠhuaĠrenĠminĠgongĠheĠguoĠ": 8192,
      "daĠbuĠ": 8193,
      "jianĠguanĠ": 8194,
      "zhouĠmoĠ": 8195,
      "puĠzhaiĠ": 8196,
      "ĠhuoĠchengĠ": 8197,
      "shanĠmaiĠdeĠyiĠbuĠfenĠ": 8198,
      "95Ġ": 8199,
      "UN": 8200,
      "jiĠbuĠ": 8201,
      "zhiĠduiĠ": 8202,
      "teĠshiĠ": 8203,
      "tingĠdaoĠ": 8204,
      "yiĠshiĠdaoĠ": 8205,
      "ĠaĠerĠbeiĠ": 8206,
      "Ġ40": 8207,
      "erĠshiĠnianĠ": 8208,
      "erĠkeĠ": 8209,
      "shengĠhuiĠ": 8210,
      "linĠchuangĠ": 8211,
      "ĠyuĠyanĠ": 8212,
      "ĠgaiĠshuĠ": 8213,
      "suanĠjiĠ": 8214,
      "180": 8215,
      "wenĠhuaĠdeĠ": 8216,
      "paoĠbingĠ": 8217,
      "ug": 8218,
      "yiĠhaoĠ": 8219,
      "jiĠjuĠ": 8220,
      "youĠliangĠgeĠ": 8221,
      "nanĠzhuĠjueĠ": 8222,
      "kuoĠsanĠ": 8223,
      "ĠshengĠchengĠ": 8224,
      "penĠdiĠ": 8225,
      "xinĠguanĠfeiĠyanĠqueĠzhenĠbingĠliĠ": 8226,
      "diĠbiaoĠ": 8227,
      "jieĠzouĠ": 8228,
      "jingĠwuĠ": 8229,
      "qingĠchunĠ": 8230,
      "qiuĠbiĠsaiĠ": 8231,
      "1997ĠnianĠ": 8232,
      "jiĠluĠpianĠ": 8233,
      "2ĠzhiĠ": 8234,
      "9ĠshiĠ": 8235,
      "Uni": 8236,
      "jiaĠleĠ": 8237,
      "houĠzheĠ": 8238,
      "changĠdaoĠ": 8239,
      "yeĠchengĠweiĠ": 8240,
      "zhouĠdeĠyiĠgeĠshiĠzhenĠ": 8241,
      "daiĠdaoĠ": 8242,
      "banĠshiĠ": 8243,
      "puĠdunĠ": 8244,
      "genĠdiĠ": 8245,
      "ĠxiangĠguanĠ": 8246,
      "ĠduiĠciĠ": 8247,
      "Ġ180": 8248,
      "tiaoĠyueĠtiĠxiĠ": 8249,
      "weiĠwuĠerĠ": 8250,
      "VI": 8251,
      "ĠĠshiĠ": 8252,
      "diĠliĠyaĠ": 8253,
      "jianĠzhengĠ": 8254,
      "huiĠsheĠ": 8255,
      "zhengĠsiĠ": 8256,
      "tianĠxianĠ": 8257,
      "ĠdanĠtaĠmenĠ": 8258,
      "pinĠfanĠ": 8259,
      "chongĠfenĠ": 8260,
      "ĠdiĠfangĠ": 8261,
      "taoĠyuanĠ": 8262,
      "langĠdeĠshengĠ": 8263,
      "yiĠshiĠdeĠ": 8264,
      "wenĠshuĠ": 8265,
      "gaiĠshiĠ": 8266,
      "fanĠmangĠ": 8267,
      "tunĠmenĠ": 8268,
      "banĠbenĠdeĠ": 8269,
      "ong": 8270,
      "ĠĠĠruĠ": 8271,
      "gongĠtingĠ": 8272,
      "jieĠquĠ": 8273,
      "chuĠsiĠ": 8274,
      "fangĠsheĠ": 8275,
      "zuiĠxiaoĠ": 8276,
      "feiĠzhiĠ": 8277,
      "ĠzhiĠmingĠ": 8278,
      "chongĠbaiĠ": 8279,
      "guoĠjiaĠjiĠ": 8280,
      "jingĠzhiĠ": 8281,
      "houĠcheĠ": 8282,
      "dongĠtaiĠ": 8283,
      "yeĠmeiĠyouĠ": 8284,
      "jiangĠzhangĠ": 8285,
      "duĠzheĠ": 8286,
      "laĠheĠ": 8287,
      "fanĠjiĠ": 8288,
      "shaĠmoĠ": 8289,
      "gengĠdaĠdeĠ": 8290,
      "zuiĠhouĠyiĠciĠ": 8291,
      "nanĠjiĠtiaoĠyueĠtiĠxiĠ": 8292,
      "ach": 8293,
      "daĠzaiĠ": 8294,
      "daĠdangĠ": 8295,
      "yuanĠdingĠ": 8296,
      "ziĠmeiĠ": 8297,
      "huiĠruĠ": 8298,
      "yingĠjiuĠ": 8299,
      "maĠqiĠ": 8300,
      "boĠkeĠ": 8301,
      "ĠerĠbuĠ": 8302,
      "xunĠxiĠ": 8303,
      "keĠyiĠshengĠ": 8304,
      "miaoĠdeĠ": 8305,
      "ardĠ": 8306,
      "ĠheiĠlongĠjiangĠ": 8307,
      "8ĠshiĠ": 8308,
      "ryĠĠĠ": 8309,
      "ĠerĠyueĠ": 8310,
      "zhiĠjiaĠgeĠ": 8311,
      "zhongĠdengĠ": 8312,
      "jianĠjianĠ": 8313,
      "jieĠyunĠ": 8314,
      "ĠshiĠshiĠshangĠ": 8315,
      "zuĠziĠzhiĠ": 8316,
      "zhenĠxianĠ": 8317,
      "shanĠchuĠ": 8318,
      "qiangĠdaĠ": 8319,
      "zhengĠzhiĠjuĠ": 8320,
      "ĠshiĠjiĠshangĠ": 8321,
      "ruanĠtiaoĠ": 8322,
      "ĠshiĠweiĠyuĠmeiĠguoĠmiĠ": 8323,
      "anĠĠĠ": 8324,
      "geĠdiĠdeĠ": 8325,
      "fuĠshanĠ": 8326,
      "zhuĠweiĠ": 8327,
      "xiaĠmenĠ": 8328,
      "pinĠkunĠ": 8329,
      "diaoĠxiangĠ": 8330,
      "ĠguangĠxiĠ": 8331,
      "ĠchaoĠtingĠ": 8332,
      "biaoĠxianĠchuĠ": 8333,
      "heĠbingĠweiĠ": 8334,
      "anĠnaĠzhouĠ": 8335,
      "youĠyouĠ": 8336,
      "buĠliangĠ": 8337,
      "geĠlinĠ": 8338,
      "jinĠjinĠ": 8339,
      "jiaoĠzhanĠ": 8340,
      "dingĠyiĠweiĠ": 8341,
      "zhuanĠboĠ": 8342,
      "shuiĠshangĠ": 8343,
      "maiĠdeĠ": 8344,
      "9ĠhaoĠ": 8345,
      "shiĠwuĠsuoĠ": 8346,
      "nvĠshiĠ": 8347,
      "ĠĠĠTheĠĠĠ": 8348,
      "ĠqiangĠdiaoĠ": 8349,
      "xiaoĠxingĠxingĠdeĠ": 8350,
      "MV": 8351,
      "ĠĠĠzheĠgeĠ": 8352,
      "zhiĠyongĠ": 8353,
      "zhongĠrenĠ": 8354,
      "keĠcheĠ": 8355,
      "juĠhuaĠ": 8356,
      "yaĠsuoĠ": 8357,
      "ĠzhiĠhuiĠ": 8358,
      "huanĠraoĠ": 8359,
      "ĠfuĠwuĠ": 8360,
      "ect": 8361,
      "84Ġ": 8362,
      "erĠmaĠ": 8363,
      "daoĠxianĠ": 8364,
      "junĠfangĠ": 8365,
      "2ĠmingĠ": 8366,
      "zhaoĠmuĠ": 8367,
      "ganĠraoĠ": 8368,
      "Ġ164": 8369,
      "ĠquĠdaiĠ": 8370,
      "Ġ179": 8371,
      "fangĠxiangĠdeĠ": 8372,
      "ĠĠĠ1949ĠnianĠ": 8373,
      "xueĠshiĠxueĠweiĠ": 8374,
      "layStationĠĠĠ": 8375,
      "yiĠdianĠ": 8376,
      "zhongĠleiĠ": 8377,
      "daiĠxieĠ": 8378,
      "ĠzaiĠyuĠ": 8379,
      "shuiĠzhunĠ": 8380,
      "zhengĠzhiĠjiaĠ": 8381,
      "sangĠshiĠ": 8382,
[...]
