#version: 0.2
n g
h Ã
Ã ł
Ä ģ
Ã ¬
Ã ¡
Ä «
Ã ¨
Ç İ
Ġ Ġ
Ã ©
Ã Ń
s hÃ
Ã ¹
Ã¡ n
z h
Ç Ĳ
Å į
j i
d e
Ãł n
Ä ĵ
z hÃ
s h
Ä Ľ
Ã ³
Ç Ķ
x i
Ã ²
Ã º
Äģ n
ĠĠ Ġ
Ãł i
Å «
Åį ng
Ç Ĵ
ã Ģ
shÃ ¬
h u
Ã¨ i
g u
i Ã¡n
hÃ ©
Ãł o
Äģ ng
ÃŃ ng
y u
Çİ n
c h
n iÃ¡n
y Ä«
Çİ ng
Ã© n
ÇĴ u
Ã¬ ng
w Ã¨i
Çİ o
z Ãłi
ãĢ ģ
j Ä«
Äĵ ng
zh Åįng
x Ä«
b Ã¹
j Ã¬
Ãł ng
l i
zhÃ ¨
shÃ Ń
d Ã¬
gu Ã³
y Ãº
r Ã©n
Ã² ng
c hÃ
Äģ o
d u
c hÃ©
y ÇĲ
l Ã¬
Ã¡ ng
y Ã¬
u Ã²
Ã¡ i
zhÃ ¬
chÃ© ng
Ã© i
x u
g Åįng
j ÃŃ
² u
ÄĽ i
i Ãłn
Äĵ n
Ã³ ng
yu Ã¨
y ÇĴu
yu Ã¡n
d Ãł
q i
Åį u
l ÇĲ
2 0
Ã³ u
Äģ i
xi Ãłn
ji Äģ
s Ä«
Å« n
x ÃŃng
y ÇĶ
Ã¨ n
ÇĴ ng
ÃŃ n
t Äģ
r Ã¬
zh Ä«
hÃ ²u
Çİ i
g Ã¨
zhÃ ł
Ã© ng
l e
w Ã©i
hu Ã¬
d Ãło
1 9
b i
shÃ ł
q Ä«
q ÃŃ
shÃ ¨
s u
zhÃ¨ ng
m ÃŃng
ji Ãłn
xu Ã©
ch Å«
y Ã¹
ÄĽ ng
z uÃ²
sh Äĵng
du Ã¬
y Ã³u
q Å«
shÃł ng
ÄĽ n
d Ã©
l Ã¹
b Ã¨i
chÃ ¡
t i
sh ÇĲ
zhÃł n
zh ÇĶ
Äĵ i
q u
j Ã¹
xÄ« n
j Å«n
zh u
ÄĽ r
Ã¡ o
shÃ ¹
u Ã¬
r Ã¨n
f Äģ
w Ã¹
b Ã¬ng
k Ã¨
Ã© r
d Ãłi
y ÃŃ
jÃ¬ n
z Ã¬
yÄ« n
f Ã¹
f Äģng
jÄ« ng
n Ã¡n
hu Ãł
x Ã¬
zh Åįu
p ÃŃng
Ã² u
xi Ãł
l Ã¡i
y Ã²ng
sh u
gu Äģn
t Ã³ng
ãĢ ĭ
ãĢ Ĭ
f Çİ
zhÃ ¹
m ÄĽi
hÃ ¡
Â ·
ji Äģn
j ÇĲ
hu Ã²
d Ã¹
c hu
b ÄĽn
xi Äģng
zhÃ Ń
d Ã²ng
xi Ãłng
m ÃŃn
ji Äģng
f Äĵn
sh ÇĴu
qu Ã¡n
w Ã©n
y Ã¡n
hÃ ł
su ÇĴ
ji Ãło
q iÃ¡n
d iÃłn
t Ã¨
d i
du Åį
Ãº n
z uÃ¬
k Äģi
t u
ji Ã©
l iÃ¡n
zh ÇĲ
k ÄĽ
d Ãłn
m Ã¹
y Ã¨
f Ãº
m Çİ
y ÄĽ
d Åįng
qi Ãº
b ÄĽi
ãĢ Į
ãĢ į
g Äģo
y Ãł
q ÇĲ
ji Äĵ
m iÃłn
h Çİi
zh Çİng
sh Ä«
jÄ« n
c ÇĲ
l u
n Ã¨i
t ÇĲ
s Ãłi
s Äģn
t Ã¡i
g Ã©
x Ã¬ng
gu Ã²
r Ã¹
20 1
d ÄĽng
y Ãło
j u
ch Äĵ
c Ã¬
w ÇĶ
g Äģi
d Ã¬ng
chÃ¡ ng
bi Çİo
l Äģ
g Ã²ng
ji Ã¨
shÃ ²u
d Çİo
sh Äģn
ch Çİng
s Ã¬
b ÇĲ
z Ã©
t ÃŃ
k Äĵ
d Äģng
n Ã©ng
Ã¨ r
w Ãłi
d Äģn
x Ã¹
z i
k ÇĴu
xi Çİo
z ÇĶ
b Äģ
ju Ã©
l ÃŃn
li Ãº
sh ÄĽng
yÄ« ng
k u
l Ã¡n
lu Ã³
t Åįng
20 0
Ä« ng
² ng
m ÇĲ
zhÃ ²ng
e n
zh ÄĽ
sh ÇĶ
ti Äģn
zhÃ¨ n
Ç ļ
q Ã¬
zh ÇĴng
li Ã¨
ch Äĵng
sh Å«
yu Ãłn
b Çİo
t Ãłi
f ÇĶ
f Äĵng
g ÇĶ
qÄ« ng
sh Äĵn
w Ã¡ng
yÃ¹ n
gu Çİn
f Äĵi
ji Ã¹
li Çİng
c Ã©ng
m Ã©i
1 0
f Ã¨n
hÃł o
³ ng
y Çİn
w ÄĽi
z ÇĴng
xu Çİn
xi Ãło
d Ã¡
n Ãł
li Ãłng
b Åį
z Ãº
j Ã¬ng
b Ãło
n ÃŃ
w Ãº
t ÇĴng
hu Ã¡
ji Äģo
yu Äĵ
yÇĲ ng
b iÃłn
xÄ« ng
s Ã¹
shu ÇĲ
y Ã¡ng
hÃ ¹
m en
b Äģo
g Äĵ
b Ã³
c Äģn
c Ã³ng
di Çİn
b Ã¬
r Ãº
b Ãłn
bi Äģn
w Çİng
q ÇĶ
m i
ch Çİn
s Ã¨
z Ä«
chu Ã¡n
0 0
shÃ¨ ng
r Ã¡n
t Ãº
zh Äģng
p ÇĶ
g Çİi
g Çİng
n Çļ
l Ã¬ng
l uÃ²
y Ã²u
t Ã³u
c Ã¨
l Ç
chÃ Ń
1 8
lÇ ľ
qi Äģn
shÃ ©
l ÃŃ
d Åįu
p ÇĲ
1 2
zh Äĵng
n i
k uÃ²
sh Äģ
d Çİng
f Çİn
g Ã²u
l Ã¨i
x ÃŃ
jÇĲ ng
tu Ã¡n
w Äĵi
xi Äĵ
lÇĲ ng
l Ã³ng
gu Ä«
xi Äģn
r Ã³ng
hu Ã¡ng
xi Çİng
b Äģn
ji ÇĶ
y Ã¬ng
m Ã©n
sh Äģng
shÃ© n
20 2
b Çİn
k Çİ
m ÇĶ
jÇĲ n
f Å«
j ÇĶ
m Ã³
gu Çİng
c ÃŃ
shu Åį
q ÃŃng
zh Çİn
hÃ¡ i
zhu Äģng
m Ã²
c Ã¡i
d Ãº
1 1
pÇĲ n
t ÃŃng
chÃ¡ o
y ÃŃng
ti Ã¡o
ji Çİn
t Ã¡ng
hu ÃŃ
du Ãłn
chÃ© n
g Äĵn
m Ã¬
w Ãłn
p Ã¡i
w Äģn
z Ãło
hÃ¡ ng
w Ã¡n
bi Äģo
g Ã¹
l Ãºn
19 9
xi Ã©
ji Çİng
hÃł n
j Ãº
f Ãłn
f Ã¡ng
hu Ã³
hÃ¡ n
p i
k Åįng
o r
ti ÄĽ
m Ã©ng
bi Ã©
w Å«
ji ÄĽ
zhu Äģn
yÇĲ n
x Å«
zh Äĵn
d ÇĲ
e r
chÃ º
hÃ º
ji Ãł
b Ä«ng
m Ã¬ng
l ÃŃng
hÃ ³ng
qÄ« n
z ÇĲ
lÃ¹ n
xÃ¬ n
chÃ ¹
ch ÇĶ
s Å«
a n
xi Å«
z Åįng
1 5
qu Ã¨
xi Äģo
zhÃł o
qi Ã¡ng
q Ã¹
c Å«n
chÃ ³ng
p iÃłn
ji Å«
f Ãłng
su ÃŃ
sh Åįu
gÃ¨ ng
â Ģ
gu Äģng
Ã¨ ng
j Å«
o n
ji Çİ
chu Ãłng
d ÃŃ
1 6
zhu Çİn
gu ÇĴ
xÃ¹ n
m Ãłn
p Ãłi
f Ã¨i
p Ã¨i
19 8
d Çİ
tu Åį
l a
xu Äģn
b Ã¡i
zh Å«
d Å«
t ÇĶ
di Ãło
xi Ã¡
li Ã¹
1 7
su Ã¬
hu Ä«
t Ä«ng
qi ÄĽ
t Çİ
qi Ã¡o
h Äģ
g Çİn
z Äĵng
xi Çİn
m Ãłi
hu Ã¡n
x ÇĶ
w Çİ
tu Ä«
w Ã¨n
ch Äģo
t iÃ¡n
b Çİi
c Çİi
li Ã¡ng
y Ã¡
s Ãł
a r
b Ãłi
c Ãºn
ji Çİo
sh Çİo
y Ãłn
zhu Ãłng
hu ÇĴ
l Ã©i
1 4
z u
ji Ãłng
chu Äģn
yÃ¬ n
z Çİo
chÃ ł
y ÇĴng
s ÇĲ
d Äĵng
3 0
zhÇĶ n
l Ã¨
x Ãºn
n uÃ²
k Ã¹
hu Ãłn
s Ã²ng
g Ãło
l ÇĶ
1 3
19 4
b Äģng
l Çļ
p Ä«
y Ãłng
h ÄĽn
q Ãºn
zh ÄĽng
gu Ãłn
p Ã²
g Äģng
w ÇĴ
19 7
hu Äģ
l Äĵi
h Çİo
t Ã¡o
ku Ãłng
hÃ ¨
i n
dÃ¹ n
n Ã³ng
g ÄĽi
s Äģi
shu Äģng
li Ãłn
ku Ãłi
d Ä«
b Ä«
p Ãłn
xi ÄĽ
19 5
k Çİo
g Ãłi
h Äĵi
w Ãłng
li Ãło
r Ã¨
g e
zu ÇĴ
k Ã²ng
19 6
y Äģng
chÃł ng
y ÃŃn
³ u
r Ã©ng
s Äĵn
b Äĵi
l Ãº
pi Ãło
y Äģ
2 5
bÄ« n
âĢ Ķ
r Ãłng
ch Åįng
l Ã³u
b ÇĶ
l Çİo
zhÃ º
jÃ¹ n
y Çİng
r uÃ¬
y Äģo
xi Ã¡n
xi Ã¨
n iÃłn
f or
y Åįu
t Ã¡n
k Äģng
p ÃŃ
hÃ© ng
yÃº n
x ÇĲ
k Ãłn
n ÃŃng
li Ã¡o
shÃł o
b Ãº
2 4
qÇĲ ng
ch ÇĲ
m u
d Ã²u
mi Çİn
y Åįng
t Çİn
w Çİn
h Å«
f Äģn
a l
t Å«
g Äģn
su Ãłn
d Ä«ng
yu Çİn
w Äĵn
t uÃ¬
zh e
2 1
s t
xi Ã¹
b Çİ
m Çİn
19 3
2 3
mu la
k Ãłng
for mula
2 8
t h
m Ã¡o
r uÃ²
pi Äģn
chÃ ¨
m Ãło
l Çİng
q ÃŃn
b Ã¡
n Ã¡
z Ãłn
gu ÇĲ
gu Ã¬
o u
p ÃŃn
w Ã²
xi Ã³ng
shÃł n
r e
2 2
xi Åįng
m e
su Ä«
Ã ¼
2 6
sh ÄĽn
q Ã¬ng
mi Ã¡o
f Çİng
5 0
20 20
2 7
l Ã¡ng
r u
qi Å«
s Åįng
Ã¼ Ã¨
d Ãłng
g Äĵng
qi Äģng
r i
f Ã¡
z Äģo
f Ã¨ng
zhÃł ng
ï ¼
hÃ¡ o
d Å«n
z ÇĴu
hÃł i
qi Ã¨
2 9
t Ãłn
p Ãło
p Ãł
shÃ¹ n
p Ã©ng
xu Ã¡n
201 0
n ÇĲ
00 0
dÇĲ ng
ni ÇĶ
z Çİi
zh Äģo
zhu Ä«
l Ã¼Ã¨
ch Å«n
20 19
h Å«n
k ÇĴng
du Äģn
shÃ¨ n
xi Ã¡ng
du Çİn
g Ãłn
t e
r o
k Äģn
l Ã¡o
c Çİo
201 6
s i
g Å«
p Ã©i
201 8
ku Çİn
z Ã¡
s Å«n
y Ã©
y Çİ
p Åį
202 1
r a
chÃ ¬
du Ã³
201 4
f Ã¡n
201 1
201 5
c uÃ²
201 7
zhÃ ©
y Ã¡o
p Äģi
t Ã²u
c Ã¡ng
201 2
4 0
k Çİi
201 3
202 2
m ÃŃ
ru Çİn
su Äģn
ch Äģ
z Ãłng
mi Ãło
l t
200 9
zh Çİo
200 8
hu Ã¡i
ã ĥ
c e
6 0
a m
c u
xu Ã¨
chÃ ³u
s e
b Çİng
m Ã¨ng
10 0
t Ã¬
p Ãº
n Çİo
202 3
zhu Ãłn
g t
l ÄĽi
19 0
3 1
c Ãłi
c Ã¹
s Ãłn
m Ã³u
ti on
t a
hÃ¹ n
ÇĶ n
ku Äģn
200 7
ni Ãº
m ÇĴu
t Çİo
di Ã©
200 1
o l
t Ã©ng
s Åįu
k ÄĽn
qi Çİn
ch Äģng
r Çİn
qu Äĵ
f ÇĴu
s ÇĶn
e l
b Ãł
200 0
8 0
k Ãło
su Åį
200 6
ni Çİo
chÃº n
m a
202 4
l Çİn
ã ģ
z Äģi
zhÃ ¡
xu ÄĽ
hu ÇĲ
lu Ãłn
tÇĲ ng
200 5
z Å«n
b Ãłng
l Ãł
hu Äģn
r Çİng
sh uÃ¬
mÇĲ n
3 5
l Ãłi
c Äģng
7 0
f Ã³
p Ã¡n
o f
n Ãłi
w ÄĽn
e t
c Äģo
s Äģng
p Ã¡ng
9 0
bÇĲ ng
ï¼ į
zh Äģ
ã Ĥ
shu Ãłi
ni Ã¨
e s
hÃ ³u
m Ã¨i
sh Äģo
n ÇĶ
d ÇĴng
i l
a t
o w
f Ã©ng
mi Ã¨
yÇĶ n
z Ã²u
m Çİi
hu Ãłi
200 4
4 5
y Äģn
c o
4 8
th e
zhu Ã³
an d
t er
h e
t Ãło
n Çİi
k Å«n
202 5
zh ÄĽn
c k
r ÇĶ
ku Ãł
ku ÃŃ
ãĢ ī
ãĢ Ī
g Åįu
3 6
cu Ä«
3 8
sh Çİn
r Ã²u
di Äģo
200 3
h ÇĶ
gu Åį
3 7
c uÃ¬
n e
x Ãº
m Ã¡ng
ju Çİn
c Ã¡n
di Äģn
zh Äģn
c Ã¡o
18 9
I N
200 2
i s
b o
k Äĵng
T C
v e
3 4
m Ã¡
l ÄĽng
a s
z Å«
7 5
âĢ ĵ
s Ãº
qu Äģn
d Äģ
t o
ch Äģi
n u
l Ãłng
kÃ¹ n
4 6
t Ãºn
f ÄĽn
199 0
âĢ ¦
zhÃ ²u
sh Çİng
r Ãło
h Äĵng
t Ä«
x Å«n
3 9
n Ã¨
. .
p Ã¬
n Ãłn
p Äģn
6 5
h Åįng
shÃ º
t Äģn
C h
t Äģng
k Çİn
M a
n Ã¬
3 2
I n
S T
4 7
h Çİn
i t
U TC
q iÃłn
199 9
199 8
198 0
18 8
5 00
3 3
6 4
qi Çİng
sh uÃ²
p Çİo
l o
b e
k Äģ
zhÃ¡ i
S E
5 5
qu Ãłn
n Ä«
d Ã¨ng
199 7
T he
m iÃ¡n
4 9
g Çİo
I I
6 8
C o
v i
sh ÄĽ
z Ã¨ng
R e
h an
zhÃ ³u
zhÃł i
4 4
199 6
n a
ti Äĵ
d Äģo
a d
b r
199 4
v er
f Ã©i
z Ã²ng
qi Ã³ng
c i
ti Ãło
chu Ã¡ng
199 2
b a
chu ÃŃ
ju Äģn
chÃ¡ i
mi Çİo
gu Äģ
xu Äĵ
t Ã²ng
199 5
f ÄĽi
ch Ä«
o o
m ÄĽng
w Åį
6 7
i r
shu Äģi
tu Ã³
chu Äģng
hu Çİn
199 1
197 0
5 8
a y
195 0
c a
n d
gu Ãł
chÃ¡ n
3 00
w Äģ
199 3
18 7
194 9
p e
s Äģ
ti Çİo
A T
196 0
bi Çİn
4 2
194 5
i ng
gu Ãłi
a u
k ÇĶ
n Ãº
198 8
d ÇĶ
198 9
i g
p Ã¹
6 9
li ÇĶ
g ÇĴng
SE E
t uÃ²
am p
c t
li Çİo
IN SEE
5 9
t Äģi
4 3
6 6
chu Ãłn
o p
chÃ¨ n
o s
5 7
198 5
hu Äģng
9 9
S A
ãĢ İ
cÃ¹ n
ãĢ ı
198 4
hÃº n
4 1
p Å«
l y
u s
k Ã²u
f Ã©n
8 8
198 6
r Çİo
m p
S t
i d
rÃ¹ n
T V
15 0
zhu Åį
in d
4 00
s Çİn
198 7
7 8
u n
e d
h a
198 2
5 6
L i
u r
ar d
nu Ã³
198 3
N A
gÇĶ n
R o
D e
s s
m Äģ
t ou
pÃ¬ n
C D
ch Åįu
b er
g ÇĴu
qu Çİn
M i
7 7
zh Äģi
M e
qi Ãł
m Äģo
qi Çİo
M ar
t w
k Å«
ku Ã¡ng
r Ã³u
de r
7 9
l Ã²u
O S
Â °
k uÃ¬
s Ãłng
ï ½
A l
18 0
t y
B C
5 4
197 9
6 1
19 20
a ng
p Äĵn
9 8
s Äĵng
5 2
Y ou
a p
197 8
n Ã¹
w Äĵng
6 2
y Äĵ
du ÇĴ
L e
5 3
xÇĲ ng
ju Ãłn
ï½ ŀ
B A
k e
194 6
t s
C O
m o
c tion
5 1
195 8
198 1
V i
197 2
194 8
zhu Ã¬
c Åįng
t Åįu
A M
h i
6 3
m an
ow s
A R
r y
194 1
W ind
B S
w Ã¡
li Çİn
19 30
M o
P ro
lu Çİn
ku Äģng
q Ãº
tu ÇĴ
k Ã©
7 6
han s
v a
194 0
193 7
c on
197 6
zu ÇĲ
194 4
J o
8 9
197 5
u m
ï¼ ı
T e
196 8
ni Ã¡ng
p Ã³
shu Äģ
h k
yu Äģn
t Äģo
p er
w Äģng
g a
10 00
r an
Wind ows
9 5
N e
b ÃŃ
s Çİo
d a
8 7
196 6
8 5
f Ãł
p Äĵng
6 00
l Ãłn
S e
S ta
s p
1 20
194 7
G a
A r
o t
g Äģ
195 6
A C
196 4
d Çİn
c Å«
194 2
195 5
ch ÇĴu
la y
195 2
193 9
I S
193 8
7 2
7 4
h t
r ÄĽn
197 3
a ce
f i
197 4
195 4
qi Äĵ
E D
19 00
- -
B e
A P
or e
194 3
197 7
D a
197 1
pÄ« n
p ÇĴ
m Ã¡n
196 7
shÃ© ng
men t
I C
8 00
E R
L a
8 6
195 9
b Äĵng
s on
196 5
J R
196 9
R a
du Ä«
D i
o k
p Ã©n
ãĥ »
Ã Ĺ
qi Ãło
chu Ä«
I D
qi Äģo
S u
in e
193 6
16 0
9 7
b Äĵn
zhu Äģ
en t
195 3
S a
196 2
M A
T u
ti c
196 1
l ÇĴng
a tion
â Ķ
193 5
t Ãł
m Ã¡i
S h
9 6
O N
a k
ï¼ ħ
195 1
195 7
196 3
L o
âĶ Ģ
on e
r ou
8 4
J a
202 6
d o
c Çİn
8 2
g i
b u
m er
7 3
p o
9 4
t Å«n
9 2
S o
A N
I P
A n
h o
a li
193 3
M u
193 1
n Ã¡ng
ni Ãło
le s
7 1
b Ã¡o
nu Çİn
l Ã©ng
p Ã¡
8 3
9 3
a i
W e
8 1
d ÇĴu
19 18
st a
H D
B o
s Äģo
U ni
19 28
lu Ã¡n
k i
193 2
w i
n Ã¨n
c ol
in t
M V
S S
ou r
1 10
t Ã¹
I T
19 12
al l
19 29
tu ÇĲ
du Ã²
19 27
c n
193 4
ar e
P a
7 00
g Ã¡
ch e
b y
te d
st er
hu Çİng
S i
25 0
f f
9 1
m m
P ar
z Ã©i
R i
19 24
p p
p h
.. .
19 19
ku Ä«
H e
s o
xu Ãłn
1 30
pi Äģo
n o
19 25
P S
P lay
p Äģo
14 0
xi Äģ
B u
C a
S M
C on
S p
P C
19 14
b le
st e
zh Çİi
k m
D V
zh Äĵ
E n
me s
You Tu
co m
B a
h Äĵ
F i
T i
di Äĵ
el l
g ra
l Çİ
A S
i a
19 11
W i
sh i
en d
il l
n Ã¼Ã¨
an a
ar a
G e
19 26
de n
19 22
N a
n Çİ
si on
hÃ¨ n
19 17
E T
N BA
I V
shu ÃŃ
c Äģi
r Ã¡o
E N
19 23
ar t
19 21
f e
p Ã¨ng
s a
k a
ku Äģ
G oo
th er
ch ÇĴng
T o
17 0
à ¸
E C
l d
m Çİo
n Ã²ng
A L
H a
M S
se ction
N i
YouTu be
E P
h n
B L
19 13
ti Äģo
J u
H K
le r
â Ĩ
han t
gÃ¹ n
190 9
g in
In ter
c ro
S te
M P
A I
H o
g ÄĽng
W or
n Ãło
P o
f ÄĽng
D o
lu ÇĴ
U S
an t
g o
y a
DV D
or t
z Åįu
ri s
3 000
P i
c Äģ
C ar
19 10
R O
D S
T h
1 12
A K
M y
p en
R E
p ro
v en
19 16
Sta tion
ãĥ ¼
c huÃ²
N et
Î ±
K i
S ch
ol o
N o
ar i
tu re
g n
L in
C P
U N
g le
â Ī
er s
hÃ© n
19 15
ou n
ni Ãłng
190 5
F C
m y
L u
l l
W il
C N
â Ħ
âĨ Ĵ
190 1
F a
A u
ti ng
Ne w
D NA
E x
âĢ §
ar y
9 00
P h
si c
H R
di ce
si s
. &
C H
z ÄĽn
T A
di a
Q u
T O
190 6
le n
190 4
chu Çİng
A V
F or
g ÄĽn
Jo hn
w e
er e
A nd
M O
di ng
co dice
ch Çİo
ji ÇĴng
âĦ ĥ
T a
p a
p s
Play Station
f u
k o
w Ãł
b Ã¨ng
0 5
C C
t on
v o
er i
di Å«
190 7
190 8
Goo gle
A G
E ST
M I
zu Ãłn
S O
or y
te s
L E
G u
ji Ã¡
zu Çİn
c y
l Ä«
ch i
le y
B O
en ter
B BC
A D
I G
c al
II I
C u
c ri
of t
15 00
R u
li n
5 000
or i
zu Äģn
p u
G o
I ST
sh Äĵ
lÇ ĺ
F e
C ol
w or
S y
K a
M E
ti ve
C R
g en
3 D
w it
rou nd
I A
gu Çİ
10 5
j e
r on
m Ãł
Ð °
10 1
190 3
G B
p Ä«ng
ch a
shÃ ¡
l an
0 9
T E
re e
A d
H u
c Ãłn
c Ã©n
190 2
B D
N C
l and
c an
z e
ow n
es s
p Äģng
x t
3 50
w a
in a
SA O
shÃ¡ o
D C
n et
sp an
de s
Î ²
g ht
lÃ¬ n
en ce
B 1900
in c
bo ok
de l
E S
B M
ï¼ İ
d y
ãĥ ³
H i
189 8
0 6
1 18
P e
m s
ãģ ®
l Ã¡
p t
qÇĲ n
te l
3 60
D R
m on
0 1
D A
g h
O pen
189 5
l Ãło
y le
12 5
m Ãº
la r
b Ã¨n
H O
K o
M C
an ce
AT P
Mi cro
Ð ¾
10 8
g y
N G
p Åįu
ig h
s y
c or
t t
di o
K e
qi Ã©
z a
A pp
P u
ni ng
gra m
I F
F ran
f t
re s
Co m
ti n
âĪ Ĵ
0 7
0 8
2 30
F ace
10 4
D u
re f
O ne
Wor ld
ol d
S er
s oft
ED T
IST AT
M on
S tu
sh Äģi
s ÇĴng
à ¤
N O
n er
189 6
C or
L L
B i
g er
lu s
10 9
D P
y Å«
la s
A A
f li
Co mp
re a
g ÄĽ
R I
v el
r en
li ne
R T
su ÇĲ
S P
xi Ã¡o
qi Çİ
E X
r ÄĽ
B ar
B ri
li ng
ber t
B 48
10 6
18 90
ct or
C ST
S an
M L
CD T
Lo ve
it y
m ar
z Äģng
ro w
D O
wi th
H E
f a
P er
p Äĵi
w ard
H ar
M an
d s
tion al
ta in
j a
0 4
4 000
11 5
cu Ãłn
1 200
k y
u x
ou nd
ig ht
M 1
0 3
G P
p Ã¡o
C E
ba ck
188 9
be gin
J e
189 9
o ol
col span
187 1
ri ng
E d
R S
de Ġ
Ġ deĠ
shÃ¬ Ġ
Ġ shÃ¬Ġ
Ġ niÃ¡n
ĠniÃ¡n Ġ
wÃ¨i Ġ
zÃłi Ġ
Ġ wÃ¨iĠ
Ġ zÃłiĠ
hÃ© Ġ
Ġ hÃ©Ġ
zhÅįng Ġ
bÃ¹ Ġ
dÃ¬ Ġ
shÃŃ Ġ
guÃ³ Ġ
yÃº Ġ
rÃ©n Ġ
Ġ bÃ¹Ġ
yÄ« Ġ
Ġ zhÅįngĠ
lÃ¬ Ġ
zhÃ¬ Ġ
gÅįng Ġ
Ġ shÃŃĠ
yuÃ¨ Ġ
jÃŃ Ġ
chÃ©ng Ġ
yÃ¬ Ġ
yÇĴu Ġ
Ġ dÃ¬Ġ
Ġ yuÃ¨Ġ
Ġ yÃºĠ
Ġ rÃ©nĠ
Ġ zhÃ¬Ġ
dÃł Ġ
Ġ jÃŃĠ
yuÃ¡n Ġ
Ġ yÇĴuĠ
jÃ¬ Ġ
Ġ guÃ³Ġ
Ġ lÃ¬Ġ
Ġ gÅįngĠ
Ġ yÃ¬Ġ
Ġ yÇĲ
Ġ chÃ©ngĠ
jiÄģ Ġ
sÄ« Ġ
yÇĶ Ġ
Ġ xiÃłn
Ġ rÃ¬
Ġ yÄ«Ġ
Ġ xÃŃng
Ġ tÄģ
lÇĲ Ġ
jÄ« Ġ
Ġ dÃło
hÃ²u Ġ
wÃ©i Ġ
Ġ zhÄ«
Ġ dÃłĠ
Ġ yuÃ¡nĠ
xÄ« Ġ
ĠrÃ¬ Ġ
Ġ gÃ¨
ĠyÇĲ Ġ
xuÃ© Ġ
huÃ¬ Ġ
le Ġ
zuÃ² Ġ
Ġ yÇĶĠ
ĠdÃło Ġ
mÃŃng Ġ
Ġ jÃ¬Ġ
bÃ¨i Ġ
ĠxÃŃng Ġ
shÄĵng Ġ
Ġ jiÃłn
Ġ chÅ«
Ġ qÃŃ
Ġ sÄ«Ġ
Ġ dÃ©
zhÃ¨ng Ġ
ĠxiÃłn Ġ
Ġ hÃ²uĠ
Ġ jÄ«Ġ
duÃ¬ Ġ
shÃłng Ġ
qÅ« Ġ
shÇĲ Ġ
Ġ ÄĽr
Ġ jiÄģĠ
yÃ³u Ġ
ĠtÄģ Ġ
Ġ xÄ«Ġ
Ġ lÇĲĠ
Ġ Ã©r
zhÃłn Ġ
Ġ jÅ«n
Ġ bÃ¬ng
ĠzhÄ« Ġ
ĠgÃ¨ Ġ
zhÇĶ Ġ
rÃ¨n Ġ
fÃ¹ Ġ
zÃ¬ Ġ
wÃ¹ Ġ
xÄ«n Ġ
dÃłi Ġ
jÃ¹ Ġ
pÃŃng Ġ
ĠchÅ« Ġ
Ġ kÃ¨
Ġ zhÅįu
xiÄģng Ġ
Ġ huÃ¬Ġ
shÃ¹ Ġ
nÃ¡n Ġ
Ġ shÃ¨
Ġ bÃ¨iĠ
Ġ mÃŃngĠ
xiÃł Ġ
guÄģn Ġ
ĠÄĽr Ġ
ĠdÃ© Ġ
lÃ¹ Ġ
yÃ¹ Ġ
huÃł Ġ
ĠjiÃłn Ġ
jÄ«ng Ġ
yÃ¡n Ġ
fÄģng Ġ
Ġ yÄ«n
kÄģi Ġ
jiÄģn Ġ
jiÃło Ġ
fÄģ Ġ
yÃ²ng Ġ
Ġ dÃłn
ĠÃ©r Ġ
zhÃ¹ Ġ
lÃ¡i Ġ
mÃŃn Ġ
shÇĴu Ġ
zhÃ¨ Ġ
xiÃłng Ġ
wÃ©n Ġ
ĠjÅ«n Ġ
xÃ¬ Ġ
qiÃ¡n Ġ
bÄĽn Ġ
tÃ¨ Ġ
Ġ wÃ©iĠ
zhÃŃ Ġ
fÇİ Ġ
qÄ« Ġ
jiÃ© Ġ
liÃ¡n Ġ
ĠbÃ¬ng Ġ
dÃ²ng Ġ
diÃłn Ġ
ĠqÃŃ Ġ
ĠkÃ¨ Ġ
dÅįng Ġ
mÃ¹ Ġ
Ġ jÃ¬n
Ġ duÃ¬Ġ
Ġ huÃ²
Ġ zhÃłnĠ
fÄĵn Ġ
tÃ¡i Ġ
zhÇİng Ġ
dÃ¹ Ġ
jiÄģng Ġ
Ġ qiÃº
Ġ pÃŃngĠ
gÄģo Ġ
yÃ¨ Ġ
suÇĴ Ġ
bÄĽi Ġ
ĠzhÅįu Ġ
shÄ« Ġ
Ġ leĠ
duÅį Ġ
jiÄĵ Ġ
gÃ© Ġ
Ġ shÃłngĠ
jÄ«n Ġ
Ġ zhÃ¨ngĠ
fÃº Ġ
Ġ zuÃ²Ġ
Ġ yÃ³uĠ
Ġ fÃ¹Ġ
kÇĴu Ġ
guÃ² Ġ
zhÇĲ Ġ
Ġ tÃ³ng
hÇİi Ġ
Ġ rÃ¨nĠ
Ġ quÃ¡n
mÇİ Ġ
tÅįng Ġ
rÃ¹ Ġ
zuÃ¬ Ġ
Ġ shÄĵngĠ
Ġ xuÃ©Ġ
cÇĲ Ġ
xÃ¬ng Ġ
wÃłi Ġ
nÃ¨i Ġ
lÄģ Ġ
tÇĲ Ġ
juÃ© Ġ
kÄĽ Ġ
qÇĲ Ġ
shÄģn Ġ
tiÄģn Ġ
chÇİng Ġ
dÄĽng Ġ
zhÃ¨n Ġ
wÇĶ Ġ
chÃ¡ng Ġ
zi Ġ
yÃło Ġ
bÇĲ Ġ
Ġ jÃ¹Ġ
bÇİo Ġ
mÇĲ Ġ
yÃł Ġ
Ġ yÄĽ
gÄģi Ġ
ĠyÄ«n Ġ
Ġ dÃłiĠ
miÃłn Ġ
zhÃ²ng Ġ
ĠshÃ¨ Ġ
fÄĵng Ġ
Ġ zhÃ¨Ġ
zhÇĴng Ġ
cÃ¬ Ġ
yÃ¹n Ġ
yÃŃ Ġ
liÃº Ġ
chÄĵ Ġ
shÃ²u Ġ
lÃŃn Ġ
bÄģo Ġ
yÃŃ ĠgÃ¨Ġ
sÃłi Ġ
jiÃ¨ Ġ
dÃ¬ng Ġ
shÄĵn Ġ
shÄĽng Ġ
luÃ³ Ġ
mÄĽi ĠguÃ³Ġ
sÄģn Ġ
qÃ¬ Ġ
xiÇİo Ġ
ĠdÃłn Ġ
nÃ©ng Ġ
shÅ« Ġ
zÃ© Ġ
liÃ¨ Ġ
xuÇİn Ġ
sÃ¬ Ġ
qÄ«ng Ġ
zhÄĽ Ġ
ĠqiÃº Ġ
jÃ¬ng Ġ
yuÃłn Ġ
bÄģ Ġ
wÃ¡ng Ġ
kÄĵ Ġ
tÃłi Ġ
lÃ¡n Ġ
bÃło Ġ
Äģn Ġ
zÇĴng Ġ
yÇĲng Ġ
ĠhuÃ² Ġ
bÃ¬ Ġ
fÇĶ Ġ
dÇİo Ġ
Ġ xÄ«nĠ
gÇĶ Ġ
yÄ«ng Ġ
Ġ hÃło
Ġ xiÃłĠ
Ġ zÃ¬Ġ
gÄĵ Ġ
fÃ¨n Ġ
xiÃło Ġ
yuÄĵ Ġ
nÃŃ Ġ
jiÄģo Ġ
nÃł Ġ
Ġ yÃ¹Ġ
Ġ mÇĲĠ
zÄ« Ġ
Ã¨r Ġ
Ġ xiÄģngĠ
pÇĶ Ġ
dÄģn Ġ
Ġ zhÃ¹Ġ
biÇİo Ġ
guÇİn Ġ
tÃ³u Ġ
liÃłng Ġ
chuÃ¡n Ġ
Ġ lÃ¹Ġ
sÃ¹ Ġ
wÃº Ġ
Ġ dÄģng
bÅį Ġ
rÃº Ġ
yÇİn Ġ
nÇļ Ġ
bÃ³ Ġ
ĠzhÅįngĠ guÃ³Ġ
xÄ«ng Ġ
tÃŃ Ġ
fÄĵi Ġ
dÃ¡ Ġ
sÃ¨ Ġ
chÄĵng Ġ
mÄĽi Ġ
ĠwÃ¨iĠ yÃºĠ
ĠjÃ¬n Ġ
cÃ©ng Ġ
chÇİn Ġ
Ġ nÃ¡nĠ
shuÇĲ Ġ
tÃº Ġ
biÃłn Ġ
guÄ« Ġ
Ġ rÃ¡n
Äģ Ġ
yÃ¡ng Ġ
zhÄģng Ġ
gÇİi Ġ
diÇİn Ġ
cÃ³ng Ġ
jiÃ¹ Ġ
Ġ bÄĽnĠ
ĠquÃ¡n Ġ
shÄģ Ġ
bÄģoĠ kuÃ²
wÇİng Ġ
jiÇİn Ġ
shÃ¨ng Ġ
zÇĶ Ġ
shÇĶ Ġ
gÇİng Ġ
huÃ¡ Ġ
lÇľ Ġ
qÃŃng Ġ
jÇĲng Ġ
liÇİng Ġ
zÃº Ġ
bÃłn Ġ
tÇĴng Ġ
gÃ²ng Ġ
shÄģng Ġ
lÃŃ Ġ
hÃ¹ Ġ
tÃ³ng Ġ
biÄģn Ġ
jÃ¬n Ġ
Ãłn Ġ
lÃ³ng Ġ
luÃ² Ġ
xÃ¹ Ġ
chÃŃ Ġ
Ãło Ġ
mÃ©i Ġ
jÇĲn Ġ
1 Ġ
bÄģn Ġ
guÇİng Ġ
chÅ« Ġ
cÃ¨ Ġ
mÃ¬ Ġ
shÃ©n Ġ
ĠtÄģĠ men
zhÄĵng Ġ
zhÄ« Ġ
lÇĲng Ġ
yÃ²u Ġ
fÇİn Ġ
wÄĵi Ġ
Ġ zhÇĶĠ
huÃ³ Ġ
xÃŃ Ġ
tÃŃng Ġ
kÇİ Ġ
chÃ¡ Ġ
Ġ gÄģiĠ
Ġ xiÃłngĠ
cÃ¡i Ġ
gÃ²u Ġ
shuÅį Ġ
mÃ©n Ġ
cÃŃ Ġ
2 Ġ
xiÇİng Ġ
mÇĶ Ġ
lÃ¨i Ġ
wÄĽi Ġ
qÇĶ Ġ
ĠgÅįngĠ lÇĲĠ
yÃ¡nĠ jiÅ«
Ġ duÅįĠ
tuÃ¡n Ġ
yÇĲn Ġ
jiÃłn Ġ
ĠyÄĽ Ġ
chÃ¡o Ġ
yÃ¬ng Ġ
chÃ©n Ġ
tÃ¡ng Ġ
xiÄĵ Ġ
qÃŃ Ġ
pÇĲn Ġ
ĠyÇĲ ĠjÃŃĠ
jiÃł Ġ
shÇĲĠ yÃ²ngĠ
jiÄĽ Ġ
hÃ¡ng Ġ
yÇĲ Ġ
lÃºn Ġ
rÃ³ng Ġ
jiÇİng Ġ
Ġ yÃ³u
pÃ¡i Ġ
fÅ« Ġ
jiÇĶ Ġ
Ã© Ġ
lÃ¬ng Ġ
tÃ¡iĠ wÄģn
ĠhÃło Ġ
Ġ wÃłn
ĠdeĠ dÃ¬Ġ
xÅ« Ġ
kÄĽ ĠyÇĲĠ
huÃ¡ng Ġ
xiÄģn Ġ
duÃłn Ġ
kÃ¨ Ġ
dÇİng Ġ
mÃ³ Ġ
cÄģn Ġ
yÃŃng Ġ
tiÃ¡o Ġ
biÄģo Ġ
ĠdeĠ yÄ«Ġ
kÄģiĠ shÇĲĠ
quÃ¡n Ġ
zhÇİn Ġ
ĠchÃ©ngĠ wÃ©iĠ
yÄĽ Ġ
hÃ³ng Ġ
mÃ©i ĠyÇĴuĠ
hÃłn Ġ
yÄ«n Ġ
wÄĽi ĠyuÃ¡nĠ
qiÄģn Ġ
bÇİn Ġ
xiÃłn Ġ
lÃŃng Ġ
xiÄģo Ġ
ĠtÃ³ng Ġ
huÃŃ Ġ
sÅ« Ġ
fÃ¡ng Ġ
mÃ©ng Ġ
zhuÄģng Ġ
kÅįng Ġ
jÃº Ġ
cÅ«n Ġ
bÄģoĠkuÃ² Ġ
rÃ©nĠ kÇĴuĠ
ĠqÃŃ ĠzhÅįngĠ
ĠgÅįngĠ sÄ«Ġ
huÃ² Ġ
zÇĲ Ġ
xÃŃng Ġ
dÅįu Ġ
ĠdeĠ shÃ¬Ġ
ĠĠĠ zÃłiĠ
qiÃ¡ng Ġ
zhÃło Ġ
dÃº Ġ
zhÃ¨ng ĠzhÃ¬Ġ
yÃŃ ĠgÃ¨
mÃ² Ġ
bÄ«ng Ġ
cÇİi Ġ
fÇİ ĠguÃ³Ġ
Ġ fÄĵnĠ
Ġ gÄģoĠ
ĠdÃłĠ xuÃ©Ġ
ĠshÃ¬Ġ yÄ«Ġ
hÃ¡i Ġ
ĠtÄģ ĠdeĠ
hÃº Ġ
chÃ¹ Ġ
qÄ«n Ġ
lÃ¹n Ġ
fÃłn Ġ
3 Ġ
zhÄĵn Ġ
guÄģng Ġ
wÃ¨n Ġ
mÃłn Ġ
Ġ jiÃ©Ġ
shÃ¨ Ġ
biÇİo ĠshÃ¬Ġ
Ãłi Ġ
zhÅįng ĠdeĠ
jÅ« Ġ
Ġ jiÃłoĠ
zhuÄģn Ġ
diÃło Ġ
bÃ¡i Ġ
dÇİ Ġ
quÃ¨ Ġ
diÃłn ĠshÃ¬Ġ
Ġ dÅįngĠ
fÃ¨i Ġ
ĠshÃ¬Ġ wÃ¨iĠ
Ġ dÃ¹Ġ
Ġ mÃ¹Ġ
hÃ¡n Ġ
shÃ¬ ĠdeĠ
Ġ tÃ¨Ġ
xÃ¹n Ġ
Ġ jÄ«nĠ
piÃłn Ġ
mÃ¬ng Ġ
jÇĶ Ġ
Ġ jiÄģngĠ
tuÅį Ġ
gÃ¹ Ġ
ĠrÃ©nĠ kÇĴuĠ
xiÅ« Ġ
ĠbÃ¹Ġ fÃ¨nĠ
xiÃ© Ġ
zÃło Ġ
ĠhÃ©Ġ guÃ³Ġ
zhÅįngĠ guÃ³Ġ
guÇĴ Ġ
10 ĠyuÃ¨Ġ
shÅįu Ġ
Ġ zuÃ¬
xÃ¬n Ġ
12 ĠyuÃ¨Ġ
7 ĠyuÃ¨Ġ
9 ĠyuÃ¨Ġ
zhuÇİn Ġ
tÄģ Ġ
Ġ shÄ«Ġ
dÄģng Ġ
miÃłn ĠjÄ«Ġ
ĠrÃ©nĠ mÃŃnĠ
8 ĠyuÃ¨Ġ
xÃºn Ġ
ĠdÃ¬Ġ qÅ«Ġ
wÅ« Ġ
3 ĠyuÃ¨Ġ
Ġ guÃ²Ġ
1 ĠyuÃ¨Ġ
Ġ jÄ«ngĠ
Ġ suÇĴĠ
Ġ shÇĴuĠ
gÇİn Ġ
huÃ¡n Ġ
dÃŃ Ġ
xiÃ¡ Ġ
jiÇİ Ġ
5 ĠyuÃ¨Ġ
yÄ«ng ĠguÃ³Ġ
Ġ cÇĲĠ
dÃło Ġ
dÇĲ Ġ
zhÅ« Ġ
tÄ«ng Ġ
zhÃ¨ng ĠshÃ¬Ġ
chÃ³ng Ġ
huÇĴ Ġ
zhÅįu Ġ
6 ĠyuÃ¨Ġ
zhuÃłng Ġ
4 Ġ
5 Ġ
chÃ©ng ĠshÃ¬Ġ
4 ĠyuÃ¨Ġ
ĠguÃ³Ġ jiÄģĠ
tiÃ¡n Ġ
gÃ¨ng Ġ
ĠĠĠ dÃ¬Ġ
fÃłng Ġ
yÇĴng Ġ
shÇĶ ĠyÃºĠ
ĠpÃŃngĠ fÄģng
pÃ² Ġ
jÅ«n Ġ
ĠdÃ¬Ġ yÄ«Ġ
Ġ qiÃ¡nĠ
11 ĠyuÃ¨Ġ
qÃºn Ġ
qÃ¹ Ġ
jiÃłng Ġ
tÃ¡o Ġ
ĠshÃ¬Ġ jÃ¬Ġ
ĠpÃŃngĠfÄģng ĠgÅįngĠlÇĲĠ
ĠtÃ³ng ĠshÃŃĠ
dÄģn ĠrÃ¨nĠ
gÄĵn Ġ
Ġ mÇİĠ
Ġ rÃºĠ
Ġ dÄĽngĠ
jÇĲ Ġ
biÃ© Ġ
pÃłi Ġ
dÅ« Ġ
liÃ¡ng Ġ
shÇİo Ġ
huÄ« Ġ
tiÄĽ Ġ
nÃ³ng Ġ
ĠniÃ¡nĠ 1ĠyuÃ¨Ġ
tÇİ Ġ
diÃłnĠ yÇĲngĠ
zÅįng Ġ
chÇĶ Ġ
Ġ qÄ«Ġ
Ġ zhÃ¨
sÇĲ Ġ
Ġ tiÄģnĠ
ÄĽr Ġ
ĠdeĠ shÃŃĠ
shuÄģng Ġ
qiÃ¡o Ġ
tÃ¡iĠwÄģn Ġ
Ġ suÃ¬
gÄĵn ĠjÃ¹Ġ
lÃ¬Ġ shÇĲĠ
chÃº Ġ
ĠshÃ¬Ġ zhÃ¨nĠ
gÃło Ġ
bÃłi Ġ
cÄģn ĠjiÄģĠ
yÃ¹nĠ dÃ²ng
gÄģng Ġ
chÄĵ ĠzhÃłnĠ
guÃ³ ĠdeĠ
jiÇİo Ġ
ĠyÄ«n ĠwÃ¨iĠ
ĠrÃ¬Ġ bÄĽnĠ
ĠpÃŃngĠ fÄģngĠ
lÃ¬ ĠdeĠ
ĠniÃ¡n ĠdeĠ
gÃłi Ġ
pÃłn Ġ
Ġ wÃ©nĠ
Ġ hÇİiĠ
zhÃ¨ngĠ fÇĶĠ
bÃ¬ng Ġ
zhÇĶn Ġ
ĠniÃ¡nĠ 12ĠyuÃ¨Ġ
wÇİ Ġ
yÃłn Ġ
wÇĴ Ġ
Ġ fÃºĠ
gÃ²ng ĠhÃ©ĠguÃ³Ġ
ĠxiÃłn ĠdeĠ
yÃ¡ Ġ
yÃŃn Ġ
fÄģ ĠxiÃłnĠ
formula Ġ
chuÃłng Ġ
hÄĵi Ġ
huÃłn Ġ
qÅ« ĠdeĠ
sÃ²ng Ġ
hÄģ Ġ
hÄĽn Ġ
Ġ suÇĴ
tÃŃ ĠgÅįngĠ
jÃ¬n ĠxÃŃngĠ
Ġ bÄĽiĠ
lÃ©i Ġ
2 ĠyuÃ¨Ġ
jÄ«ng ĠjÃ¬Ġ
tÅįngĠ guÃ²Ġ
ĠniÃ¡nĠ 3ĠyuÃ¨Ġ
Ġ mÄĽi
suÃŃ Ġ
chuÄģn Ġ
ĠzhÅįngĠ yÄģng
ĠguÃ³Ġ jÃ¬Ġ
huÄģ Ġ
6 Ġ
shÃłng ĠdeĠ
ĠyÃ³u ĠyÃºĠ
Ġ yÃ²uĠ
lÄĵi Ġ
wÄĽiĠyuÃ¡nĠ huÃ¬Ġ
qiÄĽ Ġ
kÇİo Ġ
ĠniÃ¡nĠ 7ĠyuÃ¨Ġ
chÄĵng ĠwÃ©iĠ
ĠniÃ¡nĠ 10ĠyuÃ¨Ġ
dÄĵng Ġ
bÇİi Ġ
ĠshÃ¬Ġ jiÃ¨Ġ
Ġ yÄ«ngĠ
ĠyÄ«nĠ cÇĲĠ
mÃŃng ĠwÃ¨iĠ
ĠjÃ¬n ĠxÃŃngĠ
nuÃ² Ġ
ĠshÃ¬Ġ zÃłiĠ
chÅįng Ġ
zhÇĶ ĠyÃ¬Ġ
wÃ¡n Ġ
ĠrÃ¡n Ġ
ĠniÃ¡nĠ 9ĠyuÃ¨Ġ
kuÃłi Ġ
tÇĶ Ġ
ĠzhÄ« ĠhÃ²uĠ
yÃ¡nĠjiÅ« Ġ
qiÃº Ġ
ĠtÄģĠmen Ġ
mÃłi Ġ
shÃŃ ĠdeĠ
liÃłn Ġ
hÃło Ġ
ĠniÃ¡nĠ 5ĠyuÃ¨Ġ
sÃł Ġ
lÃº Ġ
xÃ¬Ġ tÇĴngĠ
Ġ zuÃ¬Ġ
pÃ¨i Ġ
lÇĶ Ġ
ĠniÃ¡nĠ 4ĠyuÃ¨Ġ
chÇĲ Ġ
liÃło Ġ
ĠdÄģng Ġ
ĠniÃ¡nĠ 8ĠyuÃ¨Ġ
Ġ liÃ¡nĠ
ĠniÃ¡nĠ 6ĠyuÃ¨Ġ
ĠxÃŃng ĠdeĠ
zÄĵng Ġ
rÃ©n ĠdeĠ
Ġ shÇĲĠ
xiÄģngĠ gÇİngĠ
qÄ«Ġ jiÄģnĠ
xuÄģn Ġ
Äĵn Ġ
dÃ© Ġ
kuÃłng Ġ
guÇİn ĠlÇĲĠ
ĠgÅįngĠ zuÃ²Ġ
piÃło Ġ
ĠzhÄ« ĠyÄ«Ġ
xÇĶ Ġ
dÄ« Ġ
hÃ©ng Ġ
dÃł ĠdeĠ
bÇĶ Ġ
yÃłng Ġ
ĠzhÅįngĠ xÄ«nĠ
xuÄģn ĠbÃ¹Ġ
sÄĵn Ġ
tuÄ« Ġ
ĠniÃ¡nĠ 11ĠyuÃ¨Ġ
zÇĶ ĠzhÄ«Ġ
rÃ¬ Ġ
wÃłng Ġ
bÃ¹ ĠdeĠ
pÃŃ Ġ
men Ġ
Ġ bÄģoĠkuÃ²Ġ
chÃłng Ġ
yÇĲngĠ xiÇİngĠ
yÇİng Ġ
ĠtÄģ ĠzÃłiĠ
qiÄģn ĠmÇĲĠ
sÄģi Ġ
ĠĠĠ shÄĵngĠ
ĠhuÃ² ĠdÃ©Ġ
Ã©r Ġ
pÄ« Ġ
ĠshÃ¬Ġ jiÃ¨
ĠwÃłn Ġ
luÃ³ ĠsÄ«Ġ
hÃ¨ Ġ
kÄĽĠ nÃ©ng
chÃ©ng ĠdeĠ
Ġ gÄģi
Ġ qÄ«ngĠ
niÃłn Ġ
dÃ¹n Ġ
xiÃ¡n Ġ
Ġ ÄģĠ
lÃ³u Ġ
qÃŃ ĠtÄģĠ
ĠniÃ¡nĠ 2ĠyuÃ¨Ġ
ĠchÃ©ngĠ lÃ¬Ġ
le ĠyÄ«Ġ
bÄģng Ġ
huÃ³Ġ dÃ²ngĠ
ĠrÃ¨nĠ wÃ©iĠ
liÃ¹ Ġ
Ġ lÃ¡iĠ
yÅįu Ġ
Ġ bÇĲĠ
Ġ shÃ¹Ġ
s Ġ
kÄĵ ĠxuÃ©Ġ
Ġ fÄĵn
fÄģĠ zhÇİnĠ
huÃ² ĠdÃ©Ġ
jÃ¹n Ġ
Ġ luÃ³Ġ
ĠzuÃ²Ġ wÃ©iĠ
yÄģ Ġ
ĠpÃŃngĠfÄģngĠ qiÄģnĠmÇĲĠ
huÃ¡ ĠrÃ©nĠmÃŃnĠ
Ġ wÃºĠ
rÃ¬ ĠbÄĽnĠ
bÄĵi Ġ
lÇİo Ġ
huÃ¬ ĠyÃ¬Ġ
rÃ¨ Ġ
Ġ zhÃŃ
kÃ¹ Ġ
tÃ¡n Ġ
jiÄģn ĠdeĠ
tiÄĽ ĠlÃ¹Ġ
Ġ liÃºĠ
ĠdeĠ rÃ©nĠ
yÃ²ng ĠyÃºĠ
liÃ¡o Ġ
nÃŃng Ġ
ĠshÃŃĠ jiÄģnĠ
ĠdeĠ gÅįngĠ
gÃ¨ Ġ
Ġ shÄģnĠ
Ġ zhÄģngĠ
miÇİn Ġ
Ġ yÃ¡nĠ
miÃłnĠ jÄ«
mÃŃn ĠguÃ³Ġ
ruÃ¬ Ġ
wÅ« ĠkÃ¨Ġ
yÃ¬n Ġ
xiÇİn Ġ
lÃ¨ Ġ
zuÇĴ Ġ
gÃ²ng ĠyÇĴuĠ
ĠĠĠ lÃ¬ĠshÇĲĠ
hÇİo Ġ
ĠĠĠshÄĵngĠ pÃŃngĠ
huÃ¡ĠrÃ©nĠmÃŃnĠ gÃ²ngĠhÃ©ĠguÃ³Ġ
fÄģng ĠshÃ¬Ġ
fÄģĠ shÄĵngĠ
gÄģn Ġ
Ġ cÃ³ngĠ
dÃ²u Ġ
wÃ¨nĠ tÃŃĠ
Ġ zhÃŃĠ
guÃłn ĠjÅ«nĠ
zhÇĶĠ yÃłoĠ
rÃ¡n Ġ
dÃ¬ ĠdeĠ
ĠdÃ¬Ġ Ã¨rĠ
dÇİo ĠzhÃ¬Ġ
guÄģnĠ xÃ¬Ġ
cÃºn Ġ
Ġ xiÇİoĠ
kÄģng Ġ
cÄģn ĠyÃ¹Ġ
yuÇİn Ġ
ĠbÃ¹Ġ fÃ¨n
Ġ jÇĲnĠ
zhÄĽng Ġ
ĠgÅįngĠ chÃ©ngĠ
wÃ¡n ĠchÃ©ngĠ
dÄģn ĠwÃ¨iĠ
kÄĽĠ nÃ©ngĠ
Ġ wÇĶĠ
yÄ« ĠwÃ¨iĠ
Ġ zhÇĲĠ
7 Ġ
1 ĠrÃ¬Ġ
Ġ zÃ©Ġ
ge Ġ
xiÃ¨ Ġ
suÇĴ ĠyÇĴuĠ
zhÃ¬ ĠdeĠ
Ġ zÇĴngĠ
wÃ©nĠ huÃłĠ
ĠchÃ©ngĠ yuÃ¡nĠ
ĠdeĠ chÃ©ngĠ
gÄĽi Ġ
lÇļ Ġ
Ġ bÄģĠ
yuÃ¡n ĠdeĠ
yÅįng ĠyÇĴuĠ
cÃºn ĠzÃłiĠ
Ã¨r ĠshÃŃĠ
Ġ tÅįngĠ
bÄĽi ĠbÃ¹Ġ
liÃ¡n ĠhÃ©Ġ
hÃ²u ĠdeĠ
niÇĶ Ġ
ĠshÃ¬Ġ zhÅįngĠ
zhÃ¨ngĠ fÇĶ
yÃ³u ĠyÃºĠ
guÃ³Ġ jiÄģĠ
duÃ¬ ĠyÃºĠ
ĠniÃ¡nĠ zhÃ¬Ġ
fÄģ ĠxÃŃngĠ
yÃ¬ ĠdeĠ
Ġ 18
jÃ¹ ĠyÇĴuĠ
ĠjiÃłnĠ zhÃ¹Ġ
bÇĲĠ sÃłiĠ
ĠbÃ¬ng ĠzÃłiĠ
Ġ zhÇĲ
ĠdÃłoĠ leĠ
Åįu Ġ
Ã¨ Ġ
xÄ«n ĠdeĠ
sÄ« ĠdeĠ
shÄĽn Ġ
yÃºn Ġ
zÃ¬Ġ jÇĲ
yÃ¹nĠ dÃ²ngĠ
xÃŃng ĠzhÃ¨ngĠ
yÃ¬n ĠdÃ¹Ġ
Ã©Ġ luÃ³ĠsÄ«Ġ
bÄ«n Ġ
Ġ miÃłnĠjÄ«Ġ
dÃłiĠ biÇİoĠ
shÃło Ġ
s ĠĠĠ
Ġ mÄĽiĠguÃ³Ġ
Ġ lÃ¬ngĠ
xÇĶ ĠduÅįĠ
ĠdÃłn ĠshÃ¬Ġ
rÃ¨n ĠhÃ©Ġ
shÄĵng ĠyÃºĠ
tÅ« Ġ
guÃ¬ Ġ
Ġ 15
8 Ġ
ĠniÃ¡nĠ dÃłiĠ
Ġ jiÇİnĠ
dÄ«ng Ġ
liÇİng ĠgÃ¨Ġ
chÃ¨ Ġ
bÇİoĠ hÃ¹Ġ
ĠrÃ©nĠkÇĴuĠ mÃ¬Ġ
xiÃ¹ Ġ
Ġ shÇĲ
mÇİn Ġ
zh Ġ
xuÃ¡n Ġ
ĠdÄģng ĠshÃŃĠ
zhÃłng Ġ
ĠdeĠ yÃŃĠgÃ¨Ġ
nÃ¡n ĠbÃ¹Ġ
jÇĶ ĠxÃŃngĠ
zhuÄģn ĠjÃŃĠ
miÃłnĠjÄ« ĠwÃ¨iĠ
Ġ diÃłnĠ
Ġ xÃ¬Ġ
lÃ¡i ĠdeĠ
Ġ C
Äģi Ġ
fÄģn Ġ
Ġ guÄģnĠ
zÇİo Ġ
ĠzhÃ¨ngĠ fÇĶĠ
dÃº ĠlÃ¬Ġ
fÃºĠ wÃ¹Ġ
juÃ©Ġ dÃ¬ngĠ
ĠchÅ« ĠdeĠ
xiÄĽ Ġ
ruÃ² Ġ
zhÇĶĠ yÃło
kÄģiĠ shÇĲ
ĠlÃ¬Ġ shÇĲĠ
qÇĲng Ġ
Ġ cÃ©ngĠ
ĠshÃ¨ ĠjÃ¬Ġ
Ġ sÄģnĠ
rÃłng Ġ
mÃŃng ĠdeĠ
Ġ wÃ¡ngĠ
Ġ mÄĽiĠ
hÃłi Ġ
ĠshÃ¬ĠwÃ¨iĠ yÃºĠ
jiÃ¹ ĠshÃ¬Ġ
ĠyÇĴuĠ yÄ«Ġ
gÄĵng Ġ
gt Ġ
Ġ cÇĲ
Ġ gtĠ
xÇĲ Ġ
Ġ jiÄģng
tÃłn Ġ
ĠqÃŃ ĠtÄģĠ
ĠxÃŃngĠ zhÃ¨ngĠ
Ġ fÇİĠ
pÃ©i Ġ
jiÃłoĠ yÃ¹Ġ
Ġ 16
shÃ²u ĠdÃłoĠ
lt Ġ
Ġ A
Ġ fÄĵngĠ
rÃ¨nĠ wÃ©iĠ
fÇİng Ġ
ĠshÃ¬Ġ dÃ¬Ġ
fÄģĠ zhÇİn
wÇİn Ġ
kÄģn Ġ
shÃ¨ ĠhuÃ¬Ġ
Ġ ltĠ
shÃłn Ġ
yÃ¬ ĠwÃ¨iĠ
gÃ¹ ĠshÃ¬Ġ
piÄģn Ġ
fÄģngĠ miÃłnĠ
ĠxiÃłn ĠzÃłiĠ
Ġ jiÄĵĠ
qÅ« ĠwÃ¨iĠ
ĠzuÃ¬ ĠzhÅįngĠ
qÃŃn Ġ
Ġ bÃ¬Ġ
ĠzhÅįngĠyÄģng Ġ
ĠshÃ¬Ġ shÃ¬Ġ
tuÃ¬ Ġ
pÃło Ġ
zhe Ġ
nÃ¨i ĠdeĠ
Ġ jiÃ¹Ġ
shÇĶ ĠdeĠ
xiÄģngĠ gÇİng
xiÇİo ĠshÃŃĠ
dÃłn Ġ
ĠlÃ¬Ġ rÃºĠ
zÃº ĠqiÃºĠ
shÃ¹Ġ jÃ¹Ġ
ĠbÃ¹Ġ tÃ³ng
liÃ¨Ġ chÄĵĠ
xÅ«Ġ yÃłoĠ
huÃł ĠdeĠ
zhÃŃĠ wÃ¹Ġ
qiÄģng Ġ
Ġ suÄ«
rÃ©n ĠshÃ¬Ġ
zuÃ² ĠdeĠ
shÇĲĠ yÃ²ng
zÄĵng ĠjiÄģĠ
Ġ qÅ«Ġ
Ġ dÃ²ngĠ
ĠjÃ¬Ġ huÃłĠ
mÃŃnĠ zhÇĶĠ
ĠshÃŃĠ qÄ«Ġ
zuÃ²Ġ wÃ©iĠ
Ġ gÇĶĠ
kÃ²ng ĠzhÃ¬Ġ
ĠyÄĽ ĠshÃ¬Ġ
duÇİn Ġ
tÇİn Ġ
ĠjiÃłn ĠdeĠ
yÄ«n ĠyuÃ¨Ġ
Ġ ÄģnĠ
ĠrÃ¡n ĠÃ©rĠ
lÃ¡ng Ġ
ĠyÇĲĠ jÄ«ngĠ
Ġ shÇĶĠyÃºĠ
ĠhÃ©Ġ zuÃ²Ġ
ĠzÃłiĠ dÃ¬Ġ
rÃ©nĠ mÃŃnĠ
ĠshÃ¬Ġ jiÃłnĠ
ĠrÃ©nĠ yuÃ¡nĠ
Ġ yÃ²u
tÄģ ĠdeĠ
ĠjiÃłn ĠyÃºĠ
xuÃ©Ġ yuÃłnĠ
Ġ cÃ©ng
zÇĶ ĠchÃ©ngĠ
chÄģo ĠguÃ²Ġ
zuÃ²Ġ pÇĲnĠ
Ġ mÇİ
Ġ gÃ©Ġ
ĠyÄ«n ĠyuÃ¨Ġ
Ġ kÄĵĠ
mÃło Ġ
ĠquÃ¡n ĠguÃ³Ġ
xiÃ³ng Ġ
Ġ S
zÇİi Ġ
hÅ« Ġ
huÃ¬ ĠdeĠ
jÃ¬ ĠdeĠ
Ġ sÃ¬Ġ
zÇĴngĠ tÇĴngĠ
ĠzhÃ¨Ġ xiÄĵĠ
suÃłn Ġ
ĠwÃ¨iĠ leĠ
ĠhÃ²uĠ lÃ¡iĠ
yÃº ĠshÃ¬Ġ
Ġ pÇĶĠ
Ġ zhÇİngĠ
Ġ tÃłiĠ
10 Ġ
Ġ shÃ²uĠ
ĠchÃ©ngĠ gÅįngĠ
fÄģ ĠbÃ¹Ġ
dÃłĠ lÃ¬Ġ
tÃŃ ĠchÅ«Ġ
ĠlÃ¬Ġ yÃłĠ
Ġ 000
ĠyÃ¬Ġ yuÃ¡nĠ
ĠshÃ¨ ĠyÇĴuĠ
ĠyÄ«nĠ cÇĲ
yÃ¹nĠdÃ²ng ĠyuÃ¡nĠ
yÄģo ĠqiÃºĠ
hÃ¡n ĠguÃ³Ġ
bÃ¹ ĠzÃłiĠ
nÃŃĠ yÃł
yÇĴu ĠdeĠ
ĠĠĠ deĠ
pÃŃn Ġ
pÃº Ġ
zÃło ĠchÃ©ngĠ
Ġ 17
Åįu ĠzhÅįuĠ
qiÅ« Ġ
cÇİiĠ yÃ²ngĠ
xiÇİo ĠxÃŃngĠ
ĠĠĠ S
ĠgÅįngĠ yuÃ¡nĠ
jiÄģ ĠdeĠ
xÃ¬ng ĠdeĠ
shÄĵng ĠdeĠ
9 Ġ
ĠdeĠ yÃŃĠgÃ¨
ĠrÃ¬ ĠzÃłiĠ
dÄģng ĠshÃŃĠ
bÇİ Ġ
kÃ²ng Ġ
rÃ©nĠ wÃ¹Ġ
fÃ¨ng Ġ
ĠcÇĲĠ wÃłiĠ
Ġ suÃŃ
gÃ²ngĠ chÇİnĠ
Ġ lÄģĠ
Ġ zhĠ
kÃłn Ġ
Ġ cÃ³ng
Ġ wÇĴĠ
Ġ shÄģĠ
ĠshÃ¬Ġ hÃ©Ġ
wÄģn Ġ
2010 ĠniÃ¡nĠ
Ġ lÃ¬ng
Ġ gÄĵnĠjÃ¹Ġ
Ġ B
ĠdeĠ bÃ¹Ġ
mÇİ ĠwÃ¨iĠ
xuÃ©Ġ jiÄģĠ
yÃ³uĠ xÃ¬Ġ
Ġ nÇļĠ
Ġ tÇĲĠ
sÅįng Ġ
fÃłn ĠwÃ©iĠ
ĠbÃ¹Ġ tÃ³ngĠ
kÄģiĠ fÄģĠ
dÅ«n Ġ
shÃ¨ ĠjÃ¬Ġ
mÃ¡o Ġ
sÄģn ĠniÃ¡nĠ
chÄģo Ġ
qÇĶ ĠdÃ©Ġ
Ġ kÄĽĠ
ĠdeĠ jÄ«Ġ
ĠĠĠ C
sÃłi ĠshÃ¬Ġ
xiÅįng Ġ
ĠxÃŃng ĠchÃ©ngĠ
ĠĠĠdÃ¬Ġ lÇĲĠ
ĠĠĠ shÃ¬Ġ
Ġ yÃŃĠ
zÃ¬ ĠzhÃ¬Ġ
chÇİn ĠshÄĵngĠ
Ġ wÃ¹Ġ
Äģ ĠÄĽrĠ
ĠsuÃ¬ Ġ
yÃ¡o Ġ
dÇĲng Ġ
wÄĵn Ġ
ĠdeĠ jÃ¬Ġ
jiÃ©Ġ mÃ¹Ġ
shÅ« ĠjÃ¬Ġ
ĠbÃ¬ng ĠyÃºĠ
ĠĠĠ A
Ġ 0
dÅįu ĠshÃ¬Ġ
nÇĲ Ġ
chÃ³ng ĠxÄ«nĠ
xÃ¬Ġ tÇĴng
zÃłn Ġ
lÃ¼Ã¨ Ġ
ĠshÃ¨ ĠhuÃ¬Ġ
Ġ liÇİngĠ
zhÃ²ngĠ yÃło
chÅ«n Ġ
lÇĲ ĠdeĠ
bÃº ĠshÃ¬Ġ
ĠdÃłiĠ biÇİoĠ
yÄ« ĠniÃ¡nĠ
ĠxiÄģngĠ gÇİngĠ
diÃłnĠ yÇĲng
ĠsÄ«Ġ tÃ¨Ġ
guÄģn ĠyÃºĠ
zhuÄ« Ġ
dÃłng Ġ
Ġ nÃłĠ
juÃ©Ġ sÃ¨Ġ
Ġ fÃº
jiÄģoĠ tÅįngĠ
lÇİng Ġ
ĠyÃ³uĠ xÃ¬Ġ
dÃłĠ xuÃ©Ġ
jÃŃ ĠdeĠ
mÃŃ Ġ
gÄĵĠ qÇĶĠ
chÃº ĠleĠ
ĠchÅ« ĠxiÃłnĠ
2020 ĠniÃ¡nĠ
tÇİo Ġ
Ġ jiÃ©
ĠzhÃ¬Ġ zuÃ²Ġ
ĠdÃłĠ xuÃ©
pÃŃng ĠjÅ«nĠ
Ġ P
ĠdÃ© ĠguÃ³Ġ
xiÇİn ĠshÃ¬Ġ
Ġ chÃ©nĠ
huÃ¡Ġ mÃŃnĠguÃ³Ġ
Ġ shÄĵnĠ
ĠniÃ¡nĠ zÃłiĠ
ĠzhÅįngĠ huÃ¡ĠrÃ©nĠmÃŃnĠgÃ²ngĠhÃ©ĠguÃ³Ġ
kuÃ² Ġ
kÇĴng Ġ
hÃ²u ĠzÃłiĠ
miÃ¡o Ġ
ĠniÃ¡nĠ dÃłi
Ġ jiÄģnĠ
Ġ liÇİng
Ã¨r ĠniÃ¡nĠ
xiÃł ĠdeĠ
yÇİn ĠyuÃ¡nĠ
ĠkÃ¨ ĠsÄ«Ġ
dÃ© ĠguÃ³Ġ
xiÃ¡ng Ġ
Ġ 1Ġ
wÃ©i ĠyÄ«Ġ
qÃ¬ng Ġ
cÇİo Ġ
Ġ bÇİoĠ
dÄģng ĠdÃ¬Ġ
guÃ³Ġ jÃ¬Ġ
duÃ¬ ĠdeĠ
bÃ³Ġ wÃ¹Ġ
hÅ«n Ġ
ĠjiÃłn ĠlÃ¬Ġ
ĠdÃ¬Ġ guÃ³Ġ
Ġ fÄĵiĠ
ĠbÃ¹Ġ yÃºĠ
fÇİn ĠduÃ¬Ġ
qÄ« ĠdeĠ
duÄģn Ġ
wÃ¹ ĠdeĠ
zÇĴu Ġ
xuÃ¨ Ġ
yÄ«n ĠwÃ¨iĠ
qÅ«Ġ yÃ¹Ġ
Ġ 1
qÃ¹ ĠshÃ¬Ġ
yÄ« ĠbÃ¹ĠfÃ¨nĠ
bÃ¡ ĠgÄģoĠ
wÃ² Ġ
quÄĵ Ġ
Ġ chÃ¡ngĠ
2001 ĠniÃ¡nĠ
guÇİnĠ xiÃ¡Ġ
dÃ¹ ĠwÃ¨iĠ
kuÇİn Ġ
zhÃ¨ngĠzhÃ¬Ġ rÃ©nĠwÃ¹Ġ
nÃŃĠ yÃłĠ
Ġ kÇİĠ
hÃ¡i ĠyÇĴuĠ
pÃ©ng Ġ
ĠĠĠ rÃ©nĠkÇĴuĠ
ĠdÄģng ĠdÃ¬Ġ
zuÃ¬ ĠzhÅįngĠ
Ġ ãĤ
Ġ 2
ĠtÄģ ĠshÃ¬Ġ
chÃ¬ Ġ
ĠbÃ¹Ġ duÃ¬Ġ
lÃ¡iĠ zÃ¬Ġ
Ġ yuÄĵĠ
Ġ dÄģnĠ
bÇĲĠ sÃłi
ĠxÃŃng ĠshÃ¬Ġ
zhÃŃĠ yÃ¨Ġ
qiÃ¡nĠ wÇİngĠ
Ġ wÄĵiĠ
dÃ¬ng ĠdeĠ
Ġ T
Ġ fÄģĠ
quÃ¡n ĠguÃ³Ġ
bÄģ ĠshÃ¬Ġ
yÄ« ĠbÃ¹Ġ
ĠdeĠ yuÃ¡nĠ
ĠzhÃ¨ngĠ fÇĶ
ĠĠĠ B
Ġ chÃºĠ
zhÃ²ngĠ yÃłoĠ
diÃłoĠ chÃ¡Ġ
Ġ lÃŃnĠ
ĠzhÄ«Ġ jiÄģnĠ
biÄģnĠ mÇİĠwÃ¨iĠ
Ġ huÃ¡ngĠ
Ġ D
ĠniÃ¡nĠ jiÄģnĠ
ĠxuÃ©Ġ mÃŃngĠ
Ġ 14
xuÃ©Ġ xiÃłoĠ
zhÄģo Ġ
zhÇĶĠ xÃŃĠ
xuÇİnĠ jÇĶĠ
ĠrÃ¬ ĠzhÃ¬Ġ
gÇİi ĠwÃ©iĠ
zÇĶ ĠzhÄ«
Ġ nÃ¨iĠ
zhÇĶĠ jiÃłoĠ
fÃ¡ Ġ
zÄ«Ġ liÃłoĠ
hÇİi ĠjÅ«nĠ
Ġ jÃ¬ngĠ
gÅįng ĠshÃ¬Ġ
ĠjÅ«n ĠshÃ¬Ġ
ĠdeĠ dÃłĠ
ĠrÃ©nĠkÇĴuĠmÃ¬Ġ dÃ¹Ġ
chÇĶ ĠlÇĲĠ
sÅ«n Ġ
zÄģi Ġ
ĠdeĠ yÃ¬Ġ
ĠĠĠ P
kÃłng Ġ
fÄģngĠ fÇİĠ
Ġ duÅį
Ġ ãģ
fÃ¹Ġ zÃ©Ġ
ĠrÃ¬Ġ bÄĽn
wÅ«ĠkÃ¨Ġ lÃ¡nĠ
ĠĠĠ yÇĶĠ
Ġ bÅįĠ
guÃłn Ġ
shÃ¹ ĠdeĠ
ĠyÇĴuĠ xiÃłn
dÃłiĠ biÇİo
ĠgÃ¨ ĠrÃ©nĠ
Ġ sÄģn
wÃºĠ fÇİĠ
yÇĲngĠ xiÇİng
ĠjÃ¬Ġ shÃ¹Ġ
Ġ shÃ¨ngĠ
ĠshÃ¬Ġ yÃ³uĠ
jiÄĵĠ rÇİng
zuÃ¬Ġ gÄģoĠ
jÅ«Ġ mÃŃnĠ
Ġ mÃ©iĠ
Ġ huÃłĠ
Ġ kÄģiĠ
xÃ¬Ġ liÃ¨Ġ
pÃł Ġ
qÃŃ ĠzhÅįngĠ
Ġ gÇİiĠ
lÃ¹ ĠdeĠ
Ġ jiÃ¨Ġ
Ġ hÃ³ngĠ
Ġ 2Ġ
xuÃ©Ġ shÄĵngĠ
ĠzhÄ«Ġ chÃŃĠ
zÃ¬Ġ yÃ³uĠ
wÄĽn Ġ
biÄģoĠ zhÇĶnĠ
Ġ zÃ©
xiÃ© ĠhuÃ¬Ġ
shÃ¹Ġ liÃłng
Äģn ĠquÃ¡nĠ
fÇİnĠ yÃ¬ngĠ
kÄĽ ĠyÇĲ
qiÃ¨ Ġ
huÃ¬ ĠzÃłiĠ
yÄģo Ġ
kÄĽn Ġ
shÃ¨n ĠzhÃ¬Ġ
bÇĲ ĠlÃ¬Ġ
yÃ© Ġ
tÇĴng ĠzhÃ¬Ġ
Ġ M
liÃ¡nĠ mÃ©ngĠ
chuÃłng ĠzuÃ²Ġ
zhÇĶĠ rÃ¨nĠ
Ġ suÃŃĠ
ĠĠĠ bÄĽnĠ
Ġ xÄ«n
dÅįng ĠbÃ¹Ġ
ĠdeĠyÃŃĠgÃ¨ ĠshÃ¬ĠzhÃ¨nĠ
Ġ ãĥ
ĠshÃ¬Ġ yÃŃĠgÃ¨Ġ
Ġ nÃ¡n
ĠgÅįngĠ sÄ«
gÄģi ĠguÃ³Ġ
ĠfÃ¹Ġ zÃ©Ġ
kÇİi Ġ
fÃ¡n Ġ
yÇİ Ġ
ĠdÃ¬Ġ sÄģnĠ
Ġ qÇĲĠ
ĠdÃ¬Ġ shÃŃĠ
tÇĲĠ yÃ¹Ġ
Ġ 12
ĠĠĠ xÃŃngĠzhÃ¨ngĠ
Ġ sÅ«Ġ
jiÃ©Ġ gÃ²uĠ
ĠbÃ¹Ġ guÃ²Ġ
Ġ 3
ĠdÃło ĠdeĠ
shÃŃ ĠniÃ¡nĠ
qÃŃngĠ kuÃłngĠ
nÃ©ng ĠlÃ¬Ġ
niÃº Ġ
mÇĴu Ġ
nÃ¡nĠ ziĠ
zhÅįng ĠshÃ¬Ġ
qÃŃngĠ kuÃłng
Ġ shuÇĲĠ
sÃ¬ ĠniÃ¡nĠ
xÄ« ĠbÃ¹Ġ
gÅįng ĠbÃ¹Ġ
shÄĵngĠ huÃ³Ġ
jiÄĵĠ shÃ²uĠ
Ġ gÄĵĠ
suÅį Ġ
nÇļĠ zÇĲĠ
Ġ Ãło
lÃ¹ ĠxiÃłnĠ
chÃ©ngĠ lÃ¬Ġ
Ġ yÃ¡ngĠ
ĠzhÅįngĠ xuÃ©Ġ
ĠĠĠ formulaĠ
gÅ« Ġ
wÃłn Ġ
miÃłn ĠdeĠ
huÄģn Ġ
ĠjÃ¬nĠ rÃ¹Ġ
A Ġ
yÃ¬ ĠshÃ¬Ġ
ĠÄĽr ĠsÄ«Ġ
ĠzhÇĶĠ yÃłoĠ
liÃ¡nĠ sÃłiĠ
bÄĽiĠ jÄ«ngĠ
ĠĠĠ G
Ġ bÄģ
yÇĴu ĠshÃŃĠ
Ġ ÃłoĠ
Ġ E
ĠyÃ¬Ġ huÃ¬Ġ
Ġ mÃŃng
Ġ kÄĽĠyÇĲĠ
guÇİngĠ dÅįngĠ
duÃ³ Ġ
hÃ¡o Ġ
ĠĠĠ jiÄģĠ
lÃ¡o Ġ
jiÃłn ĠzhÃ¹Ġ
ĠĠĠ the
Ġ G
yÃł ĠzhÅįuĠ
dÇİo ĠdeĠ
ĠguÃ³Ġ mÃŃnĠ
yÄĽ ĠshÃ¬Ġ
ĠbÃ¬ngĠ qiÄĽ
Ġ tÃ¡iĠ
nÃ¡ ĠdÃłĠ
dÃ²ngĠ wÃ¹Ġ
tÃłi ĠpÃŃngĠ
ĠsuÇĴ ĠyÇĲĠ
dÃ¬ ĠwÃ¨iĠ
ĠzhÃ¨ ĠshÃ¬Ġ
bÃ¡ĠgÄģoĠ dÃ¹Ġ
dÃ¡ ĠdÃłoĠ
zÃ¬ĠjÇĲ ĠdeĠ
lÇĲ ĠshÃ¬Ġ
zhÃº ĠjiÃłnĠ
zhuÃłn Ġ
rÇİn Ġ
dÃłi ĠdeĠ
guÇĲ Ġ
bÇİn ĠbÄĽnĠ
xiÃłngĠ mÃ¹Ġ
a Ġ
xÇĶĠ duÅį
zhÄĽ ĠdeĠ
jiÃłoĠ shÃ²uĠ
2008 ĠniÃ¡nĠ
Ġ hÃ¡iĠ
ĠxuÃ©Ġ xiÃłoĠ
Ġ dÃł
fÄĵiĠ chÃ¡ngĠ
wÅ«ĠkÃ¨Ġ lÃ¡n
2009 ĠniÃ¡nĠ
ĠxÄ«Ġ yÃłĠ
qÄ«ng ĠniÃ¡nĠ
Ġ F
m Ġ
Ġ Ã¨rĠ
Ġ zÇĴng
ĠzhÇĶĠ yÃło
lÄģ ĠsÄ«Ġ
Ġ hÃºĠ
ĠĠĠ gÄĵnĠjÃ¹Ġ
yÄ« ĠshÃ¬Ġ
ĠchÃ©ngĠ wÃ©i
rÃ¬Ġ bÄĽn
ĠĠĠ T
mÃ³ ĠshÃ¬Ġ
zhÃ© Ġ
niÇİo Ġ
wÃ©nĠ wÃ¹Ġ
ĠtÄģĠmen ĠdeĠ
suÃ¬ Ġ
ĠyÃ¬Ġ shÃ¹Ġ
ĠbÃ¬ngĠ qiÄĽĠ
Ġ mÇĶĠ
zhÇĲ ĠyÇĴuĠ
Ġ 4
chÄģ Ġ
ĠjÃ¬Ġ lÃ¹Ġ
ĠzhÅįu ĠdeĠ
Ġ ÃłiĠ
ĠĠĠ of
hÃ¡ngĠ kÅįngĠ
Ġ yÃºĠshÃ¬Ġ
wÃ©nĠ xuÃ©Ġ
fÄĵn ĠwÃ©iĠ
Ġ bÃ³Ġ
Ġ mÃŃnĠ
ĠqÃŃ ĠshÃ¬Ġ
ĠqÃŃ ĠyÃºĠ
suÄģn Ġ
tÅįngĠ guÃ²
dÄĽng ĠrÃ©nĠ
zhÇĲ ĠchÅ«Ġ
huÇĲ Ġ
28 ĠrÃ¬Ġ
cÃ¡ng Ġ
cuÃ² Ġ
shuÃłi Ġ
ĠĠĠ M
rÃ©nĠkÇĴuĠ pÇĶĠ
zhÃŃ ĠxÃŃngĠ
tÃ³ng ĠshÃŃĠ
hÃ¹n Ġ
zhÃł Ġ
zhÃŃĠ jiÄĵĠ
ĠqiÃº ĠduÃ¬Ġ
ĠlÃ¬Ġ yÃł
yÇİn ĠchÅ«Ġ
jÇĲnĠ biÄģoĠ
Ġ jÄ«n
gÄģi ĠdÃ¬Ġ
Ġ 13
gÃ©Ġ lÃ¡nĠ
2016 ĠniÃ¡nĠ
ĠĠĠ F
huÃ³Ġ dÃ²ng
zhÃ¨ ĠyÄ«Ġ
rÃ¨nĠ wÃ©i
jÃ¬nĠ rÃ¹Ġ
ĠzhÄ«Ġ jiÄģnĠdeĠ
ĠgÅįngĠ kÄģiĠ
ĠdÄģng ĠzhÅįngĠ
gÃ²ng ĠtÃ³ngĠ
Ġ cÃ¬Ġ
Ġ yÃ²ngĠ
xiÃł ĠjÃ¬Ġ
ĠdÃłn ĠzÃłiĠ
zhÃłnĠ zhÄĵngĠ
wÇĶ ĠniÃ¡nĠ
jiÄģng ĠjÅ«nĠ
chÃ³u Ġ
lÃ¨ ĠbÃ¹Ġ
mÃ©iĠ tÇĲĠ
tÇĲ ĠdeĠ
chÄĵĠ zhÃłn
Ġ 5
tuÄ« ĠchÅ«Ġ
jiÃłoĠ yÃ¹
yÇĶn Ġ
zhÃ¨Ġ xiÄĵĠ
mÃ¨ng Ġ
diÃ© Ġ
ĠshÃ¬Ġ wÃ¹Ġ
tÃ¬ Ġ
pÅį Ġ
miÃło Ġ
lÃŃĠ kÄģiĠ
ĠlÃ¬ngĠ wÃłiĠ
Ġ 6
huÃ¡nĠ jÃ¬ngĠ
2012 ĠniÃ¡nĠ
lÃŃnĠ pÇĲ
tÃ©ng Ġ
ĠdÃ¬Ġ Ã¨r
shÄģngĠ yÃ¨Ġ
zhÃº Ġ
2011 ĠniÃ¡nĠ
chuÃ¡nĠ tÇĴngĠ
ĠĠĠ niÃ¡n
15 ĠrÃ¬Ġ
guÄģn ĠdeĠ
Ġ yÇĲnĠ
sÄģn ĠshÃŃĠ
jÅ«n ĠshÃ¬Ġ
dÄģnĠ qÅ«Ġ
liÃłng ĠdeĠ
jiÄĵ ĠdÃłoĠ
sÃłn Ġ
ĠzhÃ¨Ġ geĠ
jÄ« ĠdeĠ
qiÃ¡n ĠdeĠ
rÃ©n ĠzÃłiĠ
nÃ¨iĠ rÃ³ngĠ
zÃłng Ġ
dÃ²ngĠ huÃłĠ
sÃłi ĠjÃ¬Ġ
gÄģo ĠdeĠ
bÃ³ ĠshÃ¬Ġ
dÃ¹ ĠdeĠ
me Ġ
ĠwÃ¨iĠ rÃ©nĠ
yÃŃnĠ hÃ¡ngĠ
xuÇİnĠ jÇĶ
ĠwÃ¨iĠ zhÃ¬Ġ
chÃ©ng ĠzhÅįngĠ
mÃ¬ng ĠmÃŃngĠ
dÄĽng ĠdÃ¬Ġ
ĠgÅįngĠ lÃ¹Ġ
Ġ gÃ¹Ġ
sÇĶn Ġ
rÃ¨ ĠdÃłiĠ
bÄĽiĠ jÄ«ng
ĠshÃŃĠ jÃ¬Ġ
yÃ¹nĠdÃ²ng ĠhuÃ¬Ġ
xuÇİnĠ zÃ©Ġ
ĠdÃłĠ lÃ¬Ġ
ĠÃ©r ĠzÃłiĠ
yuÃ¡n ĠniÃ¡nĠ
Ġ hÃłnĠ
bÃłoĠ gÃłoĠ
ĠmÃ¹Ġ qiÃ¡nĠ
bÇİng Ġ
ĠdeĠ hÃ©Ġ
Ġ wÃº
bÅį ĠchÅ«Ġ
zuÃ¬ ĠjiÄģĠ
ĠĠĠ jÃ¹Ġ
zÅįng ĠjiÃłoĠ
xuÃ© ĠwÃ¨iĠ
tÇĶ ĠdÃ¬Ġ
ĠdÃ© ĠdÃłoĠ
Ġ H
zuÃ¬ ĠhÃ²uĠ
wÃ©nĠ huÃł
tuÃ¡nĠ tÇĲĠ
25 ĠrÃ¬Ġ
ĠdÃ¬Ġ fÄģngĠ
guÇĲ ĠdÃłoĠ
luÃłn Ġ
ĠwÃ¨iĠ dÃ¬Ġ
jÄ«ng ĠlÃ¬Ġ
xÃ¬ ĠdeĠ
ĠzhÄ«Ġ qiÃ¡nĠ
Ġ 5Ġ
shÄĽng ĠdeĠyÃŃĠgÃ¨ĠshÃ¬ĠzhÃ¨nĠ
Ġ zhÃłn
Ġ yÃ¨Ġ
ĠshÃ¬ĠyÄ«Ġ zhÇĴngĠ
ĠshÃ¬ĠwÃ¨iĠyÃºĠ mÄĽiĠguÃ³Ġ
Ġ mÃ³Ġ
Ġ qÃ¬Ġ
jÃŃ ĠzhÅįngĠ
ĠgÃ¨ ĠyuÃ¨Ġ
ĠjÅ«n ĠdeĠ
sÇĲĠ wÃ¡ngĠ
ĠĠĠ H
xiÄģngĠ guÄģnĠ
Ġ mÇĲ
fÄĵnĠ biÃ©
30 ĠrÃ¬Ġ
Ġ bÄģoĠkuÃ²
ĠjÄ«Ġ gÃ²uĠ
wÃ¨i ĠdeĠ
shÇĴuĠ cÃ¬Ġ
Ġ xÃ¬ngĠ
ÃłoĠ lÃŃnĠpÇĲ
lÇĲngĠ dÇİoĠ
ĠyÇĴuĠ guÄģnĠ
ĠhÇİiĠ bÃ¡ĠgÄģoĠdÃ¹Ġ
ĠyÄ«Ġ xiÄĵĠ
ĠtÃ³ng ĠniÃ¡nĠ
huÃ¡i Ġ
2014 ĠniÃ¡nĠ
yÃ²ng ĠdeĠ
ĠĠĠ wÃ¨iĠ
Ġ juÃ©Ġ
20 ĠrÃ¬Ġ
ĠxÃŃngĠ dÃ²ngĠ
ĠzÃłiĠ yÄ«Ġ
jÄ« ĠyÃºĠ
xuÄĽ Ġ
Ġ zhÃ²ngĠ
ĠzhÅįngĠ huÃ¡ĠmÃŃnĠguÃ³Ġ
shuÇĲ ĠyÃ¹Ġ
11 Ġ
10 ĠrÃ¬Ġ
biÃłnĠ huÃłĠ
shÃłng ĠwÃ¨iĠ
ĠjÃŃĠ tuÃ¡n
2018 ĠniÃ¡nĠ
ĠjÃ¬Ġ xÃ¹Ġ
zhÄ« ĠyÄ«Ġ
ĠshÃŃĠ dÃłiĠ
chÇĶ ĠyÃºĠ
UTC Ġ
gÃ²ng ĠhÃ©Ġ
e Ġ
ĠbÃ¹Ġ zhÇİngĠ
zÃ¬Ġ jÇĲĠ
jiÃ©Ġ shÃ¹Ġ
2019 ĠniÃ¡nĠ
ĠzÃ¬Ġ jÇĲ
zhÄ«Ġ chÃŃĠ
2005 ĠniÃ¡nĠ
guÃ² ĠchÃ©ngĠ
ĠhÃ²uĠ lÃ¡i
Ġ bÃ¡iĠ
Ġ wÃłiĠ
shÃ¹n Ġ
mÃŃnĠ zÃºĠ
2015 ĠniÃ¡nĠ
kÅįngĠ jiÄģnĠ
Ġ 8
shuÃ¬ Ġ
bÃº ĠhuÃ¬Ġ
yÃ¨ ĠyÃºĠ
Ġ ziĠ
Ġ rÃº
tÃ²u ĠguÃ²Ġ
nÃ¨i ĠbÃ¹Ġ
mÃ¨i Ġ
2013 ĠniÃ¡nĠ
Ġ chÄĵngĠ
jiÄĽĠ fÃłng
Ġ sÃ¬
ĠzhÃŃ ĠdÃłoĠ
ĠyÃ¬Ġ zhÃŃĠ
xÄ«nĠ wÃ©nĠ
fÄĵn ĠbÃ¹Ġ
Ġ jÇĲngĠ
gÄĵnĠ jÃ¹
ĠĠĠthe ĠĠĠ
ĠzhÅįu ĠshÃ¬Ġ
pÄ« ĠpÃŃngĠ
Ġ N
ĠjÃŃĠ tuÃ¡nĠ
2007 ĠniÃ¡nĠ
Ġ Ãłi
Ġ 7
dÃ¬Ġ qÅ«Ġ
Ġ jiÃ¹
ĠĠĠ zhÃ¨Ġ
tÄģĠ men
Ġ shÇĶĠ
ĠhÃ©Ġ nÃ¡nĠ
ĠshÃ¬Ġ shÃŃĠ
ĠyÇĴuĠxiÃłn ĠgÅįngĠsÄ«Ġ
wÃ¡n ĠjiÄģĠ
20 Ġ
guÄ«Ġ dÃ¬ngĠ
gÃ©Ġ mÃ¬ngĠ
ĠjiÄģĠ rÃ¹Ġ
wÃ¡n ĠquÃ¡nĠ
Ġ shÃ©nĠ
chÃ©ngĠ wÃ©iĠ
Ġ tÃ¡ngĠ
xÄ«Ġ bÄģnĠ
zÄ«Ġ gÃ©Ġ
Ġ Ð
26 ĠrÃ¬Ġ
Ġ K
dÃłĠ lÃ¹Ġ
ĠĠĠ gÄģiĠ
2017 ĠniÃ¡nĠ
ÃłoĠlÃŃnĠpÇĲ ĠkÃ¨Ġ
ĠdÃłĠ huÃ¬Ġ
24 ĠrÃ¬Ġ
kuÄģn Ġ
zÃłi ĠdeĠ
zÃ¡ ĠzhÃ¬Ġ
Ġ mÃ²Ġ
ĠzhÃ¨Ġ zhÇĴngĠ
yÄ«ng ĠyÇĶĠ
pÃºĠ tÃ¡oĠ
d ĠĠĠ
lÃ¹ ĠdÃ¬Ġ
ĠĠĠ yÄ«Ġ
hÃ© ĠdeĠ
shÃłngĠ hÇİiĠ
Ġ yÄ«ngĠguÃ³Ġ
hÃ¡o ĠmÇĲĠ
ĠyÇĶĠ yÃ¡nĠ
qÇĲĠ yÃ¨Ġ
qÃŃ ĠtÄģ
n Ġ
fÄģng ĠdeĠ
Ġ 3Ġ
hÃ²u ĠyÄ«Ġ
luÃ³Ġ mÇİĠ
wÃ¨nĠ tÃŃ
Ġ kÄĽ
sÄģn ĠgÃ¨Ġ
ĠchÃ©ngĠ qÅ«Ġ
sÃ¨ ĠdeĠ
2006 ĠniÃ¡nĠ
chuÃ¡nĠ tÇĴng
Ġ L
ĠshÃ¬Ġ fÇİĠguÃ³Ġ
yÄ« ĠdeĠ
Ġ tÃ³uĠ
18 ĠrÃ¬Ġ
wÃ¹Ġ zhÇĴngĠ
ĠwÃ¨iĠyÃºĠ gÄģiĠguÃ³Ġ
a ĠĠĠ
ĠlÇĲĠ sÄ«Ġ
Ġ tÃ¡iĠwÄģnĠ
jÃ¬ngĠ nÃ¨iĠ
Ġ hÄģĠ
ĠbÃ¹ĠtÃ³ng ĠdeĠ
Ġ 9
wÃ¹ ĠlÇĲĠ
Ġ mÃ²
duÅį ĠdeĠ
shÃ¹ ĠwÃ¨iĠ
ĠdÃłiĠ biÇİo
biÇİo ĠxiÃłnĠ
ĠshÃ¬ĠjiÃ¨ ĠdÃłĠ
Ġ yÃłoĠ
shÄĽng ĠjÃŃĠ
fÇİĠ lÇľĠ
miÃ¡o ĠshÃ¹Ġ
guÄģn ĠyuÃ¡nĠ
gÃłn Ġ
jÄ«ngĠ guÃ²Ġ
Ġ Äģ
Ġ lÃºĠ
bÃł Ġ
chÄģng Ġ
ĠzuÃ¬ ĠhÃ²uĠ
ĠyÃ¬Ġ bÄģnĠ
pÃ²Ġ huÃłi
ĠguÃ³Ġ jiÄģ
yÃŃng ĠdÃ©Ġ
ĠsuÃŃ ĠhÃ²uĠ
cÃłi Ġ
zhÃ¨ng ĠzÃłiĠ
bÄģoĠ hÃ¡nĠ
ĠshÃ¬Ġ jiÃłn
bÃ³ĠwÃ¹Ġ guÇİnĠ
ĠgÅįngĠ jÄ«Ġ
21 Ġ
shÃ¨n Ġ
cÃ¨ ĠshÃ¬Ġ
chÇİng ĠdeĠ
ĠwÃ¨iĠ zhÅįngĠ
ĠlÃ¬Ġ yÃ²ngĠ
bÃ¹ ĠhÃ©Ġ
nÃ¡ Ġ
zÃ© ĠshÃ¬Ġ
Ġ chÃ¡oĠ
niÃ¨ Ġ
fÄĵi ĠjÄ«Ġ
ĠfÄĵn ĠbÃ¹ĠyÃºĠ
chÃºn Ġ
zhuÄģnĠ yÃ¨Ġ
shÇĲ ĠdeĠ
zhÄĵng ĠyÃ¬Ġ
27 ĠrÃ¬Ġ
16 ĠrÃ¬Ġ
fÇİĠ yuÃłnĠ
ĠsuÄ« ĠrÃ¡n
Ġ 2001ĠniÃ¡nĠ
ĠdÃ¬Ġ qÅ«
21 ĠrÃ¬Ġ
yÃ¬ ĠshÃŃĠ
yÅįng Ġ
17 ĠrÃ¬Ġ
zÄģo ĠdÃłoĠ
ĠshÃ¬Ġ yÃ¬Ġ
ĠshÄĵngĠ huÃ³Ġ
t Ġ
12 ĠrÃ¬Ġ
Ġ chÃ³ngĠ
ĠbÃ¨iĠ chÄĵngĠwÃ©iĠ
dÃ¬ng ĠyÃ¬Ġ
ĠzhÅįngĠ xÄ«n
ĠdÃłĠ qÅ«Ġ
8 ĠrÃ¬Ġ
zÅįng ĠhÃ©Ġ
ĠzhÃłnĠ zhÄĵngĠ
d Ġ
xuÃ© ĠdeĠ
ĠxiÃłn ĠshÃŃĠ
ĠĠĠ D
ĠzhÅįngĠ gÃ²ng
19 ĠrÃ¬Ġ
jÃŃ ĠwÃ¨iĠ
sÅįu Ġ
23 ĠrÃ¬Ġ
2021 ĠniÃ¡nĠ
huÃ¡ng ĠdÃ¬Ġ
ĠdeĠ zuÃ²Ġ
zhÇĲ ĠshÃ¬Ġ
2022 ĠniÃ¡nĠ
11 ĠrÃ¬Ġ
ÄģĠ lÄģĠ
Åįu ĠzhÅįu
jiÄģng ĠqÃŃĠ
Ġ zhÅ«Ġ
ĠbÃ¬ng ĠbÃ¹Ġ
yuÃ¡n ĠyÃºĠ
fÄģngĠ xiÃłngĠ
liÃ¹ ĠniÃ¡nĠ
zhÃłn ĠdeĠ
Ã©Ġ luÃ³Ġ
ĠĠĠ yÃºĠ
chÅ« ĠxiÃłnĠ
quÃ¡n ĠlÃ¬Ġ
nÇİo Ġ
liÃ¨Ġ chÄĵ
guÄ«Ġ mÃ³Ġ
22 ĠrÃ¬Ġ
7 ĠrÃ¬Ġ
29 ĠrÃ¬Ġ
liÃ¨ ĠdeĠ
zuÃ¬Ġ dÃłĠdeĠ
duÅįĠ shÃ¹Ġ
xiÃłng ĠdeĠ
Ġ cÃ¬
xÅ«Ġ yÃło
hÃ¡i ĠshÃ¬Ġ
Ġ lÃ³ngĠ
yÃ¹ ĠdeĠ
nÃ©ngĠ gÃ²uĠ
yuÄĵĠ hÃłnĠ
ĠĠĠ cÇĲĠ
ĠzhÃ¨Ġ xiÄĵ
dÃ¬ng ĠwÃ¨iĠ
9 ĠrÃ¬Ġ
tÇĴng ĠjÃ¬Ġ
ĠxiÄģngĠ gÇİng
Ġ zÇĶĠ
sÄģng Ġ
ĠĠĠ zhÃ¨ngĠzhÃ¬Ġ
ĠzÃłiĠ zhÃ¨Ġ
xÃ¬n ĠxÄ«Ġ
liÃ¡nĠ mÃ©ng
yÃłng ĠdeĠ
ĠxiÃłn ĠzhÃ¬Ġ
gÅįng ĠdeĠ
jÇĶĠ bÃłn
qiÃº ĠduÃ¬Ġ
hÅįng Ġ
ĠfÄĵnĠ biÃ©
de ĠĠĠ
chÃ¡ ĠdeĠ
14 ĠrÃ¬Ġ
lÃ¬ng ĠyÄ«Ġ
chÃ¡ng ĠshÃ¬Ġ
y Ġ
mÄĽiĠguÃ³Ġ rÃ©nĠkÇĴuĠpÇĶĠ
Ġ zhÄģng
5 ĠrÃ¬Ġ
niÇĶĠ yuÄĵ
zÇĶ ĠhÃ©Ġ
ĠhuÃ² ĠdÃ©
Ġ lÃ¹
Ġ 10
lÃŃn ĠshÃŃĠ
3 ĠrÃ¬Ġ
31 ĠrÃ¬Ġ
ĠzhÅįngĠ bÃ¹Ġ
wÃ¨i ĠshÃ¬Ġ
dÇĴng ĠshÃ¬Ġ
jÄ« ĠdÃ¬Ġ
gÄĵĠ shÇĴuĠ
dÅįngĠ nÃ¡nĠ
hÇİiĠ bÃ¡
bÄģng ĠzhÃ¹Ġ
ĠdeĠshÃ¬Ġ zhÃ¨nĠ
ĠĠĠ zhÅįngĠ
Ġ rÃ¹Ġ
6 ĠrÃ¬Ġ
mÃ³u Ġ
pÄģi ĠshÃ¨Ġ
Ġ bÃłoĠ
Ġ huÃ¡Ġ
Ġ gÃ²ngĠ
ĠyÃ¬Ġ dÃłĠlÃ¬Ġ
2000 ĠniÃ¡nĠ
ĠshÃ¨ ĠlÃ¬Ġ
2 ĠrÃ¬Ġ
Ġ liÃº
ĠyÃ¬Ġ bÄģn
ĠrÃ©nĠ kÇĴu
gÃ¨ ĠrÃ©nĠ
shÃ¨ ĠyÇĴuĠ
ĠdeĠ zhÅįngĠ
4 ĠrÃ¬Ġ
Ġ 4Ġ
30 Ġ
shÄĵngĠ yÃ¡Ġ
Ġ O
yuÃ¡n ĠhÃ©Ġ
2004 ĠniÃ¡nĠ
ĠdÃ¬Ġ qÅ«ĠdeĠ
ĠxuÃ©Ġ shÄĵngĠ
Ġ dÇİoĠzhÃ¬Ġ
tiÄĽĠ lÃ¹
zÃº ĠqiÃº
zÇİo ĠqÄ«Ġ
ĠqÃŃ ĠtÄģ
fÃ©ng Ġ
cÄģng Ġ
B Ġ
13 ĠrÃ¬Ġ
al ĠĠĠ
xiÅįng ĠdÃ¬Ġ
shÄĵng ĠzÃłiĠ
dÅįngĠ bÄĽiĠ
mÃ¹ ĠdÃ¬Ġ
tÅįngĠ chÃ¡ngĠ
huÄ« ĠfÃ¹Ġ
ruÇİn Ġ
Ġ wÇĴ
ĠshÃ¬Ġ chÇİngĠ
ĠxuÃ©Ġ yuÃłnĠ
ĠzhÃ¨ ĠyÄ«Ġ
shÄģo Ġ
shÄĵnĠ fÃ¨nĠ
ĠĠĠ yÃ³uĠyÃºĠ
qÇĶ ĠdÃłiĠ
gÃ©Ġ mÃ¬ng
zhÇĲĠ huÄ«Ġ
qÃŃngĠkuÃłng ĠxiÃłĠ
Ġ mÃ©iĠyÇĴuĠ
sÅ«Ġ liÃ¡nĠ
Ġ biÃłnĠ
yÃŃ ĠbÃ¹Ġ
Ġ fÃ¹
xiÃ© ĠyÃ¬Ġ
huÃ¡ng ĠjiÄģĠ
kÄĵ ĠjÃ¬Ġ
Ġ I
fÄģ ĠxiÃłn
bÇĲng Ġ
zhÄĽng ĠgÃ¨Ġ
Ġ hÄĵiĠ
rÃ©n ĠhÃ©Ġ
ĠgÅįngĠ chÇĲĠ
liÃ¡nĠ bÄģngĠ
yÄģo ĠqiÃº
pÃ¡ng Ġ
zhÄģn Ġ
yÄģn Ġ
chÄģo ĠjÃŃĠ
pÃ¡n Ġ
mÃło ĠyÃ¬Ġ
yuÃ¨ ĠdeĠ
zhÇİng ĠdeĠ
xuÃ©Ġ yuÃłn
fÇİnĠ yÃ¬ng
jÇĶĠ bÃłnĠ
hÃ¡ngĠ kÅįng
Ġ R
xÃŃ ĠjÄ«Ġ
cuÄ« Ġ
ĠyÄĽ ĠyÇĴuĠ
huÃł ĠhÃ©Ġ
xiÇİoĠ shuÅįĠ
ĠdÃ¬Ġ lÃ¬Ġ
guÄģnĠ fÄģngĠ
lÃ¬ ĠhÃ©Ġ
0 Ġ
nÇļĠ xÃ¬ngĠ
ĠxÄ«Ġ nÃ¡nĠ
tÃºĠ shÅ«Ġ
xiÄģn ĠhÃ²uĠ
bÃ¬Ġ yÃ¨Ġ
tÇĴng ĠyÄ«Ġ
Ġ hÄģ
Ġ shÅ«Ġ
br Ġ
Ġ gÃ¹
sÃłi ĠdeĠ
hÃ³u Ġ
ĠyÇĲĠ jÄ«ng
zÃ¡ Ġ
zÅ«n Ġ
Ġ mÃłnĠ
Ġ wÄĵi
Ġ shuÄģngĠ
Ġ quÃ¨Ġ
Ġ brĠ
ĠĠĠ E
xiÃ© ĠzhÃ¹Ġ
Ġ dÅįng
cÃ¬ ĠshÃ¬ĠjiÃ¨ĠdÃłĠ
lÇİn Ġ
ĠrÃºĠ guÇĴĠ
shÃłng ĠshÃ¬Ġ
Ġ 6Ġ
qÅ«Ġ huÃłĠ
fÄĵn ĠxÄ«Ġ
yÇĶ ĠdeĠ
ĠÄĽrĠ shÄĽngĠ
rÃ©nĠkÇĴuĠ shÃ¹ĠliÃłng
wÃ©nĠwÃ¹Ġ bÇİoĠhÃ¹Ġ
ĠhÃ©Ġ yÄ«Ġ
ĠbÃ¹Ġ nÃ©ngĠ
zÃ¬ ĠxÃŃngĠ
tÇĲng Ġ
12 Ġ
jiÄĵĠ duÃłnĠ
wÃº ĠxiÃłnĠ
guÇİngĠ bÅįĠ
Ġ bÄĽn
ĠyÇĲĠ lÃ¡iĠ
ĠxÄ«Ġ bÄģnĠ
dÄģnĠ rÃ¨n
ĠtÄģĠ cÃ©ng
chÃŃĠ xÃ¹Ġ
tÃ¡iĠ bÄĽi
Ġ wÇĶ
Ġ cÃ¡iĠ
gÃ²ngĠchÇİnĠ dÇİngĠ
guÃ³ ĠhÃ©Ġ
ĠyÇĲĠ xiÃłĠ
qÄ« ĠniÃ¡nĠ
tÃ¨ ĠdeĠ
dÇİoĠ yÇİnĠ
Ġ qiÄĽ
rÃ©ng Ġ
hÃ²u ĠyÃºĠ
fÄģĠ biÇİo
yÇİnĠ chÃłng
zhÃ¹ ĠzÃłiĠ
xiÃłĠ xiÃ¡
tiÃ¡o ĠjiÃłnĠ
Ġ qiÄĽĠ
pÃŃn ĠdÃłoĠ
ĠgÅįngĠ zuÃ²
yÃ¨ ĠdeĠ
jiÄģo ĠyÃ¬Ġ
hÇĶ Ġ
ĠzÃłiĠ cÃ¬Ġ
shÃło ĠniÃ¡nĠ
lÃłi Ġ
jiÃ©Ġ shÃ¹
ĠshÃ¬Ġ zhÅįngĠguÃ³Ġ
Ġ jiÇĶĠ
bÃło ĠdÃłoĠ
ĠrÃ©nĠkÇĴuĠmÃ¬Ġ dÃ¹ĠwÃ¨iĠ
qiÃº ĠyuÃ¡nĠ
ĠshÃ¬Ġ lÃ¬Ġ
ĠĠĠ bÃ¹Ġ
zÄģo Ġ
juÃ©Ġ sÃłiĠ
yÃ¬ngĠ yÃ²ngĠ
wÃłi ĠdeĠ
yÃ³uĠ zhÃ¨ngĠ
jiÃłn ĠlÃ¬Ġ
zÄ« ĠyuÃ¡nĠ
sÄģi ĠÄĽrĠ
Ġ yÃłĠ
ĠqÃŃ ĠhÃ²uĠ
Ġ qiÄģnĠ
zuÃ¬ ĠdÃłĠ
Ġ xÄ«
ĠbÃ¬ng ĠwÃ¨iĠ
huÃŃ ĠdÃłoĠ
cÄģo Ġ
sÃ¹Ġ dÃ¹Ġ
qÃ¬ ĠhÃ²uĠ
kÄĽĠ dÃ¡Ġ
ĠwÃ¨iĠyÃºĠ fÇİĠguÃ³Ġ
gÇİiĠ gÃ©Ġ
mÃ¬Ġ shÅ«Ġ
Ġ luÃ²Ġ
ĠyÄ«Ġ yuÃłnĠ
diÃłnĠshÃ¬Ġ jÃ¹Ġ
zhuÃłngĠ tÃłiĠ
zhÃ¹ ĠdeĠ
fÃ¨n ĠwÃ¨iĠ
ĠgÅįngĠ yÃ¨Ġ
wÇİng ĠzhÃłnĠ
Ġ zhÃłoĠ
gÅįngĠ sÄ«Ġ
Ġ W
jiÃ©Ġ guÇĴĠ
suÇĴĠ shÇĶĠdeĠ
ĠdeĠdÃ¬Ġ yÄ«Ġ
Ġ jiÄĽĠ
ĠĠĠ L
Ġ lÃ¡nĠ
hÃº ĠnÃ¡nĠ
ĠyÄ«Ġ sÄ«Ġ
Ġ mÃłi
yÃł ĠlÃ¬Ġ
ĠwÃ¨iĠ yÄ«Ġ
shÃłngĠ hÇİi
20 ĠshÃ¬ĠjÃ¬Ġ
jiÃ© ĠhÃ©Ġ
ĠzhÃ¨Ġ ge
ĠzuÃ²Ġ pÇĲnĠ
zuÇĴ ĠyÃ²uĠ
xiÇİo ĠxuÃ©Ġ
shÃ¨ng ĠlÃ¬Ġ
ĠzhÅįngĠ gÃ²ngĠ
shÇĴuĠ cÃ¬
U Ġ
ĠhÃło ĠxiÃłnĠ
zhÃ¨nĠ qÅ«Ġ
ĠdeĠ fÃ¹Ġ
kÄģiĠ fÄģ
wÃ©n ĠmÃŃngĠ
ĠjiÇİnĠ chÄĵngĠ
ĠsuÇĴ ĠyÇĴuĠ
yÃŃ ĠzhÃ¬Ġ
jiÃło ĠhuÃ¬Ġ
shÄĽngĠ fÃ¨nĠ
zhÇİnĠ kÄģiĠ
yÃ¬nĠ dÃ¹
shÃŃĠ qÄ«Ġ
Ġ fÇİĠguÃ³Ġ
lÇĲngĠ dÇİo
mÃ¹Ġ biÄģoĠ
ĠÃ©r ĠshÃ¬Ġ
gÄģo ĠjÃŃĠ
zhÇĶn ĠbÃ¨iĠ
wÇİngĠ luÃ²Ġ
ĠmÄĽi ĠyuÃ¡nĠ
ĠjiÃłn ĠshÃ¨Ġ
xÃ¹nĠ liÃłnĠ
fÄģĠ biÇİoĠ
kÄĵ ĠdeĠ
ĠrÃ©nĠ wÃ¹Ġ
xuÇİnĠ shÇĴuĠ
jiÄģoĠ tÅįng
Ġ fÄĵi
hÇİo ĠdeĠ
zÃ¬Ġ rÃ¡nĠ
zhÃ²ngĠyÃło ĠdeĠ
dÅįngĠ jÄ«ngĠ
chÇİnĠ pÇĲnĠ
gÃ²ngĠyÇĴuĠ rÃ©nĠkÇĴuĠ
ĠxiÃłnĠ dÃłiĠ
ĠyÄ«Ġ mÃŃngĠ
Ġ jiÇİĠ
ĠxÄ«Ġ bÄĽiĠ
fÄĵngĠ gÃ©Ġ
ĠchÃ©ngĠ jÃ¬Ġ
lÄĽi Ġ
ĠhÃ©Ġ dÃ¬Ġ
zÃ²u Ġ
xiÇİoĠxÃŃngĠ xÄ«ngĠ
yÃ¡nĠ zhÃ²ngĠ
juÇİn Ġ
zi ĠdeĠ
mÃ¹Ġ qiÃ¡nĠ
wÃ©nĠwÃ¹ĠbÇİoĠhÃ¹Ġ dÄģnĠwÃ¨iĠ
liÃº ĠxÃŃngĠ
ĠjÄ«Ġ chÇİngĠ
ĠĠĠ K
biÃłn ĠchÃ©ngĠ
qiÃ¡o ĠzhÃ¬Ġ
miÃ¨ Ġ
Ġ guÄģngĠ
lÃ¨iĠ sÃ¬
diÃłnĠshÃ¬Ġ tÃ¡iĠ
jiÄĽ ĠshÃ¬Ġ
guÃ³Ġ mÃŃnĠ
ĠyÃ¬Ġ qÇĲĠ
Ġ yÇĴngĠ
kÄģiĠ fÃłngĠ
Ġ mÃłiĠ
Ġ shÃ¨nĠzhÃ¬Ġ
Ġ dÄģnĠrÃ¨nĠ
ĠxiÃłĠ lÃ¬ng
Ġ yÃŃĠgÃ¨Ġ
kÇİ ĠÄĽrĠ
2003 ĠniÃ¡nĠ
xÃŃng ĠshÃ¬Ġ
dÅįu ĠyÇĴuĠ
2002 ĠniÃ¡nĠ
Ġ chÃºĠleĠ
zhÄ« ĠhÃ²uĠ
huÃ¬ ĠhÃ©Ġ
mÄĽi ĠpÃŃngĠfÄģngĠgÅįngĠlÇĲĠ
ĠĠĠ W
rÃ¹ ĠleĠ
ĠyÄ«Ġ yÃłngĠ
ĠgÅįngĠ fÄĵnĠ
ĠshÃ¨ ĠzhÃ¬Ġ
tÃ¨Ġ zhÄĵngĠ
cÄģnĠ sÃłiĠ
ĠsÄ«Ġ jÄ«Ġ
Ġ jiÃłĠ
Ġ wÅ«Ġ
rÃº ĠxiÃłĠ
zhÄĵn ĠduÃ¬Ġ
zhÃ¨Ġ geĠ
jiÃ¹ ĠshÃ¬ĠzhÃ¨nĠ
ĠshÃ¬Ġ fÇĴu
ĠshÃŃĠ jiÄģn
gÄģo ĠzhÅįngĠ
ĠcÇĲ ĠhÃ²uĠ
bÃłng Ġ
bÃ¬Ġ xÅ«Ġ
ĠzÃłiĠ zhÅįngĠ
wÃ¡ng ĠguÃ³Ġ
bÇĲĠ jiÃłoĠ
Ġ 00
Ã¨r ĠshÃ¬Ġ
wÃłiĠ jiÄģo
guÄ«Ġ huÃłĠ
diÄģo Ġ
ĠyÃ¬Ġ zhÃ¬Ġ
lÃ¨iĠ sÃ¬Ġ
shÄģnĠ dÅįngĠ
ĠrÃ¡n ĠhÃ²uĠ
Ġ yÇĶ
ĠyÃ¬Ġ zhÃŃ
ĠlÃ¬Ġ shÇĶĠyÃºĠ
yuÃ¡n ĠshÃ¬Ġ
duÃ¬ ĠzÃłiĠ
zhÃ¹ ĠmÃŃngĠ
yÃºn ĠnÃ¡nĠ
hÄĽn ĠduÅįĠ
ĠÄĽr ĠdeĠ
huÃ² ĠdÃ©
shÄĵngĠ chÇİnĠ
Ġ dÄĽng
ĠĠĠ gÅįngĠ
zhÃłn ĠyÃ¬Ġ
ĠsuÄ« ĠrÃ¡nĠ
Ġ chÄĵĠ
Ġ bÄĽi
diÃłnĠ ziĠ
Ġ biÇİoĠshÃ¬Ġ
zhÃ²ng ĠdeĠ
Ġ shÄģngĠ
ĠjiÃłn ĠzhÃ¬Ġ
ĠĠĠ dÃłĠ
xÄ«n ĠjiÄģĠ
lÃ¡iĠ zÃ¬
Ġ tÃºĠ
zhÃ¬Ġ zuÃ²Ġ
shÄģn ĠxÄ«Ġ
rÃ©nĠkÇĴuĠshÃ¹ĠliÃłng ĠwÃ¨iĠrÃ©nĠ
jÃ¹ ĠjÃŃĠ
ĠdeĠyÄ«Ġ zhÇĴngĠ
Ġ gÇĶ
ĠdeĠ mÃŃngĠ
Ġ zÇĶ
jÃŃ ĠhÃ©Ġ
ĠxÄ«Ġ yÃł
lÇļ ĠyÃ³uĠ
ĠzhÃ¬Ġ zÃłoĠ
ĠxÃŃngĠ wÃ©iĠ
mÇİĠ lÃ¡i
Ġ rÃ¨n
bÃłoĠ fÄģĠ
nÇļ ĠÃ©rĠ
Ġ INSEE
tÃło Ġ
zÇĴng ĠlÇĲĠ
quÃ¡n ĠqiÃºĠ
sÄ« ĠhÃ©Ġ
ĠdeĠ zhÇĶĠ
ĠshÃłngĠ hÇİiĠ
sÃłi ĠzhÅįngĠ
fÄģ ĠshÃ¨Ġ
ruÃ¬ ĠshÃ¬Ġ
Ġ duÃ¬ĠyÃºĠ
bÄģoĠ hÃ¡n
nÃ³ngĠ yÃ¨Ġ
yÃ¨Ġ wÃ¹Ġ
tÃ³uĠ zÄ«Ġ
lÃ¹ ĠjÅ«nĠ
wÃ¹ ĠzhÃ¬Ġ
juÃ© ĠdeĠ
nÃłi Ġ
tÃ¨Ġ biÃ©Ġ
ĠjÃ¬n ĠshÃ¬Ġ
ĠdeĠshÃŃĠ hÃ²uĠ
ÃłoĠlÃŃnĠpÇĲĠkÃ¨Ġ yÃ¹nĠdÃ²ngĠhuÃ¬Ġ
gÃ© ĠdeĠ
ĠzhÃ¬Ġ jÄ«nĠ
fÄģngĠ ÃłnĠ
sÄ« ĠrÃ©nĠ
huÃłĠ xuÃ©Ġ
ĠtÃ¨Ġ biÃ©
ĠdÃłĠ liÃłngĠ
jÃŃ ĠshÃ¬Ġ
mÇĲn Ġ
kÄĽĠnÃ©ng ĠshÃ¬Ġ
Ġ nÃŃĠ
T Ġ
chÃł Ġ
ĠniÃ¡nĠ dÃ¹Ġ
liÃ¡nĠ jiÄĵĠ
jÃ¬n ĠdeĠ
ĠzhÄ«Ġ wÃłiĠ
sÃ¬ ĠshÃŃĠ
cÃ¡o Ġ
fÄģĠ dÃ²ngĠ
Ġ V
qiÇİn Ġ
ĠĠĠ O
ĠĠĠ R
xuÇİn ĠwÃ¨iĠ
ĠshÃ¨Ġ shÄ«Ġ
chÃ¹ ĠdeĠ
tÇĶ ĠÄĽr
ĠlÃ¬Ġ sÄ«Ġ
bÃ³Ġ tÃ¨Ġ
ĠzÇĴngĠ miÃłnĠjÄ«Ġ
luÃ³Ġ mÇİ
chuÃłng ĠlÃ¬Ġ
ĠdeĠ lÃ¬Ġ
Ġ gÃ¨ngĠ
ĠniÃ¡nĠ hÃ²uĠ
ĠdÃ© ĠlÇĲĠ
guÇİngĠ chÇİngĠ
liÃ¡n ĠhÃ©ĠguÃ³Ġ
jÃŃ ĠshÃŃĠ
gÄĵngĠ mÃŃngĠwÃ¨iĠ
zÇİo ĠniÃ¡nĠ
Ġ 11
xiÃło ĠlÃ¬Ġ
qÃ¬ ĠdeĠ
biÇİoĠ yÇİnĠ
Ġ zhÃ¨ngĠshÃ¬Ġ
yÃŃ ĠshÃ¬Ġ
ĠjÅ«n ĠzÃłiĠ
fÄģngĠ miÃłn
juÃ©Ġ dÃ¬ng
ĠgÄģiĠ shÄĽngĠ
Ġ zhÄĵnĠ
rÃ©ng ĠrÃ¡nĠ
dÄģ Ġ
zhÃ¬ ĠshÃ¬Ġ
ĠgÅįngĠ nÃ©ngĠ
zÇĴngĠ tÇĴng
ĠrÃ©nĠkÇĴuĠmÃ¬ĠdÃ¹Ġ mÄĽiĠpÃŃngĠfÄģngĠgÅįngĠlÇĲĠ
ĠrÃ©nĠkÇĴuĠmÃ¬ĠdÃ¹ĠwÃ¨iĠ mÄĽi
ĠxiÃłĠlÃ¬ng ĠshÃŃĠ
yÃ³uĠzhÃ¨ngĠ biÄģnĠmÇİĠwÃ¨iĠ
o Ġ
chÃ¡ĠdeĠ shÃ¹ĠjÃ¹Ġ
ĠjÃ¹Ġ lÃ¨ĠbÃ¹Ġ
ĠshÃ¬ĠzhÃ¨nĠ biÄģnĠmÇİĠwÃ¨iĠ
ĠINSEE ĠshÃ¬ĠzhÃ¨nĠbiÄģnĠmÇİĠwÃ¨iĠ
Ġ xiÄģnĠ
ĠĠĠ bÃ¨iĠ
biÄģoĠ zhÇĶn
Ġ hÃ¡nĠ
ĠshÃ¨ ĠdeĠ
xuÇİnĠ qÅ«ĠwÃ¨iĠ
ĠzÃłiĠ cÇĲĠ
ĠbÃ¹Ġ guÃ²
pÃ¡i ĠmÃŃngĠ
ĠguÃ³Ġ wÃ¡ngĠ
dÃ²ng ĠlÃ¬Ġ
shÃŃĠdeĠ rÃ©nĠkÇĴuĠshÃ¹ĠliÃłngĠwÃ¨iĠrÃ©nĠ
ĠfÄĵn ĠzhÅįngĠ
2023 ĠniÃ¡nĠ
jiÄĵĠrÇİng ĠdeĠshÃ¬ĠzhÃ¨nĠ
mÄĽiĠguÃ³ĠrÃ©nĠkÇĴuĠpÇĶĠ chÃ¡ĠdeĠshÃ¹ĠjÃ¹Ġ
cÃ³ng ĠshÃ¬Ġ
er Ġ
jiÄģ ĠlÃ¬Ġ
ĠÃ©r ĠrÃ©nĠkÇĴuĠmÃ¬ĠdÃ¹ĠwÃ¨iĠmÄĽi
gÃ©Ġ lÃ¡n
ĠdÄģngĠdÃ¬Ġ gÃ²ngĠyÇĴuĠrÃ©nĠkÇĴuĠ
jiÄĽĠ juÃ©Ġ
Ġ xiÃłng
fÄĵnĠ lÃ¨iĠ
zÃº ĠdeĠ
liÃ¡nĠ bÄģng
3 ĠniÃ¡nĠ
shÇĲĠyÃ²ng ĠdeĠ
Ġ xiÄģoĠ
dÃł ĠbÃ¹ĠfÃ¨n
yÄ«Ġ zhÇĴngĠ
lÇĲng ĠyÃ¹Ġ
ĠhuÃ²Ġ jiÃ¹ĠshÃ¬ĠzhÃ¨nĠ
hÃ© ĠshÃ¬Ġ
ĠĠĠ lÃ¬Ġ
ĠchÅ«Ġ bÇİnĠ
gÅįu Ġ
yÃ¹nĠ yÃŃngĠ
shÄĽngĠjÃŃĠ xuÇİnĠqÅ«ĠwÃ¨iĠ
jÄ« ĠjÃŃĠ
ĠdeĠ yÄ«ĠbÃ¹ĠfÃ¨nĠ
C Ġ
S Ġ
Ġ jiÇİngĠ
shÃŃ ĠshÃ¬Ġ
Ã©rĠ ziĠ
jiÇĶ ĠniÃ¡nĠ
zuÃ²Ġ pÇĲn
xuÇİn ĠrÃ©nĠ
gÃłiĠ niÃłnĠ
xÄ«ng ĠdeĠ
ĠÄĽr ĠdÃ©Ġ
shÄĽng ĠhÃ©Ġ
jiÄĵĠ shÃ²u
tiÃ¡oĠ yuÄĵĠ
ĠjÇĲnĠ guÇİnĠ
fÃ¨nĠwÃ¨iĠ fÇİĠguÃ³Ġ
ĠgÄģiĠshÄĽngĠ fÃ¨nĠwÃ¨iĠfÇİĠguÃ³Ġ
ĠchÅ«Ġ bÇİn
ĠzhÄ« ĠxiÃłnĠ
tiÄĽ ĠdÃłoĠ
Ġ qÄ«ng
ĠdÃ¬Ġ sÄģn
Ġ sÃ²ngĠ
ĠjÅ«nĠ duÃ¬Ġ
guÇİng ĠzhÅįuĠ
ĠbÃ¹Ġ jiÇĶĠ
Ãło ĠdÃłĠlÃ¬Ġ
ĠwÃ¨iĠ shÃŃĠ
ĠxÄ«Ġ lÃł
Ġ kÄģiĠshÇĲĠ
fÃº ĠjiÃłnĠ
ĠhÃ©Ġ bÃ¬ng
E Ġ
zhÃłnĠ zhÄĵng
ĠyÇĴuĠ rÃ©nĠ
pÃ¡iĠ mÃŃng
Ġ duÃ¬
zhÃłn ĠshÃ¬Ġ
jÇĲnĠbiÄģoĠ sÃłiĠ
Ġ J
ĠniÃ¡nĠ chÅ«Ġ
zuÃ¬Ġ hÃ²uĠyÄ«Ġ
jÇĲngĠ chÃ¡Ġ
qÃºnĠ dÇİoĠ
lÃ¡i ĠyuÃ¡nĠ
i Ġ
tÃ¨Ġ biÃ©
e ĠĠĠ
ĠtÄģĠ bÃ¨iĠ
ĠÃ©rĠ qiÄĽĠ
xÄ«ng ĠjiÃłnĠ
ĠwÃłn ĠrÃ©nĠ
rÃ©ng ĠrÃ¡n
bÄģ ĠniÃ¡nĠ
ĠchÅ«Ġ shÄĵngĠyÃºĠ
shÃ¨ ĠlÃ¬Ġ
y ĠĠĠ
F Ġ
4 ĠniÃ¡nĠ
Ġ ruÃ²Ġ
dÃ¬Ġ yÄ«Ġ
ĠrÃ¬ ĠdeĠ
lÃºnĠ dÅ«n
bÄĽn ĠdeĠ
wÄĽi ĠhuÃ¬Ġ
X Ġ
Ġ yÃ¬ĠwÃ¨iĠ
ĠyÃ³uĠ xÃ¬
ĠrÃ©nĠ gÅįngĠ
xuÃ©Ġ xiÃło
shÇİn ĠxÄ«Ġ
tÅįngĠ chÃ¡ng
ĠzhÃ¬Ġ yÃºĠ
Ġ gÃ¨ng
liÃ¨ ĠwÃ¨iĠ
ĠbÃ¹Ġ mÃŃngĠ
cÃ©ng ĠzÃłiĠ
mÇĶ ĠsÄ«Ġ
ĠmÃŃngĠ chÃ¡oĠ
tiÄģnĠ wÃ©nĠ
yÃ¹n ĠxÃŃngĠ
Ġ Ã©Ġ
cÇİiĠ yÃ²ng
ĠdÃ¬Ġ sÃ¬Ġ
Ã¡ng Ġ
rÃ²u Ġ
yÃ¡nĠjiÅ« ĠsuÇĴĠ
guÇİngĠ fÃłnĠ
ĠĠĠ 18
Ãło ĠsÄ«Ġ
ĠxiÃłnĠ lÃ¹Ġ
mÄĽi ĠzhÅįuĠ
mÃ©ngĠ gÇĶĠ
ĠshÃ¬Ġ bÃ¹Ġ
gÇİnĠ rÇİnĠ
yÇĲ ĠjÃŃĠ
ĠhÃ©Ġ pÃŃngĠ
huÃł ĠshÃŃĠ
jiÄģĠ rÃ¹Ġ
Ġ fÃłnĠ
zhÃłn ĠhÃ²uĠ
ĠĠĠ tÄģ
Ġ jiÄģoĠ
nÃ¡n ĠjÃŃĠ
shuÅįĠ fÇİĠ
xÄ« ĠzÃłiĠ
ĠjÃ¬n ĠdeĠ
ĠrÃ¨nĠ wÃ©i
k Ġ
ĠjÄ«Ġ bÄĽnĠ
ĠjÃ¹Ġ lÃŃĠ
Ġ fÃ¨iĠ
Ġ dÃŃĠ
P Ġ
mÃ³ ĠxÃŃngĠ
guÃ²Ġ chÃ©ngĠzhÅįngĠ
ĠdeĠdÃ¬Ġ fÄģngĠ
wÃº ĠrÃ©nĠ
ĠdeĠ xÄ«nĠ
jÃ¬Ġ shÃ¹Ġ
Ġ rÃłng
ĠjiÃłn ĠyÃ¬Ġ
Ġ dÃ¡Ġ
ĠtÄģ ĠyÇĶĠ
yÃ¹nĠ shÅ«Ġ
gÃ²uĠ mÇİi
wÃ¡n ĠquÃ¡n
wÇĶ ĠshÃŃĠ
ĠkÃ¨ ĠdeĠ
rÃ¨nĠwÃ©i ĠshÃ¬Ġ
ĠzÃłiĠ yÃ¬Ġ
ĠgÃ¨ ĠdÃ¬Ġ
2 ĠniÃ¡nĠ
Ġ chÃ©n
bÃłnĠ gÅįngĠshÃ¬Ġ
Ġ cÄģnĠ
Ġ 10ĠyuÃ¨Ġ
tÃ³ng ĠyÄ«Ġ
duÅį ĠgÃ¨Ġ
wÃłi ĠguÃ³Ġ
ĠzÇĴng ĠrÃ©nĠkÇĴuĠ
ĠĠĠof ĠĠĠ
xuÃ© ĠshÃ¬Ġ
shÃłng ĠyÇĴuĠ
Ġ shÃ²u
yuÃ¡n ĠwÃ¨iĠ
Ġ shÇĲĠyÃ²ngĠ
jiÃłĠ zhÃŃĠ
gÅįngĠ zuÃ²Ġ
ĠzÃ¬Ġ jÇĲĠ
nÃŃ ĠsÄ«Ġ
ĠzÃłiĠ zhÅįngĠguÃ³Ġ
xuÃ©Ġ xÃŃĠ
zhÇİo Ġ
fÄĵi ĠxÃŃngĠ
yÇİngĠ huÃłĠ
quÄģn Ġ
Ġ Äģi
xuÄģnĠ chuÃ¡nĠ
mÃ² ĠxÄ«Ġ
ĠyÄ«Ġ xiÄĵ
xuÇİnĠ zÃ©
chÄĵng ĠwÃ¨iĠ
xiÄģo ĠxÄ«Ġ
ĠxiÃłn ĠrÃ©nĠ
ĠdeĠ guÄģnĠ
Ġ xÄ«ngĠ
hÇİi ĠjÅ«n
biÄģo ĠzhÃ¬Ġ
ĠbÃ¹Ġ mÃ©nĠ
zhÃ¬ ĠwÃ¨iĠ
qÇĲĠ lÃ¡iĠ
ĠĠĠ V
yÃ³uĠ xÃ¬
mÃ¡ Ġ
huÃ¡nĠ jÃ¬ng
fÃ¹ĠzÃ©Ġ guÇİnĠxiÃ¡Ġ
xÃ¬Ġ bÄģoĠ
19 Ġ
ĠwÃ©iĠ zhÇĶĠ
jiÃ¨ ĠquÃ¡nĠguÃ³Ġ
gÃ²u ĠchÃ©ngĠ
shÄ« ĠdeĠ
chÄĵĠ liÃłngĠ
ĠĠĠ yÇĲĠ
zhÃ© ĠxuÃ©Ġ
kÄĵng Ġ
ĠjÃ¬Ġ huÃł
Ġ ÃłnĠ
sÄ« ĠzÃłiĠ
Ġ kÄĵ
zhÃ¨ng ĠdeĠ
Ġ lÃŃn
Äģn ĠquÃ¡n
dÇİng ĠdeĠ
bÇĲ ĠdÃ©Ġ
ĠdÃłoĠ lÃ¹Ġ
chÃ¡oĠ xiÄģnĠ
ĠÃ©rĠ qiÄĽ
Ġ dÇİĠ
yÃŃnĠ hÃ¡ng
on Ġ
ĠyÄ«ngĠ chÇĲĠ
xÄ« ĠdeĠ
ĠshÃ¬Ġ mÄĽiĠguÃ³Ġ
ĠshÃ¬Ġ tÃºĠ
Ġ huÄģĠ
zhÅįng ĠzÃłiĠ
ĠjÃ¬Ġ niÃłnĠ
zhÇĶĠ juÃ©Ġ
Ġ Ã¨r
x Ġ
Ãłn ĠdeĠ
sÃ¬Ġ chuÄģnĠ
bÃ¹ ĠwÃ¨iĠ
ĠjÃŃĠ qÃŃĠ
pÃ©ng ĠyÇĴuĠ
1999 ĠniÃ¡nĠ
chÃŃĠ xÃ¹
24 Ġ
Ãłi ĠÄĽrĠ
g Ġ
ĠĠĠ yÇĴuĠ
ĠgÅįngĠ gÃ²ngĠ
ĠzhÄ«Ġ chÃŃ
kÃłng ĠyÃ¬Ġ
yuÄĵ ĠwÃ¨iĠ
tÃłi ĠguÃ³Ġ
Ġ dÅįuĠ
Ġ fÇİnĠ
jiÄĵ ĠwÃ¨iĠ
xuÇİnĠ qÅ«Ġ
ĠĠĠ hÃ©Ġ
shÃŃ ĠzÃłiĠ
yÃ¬ ĠhÃ©Ġ
huÃ¬ ĠyÇĴuĠ
shÄĵngĠ wÃ¹Ġ
xiÃłoĠ zhÇİngĠ
wÃ©n ĠjiÃłnĠ
Ġ tÃ¡iĠwÄģn
ĠbÃ¨iĠ ÄĽrĠ
gÄĵĠ qÇĶ
shÅįuĠ rÃ¹Ġ
ĠjiÃ© ĠzhÃ¬Ġ
biÄģo ĠwÃ¨iĠ
fÃ³ ĠjiÃłoĠ
rÃ³ng ĠyÃ¬Ġ
Ġ jiÃ¨
ĠĠĠ shÃŃĠ
ÃłoĠ yÃ¹n
ĠĠĠ chÄĵĠzhÃłnĠ
ĠshÄĵngĠ wÃ¹Ġ
suÇĴĠshÇĶĠdeĠ shÄĽngĠjÃŃĠxuÇİnĠqÅ«ĠwÃ¨iĠ
yÇİn ĠdeĠ
biÄģn ĠjÃŃĠ
ĠyuÃ¡nĠ zhÃ¹Ġ
ĠzhÃłnĠ zhÄĵng
sÄ« ĠdÃ¬Ġ
yÄĽ ĠyÇĴuĠ
qiÃłn Ġ
qiÃ¡nĠ wÇİng
Ġ qiÃ¡ngĠ
yÇĶĠ yÃ¡nĠ
zhÃ¨ngĠ cÃ¨Ġ
Ġ ruÃ²
jÃ¬ ĠzhÅįngĠ
mÇĲ ĠÄĽrĠ
jÅ«n ĠduÃ¬Ġ
jiÄĽĠfÃłng ĠjÅ«nĠ
tiÇİo ĠzhÃłnĠ
ĠchÅ«Ġ leĠ
ĠyÃ²uĠ chÄĵngĠ
ÃłoĠ yÃ¹nĠ
ĠzhÃ¬Ġ dÃ¹Ġ
Ġ chÇİngĠ
gÄģo ĠyÃºĠ
ĠshÃ¬Ġ yÃŃĠgÃ¨
ĠhuÃ² ĠshÃ¬Ġ
mÃłnĠ huÃłĠ
gÇİn ĠdÃłoĠ
nÃ¡nĠ xÃ¬ngĠ
7 ĠniÃ¡nĠ
kÅ«n Ġ
ĠyÇĲĠ shÃłngĠ
gÇİiĠ biÃłnĠ
mÇİ ĠlÃ¬Ġ
ĠĠĠ 2021
ĠdÃ¬Ġ xiÃłĠ
fÃ³ Ġ
jiÄĵĠrÇİng Ġ
pÃ¨i ĠhÃ©Ġ
tÃ³uĠ rÃ¹Ġ
Ġ yÃ¹
mÄĽi ĠyuÃ¡nĠ
zhÇĲĠ huÄ«
jiÄģ ĠrÃ©nĠ
wÄĽnĠ dÃ¬ngĠ
1998 ĠniÃ¡nĠ
zhÄģ Ġ
ĠzhÅįngĠ yÇĴuĠ
ĠzÃłiĠ bÃ¹Ġ
Ġ quÃ¨
tÃŃ ĠmÃŃngĠ
dÃ¡ ĠchÃ©ngĠ
ĠyÄ«Ġ zhÇĴngĠ
Ġ yÇİnĠ
rÇĶ Ġ
nÃ¨ Ġ
mÃ² ĠsÄ«Ġ
fÄĵn ĠzhÄ«Ġ
zÃłi ĠshÃ¬Ġ
tÃ³ng ĠdeĠ
jiÇİnĠ jiÃ¨Ġ
Ġ tÅįngĠguÃ²Ġ
shÄĵnĠ fÃ¨n
tiÄģnĠ zhÇĶĠjiÃłoĠ
ĠzhÅįngĠguÃ³Ġ rÃ©nĠmÃŃnĠ
Ġ zÃ¬
biÇİo ĠmÃŃngĠ
duÃ³ ĠdeĠ
tÃŃngĠ zhÇĲĠ
Ġ hÃ¡iĠyÇĴuĠ
ĠÃ©rĠrÃ©nĠkÇĴuĠmÃ¬ĠdÃ¹ĠwÃ¨iĠmÄĽi ĠpÃŃngĠfÄģngĠqiÄģnĠmÇĲĠ
xiÇİo ĠdeĠ
Ġ tÃŃĠ
zhÃ¨ng ĠshÃŃĠ
cÃ¨ ĠdeĠ
zÃło ĠdeĠ
ĠwÃ¨iĠ fÃº
Ġ pÃŃng
juÄģn Ġ
quÃ¨Ġ zhÄĽn
2024 ĠniÃ¡nĠ
ĠjÄ«Ġ bÃłiĠ
ĠĠĠ 2020
bÃłnĠ dÇİoĠ
ĠĠĠ yuÃ¡nĠ
guÃ³ ĠzÃłiĠ
wÇĶĠ qÃ¬Ġ
ĠjiÄģĠ nÃ¡ĠdÃłĠ
ĠpÃŃngĠfÄģngĠ mÇĲĠ
zÃ¬ĠzhÃ¬Ġ qÅ«Ġ
Ġ lÃŃĠ
Ġ 8ĠyuÃ¨Ġ
lÄģ ĠkÃ¨Ġ
lÃ¨i ĠdeĠ
tÄģĠ menĠ
Ġ pÃŃĠ
hÃ¹n ĠhÃ©Ġ
ĠzÃ¬Ġ yÃ³uĠ
ĠĠĠ zÃ¬Ġ
ĠzÃłiĠ mÄĽiĠguÃ³Ġ
ĠshÃŃĠ yÃłn
zuÃ¬Ġ zÇİo
jÇĶ ĠrÃ©nĠ
tuÃ¡n ĠduÃ¬Ġ
dÃ¬ ĠshÃ¬Ġ
Ġ bÅį
kÄĽĠnÃ©ng ĠhuÃ¬Ġ
yÄģ ĠlÃ¬Ġ
quÃ¡n ĠbÃ¹Ġ
c Ġ
Ġ sÅ«
jÃ¬ ĠwÃ¨iĠ
ĠÃ©r ĠbÃ¨iĠ
p Ġ
Ġ zhuÄģnĠ
ĠjÃ¬Ġ chÃ©ngĠ
gÃ²ng ĠxiÃłnĠ
jÃ¬Ġ huÃłĠ
xÄ«ĠbÄģnĠ yÃ¡Ġ
ĠĠĠ in
ĠshÃŃĠ shÄ«Ġ
jiÃ©Ġ mÃ¹
ĠjiÃ©Ġ guÇĴĠ
ĠdÃ¬Ġ tiÄĽĠ
Ġ The
shÄĵngĠ chÇİn
lÃ¡iĠ shuÅįĠ
lÃ¬ ĠbÃ¹Ġ
zhÃ¨Ġ zhÇĴngĠ
chÇİnĠ yÃ¨Ġ
Ġ wÃ¡ng
xÃŃngĠ dÃ²ngĠ
fÄģn ĠyÃ¬Ġ
ĠqÄ«Ġ jiÄģnĠ
ĠchÅ«Ġ rÃ¨nĠ
shÇİoĠ shÃ¹Ġ
Ġ bÃ¨i
cÄģo ĠzuÃ²Ġ
jiÇİnĠ chÃ¡Ġ
bÃłn ĠshÃ¬Ġ
jiÄģĠ nÃ¡ĠdÃłĠ
yÇĲngĠ piÃłnĠ
chÅįngĠ tÅ«Ġ
ĠzÃłiĠ dÃłĠ
ĠtÄģ ĠyÃºĠ
bÇİoĠ hÃ¹
Ãłn ĠjiÃłnĠ
jÃ¬Ġ niÃłnĠ
D Ġ
chÃ³ng ĠjiÃłnĠ
shÇĴu ĠdeĠ
amp Ġ
r Ġ
cÃ©ngĠ jÄ«ngĠ
ĠjiÃłnĠ zhÃ¹
Ġ mÃ¹
ĠshÃŃĠ fÄĵnĠ
ĠshÃ¬Ġ yÇĲĠ
Ġ hÃ¡i
xÃŃng ĠwÃ©iĠ
xÄ«n ĠlÇĲĠ
gÃ²ng ĠtÃ³ng
dÃ²ng ĠdeĠ
kÅįng ĠjÅ«nĠ
nÃłn Ġ
ĠshÇĲ ĠdeĠ
bÃłn ĠgÅįngĠ
ĠzhÇĲ ĠyÇĴuĠ
Ġ mÃ©nĠ
ĠxiÃłn ĠwÃ¨iĠ
qÄ«Ġ jiÄģn
dÃł ĠbÃ¹ĠfÃ¨nĠ
ĠzhÃ¬Ġ zuÃ²
jiÃ©Ġ gÃ²u
fÄĵnĠ biÃ©Ġ
yÄģng Ġ
liÃ¡nĠ sÃłi
juÃ©Ġ sÃ¨
ĠyÃ¬Ġ yÇĴuĠ
t ĠĠĠ
Ġ Äģn
Ġ hÃ¹Ġ
ĠlÃ¬Ġ rÃº
liÃ¡nĠ xÃ¹Ġ
jÃŃ ĠzÃłiĠ
shÄĵn ĠdeĠ
ĠhÃ©Ġ bÄĽiĠ
ĠwÃ¨iĠ nÃ©ngĠ
xiÄģngĠ duÃ¬Ġ
mÃ©iĠ tÇĲ
zhÇĶĠ tÃŃĠ
Ġ chuÃ¡nĠ
jiÇİnĠ shÇİoĠ
ĠhÃ©Ġ liÃºĠ
gÅįngĠ yuÃ¡nĠ
xiÇİoĠ zÇĶĠ
tÃ²u Ġ
Ġ biÄģnĠ
ĠyÃ²u ĠmÃŃngĠ
tÃ²ng Ġ
ĠyÇĲĠ sÃ¨Ġ
fÃ¨nĠ zÇĲĠ
xiÃłn ĠdÃłiĠ
ĠshÃ¬ĠyÄ«Ġ mÃŃngĠ
ĠtÇĲĠ zhÇİngĠ
ĠĠĠ 2019
ĠxÄ«Ġ wÃłngĠ
yÃ¬ng ĠdeĠ
wÄĽiĠyuÃ¡nĠ huÃ¬
mÃ¬ngĠ mÃŃngĠwÃ¨iĠ
Åįu ĠyuÃ¡nĠ
ĠgÅįngĠ sÄ«ĠdeĠ
ĠliÇİng ĠrÃ©nĠ
yÃ¬ ĠzÃłiĠ
dÃ²ng ĠjÄ«Ġ
dÇİ ĠjÄ«Ġ
ĠdeĠdÃ¬Ġ qÅ«Ġ
zhÇİn ĠshÃ¬Ġ
an ĠĠĠ
zhÃ¨Ġ ge
zhuÃ³ Ġ
ĠzhÃŃ ĠzhÃ¬Ġ
ĠshÃ¨Ġ qÅ«Ġ
ĠjÃ¬Ġ xÃ¹
guÄ«Ġ mÃ³
shÇĴu ĠwÃ¨iĠ
xÃºnĠ huÃŃĠ
M Ġ
ĠsÄ«Ġ lÃ¬ng
shÃ¹Ġ liÃłngĠ
xiÃłĠ wÇĶĠ
1996 ĠniÃ¡nĠ
lÃ¹ĠdÃ¬Ġ miÃłnĠjÄ«ĠwÃ¨iĠ
yÃ²ngĠ lÃ¡iĠ
shuÇĲĠyÃ¹Ġ miÃłnĠjÄ«ĠwÃ¨iĠ
ĠlÃ¬Ġ jÃŃĠ
qÇĲĠ yÃ²ngĠ
lÃ¨i ĠxÃŃngĠ
rÃ¨nĠ wÃ¹Ġ
ĠguÃ³Ġ lÃ¬Ġ
ĠshÃŃĠ zÃ¬Ġ
ĠyÄ«Ġ cÃ¬Ġ
duÅįĠ cÃ¬Ġ
pÃŃngĠ jiÃłĠ
bÃ¹ ĠshÃ¬Ġ
Ġ zhÃ¨nĠ
Ġ lÃŃngĠ
Ġ 2009ĠniÃ¡nĠ
ĠdeĠ shÇĴuĠ
ĠfÃ¹Ġ jÃ¬nĠ
jÇĶ ĠxÃŃngĠdeĠ
ĠĠĠ 2018
fÃº ĠhÃ©Ġ
wÃłiĠ jiÄģoĠ
tÇĲĠ xÃ¬Ġ
ĠĠĠ and
ĠzhÃ¨Ġ jiÄģngĠ
1997 ĠniÃ¡nĠ
ĠdÃłĠ shÇĲĠ
zuÃ²Ġ jiÄģĠ
ĠshÃ¨ ĠbÃ¨iĠ
I Ġ
liÇİng ĠgÃ¨
ĠlÃ¬Ġ fÇİĠ
Ġ liÃ¨Ġ
zhÃ¹ ĠyÃ¬Ġ
Ġ ampĠ
diÃłn ĠlÃ¬Ġ
dÃ© ĠdÃłoĠ
kÃło Ġ
kuÃŃ Ġ
ĠsÄ«Ġ lÃ¬ngĠ
ĠcÃ³ng ĠÃ©rĠ
an Ġ
Ġ biÃłn
fÇİĠ lÇľ
jiÃłoĠ tÃ¡ngĠ
ĠdÄģngĠzhÅįngĠ lÃ¹ĠdÃ¬ĠmiÃłnĠjÄ«ĠwÃ¨iĠ
zhÃ¬ ĠhÃ©Ġ
zhÃŃ ĠdeĠ
ĠÃ©rĠ shuÇĲĠyÃ¹ĠmiÃłnĠjÄ«ĠwÃ¨iĠ
qÇĶĠ xiÄģoĠ
jiÃ© ĠzhÃ¬Ġ
shÄĵngĠ huÃ³
fÃºĠ wÃ¹
xuÃ©Ġ zhÄĽĠ
lÃºnĠ dÅ«nĠ
ĠĠĠ xÄ«Ġ
diÄģn Ġ
ĠĠĠ 2022
shuÇĲ ĠpÃŃngĠ
hÇİiĠ yÃ¹Ġ
nÃ¨iĠ rÃ³ng
ĠzhÄ« ĠshÃŃĠ
zhÃ¹Ġ zuÃ²Ġ
Ġ 9ĠyuÃ¨Ġ
yÄ«ngĠ gÃ©ĠlÃ¡nĠ
Ġ xiÃłoĠ
ĠdÃłĠ chÃ©nĠ
ĠchÃ©ngĠlÃ¬Ġ yÃºĠ
ĠĠĠ gÃłiĠ
tuÃ² Ġ
lÇļ ĠkÃ¨Ġ
Ġ guÇİngĠ
zhÃ¬ ĠzÃłiĠ
jiÄĵ ĠjÃ¬nĠ
ĠxÄ«nĠ wÃ©nĠ
chÃ¡ngĠ qÄ«Ġ
ĠwÃ©iĠ ÄĽrĠ
lÃ¬ngĠ wÃłiĠ
ĠĠĠxÃŃngĠzhÃ¨ngĠ qÅ«ĠhuÃłĠ
rÃ¨nĠ mÃ¬ng
gÄģoĠ sÃ¹
ĠjiÄģĠ shÃłngĠ
bÇĲĠsÃłi ĠzhÅįngĠ
yuÃłnĠ zhÇİngĠ
jÇĲ ĠyÇĶĠ
diÇİn ĠdeĠ
xÄ«Ġ yÃ¡ngĠ
ĠyÇĲĠ hÃ²uĠ
ĠjÅ«n ĠwÃ¨iĠ
mÃŃn ĠdeĠ
shuÃ² ĠshÃ¬Ġ
ĠdÃ© ĠdeĠ
wÄĵiĠ liÃ¡nĠ
wÄĽiĠ shÅ«ĠjÃ¬Ġ
ĠyÃ¬Ġ rÃ©nĠ
jiÄģ ĠhÃ©Ġ
tÃłiĠ yÃ¡ngĠ
1992 ĠniÃ¡nĠ
dÇİo ĠyÇĶĠ
pÄ«Ġ zhÇĶnĠ
dÃłi ĠyÇĴuĠ
guÅį Ġ
hÄĵng ĠlÃ¬Ġ
ĠshÃ¬Ġ yÄ«ĠwÃ¨iĠ
ĠxuÃ©Ġ xiÃło
cÄģnĠ yÃ¹
ĠwÃ¨iĠfÃº ĠqÃŃĠyÃºĠ
Ġ 7ĠyuÃ¨Ġ
6 ĠniÃ¡nĠ
cÃ¬ĠshÃ¬ĠjiÃ¨ĠdÃłĠ zhÃłnĠ
mÄĽi ĠniÃ¡nĠ
ĠshÃ¬Ġ qÅ«Ġ
fÄģ ĠchÅ«Ġ
quÃłn Ġ
xÃ¬ng ĠzhÃ¬Ġ
yÇİnĠchÃłng ĠhuÃ¬Ġ
ĠyuÃ¡nĠ yÄ«nĠ
tÇİoĠ lÃ¹nĠ
Ġ formulaĠ
tuÃ¬ ĠyÃ¬Ġ
fÄĵngĠ bÃłoĠ
ĠĠĠ yÃ¬Ġ
bÇĲĠ yÃłĠ
jÄ« ĠzhÃ¬Ġ
xÃ¬n ĠhÃłoĠ
yÃł ĠdeĠ
nÃ©ngĠ gÃ²u
Ġ huÃŃĠ
shÃ²uĠ shÄģngĠ
ĠjiÃłn ĠchÃ©ngĠ
Ġ mÃ©ngĠ
liÃ¡nĠ xÃ¬Ġ
Ġ tuÅįĠ
ĠĠĠ N
wÃ¨iĠ zhÃ¬Ġ
ĠĠĠ 2017
bÃ¬Ġ xÅ«
ĠrÃºĠ guÇĴ
rÃº ĠhÃ©Ġ
ĠtÇĲĠzhÇİngĠ kÄĽĠdÃ¡Ġ
ĠÄĽrĠ tÃ¨Ġ
bÇİoĠ chÃŃĠ
Ġ cÃŃĠ
zhuÄģn ĠjiÄģĠ
fÅ« ĠrÃ©nĠ
jiÇİng ĠxiÃłngĠ
chÄģ ĠyÃ¬Ġ
wÅį Ġ
ĠjÄ«ngĠ guÃ²Ġ
shÃ²u ĠyÇĶĠ
ĠjÄ«Ġ gÃ²u
ĠzÃłiĠ yÃºĠ
ĠdeĠyÄ«Ġ zuÃ²Ġ
ĠtÅįngĠ chÃ¡ngĠ
Ġ guÄ«Ġ
R Ġ
Ġ 2010ĠniÃ¡nĠ
wÇİng ĠlÃ¹Ġ
jÄ«ngĠ yÃŃngĠ
Ġ 12ĠyuÃ¨Ġ
Ġ mÃŃnĠguÃ³Ġ
gÃ²ngĠchÇİnĠ dÇİng
diÃłnĠ tÃ¡iĠ
Ġ 21Ġ
dÅįng ĠxÄ«Ġ
ĠkÃ¨ ĠlÇĲĠ
ĠshÄĵngĠ chÇİnĠ
ĠbÃ¹Ġ lÇĲĠ
tÄģn Ġ
ĠyÇĲĠ xiÃł
cÅ«nĠ zhuÄģngĠ
Ġ 11ĠyuÃ¨Ġ
Ġ rÃłngĠ
lÃ¡i ĠdÃłoĠ
suÃŃ ĠhÃ²uĠ
ĠzhÄ« ĠzhÅįngĠ
Ġ gÇİi
bÃ¬Ġ yÃ¨ĠyÃºĠ
xÃ¹nĠ liÃłn
cuÃ² ĠshÄ«Ġ
lÃłng Ġ
fÇİ ĠdeĠ
miÇİo Ġ
ĠyÃ¬Ġ shÃ¹
zÇĴngĠ dÅ«Ġ
zhÃ¹Ġ mÃŃngĠdeĠ
xÃ¬Ġ liÃ¨
ĠshÃ¬Ġ yÇĴuĠ
ĠjiÃłnĠ duÃ¬Ġ
kuÃłiĠ sÃ¹Ġ
5 ĠniÃ¡nĠ
zhÃ¹ ĠyÃºĠ
Ġ chÃ¡ng
shÃ© Ġ
1994 ĠniÃ¡nĠ
ĠshÃŃĠ rÃ¨nĠ
ĠyÄ«Ġ shÄĵngĠ
gÅ« ĠjÃ¬Ġ
hÃ¡iĠ ziĠ
ĠÄĽr ĠhÃ©Ġ
tÃłiĠpÃŃngĠ yÃ¡ngĠ
Ġ zhÅ«
yÃ¡nĠ gÃ©Ġ
Ġ huÇĴĠ
ĠĠĠ 2016
tÃ³ng ĠyÃ¬Ġ
le ĠdÃłĠ
shÄĵng ĠwÃ¨iĠ
dÇİo ĠshÃ¬Ġ
chÃ©ngĠ gÅįngĠ
Ġ zhÅįngĠdeĠ
Ġ tw
ĠjiÃ©Ġ mÃ¹Ġ
sÃ¬ ĠgÃ¨Ġ
fÄģĠ diÃłnĠ
ĠshÃłngĠ hÇİi
zhÃłn ĠzhÅįngĠ
ĠdeĠ qiÃ¡nĠ
ĠrÃ©nĠ lÃ¨iĠ
jiÃ©ĠshÃ¹ ĠhÃ²uĠ
ĠdÃ© ĠyÇĲĠ
pÇĶĠ tÅįngĠ
shÇİng Ġ
ĠdeĠshÃŃĠ qÅ«ĠwÃ¨iĠ
Ġ xiÇİng
ĠzhÃ¨ngĠ cÃ¨Ġ
15 Ġ
ĠmÃŃngĠ chÄĵngĠ
chÃ¨Ġ xiÄģoĠ
Ġ Ã
yÇĶ ĠzhÅįngĠ
Ġ shÃ¨ng
ĠĠĠ zhÃ¬Ġ
tÃ³uĠ piÃłoĠ
dÇĲĠ dÃ¡Ġ
Ġ yÃ¬nĠdÃ¹Ġ
ĠjÇĲnĠ guÇİn
Ġ wÇİngĠ
fÄģ ĠdeĠ
jÃºĠ zhÇİngĠ
ĠdeĠshÃŃĠ jiÄģnĠ
Ġ fÄģngĠ
gÃ¨ng ĠjiÄģĠ
1995 ĠniÃ¡nĠ
zhÃ¨Ġ xiÄĵ
ĠwÃ¨iĠ shÄĵngĠ
fÇİnĠ huÃŃĠ
yuÃ¨Ġ tÃ¡iĠ
ĠpÃŃngĠ tÃ¡iĠ
guÇİng ĠxÄ«Ġ
Ġ yÃ¡ng
zhÃ¡i Ġ
fÄĽi Ġ
hans Ġ
kuÃ² ĠdÃłĠ
hÄģ ĠÄĽrĠ
Ġ hansĠ
yÃ¬ ĠzhÅįngĠ
dÄĵng ĠlÃ¹Ġ
rÃ³ng ĠyÃ¹Ġ
Ġtw Ġ
yuÃ¨ ĠshÃŃĠ
Ġ qÄ«
Ġ qiÃ¡n
zhÃ²ng ĠdÃłĠ
lÃ¹ ĠyÃ¬Ġ
zÇĶĠ chÃ©ngĠdeĠ
zhÇĲ ĠzÃłiĠ
25 Ġ
ĠshÃ¬Ġ yÇİnĠ
quÃ¨Ġ dÃ¬ngĠ
yÃ¨ ĠhÃ²uĠ
ĠbÃ¹Ġ kÄĽĠ
Ġ sÃłĠ
ĠbÃ¬ngĠ mÃ©iĠyÇĴuĠ
ĠcÇĲ ĠshÃŃĠ
ĠĠĠdeĠ shÃŃĠ
Ġ chÄĵng
jÃ¬n ĠxÃŃng
Ġ ÄģĠÄĽrĠ
ĠxuÃ©Ġ xÃŃĠ
qÃ¬Ġ chÄĵĠ
wÇİn ĠshÃłngĠ
jiÃłoĠ qÅ«Ġ
ĠmÃ¹Ġ qiÃ¡n
mÃŃngĠ chÄĵngĠ
yÃłĠlÃ¬Ġ shÄģn
Ġ lÇľĠ
gÇİiĠ biÄģn
wÃ¹Ġ zhÇĴng
guÄģnĠ zhÃ²ngĠ
xiÄģoĠ shÃ²uĠ
ĠguÃ³Ġ wÃ¹Ġ
ĠzhÄ« ĠyuÃ¡nĠ
ĠĠĠ 2023
yuÃłn ĠdeĠ
bÄģ ĠxÄ«Ġ
ĠgÅįngĠ yÃ¨
ĠhuÃ²Ġ zhÄĽĠ
rÃ¹Ġ kÇĴuĠ
xiÄģngĠ tÃ³ngĠ
bÄģĠ lÃŃĠ
bÇİn ĠdeĠ
Ġ xiÃł
xuÃ© ĠhÃ©Ġ
sÇĶn ĠshÄ«Ġ
pÃ²ĠhuÃłi Ġ
biÇİo ĠxiÃłn
pÄģn Ġ
ĠshÃŃĠ xiÃłnĠ
xÄ«Ġ lÃł
fÄģĠxiÃłnĠ leĠ
ĠĠĠ 2014
kÃłn ĠdÃłoĠ
nÇİi Ġ
qÄ«Ġ zÇĲĠ
guÄģnĠ zhÃ¹Ġ
ĠcÃ©ng ĠrÃ¨nĠ
Ġ Ñ
ĠbÃ¬ng ĠyÇĲĠ
qiÇİng Ġ
xiÅįngĠ yÃ¡
Ġ 6ĠyuÃ¨Ġ
Ġ chuÃłngĠ
ĠĠĠ suÇĴĠshÇĶĠdeĠshÄĽngĠjÃŃĠxuÇİnĠqÅ«ĠwÃ¨iĠ
ĠĠĠdeĠ yÃ³uĠzhÃ¨ngĠbiÄģnĠmÇİĠwÃ¨iĠ
ĠĠĠyÇĶĠ jiÄĵĠrÇİngĠdeĠshÃ¬ĠzhÃ¨nĠ
ĠĠĠyÃºĠ shÃŃĠdeĠrÃ©nĠkÇĴuĠshÃ¹ĠliÃłngĠwÃ¨iĠrÃ©nĠ
ĠĠĠdeĠshÃŃĠ qÅ«ĠwÃ¨iĠ
zhuÄģng ĠzhÃ¬Ġ
Ġ xuÄģnĠbÃ¹Ġ
zhÃŃ ĠwÃ¨iĠ
22 Ġ
Ġ 2011
Ġ U
jÃ¬ ĠhÃ©Ġ
ĠzuÃ²Ġ yÃ²ngĠ
ĠquÃ¡nĠ zhÇİngĠ
tÃº ĠzhÅįngĠ
sÅ«Ġ liÃ¡n
kÄģiĠ fÃłng
ĠĠĠ jÄ«Ġ
xÅ« ĠqiÃºĠ
ĠzhÄ«Ġ mÃŃngĠ
lÃŃn ĠdeĠ
ĠsÄ«Ġ lÄģĠ
shÃŃ ĠwÃ¨iĠ
hÃ©ngĠ xÄ«ngĠ
tuÄ«Ġ dÃ²ngĠ
wÃ©i ĠdeĠ
ĠshÃ¬Ġ zhÇİngĠ
ĠquÃ¡n ĠbÃ¹Ġ
ĠniÃ¡nĠ qÄ«ng
guÇİnĠ lÇĲ
Ġ 2019
ĠjiÄģĠ tÃŃngĠ
rÃ¹Ġ qÄ«nĠ
rÃºĠ cÇĲĠ
Ġ hk
cÃ¡n Ġ
tÃ¡iĠ bÄĽiĠ
yÇĶ ĠhÃ©Ġ
yÃŃĠ dÃ²ngĠ
ĠyÄ«Ġ dÃłiĠ
jÃ¬n ĠshÃ¬Ġ
fÃ¹ ĠdeĠ
ĠchÅ« ĠxiÃłnĠzÃłiĠ
zhÃ¨Ġ jiÄģngĠ
mÇĶĠ qÄ«nĠ
xiÅįngĠyÃ¡ ĠlÃ¬Ġ
Ġ miÃłnĠ
le ĠĠĠ
mÃ¹ ĠsÄ«Ġ
1991 ĠniÃ¡nĠ
ĠrÃ©nĠ shÃ¹Ġ
fÃ¹Ġ qÄ«nĠ
ĠdÃłn ĠtÄģĠ
ĠxÄ«ĠbÄģnĠ yÃ¡
ĠĠĠ 2015
mÃŃnĠ zÃº
guÇİngĠ bÅį
zuÃ¬ ĠchÅ«Ġ
tÃ¡i ĠdeĠ
ĠdÃ¬Ġ qiÃºĠ
Ġ gÄģnĠ
ĠshÃ¬Ġ zhÇĲĠ
1 ĠniÃ¡nĠ
tÃŃ ĠshÄĵngĠ
fÄĵi ĠjiÃłnĠzhÃ¬Ġ
Ġ duÃłnĠ
Ġ chÄĵĠzhÃłnĠ
Ġ Î
Ġ 5ĠyuÃ¨Ġ
xÃ¹nĠ sÃ¹Ġ
Ġhk Ġ
on ĠĠĠ
shÃ¹Ġ xuÃ©Ġ
ĠĠĠ 2013
ĠsÄ«Ġ tÇİnĠ
Ġ jÇĲn
ĠwÃ¨iĠ hÃ©Ġ
ĠbÃ¬ng ĠlÃ¬Ġ
ĠchÃ©ngĠwÃ©iĠ leĠ
niÇĶĠ yuÄĵĠ
Ġ jÄ«ng
Ġ zhuÇİnĠ
fÄģ ĠxÃŃng
ĠjÃ¬nĠ rÃ¹
tÃ¨ ĠlÇĲĠ
kÃłng ĠrÃ¬Ġ
ĠhÃ©Ġ xÄ«nĠ
ĠgÃ¨Ġ zhÇĴngĠ
zÇĴng ĠbÃ¹Ġ
ĠjÃŃĠ qÃŃ
fÄģĠ shÄĵng
shÅįu ĠlÃ¹Ġ
ĠshÃ¬Ġ rÃ©nĠ
jiÃło ĠdeĠ
gÇİo Ġ
lÃ¡n ĠkÃ¨Ġ
mÃ¡ng Ġ
mÃŃng ĠyÃ¬Ġ
cÃ¡i ĠzhÃ¨ngĠ
8 ĠniÃ¡nĠ
chÃłngĠ piÃłnĠ
ĠzuÃ²Ġ pÇĲn
ĠĠĠniÃ¡n Ġ
sÃł ĠkÃ¨Ġ
ĠjÃ¬Ġ zÇİiĠ
ĠzhÅįngĠ wÃ©nĠ
50 Ġ
juÃ©Ġ sÃłi
jÃ¬n ĠgÅįngĠ
16 Ġ
ĠshÃ¬Ġ jÃŃĠ
qÇĲ ĠyÃ¬Ġ
cÄģn ĠyÃ¬Ġ
zhuÃłngĠ kuÃłngĠ
Ġ zÃłoĠchÃ©ngĠ
ĠxiÃłn ĠyÃºĠ
lÇľ ĠwÃ¨iĠ
ĠĠĠ zhÅįngĠguÃ³Ġ
le ĠtÄģĠ
zÄĵngĠ zhÇİngĠ
gÄģoĠ dÃ¹Ġ
chÇİnĠ pÇĲn
cÄģnĠ kÇİoĠ
fÄĵiĠjiÃłnĠzhÃ¬Ġ dÃ¬ĠqÅ«Ġ
ĠjÃ¬Ġ suÃłn
zhÃłnĠ dÃ²uĠ
dÅįu ĠhuÃ¬Ġ
ĠhÃ©Ġ bÃ¬ngĠ
ĠshÄĵngĠ huÃ³
wÃ¡ng ĠdeĠ
Ġ huÃ¡ng
Ġ Ã©ĠluÃ³ĠsÄ«Ġ
zhÃ²ngĠ diÇİnĠ
diÃłoĠ chÃ¡
chÄģi Ġ
ĠdÃłĠ lÃ³uĠ
hÇİi ĠdÃłoĠ
chÃłngĠ piÃłn
ĠrÃ©nĠ menĠ
ĠĠĠ J
wÄĵiĠ xiÃ©Ġ
Ãło ĠdÃ¬ĠlÃ¬Ġ
ĠhÃ©Ġ zhÅįngĠ
shÃłngĠ shÅ«Ġ
ĠwÃ©iĠ qÃŃĠ
lÇĲngĠdÇİo ĠrÃ©nĠ
kÇİn Ġ
Ġ hÃ²u
Ġ dÇİoĠ
jÄ«ngĠ shÃ©nĠ
ĠxiÄģngĠ guÄģnĠ
jiÄģ ĠzhÅįngĠ
suÄ« ĠrÃ¡nĠ
ĠyÄ«n ĠÃ©rĠ
yuÃ¨ ĠzÃłiĠ
liÇİng ĠrÃ©nĠ
ĠĠĠ I
ĠbÃ¹Ġ duÃłnĠ
cÄģnĠjiÄģĠ leĠ
Ġ fÃ¡ngĠ
yÃŃngĠ yÃ¹nĠ
l Ġ
huÃł ĠwÃ¨iĠ
jiÄģng ĠxÄ«Ġ
ĠdeĠchÃ©ngĠ yuÃ¡nĠ
jiÃ© ĠkÃ¨Ġ
23 Ġ
tÃºĠshÅ«Ġ guÇİnĠ
ĠhÃ©Ġ chÃ©ngĠ
zhÇĶĠ chÃŃĠ
ĠzhÅįngĠguÃ³Ġ gÃ²ngĠchÇİnĠdÇİngĠ
jÃ¹ ĠdeĠ
nÃł ĠlÇĲĠ
Ġ 4ĠyuÃ¨Ġ
mÃŃnĠ zhÃ²ngĠ
1988 ĠniÃ¡nĠ
jÃ¬nĠ rÃ¹
mÇĴuĠ xiÄĵĠ
Ġ huÃ¡
shÄĵn ĠwÃ¨iĠ
jÅ« ĠzhÃ¹Ġ
zÃ¬Ġ dÃ²ngĠ
xiÃłĠjÃ¬Ġ ÃłoĠlÃŃnĠpÇĲĠkÃ¨ĠyÃ¹nĠdÃ²ngĠhuÃ¬Ġ
yÄ«n ĠshÃ¬Ġ
al Ġ
Ġ xiÇİo
zhÃłnĠ dÃ²u
shÃŃĠ jiÄģnĠ
Ġ yÇĴuĠshÃŃĠ
chÇİnĠ shÄĵngĠdeĠ
ĠĠĠ zhĠ
ĠzÃłiĠ jiÄģĠ
shuÅį ĠmÃŃngĠ
Ġ tiÄģn
ĠzhÃ¨ngĠ zhuÃłngĠ
yÇĲnĠ fÄģĠ
Ġ qiÃ¡oĠ
dÄģo Ġ
jiÄģngĠ sÅ«Ġ
1993 ĠniÃ¡nĠ
ĠhuÃ²ĠdÃ©Ġ leĠ
Ġ 20
es Ġ
ĠzhÄ«Ġ xiÃłĠ
ĠshÃ¬Ġ wÄĵiĠ
xiÇİoĠ shuÅį
ĠĠĠjiÄģĠ zÃºĠ
Ġ xÇĶĠduÅįĠ
ĠshÃ¬Ġ zhÃ¨n
ĠgÅįngĠ rÃ©nĠ
Ġ wÄĽiĠ
dÃ¬ng ĠleĠ
yÅįu ĠshÃ¬Ġ
lÃ¡n ĠqiÃºĠ
ĠdÃłĠ duÅįĠ
Ġ zuÇĴĠ
zhÅįu ĠdeĠ
suÄ« ĠrÃ¡n
jÃ¬ ĠshÃŃĠ
ĠxiÃłngĠ mÃ¹Ġ
xiÇİn ĠdeĠ
zÄ«Ġ xÃ¹nĠ
ÃłoĠyÃ¹n ĠhuÃ¬Ġ
cuÃ¬ Ġ
sÃ¹ ĠdeĠ
ĠdÃłĠ xÃŃngĠ
Ġ 2018
13 Ġ
ĠyuÃ¨Ġ nÃ¡nĠ
chuÄģng Ġ
xiÃłngĠ mÃ¹
ĠjÃŃĠ lÃ¬Ġ
ĠzhÅįngĠ huÃ¡Ġ
qÇĶ ĠdÃ©
ĠlÃ¡iĠ zÃ¬Ġ
yuÃ¡n ĠzÃłiĠ
ĠbÃ¹Ġ mÃ©n
xiÄģngĠ dÄģngĠ
ĠdÃłnĠ yÃ³uĠyÃºĠ
fÇİngĠ wÃ¨nĠ
zhÃŃ ĠdÃłoĠ
jiÃłoĠ wÃ©iĠ
jiÃ©Ġ hÅ«nĠ
ĠshÃ¬ĠwÃ¨iĠ leĠ
Ġ dÃºĠ
ĠlÇĲĠ lÃ¹nĠ
pÇĲnĠ pÃ¡iĠ
Ġ xuÇİnĠ
Ġ lÇĲ
xÃŃ ĠwÃ¨iĠ
ĠdÃ¬Ġ wÇĶĠ
cÄģnĠ jiÄģ
Ġ pÃ¨iĠ
ĠyuÃ¨Ġ tÃ¡iĠ
zhÅįng ĠwÃ¨iĠ
zhÄĵn ĠshÃŃĠ
L Ġ
zhÅįngĠ huÃ¡ĠrÃ©nĠmÃŃnĠgÃ²ngĠhÃ©ĠguÃ³Ġ
b Ġ
yÇĴu ĠbÃ¹Ġ
yÃ¬n ĠdÃ¬Ġ
mÄĽiĠ shÃ¹Ġ
zhÃ²u Ġ
xÄ«ngĠ qÄ«Ġ
mÃ¬ngĠ lÃ¬ngĠ
xuÃ©Ġ shÃ¹Ġ
ĠdeĠgÅįngĠ zuÃ²Ġ
2020ĠniÃ¡nĠ mÄĽiĠguÃ³ĠrÃ©nĠkÇĴuĠpÇĶĠchÃ¡ĠdeĠshÃ¹ĠjÃ¹Ġ
Ġ biÄģn
Ġ lÇİoĠ
jiÃłn ĠshÃ¨Ġ
jÇĶ ĠxÃŃng
fÃ¡ng ĠyÃ¹Ġ
ĠrÃ¨nĠ wÃ¹Ġ
wÇĶĠ zhuÄģngĠ
ĠĠĠ 2025
yÃŃĠ chÇİnĠ
bÃłoĠ dÇİoĠ
ÃłoĠ mÃ©nĠ
tiÃ¡oĠ zhÄĽngĠ
ĠC Ġ
Ġ zhÃ¨ng
Ġ wÃ©n
ĠshÃŃĠ yÄ«Ġ
tÃŃĠ gÄģoĠ
m ĠĠĠ
bÃ¡ Ġ
ĠjiÄģĠ rÃ¹
ĠzhÄ«Ġ hÃ²u
1990 ĠniÃ¡nĠ
fÄĵiĠ lÇľĠ
wÇİ ĠÄĽrĠ
yÇĲĠ lÃ¡iĠ
Ġ tiÃ¡nĠ
le ĠtÄģĠdeĠ
huÃ¬ ĠyuÃ¡nĠ
ĠshÃŃĠ qÄ«
jÃ¬Ġ lÃ¹Ġ
ĠjÄ«Ġ guÄģnĠ
shÃ¹Ġ zÃ¬Ġ
yÇĶnĠ xÇĶĠ
dÅ« ĠshÃ¬Ġ
leĠ yÃŃĠgÃ¨Ġ
huÃł ĠjiÄģĠ
jÄ«Ġ chÇİngĠ
yÃŃĠ mÃŃnĠ
shÅ« ĠdeĠ
jÃ¹Ġ lÃŃĠ
ĠfÃ¹Ġ zÃ©
Ġ zhuÄģngĠ
ĠshÃ¬ĠyÄ«Ġ zhÇĴng
jÄ«n ĠdeĠ
ĠrÃ©nĠ lÃ¨i
Ġ jiÇĶ
ĠĠĠ 2024
ĠzhÅįu ĠniÃ¡nĠ
ĠzÃ¬ĠjÇĲ ĠdeĠ
jiÄĵ ĠjÃŃĠ
duÃłn ĠdeĠ
dÅ« ĠjiÃłoĠ
hÅįngĠ zhÃł
lÃ¬ ĠshÃ¬Ġ
kÃ¨ ĠlÇĲĠ
yÃ¡n ĠdeĠ
yÄģoĠ qÇĲngĠ
Ġ xiÃ©Ġ
yÃŃng ĠdeĠ
huÄģ ĠyuÃ¡nĠ
yÃ²ngĠ hÃ¹Ġ
shÄģnĠ mÃłi
Ġ hÃ³ng
shÄĵng ĠjÃŃĠ
yuÄĵ ĠyÇĴuĠ
ĠshÃ¬Ġ dÃłĠ
wÃ©nĠ zÃ¬Ġ
Ġ dÃ¬ngĠ
miÃłn ĠduÃ¬Ġ
Ġ liÃ¡ngĠ
Ġ 2011ĠniÃ¡nĠ
dÅįng ĠjÃ¬Ġ
hÃ¡nĠ shÃ¹Ġ
Ġ chÄĵngĠwÃ©iĠ
zÄ«Ġ jÄ«nĠ
dÄĽng ĠwÃ¨iĠ
sÃº Ġ
ĠlÃ¬Ġ shÇĲ
wÇĶĠ tÃ¡iĠ
ĠsuÃ¬ ĠdeĠ
Ġ zhuÇİn
Ġ xÃº
ĠshÃ¨ ĠjÃŃĠ
ĠzhÃ¬Ġ shÃŃĠ
Ġ shÃłng
Ġ guÄģn
ĠzhÃ¬Ġ lÃ¬Ġ
gÄģoĠ dÄĽngĠ
xiÃłoĠ guÇĴĠ
Ġ 2016
ĠsuÇĴ ĠyÇĲ
yuÃ¡n ĠjÃŃĠ
ĠrÃ©nĠ mÃŃn
shÄĵnĠ qÇĲngĠ
ĠhÃ©Ġ lÃ¡nĠ
Ġ 2005ĠniÃ¡nĠ
dÃ²ngĠ zuÃ²Ġ
Ġ ÅįuĠ
ĠxiÃłn ĠhÃ©Ġ
Ġ 3ĠyuÃ¨Ġ
mÄĽiĠ guÃ³ĠdeĠ
Ġ 2008ĠniÃ¡nĠ
19 ĠshÃ¬ĠjÃ¬Ġ
ĠmÃŃngĠchÃ¡oĠ zhÃ¨ngĠzhÃ¬ĠrÃ©nĠwÃ¹Ġ
ĠĠĠ xÄ«nĠ
ĠĠĠ zÇİoĠniÃ¡nĠ
liÇİngĠ zhÇĴngĠ
ĠwÃłn ĠmÄĽiĠyuÃ¡nĠ
Ġ hÃ¡nĠguÃ³Ġ
ĠrÃ¬Ġ jÅ«nĠ
xiÃłĠ lÃ¬ng
jiÃłoĠ liÃłnĠ
lÇĲngĠ tÇĶĠ
Ġ jÃ¹
Ġ shÄ«
nÇĶ ĠlÃ¬Ġ
ĠyuÃ¡nĠ mÃŃngĠ
zhÃ¨ngĠ mÃŃngĠ
Ġ s
ĠĠĠ hÃ²uĠ
Ġ 30
Ġ zhÄģo
liÃ¨Ġ biÇİoĠ
wÃ¨i ĠĠĠ
lÃ¹ ĠjÅ«n
ĠzhÅįngĠ yÃºĠ
zuÃ²Ġ yÃ²ngĠ
jÄ«ngĠ chÃ¡ngĠ
qÅ«Ġ yÃ¹
yÇĴu ĠzÃłiĠ
ĠyÃ¬Ġ yÃ¬Ġ
yÇĲngĠ piÃłn
G Ġ
Ġ xiÅ«Ġ
ĠjÃ¬n ĠxÃŃng
ĠnÃ¡n ĠzhÃ¬Ġ
ĠĠĠ yÃ³uĠ
ĠguÃ³Ġ huÃ¬Ġ
ĠgÅįngĠ huÃ¬Ġ
ĠyuÃ¡nĠ gÅįngĠ
guÄģnĠ xÃ¬
ĠjÃ¬Ġ zhÄĽĠ
Ġ chÃ¬Ġ
nÃ¨iĠ lÃ¹Ġ
2 ĠrÃ©nĠ
Ġ pÃ¨i
zhÇİo ĠdÃłoĠ
1984 ĠniÃ¡nĠ
wÃ¡ngĠ chÃ¡o
huÃŃĠ yÃ¬ngĠ
jÄ«ng ĠlÇĲĠ
lÇļ ĠxÃŃngĠ
yÃ²ngĠ zuÃ²Ġ
shÃ©nĠ jÄ«ngĠ
ĠshÃ¬Ġ hÃ²uĠ
Ġ yÄ«ng
Ġ Ch
lÇĲĠ lÃ¹nĠ
ĠgÅįngĠ chÇİngĠ
fÃ¹Ġ jÃ¬nĠ
yÃº ĠzÃłiĠ
Ġ juÃ©
Ġ bÃ³
tÃłi ĠrÃ©nĠ
ĠhÃ©Ġ gÅįngĠ
chÅ«Ġ bÇİnĠ
kÄĽĠyÇĲ ĠzÃłiĠ
suÃ¬ ĠdÃłoĠ
bÇİoĠ chÃŃ
zhÄ«Ġ jiÄģnĠ
jiÇĶĠ diÃłnĠ
tÃŃ ĠdÃłoĠ
ĠchÃ©ngĠ xiÃłnĠ
ĠniÃ¡nĠ1ĠyuÃ¨Ġ 1ĠrÃ¬Ġ
ĠjÄ«Ġ chÄĵĠ
ĠshÃŃĠ Ã¨rĠ
guÄ«Ġ zÃ©Ġ
wÇĴĠ men
Ġ luÃ³
Äģi ĠjÃŃĠ
1989 ĠniÃ¡nĠ
Ġ bÇĲ
gÃ© ĠwÃ¨iĠ
tÄ« Ġ
qÃ¬Ġ xiÃłngĠ
shÇĴu ĠjÄ«Ġ
ĠguÃ³Ġ fÃ¡ng
kÅįng ĠzhÅįngĠ
ĠniÃ¡n ĠshÃ¬ĠjiÃ¨Ġ
Ġ zhÇĴngĠ
zhÃ¹ ĠlÇĲĠ
ĠyÃºĠ 18
bÃ¨i ĠshÃ¬ĠwÃ¨iĠ
tÅįng ĠdÃłoĠ
kÇĴng ĠbÃ¹Ġ
qÃŃĠzhÅįngĠ yÄ«ĠzhÇĴngĠ
Ġ hÄĽnĠ
zuÃ² ĠwÃ¨iĠ
shÇĴuĠ dÅ«Ġ
ĠdeĠ zhÃ¬Ġ
lÃ¬ ĠwÃ¨iĠ
shÅ« ĠjÃŃĠ
ĠÃ©r ĠchÃ©ngĠ
jÄ« ĠhÃ©Ġ
dÅįngĠ nÃ¡nĠbÃ¹Ġ
ĠwÇĴĠ menĠ
yÇĲ ĠxiÃłĠ
ĠxÄ«Ġ wÃłng
ĠmÄĽi ĠniÃ¡nĠ
Ġ fÇİn
yÇİn ĠyÃ¬Ġ
xÄ«nĠjiÄģĠ pÅį
dÃłĠ lÃ¹ĠdeĠ
Ġ lÃ©iĠ
qÇĲĠ yÃ¨
ĠzuÃ²Ġ wÃ©i
dÃłi ĠlÇĲĠ
mÄĽng Ġ
ĠdeĠ jiÄģĠ
jÄ«nĠ shÇĶĠ
jÃ¬nĠ yÃŃĠbÃ¹Ġ
lÃ¡o ĠdÃ²ngĠ
to ĠĠĠ
zhÇĶĠ chÃŃ
jiÃłoĠ xuÃ©Ġ
biÇİoĠ miÃłnĠ
gÃ¹Ġ wÃ¨nĠ
Ġ yÄ«ngĠyÇĶĠ
nÄ« Ġ
ĠhÃ©Ġ xÄ«Ġ
ĠbÃ¹Ġ bÃ¹Ġ
cÃ¡iĠ liÃłoĠ
ĠhÃ©Ġ shÃŃĠ
ĠyÇĴuĠ jÄ«Ġ
chÃ¡oĠ xiÄģn
Ġ2001ĠniÃ¡nĠ rÃ©nĠkÇĴuĠ
dÃło ĠlÃ¹Ġ
fÄĵn ĠzhÅįngĠ
huÃ¡ ĠrÃ©nĠ
or Ġ
ĠzÃłiĠ wÃ¨iĠ
ĠbÄĽiĠ qÇĲĠ
jÃ¬ng ĠdeĠ
sÇĲ ĠhÃ²uĠ
bÇİoĠ liÃºĠ
bÅįĠ lÃ¡n
14 Ġ
tÅįngĠ chÄĵĠ
Ġ tÇĶĠ
sÄ« ĠlÃ¬Ġ
ĠzhÅįngĠguÃ³Ġ dÃłĠlÃ¹Ġ
bÃ¡iĠ sÃ¨Ġ
yÃłĠlÃ¬ĠshÄģn ĠdÃłĠ
huÃ¬ ĠshÃ¬Ġ
ĠyÇĲĠ bÃ¨iĠ
K Ġ
ĠwÃłn ĠyuÃ¡nĠ
jÅ«Ġ mÃŃn
zhÇĶ ĠlÃ¬Ġ
ĠpÃŃngĠ miÃłnĠ
nÃŃ ĠkÃ¨Ġ
ĠtÄģ ĠwÃ¨iĠ
Ġ 2021
zhÇĶ ĠdeĠ
ĠzhÄ«Ġ jiÄģn
ĠsÄ«Ġ tÃ¨
fÇİĠ ÃłnĠ
yÇĲnĠ qÇĲĠ
o ĠĠĠ
zhÃłi Ġ
nÇļĠ zÇĲ
yÇĲnĠ qÇĲ
ĠxiÃłnĠdeĠ yÃŃĠgÃ¨Ġ
ĠdÃłoĠ dÃ¡Ġ
zhÃłoĠ kÄģiĠ
ĠnÇļĠ xÃ¬ngĠ
Ġ chÃ¡Ġ
ĠdÅįngĠ nÃ¡nĠ
yÃ¹n ĠzuÃ²Ġ
ng Ġ
jiÄģo ĠhuÃ¬Ġ
shÇĴu ĠgÃ¨Ġ
tuÃ¬ ĠchÅ«Ġ
dÃ¬Ġ Ã¨rĠ
ĠÃ©rĠ yÃ¡nĠ
ĠxiÃłnĠdeĠ yÃŃĠgÃ¨
ĠbÃ¨iĠ rÃ¨nĠwÃ©iĠshÃ¬Ġ
ĠĠĠ 2012
lÃ¬ ĠzÃłiĠ
zhÃ¡ Ġ
ĠjÄ«Ġ hÅ«
ĠkÃ¨ ĠchÃ©ngĠ
wÃ©nĠ zhÄģngĠ
cÃ©ngĠ jÄ«ng
jÇĲ ĠgÃ¨Ġ
jiÃ¨ ĠdeĠ
ĠshÃ¬Ġ jiÄģĠ
ĠyÇĴuĠ yÃ¬Ġ
tÃ¨Ġ shÅ«Ġ
ĠxÄ«Ġ sÄ«Ġ
xiÄģngĠ guÄģn
shÄ«Ġ fÃłn
ĠfÃ¹Ġ qÄ«nĠ
wÃºĠ fÇİ
cÄģnĠ mÃ³u
3 ĠrÃ©nĠ
Ġ p
Ġ sĠĠĠ
jÄ«n ĠhuÃ¬Ġ
1985 ĠniÃ¡nĠ
jiÃłoĠ shÄ«Ġ
O Ġ
ĠĠĠ xiÃłĠ
lÇľĠ shÄ«Ġ
Ġ gÇİngĠ
fÄĵi ĠzhÅįuĠ
ĠshÃ¬Ġ yÇĶĠ
xÄ«ĠbÄģnĠ yÃ¡
Ġ jÃ¹ĠyÇĴuĠ
dÃł ĠwÃ¨iĠ
ĠyÄ«Ġ jÃŃĠ
chÃ¡ng ĠdeĠ
ĠbÃ¹Ġ dÃ©
ĠtÄģĠmen ĠzÃłiĠ
Ġ qÇĶĠ
wÄĵi ĠjÄ«Ġ
Ġ gÃ©
ĠyÃ¬Ġ fÄģngĠmiÃłnĠ
fÇİĠ yuÃłn
yÃŃĠ zhÇĲĠ
ĠÃ©rĠshuÇĲĠyÃ¹ĠmiÃłnĠjÄ«ĠwÃ¨iĠ 0
Ġ fÃ©ngĠ
lÄĽng Ġ
ĠguÃ³Ġ jiÄģĠdeĠ
Ġ lÃŃ
zhÄĽ ĠzÃłiĠ
ĠhÃ©Ġ qÃŃĠtÄģĠ
xÃ¬ĠtÇĴng ĠdeĠ
yÃł ĠzhÅįu
chÄĵ ĠdeĠ
jÄ«nĠ pÃ¡iĠ
duÅį ĠniÃ¡nĠ
ĠzhÄ« ĠwÃ¨iĠ
ĠbÃ¬ngĠ jiÄģngĠ
ĠzhÇĶĠ xÃŃĠ
kÄģng ĠxÄ«Ġ
yÃłoĠ wÃ¹Ġ
Ġ hÇİi
Ġ bÄģnĠ
Ġ yÅįngĠyÇĴuĠ
ĠchÃ©ngĠ xÃ¹Ġ
ĠwÃ¨iĠ yÇĴuĠ
biÇİoĠ dÃ¡
Ġ00 Ġ
dÃł ĠdÃ¬Ġ
biÃłn ĠdÃ©Ġ
ĠchÃ©ngĠ rÃ¨nĠ
zhÃŃĠ mÃŃn
guÃ²Ġ qÃ¹Ġ
pÃºĠtÃ¡oĠ yÃ¡
ĠzhÃ¬Ġ liÃ¡oĠ
huÄģnĠ yÃŃngĠ
ĠĠĠ chÃ©ngĠ
wÃ©n ĠxiÃłnĠ
ĠsÄ«Ġ kÃ¨Ġ
ĠjÃ¬nĠxÃŃngĠ leĠ
mÃ¹Ġ biÄģo
fÃº ĠyÃ¬Ġ
zhuÄģng ĠshÃ¬Ġ
dÅįngĠ bÄĽiĠbÃ¹Ġ
gÃ²uĠ zÃłoĠ
huÃ²ĠdÃ©Ġ leĠ
bÃ³ĠwÃ¹Ġ guÇİn
ÃłoĠdÃłĠlÃ¬Ġ yÃłĠ
Ġ fÃ¨i
Ġ guÄģnĠyÃºĠ
ĠqiÃº ĠyuÃ¡nĠ
Ġ 100
jiÄģng ĠhuÃ¬Ġ
bÄĽn ĠdÃ¬Ġ
ĠÃ©rĠ gÄģiĠdÃ¬Ġ
Ġ bÇİiĠ
xiÄģn ĠshÄĵngĠ
ĠbÃ¹Ġ lÄģĠ
bÅįĠ lÃ¡nĠ
1949 ĠniÃ¡nĠ
ĠyÃºĠ lÃ¨Ġ
jiÄģĠ rÃ¹
fÃłngĠ qÃ¬Ġ
jiÃłn ĠyÃ¬Ġ
Ġ 2015
yÃ¬Ġ dÃłĠlÃ¬Ġ
Ġ bÃłnĠ
dÄģngĠ shÃŃĠdeĠ
ĠqÄ«Ġ xÄ«ĠzÃłiĠ
Ġ zhÃ¹
zÃ© ĠwÃ¨iĠ
in Ġ
mÃ¡o ĠzÃ©Ġ
liÇİng ĠniÃ¡nĠ
xiÃło ĠdeĠ
sÃł ĠsÄ«Ġ
ĠbÃ¬ng ĠyÇĶĠ
Ġ tÃŃĠgÅįngĠ
ĠdÃłĠ lÃ¹Ġ
Ġ qÇĲ
fÃ¹Ġ qÄ«n
ĠwÃ¨iĠ lÃ¡iĠ
Ġ 2007ĠniÃ¡nĠ
zÃ¬Ġ yÃ³u
ĠĠĠ cÃ³ngĠ
chÄĵng ĠzuÃ²Ġ
ĠjiÃłnĠ zÃłoĠ
ĠjÃ¬nĠ yÃŃĠbÃ¹Ġ
liÃº ĠzÃłiĠ
shÅįu ĠshÃ¬Ġ
ĠdeĠ zhÃ¨ngĠ
guÇİngĠ gÃłoĠ
nÃ¡nĠ jÄ«ngĠ
ĠjÃ¬n ĠgÅįngĠ
en Ġ
st ĠĠĠ
jÇĲn ĠjÃŃĠ
sÃł ĠÄĽrĠ
luÃ³ ĠdÃ¬Ġ
ĠshÃ¬Ġ zhÃ¨ngĠ
ĠfÃ¹Ġ qÄ«n
ĠjÃ¬Ġ shÃ¹
ĠhÃło ĠwÃ¨iĠ
jÃ¬Ġ xÃ¹Ġ
xÃ¬Ġ jÃ¹Ġ
tÇİn ĠkÃ¨Ġ
ĠdeĠ shÄĵngĠ
ĠrÃ©nĠ men
ĠrÃ¬Ġ jÅ«n
9 ĠniÃ¡nĠ
ĠyÃ¬Ġ mÄĽiĠyuÃ¡nĠ
cÃ¬Ġ shÇĲĠ
Ġ 2013
ĠzÃłiĠ cÇĲ
Ġ gÄģo
ĠtÃ¨ĠbiÃ© ĠshÃ¬Ġ
huÇĴ ĠjiÃłnĠ
ĠjiÄģĠ zÃºĠ
piÃłoĠ fÃ¡ngĠ
qÇĲng ĠqiÃºĠ
jÇĲngĠ fÄģngĠ
kÇİoĠ lÇľ
bÇĲĠlÃ¬Ġ shÃŃĠ
1986 ĠniÃ¡nĠ
ĠshÃ¬Ġ rÃ¬ĠbÄĽnĠ
ĠsÄ«Ġ tÇİn
ĠjiÃ©Ġ guÇĴ
tÃłiĠpÃŃngĠ yÃ¡ng
zhÄģnĠ mÇĶĠsÄ«Ġ
Ġ bÄ«ngĠ
Ġ 2014
quÃ¨ ĠrÃ¨nĠ
ĠchÅ«Ġ shÄĵngĠ
dÃ¬ ĠzÃłiĠ
tiÄģn ĠdeĠ
ĠyÇĲ ĠyÇĴuĠ
ĠĠĠ 2
biÄģn ĠdeĠ
pÄģi Ġ
shÃłngĠ wÇĶĠ
tÃ³uĠ piÃło
bÄģĠ lÃŃ
wÃ¡ngĠ chÃ¡oĠ
ĠxÃ¬Ġ liÃ¨Ġ
ĠĠĠ jiÃ©ĠzhÃ¬Ġ
nÃ¨i ĠyÇĴuĠ
wÃ¡n ĠgÅįngĠ
ĠzhÃ¬Ġ chÃ©ngĠ
guÇİngĠdÅįngĠ shÄĽngĠ
pÄģi ĠshÃ¨
fÄĽn Ġ
ĠyuÃ¡nĠ bÄĽnĠ
chÃ©ng ĠniÃ¡nĠ
chÇİng ĠhÃ©Ġ
ĠqÃŃ ĠzÃłiĠ
ĠzhÄ«Ġ ziĠ
mÇĶĠ qÄ«n
shÄĵnĠ tÇĲĠ
mÃ©ngĠ gÇĶ
Ġ sÃłiĠjÃ¬Ġ
ĠdÃłĠ yuÄĵĠ
ĠzhÃłnĠ dÃ²uĠ
ĠzhÄ« ĠdeĠ
gÇĶĠ fÃ¨n
xÃŃĠ xÃ¬ng
gÃ¨ng ĠduÅįĠ
hÃºĠ bÄĽiĠ
ĠyuÄĵĠ hÃłnĠ
dÄĵng ĠshÃłngĠ
ĠxiÃłnĠ chÇİngĠ
Ġ hÃ¨Ġ
ĠĠĠ zÄĵngĠ
suÇĴ ĠzÃłiĠ
yÇİnĠ chÃłngĠ
qÃŃngĠ bÃłoĠ
ĠyÄ«ngĠ wÃ©nĠ
Ġ dÃ¨ng
wÃłi ĠbÃ¹Ġ
zhÃ²ng ĠyÃ¬Ġ
mÃŃnĠ jiÄģnĠ
mÃ¬Ġ mÃ¬Ġ
Ġ jÄ«ngĠjÃ¬Ġ
guÄģnĠ bÃ¬Ġ
guÇİngĠ fÃłn
Ġ cÃ¨Ġ
xiÃło ĠyuÃ¡nĠ
ĠshÃ¬Ġ yÃ¨Ġ
ĠzÃłiĠ qÃŃĠ
1 ĠrÃ©nĠ
Ġ shÅįuĠ
ĠĠĠ U
kÇİoĠ lÇľĠ
Ã©ĠluÃ³Ġ sÄ«
ĠniÃ¡n ĠĠĠ
tÃ¨Ġ sÃ¨Ġ
ĠwÇĴĠ men
ĠyÇĴuĠ xiÃłnĠ
sÄĵnĠ lÃŃnĠ
mÇİ ĠsÄ«Ġ
Ġ 2020
Ġ lÇļĠ
Ġ ÄģiĠ
wÃ¹ ĠyuÃ¡nĠ
ÄģnĠ pÃ¡iĠ
Ġ liÃłngĠ
ĠquÃ¡n ĠqiÃºĠ
Ġ xiÇİngĠ
Ġ xÃºnĠ
xiÃł ĠyÄ«Ġ
Ã¨r ĠyuÃ¨Ġ
ĠdÃłĠ duÅįĠshÃ¹Ġ
ĠbÃ¹Ġ jiÇĶ
zhuÄģng ĠbÃ¨iĠ
chÄ« Ġ
Ġ hÃ©ngĠ
huÇİn Ġ
ĠdÃłĠ dÃłoĠ
Ġ wÃ²
nÃ©ng ĠzÃłiĠ
ĠjÄ«Ġ bÃłi
tÇĶĠÄĽr ĠqÃŃĠ
qiÄģn ĠzhÃ¬Ġ
zÃ¨ng Ġ
ĠdÃ¬ĠyÄ«Ġ cÃ¬Ġ
ĠzuÃ¬Ġ gÄģoĠ
Ġ yÃ¡n
Ġ cÄģnĠjiÄģĠ
Ġ 10Ġ
chÇİng ĠdÃ¬Ġ
mÃŃnĠzhÇĶĠ dÇİngĠ
xÃ¬ngĠ qÃ¹Ġ
ĠshÃŃĠ yÃłnĠ
zuÃ²Ġ zhÃłnĠ
nÃ¡n ĠyÇĲĠ
cÃ¹n Ġ
ĠjÃŃĠ bÄĽiĠ
ĠchÅ«Ġ lÃ¡iĠ
tÃ¡iĠ fÄĵngĠ
tiÄģnĠ jÄ«nĠ
Ġ Ã©
Ġ zhÅįngĠshÃ¬Ġ
Ġ 2017
bÃłn ĠlÇĲĠ
ĠzhÄ« ĠdÃłoĠ
tiÄģnĠ jÄ«n
lÃ³ngĠ jiÄģngĠ
Ġ gÄģngĠ
lÇĲng ĠshÃ¬Ġ
ĠbÃ¹Ġ zÃºĠ
yÃ²ngĠ tÃºĠ
lÇĲ ĠgÅįngĠ
ĠtÅįngĠ chÃ¡ng
n ĠĠĠ
Ġ kÄģngĠ
ĠyuÃ¡nĠ sÃ¹Ġ
wÄĵi ĠÄĽrĠ
nÃ³ngĠ yÃ¨
ĠqÄ«ngĠ chÃ¡oĠ
Äģi ĠÄĽrĠ
Ġ hÃ¡oĠmÇĲĠ
chÃ¡ng ĠjiÃłnĠdeĠ
ĠchÃ©ngĠ dÃ¹Ġ
zhÃłnĠ lÇĲngĠ
ĠniÃ¡nĠ bÃ¨iĠ
jÃ¬nĠxÃŃngĠ leĠ
ĠshÇĲ ĠjiÃłnĠyÃºĠ
ĠĠĠ mÃŃngĠ
dÇİo ĠdÃłnĠ
xiÅ« ĠzhÃ¨ngĠ
ĠyuÃ¨Ġ tuÃ¡nĠ
guÃ¬ ĠzhÅįuĠ
fÄĵn ĠbÃ¹ĠyÃºĠ
mÇİĠlÃ¡i ĠxÄ«ĠyÃłĠ
ĠĠĠ xiÃłn
zÇĶ ĠjiÃłnĠ
xÇĲ ĠjÃ¹Ġ
ma Ġ
ĠgÅįngĠ zhÇĶĠ
ĠtÄģĠ hÃ¡iĠ
xÃŃĠxÃ¬ng ĠbÃ¹ĠmÃŃngĠ
ĠshÃŃĠ dÃłi
zhÃłngĠ ÃłiĠ
ĠwÃ©nĠ huÃłĠ
c ĠĠĠ
xiÃłng ĠshÃ¬Ġ
ĠchÅ«Ġ qÄ«Ġ
ĠzhÃłnĠ dÃ²u
huÃ¡Ġ shÃ¨ngĠ
shÄĵng ĠchÃ©ngĠ
te Ġ
ĠyÇĴuĠ xiÄĵĠ
jiÄģoĠ liÃºĠ
rÃ¨nĠmÃ¬ng ĠwÃ¨iĠ
ĠshÄĵngĠ chÇİn
ĠĠĠ tÄģĠ
ĠyÃ¬Ġ qÇĲ
fÇİĠ guÄģnĠ
ĠyÄĽĠ jiÃ¹ĠshÃ¬Ġ
ĠdeĠ fÄģngĠshÃ¬Ġ
ĠhÃ©Ġ hÃ©Ġ
ĠshÄĵngĠhuÃ³Ġ xÃŃĠxÃ¬ngĠbÃ¹ĠmÃŃngĠ
shÃ¨ ĠzhÃ¬Ġ
shÃ²u ĠdÃło
tÃŃ ĠchÅ«
Ġ chÇĶĠyÃºĠ
jÄ«Ġ chÇĶĠ
ĠtÄģĠ yÄĽĠ
Ġ luÃ²
Ġ tÃ¡oĠ
hÄĽn ĠdÃłĠ
4 ĠrÃ©nĠ
zhÃ¬ ĠzhÅįngĠ
kÇĶ Ġ
bÃłoĠ fÄģ
zhÇĶ ĠshÃ¬Ġ
ĠwÃłn ĠlÃ¬Ġ
Ġ gÄĵnĠjÃ¹
ĠĠĠ mÄĽiĠguÃ³Ġ
se Ġ
jÃ¹Ġ juÃ©Ġ
chuÃ¡nĠ shuÅįĠ
lÇĲngĠ xiÃ¹Ġ
Ġ yÃŃnĠ
Ġ gÃ²ngĠyÇĴuĠ
lÄģĠ dÄ«ng
huÃłĠhÃ©Ġ wÃ¹Ġ
er ĠĠĠ
ĠÃ©rĠ bÃºĠshÃ¬Ġ
ÄģnĠ zhuÄģng
Ġ hÃłn
Ġ zhÃło
Ġ ruÃ¬Ġ
rÃ¨n ĠshÃŃĠ
1987 ĠniÃ¡nĠ
chuÃłngĠ bÃłn
Ġ xuÄģnĠ
Ġ kÇĴngĠ
bÃło ĠlÃ¬Ġ
ÄģnĠ nÃłĠ
ĠyÄ«Ġ xuÃ©Ġ
Ġ gÃ²ng
Ġ pÃł
zhÃ¬ ĠbÃ¹Ġ
ĠA Ġ
jiÄģĠlÃ¬Ġ fÃºĠ
qiÃ³ng Ġ
ĠyÇĴuĠ yÃŃĠgÃ¨Ġ
ĠxiÃłnĠ xiÃłngĠ
shÃłngĠ yÃ¬ngĠ
ĠĠĠ lÇĲĠ
fÇİ ĠyÇĶĠ
wÃ©n ĠyÃ¬Ġ
shÃº Ġ
ĠzÃłiĠ nÃ¨iĠdeĠ
gÄģoĠ sÃ¹Ġ
Ġ rÃ³ngĠ
ĠzÃłiĠ dÃ¹Ġ
ĠÃ©r ĠbÃ¹Ġ
jÃ¬ ĠshÃ¬Ġ
yuÃłn ĠshÃ¬Ġ
ĠwÃ¨iĠ xÄ«ngĠ
ĠlÇĲĠ lÃ¹n
wÇĴĠ menĠ
Ġ kÇİ
yÃ¡nĠ shÄĵn
hÇİiĠ ÃłnĠ
chuÃłng ĠjiÃłnĠ
bÄ«n ĠhÇİiĠ
shÃ¹n ĠlÃ¬Ġ
1980 ĠniÃ¡nĠ
ĠdÅįngĠ bÄĽiĠ
ĠĠĠcÇĲĠ wÃłiĠ
Ġ 2013ĠniÃ¡nĠ
mÄĽi ĠgÃ¨Ġ
lÃ©i ĠsÄ«Ġ
ruÇİn ĠjiÃłnĠ
ĠshÄĵngĠ zhÇİng
shÅ«Ġ rÃ¹Ġ
ĠyÃ³u ĠqÃŃĠshÃ¬Ġ
tuÄ« ĠjÃ¬nĠ
ĠhÃ©Ġ bÃ¹Ġ
zÄ«Ġ chÇİnĠ
lÃ¹nĠ wÃ©nĠ
ĠxÃŃngĠ zhÃ¨ng
nÇļĠ xÃ¬ng
wÇİng ĠqiÃºĠ
hÇİiĠ wÃłiĠ
tÃ³ng ĠniÃ¡nĠ
Ġ shÇĶ
Ġ nÃł
Ġ tÇİĠ
ĠbÃ¹Ġ luÃ²Ġ
ĠdÃłĠ shÃł
zhÇĶĠ yÃ¬ĠdeĠ
pÃŃngĠ lÃ¹nĠ
Ġ 2010
zuÃ¬Ġ gÄģo
yÃ¬ngĠ yÃ²ng
cÇİiĠ qÇĶĠ
Ġ 2012
Ġ wÇİĠ
jiÃło ĠshÃ¬Ġ
bÇİnĠ bÄĽn
pÃ¡iĠmÃŃng ĠdÃ¬Ġ
Ġ sÄģiĠ
biÃłn ĠwÃ¨iĠ
Ġ 2006ĠniÃ¡nĠ
zÅ« Ġ
bÃłoĠ gÃło
ĠbÄĽiĠ jÄ«ngĠ
yÃº ĠdeĠ
jÃ¹ ĠhÃ©Ġ
bÅįĠ fÃłngĠ
ĠĠĠ qÃŃĠ
sÄģn ĠshÃ¬Ġ
ĠzÃłiĠ xÄ«Ġ
rÃ©nĠ dÃłĠ
ĠdÃ© ĠÄĽrĠ
ĠhÃ²uĠ xuÇİnĠrÃ©nĠ
tÃ³uĠ zÄ«
wÇİngĠ luÃ²
1982 ĠniÃ¡nĠ
mÇİ ĠlÇĲĠ
zÃ© ĠrÃ¨nĠ
fÄģngĠ miÃłnĠdeĠ
gÃ¨Ġ zhÇĴngĠ
Ġ Ma
Ġ sÃłiĠ
ĠshÃ¬Ġ mÃŃnĠ
ĠhÃ©Ġ dÃłĠ
diÃłnĠ zi
lÇĲng ĠdÃ¬Ġ
rÇİo Ġ
ĠzÃłiĠ cÃ¬
fÃłnĠwÃ©iĠ nÃ¨iĠ
ĠĠĠ qiÃ¡nĠ
ĠĠĠjÃ¹Ġ qÃŃngĠ
zhÃ¨ ĠlÇĲĠ
xiÄģng ĠshÃ¬ĠdÃ¬Ġ
ĠyÃºĠ rÃ©nĠ
zhÃ¨ngĠ dÇİngĠ
yÇĲnĠ qÃŃngĠ
ĠĠĠand ĠĠĠ
ĠrÃ¬Ġ bÃłoĠ
ĠlÃ¬ng ĠyÄ«Ġ
xÃŃng ĠchÃ©ngĠ
fÄģ ĠxÃŃngĠdeĠ
1983 ĠniÃ¡nĠ
ĠjÄ«Ġ hÅ«Ġ
Ġ 188
zhÃŃĠ jiÄĵ
fÄĵng ĠwÃ¨iĠ
pÃłi ĠdeĠ
ĠshÃ¬Ġ gÃ¹Ġ
xÃ¬Ġ bÄģo
ĠmÄĽi ĠgÃ¨Ġ
ĠzhÃ¬Ġ shÇİoĠ
biÇİoĠ dÃ¡Ġ
yuÃłn ĠyÃ¬Ġ
17 Ġ
1945 ĠniÃ¡nĠ
ĠtÄģ ĠhÃ©Ġ
jÃ¹Ġ lÃ¨ĠbÃ¹Ġ
dÃºĠ lÃ¬ĠdeĠ
ĠzhÄ«Ġ fÃ¹Ġ
diÃłnĠ nÇİo
jiÇĶĠ lÃ³ngĠ
dÄģngĠ xuÇİnĠ
yÇĶnĠ xÇĶ
ĠĠĠ chÅ«Ġ
hÃ¨ ĠÄĽrĠ
miÃ¡n Ġ
zÃ¬Ġ rÃ¡n
ĠyÇĴuĠ xiÃłoĠ
Ġ lÃ¡i
ĠĠĠ xiÃłnĠ
Ġ Ã¨Ġ
bÃº Ġ
wÄĵn ĠdÃ¹Ġ
jÃ¬Ġ chÃ©ngĠ
huÇĴĠ shÄģnĠ
Ġ yÃŃngĠ
Ġ yÃ²ngĠyÃºĠ
ĠyÄ«Ġ xiÇİoĠshÃŃĠ
ĠdÃłĠ xÄ«ĠyÃ¡ngĠ
guÃ²Ġ qÃ¹
pÃ¡iĠ hÃ¡ngĠ
Äģn ĠdÃ©Ġ
jiÃ¹Ġ dÃº
ĠdÅįngĠ lÃŃnĠ
zhÄ«Ġ chÃŃ
fÇİngĠ wÃ¨n
mÃŃngĠ zÃ¬Ġ
ĠzuÃ²Ġ jiÄģĠ
jÇĲngĠ chÃ¡
dÇİng ĠyuÃ¡nĠ
xÇĲĠ huÄģn
qÅ« ĠyÃ¬ĠhuÃ¬Ġ
ĠdÃłĠ fÃºĠ
ĠdÃ©Ġ huÃ¡Ġ
Ġ 2012ĠniÃ¡nĠ
huÃłn ĠchÃ©ngĠ
biÇİoĠ yÇİn
xiÃłn ĠzhÃ¬Ġ
yÃ¡ng ĠshÃ¬Ġ
dÅįu ĠzÃłiĠ
ĠdÃ¬Ġ yÃŃĠgÃ¨Ġ
fÄģngĠ yÃ¡nĠ
ĠyÇĶĠ mÃ¡o
ĠchÅ«Ġ zhÃłnĠ
bÇĲĠ yÃł
ĠĠĠdÃ¬Ġ fÄģngĠ
xiÄģngĠ dÄģng
1 ĠlÃ¬Ġ
ĠbÃ¬ng ĠbÃ¨iĠ
tiÃ¡oĠ zhÄĽng
qÅ« ĠhÃ©Ġ
40 Ġ
ĠyÄ«Ġ tÃ³ngĠ
ĠzhÅįngĠhuÃ¡ĠrÃ©nĠmÃŃnĠgÃ²ngĠhÃ©ĠguÃ³Ġ zhÃ¨ngĠzhÃ¬ĠrÃ©nĠwÃ¹Ġ
ĠxiÃłn ĠshÃ¬Ġ
jÄ«ngĠ yÃłnĠ
pÇĶĠ biÃłnĠ
Ġ diÃłnĠyÇĲngĠ
zuÃ² ĠshÃ¬Ġ
ĠzhÅįngĠ bÃ¨iĠ
guÄģnĠ diÇİnĠ
kÄĵĠdeĠ qÃŃĠzhÅįngĠyÄ«ĠzhÇĴngĠ
Ġ shuÅįĠ
ĠgÅįngĠ yÃ¬Ġ
hÃ¡n ĠyÇĴuĠ
ĠjÃ¬Ġ suÃłnĠ
xÃºnĠ yÃ¡ng
Ġ shÄĵngĠyÃºĠ
liÇİng ĠmÃŃngĠ
diÇİn ĠlÇĲĠ
zhÃ²ngĠ duÅįĠ
jiÃłngĠ dÄ«Ġ
dÃł ĠzhÃ¬Ġ
ĠbÃ¬ngĠ dÃº
ĠqÃŃĠzhÅįngĠ yÄ«Ġ
yÃł ĠjÅ«nĠ
shÃ¨Ġ qÅ«Ġ
Ġ fÄģnĠ
ĠĠĠ 3
kÇĴu ĠwÃ¨iĠ
chÃ©ngĠ yuÃ¡nĠ
zhÄ«Ġ qiÃ¡nĠ
mÃ¬ĠshÅ«Ġ zhÇİngĠ
Ġ 7Ġ
Ġ jiÃ¹ĠshÃ¬Ġ
ĠdÃ¬Ġ sÃ¬
Ġ rÃ©ng
tiÃ¡o ĠlÃ¬Ġ
nÃ¨iĠ gÃ©Ġ
shÃ¹ ĠyÇĶĠ
shÄģn ĠshÃ¬Ġ
wÃº ĠzhÃ¨ngĠzhuÃłngĠ
ĠxiÃłnĠ rÃ¨nĠ
tÅ«Ġ pÃ²Ġ
xiÄĽ ĠdÃłoĠ
dÃłng ĠtiÄģnĠ
shÄĽ Ġ
yÃŃĠ dÃ¹Ġ
ĠzÇĶ ĠfÃ¹Ġ
Ġ nÃ©ngĠ
Ġ pÃŃngĠjÅ«nĠ
guÃł Ġ
ĠxÃŃng ĠwÃ¨iĠ
ĠgÅįngĠ mÃŃnĠ
xÄ«ngĠ dÄĽngĠwÃ¨iĠ
ĠshÃ¬Ġ yÃºĠ
ĠtÃ³ng ĠyÃ¬Ġ
Ġ liÃ¹
is ĠĠĠ
hÃ³ngĠ sÃ¨Ġ
ĠbÇĲĠ sÃłiĠ
kÄģiĠshÇĲ ĠzÃłiĠ
Ġ0 Ġ
ĠĠĠ jÃŃĠ
tuÃ¡n ĠdeĠ
gÄĽi ĠleĠ
ĠjÄ«Ġ jÄ«nĠ
sÇĲĠ wÃ¡ng
zhÄĽngĠ tÇĲĠ
z Ġ
Ġ c
Ġ 500
lÇĶ ĠsÄ«Ġ
wÃ¡nĠ zhÄĽng
ĠĠĠ 2011
juÃ© ĠduÃ¬Ġ
ĠquÃ¡n ĠlÃ¬Ġ
dÃłiĠbiÇİo ĠdÃłĠhuÃ¬Ġ
chÃŃ ĠyÇĴuĠ
yÄ«ngĠ wÃ©nĠ
5 ĠrÃ©nĠ
zhÃ¨ng ĠbÃ¹Ġ
ĠshÃ¬Ġ bÄ«ngĠ
gÃłiĠ niÃłn
bÄĽn ĠrÃ©nĠ
ĠgÅįngĠ jÃ¹Ġ
shÃ¨Ġ shÄ«Ġ
ĠzuÃ¬ ĠchÅ«Ġ
Ġ sÅ«n
Ġ 30Ġ
gÅįngĠ chÃ©ngĠ
ĠzhÃ¨Ġ zhÇĴng
xiÃłĠxiÃ¡ ĠdeĠyÃŃĠgÃ¨Ġ
huÃ¡ng ĠhÃ²uĠ
ĠĠĠ ÄģĠ
zhÇĴngĠ zÃºĠ
ĠsuÃ¬ ĠshÃŃĠ
Ġ xÃ¬nĠ
ĠĠĠ 2010
ĠĠĠ 1Ġ
nÃŃ ĠÄĽrĠ
zhÃŃĠ dÇİoĠ
ĠdeĠchÃ©ngĠ jÃ¬Ġ
ĠjÃŃĠ rÃ©nĠ
yÃŃĠ dÃ¬ngĠ
Ġ dÃ¡
lÃ¡i ĠyuÃ¨Ġ
bÇİoĠ shÇĴuĠ
jiÃ¨Ġ shÃłoĠ
tÃ³uĠ xiÃ¡ngĠ
guÃ¬Ġ zÃºĠ
yÃ¬ ĠniÃ¡nĠ
yuÃ¨ ĠzhÅįngĠ
zhÃ¨nĠ qÅ«ĠdeĠ
zÇİoĠ qÄ«
bÃ³ĠshÃ¬Ġ xuÃ©ĠwÃ¨iĠ
ĠĠĠ qÃŃĠtÄģĠ
shÄģn ĠjÄ«Ġ
qÇĲĠ dÃ²ngĠ
tÄģng Ġ
kuÃ¬ Ġ
ĠwÃ©iĠ ÄĽr
gÇĶ ĠdÃłiĠ
ĠmÃŃngĠ dÄģnĠ
mÃŃng ĠrÃ©nĠ
zhÄĽn Ġ
ĠdÃ© ĠyÇĶĠ
shÃ©nĠ meĠ
ĠyÄ«Ġ zuÃ²Ġ
ĠyÇĲĠ jÃŃ
ĠÃ©rĠ gÄģiĠ
hÄĵiĠ sÃ¨Ġ
yÄģoĠ qÇĲng
te ĠĠĠ
ĠrÃ©nĠmÃŃnĠ zhÃ¨ngĠfÇĶĠ
ÄĵnĠ shÄĽngĠ
tÃ²uĠ guÃ²
3 ĠgÃ¨Ġ
ĠxiÇİng ĠniÃ¡nĠ
wÃºĠzhÃ¨ngĠzhuÃłngĠ gÇİnĠrÇİnĠ
suÃŃ ĠzhÃ¹Ġ
sÄģ Ġ
mÃ¹Ġ qiÃ¡n
huÃ³ ĠyuÃ¨Ġ
chÃ¡ngĠ wÃ¹Ġ
chÃ¡ngĠ wÄĽiĠ
bÄĽiĠjÄ«ng ĠshÃ¬Ġ
quÃ¨ĠzhÄĽn ĠbÃ¬ngĠlÃ¬Ġ
mÃŃng ĠzhÃ¬Ġ
ĠrÃ¬ ĠyÃºĠ
gÇİiĠ mÃŃngĠwÃ¨iĠ
chÅ«Ġ shÄĵnĠ
diÃłnĠ huÃłĠ
Ġ 2022
tÃºn Ġ
ĠbÃ¹Ġ sÄ«Ġ
ĠjÄ«Ġ sÄ«Ġ
tÃłiĠ ziĠ
18 Ġ
ĠbÇĲĠ rÃºĠ
gÄģoĠsÃ¹ ĠgÅįngĠlÃ¹Ġ
ĠĠĠ gÄģi
kÃ¨ ĠchÃ©ngĠ
kÃ¹n ĠnÃ¡nĠ
ĠbÃ¹Ġ lÃ¬Ġ
zuÃ¬Ġ duÅįĠ
quÄĵĠ fÃ¡
dÄģn ĠdeĠ
lÃ³ng ĠdeĠ
gÃ¨ng ĠwÃ©iĠ
yÇĲĠ jÄ«ngĠ
Ġ Ã¨rĠshÃŃĠ
tÃŃ ĠjÃŃĠ
rÃ¹Ġ xuÇİnĠ
ĠwÃ¨iĠyÃºĠ zhÅįngĠguÃ³Ġ
sÄģiĠÄĽrĠ wÃ©iĠ
7 ĠrÃ©nĠ
huÃ¬ ĠzhÅįngĠ
shÅįu ĠjÃŃĠ
ĠlÃ¬Ġ fÇİ
xuÃ©Ġ huÃ¬Ġ
ĠbÃ¬ngĠ fÄĵiĠ
hÇİiĠ xiÃ¡Ġ
gÃ²u ĠdeĠ
ĠxÄ«Ġ jiÄĵĠ
gÄĵĠ lÃºnĠ
ĠjÄ«Ġ chÇİng
jÃ¹ ĠdÃłĠ
duÅį ĠrÃ©nĠ
ĠchÃ©ngĠ rÃ©nĠ
fÃ¹Ġ zÃ©
ÄģnĠ nÃł
zÃºĠqiÃºĠ yÃ¹nĠdÃ²ngĠyuÃ¡nĠ
xiÄĽ ĠdeĠ
zhuÄ«Ġ sÃ¹
k ĠĠĠ
Ġ yÃ²ng
Ġ 2014ĠniÃ¡nĠ
ĠtÃ³ngĠshÃŃĠ gÄģiĠdÃ¬Ġ
zuÃ²Ġ chÅ«Ġ
bÄĵi ĠsÄ«Ġ
ĠyÄĽ ĠzÃłiĠ
shÄĽng ĠdeĠ
lÃ¬ng ĠrÃ©nĠ
fÃłnĠ zuÃ¬Ġ
huÃ¬ ĠzhÃ¬Ġ
ĠdÃ©Ġ zhÇĶĠ
tÇİoĠ lÃ¹n
Ġ yuÄĵ
tiÃło Ġ
ĠjÃŃĠ dÃ¬Ġ
nÃ¨iĠlÃ¹Ġ shÄĽngĠfÃ¨nĠ
ÄģnĠ huÄ«Ġ
kÄĵĠxuÃ©Ġ jiÄģĠ
Ġ Z
Ġ yÄģoĠqiÃºĠ
tÃº ĠxÃŃngĠ
ĠguÃ³Ġ nÃ¨iĠ
pÄ«Ġ zhÇĶn
jiÄģng ĠzÃłiĠ
ĠbÃ¬ngĠ dÃºĠ
shÃ¬ ĠĠĠ
Ġ h
cÃ¬ ĠdeĠ
zhÃº ĠbÃ¹Ġ
ĠdeĠdÃ¬Ġ Ã¨rĠ
shÃ²u ĠdeĠ
shÄģn ĠdeĠ
ĠshÃ¬Ġ yÄ«nĠwÃ¨iĠ
ĠkÃ¨ ĠxÄ«Ġ
qiÃ¡ngĠ liÃ¨Ġ
liÃ¡nĠhÃ©Ġ huÃ¬Ġ
Ġ pÃ²Ġ
chÄģo ĠyuÃ¨Ġ
1972 ĠniÃ¡nĠ
jiÃ©Ġ guÇĴ
tÃ¡iĠ nÃ¡n
jiÇİnĠ shÇİo
ĠĠĠ Ch
dÄ« ĠyÃºĠ
xiÃłĠlÃ¬ng ĠshÃŃĠjiÄģnĠ
H Ġ
hÇİi ĠpÃŃngĠmiÃłnĠ
bÃº ĠdÃłoĠ
ĠshÃŃĠ qÄ«ĠdeĠ
ĠyuÃ¡nĠ xÃŃngĠ
Ġ wÃ¡nĠjiÄģĠ
yÄĽ ĠzÃłiĠ
ĠjÄ«Ġ huÃ¬Ġ
ĠxuÃ©Ġ yuÃłn
yÃŃĠ dÃ¬ng
huÄ«Ġ fÃ¹
Ġ chÃ¡
guÃ² ĠdeĠ
yÃłĠ mÄĽiĠ
pÃłiĠ qiÇİn
tÃŃĠgÅįngĠ leĠ
biÄģnĠ jiÃ¨Ġ
dÇĴngĠshÃ¬Ġ zhÇİngĠ
N Ġ
1978 ĠniÃ¡nĠ
tÅįu Ġ
jiÃłĠ gÃ©Ġ
tÃŃ ĠyÃ¬Ġ
shÅ« ĠzhÅįngĠ
xÅ«n ĠzhÄģngĠ
fÄģngĠ fÇİ
shÄ«Ġ bÃłiĠ
ĠjiÃłoĠ yÃ¹Ġ
zhÇĶĠyÃło ĠdeĠ
zhÇĶĠ jiÃło
ĠhÃło ĠdeĠ
nÃŃĠyÃł ĠzhÅįuĠ
1979 ĠniÃ¡nĠ
ĠhÃ²uĠ bÃ¨iĠ
guÄģnĠ chÃ¡Ġ
ĠxuÃ©Ġ jiÄģĠ
liÃºĠ xiÃłĠ
shuÄģngĠ fÄģngĠ
ĠĠĠbÃ¨iĠ jÇĲngĠ
Ã©r ĠtÃ³ngĠ
ĠyÄ«Ġ lÃ¬Ġ
jiÄģ ĠyÃ¬Ġ
ĠbÃ¹Ġ duÃ¬
ĠyÇĲĠ wÃ©iĠ
ĠzÃłiĠ shÃŃĠ
liÃ¡nĠ xÃ¹
xiÃłn ĠdeĠ
qÄ«n ĠzÃ¬Ġ
ĠÃ©rĠ ziĠ
Ġ 1950
ĠyÇĴuĠ suÇĴĠ
zuÃ¬Ġ gÄģoĠdeĠ
huÃ¬ĠyÃ¬Ġ yuÃ¡nĠ
ĠĠĠ 2Ġ
sÄģnĠ jiÇİo
zhuÄģngĠ jiÇİĠ
ĠĠĠdÃ¬ĠfÄģngĠ zÄ«ĠliÃłoĠ
6 ĠrÃ©nĠ
le ĠzÃłiĠ
rÃ¨n ĠwÃ¨iĠ
mÇİ ĠÄĽrĠ
lÃ¡n ĠdeĠ
nÃ¡ ĠxiÃłĠ
pÃŃngĠ tÃ¡iĠ
fÄĵiĠ chÃ¡ng
ĠĠĠ jiÇİnĠjiÃ¨Ġ
duÅį ĠwÃ¨iĠ
zÇĶ ĠfÃ¹Ġ
ĠhÃ©Ġ yuÄĵĠ
bÃ¨i ĠdeĠ
1976 ĠniÃ¡nĠ
ĠlÃ¬Ġ liÃłngĠ
ĠchÅ«Ġ kÇĴuĠ
ĠtÄģĠcÃ©ng ĠdÃłiĠbiÇİoĠ
ĠĠĠ Ma
ĠdÃ¬Ġ lÇĲĠ
nÃ¡nĠ bÄĽiĠ
gÇİiĠ biÃłn
nÃ©ng ĠyuÃ¡nĠ
la Ġ
ĠdÃ¬Ġ qÄ«Ġ
ĠxiÃłnĠ fÇİĠ
dÃŃ ĠshÃ¬Ġ
st Ġ
ĠhÃ²uĠ zhÄĽĠ
zÃ¬ ĠdeĠ
tÃ¡i ĠzhÅįngĠ
ĠzhÃ¨ngĠ mÃŃngĠ
ĠshÃŃĠjÃ¬Ġ shÃłngĠ
ĠchÃ©ngĠ zhÃ¨nĠ
quÄĵĠ fÃ¡Ġ
Ġ mÃ©i
Ġ 28
Ġ 2015ĠniÃ¡nĠ
ĠĠĠ Re
xuÇİn ĠzhÅįngĠ
dÃŃ ĠrÃ©nĠ
ĠlÃ¬Ġ yÃ¬Ġ
lÇĲ ĠhÃ©Ġ
liÇİo Ġ
pÃłi ĠchÅ«Ġ
ĠzhÅįngĠguÃ³ĠrÃ©nĠmÃŃnĠ jiÄĽĠfÃłngĠjÅ«nĠ
Ġ lÇĶĠ
duÅįĠ zhÇĴngĠ
tÃ¡nĠ pÃłnĠ
liÃ¡oĠ nÃŃngĠ
pÃŃng ĠwÃ¨iĠ
ĠshÃ¬Ġ gÅįngĠ
ĠbÃ¹Ġ shÇİoĠ
ĠsÄ«Ġ tÇİĠ
tÃŃ ĠchÅ«ĠdeĠ
suÃŃ ĠjÃŃĠ
Ġ sÃ¹Ġ
miÇİnĠ diÄģn
tuÃ¬Ġ xiÅ«Ġ
ĠdÃłĠxuÃ© ĠdeĠ
hÇİiĠbÃ¡ ĠwÃ¨iĠ
gÃłn ĠbÃ¹Ġ
lÄĽi ĠjÃ¬Ġ
ĠshÃŃĠ xÃŃngĠ
yÄ«ngĠ gÃ©ĠlÃ¡n
dÄģng ĠzhÅįngĠ
xÃ¹ ĠlÃ¬ĠyÃłĠ
juÃ© ĠyÃ¬Ġ
pÇĲ Ġ
shÄģng ĠrÃ©nĠ
biÄģo ĠbÄĽnĠ
fÄģĠ shÄĵngĠzÃłiĠ
suÇĴĠ cÇİiĠyÃ²ng
zhÇĲĠ dÇİoĠ
ĠjÃ¹Ġ juÃ©Ġ
huÃł ĠzhÅįngĠ
zÃłn ĠshÃŃĠ
1958 ĠniÃ¡nĠ
ĠfÃ¹Ġ jÃ¬n
ĠzhÅįngĠgÃ²ng ĠzhÅįngĠyÄģngĠ
ĠyÃ¬Ġ qÃŃngĠ
nÃ³ngĠ mÃŃnĠ
cÃ¬ ĠyÃºĠ
cÃ©ng ĠwÃ¨iĠ
yÃŃ ĠdÃłiĠ
ĠdÃ© ĠmÃŃngĠ
xiÅ«Ġ gÇİiĠ
ĠĠĠ yÄ«nĠ
shuÇĲ ĠlÃ¬Ġ
rÃ³ng ĠhÃ©Ġ
ĠzhÅįngĠ guÃ³ĠdeĠ
fÄģ ĠmÃŃngĠ
mÄĽi ĠzhÅįu
ĠqÃŃ ĠwÃ¨iĠ
zhÇĲĠ nÃ©ngĠ
zÄ«Ġ liÃło
ĠmÃŃng ĠzhÃ¬Ġ
1 ĠĠĠ
Ġ chÃº
zhuÇİn ĠxiÃłngĠ
ĠgÅįngĠ zhÃ²ngĠ
zhÇĴngĠ ziĠ
zhÇĶĠ yÇİnĠ
zÄ«Ġ bÄĽnĠ
ÄģĠlÄģĠ bÃ³
xiÄģngĠ sÃ¬Ġ
jiÄĵĠ chÃ¹Ġ
ĠbÄĽiĠ jÄ«ng
kÄģi ĠshÃ¨Ġ
xiÅ« ĠjiÃłnĠ
guÄģnĠ chÃ¡
Ġ bÇİ
jÃ¬ng ĠjÃ¬Ġ
jiÄĽĠ sÃłnĠ
ĠdeĠshÃ¬Ġ jiÃ¨Ġ
Ġ 2016ĠniÃ¡nĠ
wÇĶĠ zhuÄģng
bÃłoĠ zhÃłĠ
diÃłn ĠjÄ«Ġ
chÄģi ĠchÃºĠ
cn Ġ
kÄģiĠ tÅįngĠ
fÄģĠ qÇĲĠ
fÄģĠ shÃ²uĠ
jÇĶĠbÃłn ĠdeĠ
ng ĠĠĠ
shÄĵnĠ dÃ¹Ġ
ÄģnĠ pÃ¡i
Ġ diÃłnĠshÃ¬Ġ
qÅ« ĠshÃ¬Ġ
nÇĶ Ġ
2025 ĠniÃ¡nĠ
Ġ tÃ¡ng
wÃ©iĠ sÄ«Ġ
tuÃ¡nĠ tÇĲ
x ĠĠĠ
jÄ«Ġ gÃ²uĠ
fÃ¹Ġ zhÇĶĠrÃ¨nĠ
zÇĶĠzhÄ« ĠdeĠ
fÄĵngĠ xiÇİnĠ
diÃłoĠ kuÃłi
ĠĠĠ qÃŃ
chÃ©ng ĠhÃ©Ġ
biÄģn ĠjÃ¹Ġ
ĠyÇĶĠ qÃŃĠtÄģĠ
zhÄģngĠ zhuÄģnĠjÃŃĠ
Ġ jiÇİ
Ġ cnĠ
ĠĠĠ duÃ¬Ġ
jiÃ© ĠdeĠ
zÃło ĠleĠ
ĠwÃ¨iĠ UTCĠ
ĠbÃ¹Ġ jÃŃĠ
ĠzhÅįngĠ shÄģnĠ
nÃ©ngĠ liÃłngĠ
shuÃłiĠ lÇĲng
shÇĴu ĠzhÅįngĠ
bÃłnĠshÃ¬Ġ chÃ¹Ġ
ĠĠĠ w
qiÃº ĠjÃ¬Ġ
yÄ«ngĠ gÄģiĠ
ĠxÄ«ĠbÄģnĠ yÃ¡Ġ
yÃ³u ĠjÄ«Ġ
luÃ³ ĠlÇĲĠ
gÃ©Ġ lÄģĠ
jiÃ¹Ġ dÃºĠ
shÄģngĠ yÃ¨
diÃłoĠkuÃłi ĠyÄ«ĠxiÇİoĠshÃŃĠ
Ġ gÄĵ
zÃ© ĠzÃłiĠ
ĠdeĠ yÇĲngĠxiÇİngĠ
ĠniÃ¡nĠ lÃ¡iĠ
qiÃ¡ngĠ diÃłoĠ
Ġ 19
ĠwÃ¨iĠ dÃłĠ
ĠjÃŃĠ UTCĠ
yÄ«ngĠ xiÃ³ngĠ
ĠtÃ³ngĠ yÃłng
kÄĵĠxuÃ©Ġ yuÃłnĠ
shÃ¨ĠyÇĴuĠ xiÃłĠlÃ¬ngĠshÃŃĠjiÄģnĠ
ĠdeĠshÃŃĠqÅ«ĠwÃ¨iĠ UTCĠ
ĠÃ©rĠgÄģiĠdÃ¬Ġ suÇĴĠcÇİiĠyÃ²ng
ĠtÃ³ngĠshÃŃĠgÄģiĠdÃ¬Ġ shÃ¨ĠyÇĴuĠxiÃłĠlÃ¬ngĠshÃŃĠjiÄģnĠ
ĠÃ©rĠgÄģiĠdÃ¬ĠsuÇĴĠcÇİiĠyÃ²ng ĠdeĠshÃŃĠqÅ«ĠwÃ¨iĠUTCĠ
shuÄģi Ġ
xiÄģoĠ fÃ¨iĠ
xÃ¬nĠ yÇİngĠ
tÄģĠmen ĠdeĠ
ĠdÃłĠ jiÇİngĠ
jiÃłoĠ tÃ¡ng
bÇİoĠ liÃº
ĠlÃ¬ng ĠyÇĴuĠ
ĠyÄ«ĠsÄ«Ġ lÃ¡nĠ
ar Ġ
kÃ¹n Ġ
yuÃ¡nĠ zhÃ¹Ġ
tÃłiĠ dÃ¹Ġ
chuÃ¡nĠ bÅįĠ
ĠgÄģiĠ cÅ«nĠ
suÇĴ ĠzÃłiĠdÃ¬Ġ
quÃ¨ ĠdeĠ
pÃ¨i ĠzhÃ¬Ġ
zhÄ«Ġ jiÄģnĠdeĠ
ĠĠĠ jiÄģoĠtÅįngĠ
fÄģ ĠshÃ¨
ĠshÃŃĠ wÃ¹Ġ
dÃ¬ngĠ jÅ«Ġ
ĠlÃ¬ĠshÇĲĠ shÃłngĠ
gÄģoĠyÃºĠ hÇİiĠpÃŃngĠmiÃłnĠ
Ġ zhÄĵngĠ
ÇĴu Ġ
ĠmÇİĠ lÃ¡i
ĠwÃ¨iĠfÃºĠqÃŃĠyÃºĠ gÄģngĠ
xÃ¬ng ĠwÃ¨iĠ
zhÃº ĠjiÃłn
ĠbÃ¹Ġ nÃ©ng
ĠgÅįngĠ juÃ©Ġ
ĠÄĽrĠ duÅįĠ
wÃ¹ ĠhÃ©Ġ
hÃ¹ ĠxiÄģngĠ
ĠqÃŃĠ xiÃłĠ
8 ĠrÃ©nĠ
chÃ¹ĠdeĠ hÇİiĠbÃ¡ĠwÃ¨iĠ
chÃ¹ĠdeĠhÇİiĠbÃ¡ĠwÃ¨iĠ gÄģoĠyÃºĠhÇİiĠpÃŃngĠmiÃłnĠ
hÃ²u ĠwÃ¨iĠ
ĠyÃºĠ lÃ¨
ĠyÄ«nĠ sÃ¹Ġ
Ġ 23
Ġ kuÄģn
ĠĠĠ qÄ«ngĠ
tÇĲ ĠzhÃ¬Ġ
jÃ¬ngĠ xuÇİnĠ
Ġ dÄģn
wÃ¹ ĠshÃ¬Ġ
chÇİngĠ suÇĴĠ
ĠzhÄ« ĠyÃ¬Ġ
kuÃ¡ng Ġ
ĠhÃ©Ġ pÃłnĠ
ĠbÃ¹Ġ jÇĲnĠ
ĠyÇĲĠ xÄ«Ġ
fÄģ ĠxiÃłnĠdeĠ
zhÃ²ng ĠshÃ¬Ġ
ĠqÃŃ ĠshÃŃĠ
ĠsuÃŃ ĠzhÃ¹Ġ
ĠĠĠ 17
lÃ¹ ĠzhÃ¬Ġ
nÃ¡nĠ jÄ«ng
zhÇİngĠ dÃ¡Ġ
yÃ¹nĠ shÅ«
Ġ 2008
Ġ 2017ĠniÃ¡nĠ
shÃ¹ ĠshÃŃĠ
nÃ¨i ĠdÃ¬Ġ
Ġ 8Ġ
Ġ nÇĲĠ
ĠĠĠ In
shÃŃĠ qÅ«Ġ
gÄģoĠ xiÃ³ng
chÃ³ngĠ qÃ¬ng
ĠĠĠ mÇİĠ
jiÃłn ĠchÃ©ngĠ
gÄĵng ĠxÄ«nĠ
ĠyÄ«Ġ jiÄģĠ
ĠxÄ«Ġ lÃ¡nĠ
yÃ¹nĠ yÃ²ngĠ
ĠzÃ¬Ġ rÃ¡nĠ
Ġ hÃº
Ġ xiÃ¨Ġ
bÃ¬Ġ yÃ¨ĠhÃ²uĠ
Ġ 24
ĠĠĠ rÃ¡n
Ã¨r ĠjÃŃĠ
biÄģn ĠhÃłoĠ
ĠlÃ¬Ġ rÃ¨nĠ
diÃłnĠ qÃ¬Ġ
shÄģnĠ fÄĵngĠ
ĠwÃ¨iĠyÃºĠ gÄģiĠ
Ġ xÅ«Ġ
Ġ zhÃ¨ngĠzhÃ¬Ġ
qiÃł Ġ
wÃ©iĠ ÄĽrĠ
zhÃŃĠ zhÃ¨ngĠ
Ġ huÃłnĠ
zhÄĽ ĠshÃ¬Ġ
wÃ¡ng ĠshÃ¬Ġ
ĠzuÃ²Ġ chÅ«Ġ
xiÃłoĠ qÅ«Ġ
xiÃ¡Ġ qÅ«Ġ
ĠĠĠ p
ĠĠĠ bÄĽn
bÄģo ĠwÃ©iĠ
bÃłng ĠqiÃºĠ
ĠdÃ¬Ġ qiÃº
xuÄģnĠ chuÃ¡n
xuÃ© ĠyuÃ¡nĠ
jiÃ¹ ĠhuÃ¬Ġ
cuÃ² ĠwÃ¹Ġ
jÄ«nĠ rÃ³ngĠ
ĠyÃ¹Ġ shÇĲĠ
Ġ liÃ¡nĠhÃ©Ġ
dÅįngĠ fÄģngĠ
hÃ²u ĠyÃ¬Ġ
bÄĽi ĠshÃ¬Ġ
jÄ«ngĠ chÃ¡ng
ĠrÃ¡n ĠÃ©r
Ġ dÃłi
Ġ yÃŃ
ĠjiÃ© ĠkÃ¨Ġ
huÃ¬ ĠyÃºĠ
ĠsÄ«Ġ kÄĵĠ
ĠduÃ¬Ġ shÇĴuĠ
ĠxÃŃngĠzhÃ¨ngĠ qÅ«Ġ
zhÃ¨nĠqÅ«ĠdeĠ miÃłnĠjÄ«ĠwÃ¨iĠ
mÃŃng ĠshÃ¬Ġ
ĠzhÅįuĠ cÃ¬ĠshÇĲĠ
ĠshÄĵngĠ yÃ¡Ġ
jiÄģ ĠyÇĲĠ
jÃº ĠdeĠ
pÇİo Ġ
Ġ shÄģ
fÃº ĠdeĠ
mÇİ ĠkÃ¨Ġ
ĠtÄģ ĠyÇĲĠ
ĠyuÃ¡nĠ zÃ¬Ġ
zÃłoĠ chÃ©ngĠdeĠ
Ġ Y
kÄĽ ĠzÃłiĠ
ĠlÇĲĠ xÄ«Ġ
zhÃŃĠ mÃŃnĠ
Ġ 2023
chÃ¡n Ġ
gÅįngĠ gÃ²ngĠ
pÃŃngĠ lÃ¹n
fÅ«Ġ kÇİĠ
ĠfÃºĠ wÃ¹Ġ
ĠdÄģngĠ shÃŃĠdeĠ
Ãło ĠzhÅįuĠ
ĠyÄ«Ġ jÃ¹Ġ
jÃ¬ ĠyÇĴuĠ
shÇĲ ĠjiÃłnĠyÃºĠ
rÃ¨n ĠdeĠ
yÄĽ ĠbÃ¨iĠ
miÃłn ĠshÃłngĠ
ĠsÄ«Ġ kÃ¨
ĠÃ©rĠ tÃ³ngĠ
ĠcÃ¬ ĠniÃ¡nĠ
Ġ qÄ«nĠ
Ġ 2018ĠniÃ¡nĠ
ĠxuÃ©Ġ zhÄĽĠ
ĠjiÃłn ĠshÃ¨
ĠwÃ©iĠ rÃło
ĠyÄĽ ĠbÃ¨iĠ
qiÄģnĠ shÇĶĠ
ĠqÃŃĠzhÅįngĠ bÄģoĠkuÃ²Ġ
Ġ tÃŃngĠ
Ġ bÇİnĠ
jiÄģ ĠzÃłiĠ
bÃłn ĠdeĠ
Ġ 2009
hÇİiĠ yÃ¡ngĠ
f Ġ
Ġ bÇİi
jÄ« ĠzÃłiĠ
lÃ¡i ĠyÄ«nĠ
jÃ¹n ĠgÅįngĠ
tÅ« ĠrÃ¡nĠ
ĠjÃŃĠ dÃłĠ
jÃ¬Ġ niÃłn
ĠdÃ© ĠzhÄ«Ġ
ĠjÄ«Ġ jÄ«nĠhuÃ¬Ġ
qÃ¬Ġ chÄĵ
xiÃłoĠlÃ¬Ġ yÃºĠ
Ġ 2019ĠniÃ¡nĠ
rÃºĠ guÇĴĠ
lÃ¬ngĠ yÃŃĠgÃ¨Ġ
xiÄģoĠ shÄ«Ġ
tiÃ¡nĠ jÃ¬ngĠ
tÃ¡oĠ tÃłiĠ
ĠwÃ¨iĠ duÃ¬Ġ
dÄģngĠ dÃ¬ĠdeĠ
jiÃłngĠ lÇĲngĠ
yÃ¡nĠ hÇİiĠ
wÄĽiĠyuÃ¡nĠhuÃ¬Ġ wÄĽiĠyuÃ¡nĠ
Ġ gÇİnĠ
1968 ĠniÃ¡nĠ
ĠlÇĲĠ yÃłĠ
Ġ 2ĠyuÃ¨Ġ
ĠĠĠ jÇĲnĠ
pÃŃng ĠyuÃ¡nĠ
dÄĽng ĠjÃŃĠ
Ã¨r ĠrÃ©nĠ
bÃ¨iĠ jÇĲngĠ
kÇİĠ luÃ³Ġ
Ġ bÃłiĠ
ĠĠĠ shÃ¨ngĠ
duÃ¬ ĠqÃŃĠ
jÃ¬n ĠbÃ¹Ġ
liÇİng ĠguÃ³Ġ
tÃ¨Ġ dÃ¬ngĠ
fÃ¨nĠ zÇĲ
Ġ yÃºnĠ
dÃł ĠbÃ¹Ġ
dÃ¬ng ĠyÃºĠ
ĠqÃŃ ĠdeĠ
ĠdeĠbÃ¹Ġ fÃ¨nĠ
zhÃŃĠmÃŃn ĠdÃ¬Ġ
Ġ 26
Ġ fÄģĠxiÃłnĠ
jiÃło ĠdÃłĠ
ĠzhÃ¬Ġ zuÃ²ĠdeĠ
ĠjÄ«Ġ dÅ«Ġ
gÇİiĠ zÃłoĠ
chuÃ¡nĠtÇĴng ĠdeĠ
shÄĵngĠ yÃ¡
diÃłnĠ nÇİoĠ
ĠbÃ¹ĠbÃ¹Ġ zhÇİngĠ
guÄģn ĠjiÃłnĠ
jÄ«ngĠ shÃ©n
ĠqiÃ¡nĠ wÇİngĠ
diÇİn ĠshÃ¬Ġ
yÃ¬Ġ shÃ¹Ġ
lÃŃĠ kÄģi
quÃ¡nĠ miÃłnĠ
mÃ²ĠxÄ«Ġ gÄĵĠ
Ġ shÇĴu
zhÃ¨n ĠdeĠ
tuÄ« ĠchÅ«
gÇĴu Ġ
guÃ³Ġ jiÄģ
ĠdÃ¬Ġ tiÄĽ
ĠxiÃłn ĠyÇĲĠ
ĠjÄ«Ġ chÇĶ
ĠjÃ¹Ġ lÃŃ
Ġ xiÃ¡nĠ
ĠluÃ³Ġ mÇİĠ
gÃ© ĠshÃ¬Ġ
tou Ġ
ĠshÃŃĠ duÃłnĠ
jiÄĵĠ duÃłn
liÇİngĠ cÃ¬Ġ
ÃłiĠÄĽrĠ lÃ¡nĠ
wÃ©n ĠdeĠ
sÄģn ĠmÃŃngĠ
hÅ«n ĠyÄ«nĠ
dÃłĠ lÃ¹
ĠyÃ¬Ġ yÃºĠ
shÅ«Ġ yuÃłnĠ
ĠshÄģnĠ dÅįngĠ
ÄģĠlÄģĠ bÃ³Ġ
Ġ xiÄģn
ĠĠĠ nÃ¡nĠ
mÃ¹ ĠdeĠ
bÅį ĠsÄ«Ġ
huÃ¬Ġ zhÇİngĠ
mÇİnĠ zÃºĠ
ĠdiÃłnĠ yÇĲng
Ġ xÄ«ng
qÄ« ĠwÃ¨iĠ
pÃ¨i ĠyÄ«nĠ
ĠdÃ¬Ġ diÇİnĠ
jÃ¬ngĠ zhÄĵngĠ
cÃ¡iĠ nÃ©ngĠ
xÄ«n ĠchÃ©ngĠ
liÇİng ĠwÃ¨iĠ
1970 ĠniÃ¡nĠ
zhÃ¨ngĠ jÃ¹Ġ
liÃ¡n ĠdeĠ
xiÅ« ĠfÃ¹Ġ
ĠbÃ¬ngĠ yÃ³uĠ
hÃ¹Ġ liÃ¡nĠ
chÅ«Ġ bÇİn
ĠyÃ³u ĠjÄ«Ġ
ĠwÃºĠ fÇİĠ
lÄģ ĠjÄ«Ġ
kÃło ĠjÃ¬nĠ
ĠdÃ¬Ġ dÃłiĠ
ĠlÃ¬Ġ shÃŃĠ
jiÄĽĠ fÃłngĠ
nÃ¨i ĠzhÃłnĠ
bÅį ĠshÃ¬Ġ
ĠwÃ©iĠ chÃŃ
zÄģiĠ pÃ©iĠ
Ġ liÃ¹Ġ
duÃ¬Ġ zhÇİngĠ
fÄģĠ qÇĲ
jÅ«Ġ zhÃ¹ĠzÃłiĠ
shÅįuĠ gÃ²uĠ
Ġ wÃ¡nĠ
zhÃ¨ ĠshÃ¬Ġ
zÇİo ĠzÃłiĠ
Ġ chÅįngĠ
bÃ¬ng ĠbÃ¹Ġ
shÇĴuĠ xiÃłngĠ
shÄģnĠ qÅ«Ġ
zÃºĠqiÃº ĠjÃ¹ĠlÃ¨ĠbÃ¹Ġ
lÇĲ ĠchÃ©ngĠ
jiÄģoĠ liÃº
ĠguÃ³ĠwÃ¹Ġ yuÃłnĠ
Ġ gÄĵnĠ
qÇĲ ĠyuÃ¡nĠ
wÄĽi ĠfÃ¹Ġ
ne Ġ
ĠshÃ¬Ġ dÃ©ĠguÃ³Ġ
cÅ«nĠ luÃ²Ġ
fÅ« ĠdeĠ
jÄ«Ġ chÇĶ
ĠdÃłĠ lÃ³u
yÃ¡nĠ sÃ¨Ġ
xiÃłngĠ zhÄĵngĠ
ĠwÃ©iĠ sÄ«Ġ
tiÄģnĠ tÇĲĠ
dÅįu ĠbÃ¨iĠ
ĠbÃ¹Ġ bÄ«ngĠ
ĠyÇĶĠ yÃ¡n
ĠĠĠdÃ¬Ġ Ã¨rĠ
V Ġ
Ġ 2004ĠniÃ¡nĠ
liÃ¹ ĠshÃŃĠ
ĠzhÃ¬Ġ liÃłngĠ
ĠzhÅįuĠ fÇĶĠ
lÃ¡ng ĠzhÅįngĠ
ĠyÄ«Ġ yuÃłn
ĠxÃŃngĠ mÃ¹Ġ
chÃ¡ngĠ dÃ¹Ġ
Ġ dÄ«ngĠ
xÃ¬ng ĠhÃ©Ġ
ĠyÇĲĠ wÃłiĠ
luÃ²Ġ fÃ¡
1956 ĠniÃ¡nĠ
ĠzhÃ¬Ġ dÃ¬Ġ
ĠyÇĶĠ yÄ«Ġ
wÃºĠzhÃ¨ngĠzhuÃłngĠgÇİnĠrÇİnĠ zhÄĽĠ
ĠĠĠ 2008
liÃłng ĠwÃ¨iĠ
mÇĶ ĠdeĠ
juÃłn Ġ
ĠdÃ© ĠsÄ«Ġ
shÄ«Ġ qÃ¹
Ġ 2020ĠniÃ¡nĠ
zuÃ¬ ĠchÅ«
Ġ yÃ¬ĠshÃ¬Ġ
ĠĠĠ 4
xiÄĽ ĠzuÃ²Ġ
mÃ¨ng ĠjiÄģĠ
Ġ bÇİo
tÃ¨Ġ xÃ¬ngĠ
ĠwÃ¨iĠyÃºĠ mÄĽiĠguÃ³Ġ
Ġ zÃ¡ĠzhÃ¬Ġ
jiÇİ ĠdÃ¬Ġ
tÃłiĠ yÃ¡ng
ÃłoĠ mÃ©n
ĠzuÃ¬ ĠjiÄģĠ
2 ĠgÃ¨Ġ
1981 ĠniÃ¡nĠ
zhÃŃĠyÃ¨Ġ shÄĵngĠyÃ¡Ġ
fÃº ĠlÃ¬Ġ
1920 ĠniÃ¡nĠ
ĠxiÃłn ĠjÃŃĠ
fÃ¹ ĠhÃ©Ġ
suÇĴ ĠdeĠ
zhuÃłn ĠdeĠ
1960 ĠniÃ¡nĠ
zÅįng ĠyÃ¬Ġ
zÃ¬Ġ mÇĶĠ
lÃŃngĠ chÃ©nĠ
Ġ cÄģnĠyÃ¹Ġ
suÇĴ ĠwÃ¨iĠ
tÃ²u ĠlÃ¹Ġ
chuÃ¡ng Ġ
dÅįngĠ bÄĽi
juÃ© ĠshÃ¬Ġ
Ġ yÃŃĠgÃ¨
ÇĴu ĠxiÃłngĠ
kÇİo ĠshÃ¬Ġ
ĠfÃº ĠjiÃłnĠ
9 ĠrÃ©nĠ
ĠĠĠ gÃ¨ĠrÃ©nĠ
zÇĴng ĠrÃ©nĠkÇĴuĠ
1964 ĠniÃ¡nĠ
ĠdÃ¬Ġ fÄģng
ĠxiÃłn ĠchÃ©ngĠ
ĠlÇĲĠ kÃ¨Ġ
ch Ġ
ĠdÃ©Ġ lÄģĠ
kÅįngĠ qÃ¬Ġ
Ġ 50
Ġ nuÃ²Ġ
pÃŃng ĠdeĠ
nÃł ĠdeĠ
zuÃ²Ġ wÃ©i
zhÇĶĠ zhÄģngĠ
xÄ« ĠhÃ©Ġ
xÄ«Ġ nÃ¡nĠ
huÃŃ ĠyÃ¬Ġ
fÃ©n Ġ
ĠyÇĲ ĠzÃłiĠ
ĠyÄĽĠ kÄĽĠyÇĲĠ
pÃºĠtÃ¡oĠ yÃ¡Ġ
Ġ fÄģĠxÃŃngĠ
si Ġ
ĠzuÃ²Ġ zhÃłnĠ
Ġ tÃłi
qÄ« ĠshÃŃĠ
zÇĴu ĠxiÃłngĠ
ĠchÃ©ngĠ kÃ¨Ġ
sÅ«Ġ gÃ©ĠlÃ¡nĠ
xÃºnĠ zhÇİo
Ġ kÃ¹Ġ
ĠĠĠ rÃ©nĠ
chÄĵ ĠduÃ¬Ġ
ĠÄĽr ĠshÃ¬Ġ
nÃ¡n ĠdeĠ
guÃ² ĠleĠ
hÃ¹ ĠbÃ¹Ġ
ĠdÃ¬Ġ tÃºĠ
ĠyuÃ¡nĠ bÄĽn
ĠchÅ« ĠdÃłoĠ
yÃ¬nĠ nÃŃĠ
Ġ 2007
Ġ 35
Ġ 2021ĠniÃ¡nĠ
wÇĶ ĠshÃ¬Ġ
shÅįu ĠdÃłoĠ
wÇİ ĠÄĽrĠshÄĽngĠ
xÃ¬nĠ yÇİng
Ġ sÅ«nĠ
gÇĶ ĠlÃ¬Ġ
guÇİn ĠzhÃ¬Ġ
ĠgÅįngĠ lÇĲĠdeĠ
shÇĲĠ shÃłngĠ
zhÇĶĠyÃ¬Ġ zhÄĽĠ
Ġ zhÄĵn
1948 ĠniÃ¡nĠ
ĠwÃ¨iĠ yuÃ¡nĠ
ĠyÇĲ ĠyÃºĠ
guÃ²Ġ dÃ¹Ġ
ĠshÃŃĠyÃłn ĠshÃ¬Ġ
Ġ kÇİi
yÃ¡n ĠrÃ©nĠ
luÃ² ĠchÃ©ngĠ
xiÇİn ĠzhÃ¹Ġ
1975 ĠniÃ¡nĠ
guÃ³Ġ wÃ¹Ġ
guÇİngĠ chÇİng
ĠsÄ«ĠlÃ¬ng ĠbÃ¹Ġ
5 ĠmÇĲĠ
shÇĲ ĠrÃ©nĠ
dÃ¹ ĠhÃ©Ġ
jiÄģng ĠyÃºĠ
bÃ¬ ĠdeĠ
mÃłi ĠkÃ¨Ġ
ĠdÃ¬Ġ liÃ¹Ġ
wÃłngĠ yuÇİnĠ
xÄ« ĠdÃ¬Ġ
xiÅ« ĠdÃłoĠ
ba Ġ
ĠdÃłĠ gÅįngĠ
ĠfÃ¹Ġ jÃ¬nĠdeĠ
zhuÄģnĠ yÃ¨
Ġ kÇĴuĠ
sÃ¬ ĠdeĠ
shÇĴuĠ dÅ«
gÃ©Ġ lÃŃĠ
shÃłoĠ nÇļĠ
shÃłng ĠxiÃłnĠ
yÃ¡n ĠzhÃ¬Ġ
Ġ diÃłoĠ
yÃº ĠhÃ©Ġ
xiÄģngĠ guÄģnĠdeĠ
dÅįngĠ jÄ«ng
dÄĽngĠ dÄĽngĠ
dÃ¬ ĠhÃ©Ġ
fÃłng ĠzÃłiĠ
ĠjÃŃĠ shÇĲĠ
jiÄģnĠ yÃ¹Ġ
miÇİnĠ fÃ¨iĠ
Ġ dÇİngĠ
jiÇİo ĠdÃ¹Ġ
zuÇĴ ĠyÃ¬Ġ
ĠchÃ©ngĠ bÄĽnĠ
wÃ©iĠ zhÇĶĠ
fÇİnĠ huÃŃ
Ġ tiÃ¡oĠ
bÃ¨iĠ chÄĵngĠwÃ©iĠ
ĠxÃŃngĠ dÃ²ng
cÇİiĠ qÇĶ
guÇİnĠlÇĲĠ jÃºĠ
Ġ xiÇİoĠshÃŃĠ
hÃºn Ġ
1952 ĠniÃ¡nĠ
tÃ¡iĠbÄĽi ĠshÃ¬Ġ
Ġ 29
ĠyuÃ¨Ġ duÃ¬Ġ
ĠjÅ«nĠ qÅ«Ġ
bÃ¬Ġ miÇİn
kÅįngĠ jiÄģn
xÃŃngĠ tÃłiĠ
ĠĠĠ 2009
ĠĠĠ dÄģngĠ
shÃ¨ ĠbÃ¨iĠ
xiÄģng ĠshÃ¬Ġ
kÇİ ĠsÄ«Ġ
cÇİiĠ fÇİng
Ġ 25
Ġ sÃ¨Ġ
shÄģn ĠxiÃłnĠ
lÇĲĠ lÃ¹n
ĠÃ©rĠ fÄĵiĠ
gÇİiĠ shÃłnĠ
fÃ¨iĠ chÃºĠ
Ġ xiÃ¨
Ġ zÃºĠ
xÄ«Ġ bÄĽiĠ
jiÃłĠ shÇĲĠ
zhÃ¨ngĠfÇĶ ĠdeĠ
shÃłng ĠdÃ¬Ġ
dÇİo ĠshÃłngĠ
ĠzÃłiĠ hÃ©Ġ
ĠkÃ¨ ĠÄĽrĠ
ĠshÃ¨ ĠyÃºĠ
luÃ²Ġ shÄģnĠjÄ«Ġ
Ġ shÃ©n
Ġ 27
cÇĲ ĠtÃ³ngĠshÃŃĠ
tion Ġ
Ġ fÃ¨ngĠ
Ġ 2002ĠniÃ¡nĠ
kÄģi ĠgÅįngĠ
tÅįng ĠzhÄ«Ġ
bÅįĠ lÃŃĠ
ĠĠĠ sÄ«Ġ
hÄĽnĠ kuÃłiĠ
Ġ yÇĴng
Ġ cÃłi
Ġ juÃ©ĠdÃ¬ngĠ
jiÃ¹ ĠyuÃ¡nĠ
cÃŃ ĠdeĠ
ĠdÃ¬ĠyÄ«Ġ cÃ¬
hÃ© ĠzÃłiĠ
yÄĽ ĠhuÃ¬Ġ
huÃłi Ġ
ĠzhÄ« ĠshÃ¬Ġ
hÇİiĠ Ãłn
cÃŃĠ zhÃŃĠ
Ã©ĠluÃ³Ġ sÄ«ĠdeĠ
Ġ pÇĶ
kÇĴu ĠdeĠ
wÃ¡ Ġ
ĠyÃ¬Ġ jiÃłnĠ
ĠĠĠ zhÃ¨ngĠ
ĠwÃ¨iĠ zÃłiĠ
shÃ©nĠ me
Ġ suÅįĠ
Ġ 60
zhÄĵng ĠyuÃ¨Ġ
tÃ¬ ĠdÃłiĠ
ĠrÃ©nĠ dÃłĠ
ĠfÄĵnĠ biÃ©Ġ
chÃ¹Ġ zhÇİngĠ
chÅįngĠ tÅ«
jiÇĶ ĠdeĠ
qiÃ¡ng ĠzhÃ¬Ġ
ĠshÃŃĠ xiÃłn
jiÄģnĠ dÅ«Ġ
yÇĲng ĠshÃ¬Ġ
yÇĲnĠ yÃ²ngĠ
tÃŃĠchÅ«Ġ leĠ
wÃłiĠjiÄģo ĠbÃ¹Ġ
4 ĠgÃ¨Ġ
Ġ xÃ¹Ġ
Ġ kÇİiĠ
xuÃ© ĠzhÅįngĠ
qiÃ¡ng ĠdeĠ
ĠgÃ¨ ĠguÃ³Ġ
mÃŃnĠzhÇĶĠ dÇİng
shÄģn ĠdÃ¬Ġ
jÇĲn ĠyÇĴuĠ
jÃ¬Ġ suÃłn
fÄĵng ĠfÃ¹Ġ
ĠzhÇĶĠ yÇİnĠ
xÇĲĠ huÄģnĠ
ĠĠĠ bÄģĠ
sÄ« ĠshÃ¬Ġ
nuÃ³ ĠwÄĵi
ĠĠĠ gÃ¹ĠshÃ¬Ġ
ĠsÄ«Ġ mÇİĠ
ĠhÃło ĠxiÃłn
Ġ xÃŃĠ
ĠĠĠ yuÃ¨Ġ
tiÄģn ĠhÃ²uĠ
cÃ©ng ĠyÃºĠ
ĠgÃ¨Ġ zhÇĴng
zhÇİngĠ guÄģnĠ
zÅįngĠ jiÃło
xiÇİoĠxÃŃngĠ xÄ«ng
ĠshÃŃĠ hÃ²uĠ
mÃ²ĠxÄ«Ġ gÄĵ
Ġ mÃ¬Ġ
Ã© ĠguÃ³Ġ
ĠyÇĴuĠ xiÄĵ
pÇĶĠ biÃłn
bÃ¹ĠdeĠ cÅ«nĠzhuÄģngĠ
ĠĠĠyÇĲĠ xiÃł
Ġ chuÄģnĠ
ĠĠĠ fÃ¹Ġ
guÇİn ĠdeĠ
zÃłn ĠzhÃ¹Ġ
yÃ¬nĠ shuÄģ
cÃ¹ ĠjÃ¬nĠ
ĠyuÃ¨Ġ lÃ¡iĠyuÃ¨Ġ
liÃºĠ yÃ¹Ġ
Ġ fÇİ
1966 ĠniÃ¡nĠ
gÇĶĠ lÇİo
ÄģĠ gÄĵnĠ
mÇİĠlÃ¡i ĠxÄ«ĠyÃł
Ġ lÃ©i
Ġ pÃłĠ
tÄģ ĠzÃłiĠ
jiÃłng ĠyÇĶĠ
liÇİo ĠjiÄĽĠ
kÃ²u Ġ
jiÄģĠ tÃŃngĠ
cÃ¨Ġ liÃ¡ngĠ
ĠĠĠ wÃ©iĠ
fÃ¹ ĠshÃ¬Ġ
liÃ¨ ĠchÅ«Ġ
th Ġ
ĠdeĠ jÃ¹Ġ
ĠchÃ©ngĠ xiÃłn
ĠzhÄ« ĠdÃ¬Ġ
jÄ«ngĠ diÇİnĠ
chÄĵĠ xiÄģngĠ
ĠdÃłnĠ bÃ¡iĠ
liÃ¨Ġ rÃ¹Ġ
yÇĶn ĠshÃŃĠ
ĠxiÃłnĠ shÃłngĠ
qiÃ¡ngĠ dÃ¹Ġ
Ġ nÇĲ
sÅ« ĠwÃ©iĠ
guÃłn ĠjÅ«n
ĠbÃ¹Ġ shÇİo
ĠzhÄ« ĠjiÄģĠ
fÄģĠ dÃ²ngĠjÄ«Ġ
cÄģnĠ xuÇİnĠ
Ġ zÃº
ĠkÃ¨ ĠhÃ©Ġ
bÃ¬Ġ miÇİnĠ
tÃŃngĠ chÄĵĠ
ĠxiÄģngĠ dÄģng
tÃ³ngĠ xÃ¬ngĠ
zÇİo ĠshÃłngĠ
1937 ĠniÃ¡nĠ
zhÇĶĠ tÃŃ
chuÃłngĠ zuÃ²ĠdeĠ
sÄĵnĠ lÃŃn
ĠfÃ¹ĠzÃ©Ġ guÇİnĠxiÃ¡Ġ
Ġ ì
Ãło ĠÄĽrĠ
lÄģ ĠdeĠ
1974 ĠniÃ¡nĠ
mÃŃngĠ dÄģnĠ
zhÃłnĠ tÃ¡iĠ
guÃ³ ĠshÃ¬Ġ
hÅ« ĠyÃ¹Ġ
ĠgÅįngĠ yÃ¬ngĠ
jiÄģnĠ rÃ¨nĠ
xuÇİnĠjÇĶ ĠzhÅįngĠ
1946 ĠniÃ¡nĠ
ĠyÄ«Ġ zhÃŃĠ
guÄģnĠ fÄģng
suÇĴĠ yÇĴuĠdeĠ
bÃ³Ġ lÃŃnĠ
jiÃłnĠ zhÃ¹
dÄ«Ġ qÃ¬Ġ
lÃŃ ĠmÇĲĠ
jÇĲngĠ gÃłoĠ
cÃ¡iĠ liÃło
ĠĠĠzÄĵngĠ zÇĶĠ
Ġ kÇİoĠ
sÄģo Ġ
nÃ¡nĠ zi
tÇĲĠyÃ¹Ġ chÇİngĠ
guÇİng ĠzhÅįu
liÃ¡nĠ jiÄĵ
lÄģ ĠdÃ©Ġ
shÅ« ĠchÅ«Ġ
ĠbÃ¹Ġ mÇİnĠ
ĠgÅįngĠ nÃ©ng
zhÃłoĠ piÄģnĠ
xiÃł ĠzÃłiĠ
lÃ¡n ĠxÄ«Ġ
hÃ¡i ĠzÃłiĠ
dÃ¹n ĠdeĠ
ĠqiÃº ĠdeĠ
yÇĲnĠ rÃ¹Ġ
yÃŃnĠ pÃ¡iĠ
yÃ¡oĠ gÇĶn
ĠÃ©rĠgÄģiĠ dÃ¬ĠdeĠ
yÄ«ng ĠlÇĲĠ
nuÃ³ ĠwÄĵiĠ
guÃ³Ġ wÃ¡ngĠ
ĠyÇĶĠ qÃŃĠ
qÄ«Ġ zÇĲ
ÄģnĠ zhuÄģngĠ
xÃ¹ ĠlÃ¬ĠyÃł
zÇİoĠ qÄ«ĠdeĠ
shÃŃ ĠhÃ©Ġ
tÃº ĠdeĠ
1954 ĠniÃ¡nĠ
mÇĴuĠ xiÄĵ
Ġ mÃ³
cÃ©ng ĠdeĠ
ĠjÃ¬Ġ lÃ¹
ĠchÅ«Ġ yÇİnĠ
Ġ jiÄĵ
Ġ bÇİĠ
zhÄ« ĠshÃŃĠ
zhÃłn ĠdÃ¬Ġ
qiÃº ĠhuÃ¬Ġ
fÄĵi ĠxÃŃng
ĠbÃ¨iĠ ÄĽr
Ġ shÃ¹n
zhÃłn ĠshÃŃĠ
zÄģo ĠyÃ¹Ġ
ĠniÃ¡nĠ qÄ«ngĠ
ĠwÃ¨iĠ nÃ©ng
xiÃłĠ lÃ¡iĠ
shÄĵnĠ qÇĲng
Ġ t
ĠhÃ©Ġ gÇĶĠ
ĠchÃ©ngĠ leĠ
ĠyÇĲĠ qiÃ¡nĠ
ĠjÃ¬Ġ yÃ¬Ġ
ĠkÃ¨ ĠlÃ¬Ġ
fÄģĠ shÄĵngĠdeĠ
shÄ«Ġ qÃ¹Ġ
gÇĶĠ lÄģĠ
Ġ n
qiÃ¡n ĠhÃ²uĠ
10 ĠniÃ¡nĠ
biÄģn ĠyuÃ¡nĠ
mÃ² ĠÄĽrĠ
zhÅįngĠ yÄģngĠ
ĠjiÄģĠ tÃŃng
ĠxiÄģngĠ tÃ³ngĠ
yÅįuĠ xiÃ¹
ĠyÇĲĠsÃ¨Ġ liÃ¨Ġ
tÃ¨ ĠlÃ¬Ġ
ĠshÃŃĠ bÃłoĠ
xÄ«ngĠ qÄ«
Ġ Re
Ġ qÇĲngĠ
shÄģnĠdÅįngĠ shÄĽngĠ
ĠzhÄģo ĠhÃ©Ġ
Ġ yÃ¨
duÃ¬ ĠyuÃ¡nĠ
zÇĶ ĠdeĠ
ĠduÃ¬Ġ cÇĲĠ
ĠĠĠgÃłiĠ yÃłoĠ
Ġ 2006
sÄģn ĠdÃłĠ
ĠdeĠ zhÇĶĠyÃłoĠ
tÃłiĠ kÅįngĠ
ĠzÃ¬Ġ yÃ³u
ĠB Ġ
Ġ fÇĴu
Ġ 2000ĠniÃ¡nĠ
ĠjÅ«n ĠdÃ¬Ġ
ĠshÄĵngĠ mÃŃngĠ
ĠzhÇĲ ĠzÃłiĠ
1 ĠgÃ¨Ġ
zhÃł ĠdÃłnĠ
niÃ¡ng Ġ
Ġ sÃ²ng
wÇİng ĠshÃłngĠ
tÇİ ĠÄĽrĠ
ĠdÃ¬Ġ zhÃ¨nĠ
xiÃłĠ jiÃłngĠ
Ġ wÃłi
lÇĲngĠ dÇİoĠdeĠ
yÃ¡nĠjiÅ« ĠshÄĵngĠ
Ġ cÇİiĠyÃ²ngĠ
tÃ¨ ĠÄĽrĠ
bÇİo ĠdeĠ
ĠxiÃłn ĠyÇĴuĠ
ĠyuÃ¡nĠ yÄ«n
diÃłnĠshÃ¬Ġ tÃ¡i
Ġ000 Ġ
Ġ 40
wÅ« ĠsÄ«Ġ
hÇİo ĠpÃŃngĠ
zhÄģi Ġ
1955 ĠniÃ¡nĠ
ĠzhÅįngĠ jiÄģnĠ
pÇĶĠ chÃ¡Ġ
ĠshÇĴuĠ cÃ¬Ġ
Ġ cÃ¡i
duÅįĠ cÃ¬
huÃŃĠ guÄ«Ġ
qÄ«nĠ wÃ¡ngĠ
ĠĠĠ The
tÃ³ng ĠmÃŃngĠ
tÃ¨ ĠyÇĴuĠ
biÄģn ĠwÃ¨iĠ
ĠjÃŃĠ bÃ¬ngĠ
bÃ³Ġ juÃ©Ġ
ĠwÄĵiĠ liÃ¡nĠ
mÇĲ ĠdeĠ
ĠxÃŃng ĠbÃ¹Ġ
kuÃłiĠ sÃ¹
zÃłnĠ tÃŃngĠ
cÃºn ĠdeĠ
Ġ guÇİngĠdÅįngĠ
Ġ xiÄģnĠhÃ²uĠ
qÃŃng ĠdeĠ
ĠshÃ¬Ġ yÄ«ĠbÃ¹Ġ
ĠxÄ«nĠ zÄĵngĠ
gÇİiĠ zhÃ¬ĠwÃ¨iĠ
ĠĠĠdÃ¬Ġ yÄ«Ġ
shÄ« ĠgÅįngĠ
gÇİng ĠyuÃ¡nĠ
fÃ¨iĠ yÃ¡nĠ
Ġ guÇİnĠ
fÄĽn ĠsÄ«Ġ
zhÇĲĠ kÃ²ngĠ
mÃ¬ ĠdeĠ
zhuÃ¬ Ġ
chÄĵĠ liÃłng
shÄĵn ĠshÃ¬Ġ
dÃ¡ ĠzhÅįuĠ
yÇĲngĠ xiÃłngĠ
fÄģngĠ mÇĲĠ
ĠzÃ¬Ġ dÃ²ngĠ
xÅ«n Ġ
ĠdeĠ huÃłĠ
dÃłĠ qÅ«Ġ
shÄĽngĠ jiÄĵĠrÇİngĠ
Ġ X
sÄģn ĠrÃ©nĠ
sÄģn ĠgÃ¨
zhÄĽ ĠhÃ©Ġ
bÄĵng Ġ
tÃ¨Ġ zhÄĵng
Ġ 45
100 Ġ
ĠzuÃ¬ ĠdÃłĠ
ruÃ¬Ġ diÇİnĠ
wÇĶ ĠgÃ¨Ġ
dÄģng ĠniÃ¡nĠ
ĠjÃ¬nĠ zhÇĲĠ
cÄģnĠ shÃ¹Ġ
tuÄ«Ġ guÇİngĠ
ĠmÃłi ĠkÃ¨Ġ
lÃ¹ĠyÃ¬Ġ sÄ«Ġ
Ġ shuÇĲ
pÃ¨i ĠbÃ¨iĠ
ĠbÃ¹Ġ yÄ«Ġ
ĠpÃŃngĠ lÃ¹nĠ
ĠjiÃ©Ġ shÃ¹Ġ
jÃ¬ngĠnÃ¨iĠ gÃ²ngĠyÇĴuĠ
ĠĠĠ jÄ«nĠ
sÃ¬ ĠshÃ¬Ġ
tÃłi ĠdeĠ
Ġ guÅį
Ġ mÃ¡oĠ
yÃ³u ĠxÃŃngĠ
zhÇİnĠ lÇİnĠ
ĠshÃ¨ĠhuÃ¬Ġ zhÇĶĠyÃ¬Ġ
zhÄĽ ĠhuÃ¬Ġ
30 ĠniÃ¡nĠ
ĠshÃ¬ĠyÄ«Ġ kÄĵĠ
ĠshuÄģngĠ fÄģngĠ
ĠzÃłiĠyÃ¬Ġ qÇĲĠ
lÄģ ĠhÃ©Ġ
huÃŃ ĠguÃ³Ġ
huÄģng Ġ
ĠbÃ¹Ġ lÃ¡iĠ
ĠshÃŃĠ xÃ¬ngĠ
ĠjÃ¬Ġ zÇİi
xÄ«nĠ wÃ©n
bÇİoĠ luÃ³Ġ
jÃ¬ngĠ zhÄĵng
Ġ 200
Ġ shÃłnĠ
ĠjÃŃĠ hÃ²uĠ
ĠzhÃ¨Ġ yÃłngĠ
lÇľĠ sÃ¨Ġ
ĠjiÄģngĠ sÅ«Ġ
wÃºĠxiÃłnĠ diÃłnĠshÃ¬Ġ
ĠĠĠ 16
shÃ¨ng ĠchÅ«Ġ
ĠdÃ¬Ġ zhÃ¬Ġ
ĠzhÃ¬Ġ yÃŃĠ
ĠxÄ«Ġ ÄĽrĠ
fÃ¨iĠ yÃ²ngĠ
yÃ¬ng ĠjÃŃĠ
ĠbÃ¨iĠ pÃ²Ġ
dÃ¹Ġ shÇĲĠ
chÇİnĠshÄĵngĠ leĠ
ĠĠĠ 2019ĠniÃ¡nĠ
mÇİ ĠkÃ¨ĠsÄ«Ġ
ĠguÃ³ĠjiÄģĠ duÃ¬Ġ
tiÄĽĠlÃ¹Ġ chÄĵĠzhÃłnĠ
ĠdÃ²ngĠ wÃ¹Ġ
Ġ Ï
kÅ« Ġ
ĠniÃ¡nĠ lÃŃngĠ
chuÃłngĠ zÃłoĠ
Ġ 187
Ġ chÇĶĠ
Ġ hÃºĠnÃ¡nĠ
zhuÅį Ġ
ĠgÅįngĠ qÇĲngĠ
ĠjiÄģĠ zÃº
20 ĠniÃ¡nĠ
wÃ¡ng ĠwÃ¨iĠ
tuÄ« ĠjiÃłnĠ
liÃ¡nĠ rÃ¨nĠ
Ġ kÄĽĠnÃ©ngĠ
hÃ© ĠĠĠ
lÃ¨i ĠxÃŃngĠdeĠ
ĠtÄģĠ cÃ©ngĠ
zhÇİngĠ zÇĲĠ
bÄĽiĠ fÄģngĠ
ĠgÅįngĠ gÃ²ng
ĠdÃłĠ dÃło
fÃºĠ luÃ³ĠlÇĲĠ
nÃ³ngĠ cÅ«nĠ
ĠshÃ¬ĠzhÅįngĠ huÃ¡ĠrÃ©nĠmÃŃnĠgÃ²ngĠhÃ©ĠguÃ³Ġ
ĠcÃ©ngĠ rÃ¨n
yÇĲngĠxiÇİng ĠlÃ¬Ġ
ĠdeĠzuÃ²Ġ biÄģoĠwÃ¨iĠ
chÅįng ĠjÄ«Ġ
section ĠĠĠ
ĠshÃ¬Ġ huÃ¬Ġ
qÃºnĠ dÇİo
Ġ 2022ĠniÃ¡nĠ
sÄģn ĠjÃŃĠ
ĠzÃłiĠ xÄ«nĠ
tÃ¨Ġ diÇİnĠ
tiÄģnĠ rÃ¡nĠ
gÃ¹Ġ dÃ¬ngĠ
ĠĠĠjiÄģĠ tÃŃngĠ
ĠĠĠ f
lÇľ ĠdeĠ
sÇĲ ĠyÃºĠ
ĠzÃłiĠ tÄģĠdeĠ
qÄ«ngĠ chÃ¡oĠ
chÅ«Ġ qÄ«Ġ
fÃ¡ngĠ wÅ«Ġ
shÃ¨Ġ huÃ¬
jÃŃ ĠbÃ¹Ġ
shÄĵng ĠzhÃ¬Ġ
biÇİn Ġ
fÃ¹Ġ jÃ¬n
fÄģngĠ xiÃłng
tÃ¨Ġ lÄģĠ
jÃ¬ngĠ nÃ¨i
gÃ¨ngĠ duÅįĠdeĠ
cÃ³ng ĠwÃ¨iĠ
ĠyÄ«Ġ rÃ©nĠ
ĠdÃło ĠhÃ©Ġ
gÄģoĠ dÃ¡Ġ
Ġ fÇĶĠ
Ġ shÄĽnĠ
Ġ sectionĠĠĠ
xÄ«n ĠshÃ¬Ġ
1947 ĠniÃ¡nĠ
ĠshÃŃĠ zhÃ¬Ġ
ĠdÃło ĠyÄ«Ġ
qÃ¬Ġ xuÃ¡nĠ
Ġ nÇİi
Ġ xÇĶĠduÅį
bÄģn ĠdeĠ
zhÃ³u Ġ
1973 ĠniÃ¡nĠ
wÃ¡nĠ zhÄĽngĠ
xuÇİn ĠchÅ«Ġ
mÄģ Ġ
Ġ tiÄĽĠ
ĠĠĠ shÇĲĠyÃ²ngĠ
yÃŃ ĠdÃłoĠ
zhÅįngĠ yÄģng
shÄĵngĠ jÄ«Ġ
guÄģnĠ cÃ¨Ġ
ĠyÄĽ ĠbÃ¹Ġ
qÄ«ngĠ shÃłoĠniÃ¡nĠ
ĠshÃ¬Ġ jÃ¬ĠdeĠ
ĠyÇĴuĠ dÃłĠ
qÇĶĠ xiÄģo
Ġ 2024
jiÄģ ĠgÅįngĠ
shÇĲ ĠyÃºĠ
luÃ² ĠsÄ«Ġ
ĠshÃ¬Ġ yÃ³u
fÃ¹Ġ jÃ¬nĠdeĠ
mÄĽiĠguÃ³Ġ rÃ©nĠ
zhÃłngĠ fÅ«Ġ
xuÃ© ĠbÃ¹Ġ
tiÄĵ Ġ
1971 ĠniÃ¡nĠ
ĠyÇĴuĠ zhÃ¹Ġ
yÃ¬ ĠbÃ¹Ġ
zÃ²ng Ġ
guÃ³Ġ huÃ¬Ġ
xÄ«Ġ bÄĽiĠbÃ¹Ġ
ĠtÄģĠ rÃ¨nĠwÃ©iĠ
mÃ¹Ġ nÃŃĠ
ĠtÃ³ngĠ pÃ¡iĠ
ĠzhÇĲ ĠshÃ¬Ġ
kuÃ²Ġ zhÇİn
Ġ qiÅ«Ġ
dÄĽng ĠdeĠ
sÇĲ ĠxÃŃngĠ
qÃ¬ng ĠzhÃ¹Ġ
zhÃłnĠ lÇĲng
liÃ¡nĠ jiÃ©Ġ
ĠĠĠgÄĵnĠjÃ¹Ġ 2020ĠniÃ¡nĠmÄĽiĠguÃ³ĠrÃ©nĠkÇĴuĠpÇĶĠchÃ¡ĠdeĠshÃ¹ĠjÃ¹Ġ
Ġ 189
bÃ¬ng ĠwÃ¨iĠ
zuÃ¬ ĠwÃ¨iĠ
ĠdeĠ gÃ¹ĠshÃ¬Ġ
guÃ³Ġ lÃ¬Ġ
huÃ¡ngĠ sÃ¨Ġ
ĠtÃ³ngĠ yÃłngĠ
zÄĵngĠjiÄģĠ leĠ
ĠThe ĠĠĠ
hÇİi ĠshÃłngĠ
guÃ² ĠyÃºĠ
rÃ©ng ĠzÃłiĠ
pÃ¹ Ġ
1977 ĠniÃ¡nĠ
ĠzÃłiĠ tÄģĠ
shÃłngĠhÇİi ĠshÃ¬Ġ
Ġ Ãłn
quÃ¡n ĠdeĠ
zÇĴng ĠhuÃ¬Ġ
huÃŃ ĠhÃ©Ġ
lÇİo ĠshÄ«Ġ
nÃ¹ Ġ
ĠyÄ«Ġ zhÃ¬Ġ
ĠchÅ«Ġ fÄģĠ
sÃ¨Ġ fÅ«Ġ
zhuÄģnĠ mÃ©nĠ
xiÄģng ĠjÃ¬Ġ
shÃ²u ĠquÃ¡nĠ
sÃ¬ ĠdÃłĠ
qiÃ¨ ĠÄĽrĠ
jÄ«ngĠ jÃ¬
fÄĵnĠ pÃ¨iĠ
bÄģnĠ jiÇİngĠ
ĠS Ġ
v Ġ
fÃ¡ng ĠwÃ¨iĠ
Ġ 2003ĠniÃ¡nĠ
50 ĠniÃ¡nĠ
ĠlÃ¬Ġ shÇĶĠ
ĠbÃ¬ngĠ rÃ¹Ġ
dÄĵngĠ chÃ¡ngĠ
xÃ¬ng ĠshÃ¬Ġ
duÃ¬Ġ shÇĴuĠ
ĠdeĠjÃ¬Ġ lÃ¹Ġ
Ġ kÃ¹
ĠjÃŃĠ xÃŃngĠzhÃ¨ngĠ
ĠlÃ¬Ġ ziĠ
ĠyÄĽ ĠhuÃ¬Ġ
xiÃ©Ġ dÃ¬ngĠ
ĠÄģĠ lÄģĠ
Ġ bÄģoĠhÃ¡nĠ
Ãłi ĠdeĠ
piÃłn ĠdeĠ
ce Ġ
lÃ¡iĠzÃ¬ ĠyÃºĠ
Ġ bÃ¡i
fÃº ĠlÇĲĠ
ĠyÇĲ ĠzhÃ¬Ġ
jiÇİngĠ shÃ¹Ġ
zhÃłoĠ kÄģi
Ġ000 ĠrÃ©nĠ
dÄģn ĠyuÃ¡nĠ
wÄģ Ġ
yÄ«Ġ xiÄĵĠ
zhÃŃĠ yÃ¨
hÇİiĠ bÃ¡ĠgÄģoĠ
yÄ«ngĠ chÇĲĠ
cÄģnĠ sÃłi
xiÄģoĠ liÃłngĠ
qÃ¬ ĠhÃ©Ġ
cÃºnĠ zÃłiĠdeĠ
zhuÃłng ĠjÄ«Ġ
ĠjiÃłnĠ kÄģngĠ
nÃłĠ cuÃ¬
ĠxiÄģngĠ duÃ¬Ġ
hÃ© ĠwÃ¨iĠ
fÃ¹ ĠjiÄģĠ
shÄĽng ĠdÃłoĠ
lÃ¡o ĠgÅįngĠ
hant Ġ
xÄ«Ġ nÃ¡nĠbÃ¹Ġ
ĠkÃ¨Ġ yÃ¹nĠ
mÇİĠ lÄģĠ
gÇİiĠ gÃ©
nÃ¡nĠjÃŃĠ zhÅįuĠdeĠ
Ġ f
ĠzÃłiĠ 18
lÃ¨iĠsÃ¬ ĠdeĠ
Ġ 9Ġ
Ġ hantĠ
bÄģ ĠÄĽrĠ
chuÃłng ĠxÄ«nĠ
tuÃ³ Ġ
qiÇİo Ġ
lÃ²u Ġ
ĠyÇĴuĠ guÄģn
zhÃ¨ngĠ xiÃ©Ġ
ĠtÄģĠ duÃ¬Ġ
shÄģnĠ mÃłiĠ
ĠsÃ¬Ġ chuÄģnĠ
hÅįngĠzhÃł ĠjÄ«Ġ
ĠĠĠrÃ¡n ĠÃ©rĠ
chÃ¡ng ĠjiÃłnĠ
chuÃ¡n ĠzhÄ«Ġ
quÇİn Ġ
ĠzhÄ«Ġ zhÃłnĠ
shÇĴuĠ bÅįĠ
xÃ¬ngĠ nÃ©ngĠ
ĠxiÇİoĠ shuÅįĠ
ĠĠĠ 2007
yÄ« ĠbÃ¹ĠfÃ¨n
fÄĵi ĠzhÅįu
ĠxiÃłn ĠzhÄ«ĠxiÃłnĠ
shÄģĠ sÇĲĠ
fÄģĠshÄĵngĠ leĠ
shÇĶĠdeĠ zhÃŃĠwÃ¹Ġ
ĠĠĠ dÃłn
zhÃŃ ĠzhÃ¬Ġ
diÃłn ĠdeĠ
yÃło ĠdeĠ
II Ġ
yÃ¡nĠ zhÃ²ngĠdeĠ
ĠlÃ¬ngĠ wÃłi
lÇĲ ĠbÃ¹Ġ
mÃ¬ ĠsÄ«Ġ
nÃ¬ Ġ
ĠjiÃłn ĠshÃ¬Ġ
suÇĴĠ shÇĶ
jiÃłngĠ dÄ«
Ġ chÄĵĠzhÃłn
xÄ« ĠshÃ¬Ġ
tÃ³u ĠbÃ¹Ġ
duÃ¬Ġ wÇĶĠ
ĠyÃ³uĠ cÇĲĠ
zÇĶĠ zhÇĲĠ
ĠdÅįngĠ jÄ«ngĠ
fÃłngĠ qÃ¬
yÃ¹nĠdÃ²ng ĠdeĠ
jiÄģn ĠshÃ¬Ġ
nÃł ĠdÃ©Ġ
bÄģngĠ zhÃ¹
mÄĽi ĠjÅ«nĠ
jiÄģng ĠtÄģĠ
ĠshÃ¬ĠyÃ¬Ġ dÃłĠlÃ¬Ġ
Ġ sÃł
huÃ¬ ĠyÇĲĠ
cÄģnĠ tÄ«ngĠ
hÄĵi ĠrÃ©nĠ
jÄ«Ġ bÄĽnĠ
ĠzhÄ«Ġ liÃºĠ
zhÇĶĠ xÃŃ
shuÃłiĠ lÇĲngĠ
tÇĶĠÄĽr ĠqÃŃ
huÃ¬ ĠshÃ¬ĠdÃ¬Ġ
huÃ¡n ĠxÃŃngĠ
ĠzÃłiĠ yÇĶĠ
ĠgÅįngĠ lÃ¹
ĠdÃ© ĠdÃłoĠleĠ
ĠshÃ¨Ġ jÃ¬ĠdeĠ
bÃ¹Ġ fÃ¨nĠ
nÃ¡Ġ pÃ²Ġ
zhÄĽng ĠgÃ¨
xiÄģngĠ bÇĲĠ
ĠshÃ¬ĠyÄ«Ġ zuÃ²Ġ
zhÅįuĠ biÄģnĠ
ĠshÃ¬ĠjiÃ¨Ġ bÄĵiĠ
xiÃłĠxiÃ¡ ĠyÇĲĠxiÃł
W Ġ
Ġ dÅįu
ĠĠĠ 3ĠyuÃ¨Ġ
shÃłng ĠbÃ¹Ġ
ĠxiÃłnĠ jÄ«nĠ
hÃ¡ngĠ tiÄģnĠ
Ġ zhÃ²ng
zhÇİng ĠdÃłĠ
luÃ³ ĠdÃ©Ġ
ĠdÃłĠ liÃłng
shuÄģngĠ dÇİĠ
ĠmÇİ ĠlÃ¬Ġ
Ġ jÇĲĠ
zÃ¬ ĠwÃ¨iĠ
yÃ¡n ĠshÃŃĠ
1962 ĠniÃ¡nĠ
yÃŃĠ chÇİn
gÃ© ĠÄĽrĠ
ĠlÃ¬Ġ yÃ²ng
ĠxÃŃngĠ shÇĲĠ
zÇĴngĠ cÃ¡iĠ
Ġ bÃło
zhÇĲ ĠdeĠ
ĠnÃ¡nĠ ziĠ
ĠshÄĵngĠzhÇİng ĠyÃºĠ
Ġ qÃŃnĠ
xÄ«n ĠrÃ©nĠ
cÇĲ ĠshÃŃĠ
cÅįng Ġ
ĠgÅįngĠ chÇĲ
ĠqiÃº ĠhuÃ¬Ġ
chuÃ¡nĠ mÃ©iĠ
hÇİiĠbÃ¡ĠgÄģoĠ dÃ¹ĠwÃ¨iĠ
ĠĠĠ 2018ĠniÃ¡nĠ
zhÄĽ ĠwÃ¨iĠ
nuÃ² ĠyÄ«Ġ
ay Ġ
ĠjÃŃĠ lÃŃnĠ
xiÄģngĠ tÃ³ngĠdeĠ
ĠzhÅįngĠguÃ³Ġ guÃ³ĠmÃŃnĠ
bÄĽn ĠxiÃłnĠ
ĠdÃ¬Ġ 1Ġ
yÃłĠ mÃ¹Ġ
ĠzhÃ¨Ġ shÇĴuĠ
yÄ«ngĠ gÄģi
guÄģngĠ xÃ¹Ġ
jÃ¬ ĠzÃłiĠ
wÇĶ ĠyuÃ¨Ġ
dÄģn ĠyÄ«Ġ
biÃ© ĠdeĠ
ĠhÃ©Ġ lÇĲĠ
yÃ³uĠ tÃłiĠrÃ©nĠ
ĠdeĠchÃ©ngĠ zhÃ¨nĠ
ĠguÄģnĠ fÄģngĠ
Ġ qiÄģn
Ġ huÃ¡nĠ
lÄģ ĠÄĽrĠ
xÃºn ĠqiÃºĠ
ĠbÃ¹Ġ ÄĽrĠ
ĠxÃŃngĠ xiÃłngĠ
ĠwÃ©iĠ chÃŃĠ
yÇĲnĠ zhÇĴngĠ
Ġ xÅ«ĠyÃłoĠ
ĠĠĠ 3Ġ
bÃº ĠyÃłoĠ
shÄģng ĠdeĠ
ĠbÃ¹Ġ dÃŃĠ
ĠyÃºĠ lÃ¨iĠ
qiÄģnĠ yuÄĵĠ
cÄģnĠyÃ¹Ġ leĠ
Ġ lÇĲngĠ
ĠĠĠ 5ĠyuÃ¨Ġ
ĠzÃłiĠ gÄģiĠ
ĠguÃ³Ġ mÃŃn
mÄĽiĠ yuÃ¡nĠdeĠ
yÃŃngĠ yÃ¨Ġ
ĠjiÄģng ĠqÃŃĠ
wÄĽiĠfÃ¹Ġ shÅ«ĠjÃ¬Ġ
Ġ bÄģoĠ
wÇĶ ĠdÃ¬Ġ
sÄ«Ġ lÃ¡nĠ
ĠkÃ¨Ġ lÄģĠ
dÇĲĠ kÃłngĠ
Ġ liÇİngĠgÃ¨Ġ
zhÃŃ ĠyuÃ¡nĠ
1938 ĠniÃ¡nĠ
ĠyÄ«Ġ liÃ¡oĠ
xiÃłoĠ yÃ¬ngĠ
qiÄģnĠ dÃ¬ngĠ
ĠjiÃłoĠ yÃ¹
Ã© ĠwÃ¨iĠ
ĠyÄ«Ġ cÃŃĠ
jiÄĵĠ rÃ¨nĠ
ĠqÃŃĠzhÅįngĠ nÃ¡nĠxÃ¬ngĠ
ĠliÃºĠ yÃ¹Ġ
Ġ hÃ¡n
Ġ Mar
yÃ¹n ĠhÃ©Ġ
gÄĵ ĠdeĠ
huÃ¡i ĠyÃŃĠ
ĠwÃ¨iĠ cÇĲĠ
ĠdÃ¬Ġ miÃłnĠ
tÇĲĠ yÃ¹
cÃ©ngĠ shuÇĲĠyÃ¹Ġ
rÃ³ngĠ nÃłĠ
gÇĶĠfÃ¨n ĠyÇĴuĠxiÃłnĠgÅįngĠsÄ«Ġ
zhuÃłnĠdeĠ xiÇİoĠxÃŃngĠxÄ«ngĠ
1939 ĠniÃ¡nĠ
ĠhÃ²uĠ qÄ«Ġ
ĠkÃ¨Ġ lÃ¡iĠ
zhÇĲĠ dÃ¬ngĠ
ĠĠĠ pÃŃngĠjiÃłĠ
yÃ³u ĠqÃŃĠ
gÄĵ ĠjÃ¹Ġ
liÃ¡ng ĠshÃŃĠ
1965 ĠniÃ¡nĠ
ĠshÃ¬Ġ nÃ¨iĠ
yuÃ¨Ġ nÃ¡nĠ
jÃ¬ngĠ sÃłiĠ
ĠdeĠdÃ¬Ġ Ã¨r
mÃ²ĠsÄ«Ġ kÄĵĠ
Ġ hÃ¨
yÃ³u ĠrÃ©nĠgÅįngĠ
zhÇİng ĠwÃ¨iĠ
ck Ġ
1936 ĠniÃ¡nĠ
ĠshÃ¬Ġ xÄ«Ġ
ĠyÄ«Ġ zhÄ«Ġ
ĠshÃ¨ ĠjÄ«Ġ
bÄģĠ lÄģĠ
ĠjiÃłnĠlÃ¬Ġ leĠ
Ġ wÅ«ĠkÃ¨ĠlÃ¡nĠ
ĠĠĠ chÃºĠleĠ
chÃ¡o ĠdeĠ
tuÄ« ĠchÅ«ĠdeĠ
ruÇİn ĠtÇĲĠ
gÇİnĠ lÇİn
ĠĠĠ 12
jiÃło ĠyÃºĠ
mÃ©n ĠdeĠ
ĠshÃŃĠ yÃ²ngĠ
ĠĠĠ Pro
1967 ĠniÃ¡nĠ
zhÅįngĠ xÄ«nĠ
Ġ sÃº
Ġ chÃ©ngĠshÃ¬Ġ
shÃ¹ ĠshÃ¬Ġ
yÃ¡ng ĠxiÃłnĠ
ĠjiÃłn ĠwÃ¨iĠ
ĠchÃ¡oĠ xiÄģnĠ
Ġ tuÄ«Ġ
1959 ĠniÃ¡nĠ
ĠÄĽr ĠdÃ©
shuÃ²ĠshÃ¬Ġ xuÃ©ĠwÃ¨iĠ
huÃ¡ĠshÃ¨ngĠ dÃ¹n
wÃ©iĠ zhÇĲĠ
ĠjiÃ©Ġ gÃ²uĠ
Ġ 11Ġ
zhÄ« ĠyuÃ¡nĠ
gÃ¨ ĠdÃ¬Ġ
biÄģn ĠhÃłoĠwÃ¨iĠ
ĠhÃ©Ġ jÃŃĠ
ĠzhÃ¬Ġ zÃło
ĠyÄ«Ġ tiÃ¡oĠ
kÄģiĠ zhÇİnĠ
fÇİĠ tÃŃngĠ
ĠqiÃºĠ chÇİngĠ
qÃºnĠ tÇĲĠ
leĠyÄ«Ġ xiÄĵĠ
ĠgÅįngĠchÃ©ngĠ shÄ«Ġ
wÃ¹ ĠzhÅįngĠ
mÃ©ng ĠjÅ«nĠ
bÇİi ĠniÃ¡nĠ
1935 ĠniÃ¡nĠ
luÃ³Ġ bÃ³ĠtÃ¨Ġ
zÇĴngĠ jiÄģnĠ
ĠzÃłiĠdÃ¬Ġ Ã¨rĠ
pÃŃngĠjÅ«nĠ hÇİiĠbÃ¡ĠgÄģoĠdÃ¹ĠwÃ¨iĠ
Ġ yÅįuĠ
ĠĠĠ jÄ«ngĠjÃ¬Ġ
zhÃŃ ĠlÃ¬Ġ
ĠwÃ¨iĠ mÃŃngĠ
ĠwÃ¨iĠyÃºĠ zhÅįngĠhuÃ¡ĠrÃ©nĠmÃŃnĠgÃ²ngĠhÃ©ĠguÃ³Ġ
lÃŃĠ ziĠ
zhuÄģngĠ jiÇİ
ĠrÃ©nĠmÃŃnĠ bÃ¬Ġ
dÅ«Ġ dÅ«Ġ
ĠtÅįngĠ guÃ²
Ġ lÃ¨iĠ
Windows ĠĠĠ
ĠxÄ«Ġ yÇĲnĠ
jiÇİnĠ dÄģnĠ
yÃ¡ng ĠgÅįngĠ
gÅįngĠ kÄģiĠ
ĠyÇĴuĠ lÃ¬Ġ
ĠtÄģĠ yÄĽ
ĠÃ©rĠgÄģiĠdÃ¬ĠdeĠ pÃŃngĠjÅ«nĠhÇİiĠbÃ¡ĠgÄģoĠdÃ¹ĠwÃ¨iĠ
Ġ qÇĲng
Ġ mÇİn
Äģ ĠÄĽr
qÇĲ ĠleĠ
shÄ« ĠrÃ©nĠ
fÄĵng ĠdeĠ
nÃŃ ĠxÄ«ĠyÃłĠ
cÃ¹ ĠjÃ¬n
hÇİn ĠmÃ²
ĠzÃłiĠ rÃ¬ĠbÄĽnĠ
lÃ¹Ġ zhÃłnĠ
jiÄĵĠ shÅįuĠ
Ġ wÅ«
lÃ¬ ĠzhÅįngĠ
zÃº ĠqiÃºĠduÃ¬Ġ
bÃłn ĠniÃ¡nĠ
bÄĽnĠ tÇĶĠ
miÃłnĠ lÃŃnĠ
2010ĠniÃ¡nĠ mÄĽiĠguÃ³ĠrÃ©nĠkÇĴuĠpÇĶĠchÃ¡ĠdeĠshÃ¹ĠjÃ¹Ġ
Ġ lÇļ
ĠĠĠ tiÄģnĠ
jÄ« ĠshÃ¬Ġ
chÅ« ĠdÃłoĠ
yÇİn ĠchÅ«
yÃ¬ng ĠduÃ¬Ġ
lÃł Ġ
bo Ġ
ĠzhÄ«Ġ qiÃ¡n
fÇİĠ lÃ¡nĠ
ĠxÃ¬Ġ tÇĴng
yÇĲnĠzhÇĴngĠ zÄģiĠpÃ©iĠ
Ġ yÃºnĠnÃ¡nĠ
ĠdÃłĠ qiÃ¡oĠ
xÃºnĠ huÃ¡nĠ
huÃłnĠ zhÄĽĠ
shÄĽnĠ chÃ¡Ġ
w Ġ
Ġ dÄĵngĠ
ĠĠĠ c
chÅ« ĠrÃ¨nĠ
shuÅį ĠshÃ¬Ġ
ĠjÃŃĠ shÇĲ
dÃ²ngĠ huÃł
rÃ¹Ġ qÄ«n
shÄĽngĠ wÄĽiĠ
ĠxÄ«nĠ zÄĵng
chuÃ¡nĠ bÅį
ĠsuÃŃĠ zhe
fÄĵiĠlÇľĠ bÄ«n
kÇİĠluÃ³Ġ lÃ¡iĠ
ĠĠĠ St
yuÃ¡n ĠdÃ¬Ġ
shÄĵn ĠshÃłngĠ
km Ġ
ĠzÃłiĠ bÄĽiĠ
wÃ©iĠ ÄĽr
ĠxÄ«Ġ xÄ«Ġ
hÄĽnĠ duÅį
liÃ¨ ĠshÃ¬Ġ
jÄ«Ġ bÇİiĠ
xuÃ©Ġ xÃŃ
ĠjÄ«Ġ yÄ«nĠ
zhÇİngĠ yuÄĵĠ
suÇĴĠ chÃ¹ĠdeĠhÇİiĠbÃ¡ĠwÃ¨iĠgÄģoĠyÃºĠhÇİiĠpÃŃngĠmiÃłnĠ
tÅįngĠ xÃ¹nĠ
nÃłĠ xiÄĵĠ
gÇİngĠ kÇĴuĠ
zhÇİnĠ kÄģi
yÇĴngĠ jiÇĶĠ
yÃ³uĠrÃ©nĠgÅįngĠ yÇĲnĠzhÇĴngĠzÄģiĠpÃ©iĠ
qÃŃng ĠxÃŃngĠ
tÄģi Ġ
guÄ«Ġ fÃłnĠ
qÃŃngĠ xÃ¹Ġ
rÃ¨ĠdÃłiĠ fÄĵngĠbÃłoĠ
yÃº ĠĠĠ
cÃ¬ ĠwÃ¨iĠ
zhÄĽng ĠhÃ©Ġ
jÅ«ĠmÃŃnĠ diÇİnĠ
Ġ pÃłiĠ
Ġ xÇĶĠ
Ġ zhÄĽngĠ
Ġ shÃ¨nĠ
ĠĠĠ 2017ĠniÃ¡nĠ
jÃ¬ ĠjÃŃĠ
ĠzhÄ«Ġ fÇĶĠ
ĠshÃ¨Ġ huÃ¬
cÃ¨Ġ liÃ¡ng
ĠhÃłnĠ zÃºĠ
fÄĵnĠbiÃ© ĠwÃ¨iĠ
Ġ wÃ¡nĠchÃ©ngĠ
yÇĶ ĠshÃ¬Ġ
dÃ²ng ĠgÅįngĠ
lÇĶ ĠkÃ¨Ġ
guÃłi Ġ
gÇĴng Ġ
ĠbÃ¹Ġ jiÄģĠ
ĠyÇĲĠ shÃłngĠdeĠ
ĠyÇĶĠ cÇĲĠtÃ³ngĠshÃŃĠ
mÇĲĠ yÃłĠ
ĠzhÇĶĠ chÃŃĠ
ĠzhÇĲ ĠchÅ«Ġ
sÃ¬ ĠmÃŃngĠ
bÄ«ng ĠbÃ¹Ġ
ĠdeĠyÄ«Ġ xiÄĵĠ
dÇĲĠ dÃ¡
ĠsÅ«Ġ liÃ¡nĠ
liÇİoĠ jiÄĽ
Ġ ÅįuĠzhÅįuĠ
1953 ĠniÃ¡nĠ
ĠsÄ«Ġ kÇİĠ
gÃłoĠ sÃ¹Ġ
fÄģĠzhÇİn ĠdeĠ
yÇĲ ĠhÃ²uĠ
duÃ¬ ĠhÃ©Ġ
zhÇĲ ĠyÃºĠ
gÃ© ĠlÃ¬Ġ
dÄĵng ĠjÃ¬Ġ
1963 ĠniÃ¡nĠ
jÃ¹Ġ qÃŃngĠ
ĠwÃ©iĠ yÃłĠ
ĠzhÅįngĠguÃ³Ġ dÃłĠlÃ¹ĠdeĠ
chuÃłngĠ bÃłnĠ
xiÃłĠxiÃ¡ĠyÇĲĠxiÃł ĠdÃ¬ĠqÅ«Ġ
Ġ pÃ¡iĠ
chÅ« ĠshÄĵngĠ
liÃº ĠdeĠ
yÇİn ĠshÄĵngĠ
dÃłĠ shÇĲĠ
ĠxÄ«Ġ ÄģnĠ
jiÃ¨Ġ shÃło
zÄ«Ġ zhÃ¹Ġ
fÄĵiĠ fÇİĠ
Ġ zhuÄģnĠjÃŃĠ
bÃ¡i ĠzhÃ¬Ġ
as ĠĠĠ
ĠzhÃ¬Ġ liÃ¡o
shÇĴuĠ xÃŃĠ
ĠjiÃłoĠ shÃ²uĠ
zhuÃłngĠ kuÃłng
ĠbÃ¬Ġ yÃ¨ĠyÃºĠ
xÃºnĠyÃ¡ng ĠjiÃłnĠ
ĠĠĠ jÃ¬Ġ
fÄĵn ĠzhÄ«ĠyÄ«Ġ
wÃ©nĠ huÃłĠdeĠ
tÃºĠ xiÃłngĠ
zÇĶĠ chÃ©ng
ĠÃło ĠdÃłĠlÃ¬Ġ
xÄ«nĠjiÄģĠ pÅįĠ
Ġ guÄģng
ĠĠĠ 2016ĠniÃ¡nĠ
yÃ¹ ĠjÃ¬Ġ
kÅįng ĠjÅ«n
shÃ¹n ĠshÃŃĠ
ta Ġ
ĠbÃ¹Ġ biÃłnĠ
ĠchÅ«Ġ xÃŃĠ
wÄĵiĠ xiÇİnĠ
ĠzhÃ¨ ĠbÃ¹Ġ
ĠniÃ¡nĠ7ĠyuÃ¨Ġ 1ĠrÃ¬Ġ
wÃ¨nĠtÃŃ ĠdeĠ
ĠjÃ¬nĠshÃ¬Ġ chÅ«ĠshÄĵnĠ
ĠzhÃ¬Ġ shÇİo
ĠxiÃłnĠ rÃ¹Ġ
nÃ¡nĠ fÄģngĠ
ĠbÃ¨iĠ qÃŃĠ
ĠqÃŃĠzhÅįngĠ nÃ¡nĠ
mÃ¡oĠzÃ©Ġ dÅįngĠ
Ġ tÄģng
Ġ gÃłiĠ
ĠĠĠ 10ĠyuÃ¨Ġ
zi ĠhÃ©Ġ
dÃ¡ ĠÄĽrĠ
lÇĶ ĠshÃ¬Ġ
ĠbÃ¹Ġ zhÃ¬Ġ
ĠdÃ¬Ġ sÄ«Ġ
zÄ«Ġ shÄĽngĠ
pÃŃnĠ lÇľĠ
Ġ ãĥ¼
hÇİn Ġ
liÇĶ Ġ
1941 ĠniÃ¡nĠ
ĠzhÅįngĠ zuÃ¬Ġ
ĠjÃ¬Ġ niÃłn
pÃłnĠ juÃ©Ġ
gÃ²ngĠchÇİnĠ zhÇĶĠyÃ¬Ġ
ĠyÇĲĠsÃ¨Ġ liÃ¨
duÅį ĠgÃ¨
qÇĶ ĠjiÄģĠ
me ĠĠĠ
1969 ĠniÃ¡nĠ
jÃºĠ jÃºĠzhÇİngĠ
Ġ i
ch ĠĠĠ
12 ĠniÃ¡nĠ
fÃ¡n ĠzhÃŃĠ
mÄģo Ġ
gÄģnĠ sÃ¹Ġ
Ġ15 Ġ
ĠdÄģnĠ rÃ¨n
zÃ¬ĠxÃŃngĠ chÄĵĠ
Ġ 2005
ĠĠĠ bÄĽiĠ
miÃ¡o ĠhuÃ¬Ġ
ĠyÄ«Ġ mÃ©iĠ
fÄĵnĠ lÃ¨i
ĠpÃŃngĠ jiÃłĠ
duÅįĠ yÃłngĠ
ĠnÃ¡nĠ bÄĽiĠ
chÅ«Ġ shÄĵngĠyÃºĠ
shÃłoĠ jiÃłngĠ
fÄĵi ĠlÃ¬Ġ
ĠsÄ«Ġ xiÇİngĠ
zhÇĶĠ chÇİngĠ
yÃ¡nĠ zhÃ²ng
dÄģngĠ jÃºĠ
ĠshÃ¬ĠzhÅįngĠ xÄ«nĠ
Ġ ma
ĠĠĠ lÃ¬ngĠwÃłiĠ
hÃ²u ĠshÃ¬Ġ
zhÃ¹ ĠdÃ¬Ġ
yÇĲn ĠshÃŃĠ
ĠshÃ¬Ġ wÅ«ĠkÃ¨ĠlÃ¡n
ÃłnĠ zhÃłoĠ
hÅįngĠ zhÃłĠ
ĠgÅįngĠzuÃ² ĠshÃ¬Ġ
cÄģnĠmÃ³u ĠzhÇİngĠ
xiÃłng ĠxÄ«Ġ
Ã¨r ĠzhÃłnĠ
xuÄĵ Ġ
ĠchÃ©ngĠ shÃ¬ĠdeĠ
ĠzhÄ« ĠjÃ¬Ġ
ĠdÃłĠ jiÄģĠ
ĠmÃŃngĠ chÄĵng
ĠtÃ³ng ĠyÄ«Ġ
jiÄģoĠ huÃłnĠ
gÇİiĠ shÃłn
ĠhÃ©ĠbÃ¬ng ĠwÃ¨iĠ
Ġ 80
yÇĶ ĠyÇĲĠ
zÃ© ĠyÇĴuĠ
lÃŃng ĠdeĠ
kÄĵĠ fÅ«
dÄģngĠ xuÇİn
ĠgÅįngĠkÄģiĠ sÃłiĠ
Ġ jÇĲ
chuÃłn Ġ
rÃ¹Ġ xuÇİn
Ġ chÅ«nĠ
ĠĠĠ zhÃ¹Ġ
zhÃ¨ ĠbÃ¹Ġ
bÇİo ĠzhÃ¨ngĠ
ĠyÃºĠ dÃ¬Ġ
shÄģngĠ wÃ¡ngĠ
biÄģnĠ jÃ¬ngĠ
guÇİngĠ gÃło
ÄģiĠ nÃłĠ
ĠfÄĵnĠbiÃ© ĠwÃ¨iĠ
wÃºĠrÃ©nĠ jÄ«Ġ
cÃ¬ ĠdÃłĠ
suÃ¬ ĠshÃŃĠ
shÄĵnĠ zhÃ¨n
ĠĠĠ 2006
ĠdÃ¬Ġ guÃ³ĠdeĠ
ĠjiÃłn ĠhÃ©Ġ
bÇİoĠ cÃºnĠ
bÃłoĠ zhÇĲĠ
gÇİiĠ biÄģnĠ
zÄĵngĠ qiÃ¡ngĠ
luÃ² ĠdeĠ
wÃłn ĠrÃ©nĠ
qÃºn ĠdeĠ
ĠzÃłiĠ jÄ«Ġ
jÄ« ĠbÃ¹Ġ
zhÄ« ĠmÃŃngĠ
rÃ¹ ĠdeĠ
guÃ³Ġ nÃ¨iĠ
ĠgÅįngĠ zhÃłnĠ
ĠyÇĲĠ nÃ¡nĠ
xiÃłnĠ fÇİĠ
zÇĲĠ nÇļĠ
ĠxÃŃngĠ chÃ©ngĠdeĠ
qÅ«Ġ fÄĵnĠ
bÄģĠ fÃ¡
bÃłnĠ yÇİnĠ
Ġ 1998ĠniÃ¡nĠ
cÇĲ ĠzhÄ«ĠwÃłiĠ
wÃłi ĠwÃ©iĠ
chuÃŃ Ġ
sÄ«Ġ xiÇİngĠ
ĠdÃłĠ shÄ«Ġ
fÇİĠ lÃ¬ngĠ
ĠchÅ«ĠxiÃłnĠ leĠ
miÃ¡oĠ shÃ¹
ĠdeĠmÃŃngĠ zÃ¬Ġ
Ġ Al
en ĠĠĠ
ĠdÃłn ĠyÄ«nĠ
shÄģĠ hÃłiĠ
xiÃł ĠdeĠyÃŃĠgÃ¨Ġ
huÃ² ĠshÃ¬Ġ
cÃ©ng ĠshÃ¬Ġ
ĠdÃłĠ zhÃ²ngĠ
shÃ²uĠ hÃłiĠ
zhÇĲĠhuÄ«Ġ guÄģnĠ
Ġ xiÃ¡Ġ
Ġ 20Ġ
wÃ©n ĠzhÅįngĠ
bÅį ĠÄĽrĠ
ĠyuÃ¨Ġ tÃ¡i
ĠnÃ¡nĠ jÄ«ngĠ
cÃ¡iĠ wÃ¹Ġ
bÃ¬ngĠ mÃ©iĠyÇĴuĠ
jiÃłoĠyÃ¹ ĠbÃ¹Ġ
ĠfÄĵnĠbiÃ© ĠshÃ¬Ġ
gÃ²ng ĠshÃŃĠ
ĠwÃ¨iĠ yÃ³uĠ
miÃłnĠ tÇĲĠ
yÄ«ngĠ guÃ³ĠdeĠ
yÃ¡nĠjiÅ«Ġ yuÃłnĠ
ĠyuÃ¡nĠ shÇĲĠ
jÇĲngĠ guÄģnĠ
Ġ bÇĶĠ
Ġ rÃ¨Ġ
nuÃ² ĠsÄ«Ġ
1980 ĠniÃ¡nĠdÃłiĠ
ĠdeĠ xiÇİoĠ
mÇİĠ tÃ³uĠ
zhÇİnĠ lÇİn
ĠshÄĵngĠzhÇİngĠyÃºĠ hÇİiĠbÃ¡
Ġ niÇĶĠyuÄĵ
chÄĵng ĠhÃłoĠ
ĠzÃłiĠ yÄ«ngĠguÃ³Ġ
h Ġ
shÃ¨ng ĠdÃ¬Ġ
31 Ġ
1957 ĠniÃ¡nĠ
ĠdÃło ĠshÃ¬Ġ
ĠdÃłĠ xÃŃng
jÄ«ngĠ yÃŃng
Ġ yÃłnĠ
gÄģo ĠyuÃ¡nĠ
tÃ¡o ĠyuÃ¡nĠ
hÃ²uĠ lÃ¡iĠ
ĠzhÃ¨Ġ yÃłngĠdeĠ
pÃłnĠ luÃłnĠ
ĠxÄ«n ĠjiÄģĠ
Ġ Ro
Ġ piÃłnĠ
Ġ pÃ©iĠ
mÇİ ĠdeĠ
diÇİn ĠwÃ¨iĠ
hÄĵng Ġ
1961 ĠniÃ¡nĠ
ĠwÃ¨iĠ bÃ¨iĠ
ĠyÃ¬Ġ si
ĠpÃŃngĠ lÃ¹n
ĠshÃłngĠ shÅ«Ġ
hÃ¡ngĠ yÃ¨Ġ
5 ĠgÃ¨Ġ
ĠĠĠ 10
fÃ©i Ġ
ĠhÃ©Ġ fÇİĠ
qÃŃngĠ jiÃ©Ġ
ĠmÃ¹ĠqiÃ¡nĠ shÃłngĠwÃ¨iĠ
Ġ 2000
tÅ« ĠchÅ«Ġ
ĠdÃło ĠbÃ¹Ġ
pÃŃngĠ mÃŃnĠ
guÄģnĠ fÃ¨iĠyÃ¡nĠ
tuÃ¡nĠ zhÇİngĠ
Ġ gÇİiĠwÃ©iĠ
shÃłng ĠyÄ«Ġ
ĠyÃ¬Ġ mÃŃngĠ
ĠyÇĲ ĠshÃ¬Ġ
ĠmÇĲ ĠdeĠdÃ¬ĠqÅ«Ġ
ĠxiÃłnĠdeĠyÃŃĠgÃ¨Ġ fÄĵiĠjiÃłnĠzhÃ¬ĠdÃ¬ĠqÅ«Ġ
Ãłi ĠguÃ³Ġ
ĠyÃ¬Ġ jÃŃĠ
ĠÄĽr ĠzÃłiĠ
ĠzuÃ²Ġ chÅ«
tiÄģnĠ huÃ¡ngĠ
shÇĲĠyÃ²ngĠ leĠ
fÃ¡ngĠ zhÇĲĠ
dÃ²uĠ zhÄĵngĠ
wÃ¹ĠzhÇĴng ĠdeĠ
l ĠĠĠ
luÃ³ ĠjÃŃĠ
hÃ³ng ĠjÅ«nĠ
jÄ«ngĠ guÃ²
jiÃłoĠ shÃ²u
Ġ nĠ
tiÄģn ĠjiÄģĠ
kÄģ ĠfÄĵiĠ
ĠhÃ©Ġ tÄģĠdeĠ
ĠyÇĶĠ dÃłĠ
ĠrÃ¨nĠ mÃ¬ng
sÄģiĠ nÃłĠ
lÃ¡i ĠsÄ«Ġ
hÇİo ĠyÇĴuĠ
zuÃ²Ġ chÅ«
chÃ¡ngĠ qÄ«
ĠzhÅįngĠgÃ²ng ĠzhÅįngĠyÄģng
miÃłn ĠshÃ¬Ġ
chÃ³u ĠbÃ¨iĠ
lÇĲngĠ yÃ¹
Ġ kÅįngĠ
yuÃ¡n ĠzhÅįngĠ
1944 ĠniÃ¡nĠ
ĠyuÃ¡nĠ zÃ©Ġ
dÅįngĠ nÃŃĠ
xiÇİngĠ fÇİĠ
pÇĲnĠ pÃ¡i
mÃ¬ngĠ lÃ¬ng
Ġ nÃŃngĠ
nÃŃ ĠdeĠ
ĠzhÄ«Ġ chÃ¹Ġ
dÃłiĠ lÃ¡iĠ
ĠdÄģngĠ xuÇİn
Ġ mÃŃn
ĠĠĠ 2021ĠniÃ¡nĠ
fÃº ĠÄĽrĠ
hÃ¡ng ĠxiÃłnĠ
ĠjÄ«Ġ dÅ«ĠjiÃłoĠ
ĠtÃ³ng ĠrÃ¬Ġ
ĠxÃŃngĠzhÃ¨ngĠ zhÃ¨nĠqÅ«Ġ
ĠdeĠ lÇĲĠ
ĠdeĠ xÄ«Ġ
ĠshÃ¬Ġ nÃ¡nĠjÃŃĠzhÅįuĠdeĠ
Ġ nÃ¨i
Ġ 1999ĠniÃ¡nĠ
ĠĠĠ Ã©r
ĠĠĠ suÃŃĠ
dÃ¬ng ĠzÃłiĠ
ĠwÃ¨iĠ qÃŃĠ
ĠhÃ©Ġ dÃło
lÃ¬Ġ yÃ²ngĠ
ĠshÃŃĠ dÃłiĠdeĠ
ĠzuÃ²Ġ biÄģoĠwÃ¨iĠ
xÃ¬ngĠ biÃ©Ġ
chÃ¡ngĠ jiÄģngĠ
Ġ wÃ©i
Ġ tÃºn
15 ĠniÃ¡nĠ
ĠbÃ¹Ġ dÃ©Ġ
shÄ«Ġ bÃłi
qÃ¬Ġ tÇĲĠ
chÇİnĠ yÃ¨
xiÅ«Ġ gÇİi
ĠdÃ¬ĠÃ¨rĠ cÃ¬Ġ
ÃłoĠsÄ«Ġ kÇİĠ
huÃ¬ ĠjÃŃĠ
zuÃ² ĠzhÅįngĠ
pÇĲn ĠzhÃ¬Ġ
bÄ«n ĠshÃ¬Ġ
ĠgÅįngĠ jÄ«nĠ
fÃºĠ hÃłoĠ
ĠzuÃ¬ ĠchÅ«
6 ĠgÃ¨Ġ
Ġ yÃ¡oĠ
ĠĠĠ zhÇĶĠyÃłoĠ
gÄĵ ĠÄĽrĠ
ĠyÇĶĠ zhÃ²u
chÄĵngĠ wÃ©i
shÃ¨ĠhuÃ¬Ġ zhÇĶĠyÃ¬Ġ
dÃłngĠ ÃłnĠ
yÃŃngĠdÃ©Ġ leĠ
Ġ 1990
ĠĠĠ zhÃłnĠ
ĠgÅįngĠ zuÃ²ĠdeĠ
ĠzhÃ¨Ġ cÃ¬Ġ
ĠniÃ¡nĠ12ĠyuÃ¨Ġ 31ĠrÃ¬Ġ
ĠĠĠ e
yÃ¹ ĠdÃłoĠ
zhÃłn ĠzhÃ¬Ġ
zhÃłn ĠjÃ¬Ġ
jiÄĵ ĠjÃ¬n
wÇĶ ĠmÃŃngĠ
chÇİng ĠshÃłngĠ
dÇĲ ĠzhÃ¬Ġ
chÇİngĠ jÇĲngĠ
shÄģngĠ diÃłnĠ
ĠsÄģn ĠshÃŃĠ
niÇİoĠ lÃ¨iĠ
dÅįng ĠxiÃłnĠ
ĠbÃ¹Ġ ÄĽr
ĠzhÃ¬Ġ dÃ¬ngĠ
wÇĶĠ qÃ¬
jÄ«ngĠjÃ¬Ġ xuÃ©Ġ
lÃ¨iĠsÃ¬ ĠyÃºĠ
Ġ fÄģ
Ġ niÃºĠ
zhÅįng ĠshÃ¬ĠjÃ¬Ġ
dÃ²ng ĠyuÃ¡nĠ
fÄĵn ĠchÃ©ngĠ
kuÃ² ĠzhÄģngĠ
nÃłn ĠmÃŃnĠ
32 Ġ
ĠmÃŃngĠ zÃ¬Ġ
jiÄĵĠ chÃ¹
gÇİnĠ rÇİn
rÃ©nĠmÃŃnĠ dÃłiĠbiÇİoĠdÃłĠhuÃ¬Ġ
zÃłi ĠĠĠ
ĠjÄ«Ġ xiÃ¨Ġ
jÃ¹Ġ fÄĵngĠ
liÃ¨Ġ rÃ¹
yÃ¡nĠjiÅ« ĠsuÇĴ
jiÄģngĠsÅ«Ġ shÄĽngĠ
Ġ chÄģo
Ġ jiÇİoĠ
Ġ xiÃ³ngĠ
fÃº ĠdÃ©Ġ
yÇĲn ĠlÃ¬Ġ
ĠxiÃłnĠ dÃłi
ĠĠĠ duÃ¬ĠyÃºĠ
jiÇİng ĠdeĠ
ĠtÄģĠ shuÅįĠ
zhÃ²ngĠ zhÃŃĠ
Ġ qÃ¬
Ġ 1ĠyuÃ¨Ġ
Ġ shÃ²uĠdÃłoĠ
Ġ xiÅįngĠ
1940 ĠniÃ¡nĠ
1951 ĠniÃ¡nĠ
ĠzhÅįngĠ shÅ«Ġ
hÃ²uĠ xuÇİnĠrÃ©nĠ
yÃ¡nĠ shÄĵnĠ
ĠdÃłn ĠbÃ¹Ġ
ĠwÃ©iĠ zhÇĲĠ
zhÅ«Ġ lÃ³ngĠ
mÃ¹ĠsÄ«Ġ lÃŃnĠ
Ġ 36
ĠĠĠ kÃ¨Ġ
fÄģng ĠchÃ©ngĠ
chÄĵ ĠdÃłoĠ
sÅ« ĠlÇĲĠ
guÄģ Ġ
shÄĵngĠ mÃŃngĠ
zhÃ¹Ġ cÃ¨Ġ
bÄģnĠ fÄģĠ
gÃ¨ngĠ duÅį
hÃłiĠ Ã©
ĠcÃ©ng ĠzÃłiĠ
ĠtÃłiĠ yÃ¡ngĠ
zÅ« ĠjiÃ¨Ġ
ĠjiÄģĠ jÃ¬ngĠ
ĠyÃ³uĠ yÇĴngĠ
dÄĽngĠ zhÃŃĠ
ĠĠĠ for
rÃ©n ĠwÃ¨iĠ
duÃ¬ ĠyÇĴuĠ
tÇĲ ĠxÃŃngĠ
nÃº Ġ
yÄĵ ĠsÅ«
ĠjÄ«Ġ chÇĶĠ
ĠchÅ«Ġ shÄĵnĠ
bÇİoĠ cÃºn
gÃ²ngĠhÃ©Ġ guÃ³ĠdeĠ
ĠwÃ¨iĠfÃºĠqÃŃĠyÃºĠ gÄģng
Ġ e
lÇİng ĠdÃ©Ġ
ĠchÅ«Ġ rÃ¹ĠkÇĴuĠ
fÄĵnĠ qÅ«Ġ
lÇĲngĠ xiÃ¹
yÃ¡nĠjiÅ« ĠyuÃ¡nĠ
xiÃ©Ġ tiÃ¡o
ĠshÃ¬ĠdÃ¬Ġ yÄ«Ġ
ĠbÃ¬ngĠqiÄĽ ĠzÃłiĠ
jÇĲnĠbiÄģoĠ sÃłi
Ġ zhÇĶ
Ġ wÄĵn
Ġ JR
Ãłi ĠdÃ©ĠhuÃ¡Ġ
xiÃłn ĠshÃŃĠ
shÇĲ ĠzhÅįngĠ
qÇĲ ĠdeĠ
chÄĵng ĠzhÄ«ĠwÃ¨iĠ
bÄģn ĠbÃ¹Ġ
hÃ¡ng ĠzhÅįuĠ
1930 ĠniÃ¡nĠ
jiÃłoĠ zuÃ²Ġ
tÅįngĠ xÃ¬nĠ
nÇļĠ yÇİnĠyuÃ¡nĠ
huÇĴĠ bÃłnĠ
kÇİoĠ gÇĶĠ
miÃłnĠjÄ« ĠhÃ©Ġ
zuÃ¬ĠzÇİo ĠdeĠ
guÄ«ĠmÃ³ ĠdeĠ
Ġ 22
pÃ¡i ĠdÃ©ĠzhÇĶĠ
bÄ«ng ĠlÃ¬Ġ
chÃ¨n Ġ
ĠjiÄģĠ mÃ©ngĠ
mÇİĠ lÃ¡iĠ
chÃ¨Ġ dÇĲĠ
xÄ« ĠyuÃ¡nĠ
quÃ¡n ĠxiÃłnĠ
bÃłi ĠzhÃłnĠ
rÃ©ng ĠyÇĴuĠ
ĠchÃ©ngĠ xÃ¹
ĠjiÃłn ĠyÇĴuĠ
shÇĴuĠ duÃłnĠ
chÃ©ng ĠzÃłiĠ
quÃ¡n ĠqiÃº
ĠzhÅįngĠ fÄģĠxiÃłnĠ
zÃºĠ xiÃ©Ġ
ĠĠĠ st
zÃº ĠrÃ©nĠ
zÄģo ĠshÃ²uĠ
shÇĴuĠ fÇĶĠ
fÄĵnĠ lÃŃĠ
ĠzhÅįngĠguÃ³Ġ gÃ²ngĠchÇİnĠdÇİng
miÇİnĠ diÄģnĠ
ĠĠĠ Li
jiÄģng ĠshÃ¬Ġ
ĠgÄģiĠ dÃ¬ĠdeĠ
ĠgÅįngĠyuÃ¡nĠ qiÃ¡nĠ
ĠdÃ¬ĠshÃŃĠ yÄ«Ġ
ĠĠĠ fÃºĠ
ĠĠĠ 2015ĠniÃ¡nĠ
yÇĲ ĠshÃłngĠ
hÃłn ĠyÇĶĠ
am Ġ
1931 ĠniÃ¡nĠ
ĠwÃ¨iĠ zhÅįngĠguÃ³Ġ
ĠhÃ©Ġ lÃ¡n
ĠqiÃºĠ yÃ¹nĠdÃ²ngĠyuÃ¡nĠ
jiÄģoĠ chÄģĠ
ÃłiĠ qÃŃngĠ
tuÃ¬Ġ xiÅ«
ĠlÃ¬ng ĠyÃ¬ĠfÄģngĠmiÃłnĠ
ĠbÃ¹ĠdÃ© ĠbÃ¹Ġ
ĠmÃ¹ĠqiÃ¡nĠshÃłngĠwÃ¨iĠ yÃ³uĠrÃ©nĠgÅįngĠyÇĲnĠzhÇĴngĠzÄģiĠpÃ©iĠ
jiÄģn ĠzhÃ¬Ġ
huÃ¡ ĠdÃłĠxuÃ©Ġ
cÃ¡iĠ chÇİnĠ
wÃ¹ĠlÇĲĠ xuÃ©Ġ
ĠĠĠ 4ĠyuÃ¨Ġ
fÄĵn ĠwÃ¨iĠ
di Ġ
tÃ³u ĠdeĠ
ĠzhÃ¨Ġ yÄĽĠshÃ¬Ġ
gÇİnĠ juÃ©Ġ
Ãłn ĠzhÅįngĠ
dÃ¡ ĠdeĠ
wÇİng ĠdeĠ
mÃ³u ĠshÄģĠ
ĠzÃłiĠ gÅįngĠ
ĠjiÃłnĠ zÃło
ĠyÄ«n ĠdeĠ
bÃłoĠ zhÃł
dÇİoĠ yÇİn
ĠxÄ«ĠbÄģnĠyÃ¡ ĠyÇĶĠ
ĠĠĠ 6
yuÃ¡n ĠshÃŃĠ
jÄ«n ĠrÃ¬Ġ
lÃŃn ĠsÄ«Ġ
xuÃ©Ġ shÄĵng
tÃŃĠ gÅįngĠdeĠ
ĠfÄĵn ĠwÃ©iĠ
kÇİĠluÃ³ĠlÃ¡iĠ nÃł
fÇİ ĠshÃ¬Ġ
rÃłng ĠtÄģĠ
ĠjÃŃĠ yÄ«Ġ
ĠchÅ« ĠyÄ«Ġ
ĠD Ġ
Ġ qiÅ«
Ġ tÃ²uĠguÃ²Ġ
tÃ¨ ĠhÃ©Ġ
hÃłn ĠzÃ¬Ġ
zhÅįngĠ bÃ¹Ġ
ĠdÃłĠ yuÄĵ
shÄĵngĠ tÃłiĠ
wÄĽiĠyuÃ¡nĠ huÃ¬ĠdeĠ
ĠwÃ©nĠ huÃł
ĠdÄģngĠ xuÇİnĠ
ĠzhÃ¬ĠzuÃ² ĠrÃ©nĠ
xiÃłĠxiÃ¡ĠdeĠyÃŃĠgÃ¨Ġ xiÄģngĠ
ĠĠĠ 15
nÃ¡n ĠsÄ«ĠlÄģĠ
tÃłi ĠhÃ²uĠ
gÃłn ĠxiÃłnĠ
ĠshÃ¬Ġ nÃ¡nĠ
zÃºĠ zÃ¬ĠzhÃ¬Ġ
qiÄģnĠ shÇĶ
Ġ rÃ¨nĠhÃ©Ġ
Ġ yÄģoĠqiÃº
zi ĠgÅįngĠsÄ«Ġ
1933 ĠniÃ¡nĠ
ĠyuÃ¨Ġ tuÃ¡n
ĠyÃ¬Ġ diÇİnĠ
duÃ¬Ġ wÃłiĠ
ĠhuÃ¬Ġ bÃ¨iĠ
yÃ¡nĠ chÃ¡ng
qÇĲĠ sÃ¹Ġ
zhÃ²ngĠ diÇİn
shuÇĲĠ kÃ¹Ġ
Ġ 2025
Ġ 34
Ġ chÃ¹Ġ
jÃ¬ ĠyÃºĠ
tÃ¨ ĠjÃŃĠ
1928 ĠniÃ¡nĠ
ĠshÃ¬Ġ xiÄģngĠgÇİngĠ
shÄĵnĠ zhÃ¨nĠ
xÃ¹Ġ shÃ¹Ġ
ĠmÇİĠlÃ¡i ĠxÄ«ĠyÃłĠ
Ġ fÄĵng
mÃ¹ ĠshÃ¬Ġ
ĠzÃłiĠ nÃ¡nĠ
ĠhÃ©Ġ tÃ³ngĠ
shÃłngĠ shÃ¹Ġ
wÇĶĠ hÃłn
ĠĠĠgÃ¨ĠrÃ©nĠ shÄĵngĠhuÃ³Ġ
Ġ kÄģngĠxÄ«Ġ
jÃ¬n ĠjÃŃĠ
fÃ¹ ĠzhÃ¬Ġ
60 Ġ
cÅ« Ġ
ĠshÃ¬Ġ gÃ¨Ġ
dÃ¬ngĠ qÄ«Ġ
sÄģnĠ cÃ¬Ġ
gÇİiĠ wÃ©i
biÄģnĠ mÇİĠ
ĠsuÃŃĠ zheĠ
ĠhÄģ ĠÄĽrĠ
ĠjÃ¬ĠsuÃłn ĠjÄ«Ġ
Ġ à¸
Ġ kuÄģnĠ
ĠĠĠ 6Ġ
zhÃłn ĠwÃ¨iĠ
rÃ¹ ĠwÃ©iĠ
qÃ¬ ĠrÃ©nĠ
xiÃ© ĠdÃłiĠ
wÃ² ĠÄĽrĠ
tÃłn ĠsuÇĴĠ
codice Ġ
bÅįĠ fÃłng
miÃ¡oĠ shÃ¹ĠwÃ¨iĠ
Ġ fÇİnĠduÃ¬Ġ
ĠĠĠ dÅįngĠ
ĠĠĠ 7ĠyuÃ¨Ġ
shÃ¹ ĠhÃ©Ġ
shÇĴu ĠbÃ¹Ġ
shÄ« ĠhÃ©Ġ
biÄģn ĠchÃ©ngĠ
xiÅ« ĠsÄ«Ġ
sÇİo Ġ
duÃ¬Ġ xiÃłngĠ
tÃ¡iĠ bÃ¬Ġ
ĠdeĠjÄ«Ġ huÃ¬Ġ
Ġ dÃŃ
ĠĠĠ s
zhuÇİn ĠwÃ©iĠ
1942 ĠniÃ¡nĠ
bÄĵn Ġ
ĠguÃ³Ġ gÅįngĠ
ĠyuÃ¡nĠ yÇĴuĠ
ĠgÃ¨ ĠdÃłĠ
ĠkÃ¨ ĠlÇĲĠsÄ«Ġ
dÃ²ngĠ chÄĵĠ
bÄģnĠ cÃ¬Ġ
zhÇĶĠchÃŃ ĠrÃ©nĠ
Ġ biÇİoĠ
ĠĠĠ zhÃ¬ĠzuÃ²Ġ
juÃ© ĠleĠ
rÄĽn Ġ
ĠbÃ¹Ġ zhÃ¨ngĠ
ĠlÃ¬Ġ kÃ¨Ġ
ĠgÅįngĠ kÄģi
lÃ¹Ġ shÃłngĠ
guÄ«Ġ huÃł
mÃ²ĠsÄ«Ġ kÄĵ
Äģn ĠrÃ©nĠ
fÅ« ĠfÃ¹Ġ
zhuÃłng ĠbÃ¬ngĠdÃº
ĠchÃ©ngĠ bÇİoĠ
mÃŃnĠ jÃ¬nĠ
xÃ¬Ġ liÃ¨ĠdeĠ
J Ġ
ĠĠĠ 2020ĠniÃ¡nĠ
qÃŃ ĠshÃ¬Ġ
nÃł ĠsÄ«Ġ
hÃ¡ng ĠzhÃłnĠ
jiÃłnĠ zÃłoĠ
tÃ¡iĠwÄģn ĠdeĠ
pÄ«Ġ pÃŃng
ĠĠĠ xiÄģngĠgÇİngĠ
fÃ¹ ĠyÇĴuĠ
jÄ«ng ĠdeĠ
dÅįng ĠdeĠ
ĠdÃ¬Ġ 2Ġ
zhÃ¨ngĠ quÃ¡nĠ
qÅ«Ġ jiÄģnĠ
ĠgÃ¨Ġ zÃ¬Ġ
Ġ 90
Ġ gÃ¹ĠshÃ¬Ġ
dÇĶ Ġ
ĠzhÅįngĠ zhÇĲĠ
ĠchÃ©ngĠ wÃ©iĠyÄ«Ġ
zuÇĴĠ yÃ²u
ĠyÇĴuĠyÄ«Ġ xiÄĵĠ
kuÃ²Ġ zhÇİnĠ
jiÃ¹ĠdÃº ĠyÃºĠ
Ġ tÇİ
bÃ¨i ĠshÃ¬Ġ
ĠguÃ³Ġ yÇĶĠ
bÄģĠ nÃ¨n
ĠxiÄģngĠ dÄģngĠ
dÃºĠ tÃ¨ĠdeĠ
fÃłnĠ wÃ©i
ĠguÃ³ĠmÃŃnĠ dÇİngĠ
ĠĠĠ 2014ĠniÃ¡nĠ
xiÃłn ĠxiÃłngĠ
kÄĵ ĠÄĽrĠ
wÃº ĠÄĽrĠ
ĠniÃ¡n ĠniÃ¡nĠ
kÄģiĠ mÃ¹Ġ
mÃŃnĠ zhÇĶ
zhÃ¨Ġ zhÇĴng
ĠzhÃłnĠ lÇĲngĠ
tiÄģnĠ tÃ¡ngĠ
tÃ³ngĠ yÃłng
cÃ¨Ġ lÃ¼Ã¨Ġ
jiÇİngĠ zuÃ¬ĠjiÄģĠ
qiÃºĠ duÃ¬
2 ĠmÇĲĠ
ĠniÃ¡nĠ qiÃ¡nĠ
ĠhuÃ¬Ġ shÃłngĠ
fÄĵngĠ gÃ©
yÃŃĠ mÃŃn
huÃ³ĠdÃ²ng ĠdeĠ
Ġ cÃŃ
Ġ cÇİiĠ
ĠĠĠ lÄģĠ
mÄĽi ĠrÃ¬Ġ
jiÅ« Ġ
yÃ¬n ĠxiÃłngĠ
ve Ġ
ĠmÃŃngĠ xÄ«ngĠ
diÃłnĠ chÄĵĠ
ĠqiÃ¡nĠ lÃ³ngĠ
Ġ pÃŃ
Ġ 38
Ġ shÇİnĠxÄ«Ġ
ĠĠĠ 2010ĠniÃ¡nĠ
shÅ« ĠshÃ¬Ġ
1943 ĠniÃ¡nĠ
ĠzÃłiĠ yuÃ¡nĠ
ĠrÃ¬Ġ qÄ«Ġ
nÃ¨iĠ mÃ©ngĠgÇĶĠ
xiÃ©Ġ shÄģngĠ
2 ĠĠĠ
Ġ 55
ĠdÃ¬Ġ bÄģĠ
ĠjÃŃĠ yÇĲĠ
ĠzhÅįu ĠrÃ©nĠ
ĠqÃŃĠ bÄ«ngĠ
fÇĶĠ zhÃ¹Ġ
lÇĲngĠ xiÄģnĠ
cuÄ«Ġ huÇĲ
ĠĠĠ 8ĠyuÃ¨Ġ
pÇĲn ĠdeĠ
zhÃłoĠ piÄģn
Ġ huÄģ
Ġ lÃº
chuÄģn ĠyuÃ¨Ġ
ter Ġ
jÃ¬nĠ zhÇĲĠ
Ġ 75
Ġ lÃ¡oĠ
Ã¨ ĠÄĽrĠ
lÃ¹ ĠyÇĶĠ
dÃłĠ xuÃ©
ĠrÃ¬ ĠyÃ¬Ġ
shÄĵngĠ mÃ¬ngĠ
yÃ³uĠ tÃłiĠ
tÃ¨Ġ qÅ«Ġ
ĠbÃ¬ngĠ biÇİoĠshÃ¬Ġ
zuÃ¬Ġ duÅįĠdeĠ
ĠtÃ¨Ġ biÃ©Ġ
Ã¡o Ġ
ver Ġ
xÄ«Ġ wÃłngĠ
jiÃłoĠ kÄĵĠ
chÇİngĠ bÇĲĠsÃłiĠ
ĠhÃ©ĠliÃºĠ yÃ¹Ġ
chÃ©ng ĠshÃŃĠ
gÃ© ĠsÄ«Ġ
ĠshÃ¬Ġ yuÃ¡nĠ
jÃ¹Ġ dÃłĠdeĠ
jiÄĵĠwÃ¨iĠ zhÄ«Ġ
ĠshÃ¬ĠyÃŃĠgÃ¨ ĠwÃ¨iĠyÃºĠmÄĽiĠguÃ³Ġ
miÃłnĠjÄ«ĠhÃ©Ġ rÃ©nĠkÇĴuĠ
Ġ Ø
fÄģng ĠwÃ¨iĠ
cÇĲ ĠshÃ¬Ġ
jÅ« ĠyÃºĠ
ĠtÄģĠ jiÄģngĠ
zÇĴngĠ jÄ«ngĠlÇĲĠ
bÃłnĠ yÇİn
kÇİĠ lÄģĠ
ĠtÃ³ngĠshÃŃĠ yÄĽĠ
hÃ¨Ġ sÃ¨Ġ
mÃŃĠ nÇĲĠ
xiÄģng ĠdeĠ
jiÇİ ĠjÄ«Ġ
re Ġ
shÃłngĠ xiÃłĠ
zhÃ¹Ġ zhÃ¡i
fÄĵnĠ lÃ¡nĠ
bÇİoĠ zhÃłng
ĠĠĠ mÃ¹ĠqiÃ¡nĠ
duÅį ĠmÃŃngĠ
bÅį ĠlÃ¬Ġ
nÃº ĠlÃ¬Ġ
1912 ĠniÃ¡nĠ
ĠguÃ³Ġ wÃ¡ng
ĠchÅ«Ġ rÃ¨n
ĠjÅ«nĠ guÄģnĠ
huÃ¡ngĠ jÄ«n
ĠqÃŃĠzhÅįngĠ yÇĴuĠ
ĠzhÃłn ĠdÃ¬Ġ
hÃ¡ngĠkÅįng ĠgÅįngĠsÄ«Ġ
ĠgÄģiĠdÃ¬ĠdeĠ miÃłnĠjÄ«ĠhÃ©ĠrÃ©nĠkÇĴuĠ
ĠgÄģiĠdÃ¬ĠdeĠmiÃłnĠjÄ«ĠhÃ©ĠrÃ©nĠkÇĴuĠ jiÄĵĠwÃ¨iĠzhÄ«Ġ
Ġ cÃłiĠ
yuÃ¨ ĠhÃ©Ġ
qÅ« ĠjÃŃĠ
hÃłnĠ lÃŃnĠ
ĠzhÃ¬ĠlÃ¬Ġ yÃºĠ
Ġ Le
Ġ nÃ³ngĠ
Ġ yÃ¡nĠjiÅ«Ġ
Ġ yuÇİnĠ
rÃ¹n Ġ
dÃłiĠ bÇĶĠ
gÄģoĠ dÄĽng
jiÃłnĠ kÄģngĠ
yÃŃ ĠjÃ¬Ġ
dÄģn ĠxÄ«nĠ
zÃº ĠyÇĲĠ
ĠshÃŃĠ yuÃ¨Ġ
ĠyÄ«Ġ tiÄģnĠ
tuÃ¡nĠ jiÃ©Ġ
ĠyÄ«nĠcÇĲ ĠzÃłiĠ
fÃ¹ ĠyÇĶĠ
bÇĲ ĠÄĽrĠ
yÄ«ng ĠjÅ«nĠ
guÃ³Ġ fÃ¡ng
ĠchÅ« ĠxiÃłn
ĠjiÄģĠ rÃ¹ĠleĠ
huÃ¬ĠyÃ¬Ġ shÃłngĠ
cÃºnĠzÃłiĠ yÃºĠ
Ġ huÃ¡i
Ġ dÅįuĠshÃ¬Ġ
ĠĠĠ X
jiÃ¹ ĠyÇĴuĠ
diÇİn ĠxÃŃngĠdeĠ
tÃ¡ng ĠdeĠ
biÄģo ĠjÃ¬Ġ
1929 ĠniÃ¡nĠ
ĠyÄ«Ġ chÃ¡ngĠ
ĠdÃ© ĠlÃ¬Ġ
ĠdÃłiĠ lÃ¡iĠ
Ġ gÅįngĠbÃ¹Ġ
jÃ¹ ĠzhÅįngĠ
mÃ¹ ĠzhÃ¬Ġ
sÄģn ĠwÃ¨iĠ
tÄ«ng ĠdeĠ
zhuÃłng ĠdeĠ
jÃ¬Ġ xÃ¹
ĠkÃ¨Ġ luÃ³Ġ
ĠjÃ¬n ĠjÃŃĠ
gÄģoĠ jiÃłĠ
shÄģngĠ pÇĲnĠ
ĠĠĠwÃ¨iĠ leĠ
Ġ 2004
Äģ ĠjÄ«Ġ
Äģn ĠshÃ¬Ġ
ĠĠĠ 9ĠyuÃ¨Ġ
ĠĠĠ 2012ĠniÃ¡nĠ
ĠĠĠ suÄ«ĠrÃ¡nĠ
xÃ¬ ĠjÅ«nĠ
fÃº ĠshÃ¨Ġ
bÅį ĠchÅ«
ĠyÃ¬Ġ wÃłiĠ
ĠdÃłĠ guÄ«ĠmÃ³Ġ
chÇİnĠ shÄĵng
ĠzhÇĶĠ chÃŃ
bÇİnĠ bÄĽnĠdeĠ
quÃ¨Ġ bÇİoĠ
ĠshÇĲĠ yÃ²ng
ruÃ¬Ġ diÇİn
5 ĠgÅįngĠlÇĲĠ
Ġ shÃłoĠ
ĠĠĠ 2013ĠniÃ¡nĠ
chÃ¡ ĠlÇĲĠ
1927 ĠniÃ¡nĠ
ĠdeĠjÃ¬Ġ huÃłĠ
ĠguÃ³ĠmÃŃnĠ dÇİng
ĠzhÇĶĠyÃło ĠshÃ¬Ġ
Ġ mÃ¨ngĠ
jiÇİn ĠlÃ¬Ġ
gÄĽi ĠtÄģĠ
se ĠĠĠ
yÃŃĠ zhÇĲ
mÃ©ngĠ tÃ¨Ġ
duÇİnĠ zÃłn
ĠguÃ³ĠmÃŃnĠ zhÃ¨ngĠfÇĶĠ
Ġ hÃ¹
21 ĠniÃ¡nĠ
at ĠĠĠ
zÄĽn Ġ
ĠhÃ©Ġ lÃ¬Ġ
ĠshÃŃĠ jiÄģnĠdeĠ
lÃ¹Ġ xÃ¹Ġ
juÃ©Ġ sÃłiĠzhÅįngĠ
ĠfÄĵnĠ bÃ¹ĠzÃłiĠ
chuÃłngĠ shÇĲĠrÃ©nĠ
hÄĵiĠ lÃ³ngĠjiÄģngĠ
Ġ jÄ«ĠyÃºĠ
jiÄģ ĠshÃ¬Ġ
pÃŃng ĠjÅ«n
duÃłn ĠshÃŃĠjiÄģnĠ
1932 ĠniÃ¡nĠ
ĠyÇĲĠ 1Ġ
ĠxÄ«Ġ lÇĲĠ
fÄģĠ huÄ«
ĠwÃ©iĠ qÃŃ
dÄģnĠ dÇİĠ
ĠzhÇĶĠ rÃ¨nĠ
tÃŃngĠ yÃ¹nĠ
ĠcÃ©ngĠ jÄ«ngĠ
Ġ 70
Ġ cÅ«nĠ
qiÃ¡n ĠzÃłiĠ
diÃło ĠyÃºĠ
ĠchÅ«Ġ shÃ²uĠ
fÄģĠ yÃ¡nĠrÃ©nĠ
Ġ kÄĽnĠ
ĠĠĠ qÃŃĠzhÅįngĠ
fÃº ĠzhÅįuĠ
shÄ« ĠdÃ¬Ġ
80 ĠniÃ¡nĠ
guÄģnĠ cÃ¨
tÇİĠ nÃŃ
Ġ w
Ġ kÄĽĠnÃ©ng
Ġ 1997ĠniÃ¡nĠ
shÃ¹ ĠrÃ©nĠ
xÃ¹ ĠjÃŃĠ
chuÄģn ĠguÃ²Ġ
fÃ¹Ġ zhÇĶĠxÃŃĠ
ĠzhÅįu ĠwÃ©iĠ
ĠdeĠyuÃ¡nĠ yÄ«nĠ
Ġ dÃ¹
zhÅįng ĠhÃ©Ġ
shÇĲ ĠdÃ¬Ġ
wÃ¹ ĠyÇĶĠ
wÃ¡ng ĠhÃ²uĠ
chÃ¡i Ġ
ĠzhÄ«Ġ chÄĵngĠ
ĠdÃłn ĠqÃŃĠ
ĠxuÃ©Ġ xÃŃ
quÃ¨Ġ dÃ¬ng
qÃºnĠ zhÃ²ngĠ
ĠshÃ¬ĠjiÃ¨ ĠdeĠ
ĠzÇĴngĠ tÇĴngĠ
tÃłnĠ xiÇİn
nÃŃĠyÃł ĠdeĠ
ĠĠĠchÄĵĠzhÃłnĠ jiÃ©ĠgÃ²uĠ
xÃŃng ĠxiÃłngĠ
cÃ¬ ĠjÄ«Ġ
juÃ© ĠyÃºĠ
suÃłn ĠfÇİĠ
shÃ¹Ġ mÃ¹Ġ
ĠÃ©rĠ lÃ¡iĠ
zhÃŃĠ bÅįĠ
ĠfÃ¹Ġ gÃłiĠ
lÇĲngĠ yÃ¹ĠdeĠ
gÃłoĠ sÃ¹
chuÃłngĠ zuÃ²
ĠniÃ¡nĠdÃłi ĠchÅ«Ġ
ÃłoĠdÃłĠlÃ¬Ġ yÃł
ĠĠĠ cÄģnĠkÇİoĠ
son Ġ
yÇĴuĠ guÄģnĠ
ĠchÃ©ngĠlÃ¬Ġ leĠ
qÃ¹ĠshÃ¬Ġ hÃ²uĠ
Ġ qÃŃn
yÃ¹ ĠbÃ¨iĠ
shÃ©n ĠdeĠ
chÃ³ng ĠfÃ¹Ġ
tuÄ« ĠxÃŃngĠ
duÇĴ Ġ
ĠdÃło ĠzhÅįngĠ
hÇİiĠ yÃ¡ng
ĠdeĠdÃ¬Ġ yÃŃĠgÃ¨Ġ
Ġ lÃ¡n
Çİi Ġ
zhÇİn ĠxiÃłnĠ
ĠshÃ¬Ġ bÃ¨iĠ
ĠyÄ«n ĠyuÃ¡nĠ
ĠyÄ«n ĠqÃŃĠ
fÃºĠ huÃłĠ
jÃ¬ngĠ nÃ¨iĠdeĠ
gÄĵĠ cÃŃĠ
Ġ 46
ĠĠĠ 5
liÃ¨ ĠsÄ«Ġ
dÅ« ĠhuÃ¬Ġ
sÃ²ng ĠdÃłoĠ
xÄ«Ġ yÃłĠ
zuÃ¬Ġ zÇİoĠ
wÇĶĠ dÇİoĠ
jÃ¬ngĠ wÃłiĠ
Ã©Ġ hÃłiĠÃ©
ĠlÃ¹ ĠyÃ¬Ġ
Ġ jiÇİng
ĠĠĠ 6ĠyuÃ¨Ġ
zhÄĽ ĠrÃ¨nĠwÃ©iĠ
1934 ĠniÃ¡nĠ
ĠdÃłĠ qiÃ¡o
ĠtÄģĠ hÃ¡i
zhÃ¹Ġ zhÃ¡iĠ
mÃ¬Ġ qiÃ¨
guÃ³ĠjiÄģĠ duÃ¬Ġ
zhÃ¨ĠjiÄģngĠ shÄĽngĠ
Ġ dÄĵng
ĠĠĠ 4Ġ
zhÄ« ĠdÃłoĠ
duÅį ĠyuÃ¡nĠ
xiÇİng ĠdeĠ
ĠyÇĲĠ lÃ¡i
ĠshÄĵngĠ chÄĵngĠ
shÄĵnĠ wÃ¡ngĠ
fÇİnĠ duÃ¬
fÃ¡ngĠ jiÄģnĠ
tÃłnĠ cÃ¨Ġ
duÄģn ĠdeĠ
ĠdÃ¬Ġ zhÅįngĠ
ĠjÃŃĠ ÄĽrĠ
jÄ«ngĠ yÃ³uĠ
jÇĲ ĠhÃ©Ġ
ĠyÄ«Ġ tÃ³ng
cÃ¡iĠ zhÃ¨ng
ĠliÃ¡nĠ jiÄĵĠ
mÇİnĠ zÃº
Ġ 150
ĠĠĠ 8
jÃ¬n ĠxÃŃngĠdeĠ
ĠÄĽr ĠyÇĶĠ
pÃ¡iĠhÃ¡ngĠ bÇİng
hÃ²u ĠbÃ¹ĠjiÇĶĠ
chÅ« ĠzhÃłnĠ
fÃ¹ ĠbÃ¹ĠzhÇİngĠ
ĠlÃ¬Ġ shÇĶ
ĠxÃŃng ĠyÃºĠ
lÄģĠ tÃ¨Ġ
bÄģĠ lÃ¨
tÃ³uĠ xiÃ¡nĠ
qiÃ¡ngĠ dÃłĠdeĠ
Ġ yÄ«ĠwÃ¨iĠ
zhÃłn ĠzÃłiĠ
wÇİng ĠqiÃº
kuÃ² ĠjiÃłnĠ
1924 ĠniÃ¡nĠ
ĠjÃŃĠ sÄ«Ġ
ĠrÃ¬Ġ hÃ²uĠ
ĠjiÄģĠ sÄ«Ġ
ĠbÃ¬ng ĠyÇĴuĠ
ĠshÇĴuĠ cÃ¬
Ġ yÇİ
fÄĵn ĠdeĠ
33 Ġ
yÄ«Ġ lÃ¬Ġ
chÃ©ngĠ jÃ¬Ġ
kÄĵĠ fÅ«Ġ
Ġ sÇĲĠ
Ġ zÄĵngĠ
Ġ pÃ©ngĠ
ĠĠĠ xiÄģngĠ
ĠĠĠ gÄĵnĠjÃ¹
ĠhÃ©Ġ dÅįngĠ
zhÃŃĠ wÃ¹
ĠxuÃ©Ġ huÃ¬Ġ
ĠdÄģng ĠniÃ¡nĠ
Ġ12 Ġ
wÃ¡nĠzhÄĽng ĠdeĠ
Ġ xuÃ¡nĠ
Ãłn ĠshÃ¬Ġ
ĠĠĠ cÇĲ
ĠĠĠ 2011ĠniÃ¡nĠ
qÄ« ĠshÃ¬Ġ
shuÅį ĠdeĠ
zhÄĵn ĠzhÃ¨ngĠ
ĠrÃ¬Ġ yÇĶĠ
ĠqÃŃ ĠtÄģĠdeĠ
chÃ¡ngĠ wÄĽiĠhuÃ¬Ġ
bÃłnĠ dÇİo
hÃ¡ngĠ bÄģnĠ
fÃ¡ngĠ kÅįngĠ
shÅįuĠ lÃ¹
wÃ¡nĠchÃ©ngĠ leĠ
3 ĠmÇĲĠ
ĠĠĠ rÃ¬ĠbÄĽnĠ
ĠĠĠ jiÃłnĠzhÃ¹Ġ
dÄ« ĠdeĠ
zÃ¡ ĠdeĠ
et Ġ
ts Ġ
ĠzhÅįngĠ duÃ¬Ġ
dÃłĠ liÃłngĠ
zhÃłnĠ lÃ¼Ã¨Ġ
guÄ«Ġ zÃ©
ĠnÃłĠ me
ĠguÄģn ĠzhÃ¬Ġ
dÃ¬ng ĠlÇĲĠ
xiÃło ĠshÃ¨Ġ
xiÄĽ ĠleĠ
25 ĠniÃ¡nĠ
ĠjÃŃĠ jiÄģngĠ
ĠdÃłĠ sÃłiĠ
pÇĶĠ tÅįng
ĠguÃ³ĠjÃ¬Ġ jÄ«ĠchÇİngĠ
yÅįuĠ xiÃ¹Ġ
ĠĠĠgÄĵnĠjÃ¹Ġ 2010ĠniÃ¡nĠmÄĽiĠguÃ³ĠrÃ©nĠkÇĴuĠpÇĶĠchÃ¡ĠdeĠshÃ¹ĠjÃ¹Ġ
Ġ 2003
Ġ 180
bÄģ ĠshÃŃĠ
shÄĽng ĠzhÃ¨ngĠfÇĶĠ
bÇİo ĠwÃ¨iĠ
ĠzÃłiĠ xiÃłnĠ
sÄģnĠ zhÇĴngĠ
xiÇİoĠ zÇĶ
chÃ¨Ġ tuÃ¬Ġ
ĠM Ġ
Ġ Q
xiÃ¡ng ĠxÃ¬Ġ
chuÃŃ ĠzhÃŃĠ
ĠchÅ« ĠxiÃłnĠdeĠ
kÄĵĠ xuÃ©
hÃ¹Ġ dÃ²ngĠ
nuÃ²Ġ mÃłnĠ
Ġ ruÇİn
Ġ wÇİnĠ
ĠĠĠ gÄģoĠ
rÃ¨n ĠyÃ¬Ġ
dÅįu ĠbÃ¹Ġ
ĠyÄ«Ġ zhÇĴng
ĠxÃŃng ĠhÃ©Ġ
dÇİĠ suÃłnĠ
chÃ³ngĠ xÄ«n
xuÃ©ĠshÃ¬Ġ xuÃ©ĠwÃ¨iĠ
ĠĠĠ Y
bÃ¹ ĠwÃ¨iĠyÃºĠ
xiÃło ĠyÇĴuĠ
zhÄģng ĠdeĠ
zÃłng ĠyÃºĠ
us Ġ
ĠhÃ©Ġ jÄ«Ġ
ĠhÃ©ĠnÃ¡nĠ shÄĽngĠ
hÇİnĠmÃ² ĠdÃ©Ġ
Äģ ĠlÇĲĠ
ĠĠĠ 1
qiÄģn ĠrÃ©nĠ
dÇİng ĠjÃŃĠ
ĠxiÃłn ĠyÇĶĠ
ĠyÄ«Ġ lÇİng
ĠxiÃłnĠ zÃłiĠdeĠ
xiÄģngĠ hÃ¹Ġ
ĠkÃ¨Ġ sÃłĠsÄ«Ġ
chÃ¡oĠ tÃŃngĠ
Ġ guÃ¬Ġ
Ġ zhÄģoĠ
hÃ²u ĠtÄģĠ
rÃ©nĠ mÃŃn
yÃ¡nĠ chÃ¡ngĠ
bÇİoĠ zhÃłngĠ
zÄ«Ġ xÃ¹n
tÃ¡nĠ pÃłn
Ġ chuÃłng
Äģ ĠfÃ¹Ġ
zhÄĵn ĠyÇĶĠ
ĠshÃ¬Ġ duÃ¬Ġ
ĠtÄģ ĠchÃ©ngĠwÃ©iĠ
ĠzhÅįu ĠhÃ©Ġ
jiÃ©Ġ dÃ¹ĠshÇĲĠ
ĠrÃ¨nĠ zhÃŃĠ
tiÄģnĠ qÃ¬Ġ
bÃłnĠ fÇİĠ
wÅ«Ġ rÇİn
ĠĠĠ fÇİĠguÃ³Ġ
liÃº ĠxuÃ©Ġ
gÇİi ĠmÃŃngĠ
ĠzÃłiĠ qÃŃ
ĠbÃ¹Ġ jÇĲn
ĠdÃłĠ chÃ©ngĠ
fÄģĠ bÃ¹ĠdeĠ
ĠquÃ¡nĠ miÃłnĠ
pÃłnĠ chÇĶĠ
ĠshÃ¬ĠshÃ¬Ġ jiÃ¨
mÃłoĠ xiÇİnĠ
lÇĲĠshÃ¬Ġ huÃ¬Ġ
ĠrÃ©nĠkÇĴu ĠdeĠ
tÃºĠshÅ«Ġ guÇİn
Ġ qÇĶ
Ġ hÄĵi
Ã©r ĠtÃ³ng
jÇĲ ĠniÃ¡nĠ
zÇĴng ĠzhÃłnĠ
sÃ¹ ĠshÃ¨Ġ
chuÃ¡n ĠqÃŃĠ
qÃ¹ ĠdeĠ
26 Ġ
xÇĲng Ġ
liÇİn Ġ
ĠshÃ¬Ġ zhÃ¨ngĠfÇĶĠ
ĠsÄ«Ġ fÇİĠ
mÃŃnĠ zhÃ²ng
ĠbÃ¬ngĠ jiÄģng
nÃłĠ rÃ¹Ġ
kÃ¨Ġ yÃ¹nĠ
qÇĶĠdÃ©Ġ leĠ
6 ĠmÇĲĠ
Ġ In
bÄĽn ĠbÃ¹Ġ
qiÃ¡n ĠxiÃłnĠ
cÄģn ĠyÃ¬ĠyuÃ¡nĠ
cÃŃ ĠhuÃ¬Ġ
fÇĴu ĠrÃ¨nĠ
ĠzhÄ« ĠbÃ¹Ġ
wÃłiĠ guÄģnĠ
mÃ¬ngĠ mÃŃngĠdeĠ
zhuÇİnĠ yÃŃĠ
ĠjiÄģng ĠxÄ«Ġ
rÃ©nĠdÃłĠ dÃłiĠbiÇİoĠ
liÃ¹ ĠgÃ¨Ġ
ĠyÇĲĠ 2Ġ
rÃ¨nĠ zhÃŃĠ
biÄģnĠ jiÃ¨
hÃºĠ pÅįĠ
dÄĵngĠ lÃ¹
Ġ 1992ĠniÃ¡nĠ
ĠĠĠ chÃ©nĠ
wÃ©i ĠrÃ©nĠ
duÅį ĠbÃ¹Ġ
sÄģn ĠyuÃ¨Ġ
13 ĠniÃ¡nĠ
28 Ġ
dÃłng ĠzuÃ²Ġ
ĠshÃ¬Ġ yÃłnĠ
fÄģngĠ chÃ©ngĠshÃ¬Ġ
dÄģnĠ mÃłi
yÇİnĠ zÃ²u
wÇİngĠ wÇİngĠ
ĠrÃ¬ĠbÄĽn ĠdeĠ
luÃ³ĠmÇİ ĠdÃ¬ĠguÃ³Ġ
ĠxiÃłnĠdeĠyÃŃĠgÃ¨ ĠxÃŃngĠzhÃ¨ngĠzhÃ¨nĠqÅ«Ġ
Ġ tÄ«ngĠ
le ĠdÃ¬Ġ
yÇĲng ĠdÃłiĠ
ĠwÃ¨iĠ wÃ¨iĠ
fÇİĠ guÃ³ĠdeĠ
ĠxiÄģngĠ sÃ¬Ġ
mÃ¬Ġ dÃ¹Ġ
rÃ©nĠkÇĴuĠpÇĶĠ chÃ¡Ġ
Ġ wÄģng
chÄĵ ĠrÃ©nĠ
ĠjiÃłn ĠzÃłiĠ
ĠzhÄ«Ġ hÃ²uĠzÃłiĠ
liÃłngĠ xiÃłngĠ
rÃºĠ guÇĴ
xÄ«ngĠ xÃ¬Ġ
huÃŃĠ guÄ«
shÄģnĠxÄ«Ġ shÄĽngĠ
Ġ 37
Ġ 1994ĠniÃ¡nĠ
ĠĠĠ yÃ¡nĠgÃ©Ġ
miÇİn ĠyÃ¬Ġ
ĠbÃ¨iĠ jÇĲngĠ
ĠquÃ¡n ĠdeĠ
ĠtÃ³ngĠshÃŃĠ yÄĽĠshÃ¬Ġ
ĠqÄ«Ġ jiÄģn
ĠdÃł ĠbÃ¹ĠfÃ¨n
ĠR Ġ
ĠĠĠ 2008ĠniÃ¡nĠ
ĠĠĠ yÇĲĠxiÃłĠ
ĠĠĠ toĠĠĠ
tÇĲ ĠjÄ«Ġ
nÃł ĠhÃ©Ġ
bÅį ĠchÅ«ĠdeĠ
ĠshÃ¬Ġ zhÇĲ
zhÃ¨Ġ yÃłngĠdeĠ
gÇİiĠ chÄĵngĠ
ĠdÅįngĠ bÄĽi
wÄĽiĠyuÃ¡nĠhuÃ¬Ġ zhÇĶĠxÃŃĠ
ĠĠĠof ĠĠĠtheĠĠĠ
ĠliÃºĠyÃ¹Ġ miÃłnĠjÄ«Ġ
chuÃ¡n ĠdÃ¬Ġ
zhÄĵn ĠdeĠ
cÅ«n ĠdeĠ
jiÇİ ĠshÃ¨Ġ
kÄģ Ġ
ĠxiÃłn ĠzhÅįngĠ
ĠdÃłĠ fÅ«Ġ
ĠdÃłn ĠdeĠ
ĠliÃ¡nĠ mÃ©ngĠ
ĠgÄĵnĠjÃ¹Ġ 2020ĠniÃ¡nĠmÄĽiĠguÃ³ĠrÃ©nĠkÇĴuĠpÇĶĠchÃ¡ĠdeĠshÃ¹ĠjÃ¹Ġ
guÇİngĠfÃłn ĠdeĠ
Ġ shÄĵng
Ġ fÃ©ng
yÇĴu ĠhÃ©Ġ
lÃŃ ĠshÃ¬Ġ
chÃ¡o ĠshÃŃĠ
jÃº ĠshÃ¬Ġ
zÇĴngĠ miÃłnĠjÄ«Ġ
Ġ Da
Ġ hÄĵngĠlÃ¬Ġ
xÄ«n ĠxÃŃngĠ
kÄģi ĠshÃ¨
zÇĲ ĠdÃłnĠ
27 Ġ
dÃłng ĠdeĠ
kuÃł Ġ
tÄģo Ġ
xuÃ©Ġ xÃ¬Ġ
gÇİiĠ zÃło
ĠP Ġ
ĠÄģn ĠdÃ©Ġ
Ġ shuÄģng
Ġ 400
chÃ¡ng ĠbÃ¨iĠ
ĠchÃ©ngĠ lÃ¬ĠdeĠ
ĠbÃ¬ngĠ fÄĵi
ĠzÃ¬Ġ mÇĶĠ
hÃ¡ngĠkÅįngĠ mÇĶ
fÄĵiĠlÇľĠ bÄ«nĠ
Ġ 21
Ġ 39
Ġ 19Ġ
ĠĠĠ tÃ³ng
gÃ© ĠlÇĲĠ
jÇĲng ĠyuÃ¡nĠ
qiÇİn ĠzÃ©Ġ
CD Ġ
bÃ¹Ġ tÃ³ngĠ
ĠshÃŃĠ kÃ¨Ġ
yÃ¬Ġ bÇİiĠ
xÄ«Ġ yÃ¡ng
diÃłnĠ zÇĲ
shÅįuĠ cÃ¡ng
ĠbÃ¬Ġ xÅ«Ġ
Ġ chÃ³ngĠxÄ«nĠ
ĠĠĠ tÃ¡iĠwÄģnĠ
chÃ¡ ĠÄĽrĠsÄ«Ġ
zhÇİng ĠhÃ©Ġ
jiÄģo ĠdeĠ
80 Ġ
ĠzÃłiĠ bÃ¨iĠ
ĠshÃŃĠ yÃ³uĠ
ĠjÄ«Ġ xiÃ¨
jiÄģoĠ jiÃ¨Ġ
Ġ Co
Ġ 300
fÃº ĠshÃ¬Ġ
kuÄģng Ġ
ĠxÄ«Ġ fÄģngĠ
ĠqÃŃĠ hÃ²uĠyÃºĠ
fÄĵnĠ pÃ¨i
yÃŃĠ dÃ¹
sÃłiĠ chÄĵĠ
shÄģngĠ chÇİngĠ
tÃŃngĠ kÃło
diÃłnĠyÇĲng ĠdeĠ
Ġ yÃło
Ġ 1996ĠniÃ¡nĠ
gÄĵn ĠbÄĽnĠ
pÇİo ĠdÃłoĠ
ĠzhÅįngĠ qÄ«Ġ
ĠshÃŃĠ lÃ¬Ġ
zhÃ¨ngĠ chÃ¡ngĠ
ĠzhÄ«Ġ shÃłngĠ
bÇİoĠ jiÄģ
yÃŃĠ cÃ¬ĠshÃ¬ĠjiÃ¨ĠdÃłĠzhÃłnĠ
qiÃ¡ngĠ diÃło
dÃ©Ġ guÃ³ĠdeĠ
fÃºĠjiÃłnĠ shÄĽngĠ
Ġ luÃ³ĠsÄ«Ġ
ĠĠĠ xiÄģngĠgÇİng
xÄ«ng ĠjiÃłn
ĠgÃ¨ ĠbÃ¹Ġ
hÃło ĠdeĠ
wÇİn ĠniÃ¡nĠ
ĠyÇĴuĠ liÇİngĠ
lÇĲĠ lÃ¡nĠ
ĠzhÅįu ĠlÃ¬Ġ
shÇĴuĠ shÃ¹Ġ
ĠduÃ¬Ġ wÃłiĠ
jÄ«nĠ rÃ³ng
shÃ²uĠ huÄģnĠ
bÇĶĠ chÅįngĠ
ĠlÃ¬ĠshÇĲĠ xuÃ©ĠjiÄģĠ
ĠmÇĲ ĠzhÃ¬Ġ
cuÄ«Ġ huÇĲĠ
ĠyÃ¬ĠshÃ¹ ĠjiÄģĠ
Ġ St
Ġ kuÃłiĠ
Ġ bÃ¹ĠzÃłiĠ
ĠĠĠ a
gÄģo ĠdÃ¬Ġ
sÄģn ĠbÃ¹Ġ
sÃ¬ ĠyuÃ¨Ġ
35 Ġ
ĠduÃ¬Ġ wÇĶĠ
fÄĵnĠ liÃ¨Ġ
jÄ«nĠ shÄģnĠ
wÃ¡ngĠ zÇĲĠ
ĠxiÄģngĠ bÇĲĠ
yÇİnĠ jiÇİngĠ
qÃŃngĠ bÃło
yÄ«nĠ sÃ¹Ġ
ĠguÄģngĠ xÃ¹Ġ
24Ġ xiÇİoĠshÃŃĠ
1 ĠhÃłoĠ
Ġ chÄģoĠ
40 ĠniÃ¡nĠ
nÇļĠ hÃ¡iĠ
guÄ«Ġ lÃ¨i
wÄĵiĠ xiÃ©
ÄģĠÄĽrĠ bÄĵiĠsÄ«Ġ
fÃ³Ġ jiÃło
Ġ a
ĠĠĠ Me
ĠĠĠ liÃºĠ
is Ġ
ĠhÃ©Ġ shÃłngĠ
ĠguÃ³Ġ shÃŃĠ
shÄĵngĠ yÄ«nĠ
yÃ¡nĠ lÃ¹nĠ
zhÃŃĠ shÄĵngĠjÄ«Ġ
ĠjÃ¬n ĠÃ©rĠ
luÃ³Ġ lÄģĠ
qiÃ¡oĠ liÃ¡ngĠ
sÃłĠ lÄģĠ
ĠmiÃłnĠjÄ«Ġ 0
fÄģĠbÃ¹Ġ leĠ
gÇĶĠlÇİo ĠdeĠ
Ġ De
Ġ yÃ¹nĠ
Ġ kÄģiĠfÄģĠ
gÇĶ ĠjÃ¬Ġ
nÇļ ĠrÃ©nĠ
ĠshÃŃĠ dÃłĠ
shuÇĲĠ shÄĵnĠ
yÇĲĠ sÃ¨Ġ
ĠjÄ«nĠ shÇĶĠ
gÃ¨Ġ zhÇĴng
zhÃ²ngĠdiÇİnĠ wÃ©nĠwÃ¹ĠbÇİoĠhÃ¹ĠdÄģnĠwÃ¨iĠ
jiÄģĠlÃ¬ĠfÃºĠ nÃŃĠyÃłĠzhÅįuĠ
dÄ«ĠqÃ¬Ġ yÄģĠ
duÃ¬ ĠtÄģĠ
ĠshÃ¬Ġ xÄ«ĠbÄģnĠyÃ¡Ġ
ĠhÃ©Ġ jÃ¬Ġ
ĠbÃ¹Ġ shÃŃĠ
rÃ¨nĠ mÃ¬ngĠ
kÄģiĠfÄģ ĠdeĠ
Ġ com
Ġ hÇİoĠ
19 ĠniÃ¡nĠ
lÃ¡i ĠkÃ¨Ġ
tÃ¨ ĠzÃłiĠ
fÃº ĠyÄ«nĠ
yÃł ĠsÄ«Ġ
ĠyÃ¬Ġ dÃłĠ
ĠyuÃ¡nĠ ziĠ
xÄ«nĠ jiÄģngĠ
qiÃ¡nĠ jÃ¬nĠ
ĠshÃ¨Ġ yÇĲngĠ
tÃºĠ shÄģĠ
kÅįngĠ xÃŃĠ
tÇİnĠ dÄ«ngĠ
ĠkÄĽ ĠshÃ¬Ġ
Ġ zÃłoĠ
Ġ zhuÃłngĠ
Ġ 2023ĠniÃ¡nĠ
shÄģ ĠdeĠ
jÃº ĠbÃ¹Ġ
60 ĠniÃ¡nĠ
shuÃ² Ġ
ĠjÅ«nĠ tuÃ¡nĠ
nÇļĠ zhÇĶĠjuÃ©Ġ
xÃ¹Ġ liÃ¨Ġ
ĠjÇĲngĠ fÄģngĠ
Ġ Åįu
luÃ² ĠkÃ¨Ġ
huÃŃ ĠjiÄģĠ
ing Ġ
sÄĵng Ġ
ID Ġ
ĠgÅįngĠ gÃłoĠ
ĠzhÄ«Ġ hÃ²uĠdeĠ
mÃ³Ġ tÃ¨
ĠshÃ¬ĠyÄ«Ġ kÄĵ
shÅįuĠ rÃ¹
guÇİng ĠzhÅįuĠshÃ¬Ġ
ĠguÃ³Ġ jÅ«nĠ
fÃºĠ lÃ©i
jÃ¬ngĠ tÃ³uĠ
chÃ©ngĠlÃ¬Ġ hÃ²uĠ
18 ĠniÃ¡nĠ
1970 ĠniÃ¡nĠdÃłiĠ
1925 ĠniÃ¡nĠ
ĠshÃ¬Ġ xÄ«ngĠdÄĽngĠwÃ¨iĠ
Ġ dÃ²uĠ
ĠĠĠ 2005
yÄ«Ġ yuÃłnĠ
ĠyÇĲĠ bÄĽiĠ
ĠxiÃłnĠ mÃŃngĠ
xuÇİnĠ qÅ«
yÃ¡nĠjiÅ« ĠzhÅįngĠxÄ«nĠ
dÃŃĠshÃ¬Ġ nÃŃĠ
Ġ b
ĠĠĠ i
dÃł ĠyÃºĠ
zhuÄģn ĠlÃ¬Ġ
zhuÇİn ĠchÃ©ngĠ
bÇİi ĠwÃłnĠ
ĠrÃ©nĠ duÃ¬Ġ
ĠxiÃłĠ leĠ
pÇĶĠ luÃ³Ġ
ĠniÃ¡nĠqÄ«ng ĠdeĠ
1 ĠmÃŃngĠ
Ġ Ð°
gÃ²ng ĠjÃ¬Ġ
lÃºn ĠsÄ«Ġ
14 ĠniÃ¡nĠ
yÄ«ngĠ xiÃ³ng
shÃ©nĠ huÃłĠ
zhuÄģnĠ mÃ©n
diÃłnĠyÇĲngĠ jiÃ©Ġ
ĠmÄĽi ĠzhÅįuĠ
jiÄĵ ĠdeĠ
wÇĶ ĠdÃ©Ġ
jiÃ¹ ĠzÃłiĠ
luÃ² ĠzÃłiĠ
zhÃ¬Ġ dÃ¹Ġ
yÇĶĠ mÃ¡o
fÄģngĠ xiÃłngĠdeĠ
ĠzhÃ¨ngĠ quÃ¡nĠ
yÃŃĠ dÃ¬ngĠdeĠ
lÃ¡nĠ sÃ¨Ġ
pÃ©iĠ xÃ¹nĠ
fÇİĠlÃ¡nĠ xÄ«
Ġ y
duÅį ĠlÃ¬ĠyÃłĠ
tÃŃng ĠdeĠ
kuÃłi ĠdeĠ
70 ĠniÃ¡nĠ
mÇİi Ġ
1909 ĠniÃ¡nĠ
ĠshÃ¬Ġ yÄ«ngĠguÃ³Ġ
ĠjÃŃĠ bÃ¬ng
ĠtiÄģnĠ jÄ«nĠ
gÅįng ĠhÃ©Ġ
nÃ¡n ĠrÃ©nĠ
jiÃ¹ ĠbÃ¨iĠ
biÃłn ĠshÃ¬Ġ
fÃ©i ĠtÃ¨Ġ
ĠmÃŃngĠ xiÇİnĠ
Ġ zÇĲĠ
zhÄ« ĠjiÄģĠ
gÇĶ ĠdeĠ
gÃło ĠshÃ¬Ġ
ĠxÃŃngĠ rÃ³ng
bÄĽnĠ shÄĵnĠ
nÃ¨iĠ ruÃ¬Ġ
tÃ³uĠ shÇĴuĠ
ĠshÃ¬ĠshÃŃĠ shÃłngĠ
gÃ²uĠmÇİi Ġ
ĠĠĠin ĠĠĠ
3 ĠmÃŃngĠ
Ġ m
zhÃ¬Ġ zuÃ²
ĠjÃŃĠ xiÃłnĠ
ĠrÃ¬ ĠhÃ©Ġ
qÅ«Ġ zhÃº
ĠjÅ«n ĠyÇĴuĠ
fÃ¹Ġ shÇĲĠ
ĠyÃ³uĠ xÃ¬ĠdeĠ
mÃ³Ġ fÇİĠ
zhÇĶnĠ bÃ¨i
Ġ 1949ĠniÃ¡nĠ
dÃł ĠhÃ©Ġ
ĠwÃ¨iĠ lÃ¬Ġ
ĠshÃŃĠ pÇĲnĠ
ĠbÃ¬ng ĠshÃ¬Ġ
ĠzhÅįuĠ qÄ«Ġ
zhÇĲĠ kÃ²ng
ĠtÃ³ng ĠzhÃ¬Ġ
qÄ«ngĠ chÇĶĠ
chÇİnĠ wÃ¹Ġ
tÇĲĠyÃ¹Ġ guÇİnĠ
rÃ¬ĠbÄĽn ĠdeĠ
ĠyuÃ¡nĠzhÃ¹Ġ mÃŃnĠ
Ġ xiÅįng
Ġ 2002
Ġ wÃ²Ġ
ĠĠĠ dÃłoĠ
shuÇĲ ĠdeĠ
wÇİng ĠyÇĴuĠ
ĠyÃºĠ 2021
zhÄĵngĠ qÇĶĠ
zhuÇİnĠ huÃłn
mÄĽiĠguÃ³ĠrÃ©nĠkÇĴuĠpÇĶĠ chÃ¡Ġ
sÄģiĠÄĽrĠwÃ©iĠ yÃłĠ
zhÃłn ĠhÃ©Ġ
kÃ¨ ĠsÄ«Ġ
rÃ¹ ĠqiÃºĠ
biÃłn ĠdeĠ
shuÇĲ ĠhÃ©Ġ
dÇİn Ġ
jÃ¬Ġ zÇİiĠ
ĠxÃŃng ĠrÃ©nĠ
liÃºĠ liÃłngĠ
liÃłngĠ zÇĲĠ
ĠwÃ¨iĠyÃºĠ yÃŃn
ÃłnĠ zhÃło
yÃŃngĠ yÃ¹n
sÅ«Ġ dÄģnĠ
kÄĽĠnÃ©ngĠ xÃ¬ngĠ
zhuÃłnĠ xiÄĽĠ
shÃ¹nĠ xÃ¹Ġ
ĠlÃºĠ wÇİĠÄĽrĠshÄĽngĠ
sÃ¬ĠchuÄģnĠ shÄĽngĠ
00 Ġ
ĠdÃ¬Ġ 2
ĠxÃŃngĠ rÃ³ngĠ
ĠbÃ¨iĠ rÃ¨nĠmÃ¬ngĠwÃ¨iĠ
sÃłiĠ guÃłnĠjÅ«nĠ
zÄ«Ġ xÃºnĠ
ĠzhÇĶĠ tÃŃĠ
zhuÇİnĠ huÃłnĠ
qiÃºĠ chÇİngĠ
ĠshÃ¬ĠjiÃ¨ ĠshÃłngĠ
Ġ tÃŃĠchÅ«Ġ
fÄģng ĠzÃłiĠ
chuÄģn ĠxiÃłnĠ
ĠyÃºĠ shÃŃĠdeĠrÃ©nĠkÇĴuĠshÃ¹ĠliÃłngĠwÃ¨iĠrÃ©nĠ
gÇĶĠ diÇİnĠ
chÃ¨Ġ xiÄģo
Ġ qÃ¹Ġ
Ġ wÄĵnĠ
huÃł ĠshÃ¬Ġ
tÃ¡n ĠhÃ©Ġ
rÃło Ġ
bÃ¨iĠ jÇĲng
ĠshÃłngĠ leĠ
ĠhuÃ²Ġ zhÄĽ
jiÇİnĠ dÄģnĠdeĠ
ĠwÃ¨iĠyÃºĠgÄģiĠguÃ³Ġ xÄ«ĠbÃ¹Ġ
bÄģoĠhÃ¡n ĠleĠ
Ġ pÃ©ng
Ġ kÇİĠÄĽrĠ
bÄģ ĠbÃ¹Ġ
chÃ¬ ĠjÄ«ngĠ
ĠshÃ¬Ġ jÃ¬ĠzhÅįngĠ
ĠlÃ¬Ġ tÃ¡oĠ
ĠfÄĵiĠ lÇľĠ
ĠĠĠ hÃ³ngĠ
mÇİ ĠlÃ¬ĠyÃłĠ
bÇĶ ĠzhÃ¹Ġ
zhÄĵngĠ fÃºĠ
lÇĲngĠ tÇĶ
wÄĽiĠ tuÅįĠ
tiÃ¡oĠ wÃ©nĠ
dÃłiĠbiÇİoĠ tuÃ¡nĠ
ruÇİnĠ tiÃ¡oĠ
Ġ liÃ¡ng
hÃło ĠwÃ¨iĠ
or ĠĠĠ
kÄģiĠ zhÇİn
jiÄģngĠ hÃ¹
tÅįngĠ xÃ¹n
ĠxuÃ©Ġ shÃ¹Ġ
qÇĶĠ mÃ¹Ġ
ĠxiÄģngĠdÄģng ĠyÃºĠ
8 ĠgÃ¨Ġ
Ġ pÄģn
ĠĠĠ yÃ³uĠxÃ¬Ġ
pÇĶ ĠjÃŃĠ
35 ĠniÃ¡nĠ
ĠtÄģ ĠrÃ©nĠ
zuÃ²Ġ zhÄĽĠ
yÃ³uĠ yÇĴngĠ
ĠdÃ©Ġ wÃ©iĠ
mÃ©iĠyÇĴuĠ rÃ¨nĠhÃ©Ġ
ĠtiÄģnĠ jÄ«n
ĠyÃ¹ ĠjÃ¬Ġ
sÅ«ĠwÃ©iĠ Äģi
Ġ 1949
hÃ²u ĠyÇĲĠ
jiÄģn ĠwÃ¨iĠ
kÄĽ ĠjiÃłnĠ
dÄĽng ĠyÃºĠ
bÅį ĠdeĠ
dÃº ĠdeĠ
qiÃ¡nĠ tÇĲng
yÃ¡nĠshÄĵn ĠzhÃ¬Ġ
Ġ 1995ĠniÃ¡nĠ
Ġ 1993ĠniÃ¡nĠ
zhÅįng ĠdeĠyÄ«Ġ
jiÇİ ĠjÃŃĠ
pÃŃn ĠdÃło
es ĠĠĠ
bÄĽiĠ bÃ¹ĠdeĠ
jiÄĵĠ xiÃłĠ
zhÃ¨nĠ rÃ³ngĠ
bÃ¬ngĠ rÃ¹Ġ
ĠzuÃ¬Ġ zÇİo
zhÇĶĠyÃło ĠshÃ¬Ġ
ĠyÇĴuĠxiÃłn ĠgÅįngĠsÄ«
gÄĵĠlÃºnĠ bÇĲĠyÃłĠ
ĠshÃŃĠ Ã¨rĠniÃ¡nĠ
ĠrÃ©nĠ bÃ¨iĠ
jÄ«Ġ guÄģnĠ
kÄģiĠ tÅįng
sÃ¬Ġ hÅ«
tÃłiĠ shÇĴuĠ
diÃłnĠshÃ¬Ġ dÃ²ngĠhuÃłĠ
ĠchÃºĠ cÇĲĠzhÄ«ĠwÃłiĠ
qÃŃĠzhÅįngĠ yÄ«Ġ
jiÃ¨ĠquÃ¡nĠguÃ³Ġ zhÃ¨ngĠxiÃ©Ġ
bÃłoĠfÄģ ĠhÃ²uĠ
Ġ ë
Ġ HR
shÃ¹ ĠjiÄģĠ
qÇĶ ĠdeĠ
piÃłn ĠzhÅįngĠ
ĠzÃłiĠ xiÄģngĠgÇİngĠ
ĠshÃŃĠ yÄ«ĠniÃ¡nĠ
ĠjÃŃĠ wÃ©iĠ
ĠyÇĲĠ biÃłnĠ
wÇĶĠ hÃłnĠ
gÄĵĠ gÄĵĠ
fÃłnĠ zuÃ¬
yuÃ¡n ĠbÃ¹Ġ
chÄĵ ĠxÃŃngĠ
fÃ¨n ĠdeĠ
gÃ¨ng ĠshÃ¬Ġ
ĠzhÅįngĠ xÄ«nĠdeĠ
ĠdÃłĠ xiÇİoĠ
gÃ©Ġ lÄģĠsÄ«Ġ
tÅįngĠ wÇİngĠ
Ġ kÄĵĠxuÃ©Ġ
ĠĠĠ kÇİĠ
wÃłn ĠlÃ¬Ġ
hÅ« ĠxÄ«Ġ
1923 ĠniÃ¡nĠ
ĠdÃłĠ lÇĲĠ
jÃ¹Ġ lÃŃ
fÇİĠ lÃ¡nĠkÃ¨Ġ
liÃ¡nĠ luÃ²Ġ
ĠdeĠdÃ¬Ġ sÄģnĠ
hÄĽnĠ dÃłĠdeĠ
jÃ¬ ĠzhÃ¬Ġ
jiÃ¨ ĠshÃŃĠ
hÄģ ĠlÇĲĠ
huÇĴ ĠlÃ¬Ġ
rÃ©ng ĠwÃ¨iĠ
kuÃł ĠyuÃ¨Ġ
ty Ġ
ĠshÃ¬Ġ Ã©ĠluÃ³ĠsÄ«Ġ
zhÃŃĠ bÃłng
dÃ²ngĠ wÃ¹
shuÇĲĠ liÃłngĠ
xiÃ©Ġ tiÃ¡oĠ
huÇĴĠ chÄĵĠzhÃłnĠ
nÃ³ngĠ chÇİngĠ
xuÄģnĠ yÃ¡nĠ
ĠchÃ¬Ġ wÄĽiĠ
Ġ fÃ¡n
ĠĠĠ Ã¨rĠ
ĠĠĠ jiÇİnĠlÃ¬Ġ
zhÃłn ĠyÇĴuĠ
jiÄĵ ĠshÃ¬Ġ
chÄĵng ĠshÃ¬Ġ
gÇĶ ĠxÄ«ĠlÃł
TV Ġ
yÃ¬Ġ mÃŃngĠ
wÃ¹Ġ pÇĲnĠ
duÅįĠ zhÇĴng
ĠyÃ³uĠ tÃłiĠ
hÇİiĠ nÃ¡nĠ
shÄĽngĠ zhÇİngĠ
huÃ¡ngĠ jÄ«nĠ
chÅįngĠ mÇİnĠ
ĠxiÃłnĠshÃŃĠ yÃ³uĠ
ĠĠĠjÇĲnĠ guÇİnĠ
hÇİi ĠdeĠ
tÅ« ĠjÄ«Ġ
ĠrÃ©nĠ yÇĶĠ
ĠjÃŃĠ gÅįngĠ
ĠyÇĲ ĠbÃ¹Ġ
qÅ«Ġ nÃ¨iĠ
shÅįuĠ fÃ¨iĠ
chuÃłngĠ zÃło
Ġ SAO
qÄ« ĠzhÃ¬Ġ
jÃ¹n ĠdeĠ
22 ĠniÃ¡nĠ
ĠdÃłoĠ dÃ¡
ĠdÃ© ĠdÃło
ĠzhÃ¨Ġ zuÃ²Ġ
nÃŃĠ sÅ«Ġ
mÄĽiĠ xiÇİoĠshÃŃĠ
ĠjÄ«ngĠ chÃ¡ngĠ
zhÅįuĠ biÄģn
ĠjiÃłnĠzhÃ¹Ġ wÃ¹Ġ
mÃ¡oĠ dÃ¹nĠ
Ġ zÅįngĠ
ĠĠĠ 7
ĠĠĠ shÃłngĠ
xÄ«n ĠjiÃłnĠ
zÃło ĠxÃŃngĠ
ĠdÃ© ĠjÅ«nĠ
ĠzhÃ¨ ĠshÃŃĠ
wÃłngĠyuÇİnĠ jÃ¬ngĠ
Ġ cÃ¡oĠ
ĠĠĠ 2022ĠniÃ¡nĠ
xÃ¹ ĠdeĠ
cÃ©ng ĠbÃ¨iĠ
ĠdÃłĠ bÇİnĠ
ĠchÅ«Ġ chÇİngĠ
shÄĵnĠ tÇĲ
lÃ³ngĠ shÄĽngĠ
shÇĲĠyÃ²ngĠ zhÄĽĠ
xiÅ«Ġ dÃ¬ngĠ
ĠĠĠ jÄ«ngĠlÃ¬Ġ
liÃ¹ ĠmÃŃngĠ
48 Ġ
1919 ĠniÃ¡nĠ
ĠdÃ¬Ġ yÄ«ĠwÃ¨iĠ
ĠjÃŃĠ huÃ¬Ġ
ĠjÃŃĠ qÃŃĠtÄģĠ
jÇĶĠ zhÃ¨nĠ
zhÅįngĠguÃ³Ġ dÃłĠlÃ¹Ġ
Ġ huÃ¡n
ĠĠĠ De
ĠguÃ³Ġ yÇĴuĠ
ĠchÅ«Ġ xÃŃ
yÃ²ngĠ hÃ¹
xÃ¬Ġ jiÃ©Ġ
liÃ¡nĠ luÃ²
ĠshÄĵngĠ tÃłiĠ
mÄĽiĠ tiÄģnĠ
nuÃ²Ġ fÅ«Ġ
ĠguÄģnĠ zhuÃłngĠbÃ¬ngĠdÃº
ĠE Ġ
Ġ 2001
Ġ pÃºĠtÃ¡oĠyÃ¡
pÅ« Ġ
ĠdeĠ gÄģoĠ
ĠrÃ©nĠ zhÃ¬Ġ
ĠchÃ©ngĠ yÄ«Ġ
ĠduÃ¬Ġ xiÃłngĠ
shÃ²uĠ huÄģnĠyÃŃngĠ
guÄ«Ġ dÃ¬ng
cÃ¡iĠ pÃłnĠ
jiÇİngĠ jÄ«nĠ
cÄģnĠyÃ¬Ġ yuÃłnĠ
ĠlÃ¬ĠfÇİ ĠhuÃ¬Ġ
Ġ lÃºnĠ
ĠĠĠ lÃŃnĠ
yÃł ĠhÃ©Ġ
nÃł ĠÄĽrĠ
chÃ³ng ĠjiÃłn
ĠzÃłiĠ fÇİĠguÃ³Ġ
jiÄģoĠ gÄĽiĠ
tuÅįĠ lÃŃĠ
ĠzÃ© ĠshÃ¬Ġ
ĠĠĠ Co
guÃ² ĠyÄ«Ġ
16 ĠniÃ¡nĠ
fÃł Ġ
ĠshÃŃĠ rÃ¨n
ĠshÃŃĠ sÄģnĠ
yÃ¡nĠ fÄģĠ
jiÃłoĠ gÄģoĠ
zhÇĲĠ shÃ¹Ġ
ĠrÃ¨nĠ mÃ¬ngĠ
biÇİoĠxiÃłn ĠchÅ«Ġ
ĠjÃŃĠxÃŃngĠzhÃ¨ngĠ dÄģnĠwÃ¨iĠ
ĠÃłoĠdÃłĠlÃ¬Ġ yÃłĠ
fÄģng ĠxÃŃngĠ
zÃ© ĠbÃ¨iĠ
zhuÄģng ĠwÃ¨iĠ
11 ĠniÃ¡nĠ
1922 ĠniÃ¡nĠ
sis Ġ
ĠyÃºĠ tÃ³ng
ĠyÃºĠ 2019
ĠÃ©r ĠhÃ²uĠ
zhÇĶĠ dÃ²ngĠ
bÃ¬Ġ yÃłoĠ
pÃ¡iĠ liÃ¨Ġ
ĠyÃŃnĠ wÄĽiĠ
0 ĠzuÃ²ĠbiÄģoĠwÃ¨iĠ
2 ĠlÃ¬Ġ
ĠĠĠ Mo
xÃŃng ĠdeĠ
zi ĠshÃ¬Ġ
fÄĵi ĠdÃłnĠ
shÃ¨ng ĠdÃłnĠ
wÃ©iĠ yÄ«ĠdeĠ
ĠdÃłn ĠshÃ¬ĠzÃłiĠ
ĠqÃŃĠ B1900
ĠdÃłnĠ zuÃ¬ĠzhÅįngĠ
xÃ¹nĠ sÃ¹
xuÄģnĠ chÄĵngĠ
rÃ©nĠmÃŃnĠ zhÃ¨ngĠfÇĶĠ
ĠhÃºĠ bÄĽiĠ
ĠwÃ¨iĠyÃºĠyÃŃn ĠjÄ«ngĠ
0ĠzuÃ²ĠbiÄģoĠwÃ¨iĠ chÃ¬ĠjÄ«ngĠ
ĠĠĠ 0
ĠĠĠ sÄģnĠ
ĠĠĠ 11ĠyuÃ¨Ġ
jiÄģng ĠjÅ«n
liÃ¡n ĠjÅ«nĠ
lÄģ ĠwÃ©iĠ
lÃºn ĠdeĠ
bÇİ ĠtÄģĠ
nÃ¡ng Ġ
ĠzhÅįngĠ huÃ¡
jÄ«Ġ dÅ«Ġ
ĠxÃŃngĠ tÃłiĠ
shÅįuĠ gÃ²u
tÇĶĠ rÇİng
ĠjiÃłnĠzhÃ¹Ġ miÃłnĠjÄ«Ġ
ĠxÃ¬Ġ bÄģoĠ
kÃ²ngĠ zhÃ¬ĠdeĠ
gÃ²ngĠhÃ©Ġ dÇİngĠ
Ġ ãĥ³
Ġ liÃ¨ĠchÄĵĠ
Ġ wÅ«ĠkÃ¨ĠlÃ¡n
ĠĠĠ pÃŃngĠ
ĠĠĠ fÄĵnĠbÃ¹Ġ
mÃŃng ĠhÃ©Ġ
huÃł ĠyÇĶĠ
suÇĴ ĠyÇĲĠ
jiÄģo ĠzhÃłnĠ
bÃ³ ĠÄĽrĠ
zhÄĵn ĠrÃ©nĠ
68 ĠniÃ¡nĠ
pe Ġ
1911 ĠniÃ¡nĠ
ĠsÄ«Ġ zhÃŃĠ
guÄģnĠ xÃ¬ĠdeĠ
xiÄģoĠ fÃ¡ngĠ
gÃ¨ngĠ dÃłĠdeĠ
ĠqÄ«ngĠchÃ¡oĠ zhÃ¨ngĠzhÃ¬ĠrÃ©nĠwÃ¹Ġ
Ġ sÅįngĠ
xiÃłng ĠyÃºĠ
sÇĲ ĠleĠ
bÃ¨iĠ ÄĽrĠ
yÃ³uĠ xÃ¬ĠdeĠ
xiÃłoĠ lÇľĠ
biÄģn ĠzhÃ¬Ġ
shÄģ ĠrÃ©nĠ
zhÅįngĠ huÃ¡ĠmÃŃnĠguÃ³Ġ
ĠjÃŃĠ tÇĲĠ
ÅįuĠ mÃ©ngĠ
ĠmÇĶĠ qÄ«n
ĠĠĠchÄĵĠzhÃłnĠ gÃ²uĠzÃłoĠ
luÃ²ĠfÃ¡ ĠkÃ¨Ġ
Ġ 1985ĠniÃ¡nĠ
lÃ¹n ĠshÃ¬Ġ
xiÄĽ ĠwÃ¨iĠ
ĠshÃŃĠ bÄģĠ
ĠdÃłĠ jiÄĵĠ
jÄ«nĠ shÇĶ
ĠjÃ¹Ġ qÃŃngĠ
zÃºĠ qÃºnĠ
jiÄĽĠfÃłng ĠjÅ«n
ĠĠĠ chÃºĠ
dÇİo ĠhÃ©Ġ
mÃłn ĠdeĠ
kÃłng ĠzhÃłnĠ
wÄĵng Ġ
ĠjÃŃĠ chÃ©ngĠ
jÄ«Ġ chÄĵĠ
ĠzhÃ¨Ġ yÃłng
yÃŃĠ bÃłnĠ
huÇĴĠ chÄĵĠ
ÃłiĠÄĽrĠ lÃ¡n
Ġ Mi
Ġ zhÄĽngĠgÃ¨Ġ
dÄģ ĠzÃłiĠ
zhÇĶĠ quÃ¡nĠ
ĠqiÃºĠ duÃ¬
Ġ17 Ġ
ĠdÃł ĠbÃ¹ĠfÃ¨nĠ
Ġ wÄĽi
zhÃŃ ĠxÃŃng
ĠhÃ©Ġ yuÃ¡nĠ
zhÇĲĠ dÃ¬ng
tÃŃĠ qiÃ¡nĠ
jÇĲnĠ zhÄģngĠ
zhÄĵnĠ zhÃ¨ngĠdeĠ
xÇĶĠ kÄĽĠ
cÇİiĠyÃ²ngĠ leĠ
ĠT Ġ
shÃ¹nĠshÃŃĠ zhÄĵnĠyÇĶĠ
Ġ 160
nÃ¨i ĠsÄ«Ġ
bÄģ ĠsÄ«Ġ
cÄģn ĠjiÃłnĠ
kÃłn ĠfÇİĠ
wÄĵn ĠdÃłiĠ
hÅ«n ĠyÄ«n
tiÄĵ ĠmÃ¹
ĠyÄ«Ġ shÃŃĠ
ĠyÇĲĠ dÅįngĠ
ĠxiÃłnĠ zhÇİngĠ
zÃ¬Ġ wÇĴĠ
wÃ¹Ġ tÇĲĠ
fÄĵngĠ gÃ©ĠdeĠ
ĠyÇĲnĠ fÄģĠ
liÃ¡nĠmÃ©ng ĠdeĠ
zÃ© ĠyÃ³uĠ
dÇĴng Ġ
pÄ«n Ġ
ĠshÃ¬Ġ tÃ¡iĠwÄģnĠ
ĠdÃłĠ duÃ¬Ġ
zhÇĶĠ dÇİĠ
pÇĶĠ lÄģĠ
ĠĠĠ 2009ĠniÃ¡nĠ
lÃ¡i ĠshÃ¬Ġ
lÃŃn ĠjÃ¬nĠ
zhÃ¨n ĠjÃŃĠxÃŃngĠzhÃ¨ngĠdÄģnĠwÃ¨iĠ
wÇĴ ĠdeĠ
64 ĠniÃ¡nĠ
ĠbÃ¹Ġ chÃ©ngĠ
fÄģngĠ Ãłn
fÄģngĠ biÃłnĠ
suÇĴĠ xÅ«
ĠyÃ³uĠ zhÃ¨ngĠ
ĠzÃ¬Ġ rÃ¡n
Ġ lÃ³ng
ĠĠĠ b
ĠĠĠ gÇĶĠ
ĠĠĠ tÄģĠdeĠ
ĠĠĠ guÃ³ĠjÃ¬Ġ
1926 ĠniÃ¡nĠ
ĠzhÅįngĠ yÄ«Ġ
ĠzhÃ¬Ġ yuÃ¡nĠ
shÄĵngĠ gÃ©ĠwÃ¨iĠ
ĠjiÃłnĠ kÄģng
ĠquÃ¡n ĠxiÃłnĠ
zuÃ¬Ġ zhÃ²ngĠyÃłoĠdeĠ
juÃ©Ġ sÃ¨ĠdeĠ
dÃ¬ngĠ yÃ¬ĠwÃ¨iĠ
tÃºĠ ÃłnĠ
ĠwÄĵi ĠÄĽrĠ
Ġ tÃłiĠguÃ³Ġ
duÅį ĠÄĽrĠ
ĠdeĠ xÃŃngĠ
ĠshÃ¬Ġ lÃ¡ngĠ
ĠzÃłiĠ qiÃ¡nĠ
ĠzhÅįngĠ jiÃłngĠ
ĠjÃŃĠ biÃ©Ġ
ĠÃ©rĠ tÃ³ng
ĠshÃłngĠ yÃ¬ngĠ
cÄģnĠ guÄģnĠ
chÃ³ngĠ fÇİnĠ
ĠrÃ©nĠkÇĴu ĠwÃ¨iĠ
Ġ bÄ«nĠ
shÃ¨ng ĠdeĠ
jÇĲng ĠwÃ¨iĠ
xiÄģn ĠwÃ©iĠ
ra Ġ
ĠyÄ«Ġ liÃ¡o
guÄģnĠ kÃłnĠ
ĠyÄ«n ĠÃ©r
cÃ¬Ġ shÃ¹Ġ
tÃ³ngĠ yÃłngĠ
Ġ zÄ«Ġ
Ġ xiÇİnĠshÃ¬Ġ
Ãłn ĠlÃ¬Ġ
jiÃł ĠdeĠ
qÃ¹ ĠleĠ
1918 ĠniÃ¡nĠ
yÃ¬Ġ huÃ¬Ġ
ĠyÃºĠ 2016
jiÄģnĠ chÃŃĠ
ĠzhÅįuĠ zhÇİngĠ
zhÇĴngĠ lÃ¨iĠ
wÇİngĠ wÇİng
jiÇİnĠ chÃ¡
shÄĽnĠ pÃłnĠ
hÃ¹nĠ nÃŃngĠ
Ġ shÃ¹
Ġ 58
ĠĠĠ xiÇİoĠ
ĠĠĠ Ã©rĠ
28 ĠniÃ¡nĠ
mÃ¡i Ġ
ĠgÃ¨ ĠguÃ³ĠjiÄģĠ
ĠyÇĶĠ xÄ«Ġ
jiÃłoĠ liÃłn
dÄģnĠ dÃºĠ
biÄģnĠ zÇĶĠ
jiÃłĠ gÃ²uĠ
7 ĠmÇĲĠ
Ġ nÃŃ
Ġ kÄģiĠshÇĲ
Ġ guÇİngĠxÄ«Ġ
ĠĠĠ wÃ¡ngĠ
ĠĠĠ suÄ«ĠrÃ¡n
shÄ« ĠjÃŃĠ
shÃ²u ĠdÃłoĠleĠ
shÄĵn ĠyÃºĠ
lÃ¹n ĠdeĠ
xÃ¹n ĠxÄ«Ġ
um Ġ
ĠzhÅįngĠ duÃłnĠ
ĠdÃłĠ chÃ©n
cÅ«nĠ mÃŃnĠ
qÃºnĠ dÇİoĠdeĠ
ĠzhÃ¨ngĠfÇĶ ĠdeĠ
8 ĠmÇĲĠ
Ġ zÇĶĠzhÄ«Ġ
ĠĠĠ zuÃ²ĠwÃ©iĠ
mÃŃng ĠyÃºĠ
xÃ¬ng ĠmÃŃngĠ
xiÄģn ĠdeĠ
75 ĠniÃ¡nĠ
EST Ġ
ĠyÇĶĠ wÃ©nĠ
zhÃ¹Ġ shÇĴuĠ
tiÄģnĠ wÃ©nĠxuÃ©Ġ
miÃłnĠ xiÃłngĠ
ĠyÃ³u ĠqÃŃĠ
Ã¨Ġ huÃłĠ
ĠJ Ġ
Ġ 64
ĠĠĠ luÃ³Ġ
bÄģ ĠjÄ«ĠsÄ«Ġ
ĠshÃ¬Ġ chÃ©ngĠ
ĠshÃ¬Ġ chÅ«Ġ
ĠyÇĴuĠ mÃŃngĠ
ĠdÃło ĠshÃŃĠ
ĠyÇĲĠ cÇĲĠ
ĠzhÅįuĠ fÃ¹ĠzÃ©ĠguÇİnĠxiÃ¡Ġ
wÃłiĠ lÃ¡ngĠ
chÄĵngĠ hÅ«Ġ
jiÇİngĠ pÃ¡iĠ
ĠzhÃłn ĠhÃ²uĠ
ĠÃłi ĠÄĽrĠ
tiÃ¡oĠyuÄĵĠ tÇĲĠxÃ¬Ġ
Ġ 47
65 ĠniÃ¡nĠ
ĠzhÅįngĠ shÄģn
jÄ«ngĠ yÃłn
ĠzhÃŃĠ jiÄĵĠ
ĠpÃŃng ĠchÃ©ngĠ
Ġ mÃŃĠ
Ġ 1988ĠniÃ¡nĠ
jÃ¬ ĠbÃ¹Ġ
wÃ¹ ĠbÃ¹Ġ
suÇĴ ĠshÃ¬Ġ
70 Ġ
62 ĠniÃ¡nĠ
1914 ĠniÃ¡nĠ
jÄ«Ġ huÃ¬Ġ
hÃ²uĠ qÄ«Ġ
zhÇĶĠ bÃłnĠ
fÃ¹Ġ mÇĶĠ
jiÄģnĠ chÃ¡
ĠxiÄģngĠ guÄģnĠdeĠ
sÃ¨Ġ cÇİiĠ
7 ĠgÃ¨Ġ
Ġ 1984ĠniÃ¡nĠ
Äģn ĠxiÃłnĠ
ĠĠĠ quÃ¡nĠ
tÅ« ĠrÃ¡n
suÄģn ĠjiÇİnĠ
xuÇİnĠ mÃŃnĠ
kÄĵĠ huÃ¬ĠshÃ¬ĠdÃ¬Ġ
gÄĵĠ shÇĴu
Ã¨rĠ shÃŃĠniÃ¡nĠ
sÃ¹Ġ dÃ¹
gÄĵnĠ suÃŃĠ
ĠdeĠshÃŃĠ jiÄģn
pÃ©iĠ xÃ¹n
ĠguÃ³ĠfÃ¡ng ĠbÃ¹Ġ
ĠĠĠ 2007ĠniÃ¡nĠ
ĠjÄ«Ġ fÄĵnĠ
yÃ³uĠ jÃº
qiÃ¡nĠ shÄĵnĠ
xiÇİngĠ yÃłoĠ
ĠlÃ¡iĠ zÃ¬
nÃ¡nĠjÃŃĠ tiÃ¡oĠyuÄĵĠtÇĲĠxÃ¬Ġ
E ĠĠĠ
Ġ 600
tÃ¡ng ĠhÃ©Ġ
tÄ«ng ĠdÃłoĠ
cÃ¡n ĠjÃŃĠrÃ©nĠ
ĠshÃ¬Ġ pÃŃnĠ
ĠbÃ¹Ġ lÇĶĠ
ĠrÃ©nĠ quÃ¡nĠ
ĠgÅįngĠ dÇİĠ
ĠchÅ« ĠyÃºĠ
zÃ¬Ġ shÄģĠ
pÇĲnĠ zhÇĴngĠ
jÇĲĠ nÃ¨iĠ
ĠzhÃŃ ĠxÃŃngĠ
ĠgÄģiĠcÅ«nĠ shÇĲĠjiÃłnĠyÃºĠ
yÃº ĠwÃ¨iĠ
zhÃ¨ng ĠyÃ¬Ġ
yÃŃn ĠhÃ©Ġ
ĠzÃłiĠ nÃ¨iĠ
wÃ©iĠ yÄĽĠ
diÃłnĠ chÃŃĠ
duÅįĠ shÃ¹
rÃ¨Ġ dÃłi
ĠÄģnĠ huÄ«Ġ
ĠxÃŃngĠchÃ©ngĠ leĠ
ĠjÃ¬ngĠ nÃ¨iĠ
qÃŃĠzhÅįngĠ yÃŃĠgÃ¨Ġ
xiÃłĠxiÃ¡ĠdeĠyÃŃĠgÃ¨ĠxiÄģngĠ zhÃ¨nĠjÃŃĠxÃŃngĠzhÃ¨ngĠdÄģnĠwÃ¨iĠ
Ġ mÃ¡o
Ġ dÄ«Ġ
zhÃłn ĠwÃ¨iĠyÃºĠ
zhÃ¹ ĠyÇĴuĠ
mÇİ ĠshÃ¬Ġ
zhÃ¨n ĠdÃ¬Ġ
xiÇİng ĠyÇĴuĠ
in ĠĠĠ
1950 ĠniÃ¡nĠ
ĠshÃŃĠ yÇĴuĠ
wÃ©iĠ chÃŃ
rÃ³ngĠ liÃłngĠ
Ġ rÃ³ng
Ġ fÃłn
Ġ gÃ²ngĠtÃ³ngĠ
Ġ 1990ĠniÃ¡nĠ
ĠĠĠ jÃ¬n
mÃ©i ĠtÃ³ngĠpÃ¡iĠ
tÇİ ĠjÄ«Ġ
gÅįngĠ mÃŃnĠ
ĠchÃ©ngĠ gÅįngĠdeĠ
ĠsÄ«Ġ dÃ¹nĠ
ĠjÄ«Ġ bÄĽn
ĠjiÄģĠ lÇĲĠ
ĠkÃ¨ ĠyÇĶĠ
ĠdÃ©Ġ luÃ³Ġ
fÃºĠ zhuÄģngĠ
zhÃ¨nĠ yÄģĠ
sÃ¹Ġ sÃ²ngĠ
qÃŃngĠ gÇİnĠ
piÃłnĠ duÃłnĠ
kÇİoĠ chÃ¡Ġ
pÄ«Ġ pÃłnĠ
ĠsÄ«ĠlÃ¬ng ĠyuÃ¡nĠ
Ġ zhuÄ«Ġ
liÇİng ĠzuÃ²Ġ
nÃ³ng ĠlÃ¬Ġ
ĠzÃłiĠ nÃłĠ
ĠyÃ¬Ġ xÃŃĠ
ĠrÃ¬ ĠyÇĲĠ
ĠjiÃłn ĠdÃłoĠ
ĠhÃ²uĠ zhÄĽ
huÃłĠ guÄ«Ġ
jiÃłoĠ dÃłĠdeĠ
wÃ©nĠ zhÄģng
ĠwÃ©iĠ wÃºĠÄĽrĠ
jiÄģngĠ nÃ¡nĠ
ĠzuÃ²Ġ zhÄĽĠ
qÇĲĠ yuÃ¡nĠyÃºĠ
bÅįĠ tÃ¨Ġ
ĠF Ġ
4 ĠmÃŃngĠ
Ġ dÃºĠlÃ¬Ġ
ĠĠĠ 5Ġ
17 ĠniÃ¡nĠ
ĠzÃłiĠ chÃ©ngĠ
ĠshÃŃĠ tÇĲĠ
ĠyuÃ¨Ġ yÇĶĠ
ĠjiÃ©Ġ hÅ«nĠ
Ġ 1945
Ġ biÄģoĠ
Ġ huÄ«Ġ
yÃ²ng ĠzÃłiĠ
tÃ¨ ĠshÃ¬Ġ
yÃ²u ĠyÃ¬Ġ
fÃ¡ng ĠxiÃłnĠ
1990 ĠniÃ¡nĠdÃłiĠ
kuÄģng ĠjiÃłĠ
1913 ĠniÃ¡nĠ
ĠyÄ«Ġ lÃłi
ĠxÄ«Ġ tÃ¨Ġ
ĠbÃ¬ngĠ bÃºĠshÃ¬Ġ
qÄ«ngĠ xiÃłngĠ
ĠxiÃłĠ lÃ¡iĠ
mÃ²Ġ qÄ«Ġ
shÅįuĠ cÃ¡ngĠ
ĠniÃ¡nĠ4ĠyuÃ¨Ġ 1ĠrÃ¬Ġ
yÃ¬nĠ nÃŃ
xiÇİoĠxÃŃngĠ xÄ«ngĠdeĠ
nÃ¡nĠjÃŃĠtiÃ¡oĠyuÄĵĠtÇĲĠxÃ¬Ġ guÇİnĠlÇĲĠ
Ġ xÃ¬ĠtÇĴngĠ
Ġ piÃłoĠ
ĠĠĠ zhÃŃĠyÃ¨ĠshÄĵngĠyÃ¡Ġ
wÃ©i ĠgÅįngĠ
biÄģn ĠxÃŃngĠ
cÃŃ ĠjÄ«Ġ
pÄ«ng Ġ
shÃŃĠ yÄ«Ġ
ĠdÃłĠ qÃ¬Ġ
huÃ¬Ġ shÃłngĠ
fÇİĠ lÃ¡nĠxÄ«Ġ
fÄĵnĠ lÃŃ
shÃłoĠ nÇļ
tiÄģnĠwÃ©nĠ tÃ¡iĠ
4 ĠmÇĲĠ
Ġ cÃ¡o
Ġ 1989ĠniÃ¡nĠ
kÄĵ ĠlÃ¬Ġ
shÄĽng ĠfÃ¹ĠzÃ©ĠguÇİnĠxiÃ¡Ġ
hÃ¹ ĠwÃ¨iĠ
luÃ² ĠyÄ«Ġ
lÄĽi ĠjÄ«Ġ
gÄĽn ĠdÃ¬Ġ
ĠdÃ¬Ġ yÃ¹Ġ
wÃ©iĠ chÃŃĠ
xÄ«Ġ wÃłng
qiÃ¡nĠ lÃ¡iĠ
shÄģngĠ hÃłiĠ
yÃŃĠgÃ¨ ĠyuÃ¨Ġ
dÄģngĠ xuÇİnĠwÃ¨iĠ
ĠliÃ¡nĠ bÄģng
ĠjiÄĵĠ shÃ²uĠ
ĠjÃŃĠbÄĽiĠ mÄĽiĠ
Ġ guÇİnĠlÇĲĠ
Ġ jiÄĵĠwÃ¨iĠ
ĠĠĠ 9
Ãłi ĠhÃłoĠ
rÃ¬ ĠjÅ«nĠ
miÃ¨ ĠjuÃ©Ġ
shÇİn Ġ
bÃŃ Ġ
ĠdeĠ zhÄ«ĠchÃŃĠ
ĠshÃ¬Ġ zhÃ¬Ġ
ĠchÃ©ngĠ fÃ¨nĠ
ĠzhÄ« ĠlÇĲĠ
ĠyuÃ¡nĠ yÄ«nĠshÃ¬Ġ
ĠdÃłn ĠyÄĽĠ
ĠfÃ¹Ġ zhÇĶĠxÃŃĠ
tiÃ¡oĠ jiÃ©Ġ
wÃ©iĠyÄ«Ġ yÄ«Ġ
ĠĠĠ wÃłiĠbÃ¹Ġ
le ĠzhÅįngĠguÃ³Ġ
zuÃ¬ ĠyÇĴuĠ
jiÇİn ĠyÃ¬Ġ
sÃł ĠkÃ¨ĠsÄ«Ġ
jiÃłoĠ zÅįngĠ
ĠzhÃ¨ngĠ cÃ¨
zhÃ²ngĠ liÃłngĠ
yÇİnĠ huÃłĠ
tÃ³ngĠ mÃ©ng
jiÄĽĠ sÃłn
lÃ©iĠ dÃ¡Ġ
ĠshÃ¬ĠjiÃ¨Ġ bÄĵi
Ġ hÃ¡oĠ
fÄĵi ĠÄĽrĠdÃ©Ġ
37 ĠniÃ¡nĠ
pÃ©n ĠdÃ¬Ġ
ĠwÃ¨iĠ jÃŃĠ
ĠxÄ«Ġ zÃłngĠ
ĠkÃ¨ ĠzÃłiĠ
xiÃłĠ lÃ¬ngĠ
fÇİĠ xuÃ©Ġ
shÄģĠ bÃ¡iĠ
jiÇĶĠ lÃ³ng
chÇĲĠ cÃ¹n
ĠniÃ¡nĠdÃłi ĠdeĠ
Ġ 800
Ġ zÇĶĠchÃ©ngĠ
Ġ chÄģoĠguÃ²Ġ
jiÃłn ĠshÃ¨
shuÇĲ ĠdÃłoĠ
mÃ² ĠniÃ¡nĠ
ment Ġ
ĠdeĠ qÃŃngĠkuÃłngĠxiÃłĠ
ĠyÃºĠ 2018
ĠchÃ©ngĠ jiÃ¹Ġ
ĠyÄ«Ġ shÄ«Ġ
ĠgÃ¨Ġ lÃ¨iĠ
tÃŃngĠ zhÇĲ
ĠrÃ©nĠmÃŃnĠ zhÃ¨ngĠfÇĶ
ĠĠĠzhÅįngĠ huÃ¡ĠrÃ©nĠmÃŃnĠgÃ²ngĠhÃ©ĠguÃ³Ġ
ĠhuÃ¡Ġ shÃ¨ngĠ
cÄģnĠsÃłiĠ zÄ«ĠgÃ©Ġ
shÄģnĠmÃłi ĠdeĠyÄ«ĠbÃ¹ĠfÃ¨nĠ
Ġ lÄĽiĠjÃ¬Ġ
ĠĠĠ jiÃ©Ġ
ĠĠĠ huÃ²Ġ
sÃ¬ ĠwÃ¨iĠ
suÃŃ ĠjÄ«Ġ
rÃ©nĠ kÇĴuĠwÃ¨iĠ
jÃ¬Ġ huÃł
ĠyuÃ¡nĠ lÇĲĠ
ĠxiÃłnĠ xÃ¬ngĠ
qÅ«Ġ biÃ©Ġ
tÅįngĠ yÃ²ngĠ
shÃ²uĠ sÇĶnĠ
tÃ³uĠ xiÃ¡ng
ĠzhÇĶĠ zhÄģngĠ
zhÃ¨ngĠzhÃ¬Ġ jiÄģĠ
rÃ¨ĠdÃłiĠ qÃ¬ĠxuÃ¡nĠ
ĠgÃ¨ĠyuÃ¨Ġ hÃ²uĠ
Ġ yÃ¡nĠjiÅ«
Ġ 1991ĠniÃ¡nĠ
huÃ¬ ĠwÃ¨iĠ
hÇİi ĠshÃ¬Ġ
xÃ¬n ĠrÃ¨nĠ
ed ĠĠĠ
ĠzÃłiĠ shÃłngĠ
ĠguÃ³Ġ ÄģnĠ
ĠzhÅįuĠ kÄģnĠ
ĠdeĠgÅįngĠ nÃ©ngĠ
Ġ18 Ġ
Ġ Ja
juÃ© ĠwÃ¨iĠ
1960 ĠniÃ¡nĠdÃłiĠ
ĠdÃ¬Ġ chÇİnĠ
ĠyÃºĠ 2024
ĠyÄ«Ġ rÃ¡n
hÇİiĠ bÃ¡ĠgÄģoĠdÃ¹Ġ
jiÇİnĠ cÃ¨Ġ
tÃ¡ngĠ qÅ«Ġ
yÄ«nĠ cÇĲĠ
ĠtÃ³ngĠ xÃ¬ngĠ
huÃŃĠ dÃ¡Ġ
ĠdeĠjÃ¬Ġ shÃ¹Ġ
wÄĽnĠ dÃ¬ngĠdeĠ
Ġ á
Ġ wÇİ
jiÃ© ĠchÅ«Ġ
bÄ«ng ĠdeĠ
luÇİn Ġ
ĠhÃ©Ġ yÃ¬Ġ
ĠtÄģ ĠyÇĴuĠ
guÄģnĠ liÃ¡nĠ
qiÃ¡nĠ fÄĵngĠ
suÇĴĠ wÃ¨iĠdeĠ
bÇİoĠ xiÇİnĠ
ĠhuÃ²Ġ chÄĵngĠ
tiÃ¡oĠ kuÇİnĠ
dÅ«Ġ chÃ¡Ġ
ĠjiÇİnĠ chÄĵng
ĠdiÃłnĠ ziĠ
ĠdÃ²ngĠ huÃłĠ
Ġ bÄģngĠzhÃ¹Ġ
ĠĠĠ 2006ĠniÃ¡nĠ
xÄ« ĠyÃºĠ
cÃ©ng ĠrÃ¨nĠ
24 ĠniÃ¡nĠ
ĠdÃ¬Ġ 3Ġ
ĠduÃ¬Ġ fÄģngĠ
ĠquÃ¡n ĠshÃ¬Ġ
cÃŃĠ diÇİnĠ
diÃłnĠshÃ¬Ġ jiÃ©ĠmÃ¹Ġ
fÄģĠbiÇİo ĠdeĠ
yÃłĠmÄĽiĠ nÃŃĠyÃłĠ
hÃ¹ĠliÃ¡nĠ wÇİngĠ
Ġ sÄģng
ĠĠĠ 14
ĠĠĠ 13
nÃ¡n ĠshÃ¬Ġ
xiÃłng ĠwÃ¨iĠ
cÃ©ng ĠyÇĴuĠ
gÇİi ĠjÃ¬nĠ
zÄĵng ĠshÃ¨Ġ
tuÄ« ĠlÇĲĠ
man Ġ
ĠlÃ¬Ġ ÃłoĠ
ĠzhÃ¨ngĠ chÃ¡ngĠ
dÇİoĠ shÄ«Ġ
pÇĶĠ lÇĶĠshÃ¬Ġ
ĠxÃ¬Ġ liÃ¨
ĠtÇĲĠ yÃ¹Ġ
tuÄ«ĠchÅ«Ġ leĠ
xiÅ«ĠdÃłoĠ yuÃłnĠ
Ġ kÄģng
Ġ shÄĽngĠ
Ġ tÃ¡nĠ
Ġ miÇİoĠ
yÇĶ ĠyÃ¬Ġ
lÃ¹ ĠshÃ¬Ġ
bÄĽi ĠjÃŃĠ
qÇĶ ĠzÃ¬Ġ
yÇĲn ĠjÃ¬nĠ
ve ĠĠĠ
ĠyÇĶĠ qÃŃ
ĠdeĠshÃ¬Ġ jiÃ¨
ĠcÇĲĠ cÃ¬Ġ
ĠtiÄģnĠ wÃ©nĠ
Ġ qiÃ¡oĠzhÃ¬Ġ
ĠĠĠ mÃŃnĠguÃ³Ġ
hÅ«n ĠlÇĲĠ
id Ġ
ĠyÃºĠ 2020
ĠchÃ©ngĠ zuÃ²Ġ
sÅ«Ġ gÃ©ĠlÃ¡n
Ġ 65
ĠĠĠ zhÄģngĠ
duÃ¬ ĠzhÅįngĠ
ĠdÃ¬Ġ jiÇĶĠ
ĠtÄģ ĠbÃ¹Ġ
ĠxÃŃngĠ chÃ¡i
ĠxÃŃngĠ shÃ¬ĠdeĠ
zhÃ¨ngĠ cÃ¨
dÃłiĠ mÇİĠ
ĠleĠ yÃŃĠgÃ¨Ġ
ĠxiÄģngĠ guÄģn
ĠxÃŃngĠzhÃ¨ngĠ yuÃłnĠ
ĠyÃ²u ĠyÃ¬Ġ
ĠĠĠ chÄĵĠzhÃłn
liÃº ĠqiÃºĠ
bÇİo ĠhÃ©Ġ
chuÃ¡n ĠdeĠ
tÃŃng ĠzhÃłnĠ
nÃ¡ ĠdÃł
el Ġ
1901 ĠniÃ¡nĠ
ĠchÃ©ngĠ dÅ«Ġ
jÄ«Ġ bÃłiĠ
ĠyÇĶĠ zhÄ«Ġ
ĠdÃłiĠ mÇİĠwÃ¨iĠ
liÃ¡ngĠ hÇİoĠ
lÃ¬ĠshÇĲĠ shÃłngĠ
ĠxiÃłnĠshÃŃĠyÃ³uĠ nÃ¡nĠjÃŃĠtiÃ¡oĠyuÄĵĠtÇĲĠxÃ¬ĠguÇİnĠlÇĲĠ
Ġ La
Ġ Sa
Ġ jÅ«Ġ
luÃ² ĠyÃºĠ
bÃ¡i ĠrÃ©nĠ
dÇĲng ĠjÃŃĠ
38 ĠniÃ¡nĠ
zÅ« ĠjiÃ¨
ĠyÃºĠ 2015
ĠzhÃ¬Ġ dÃ¹
ĠchÅ«Ġ lÃ¡iĠdeĠ
tÃ¨Ġ shÅ«
ĠduÅįĠ cÃ¬Ġ
Ġ tÃ¡i
Ġ UĠ
ĠĠĠ wÇĶĠ
ĠĠĠ yÄ«nĠyuÃ¨Ġ
jiÃ© ĠshÃŃĠ
yÃ¨ ĠhÃ©Ġ
ĠdÃ¬Ġ shÃłngĠ
ĠgÅįngĠ chÇİng
lÃ¹Ġ yÇĲngĠdÃłiĠ
miÃłnĠ 2
liÃºĠ dÃ²ngĠ
ĠbÄĽnĠ zhÃłnĠ
ĠbÄĽnĠ tÇĶĠ
shÃ©nĠ shÃ¨ngĠ
chÃ³ngĠ qÃ¬ngĠ
Ġ r
Ġ lÇİo
ĠĠĠ shÄģĠ
piÃłn ĠrÃ©nĠ
67 ĠniÃ¡nĠ
ĠdeĠ yÇĴuĠ
ĠyÃºĠ lÃ©iĠ
dÃłĠ xÃŃngĠ
yÃ¨Ġ jiÄģnĠ
tÃŃĠ gÄģo
liÇİngĠ ÃłnĠ
yÇĲĠ jÄ«ng
ĠzÃłiĠdÃ¬Ġ yÄ«Ġ
guÄģnĠfÃ¨iĠyÃ¡nĠ quÃ¨ĠzhÄĽnĠbÃ¬ngĠlÃ¬Ġ
Ġ chÃŃĠ
bÄĽi ĠdeĠ
jiÄģo ĠyÃ³uĠ
mÃłn ĠdÃ¬ĠguÃ³Ġ
zhÄĽng ĠlÇĲĠ
ĠyÃºĠ 2013
ĠyÇĴuĠ guÄģnĠdeĠ
ĠgÅįngĠ ÄģnĠ
fÃ¡ngĠ wÅ«
ĠzhÃŃ ĠlÃ¬Ġ
pÃ©iĠ yÇİng
ĠĠĠzhÃ¨Ġ kÄĵĠ
Ġ Ù
Ġ shÅ«
Ġ zhuÄģn
rÃ¬ ĠzhÃ¬Ġ
tÃ³ng ĠwÃ¨iĠ
huÃŃ ĠdÃło
ĠrÃ©nĠ lÃ¬Ġ
jÃ¬Ġ shÃ¹
ĠyÄ«Ġ rÃ¡nĠ
nÃ¨iĠ gÃ©
ĠyÃ³u ĠqÃŃ
ĠdÄĽngĠ dÄĽngĠ
1 ĠmÇĲĠ
Ġ yÃ¬ĠniÃ¡nĠ
mÃŃn ĠyÃ¬Ġ
zhuÄ« ĠqiÃºĠ
ĠdeĠ zuÃ¬Ġ
ĠdeĠ xÃŃngĠshÃ¬Ġ
ĠshÃ¬Ġ chÇİng
rÃ©nĠ yuÃ¡nĠ
ĠyÃºĠ 2012
ĠguÃ³Ġ dÃłoĠ
huÃłĠ miÃłnĠ
dÄģnĠ mÃłiĠ
chuÃ¡nĠ shuÅį
ĠnÃ¡nĠ xÃ¬ngĠ
jiÃ¹Ġ zhÇĲĠ
jÇĲngĠ qÅ«Ġ
jÇĲngĠ diÇİnĠ
ĠdeĠjÄ«Ġ chÇĶ
Ġ Ð¾
ĠĠĠ Al
shÄĽng ĠhuÃ¬Ġ
tÅįng ĠxÃŃngĠ
lÃ¨ ĠyuÃ¡nĠ
ĠshÃ¬Ġ xiÃłĠxiÃ¡ĠdeĠyÃŃĠgÃ¨ĠxiÄģngĠzhÃ¨nĠjÃŃĠxÃŃngĠzhÃ¨ngĠdÄģnĠwÃ¨iĠ
gÅįngĠ jÄ«Ġ
ĠyÇĲĠ biÃłn
ĠxÃŃngĠ hÃłoĠ
rÃ¹Ġ jÃ¬ngĠ
shÃ¨Ġ yÇĲngĠ
guÃ¬Ġ zÃº
ĠĠĠ fÄĵnĠlÃ¨iĠ
Ãłi ĠlÃ¬Ġ
jÃŃ ĠzhÅįngĠxuÃ©Ġ
zÃ© ĠxÄ«Ġ
bÄģ ĠlÇĲĠ
lÃŃn ĠzhÅįngĠ
jiÃłng ĠjÃŃĠ
ĠjÃ¬Ġ huÃłĠdeĠ
ĠchÅ« ĠniÃ¡nĠ
fÄģĠ juÃ©Ġ
bÃ³Ġ lÄģĠ
Y Ġ
Ġ 1999
ĠĠĠ de
ĠĠĠ Ro
zÇĴng ĠsÄ«ĠlÃ¬ngĠ
luÃ² ĠshÃŃĠ
yÃ²u ĠzÃłiĠ
xiÄĵ ĠÄĽrĠ
bÇİn ĠquÃ¡nĠ
ĠzhÅįngĠ zhÃ¨ngĠ
zhÇĶĠ dÇİoĠ
nÃ¡nĠ bÃ¹ĠdeĠ
ĠbÃ¨iĠ bÇĶĠ
guÄģnĠ guÄģngĠ
liÃ¡nĠ sÃłiĠdeĠ
ĠqÃŃĠ xiÃłĠdeĠ
yÃŃĠ miÃłnĠ
ĠdÃłnĠ mÃ©iĠyÇĴuĠ
yÇİnĠ zÃ²uĠ
lÃ¹nĠ tÃ¡nĠ
zhÄĵnĠ chÃ¡Ġ
ĠsÄģn ĠyuÃ¨Ġ
tÇĴngĠzhÃ¬Ġ zhÄĽĠ
fÃ¡nĠ mÃ¡ng
ĠhÄĵiĠ lÃ³ngĠjiÄģngĠ
Ġ sĠ
ĠĠĠ deĠĠĠ
kÃ¹ ĠÄĽrĠ
gÅįngĠ yÃ¨Ġ
ĠyÇĲĠ jÃŃĠzÃłiĠ
zhÇĶĠ liÃºĠ
dÅįngĠ qÅ«Ġ
tÇĲĠ yÃłnĠ
ĠxiÃłĠ wÇĶĠ
tÃ³ngĠ mÃ©ngĠ
ĠsuÃŃ ĠjÃŃĠ
Ġ yÇĴu
Ġ dÅ«nĠ
pÃŃng ĠrÃ©nĠ
qiÄģn ĠmÃŃngĠ
gÃ¨ng ĠgÄģoĠ
qiÅ« ĠjÃ¬Ġ
yÃ© ĠÄĽrĠ
enter Ġ
ĠdeĠ jÃŃĠ
ĠhÃ©Ġ zhÃ¬Ġ
ĠqÃŃ ĠzhÃ¬Ġ
huÃłĠ rÃ¹Ġ
lÃŃĠ bÄģĠnÃ¨n
mÃ¬Ġ sÅ«ĠlÇĲĠ
kÃłngĠrÃ¬Ġ zhÃłnĠzhÄĵngĠ
ĠhÃ©ĠdÃło ĠquÃ¡nĠzhÇİngĠ
Ġ yÇİngĠ
ĠĠĠ re
ĠĠĠ zhÄĵngĠyÃ¬Ġ
yÇĶ ĠdÃ¬Ġ
zuÃ² ĠzÃłiĠ
tÃ¨ ĠrÃ©nĠ
cÃ¬ ĠshÃ¬Ġ
ĠbÃ¹Ġ duÃłn
ĠyÃºĠ 2014
ĠyÄ«Ġ ÄĽrĠ
ĠdÃło ĠjÃŃĠ
jiÄģnĠ chÃ¡Ġ
fÄĵngĠ suÇĴĠ
ĠyÄĽĠ mÃ©iĠyÇĴuĠ
dÅįngĠbÃ¹Ġ shÃŃĠqÅ«Ġ
ĠH Ġ
Ġ u
Ġ qÇĶĠdÃ©Ġ
ĠĠĠ dÃło
sÃ¬ ĠrÃ©nĠ
tuÅį ĠÄĽrĠ
23 ĠniÃ¡nĠ
dÇĴu Ġ
ĠdeĠ hÃ²uĠ
ĠgÅįngĠ jiÄģoĠ
ĠchÃ©ngĠ zhÇİngĠ
ĠjÅ«n ĠrÃ©nĠ
luÃ²Ġ tÃ¨Ġ
zhuÄģnĠ yÃ²ngĠ
ĠmÇİĠ lÄģĠ
xiÄģngĠgÇİng ĠdeĠ
ĠtÃłiĠ yÃ¡ngĠgÅįngĠ
Ġ nuÃ²
Ġ mÃŃngĠwÃ¨iĠ
ĠĠĠ wÃºĠ
kÃ¨ ĠlÇĲĠsÄ«Ġ
yÃ¹n ĠzÃłiĠ
rÃ³ng ĠdeĠ
guÇİng ĠyÃ¬Ġ
xuÄģn ĠshÃ¬Ġ
liÃ¹ ĠshÃ¬Ġ
dÃ¬Ġ guÃ³Ġ
ĠxÄ«Ġ yÇĲn
bÄĽiĠ hÇİiĠdÃłoĠ
Ġ16 Ġ
lÄģĠsÄ«Ġ jiÄģĠ
mÃ¨iĠ mÃ¨iĠ
Ġ 59
Ġ zÇİoĠ
Ġ yÇİĠ
Ġ hÃ²uĠyÃºĠ
xiÃłng ĠjÄ«Ġ
duÅį ĠsÄ«Ġ
wÄģn ĠqÅ«Ġ
niÃº ĠsÄ«Ġ
end Ġ
ĠdÃłĠ liÃ¡nĠmÃ©ngĠ
jiÃłoĠ dÄ«Ġ
diÃłnĠ tÃ¡i
bÄģoĠkuÃ² ĠyÇĲĠxiÃłĠ
ĠnÃ¨iĠ rÃ³ngĠ
gÅįngĠyuÃ¡nĠ qiÃ¡nĠ
zhuÄ«ĠsÃ¹ ĠdÃłoĠ
Ġ fÃ¨ng
Ġ 49
shÄĵng ĠhÃ©Ġ
zhuÄģng ĠdeĠ
chÅ«n ĠjÃ¬Ġ
ĠshÃ¬Ġ xÄ«nĠ
ĠyÄ«Ġ qiÃ¨
yÃ¹nĠ yÃŃng
lÇľĠ huÃłĠ
xÃŃĠ jÄ«
ĠdÄģngĠ dÃ¬ĠdeĠ
guÃ³ĠwÃ¹Ġ yuÃłnĠ
ÄģiĠnÃłĠ shÄĽngĠ
Ġ An
Ġ ESTĠ
yÇĶ ĠzhÅįngĠguÃ³Ġ
tÃ¨ ĠgÅįngĠ
liÃłng ĠjÃŃĠ
dÇİng ĠzÃłiĠ
at Ġ
sÇİn Ġ
ĠyÇĴuĠ xÇĶĠduÅįĠ
bÄĽnĠ kÄĵĠ
dÅįngĠ cÃ¨Ġ
guÇİnĠ xiÃ¡
shÄģngĠ wÃ¹Ġ
dÅįuĠ mÃ©iĠyÇĴuĠ
zhÇĶnĠ quÃ¨Ġ
Ġ ISTAT
qÄ« ĠyuÃ¨Ġ
zÃ© ĠyÇĲĠ
fÄĵi ĠdeĠ
nÃłĠ xiÄĵ
guÇİnĠ kÃ²ng
kÄĽĠyÇĲĠ tÅįngĠguÃ²Ġ
zhÅįngĠguÃ³Ġ dÃłĠlÃ¹ĠdeĠ
1 ĠjiÄģĠ
Ġ tiÃ¡n
Äģ ĠbÃ¹Ġ
yuÇİn ĠdeĠ
1921 ĠniÃ¡nĠ
ĠxÄ«Ġ ÄĽr
jÃ¹Ġ fÄĵng
nÃ¡nĠ mÄĽiĠzhÅįuĠ
tÃŃngĠ kÃłoĠ
ĠmÃ² ĠxÄ«Ġ
zhÃ²ngĠyÃ¬Ġ yuÃłnĠ
ĠshÃ¬ĠyÄ«ĠkÄĵ ĠwÃ©iĠrÃło
Ġ 1998
Ġ EDT
shÃ¨ ĠjÃŃĠ
shÄĽng ĠlÃ¬Ġ
huÃ¡ ĠdeĠ
00 ĠniÃ¡nĠ
fÇİn ĠjÄ«Ġ
ĠzhÅįngĠ yuÃ¡nĠ
guÄģnĠ zhÃ²ng
guÄģnĠ zhÃ¨ngĠ
ĠpÃŃngĠ jiÃ¨Ġ
fÄĵngĠ fÃ¹ĠdeĠ
ĠshÃ¬ĠyÄ«Ġ zuÃ²
shÅįuĠshÃ¬Ġ lÇľĠ
jiÃ¨ĠquÃ¡nĠguÃ³ĠzhÃ¨ngĠxiÃ©Ġ wÄĽiĠyuÃ¡nĠ
pÄ«ngĠ pÄģng
ĠĠĠ guÃ³Ġ
lÇĲ ĠshÃŃĠ
rÃ¨n ĠzhÄ«Ġ
chuÃ¡n ĠyuÃ¡nĠ
zhÇİn ĠchÅ«Ġ
yÃŃng ĠlÃ¬Ġ
biÄģo ĠshÃ¬Ġ
yÅįu ĠhuÃ¬Ġ
ĠyÃºĠ 2022
ĠlÃ¬Ġ xuÃ©Ġ
jÃ¹Ġ bÄĽnĠ
yÃ¹Ġ wÃ©iĠ
liÃ¡nĠ zÇİiĠ
ĠbÃ¬ngĠ huÃ²ĠdÃ©Ġ
jiÄĵĠ guÇİnĠ
ĠjÃ¹Ġ bÄĽnĠ
shÅ«Ġ niÇĶĠ
tÃ³uĠ rÃ¹
hÃ©ngĠ xÄ«ng
dÃłnĠ shuÇĲ
ĠdÃł ĠzhÃ¬Ġ
juÃ©ĠduÃ¬Ġ xÄ«ngĠdÄĽngĠwÃ¨iĠ
Ġ Li
lÇĲ ĠrÃ©nĠ
dÃ© ĠyÃ¬ĠzhÃ¬Ġ
zuÃ¬ ĠchÅ«ĠdeĠ
xÃ¬n ĠhÃło
gÅįu ĠtÅįngĠ
ĠhÃ©Ġ yÇĶĠ
pÃŃngĠ hÃ©ngĠ
ĠbÃ¨iĠ jÇĲng
duÅįĠ xiÃłngĠ
dÇİĠ suÃłn
Ġ5Ġ diÃłoĠkuÃłiĠyÄ«ĠxiÇİoĠshÃŃĠ
ĠjÃŃĠbÄĽiĠmÄĽiĠ dÅįngĠbÃ¹ĠshÃŃĠqÅ«Ġ
ĠtÃłiĠyÃ¡ngĠgÅįngĠ zhuÃłnĠdeĠxiÇİoĠxÃŃngĠxÄ«ngĠ
ĠshÃ¬ĠyÄ«ĠkÄĵĠwÃ©iĠrÃło ĠtÃłiĠyÃ¡ngĠgÅįngĠzhuÃłnĠdeĠxiÇİoĠxÃŃngĠxÄ«ngĠ
ĠEDT Ġ
Ġ gÄĽi
Ġ liÃłnĠ
ĠĠĠ yÃ¹Ġ
ĠĠĠ wÃ©nĠhuÃłĠ
Ãło ĠkÃ¨Ġ
hÃ¡n ĠyÃ¬Ġ
29 Ġ
69 ĠniÃ¡nĠ
ĠshÃ¬Ġ xiÃłĠ
bÇĲĠsÃłi ĠdeĠ
xiÇİoĠxÃŃngĠxÄ«ngĠdeĠ juÃ©ĠduÃ¬ĠxÄ«ngĠdÄĽngĠwÃ¨iĠ
Ġ xÇĲĠ
ĠĠĠ 2005ĠniÃ¡nĠ
jiÃłn ĠdeĠ
lÇĲng ĠduÃ¬Ġ
pÄģi ĠshÃ¨ĠdeĠ
kÃ© Ġ
ĠzÃłiĠ lÃ¬Ġ
ĠzhÅįngĠ lÃ¬Ġ
ĠgÅįngĠ shÃ¨Ġ
ĠyÄ«Ġ qiÃ¨Ġ
ĠzhÄ« ĠchÅ«Ġ
shÄĵngĠ chÄĵngĠ
ĠzuÃ²Ġ qÇĶĠ
rÃ¹Ġ kÇĴu
wÅ«Ġ rÇİnĠ
ĠshÃ¬ĠwÃ¹Ġ suÇĴĠ
fÄģĠbiÇİo ĠleĠ
Ġ Vi
Ġ 1986ĠniÃ¡nĠ
ĠĠĠ Z
fÃº ĠjÃŃĠ
27 ĠniÃ¡nĠ
1905 ĠniÃ¡nĠ
ĠshÃ¬Ġ zuÃ¬Ġ
ĠxÃŃngĠ xÄ«ngĠ
ĠdÃłn ĠbÃ¨iĠ
zÃºĠ liÃ¡nĠ
wÃºĠxiÃłnĠ diÃłnĠ
ĠĠĠzhÃ¨ĠkÄĵĠ xiÇİoĠxÃŃngĠxÄ«ngĠdeĠjuÃ©ĠduÃ¬ĠxÄ«ngĠdÄĽngĠwÃ¨iĠ
ĠĠĠ huÃ¡ngĠ
zhÇĲ ĠchÅ«
miÃło ĠyÇĶĠ
yuÄģn Ġ
ĠtÃ³ng ĠniÃ¡nĠ12ĠyuÃ¨Ġ
ĠdeĠyÄ«Ġ xiÃłngĠ
bÇĲĠlÃ¬Ġ niÃºĠsÄ«Ġ
nÃ¨Ġ shÄĽngĠ
ĠdÃłĠshÃł Ġ
Ġ zuÇĴ
Ġ chÄģoĠjÃŃĠ
xÄ« ĠxiÃłnĠ
fÃ¹ ĠyÃºĠ
guÃ² ĠhÃ²uĠ
90 Ġ
ĠzÃłiĠ yÇĴuĠ
ĠxÄ«Ġ cÃ¨Ġ
kÄĽĠ yÃ²ngĠ
ĠxiÃłĠ lÃ¬ngĠ
yÃ¡nĠjiÅ« ĠdeĠ
ĠdeĠyÄ«Ġ tiÃ¡oĠ
zhuÃłngĠ tÃłi
tiÄģnĠwÃ©nĠ xuÃ©ĠjiÄģĠ
zÇĶĠchÃ©ng ĠbÃ¹ĠfÃ¨nĠ
Ġ dÇİoĠyÇİnĠ
ĠĠĠ guÄģnĠyÃºĠ
ĠĠĠ zÇİoĠqÄ«Ġ
lÃ¡i ĠÄĽrĠ
jiÇĶ ĠshÃŃĠ
lÃ¹Ġ duÃłnĠ
diÃłnĠ liÃºĠ
ĠfÃ¹Ġ mÇĶĠ
zÇĴngĠ lÇĲngĠshÃ¬Ġ
liÇİngĠ cÃ¨Ġ
ĠyÄ«nĠwÃ¨iĠ tÄģĠ
hÄĽnĠ shÇİoĠ
ĠĠĠ gÃ¨Ġ
zhÇĴng ĠdeĠ
liÇİng ĠdÃłĠ
45 Ġ
ct Ġ
ĠwÃ¨iĠ guÃ³Ġ
ĠzÃłiĠ dÄģngĠshÃŃĠ
ĠyÄ«Ġ xiÃłngĠ
ĠyuÃ¡nĠ lÃ¡iĠ
xuÃ©Ġ kÄĵĠ
qÅ«Ġ fÃ¹ĠzÃ©ĠguÇİnĠxiÃ¡Ġ
shÇĴuĠ xiÄģnĠ
bÄĽnĠ tÇĶ
cÇĲĠ tiÄģnĠtÇĲĠ
shÃ¨ngĠ jÄ«ngĠ
kÄĽĠnÃ©ng ĠdeĠ
ĠdÃ¬ĠshÃŃĠ sÄģnĠ
shÄĵngĠchÇİn ĠdeĠ
2 ĠhÃłoĠ
Ġ Me
Äģo Ġ
chÃ¡ ĠdÃ©Ġ
qiÃ¡n ĠxÄ«Ġ
yÃło ĠzÃłiĠ
nÃŃ ĠxÄ«ĠyÃł
men ĠdeĠ
shÃ¨ng ĠyÃºĠ
lÄĵi ĠsÄ«Ġ
hÃ©Ġ liÃºĠ
ĠshÃŃĠ liÃ¹ĠniÃ¡nĠ
shÃłngĠ yÃ¬ngĠdeĠ
ĠjiÄģĠ qiÃ¡ngĠ
qÄ«Ġ jiÄģnĠdeĠ
qÇĶĠ juÃ©ĠyÃºĠ
zhuÄģnĠ jÃŃĠdeĠ
ĠG Ġ
hÃ¹nĠ luÃłnĠ
ĠmÇĲ ĠdeĠ
Ġ fÄģĠbÃ¹Ġ
mÇİn ĠyÃ¬Ġ
gÄĵng ĠmÃŃngĠ
jÃ¹Ġ yuÃłnĠ
zhÃ¨nĠ wÃ¡ngĠ
shÄĵnĠ rÃ¹Ġ
ĠzÃ¬Ġ cÇĲĠ
tÃºĠ jÃ¬ngĠ
xÃŃĠ guÃłnĠ
ĠÃłoĠ mÃ©nĠ
mÃŃnĠzÃºĠ zhÇĶĠyÃ¬Ġ
Ġ lÃ¨i
Ġ sÄģngĠ
Ġ shÄģnĠxÄ«Ġ
Ġ 1983ĠniÃ¡nĠ
yÃ²ng ĠdÃ¬Ġ
cÇĲ ĠdÃ¬Ġ
kÄĵ ĠyÄ«ĠshÄĵngĠ
wÄĵi ĠlÃ¬Ġ
jiÇİng ĠxuÃ©Ġ
hÇİo ĠlÃ¡iĠ
ow Ġ
48 ĠniÃ¡nĠ
34 ĠniÃ¡nĠ
sÃłng ĠshÄ«Ġ
ĠshÃŃĠ bÃ¨iĠ
ĠyÇĲĠ wÃłiĠdeĠ
ĠlÇĲĠ xuÃ©Ġ
tÃ¨Ġ dÃ¬ng
ĠshÃ¨Ġ shÄ«
shÃ¨Ġ jiÄģoĠ
ĠhÇİiĠ bÃ¡
Ġ 2024ĠniÃ¡nĠ
ĠĠĠ yÄ«nĠwÃ¨iĠ
bÄĽn ĠdÃ¬ĠqÅ«Ġ
quÃ¡n ĠshÃ¬Ġ
zi ĠlÇĲĠ
fÇĶ ĠzhÄ«ĠfÇĶĠ
wÇİn ĠqÄ«Ġ
ad Ġ
1917 ĠniÃ¡nĠ
ĠwÃ¨iĠ xÄ«nĠ
ĠzÃłiĠ rÃ©nĠ
ĠdÃłĠ duÅį
ĠchÅ« ĠbÃ¹Ġ
lÃ¡iĠ kÃłnĠ
tÃŃĠ cÃ¡iĠ
yÃ²uĠ chÄĵngĠ
tiÃ¡oĠ mÃ¹Ġ
qiÄģnĠ yÇĲnĠ
duÇİnĠ zÃłnĠ
ĠdeĠzuÃ²Ġ yÃ²ngĠ
Ġ Se
Ġ tÇĴngĠ
Ġ kÄģnĠ
fÇİ ĠÄĽrĠ
ĠhÃ©Ġ jÄ«nĠ
ĠdÃ© ĠhÃ©Ġ
shÃ¹Ġ jÃ¹
biÃłnĠ huÃłnĠ
mÃ³Ġ nÇĲ
pÃ©iĠ chÃ¡ngĠ
ĠjÃŃĠtuÃ¡n ĠjÅ«nĠ
f ĠĠĠ
Ġ lÇĶ
nÇļ ĠÃ©r
fÇĴu Ġ
ĠniÃ¡n ĠshÃ¬Ġ
ĠzÃłiĠ tÄģ
ĠyuÃ¡nĠ qÅ«Ġ
ĠqÃŃĠ zhÅįngĠdeĠ
zÇĴngĠ Ã©ĠwÃ¨iĠ
ĠnÃ¡nĠ jÄ«ng
liÇİngĠ tiÃ¡oĠ
qiÃ¡ngĠ huÃłĠ
Ġ huÃ¡iĠ
Ġ guÃ¬ĠzhÅįuĠ
ĠĠĠ dÄģng
ĠĠĠ jiÃłnĠ
bÄĽn ĠzhÃ¬Ġ
fÄĵn ĠqÃŃĠ
tÃŃ ĠwÃ¨iĠ
bÄģ ĠmÃŃngĠ
zÅįng ĠdeĠ
pÃł ĠÄĽrĠ
ĠwÃ¨iĠ sÄ«Ġ
ĠzhÅįngĠ wÃ©n
ĠyÃºĠ 2017
ĠjÃŃĠ ÄĽr
ĠqÃŃ ĠyÇĶĠ
ĠshÃ¨ ĠzÃłiĠ
jiÃ©Ġ lÃ¹nĠ
fÄĵngĠ xiÇİn
yÃŃĠ dÃ²ng
xiÄģoĠ shÃ²u
ĠfÃºĠ lÇİngĠ
1 ĠrÃ¬
Ġ yÃ¬ngĠ
Ġ dÃłngĠ
mÄĽi ĠzhÅįngĠbÃ¹Ġ
shuÇĲ ĠzhÅįngĠ
ni Ġ
chÄģ ĠjÃ¹Ġ
bÃ¹Ġ fÃ¨n
ĠyÄ«Ġ yÃłng
ĠjiÃłn ĠzhÅįngĠ
ĠzhÄ«Ġ qiÃ¡nĠdeĠ
zhÇĶĠ juÃ©
ĠbÃ¨iĠ rÃ¨nĠwÃ©iĠ
ĠjÃ¹Ġ tÇĲĠ
zhuÇİnĠ yÃŃĠdÃłoĠ
ĠsuÇĴĠ yÇĴuĠdeĠ
lÇĲĠshÃ¬Ġ zhÇİngĠ
gÃ²ngĠhÃ©Ġ dÇİng
jiÄģoĠyÃ¬Ġ suÇĴĠ
jiÃ¨ĠquÃ¡nĠguÃ³Ġ rÃ©nĠmÃŃnĠdÃłiĠbiÇİoĠdÃłĠhuÃ¬Ġ
fÄĵiĠxÃŃng ĠyuÃ¡nĠ
Ġ Ar
Ġ guÅįĠ
tÃ¨ ĠsÄ«Ġ
ĠwÃ¨iĠ mÄĽiĠguÃ³Ġ
ĠyÇĴuĠ xiÃło
ĠgÃ¨ ĠgÃ¨Ġ
ĠbÃ¬ngĠ wÃºĠ
ĠshÃ¨Ġ xiÃ¡nĠ
tuÄ«Ġ guÇİng
ĠdeĠgÅįngĠ sÄ«Ġ
ĠhÃ²uĠlÃ¡i ĠzÃłiĠ
chÃłngĠpiÃłn ĠgÅįngĠsÄ«Ġ
Ġ sÃłi
Ġ xuÄĵ
tÇĲ ĠxiÃłnĠ
chÄĵ ĠshÃ¬Ġ
dÇİng ĠbÃ¹Ġ
suÃŃ ĠzhÄ«Ġ
ĠyÃ¬Ġ mÄĽiĠguÃ³ĠrÃ©nĠ
ĠjÅ«n ĠyÇĲĠ
chÇĶĠ juÃ©Ġ
ĠL Ġ
ĠÄģĠÄĽrĠ bÄĵiĠsÄ«Ġ
guÇİngĠbÅį ĠgÅįngĠsÄ«Ġ
ĠĠĠ Ð
sÄ« ĠdÃ¬ĠlÃ¬Ġ
duÃ¬ ĠlÃ¬Ġ
xiÃł ĠshÃ¬Ġ
qÄ«ng ĠdÃłiĠ
00 ĠpÃŃngĠfÄģngĠqiÄģnĠmÇĲĠ
mÇĶ ĠsÄ«ĠtÃ¨Ġ
cÃ¡i ĠdeĠ
46 ĠniÃ¡nĠ
ĠshÃŃĠ shÄ«
ĠxÄ«Ġ fÇİĠ
yÃ¹Ġ cÃ¨Ġ
ĠdÄģng ĠrÃ¬Ġ
ĠtÄģĠmen ĠshÃ¬Ġ
jiÄĽĠ juÃ©
ĠdeĠyÄ«Ġ jiÄģĠ
ĠcÇĲĠ wÃłi
dÇĲĠ cÃ©ngĠshuÇĲĠyÃ¹Ġ
lÇİngĠ pÇĶ
mÃ¹ĠsÄ«Ġ lÃŃn
Ġ cÃ¹
Äģn ĠdeĠ
duÃ¬ ĠdÃ¬Ġ
dÃłi ĠdÃłoĠ
nÃ¡n ĠxÄ«Ġ
shÇİo ĠdeĠ
qÃ¬ng ĠxiÃłĠ
bÃł ĠgÅįngĠ
zuÇĲ Ġ
ĠyÃºĠ 2023
qÄ«ngĠ zhÄĵnĠ
Ġ14 Ġ
ĠN Ġ
Ġ bÄĵiĠ
Ġ tÃłnĠ
Ġ xĠ
xÃŃng ĠrÃ©nĠ
xÄ«n ĠyÄ«Ġ
jÅ«n ĠzhÇĶĠ
ĠchÃ©ngĠ nuÃ²Ġ
ĠsÄ«Ġ dÃłĠ
rÃ¨nĠ zhÃ¨ngĠ
ĠzhÅįu ĠdeĠyÃŃĠgÃ¨ĠshÃ¬ĠzhÃ¨nĠ
qiÃ¡nĠ tÇĲngĠ
dÅįuĠ kÄĽĠyÇĲĠ
dÃłnĠ shuÇĲĠ
ĠchÃ¡ngĠ qÄ«Ġ
yÃ¬nĠdÃ¬Ġ ÄģnĠnÃł
ĠĠĠ Le
chÃ©ng ĠwÃ¨iĠ
yuÃ¡n ĠrÃ©nĠmÃŃnĠbÃ¬Ġ
jiÃłn ĠduÃ¬Ġ
qÅ« ĠzhÅįngĠ
fÅ« ĠsÄ«Ġ
suÃ¬ ĠdeĠ
ĠshÃ¬Ġ yÇĲ
ĠzÃłiĠ duÃ¬Ġ
ĠbÃ¹Ġ zhÄ«Ġ
ĠyÃ¬Ġ bÃ¨iĠ
ĠÄĽr ĠbÃ¨iĠ
zhÃłnĠ shÃ¹Ġ
ĠbÃ¬ng ĠchÃ©ngĠwÃ©iĠ
zÃ¬Ġ shÄĵnĠ
shÄ«Ġ tÇĲĠ
qÄ«ngĠ dÇİoĠ
bÃ³Ġ gÃ©Ġ
zhÃ²ngĠyÃłoĠ xÃ¬ngĠ
Ġ ruÃ¬ĠshÃ¬Ġ
Ġ 1958ĠniÃ¡nĠ
yÇĶ ĠwÃ¨iĠ
zhÇİng ĠjÃŃĠ
61 ĠniÃ¡nĠ
ĠshÃ¬Ġ yÃ¬nĠdÃ¹Ġ
ĠhÃ©Ġ chÃłngĠ
ĠguÃ³Ġ nÃ¨i
chuÃ¡nĠ mÃ©i
zÃłoĠ chuÃ¡nĠ
zhuÇİnĠ biÃłnĠ
xÃºnĠ fÇĶĠ
liÃ¡ngĠ hÇİoĠdeĠ
ĠtÄģĠcÃ©ng ĠdÃłiĠbiÇİo
ĠshÃłngĠhÇİi ĠshÃ¬Ġ
jiÃłngĠyÇĶĠ liÃłngĠ
Ġ xiÅįngĠyÃ¡ĠlÃ¬Ġ
Ġ 1987ĠniÃ¡nĠ
yÃ¹n ĠxÃŃng
ĠshÃŃĠ sÄģnĠniÃ¡nĠ
fÃ¹Ġ xÄ«ngĠ
ĠkÃ¨ ĠjiÄģĠ
yÃ¡nĠ ÃłnĠ
shÇĴuĠ lÇĲngĠ
yÄĽĠ kÄĽĠyÇĲĠ
ĠgÄģoĠ sÃ¹
ĠtÃºn ĠqÃŃĠ
yÃŃ ĠdeĠ
30 ĠfÄĵnĠ
sÅįu ĠsuÇĴĠ
jÄ«Ġ dÅ«ĠjiÃłoĠ
yÃ³uĠ kÃ¨Ġ
zuÃ¬Ġ hÃ²uĠdeĠ
jiÄģoĠ gÄĽi
shÃ¨ngĠ mÇĶĠ
kÇİoĠ gÇĶ
ĠmÇĶĠ qÄ«nĠ
Ġ13 Ġ
jÃ¬ĠsuÃłn ĠjÄ«Ġ
Ġ mÃ¬ngĠ
cÃ¨ ĠwÃ¨iĠ
jiÇİng ĠlÃ¬Ġ
xiÃ¨ ĠÄĽrĠ
zhuÄ« ĠjÄ«Ġ
rÃ²u ĠshÃŃĠxÃ¬ngĠ
ĠyuÃ¡nĠ zÃ¬
yÃ¹Ġ suÃłnĠ
fÄĵnĠ bÃ¹ĠzÃłiĠ
ĠzhÃ¨ngĠ jÃ¹Ġ
ĠzuÃ²Ġ yÃ¨Ġ
ĠdeĠyÄ«Ġ cÃ¬Ġ
ĠdeĠshÃ¬Ġ qÃŃngĠ
duÇİnĠ piÃłnĠ
ĠdeĠjÄ«Ġ chÇĶĠ
ĠyÇĲĠjÃŃ ĠzhÅįngĠguÃ³ĠdÃłĠlÃ¹ĠdeĠ
mÄĽiĠzhÅįngĠbÃ¹Ġ shÃŃĠqÅ«Ġ
Ġ 1994
Ġ CST
zÃ© ĠÄĽrĠshÄĽngĠ
bÄģ ĠyuÃ¨Ġ
hÄģ ĠlÃ¬Ġ
mÃ¡n Ġ
ĠdÃło ĠtÄģĠ
shÃ¹Ġ bÇİi
ĠÃ©rĠ wÃ©nĠmÃŃngĠ
shÇĴuĠ rÃ¨nĠ
tÃ¡iĠ zhÅįngĠshÃ¬Ġ
jÄ«nĠ xiÃłngĠ
tÅįngĠ xÃ¬n
yuÄĵĠ sÃ¨ĠfÅ«Ġ
mÃ³Ġ tuÅįĠ
bÄ«ngĠ tuÃ¡nĠ
ĠcÃ©ngĠ jÄ«ng
ĠsuÅįĠ xiÄĽĠ
1 ĠhÃło
Ġ xuÃ©
Ġ bÃłi
Ġ CDT
Ġ liÃ¡nĠhÃ©ĠguÃ³Ġ
jiÃłn ĠyÃºĠ
lÃ¹ ĠhÃ©Ġ
qiÃ¡ng ĠdÃłĠ
2019 ĠguÄģnĠzhuÃłngĠbÃ¬ngĠdÃº
32 ĠniÃ¡nĠ
1904 ĠniÃ¡nĠ
ĠshÃŃĠ wÇĶĠniÃ¡nĠ
ĠjÃ¬n ĠxÃŃngĠdeĠ
xuÇİnĠ shÇĴu
ĠshÃ¬ĠyÄ«Ġ jiÄģĠ
ĠcÃ³ngĠ cÇĲĠ
ÅįuĠ mÃ©ng
Ġ6Ġ diÃłoĠkuÃłiĠyÄ«ĠxiÇİoĠshÃŃĠ
ĠjÃŃĠbÄĽiĠ mÄĽiĠzhÅįngĠbÃ¹ĠshÃŃĠqÅ«Ġ
ĠCST Ġ
ĠCDT Ġ
Ġ lÃŃng
Ġ mÇĲn
ĠĠĠ kÄĵĠ
duÃ¬ ĠshÃ¬Ġ
mÇĲ ĠÄĽr
39 ĠniÃ¡nĠ
kuÄ« Ġ
zuÃłn ĠshÃŃĠ
ĠshÃ¬Ġ yÃŃĠ
ĠdÃ¬Ġ mÃŃngĠ
jÄ«Ġ chÇİng
jÄ«ngĠ dÅ«Ġ
fÄĵnĠ xiÃłoĠ
nÇļĠ wÃ¡ngĠ
liÇİngĠ zhÇĴng
tuÅįĠ mÇİĠsÄ«Ġ
ĠshÇĲĠ mÃ¬ĠsÄ«Ġ
yÃ¬nĠ dÃ¹ĠdeĠ
Ġ lÄĵiĠ
Ġ 1920ĠniÃ¡nĠ
jÄ« ĠshÃŃĠ
mÃ©i ĠÄĽrĠ
fÅ« ĠsÄ«ĠjÄ«Ġ
zhuÄģn ĠyuÃ¡nĠ
45 ĠniÃ¡nĠ
36 ĠniÃ¡nĠ
ĠchÃ©ngĠ kÃ¨
qÅ«Ġ zhÃºĠjiÃłnĠ
zhÃ¨Ġ shÇĴuĠ
ĠqiÃºĠ bÇĲĠsÃłiĠ
zhuÄģnĠ qÅ«Ġ
ĠÄģ ĠlÇĲĠ
ĠshÃ¬ĠfÇĴu Ġ
zhÃ©ĠxuÃ©Ġ jiÄģĠ
ĠqÄ« ĠxÄ«Ġ
fÃ©iĠtÃ¨Ġ liÃ¨Ġ
Ġ duÃłn
Ġ gÄĽiĠ
jiÃło ĠyÇĴuĠ
jiÄģo ĠfÃ¹Ġ
quÃ¨ ĠlÃ¬Ġ
lÃ¬Ġ shÇĲ
dÅįngĠ yÃłĠ
ĠshÃłngĠ shÃ¹Ġ
zÇĴngĠ jÃºĠ
wÇİngĠ lÃ¡iĠ
cÃ¡iĠ nÃ©ng
wÄĽiĠ nÃ¨iĠruÃ¬Ġ
rÃ¡nĠ liÃłoĠ
Ġ jiÄģn
ĠĠĠ 12ĠyuÃ¨Ġ
shÃŃ ĠshÃ¬ĠjÃ¬Ġ
pÃ¨i ĠyuÃ¨Ġ
26 ĠniÃ¡nĠ
33 ĠniÃ¡nĠ
ĠwÃ¨iĠ chÃ©ngĠ
gÃ©Ġ lÃ©iĠ
xÃ¬ngĠ biÃ©
chÃ¡ngĠ ÄģnĠ
liÃºĠ chuÃ¡nĠ
bÃ³Ġ gÄĽnĠdÃ¬Ġ
ĠyÄ«nĠwÃ¨iĠ tÄģ
ĠwÃ©nĠ zhÄģngĠ
hÃºĠbÄĽiĠ shÄĽngĠ
yÃ¡nĠhÇİiĠ shÄĽngĠfÃ¨nĠ
ĠsÃº ĠchÄĵngĠ
Ġ 1996
Ġ hÃ¡ngĠ
Ġ jiÃłngĠ
Ġ zÄĵngĠjiÄģĠ
Ġ 1945ĠniÃ¡nĠ
Äģ ĠsÄ«Ġ
ĠĠĠ rÃ¬Ġ
Äĵn ĠsÄ«Ġ
le ĠbÃ¹Ġ
dÃŃ ĠsÄ«Ġ
tuÄ« ĠjÃ¬n
diÄģo ĠxiÃłngĠ
zhÃłi ĠwÃ¹Ġ
qÅ«Ġ dÃ²ngĠ
ĠqÃŃĠ fÃ¹Ġ
gÄģoĠ xiÃłoĠ
ĠhuÃ²Ġ wÃ¹Ġ
bÃ³Ġ lÃŃn
chÇİnĠ liÃłngĠ
zÇĶĠ xiÄģnĠ
bÇİiĠ xÃ¬ngĠ
ĠÃło ĠsÄ«Ġ
Ġ bÃºĠshÃ¬Ġ
ĠĠĠ mÃ¹Ġ
ĠĠĠ yÄ«ngĠguÃ³Ġ
ĠĠĠ gÄģiĠdÃ¬Ġ
bÃło ĠfÃ¹Ġ
xÃ¹n ĠhÃłoĠ
jiÇİo ĠdeĠ
43 ĠniÃ¡nĠ
1910 ĠniÃ¡nĠ
ĠrÃ©nĠ shÄĵngĠ
ĠgÅįngĠ diÃłnĠ
ĠyÄ«Ġ lÃ¹Ġ
shÄĵngĠ rÃ¨nĠ
ĠtÃ³ng ĠniÃ¡nĠ10ĠyuÃ¨Ġ
lÃŃngĠ gÇİnĠ
ĠyÃ²uĠ chÄĵng
chÅįngĠ shÃ©ng
ÄģĠÄĽrĠ bÄģĠ
cÇİoĠ ÃłnĠ
ĠshÃ¬ĠjiÃłn ĠdeĠ
ĠĠĠ 2023ĠniÃ¡nĠ
shÃ¹ ĠgÃ¨Ġ
pÃŃng ĠxiÃłnĠ
mÃ² ĠdeĠ
hÄĽn ĠnÃ¡nĠ
31 ĠniÃ¡nĠ
ĠwÃ¨iĠ jÄ«ngĠ
shÃŃĠ qÄ«
yÃ¬Ġ qÇĲĠ
ĠyÇĴuĠ leĠ
ĠgÅįngĠ lÃ¬Ġ
fÄģĠ shÄĵngĠyÃºĠ
zhÃŃĠ jÃ¬ngĠ
ĠzhÅįuĠ biÄģnĠ
sÄģnĠ jiÇİoĠ
ĠshÇĴuĠ xiÄģnĠ
zÄĵngĠ qiÃ¡ng
mÄĽi ĠlÃ¬Ġ
yÄ«ng ĠÃ©rĠ
hÃ¹ ĠshÃ¬Ġ
zhÄģng ĠshÃ¬Ġ
huÃ¡ng ĠshÃ¬Ġ
huÃłn ĠyÇĴuĠ
sÃłng ĠshÄĵngĠ
ĠÄĽr ĠxÄ«Ġ
zhÃłnĠ lÃ¼Ã¨
xiÄģngĠ xÃ¬nĠ
dÃ²ngĠ tÃłiĠ
ĠshÄĵngĠ mÃ¬ngĠ
guÇİngĠ dÅįng
zhÃ¨ngĠzhÃ¬Ġ jÃºĠ
qÅ«ĠdeĠ fÃ¹ĠzÃ©ĠguÇİnĠxiÃ¡Ġ
ĠjÇĲnĠ cÃ¬ĠyÃºĠ
zhÄĽngĠ tÇĲ
yÃłĠmÄĽiĠ nÃŃĠyÃł
2 ĠmÃŃngĠ
Ġ yÄģĠ
ĠĠĠ tÃ¨ĠzhÄĵngĠ
xuÇİn ĠdeĠ
kÃłn ĠjiÃłnĠ
th ĠĠĠ
guÇĲ ĠdiÃłnĠ
dÃ¬Ġ fÄģngĠ
chÃ©ngĠ wÃ©i
ĠdÃ¬Ġ Ã¨rĠshÃŃĠ
ĠyÇĲ ĠzhÄ«Ġ
wÃ©iĠ jÄ«ĠbÇİiĠ
bÄĽnĠ zhÃłnĠ
ĠzhÃłnĠ tÃ¡iĠ
guÇİnĠ lÇĲĠdeĠ
huÃ²Ġ zhÄĽĠ
ĠrÃ¡nĠ hÃ²uĠzÃłiĠ
ĠduÅį ĠrÃ©nĠ
ÄģnĠhuÄ«Ġ shÄĽngĠ
Ġ1950 ĠniÃ¡nĠ
Ġ 1997
Ġ XĠ
ĠĠĠ tÃ¡ngĠ
wÄĽi ĠdeĠ
dÃº ĠzÃ¬Ġ
ĠzhÃ¬Ġ jÄ«n
ĠjÃŃĠ kÄĽĠ
fÃºĠ wÃ¹ĠdeĠ
sÃ¬Ġ chuÄģn
bÃ¬Ġ lÇĶ
zhÇĶĠjiÃłoĠ liÃłnĠ
Ġ xiÄģng
Ġ dÄ«ng
Ġ Su
Ġ guÇĲĠ
Çİ Ġ
qÅ« ĠxiÃłnĠ
xiÇİo ĠyÃºĠ
diÇİn ĠxÃŃngĠ
bÄģn ĠdÃłoĠ
hÃłn ĠguÃ³Ġ
liÃ¡ng ĠdeĠ
pÄ« ĠfÃ¹Ġ
ĠshÃŃĠ sÃ¬ĠniÃ¡nĠ
ĠlÃ¬Ġ yÃºĠ
huÃłĠ fÄĵnĠ
yÃ¡nĠ xÃ¹
ĠzhÃ¨Ġ xiÃłngĠ
xiÇİoĠ jiÄĽĠ
shÄģĠ tiÃ¡nĠ
xiÃ©Ġ huÃ¬
pÃŃĠ fÅ«Ġ
ĠbÃ¹ĠfÃ¨n ĠdeĠ
ĠI Ġ
Ġ yÃ¬nĠdÃ¹
Ġ 1982ĠniÃ¡nĠ
zhÅįng ĠniÃ¡nĠ
yÃ¬ ĠdeĠshÃ¬Ġ
shÄ« ĠshÃ¬Ġ
jÄ«n ĠsÄ«Ġ
ĠdÃłĠ zhÃ¨ngĠ
tÃ¨Ġ dÃ¬ngĠdeĠ
xÃ¬ngĠ gÃ©Ġ
fÄĵngĠ bÃło
mÄĽiĠguÃ³Ġ zÇĴngĠtÇĴngĠ
guÄģngĠ pÇĶĠ
tÄ«ngĠ zhÇİngĠ
kuÃłngĠ wÃ¹Ġ
ĠdeĠyÃ¬Ġ siĠ
yÇĲngĠxiÇİng ĠdeĠ
wÃ¹ĠlÇĲĠ xuÃ©ĠjiÄģĠ
shÄĽngĠdÃłoĠ tÃ¡iĠ
Ġ jÇĲng
jÄ« ĠlÃ¬Ġ
gÇĶ ĠsÄ«Ġ
pÇĶ ĠÄĽrĠ
guÄģng ĠdeĠ
lÄĵi ĠdeĠ
ĠshÃ¬Ġ yÃ²ngĠyÃºĠ
dÃ¬Ġ Ã¨r
ĠjÃŃĠ zhÅįngĠzÃłiĠ
yÃ²ngĠ leĠ
lÃ¡iĠ yuÃ¡nĠyÃºĠ
xiÃłoĠ guÇĴ
bÄģoĠkuÃ² ĠleĠ
huÃ³Ġ xÃ¬ngĠ
ĠgÄģoĠ xiÃ³ng
jÅ«nĠ guÄģnĠ
tiÄĽĠ lÃ¹ĠdeĠ
ÄĵnĠ lÃ¡iĠ
ÄģĠgÄĵnĠ tÃŃngĠ
4 ĠĠĠ
Ġ hÃ²uĠzÃłiĠ
ĠĠĠ 2004ĠniÃ¡nĠ
zuÃ² ĠyÇĲĠ
qiÃ¡n ĠwÃ¨iĠ
jÄ«n ĠrÃ¬
lÇļ ĠyÃ³u
lÇİng ĠpÇĶĠ
pÅį ĠÄĽrĠ
44 ĠniÃ¡nĠ
1908 ĠniÃ¡nĠ
ĠhÃ©Ġ kÇĴuĠ
ĠlÃ¬Ġ chÇİngĠ
ĠyÄ«Ġ kÄģiĠshÇĲĠ
ĠyÇĶĠ yuÃ¡nĠ
ĠchÅ«Ġ kÇĴu
ĠyÃ³uĠ tÃłiĠrÃ©nĠ
tiÄģnĠ huÃ¡ng
xÃ¬nĠ tÃºĠ
gÄĵĠlÃºnĠ bÇĲĠyÃł
le ĠyuÃ¡nĠ
shÄĵng ĠbÃ¹Ġ
mÇİ ĠqÃŃĠ
gÃło ĠzhÄ«Ġ
53 ĠniÃ¡nĠ
ĠdÃłĠ zhÃłnĠ
fÄģĠ dÃ²ng
ĠbÇĲĠ sÃłi
wÇİnĠ jiÄģnĠ
ĠnÇļĠ zÇĲĠ
ĠguÃ³ĠjiÄģ ĠgÅįngĠyuÃ¡nĠ
fÄģĠxiÃłn ĠyÃºĠ
hÃºĠnÃ¡nĠ shÄĽngĠ
ĠdeĠfÃ¹Ġ qÄ«nĠ
lÇļĠkÃ¨Ġ tiÄĽĠdÃłoĠ
Ġ 1992
Ġ huÃ¬ĠyÃ¬Ġ
Ġ shÃŃĠniÃ¡nĠ
Ġ yÃŃngĠdÃ©Ġ
ĠĠĠ jiÃłoĠyÃ¹Ġ
mÃŃng ĠzÃłiĠ
tÃ³ng ĠxuÃ©Ġ
bÅį ĠyÄ«nĠ
luÃ² ĠhÃ²uĠ
qiÄģn ĠzhÃ¨ngĠ
ss Ġ
ĠdÃ¬Ġ xÃŃngĠ
ĠÃ©r ĠyuÃ¡nĠ
ĠjiÃłnĠ duÃ¬
zhÇİngĠ wÃ²
biÃłnĠ huÃł
xiÇİngĠ yÃ¬ngĠ
miÇİnĠ fÃ¨i
pÃ©iĠ yÇİngĠ
Ġ yÃº
Ġ xiÃ©ĠzhÃ¹Ġ
Ġ zhÄĵnĠduÃ¬Ġ
shÃ¨ ĠyÃºĠ
qÇĲ ĠshÃ¬Ġ
zÄĵng ĠzhÃ¬Ġ
chuÄ« Ġ
ĠdeĠ wÃ¨iĠ
ĠshÃŃĠ xÃŃng
ĠjÃŃĠ jÃ¹Ġ
ĠjÃ¬Ġ hÃ²uĠ
ĠsÄ«Ġ fÇİ
ĠÃ©r ĠyÇĲĠ
zhÃ¨Ġ yÃłngĠ
ĠjÅ«nĠ zhÇĶĠ
zhÇĴngĠ zÃº
kÄĵĠ huÃłnĠ
ĠzuÃ¬Ġ zhÅįngĠzÃłiĠ
diÄģoĠ sÃ¹Ġ
Ġ shÄĵn
Ġ xiÃ³ng
ĠĠĠ pÇĶĠ
dÄģng ĠrÃ¬Ġ
nÃł ĠxÄ«Ġ
xiÃ¡ ĠshÃ¬Ġ
hÄģ ĠdÃ©Ġ
yÇĶĠ yÃ¡n
ĠyÄ«Ġ cÃ¬
xÄ«Ġ zÃłngĠ
ĠbÃ¨iĠ kÃ¨Ġ
ĠdÃłn ĠwÃ¨iĠ
ĠjÅ«nĠ duÃ¬
zuÃ¬Ġ dÄ«Ġ
dÄĽngĠ dÃłiĠ
chÃ¡ngĠ guÄ«Ġ
ĠxiÃłnĠdeĠ fÄĵiĠjiÃłnĠzhÃ¬ĠdÃ¬ĠqÅ«Ġ
huÃłnĠ xiÇİngĠ
jÇĶĠxÃŃngĠ leĠ
ĠdÅįng ĠxÄ«Ġ
Ġ tÅ«Ġ
Ġ 1978ĠniÃ¡nĠ
hÃ¡ng ĠxÃŃngĠ
ation Ġ
ĠguÃ³Ġ zhÅįngĠ
ĠdÃłĠ dÃłĠ
fÃ¹Ġ nÇļĠ
fÄģĠ huÄ«Ġ
ĠzhÃłnĠ lÇĲng
tiÄģnĠ zhÇĶĠjiÃło
nÃłĠ yÃłngĠ
chÃ©nĠ mÃ²Ġ
huÇĴĠ zÄģiĠ
ĠshÃ¬ĠwÃ¨iĠyÃºĠ wÅ«ĠkÃ¨ĠlÃ¡nĠ
ĠchÃ¡oĠ xiÄģn
Ġ sÅįng
Ġ zhuÃ³
ĠĠĠ jÃ¬nĠ
ĠshÃŃĠ jiÃłnĠ
jÃ¬Ġ zhÄĽĠ
rÃ¨nĠ kÄĽĠ
jiÃłoĠ tÃºĠ
zhÃ¹Ġ mÃŃng
shÄ«Ġ zhÇİngĠ
zhÇĲĠ nÃ©ng
bÇİoĠ ÄģnĠ
gÇĶĠ dÅįngĠ
Ã¨rĠ bÇİiĠ
ĠgÄģiĠ zhuÄģngĠ
jiÄģĠrÃ¹ ĠzhÅįngĠguÃ³ĠgÃ²ngĠchÇİnĠdÇİngĠ
Ġ pÃłnĠ
Ġ gÄĵngĠ
ĠĠĠ Mar
ĠĠĠ Te
guÃ³ ĠwÃ¨iĠ
qÇĶ ĠleĠ
shÅįu ĠfÃ¹Ġ
gÃ¨ng ĠdÃłĠ
ĠyÇĴuĠ liÇİngĠgÃ¨Ġ
guÄģnĠ diÇİn
ĠzhÃłnĠ jÃ¹Ġ
fÄĵnĠ lÃ¡n
ĠbÄĽnĠ piÃłn
cÃºnĠ chÇĶĠ
bÄģnĠjiÇİngĠ diÇİnĠlÇĲĠ
9 ĠmÇĲĠ
Ġ d
Ġ yÄ«ĠniÃ¡nĠ
kÄģi ĠyuÃ¡nĠ
hÃłn ĠdeĠ
pÃłi ĠrÃ©nĠ
ing ĠĠĠ
1915 ĠniÃ¡nĠ
xiÃłngĠ bÄĽiĠ
tÃ¨Ġ sÃ¨
ĠwÃ©iĠ qÄ«Ġ
bÄĽiĠ mÄĽiĠ
ĠshÃłngĠ zhÃ¨nĠ
yÃŃĠgÃ¨ ĠrÃ©nĠ
xÃ¬ĠtÇĴng ĠzhÅįngĠ
ÄģĠjÄ«Ġ tÇİn
ĠĠĠ mÄĽiĠ
liÃ¹ ĠyuÃ¨Ġ
ĠzÃłiĠ jÄ«nĠ
xuÃ©Ġ zhÄĽ
rÃ¨nĠ qÄ«Ġ
dÃłiĠ lÇĲng
ĠqÃŃĠ ziĠ
tÃ¡iĠ nÃ¡nĠ
fÅ«Ġ lÄĵiĠ
dÃºĠ zhÄĽĠ
zhÃłngĠ fÅ«
Ġ 1993
hÄĽn ĠyÇĴuĠ
47 ĠniÃ¡nĠ
42 ĠniÃ¡nĠ
OS Ġ
shÄĵngĠ mÃ¬ng
qÄ«Ġ tÃºĠxÃŃngĠ
yÇİnĠ jÄ«ngĠ
ĠguÃ²Ġ qÃ¹Ġ
guÃ³ĠdeĠ tÃ¨ĠyÇĴuĠ
fÄģĠxÃŃngĠ leĠ
ĠwÇĶ ĠyuÃ¨Ġ
ĠjiÇİngĠ shÃ¹Ġ
jiÄĵĠshÃ²u ĠleĠ
ĠzhÃłnĠdÃ²u ĠjÄ«Ġ
Ġ hÇİiĠjÅ«nĠ
jiÄģ ĠjÃŃĠ
dÃ© ĠyÇĲĠ
huÃł ĠgÅįngĠ
pÇĶ ĠlÇĲĠ
wÄĵi ĠdeĠ
fÃłng ĠzhÃ¬Ġ
fÃłng ĠshÃ¨Ġ
gÄģn ĠyÃ¹Ġ
ĠshÃ¬Ġ cÃ³ngĠ
ĠjiÄģĠ sÃ¹Ġ
ĠÄĽrĠ fÅ«
biÄģnĠ qÅ«Ġ
luÃ²Ġ bÃłiĠ
xiÃ©Ġ zhÃ¹
ĠdÃ¬ĠÃ¨rĠ cÃ¬
qÅ«ĠyÃ¬ĠhuÃ¬Ġ xuÇİnĠjÇĶĠ
Ġ sÄģi
Ġ gÅ«Ġ
liÃº ĠshÃ¬Ġ
yÃ¡ng ĠzhÅįuĠ
cÄģn ĠzhÃ¨ngĠ
xÅ« ĠqiÃº
zhÅ« ĠshÃ¬ĠhuÃ¬Ġ
cÇİo ĠyuÃ¡nĠ
66 ĠniÃ¡nĠ
ĠbÃ¹Ġ liÃ¨Ġ
ĠgÃ¨Ġ dÃ¬ĠdeĠ
rÃ¹Ġ yÃ¹Ġ
tiÄģnĠ shÇĲĠ
ĠniÃ¡nĠ10ĠyuÃ¨Ġ 1ĠrÃ¬Ġ
ĠliÃ¡nĠ sÃłiĠ
xÇĶĠ kÄĽ
liÃ¨ĠchÄĵ ĠdeĠ
ĠyÇĶĠmÃ¡o ĠqiÃº
Ġ fÅ«Ġ
Ġ bÇĲĠdÃ©Ġ
diÃłn ĠyuÃ¡nĠ
liÃº ĠchÃ©ngĠ
chÄĵng ĠdeĠ
cÃ©ng ĠyÇĶĠ
nÃ³ng ĠdÃ¹Ġ
hÃ¡o ĠwÃºĠ
colspan Ġ
ĠshÃ¬Ġ yÃ²ngĠ
ĠyÃºĠ 2011
ĠchÃ©ngĠ rÃ¨n
ĠzhÄ«Ġ duÃ¬Ġ
jiÄģnĠ dÅ«
jiÄģoĠ huÃłn
jiÇİnĠ chÄĵngĠ
fÃ¡ngĠ shÇĴuĠ
ĠdeĠshÃ¬Ġ jiÃłnĠ
dÇİĠ kÄģiĠ
ĠgÄģi ĠdÃ¬Ġ
xuÃ¡nĠ zhuÇİnĠ
mÃ¨ngĠjiÄģĠ lÄģĠ
Ġ shÄģn
Ġ diÃło
Ġ Mo
Ġ 22Ġ
guÄģn ĠhÃ©Ġ
fÄĵn ĠjÃŃĠ
shÄĽng ĠrÃ©nĠmÃŃnĠzhÃ¨ngĠfÇĶĠ
shuÇĲ ĠshÃłngĠ
ĠhÃ©Ġ jiÄģĠ
ĠÃ©rĠ zhÃ¨Ġ
suÇĴĠ zhÇİngĠ
gÃ©Ġ lÃŃnĠ
zuÃ¬Ġ hÇİoĠdeĠ
ĠshÄĵngĠ rÃ¨nĠ
ĠyÄĽĠ chÄĵngĠ
huÇĴĠ pÃłoĠ
pÃ¨iĠ juÃ©Ġ
dÃłnĠ bÃ¡iĠ
dÇĴngĠshÃ¬Ġ huÃ¬Ġ
Ġ Be
Ġ zhÇİnĠ
Ġ 20ĠshÃ¬ĠjÃ¬Ġ
Ġ 23Ġ
chÅ« ĠxiÃłnĠzÃłiĠ
quÃ¨ ĠshÃŃĠ
xiÄĽ ĠchÃ©ngĠ
42 Ġ
1906 ĠniÃ¡nĠ
ĠzhÅįngĠ yÃ¬Ġ
ĠdÃ© ĠyÃ¬ĠzhÃ¬Ġ
zhÇĶĠ chÇİng
shÄģnĠ hÃºĠ
miÃłnĠ qiÃ¡nĠ
qiÃ¡ngĠ liÃ¨ĠdeĠ
ĠzuÃ¬Ġ hÃ²uĠyÄ«Ġ
zhÇĶĠjiÃłoĠ zuÃ²Ġ
ĠfÇĴu ĠzÃ©Ġ
Ġ tÃ©ngĠ
ĠĠĠ shÇĲĠ
xiÃłng ĠhÃ©Ġ
yuÄĵ ĠdeĠ
shÄģ ĠshÃ¬Ġ
jiÇĶ ĠyuÃ¨Ġ
gn Ġ
ĠyuÃ¨Ġ nÃ¡n
ĠzhÃ¬Ġ cÇĲĠ
ĠjÃ¬n ĠniÃ¡nĠ
dÃ¹Ġ guÃ²Ġ
ĠtÃ³ng ĠwÃ¨iĠ
ĠzhÃ¨Ġ chÇİngĠ
gÇĶĠ fÃ¨nĠ
xÃ¬nĠ yÃ²ngĠ
kÇĴngĠ lÃ³ngĠ
ĠhuÃ²ĠdÃ© ĠdÃ¬Ġ
fÄģĠxiÃłnĠleĠ cÇĲĠtiÄģnĠtÇĲĠ
fÇİĠlÃ¡nĠxÄ« ĠdÃłĠqÅ«Ġ
Ġ k
Ġ tÇĶ
jÄ« ĠxÃŃngĠ
xiÃł ĠyÃ¬Ġ
suÇĴ ĠbÃ¹Ġ
1900 ĠniÃ¡nĠ
1907 ĠniÃ¡nĠ
Face book
ĠshÃ¬Ġ pÃŃn
xÄ«nĠ qÅ«Ġ
ĠwÃ©iĠ fÇİnĠ
yÃŃĠ qÃ¬Ġ
tÃŃĠ ÃłnĠ
ĠdeĠgÅįngĠ jÄ«Ġ
ĠgÃ©Ġ lÃ¡nĠ
zÅįngĠyÃ¬Ġ jiÃ©ĠmÃ¹Ġ
jÃ¬ngĠwÃłiĠ shÅ«ĠrÃ¹Ġ
Ġ 1980
Ġ gÃłnĠ
Ġ 1980ĠniÃ¡nĠ
ĠĠĠ shÃ¨ĠjÃ¬Ġ
yÄĽ ĠbÃ¹Ġ
gÇĶ ĠchÃ©ngĠ
chÇİn ĠdeĠ
fÃ¨i ĠÄĽrĠ
29 ĠniÃ¡nĠ
yÃ© ĠlÃ¹Ġ
Wil li
Micro soft
ĠchÃ©ngĠ xiÃłngĠ
ĠrÃ¬ ĠshÃŃĠ
ĠyÇĶĠ xÄ«nĠ
ĠdÃłoĠ fÅ«Ġ
fÃ¹Ġ xÄ«ng
tiÄģnĠ xiÃłĠ
xÃºnĠ zhÇİoĠ
gÄĵnĠ suÃŃ
liÃ¡nĠsÃłiĠ guÃłnĠjÅ«nĠ
bÃ¨i ĠyÄ«Ġ
xÄ«n ĠjÄ«Ġ
shÄ« ĠxÃŃngĠ
yÃŃng ĠdÃ©
âĢ ĭ
sÄĵn ĠdeĠ
kÅ«n ĠmÃŃngĠ
os Ġ
ĠchÃ©ngĠ dÄģnĠ
ĠÃ©r ĠdÃ©ĠmÃŃngĠ
wÃ¹Ġ zÄ«Ġ
kÄģiĠ yÃ¨Ġ
tÅįngĠ chÃ¡ngĠshÃ¬Ġ
luÃ³Ġ xuÃ¡nĠ
shÃ¨Ġ jÃ¬ĠdeĠ
ĠwÃ©nĠ xuÃ©Ġ
ĠliÃ¡nĠ xÃ¹Ġ
chÃ¨Ġ tuÃ¬
kÄĽĠyÇĲ ĠshÃ¬Ġ
ĠshÃŃĠjiÄģn ĠwÃ¨iĠ
huÃ³ĠyuÃ¨Ġ yÃºĠ
tÇİĠnÃŃ ĠdÃłĠqÅ«Ġ
Ġ lÄģ
Ġ yÇĲn
Ġ xÃ¬n
Ġ zhÃº
zhÅįu ĠwÃ©iĠ
ĠjiÄģĠ ÄĽrĠ
ĠxÄ«Ġ bÄĽiĠbÃ¹Ġ
zhÇĶĠ tÇĲĠ
ĠzhÃ¨Ġ shÇĲĠdeĠ
ĠfÄĵiĠ chÃ¡ngĠ
Ġ xiÅ«
yÇĶ ĠrÃ©nĠ
lÇľ ĠbÃ¹Ġ
dÄ«ng ĠmÃ¹Ġ
38 Ġ
dÃłĠ huÃ¬Ġ
ĠyÄ«Ġ cÃŃ
ĠzhÄ«Ġ lÃ¹Ġ
ĠhuÃ¬Ġ dÇİoĠzhÃ¬Ġ
kÄģiĠ pÃ¬
xiÃłngĠ dÅįngĠ
ÄģnĠ dÅįngĠnÃŃĠ
ĠjiÃ©Ġ mÃ¹
nÃ³ngĠ cÅ«n
ĠbÄĽiĠqÇĲĠ shÃ¹nĠshÃŃĠzhÄĵnĠyÇĶĠ
Ġ g
Ġ Jo
Ġ qÃŃngĠ
Ġ aĠ
zhÃ¨ng ĠsÄ«Ġ
dÃ© ĠzhÄ«Ġ
tÃ³ng ĠshÃ¬Ġ
bÄĽi ĠpÃŃngĠ
wÇĶ ĠgÅįngĠ
jiÃ¨ ĠxiÃłnĠ
shÃ©n ĠshÃ¨Ġ
ĠkÃ¨ ĠrÃ©nĠ
shÅ«Ġ xiÄĽĠ
ĠgÄģiĠ piÃłn
ĠjÇĲnĠ biÄģoĠ
xuÃ¨Ġ yÃ¨Ġ
ĠdÃł ĠwÃ¨iĠ
xÃºnĠhuÃŃĠ sÃłiĠ
Ġ Ã¨
Ġ 1991
le ĠdÃ¬ĠyÄ«Ġ
shÃłng ĠjÃŃĠ
huÃł ĠchÃ©ngĠ
yÃ¹n ĠhuÃ¬Ġ
inc lu
ĠzÃłiĠ nÃłĠlÇĲĠ
lÃ¬Ġ liÃłngĠ
ĠmÃŃngĠ quÃ¨Ġ
xiÃłĠ xÃºnĠ
ĠjÃ¬n ĠleĠ
gÃ©Ġ luÃ³Ġ
qÇĲĠ tÃºĠ
chuÃ¡nĠ shÅ«Ġ
lÃŃĠ hÅ«nĠ
yÃ¬ngĠ yÃ²ngĠyÃºĠ
jiÇĶĠ diÃłn
bÄģĠfÃ¡ ĠlÃ¬ĠyÃł
Ġ dÇĲĠ
Ġ zÃłnĠ
Ġ qÇĶĠdÃłiĠ
zhuÇİn ĠhuÃ¬Ġ
ĠzÃłiĠ dÄģngĠdÃ¬Ġ
ĠchÅ«Ġ zÃ¬Ġ
wÃłiĠ jiÃ¨Ġ
jiÄģoĠ qÅ«Ġ
huÃ²Ġ bÃ¬Ġ
zhÃłoĠ gÃ¹Ġ
chÄģoĠ guÃ²
yÃ©ĠlÃ¹Ġ sÄģĠ
Ġ 48
Ġ jÇĶĠ
wÃ©i ĠlÃ¬Ġ
zhÇĶ ĠrÃ©nĠ
liÃłng ĠhÃ©Ġ
yÃ²u ĠbÃ¨iĠ
56 ĠniÃ¡nĠ
ĠbÃ¹Ġ lÃ¡nĠ
ĠxÃŃng ĠzhÅįngĠ
jÄ«nĠ pÃ¡i
tiÄģnĠ zhÇĶĠ
Ã¨rĠ yÇİngĠhuÃłĠ
jiÄĽĠ chÃºĠ
hÃ¡ngĠ tiÄģn
huÃ²Ġ yÃ¹nĠ
dÄģngĠ jÃº
yÅįuĠ xiÄģnĠ
zhÃŃĠyÃ¨Ġ shÄĵngĠyÃ¡
ĠgÄĵĠ shÇĴuĠ
ĠyÇĲnĠ qÇĲĠ
tÃŃngĠchÄĵĠ chÇİngĠ
ĠyÃ¬Ġsi ĠshÃ¬Ġ
Äģn ĠzhÃ¬Ġ
ĠĠĠ 2000
yÇĶ ĠjÃŃĠ
kÄģi ĠxÃŃngĠ
nÃ¨i ĠshÃ¨ĠyÇĴuĠ
jiÃ¨ ĠyÃ³uĠ
tÃŃ ĠshÃ¬Ġ
xÃ¹ ĠshÃ¬Ġ
zhÃ¨n ĠxiÃłnĠ
yÇİn ĠleĠ
yÄģ ĠzhÃ¬Ġ
cÇİo ĠdÃ¬Ġ
yle Ġ
ĠzÃłiĠ hÃ²uĠ
ĠshÃŃĠ qÃ¬
ĠyÃºĠ yÄ«Ġ
ĠlÇĲĠ ÃłoĠ
nÃ¡nĠ fÄĵiĠ
zÇĴngĠ dÅ«
ĠmÄĽi ĠrÃ¬Ġ
ĠliÃ¡nĠ bÄģngĠ
ĠzhÃŃ ĠdeĠ
ĠyÃ¡nĠ zhÃ²ngĠ
ĠshÇĲ ĠqÃŃĠ
ĠwÇĴ ĠdeĠ
dÄģĠ pÃ¨iĠ
Ġ nÃ¨iĠbÃ¹Ġ
jiÄģng ĠwÃ©iĠwÃºĠÄĽrĠ
wÇĶ ĠlÃ¬Ġ
bÇİo ĠshÃŃĠ
fÇĶ ĠdeĠ
guÄģng ĠxuÃ©Ġ
kuÃłi ĠjÃ¬Ġ
shÃłngĠ fÇİĠlÃ¡nĠxÄ«ĠdÃłĠqÅ«Ġ
ĠxÄ«Ġ nÃ¡nĠbÃ¹Ġ
ĠshÃ¨ ĠxiÃłnĠ
ĠjiÃłnĠ leĠ
ĠbÃ¬ngĠ duÃ¬Ġ
wÃ¡ngĠ guÃ³ĠdeĠ
mÃ³Ġ nÇĲĠ
Ġ cuÄ«
Ġ diÇİnĠ
ĠĠĠ yÇĲngĠxiÇİngĠ
guÄģn ĠzhÃ¬Ġ
Ã¨r ĠmÃŃngĠ
chÃ©n ĠjÄ«Ġ
tÃ²u ĠmÃŃngĠ
ĠshÃŃĠ biÇİoĠshÃ¬Ġ
shÄĵngĠ wÃ¹
zhÃŃĠ dÇİoĠdeĠ
cÇĲĠ cÃ¬Ġ
lÄģĠ fÅ«Ġ
ÃłiĠ shÄģĠ
xiÇİoĠshÃŃĠ hÃ²uĠ
dÃłnĠ bÃ¡iĠzhÃ¬Ġ
kÃ²ngĠ gÇĶ
wÄĽnĠ dÃ¬ng
tÅįngĠguÃ² ĠleĠ
ĠĠĠwÃ¨iĠ yÃºĠ
9 ĠshÃŃĠ
shÄĵng ĠrÃ¬Ġ
ry Ġ
ĠshÃ¬Ġ fÃłngĠ
ĠzhÅįngĠ jÃŃĠ
yÇĴuĠ yÃ¬Ġ
ĠgÅįngĠ shÄģngĠ
guÄģnĠ shÇİng
ĠjiÃłnĠ lÃ¬ĠdeĠ
ĠdÃłn ĠyÄ«nĠwÃ¨iĠ
gÄģoĠ shÄģnĠ
ĠyÃ³uĠ kÃ¨Ġ
ĠdÃłnĠ shuÇĲĠ
jiÇİnĠ dÄģn
zÇĶĠ zhÇĲ
Ã©Ġ wÃłiĠ
ĠdÃłĠxuÃ©Ġ jiÃłoĠshÃ²uĠ
ĠgÄģi ĠgÅįngĠsÄ«Ġ
ĠbÄĽn ĠmÃŃngĠ
ĠgÅįngĠzuÃ² ĠrÃ©nĠyuÃ¡nĠ
Ġ bÄģoĠhÃ¡n
sh Ġ
tÇĲ ĠhÃ©Ġ
tÃº ĠÄĽrĠ
gÇİi ĠzhÃ¬Ġ
ĠwÃ¨iĠ tÄģĠ
ĠhÃ©Ġ shuÇĲĠ
ĠshÃŃĠ yÃ¬Ġ
ĠjÃŃĠ yÃºĠ
ĠjÃŃĠ yÇĶĠ
ĠjiÃłn ĠguÃ³Ġ
qÄ«Ġ xÄ«ĠdÃ¬Ġ
hÇİiĠ guÄģnĠ
nÇļĠ shÃ©nĠ
zÃºĠ xiÃ©
zÄĵngĠ jiÄģ
ĠhuÃłĠ xuÃ©
ĠsÃ¬ ĠyuÃ¨Ġ
ĠhÃ©ĠbÄĽiĠ shÄĽngĠ
ĠzhÃ¹ ĠyÇĴuĠ
Ġ yÃłĠzhÅįuĠ
Ġ hÃ¡iĠshÃ¬Ġ
57 ĠniÃ¡nĠ
ĠshÃ¬Ġ qÃŃĠ
ĠjÃ¬Ġ gÅįngĠ
ĠjÃ¬n ĠpÃŃngĠ
tÃłiĠ kÅįng
jiÇİnĠ huÃłĠ
zÃºĠ zÃ¬ĠzhÃ¬ĠqÅ«Ġ
lÇĲngĠ xiÃ¡n
jÅ«Ġ liÃºĠ
fÃłngĠ sÃ²ngĠ
chÃ¨Ġ lÃŃĠ
Z Ġ
Ġ tÃ¡n
Ġ nÃ¬
ĠĠĠ 1949
yuÃ¡n ĠzhÃ¬Ġ
yÇĶ ĠzÃłiĠ
yÃ¹ ĠzhÅįngĠ
shÄĵng ĠyuÃ¡nĠ
yuÃłn ĠyÃ¬ĠyuÃ¡nĠ
fÇİn ĠshÃ¨Ġ
bÄ«n ĠxÄ«ĠfÇİĠ
ĠhÃ©Ġ pÃŃng
dÃłĠ yuÄĵĠ
ĠlÃ¬Ġ chÃ©ngĠ
ĠtÄģ ĠyÃ¬Ġ
ĠjÃ¬Ġ shÃ¹ĠdeĠ
ĠxÄ«Ġ bÄĽi
gÄģngĠ qÃŃnĠ
xuÃ¨Ġ tÇĴngĠ
ĠĠĠ 2004
ĠĠĠ shuÇĲĠ
le ĠshÃŃĠ
fÃ¹ ĠchÅ«Ġ
biÃ© ĠmÃŃngĠ
yÃłn ĠzhÃ¨ngĠ
ca Ġ
SA Ġ
ĠzÃłiĠ yuÃ¨Ġ
ĠguÃ³Ġ jÅ«n
ĠyÄ«Ġ duÃłnĠ
ĠyÇĲĠ qÃŃĠ
ĠyÇĶĠ yÃ¡nĠdeĠ
xiÃłĠ wÄĵiĠ
zhÃŃĠ zÃ©Ġ
zhÃ²ngĠ shÄģngĠ
yÃŃĠ chuÃ¡nĠ
ĠgÄģiĠ wÃ¹ĠzhÇĴngĠdeĠ
ĠwÃłn ĠpÃŃngĠfÄģngĠmÇĲĠ
hÄĽnĠ kuÃłi
liÃłnĠ xÃŃĠ
Ġ000 ĠmÃŃngĠ
ĠgÄĵĠ qÇĶ
mÃ³ĠshÃ¬Ġ chÇİnĠ
ĠÃ¨r ĠrÃ©nĠ
yuÃ¨ĠzhÅįngĠ xÃºnĠ
hÃ¡ngĠkÅįngĠmÇĶ ĠjiÃłnĠ
Ġ wÇİng
Ġ mÃŃnĠzhÇĶĠ
ĠĠĠ v
chÃ ²u
zhÃ²ng ĠrÃ©nĠ
34 Ġ
ĠchÃ©ngĠ jÃŃĠ
ĠxÄ«Ġ zÃłng
ĠdÅįngĠ fÄģngĠ
pÃłnĠ duÃłnĠ
ĠzhÅįngĠyÄģng ĠjÅ«nĠ
dÅįngĠbÃ¹Ġ dÃłĠqÅ«Ġ
ĠbÄģ ĠyuÃ¨Ġ
ĠchÅ«ĠbÇİn ĠshÃ¨Ġ
Ġ si
Ġ Di
yÃ¡n ĠxiÃłnĠ
liÇİng ĠbÃ¹Ġ
wÃº ĠyÃ¬Ġ
yÃ¡ng ĠdeĠ
ĠshÃ¬Ġ wÅ«ĠkÃ¨ĠlÃ¡nĠ
ĠgÅįngĠ Äģn
ĠdÃło ĠzÃłiĠ
ĠzhÄ« ĠhÃ©Ġ
ĠdÃłnĠ rÃ©ng
chÅ«Ġ kÇĴuĠ
biÄģoĠzhÇĶn ĠdeĠ
Ġ ÇĴu
Ġ zi
yÃ¹ ĠhÃ©Ġ
jÇĲ ĠgÃ¨
cÇĲ ĠzhÃłnĠ
piÄģn ĠxiÇİoĠshuÅįĠ
lÃłng ĠmÃłnĠ
ĠzhÅįngĠ shÃŃĠ
ĠguÃ³Ġ jÃŃĠ
jÃ¹Ġ bÃ¨iĠ
gÇĶĠ diÇİn
lÃ³ngĠ kÄĵĠ
ĠdeĠyÄ«Ġ tiÃ¡o
ĠdeĠbÃ¹Ġ fÃ¨n
chÇĶĠlÇĲĠ qÃ¬Ġ
kÄĽnĠ dÃ¬ngĠ
ĠĠĠ h
ĠĠĠ 2003
tu r
gÃ© ĠhÃ©Ġ
tÃłi ĠyuÃ¡nĠ
gÃ¹ ĠyÃ¬Ġ
ĠwÃ¨iĠ zhÄ«Ġ
zhÇĲĠ zÃ©Ġ
tÇĲĠ xÃ¬
gÄĵĠ chÃłng
wÄĵiĠ nÃŃĠsÄ«Ġ
qÇĶĠ dÃłi
yÃ¡Ġ chÇĲĠ
ĠwÃº ĠxiÃłnĠ
ĠqÄ« ĠyuÃ¨Ġ
Ġ tiÄĽ
Ġ xÄ«nĠdeĠ
Ãło ĠdÃ¬Ġ
hÃ²u ĠchÃ©ngĠwÃ©iĠ
yÃ²ng ĠyÇĲĠ
wÇĶ ĠdeĠ
bÇĲ ĠdeĠ
zhÄĵn ĠjÅ«nĠ
shÄĽn ĠlÇĲĠ
pÅ« ĠshÃ¨Ġ
ĠhÃ©Ġ mÄĽiĠguÃ³Ġ
ĠyÇĴuĠ zhÃ¹ĠyÃºĠ
wÃ©iĠ kÃ¨Ġ
mÃŃngĠ nÃŃĠsÅ«Ġ
ĠÄĽr ĠdÃ¬Ġ
ĠtÄģĠ biÇİoĠshÃ¬Ġ
zhÃ¨Ġ cÃ¬Ġ
xiÃłngĠ nÃ¡nĠ
zhÃŃĠ lÃ¹
bÄĽiĠ cÃ¨Ġ
yÄ«ngĠ wÇĶĠ
wÅ«Ġ lÇĶĠ
ĠjÄ«ngĠ chÃ¡ng
ĠgÅįngĠsÄ« ĠzÃłiĠ
ĠbÃ¹ĠjiÇĶ ĠhÃ²uĠ
ĠwÃ¨iĠyÃºĠgÄģiĠ shÄĽngĠ
Ġ yÃł
Ġ qiÄģngĠ
ĠĠĠ gÃ¨
ĠĠĠ xÃŃngĠ
yÃ¬Ġ yuÃ¡nĠ
ĠjÅ«n ĠjÃŃĠ
ĠjÅ«n ĠbÃ¨iĠ
ĠkÃ¨ ĠshÃ¬Ġ
suÇĴĠ shÇĶĠ
ĠjÃ¹Ġ lÃ¨Ġ
yÃłĠ kÄĵĠ
hÃ³ngĠ shuÇĲĠ
wÃ¡nĠ chÃ©ngĠdeĠ
bÃłiĠzhÃłnĠ tÃŃng
Ġ te
Ġ tuÃ¡nĠ
Ġ ruÇİnĠ
shÄĵng ĠyÃ¬Ġ
xÃ¬ng ĠyÇĶĠ
zÃ© ĠÄĽrĠ
lÃ¡n ĠzhÅįuĠ
huÃ¡n ĠyuÃ¡nĠ
suÄģn ĠyÃ¡nĠ
ĠdeĠ yÄ«nĠyuÃ¨Ġ
ĠguÃ³Ġ gÃ²ngĠ
ĠguÃ³Ġ fÃ¡ngĠ
ĠyÃ¬Ġ qÃŃng
ĠqÃŃ ĠyÃ¬Ġ
jiÄģnĠ chÃŃ
yÄ«nĠ cÇĲ
ĠyÄ«ngĠ bÃłngĠ
ĠdeĠmÃŃngĠ chÄĵngĠ
zhÇĲĠhuÄ« ĠbÃ¹Ġ
luÃ³ĠdÃ¬Ġ yÃłĠ
liÃ¡oĠnÃŃngĠ shÄĽngĠ
Ġ mÃ¨ng
Ġ liÃ¡oĠ
Ġ pÃºĠ
mÃŃng ĠzhÅįngĠ
shu Çİng
jiÄĵ ĠlÃ¬Ġ
zÇĶ ĠwÃ¨iĠ
jiÇĶ ĠmÃŃngĠ
gÃło ĠzhÅįngĠ
41 ĠniÃ¡nĠ
ang Ġ
ĠdeĠ qÃŃngĠkuÃłngĠ
ĠyÇĲ ĠchÃ©ngĠwÃ©iĠ
kÄĽĠ kÃło
chÄĵngĠ hÅ«
huÇĴĠ xÄ«ngĠ
ĠrÃºĠ cÇĲĠ
ĠĠĠ 2003ĠniÃ¡nĠ
qÅ« ĠyÃ¬ĠyuÃ¡nĠ
fÇİ ĠzhÅįngĠ
wÇĶ ĠwÃ¨iĠ
qiÄģn ĠxiÃłĠ
lÃ³u ĠdeĠ
ce ĠĠĠ
les Ġ
ĠshÃŃĠ huÃ¬Ġ
ĠÄĽr ĠkÃ¨Ġ
ĠjiÄģĠ qiÃ¡ng
ĠchÅ«Ġ sÃłiĠ
jiÄĵĠ shÅįu
chÄĵĠ shÇĴuĠ
cÃ¨Ġ lÃ¼Ã¨
xuÃ©ĠyuÃłn ĠdeĠ
8 ĠshÃŃĠ
ĠĠĠ 2ĠyuÃ¨Ġ
duÃ¬ ĠtÄģĠdeĠ
dÃ²ng ĠshÃ¬Ġ
zuÃ¬ ĠxÃŃngĠ
fÃłn ĠdeĠ
mÃ©ng ĠdÃ©Ġ
gÄĽi ĠshÃ¬ĠzhÅįngĠ
zÅ«n ĠzhÃ²ngĠ
duÃ² Ġ
chÃ©ngĠ dÃ¹Ġ
ĠjÃŃĠ zhÃ¬Ġ
pÃŃngĠ gÅ«Ġ
xiÃłĠ tiÄģnĠ
ĠtÃ³ng ĠyuÃ¨Ġ
dÃ¡Ġ nÃŃ
chÃ³ngĠ zÇĶĠ
jÇĲĠ zhuÄ«
ĠshÃ¬ĠshÃ¬Ġ jiÃ¨Ġ
ĠmÇİ ĠÄĽrĠ
fÄĵnĠbiÃ© ĠshÃ¬Ġ
Ġ bÃ¬
Ġ 1995
yÅįng ĠzhÃ¨ngĠ
49 ĠniÃ¡nĠ
AK B48
begin Ġ
ĠyÃºĠ 2009
ĠrÃ©nĠ bÃ¹Ġ
sÄ«Ġ tÃ¨Ġ
ĠdÃłĠ gÃ©ĠmÃ¬ngĠ
shÃłngĠ shÄĵngĠ
ĠzhÄ«Ġ qiÃºĠduÃ¬Ġ
xiÄģngĠ xÃ¬n
hÇİiĠ xiÃ¡
tÃŃĠ jiÄģoĠ
ĠduÅįĠ shÃ¹Ġ
yÇĲĠ qiÃ¡nĠ
fÄģĠdiÃłnĠ chÇİngĠ
Ġ xiÄģo
ĠĠĠ cÃ³ng
ĠĠĠ 1ĠyuÃ¨Ġ
zhÃ¹ ĠshÃ¬Ġ
duÅį ĠlÃ¬ĠyÃł
lÃº ĠxÃŃngĠmÃ¹Ġ
as Ġ
yuÃ¡nĠ yÄ«nĠ
ĠsÄ«Ġ xiÇİng
xÄ«nĠ zÄĵngĠ
kÄģiĠ bÃłnĠ
mÃŃnĠ zhÃ¨ngĠ
bÄĽnĠ shÄĵn
kÇĴuĠ hÃłoĠ
ĠjÃ¹Ġ chÇİngĠ
zÃºĠ gÃ²uĠ
ĠdeĠyÄ«Ġ xiÄĵ
ĠdeĠchÃ©ngĠ gÅįngĠ
duÃ³Ġ qÇĶĠ
Ġ zhÄģ
ĠĠĠ lÃ¬ng
yÃ¹ ĠshÃ¬Ġ
fÇİ ĠzhÃ¬Ġ
lÃŃn ĠjÃ¬n
zhÅ« ĠduÅįĠ
wÄĵn ĠquÃ¡nĠ
BS Ġ
1903 ĠniÃ¡nĠ
yÄ«Ġ mÃŃngĠ
ĠyÃºĠ 2010
jiÄģĠ zÃºĠ
xÄ«nĠ zÄĵng
xiÄģngĠ hÃ¹
nÃ¡nĠ zhÇĶĠjuÃ©Ġ
ĠdÃ©Ġ lÃ¡nĠ
mÃ¬Ġ qiÃ¨Ġ
ĠshÃ¹Ġ jÃ¹Ġ
ĠbÃ¹ĠtÃ³ng ĠyÃºĠ
ĠfÄģĠ biÇİoĠ
bÄģĠshÃ¬Ġ lÃ¹ĠxiÃłnĠ
ĠgÄĵĠ lÃºnĠ
ĠĠĠgÃłiĠ shÃ¹Ġ
ĠshÃ¬ĠwÄĵiĠ zhÄĽĠ
Ġ li
ĠĠĠ jÄ«ngĠ
xuÃ© ĠjÃŃĠ
zÇĴng ĠshÃ¬Ġ
63 ĠniÃ¡nĠ
BD Ġ
ĠdeĠ shuÅįĠfÇİĠ
ĠdÃ¬Ġ liÃ¹
ĠrÃ¬ ĠyuÃ¡nĠ
ĠyuÃ¡nĠ sÃ¹
ĠrÃ¬Ġ ÄĽrĠ
ĠjiÄģĠ shÃłng
ĠmÃŃngĠ lÃ¹Ġ
ĠdÃ©Ġ fÄĵnĠ
yÃ¹Ġ gÃłoĠ
mÃ¹Ġ dÃ¬ĠshÃ¬Ġ
juÃ©Ġ sÃłiĠdeĠ
kÄĽĠ qiÃ¡nĠwÇİngĠ
ĠjÃ¹Ġ bÃ¨iĠ
ĠzhÃŃĠ wÃ¹Ġ
kÄĽnĠ tÇİĠjÄ«Ġ
ĠdÃłĠshÇĲĠ guÇİnĠ
ĠyÃ²ng ĠyÇĲĠ
Ġ 700
Ġ yuÃ¡nĠwÃ¨iĠ
yÃ¹ ĠwÃ¨iĠ
dÃłi ĠÄĽrĠ
tÃ³ng ĠbÃ¹Ġ
zhÃŃ ĠrÃ©nĠyuÃ¡nĠ
tÃ¨ ĠyÇĶĠ
shÃ©n ĠfÃ¹Ġ
kÇİ ĠdeĠ
lÃ¨ ĠbÇĲĠ
nÃŃng ĠxiÃłĠ
ly ĠĠĠ
Mu sic
ĠdÃłoĠ lÃ¹
jiÄĵĠ tÃ¬
jiÃ¨Ġ sÃłiĠshÃ¬Ġ
xiÄģnĠ qiÃ¡nĠ
ĠduÅį ĠmÃŃngĠ
ĠK Ġ
guÇİngĠbÅįĠ diÃłnĠtÃ¡iĠ
ĠsectionĠĠĠ beginĠ
Ġ shÃłn
Ġ 98
liÃ¡n ĠxiÃłnĠ
lÃŃn ĠjÃ¬nĠdeĠ
guÇİn ĠdÃłoĠ
tuÅį ĠkÃ¨Ġ
huÃ¡n ĠqiÃºĠ
et ĠĠĠ
37 Ġ
58 ĠniÃ¡nĠ
ĠdeĠ guÄģnĠxÃ¬Ġ
ĠniÃ¡nĠ lÃŃng
ĠwÃ¨iĠ bÃ¹Ġ
ĠbÃ¹Ġ dÃłĠ
ĠyÇĴuĠ hÇİoĠ
ĠhÃ²uĠ fÄģngĠ
ĠjÄ«Ġ zhÃ²ngĠ
fÃ¹Ġ gÃłiĠ
jiÃłoĠ shÇİoĠ
ĠhuÃ²Ġ yÃ¹nĠ
kÇİĠ sÄ«ĠdÃ¬ĠlÃ¬Ġ
biÄģoĠ tÃŃĠ
kÄģiĠshÇĲĠ leĠ
tuÄ«Ġ cÃ¨Ġ
mÃłoĠ xiÇİn
hÃ¹nĠ xiÃ¡o
sÄģnĠjiÇİo ĠxÃŃngĠ
3 ĠhÃłoĠ
5 ĠmÃŃngĠ
Ġ yÇĲngĠ
Ġ biÄģoĠzhÇĶnĠ
Ġ 1956ĠniÃ¡nĠ
ĠĠĠ ÄģnĠ
fÇİ ĠrÃ©nĠ
wÃ©n ĠdÃ¬Ġ
zuÃ¬ ĠjÃ¬nĠdeĠ
ĠbÃ¹Ġ luÃ²
ĠchÃ©ngĠ zhÃ¨n
ĠqiÃº ĠjÃ¬Ġ
suÇĴĠ zÃłiĠdeĠ
jiÄĵĠ tÃ³uĠ
shÃ©nĠ mÃ¬Ġ
ĠĠĠbÄĽnĠ shÇĶĠ
ĠdeĠzhÇĶĠ tÃŃĠ
fÃ¹ĠzÃ© ĠrÃ©nĠ
ĠĠĠqÃŃ ĠhÃ²uĠ
Ġ rÃ¹
Ġ 57
Ġ Ra
Ġ fÃ¡nĠ
shÇĴu ĠshÃ¬Ġ
shÇĴu ĠÄĽrĠ
guÃ² ĠshÃ¬Ġ
wÇĶ ĠdÃłĠ
shÃ©n ĠxuÃ©Ġ
kÃłn ĠdÃło
zÇİi ĠxiÃłngĠ
55 ĠniÃ¡nĠ
ĠzÃłiĠ jÃŃĠ
ĠjiÃłn ĠjiÃłnĠ
jÃ¹Ġ tÇĲĠ
ĠyÄ«n ĠhÃ©Ġ
tÃ¨Ġ shÅ«ĠdeĠ
mÃ¹Ġ shÄ«Ġ
bÇİoĠhÃ¹Ġ qÅ«Ġ
ĠdeĠjÄ«Ġ bÄĽnĠ
xÃºnĠhuÃŃĠ yÇİnĠchÃłngĠhuÃ¬Ġ
jiÄĵĠxiÃłĠ lÃ¡iĠdeĠ
Ġ zÃ¨ng
le ĠyÇĲĠ
zhÃŃ ĠyÃºĠ
liÃº ĠyÃ¬Ġ
qÃ¬ ĠzhÅįngĠ
jiÃ¹ ĠrÃ¨nĠ
chuÃłng ĠyÃ¬Ġ
1916 ĠniÃ¡nĠ
Lin ux
ĠyÃ¬Ġ chÃ©ngĠ
ĠdÃłn ĠzhÃ¨Ġ
ĠrÃ¨nĠ qÄ«Ġ
lÃŃnĠ chuÃ¡ng
xuÇİnĠ xiÃ¹
ĠhuÃ²Ġ shÃ¨ngĠ
dÇİĠ pÃ²Ġ
zhÃ¨ngĠshÃ¬Ġ chÃ©ngĠlÃ¬Ġ
ĠhÃ²uĠlÃ¡i ĠbÃ¨iĠ
mÃŃĠnÇĲĠ zhuÄģnĠjÃŃĠ
Ġ chÇĲĠ
Ġ ÄĵnĠ
Ġ kÃłnĠ
Ġ sÄģnĠniÃ¡nĠ
bÄģ ĠkÃ¨Ġ
liÃ¨ ĠjiÃłnĠ
bÃłn ĠbÃ¹Ġ
hÃº ĠdeĠ
ĠhÃ©Ġ rÃ©nĠ
ĠbÃ¹Ġ bÄ«ng
ĠyÄ«Ġ gÃ²ngĠ
ĠjÃ¬Ġ sÃ¬Ġ
shÇĴuĠ dÃ¹Ġ
fÃºĠ lÇİng
shÄģnĠ dÇĲngĠ
cÃ¨Ġ huÃłĠ
ĠjiÃ© ĠhÃ©Ġ
dÅįngĠnÃ¡nĠ yÃłĠ
Ġ 1989
ĠĠĠ yÄ«ngĠ
jiÄģng ĠbÃ¨iĠ
wÃ©n ĠsÄ«Ġ
yÃ¨ ĠzhÅįngĠ
lÄģ ĠkÃ¨
dÇİo ĠxiÃłnĠ
shÃ©n ĠqÃŃĠ
cÃºn ĠyÃºĠ
guÃłn ĠmÃ¹Ġ
kÇĴng ĠjÃ¹Ġ
round Ġ
jÃ¬Ġ suÃłnĠ
ĠyÃ¬Ġ zuÃ²Ġ
fÄĵnĠ zÇĶĠ
yÃłĠ tÃ¨Ġ
jiÄģoĠ diÇİnĠ
ĠyÇĴuĠyÄ«Ġ xiÄĵ
nÃ¡ĠpÃ²Ġ lÃºnĠ
Ġ 1946
Ġ bÃ³ĠshÃ¬Ġ
yuÃ¨ ĠĠĠ
xÃŃ ĠjÃ¬nĠpÃŃngĠ
duÄ« Ġ
ĠbÃ¹Ġ gÅįngĠ
yÄ«Ġ xiÄĵ
ĠguÃ³Ġ jÃ¬
ĠyÄ«Ġ duÃ¬Ġ
ĠdÃłoĠ dÃ©Ġ
ĠxÃŃngĠ wÃ©i
ĠjiÄģĠ lÄģĠ
yÃ¡nĠ sÃ¨
ĠÃ©rĠ fÄĵi
ĠjÅ«nĠ zhÇİngĠ
kÇĴuĠ jÃ¬ngĠ
xÃ¬ngĠ cÃºnĠ
chÇİngĠ jÇĲng
chÃ¡ngĠ shÄģĠ
shÃ²uĠ mÃ¬ngĠ
ĠxÄ«nĠ jiÄģngĠ
chuÃ¡nĠ jiÃłoĠshÃ¬Ġ
xÄ«ngĠ qÇĲĠ
jiÇĶĠ bÄģĠ
cÄģnĠ kÇİo
kÄģnĠ wÃ¹Ġ
tiÄĽĠlÃ¹ ĠgÅįngĠsÄ«Ġ
sÄ«ĠdÃ¬Ġ ÄģnĠ
ĠdÃłĠduÅįĠ shÃ¹
yÇĴu ĠbÃ¹ĠtÃ³ngĠ
dÃ¹ ĠshÃ¬Ġ
cÃ¬ ĠquÃ¡nĠguÃ³Ġ
lÃ¡n ĠdÃ©Ġ
yÃŃng ĠdÃ¬Ġ
guÃ¬ ĠdeĠ
zhuÃłn ĠjÃ¬Ġ
52 ĠniÃ¡nĠ
zhÃ¬Ġ zÃłoĠ
ĠrÃ©nĠ jÃŃĠ
ĠchÃ©ngĠ guÇĴĠ
mÃŃngĠ xiÇİnĠ
shÄĵngĠ zhÇİngĠ
jiÄĵĠ tÃ¬Ġ
ĠshÃ¨Ġ bÃ¨i
luÃ²Ġ shÄģnĠ
ĠzhÃ¨ ĠlÇĲĠ
dÇİoĠzhÃ¬Ġ leĠ
ĠzhÇĲĠ nÃ©ngĠ
ĠqÇĲĠ yÃ¨Ġ
liÃ¡nĠxÃ¹ ĠjÃ¹Ġ
Ġ zhÇİng
Ġ 1985
Ġ chÃ¨ĠxiÄģoĠ
ĠĠĠ jiÄģngĠ
yÃ³u ĠdeĠ
biÃłn ĠlÃ¬Ġ
ar ĠĠĠ
yÃłng ĠbÄĽnĠ
yuÄĵĠ 1
shuÇĲĠ kÃ¹
dÃºĠ tÃ¨Ġ
ĠdÄģngĠ jÃºĠ
yÃ©Ġ fÅ«Ġ
Ġ kÇİo
Ġ Te
Ġ 1979ĠniÃ¡nĠ
ĠĠĠ dÃłiĠ
shÃł Ġ
tÃ³ng ĠzhÃ¬Ġ
kÄĽ ĠyÃ³uĠ
shuÇĲ ĠyuÃ¡nĠ
ĠzÃłiĠ yÃŃĠgÃ¨Ġ
ĠxÃŃngĠ zÇĴuĠ
duÃ¬Ġ kÃłngĠ
yÃ³uĠ lÃ¡iĠ
shÃ¹Ġ zhÃŃĠ
chÃ¡ngĠ zhÃ¹
bÇİoĠ yÃ¹Ġ
nÃŃĠ gÇĶĠlÄģĠ
ĠxiÄģngĠ fÇİnĠ
wÇİngĠ mÃŃnĠ
cÃŃĠ shÃłn
chÇĶĠ lÇĲ
Ã©rĠ zi
ĠfÄģĠ biÇİo
ĠtÃ¡iĠ bÄĽi
ĠÃ¨r ĠyuÃ¨Ġ
mÄĽiĠshÃ¹Ġ guÇİnĠ
zhuÄ«ĠsÃ¹ ĠzhÃ¬Ġ
ĠsectionĠĠĠ endĠ
hÃłnĠlÃŃnĠ yuÃłnĠ
9 ĠgÃ¨Ġ
b li
Ġ gÃłi
Ġ 1981ĠniÃ¡nĠ
ĠĠĠ zhÃ¹ĠzuÃ²Ġ
dÃ© ĠkÃ¨ĠsÃłĠsÄ«Ġ
hÇİi ĠjÅ«nĠdeĠ
tÃ¡i ĠjÃŃĠ
dÇİo ĠdÃłn
shÄģn ĠhÃ©Ġ
mÃ¬ ĠxÄ«ĠxÄ«Ġ
ĠdeĠ Ã©rĠziĠ
ĠniÃ¡nĠ dÃ¹
ĠlÃ¬Ġ jÄ«ngĠ
ĠdÃłĠ liÃłngĠdeĠ
ĠjÅ«n ĠgÅįngĠ
ĠwÃ©iĠ yÄ«ĠdeĠ
bÇİoĠ xiÇİn
cÃ¬Ġ ziĠ
sÃ¬Ġ yuÃłnĠ
jiÇİnĠ pÇĶĠ
jÇĲngĠ bÃłoĠ
ĠhuÃ²ĠdÃ© ĠyÄ«ĠmÃ©iĠ
mÃ¨ngĠjiÄģĠ lÄģ
Ġ hÅ«Ġ
ĠĠĠ ÃłiĠ
sÄ« ĠjÃŃĠ
shÃłng ĠyÇĶĠ
qiÃ¡n ĠyÄ«Ġ
liÃº ĠxÃŃngĠdeĠ
huÃ¡ng ĠhÃ©Ġ
chuÄģn ĠzhÃ¹Ġ
mÄģ ĠzÇĶĠ
ĠyÃ¬Ġ tÃŃĠ
ĠyÇĲ ĠgÅįngĠ
ĠtÄģĠ yÄĽĠshÃ¬Ġ
ĠchÅ«Ġ shÄĵngĠzÃłiĠ
lÃ¹Ġ kÇĴuĠ
ĠjÅ«nĠ tuÃ¡n
zÃ©Ġ rÃ¨n
zÄ«Ġ jÄ«n
quÃ¨Ġ bÇİo
gÇİnĠ qÃŃngĠ
pÃłiĠ qiÇİnĠ
suÃŃĠ zhe
ĠzhÇĲĠ yÃłoĠ
ĠjiÄģng ĠjÅ«nĠ
ĠbÇİoĠ luÃ³Ġ
biÃłnĠchÃ©ngĠ leĠ
gÃłoĠshÃ¬Ġ pÃ¡iĠ
Ġ zÅįngĠjiÃłoĠ
bÃ¨i ĠrÃ©nĠ
yÄĽ ĠshÄĵngĠ
kÄĵ ĠjÃ¬nĠshÃ¬Ġ
zhuÄģng ĠyÇĴuĠ
jiÃł ĠrÃ¬Ġ
ruÃ¬ ĠkÃ¨Ġ
ĠdeĠ wÃ¨nĠtÃŃĠ
ĠbÃ¹Ġ zÃº
ĠshÃŃĠ qÄ«ĠniÃ¡nĠ
sÄ«Ġ fÇİĠ
ĠyÄ«Ġ xÃ¬ĠliÃ¨Ġ
ĠjiÃłnĠ zhÃ¨ngĠ
qÃ¬Ġ guÄģnĠ
qiÄģnĠ wÇİngĠ
cÇİiĠ fÇİngĠ
mÃłnĠ huÃł
dÃŃĠ yÃłĠ
xiÃ¡Ġ zhÇİi
Ã¨Ġ tÃºĠ
shÄĽnĠ yÃ¡ngĠ
Ġ tÃ¡o
Ġ 1948ĠniÃ¡nĠ
sÃłi ĠshÃ¬ĠzhÅįngĠ
zhÃ²ng ĠyÃ¬ĠyuÃ¡nĠ
10 ĠgÃ¨Ġ
yuÄĵ ĠkÃ¨Ġ
nÇļ ĠshÃ¬Ġ
mÇĶ ĠshÃ¬Ġ
shÃŃĠ dÃłiĠ
ĠbÃ¹Ġ yÇĶĠ
xÄ«Ġ fÄģngĠ
ĠjÄ«Ġ qÃ¬Ġ
kÄģiĠ qÇĲĠ
fÄģĠ yÃ¡nĠ
ĠzhÅįuĠ biÄģn
ĠshÃ¨Ġ dÃ¬ngĠ
ĠxiÃłĠ xiÃ¡Ġ
jÇĲngĠ bÃło
zhÄĵngĠ qÇĶ
zhuÄģnĠ kÄĵĠxuÃ©Ġ
ĠrÃ©nĠkÇĴuĠ pÇĶĠchÃ¡Ġ
ĠxÃ¬ngĠ biÃ©Ġ
zhÃłnĠzhÄĵng ĠzhÅįngĠ
ĠkÄĵ ĠÄĽrĠ
mÃ¡oĠzÃ©Ġ dÅįng
ĠjiÄĵĠwÃ¨iĠ lÃ¹ĠdÃ¬Ġ
Ġ wÃłngĠ
Ġ kÄĽĠnÃ©ngĠshÃ¬Ġ
ĠĠĠ zhÃłnĠhÃ²uĠ
yÇĴu ĠshÃ¬Ġ
xiÃłn ĠzÃłiĠ
lÃŃn ĠshÃ¬Ġ
yÃ¡ng ĠjÄ«Ġ
mÇĶ ĠyÇĶĠ
90 ĠniÃ¡nĠ
na Ġ
ĠwÃ¨iĠ gÄģiĠ
ĠzÃłiĠ tÃ¡iĠwÄģnĠ
xiÃłngĠ liÃłngĠ
ĠtÃ³ng ĠniÃ¡nĠ9ĠyuÃ¨Ġ
tÃºĠ jÄ«ngĠ
zhÄĵngĠ qÃ¬Ġ
ĠliÇİng ĠguÃ³Ġ
ĠÃło ĠdÃ¬ĠlÃ¬Ġ
mÃ¨iĠ mÃ¨i
ĠzÃłiĠzhÅįngĠguÃ³Ġ dÃłĠlÃ¹Ġ
wÃ¡ngĠchÃ¡o ĠdeĠ
Ġ yuÃłnĠ
Ġ qÃºnĠ
dÄģng ĠdÃłiĠ
zhÇĴng ĠjiÄģĠ
qiÄģn ĠshÃ¬Ġ
dÇİ ĠjÃ¬nĠ
bÄĵi ĠdeĠ
59 ĠniÃ¡nĠ
ĠshÃŃĠ shÃŃĠ
ĠyuÃ¨Ġ qÃ¬Ġ
ĠzhÄ« ĠyÃºĠ
mÃŃngĠ chÄĵng
ĠtÄģĠ cÃ³ngĠ
jiÃ©Ġ hÅ«n
ĠduÃ¬Ġ yÃ¬ngĠ
ĠjÃ¹Ġ fÄĵngĠ
yÃŃĠ jÅ«Ġ
yÇİnĠ huÃł
guÄ«Ġ gÃ©Ġ
ĠwÃłnĠ mÄĽiĠyuÃ¡nĠdeĠ
zÃºĠqiÃºĠ liÃ¡nĠsÃłiĠ
ĠzÃłiĠcÇĲĠ qÄ«ĠjiÄģnĠ
yÃ³uĠxÃ¬ ĠzhÅįngĠ
lÇĲĠgÅįngĠ dÃłĠxuÃ©Ġ
ĠshÃ¬ĠshÃ¬ĠjiÃ¨ ĠshÃłngĠ
Ġ 88
lÃ¡i ĠdÃ©Ġ
hÃ³ng ĠshÃŃĠzÃ¬Ġ
gÇİn ĠdeĠ
rÃ©ng ĠshÃ¬Ġ
wÃ² ĠsÄ«Ġ
qÃº Ġ
ted ĠĠĠ
ĠwÃ¨iĠ rÃ¨ĠdÃłiĠ
ĠhÃ©Ġ mÇİĠ
duÃ¬Ġ fÄģngĠ
ĠwÃ©iĠ kÃ¨Ġ
ĠrÃ¡n ĠÃ©rĠzÃłiĠ
cÃ¡iĠ dÃ¬ngĠ
dÃºĠ shÅ«Ġ
ĠguÃ²Ġ chÃ©ngĠzhÅįngĠ
ĠmÇİĠ dÄ«ngĠ
gÄĵngĠ huÃłn
3 ĠgÅįngĠlÇĲĠ
Ġ xiÃ©
Ġ 1955ĠniÃ¡nĠ
ĠĠĠ 2002ĠniÃ¡nĠ
yÇĴu ĠbÃ¹ĠtÃ³ngĠdeĠ
duÃ¬ ĠchÃ©ngĠyuÃ¡nĠ
tÃłi ĠÄĽrĠ
shÃ¹n ĠtiÄģnĠ
dÃ¬Ġ sÄģnĠ
chÃ©ngĠ zhÃ¨nĠ
ĠyÄ«Ġ xuÃ©ĠyuÃłnĠ
ĠdÃłĠ yÇĶĠ
ĠjÄ«Ġ qÃ¬ĠrÃ©nĠ
fÃ¹Ġ zÃ¡Ġ
ĠzhÃ¨ngĠ dÇİngĠ
ĠtÃ³ng ĠniÃ¡nĠ11ĠyuÃ¨Ġ
zÄ«Ġ biÃ©
huÃ¡Ġ xuÄĽĠ
zÃºĠ gÃ²uĠdeĠ
ĠjiÃ©Ġ shÃ¹
gÄģngĠ qÃŃn
suÃŃĠ zhÃ¹
ĠĠĠlÃ¬ĠshÇĲĠ yÃ¡nĠgÃ©Ġ
fÄģĠshÄĵngĠ hÃ²uĠ
pÃŃnĠ kÃ¹n
ĠdÃ¬ĠshÃŃĠ Ã¨rĠ
yÃºnĠnÃ¡nĠ shÄĽngĠ
Ġ re
lÇĲ ĠzÃłiĠ
gÃ¨ ĠgÃ¨Ġ
fÃ¹ ĠbÃ¹Ġ
tÃłi ĠjÃŃĠ
ly Ġ
Net fli
yÃ¬Ġ bÄģnĠ
ĠrÃ©nĠ shÃ²uĠshÄģngĠ
guÄģnĠ yÄ«nĠ
jÄ«ngĠ yÄ«ngĠ
jÄ«nĠ qÇĶĠ
ĠrÃ¨nĠ zhÃ¨ngĠ
nÇļĠ gÄĵĠshÇĴuĠ
yÇĲnĠ qÃŃng
jÃºĠ miÃłnĠ
ĠshÃ¬ĠjiÃ¨ ĠgÃ¨ĠdÃ¬Ġ
dÅįngĠjÄ«ngĠ dÅ«Ġ
tÃ³uĠrÃ¹Ġ shÇĲĠyÃ²ngĠ
liÃ¡nĠsÃłi ĠqiÃºĠduÃ¬Ġ
ĠlÃ¬ĠfÇİĠ wÄĽiĠyuÃ¡nĠ
ĠISTAT ĠdÃłiĠmÇİĠwÃ¨iĠ
Ġ ÅįuĠzhÅįu
ĠĠĠ huÃ²
shÇĲ ĠsÄ«Ġ
fÄģ ĠyÄ«nĠ
xiÄģng ĠdÃłoĠ
xiÃłng ĠtÄģĠ
huÃŃ ĠfÃ¹Ġ
lÃºn ĠlÇĲĠ
dÃłĠ dÅįngĠbÃ¹ĠdÃłĠqÅ«Ġ
ĠgÅįngĠ zhÃ²ng
ĠhÃ²uĠ lÃ¡iĠdeĠ
yÃ¹Ġ shÇĲĠ
ĠbÃ¬ngĠ jiÄģngĠqÃŃĠ
kÄĽĠ fÄĵnĠwÃ©iĠ
nÃ©ngĠ lÃ¬ĠdeĠ
bÄģĠ hÃ¨Ġ
dÇİngĠ wÄĽiĠ
qiÄģnĠ rÃ¹Ġ
ĠhÃ©ĠguÃ³Ġ jiÄģĠ
ĠjiÇĶ ĠyuÃ¨Ġ
ĠniÃ¡nĠshÃ¬ĠjiÃ¨Ġ bÄĵiĠ
p ĠĠĠ
Ġ qiÃ¡o
Ġ qiÃ³ng
Ġ 1947ĠniÃ¡nĠ
ĠĠĠ zuÃ²Ġ
yÃ¹ ĠyÇĴuĠ
cÇĲ ĠyÄ«Ġ
shÄĽn ĠyÃ¬Ġ
ĠdeĠ shÃ¨ĠjÃ¬Ġ
ĠwÃ¨iĠ gÅįngĠ
ĠyuÃ¨Ġ dÃºĠ
ĠyuÃ¨Ġ qiÃºĠ
diÃłnĠ rÃ³ngĠ
hÇİiĠ wÃłi
ĠbÄĽnĠ tÇĶ
lÇľĠ shÄ«
xiÄģnĠ fÄģĠ
ĠzuÃ¬Ġ hÃ²u
shÇİnĠxÄ«Ġ shÄĽngĠ
jiÄģĠlÃ¬ĠfÃºĠ nÃŃĠyÃł
Ġ zÃłi
Ġ shuÅį
Ġ Ga
Ġ biÃ©Ġ
Ġ guÇİngĠzhÅįuĠ
ĠĠĠ duÅįĠ
yÇĶ ĠĠĠ
huÃ¬ ĠchÃ©ngĠyuÃ¡nĠ
shÃ¨ ĠjÄ«Ġ
jiÃło ĠyÃ¬Ġ
jÄ«n ĠzhÅįngĠ
ĠzÃłiĠ bÄĽiĠjÄ«ngĠ
jÃ¬Ġ hÃ²uĠ
ĠyÇĶĠ lÇĲĠ
dÃłiĠ lÃ¡iĠdeĠ
diÃłnĠ lÃ¹Ġ
biÄģnĠ fÃºĠ
sÄģiĠ bÃłi
shÄĽnĠ pÃłn
kÄĵĠjÃ¬Ġ dÃłĠxuÃ©Ġ
Ġ Ri
Ġ 1946ĠniÃ¡nĠ
jÃ¹ ĠrÃ©nĠ
pÃŃng ĠjÃŃĠ
pÃŃng ĠxÄ«Ġ
fÃº ĠkÃ¨Ġ
fÇİng ĠzhÄ«Ġ
2026 ĠniÃ¡nĠ
ĠshÃŃĠ zÃ¬
chÃ©ngĠ rÃ¨nĠ
ĠzhÄ«Ġ nÇļĠ
jÄ«ngĠ fÃ¨iĠ
lÃ¡iĠ wÇİngĠ
ĠbÃ¬ngĠ xiÃłngĠ
ĠkÃ¨Ġ lÇĶĠ
ĠshÃłngĠ shÄĵngĠ
fÃłnĠ diÃłnĠ
ĠrÃºĠ jÄ«nĠ
ĠshÃ¬ĠyÄ«ĠkÄĵĠ hÃ©ngĠxÄ«ngĠ
mÃ³ĠtÃ¨ ĠÃ©rĠ
sÄ« ĠyÃºĠ
shÃłng ĠyÇĲĠ
huÃł ĠxiÃłnĠ
fÇİ ĠhÃ©Ġ
rÃłng ĠrÃ©nĠ
lÃ¬Ġ ziĠ
zhÇĶĠ guÇİnĠ
ĠshÄĵngĠ chÄĵng
qÇĲĠ fÄģĠ
ĠqÃŃĠzhÅįngĠ bÄģoĠkuÃ²
hÃ¡nĠ gÃłiĠ
bÇĶĠ rÇĶ
rÃ¨Ġ mÃ©nĠ
ĠbÅįĠ luÃ³Ġ
niÇĶĠyuÄĵ ĠshÃ¬Ġ
3 ĠĠĠ
Ġ xÇĲ
Ġ pÃŃnĠdÃłoĠ
Ġ 1937ĠniÃ¡nĠ
ĠĠĠ qÃ¬ĠhÃ²uĠ
zuÃ² ĠhÃ©Ġ
nÃ¡n ĠzhÃ¬Ġ
dÃ¡ ĠhÃ©Ġ
dÅįu ĠyÇĲĠ
zhÃ¬Ġ liÃ¡oĠ
ĠgÅįngĠ guÃ³Ġ
ĠyÄ«Ġ lÇİngĠ
wÃ©nĠ bÄĽnĠ
gÃ²uĠ wÃ¹Ġ
ĠjiÄĵĠ zhÃ¹Ġ
ĠfÃº ĠlÇĲĠ
ĠdÃ¬ĠÃ¨r ĠgÃ¨Ġ
ĠyÃłĠ mÄĽiĠ
chuÃłngĠbÃłn ĠrÃ©nĠ
5 ĠĠĠ
s ti
Ġ zhÃ¨n
Ġ zhÄĵngĠyuÃ¨Ġ
bÃ¨i ĠbÃ¹Ġ
dÅįu ĠyÃ¹ĠshÇĲĠ
shÄģ ĠleĠ
zÃłn ĠchÃ©ngĠ
ĠshÃ¬Ġ jiÄģngĠ
ĠdÃ¬Ġ chÇĶĠ
ĠxiÃłn ĠlÃ¬Ġ
ĠdÃłiĠ lÇĲngĠ
yuÃłnĠ xiÃłoĠ
tiÃ¡nĠ xÃ¬nĠ
sÃłĠ zhÅ«Ġ
jiÃłnĠzhÃ¹Ġ wÃ¹Ġ
gÄĵĠqÇĶ ĠdeĠ
mÃ¹ĠnÃŃĠ hÄĵiĠ
ĠqÄ«ĠxÄ«Ġ shÄĵnĠdÃ¹Ġ
Ġ zhÇĶnĠbÃ¨iĠ
Ãłng Ġ
Ã¡i Ġ
jiÄģ ĠshÃŃĠ
jÅ«n ĠrÃ©nĠ
jÃ¬n ĠchÃ©ngĠ
huÃ¡ ĠyÇĶĠ
diÇİn ĠwÃ¨iĠyÃºĠ
lÇĶ ĠjÃŃĠ
51 ĠniÃ¡nĠ
ĠrÃ©nĠ shÃ¹
ĠdÃłoĠ guÄģngĠ
dÃ²ngĠ wÃ¹ĠdeĠ
dÅįngĠ bÃ¹ĠdeĠ
juÃ©Ġ cÃ¨Ġ
bÇĲĠ cÇĲĠ
lÃŃnĠ nÃłĠ
xuÇİnĠ piÃłoĠ
biÃłnĠ gÄĵng
zhÄĵngĠ duÃ³
ĠxiÃłngĠ zhÄĵngĠ
pÃ¡iĠ hÃ¡ng
ĠdeĠyÄ«Ġ zhÇĴng
shÄĽnĠ chÃ¡
miÃ¡oĠshÃ¹Ġ leĠ
ĠfÄĵi ĠlÃ¬Ġ
ĠliÃ¹ ĠyuÃ¨Ġ
Ġ gÄĵĠqÇĶĠ
shÄ« ĠlÃ¬Ġ
wÃłi ĠxÃŃngĠ
zÄ« ĠdeĠ
ke Ġ
tuÇĲ Ġ
ĠjÃ¬Ġ zhÄĽĠhuÃ¬Ġ
ĠdÃ© ĠyÃ¬Ġ
qÄ«Ġ kÄģnĠ
gÄģoĠ fÄĵngĠ
qÄ«ngĠ hÇİiĠ
biÄģnĠ jÃ¬ng
xiÄĵĠ gÄĵn
chÅįngĠ fÃ¨nĠ
zhÃłnĠdÃ²u ĠjÄ«Ġ
p ha
Ġ 1988
Ġ lÃ¨Ġ
ĠĠĠ Vi
qÅ« ĠyÃ¬Ġ
jÇĲ ĠnÃ¡nĠ
nÃ¨i ĠhÃ©Ġ
shÄĽng ĠzhÃ¨ngĠ
qÄ«n ĠshÃŃĠ
bÃłi ĠdeĠ
54 ĠniÃ¡nĠ
ler Ġ
ĠshÃ¬Ġ rÃ¬ĠbÄĽn
xÄ«nĠ shÄĵngĠ
lÃ¹Ġ yÇĲngĠ
jÄ«ngĠ tÇĲĠ
jiÃłoĠ xiÇİoĠ
bÄģnĠ diÇİnĠ
shÃ¨Ġ dÃ¬ngĠ
ĠxÃŃngĠzhÃ¨ng ĠzhÅįngĠxÄ«n
Ġ pÃłoĠ
zuÃ² ĠyÇĴuĠ
shÃłng ĠhÃ©Ġ
shÇĴu ĠbÃ¨iĠ
zhÇİng ĠlÇĲĠ
sÄģn ĠguÃ³Ġ
yuÃłn ĠhÃ©Ġ
bÇİo ĠshÃ¬Ġ
jiÃ¹ ĠyÇĲĠ
mÃ©ng ĠyÇĴuĠ
cÃ¹ Ġ
zhÄĽn ĠduÃłnĠ
chÃ¡i ĠyÃ³uĠ
ĠgÅįngĠ jÄ«n
ĠgÅįngĠ bÃ¹ĠdeĠ
ĠchÃ©ngĠ qiÃ¡ngĠ
ĠyuÃ¡nĠ lÃ¡iĠdeĠ
ĠzhÃłnĠ lÃ¼Ã¨Ġ
jiÄĵĠ qÅ«Ġ
qÄ«ngĠ chÃ¡o
shÃ©nĠ jÄ«ng
ĠbÃ¬Ġ yÃ¨ĠhÃ²uĠ
duÃ³Ġ guÃłnĠ
ĠgÄģiĠshÄĽngĠfÃ¨nĠwÃ¨iĠfÇİĠguÃ³Ġ bÄĽiĠbÃ¹Ġ
sÄģiĠÄĽrĠwÃ©iĠ yÃł
guÃ³ĠdeĠtÃ¨ĠyÇĴuĠ zhÃŃĠwÃ¹Ġ
Ġ jÃ¬ng
Ġ liÇĶ
Ġ 1983
Ãłi ĠhÃ©Ġ
lÇĲ ĠyÇĴuĠ
xÄ«n ĠhÃ©Ġ
kÄĽ ĠxÃŃngĠ
yÇĴng ĠshÃ¬Ġ
zÄģo ĠdÃło
36 Ġ
ĠbÃ¨iĠ pÃłnĠ
jiÃłoĠ gÄģoĠdeĠ
fÄģĠ yÃ¹Ġ
liÃ¡nĠ bÅįĠ
jiÃ¨Ġ miÃłnĠ
ĠxÄ«nĠ wÃ©n
zÃºĠ zÇĴngĠ
jiÃłĠ shÇĲ
lÃ¹nĠ shÃ¹Ġ
shÇİoĠ liÃłngĠ
ĠcÃ©ng ĠyÃºĠ
niÃ¨Ġ cÃŃ
huÃ¡ĠshÃ¨ngĠ dÃ¹nĠ
Ġ 1952ĠniÃ¡nĠ
ĠĠĠ 11
wÇĶ ĠrÃ©nĠ
gÄģi ĠdÃ¬ĠqÅ«Ġ
nuÃ² ĠbÃ¨iĠÄĽrĠ
75 Ġ
ĠzÃłiĠ xiÃłĠ
ĠyuÃ¡nĠ xÃŃng
ĠÃ©r ĠyÇĴuĠ
ĠzhÅįu ĠguÃ³Ġ
yÃ¡nĠ lÃ¹n
fÄĵnĠ shÃ¹Ġ
xiÇİoĠ xiÃłngĠ
pÃ¡iĠ fÃłngĠ
tuÄ«Ġ fÄģnĠ
ĠzhÃŃĠ jÃ¬ngĠ
ĠsÄģn ĠguÃ³Ġ
rÇİnĠ sÃ¨Ġ
ĠĠĠ shÃ¨ĠhuÃ¬Ġ
xÄ«n ĠxÄ«ĠlÃ¡nĠ
Ã©r ĠchÃ©ngĠ
zhÃ²ng ĠxÃŃngĠ
tiÃ¡o ĠjiÃłn
dÄĵng ĠjÄ«Ġ
nÃŃng ĠxiÃłnĠ
1902 ĠniÃ¡nĠ
ĠzÃłiĠ kÃ¨Ġ
ĠyÃ¬Ġ miÃ¡o
shÄĵngĠ xiÃłoĠ
ĠqÃŃ ĠdÃ¬Ġ
ĠjÄ«Ġ dÃ²ngĠ
yÃ¡nĠ hÇİi
bÄĽiĠ kÇİĠluÃ³ĠlÃ¡iĠnÃł
ĠshÄĵngĠ mÃ¬ng
ĠzhÃ¨Ġ cÃ¬
ĠdÃłnĠ bÃ¡i
xiÃłnĠ chÇİngĠ
xÃŃngĠ dÃ²ng
ĠdÅįngĠ lÃŃn
ĠbÄģ ĠxÄ«Ġ
diÃłnĠzÇĲ ĠyÃ³uĠxÃ¬Ġ
guÇİnĠkÃ²ng ĠzhÅįngĠfÄģĠxiÃłnĠ
Willi am
Ġ fÇĶ
Ġ guÇĴĠ
dÃło ĠdÃ©Ġ
pÃŃng ĠxÃŃngĠ
mÃŃn ĠshÃ¬Ġ
wÃłi ĠjÃŃĠ
luÃ³ ĠdeĠ
fÇİn ĠgÅįngĠ
mÃ©n ĠshÃ¬Ġ
shÄģng ĠhuÃ¬Ġ
qÃŃng ĠrÃ©nĠ
ard Ġ
ali gnĠ
dÃłĠ chÃ©nĠ
ĠxÃŃng ĠzhÃ¬Ġ
ĠkÃ¨Ġ lÃºnĠ
ĠzhÃ¹Ġ mÃŃngĠdeĠ
zhuÄģnĠ zhÃ¹ĠyÃºĠ
ĠÐ ½
ĠO Ġ
bÃłnĠshÃ¬Ġ chÃ¹
ĠshÄĵngĠhuÃ³ ĠzÃłiĠ
Ġ iĠ
ĠĠĠ 2000ĠniÃ¡nĠ
ĠĠĠ 2024ĠniÃ¡nĠ
yÇĴu ĠbÃ¹ĠfÃ¨nĠ
xiÃłng ĠyÇĶĠ
mÃ©i ĠlÃ¬Ġ
biÃłn ĠxÃŃngĠ
hÃ¹ ĠdeĠ
guÄ« ĠdeĠ
huÇİn ĠmÃłnĠ
zÃ©i Ġ
ĠwÃ¨iĠ 2
ĠzÃłiĠ bÄģĠ
ĠbÃ¹Ġ shÇĶĠ
ĠshÃŃĠ chÃ¡ngĠ
ĠdÃłĠ jiÄģngĠjÅ«nĠ
zÃ¬Ġ zhÇĶĠ
ĠzhÃłnĠ yÃ¬ĠzhÅįngĠ
ĠtÃ³ng ĠbÃ¹Ġ
ĠxuÃ©Ġ shÄĵng
sÃ¨Ġ qÃŃngĠ
jiÇİnĠ cÃ¨
zhÄĵngĠ lÃ¹nĠ
suÃŃĠ zheĠ
diÃłnĠyÇĲng ĠzhÅįngĠ
ĠjÃŃĠtuÃ¡n ĠyÇĴuĠxiÃłnĠgÅįngĠsÄ«Ġ
luÃ³ĠmÇİĠ nÃŃĠyÃłĠ
ĠyÇĶĠmÃ¡o ĠqiÃºĠ
le ĠtÄģ
zhÃ¨ng ĠhÃ©Ġ
yÃ¹n ĠdeĠ
ĠdeĠ pÃŃngĠ
ĠshÃ¬Ġ xiÄģngĠgÇİng
ĠshÃ¬Ġ dÄģngĠdÃ¬Ġ
ĠchÃ©ngĠ yuÃ¡nĠdeĠ
ĠdÃłĠ zÃ¬Ġ
zhÃ¹Ġ fÃ¡ngĠ
shÇĴuĠ fÇİĠ
yÃ¨Ġ wÃ¹
liÇİngĠ zhÄĽĠ
hÃ¡iĠ zi
zhÄĵnĠ duÃ¬
zhÄĵnĠ chÃ¡
xÃºnĠ luÃ³Ġ
ĠqiÃ¡nĠ wÇİng
ĠdeĠbÃ¹Ġ tÃ³ngĠ
ĠshÄĵnĠ dÃ¹Ġ
shÅįuĠlÃ¹Ġ leĠ
7 ĠgÅįngĠlÇĲĠ
Ġ tÃ³u
Ġ kÃ²ngĠzhÃ¬Ġ
ĠĠĠ Se
mÇİ ĠdÃ©ĠlÇĲĠ
46 Ġ
qiÄģo ĠchÅ«Ġ
ĠyÃ¬Ġ lÃ¬Ġ
zhÇĶĠ zhÄģng
ĠjiÃłnĠ zÃłoĠdeĠ
ĠquÃ¡n ĠqiÃº
juÃ©Ġ xÄ«nĠ
kÄĽĠ yÃ²ngĠyÃºĠ
liÇİngĠ cÃ¨
lÃºĠ wÇİĠ
ĠshÃ¨ĠjÃ¬Ġ shÄ«Ġ
xÇĲĠ ÃłiĠ
2010ĠniÃ¡nĠ mÄĽiĠguÃ³ĠrÃ©nĠkÇĴuĠpÇĶĠchÃ¡Ġ
ĠguÃ³ĠjiÄģ ĠjÃŃĠ
ĠwÃ¨iĠzhÅįngĠ xÄ«nĠ
ĠchÃ¡oĠ tÃŃngĠ
zhÇĶĠtÃŃĠ qÅ«Ġ
ĠmÃŃn ĠjÃŃĠ
jÇĲĠnÃ¨iĠ yÃłĠ
ĠĠĠ Be
chÃ¡ ĠsÄ«Ġ
yÃ¡n ĠhÃ©Ġ
qÇĲ ĠchÅ«Ġ
pÃ³ Ġ
ĠrÃ©nĠ lÃ¨iĠdeĠ
ĠsÄ«Ġ tÇİ
ĠjÄ«Ġ qiÄģngĠ
ĠxÄ«Ġ dÃ©Ġ
ĠbÃ¬ngĠ kÄģiĠshÇĲĠ
zhÇĲĠ lÃ¬ngĠ
gÇĶĠ dÃłi
ĠzhÅįngĠguÃ³Ġ guÃ³ĠjiÄģĠ
mÄĽiĠ guÃ³ĠhÃ©Ġ
kÄĽĠyÇĲĠ yÃ²ngĠ
ĠbÃ¬Ġ xÅ«
tÇİoĠ fÃ¡Ġ
ĠdeĠlÃ¬Ġ shÇĲ
zhÄĽnĠ duÃłn
shÄ«ĠqÃ¹ ĠleĠ
Ġ 99
yÄ« ĠzÃłiĠ
yÃ¡n ĠshÃ¬Ġ
duÅį ĠjiÄģĠ
qÄ«ng ĠxÄ«Ġ
bÃ³ ĠkÃ¨Ġ
xÃŃ ĠdeĠ
bÇİi ĠwÃłn
zhÄĽng ĠshÃ¹Ġ
der Ġ
Uni ver
ĠbÃ¹Ġ yÃ¬Ġ
ĠzhÅįngĠ xuÃ©
ĠshÃŃĠ Ã¨r
ĠyÃºĠ zhÅįngĠ
jiÄģĠ qiÃ¡ngĠ
xiÄģngĠ liÃ¡nĠ
ĠmÃŃngĠ dÄģn
kÄģiĠ bÅįĠ
zhÇĲĠ biÄģoĠ
wÃłiĠ jiÃ¨
ĠjÃ¹Ġ qÃ¬ngĠxiÃłĠ
liÃ¨Ġ biÇİo
liÇİngĠ cÃ¬
huÃ¡nĠ bÇİoĠ
ĠyÄ«ngĠ gÄģiĠ
guÇĲĠdÃłoĠ jiÄģoĠtÅįngĠ
xÄ«nĠlÇĲĠ xuÃ©Ġ
ĠwÃ¨iĠfÃºĠqÃŃĠyÃºĠgÄģngĠ lÃºĠxÃŃngĠmÃ¹Ġ
ĠpÃºĠtÃ¡oĠyÃ¡ ĠyÇĶĠ
Ġ yÇİn
Ġ xÇĶ
Ġ guÇĲ
Ġ 68
shÃłng ĠzÃłiĠ
shÇĲ ĠqÃŃĠ
sÃ¨ ĠhuÃ²Ġ
zhÃło ĠjÃŃĠ
kÅ«n ĠchÃ³ngĠ
ĠhÃ©Ġ zhÅįngĠguÃ³Ġ
ĠbÃ¹Ġ xiÃ¡ngĠ
ĠzhÃ¬Ġ piÃłnĠ
ĠyÃ¬Ġ chÃ¡ngĠ
wÃ©iĠ hÃ¹Ġ
ĠjÄ«Ġ guÄģn
dÅįngĠ lÃ¹Ġ
ĠnÃ¡nĠ fÄģngĠ
lÃŃngĠ mÃ¹Ġ
lÃŃngĠ shÃ²uĠ
fÃ¨iĠ chÃº
ĠqiÃ¡nĠ lÃ³ng
kÇİoĠlÇľ ĠdÃłoĠ
Ġ 1970ĠniÃ¡nĠ
ÇĲ Ġ
gÅįng ĠwÃ¨iĠ
jÃ¬n ĠdÃłiĠ
zhÃ¹ ĠgÅįngĠ
yÇĲng ĠjÃŃĠ
nÇļ ĠdeĠ
gÃ¹ ĠdeĠ
sÇĲ ĠdeĠ
ĠshÃ¬Ġ hÃ¡nĠguÃ³Ġ
ĠshÃŃĠ shÃłngĠ
ĠxÄ«Ġ lÃ¡n
ĠmÃŃngĠ chÃ¡o
jiÃłoĠ duÅįĠ
diÃłnĠ chÄĵ
fÄĵnĠ liÃ¨
fÃºĠ tÃ¨Ġ
tÇĲĠ nÃ¨iĠ
dÃ¬ngĠ lÇľĠ
wÄĽiĠ tuÅį
jiÃłnĠ zÃło
quÃ¡nĠ wÄĵiĠ
xÃºnĠ huÃ¡n
Ã©rĠ yÃ¡nĠ
leĠyÄ«Ġ xiÄĵ
dÃ²uĠ zhÄĵng
zhÅ«ĠlÃ³ngĠ cÇİo
m b
Ġ zhÃºĠ
ĠĠĠ fÇİnĠ
xiÃł ĠxÃŃngĠ
tÃ¨ ĠzhÃ¬Ġ
jiÄĵ ĠyÇĴuĠ
tÇĲ ĠzhÅįngĠ
cÃ¬ ĠrÃ¬Ġ
shÃ²u ĠleĠ
bÃłn ĠxuÃ©Ġ
fÃ¡ng ĠdeĠ
pÃ² ĠleĠ
gÃłn ĠshÃ¬Ġ
ĠdeĠ wÃ¨iĠzhÃ¬Ġ
ĠyÄ«Ġ shÇĴuĠ
hÃ²uĠ lÃ¡i
ĠdÃłĠ mÃŃngĠ
ĠhÃ²uĠ yÄ«nĠ
jÃ¹Ġ chÇİngĠ
jiÃłoĠ xiÇİoĠdeĠ
diÃłnĠ dÃ²ngĠ
mÄĽiĠguÃ³Ġ guÃ³ĠjiÄģĠ
bÅįĠ luÃ³ĠdÃ¬Ġ
ĠzhÅįngĠguÃ³Ġ dÃłĠlÃ¹
huÃ²Ġ shÃ¨ngĠ
ĠdeĠshÃ¬Ġ lÃ¬Ġ
qÅ«ĠdeĠ yÃŃĠgÃ¨Ġ
ĠqÅ«Ġ yÃ¹Ġ
ĠãĤ ĵ
huÃ¡nĠxÃŃngĠ shÄģnĠ
hÇİoĠlÃ¡iĠ wÃ¹Ġ
Ġ gÄģn
Ġ 1982
gÄģo ĠjiÄģĠ
sÅ« ĠzhÅįuĠ
zÅįng ĠzuÃ²Ġ
gÃłi ĠleĠ
tÇİn ĠkÃ¨
ĠyÃºĠ 2025
ĠxÄ«Ġ shÅįuĠ
ĠzhÄ«Ġ yÄ«ĠdeĠ
ĠbÃ¨iĠ rÃ¨nĠwÃ©i
qÃ¬Ġ xuÃ¡n
ĠzÃ¬Ġ shÄģĠ
jiÇĶĠ jÄ«ngĠ
xÃºnĠ yÇİnĠ
tiÄĽĠlÃ¹Ġ jÃºĠ
wÃ©nĠhuÃłĠ yÃŃĠchÇİnĠ
mÃŃnĠzhÇĶĠ zhÇĶĠyÃ¬Ġ
wÄĵnĠ gÄĵĠ
chÃ©ngĠlÃ¬Ġ yÃºĠ
pÃ¡iĠhÃ¡ngĠ bÇİngĠ
yÇĶnĠshÃŃĠ kÄĵngĠ
yÅįuĠxiÃ¹ ĠdeĠ
ĠgÄģiĠwÃ¹ĠzhÇĴngĠdeĠ mÃ³ĠshÃ¬ĠchÇİnĠ
Ġ chuÃ¡n
Ġ guÄ«
ĠĠĠ So
ĠĠĠ aĠĠĠ
Ãło ĠlÃ¬Ġ
mÃ¹ ĠhÃ²uĠ
lÄģ ĠlÃ¬Ġ
dÄģn ĠrÃ©nĠ
zhÃ²ng ĠzhÃ¬Ġ
guÃłn ĠjÅ«nĠdeĠ
sÄģi ĠsÄ«Ġ
21 ĠshÃ¬ĠjÃ¬Ġ
47 Ġ
ĠwÃ¨iĠ jÄ«ĠchÇĶĠ
ĠyÃ¬Ġ bÇİiĠ
fÄģngĠ zhÄĵnĠ
gÃ©Ġ lÄĵiĠ
ÄģnĠ fÇĶĠ
yÇĲngĠ zhÇİnĠ
shuÇĲĠ zhÇĶnĠ
cÄģnĠ mÃ³uĠ
xiÃłnĠ dÃłi
jÅ«Ġ bÇĶĠ
zhuÇİnĠ bÅįĠ
ĠbÅįĠ lÃ¡nĠ
ĠzhÃłnĠzhÄĵng ĠzhÅįngĠ
shÃ²uĠhuÄģnĠ yÃŃngĠdeĠ
kÃ¨ ĠdeĠ
xiÃłng ĠqÃŃĠ
sÃ¬ ĠgÃ¨
miÃ¨ ĠwÃ¡ngĠ
ine Ġ
shÇĲĠ guÇİnĠ
guÄģnĠ bÃ¬
jÄ«ngĠ diÇİn
suÇĴĠ ÄĵnĠ
bÄĽiĠ lÃ¹Ġ
gÃ©Ġ lÃŃ
ĠzuÃ²Ġ leĠ
mÇİĠ chÇİngĠ
yÃłĠ zhÇĴngĠ
fÄĵngĠ miÃłnĠ
sÄģnĠ shÃŃĠniÃ¡nĠ
gÃ¹Ġ dÃ¬ng
ĠdÃ¬ĠÃ¨rĠ cÃ¬ĠshÃ¬ĠjiÃ¨ĠdÃłĠzhÃłnĠ
Ġ1 ĠĠĠ
ĠzhÅįngĠshÃ¬Ġ yÇİnĠ
ĠĠĠbÄĽn ĠyÃºĠ
¡ Ġ
Ġ xiÇİn
Ġ huÃ³ĠdÃ²ngĠ
Ġ yÇİnĠyuÃ¡nĠ
sÄ« ĠyÇĴuĠ
biÃłn ĠdÃ©
xiÅ« ĠshÃ¬Ġ
yÄĵ ĠsÅ«Ġ
ĠdÃ¬Ġ 4Ġ
pÃŃngĠ gÅ«
ĠqÃŃĠ bÄ«ng
suÇĴĠ mÇĶĠ
shÄģnĠ chÃºĠ
qÄ«ngĠ huÃ¡ĠdÃłĠxuÃ©Ġ
yÄ«ngĠ chÄģo
ĠxiÄģngĠ xÃ¬nĠ
fÄĵiĠ jÄ«
jiÃ¹Ġ kÄĽĠyÇĲĠ
shÄģĠ hÃłi
qiÄģnĠ xÇĲ
guÄģngĠ xÃ¹
ĠzhÇĲ ĠdeĠshÃ¬Ġ
Ġ chÃ¡o
qÄ« ĠgÃ¨Ġ
xuÃ© ĠlÃ¬Ġ
wÃ©n ĠjÃŃĠ
jiÄĵ ĠdÃło
yÃłn ĠdeĠ
ĠwÃ¨iĠ qÃŃ
ĠlÃ¬Ġ ÄģnĠ
jÄ«Ġ gÃ²u
jÄ«Ġ hÅ«
ĠdÃłĠ jÅ«nĠ
ĠyÇĶĠ qiÃ¡nĠ
ĠjÃ¬Ġ rÃ¨nĠ
fÃ¹Ġ shÇĶ
jÃ¹Ġ diÇİnĠ
huÃłĠ xuÃ©
zhÃ¨Ġ yÃłng
ĠfÃ¹Ġ nÇļĠ
ĠshÃ¨Ġ lÃ¬ĠdeĠ
ĠdÃłnĠ yÃłoĠ
sÃ¬Ġ hÅ«Ġ
wÄĵiĠ bÃ³Ġ
kÅįngĠ tiÃ¡oĠ
ĠgÅįngĠzuÃ²Ġ zhÄĽĠ
hÇİiĠjÅ«nĠ lÃ¹ĠzhÃłnĠ
ĠwÃ¨iĠdÃ¬Ġ yÄ«Ġ
ĠgÃ²ng ĠjÃ¬Ġ
ĠzhÅįngĠguÃ³ĠguÃ³ĠmÃŃnĠ dÇİngĠ
Ġ 1954ĠniÃ¡nĠ
hÃ²u ĠjÃŃĠ
fÃ¹ ĠyuÃ¡nĠ
jiÄģng ĠxiÃłnĠ
la ĠĠĠ
jiÃłng ĠzhÃ¬Ġ
to Ġ
xÅ«n ĠzhÄģng
all Ġ
xuÃłn Ġ
ĠshÃ¬Ġ tÃº
ĠzhÅįngĠ jiÃ©Ġ
ĠshÃŃĠ bÄģĠniÃ¡nĠ
ĠyÃºĠ 17
ĠzhÃ¬Ġ huÃ¬Ġ
jiÄģĠ mÃ©ngĠ
ĠyÄ«Ġ hÃłoĠ
zhÃ¨ngĠ wÃ¹Ġ
ĠhuÃ¬Ġ huÃłĠ
diÃłnĠ xÃ¬nĠ
suÇĴĠ xiÃ¡
mÇİĠ ÄĵnĠshÄĽngĠ
sÃłiĠ shÃ¬ĠdeĠ
bÃłoĠ dÃ²ngĠ
zÃºĠ qÃºn
guÇİngĠbÅįĠ diÃłnĠshÃ¬Ġ
diÃłnĠqÃ¬Ġ huÃłĠ
Ġ guÄ«ĠdÃ¬ngĠ
Ġ rÃ©ngĠ
Ġ bÃłoĠdÃłoĠ
Ġ 1938ĠniÃ¡nĠ
le ĠdÃłĠliÃłngĠ
zhÇĲ ĠwÃ¨iĠ
dÄĽng ĠzhÃłnĠ
dÃ¡ ĠdÃłoĠleĠ
lÃºn ĠduÅįĠ
gÄĽi ĠchÅ«Ġ
ol Ġ
ore Ġ
ĠzhÃ¬Ġ lÇĲĠ
hÇİiĠ dÇĲĠ
qÇĲĠ huÃłĠ
ĠdÃłiĠ wÃ©iĠ
mÃ©iĠ tÇĲĠdeĠ
fÄģnĠ chuÃ¡nĠ
yÅįngĠ yÇĴuĠdeĠ
bÃ¬ĠyÃ¨Ġ shÄĵngĠ
r ĠĠĠ
Ġ o
Ġ chÃ¬
Ġ pÄģnĠ
ĠĠĠ fÄģĠxÃŃngĠ
zhÄ« ĠxiÃłĠ
bÃ³ ĠlÃ¬ĠyÃłĠ
jiÄĽ ĠdeĠ
cÇİi ĠjÃŃĠ
zÃ²ng ĠduÃ¬Ġ
qiÄģo Ġ
Sch ool
xt Ġ
ĠyÄ«Ġ yÄ«Ġ
duÃ¬Ġ yÃ¬ngĠ
ĠjÅ«n ĠhÃ©Ġ
xÄ«nĠ zhÃº
fÄĵnĠ fÄĵnĠ
dÇİoĠ zhÃ¬ĠdeĠ
ĠxiÃłĠ jiÃłngĠ
ĠzhÃ¹Ġ zuÃ²Ġ
wÇİngĠ fÇİnĠ
liÇİngĠ cÃ©ngĠ
luÃ²Ġ fÅ«Ġ
mÃ¬Ġ mÇİĠ
lÃ¬ngĠ wÃłi
ĠjÄ«ngĠ guÃ²
jiÇİĠ zÇĶĠ
dÇĲĠ kÃłng
ĠniÃ¡nĠ11ĠyuÃ¨Ġ 1ĠrÃ¬Ġ
zhÃ¨ngĠfÇĶ ĠzÃłiĠ
juÄģnĠ zÃ¨ngĠ
ĠbiÄģn ĠhÃłoĠ
shuÃłiĠlÇĲng ĠdeĠ
Ġ John
Ġ 1976ĠniÃ¡nĠ
ĠĠĠ bÃ¡iĠ
Åįu ĠzhÅįuĠdeĠ
qÃŃ ĠtÄģĠdeĠ
liÃ¡n ĠsÄ«Ġ
zhÇĲ ĠdeĠshÃ¬Ġ
zhÃ²ng ĠlÃ¬Ġ
bÃło ĠdeĠ
huÃ¡ ĠwÃ¨iĠ
cÃ³ng ĠzhÅįngĠ
chÃłng ĠyÃ¬Ġ
qiÄģng ĠjÄ«Ġ
ps Ġ
III Ġ
shÃŃĠ yuÃ¨Ġ
ĠrÃ©nĠ yÃ¬Ġ
ĠrÃ©nĠ sÇĲĠwÃ¡ngĠ
ĠÃ©r ĠwÃ¨iĠ
ĠshÃłngĠ wÇĶĠ
tÃłiĠ luÃ³Ġ
kÇİoĠ rÃ¹Ġ
dÃ¹nĠ niÃ¨ĠcÃŃ
ĠÐ ¸
yÇĲnĠqÇĲ ĠdeĠ
3 ĠlÃ¬Ġ
Ġ xiÃ¹Ġ
Ġ 1975ĠniÃ¡nĠ
Ġ 1966ĠniÃ¡nĠ
ĠĠĠ En
lÃ¹ ĠdÃ©Ġ
zhÃłn ĠjÃŃĠ
nÃ¡n ĠdÃłoĠ
pÇĶ ĠlÃ¬Ġ
zÅįng ĠshÃ¬Ġ
dÇĲng ĠbÃ¹Ġ
ĠzÃłiĠ dÅįngĠ
lÃ¬Ġ yÃ¬Ġ
ĠshÃŃĠ yÃºĠ
ĠrÃ©nĠ cÃ¡iĠ
ĠjiÄģĠ mÃ©ng
fÄģĠ dÃ¡Ġ
yÃ¹nĠ suÃłnĠ
zhÄģngĠ dÄģnĠqÅ«Ġ
jÇĲnĠ cÃ¬ĠyÃºĠ
huÃ¡nĠ rÃło
kuÃ²Ġ zhÄģng
ĠhÃ³ngĠ sÃ¨Ġ
shuÃłiĠ xiÄģnĠ
8 ĠgÅįngĠlÇĲĠ
Ġ Si
Ġ Ge
zhÄģng ĠjiÄģĠ
hÃ¡i ĠhuÃ¬Ġ
mÃłi ĠkÃ¨ĠÄĽrĠ
lÇİo ĠhuÃ¬Ġ
nÇİ Ġ
ĠbÃ¹Ġ xiÃłĠ
ĠdÃłĠ xuÇİnĠ
shÃłngĠ sÃ¹Ġ
pÃŃngĠ miÃłnĠ
nÃ¡nĠ xÃ¬ng
ĠshÄĵngĠ yÃ¡
biÄģnĠ rÃ¹Ġ
wÄĵiĠ fÅ«Ġ
cÄģnĠ yÇİnĠ
yÄĽĠ mÃ©iĠyÇĴuĠ
xÃŃngĠ zhÃ¨ng
ĠfÄĵnĠ lÃ¡nĠ
leĠyÄ«Ġ zhÇĴngĠ
ĠÐ µ
ĠĠĠ 2001ĠniÃ¡nĠ
Ãłi ĠlÃ¬ĠsÄ«Ġ
zhÅįu ĠniÃ¡nĠ
lÃŃn ĠxiÃłnĠ
rÃ³ng ĠyÃºĠ
xiÅ« ĠxÄ«Ġ
ers Ġ
ĠshÃŃĠ biÃ©Ġ
ĠyÃºĠ jiÄģĠ
ĠyÃºĠ 9ĠyuÃ¨Ġ
ĠlÃ¬Ġ wÄĽiĠ
xiÃłĠ lÇİngĠdÃ©Ġ
mÃŃnĠ dÇİngĠ
ĠduÃ¬Ġ kÃłngĠ
ĠhuÃ² ĠÄĽrĠ
ĠdeĠdÃ¬Ġ tiÄĽĠ
mÃłnĠ huÃłĠjiÄģĠ
ĠluÃ³Ġ bÃ³Ġ
ĠdeĠrÃ©nĠ wÃ¹Ġ
ĠmÇİ ĠkÃ¨Ġ
ĠtÃ¡iĠ bÄĽiĠ
ĠshÇĶĠ rÃ²uĠshÃŃĠxÃ¬ngĠ
ĠÄģi ĠÄĽrĠ
shÄ«ĠfÃłn ĠdÃłĠxuÃ©Ġ
xiÄģngĠdÄģng ĠyÃºĠ
jiÄģnĠchÃ¡ ĠyÃ¹ĠshÇĲĠ
6 ĠmÃŃngĠ
Ġ niÇĶĠ
Ġ xuÄĽĠ
Ġ 1935ĠniÃ¡nĠ
wÄĵi ĠÄĽrĠsÄ«Ġ
pÃ©n Ġ
tÃ¹ Ġ
ĠdeĠ zuÃ²ĠpÇĲnĠ
ĠwÃ¨iĠ xÄ«ng
ĠbÃ¹Ġ lÇİngĠ
ĠjÃŃĠ yÇĴuĠ
mÃŃngĠ chÃ¡oĠ
ĠxiÃłnĠ rÃ¨n
ĠjiÄģĠ jÃ¹Ġ
lÃ¹Ġ xÃ¹
yÃ¡nĠ fÄģ
qiÃ¡nĠ lÃ³ngĠ
zhÃŃĠ wÃ¹ĠdeĠ
ĠzhÃ¨ngĠ quÃłnĠ
zuÃ¬Ġ xÄ«nĠ
zÇĴngĠ jiÃłoĠqÅ«Ġ
ĠzhÇĶĠ jiÃłoĠ
lÃŃngĠ hÃºn
ĠgÄģoĠ dÄĽngĠ
ĠxiÇİoĠ shuÅį
Ġ2 ĠĠĠ
huÃ³ĠdÃ²ng ĠzhÅįngĠ
yÄ«ĠlÃ¬Ġ nuÃ²ĠyÄ«Ġ
y Çİo
Ġ ã
Ġ mĠ
Ġ 25Ġ
ĠĠĠ tÃ¡iĠwÄģn
ĠĠĠ miÃ¡oĠshÃ¹Ġ
zuÃ² ĠchÃ©ngĠ
pÃŃng ĠshÃ¬Ġ
bÄĽn ĠshÃ¬Ġ
tÃ¡i ĠyÇĶĠ
bÃło ĠyÇĶĠ
zhÇİn ĠxiÃłn
zhuÄģng ĠyuÃ¡nĠ
lÇİo ĠrÃ©nĠ
zÇĴu ĠleĠ
bo ĠdÃ¹Ġ
ĠhÃ©Ġ zuÃ²ĠdeĠ
ĠxiÃłn ĠyÃ¬Ġ
zuÃ²Ġ qÇĶĠjiÄģĠ
ĠqÃŃ ĠrÃ©nĠ
zhÃ¨ngĠ dÇİng
zhÃ¨ngĠ biÃłnĠ
ĠjiÄģĠ zÃºĠdeĠ
ĠtÄģĠ kÄĽĠyÇĲĠ
jÃ¹Ġ juÃ©
ĠbÃ¨iĠ jÄ«Ġ
wÃ©nĠ shÅ«Ġ
ĠzhÃ¨Ġ yÃ¬ĠwÃ¨iĠ
jiÄģoĠ wÇİngĠ
ĠxiÄģngĠ jiÃłoĠyÃºĠ
mÃ¬Ġ mÃ¬
lÃ¨iĠ ÃłnĠjiÃłnĠ
jiÃłĠ zhÃŃĠdeĠ
Ã©Ġ wÃłiĠdeĠ
xiÄģnĠ qÅ«Ġ
ĠzhÃŃ ĠdÃło
ĠjiÃłnĠzhÃ¹Ġ shÄ«Ġ
ĠxÃŃngĠzhÃ¨ngĠ zhÇİngĠguÄģnĠ
ĠdeĠbÃ¹Ġ duÃ¬Ġ
zhuÃłnĠ xiÄĽ
ĠhÄģ ĠlÃ¬Ġ
ĠbÃ¹ĠguÃ² ĠzÃłiĠ
ĠhuÃłĠxuÃ© ĠshÃ¬ĠwÃ¨iĠ
fÃ¹ ĠwÃ¨iĠ
fÄģng ĠjÃ¬Ġ
pÇĶ ĠdeĠ
cÃ¡i ĠhuÃ¬Ġ
kÃ¹ ĠdeĠ
Î² Ġ
ĠchÃ©ngĠ shÃº
shÃłngĠ zhÃ¨nĠ
shÇĲĠ zhÄĽĠ
shÄ«Ġ zÅįngĠ
zuÃ¬Ġ zhÃ¹ĠmÃŃngĠdeĠ
shÅ«Ġ niÇĶ
nÃłĠ cuÃ¬Ġ
zÇĶĠ zhÇİngĠ
ĠwÃłnĠ zhÄģngĠ
ĠcÇĲ ĠzhÃłnĠ
ĠdeĠyÃ¬Ġ shÃ¹Ġ
niÇĶĠyuÄĵ ĠzhÅįuĠ
ĠxiÃłnĠlÃ¹Ġ kÇĴuĠ
wÇĴĠmen ĠdeĠ
shÃ²uĠhÃłiĠ zhÄĽĠ
Ġ chÇĶ
Ġ kÇİn
Ġ fÃ¨nĠ
Ġ huÄ«ĠfÃ¹Ġ
Ġ huÃ¡ngĠjiÄģĠ
Ġ gÄĵngĠmÃŃngĠwÃ¨iĠ
ĠĠĠ 20ĠshÃ¬ĠjÃ¬Ġ
yÃº ĠniÃ¡nĠ
wÃ©i ĠjÃŃĠ
shÄĵng ĠdÃłoĠ
zuÃ¬ ĠmÃŃngĠ
yÄ«ng ĠshÃ¬Ġ
ĠyÃºĠ 2008
yÃ¡nĠ xÃ¹Ġ
gÄģoĠ cÃ©ngĠ
jiÄĵĠ shÃłngĠ
ĠtÃ³ng ĠniÃ¡nĠ8ĠyuÃ¨Ġ
chÃ¡ngĠ chÃ¡ngĠ
ĠhuÃ²Ġ bÃ¬Ġ
biÇİoĠ miÃłn
zhÄ«Ġ hÃ²uĠdeĠ
tuÄ«Ġ fÄģn
tiÃ¡oĠjiÃłnĠ xiÃłĠ
ĠyÃ¬ĠzhÃŃ ĠzÃłiĠ
nÃłĠcuÃ¬ ĠdÃ©ĠguÃ³Ġ
Ã©ĠhÃłiĠÃ© ĠzhÅįuĠ
Ġ kÇĴng
Ġ huÃ¡ngĠdÃ¬Ġ
Ġ 1968ĠniÃ¡nĠ
ĠĠĠ xiÃłoĠ
ĠĠĠ xiÄģngĠguÄģnĠ
zhÃŃ ĠgÅįngĠ
zhÃŃ ĠbÃ¨iĠ
zÇĶ ĠchÃ©ngĠyuÃ¡nĠ
mÇĶ ĠhÃ©Ġ
zhÅįngĠ xuÃ©Ġ
jÄ«nĠ tiÄģnĠ
ĠbÄĽnĠ shÄĵnĠ
huÃŃĠ lÃ¡iĠ
chÇĶĠ cÃºnĠ
ĠĠĠtÄģ ĠzÃłiĠ
lÇľĠwÃ¨iĠ 0
Ġ zÇİo
Ġ 1948
Ġ ref
ĠĠĠ Ga
ĠĠĠ yÃ¡ngĠ
12 ĠgÃ¨Ġ
zhÄģo ĠhÃ©Ġ
kÃło ĠjÃ¬n
41 Ġ
ed Ġ
rÃ©nĠ lÃ¨i
ĠbÃ¹Ġ lÇİng
chÃ©ngĠ lÃ¬ĠdeĠ
jÃ¬Ġ lÃ¹
xÄ«Ġ lÇĲĠ
rÃ¨nĠ jiÃłoĠ
fÇİĠ Ãłn
mÃ¹Ġ hÇİnĠmÃ²ĠdÃ©Ġ
ĠyÄ«nĠ sÃ¹
jiÃ¨Ġ rÃ¹Ġ
bÄģĠ dÃ¡Ġ
zÇĴngĠ tÇĲĠ
gÇĶĠ bÄģĠ
ĠlÃ¹Ġ yÄ«nĠshÃ¬Ġ
fÃ¨iĠ qÃ¬Ġ
sÄģiĠ Ã©Ġ
Ã© ĠjÅ«nĠ
qÄ« ĠmÃŃngĠ
zhÃłn ĠlÃ¬Ġ
fÃ¹ ĠyÃ¬Ġ
xÃ¬ng ĠdÃ¬Ġ
xiÃło ĠzhÅįngĠ
lÃ³ng ĠshÃ¬Ġ
pÃ¡i ĠqiÃºĠ
44 Ġ
ĠbÃ¹Ġ shÃ²uĠ
ĠdÃ¬Ġ 1
ĠchÃ©ngĠ dÃ¹ĠdeĠ
ĠxiÃłnĠ dÃ¬ngĠ
ĠbÃ¨iĠ xuÇİnĠwÃ¨iĠ
zuÃ¬Ġ duÅį
ĠzhÃ¨Ġ yÄĽĠ
biÃłnĠ gÄĵngĠ
lÃºĠ sÄĵnĠ
ĠchÃ©ngĠyuÃ¡nĠ guÃ³Ġ
gÄĵngĠ gÇİiĠ
jÄ«ngĠlÃ¬Ġ leĠ
Ġ Sh
Ġ hÄĽnĠduÅįĠ
Ġ biÄģoĠzhÃ¬Ġ
tÃŃ ĠdeĠ
qÄ«ng ĠdeĠ
quÄĵ ĠxiÃłnĠ
int Ġ
rÃ©nĠ lÃ¨iĠ
ĠbÃ¹Ġ bÃ¨iĠ
jiÄģĠ tÃŃng
ĠyÇĶĠ zhÄ«
ĠxÄ«Ġ lÃŃnĠ
ĠchÅ«Ġ jÃºĠ
ĠwÃ©iĠ lÃ¡iĠ
ĠdÃłiĠ lÇĲng
jiÄĽĠ jiÄĽĠ
jiÇİngĠ shÄ«Ġ
chÃ¹Ġ chÃ¹ĠzhÇİngĠ
ĠdeĠshÃŃĠ jÃ¬Ġ
shÃ¹ĠliÃłng ĠdeĠ
mÃ¹ĠdÃ¬Ġ dÃ¬Ġ
ĠmÃ©ngĠ gÇĶ
ĠĠĠhÃ²uĠ lÃ¡iĠ
xiÃ©ĠshÄģngĠ huÃ¬ĠyÃ¬Ġ
Ġ zhÄĽng
Ġ 1986
Ġ back
wÃ¹ ĠjÃŃĠ
dÃłi ĠshÃŃĠ
bÇİo ĠjiÃłnĠ
qiÃ¡ng ĠxÃŃngĠ
âĢ »
xÃ¹n ĠdeĠ
guÃłn ĠlÃ¬Ġ
43 Ġ
one Ġ
ĠshÃ¬Ġ dÃłiĠ
ĠrÃ©nĠ wÃ©iĠ
ĠlÇĲĠ chÃ¡Ġ
zhÃłnĠ chÇİngĠ
ĠzhÄ«Ġ yÃ²ngĠ
kÄģiĠ pÇĶĠ
bÄĽiĠ mÄĽi
sÄģnĠ cÃ©ngĠ
mÄĽiĠ lÄģĠ
zhÅįuĠ qÄ«Ġ
ĠtÃ³ngĠshÃŃĠ yÄĽ
lÇİoĠ bÇİnĠ
kÄģiĠshÇĲ ĠhÃ²uĠ
ĠãĤ ¹
zÄģiĠ hÃłiĠ
kÄĽnĠ sÃ¨
5 ĠshÃŃĠ
Ġ nÃłi
Ġ 1964ĠniÃ¡nĠ
hÃ²u ĠgÅįngĠ
chÅ« ĠxiÃłnĠdeĠ
qÅ« ĠyÇĶĠ
fÇİ ĠjÅ«nĠ
fÃº ĠdÃłĠxuÃ©Ġ
pÇĶ ĠsÄ«Ġ
zhuÄģng ĠzÃłiĠ
wÇİ ĠÄĽr
miÃło ĠdeĠ
shuÃłi ĠjÅ«nĠ
ĠshÃ¬Ġ juÃ©Ġ
ĠhÃ©Ġ dÃłoĠ
ĠjÃŃĠ tÄģĠ
ĠyuÃ¡nĠ yÇĴuĠdeĠ
ĠdÃ© ĠshÃ¬Ġ
ĠlÇĲĠ jiÄģĠ
zÇĴngĠ guÇİnĠ
liÇİngĠ xiÃłngĠ
zhÄĵngĠ duÃ³Ġ
ĠguÃ²Ġ qÃ¹
xuÄģnĠ chÄĵng
ĠbÃ¬Ġ yÃ¨Ġ
lÃ¬ngĠyÄ«Ġ zhÇĴngĠ
ĠgÄģnĠ sÃ¹Ġ
ĠshÃŃĠyÄ«Ġ yuÃ¨Ġ
fÃºĠluÃ³ĠlÇĲĠ dÃ¡ĠzhÅįuĠ
ĠxÄ«nĠjiÄģĠ pÅį
yÄ« ĠniÃ¡nĠdeĠ
qÅ« ĠwÃ¨iĠyÃºĠ
shÃłng ĠyÃ¬Ġ
Ã©r ĠbÃ¨iĠ
wÄģn ĠdÃłoĠ
rÃ©nĠ kÇĴu
yÃ¬Ġ yÃ¬Ġ
ĠyÇĶĠ tÄģ
ĠxÃŃngĠ chÄĵĠ
rÃ¨nĠ tiÄģnĠtÃ¡ngĠ
xÄ«nĠ ÄģĠjÄ«ĠtÇİn
mÃŃnĠ jiÄģn
ĠleĠ duÃ¬Ġ
nÃ¨iĠ bÃ¹ĠdeĠ
zhÃ¨nĠ yÃŃngĠ
ĠzhÃ¨Ġ liÇİngĠgÃ¨Ġ
biÃłnĠ lÃ¹nĠ
huÃŃĠ yÃ¬ng
ĠsuÃ¬ ĠrÃ©nĠkÇĴuĠ
xuÄģnĠ gÃłoĠ
ĠtÅįngĠ chÃ¡ngĠshÃ¬Ġ
bÄĽiĠjÄ«ng ĠdÃłĠxuÃ©Ġ
lÃ¬ĠhÃ©Ġ wÃºĠzhÃ¨ngĠzhuÃłngĠgÇİnĠrÇİnĠzhÄĽĠ
ĠyÃ²uĠmÃŃngĠ BDĠ
hÃ¡ngĠzhÃłnĠ lÃ³uĠ
suÇĴĠxÅ« ĠdeĠ
Ġ bÇĲng
Ġ miÃ¡oĠ
gÅįng ĠzhÅįngĠ
yÃ¡n ĠlÃ¬Ġ
suÇĴ ĠbÃ¹ĠtÃ³ngĠ
liÃº ĠdÃłnĠ
shuÇĲ ĠxiÃłnĠ
sÃ²ng ĠzhÃ¬Ġ
dÄģ ĠchÃ©ngĠ
ĠbÃ¹Ġ lÇĶĠkÃ¨Ġ
ĠgÃ¨ ĠyÇĴuĠ
ĠgÃ¨ ĠxiÃłnĠ
huÃ¬Ġ huÃłĠ
shÄĵngĠ zhÇİng
ĠdÃ© ĠzÃłiĠ
guÄģnĠ kÃłn
lÃ¹Ġ yÄ«nĠ
shÇĴuĠ hÃ¹Ġ
zuÃ¬Ġ jÃ¹Ġ
chuÃ¡nĠ jiÃłoĠ
ÃłnĠ chÃ¡Ġ
fÇİnĠ kÃłngĠ
xÃŃĠ sÃºĠ
mÃłnĠ hÄģĠ
xÃºnĠ hÃ¡ngĠ
ĠcÇĲĠ qiÃ¡nĠ
mÃłiĠ ÄģĠ
tÅ«Ġ juÃ©Ġ
ĠquÃ¡nĠguÃ³Ġ zhÃ²ngĠdiÇİnĠwÃ©nĠwÃ¹ĠbÇİoĠhÃ¹ĠdÄģnĠwÃ¨iĠ
ĠmÃŃnĠ zÃºĠ
ĠyÃ²ngĠ lÃ¡iĠ
ĠwÃ¨iĠyÃºĠgÄģiĠguÃ³Ġ bÄĽiĠbÃ¹Ġ
ĠxÄ« ĠyuÃ¡nĠ
mÇĲnĠ gÇİnĠ
ĠgÄģiĠwÃ¹ĠzhÇĴngĠdeĠmÃ³ĠshÃ¬ĠchÇİnĠ dÃ¬ĠzÃłiĠ
g roundĠ
p iÃ¡n
Ġ tuÅį
Ġ xiÃ¡ng
Ġ ST
Ġ chuÃłngĠzuÃ²Ġ
hÃ²u ĠzhÃ¬Ġ
xiÃłng ĠzÃłiĠ
11 ĠshÃŃĠ
mÃ¬ ĠjÃŃĠ
gÃ¨ng ĠyÇĴuĠ
lÃ¡ng ĠdeĠ
39 Ġ
na tional
ĠyÇĶĠ mÄĽiĠguÃ³Ġ
zhÃłnĠ jÃ¹Ġ
wÃºĠ guÄģnĠ
zhÄ«Ġ wÃłiĠ
zhuÄģngĠ bÃ¨i
quÃ¨Ġ rÃ¨n
hÄģĠ lÄģĠ
kÄĽĠnÃ©ng ĠzÃłiĠ
dÇĲngĠ diÇİnĠ
ĠãĤ ¤
ĠsuÃŃĠ zhÃ¹
jiÄĵĠdÃłoĠ bÃłnĠshÃ¬ĠchÃ¹Ġ
ĠĠĠzhÃ¨Ġ geĠ
ÅįuĠzhÅįu ĠguÃ³ĠjiÄģĠ
ĠÃłnĠ zhÃłoĠ
ĠkÃ¨ĠxÄ«Ġ tÇİĠnÃŃĠdÃłĠqÅ«Ġ
2 ĠshÃŃĠ
Ġ zÃ¡Ġ
lÃ¹ ĠsÄ«Ġ
zuÃ¬ ĠjÃ¬nĠ
shÄ« ĠzÃłiĠ
nÃł ĠzÃłiĠ
nÇļ ĠyÇĴuĠ
qiÄģn ĠdÃłoĠ
mÃ¬ ĠÄĽrĠ
zhÄĵn ĠxiÃłngĠ
HD ĠĠĠ
ĠshÃ¬Ġ xiÃłnĠ
ĠshÃŃĠ sÃ¬Ġ
ĠsÄ«Ġ lÇĲĠlÃ¡nĠ
ĠwÃ©iĠ hÃ¹Ġ
ĠwÃ©iĠ xiÅ«Ġ
ĠdÃłiĠ bÇĶĠ
sÃłiĠ jÅ«Ġ
ĠhÃło ĠhÃ©Ġ
dÃ¡Ġ kÄĵ
shÇĶĠ xÃ¬ngĠ
yÇĲnĠ fÄģ
hÃ¡iĠ bÄģoĠkuÃ²Ġ
chÃ³ngĠ xiÅ«Ġ
biÃ©Ġ shÃ¹Ġ
zÄģiĠ nÃłnĠ
ĠduÅį ĠgÃ¨Ġ
ĠmÃ©iĠ tÇĲĠ
suÅįĠ xiÄĽĠ
ĠÃłi ĠdÃ©ĠhuÃ¡Ġ
ĠxiÃłng ĠshÃ¬Ġ
jiÄģoĠhuÃ¬Ġ chÃ¹Ġ
2 ĠgÅįngĠlÇĲĠ
Ġ yuÇİn
Ġ 69
ĠĠĠ rÃ¬
ĠĠĠ 2002
ĠĠĠ bÇĲĠsÃłiĠ
ĠĠĠ wÅ«ĠkÃ¨ĠlÃ¡nĠ
le ĠdeĠ
yÄ«n ĠdeĠ
nÃ©ng ĠdeĠ
lÇľ ĠdÃ¬Ġ
tiÄĽ ĠdÃło
hÄĽn ĠgÄģoĠ
xÃº Ġ
qÅ«Ġ yÃ¹ĠdeĠ
jiÄģnĠ guÇİnĠ
mÃ¬ngĠ yÃ¹nĠ
gÃ¹Ġ wÃ¨n
wÇİĠ shÄĽngĠ
ĠniÃ¡nĠ6ĠyuÃ¨Ġ 30ĠrÃ¬Ġ
ĠxÃ¬Ġ bÄģo
ĠlÃŃ ĠmÇĲĠ
Ġ jÇĶ
Ġ on
Ġ mÃ¬ngĠmÃŃngĠ
Ġ 1909ĠniÃ¡nĠ
lÇĲ ĠzhÃ¬Ġ
miÃłn ĠwÃ¨iĠ
bÇĲ ĠsÄ«Ġ
rÃ³ng ĠhuÃ²Ġ
biÃ© ĠrÃ©nĠ
mÇĴu ĠgÃ¨Ġ
52 Ġ
rÃ¡o Ġ
shÃŃĠ jÃ¬Ġ
ĠshÃŃĠ Ã¨rĠyuÃ¨Ġ
ĠyÄ«Ġ fÃºĠ
guÄģnĠ qiÇİ
yÃ¨Ġ tÇĲĠ
mÇİĠ dÄ«ngĠ
chÄĵngĠ zÃłn
ĠjiÃ©Ġ gÃ²u
ĠshÃ¬ĠzhÃ¨nĠ fÃłnĠwÃ©iĠnÃ¨iĠ
bÇĶĠ jÇĲĠ
kÄĵĠxuÃ©Ġ yuÃłn
ĠguÄģnĠ zhÃ²ngĠ
gÄĵngĠ huÃłnĠ
ĠcÃ³ng ĠshÃ¬Ġ
yÇĶnĠ kÄĵng
rÃ¨ĠdÃłiĠ dÄ«ĠqÃ¬ĠyÄģĠ
zuÃ¬ĠhÃ²uĠ yÃŃĠgÃ¨Ġ
zÄ«ĠbÄĽnĠ zhÇĶĠyÃ¬Ġ
inclu deĠ
Ġ nÃ©ng
Ġ hÇİo
Ġ 1977ĠniÃ¡nĠ
ĠĠĠ 7Ġ
duÃ¬ ĠzhÃ¬Ġ
biÃłn ĠhÃ²uĠ
dÇĲ ĠbÃ¹Ġ
kÇİi ĠÄĽrĠ
92 ĠniÃ¡nĠ
shÄĵngĠ yÃ¹Ġ
ĠtÄģĠ dÄģnĠrÃ¨nĠ
nÃ¡nĠ hÇİiĠ
ĠquÃ¡n ĠchÃ©ngĠ
jÇĲngĠ wÃ¹Ġ
pÃ¡iĠ chÃº
ĠwÃ©nĠ wÃ¹Ġ
wÃ¡nĠ fÇİĠ
ĠbÇĲĠ rÃº
ĠshÃ¬ĠzhÅįngĠ xÄ«n
1 ĠyÃ¬Ġ
Ġ cÃ¨
Ġ lÄĵi
Ġ Ba
Ġ sÃłiĠshÃ¬Ġ
Ġ yÄģnĠ
dÃł ĠshÃ¬Ġ
yÇĶ ĠshÃŃĠ
qÅ« ĠyÃºĠ
tÃ¡i ĠshÃ¬Ġ
yÇĴuĠ xiÃłnĠ
ĠyÄ«Ġ zhÃłoĠ
ĠgÃ¨ ĠchÅ«ĠrÃ¹ĠkÇĴuĠ
mÃŃngĠ quÃ¨Ġ
ĠtÄģĠ yÃ²uĠ
fÇİĠ guÄ«Ġ
ĠshÃłngĠ xiÃłĠ
bÄģĠ sÄģiĠ
liÃłngĠ zÇĲ
lÃ¨iĠ biÃ©Ġ
ĠtÃ³ngĠ shÃŃĠzÃłiĠ
ĠshÃ¬ĠshÃ¬Ġ zhÇİngĠ
ĠgÃ©Ġ lÃ©iĠ
ĠchÃºĠ le
ĠtÃ¨ĠbiÃ© ĠshÃ¬ĠzÃłiĠ
zhÃłnĠdÃ²u ĠzhÅįngĠ
tÃ¡iĠnÃ¡n ĠshÃ¬Ġ
bÄģĠlÃ¨ ĠsÄ«ĠtÇİn
c Ã²u
Ġ liÃ¡n
Ġ zÇİoĠniÃ¡nĠ
ĠĠĠ suÇĴĠ
ĠĠĠ zhÃ¨ĠxiÄĵĠ
xiÃłn ĠlÃ¹Ġ
huÃ¬ ĠchÃ©ngĠ
ti Ġ
zhÃłn ĠyÇĶĠ
yÄĽ ĠzhÃłnĠ
chÄĵ ĠzÃłiĠ
bÇİng ĠdÄģnĠ
zÅ«n ĠshÇĴuĠ
kuÃŃ ĠbÄĽi
ĠrÃ¬ ĠshÃ¬Ġ
zuÃ²Ġ yÃ²ng
zhÇĶĠ yÃ¬ĠhÃ©Ġ
ĠbÃ¨iĠ sÄ«Ġ
diÃłnĠ cÃŃĠ
ĠkÃ¨Ġ lÃŃnĠ
zÇĶĠ shÅ«ĠjÃ¬Ġ
cÃŃĠ xÃ¬ngĠ
xÅ«Ġ nÇĲ
zhuÄģngĠ cÅ«nĠ
huÃ²Ġ wÃ¹Ġ
bÄ«ngĠ chuÄģnĠ
ĠgÄģoĠ sÃ¹Ġ
qÄ«nĠ wÃ¡ng
xÃ¬nĠ fÃ¨ng
ĠshÇĲĠ chÄĵngĠ
ĠfÄĵn ĠbÃ¹Ġ
ĠyÄ«ĠsÄ«Ġ lÃ¡n
jiÃłoĠkÄĵĠ wÃ©nĠ
C ĠĠĠ
Ġ 1972ĠniÃ¡nĠ
duÅį ĠlÃ¬Ġ
cÄģn ĠjÅ«nĠ
qÇĲng ĠqiÃº
ĠgÅįngĠ bÃ¹
ĠyuÃ¡nĠ shÄĵngĠ
duÃ¬Ġ huÃłĠ
guÄģnĠ zhÃ¹
zhÇĲĠ dÇİo
luÃ³Ġ fÅ«
gÃ²uĠ chÃ©ngĠdeĠ
ĠgÄģoĠ dÃ¹Ġ
huÃłnĠ zhÄĽ
tuÄ«Ġ dÃ²ng
pÃŃnĠ fÃ¡nĠ
ĠniÃ¡nĠzÃłiĠ wÃ¨iĠ
yÇĲngĠxiÇİng ĠleĠ
ĠguÃ³ĠmÃŃnĠ zhÃ¨ngĠfÇĶ
ĠwÃ¨iĠyÃºĠgÄģiĠguÃ³Ġ dÅįngĠnÃ¡nĠbÃ¹Ġ
ĠdeĠjÄ«ĠchÇĶ ĠshÃłngĠ
mÃ¬ĠxÄ«ĠxÄ«Ġ bÇĲ
Ġ jÃŃ
Ġ 1938
Ġ nÃ©ngĠgÃ²uĠ
ĠĠĠ ma
ĠĠĠ shÃ¨Ġ
gÅįng ĠzÃłiĠ
guÄģn ĠjiÃłn
yÃ¨ ĠshÃ¬Ġ
liÃ¨ ĠdÃ¬Ġ
bÅį ĠxÄ«Ġ
hÃłn ĠrÃ©nĠ
wÃłng ĠdeĠ
1980 ĠniÃ¡nĠdÃłi
ĠdeĠ guÇĲĠdÃłoĠ
ĠbÃ¹Ġ xÃŃngĠ
lÇĲĠ yÃ³uĠ
ĠxiÃłnĠ lÃ¹
bÄĽnĠ shÅ«Ġ
gÃ©Ġ lÃ¡iĠ
huÃ¡Ġ xuÄĽ
jÃ¬nĠ zhÇİnĠ
wÄĽiĠ dÃłĠdeĠ
quÃ¡nĠ zhÇİngĠ
hÄģĠ sÃłĠkÃ¨ĠsÄ«Ġ
ĠlÃ¬ngĠ yÃŃĠgÃ¨Ġ
dÅįngĠjÃ¬Ġ ÃłoĠlÃŃnĠpÇĲĠkÃ¨ĠyÃ¹nĠdÃ²ngĠhuÃ¬Ġ
yÇĲnĠqÇĲ ĠleĠ
pÃŃngĠlÃ¹n ĠjiÄģĠ
2019ĠguÄģnĠzhuÃłngĠbÃ¬ngĠdÃº ĠbÃ¬ng
2 ĠhÃło
6 ĠshÃŃĠ
Ġ dÇĴng
Ġ yÃ¹nĠdÃ²ngĠ
Ġ guÃłnĠ
Ġ chuÃłngĠlÃ¬Ġ
Ġ pÃ¨iĠhÃ©Ġ
Ãło ĠdÃ©Ġ
lÇĲ ĠjÃŃĠ
jÄ«ng ĠchÃ©ngĠ
suÇĴ ĠzhÃ¬Ġ
sÃłi ĠshÃłngĠ
tÃ¡i ĠhÃ©Ġ
nÃŃ ĠjÄ«Ġ
dÇĲ ĠdeĠ
fÃ¨i ĠchÃ©ngĠ
sÄģi ĠÄĽr
nuÇİn Ġ
ĠshÃŃĠ jiÄģĠ
ĠzhÃ¬Ġ shÇĲĠ
ĠgÅįngĠ yÃ¹Ġ
ĠzhÅįu ĠzhÄ«Ġ
xiÄģngĠ tÃ³ng
shÇĴuĠ yÃ¬ngĠ
ĠkÃ¨Ġ hÃ¹Ġ
luÃ²Ġ yÃ¡ngĠ
gÃ¨ngĠ gÄģoĠdeĠ
ĠxiÃłnĠdeĠ chÃ©ngĠshÃ¬Ġ
xuÃ¨Ġ guÇİnĠ
mÃ¨ngĠ xiÇİngĠ
zÄ«ĠgÃ©Ġ sÃłiĠ
ĠzÃłiĠzhÃ¨Ġ ge
ĠdÅįng ĠrÃ¬ĠbÄĽnĠ
lÃ¡nĠqiÃºĠ yÃ¹nĠdÃ²ngĠyuÃ¡nĠ
ĠkÇĴngĠ tÃłi
Ġ huÇĴ
Ġ 170
Ġ Ni
Ġ 1960ĠniÃ¡nĠ
jÃ¬n ĠqiÃºĠ
huÃł ĠjÃ¬Ġ
kÄģi ĠguÃ³Ġ
tÇĲ ĠwÃ¨iĠ
liÃło ĠlÇĲĠ
xiÃ¨ ĠrÃ¨nĠ
chÅ«n ĠjiÃ©Ġ
col orĠ
ĠbÃ¹Ġ fÃ¹ĠbÃ¹ĠzhÇİngĠ
ĠqÃŃĠ xiÃł
ÃłnĠ chÃ¡ĠsÄ«Ġ
cÃ¡iĠ zhÃ¨ngĠbÃ¹Ġ
yÇĲnĠ rÃ¹
jiÇİĠ bÇİnĠ
ĠpÃŃngĠfÄģngĠ yÄ«ngĠlÇĲĠ
jiÃ©ĠshÃ¹ ĠshÃŃĠ
ĠyÃ¬ĠzhÃŃ ĠshÃ¬Ġ
ĠniÇĶĠyuÄĵ ĠshÃŃĠbÃłoĠ
ĠĠĠst yleĠ
m Çİng
Ġ Pa
Ġ yÅįngĠ
Ġ zÇİoĠqÄ«Ġ
ĠĠĠ mÇĲĠ
ĠĠĠ fÄĵiĠ
ĠĠĠ dÄģngĠshÃŃĠ
shÇĴu ĠgÃ¨
wÃ©n ĠjiÃłn
wÄĽi ĠrÃ¨nĠ
lÇľ ĠhÃ©Ġ
jiÇİng ĠzuÃ²Ġ
bÃ¡i ĠgÅįngĠ
ction Ġ
wÃ©iĠ qÄ«Ġ
ĠjÅ«nĠ qÅ«
wÇĶĠ shÃ¹Ġ
ĠjÃ¹Ġ juÃ©
shÅ«Ġ fÇİĠ
yuÄĵĠ hÃłn
yÇİnĠ xÃŃĠ
yÃ¬ngĠ bÃ¬Ġ
zÇĲĠ mÃ¨iĠ
dÇİĠ bÃłiĠ
hÃ¡nĠ shÃ¹
liÃłnĠ ÃłiĠ
ĠluÃ³Ġ mÇİ
yÄģĠ suÅįĠ
ĠxÃŃngĠzhÃ¨ngĠ qÅ«ĠhuÃłĠ
ĠzuÃ¬ĠzhÅįngĠ yÃºĠ
ĠhuÃłĠ xuÃ©Ġ
ĠmÃŃnĠ jÃ¬nĠ
diÄģoĠ sÃ¹
ĠĠĠ Di
shÃ¹ ĠniÃ¡nĠ
gÄģi ĠshÃ¬Ġ
zÃ© ĠrÃ¨nĠwÃ©iĠ
xiÄģn ĠshÃ¬Ġ
zhÃ¬Ġ shÇİoĠ
sÄ«Ġ xiÇİng
duÃ¬Ġ kÃłng
ĠÃ©r ĠyÇĶĠ
ĠshÃ¨ ĠshÃ¬Ġ
qiÃ¡nĠ fÄģngĠ
ĠzhÃłnĠ shÃ¨ngĠ
zuÃ¬Ġ zhÇİngĠdeĠ
gÇİiĠ zhuÄģngĠ
mÃ¬Ġ xiÄĵĠgÄĵn
guÇİnĠlÇĲĠ jÃº
shÇĶĠdeĠ dÃ²ngĠwÃ¹Ġ
qÃ¬ngĠ zhÃ¹
yÇİĠ diÇİnĠ
wÅ«ĠkÃ¨ĠlÃ¡n ĠdeĠ
ĠjuÃ©Ġ dÃ¬ng
yÃ¬ĠshÃŃĠ dÃło
ĠzhÃ¬ĠzÃłoĠ shÄģngĠ
dÄģĠ dÃłngĠ
ÄģĠgÄĵnĠ tÃŃng
hÃ²u ĠbÃ¹Ġ
bÄģ ĠgÃ¨Ġ
wÃ¡ng ĠgÅįngĠ
shÃ¨ng ĠxiÃłĠ
yÃłn ĠshÃ¬Ġ
wÃłng ĠsÄ«Ġ
xiÅįng ĠzhÇİngĠ
ĠbÃ¹Ġ lÃ©iĠ
gÅįngĠ zuÃ²
ĠrÃ¬ ĠĠĠ
ĠguÃ³ĠjiÄģĠ ÄģnĠquÃ¡nĠ
ĠnÃłĠ meĠ
xuÃ©ĠxiÃło ĠdeĠ
- .
Ġ yÃ¡o
Ġ 1941
Ġ fÄģĠzhÇİn
Ġ gÄģoĠzhÅįngĠ
ĠĠĠ 2001
ĠĠĠ Ar
chÅ« ĠxiÃłn
shÄĵng ĠshÃŃĠ
zÇĶ ĠjiÃłn
jÃ¬ng ĠwÃ¨iĠ
gÃ²u ĠjiÃłnĠ
wÄĵi ĠÄĽrĠshÃ¬Ġ
kÃ¹n ĠnÃ¡n
dÃ¬Ġ shÃŃĠ
yÄ«Ġ yÃłngĠ
ĠyÇĴuĠ duÅįĠ
ĠgÅįngĠ yuÄĵĠ
ĠyÇĲĠ 3Ġ
bÄģĠ xÄ«
jiÃłĠ zhÃŃ
jiÇİngĠ zhÄģngĠ
zhÃ¨ngĠzhÃ¬Ġ xiÃ©ĠshÄģngĠhuÃ¬ĠyÃ¬Ġ
shÃ¨Ġ huÃ¬ĠdeĠ
zhuÄģnĠ ÃłnĠ
ĠjÄ«ngĠ yÃŃngĠ
bÇĶĠ chÅįng
xÃŃngĠzhÃ¨ngĠ qÅ«Ġ
bÄģngĠzhÃ¹Ġ xiÃłĠ
cÄģngĠ kÃ¹Ġ
lÄĽiĠ dÇİĠ
jiÃ©ĠmÃ¹ ĠzhÅįngĠ
6 ĠgÅįngĠlÇĲĠ
Ġ xÅ«
Ġ 1987
Ġ Fi
Ġ qÄ«ngĠniÃ¡nĠ
ĠĠĠ Par
Ãło ĠzhÅįu
Ã¡i ĠzhÃ¨ngĠ
shÇĲ ĠtÄģĠ
wÇİ ĠsÄ«Ġ
mÇİn ĠzhÅįuĠ
qiÄģng ĠdeĠ
mÇİi ĠjiÄģĠ
lÃłn Ġ
ĠdeĠ chÃ©ngĠshÃ¬Ġ
ĠshÃ¬Ġ qiÃ¡nĠ
ĠbÃ¹Ġ luÃ³Ġ
ĠzhÃ¬Ġ xÃ¹Ġ
ĠjÃŃĠ xÃ¬ngĠ
ĠyÇĴuĠ zheĠ
ĠlÃ¬Ġ xÄ«Ġ
ĠlÃ¬Ġ xiÃłnĠ
ĠchÃ©ngĠ nuÃ²
ĠhÃ²uĠ xÃ¹Ġ
ĠduÃ¬Ġ zhÇİngĠ
ĠrÃ¨nĠ jiÃłoĠ
yÃŃĠ lÃ¡n
wÃºĠ xÅ«Ġ
yÇĲngĠxiÇİngĠ lÃ¬ĠdeĠ
liÃºĠxÃŃngĠ yÄ«nĠyuÃ¨Ġ
wÅįĠ lÃºnĠ
ĠlÃ¬ĠtÃ¡oĠ wÇİn
Ġ bÅįĠchÅ«Ġ
Ġ pÃ¡ngĠ
ĠĠĠ dÃ©Ġ
yÄ« ĠhÃ©Ġ
yÇĴu ĠwÃ¨iĠ
sÄ« ĠwÃ¨iĠ
zhÃłn ĠjiÃłnĠ
dÃłi ĠzÃłiĠ
fÃ¹ ĠlÇĲĠ
jiÄģng ĠqÃŃ
dÄģn ĠshÃ¬Ġ
wÃº ĠshÃ¬Ġ
cÃ¡i ĠfÃ¹Ġ
zÃłn ĠwÃºĠ
cuÄ« ĠhuÃłĠ
qiÃło Ġ
yÄ«Ġ jÃŃĠ
ĠdÃ¬Ġ 3
ĠrÃ©nĠ qÃºnĠ
ĠyÄ«Ġ jiÇİoĠ
lÇĲĠ sÄ«Ġ
ĠyÇĶĠ duÅįĠ
ĠbÃ¨iĠ gÃ©Ġ
huÃłĠ tÃŃĠ
lÄģĠ dÄ«ngĠ
xuÇİnĠ bÃ¡
kÄĵĠ tÃ¨Ġ
gÇĶĠ gÃ©Ġ
ĠquÃ¡nĠ tÇĲĠ
gÃ²ngĠ xiÇİngĠ
hÃ¹Ġ zhÃłoĠ
jiÄĽĠ mÃ¨iĠ
ĠtÃ³ngĠ mÃ©ng
dÃºĠ xÃ¬ngĠ
shuÄģngĠ fÄģng
wÇİĠ lÄģĠ
lÃŃĠkÄģiĠ leĠ
wÃłiĠguÃ³Ġ rÃ©nĠ
gÇİiĠbiÄģn ĠwÃ¨iĠ
qiÇİngĠ pÃ²Ġ
Ġ 1970
Ġ 1979
Ġ kÄĽĠyÇĲ
Ġ cuÄ«Ġ
ĠĠĠ hÃ©ĠĠĠ
zhÃ¹ ĠshÃ¨Ġ
mÇİ ĠdÃ©Ġ
tÃłi ĠhÃ©Ġ
tÃ¡ng ĠdÃłiĠ
ĠzÃłiĠ dÃ¹
ĠrÃ¬ ĠjÃŃĠ
ĠyuÃ¡nĠ xiÄģnĠ
ĠrÃ¬Ġ jÃ¬Ġ
ĠxÄ«Ġ fÄģng
shÃ¹Ġ xuÃ©ĠjiÄģĠ
lÃ¹Ġ duÃłn
gÃ©Ġ lÄĵi
jÄ«nĠ gÄģngĠ
fÄĵngĠ bÃ¬Ġ
yÃŃĠ bÃ¹ĠdeĠ
bÄģĠ hÃ¨
ÃłoĠ fÃºĠ
gÃ²uĠ rÃ¹Ġ
qiÄģnĠ mÇĲ
tuÅįĠ lÃŃ
ĠtiÄģnĠ zhÇĶĠjiÃłoĠ
ĠshÃ¬ĠdÃ¬Ġ Ã¨rĠ
ĠdeĠdÃłĠ xÃŃngĠ
fÃ¡nĠ rÃ³ngĠ
ĠshÃ¬ĠwÃ¨iĠyÃºĠmÄĽiĠguÃ³Ġ mÃ¬ĠsÅ«ĠlÇĲĠ
tiÄģnĠjÄ«n ĠshÃ¬Ġ
r in
Ġ à
Ġ shÇİn
Ġ yÇĴuĠdeĠ
ĠĠĠ zhÇĲĠ
ĠĠĠ sÃ¬Ġ
shÃ¹ ĠlÃ¬Ġ
duÅį ĠyÃºĠ
huÃ¡ ĠyÃ¬Ġ
bÃłi ĠhÃ²uĠ
ĠdeĠ gÄĵĠqÇĶĠ
mÃŃngĠ yÃ¹Ġ
ĠshÃłngĠ sÃ¹Ġ
nÃ¨iĠ zhÃ¨ngĠbÃ¹Ġ
yÃłĠ mÇİĠ
ĠzhÃ¹Ġ cÃ¨Ġ
shÇĶĠ wÃ¹ĠzhÇĴngĠ
ĠjÄ«nĠ tiÄģnĠ
ĠniÃ¡nĠ3ĠyuÃ¨Ġ 1ĠrÃ¬Ġ
leĠyÄ«Ġ zuÃ²Ġ
kÄģiĠshÇĲ ĠdeĠ
ĠgÇİiĠ biÄģn
chuÃ¡nĠtÇĴng ĠshÃłngĠ
cÄģnĠsÃłiĠ zhÄĽĠ
jiÃ¨ĠquÃ¡nĠguÃ³Ġ rÃ©nĠdÃłĠdÃłiĠbiÇİoĠ
ĠxiÇİo ĠpÃŃngĠ
mÃ¹ĠbiÄģo ĠshÃ¬Ġ
fÄĵiĠlÃ¬Ġ pÇĶĠ
Ġ fÃłngĠ
Ġ duÇİnĠ
Ġ tuÄ«ĠchÅ«Ġ
Ġ duÃ³ĠdeĠ
ĠĠĠ yÇĲ
ĠĠĠ colspanĠ
jiÃłn ĠguÃ³Ġ
shuÄģng ĠxiÃłngĠ
pÃło ĠjÄ«Ġ
ĠgÅįngĠ wÃ¹ĠyuÃ¡nĠ
ĠdÃło ĠwÃ¨iĠ
ĠyuÃ¡nĠ yÃ¬Ġ
ĠchÅ« ĠwÃ¨iĠ
ĠlÇĲĠ yÃł
lÃ¡iĠ shuÅį
shÇĴuĠ xÃŃ
sÄģnĠ fÄĵnĠzhÄ«Ġ
nÃŃĠ ÃłoĠ
bÃłnĠ chÇİngĠ
shÄģngĠ hÃłi
xÃŃĠ guÃłn
yÃ¡nĠjiÅ« ĠzhÅįngĠ
xÅ«Ġ nÇĲĠ
tiÃ¡oĠ yuÄĵ
dÄĵngĠ chÃ¡ng
huÃ¡ĠrÃ©nĠmÃŃnĠ gÃ²ngĠhÃ©Ġ
ĠzhÅįngĠyÄģngĠ wÄĽiĠyuÃ¡nĠhuÃ¬Ġ
yÃ¬ngĠyÃ²ngĠ chÃ©ngĠshÃ¬Ġ
ĠdeĠguÄģnĠ diÇİnĠ
ĠxÄ«nĠjiÄģĠ pÅįĠ
Ġ To
Ġ ÅįuĠyuÃ¡nĠ
qiÃ¡n ĠlÃ¬Ġ
lÃŃn ĠhÃ©Ġ
xÄ«ng ĠrÃ©nĠ
yÃ¡ng ĠrÃ©nĠ
sÃ¨ ĠhÃ©Ġ
tÃ³u ĠyÃºĠ
xiÄģn ĠzÃłiĠ
ĠdeĠ zhÃŃĠ
ĠbÃ¹Ġ duÃ¬ĠdeĠ
ĠzhÃ¬Ġ dÃłĠ
ĠyÃ¬Ġ miÃ¡oĠ
hÃ²uĠ bÃ¨iĠ
zhÃ¨ngĠ jiÃłoĠ
ĠhÃ²uĠ yÃ²uĠ
duÃ¬Ġ bÇĲĠ
ĠÄĽr ĠjiÄģĠ
yÃ¹Ġ suÃłn
jÄ«ngĠ lÃŃngĠ
shÇĴuĠ qiÄģngĠ
ĠkÃ¨Ġ lÃ©iĠ
ĠshÄĵngĠ yÄ«nĠ
shÄģnĠ lÃ¹Ġ
liÃ¨Ġ nÃŃngĠ
xiÃłoĠ xiÃłngĠ
yÃ¡ngĠ xÃ¬ngĠ
biÄģnĠ jiÄģngĠ
dÇİngĠ wÄĽiĠshÅ«ĠjÃ¬Ġ
kÅįngĠ xÃŃ
jÅ«nĠ duÃ¬
sĠĠĠ of
pÃłoĠ bÄ«ngĠ
ĠĠĠzhÅįngĠ huÃ¡ĠmÃŃnĠguÃ³Ġ
ĠyÇĲĠjÄ«ng ĠbÃ¨iĠ
ĠdÃ¬ĠzhÅįngĠ hÇİiĠ
ĠfÃºĠlÇİngĠ shÃ©nĠ
kÇİĠsÄ«ĠdÃ¬ĠlÃ¬Ġ yÃłĠ
ï ¹
Ġ jÇĶĠxÃŃngĠ
Ġ lÃŃnĠshÃŃĠ
Äģn ĠdÃłĠ
jiÃ© ĠrÃ¬Ġ
dÄĽng ĠshÃ¬Ġ
huÃ¡ ĠnÃ¡nĠ
chÄģo ĠshÃ¬Ġ
bÇĶ ĠshÃŃĠ
kuÄģn ĠdÃ¹Ġ
yuÃ¡nĠ wÃłiĠlÃ¡ngĠ
ĠguÃ³Ġ huÃ¬ĠyÃ¬ĠyuÃ¡nĠ
ĠdÃ© ĠchÅ«Ġ
dÃłiĠ lÇĲngĠ
ĠjÅ«nĠ xiÃ¡nĠ
diÃłnĠ zhÃłnĠ
yÃŃĠ dÇİoĠ
zÇĴngĠ zhÇİngĠ
ĠlÃ¹Ġ xÃ¹Ġ
tÃ³ngĠ pÃ¡iĠ
ĠdeĠyÄ«Ġ zuÃ²
ĠyÄ«nĠwÃ¨iĠ zÃłiĠ
hÄĽnĠ shÇİo
ĠniÃ¡nĠ8ĠyuÃ¨Ġ 1ĠrÃ¬Ġ
ĠzhÇĲĠ huÄ«Ġ
ĠdeĠhÃ©Ġ xÄ«nĠ
ÃłoĠlÃŃnĠpÇĲĠkÃ¨Ġ yÃ¹nĠdÃ²ngĠ
sÃłĠzhÅ«Ġ sÄģi
Ġback groundĠ
Ġ gÃłn
Ġ Pro
Ġ lÃ³uĠ
Ġ pÄ«ĠpÃŃngĠ
ĠĠĠ zhÇĶĠ
zhÃ¨ng ĠrÃ©nĠ
duÃ¬ ĠzhÅįngĠguÃ³Ġ
mÇİ ĠzhÅįuĠ
fÄĵng ĠlÃ¬Ġ
mer i
ĠzÃłiĠ xiÄģngĠgÇİng
bÃ¹Ġ duÃ¬Ġ
ĠdÃ¬Ġ zhÇĲĠ
ĠdÃłoĠ qiÃłnĠ
ĠjiÄģĠ zhÅįu
ĠtÄģĠ kÄģiĠshÇĲĠ
dÅįngĠ fÄĵngĠ
dÃ¬ngĠ jÅ«
jÅ«Ġ zhÃ¹
gÃłiĠ yÃłoĠ
dÃłiĠbiÇİo ĠdÃłĠ
ĠzÃłiĠyÄ«Ġ cÃ¬Ġ
ĠbÅį ĠsÄ«Ġ
ĠzÃłiĠjiÄģĠ shÃłngĠ
chÄĵĠrÃ©nĠ cÃ¬Ġ
2 ĠpÃŃngĠfÄģngĠgÅįngĠlÇĲĠ
Ġ jiÄģ
Ġ chÇİnĠ
ĠĠĠ cÃ©ngĠ
le ĠhÃ©Ġ
zhÃłn ĠxiÃłnĠ
zhÇĶ ĠjÄ«Ġ
tÅįng ĠdeĠ
qÃ¬ ĠshÃ¬Ġ
rÃº ĠtÃ³ngĠ
jiÃł ĠwÃ¨iĠ
tion ĠĠĠ
1898 ĠniÃ¡nĠ
shÃŃĠ qÄ«ĠdeĠ
ĠbÃ¹Ġ lÃºnĠ
guÄģnĠ zhÃŃĠ
fÄĵnĠ wÃ©i
ĠzuÃ²Ġ yÃ²ng
zuÃ¬Ġ xiÇİoĠ
ĠlÃ¹Ġ kÇĴuĠ
tÃºĠ shÄģ
ĠxiÃłngĠ mÃ¹
ĠqÃŃĠzhÅįngĠ yÃŃĠgÃ¨Ġ
huÄ«Ġ sÃ¨Ġ
ĠdeĠshÃŃĠ dÃłiĠ
ĠmÇİ ĠsÄ«Ġ
zhuÄ«Ġ suÃŃĠ
ĠrÃ¨nĠwÃ©i ĠshÃ¬Ġ
ĠjÄ«ĠbÃłi ĠleĠ
xÄ«nĠchÃ©ngĠ lÃ¬ĠdeĠ
ĠfÄĵiĠlÇľĠ bÄ«nĠ
Ġ rÇĶ
Ġ 1974ĠniÃ¡nĠ
ĠĠĠ 188
Ãło ĠbÃ¹Ġ
quÃ¡n ĠyÃ¬Ġ
kÄģi ĠdeĠ
hÇİi ĠzhÃłnĠ
Ã¨r ĠhÃłoĠ
shÄĵn ĠkÃ¨Ġ
pÃ¡i ĠdeĠ
jiÄĽ ĠxÄ«Ġ
pÄ« ĠquÃ¡nĠguÃ³ĠzhÃ²ngĠdiÇİnĠwÃ©nĠwÃ¹ĠbÇİoĠhÃ¹ĠdÄģnĠwÃ¨iĠ
dÅ«n ĠdeĠ
DVD Ġ
ĠyuÃ¨Ġ kÄģnĠ
ĠzhÃ¬Ġ suÇĴĠzÃłiĠ
ĠdÃłĠ tÄ«ngĠ
ĠchÅ« ĠshÃ¬Ġ
shÇĴuĠ pÄ«Ġ
ĠrÃ¨nĠ nÃ¨iĠ
bÃ¬Ġ huÃłĠ
nÇļĠ xÃ¬ngĠdeĠ
shÄģĠ tÃ¨Ġ
qÄ«nĠ lÃ¼Ã¨Ġ
ĠniÃ¡nĠ9ĠyuÃ¨Ġ 1ĠrÃ¬Ġ
ĠĠĠA Ġ
yÃ¬ĠshÃŃĠ dÃłoĠ
ĠdeĠzuÃ²Ġ pÇĲn
ĠqiÃ¡ngĠ diÃłoĠ
juÄģnĠ zÃ¨ng
qÇĲĠyÃ¨ ĠjiÄģĠ
ĠkÇĴngĠtÃłi ĠdÃłĠqÅ«Ġ
R NA
Ġ cÃºnĠzÃłiĠ
Ġ cÇİoĠ
jÃ¹ ĠshÃ¬Ġ
wÃ©n ĠhÃ©Ġ
fÃº ĠsÄ«Ġ
miÃłn ĠyÇĴuĠ
200 Ġ
jiÃ¹ ĠdeĠ
sÃ¹ ĠwÃ¨iĠ
gÇİi ĠyÃ³uĠ
gÇİng ĠdeĠ
cÃŃ ĠyÇĶĠ
dÄ« ĠdÃ¬Ġ
yÇİng ĠhÃ©Ġ
pÃło ĠdeĠ
il Ġ
ĠbÃ¹Ġ lÃ©i
ĠyÄ«Ġ dÃłi
ĠjÃ¬Ġ jiÃ©Ġ
zhÃ¹Ġ rÃ¹Ġ
bÃ³Ġ lÇİn
bÃłnĠ jÃ¬ngĠ
ĠyÄĽĠ kÄĽĠ
cÄģnĠ tÄ«ng
wÃłiĠjiÄģoĠ guÄģnĠxÃ¬Ġ
4 ĠgÅįngĠlÇĲĠ
Ġ 1984
Ġ jÃºĠ
Ġ fÄģĠzhÇİnĠ
Ġ dÇĲngĠ
ĠĠĠ rÃºĠguÇĴĠ
suÇĴ ĠzhÄ«Ġ
liÃ¡n ĠsÄ«ĠjÄ«Ġ
sÃłi ĠhÃ©Ġ
bÃ³ ĠdeĠ
chuÃ¡n ĠchÃ©ngĠ
ĠwÃ¨iĠ fÃ¹Ġ
ĠdÃ¬Ġ di
yuÃ¡nĠ sÃ¹Ġ
ĠyÄ«Ġ kÃło
ĠxÄ«Ġ yÇĶĠ
rÃ¨nĠ nÃ¨iĠ
pÃŃngĠ jiÃ¨Ġ
nÃ¡nĠ yÇİnĠyuÃ¡nĠ
ĠyÄ«n ĠzÃłiĠ
shÇĴuĠ gÄĵĠqÇĶĠ
fÄĵnĠ kÄģiĠ
fÃºĠ lÇĶĠ
yÃłoĠ sÃłiĠ
yÃ¡nĠjiÅ« ĠshÃ¬Ġ
yÇĲĠ lÃ¡i
xiÄģoĠ miÃ¨
xiÃ©Ġ huÃ¬ĠdeĠ
tÃ¡oĠ lÃŃĠ
ĠdeĠrÃ©nĠ kÇĴuĠwÃ¨iĠ
yÃ¬nĠdÃ¹Ġ jiÃłoĠ
juÃ©ĠsÃ¨Ġ bÃłnĠyÇİn
ĠjÃ¬ĠhuÃł ĠzÃłiĠ
guÃ²ĠqÃ¹ ĠdeĠ
Ġ miÃłnĠduÃ¬Ġ
ĠĠĠ huÃ¬Ġ
zhÇİng ĠshÃŃĠjiÄģnĠ
chÃ¹ ĠzÃłiĠ
pÃ¨i ĠsÄ«Ġ
1896 ĠniÃ¡nĠ
ĠniÃ¡n ĠshÃ¬ĠjiÃ¨
ĠjÃŃĠ jiÃ©Ġ
ĠgÃ¨ ĠshÃ¬Ġ
ĠjÅ«n ĠjiÃłnĠ
zhÃ¨Ġ zuÃ²Ġ
liÃ¡nĠ xÃ¬
shÄģnĠ kÇĴuĠ
dÄģnĠ dÄģngĠ
biÃłnĠ huÃłĠdeĠ
jiÇİnĠ yÃłnĠ
shÃ¨ngĠ diÃłnĠ
jiÃłnĠ kÄģng
jiÄĽĠ pÅįu
ĠdeĠshÃ¬Ġ wÃ¹Ġ
ĠsuÃ¬ ĠdÃłoĠ
ĠyÄ«ngĠ cÃ¹nĠ
ĠbÇĲĠ jiÃłoĠ
jÃ¹nĠ wÃ¡ngĠ
wÃ¡nĠchÃ©ngĠ hÃ²uĠ
sÅ«nĠ ziĠ
ĠwÃłiĠ jiÄģo
ĠrÃ¨n ĠzhÅįngĠgÃ²ngĠ
Ġ 78
Ġ bÃºĠhuÃ¬Ġ
Ġ 24Ġ
Ã© ĠdeĠ
ĠĠĠ tÃ¨Ġ
ĠĠĠ hÇİiĠ
ĠĠĠ guÇĲĠdÃłoĠ
ĠĠĠ 1999ĠniÃ¡nĠ
lÃ¬ ĠniÃ¡nĠ
fÄĵn ĠhuÃ¬Ġ
wÇĶ ĠrÃ¬Ġ
shÄģn ĠshÃłngĠ
gÇĶ ĠjÃŃĠ
wÄĵi ĠsÄ«Ġ
lÃŃng ĠshÃŃĠ
wÄĵn ĠhÃ©Ġ
st ri
chÃ¨ ĠchÅ«Ġ
rÃ³u Ġ
ĠzhÅįngĠ wÇĶĠ
jÃ¬Ġ yÃ¬Ġ
zhÃ¨ngĠ wÄĽiĠ
zhÃŃĠ jiÃłoĠ
fÇİĠ tÃŃng
fÄĵnĠ xÄ«
liÃºĠ chuÃ¡n
bÃłoĠ dÇİo
ĠhÃło ĠshÃ¬Ġ
biÃłnĠ huÃłn
wÅ«Ġ dÇĲngĠ
dÃłiĠbiÇİoĠ tuÃ¡n
xuÃ¡nĠ lÇľĠ
zhÃłngĠ Ãłi
ĠguÃ³ĠmÃŃnĠ gÃ©ĠmÃ¬ng
ĠtÃ¡ngĠ chÃ¡oĠ
ĠqÃŃĠtÄģ ĠrÃ©nĠ
jiÄģoĠliÃº ĠdÃłoĠ
Ġ bÃłn
ĠĠĠ quÃ¡n
ĠĠĠ Ra
lÇĲ ĠwÃ¨iĠ
sÃłi ĠhuÃ¬Ġ
wÇĶ ĠjÃŃĠ
luÃ³ ĠyÄ«Ġ
89 ĠniÃ¡nĠ
ĠzÃłiĠ jÃ¹Ġ
ĠshÃŃĠ bÃ¹Ġ
ĠyÃºĠ 2007
ĠxiÃłn ĠxÃŃngĠ
jÄ«Ġ hÅ«Ġ
ĠdÃłĠ xiÇİo
ĠyÇĲĠ cÇĲ
ĠyÇĶĠ yÄ«nĠ
ĠchÅ«Ġ shÇĲĠ
bÇİoĠ Äģn
chuÃ¡nĠ fÃ³ĠjiÃłoĠ
gÇİngĠ kÇĴu
ĠyÄĽĠ chÄĵngĠwÃ©iĠ
zhÅįngĠdeĠ yÃŃĠgÃ¨Ġ
ĠluÃ³Ġ nÃ¨Ġ
ĠpÇĶĠ tÅįngĠ
ĠÃło ĠzhÅįuĠ
sÇĶnĠ shÄģngĠ
ĠwÃ¨iĠyÃºĠgÄģiĠguÃ³Ġ zhÅįngĠbÃ¹Ġ
ĠxÄ«ĠlÃł Ġ
zuÃ¬ĠhÃ²uĠyÄ«Ġ cÃ¬Ġ
ĠpÃŃng ĠjÅ«n
xiÃłngĠmÃ¹ ĠdeĠ
yÃ¬nĠdÃ¬Ġ ÄģnĠrÃ©nĠ
ĠqÇĲ ĠchÅ«Ġ
chÃ³ngĠqÃ¬ng ĠshÃ¬Ġ
ĠzhÄ«ĠjiÄģĠ gÄĵĠ
Ġ 140
Ġ Na
qÅ« ĠzÃłiĠ
zhÃłn ĠjÄ«Ġ
fÃ¹ ĠzÃłiĠ
fÇİ ĠlÃ¬Ġ
mÃ¹ ĠjÄ«Ġ
bÄĽi ĠwÃ¨iĠ
gÄĵ ĠsÄ«Ġ
bÄģng ĠdeĠ
el ĠĠĠ
ĠshÃ¬Ġ tÃ¡iĠwÄģn
ĠwÃ¨iĠ rÃ¬ĠbÄĽnĠ
ĠyÄ«Ġ shÅ«Ġ
zuÃ²Ġ biÄģoĠ
ĠÃ©rĠ sÇĲĠ
ĠbÃ¬ngĠ zhÇĲĠyÃºĠ
jiÄĵĠ cÃ©ngĠ
tÇĲĠ cÄģoĠ
tÃŃĠ jiÄģo
gÇİiĠ liÃ¡ngĠ
ĠchÃ©ngĠwÃ©iĠ yÃŃĠgÃ¨Ġ
ĠĠĠdÃ¬Ġ mÃŃngĠ
ĠniÃ¡nĠ6ĠyuÃ¨Ġ 1ĠrÃ¬Ġ
ĠzhÃŃĠ yÃ¨Ġ
dÃłnĠ yÃłoĠ
zÃłoĠchÃ©ngĠ leĠ
tÃ¡iĠfÄĵngĠ jÇĲngĠbÃło
ĠHR ĠĠĠ
Ġ zhuÃłng
Ġ hÄĵng
Ġ 1978
Ġ Ne
Ġ Ca
Ġ yÃłĠlÃ¬ĠshÄģnĠdÃłĠ
qÃŃ ĠxiÃłĠ
mÃŃng ĠyÇĶĠ
qÅ« ĠzhÄ«ĠyÄ«Ġ
shÃ¹ ĠzhÄ«Ġ
mÄĽi ĠrÃ©nĠ
shÇĴu ĠzhÄ«Ġ
fÇİn ĠfÃ¹Ġ
zhuÇİn ĠrÃ¨nĠ
pÃłi ĠchÅ«
rÃ¨ ĠhÃ©Ġ
tuÃ¬ ĠchÅ«
1990 ĠniÃ¡nĠdÃłi
1950 ĠniÃ¡nĠdÃłiĠ
chÇĴu ĠkÄĵĠ
MV Ġ
mm Ġ
zhÃłnĠ tÄ«ngĠ
nÃ¡nĠ cÃ¨Ġ
ĠbÃ¨iĠ shÄģĠ
ĠpÃŃngĠ gÅ«Ġ
zhÃ¨nĠ yÄģ
bÃ¬Ġ yÃ¨
bÃ¬Ġ yÃło
zÄ«Ġ gÃ©
ĠdeĠdÃ¬Ġ xiÃłĠ
yÄ«nĠ mÃ³uĠ
chÇĶĠ sÇĲĠ
ĠnÃ¨iĠ rÃ³ng
jiÄģoĠtÅįng ĠbÃ¹Ġ
ĠV Ġ
dÃ²ngĠlÃ¬Ġ xuÃ©Ġ
ĠruÃ¬Ġ diÇİnĠ
gÇİnĠlÇİn ĠqiÃºĠ
7 ĠmÃŃngĠ
Ãło ĠkÃ¨ĠxÄ«ĠtÇİĠnÃŃĠdÃłĠqÅ«Ġ
ÄĽr ĠsÄ«Ġ
sÄģn ĠhÃ©Ġ
zhÄĽ ĠzhÄ«ĠyÄ«Ġ
fÃłng ĠdeĠ
zhÄģo ĠmÃ¹Ġ
ĠzÃłiĠ gÄģoĠ
ĠhÃ©Ġ yÇĲĠ
ĠzhÅįngĠ chÇİngĠ
ĠyÃ¬Ġ rÃ¬Ġ
ĠÄĽrĠ fÅ«Ġ
jiÄģnĠ jÃ¬nĠ
zhÃŃĠ tÅįngĠ
ĠbÃ¬ngĠ dÄģnĠrÃ¨nĠ
ĠqÃŃĠ jiÄģnĠ
ĠjÃ¬n ĠchÃ©ngĠ
ĠzhÃłnĠ chÇİngĠ
cÇĲĠ qiÃ¡nĠ
mÃ©iĠ yÇĴuĠzÃłiĠ
ĠgÄģiĠ dÇİng
cÃ¡iĠ pÃłn
fÃłnĠ chÃ³uĠ
gÃ¹Ġ zhÃłngĠ
chÃ³ngĠ bÃłiĠ
ĠbÅįĠ lÃ¡n
chÄģĠ biÃ©Ġ
tÅįngĠguÃ² ĠdeĠ
sÇĶnĠ hÃłiĠ
ĠshÃ¬ĠyÃ¬Ġ yuÃ¡nĠ
gÇİiĠbiÄģn ĠzÃ¬Ġ
yÇĴuĠbÃ¹Ġ shÇİoĠ
bÅįĠshÃ¬Ġ dÃ¹nĠ
Ġon ly
0 ĠrÃ©nĠ
Ġ 1940
Ġ 1944
Ġ My
hÃ²u ĠrÃ©nĠ
jiÄģng ĠdeĠ
zÇĴng ĠrÃ©nĠkÇĴuĠdeĠ
cÃ¡i ĠshÃ¬Ġ
ĠhÃ©Ġ sÄ«Ġ
ĠshÃŃĠ wÇĶĠ
yÃ¬Ġ jiÃłnĠ
ĠdÃłn ĠdÃłoĠ
fÃºĠ lÄģĠ
tÃŃngĠ liÃºĠ
yÃ¡nĠjiÅ« ĠrÃ©nĠyuÃ¡nĠ
ĠdeĠyÄ«Ġ yuÃ¡nĠ
zhÄĵnĠ zhÅ«Ġ
ĠsuÇĴĠ shÇĶĠdeĠ
ĠdeĠshÃŃĠ wÃ¹Ġ
sÃ²ngĠ wÇİngĠ
ĠnÇļĠ xÃ¬ngĠwÃ¨iĠ
ĠdeĠjÃ¬Ġ zÇİiĠ
ĠsÄģn ĠgÃ¨Ġ
xiÃłĠjÃ¬Ġ ÃłoĠyÃ¹nĠhuÃ¬Ġ
zhÃłnĠzhÄĵng ĠdeĠ
huÃ¡nĠjÃ¬ng ĠzhÅįngĠ
ĠĠĠin ĠĠĠtheĠĠĠ
ĠÑ Ģ
gÄģoĠdÄĽng ĠxuÃ©ĠxiÃłoĠ
fÃºĠlÃ©i ĠdÃ©Ġ
Ġonly includeĠ
8 ĠmÃŃngĠ
T wit
m ÇĴ
Ġ 2025ĠniÃ¡nĠ
Ġ 1936ĠniÃ¡nĠ
jÄ« ĠwÃ¨iĠ
bÃ¨i ĠlÃ¬Ġ
shÄģn ĠjÃŃĠ
hÇİn ĠjiÃłnĠ
sion Ġ
And ro
1895 ĠniÃ¡nĠ
ĠshÃ¬Ġ jÃ¬
ĠzÃłiĠ 17
ĠhÃ©Ġ hÃ²uĠ
jÄ«Ġ xiÃ¨Ġ
ĠzhÄ« ĠrÃ©nĠ
ĠgÃ¨ ĠjÃŃĠ
ĠzhÅįu ĠzhÃ¬Ġ
fÄģĠ diÃłnĠjÄ«Ġ
ĠdÃłn ĠyÃºĠ
yÃ¨Ġ zhÄĽĠ
ĠtÃ³ng ĠzhÄ«Ġ
rÃ¹Ġ xuÃ©Ġ
chÃ¡ngĠ chÅ«n
lÃŃnĠ qÅ«Ġ
qÄ«ngĠ chÇĶ
kÅįngĠ jiÄģnĠdeĠ
hÃ¡nĠ mÃŃnĠguÃ³Ġ
wÄĽiĠyuÃ¡nĠhuÃ¬Ġ zhÇĶĠrÃ¨nĠ
chÅįngĠ mÇİn
ĠqÄ«ngĠ chÃ¡o
nÃŃngĠ bÅįĠ
Ã¨Ġ liÃ¨Ġ
ĠyÃ¬ĠzhÃŃ ĠdÃłoĠ
ĠhÄģĠÄĽrĠ bÄ«nĠshÃ¬Ġ
tÃłnĠxiÇİn ĠduÃ¬Ġ
+ +
0 ĠbÇĲĠ
Ġ yÃ¬
Ġ tÅįng
Ġ xuÄģn
Ġ juÇİn
Ġ Ju
Ġ huÃ³Ġ
Ġ 1971ĠniÃ¡nĠ
Ġ 1927ĠniÃ¡nĠ
Ġ 1934ĠniÃ¡nĠ
Ã¡ Ġ
zhÃŃ ĠxiÃłnĠ
chÄĵ ĠshÃłngĠ
tiÄģn ĠdÃ¬Ġ
qÄ«ng ĠlÇĲĠ
tÃº ĠshÃłngĠ
kÃ¹ ĠsÄ«Ġ
67 Ġ
62 Ġ
ĠshÃŃĠ liÃ¹
jÃ¬Ġ zÇİi
ĠÄĽrĠ bÄģĠ
ĠfÃ¹Ġ zÃ¡Ġ
zuÃ¬Ġ dÃł
ÄģnĠ dÇİĠ
zÇĴngĠ jiÃ©Ġ
ĠmÄĽi ĠjÅ«nĠ
liÃłnĠ jiÄĵĠ
ĠshÃ¹Ġ zÃ¬Ġ
ruÃ¬Ġ shÃ¬ĠdeĠ
mÇĴuĠ zhÇĴngĠ
ĠÄĽrĠsÄ«Ġ kÃ¨Ġ
ĠdÃ©ĠlÇĲĠ kÃ¨Ġ
ĠchÅ«ĠbÇİn ĠleĠ
ĠxÄ«nĠzÄĵngĠ jÃ¬ngĠwÃłiĠshÅ«ĠrÃ¹Ġ
Ġcom Ġ
u Ġ
Ġ chÃ³ng
Ġ lÃ¹nĠ
Ġ 1933ĠniÃ¡nĠ
ĠĠĠ di
lÇĲ ĠyÃºĠ
jÇĲ ĠwÃ¨iĠ
yÃł ĠÄĽrĠ
Ã¨r ĠgÃ¨Ġ
yÃ²u ĠyÇĴuĠ
mÃ³ ĠÄĽrĠ
âĢ ¢
gÇİn ĠjÅ«nĠ
gÄĵng ĠdÃ¬Ġ
sÃłng Ġ
ĠyÇĴuĠ gÅįngĠ
zhÃ¨Ġ xiÃłngĠ
tiÄģnĠ qiÃ¡oĠ
ĠzhÃ¨Ġ lÃ¨iĠ
tÃłiĠ lÄĵiĠ
nÃłĠ rÃ¹
bÅįĠ luÃ³Ġ
zhÄĵngĠ yÃ¬ĠdeĠ
shuÅįĠ fÃºĠ
ĠwÃłnĠ dÅ«nĠ
ĠgÄĵnĠjÃ¹Ġ 2010ĠniÃ¡nĠmÄĽiĠguÃ³ĠrÃ©nĠkÇĴuĠpÇĶĠchÃ¡Ġ
ĠgÅįngĠsÄ« ĠhÃ©Ġ
ĠwÃ¨iĠyÃºĠgÄģiĠguÃ³Ġ nÃ¡nĠbÃ¹Ġ
ĠshÃ¬ĠjiÃłn ĠzhÅįngĠ
sÄģngĠ nÃł
xiÅ«ĠzhÃ¨ngĠ ÃłnĠ
nÃ¡ĠpÃ²Ġ lÃºn
mÃŃnĠjÃ¬nĠ dÇİngĠ
m Åį
Ġ pÃ¡ng
Ġ 1960
Ġ zhÄģnĠmÇĶĠsÄ«Ġ
Ġ 1940ĠniÃ¡nĠ
ĠĠĠ ÃłnĠ
yÃ¹ ĠmÃŃngĠ
rÃ¨n ĠhÃ²uĠ
guÄģn ĠyÇĶĠ
mÄĽi ĠshÃŃĠ
kÄĽ ĠgÅįngĠ
liÃº ĠqiÃº
shÇĶ ĠdeĠyÄ«ĠzhÇĴngĠ
kuÃ² ĠjiÃłn
mÃ³ ĠsÄ«Ġ
cÃ¡i ĠbÃ¨iĠ
wÃłn ĠyuÃ¡nĠ
nÇĲ ĠdeĠ
ĠshÃ¬Ġ yÃ¬ngĠ
yÃ¬Ġ zhÃŃĠ
ĠyÃ¬Ġ kÄĽĠ
ĠyÇĲĠ wÃłi
duÃ¬Ġ cÇĲĠ
ĠxÄ«Ġ bÃ¹ĠdeĠ
xiÄģngĠ cÅ«nĠ
zhÃ¹Ġ yÃ¬ĠdeĠshÃ¬Ġ
ĠhuÃ² ĠqÃŃĠtÄģĠ
wÃ¡ngĠ zÇĲ
fÇĶĠ bÃłiĠ
xiÄģoĠ liÃłng
ĠhÃ©ĠguÃ³Ġ jÃ¬Ġ
pÃłiĠ xÃ¬Ġ
bÃ¬ngĠ fÄĵiĠ
leĠyÄ«Ġ chÃ¡ngĠ
ĠyÄ«nĠyuÃ¨Ġ huÃ¬Ġ
pÃŃnĠ lÇľ
shuÃ¬Ġ miÃ¡n
Ġ2011 ĠniÃ¡nĠ12ĠyuÃ¨Ġ31ĠrÃ¬Ġ
sÅ«ĠliÃ¡n ĠdeĠ
chÄģiĠ chÃº
zhuÄģngĠwÃ¨iĠ lÃŃnĠ
I ON
Ġ 1958
Ġ 1981
Ġ xÅ«ĠyÃło
Ġ yuÃ¡nĠshÃ¬Ġ
Ġ gÅ«ĠjÃ¬Ġ
zhÃ¬ ĠĠĠ
Äģi ĠdÃ©Ġ
yÇĶ ĠgÅįngĠ
nÃ¡n ĠdÃłĠxuÃ©Ġ
bÄģn ĠjÄ«Ġ
nuÃ² ĠkÃ¨Ġ
bÃ¡o Ġ
Î± Ġ
ĠdeĠ niÃ¡n
lÃ¬Ġ chÇİngĠ
jÄ«Ġ xiÃ¨
ĠjiÃłn ĠzhÄ«Ġ
ĠbÃ¨iĠ yÃ¹ĠwÃ©iĠ
dÅįngĠ hÇİiĠ
zhÇİngĠ zhÃ³u
qÇĲĠ fÄĵiĠ
mÇĲĠ yÃł
ĠzhÅįngĠguÃ³Ġ gÅįngĠ
mÃ³Ġ fÇİngĠ
zhÇĶnĠ juÃ©ĠsÃłiĠ
ĠniÃ¡nĠ12ĠyuÃ¨Ġ 28ĠrÃ¬Ġ
ĠĠĠyÇĲĠxiÃł ĠwÃ¨iĠ
ÄģĠÄĽr ĠjÃŃĠlÃ¬Ġ
T T
c c
t ri
Ġ 79
yÇĴu ĠzhÅįngĠ
mÃŃng ĠchÃ©ngĠ
fÇİ ĠhuÃ¬Ġ
fÄĵn ĠzhÃ¬Ġ
hÇİi ĠdÃ¬Ġ
lÃŃn ĠzÃłiĠ
fÄĵi ĠÄĽrĠ
qiÄģn ĠniÃ¡nĠ
hÃ¨n Ġ
ĠzhÅįngĠ yÇĲĠ
ĠyÃ¬Ġ fÄģngĠmiÃłn
fÃ¹Ġ zÃ¡
nÃ¡nĠ hÃ¡iĠ
ĠshÃ¨ ĠwÃ¨iĠ
huÃłĠ fÄĵnĠwÃ¨iĠ
ĠjiÃłnĠ zhÃ¹ĠdeĠ
ĠqÃŃĠ shÇĴuĠ
ĠzhÃłnĠ bÇĲĠ
jiÄĵĠ duÃłnĠdeĠ
yÃŃĠ cÃ¬ĠshÃ¬ĠjiÃ¨ĠdÃłĠ
ĠdÃłnĠ quÃ¨
ĠxiÄģngĠ bÇĲ
zhÄ«Ġ liÃºĠ
wÄĵiĠ ruÇİn
ĠduÅįĠ cÃ¬
hÃ¡iĠ yÃłoĠ
ĠnÃ¡n ĠyÇĶĠ
ĠdeĠzhÅįngĠ xÄ«nĠ
shÄģoĠ huÇĲĠ
ĠshÃŃĠzÃ¬Ġ lÇľĠ
wÃłiĠjiÄģoĠ guÄģnĠ
bÇİoĠjiÄģ ĠlÃ¬ĠyÃł
bÄģoĠkuÃ²ĠyÇĲĠxiÃłĠ wÃ¹ĠzhÇĴngĠ
zhÅ«ĠshÃ¬ĠhuÃ¬Ġ shÃ¨Ġ
Ġ qiÇİn
Ġ tÇĶĠdÃ¬Ġ
Ġ 1973ĠniÃ¡nĠ
ĠĠĠ diÃłnĠyÇĲngĠ
yÃ³u ĠshÃ¬Ġ
gÇİi ĠchÃ©ngĠ
jiÇĶ ĠzhÅįuĠ
bÇİn ĠhÃ©Ġ
tÃºn ĠmÃ©nĠ
tiÄģo Ġ
pÄĵi Ġ
ĠjÃ¬Ġ jÅ«nĠ
ĠxÃŃngĠ diÃłnĠlÃ¬Ġ
ĠchÅ« ĠxiÃłnĠyÃºĠ
ĠÃ©r ĠchÅ«Ġ
jiÄĵĠ bÃ³Ġ
qÇĲĠ diÇİnĠ
chÅ«Ġ lÃ¡iĠ
zhÄ«Ġ jiÄģn
cÃŃĠ qÃ¹Ġ
jiÇİngĠ huÃłĠ
hÃ¡iĠ mÃ©iĠyÇĴuĠ
zhuÄģnĠ yÃ²ng
ĠzuÃ¬ĠzhÅįngĠ yÇĲĠ
zÃºĠqiÃºĠ jiÇİĠjÃŃĠ
ĠdeĠyÃ¬Ġ jiÃłnĠ
ĠÃłoĠ mÃ©n
sÄģnĠshÃŃĠ sÃ¬ĠniÃ¡nĠ
yÃ¬ĠshÃŃĠ xÃŃngĠtÃłiĠ
ĠguÃ³ĠwÃ¹Ġ yuÃłn
ĠyÄ«ĠlÃ¬Ġ shÄģĠbÃ¡iĠ
ĠyÄ«ĠsÄ«ĠlÃ¡nĠ jiÃłoĠ
tÃ³ngĠxÃ¬ngĠ liÃłnĠ
ĠhÄĵiĠlÃ³ngĠjiÄģngĠ shÄĽngĠ
zhÇĶĠjiÃłoĠzuÃ²Ġ tÃ¡ngĠ
dÃ¡ĠkÄĵ ĠtÄģĠ
Ġ Bo
Ġ mÇİnĠ
Ġ 1931ĠniÃ¡nĠ
ĠĠĠ wÃłnĠlÃ¬Ġ
mÃŃng ĠdÃ¬Ġ
yÃ³u ĠhÃ©Ġ
xÄ«n ĠyÃ¬Ġ
tÃ¨ ĠshÃ¨Ġ
qÃ¬ ĠjÄ«Ġ
dÃº ĠjiÄģĠ
chÃ©n ĠshÃ¬Ġ
tÇİ ĠlÃ¬Ġ
bÇİi ĠrÃ©nĠ
ĠbÃ¹Ġ jiÃłnĠ
ĠbÃ¹Ġ yÇĲĠ
ĠlÃ¬Ġ fÄģngĠ
ĠyÄ«Ġ tiÃ¡o
ĠqÃŃ ĠhÃ©Ġ
ĠtÄģĠ huÃ¬Ġ
ĠxÄ«Ġ lÃ¹Ġ
ĠlÇĲĠ jiÄĽĠ
jiÃ©Ġ yÃ¹nĠ
fÄĵnĠ jiÄĽĠ
ĠyÄ«nĠ ziĠ
ĠdÃłiĠ mÇİĠ
yÃŃĠ chÃºĠ
yÇĲngĠ yÃ¨Ġ
shÄģĠ mÃ²Ġ
wÇİngĠ yÃ¨Ġ
chÅ«Ġ xÃŃĠ
gÄģngĠ tiÄĽ
ĠbÄģĠ lÃŃĠ
Ġãģ Ħ
ĠrÃ¬ĠbÄĽn ĠrÃ©nĠ
yÃłĠlÃ¬Ġ sÄģngĠnÃł
dÇİoĠshÃ¬Ġ yuÃ¨ĠtÃ¡iĠ
ĠfÃ¹ĠzÃ© ĠrÃ©nĠ
chÃ©ngĠniÃ¡nĠ rÃ©nĠ
Ġ xiÃło
Ġ He
Ġ bÄģngĠ
Ġ nÃ¡nĠbÃ¹Ġ
Ġ shÄģngĠyÃ¨Ġ
Ġ hÃ¨ĠÄĽrĠ
ĠĠĠ zhÃ¨
ĠĠĠ fÄĵngĠ
liÃ¨ ĠrÃ©nĠ
10 ĠshÃŃĠ
dÃ¡ ĠlÃ¬Ġ
zhÄģng ĠchÃ©ngĠ
tuÃ¡n ĠyuÃ¡nĠ
pÃłi ĠduÃ¬Ġ
dÇİ ĠchÅ«Ġ
liÃłn ĠdeĠ
hÅ«n ĠhÃ²uĠ
64 Ġ
ell Ġ
yÄ«Ġ cÃ¬Ġ
ĠlÃ¬Ġ wÃ¹Ġ
ĠyÇĲ ĠshÃŃĠ
ĠyÄ«Ġ shÃ¬ĠdeĠ
mÃŃngĠ xiÇİnĠdeĠ
ĠjiÄģĠ ÄĽr
xiÃłĠ shÇĶ
xiÃłĠ xiÃ¡Ġ
ĠjÃ¬n ĠjÅ«nĠ
cÇĲĠ lÃ¨iĠ
bÅįĠ lÃŃ
cÃ©ngĠ dÄģnĠrÃ¨nĠ
jiÇİnĠ ruÃ²Ġ
tÃ¡ngĠ chÃ¡oĠ
fÃ¡ngĠ hÃ¹Ġ
xuÄģnĠbÃ¹Ġ jiÄģngĠ
ĠĠĠyÄ«Ġ xiÄĵĠ
zhÇĴngĠjiÄģĠ cÃŃĠ
Ġ jÅ«
Ġ cÃ¡ng
Ġ yÄģn
Ġ huÃŃĠdÃłoĠ
Ġ 1959ĠniÃ¡nĠ
ĠĠĠ se
ĠĠĠ 1ĠĠĠ
dÃ© ĠjÅ«nĠ
mÇİ ĠshÃłngĠ
mi Ã¹
bÄ«ng ĠhÃ©Ġ
wÇİn ĠhuÃ¬Ġ
77 ĠniÃ¡nĠ
jÃŃĠ tuÃ¡nĠ
ĠgÅįngĠ zhÇĶ
ĠyÄ«Ġ liÃłngĠ
yÃ¹Ġ nÃłnĠ
mÃŃnĠ yÃ²ngĠ
zhÃ¨Ġ chÇİngĠ
ĠduÃ¬Ġ zhÃ¨nĠ
bÄĽiĠ shÃłngĠ
shÄ«Ġ gÄĵĠ
jiÄĵĠ dÃłiĠ
mÇĲĠ lÃ¡nĠ
dÄģnĠ nÃŃĠÄĽrĠ
ĠyÃ³u ĠjÄ«ĠchÄĵĠ
