{"!":0,"\"":1,"#":2,"$":3,"%":4,"&":5,"'":6,"(":7,")":8,"*":9,"+":10,",":11,"-":12,".":13,"/":14,"0":15,"1":16,"2":17,"3":18,"4":19,"5":20,"6":21,"7":22,"8":23,"9":24,":":25,";":26,"=":27,"?":28,"@":29,"A":30,"B":31,"C":32,"D":33,"E":34,"F":35,"G":36,"H":37,"I":38,"J":39,"K":40,"L":41,"M":42,"N":43,"O":44,"P":45,"Q":46,"R":47,"S":48,"T":49,"U":50,"V":51,"W":52,"X":53,"Y":54,"Z":55,"[":56,"\\":57,"]":58,"^":59,"_":60,"`":61,"a":62,"b":63,"c":64,"d":65,"e":66,"f":67,"g":68,"h":69,"i":70,"j":71,"k":72,"l":73,"m":74,"n":75,"o":76,"p":77,"q":78,"r":79,"s":80,"t":81,"u":82,"v":83,"w":84,"x":85,"y":86,"z":87,"|":88,"~":89,"¡":90,"¢":91,"£":92,"¤":93,"¥":94,"¦":95,"§":96,"¨":97,"©":98,"ª":99,"«":100,"¬":101,"®":102,"¯":103,"°":104,"±":105,"²":106,"³":107,"´":108,"µ":109,"¶":110,"·":111,"¸":112,"¹":113,"º":114,"»":115,"¼":116,"½":117,"¾":118,"¿":119,"Â":120,"Ã":121,"Ä":122,"Å":123,"Æ":124,"Ç":125,"È":126,"É":127,"Ê":128,"Ë":129,"Ì":130,"Í":131,"Î":132,"Ï":133,"Ð":134,"Ñ":135,"Ò":136,"Ó":137,"Ô":138,"Õ":139,"Ö":140,"×":141,"Ø":142,"Ù":143,"Ú":144,"Û":145,"Ü":146,"Þ":147,"ß":148,"à":149,"á":150,"â":151,"ã":152,"ä":153,"ê":154,"ë":155,"ì":156,"í":157,"î":158,"ï":159,"ð":160,"ñ":161,"Ċ":162,"Ġ":163,"ġ":164,"Ģ":165,"ģ":166,"Ĥ":167,"ĥ":168,"Ħ":169,"ħ":170,"Ĩ":171,"ĩ":172,"Ī":173,"ī":174,"Ĭ":175,"ĭ":176,"Į":177,"į":178,"İ":179,"ı":180,"Ĳ":181,"ĳ":182,"Ĵ":183,"ĵ":184,"Ķ":185,"ķ":186,"ĸ":187,"Ĺ":188,"ĺ":189,"Ļ":190,"ļ":191,"Ľ":192,"ľ":193,"Ŀ":194,"ŀ":195,"Ł":196,"ł":197,"Ń":198,"ng":199,"hÃ":200,"Ãł":201,"Äģ":202,"Ã¬":203,"Ã¡":204,"Ä«":205,"Ã¨":206,"Çİ":207,"ĠĠ":208,"Ã©":209,"ÃŃ":210,"shÃ":211,"Ã¹":212,"Ã¡n":213,"zh":214,"ÇĲ":215,"Åį":216,"ji":217,"de":218,"Ãłn":219,"Äĵ":220,"zhÃ":221,"sh":222,"ÄĽ":223,"Ã³":224,"ÇĶ":225,"xi":226,"Ã²":227,"Ãº":228,"Äģn":229,"ĠĠĠ":230,"Ãłi":231,"Å«":232,"Åįng":233,"ÇĴ":234,"ãĢ":235,"shÃ¬":236,"hu":237,"Ã¨i":238,"gu":239,"iÃ¡n":240,"hÃ©":241,"Ãło":242,"Äģng":243,"ÃŃng":244,"yu":245,"Çİn":246,"ch":247,"niÃ¡n":248,"yÄ«":249,"Çİng":250,"Ã©n":251,"ÇĴu":252,"Ã¬ng":253,"wÃ¨i":254,"Çİo":255,"zÃłi":256,"ãĢģ":257,"jÄ«":258,"Äĵng":259,"zhÅįng":260,"xÄ«":261,"bÃ¹":262,"jÃ¬":263,"Ãłng":264,"li":265,"zhÃ¨":266,"shÃŃ":267,"dÃ¬":268,"guÃ³":269,"yÃº":270,"rÃ©n":271,"Ã²ng":272,"chÃ":273,"Äģo":274,"du":275,"chÃ©":276,"yÇĲ":277,"lÃ¬":278,"Ã¡ng":279,"yÃ¬":280,"uÃ²":281,"Ã¡i":282,"zhÃ¬":283,"chÃ©ng":284,"Ã©i":285,"xu":286,"gÅįng":287,"jÃŃ":288,"²u":289,"ÄĽi":290,"iÃłn":291,"Äĵn":292,"Ã³ng":293,"yuÃ¨":294,"yÇĴu":295,"yuÃ¡n":296,"dÃł":297,"qi":298,"Åįu":299,"lÇĲ":300,"20":301,"Ã³u":302,"Äģi":303,"xiÃłn":304,"jiÄģ":305,"sÄ«":306,"Å«n":307,"xÃŃng":308,"yÇĶ":309,"Ã¨n":310,"ÇĴng":311,"ÃŃn":312,"tÄģ":313,"rÃ¬":314,"zhÄ«":315,"hÃ²u":316,"Çİi":317,"gÃ¨":318,"zhÃł":319,"Ã©ng":320,"le":321,"wÃ©i":322,"huÃ¬":323,"dÃło":324,"19":325,"bi":326,"shÃł":327,"qÄ«":328,"qÃŃ":329,"shÃ¨":330,"su":331,"zhÃ¨ng":332,"mÃŃng":333,"jiÃłn":334,"xuÃ©":335,"chÅ«":336,"yÃ¹":337,"ÄĽng":338,"zuÃ²":339,"shÄĵng":340,"duÃ¬":341,"yÃ³u":342,"qÅ«":343,"shÃłng":344,"ÄĽn":345,"dÃ©":346,"lÃ¹":347,"bÃ¨i":348,"chÃ¡":349,"ti":350,"shÇĲ":351,"zhÃłn":352,"zhÇĶ":353,"Äĵi":354,"qu":355,"jÃ¹":356,"xÄ«n":357,"jÅ«n":358,"zhu":359,"ÄĽr":360,"Ã¡o":361,"shÃ¹":362,"uÃ¬":363,"rÃ¨n":364,"fÄģ":365,"wÃ¹":366,"bÃ¬ng":367,"kÃ¨":368,"Ã©r":369,"dÃłi":370,"yÃŃ":371,"jÃ¬n":372,"zÃ¬":373,"yÄ«n":374,"fÃ¹":375,"fÄģng":376,"jÄ«ng":377,"nÃ¡n":378,"huÃł":379,"xÃ¬":380,"zhÅįu":381,"pÃŃng":382,"Ã²u":383,"xiÃł":384,"lÃ¡i":385,"yÃ²ng":386,"shu":387,"guÄģn":388,"tÃ³ng":389,"ãĢĭ":390,"ãĢĬ":391,"fÇİ":392,"zhÃ¹":393,"mÄĽi":394,"hÃ¡":395,"Â·":396,"jiÄģn":397,"jÇĲ":398,"huÃ²":399,"dÃ¹":400,"chu":401,"bÄĽn":402,"xiÄģng":403,"zhÃŃ":404,"dÃ²ng":405,"xiÃłng":406,"mÃŃn":407,"jiÄģng":408,"fÄĵn":409,"shÇĴu":410,"quÃ¡n":411,"wÃ©n":412,"yÃ¡n":413,"hÃł":414,"suÇĴ":415,"jiÃło":416,"qiÃ¡n":417,"diÃłn":418,"tÃ¨":419,"di":420,"duÅį":421,"Ãºn":422,"zuÃ¬":423,"kÄģi":424,"tu":425,"jiÃ©":426,"liÃ¡n":427,"zhÇĲ":428,"kÄĽ":429,"dÃłn":430,"mÃ¹":431,"yÃ¨":432,"fÃº":433,"mÇİ":434,"yÄĽ":435,"dÅįng":436,"qiÃº":437,"bÄĽi":438,"ãĢĮ":439,"ãĢį":440,"gÄģo":441,"yÃł":442,"qÇĲ":443,"jiÄĵ":444,"miÃłn":445,"hÇİi":446,"zhÇİng":447,"shÄ«":448,"jÄ«n":449,"cÇĲ":450,"lu":451,"nÃ¨i":452,"tÇĲ":453,"sÃłi":454,"sÄģn":455,"tÃ¡i":456,"gÃ©":457,"xÃ¬ng":458,"guÃ²":459,"rÃ¹":460,"201":461,"dÄĽng":462,"yÃło":463,"ju":464,"chÄĵ":465,"cÃ¬":466,"wÇĶ":467,"gÄģi":468,"dÃ¬ng":469,"chÃ¡ng":470,"biÇİo":471,"lÄģ":472,"gÃ²ng":473,"jiÃ¨":474,"shÃ²u":475,"dÇİo":476,"shÄģn":477,"chÇİng":478,"sÃ¬":479,"bÇĲ":480,"zÃ©":481,"tÃŃ":482,"kÄĵ":483,"dÄģng":484,"nÃ©ng":485,"Ã¨r":486,"wÃłi":487,"dÄģn":488,"xÃ¹":489,"zi":490,"kÇĴu":491,"xiÇİo":492,"zÇĶ":493,"bÄģ":494,"juÃ©":495,"lÃŃn":496,"liÃº":497,"shÄĽng":498,"yÄ«ng":499,"ku":500,"lÃ¡n":501,"luÃ³":502,"tÅįng":503,"200":504,"Ä«ng":505,"²ng":506,"mÇĲ":507,"zhÃ²ng":508,"en":509,"zhÄĽ":510,"shÇĶ":511,"tiÄģn":512,"zhÃ¨n":513,"Çļ":514,"qÃ¬":515,"zhÇĴng":516,"liÃ¨":517,"chÄĵng":518,"shÅ«":519,"yuÃłn":520,"bÇİo":521,"tÃłi":522,"fÇĶ":523,"fÄĵng":524,"gÇĶ":525,"qÄ«ng":526,"shÄĵn":527,"wÃ¡ng":528,"yÃ¹n":529,"guÇİn":530,"fÄĵi":531,"jiÃ¹":532,"liÇİng":533,"cÃ©ng":534,"mÃ©i":535,"10":536,"fÃ¨n":537,"hÃło":538,"³ng":539,"yÇİn":540,"wÄĽi":541,"zÇĴng":542,"xuÇİn":543,"xiÃło":544,"dÃ¡":545,"nÃł":546,"liÃłng":547,"bÅį":548,"zÃº":549,"jÃ¬ng":550,"bÃło":551,"nÃŃ":552,"wÃº":553,"tÇĴng":554,"huÃ¡":555,"jiÄģo":556,"yuÄĵ":557,"yÇĲng":558,"biÃłn":559,"xÄ«ng":560,"sÃ¹":561,"shuÇĲ":562,"yÃ¡ng":563,"hÃ¹":564,"men":565,"bÄģo":566,"gÄĵ":567,"bÃ³":568,"cÄģn":569,"cÃ³ng":570,"diÇİn":571,"bÃ¬":572,"rÃº":573,"bÃłn":574,"biÄģn":575,"wÇİng":576,"qÇĶ":577,"mi":578,"chÇİn":579,"sÃ¨":580,"zÄ«":581,"chuÃ¡n":582,"00":583,"shÃ¨ng":584,"rÃ¡n":585,"tÃº":586,"zhÄģng":587,"pÇĶ":588,"gÇİi":589,"gÇİng":590,"nÇļ":591,"lÃ¬ng":592,"luÃ²":593,"yÃ²u":594,"tÃ³u":595,"cÃ¨":596,"lÇ":597,"chÃŃ":598,"18":599,"lÇľ":600,"qiÄģn":601,"shÃ©":602,"lÃŃ":603,"dÅįu":604,"pÇĲ":605,"12":606,"zhÄĵng":607,"ni":608,"kuÃ²":609,"shÄģ":610,"dÇİng":611,"fÇİn":612,"gÃ²u":613,"lÃ¨i":614,"xÃŃ":615,"jÇĲng":616,"tuÃ¡n":617,"wÄĵi":618,"xiÄĵ":619,"lÇĲng":620,"lÃ³ng":621,"guÄ«":622,"xiÄģn":623,"rÃ³ng":624,"huÃ¡ng":625,"xiÇİng":626,"bÄģn":627,"jiÇĶ":628,"yÃ¬ng":629,"mÃ©n":630,"shÄģng":631,"shÃ©n":632,"202":633,"bÇİn":634,"kÇİ":635,"mÇĶ":636,"jÇĲn":637,"fÅ«":638,"jÇĶ":639,"mÃ³":640,"guÇİng":641,"cÃŃ":642,"shuÅį":643,"qÃŃng":644,"zhÇİn":645,"hÃ¡i":646,"zhuÄģng":647,"mÃ²":648,"cÃ¡i":649,"dÃº":650,"11":651,"pÇĲn":652,"tÃŃng":653,"chÃ¡o":654,"yÃŃng":655,"tiÃ¡o":656,"jiÇİn":657,"tÃ¡ng":658,"huÃŃ":659,"duÃłn":660,"chÃ©n":661,"gÄĵn":662,"mÃ¬":663,"wÃłn":664,"pÃ¡i":665,"wÄģn":666,"zÃło":667,"hÃ¡ng":668,"wÃ¡n":669,"biÄģo":670,"gÃ¹":671,"lÃºn":672,"199":673,"xiÃ©":674,"jiÇİng":675,"hÃłn":676,"jÃº":677,"fÃłn":678,"fÃ¡ng":679,"huÃ³":680,"hÃ¡n":681,"pi":682,"kÅįng":683,"or":684,"tiÄĽ":685,"mÃ©ng":686,"biÃ©":687,"wÅ«":688,"jiÄĽ":689,"zhuÄģn":690,"yÇĲn":691,"xÅ«":692,"zhÄĵn":693,"dÇĲ":694,"er":695,"chÃº":696,"hÃº":697,"jiÃł":698,"bÄ«ng":699,"mÃ¬ng":700,"lÃŃng":701,"hÃ³ng":702,"qÄ«n":703,"zÇĲ":704,"lÃ¹n":705,"xÃ¬n":706,"chÃ¹":707,"chÇĶ":708,"sÅ«":709,"an":710,"xiÅ«":711,"zÅįng":712,"15":713,"quÃ¨":714,"xiÄģo":715,"zhÃło":716,"qiÃ¡ng":717,"qÃ¹":718,"cÅ«n":719,"chÃ³ng":720,"piÃłn":721,"jiÅ«":722,"fÃłng":723,"suÃŃ":724,"shÅįu":725,"gÃ¨ng":726,"âĢ":727,"guÄģng":728,"Ã¨ng":729,"jÅ«":730,"on":731,"jiÇİ":732,"chuÃłng":733,"dÃŃ":734,"16":735,"zhuÇİn":736,"guÇĴ":737,"xÃ¹n":738,"mÃłn":739,"pÃłi":740,"fÃ¨i":741,"pÃ¨i":742,"198":743,"dÇİ":744,"tuÅį":745,"la":746,"xuÄģn":747,"bÃ¡i":748,"zhÅ«":749,"dÅ«":750,"tÇĶ":751,"diÃło":752,"xiÃ¡":753,"liÃ¹":754,"17":755,"suÃ¬":756,"huÄ«":757,"tÄ«ng":758,"qiÄĽ":759,"tÇİ":760,"qiÃ¡o":761,"hÄģ":762,"gÇİn":763,"zÄĵng":764,"xiÇİn":765,"mÃłi":766,"huÃ¡n":767,"xÇĶ":768,"wÇİ":769,"tuÄ«":770,"wÃ¨n":771,"chÄģo":772,"tiÃ¡n":773,"bÇİi":774,"cÇİi":775,"liÃ¡ng":776,"yÃ¡":777,"sÃł":778,"ar":779,"bÃłi":780,"cÃºn":781,"jiÇİo":782,"shÇİo":783,"yÃłn":784,"zhuÃłng":785,"huÇĴ":786,"lÃ©i":787,"14":788,"zu":789,"jiÃłng":790,"chuÄģn":791,"yÃ¬n":792,"zÇİo":793,"chÃł":794,"yÇĴng":795,"sÇĲ":796,"dÄĵng":797,"30":798,"zhÇĶn":799,"lÃ¨":800,"xÃºn":801,"nuÃ²":802,"kÃ¹":803,"huÃłn":804,"sÃ²ng":805,"gÃło":806,"lÇĶ":807,"13":808,"194":809,"bÄģng":810,"lÇļ":811,"pÄ«":812,"yÃłng":813,"hÄĽn":814,"qÃºn":815,"zhÄĽng":816,"guÃłn":817,"pÃ²":818,"gÄģng":819,"wÇĴ":820,"197":821,"huÄģ":822,"lÄĵi":823,"hÇİo":824,"tÃ¡o":825,"kuÃłng":826,"hÃ¨":827,"in":828,"dÃ¹n":829,"nÃ³ng":830,"gÄĽi":831,"sÄģi":832,"shuÄģng":833,"liÃłn":834,"kuÃłi":835,"dÄ«":836,"bÄ«":837,"pÃłn":838,"xiÄĽ":839,"195":840,"kÇİo":841,"gÃłi":842,"hÄĵi":843,"wÃłng":844,"liÃło":845,"rÃ¨":846,"ge":847,"zuÇĴ":848,"kÃ²ng":849,"196":850,"yÄģng":851,"chÃłng":852,"yÃŃn":853,"³u":854,"rÃ©ng":855,"sÄĵn":856,"bÄĵi":857,"lÃº":858,"piÃło":859,"yÄģ":860,"25":861,"bÄ«n":862,"âĢĶ":863,"rÃłng":864,"chÅįng":865,"lÃ³u":866,"bÇĶ":867,"lÇİo":868,"zhÃº":869,"jÃ¹n":870,"yÇİng":871,"ruÃ¬":872,"yÄģo":873,"xiÃ¡n":874,"xiÃ¨":875,"niÃłn":876,"for":877,"yÅįu":878,"tÃ¡n":879,"kÄģng":880,"pÃŃ":881,"hÃ©ng":882,"yÃºn":883,"xÇĲ":884,"kÃłn":885,"nÃŃng":886,"liÃ¡o":887,"shÃło":888,"bÃº":889,"24":890,"qÇĲng":891,"chÇĲ":892,"mu":893,"dÃ²u":894,"miÇİn":895,"yÅįng":896,"tÇİn":897,"wÇİn":898,"hÅ«":899,"fÄģn":900,"al":901,"tÅ«":902,"gÄģn":903,"suÃłn":904,"dÄ«ng":905,"yuÇİn":906,"wÄĵn":907,"tuÃ¬":908,"zhe":909,"21":910,"st":911,"xiÃ¹":912,"bÇİ":913,"mÇİn":914,"193":915,"23":916,"mula":917,"kÃłng":918,"formula":919,"28":920,"th":921,"mÃ¡o":922,"ruÃ²":923,"piÄģn":924,"chÃ¨":925,"mÃło":926,"lÇİng":927,"qÃŃn":928,"bÃ¡":929,"nÃ¡":930,"zÃłn":931,"guÇĲ":932,"guÃ¬":933,"ou":934,"pÃŃn":935,"wÃ²":936,"xiÃ³ng":937,"shÃłn":938,"re":939,"22":940,"xiÅįng":941,"me":942,"suÄ«":943,"Ã¼":944,"26":945,"shÄĽn":946,"qÃ¬ng":947,"miÃ¡o":948,"fÇİng":949,"50":950,"2020":951,"27":952,"lÃ¡ng":953,"ru":954,"qiÅ«":955,"sÅįng":956,"Ã¼Ã¨":957,"dÃłng":958,"gÄĵng":959,"qiÄģng":960,"ri":961,"fÃ¡":962,"zÄģo":963,"fÃ¨ng":964,"zhÃłng":965,"ï¼":966,"hÃ¡o":967,"dÅ«n":968,"zÇĴu":969,"hÃłi":970,"qiÃ¨":971,"29":972,"tÃłn":973,"pÃło":974,"pÃł":975,"shÃ¹n":976,"pÃ©ng":977,"xuÃ¡n":978,"2010":979,"nÇĲ":980,"000":981,"dÇĲng":982,"niÇĶ":983,"zÇİi":984,"zhÄģo":985,"zhuÄ«":986,"lÃ¼Ã¨":987,"chÅ«n":988,"2019":989,"hÅ«n":990,"kÇĴng":991,"duÄģn":992,"shÃ¨n":993,"xiÃ¡ng":994,"duÇİn":995,"gÃłn":996,"te":997,"ro":998,"kÄģn":999,"lÃ¡o":1000,"cÇİo":1001,"2016":1002,"si":1003,"gÅ«":1004,"pÃ©i":1005,"2018":1006,"kuÇİn":1007,"zÃ¡":1008,"sÅ«n":1009,"yÃ©":1010,"yÇİ":1011,"pÅį":1012,"2021":1013,"ra":1014,"chÃ¬":1015,"duÃ³":1016,"2014":1017,"fÃ¡n":1018,"2011":1019,"2015":1020,"cuÃ²":1021,"2017":1022,"zhÃ©":1023,"yÃ¡o":1024,"pÄģi":1025,"tÃ²u":1026,"cÃ¡ng":1027,"2012":1028,"40":1029,"kÇİi":1030,"2013":1031,"2022":1032,"mÃŃ":1033,"ruÇİn":1034,"suÄģn":1035,"chÄģ":1036,"zÃłng":1037,"miÃło":1038,"lt":1039,"2009":1040,"zhÇİo":1041,"2008":1042,"huÃ¡i":1043,"ãĥ":1044,"ce":1045,"60":1046,"am":1047,"cu":1048,"xuÃ¨":1049,"chÃ³u":1050,"se":1051,"bÇİng":1052,"mÃ¨ng":1053,"100":1054,"tÃ¬":1055,"pÃº":1056,"nÇİo":1057,"2023":1058,"zhuÃłn":1059,"gt":1060,"lÄĽi":1061,"190":1062,"31":1063,"cÃłi":1064,"cÃ¹":1065,"sÃłn":1066,"mÃ³u":1067,"tion":1068,"ta":1069,"hÃ¹n":1070,"ÇĶn":1071,"kuÄģn":1072,"2007":1073,"niÃº":1074,"mÇĴu":1075,"tÇİo":1076,"diÃ©":1077,"2001":1078,"ol":1079,"tÃ©ng":1080,"sÅįu":1081,"kÄĽn":1082,"qiÇİn":1083,"chÄģng":1084,"rÇİn":1085,"quÄĵ":1086,"fÇĴu":1087,"sÇĶn":1088,"el":1089,"bÃł":1090,"2000":1091,"80":1092,"kÃło":1093,"suÅį":1094,"2006":1095,"niÇİo":1096,"chÃºn":1097,"ma":1098,"2024":1099,"lÇİn":1100,"ãģ":1101,"zÄģi":1102,"zhÃ¡":1103,"xuÄĽ":1104,"huÇĲ":1105,"luÃłn":1106,"tÇĲng":1107,"2005":1108,"zÅ«n":1109,"bÃłng":1110,"lÃł":1111,"huÄģn":1112,"rÇİng":1113,"shuÃ¬":1114,"mÇĲn":1115,"35":1116,"lÃłi":1117,"cÄģng":1118,"70":1119,"fÃ³":1120,"pÃ¡n":1121,"of":1122,"nÃłi":1123,"wÄĽn":1124,"et":1125,"cÄģo":1126,"sÄģng":1127,"pÃ¡ng":1128,"90":1129,"bÇĲng":1130,"ï¼į":1131,"zhÄģ":1132,"ãĤ":1133,"shuÃłi":1134,"niÃ¨":1135,"es":1136,"hÃ³u":1137,"mÃ¨i":1138,"shÄģo":1139,"nÇĶ":1140,"dÇĴng":1141,"il":1142,"at":1143,"ow":1144,"fÃ©ng":1145,"miÃ¨":1146,"yÇĶn":1147,"zÃ²u":1148,"mÇİi":1149,"huÃłi":1150,"2004":1151,"45":1152,"yÄģn":1153,"co":1154,"48":1155,"the":1156,"zhuÃ³":1157,"and":1158,"ter":1159,"he":1160,"tÃło":1161,"nÇİi":1162,"kÅ«n":1163,"2025":1164,"zhÄĽn":1165,"ck":1166,"rÇĶ":1167,"kuÃł":1168,"kuÃŃ":1169,"ãĢī":1170,"ãĢĪ":1171,"gÅįu":1172,"36":1173,"cuÄ«":1174,"38":1175,"shÇİn":1176,"rÃ²u":1177,"diÄģo":1178,"2003":1179,"hÇĶ":1180,"guÅį":1181,"37":1182,"cuÃ¬":1183,"ne":1184,"xÃº":1185,"mÃ¡ng":1186,"juÇİn":1187,"cÃ¡n":1188,"diÄģn":1189,"zhÄģn":1190,"cÃ¡o":1191,"189":1192,"IN":1193,"2002":1194,"is":1195,"bo":1196,"kÄĵng":1197,"TC":1198,"ve":1199,"34":1200,"mÃ¡":1201,"lÄĽng":1202,"as":1203,"zÅ«":1204,"75":1205,"âĢĵ":1206,"sÃº":1207,"quÄģn":1208,"dÄģ":1209,"to":1210,"chÄģi":1211,"nu":1212,"lÃłng":1213,"kÃ¹n":1214,"46":1215,"tÃºn":1216,"fÄĽn":1217,"1990":1218,"âĢ¦":1219,"zhÃ²u":1220,"shÇİng":1221,"rÃło":1222,"hÄĵng":1223,"tÄ«":1224,"xÅ«n":1225,"39":1226,"nÃ¨":1227,"..":1228,"pÃ¬":1229,"nÃłn":1230,"pÄģn":1231,"65":1232,"hÅįng":1233,"shÃº":1234,"tÄģn":1235,"Ch":1236,"tÄģng":1237,"kÇİn":1238,"Ma":1239,"nÃ¬":1240,"32":1241,"In":1242,"ST":1243,"47":1244,"hÇİn":1245,"it":1246,"UTC":1247,"qiÃłn":1248,"1999":1249,"1998":1250,"1980":1251,"188":1252,"500":1253,"33":1254,"64":1255,"qiÇİng":1256,"shuÃ²":1257,"pÇİo":1258,"lo":1259,"be":1260,"kÄģ":1261,"zhÃ¡i":1262,"SE":1263,"55":1264,"quÃłn":1265,"nÄ«":1266,"dÃ¨ng":1267,"1997":1268,"The":1269,"miÃ¡n":1270,"49":1271,"gÇİo":1272,"II":1273,"68":1274,"Co":1275,"vi":1276,"shÄĽ":1277,"zÃ¨ng":1278,"Re":1279,"han":1280,"zhÃ³u":1281,"zhÃłi":1282,"44":1283,"1996":1284,"na":1285,"tiÄĵ":1286,"dÄģo":1287,"ad":1288,"br":1289,"1994":1290,"ver":1291,"fÃ©i":1292,"zÃ²ng":1293,"qiÃ³ng":1294,"ci":1295,"tiÃło":1296,"chuÃ¡ng":1297,"1992":1298,"ba":1299,"chuÃŃ":1300,"juÄģn":1301,"chÃ¡i":1302,"miÇİo":1303,"guÄģ":1304,"xuÄĵ":1305,"tÃ²ng":1306,"1995":1307,"fÄĽi":1308,"chÄ«":1309,"oo":1310,"mÄĽng":1311,"wÅį":1312,"67":1313,"ir":1314,"shuÄģi":1315,"tuÃ³":1316,"chuÄģng":1317,"huÇİn":1318,"1991":1319,"1970":1320,"58":1321,"ay":1322,"1950":1323,"ca":1324,"nd":1325,"guÃł":1326,"chÃ¡n":1327,"300":1328,"wÄģ":1329,"1993":1330,"187":1331,"1949":1332,"pe":1333,"sÄģ":1334,"tiÇİo":1335,"AT":1336,"1960":1337,"biÇİn":1338,"42":1339,"1945":1340,"ing":1341,"guÃłi":1342,"au":1343,"kÇĶ":1344,"nÃº":1345,"1988":1346,"dÇĶ":1347,"1989":1348,"ig":1349,"pÃ¹":1350,"69":1351,"liÇĶ":1352,"gÇĴng":1353,"SEE":1354,"tuÃ²":1355,"amp":1356,"ct":1357,"liÇİo":1358,"INSEE":1359,"59":1360,"tÄģi":1361,"43":1362,"66":1363,"chuÃłn":1364,"op":1365,"chÃ¨n":1366,"os":1367,"57":1368,"1985":1369,"huÄģng":1370,"99":1371,"SA":1372,"ãĢİ":1373,"cÃ¹n":1374,"ãĢı":1375,"1984":1376,"hÃºn":1377,"41":1378,"pÅ«":1379,"ly":1380,"us":1381,"kÃ²u":1382,"fÃ©n":1383,"88":1384,"1986":1385,"rÇİo":1386,"mp":1387,"St":1388,"id":1389,"rÃ¹n":1390,"TV":1391,"150":1392,"zhuÅį":1393,"ind":1394,"400":1395,"sÇİn":1396,"1987":1397,"78":1398,"un":1399,"ed":1400,"ha":1401,"1982":1402,"56":1403,"Li":1404,"ur":1405,"ard":1406,"nuÃ³":1407,"1983":1408,"NA":1409,"gÇĶn":1410,"Ro":1411,"De":1412,"ss":1413,"mÄģ":1414,"tou":1415,"pÃ¬n":1416,"CD":1417,"chÅįu":1418,"ber":1419,"gÇĴu":1420,"quÇİn":1421,"Mi":1422,"77":1423,"zhÄģi":1424,"Me":1425,"qiÃł":1426,"mÄģo":1427,"qiÇİo":1428,"Mar":1429,"tw":1430,"kÅ«":1431,"kuÃ¡ng":1432,"rÃ³u":1433,"der":1434,"79":1435,"lÃ²u":1436,"OS":1437,"Â°":1438,"kuÃ¬":1439,"sÃłng":1440,"ï½":1441,"Al":1442,"180":1443,"ty":1444,"BC":1445,"54":1446,"1979":1447,"61":1448,"1920":1449,"ang":1450,"pÄĵn":1451,"98":1452,"sÄĵng":1453,"52":1454,"You":1455,"ap":1456,"1978":1457,"nÃ¹":1458,"wÄĵng":1459,"62":1460,"yÄĵ":1461,"duÇĴ":1462,"Le":1463,"53":1464,"xÇĲng":1465,"juÃłn":1466,"ï½ŀ":1467,"BA":1468,"ke":1469,"1946":1470,"ts":1471,"CO":1472,"mo":1473,"ction":1474,"51":1475,"1958":1476,"1981":1477,"Vi":1478,"1972":1479,"1948":1480,"zhuÃ¬":1481,"cÅįng":1482,"tÅįu":1483,"AM":1484,"hi":1485,"63":1486,"man":1487,"ows":1488,"AR":1489,"ry":1490,"1941":1491,"Wind":1492,"BS":1493,"wÃ¡":1494,"liÇİn":1495,"1930":1496,"Mo":1497,"Pro":1498,"luÇİn":1499,"kuÄģng":1500,"qÃº":1501,"tuÇĴ":1502,"kÃ©":1503,"76":1504,"hans":1505,"va":1506,"1940":1507,"1937":1508,"con":1509,"1976":1510,"zuÇĲ":1511,"1944":1512,"Jo":1513,"89":1514,"1975":1515,"um":1516,"ï¼ı":1517,"Te":1518,"1968":1519,"niÃ¡ng":1520,"pÃ³":1521,"shuÄģ":1522,"hk":1523,"yuÄģn":1524,"tÄģo":1525,"per":1526,"wÄģng":1527,"ga":1528,"1000":1529,"ran":1530,"Windows":1531,"95":1532,"Ne":1533,"bÃŃ":1534,"sÇİo":1535,"da":1536,"87":1537,"1966":1538,"85":1539,"fÃł":1540,"pÄĵng":1541,"600":1542,"lÃłn":1543,"Se":1544,"Sta":1545,"sp":1546,"120":1547,"1947":1548,"Ga":1549,"Ar":1550,"ot":1551,"gÄģ":1552,"1956":1553,"AC":1554,"1964":1555,"dÇİn":1556,"cÅ«":1557,"1942":1558,"1955":1559,"chÇĴu":1560,"lay":1561,"1952":1562,"1939":1563,"IS":1564,"1938":1565,"72":1566,"74":1567,"ht":1568,"rÄĽn":1569,"1973":1570,"ace":1571,"fi":1572,"1974":1573,"1954":1574,"qiÄĵ":1575,"ED":1576,"1900":1577,"--":1578,"Be":1579,"AP":1580,"ore":1581,"1943":1582,"1977":1583,"Da":1584,"1971":1585,"pÄ«n":1586,"pÇĴ":1587,"mÃ¡n":1588,"1967":1589,"shÃ©ng":1590,"ment":1591,"IC":1592,"800":1593,"ER":1594,"La":1595,"86":1596,"1959":1597,"bÄĵng":1598,"son":1599,"1965":1600,"JR":1601,"1969":1602,"Ra":1603,"duÄ«":1604,"Di":1605,"ok":1606,"pÃ©n":1607,"ãĥ»":1608,"ÃĹ":1609,"qiÃło":1610,"chuÄ«":1611,"ID":1612,"qiÄģo":1613,"Su":1614,"ine":1615,"1936":1616,"160":1617,"97":1618,"bÄĵn":1619,"zhuÄģ":1620,"ent":1621,"1953":1622,"Sa":1623,"1962":1624,"MA":1625,"Tu":1626,"tic":1627,"1961":1628,"lÇĴng":1629,"ation":1630,"âĶ":1631,"1935":1632,"tÃł":1633,"mÃ¡i":1634,"Sh":1635,"96":1636,"ON":1637,"ak":1638,"ï¼ħ":1639,"1951":1640,"1957":1641,"1963":1642,"Lo":1643,"âĶĢ":1644,"one":1645,"rou":1646,"84":1647,"Ja":1648,"2026":1649,"do":1650,"cÇİn":1651,"82":1652,"gi":1653,"bu":1654,"mer":1655,"73":1656,"po":1657,"94":1658,"tÅ«n":1659,"92":1660,"So":1661,"AN":1662,"IP":1663,"An":1664,"ho":1665,"ali":1666,"1933":1667,"Mu":1668,"1931":1669,"nÃ¡ng":1670,"niÃło":1671,"les":1672,"71":1673,"bÃ¡o":1674,"nuÇİn":1675,"lÃ©ng":1676,"pÃ¡":1677,"83":1678,"93":1679,"ai":1680,"We":1681,"81":1682,"dÇĴu":1683,"1918":1684,"sta":1685,"HD":1686,"Bo":1687,"sÄģo":1688,"Uni":1689,"1928":1690,"luÃ¡n":1691,"ki":1692,"1932":1693,"wi":1694,"nÃ¨n":1695,"col":1696,"int":1697,"MV":1698,"SS":1699,"our":1700,"110":1701,"tÃ¹":1702,"IT":1703,"1912":1704,"all":1705,"1929":1706,"tuÇĲ":1707,"duÃ²":1708,"1927":1709,"cn":1710,"1934":1711,"are":1712,"Pa":1713,"700":1714,"gÃ¡":1715,"che":1716,"by":1717,"ted":1718,"ster":1719,"huÇİng":1720,"Si":1721,"250":1722,"ff":1723,"91":1724,"mm":1725,"Par":1726,"zÃ©i":1727,"Ri":1728,"1924":1729,"pp":1730,"ph":1731,"...":1732,"1919":1733,"kuÄ«":1734,"He":1735,"so":1736,"xuÃłn":1737,"130":1738,"piÄģo":1739,"no":1740,"1925":1741,"PS":1742,"Play":1743,"pÄģo":1744,"140":1745,"xiÄģ":1746,"Bu":1747,"Ca":1748,"SM":1749,"Con":1750,"Sp":1751,"PC":1752,"1914":1753,"ble":1754,"ste":1755,"zhÇİi":1756,"km":1757,"DV":1758,"zhÄĵ":1759,"En":1760,"mes":1761,"YouTu":1762,"com":1763,"Ba":1764,"hÄĵ":1765,"Fi":1766,"Ti":1767,"diÄĵ":1768,"ell":1769,"gra":1770,"lÇİ":1771,"AS":1772,"ia":1773,"1911":1774,"Wi":1775,"shi":1776,"end":1777,"ill":1778,"nÃ¼Ã¨":1779,"ana":1780,"ara":1781,"Ge":1782,"1926":1783,"den":1784,"1922":1785,"Na":1786,"nÇİ":1787,"sion":1788,"hÃ¨n":1789,"1917":1790,"ET":1791,"NBA":1792,"IV":1793,"shuÃŃ":1794,"cÄģi":1795,"rÃ¡o":1796,"EN":1797,"1923":1798,"art":1799,"1921":1800,"fe":1801,"pÃ¨ng":1802,"sa":1803,"ka":1804,"kuÄģ":1805,"Goo":1806,"ther":1807,"chÇĴng":1808,"To":1809,"170":1810,"à¸":1811,"EC":1812,"ld":1813,"mÇİo":1814,"nÃ²ng":1815,"AL":1816,"Ha":1817,"MS":1818,"section":1819,"Ni":1820,"YouTube":1821,"EP":1822,"hn":1823,"BL":1824,"1913":1825,"tiÄģo":1826,"Ju":1827,"HK":1828,"ler":1829,"âĨ":1830,"hant":1831,"gÃ¹n":1832,"1909":1833,"gin":1834,"Inter":1835,"cro":1836,"Ste":1837,"MP":1838,"AI":1839,"Ho":1840,"gÄĽng":1841,"Wor":1842,"nÃło":1843,"Po":1844,"fÄĽng":1845,"Do":1846,"luÇĴ":1847,"US":1848,"ant":1849,"go":1850,"ya":1851,"DVD":1852,"ort":1853,"zÅįu":1854,"ris":1855,"3000":1856,"Pi":1857,"cÄģ":1858,"Car":1859,"1910":1860,"RO":1861,"DS":1862,"Th":1863,"112":1864,"AK":1865,"My":1866,"pen":1867,"RE":1868,"pro":1869,"ven":1870,"1916":1871,"Station":1872,"ãĥ¼":1873,"chuÃ²":1874,"Net":1875,"Î±":1876,"Ki":1877,"Sch":1878,"olo":1879,"No":1880,"ari":1881,"ture":1882,"gn":1883,"Lin":1884,"CP":1885,"UN":1886,"gle":1887,"âĪ":1888,"ers":1889,"hÃ©n":1890,"1915":1891,"oun":1892,"niÃłng":1893,"1905":1894,"FC":1895,"my":1896,"Lu":1897,"ll":1898,"Wil":1899,"CN":1900,"âĦ":1901,"âĨĴ":1902,"1901":1903,"Fa":1904,"Au":1905,"ting":1906,"New":1907,"DNA":1908,"Ex":1909,"âĢ§":1910,"ary":1911,"900":1912,"Ph":1913,"sic":1914,"HR":1915,"dice":1916,"sis":1917,".&":1918,"CH":1919,"zÄĽn":1920,"TA":1921,"dia":1922,"Qu":1923,"TO":1924,"1906":1925,"len":1926,"1904":1927,"chuÇİng":1928,"AV":1929,"For":1930,"gÄĽn":1931,"John":1932,"we":1933,"ere":1934,"And":1935,"MO":1936,"ding":1937,"codice":1938,"chÇİo":1939,"jiÇĴng":1940,"âĦĥ":1941,"Ta":1942,"pa":1943,"ps":1944,"PlayStation":1945,"fu":1946,"ko":1947,"wÃł":1948,"bÃ¨ng":1949,"05":1950,"CC":1951,"ton":1952,"vo":1953,"eri":1954,"diÅ«":1955,"1907":1956,"1908":1957,"Google":1958,"AG":1959,"EST":1960,"MI":1961,"zuÃłn":1962,"SO":1963,"ory":1964,"tes":1965,"LE":1966,"Gu":1967,"jiÃ¡":1968,"zuÇİn":1969,"cy":1970,"lÄ«":1971,"chi":1972,"ley":1973,"BO":1974,"enter":1975,"BBC":1976,"AD":1977,"IG":1978,"cal":1979,"III":1980,"Cu":1981,"cri":1982,"oft":1983,"1500":1984,"Ru":1985,"lin":1986,"5000":1987,"ori":1988,"zuÄģn":1989,"pu":1990,"Go":1991,"IST":1992,"shÄĵ":1993,"lÇĺ":1994,"Fe":1995,"Col":1996,"wor":1997,"Sy":1998,"Ka":1999,"ME":2000,"tive":2001,"CR":2002,"gen":2003,"3D":2004,"wit":2005,"round":2006,"IA":2007,"guÇİ":2008,"105":2009,"je":2010,"ron":2011,"mÃł":2012,"Ð°":2013,"101":2014,"1903":2015,"GB":2016,"pÄ«ng":2017,"cha":2018,"shÃ¡":2019,"lan":2020,"09":2021,"TE":2022,"ree":2023,"Ad":2024,"Hu":2025,"cÃłn":2026,"cÃ©n":2027,"1902":2028,"BD":2029,"NC":2030,"land":2031,"can":2032,"ze":2033,"own":2034,"ess":2035,"pÄģng":2036,"xt":2037,"350":2038,"wa":2039,"ina":2040,"SAO":2041,"shÃ¡o":2042,"DC":2043,"net":2044,"span":2045,"des":2046,"Î²":2047,"ght":2048,"lÃ¬n":2049,"ence":2050,"B1900":2051,"inc":2052,"book":2053,"del":2054,"ES":2055,"BM":2056,"ï¼İ":2057,"dy":2058,"ãĥ³":2059,"Hi":2060,"1898":2061,"06":2062,"118":2063,"Pe":2064,"ms":2065,"ãģ®":2066,"lÃ¡":2067,"pt":2068,"qÇĲn":2069,"tel":2070,"360":2071,"DR":2072,"mon":2073,"01":2074,"DA":2075,"gh":2076,"Open":2077,"1895":2078,"lÃło":2079,"yle":2080,"125":2081,"mÃº":2082,"lar":2083,"bÃ¨n":2084,"HO":2085,"Ko":2086,"MC":2087,"ance":2088,"ATP":2089,"Micro":2090,"Ð¾":2091,"108":2092,"gy":2093,"NG":2094,"pÅįu":2095,"igh":2096,"sy":2097,"cor":2098,"tt":2099,"dio":2100,"Ke":2101,"qiÃ©":2102,"za":2103,"App":2104,"Pu":2105,"ning":2106,"gram":2107,"IF":2108,"Fran":2109,"ft":2110,"res":2111,"Com":2112,"tin":2113,"âĪĴ":2114,"07":2115,"08":2116,"230":2117,"Face":2118,"104":2119,"Du":2120,"ref":2121,"One":2122,"World":2123,"old":2124,"Ser":2125,"soft":2126,"EDT":2127,"ISTAT":2128,"Mon":2129,"Stu":2130,"shÄģi":2131,"sÇĴng":2132,"à¤":2133,"NO":2134,"ner":2135,"1896":2136,"Cor":2137,"LL":2138,"Bi":2139,"ger":2140,"lus":2141,"109":2142,"DP":2143,"yÅ«":2144,"las":2145,"AA":2146,"fli":2147,"Comp":2148,"rea":2149,"gÄĽ":2150,"RI":2151,"vel":2152,"ren":2153,"line":2154,"RT":2155,"suÇĲ":2156,"SP":2157,"xiÃ¡o":2158,"qiÇİ":2159,"EX":2160,"rÄĽ":2161,"Bar":2162,"Bri":2163,"ling":2164,"bert":2165,"B48":2166,"106":2167,"1890":2168,"ctor":2169,"CST":2170,"San":2171,"ML":2172,"CDT":2173,"Love":2174,"ity":2175,"mar":2176,"zÄģng":2177,"row":2178,"DO":2179,"with":2180,"HE":2181,"fa":2182,"Per":2183,"pÄĵi":2184,"ward":2185,"Har":2186,"Man":2187,"ds":2188,"tional":2189,"tain":2190,"ja":2191,"04":2192,"4000":2193,"115":2194,"cuÃłn":2195,"1200":2196,"ky":2197,"ux":2198,"ound":2199,"ight":2200,"M1":2201,"03":2202,"GP":2203,"pÃ¡o":2204,"CE":2205,"back":2206,"1889":2207,"begin":2208,"Je":2209,"1899":2210,"ool":2211,"colspan":2212,"1871":2213,"ring":2214,"Ed":2215,"RS":2216,"deĠ":2217,"ĠdeĠ":2218,"shÃ¬Ġ":2219,"ĠshÃ¬Ġ":2220,"ĠniÃ¡n":2221,"ĠniÃ¡nĠ":2222,"wÃ¨iĠ":2223,"zÃłiĠ":2224,"ĠwÃ¨iĠ":2225,"ĠzÃłiĠ":2226,"hÃ©Ġ":2227,"ĠhÃ©Ġ":2228,"zhÅįngĠ":2229,"bÃ¹Ġ":2230,"dÃ¬Ġ":2231,"shÃŃĠ":2232,"guÃ³Ġ":2233,"yÃºĠ":2234,"rÃ©nĠ":2235,"ĠbÃ¹Ġ":2236,"yÄ«Ġ":2237,"ĠzhÅįngĠ":2238,"lÃ¬Ġ":2239,"zhÃ¬Ġ":2240,"gÅįngĠ":2241,"ĠshÃŃĠ":2242,"yuÃ¨Ġ":2243,"jÃŃĠ":2244,"chÃ©ngĠ":2245,"yÃ¬Ġ":2246,"yÇĴuĠ":2247,"ĠdÃ¬Ġ":2248,"ĠyuÃ¨Ġ":2249,"ĠyÃºĠ":2250,"ĠrÃ©nĠ":2251,"ĠzhÃ¬Ġ":2252,"dÃłĠ":2253,"ĠjÃŃĠ":2254,"yuÃ¡nĠ":2255,"ĠyÇĴuĠ":2256,"jÃ¬Ġ":2257,"ĠguÃ³Ġ":2258,"ĠlÃ¬Ġ":2259,"ĠgÅįngĠ":2260,"ĠyÃ¬Ġ":2261,"ĠyÇĲ":2262,"ĠchÃ©ngĠ":2263,"jiÄģĠ":2264,"sÄ«Ġ":2265,"yÇĶĠ":2266,"ĠxiÃłn":2267,"ĠrÃ¬":2268,"ĠyÄ«Ġ":2269,"ĠxÃŃng":2270,"ĠtÄģ":2271,"lÇĲĠ":2272,"jÄ«Ġ":2273,"ĠdÃło":2274,"hÃ²uĠ":2275,"wÃ©iĠ":2276,"ĠzhÄ«":2277,"ĠdÃłĠ":2278,"ĠyuÃ¡nĠ":2279,"xÄ«Ġ":2280,"ĠrÃ¬Ġ":2281,"ĠgÃ¨":2282,"ĠyÇĲĠ":2283,"xuÃ©Ġ":2284,"huÃ¬Ġ":2285,"leĠ":2286,"zuÃ²Ġ":2287,"ĠyÇĶĠ":2288,"ĠdÃłoĠ":2289,"mÃŃngĠ":2290,"ĠjÃ¬Ġ":2291,"bÃ¨iĠ":2292,"ĠxÃŃngĠ":2293,"shÄĵngĠ":2294,"ĠjiÃłn":2295,"ĠchÅ«":2296,"ĠqÃŃ":2297,"ĠsÄ«Ġ":2298,"ĠdÃ©":2299,"zhÃ¨ngĠ":2300,"ĠxiÃłnĠ":2301,"ĠhÃ²uĠ":2302,"ĠjÄ«Ġ":2303,"duÃ¬Ġ":2304,"shÃłngĠ":2305,"qÅ«Ġ":2306,"shÇĲĠ":2307,"ĠÄĽr":2308,"ĠjiÄģĠ":2309,"yÃ³uĠ":2310,"ĠtÄģĠ":2311,"ĠxÄ«Ġ":2312,"ĠlÇĲĠ":2313,"ĠÃ©r":2314,"zhÃłnĠ":2315,"ĠjÅ«n":2316,"ĠbÃ¬ng":2317,"ĠzhÄ«Ġ":2318,"ĠgÃ¨Ġ":2319,"zhÇĶĠ":2320,"rÃ¨nĠ":2321,"fÃ¹Ġ":2322,"zÃ¬Ġ":2323,"wÃ¹Ġ":2324,"xÄ«nĠ":2325,"dÃłiĠ":2326,"jÃ¹Ġ":2327,"pÃŃngĠ":2328,"ĠchÅ«Ġ":2329,"ĠkÃ¨":2330,"ĠzhÅįu":2331,"xiÄģngĠ":2332,"ĠhuÃ¬Ġ":2333,"shÃ¹Ġ":2334,"nÃ¡nĠ":2335,"ĠshÃ¨":2336,"ĠbÃ¨iĠ":2337,"ĠmÃŃngĠ":2338,"xiÃłĠ":2339,"guÄģnĠ":2340,"ĠÄĽrĠ":2341,"ĠdÃ©Ġ":2342,"lÃ¹Ġ":2343,"yÃ¹Ġ":2344,"huÃłĠ":2345,"ĠjiÃłnĠ":2346,"jÄ«ngĠ":2347,"yÃ¡nĠ":2348,"fÄģngĠ":2349,"ĠyÄ«n":2350,"kÄģiĠ":2351,"jiÄģnĠ":2352,"jiÃłoĠ":2353,"fÄģĠ":2354,"yÃ²ngĠ":2355,"ĠdÃłn":2356,"ĠÃ©rĠ":2357,"zhÃ¹Ġ":2358,"lÃ¡iĠ":2359,"mÃŃnĠ":2360,"shÇĴuĠ":2361,"zhÃ¨Ġ":2362,"xiÃłngĠ":2363,"wÃ©nĠ":2364,"ĠjÅ«nĠ":2365,"xÃ¬Ġ":2366,"qiÃ¡nĠ":2367,"bÄĽnĠ":2368,"tÃ¨Ġ":2369,"ĠwÃ©iĠ":2370,"zhÃŃĠ":2371,"fÇİĠ":2372,"qÄ«Ġ":2373,"jiÃ©Ġ":2374,"liÃ¡nĠ":2375,"ĠbÃ¬ngĠ":2376,"dÃ²ngĠ":2377,"diÃłnĠ":2378,"ĠqÃŃĠ":2379,"ĠkÃ¨Ġ":2380,"dÅįngĠ":2381,"mÃ¹Ġ":2382,"ĠjÃ¬n":2383,"ĠduÃ¬Ġ":2384,"ĠhuÃ²":2385,"ĠzhÃłnĠ":2386,"fÄĵnĠ":2387,"tÃ¡iĠ":2388,"zhÇİngĠ":2389,"dÃ¹Ġ":2390,"jiÄģngĠ":2391,"ĠqiÃº":2392,"ĠpÃŃngĠ":2393,"gÄģoĠ":2394,"yÃ¨Ġ":2395,"suÇĴĠ":2396,"bÄĽiĠ":2397,"ĠzhÅįuĠ":2398,"shÄ«Ġ":2399,"ĠleĠ":2400,"duÅįĠ":2401,"jiÄĵĠ":2402,"gÃ©Ġ":2403,"ĠshÃłngĠ":2404,"jÄ«nĠ":2405,"ĠzhÃ¨ngĠ":2406,"fÃºĠ":2407,"ĠzuÃ²Ġ":2408,"ĠyÃ³uĠ":2409,"ĠfÃ¹Ġ":2410,"kÇĴuĠ":2411,"guÃ²Ġ":2412,"zhÇĲĠ":2413,"ĠtÃ³ng":2414,"hÇİiĠ":2415,"ĠrÃ¨nĠ":2416,"ĠquÃ¡n":2417,"mÇİĠ":2418,"tÅįngĠ":2419,"rÃ¹Ġ":2420,"zuÃ¬Ġ":2421,"ĠshÄĵngĠ":2422,"ĠxuÃ©Ġ":2423,"cÇĲĠ":2424,"xÃ¬ngĠ":2425,"wÃłiĠ":2426,"nÃ¨iĠ":2427,"lÄģĠ":2428,"tÇĲĠ":2429,"juÃ©Ġ":2430,"kÄĽĠ":2431,"qÇĲĠ":2432,"shÄģnĠ":2433,"tiÄģnĠ":2434,"chÇİngĠ":2435,"dÄĽngĠ":2436,"zhÃ¨nĠ":2437,"wÇĶĠ":2438,"chÃ¡ngĠ":2439,"ziĠ":2440,"yÃłoĠ":2441,"bÇĲĠ":2442,"ĠjÃ¹Ġ":2443,"bÇİoĠ":2444,"mÇĲĠ":2445,"yÃłĠ":2446,"ĠyÄĽ":2447,"gÄģiĠ":2448,"ĠyÄ«nĠ":2449,"ĠdÃłiĠ":2450,"miÃłnĠ":2451,"zhÃ²ngĠ":2452,"ĠshÃ¨Ġ":2453,"fÄĵngĠ":2454,"ĠzhÃ¨Ġ":2455,"zhÇĴngĠ":2456,"cÃ¬Ġ":2457,"yÃ¹nĠ":2458,"yÃŃĠ":2459,"liÃºĠ":2460,"chÄĵĠ":2461,"shÃ²uĠ":2462,"lÃŃnĠ":2463,"bÄģoĠ":2464,"yÃŃĠgÃ¨Ġ":2465,"sÃłiĠ":2466,"jiÃ¨Ġ":2467,"dÃ¬ngĠ":2468,"shÄĵnĠ":2469,"shÄĽngĠ":2470,"luÃ³Ġ":2471,"mÄĽiĠguÃ³Ġ":2472,"sÄģnĠ":2473,"qÃ¬Ġ":2474,"xiÇİoĠ":2475,"ĠdÃłnĠ":2476,"nÃ©ngĠ":2477,"shÅ«Ġ":2478,"zÃ©Ġ":2479,"liÃ¨Ġ":2480,"xuÇİnĠ":2481,"sÃ¬Ġ":2482,"qÄ«ngĠ":2483,"zhÄĽĠ":2484,"ĠqiÃºĠ":2485,"jÃ¬ngĠ":2486,"yuÃłnĠ":2487,"bÄģĠ":2488,"wÃ¡ngĠ":2489,"kÄĵĠ":2490,"tÃłiĠ":2491,"lÃ¡nĠ":2492,"bÃłoĠ":2493,"ÄģnĠ":2494,"zÇĴngĠ":2495,"yÇĲngĠ":2496,"ĠhuÃ²Ġ":2497,"bÃ¬Ġ":2498,"fÇĶĠ":2499,"dÇİoĠ":2500,"ĠxÄ«nĠ":2501,"gÇĶĠ":2502,"yÄ«ngĠ":2503,"ĠhÃło":2504,"ĠxiÃłĠ":2505,"ĠzÃ¬Ġ":2506,"gÄĵĠ":2507,"fÃ¨nĠ":2508,"xiÃłoĠ":2509,"yuÄĵĠ":2510,"nÃŃĠ":2511,"jiÄģoĠ":2512,"nÃłĠ":2513,"ĠyÃ¹Ġ":2514,"ĠmÇĲĠ":2515,"zÄ«Ġ":2516,"Ã¨rĠ":2517,"ĠxiÄģngĠ":2518,"pÇĶĠ":2519,"dÄģnĠ":2520,"ĠzhÃ¹Ġ":2521,"biÇİoĠ":2522,"guÇİnĠ":2523,"tÃ³uĠ":2524,"liÃłngĠ":2525,"chuÃ¡nĠ":2526,"ĠlÃ¹Ġ":2527,"sÃ¹Ġ":2528,"wÃºĠ":2529,"ĠdÄģng":2530,"bÅįĠ":2531,"rÃºĠ":2532,"yÇİnĠ":2533,"nÇļĠ":2534,"bÃ³Ġ":2535,"ĠzhÅįngĠguÃ³Ġ":2536,"xÄ«ngĠ":2537,"tÃŃĠ":2538,"fÄĵiĠ":2539,"dÃ¡Ġ":2540,"sÃ¨Ġ":2541,"chÄĵngĠ":2542,"mÄĽiĠ":2543,"ĠwÃ¨iĠyÃºĠ":2544,"ĠjÃ¬nĠ":2545,"cÃ©ngĠ":2546,"chÇİnĠ":2547,"ĠnÃ¡nĠ":2548,"shuÇĲĠ":2549,"tÃºĠ":2550,"biÃłnĠ":2551,"guÄ«Ġ":2552,"ĠrÃ¡n":2553,"ÄģĠ":2554,"yÃ¡ngĠ":2555,"zhÄģngĠ":2556,"gÇİiĠ":2557,"diÇİnĠ":2558,"cÃ³ngĠ":2559,"jiÃ¹Ġ":2560,"ĠbÄĽnĠ":2561,"ĠquÃ¡nĠ":2562,"shÄģĠ":2563,"bÄģoĠkuÃ²":2564,"wÇİngĠ":2565,"jiÇİnĠ":2566,"shÃ¨ngĠ":2567,"zÇĶĠ":2568,"shÇĶĠ":2569,"gÇİngĠ":2570,"huÃ¡Ġ":2571,"lÇľĠ":2572,"qÃŃngĠ":2573,"jÇĲngĠ":2574,"liÇİngĠ":2575,"zÃºĠ":2576,"bÃłnĠ":2577,"tÇĴngĠ":2578,"gÃ²ngĠ":2579,"shÄģngĠ":2580,"lÃŃĠ":2581,"hÃ¹Ġ":2582,"tÃ³ngĠ":2583,"biÄģnĠ":2584,"jÃ¬nĠ":2585,"ÃłnĠ":2586,"lÃ³ngĠ":2587,"luÃ²Ġ":2588,"xÃ¹Ġ":2589,"chÃŃĠ":2590,"ÃłoĠ":2591,"mÃ©iĠ":2592,"jÇĲnĠ":2593,"1Ġ":2594,"bÄģnĠ":2595,"guÇİngĠ":2596,"chÅ«Ġ":2597,"cÃ¨Ġ":2598,"mÃ¬Ġ":2599,"shÃ©nĠ":2600,"ĠtÄģĠmen":2601,"zhÄĵngĠ":2602,"zhÄ«Ġ":2603,"lÇĲngĠ":2604,"yÃ²uĠ":2605,"fÇİnĠ":2606,"wÄĵiĠ":2607,"ĠzhÇĶĠ":2608,"huÃ³Ġ":2609,"xÃŃĠ":2610,"tÃŃngĠ":2611,"kÇİĠ":2612,"chÃ¡Ġ":2613,"ĠgÄģiĠ":2614,"ĠxiÃłngĠ":2615,"cÃ¡iĠ":2616,"gÃ²uĠ":2617,"shuÅįĠ":2618,"mÃ©nĠ":2619,"cÃŃĠ":2620,"2Ġ":2621,"xiÇİngĠ":2622,"mÇĶĠ":2623,"lÃ¨iĠ":2624,"wÄĽiĠ":2625,"qÇĶĠ":2626,"ĠgÅįngĠlÇĲĠ":2627,"yÃ¡nĠjiÅ«":2628,"ĠduÅįĠ":2629,"tuÃ¡nĠ":2630,"yÇĲnĠ":2631,"jiÃłnĠ":2632,"ĠyÄĽĠ":2633,"chÃ¡oĠ":2634,"yÃ¬ngĠ":2635,"chÃ©nĠ":2636,"tÃ¡ngĠ":2637,"xiÄĵĠ":2638,"qÃŃĠ":2639,"pÇĲnĠ":2640,"ĠyÇĲĠjÃŃĠ":2641,"jiÃłĠ":2642,"shÇĲĠyÃ²ngĠ":2643,"jiÄĽĠ":2644,"hÃ¡ngĠ":2645,"yÇĲĠ":2646,"lÃºnĠ":2647,"rÃ³ngĠ":2648,"jiÇİngĠ":2649,"ĠyÃ³u":2650,"pÃ¡iĠ":2651,"fÅ«Ġ":2652,"jiÇĶĠ":2653,"Ã©Ġ":2654,"lÃ¬ngĠ":2655,"tÃ¡iĠwÄģn":2656,"ĠhÃłoĠ":2657,"ĠwÃłn":2658,"ĠdeĠdÃ¬Ġ":2659,"xÅ«Ġ":2660,"kÄĽĠyÇĲĠ":2661,"huÃ¡ngĠ":2662,"xiÄģnĠ":2663,"duÃłnĠ":2664,"kÃ¨Ġ":2665,"dÇİngĠ":2666,"mÃ³Ġ":2667,"cÄģnĠ":2668,"yÃŃngĠ":2669,"tiÃ¡oĠ":2670,"biÄģoĠ":2671,"ĠdeĠyÄ«Ġ":2672,"kÄģiĠshÇĲĠ":2673,"quÃ¡nĠ":2674,"zhÇİnĠ":2675,"ĠchÃ©ngĠwÃ©iĠ":2676,"yÄĽĠ":2677,"hÃ³ngĠ":2678,"mÃ©iĠyÇĴuĠ":2679,"hÃłnĠ":2680,"yÄ«nĠ":2681,"wÄĽiĠyuÃ¡nĠ":2682,"qiÄģnĠ":2683,"bÇİnĠ":2684,"xiÃłnĠ":2685,"lÃŃngĠ":2686,"xiÄģoĠ":2687,"ĠtÃ³ngĠ":2688,"huÃŃĠ":2689,"sÅ«Ġ":2690,"fÃ¡ngĠ":2691,"mÃ©ngĠ":2692,"zhuÄģngĠ":2693,"kÅįngĠ":2694,"jÃºĠ":2695,"cÅ«nĠ":2696,"bÄģoĠkuÃ²Ġ":2697,"rÃ©nĠkÇĴuĠ":2698,"ĠqÃŃĠzhÅįngĠ":2699,"ĠgÅįngĠsÄ«Ġ":2700,"huÃ²Ġ":2701,"zÇĲĠ":2702,"xÃŃngĠ":2703,"dÅįuĠ":2704,"ĠdeĠshÃ¬Ġ":2705,"ĠĠĠzÃłiĠ":2706,"qiÃ¡ngĠ":2707,"zhÃłoĠ":2708,"dÃºĠ":2709,"zhÃ¨ngĠzhÃ¬Ġ":2710,"yÃŃĠgÃ¨":2711,"mÃ²Ġ":2712,"bÄ«ngĠ":2713,"cÇİiĠ":2714,"fÇİĠguÃ³Ġ":2715,"ĠfÄĵnĠ":2716,"ĠgÄģoĠ":2717,"ĠdÃłĠxuÃ©Ġ":2718,"ĠshÃ¬ĠyÄ«Ġ":2719,"hÃ¡iĠ":2720,"ĠtÄģĠdeĠ":2721,"hÃºĠ":2722,"chÃ¹Ġ":2723,"qÄ«nĠ":2724,"lÃ¹nĠ":2725,"fÃłnĠ":2726,"3Ġ":2727,"zhÄĵnĠ":2728,"guÄģngĠ":2729,"wÃ¨nĠ":2730,"mÃłnĠ":2731,"ĠjiÃ©Ġ":2732,"shÃ¨Ġ":2733,"biÇİoĠshÃ¬Ġ":2734,"ÃłiĠ":2735,"zhÅįngĠdeĠ":2736,"jÅ«Ġ":2737,"ĠjiÃłoĠ":2738,"zhuÄģnĠ":2739,"diÃłoĠ":2740,"bÃ¡iĠ":2741,"dÇİĠ":2742,"quÃ¨Ġ":2743,"diÃłnĠshÃ¬Ġ":2744,"ĠdÅįngĠ":2745,"fÃ¨iĠ":2746,"ĠshÃ¬ĠwÃ¨iĠ":2747,"ĠdÃ¹Ġ":2748,"ĠmÃ¹Ġ":2749,"hÃ¡nĠ":2750,"shÃ¬ĠdeĠ":2751,"ĠtÃ¨Ġ":2752,"xÃ¹nĠ":2753,"ĠjÄ«nĠ":2754,"piÃłnĠ":2755,"mÃ¬ngĠ":2756,"jÇĶĠ":2757,"ĠjiÄģngĠ":2758,"tuÅįĠ":2759,"gÃ¹Ġ":2760,"ĠrÃ©nĠkÇĴuĠ":2761,"xiÅ«Ġ":2762,"ĠbÃ¹ĠfÃ¨nĠ":2763,"xiÃ©Ġ":2764,"zÃłoĠ":2765,"ĠhÃ©ĠguÃ³Ġ":2766,"zhÅįngĠguÃ³Ġ":2767,"guÇĴĠ":2768,"10ĠyuÃ¨Ġ":2769,"shÅįuĠ":2770,"ĠzuÃ¬":2771,"xÃ¬nĠ":2772,"12ĠyuÃ¨Ġ":2773,"7ĠyuÃ¨Ġ":2774,"9ĠyuÃ¨Ġ":2775,"zhuÇİnĠ":2776,"tÄģĠ":2777,"ĠshÄ«Ġ":2778,"dÄģngĠ":2779,"miÃłnĠjÄ«Ġ":2780,"ĠrÃ©nĠmÃŃnĠ":2781,"8ĠyuÃ¨Ġ":2782,"xÃºnĠ":2783,"ĠdÃ¬ĠqÅ«Ġ":2784,"wÅ«Ġ":2785,"3ĠyuÃ¨Ġ":2786,"ĠguÃ²Ġ":2787,"1ĠyuÃ¨Ġ":2788,"ĠjÄ«ngĠ":2789,"ĠsuÇĴĠ":2790,"ĠshÇĴuĠ":2791,"gÇİnĠ":2792,"huÃ¡nĠ":2793,"dÃŃĠ":2794,"xiÃ¡Ġ":2795,"jiÇİĠ":2796,"5ĠyuÃ¨Ġ":2797,"yÄ«ngĠguÃ³Ġ":2798,"ĠcÇĲĠ":2799,"dÃłoĠ":2800,"dÇĲĠ":2801,"zhÅ«Ġ":2802,"tÄ«ngĠ":2803,"zhÃ¨ngĠshÃ¬Ġ":2804,"chÃ³ngĠ":2805,"huÇĴĠ":2806,"zhÅįuĠ":2807,"6ĠyuÃ¨Ġ":2808,"zhuÃłngĠ":2809,"4Ġ":2810,"5Ġ":2811,"chÃ©ngĠshÃ¬Ġ":2812,"4ĠyuÃ¨Ġ":2813,"ĠguÃ³ĠjiÄģĠ":2814,"tiÃ¡nĠ":2815,"gÃ¨ngĠ":2816,"ĠĠĠdÃ¬Ġ":2817,"fÃłngĠ":2818,"yÇĴngĠ":2819,"shÇĶĠyÃºĠ":2820,"ĠpÃŃngĠfÄģng":2821,"pÃ²Ġ":2822,"jÅ«nĠ":2823,"ĠdÃ¬ĠyÄ«Ġ":2824,"ĠqiÃ¡nĠ":2825,"11ĠyuÃ¨Ġ":2826,"qÃºnĠ":2827,"qÃ¹Ġ":2828,"jiÃłngĠ":2829,"tÃ¡oĠ":2830,"ĠshÃ¬ĠjÃ¬Ġ":2831,"ĠpÃŃngĠfÄģngĠgÅįngĠlÇĲĠ":2832,"ĠtÃ³ngĠshÃŃĠ":2833,"dÄģnĠrÃ¨nĠ":2834,"gÄĵnĠ":2835,"ĠmÇİĠ":2836,"ĠrÃºĠ":2837,"ĠdÄĽngĠ":2838,"jÇĲĠ":2839,"biÃ©Ġ":2840,"pÃłiĠ":2841,"dÅ«Ġ":2842,"liÃ¡ngĠ":2843,"shÇİoĠ":2844,"huÄ«Ġ":2845,"tiÄĽĠ":2846,"nÃ³ngĠ":2847,"ĠniÃ¡nĠ1ĠyuÃ¨Ġ":2848,"tÇİĠ":2849,"diÃłnĠyÇĲngĠ":2850,"zÅįngĠ":2851,"chÇĶĠ":2852,"ĠqÄ«Ġ":2853,"ĠzhÃ¨":2854,"sÇĲĠ":2855,"ĠtiÄģnĠ":2856,"ÄĽrĠ":2857,"ĠdeĠshÃŃĠ":2858,"shuÄģngĠ":2859,"qiÃ¡oĠ":2860,"tÃ¡iĠwÄģnĠ":2861,"ĠsuÃ¬":2862,"gÄĵnĠjÃ¹Ġ":2863,"lÃ¬ĠshÇĲĠ":2864,"chÃºĠ":2865,"ĠshÃ¬ĠzhÃ¨nĠ":2866,"gÃłoĠ":2867,"bÃłiĠ":2868,"cÄģnĠjiÄģĠ":2869,"yÃ¹nĠdÃ²ng":2870,"gÄģngĠ":2871,"chÄĵĠzhÃłnĠ":2872,"guÃ³ĠdeĠ":2873,"jiÇİoĠ":2874,"ĠyÄ«nĠwÃ¨iĠ":2875,"ĠrÃ¬ĠbÄĽnĠ":2876,"ĠpÃŃngĠfÄģngĠ":2877,"lÃ¬ĠdeĠ":2878,"ĠniÃ¡nĠdeĠ":2879,"gÃłiĠ":2880,"pÃłnĠ":2881,"ĠwÃ©nĠ":2882,"ĠhÇİiĠ":2883,"zhÃ¨ngĠfÇĶĠ":2884,"bÃ¬ngĠ":2885,"zhÇĶnĠ":2886,"ĠniÃ¡nĠ12ĠyuÃ¨Ġ":2887,"wÇİĠ":2888,"yÃłnĠ":2889,"wÇĴĠ":2890,"ĠfÃºĠ":2891,"gÃ²ngĠhÃ©ĠguÃ³Ġ":2892,"ĠxiÃłnĠdeĠ":2893,"yÃ¡Ġ":2894,"yÃŃnĠ":2895,"fÄģĠxiÃłnĠ":2896,"formulaĠ":2897,"chuÃłngĠ":2898,"hÄĵiĠ":2899,"huÃłnĠ":2900,"qÅ«ĠdeĠ":2901,"sÃ²ngĠ":2902,"hÄģĠ":2903,"hÄĽnĠ":2904,"ĠsuÇĴ":2905,"tÃŃĠgÅįngĠ":2906,"jÃ¬nĠxÃŃngĠ":2907,"ĠbÄĽiĠ":2908,"lÃ©iĠ":2909,"2ĠyuÃ¨Ġ":2910,"jÄ«ngĠjÃ¬Ġ":2911,"tÅįngĠguÃ²Ġ":2912,"ĠniÃ¡nĠ3ĠyuÃ¨Ġ":2913,"ĠmÄĽi":2914,"suÃŃĠ":2915,"chuÄģnĠ":2916,"ĠzhÅįngĠyÄģng":2917,"ĠguÃ³ĠjÃ¬Ġ":2918,"huÄģĠ":2919,"6Ġ":2920,"shÃłngĠdeĠ":2921,"ĠyÃ³uĠyÃºĠ":2922,"ĠyÃ²uĠ":2923,"lÄĵiĠ":2924,"wÄĽiĠyuÃ¡nĠhuÃ¬Ġ":2925,"qiÄĽĠ":2926,"kÇİoĠ":2927,"ĠniÃ¡nĠ7ĠyuÃ¨Ġ":2928,"chÄĵngĠwÃ©iĠ":2929,"ĠniÃ¡nĠ10ĠyuÃ¨Ġ":2930,"dÄĵngĠ":2931,"bÇİiĠ":2932,"ĠshÃ¬ĠjiÃ¨Ġ":2933,"ĠyÄ«ngĠ":2934,"ĠyÄ«nĠcÇĲĠ":2935,"mÃŃngĠwÃ¨iĠ":2936,"ĠjÃ¬nĠxÃŃngĠ":2937,"nuÃ²Ġ":2938,"ĠshÃ¬ĠzÃłiĠ":2939,"chÅįngĠ":2940,"zhÇĶĠyÃ¬Ġ":2941,"wÃ¡nĠ":2942,"ĠrÃ¡nĠ":2943,"ĠniÃ¡nĠ9ĠyuÃ¨Ġ":2944,"kuÃłiĠ":2945,"tÇĶĠ":2946,"ĠzhÄ«ĠhÃ²uĠ":2947,"yÃ¡nĠjiÅ«Ġ":2948,"qiÃºĠ":2949,"ĠtÄģĠmenĠ":2950,"mÃłiĠ":2951,"shÃŃĠdeĠ":2952,"liÃłnĠ":2953,"hÃłoĠ":2954,"ĠniÃ¡nĠ5ĠyuÃ¨Ġ":2955,"sÃłĠ":2956,"lÃºĠ":2957,"xÃ¬ĠtÇĴngĠ":2958,"ĠzuÃ¬Ġ":2959,"pÃ¨iĠ":2960,"lÇĶĠ":2961,"ĠniÃ¡nĠ4ĠyuÃ¨Ġ":2962,"chÇĲĠ":2963,"liÃłoĠ":2964,"ĠdÄģngĠ":2965,"ĠniÃ¡nĠ8ĠyuÃ¨Ġ":2966,"ĠliÃ¡nĠ":2967,"ĠniÃ¡nĠ6ĠyuÃ¨Ġ":2968,"ĠxÃŃngĠdeĠ":2969,"zÄĵngĠ":2970,"rÃ©nĠdeĠ":2971,"ĠshÇĲĠ":2972,"xiÄģngĠgÇİngĠ":2973,"qÄ«ĠjiÄģnĠ":2974,"xuÄģnĠ":2975,"ÄĵnĠ":2976,"dÃ©Ġ":2977,"kuÃłngĠ":2978,"guÇİnĠlÇĲĠ":2979,"ĠgÅįngĠzuÃ²Ġ":2980,"piÃłoĠ":2981,"ĠzhÄ«ĠyÄ«Ġ":2982,"xÇĶĠ":2983,"dÄ«Ġ":2984,"hÃ©ngĠ":2985,"dÃłĠdeĠ":2986,"bÇĶĠ":2987,"yÃłngĠ":2988,"ĠzhÅįngĠxÄ«nĠ":2989,"xuÄģnĠbÃ¹Ġ":2990,"sÄĵnĠ":2991,"tuÄ«Ġ":2992,"ĠniÃ¡nĠ11ĠyuÃ¨Ġ":2993,"zÇĶĠzhÄ«Ġ":2994,"rÃ¬Ġ":2995,"wÃłngĠ":2996,"bÃ¹ĠdeĠ":2997,"pÃŃĠ":2998,"menĠ":2999,"ĠbÄģoĠkuÃ²Ġ":3000,"chÃłngĠ":3001,"yÇĲngĠxiÇİngĠ":3002,"yÇİngĠ":3003,"ĠtÄģĠzÃłiĠ":3004,"qiÄģnĠmÇĲĠ":3005,"sÄģiĠ":3006,"ĠĠĠshÄĵngĠ":3007,"ĠhuÃ²ĠdÃ©Ġ":3008,"Ã©rĠ":3009,"pÄ«Ġ":3010,"ĠshÃ¬ĠjiÃ¨":3011,"ĠwÃłnĠ":3012,"luÃ³ĠsÄ«Ġ":3013,"hÃ¨Ġ":3014,"kÄĽĠnÃ©ng":3015,"chÃ©ngĠdeĠ":3016,"ĠgÄģi":3017,"ĠqÄ«ngĠ":3018,"niÃłnĠ":3019,"dÃ¹nĠ":3020,"xiÃ¡nĠ":3021,"ĠÄģĠ":3022,"lÃ³uĠ":3023,"qÃŃĠtÄģĠ":3024,"ĠniÃ¡nĠ2ĠyuÃ¨Ġ":3025,"ĠchÃ©ngĠlÃ¬Ġ":3026,"leĠyÄ«Ġ":3027,"bÄģngĠ":3028,"huÃ³ĠdÃ²ngĠ":3029,"ĠrÃ¨nĠwÃ©iĠ":3030,"liÃ¹Ġ":3031,"ĠlÃ¡iĠ":3032,"yÅįuĠ":3033,"ĠbÇĲĠ":3034,"ĠshÃ¹Ġ":3035,"sĠ":3036,"kÄĵĠxuÃ©Ġ":3037,"ĠfÄĵn":3038,"fÄģĠzhÇİnĠ":3039,"huÃ²ĠdÃ©Ġ":3040,"jÃ¹nĠ":3041,"ĠluÃ³Ġ":3042,"ĠzuÃ²ĠwÃ©iĠ":3043,"yÄģĠ":3044,"ĠpÃŃngĠfÄģngĠqiÄģnĠmÇĲĠ":3045,"huÃ¡ĠrÃ©nĠmÃŃnĠ":3046,"ĠwÃºĠ":3047,"rÃ¬ĠbÄĽnĠ":3048,"bÄĵiĠ":3049,"lÇİoĠ":3050,"huÃ¬ĠyÃ¬Ġ":3051,"rÃ¨Ġ":3052,"ĠzhÃŃ":3053,"kÃ¹Ġ":3054,"tÃ¡nĠ":3055,"jiÄģnĠdeĠ":3056,"tiÄĽĠlÃ¹Ġ":3057,"ĠliÃºĠ":3058,"ĠdeĠrÃ©nĠ":3059,"yÃ²ngĠyÃºĠ":3060,"liÃ¡oĠ":3061,"nÃŃngĠ":3062,"ĠshÃŃĠjiÄģnĠ":3063,"ĠdeĠgÅįngĠ":3064,"gÃ¨Ġ":3065,"ĠshÄģnĠ":3066,"ĠzhÄģngĠ":3067,"miÇİnĠ":3068,"ĠyÃ¡nĠ":3069,"miÃłnĠjÄ«":3070,"mÃŃnĠguÃ³Ġ":3071,"ruÃ¬Ġ":3072,"wÅ«ĠkÃ¨Ġ":3073,"yÃ¬nĠ":3074,"xiÇİnĠ":3075,"lÃ¨Ġ":3076,"zuÇĴĠ":3077,"gÃ²ngĠyÇĴuĠ":3078,"ĠĠĠlÃ¬ĠshÇĲĠ":3079,"hÇİoĠ":3080,"ĠĠĠshÄĵngĠpÃŃngĠ":3081,"huÃ¡ĠrÃ©nĠmÃŃnĠgÃ²ngĠhÃ©ĠguÃ³Ġ":3082,"fÄģngĠshÃ¬Ġ":3083,"fÄģĠshÄĵngĠ":3084,"gÄģnĠ":3085,"ĠcÃ³ngĠ":3086,"dÃ²uĠ":3087,"wÃ¨nĠtÃŃĠ":3088,"ĠzhÃŃĠ":3089,"guÃłnĠjÅ«nĠ":3090,"zhÇĶĠyÃłoĠ":3091,"rÃ¡nĠ":3092,"dÃ¬ĠdeĠ":3093,"ĠdÃ¬ĠÃ¨rĠ":3094,"dÇİoĠzhÃ¬Ġ":3095,"guÄģnĠxÃ¬Ġ":3096,"cÃºnĠ":3097,"ĠxiÇİoĠ":3098,"kÄģngĠ":3099,"cÄģnĠyÃ¹Ġ":3100,"yuÇİnĠ":3101,"ĠbÃ¹ĠfÃ¨n":3102,"ĠjÇĲnĠ":3103,"zhÄĽngĠ":3104,"ĠgÅįngĠchÃ©ngĠ":3105,"wÃ¡nĠchÃ©ngĠ":3106,"dÄģnĠwÃ¨iĠ":3107,"kÄĽĠnÃ©ngĠ":3108,"ĠwÇĶĠ":3109,"yÄ«ĠwÃ¨iĠ":3110,"ĠzhÇĲĠ":3111,"7Ġ":3112,"1ĠrÃ¬Ġ":3113,"ĠzÃ©Ġ":3114,"geĠ":3115,"xiÃ¨Ġ":3116,"suÇĴĠyÇĴuĠ":3117,"zhÃ¬ĠdeĠ":3118,"ĠzÇĴngĠ":3119,"wÃ©nĠhuÃłĠ":3120,"ĠchÃ©ngĠyuÃ¡nĠ":3121,"ĠdeĠchÃ©ngĠ":3122,"gÄĽiĠ":3123,"lÇļĠ":3124,"ĠbÄģĠ":3125,"yuÃ¡nĠdeĠ":3126,"yÅįngĠyÇĴuĠ":3127,"cÃºnĠzÃłiĠ":3128,"Ã¨rĠshÃŃĠ":3129,"ĠtÅįngĠ":3130,"bÄĽiĠbÃ¹Ġ":3131,"liÃ¡nĠhÃ©Ġ":3132,"hÃ²uĠdeĠ":3133,"niÇĶĠ":3134,"ĠshÃ¬ĠzhÅįngĠ":3135,"zhÃ¨ngĠfÇĶ":3136,"yÃ³uĠyÃºĠ":3137,"guÃ³ĠjiÄģĠ":3138,"duÃ¬ĠyÃºĠ":3139,"ĠniÃ¡nĠzhÃ¬Ġ":3140,"fÄģĠxÃŃngĠ":3141,"yÃ¬ĠdeĠ":3142,"Ġ18":3143,"jÃ¹ĠyÇĴuĠ":3144,"ĠjiÃłnĠzhÃ¹Ġ":3145,"bÇĲĠsÃłiĠ":3146,"ĠbÃ¬ngĠzÃłiĠ":3147,"ĠzhÇĲ":3148,"ĠdÃłoĠleĠ":3149,"ÅįuĠ":3150,"Ã¨Ġ":3151,"xÄ«nĠdeĠ":3152,"sÄ«ĠdeĠ":3153,"shÄĽnĠ":3154,"yÃºnĠ":3155,"zÃ¬ĠjÇĲ":3156,"yÃ¹nĠdÃ²ngĠ":3157,"xÃŃngĠzhÃ¨ngĠ":3158,"yÃ¬nĠdÃ¹Ġ":3159,"Ã©ĠluÃ³ĠsÄ«Ġ":3160,"bÄ«nĠ":3161,"ĠmiÃłnĠjÄ«Ġ":3162,"dÃłiĠbiÇİoĠ":3163,"shÃłoĠ":3164,"sĠĠĠ":3165,"ĠmÄĽiĠguÃ³Ġ":3166,"ĠlÃ¬ngĠ":3167,"xÇĶĠduÅįĠ":3168,"ĠdÃłnĠshÃ¬Ġ":3169,"rÃ¨nĠhÃ©Ġ":3170,"shÄĵngĠyÃºĠ":3171,"tÅ«Ġ":3172,"guÃ¬Ġ":3173,"Ġ15":3174,"8Ġ":3175,"ĠniÃ¡nĠdÃłiĠ":3176,"ĠjiÇİnĠ":3177,"dÄ«ngĠ":3178,"liÇİngĠgÃ¨Ġ":3179,"chÃ¨Ġ":3180,"bÇİoĠhÃ¹Ġ":3181,"ĠrÃ©nĠkÇĴuĠmÃ¬Ġ":3182,"xiÃ¹Ġ":3183,"ĠshÇĲ":3184,"mÇİnĠ":3185,"zhĠ":3186,"xuÃ¡nĠ":3187,"ĠdÄģngĠshÃŃĠ":3188,"zhÃłngĠ":3189,"ĠdeĠyÃŃĠgÃ¨Ġ":3190,"nÃ¡nĠbÃ¹Ġ":3191,"jÇĶĠxÃŃngĠ":3192,"zhuÄģnĠjÃŃĠ":3193,"miÃłnĠjÄ«ĠwÃ¨iĠ":3194,"ĠdiÃłnĠ":3195,"ĠxÃ¬Ġ":3196,"lÃ¡iĠdeĠ":3197,"ĠC":3198,"ÄģiĠ":3199,"fÄģnĠ":3200,"ĠguÄģnĠ":3201,"zÇİoĠ":3202,"ĠzhÃ¨ngĠfÇĶĠ":3203,"dÃºĠlÃ¬Ġ":3204,"fÃºĠwÃ¹Ġ":3205,"juÃ©ĠdÃ¬ngĠ":3206,"ĠchÅ«ĠdeĠ":3207,"xiÄĽĠ":3208,"ruÃ²Ġ":3209,"zhÇĶĠyÃło":3210,"kÄģiĠshÇĲ":3211,"ĠlÃ¬ĠshÇĲĠ":3212,"qÇĲngĠ":3213,"ĠcÃ©ngĠ":3214,"ĠshÃ¨ĠjÃ¬Ġ":3215,"ĠsÄģnĠ":3216,"rÃłngĠ":3217,"mÃŃngĠdeĠ":3218,"ĠwÃ¡ngĠ":3219,"ĠmÄĽiĠ":3220,"hÃłiĠ":3221,"ĠshÃ¬ĠwÃ¨iĠyÃºĠ":3222,"jiÃ¹ĠshÃ¬Ġ":3223,"ĠyÇĴuĠyÄ«Ġ":3224,"gÄĵngĠ":3225,"gtĠ":3226,"ĠcÇĲ":3227,"ĠgtĠ":3228,"xÇĲĠ":3229,"ĠjiÄģng":3230,"tÃłnĠ":3231,"ĠqÃŃĠtÄģĠ":3232,"ĠxÃŃngĠzhÃ¨ngĠ":3233,"ĠfÇİĠ":3234,"pÃ©iĠ":3235,"jiÃłoĠyÃ¹Ġ":3236,"Ġ16":3237,"shÃ²uĠdÃłoĠ":3238,"ltĠ":3239,"ĠA":3240,"ĠfÄĵngĠ":3241,"rÃ¨nĠwÃ©iĠ":3242,"fÇİngĠ":3243,"ĠshÃ¬ĠdÃ¬Ġ":3244,"fÄģĠzhÇİn":3245,"wÇİnĠ":3246,"kÄģnĠ":3247,"shÃ¨ĠhuÃ¬Ġ":3248,"ĠltĠ":3249,"shÃłnĠ":3250,"yÃ¬ĠwÃ¨iĠ":3251,"gÃ¹ĠshÃ¬Ġ":3252,"piÄģnĠ":3253,"fÄģngĠmiÃłnĠ":3254,"ĠxiÃłnĠzÃłiĠ":3255,"ĠjiÄĵĠ":3256,"qÅ«ĠwÃ¨iĠ":3257,"ĠzuÃ¬ĠzhÅįngĠ":3258,"qÃŃnĠ":3259,"ĠbÃ¬Ġ":3260,"ĠzhÅįngĠyÄģngĠ":3261,"ĠshÃ¬ĠshÃ¬Ġ":3262,"tuÃ¬Ġ":3263,"pÃłoĠ":3264,"zheĠ":3265,"nÃ¨iĠdeĠ":3266,"ĠjiÃ¹Ġ":3267,"shÇĶĠdeĠ":3268,"xiÄģngĠgÇİng":3269,"xiÇİoĠshÃŃĠ":3270,"dÃłnĠ":3271,"ĠlÃ¬ĠrÃºĠ":3272,"zÃºĠqiÃºĠ":3273,"shÃ¹ĠjÃ¹Ġ":3274,"ĠbÃ¹ĠtÃ³ng":3275,"liÃ¨ĠchÄĵĠ":3276,"xÅ«ĠyÃłoĠ":3277,"huÃłĠdeĠ":3278,"zhÃŃĠwÃ¹Ġ":3279,"qiÄģngĠ":3280,"ĠsuÄ«":3281,"rÃ©nĠshÃ¬Ġ":3282,"zuÃ²ĠdeĠ":3283,"shÇĲĠyÃ²ng":3284,"zÄĵngĠjiÄģĠ":3285,"ĠqÅ«Ġ":3286,"ĠdÃ²ngĠ":3287,"ĠjÃ¬ĠhuÃłĠ":3288,"mÃŃnĠzhÇĶĠ":3289,"ĠshÃŃĠqÄ«Ġ":3290,"zuÃ²ĠwÃ©iĠ":3291,"ĠgÇĶĠ":3292,"kÃ²ngĠzhÃ¬Ġ":3293,"ĠyÄĽĠshÃ¬Ġ":3294,"duÇİnĠ":3295,"tÇİnĠ":3296,"ĠjiÃłnĠdeĠ":3297,"yÄ«nĠyuÃ¨Ġ":3298,"ĠÄģnĠ":3299,"ĠrÃ¡nĠÃ©rĠ":3300,"lÃ¡ngĠ":3301,"ĠyÇĲĠjÄ«ngĠ":3302,"ĠshÇĶĠyÃºĠ":3303,"ĠhÃ©ĠzuÃ²Ġ":3304,"ĠzÃłiĠdÃ¬Ġ":3305,"rÃ©nĠmÃŃnĠ":3306,"ĠshÃ¬ĠjiÃłnĠ":3307,"ĠrÃ©nĠyuÃ¡nĠ":3308,"ĠyÃ²u":3309,"tÄģĠdeĠ":3310,"ĠjiÃłnĠyÃºĠ":3311,"xuÃ©ĠyuÃłnĠ":3312,"ĠcÃ©ng":3313,"zÇĶĠchÃ©ngĠ":3314,"chÄģoĠguÃ²Ġ":3315,"zuÃ²ĠpÇĲnĠ":3316,"ĠmÇİ":3317,"ĠgÃ©Ġ":3318,"ĠyÄ«nĠyuÃ¨Ġ":3319,"ĠkÄĵĠ":3320,"mÃłoĠ":3321,"ĠquÃ¡nĠguÃ³Ġ":3322,"xiÃ³ngĠ":3323,"ĠS":3324,"zÇİiĠ":3325,"hÅ«Ġ":3326,"huÃ¬ĠdeĠ":3327,"jÃ¬ĠdeĠ":3328,"ĠsÃ¬Ġ":3329,"zÇĴngĠtÇĴngĠ":3330,"ĠzhÃ¨ĠxiÄĵĠ":3331,"suÃłnĠ":3332,"ĠwÃ¨iĠleĠ":3333,"ĠhÃ²uĠlÃ¡iĠ":3334,"yÃºĠshÃ¬Ġ":3335,"ĠpÇĶĠ":3336,"ĠzhÇİngĠ":3337,"ĠtÃłiĠ":3338,"10Ġ":3339,"ĠshÃ²uĠ":3340,"ĠchÃ©ngĠgÅįngĠ":3341,"fÄģĠbÃ¹Ġ":3342,"dÃłĠlÃ¬Ġ":3343,"tÃŃĠchÅ«Ġ":3344,"ĠlÃ¬ĠyÃłĠ":3345,"Ġ000":3346,"ĠyÃ¬ĠyuÃ¡nĠ":3347,"ĠshÃ¨ĠyÇĴuĠ":3348,"ĠyÄ«nĠcÇĲ":3349,"yÃ¹nĠdÃ²ngĠyuÃ¡nĠ":3350,"yÄģoĠqiÃºĠ":3351,"hÃ¡nĠguÃ³Ġ":3352,"bÃ¹ĠzÃłiĠ":3353,"nÃŃĠyÃł":3354,"yÇĴuĠdeĠ":3355,"ĠĠĠdeĠ":3356,"pÃŃnĠ":3357,"pÃºĠ":3358,"zÃłoĠchÃ©ngĠ":3359,"Ġ17":3360,"ÅįuĠzhÅįuĠ":3361,"qiÅ«Ġ":3362,"cÇİiĠyÃ²ngĠ":3363,"xiÇİoĠxÃŃngĠ":3364,"ĠĠĠS":3365,"ĠgÅįngĠyuÃ¡nĠ":3366,"jiÄģĠdeĠ":3367,"xÃ¬ngĠdeĠ":3368,"shÄĵngĠdeĠ":3369,"9Ġ":3370,"ĠdeĠyÃŃĠgÃ¨":3371,"ĠrÃ¬ĠzÃłiĠ":3372,"dÄģngĠshÃŃĠ":3373,"bÇİĠ":3374,"kÃ²ngĠ":3375,"rÃ©nĠwÃ¹Ġ":3376,"fÃ¨ngĠ":3377,"ĠcÇĲĠwÃłiĠ":3378,"ĠsuÃŃ":3379,"gÃ²ngĠchÇİnĠ":3380,"ĠlÄģĠ":3381,"ĠzhĠ":3382,"kÃłnĠ":3383,"ĠcÃ³ng":3384,"ĠwÇĴĠ":3385,"ĠshÄģĠ":3386,"ĠshÃ¬ĠhÃ©Ġ":3387,"wÄģnĠ":3388,"2010ĠniÃ¡nĠ":3389,"ĠlÃ¬ng":3390,"ĠgÄĵnĠjÃ¹Ġ":3391,"ĠB":3392,"ĠdeĠbÃ¹Ġ":3393,"mÇİĠwÃ¨iĠ":3394,"xuÃ©ĠjiÄģĠ":3395,"yÃ³uĠxÃ¬Ġ":3396,"ĠnÇļĠ":3397,"ĠtÇĲĠ":3398,"sÅįngĠ":3399,"fÃłnĠwÃ©iĠ":3400,"ĠbÃ¹ĠtÃ³ngĠ":3401,"kÄģiĠfÄģĠ":3402,"dÅ«nĠ":3403,"shÃ¨ĠjÃ¬Ġ":3404,"mÃ¡oĠ":3405,"sÄģnĠniÃ¡nĠ":3406,"chÄģoĠ":3407,"qÇĶĠdÃ©Ġ":3408,"ĠkÄĽĠ":3409,"ĠdeĠjÄ«Ġ":3410,"ĠĠĠC":3411,"sÃłiĠshÃ¬Ġ":3412,"xiÅįngĠ":3413,"ĠxÃŃngĠchÃ©ngĠ":3414,"ĠĠĠdÃ¬ĠlÇĲĠ":3415,"ĠĠĠshÃ¬Ġ":3416,"ĠyÃŃĠ":3417,"zÃ¬ĠzhÃ¬Ġ":3418,"chÇİnĠshÄĵngĠ":3419,"ĠwÃ¹Ġ":3420,"ÄģĠÄĽrĠ":3421,"ĠsuÃ¬Ġ":3422,"yÃ¡oĠ":3423,"dÇĲngĠ":3424,"wÄĵnĠ":3425,"ĠdeĠjÃ¬Ġ":3426,"jiÃ©ĠmÃ¹Ġ":3427,"shÅ«ĠjÃ¬Ġ":3428,"ĠbÃ¬ngĠyÃºĠ":3429,"ĠĠĠA":3430,"Ġ0":3431,"dÅįuĠshÃ¬Ġ":3432,"nÇĲĠ":3433,"chÃ³ngĠxÄ«nĠ":3434,"xÃ¬ĠtÇĴng":3435,"zÃłnĠ":3436,"lÃ¼Ã¨Ġ":3437,"ĠshÃ¨ĠhuÃ¬Ġ":3438,"ĠliÇİngĠ":3439,"zhÃ²ngĠyÃło":3440,"chÅ«nĠ":3441,"lÇĲĠdeĠ":3442,"bÃºĠshÃ¬Ġ":3443,"ĠdÃłiĠbiÇİoĠ":3444,"yÄ«ĠniÃ¡nĠ":3445,"ĠxiÄģngĠgÇİngĠ":3446,"diÃłnĠyÇĲng":3447,"ĠsÄ«ĠtÃ¨Ġ":3448,"guÄģnĠyÃºĠ":3449,"zhuÄ«Ġ":3450,"dÃłngĠ":3451,"ĠnÃłĠ":3452,"juÃ©ĠsÃ¨Ġ":3453,"ĠfÃº":3454,"jiÄģoĠtÅįngĠ":3455,"lÇİngĠ":3456,"ĠyÃ³uĠxÃ¬Ġ":3457,"dÃłĠxuÃ©Ġ":3458,"jÃŃĠdeĠ":3459,"mÃŃĠ":3460,"gÄĵĠqÇĶĠ":3461,"chÃºĠleĠ":3462,"ĠchÅ«ĠxiÃłnĠ":3463,"2020ĠniÃ¡nĠ":3464,"tÇİoĠ":3465,"ĠjiÃ©":3466,"ĠzhÃ¬ĠzuÃ²Ġ":3467,"ĠdÃłĠxuÃ©":3468,"pÃŃngĠjÅ«nĠ":3469,"ĠP":3470,"ĠdÃ©ĠguÃ³Ġ":3471,"xiÇİnĠshÃ¬Ġ":3472,"ĠchÃ©nĠ":3473,"huÃ¡ĠmÃŃnĠguÃ³Ġ":3474,"ĠshÄĵnĠ":3475,"ĠniÃ¡nĠzÃłiĠ":3476,"ĠzhÅįngĠhuÃ¡ĠrÃ©nĠmÃŃnĠgÃ²ngĠhÃ©ĠguÃ³Ġ":3477,"kuÃ²Ġ":3478,"kÇĴngĠ":3479,"hÃ²uĠzÃłiĠ":3480,"miÃ¡oĠ":3481,"ĠniÃ¡nĠdÃłi":3482,"ĠjiÄģnĠ":3483,"ĠliÇİng":3484,"Ã¨rĠniÃ¡nĠ":3485,"xiÃłĠdeĠ":3486,"yÇİnĠyuÃ¡nĠ":3487,"ĠkÃ¨ĠsÄ«Ġ":3488,"dÃ©ĠguÃ³Ġ":3489,"xiÃ¡ngĠ":3490,"Ġ1Ġ":3491,"wÃ©iĠyÄ«Ġ":3492,"qÃ¬ngĠ":3493,"cÇİoĠ":3494,"ĠbÇİoĠ":3495,"dÄģngĠdÃ¬Ġ":3496,"guÃ³ĠjÃ¬Ġ":3497,"duÃ¬ĠdeĠ":3498,"bÃ³ĠwÃ¹Ġ":3499,"hÅ«nĠ":3500,"ĠjiÃłnĠlÃ¬Ġ":3501,"ĠdÃ¬ĠguÃ³Ġ":3502,"ĠfÄĵiĠ":3503,"ĠbÃ¹ĠyÃºĠ":3504,"fÇİnĠduÃ¬Ġ":3505,"qÄ«ĠdeĠ":3506,"duÄģnĠ":3507,"wÃ¹ĠdeĠ":3508,"zÇĴuĠ":3509,"xuÃ¨Ġ":3510,"yÄ«nĠwÃ¨iĠ":3511,"qÅ«ĠyÃ¹Ġ":3512,"Ġ1":3513,"qÃ¹ĠshÃ¬Ġ":3514,"yÄ«ĠbÃ¹ĠfÃ¨nĠ":3515,"bÃ¡ĠgÄģoĠ":3516,"wÃ²Ġ":3517,"quÄĵĠ":3518,"ĠchÃ¡ngĠ":3519,"2001ĠniÃ¡nĠ":3520,"guÇİnĠxiÃ¡Ġ":3521,"dÃ¹ĠwÃ¨iĠ":3522,"kuÇİnĠ":3523,"zhÃ¨ngĠzhÃ¬ĠrÃ©nĠwÃ¹Ġ":3524,"nÃŃĠyÃłĠ":3525,"ĠkÇİĠ":3526,"hÃ¡iĠyÇĴuĠ":3527,"pÃ©ngĠ":3528,"ĠĠĠrÃ©nĠkÇĴuĠ":3529,"ĠdÄģngĠdÃ¬Ġ":3530,"zuÃ¬ĠzhÅįngĠ":3531,"ĠãĤ":3532,"Ġ2":3533,"ĠtÄģĠshÃ¬Ġ":3534,"chÃ¬Ġ":3535,"ĠbÃ¹ĠduÃ¬Ġ":3536,"lÃ¡iĠzÃ¬Ġ":3537,"ĠyuÄĵĠ":3538,"ĠdÄģnĠ":3539,"bÇĲĠsÃłi":3540,"ĠxÃŃngĠshÃ¬Ġ":3541,"zhÃŃĠyÃ¨Ġ":3542,"qiÃ¡nĠwÇİngĠ":3543,"ĠwÄĵiĠ":3544,"dÃ¬ngĠdeĠ":3545,"ĠT":3546,"ĠfÄģĠ":3547,"quÃ¡nĠguÃ³Ġ":3548,"bÄģĠshÃ¬Ġ":3549,"yÄ«ĠbÃ¹Ġ":3550,"ĠdeĠyuÃ¡nĠ":3551,"ĠzhÃ¨ngĠfÇĶ":3552,"ĠĠĠB":3553,"ĠchÃºĠ":3554,"zhÃ²ngĠyÃłoĠ":3555,"diÃłoĠchÃ¡Ġ":3556,"ĠlÃŃnĠ":3557,"ĠzhÄ«ĠjiÄģnĠ":3558,"biÄģnĠmÇİĠwÃ¨iĠ":3559,"ĠhuÃ¡ngĠ":3560,"ĠD":3561,"ĠniÃ¡nĠjiÄģnĠ":3562,"ĠxuÃ©ĠmÃŃngĠ":3563,"Ġ14":3564,"xuÃ©ĠxiÃłoĠ":3565,"zhÄģoĠ":3566,"zhÇĶĠxÃŃĠ":3567,"xuÇİnĠjÇĶĠ":3568,"ĠrÃ¬ĠzhÃ¬Ġ":3569,"gÇİiĠwÃ©iĠ":3570,"zÇĶĠzhÄ«":3571,"ĠnÃ¨iĠ":3572,"zhÇĶĠjiÃłoĠ":3573,"fÃ¡Ġ":3574,"zÄ«ĠliÃłoĠ":3575,"hÇİiĠjÅ«nĠ":3576,"ĠjÃ¬ngĠ":3577,"gÅįngĠshÃ¬Ġ":3578,"ĠjÅ«nĠshÃ¬Ġ":3579,"ĠdeĠdÃłĠ":3580,"ĠrÃ©nĠkÇĴuĠmÃ¬ĠdÃ¹Ġ":3581,"chÇĶĠlÇĲĠ":3582,"sÅ«nĠ":3583,"zÄģiĠ":3584,"ĠdeĠyÃ¬Ġ":3585,"ĠĠĠP":3586,"kÃłngĠ":3587,"fÄģngĠfÇİĠ":3588,"ĠduÅį":3589,"Ġãģ":3590,"fÃ¹ĠzÃ©Ġ":3591,"ĠrÃ¬ĠbÄĽn":3592,"wÅ«ĠkÃ¨ĠlÃ¡nĠ":3593,"ĠĠĠyÇĶĠ":3594,"ĠbÅįĠ":3595,"guÃłnĠ":3596,"shÃ¹ĠdeĠ":3597,"ĠyÇĴuĠxiÃłn":3598,"dÃłiĠbiÇİo":3599,"ĠgÃ¨ĠrÃ©nĠ":3600,"ĠsÄģn":3601,"wÃºĠfÇİĠ":3602,"yÇĲngĠxiÇİng":3603,"ĠjÃ¬ĠshÃ¹Ġ":3604,"ĠshÃ¨ngĠ":3605,"ĠshÃ¬ĠyÃ³uĠ":3606,"jiÄĵĠrÇİng":3607,"zuÃ¬ĠgÄģoĠ":3608,"jÅ«ĠmÃŃnĠ":3609,"ĠmÃ©iĠ":3610,"ĠhuÃłĠ":3611,"ĠkÄģiĠ":3612,"xÃ¬ĠliÃ¨Ġ":3613,"pÃłĠ":3614,"qÃŃĠzhÅįngĠ":3615,"ĠgÇİiĠ":3616,"lÃ¹ĠdeĠ":3617,"ĠjiÃ¨Ġ":3618,"ĠhÃ³ngĠ":3619,"Ġ2Ġ":3620,"xuÃ©ĠshÄĵngĠ":3621,"ĠzhÄ«ĠchÃŃĠ":3622,"zÃ¬ĠyÃ³uĠ":3623,"wÄĽnĠ":3624,"biÄģoĠzhÇĶnĠ":3625,"ĠzÃ©":3626,"xiÃ©ĠhuÃ¬Ġ":3627,"shÃ¹ĠliÃłng":3628,"ÄģnĠquÃ¡nĠ":3629,"fÇİnĠyÃ¬ngĠ":3630,"kÄĽĠyÇĲ":3631,"qiÃ¨Ġ":3632,"huÃ¬ĠzÃłiĠ":3633,"yÄģoĠ":3634,"kÄĽnĠ":3635,"shÃ¨nĠzhÃ¬Ġ":3636,"bÇĲĠlÃ¬Ġ":3637,"yÃ©Ġ":3638,"tÇĴngĠzhÃ¬Ġ":3639,"ĠM":3640,"liÃ¡nĠmÃ©ngĠ":3641,"chuÃłngĠzuÃ²Ġ":3642,"zhÇĶĠrÃ¨nĠ":3643,"ĠsuÃŃĠ":3644,"ĠĠĠbÄĽnĠ":3645,"ĠxÄ«n":3646,"dÅįngĠbÃ¹Ġ":3647,"ĠdeĠyÃŃĠgÃ¨ĠshÃ¬ĠzhÃ¨nĠ":3648,"Ġãĥ":3649,"ĠshÃ¬ĠyÃŃĠgÃ¨Ġ":3650,"ĠnÃ¡n":3651,"ĠgÅįngĠsÄ«":3652,"gÄģiĠguÃ³Ġ":3653,"ĠfÃ¹ĠzÃ©Ġ":3654,"kÇİiĠ":3655,"fÃ¡nĠ":3656,"yÇİĠ":3657,"ĠdÃ¬ĠsÄģnĠ":3658,"ĠqÇĲĠ":3659,"ĠdÃ¬ĠshÃŃĠ":3660,"tÇĲĠyÃ¹Ġ":3661,"Ġ12":3662,"ĠĠĠxÃŃngĠzhÃ¨ngĠ":3663,"ĠsÅ«Ġ":3664,"jiÃ©ĠgÃ²uĠ":3665,"ĠbÃ¹ĠguÃ²Ġ":3666,"Ġ3":3667,"ĠdÃłoĠdeĠ":3668,"shÃŃĠniÃ¡nĠ":3669,"qÃŃngĠkuÃłngĠ":3670,"nÃ©ngĠlÃ¬Ġ":3671,"niÃºĠ":3672,"mÇĴuĠ":3673,"nÃ¡nĠziĠ":3674,"zhÅįngĠshÃ¬Ġ":3675,"qÃŃngĠkuÃłng":3676,"ĠshuÇĲĠ":3677,"sÃ¬ĠniÃ¡nĠ":3678,"xÄ«ĠbÃ¹Ġ":3679,"gÅįngĠbÃ¹Ġ":3680,"shÄĵngĠhuÃ³Ġ":3681,"jiÄĵĠshÃ²uĠ":3682,"ĠgÄĵĠ":3683,"suÅįĠ":3684,"nÇļĠzÇĲĠ":3685,"ĠÃło":3686,"lÃ¹ĠxiÃłnĠ":3687,"chÃ©ngĠlÃ¬Ġ":3688,"ĠyÃ¡ngĠ":3689,"ĠzhÅįngĠxuÃ©Ġ":3690,"ĠĠĠformulaĠ":3691,"gÅ«Ġ":3692,"wÃłnĠ":3693,"miÃłnĠdeĠ":3694,"huÄģnĠ":3695,"ĠjÃ¬nĠrÃ¹Ġ":3696,"AĠ":3697,"yÃ¬ĠshÃ¬Ġ":3698,"ĠÄĽrĠsÄ«Ġ":3699,"ĠzhÇĶĠyÃłoĠ":3700,"liÃ¡nĠsÃłiĠ":3701,"bÄĽiĠjÄ«ngĠ":3702,"ĠĠĠG":3703,"ĠbÄģ":3704,"yÇĴuĠshÃŃĠ":3705,"ĠÃłoĠ":3706,"ĠE":3707,"ĠyÃ¬ĠhuÃ¬Ġ":3708,"ĠmÃŃng":3709,"ĠkÄĽĠyÇĲĠ":3710,"guÇİngĠdÅįngĠ":3711,"duÃ³Ġ":3712,"hÃ¡oĠ":3713,"ĠĠĠjiÄģĠ":3714,"lÃ¡oĠ":3715,"jiÃłnĠzhÃ¹Ġ":3716,"ĠĠĠthe":3717,"ĠG":3718,"yÃłĠzhÅįuĠ":3719,"dÇİoĠdeĠ":3720,"ĠguÃ³ĠmÃŃnĠ":3721,"yÄĽĠshÃ¬Ġ":3722,"ĠbÃ¬ngĠqiÄĽ":3723,"ĠtÃ¡iĠ":3724,"nÃ¡ĠdÃłĠ":3725,"dÃ²ngĠwÃ¹Ġ":3726,"tÃłiĠpÃŃngĠ":3727,"ĠsuÇĴĠyÇĲĠ":3728,"dÃ¬ĠwÃ¨iĠ":3729,"ĠzhÃ¨ĠshÃ¬Ġ":3730,"bÃ¡ĠgÄģoĠdÃ¹Ġ":3731,"dÃ¡ĠdÃłoĠ":3732,"zÃ¬ĠjÇĲĠdeĠ":3733,"lÇĲĠshÃ¬Ġ":3734,"zhÃºĠjiÃłnĠ":3735,"zhuÃłnĠ":3736,"rÇİnĠ":3737,"dÃłiĠdeĠ":3738,"guÇĲĠ":3739,"bÇİnĠbÄĽnĠ":3740,"xiÃłngĠmÃ¹Ġ":3741,"aĠ":3742,"xÇĶĠduÅį":3743,"zhÄĽĠdeĠ":3744,"jiÃłoĠshÃ²uĠ":3745,"2008ĠniÃ¡nĠ":3746,"ĠhÃ¡iĠ":3747,"ĠxuÃ©ĠxiÃłoĠ":3748,"ĠdÃł":3749,"fÄĵiĠchÃ¡ngĠ":3750,"wÅ«ĠkÃ¨ĠlÃ¡n":3751,"2009ĠniÃ¡nĠ":3752,"ĠxÄ«ĠyÃłĠ":3753,"qÄ«ngĠniÃ¡nĠ":3754,"ĠF":3755,"mĠ":3756,"ĠÃ¨rĠ":3757,"ĠzÇĴng":3758,"ĠzhÇĶĠyÃło":3759,"lÄģĠsÄ«Ġ":3760,"ĠhÃºĠ":3761,"ĠĠĠgÄĵnĠjÃ¹Ġ":3762,"yÄ«ĠshÃ¬Ġ":3763,"ĠchÃ©ngĠwÃ©i":3764,"rÃ¬ĠbÄĽn":3765,"ĠĠĠT":3766,"mÃ³ĠshÃ¬Ġ":3767,"zhÃ©Ġ":3768,"niÇİoĠ":3769,"wÃ©nĠwÃ¹Ġ":3770,"ĠtÄģĠmenĠdeĠ":3771,"suÃ¬Ġ":3772,"ĠyÃ¬ĠshÃ¹Ġ":3773,"ĠbÃ¬ngĠqiÄĽĠ":3774,"ĠmÇĶĠ":3775,"zhÇĲĠyÇĴuĠ":3776,"Ġ4":3777,"chÄģĠ":3778,"ĠjÃ¬ĠlÃ¹Ġ":3779,"ĠzhÅįuĠdeĠ":3780,"ĠÃłiĠ":3781,"ĠĠĠof":3782,"hÃ¡ngĠkÅįngĠ":3783,"ĠyÃºĠshÃ¬Ġ":3784,"wÃ©nĠxuÃ©Ġ":3785,"fÄĵnĠwÃ©iĠ":3786,"ĠbÃ³Ġ":3787,"ĠmÃŃnĠ":3788,"ĠqÃŃĠshÃ¬Ġ":3789,"ĠqÃŃĠyÃºĠ":3790,"suÄģnĠ":3791,"tÅįngĠguÃ²":3792,"dÄĽngĠrÃ©nĠ":3793,"zhÇĲĠchÅ«Ġ":3794,"huÇĲĠ":3795,"28ĠrÃ¬Ġ":3796,"cÃ¡ngĠ":3797,"cuÃ²Ġ":3798,"shuÃłiĠ":3799,"ĠĠĠM":3800,"rÃ©nĠkÇĴuĠpÇĶĠ":3801,"zhÃŃĠxÃŃngĠ":3802,"tÃ³ngĠshÃŃĠ":3803,"hÃ¹nĠ":3804,"zhÃłĠ":3805,"zhÃŃĠjiÄĵĠ":3806,"ĠqiÃºĠduÃ¬Ġ":3807,"ĠlÃ¬ĠyÃł":3808,"yÇİnĠchÅ«Ġ":3809,"jÇĲnĠbiÄģoĠ":3810,"ĠjÄ«n":3811,"gÄģiĠdÃ¬Ġ":3812,"Ġ13":3813,"gÃ©ĠlÃ¡nĠ":3814,"2016ĠniÃ¡nĠ":3815,"ĠĠĠF":3816,"huÃ³ĠdÃ²ng":3817,"zhÃ¨ĠyÄ«Ġ":3818,"rÃ¨nĠwÃ©i":3819,"jÃ¬nĠrÃ¹Ġ":3820,"ĠzhÄ«ĠjiÄģnĠdeĠ":3821,"ĠgÅįngĠkÄģiĠ":3822,"ĠdÄģngĠzhÅįngĠ":3823,"gÃ²ngĠtÃ³ngĠ":3824,"ĠcÃ¬Ġ":3825,"ĠyÃ²ngĠ":3826,"xiÃłĠjÃ¬Ġ":3827,"ĠdÃłnĠzÃłiĠ":3828,"zhÃłnĠzhÄĵngĠ":3829,"wÇĶĠniÃ¡nĠ":3830,"jiÄģngĠjÅ«nĠ":3831,"chÃ³uĠ":3832,"lÃ¨ĠbÃ¹Ġ":3833,"mÃ©iĠtÇĲĠ":3834,"tÇĲĠdeĠ":3835,"chÄĵĠzhÃłn":3836,"Ġ5":3837,"tuÄ«ĠchÅ«Ġ":3838,"jiÃłoĠyÃ¹":3839,"yÇĶnĠ":3840,"zhÃ¨ĠxiÄĵĠ":3841,"mÃ¨ngĠ":3842,"diÃ©Ġ":3843,"ĠshÃ¬ĠwÃ¹Ġ":3844,"tÃ¬Ġ":3845,"pÅįĠ":3846,"miÃłoĠ":3847,"lÃŃĠkÄģiĠ":3848,"ĠlÃ¬ngĠwÃłiĠ":3849,"Ġ6":3850,"huÃ¡nĠjÃ¬ngĠ":3851,"2012ĠniÃ¡nĠ":3852,"lÃŃnĠpÇĲ":3853,"tÃ©ngĠ":3854,"ĠdÃ¬ĠÃ¨r":3855,"shÄģngĠyÃ¨Ġ":3856,"zhÃºĠ":3857,"2011ĠniÃ¡nĠ":3858,"chuÃ¡nĠtÇĴngĠ":3859,"ĠĠĠniÃ¡n":3860,"15ĠrÃ¬Ġ":3861,"guÄģnĠdeĠ":3862,"ĠyÇĲnĠ":3863,"sÄģnĠshÃŃĠ":3864,"jÅ«nĠshÃ¬Ġ":3865,"dÄģnĠqÅ«Ġ":3866,"liÃłngĠdeĠ":3867,"jiÄĵĠdÃłoĠ":3868,"sÃłnĠ":3869,"ĠzhÃ¨ĠgeĠ":3870,"jÄ«ĠdeĠ":3871,"qiÃ¡nĠdeĠ":3872,"rÃ©nĠzÃłiĠ":3873,"nÃ¨iĠrÃ³ngĠ":3874,"zÃłngĠ":3875,"dÃ²ngĠhuÃłĠ":3876,"sÃłiĠjÃ¬Ġ":3877,"gÄģoĠdeĠ":3878,"bÃ³ĠshÃ¬Ġ":3879,"dÃ¹ĠdeĠ":3880,"meĠ":3881,"ĠwÃ¨iĠrÃ©nĠ":3882,"yÃŃnĠhÃ¡ngĠ":3883,"xuÇİnĠjÇĶ":3884,"ĠwÃ¨iĠzhÃ¬Ġ":3885,"chÃ©ngĠzhÅįngĠ":3886,"mÃ¬ngĠmÃŃngĠ":3887,"dÄĽngĠdÃ¬Ġ":3888,"ĠgÅįngĠlÃ¹Ġ":3889,"ĠgÃ¹Ġ":3890,"sÇĶnĠ":3891,"rÃ¨ĠdÃłiĠ":3892,"bÄĽiĠjÄ«ng":3893,"ĠshÃŃĠjÃ¬Ġ":3894,"yÃ¹nĠdÃ²ngĠhuÃ¬Ġ":3895,"xuÇİnĠzÃ©Ġ":3896,"ĠdÃłĠlÃ¬Ġ":3897,"ĠÃ©rĠzÃłiĠ":3898,"yuÃ¡nĠniÃ¡nĠ":3899,"ĠhÃłnĠ":3900,"bÃłoĠgÃłoĠ":3901,"ĠmÃ¹ĠqiÃ¡nĠ":3902,"bÇİngĠ":3903,"ĠdeĠhÃ©Ġ":3904,"ĠwÃº":3905,"bÅįĠchÅ«Ġ":3906,"zuÃ¬ĠjiÄģĠ":3907,"ĠĠĠjÃ¹Ġ":3908,"zÅįngĠjiÃłoĠ":3909,"xuÃ©ĠwÃ¨iĠ":3910,"tÇĶĠdÃ¬Ġ":3911,"ĠdÃ©ĠdÃłoĠ":3912,"ĠH":3913,"zuÃ¬ĠhÃ²uĠ":3914,"wÃ©nĠhuÃł":3915,"tuÃ¡nĠtÇĲĠ":3916,"25ĠrÃ¬Ġ":3917,"ĠdÃ¬ĠfÄģngĠ":3918,"guÇĲĠdÃłoĠ":3919,"luÃłnĠ":3920,"ĠwÃ¨iĠdÃ¬Ġ":3921,"jÄ«ngĠlÃ¬Ġ":3922,"xÃ¬ĠdeĠ":3923,"ĠzhÄ«ĠqiÃ¡nĠ":3924,"Ġ5Ġ":3925,"shÄĽngĠdeĠyÃŃĠgÃ¨ĠshÃ¬ĠzhÃ¨nĠ":3926,"ĠzhÃłn":3927,"ĠyÃ¨Ġ":3928,"ĠshÃ¬ĠyÄ«ĠzhÇĴngĠ":3929,"ĠshÃ¬ĠwÃ¨iĠyÃºĠmÄĽiĠguÃ³Ġ":3930,"ĠmÃ³Ġ":3931,"ĠqÃ¬Ġ":3932,"jÃŃĠzhÅįngĠ":3933,"ĠgÃ¨ĠyuÃ¨Ġ":3934,"ĠjÅ«nĠdeĠ":3935,"sÇĲĠwÃ¡ngĠ":3936,"ĠĠĠH":3937,"xiÄģngĠguÄģnĠ":3938,"ĠmÇĲ":3939,"fÄĵnĠbiÃ©":3940,"30ĠrÃ¬Ġ":3941,"ĠbÄģoĠkuÃ²":3942,"ĠjÄ«ĠgÃ²uĠ":3943,"wÃ¨iĠdeĠ":3944,"shÇĴuĠcÃ¬Ġ":3945,"ĠxÃ¬ngĠ":3946,"ÃłoĠlÃŃnĠpÇĲ":3947,"lÇĲngĠdÇİoĠ":3948,"ĠyÇĴuĠguÄģnĠ":3949,"ĠhÇİiĠbÃ¡ĠgÄģoĠdÃ¹Ġ":3950,"ĠyÄ«ĠxiÄĵĠ":3951,"ĠtÃ³ngĠniÃ¡nĠ":3952,"huÃ¡iĠ":3953,"2014ĠniÃ¡nĠ":3954,"yÃ²ngĠdeĠ":3955,"ĠĠĠwÃ¨iĠ":3956,"ĠjuÃ©Ġ":3957,"20ĠrÃ¬Ġ":3958,"ĠxÃŃngĠdÃ²ngĠ":3959,"ĠzÃłiĠyÄ«Ġ":3960,"jÄ«ĠyÃºĠ":3961,"xuÄĽĠ":3962,"ĠzhÃ²ngĠ":3963,"ĠzhÅįngĠhuÃ¡ĠmÃŃnĠguÃ³Ġ":3964,"shuÇĲĠyÃ¹Ġ":3965,"11Ġ":3966,"10ĠrÃ¬Ġ":3967,"biÃłnĠhuÃłĠ":3968,"shÃłngĠwÃ¨iĠ":3969,"ĠjÃŃĠtuÃ¡n":3970,"2018ĠniÃ¡nĠ":3971,"ĠjÃ¬ĠxÃ¹Ġ":3972,"zhÄ«ĠyÄ«Ġ":3973,"ĠshÃŃĠdÃłiĠ":3974,"chÇĶĠyÃºĠ":3975,"UTCĠ":3976,"gÃ²ngĠhÃ©Ġ":3977,"eĠ":3978,"ĠbÃ¹ĠzhÇİngĠ":3979,"zÃ¬ĠjÇĲĠ":3980,"jiÃ©ĠshÃ¹Ġ":3981,"2019ĠniÃ¡nĠ":3982,"ĠzÃ¬ĠjÇĲ":3983,"zhÄ«ĠchÃŃĠ":3984,"2005ĠniÃ¡nĠ":3985,"guÃ²ĠchÃ©ngĠ":3986,"ĠhÃ²uĠlÃ¡i":3987,"ĠbÃ¡iĠ":3988,"ĠwÃłiĠ":3989,"shÃ¹nĠ":3990,"mÃŃnĠzÃºĠ":3991,"2015ĠniÃ¡nĠ":3992,"kÅįngĠjiÄģnĠ":3993,"Ġ8":3994,"shuÃ¬Ġ":3995,"bÃºĠhuÃ¬Ġ":3996,"yÃ¨ĠyÃºĠ":3997,"ĠziĠ":3998,"ĠrÃº":3999,"tÃ²uĠguÃ²Ġ":4000,"nÃ¨iĠbÃ¹Ġ":4001,"mÃ¨iĠ":4002,"2013ĠniÃ¡nĠ":4003,"ĠchÄĵngĠ":4004,"jiÄĽĠfÃłng":4005,"ĠsÃ¬":4006,"ĠzhÃŃĠdÃłoĠ":4007,"ĠyÃ¬ĠzhÃŃĠ":4008,"xÄ«nĠwÃ©nĠ":4009,"fÄĵnĠbÃ¹Ġ":4010,"ĠjÇĲngĠ":4011,"gÄĵnĠjÃ¹":4012,"ĠĠĠtheĠĠĠ":4013,"ĠzhÅįuĠshÃ¬Ġ":4014,"pÄ«ĠpÃŃngĠ":4015,"ĠN":4016,"ĠjÃŃĠtuÃ¡nĠ":4017,"2007ĠniÃ¡nĠ":4018,"ĠÃłi":4019,"Ġ7":4020,"dÃ¬ĠqÅ«Ġ":4021,"ĠjiÃ¹":4022,"ĠĠĠzhÃ¨Ġ":4023,"tÄģĠmen":4024,"ĠshÇĶĠ":4025,"ĠhÃ©ĠnÃ¡nĠ":4026,"ĠshÃ¬ĠshÃŃĠ":4027,"ĠyÇĴuĠxiÃłnĠgÅįngĠsÄ«Ġ":4028,"wÃ¡nĠjiÄģĠ":4029,"20Ġ":4030,"guÄ«ĠdÃ¬ngĠ":4031,"gÃ©ĠmÃ¬ngĠ":4032,"ĠjiÄģĠrÃ¹Ġ":4033,"wÃ¡nĠquÃ¡nĠ":4034,"ĠshÃ©nĠ":4035,"chÃ©ngĠwÃ©iĠ":4036,"ĠtÃ¡ngĠ":4037,"xÄ«ĠbÄģnĠ":4038,"zÄ«ĠgÃ©Ġ":4039,"ĠÐ":4040,"26ĠrÃ¬Ġ":4041,"ĠK":4042,"dÃłĠlÃ¹Ġ":4043,"ĠĠĠgÄģiĠ":4044,"2017ĠniÃ¡nĠ":4045,"ÃłoĠlÃŃnĠpÇĲĠkÃ¨Ġ":4046,"ĠdÃłĠhuÃ¬Ġ":4047,"24ĠrÃ¬Ġ":4048,"kuÄģnĠ":4049,"zÃłiĠdeĠ":4050,"zÃ¡ĠzhÃ¬Ġ":4051,"ĠmÃ²Ġ":4052,"ĠzhÃ¨ĠzhÇĴngĠ":4053,"yÄ«ngĠyÇĶĠ":4054,"pÃºĠtÃ¡oĠ":4055,"dĠĠĠ":4056,"lÃ¹ĠdÃ¬Ġ":4057,"ĠĠĠyÄ«Ġ":4058,"hÃ©ĠdeĠ":4059,"shÃłngĠhÇİiĠ":4060,"ĠyÄ«ngĠguÃ³Ġ":4061,"hÃ¡oĠmÇĲĠ":4062,"ĠyÇĶĠyÃ¡nĠ":4063,"qÇĲĠyÃ¨Ġ":4064,"qÃŃĠtÄģ":4065,"nĠ":4066,"fÄģngĠdeĠ":4067,"Ġ3Ġ":4068,"hÃ²uĠyÄ«Ġ":4069,"luÃ³ĠmÇİĠ":4070,"wÃ¨nĠtÃŃ":4071,"ĠkÄĽ":4072,"sÄģnĠgÃ¨Ġ":4073,"ĠchÃ©ngĠqÅ«Ġ":4074,"sÃ¨ĠdeĠ":4075,"2006ĠniÃ¡nĠ":4076,"chuÃ¡nĠtÇĴng":4077,"ĠL":4078,"ĠshÃ¬ĠfÇİĠguÃ³Ġ":4079,"yÄ«ĠdeĠ":4080,"ĠtÃ³uĠ":4081,"18ĠrÃ¬Ġ":4082,"wÃ¹ĠzhÇĴngĠ":4083,"ĠwÃ¨iĠyÃºĠgÄģiĠguÃ³Ġ":4084,"aĠĠĠ":4085,"ĠlÇĲĠsÄ«Ġ":4086,"ĠtÃ¡iĠwÄģnĠ":4087,"jÃ¬ngĠnÃ¨iĠ":4088,"ĠhÄģĠ":4089,"ĠbÃ¹ĠtÃ³ngĠdeĠ":4090,"Ġ9":4091,"wÃ¹ĠlÇĲĠ":4092,"ĠmÃ²":4093,"duÅįĠdeĠ":4094,"shÃ¹ĠwÃ¨iĠ":4095,"ĠdÃłiĠbiÇİo":4096,"biÇİoĠxiÃłnĠ":4097,"ĠshÃ¬ĠjiÃ¨ĠdÃłĠ":4098,"ĠyÃłoĠ":4099,"shÄĽngĠjÃŃĠ":4100,"fÇİĠlÇľĠ":4101,"miÃ¡oĠshÃ¹Ġ":4102,"guÄģnĠyuÃ¡nĠ":4103,"gÃłnĠ":4104,"jÄ«ngĠguÃ²Ġ":4105,"ĠÄģ":4106,"ĠlÃºĠ":4107,"bÃłĠ":4108,"chÄģngĠ":4109,"ĠzuÃ¬ĠhÃ²uĠ":4110,"ĠyÃ¬ĠbÄģnĠ":4111,"pÃ²ĠhuÃłi":4112,"ĠguÃ³ĠjiÄģ":4113,"yÃŃngĠdÃ©Ġ":4114,"ĠsuÃŃĠhÃ²uĠ":4115,"cÃłiĠ":4116,"zhÃ¨ngĠzÃłiĠ":4117,"bÄģoĠhÃ¡nĠ":4118,"ĠshÃ¬ĠjiÃłn":4119,"bÃ³ĠwÃ¹ĠguÇİnĠ":4120,"ĠgÅįngĠjÄ«Ġ":4121,"21Ġ":4122,"shÃ¨nĠ":4123,"cÃ¨ĠshÃ¬Ġ":4124,"chÇİngĠdeĠ":4125,"ĠwÃ¨iĠzhÅįngĠ":4126,"ĠlÃ¬ĠyÃ²ngĠ":4127,"bÃ¹ĠhÃ©Ġ":4128,"nÃ¡Ġ":4129,"zÃ©ĠshÃ¬Ġ":4130,"ĠchÃ¡oĠ":4131,"niÃ¨Ġ":4132,"fÄĵiĠjÄ«Ġ":4133,"ĠfÄĵnĠbÃ¹ĠyÃºĠ":4134,"chÃºnĠ":4135,"zhuÄģnĠyÃ¨Ġ":4136,"shÇĲĠdeĠ":4137,"zhÄĵngĠyÃ¬Ġ":4138,"27ĠrÃ¬Ġ":4139,"16ĠrÃ¬Ġ":4140,"fÇİĠyuÃłnĠ":4141,"ĠsuÄ«ĠrÃ¡n":4142,"Ġ2001ĠniÃ¡nĠ":4143,"ĠdÃ¬ĠqÅ«":4144,"21ĠrÃ¬Ġ":4145,"yÃ¬ĠshÃŃĠ":4146,"yÅįngĠ":4147,"17ĠrÃ¬Ġ":4148,"zÄģoĠdÃłoĠ":4149,"ĠshÃ¬ĠyÃ¬Ġ":4150,"ĠshÄĵngĠhuÃ³Ġ":4151,"tĠ":4152,"12ĠrÃ¬Ġ":4153,"ĠchÃ³ngĠ":4154,"ĠbÃ¨iĠchÄĵngĠwÃ©iĠ":4155,"dÃ¬ngĠyÃ¬Ġ":4156,"ĠzhÅįngĠxÄ«n":4157,"ĠdÃłĠqÅ«Ġ":4158,"8ĠrÃ¬Ġ":4159,"zÅįngĠhÃ©Ġ":4160,"ĠzhÃłnĠzhÄĵngĠ":4161,"dĠ":4162,"xuÃ©ĠdeĠ":4163,"ĠxiÃłnĠshÃŃĠ":4164,"ĠĠĠD":4165,"ĠzhÅįngĠgÃ²ng":4166,"19ĠrÃ¬Ġ":4167,"jÃŃĠwÃ¨iĠ":4168,"sÅįuĠ":4169,"23ĠrÃ¬Ġ":4170,"2021ĠniÃ¡nĠ":4171,"huÃ¡ngĠdÃ¬Ġ":4172,"ĠdeĠzuÃ²Ġ":4173,"zhÇĲĠshÃ¬Ġ":4174,"2022ĠniÃ¡nĠ":4175,"11ĠrÃ¬Ġ":4176,"ÄģĠlÄģĠ":4177,"ÅįuĠzhÅįu":4178,"jiÄģngĠqÃŃĠ":4179,"ĠzhÅ«Ġ":4180,"ĠbÃ¬ngĠbÃ¹Ġ":4181,"yuÃ¡nĠyÃºĠ":4182,"fÄģngĠxiÃłngĠ":4183,"liÃ¹ĠniÃ¡nĠ":4184,"zhÃłnĠdeĠ":4185,"Ã©ĠluÃ³Ġ":4186,"ĠĠĠyÃºĠ":4187,"chÅ«ĠxiÃłnĠ":4188,"quÃ¡nĠlÃ¬Ġ":4189,"nÇİoĠ":4190,"liÃ¨ĠchÄĵ":4191,"guÄ«ĠmÃ³Ġ":4192,"22ĠrÃ¬Ġ":4193,"7ĠrÃ¬Ġ":4194,"29ĠrÃ¬Ġ":4195,"liÃ¨ĠdeĠ":4196,"zuÃ¬ĠdÃłĠdeĠ":4197,"duÅįĠshÃ¹Ġ":4198,"xiÃłngĠdeĠ":4199,"ĠcÃ¬":4200,"xÅ«ĠyÃło":4201,"hÃ¡iĠshÃ¬Ġ":4202,"ĠlÃ³ngĠ":4203,"yÃ¹ĠdeĠ":4204,"nÃ©ngĠgÃ²uĠ":4205,"yuÄĵĠhÃłnĠ":4206,"ĠĠĠcÇĲĠ":4207,"ĠzhÃ¨ĠxiÄĵ":4208,"dÃ¬ngĠwÃ¨iĠ":4209,"9ĠrÃ¬Ġ":4210,"tÇĴngĠjÃ¬Ġ":4211,"ĠxiÄģngĠgÇİng":4212,"ĠzÇĶĠ":4213,"sÄģngĠ":4214,"ĠĠĠzhÃ¨ngĠzhÃ¬Ġ":4215,"ĠzÃłiĠzhÃ¨Ġ":4216,"xÃ¬nĠxÄ«Ġ":4217,"liÃ¡nĠmÃ©ng":4218,"yÃłngĠdeĠ":4219,"ĠxiÃłnĠzhÃ¬Ġ":4220,"gÅįngĠdeĠ":4221,"jÇĶĠbÃłn":4222,"qiÃºĠduÃ¬Ġ":4223,"hÅįngĠ":4224,"ĠfÄĵnĠbiÃ©":4225,"deĠĠĠ":4226,"chÃ¡ĠdeĠ":4227,"14ĠrÃ¬Ġ":4228,"lÃ¬ngĠyÄ«Ġ":4229,"chÃ¡ngĠshÃ¬Ġ":4230,"yĠ":4231,"mÄĽiĠguÃ³ĠrÃ©nĠkÇĴuĠpÇĶĠ":4232,"ĠzhÄģng":4233,"5ĠrÃ¬Ġ":4234,"niÇĶĠyuÄĵ":4235,"zÇĶĠhÃ©Ġ":4236,"ĠhuÃ²ĠdÃ©":4237,"ĠlÃ¹":4238,"Ġ10":4239,"lÃŃnĠshÃŃĠ":4240,"3ĠrÃ¬Ġ":4241,"31ĠrÃ¬Ġ":4242,"ĠzhÅįngĠbÃ¹Ġ":4243,"wÃ¨iĠshÃ¬Ġ":4244,"dÇĴngĠshÃ¬Ġ":4245,"jÄ«ĠdÃ¬Ġ":4246,"gÄĵĠshÇĴuĠ":4247,"dÅįngĠnÃ¡nĠ":4248,"hÇİiĠbÃ¡":4249,"bÄģngĠzhÃ¹Ġ":4250,"ĠdeĠshÃ¬ĠzhÃ¨nĠ":4251,"ĠĠĠzhÅįngĠ":4252,"ĠrÃ¹Ġ":4253,"6ĠrÃ¬Ġ":4254,"mÃ³uĠ":4255,"pÄģiĠshÃ¨Ġ":4256,"ĠbÃłoĠ":4257,"ĠhuÃ¡Ġ":4258,"ĠgÃ²ngĠ":4259,"ĠyÃ¬ĠdÃłĠlÃ¬Ġ":4260,"2000ĠniÃ¡nĠ":4261,"ĠshÃ¨ĠlÃ¬Ġ":4262,"2ĠrÃ¬Ġ":4263,"ĠliÃº":4264,"ĠyÃ¬ĠbÄģn":4265,"ĠrÃ©nĠkÇĴu":4266,"gÃ¨ĠrÃ©nĠ":4267,"shÃ¨ĠyÇĴuĠ":4268,"ĠdeĠzhÅįngĠ":4269,"4ĠrÃ¬Ġ":4270,"Ġ4Ġ":4271,"30Ġ":4272,"shÄĵngĠyÃ¡Ġ":4273,"ĠO":4274,"yuÃ¡nĠhÃ©Ġ":4275,"2004ĠniÃ¡nĠ":4276,"ĠdÃ¬ĠqÅ«ĠdeĠ":4277,"ĠxuÃ©ĠshÄĵngĠ":4278,"ĠdÇİoĠzhÃ¬Ġ":4279,"tiÄĽĠlÃ¹":4280,"zÃºĠqiÃº":4281,"zÇİoĠqÄ«Ġ":4282,"ĠqÃŃĠtÄģ":4283,"fÃ©ngĠ":4284,"cÄģngĠ":4285,"BĠ":4286,"13ĠrÃ¬Ġ":4287,"alĠĠĠ":4288,"xiÅįngĠdÃ¬Ġ":4289,"shÄĵngĠzÃłiĠ":4290,"dÅįngĠbÄĽiĠ":4291,"mÃ¹ĠdÃ¬Ġ":4292,"tÅįngĠchÃ¡ngĠ":4293,"huÄ«ĠfÃ¹Ġ":4294,"ruÇİnĠ":4295,"ĠwÇĴ":4296,"ĠshÃ¬ĠchÇİngĠ":4297,"ĠxuÃ©ĠyuÃłnĠ":4298,"ĠzhÃ¨ĠyÄ«Ġ":4299,"shÄģoĠ":4300,"shÄĵnĠfÃ¨nĠ":4301,"ĠĠĠyÃ³uĠyÃºĠ":4302,"qÇĶĠdÃłiĠ":4303,"gÃ©ĠmÃ¬ng":4304,"zhÇĲĠhuÄ«Ġ":4305,"qÃŃngĠkuÃłngĠxiÃłĠ":4306,"ĠmÃ©iĠyÇĴuĠ":4307,"sÅ«ĠliÃ¡nĠ":4308,"ĠbiÃłnĠ":4309,"yÃŃĠbÃ¹Ġ":4310,"ĠfÃ¹":4311,"xiÃ©ĠyÃ¬Ġ":4312,"huÃ¡ngĠjiÄģĠ":4313,"kÄĵĠjÃ¬Ġ":4314,"ĠI":4315,"fÄģĠxiÃłn":4316,"bÇĲngĠ":4317,"zhÄĽngĠgÃ¨Ġ":4318,"ĠhÄĵiĠ":4319,"rÃ©nĠhÃ©Ġ":4320,"ĠgÅįngĠchÇĲĠ":4321,"liÃ¡nĠbÄģngĠ":4322,"yÄģoĠqiÃº":4323,"pÃ¡ngĠ":4324,"zhÄģnĠ":4325,"yÄģnĠ":4326,"chÄģoĠjÃŃĠ":4327,"pÃ¡nĠ":4328,"mÃłoĠyÃ¬Ġ":4329,"yuÃ¨ĠdeĠ":4330,"zhÇİngĠdeĠ":4331,"xuÃ©ĠyuÃłn":4332,"fÇİnĠyÃ¬ng":4333,"jÇĶĠbÃłnĠ":4334,"hÃ¡ngĠkÅįng":4335,"ĠR":4336,"xÃŃĠjÄ«Ġ":4337,"cuÄ«Ġ":4338,"ĠyÄĽĠyÇĴuĠ":4339,"huÃłĠhÃ©Ġ":4340,"xiÇİoĠshuÅįĠ":4341,"ĠdÃ¬ĠlÃ¬Ġ":4342,"guÄģnĠfÄģngĠ":4343,"lÃ¬ĠhÃ©Ġ":4344,"0Ġ":4345,"nÇļĠxÃ¬ngĠ":4346,"ĠxÄ«ĠnÃ¡nĠ":4347,"tÃºĠshÅ«Ġ":4348,"xiÄģnĠhÃ²uĠ":4349,"bÃ¬ĠyÃ¨Ġ":4350,"tÇĴngĠyÄ«Ġ":4351,"ĠhÄģ":4352,"ĠshÅ«Ġ":4353,"brĠ":4354,"ĠgÃ¹":4355,"sÃłiĠdeĠ":4356,"hÃ³uĠ":4357,"ĠyÇĲĠjÄ«ng":4358,"zÃ¡Ġ":4359,"zÅ«nĠ":4360,"ĠmÃłnĠ":4361,"ĠwÄĵi":4362,"ĠshuÄģngĠ":4363,"ĠquÃ¨Ġ":4364,"ĠbrĠ":4365,"ĠĠĠE":4366,"xiÃ©ĠzhÃ¹Ġ":4367,"ĠdÅįng":4368,"cÃ¬ĠshÃ¬ĠjiÃ¨ĠdÃłĠ":4369,"lÇİnĠ":4370,"ĠrÃºĠguÇĴĠ":4371,"shÃłngĠshÃ¬Ġ":4372,"Ġ6Ġ":4373,"qÅ«ĠhuÃłĠ":4374,"fÄĵnĠxÄ«Ġ":4375,"yÇĶĠdeĠ":4376,"ĠÄĽrĠshÄĽngĠ":4377,"rÃ©nĠkÇĴuĠshÃ¹ĠliÃłng":4378,"wÃ©nĠwÃ¹ĠbÇİoĠhÃ¹Ġ":4379,"ĠhÃ©ĠyÄ«Ġ":4380,"ĠbÃ¹ĠnÃ©ngĠ":4381,"zÃ¬ĠxÃŃngĠ":4382,"tÇĲngĠ":4383,"12Ġ":4384,"jiÄĵĠduÃłnĠ":4385,"wÃºĠxiÃłnĠ":4386,"guÇİngĠbÅįĠ":4387,"ĠbÄĽn":4388,"ĠyÇĲĠlÃ¡iĠ":4389,"ĠxÄ«ĠbÄģnĠ":4390,"dÄģnĠrÃ¨n":4391,"ĠtÄģĠcÃ©ng":4392,"chÃŃĠxÃ¹Ġ":4393,"tÃ¡iĠbÄĽi":4394,"ĠwÇĶ":4395,"ĠcÃ¡iĠ":4396,"gÃ²ngĠchÇİnĠdÇİngĠ":4397,"guÃ³ĠhÃ©Ġ":4398,"ĠyÇĲĠxiÃłĠ":4399,"qÄ«ĠniÃ¡nĠ":4400,"tÃ¨ĠdeĠ":4401,"dÇİoĠyÇİnĠ":4402,"ĠqiÄĽ":4403,"rÃ©ngĠ":4404,"hÃ²uĠyÃºĠ":4405,"fÄģĠbiÇİo":4406,"yÇİnĠchÃłng":4407,"zhÃ¹ĠzÃłiĠ":4408,"xiÃłĠxiÃ¡":4409,"tiÃ¡oĠjiÃłnĠ":4410,"ĠqiÄĽĠ":4411,"pÃŃnĠdÃłoĠ":4412,"ĠgÅįngĠzuÃ²":4413,"yÃ¨ĠdeĠ":4414,"jiÄģoĠyÃ¬Ġ":4415,"hÇĶĠ":4416,"ĠzÃłiĠcÃ¬Ġ":4417,"shÃłoĠniÃ¡nĠ":4418,"lÃłiĠ":4419,"jiÃ©ĠshÃ¹":4420,"ĠshÃ¬ĠzhÅįngĠguÃ³Ġ":4421,"ĠjiÇĶĠ":4422,"bÃłoĠdÃłoĠ":4423,"ĠrÃ©nĠkÇĴuĠmÃ¬ĠdÃ¹ĠwÃ¨iĠ":4424,"qiÃºĠyuÃ¡nĠ":4425,"ĠshÃ¬ĠlÃ¬Ġ":4426,"ĠĠĠbÃ¹Ġ":4427,"zÄģoĠ":4428,"juÃ©ĠsÃłiĠ":4429,"yÃ¬ngĠyÃ²ngĠ":4430,"wÃłiĠdeĠ":4431,"yÃ³uĠzhÃ¨ngĠ":4432,"jiÃłnĠlÃ¬Ġ":4433,"zÄ«ĠyuÃ¡nĠ":4434,"sÄģiĠÄĽrĠ":4435,"ĠyÃłĠ":4436,"ĠqÃŃĠhÃ²uĠ":4437,"ĠqiÄģnĠ":4438,"zuÃ¬ĠdÃłĠ":4439,"ĠxÄ«":4440,"ĠbÃ¬ngĠwÃ¨iĠ":4441,"huÃŃĠdÃłoĠ":4442,"cÄģoĠ":4443,"sÃ¹ĠdÃ¹Ġ":4444,"qÃ¬ĠhÃ²uĠ":4445,"kÄĽĠdÃ¡Ġ":4446,"ĠwÃ¨iĠyÃºĠfÇİĠguÃ³Ġ":4447,"gÇİiĠgÃ©Ġ":4448,"mÃ¬ĠshÅ«Ġ":4449,"ĠluÃ²Ġ":4450,"ĠyÄ«ĠyuÃłnĠ":4451,"diÃłnĠshÃ¬ĠjÃ¹Ġ":4452,"zhuÃłngĠtÃłiĠ":4453,"zhÃ¹ĠdeĠ":4454,"fÃ¨nĠwÃ¨iĠ":4455,"ĠgÅįngĠyÃ¨Ġ":4456,"wÇİngĠzhÃłnĠ":4457,"ĠzhÃłoĠ":4458,"gÅįngĠsÄ«Ġ":4459,"ĠW":4460,"jiÃ©ĠguÇĴĠ":4461,"suÇĴĠshÇĶĠdeĠ":4462,"ĠdeĠdÃ¬ĠyÄ«Ġ":4463,"ĠjiÄĽĠ":4464,"ĠĠĠL":4465,"ĠlÃ¡nĠ":4466,"hÃºĠnÃ¡nĠ":4467,"ĠyÄ«ĠsÄ«Ġ":4468,"ĠmÃłi":4469,"yÃłĠlÃ¬Ġ":4470,"ĠwÃ¨iĠyÄ«Ġ":4471,"shÃłngĠhÇİi":4472,"20ĠshÃ¬ĠjÃ¬Ġ":4473,"jiÃ©ĠhÃ©Ġ":4474,"ĠzhÃ¨Ġge":4475,"ĠzuÃ²ĠpÇĲnĠ":4476,"zuÇĴĠyÃ²uĠ":4477,"xiÇİoĠxuÃ©Ġ":4478,"shÃ¨ngĠlÃ¬Ġ":4479,"ĠzhÅįngĠgÃ²ngĠ":4480,"shÇĴuĠcÃ¬":4481,"UĠ":4482,"ĠhÃłoĠxiÃłnĠ":4483,"zhÃ¨nĠqÅ«Ġ":4484,"ĠdeĠfÃ¹Ġ":4485,"kÄģiĠfÄģ":4486,"wÃ©nĠmÃŃngĠ":4487,"ĠjiÇİnĠchÄĵngĠ":4488,"ĠsuÇĴĠyÇĴuĠ":4489,"yÃŃĠzhÃ¬Ġ":4490,"jiÃłoĠhuÃ¬Ġ":4491,"shÄĽngĠfÃ¨nĠ":4492,"zhÇİnĠkÄģiĠ":4493,"yÃ¬nĠdÃ¹":4494,"shÃŃĠqÄ«Ġ":4495,"ĠfÇİĠguÃ³Ġ":4496,"lÇĲngĠdÇİo":4497,"mÃ¹ĠbiÄģoĠ":4498,"ĠÃ©rĠshÃ¬Ġ":4499,"gÄģoĠjÃŃĠ":4500,"zhÇĶnĠbÃ¨iĠ":4501,"wÇİngĠluÃ²Ġ":4502,"ĠmÄĽiĠyuÃ¡nĠ":4503,"ĠjiÃłnĠshÃ¨Ġ":4504,"xÃ¹nĠliÃłnĠ":4505,"fÄģĠbiÇİoĠ":4506,"kÄĵĠdeĠ":4507,"ĠrÃ©nĠwÃ¹Ġ":4508,"xuÇİnĠshÇĴuĠ":4509,"jiÄģoĠtÅįng":4510,"ĠfÄĵi":4511,"hÇİoĠdeĠ":4512,"zÃ¬ĠrÃ¡nĠ":4513,"zhÃ²ngĠyÃłoĠdeĠ":4514,"dÅįngĠjÄ«ngĠ":4515,"chÇİnĠpÇĲnĠ":4516,"gÃ²ngĠyÇĴuĠrÃ©nĠkÇĴuĠ":4517,"ĠxiÃłnĠdÃłiĠ":4518,"ĠyÄ«ĠmÃŃngĠ":4519,"ĠjiÇİĠ":4520,"ĠxÄ«ĠbÄĽiĠ":4521,"fÄĵngĠgÃ©Ġ":4522,"ĠchÃ©ngĠjÃ¬Ġ":4523,"lÄĽiĠ":4524,"ĠhÃ©ĠdÃ¬Ġ":4525,"zÃ²uĠ":4526,"xiÇİoĠxÃŃngĠxÄ«ngĠ":4527,"yÃ¡nĠzhÃ²ngĠ":4528,"juÇİnĠ":4529,"ziĠdeĠ":4530,"mÃ¹ĠqiÃ¡nĠ":4531,"wÃ©nĠwÃ¹ĠbÇİoĠhÃ¹ĠdÄģnĠwÃ¨iĠ":4532,"liÃºĠxÃŃngĠ":4533,"ĠjÄ«ĠchÇİngĠ":4534,"ĠĠĠK":4535,"biÃłnĠchÃ©ngĠ":4536,"qiÃ¡oĠzhÃ¬Ġ":4537,"miÃ¨Ġ":4538,"ĠguÄģngĠ":4539,"lÃ¨iĠsÃ¬":4540,"diÃłnĠshÃ¬ĠtÃ¡iĠ":4541,"jiÄĽĠshÃ¬Ġ":4542,"guÃ³ĠmÃŃnĠ":4543,"ĠyÃ¬ĠqÇĲĠ":4544,"ĠyÇĴngĠ":4545,"kÄģiĠfÃłngĠ":4546,"ĠmÃłiĠ":4547,"ĠshÃ¨nĠzhÃ¬Ġ":4548,"ĠdÄģnĠrÃ¨nĠ":4549,"ĠxiÃłĠlÃ¬ng":4550,"ĠyÃŃĠgÃ¨Ġ":4551,"kÇİĠÄĽrĠ":4552,"2003ĠniÃ¡nĠ":4553,"xÃŃngĠshÃ¬Ġ":4554,"dÅįuĠyÇĴuĠ":4555,"2002ĠniÃ¡nĠ":4556,"ĠchÃºĠleĠ":4557,"zhÄ«ĠhÃ²uĠ":4558,"huÃ¬ĠhÃ©Ġ":4559,"mÄĽiĠpÃŃngĠfÄģngĠgÅįngĠlÇĲĠ":4560,"ĠĠĠW":4561,"rÃ¹ĠleĠ":4562,"ĠyÄ«ĠyÃłngĠ":4563,"ĠgÅįngĠfÄĵnĠ":4564,"ĠshÃ¨ĠzhÃ¬Ġ":4565,"tÃ¨ĠzhÄĵngĠ":4566,"cÄģnĠsÃłiĠ":4567,"ĠsÄ«ĠjÄ«Ġ":4568,"ĠjiÃłĠ":4569,"ĠwÅ«Ġ":4570,"rÃºĠxiÃłĠ":4571,"zhÄĵnĠduÃ¬Ġ":4572,"zhÃ¨ĠgeĠ":4573,"jiÃ¹ĠshÃ¬ĠzhÃ¨nĠ":4574,"ĠshÃ¬ĠfÇĴu":4575,"ĠshÃŃĠjiÄģn":4576,"gÄģoĠzhÅįngĠ":4577,"ĠcÇĲĠhÃ²uĠ":4578,"bÃłngĠ":4579,"bÃ¬ĠxÅ«Ġ":4580,"ĠzÃłiĠzhÅįngĠ":4581,"wÃ¡ngĠguÃ³Ġ":4582,"bÇĲĠjiÃłoĠ":4583,"Ġ00":4584,"Ã¨rĠshÃ¬Ġ":4585,"wÃłiĠjiÄģo":4586,"guÄ«ĠhuÃłĠ":4587,"diÄģoĠ":4588,"ĠyÃ¬ĠzhÃ¬Ġ":4589,"lÃ¨iĠsÃ¬Ġ":4590,"shÄģnĠdÅįngĠ":4591,"ĠrÃ¡nĠhÃ²uĠ":4592,"ĠyÇĶ":4593,"ĠyÃ¬ĠzhÃŃ":4594,"ĠlÃ¬ĠshÇĶĠyÃºĠ":4595,"yuÃ¡nĠshÃ¬Ġ":4596,"duÃ¬ĠzÃłiĠ":4597,"zhÃ¹ĠmÃŃngĠ":4598,"yÃºnĠnÃ¡nĠ":4599,"hÄĽnĠduÅįĠ":4600,"ĠÄĽrĠdeĠ":4601,"huÃ²ĠdÃ©":4602,"shÄĵngĠchÇİnĠ":4603,"ĠdÄĽng":4604,"ĠĠĠgÅįngĠ":4605,"zhÃłnĠyÃ¬Ġ":4606,"ĠsuÄ«ĠrÃ¡nĠ":4607,"ĠchÄĵĠ":4608,"ĠbÄĽi":4609,"diÃłnĠziĠ":4610,"ĠbiÇİoĠshÃ¬Ġ":4611,"zhÃ²ngĠdeĠ":4612,"ĠshÄģngĠ":4613,"ĠjiÃłnĠzhÃ¬Ġ":4614,"ĠĠĠdÃłĠ":4615,"xÄ«nĠjiÄģĠ":4616,"lÃ¡iĠzÃ¬":4617,"ĠtÃºĠ":4618,"zhÃ¬ĠzuÃ²Ġ":4619,"shÄģnĠxÄ«Ġ":4620,"rÃ©nĠkÇĴuĠshÃ¹ĠliÃłngĠwÃ¨iĠrÃ©nĠ":4621,"jÃ¹ĠjÃŃĠ":4622,"ĠdeĠyÄ«ĠzhÇĴngĠ":4623,"ĠgÇĶ":4624,"ĠdeĠmÃŃngĠ":4625,"ĠzÇĶ":4626,"jÃŃĠhÃ©Ġ":4627,"ĠxÄ«ĠyÃł":4628,"lÇļĠyÃ³uĠ":4629,"ĠzhÃ¬ĠzÃłoĠ":4630,"ĠxÃŃngĠwÃ©iĠ":4631,"mÇİĠlÃ¡i":4632,"ĠrÃ¨n":4633,"bÃłoĠfÄģĠ":4634,"nÇļĠÃ©rĠ":4635,"ĠINSEE":4636,"tÃłoĠ":4637,"zÇĴngĠlÇĲĠ":4638,"quÃ¡nĠqiÃºĠ":4639,"sÄ«ĠhÃ©Ġ":4640,"ĠdeĠzhÇĶĠ":4641,"ĠshÃłngĠhÇİiĠ":4642,"sÃłiĠzhÅįngĠ":4643,"fÄģĠshÃ¨Ġ":4644,"ruÃ¬ĠshÃ¬Ġ":4645,"ĠduÃ¬ĠyÃºĠ":4646,"bÄģoĠhÃ¡n":4647,"nÃ³ngĠyÃ¨Ġ":4648,"yÃ¨ĠwÃ¹Ġ":4649,"tÃ³uĠzÄ«Ġ":4650,"lÃ¹ĠjÅ«nĠ":4651,"wÃ¹ĠzhÃ¬Ġ":4652,"juÃ©ĠdeĠ":4653,"nÃłiĠ":4654,"tÃ¨ĠbiÃ©Ġ":4655,"ĠjÃ¬nĠshÃ¬Ġ":4656,"ĠdeĠshÃŃĠhÃ²uĠ":4657,"ÃłoĠlÃŃnĠpÇĲĠkÃ¨ĠyÃ¹nĠdÃ²ngĠhuÃ¬Ġ":4658,"gÃ©ĠdeĠ":4659,"ĠzhÃ¬ĠjÄ«nĠ":4660,"fÄģngĠÃłnĠ":4661,"sÄ«ĠrÃ©nĠ":4662,"huÃłĠxuÃ©Ġ":4663,"ĠtÃ¨ĠbiÃ©":4664,"ĠdÃłĠliÃłngĠ":4665,"jÃŃĠshÃ¬Ġ":4666,"mÇĲnĠ":4667,"kÄĽĠnÃ©ngĠshÃ¬Ġ":4668,"ĠnÃŃĠ":4669,"TĠ":4670,"chÃłĠ":4671,"ĠniÃ¡nĠdÃ¹Ġ":4672,"liÃ¡nĠjiÄĵĠ":4673,"jÃ¬nĠdeĠ":4674,"ĠzhÄ«ĠwÃłiĠ":4675,"sÃ¬ĠshÃŃĠ":4676,"cÃ¡oĠ":4677,"fÄģĠdÃ²ngĠ":4678,"ĠV":4679,"qiÇİnĠ":4680,"ĠĠĠO":4681,"ĠĠĠR":4682,"xuÇİnĠwÃ¨iĠ":4683,"ĠshÃ¨ĠshÄ«Ġ":4684,"chÃ¹ĠdeĠ":4685,"tÇĶĠÄĽr":4686,"ĠlÃ¬ĠsÄ«Ġ":4687,"bÃ³ĠtÃ¨Ġ":4688,"ĠzÇĴngĠmiÃłnĠjÄ«Ġ":4689,"luÃ³ĠmÇİ":4690,"chuÃłngĠlÃ¬Ġ":4691,"ĠdeĠlÃ¬Ġ":4692,"ĠgÃ¨ngĠ":4693,"ĠniÃ¡nĠhÃ²uĠ":4694,"ĠdÃ©ĠlÇĲĠ":4695,"guÇİngĠchÇİngĠ":4696,"liÃ¡nĠhÃ©ĠguÃ³Ġ":4697,"jÃŃĠshÃŃĠ":4698,"gÄĵngĠmÃŃngĠwÃ¨iĠ":4699,"zÇİoĠniÃ¡nĠ":4700,"Ġ11":4701,"xiÃłoĠlÃ¬Ġ":4702,"qÃ¬ĠdeĠ":4703,"biÇİoĠyÇİnĠ":4704,"ĠzhÃ¨ngĠshÃ¬Ġ":4705,"yÃŃĠshÃ¬Ġ":4706,"ĠjÅ«nĠzÃłiĠ":4707,"fÄģngĠmiÃłn":4708,"juÃ©ĠdÃ¬ng":4709,"ĠgÄģiĠshÄĽngĠ":4710,"ĠzhÄĵnĠ":4711,"rÃ©ngĠrÃ¡nĠ":4712,"dÄģĠ":4713,"zhÃ¬ĠshÃ¬Ġ":4714,"ĠgÅįngĠnÃ©ngĠ":4715,"zÇĴngĠtÇĴng":4716,"ĠrÃ©nĠkÇĴuĠmÃ¬ĠdÃ¹ĠmÄĽiĠpÃŃngĠfÄģngĠgÅįngĠlÇĲĠ":4717,"ĠrÃ©nĠkÇĴuĠmÃ¬ĠdÃ¹ĠwÃ¨iĠmÄĽi":4718,"ĠxiÃłĠlÃ¬ngĠshÃŃĠ":4719,"yÃ³uĠzhÃ¨ngĠbiÄģnĠmÇİĠwÃ¨iĠ":4720,"oĠ":4721,"chÃ¡ĠdeĠshÃ¹ĠjÃ¹Ġ":4722,"ĠjÃ¹ĠlÃ¨ĠbÃ¹Ġ":4723,"ĠshÃ¬ĠzhÃ¨nĠbiÄģnĠmÇİĠwÃ¨iĠ":4724,"ĠINSEEĠshÃ¬ĠzhÃ¨nĠbiÄģnĠmÇİĠwÃ¨iĠ":4725,"ĠxiÄģnĠ":4726,"ĠĠĠbÃ¨iĠ":4727,"biÄģoĠzhÇĶn":4728,"ĠhÃ¡nĠ":4729,"ĠshÃ¨ĠdeĠ":4730,"xuÇİnĠqÅ«ĠwÃ¨iĠ":4731,"ĠzÃłiĠcÇĲĠ":4732,"ĠbÃ¹ĠguÃ²":4733,"pÃ¡iĠmÃŃngĠ":4734,"ĠguÃ³ĠwÃ¡ngĠ":4735,"dÃ²ngĠlÃ¬Ġ":4736,"shÃŃĠdeĠrÃ©nĠkÇĴuĠshÃ¹ĠliÃłngĠwÃ¨iĠrÃ©nĠ":4737,"ĠfÄĵnĠzhÅįngĠ":4738,"2023ĠniÃ¡nĠ":4739,"jiÄĵĠrÇİngĠdeĠshÃ¬ĠzhÃ¨nĠ":4740,"mÄĽiĠguÃ³ĠrÃ©nĠkÇĴuĠpÇĶĠchÃ¡ĠdeĠshÃ¹ĠjÃ¹Ġ":4741,"cÃ³ngĠshÃ¬Ġ":4742,"erĠ":4743,"jiÄģĠlÃ¬Ġ":4744,"ĠÃ©rĠrÃ©nĠkÇĴuĠmÃ¬ĠdÃ¹ĠwÃ¨iĠmÄĽi":4745,"gÃ©ĠlÃ¡n":4746,"ĠdÄģngĠdÃ¬ĠgÃ²ngĠyÇĴuĠrÃ©nĠkÇĴuĠ":4747,"jiÄĽĠjuÃ©Ġ":4748,"ĠxiÃłng":4749,"fÄĵnĠlÃ¨iĠ":4750,"zÃºĠdeĠ":4751,"liÃ¡nĠbÄģng":4752,"3ĠniÃ¡nĠ":4753,"shÇĲĠyÃ²ngĠdeĠ":4754,"ĠxiÄģoĠ":4755,"dÃłĠbÃ¹ĠfÃ¨n":4756,"yÄ«ĠzhÇĴngĠ":4757,"lÇĲngĠyÃ¹Ġ":4758,"ĠhuÃ²ĠjiÃ¹ĠshÃ¬ĠzhÃ¨nĠ":4759,"hÃ©ĠshÃ¬Ġ":4760,"ĠĠĠlÃ¬Ġ":4761,"ĠchÅ«ĠbÇİnĠ":4762,"gÅįuĠ":4763,"yÃ¹nĠyÃŃngĠ":4764,"shÄĽngĠjÃŃĠxuÇİnĠqÅ«ĠwÃ¨iĠ":4765,"jÄ«ĠjÃŃĠ":4766,"ĠdeĠyÄ«ĠbÃ¹ĠfÃ¨nĠ":4767,"CĠ":4768,"SĠ":4769,"ĠjiÇİngĠ":4770,"shÃŃĠshÃ¬Ġ":4771,"Ã©rĠziĠ":4772,"jiÇĶĠniÃ¡nĠ":4773,"zuÃ²ĠpÇĲn":4774,"xuÇİnĠrÃ©nĠ":4775,"gÃłiĠniÃłnĠ":4776,"xÄ«ngĠdeĠ":4777,"ĠÄĽrĠdÃ©Ġ":4778,"shÄĽngĠhÃ©Ġ":4779,"jiÄĵĠshÃ²u":4780,"tiÃ¡oĠyuÄĵĠ":4781,"ĠjÇĲnĠguÇİnĠ":4782,"fÃ¨nĠwÃ¨iĠfÇİĠguÃ³Ġ":4783,"ĠgÄģiĠshÄĽngĠfÃ¨nĠwÃ¨iĠfÇİĠguÃ³Ġ":4784,"ĠchÅ«ĠbÇİn":4785,"ĠzhÄ«ĠxiÃłnĠ":4786,"tiÄĽĠdÃłoĠ":4787,"ĠqÄ«ng":4788,"ĠdÃ¬ĠsÄģn":4789,"ĠsÃ²ngĠ":4790,"ĠjÅ«nĠduÃ¬Ġ":4791,"guÇİngĠzhÅįuĠ":4792,"ĠbÃ¹ĠjiÇĶĠ":4793,"ÃłoĠdÃłĠlÃ¬Ġ":4794,"ĠwÃ¨iĠshÃŃĠ":4795,"ĠxÄ«ĠlÃł":4796,"ĠkÄģiĠshÇĲĠ":4797,"fÃºĠjiÃłnĠ":4798,"ĠhÃ©ĠbÃ¬ng":4799,"EĠ":4800,"zhÃłnĠzhÄĵng":4801,"ĠyÇĴuĠrÃ©nĠ":4802,"pÃ¡iĠmÃŃng":4803,"ĠduÃ¬":4804,"zhÃłnĠshÃ¬Ġ":4805,"jÇĲnĠbiÄģoĠsÃłiĠ":4806,"ĠJ":4807,"ĠniÃ¡nĠchÅ«Ġ":4808,"zuÃ¬ĠhÃ²uĠyÄ«Ġ":4809,"jÇĲngĠchÃ¡Ġ":4810,"qÃºnĠdÇİoĠ":4811,"lÃ¡iĠyuÃ¡nĠ":4812,"iĠ":4813,"tÃ¨ĠbiÃ©":4814,"eĠĠĠ":4815,"ĠtÄģĠbÃ¨iĠ":4816,"ĠÃ©rĠqiÄĽĠ":4817,"xÄ«ngĠjiÃłnĠ":4818,"ĠwÃłnĠrÃ©nĠ":4819,"rÃ©ngĠrÃ¡n":4820,"bÄģĠniÃ¡nĠ":4821,"ĠchÅ«ĠshÄĵngĠyÃºĠ":4822,"shÃ¨ĠlÃ¬Ġ":4823,"yĠĠĠ":4824,"FĠ":4825,"4ĠniÃ¡nĠ":4826,"ĠruÃ²Ġ":4827,"dÃ¬ĠyÄ«Ġ":4828,"ĠrÃ¬ĠdeĠ":4829,"lÃºnĠdÅ«n":4830,"bÄĽnĠdeĠ":4831,"wÄĽiĠhuÃ¬Ġ":4832,"XĠ":4833,"ĠyÃ¬ĠwÃ¨iĠ":4834,"ĠyÃ³uĠxÃ¬":4835,"ĠrÃ©nĠgÅįngĠ":4836,"xuÃ©ĠxiÃło":4837,"shÇİnĠxÄ«Ġ":4838,"tÅįngĠchÃ¡ng":4839,"ĠzhÃ¬ĠyÃºĠ":4840,"ĠgÃ¨ng":4841,"liÃ¨ĠwÃ¨iĠ":4842,"ĠbÃ¹ĠmÃŃngĠ":4843,"cÃ©ngĠzÃłiĠ":4844,"mÇĶĠsÄ«Ġ":4845,"ĠmÃŃngĠchÃ¡oĠ":4846,"tiÄģnĠwÃ©nĠ":4847,"yÃ¹nĠxÃŃngĠ":4848,"ĠÃ©Ġ":4849,"cÇİiĠyÃ²ng":4850,"ĠdÃ¬ĠsÃ¬Ġ":4851,"Ã¡ngĠ":4852,"rÃ²uĠ":4853,"yÃ¡nĠjiÅ«ĠsuÇĴĠ":4854,"guÇİngĠfÃłnĠ":4855,"ĠĠĠ18":4856,"ÃłoĠsÄ«Ġ":4857,"ĠxiÃłnĠlÃ¹Ġ":4858,"mÄĽiĠzhÅįuĠ":4859,"mÃ©ngĠgÇĶĠ":4860,"ĠshÃ¬ĠbÃ¹Ġ":4861,"gÇİnĠrÇİnĠ":4862,"yÇĲĠjÃŃĠ":4863,"ĠhÃ©ĠpÃŃngĠ":4864,"huÃłĠshÃŃĠ":4865,"jiÄģĠrÃ¹Ġ":4866,"ĠfÃłnĠ":4867,"zhÃłnĠhÃ²uĠ":4868,"ĠĠĠtÄģ":4869,"ĠjiÄģoĠ":4870,"nÃ¡nĠjÃŃĠ":4871,"shuÅįĠfÇİĠ":4872,"xÄ«ĠzÃłiĠ":4873,"ĠjÃ¬nĠdeĠ":4874,"ĠrÃ¨nĠwÃ©i":4875,"kĠ":4876,"ĠjÄ«ĠbÄĽnĠ":4877,"ĠjÃ¹ĠlÃŃĠ":4878,"ĠfÃ¨iĠ":4879,"ĠdÃŃĠ":4880,"PĠ":4881,"mÃ³ĠxÃŃngĠ":4882,"guÃ²ĠchÃ©ngĠzhÅįngĠ":4883,"ĠdeĠdÃ¬ĠfÄģngĠ":4884,"wÃºĠrÃ©nĠ":4885,"ĠdeĠxÄ«nĠ":4886,"jÃ¬ĠshÃ¹Ġ":4887,"ĠrÃłng":4888,"ĠjiÃłnĠyÃ¬Ġ":4889,"ĠdÃ¡Ġ":4890,"ĠtÄģĠyÇĶĠ":4891,"yÃ¹nĠshÅ«Ġ":4892,"gÃ²uĠmÇİi":4893,"wÃ¡nĠquÃ¡n":4894,"wÇĶĠshÃŃĠ":4895,"ĠkÃ¨ĠdeĠ":4896,"rÃ¨nĠwÃ©iĠshÃ¬Ġ":4897,"ĠzÃłiĠyÃ¬Ġ":4898,"ĠgÃ¨ĠdÃ¬Ġ":4899,"2ĠniÃ¡nĠ":4900,"ĠchÃ©n":4901,"bÃłnĠgÅįngĠshÃ¬Ġ":4902,"ĠcÄģnĠ":4903,"Ġ10ĠyuÃ¨Ġ":4904,"tÃ³ngĠyÄ«Ġ":4905,"duÅįĠgÃ¨Ġ":4906,"wÃłiĠguÃ³Ġ":4907,"ĠzÇĴngĠrÃ©nĠkÇĴuĠ":4908,"ĠĠĠofĠĠĠ":4909,"xuÃ©ĠshÃ¬Ġ":4910,"shÃłngĠyÇĴuĠ":4911,"ĠshÃ²u":4912,"yuÃ¡nĠwÃ¨iĠ":4913,"ĠshÇĲĠyÃ²ngĠ":4914,"jiÃłĠzhÃŃĠ":4915,"gÅįngĠzuÃ²Ġ":4916,"ĠzÃ¬ĠjÇĲĠ":4917,"nÃŃĠsÄ«Ġ":4918,"ĠzÃłiĠzhÅįngĠguÃ³Ġ":4919,"xuÃ©ĠxÃŃĠ":4920,"zhÇİoĠ":4921,"fÄĵiĠxÃŃngĠ":4922,"yÇİngĠhuÃłĠ":4923,"quÄģnĠ":4924,"ĠÄģi":4925,"xuÄģnĠchuÃ¡nĠ":4926,"mÃ²ĠxÄ«Ġ":4927,"ĠyÄ«ĠxiÄĵ":4928,"xuÇİnĠzÃ©":4929,"chÄĵngĠwÃ¨iĠ":4930,"xiÄģoĠxÄ«Ġ":4931,"ĠxiÃłnĠrÃ©nĠ":4932,"ĠdeĠguÄģnĠ":4933,"ĠxÄ«ngĠ":4934,"hÇİiĠjÅ«n":4935,"biÄģoĠzhÃ¬Ġ":4936,"ĠbÃ¹ĠmÃ©nĠ":4937,"zhÃ¬ĠwÃ¨iĠ":4938,"qÇĲĠlÃ¡iĠ":4939,"ĠĠĠV":4940,"yÃ³uĠxÃ¬":4941,"mÃ¡Ġ":4942,"huÃ¡nĠjÃ¬ng":4943,"fÃ¹ĠzÃ©ĠguÇİnĠxiÃ¡Ġ":4944,"xÃ¬ĠbÄģoĠ":4945,"19Ġ":4946,"ĠwÃ©iĠzhÇĶĠ":4947,"jiÃ¨ĠquÃ¡nĠguÃ³Ġ":4948,"gÃ²uĠchÃ©ngĠ":4949,"shÄ«ĠdeĠ":4950,"chÄĵĠliÃłngĠ":4951,"ĠĠĠyÇĲĠ":4952,"zhÃ©ĠxuÃ©Ġ":4953,"kÄĵngĠ":4954,"ĠjÃ¬ĠhuÃł":4955,"ĠÃłnĠ":4956,"sÄ«ĠzÃłiĠ":4957,"ĠkÄĵ":4958,"zhÃ¨ngĠdeĠ":4959,"ĠlÃŃn":4960,"ÄģnĠquÃ¡n":4961,"dÇİngĠdeĠ":4962,"bÇĲĠdÃ©Ġ":4963,"ĠdÃłoĠlÃ¹Ġ":4964,"chÃ¡oĠxiÄģnĠ":4965,"ĠÃ©rĠqiÄĽ":4966,"ĠdÇİĠ":4967,"yÃŃnĠhÃ¡ng":4968,"onĠ":4969,"ĠyÄ«ngĠchÇĲĠ":4970,"xÄ«ĠdeĠ":4971,"ĠshÃ¬ĠmÄĽiĠguÃ³Ġ":4972,"ĠshÃ¬ĠtÃºĠ":4973,"ĠhuÄģĠ":4974,"zhÅįngĠzÃłiĠ":4975,"ĠjÃ¬ĠniÃłnĠ":4976,"zhÇĶĠjuÃ©Ġ":4977,"ĠÃ¨r":4978,"xĠ":4979,"ÃłnĠdeĠ":4980,"sÃ¬ĠchuÄģnĠ":4981,"bÃ¹ĠwÃ¨iĠ":4982,"ĠjÃŃĠqÃŃĠ":4983,"pÃ©ngĠyÇĴuĠ":4984,"1999ĠniÃ¡nĠ":4985,"chÃŃĠxÃ¹":4986,"24Ġ":4987,"ÃłiĠÄĽrĠ":4988,"gĠ":4989,"ĠĠĠyÇĴuĠ":4990,"ĠgÅįngĠgÃ²ngĠ":4991,"ĠzhÄ«ĠchÃŃ":4992,"kÃłngĠyÃ¬Ġ":4993,"yuÄĵĠwÃ¨iĠ":4994,"tÃłiĠguÃ³Ġ":4995,"ĠdÅįuĠ":4996,"ĠfÇİnĠ":4997,"jiÄĵĠwÃ¨iĠ":4998,"xuÇİnĠqÅ«Ġ":4999,"ĠĠĠhÃ©Ġ":5000,"shÃŃĠzÃłiĠ":5001,"yÃ¬ĠhÃ©Ġ":5002,"huÃ¬ĠyÇĴuĠ":5003,"shÄĵngĠwÃ¹Ġ":5004,"xiÃłoĠzhÇİngĠ":5005,"wÃ©nĠjiÃłnĠ":5006,"ĠtÃ¡iĠwÄģn":5007,"ĠbÃ¨iĠÄĽrĠ":5008,"gÄĵĠqÇĶ":5009,"shÅįuĠrÃ¹Ġ":5010,"ĠjiÃ©ĠzhÃ¬Ġ":5011,"biÄģoĠwÃ¨iĠ":5012,"fÃ³ĠjiÃłoĠ":5013,"rÃ³ngĠyÃ¬Ġ":5014,"ĠjiÃ¨":5015,"ĠĠĠshÃŃĠ":5016,"ÃłoĠyÃ¹n":5017,"ĠĠĠchÄĵĠzhÃłnĠ":5018,"ĠshÄĵngĠwÃ¹Ġ":5019,"suÇĴĠshÇĶĠdeĠshÄĽngĠjÃŃĠxuÇİnĠqÅ«ĠwÃ¨iĠ":5020,"yÇİnĠdeĠ":5021,"biÄģnĠjÃŃĠ":5022,"ĠyuÃ¡nĠzhÃ¹Ġ":5023,"ĠzhÃłnĠzhÄĵng":5024,"sÄ«ĠdÃ¬Ġ":5025,"yÄĽĠyÇĴuĠ":5026,"qiÃłnĠ":5027,"qiÃ¡nĠwÇİng":5028,"ĠqiÃ¡ngĠ":5029,"yÇĶĠyÃ¡nĠ":5030,"zhÃ¨ngĠcÃ¨Ġ":5031,"ĠruÃ²":5032,"jÃ¬ĠzhÅįngĠ":5033,"mÇĲĠÄĽrĠ":5034,"jÅ«nĠduÃ¬Ġ":5035,"jiÄĽĠfÃłngĠjÅ«nĠ":5036,"tiÇİoĠzhÃłnĠ":5037,"ĠchÅ«ĠleĠ":5038,"ĠyÃ²uĠchÄĵngĠ":5039,"ÃłoĠyÃ¹nĠ":5040,"ĠzhÃ¬ĠdÃ¹Ġ":5041,"ĠchÇİngĠ":5042,"gÄģoĠyÃºĠ":5043,"ĠshÃ¬ĠyÃŃĠgÃ¨":5044,"ĠhuÃ²ĠshÃ¬Ġ":5045,"mÃłnĠhuÃłĠ":5046,"gÇİnĠdÃłoĠ":5047,"nÃ¡nĠxÃ¬ngĠ":5048,"7ĠniÃ¡nĠ":5049,"kÅ«nĠ":5050,"ĠyÇĲĠshÃłngĠ":5051,"gÇİiĠbiÃłnĠ":5052,"mÇİĠlÃ¬Ġ":5053,"ĠĠĠ2021":5054,"ĠdÃ¬ĠxiÃłĠ":5055,"fÃ³Ġ":5056,"jiÄĵĠrÇİngĠ":5057,"pÃ¨iĠhÃ©Ġ":5058,"tÃ³uĠrÃ¹Ġ":5059,"ĠyÃ¹":5060,"mÄĽiĠyuÃ¡nĠ":5061,"zhÇĲĠhuÄ«":5062,"jiÄģĠrÃ©nĠ":5063,"wÄĽnĠdÃ¬ngĠ":5064,"1998ĠniÃ¡nĠ":5065,"zhÄģĠ":5066,"ĠzhÅįngĠyÇĴuĠ":5067,"ĠzÃłiĠbÃ¹Ġ":5068,"ĠquÃ¨":5069,"tÃŃĠmÃŃngĠ":5070,"dÃ¡ĠchÃ©ngĠ":5071,"ĠyÄ«ĠzhÇĴngĠ":5072,"ĠyÇİnĠ":5073,"rÇĶĠ":5074,"nÃ¨Ġ":5075,"mÃ²ĠsÄ«Ġ":5076,"fÄĵnĠzhÄ«Ġ":5077,"zÃłiĠshÃ¬Ġ":5078,"tÃ³ngĠdeĠ":5079,"jiÇİnĠjiÃ¨Ġ":5080,"ĠtÅįngĠguÃ²Ġ":5081,"shÄĵnĠfÃ¨n":5082,"tiÄģnĠzhÇĶĠjiÃłoĠ":5083,"ĠzhÅįngĠguÃ³ĠrÃ©nĠmÃŃnĠ":5084,"ĠzÃ¬":5085,"biÇİoĠmÃŃngĠ":5086,"duÃ³ĠdeĠ":5087,"tÃŃngĠzhÇĲĠ":5088,"ĠhÃ¡iĠyÇĴuĠ":5089,"ĠÃ©rĠrÃ©nĠkÇĴuĠmÃ¬ĠdÃ¹ĠwÃ¨iĠmÄĽiĠpÃŃngĠfÄģngĠqiÄģnĠmÇĲĠ":5090,"xiÇİoĠdeĠ":5091,"ĠtÃŃĠ":5092,"zhÃ¨ngĠshÃŃĠ":5093,"cÃ¨ĠdeĠ":5094,"zÃłoĠdeĠ":5095,"ĠwÃ¨iĠfÃº":5096,"ĠpÃŃng":5097,"juÄģnĠ":5098,"quÃ¨ĠzhÄĽn":5099,"2024ĠniÃ¡nĠ":5100,"ĠjÄ«ĠbÃłiĠ":5101,"ĠĠĠ2020":5102,"bÃłnĠdÇİoĠ":5103,"ĠĠĠyuÃ¡nĠ":5104,"guÃ³ĠzÃłiĠ":5105,"wÇĶĠqÃ¬Ġ":5106,"ĠjiÄģĠnÃ¡ĠdÃłĠ":5107,"ĠpÃŃngĠfÄģngĠmÇĲĠ":5108,"zÃ¬ĠzhÃ¬ĠqÅ«Ġ":5109,"ĠlÃŃĠ":5110,"Ġ8ĠyuÃ¨Ġ":5111,"lÄģĠkÃ¨Ġ":5112,"lÃ¨iĠdeĠ":5113,"tÄģĠmenĠ":5114,"ĠpÃŃĠ":5115,"hÃ¹nĠhÃ©Ġ":5116,"ĠzÃ¬ĠyÃ³uĠ":5117,"ĠĠĠzÃ¬Ġ":5118,"ĠzÃłiĠmÄĽiĠguÃ³Ġ":5119,"ĠshÃŃĠyÃłn":5120,"zuÃ¬ĠzÇİo":5121,"jÇĶĠrÃ©nĠ":5122,"tuÃ¡nĠduÃ¬Ġ":5123,"dÃ¬ĠshÃ¬Ġ":5124,"ĠbÅį":5125,"kÄĽĠnÃ©ngĠhuÃ¬Ġ":5126,"yÄģĠlÃ¬Ġ":5127,"quÃ¡nĠbÃ¹Ġ":5128,"cĠ":5129,"ĠsÅ«":5130,"jÃ¬ĠwÃ¨iĠ":5131,"ĠÃ©rĠbÃ¨iĠ":5132,"pĠ":5133,"ĠzhuÄģnĠ":5134,"ĠjÃ¬ĠchÃ©ngĠ":5135,"gÃ²ngĠxiÃłnĠ":5136,"jÃ¬ĠhuÃłĠ":5137,"xÄ«ĠbÄģnĠyÃ¡Ġ":5138,"ĠĠĠin":5139,"ĠshÃŃĠshÄ«Ġ":5140,"jiÃ©ĠmÃ¹":5141,"ĠjiÃ©ĠguÇĴĠ":5142,"ĠdÃ¬ĠtiÄĽĠ":5143,"ĠThe":5144,"shÄĵngĠchÇİn":5145,"lÃ¡iĠshuÅįĠ":5146,"lÃ¬ĠbÃ¹Ġ":5147,"zhÃ¨ĠzhÇĴngĠ":5148,"chÇİnĠyÃ¨Ġ":5149,"ĠwÃ¡ng":5150,"xÃŃngĠdÃ²ngĠ":5151,"fÄģnĠyÃ¬Ġ":5152,"ĠqÄ«ĠjiÄģnĠ":5153,"ĠchÅ«ĠrÃ¨nĠ":5154,"shÇİoĠshÃ¹Ġ":5155,"ĠbÃ¨i":5156,"cÄģoĠzuÃ²Ġ":5157,"jiÇİnĠchÃ¡Ġ":5158,"bÃłnĠshÃ¬Ġ":5159,"jiÄģĠnÃ¡ĠdÃłĠ":5160,"yÇĲngĠpiÃłnĠ":5161,"chÅįngĠtÅ«Ġ":5162,"ĠzÃłiĠdÃłĠ":5163,"ĠtÄģĠyÃºĠ":5164,"bÇİoĠhÃ¹":5165,"ÃłnĠjiÃłnĠ":5166,"jÃ¬ĠniÃłnĠ":5167,"DĠ":5168,"chÃ³ngĠjiÃłnĠ":5169,"shÇĴuĠdeĠ":5170,"ampĠ":5171,"rĠ":5172,"cÃ©ngĠjÄ«ngĠ":5173,"ĠjiÃłnĠzhÃ¹":5174,"ĠmÃ¹":5175,"ĠshÃŃĠfÄĵnĠ":5176,"ĠshÃ¬ĠyÇĲĠ":5177,"ĠhÃ¡i":5178,"xÃŃngĠwÃ©iĠ":5179,"xÄ«nĠlÇĲĠ":5180,"gÃ²ngĠtÃ³ng":5181,"dÃ²ngĠdeĠ":5182,"kÅįngĠjÅ«nĠ":5183,"nÃłnĠ":5184,"ĠshÇĲĠdeĠ":5185,"bÃłnĠgÅįngĠ":5186,"ĠzhÇĲĠyÇĴuĠ":5187,"ĠmÃ©nĠ":5188,"ĠxiÃłnĠwÃ¨iĠ":5189,"qÄ«ĠjiÄģn":5190,"dÃłĠbÃ¹ĠfÃ¨nĠ":5191,"ĠzhÃ¬ĠzuÃ²":5192,"jiÃ©ĠgÃ²u":5193,"fÄĵnĠbiÃ©Ġ":5194,"yÄģngĠ":5195,"liÃ¡nĠsÃłi":5196,"juÃ©ĠsÃ¨":5197,"ĠyÃ¬ĠyÇĴuĠ":5198,"tĠĠĠ":5199,"ĠÄģn":5200,"ĠhÃ¹Ġ":5201,"ĠlÃ¬ĠrÃº":5202,"liÃ¡nĠxÃ¹Ġ":5203,"jÃŃĠzÃłiĠ":5204,"shÄĵnĠdeĠ":5205,"ĠhÃ©ĠbÄĽiĠ":5206,"ĠwÃ¨iĠnÃ©ngĠ":5207,"xiÄģngĠduÃ¬Ġ":5208,"mÃ©iĠtÇĲ":5209,"zhÇĶĠtÃŃĠ":5210,"ĠchuÃ¡nĠ":5211,"jiÇİnĠshÇİoĠ":5212,"ĠhÃ©ĠliÃºĠ":5213,"gÅįngĠyuÃ¡nĠ":5214,"xiÇİoĠzÇĶĠ":5215,"tÃ²uĠ":5216,"ĠbiÄģnĠ":5217,"ĠyÃ²uĠmÃŃngĠ":5218,"tÃ²ngĠ":5219,"ĠyÇĲĠsÃ¨Ġ":5220,"fÃ¨nĠzÇĲĠ":5221,"xiÃłnĠdÃłiĠ":5222,"ĠshÃ¬ĠyÄ«ĠmÃŃngĠ":5223,"ĠtÇĲĠzhÇİngĠ":5224,"ĠĠĠ2019":5225,"ĠxÄ«ĠwÃłngĠ":5226,"yÃ¬ngĠdeĠ":5227,"wÄĽiĠyuÃ¡nĠhuÃ¬":5228,"mÃ¬ngĠmÃŃngĠwÃ¨iĠ":5229,"ÅįuĠyuÃ¡nĠ":5230,"ĠgÅįngĠsÄ«ĠdeĠ":5231,"ĠliÇİngĠrÃ©nĠ":5232,"yÃ¬ĠzÃłiĠ":5233,"dÃ²ngĠjÄ«Ġ":5234,"dÇİĠjÄ«Ġ":5235,"ĠdeĠdÃ¬ĠqÅ«Ġ":5236,"zhÇİnĠshÃ¬Ġ":5237,"anĠĠĠ":5238,"zhÃ¨Ġge":5239,"zhuÃ³Ġ":5240,"ĠzhÃŃĠzhÃ¬Ġ":5241,"ĠshÃ¨ĠqÅ«Ġ":5242,"ĠjÃ¬ĠxÃ¹":5243,"guÄ«ĠmÃ³":5244,"shÇĴuĠwÃ¨iĠ":5245,"xÃºnĠhuÃŃĠ":5246,"MĠ":5247,"ĠsÄ«ĠlÃ¬ng":5248,"shÃ¹ĠliÃłngĠ":5249,"xiÃłĠwÇĶĠ":5250,"1996ĠniÃ¡nĠ":5251,"lÃ¹ĠdÃ¬ĠmiÃłnĠjÄ«ĠwÃ¨iĠ":5252,"yÃ²ngĠlÃ¡iĠ":5253,"shuÇĲĠyÃ¹ĠmiÃłnĠjÄ«ĠwÃ¨iĠ":5254,"ĠlÃ¬ĠjÃŃĠ":5255,"qÇĲĠyÃ²ngĠ":5256,"lÃ¨iĠxÃŃngĠ":5257,"rÃ¨nĠwÃ¹Ġ":5258,"ĠguÃ³ĠlÃ¬Ġ":5259,"ĠshÃŃĠzÃ¬Ġ":5260,"ĠyÄ«ĠcÃ¬Ġ":5261,"duÅįĠcÃ¬Ġ":5262,"pÃŃngĠjiÃłĠ":5263,"bÃ¹ĠshÃ¬Ġ":5264,"ĠzhÃ¨nĠ":5265,"ĠlÃŃngĠ":5266,"Ġ2009ĠniÃ¡nĠ":5267,"ĠdeĠshÇĴuĠ":5268,"ĠfÃ¹ĠjÃ¬nĠ":5269,"jÇĶĠxÃŃngĠdeĠ":5270,"ĠĠĠ2018":5271,"fÃºĠhÃ©Ġ":5272,"wÃłiĠjiÄģoĠ":5273,"tÇĲĠxÃ¬Ġ":5274,"ĠĠĠand":5275,"ĠzhÃ¨ĠjiÄģngĠ":5276,"1997ĠniÃ¡nĠ":5277,"ĠdÃłĠshÇĲĠ":5278,"zuÃ²ĠjiÄģĠ":5279,"ĠshÃ¨ĠbÃ¨iĠ":5280,"IĠ":5281,"liÇİngĠgÃ¨":5282,"ĠlÃ¬ĠfÇİĠ":5283,"ĠliÃ¨Ġ":5284,"zhÃ¹ĠyÃ¬Ġ":5285,"ĠampĠ":5286,"diÃłnĠlÃ¬Ġ":5287,"dÃ©ĠdÃłoĠ":5288,"kÃłoĠ":5289,"kuÃŃĠ":5290,"ĠsÄ«ĠlÃ¬ngĠ":5291,"ĠcÃ³ngĠÃ©rĠ":5292,"anĠ":5293,"ĠbiÃłn":5294,"fÇİĠlÇľ":5295,"jiÃłoĠtÃ¡ngĠ":5296,"ĠdÄģngĠzhÅįngĠlÃ¹ĠdÃ¬ĠmiÃłnĠjÄ«ĠwÃ¨iĠ":5297,"zhÃ¬ĠhÃ©Ġ":5298,"zhÃŃĠdeĠ":5299,"ĠÃ©rĠshuÇĲĠyÃ¹ĠmiÃłnĠjÄ«ĠwÃ¨iĠ":5300,"qÇĶĠxiÄģoĠ":5301,"jiÃ©ĠzhÃ¬Ġ":5302,"shÄĵngĠhuÃ³":5303,"fÃºĠwÃ¹":5304,"xuÃ©ĠzhÄĽĠ":5305,"lÃºnĠdÅ«nĠ":5306,"ĠĠĠxÄ«Ġ":5307,"diÄģnĠ":5308,"ĠĠĠ2022":5309,"shuÇĲĠpÃŃngĠ":5310,"hÇİiĠyÃ¹Ġ":5311,"nÃ¨iĠrÃ³ng":5312,"ĠzhÄ«ĠshÃŃĠ":5313,"zhÃ¹ĠzuÃ²Ġ":5314,"Ġ9ĠyuÃ¨Ġ":5315,"yÄ«ngĠgÃ©ĠlÃ¡nĠ":5316,"ĠxiÃłoĠ":5317,"ĠdÃłĠchÃ©nĠ":5318,"ĠchÃ©ngĠlÃ¬ĠyÃºĠ":5319,"ĠĠĠgÃłiĠ":5320,"tuÃ²Ġ":5321,"lÇļĠkÃ¨Ġ":5322,"ĠguÇİngĠ":5323,"zhÃ¬ĠzÃłiĠ":5324,"jiÄĵĠjÃ¬nĠ":5325,"ĠxÄ«nĠwÃ©nĠ":5326,"chÃ¡ngĠqÄ«Ġ":5327,"ĠwÃ©iĠÄĽrĠ":5328,"lÃ¬ngĠwÃłiĠ":5329,"ĠĠĠxÃŃngĠzhÃ¨ngĠqÅ«ĠhuÃłĠ":5330,"rÃ¨nĠmÃ¬ng":5331,"gÄģoĠsÃ¹":5332,"ĠjiÄģĠshÃłngĠ":5333,"bÇĲĠsÃłiĠzhÅįngĠ":5334,"yuÃłnĠzhÇİngĠ":5335,"jÇĲĠyÇĶĠ":5336,"diÇİnĠdeĠ":5337,"xÄ«ĠyÃ¡ngĠ":5338,"ĠyÇĲĠhÃ²uĠ":5339,"ĠjÅ«nĠwÃ¨iĠ":5340,"mÃŃnĠdeĠ":5341,"shuÃ²ĠshÃ¬Ġ":5342,"ĠdÃ©ĠdeĠ":5343,"wÄĵiĠliÃ¡nĠ":5344,"wÄĽiĠshÅ«ĠjÃ¬Ġ":5345,"ĠyÃ¬ĠrÃ©nĠ":5346,"jiÄģĠhÃ©Ġ":5347,"tÃłiĠyÃ¡ngĠ":5348,"1992ĠniÃ¡nĠ":5349,"dÇİoĠyÇĶĠ":5350,"pÄ«ĠzhÇĶnĠ":5351,"dÃłiĠyÇĴuĠ":5352,"guÅįĠ":5353,"hÄĵngĠlÃ¬Ġ":5354,"ĠshÃ¬ĠyÄ«ĠwÃ¨iĠ":5355,"ĠxuÃ©ĠxiÃło":5356,"cÄģnĠyÃ¹":5357,"ĠwÃ¨iĠfÃºĠqÃŃĠyÃºĠ":5358,"Ġ7ĠyuÃ¨Ġ":5359,"6ĠniÃ¡nĠ":5360,"cÃ¬ĠshÃ¬ĠjiÃ¨ĠdÃłĠzhÃłnĠ":5361,"mÄĽiĠniÃ¡nĠ":5362,"ĠshÃ¬ĠqÅ«Ġ":5363,"fÄģĠchÅ«Ġ":5364,"quÃłnĠ":5365,"xÃ¬ngĠzhÃ¬Ġ":5366,"yÇİnĠchÃłngĠhuÃ¬Ġ":5367,"ĠyuÃ¡nĠyÄ«nĠ":5368,"tÇİoĠlÃ¹nĠ":5369,"ĠformulaĠ":5370,"tuÃ¬ĠyÃ¬Ġ":5371,"fÄĵngĠbÃłoĠ":5372,"ĠĠĠyÃ¬Ġ":5373,"bÇĲĠyÃłĠ":5374,"jÄ«ĠzhÃ¬Ġ":5375,"xÃ¬nĠhÃłoĠ":5376,"yÃłĠdeĠ":5377,"nÃ©ngĠgÃ²u":5378,"ĠhuÃŃĠ":5379,"shÃ²uĠshÄģngĠ":5380,"ĠjiÃłnĠchÃ©ngĠ":5381,"ĠmÃ©ngĠ":5382,"liÃ¡nĠxÃ¬Ġ":5383,"ĠtuÅįĠ":5384,"ĠĠĠN":5385,"wÃ¨iĠzhÃ¬Ġ":5386,"ĠĠĠ2017":5387,"bÃ¬ĠxÅ«":5388,"ĠrÃºĠguÇĴ":5389,"rÃºĠhÃ©Ġ":5390,"ĠtÇĲĠzhÇİngĠkÄĽĠdÃ¡Ġ":5391,"ĠÄĽrĠtÃ¨Ġ":5392,"bÇİoĠchÃŃĠ":5393,"ĠcÃŃĠ":5394,"zhuÄģnĠjiÄģĠ":5395,"fÅ«ĠrÃ©nĠ":5396,"jiÇİngĠxiÃłngĠ":5397,"chÄģĠyÃ¬Ġ":5398,"wÅįĠ":5399,"ĠjÄ«ngĠguÃ²Ġ":5400,"shÃ²uĠyÇĶĠ":5401,"ĠjÄ«ĠgÃ²u":5402,"ĠzÃłiĠyÃºĠ":5403,"ĠdeĠyÄ«ĠzuÃ²Ġ":5404,"ĠtÅįngĠchÃ¡ngĠ":5405,"ĠguÄ«Ġ":5406,"RĠ":5407,"Ġ2010ĠniÃ¡nĠ":5408,"wÇİngĠlÃ¹Ġ":5409,"jÄ«ngĠyÃŃngĠ":5410,"Ġ12ĠyuÃ¨Ġ":5411,"ĠmÃŃnĠguÃ³Ġ":5412,"gÃ²ngĠchÇİnĠdÇİng":5413,"diÃłnĠtÃ¡iĠ":5414,"Ġ21Ġ":5415,"dÅįngĠxÄ«Ġ":5416,"ĠkÃ¨ĠlÇĲĠ":5417,"ĠshÄĵngĠchÇİnĠ":5418,"ĠbÃ¹ĠlÇĲĠ":5419,"tÄģnĠ":5420,"ĠyÇĲĠxiÃł":5421,"cÅ«nĠzhuÄģngĠ":5422,"Ġ11ĠyuÃ¨Ġ":5423,"ĠrÃłngĠ":5424,"lÃ¡iĠdÃłoĠ":5425,"suÃŃĠhÃ²uĠ":5426,"ĠzhÄ«ĠzhÅįngĠ":5427,"ĠgÇİi":5428,"bÃ¬ĠyÃ¨ĠyÃºĠ":5429,"xÃ¹nĠliÃłn":5430,"cuÃ²ĠshÄ«Ġ":5431,"lÃłngĠ":5432,"fÇİĠdeĠ":5433,"miÇİoĠ":5434,"ĠyÃ¬ĠshÃ¹":5435,"zÇĴngĠdÅ«Ġ":5436,"zhÃ¹ĠmÃŃngĠdeĠ":5437,"xÃ¬ĠliÃ¨":5438,"ĠshÃ¬ĠyÇĴuĠ":5439,"ĠjiÃłnĠduÃ¬Ġ":5440,"kuÃłiĠsÃ¹Ġ":5441,"5ĠniÃ¡nĠ":5442,"zhÃ¹ĠyÃºĠ":5443,"ĠchÃ¡ng":5444,"shÃ©Ġ":5445,"1994ĠniÃ¡nĠ":5446,"ĠshÃŃĠrÃ¨nĠ":5447,"ĠyÄ«ĠshÄĵngĠ":5448,"gÅ«ĠjÃ¬Ġ":5449,"hÃ¡iĠziĠ":5450,"ĠÄĽrĠhÃ©Ġ":5451,"tÃłiĠpÃŃngĠyÃ¡ngĠ":5452,"ĠzhÅ«":5453,"yÃ¡nĠgÃ©Ġ":5454,"ĠhuÇĴĠ":5455,"ĠĠĠ2016":5456,"tÃ³ngĠyÃ¬Ġ":5457,"leĠdÃłĠ":5458,"shÄĵngĠwÃ¨iĠ":5459,"dÇİoĠshÃ¬Ġ":5460,"chÃ©ngĠgÅįngĠ":5461,"ĠzhÅįngĠdeĠ":5462,"Ġtw":5463,"ĠjiÃ©ĠmÃ¹Ġ":5464,"sÃ¬ĠgÃ¨Ġ":5465,"fÄģĠdiÃłnĠ":5466,"ĠshÃłngĠhÇİi":5467,"zhÃłnĠzhÅįngĠ":5468,"ĠdeĠqiÃ¡nĠ":5469,"ĠrÃ©nĠlÃ¨iĠ":5470,"jiÃ©ĠshÃ¹ĠhÃ²uĠ":5471,"ĠdÃ©ĠyÇĲĠ":5472,"pÇĶĠtÅįngĠ":5473,"shÇİngĠ":5474,"ĠdeĠshÃŃĠqÅ«ĠwÃ¨iĠ":5475,"ĠxiÇİng":5476,"ĠzhÃ¨ngĠcÃ¨Ġ":5477,"15Ġ":5478,"ĠmÃŃngĠchÄĵngĠ":5479,"chÃ¨ĠxiÄģoĠ":5480,"ĠÃ":5481,"yÇĶĠzhÅįngĠ":5482,"ĠshÃ¨ng":5483,"ĠĠĠzhÃ¬Ġ":5484,"tÃ³uĠpiÃłoĠ":5485,"dÇĲĠdÃ¡Ġ":5486,"ĠyÃ¬nĠdÃ¹Ġ":5487,"ĠjÇĲnĠguÇİn":5488,"ĠwÇİngĠ":5489,"fÄģĠdeĠ":5490,"jÃºĠzhÇİngĠ":5491,"ĠdeĠshÃŃĠjiÄģnĠ":5492,"ĠfÄģngĠ":5493,"gÃ¨ngĠjiÄģĠ":5494,"1995ĠniÃ¡nĠ":5495,"zhÃ¨ĠxiÄĵ":5496,"ĠwÃ¨iĠshÄĵngĠ":5497,"fÇİnĠhuÃŃĠ":5498,"yuÃ¨ĠtÃ¡iĠ":5499,"ĠpÃŃngĠtÃ¡iĠ":5500,"guÇİngĠxÄ«Ġ":5501,"ĠyÃ¡ng":5502,"zhÃ¡iĠ":5503,"fÄĽiĠ":5504,"hansĠ":5505,"kuÃ²ĠdÃłĠ":5506,"hÄģĠÄĽrĠ":5507,"ĠhansĠ":5508,"yÃ¬ĠzhÅįngĠ":5509,"dÄĵngĠlÃ¹Ġ":5510,"rÃ³ngĠyÃ¹Ġ":5511,"ĠtwĠ":5512,"yuÃ¨ĠshÃŃĠ":5513,"ĠqÄ«":5514,"ĠqiÃ¡n":5515,"zhÃ²ngĠdÃłĠ":5516,"lÃ¹ĠyÃ¬Ġ":5517,"zÇĶĠchÃ©ngĠdeĠ":5518,"zhÇĲĠzÃłiĠ":5519,"25Ġ":5520,"ĠshÃ¬ĠyÇİnĠ":5521,"quÃ¨ĠdÃ¬ngĠ":5522,"yÃ¨ĠhÃ²uĠ":5523,"ĠbÃ¹ĠkÄĽĠ":5524,"ĠsÃłĠ":5525,"ĠbÃ¬ngĠmÃ©iĠyÇĴuĠ":5526,"ĠcÇĲĠshÃŃĠ":5527,"ĠĠĠdeĠshÃŃĠ":5528,"ĠchÄĵng":5529,"jÃ¬nĠxÃŃng":5530,"ĠÄģĠÄĽrĠ":5531,"ĠxuÃ©ĠxÃŃĠ":5532,"qÃ¬ĠchÄĵĠ":5533,"wÇİnĠshÃłngĠ":5534,"jiÃłoĠqÅ«Ġ":5535,"ĠmÃ¹ĠqiÃ¡n":5536,"mÃŃngĠchÄĵngĠ":5537,"yÃłĠlÃ¬ĠshÄģn":5538,"ĠlÇľĠ":5539,"gÇİiĠbiÄģn":5540,"wÃ¹ĠzhÇĴng":5541,"guÄģnĠzhÃ²ngĠ":5542,"xiÄģoĠshÃ²uĠ":5543,"ĠguÃ³ĠwÃ¹Ġ":5544,"ĠzhÄ«ĠyuÃ¡nĠ":5545,"ĠĠĠ2023":5546,"yuÃłnĠdeĠ":5547,"bÄģĠxÄ«Ġ":5548,"ĠgÅįngĠyÃ¨":5549,"ĠhuÃ²ĠzhÄĽĠ":5550,"rÃ¹ĠkÇĴuĠ":5551,"xiÄģngĠtÃ³ngĠ":5552,"bÄģĠlÃŃĠ":5553,"bÇİnĠdeĠ":5554,"ĠxiÃł":5555,"xuÃ©ĠhÃ©Ġ":5556,"sÇĶnĠshÄ«Ġ":5557,"pÃ²ĠhuÃłiĠ":5558,"biÇİoĠxiÃłn":5559,"pÄģnĠ":5560,"ĠshÃŃĠxiÃłnĠ":5561,"xÄ«ĠlÃł":5562,"fÄģĠxiÃłnĠleĠ":5563,"ĠĠĠ2014":5564,"kÃłnĠdÃłoĠ":5565,"nÇİiĠ":5566,"qÄ«ĠzÇĲĠ":5567,"guÄģnĠzhÃ¹Ġ":5568,"ĠcÃ©ngĠrÃ¨nĠ":5569,"ĠÑ":5570,"ĠbÃ¬ngĠyÇĲĠ":5571,"qiÇİngĠ":5572,"xiÅįngĠyÃ¡":5573,"Ġ6ĠyuÃ¨Ġ":5574,"ĠchuÃłngĠ":5575,"ĠĠĠsuÇĴĠshÇĶĠdeĠshÄĽngĠjÃŃĠxuÇİnĠqÅ«ĠwÃ¨iĠ":5576,"ĠĠĠdeĠyÃ³uĠzhÃ¨ngĠbiÄģnĠmÇİĠwÃ¨iĠ":5577,"ĠĠĠyÇĶĠjiÄĵĠrÇİngĠdeĠshÃ¬ĠzhÃ¨nĠ":5578,"ĠĠĠyÃºĠshÃŃĠdeĠrÃ©nĠkÇĴuĠshÃ¹ĠliÃłngĠwÃ¨iĠrÃ©nĠ":5579,"ĠĠĠdeĠshÃŃĠqÅ«ĠwÃ¨iĠ":5580,"zhuÄģngĠzhÃ¬Ġ":5581,"ĠxuÄģnĠbÃ¹Ġ":5582,"zhÃŃĠwÃ¨iĠ":5583,"22Ġ":5584,"Ġ2011":5585,"ĠU":5586,"jÃ¬ĠhÃ©Ġ":5587,"ĠzuÃ²ĠyÃ²ngĠ":5588,"ĠquÃ¡nĠzhÇİngĠ":5589,"tÃºĠzhÅįngĠ":5590,"sÅ«ĠliÃ¡n":5591,"kÄģiĠfÃłng":5592,"ĠĠĠjÄ«Ġ":5593,"xÅ«ĠqiÃºĠ":5594,"ĠzhÄ«ĠmÃŃngĠ":5595,"lÃŃnĠdeĠ":5596,"ĠsÄ«ĠlÄģĠ":5597,"shÃŃĠwÃ¨iĠ":5598,"hÃ©ngĠxÄ«ngĠ":5599,"tuÄ«ĠdÃ²ngĠ":5600,"wÃ©iĠdeĠ":5601,"ĠshÃ¬ĠzhÇİngĠ":5602,"ĠquÃ¡nĠbÃ¹Ġ":5603,"ĠniÃ¡nĠqÄ«ng":5604,"guÇİnĠlÇĲ":5605,"Ġ2019":5606,"ĠjiÄģĠtÃŃngĠ":5607,"rÃ¹ĠqÄ«nĠ":5608,"rÃºĠcÇĲĠ":5609,"Ġhk":5610,"cÃ¡nĠ":5611,"tÃ¡iĠbÄĽiĠ":5612,"yÇĶĠhÃ©Ġ":5613,"yÃŃĠdÃ²ngĠ":5614,"ĠyÄ«ĠdÃłiĠ":5615,"jÃ¬nĠshÃ¬Ġ":5616,"fÃ¹ĠdeĠ":5617,"ĠchÅ«ĠxiÃłnĠzÃłiĠ":5618,"zhÃ¨ĠjiÄģngĠ":5619,"mÇĶĠqÄ«nĠ":5620,"xiÅįngĠyÃ¡ĠlÃ¬Ġ":5621,"ĠmiÃłnĠ":5622,"leĠĠĠ":5623,"mÃ¹ĠsÄ«Ġ":5624,"1991ĠniÃ¡nĠ":5625,"ĠrÃ©nĠshÃ¹Ġ":5626,"fÃ¹ĠqÄ«nĠ":5627,"ĠdÃłnĠtÄģĠ":5628,"ĠxÄ«ĠbÄģnĠyÃ¡":5629,"ĠĠĠ2015":5630,"mÃŃnĠzÃº":5631,"guÇİngĠbÅį":5632,"zuÃ¬ĠchÅ«Ġ":5633,"tÃ¡iĠdeĠ":5634,"ĠdÃ¬ĠqiÃºĠ":5635,"ĠgÄģnĠ":5636,"ĠshÃ¬ĠzhÇĲĠ":5637,"1ĠniÃ¡nĠ":5638,"tÃŃĠshÄĵngĠ":5639,"fÄĵiĠjiÃłnĠzhÃ¬Ġ":5640,"ĠduÃłnĠ":5641,"ĠchÄĵĠzhÃłnĠ":5642,"ĠÎ":5643,"Ġ5ĠyuÃ¨Ġ":5644,"xÃ¹nĠsÃ¹Ġ":5645,"ĠhkĠ":5646,"onĠĠĠ":5647,"shÃ¹ĠxuÃ©Ġ":5648,"ĠĠĠ2013":5649,"ĠsÄ«ĠtÇİnĠ":5650,"ĠjÇĲn":5651,"ĠwÃ¨iĠhÃ©Ġ":5652,"ĠbÃ¬ngĠlÃ¬Ġ":5653,"ĠchÃ©ngĠwÃ©iĠleĠ":5654,"niÇĶĠyuÄĵĠ":5655,"ĠjÄ«ng":5656,"ĠzhuÇİnĠ":5657,"fÄģĠxÃŃng":5658,"ĠjÃ¬nĠrÃ¹":5659,"tÃ¨ĠlÇĲĠ":5660,"kÃłngĠrÃ¬Ġ":5661,"ĠhÃ©ĠxÄ«nĠ":5662,"ĠgÃ¨ĠzhÇĴngĠ":5663,"zÇĴngĠbÃ¹Ġ":5664,"ĠjÃŃĠqÃŃ":5665,"fÄģĠshÄĵng":5666,"shÅįuĠlÃ¹Ġ":5667,"ĠshÃ¬ĠrÃ©nĠ":5668,"jiÃłoĠdeĠ":5669,"gÇİoĠ":5670,"lÃ¡nĠkÃ¨Ġ":5671,"mÃ¡ngĠ":5672,"mÃŃngĠyÃ¬Ġ":5673,"cÃ¡iĠzhÃ¨ngĠ":5674,"8ĠniÃ¡nĠ":5675,"chÃłngĠpiÃłnĠ":5676,"ĠzuÃ²ĠpÇĲn":5677,"ĠĠĠniÃ¡nĠ":5678,"sÃłĠkÃ¨Ġ":5679,"ĠjÃ¬ĠzÇİiĠ":5680,"ĠzhÅįngĠwÃ©nĠ":5681,"50Ġ":5682,"juÃ©ĠsÃłi":5683,"jÃ¬nĠgÅįngĠ":5684,"16Ġ":5685,"ĠshÃ¬ĠjÃŃĠ":5686,"qÇĲĠyÃ¬Ġ":5687,"cÄģnĠyÃ¬Ġ":5688,"zhuÃłngĠkuÃłngĠ":5689,"ĠzÃłoĠchÃ©ngĠ":5690,"ĠxiÃłnĠyÃºĠ":5691,"lÇľĠwÃ¨iĠ":5692,"ĠĠĠzhÅįngĠguÃ³Ġ":5693,"leĠtÄģĠ":5694,"zÄĵngĠzhÇİngĠ":5695,"gÄģoĠdÃ¹Ġ":5696,"chÇİnĠpÇĲn":5697,"cÄģnĠkÇİoĠ":5698,"fÄĵiĠjiÃłnĠzhÃ¬ĠdÃ¬ĠqÅ«Ġ":5699,"ĠjÃ¬ĠsuÃłn":5700,"zhÃłnĠdÃ²uĠ":5701,"dÅįuĠhuÃ¬Ġ":5702,"ĠhÃ©ĠbÃ¬ngĠ":5703,"ĠshÄĵngĠhuÃ³":5704,"wÃ¡ngĠdeĠ":5705,"ĠhuÃ¡ng":5706,"ĠÃ©ĠluÃ³ĠsÄ«Ġ":5707,"zhÃ²ngĠdiÇİnĠ":5708,"diÃłoĠchÃ¡":5709,"chÄģiĠ":5710,"ĠdÃłĠlÃ³uĠ":5711,"hÇİiĠdÃłoĠ":5712,"chÃłngĠpiÃłn":5713,"ĠrÃ©nĠmenĠ":5714,"ĠĠĠJ":5715,"wÄĵiĠxiÃ©Ġ":5716,"ÃłoĠdÃ¬ĠlÃ¬Ġ":5717,"ĠhÃ©ĠzhÅįngĠ":5718,"shÃłngĠshÅ«Ġ":5719,"ĠwÃ©iĠqÃŃĠ":5720,"lÇĲngĠdÇİoĠrÃ©nĠ":5721,"kÇİnĠ":5722,"ĠhÃ²u":5723,"ĠdÇİoĠ":5724,"jÄ«ngĠshÃ©nĠ":5725,"ĠxiÄģngĠguÄģnĠ":5726,"jiÄģĠzhÅįngĠ":5727,"suÄ«ĠrÃ¡nĠ":5728,"ĠyÄ«nĠÃ©rĠ":5729,"yuÃ¨ĠzÃłiĠ":5730,"liÇİngĠrÃ©nĠ":5731,"ĠĠĠI":5732,"ĠbÃ¹ĠduÃłnĠ":5733,"cÄģnĠjiÄģĠleĠ":5734,"ĠfÃ¡ngĠ":5735,"yÃŃngĠyÃ¹nĠ":5736,"lĠ":5737,"huÃłĠwÃ¨iĠ":5738,"jiÄģngĠxÄ«Ġ":5739,"ĠdeĠchÃ©ngĠyuÃ¡nĠ":5740,"jiÃ©ĠkÃ¨Ġ":5741,"23Ġ":5742,"tÃºĠshÅ«ĠguÇİnĠ":5743,"ĠhÃ©ĠchÃ©ngĠ":5744,"zhÇĶĠchÃŃĠ":5745,"ĠzhÅįngĠguÃ³ĠgÃ²ngĠchÇİnĠdÇİngĠ":5746,"jÃ¹ĠdeĠ":5747,"nÃłĠlÇĲĠ":5748,"Ġ4ĠyuÃ¨Ġ":5749,"mÃŃnĠzhÃ²ngĠ":5750,"1988ĠniÃ¡nĠ":5751,"jÃ¬nĠrÃ¹":5752,"mÇĴuĠxiÄĵĠ":5753,"ĠhuÃ¡":5754,"shÄĵnĠwÃ¨iĠ":5755,"jÅ«ĠzhÃ¹Ġ":5756,"zÃ¬ĠdÃ²ngĠ":5757,"xiÃłĠjÃ¬ĠÃłoĠlÃŃnĠpÇĲĠkÃ¨ĠyÃ¹nĠdÃ²ngĠhuÃ¬Ġ":5758,"yÄ«nĠshÃ¬Ġ":5759,"alĠ":5760,"ĠxiÇİo":5761,"zhÃłnĠdÃ²u":5762,"shÃŃĠjiÄģnĠ":5763,"ĠyÇĴuĠshÃŃĠ":5764,"chÇİnĠshÄĵngĠdeĠ":5765,"ĠĠĠzhĠ":5766,"ĠzÃłiĠjiÄģĠ":5767,"shuÅįĠmÃŃngĠ":5768,"ĠtiÄģn":5769,"ĠzhÃ¨ngĠzhuÃłngĠ":5770,"yÇĲnĠfÄģĠ":5771,"ĠqiÃ¡oĠ":5772,"dÄģoĠ":5773,"jiÄģngĠsÅ«Ġ":5774,"1993ĠniÃ¡nĠ":5775,"ĠhuÃ²ĠdÃ©ĠleĠ":5776,"Ġ20":5777,"esĠ":5778,"ĠzhÄ«ĠxiÃłĠ":5779,"ĠshÃ¬ĠwÄĵiĠ":5780,"xiÇİoĠshuÅį":5781,"ĠĠĠjiÄģĠzÃºĠ":5782,"ĠxÇĶĠduÅįĠ":5783,"ĠshÃ¬ĠzhÃ¨n":5784,"ĠgÅįngĠrÃ©nĠ":5785,"ĠwÄĽiĠ":5786,"dÃ¬ngĠleĠ":5787,"yÅįuĠshÃ¬Ġ":5788,"lÃ¡nĠqiÃºĠ":5789,"ĠdÃłĠduÅįĠ":5790,"ĠzuÇĴĠ":5791,"zhÅįuĠdeĠ":5792,"suÄ«ĠrÃ¡n":5793,"jÃ¬ĠshÃŃĠ":5794,"ĠxiÃłngĠmÃ¹Ġ":5795,"xiÇİnĠdeĠ":5796,"zÄ«ĠxÃ¹nĠ":5797,"ÃłoĠyÃ¹nĠhuÃ¬Ġ":5798,"cuÃ¬Ġ":5799,"sÃ¹ĠdeĠ":5800,"ĠdÃłĠxÃŃngĠ":5801,"Ġ2018":5802,"13Ġ":5803,"ĠyuÃ¨ĠnÃ¡nĠ":5804,"chuÄģngĠ":5805,"xiÃłngĠmÃ¹":5806,"ĠjÃŃĠlÃ¬Ġ":5807,"ĠzhÅįngĠhuÃ¡Ġ":5808,"qÇĶĠdÃ©":5809,"ĠlÃ¡iĠzÃ¬Ġ":5810,"yuÃ¡nĠzÃłiĠ":5811,"ĠbÃ¹ĠmÃ©n":5812,"xiÄģngĠdÄģngĠ":5813,"ĠdÃłnĠyÃ³uĠyÃºĠ":5814,"fÇİngĠwÃ¨nĠ":5815,"zhÃŃĠdÃłoĠ":5816,"jiÃłoĠwÃ©iĠ":5817,"jiÃ©ĠhÅ«nĠ":5818,"ĠshÃ¬ĠwÃ¨iĠleĠ":5819,"ĠdÃºĠ":5820,"ĠlÇĲĠlÃ¹nĠ":5821,"pÇĲnĠpÃ¡iĠ":5822,"ĠxuÇİnĠ":5823,"ĠlÇĲ":5824,"xÃŃĠwÃ¨iĠ":5825,"ĠdÃ¬ĠwÇĶĠ":5826,"cÄģnĠjiÄģ":5827,"ĠpÃ¨iĠ":5828,"ĠyuÃ¨ĠtÃ¡iĠ":5829,"zhÅįngĠwÃ¨iĠ":5830,"zhÄĵnĠshÃŃĠ":5831,"LĠ":5832,"zhÅįngĠhuÃ¡ĠrÃ©nĠmÃŃnĠgÃ²ngĠhÃ©ĠguÃ³Ġ":5833,"bĠ":5834,"yÇĴuĠbÃ¹Ġ":5835,"yÃ¬nĠdÃ¬Ġ":5836,"mÄĽiĠshÃ¹Ġ":5837,"zhÃ²uĠ":5838,"xÄ«ngĠqÄ«Ġ":5839,"mÃ¬ngĠlÃ¬ngĠ":5840,"xuÃ©ĠshÃ¹Ġ":5841,"ĠdeĠgÅįngĠzuÃ²Ġ":5842,"2020ĠniÃ¡nĠmÄĽiĠguÃ³ĠrÃ©nĠkÇĴuĠpÇĶĠchÃ¡ĠdeĠshÃ¹ĠjÃ¹Ġ":5843,"ĠbiÄģn":5844,"ĠlÇİoĠ":5845,"jiÃłnĠshÃ¨Ġ":5846,"jÇĶĠxÃŃng":5847,"fÃ¡ngĠyÃ¹Ġ":5848,"ĠrÃ¨nĠwÃ¹Ġ":5849,"wÇĶĠzhuÄģngĠ":5850,"ĠĠĠ2025":5851,"yÃŃĠchÇİnĠ":5852,"bÃłoĠdÇİoĠ":5853,"ÃłoĠmÃ©nĠ":5854,"tiÃ¡oĠzhÄĽngĠ":5855,"ĠCĠ":5856,"ĠzhÃ¨ng":5857,"ĠwÃ©n":5858,"ĠshÃŃĠyÄ«Ġ":5859,"tÃŃĠgÄģoĠ":5860,"mĠĠĠ":5861,"bÃ¡Ġ":5862,"ĠjiÄģĠrÃ¹":5863,"ĠzhÄ«ĠhÃ²u":5864,"1990ĠniÃ¡nĠ":5865,"fÄĵiĠlÇľĠ":5866,"wÇİĠÄĽrĠ":5867,"yÇĲĠlÃ¡iĠ":5868,"ĠtiÃ¡nĠ":5869,"leĠtÄģĠdeĠ":5870,"huÃ¬ĠyuÃ¡nĠ":5871,"ĠshÃŃĠqÄ«":5872,"jÃ¬ĠlÃ¹Ġ":5873,"ĠjÄ«ĠguÄģnĠ":5874,"shÃ¹ĠzÃ¬Ġ":5875,"yÇĶnĠxÇĶĠ":5876,"dÅ«ĠshÃ¬Ġ":5877,"leĠyÃŃĠgÃ¨Ġ":5878,"huÃłĠjiÄģĠ":5879,"jÄ«ĠchÇİngĠ":5880,"yÃŃĠmÃŃnĠ":5881,"shÅ«ĠdeĠ":5882,"jÃ¹ĠlÃŃĠ":5883,"ĠfÃ¹ĠzÃ©":5884,"ĠzhuÄģngĠ":5885,"ĠshÃ¬ĠyÄ«ĠzhÇĴng":5886,"jÄ«nĠdeĠ":5887,"ĠrÃ©nĠlÃ¨i":5888,"ĠjiÇĶ":5889,"ĠĠĠ2024":5890,"ĠzhÅįuĠniÃ¡nĠ":5891,"ĠzÃ¬ĠjÇĲĠdeĠ":5892,"jiÄĵĠjÃŃĠ":5893,"duÃłnĠdeĠ":5894,"dÅ«ĠjiÃłoĠ":5895,"hÅįngĠzhÃł":5896,"lÃ¬ĠshÃ¬Ġ":5897,"kÃ¨ĠlÇĲĠ":5898,"yÃ¡nĠdeĠ":5899,"yÄģoĠqÇĲngĠ":5900,"ĠxiÃ©Ġ":5901,"yÃŃngĠdeĠ":5902,"huÄģĠyuÃ¡nĠ":5903,"yÃ²ngĠhÃ¹Ġ":5904,"shÄģnĠmÃłi":5905,"ĠhÃ³ng":5906,"shÄĵngĠjÃŃĠ":5907,"yuÄĵĠyÇĴuĠ":5908,"ĠshÃ¬ĠdÃłĠ":5909,"wÃ©nĠzÃ¬Ġ":5910,"ĠdÃ¬ngĠ":5911,"miÃłnĠduÃ¬Ġ":5912,"ĠliÃ¡ngĠ":5913,"Ġ2011ĠniÃ¡nĠ":5914,"dÅįngĠjÃ¬Ġ":5915,"hÃ¡nĠshÃ¹Ġ":5916,"ĠchÄĵngĠwÃ©iĠ":5917,"zÄ«ĠjÄ«nĠ":5918,"dÄĽngĠwÃ¨iĠ":5919,"sÃºĠ":5920,"ĠlÃ¬ĠshÇĲ":5921,"wÇĶĠtÃ¡iĠ":5922,"ĠsuÃ¬ĠdeĠ":5923,"ĠzhuÇİn":5924,"ĠxÃº":5925,"ĠshÃ¨ĠjÃŃĠ":5926,"ĠzhÃ¬ĠshÃŃĠ":5927,"ĠshÃłng":5928,"ĠguÄģn":5929,"ĠzhÃ¬ĠlÃ¬Ġ":5930,"gÄģoĠdÄĽngĠ":5931,"xiÃłoĠguÇĴĠ":5932,"Ġ2016":5933,"ĠsuÇĴĠyÇĲ":5934,"yuÃ¡nĠjÃŃĠ":5935,"ĠrÃ©nĠmÃŃn":5936,"shÄĵnĠqÇĲngĠ":5937,"ĠhÃ©ĠlÃ¡nĠ":5938,"Ġ2005ĠniÃ¡nĠ":5939,"dÃ²ngĠzuÃ²Ġ":5940,"ĠÅįuĠ":5941,"ĠxiÃłnĠhÃ©Ġ":5942,"Ġ3ĠyuÃ¨Ġ":5943,"mÄĽiĠguÃ³ĠdeĠ":5944,"Ġ2008ĠniÃ¡nĠ":5945,"19ĠshÃ¬ĠjÃ¬Ġ":5946,"ĠmÃŃngĠchÃ¡oĠzhÃ¨ngĠzhÃ¬ĠrÃ©nĠwÃ¹Ġ":5947,"ĠĠĠxÄ«nĠ":5948,"ĠĠĠzÇİoĠniÃ¡nĠ":5949,"liÇİngĠzhÇĴngĠ":5950,"ĠwÃłnĠmÄĽiĠyuÃ¡nĠ":5951,"ĠhÃ¡nĠguÃ³Ġ":5952,"ĠrÃ¬ĠjÅ«nĠ":5953,"xiÃłĠlÃ¬ng":5954,"jiÃłoĠliÃłnĠ":5955,"lÇĲngĠtÇĶĠ":5956,"ĠjÃ¹":5957,"ĠshÄ«":5958,"nÇĶĠlÃ¬Ġ":5959,"ĠyuÃ¡nĠmÃŃngĠ":5960,"zhÃ¨ngĠmÃŃngĠ":5961,"Ġs":5962,"ĠĠĠhÃ²uĠ":5963,"Ġ30":5964,"ĠzhÄģo":5965,"liÃ¨ĠbiÇİoĠ":5966,"wÃ¨iĠĠĠ":5967,"lÃ¹ĠjÅ«n":5968,"ĠzhÅįngĠyÃºĠ":5969,"zuÃ²ĠyÃ²ngĠ":5970,"jÄ«ngĠchÃ¡ngĠ":5971,"qÅ«ĠyÃ¹":5972,"yÇĴuĠzÃłiĠ":5973,"ĠyÃ¬ĠyÃ¬Ġ":5974,"yÇĲngĠpiÃłn":5975,"GĠ":5976,"ĠxiÅ«Ġ":5977,"ĠjÃ¬nĠxÃŃng":5978,"ĠnÃ¡nĠzhÃ¬Ġ":5979,"ĠĠĠyÃ³uĠ":5980,"ĠguÃ³ĠhuÃ¬Ġ":5981,"ĠgÅįngĠhuÃ¬Ġ":5982,"ĠyuÃ¡nĠgÅįngĠ":5983,"guÄģnĠxÃ¬":5984,"ĠjÃ¬ĠzhÄĽĠ":5985,"ĠchÃ¬Ġ":5986,"nÃ¨iĠlÃ¹Ġ":5987,"2ĠrÃ©nĠ":5988,"ĠpÃ¨i":5989,"zhÇİoĠdÃłoĠ":5990,"1984ĠniÃ¡nĠ":5991,"wÃ¡ngĠchÃ¡o":5992,"huÃŃĠyÃ¬ngĠ":5993,"jÄ«ngĠlÇĲĠ":5994,"lÇļĠxÃŃngĠ":5995,"yÃ²ngĠzuÃ²Ġ":5996,"shÃ©nĠjÄ«ngĠ":5997,"ĠshÃ¬ĠhÃ²uĠ":5998,"ĠyÄ«ng":5999,"ĠCh":6000,"lÇĲĠlÃ¹nĠ":6001,"ĠgÅįngĠchÇİngĠ":6002,"fÃ¹ĠjÃ¬nĠ":6003,"yÃºĠzÃłiĠ":6004,"ĠjuÃ©":6005,"ĠbÃ³":6006,"tÃłiĠrÃ©nĠ":6007,"ĠhÃ©ĠgÅįngĠ":6008,"chÅ«ĠbÇİnĠ":6009,"kÄĽĠyÇĲĠzÃłiĠ":6010,"suÃ¬ĠdÃłoĠ":6011,"bÇİoĠchÃŃ":6012,"zhÄ«ĠjiÄģnĠ":6013,"jiÇĶĠdiÃłnĠ":6014,"tÃŃĠdÃłoĠ":6015,"ĠchÃ©ngĠxiÃłnĠ":6016,"ĠniÃ¡nĠ1ĠyuÃ¨Ġ1ĠrÃ¬Ġ":6017,"ĠjÄ«ĠchÄĵĠ":6018,"ĠshÃŃĠÃ¨rĠ":6019,"guÄ«ĠzÃ©Ġ":6020,"wÇĴĠmen":6021,"ĠluÃ³":6022,"ÄģiĠjÃŃĠ":6023,"1989ĠniÃ¡nĠ":6024,"ĠbÇĲ":6025,"gÃ©ĠwÃ¨iĠ":6026,"tÄ«Ġ":6027,"qÃ¬ĠxiÃłngĠ":6028,"shÇĴuĠjÄ«Ġ":6029,"ĠguÃ³ĠfÃ¡ng":6030,"kÅįngĠzhÅįngĠ":6031,"ĠniÃ¡nĠshÃ¬ĠjiÃ¨Ġ":6032,"ĠzhÇĴngĠ":6033,"zhÃ¹ĠlÇĲĠ":6034,"ĠyÃºĠ18":6035,"bÃ¨iĠshÃ¬ĠwÃ¨iĠ":6036,"tÅįngĠdÃłoĠ":6037,"kÇĴngĠbÃ¹Ġ":6038,"qÃŃĠzhÅįngĠyÄ«ĠzhÇĴngĠ":6039,"ĠhÄĽnĠ":6040,"zuÃ²ĠwÃ¨iĠ":6041,"shÇĴuĠdÅ«Ġ":6042,"ĠdeĠzhÃ¬Ġ":6043,"lÃ¬ĠwÃ¨iĠ":6044,"shÅ«ĠjÃŃĠ":6045,"ĠÃ©rĠchÃ©ngĠ":6046,"jÄ«ĠhÃ©Ġ":6047,"dÅįngĠnÃ¡nĠbÃ¹Ġ":6048,"ĠwÇĴĠmenĠ":6049,"yÇĲĠxiÃłĠ":6050,"ĠxÄ«ĠwÃłng":6051,"ĠmÄĽiĠniÃ¡nĠ":6052,"ĠfÇİn":6053,"yÇİnĠyÃ¬Ġ":6054,"xÄ«nĠjiÄģĠpÅį":6055,"dÃłĠlÃ¹ĠdeĠ":6056,"ĠlÃ©iĠ":6057,"qÇĲĠyÃ¨":6058,"ĠzuÃ²ĠwÃ©i":6059,"dÃłiĠlÇĲĠ":6060,"mÄĽngĠ":6061,"ĠdeĠjiÄģĠ":6062,"jÄ«nĠshÇĶĠ":6063,"jÃ¬nĠyÃŃĠbÃ¹Ġ":6064,"lÃ¡oĠdÃ²ngĠ":6065,"toĠĠĠ":6066,"zhÇĶĠchÃŃ":6067,"jiÃłoĠxuÃ©Ġ":6068,"biÇİoĠmiÃłnĠ":6069,"gÃ¹ĠwÃ¨nĠ":6070,"ĠyÄ«ngĠyÇĶĠ":6071,"nÄ«Ġ":6072,"ĠhÃ©ĠxÄ«Ġ":6073,"ĠbÃ¹ĠbÃ¹Ġ":6074,"cÃ¡iĠliÃłoĠ":6075,"ĠhÃ©ĠshÃŃĠ":6076,"ĠyÇĴuĠjÄ«Ġ":6077,"chÃ¡oĠxiÄģn":6078,"Ġ2001ĠniÃ¡nĠrÃ©nĠkÇĴuĠ":6079,"dÃłoĠlÃ¹Ġ":6080,"fÄĵnĠzhÅįngĠ":6081,"huÃ¡ĠrÃ©nĠ":6082,"orĠ":6083,"ĠzÃłiĠwÃ¨iĠ":6084,"ĠbÄĽiĠqÇĲĠ":6085,"jÃ¬ngĠdeĠ":6086,"sÇĲĠhÃ²uĠ":6087,"bÇİoĠliÃºĠ":6088,"bÅįĠlÃ¡n":6089,"14Ġ":6090,"tÅįngĠchÄĵĠ":6091,"ĠtÇĶĠ":6092,"sÄ«ĠlÃ¬Ġ":6093,"ĠzhÅįngĠguÃ³ĠdÃłĠlÃ¹Ġ":6094,"bÃ¡iĠsÃ¨Ġ":6095,"yÃłĠlÃ¬ĠshÄģnĠdÃłĠ":6096,"huÃ¬ĠshÃ¬Ġ":6097,"ĠyÇĲĠbÃ¨iĠ":6098,"KĠ":6099,"ĠwÃłnĠyuÃ¡nĠ":6100,"jÅ«ĠmÃŃn":6101,"zhÇĶĠlÃ¬Ġ":6102,"ĠpÃŃngĠmiÃłnĠ":6103,"nÃŃĠkÃ¨Ġ":6104,"ĠtÄģĠwÃ¨iĠ":6105,"Ġ2021":6106,"zhÇĶĠdeĠ":6107,"ĠzhÄ«ĠjiÄģn":6108,"ĠsÄ«ĠtÃ¨":6109,"fÇİĠÃłnĠ":6110,"yÇĲnĠqÇĲĠ":6111,"oĠĠĠ":6112,"zhÃłiĠ":6113,"nÇļĠzÇĲ":6114,"yÇĲnĠqÇĲ":6115,"ĠxiÃłnĠdeĠyÃŃĠgÃ¨Ġ":6116,"ĠdÃłoĠdÃ¡Ġ":6117,"zhÃłoĠkÄģiĠ":6118,"ĠnÇļĠxÃ¬ngĠ":6119,"ĠchÃ¡Ġ":6120,"ĠdÅįngĠnÃ¡nĠ":6121,"yÃ¹nĠzuÃ²Ġ":6122,"ngĠ":6123,"jiÄģoĠhuÃ¬Ġ":6124,"shÇĴuĠgÃ¨Ġ":6125,"tuÃ¬ĠchÅ«Ġ":6126,"dÃ¬ĠÃ¨rĠ":6127,"ĠÃ©rĠyÃ¡nĠ":6128,"ĠxiÃłnĠdeĠyÃŃĠgÃ¨":6129,"ĠbÃ¨iĠrÃ¨nĠwÃ©iĠshÃ¬Ġ":6130,"ĠĠĠ2012":6131,"lÃ¬ĠzÃłiĠ":6132,"zhÃ¡Ġ":6133,"ĠjÄ«ĠhÅ«":6134,"ĠkÃ¨ĠchÃ©ngĠ":6135,"wÃ©nĠzhÄģngĠ":6136,"cÃ©ngĠjÄ«ng":6137,"jÇĲĠgÃ¨Ġ":6138,"jiÃ¨ĠdeĠ":6139,"ĠshÃ¬ĠjiÄģĠ":6140,"ĠyÇĴuĠyÃ¬Ġ":6141,"tÃ¨ĠshÅ«Ġ":6142,"ĠxÄ«ĠsÄ«Ġ":6143,"xiÄģngĠguÄģn":6144,"shÄ«ĠfÃłn":6145,"ĠfÃ¹ĠqÄ«nĠ":6146,"wÃºĠfÇİ":6147,"cÄģnĠmÃ³u":6148,"3ĠrÃ©nĠ":6149,"Ġp":6150,"ĠsĠĠĠ":6151,"jÄ«nĠhuÃ¬Ġ":6152,"1985ĠniÃ¡nĠ":6153,"jiÃłoĠshÄ«Ġ":6154,"OĠ":6155,"ĠĠĠxiÃłĠ":6156,"lÇľĠshÄ«Ġ":6157,"ĠgÇİngĠ":6158,"fÄĵiĠzhÅįuĠ":6159,"ĠshÃ¬ĠyÇĶĠ":6160,"xÄ«ĠbÄģnĠyÃ¡":6161,"ĠjÃ¹ĠyÇĴuĠ":6162,"dÃłĠwÃ¨iĠ":6163,"ĠyÄ«ĠjÃŃĠ":6164,"chÃ¡ngĠdeĠ":6165,"ĠbÃ¹ĠdÃ©":6166,"ĠtÄģĠmenĠzÃłiĠ":6167,"ĠqÇĶĠ":6168,"wÄĵiĠjÄ«Ġ":6169,"ĠgÃ©":6170,"ĠyÃ¬ĠfÄģngĠmiÃłnĠ":6171,"fÇİĠyuÃłn":6172,"yÃŃĠzhÇĲĠ":6173,"ĠÃ©rĠshuÇĲĠyÃ¹ĠmiÃłnĠjÄ«ĠwÃ¨iĠ0":6174,"ĠfÃ©ngĠ":6175,"lÄĽngĠ":6176,"ĠguÃ³ĠjiÄģĠdeĠ":6177,"ĠlÃŃ":6178,"zhÄĽĠzÃłiĠ":6179,"ĠhÃ©ĠqÃŃĠtÄģĠ":6180,"xÃ¬ĠtÇĴngĠdeĠ":6181,"yÃłĠzhÅįu":6182,"chÄĵĠdeĠ":6183,"jÄ«nĠpÃ¡iĠ":6184,"duÅįĠniÃ¡nĠ":6185,"ĠzhÄ«ĠwÃ¨iĠ":6186,"ĠbÃ¬ngĠjiÄģngĠ":6187,"ĠzhÇĶĠxÃŃĠ":6188,"kÄģngĠxÄ«Ġ":6189,"yÃłoĠwÃ¹Ġ":6190,"ĠhÇİi":6191,"ĠbÄģnĠ":6192,"ĠyÅįngĠyÇĴuĠ":6193,"ĠchÃ©ngĠxÃ¹Ġ":6194,"ĠwÃ¨iĠyÇĴuĠ":6195,"biÇİoĠdÃ¡":6196,"Ġ00Ġ":6197,"dÃłĠdÃ¬Ġ":6198,"biÃłnĠdÃ©Ġ":6199,"ĠchÃ©ngĠrÃ¨nĠ":6200,"zhÃŃĠmÃŃn":6201,"guÃ²ĠqÃ¹Ġ":6202,"pÃºĠtÃ¡oĠyÃ¡":6203,"ĠzhÃ¬ĠliÃ¡oĠ":6204,"huÄģnĠyÃŃngĠ":6205,"ĠĠĠchÃ©ngĠ":6206,"wÃ©nĠxiÃłnĠ":6207,"ĠsÄ«ĠkÃ¨Ġ":6208,"ĠjÃ¬nĠxÃŃngĠleĠ":6209,"mÃ¹ĠbiÄģo":6210,"fÃºĠyÃ¬Ġ":6211,"zhuÄģngĠshÃ¬Ġ":6212,"dÅįngĠbÄĽiĠbÃ¹Ġ":6213,"gÃ²uĠzÃłoĠ":6214,"huÃ²ĠdÃ©ĠleĠ":6215,"bÃ³ĠwÃ¹ĠguÇİn":6216,"ÃłoĠdÃłĠlÃ¬ĠyÃłĠ":6217,"ĠfÃ¨i":6218,"ĠguÄģnĠyÃºĠ":6219,"ĠqiÃºĠyuÃ¡nĠ":6220,"Ġ100":6221,"jiÄģngĠhuÃ¬Ġ":6222,"bÄĽnĠdÃ¬Ġ":6223,"ĠÃ©rĠgÄģiĠdÃ¬Ġ":6224,"ĠbÇİiĠ":6225,"xiÄģnĠshÄĵngĠ":6226,"ĠbÃ¹ĠlÄģĠ":6227,"bÅįĠlÃ¡nĠ":6228,"1949ĠniÃ¡nĠ":6229,"ĠyÃºĠlÃ¨Ġ":6230,"jiÄģĠrÃ¹":6231,"fÃłngĠqÃ¬Ġ":6232,"jiÃłnĠyÃ¬Ġ":6233,"Ġ2015":6234,"yÃ¬ĠdÃłĠlÃ¬Ġ":6235,"ĠbÃłnĠ":6236,"dÄģngĠshÃŃĠdeĠ":6237,"ĠqÄ«ĠxÄ«ĠzÃłiĠ":6238,"ĠzhÃ¹":6239,"zÃ©ĠwÃ¨iĠ":6240,"inĠ":6241,"mÃ¡oĠzÃ©Ġ":6242,"liÇİngĠniÃ¡nĠ":6243,"xiÃłoĠdeĠ":6244,"sÃłĠsÄ«Ġ":6245,"ĠbÃ¬ngĠyÇĶĠ":6246,"ĠtÃŃĠgÅįngĠ":6247,"ĠdÃłĠlÃ¹Ġ":6248,"ĠqÇĲ":6249,"fÃ¹ĠqÄ«n":6250,"ĠwÃ¨iĠlÃ¡iĠ":6251,"Ġ2007ĠniÃ¡nĠ":6252,"zÃ¬ĠyÃ³u":6253,"ĠĠĠcÃ³ngĠ":6254,"chÄĵngĠzuÃ²Ġ":6255,"ĠjiÃłnĠzÃłoĠ":6256,"ĠjÃ¬nĠyÃŃĠbÃ¹Ġ":6257,"liÃºĠzÃłiĠ":6258,"shÅįuĠshÃ¬Ġ":6259,"ĠdeĠzhÃ¨ngĠ":6260,"guÇİngĠgÃłoĠ":6261,"nÃ¡nĠjÄ«ngĠ":6262,"ĠjÃ¬nĠgÅįngĠ":6263,"enĠ":6264,"stĠĠĠ":6265,"jÇĲnĠjÃŃĠ":6266,"sÃłĠÄĽrĠ":6267,"luÃ³ĠdÃ¬Ġ":6268,"ĠshÃ¬ĠzhÃ¨ngĠ":6269,"ĠfÃ¹ĠqÄ«n":6270,"ĠjÃ¬ĠshÃ¹":6271,"ĠhÃłoĠwÃ¨iĠ":6272,"jÃ¬ĠxÃ¹Ġ":6273,"xÃ¬ĠjÃ¹Ġ":6274,"tÇİnĠkÃ¨Ġ":6275,"ĠdeĠshÄĵngĠ":6276,"ĠrÃ©nĠmen":6277,"ĠrÃ¬ĠjÅ«n":6278,"9ĠniÃ¡nĠ":6279,"ĠyÃ¬ĠmÄĽiĠyuÃ¡nĠ":6280,"cÃ¬ĠshÇĲĠ":6281,"Ġ2013":6282,"ĠzÃłiĠcÇĲ":6283,"ĠgÄģo":6284,"ĠtÃ¨ĠbiÃ©ĠshÃ¬Ġ":6285,"huÇĴĠjiÃłnĠ":6286,"ĠjiÄģĠzÃºĠ":6287,"piÃłoĠfÃ¡ngĠ":6288,"qÇĲngĠqiÃºĠ":6289,"jÇĲngĠfÄģngĠ":6290,"kÇİoĠlÇľ":6291,"bÇĲĠlÃ¬ĠshÃŃĠ":6292,"1986ĠniÃ¡nĠ":6293,"ĠshÃ¬ĠrÃ¬ĠbÄĽnĠ":6294,"ĠsÄ«ĠtÇİn":6295,"ĠjiÃ©ĠguÇĴ":6296,"tÃłiĠpÃŃngĠyÃ¡ng":6297,"zhÄģnĠmÇĶĠsÄ«Ġ":6298,"ĠbÄ«ngĠ":6299,"Ġ2014":6300,"quÃ¨ĠrÃ¨nĠ":6301,"ĠchÅ«ĠshÄĵngĠ":6302,"dÃ¬ĠzÃłiĠ":6303,"tiÄģnĠdeĠ":6304,"ĠyÇĲĠyÇĴuĠ":6305,"ĠĠĠ2":6306,"biÄģnĠdeĠ":6307,"pÄģiĠ":6308,"shÃłngĠwÇĶĠ":6309,"tÃ³uĠpiÃło":6310,"bÄģĠlÃŃ":6311,"wÃ¡ngĠchÃ¡oĠ":6312,"ĠxÃ¬ĠliÃ¨Ġ":6313,"ĠĠĠjiÃ©ĠzhÃ¬Ġ":6314,"nÃ¨iĠyÇĴuĠ":6315,"wÃ¡nĠgÅįngĠ":6316,"ĠzhÃ¬ĠchÃ©ngĠ":6317,"guÇİngĠdÅįngĠshÄĽngĠ":6318,"pÄģiĠshÃ¨":6319,"fÄĽnĠ":6320,"ĠyuÃ¡nĠbÄĽnĠ":6321,"chÃ©ngĠniÃ¡nĠ":6322,"chÇİngĠhÃ©Ġ":6323,"ĠqÃŃĠzÃłiĠ":6324,"ĠzhÄ«ĠziĠ":6325,"mÇĶĠqÄ«n":6326,"shÄĵnĠtÇĲĠ":6327,"mÃ©ngĠgÇĶ":6328,"ĠsÃłiĠjÃ¬Ġ":6329,"ĠdÃłĠyuÄĵĠ":6330,"ĠzhÃłnĠdÃ²uĠ":6331,"ĠzhÄ«ĠdeĠ":6332,"gÇĶĠfÃ¨n":6333,"xÃŃĠxÃ¬ng":6334,"gÃ¨ngĠduÅįĠ":6335,"hÃºĠbÄĽiĠ":6336,"ĠyuÄĵĠhÃłnĠ":6337,"dÄĵngĠshÃłngĠ":6338,"ĠxiÃłnĠchÇİngĠ":6339,"ĠhÃ¨Ġ":6340,"ĠĠĠzÄĵngĠ":6341,"suÇĴĠzÃłiĠ":6342,"yÇİnĠchÃłngĠ":6343,"qÃŃngĠbÃłoĠ":6344,"ĠyÄ«ngĠwÃ©nĠ":6345,"ĠdÃ¨ng":6346,"wÃłiĠbÃ¹Ġ":6347,"zhÃ²ngĠyÃ¬Ġ":6348,"mÃŃnĠjiÄģnĠ":6349,"mÃ¬ĠmÃ¬Ġ":6350,"ĠjÄ«ngĠjÃ¬Ġ":6351,"guÄģnĠbÃ¬Ġ":6352,"guÇİngĠfÃłn":6353,"ĠcÃ¨Ġ":6354,"xiÃłoĠyuÃ¡nĠ":6355,"ĠshÃ¬ĠyÃ¨Ġ":6356,"ĠzÃłiĠqÃŃĠ":6357,"1ĠrÃ©nĠ":6358,"ĠshÅįuĠ":6359,"ĠĠĠU":6360,"kÇİoĠlÇľĠ":6361,"Ã©ĠluÃ³ĠsÄ«":6362,"ĠniÃ¡nĠĠĠ":6363,"tÃ¨ĠsÃ¨Ġ":6364,"ĠwÇĴĠmen":6365,"ĠyÇĴuĠxiÃłnĠ":6366,"sÄĵnĠlÃŃnĠ":6367,"mÇİĠsÄ«Ġ":6368,"Ġ2020":6369,"ĠlÇļĠ":6370,"ĠÄģiĠ":6371,"wÃ¹ĠyuÃ¡nĠ":6372,"ÄģnĠpÃ¡iĠ":6373,"ĠliÃłngĠ":6374,"ĠquÃ¡nĠqiÃºĠ":6375,"ĠxiÇİngĠ":6376,"ĠxÃºnĠ":6377,"xiÃłĠyÄ«Ġ":6378,"Ã¨rĠyuÃ¨Ġ":6379,"ĠdÃłĠduÅįĠshÃ¹Ġ":6380,"ĠbÃ¹ĠjiÇĶ":6381,"zhuÄģngĠbÃ¨iĠ":6382,"chÄ«Ġ":6383,"ĠhÃ©ngĠ":6384,"huÇİnĠ":6385,"ĠdÃłĠdÃłoĠ":6386,"ĠwÃ²":6387,"nÃ©ngĠzÃłiĠ":6388,"ĠjÄ«ĠbÃłi":6389,"tÇĶĠÄĽrĠqÃŃĠ":6390,"qiÄģnĠzhÃ¬Ġ":6391,"zÃ¨ngĠ":6392,"ĠdÃ¬ĠyÄ«ĠcÃ¬Ġ":6393,"ĠzuÃ¬ĠgÄģoĠ":6394,"ĠyÃ¡n":6395,"ĠcÄģnĠjiÄģĠ":6396,"Ġ10Ġ":6397,"chÇİngĠdÃ¬Ġ":6398,"mÃŃnĠzhÇĶĠdÇİngĠ":6399,"xÃ¬ngĠqÃ¹Ġ":6400,"ĠshÃŃĠyÃłnĠ":6401,"zuÃ²ĠzhÃłnĠ":6402,"nÃ¡nĠyÇĲĠ":6403,"cÃ¹nĠ":6404,"ĠjÃŃĠbÄĽiĠ":6405,"ĠchÅ«ĠlÃ¡iĠ":6406,"tÃ¡iĠfÄĵngĠ":6407,"tiÄģnĠjÄ«nĠ":6408,"ĠÃ©":6409,"ĠzhÅįngĠshÃ¬Ġ":6410,"Ġ2017":6411,"bÃłnĠlÇĲĠ":6412,"ĠzhÄ«ĠdÃłoĠ":6413,"tiÄģnĠjÄ«n":6414,"lÃ³ngĠjiÄģngĠ":6415,"ĠgÄģngĠ":6416,"lÇĲngĠshÃ¬Ġ":6417,"ĠbÃ¹ĠzÃºĠ":6418,"yÃ²ngĠtÃºĠ":6419,"lÇĲĠgÅįngĠ":6420,"ĠtÅįngĠchÃ¡ng":6421,"nĠĠĠ":6422,"ĠkÄģngĠ":6423,"ĠyuÃ¡nĠsÃ¹Ġ":6424,"wÄĵiĠÄĽrĠ":6425,"nÃ³ngĠyÃ¨":6426,"ĠqÄ«ngĠchÃ¡oĠ":6427,"ÄģiĠÄĽrĠ":6428,"ĠhÃ¡oĠmÇĲĠ":6429,"chÃ¡ngĠjiÃłnĠdeĠ":6430,"ĠchÃ©ngĠdÃ¹Ġ":6431,"zhÃłnĠlÇĲngĠ":6432,"ĠniÃ¡nĠbÃ¨iĠ":6433,"jÃ¬nĠxÃŃngĠleĠ":6434,"ĠshÇĲĠjiÃłnĠyÃºĠ":6435,"ĠĠĠmÃŃngĠ":6436,"dÇİoĠdÃłnĠ":6437,"xiÅ«ĠzhÃ¨ngĠ":6438,"ĠyuÃ¨ĠtuÃ¡nĠ":6439,"guÃ¬ĠzhÅįuĠ":6440,"fÄĵnĠbÃ¹ĠyÃºĠ":6441,"mÇİĠlÃ¡iĠxÄ«ĠyÃłĠ":6442,"ĠĠĠxiÃłn":6443,"zÇĶĠjiÃłnĠ":6444,"xÇĲĠjÃ¹Ġ":6445,"maĠ":6446,"ĠgÅįngĠzhÇĶĠ":6447,"ĠtÄģĠhÃ¡iĠ":6448,"xÃŃĠxÃ¬ngĠbÃ¹ĠmÃŃngĠ":6449,"ĠshÃŃĠdÃłi":6450,"zhÃłngĠÃłiĠ":6451,"ĠwÃ©nĠhuÃłĠ":6452,"cĠĠĠ":6453,"xiÃłngĠshÃ¬Ġ":6454,"ĠchÅ«ĠqÄ«Ġ":6455,"ĠzhÃłnĠdÃ²u":6456,"huÃ¡ĠshÃ¨ngĠ":6457,"shÄĵngĠchÃ©ngĠ":6458,"teĠ":6459,"ĠyÇĴuĠxiÄĵĠ":6460,"jiÄģoĠliÃºĠ":6461,"rÃ¨nĠmÃ¬ngĠwÃ¨iĠ":6462,"ĠshÄĵngĠchÇİn":6463,"ĠĠĠtÄģĠ":6464,"ĠyÃ¬ĠqÇĲ":6465,"fÇİĠguÄģnĠ":6466,"ĠyÄĽĠjiÃ¹ĠshÃ¬Ġ":6467,"ĠdeĠfÄģngĠshÃ¬Ġ":6468,"ĠhÃ©ĠhÃ©Ġ":6469,"ĠshÄĵngĠhuÃ³ĠxÃŃĠxÃ¬ngĠbÃ¹ĠmÃŃngĠ":6470,"shÃ¨ĠzhÃ¬Ġ":6471,"shÃ²uĠdÃło":6472,"tÃŃĠchÅ«":6473,"ĠchÇĶĠyÃºĠ":6474,"jÄ«ĠchÇĶĠ":6475,"ĠtÄģĠyÄĽĠ":6476,"ĠluÃ²":6477,"ĠtÃ¡oĠ":6478,"hÄĽnĠdÃłĠ":6479,"4ĠrÃ©nĠ":6480,"zhÃ¬ĠzhÅįngĠ":6481,"kÇĶĠ":6482,"bÃłoĠfÄģ":6483,"zhÇĶĠshÃ¬Ġ":6484,"ĠwÃłnĠlÃ¬Ġ":6485,"ĠgÄĵnĠjÃ¹":6486,"ĠĠĠmÄĽiĠguÃ³Ġ":6487,"seĠ":6488,"jÃ¹ĠjuÃ©Ġ":6489,"chuÃ¡nĠshuÅįĠ":6490,"lÇĲngĠxiÃ¹Ġ":6491,"ĠyÃŃnĠ":6492,"ĠgÃ²ngĠyÇĴuĠ":6493,"lÄģĠdÄ«ng":6494,"huÃłĠhÃ©ĠwÃ¹Ġ":6495,"erĠĠĠ":6496,"ĠÃ©rĠbÃºĠshÃ¬Ġ":6497,"ÄģnĠzhuÄģng":6498,"ĠhÃłn":6499,"ĠzhÃło":6500,"ĠruÃ¬Ġ":6501,"rÃ¨nĠshÃŃĠ":6502,"1987ĠniÃ¡nĠ":6503,"chuÃłngĠbÃłn":6504,"ĠxuÄģnĠ":6505,"ĠkÇĴngĠ":6506,"bÃłoĠlÃ¬Ġ":6507,"ÄģnĠnÃłĠ":6508,"ĠyÄ«ĠxuÃ©Ġ":6509,"ĠgÃ²ng":6510,"ĠpÃł":6511,"zhÃ¬ĠbÃ¹Ġ":6512,"ĠAĠ":6513,"jiÄģĠlÃ¬ĠfÃºĠ":6514,"qiÃ³ngĠ":6515,"ĠyÇĴuĠyÃŃĠgÃ¨Ġ":6516,"ĠxiÃłnĠxiÃłngĠ":6517,"shÃłngĠyÃ¬ngĠ":6518,"ĠĠĠlÇĲĠ":6519,"fÇİĠyÇĶĠ":6520,"wÃ©nĠyÃ¬Ġ":6521,"shÃºĠ":6522,"ĠzÃłiĠnÃ¨iĠdeĠ":6523,"gÄģoĠsÃ¹Ġ":6524,"ĠrÃ³ngĠ":6525,"ĠzÃłiĠdÃ¹Ġ":6526,"ĠÃ©rĠbÃ¹Ġ":6527,"jÃ¬ĠshÃ¬Ġ":6528,"yuÃłnĠshÃ¬Ġ":6529,"ĠwÃ¨iĠxÄ«ngĠ":6530,"ĠlÇĲĠlÃ¹n":6531,"wÇĴĠmenĠ":6532,"ĠkÇİ":6533,"yÃ¡nĠshÄĵn":6534,"hÇİiĠÃłnĠ":6535,"chuÃłngĠjiÃłnĠ":6536,"bÄ«nĠhÇİiĠ":6537,"shÃ¹nĠlÃ¬Ġ":6538,"1980ĠniÃ¡nĠ":6539,"ĠdÅįngĠbÄĽiĠ":6540,"ĠĠĠcÇĲĠwÃłiĠ":6541,"Ġ2013ĠniÃ¡nĠ":6542,"mÄĽiĠgÃ¨Ġ":6543,"lÃ©iĠsÄ«Ġ":6544,"ruÇİnĠjiÃłnĠ":6545,"ĠshÄĵngĠzhÇİng":6546,"shÅ«ĠrÃ¹Ġ":6547,"ĠyÃ³uĠqÃŃĠshÃ¬Ġ":6548,"tuÄ«ĠjÃ¬nĠ":6549,"ĠhÃ©ĠbÃ¹Ġ":6550,"zÄ«ĠchÇİnĠ":6551,"lÃ¹nĠwÃ©nĠ":6552,"ĠxÃŃngĠzhÃ¨ng":6553,"nÇļĠxÃ¬ng":6554,"wÇİngĠqiÃºĠ":6555,"hÇİiĠwÃłiĠ":6556,"tÃ³ngĠniÃ¡nĠ":6557,"ĠshÇĶ":6558,"ĠnÃł":6559,"ĠtÇİĠ":6560,"ĠbÃ¹ĠluÃ²Ġ":6561,"ĠdÃłĠshÃł":6562,"zhÇĶĠyÃ¬ĠdeĠ":6563,"pÃŃngĠlÃ¹nĠ":6564,"Ġ2010":6565,"zuÃ¬ĠgÄģo":6566,"yÃ¬ngĠyÃ²ng":6567,"cÇİiĠqÇĶĠ":6568,"Ġ2012":6569,"ĠwÇİĠ":6570,"jiÃłoĠshÃ¬Ġ":6571,"bÇİnĠbÄĽn":6572,"pÃ¡iĠmÃŃngĠdÃ¬Ġ":6573,"ĠsÄģiĠ":6574,"biÃłnĠwÃ¨iĠ":6575,"Ġ2006ĠniÃ¡nĠ":6576,"zÅ«Ġ":6577,"bÃłoĠgÃło":6578,"ĠbÄĽiĠjÄ«ngĠ":6579,"yÃºĠdeĠ":6580,"jÃ¹ĠhÃ©Ġ":6581,"bÅįĠfÃłngĠ":6582,"ĠĠĠqÃŃĠ":6583,"sÄģnĠshÃ¬Ġ":6584,"ĠzÃłiĠxÄ«Ġ":6585,"rÃ©nĠdÃłĠ":6586,"ĠdÃ©ĠÄĽrĠ":6587,"ĠhÃ²uĠxuÇİnĠrÃ©nĠ":6588,"tÃ³uĠzÄ«":6589,"wÇİngĠluÃ²":6590,"1982ĠniÃ¡nĠ":6591,"mÇİĠlÇĲĠ":6592,"zÃ©ĠrÃ¨nĠ":6593,"fÄģngĠmiÃłnĠdeĠ":6594,"gÃ¨ĠzhÇĴngĠ":6595,"ĠMa":6596,"ĠsÃłiĠ":6597,"ĠshÃ¬ĠmÃŃnĠ":6598,"ĠhÃ©ĠdÃłĠ":6599,"diÃłnĠzi":6600,"lÇĲngĠdÃ¬Ġ":6601,"rÇİoĠ":6602,"ĠzÃłiĠcÃ¬":6603,"fÃłnĠwÃ©iĠnÃ¨iĠ":6604,"ĠĠĠqiÃ¡nĠ":6605,"ĠĠĠjÃ¹ĠqÃŃngĠ":6606,"zhÃ¨ĠlÇĲĠ":6607,"xiÄģngĠshÃ¬ĠdÃ¬Ġ":6608,"ĠyÃºĠrÃ©nĠ":6609,"zhÃ¨ngĠdÇİngĠ":6610,"yÇĲnĠqÃŃngĠ":6611,"ĠĠĠandĠĠĠ":6612,"ĠrÃ¬ĠbÃłoĠ":6613,"ĠlÃ¬ngĠyÄ«Ġ":6614,"xÃŃngĠchÃ©ngĠ":6615,"fÄģĠxÃŃngĠdeĠ":6616,"1983ĠniÃ¡nĠ":6617,"ĠjÄ«ĠhÅ«Ġ":6618,"Ġ188":6619,"zhÃŃĠjiÄĵ":6620,"fÄĵngĠwÃ¨iĠ":6621,"pÃłiĠdeĠ":6622,"ĠshÃ¬ĠgÃ¹Ġ":6623,"xÃ¬ĠbÄģo":6624,"ĠmÄĽiĠgÃ¨Ġ":6625,"ĠzhÃ¬ĠshÇİoĠ":6626,"biÇİoĠdÃ¡Ġ":6627,"yuÃłnĠyÃ¬Ġ":6628,"17Ġ":6629,"1945ĠniÃ¡nĠ":6630,"ĠtÄģĠhÃ©Ġ":6631,"jÃ¹ĠlÃ¨ĠbÃ¹Ġ":6632,"dÃºĠlÃ¬ĠdeĠ":6633,"ĠzhÄ«ĠfÃ¹Ġ":6634,"diÃłnĠnÇİo":6635,"jiÇĶĠlÃ³ngĠ":6636,"dÄģngĠxuÇİnĠ":6637,"yÇĶnĠxÇĶ":6638,"ĠĠĠchÅ«Ġ":6639,"hÃ¨ĠÄĽrĠ":6640,"miÃ¡nĠ":6641,"zÃ¬ĠrÃ¡n":6642,"ĠyÇĴuĠxiÃłoĠ":6643,"ĠlÃ¡i":6644,"ĠĠĠxiÃłnĠ":6645,"ĠÃ¨Ġ":6646,"bÃºĠ":6647,"wÄĵnĠdÃ¹Ġ":6648,"jÃ¬ĠchÃ©ngĠ":6649,"huÇĴĠshÄģnĠ":6650,"ĠyÃŃngĠ":6651,"ĠyÃ²ngĠyÃºĠ":6652,"ĠyÄ«ĠxiÇİoĠshÃŃĠ":6653,"ĠdÃłĠxÄ«ĠyÃ¡ngĠ":6654,"guÃ²ĠqÃ¹":6655,"pÃ¡iĠhÃ¡ngĠ":6656,"ÄģnĠdÃ©Ġ":6657,"jiÃ¹ĠdÃº":6658,"ĠdÅįngĠlÃŃnĠ":6659,"zhÄ«ĠchÃŃ":6660,"fÇİngĠwÃ¨n":6661,"mÃŃngĠzÃ¬Ġ":6662,"ĠzuÃ²ĠjiÄģĠ":6663,"jÇĲngĠchÃ¡":6664,"dÇİngĠyuÃ¡nĠ":6665,"xÇĲĠhuÄģn":6666,"qÅ«ĠyÃ¬ĠhuÃ¬Ġ":6667,"ĠdÃłĠfÃºĠ":6668,"ĠdÃ©ĠhuÃ¡Ġ":6669,"Ġ2012ĠniÃ¡nĠ":6670,"huÃłnĠchÃ©ngĠ":6671,"biÇİoĠyÇİn":6672,"xiÃłnĠzhÃ¬Ġ":6673,"yÃ¡ngĠshÃ¬Ġ":6674,"dÅįuĠzÃłiĠ":6675,"ĠdÃ¬ĠyÃŃĠgÃ¨Ġ":6676,"fÄģngĠyÃ¡nĠ":6677,"ĠyÇĶĠmÃ¡o":6678,"ĠchÅ«ĠzhÃłnĠ":6679,"bÇĲĠyÃł":6680,"ĠĠĠdÃ¬ĠfÄģngĠ":6681,"xiÄģngĠdÄģng":6682,"1ĠlÃ¬Ġ":6683,"ĠbÃ¬ngĠbÃ¨iĠ":6684,"tiÃ¡oĠzhÄĽng":6685,"qÅ«ĠhÃ©Ġ":6686,"40Ġ":6687,"ĠyÄ«ĠtÃ³ngĠ":6688,"ĠzhÅįngĠhuÃ¡ĠrÃ©nĠmÃŃnĠgÃ²ngĠhÃ©ĠguÃ³ĠzhÃ¨ngĠzhÃ¬ĠrÃ©nĠwÃ¹Ġ":6689,"ĠxiÃłnĠshÃ¬Ġ":6690,"jÄ«ngĠyÃłnĠ":6691,"pÇĶĠbiÃłnĠ":6692,"ĠdiÃłnĠyÇĲngĠ":6693,"zuÃ²ĠshÃ¬Ġ":6694,"ĠzhÅįngĠbÃ¨iĠ":6695,"guÄģnĠdiÇİnĠ":6696,"kÄĵĠdeĠqÃŃĠzhÅįngĠyÄ«ĠzhÇĴngĠ":6697,"ĠshuÅįĠ":6698,"ĠgÅįngĠyÃ¬Ġ":6699,"hÃ¡nĠyÇĴuĠ":6700,"ĠjÃ¬ĠsuÃłnĠ":6701,"xÃºnĠyÃ¡ng":6702,"ĠshÄĵngĠyÃºĠ":6703,"liÇİngĠmÃŃngĠ":6704,"diÇİnĠlÇĲĠ":6705,"zhÃ²ngĠduÅįĠ":6706,"jiÃłngĠdÄ«Ġ":6707,"dÃłĠzhÃ¬Ġ":6708,"ĠbÃ¬ngĠdÃº":6709,"ĠqÃŃĠzhÅįngĠyÄ«Ġ":6710,"yÃłĠjÅ«nĠ":6711,"shÃ¨ĠqÅ«Ġ":6712,"ĠfÄģnĠ":6713,"ĠĠĠ3":6714,"kÇĴuĠwÃ¨iĠ":6715,"chÃ©ngĠyuÃ¡nĠ":6716,"zhÄ«ĠqiÃ¡nĠ":6717,"mÃ¬ĠshÅ«ĠzhÇİngĠ":6718,"Ġ7Ġ":6719,"ĠjiÃ¹ĠshÃ¬Ġ":6720,"ĠdÃ¬ĠsÃ¬":6721,"ĠrÃ©ng":6722,"tiÃ¡oĠlÃ¬Ġ":6723,"nÃ¨iĠgÃ©Ġ":6724,"shÃ¹ĠyÇĶĠ":6725,"shÄģnĠshÃ¬Ġ":6726,"wÃºĠzhÃ¨ngĠzhuÃłngĠ":6727,"ĠxiÃłnĠrÃ¨nĠ":6728,"tÅ«ĠpÃ²Ġ":6729,"xiÄĽĠdÃłoĠ":6730,"dÃłngĠtiÄģnĠ":6731,"shÄĽĠ":6732,"yÃŃĠdÃ¹Ġ":6733,"ĠzÇĶĠfÃ¹Ġ":6734,"ĠnÃ©ngĠ":6735,"ĠpÃŃngĠjÅ«nĠ":6736,"guÃłĠ":6737,"ĠxÃŃngĠwÃ¨iĠ":6738,"ĠgÅįngĠmÃŃnĠ":6739,"xÄ«ngĠdÄĽngĠwÃ¨iĠ":6740,"ĠshÃ¬ĠyÃºĠ":6741,"ĠtÃ³ngĠyÃ¬Ġ":6742,"ĠliÃ¹":6743,"isĠĠĠ":6744,"hÃ³ngĠsÃ¨Ġ":6745,"ĠbÇĲĠsÃłiĠ":6746,"kÄģiĠshÇĲĠzÃłiĠ":6747,"Ġ0Ġ":6748,"ĠĠĠjÃŃĠ":6749,"tuÃ¡nĠdeĠ":6750,"gÄĽiĠleĠ":6751,"ĠjÄ«ĠjÄ«nĠ":6752,"sÇĲĠwÃ¡ng":6753,"zhÄĽngĠtÇĲĠ":6754,"zĠ":6755,"Ġc":6756,"Ġ500":6757,"lÇĶĠsÄ«Ġ":6758,"wÃ¡nĠzhÄĽng":6759,"ĠĠĠ2011":6760,"juÃ©ĠduÃ¬Ġ":6761,"ĠquÃ¡nĠlÃ¬Ġ":6762,"dÃłiĠbiÇİoĠdÃłĠhuÃ¬Ġ":6763,"chÃŃĠyÇĴuĠ":6764,"yÄ«ngĠwÃ©nĠ":6765,"5ĠrÃ©nĠ":6766,"zhÃ¨ngĠbÃ¹Ġ":6767,"ĠshÃ¬ĠbÄ«ngĠ":6768,"gÃłiĠniÃłn":6769,"bÄĽnĠrÃ©nĠ":6770,"ĠgÅįngĠjÃ¹Ġ":6771,"shÃ¨ĠshÄ«Ġ":6772,"ĠzuÃ¬ĠchÅ«Ġ":6773,"ĠsÅ«n":6774,"Ġ30Ġ":6775,"gÅįngĠchÃ©ngĠ":6776,"ĠzhÃ¨ĠzhÇĴng":6777,"xiÃłĠxiÃ¡ĠdeĠyÃŃĠgÃ¨Ġ":6778,"huÃ¡ngĠhÃ²uĠ":6779,"ĠĠĠÄģĠ":6780,"zhÇĴngĠzÃºĠ":6781,"ĠsuÃ¬ĠshÃŃĠ":6782,"ĠxÃ¬nĠ":6783,"ĠĠĠ2010":6784,"ĠĠĠ1Ġ":6785,"nÃŃĠÄĽrĠ":6786,"zhÃŃĠdÇİoĠ":6787,"ĠdeĠchÃ©ngĠjÃ¬Ġ":6788,"ĠjÃŃĠrÃ©nĠ":6789,"yÃŃĠdÃ¬ngĠ":6790,"ĠdÃ¡":6791,"lÃ¡iĠyuÃ¨Ġ":6792,"bÇİoĠshÇĴuĠ":6793,"jiÃ¨ĠshÃłoĠ":6794,"tÃ³uĠxiÃ¡ngĠ":6795,"guÃ¬ĠzÃºĠ":6796,"yÃ¬ĠniÃ¡nĠ":6797,"yuÃ¨ĠzhÅįngĠ":6798,"zhÃ¨nĠqÅ«ĠdeĠ":6799,"zÇİoĠqÄ«":6800,"bÃ³ĠshÃ¬ĠxuÃ©ĠwÃ¨iĠ":6801,"ĠĠĠqÃŃĠtÄģĠ":6802,"shÄģnĠjÄ«Ġ":6803,"qÇĲĠdÃ²ngĠ":6804,"tÄģngĠ":6805,"kuÃ¬Ġ":6806,"ĠwÃ©iĠÄĽr":6807,"gÇĶĠdÃłiĠ":6808,"ĠmÃŃngĠdÄģnĠ":6809,"mÃŃngĠrÃ©nĠ":6810,"zhÄĽnĠ":6811,"ĠdÃ©ĠyÇĶĠ":6812,"shÃ©nĠmeĠ":6813,"ĠyÄ«ĠzuÃ²Ġ":6814,"ĠyÇĲĠjÃŃ":6815,"ĠÃ©rĠgÄģiĠ":6816,"hÄĵiĠsÃ¨Ġ":6817,"yÄģoĠqÇĲng":6818,"teĠĠĠ":6819,"ĠrÃ©nĠmÃŃnĠzhÃ¨ngĠfÇĶĠ":6820,"ÄĵnĠshÄĽngĠ":6821,"tÃ²uĠguÃ²":6822,"3ĠgÃ¨Ġ":6823,"ĠxiÇİngĠniÃ¡nĠ":6824,"wÃºĠzhÃ¨ngĠzhuÃłngĠgÇİnĠrÇİnĠ":6825,"suÃŃĠzhÃ¹Ġ":6826,"sÄģĠ":6827,"mÃ¹ĠqiÃ¡n":6828,"huÃ³ĠyuÃ¨Ġ":6829,"chÃ¡ngĠwÃ¹Ġ":6830,"chÃ¡ngĠwÄĽiĠ":6831,"bÄĽiĠjÄ«ngĠshÃ¬Ġ":6832,"quÃ¨ĠzhÄĽnĠbÃ¬ngĠlÃ¬Ġ":6833,"mÃŃngĠzhÃ¬Ġ":6834,"ĠrÃ¬ĠyÃºĠ":6835,"gÇİiĠmÃŃngĠwÃ¨iĠ":6836,"chÅ«ĠshÄĵnĠ":6837,"diÃłnĠhuÃłĠ":6838,"Ġ2022":6839,"tÃºnĠ":6840,"ĠbÃ¹ĠsÄ«Ġ":6841,"ĠjÄ«ĠsÄ«Ġ":6842,"tÃłiĠziĠ":6843,"18Ġ":6844,"ĠbÇĲĠrÃºĠ":6845,"gÄģoĠsÃ¹ĠgÅįngĠlÃ¹Ġ":6846,"ĠĠĠgÄģi":6847,"kÃ¨ĠchÃ©ngĠ":6848,"kÃ¹nĠnÃ¡nĠ":6849,"ĠbÃ¹ĠlÃ¬Ġ":6850,"zuÃ¬ĠduÅįĠ":6851,"quÄĵĠfÃ¡":6852,"dÄģnĠdeĠ":6853,"lÃ³ngĠdeĠ":6854,"gÃ¨ngĠwÃ©iĠ":6855,"yÇĲĠjÄ«ngĠ":6856,"ĠÃ¨rĠshÃŃĠ":6857,"tÃŃĠjÃŃĠ":6858,"rÃ¹ĠxuÇİnĠ":6859,"ĠwÃ¨iĠyÃºĠzhÅįngĠguÃ³Ġ":6860,"sÄģiĠÄĽrĠwÃ©iĠ":6861,"7ĠrÃ©nĠ":6862,"huÃ¬ĠzhÅįngĠ":6863,"shÅįuĠjÃŃĠ":6864,"ĠlÃ¬ĠfÇİ":6865,"xuÃ©ĠhuÃ¬Ġ":6866,"ĠbÃ¬ngĠfÄĵiĠ":6867,"hÇİiĠxiÃ¡Ġ":6868,"gÃ²uĠdeĠ":6869,"ĠxÄ«ĠjiÄĵĠ":6870,"gÄĵĠlÃºnĠ":6871,"ĠjÄ«ĠchÇİng":6872,"jÃ¹ĠdÃłĠ":6873,"duÅįĠrÃ©nĠ":6874,"ĠchÃ©ngĠrÃ©nĠ":6875,"fÃ¹ĠzÃ©":6876,"ÄģnĠnÃł":6877,"zÃºĠqiÃºĠyÃ¹nĠdÃ²ngĠyuÃ¡nĠ":6878,"xiÄĽĠdeĠ":6879,"zhuÄ«ĠsÃ¹":6880,"kĠĠĠ":6881,"ĠyÃ²ng":6882,"Ġ2014ĠniÃ¡nĠ":6883,"ĠtÃ³ngĠshÃŃĠgÄģiĠdÃ¬Ġ":6884,"zuÃ²ĠchÅ«Ġ":6885,"bÄĵiĠsÄ«Ġ":6886,"ĠyÄĽĠzÃłiĠ":6887,"shÄĽngĠdeĠ":6888,"lÃ¬ngĠrÃ©nĠ":6889,"fÃłnĠzuÃ¬Ġ":6890,"huÃ¬ĠzhÃ¬Ġ":6891,"ĠdÃ©ĠzhÇĶĠ":6892,"tÇİoĠlÃ¹n":6893,"ĠyuÄĵ":6894,"tiÃłoĠ":6895,"ĠjÃŃĠdÃ¬Ġ":6896,"nÃ¨iĠlÃ¹ĠshÄĽngĠfÃ¨nĠ":6897,"ÄģnĠhuÄ«Ġ":6898,"kÄĵĠxuÃ©ĠjiÄģĠ":6899,"ĠZ":6900,"ĠyÄģoĠqiÃºĠ":6901,"tÃºĠxÃŃngĠ":6902,"ĠguÃ³ĠnÃ¨iĠ":6903,"pÄ«ĠzhÇĶn":6904,"jiÄģngĠzÃłiĠ":6905,"ĠbÃ¬ngĠdÃºĠ":6906,"shÃ¬ĠĠĠ":6907,"Ġh":6908,"cÃ¬ĠdeĠ":6909,"zhÃºĠbÃ¹Ġ":6910,"ĠdeĠdÃ¬ĠÃ¨rĠ":6911,"shÃ²uĠdeĠ":6912,"shÄģnĠdeĠ":6913,"ĠshÃ¬ĠyÄ«nĠwÃ¨iĠ":6914,"ĠkÃ¨ĠxÄ«Ġ":6915,"qiÃ¡ngĠliÃ¨Ġ":6916,"liÃ¡nĠhÃ©ĠhuÃ¬Ġ":6917,"ĠpÃ²Ġ":6918,"chÄģoĠyuÃ¨Ġ":6919,"1972ĠniÃ¡nĠ":6920,"jiÃ©ĠguÇĴ":6921,"tÃ¡iĠnÃ¡n":6922,"jiÇİnĠshÇİo":6923,"ĠĠĠCh":6924,"dÄ«ĠyÃºĠ":6925,"xiÃłĠlÃ¬ngĠshÃŃĠjiÄģnĠ":6926,"HĠ":6927,"hÇİiĠpÃŃngĠmiÃłnĠ":6928,"bÃºĠdÃłoĠ":6929,"ĠshÃŃĠqÄ«ĠdeĠ":6930,"ĠyuÃ¡nĠxÃŃngĠ":6931,"ĠwÃ¡nĠjiÄģĠ":6932,"yÄĽĠzÃłiĠ":6933,"ĠjÄ«ĠhuÃ¬Ġ":6934,"ĠxuÃ©ĠyuÃłn":6935,"yÃŃĠdÃ¬ng":6936,"huÄ«ĠfÃ¹":6937,"ĠchÃ¡":6938,"guÃ²ĠdeĠ":6939,"yÃłĠmÄĽiĠ":6940,"pÃłiĠqiÇİn":6941,"tÃŃĠgÅįngĠleĠ":6942,"biÄģnĠjiÃ¨Ġ":6943,"dÇĴngĠshÃ¬ĠzhÇİngĠ":6944,"NĠ":6945,"1978ĠniÃ¡nĠ":6946,"tÅįuĠ":6947,"jiÃłĠgÃ©Ġ":6948,"tÃŃĠyÃ¬Ġ":6949,"shÅ«ĠzhÅįngĠ":6950,"xÅ«nĠzhÄģngĠ":6951,"fÄģngĠfÇİ":6952,"shÄ«ĠbÃłiĠ":6953,"ĠjiÃłoĠyÃ¹Ġ":6954,"zhÇĶĠyÃłoĠdeĠ":6955,"zhÇĶĠjiÃło":6956,"ĠhÃłoĠdeĠ":6957,"nÃŃĠyÃłĠzhÅįuĠ":6958,"1979ĠniÃ¡nĠ":6959,"ĠhÃ²uĠbÃ¨iĠ":6960,"guÄģnĠchÃ¡Ġ":6961,"ĠxuÃ©ĠjiÄģĠ":6962,"liÃºĠxiÃłĠ":6963,"shuÄģngĠfÄģngĠ":6964,"ĠĠĠbÃ¨iĠjÇĲngĠ":6965,"Ã©rĠtÃ³ngĠ":6966,"ĠyÄ«ĠlÃ¬Ġ":6967,"jiÄģĠyÃ¬Ġ":6968,"ĠbÃ¹ĠduÃ¬":6969,"ĠyÇĲĠwÃ©iĠ":6970,"ĠzÃłiĠshÃŃĠ":6971,"liÃ¡nĠxÃ¹":6972,"xiÃłnĠdeĠ":6973,"qÄ«nĠzÃ¬Ġ":6974,"ĠÃ©rĠziĠ":6975,"Ġ1950":6976,"ĠyÇĴuĠsuÇĴĠ":6977,"zuÃ¬ĠgÄģoĠdeĠ":6978,"huÃ¬ĠyÃ¬ĠyuÃ¡nĠ":6979,"ĠĠĠ2Ġ":6980,"sÄģnĠjiÇİo":6981,"zhuÄģngĠjiÇİĠ":6982,"ĠĠĠdÃ¬ĠfÄģngĠzÄ«ĠliÃłoĠ":6983,"6ĠrÃ©nĠ":6984,"leĠzÃłiĠ":6985,"rÃ¨nĠwÃ¨iĠ":6986,"mÇİĠÄĽrĠ":6987,"lÃ¡nĠdeĠ":6988,"nÃ¡ĠxiÃłĠ":6989,"pÃŃngĠtÃ¡iĠ":6990,"fÄĵiĠchÃ¡ng":6991,"ĠĠĠjiÇİnĠjiÃ¨Ġ":6992,"duÅįĠwÃ¨iĠ":6993,"zÇĶĠfÃ¹Ġ":6994,"ĠhÃ©ĠyuÄĵĠ":6995,"bÃ¨iĠdeĠ":6996,"1976ĠniÃ¡nĠ":6997,"ĠlÃ¬ĠliÃłngĠ":6998,"ĠchÅ«ĠkÇĴuĠ":6999,"ĠtÄģĠcÃ©ngĠdÃłiĠbiÇİoĠ":7000,"ĠĠĠMa":7001,"ĠdÃ¬ĠlÇĲĠ":7002,"nÃ¡nĠbÄĽiĠ":7003,"gÇİiĠbiÃłn":7004,"nÃ©ngĠyuÃ¡nĠ":7005,"laĠ":7006,"ĠdÃ¬ĠqÄ«Ġ":7007,"ĠxiÃłnĠfÇİĠ":7008,"dÃŃĠshÃ¬Ġ":7009,"stĠ":7010,"ĠhÃ²uĠzhÄĽĠ":7011,"zÃ¬ĠdeĠ":7012,"tÃ¡iĠzhÅįngĠ":7013,"ĠzhÃ¨ngĠmÃŃngĠ":7014,"ĠshÃŃĠjÃ¬ĠshÃłngĠ":7015,"ĠchÃ©ngĠzhÃ¨nĠ":7016,"quÄĵĠfÃ¡Ġ":7017,"ĠmÃ©i":7018,"Ġ28":7019,"Ġ2015ĠniÃ¡nĠ":7020,"ĠĠĠRe":7021,"xuÇİnĠzhÅįngĠ":7022,"dÃŃĠrÃ©nĠ":7023,"ĠlÃ¬ĠyÃ¬Ġ":7024,"lÇĲĠhÃ©Ġ":7025,"liÇİoĠ":7026,"pÃłiĠchÅ«Ġ":7027,"ĠzhÅįngĠguÃ³ĠrÃ©nĠmÃŃnĠjiÄĽĠfÃłngĠjÅ«nĠ":7028,"ĠlÇĶĠ":7029,"duÅįĠzhÇĴngĠ":7030,"tÃ¡nĠpÃłnĠ":7031,"liÃ¡oĠnÃŃngĠ":7032,"pÃŃngĠwÃ¨iĠ":7033,"ĠshÃ¬ĠgÅįngĠ":7034,"ĠbÃ¹ĠshÇİoĠ":7035,"ĠsÄ«ĠtÇİĠ":7036,"tÃŃĠchÅ«ĠdeĠ":7037,"suÃŃĠjÃŃĠ":7038,"ĠsÃ¹Ġ":7039,"miÇİnĠdiÄģn":7040,"tuÃ¬ĠxiÅ«Ġ":7041,"ĠdÃłĠxuÃ©ĠdeĠ":7042,"hÇİiĠbÃ¡ĠwÃ¨iĠ":7043,"gÃłnĠbÃ¹Ġ":7044,"lÄĽiĠjÃ¬Ġ":7045,"ĠshÃŃĠxÃŃngĠ":7046,"yÄ«ngĠgÃ©ĠlÃ¡n":7047,"dÄģngĠzhÅįngĠ":7048,"xÃ¹ĠlÃ¬ĠyÃłĠ":7049,"juÃ©ĠyÃ¬Ġ":7050,"pÇĲĠ":7051,"shÄģngĠrÃ©nĠ":7052,"biÄģoĠbÄĽnĠ":7053,"fÄģĠshÄĵngĠzÃłiĠ":7054,"suÇĴĠcÇİiĠyÃ²ng":7055,"zhÇĲĠdÇİoĠ":7056,"ĠjÃ¹ĠjuÃ©Ġ":7057,"huÃłĠzhÅįngĠ":7058,"zÃłnĠshÃŃĠ":7059,"1958ĠniÃ¡nĠ":7060,"ĠfÃ¹ĠjÃ¬n":7061,"ĠzhÅįngĠgÃ²ngĠzhÅįngĠyÄģngĠ":7062,"ĠyÃ¬ĠqÃŃngĠ":7063,"nÃ³ngĠmÃŃnĠ":7064,"cÃ¬ĠyÃºĠ":7065,"cÃ©ngĠwÃ¨iĠ":7066,"yÃŃĠdÃłiĠ":7067,"ĠdÃ©ĠmÃŃngĠ":7068,"xiÅ«ĠgÇİiĠ":7069,"ĠĠĠyÄ«nĠ":7070,"shuÇĲĠlÃ¬Ġ":7071,"rÃ³ngĠhÃ©Ġ":7072,"ĠzhÅįngĠguÃ³ĠdeĠ":7073,"fÄģĠmÃŃngĠ":7074,"mÄĽiĠzhÅįu":7075,"ĠqÃŃĠwÃ¨iĠ":7076,"zhÇĲĠnÃ©ngĠ":7077,"zÄ«ĠliÃło":7078,"ĠmÃŃngĠzhÃ¬Ġ":7079,"1ĠĠĠ":7080,"ĠchÃº":7081,"zhuÇİnĠxiÃłngĠ":7082,"ĠgÅįngĠzhÃ²ngĠ":7083,"zhÇĴngĠziĠ":7084,"zhÇĶĠyÇİnĠ":7085,"zÄ«ĠbÄĽnĠ":7086,"ÄģĠlÄģĠbÃ³":7087,"xiÄģngĠsÃ¬Ġ":7088,"jiÄĵĠchÃ¹Ġ":7089,"ĠbÄĽiĠjÄ«ng":7090,"kÄģiĠshÃ¨Ġ":7091,"xiÅ«ĠjiÃłnĠ":7092,"guÄģnĠchÃ¡":7093,"ĠbÇİ":7094,"jÃ¬ngĠjÃ¬Ġ":7095,"jiÄĽĠsÃłnĠ":7096,"ĠdeĠshÃ¬ĠjiÃ¨Ġ":7097,"Ġ2016ĠniÃ¡nĠ":7098,"wÇĶĠzhuÄģng":7099,"bÃłoĠzhÃłĠ":7100,"diÃłnĠjÄ«Ġ":7101,"chÄģiĠchÃºĠ":7102,"cnĠ":7103,"kÄģiĠtÅįngĠ":7104,"fÄģĠqÇĲĠ":7105,"fÄģĠshÃ²uĠ":7106,"jÇĶĠbÃłnĠdeĠ":7107,"ngĠĠĠ":7108,"shÄĵnĠdÃ¹Ġ":7109,"ÄģnĠpÃ¡i":7110,"ĠdiÃłnĠshÃ¬Ġ":7111,"qÅ«ĠshÃ¬Ġ":7112,"nÇĶĠ":7113,"2025ĠniÃ¡nĠ":7114,"ĠtÃ¡ng":7115,"wÃ©iĠsÄ«Ġ":7116,"tuÃ¡nĠtÇĲ":7117,"xĠĠĠ":7118,"jÄ«ĠgÃ²uĠ":7119,"fÃ¹ĠzhÇĶĠrÃ¨nĠ":7120,"zÇĶĠzhÄ«ĠdeĠ":7121,"fÄĵngĠxiÇİnĠ":7122,"diÃłoĠkuÃłi":7123,"ĠĠĠqÃŃ":7124,"chÃ©ngĠhÃ©Ġ":7125,"biÄģnĠjÃ¹Ġ":7126,"ĠyÇĶĠqÃŃĠtÄģĠ":7127,"zhÄģngĠzhuÄģnĠjÃŃĠ":7128,"ĠjiÇİ":7129,"ĠcnĠ":7130,"ĠĠĠduÃ¬Ġ":7131,"jiÃ©ĠdeĠ":7132,"zÃłoĠleĠ":7133,"ĠwÃ¨iĠUTCĠ":7134,"ĠbÃ¹ĠjÃŃĠ":7135,"ĠzhÅįngĠshÄģnĠ":7136,"nÃ©ngĠliÃłngĠ":7137,"shuÃłiĠlÇĲng":7138,"shÇĴuĠzhÅįngĠ":7139,"bÃłnĠshÃ¬ĠchÃ¹Ġ":7140,"ĠĠĠw":7141,"qiÃºĠjÃ¬Ġ":7142,"yÄ«ngĠgÄģiĠ":7143,"ĠxÄ«ĠbÄģnĠyÃ¡Ġ":7144,"yÃ³uĠjÄ«Ġ":7145,"luÃ³ĠlÇĲĠ":7146,"gÃ©ĠlÄģĠ":7147,"jiÃ¹ĠdÃºĠ":7148,"shÄģngĠyÃ¨":7149,"diÃłoĠkuÃłiĠyÄ«ĠxiÇİoĠshÃŃĠ":7150,"ĠgÄĵ":7151,"zÃ©ĠzÃłiĠ":7152,"ĠdeĠyÇĲngĠxiÇİngĠ":7153,"ĠniÃ¡nĠlÃ¡iĠ":7154,"qiÃ¡ngĠdiÃłoĠ":7155,"Ġ19":7156,"ĠwÃ¨iĠdÃłĠ":7157,"ĠjÃŃĠUTCĠ":7158,"yÄ«ngĠxiÃ³ngĠ":7159,"ĠtÃ³ngĠyÃłng":7160,"kÄĵĠxuÃ©ĠyuÃłnĠ":7161,"shÃ¨ĠyÇĴuĠxiÃłĠlÃ¬ngĠshÃŃĠjiÄģnĠ":7162,"ĠdeĠshÃŃĠqÅ«ĠwÃ¨iĠUTCĠ":7163,"ĠÃ©rĠgÄģiĠdÃ¬ĠsuÇĴĠcÇİiĠyÃ²ng":7164,"ĠtÃ³ngĠshÃŃĠgÄģiĠdÃ¬ĠshÃ¨ĠyÇĴuĠxiÃłĠlÃ¬ngĠshÃŃĠjiÄģnĠ":7165,"ĠÃ©rĠgÄģiĠdÃ¬ĠsuÇĴĠcÇİiĠyÃ²ngĠdeĠshÃŃĠqÅ«ĠwÃ¨iĠUTCĠ":7166,"shuÄģiĠ":7167,"xiÄģoĠfÃ¨iĠ":7168,"xÃ¬nĠyÇİngĠ":7169,"tÄģĠmenĠdeĠ":7170,"ĠdÃłĠjiÇİngĠ":7171,"jiÃłoĠtÃ¡ng":7172,"bÇİoĠliÃº":7173,"ĠlÃ¬ngĠyÇĴuĠ":7174,"ĠyÄ«ĠsÄ«ĠlÃ¡nĠ":7175,"arĠ":7176,"kÃ¹nĠ":7177,"yuÃ¡nĠzhÃ¹Ġ":7178,"tÃłiĠdÃ¹Ġ":7179,"chuÃ¡nĠbÅįĠ":7180,"ĠgÄģiĠcÅ«nĠ":7181,"suÇĴĠzÃłiĠdÃ¬Ġ":7182,"quÃ¨ĠdeĠ":7183,"pÃ¨iĠzhÃ¬Ġ":7184,"zhÄ«ĠjiÄģnĠdeĠ":7185,"ĠĠĠjiÄģoĠtÅįngĠ":7186,"fÄģĠshÃ¨":7187,"ĠshÃŃĠwÃ¹Ġ":7188,"dÃ¬ngĠjÅ«Ġ":7189,"ĠlÃ¬ĠshÇĲĠshÃłngĠ":7190,"gÄģoĠyÃºĠhÇİiĠpÃŃngĠmiÃłnĠ":7191,"ĠzhÄĵngĠ":7192,"ÇĴuĠ":7193,"ĠmÇİĠlÃ¡i":7194,"ĠwÃ¨iĠfÃºĠqÃŃĠyÃºĠgÄģngĠ":7195,"xÃ¬ngĠwÃ¨iĠ":7196,"zhÃºĠjiÃłn":7197,"ĠbÃ¹ĠnÃ©ng":7198,"ĠgÅįngĠjuÃ©Ġ":7199,"ĠÄĽrĠduÅįĠ":7200,"wÃ¹ĠhÃ©Ġ":7201,"hÃ¹ĠxiÄģngĠ":7202,"ĠqÃŃĠxiÃłĠ":7203,"8ĠrÃ©nĠ":7204,"chÃ¹ĠdeĠhÇİiĠbÃ¡ĠwÃ¨iĠ":7205,"chÃ¹ĠdeĠhÇİiĠbÃ¡ĠwÃ¨iĠgÄģoĠyÃºĠhÇİiĠpÃŃngĠmiÃłnĠ":7206,"hÃ²uĠwÃ¨iĠ":7207,"ĠyÃºĠlÃ¨":7208,"ĠyÄ«nĠsÃ¹Ġ":7209,"Ġ23":7210,"ĠkuÄģn":7211,"ĠĠĠqÄ«ngĠ":7212,"tÇĲĠzhÃ¬Ġ":7213,"jÃ¬ngĠxuÇİnĠ":7214,"ĠdÄģn":7215,"wÃ¹ĠshÃ¬Ġ":7216,"chÇİngĠsuÇĴĠ":7217,"ĠzhÄ«ĠyÃ¬Ġ":7218,"kuÃ¡ngĠ":7219,"ĠhÃ©ĠpÃłnĠ":7220,"ĠbÃ¹ĠjÇĲnĠ":7221,"ĠyÇĲĠxÄ«Ġ":7222,"fÄģĠxiÃłnĠdeĠ":7223,"zhÃ²ngĠshÃ¬Ġ":7224,"ĠqÃŃĠshÃŃĠ":7225,"ĠsuÃŃĠzhÃ¹Ġ":7226,"ĠĠĠ17":7227,"lÃ¹ĠzhÃ¬Ġ":7228,"nÃ¡nĠjÄ«ng":7229,"zhÇİngĠdÃ¡Ġ":7230,"yÃ¹nĠshÅ«":7231,"Ġ2008":7232,"Ġ2017ĠniÃ¡nĠ":7233,"shÃ¹ĠshÃŃĠ":7234,"nÃ¨iĠdÃ¬Ġ":7235,"Ġ8Ġ":7236,"ĠnÇĲĠ":7237,"ĠĠĠIn":7238,"shÃŃĠqÅ«Ġ":7239,"gÄģoĠxiÃ³ng":7240,"chÃ³ngĠqÃ¬ng":7241,"ĠĠĠmÇİĠ":7242,"jiÃłnĠchÃ©ngĠ":7243,"gÄĵngĠxÄ«nĠ":7244,"ĠyÄ«ĠjiÄģĠ":7245,"ĠxÄ«ĠlÃ¡nĠ":7246,"yÃ¹nĠyÃ²ngĠ":7247,"ĠzÃ¬ĠrÃ¡nĠ":7248,"ĠhÃº":7249,"ĠxiÃ¨Ġ":7250,"bÃ¬ĠyÃ¨ĠhÃ²uĠ":7251,"Ġ24":7252,"ĠĠĠrÃ¡n":7253,"Ã¨rĠjÃŃĠ":7254,"biÄģnĠhÃłoĠ":7255,"ĠlÃ¬ĠrÃ¨nĠ":7256,"diÃłnĠqÃ¬Ġ":7257,"shÄģnĠfÄĵngĠ":7258,"ĠwÃ¨iĠyÃºĠgÄģiĠ":7259,"ĠxÅ«Ġ":7260,"ĠzhÃ¨ngĠzhÃ¬Ġ":7261,"qiÃłĠ":7262,"wÃ©iĠÄĽrĠ":7263,"zhÃŃĠzhÃ¨ngĠ":7264,"ĠhuÃłnĠ":7265,"zhÄĽĠshÃ¬Ġ":7266,"wÃ¡ngĠshÃ¬Ġ":7267,"ĠzuÃ²ĠchÅ«Ġ":7268,"xiÃłoĠqÅ«Ġ":7269,"xiÃ¡ĠqÅ«Ġ":7270,"ĠĠĠp":7271,"ĠĠĠbÄĽn":7272,"bÄģoĠwÃ©iĠ":7273,"bÃłngĠqiÃºĠ":7274,"ĠdÃ¬ĠqiÃº":7275,"xuÄģnĠchuÃ¡n":7276,"xuÃ©ĠyuÃ¡nĠ":7277,"jiÃ¹ĠhuÃ¬Ġ":7278,"cuÃ²ĠwÃ¹Ġ":7279,"jÄ«nĠrÃ³ngĠ":7280,"ĠyÃ¹ĠshÇĲĠ":7281,"ĠliÃ¡nĠhÃ©Ġ":7282,"dÅįngĠfÄģngĠ":7283,"hÃ²uĠyÃ¬Ġ":7284,"bÄĽiĠshÃ¬Ġ":7285,"jÄ«ngĠchÃ¡ng":7286,"ĠrÃ¡nĠÃ©r":7287,"ĠdÃłi":7288,"ĠyÃŃ":7289,"ĠjiÃ©ĠkÃ¨Ġ":7290,"huÃ¬ĠyÃºĠ":7291,"ĠsÄ«ĠkÄĵĠ":7292,"ĠduÃ¬ĠshÇĴuĠ":7293,"ĠxÃŃngĠzhÃ¨ngĠqÅ«Ġ":7294,"zhÃ¨nĠqÅ«ĠdeĠmiÃłnĠjÄ«ĠwÃ¨iĠ":7295,"mÃŃngĠshÃ¬Ġ":7296,"ĠzhÅįuĠcÃ¬ĠshÇĲĠ":7297,"ĠshÄĵngĠyÃ¡Ġ":7298,"jiÄģĠyÇĲĠ":7299,"jÃºĠdeĠ":7300,"pÇİoĠ":7301,"ĠshÄģ":7302,"fÃºĠdeĠ":7303,"mÇİĠkÃ¨Ġ":7304,"ĠtÄģĠyÇĲĠ":7305,"ĠyuÃ¡nĠzÃ¬Ġ":7306,"zÃłoĠchÃ©ngĠdeĠ":7307,"ĠY":7308,"kÄĽĠzÃłiĠ":7309,"ĠlÇĲĠxÄ«Ġ":7310,"zhÃŃĠmÃŃnĠ":7311,"Ġ2023":7312,"chÃ¡nĠ":7313,"gÅįngĠgÃ²ngĠ":7314,"pÃŃngĠlÃ¹n":7315,"fÅ«ĠkÇİĠ":7316,"ĠfÃºĠwÃ¹Ġ":7317,"ĠdÄģngĠshÃŃĠdeĠ":7318,"ÃłoĠzhÅįuĠ":7319,"ĠyÄ«ĠjÃ¹Ġ":7320,"jÃ¬ĠyÇĴuĠ":7321,"shÇĲĠjiÃłnĠyÃºĠ":7322,"rÃ¨nĠdeĠ":7323,"yÄĽĠbÃ¨iĠ":7324,"miÃłnĠshÃłngĠ":7325,"ĠsÄ«ĠkÃ¨":7326,"ĠÃ©rĠtÃ³ngĠ":7327,"ĠcÃ¬ĠniÃ¡nĠ":7328,"ĠqÄ«nĠ":7329,"Ġ2018ĠniÃ¡nĠ":7330,"ĠxuÃ©ĠzhÄĽĠ":7331,"ĠjiÃłnĠshÃ¨":7332,"ĠwÃ©iĠrÃło":7333,"ĠyÄĽĠbÃ¨iĠ":7334,"qiÄģnĠshÇĶĠ":7335,"ĠqÃŃĠzhÅįngĠbÄģoĠkuÃ²Ġ":7336,"ĠtÃŃngĠ":7337,"ĠbÇİnĠ":7338,"jiÄģĠzÃłiĠ":7339,"bÃłnĠdeĠ":7340,"Ġ2009":7341,"hÇİiĠyÃ¡ngĠ":7342,"fĠ":7343,"ĠbÇİi":7344,"jÄ«ĠzÃłiĠ":7345,"lÃ¡iĠyÄ«nĠ":7346,"jÃ¹nĠgÅįngĠ":7347,"tÅ«ĠrÃ¡nĠ":7348,"ĠjÃŃĠdÃłĠ":7349,"jÃ¬ĠniÃłn":7350,"ĠdÃ©ĠzhÄ«Ġ":7351,"ĠjÄ«ĠjÄ«nĠhuÃ¬Ġ":7352,"qÃ¬ĠchÄĵ":7353,"xiÃłoĠlÃ¬ĠyÃºĠ":7354,"Ġ2019ĠniÃ¡nĠ":7355,"rÃºĠguÇĴĠ":7356,"lÃ¬ngĠyÃŃĠgÃ¨Ġ":7357,"xiÄģoĠshÄ«Ġ":7358,"tiÃ¡nĠjÃ¬ngĠ":7359,"tÃ¡oĠtÃłiĠ":7360,"ĠwÃ¨iĠduÃ¬Ġ":7361,"dÄģngĠdÃ¬ĠdeĠ":7362,"jiÃłngĠlÇĲngĠ":7363,"yÃ¡nĠhÇİiĠ":7364,"wÄĽiĠyuÃ¡nĠhuÃ¬ĠwÄĽiĠyuÃ¡nĠ":7365,"ĠgÇİnĠ":7366,"1968ĠniÃ¡nĠ":7367,"ĠlÇĲĠyÃłĠ":7368,"Ġ2ĠyuÃ¨Ġ":7369,"ĠĠĠjÇĲnĠ":7370,"pÃŃngĠyuÃ¡nĠ":7371,"dÄĽngĠjÃŃĠ":7372,"Ã¨rĠrÃ©nĠ":7373,"bÃ¨iĠjÇĲngĠ":7374,"kÇİĠluÃ³Ġ":7375,"ĠbÃłiĠ":7376,"ĠĠĠshÃ¨ngĠ":7377,"duÃ¬ĠqÃŃĠ":7378,"jÃ¬nĠbÃ¹Ġ":7379,"liÇİngĠguÃ³Ġ":7380,"tÃ¨ĠdÃ¬ngĠ":7381,"fÃ¨nĠzÇĲ":7382,"ĠyÃºnĠ":7383,"dÃłĠbÃ¹Ġ":7384,"dÃ¬ngĠyÃºĠ":7385,"ĠqÃŃĠdeĠ":7386,"ĠdeĠbÃ¹ĠfÃ¨nĠ":7387,"zhÃŃĠmÃŃnĠdÃ¬Ġ":7388,"Ġ26":7389,"ĠfÄģĠxiÃłnĠ":7390,"jiÃłoĠdÃłĠ":7391,"ĠzhÃ¬ĠzuÃ²ĠdeĠ":7392,"ĠjÄ«ĠdÅ«Ġ":7393,"gÇİiĠzÃłoĠ":7394,"chuÃ¡nĠtÇĴngĠdeĠ":7395,"shÄĵngĠyÃ¡":7396,"diÃłnĠnÇİoĠ":7397,"ĠbÃ¹ĠbÃ¹ĠzhÇİngĠ":7398,"guÄģnĠjiÃłnĠ":7399,"jÄ«ngĠshÃ©n":7400,"ĠqiÃ¡nĠwÇİngĠ":7401,"diÇİnĠshÃ¬Ġ":7402,"yÃ¬ĠshÃ¹Ġ":7403,"lÃŃĠkÄģi":7404,"quÃ¡nĠmiÃłnĠ":7405,"mÃ²ĠxÄ«ĠgÄĵĠ":7406,"ĠshÇĴu":7407,"zhÃ¨nĠdeĠ":7408,"tuÄ«ĠchÅ«":7409,"gÇĴuĠ":7410,"guÃ³ĠjiÄģ":7411,"ĠdÃ¬ĠtiÄĽ":7412,"ĠxiÃłnĠyÇĲĠ":7413,"ĠjÄ«ĠchÇĶ":7414,"ĠjÃ¹ĠlÃŃ":7415,"ĠxiÃ¡nĠ":7416,"ĠluÃ³ĠmÇİĠ":7417,"gÃ©ĠshÃ¬Ġ":7418,"touĠ":7419,"ĠshÃŃĠduÃłnĠ":7420,"jiÄĵĠduÃłn":7421,"liÇİngĠcÃ¬Ġ":7422,"ÃłiĠÄĽrĠlÃ¡nĠ":7423,"wÃ©nĠdeĠ":7424,"sÄģnĠmÃŃngĠ":7425,"hÅ«nĠyÄ«nĠ":7426,"dÃłĠlÃ¹":7427,"ĠyÃ¬ĠyÃºĠ":7428,"shÅ«ĠyuÃłnĠ":7429,"ĠshÄģnĠdÅįngĠ":7430,"ÄģĠlÄģĠbÃ³Ġ":7431,"ĠxiÄģn":7432,"ĠĠĠnÃ¡nĠ":7433,"mÃ¹ĠdeĠ":7434,"bÅįĠsÄ«Ġ":7435,"huÃ¬ĠzhÇİngĠ":7436,"mÇİnĠzÃºĠ":7437,"ĠdiÃłnĠyÇĲng":7438,"ĠxÄ«ng":7439,"qÄ«ĠwÃ¨iĠ":7440,"pÃ¨iĠyÄ«nĠ":7441,"ĠdÃ¬ĠdiÇİnĠ":7442,"jÃ¬ngĠzhÄĵngĠ":7443,"cÃ¡iĠnÃ©ngĠ":7444,"xÄ«nĠchÃ©ngĠ":7445,"liÇİngĠwÃ¨iĠ":7446,"1970ĠniÃ¡nĠ":7447,"zhÃ¨ngĠjÃ¹Ġ":7448,"liÃ¡nĠdeĠ":7449,"xiÅ«ĠfÃ¹Ġ":7450,"ĠbÃ¬ngĠyÃ³uĠ":7451,"hÃ¹ĠliÃ¡nĠ":7452,"chÅ«ĠbÇİn":7453,"ĠyÃ³uĠjÄ«Ġ":7454,"ĠwÃºĠfÇİĠ":7455,"lÄģĠjÄ«Ġ":7456,"kÃłoĠjÃ¬nĠ":7457,"ĠdÃ¬ĠdÃłiĠ":7458,"ĠlÃ¬ĠshÃŃĠ":7459,"jiÄĽĠfÃłngĠ":7460,"nÃ¨iĠzhÃłnĠ":7461,"bÅįĠshÃ¬Ġ":7462,"ĠwÃ©iĠchÃŃ":7463,"zÄģiĠpÃ©iĠ":7464,"ĠliÃ¹Ġ":7465,"duÃ¬ĠzhÇİngĠ":7466,"fÄģĠqÇĲ":7467,"jÅ«ĠzhÃ¹ĠzÃłiĠ":7468,"shÅįuĠgÃ²uĠ":7469,"ĠwÃ¡nĠ":7470,"zhÃ¨ĠshÃ¬Ġ":7471,"zÇİoĠzÃłiĠ":7472,"ĠchÅįngĠ":7473,"bÃ¬ngĠbÃ¹Ġ":7474,"shÇĴuĠxiÃłngĠ":7475,"shÄģnĠqÅ«Ġ":7476,"zÃºĠqiÃºĠjÃ¹ĠlÃ¨ĠbÃ¹Ġ":7477,"lÇĲĠchÃ©ngĠ":7478,"jiÄģoĠliÃº":7479,"ĠguÃ³ĠwÃ¹ĠyuÃłnĠ":7480,"ĠgÄĵnĠ":7481,"qÇĲĠyuÃ¡nĠ":7482,"wÄĽiĠfÃ¹Ġ":7483,"neĠ":7484,"ĠshÃ¬ĠdÃ©ĠguÃ³Ġ":7485,"cÅ«nĠluÃ²Ġ":7486,"fÅ«ĠdeĠ":7487,"jÄ«ĠchÇĶ":7488,"ĠdÃłĠlÃ³u":7489,"yÃ¡nĠsÃ¨Ġ":7490,"xiÃłngĠzhÄĵngĠ":7491,"ĠwÃ©iĠsÄ«Ġ":7492,"tiÄģnĠtÇĲĠ":7493,"dÅįuĠbÃ¨iĠ":7494,"ĠbÃ¹ĠbÄ«ngĠ":7495,"ĠyÇĶĠyÃ¡n":7496,"ĠĠĠdÃ¬ĠÃ¨rĠ":7497,"VĠ":7498,"Ġ2004ĠniÃ¡nĠ":7499,"liÃ¹ĠshÃŃĠ":7500,"ĠzhÃ¬ĠliÃłngĠ":7501,"ĠzhÅįuĠfÇĶĠ":7502,"lÃ¡ngĠzhÅįngĠ":7503,"ĠyÄ«ĠyuÃłn":7504,"ĠxÃŃngĠmÃ¹Ġ":7505,"chÃ¡ngĠdÃ¹Ġ":7506,"ĠdÄ«ngĠ":7507,"xÃ¬ngĠhÃ©Ġ":7508,"ĠyÇĲĠwÃłiĠ":7509,"luÃ²ĠfÃ¡":7510,"1956ĠniÃ¡nĠ":7511,"ĠzhÃ¬ĠdÃ¬Ġ":7512,"ĠyÇĶĠyÄ«Ġ":7513,"wÃºĠzhÃ¨ngĠzhuÃłngĠgÇİnĠrÇİnĠzhÄĽĠ":7514,"ĠĠĠ2008":7515,"liÃłngĠwÃ¨iĠ":7516,"mÇĶĠdeĠ":7517,"juÃłnĠ":7518,"ĠdÃ©ĠsÄ«Ġ":7519,"shÄ«ĠqÃ¹":7520,"Ġ2020ĠniÃ¡nĠ":7521,"zuÃ¬ĠchÅ«":7522,"ĠyÃ¬ĠshÃ¬Ġ":7523,"ĠĠĠ4":7524,"xiÄĽĠzuÃ²Ġ":7525,"mÃ¨ngĠjiÄģĠ":7526,"ĠbÇİo":7527,"tÃ¨ĠxÃ¬ngĠ":7528,"ĠwÃ¨iĠyÃºĠmÄĽiĠguÃ³Ġ":7529,"ĠzÃ¡ĠzhÃ¬Ġ":7530,"jiÇİĠdÃ¬Ġ":7531,"tÃłiĠyÃ¡ng":7532,"ÃłoĠmÃ©n":7533,"ĠzuÃ¬ĠjiÄģĠ":7534,"2ĠgÃ¨Ġ":7535,"1981ĠniÃ¡nĠ":7536,"zhÃŃĠyÃ¨ĠshÄĵngĠyÃ¡Ġ":7537,"fÃºĠlÃ¬Ġ":7538,"1920ĠniÃ¡nĠ":7539,"ĠxiÃłnĠjÃŃĠ":7540,"fÃ¹ĠhÃ©Ġ":7541,"suÇĴĠdeĠ":7542,"zhuÃłnĠdeĠ":7543,"1960ĠniÃ¡nĠ":7544,"zÅįngĠyÃ¬Ġ":7545,"zÃ¬ĠmÇĶĠ":7546,"lÃŃngĠchÃ©nĠ":7547,"ĠcÄģnĠyÃ¹Ġ":7548,"suÇĴĠwÃ¨iĠ":7549,"tÃ²uĠlÃ¹Ġ":7550,"chuÃ¡ngĠ":7551,"dÅįngĠbÄĽi":7552,"juÃ©ĠshÃ¬Ġ":7553,"ĠyÃŃĠgÃ¨":7554,"ÇĴuĠxiÃłngĠ":7555,"kÇİoĠshÃ¬Ġ":7556,"ĠfÃºĠjiÃłnĠ":7557,"9ĠrÃ©nĠ":7558,"ĠĠĠgÃ¨ĠrÃ©nĠ":7559,"zÇĴngĠrÃ©nĠkÇĴuĠ":7560,"1964ĠniÃ¡nĠ":7561,"ĠdÃ¬ĠfÄģng":7562,"ĠxiÃłnĠchÃ©ngĠ":7563,"ĠlÇĲĠkÃ¨Ġ":7564,"chĠ":7565,"ĠdÃ©ĠlÄģĠ":7566,"kÅįngĠqÃ¬Ġ":7567,"Ġ50":7568,"ĠnuÃ²Ġ":7569,"pÃŃngĠdeĠ":7570,"nÃłĠdeĠ":7571,"zuÃ²ĠwÃ©i":7572,"zhÇĶĠzhÄģngĠ":7573,"xÄ«ĠhÃ©Ġ":7574,"xÄ«ĠnÃ¡nĠ":7575,"huÃŃĠyÃ¬Ġ":7576,"fÃ©nĠ":7577,"ĠyÇĲĠzÃłiĠ":7578,"ĠyÄĽĠkÄĽĠyÇĲĠ":7579,"pÃºĠtÃ¡oĠyÃ¡Ġ":7580,"ĠfÄģĠxÃŃngĠ":7581,"siĠ":7582,"ĠzuÃ²ĠzhÃłnĠ":7583,"ĠtÃłi":7584,"qÄ«ĠshÃŃĠ":7585,"zÇĴuĠxiÃłngĠ":7586,"ĠchÃ©ngĠkÃ¨Ġ":7587,"sÅ«ĠgÃ©ĠlÃ¡nĠ":7588,"xÃºnĠzhÇİo":7589,"ĠkÃ¹Ġ":7590,"ĠĠĠrÃ©nĠ":7591,"chÄĵĠduÃ¬Ġ":7592,"ĠÄĽrĠshÃ¬Ġ":7593,"nÃ¡nĠdeĠ":7594,"guÃ²ĠleĠ":7595,"hÃ¹ĠbÃ¹Ġ":7596,"ĠdÃ¬ĠtÃºĠ":7597,"ĠyuÃ¡nĠbÄĽn":7598,"ĠchÅ«ĠdÃłoĠ":7599,"yÃ¬nĠnÃŃĠ":7600,"Ġ2007":7601,"Ġ35":7602,"Ġ2021ĠniÃ¡nĠ":7603,"wÇĶĠshÃ¬Ġ":7604,"shÅįuĠdÃłoĠ":7605,"wÇİĠÄĽrĠshÄĽngĠ":7606,"xÃ¬nĠyÇİng":7607,"ĠsÅ«nĠ":7608,"gÇĶĠlÃ¬Ġ":7609,"guÇİnĠzhÃ¬Ġ":7610,"ĠgÅįngĠlÇĲĠdeĠ":7611,"shÇĲĠshÃłngĠ":7612,"zhÇĶĠyÃ¬ĠzhÄĽĠ":7613,"ĠzhÄĵn":7614,"1948ĠniÃ¡nĠ":7615,"ĠwÃ¨iĠyuÃ¡nĠ":7616,"ĠyÇĲĠyÃºĠ":7617,"guÃ²ĠdÃ¹Ġ":7618,"ĠshÃŃĠyÃłnĠshÃ¬Ġ":7619,"ĠkÇİi":7620,"yÃ¡nĠrÃ©nĠ":7621,"luÃ²ĠchÃ©ngĠ":7622,"xiÇİnĠzhÃ¹Ġ":7623,"1975ĠniÃ¡nĠ":7624,"guÃ³ĠwÃ¹Ġ":7625,"guÇİngĠchÇİng":7626,"ĠsÄ«ĠlÃ¬ngĠbÃ¹Ġ":7627,"5ĠmÇĲĠ":7628,"shÇĲĠrÃ©nĠ":7629,"dÃ¹ĠhÃ©Ġ":7630,"jiÄģngĠyÃºĠ":7631,"bÃ¬ĠdeĠ":7632,"mÃłiĠkÃ¨Ġ":7633,"ĠdÃ¬ĠliÃ¹Ġ":7634,"wÃłngĠyuÇİnĠ":7635,"xÄ«ĠdÃ¬Ġ":7636,"xiÅ«ĠdÃłoĠ":7637,"baĠ":7638,"ĠdÃłĠgÅįngĠ":7639,"ĠfÃ¹ĠjÃ¬nĠdeĠ":7640,"zhuÄģnĠyÃ¨":7641,"ĠkÇĴuĠ":7642,"sÃ¬ĠdeĠ":7643,"shÇĴuĠdÅ«":7644,"gÃ©ĠlÃŃĠ":7645,"shÃłoĠnÇļĠ":7646,"shÃłngĠxiÃłnĠ":7647,"yÃ¡nĠzhÃ¬Ġ":7648,"ĠdiÃłoĠ":7649,"yÃºĠhÃ©Ġ":7650,"xiÄģngĠguÄģnĠdeĠ":7651,"dÅįngĠjÄ«ng":7652,"dÄĽngĠdÄĽngĠ":7653,"dÃ¬ĠhÃ©Ġ":7654,"fÃłngĠzÃłiĠ":7655,"ĠjÃŃĠshÇĲĠ":7656,"jiÄģnĠyÃ¹Ġ":7657,"miÇİnĠfÃ¨iĠ":7658,"ĠdÇİngĠ":7659,"jiÇİoĠdÃ¹Ġ":7660,"zuÇĴĠyÃ¬Ġ":7661,"ĠchÃ©ngĠbÄĽnĠ":7662,"wÃ©iĠzhÇĶĠ":7663,"fÇİnĠhuÃŃ":7664,"ĠtiÃ¡oĠ":7665,"bÃ¨iĠchÄĵngĠwÃ©iĠ":7666,"ĠxÃŃngĠdÃ²ng":7667,"cÇİiĠqÇĶ":7668,"guÇİnĠlÇĲĠjÃºĠ":7669,"ĠxiÇİoĠshÃŃĠ":7670,"hÃºnĠ":7671,"1952ĠniÃ¡nĠ":7672,"tÃ¡iĠbÄĽiĠshÃ¬Ġ":7673,"Ġ29":7674,"ĠyuÃ¨ĠduÃ¬Ġ":7675,"ĠjÅ«nĠqÅ«Ġ":7676,"bÃ¬ĠmiÇİn":7677,"kÅįngĠjiÄģn":7678,"xÃŃngĠtÃłiĠ":7679,"ĠĠĠ2009":7680,"ĠĠĠdÄģngĠ":7681,"shÃ¨ĠbÃ¨iĠ":7682,"xiÄģngĠshÃ¬Ġ":7683,"kÇİĠsÄ«Ġ":7684,"cÇİiĠfÇİng":7685,"Ġ25":7686,"ĠsÃ¨Ġ":7687,"shÄģnĠxiÃłnĠ":7688,"lÇĲĠlÃ¹n":7689,"ĠÃ©rĠfÄĵiĠ":7690,"gÇİiĠshÃłnĠ":7691,"fÃ¨iĠchÃºĠ":7692,"ĠxiÃ¨":7693,"ĠzÃºĠ":7694,"xÄ«ĠbÄĽiĠ":7695,"jiÃłĠshÇĲĠ":7696,"zhÃ¨ngĠfÇĶĠdeĠ":7697,"shÃłngĠdÃ¬Ġ":7698,"dÇİoĠshÃłngĠ":7699,"ĠzÃłiĠhÃ©Ġ":7700,"ĠkÃ¨ĠÄĽrĠ":7701,"ĠshÃ¨ĠyÃºĠ":7702,"luÃ²ĠshÄģnĠjÄ«Ġ":7703,"ĠshÃ©n":7704,"Ġ27":7705,"cÇĲĠtÃ³ngĠshÃŃĠ":7706,"tionĠ":7707,"ĠfÃ¨ngĠ":7708,"Ġ2002ĠniÃ¡nĠ":7709,"kÄģiĠgÅįngĠ":7710,"tÅįngĠzhÄ«Ġ":7711,"bÅįĠlÃŃĠ":7712,"ĠĠĠsÄ«Ġ":7713,"hÄĽnĠkuÃłiĠ":7714,"ĠyÇĴng":7715,"ĠcÃłi":7716,"ĠjuÃ©ĠdÃ¬ngĠ":7717,"jiÃ¹ĠyuÃ¡nĠ":7718,"cÃŃĠdeĠ":7719,"ĠdÃ¬ĠyÄ«ĠcÃ¬":7720,"hÃ©ĠzÃłiĠ":7721,"yÄĽĠhuÃ¬Ġ":7722,"huÃłiĠ":7723,"ĠzhÄ«ĠshÃ¬Ġ":7724,"hÇİiĠÃłn":7725,"cÃŃĠzhÃŃĠ":7726,"Ã©ĠluÃ³ĠsÄ«ĠdeĠ":7727,"ĠpÇĶ":7728,"kÇĴuĠdeĠ":7729,"wÃ¡Ġ":7730,"ĠyÃ¬ĠjiÃłnĠ":7731,"ĠĠĠzhÃ¨ngĠ":7732,"ĠwÃ¨iĠzÃłiĠ":7733,"shÃ©nĠme":7734,"ĠsuÅįĠ":7735,"Ġ60":7736,"zhÄĵngĠyuÃ¨Ġ":7737,"tÃ¬ĠdÃłiĠ":7738,"ĠrÃ©nĠdÃłĠ":7739,"ĠfÄĵnĠbiÃ©Ġ":7740,"chÃ¹ĠzhÇİngĠ":7741,"chÅįngĠtÅ«":7742,"jiÇĶĠdeĠ":7743,"qiÃ¡ngĠzhÃ¬Ġ":7744,"ĠshÃŃĠxiÃłn":7745,"jiÄģnĠdÅ«Ġ":7746,"yÇĲngĠshÃ¬Ġ":7747,"yÇĲnĠyÃ²ngĠ":7748,"tÃŃĠchÅ«ĠleĠ":7749,"wÃłiĠjiÄģoĠbÃ¹Ġ":7750,"4ĠgÃ¨Ġ":7751,"ĠxÃ¹Ġ":7752,"ĠkÇİiĠ":7753,"xuÃ©ĠzhÅįngĠ":7754,"qiÃ¡ngĠdeĠ":7755,"ĠgÃ¨ĠguÃ³Ġ":7756,"mÃŃnĠzhÇĶĠdÇİng":7757,"shÄģnĠdÃ¬Ġ":7758,"jÇĲnĠyÇĴuĠ":7759,"jÃ¬ĠsuÃłn":7760,"fÄĵngĠfÃ¹Ġ":7761,"ĠzhÇĶĠyÇİnĠ":7762,"xÇĲĠhuÄģnĠ":7763,"ĠĠĠbÄģĠ":7764,"sÄ«ĠshÃ¬Ġ":7765,"nuÃ³ĠwÄĵi":7766,"ĠĠĠgÃ¹ĠshÃ¬Ġ":7767,"ĠsÄ«ĠmÇİĠ":7768,"ĠhÃłoĠxiÃłn":7769,"ĠxÃŃĠ":7770,"ĠĠĠyuÃ¨Ġ":7771,"tiÄģnĠhÃ²uĠ":7772,"cÃ©ngĠyÃºĠ":7773,"ĠgÃ¨ĠzhÇĴng":7774,"zhÇİngĠguÄģnĠ":7775,"zÅįngĠjiÃło":7776,"xiÇİoĠxÃŃngĠxÄ«ng":7777,"ĠshÃŃĠhÃ²uĠ":7778,"mÃ²ĠxÄ«ĠgÄĵ":7779,"ĠmÃ¬Ġ":7780,"Ã©ĠguÃ³Ġ":7781,"ĠyÇĴuĠxiÄĵ":7782,"pÇĶĠbiÃłn":7783,"bÃ¹ĠdeĠcÅ«nĠzhuÄģngĠ":7784,"ĠĠĠyÇĲĠxiÃł":7785,"ĠchuÄģnĠ":7786,"ĠĠĠfÃ¹Ġ":7787,"guÇİnĠdeĠ":7788,"zÃłnĠzhÃ¹Ġ":7789,"yÃ¬nĠshuÄģ":7790,"cÃ¹ĠjÃ¬nĠ":7791,"ĠyuÃ¨ĠlÃ¡iĠyuÃ¨Ġ":7792,"liÃºĠyÃ¹Ġ":7793,"ĠfÇİ":7794,"1966ĠniÃ¡nĠ":7795,"gÇĶĠlÇİo":7796,"ÄģĠgÄĵnĠ":7797,"mÇİĠlÃ¡iĠxÄ«ĠyÃł":7798,"ĠlÃ©i":7799,"ĠpÃłĠ":7800,"tÄģĠzÃłiĠ":7801,"jiÃłngĠyÇĶĠ":7802,"liÇİoĠjiÄĽĠ":7803,"kÃ²uĠ":7804,"jiÄģĠtÃŃngĠ":7805,"cÃ¨ĠliÃ¡ngĠ":7806,"ĠĠĠwÃ©iĠ":7807,"fÃ¹ĠshÃ¬Ġ":7808,"liÃ¨ĠchÅ«Ġ":7809,"thĠ":7810,"ĠdeĠjÃ¹Ġ":7811,"ĠchÃ©ngĠxiÃłn":7812,"ĠzhÄ«ĠdÃ¬Ġ":7813,"jÄ«ngĠdiÇİnĠ":7814,"chÄĵĠxiÄģngĠ":7815,"ĠdÃłnĠbÃ¡iĠ":7816,"liÃ¨ĠrÃ¹Ġ":7817,"yÇĶnĠshÃŃĠ":7818,"ĠxiÃłnĠshÃłngĠ":7819,"qiÃ¡ngĠdÃ¹Ġ":7820,"ĠnÇĲ":7821,"sÅ«ĠwÃ©iĠ":7822,"guÃłnĠjÅ«n":7823,"ĠbÃ¹ĠshÇİo":7824,"ĠzhÄ«ĠjiÄģĠ":7825,"fÄģĠdÃ²ngĠjÄ«Ġ":7826,"cÄģnĠxuÇİnĠ":7827,"ĠzÃº":7828,"ĠkÃ¨ĠhÃ©Ġ":7829,"bÃ¬ĠmiÇİnĠ":7830,"tÃŃngĠchÄĵĠ":7831,"ĠxiÄģngĠdÄģng":7832,"tÃ³ngĠxÃ¬ngĠ":7833,"zÇİoĠshÃłngĠ":7834,"1937ĠniÃ¡nĠ":7835,"zhÇĶĠtÃŃ":7836,"chuÃłngĠzuÃ²ĠdeĠ":7837,"sÄĵnĠlÃŃn":7838,"ĠfÃ¹ĠzÃ©ĠguÇİnĠxiÃ¡Ġ":7839,"Ġì":7840,"ÃłoĠÄĽrĠ":7841,"lÄģĠdeĠ":7842,"1974ĠniÃ¡nĠ":7843,"mÃŃngĠdÄģnĠ":7844,"zhÃłnĠtÃ¡iĠ":7845,"guÃ³ĠshÃ¬Ġ":7846,"hÅ«ĠyÃ¹Ġ":7847,"ĠgÅįngĠyÃ¬ngĠ":7848,"jiÄģnĠrÃ¨nĠ":7849,"xuÇİnĠjÇĶĠzhÅįngĠ":7850,"1946ĠniÃ¡nĠ":7851,"ĠyÄ«ĠzhÃŃĠ":7852,"guÄģnĠfÄģng":7853,"suÇĴĠyÇĴuĠdeĠ":7854,"bÃ³ĠlÃŃnĠ":7855,"jiÃłnĠzhÃ¹":7856,"dÄ«ĠqÃ¬Ġ":7857,"lÃŃĠmÇĲĠ":7858,"jÇĲngĠgÃłoĠ":7859,"cÃ¡iĠliÃło":7860,"ĠĠĠzÄĵngĠzÇĶĠ":7861,"ĠkÇİoĠ":7862,"sÄģoĠ":7863,"nÃ¡nĠzi":7864,"tÇĲĠyÃ¹ĠchÇİngĠ":7865,"guÇİngĠzhÅįu":7866,"liÃ¡nĠjiÄĵ":7867,"lÄģĠdÃ©Ġ":7868,"shÅ«ĠchÅ«Ġ":7869,"ĠbÃ¹ĠmÇİnĠ":7870,"ĠgÅįngĠnÃ©ng":7871,"zhÃłoĠpiÄģnĠ":7872,"xiÃłĠzÃłiĠ":7873,"lÃ¡nĠxÄ«Ġ":7874,"hÃ¡iĠzÃłiĠ":7875,"dÃ¹nĠdeĠ":7876,"ĠqiÃºĠdeĠ":7877,"yÇĲnĠrÃ¹Ġ":7878,"yÃŃnĠpÃ¡iĠ":7879,"yÃ¡oĠgÇĶn":7880,"ĠÃ©rĠgÄģiĠdÃ¬ĠdeĠ":7881,"yÄ«ngĠlÇĲĠ":7882,"nuÃ³ĠwÄĵiĠ":7883,"guÃ³ĠwÃ¡ngĠ":7884,"ĠyÇĶĠqÃŃĠ":7885,"qÄ«ĠzÇĲ":7886,"ÄģnĠzhuÄģngĠ":7887,"xÃ¹ĠlÃ¬ĠyÃł":7888,"zÇİoĠqÄ«ĠdeĠ":7889,"shÃŃĠhÃ©Ġ":7890,"tÃºĠdeĠ":7891,"1954ĠniÃ¡nĠ":7892,"mÇĴuĠxiÄĵ":7893,"ĠmÃ³":7894,"cÃ©ngĠdeĠ":7895,"ĠjÃ¬ĠlÃ¹":7896,"ĠchÅ«ĠyÇİnĠ":7897,"ĠjiÄĵ":7898,"ĠbÇİĠ":7899,"zhÄ«ĠshÃŃĠ":7900,"zhÃłnĠdÃ¬Ġ":7901,"qiÃºĠhuÃ¬Ġ":7902,"fÄĵiĠxÃŃng":7903,"ĠbÃ¨iĠÄĽr":7904,"ĠshÃ¹n":7905,"zhÃłnĠshÃŃĠ":7906,"zÄģoĠyÃ¹Ġ":7907,"ĠniÃ¡nĠqÄ«ngĠ":7908,"ĠwÃ¨iĠnÃ©ng":7909,"xiÃłĠlÃ¡iĠ":7910,"shÄĵnĠqÇĲng":7911,"Ġt":7912,"ĠhÃ©ĠgÇĶĠ":7913,"ĠchÃ©ngĠleĠ":7914,"ĠyÇĲĠqiÃ¡nĠ":7915,"ĠjÃ¬ĠyÃ¬Ġ":7916,"ĠkÃ¨ĠlÃ¬Ġ":7917,"fÄģĠshÄĵngĠdeĠ":7918,"shÄ«ĠqÃ¹Ġ":7919,"gÇĶĠlÄģĠ":7920,"Ġn":7921,"qiÃ¡nĠhÃ²uĠ":7922,"10ĠniÃ¡nĠ":7923,"biÄģnĠyuÃ¡nĠ":7924,"mÃ²ĠÄĽrĠ":7925,"zhÅįngĠyÄģngĠ":7926,"ĠjiÄģĠtÃŃng":7927,"ĠxiÄģngĠtÃ³ngĠ":7928,"yÅįuĠxiÃ¹":7929,"ĠyÇĲĠsÃ¨ĠliÃ¨Ġ":7930,"tÃ¨ĠlÃ¬Ġ":7931,"ĠshÃŃĠbÃłoĠ":7932,"xÄ«ngĠqÄ«":7933,"ĠRe":7934,"ĠqÇĲngĠ":7935,"shÄģnĠdÅįngĠshÄĽngĠ":7936,"ĠzhÄģoĠhÃ©Ġ":7937,"ĠyÃ¨":7938,"duÃ¬ĠyuÃ¡nĠ":7939,"zÇĶĠdeĠ":7940,"ĠduÃ¬ĠcÇĲĠ":7941,"ĠĠĠgÃłiĠyÃłoĠ":7942,"Ġ2006":7943,"sÄģnĠdÃłĠ":7944,"ĠdeĠzhÇĶĠyÃłoĠ":7945,"tÃłiĠkÅįngĠ":7946,"ĠzÃ¬ĠyÃ³u":7947,"ĠBĠ":7948,"ĠfÇĴu":7949,"Ġ2000ĠniÃ¡nĠ":7950,"ĠjÅ«nĠdÃ¬Ġ":7951,"ĠshÄĵngĠmÃŃngĠ":7952,"ĠzhÇĲĠzÃłiĠ":7953,"1ĠgÃ¨Ġ":7954,"zhÃłĠdÃłnĠ":7955,"niÃ¡ngĠ":7956,"ĠsÃ²ng":7957,"wÇİngĠshÃłngĠ":7958,"tÇİĠÄĽrĠ":7959,"ĠdÃ¬ĠzhÃ¨nĠ":7960,"xiÃłĠjiÃłngĠ":7961,"ĠwÃłi":7962,"lÇĲngĠdÇİoĠdeĠ":7963,"yÃ¡nĠjiÅ«ĠshÄĵngĠ":7964,"ĠcÇİiĠyÃ²ngĠ":7965,"tÃ¨ĠÄĽrĠ":7966,"bÇİoĠdeĠ":7967,"ĠxiÃłnĠyÇĴuĠ":7968,"ĠyuÃ¡nĠyÄ«n":7969,"diÃłnĠshÃ¬ĠtÃ¡i":7970,"Ġ000Ġ":7971,"Ġ40":7972,"wÅ«ĠsÄ«Ġ":7973,"hÇİoĠpÃŃngĠ":7974,"zhÄģiĠ":7975,"1955ĠniÃ¡nĠ":7976,"ĠzhÅįngĠjiÄģnĠ":7977,"pÇĶĠchÃ¡Ġ":7978,"ĠshÇĴuĠcÃ¬Ġ":7979,"ĠcÃ¡i":7980,"duÅįĠcÃ¬":7981,"huÃŃĠguÄ«Ġ":7982,"qÄ«nĠwÃ¡ngĠ":7983,"ĠĠĠThe":7984,"tÃ³ngĠmÃŃngĠ":7985,"tÃ¨ĠyÇĴuĠ":7986,"biÄģnĠwÃ¨iĠ":7987,"ĠjÃŃĠbÃ¬ngĠ":7988,"bÃ³ĠjuÃ©Ġ":7989,"ĠwÄĵiĠliÃ¡nĠ":7990,"mÇĲĠdeĠ":7991,"ĠxÃŃngĠbÃ¹Ġ":7992,"kuÃłiĠsÃ¹":7993,"zÃłnĠtÃŃngĠ":7994,"cÃºnĠdeĠ":7995,"ĠguÇİngĠdÅįngĠ":7996,"ĠxiÄģnĠhÃ²uĠ":7997,"qÃŃngĠdeĠ":7998,"ĠshÃ¬ĠyÄ«ĠbÃ¹Ġ":7999,"ĠxÄ«nĠzÄĵngĠ":8000,"gÇİiĠzhÃ¬ĠwÃ¨iĠ":8001,"ĠĠĠdÃ¬ĠyÄ«Ġ":8002,"shÄ«ĠgÅįngĠ":8003,"gÇİngĠyuÃ¡nĠ":8004,"fÃ¨iĠyÃ¡nĠ":8005,"ĠguÇİnĠ":8006,"fÄĽnĠsÄ«Ġ":8007,"zhÇĲĠkÃ²ngĠ":8008,"mÃ¬ĠdeĠ":8009,"zhuÃ¬Ġ":8010,"chÄĵĠliÃłng":8011,"shÄĵnĠshÃ¬Ġ":8012,"dÃ¡ĠzhÅįuĠ":8013,"yÇĲngĠxiÃłngĠ":8014,"fÄģngĠmÇĲĠ":8015,"ĠzÃ¬ĠdÃ²ngĠ":8016,"xÅ«nĠ":8017,"ĠdeĠhuÃłĠ":8018,"dÃłĠqÅ«Ġ":8019,"shÄĽngĠjiÄĵĠrÇİngĠ":8020,"ĠX":8021,"sÄģnĠrÃ©nĠ":8022,"sÄģnĠgÃ¨":8023,"zhÄĽĠhÃ©Ġ":8024,"bÄĵngĠ":8025,"tÃ¨ĠzhÄĵng":8026,"Ġ45":8027,"100Ġ":8028,"ĠzuÃ¬ĠdÃłĠ":8029,"ruÃ¬ĠdiÇİnĠ":8030,"wÇĶĠgÃ¨Ġ":8031,"dÄģngĠniÃ¡nĠ":8032,"ĠjÃ¬nĠzhÇĲĠ":8033,"cÄģnĠshÃ¹Ġ":8034,"tuÄ«ĠguÇİngĠ":8035,"ĠmÃłiĠkÃ¨Ġ":8036,"lÃ¹ĠyÃ¬ĠsÄ«Ġ":8037,"ĠshuÇĲ":8038,"pÃ¨iĠbÃ¨iĠ":8039,"ĠbÃ¹ĠyÄ«Ġ":8040,"ĠpÃŃngĠlÃ¹nĠ":8041,"ĠjiÃ©ĠshÃ¹Ġ":8042,"jÃ¬ngĠnÃ¨iĠgÃ²ngĠyÇĴuĠ":8043,"ĠĠĠjÄ«nĠ":8044,"sÃ¬ĠshÃ¬Ġ":8045,"tÃłiĠdeĠ":8046,"ĠguÅį":8047,"ĠmÃ¡oĠ":8048,"yÃ³uĠxÃŃngĠ":8049,"zhÇİnĠlÇİnĠ":8050,"ĠshÃ¨ĠhuÃ¬ĠzhÇĶĠyÃ¬Ġ":8051,"zhÄĽĠhuÃ¬Ġ":8052,"30ĠniÃ¡nĠ":8053,"ĠshÃ¬ĠyÄ«ĠkÄĵĠ":8054,"ĠshuÄģngĠfÄģngĠ":8055,"ĠzÃłiĠyÃ¬ĠqÇĲĠ":8056,"lÄģĠhÃ©Ġ":8057,"huÃŃĠguÃ³Ġ":8058,"huÄģngĠ":8059,"ĠbÃ¹ĠlÃ¡iĠ":8060,"ĠshÃŃĠxÃ¬ngĠ":8061,"ĠjÃ¬ĠzÇİi":8062,"xÄ«nĠwÃ©n":8063,"bÇİoĠluÃ³Ġ":8064,"jÃ¬ngĠzhÄĵng":8065,"Ġ200":8066,"ĠshÃłnĠ":8067,"ĠjÃŃĠhÃ²uĠ":8068,"ĠzhÃ¨ĠyÃłngĠ":8069,"lÇľĠsÃ¨Ġ":8070,"ĠjiÄģngĠsÅ«Ġ":8071,"wÃºĠxiÃłnĠdiÃłnĠshÃ¬Ġ":8072,"ĠĠĠ16":8073,"shÃ¨ngĠchÅ«Ġ":8074,"ĠdÃ¬ĠzhÃ¬Ġ":8075,"ĠzhÃ¬ĠyÃŃĠ":8076,"ĠxÄ«ĠÄĽrĠ":8077,"fÃ¨iĠyÃ²ngĠ":8078,"yÃ¬ngĠjÃŃĠ":8079,"ĠbÃ¨iĠpÃ²Ġ":8080,"dÃ¹ĠshÇĲĠ":8081,"chÇİnĠshÄĵngĠleĠ":8082,"ĠĠĠ2019ĠniÃ¡nĠ":8083,"mÇİĠkÃ¨ĠsÄ«Ġ":8084,"ĠguÃ³ĠjiÄģĠduÃ¬Ġ":8085,"tiÄĽĠlÃ¹ĠchÄĵĠzhÃłnĠ":8086,"ĠdÃ²ngĠwÃ¹Ġ":8087,"ĠÏ":8088,"kÅ«Ġ":8089,"ĠniÃ¡nĠlÃŃngĠ":8090,"chuÃłngĠzÃłoĠ":8091,"Ġ187":8092,"ĠchÇĶĠ":8093,"ĠhÃºĠnÃ¡nĠ":8094,"zhuÅįĠ":8095,"ĠgÅįngĠqÇĲngĠ":8096,"ĠjiÄģĠzÃº":8097,"20ĠniÃ¡nĠ":8098,"wÃ¡ngĠwÃ¨iĠ":8099,"tuÄ«ĠjiÃłnĠ":8100,"liÃ¡nĠrÃ¨nĠ":8101,"ĠkÄĽĠnÃ©ngĠ":8102,"hÃ©ĠĠĠ":8103,"lÃ¨iĠxÃŃngĠdeĠ":8104,"ĠtÄģĠcÃ©ngĠ":8105,"zhÇİngĠzÇĲĠ":8106,"bÄĽiĠfÄģngĠ":8107,"ĠgÅįngĠgÃ²ng":8108,"ĠdÃłĠdÃło":8109,"fÃºĠluÃ³ĠlÇĲĠ":8110,"nÃ³ngĠcÅ«nĠ":8111,"ĠshÃ¬ĠzhÅįngĠhuÃ¡ĠrÃ©nĠmÃŃnĠgÃ²ngĠhÃ©ĠguÃ³Ġ":8112,"ĠcÃ©ngĠrÃ¨n":8113,"yÇĲngĠxiÇİngĠlÃ¬Ġ":8114,"ĠdeĠzuÃ²ĠbiÄģoĠwÃ¨iĠ":8115,"chÅįngĠjÄ«Ġ":8116,"sectionĠĠĠ":8117,"ĠshÃ¬ĠhuÃ¬Ġ":8118,"qÃºnĠdÇİo":8119,"Ġ2022ĠniÃ¡nĠ":8120,"sÄģnĠjÃŃĠ":8121,"ĠzÃłiĠxÄ«nĠ":8122,"tÃ¨ĠdiÇİnĠ":8123,"tiÄģnĠrÃ¡nĠ":8124,"gÃ¹ĠdÃ¬ngĠ":8125,"ĠĠĠjiÄģĠtÃŃngĠ":8126,"ĠĠĠf":8127,"lÇľĠdeĠ":8128,"sÇĲĠyÃºĠ":8129,"ĠzÃłiĠtÄģĠdeĠ":8130,"qÄ«ngĠchÃ¡oĠ":8131,"chÅ«ĠqÄ«Ġ":8132,"fÃ¡ngĠwÅ«Ġ":8133,"shÃ¨ĠhuÃ¬":8134,"jÃŃĠbÃ¹Ġ":8135,"shÄĵngĠzhÃ¬Ġ":8136,"biÇİnĠ":8137,"fÃ¹ĠjÃ¬n":8138,"fÄģngĠxiÃłng":8139,"tÃ¨ĠlÄģĠ":8140,"jÃ¬ngĠnÃ¨i":8141,"gÃ¨ngĠduÅįĠdeĠ":8142,"cÃ³ngĠwÃ¨iĠ":8143,"ĠyÄ«ĠrÃ©nĠ":8144,"ĠdÃłoĠhÃ©Ġ":8145,"gÄģoĠdÃ¡Ġ":8146,"ĠfÇĶĠ":8147,"ĠshÄĽnĠ":8148,"ĠsectionĠĠĠ":8149,"xÄ«nĠshÃ¬Ġ":8150,"1947ĠniÃ¡nĠ":8151,"ĠshÃŃĠzhÃ¬Ġ":8152,"ĠdÃłoĠyÄ«Ġ":8153,"qÃ¬ĠxuÃ¡nĠ":8154,"ĠnÇİi":8155,"ĠxÇĶĠduÅį":8156,"bÄģnĠdeĠ":8157,"zhÃ³uĠ":8158,"1973ĠniÃ¡nĠ":8159,"wÃ¡nĠzhÄĽngĠ":8160,"xuÇİnĠchÅ«Ġ":8161,"mÄģĠ":8162,"ĠtiÄĽĠ":8163,"ĠĠĠshÇĲĠyÃ²ngĠ":8164,"yÃŃĠdÃłoĠ":8165,"zhÅįngĠyÄģng":8166,"shÄĵngĠjÄ«Ġ":8167,"guÄģnĠcÃ¨Ġ":8168,"ĠyÄĽĠbÃ¹Ġ":8169,"qÄ«ngĠshÃłoĠniÃ¡nĠ":8170,"ĠshÃ¬ĠjÃ¬ĠdeĠ":8171,"ĠyÇĴuĠdÃłĠ":8172,"qÇĶĠxiÄģo":8173,"Ġ2024":8174,"jiÄģĠgÅįngĠ":8175,"shÇĲĠyÃºĠ":8176,"luÃ²ĠsÄ«Ġ":8177,"ĠshÃ¬ĠyÃ³u":8178,"fÃ¹ĠjÃ¬nĠdeĠ":8179,"mÄĽiĠguÃ³ĠrÃ©nĠ":8180,"zhÃłngĠfÅ«Ġ":8181,"xuÃ©ĠbÃ¹Ġ":8182,"tiÄĵĠ":8183,"1971ĠniÃ¡nĠ":8184,"ĠyÇĴuĠzhÃ¹Ġ":8185,"yÃ¬ĠbÃ¹Ġ":8186,"zÃ²ngĠ":8187,"guÃ³ĠhuÃ¬Ġ":8188,"xÄ«ĠbÄĽiĠbÃ¹Ġ":8189,"ĠtÄģĠrÃ¨nĠwÃ©iĠ":8190,"mÃ¹ĠnÃŃĠ":8191,"ĠtÃ³ngĠpÃ¡iĠ":8192,"ĠzhÇĲĠshÃ¬Ġ":8193,"kuÃ²ĠzhÇİn":8194,"ĠqiÅ«Ġ":8195,"dÄĽngĠdeĠ":8196,"sÇĲĠxÃŃngĠ":8197,"qÃ¬ngĠzhÃ¹Ġ":8198,"zhÃłnĠlÇĲng":8199,"liÃ¡nĠjiÃ©Ġ":8200,"ĠĠĠgÄĵnĠjÃ¹Ġ2020ĠniÃ¡nĠmÄĽiĠguÃ³ĠrÃ©nĠkÇĴuĠpÇĶĠchÃ¡ĠdeĠshÃ¹ĠjÃ¹Ġ":8201,"Ġ189":8202,"bÃ¬ngĠwÃ¨iĠ":8203,"zuÃ¬ĠwÃ¨iĠ":8204,"ĠdeĠgÃ¹ĠshÃ¬Ġ":8205,"guÃ³ĠlÃ¬Ġ":8206,"huÃ¡ngĠsÃ¨Ġ":8207,"ĠtÃ³ngĠyÃłngĠ":8208,"zÄĵngĠjiÄģĠleĠ":8209,"ĠTheĠĠĠ":8210,"hÇİiĠshÃłngĠ":8211,"guÃ²ĠyÃºĠ":8212,"rÃ©ngĠzÃłiĠ":8213,"pÃ¹Ġ":8214,"1977ĠniÃ¡nĠ":8215,"ĠzÃłiĠtÄģĠ":8216,"shÃłngĠhÇİiĠshÃ¬Ġ":8217,"ĠÃłn":8218,"quÃ¡nĠdeĠ":8219,"zÇĴngĠhuÃ¬Ġ":8220,"huÃŃĠhÃ©Ġ":8221,"lÇİoĠshÄ«Ġ":8222,"nÃ¹Ġ":8223,"ĠyÄ«ĠzhÃ¬Ġ":8224,"ĠchÅ«ĠfÄģĠ":8225,"sÃ¨ĠfÅ«Ġ":8226,"zhuÄģnĠmÃ©nĠ":8227,"xiÄģngĠjÃ¬Ġ":8228,"shÃ²uĠquÃ¡nĠ":8229,"sÃ¬ĠdÃłĠ":8230,"qiÃ¨ĠÄĽrĠ":8231,"jÄ«ngĠjÃ¬":8232,"fÄĵnĠpÃ¨iĠ":8233,"bÄģnĠjiÇİngĠ":8234,"ĠSĠ":8235,"vĠ":8236,"fÃ¡ngĠwÃ¨iĠ":8237,"Ġ2003ĠniÃ¡nĠ":8238,"50ĠniÃ¡nĠ":8239,"ĠlÃ¬ĠshÇĶĠ":8240,"ĠbÃ¬ngĠrÃ¹Ġ":8241,"dÄĵngĠchÃ¡ngĠ":8242,"xÃ¬ngĠshÃ¬Ġ":8243,"duÃ¬ĠshÇĴuĠ":8244,"ĠdeĠjÃ¬ĠlÃ¹Ġ":8245,"ĠkÃ¹":8246,"ĠjÃŃĠxÃŃngĠzhÃ¨ngĠ":8247,"ĠlÃ¬ĠziĠ":8248,"ĠyÄĽĠhuÃ¬Ġ":8249,"xiÃ©ĠdÃ¬ngĠ":8250,"ĠÄģĠlÄģĠ":8251,"ĠbÄģoĠhÃ¡nĠ":8252,"ÃłiĠdeĠ":8253,"piÃłnĠdeĠ":8254,"ceĠ":8255,"lÃ¡iĠzÃ¬ĠyÃºĠ":8256,"ĠbÃ¡i":8257,"fÃºĠlÇĲĠ":8258,"ĠyÇĲĠzhÃ¬Ġ":8259,"jiÇİngĠshÃ¹Ġ":8260,"zhÃłoĠkÄģi":8261,"Ġ000ĠrÃ©nĠ":8262,"dÄģnĠyuÃ¡nĠ":8263,"wÄģĠ":8264,"yÄ«ĠxiÄĵĠ":8265,"zhÃŃĠyÃ¨":8266,"hÇİiĠbÃ¡ĠgÄģoĠ":8267,"yÄ«ngĠchÇĲĠ":8268,"cÄģnĠsÃłi":8269,"xiÄģoĠliÃłngĠ":8270,"qÃ¬ĠhÃ©Ġ":8271,"cÃºnĠzÃłiĠdeĠ":8272,"zhuÃłngĠjÄ«Ġ":8273,"ĠjiÃłnĠkÄģngĠ":8274,"nÃłĠcuÃ¬":8275,"ĠxiÄģngĠduÃ¬Ġ":8276,"hÃ©ĠwÃ¨iĠ":8277,"fÃ¹ĠjiÄģĠ":8278,"shÄĽngĠdÃłoĠ":8279,"lÃ¡oĠgÅįngĠ":8280,"hantĠ":8281,"xÄ«ĠnÃ¡nĠbÃ¹Ġ":8282,"ĠkÃ¨ĠyÃ¹nĠ":8283,"mÇİĠlÄģĠ":8284,"gÇİiĠgÃ©":8285,"nÃ¡nĠjÃŃĠzhÅįuĠdeĠ":8286,"Ġf":8287,"ĠzÃłiĠ18":8288,"lÃ¨iĠsÃ¬ĠdeĠ":8289,"Ġ9Ġ":8290,"ĠhantĠ":8291,"bÄģĠÄĽrĠ":8292,"chuÃłngĠxÄ«nĠ":8293,"tuÃ³Ġ":8294,"qiÇİoĠ":8295,"lÃ²uĠ":8296,"ĠyÇĴuĠguÄģn":8297,"zhÃ¨ngĠxiÃ©Ġ":8298,"ĠtÄģĠduÃ¬Ġ":8299,"shÄģnĠmÃłiĠ":8300,"ĠsÃ¬ĠchuÄģnĠ":8301,"hÅįngĠzhÃłĠjÄ«Ġ":8302,"ĠĠĠrÃ¡nĠÃ©rĠ":8303,"chÃ¡ngĠjiÃłnĠ":8304,"chuÃ¡nĠzhÄ«Ġ":8305,"quÇİnĠ":8306,"ĠzhÄ«ĠzhÃłnĠ":8307,"shÇĴuĠbÅįĠ":8308,"xÃ¬ngĠnÃ©ngĠ":8309,"ĠxiÇİoĠshuÅįĠ":8310,"ĠĠĠ2007":8311,"yÄ«ĠbÃ¹ĠfÃ¨n":8312,"fÄĵiĠzhÅįu":8313,"ĠxiÃłnĠzhÄ«ĠxiÃłnĠ":8314,"shÄģĠsÇĲĠ":8315,"fÄģĠshÄĵngĠleĠ":8316,"shÇĶĠdeĠzhÃŃĠwÃ¹Ġ":8317,"ĠĠĠdÃłn":8318,"zhÃŃĠzhÃ¬Ġ":8319,"diÃłnĠdeĠ":8320,"yÃłoĠdeĠ":8321,"IIĠ":8322,"yÃ¡nĠzhÃ²ngĠdeĠ":8323,"ĠlÃ¬ngĠwÃłi":8324,"lÇĲĠbÃ¹Ġ":8325,"mÃ¬ĠsÄ«Ġ":8326,"nÃ¬Ġ":8327,"ĠjiÃłnĠshÃ¬Ġ":8328,"suÇĴĠshÇĶ":8329,"jiÃłngĠdÄ«":8330,"ĠchÄĵĠzhÃłn":8331,"xÄ«ĠshÃ¬Ġ":8332,"tÃ³uĠbÃ¹Ġ":8333,"duÃ¬ĠwÇĶĠ":8334,"ĠyÃ³uĠcÇĲĠ":8335,"zÇĶĠzhÇĲĠ":8336,"ĠdÅįngĠjÄ«ngĠ":8337,"fÃłngĠqÃ¬":8338,"yÃ¹nĠdÃ²ngĠdeĠ":8339,"jiÄģnĠshÃ¬Ġ":8340,"nÃłĠdÃ©Ġ":8341,"bÄģngĠzhÃ¹":8342,"mÄĽiĠjÅ«nĠ":8343,"jiÄģngĠtÄģĠ":8344,"ĠshÃ¬ĠyÃ¬ĠdÃłĠlÃ¬Ġ":8345,"ĠsÃł":8346,"huÃ¬ĠyÇĲĠ":8347,"cÄģnĠtÄ«ngĠ":8348,"hÄĵiĠrÃ©nĠ":8349,"jÄ«ĠbÄĽnĠ":8350,"ĠzhÄ«ĠliÃºĠ":8351,"zhÇĶĠxÃŃ":8352,"shuÃłiĠlÇĲngĠ":8353,"tÇĶĠÄĽrĠqÃŃ":8354,"huÃ¬ĠshÃ¬ĠdÃ¬Ġ":8355,"huÃ¡nĠxÃŃngĠ":8356,"ĠzÃłiĠyÇĶĠ":8357,"ĠgÅįngĠlÃ¹":8358,"ĠdÃ©ĠdÃłoĠleĠ":8359,"ĠshÃ¨ĠjÃ¬ĠdeĠ":8360,"bÃ¹ĠfÃ¨nĠ":8361,"nÃ¡ĠpÃ²Ġ":8362,"zhÄĽngĠgÃ¨":8363,"xiÄģngĠbÇĲĠ":8364,"ĠshÃ¬ĠyÄ«ĠzuÃ²Ġ":8365,"zhÅįuĠbiÄģnĠ":8366,"ĠshÃ¬ĠjiÃ¨ĠbÄĵiĠ":8367,"xiÃłĠxiÃ¡ĠyÇĲĠxiÃł":8368,"WĠ":8369,"ĠdÅįu":8370,"ĠĠĠ3ĠyuÃ¨Ġ":8371,"shÃłngĠbÃ¹Ġ":8372,"ĠxiÃłnĠjÄ«nĠ":8373,"hÃ¡ngĠtiÄģnĠ":8374,"ĠzhÃ²ng":8375,"zhÇİngĠdÃłĠ":8376,"luÃ³ĠdÃ©Ġ":8377,"ĠdÃłĠliÃłng":8378,"shuÄģngĠdÇİĠ":8379,"ĠmÇİĠlÃ¬Ġ":8380,"ĠjÇĲĠ":8381,"zÃ¬ĠwÃ¨iĠ":8382,"yÃ¡nĠshÃŃĠ":8383,"1962ĠniÃ¡nĠ":8384,"yÃŃĠchÇİn":8385,"gÃ©ĠÄĽrĠ":8386,"ĠlÃ¬ĠyÃ²ng":8387,"ĠxÃŃngĠshÇĲĠ":8388,"zÇĴngĠcÃ¡iĠ":8389,"ĠbÃło":8390,"zhÇĲĠdeĠ":8391,"ĠnÃ¡nĠziĠ":8392,"ĠshÄĵngĠzhÇİngĠyÃºĠ":8393,"ĠqÃŃnĠ":8394,"xÄ«nĠrÃ©nĠ":8395,"cÇĲĠshÃŃĠ":8396,"cÅįngĠ":8397,"ĠgÅįngĠchÇĲ":8398,"ĠqiÃºĠhuÃ¬Ġ":8399,"chuÃ¡nĠmÃ©iĠ":8400,"hÇİiĠbÃ¡ĠgÄģoĠdÃ¹ĠwÃ¨iĠ":8401,"ĠĠĠ2018ĠniÃ¡nĠ":8402,"zhÄĽĠwÃ¨iĠ":8403,"nuÃ²ĠyÄ«Ġ":8404,"ayĠ":8405,"ĠjÃŃĠlÃŃnĠ":8406,"xiÄģngĠtÃ³ngĠdeĠ":8407,"ĠzhÅįngĠguÃ³ĠguÃ³ĠmÃŃnĠ":8408,"bÄĽnĠxiÃłnĠ":8409,"ĠdÃ¬Ġ1Ġ":8410,"yÃłĠmÃ¹Ġ":8411,"ĠzhÃ¨ĠshÇĴuĠ":8412,"yÄ«ngĠgÄģi":8413,"guÄģngĠxÃ¹Ġ":8414,"jÃ¬ĠzÃłiĠ":8415,"wÇĶĠyuÃ¨Ġ":8416,"dÄģnĠyÄ«Ġ":8417,"biÃ©ĠdeĠ":8418,"ĠhÃ©ĠlÇĲĠ":8419,"yÃ³uĠtÃłiĠrÃ©nĠ":8420,"ĠdeĠchÃ©ngĠzhÃ¨nĠ":8421,"ĠguÄģnĠfÄģngĠ":8422,"ĠqiÄģn":8423,"ĠhuÃ¡nĠ":8424,"lÄģĠÄĽrĠ":8425,"xÃºnĠqiÃºĠ":8426,"ĠbÃ¹ĠÄĽrĠ":8427,"ĠxÃŃngĠxiÃłngĠ":8428,"ĠwÃ©iĠchÃŃĠ":8429,"yÇĲnĠzhÇĴngĠ":8430,"ĠxÅ«ĠyÃłoĠ":8431,"ĠĠĠ3Ġ":8432,"bÃºĠyÃłoĠ":8433,"shÄģngĠdeĠ":8434,"ĠbÃ¹ĠdÃŃĠ":8435,"ĠyÃºĠlÃ¨iĠ":8436,"qiÄģnĠyuÄĵĠ":8437,"cÄģnĠyÃ¹ĠleĠ":8438,"ĠlÇĲngĠ":8439,"ĠĠĠ5ĠyuÃ¨Ġ":8440,"ĠzÃłiĠgÄģiĠ":8441,"ĠguÃ³ĠmÃŃn":8442,"mÄĽiĠyuÃ¡nĠdeĠ":8443,"yÃŃngĠyÃ¨Ġ":8444,"ĠjiÄģngĠqÃŃĠ":8445,"wÄĽiĠfÃ¹ĠshÅ«ĠjÃ¬Ġ":8446,"ĠbÄģoĠ":8447,"wÇĶĠdÃ¬Ġ":8448,"sÄ«ĠlÃ¡nĠ":8449,"ĠkÃ¨ĠlÄģĠ":8450,"dÇĲĠkÃłngĠ":8451,"ĠliÇİngĠgÃ¨Ġ":8452,"zhÃŃĠyuÃ¡nĠ":8453,"1938ĠniÃ¡nĠ":8454,"ĠyÄ«ĠliÃ¡oĠ":8455,"xiÃłoĠyÃ¬ngĠ":8456,"qiÄģnĠdÃ¬ngĠ":8457,"ĠjiÃłoĠyÃ¹":8458,"Ã©ĠwÃ¨iĠ":8459,"ĠyÄ«ĠcÃŃĠ":8460,"jiÄĵĠrÃ¨nĠ":8461,"ĠqÃŃĠzhÅįngĠnÃ¡nĠxÃ¬ngĠ":8462,"ĠliÃºĠyÃ¹Ġ":8463,"ĠhÃ¡n":8464,"ĠMar":8465,"yÃ¹nĠhÃ©Ġ":8466,"gÄĵĠdeĠ":8467,"huÃ¡iĠyÃŃĠ":8468,"ĠwÃ¨iĠcÇĲĠ":8469,"ĠdÃ¬ĠmiÃłnĠ":8470,"tÇĲĠyÃ¹":8471,"cÃ©ngĠshuÇĲĠyÃ¹Ġ":8472,"rÃ³ngĠnÃłĠ":8473,"gÇĶĠfÃ¨nĠyÇĴuĠxiÃłnĠgÅįngĠsÄ«Ġ":8474,"zhuÃłnĠdeĠxiÇİoĠxÃŃngĠxÄ«ngĠ":8475,"1939ĠniÃ¡nĠ":8476,"ĠhÃ²uĠqÄ«Ġ":8477,"ĠkÃ¨ĠlÃ¡iĠ":8478,"zhÇĲĠdÃ¬ngĠ":8479,"ĠĠĠpÃŃngĠjiÃłĠ":8480,"yÃ³uĠqÃŃĠ":8481,"gÄĵĠjÃ¹Ġ":8482,"liÃ¡ngĠshÃŃĠ":8483,"1965ĠniÃ¡nĠ":8484,"ĠshÃ¬ĠnÃ¨iĠ":8485,"yuÃ¨ĠnÃ¡nĠ":8486,"jÃ¬ngĠsÃłiĠ":8487,"ĠdeĠdÃ¬ĠÃ¨r":8488,"mÃ²ĠsÄ«ĠkÄĵĠ":8489,"ĠhÃ¨":8490,"yÃ³uĠrÃ©nĠgÅįngĠ":8491,"zhÇİngĠwÃ¨iĠ":8492,"ckĠ":8493,"1936ĠniÃ¡nĠ":8494,"ĠshÃ¬ĠxÄ«Ġ":8495,"ĠyÄ«ĠzhÄ«Ġ":8496,"ĠshÃ¨ĠjÄ«Ġ":8497,"bÄģĠlÄģĠ":8498,"ĠjiÃłnĠlÃ¬ĠleĠ":8499,"ĠwÅ«ĠkÃ¨ĠlÃ¡nĠ":8500,"ĠĠĠchÃºĠleĠ":8501,"chÃ¡oĠdeĠ":8502,"tuÄ«ĠchÅ«ĠdeĠ":8503,"ruÇİnĠtÇĲĠ":8504,"gÇİnĠlÇİn":8505,"ĠĠĠ12":8506,"jiÃłoĠyÃºĠ":8507,"mÃ©nĠdeĠ":8508,"ĠshÃŃĠyÃ²ngĠ":8509,"ĠĠĠPro":8510,"1967ĠniÃ¡nĠ":8511,"zhÅįngĠxÄ«nĠ":8512,"ĠsÃº":8513,"ĠchÃ©ngĠshÃ¬Ġ":8514,"shÃ¹ĠshÃ¬Ġ":8515,"yÃ¡ngĠxiÃłnĠ":8516,"ĠjiÃłnĠwÃ¨iĠ":8517,"ĠchÃ¡oĠxiÄģnĠ":8518,"ĠtuÄ«Ġ":8519,"1959ĠniÃ¡nĠ":8520,"ĠÄĽrĠdÃ©":8521,"shuÃ²ĠshÃ¬ĠxuÃ©ĠwÃ¨iĠ":8522,"huÃ¡ĠshÃ¨ngĠdÃ¹n":8523,"wÃ©iĠzhÇĲĠ":8524,"ĠjiÃ©ĠgÃ²uĠ":8525,"Ġ11Ġ":8526,"zhÄ«ĠyuÃ¡nĠ":8527,"gÃ¨ĠdÃ¬Ġ":8528,"biÄģnĠhÃłoĠwÃ¨iĠ":8529,"ĠhÃ©ĠjÃŃĠ":8530,"ĠzhÃ¬ĠzÃło":8531,"ĠyÄ«ĠtiÃ¡oĠ":8532,"kÄģiĠzhÇİnĠ":8533,"fÇİĠtÃŃngĠ":8534,"ĠqiÃºĠchÇİngĠ":8535,"qÃºnĠtÇĲĠ":8536,"leĠyÄ«ĠxiÄĵĠ":8537,"ĠgÅįngĠchÃ©ngĠshÄ«Ġ":8538,"wÃ¹ĠzhÅįngĠ":8539,"mÃ©ngĠjÅ«nĠ":8540,"bÇİiĠniÃ¡nĠ":8541,"1935ĠniÃ¡nĠ":8542,"luÃ³ĠbÃ³ĠtÃ¨Ġ":8543,"zÇĴngĠjiÄģnĠ":8544,"ĠzÃłiĠdÃ¬ĠÃ¨rĠ":8545,"pÃŃngĠjÅ«nĠhÇİiĠbÃ¡ĠgÄģoĠdÃ¹ĠwÃ¨iĠ":8546,"ĠyÅįuĠ":8547,"ĠĠĠjÄ«ngĠjÃ¬Ġ":8548,"zhÃŃĠlÃ¬Ġ":8549,"ĠwÃ¨iĠmÃŃngĠ":8550,"ĠwÃ¨iĠyÃºĠzhÅįngĠhuÃ¡ĠrÃ©nĠmÃŃnĠgÃ²ngĠhÃ©ĠguÃ³Ġ":8551,"lÃŃĠziĠ":8552,"zhuÄģngĠjiÇİ":8553,"ĠrÃ©nĠmÃŃnĠbÃ¬Ġ":8554,"dÅ«ĠdÅ«Ġ":8555,"ĠtÅįngĠguÃ²":8556,"ĠlÃ¨iĠ":8557,"WindowsĠĠĠ":8558,"ĠxÄ«ĠyÇĲnĠ":8559,"jiÇİnĠdÄģnĠ":8560,"yÃ¡ngĠgÅįngĠ":8561,"gÅįngĠkÄģiĠ":8562,"ĠyÇĴuĠlÃ¬Ġ":8563,"ĠtÄģĠyÄĽ":8564,"ĠÃ©rĠgÄģiĠdÃ¬ĠdeĠpÃŃngĠjÅ«nĠhÇİiĠbÃ¡ĠgÄģoĠdÃ¹ĠwÃ¨iĠ":8565,"ĠqÇĲng":8566,"ĠmÇİn":8567,"ÄģĠÄĽr":8568,"qÇĲĠleĠ":8569,"shÄ«ĠrÃ©nĠ":8570,"fÄĵngĠdeĠ":8571,"nÃŃĠxÄ«ĠyÃłĠ":8572,"cÃ¹ĠjÃ¬n":8573,"hÇİnĠmÃ²":8574,"ĠzÃłiĠrÃ¬ĠbÄĽnĠ":8575,"lÃ¹ĠzhÃłnĠ":8576,"jiÄĵĠshÅįuĠ":8577,"ĠwÅ«":8578,"lÃ¬ĠzhÅįngĠ":8579,"zÃºĠqiÃºĠduÃ¬Ġ":8580,"bÃłnĠniÃ¡nĠ":8581,"bÄĽnĠtÇĶĠ":8582,"miÃłnĠlÃŃnĠ":8583,"2010ĠniÃ¡nĠmÄĽiĠguÃ³ĠrÃ©nĠkÇĴuĠpÇĶĠchÃ¡ĠdeĠshÃ¹ĠjÃ¹Ġ":8584,"ĠlÇļ":8585,"ĠĠĠtiÄģnĠ":8586,"jÄ«ĠshÃ¬Ġ":8587,"chÅ«ĠdÃłoĠ":8588,"yÇİnĠchÅ«":8589,"yÃ¬ngĠduÃ¬Ġ":8590,"lÃłĠ":8591,"boĠ":8592,"ĠzhÄ«ĠqiÃ¡n":8593,"fÇİĠlÃ¡nĠ":8594,"ĠxÃ¬ĠtÇĴng":8595,"yÇĲnĠzhÇĴngĠzÄģiĠpÃ©iĠ":8596,"ĠyÃºnĠnÃ¡nĠ":8597,"ĠdÃłĠqiÃ¡oĠ":8598,"xÃºnĠhuÃ¡nĠ":8599,"huÃłnĠzhÄĽĠ":8600,"shÄĽnĠchÃ¡Ġ":8601,"wĠ":8602,"ĠdÄĵngĠ":8603,"ĠĠĠc":8604,"chÅ«ĠrÃ¨nĠ":8605,"shuÅįĠshÃ¬Ġ":8606,"ĠjÃŃĠshÇĲ":8607,"dÃ²ngĠhuÃł":8608,"rÃ¹ĠqÄ«n":8609,"shÄĽngĠwÄĽiĠ":8610,"ĠxÄ«nĠzÄĵng":8611,"chuÃ¡nĠbÅį":8612,"ĠsuÃŃĠzhe":8613,"fÄĵiĠlÇľĠbÄ«n":8614,"kÇİĠluÃ³ĠlÃ¡iĠ":8615,"ĠĠĠSt":8616,"yuÃ¡nĠdÃ¬Ġ":8617,"shÄĵnĠshÃłngĠ":8618,"kmĠ":8619,"ĠzÃłiĠbÄĽiĠ":8620,"wÃ©iĠÄĽr":8621,"ĠxÄ«ĠxÄ«Ġ":8622,"hÄĽnĠduÅį":8623,"liÃ¨ĠshÃ¬Ġ":8624,"jÄ«ĠbÇİiĠ":8625,"xuÃ©ĠxÃŃ":8626,"ĠjÄ«ĠyÄ«nĠ":8627,"zhÇİngĠyuÄĵĠ":8628,"suÇĴĠchÃ¹ĠdeĠhÇİiĠbÃ¡ĠwÃ¨iĠgÄģoĠyÃºĠhÇİiĠpÃŃngĠmiÃłnĠ":8629,"tÅįngĠxÃ¹nĠ":8630,"nÃłĠxiÄĵĠ":8631,"gÇİngĠkÇĴuĠ":8632,"zhÇİnĠkÄģi":8633,"yÇĴngĠjiÇĶĠ":8634,"yÃ³uĠrÃ©nĠgÅįngĠyÇĲnĠzhÇĴngĠzÄģiĠpÃ©iĠ":8635,"qÃŃngĠxÃŃngĠ":8636,"tÄģiĠ":8637,"guÄ«ĠfÃłnĠ":8638,"qÃŃngĠxÃ¹Ġ":8639,"rÃ¨ĠdÃłiĠfÄĵngĠbÃłoĠ":8640,"yÃºĠĠĠ":8641,"cÃ¬ĠwÃ¨iĠ":8642,"zhÄĽngĠhÃ©Ġ":8643,"jÅ«ĠmÃŃnĠdiÇİnĠ":8644,"ĠpÃłiĠ":8645,"ĠxÇĶĠ":8646,"ĠzhÄĽngĠ":8647,"ĠshÃ¨nĠ":8648,"ĠĠĠ2017ĠniÃ¡nĠ":8649,"jÃ¬ĠjÃŃĠ":8650,"ĠzhÄ«ĠfÇĶĠ":8651,"ĠshÃ¨ĠhuÃ¬":8652,"cÃ¨ĠliÃ¡ng":8653,"ĠhÃłnĠzÃºĠ":8654,"fÄĵnĠbiÃ©ĠwÃ¨iĠ":8655,"ĠwÃ¡nĠchÃ©ngĠ":8656,"yÇĶĠshÃ¬Ġ":8657,"dÃ²ngĠgÅįngĠ":8658,"lÇĶĠkÃ¨Ġ":8659,"guÃłiĠ":8660,"gÇĴngĠ":8661,"ĠbÃ¹ĠjiÄģĠ":8662,"ĠyÇĲĠshÃłngĠdeĠ":8663,"ĠyÇĶĠcÇĲĠtÃ³ngĠshÃŃĠ":8664,"mÇĲĠyÃłĠ":8665,"ĠzhÇĶĠchÃŃĠ":8666,"ĠzhÇĲĠchÅ«Ġ":8667,"sÃ¬ĠmÃŃngĠ":8668,"bÄ«ngĠbÃ¹Ġ":8669,"ĠdeĠyÄ«ĠxiÄĵĠ":8670,"dÇĲĠdÃ¡":8671,"ĠsÅ«ĠliÃ¡nĠ":8672,"liÇİoĠjiÄĽ":8673,"ĠÅįuĠzhÅįuĠ":8674,"1953ĠniÃ¡nĠ":8675,"ĠsÄ«ĠkÇİĠ":8676,"gÃłoĠsÃ¹Ġ":8677,"fÄģĠzhÇİnĠdeĠ":8678,"yÇĲĠhÃ²uĠ":8679,"duÃ¬ĠhÃ©Ġ":8680,"zhÇĲĠyÃºĠ":8681,"gÃ©ĠlÃ¬Ġ":8682,"dÄĵngĠjÃ¬Ġ":8683,"1963ĠniÃ¡nĠ":8684,"jÃ¹ĠqÃŃngĠ":8685,"ĠwÃ©iĠyÃłĠ":8686,"ĠzhÅįngĠguÃ³ĠdÃłĠlÃ¹ĠdeĠ":8687,"chuÃłngĠbÃłnĠ":8688,"xiÃłĠxiÃ¡ĠyÇĲĠxiÃłĠdÃ¬ĠqÅ«Ġ":8689,"ĠpÃ¡iĠ":8690,"chÅ«ĠshÄĵngĠ":8691,"liÃºĠdeĠ":8692,"yÇİnĠshÄĵngĠ":8693,"dÃłĠshÇĲĠ":8694,"ĠxÄ«ĠÄģnĠ":8695,"jiÃ¨ĠshÃło":8696,"zÄ«ĠzhÃ¹Ġ":8697,"fÄĵiĠfÇİĠ":8698,"ĠzhuÄģnĠjÃŃĠ":8699,"bÃ¡iĠzhÃ¬Ġ":8700,"asĠĠĠ":8701,"ĠzhÃ¬ĠliÃ¡o":8702,"shÇĴuĠxÃŃĠ":8703,"ĠjiÃłoĠshÃ²uĠ":8704,"zhuÃłngĠkuÃłng":8705,"ĠbÃ¬ĠyÃ¨ĠyÃºĠ":8706,"xÃºnĠyÃ¡ngĠjiÃłnĠ":8707,"ĠĠĠjÃ¬Ġ":8708,"fÄĵnĠzhÄ«ĠyÄ«Ġ":8709,"wÃ©nĠhuÃłĠdeĠ":8710,"tÃºĠxiÃłngĠ":8711,"zÇĶĠchÃ©ng":8712,"ĠÃłoĠdÃłĠlÃ¬Ġ":8713,"xÄ«nĠjiÄģĠpÅįĠ":8714,"ĠguÄģng":8715,"ĠĠĠ2016ĠniÃ¡nĠ":8716,"yÃ¹ĠjÃ¬Ġ":8717,"kÅįngĠjÅ«n":8718,"shÃ¹nĠshÃŃĠ":8719,"taĠ":8720,"ĠbÃ¹ĠbiÃłnĠ":8721,"ĠchÅ«ĠxÃŃĠ":8722,"wÄĵiĠxiÇİnĠ":8723,"ĠzhÃ¨ĠbÃ¹Ġ":8724,"ĠniÃ¡nĠ7ĠyuÃ¨Ġ1ĠrÃ¬Ġ":8725,"wÃ¨nĠtÃŃĠdeĠ":8726,"ĠjÃ¬nĠshÃ¬ĠchÅ«ĠshÄĵnĠ":8727,"ĠzhÃ¬ĠshÇİo":8728,"ĠxiÃłnĠrÃ¹Ġ":8729,"nÃ¡nĠfÄģngĠ":8730,"ĠbÃ¨iĠqÃŃĠ":8731,"ĠqÃŃĠzhÅįngĠnÃ¡nĠ":8732,"mÃ¡oĠzÃ©ĠdÅįngĠ":8733,"ĠtÄģng":8734,"ĠgÃłiĠ":8735,"ĠĠĠ10ĠyuÃ¨Ġ":8736,"ziĠhÃ©Ġ":8737,"dÃ¡ĠÄĽrĠ":8738,"lÇĶĠshÃ¬Ġ":8739,"ĠbÃ¹ĠzhÃ¬Ġ":8740,"ĠdÃ¬ĠsÄ«Ġ":8741,"zÄ«ĠshÄĽngĠ":8742,"pÃŃnĠlÇľĠ":8743,"Ġãĥ¼":8744,"hÇİnĠ":8745,"liÇĶĠ":8746,"1941ĠniÃ¡nĠ":8747,"ĠzhÅįngĠzuÃ¬Ġ":8748,"ĠjÃ¬ĠniÃłn":8749,"pÃłnĠjuÃ©Ġ":8750,"gÃ²ngĠchÇİnĠzhÇĶĠyÃ¬Ġ":8751,"ĠyÇĲĠsÃ¨ĠliÃ¨":8752,"duÅįĠgÃ¨":8753,"qÇĶĠjiÄģĠ":8754,"meĠĠĠ":8755,"1969ĠniÃ¡nĠ":8756,"jÃºĠjÃºĠzhÇİngĠ":8757,"Ġi":8758,"chĠĠĠ":8759,"12ĠniÃ¡nĠ":8760,"fÃ¡nĠzhÃŃĠ":8761,"mÄģoĠ":8762,"gÄģnĠsÃ¹Ġ":8763,"Ġ15Ġ":8764,"ĠdÄģnĠrÃ¨n":8765,"zÃ¬ĠxÃŃngĠchÄĵĠ":8766,"Ġ2005":8767,"ĠĠĠbÄĽiĠ":8768,"miÃ¡oĠhuÃ¬Ġ":8769,"ĠyÄ«ĠmÃ©iĠ":8770,"fÄĵnĠlÃ¨i":8771,"ĠpÃŃngĠjiÃłĠ":8772,"duÅįĠyÃłngĠ":8773,"ĠnÃ¡nĠbÄĽiĠ":8774,"chÅ«ĠshÄĵngĠyÃºĠ":8775,"shÃłoĠjiÃłngĠ":8776,"fÄĵiĠlÃ¬Ġ":8777,"ĠsÄ«ĠxiÇİngĠ":8778,"zhÇĶĠchÇİngĠ":8779,"yÃ¡nĠzhÃ²ng":8780,"dÄģngĠjÃºĠ":8781,"ĠshÃ¬ĠzhÅįngĠxÄ«nĠ":8782,"Ġma":8783,"ĠĠĠlÃ¬ngĠwÃłiĠ":8784,"hÃ²uĠshÃ¬Ġ":8785,"zhÃ¹ĠdÃ¬Ġ":8786,"yÇĲnĠshÃŃĠ":8787,"ĠshÃ¬ĠwÅ«ĠkÃ¨ĠlÃ¡n":8788,"ÃłnĠzhÃłoĠ":8789,"hÅįngĠzhÃłĠ":8790,"ĠgÅįngĠzuÃ²ĠshÃ¬Ġ":8791,"cÄģnĠmÃ³uĠzhÇİngĠ":8792,"xiÃłngĠxÄ«Ġ":8793,"Ã¨rĠzhÃłnĠ":8794,"xuÄĵĠ":8795,"ĠchÃ©ngĠshÃ¬ĠdeĠ":8796,"ĠzhÄ«ĠjÃ¬Ġ":8797,"ĠdÃłĠjiÄģĠ":8798,"ĠmÃŃngĠchÄĵng":8799,"ĠtÃ³ngĠyÄ«Ġ":8800,"jiÄģoĠhuÃłnĠ":8801,"gÇİiĠshÃłn":8802,"ĠhÃ©ĠbÃ¬ngĠwÃ¨iĠ":8803,"Ġ80":8804,"yÇĶĠyÇĲĠ":8805,"zÃ©ĠyÇĴuĠ":8806,"lÃŃngĠdeĠ":8807,"kÄĵĠfÅ«":8808,"dÄģngĠxuÇİn":8809,"ĠgÅįngĠkÄģiĠsÃłiĠ":8810,"ĠjÇĲ":8811,"chuÃłnĠ":8812,"rÃ¹ĠxuÇİn":8813,"ĠchÅ«nĠ":8814,"ĠĠĠzhÃ¹Ġ":8815,"zhÃ¨ĠbÃ¹Ġ":8816,"bÇİoĠzhÃ¨ngĠ":8817,"ĠyÃºĠdÃ¬Ġ":8818,"shÄģngĠwÃ¡ngĠ":8819,"biÄģnĠjÃ¬ngĠ":8820,"guÇİngĠgÃło":8821,"ÄģiĠnÃłĠ":8822,"ĠfÄĵnĠbiÃ©ĠwÃ¨iĠ":8823,"wÃºĠrÃ©nĠjÄ«Ġ":8824,"cÃ¬ĠdÃłĠ":8825,"suÃ¬ĠshÃŃĠ":8826,"shÄĵnĠzhÃ¨n":8827,"ĠĠĠ2006":8828,"ĠdÃ¬ĠguÃ³ĠdeĠ":8829,"ĠjiÃłnĠhÃ©Ġ":8830,"bÇİoĠcÃºnĠ":8831,"bÃłoĠzhÇĲĠ":8832,"gÇİiĠbiÄģnĠ":8833,"zÄĵngĠqiÃ¡ngĠ":8834,"luÃ²ĠdeĠ":8835,"wÃłnĠrÃ©nĠ":8836,"qÃºnĠdeĠ":8837,"ĠzÃłiĠjÄ«Ġ":8838,"jÄ«ĠbÃ¹Ġ":8839,"zhÄ«ĠmÃŃngĠ":8840,"rÃ¹ĠdeĠ":8841,"guÃ³ĠnÃ¨iĠ":8842,"ĠgÅįngĠzhÃłnĠ":8843,"ĠyÇĲĠnÃ¡nĠ":8844,"xiÃłnĠfÇİĠ":8845,"zÇĲĠnÇļĠ":8846,"ĠxÃŃngĠchÃ©ngĠdeĠ":8847,"qÅ«ĠfÄĵnĠ":8848,"bÄģĠfÃ¡":8849,"bÃłnĠyÇİnĠ":8850,"Ġ1998ĠniÃ¡nĠ":8851,"cÇĲĠzhÄ«ĠwÃłiĠ":8852,"wÃłiĠwÃ©iĠ":8853,"chuÃŃĠ":8854,"sÄ«ĠxiÇİngĠ":8855,"ĠdÃłĠshÄ«Ġ":8856,"fÇİĠlÃ¬ngĠ":8857,"ĠchÅ«ĠxiÃłnĠleĠ":8858,"miÃ¡oĠshÃ¹":8859,"ĠdeĠmÃŃngĠzÃ¬Ġ":8860,"ĠAl":8861,"enĠĠĠ":8862,"ĠdÃłnĠyÄ«nĠ":8863,"shÄģĠhÃłiĠ":8864,"xiÃłĠdeĠyÃŃĠgÃ¨Ġ":8865,"huÃ²ĠshÃ¬Ġ":8866,"cÃ©ngĠshÃ¬Ġ":8867,"ĠdÃłĠzhÃ²ngĠ":8868,"shÃ²uĠhÃłiĠ":8869,"zhÇĲĠhuÄ«ĠguÄģnĠ":8870,"ĠxiÃ¡Ġ":8871,"Ġ20Ġ":8872,"wÃ©nĠzhÅįngĠ":8873,"bÅįĠÄĽrĠ":8874,"ĠyuÃ¨ĠtÃ¡i":8875,"ĠnÃ¡nĠjÄ«ngĠ":8876,"cÃ¡iĠwÃ¹Ġ":8877,"bÃ¬ngĠmÃ©iĠyÇĴuĠ":8878,"jiÃłoĠyÃ¹ĠbÃ¹Ġ":8879,"ĠfÄĵnĠbiÃ©ĠshÃ¬Ġ":8880,"gÃ²ngĠshÃŃĠ":8881,"ĠwÃ¨iĠyÃ³uĠ":8882,"miÃłnĠtÇĲĠ":8883,"yÄ«ngĠguÃ³ĠdeĠ":8884,"yÃ¡nĠjiÅ«ĠyuÃłnĠ":8885,"ĠyuÃ¡nĠshÇĲĠ":8886,"jÇĲngĠguÄģnĠ":8887,"ĠbÇĶĠ":8888,"ĠrÃ¨Ġ":8889,"nuÃ²ĠsÄ«Ġ":8890,"1980ĠniÃ¡nĠdÃłiĠ":8891,"ĠdeĠxiÇİoĠ":8892,"mÇİĠtÃ³uĠ":8893,"zhÇİnĠlÇİn":8894,"ĠshÄĵngĠzhÇİngĠyÃºĠhÇİiĠbÃ¡":8895,"ĠniÇĶĠyuÄĵ":8896,"chÄĵngĠhÃłoĠ":8897,"ĠzÃłiĠyÄ«ngĠguÃ³Ġ":8898,"hĠ":8899,"shÃ¨ngĠdÃ¬Ġ":8900,"31Ġ":8901,"1957ĠniÃ¡nĠ":8902,"ĠdÃłoĠshÃ¬Ġ":8903,"ĠdÃłĠxÃŃng":8904,"jÄ«ngĠyÃŃng":8905,"ĠyÃłnĠ":8906,"gÄģoĠyuÃ¡nĠ":8907,"tÃ¡oĠyuÃ¡nĠ":8908,"hÃ²uĠlÃ¡iĠ":8909,"ĠzhÃ¨ĠyÃłngĠdeĠ":8910,"pÃłnĠluÃłnĠ":8911,"ĠxÄ«nĠjiÄģĠ":8912,"ĠRo":8913,"ĠpiÃłnĠ":8914,"ĠpÃ©iĠ":8915,"mÇİĠdeĠ":8916,"diÇİnĠwÃ¨iĠ":8917,"hÄĵngĠ":8918,"1961ĠniÃ¡nĠ":8919,"ĠwÃ¨iĠbÃ¨iĠ":8920,"ĠyÃ¬Ġsi":8921,"ĠpÃŃngĠlÃ¹n":8922,"ĠshÃłngĠshÅ«Ġ":8923,"hÃ¡ngĠyÃ¨Ġ":8924,"5ĠgÃ¨Ġ":8925,"ĠĠĠ10":8926,"fÃ©iĠ":8927,"ĠhÃ©ĠfÇİĠ":8928,"qÃŃngĠjiÃ©Ġ":8929,"ĠmÃ¹ĠqiÃ¡nĠshÃłngĠwÃ¨iĠ":8930,"Ġ2000":8931,"tÅ«ĠchÅ«Ġ":8932,"ĠdÃłoĠbÃ¹Ġ":8933,"pÃŃngĠmÃŃnĠ":8934,"guÄģnĠfÃ¨iĠyÃ¡nĠ":8935,"tuÃ¡nĠzhÇİngĠ":8936,"ĠgÇİiĠwÃ©iĠ":8937,"shÃłngĠyÄ«Ġ":8938,"ĠyÃ¬ĠmÃŃngĠ":8939,"ĠyÇĲĠshÃ¬Ġ":8940,"ĠmÇĲĠdeĠdÃ¬ĠqÅ«Ġ":8941,"ĠxiÃłnĠdeĠyÃŃĠgÃ¨ĠfÄĵiĠjiÃłnĠzhÃ¬ĠdÃ¬ĠqÅ«Ġ":8942,"ÃłiĠguÃ³Ġ":8943,"ĠyÃ¬ĠjÃŃĠ":8944,"ĠÄĽrĠzÃłiĠ":8945,"ĠzuÃ²ĠchÅ«":8946,"tiÄģnĠhuÃ¡ngĠ":8947,"shÇĲĠyÃ²ngĠleĠ":8948,"fÃ¡ngĠzhÇĲĠ":8949,"dÃ²uĠzhÄĵngĠ":8950,"wÃ¹ĠzhÇĴngĠdeĠ":8951,"lĠĠĠ":8952,"luÃ³ĠjÃŃĠ":8953,"hÃ³ngĠjÅ«nĠ":8954,"jÄ«ngĠguÃ²":8955,"jiÃłoĠshÃ²u":8956,"ĠnĠ":8957,"tiÄģnĠjiÄģĠ":8958,"kÄģĠfÄĵiĠ":8959,"ĠhÃ©ĠtÄģĠdeĠ":8960,"ĠyÇĶĠdÃłĠ":8961,"ĠrÃ¨nĠmÃ¬ng":8962,"sÄģiĠnÃłĠ":8963,"lÃ¡iĠsÄ«Ġ":8964,"hÇİoĠyÇĴuĠ":8965,"zuÃ²ĠchÅ«":8966,"chÃ¡ngĠqÄ«":8967,"ĠzhÅįngĠgÃ²ngĠzhÅįngĠyÄģng":8968,"miÃłnĠshÃ¬Ġ":8969,"chÃ³uĠbÃ¨iĠ":8970,"lÇĲngĠyÃ¹":8971,"ĠkÅįngĠ":8972,"yuÃ¡nĠzhÅįngĠ":8973,"1944ĠniÃ¡nĠ":8974,"ĠyuÃ¡nĠzÃ©Ġ":8975,"dÅįngĠnÃŃĠ":8976,"xiÇİngĠfÇİĠ":8977,"pÇĲnĠpÃ¡i":8978,"mÃ¬ngĠlÃ¬ng":8979,"ĠnÃŃngĠ":8980,"nÃŃĠdeĠ":8981,"ĠzhÄ«ĠchÃ¹Ġ":8982,"dÃłiĠlÃ¡iĠ":8983,"ĠdÄģngĠxuÇİn":8984,"ĠmÃŃn":8985,"ĠĠĠ2021ĠniÃ¡nĠ":8986,"fÃºĠÄĽrĠ":8987,"hÃ¡ngĠxiÃłnĠ":8988,"ĠjÄ«ĠdÅ«ĠjiÃłoĠ":8989,"ĠtÃ³ngĠrÃ¬Ġ":8990,"ĠxÃŃngĠzhÃ¨ngĠzhÃ¨nĠqÅ«Ġ":8991,"ĠdeĠlÇĲĠ":8992,"ĠdeĠxÄ«Ġ":8993,"ĠshÃ¬ĠnÃ¡nĠjÃŃĠzhÅįuĠdeĠ":8994,"ĠnÃ¨i":8995,"Ġ1999ĠniÃ¡nĠ":8996,"ĠĠĠÃ©r":8997,"ĠĠĠsuÃŃĠ":8998,"dÃ¬ngĠzÃłiĠ":8999,"ĠwÃ¨iĠqÃŃĠ":9000,"ĠhÃ©ĠdÃło":9001,"lÃ¬ĠyÃ²ngĠ":9002,"ĠshÃŃĠdÃłiĠdeĠ":9003,"ĠzuÃ²ĠbiÄģoĠwÃ¨iĠ":9004,"xÃ¬ngĠbiÃ©Ġ":9005,"chÃ¡ngĠjiÄģngĠ":9006,"ĠwÃ©i":9007,"ĠtÃºn":9008,"15ĠniÃ¡nĠ":9009,"ĠbÃ¹ĠdÃ©Ġ":9010,"shÄ«ĠbÃłi":9011,"qÃ¬ĠtÇĲĠ":9012,"chÇİnĠyÃ¨":9013,"xiÅ«ĠgÇİi":9014,"ĠdÃ¬ĠÃ¨rĠcÃ¬Ġ":9015,"ÃłoĠsÄ«ĠkÇİĠ":9016,"huÃ¬ĠjÃŃĠ":9017,"zuÃ²ĠzhÅįngĠ":9018,"pÇĲnĠzhÃ¬Ġ":9019,"bÄ«nĠshÃ¬Ġ":9020,"ĠgÅįngĠjÄ«nĠ":9021,"fÃºĠhÃłoĠ":9022,"ĠzuÃ¬ĠchÅ«":9023,"6ĠgÃ¨Ġ":9024,"ĠyÃ¡oĠ":9025,"ĠĠĠzhÇĶĠyÃłoĠ":9026,"gÄĵĠÄĽrĠ":9027,"ĠyÇĶĠzhÃ²u":9028,"chÄĵngĠwÃ©i":9029,"shÃ¨ĠhuÃ¬ĠzhÇĶĠyÃ¬Ġ":9030,"dÃłngĠÃłnĠ":9031,"yÃŃngĠdÃ©ĠleĠ":9032,"Ġ1990":9033,"ĠĠĠzhÃłnĠ":9034,"ĠgÅįngĠzuÃ²ĠdeĠ":9035,"ĠzhÃ¨ĠcÃ¬Ġ":9036,"ĠniÃ¡nĠ12ĠyuÃ¨Ġ31ĠrÃ¬Ġ":9037,"ĠĠĠe":9038,"yÃ¹ĠdÃłoĠ":9039,"zhÃłnĠzhÃ¬Ġ":9040,"zhÃłnĠjÃ¬Ġ":9041,"jiÄĵĠjÃ¬n":9042,"wÇĶĠmÃŃngĠ":9043,"chÇİngĠshÃłngĠ":9044,"dÇĲĠzhÃ¬Ġ":9045,"chÇİngĠjÇĲngĠ":9046,"shÄģngĠdiÃłnĠ":9047,"ĠsÄģnĠshÃŃĠ":9048,"niÇİoĠlÃ¨iĠ":9049,"dÅįngĠxiÃłnĠ":9050,"ĠbÃ¹ĠÄĽr":9051,"ĠzhÃ¬ĠdÃ¬ngĠ":9052,"wÇĶĠqÃ¬":9053,"jÄ«ngĠjÃ¬ĠxuÃ©Ġ":9054,"lÃ¨iĠsÃ¬ĠyÃºĠ":9055,"ĠfÄģ":9056,"ĠniÃºĠ":9057,"zhÅįngĠshÃ¬ĠjÃ¬Ġ":9058,"dÃ²ngĠyuÃ¡nĠ":9059,"fÄĵnĠchÃ©ngĠ":9060,"kuÃ²ĠzhÄģngĠ":9061,"nÃłnĠmÃŃnĠ":9062,"32Ġ":9063,"ĠmÃŃngĠzÃ¬Ġ":9064,"jiÄĵĠchÃ¹":9065,"gÇİnĠrÇİn":9066,"rÃ©nĠmÃŃnĠdÃłiĠbiÇİoĠdÃłĠhuÃ¬Ġ":9067,"zÃłiĠĠĠ":9068,"ĠjÄ«ĠxiÃ¨Ġ":9069,"jÃ¹ĠfÄĵngĠ":9070,"liÃ¨ĠrÃ¹":9071,"yÃ¡nĠjiÅ«ĠsuÇĴ":9072,"jiÄģngĠsÅ«ĠshÄĽngĠ":9073,"ĠchÄģo":9074,"ĠjiÇİoĠ":9075,"ĠxiÃ³ngĠ":9076,"fÃºĠdÃ©Ġ":9077,"yÇĲnĠlÃ¬Ġ":9078,"ĠxiÃłnĠdÃłi":9079,"ĠĠĠduÃ¬ĠyÃºĠ":9080,"jiÇİngĠdeĠ":9081,"ĠtÄģĠshuÅįĠ":9082,"zhÃ²ngĠzhÃŃĠ":9083,"ĠqÃ¬":9084,"Ġ1ĠyuÃ¨Ġ":9085,"ĠshÃ²uĠdÃłoĠ":9086,"ĠxiÅįngĠ":9087,"1940ĠniÃ¡nĠ":9088,"1951ĠniÃ¡nĠ":9089,"ĠzhÅįngĠshÅ«Ġ":9090,"hÃ²uĠxuÇİnĠrÃ©nĠ":9091,"yÃ¡nĠshÄĵnĠ":9092,"ĠdÃłnĠbÃ¹Ġ":9093,"ĠwÃ©iĠzhÇĲĠ":9094,"zhÅ«ĠlÃ³ngĠ":9095,"mÃ¹ĠsÄ«ĠlÃŃnĠ":9096,"Ġ36":9097,"ĠĠĠkÃ¨Ġ":9098,"fÄģngĠchÃ©ngĠ":9099,"chÄĵĠdÃłoĠ":9100,"sÅ«ĠlÇĲĠ":9101,"guÄģĠ":9102,"shÄĵngĠmÃŃngĠ":9103,"zhÃ¹ĠcÃ¨Ġ":9104,"bÄģnĠfÄģĠ":9105,"gÃ¨ngĠduÅį":9106,"hÃłiĠÃ©":9107,"ĠcÃ©ngĠzÃłiĠ":9108,"ĠtÃłiĠyÃ¡ngĠ":9109,"zÅ«ĠjiÃ¨Ġ":9110,"ĠjiÄģĠjÃ¬ngĠ":9111,"ĠyÃ³uĠyÇĴngĠ":9112,"dÄĽngĠzhÃŃĠ":9113,"ĠĠĠfor":9114,"rÃ©nĠwÃ¨iĠ":9115,"duÃ¬ĠyÇĴuĠ":9116,"tÇĲĠxÃŃngĠ":9117,"nÃºĠ":9118,"yÄĵĠsÅ«":9119,"ĠjÄ«ĠchÇĶĠ":9120,"ĠchÅ«ĠshÄĵnĠ":9121,"bÇİoĠcÃºn":9122,"gÃ²ngĠhÃ©ĠguÃ³ĠdeĠ":9123,"ĠwÃ¨iĠfÃºĠqÃŃĠyÃºĠgÄģng":9124,"Ġe":9125,"lÇİngĠdÃ©Ġ":9126,"ĠchÅ«ĠrÃ¹ĠkÇĴuĠ":9127,"fÄĵnĠqÅ«Ġ":9128,"lÇĲngĠxiÃ¹":9129,"yÃ¡nĠjiÅ«ĠyuÃ¡nĠ":9130,"xiÃ©ĠtiÃ¡o":9131,"ĠshÃ¬ĠdÃ¬ĠyÄ«Ġ":9132,"ĠbÃ¬ngĠqiÄĽĠzÃłiĠ":9133,"jÇĲnĠbiÄģoĠsÃłi":9134,"ĠzhÇĶ":9135,"ĠwÄĵn":9136,"ĠJR":9137,"ÃłiĠdÃ©ĠhuÃ¡Ġ":9138,"xiÃłnĠshÃŃĠ":9139,"shÇĲĠzhÅįngĠ":9140,"qÇĲĠdeĠ":9141,"chÄĵngĠzhÄ«ĠwÃ¨iĠ":9142,"bÄģnĠbÃ¹Ġ":9143,"hÃ¡ngĠzhÅįuĠ":9144,"1930ĠniÃ¡nĠ":9145,"jiÃłoĠzuÃ²Ġ":9146,"tÅįngĠxÃ¬nĠ":9147,"nÇļĠyÇİnĠyuÃ¡nĠ":9148,"huÇĴĠbÃłnĠ":9149,"kÇİoĠgÇĶĠ":9150,"miÃłnĠjÄ«ĠhÃ©Ġ":9151,"zuÃ¬ĠzÇİoĠdeĠ":9152,"guÄ«ĠmÃ³ĠdeĠ":9153,"Ġ22":9154,"pÃ¡iĠdÃ©ĠzhÇĶĠ":9155,"bÄ«ngĠlÃ¬Ġ":9156,"chÃ¨nĠ":9157,"ĠjiÄģĠmÃ©ngĠ":9158,"mÇİĠlÃ¡iĠ":9159,"chÃ¨ĠdÇĲĠ":9160,"xÄ«ĠyuÃ¡nĠ":9161,"quÃ¡nĠxiÃłnĠ":9162,"bÃłiĠzhÃłnĠ":9163,"rÃ©ngĠyÇĴuĠ":9164,"ĠchÃ©ngĠxÃ¹":9165,"ĠjiÃłnĠyÇĴuĠ":9166,"shÇĴuĠduÃłnĠ":9167,"chÃ©ngĠzÃłiĠ":9168,"quÃ¡nĠqiÃº":9169,"ĠzhÅįngĠfÄģĠxiÃłnĠ":9170,"zÃºĠxiÃ©Ġ":9171,"ĠĠĠst":9172,"zÃºĠrÃ©nĠ":9173,"zÄģoĠshÃ²uĠ":9174,"shÇĴuĠfÇĶĠ":9175,"fÄĵnĠlÃŃĠ":9176,"ĠzhÅįngĠguÃ³ĠgÃ²ngĠchÇİnĠdÇİng":9177,"miÇİnĠdiÄģnĠ":9178,"ĠĠĠLi":9179,"jiÄģngĠshÃ¬Ġ":9180,"ĠgÄģiĠdÃ¬ĠdeĠ":9181,"ĠgÅįngĠyuÃ¡nĠqiÃ¡nĠ":9182,"ĠdÃ¬ĠshÃŃĠyÄ«Ġ":9183,"ĠĠĠfÃºĠ":9184,"ĠĠĠ2015ĠniÃ¡nĠ":9185,"yÇĲĠshÃłngĠ":9186,"hÃłnĠyÇĶĠ":9187,"amĠ":9188,"1931ĠniÃ¡nĠ":9189,"ĠwÃ¨iĠzhÅįngĠguÃ³Ġ":9190,"ĠhÃ©ĠlÃ¡n":9191,"ĠqiÃºĠyÃ¹nĠdÃ²ngĠyuÃ¡nĠ":9192,"jiÄģoĠchÄģĠ":9193,"ÃłiĠqÃŃngĠ":9194,"tuÃ¬ĠxiÅ«":9195,"ĠlÃ¬ngĠyÃ¬ĠfÄģngĠmiÃłnĠ":9196,"ĠbÃ¹ĠdÃ©ĠbÃ¹Ġ":9197,"ĠmÃ¹ĠqiÃ¡nĠshÃłngĠwÃ¨iĠyÃ³uĠrÃ©nĠgÅįngĠyÇĲnĠzhÇĴngĠzÄģiĠpÃ©iĠ":9198,"jiÄģnĠzhÃ¬Ġ":9199,"huÃ¡ĠdÃłĠxuÃ©Ġ":9200,"cÃ¡iĠchÇİnĠ":9201,"wÃ¹ĠlÇĲĠxuÃ©Ġ":9202,"ĠĠĠ4ĠyuÃ¨Ġ":9203,"fÄĵnĠwÃ¨iĠ":9204,"diĠ":9205,"tÃ³uĠdeĠ":9206,"ĠzhÃ¨ĠyÄĽĠshÃ¬Ġ":9207,"gÇİnĠjuÃ©Ġ":9208,"ÃłnĠzhÅįngĠ":9209,"dÃ¡ĠdeĠ":9210,"wÇİngĠdeĠ":9211,"mÃ³uĠshÄģĠ":9212,"ĠzÃłiĠgÅįngĠ":9213,"ĠjiÃłnĠzÃło":9214,"ĠyÄ«nĠdeĠ":9215,"bÃłoĠzhÃł":9216,"dÇİoĠyÇİn":9217,"ĠxÄ«ĠbÄģnĠyÃ¡ĠyÇĶĠ":9218,"ĠĠĠ6":9219,"yuÃ¡nĠshÃŃĠ":9220,"jÄ«nĠrÃ¬Ġ":9221,"lÃŃnĠsÄ«Ġ":9222,"xuÃ©ĠshÄĵng":9223,"tÃŃĠgÅįngĠdeĠ":9224,"ĠfÄĵnĠwÃ©iĠ":9225,"kÇİĠluÃ³ĠlÃ¡iĠnÃł":9226,"fÇİĠshÃ¬Ġ":9227,"rÃłngĠtÄģĠ":9228,"ĠjÃŃĠyÄ«Ġ":9229,"ĠchÅ«ĠyÄ«Ġ":9230,"ĠDĠ":9231,"ĠqiÅ«":9232,"ĠtÃ²uĠguÃ²Ġ":9233,"tÃ¨ĠhÃ©Ġ":9234,"hÃłnĠzÃ¬Ġ":9235,"zhÅįngĠbÃ¹Ġ":9236,"ĠdÃłĠyuÄĵ":9237,"shÄĵngĠtÃłiĠ":9238,"wÄĽiĠyuÃ¡nĠhuÃ¬ĠdeĠ":9239,"ĠwÃ©nĠhuÃł":9240,"ĠdÄģngĠxuÇİnĠ":9241,"ĠzhÃ¬ĠzuÃ²ĠrÃ©nĠ":9242,"xiÃłĠxiÃ¡ĠdeĠyÃŃĠgÃ¨ĠxiÄģngĠ":9243,"ĠĠĠ15":9244,"nÃ¡nĠsÄ«ĠlÄģĠ":9245,"tÃłiĠhÃ²uĠ":9246,"gÃłnĠxiÃłnĠ":9247,"ĠshÃ¬ĠnÃ¡nĠ":9248,"zÃºĠzÃ¬ĠzhÃ¬Ġ":9249,"qiÄģnĠshÇĶ":9250,"ĠrÃ¨nĠhÃ©Ġ":9251,"ĠyÄģoĠqiÃº":9252,"ziĠgÅįngĠsÄ«Ġ":9253,"1933ĠniÃ¡nĠ":9254,"ĠyuÃ¨ĠtuÃ¡n":9255,"ĠyÃ¬ĠdiÇİnĠ":9256,"duÃ¬ĠwÃłiĠ":9257,"ĠhuÃ¬ĠbÃ¨iĠ":9258,"yÃ¡nĠchÃ¡ng":9259,"qÇĲĠsÃ¹Ġ":9260,"zhÃ²ngĠdiÇİn":9261,"shuÇĲĠkÃ¹Ġ":9262,"Ġ2025":9263,"Ġ34":9264,"ĠchÃ¹Ġ":9265,"jÃ¬ĠyÃºĠ":9266,"tÃ¨ĠjÃŃĠ":9267,"1928ĠniÃ¡nĠ":9268,"ĠshÃ¬ĠxiÄģngĠgÇİngĠ":9269,"shÄĵnĠzhÃ¨nĠ":9270,"xÃ¹ĠshÃ¹Ġ":9271,"ĠmÇİĠlÃ¡iĠxÄ«ĠyÃłĠ":9272,"ĠfÄĵng":9273,"mÃ¹ĠshÃ¬Ġ":9274,"ĠzÃłiĠnÃ¡nĠ":9275,"ĠhÃ©ĠtÃ³ngĠ":9276,"shÃłngĠshÃ¹Ġ":9277,"wÇĶĠhÃłn":9278,"ĠĠĠgÃ¨ĠrÃ©nĠshÄĵngĠhuÃ³Ġ":9279,"ĠkÄģngĠxÄ«Ġ":9280,"jÃ¬nĠjÃŃĠ":9281,"fÃ¹ĠzhÃ¬Ġ":9282,"60Ġ":9283,"cÅ«Ġ":9284,"ĠshÃ¬ĠgÃ¨Ġ":9285,"dÃ¬ngĠqÄ«Ġ":9286,"sÄģnĠcÃ¬Ġ":9287,"gÇİiĠwÃ©i":9288,"biÄģnĠmÇİĠ":9289,"ĠsuÃŃĠzheĠ":9290,"ĠhÄģĠÄĽrĠ":9291,"ĠjÃ¬ĠsuÃłnĠjÄ«Ġ":9292,"Ġà¸":9293,"ĠkuÄģnĠ":9294,"ĠĠĠ6Ġ":9295,"zhÃłnĠwÃ¨iĠ":9296,"rÃ¹ĠwÃ©iĠ":9297,"qÃ¬ĠrÃ©nĠ":9298,"xiÃ©ĠdÃłiĠ":9299,"wÃ²ĠÄĽrĠ":9300,"tÃłnĠsuÇĴĠ":9301,"codiceĠ":9302,"bÅįĠfÃłng":9303,"miÃ¡oĠshÃ¹ĠwÃ¨iĠ":9304,"ĠfÇİnĠduÃ¬Ġ":9305,"ĠĠĠdÅįngĠ":9306,"ĠĠĠ7ĠyuÃ¨Ġ":9307,"shÃ¹ĠhÃ©Ġ":9308,"shÇĴuĠbÃ¹Ġ":9309,"shÄ«ĠhÃ©Ġ":9310,"biÄģnĠchÃ©ngĠ":9311,"xiÅ«ĠsÄ«Ġ":9312,"sÇİoĠ":9313,"duÃ¬ĠxiÃłngĠ":9314,"tÃ¡iĠbÃ¬Ġ":9315,"ĠdeĠjÄ«ĠhuÃ¬Ġ":9316,"ĠdÃŃ":9317,"ĠĠĠs":9318,"zhuÇİnĠwÃ©iĠ":9319,"1942ĠniÃ¡nĠ":9320,"bÄĵnĠ":9321,"ĠguÃ³ĠgÅįngĠ":9322,"ĠyuÃ¡nĠyÇĴuĠ":9323,"ĠgÃ¨ĠdÃłĠ":9324,"ĠkÃ¨ĠlÇĲĠsÄ«Ġ":9325,"dÃ²ngĠchÄĵĠ":9326,"bÄģnĠcÃ¬Ġ":9327,"zhÇĶĠchÃŃĠrÃ©nĠ":9328,"ĠbiÇİoĠ":9329,"ĠĠĠzhÃ¬ĠzuÃ²Ġ":9330,"juÃ©ĠleĠ":9331,"rÄĽnĠ":9332,"ĠbÃ¹ĠzhÃ¨ngĠ":9333,"ĠlÃ¬ĠkÃ¨Ġ":9334,"ĠgÅįngĠkÄģi":9335,"lÃ¹ĠshÃłngĠ":9336,"guÄ«ĠhuÃł":9337,"mÃ²ĠsÄ«ĠkÄĵ":9338,"ÄģnĠrÃ©nĠ":9339,"fÅ«ĠfÃ¹Ġ":9340,"zhuÃłngĠbÃ¬ngĠdÃº":9341,"ĠchÃ©ngĠbÇİoĠ":9342,"mÃŃnĠjÃ¬nĠ":9343,"xÃ¬ĠliÃ¨ĠdeĠ":9344,"JĠ":9345,"ĠĠĠ2020ĠniÃ¡nĠ":9346,"qÃŃĠshÃ¬Ġ":9347,"nÃłĠsÄ«Ġ":9348,"hÃ¡ngĠzhÃłnĠ":9349,"jiÃłnĠzÃłoĠ":9350,"tÃ¡iĠwÄģnĠdeĠ":9351,"pÄ«ĠpÃŃng":9352,"ĠĠĠxiÄģngĠgÇİngĠ":9353,"fÃ¹ĠyÇĴuĠ":9354,"jÄ«ngĠdeĠ":9355,"dÅįngĠdeĠ":9356,"ĠdÃ¬Ġ2Ġ":9357,"zhÃ¨ngĠquÃ¡nĠ":9358,"qÅ«ĠjiÄģnĠ":9359,"ĠgÃ¨ĠzÃ¬Ġ":9360,"Ġ90":9361,"ĠgÃ¹ĠshÃ¬Ġ":9362,"dÇĶĠ":9363,"ĠzhÅįngĠzhÇĲĠ":9364,"ĠchÃ©ngĠwÃ©iĠyÄ«Ġ":9365,"zuÇĴĠyÃ²u":9366,"ĠyÇĴuĠyÄ«ĠxiÄĵĠ":9367,"kuÃ²ĠzhÇİnĠ":9368,"jiÃ¹ĠdÃºĠyÃºĠ":9369,"ĠtÇİ":9370,"bÃ¨iĠshÃ¬Ġ":9371,"ĠguÃ³ĠyÇĶĠ":9372,"bÄģĠnÃ¨n":9373,"ĠxiÄģngĠdÄģngĠ":9374,"dÃºĠtÃ¨ĠdeĠ":9375,"fÃłnĠwÃ©i":9376,"ĠguÃ³ĠmÃŃnĠdÇİngĠ":9377,"ĠĠĠ2014ĠniÃ¡nĠ":9378,"xiÃłnĠxiÃłngĠ":9379,"kÄĵĠÄĽrĠ":9380,"wÃºĠÄĽrĠ":9381,"ĠniÃ¡nĠniÃ¡nĠ":9382,"kÄģiĠmÃ¹Ġ":9383,"mÃŃnĠzhÇĶ":9384,"zhÃ¨ĠzhÇĴng":9385,"ĠzhÃłnĠlÇĲngĠ":9386,"tiÄģnĠtÃ¡ngĠ":9387,"tÃ³ngĠyÃłng":9388,"cÃ¨ĠlÃ¼Ã¨Ġ":9389,"jiÇİngĠzuÃ¬ĠjiÄģĠ":9390,"qiÃºĠduÃ¬":9391,"2ĠmÇĲĠ":9392,"ĠniÃ¡nĠqiÃ¡nĠ":9393,"ĠhuÃ¬ĠshÃłngĠ":9394,"fÄĵngĠgÃ©":9395,"yÃŃĠmÃŃn":9396,"huÃ³ĠdÃ²ngĠdeĠ":9397,"ĠcÃŃ":9398,"ĠcÇİiĠ":9399,"ĠĠĠlÄģĠ":9400,"mÄĽiĠrÃ¬Ġ":9401,"jiÅ«Ġ":9402,"yÃ¬nĠxiÃłngĠ":9403,"veĠ":9404,"ĠmÃŃngĠxÄ«ngĠ":9405,"diÃłnĠchÄĵĠ":9406,"ĠqiÃ¡nĠlÃ³ngĠ":9407,"ĠpÃŃ":9408,"Ġ38":9409,"ĠshÇİnĠxÄ«Ġ":9410,"ĠĠĠ2010ĠniÃ¡nĠ":9411,"shÅ«ĠshÃ¬Ġ":9412,"1943ĠniÃ¡nĠ":9413,"ĠzÃłiĠyuÃ¡nĠ":9414,"ĠrÃ¬ĠqÄ«Ġ":9415,"nÃ¨iĠmÃ©ngĠgÇĶĠ":9416,"xiÃ©ĠshÄģngĠ":9417,"2ĠĠĠ":9418,"Ġ55":9419,"ĠdÃ¬ĠbÄģĠ":9420,"ĠjÃŃĠyÇĲĠ":9421,"ĠzhÅįuĠrÃ©nĠ":9422,"ĠqÃŃĠbÄ«ngĠ":9423,"fÇĶĠzhÃ¹Ġ":9424,"lÇĲngĠxiÄģnĠ":9425,"cuÄ«ĠhuÇĲ":9426,"ĠĠĠ8ĠyuÃ¨Ġ":9427,"pÇĲnĠdeĠ":9428,"zhÃłoĠpiÄģn":9429,"ĠhuÄģ":9430,"ĠlÃº":9431,"chuÄģnĠyuÃ¨Ġ":9432,"terĠ":9433,"jÃ¬nĠzhÇĲĠ":9434,"Ġ75":9435,"ĠlÃ¡oĠ":9436,"Ã¨ĠÄĽrĠ":9437,"lÃ¹ĠyÇĶĠ":9438,"dÃłĠxuÃ©":9439,"ĠrÃ¬ĠyÃ¬Ġ":9440,"shÄĵngĠmÃ¬ngĠ":9441,"yÃ³uĠtÃłiĠ":9442,"tÃ¨ĠqÅ«Ġ":9443,"ĠbÃ¬ngĠbiÇİoĠshÃ¬Ġ":9444,"zuÃ¬ĠduÅįĠdeĠ":9445,"ĠtÃ¨ĠbiÃ©Ġ":9446,"Ã¡oĠ":9447,"verĠ":9448,"xÄ«ĠwÃłngĠ":9449,"jiÃłoĠkÄĵĠ":9450,"chÇİngĠbÇĲĠsÃłiĠ":9451,"ĠhÃ©ĠliÃºĠyÃ¹Ġ":9452,"chÃ©ngĠshÃŃĠ":9453,"gÃ©ĠsÄ«Ġ":9454,"ĠshÃ¬ĠyuÃ¡nĠ":9455,"jÃ¹ĠdÃłĠdeĠ":9456,"jiÄĵĠwÃ¨iĠzhÄ«Ġ":9457,"ĠshÃ¬ĠyÃŃĠgÃ¨ĠwÃ¨iĠyÃºĠmÄĽiĠguÃ³Ġ":9458,"miÃłnĠjÄ«ĠhÃ©ĠrÃ©nĠkÇĴuĠ":9459,"ĠØ":9460,"fÄģngĠwÃ¨iĠ":9461,"cÇĲĠshÃ¬Ġ":9462,"jÅ«ĠyÃºĠ":9463,"ĠtÄģĠjiÄģngĠ":9464,"zÇĴngĠjÄ«ngĠlÇĲĠ":9465,"bÃłnĠyÇİn":9466,"kÇİĠlÄģĠ":9467,"ĠtÃ³ngĠshÃŃĠyÄĽĠ":9468,"hÃ¨ĠsÃ¨Ġ":9469,"mÃŃĠnÇĲĠ":9470,"xiÄģngĠdeĠ":9471,"jiÇİĠjÄ«Ġ":9472,"reĠ":9473,"shÃłngĠxiÃłĠ":9474,"zhÃ¹ĠzhÃ¡i":9475,"fÄĵnĠlÃ¡nĠ":9476,"bÇİoĠzhÃłng":9477,"ĠĠĠmÃ¹ĠqiÃ¡nĠ":9478,"duÅįĠmÃŃngĠ":9479,"bÅįĠlÃ¬Ġ":9480,"nÃºĠlÃ¬Ġ":9481,"1912ĠniÃ¡nĠ":9482,"ĠguÃ³ĠwÃ¡ng":9483,"ĠchÅ«ĠrÃ¨n":9484,"ĠjÅ«nĠguÄģnĠ":9485,"huÃ¡ngĠjÄ«n":9486,"ĠqÃŃĠzhÅįngĠyÇĴuĠ":9487,"ĠzhÃłnĠdÃ¬Ġ":9488,"hÃ¡ngĠkÅįngĠgÅįngĠsÄ«Ġ":9489,"ĠgÄģiĠdÃ¬ĠdeĠmiÃłnĠjÄ«ĠhÃ©ĠrÃ©nĠkÇĴuĠ":9490,"ĠgÄģiĠdÃ¬ĠdeĠmiÃłnĠjÄ«ĠhÃ©ĠrÃ©nĠkÇĴuĠjiÄĵĠwÃ¨iĠzhÄ«Ġ":9491,"ĠcÃłiĠ":9492,"yuÃ¨ĠhÃ©Ġ":9493,"qÅ«ĠjÃŃĠ":9494,"hÃłnĠlÃŃnĠ":9495,"ĠzhÃ¬ĠlÃ¬ĠyÃºĠ":9496,"ĠLe":9497,"ĠnÃ³ngĠ":9498,"ĠyÃ¡nĠjiÅ«Ġ":9499,"ĠyuÇİnĠ":9500,"rÃ¹nĠ":9501,"dÃłiĠbÇĶĠ":9502,"gÄģoĠdÄĽng":9503,"jiÃłnĠkÄģngĠ":9504,"yÃŃĠjÃ¬Ġ":9505,"dÄģnĠxÄ«nĠ":9506,"zÃºĠyÇĲĠ":9507,"ĠshÃŃĠyuÃ¨Ġ":9508,"ĠyÄ«ĠtiÄģnĠ":9509,"tuÃ¡nĠjiÃ©Ġ":9510,"ĠyÄ«nĠcÇĲĠzÃłiĠ":9511,"fÃ¹ĠyÇĶĠ":9512,"bÇĲĠÄĽrĠ":9513,"yÄ«ngĠjÅ«nĠ":9514,"guÃ³ĠfÃ¡ng":9515,"ĠchÅ«ĠxiÃłn":9516,"ĠjiÄģĠrÃ¹ĠleĠ":9517,"huÃ¬ĠyÃ¬ĠshÃłngĠ":9518,"cÃºnĠzÃłiĠyÃºĠ":9519,"ĠhuÃ¡i":9520,"ĠdÅįuĠshÃ¬Ġ":9521,"ĠĠĠX":9522,"jiÃ¹ĠyÇĴuĠ":9523,"diÇİnĠxÃŃngĠdeĠ":9524,"tÃ¡ngĠdeĠ":9525,"biÄģoĠjÃ¬Ġ":9526,"1929ĠniÃ¡nĠ":9527,"ĠyÄ«ĠchÃ¡ngĠ":9528,"ĠdÃ©ĠlÃ¬Ġ":9529,"ĠdÃłiĠlÃ¡iĠ":9530,"ĠgÅįngĠbÃ¹Ġ":9531,"jÃ¹ĠzhÅįngĠ":9532,"mÃ¹ĠzhÃ¬Ġ":9533,"sÄģnĠwÃ¨iĠ":9534,"tÄ«ngĠdeĠ":9535,"zhuÃłngĠdeĠ":9536,"jÃ¬ĠxÃ¹":9537,"ĠkÃ¨ĠluÃ³Ġ":9538,"ĠjÃ¬nĠjÃŃĠ":9539,"gÄģoĠjiÃłĠ":9540,"shÄģngĠpÇĲnĠ":9541,"ĠĠĠwÃ¨iĠleĠ":9542,"Ġ2004":9543,"ÄģĠjÄ«Ġ":9544,"ÄģnĠshÃ¬Ġ":9545,"ĠĠĠ9ĠyuÃ¨Ġ":9546,"ĠĠĠ2012ĠniÃ¡nĠ":9547,"ĠĠĠsuÄ«ĠrÃ¡nĠ":9548,"xÃ¬ĠjÅ«nĠ":9549,"fÃºĠshÃ¨Ġ":9550,"bÅįĠchÅ«":9551,"ĠyÃ¬ĠwÃłiĠ":9552,"ĠdÃłĠguÄ«ĠmÃ³Ġ":9553,"chÇİnĠshÄĵng":9554,"ĠzhÇĶĠchÃŃ":9555,"bÇİnĠbÄĽnĠdeĠ":9556,"quÃ¨ĠbÇİoĠ":9557,"ĠshÇĲĠyÃ²ng":9558,"ruÃ¬ĠdiÇİn":9559,"5ĠgÅįngĠlÇĲĠ":9560,"ĠshÃłoĠ":9561,"ĠĠĠ2013ĠniÃ¡nĠ":9562,"chÃ¡ĠlÇĲĠ":9563,"1927ĠniÃ¡nĠ":9564,"ĠdeĠjÃ¬ĠhuÃłĠ":9565,"ĠguÃ³ĠmÃŃnĠdÇİng":9566,"ĠzhÇĶĠyÃłoĠshÃ¬Ġ":9567,"ĠmÃ¨ngĠ":9568,"jiÇİnĠlÃ¬Ġ":9569,"gÄĽiĠtÄģĠ":9570,"seĠĠĠ":9571,"yÃŃĠzhÇĲ":9572,"mÃ©ngĠtÃ¨Ġ":9573,"duÇİnĠzÃłn":9574,"ĠguÃ³ĠmÃŃnĠzhÃ¨ngĠfÇĶĠ":9575,"ĠhÃ¹":9576,"21ĠniÃ¡nĠ":9577,"atĠĠĠ":9578,"zÄĽnĠ":9579,"ĠhÃ©ĠlÃ¬Ġ":9580,"ĠshÃŃĠjiÄģnĠdeĠ":9581,"lÃ¹ĠxÃ¹Ġ":9582,"juÃ©ĠsÃłiĠzhÅįngĠ":9583,"ĠfÄĵnĠbÃ¹ĠzÃłiĠ":9584,"chuÃłngĠshÇĲĠrÃ©nĠ":9585,"hÄĵiĠlÃ³ngĠjiÄģngĠ":9586,"ĠjÄ«ĠyÃºĠ":9587,"jiÄģĠshÃ¬Ġ":9588,"pÃŃngĠjÅ«n":9589,"duÃłnĠshÃŃĠjiÄģnĠ":9590,"1932ĠniÃ¡nĠ":9591,"ĠyÇĲĠ1Ġ":9592,"ĠxÄ«ĠlÇĲĠ":9593,"fÄģĠhuÄ«":9594,"ĠwÃ©iĠqÃŃ":9595,"dÄģnĠdÇİĠ":9596,"ĠzhÇĶĠrÃ¨nĠ":9597,"tÃŃngĠyÃ¹nĠ":9598,"ĠcÃ©ngĠjÄ«ngĠ":9599,"Ġ70":9600,"ĠcÅ«nĠ":9601,"qiÃ¡nĠzÃłiĠ":9602,"diÃłoĠyÃºĠ":9603,"ĠchÅ«ĠshÃ²uĠ":9604,"fÄģĠyÃ¡nĠrÃ©nĠ":9605,"ĠkÄĽnĠ":9606,"ĠĠĠqÃŃĠzhÅįngĠ":9607,"fÃºĠzhÅįuĠ":9608,"shÄ«ĠdÃ¬Ġ":9609,"80ĠniÃ¡nĠ":9610,"guÄģnĠcÃ¨":9611,"tÇİĠnÃŃ":9612,"Ġw":9613,"ĠkÄĽĠnÃ©ng":9614,"Ġ1997ĠniÃ¡nĠ":9615,"shÃ¹ĠrÃ©nĠ":9616,"xÃ¹ĠjÃŃĠ":9617,"chuÄģnĠguÃ²Ġ":9618,"fÃ¹ĠzhÇĶĠxÃŃĠ":9619,"ĠzhÅįuĠwÃ©iĠ":9620,"ĠdeĠyuÃ¡nĠyÄ«nĠ":9621,"ĠdÃ¹":9622,"zhÅįngĠhÃ©Ġ":9623,"shÇĲĠdÃ¬Ġ":9624,"wÃ¹ĠyÇĶĠ":9625,"wÃ¡ngĠhÃ²uĠ":9626,"chÃ¡iĠ":9627,"ĠzhÄ«ĠchÄĵngĠ":9628,"ĠdÃłnĠqÃŃĠ":9629,"ĠxuÃ©ĠxÃŃ":9630,"quÃ¨ĠdÃ¬ng":9631,"qÃºnĠzhÃ²ngĠ":9632,"ĠshÃ¬ĠjiÃ¨ĠdeĠ":9633,"ĠzÇĴngĠtÇĴngĠ":9634,"tÃłnĠxiÇİn":9635,"nÃŃĠyÃłĠdeĠ":9636,"ĠĠĠchÄĵĠzhÃłnĠjiÃ©ĠgÃ²uĠ":9637,"xÃŃngĠxiÃłngĠ":9638,"cÃ¬ĠjÄ«Ġ":9639,"juÃ©ĠyÃºĠ":9640,"suÃłnĠfÇİĠ":9641,"shÃ¹ĠmÃ¹Ġ":9642,"ĠÃ©rĠlÃ¡iĠ":9643,"zhÃŃĠbÅįĠ":9644,"ĠfÃ¹ĠgÃłiĠ":9645,"lÇĲngĠyÃ¹ĠdeĠ":9646,"gÃłoĠsÃ¹":9647,"chuÃłngĠzuÃ²":9648,"ĠniÃ¡nĠdÃłiĠchÅ«Ġ":9649,"ÃłoĠdÃłĠlÃ¬ĠyÃł":9650,"ĠĠĠcÄģnĠkÇİoĠ":9651,"sonĠ":9652,"yÇĴuĠguÄģnĠ":9653,"ĠchÃ©ngĠlÃ¬ĠleĠ":9654,"qÃ¹ĠshÃ¬ĠhÃ²uĠ":9655,"ĠqÃŃn":9656,"yÃ¹ĠbÃ¨iĠ":9657,"shÃ©nĠdeĠ":9658,"chÃ³ngĠfÃ¹Ġ":9659,"tuÄ«ĠxÃŃngĠ":9660,"duÇĴĠ":9661,"ĠdÃłoĠzhÅįngĠ":9662,"hÇİiĠyÃ¡ng":9663,"ĠdeĠdÃ¬ĠyÃŃĠgÃ¨Ġ":9664,"ĠlÃ¡n":9665,"ÇİiĠ":9666,"zhÇİnĠxiÃłnĠ":9667,"ĠshÃ¬ĠbÃ¨iĠ":9668,"ĠyÄ«nĠyuÃ¡nĠ":9669,"ĠyÄ«nĠqÃŃĠ":9670,"fÃºĠhuÃłĠ":9671,"jÃ¬ngĠnÃ¨iĠdeĠ":9672,"gÄĵĠcÃŃĠ":9673,"Ġ46":9674,"ĠĠĠ5":9675,"liÃ¨ĠsÄ«Ġ":9676,"dÅ«ĠhuÃ¬Ġ":9677,"sÃ²ngĠdÃłoĠ":9678,"xÄ«ĠyÃłĠ":9679,"zuÃ¬ĠzÇİoĠ":9680,"wÇĶĠdÇİoĠ":9681,"jÃ¬ngĠwÃłiĠ":9682,"Ã©ĠhÃłiĠÃ©":9683,"ĠlÃ¹ĠyÃ¬Ġ":9684,"ĠjiÇİng":9685,"ĠĠĠ6ĠyuÃ¨Ġ":9686,"zhÄĽĠrÃ¨nĠwÃ©iĠ":9687,"1934ĠniÃ¡nĠ":9688,"ĠdÃłĠqiÃ¡o":9689,"ĠtÄģĠhÃ¡i":9690,"zhÃ¹ĠzhÃ¡iĠ":9691,"mÃ¬ĠqiÃ¨":9692,"guÃ³ĠjiÄģĠduÃ¬Ġ":9693,"zhÃ¨ĠjiÄģngĠshÄĽngĠ":9694,"ĠdÄĵng":9695,"ĠĠĠ4Ġ":9696,"zhÄ«ĠdÃłoĠ":9697,"duÅįĠyuÃ¡nĠ":9698,"xiÇİngĠdeĠ":9699,"ĠyÇĲĠlÃ¡i":9700,"ĠshÄĵngĠchÄĵngĠ":9701,"shÄĵnĠwÃ¡ngĠ":9702,"fÇİnĠduÃ¬":9703,"fÃ¡ngĠjiÄģnĠ":9704,"tÃłnĠcÃ¨Ġ":9705,"duÄģnĠdeĠ":9706,"ĠdÃ¬ĠzhÅįngĠ":9707,"ĠjÃŃĠÄĽrĠ":9708,"jÄ«ngĠyÃ³uĠ":9709,"jÇĲĠhÃ©Ġ":9710,"ĠyÄ«ĠtÃ³ng":9711,"cÃ¡iĠzhÃ¨ng":9712,"ĠliÃ¡nĠjiÄĵĠ":9713,"mÇİnĠzÃº":9714,"Ġ150":9715,"ĠĠĠ8":9716,"jÃ¬nĠxÃŃngĠdeĠ":9717,"ĠÄĽrĠyÇĶĠ":9718,"pÃ¡iĠhÃ¡ngĠbÇİng":9719,"hÃ²uĠbÃ¹ĠjiÇĶĠ":9720,"chÅ«ĠzhÃłnĠ":9721,"fÃ¹ĠbÃ¹ĠzhÇİngĠ":9722,"ĠlÃ¬ĠshÇĶ":9723,"ĠxÃŃngĠyÃºĠ":9724,"lÄģĠtÃ¨Ġ":9725,"bÄģĠlÃ¨":9726,"tÃ³uĠxiÃ¡nĠ":9727,"qiÃ¡ngĠdÃłĠdeĠ":9728,"ĠyÄ«ĠwÃ¨iĠ":9729,"zhÃłnĠzÃłiĠ":9730,"wÇİngĠqiÃº":9731,"kuÃ²ĠjiÃłnĠ":9732,"1924ĠniÃ¡nĠ":9733,"ĠjÃŃĠsÄ«Ġ":9734,"ĠrÃ¬ĠhÃ²uĠ":9735,"ĠjiÄģĠsÄ«Ġ":9736,"ĠbÃ¬ngĠyÇĴuĠ":9737,"ĠshÇĴuĠcÃ¬":9738,"ĠyÇİ":9739,"fÄĵnĠdeĠ":9740,"33Ġ":9741,"yÄ«ĠlÃ¬Ġ":9742,"chÃ©ngĠjÃ¬Ġ":9743,"kÄĵĠfÅ«Ġ":9744,"ĠsÇĲĠ":9745,"ĠzÄĵngĠ":9746,"ĠpÃ©ngĠ":9747,"ĠĠĠxiÄģngĠ":9748,"ĠĠĠgÄĵnĠjÃ¹":9749,"ĠhÃ©ĠdÅįngĠ":9750,"zhÃŃĠwÃ¹":9751,"ĠxuÃ©ĠhuÃ¬Ġ":9752,"ĠdÄģngĠniÃ¡nĠ":9753,"Ġ12Ġ":9754,"wÃ¡nĠzhÄĽngĠdeĠ":9755,"ĠxuÃ¡nĠ":9756,"ÃłnĠshÃ¬Ġ":9757,"ĠĠĠcÇĲ":9758,"ĠĠĠ2011ĠniÃ¡nĠ":9759,"qÄ«ĠshÃ¬Ġ":9760,"shuÅįĠdeĠ":9761,"zhÄĵnĠzhÃ¨ngĠ":9762,"ĠrÃ¬ĠyÇĶĠ":9763,"ĠqÃŃĠtÄģĠdeĠ":9764,"chÃ¡ngĠwÄĽiĠhuÃ¬Ġ":9765,"bÃłnĠdÇİo":9766,"hÃ¡ngĠbÄģnĠ":9767,"fÃ¡ngĠkÅįngĠ":9768,"shÅįuĠlÃ¹":9769,"wÃ¡nĠchÃ©ngĠleĠ":9770,"3ĠmÇĲĠ":9771,"ĠĠĠrÃ¬ĠbÄĽnĠ":9772,"ĠĠĠjiÃłnĠzhÃ¹Ġ":9773,"dÄ«ĠdeĠ":9774,"zÃ¡ĠdeĠ":9775,"etĠ":9776,"tsĠ":9777,"ĠzhÅįngĠduÃ¬Ġ":9778,"dÃłĠliÃłngĠ":9779,"zhÃłnĠlÃ¼Ã¨Ġ":9780,"guÄ«ĠzÃ©":9781,"ĠnÃłĠme":9782,"ĠguÄģnĠzhÃ¬Ġ":9783,"dÃ¬ngĠlÇĲĠ":9784,"xiÃłoĠshÃ¨Ġ":9785,"xiÄĽĠleĠ":9786,"25ĠniÃ¡nĠ":9787,"ĠjÃŃĠjiÄģngĠ":9788,"ĠdÃłĠsÃłiĠ":9789,"pÇĶĠtÅįng":9790,"ĠguÃ³ĠjÃ¬ĠjÄ«ĠchÇİngĠ":9791,"yÅįuĠxiÃ¹Ġ":9792,"ĠĠĠgÄĵnĠjÃ¹Ġ2010ĠniÃ¡nĠmÄĽiĠguÃ³ĠrÃ©nĠkÇĴuĠpÇĶĠchÃ¡ĠdeĠshÃ¹ĠjÃ¹Ġ":9793,"Ġ2003":9794,"Ġ180":9795,"bÄģĠshÃŃĠ":9796,"shÄĽngĠzhÃ¨ngĠfÇĶĠ":9797,"bÇİoĠwÃ¨iĠ":9798,"ĠzÃłiĠxiÃłnĠ":9799,"sÄģnĠzhÇĴngĠ":9800,"xiÇİoĠzÇĶ":9801,"chÃ¨ĠtuÃ¬Ġ":9802,"ĠMĠ":9803,"ĠQ":9804,"xiÃ¡ngĠxÃ¬Ġ":9805,"chuÃŃĠzhÃŃĠ":9806,"ĠchÅ«ĠxiÃłnĠdeĠ":9807,"kÄĵĠxuÃ©":9808,"hÃ¹ĠdÃ²ngĠ":9809,"nuÃ²ĠmÃłnĠ":9810,"ĠruÇİn":9811,"ĠwÇİnĠ":9812,"ĠĠĠgÄģoĠ":9813,"rÃ¨nĠyÃ¬Ġ":9814,"dÅįuĠbÃ¹Ġ":9815,"ĠyÄ«ĠzhÇĴng":9816,"ĠxÃŃngĠhÃ©Ġ":9817,"dÇİĠsuÃłnĠ":9818,"chÃ³ngĠxÄ«n":9819,"xuÃ©ĠshÃ¬ĠxuÃ©ĠwÃ¨iĠ":9820,"ĠĠĠY":9821,"bÃ¹ĠwÃ¨iĠyÃºĠ":9822,"xiÃłoĠyÇĴuĠ":9823,"zhÄģngĠdeĠ":9824,"zÃłngĠyÃºĠ":9825,"usĠ":9826,"ĠhÃ©ĠjÄ«Ġ":9827,"ĠhÃ©ĠnÃ¡nĠshÄĽngĠ":9828,"hÇİnĠmÃ²ĠdÃ©Ġ":9829,"ÄģĠlÇĲĠ":9830,"ĠĠĠ1":9831,"qiÄģnĠrÃ©nĠ":9832,"dÇİngĠjÃŃĠ":9833,"ĠxiÃłnĠyÇĶĠ":9834,"ĠyÄ«ĠlÇİng":9835,"ĠxiÃłnĠzÃłiĠdeĠ":9836,"xiÄģngĠhÃ¹Ġ":9837,"ĠkÃ¨ĠsÃłĠsÄ«Ġ":9838,"chÃ¡oĠtÃŃngĠ":9839,"ĠguÃ¬Ġ":9840,"ĠzhÄģoĠ":9841,"hÃ²uĠtÄģĠ":9842,"rÃ©nĠmÃŃn":9843,"yÃ¡nĠchÃ¡ngĠ":9844,"bÇİoĠzhÃłngĠ":9845,"zÄ«ĠxÃ¹n":9846,"tÃ¡nĠpÃłn":9847,"ĠchuÃłng":9848,"ÄģĠfÃ¹Ġ":9849,"zhÄĵnĠyÇĶĠ":9850,"ĠshÃ¬ĠduÃ¬Ġ":9851,"ĠtÄģĠchÃ©ngĠwÃ©iĠ":9852,"ĠzhÅįuĠhÃ©Ġ":9853,"jiÃ©ĠdÃ¹ĠshÇĲĠ":9854,"ĠrÃ¨nĠzhÃŃĠ":9855,"tiÄģnĠqÃ¬Ġ":9856,"bÃłnĠfÇİĠ":9857,"wÅ«ĠrÇİn":9858,"ĠĠĠfÇİĠguÃ³Ġ":9859,"liÃºĠxuÃ©Ġ":9860,"gÇİiĠmÃŃngĠ":9861,"ĠzÃłiĠqÃŃ":9862,"ĠbÃ¹ĠjÇĲn":9863,"ĠdÃłĠchÃ©ngĠ":9864,"fÄģĠbÃ¹ĠdeĠ":9865,"ĠquÃ¡nĠmiÃłnĠ":9866,"pÃłnĠchÇĶĠ":9867,"ĠshÃ¬ĠshÃ¬ĠjiÃ¨":9868,"mÃłoĠxiÇİnĠ":9869,"lÇĲĠshÃ¬ĠhuÃ¬Ġ":9870,"ĠrÃ©nĠkÇĴuĠdeĠ":9871,"tÃºĠshÅ«ĠguÇİn":9872,"ĠqÇĶ":9873,"ĠhÄĵi":9874,"Ã©rĠtÃ³ng":9875,"jÇĲĠniÃ¡nĠ":9876,"zÇĴngĠzhÃłnĠ":9877,"sÃ¹ĠshÃ¨Ġ":9878,"chuÃ¡nĠqÃŃĠ":9879,"qÃ¹ĠdeĠ":9880,"26Ġ":9881,"xÇĲngĠ":9882,"liÇİnĠ":9883,"ĠshÃ¬ĠzhÃ¨ngĠfÇĶĠ":9884,"ĠsÄ«ĠfÇİĠ":9885,"mÃŃnĠzhÃ²ng":9886,"ĠbÃ¬ngĠjiÄģng":9887,"nÃłĠrÃ¹Ġ":9888,"kÃ¨ĠyÃ¹nĠ":9889,"qÇĶĠdÃ©ĠleĠ":9890,"6ĠmÇĲĠ":9891,"ĠIn":9892,"bÄĽnĠbÃ¹Ġ":9893,"qiÃ¡nĠxiÃłnĠ":9894,"cÄģnĠyÃ¬ĠyuÃ¡nĠ":9895,"cÃŃĠhuÃ¬Ġ":9896,"fÇĴuĠrÃ¨nĠ":9897,"ĠzhÄ«ĠbÃ¹Ġ":9898,"wÃłiĠguÄģnĠ":9899,"mÃ¬ngĠmÃŃngĠdeĠ":9900,"zhuÇİnĠyÃŃĠ":9901,"ĠjiÄģngĠxÄ«Ġ":9902,"rÃ©nĠdÃłĠdÃłiĠbiÇİoĠ":9903,"liÃ¹ĠgÃ¨Ġ":9904,"ĠyÇĲĠ2Ġ":9905,"rÃ¨nĠzhÃŃĠ":9906,"biÄģnĠjiÃ¨":9907,"hÃºĠpÅįĠ":9908,"dÄĵngĠlÃ¹":9909,"Ġ1992ĠniÃ¡nĠ":9910,"ĠĠĠchÃ©nĠ":9911,"wÃ©iĠrÃ©nĠ":9912,"duÅįĠbÃ¹Ġ":9913,"sÄģnĠyuÃ¨Ġ":9914,"13ĠniÃ¡nĠ":9915,"28Ġ":9916,"dÃłngĠzuÃ²Ġ":9917,"ĠshÃ¬ĠyÃłnĠ":9918,"fÄģngĠchÃ©ngĠshÃ¬Ġ":9919,"dÄģnĠmÃłi":9920,"yÇİnĠzÃ²u":9921,"wÇİngĠwÇİngĠ":9922,"ĠrÃ¬ĠbÄĽnĠdeĠ":9923,"luÃ³ĠmÇİĠdÃ¬ĠguÃ³Ġ":9924,"ĠxiÃłnĠdeĠyÃŃĠgÃ¨ĠxÃŃngĠzhÃ¨ngĠzhÃ¨nĠqÅ«Ġ":9925,"ĠtÄ«ngĠ":9926,"leĠdÃ¬Ġ":9927,"yÇĲngĠdÃłiĠ":9928,"ĠwÃ¨iĠwÃ¨iĠ":9929,"fÇİĠguÃ³ĠdeĠ":9930,"ĠxiÄģngĠsÃ¬Ġ":9931,"mÃ¬ĠdÃ¹Ġ":9932,"rÃ©nĠkÇĴuĠpÇĶĠchÃ¡Ġ":9933,"ĠwÄģng":9934,"chÄĵĠrÃ©nĠ":9935,"ĠjiÃłnĠzÃłiĠ":9936,"ĠzhÄ«ĠhÃ²uĠzÃłiĠ":9937,"liÃłngĠxiÃłngĠ":9938,"rÃºĠguÇĴ":9939,"xÄ«ngĠxÃ¬Ġ":9940,"huÃŃĠguÄ«":9941,"shÄģnĠxÄ«ĠshÄĽngĠ":9942,"Ġ37":9943,"Ġ1994ĠniÃ¡nĠ":9944,"ĠĠĠyÃ¡nĠgÃ©Ġ":9945,"miÇİnĠyÃ¬Ġ":9946,"ĠbÃ¨iĠjÇĲngĠ":9947,"ĠquÃ¡nĠdeĠ":9948,"ĠtÃ³ngĠshÃŃĠyÄĽĠshÃ¬Ġ":9949,"ĠqÄ«ĠjiÄģn":9950,"ĠdÃłĠbÃ¹ĠfÃ¨n":9951,"ĠRĠ":9952,"ĠĠĠ2008ĠniÃ¡nĠ":9953,"ĠĠĠyÇĲĠxiÃłĠ":9954,"ĠĠĠtoĠĠĠ":9955,"tÇĲĠjÄ«Ġ":9956,"nÃłĠhÃ©Ġ":9957,"bÅįĠchÅ«ĠdeĠ":9958,"ĠshÃ¬ĠzhÇĲ":9959,"zhÃ¨ĠyÃłngĠdeĠ":9960,"gÇİiĠchÄĵngĠ":9961,"ĠdÅįngĠbÄĽi":9962,"wÄĽiĠyuÃ¡nĠhuÃ¬ĠzhÇĶĠxÃŃĠ":9963,"ĠĠĠofĠĠĠtheĠĠĠ":9964,"ĠliÃºĠyÃ¹ĠmiÃłnĠjÄ«Ġ":9965,"chuÃ¡nĠdÃ¬Ġ":9966,"zhÄĵnĠdeĠ":9967,"cÅ«nĠdeĠ":9968,"jiÇİĠshÃ¨Ġ":9969,"kÄģĠ":9970,"ĠxiÃłnĠzhÅįngĠ":9971,"ĠdÃłĠfÅ«Ġ":9972,"ĠdÃłnĠdeĠ":9973,"ĠliÃ¡nĠmÃ©ngĠ":9974,"ĠgÄĵnĠjÃ¹Ġ2020ĠniÃ¡nĠmÄĽiĠguÃ³ĠrÃ©nĠkÇĴuĠpÇĶĠchÃ¡ĠdeĠshÃ¹ĠjÃ¹Ġ":9975,"guÇİngĠfÃłnĠdeĠ":9976,"ĠshÄĵng":9977,"ĠfÃ©ng":9978,"yÇĴuĠhÃ©Ġ":9979,"lÃŃĠshÃ¬Ġ":9980,"chÃ¡oĠshÃŃĠ":9981,"jÃºĠshÃ¬Ġ":9982,"zÇĴngĠmiÃłnĠjÄ«Ġ":9983,"ĠDa":9984,"ĠhÄĵngĠlÃ¬Ġ":9985,"xÄ«nĠxÃŃngĠ":9986,"kÄģiĠshÃ¨":9987,"zÇĲĠdÃłnĠ":9988,"27Ġ":9989,"dÃłngĠdeĠ":9990,"kuÃłĠ":9991,"tÄģoĠ":9992,"xuÃ©ĠxÃ¬Ġ":9993,"gÇİiĠzÃło":9994,"ĠPĠ":9995,"ĠÄģnĠdÃ©Ġ":9996,"ĠshuÄģng":9997,"Ġ400":9998,"chÃ¡ngĠbÃ¨iĠ":9999,"ĠchÃ©ngĠlÃ¬ĠdeĠ":10000,"ĠbÃ¬ngĠfÄĵi":10001,"ĠzÃ¬ĠmÇĶĠ":10002,"hÃ¡ngĠkÅįngĠmÇĶ":10003,"fÄĵiĠlÇľĠbÄ«nĠ":10004,"Ġ21":10005,"Ġ39":10006,"Ġ19Ġ":10007,"ĠĠĠtÃ³ng":10008,"gÃ©ĠlÇĲĠ":10009,"jÇĲngĠyuÃ¡nĠ":10010,"qiÇİnĠzÃ©Ġ":10011,"CDĠ":10012,"bÃ¹ĠtÃ³ngĠ":10013,"ĠshÃŃĠkÃ¨Ġ":10014,"yÃ¬ĠbÇİiĠ":10015,"xÄ«ĠyÃ¡ng":10016,"diÃłnĠzÇĲ":10017,"shÅįuĠcÃ¡ng":10018,"ĠbÃ¬ĠxÅ«Ġ":10019,"ĠchÃ³ngĠxÄ«nĠ":10020,"ĠĠĠtÃ¡iĠwÄģnĠ":10021,"chÃ¡ĠÄĽrĠsÄ«Ġ":10022,"zhÇİngĠhÃ©Ġ":10023,"jiÄģoĠdeĠ":10024,"80Ġ":10025,"ĠzÃłiĠbÃ¨iĠ":10026,"ĠshÃŃĠyÃ³uĠ":10027,"ĠjÄ«ĠxiÃ¨":10028,"jiÄģoĠjiÃ¨Ġ":10029,"ĠCo":10030,"Ġ300":10031,"fÃºĠshÃ¬Ġ":10032,"kuÄģngĠ":10033,"ĠxÄ«ĠfÄģngĠ":10034,"ĠqÃŃĠhÃ²uĠyÃºĠ":10035,"fÄĵnĠpÃ¨i":10036,"yÃŃĠdÃ¹":10037,"sÃłiĠchÄĵĠ":10038,"shÄģngĠchÇİngĠ":10039,"tÃŃngĠkÃło":10040,"diÃłnĠyÇĲngĠdeĠ":10041,"ĠyÃło":10042,"Ġ1996ĠniÃ¡nĠ":10043,"gÄĵnĠbÄĽnĠ":10044,"pÇİoĠdÃłoĠ":10045,"ĠzhÅįngĠqÄ«Ġ":10046,"ĠshÃŃĠlÃ¬Ġ":10047,"zhÃ¨ngĠchÃ¡ngĠ":10048,"ĠzhÄ«ĠshÃłngĠ":10049,"bÇİoĠjiÄģ":10050,"yÃŃĠcÃ¬ĠshÃ¬ĠjiÃ¨ĠdÃłĠzhÃłnĠ":10051,"qiÃ¡ngĠdiÃło":10052,"dÃ©ĠguÃ³ĠdeĠ":10053,"fÃºĠjiÃłnĠshÄĽngĠ":10054,"ĠluÃ³ĠsÄ«Ġ":10055,"ĠĠĠxiÄģngĠgÇİng":10056,"xÄ«ngĠjiÃłn":10057,"ĠgÃ¨ĠbÃ¹Ġ":10058,"hÃłoĠdeĠ":10059,"wÇİnĠniÃ¡nĠ":10060,"ĠyÇĴuĠliÇİngĠ":10061,"lÇĲĠlÃ¡nĠ":10062,"ĠzhÅįuĠlÃ¬Ġ":10063,"shÇĴuĠshÃ¹Ġ":10064,"ĠduÃ¬ĠwÃłiĠ":10065,"jÄ«nĠrÃ³ng":10066,"shÃ²uĠhuÄģnĠ":10067,"bÇĶĠchÅįngĠ":10068,"ĠlÃ¬ĠshÇĲĠxuÃ©ĠjiÄģĠ":10069,"ĠmÇĲĠzhÃ¬Ġ":10070,"cuÄ«ĠhuÇĲĠ":10071,"ĠyÃ¬ĠshÃ¹ĠjiÄģĠ":10072,"ĠSt":10073,"ĠkuÃłiĠ":10074,"ĠbÃ¹ĠzÃłiĠ":10075,"ĠĠĠa":10076,"gÄģoĠdÃ¬Ġ":10077,"sÄģnĠbÃ¹Ġ":10078,"sÃ¬ĠyuÃ¨Ġ":10079,"35Ġ":10080,"ĠduÃ¬ĠwÇĶĠ":10081,"fÄĵnĠliÃ¨Ġ":10082,"jÄ«nĠshÄģnĠ":10083,"wÃ¡ngĠzÇĲĠ":10084,"ĠxiÄģngĠbÇĲĠ":10085,"yÇİnĠjiÇİngĠ":10086,"qÃŃngĠbÃło":10087,"yÄ«nĠsÃ¹Ġ":10088,"ĠguÄģngĠxÃ¹Ġ":10089,"24ĠxiÇİoĠshÃŃĠ":10090,"1ĠhÃłoĠ":10091,"ĠchÄģoĠ":10092,"40ĠniÃ¡nĠ":10093,"nÇļĠhÃ¡iĠ":10094,"guÄ«ĠlÃ¨i":10095,"wÄĵiĠxiÃ©":10096,"ÄģĠÄĽrĠbÄĵiĠsÄ«Ġ":10097,"fÃ³ĠjiÃło":10098,"Ġa":10099,"ĠĠĠMe":10100,"ĠĠĠliÃºĠ":10101,"isĠ":10102,"ĠhÃ©ĠshÃłngĠ":10103,"ĠguÃ³ĠshÃŃĠ":10104,"shÄĵngĠyÄ«nĠ":10105,"yÃ¡nĠlÃ¹nĠ":10106,"zhÃŃĠshÄĵngĠjÄ«Ġ":10107,"ĠjÃ¬nĠÃ©rĠ":10108,"luÃ³ĠlÄģĠ":10109,"qiÃ¡oĠliÃ¡ngĠ":10110,"sÃłĠlÄģĠ":10111,"ĠmiÃłnĠjÄ«Ġ0":10112,"fÄģĠbÃ¹ĠleĠ":10113,"gÇĶĠlÇİoĠdeĠ":10114,"ĠDe":10115,"ĠyÃ¹nĠ":10116,"ĠkÄģiĠfÄģĠ":10117,"gÇĶĠjÃ¬Ġ":10118,"nÇļĠrÃ©nĠ":10119,"ĠshÃŃĠdÃłĠ":10120,"shuÇĲĠshÄĵnĠ":10121,"yÇĲĠsÃ¨Ġ":10122,"ĠjÄ«nĠshÇĶĠ":10123,"gÃ¨ĠzhÇĴng":10124,"zhÃ²ngĠdiÇİnĠwÃ©nĠwÃ¹ĠbÇİoĠhÃ¹ĠdÄģnĠwÃ¨iĠ":10125,"jiÄģĠlÃ¬ĠfÃºĠnÃŃĠyÃłĠzhÅįuĠ":10126,"dÄ«ĠqÃ¬ĠyÄģĠ":10127,"duÃ¬ĠtÄģĠ":10128,"ĠshÃ¬ĠxÄ«ĠbÄģnĠyÃ¡Ġ":10129,"ĠhÃ©ĠjÃ¬Ġ":10130,"ĠbÃ¹ĠshÃŃĠ":10131,"rÃ¨nĠmÃ¬ngĠ":10132,"kÄģiĠfÄģĠdeĠ":10133,"Ġcom":10134,"ĠhÇİoĠ":10135,"19ĠniÃ¡nĠ":10136,"lÃ¡iĠkÃ¨Ġ":10137,"tÃ¨ĠzÃłiĠ":10138,"fÃºĠyÄ«nĠ":10139,"yÃłĠsÄ«Ġ":10140,"ĠyÃ¬ĠdÃłĠ":10141,"ĠyuÃ¡nĠziĠ":10142,"xÄ«nĠjiÄģngĠ":10143,"qiÃ¡nĠjÃ¬nĠ":10144,"ĠshÃ¨ĠyÇĲngĠ":10145,"tÃºĠshÄģĠ":10146,"kÅįngĠxÃŃĠ":10147,"tÇİnĠdÄ«ngĠ":10148,"ĠkÄĽĠshÃ¬Ġ":10149,"ĠzÃłoĠ":10150,"ĠzhuÃłngĠ":10151,"Ġ2023ĠniÃ¡nĠ":10152,"shÄģĠdeĠ":10153,"jÃºĠbÃ¹Ġ":10154,"60ĠniÃ¡nĠ":10155,"shuÃ²Ġ":10156,"ĠjÅ«nĠtuÃ¡nĠ":10157,"nÇļĠzhÇĶĠjuÃ©Ġ":10158,"xÃ¹ĠliÃ¨Ġ":10159,"ĠjÇĲngĠfÄģngĠ":10160,"ĠÅįu":10161,"luÃ²ĠkÃ¨Ġ":10162,"huÃŃĠjiÄģĠ":10163,"ingĠ":10164,"sÄĵngĠ":10165,"IDĠ":10166,"ĠgÅįngĠgÃłoĠ":10167,"ĠzhÄ«ĠhÃ²uĠdeĠ":10168,"mÃ³ĠtÃ¨":10169,"ĠshÃ¬ĠyÄ«ĠkÄĵ":10170,"shÅįuĠrÃ¹":10171,"guÇİngĠzhÅįuĠshÃ¬Ġ":10172,"ĠguÃ³ĠjÅ«nĠ":10173,"fÃºĠlÃ©i":10174,"jÃ¬ngĠtÃ³uĠ":10175,"chÃ©ngĠlÃ¬ĠhÃ²uĠ":10176,"18ĠniÃ¡nĠ":10177,"1970ĠniÃ¡nĠdÃłiĠ":10178,"1925ĠniÃ¡nĠ":10179,"ĠshÃ¬ĠxÄ«ngĠdÄĽngĠwÃ¨iĠ":10180,"ĠdÃ²uĠ":10181,"ĠĠĠ2005":10182,"yÄ«ĠyuÃłnĠ":10183,"ĠyÇĲĠbÄĽiĠ":10184,"ĠxiÃłnĠmÃŃngĠ":10185,"xuÇİnĠqÅ«":10186,"yÃ¡nĠjiÅ«ĠzhÅįngĠxÄ«nĠ":10187,"dÃŃĠshÃ¬ĠnÃŃĠ":10188,"Ġb":10189,"ĠĠĠi":10190,"dÃłĠyÃºĠ":10191,"zhuÄģnĠlÃ¬Ġ":10192,"zhuÇİnĠchÃ©ngĠ":10193,"bÇİiĠwÃłnĠ":10194,"ĠrÃ©nĠduÃ¬Ġ":10195,"ĠxiÃłĠleĠ":10196,"pÇĶĠluÃ³Ġ":10197,"ĠniÃ¡nĠqÄ«ngĠdeĠ":10198,"1ĠmÃŃngĠ":10199,"ĠÐ°":10200,"gÃ²ngĠjÃ¬Ġ":10201,"lÃºnĠsÄ«Ġ":10202,"14ĠniÃ¡nĠ":10203,"yÄ«ngĠxiÃ³ng":10204,"shÃ©nĠhuÃłĠ":10205,"zhuÄģnĠmÃ©n":10206,"diÃłnĠyÇĲngĠjiÃ©Ġ":10207,"ĠmÄĽiĠzhÅįuĠ":10208,"jiÄĵĠdeĠ":10209,"wÇĶĠdÃ©Ġ":10210,"jiÃ¹ĠzÃłiĠ":10211,"luÃ²ĠzÃłiĠ":10212,"zhÃ¬ĠdÃ¹Ġ":10213,"yÇĶĠmÃ¡o":10214,"fÄģngĠxiÃłngĠdeĠ":10215,"ĠzhÃ¨ngĠquÃ¡nĠ":10216,"yÃŃĠdÃ¬ngĠdeĠ":10217,"lÃ¡nĠsÃ¨Ġ":10218,"pÃ©iĠxÃ¹nĠ":10219,"fÇİĠlÃ¡nĠxÄ«":10220,"Ġy":10221,"duÅįĠlÃ¬ĠyÃłĠ":10222,"tÃŃngĠdeĠ":10223,"kuÃłiĠdeĠ":10224,"70ĠniÃ¡nĠ":10225,"mÇİiĠ":10226,"1909ĠniÃ¡nĠ":10227,"ĠshÃ¬ĠyÄ«ngĠguÃ³Ġ":10228,"ĠjÃŃĠbÃ¬ng":10229,"ĠtiÄģnĠjÄ«nĠ":10230,"gÅįngĠhÃ©Ġ":10231,"nÃ¡nĠrÃ©nĠ":10232,"jiÃ¹ĠbÃ¨iĠ":10233,"biÃłnĠshÃ¬Ġ":10234,"fÃ©iĠtÃ¨Ġ":10235,"ĠmÃŃngĠxiÇİnĠ":10236,"ĠzÇĲĠ":10237,"zhÄ«ĠjiÄģĠ":10238,"gÇĶĠdeĠ":10239,"gÃłoĠshÃ¬Ġ":10240,"ĠxÃŃngĠrÃ³ng":10241,"bÄĽnĠshÄĵnĠ":10242,"nÃ¨iĠruÃ¬Ġ":10243,"tÃ³uĠshÇĴuĠ":10244,"ĠshÃ¬ĠshÃŃĠshÃłngĠ":10245,"gÃ²uĠmÇİiĠ":10246,"ĠĠĠinĠĠĠ":10247,"3ĠmÃŃngĠ":10248,"Ġm":10249,"zhÃ¬ĠzuÃ²":10250,"ĠjÃŃĠxiÃłnĠ":10251,"ĠrÃ¬ĠhÃ©Ġ":10252,"qÅ«ĠzhÃº":10253,"ĠjÅ«nĠyÇĴuĠ":10254,"fÃ¹ĠshÇĲĠ":10255,"ĠyÃ³uĠxÃ¬ĠdeĠ":10256,"mÃ³ĠfÇİĠ":10257,"zhÇĶnĠbÃ¨i":10258,"Ġ1949ĠniÃ¡nĠ":10259,"dÃłĠhÃ©Ġ":10260,"ĠwÃ¨iĠlÃ¬Ġ":10261,"ĠshÃŃĠpÇĲnĠ":10262,"ĠbÃ¬ngĠshÃ¬Ġ":10263,"ĠzhÅįuĠqÄ«Ġ":10264,"zhÇĲĠkÃ²ng":10265,"ĠtÃ³ngĠzhÃ¬Ġ":10266,"qÄ«ngĠchÇĶĠ":10267,"chÇİnĠwÃ¹Ġ":10268,"tÇĲĠyÃ¹ĠguÇİnĠ":10269,"rÃ¬ĠbÄĽnĠdeĠ":10270,"ĠyuÃ¡nĠzhÃ¹ĠmÃŃnĠ":10271,"ĠxiÅįng":10272,"Ġ2002":10273,"ĠwÃ²Ġ":10274,"ĠĠĠdÃłoĠ":10275,"shuÇĲĠdeĠ":10276,"wÇİngĠyÇĴuĠ":10277,"ĠyÃºĠ2021":10278,"zhÄĵngĠqÇĶĠ":10279,"zhuÇİnĠhuÃłn":10280,"mÄĽiĠguÃ³ĠrÃ©nĠkÇĴuĠpÇĶĠchÃ¡Ġ":10281,"sÄģiĠÄĽrĠwÃ©iĠyÃłĠ":10282,"zhÃłnĠhÃ©Ġ":10283,"kÃ¨ĠsÄ«Ġ":10284,"rÃ¹ĠqiÃºĠ":10285,"biÃłnĠdeĠ":10286,"shuÇĲĠhÃ©Ġ":10287,"dÇİnĠ":10288,"jÃ¬ĠzÇİiĠ":10289,"ĠxÃŃngĠrÃ©nĠ":10290,"liÃºĠliÃłngĠ":10291,"liÃłngĠzÇĲĠ":10292,"ĠwÃ¨iĠyÃºĠyÃŃn":10293,"ÃłnĠzhÃło":10294,"yÃŃngĠyÃ¹n":10295,"sÅ«ĠdÄģnĠ":10296,"kÄĽĠnÃ©ngĠxÃ¬ngĠ":10297,"zhuÃłnĠxiÄĽĠ":10298,"shÃ¹nĠxÃ¹Ġ":10299,"ĠlÃºĠwÇİĠÄĽrĠshÄĽngĠ":10300,"sÃ¬ĠchuÄģnĠshÄĽngĠ":10301,"00Ġ":10302,"ĠdÃ¬Ġ2":10303,"ĠxÃŃngĠrÃ³ngĠ":10304,"ĠbÃ¨iĠrÃ¨nĠmÃ¬ngĠwÃ¨iĠ":10305,"sÃłiĠguÃłnĠjÅ«nĠ":10306,"zÄ«ĠxÃºnĠ":10307,"ĠzhÇĶĠtÃŃĠ":10308,"zhuÇİnĠhuÃłnĠ":10309,"qiÃºĠchÇİngĠ":10310,"ĠshÃ¬ĠjiÃ¨ĠshÃłngĠ":10311,"ĠtÃŃĠchÅ«Ġ":10312,"fÄģngĠzÃłiĠ":10313,"chuÄģnĠxiÃłnĠ":10314,"ĠyÃºĠshÃŃĠdeĠrÃ©nĠkÇĴuĠshÃ¹ĠliÃłngĠwÃ¨iĠrÃ©nĠ":10315,"gÇĶĠdiÇİnĠ":10316,"chÃ¨ĠxiÄģo":10317,"ĠqÃ¹Ġ":10318,"ĠwÄĵnĠ":10319,"huÃłĠshÃ¬Ġ":10320,"tÃ¡nĠhÃ©Ġ":10321,"rÃłoĠ":10322,"bÃ¨iĠjÇĲng":10323,"ĠshÃłngĠleĠ":10324,"ĠhuÃ²ĠzhÄĽ":10325,"jiÇİnĠdÄģnĠdeĠ":10326,"ĠwÃ¨iĠyÃºĠgÄģiĠguÃ³ĠxÄ«ĠbÃ¹Ġ":10327,"bÄģoĠhÃ¡nĠleĠ":10328,"ĠpÃ©ng":10329,"ĠkÇİĠÄĽrĠ":10330,"bÄģĠbÃ¹Ġ":10331,"chÃ¬ĠjÄ«ngĠ":10332,"ĠshÃ¬ĠjÃ¬ĠzhÅįngĠ":10333,"ĠlÃ¬ĠtÃ¡oĠ":10334,"ĠfÄĵiĠlÇľĠ":10335,"ĠĠĠhÃ³ngĠ":10336,"mÇİĠlÃ¬ĠyÃłĠ":10337,"bÇĶĠzhÃ¹Ġ":10338,"zhÄĵngĠfÃºĠ":10339,"lÇĲngĠtÇĶ":10340,"wÄĽiĠtuÅįĠ":10341,"tiÃ¡oĠwÃ©nĠ":10342,"dÃłiĠbiÇİoĠtuÃ¡nĠ":10343,"ruÇİnĠtiÃ¡oĠ":10344,"ĠliÃ¡ng":10345,"hÃłoĠwÃ¨iĠ":10346,"orĠĠĠ":10347,"kÄģiĠzhÇİn":10348,"jiÄģngĠhÃ¹":10349,"tÅįngĠxÃ¹n":10350,"ĠxuÃ©ĠshÃ¹Ġ":10351,"qÇĶĠmÃ¹Ġ":10352,"ĠxiÄģngĠdÄģngĠyÃºĠ":10353,"8ĠgÃ¨Ġ":10354,"ĠpÄģn":10355,"ĠĠĠyÃ³uĠxÃ¬Ġ":10356,"pÇĶĠjÃŃĠ":10357,"35ĠniÃ¡nĠ":10358,"ĠtÄģĠrÃ©nĠ":10359,"zuÃ²ĠzhÄĽĠ":10360,"yÃ³uĠyÇĴngĠ":10361,"ĠdÃ©ĠwÃ©iĠ":10362,"mÃ©iĠyÇĴuĠrÃ¨nĠhÃ©Ġ":10363,"ĠtiÄģnĠjÄ«n":10364,"ĠyÃ¹ĠjÃ¬Ġ":10365,"sÅ«ĠwÃ©iĠÄģi":10366,"Ġ1949":10367,"hÃ²uĠyÇĲĠ":10368,"jiÄģnĠwÃ¨iĠ":10369,"kÄĽĠjiÃłnĠ":10370,"dÄĽngĠyÃºĠ":10371,"bÅįĠdeĠ":10372,"dÃºĠdeĠ":10373,"qiÃ¡nĠtÇĲng":10374,"yÃ¡nĠshÄĵnĠzhÃ¬Ġ":10375,"Ġ1995ĠniÃ¡nĠ":10376,"Ġ1993ĠniÃ¡nĠ":10377,"zhÅįngĠdeĠyÄ«Ġ":10378,"jiÇİĠjÃŃĠ":10379,"pÃŃnĠdÃło":10380,"esĠĠĠ":10381,"bÄĽiĠbÃ¹ĠdeĠ":10382,"jiÄĵĠxiÃłĠ":10383,"zhÃ¨nĠrÃ³ngĠ":10384,"bÃ¬ngĠrÃ¹Ġ":10385,"ĠzuÃ¬ĠzÇİo":10386,"zhÇĶĠyÃłoĠshÃ¬Ġ":10387,"ĠyÇĴuĠxiÃłnĠgÅįngĠsÄ«":10388,"gÄĵĠlÃºnĠbÇĲĠyÃłĠ":10389,"ĠshÃŃĠÃ¨rĠniÃ¡nĠ":10390,"ĠrÃ©nĠbÃ¨iĠ":10391,"jÄ«ĠguÄģnĠ":10392,"kÄģiĠtÅįng":10393,"sÃ¬ĠhÅ«":10394,"tÃłiĠshÇĴuĠ":10395,"diÃłnĠshÃ¬ĠdÃ²ngĠhuÃłĠ":10396,"ĠchÃºĠcÇĲĠzhÄ«ĠwÃłiĠ":10397,"qÃŃĠzhÅįngĠyÄ«Ġ":10398,"jiÃ¨ĠquÃ¡nĠguÃ³ĠzhÃ¨ngĠxiÃ©Ġ":10399,"bÃłoĠfÄģĠhÃ²uĠ":10400,"Ġë":10401,"ĠHR":10402,"shÃ¹ĠjiÄģĠ":10403,"qÇĶĠdeĠ":10404,"piÃłnĠzhÅįngĠ":10405,"ĠzÃłiĠxiÄģngĠgÇİngĠ":10406,"ĠshÃŃĠyÄ«ĠniÃ¡nĠ":10407,"ĠjÃŃĠwÃ©iĠ":10408,"ĠyÇĲĠbiÃłnĠ":10409,"wÇĶĠhÃłnĠ":10410,"gÄĵĠgÄĵĠ":10411,"fÃłnĠzuÃ¬":10412,"yuÃ¡nĠbÃ¹Ġ":10413,"chÄĵĠxÃŃngĠ":10414,"fÃ¨nĠdeĠ":10415,"gÃ¨ngĠshÃ¬Ġ":10416,"ĠzhÅįngĠxÄ«nĠdeĠ":10417,"ĠdÃłĠxiÇİoĠ":10418,"gÃ©ĠlÄģĠsÄ«Ġ":10419,"tÅįngĠwÇİngĠ":10420,"ĠkÄĵĠxuÃ©Ġ":10421,"ĠĠĠkÇİĠ":10422,"wÃłnĠlÃ¬Ġ":10423,"hÅ«ĠxÄ«Ġ":10424,"1923ĠniÃ¡nĠ":10425,"ĠdÃłĠlÇĲĠ":10426,"jÃ¹ĠlÃŃ":10427,"fÇİĠlÃ¡nĠkÃ¨Ġ":10428,"liÃ¡nĠluÃ²Ġ":10429,"ĠdeĠdÃ¬ĠsÄģnĠ":10430,"hÄĽnĠdÃłĠdeĠ":10431,"jÃ¬ĠzhÃ¬Ġ":10432,"jiÃ¨ĠshÃŃĠ":10433,"hÄģĠlÇĲĠ":10434,"huÇĴĠlÃ¬Ġ":10435,"rÃ©ngĠwÃ¨iĠ":10436,"kuÃłĠyuÃ¨Ġ":10437,"tyĠ":10438,"ĠshÃ¬ĠÃ©ĠluÃ³ĠsÄ«Ġ":10439,"zhÃŃĠbÃłng":10440,"dÃ²ngĠwÃ¹":10441,"shuÇĲĠliÃłngĠ":10442,"xiÃ©ĠtiÃ¡oĠ":10443,"huÇĴĠchÄĵĠzhÃłnĠ":10444,"nÃ³ngĠchÇİngĠ":10445,"xuÄģnĠyÃ¡nĠ":10446,"ĠchÃ¬ĠwÄĽiĠ":10447,"ĠfÃ¡n":10448,"ĠĠĠÃ¨rĠ":10449,"ĠĠĠjiÇİnĠlÃ¬Ġ":10450,"zhÃłnĠyÇĴuĠ":10451,"jiÄĵĠshÃ¬Ġ":10452,"chÄĵngĠshÃ¬Ġ":10453,"gÇĶĠxÄ«ĠlÃł":10454,"TVĠ":10455,"yÃ¬ĠmÃŃngĠ":10456,"wÃ¹ĠpÇĲnĠ":10457,"duÅįĠzhÇĴng":10458,"ĠyÃ³uĠtÃłiĠ":10459,"hÇİiĠnÃ¡nĠ":10460,"shÄĽngĠzhÇİngĠ":10461,"huÃ¡ngĠjÄ«nĠ":10462,"chÅįngĠmÇİnĠ":10463,"ĠxiÃłnĠshÃŃĠyÃ³uĠ":10464,"ĠĠĠjÇĲnĠguÇİnĠ":10465,"hÇİiĠdeĠ":10466,"tÅ«ĠjÄ«Ġ":10467,"ĠrÃ©nĠyÇĶĠ":10468,"ĠjÃŃĠgÅįngĠ":10469,"ĠyÇĲĠbÃ¹Ġ":10470,"qÅ«ĠnÃ¨iĠ":10471,"shÅįuĠfÃ¨iĠ":10472,"chuÃłngĠzÃło":10473,"ĠSAO":10474,"qÄ«ĠzhÃ¬Ġ":10475,"jÃ¹nĠdeĠ":10476,"22ĠniÃ¡nĠ":10477,"ĠdÃłoĠdÃ¡":10478,"ĠdÃ©ĠdÃło":10479,"ĠzhÃ¨ĠzuÃ²Ġ":10480,"nÃŃĠsÅ«Ġ":10481,"mÄĽiĠxiÇİoĠshÃŃĠ":10482,"ĠjÄ«ngĠchÃ¡ngĠ":10483,"zhÅįuĠbiÄģn":10484,"ĠjiÃłnĠzhÃ¹ĠwÃ¹Ġ":10485,"mÃ¡oĠdÃ¹nĠ":10486,"ĠzÅįngĠ":10487,"ĠĠĠ7":10488,"ĠĠĠshÃłngĠ":10489,"xÄ«nĠjiÃłnĠ":10490,"zÃłoĠxÃŃngĠ":10491,"ĠdÃ©ĠjÅ«nĠ":10492,"ĠzhÃ¨ĠshÃŃĠ":10493,"wÃłngĠyuÇİnĠjÃ¬ngĠ":10494,"ĠcÃ¡oĠ":10495,"ĠĠĠ2022ĠniÃ¡nĠ":10496,"xÃ¹ĠdeĠ":10497,"cÃ©ngĠbÃ¨iĠ":10498,"ĠdÃłĠbÇİnĠ":10499,"ĠchÅ«ĠchÇİngĠ":10500,"shÄĵnĠtÇĲ":10501,"lÃ³ngĠshÄĽngĠ":10502,"shÇĲĠyÃ²ngĠzhÄĽĠ":10503,"xiÅ«ĠdÃ¬ngĠ":10504,"ĠĠĠjÄ«ngĠlÃ¬Ġ":10505,"liÃ¹ĠmÃŃngĠ":10506,"48Ġ":10507,"1919ĠniÃ¡nĠ":10508,"ĠdÃ¬ĠyÄ«ĠwÃ¨iĠ":10509,"ĠjÃŃĠhuÃ¬Ġ":10510,"ĠjÃŃĠqÃŃĠtÄģĠ":10511,"jÇĶĠzhÃ¨nĠ":10512,"zhÅįngĠguÃ³ĠdÃłĠlÃ¹Ġ":10513,"ĠhuÃ¡n":10514,"ĠĠĠDe":10515,"ĠguÃ³ĠyÇĴuĠ":10516,"ĠchÅ«ĠxÃŃ":10517,"yÃ²ngĠhÃ¹":10518,"xÃ¬ĠjiÃ©Ġ":10519,"liÃ¡nĠluÃ²":10520,"ĠshÄĵngĠtÃłiĠ":10521,"mÄĽiĠtiÄģnĠ":10522,"nuÃ²ĠfÅ«Ġ":10523,"ĠguÄģnĠzhuÃłngĠbÃ¬ngĠdÃº":10524,"ĠEĠ":10525,"Ġ2001":10526,"ĠpÃºĠtÃ¡oĠyÃ¡":10527,"pÅ«Ġ":10528,"ĠdeĠgÄģoĠ":10529,"ĠrÃ©nĠzhÃ¬Ġ":10530,"ĠchÃ©ngĠyÄ«Ġ":10531,"ĠduÃ¬ĠxiÃłngĠ":10532,"shÃ²uĠhuÄģnĠyÃŃngĠ":10533,"guÄ«ĠdÃ¬ng":10534,"cÃ¡iĠpÃłnĠ":10535,"jiÇİngĠjÄ«nĠ":10536,"cÄģnĠyÃ¬ĠyuÃłnĠ":10537,"ĠlÃ¬ĠfÇİĠhuÃ¬Ġ":10538,"ĠlÃºnĠ":10539,"ĠĠĠlÃŃnĠ":10540,"yÃłĠhÃ©Ġ":10541,"nÃłĠÄĽrĠ":10542,"chÃ³ngĠjiÃłn":10543,"ĠzÃłiĠfÇİĠguÃ³Ġ":10544,"jiÄģoĠgÄĽiĠ":10545,"tuÅįĠlÃŃĠ":10546,"ĠzÃ©ĠshÃ¬Ġ":10547,"ĠĠĠCo":10548,"guÃ²ĠyÄ«Ġ":10549,"16ĠniÃ¡nĠ":10550,"fÃłĠ":10551,"ĠshÃŃĠrÃ¨n":10552,"ĠshÃŃĠsÄģnĠ":10553,"yÃ¡nĠfÄģĠ":10554,"jiÃłoĠgÄģoĠ":10555,"zhÇĲĠshÃ¹Ġ":10556,"ĠrÃ¨nĠmÃ¬ngĠ":10557,"biÇİoĠxiÃłnĠchÅ«Ġ":10558,"ĠjÃŃĠxÃŃngĠzhÃ¨ngĠdÄģnĠwÃ¨iĠ":10559,"ĠÃłoĠdÃłĠlÃ¬ĠyÃłĠ":10560,"fÄģngĠxÃŃngĠ":10561,"zÃ©ĠbÃ¨iĠ":10562,"zhuÄģngĠwÃ¨iĠ":10563,"11ĠniÃ¡nĠ":10564,"1922ĠniÃ¡nĠ":10565,"sisĠ":10566,"ĠyÃºĠtÃ³ng":10567,"ĠyÃºĠ2019":10568,"ĠÃ©rĠhÃ²uĠ":10569,"zhÇĶĠdÃ²ngĠ":10570,"bÃ¬ĠyÃłoĠ":10571,"pÃ¡iĠliÃ¨Ġ":10572,"ĠyÃŃnĠwÄĽiĠ":10573,"0ĠzuÃ²ĠbiÄģoĠwÃ¨iĠ":10574,"2ĠlÃ¬Ġ":10575,"ĠĠĠMo":10576,"xÃŃngĠdeĠ":10577,"ziĠshÃ¬Ġ":10578,"fÄĵiĠdÃłnĠ":10579,"shÃ¨ngĠdÃłnĠ":10580,"wÃ©iĠyÄ«ĠdeĠ":10581,"ĠdÃłnĠshÃ¬ĠzÃłiĠ":10582,"ĠqÃŃĠB1900":10583,"ĠdÃłnĠzuÃ¬ĠzhÅįngĠ":10584,"xÃ¹nĠsÃ¹":10585,"xuÄģnĠchÄĵngĠ":10586,"rÃ©nĠmÃŃnĠzhÃ¨ngĠfÇĶĠ":10587,"ĠhÃºĠbÄĽiĠ":10588,"ĠwÃ¨iĠyÃºĠyÃŃnĠjÄ«ngĠ":10589,"0ĠzuÃ²ĠbiÄģoĠwÃ¨iĠchÃ¬ĠjÄ«ngĠ":10590,"ĠĠĠ0":10591,"ĠĠĠsÄģnĠ":10592,"ĠĠĠ11ĠyuÃ¨Ġ":10593,"jiÄģngĠjÅ«n":10594,"liÃ¡nĠjÅ«nĠ":10595,"lÄģĠwÃ©iĠ":10596,"lÃºnĠdeĠ":10597,"bÇİĠtÄģĠ":10598,"nÃ¡ngĠ":10599,"ĠzhÅįngĠhuÃ¡":10600,"jÄ«ĠdÅ«Ġ":10601,"ĠxÃŃngĠtÃłiĠ":10602,"shÅįuĠgÃ²u":10603,"tÇĶĠrÇİng":10604,"ĠjiÃłnĠzhÃ¹ĠmiÃłnĠjÄ«Ġ":10605,"ĠxÃ¬ĠbÄģoĠ":10606,"kÃ²ngĠzhÃ¬ĠdeĠ":10607,"gÃ²ngĠhÃ©ĠdÇİngĠ":10608,"Ġãĥ³":10609,"ĠliÃ¨ĠchÄĵĠ":10610,"ĠwÅ«ĠkÃ¨ĠlÃ¡n":10611,"ĠĠĠpÃŃngĠ":10612,"ĠĠĠfÄĵnĠbÃ¹Ġ":10613,"mÃŃngĠhÃ©Ġ":10614,"huÃłĠyÇĶĠ":10615,"suÇĴĠyÇĲĠ":10616,"jiÄģoĠzhÃłnĠ":10617,"bÃ³ĠÄĽrĠ":10618,"zhÄĵnĠrÃ©nĠ":10619,"68ĠniÃ¡nĠ":10620,"peĠ":10621,"1911ĠniÃ¡nĠ":10622,"ĠsÄ«ĠzhÃŃĠ":10623,"guÄģnĠxÃ¬ĠdeĠ":10624,"xiÄģoĠfÃ¡ngĠ":10625,"gÃ¨ngĠdÃłĠdeĠ":10626,"ĠqÄ«ngĠchÃ¡oĠzhÃ¨ngĠzhÃ¬ĠrÃ©nĠwÃ¹Ġ":10627,"ĠsÅįngĠ":10628,"xiÃłngĠyÃºĠ":10629,"sÇĲĠleĠ":10630,"bÃ¨iĠÄĽrĠ":10631,"yÃ³uĠxÃ¬ĠdeĠ":10632,"xiÃłoĠlÇľĠ":10633,"biÄģnĠzhÃ¬Ġ":10634,"shÄģĠrÃ©nĠ":10635,"zhÅįngĠhuÃ¡ĠmÃŃnĠguÃ³Ġ":10636,"ĠjÃŃĠtÇĲĠ":10637,"ÅįuĠmÃ©ngĠ":10638,"ĠmÇĶĠqÄ«n":10639,"ĠĠĠchÄĵĠzhÃłnĠgÃ²uĠzÃłoĠ":10640,"luÃ²ĠfÃ¡ĠkÃ¨Ġ":10641,"Ġ1985ĠniÃ¡nĠ":10642,"lÃ¹nĠshÃ¬Ġ":10643,"xiÄĽĠwÃ¨iĠ":10644,"ĠshÃŃĠbÄģĠ":10645,"ĠdÃłĠjiÄĵĠ":10646,"jÄ«nĠshÇĶ":10647,"ĠjÃ¹ĠqÃŃngĠ":10648,"zÃºĠqÃºnĠ":10649,"jiÄĽĠfÃłngĠjÅ«n":10650,"ĠĠĠchÃºĠ":10651,"dÇİoĠhÃ©Ġ":10652,"mÃłnĠdeĠ":10653,"kÃłngĠzhÃłnĠ":10654,"wÄĵngĠ":10655,"ĠjÃŃĠchÃ©ngĠ":10656,"jÄ«ĠchÄĵĠ":10657,"ĠzhÃ¨ĠyÃłng":10658,"yÃŃĠbÃłnĠ":10659,"huÇĴĠchÄĵĠ":10660,"ÃłiĠÄĽrĠlÃ¡n":10661,"ĠMi":10662,"ĠzhÄĽngĠgÃ¨Ġ":10663,"dÄģĠzÃłiĠ":10664,"zhÇĶĠquÃ¡nĠ":10665,"ĠqiÃºĠduÃ¬":10666,"Ġ17Ġ":10667,"ĠdÃłĠbÃ¹ĠfÃ¨nĠ":10668,"ĠwÄĽi":10669,"zhÃŃĠxÃŃng":10670,"ĠhÃ©ĠyuÃ¡nĠ":10671,"zhÇĲĠdÃ¬ng":10672,"tÃŃĠqiÃ¡nĠ":10673,"jÇĲnĠzhÄģngĠ":10674,"zhÄĵnĠzhÃ¨ngĠdeĠ":10675,"xÇĶĠkÄĽĠ":10676,"cÇİiĠyÃ²ngĠleĠ":10677,"ĠTĠ":10678,"shÃ¹nĠshÃŃĠzhÄĵnĠyÇĶĠ":10679,"Ġ160":10680,"nÃ¨iĠsÄ«Ġ":10681,"bÄģĠsÄ«Ġ":10682,"cÄģnĠjiÃłnĠ":10683,"kÃłnĠfÇİĠ":10684,"wÄĵnĠdÃłiĠ":10685,"hÅ«nĠyÄ«n":10686,"tiÄĵĠmÃ¹":10687,"ĠyÄ«ĠshÃŃĠ":10688,"ĠyÇĲĠdÅįngĠ":10689,"ĠxiÃłnĠzhÇİngĠ":10690,"zÃ¬ĠwÇĴĠ":10691,"wÃ¹ĠtÇĲĠ":10692,"fÄĵngĠgÃ©ĠdeĠ":10693,"ĠyÇĲnĠfÄģĠ":10694,"liÃ¡nĠmÃ©ngĠdeĠ":10695,"zÃ©ĠyÃ³uĠ":10696,"dÇĴngĠ":10697,"pÄ«nĠ":10698,"ĠshÃ¬ĠtÃ¡iĠwÄģnĠ":10699,"ĠdÃłĠduÃ¬Ġ":10700,"zhÇĶĠdÇİĠ":10701,"pÇĶĠlÄģĠ":10702,"ĠĠĠ2009ĠniÃ¡nĠ":10703,"lÃ¡iĠshÃ¬Ġ":10704,"lÃŃnĠjÃ¬nĠ":10705,"zhÃ¨nĠjÃŃĠxÃŃngĠzhÃ¨ngĠdÄģnĠwÃ¨iĠ":10706,"wÇĴĠdeĠ":10707,"64ĠniÃ¡nĠ":10708,"ĠbÃ¹ĠchÃ©ngĠ":10709,"fÄģngĠÃłn":10710,"fÄģngĠbiÃłnĠ":10711,"suÇĴĠxÅ«":10712,"ĠyÃ³uĠzhÃ¨ngĠ":10713,"ĠzÃ¬ĠrÃ¡n":10714,"ĠlÃ³ng":10715,"ĠĠĠb":10716,"ĠĠĠgÇĶĠ":10717,"ĠĠĠtÄģĠdeĠ":10718,"ĠĠĠguÃ³ĠjÃ¬Ġ":10719,"1926ĠniÃ¡nĠ":10720,"ĠzhÅįngĠyÄ«Ġ":10721,"ĠzhÃ¬ĠyuÃ¡nĠ":10722,"shÄĵngĠgÃ©ĠwÃ¨iĠ":10723,"ĠjiÃłnĠkÄģng":10724,"ĠquÃ¡nĠxiÃłnĠ":10725,"zuÃ¬ĠzhÃ²ngĠyÃłoĠdeĠ":10726,"juÃ©ĠsÃ¨ĠdeĠ":10727,"dÃ¬ngĠyÃ¬ĠwÃ¨iĠ":10728,"tÃºĠÃłnĠ":10729,"ĠwÄĵiĠÄĽrĠ":10730,"ĠtÃłiĠguÃ³Ġ":10731,"duÅįĠÄĽrĠ":10732,"ĠdeĠxÃŃngĠ":10733,"ĠshÃ¬ĠlÃ¡ngĠ":10734,"ĠzÃłiĠqiÃ¡nĠ":10735,"ĠzhÅįngĠjiÃłngĠ":10736,"ĠjÃŃĠbiÃ©Ġ":10737,"ĠÃ©rĠtÃ³ng":10738,"ĠshÃłngĠyÃ¬ngĠ":10739,"cÄģnĠguÄģnĠ":10740,"chÃ³ngĠfÇİnĠ":10741,"ĠrÃ©nĠkÇĴuĠwÃ¨iĠ":10742,"ĠbÄ«nĠ":10743,"shÃ¨ngĠdeĠ":10744,"jÇĲngĠwÃ¨iĠ":10745,"xiÄģnĠwÃ©iĠ":10746,"raĠ":10747,"ĠyÄ«ĠliÃ¡o":10748,"guÄģnĠkÃłnĠ":10749,"ĠyÄ«nĠÃ©r":10750,"cÃ¬ĠshÃ¹Ġ":10751,"tÃ³ngĠyÃłngĠ":10752,"ĠzÄ«Ġ":10753,"ĠxiÇİnĠshÃ¬Ġ":10754,"ÃłnĠlÃ¬Ġ":10755,"jiÃłĠdeĠ":10756,"qÃ¹ĠleĠ":10757,"1918ĠniÃ¡nĠ":10758,"yÃ¬ĠhuÃ¬Ġ":10759,"ĠyÃºĠ2016":10760,"jiÄģnĠchÃŃĠ":10761,"ĠzhÅįuĠzhÇİngĠ":10762,"zhÇĴngĠlÃ¨iĠ":10763,"wÇİngĠwÇİng":10764,"jiÇİnĠchÃ¡":10765,"shÄĽnĠpÃłnĠ":10766,"hÃ¹nĠnÃŃngĠ":10767,"ĠshÃ¹":10768,"Ġ58":10769,"ĠĠĠxiÇİoĠ":10770,"ĠĠĠÃ©rĠ":10771,"28ĠniÃ¡nĠ":10772,"mÃ¡iĠ":10773,"ĠgÃ¨ĠguÃ³ĠjiÄģĠ":10774,"ĠyÇĶĠxÄ«Ġ":10775,"jiÃłoĠliÃłn":10776,"dÄģnĠdÃºĠ":10777,"biÄģnĠzÇĶĠ":10778,"jiÃłĠgÃ²uĠ":10779,"7ĠmÇĲĠ":10780,"ĠnÃŃ":10781,"ĠkÄģiĠshÇĲ":10782,"ĠguÇİngĠxÄ«Ġ":10783,"ĠĠĠwÃ¡ngĠ":10784,"ĠĠĠsuÄ«ĠrÃ¡n":10785,"shÄ«ĠjÃŃĠ":10786,"shÃ²uĠdÃłoĠleĠ":10787,"shÄĵnĠyÃºĠ":10788,"lÃ¹nĠdeĠ":10789,"xÃ¹nĠxÄ«Ġ":10790,"umĠ":10791,"ĠzhÅįngĠduÃłnĠ":10792,"ĠdÃłĠchÃ©n":10793,"cÅ«nĠmÃŃnĠ":10794,"qÃºnĠdÇİoĠdeĠ":10795,"ĠzhÃ¨ngĠfÇĶĠdeĠ":10796,"8ĠmÇĲĠ":10797,"ĠzÇĶĠzhÄ«Ġ":10798,"ĠĠĠzuÃ²ĠwÃ©iĠ":10799,"mÃŃngĠyÃºĠ":10800,"xÃ¬ngĠmÃŃngĠ":10801,"xiÄģnĠdeĠ":10802,"75ĠniÃ¡nĠ":10803,"ESTĠ":10804,"ĠyÇĶĠwÃ©nĠ":10805,"zhÃ¹ĠshÇĴuĠ":10806,"tiÄģnĠwÃ©nĠxuÃ©Ġ":10807,"miÃłnĠxiÃłngĠ":10808,"ĠyÃ³uĠqÃŃĠ":10809,"Ã¨ĠhuÃłĠ":10810,"ĠJĠ":10811,"Ġ64":10812,"ĠĠĠluÃ³Ġ":10813,"bÄģĠjÄ«ĠsÄ«Ġ":10814,"ĠshÃ¬ĠchÃ©ngĠ":10815,"ĠshÃ¬ĠchÅ«Ġ":10816,"ĠyÇĴuĠmÃŃngĠ":10817,"ĠdÃłoĠshÃŃĠ":10818,"ĠyÇĲĠcÇĲĠ":10819,"ĠzhÅįuĠfÃ¹ĠzÃ©ĠguÇİnĠxiÃ¡Ġ":10820,"wÃłiĠlÃ¡ngĠ":10821,"chÄĵngĠhÅ«Ġ":10822,"jiÇİngĠpÃ¡iĠ":10823,"ĠzhÃłnĠhÃ²uĠ":10824,"ĠÃłiĠÄĽrĠ":10825,"tiÃ¡oĠyuÄĵĠtÇĲĠxÃ¬Ġ":10826,"Ġ47":10827,"65ĠniÃ¡nĠ":10828,"ĠzhÅįngĠshÄģn":10829,"jÄ«ngĠyÃłn":10830,"ĠzhÃŃĠjiÄĵĠ":10831,"ĠpÃŃngĠchÃ©ngĠ":10832,"ĠmÃŃĠ":10833,"Ġ1988ĠniÃ¡nĠ":10834,"jÃ¬ĠbÃ¹Ġ":10835,"wÃ¹ĠbÃ¹Ġ":10836,"suÇĴĠshÃ¬Ġ":10837,"70Ġ":10838,"62ĠniÃ¡nĠ":10839,"1914ĠniÃ¡nĠ":10840,"jÄ«ĠhuÃ¬Ġ":10841,"hÃ²uĠqÄ«Ġ":10842,"zhÇĶĠbÃłnĠ":10843,"fÃ¹ĠmÇĶĠ":10844,"jiÄģnĠchÃ¡":10845,"ĠxiÄģngĠguÄģnĠdeĠ":10846,"sÃ¨ĠcÇİiĠ":10847,"7ĠgÃ¨Ġ":10848,"Ġ1984ĠniÃ¡nĠ":10849,"ÄģnĠxiÃłnĠ":10850,"ĠĠĠquÃ¡nĠ":10851,"tÅ«ĠrÃ¡n":10852,"suÄģnĠjiÇİnĠ":10853,"xuÇİnĠmÃŃnĠ":10854,"kÄĵĠhuÃ¬ĠshÃ¬ĠdÃ¬Ġ":10855,"gÄĵĠshÇĴu":10856,"Ã¨rĠshÃŃĠniÃ¡nĠ":10857,"sÃ¹ĠdÃ¹":10858,"gÄĵnĠsuÃŃĠ":10859,"ĠdeĠshÃŃĠjiÄģn":10860,"pÃ©iĠxÃ¹n":10861,"ĠguÃ³ĠfÃ¡ngĠbÃ¹Ġ":10862,"ĠĠĠ2007ĠniÃ¡nĠ":10863,"ĠjÄ«ĠfÄĵnĠ":10864,"yÃ³uĠjÃº":10865,"qiÃ¡nĠshÄĵnĠ":10866,"xiÇİngĠyÃłoĠ":10867,"ĠlÃ¡iĠzÃ¬":10868,"nÃ¡nĠjÃŃĠtiÃ¡oĠyuÄĵĠtÇĲĠxÃ¬Ġ":10869,"EĠĠĠ":10870,"Ġ600":10871,"tÃ¡ngĠhÃ©Ġ":10872,"tÄ«ngĠdÃłoĠ":10873,"cÃ¡nĠjÃŃĠrÃ©nĠ":10874,"ĠshÃ¬ĠpÃŃnĠ":10875,"ĠbÃ¹ĠlÇĶĠ":10876,"ĠrÃ©nĠquÃ¡nĠ":10877,"ĠgÅįngĠdÇİĠ":10878,"ĠchÅ«ĠyÃºĠ":10879,"zÃ¬ĠshÄģĠ":10880,"pÇĲnĠzhÇĴngĠ":10881,"jÇĲĠnÃ¨iĠ":10882,"ĠzhÃŃĠxÃŃngĠ":10883,"ĠgÄģiĠcÅ«nĠshÇĲĠjiÃłnĠyÃºĠ":10884,"yÃºĠwÃ¨iĠ":10885,"zhÃ¨ngĠyÃ¬Ġ":10886,"yÃŃnĠhÃ©Ġ":10887,"ĠzÃłiĠnÃ¨iĠ":10888,"wÃ©iĠyÄĽĠ":10889,"diÃłnĠchÃŃĠ":10890,"duÅįĠshÃ¹":10891,"rÃ¨ĠdÃłi":10892,"ĠÄģnĠhuÄ«Ġ":10893,"ĠxÃŃngĠchÃ©ngĠleĠ":10894,"ĠjÃ¬ngĠnÃ¨iĠ":10895,"qÃŃĠzhÅįngĠyÃŃĠgÃ¨Ġ":10896,"xiÃłĠxiÃ¡ĠdeĠyÃŃĠgÃ¨ĠxiÄģngĠzhÃ¨nĠjÃŃĠxÃŃngĠzhÃ¨ngĠdÄģnĠwÃ¨iĠ":10897,"ĠmÃ¡o":10898,"ĠdÄ«Ġ":10899,"zhÃłnĠwÃ¨iĠyÃºĠ":10900,"zhÃ¹ĠyÇĴuĠ":10901,"mÇİĠshÃ¬Ġ":10902,"zhÃ¨nĠdÃ¬Ġ":10903,"xiÇİngĠyÇĴuĠ":10904,"inĠĠĠ":10905,"1950ĠniÃ¡nĠ":10906,"ĠshÃŃĠyÇĴuĠ":10907,"wÃ©iĠchÃŃ":10908,"rÃ³ngĠliÃłngĠ":10909,"ĠrÃ³ng":10910,"ĠfÃłn":10911,"ĠgÃ²ngĠtÃ³ngĠ":10912,"Ġ1990ĠniÃ¡nĠ":10913,"ĠĠĠjÃ¬n":10914,"mÃ©iĠtÃ³ngĠpÃ¡iĠ":10915,"tÇİĠjÄ«Ġ":10916,"gÅįngĠmÃŃnĠ":10917,"ĠchÃ©ngĠgÅįngĠdeĠ":10918,"ĠsÄ«ĠdÃ¹nĠ":10919,"ĠjÄ«ĠbÄĽn":10920,"ĠjiÄģĠlÇĲĠ":10921,"ĠkÃ¨ĠyÇĶĠ":10922,"ĠdÃ©ĠluÃ³Ġ":10923,"fÃºĠzhuÄģngĠ":10924,"zhÃ¨nĠyÄģĠ":10925,"sÃ¹ĠsÃ²ngĠ":10926,"qÃŃngĠgÇİnĠ":10927,"piÃłnĠduÃłnĠ":10928,"kÇİoĠchÃ¡Ġ":10929,"pÄ«ĠpÃłnĠ":10930,"ĠsÄ«ĠlÃ¬ngĠyuÃ¡nĠ":10931,"ĠzhuÄ«Ġ":10932,"liÇİngĠzuÃ²Ġ":10933,"nÃ³ngĠlÃ¬Ġ":10934,"ĠzÃłiĠnÃłĠ":10935,"ĠyÃ¬ĠxÃŃĠ":10936,"ĠrÃ¬ĠyÇĲĠ":10937,"ĠjiÃłnĠdÃłoĠ":10938,"ĠhÃ²uĠzhÄĽ":10939,"huÃłĠguÄ«Ġ":10940,"jiÃłoĠdÃłĠdeĠ":10941,"wÃ©nĠzhÄģng":10942,"ĠwÃ©iĠwÃºĠÄĽrĠ":10943,"jiÄģngĠnÃ¡nĠ":10944,"ĠzuÃ²ĠzhÄĽĠ":10945,"qÇĲĠyuÃ¡nĠyÃºĠ":10946,"bÅįĠtÃ¨Ġ":10947,"ĠFĠ":10948,"4ĠmÃŃngĠ":10949,"ĠdÃºĠlÃ¬Ġ":10950,"ĠĠĠ5Ġ":10951,"17ĠniÃ¡nĠ":10952,"ĠzÃłiĠchÃ©ngĠ":10953,"ĠshÃŃĠtÇĲĠ":10954,"ĠyuÃ¨ĠyÇĶĠ":10955,"ĠjiÃ©ĠhÅ«nĠ":10956,"Ġ1945":10957,"ĠbiÄģoĠ":10958,"ĠhuÄ«Ġ":10959,"yÃ²ngĠzÃłiĠ":10960,"tÃ¨ĠshÃ¬Ġ":10961,"yÃ²uĠyÃ¬Ġ":10962,"fÃ¡ngĠxiÃłnĠ":10963,"1990ĠniÃ¡nĠdÃłiĠ":10964,"kuÄģngĠjiÃłĠ":10965,"1913ĠniÃ¡nĠ":10966,"ĠyÄ«ĠlÃłi":10967,"ĠxÄ«ĠtÃ¨Ġ":10968,"ĠbÃ¬ngĠbÃºĠshÃ¬Ġ":10969,"qÄ«ngĠxiÃłngĠ":10970,"ĠxiÃłĠlÃ¡iĠ":10971,"mÃ²ĠqÄ«Ġ":10972,"shÅįuĠcÃ¡ngĠ":10973,"ĠniÃ¡nĠ4ĠyuÃ¨Ġ1ĠrÃ¬Ġ":10974,"yÃ¬nĠnÃŃ":10975,"xiÇİoĠxÃŃngĠxÄ«ngĠdeĠ":10976,"nÃ¡nĠjÃŃĠtiÃ¡oĠyuÄĵĠtÇĲĠxÃ¬ĠguÇİnĠlÇĲĠ":10977,"ĠxÃ¬ĠtÇĴngĠ":10978,"ĠpiÃłoĠ":10979,"ĠĠĠzhÃŃĠyÃ¨ĠshÄĵngĠyÃ¡Ġ":10980,"wÃ©iĠgÅįngĠ":10981,"biÄģnĠxÃŃngĠ":10982,"cÃŃĠjÄ«Ġ":10983,"pÄ«ngĠ":10984,"shÃŃĠyÄ«Ġ":10985,"ĠdÃłĠqÃ¬Ġ":10986,"huÃ¬ĠshÃłngĠ":10987,"fÇİĠlÃ¡nĠxÄ«Ġ":10988,"fÄĵnĠlÃŃ":10989,"shÃłoĠnÇļ":10990,"tiÄģnĠwÃ©nĠtÃ¡iĠ":10991,"4ĠmÇĲĠ":10992,"ĠcÃ¡o":10993,"Ġ1989ĠniÃ¡nĠ":10994,"kÄĵĠlÃ¬Ġ":10995,"shÄĽngĠfÃ¹ĠzÃ©ĠguÇİnĠxiÃ¡Ġ":10996,"hÃ¹ĠwÃ¨iĠ":10997,"luÃ²ĠyÄ«Ġ":10998,"lÄĽiĠjÄ«Ġ":10999,"gÄĽnĠdÃ¬Ġ":11000,"ĠdÃ¬ĠyÃ¹Ġ":11001,"wÃ©iĠchÃŃĠ":11002,"xÄ«ĠwÃłng":11003,"qiÃ¡nĠlÃ¡iĠ":11004,"shÄģngĠhÃłiĠ":11005,"yÃŃĠgÃ¨ĠyuÃ¨Ġ":11006,"dÄģngĠxuÇİnĠwÃ¨iĠ":11007,"ĠliÃ¡nĠbÄģng":11008,"ĠjiÄĵĠshÃ²uĠ":11009,"ĠjÃŃĠbÄĽiĠmÄĽiĠ":11010,"ĠguÇİnĠlÇĲĠ":11011,"ĠjiÄĵĠwÃ¨iĠ":11012,"ĠĠĠ9":11013,"ÃłiĠhÃłoĠ":11014,"rÃ¬ĠjÅ«nĠ":11015,"miÃ¨ĠjuÃ©Ġ":11016,"shÇİnĠ":11017,"bÃŃĠ":11018,"ĠdeĠzhÄ«ĠchÃŃĠ":11019,"ĠshÃ¬ĠzhÃ¬Ġ":11020,"ĠchÃ©ngĠfÃ¨nĠ":11021,"ĠzhÄ«ĠlÇĲĠ":11022,"ĠyuÃ¡nĠyÄ«nĠshÃ¬Ġ":11023,"ĠdÃłnĠyÄĽĠ":11024,"ĠfÃ¹ĠzhÇĶĠxÃŃĠ":11025,"tiÃ¡oĠjiÃ©Ġ":11026,"wÃ©iĠyÄ«ĠyÄ«Ġ":11027,"ĠĠĠwÃłiĠbÃ¹Ġ":11028,"leĠzhÅįngĠguÃ³Ġ":11029,"zuÃ¬ĠyÇĴuĠ":11030,"jiÇİnĠyÃ¬Ġ":11031,"sÃłĠkÃ¨ĠsÄ«Ġ":11032,"jiÃłoĠzÅįngĠ":11033,"ĠzhÃ¨ngĠcÃ¨":11034,"zhÃ²ngĠliÃłngĠ":11035,"yÇİnĠhuÃłĠ":11036,"tÃ³ngĠmÃ©ng":11037,"jiÄĽĠsÃłn":11038,"lÃ©iĠdÃ¡Ġ":11039,"ĠshÃ¬ĠjiÃ¨ĠbÄĵi":11040,"ĠhÃ¡oĠ":11041,"fÄĵiĠÄĽrĠdÃ©Ġ":11042,"37ĠniÃ¡nĠ":11043,"pÃ©nĠdÃ¬Ġ":11044,"ĠwÃ¨iĠjÃŃĠ":11045,"ĠxÄ«ĠzÃłngĠ":11046,"ĠkÃ¨ĠzÃłiĠ":11047,"xiÃłĠlÃ¬ngĠ":11048,"fÇİĠxuÃ©Ġ":11049,"shÄģĠbÃ¡iĠ":11050,"jiÇĶĠlÃ³ng":11051,"chÇĲĠcÃ¹n":11052,"ĠniÃ¡nĠdÃłiĠdeĠ":11053,"Ġ800":11054,"ĠzÇĶĠchÃ©ngĠ":11055,"ĠchÄģoĠguÃ²Ġ":11056,"jiÃłnĠshÃ¨":11057,"shuÇĲĠdÃłoĠ":11058,"mÃ²ĠniÃ¡nĠ":11059,"mentĠ":11060,"ĠdeĠqÃŃngĠkuÃłngĠxiÃłĠ":11061,"ĠyÃºĠ2018":11062,"ĠchÃ©ngĠjiÃ¹Ġ":11063,"ĠyÄ«ĠshÄ«Ġ":11064,"ĠgÃ¨ĠlÃ¨iĠ":11065,"tÃŃngĠzhÇĲ":11066,"ĠrÃ©nĠmÃŃnĠzhÃ¨ngĠfÇĶ":11067,"ĠĠĠzhÅįngĠhuÃ¡ĠrÃ©nĠmÃŃnĠgÃ²ngĠhÃ©ĠguÃ³Ġ":11068,"ĠhuÃ¡ĠshÃ¨ngĠ":11069,"cÄģnĠsÃłiĠzÄ«ĠgÃ©Ġ":11070,"shÄģnĠmÃłiĠdeĠyÄ«ĠbÃ¹ĠfÃ¨nĠ":11071,"ĠlÄĽiĠjÃ¬Ġ":11072,"ĠĠĠjiÃ©Ġ":11073,"ĠĠĠhuÃ²Ġ":11074,"sÃ¬ĠwÃ¨iĠ":11075,"suÃŃĠjÄ«Ġ":11076,"rÃ©nĠkÇĴuĠwÃ¨iĠ":11077,"jÃ¬ĠhuÃł":11078,"ĠyuÃ¡nĠlÇĲĠ":11079,"ĠxiÃłnĠxÃ¬ngĠ":11080,"qÅ«ĠbiÃ©Ġ":11081,"tÅįngĠyÃ²ngĠ":11082,"shÃ²uĠsÇĶnĠ":11083,"tÃ³uĠxiÃ¡ng":11084,"ĠzhÇĶĠzhÄģngĠ":11085,"zhÃ¨ngĠzhÃ¬ĠjiÄģĠ":11086,"rÃ¨ĠdÃłiĠqÃ¬ĠxuÃ¡nĠ":11087,"ĠgÃ¨ĠyuÃ¨ĠhÃ²uĠ":11088,"ĠyÃ¡nĠjiÅ«":11089,"Ġ1991ĠniÃ¡nĠ":11090,"huÃ¬ĠwÃ¨iĠ":11091,"hÇİiĠshÃ¬Ġ":11092,"xÃ¬nĠrÃ¨nĠ":11093,"edĠĠĠ":11094,"ĠzÃłiĠshÃłngĠ":11095,"ĠguÃ³ĠÄģnĠ":11096,"ĠzhÅįuĠkÄģnĠ":11097,"ĠdeĠgÅįngĠnÃ©ngĠ":11098,"Ġ18Ġ":11099,"ĠJa":11100,"juÃ©ĠwÃ¨iĠ":11101,"1960ĠniÃ¡nĠdÃłiĠ":11102,"ĠdÃ¬ĠchÇİnĠ":11103,"ĠyÃºĠ2024":11104,"ĠyÄ«ĠrÃ¡n":11105,"hÇİiĠbÃ¡ĠgÄģoĠdÃ¹Ġ":11106,"jiÇİnĠcÃ¨Ġ":11107,"tÃ¡ngĠqÅ«Ġ":11108,"yÄ«nĠcÇĲĠ":11109,"ĠtÃ³ngĠxÃ¬ngĠ":11110,"huÃŃĠdÃ¡Ġ":11111,"ĠdeĠjÃ¬ĠshÃ¹Ġ":11112,"wÄĽnĠdÃ¬ngĠdeĠ":11113,"Ġá":11114,"ĠwÇİ":11115,"jiÃ©ĠchÅ«Ġ":11116,"bÄ«ngĠdeĠ":11117,"luÇİnĠ":11118,"ĠhÃ©ĠyÃ¬Ġ":11119,"ĠtÄģĠyÇĴuĠ":11120,"guÄģnĠliÃ¡nĠ":11121,"qiÃ¡nĠfÄĵngĠ":11122,"suÇĴĠwÃ¨iĠdeĠ":11123,"bÇİoĠxiÇİnĠ":11124,"ĠhuÃ²ĠchÄĵngĠ":11125,"tiÃ¡oĠkuÇİnĠ":11126,"dÅ«ĠchÃ¡Ġ":11127,"ĠjiÇİnĠchÄĵng":11128,"ĠdiÃłnĠziĠ":11129,"ĠdÃ²ngĠhuÃłĠ":11130,"ĠbÄģngĠzhÃ¹Ġ":11131,"ĠĠĠ2006ĠniÃ¡nĠ":11132,"xÄ«ĠyÃºĠ":11133,"cÃ©ngĠrÃ¨nĠ":11134,"24ĠniÃ¡nĠ":11135,"ĠdÃ¬Ġ3Ġ":11136,"ĠduÃ¬ĠfÄģngĠ":11137,"ĠquÃ¡nĠshÃ¬Ġ":11138,"cÃŃĠdiÇİnĠ":11139,"diÃłnĠshÃ¬ĠjiÃ©ĠmÃ¹Ġ":11140,"fÄģĠbiÇİoĠdeĠ":11141,"yÃłĠmÄĽiĠnÃŃĠyÃłĠ":11142,"hÃ¹ĠliÃ¡nĠwÇİngĠ":11143,"ĠsÄģng":11144,"ĠĠĠ14":11145,"ĠĠĠ13":11146,"nÃ¡nĠshÃ¬Ġ":11147,"xiÃłngĠwÃ¨iĠ":11148,"cÃ©ngĠyÇĴuĠ":11149,"gÇİiĠjÃ¬nĠ":11150,"zÄĵngĠshÃ¨Ġ":11151,"tuÄ«ĠlÇĲĠ":11152,"manĠ":11153,"ĠlÃ¬ĠÃłoĠ":11154,"ĠzhÃ¨ngĠchÃ¡ngĠ":11155,"dÇİoĠshÄ«Ġ":11156,"pÇĶĠlÇĶĠshÃ¬Ġ":11157,"ĠxÃ¬ĠliÃ¨":11158,"ĠtÇĲĠyÃ¹Ġ":11159,"tuÄ«ĠchÅ«ĠleĠ":11160,"xiÅ«ĠdÃłoĠyuÃłnĠ":11161,"ĠkÄģng":11162,"ĠshÄĽngĠ":11163,"ĠtÃ¡nĠ":11164,"ĠmiÇİoĠ":11165,"yÇĶĠyÃ¬Ġ":11166,"lÃ¹ĠshÃ¬Ġ":11167,"bÄĽiĠjÃŃĠ":11168,"qÇĶĠzÃ¬Ġ":11169,"yÇĲnĠjÃ¬nĠ":11170,"veĠĠĠ":11171,"ĠyÇĶĠqÃŃ":11172,"ĠdeĠshÃ¬ĠjiÃ¨":11173,"ĠcÇĲĠcÃ¬Ġ":11174,"ĠtiÄģnĠwÃ©nĠ":11175,"ĠqiÃ¡oĠzhÃ¬Ġ":11176,"ĠĠĠmÃŃnĠguÃ³Ġ":11177,"hÅ«nĠlÇĲĠ":11178,"idĠ":11179,"ĠyÃºĠ2020":11180,"ĠchÃ©ngĠzuÃ²Ġ":11181,"sÅ«ĠgÃ©ĠlÃ¡n":11182,"Ġ65":11183,"ĠĠĠzhÄģngĠ":11184,"duÃ¬ĠzhÅįngĠ":11185,"ĠdÃ¬ĠjiÇĶĠ":11186,"ĠtÄģĠbÃ¹Ġ":11187,"ĠxÃŃngĠchÃ¡i":11188,"ĠxÃŃngĠshÃ¬ĠdeĠ":11189,"zhÃ¨ngĠcÃ¨":11190,"dÃłiĠmÇİĠ":11191,"ĠleĠyÃŃĠgÃ¨Ġ":11192,"ĠxiÄģngĠguÄģn":11193,"ĠxÃŃngĠzhÃ¨ngĠyuÃłnĠ":11194,"ĠyÃ²uĠyÃ¬Ġ":11195,"ĠĠĠchÄĵĠzhÃłn":11196,"liÃºĠqiÃºĠ":11197,"bÇİoĠhÃ©Ġ":11198,"chuÃ¡nĠdeĠ":11199,"tÃŃngĠzhÃłnĠ":11200,"nÃ¡ĠdÃł":11201,"elĠ":11202,"1901ĠniÃ¡nĠ":11203,"ĠchÃ©ngĠdÅ«Ġ":11204,"jÄ«ĠbÃłiĠ":11205,"ĠyÇĶĠzhÄ«Ġ":11206,"ĠdÃłiĠmÇİĠwÃ¨iĠ":11207,"liÃ¡ngĠhÇİoĠ":11208,"lÃ¬ĠshÇĲĠshÃłngĠ":11209,"ĠxiÃłnĠshÃŃĠyÃ³uĠnÃ¡nĠjÃŃĠtiÃ¡oĠyuÄĵĠtÇĲĠxÃ¬ĠguÇİnĠlÇĲĠ":11210,"ĠLa":11211,"ĠSa":11212,"ĠjÅ«Ġ":11213,"luÃ²ĠyÃºĠ":11214,"bÃ¡iĠrÃ©nĠ":11215,"dÇĲngĠjÃŃĠ":11216,"38ĠniÃ¡nĠ":11217,"zÅ«ĠjiÃ¨":11218,"ĠyÃºĠ2015":11219,"ĠzhÃ¬ĠdÃ¹":11220,"ĠchÅ«ĠlÃ¡iĠdeĠ":11221,"tÃ¨ĠshÅ«":11222,"ĠduÅįĠcÃ¬Ġ":11223,"ĠtÃ¡i":11224,"ĠUĠ":11225,"ĠĠĠwÇĶĠ":11226,"ĠĠĠyÄ«nĠyuÃ¨Ġ":11227,"jiÃ©ĠshÃŃĠ":11228,"yÃ¨ĠhÃ©Ġ":11229,"ĠdÃ¬ĠshÃłngĠ":11230,"ĠgÅįngĠchÇİng":11231,"lÃ¹ĠyÇĲngĠdÃłiĠ":11232,"miÃłnĠ2":11233,"liÃºĠdÃ²ngĠ":11234,"ĠbÄĽnĠzhÃłnĠ":11235,"ĠbÄĽnĠtÇĶĠ":11236,"shÃ©nĠshÃ¨ngĠ":11237,"chÃ³ngĠqÃ¬ngĠ":11238,"Ġr":11239,"ĠlÇİo":11240,"ĠĠĠshÄģĠ":11241,"piÃłnĠrÃ©nĠ":11242,"67ĠniÃ¡nĠ":11243,"ĠdeĠyÇĴuĠ":11244,"ĠyÃºĠlÃ©iĠ":11245,"dÃłĠxÃŃngĠ":11246,"yÃ¨ĠjiÄģnĠ":11247,"tÃŃĠgÄģo":11248,"liÇİngĠÃłnĠ":11249,"yÇĲĠjÄ«ng":11250,"ĠzÃłiĠdÃ¬ĠyÄ«Ġ":11251,"guÄģnĠfÃ¨iĠyÃ¡nĠquÃ¨ĠzhÄĽnĠbÃ¬ngĠlÃ¬Ġ":11252,"ĠchÃŃĠ":11253,"bÄĽiĠdeĠ":11254,"jiÄģoĠyÃ³uĠ":11255,"mÃłnĠdÃ¬ĠguÃ³Ġ":11256,"zhÄĽngĠlÇĲĠ":11257,"ĠyÃºĠ2013":11258,"ĠyÇĴuĠguÄģnĠdeĠ":11259,"ĠgÅįngĠÄģnĠ":11260,"fÃ¡ngĠwÅ«":11261,"ĠzhÃŃĠlÃ¬Ġ":11262,"pÃ©iĠyÇİng":11263,"ĠĠĠzhÃ¨ĠkÄĵĠ":11264,"ĠÙ":11265,"ĠshÅ«":11266,"ĠzhuÄģn":11267,"rÃ¬ĠzhÃ¬Ġ":11268,"tÃ³ngĠwÃ¨iĠ":11269,"huÃŃĠdÃło":11270,"ĠrÃ©nĠlÃ¬Ġ":11271,"jÃ¬ĠshÃ¹":11272,"ĠyÄ«ĠrÃ¡nĠ":11273,"nÃ¨iĠgÃ©":11274,"ĠyÃ³uĠqÃŃ":11275,"ĠdÄĽngĠdÄĽngĠ":11276,"1ĠmÇĲĠ":11277,"ĠyÃ¬ĠniÃ¡nĠ":11278,"mÃŃnĠyÃ¬Ġ":11279,"zhuÄ«ĠqiÃºĠ":11280,"ĠdeĠzuÃ¬Ġ":11281,"ĠdeĠxÃŃngĠshÃ¬Ġ":11282,"ĠshÃ¬ĠchÇİng":11283,"rÃ©nĠyuÃ¡nĠ":11284,"ĠyÃºĠ2012":11285,"ĠguÃ³ĠdÃłoĠ":11286,"huÃłĠmiÃłnĠ":11287,"dÄģnĠmÃłiĠ":11288,"chuÃ¡nĠshuÅį":11289,"ĠnÃ¡nĠxÃ¬ngĠ":11290,"jiÃ¹ĠzhÇĲĠ":11291,"jÇĲngĠqÅ«Ġ":11292,"jÇĲngĠdiÇİnĠ":11293,"ĠdeĠjÄ«ĠchÇĶ":11294,"ĠÐ¾":11295,"ĠĠĠAl":11296,"shÄĽngĠhuÃ¬Ġ":11297,"tÅįngĠxÃŃngĠ":11298,"lÃ¨ĠyuÃ¡nĠ":11299,"ĠshÃ¬ĠxiÃłĠxiÃ¡ĠdeĠyÃŃĠgÃ¨ĠxiÄģngĠzhÃ¨nĠjÃŃĠxÃŃngĠzhÃ¨ngĠdÄģnĠwÃ¨iĠ":11300,"gÅįngĠjÄ«Ġ":11301,"ĠyÇĲĠbiÃłn":11302,"ĠxÃŃngĠhÃłoĠ":11303,"rÃ¹ĠjÃ¬ngĠ":11304,"shÃ¨ĠyÇĲngĠ":11305,"guÃ¬ĠzÃº":11306,"ĠĠĠfÄĵnĠlÃ¨iĠ":11307,"ÃłiĠlÃ¬Ġ":11308,"jÃŃĠzhÅįngĠxuÃ©Ġ":11309,"zÃ©ĠxÄ«Ġ":11310,"bÄģĠlÇĲĠ":11311,"lÃŃnĠzhÅįngĠ":11312,"jiÃłngĠjÃŃĠ":11313,"ĠjÃ¬ĠhuÃłĠdeĠ":11314,"ĠchÅ«ĠniÃ¡nĠ":11315,"fÄģĠjuÃ©Ġ":11316,"bÃ³ĠlÄģĠ":11317,"YĠ":11318,"Ġ1999":11319,"ĠĠĠde":11320,"ĠĠĠRo":11321,"zÇĴngĠsÄ«ĠlÃ¬ngĠ":11322,"luÃ²ĠshÃŃĠ":11323,"yÃ²uĠzÃłiĠ":11324,"xiÄĵĠÄĽrĠ":11325,"bÇİnĠquÃ¡nĠ":11326,"ĠzhÅįngĠzhÃ¨ngĠ":11327,"zhÇĶĠdÇİoĠ":11328,"nÃ¡nĠbÃ¹ĠdeĠ":11329,"ĠbÃ¨iĠbÇĶĠ":11330,"guÄģnĠguÄģngĠ":11331,"liÃ¡nĠsÃłiĠdeĠ":11332,"ĠqÃŃĠxiÃłĠdeĠ":11333,"yÃŃĠmiÃłnĠ":11334,"ĠdÃłnĠmÃ©iĠyÇĴuĠ":11335,"yÇİnĠzÃ²uĠ":11336,"lÃ¹nĠtÃ¡nĠ":11337,"zhÄĵnĠchÃ¡Ġ":11338,"ĠsÄģnĠyuÃ¨Ġ":11339,"tÇĴngĠzhÃ¬ĠzhÄĽĠ":11340,"fÃ¡nĠmÃ¡ng":11341,"ĠhÄĵiĠlÃ³ngĠjiÄģngĠ":11342,"ĠsĠ":11343,"ĠĠĠdeĠĠĠ":11344,"kÃ¹ĠÄĽrĠ":11345,"gÅįngĠyÃ¨Ġ":11346,"ĠyÇĲĠjÃŃĠzÃłiĠ":11347,"zhÇĶĠliÃºĠ":11348,"dÅįngĠqÅ«Ġ":11349,"tÇĲĠyÃłnĠ":11350,"ĠxiÃłĠwÇĶĠ":11351,"tÃ³ngĠmÃ©ngĠ":11352,"ĠsuÃŃĠjÃŃĠ":11353,"ĠyÇĴu":11354,"ĠdÅ«nĠ":11355,"pÃŃngĠrÃ©nĠ":11356,"qiÄģnĠmÃŃngĠ":11357,"gÃ¨ngĠgÄģoĠ":11358,"qiÅ«ĠjÃ¬Ġ":11359,"yÃ©ĠÄĽrĠ":11360,"enterĠ":11361,"ĠdeĠjÃŃĠ":11362,"ĠhÃ©ĠzhÃ¬Ġ":11363,"ĠqÃŃĠzhÃ¬Ġ":11364,"huÃłĠrÃ¹Ġ":11365,"lÃŃĠbÄģĠnÃ¨n":11366,"mÃ¬ĠsÅ«ĠlÇĲĠ":11367,"kÃłngĠrÃ¬ĠzhÃłnĠzhÄĵngĠ":11368,"ĠhÃ©ĠdÃłoĠquÃ¡nĠzhÇİngĠ":11369,"ĠyÇİngĠ":11370,"ĠĠĠre":11371,"ĠĠĠzhÄĵngĠyÃ¬Ġ":11372,"yÇĶĠdÃ¬Ġ":11373,"zuÃ²ĠzÃłiĠ":11374,"tÃ¨ĠrÃ©nĠ":11375,"cÃ¬ĠshÃ¬Ġ":11376,"ĠbÃ¹ĠduÃłn":11377,"ĠyÃºĠ2014":11378,"ĠyÄ«ĠÄĽrĠ":11379,"ĠdÃłoĠjÃŃĠ":11380,"jiÄģnĠchÃ¡Ġ":11381,"fÄĵngĠsuÇĴĠ":11382,"ĠyÄĽĠmÃ©iĠyÇĴuĠ":11383,"dÅįngĠbÃ¹ĠshÃŃĠqÅ«Ġ":11384,"ĠHĠ":11385,"Ġu":11386,"ĠqÇĶĠdÃ©Ġ":11387,"ĠĠĠdÃło":11388,"sÃ¬ĠrÃ©nĠ":11389,"tuÅįĠÄĽrĠ":11390,"23ĠniÃ¡nĠ":11391,"dÇĴuĠ":11392,"ĠdeĠhÃ²uĠ":11393,"ĠgÅįngĠjiÄģoĠ":11394,"ĠchÃ©ngĠzhÇİngĠ":11395,"ĠjÅ«nĠrÃ©nĠ":11396,"luÃ²ĠtÃ¨Ġ":11397,"zhuÄģnĠyÃ²ngĠ":11398,"ĠmÇİĠlÄģĠ":11399,"xiÄģngĠgÇİngĠdeĠ":11400,"ĠtÃłiĠyÃ¡ngĠgÅįngĠ":11401,"ĠnuÃ²":11402,"ĠmÃŃngĠwÃ¨iĠ":11403,"ĠĠĠwÃºĠ":11404,"kÃ¨ĠlÇĲĠsÄ«Ġ":11405,"yÃ¹nĠzÃłiĠ":11406,"rÃ³ngĠdeĠ":11407,"guÇİngĠyÃ¬Ġ":11408,"xuÄģnĠshÃ¬Ġ":11409,"liÃ¹ĠshÃ¬Ġ":11410,"dÃ¬ĠguÃ³Ġ":11411,"ĠxÄ«ĠyÇĲn":11412,"bÄĽiĠhÇİiĠdÃłoĠ":11413,"Ġ16Ġ":11414,"lÄģĠsÄ«ĠjiÄģĠ":11415,"mÃ¨iĠmÃ¨iĠ":11416,"Ġ59":11417,"ĠzÇİoĠ":11418,"ĠyÇİĠ":11419,"ĠhÃ²uĠyÃºĠ":11420,"xiÃłngĠjÄ«Ġ":11421,"duÅįĠsÄ«Ġ":11422,"wÄģnĠqÅ«Ġ":11423,"niÃºĠsÄ«Ġ":11424,"endĠ":11425,"ĠdÃłĠliÃ¡nĠmÃ©ngĠ":11426,"jiÃłoĠdÄ«Ġ":11427,"diÃłnĠtÃ¡i":11428,"bÄģoĠkuÃ²ĠyÇĲĠxiÃłĠ":11429,"ĠnÃ¨iĠrÃ³ngĠ":11430,"gÅįngĠyuÃ¡nĠqiÃ¡nĠ":11431,"zhuÄ«ĠsÃ¹ĠdÃłoĠ":11432,"ĠfÃ¨ng":11433,"Ġ49":11434,"shÄĵngĠhÃ©Ġ":11435,"zhuÄģngĠdeĠ":11436,"chÅ«nĠjÃ¬Ġ":11437,"ĠshÃ¬ĠxÄ«nĠ":11438,"ĠyÄ«ĠqiÃ¨":11439,"yÃ¹nĠyÃŃng":11440,"lÇľĠhuÃłĠ":11441,"xÃŃĠjÄ«":11442,"ĠdÄģngĠdÃ¬ĠdeĠ":11443,"guÃ³ĠwÃ¹ĠyuÃłnĠ":11444,"ÄģiĠnÃłĠshÄĽngĠ":11445,"ĠAn":11446,"ĠESTĠ":11447,"yÇĶĠzhÅįngĠguÃ³Ġ":11448,"tÃ¨ĠgÅįngĠ":11449,"liÃłngĠjÃŃĠ":11450,"dÇİngĠzÃłiĠ":11451,"atĠ":11452,"sÇİnĠ":11453,"ĠyÇĴuĠxÇĶĠduÅįĠ":11454,"bÄĽnĠkÄĵĠ":11455,"dÅįngĠcÃ¨Ġ":11456,"guÇİnĠxiÃ¡":11457,"shÄģngĠwÃ¹Ġ":11458,"dÅįuĠmÃ©iĠyÇĴuĠ":11459,"zhÇĶnĠquÃ¨Ġ":11460,"ĠISTAT":11461,"qÄ«ĠyuÃ¨Ġ":11462,"zÃ©ĠyÇĲĠ":11463,"fÄĵiĠdeĠ":11464,"nÃłĠxiÄĵ":11465,"guÇİnĠkÃ²ng":11466,"kÄĽĠyÇĲĠtÅįngĠguÃ²Ġ":11467,"zhÅįngĠguÃ³ĠdÃłĠlÃ¹ĠdeĠ":11468,"1ĠjiÄģĠ":11469,"ĠtiÃ¡n":11470,"ÄģĠbÃ¹Ġ":11471,"yuÇİnĠdeĠ":11472,"1921ĠniÃ¡nĠ":11473,"ĠxÄ«ĠÄĽr":11474,"jÃ¹ĠfÄĵng":11475,"nÃ¡nĠmÄĽiĠzhÅįuĠ":11476,"tÃŃngĠkÃłoĠ":11477,"ĠmÃ²ĠxÄ«Ġ":11478,"zhÃ²ngĠyÃ¬ĠyuÃłnĠ":11479,"ĠshÃ¬ĠyÄ«ĠkÄĵĠwÃ©iĠrÃło":11480,"Ġ1998":11481,"ĠEDT":11482,"shÃ¨ĠjÃŃĠ":11483,"shÄĽngĠlÃ¬Ġ":11484,"huÃ¡ĠdeĠ":11485,"00ĠniÃ¡nĠ":11486,"fÇİnĠjÄ«Ġ":11487,"ĠzhÅįngĠyuÃ¡nĠ":11488,"guÄģnĠzhÃ²ng":11489,"guÄģnĠzhÃ¨ngĠ":11490,"ĠpÃŃngĠjiÃ¨Ġ":11491,"fÄĵngĠfÃ¹ĠdeĠ":11492,"ĠshÃ¬ĠyÄ«ĠzuÃ²":11493,"shÅįuĠshÃ¬ĠlÇľĠ":11494,"jiÃ¨ĠquÃ¡nĠguÃ³ĠzhÃ¨ngĠxiÃ©ĠwÄĽiĠyuÃ¡nĠ":11495,"pÄ«ngĠpÄģng":11496,"ĠĠĠguÃ³Ġ":11497,"lÇĲĠshÃŃĠ":11498,"rÃ¨nĠzhÄ«Ġ":11499,"chuÃ¡nĠyuÃ¡nĠ":11500,"zhÇİnĠchÅ«Ġ":11501,"yÃŃngĠlÃ¬Ġ":11502,"biÄģoĠshÃ¬Ġ":11503,"yÅįuĠhuÃ¬Ġ":11504,"ĠyÃºĠ2022":11505,"ĠlÃ¬ĠxuÃ©Ġ":11506,"jÃ¹ĠbÄĽnĠ":11507,"yÃ¹ĠwÃ©iĠ":11508,"liÃ¡nĠzÇİiĠ":11509,"ĠbÃ¬ngĠhuÃ²ĠdÃ©Ġ":11510,"jiÄĵĠguÇİnĠ":11511,"ĠjÃ¹ĠbÄĽnĠ":11512,"shÅ«ĠniÇĶĠ":11513,"tÃ³uĠrÃ¹":11514,"hÃ©ngĠxÄ«ng":11515,"dÃłnĠshuÇĲ":11516,"ĠdÃłĠzhÃ¬Ġ":11517,"juÃ©ĠduÃ¬ĠxÄ«ngĠdÄĽngĠwÃ¨iĠ":11518,"ĠLi":11519,"lÇĲĠrÃ©nĠ":11520,"dÃ©ĠyÃ¬ĠzhÃ¬Ġ":11521,"zuÃ¬ĠchÅ«ĠdeĠ":11522,"xÃ¬nĠhÃło":11523,"gÅįuĠtÅįngĠ":11524,"ĠhÃ©ĠyÇĶĠ":11525,"pÃŃngĠhÃ©ngĠ":11526,"ĠbÃ¨iĠjÇĲng":11527,"duÅįĠxiÃłngĠ":11528,"dÇİĠsuÃłn":11529,"Ġ5ĠdiÃłoĠkuÃłiĠyÄ«ĠxiÇİoĠshÃŃĠ":11530,"ĠjÃŃĠbÄĽiĠmÄĽiĠdÅįngĠbÃ¹ĠshÃŃĠqÅ«Ġ":11531,"ĠtÃłiĠyÃ¡ngĠgÅįngĠzhuÃłnĠdeĠxiÇİoĠxÃŃngĠxÄ«ngĠ":11532,"ĠshÃ¬ĠyÄ«ĠkÄĵĠwÃ©iĠrÃłoĠtÃłiĠyÃ¡ngĠgÅįngĠzhuÃłnĠdeĠxiÇİoĠxÃŃngĠxÄ«ngĠ":11533,"ĠEDTĠ":11534,"ĠgÄĽi":11535,"ĠliÃłnĠ":11536,"ĠĠĠyÃ¹Ġ":11537,"ĠĠĠwÃ©nĠhuÃłĠ":11538,"ÃłoĠkÃ¨Ġ":11539,"hÃ¡nĠyÃ¬Ġ":11540,"29Ġ":11541,"69ĠniÃ¡nĠ":11542,"ĠshÃ¬ĠxiÃłĠ":11543,"bÇĲĠsÃłiĠdeĠ":11544,"xiÇİoĠxÃŃngĠxÄ«ngĠdeĠjuÃ©ĠduÃ¬ĠxÄ«ngĠdÄĽngĠwÃ¨iĠ":11545,"ĠxÇĲĠ":11546,"ĠĠĠ2005ĠniÃ¡nĠ":11547,"jiÃłnĠdeĠ":11548,"lÇĲngĠduÃ¬Ġ":11549,"pÄģiĠshÃ¨ĠdeĠ":11550,"kÃ©Ġ":11551,"ĠzÃłiĠlÃ¬Ġ":11552,"ĠzhÅįngĠlÃ¬Ġ":11553,"ĠgÅįngĠshÃ¨Ġ":11554,"ĠyÄ«ĠqiÃ¨Ġ":11555,"ĠzhÄ«ĠchÅ«Ġ":11556,"shÄĵngĠchÄĵngĠ":11557,"ĠzuÃ²ĠqÇĶĠ":11558,"rÃ¹ĠkÇĴu":11559,"wÅ«ĠrÇİnĠ":11560,"ĠshÃ¬ĠwÃ¹ĠsuÇĴĠ":11561,"fÄģĠbiÇİoĠleĠ":11562,"ĠVi":11563,"Ġ1986ĠniÃ¡nĠ":11564,"ĠĠĠZ":11565,"fÃºĠjÃŃĠ":11566,"27ĠniÃ¡nĠ":11567,"1905ĠniÃ¡nĠ":11568,"ĠshÃ¬ĠzuÃ¬Ġ":11569,"ĠxÃŃngĠxÄ«ngĠ":11570,"ĠdÃłnĠbÃ¨iĠ":11571,"zÃºĠliÃ¡nĠ":11572,"wÃºĠxiÃłnĠdiÃłnĠ":11573,"ĠĠĠzhÃ¨ĠkÄĵĠxiÇİoĠxÃŃngĠxÄ«ngĠdeĠjuÃ©ĠduÃ¬ĠxÄ«ngĠdÄĽngĠwÃ¨iĠ":11574,"ĠĠĠhuÃ¡ngĠ":11575,"zhÇĲĠchÅ«":11576,"miÃłoĠyÇĶĠ":11577,"yuÄģnĠ":11578,"ĠtÃ³ngĠniÃ¡nĠ12ĠyuÃ¨Ġ":11579,"ĠdeĠyÄ«ĠxiÃłngĠ":11580,"bÇĲĠlÃ¬ĠniÃºĠsÄ«Ġ":11581,"nÃ¨ĠshÄĽngĠ":11582,"ĠdÃłĠshÃłĠ":11583,"ĠzuÇĴ":11584,"ĠchÄģoĠjÃŃĠ":11585,"xÄ«ĠxiÃłnĠ":11586,"fÃ¹ĠyÃºĠ":11587,"guÃ²ĠhÃ²uĠ":11588,"90Ġ":11589,"ĠzÃłiĠyÇĴuĠ":11590,"ĠxÄ«ĠcÃ¨Ġ":11591,"kÄĽĠyÃ²ngĠ":11592,"ĠxiÃłĠlÃ¬ngĠ":11593,"yÃ¡nĠjiÅ«ĠdeĠ":11594,"ĠdeĠyÄ«ĠtiÃ¡oĠ":11595,"zhuÃłngĠtÃłi":11596,"tiÄģnĠwÃ©nĠxuÃ©ĠjiÄģĠ":11597,"zÇĶĠchÃ©ngĠbÃ¹ĠfÃ¨nĠ":11598,"ĠdÇİoĠyÇİnĠ":11599,"ĠĠĠguÄģnĠyÃºĠ":11600,"ĠĠĠzÇİoĠqÄ«Ġ":11601,"lÃ¡iĠÄĽrĠ":11602,"jiÇĶĠshÃŃĠ":11603,"lÃ¹ĠduÃłnĠ":11604,"diÃłnĠliÃºĠ":11605,"ĠfÃ¹ĠmÇĶĠ":11606,"zÇĴngĠlÇĲngĠshÃ¬Ġ":11607,"liÇİngĠcÃ¨Ġ":11608,"ĠyÄ«nĠwÃ¨iĠtÄģĠ":11609,"hÄĽnĠshÇİoĠ":11610,"ĠĠĠgÃ¨Ġ":11611,"zhÇĴngĠdeĠ":11612,"liÇİngĠdÃłĠ":11613,"45Ġ":11614,"ctĠ":11615,"ĠwÃ¨iĠguÃ³Ġ":11616,"ĠzÃłiĠdÄģngĠshÃŃĠ":11617,"ĠyÄ«ĠxiÃłngĠ":11618,"ĠyuÃ¡nĠlÃ¡iĠ":11619,"xuÃ©ĠkÄĵĠ":11620,"qÅ«ĠfÃ¹ĠzÃ©ĠguÇİnĠxiÃ¡Ġ":11621,"shÇĴuĠxiÄģnĠ":11622,"bÄĽnĠtÇĶ":11623,"cÇĲĠtiÄģnĠtÇĲĠ":11624,"shÃ¨ngĠjÄ«ngĠ":11625,"kÄĽĠnÃ©ngĠdeĠ":11626,"ĠdÃ¬ĠshÃŃĠsÄģnĠ":11627,"shÄĵngĠchÇİnĠdeĠ":11628,"2ĠhÃłoĠ":11629,"ĠMe":11630,"ÄģoĠ":11631,"chÃ¡ĠdÃ©Ġ":11632,"qiÃ¡nĠxÄ«Ġ":11633,"yÃłoĠzÃłiĠ":11634,"nÃŃĠxÄ«ĠyÃł":11635,"menĠdeĠ":11636,"shÃ¨ngĠyÃºĠ":11637,"lÄĵiĠsÄ«Ġ":11638,"hÃ©ĠliÃºĠ":11639,"ĠshÃŃĠliÃ¹ĠniÃ¡nĠ":11640,"shÃłngĠyÃ¬ngĠdeĠ":11641,"ĠjiÄģĠqiÃ¡ngĠ":11642,"qÄ«ĠjiÄģnĠdeĠ":11643,"qÇĶĠjuÃ©ĠyÃºĠ":11644,"zhuÄģnĠjÃŃĠdeĠ":11645,"ĠGĠ":11646,"hÃ¹nĠluÃłnĠ":11647,"ĠmÇĲĠdeĠ":11648,"ĠfÄģĠbÃ¹Ġ":11649,"mÇİnĠyÃ¬Ġ":11650,"gÄĵngĠmÃŃngĠ":11651,"jÃ¹ĠyuÃłnĠ":11652,"zhÃ¨nĠwÃ¡ngĠ":11653,"shÄĵnĠrÃ¹Ġ":11654,"ĠzÃ¬ĠcÇĲĠ":11655,"tÃºĠjÃ¬ngĠ":11656,"xÃŃĠguÃłnĠ":11657,"ĠÃłoĠmÃ©nĠ":11658,"mÃŃnĠzÃºĠzhÇĶĠyÃ¬Ġ":11659,"ĠlÃ¨i":11660,"ĠsÄģngĠ":11661,"ĠshÄģnĠxÄ«Ġ":11662,"Ġ1983ĠniÃ¡nĠ":11663,"yÃ²ngĠdÃ¬Ġ":11664,"cÇĲĠdÃ¬Ġ":11665,"kÄĵĠyÄ«ĠshÄĵngĠ":11666,"wÄĵiĠlÃ¬Ġ":11667,"jiÇİngĠxuÃ©Ġ":11668,"hÇİoĠlÃ¡iĠ":11669,"owĠ":11670,"48ĠniÃ¡nĠ":11671,"34ĠniÃ¡nĠ":11672,"sÃłngĠshÄ«Ġ":11673,"ĠshÃŃĠbÃ¨iĠ":11674,"ĠyÇĲĠwÃłiĠdeĠ":11675,"ĠlÇĲĠxuÃ©Ġ":11676,"tÃ¨ĠdÃ¬ng":11677,"ĠshÃ¨ĠshÄ«":11678,"shÃ¨ĠjiÄģoĠ":11679,"ĠhÇİiĠbÃ¡":11680,"Ġ2024ĠniÃ¡nĠ":11681,"ĠĠĠyÄ«nĠwÃ¨iĠ":11682,"bÄĽnĠdÃ¬ĠqÅ«Ġ":11683,"quÃ¡nĠshÃ¬Ġ":11684,"ziĠlÇĲĠ":11685,"fÇĶĠzhÄ«ĠfÇĶĠ":11686,"wÇİnĠqÄ«Ġ":11687,"adĠ":11688,"1917ĠniÃ¡nĠ":11689,"ĠwÃ¨iĠxÄ«nĠ":11690,"ĠzÃłiĠrÃ©nĠ":11691,"ĠdÃłĠduÅį":11692,"ĠchÅ«ĠbÃ¹Ġ":11693,"lÃ¡iĠkÃłnĠ":11694,"tÃŃĠcÃ¡iĠ":11695,"yÃ²uĠchÄĵngĠ":11696,"tiÃ¡oĠmÃ¹Ġ":11697,"qiÄģnĠyÇĲnĠ":11698,"duÇİnĠzÃłnĠ":11699,"ĠdeĠzuÃ²ĠyÃ²ngĠ":11700,"ĠSe":11701,"ĠtÇĴngĠ":11702,"ĠkÄģnĠ":11703,"fÇİĠÄĽrĠ":11704,"ĠhÃ©ĠjÄ«nĠ":11705,"ĠdÃ©ĠhÃ©Ġ":11706,"shÃ¹ĠjÃ¹":11707,"biÃłnĠhuÃłnĠ":11708,"mÃ³ĠnÇĲ":11709,"pÃ©iĠchÃ¡ngĠ":11710,"ĠjÃŃĠtuÃ¡nĠjÅ«nĠ":11711,"fĠĠĠ":11712,"ĠlÇĶ":11713,"nÇļĠÃ©r":11714,"fÇĴuĠ":11715,"ĠniÃ¡nĠshÃ¬Ġ":11716,"ĠzÃłiĠtÄģ":11717,"ĠyuÃ¡nĠqÅ«Ġ":11718,"ĠqÃŃĠzhÅįngĠdeĠ":11719,"zÇĴngĠÃ©ĠwÃ¨iĠ":11720,"ĠnÃ¡nĠjÄ«ng":11721,"liÇİngĠtiÃ¡oĠ":11722,"qiÃ¡ngĠhuÃłĠ":11723,"ĠhuÃ¡iĠ":11724,"ĠguÃ¬ĠzhÅįuĠ":11725,"ĠĠĠdÄģng":11726,"ĠĠĠjiÃłnĠ":11727,"bÄĽnĠzhÃ¬Ġ":11728,"fÄĵnĠqÃŃĠ":11729,"tÃŃĠwÃ¨iĠ":11730,"bÄģĠmÃŃngĠ":11731,"zÅįngĠdeĠ":11732,"pÃłĠÄĽrĠ":11733,"ĠwÃ¨iĠsÄ«Ġ":11734,"ĠzhÅįngĠwÃ©n":11735,"ĠyÃºĠ2017":11736,"ĠjÃŃĠÄĽr":11737,"ĠqÃŃĠyÇĶĠ":11738,"ĠshÃ¨ĠzÃłiĠ":11739,"jiÃ©ĠlÃ¹nĠ":11740,"fÄĵngĠxiÇİn":11741,"yÃŃĠdÃ²ng":11742,"xiÄģoĠshÃ²u":11743,"ĠfÃºĠlÇİngĠ":11744,"1ĠrÃ¬":11745,"ĠyÃ¬ngĠ":11746,"ĠdÃłngĠ":11747,"mÄĽiĠzhÅįngĠbÃ¹Ġ":11748,"shuÇĲĠzhÅįngĠ":11749,"niĠ":11750,"chÄģĠjÃ¹Ġ":11751,"bÃ¹ĠfÃ¨n":11752,"ĠyÄ«ĠyÃłng":11753,"ĠjiÃłnĠzhÅįngĠ":11754,"ĠzhÄ«ĠqiÃ¡nĠdeĠ":11755,"zhÇĶĠjuÃ©":11756,"ĠbÃ¨iĠrÃ¨nĠwÃ©iĠ":11757,"ĠjÃ¹ĠtÇĲĠ":11758,"zhuÇİnĠyÃŃĠdÃłoĠ":11759,"ĠsuÇĴĠyÇĴuĠdeĠ":11760,"lÇĲĠshÃ¬ĠzhÇİngĠ":11761,"gÃ²ngĠhÃ©ĠdÇİng":11762,"jiÄģoĠyÃ¬ĠsuÇĴĠ":11763,"jiÃ¨ĠquÃ¡nĠguÃ³ĠrÃ©nĠmÃŃnĠdÃłiĠbiÇİoĠdÃłĠhuÃ¬Ġ":11764,"fÄĵiĠxÃŃngĠyuÃ¡nĠ":11765,"ĠAr":11766,"ĠguÅįĠ":11767,"tÃ¨ĠsÄ«Ġ":11768,"ĠwÃ¨iĠmÄĽiĠguÃ³Ġ":11769,"ĠyÇĴuĠxiÃło":11770,"ĠgÃ¨ĠgÃ¨Ġ":11771,"ĠbÃ¬ngĠwÃºĠ":11772,"ĠshÃ¨ĠxiÃ¡nĠ":11773,"tuÄ«ĠguÇİng":11774,"ĠdeĠgÅįngĠsÄ«Ġ":11775,"ĠhÃ²uĠlÃ¡iĠzÃłiĠ":11776,"chÃłngĠpiÃłnĠgÅįngĠsÄ«Ġ":11777,"ĠsÃłi":11778,"ĠxuÄĵ":11779,"tÇĲĠxiÃłnĠ":11780,"chÄĵĠshÃ¬Ġ":11781,"dÇİngĠbÃ¹Ġ":11782,"suÃŃĠzhÄ«Ġ":11783,"ĠyÃ¬ĠmÄĽiĠguÃ³ĠrÃ©nĠ":11784,"ĠjÅ«nĠyÇĲĠ":11785,"chÇĶĠjuÃ©Ġ":11786,"ĠLĠ":11787,"ĠÄģĠÄĽrĠbÄĵiĠsÄ«Ġ":11788,"guÇİngĠbÅįĠgÅįngĠsÄ«Ġ":11789,"ĠĠĠÐ":11790,"sÄ«ĠdÃ¬ĠlÃ¬Ġ":11791,"duÃ¬ĠlÃ¬Ġ":11792,"xiÃłĠshÃ¬Ġ":11793,"qÄ«ngĠdÃłiĠ":11794,"00ĠpÃŃngĠfÄģngĠqiÄģnĠmÇĲĠ":11795,"mÇĶĠsÄ«ĠtÃ¨Ġ":11796,"cÃ¡iĠdeĠ":11797,"46ĠniÃ¡nĠ":11798,"ĠshÃŃĠshÄ«":11799,"ĠxÄ«ĠfÇİĠ":11800,"yÃ¹ĠcÃ¨Ġ":11801,"ĠdÄģngĠrÃ¬Ġ":11802,"ĠtÄģĠmenĠshÃ¬Ġ":11803,"jiÄĽĠjuÃ©":11804,"ĠdeĠyÄ«ĠjiÄģĠ":11805,"ĠcÇĲĠwÃłi":11806,"dÇĲĠcÃ©ngĠshuÇĲĠyÃ¹Ġ":11807,"lÇİngĠpÇĶ":11808,"mÃ¹ĠsÄ«ĠlÃŃn":11809,"ĠcÃ¹":11810,"ÄģnĠdeĠ":11811,"duÃ¬ĠdÃ¬Ġ":11812,"dÃłiĠdÃłoĠ":11813,"nÃ¡nĠxÄ«Ġ":11814,"shÇİoĠdeĠ":11815,"qÃ¬ngĠxiÃłĠ":11816,"bÃłĠgÅįngĠ":11817,"zuÇĲĠ":11818,"ĠyÃºĠ2023":11819,"qÄ«ngĠzhÄĵnĠ":11820,"Ġ14Ġ":11821,"ĠNĠ":11822,"ĠbÄĵiĠ":11823,"ĠtÃłnĠ":11824,"ĠxĠ":11825,"xÃŃngĠrÃ©nĠ":11826,"xÄ«nĠyÄ«Ġ":11827,"jÅ«nĠzhÇĶĠ":11828,"ĠchÃ©ngĠnuÃ²Ġ":11829,"ĠsÄ«ĠdÃłĠ":11830,"rÃ¨nĠzhÃ¨ngĠ":11831,"ĠzhÅįuĠdeĠyÃŃĠgÃ¨ĠshÃ¬ĠzhÃ¨nĠ":11832,"qiÃ¡nĠtÇĲngĠ":11833,"dÅįuĠkÄĽĠyÇĲĠ":11834,"dÃłnĠshuÇĲĠ":11835,"ĠchÃ¡ngĠqÄ«Ġ":11836,"yÃ¬nĠdÃ¬ĠÄģnĠnÃł":11837,"ĠĠĠLe":11838,"chÃ©ngĠwÃ¨iĠ":11839,"yuÃ¡nĠrÃ©nĠmÃŃnĠbÃ¬Ġ":11840,"jiÃłnĠduÃ¬Ġ":11841,"qÅ«ĠzhÅįngĠ":11842,"fÅ«ĠsÄ«Ġ":11843,"suÃ¬ĠdeĠ":11844,"ĠshÃ¬ĠyÇĲ":11845,"ĠzÃłiĠduÃ¬Ġ":11846,"ĠbÃ¹ĠzhÄ«Ġ":11847,"ĠyÃ¬ĠbÃ¨iĠ":11848,"ĠÄĽrĠbÃ¨iĠ":11849,"zhÃłnĠshÃ¹Ġ":11850,"ĠbÃ¬ngĠchÃ©ngĠwÃ©iĠ":11851,"zÃ¬ĠshÄĵnĠ":11852,"shÄ«ĠtÇĲĠ":11853,"qÄ«ngĠdÇİoĠ":11854,"bÃ³ĠgÃ©Ġ":11855,"zhÃ²ngĠyÃłoĠxÃ¬ngĠ":11856,"ĠruÃ¬ĠshÃ¬Ġ":11857,"Ġ1958ĠniÃ¡nĠ":11858,"yÇĶĠwÃ¨iĠ":11859,"zhÇİngĠjÃŃĠ":11860,"61ĠniÃ¡nĠ":11861,"ĠshÃ¬ĠyÃ¬nĠdÃ¹Ġ":11862,"ĠhÃ©ĠchÃłngĠ":11863,"ĠguÃ³ĠnÃ¨i":11864,"chuÃ¡nĠmÃ©i":11865,"zÃłoĠchuÃ¡nĠ":11866,"zhuÇİnĠbiÃłnĠ":11867,"xÃºnĠfÇĶĠ":11868,"liÃ¡ngĠhÇİoĠdeĠ":11869,"ĠtÄģĠcÃ©ngĠdÃłiĠbiÇİo":11870,"ĠshÃłngĠhÇİiĠshÃ¬Ġ":11871,"jiÃłngĠyÇĶĠliÃłngĠ":11872,"ĠxiÅįngĠyÃ¡ĠlÃ¬Ġ":11873,"Ġ1987ĠniÃ¡nĠ":11874,"yÃ¹nĠxÃŃng":11875,"ĠshÃŃĠsÄģnĠniÃ¡nĠ":11876,"fÃ¹ĠxÄ«ngĠ":11877,"ĠkÃ¨ĠjiÄģĠ":11878,"yÃ¡nĠÃłnĠ":11879,"shÇĴuĠlÇĲngĠ":11880,"yÄĽĠkÄĽĠyÇĲĠ":11881,"ĠgÄģoĠsÃ¹":11882,"ĠtÃºnĠqÃŃĠ":11883,"yÃŃĠdeĠ":11884,"30ĠfÄĵnĠ":11885,"sÅįuĠsuÇĴĠ":11886,"jÄ«ĠdÅ«ĠjiÃłoĠ":11887,"yÃ³uĠkÃ¨Ġ":11888,"zuÃ¬ĠhÃ²uĠdeĠ":11889,"jiÄģoĠgÄĽi":11890,"shÃ¨ngĠmÇĶĠ":11891,"kÇİoĠgÇĶ":11892,"ĠmÇĶĠqÄ«nĠ":11893,"Ġ13Ġ":11894,"jÃ¬ĠsuÃłnĠjÄ«Ġ":11895,"ĠmÃ¬ngĠ":11896,"cÃ¨ĠwÃ¨iĠ":11897,"jiÇİngĠlÃ¬Ġ":11898,"xiÃ¨ĠÄĽrĠ":11899,"zhuÄ«ĠjÄ«Ġ":11900,"rÃ²uĠshÃŃĠxÃ¬ngĠ":11901,"ĠyuÃ¡nĠzÃ¬":11902,"yÃ¹ĠsuÃłnĠ":11903,"fÄĵnĠbÃ¹ĠzÃłiĠ":11904,"ĠzhÃ¨ngĠjÃ¹Ġ":11905,"ĠzuÃ²ĠyÃ¨Ġ":11906,"ĠdeĠyÄ«ĠcÃ¬Ġ":11907,"ĠdeĠshÃ¬ĠqÃŃngĠ":11908,"duÇİnĠpiÃłnĠ":11909,"ĠdeĠjÄ«ĠchÇĶĠ":11910,"ĠyÇĲĠjÃŃĠzhÅįngĠguÃ³ĠdÃłĠlÃ¹ĠdeĠ":11911,"mÄĽiĠzhÅįngĠbÃ¹ĠshÃŃĠqÅ«Ġ":11912,"Ġ1994":11913,"ĠCST":11914,"zÃ©ĠÄĽrĠshÄĽngĠ":11915,"bÄģĠyuÃ¨Ġ":11916,"hÄģĠlÃ¬Ġ":11917,"mÃ¡nĠ":11918,"ĠdÃłoĠtÄģĠ":11919,"shÃ¹ĠbÇİi":11920,"ĠÃ©rĠwÃ©nĠmÃŃngĠ":11921,"shÇĴuĠrÃ¨nĠ":11922,"tÃ¡iĠzhÅįngĠshÃ¬Ġ":11923,"jÄ«nĠxiÃłngĠ":11924,"tÅįngĠxÃ¬n":11925,"yuÄĵĠsÃ¨ĠfÅ«Ġ":11926,"mÃ³ĠtuÅįĠ":11927,"bÄ«ngĠtuÃ¡nĠ":11928,"ĠcÃ©ngĠjÄ«ng":11929,"ĠsuÅįĠxiÄĽĠ":11930,"1ĠhÃło":11931,"ĠxuÃ©":11932,"ĠbÃłi":11933,"ĠCDT":11934,"ĠliÃ¡nĠhÃ©ĠguÃ³Ġ":11935,"jiÃłnĠyÃºĠ":11936,"lÃ¹ĠhÃ©Ġ":11937,"qiÃ¡ngĠdÃłĠ":11938,"2019ĠguÄģnĠzhuÃłngĠbÃ¬ngĠdÃº":11939,"32ĠniÃ¡nĠ":11940,"1904ĠniÃ¡nĠ":11941,"ĠshÃŃĠwÇĶĠniÃ¡nĠ":11942,"ĠjÃ¬nĠxÃŃngĠdeĠ":11943,"xuÇİnĠshÇĴu":11944,"ĠshÃ¬ĠyÄ«ĠjiÄģĠ":11945,"ĠcÃ³ngĠcÇĲĠ":11946,"ÅįuĠmÃ©ng":11947,"Ġ6ĠdiÃłoĠkuÃłiĠyÄ«ĠxiÇİoĠshÃŃĠ":11948,"ĠjÃŃĠbÄĽiĠmÄĽiĠzhÅįngĠbÃ¹ĠshÃŃĠqÅ«Ġ":11949,"ĠCSTĠ":11950,"ĠCDTĠ":11951,"ĠlÃŃng":11952,"ĠmÇĲn":11953,"ĠĠĠkÄĵĠ":11954,"duÃ¬ĠshÃ¬Ġ":11955,"mÇĲĠÄĽr":11956,"39ĠniÃ¡nĠ":11957,"kuÄ«Ġ":11958,"zuÃłnĠshÃŃĠ":11959,"ĠshÃ¬ĠyÃŃĠ":11960,"ĠdÃ¬ĠmÃŃngĠ":11961,"jÄ«ĠchÇİng":11962,"jÄ«ngĠdÅ«Ġ":11963,"fÄĵnĠxiÃłoĠ":11964,"nÇļĠwÃ¡ngĠ":11965,"liÇİngĠzhÇĴng":11966,"tuÅįĠmÇİĠsÄ«Ġ":11967,"ĠshÇĲĠmÃ¬ĠsÄ«Ġ":11968,"yÃ¬nĠdÃ¹ĠdeĠ":11969,"ĠlÄĵiĠ":11970,"Ġ1920ĠniÃ¡nĠ":11971,"jÄ«ĠshÃŃĠ":11972,"mÃ©iĠÄĽrĠ":11973,"fÅ«ĠsÄ«ĠjÄ«Ġ":11974,"zhuÄģnĠyuÃ¡nĠ":11975,"45ĠniÃ¡nĠ":11976,"36ĠniÃ¡nĠ":11977,"ĠchÃ©ngĠkÃ¨":11978,"qÅ«ĠzhÃºĠjiÃłnĠ":11979,"zhÃ¨ĠshÇĴuĠ":11980,"ĠqiÃºĠbÇĲĠsÃłiĠ":11981,"zhuÄģnĠqÅ«Ġ":11982,"ĠÄģĠlÇĲĠ":11983,"ĠshÃ¬ĠfÇĴuĠ":11984,"zhÃ©ĠxuÃ©ĠjiÄģĠ":11985,"ĠqÄ«ĠxÄ«Ġ":11986,"fÃ©iĠtÃ¨ĠliÃ¨Ġ":11987,"ĠduÃłn":11988,"ĠgÄĽiĠ":11989,"jiÃłoĠyÇĴuĠ":11990,"jiÄģoĠfÃ¹Ġ":11991,"quÃ¨ĠlÃ¬Ġ":11992,"lÃ¬ĠshÇĲ":11993,"dÅįngĠyÃłĠ":11994,"ĠshÃłngĠshÃ¹Ġ":11995,"zÇĴngĠjÃºĠ":11996,"wÇİngĠlÃ¡iĠ":11997,"cÃ¡iĠnÃ©ng":11998,"wÄĽiĠnÃ¨iĠruÃ¬Ġ":11999,"rÃ¡nĠliÃłoĠ":12000,"ĠjiÄģn":12001,"ĠĠĠ12ĠyuÃ¨Ġ":12002,"shÃŃĠshÃ¬ĠjÃ¬Ġ":12003,"pÃ¨iĠyuÃ¨Ġ":12004,"26ĠniÃ¡nĠ":12005,"33ĠniÃ¡nĠ":12006,"ĠwÃ¨iĠchÃ©ngĠ":12007,"gÃ©ĠlÃ©iĠ":12008,"xÃ¬ngĠbiÃ©":12009,"chÃ¡ngĠÄģnĠ":12010,"liÃºĠchuÃ¡nĠ":12011,"bÃ³ĠgÄĽnĠdÃ¬Ġ":12012,"ĠyÄ«nĠwÃ¨iĠtÄģ":12013,"ĠwÃ©nĠzhÄģngĠ":12014,"hÃºĠbÄĽiĠshÄĽngĠ":12015,"yÃ¡nĠhÇİiĠshÄĽngĠfÃ¨nĠ":12016,"ĠsÃºĠchÄĵngĠ":12017,"Ġ1996":12018,"ĠhÃ¡ngĠ":12019,"ĠjiÃłngĠ":12020,
[...]
