#version: 0.2
n g
a n
s h
z h
j i
a ng
Ġ Ġ
o ng
x i
a o
a i
d e
e i
sh i
y u
o u
y i
e n
c h
i an
u o
e ng
l i
ĠĠ Ġ
ã Ģ
i ng
u i
w ei
u an
zh i
q i
n ian
zh ong
y ou
r en
u n
z ai
d i
g uo
ãĢ ģ
h e
b u
e r
g ong
xi ng
ch eng
d a
zh u
h u
yu an
s i
ji an
yu e
g e
f u
xi an
u e
k e
w u
ch u
sh u
sh eng
ji e
ji a
b i
d ao
z i
b ei
h ui
f a
xi ang
t i
zh eng
m i
t a
ji n
q u
2 0
t ong
r i
j u
ji ng
m ing
l e
h ou
sh ang
sh ou
d ong
c i
f ang
1 9
hu a
yi n
x ue
g uan
zh an
y e
yi ng
z uo
zh e
y an
m ei
ji ao
g u
ch ang
xi n
d ui
l u
b ing
b ao
f en
d an
h uo
j un
ji ang
d u
xi ao
d ian
y ong
q ian
sh e
t ai
xi a
m u
w en
g ai
zh ang
li ang
y a
r u
d ai
h ai
n an
zh ou
z u
w ang
l ai
b an
ji u
d ang
q ing
p ing
sh en
ãĢ ĭ
ãĢ Ĭ
w an
l ian
li ng
l uo
Â ·
mi n
q uan
p i
n i
b o
d uo
t e
b en
g ao
bi ao
s uo
l a
m a
k ai
b a
xi e
x u
b ian
de ng
y ao
y ang
m ian
zh en
d ing
qi u
z ui
s ai
li u
f an
x uan
f ei
s an
sh an
ch e
z ong
m en
ãĢ Į
ãĢ į
t u
t ian
h ao
s u
l ei
n ei
yu n
20 1
l an
f eng
m o
n a
z e
l v
h an
k ou
w ai
n eng
li n
ch uan
ch i
j ue
b ai
p ai
20 0
k u
c ai
z ao
t ing
zh uan
g ang
li e
gu ang
g ui
l un
s ui
p u
c eng
k ong
sh ui
1 0
ch ao
zhu ang
ch a
d ou
c an
t ou
r an
s e
d uan
c un
h uan
c ong
pi n
c e
ch an
x un
g ou
0 0
n v
zh ao
g an
ch ong
sh a
t an
1 8
qi n
k a
m eng
qi ang
hu ang
xi u
1 2
ti ao
m an
sh ao
k uo
l ong
p ian
sh uo
t uan
t ang
r ong
g eng
20 2
ch en
t ui
g en
q ue
ti e
1 1
qi e
w o
p o
p ei
h ang
h ong
19 9
b ang
li ao
chu ang
bi e
r e
t uo
t ao
s ong
w a
m ai
h a
1 5
p an
d un
di ao
qi ao
s a
m ao
l ang
k an
k ang
â Ģ
o r
l ao
z eng
1 6
19 8
k ao
xi ong
1 7
o n
n uo
mi ao
r ang
ku ang
h en
s uan
1 4
3 0
zh un
1 3
19 4
c ao
h un
q un
n ong
19 7
h eng
shu ang
l ou
g ei
ku ai
pi ao
zh a
h ei
ni u
19 5
s en
bi n
r eng
z ou
19 6
ch un
k uan
2 5
âĢ Ķ
r ui
s un
p ao
n ing
f or
p a
c ang
m ou
2 4
p eng
hu ai
2 1
19 3
2 3
mu la
for mula
2 8
z an
r uo
i n
2 2
ch ou
zh ui
a r
m e
2 6
5 0
20 20
2 7
n ai
n u
ï ¼
2 9
sh un
201 0
z a
00 0
lv e
zh ai
20 19
n e
r o
j uan
s t
r a
c ui
k un
201 6
l uan
201 8
c uo
202 1
z ang
201 4
shu ai
201 1
201 5
201 7
201 2
4 0
201 3
n ao
202 2
di e
r uan
k ui
l t
r ou
c u
s ang
200 9
200 8
ã ĥ
6 0
ni ao
a l
r ao
ch ai
10 0
zh uo
202 3
g t
s ou
19 0
3 1
k en
200 7
200 1
t eng
p ang
f ou
c o
f o
gu a
200 0
8 0
200 6
202 4
ã ģ
200 5
z un
ti on
ku a
t he
3 5
7 0
ni e
l o
o f
9 0
l eng
ï¼ į
ã Ĥ
a m
t un
t er
mi e
200 4
t h
t o
4 5
4 8
m ang
202 5
v e
g a
ãĢ ī
ãĢ Ī
3 6
3 8
200 3
3 7
M a
ch ui
p en
l l
18 9
I N
200 2
k eng
T C
d o
3 4
7 5
âĢ ĵ
C o
4 6
c a
199 0
âĢ ¦
c k
3 9
. .
b e
6 5
3 2
S T
4 7
U TC
199 9
199 8
198 0
18 8
5 00
3 3
I n
6 4
s s
T he
v i
S E
5 5
199 7
R e
h i
4 9
I I
e l
6 8
e t
4 4
199 6
o o
qi ong
199 4
g un
b r
gu ai
199 2
199 5
M i
6 7
an d
s ao
e s
199 1
197 0
5 8
195 0
3 00
199 3
18 7
194 9
a t
A T
p e
196 0
4 2
194 5
L i
v er
qi a
198 8
t y
198 9
6 9
R o
i s
r un
SE E
ni ang
IN SEE
h o
5 9
4 3
6 6
5 7
198 5
9 9
S A
ãĢ İ
ãĢ ı
c t
198 4
4 1
8 8
198 6
w i
o l
w s
T V
r y
15 0
M e
n d
4 00
198 7
7 8
198 2
5 6
b eng
V i
P a
t s
198 3
am p
N A
D e
C D
g h
f i
w eng
b er
7 7
W in
p er
z uan
S ta
7 9
O S
W i
Â °
ï ½
de r
18 0
B C
5 4
197 9
6 1
19 20
a s
M o
s eng
9 8
5 2
Y ou
197 8
n o
6 2
5 3
l y
shu a
L a
ï½ ŀ
B A
194 6
C O
5 1
195 8
g i
J o
198 1
197 2
194 8
L e
t w
A M
6 3
A R
c tion
194 1
B S
G a
19 30
D a
P ro
T e
7 6
han s
194 0
193 7
197 6
194 4
J a
8 9
u s
D i
Win do
197 5
ï¼ ı
196 8
h k
c on
F i
u m
S i
10 00
Windo ws
9 5
8 7
na l
M ar
196 6
r d
8 5
N e
R a
k i
6 00
1 20
194 7
S e
A C
195 6
196 4
B e
194 2
Ã ©
195 5
195 2
I S
a d
193 9
193 8
7 2
u r
7 4
C a
v a
197 3
197 4
195 4
A r
A l
E D
19 00
- -
A P
194 3
T o
197 7
l d
197 1
c en
la y
196 7
B a
I C
8 00
P o
L o
E R
zhu a
s ta
8 6
195 9
B o
t t
196 5
J R
196 9
F a
ãĥ »
Ã Ĺ
I D
B i
s on
193 6
16 0
9 7
195 3
S a
M A
196 2
196 1
n en
N a
â Ķ
S o
193 5
co m
H o
ti c
9 6
O N
ï¼ ħ
195 1
S t
195 7
196 3
T u
âĶ Ģ
f e
s o
men t
8 4
H i
202 6
8 2
D o
m er
R i
7 3
n t
9 4
9 2
K i
H a
n ang
on e
I P
A N
l s
193 3
193 1
le s
7 1
n uan
Co m
8 3
9 3
te d
S u
8 1
T i
M u
19 18
N i
H D
U ni
19 28
p p
193 2
C ha
W e
y s
M V
S S
1 10
I T
19 12
N o
19 29
19 27
193 4
c n
7 00
g o
z ei
gh t
st er
25 0
9 1
r t
l li
19 24
ri s
.. .
19 19
nv e
1 30
P i
19 25
G i
P S
b y
e d
me s
A n
P C
14 0
A S
P lay
19 14
k m
D V
ti o
You Tu
S M
b le
g ra
k o
19 11
C on
C h
l la
19 26
l le
G e
P ar
i d
T a
19 22
L in
m p
19 17
H e
K a
E T
N BA
w n
I V
E N
19 23
19 21
sh ai
G oo
ch uo
17 0
à ¸
E C
M S
a li
A L
p h
se ction
YouTu be
E P
B L
19 13
C ar
B u
z en
H K
w e
h n
m m
v en
han t
â Ĩ
190 9
si on
In ter
c ro
M P
A I
W or
P e
d s
U S
p ro
DV D
o k
3 000
E n
19 10
D S
R O
c ou
S te
si s
1 12
G o
r k
A K
R E
19 16
W a
li a
ãĥ ¼
Sta tion
F or
N et
f f
Î ±
of t
in e
de n
l or
re a
tio nal
g n
tu re
g le
C P
U N
â Ī
ar d
19 15
g in
190 5
p s
F C
c al
v o
di a
M y
C N
â Ħ
âĨ Ĵ
ou r
er s
190 1
en t
A u
D NA
E x
âĢ §
9 00
en d
H R
di ce
. &
the r
ta l
C H
T A
T O
190 6
190 4
A V
te s
M O
ji ong
Jo hn
m y
er i
co dice
M an
âĦ ĥ
d y
Play Station
C hi
0 5
C C
ti ve
di u
A nd
190 7
di o
190 8
Goo gle
A G
C i
E ST
M I
S O
L E
si c
re e
B O
in t
wi t
B BC
S ch
A D
I G
lan d
II I
c ri
t on
15 00
5 000
c y
rou nd
w er
I ST
m s
r on
M E
C R
u l
3 D
j e
I A
le y
10 5
a u
Ð °
ri a
10 1
190 3
t or
G B
v an
0 9
T E
L u
190 2
B D
N C
P ri
F e
x t
3 50
p ou
Ã ¡
SA O
de s
D C
j a
Î ²
c ke
B 1900
bo ok
ha t
E S
al l
B M
ï¼ İ
ãĥ ³
R u
n er
189 8
re s
0 6
1 18
o p
ãģ ®
3 60
D R
Ne w
0 1
D A
H u
O pen
189 5
g er
12 5
S ho
H O
M C
S an
AT P
Mi cro
ct or
Ð ¾
10 8
f t
c or
o s
N G
K e
c lu
g y
gra m
p ri
wa rd
st y
I F
C u
F ran
O ne
ne t
s oft
k er
p t
âĪ Ĵ
0 7
0 8
2 30
Fa ce
10 4
pa ce
ls pan
C or
P er
B ar
Wor ld
A pp
ED T
IST AT
c uan
Lo ve
K o
à ¤
H ar
N O
S tu
189 6
L L
u x
10 9
D P
la s
A A
f li
R I
J u
p ha
S er
lu s
lin e
R T
t ri
S P
E X
B 48
10 6
18 90
r ai
s ti
mo n
C ST
M L
o d
un i
CD T
ber t
J e
r s
ru s
re d
D O
P u
k y
H E
C ou
a tion
M on
0 4
4 000
11 5
1 200
M 1
P re
0 3
l er
G P
de l
C E
Ä ģ
Li ve
be gin
188 9
oo l
Da vi
wi th
ar a
189 9
co lspan
tai n
ba ck
187 1
R S
st o
Face book
E d
S ha
Micro soft
mi c
te m
âĢ ĭ
24 0
16 00
L O
T ri
t en
ti n
B E
lo w
10 2
bo x
clu de
A d
T T
189 7
S ou
s er
N H
E E
D u
ce s
P P
11 7
S C
v al
0 2
po r
c m
Ma c
sty le
C he
r st
10 3
AK B48
D an
M D
N or
P h
10 7
ra l
H er
O n
p re
r ing
A s
a re
Wi lli
te l
Lin ux
li s
O ri
w w
D is
sh uan
g ue
ma s
4 50
B er
V ID
12 7
Mu sic
I s
A i
G re
c er
Ã ¼
tu s
V o
t ra
12 8
fli x
C L
Net flix
B ro
y o
189 4
Ga me
2 20
C an
G ra
ni n
re f
Ð ½
Willi am
B ri
I L
ali gn
S H
b li
or y
O r
T wit
18 80
Re d
ol d
Ã Ń
R NA
13 6
P G
Ð ¸
ãģ Ħ
ro m
T R
Te am
18 00
ãĤ ¹
Uni ver
g round
i a
188 5
l en
11 4
ãĤ ĵ
H z
co lor
G en
T y
11 6
28 0
U R
p le
Ð µ
11 3
188 6
ei n
ãĤ ¤
T S
P O
189 3
la r
e x
r n
y n
M c
na me
11 1
S L
ã Ħ
Su per
S he
st ra
A ll
G u
ci al
la ss
âĢ »
Davi d
13 5
je ct
A c
26 0
C en
E u
l f
18 60
po rt
ha m
Ge or
ch o
na tional
Cha r
U n
W TA
lv er
d ge
wo rk
H C
T h
t ro
Sch ool
B an
k s
ss o
t ch
ti s
188 8
M or
q ui
te xt
S D
Ã ³
- .
U A
rou p
ll y
ca tion
on y
back ground
Me ta
ro id
a c
mer i
T ra
12 9
G O
S to
di s
18 70
G N
ï ¹
re am
188 7
Sho w
Q u
c le
18 68
6 000
Ã ¶
Ñ Ģ
188 3
N F
V A
ma r
V er
da y
3 20
X box
C S
wa s
A ng
N HK
T ho
A F
F o
Twit ter
D D
l yin
on lyin
onlyin clude
+ +
K P
d on
18 64
âĢ ¢
Gi r
I ON
188 4
1 19
B la
R C
U E
ai n
mi u
12 2
V a
25 00
189 2
2 10
A 1
cen ter
cke t
15 5
IS O
â ħ
14 5
st ri
189 1
6 50
wa y
And roid
N S
C lu
ãĢ ķ
O R
f fi
h tt
m ber
ãĢ Ķ
18 50
F u
P hi
a ge
m b
w in
x y
C y
K u
k ing
Inter national
si a
18 67
lo gy
C e
I M
ãĥ Ī
187 9
Sta r
ri e
Ja mes
En ter
c c
ll er
3 80
A B
U P
ne y
E ng
187 6
S pe
W ar
n y
Stu dio
z o
Geor ge
A b
shi Ġ
de Ġ
Ġ shiĠ
Ġ deĠ
yi Ġ
Ġ yiĠ
ji Ġ
wei Ġ
zhi Ġ
yu Ġ
Ġ weiĠ
Ġ jiĠ
Ġ nian
Ġ zhiĠ
Ġ yuĠ
Ġ li
Ġnian Ġ
zhong Ġ
Ġli Ġ
zai Ġ
ren Ġ
you Ġ
guo Ġ
he Ġ
qi Ġ
bu Ġ
di Ġ
Ġ youĠ
Ġ zaiĠ
Ġ renĠ
Ġ yue
Ġ zhongĠ
Ġ heĠ
da Ġ
xi Ġ
xing Ġ
yuan Ġ
er Ġ
gong Ġ
Ġyue Ġ
fu Ġ
si Ġ
ge Ġ
jian Ġ
Ġ guoĠ
wu Ġ
jia Ġ
Ġ buĠ
jie Ġ
ke Ġ
cheng Ġ
zhu Ġ
sheng Ġ
xiang Ġ
xian Ġ
dao Ġ
bei Ġ
zi Ġ
Ġ qiĠ
fa Ġ
hui Ġ
chu Ġ
jin Ġ
Ġ diĠ
shu Ġ
Ġ erĠ
ri Ġ
Ġ xiĠ
ju Ġ
qu Ġ
zheng Ġ
hou Ġ
shou Ġ
ming Ġ
shang Ġ
dong Ġ
ta Ġ
jing Ġ
le Ġ
xue Ġ
fang Ġ
yan Ġ
zhan Ġ
ci Ġ
bao Ġ
hua Ġ
ying Ġ
ye Ġ
tong Ġ
zuo Ġ
zhe Ġ
guan Ġ
Ġ daĠ
Ġ riĠ
yin Ġ
chang Ġ
xin Ġ
jiao Ġ
lu Ġ
dui Ġ
wen Ġ
ti Ġ
fen Ġ
qian Ġ
tai Ġ
jiang Ġ
xiao Ġ
bing Ġ
Ġ siĠ
jun Ġ
dian Ġ
zhang Ġ
ping Ġ
xia Ġ
du Ġ
huo Ġ
yong Ġ
dan Ġ
Ġ keĠ
Ġ jiaĠ
hai Ġ
gai Ġ
wang Ġ
dai Ġ
nan Ġ
ru Ġ
qing Ġ
mu Ġ
bi Ġ
ban Ġ
liang Ġ
lai Ġ
mei Ġ
ya Ġ
shen Ġ
Ġ fuĠ
Ġ xingĠ
zu Ġ
wan Ġ
she Ġ
lian Ġ
min Ġ
mi Ġ
zhou Ġ
jiu Ġ
qiu Ġ
an Ġ
zhen Ġ
ben Ġ
xu Ġ
gao Ġ
Ġ taĠ
bo Ġ
xie Ġ
te Ġ
bian Ġ
ling Ġ
luo Ġ
yao Ġ
deng Ġ
duo Ġ
yang Ġ
quan Ġ
che Ġ
suo Ġ
zui Ġ
tian Ġ
gu Ġ
biao Ġ
fan Ġ
hu Ġ
yun Ġ
xuan Ġ
su Ġ
shan Ġ
fei Ġ
ding Ġ
liu Ġ
zong Ġ
sai Ġ
dang Ġ
ma Ġ
kai Ġ
ba Ġ
hao Ġ
ĠdeĠ yiĠ
Ġ bingĠ
Ġ daoĠ
feng Ġ
kou Ġ
tu Ġ
mian Ġ
men Ġ
nei Ġ
la Ġ
lei Ġ
san Ġ
cai Ġ
wai Ġ
chuan Ġ
jue Ġ
pai Ġ
chi Ġ
Ġ danĠ
Ġ jinĠ
Ġ beiĠ
Ġ gongĠ
Ġ jianĠ
guang Ġ
ĠshiĠ yiĠ
lan Ġ
ni Ġ
gui Ġ
bai Ġ
Ġ ziĠ
lin Ġ
ting Ġ
Ġ zheĠ
pu Ġ
Ġ xiangĠ
na Ġ
gang Ġ
lun Ġ
neng Ġ
han Ġ
lie Ġ
ze Ġ
Ġ zhuĠ
cheng ĠweiĠ
mo Ġ
Ġ yinĠ
Ġ geĠ
Ġ xianĠ
Ġ chuĠ
ĠshiĠ deĠ
mei ĠguoĠ
chan Ġ
shui Ġ
Ġ juĠ
Ġ chengĠ
ĠdeĠ shiĠ
Ġ jieĠ
Ġ gaiĠ
Ġ wuĠ
sui Ġ
xun Ġ
zhuan Ġ
Ġ baoĠ
Ġ pingĠ
lv Ġ
Ġ ta
ao Ġ
zhuang Ġ
li Ġ
tou Ġ
duan Ġ
ĠyiĠ jiĠ
se Ġ
e Ġ
huan Ġ
chong Ġ
ĠweiĠ yuĠ
ceng Ġ
pin Ġ
cong Ġ
cha Ġ
1 Ġ
a Ġ
di ĠyiĠ
cun Ġ
dou Ġ
zao Ġ
Ġ houĠ
kong Ġ
zhao Ġ
gou Ġ
gan Ġ
Ġ ciĠ
sha Ġ
qiang Ġ
ĠshiĠ jiĠ
chao Ġ
meng Ġ
Ġ yeĠ
kai ĠshiĠ
man Ġ
ce Ġ
tang Ġ
long Ġ
2 Ġ
ai Ġ
Ġ dan
kuo Ġ
ke ĠyiĠ
Ġ faĠ
Ġ yuanĠ
ĠyiĠ geĠ
tan Ġ
tuan Ġ
Ġ shengĠ
ĠshiĠ weiĠ
ka Ġ
gong ĠliĠ
ĠzhongĠ guoĠ
qin Ġ
Ġ tong
tie Ġ
ĠshiĠ shiĠ
Ġ bing
zhengĠ fuĠ
Ġ mingĠ
shao Ġ
can Ġ
pian Ġ
Ġ you
huo ĠdeĠ
mian ĠjiĠ
hang Ġ
hong Ġ
geng Ġ
Ġ huoĠ
ji ĠdeĠ
ĠshiĠ yongĠ
tiao Ġ
xiu Ġ
chen Ġ
shuo Ġ
pi Ġ
Ġ dongĠ
ren ĠweiĠ
ĠshiĠ jianĠ
tao Ġ
zhi ĠyiĠ
zhong ĠdeĠ
zheng ĠzhiĠ
huang Ġ
ran Ġ
ĠyiĠ zhiĠ
ĠshiĠ jieĠ
zhongĠ guoĠ
Ġ ri
yue Ġ
chuang Ġ
nv Ġ
qu ĠdeĠ
guo ĠjiĠ
yi ĠshiĠ
ĠpingĠ fangĠ
wo Ġ
renĠ kouĠ
xing ĠdeĠ
po Ġ
Ġ shouĠ
jinĠ xingĠ
rong Ġ
Ġ suiĠ
liao Ġ
diao Ġ
tuo Ġ
mei ĠyouĠ
Ġ haoĠ
song Ġ
ou Ġ
Ġli ĠdeĠ
Ġ miĠ
Ġli ĠshiĠ
nian Ġ
Ġ dang
ĠweiĠ yuanĠ
Ġ fenĠ
Ġ wanĠ
pei Ġ
ĠqiĠ zhongĠ
zuo ĠweiĠ
gongĠ siĠ
fa ĠguoĠ
biao ĠshiĠ
ĠĠĠ zaiĠ
yanĠ jiuĠ
Ġ er
zheng ĠshiĠ
Ġ shangĠ
Ġ haiĠ
Ġ yin
pan Ġ
ĠdeĠ jiĠ
tui Ġ
Ġ meiĠ
Ġ xinĠ
Ġ zhe
dian ĠshiĠ
yunĠ dongĠ
que Ġ
bang Ġ
qie Ġ
Ġ taiĠ
ĠdeĠ diĠ
cheng ĠshiĠ
3 Ġ
zhi ĠshiĠ
Ġ jiangĠ
Ġ jingĠ
Ġ shuĠ
jian ĠdeĠ
ta ĠdeĠ
gong ĠheĠ
shu ĠyuĠ
she ĠjiĠ
Ġ qianĠ
lang Ġ
ĠrenĠ minĠ
dun Ġ
ĠrenĠ kouĠ
zhi ĠdeĠ
qiao Ġ
10 ĠyueĠ
12 ĠyueĠ
ĠdeĠ zhiĠ
Ġ yingĠ
jing ĠjiĠ
dianĠ yingĠ
7 ĠyueĠ
Ġ xiaĠ
Ġ nanĠ
zu ĠzhiĠ
Ġ muĠ
9 ĠyueĠ
Ġ zhangĠ
8 ĠyueĠ
zhu ĠyiĠ
3 ĠyueĠ
Ġ zuiĠ
1 ĠyueĠ
mao Ġ
ĠshiĠ qiĠ
daiĠ biaoĠ
wa Ġ
riĠ benĠ
ying ĠguoĠ
5 ĠyueĠ
you ĠyiĠ
ji ĠshiĠ
kao Ġ
6 ĠyueĠ
guo ĠdeĠ
kan Ġ
4 ĠyueĠ
Ġ huiĠ
ĠshiĠ zhenĠ
re Ġ
hen Ġ
mai Ġ
xian ĠdeĠ
Ġ biĠ
wei ĠyiĠ
11 ĠyueĠ
cheĠ zhanĠ
jiao ĠyuĠ
Ġ tongĠ
gen ĠjuĠ
buĠ fenĠ
yi ĠdeĠ
daĠ xueĠ
yu ĠshiĠ
4 Ġ
xiangĠ gangĠ
ming ĠweiĠ
xueĠ yuanĠ
ĠdeĠ guoĠ
5 Ġ
ĠyiĠ yuanĠ
li ĠshiĠ
ĠdeĠyiĠ geĠ
ĠzhiĠ houĠ
Ġ ruĠ
gen Ġ
dan ĠrenĠ
ĠnianĠ 1ĠyueĠ
Ġ dengĠ
can ĠjiaĠ
ĠyiĠ weiĠ
cao Ġ
kang Ġ
sheĠ huiĠ
Ġ tiĠ
xian ĠshiĠ
ĠdiĠ quĠ
Ġ qingĠ
sa Ġ
yingĠ xiangĠ
taiĠ wanĠ
shu ĠdeĠ
Ġ ran
Ġ yanĠ
Ġyou ĠyuĠ
shang ĠdeĠ
xing ĠshiĠ
ye ĠshiĠ
Ġ xueĠ
qi ĠshiĠ
ĠyinĠ ciĠ
formula Ġ
bie Ġ
guan ĠliĠ
lao Ġ
zeng Ġ
gongĠ zuoĠ
tong ĠguoĠ
le ĠyiĠ
ĠnianĠ 12ĠyueĠ
Ġ xiaoĠ
Ġ lingĠ
xingĠ zhengĠ
bu ĠdeĠ
gongĠheĠ guoĠ
wei ĠshiĠ
ĠliĠ yaĠ
Ġnian ĠdeĠ
er ĠshiĠ
ren ĠdeĠ
zhun Ġ
zi ĠjiĠ
da ĠdeĠ
2 ĠyueĠ
xiong Ġ
ĠguoĠ jiaĠ
zui ĠzhongĠ
Ġ liangĠ
ĠnianĠ 3ĠyueĠ
hui ĠyiĠ
kuang Ġ
ĠĠĠ shengĠ
cheng ĠliĠ
nong Ġ
ĠpingĠfangĠ gongĠliĠ
luo ĠsiĠ
ku Ġ
ĠnianĠ 7ĠyueĠ
Ġ jiaoĠ
ĠnianĠ 10ĠyueĠ
faĠ xianĠ
Ġ wangĠ
chu ĠdeĠ
miao Ġ
Ġ zhanĠ
ha Ġ
6 Ġ
qi ĠdeĠ
ĠbaoĠ kuoĠ
faĠ zhanĠ
ĠnianĠ 9ĠyueĠ
hei Ġ
yuan ĠdeĠ
ĠshiĠ youĠ
ĠshiĠ zhiĠ
qiĠ taĠ
ĠnianĠ 5ĠyueĠ
ĠqiĠ jianĠ
Ġ tianĠ
piao Ġ
suo ĠyouĠ
kuai Ġ
si ĠdeĠ
Ġ boĠ
ĠnianĠ 4ĠyueĠ
ĠnianĠ 6ĠyueĠ
ĠnianĠ 8ĠyueĠ
you ĠyuĠ
Ġ luoĠ
tieĠ luĠ
ĠdaĠ xueĠ
quan ĠguoĠ
ĠshiĠ zaiĠ
dao ĠzhiĠ
dao ĠdeĠ
tong ĠdeĠ
zhuĠ yaoĠ
cheng ĠdeĠ
can ĠyuĠ
lou Ġ
nuo Ġ
shuang Ġ
Ġ zhengĠ
wenĠ huaĠ
Ġ maĠ
Ġ huaĠ
di ĠliĠ
Ġ duiĠ
ĠtaĠ menĠ
Ġ luĠ
zhong ĠyiĠ
lian ĠheĠ
di ĠdeĠ
ĠzhiĠ daoĠ
Ġ dangĠ
Ġ guĠ
ĠnianĠ 11ĠyueĠ
Ġtong ĠshiĠ
Ġ shenĠ
baoĠ kuoĠ
bu ĠshiĠ
ĠzhongĠ xinĠ
ĠĠĠ shiĠ
yin ĠyueĠ
bei ĠbuĠ
Ġ jiuĠ
shu ĠjiĠ
yong ĠyuĠ
sen Ġ
ĠĠĠ yiĠ
tiĠ gongĠ
Ġ quanĠ
zai ĠyiĠ
xuan ĠbuĠ
Ġ zongĠ
guoĠ jiaĠ
ĠweiĠyuanĠ huiĠ
zuĠ qiuĠ
Ġ sui
wenĠ tiĠ
kuan Ġ
Ġnian ĠzhiĠ
Ġ zuoĠ
Ġyin ĠweiĠ
xueĠ xiaoĠ
sheng ĠyuĠ
ĠshiĠ wuĠ
jian ĠyuĠ
zi ĠyouĠ
qianĠ miĠ
gong ĠyouĠ
guan ĠxiĠ
fang ĠshiĠ
ĠweiĠ zhiĠ
en Ġ
ĠshiĠ zhongĠ
hun Ġ
ĠnianĠ 2ĠyueĠ
Ġ xuĠ
biĠ saiĠ
hua ĠrenĠminĠ
ying ĠdeĠ
rang Ġ
chengĠ yuanĠ
jianĠ zhuĠ
huoĠ dongĠ
jian ĠliĠ
Ġ gai
heng Ġ
suan Ġ
yu ĠyiĠ
ĠĠĠ liĠshiĠ
ji ĠyiĠ
fen ĠweiĠ
ĠdeĠ renĠ
zuoĠ pinĠ
she ĠyouĠ
ren ĠshiĠ
Ġ dianĠ
tong ĠshiĠ
guanĠ junĠ
Ġ changĠ
Ġ benĠ
da ĠliĠ
ge ĠrenĠ
Ġ chengĠweiĠ
ĠĠĠshengĠ pingĠ
Ġ jie
Ġ anĠ
zhuan ĠjiĠ
Ġ xian
yu ĠdeĠ
ĠdiĠ erĠ
beiĠ jingĠ
ĠjiĠ huaĠ
ĠyouĠ xiĠ
jiu ĠshiĠ
xiao ĠshiĠ
Ġ liuĠ
huaĠrenĠminĠ gongĠheĠguoĠ
yin ĠweiĠ
gei Ġ
Ġta ĠdeĠ
men ĠdeĠ
Ġli ĠyuĠ
qun Ġ
ĠnianĠ daiĠ
Ġ baĠ
dui ĠyuĠ
xi ĠdeĠ
ming ĠdeĠ
Ġ aĠ
jun ĠshiĠ
Ġ congĠ
di ĠshiĠ
tong ĠyiĠ
diĠ erĠ
xin ĠdeĠ
qu ĠyuĠ
ĠbuĠ fenĠ
xueĠ jiaĠ
eĠ luoĠsiĠ
zou Ġ
taĠ menĠ
s Ġ
chun Ġ
Ġ duoĠ
wei ĠdeĠ
shouĠ daoĠ
min ĠguoĠ
hou ĠdeĠ
er ĠdeĠ
sheng ĠdeĠ
lai ĠdeĠ
fangĠ mianĠ
faĠ shengĠ
zhengĠ fu
gong ĠjiĠ
dan ĠweiĠ
xing ĠweiĠ
ĠshiĠ renĠ
ĠyiĠ jingĠ
Ġ fengĠ
Ġ huĠ
yong ĠyouĠ
Ġ fanĠ
zhong ĠshiĠ
jin ĠshiĠ
ĠxiĠ tongĠ
Ġ lianĠ
jueĠ dingĠ
bu ĠyuĠ
ĠzhongĠ yangĠ
ju ĠyouĠ
Ġ mianĠjiĠ
Ġ quĠ
1 ĠriĠ
tong ĠzhiĠ
diĠ quĠ
niĠ yaĠ
liangĠ geĠ
faĠ xingĠ
Ġ guanĠ
qu ĠweiĠ
ĠriĠ benĠ
Ġ gongĠliĠ
Ġ gaoĠ
Ġ feiĠ
you ĠdeĠ
chuĠ xianĠ
sheng ĠjiĠ
Ġ wenĠ
Ġ teĠ
Ġ suoĠ
zh Ġ
hua ĠdeĠ
ĠrenĠkouĠ miĠ
ci ĠshiĠ
qi ĠyuĠ
zi ĠzhiĠ
wu ĠdeĠ
juĠ xingĠ
laiĠ ziĠ
Ġta ĠzaiĠ
ling ĠyiĠ
jia ĠdeĠ
ĠjiĠ yuĠ
xian ĠzhiĠ
Ġ suo
ĠweiĠ jiĠ
mianĠjiĠ weiĠ
Ġ suĠ
hui ĠdeĠ
Ġ 15
baoĠ huĠ
Ġ sanĠ
nan ĠbuĠ
du ĠliĠ
ĠpingĠfangĠ qianĠmiĠ
shuĠ juĠ
kong ĠzhiĠ
ĠshiĠ yuĠ
s ĠĠĠ
zongĠ tongĠ
jinĠ ruĠ
ĠshiĠweiĠ yuĠ
ĠliĠ ruĠ
renĠ wuĠ
qu ĠshiĠ
ke ĠliĠ
yaoĠ qiuĠ
mou Ġ
Ġ woĠ
ĠĠĠ deĠ
Ġ meiĠguoĠ
gt Ġ
Ġ gtĠ
gu ĠshiĠ
cheng ĠjiĠ
Ġran ĠerĠ
Ġ guangĠ
lt Ġ
Ġ ru
xueĠ shengĠ
ĠĠĠ yuĠ
Ġ bianĠ
jin ĠdeĠ
Ġdan ĠshiĠ
Ġ wan
minĠ zhuĠ
gong ĠshiĠ
wanĠ chengĠ
Ġ caiĠ
ĠyiĠ qiĠ
lieĠ cheĠ
you ĠjiĠ
keĠ nengĠ
Ġ ltĠ
ĠyiĠ buĠ
shen ĠzhiĠ
Ġbing ĠyuĠ
zha Ġ
ren ĠzhiĠ
pingĠ fangĠ
you ĠshiĠ
Ġ yongĠ
Ġbing ĠzaiĠ
ĠjiĠ shuĠ
chao ĠguoĠ
ti ĠyuĠ
yuan ĠshiĠ
Ġ 16
cang Ġ
cun ĠzaiĠ
qianĠ wangĠ
ke ĠdeĠ
ya ĠliĠ
dang ĠshiĠ
si ĠshiĠ
xue ĠxiĠ
yong ĠdeĠ
ĠdeĠyiĠ ge
Ġ 18
jing ĠguoĠ
Ġ ceng
nei ĠdeĠ
Ġ kaiĠ
fa ĠbuĠ
Ġ shanĠ
Ġ a
zuo ĠdeĠ
ĠzhiĠ weiĠ
jian ĠyiĠ
Ġ hanĠ
guan ĠyuĠ
ĠĠĠ diĠ
wuĠ keĠ
wu ĠshiĠ
xiangĠ gang
zhu ĠrenĠ
ĠzhiĠ jianĠ
yinĠ duĠ
Ġ puĠ
zhan ĠshiĠ
zhanĠ zhengĠ
ĠqiĠ taĠ
guo ĠshiĠ
sun Ġ
pao Ġ
zhuĠ yao
shengĠ huoĠ
zhou ĠdeĠ
xuĠ duoĠ
jian ĠzhiĠ
ĠjiĠ weiĠ
fan ĠweiĠ
bin Ġ
ĠyiĠ shuĠ
ĠjiĠ qiĠ
ĠweiĠ erĠ
chengĠ gongĠ
han ĠguoĠ
ĠĠĠ S
ouĠ zhouĠ
zhuĠ xiĠ
lu ĠdeĠ
jieĠ shouĠ
7 Ġ
qiuĠ duiĠ
ĠzhiĠ youĠ
Ġ shuĠyuĠ
daiĠ biao
Ġ zai
ĠjiĠ zhongĠ
fuĠ wuĠ
Ġ jin
zeng ĠjiaĠ
ĠbuĠ guoĠ
ban ĠdeĠ
gongĠ yuanĠ
Ġ A
ĠyouĠ xianĠ
Ġ C
Ġ moĠ
Ġ 000
xiaoĠ xingĠ
xia ĠdeĠ
ĠĠĠ gaiĠ
Ġ baiĠ
ĠzheĠ xieĠ
ĠzhiĠ chuĠ
he ĠyiĠ
shangĠ haiĠ
duo ĠdeĠ
Ġ aoĠ
hou ĠyiĠ
san ĠshiĠ
ĠĠĠ zhiĠ
ning Ġ
ĠciĠ waiĠ
fu ĠdeĠ
ju ĠliĠ
huai Ġ
si ĠjiĠ
zuĠ chengĠ
Ġ ba
Ġ genĠjuĠ
yunĠdongĠ yuanĠ
jiaoĠ tongĠ
ĠzhiĠ zuoĠ
ĠzhiĠ chiĠ
ma ĠweiĠ
gaoĠ duĠ
chang ĠdeĠ
ĠnianĠ qiĠ
zhuĠ jiaoĠ
Ġ zhĠ
Ġ 17
zheĠ xieĠ
niu Ġ
ge ĠzhongĠ
Ġ cengĠ
ĠzhiĠ wuĠ
xuĠ yaoĠ
ĠzaiĠ ciĠ
jueĠ seĠ
chongĠ xinĠ
chuĠ leĠ
Ġ S
ti ĠdeĠ
tui ĠchuĠ
Ġli ĠjiĠ
zheĠ geĠ
jing ĠliĠ
xiang ĠdeĠ
Ġ zuiĠzhongĠ
gongĠ chengĠ
Ġdang ĠshiĠ
qi ĠyiĠ
da ĠshiĠ
chu ĠyuĠ
ĠrenĠ heĠ
Ġ ai
wu ĠzhongĠ
du ĠweiĠ
renĠ minĠ
Ġ sheĠ
zi ĠdeĠ
xuanĠ juĠ
Ġ duĠ
lianĠ saiĠ
ĠĠĠ diĠliĠ
ziĠ jiĠdeĠ
8 Ġ
Ġ ye
ĠweiĠ leĠ
ĠrenĠ wuĠ
geĠ quĠ
Ġ huo
ĠnianĠ jianĠ
dang ĠdiĠ
kaiĠ faĠ
Ġ laiĠ
fuĠ zeĠ
ĠĠĠ weiĠ
ĠweiĠ qiĠ
gongĠ chanĠ
xian ĠzaiĠ
ĠzhiĠ yuĠ
ĠrenĠ yuanĠ
Ġ ma
zhe ĠyiĠ
liang ĠweiĠ
jieĠ shuĠ
ya ĠdeĠ
chu ĠliĠ
jieĠ muĠ
guan ĠdeĠ
Ġ leiĠ
nv ĠziĠ
sai ĠshiĠ
2010 ĠnianĠ
ding ĠdeĠ
rui Ġ
dui ĠdeĠ
Ġ banĠ
riĠ ben
ĠhouĠ laiĠ
fanĠ yingĠ
chuĠ banĠ
jie ĠdeĠ
chanĠ shengĠ
shouĠ ciĠ
juan Ġ
she ĠshiĠ
lei ĠsiĠ
ĠshiĠyiĠ geĠ
ba ĠshiĠ
dongĠ wuĠ
Ġ yangĠ
jing ĠshiĠ
ĠjiĠ xuĠ
le ĠbuĠ
Ġ naĠ
jie ĠshiĠ
xiang ĠshiĠ
bo ĠshiĠ
ruo Ġ
an ĠdeĠ
keĠ neng
Ġ daiĠ
nanĠ ziĠ
du ĠdeĠ
Ġ jiang
guanĠ xiaĠ
san ĠnianĠ
Ġ aiĠ
zao ĠchengĠ
Ġ mei
hai ĠshiĠ
yang ĠdeĠ
dong ĠshiĠ
she ĠliĠ
Ġ 1Ġ
zhong ĠzhiĠ
yanĠ jiu
daoĠ leĠ
shan ĠxiĠ
Ġ 0
guo ĠyiĠ
Ġ zhenĠ
Ġ yaĠ
Ġsuo ĠyiĠ
ĠjiĠ zhiĠ
zhong ĠyuĠ
fen ĠbuĠ
nv ĠxingĠ
ĠheĠ zuoĠ
dou ĠshiĠ
jun ĠdeĠ
ĠĠĠ qiĠ
guo ĠyuĠ
dong ĠdeĠ
lianĠ mengĠ
dai ĠdeĠ
zheng ĠdeĠ
fangĠ faĠ
ĠzhiĠ zhiĠ
2020 ĠnianĠ
ĠyiĠ siĠ
wu ĠliĠ
xiangĠ muĠ
jiaoĠ shouĠ
fang ĠdeĠ
meiĠ pingĠfangĠ
zhengĠzhiĠ renĠwuĠ
caiĠ yongĠ
di ĠweiĠ
Ġ tuĠ
Ġ cong
liang ĠdeĠ
ĠzaiĠ diĠ
ĠĠĠ renĠkouĠ
Ġ xuanĠ
chuanĠ tongĠ
yuan ĠyuĠ
zhan ĠdeĠ
zhu ĠdeĠ
ĠĠĠ youĠ
huaĠ minĠguoĠ
xiĠ tongĠ
cheng ĠrenĠ
Ġri ĠzaiĠ
Ġ zeĠ
Ġ guiĠ
jiaĠ ruĠ
ĠĠĠ A
fa ĠdeĠ
2001 ĠnianĠ
ge ĠshiĠ
Ġnian ĠyiĠ
xinĠ wenĠ
Ġ ranĠ
yanĠ yuanĠ
hao ĠdeĠ
10 Ġ
ĠliĠ siĠ
ĠĠĠ jiĠ
ĠjiĠ jiĠ
fu ĠshiĠ
ĠyiĠ huiĠ
xiangĠ guanĠ
Ġ bei
ying ĠyuĠ
dao ĠshiĠ
bianĠ maĠweiĠ
taiĠ wan
he ĠshiĠ
ĠjiĠ luĠ
boĠ wuĠ
xue ĠdeĠ
hou ĠzaiĠ
ĠweiĠ fuĠ
ĠtaĠ men
lianĠ jieĠ
ĠdeĠyiĠge ĠshiĠzhenĠ
baoĠ kuo
ĠyiĠ yiĠ
ĠxueĠ mingĠ
xi ĠjiĠ
zui ĠjiaĠ
mingĠ chengĠ
ĠxiĠ yaĠ
tiĠ chuĠ
mu ĠsiĠ
Ġ xieĠ
ling ĠshiĠ
Ġzhe ĠshiĠ
er ĠnianĠ
xiao ĠdeĠ
hai ĠyouĠ
mian ĠdeĠ
ĠweiĠ zhuĠ
ĠrenĠkouĠmiĠ duĠ
Ġli ĠyiĠ
Ġ zong
ge ĠdeĠ
ĠzhiĠ jieĠ
zuiĠ gaoĠ
Ġ laĠ
dong ĠjiĠ
Ġ zhouĠ
ĠĠĠ jiaĠ
Ġ yeĠshiĠ
ĠshiĠyiĠ zhongĠ
Ġ 14
yan ĠdeĠ
xia ĠjiĠ
Ġ yuĠshiĠ
geĠ mingĠ
ye ĠyuĠ
Ġ ci
ĠgongĠ siĠ
ĠnianĠ zaiĠ
yao ĠdeĠ
Ġ fangĠ
Ġ qiuĠ
gai ĠweiĠ
Ġ B
ĠyiĠ xieĠ
zai ĠdeĠ
shu ĠshiĠ
haiĠ junĠ
Ġ junĠ
Ġ kaĠ
jia ĠzhiĠ
shengĠ wuĠ
zhe ĠzhongĠ
chang ĠshiĠ
hui ĠshiĠ
Ġ liang
yan ĠzhongĠ
gai ĠguoĠ
na ĠdaĠ
zhu ĠshiĠ
qingĠ kuang
zheng ĠyiĠ
zhai Ġ
bian ĠdeĠ
ke ĠjiĠ
huiĠ fuĠ
Ġ zuoĠweiĠ
ĠzhiĠ qianĠ
meiĠ tiĠ
zai ĠyuĠ
luan Ġ
xin ĠxiĠ
ĠyiĠ zhongĠ
jie ĠguoĠ
gao ĠdeĠ
wenĠ wuĠ
jian ĠshiĠ
qi ĠzhiĠ
ĠjiĠ zaiĠ
minĠ zuĠ
shui ĠyuĠ
qian ĠdeĠ
he ĠdeĠ
yanĠ changĠ
Ġ niĠ
Ġ 2Ġ
zhuĠ jianĠ
chou Ġ
fanĠ duiĠ
neng ĠliĠ
ĠweiĠ youĠ
ĠkeĠ siĠ
ĠĠĠ xingĠzhengĠ
Ġ keĠyiĠ
ge ĠliĠ
gongĠ kaiĠ
hua ĠshiĠ
ĠbuĠ tongĠ
xing ĠzhiĠ
si ĠyuĠ
lei ĠdeĠ
ĠzhuĠ yaoĠ
peng Ġ
bei ĠshiĠ
huanĠ jingĠ
Ġ mi
jieĠ gouĠ
jiangĠ junĠ
zhang ĠdeĠ
t Ġ
Ġ chongĠ
ĠxiangĠ gangĠ
chuangĠ zuoĠ
xian ĠyuĠ
shangĠ yeĠ
ĠĠĠ benĠ
zan Ġ
gaoĠ suĠ
ĠĠĠ formulaĠ
Ġ ãģ
ĠzheĠ geĠ
sai ĠjiĠ
mo ĠshiĠ
a ĠerĠ
Ġ diĠyiĠ
zhe ĠdeĠ
biaoĠ xianĠ
9 Ġ
Ġ 2
ĠzhongĠ huaĠrenĠminĠgongĠheĠguoĠ
tong ĠjiĠ
junĠ duiĠ
Ġ ling
Ġ hongĠ
Ġli ĠweiĠ
daĠ luĠ
Ġ chenĠ
shengĠ yaĠ
zhu ĠliĠ
ge ĠyueĠ
sheng ĠliĠ
Ġ yunĠ
quan ĠliĠ
wuĠ faĠ
Ġ tangĠ
dong ĠbuĠ
zhou ĠshiĠ
zongĠ jiaoĠ
geĠ lanĠ
Ġnian ĠshiĠ
diaoĠ chaĠ
si ĠnianĠ
tou ĠguoĠ
ĠĠĠ the
Ġ 1
ĠyiĠ banĠ
buĠ fen
Ġ D
biaoĠ zhunĠ
ĠĠĠ genĠjuĠ
hangĠ kongĠ
biĠ yeĠ
hui ĠzaiĠ
ĠĠĠ ciĠ
ĠyiĠ ciĠ
Ġdang ĠdiĠ
shenĠ fenĠ
Ġ yaoĠ
di ĠzhiĠ
Ġ 3
gongĠ luĠ
faĠ yuanĠ
Ġ neiĠ
ĠdeĠyiĠ buĠfenĠ
bu ĠyiĠ
Ġ ãĥ
di ĠyuĠ
jia ĠliĠ
gongĠ zuo
jin ĠjiĠ
cheng ĠzhongĠ
bing ĠbuĠ
sai ĠdeĠ
ĠtaiĠ wanĠ
quan ĠbuĠ
baĠ gaoĠduĠ
ĠbingĠ qie
ĠjiĠ tuanĠ
xieĠ huiĠ
feiĠ changĠ
jiao ĠshiĠ
dongĠ huaĠ
anĠ quanĠ
ĠzhiĠ xingĠ
bi ĠdeĠ
Ġ huangĠ
cha ĠdeĠ
ĠĠĠ of
Ġ linĠ
shengĠ chanĠ
ziĠ liaoĠ
fu ĠheĠ
jing ĠdeĠ
tuanĠ tiĠ
jie ĠzhiĠ
luoĠ maĠ
bei ĠrenĠ
fenĠ bie
Ġ ming
chao ĠxianĠ
ĠĠĠ C
gai ĠdiĠ
Ġ zhuanĠ
ding ĠyiĠ
xingĠ dongĠ
xia ĠyiĠ
jinĠ biaoĠ
pingĠ junĠ
Ġ liu
ĠjinĠ xingĠ
wenĠ xueĠ
du ĠshiĠ
Ġru ĠguoĠ
renĠkouĠ puĠ
la ĠsiĠ
qingĠ kuangĠ
jia ĠjiĠ
gongĠ gongĠ
jieĠ fangĠ
ĠzhiĠ yuanĠ
Ġ E
juĠ minĠ
Ġ P
ĠzhiĠ huiĠ
ĠqiĠ houĠ
dongĠ beiĠ
Ġ gu
shou ĠdeĠ
Ġ zuĠ
ĠbaoĠ kuo
Ġ 5
Ġ 12
shang ĠshiĠ
Ġ 4
ĠjiĠ diĠ
she ĠzhiĠ
d ĠĠĠ
Ġ wo
yanĠ chuĠ
qiuĠ yuanĠ
yuan ĠyiĠ
ĠyuĠ jiĠ
sai ĠzhongĠ
keĠ xueĠ
yan ĠshiĠ
Ġ da
gongĠ tongĠ
lingĠ daoĠ
Ġ chuanĠ
ren ĠyiĠ
t ĠĠĠ
zuoĠ pin
zuo ĠyouĠ
Ġ nan
Ġ T
er ĠjiĠ
Ġ si
ĠdeĠ zhuĠ
faĠ biaoĠ
zai ĠshiĠ
28 ĠriĠ
aoĠ yunĠ
kong ĠjianĠ
xing ĠjiĠ
gaiĠ bianĠ
ye ĠyouĠ
sanĠ geĠ
wu ĠzhiĠ
deng ĠdiĠ
ĠlingĠ waiĠ
jia ĠshiĠ
ĠdiĠ guoĠ
Ġ fen
youĠ xiĠ
ĠĠĠthe ĠĠĠ
yuan ĠheĠ
fang ĠzhiĠ
Ġ jiu
Ġ zhaoĠ
deng ĠrenĠ
Ġer ĠshiĠ
xue ĠshiĠ
guan ĠzhongĠ
Ġ ãĤ
lan ĠdeĠ
luĠ xianĠ
Ġdan ĠrenĠ
m Ġ
xue ĠweiĠ
shu ĠweiĠ
ze ĠshiĠ
ju ĠdeĠ
baoĠ daoĠ
Ġli ĠzhiĠ
qi ĠweiĠ
Ġ huoĠdeĠ
he ĠjiĠ
chu ĠrenĠ
zhui Ġ
buĠ tongĠ
qing ĠnianĠ
2008 ĠnianĠ
lve Ġ
guo ĠliĠ
zuoĠ yongĠ
aoĠ linĠ
bang ĠzhuĠ
pi ĠkeĠ
Ġ cheĠ
de ĠĠĠ
2016 ĠnianĠ
gong ĠdeĠ
zao ĠdaoĠ
ĠkeĠ nengĠ
ai ĠerĠ
ĠyuĠ qiĠ
Ġri ĠzhiĠ
ĠfuĠ zeĠ
ĠĠĠ zhongĠ
zu ĠdeĠ
danĠ quĠ
jiang ĠqiĠ
ĠyuĠ yanĠ
Ġ M
ju ĠjiĠ
lu ĠdiĠ
ĠdaĠ daoĠ
gui ĠdaoĠ
ĠyouĠ guanĠ
tongĠ changĠ
15 ĠriĠ
shou ĠjiĠ
banĠ benĠ
ĠyiĠ youĠ
taĠ men
fei ĠjiĠ
ĠyiĠ yuĠ
tu ĠdiĠ
xianĠ daiĠ
yuan ĠnianĠ
2009 ĠnianĠ
ma ĠliĠ
sheng ĠdeĠyiĠgeĠshiĠzhenĠ
ĠzhiĠ jianĠdeĠ
yaĠ zhouĠ
xiĠ banĠ
ĠmuĠ qianĠ
bianĠ huaĠ
ĠĠĠ juĠ
Ġ shuiĠ
jingĠ neiĠ
jie ĠheĠ
ĠshiĠ xingĠ
gongĠ yeĠ
hui ĠheĠ
jueĠ saiĠ
wu ĠnianĠ
taiĠ pingĠ
jia ĠyiĠ
Ġ dingĠ
hou ĠyuĠ
ĠbingĠ qieĠ
2011 ĠnianĠ
ĠsiĠ keĠ
Ġ paiĠ
2012 ĠnianĠ
zao ĠqiĠ
neiĠ rongĠ
zhengĠ ceĠ
Ġ 8
ĠweiĠ zhongĠ
guangĠ boĠ
zhan ĠyiĠ
Ġ 13
Ġ mo
xian ĠrenĠ
Ġ ha
ta ĠzaiĠ
meiĠ yuanĠ
jiao ĠyiĠ
pi ĠpingĠ
xingĠ chengĠ
ĠhaiĠ baĠgaoĠduĠ
25 ĠriĠ
jiaoĠ huiĠ
miao ĠshuĠ
ĠbuĠ duiĠ
ĠzhiĠ yeĠ
ĠerĠ siĠ
wanĠ quanĠ
Ġdan ĠzaiĠ
xuanĠ zeĠ
yuanĠ yinĠ
ĠsiĠ teĠ
Ġ F
Ġta ĠyuĠ
UTC Ġ
pa Ġ
Ġ 7
bo ĠliĠ
zao ĠdeĠ
ĠheĠ wuĠ
jianĠ sheĠ
Ġyue ĠdeĠ
xie ĠyiĠ
chu ĠshiĠ
xiaoĠ shuoĠ
wuĠkeĠ lanĠ
chang ĠqiĠ
yunĠdongĠ huiĠ
beiĠ chengĠweiĠ
lianĠ bangĠ
ĠdiĠ sanĠ
ĠweiĠ diĠ
30 ĠriĠ
ĠjianĠ chengĠ
Ġdang ĠzhongĠ
10 ĠriĠ
ĠshiĠ yanĠ
ĠdeĠ daoĠ
chiĠ xuĠ
A Ġ
zui ĠdaĠ
wenĠ hua
Ġ renĠweiĠ
Ġ qie
Ġ eĠ
20 ĠriĠ
mingĠ mingĠ
zu ĠheĠ
yuanĠ zhuĠ
duoĠ shuĠ
se ĠdeĠ
dianĠ ziĠ
zhuanĠ yeĠ
Ġ 9
Ġta ĠshiĠ
xing ĠyuĠ
ĠyiĠ mingĠ
2014 ĠnianĠ
houĠ laiĠ
lin ĠshiĠ
gongĠ si
Ġ xunĠ
sheng ĠheĠ
ĠyouĠ chengĠ
er ĠweiĠ
wuĠ yuanĠ
bu ĠliĠ
jieĠ daoĠ
fu ĠzhiĠ
ba ĠliĠ
ziĠ geĠ
chu ĠqiĠ
2018 ĠnianĠ
bu ĠjiĠ
2019 ĠnianĠ
erĠ ziĠ
Ġ 5Ġ
dongĠ nanĠ
gao ĠzhongĠ
Ġ 6
faĠ lvĠ
taĠ menĠdeĠ
Ġ mengĠ
ĠjiĠ gouĠ
za ĠzhiĠ
ĠjiĠ jinĠ
ĠdiĠ siĠ
Ġ mianĠ
ĠshiĠweiĠyuĠ meiĠguoĠ
daĠ daoĠ
ye ĠdeĠ
ĠjinĠ guanĠ
2013 ĠnianĠ
ĠweiĠyuĠ gaiĠguoĠ
ĠguoĠ minĠ
faĠ zhan
aĠ laĠ
kui Ġ
Ġyue ĠzhiĠ
ĠliĠ keĠ
Ġ G
d Ġ
tu ĠerĠ
sheng ĠweiĠ
ĠshiĠjieĠ daĠ
baoĠ gaoĠ
zhong ĠjiĠ
24 ĠriĠ
Ġ san
dao ĠyiĠ
2015 ĠnianĠ
ĠliĠ yongĠ
ĠliĠ kaiĠ
fangĠ xiangĠ
ĠsuiĠ houĠ
guiĠ dingĠ
nei ĠbuĠ
ĠyuĠ zhongĠ
guoĠ minĠ
guangĠ dongĠ
wang ĠdeĠ
boĠwuĠ guanĠ
luo ĠdeĠ
Ġ ke
26 ĠriĠ
Ġ gengĠ
canĠ saiĠ
Ġyue ĠshiĠ
Ġzhe ĠzhongĠ
Ġ yingĠguoĠ
2007 ĠnianĠ
muĠ biaoĠ
ĠweiĠ siĠ
sheĠ quĠ
ĠyuĠ zhiĠ
guan ĠzhiĠ
Ġtong ĠnianĠ
dian ĠliĠ
2005 ĠnianĠ
gongĠchanĠ dangĠ
ĠĠĠ B
18 ĠriĠ
die Ġ
ĠyouĠ qiĠ
xian ĠyiĠ
ĠxiĠ lieĠ
Ġ waiĠ
teĠ bie
ĠfenĠ buĠyuĠ
aoĠlinĠ piĠkeĠ
bing ĠweiĠ
lian ĠxiĠ
gongĠ buĠ
ĠjiĠ changĠ
fu ĠliĠ
juĠ banĠ
Ġ shaĠ
mu ĠdeĠ
ĠchuĠ leĠ
Ġ 2001ĠnianĠ
lie ĠdeĠ
ĠshiĠ heĠ
Ġ ganĠ
chang ĠweiĠ
wuĠ xianĠ
ĠerĠ shengĠ
bi ĠliĠ
quanĠ qiuĠ
shen ĠdeĠ
tou ĠziĠ
ĠshiĠ ziĠ
2017 ĠnianĠ
mu ĠdiĠ
y Ġ
16 ĠriĠ
ĠjiĠ heĠ
yinĠ hangĠ
ding ĠweiĠ
Ġ duo
dongĠ jingĠ
shangĠ shuĠ
Ġ que
guanĠ fangĠ
fu ĠyiĠ
dao ĠyuĠ
dang ĠdeĠ
guo ĠzhiĠ
17 ĠriĠ
ĠĠĠ P
paiĠ sheĠ
zi ĠyuĠ
huaĠ xueĠ
shou ĠyuĠ
kaiĠ fangĠ
ĠyouĠxianĠ gongĠsiĠ
ĠĠĠ zhengĠzhiĠ
Ġ minĠ
21 ĠriĠ
bu ĠzhiĠ
ĠdeĠshiĠ zhenĠ
gai ĠnianĠ
ĠĠĠ F
27 ĠriĠ
baoĠ faĠ
ĠzhongĠ xueĠ
zhe ĠshiĠ
ka ĠerĠ
19 ĠriĠ
2006 ĠnianĠ
8 ĠriĠ
mingĠ ziĠ
jun ĠweiĠ
11 ĠriĠ
ĠliĠ faĠ
yingĠ yongĠ
12 ĠriĠ
23 ĠriĠ
shang ĠyouĠ
ce ĠshiĠ
Ġ songĠ
Ġ H
ĠfuĠ wuĠ
ĠyinĠ ci
suĠ lianĠ
meiĠguoĠ renĠkouĠpuĠ
xian ĠweiĠ
ĠdeĠ weiĠ
fei ĠxingĠ
ĠzhiĠ jiĠ
shuĠ liangĠweiĠ
ĠĠĠ T
7 ĠriĠ
qiĠ jianĠ
ĠhaoĠ miĠ
juĠ leĠbuĠ
fu ĠyuĠ
yin ĠshiĠ
xueĠ zheĠ
huang ĠdiĠ
boĠ chuĠ
hui ĠyuĠ
qi ĠjiĠ
2021 ĠnianĠ
ban ĠshiĠ
xiĠ lieĠ
ĠdeĠ zhongĠ
22 ĠriĠ
guiĠ moĠ
Ġ qieĠ
ĠshiĠ faĠguoĠ
Ġ 3Ġ
r Ġ
biĠ xuĠ
9 ĠriĠ
ling ĠyuĠ
shanĠ dongĠ
Ġ 6Ġ
gongĠ nengĠ
Ġ saiĠ
29 ĠriĠ
chu ĠyiĠ
yin ĠqiĠ
guanĠ yuanĠ
ying ĠshiĠ
te ĠdeĠ
zuiĠ daĠdeĠ
zheng ĠzaiĠ
xunĠ lianĠ
ĠyueĠ hanĠ
fengĠ geĠ
kun Ġ
ĠjiĠ baiĠ
jingĠ yingĠ
2022 ĠnianĠ
fuĠ jinĠ
ting ĠzhiĠ
suoĠ shuĠdeĠ
nengĠ gouĠ
pingĠ jiaĠ
3 ĠriĠ
shengĠ mingĠ
14 ĠriĠ
geĠ diĠ
zhu ĠzaiĠ
qingĠkuang ĠxiaĠ
yuan ĠjiĠ
shou ĠshiĠ
tiao ĠjianĠ
jiao ĠdeĠ
21 Ġ
5 ĠriĠ
sheng ĠzaiĠ
quĠ huaĠ
shengĠ chan
tai ĠdeĠ
xi ĠshiĠ
shang ĠweiĠ
she ĠdeĠ
mai ĠkeĠ
ĠĠĠ youĠyuĠ
ya ĠyuĠ
jin ĠzhiĠ
Ġ daoĠzhiĠ
31 ĠriĠ
ĠbuĠ jiuĠ
jieĠ chuĠ
Ġ K
yuan ĠzhiĠ
Ġ piĠ
ĠdaĠ huiĠ
lianĠ meng
Ġ lvĠ
xiaoĠxingĠ xingĠ
4 ĠriĠ
Ġ kaiĠshiĠ
chao ĠjiĠ
2 ĠriĠ
xiong ĠdiĠ
da ĠjiĠ
ĠrenĠ zhongĠ
ĠzuiĠ houĠ
dian ĠdeĠ
6 ĠriĠ
ĠĠĠ G
hai ĠyuĠ
zang Ġ
boĠ teĠ
ĠgongĠ chiĠ
liu ĠxingĠ
ge ĠjiĠ
13 ĠriĠ
nanĠ xingĠ
ĠsuiĠ ranĠ
wenĠwuĠ baoĠhuĠ
ĠnianĠ dai
teĠ zhengĠ
renĠ heĠ
wu ĠjiĠ
ge ĠweiĠ
ren ĠjiĠ
Ġ qiangĠ
manĠ huaĠ
lv ĠyouĠ
zuoĠ jiaĠ
keĠ daĠ
si ĠrenĠ
Ġtong ĠguoĠ
geĠ shouĠ
Ġ xin
Ġ jueĠ
Ġ shenĠzhiĠ
yinĠ ciĠ
fen ĠxiĠ
huang ĠjiaĠ
ouĠ zhou
br Ġ
jian ĠweiĠ
shengĠ fenĠ
Ġ L
Ġ lingĠyiĠ
zong ĠheĠ
xuĠ duo
lieĠ che
ju ĠrenĠ
niu ĠyueĠ
Ġ brĠ
ĠĠĠ jinĠ
ci ĠshiĠjieĠdaĠ
banĠ daoĠ
zhuĠ tiĠ
zhong ĠweiĠ
cheng ĠyiĠ
Ġ 10
zai ĠweiĠ
zhuangĠ taiĠ
ĠsuiĠ ran
ĠyouĠ mingĠ
qi ĠnianĠ
ĠtaĠ cengĠ
ben ĠdeĠ
bian ĠweiĠ
pin ĠdaoĠ
ĠzaiĠ qiĠ
you ĠyiĠgeĠ
fenĠ ziĠ
ju ĠzhongĠ
he ĠliĠ
mao ĠyiĠ
Ġ douĠ
20 ĠshiĠjiĠ
ĠzhiĠ zhongĠ
buĠ zhangĠ
renĠkouĠ shuĠliangĠweiĠ
wangĠ luoĠ
Ġ chiĠ
hui ĠyouĠ
qian ĠyiĠ
Ġ I
ao ĠsiĠ
2004 ĠnianĠ
shuo ĠshiĠ
ĠĠĠ ziĠ
jieĠ duanĠ
xuanĠ shouĠ
Ġ geng
gao ĠjiĠ
zhun ĠbeiĠ
fa ĠshiĠ
ci ĠdeĠ
ĠheĠ nanĠ
fangĠ anĠ
fang ĠyuĠ
mi ĠerĠ
wai ĠdeĠ
daĠ xingĠ
bei ĠdeĠ
duoĠ ciĠ
Ġ chen
bing ĠliĠ
gong ĠzhongĠ
Ġ zhou
huiĠ daoĠ
ĠĠĠ liĠ
Ġ 4Ġ
mo ĠdeĠ
ĠyiĠ laiĠ
fen ĠzhiĠ
Ġri ĠqiĠ
chengĠ duĠ
ci ĠzhiĠ
Ġ lanĠ
bu ĠweiĠ
2000 ĠnianĠ
Ġ gangĠ
shuĠ guanĠ
liu ĠnianĠ
11 Ġ
ĠzhongĠ buĠ
wuĠ qiĠ
jie ĠjiĠ
le ĠyiĠgeĠ
yuan ĠweiĠ
baoĠ hanĠ
jun ĠzaiĠ
ĠdiĠ fangĠ
dianĠshiĠ taiĠ
Ġ fan
you ĠzhiĠ
zi ĠshiĠ
ĠdeĠyiĠ zhongĠ
xing ĠheĠ
ĠrenĠ kou
ĠrenĠkouĠmiĠ duĠweiĠ
ju ĠshiĠ
deng ĠjiĠ
Ġ yiĠshiĠ
luĠ junĠ
xuan ĠweiĠ
xiangĠ tongĠ
a ĠĠĠ
Ġ chaoĠ
l Ġ
zheĠ jiangĠ
ĠĠĠof ĠĠĠ
zuiĠ houĠ
biaoĠ yanĠ
qiu ĠjiĠ
Ġ ze
siĠ wangĠ
gaiĠ geĠ
ĠzhuĠ yao
ĠweiĠyuĠ faĠguoĠ
sheĠ beiĠ
nong ĠyeĠ
daĠ liangĠ
duoĠ geĠ
meiĠ zhouĠ
Ġ touĠ
ĠzhiĠ jinĠ
dianĠshiĠ juĠ
hou ĠyouĠ
ĠshiĠ daiĠ
Ġ zu
ĠxiĠ banĠ
Ġ zhao
gu ĠjiĠ
shang ĠyiĠ
ai ĠdeĠ
yang ĠshiĠ
Ġ xianĠshiĠ
zhu ĠyuĠ
guangĠ changĠ
y ĠĠĠ
liu ĠshiĠ
zai ĠjiĠ
zhanĠ douĠ
Ġ xiang
Ġ N
fa ĠyuĠ
Ġ fei
wenĠwuĠbaoĠhuĠ danĠweiĠ
ĠĠĠ daĠ
zhanĠ kaiĠ
ĠzhiĠ liĠ
Ġ meiĠyouĠ
jia ĠheĠ
tiao ĠyueĠ
ĠjiaĠ ruĠ
fuĠ jianĠ
xieĠ zhuĠ
ĠyiĠ beiĠ
ĠbuĠ zaiĠ
chanĠ pinĠ
muĠ qianĠ
bianĠ chengĠ
hangĠ kong
nu Ġ
Ġ 30
jiang ĠyuĠ
youĠ zhengĠ
mi ĠdeĠ
huoĠdeĠ leĠ
ĠfenĠ bie
ren ĠyuĠ
20 Ġ
fenĠ leiĠ
daoĠ luĠ
gongĠyouĠ renĠkouĠ
ying ĠjiĠ
duan ĠdeĠ
ĠzhiĠ zaiĠ
qun ĠdaoĠ
qing ĠdeĠ
nai Ġ
biaoĠ zhun
zhenĠ quĠ
ĠbeiĠ qiĠ
Ġzhe ĠyiĠ
haiĠ baĠ
nao Ġ
ĠĠĠ jianĠ
biĠ jiaoĠ
ĠqiĠ yeĠ
Ġ R
guiĠ huaĠ
zhanĠ zheng
cuo Ġ
Ġ O
ĠliĠ ziĠ
ĠkeĠ neng
ĠxiĠ wangĠ
ĠxingĠ zhengĠ
suĠ duĠ
ju ĠyuĠ
nv ĠerĠ
xiĠ buĠ
ĠzhongĠ huaĠminĠguoĠ
shouĠ duĠ
xi ĠweiĠ
ĠbuĠ huiĠ
Ġ faĠguoĠ
ĠyiĠ renĠ
B Ġ
qiao ĠzhiĠ
ĠgongĠ fenĠ
ĠzaiĠ zhongĠ
Ġ zhang
meiĠpingĠfangĠ gongĠliĠ
rong ĠyuĠ
dong ĠxiĠ
jiu ĠshiĠzhenĠ
dong ĠliĠ
ĠyiĠ yangĠ
ĠdeĠshiĠ jianĠ
jinĠ gongĠ
diĠyiĠ geĠ
dou ĠyouĠ
U Ġ
si ĠheĠ
ĠĠĠ xiĠ
ĠchengĠ quĠ
maĠ lai
henĠ duoĠ
si ĠweiĠ
la ĠdeĠ
Ġ 00
Ġ nvĠ
ken Ġ
ruĠ xiaĠ
taiĠ beiĠ
ze ĠrenĠ
fu ĠrenĠ
la ĠkeĠ
quĠ daiĠ
xian ĠdeĠyiĠgeĠ
ĠciĠ houĠ
jinĠbiaoĠ saiĠ
ĠyiĠ xiaĠ
shangĠ wuĠ
yu ĠshiĠdeĠ
ĠyuĠ weiĠ
jian ĠyouĠ
The ĠĠĠ
ĠerĠ beiĠ
zong ĠliĠ
Ġ kongĠ
wang ĠguoĠ
lianĠ xuĠ
Ġ tian
xiangĠ duiĠ
n Ġ
Ġ manĠ
ĠĠĠ fuĠ
qu ĠyiĠ
min ĠzhongĠ
jieĠ rang
reng Ġran
xiao ĠxiĠ
miĠ shuĠ
tie ĠdaoĠ
zhengĠ geĠ
ĠĠĠ zheĠ
zuiĠ houĠyiĠ
ci ĠjiĠ
Ġ ruo
jue ĠdeĠ
renĠkouĠshuĠliangĠweiĠ renĠ
Ġ heiĠ
ĠzhongĠ xin
quan ĠdeĠ
ĠĠĠ zhuĠ
zhanĠ lingĠ
xinĠ jiaĠ
waiĠ jiaoĠ
diĠ sanĠ
jiaĠ naĠdaĠ
ĠliĠ shuĠyuĠ
ĠrenĠ zaiĠ
tianĠ zhuĠjiaoĠ
zhen ĠshiĠ
Ġ INSEE
yeĠ wuĠ
me Ġ
chengĠ zhenĠ
ĠyingĠ chiĠ
ci ĠyuĠ
qiĠ ta
niao Ġ
Ġnian ĠjiĠ
Ġran ĠhouĠ
ĠĠĠ E
Ġ wu
yuan ĠyouĠ
Ġyou ĠyiĠ
ĠĠĠ M
ceng ĠzaiĠ
daĠ xue
jianĠ chaĠ
zhengĠ quanĠ
shengĠ chengĠ
shouĠ geĠ
zuoĠ chuĠ
nan ĠjiĠ
ĠdeĠshiĠ houĠ
ĠheĠ beiĠ
ni ĠsiĠ
juĠ jueĠ
lu ĠshiĠ
Ġ hao
jiao ĠweiĠ
quĠ xiaoĠ
ti ĠjiĠ
Ġ tiaoĠ
ĠdeĠ yuĠ
Ġjie ĠzhiĠ
dian ĠjiĠ
Ġ rang
sheng ĠzhiĠ
cheĠ liangĠ
ĠgaiĠ shengĠ
wangĠ zhanĠ
he ĠweiĠ
da ĠliĠyaĠ
zhongĠ xinĠ
dui ĠzaiĠ
xianĠ faĠ
le ĠjiĠ
Ġ bai
he ĠzhiĠ
diĠ fangĠ
ziĠ xingĠ
zhen ĠdeĠ
lan ĠxiĠ
ĠqiĠ ta
Ġer ĠzaiĠ
ĠzongĠ mianĠjiĠ
tianĠ wenĠ
yunĠ yingĠ
ĠdeĠ liĠ
jieĠ jueĠ
2002 ĠnianĠ
Ġ zhengĠshiĠ
ĠriĠ ben
2003 ĠnianĠ
Ġ duiĠyuĠ
mo ĠxiĠ
ĠshiĠ changĠ
gong ĠyiĠ
shu ĠzhiĠ
ye ĠzaiĠ
ĠdiĠ qiĠ
ĠjianĠ zhuĠ
shou ĠweiĠ
dianĠ ying
ĠrenĠkouĠmiĠduĠ meiĠpingĠfangĠgongĠliĠ
xiaoĠ xueĠ
yingĠ xiang
chaĠdeĠ shuĠjuĠ
youĠzhengĠ bianĠmaĠweiĠ
hui ĠzhiĠ
puĠ taoĠ
gan ĠdaoĠ
ĠxingĠ chengĠ
ĠshiĠzhenĠ bianĠmaĠweiĠ
ĠINSEE ĠshiĠzhenĠbianĠmaĠweiĠ
qing ĠshiĠ
te ĠliĠ
ĠrenĠkouĠmiĠduĠweiĠ meiĠpingĠfangĠ
mengĠ guĠ
ĠĠĠ buĠ
mu ĠshiĠ
ĠxiaĠ lingĠshiĠ
diĠyiĠ ciĠ
xi ĠliĠ
er ĠzaiĠ
zhuo Ġ
xuanĠ quĠweiĠ
lei ĠjiĠ
zuoĠ zhanĠ
gao ĠyuĠ
niĠ ya
yuĠshiĠdeĠ renĠkouĠshuĠliangĠweiĠrenĠ
bao ĠdeĠ
si ĠzaiĠ
meiĠguoĠrenĠkouĠpuĠ chaĠdeĠshuĠjuĠ
zuo ĠyiĠ
lu ĠyiĠ
Ġer ĠrenĠkouĠmiĠduĠweiĠmeiĠpingĠfangĠ
ĠdangĠdiĠ gongĠyouĠrenĠkouĠ
xi ĠyuĠ
ĠteĠ bie
yun ĠxingĠ
ĠhuoĠ jiuĠshiĠzhenĠ
Ġ huanĠ
jingĠ changĠ
xin ĠliĠ
yuanĠ ziĠ
shengĠjiĠ xuanĠquĠweiĠ
jiang ĠshiĠ
Ġ shuangĠ
faĠ dongĠ
kuaiĠ suĠ
ĠĠĠ H
ĠzhongĠ yang
Ġ bo
shao ĠnianĠ
sheng ĠrenĠ
bian ĠjiĠ
chong ĠjianĠ
fenĠweiĠ faĠguoĠ
ĠgaiĠshengĠ fenĠweiĠfaĠguoĠ
fa ĠqiĠ
ĠĠĠ nianĠ
ming ĠyiĠ
gaoĠ dengĠ
cong ĠshiĠ
yangĠ huaĠ
shuo ĠfaĠ
ĠnianĠ chuĠ
ĠyouĠ renĠ
Ġnian ĠyuĠ
cheng ĠliĠyuĠ
jia ĠzhongĠ
jin ĠyiĠbuĠ
na ĠdeĠ
lianĠheĠ guoĠ
ĠerĠ qie
yanĠjiuĠ suoĠ
zhengĠ mingĠ
fang ĠqiĠ
daĠ quĠ
tai ĠguoĠ
Ġ biaoĠshiĠ
gongĠ xianĠ
gou ĠdeĠ
ĠĠĠ D
lunĠ dun
fanĠ huiĠ
aoĠlinĠpiĠkeĠ yunĠdongĠhuiĠ
ĠĠĠ heĠ
jieĠrang ĠdeĠshiĠzhenĠ
zi ĠweiĠ
gong ĠrenĠ
yunĠ shuĠ
suoĠshuĠdeĠ shengĠjiĠxuanĠquĠweiĠ
xiang ĠjiĠ
huo ĠshiĠ
Ġ guoĠjiĠ
ne Ġ
ziĠ ran
yuan ĠliĠ
2023 ĠnianĠ
si ĠliĠ
ti ĠxiĠ
jianĠ chengĠ
biao ĠweiĠ
na ĠliĠ
zhuĠ chiĠ
ziĠ yuanĠ
xingĠ qiĠ
zhongĠ huaĠrenĠminĠgongĠheĠguoĠ
mingĠ danĠ
boĠ lanĠ
ce ĠdeĠ
Ġ huang
xi ĠzaiĠ
dao ĠrenĠ
reĠ daiĠ
xiĠbanĠ yaĠ
hua ĠweiĠ
cui Ġ
luo ĠfuĠ
fuĠ qinĠ
ĠxiĠ beiĠ
xiaĠ wuĠ
fen ĠdeĠ
zhanĠ dou
er ĠheĠ
bei ĠyiĠ
pai ĠdeĠ
ĠnianĠ youĠ
faĠ sheĠ
ĠdiĠ quĠdeĠ
ni ĠkeĠ
Ġ haĠ
wenĠ mingĠ
Ġ hu
ĠĠĠ cheĠzhanĠ
ĠzhiĠ chengĠ
ĠheĠ bingĠ
diaoĠ cha
chanĠ yeĠ
ĠnianĠ houĠ
Ġ bi
ĠshiĠyiĠ mingĠ
an ĠshiĠ
wan ĠjiaĠ
xiangĠ dangĠ
Ġyou ĠshiĠ
ĠĠĠ chuĠ
sheng ĠshiĠ
chaoĠ zhengĠzhiĠrenĠwuĠ
Ġ kang
su ĠdeĠ
jinĠxingĠ leĠ
ĠweiĠ shengĠ
Ġ zaoĠ
ĠĠĠ taĠ
jian ĠjiĠ
ĠbuĠ nengĠ
nanĠ shengĠ
jin ĠyiĠ
xuanĠ chuanĠ
ĠshiĠyiĠ weiĠ
Ġ chuangĠ
Ġ peiĠ
ying ĠliĠ
jingĠ shenĠ
bei ĠjiĠ
lv ĠshiĠ
xianĠ xiangĠ
za Ġ
shouĠ shangĠ
shu ĠzhongĠ
p Ġ
zi ĠheĠ
xiĠ yangĠ
guanĠ zhuĠ
fuĠzeĠ guanĠxiaĠ
lian ĠdeĠ
qiĠ zhongĠyiĠ
paiĠ mingĠ
mie Ġ
jiaĠ tingĠ
tongĠ xingĠ
lie ĠweiĠ
Ġ Ð
sai ĠerĠ
Ġyue ĠzaiĠ
zhanĠ houĠ
xuan ĠrenĠ
k Ġ
liu ĠyuĠ
shuĠ liangĠ
xiaoĠ zuĠ
fo ĠjiaoĠ
lanĠ qiuĠ
ke ĠweiĠ
shuai Ġ
jie ĠyiĠ
daoĠ yanĠ
zhengĠ juĠ
qiu ĠdeĠ
ĠxiĠ nanĠ
da ĠweiĠ
taoĠ lunĠ
ba ĠnianĠ
wang ĠshiĠ
duĠ jiaoĠ
yan ĠyiĠ
Ġ W
Ġ longĠ
reĠ dai
ĠzhongĠ gongĠ
zhengĠ dangĠ
ĠĠĠ beiĠ
laiĠ yuanĠ
ming ĠshiĠ
genĠ ju
wenĠ jianĠ
g Ġ
baoĠ chiĠ
Ġ tuoĠ
0 Ġ
ĠyiĠ jianĠ
hou ĠqiĠ
ĠnianĠ duĠ
ĠerĠ qieĠ
zhongĠ yangĠ
ĠzhiĠ xianĠ
rui ĠshiĠ
Ġ ben
ĠdaoĠ leĠ
reng ĠranĠ
Ġ 10ĠyueĠ
ĠyiĠ xiĠ
lv ĠkeĠ
ĠĠĠ K
ĠjiĠ siĠ
pingĠ lunĠ
Ġ J
ĠshiĠ xianĠ
Ġ canĠ
ziĠ dongĠ
Ġzong ĠrenĠkouĠ
xia ĠdeĠyiĠgeĠ
fan ĠdeĠ
ĠwuĠ keĠ
diĠ siĠ
zao ĠnianĠ
biaoĠ mingĠ
xu ĠdeĠ
lu ĠyuĠ
ĠzhiĠ mingĠ
ĠĠĠ L
hai ĠdeĠ
ĠjiĠ huĠ
pingĠ taiĠ
luoĠ ma
keĠliĠ siĠ
ĠshiĠ jianĠyuĠ
hao ĠweiĠ
cengĠ jingĠ
xuĠ yao
peng ĠyouĠ
ĠliĠ renĠ
da ĠyueĠ
rao Ġ
yinĠ hang
fengĠ xianĠ
eĠ luoĠ
nanĠ jingĠ
ĠbeiĠ jingĠ
ĠdeĠdiĠ fangĠ
Ġ ciĠshiĠ
sheng ĠyiĠ
gong ĠzhongĠyangĠ
taiĠpingĠ yangĠ
jiaoĠ tangĠ
zheng ĠbuĠ
lianĠ bang
ke ĠzaiĠ
jiao ĠbuĠ
xuanĠ quĠ
xingĠ buĠ
jing ĠyouĠ
yanĠ geĠ
queĠ dingĠ
yuan ĠzaiĠ
ĠguoĠ wangĠ
daoĠ daĠ
shen ĠweiĠ
jianĠ duiĠ
chongĠ tuĠ
Ġ ouĠ
sou Ġ
ĠĠĠ xianĠ
wu ĠrenĠ
jian ĠrenĠ
mo ĠxingĠ
tui ĠyiĠ
ĠĠĠ 2021
biao ĠzhiĠ
hua ĠyuĠ
ru ĠheĠ
qian ĠshiĠ
ke ĠshiĠ
Ġ lin
qian ĠzhiĠ
T Ġ
xiao ĠguoĠ
zhang ĠdaĠ
shangĠ yingĠ
X Ġ
ĠyiĠ shangĠ
dao ĠheĠ
keĠ siĠ
ĠgongĠ yuanĠ
Ġ miaoĠ
jing ĠweiĠ
ĠĠĠ suiĠ
lei ĠxingĠ
ĠyiĠ liĠ
ĠdaĠ xue
zhou ĠweiĠ
xian ĠjiĠ
queĠ zhenĠ
ye ĠbuĠ
biao ĠdaĠ
fengĠ baoĠ
guangĠ zhouĠ
ĠĠĠ 2020
xia ĠshiĠ
dangĠ xuanĠ
xie ĠdeĠ
xian ĠheĠ
biĠ yaĠ
shengĠ huo
liang ĠzhongĠ
ding ĠyuĠ
pang Ġ
qiĠ yeĠ
Ġceng ĠrenĠ
Ġ tanĠ
ĠjiĠ beiĠ
jiaoĠ quĠ
pingĠ mianĠ
shenĠ qingĠ
anĠ jianĠ
chengĠ xianĠ
luĠ siĠ
xing ĠyiĠ
ĠzhiĠ fuĠ
tuanĠ duiĠ
ĠerĠrenĠkouĠmiĠduĠweiĠmeiĠpingĠfangĠ qianĠmiĠ
ĠjinĠ ruĠ
ĠliĠ daĠ
cha ĠyiĠ
ĠliĠ lunĠ
yingĠ geĠlanĠ
yaoĠ qingĠ
neiĠ rong
puĠ tongĠ
Ġ qinĠ
yuanĠ zhangĠ
yuanĠ suĠ
ĠzhongĠ youĠ
xing ĠrenĠ
jiu ĠnianĠ
xi ĠheĠ
ĠtaĠ menĠdeĠ
Ġjie ĠguoĠ
ri ĠqiĠ
rou Ġ
qiuĠ changĠ
l ĠĠĠ
xiaoĠ shouĠ
Ġ zheng
Ġ gao
zhongĠ yaoĠ
yan ĠzhiĠ
heng ĠxingĠ
zi ĠyiĠ
ruĠ ciĠ
duiĠ shouĠ
la ĠfuĠ
fenĠ bieĠ
tiaoĠ zhanĠ
zuo ĠshiĠ
bao ĠweiĠ
cheng ĠyuĠ
laiĠ shuoĠ
shu ĠyiĠ
F Ġ
Ġ qiĠyuĠ
hui ĠjiĠ
Ġyue ĠyuĠ
Ġ 19
ru ĠguoĠ
ĠzhiĠ zaoĠ
Ġ deng
xueĠ shuĠ
he ĠyuĠ
anĠ naĠ
12 Ġ
ĠzhongĠ huaĠ
wangĠ luĠ
ĠĠĠ in
lun ĠdeĠ
nu ĠliĠ
ni ĠdeĠ
ĠshiĠ diĠ
wu ĠyiĠ
shun Ġ
Ġ 8ĠyueĠ
zhengĠ zhuangĠ
caiĠ yong
jia ĠrenĠ
ting ĠdeĠ
nengĠ gou
ziĠzhiĠ quĠ
Ġ 11
jieĠfangĠ junĠ
xiaoĠ zhangĠ
dianĠ taiĠ
teĠ bieĠ
ĠhaoĠ xianĠ
Ġ maiĠ
ĠĠĠ and
min ĠdeĠ
haiĠ ziĠ
ĠtongĠ changĠ
you ĠliĠ
ta ĠshiĠ
lan ĠkeĠ
shuĠ ziĠ
gengĠ mingĠweiĠ
xiang ĠyuĠ
qu ĠheĠ
chuang ĠliĠ
quan ĠshiĠ
fan ĠyiĠ
2024 ĠnianĠ
zongĠ duĠ
ĠĠĠ 2019
xu ĠshiĠ
duo ĠzhongĠ
fuĠ qin
zhuĠ yanĠ
ge ĠyouĠ
she ĠyuĠ
jiaĠ geĠ
chuĠ shenĠ
Ġ e
huoĠ dong
jiang ĠxiĠ
xin ĠshiĠ
bo ĠdeĠ
hu ĠshiĠ
Ġ dai
Ġ zaiĠyiĠ
ming ĠyuĠ
jiangĠ xiangĠ
banĠ gongĠshiĠ
dan ĠdeĠ
sun ĠshiĠ
shouĠ ruĠ
lin ĠdeĠ
ĠzhongĠ yaoĠ
juĠ xingĠdeĠ
Ġ suoĠyouĠ
ĠĠĠ wuĠ
C Ġ
dui ĠyiĠ
jingĠ chaĠ
sa ĠkeĠ
jieĠ jinĠ
ĠweiĠ lianĠ
ĠjiĠ benĠ
jie ĠweiĠ
jie ĠyuĠ
ka ĠsiĠ
ĠĠĠ xiaĠ
guanĠ dianĠ
Ġ pei
Ġ laoĠ
ĠdeĠyiĠ zuoĠ
ĠĠĠ 2018
1999 ĠnianĠ
ĠliĠ heĠ
ĠĠĠ R
jiang ĠdiĠ
shaoĠ shuĠ
wenĠ zhangĠ
kan ĠdaoĠ
ĠjiĠ zheĠ
lunĠ dunĠ
tou ĠxiangĠ
huiĠ shangĠ
luĠdiĠ mianĠjiĠweiĠ
ĠĠĠ geĠ
amp Ġ
shuiĠyuĠ mianĠjiĠweiĠ
Ġ han
jieĠ quanĠguoĠ
ĠdaĠ quĠ
wenĠ ziĠ
zhan ĠjiĠ
xingĠ jianĠ
ĠdeĠdiĠ quĠ
sang Ġ
Ġ zhuan
aoĠ menĠ
zai ĠzhiĠ
wen ĠyiĠ
Ġ cheĠzhanĠ
zhang ĠshiĠ
kang ĠyiĠ
leng Ġ
xiĠ beiĠ
haiĠ anĠ
ruĠ kouĠ
wai ĠguoĠ
wen ĠdeĠ
chuĠ shengĠ
jiaoĠ liuĠ
Ġ xiongĠ
ĠĠĠ keĠ
ming ĠdiĠ
24 Ġ
ĠjiĠ tuan
xingĠ xingĠ
xi ĠzhiĠ
zhenĠ duiĠ
tiaoĠ zhengĠ
Ġ pa
xin ĠrenĠ
du ĠyuĠ
tianĠ jinĠ
Ġ ampĠ
ĠĠĠ 2022
cuo ĠshiĠ
zhangĠ keĠdaĠ
Ġxian ĠzaiĠ
fang ĠzaiĠ
poĠ huaiĠ
jun ĠdiĠ
tiĠ mingĠ
xuanĠ ze
ĠdangĠzhongĠ luĠdiĠmianĠjiĠweiĠ
ĠerĠ shuiĠyuĠmianĠjiĠweiĠ
1998 ĠnianĠ
rong ĠyiĠ
chuĠ faĠ
ĠbeiĠ erĠ
zao ĠyuĠ
jingĠ dianĠ
chi ĠdeĠ
ba ĠxiĠ
Ġ juĠliĠ
Ġ haiĠyouĠ
guang ĠxiĠ
yu ĠĠĠ
luo ĠdiĠ
gou ĠchengĠ
bianĠ jieĠ
Ġ jiĠshiĠ
ou ĠyuanĠ
xian ĠyouĠ
xianĠ changĠ
ĠxiangĠ gang
xi ĠyiĠ
shan ĠjiĠ
taiĠ yangĠ
fu ĠjiĠ
dao ĠjiĠ
ĠfaĠ xianĠ
ĠdeĠzhiĠ chiĠ
Ġyue ĠyouĠ
Ġ V
ming ĠzhiĠ
siĠ chuanĠ
yueĠ taiĠ
ĠĠĠxingĠzhengĠ quĠhuaĠ
Ġ ao
ĠyuĠ ciĠ
ĠzaiĠ zheĠ
duiĠ wuĠ
teng Ġ
touĠ ruĠ
cunĠ zhuangĠ
Ġ jingĠguoĠ
Ġcong ĠerĠ
P Ġ
da ĠzhongĠ
keng Ġ
ha ĠerĠ
ĠnianĠ beiĠ
Ġfen ĠzhongĠ
Ġ shou
you ĠweiĠ
cun ĠdeĠ
Ġ saĠ
dengĠ luĠ
Ġ 9ĠyueĠ
Ġ hou
da ĠzhiĠ
touĠ piaoĠ
ĠshiĠ liĠ
geĠ leiĠ
yuanĠ huiĠ
chang ĠyiĠ
Ġyue ĠweiĠ
ĠĠĠ 2017
ĠzhiĠ xiaĠ
gongĠ minĠ
yinĠ faĠ
biĠ yeĠyuĠ
jian ĠzhongĠ
zhang ĠyuĠ
nuo ĠweiĠ
on Ġ
tuĠerĠ qiĠ
jia ĠyuĠ
fang ĠweiĠ
tu ĠdeĠ
tui ĠdongĠ
ĠshiĠ zhongĠguoĠ
gong ĠyuĠ
ge ĠyiĠ
zhan ĠdiĠ
hun ĠheĠ
ĠrenĠ menĠ
juĠ zhuĠ
baoĠ liuĠ
qianĠ shuĠ
jinĠ ru
wenĠ dingĠ
haiĠ daoĠ
leĠ siĠ
ganĠ ran
shu ĠheĠ
biĠ saiĠzhongĠ
ĠtiĠ zhangĠkeĠdaĠ
Ġ formulaĠ
er ĠrenĠ
S Ġ
ĠzaiĠ beiĠ
ziĠ ranĠ
xi ĠzhongĠ
ĠbuĠ fen
daĠ fuĠ
2 ĠnianĠ
Ġ 7ĠyueĠ
ĠĠĠ O
wu ĠyuĠ
zi ĠliĠ
nanĠ beiĠ
jun ĠyiĠ
ĠĠĠ 18
piĠ zhunĠ
yongĠ huĠ
ke ĠyuĠ
chu ĠjiĠ
qiĠ ziĠ
ĠweiĠfuĠ qiĠyuĠ
heng ĠliĠ
fangĠ wenĠ
zhuang ĠjiaĠ
tiĠ gaoĠ
Ġyou ĠjiĠ
ĠwoĠ menĠ
di ĠjiĠ
ma ĠkeĠ
ĠshiĠ quĠ
chengĠ zuoĠ
ĠĠĠ 2016
er ĠyuĠ
jian ĠheĠ
ang Ġ
ĠyiĠ daĠliĠ
ĠyinĠ duĠ
xunĠ suĠ
benĠ tuĠ
Ġ bian
ziĠ jinĠ
houĠ xuanĠrenĠ
xinĠ haoĠ
zhan ĠzhongĠ
Ġ an
xiao ĠliĠ
wei ĠĠĠ
xianĠ luĠ
pinĠ paiĠ
mo ĠerĠ
jinĠ shuĠ
ci ĠweiĠ
ĠnianĠ heĠ
jieĠshuĠ houĠ
Ġ 12ĠyueĠ
geĠ geĠ
Ġta ĠyiĠ
guangĠ fanĠ
E Ġ
xin ĠyiĠ
zhuĠ mingĠdeĠ
zhong ĠliĠ
shang ĠrenĠ
yong ĠyiĠ
xianĠ houĠ
zuiĠ chuĠ
yingĠ pianĠ
zhuĠ mingĠ
ceng ĠyuĠ
mouĠ xieĠ
Ġ xiuĠ
cheng ĠzhiĠ
Ġ biaoĠ
Ġ 11ĠyueĠ
ĠdeĠyiĠ zhiĠ
c Ġ
Ġ tingĠ
wu ĠweiĠ
jianĠ zaoĠ
jian ĠzaiĠ
jie ĠyouĠ
lingĠ waiĠ
ĠdeĠshiĠ quĠweiĠ
chuĠ zhanĠ
xiaĠ laiĠ
ĠĠĠdeĠ shiĠ
ĠzhiĠ nengĠ
xueĠ huiĠ
Ġ hai
Ġ hong
buĠ tongĠdeĠ
Ġbing ĠyiĠ
Ġ tw
heĠ zuoĠ
jiangĠ suĠ
sa ĠerĠ
ĠzhongĠguoĠ gongĠchanĠdangĠ
buĠ duiĠ
ĠjiaĠ shangĠ
fen ĠzhongĠ
dang ĠshiĠdeĠ
shuiĠ pingĠ
zhu ĠbuĠ
shan ĠdaĠ
Ġ 21Ġ
hans Ġ
ĠĠĠ erĠ
bo ĠerĠ
Ġ hansĠ
ke ĠheĠ
ĠdiĠ qu
ĠĠĠ li
mei ĠnianĠ
xuĠ qiuĠ
ĠjiĠ chengĠ
jianĠ shaoĠ
teĠ shuĠ
Ġtw Ġ
daĠ chengĠ
x Ġ
shan ĠdeĠ
jiaĠ zuĠ
Ġ 2011
ĠzheĠ xie
lv ĠweiĠ
ĠrenĠ leiĠ
paiĠ chuĠ
Ġ zhongĠdeĠ
ĠĠĠ qingĠ
xiaoĠ shuo
aoĠ daĠliĠyaĠ
Ġri ĠyuĠ
nan ĠyiĠ
jieĠ rangĠ
gongĠ changĠ
siĠ keĠ
ĠdanĠ taĠ
ĠchengĠ yuanĠ
chang ĠheĠ
jieĠ keĠ
ziĠ xunĠ
ĠjiĠ guanĠ
jueĠ ding
ĠzaiĠ zhongĠguoĠ
sheĠhuiĠ zhuĠyiĠ
ĠĠĠ 2023
ĠyuĠ renĠ
zhu ĠyouĠ
M Ġ
ĠĠĠ W
zhuang ĠzhiĠ
faĠ chuĠ
ĠxiĠ baoĠ
jingĠ yanĠ
Ġ 2010ĠnianĠ
ĠĠĠ 2014
wa ĠerĠ
ĠjiĠ renĠ
yinĠ suĠ
suo ĠdeĠ
reng Ġ
ĠjieĠ muĠ
ti ĠshiĠ
1997 ĠnianĠ
yingĠ wenĠ
lu ĠzhiĠ
ĠhouĠ lai
Ġ eĠluoĠsiĠ
bei ĠzhiĠ
ĠxuĠ duoĠ
ĠĠĠ yuanĠ
tu ĠzhongĠ
kong ĠzhongĠ
chuĠ shengĠyuĠ
sui ĠdaoĠ
hua ĠheĠ
sha ĠsiĠ
yong ĠshiĠ
lingĠ tuĠ
meiĠ geĠ
Ġ Î
ĠĠĠ yuĠshiĠdeĠrenĠkouĠshuĠliangĠweiĠrenĠ
ĠĠĠ suoĠshuĠdeĠshengĠjiĠxuanĠquĠweiĠ
minĠ jianĠ
ĠĠĠdeĠ youĠzhengĠbianĠmaĠweiĠ
ĠĠĠyuĠ jieĠrangĠdeĠshiĠzhenĠ
ĠĠĠdeĠshiĠ quĠweiĠ
3 ĠnianĠ
geng ĠjiaĠ
ĠguoĠ chengĠ
xiangĠ siĠ
Ġ 2019
Ġ jingĠjiĠ
ĠĠĠ 2015
Ġ menĠ
zeng ĠzhangĠ
nan ĠdeĠ
ĠzaiĠ daĠ
keĠ chengĠ
jiang ĠdeĠ
kongĠ junĠ
huiĠ yingĠ
ĠfaĠ xingĠ
Ġ 2009ĠnianĠ
le ĠshiĠ
ĠĠĠ V
er ĠyiĠ
guĠ wenĠ
ĠheĠ xiĠ
ĠtaĠ yeĠ
ci ĠyiĠ
guangĠ gaoĠ
te ĠerĠ
ĠshiĠ meiĠguoĠ
1996 ĠnianĠ
Ġ hk
zhou ĠfuĠ
ĠshengĠ huo
Ġ wang
ti ĠyiĠ
ĠjiĠ youĠ
ĠdiĠ daĠ
jueĠ se
anĠ paiĠ
xianĠ xingĠ
guanĠ biĠ
ĠbingĠ jiangĠ
chao ĠshiĠ
zong ĠbuĠ
hanĠ shuĠ
ĠĠĠ 2013
tiĠ shengĠ
feiĠ jianĠzhiĠ
woĠ menĠ
ĠĠĠ xinĠ
fang ĠbuĠ
da ĠyuĠ
xu ĠkeĠ
Ġ zhuangĠ
lang ĠdeĠ
zhengĠfu ĠdeĠ
minĠzhuĠ dangĠ
Ġ 6ĠyueĠ
zhuang ĠshiĠ
jiaĠ ru
Ġbing ĠyouĠ
quanĠ mianĠ
Ġhk Ġ
banĠ gongĠ
ĠdeĠguoĠ jiaĠ
jun ĠjiĠ
xingĠ taiĠ
cheĠ zhan
ĠerĠ gaiĠ
Ġ feng
Ġ zhiĠshiĠ
ĠheĠ erĠ
bao ĠliĠ
diĠ guoĠ
jieĠ gou
tian ĠdeĠ
dui ĠshiĠ
shanĠ mai
ju ĠbuĠ
ling ĠdeĠ
fo Ġ
rui ĠdianĠ
dang ĠyuĠ
luo ĠkeĠ
I Ġ
wei ĠyiĠgeĠ
junĠ gongĠ
dang ĠzhongĠ
weiĠ zhiĠ
tuĠ shuĠguanĠ
neiĠ luĠ
hua ĠzhongĠ
zhuan ĠjiaĠ
ĠjiĠ nianĠ
chengĠ xuĠ
ĠyueĠ taiĠ
Ġ Ã
Ġ laiĠziĠ
huiĠ beiĠ
seĠ lieĠ
shan ĠshiĠ
yunĠ xuĠ
4 ĠnianĠ
le ĠĠĠ
bingĠ meiĠyouĠ
jiuĠ dianĠ
ge ĠzhiĠ
ĠkeĠ xueĠ
Ġ 20
ĠĠĠ xiangĠ
ĠqiĠ zhongĠyiĠ
1992 ĠnianĠ
siĠ xiangĠ
feiĠjianĠzhiĠ diĠquĠ
Ġ 5ĠyueĠ
dai ĠyouĠ
zuĠ chengĠdeĠ
ba ĠweiĠ
faĠ lv
ĠxiĠ jieĠ
dianĠ nao
jingĠ zhengĠ
sanĠ jiaoĠ
Ġ maoĠ
ĠyiĠ jiaĠ
guo ĠweiĠ
xunĠ huiĠ
jinĠ paiĠ
chang ĠyuĠ
tan ĠkeĠ
ĠliĠ buĠ
ĠyouĠ qiĠshiĠ
muĠ qinĠ
tong ĠyuĠ
bing ĠshiĠ
huanĠ yingĠ
Ġ 2018
ma ĠerĠ
xiaĠ jiangĠ
moĠxiĠ geĠ
geĠ lan
Ġ zhengĠfuĠ
yanĠjiuĠ yuanĠ
shuĠ xueĠ
jiu ĠdeĠ
zhuan ĠyiĠ
neiĠ geĠ
ĠshiĠjieĠ beiĠ
ĠliĠ ya
gongĠ siĠdeĠ
hua ĠrenĠ
ĠgongĠ zuoĠ
Ġ qian
jun ĠyouĠ
jiu ĠzhiĠ
ĠheĠ diĠ
mingĠ mingĠweiĠ
ĠĠĠjiaĠ zuĠ
ĠjiĠ chuĠ
shengĠ zhangĠ
laiĠ daoĠ
deng ĠweiĠ
ĠdiĠ xiaĠ
beiĠrenĠ weiĠshiĠ
yingĠ yunĠ
xiu ĠgaiĠ
mingĠ lingĠ
shuo ĠmingĠ
que ĠfaĠ
huiĠ zhangĠ
Ġ chuĠyuĠ
yongĠ laiĠ
Ġwan ĠrenĠ
Ġ lieĠ
Ġ na
hu ĠdeĠ
dui ĠqiĠ
ruan Ġ
ĠĠĠ J
ziĠ muĠ
shouĠ fuĠ
Ġ chaĠ
dai ĠliĠ
ĠdanĠ youĠyuĠ
wen ĠshiĠ
ĠbuĠ tongĠdeĠ
ĠĠĠ zhĠ
maoĠ qiuĠ
Ġ minĠguoĠ
ĠzaiĠ meiĠguoĠ
ĠshiĠyiĠ ge
ĠdeĠdiĠ erĠ
ĠweiĠ weiĠ
zhu ĠjiĠ
Ġ rangĠ
gongĠ juĠ
shi ĠĠĠ
ta ĠyuĠ
chengĠweiĠ leĠ
Ġ 4ĠyueĠ
liao ĠjieĠ
ĠtaĠ beiĠ
que ĠrenĠ
15 Ġ
yeĠ beiĠ
Ġyin ĠyueĠ
yin ĠdeĠ
chang ĠdiĠ
faĠ anĠ
feiĠ lvĠ
Ġ xuanĠbuĠ
juĠ zhangĠ
ĠĠĠ jieĠzhiĠ
caiĠ quĠ
shenĠ tiĠ
beiĠ erĠ
changĠ pianĠ
ĠtaĠ haiĠ
ĠshangĠ haiĠ
ĠzhongĠguoĠ renĠminĠ
Ġ TheĠĠĠ
cheĠ xiaoĠ
shou ĠzhongĠ
canĠjiaĠ leĠ
Ġ kangĠ
on ĠĠĠ
1995 ĠnianĠ
Ġ 2016
Ġ kuanĠ
boĠ fangĠ
chanĠ pin
ĠerĠ fuĠ
jiaoĠ lianĠ
xie ĠrenĠ
che ĠdeĠ
zhuĠ zuoĠ
banĠ faĠ
chuanĠ boĠ
fu ĠyouĠ
su ĠweiĠ
Ġ 23
ĠyiĠ juĠ
ĠyiĠ nianĠ
zhe ĠliĠ
ma ĠsiĠ
1994 ĠnianĠ
ĠweiĠ renĠ
Ġ quanĠguoĠ
ĠĠĠ zhongĠguoĠ
sui ĠjiĠ
ĠliĠ ru
tieĠ lu
dian ĠqiĠ
liang ĠshiĠ
qiuĠ huiĠ
ĠweiĠyuanĠ hui
ma ĠdeĠ
ĠqiĠ laiĠ
faĠ dianĠ
wangĠ qiuĠ
ze ĠyouĠ
baiĠ seĠ
ĠshiĠyiĠ nianĠ
yueĠ hanĠ
ju ĠheĠ
gu ĠdeĠ
tai ĠjiĠ
jieĠ hunĠ
huaĠ yuanĠ
shenĠ jingĠ
chuĠ xiĠ
zhanĠ taiĠ
wanĠ shangĠ
m ĠĠĠ
ĠdiĠ tieĠ
ling ĠbuĠ
ĠzhiĠ diĠ
ĠyouĠ xieĠ
ĠyiĠ zaiĠ
ziĠ zhuĠ
Ġ queĠ
ye ĠheĠ
huaĠ shengĠ
ĠxingĠ dongĠ
zuĠ jianĠ
ĠweiĠ nengĠ
chanĠ shengĠdeĠ
ĠrenĠminĠ zhengĠfuĠ
liang ĠrenĠ
ĠyouĠ xiaoĠ
lingĠ xianĠ
zhaoĠ kaiĠ
2020ĠnianĠ meiĠguoĠrenĠkouĠpuĠchaĠdeĠshuĠjuĠ
maĠlai ĠxiĠyaĠ
xue ĠheĠ
leĠ taĠ
huoĠ jianĠ
chao ĠdeĠ
ĠerĠ buĠ
tongĠ cheĠ
yanĠchangĠ huiĠ
Ġ ka
xu ĠliĠyaĠ
chang ĠzaiĠ
yaoĠ wuĠ
qin ĠshiĠ
R Ġ
ti ĠzhongĠ
ruĠ xuanĠ
Ġ sheĠjiĠ
Ġ caoĠ
kuo ĠdaĠ
ĠzaiĠ xiĠ
ĠxiĠ laĠ
lieĠ biaoĠ
Ġ daiĠbiaoĠ
chuĠ xianĠzaiĠ
yinĠ du
Ġ yingĠyuĠ
ĠĠĠ nian
ĠĠĠ 2025
to ĠĠĠ
ĠliĠ shuĠ
geĠ daĠ
geĠ erĠ
xueĠ xiao
xiangĠ xiĠ
ĠĠĠ 2024
ĠgongĠ chengĠ
xin ĠjiĠ
ĠfuĠ jinĠ
ĠĠĠ qianĠ
ĠdaĠ buĠfenĠ
shanĠxiĠ shengĠ
xing ĠzhongĠ
dai ĠbuĠ
gua Ġ
tai ĠshiĠ
siĠ teĠ
changĠ pian
kong ĠbuĠ
ĠshiĠdeĠ yiĠ
Ġ taoĠ
ĠzhiĠ duĠ
huĠ beiĠ
lv ĠxingĠ
tuo ĠliĠ
gongĠ huiĠ
shen ĠshiĠ
cheng ĠliĠdeĠ
daĠ buĠfenĠ
ĠweiĠ liĠ
aoĠ diĠliĠ
guiĠ zeĠ
Ġliang ĠrenĠ
daĠ luĠdeĠ
shangĠ hai
lao ĠdongĠ
1991 ĠnianĠ
ĠyiĠ tongĠ
zhouĠ bianĠ
jing ĠyuĠ
zhuang ĠdeĠ
pei ĠyinĠ
cu ĠjinĠ
tong ĠbuĠ
Ġ qiaoĠ
xingĠ xiangĠ
ci ĠzaiĠ
fen ĠliĠ
zhuangĠ kuangĠ
ĠliĠshiĠ shangĠ
wan ĠrenĠ
ĠC Ġ
long ĠdeĠ
suan ĠjiĠ
xingĠ quĠ
ĠmingĠ chaoĠzhengĠzhiĠrenĠwuĠ
Ġ lu
wuĠkeĠ lan
jin ĠbuĠ
bao ĠshiĠ
daiĠbiao ĠdaĠhuiĠ
wu ĠheĠ
ze ĠweiĠ
ĠzhiĠ ziĠ
nan ĠshiĠ
pei ĠheĠ
zhuĠ changĠ
ĠzheĠ jiangĠ
ping ĠweiĠ
teĠ seĠ
suiĠ houĠ
xiaĠjiĠ aoĠlinĠpiĠkeĠyunĠdongĠhuiĠ
22 Ġ
jiaoĠ xueĠ
D Ġ
ĠjiĠ erĠ
xie ĠshiĠ
puĠ bianĠ
da ĠheĠ
zhe ĠzaiĠ
b Ġ
piaoĠ fangĠ
ĠĠĠ a
la ĠjiĠ
ĠshiĠ tuĠ
Ġ 3ĠyueĠ
wenĠ xianĠ
luo ĠjiĠ
feiĠ zhouĠ
Ġ yaoĠqiuĠ
ĠĠĠ xiaoĠ
lian ĠrenĠ
zhuan ĠxiangĠ
ĠxiĠ juĠ
sa ĠsiĠ
25 Ġ
ĠweiĠ heĠ
anĠ quan
Ġ 2011ĠnianĠ
dao ĠzhongĠ
i Ġ
ĠfuĠ jianĠ
sheĠ jiĠdeĠ
kaoĠ lvĠ
wangĠ chaoĠ
te ĠĠĠ
jie ĠrenĠ
mingĠ xianĠ
ĠweiĠ wuĠ
Ġ panĠ
zhuĠ zhangĠ
gong ĠzhiĠ
16 Ġ
ĠbuĠ keĠ
ĠxiĠ buĠ
zheng ĠheĠ
tongĠ daoĠ
Ġ sun
ĠweiĠ xingĠ
xu ĠzaiĠ
biaoĠ mianĠ
Ġ mai
Ġ nvĠxingĠ
Ġ nai
ĠĠĠ guoĠ
kou ĠweiĠ
meiĠ guoĠdeĠ
lingĠ daoĠrenĠ
biĠ sai
hu ĠyuĠ
ĠweiĠ laiĠ
qiĠzhongĠyiĠ zhongĠ
Ġ 2021
zhao ĠdaoĠ
siĠ lingĠ
hongĠ seĠ
1993 ĠnianĠ
jingĠ cha
fangĠ wuĠ
Ġ sĠĠĠ
1988 ĠnianĠ
ĠliĠ miĠ
Ġ jiaoĠyuĠ
ĠyuĠ leĠ
yuanĠ gongĠ
zuiĠ hou
1Ġ haoĠ
ĠshiĠweiĠ leĠ
ĠdeĠzhiĠ wuĠ
ĠĠĠ congĠ
hun ĠyinĠ
yunĠ dong
caiĠ liaoĠ
ĠchengĠ gongĠ
ĠweiĠ huiĠ
ĠxiĠ ya
ĠjiĠ huiĠ
Ġ2001ĠnianĠ renĠkouĠ
dongĠ nanĠbuĠ
ĠyouĠ buĠ
dongĠ beiĠbuĠ
Ġ 2015
hua ĠjiĠ
fenĠ buĠyuĠ
jun ĠyuĠ
shou ĠzhiĠ
bian ĠshiĠ
yingĠ gaiĠ
ĠxingĠ qiĠ
fu ĠzaiĠ
ti ĠzhiĠ
ĠnianĠ qianĠ
ĠĠĠ 2012
ĠrenĠ shuĠ
daĠ chenĠ
bao ĠzhiĠ
siĠ geĠ
feiĠ chuĠ
Ġ hanĠguoĠ
Ġ 2005ĠnianĠ
jin ĠyouĠ
dianĠ huaĠ
ĠtiĠ gongĠ
Ġ tuiĠ
ge ĠheĠ
ĠbuĠ menĠ
bao ĠyuĠ
ĠyiĠ ban
Ġ Ma
ruan ĠjianĠ
sao Ġ
yuanĠ xingĠ
Ġ guanĠyuĠ
wuĠ taiĠ
Ġ zhong
ling ĠdiĠ
chi ĠyouĠ
duiĠ zhangĠ
tui ĠjinĠ
zhuĠ jueĠ
gengĠ duoĠ
Ġyin ĠerĠ
faĠxianĠ leĠ
Ġsui ĠdeĠ
Ġ quan
chuĠ laiĠ
tiĠ daoĠ
yongĠ zuoĠ
suo ĠzaiĠ
zhengĠ changĠ
jue ĠshiĠ
ĠnianĠ diĠ
wuĠ zhuangĠ
guoĠjiĠ jiĠ
r ĠĠĠ
mei ĠdeĠ
yaĠliĠ shanĠdaĠ
ben ĠdiĠ
bian ĠxingĠ
ĠdaĠ chengĠ
gui ĠdeĠ
ĠĠĠand ĠĠĠ
ĠerĠshuiĠyuĠmianĠjiĠweiĠ 0
riĠ junĠ
o Ġ
Ġ zaoĠchengĠ
yin ĠdiĠ
jiao ĠyouĠ
douĠ huiĠ
bo ĠsiĠ
poĠ huai
tai ĠrenĠ
dongĠ fangĠ
tongĠ yangĠ
jiao ĠdaĠ
huoĠ zheĠ
ĠpingĠfangĠ miĠ
ĠzaiĠ jiaĠ
ĠdaĠ liangĠ
haiĠ waiĠ
mingĠ xingĠ
tuan ĠdeĠ
qingĠ baoĠ
anĠ huiĠ
caoĠ zuoĠ
nei ĠyouĠ
duiĠ waiĠ
qianĠ wang
jieĠ shaoĠ
Ġsui ĠzheĠ
Ġ U
Ġ reng
Ġ 2017
jieĠ mu
yeĠ huiĠ
xia ĠyouĠ
ĠheĠ pingĠ
ĠerĠ gaiĠdiĠ
canĠ mou
Ġ 2020
Ġ 2014
ĠĠĠ zaoĠnianĠ
xiang ĠyiĠ
yongĠ tuĠ
7 ĠnianĠ
Ġ 2013
qiang ĠdeĠ
ĠyuĠ heĠ
chuĠ kouĠ
ĠyiĠ duĠ
ĠzhiĠ dingĠ
Ġ dou
gaiĠ shanĠ
aoĠyunĠ huiĠ
biao ĠdeĠ
la ĠheĠ
ĠxiĠ tong
ĠdeĠshiĠ jieĠ
gao ĠjiaĠ
xiĠ nanĠ
ĠyueĠ nanĠ
duiĠ xiangĠ
san ĠjiĠ
xianĠ jinĠ
yanĠ shenĠ
zuoĠ quĠ
queĠzhenĠ bingĠliĠ
dun ĠdeĠ
ĠjiaĠ naĠdaĠ
ĠbaoĠ hanĠ
mei ĠliĠ
ĠshiĠ daĠ
leĠ daĠ
xiaoĠ quĠ
junĠ quĠ
dengĠ shangĠ
zhengĠ tiĠ
Ġ xiu
Ġ shengĠyuĠ
jia ĠzaiĠ
chang ĠyouĠ
leĠ taĠdeĠ
xiaĠ xiaĠdeĠyiĠgeĠ
longĠ jiangĠ
duo ĠrenĠ
geĠ lunĠ
Ġye ĠyouĠ
jue ĠyiĠ
shuĠ ruĠ
haiĠ xiaĠ
guan ĠshiĠ
sui ĠzhuĠ
nie Ġ
Ġxian ĠrenĠ
5 ĠnianĠ
yun ĠshiĠ
ĠqiĠ zaiĠ
yunĠ zuoĠ
k ĠĠĠ
19 ĠshiĠjiĠ
Ġri ĠdeĠ
gaoĠsuĠ gongĠluĠ
ju ĠyiĠ
gouĠ zaoĠ
13 Ġ
ĠweiĠ keĠ
banĠshiĠ chuĠ
ĠerĠ yanĠ
Ġnan ĠzhiĠ
zhan ĠzhiĠ
liu ĠzaiĠ
ĠĠĠ zengĠ
zuo ĠrenĠ
faĠ shouĠ
dianĠ cheĠ
Ġ dianĠyingĠ
kang ĠriĠ
1990 ĠnianĠ
shuĠ yuanĠ
Ġ saiĠjiĠ
jia ĠyouĠ
du ĠheĠ
fei ĠliĠ
junĠ guanĠ
miĠ miĠ
kaiĠ zhanĠ
ĠshiĠwuĠ keĠ
renĠ daĠ
ĠzhongĠ zaiĠ
Ġ 100
shang ĠyuĠ
re ĠĠĠ
bin ĠhaiĠ
ĠdongĠ linĠ
Ġ 2010
Ġ Ñ
Ġ shaoĠ
jiangĠ huiĠ
xiaĠ ling
liangĠ ciĠ
tian ĠshiĠ
chuang ĠjianĠ
lingĠ xiuĠ
ĠwanĠ meiĠyuanĠ
zhuang ĠbeiĠ
ĠnianĠ laiĠ
dongĠ zuoĠ
Ġ niu
chuan ĠzhiĠ
chai ĠchuĠ
senĠ linĠ
an ĠdaĠ
shou ĠyiĠ
ĠqiĠ xiangĠ
shouĠ zhangĠ
ĠtaiĠ wan
caiĠ zhengĠ
ya ĠkeĠ
biĠ mianĠ
touĠ piao
3 ĠgeĠ
gu ĠliĠ
ĠqiĠ ziĠ
shenĠ me
shanĠ quĠ
2 ĠrenĠ
Ġ zhengĠzhiĠ
Ġ chengĠliĠ
huiĠ yuanĠ
ĠĠĠ siĠ
Ġ jianĠyuĠ
bei ĠshiĠweiĠ
ĠjuĠ xingĠ
tu ĠxingĠ
qin ĠziĠ
ĠerĠ tongĠ
juĠ qingĠ
shouĠ luĠ
kaĠ luoĠ
Ġ qi
Ġ po
ĠnianĠ1ĠyueĠ 1ĠriĠ
Ġ hengĠ
wuĠ siĠ
ĠtaiĠ yangĠ
deng ĠdeĠ
zuiĠ gao
hou ĠshiĠ
zhe ĠbuĠ
waiĠ jiaoĠbuĠ
ĠyiĠ meiĠyuanĠ
liu ĠdeĠ
ĠsiĠ lingĠ
ceĠ liangĠ
1989 ĠnianĠ
jingĠ xuanĠ
ĠmeiĠ geĠ
hui ĠzhongĠ
zhangĠ guanĠ
fanĠ zuiĠ
ĠjieĠ shouĠ
3 ĠrenĠ
ban ĠliĠ
Ġ 2007ĠnianĠ
ĠĠĠ dangĠ
fu ĠweiĠ
suo ĠshiĠ
bingĠ ruĠ
Ġ huan
si ĠyiĠ
ming ĠzhongĠ
ĠyouĠ keĠ
xiangĠ zhengĠ
ĠerĠ ziĠ
e ĠĠĠ
shou ĠxiĠ
geng ĠweiĠ
daiĠ laiĠ
baoĠ shouĠ
ĠdongĠ beiĠ
fanĠweiĠ neiĠ
pian ĠdeĠ
mian ĠshiĠ
meng ĠdeĠ
guoĠ wangĠ
taiĠ fengĠ
ri ĠzhiĠ
ĠerĠ chengĠ
huĠ nanĠ
Ġ 2008ĠnianĠ
ĠqiĠ xiaĠ
chuĠ daoĠ
zun Ġ
ĠzaiĠ duĠ
Ġ sheĠhuiĠ
ĠyiĠ houĠ
ĠjieĠ keĠ
ĠshengĠhuo ĠxiĠ
yan ĠxiĠ
fangĠ mianĠdeĠ
ren ĠliĠ
can ĠyiĠyuanĠ
kaiĠ tongĠ
taiĠ ziĠ
junĠ zhuĠ
qingĠ chuĠ
dingĠ juĠ
gongĠ zhuĠ
shengĠ yinĠ
Ġ sheĠyouĠ
hua ĠheĠwuĠ
zhan ĠqiĠjianĠ
Ġ 2012
Ġ yongĠyouĠ
jin ĠweiĠ
1984 ĠnianĠ
zhou ĠqiĠ
zu ĠfuĠ
jianĠ jieĠ
yingĠ yeĠ
ĠsiĠ wangĠ
liang ĠjiĠ
pi ĠfuĠ
fei ĠdeĠ
wai ĠbuĠ
xiangĠ huĠ
guanĠ chaĠ
xingĠbuĠ mingĠ
dui ĠyouĠ
zhuĠyao ĠdeĠ
lei ĠdaĠ
Ġ ni
ce ĠĠĠ
30 Ġ
du ĠliĠdeĠ
Ġ sha
zhuan ĠdeĠ
Ġ lao
lv ĠdeĠ
xiĠ juĠ
Ġ canĠjiaĠ
ĠĠĠ mingĠ
bing ĠdeĠ
jiang ĠjiĠ
maĠ laĠ
er ĠyueĠ
chang ĠzhiĠ
gouĠ maiĠ
ĠshengĠhuoĠxiĠ xingĠbuĠmingĠ
ĠyiĠ daiĠ
tian ĠqiĠ
Ġ juĠyouĠ
que ĠdeĠ
tongĠ paiĠ
xinĠ yangĠ
faĠ xingĠdeĠ
zuoĠ biaoĠweiĠ
jiangĠ lingĠ
touĠ luĠ
jiuĠ longĠ
anĠ zhuangĠ
ĠwuĠ faĠ
ĠĠĠ beiĠjingĠ
liangĠ xiangĠ
8 ĠnianĠ
jiaĠliĠ fuĠ
1 ĠnianĠ
xinĠ xingĠ
huoĠ shanĠ
zuĠ zhiĠdeĠ
keĠneng ĠshiĠ
jing ĠzhongĠ
cheng ĠheĠ
lu ĠjiĠ
guanĠ jianĠ
taiĠ beiĠshiĠ
jiuĠ duĠ
ĠĠĠciĠ waiĠ
Ġ dong
Ġnian ĠĠĠ
jieĠ sanĠ
ruĠ qinĠ
Ġ gongĠyouĠ
Ġ yongĠyuĠ
ĠĠĠ Ma
kong ĠqiĠ
ĠzaiĠ ci
Ġyue ĠzhongĠ
liang ĠzhiĠ
bai ĠrenĠ
fangĠ yanĠ
lunĠ wenĠ
Ġ xiao
er ĠzhiĠ
zhuĠ yiĠdeĠ
ĠzhongĠguoĠ daĠluĠ
Ġ zhongĠshiĠ
shang ĠbuĠ
zheĠ xie
chuanĠ shuoĠ
keĠyiĠ zaiĠ
1985 ĠnianĠ
kaoĠ guĠ
houĠ beiĠ
ĠchuĠ xianĠ
Ġ s
qu ĠjiĠ
fuĠ jinĠdeĠ
Ġ 2009
zhangĠ aiĠ
Ġ yang
Ġ cha
ai ĠjiĠ
chu ĠbuĠ
Ġyin ĠqiĠ
tong ĠnianĠ
man ĠdeĠ
jingĠ fangĠ
ĠshiĠshiĠ jieĠ
xinĠjiaĠ poĠ
1 ĠliĠ
mo ĠsiĠkeĠ
ĠĠĠjuĠ qingĠ
lian ĠzaiĠ
yuĠ yanĠ
ĠbiĠ ruĠ
ĠĠĠ I
cheng ĠnianĠ
kao ĠjinĠ
ming ĠrenĠ
qian ĠrenĠ
Ġ canĠyuĠ
ĠweiĠ ciĠ
zhanĠ tingĠ
guiĠ zuĠ
Ġ kai
Ġ duanĠ
Ġ diĠshiĠ
yunĠ nanĠ
zhongĠ dianĠ
zuoĠ zheĠ
guangĠdongĠ shengĠ
ĠshiĠ riĠbenĠ
muĠ qin
Ġ qiĠshiĠ
ĠsiĠ chuanĠ
ĠgongĠ tongĠ
Ġ 2008
quĠ leĠ
zhe ĠweiĠ
ĠguoĠ chengĠzhongĠ
baoĠ zhangĠ
taiĠ duĠ
suoĠ shuĠ
14 Ġ
ĠteĠbie ĠshiĠ
Ġ 1949
Ġ 2013ĠnianĠ
zhou ĠjiĠ
gao ĠdaĠ
ĠrenĠ mingĠ
ĠchuĠ shengĠyuĠ
ĠĠĠ ben
zong ĠshiĠ
ĠshiĠjiĠ shangĠ
yinĠ qingĠ
changĠ jianĠdeĠ
shuangĠ fangĠ
qu ĠyiĠhuiĠ
yin ĠheĠ
jiang ĠzaiĠ
ĠyouĠ ciĠ
quanĠ zhangĠ
ĠĠĠ Re
xunĠ yangĠ
faĠ huiĠ
ĠdiĠ wuĠ
yingĠ xiongĠ
Ġ 50
ĠĠĠ 3
hua ĠyiĠ
xiuĠ zhengĠ
1 ĠrenĠ
le ĠyuĠ
hua ĠzhiĠ
gan ĠbuĠ
ĠshiĠdeĠ guoĠ
fang ĠyiĠ
youĠ xianĠ
ĠqiĠ xiĠ
tiao ĠliĠ
chu ĠzaiĠ
xiangĠ guanĠdeĠ
cuo ĠwuĠ
ĠjiaĠ tingĠ
chuĠ yanĠ
ĠĠĠdiĠ fangĠ
ĠguoĠ huiĠ
bianĠ juĠ
Ġ cai
sui ĠshiĠ
ĠyiĠ xiaoĠshiĠ
Ġ zengĠ
shengĠ taiĠ
ĠbingĠ duĠ
ĠxueĠ xiaoĠ
shouĠ xiangĠ
4 ĠrenĠ
6 ĠnianĠ
wanĠ gongĠ
nengĠ liangĠ
taoĠ taiĠ
hu ĠbuĠ
ban ĠbuĠ
yuanĠ zeĠ
faĠ lanĠxiĠ
ĠwuĠkeĠ lanĠ
Ġ su
lao ĠdeĠ
ĠyueĠ tuanĠ
zhouĠ ciĠshiĠ
ĠĠĠ qiĠtaĠ
shu ĠliĠ
chu ĠzhiĠ
zui ĠyouĠ
feng ĠweiĠ
K Ġ
luĠ kouĠ
Ġ dui
luĠ yingĠ
qingĠ huaĠ
ĠpingĠ junĠ
w Ġ
ĠĠĠ diĠerĠ
guĠ fen
ĠwanĠ yuanĠ
keĠdeĠ qiĠzhongĠyiĠzhongĠ
ĠĠĠ meiĠguoĠ
hui ĠbuĠ
ĠweiĠ chiĠ
qingĠ qiuĠ
zhi ĠdeĠshiĠ
faĠ guanĠ
yaoĠ qiu
dangĠ diĠdeĠ
kaiĠ sheĠ
ĠĠĠ 2010
huan ĠchengĠ
18 Ġ
ĠzhongĠhuaĠrenĠminĠgongĠheĠguoĠ zhengĠzhiĠrenĠwuĠ
si ĠzhiĠ
ĠjiĠ nian
huoĠ xingĠ
gaiĠ chengĠ
ĠshiĠ yong
ĠheĠ xinĠ
ling ĠrenĠ
heĠ xinĠ
han ĠyuĠ
Ġ 2022
han ĠyouĠ
hen ĠdaĠ
ĠheĠ zhongĠ
meiĠ shuĠ
dao ĠbuĠ
zhuang ĠjiĠ
cui ĠhuiĠ
luĠ keĠ
ĠĠĠ danĠ
chengĠ keĠ
Ġwan ĠjiaĠ
ĠshiĠ geĠ
paiĠ mingĠdiĠ
ĠĠĠ 2011
xia ĠweiĠ
qiangĠ diaoĠ
Ġ 2006ĠnianĠ
en ĠshengĠ
dang ĠweiĠ
Ġ maiĠkeĠ
zheng ĠweiĠ
xiĠ laĠ
yaĠ junĠ
yuan ĠzhongĠ
bei ĠweiĠ
ĠyiĠ zuoĠ
zuiĠ gaoĠdeĠ
tianĠ jingĠ
niĠyaĠ zhouĠ
Ġ xiong
neng ĠzaiĠ
gongĠ yingĠ
canĠ kaoĠ
ĠnianĠ kaiĠshiĠ
xiaĠ quĠ
suoĠ chuĠdeĠ
ya ĠyiĠ
chengĠ benĠ
qingĠ xingĠ
dangĠ juĠ
tiĠyuĠ changĠ
Ġ henĠ
ĠĠĠ 17
suo ĠzhiĠ
xie ĠerĠ
shangĠ haiĠshiĠ
ĠĠĠ 2
sheng ĠyouĠ
ĠjiĠ buĠ
dengĠ dengĠ
tuĠ poĠ
ĠyeĠ jiuĠshiĠ
ĠA Ġ
ĠdaĠ duoĠ
teĠ dingĠ
kun ĠnanĠ
renĠ yuanĠ
xianĠ shengĠ
ĠdaĠ xingĠ
yinĠ ruĠ
aĠlaĠ boĠ
Ġ qing
ĠĠĠ 1Ġ
tai ĠzhongĠ
bai ĠdeĠ
xieĠ daoĠ
xiang ĠyouĠ
fou Ġ
ĠyiĠ fuĠ
Ġ meng
jing ĠzhiĠ
ĠjiĠ duĠ
keĠ xueĠyuanĠ
xiang ĠweiĠ
tan ĠdeĠ
shun ĠliĠ
huoĠ banĠ
fenĠbuĠ zaiĠ
Ġ wenĠhuaĠ
huan ĠdeĠ
xiu ĠfuĠ
st ĠĠĠ
ĠdaĠ fuĠ
laĠ dingĠ
Ġsui ĠzhuĠ
xiĠ baoĠ
zhanĠ xianĠ
cheng ĠguoĠ
le ĠqiĠ
jun ĠzhiĠ
ĠxiĠbanĠ yaĠ
lai ĠshiĠ
daĠ huiĠ
Ġxiang ĠnianĠ
G Ġ
wangĠ yuanĠ
4 ĠgeĠ
ĠxiĠ erĠ
ruĠ qin
ĠĠĠ aĠ
ĠbuĠ jinĠ
ĠkeĠ erĠ
Ġ 2012ĠnianĠ
wuĠ ziĠ
ke ĠyouĠ
duo ĠweiĠ
chuan ĠdeĠ
haiĠ yangĠ
jing ĠheĠ
xiaoĠ yuanĠ
kaiĠ fa
zhongĠguoĠ daĠluĠdeĠ
haiĠ pingĠmianĠ
gai ĠshiĠ
suo ĠweiĠ
xiu ĠjianĠ
shengĠ chuĠ
ĠtaĠcengĠ daiĠbiaoĠ
ganĠran ĠzheĠ
ĠĠĠ yinĠ
ze ĠzaiĠ
ĠheĠ lanĠ
tongĠ mengĠ
qiangĠ lieĠ
heiĠ seĠ
shouĠ gouĠ
ĠriĠ junĠ
hongĠ zha
xue ĠyuĠ
lai ĠyueĠ
1980 ĠnianĠ
Ġzu ĠfuĠ
Ġ00 Ġ
ciĠshiĠjieĠdaĠ zhanĠ
jia ĠweiĠ
le ĠzaiĠ
tai ĠyuĠ
zui ĠweiĠ
zhaoĠ pianĠ
li ĠyuĠ
yin ĠliĠ
chui Ġ
yaĠ meiĠ
zhou ĠzhiĠ
zhen ĠyuĠ
jing ĠyiĠ
guĠ daiĠ
manĠ zuĠ
geiĠ leĠ
zhu ĠzhiĠ
jiang ĠzhiĠ
zu ĠyiĠ
huang ĠhouĠ
1986 ĠnianĠ
renĠ leiĠ
dangĠ yuanĠ
ĠtongĠshiĠ gaiĠdiĠ
bei ĠyuĠ
zhang ĠweiĠ
te ĠxingĠ
daĠ jiangĠ
ĠdeĠjiĠ chuĠ
ĠguangĠ dongĠ
hou ĠweiĠ
ding ĠqiĠ
Ġ liaoĠ
zuĠqiuĠ yunĠdongĠyuanĠ
boĠshiĠ xueĠweiĠ
qiang ĠzhiĠ
beng Ġ
beiĠ jingĠshiĠ
shangĠ changĠ
nongĠ minĠ
neiĠluĠ shengĠfenĠ
Ġ kuĠ
xiang ĠheĠ
jiao ĠzhiĠ
liang ĠguoĠ
chengĠ baoĠ
jiuĠ huiĠ
benĠ shenĠ
cheng ĠshiĠdeĠ
zhen ĠjiĠ
keĠ fuĠ
Ġa ĠerĠ
chu ĠyouĠ
ĠhuoĠ zheĠ
h Ġ
bang ĠdeĠ
L Ġ
ĠzhongĠ ziĠ
xunĠ zhangĠ
chuangĠ banĠ
xiaĠling ĠshiĠjianĠ
Ġ pu
tong ĠweiĠ
jing ĠzaiĠ
duan ĠshiĠ
Ġ Z
Ġ tieĠ
le ĠyouĠ
bianĠ haoĠ
ĠmuĠ qian
ĠbuĠ diĠ
ke ĠzhiĠ
ri ĠdeĠ
2Ġ haoĠ
kuoĠ zhanĠ
Ġmei ĠnianĠ
tang ĠdeĠ
xiangĠ xinĠ
luĠ xuĠ
19 Ġ
min ĠdiĠ
mo ĠsiĠ
ĠrenĠ qiĠ
shangĠ xiaĠ
Ġ 10Ġ
jiu ĠyiĠ
zao ĠzaiĠ
diĠ qiuĠ
Ġ di
wo ĠdeĠ
wuĠ daoĠ
ĠbuĠ luoĠ
ta ĠweiĠ
jun ĠheĠ
wan ĠdeĠ
juĠ daĠ
ĠĠĠjianĠ jieĠ
mu ĠzhiĠ
gao ĠzhiĠ
ĠjiĠ fuĠ
renĠ gongĠ
tianĠ tiĠ
Ġ zhiĠyiĠ
fan ĠzhiĠ
xuan ĠdeĠ
xiĠ wangĠ
weiĠyiĠ yiĠ
Ġ kanĠ
chi ĠrenĠ
muĠ niĠ
Ġ 500
1945 ĠnianĠ
ĠĠĠ jieĠ
geĠ ming
wuĠ zhengĠzhuangĠ
ĠqiĠ cheĠ
zheĠ xueĠ
suoĠ youĠdeĠ
tanĠ panĠ
ĠshiĠyiĠge ĠweiĠyuĠ
hui ĠguoĠ
ni ĠerĠ
nanĠ fangĠ
liangĠ mingĠ
miĠ yaĠ
ĠxianĠ houĠ
zi ĠzhongĠ
hao ĠshiĠ
tion Ġ
Ġ 1950
qu ĠzhiĠ
xiĠ yaĠ
jiangĠ jinĠ
yueĠ nanĠ
ĠĠĠdiĠfangĠ ziĠliaoĠ
dian ĠheĠ
ya ĠheĠ
rong ĠheĠ
xiangĠ biĠ
shaĠ haiĠ
Ġ 2014ĠnianĠ
ling ĠyiĠgeĠ
fei ĠerĠ
feng ĠfuĠ
wenĠ duĠ
diĠyiĠ weiĠ
ji ĠĠĠ
yan ĠyuĠ
bing ĠyiĠ
Ġ waĠ
duiĠ ciĠ
N Ġ
Ġ song
dai ĠshiĠ
ping ĠdeĠ
nuo ĠfuĠ
ĠguoĠ quĠ
chuĠ shouĠ
fangĠ jianĠ
zi ĠzaiĠ
yinĠ paiĠ
changĠ jianĠ
aoĠ zhouĠ
ceng ĠweiĠ
gaoĠ xiong
paiĠ hangĠ
he ĠĠĠ
40 Ġ
ĠyiĠsiĠ lanĠ
Ġ jiuĠshiĠ
ye ĠjiĠ
ĠyiĠ wuĠ
shenĠ duĠ
n ĠĠĠ
liang ĠnianĠ
Ġnian ĠweiĠ
qinĠ wangĠ
san ĠjiaĠ
nv ĠzhuĠ
Ġ0 Ġ
ĠĠĠ yingĠ
zhou ĠheĠ
xiu ĠdeĠ
1987 ĠnianĠ
naĠ cui
guanĠliĠ juĠ
ding ĠshiĠ
daĠ xiĠyangĠ
Ġ xu
haiĠ baĠweiĠ
ti ĠweiĠ
ĠjiĠ houĠ
zhengĠ ce
ĠkeĠ xiĠ
shanĠ fengĠ
tongĠ mingĠ
ĠjiaĠ zuĠ
dongĠshiĠ zhangĠ
ye ĠyiĠ
pei ĠzhiĠ
zou ĠxiangĠ
ĠyouĠ zhongĠ
xiaoĠ fangĠ
zai ĠliĠ
zhu ĠweiĠ
Ġ ruoĠ
liang ĠdaĠ
han ĠdeĠ
ĠxiĠ lie
suoĠ caiĠyong
jie ĠzhongĠ
Ġbing ĠweiĠ
ĠbuĠ duanĠ
ĠshiĠyiĠ buĠ
huan ĠzheĠ
ĠbuĠ erĠ
ĠdaĠ duoĠshuĠ
gaiĠ zaoĠ
nengĠ yuanĠ
le ĠzhongĠ
zhanĠ lve
hu ĠweiĠ
shou ĠrenĠ
jun ĠrenĠ
1983 ĠnianĠ
kaoĠ lv
1982 ĠnianĠ
zhiĠshiĠ qiĠ
wen ĠzhongĠ
mang Ġ
jieĠ tiĠ
zhanĠ lanĠ
gongĠ chengĠshiĠ
Ġ ku
jun ĠzhongĠ
ganĠ ranĠ
mengĠ gu
ba ĠheĠ
man ĠdiĠ
ĠshiĠ yeĠ
erĠ tongĠ
guĠ dingĠ
ĠĠĠ jingĠ
ĠzaiĠ youĠ
geĠ juĠ
Ġ genĠ
tai ĠheĠ
Ġ cn
leĠ zheĠ
2 ĠgeĠ
huan ĠxingĠ
ĠguoĠ neiĠ
ĠweiĠyuĠ gaiĠ
lun ĠshiĠ
zhengĠ xie
shangĠ shengĠ
boĠ linĠ
jueĠ duiĠ
ge ĠyuĠ
jie ĠliĠ
hui ĠyiĠyuanĠ
gong ĠliĠdeĠ
kou ĠdeĠ
ĠerĠ feiĠ
muĠ qian
diaoĠ kuai
aiĠerĠ lanĠ
dao ĠweiĠ
xiaoĠ feiĠ
xiaĠ lingĠ
ĠfuĠ qinĠ
ĠdeĠyiĠ shuĠ
mianĠ duiĠ
kaiĠshiĠ shiĠ
ĠdongĠ nanĠ
ĠweiĠ UTCĠ
shengĠ diĠ
zhuĠyiĠ zheĠ
lianĠheĠ huiĠ
yanĠ haiĠ
xiongĠ yaĠliĠ
Ġcn Ġ
ĠĠĠ zhengĠ
ĠĠĠ jiaoĠtongĠ
zhu ĠheĠ
wen ĠheĠ
san ĠweiĠ
san ĠdaĠ
ĠerĠ qiĠ
ĠĠĠ maĠ
zhou ĠyiĠ
ziĠ shenĠ
diaoĠkuai ĠyiĠxiaoĠshiĠ
Ġ luo
cheng ĠyouĠ
chong ĠjiĠ
guoĠ huiĠ
liuĠ xiaĠ
lao ĠshiĠ
ĠjiĠ UTCĠ
paiĠ qianĠ
ĠmeiĠ yuanĠ
sheĠyouĠ xiaĠlingĠshiĠjianĠ
ĠdeĠshiĠquĠweiĠ UTCĠ
ĠerĠgaiĠdiĠ suoĠcaiĠyong
ĠtongĠshiĠgaiĠdiĠ sheĠyouĠxiaĠlingĠshiĠjianĠ
ĠerĠgaiĠdiĠsuoĠcaiĠyong ĠdeĠshiĠquĠweiĠUTCĠ
shu ĠrenĠ
zhang ĠyueĠ
jingĠ gaoĠ
nanĠ haiĠ
Ġling ĠyouĠ
Ġ chi
chuangĠ zaoĠ
jianĠliĠ leĠ
ĠĠĠ 2Ġ
miĠshuĠ zhangĠ
xiangĠ tongĠdeĠ
bingĠ feiĠ
guan ĠheĠ
cai ĠdeĠ
biĠyeĠ houĠ
gaoĠyuĠ haiĠpingĠmianĠ
ĠĠĠ In
dang ĠjiĠ
qun ĠzhongĠ
ru ĠdeĠ
ĠqiĠ fuĠ
Ġ sa
ĠshiĠ beiĠ
quĠdeĠ mianĠjiĠweiĠ
haiĠbaĠweiĠ gaoĠyuĠhaiĠpingĠmianĠ
zhang ĠheĠ
jinĠ xingĠdeĠ
gaiĠ mingĠweiĠ
fa ĠzhiĠ
xuan ĠzhongĠ
jingĠ duĠ
changĠ suoĠ
lieĠ ruĠ
ĠgeĠ quĠ
Ġ ziĠyouĠ
tan ĠxianĠ
ĠzhongĠ shanĠ
daĠ buĠfen
guanĠ cha
ĠqiĠzhongĠ baoĠkuoĠ
Ġwan ĠliĠ
zhan ĠyuĠ
buĠshiĠ quĠ
fang ĠjiĠ
daĠ louĠ
biaoĠ benĠ
5 ĠrenĠ
Ġ rongĠ
da ĠyiĠ
Ġyue ĠyiĠ
Ġ shanĠxiĠ
shang ĠdiĠ
chao ĠyueĠ
Ġ 2025
Ġ shuoĠ
Ġ 2015ĠnianĠ
ĠĠĠ 4
pingĠ guĠ
ĠĠĠ yanĠ
bian ĠyiĠ
tiao ĠjieĠ
zhangĠ fuĠ
cunĠ luoĠ
kaiĠshiĠ zaiĠ
ĠhuoĠ dongĠ
shouĠ xianĠ
tuĠ jingĠ
yi ĠshiĠdeĠ
te ĠjiĠ
suo ĠzaiĠdiĠ
dou ĠzaiĠ
shuang ĠdaĠ
ĠluoĠ maĠ
ĠdaĠ luĠ
banĠ ben
cheĠ xiangĠ
7 ĠrenĠ
li ĠdeĠ
ben ĠrenĠ
gong ĠweiĠ
gongĠ neng
suoĠchuĠdeĠ haiĠbaĠweiĠgaoĠyuĠhaiĠpingĠmianĠ
Ġ xiaoĠshiĠ
changĠ jingĠ
danĠ baiĠ
6 ĠrenĠ
qianĠ dingĠ
feiĠ erĠdeĠ
deng ĠzhiĠ
ĠbuĠ xiangĠ
sheĠ xianĠ
duan ĠshiĠjianĠ
ĠzaiĠ taĠ
tuiĠ xiuĠ
xiao ĠyuĠ
lai ĠsiĠ
yang ĠjiĠ
se ĠfuĠ
jianĠ kangĠ
shenĠ huaĠ
luoĠ faĠ
Ġer ĠdeĠ
8 ĠrenĠ
ĠĠĠ anĠ
san ĠrenĠ
huiĠ guiĠ
ĠerĠ buĠshiĠ
tiĠ xingĠ
yinĠ xiangĠ
ĠdeĠjiĠ luĠ
ou ĠxiangĠ
yan ĠrenĠ
yan ĠheĠ
caiĠ nengĠ
juĠ leĠ
quĠ zhuĠ
yongĠ leĠ
naĠ xieĠ
Ġsui ĠshiĠ
Ġ Y
yin ĠyuĠ
zuĠqiuĠ duiĠ
mian ĠyiĠ
shuai ĠlingĠ
ĠqiĠ xuanĠ
diĠ xiaĠ
zuĠ cheng
boĠ lan
9 ĠnianĠ
Ġ kouĠ
ĠĠĠ Co
ĠyiĠ shengĠ
ĠluĠ wa
keĠnengĠ huiĠ
ĠheĠ daoĠ
canĠ xuanĠ
Ġ ge
ĠĠĠ diĠyiĠ
chu ĠzhongĠ
kong ĠxiĠ
Ġnian ĠshiĠjieĠ
quan ĠyiĠ
lianĠ luoĠ
huĠ xiangĠ
Ġ 2023
qingĠ jieĠ
dan ĠshiĠ
zhou ĠliĠ
ĠzhongĠ gongĠzhongĠyangĠ
changĠ shangĠ
Ġ 2016ĠnianĠ
tu ĠjiĠ
st Ġ
zaiĠyiĠ qiĠ
yanĠ zhongĠdeĠ
ĠyuĠ beiĠ
Ġ chaoĠxianĠ
guan ĠyiĠ
mu ĠerĠ
kai ĠdeĠ
huaĠ jiaĠ
ĠmaĠ lai
tiĠgongĠ leĠ
Ġ 2007
ĠĠĠ meiĠ
shu ĠbuĠ
fa ĠyiĠ
ding ĠliĠ
duiĠ yingĠ
zhenĠ quĠdeĠmianĠjiĠweiĠ
H Ġ
ĠzhiĠ shuĠ
ziĠ chanĠ
faĠ shengĠzaiĠ
ĠshouĠ daoĠ
ĠshouĠ ciĠ
ĠĠĠ 2008
zhong ĠyiĠyuanĠ
zhu ĠzhongĠ
dai ĠweiĠ
nei ĠdiĠ
ĠĠĠ xingĠ
que ĠshiĠ
zhengĠ bianĠ
1978 ĠnianĠ
ĠyuĠ xiĠ
heĠ liuĠ
fuĠ xingĠ
xianĠ zhuĠ
beiĠ siĠ
yanĠ seĠ
zuĠqiuĠ juĠleĠbuĠ
qian ĠxiĠ
kao ĠshiĠ
diĠ quĠdeĠ
geĠ guoĠ
baoĠ luoĠ
zuiĠ duoĠ
suĠ geĠlanĠ
ti ĠheĠ
shang ĠjiĠ
yan ĠjiĠ
she ĠzaiĠ
ziĠ xun
mianĠ feiĠ
muĠsiĠ linĠ
daiĠ lingĠ
zhuanĠ menĠ
kaĠ laĠ
ru ĠweiĠ
ĠshiĠ jiaĠ
ĠyuanĠ mingĠ
shen ĠyiĠ
wuĠ guanĠ
guanĠ ceĠ
sheĠ jiĠshiĠ
Ġ 2ĠyueĠ
qian ĠyueĠ
san ĠbuĠ
zhongĠ yao
beiĠ fangĠ
baoĠ cunĠ
tianĠ houĠ
zhongĠguoĠ daĠluĠ
yang ĠxingĠ
ĠbuĠ laĠ
feiĠ yanĠ
zaoĠ shangĠ
mianĠ dianĠ
ceng ĠdeĠ
1 ĠĠĠ
Ġ kan
ĠĠĠ ran
xue ĠzhongĠ
Ġ 24
chu ĠweiĠ
bing ĠyuĠ
qing ĠrenĠ
ping ĠguoĠ
tui ĠjianĠ
liao ĠdeĠ
quanĠ xianĠ
guoĠ neiĠ
chuanĠ tongĠdeĠ
ĠbeiĠ chengĠweiĠ
Ġ lv
le ĠdeĠ
juĠ fengĠ
gengĠ xinĠ
Ġ shao
Ġ jueĠdingĠ
duo ĠnianĠ
lang ĠzhongĠ
diĠ wuĠ
ĠxiangĠ guanĠ
shu ĠzaiĠ
gao ĠshiĠ
pian ĠzhongĠ
tongĠ xunĠ
wanĠ zhengĠ
hua ĠzaiĠ
bianĠ jingĠ
shanĠ xianĠ
Ġ lianĠheĠ
feng ĠdeĠ
miao ĠhuiĠ
yuanĠ xianĠ
xieĠ zuoĠ
shouĠ quanĠ
zan ĠzhuĠ
cheng ĠzaiĠ
ĠliĠ chengĠ
guiĠ mo
ju ĠzaiĠ
mu ĠyuĠ
ba ĠdaĠ
ba ĠsiĠ
jue ĠyuĠ
geĠ laĠ
faĠ mingĠ
luoĠ shanĠjiĠ
Ġ 2019ĠnianĠ
li ĠziĠ
ĠĠĠ gongĠ
tuĠ shuĠ
Ġ lunĠ
xingĠ muĠ
ĠdiĠ qiuĠ
ĠĠĠ renĠ
ĠzhiĠ waiĠ
zhangĠ zhuanĠjiĠ
xianĠ ruĠ
jinĠ riĠ
cheĠ changĠ
ĠzuiĠ gaoĠ
Ġ hei
Ġ 7Ġ
quĠ jianĠ
tun Ġ
fuĠ zhuĠ
Ġ dunĠ
xing ĠzaiĠ
xian ĠzhongĠ
ĠbiĠ saiĠ
beiĠrenĠ mingĠweiĠ
Ġ nuoĠ
yin Ġyue
zhou ĠrenĠ
ĠshiĠ taĠ
Ġ 28
dui ĠzhongĠ
ĠshanĠ dongĠ
guoĠminĠ dangĠ
liang ĠheĠ
ĠshiĠ erĠ
ĠyouĠ zaiĠ
pingĠ lun
jiuĠ yuanĠ
ĠdeĠshiĠ yongĠ
Ġ sang
jiang ĠyiĠ
gai ĠzhiĠweiĠ
bian ĠzhiĠ
ĠshiĠ chengĠ
ĠliĠ liangĠ
chuĠ zhangĠ
lin ĠsiĠ
juĠ benĠ
jiaoĠ duĠ
tianĠ zhuĠ
piĠ zhun
Ġ shuang
Ġ 2017ĠnianĠ
luo ĠliĠdaĠ
ĠdiĠ diĠ
xiaoĠ yingĠ
Ġ zuĠzhiĠ
1958 ĠnianĠ
ĠĠĠ dongĠ
su ĠliĠ
shangĠ xianĠ
zaoĠ chengĠdeĠ
ĠshiĠjianĠ zhuĠ
ban ĠjiĠ
shouĠ boĠ
zhangĠ ziĠ
huĠ lianĠ
Ġ tang
Ġ 2018ĠnianĠ
Ġ zaĠzhiĠ
ao ĠerĠ
zhanĠ muĠsiĠ
ai ĠliĠ
1979 ĠnianĠ
fuĠ shuĠ
yun ĠdeĠ
tou ĠxianĠ
1972 ĠnianĠ
luĠ zhanĠ
ĠhouĠ zheĠ
ĠĠĠ geĠrenĠ
ding ĠjiĠ
ĠweiĠ beiĠ
yunĠ yongĠ
Ġhuo ĠshiĠ
ĠĠĠ duiĠ
ĠĠĠ nanĠ
ba ĠerĠ
ĠpuĠ taoĠ
Ġ peng
ma ĠshiĠ
huai ĠyiĠ
Ġ dianĠshiĠ
ĠĠĠ baĠ
xia ĠzaiĠ
xu ĠjiĠ
ĠyiĠ dongĠ
ĠweiĠyuĠ zhongĠguoĠ
guan ĠjiĠ
baoĠ hu
ĠyingĠ wenĠ
can ĠyiĠ
huoĠ cheĠ
qiangĠ duĠ
Ġci ĠnianĠ
chai Ġ
ĠdiĠ yaĠ
miĠ niĠ
Ġai ĠerĠ
shao ĠdeĠ
ĠzhiĠ buĠ
xinĠ guanĠ
huoĠ biĠ
Ġ chunĠ
zha ĠdanĠ
cu Ġ
jiaoĠ chaĠ
leiĠ siĠdeĠ
chuanĠ meiĠ
Ġ 25
juĠ banĠdeĠ
minĠ zu
ĠgaiĠ bianĠ
ĠxuĠ yaoĠ
Ġ hangĠ
Ġ yanĠjiuĠ
dao ĠzaiĠ
luo ĠshiĠ
xueĠ keĠ
naĠ xiaĠ
ĠĠĠ N
diĠ qiĠ
bingĠ duĠ
ĠxinĠ wenĠ
xingĠzhengĠ quĠ
Ã© Ġ
ĠĠĠzengĠ zuĠ
lie ĠshiĠ
17 Ġ
ĠzhongĠ xingĠ
xiĠ nanĠbuĠ
taiĠ houĠ
zuiĠ zao
ĠĠĠ 2009
Ġming ĠzhiĠ
wu ĠyueĠ
zheng ĠjiĠ
ĠshiĠyiĠ keĠ
xinĠjiaĠ po
yao ĠshiĠ
gan ĠyuĠ
xiangĠ faĠ
tiĠ chuĠdeĠ
canĠ tingĠ
Ġ 35
fa ĠliĠ
luo ĠyuĠ
ĠdaĠ buĠfen
pin ĠdeĠ
ĠrenĠ weiĠshiĠ
juĠ ban
taiĠ kongĠ
Ġ 2006
xi ĠyouĠ
chu ĠguoĠ
xue ĠliĠ
zhe ĠheĠ
bai ĠyuĠ
jueĠ sai
ĠshiĠshiĠ yongĠ
zong ĠyiĠ
zong ĠrenĠkouĠ
teĠ quĠ
zhuanĠ xieĠ
qingĠ zhuĠ
ĠbingĠ beiĠ
faĠ xianĠdeĠ
jinĠ rong
ĠxiĠ yinĠ
1 ĠgeĠ
Ġ 29
ĠĠĠ houĠ
jiang ĠliĠ
ĠzhongĠ dianĠ
zhuĠ daoĠ
O Ġ
ĠĠĠ s
xue ĠjiĠ
tongĠ xinĠ
meiĠ junĠ
suiĠ ran
aĠ genĠ
Ġ 2004ĠnianĠ
shangĠ wangĠ
Ġ mao
ba ĠdeĠ
chengĠ leĠ
jiaoĠ huanĠ
wuĠzhengĠzhuangĠ ganĠranĠzheĠ
Ġ 2021ĠnianĠ
xing ĠshiĠdeĠ
mi ĠsiĠ
su ĠzhiĠ
tou ĠdeĠ
Ġma ĠliĠ
sheĠ jiaoĠ
ll Ġ
ĠyiĠ gongĠ
ĠchuĠ banĠ
9 ĠrenĠ
sui ĠzheĠ
ĠĠĠ liuĠ
ĠyiĠ qianĠ
ĠdiĠ zaiĠ
xinĠ jianĠ
zuĠ jieĠ
ĠdeĠyiĠ yuanĠ
Ġ shui
Ġ shun
ju ĠzhiĠ
dian ĠweiĠ
shen ĠyuĠ
ĠshiĠrenĠ minĠ
xianĠzhiĠ xianĠ
xian ĠliĠ
dui ĠjiĠ
daĠ xiaoĠ
geĠ ziĠ
Ġ 27
Ġ weiĠyiĠ
ĠĠĠ tianĠ
che ĠdiĠ
qiĠ zhongĠ
fangĠ mian
duanĠ pianĠ
te ĠheĠ
chuan ĠqiĠ
faĠ sheng
guĠ laĠ
huangĠ seĠ
min ĠyiĠ
zhengĠ quĠ
biĠ xu
ĠĠĠshiĠ yongĠ
yong ĠzaiĠ
ĠdeĠ huaĠ
huoĠ shengĠ
teĠ dianĠ
Ġta ĠheĠ
Ġ 60
Ġ 2020ĠnianĠ
shou ĠbuĠ
du ĠguoĠ
zhang ĠzhiĠ
zan ĠshiĠ
1960 ĠnianĠ
qiĠ laiĠ
xiĠ beiĠbuĠ
zui ĠdiĠ
siĠ daĠ
luoĠ chengĠ
zuiĠ zaoĠ
yunĠ dongĠdeĠ
bangĠ qiuĠ
buĠdeĠ cunĠzhuangĠ
5 ĠmiĠ
lin ĠjinĠ
gaoĠ duĠweiĠ
ĠyouĠ zhuĠ
Ġ nengĠ
lai ĠyuĠ
leĠ yuanĠ
gangĠ kouĠ
xunĠ lian
gongĠyuanĠ qianĠ
ci ĠdiĠ
al ĠĠĠ
1976 ĠnianĠ
ĠshiĠ houĠ
wuĠ diĠ
xinĠ jiangĠ
an ĠzhiĠ
chengĠ jiuĠ
gongĠzuo ĠshiĠ
ĠshuangĠ fangĠ
ĠgongĠ yeĠ
lingĠ chenĠ
dan ĠdaĠ
yong ĠjiĠ
1980 ĠnianĠdaiĠ
ĠyiĠ bianĠ
qiĠ cheĠ
faĠ tingĠ
z Ġ
23 Ġ
zhongĠ huaĠminĠguoĠ
xianĠ chengĠ
shanĠ maiĠ
ĠdeĠyiĠ xieĠ
chuĠbanĠ sheĠ
jingĠneiĠ gongĠyouĠ
dang ĠnianĠ
san ĠzhongĠ
han ĠziĠ
ĠgeĠ shouĠ
Ġ ì
Ġ ceĠ
hui ĠweiĠ
1920 ĠnianĠ
jiangĠ shuĠ
sanĠ mingĠ
Ġ 26
dao ĠyouĠ
xinĠ jieĠ
ĠxiangĠ muĠ
hou ĠjiĠ
xiao ĠliĠyuĠ
shengĠ daoĠ
ĠjiaĠ laĠ
ĠcaiĠ yongĠ
Ġ zhuanĠjiĠ
qiĠ houĠ
daĠ diĠ
xianĠ shangĠ
cheng ĠzhiĠweiĠ
lieĠ chuĠ
Ġzhao ĠheĠ
xiu ĠdaoĠ
ĠdaĠ jiaĠ
changĠ biĠsaiĠ
ĠheĠ liuĠ
zanĠ tingĠ
ĠĠĠ daoĠ
bi ĠliĠshiĠ
hai ĠzaiĠ
bai ĠkeĠ
V Ġ
ruan ĠtiĠ
jianĠ duĠ
yeĠ fuĠ
laiĠ yinĠ
Ġta ĠyouĠ
ĠliangĠ geĠ
ĠerĠgaiĠ diĠdeĠ
tong ĠheĠ
ĠdaĠ jiangĠ
ĠdanĠ yinĠ
henĠ kuaiĠ
jin ĠyuĠ
Ġtong ĠyiĠ
Ġ i
Ġ tao
huo ĠzaiĠ
dui ĠheĠ
tiĠ daiĠ
qianĠ tingĠ
ĠĠĠgaiĠ yaoĠ
th Ġ
ĠbuĠ daoĠ
xiangĠ yingĠ
ĠqiĠ bingĠ
ĠweiĠfuĠqiĠyuĠ gang
fa ĠjiĠ
ya ĠrenĠ
1990 ĠnianĠdaiĠ
ĠliĠ fuĠ
jingĠ guanĠ
qianĠ jinĠ
ĠtaĠmen ĠzaiĠ
ao ĠdeĠ
dui ĠdiĠ
tan ĠheĠ
chengĠ quĠ
wangĠ wangĠ
ĠzuiĠ chuĠ
Ġ guang
que ĠbaoĠ
faĠ dongĠjiĠ
maĠ touĠ
an ĠliĠ
xing ĠyouĠ
ta ĠyiĠ
pin ĠzhongĠ
qun ĠtiĠ
ĠqiĠ heĠ
bianĠ yuanĠ
c ĠĠĠ
buĠ menĠ
yun ĠheĠ
na ĠheĠ
fuĠ haoĠ
pingĠ yuanĠ
ĠdeĠshiĠ jiĠ
Ġ nongĠ
shuĠ chuĠ
o ĠĠĠ
Ġ jinĠshiĠ
chang ĠjiĠ
kuo ĠjianĠ
ĠyueĠ duiĠ
ĠtaĠ renĠweiĠ
dian ĠshiĠjieĠ
siĠ lanĠ
ĠĠĠjiaĠ tingĠ
ĠxiĠ tongĠdeĠ
juĠ yuanĠ
e ĠguoĠ
Ġ 2002ĠnianĠ
yeĠ keĠyiĠ
guiĠ fanĠ
fuĠ za
wuĠ shuĠ
quĠ fenĠ
sheĠ dingĠ
leĠyiĠ xieĠ
Ġ 40
ĠĠĠ i
ĠĠĠ shouĠ
jiu ĠzaiĠ
Ġxian ĠweiĠ
daĠshiĠ guanĠ
riĠben ĠdeĠ
dan ĠyiĠ
Ġli ĠliĠ
jiaoĠ tang
senĠ lin
Ġ Ro
ma ĠkeĠsiĠ
qiu ĠshiĠ
ĠnianĠ qingĠ
jieĠ duan
tuiĠ guangĠ
ĠzhongĠguoĠrenĠminĠ jieĠfangĠjunĠ
xuan ĠshiĠ
fuĠ muĠ
wuĠ zhuang
saiĠ erĠweiĠ
gengĠ duoĠdeĠ
changĠ duĠ
canĠ shuĠ
tieĠluĠ cheĠzhanĠ
Ġ Mi
ĠĠĠ wangĠ
wang ĠweiĠ
la ĠweiĠ
pei ĠbeiĠ
fenĠ peiĠ
yaĠ muĠ
Ġ cunĠ
ĠyiĠ meiĠ
ĠyouĠ liangĠ
ĠzhongĠ jianĠ
beiĠ jing
qianĠ shenĠ
chuangĠ zuoĠdeĠ
duo ĠerĠ
zhongĠ buĠ
beiĠ daĠ
ĠqiĠ zhong
suiĠ ranĠ
Ġ 1970
ĠbuĠ siĠ
shangĠ zhenĠ
baoĠ han
yeĠ jianĠ
yeĠ shengĠyaĠ
duiĠ fangĠ
mai ĠdeĠ
zeĠ dongĠ
zhang ĠjiĠ
deng ĠyuĠ
chengĠ weiĠyiĠ
ch Ġ
yanĠ jingĠ
banĠ jiangĠ
buĠdeĠ buĠ
ceng ĠshiĠ
dou ĠbeiĠ
ĠzaiĠ neiĠdeĠ
dengĠ changĠ
Ġ30 Ġ
Ġ sunĠ
shan ĠdiĠ
chuĠ ziĠ
tuĠ xiangĠ
ĠgongĠ qingĠ
an ĠjiĠ
wen ĠjiĠ
tou ĠbuĠ
jun ĠbuĠ
keĠ yunĠ
teĠ laĠ
suĠ lian
cong ĠweiĠ
huang ĠjinĠ
ĠjieĠ shuĠ
lvĠ seĠ
ĠB Ġ
v Ġ
xing ĠliĠ
yeĠ shengĠ
zheĠ yangĠ
banĠ yanĠ
kaiĠ gongĠ
Ġ sai
du ĠjiĠ
nan ĠsiĠ
1956 ĠnianĠ
Ġ 45
ĠshiĠshiĠ shangĠ
aĠlaĠ bo
shen ĠkeĠ
chen ĠjiĠ
ĠzaiĠ heĠ
riĠ baoĠ
dangĠ tianĠ
ĠziĠ yuanĠ
bei ĠliĠ
zhe ĠzhiĠ
che ĠshiĠ
1964 ĠnianĠ
zhuĠ ceĠ
ĠxiĠ anĠ
xieĠ shangĠ
chiĠ xu
Ġ tun
le ĠdiĠ
xianĠ dai
jinĠ quĠ
fenĠ zhiĠyiĠ
ĠdeĠjiĠ huaĠ
qu ĠyouĠ
luĠ shangĠ
hao ĠyouĠ
ĠqiĠ dongĠ
seĠ lie
ĠfuĠzeĠ guanĠxiaĠ
Ġ bao
mu ĠheĠ
wai ĠweiĠ
ĠshiĠshiĠ jiĠ
Ġ Ï
quan ĠjiĠ
deng ĠshiĠ
zhuan ĠweiĠ
ĠyiĠ keĠ
dongĠ xianĠ
xiaoĠ jieĠ
wan ĠliĠ
weiĠ yuanĠ
ĠĠĠ chengĠ
ĠĠĠ zhangĠ
ze ĠyuĠ
ĠyiĠ nian
xiangĠ qiĠ
qingĠ chaoĠ
haoĠ pingĠ
Ġ pi
ĠĠĠ guĠ
1968 ĠnianĠ
section ĠĠĠ
fuĠ erĠ
zhengĠ shuĠ
cheĠ duiĠ
qu ĠzhongĠ
dui ĠzhiĠ
sha ĠdeĠ
daĠ duoĠ
fanĠ ying
zongĠ jianĠ
bing ĠzaiĠ
ĠqiĠ xiĠzaiĠ
mianĠ tiĠ
ĠzhongĠ qiĠ
xiaoĠ liangĠ
hang ĠyeĠ
teĠ leiĠ
xuanĠ chengĠ
ĠbaoĠ huĠ
Ġbing ĠbuĠ
Ġ sectionĠĠĠ
biao ĠjiĠ
lie ĠsiĠ
yuanĠ benĠ
shouĠ shuĠ
laiĠ naĠ
ĠgeĠ leiĠ
feiĠlvĠ bin
zhan ĠweiĠyuĠ
feng ĠshiĠ
zong ĠzhiĠ
ĠheĠ qiĠtaĠ
haiĠ shangĠ
tuĠ chuĠ
ĠgongĠ kaiĠ
canĠ jia
ĠfenĠ bieĠ
daiĠbiaoĠ tuanĠ
ĠlianĠ jieĠ
ĠĠĠran ĠerĠ
chang ĠdaĠ
jiang ĠyouĠ
bai ĠzhiĠ
50 Ġ
niao ĠleiĠ
ĠĠĠ guangĠ
zhan ĠyouĠ
ĠshiĠ xiĠ
ĠqiĠzhongĠ nanĠxingĠ
ĠjiangĠ suĠ
ni ĠxiĠyaĠ
1981 ĠnianĠ
jinĠ zhanĠ
baoĠ zha
fenĠ siĠ
ĠsiĠ daĠ
baiĠ wanĠ
hai ĠdiĠ
xie ĠweiĠ
moĠ niĠ
zhongĠguoĠ renĠminĠ
Ġ wa
Ġ jianĠliĠ
Ġ 8Ġ
liang ĠbuĠ
yanĠ anĠ
shenĠ zhenĠ
puĠtaoĠ yaĠ
ter Ġ
xingĠ dong
gongĠ daĠ
ĠĠĠgenĠjuĠ 2020ĠnianĠmeiĠguoĠrenĠkouĠpuĠchaĠdeĠshuĠjuĠ
ju ĠweiĠ
lu ĠyiĠsiĠ
xia ĠdiĠquĠ
ding ĠxingĠ
se ĠĠĠ
ĠshiĠ buĠ
geĠ buĠ
changĠ jiangĠ
Ġ zuiĠjiaĠ
zai ĠyiĠgeĠ
zhan ĠweiĠ
ĠguoĠ wuĠyuanĠ
daoĠ danĠ
laiĠ ziĠyuĠ
feiĠ yongĠ
Ġliu ĠyuĠ
Ġ fou
Ġ 2024
Ġ Co
ĠĠĠ jingĠjiĠ
hou ĠzhiĠ
1948 ĠnianĠ
xiaoĠ xiangĠ
ĠĠĠ 2019ĠnianĠ
gong ĠyueĠ
jiao ĠdiĠ
chuĠ xianĠdeĠ
ĠS Ġ
bi ĠerĠ
lu ĠheĠ
ĠyouĠ suoĠ
zhengĠ mianĠ
gongĠkaiĠ saiĠ
Ġ 2000ĠnianĠ
ha ĠliĠ
ĠguoĠ jiaĠdeĠ
ziĠ benĠ
ĠjinĠ shuĠ
kuoĠ zhangĠ
er ĠĠĠ
dang ĠzaiĠ
ĠyiĠ heĠ
Ġ 2005
tian ĠjiaĠ
qiong Ġ
xueĠ yeĠ
hou ĠbuĠ
fuĠ zhouĠ
yuanĠzhuĠ minĠ
ĠweiĠyuanĠhui ĠweiĠyuanĠ
e ĠdeĠ
Ġ 200
shu ĠdeĠzhiĠwuĠ
wang ĠjiĠ
keĠ erĠ
taiĠ nanĠ
xuanĠ juĠzhongĠ
ĠĠĠqiĠ zhongĠ
bei ĠyueĠ
fa ĠheĠ
huo ĠliĠ
shui ĠdeĠ
gan ĠxianĠ
juĠ min
leĠ duiĠ
yanĠ jiangĠ
zhanĠ shuĠ
ĠshiĠyiĠ zuoĠ
Ġ 1946
duo ĠshiĠ
cha ĠshiĠ
ĠshiĠdeĠ shiĠ
ĠjiĠjinĠ huiĠ
Ġ kaoĠ
zu ĠrenĠ
lai ĠkeĠ
hant Ġ
ĠzaiĠ buĠ
zheĠ yangĠdeĠ
nanĠjiĠ zhouĠdeĠ
gan ĠdeĠ
wo ĠerĠ
guĠ dianĠ
shaoĠ nvĠ
chengĠliĠ houĠ
guĠfen ĠyouĠxianĠgongĠsiĠ
daĠ guiĠmoĠ
jianĠ kang
beiĠ poĠ
ĠdiĠ tuĠ
wenĠ tiĠdeĠ
meiĠ guo
ĠqianĠ wangĠ
ĠweiĠfuĠqiĠyuĠ gangĠ
Ġ lei
Ġ hantĠ
duo ĠliĠyaĠ
gongĠ anĠ
ĠguoĠ gongĠ
huiĠ daĠ
chuĠ changĠ
zongĠ caiĠ
Ġ niuĠ
ya ĠzhongĠ
yang ĠheĠ
1952 ĠnianĠ
ĠzhongĠ wenĠ
keĠ luoĠ
canĠ kao
reĠdaiĠ fengĠbaoĠ
hu ĠxiĠ
zuo ĠzhiĠ
shuai Ġling
ĠyuĠ diĠ
Ġta ĠjiĠ
ĠĠĠ zhuĠyaoĠ
bie ĠdeĠ
xinĠ taiĠ
ĠguanĠ fangĠ
Ġ touĠguoĠ
luo ĠyiĠ
men ĠshiĠ
1975 ĠnianĠ
gongĠ jiaoĠ
zhuĠ banĠ
ĠshiĠyiĠ zhiĠ
1966 ĠnianĠ
zuoĠ faĠ
ĠdaĠ erĠ
naĠ shengĠ
meiĠguoĠ renĠ
zhuanĠ yongĠ
cunĠ zaiĠdeĠ
100 Ġ
ĠjinĠ ru
xianĠdeĠyiĠgeĠ feiĠjianĠzhiĠdiĠquĠ
x ĠĠĠ
Ġ 2022ĠnianĠ
ĠĠĠ fanĠ
nuo ĠyiĠ
ĠshiĠ faĠ
ĠzhiĠ shaoĠ
fangĠ miĠ
hangĠ tianĠ
ding ĠzaiĠ
qun ĠdeĠ
ĠzhiĠ jingĠ
1Ġ ri
youĠyiĠ xieĠ
ĠlingĠ wai
niang Ġ
luĠ wa
ĠxingĠ jianĠ
ĠĠĠ 2007
xue ĠbuĠ
mei ĠshiĠ
lan ĠyuĠ
ĠyiĠ xueĠ
rao ĠtaiĠyangĠ
liangĠ ziĠ
maĠ laiĠ
ĠnianĠyiĠ laiĠ
5 ĠgeĠ
e ĠweiĠ
Ġ yong
shang ĠweiĠyouĠ
bao ĠheĠ
duiĠ kangĠ
Ġ 2003ĠnianĠ
ying ĠerĠ
jiu ĠyouĠ
ĠĠĠ 16
ĠĠĠ jiangĠ
ta ĠrenĠ
ĠyiĠ daĠ
ĠyiĠ xiangĠ
Ġyue ĠheĠ
ciĠ quĠ
duĠ huiĠ
xieĠ dingĠ
ban ĠrenĠ
chuan ĠguoĠ
1947 ĠnianĠ
wuĠ geĠ
sanĠ ciĠ
ĠzheĠ yangĠ
shang ĠheĠ
zongĠ huiĠ
ĠfaĠ zhanĠ
ĠĠĠ 3ĠyueĠ
II Ġ
boĠ jueĠ
xuanĠ chuĠ
Ġri ĠyouĠ
ĠxinĠ zengĠ
guoĠjiaĠ duiĠ
ĠĠĠqiĠ houĠ
f Ġ
1937 ĠnianĠ
ĠshiĠ bingĠ
jiaoĠ jieĠ
haiĠbaĠ gaoĠduĠweiĠ
guang ĠdeĠ
ĠyiĠ waiĠ
ĠshiĠyongĠ leĠ
Ġdang ĠshiĠdeĠ
jiaoĠyuĠ buĠ
wu ĠyouĠ
wenĠ ti
ĠfuĠ qin
leiĠ xingĠdeĠ
zhuangĠ kuang
Ġdan ĠqiĠ
Ġ ouĠzhouĠ
ge ĠzaiĠ
wang ĠyuĠ
wai ĠxingĠ
gen ĠsuiĠ
ĠyiĠ chanĠ
xingĠ zheng
gongĠ jueĠ
yanĠ lunĠ
ĠsiĠ taĠ
ĠrenĠminĠ biĠ
fenĠbie ĠweiĠ
ta ĠheĠ
jin ĠzaiĠ
wang ĠzhiĠ
ĠdaoĠ yanĠ
nongĠ cun
Ġ diaoĠ
Ġ bangĠ
Ġ ziĠjiĠ
ĠĠĠ yueĠ
sheĠ yingĠ
lianĠ sai
gaoĠ xiaoĠ
jianĠzhuĠ wuĠ
ĠĠĠ faĠ
zhanĠ changĠ
xuanĠ ju
ĠpingĠ taiĠ
ĠdeĠjiĠ huiĠ
Ġjiang ĠqiĠ
ĠĠĠ pingĠjiaĠ
shuĠ muĠ
jingĠ saiĠ
duanĠ zan
Ġdan ĠweiĠ
qiaoĠ liangĠ
xunĠyangĠ jianĠ
Ġ pinĠ
Ġ chengĠliĠyuĠ
ĠĠĠ luoĠ
tuan ĠjieĠ
song ĠdaoĠ
guoĠ chengĠ
shouĠ faĠ
fenĠ jieĠ
quanĠ shuĠ
ĠdeĠyiĠ meiĠ
ĠshiĠyiĠ daĠliĠ
Ġ pianĠ
zhang ĠyiĠ
ĠkeĠ luoĠ
zuiĠ zaoĠdeĠ
cengĠ shuiĠyuĠ
a ĠfuĠ
Ġ chao
ĠĠĠ chuĠleĠ
xin ĠzhongĠ
ĠnianĠ lingĠ
xiaĠyiĠ xiaĠdiĠquĠ
yingĠxiang ĠliĠ
guo ĠshiĠqiĠ
pu ĠliĠ
shouĠ duanĠ
pingĠ jieĠ
Ġ Q
Ġ leĠ
ci ĠzhongĠ
xunĠ zhaoĠ
zhuanĠdeĠ xiaoĠxingĠxingĠ
Ġ quĠdeĠ
bei ĠheĠ
fa ĠweiĠ
jiangĠ beiĠ
guoĠjiĠjiĠ changĠ
hua ĠerĠ
wang ĠsiĠ
1954 ĠnianĠ
ĠyiĠ erĠ
guoĠ wuĠyuanĠ
wuĠ zhongĠdeĠ
ĠdiĠ dianĠ
ĠdiĠ liuĠ
juĠ daĠdeĠ
ru ĠyuĠ
ĠliĠ gongĠ
wangĠ ziĠ
ĠdeĠshiĠ wuĠ
zheĠjiangĠ shengĠ
ĠĠĠ 5ĠyueĠ
zhe ĠyuĠ
ĠjiĠ xingĠ
zheng ĠqiĠ
huang ĠshiĠ
Ġ shen
ya ĠzhiĠ
ru ĠyiĠ
ĠzaiĠ jinĠ
jiaĠ mengĠ
wangĠ shangĠ
zuĠ xieĠ
zhengĠshiĠ qiĠ
shanĠdongĠ shengĠ
ĠshiĠ baĠ
guangĠ fan
a ĠliĠ
Ġ min
Ġ keĠliĠ
Ġ chuĠrenĠ
mingĠ juĠrenĠ
tiĠ chuĠleĠ
anĠ zhuang
Ġ huai
song ĠdeĠ
ll ĠĠĠ
huoĠ yunĠ
lianĠ tongĠ
yaoĠ gun
p ĠĠĠ
sheng ĠbuĠ
xiao ĠyouĠ
la ĠerĠ
guai Ġ
xianĠ zhangĠ
faĠ shengĠdeĠ
baoĠ zhaĠ
yinĠ yongĠ
Ġ sanĠshiĠ
hao ĠyuĠ
ĠshiĠ jiĠdeĠ
pingĠ minĠ
pingĠjunĠ haiĠbaĠgaoĠduĠweiĠ
ĠĠĠ shenĠ
xunĠ qiuĠ
liĠ lunĠ
zaoĠ shouĠ
si ĠyouĠ
zhan ĠzaiĠ
gao ĠdiĠ
duĠ duĠ
danĠ shuiĠ
yangĠ xianĠ
neiĠ zhanĠ
shaoĠ jiangĠ
W Ġ
yin ĠzhongĠzaiĠ
tai ĠerĠ
ru ĠshiĠ
shuo ĠdeĠ
ty Ġ
shenĠ meĠ
guĠ fenĠ
ĠzheĠ ciĠ
ganĠ suĠ
ĠnianĠqiĠ jianĠ
ĠerĠgaiĠdiĠdeĠ pingĠjunĠhaiĠbaĠgaoĠduĠweiĠ
da ĠzaiĠ
jiang ĠzhongĠ
10 ĠnianĠ
ĠliĠ xueĠ
luo ĠzaiĠ
ma ĠliĠyaĠ
chai ĠyouĠjiĠ
ĠhanĠ zuĠ
2010ĠnianĠ meiĠguoĠrenĠkouĠpuĠchaĠdeĠshuĠjuĠ
shuoĠshiĠ xueĠweiĠ
yinĠzhongĠzaiĠ peiĠ
yang ĠzhiĠ
qie ĠerĠ
shun ĠshiĠ
chengĠ huĠ
juĠ tiĠ
jiaoĠ fuĠ
wenĠ huaĠdeĠ
boĠ luoĠ
ĠfaĠ shengĠ
ĠbiĠ yeĠ
ĠxueĠ shengĠ
ying ĠdiĠ
dai ĠyuĠ
faĠ lingĠ
baoĠ xianĠ
yingĠ zhanĠ
qingĠ xiangĠ
Ġgai ĠweiĠ
Ġ anĠdeĠ
zuo ĠyuĠ
su ĠshiĠ
ck Ġ
ĠbuĠ neng
shangĠ dianĠ
ĠdaĠ xiĠyangĠ
zengĠ qiangĠ
Ġ X
Ġ chun
ĠĠĠ 2018ĠnianĠ
ban ĠyuĠ
1955 ĠnianĠ
ĠgongĠ buĠ
renĠgongĠ yinĠzhongĠzaiĠpeiĠ
Ġ cu
an ĠzhongĠ
yi ĠshiĠyongĠ
mao ĠxianĠ
jiangĠ taĠ
Ġkang ĠxiĠ
Ġ 2000
qing ĠyiĠ
suo ĠyiĠ
naĠ ruĠ
ĠbaoĠ daoĠ
xiangĠshiĠ diĠ
Ġ mu
Ġ cui
ĠĠĠ 2006
daiĠ maĠ
banĠ ciĠ
Ġ ruan
ĠjiĠ liĠ
ĠheĠ yueĠ
mingĠ jinĠshiĠ
jiaoĠ zuoĠ
dianĠ yingĠdeĠ
ĠquanĠ zhangĠ
ĠyuĠciĠ tongĠshiĠ
qu ĠzaiĠ
reng ĠyouĠ
1974 ĠnianĠ
chengĠ fenĠ
ĠdaĠ louĠ
lingĠ daoĠdeĠ
guiĠ zhouĠ
ĠxianĠ daiĠ
xunĠ huanĠ
panĠ jueĠ
ĠĠĠ taiĠwanĠ
xiang ĠzhiĠ
zheng ĠyueĠ
ye ĠzhiĠ
zhang ĠzaiĠ
zhuĠ zhai
baoĠ chi
diĠyiĠ renĠ
yanĠjiuĠ shengĠ
Ġ nĠ
fuĠ gaiĠ
faĠ zhanĠdeĠ
zheng ĠyuĠ
duiĠ yuanĠ
caiĠ chanĠ
tuiĠ chuĠdeĠ
Ġ xia
zhuĠ ruĠ
benĠ xianĠ
ĠjuĠ minĠ
ĠshengĠ zhangĠyuĠ
canĠ guanĠ
hongĠ junĠ
chanĠshengĠ leĠ
duo ĠfuĠ
bi ĠshiĠ
zhan ĠheĠ
mian ĠyuĠ
zhen ĠrenĠ
junĠ tuanĠ
dianĠ ziĠyouĠ
huoĠ wuĠ
xuĠ shuĠ
ch ĠĠĠ
te ĠshiĠ
te ĠyuĠ
zhen ĠheĠ
fuĠ ze
wanĠ quan
teĠ langĠ
tanĠ dingĠ
ĠnaĠ me
ĠĠĠ X
ya ĠshiĠ
rang ĠtaĠ
shengĠ muĠ
tiĠ jiaoĠ
suĠweiĠ aiĠ
shu ĠqiĠ
changĠ beiĠ
douĠ zhengĠ
Ġ ãĥ¼
ĠĠĠ 10ĠyueĠ
lu ĠzaiĠ
zhuang ĠbingĠduĠ
zhiĠ chiĠ
jieĠ duĠshiĠ
ĠbeiĠ keĠ
Ġ000 ĠrenĠ
Ġ gongĠjiĠ
ci ĠyouĠ
yinĠ jingĠ
shang ĠzhiĠ
ping ĠshiĠ
qiang ĠjiĠ
30 ĠnianĠ
km Ġ
ĠheĠ panĠ
daĠ buĠ
jianĠ she
yingĠ duiĠ
ĠjiaĠ jingĠ
ĠjuĠ qingĠ
ĠsuĠ lianĠ
zheng ĠliĠ
dongĠ niĠ
jiaoĠ keĠ
ĠfuĠ leiĠ
chuĠxianĠ leĠ
huaĠshengĠ dunĠ
dongĠ cheĠ
yanĠ huaĠ
le ĠweiĠ
ai ĠguoĠ
sheng ĠzhongĠ
ku ĠdeĠ
huan ĠjieĠ
fuĠ sheĠ
duiĠ huaĠ
ĠfaĠ biaoĠ
gongĠheĠ dangĠ
ĠyouĠ taiĠ
jianĠ zao
daoĠ shangĠ
chuĠ ruĠkouĠ
baoĠ zhengĠ
aiĠ qingĠ
ciĠzhiĠ waiĠ
ĠĠĠ U
zhu ĠguoĠ
zu ĠyuĠ
ĠrenĠzhongĠ gongĠ
Ġ Re
ba ĠyueĠ
mo ĠqiĠ
ĠzaiĠ gaiĠ
ĠheĠ qiĠ
yuanĠ ben
jinĠ qiuĠ
chongĠ qingĠ
ri ĠyiĠ
1977 ĠnianĠ
youĠ guanĠ
shenĠ shengĠ
ĠyinĠ faĠ
ĠshiĠzhongĠ huaĠrenĠminĠgongĠheĠguoĠ
zengĠjiaĠ leĠ
renĠminĠ daiĠbiaoĠdaĠhuiĠ
shengĠchan ĠdeĠ
Ġ 80
ĠĠĠ lingĠwaiĠ
ke ĠrenĠ
juĠ beiĠ
Ġ re
yin ĠerĠ
la ĠyuĠ
buĠ luoĠ
xiaĠ fangĠ
ĠguoĠjiaĠ duiĠ
shou ĠheĠ
chuan ĠdiĠ
siĠ tanĠ
shenĠ wangĠ
baĠ laĠ
gouĠ mai
aiĠdeĠ huaĠ
lei ĠweiĠ
kang ĠxiĠ
chaoĠ tingĠ
ĠĠĠ 5
ĠĠĠ 2017ĠnianĠ
yue ĠweiĠ
ĠshiĠ yueĠ
xiangĠ mu
dongĠ gongĠ
fenĠ quĠ
luoĠ boĠteĠ
ĠzhuĠ jianĠ
6 ĠgeĠ
duan ĠyuĠ
hang ĠxianĠ
kan ĠdeĠ
Ġnian ĠliĠ
zongĠ tong
hanĠ moĠdeĠ
Ġ langĠ
ĠĠĠ deĠĠĠ
wang ĠyouĠ
ss Ġ
ĠyiĠ xingĠ
shouĠ haiĠ
xieĠ tiao
ĠĠĠ xiangĠgangĠ
fen ĠqiĠ
ding ĠzhiĠ
ĠyiĠ riĠ
geĠ siĠ
jiaoĠ daoĠ
pinĠ lvĠ
Ġ ju
Ġ chengĠshiĠ
long ĠshiĠ
zhuĠ diĠ
ziĠ liao
ĠerĠ houĠ
ĠkeĠneng ĠshiĠ
Ġ qiao
ĠĠĠ 2016ĠnianĠ
ĠyouĠ youĠ
shouĠ feiĠ
caiĠ liao
canĠmou ĠzhangĠ
xun ĠfuĠ
jianĠ guoĠ
mianĠ shangĠ
ĠxinĠ jiaĠ
ĠbiĠ yeĠyuĠ
ĠaĠ laĠ
chengĠ haoĠ
ciĠ daĠ
meiĠ zhou
ĠlingĠyiĠ fangĠmianĠ
Ġ cao
ĠĠĠ shangĠ
ĠzhiĠ luĠ
ĠliĠ xinĠ
ĠĠĠ zhanĠ
di ĠyiĠjiĠ
kong ĠdeĠ
mingĠ luĠ
huaĠrenĠminĠ gongĠheĠ
nvĠzhuĠ jueĠ
Ġ 1938
jiao ĠheĠ
na ĠsiĠ
ĠxiĠ huanĠ
longĠ shengĠ
ĠshengĠzhangĠyuĠ haiĠbaĠ
pin ĠzhiĠ
zhui ĠsuĠ
huiĠ xiangĠ
changĠ wu
qianĠ houĠ
gaoĠ yuanĠ
Ġ pan
fen ĠjiĠ
qian ĠzaiĠ
pai ĠdeĠzhuĠ
ĠshiĠ jingĠ
jieĠ guanĠ
dongĠ yuanĠ
Ġzai ĠyuĠ
ĠĠĠsuiĠ ranĠ
du ĠdaĠ
ben ĠkeĠ
lou ĠdeĠ
ĠheĠ chengĠ
ĠqiĠ chuĠ
qingĠ xuĠ
Ġmi ĠdeĠdiĠquĠ
1962 ĠnianĠ
zaiĠ ciĠ
fuĠ yinĠ
ĠkaiĠ faĠ
bin ĠshiĠ
1971 ĠnianĠ
fenĠ xiaoĠ
haiĠ eĠ
huĠ poĠ
ĠjianĠ sheĠ
ĠĠĠof ĠĠĠtheĠĠĠ
zhanĠzheng ĠzhongĠ
ri ĠjiĠ
ye ĠerĠ
zhuĠ liuĠ
moĠ luoĠ
ĠtianĠ jinĠ
yin ĠzhiĠ
guoĠ quĠ
ĠbuĠ daĠ
rongĠ naĠ
xingĠzhengĠ zhenĠquĠ
han ĠyiĠ
daĠ qiĠ
ĠshiĠ zhangĠ
Ġli ĠshiĠdeĠ
mingĠ queĠ
ĠdongĠ wuĠ
eĠluoĠ siĠdeĠ
ĠmaĠlai ĠxiĠyaĠ
Ġ genĠju
ĠĠĠ taiĠ
zhong ĠdeĠyiĠ
20 ĠnianĠ
ye ĠzhongĠ
buĠ keĠ
shangĠ jiaĠ
qingĠ daoĠ
anĠ zhaoĠ
xiang ĠzhongĠ
quan ĠweiĠ
lei ĠshiĠ
duiĠ zhenĠ
huĠ dongĠ
ĠshiĠyongĠ zheĠ
ĠboĠ chuĠ
ĠĠĠ zongĠ
shangĠ leĠ
yingĠ junĠ
zhouĠ zhangĠ
w ĠĠĠ
xun ĠdeĠ
fuĠ zhuĠrenĠ
xiang ĠzaiĠ
fei ĠyiĠ
ceng ĠrenĠ
is ĠĠĠ
shengĠ jingĠ
tiĠ yanĠ
fenĠ lieĠ
ming ĠyouĠ
hou ĠbuĠjiuĠ
yong ĠzhiĠ
ĠweiĠ yaĠ
gongĠ gaoĠ
zhengĠ duoĠ
ĠwuĠ xianĠ
nvĠ haiĠ
peiĠ yangĠ
ĠquanĠ qiuĠ
ri ĠyuĠ
bo ĠkeĠ
zao ĠxingĠ
guiĠ moĠdeĠ
tuanĠ zhangĠ
jiu ĠrenĠ
gongĠ shangĠ
zhuĠ dongĠ
xiangĠ guan
huiĠ huaĠ
shangĠ pinĠ
liangĠ ceĠ
ye ĠweiĠ
zuo ĠzhongĠ
qing ĠxiĠ
zhen ĠdiĠ
shengĠ fuĠ
yinĠ shua
Ġ ning
chu ĠnianĠ
fa ĠliĠyaĠ
dai ĠyiĠ
suan ĠfaĠ
fenĠ lanĠ
shuiĠ kuĠ
ĠqiĠzhongĠ nanĠ
taiĠwan ĠdeĠ
Ġ poĠ
miao ĠdeĠ
ĠyuĠ qiĠtaĠ
ĠqiĠ youĠ
tongĠ wangĠ
tianĠ tangĠ
mianĠ linĠ
gangĠ yuanĠ
ĠdeĠrenĠ wuĠ
ĠĠĠ 6
mei ĠriĠ
huo ĠyueĠ
es Ġ
yanĠ wuĠ
sheĠ hui
ĠshiĠyiĠ jiĠ
ĠhuĠ nanĠ
Ġke ĠshiĠ
ĠĠĠ 1949
hou ĠrenĠ
dong ĠyiĠ
chengĠ zhangĠ
leĠ gaiĠ
ganĠ jueĠ
Ġ lai
ĠĠĠ luĠ
er ĠyouĠ
tong ĠzhongĠ
du ĠyiĠ
ĠbuĠ laiĠ
qingĠ shaoĠnianĠ
zhenĠ yaĠ
tiĠyuĠ guanĠ
Ġ gan
Ġ 22
yi ĠshiĠjianĠ
jian ĠliĠdeĠ
ĠbuĠ zuĠ
qianĠ ruĠ
suĠ danĠ
Ġ15 Ġ
ĠxiĠbanĠ yaĠyuĠ
ĠĠĠ feiĠ
dang ĠheĠ
na ĠerĠ
fou ĠrenĠ
1973 ĠnianĠ
ĠheĠ heĠ
shenĠ chaĠ
mianĠjiĠ heĠ
ĠdongĠ jingĠ
Ġ sheĠliĠ
dui ĠliĠ
12 ĠnianĠ
meiĠ meiĠ
a ĠjiĠ
Ġ chanĠ
an ĠrenĠ
ĠĠĠ 8
jie ĠzaiĠ
jie ĠweiĠzhiĠ
fa ĠzhongĠ
ts Ġ
daĠ duoĠshuĠ
shengĠ xiaĠ
nvĠ yanĠyuanĠ
ĠguoĠminĠ dangĠ
xiaĠxiaĠdeĠyiĠgeĠ xiangĠ
Ġ 2004
Ġ zuiĠdaĠ
ĠĠĠ riĠ
cha ĠliĠ
weiĠ yuĠ
shouĠ lingĠ
duoĠ mingĠ
quanĠ qiu
guĠ dongĠ
kaiĠ muĠ
ĠdeĠyiĠ siĠ
mouĠ shaĠ
Ġha ĠerĠ
Ġ diao
Ġ JR
Ġ guĠshiĠ
shu ĠyouĠ
chan ĠdeĠ
1936 ĠnianĠ
ĠyuĠ youĠ
yongĠ jiuĠ
Ġ reĠ
ĠĠĠ 10
ĠzhiĠ zhengĠ
nanĠ feiĠ
shenĠ shangĠ
ĠtiĠ chuĠ
ĠmuĠqianĠ shangĠweiĠyouĠ
Ġ xie
Ġ 36
Ġ 1998ĠnianĠ
la ĠliĠ
su ĠdaĠ
jianĠ daoĠ
danĠ yuanĠ
ĠnianĠ12ĠyueĠ 31ĠriĠ
ĠshiĠzhongĠ xinĠ
xiangĠgang ĠdeĠ
Ġ 1ĠyueĠ
ĠĠĠ tongĠ
ĠĠĠ gaoĠ
ĠĠĠ 3Ġ
ĠĠĠ 2021ĠnianĠ
ze ĠyiĠ
chuang ĠshiĠrenĠ
ĠshiĠ guĠ
ĠyouĠ xingĠ
xiĠ siĠ
shengĠ geĠweiĠ
tianĠ ran
Ġ ou
1941 ĠnianĠ
1959 ĠnianĠ
1963 ĠnianĠ
huoĠ dongĠdeĠ
haiĠ jun
ĠbaoĠ gaoĠ
leĠ liangĠ
laĠ teĠ
hanĠ linĠ
diĠyiĠ buĠ
fuĠ luoĠliĠdaĠ
Ġdan ĠyiĠ
Ġba ĠliĠ
ĠmuĠqianĠshangĠweiĠyouĠ renĠgongĠyinĠzhongĠzaiĠpeiĠ
al Ġ
waiĠ guanĠ
ĠziĠ liaoĠ
canĠyuĠ leĠ
xianĠdeĠyiĠgeĠ xingĠzhengĠzhenĠquĠ
ĠĠĠin ĠĠĠ
ming ĠheĠ
shen ĠjiĠ
ĠyiĠ chengĠ
biĠ ya
ing ĠĠĠ
keĠ xue
anĠ pai
tianĠ huangĠ
chuangĠ xinĠ
Ġ can
ĠĠĠ boĠ
wu ĠzaiĠ
ĠzaiĠ naĠliĠ
ĠrenĠ jiaoĠ
zhuĠ daĠ
ĠqiĠ qiĠ
fangĠ chengĠ
bianĠ haoĠweiĠ
caiĠ wuĠ
ĠwanĠ pingĠfangĠ
wuĠliĠ xueĠ
zhang ĠliĠ
chou ĠbeiĠ
Ġ 21
ĠĠĠ 4ĠyueĠ
1939 ĠnianĠ
daoĠ qianĠ
mingĠ ciĠ
chongĠ manĠ
Ġ bu
he ĠyiĠgeĠ
tui ĠxingĠ
31 Ġ
heĠ pingĠ
yuanĠ quĠ
juĠ changĠ
kaiĠ faĠdeĠ
ĠgaiĠ diĠdeĠ
ĠĠĠ 12
bian ĠyuĠ
ĠxiĠ jinĠ
jiaoĠ zongĠ
duĠ jiaĠ
ĠzheĠ yeĠshiĠ
Ġzhe ĠbuĠ
lianĠmeng ĠdeĠ
Ġzhou ĠnianĠ
ĠĠĠ puĠ
tai ĠdaĠ
kan ĠfaĠ
cheĠ daoĠ
saiĠ baiĠ
zaoĠ qiĠdeĠ
jingĠjiĠ xueĠ
ĠkeĠnengĠ huiĠ
Ġ seĠ
ĠĠĠ 7
mi ĠshiĠ
yin ĠjiĠ
xun ĠshiĠ
ĠzaiĠ renĠ
ĠdaĠ chenĠ
yinĠ ziĠ
guĠ wuĠ
neiĠ mengĠguĠ
laĠ geĠ
Ġ gui
Ġ buĠshiĠ
ĠĠĠ 15
dian ĠyuĠ
zhou ĠfuĠzeĠguanĠxiaĠ
ĠrenĠ min
ĠerĠ zheĠ
shouĠ huiĠ
ruĠ jingĠ
ĠgongĠ jinĠ
ĠĠĠgeĠrenĠ shengĠhuoĠ
Ġ à¸
Ġ 1999ĠnianĠ
zeng ĠzhiĠ
codice Ġ
ĠdanĠ yeĠ
lun ĠsiĠ
buĠ manĠ
xiangĠ beiĠ
ĠnianĠ7ĠyueĠ 1ĠriĠ
ĠĠĠ 7ĠyueĠ
xia ĠyuĠ
tuo ĠfuĠ
ĠshiĠ xiangĠgangĠ
shengĠ xiaoĠ
tiĠ gongĠdeĠ
wangĠ chao
jiaoĠyuĠ jiĠ
Ġ 34
Ġ kaĠerĠ
Ġ keĠliĠsiĠ
bu ĠweiĠyuĠ
xia ĠzhiĠ
sui ĠdeĠ
niu ĠsiĠ
ne ĠshengĠ
xueĠ yuanĠdeĠ
xinĠ zengĠ
jin ĠzhongĠ
duan ĠqiĠ
1965 ĠnianĠ
1953 ĠnianĠ
ĠzhiĠ yaoĠ
zhuĠyao ĠshiĠ
ĠĠĠ yeĠ
fang ĠheĠ
tian ĠfuĠ
ĠliĠ youĠ
ĠxiĠ yuanĠ
tingĠ yunĠ
1967 ĠnianĠ
ĠliĠ qiĠ
ĠbingĠ meiĠyouĠ
ĠĠĠjinĠ guanĠ
Ġ yuan
xinĠ shengĠ
duiĠ taĠ
shuiĠ shenĠ
jiang ĠheĠ
nuo ĠsiĠ
1944 ĠnianĠ
fuĠ huaĠ
jinĠ xing
gaiĠ mingĠ
baĠ nen
kaĠluoĠ laiĠnaĠ
Ġ 90
xin ĠyuĠ
lao ĠgongĠ
ĠzaiĠ taĠdeĠ
ĠqingĠ chaoĠ
ĠshiĠ nanĠjiĠzhouĠdeĠ
ĠyiĠ xie
zhuĠ longĠ
ĠyanĠ changĠ
zhong ĠshiĠjiĠ
qian ĠweiĠ
han ĠshiĠ
ĠyueĠ laiĠyueĠ
xiangĠ lianĠ
ĠĠĠ Pro
ĠĠĠ quanĠ
ĠzhiĠ chi
gongĠ zuoĠdeĠ
jiaĠ zhouĠ
zhanĠ zhengĠdeĠ
ciĠ huiĠ
zongĠ duiĠ
shouĠdaoĠ leĠ
Ġ zha
hou ĠguoĠ
yan ĠliĠ
huo ĠyiĠ
liang ĠjiaĠ
wai ĠjiĠ
huan ĠxiangĠ
siĠ xingĠ
siĠ faĠ
minĠ jinĠ
niĠ yaĠdeĠ
liĠ yongĠ
5Ġ gongĠliĠ
Ġ 55
ĠĠĠ 8ĠyueĠ
Ġjie ĠweiĠ
jing ĠxiĠ
cha ĠjuĠ
jinĠ shanĠ
yaĠ zhou
zuiĠ duoĠdeĠ
ĠliĠshiĠ xueĠjiaĠ
peiĠ xunĠ
Ġ huiĠyiĠ
ĠĠĠ guĠshiĠ
du ĠzhiĠ
qian ĠyuĠ
feng ĠyuĠ
fuĠ jiaĠ
ziĠ gongĠsiĠ
dianĠ chiĠ
dianĠ naoĠ
baĠ saiĠ
me ĠĠĠ
faĠ biao
houĠ fangĠ
yanĠ xuĠ
boĠ laĠ
lingĠ yuĠdeĠ
ĠgongĠ gongĠ
ĠyuanĠ xingĠ
yingĠdeĠ leĠ
mianĠjiĠheĠ renĠkouĠ
ĠĠĠ jiuĠ
ĠĠĠ laĠ
dao ĠliĠ
qian ĠliĠ
she ĠliĠdeĠ
1930 ĠnianĠ
nianĠ daiĠ
zhanĠzheng ĠqiĠjianĠ
Ġ Ø
Ġ xingĠshiĠ
ĠĠĠ duiĠyuĠ
ni ĠshiĠ
daĠ xueĠdeĠ
geĠ ciĠ
ĠdeĠjiĠ shuĠ
jiangĠsuĠ shengĠ
Ġ 38
nan ĠrenĠ
wang ĠyiĠ
la ĠdiĠ
lanĠ seĠ
Ġ 75
Ġ Pa
gai ĠzhiĠ
che ĠliĠ
ce ĠqiĠ
hang ĠxingĠ
ha ĠdeĠ
32 Ġ
ĠdaĠ buĠ
ĠgaiĠ cun
ĠjingĠ neiĠ
ĠboĠ luoĠ
ĠgaiĠdiĠdeĠ mianĠjiĠheĠrenĠkouĠ
ĠgaiĠdiĠdeĠmianĠjiĠheĠrenĠkouĠ jieĠweiĠzhiĠ
Ġ paĠ
Ġ 11Ġ
weiĠ jiĠ
houĠ lai
ciĠ shuĠ
heiĠ longĠjiangĠ
ĠyiĠshuĠ jiaĠ
ĠĠĠyouĠ xiĠ
ĠĠĠ muĠqianĠ
pei ĠdeĠ
zhongĠ xueĠ
xuanĠ chuan
dangĠ xuanĠweiĠ
ĠqianĠ miĠ
ĠĠĠ 2015ĠnianĠ
wei ĠshiĠjieĠ
ĠshiĠ zhengĠ
erĠ beiĠ
ĠfuĠ ze
saiĠ cheĠ
ĠmingĠ chaoĠ
Ġ La
shou ĠerĠ
lu ĠweiĠ
lei ĠheĠ
jiangĠ zuiĠjiaĠ
zongĠ jingĠliĠ
tuĠ anĠ
tingĠ kaoĠ
ĠqianĠ longĠ
zhengĠxie ĠweiĠyuanĠ
Ġ guanĠzhiĠ
an ĠfuĠ
ĠĠĠ jianĠliĠ
zhuang ĠweiĠ
chui ĠzhiĠ
tongĠ chang
Ġ leiĠjiĠ
ĠĠĠ Y
ĠĠĠ Me
1935 ĠnianĠ
diĠ liuĠ
jiaĠ qiangĠ
ĠbuĠ luĠ
quĠ dongĠ
jiangĠ zheĠ
dangĠ anĠ
zhengĠfu ĠyuĠ
mei ĠerĠ
sui ĠzhiĠ
shangĠ suĠ
zongĠ shuĠ
ĠwanĠ meiĠ
ĠtongĠ riĠ
ĠĠĠyiĠ xiaĠ
ĠfanĠ duiĠ
ĠfenĠbie ĠweiĠ
jiaĠliĠfuĠ niĠyaĠzhouĠ
Ġ ding
Ġ com
Ġ zhanĠdiĠ
ĠyiĠ tiĠ
yanĠ shengĠ
gaiĠ jinĠ
anĠ xianĠ
ĠciĠ ciĠ
ĠwanĠ chengĠ
si ĠzhongĠ
te ĠzaiĠ
chuan ĠyueĠ
jiaĠ naĠ
quĠ ziĠ
luĠ duanĠ
ĠhaiĠ junĠ
nongĠ changĠ
Ġ 2003
ĠĠĠ e
ĠĠĠ Ro
ĠĠĠ 2014ĠnianĠ
fu ĠzhongĠ
dong ĠzhiĠ
mei ĠyiĠ
kuai ĠdeĠ
jiuĠ duĠyuĠ
ĠshiĠjiĠ yuĠ
Ġtong ĠzhiĠ
hangĠ zhanĠ
xiuĠ dingĠ
faĠshengĠ leĠ
ĠĠĠ jianĠzhuĠ
xin ĠheĠ
ĠqiĠ yongĠ
tongĠ xueĠ
zhouĠ bian
guĠ laoĠdeĠ
ziĠxingĠ cheĠ
Ġ 1940
Ġ piaoĠ
Ġ 9Ġ
li ĠyiĠ
cheng ĠyiĠgeĠ
ri ĠshiĠ
jiao ĠjiĠ
15 ĠnianĠ
jianĠ danĠ
xiangĠ daoĠ
fenĠ chengĠ
ĠkeĠ laiĠ
liuĠ liangĠ
puĠ chaĠ
zuiĠzhongĠ yaoĠdeĠ
Ġ 70
Ġ Vi
Ġ junĠshiĠ
ĠĠĠ 9ĠyueĠ
shan ĠyuĠ
zhuĠ shouĠ
xiangĠ jiaoĠ
nanĠ minĠ
geĠyueĠ houĠ
ĠĠĠ 2020ĠnianĠ
zhe ĠjiĠ
jingĠ quĠ
ĠbiĠ xuĠ
ĠhuaĠ shengĠ
ba ĠtaĠ
suan ĠdeĠ
zhuĠ guanĠ
yinĠ niĠ
pingĠ hengĠ
duĠ teĠdeĠ
miĠ duĠ
chiĠ jingĠ
eĠ haiĠeĠ
ĠĠĠcheĠzhanĠ jieĠgouĠ
si ĠyueĠ
xia ĠerĠ
ĠbuĠ heĠ
shangĠ fangĠ
linĠ shengĠ
kaĠ feiĠ
ĠM Ġ
ĠĠĠ for
jinĠ chengĠ
zhengĠ jiaoĠ
ĠshengĠ chengĠ
huiĠyiĠ shangĠ
ĠcengĠ jingĠ
ĠĠĠ yue
ziĠ shaĠ
touĠ ru
Ġdan ĠbuĠ
Ġer ĠheĠ
ĠĠĠzhiĠ zuoĠ
jin ĠnianĠ
fang ĠdiĠ
mu ĠjiĠ
2025 ĠnianĠ
ĠzaiĠ riĠbenĠ
jinĠ rongĠ
yingĠ geĠlan
ĠdaĠ qiaoĠ
ĠliĠfaĠ huiĠ
Ġ zhuo
Ġ ga
sheng ĠrenĠminĠzhengĠfuĠ
ming ĠjiĠ
zuo ĠheĠ
1969 ĠnianĠ
1961 ĠnianĠ
jianĠ chiĠ
2Ġ miĠ
ĠĠĠ Li
ĠĠĠ muĠ
ya ĠsiĠ
pen Ġ
ĠzaiĠ nanĠ
fuĠ buĠzhangĠ
beiĠ meiĠ
fangĠ xingĠ
baoĠ fuĠ
mianĠ qianĠ
luoĠfaĠ keĠ
ĠĠĠ Mo
1931 ĠnianĠ
juĠ feng
ĠqiĠzhongĠ youĠ
ĠR Ġ
Ġ heng
ban ĠnianĠ
kuang ĠjiaĠ
jinĠ zhangĠ
yingĠ guoĠdeĠ
ĠdeĠshiĠ shiĠ
J Ġ
ĠĠĠ 6ĠyueĠ
jin ĠqiĠ
dui ĠweiĠ
zhuan ĠzhiĠ
huiĠ jiaĠ
juĠ zhuĠzaiĠ
juĠ juĠzhangĠ
jiuĠ beiĠ
chongĠ zuĠ
tuiĠ fanĠ
Ġ man
Ġ 2002
Ġ 20Ġ
ĠĠĠ riĠbenĠ
ĠĠĠ 2013ĠnianĠ
bao ĠjiĠ
duo ĠbuĠ
yanĠ faĠ
gongĠchanĠ zhuĠyiĠ
Ġmi ĠzhiĠ
li ĠkeĠ
ĠĠĠ 6Ġ
ci ĠheĠ
lu ĠxiĠ
luo ĠweiĠ
ku ĠerĠ
1957 ĠnianĠ
ĠshiĠ taiĠwanĠ
ĠdeĠyiĠ jianĠ
chengĠliĠ leĠ
ĠzhengĠ geĠ
ĠbingĠqie ĠzaiĠ
Ġ 46
ĠĠĠ huoĠ
ĠĠĠ yongĠ
dai ĠzhiĠ
yao ĠzaiĠ
fei ĠzhiĠ
ka ĠdeĠ
run Ġ
ĠshiĠ siĠ
zhanĠ juĠ
ĠzhuĠ xiĠ
liĠ liangĠ
hangĠ banĠ
ĠtaiĠ pingĠ
wuĠxianĠ dianĠshiĠ
tai ĠweiĠ
lai ĠerĠ
pan ĠdeĠ
keĠ xueĠjiaĠ
fangĠ bianĠ
yanĠ shenĠzhiĠ
zuoĠ leĠ
ĠdaĠ xueĠdeĠ
ĠfuĠ gaiĠ
wanĠ zhengĠdeĠ
luoĠ xuanĠ
Ġ 150
ĠĠĠ 2010ĠnianĠ
ĠyouĠ heĠ
wenĠ geĠ
Ġ chongĠxinĠ
yan ĠqiĠ
nei ĠsiĠ
reng ĠzaiĠ
ĠguoĠ fangĠ
ĠxiĠ xiĠ
junĠ beiĠ
Ġ000 Ġ
shou ĠliĠ
zu ĠweiĠ
ĠshiĠ fuĠ
guoĠ fangĠbuĠ
yuanĠ waiĠ
ĠkeĠ laĠ
muĠ jianĠ
zhenĠ zhengĠ
cheĠ tuiĠ
feiĠ chang
baĠ leĠsiĠ
Ġ guanĠliĠ
mei ĠzhongĠ
1951 ĠnianĠ
Ġyue ĠrenĠ
shuĠ shuĠ
mengĠ teĠ
ĠĠĠgenĠjuĠ 2010ĠnianĠmeiĠguoĠrenĠkouĠpuĠchaĠdeĠshuĠjuĠ
ĠĠĠ 2012ĠnianĠ
shen ĠliĠ
ka ĠliĠ
po ĠerĠ
liuĠ xueĠ
wangĠ houĠ
zuĠ ziĠzhiĠ
ĠxianĠ jinĠ
Ġceng ĠzaiĠ
jiang ĠweiĠ
qian ĠqiĠ
ben ĠzhiĠ
tui ĠliĠ
hei ĠrenĠ
son Ġ
shengĠ jieĠrangĠ
qianĠ xianĠ
Ġmi ĠdeĠ
8 ĠgeĠ
Ġ zhui
ta ĠerĠ
chong ĠfuĠ
1942 ĠnianĠ
taiĠ shouĠ
meiĠ tianĠ
zhuanĠ huanĠ
ĠD Ġ
Ġfei ĠliĠ
Ġ long
Ġ yuĠyiĠ
xiao ĠyiĠ
chen ĠdeĠ
ĠshiĠ shangĠ
zhengĠ wuĠ
ĠriĠ baoĠ
liuĠ chuanĠ
tuĠ ranĠ
quĠshiĠ houĠ
Ġjiang ĠxiĠ
Ġ gouĠ
ĠĠĠ tangĠ
mi ĠjiĠ
dang ĠriĠ
duo ĠliĠ
jianĠ zhuĠshiĠ
jieĠ jieĠ
qianĠ laiĠ
ĠkeĠ chengĠ
feiĠ faĠ
ĠdaoĠ daĠ
liaoĠ ning
zhengĠfu ĠzaiĠ
3 ĠmiĠ
quĠ neiĠ
quanĠ tiĠ
guangĠ fanĠdeĠ
ĠweiĠyuanĠ huiĠdeĠ
ĠP Ġ
e ĠerĠ
Ġ zao
Ġ 180
ĠĠĠ yanĠgeĠ
jin ĠheĠ
ri ĠerĠ
nan ĠyuĠ
zong ĠdeĠ
1960 ĠnianĠdaiĠ
beiĠ qiĠ
chongĠ fanĠ
xinĠguanĠ feiĠyanĠ
2 ĠĠĠ
ti ĠbuĠ
liang ĠyuĠ
pu ĠdeĠ
rong ĠdeĠ
huiĠ guanĠ
liuĠ geĠ
tuĠ ran
tanĠ suoĠ
ĠshiĠshiĠ zhangĠ
che ĠrenĠ
ĠyiĠ qingĠ
jiaĠ erĠ
mianĠ xiangĠ
er ĠzhongĠ
1933 ĠnianĠ
ĠyiĠ jiaoĠ
xiĠ lie
faĠ jueĠ
jinĠ siĠ
jingĠ yuanĠ
fangĠ xiangĠdeĠ
baoĠ anĠ
daiĠ tiĠ
tuĠ shaĠ
Ġyou ĠdeĠ
xingĠzhengĠ danĠweiĠ
ĠanĠ huiĠ
ĠdiĠerĠ ciĠ
Ġ qin
ĠĠĠ gai
ĠĠĠ 2005
guan ĠzaiĠ
kai ĠqiĠ
ken ĠdingĠ
ĠyiĠ changĠ
ĠjiĠ cheĠ
bianĠ zuĠ
caiĠ zhengĠbuĠ
gangĠ tieĠ
hangĠkong ĠgongĠsiĠ
ĠshiĠyiĠgeĠweiĠyuĠ meiĠguoĠ
Ġ pao
dao ĠguoĠ
tuo ĠerĠ
gei ĠtaĠ
ĠzhongĠ beiĠ
tingĠ zhangĠ
renĠdaĠ daiĠbiaoĠ
fan ĠfuĠ
1928 ĠnianĠ
xian ĠbuĠ
xin ĠzhiĠ
lei ĠyuĠ
cun ĠyuĠ
fuĠ qiĠ
leĠ xuĠduoĠ
ĠliuĠyuĠ mianĠjiĠ
wan ĠqiĠ
ben ĠjiĠ
che ĠxingĠ
shao ĠyouĠ
renĠ min
ĠbingĠ biaoĠshiĠ
ĠzhuĠ chiĠ
ying ĠheĠ
zhao ĠshiĠ
zhuĠ chiĠrenĠ
ĠgongĠ luĠ
ĠgenĠjuĠ 2020ĠnianĠmeiĠguoĠrenĠkouĠpuĠchaĠdeĠshuĠjuĠ
Ġ Le
ing Ġ
shangĠ jiangĠ
duoĠ xiangĠ
fengĠ geĠdeĠ
ĠyeĠ keĠyiĠ
taoĠ wangĠ
Ġ kua
zuo ĠjiĠ
ben ĠbuĠ
fan ĠjiĠ
nv ĠyouĠ
qiao ĠdeĠ
keĠ saĠsiĠ
chengĠ danĠ
huoĠ quĠ
boĠ yinĠ
touĠ shouĠ
xinĠxiĠ lanĠ
ĠfenĠbie ĠshiĠ
ĠĠĠ 2011ĠnianĠ
nian ĠdeĠ
th ĠĠĠ
fuĠ siĠ
ĠjiaĠ ru
saiĠ guanĠjunĠ
ĠdeĠyiĠ weiĠ
zhuanĠ quĠ
Ġ zhen
ĠĠĠ zuiĠ
guan ĠweiĠ
gu ĠyiĠ
fen ĠshiĠ
huan ĠweiĠ
ĠqiĠ houĠyuĠ
xiaoĠ sheĠ
ĠtaĠ jiangĠ
caiĠ panĠ
huoĠdeĠ deĠ
ĠĠĠ ruĠ
ma ĠqiĠ
zhongĠ haiĠ
yuanĠ shuĠ
ĠerĠ ciĠ
ĠxiĠ siĠ
ĠdaĠ diĠ
fenĠ xiangĠ
ĠyunĠ nanĠ
ĠĠĠ faĠguoĠ
tai ĠyiĠ
ĠjiĠ xu
gongĠ sheĠ
shouĠ mingĠ
yeĠ naĠ
xueĠshiĠ xueĠweiĠ
Ġ 37
Ġ 39
Ġ Li
ze ĠdeĠ
gang ĠdeĠ
shun ĠxuĠ
ry Ġ
1912 ĠnianĠ
diĠ mianĠ
geĠ tiĠ
jieĠ xiaĠ
qianĠ zeĠ
ĠyinĠweiĠ taĠ
Ġ 2023ĠnianĠ
jing ĠbuĠ
qing ĠheĠ
ting ĠheĠ
ceng ĠbeiĠ
jieĠ ruĠ
dianĠ liuĠ
pingĠ dingĠ
ĠdanĠ zheĠ
ĠshiĠshiĠ yiĠ
ĠxinĠ zeng
Ġ qu
Ġ 1997ĠnianĠ
ĠĠĠ baiĠ
fei ĠshiĠ
bai ĠxingĠ
dou ĠbuĠ
ĠshiĠ xiĠbanĠyaĠ
huaĠ mianĠ
zuoĠ yeĠ
ĠsiĠ lingĠbuĠ
meiĠ guoĠyiĠ
keĠneng ĠxingĠ
yaĠmeiĠ niĠyaĠ
pan ĠchuĠ
mao ĠdeĠ
chengĠ gongĠdeĠ
faĠ erĠ
yinĠ jinĠ
danĠ xinĠ
duoĠ lunĠ
waiĠ jieĠ
ĠjieĠ fangĠ
qiangĠ daĠdeĠ
Ġ rui
Ġ De
ĠĠĠ TheĠĠĠ
le ĠzhiĠ
wan ĠnianĠ
faĠ buĠdeĠ
chuangĠ zao
nvĠ wangĠ
ĠyingĠ xiangĠ
wangĠyuanĠ jingĠ
Ġ te
Ġ houĠyuĠ
ting ĠshiĠ
fengĠ suoĠ
6 ĠmiĠ
Ġ jiĠyiĠ
Ġ bangĠzhuĠ
cha ĠerĠsiĠ
yanĠ zou
guanĠ xiĠdeĠ
danĠ duĠ
tiaoĠ wenĠ
ranĠ liaoĠ
guan Ġli
yong ĠdiĠ
wen ĠyuĠ
lin ĠyuĠ
zhongĠ huaĠ
shenĠ ruĠ
dianĠyingĠ jieĠ
ĠrenĠkou ĠdeĠ
yu ĠdeĠguoĠ
zu ĠshiĠ
1927 ĠnianĠ
ĠliĠ jingĠ
gongĠ zhanĠ
shouĠ huanĠyingĠ
shuiĠ mianĠ
ĠtongĠshiĠ yeĠ
yong ĠheĠ
san ĠdeĠ
san ĠyueĠ
sha ĠshiĠ
heĠ beiĠ
jieĠ shou
biĠ saiĠdeĠ
xieĠ daiĠ
Ġri ĠyiĠ
ĠmianĠjiĠ 0
ĠĠĠ wenĠhuaĠ
ting ĠjiĠ
or Ġ
ĠshiĠ keĠ
ĠweiĠ daĠ
diĠ tieĠ
xianĠ zaiĠdeĠ
ĠfuĠ erĠ
baĠ geĠ
ĠjieĠ jinĠ
ĠjieĠ gouĠ
ĠaoĠ daĠliĠyaĠ
zuoĠpin ĠdeĠ
huĠlianĠ wangĠ
yi ĠdeĠshiĠ
huang ĠheĠ
jianĠ shao
zhuĠ zhaiĠ
jingĠ neiĠdeĠ
zongĠ zhanĠ
Ġ tuiĠchuĠ
wuĠ renĠjiĠ
fenĠ shuĠ
suĠ songĠ
shanĠ dingĠ
ĠshiĠshiĠ deĠ
fa ĠrenĠ
1943 ĠnianĠ
diĠ daĠ
daĠ lu
ĠdaĠ qiĠ
junĠ jianĠ
sheĠ huiĠdeĠ
ĠyiĠjiĠ zaiĠ
Ġ guoĠliĠ
ĠĠĠ toĠĠĠ
1932 ĠnianĠ
Ġli ĠnianĠ
tongĠ baoĠ
wenĠ siĠ
tiĠ quĠ
baĠ faĠliĠyaĠ
hangĠ zhouĠ
ĠhuĠ beiĠ
Ġ zeng
Ġ Ð°
ĠĠĠ guanĠ
ĠĠĠ dianĠ
zhou ĠdeĠyiĠgeĠshiĠzhenĠ
luĠ waĠ
qianĠ xiaĠ
suĠ sheĠ
ĠdaoĠ luĠ
ĠluĠwa ĠerĠshengĠ
Ġ xue
Ġ tuanĠ
zun ĠzhongĠ
tiĠ caiĠ
boĠ chuĠdeĠ
duoĠ yuanĠ
yanĠjiu ĠzhongĠxinĠ
ĠshiĠxingĠ dengĠweiĠ
aĠgenĠ tingĠ
Ġ fu
shen ĠheĠ
1929 ĠnianĠ
banĠ benĠdeĠ
ĠjingĠ fangĠ
renĠkouĠpuĠ chaĠ
Ġ Mar
ĠĠĠ di
le ĠxiĠ
zu ĠjiĠ
dang ĠbuĠ
28 Ġ
tianĠ wenĠxueĠ
paiĠ lieĠ
ĠaoĠ menĠ
Ġ nu
shen ĠqiĠ
fan ĠdaĠxueĠ
ting ĠyuĠ
wuĠ buĠ
chengĠ shuĠ
xueĠ tangĠ
jiaoĠ gaoĠ
liangĠ haoĠ
shenĠ fuĠ
Ġ she
Ġ 400
bi ĠyuĠ
jiu ĠyueĠ
ceng ĠyouĠ
qianĠ yinĠ
xingĠzhengĠ quĠhuaĠ
ĠguangĠ xuĠ
aĠerĠ beiĠsiĠ
reĠdai ĠqiĠxuanĠ
Ġ yuanĠshiĠ
ĠĠĠ aiĠ
duo ĠsiĠ
jiaĠ xiangĠ
shuĠ faĠ
tongĠ yang
duĠ ziĠ
meiĠ ti
duoĠ guanĠ
geĠlunĠ biĠyaĠ
Ġ chuang
Ġ fenĠweiĠ
ĠĠĠ 1
1924 ĠnianĠ
ĠweiĠ zaiĠ
ĠzhongĠ yaoĠdeĠ
quĠ bieĠ
ĠdeĠyiĠ ciĠ
neiĠ ruiĠ
Ġdan ĠyuĠ
ĠxianĠshiĠ youĠ
Ġ 2001
quĠ muĠ
benĠ shuĠ
shaĠ tianĠ
ĠshengĠ huoĠ
Ġ siĠshiĠ
Ġ hengĠliĠ
tong ĠqiĠ
yin ĠyouĠ
bo ĠjiĠ
diĠ fenĠ
ĠbuĠ yaoĠ
ĠdiĠ 1Ġ
jiangĠ xueĠ
puĠ luoĠ
panĠ luanĠ
Ġzai ĠshiĠ
Ġchi ĠweiĠ
7 ĠgeĠ
Ġ yao
Ġ Al
ĠĠĠ lingĠ
buĠ zaiĠ
ĠyueĠ tuan
ĠxianĠ luĠ
yiĠshiĠ daoĠ
Ġ 300
lu ĠerĠ
ca Ġ
ĠzaiĠ wuĠ
gongĠ ziĠ
jianĠ ceĠ
ĠdaĠ banĠ
ĠzheĠ zuoĠ
Ġ houĠyouĠ
ĠĠĠ De
miao ĠyuĠ
13 ĠnianĠ
1934 ĠnianĠ
ĠyouĠ xiĠdeĠ
xianĠ daoĠ
shouĠ cang
ĠsiĠ houĠ
zhuanĠ jiĠdeĠ
woĠ men
ĠfeiĠ lvĠ
ĠĠĠweiĠ leĠ
gongĠchanĠ dang
2 ĠliĠ
Ġ pengĠ
25 ĠnianĠ
21 ĠnianĠ
CD Ġ
ĠzhiĠ ciĠ
zhongĠ gongĠ
jinĠ huiĠ
bingĠ wuĠ
diĠyiĠ baiĠ
keĠyiĠ tongĠguoĠ
ĠĠĠ zuoĠweiĠ
tu ĠshiĠ
shuo ĠfuĠ
60 Ġ
ĠjiĠ xieĠ
yuanĠ jianĠ
jieĠ lunĠ
shengĠ huiĠ
ĠdiĠ renĠ
xinĠ zhuĠ
zuĠ xianĠ
ĠdeĠyiĠ jiĠ
hanĠ gaiĠ
dianĠshiĠjieĠ muĠ
Ġ tan
qi ĠliĠ
tao ĠyuanĠ
sa ĠdeĠ
fangĠ zhenĠ
tiĠ qianĠ
daiĠ laiĠdeĠ
ĠdeĠyiĠ xiangĠ
ĠziĠ xingĠ
ĠchuĠ ciĠzhiĠwaiĠ
quanĠguoĠ zhongĠdianĠ
luoĠma ĠdiĠguoĠ
ĠyiĠ xianĠ
keĠ leiĠ
banĠ quanĠ
ĠziĠ ranĠ
tingĠ zhanĠ
qiangĠ huaĠ
ĠzuoĠ biaoĠweiĠ
tianĠwenĠ taiĠ
Ġ 187
yong ĠqiĠ
nv ĠrenĠ
daĠ xuanĠ
jingĠ beiĠ
fangĠ chengĠshiĠ
huaĠ guiĠ
yangĠ ziĠ
zongĠ juĠ
shaĠ baiĠ
Ġ zhongĠyuĠ
Ġ biĠdeĠ
ĠĠĠ 2008ĠnianĠ
jingĠ touĠ
eĠ huaĠ
mengĠ junĠ
maoĠ dunĠ
24Ġ xiaoĠshiĠ
Ġ ë
Ġ HR
ĠĠĠ haiĠ
fan ĠshiĠ
hao ĠheĠ
duiĠ fuĠ
ruĠ qiuĠ
ĠtongĠshiĠ yeĠshiĠ
27 Ġ
zang ĠyuĠ
ziĠ woĠ
ciĠ ciĠ
yeĠ zhanĠ
liuĠ dongĠ
zongĠ guanĠ
ĠbingĠ feiĠ
zhaoĠ guĠ
taoĠ wanĠ
ĠshangĠ shuĠ
ĠzhuĠyao ĠshiĠ
Ġ Si
Ġ kuaiĠ
hao ĠzaiĠ
nei ĠyiĠ
ĠshiĠshiĠ shiĠ
ĠdeĠdiĠ sanĠ
ĠdeĠguoĠ chengĠ
ĠwoĠ men
ciĠshiĠjieĠdaĠ zhanĠqiĠjianĠ
Ġ chaoĠguoĠ
ying ĠzhiĠ
qiu ĠheĠ
ting ĠdaoĠ
zhuan ĠliĠ
zhuĠ fangĠ
zhuĠ quanĠ
riĠ changĠ
xiaĠ xiaĠ
liangĠ anĠ
zhuanĠ bianĠ
tuoĠ luoĠ
ĠdeĠjiĠ benĠ
ĠĠĠ jingĠliĠ
ta ĠyouĠ
tu ĠsiĠ
fuĠ xianĠ
huoĠ cheĠzhanĠ
kaoĠ chaĠ
Ġ In
kai ĠerĠ
18 ĠnianĠ
26 Ġ
ĠzhongĠ guoĠdeĠ
zhanĠ quĠ
ĠkeĠ leiĠ
dangĠ xuan
chanĠ wuĠ
cunĠ zaiĠyuĠ
Ġ SAO
ĠĠĠ wanĠ
fan ĠerĠ
jue ĠweiĠ
40 ĠnianĠ
xiangĠ dongĠ
zai ĠĠĠ
zhe ĠyouĠ
pu ĠsiĠ
ĠjiĠ keĠ
ĠyuĠ leiĠ
buĠ duanĠ
ĠguoĠ jia
xianĠ mingĠ
houĠ daiĠ
fangĠ xianĠ
ceĠ lveĠ
rongĠ liangĠ
minĠzuĠ zhuĠyiĠ
baoĠfaĠ houĠ
Ġ nuo
le ĠheĠ
19 ĠnianĠ
wen ĠdiĠ
bai ĠheĠ
wuĠ pinĠ
ĠerĠ taĠ
xueĠ xiaoĠdeĠ
ĠjiaĠ erĠ
duoĠ quĠ
ĠbingĠ chengĠ
tongĠzhiĠ zheĠ
meiĠguoĠrenĠkouĠpuĠ chaĠ
ĠdiĠqiĠ yaĠ
ĠĠĠ guoĠjiĠ
wen ĠbuĠ
ze ĠbeiĠ
chi ĠdaoĠ
guoĠ chengĠzhongĠ
heĠ lanĠ
ĠzhongĠ daĠ
wuĠ erĠ
jiaĠ suĠ
huiĠ sheĠ
huaĠ fenĠ
moĠ fangĠ
poĠ lunĠ
ĠĠĠ yaĠ
dong ĠheĠ
yuanĠ shengĠ
fuĠ zeĠrenĠ
jingĠ lingĠ
fanĠ gongĠ
caiĠ fangĠ
1Ġ riĠqiĠ
ĠtaiĠ beiĠ
mouĠ xie
ĠĠĠ hongĠ
gu ĠerĠ
ya ĠzaiĠ
geĠ laĠsiĠ
faĠ xian
faĠ daĠ
aiĠ haoĠ
pianĠ duanĠ
Ġ12 Ġ
Ġ 1994ĠnianĠ
ĠĠĠ fenĠleiĠ
fa ĠzaiĠ
qu ĠdeĠyiĠgeĠ
diao ĠyuĠ
ĠshiĠ eĠluoĠsiĠ
ĠguoĠ duĠ
ĠqiĠ yueĠ
huaĠ beiĠ
tiĠ gong
fenĠ pei
Ġa ĠerĠbeiĠ
ĠE Ġ
ĠĠĠ zhenĠ
zhi ĠdeĠyiĠ
guan ĠliĠdeĠ
nan ĠxiĠ
qing ĠliĠ
luo ĠheĠ
niu ĠyueĠshiĠ
diĠ dianĠ
jiaĠ shangĠ
jueĠ seĠdeĠ
ĠjinĠ erĠ
xianĠdeĠ feiĠjianĠzhiĠdiĠquĠ
Ġgai ĠshiĠ
3 ĠhaoĠ
yu ĠyiĠgeĠ
ĠĠĠ re
qiu ĠyiĠ
reng ĠweiĠ
ĠguoĠ junĠ
seĠ caiĠ
erĠdeĠ mingĠ
0 ĠzuoĠbiaoĠweiĠ
Ġ boĠshiĠ
luo ĠerĠ
gan ĠshiĠ
tang ĠheĠ
tao ĠliĠ
sis Ġ
ĠqiĠ B1900
mingĠ chengĠweiĠ
lianĠ saiĠdeĠ
ĠweiĠyuĠ yinĠjingĠ
ĠweiĠwuĠ erĠ
0ĠzuoĠbiaoĠweiĠ chiĠjingĠ
shu ĠdiĠ
qu ĠdiĠ
dui ĠdaĠ
wen ĠzhiĠ
nan ĠzhiĠ
pu ĠjiĠ
geng ĠshiĠ
fuĠ nvĠ
shengĠ huoĠdeĠ
dongĠ yaĠ
nanĠ buĠdeĠ
suoĠ weiĠdeĠ
tiaoĠ kuanĠ
ĠliĠshiĠ huiĠ
dianĠshiĠ dongĠhuaĠ
ĠzongĠ tongĠ
ĠyinĠci ĠzaiĠ
Ġ ãĥ³
ĠĠĠ 9
da ĠrenĠ
chengĠ xiangĠ
bianĠ maĠ
ĠshiĠjiĠ zhongĠ
ĠqingĠ chaoĠzhengĠzhiĠrenĠwuĠ
Ġ yingĠdeĠ
ĠĠĠ sanĠ
ĠĠĠ 11ĠyueĠ
te ĠsiĠ
mo ĠliĠ
shui ĠzhongĠ
sen ĠdeĠ
sang ĠshiĠ
buĠ huiĠ
yuanĠ xiaoĠ
chuĠ saiĠ
zuĠqiuĠ lianĠsaiĠ
ĠguoĠminĠ zhengĠfuĠ
3 ĠmingĠ
Ġ hua
ĠĠĠ 4Ġ
tai ĠzaiĠ
gongĠ dianĠ
ĠerĠ laiĠ
ĠxiĠ zhouĠ
ĠfuĠ langĠ
ĠgeĠ guoĠ
ĠdongĠ huaĠ
ĠF Ġ
ĠĠĠcheĠzhanĠ gouĠzaoĠ
Ġ zou
bai ĠnianĠ
dongĠ quĠ
yinĠ daoĠ
jiangĠ paiĠ
miĠ qieĠ
xuanĠ yanĠ
henĠ daĠdeĠ
biaoĠxianĠ chuĠ
Ġ 1945
ĠĠĠ linĠ
ĠĠĠ taĠdeĠ
ĠĠĠ 2022ĠnianĠ
liang ĠyiĠ
35 Ġ
33 Ġ
ĠnianĠ qingĠdeĠ
daĠ lou
meiĠ dongĠ
nanĠsiĠ laĠfuĠ
xinĠtaiĠ biĠ
Ġ 1992ĠnianĠ
ĠĠĠ biĠ
lu ĠzhongĠ
te ĠrenĠ
bai ĠshiĠ
juĠ dianĠ
saiĠ naĠ
kongĠ zhiĠdeĠ
feiĠlvĠ binĠ
yun ĠzaiĠ
chuan ĠdaoĠ
shao ĠweiĠ
pen ĠdiĠ
1909 ĠnianĠ
yuanĠ zhengĠ
gongĠ wuĠ
shengĠ danĠ
yingĠ xiangĠdeĠ
xinĠ quĠ
ĠxingĠ zheng
zongĠ shuĠjiĠ
leiĠ siĠyuĠ
xunĠ zhao
wanĠchengĠ leĠ
shunĠshiĠ zhenĠyuĠ
Ġ la
Ġ changĠqiĠ
Ġ taiĠguoĠ
ĠĠĠ zuoĠ
du ĠzaiĠ
sha ĠrenĠ
wa ĠdeĠ
yingĠ pian
luĠ jingĠ
ĠgeĠ mingĠ
faĠbuĠ leĠ
ĠweiĠyuĠgaiĠ shengĠ
ĠĠĠ kaiĠ
zhan ĠyiĠzhongĠ
suan ĠjianĠ
beiĠ renĠweiĠ
ĠqiĠ renĠ
ĠsiĠ xiangĠ
aoĠ daĠliĠ
e ĠyuĠ
Ġ minĠzhuĠ
Ġ guangĠxiĠ
xun ĠxiĠ
daĠ geĠmingĠ
wuĠ tiĠ
changĠ changĠ
feiĠ danĠ
jiaĠruĠ leĠ
ĠJ Ġ
zhenĠjiĠ xingĠzhengĠdanĠweiĠ
Ġ 160
ĠĠĠ aĠĠĠ
you ĠyiĠzhiĠ
fa ĠweiĠyuanĠ
ta ĠliĠ
te ĠweiĠ
fei ĠdiĠ
shui ĠheĠ
pao ĠdaoĠ
zheĠ xiangĠ
ĠgeĠ erĠ
hongĠ zhaĠ
ĠzhanĠ houĠ
ĠxingĠzhengĠ quĠ
zhanĠdou ĠjiĠ
Ġ 1990
mu ĠliĠ
ya ĠjiĠ
duan ĠweiĠ
cong ĠzhongĠ
daĠ banĠ
ĠxiĠ geĠ
jiangĠ nanĠ
benĠ zhanĠ
ĠziĠ ran
Ġ 64
Ġ luoĠsiĠ
qiang ĠdaĠ
gen ĠdiĠ
ĠqiĠ xi
zuoĠ wuĠ
Ġ 1993ĠnianĠ
zhuan ĠkeĠ
xiu ĠsiĠ
16 ĠnianĠ
14 ĠnianĠ
1970 ĠnianĠdaiĠ
ĠbuĠ tong
ĠbuĠ bingĠ
shangĠ biaoĠ
leĠ biĠ
ĠpingĠ chengĠ
Ġ gang
Ġ pang
lian ĠshiĠ
zui ĠxingĠ
zhuan ĠchengĠ
pe Ġ
ĠyiĠ dingĠ
ĠyiĠ seĠlieĠ
ĠzhiĠ hou
zhanĠ lveĠ
luoĠ teĠ
ĠcongĠ ciĠ
ĠweiĠjiĠ chuĠ
xiaĠxiaĠdeĠyiĠgeĠxiangĠ zhenĠjiĠxingĠzhengĠdanĠweiĠ
Ġ 58
Ġ aoĠsiĠ
ba ĠjiĠsiĠ
ra Ġ
xueĠ tongĠ
bingĠ beiĠ
laiĠ kanĠ
kaiĠ chuĠ
chuanĠ shuĠ
lvĠ huaĠ
Ġ duĠliĠ
min ĠshiĠ
35 ĠnianĠ
qia Ġ
buĠ zuĠ
xiangĠ liangĠ
fangĠ kongĠ
dianĠ xinĠ
shenĠ panĠ
ĠboĠ lanĠ
hunĠ ningĠ
ĠguanĠ zhuangĠbingĠduĠ
zhuiĠsuĠ daoĠ
ĠĠĠ fengĠ
zhan ĠliĠ
shengĠ qiĠ
mingĠ chaoĠ
yinĠ yingĠ
wenĠ shuĠ
gangĠ qinĠ
ceĠ lve
ĠshangĠ yeĠ
nanĠjiĠ tiaoĠyueĠ
Ġ kao
ao ĠkeĠ
ĠĠĠ 0
shou ĠzaiĠ
ting ĠzhongĠ
EST Ġ
jiaĠ sheĠ
shouĠ sunĠ
ĠgaiĠ shuĠ
ĠtongĠ yangĠ
caoĠ zuo
ĠshiĠrenĠminĠ zhengĠfuĠ
Ġ cang
Ġ 1999
Ġ fenĠbuĠzaiĠ
di ĠshiĠyiĠ
te ĠzhiĠ
mian ĠweiĠ
long ĠkeĠ
rong ĠjiĠ
22 ĠnianĠ
ĠjiĠ yinĠ
xiĠ tongĠdeĠ
siĠ houĠ
ciĠ dianĠ
ĠgeĠ lanĠ
yanĠjiu ĠdeĠ
dongĠjingĠ duĠ
ĠĠĠ 2009ĠnianĠ
ya ĠerĠ
pai ĠheĠ
buĠ tong
erĠ chengĠ
shangĠ keĠ
luĠ yinĠ
tiĠ anĠ
yaĠ geĠ
tianĠ xiaĠ
guangĠ bo
qiangĠ diao
ĠnanĠ beiĠ
Ġ 1995ĠnianĠ
yuan ĠrenĠ
ming ĠqiĠ
du ĠyueĠ
chuan ĠshiĠ
laiĠ zi
paiĠ she
Ġ 47
Ġ 1996ĠnianĠ
ĠĠĠ shuĠ
ĠĠĠ sheĠjiĠ
ping ĠrenĠ
ĠzhongĠ wen
chuĠ jingĠ
shangĠ jieĠ
guanĠ zhengĠ
changĠ anĠ
ĠziĠ ciĠ
ĠxiangĠ siĠ
ĠxiangĠ dangĠyuĠ
zaoĠ chuanĠ
ĠweiĠyuanĠhuiĠ zhuĠxiĠ
Ġa ĠliĠ
Ġha ĠliĠ
canĠsaiĠ ziĠgeĠ
nanĠjiĠtiaoĠyueĠ tiĠxiĠ
f ĠĠĠ
Ġ 1998
ji ĠshiĠshiĠ
gai ĠyouĠ
hao ĠjiĠ
tou ĠyuĠ
ĠshiĠ fenĠ
ĠliĠ xianĠ
ĠzaiĠ xinĠ
mingĠ xianĠdeĠ
jiaoĠ zhanĠ
xiaoĠ huaĠ
ĠfuĠ zhuĠ
xiuĠdaoĠ yuanĠ
Ġ weiĠshiĠ
yi ĠĠĠ
duo ĠyuĠ
1925 ĠnianĠ
faĠ yanĠrenĠ
ĠdiĠ mianĠ
jiaoĠ tuĠ
moĠ faĠ
gengĠ daĠdeĠ
8 ĠmiĠ
Ġ douĠshiĠ
ji ĠshiĠjianĠ
jun ĠqiĠ
liu ĠyiĠ
11 ĠnianĠ
tao ĠfaĠ
sa ĠkeĠsiĠ
beiĠ luĠ
shouĠ huĠ
shouĠ geĠquĠ
ĠhuiĠ fuĠ
diĠshiĠ niĠ
Ġda ĠyueĠ
ĠT Ġ
tongĠxingĠ lianĠ
4 ĠmingĠ
Ġ 48
Ġ 1996
ĠĠĠ ma
jia ĠliĠyaĠ
ban ĠzhiĠ
shui ĠdaoĠ
hun ĠliĠ
ĠdeĠ heĠ
jianĠ cha
guanĠ daoĠ
biĠ yaoĠ
laiĠ wuĠ
ĠjuĠ jueĠ
ĠhuoĠ chengĠ
weiĠyiĠ zhongĠ
xiaoĠxingĠ xingĠdeĠ
ĠeĠ luoĠ
Ġ qiĠyiĠ
ĠĠĠ Pa
ying ĠyiĠ
lv ĠheĠ
tuo ĠkeĠ
hun Ġyin
ĠshiĠ nianĠ
ĠweiĠ xianĠ
ĠzhongĠ yao
fangĠ shouĠ
ĠfuĠ jinĠdeĠ
yunĠ huiĠ
fengĠ fuĠdeĠ
baiĠ houĠ
ĠzheĠ yangĠdeĠ
diĠerĠ ciĠ
quan ĠzhiĠ
ĠyiĠ danĠ
faĠ she
zhengĠ xieĠ
houĠ xuĠ
zhanĠ shengĠ
fenĠ geĠ
pingĠ dengĠ
zhouĠ kanĠ
tianĠ huang
miaoĠ shuĠweiĠ
ĠĠĠzhiĠ yeĠshengĠyaĠ
shanĠmai ĠdeĠyiĠbuĠfenĠ
Ġ1949 ĠnianĠ
quanĠguoĠzhongĠdianĠ wenĠwuĠbaoĠhuĠdanĠweiĠ
nanĠjiĠtiaoĠyueĠtiĠxiĠ guanĠliĠ
Ġ Fi
ĠĠĠ baoĠ
ĠĠĠ huaĠ
ĠĠĠ chenĠ
qu ĠxiĠ
ding ĠyiĠweiĠ
san ĠxingĠ
han ĠjianĠ
bang ĠdiĠ
50 ĠnianĠ
xingĠ dengĠweiĠ
yanĠ zhengĠ
qingĠ yuanĠ
puĠ luĠshiĠ
ĠyeĠ chengĠ
zhengĠzhiĠ buĠ
ĠfanĠ yingĠ
1 ĠjiaĠ
Ġ sĠ
san ĠzhiĠ
weng Ġ
faĠ xueĠ
faĠ lanĠkeĠ
ĠsiĠ geĠ
tangĠ quĠ
quĠdeĠ leĠ
ĠdianĠ ziĠ
Ġ Di
ĠĠĠ Z
ĠĠĠ zaoĠqiĠ
jing ĠdiĠ
wuĠ hanĠ
shangĠ zuiĠ
jingĠ tiĠ
zheĠ ciĠ
guanĠ fang
duiĠ kang
ĠziĠ shengĠ
Ġceng ĠyuĠ
jieĠquanĠguoĠ renĠminĠdaiĠbiaoĠdaĠhuiĠ
Ġ jianĠyiĠ
ĠĠĠ liangĠ
ĠĠĠ xuanĠ
ĠĠĠ waiĠbuĠ
cai ĠshiĠ
pa ĠerĠ
gongĠ guoĠ
jiaĠ siĠ
dianĠ xingĠdeĠ
shanĠ huĠ
laĠ maĠ
keĠyiĠ shengĠ
dongĠshiĠ huiĠ
Ġwo ĠdeĠ
4 ĠmiĠ
xiao ĠzhiĠ
mie ĠwangĠ
ĠjiĠ jieĠ
guoĠ fangĠ
ĠbuĠ zhangĠ
zhuĠ chengĠ
huiĠ baoĠ
ĠxiĠ fangĠ
shouĠ huanĠ
danĠ yaoĠ
shenĠ yeĠ
ĠyiĠzhiĠ zaiĠ
Ġ o
Ġ en
ĠĠĠ kaĠ
ĠĠĠ 2007ĠnianĠ
zhongĠ yang
nanĠ meiĠzhouĠ
zhenĠ zhuĠ
bianĠ huanĠ
ĠweiĠyuĠ zhongĠhuaĠrenĠminĠgongĠheĠguoĠ
peiĠ changĠ
ĠgaiĠcun ĠshiĠjianĠyuĠ
Ġ n
xiĠ diĠ
xiĠ fangĠ
zhanĠ jianĠ
guanĠ guangĠ
xuĠ lieĠ
shuiĠ liangĠ
taoĠ lun
Ġ gei
ĠĠĠ 2000
xian ĠdeĠdiĠ
mie ĠjueĠ
ĠliĠ aoĠ
mingĠ mingĠdeĠ
xuanĠ gaoĠ
maĠ zuĠ
naĠ yangĠ
chongĠ shengĠ
E ĠĠĠ
Ġ 1994
le ĠyueĠ
mian ĠyouĠ
xingĠ nengĠ
geĠ diĠdeĠ
mingĠ niĠ
yingĠ xiong
xiaoĠ lvĠ
ĠshiĠdeĠ renĠ
ĠjieĠ daoĠ
guoĠjiĠ zuĠ
Ġ tu
ĠĠĠ hanĠ
you ĠĠĠ
bei ĠzhongĠ
duo ĠdaĠ
shui ĠshiĠ
nv ĠdeĠ
rong ĠhuoĠ
28 ĠnianĠ
xiĠ erĠ
keĠ jianĠ
ziĠ chengĠ
huaĠ ruĠ
nanĠ daoĠ
zhenĠ rongĠ
gaoĠ su
dangĠ zuoĠ
dangĠ daiĠ
daiĠbiaoĠ tuan
ĠweiĠyuĠgaiĠguoĠ xiĠbuĠ
Ġ 65
ĠĠĠ fenĠ
ming ĠzaiĠ
lan ĠheĠ
xianĠ qianĠ
shuĠ xingĠ
dianĠ changĠ
gaiĠ jianĠ
boĠ geĠ
kaiĠ banĠ
ĠshiĠyiĠ jiaĠ
juĠminĠ dianĠ
zuoĠquĠ jiaĠ
bu ĠdeĠyiĠgeĠ
xiu ĠshiĠ
xiu ĠxianĠ
1922 ĠnianĠ
keĠ yiĠshiĠ
duiĠ biĠ
qiuĠ miĠ
suoĠ xieĠ
ĠziĠ jiĠdeĠ
ĠmuĠ qinĠ
maoĠ zeĠdongĠ
Ġ 1992
ĠĠĠ Le
zai ĠdeĠguoĠ
er ĠshiĠdeĠ
gu ĠsiĠ
wuĠ ran
wuĠ daĠ
qingĠ ganĠ
sheĠ ruĠ
gaoĠ shanĠ
feiĠ teĠ
liuĠ qiuĠ
ĠjinĠ biaoĠ
aiĠ naĠshengĠ
ma ĠyiĠ
ma ĠheĠ
ment Ġ
1911 ĠnianĠ
xingĠ zhuangĠ
shenĠ fen
shanĠ chuĠ
paiĠ fangĠ
lunĠ tanĠ
ge ĠyueĠdeĠ
shu ĠyueĠ
huo ĠerĠ
chong ĠdeĠ
ruan ĠtiaoĠ
ĠwuĠ qiĠ
zuĠcheng ĠbuĠfenĠ
Ġ 1985ĠnianĠ
dai ĠerĠ
ni ĠfuĠ
zong ĠsiĠlingĠ
mou ĠzhongĠ
1923 ĠnianĠ
fuĠ zhuĠxiĠ
siĠ tan
ĠbuĠ shaoĠ
guanĠ lianĠ
ĠyiĠjiĠ zhongĠguoĠdaĠluĠdeĠ
ganĠ qingĠ
zhuĠyao ĠyouĠ
ĠĠĠzheĠ keĠ
Ġ ouĠyuanĠ
dong ĠyuĠ
liang ĠqiĠ
wang ĠzaiĠ
shan ĠheĠ
deĠ guoĠ
ĠyiĠ diĠ
ĠweiĠ taĠ
geĠ xiangĠ
ĠdaĠ jieĠ
meiĠ xiaoĠshiĠ
chuanĠ shuo
Ġdan ĠyouĠ
ĠzuiĠ houĠyiĠ
ĠquĠ daiĠ
feiĠxingĠ yuanĠ
ĠĠĠ leiĠ
le ĠzhongĠguoĠ
guan ĠdiĠ
du ĠbuĠ
zhang ĠzhongĠ
65 ĠnianĠ
gun Ġ
fuĠ chuĠ
jinĠ shengĠ
jiaoĠ dianĠ
liangĠ zuoĠ
Ġdan ĠshiĠzaiĠ
7 ĠmiĠ
ĠĠĠ jiaoĠyuĠ
geng ĠgaiĠ
xiĠ zangĠ
geĠ jieĠ
juĠ liuĠ
tongĠ xiangĠ
tongĠ yongĠ
ĠfuĠ zhuĠxiĠ
genĠ benĠ
chuĠliĠ qiĠ
luĠyingĠ daiĠ
Ġ á
ĠĠĠ xiangĠgang
zhi ĠĠĠ
kai ĠjiĠ
or ĠĠĠ
nuo ĠdeĠ
kua Ġ
diĠ anĠ
houĠ xuanĠ
bingĠ buĠshiĠ
ĠtaĠ shuoĠ
ĠbingĠ xiangĠ
kaiĠshiĠ yuĠ
gengĠ duo
zhengĠzhiĠ jiaĠ
Ġ Ù
Ġ kong
Ġ qiang
zhong ĠshiĠyongĠ
ti ĠqiĠ
xiao ĠweiĠ
mu ĠzhongĠ
ĠzaiĠ haiĠ
ĠheĠ ziĠ
daĠ shaĠ
faĠ biaoĠdeĠ
chuĠ jueĠ
jiaoĠ xiaoĠ
ĠkeĠ fuĠ
haiĠ baĠgaoĠduĠ
guĠ zhangĠ
ĠheiĠ longĠjiangĠ
Ġ UĠ
shang ĠzaiĠ
zhao ĠjiĠ
ĠyouĠ yongĠ
ĠrenĠ zhengĠ
shengĠ dianĠ
jinĠ huaĠ
ĠxiĠ shouĠ
jiaoĠ daĠdeĠ
duĠ shuĠ
ĠbingĠ chengĠweiĠ
meiĠguoĠ zongĠtongĠ
ĠhaiĠ baĠ
Ġba ĠyueĠ
fuĠzhiĠ fuĠ
Ġ19 Ġ
xinĠguanĠfeiĠyanĠ queĠzhenĠbingĠliĠ
ĠĠĠwaiĠbuĠ lianĠjieĠ
Ġ Ð¾
xiang ĠliĠ
ni ĠyuĠ
shui ĠliĠ
zhui ĠqiuĠ
qiĠ yuanĠ
ĠheĠ huaĠ
ĠxiĠ faĠ
yingĠ wuĠ
yeĠ chengĠweiĠ
yinĠ jieĠ
ĠtaĠ duiĠ
boĠ duoĠ
zuiĠ da
baĠ maĠ
neiĠ yaĠ
cunĠ minĠ
Ġxian ĠzhiĠ
ĠjiĠzhongĠ xueĠ
ĠmengĠ guĠ
ĠĠĠ zhengĠyiĠ
qu ĠyiĠyuanĠ
bao ĠyouĠ
ĠzhongĠ zuĠ
ĠdaĠ baiĠ
qianĠ daoĠ
ĠdanĠ reng
ĠdeĠshiĠ qingĠ
2Ġ mingĠ
a ĠsiĠ
Ġ Jo
Ġ zhaĠ
ĠĠĠ changĠ
ba ĠyiĠ
yang ĠyuĠ
75 ĠnianĠ
ĠbuĠ ruĠ
xianĠ quĠ
guanĠ kanĠ
ĠbaoĠ liuĠ
1Ġ miĠ
ĠsuoĠ xieĠ
ĠyaĠ zhouĠ
gongĠzuo ĠrenĠyuanĠ
ĠH Ġ
ĠxianĠshiĠyouĠ nanĠjiĠtiaoĠyueĠtiĠxiĠguanĠliĠ
ĠĠĠ Vi
ĠĠĠ dengĠ
zuo ĠzaiĠ
lai ĠzhiĠ
san ĠqiĠ
zong ĠjiĠ
cun ĠchuĠ
shuai ĠjiaoĠ
xingĠ bieĠ
beiĠ shangĠ
xinĠ tuĠ
gouĠ tongĠ
ganĠ lanĠqiuĠ
an ĠheĠ
1970 ĠnianĠ
62 ĠnianĠ
fuĠ luĠ
wenĠ dingĠdeĠ
wanĠ jianĠ
ĠdanĠ quĠ
chenĠ moĠ
Ġ16 Ġ
jiaoĠyiĠ suoĠ
ĠĠĠ moĠ
zhong ĠyiĠgeĠ
shui ĠweiĠ
luĠ yinĠshiĠ
ĠxiangĠ zhengĠ
ĠshiĠjiĠ chuĠ
Ġzhe ĠshiĠdeĠ
ĠdaiĠ maĠweiĠ
Ġ 600
jian Ġli
bi ĠjiĠ
guan ĠnianĠ
cha ĠjiĠ
man ĠyiĠ
shouĠ cangĠ
yanĠ jiuĠshiĠ
zhanĠ chuĠ
changĠ daoĠ
zhenĠ wangĠ
ĠshiĠyiĠ keĠweiĠ
Ġyou ĠzhiĠ
Ġ Mo
ĠĠĠ fenĠbuĠ
fei ĠqiĠ
1926 ĠnianĠ
shuĠ geĠ
ĠsiĠ maĠ
daiĠ daoĠ
shenĠ miĠ
suoĠ jianĠ
dingĠ dianĠ
ĠsuĠ chengĠ
Ġ hen
Ġ 1997
en ĠsiĠ
nan ĠyueĠ
wang ĠheĠ
ni ĠjiĠ
17 ĠnianĠ
xiangĠ nanĠ
mingĠ jiaoĠ
yanĠ xianĠ
yeĠ suĠ
ĠxingĠ xingĠ
suoĠ zaiĠdeĠ
ĠjuĠ leĠbuĠ
caiĠyongĠ leĠ
ĠL Ġ
Ġ mingĠweiĠ
zhan ĠqiĠ
dan ĠjiĠ
xu ĠyiĠ
1919 ĠnianĠ
fuĠ zhuangĠ
ĠkeĠ yunĠ
lianĠ junĠ
zuiĠ haoĠdeĠ
ĠdeĠshiĠ yiĠ
Ġxian ĠyiĠ
tuiĠchuĠ leĠ
maĠlai ĠxiĠya
raoĠtaiĠyangĠ gongĠ
meiĠdongĠ buĠshiĠquĠ
zhan ĠbuĠ
dan ĠyouĠ
bian ĠfuĠ
tian ĠdiĠ
lan ĠshiĠ
geng ĠdaĠ
us Ġ
ĠshiĠ xiaĠxiaĠdeĠyiĠgeĠxiangĠzhenĠjiĠxingĠzhengĠdanĠweiĠ
ĠzhongĠ renĠ
geĠ xingĠ
yingĠ chiĠ
miĠ suĠliĠ
ĠpingĠ lunĠ
Ġ zan
Ġ ISTAT
cheng ĠbuĠ
ba ĠkeĠ
youĠ taiĠ
ĠzaiĠ keĠ
shengĠ cunĠ
jinĠ junĠ
dongĠ ceĠ
ruĠ xueĠ
xieĠ tiaoĠ
ĠdanĠ zuiĠzhongĠ
ĠyiĠzhiĠ daoĠ
yiĠshiĠ qiĠ
ĠdeĠdiĠ diĠ
saĠ laĠ
xingĠzhengĠ yuanĠ
Ġsui ĠjiĠ
Ġ jue
Ġ 59
Ġ ESTĠ
ĠĠĠ f
ĠĠĠ 2006ĠnianĠ
bi ĠheĠ
qie ĠdeĠ
30 ĠfenĠ
beiĠ faĠ
chuĠ xian
minĠ dangĠ
ĠdeĠshiĠ liĠ
Ġer ĠjiĠ
ĠduiĠ ciĠ
Ġ rou
Ġ EDT
neng ĠdeĠ
lin ĠzhongĠ
ĠyouĠ siĠ
ĠyouĠ beiĠ
ĠguoĠ houĠ
jieĠ xiĠ
ĠdiĠ baĠ
xinĠ fengĠ
jiaoĠ gei
meiĠ guoĠzhiĠ
shenĠ sheĠ
ĠxingĠ quĠ
zhaoĠ kai
ĠxieĠ zhuĠ
ĠweiĠyuĠfaĠguoĠ ao
Ġ kongĠzhiĠ
Ġ 1990ĠnianĠ
ĠĠĠ Mi
hu ĠzhiĠ
wen ĠweiĠ
ni ĠdiĠ
na ĠshiĠ
huan ĠbaoĠ
jianĠ danĠdeĠ
quĠ daoĠ
houĠ laiĠdeĠ
qianĠ fangĠ
xiaĠ leĠ
lingĠ ganĠ
zongĠ lingĠshiĠ
laĠ duoĠ
ĠmingĠ mingĠ
ĠshouĠ fuĠ
zhuĠjiaoĠ lianĠ
guangĠboĠ gongĠsiĠ
jueĠduiĠ xingĠdengĠweiĠ
jueĠsai ĠyiĠ
li ĠxiĠ
ben ĠshiĠ
nei ĠheĠ
pian ĠweiĠ
24 ĠnianĠ
37 ĠnianĠ
aĠ miĠ
ĠyiĠzhiĠ yuĠ
Ġ5Ġ diaoĠkuaiĠyiĠxiaoĠshiĠ
biĠliĠ niuĠsiĠ
ĠjiĠbeiĠ meiĠdongĠbuĠshiĠquĠ
ĠshiĠyiĠkeĠweiĠ raoĠtaiĠyangĠgongĠ
ĠEDT Ġ
ĠshiĠyiĠkeĠweiĠraoĠtaiĠyangĠgongĠ zhuanĠdeĠxiaoĠxingĠxingĠ
Ġ 49
Ġ 1984ĠnianĠ
ĠĠĠ banĠ
di ĠliĠyaĠ
ni ĠheĠ
shao ĠshiĠ
ve Ġ
ĠjiĠ gou
yuanĠ yinĠshiĠ
guanĠ ce
Ġta ĠweiĠ
1Ġ mingĠ
ĠyuanĠ ziĠ
saiĠerĠweiĠ yaĠ
xiaoĠxingĠxingĠdeĠ jueĠduiĠxingĠdengĠweiĠ
ĠĠĠ 13
guang ĠyiĠ
pian ĠrenĠ
1914 ĠnianĠ
zen Ġ
ĠfuĠ zhouĠ
tianĠ xinĠ
tiaoĠ muĠ
henĠ duo
Ġ boĠliĠ
zhou ĠyuĠ
TV Ġ
qiĠ renĠ
ziĠ shengĠ
bingĠ qieĠ
ĠdeĠyiĠ jiaĠ
jiaĠru ĠzhongĠguoĠgongĠchanĠdangĠ
ĠĠĠzheĠkeĠ xiaoĠxingĠxingĠdeĠjueĠduiĠxingĠdengĠweiĠ
Ġ he
Ġ 800
Ġ qiaoĠzhiĠ
yin ĠzaiĠ
pu ĠerĠ
ĠguoĠ youĠ
beiĠ buĠdeĠ
duĠ zheĠ
xuanĠ minĠ
yinĠdiĠ anĠnaĠ
Ġ sheng
Ġ 2024ĠnianĠ
Ġ 1988ĠnianĠ
mo ĠnianĠ
ze ĠerĠ
cai ĠjiĠ
zhai ĠwuĠ
juĠ luoĠ
guanĠ shangĠ
ruĠ leĠ
tianĠ xianĠ
meiĠyouĠ renĠheĠ
erĠshiĠ nianĠ
ĠjiĠzhongĠ zaiĠ
ĠG Ġ
Ġ 1989ĠnianĠ
ĠĠĠ huiĠ
ĠĠĠ miĠ
sen ĠbaoĠ
ĠzhiĠ houĠzaiĠ
xiĠ shouĠ
ĠyueĠ seĠfuĠ
taiĠ bei
wanĠ quĠ
shuiĠ shangĠ
douĠ keĠyiĠ
diaoĠ suĠ
ĠyiĠweiĠ zheĠ
Ġ jun
Ġ Ca
Ġ qiuĠduiĠ
ĠĠĠ ha
ci ĠrenĠ
xiao ĠheĠ
1913 ĠnianĠ
ĠyiĠ jiĠyiĠ
ĠyouĠ wuĠ
xiĠ jieĠ
jianĠ zhengĠ
jianĠ huaĠ
yanĠ zouĠ
ciĠ tianĠtiĠ
diĠyiĠ jieĠ
shou ĠqiĠ
fan ĠdiĠ
zao ĠyiĠ
zhuan ĠrenĠ
lun ĠjiĠ
sou ĠsuoĠ
1950 ĠnianĠ
1918 ĠnianĠ
xiĠ yuanĠ
geĠ shengĠ
dianĠ zhanĠ
yongĠ yuanĠ
ĠshiĠyiĠ yuanĠ
gangĠ tie
zhuĠjiaoĠ zuoĠ
shouĠshiĠ lvĠ
ĠheĠdaoĠ quanĠzhangĠ
Ġ juanĠ
ĠĠĠ 14
qi ĠshiĠshiĠ
ĠdiĠ daiĠ
shangĠ yingĠdeĠ
duĠ xingĠ
zuĠ qunĠ
zhenĠ zhengĠdeĠ
ĠnanĠ jingĠ
junĠshiĠ tanĠdingĠ
keĠliĠ miĠyaĠ
ĠĠĠgaiĠ shuĠ
ĠzhiĠhuiĠ guanĠ
Ġ 1991ĠnianĠ
fang ĠyouĠ
feng ĠzhiĠ
chuang ĠshiĠ
ĠyiĠ minĠ
fuĠ shuĠjiĠ
quĠ fuĠzeĠguanĠxiaĠ
teĠ dingĠdeĠ
lanĠ kaĠ
ĠjiangĠ shuĠ
Ġ bie
en ĠdeĠ
ĠĠĠ gu
ling ĠxingĠ
lie ĠjianĠ
ĠliĠ jieĠ
xiĠ jinĠ
wuĠ ranĠ
xueĠ yuan
qianĠ mingĠ
xiaĠ tianĠ
kongĠ jun
siĠchuanĠ shengĠ
Ġ lieĠcheĠ
cha ĠheĠ
chan ĠyuĠ
chen ĠkeĠ
xinĠ chengĠ
jiuĠ baĠ
naĠ geĠ
ĠchuĠ shengĠ
gengĠ gaoĠ
ouĠ mengĠ
yongĠyuĠ zhiĠ
wenĠhua ĠyiĠchanĠ
ĠheĠnanĠ shengĠ
anĠhuiĠ shengĠ
Ġ cangĠ
mo ĠheĠ
ze ĠerĠshengĠ
pai ĠrenĠ
ĠyouĠ leĠ
ĠzaiĠ yingĠguoĠ
shangĠ banĠ
yingĠ chaoĠ
danĠ baiĠzhiĠ
lingĠ xiu
fanĠ mang
ĠdeĠyiĠ yiĠ
ĠzhuĠ zhangĠ
Ġjie ĠshiĠ
ĠguiĠ zhouĠ
zuoĠpin ĠzhongĠ
zhuanĠyiĠ daoĠ
Ġ Se
ĠĠĠ La
hu ĠheĠ
xiao ĠjiĠ
pai ĠweiĠ
gou ĠjianĠ
kuang ĠwuĠ
2019 ĠguanĠzhuangĠbingĠduĠ
38 ĠnianĠ
ĠshiĠ biĠ
huaĠ xianĠ
gaiĠ bian
wangĠ yeĠ
daiĠ zhuĠ
zongĠ eĠweiĠ
nvĠ shenĠ
henĠ shaoĠ
Ġ bin
mi ĠliĠ
1901 ĠnianĠ
ĠzhiĠ zhanĠ
ĠbuĠ danĠ
shanĠ kouĠ
paiĠ qiuĠ
ĠjuĠ banĠ
gongĠgongĠ jiaoĠtongĠ
Ġfan ĠerĠ
lianĠxuĠ juĠ
Ġ p
ĠĠĠ huangĠ
23 ĠnianĠ
ĠweiĠ boĠ
beiĠ haiĠdaoĠ
jingĠ feiĠ
fenĠ huiĠ
xiaoĠ daoĠ
ĠkeĠ daĠ
ĠshouĠ xianĠ
diĠshiĠ sanĠ
ĠĠĠzhongĠ huaĠrenĠminĠgongĠheĠguoĠ
eĠluoĠ si
Ġ zi
li ĠjieĠ
ĠĠĠ de
ĠĠĠ zheĠgeĠ
cheng Ġli
bi ĠqiĠ
xuan ĠjiĠ
ĠliĠ wuĠ
xiangĠ yaoĠ
zhengĠ faĠ
danĠ shengĠ
daiĠ shuĠ
liangĠ duĠ
huĠ nanĠshengĠ
aoĠ di
zhuangĠ yuanĠ
ĠbanĠ benĠ
quĠyiĠhuiĠ xuanĠjuĠ
Ġtun ĠqiĠ
Ġ jing
qian ĠjiĠ
ding ĠheĠ
su ĠerĠ
00 ĠpingĠfangĠqianĠmiĠ
buĠ nengĠ
xinĠ zang
zhenĠ yingĠ
zhenĠ junĠ
bianĠ xieĠ
ĠN Ġ
Ġ 1993
Ġ geĠrenĠ
Ġ zuĠchengĠ
Ġ diĠyuĠ
ĠĠĠ yinĠyueĠ
ĠĠĠ guanĠyuĠ
bi ĠsiĠ
hui ĠliĠshiĠ
xie ĠheĠ
mian ĠzhiĠ
liu ĠyueĠ
men ĠzaiĠ
tuo ĠsiĠ
ĠzaiĠ 18
ĠzhongĠ shuĠ
zhanĠ cheĠ
tiĠ xianĠ
wangĠ laiĠ
liangĠ zheĠ
suoĠ zhangĠ
zuiĠ jinĠdeĠ
ĠbaoĠ luoĠ
Ġtong ĠnianĠ12ĠyueĠ
ĠĠĠsuiĠ ran
yuanĠwaiĠ langĠ
Ġ Ra
ĠĠĠ saiĠ
you ĠzhiĠwuĠ
gong ĠzaiĠ
xia ĠdaĠ
qing ĠyuĠ
ma ĠjiĠ
chi ĠzhiĠ
ĠyouĠ daĠ
gongĠ xueĠyuanĠ
guangĠ puĠ
ĠgeĠ lunĠ
ĠjieĠ hunĠ
xunĠ luoĠ
douĠ meiĠyouĠ
baoĠkuo ĠyiĠxiaĠ
luoĠmaĠ niĠyaĠ
Ġ beiĠbuĠ
ge ĠĠĠ
ĠshiĠ yingĠ
siĠ maĠ
kouĠ jingĠ
caiĠ huiĠ
chiĠ cunĠ
shuiĠ shouĠ
Ġer ĠrenĠ
ĠjingĠ changĠ
Ġwu ĠyueĠ
ni ĠxiĠ
dun ĠheĠ
diao ĠxiangĠ
70 Ġ
ted ĠĠĠ
fuĠ buĠ
jingĠ baoĠ
fangĠ kong
fangĠ songĠ
luoĠ boĠ
tuiĠ xiu
chu ĠheĠ
ĠweiĠ mingĠ
guoĠ jia
ĠdaĠ xiaoĠ
muĠ biaoĠshiĠ
teĠ shuĠdeĠ
yunĠ nanĠshengĠ
dangĠ di
xunĠ haoĠ
ĠyuanĠ benĠ
ĠzuiĠ zhongĠyiĠ
ĠdangĠ xuanĠ
ĠĠĠshiĠ yiĠ
Ġ 1991
Ġ ruiĠ
Ġ xĠ
ĠĠĠ yingĠxiangĠ
zhanĠ fangĠ
sheĠ qun
ĠtaĠ chengĠweiĠ
jueĠ saiĠzhongĠ
ĠdanĠ beiĠ
ĠgongĠ siĠdeĠ
ĠyeĠ chengĠweiĠ
piĠ panĠ
ĠnianĠ4ĠyueĠ 1ĠriĠ
Ġ18 Ġ
Ġsan ĠyueĠ
Ġ yaĠliĠ
Ġ zhuĠyouĠ
ĠĠĠ Di
zheng ĠshiĠdeĠ
guan ĠyouĠ
liang ĠdiĠ
ban ĠheĠ
shui ĠxianĠ
man ĠdiĠguoĠ
nang Ġ
1921 ĠnianĠ
ĠliĠ zaiĠ
erĠ siĠ
zhengĠ guiĠ
laiĠ wangĠ
ĠshiĠweiĠ zheĠ
zhuĠtiĠ quĠ
meiĠzhongĠ buĠshiĠquĠ
Ġ qiong
Ġ Sa
Ġ CST
yang ĠqiĠ
yang ĠfuĠ
ĠdeĠ qiĠ
chuanĠ yuanĠ
ĠgaiĠ cunĠ
Ġyou ĠliĠ
Ġ CDT
Ġ zeĠshiĠ
ĠĠĠ 2005ĠnianĠ
29 Ġ
end Ġ
ĠzaiĠ qianĠ
ĠyueĠ qiĠ
bingĠ yuanĠ
shenĠ yangĠ
zhenĠ xianĠ
lieĠ dianĠ
zhuanĠ yuanĠ
aoĠ men
Ġ17 Ġ
Ġ6Ġ diaoĠkuaiĠyiĠxiaoĠshiĠ
ĠjiĠbeiĠ meiĠzhongĠbuĠshiĠquĠ
ĠCST Ġ
ĠCDT Ġ
bing ĠheĠ
lai ĠyiĠ
dang ĠrenĠ
zhen ĠsiĠ
nong ĠliĠ
fou ĠjueĠ
jianĠ jinĠ
wenĠ quanĠ
gaiĠ zao
zuĠ qiu
jiuĠ jingĠ
paiĠ sheĠdeĠ
ĠzheĠ changĠ
Ġer ĠyuĠ
gu ĠheĠ
ping ĠjiĠ
tu ĠyuĠ
sang ĠshengĠ
69 ĠnianĠ
ĠyiĠ luĠ
Ġnian ĠshiĠjieĠbeiĠ
shouĠ changĠ
zhanĠ ting
yeĠ xianĠ
ĠkeĠ jianĠ
ĠĠĠbenĠ shuĠ
ĠjiĠtuanĠ junĠ
ĠdeĠweiĠ zhiĠ
ĠĠĠ Se
liu ĠzhiĠ
mai ĠjiaĠ
45 Ġ
ĠzaiĠ xiangĠ
ĠbuĠ manĠ
jinĠ tianĠ
huoĠ jiangĠ
muĠ fuĠ
xuanĠ zhuanĠ
ĠdeĠyiĠ mingĠ
tuoĠ maĠsiĠ
nuoĠ manĠdiĠ
aoĠlinĠpiĠkeĠ yunĠdongĠ
lieĠche ĠdeĠ
aoĠsiĠ kaĠ
yanĠhaiĠ shengĠfenĠ
banĠjiangĠ dianĠliĠ
zhao ĠheĠ
ken ĠtaĠjiĠ
wuĠ gongĠ
chuĠ siĠ
chuĠ juĠ
ĠdaĠ poĠ
jiaoĠ xingĠ
junĠ tuan
luoĠ baiĠ
ĠjinĠ ciĠyuĠ
tingĠ cheĠchangĠ
tieĠ luĠdeĠ
fenĠbie ĠshiĠ
hongĠzha ĠjiĠ
hu ĠliĠ
nei ĠzhiĠ
meng ĠxiangĠ
kan ĠjianĠ
pao ĠdeĠ
shuai ĠxianĠ
zhenĠ xiangĠ
waiĠ shuĠruĠ
reĠ menĠ
Ġhuo ĠdeĠyiĠmeiĠ
jieĠquanĠguoĠ zhengĠxieĠweiĠyuanĠ
Ġ Ja
ĠĠĠ gaiĠdiĠ
bu ĠzhiĠdaoĠ
che ĠweiĠ
geng ĠmingĠ
ly ĠĠĠ
heĠ bingĠ
daoĠ diĠ
jiangĠ huĠ
dingĠ leĠ
lanĠ zhouĠ
Ġzai ĠjiĠ
lianĠsaiĠ guanĠjunĠ
Ġma ĠkeĠ
ĠcheĠ xiaoĠ
Ġ chai
Ġ To
Ġ Na
Ġ xinĠdeĠ
bing ĠqiĠ
huo ĠjiĠ
ma ĠdiĠ
34 ĠnianĠ
xiĠ anĠ
luĠ saĠ
wenĠ benĠ
fenĠ fenĠ
liuĠ chengĠ
zhuanĠ shuĠ
ĠbaoĠ chiĠ
ĠshengĠ yaĠ
Y Ġ
yu ĠshiĠjieĠ
ĠĠĠ 12ĠyueĠ
er ĠliĠ
qing ĠzhiĠ
ping ĠxiĠ
zhui ĠjiĠ
kun ĠmingĠ
ziĠ nvĠ
fenĠ zuĠ
ĠfuĠ buĠ
jiuĠ long
keĠyiĠ zhiĠ
zengĠ sheĠ
hunĠ luanĠ
aĠerĠ baĠ
Ġ liao
ĠĠĠ shuiĠ
liu ĠjiĠ
lei ĠerĠ
80 Ġ
ĠshiĠ fou
faĠ yanĠ
daiĠ muĠ
laiĠ yuanĠyuĠ
zuiĠ duo
feiĠ zhou
liĠ yaĠ
Ġda ĠweiĠ
zai ĠshiĠjieĠ
mei ĠjiĠ
zhou ĠdaĠxueĠ
wo ĠsiĠ
ĠyueĠ guoĠ
dongĠ taiĠ
cheĠ chuĠ
zongĠ gongĠ
kouĠ haoĠ
aĠ boĠ
ĠciĠ keĠ
4 ĠĠĠ
9 ĠshiĠ
Ġ Ar
yin ĠyiĠ
dian ĠliĠjiĠ
wan ĠzaiĠ
lun ĠyuĠ
tou ĠshiĠ
27 ĠnianĠ
ĠdeĠ erĠ
xingĠ xiĠ
shuĠ jiaĠ
jingĠ xiangĠ
woĠ lunĠ
Ġ 1983ĠnianĠ
ĠĠĠ Bo
ĠĠĠ shaĠ
ying ĠzaiĠ
la ĠshiĠ
liu ĠjiaĠ
rong ĠweiĠ
46 ĠnianĠ
ĠrenĠ tongĠ
keĠ laiĠ
beiĠ jieĠ
ĠqiĠ buĠ
liĠ nuoĠyiĠ
eĠ waiĠ
quĠdeĠ fuĠzeĠguanĠxiaĠ
ĠyingĠ cunĠ
Ġ13 Ġ
Ġ t
Ġ 20ĠshiĠjiĠ
ai ĠsiĠ
ĠĠĠ lingĠyiĠ
qu ĠweiĠyuĠ
quan ĠyuĠ
duo ĠjiaĠ
dou ĠyiĠ
pian ĠyuĠ
ĠweiĠ fanĠ
ĠyouĠ zhengĠ
huiĠ daoĠzhiĠ
shuĠ xieĠ
yeĠ meiĠyouĠ
ĠdaĠ niĠ
xinĠ beiĠshiĠ
zuĠ gouĠ
bianĠ quĠ
maĠ dingĠ
baĠ baĠ
ĠgaiĠ jianĠ
seĠ qingĠ
ĠqingĠ huaĠ
lvĠkeĠ tieĠdaoĠ
Ġ Ba
an ĠyuĠ
ĠĠĠ teĠzhengĠ
ta ĠĠĠ
jiao ĠzhongĠ
quan ĠheĠ
xu ĠyuĠ
chuan ĠjiaĠ
po ĠdeĠ
32 ĠnianĠ
ĠshiĠ yongĠdeĠ
jiaĠ gouĠ
taiĠ yuanĠ
danĠ mai
ĠgaiĠ zhuangĠ
ĠmingĠ chengĠ
ĠdongĠ fangĠ
taĠmen ĠzaiĠ
ĠwuĠkeĠ lan
ĠĠĠ yinĠweiĠ
ĠbuĠ lunĠ
gaiĠ liangĠ
ĠwuĠ ziĠ
Ġta ĠerĠ
qiangĠ lieĠdeĠ
ĠfaĠ yuanĠ
henĠ kuai
keĠneng ĠdeĠ
Ġ14 Ġ
Ġ lianĠheĠguoĠ
zhi ĠshiĠyongĠ
mu ĠweiĠ
hai ĠweiĠ
pai ĠxiĠ
qin ĠdeĠ
61 ĠnianĠ
guoĠ wuĠ
ĠzaiĠ faĠguoĠ
gongĠ xiangĠ
ĠqiĠ zhuĠ
jinĠ daiĠ
mingĠ eĠ
shangĠ suoĠ
qiuĠ duiĠdeĠ
ĠgongĠ zhuĠ
peiĠ jueĠ
Ġer ĠyueĠ
gongĠheĠ guoĠdeĠ
ĠI Ġ
Ġ wai
Ġ faĠbuĠ
huo ĠqiĠtaĠ
xiao ĠzhongĠ
dian ĠzhiĠ
ding ĠyouĠ
erĠ yanĠ
ĠqiĠ taĠdeĠ
zhuanĠ huiĠ
hunĠningĠ tuĠ
Ġ 1995
Ġ huaiĠ
ĠĠĠ Ð
bo ĠxiĠ
suo ĠjiĠ
tu ĠxiĠ
ce ĠweiĠ
48 ĠnianĠ
diĠ diĠ
gongĠ ye
zhengĠ siĠ
jiaoĠ shaoĠ
qianĠ shuiĠ
jiangĠ zuoĠ
ĠkeĠ linĠ
zhouĠ moĠ
Ġfou ĠzeĠ
Ġ teng
an ĠĠĠ
ling ĠyouĠ
kou ĠyuĠ
39 ĠnianĠ
daoĠ qiĠ
shouĠ jieĠ
lianĠ boĠ
kaiĠ yeĠ
baĠ gongĠ
tanĠ pan
xingĠzhengĠ quĠyuĠ
Ġ renĠzhiĠ
Ġ zengĠjiaĠ
xue ĠzhiĠ
bian ĠliĠ
xiu ĠxiĠ
kun ĠchongĠ
31 ĠnianĠ
1905 ĠnianĠ
ĠbuĠ xingĠ
keĠ huĠ
mingĠ shengĠ
ĠdaĠ dianĠ
xinĠ xinĠ
bingĠ tuanĠ
ĠxiangĠ duiĠ
ĠjieĠ zhuĠ
enĠ laiĠ
fuĠjianĠ shengĠ
ĠqiĠxi ĠzaiĠdiĠ
ĠĠĠ ta
36 ĠnianĠ
ĠshiĠ chuĠ
ĠyouĠ baoĠ
gongĠ dangĠ
jieĠ dianĠ
xiangĠ muĠdeĠ
ĠxiĠ lieĠdeĠ
nanĠ zhuĠjueĠ
zuiĠ houĠdeĠ
guĠ chengĠ
suĠ zhouĠ
ĠshiĠyiĠ yueĠ
ĠdeĠshiĠ yanĠ
ĠnanĠ xingĠ
ĠzhanĠ dou
ĠjiĠqiĠ renĠ
ĠĠĠweiĠ yuĠ
dongĠnanĠ yaĠ
tianĠwenĠ xueĠjiaĠ
ĠxinĠjiaĠ poĠ
zuo ĠweiĠyuĠ
man ĠyuĠ
ĠyiĠ kaiĠshiĠ
zhongĠ yaoĠdeĠ
wuĠ dingĠ
beiĠ ceĠ
leĠ ziĠjiĠdeĠ
maĠ changĠ
ĠdanĠ baiĠ
puĠ sheĠ
liĠ changĠ
ĠmeiĠ tiĠ
u Ġ
ĠĠĠ xuĠ
ĠĠĠ heĠĠĠ
hui ĠqiĠ
hua ĠyouĠ
lun ĠheĠ
ĠzhiĠ heĠ
ĠzaiĠ xiangĠgangĠ
wuĠ jianĠ
chengĠ nuoĠ
chuĠ banĠdeĠ
zhanĠ kai
yinĠ mouĠ
xinĠ yongĠ
banĠ yan
ĠgongĠ chanĠ
huanĠ qiuĠ
kongĠ longĠ
canĠ zhengĠ
luoĠdiĠ yaĠ
zhongĠguoĠrenĠminĠ jieĠfangĠjunĠ
Ġ niĠkeĠ
Ġ 1986ĠnianĠ
xi ĠrenĠ
ĠĠĠ 2023ĠnianĠ
hai ĠheĠ
ling ĠzhiĠ
sai ĠheĠ
gang ĠshiĠ
ĠbuĠ xiĠ
beiĠ gaoĠ
ziĠ fuĠ
changĠ guiĠ
chuanĠ tong
ĠdanĠ meiĠyouĠ
xunĠ wenĠ
ĠgaoĠ suĠ
Ġ1950 ĠnianĠ
Ġ haiĠshiĠ
zhen ĠxingĠ
ar Ġ
ĠyiĠ daoĠ
buĠ shaoĠ
beiĠ fuĠ
ĠqiĠ diĠ
ĠdiĠ tie
dianĠ xingĠ
benĠ jieĠ
zongĠ mianĠjiĠ
huanĠ guanĠ
ouĠ meng
ĠhongĠ zha
Ġ 1989
Ġ Be
Ġ ruiĠdianĠ
Ġ 1920ĠnianĠ
gu ĠyuĠ
liu ĠrenĠ
suan ĠyanĠ
kuan ĠdeĠ
yuanĠ diĠ
ĠbuĠ shouĠ
juĠ zhenĠ
yingĠ biĠ
yinĠ xingĠ
moĠ tuoĠ
Ġbing ĠzhiĠ
ĠxiaĠ wuĠ
ĠbenĠ jieĠ
Ġ Bi
lu ĠqiĠ
she ĠweiĠ
ban ĠyouĠ
90 Ġ
colspan Ġ
ziĠ meiĠ
dongĠ haiĠ
gaiĠ shuĠ
boĠ genĠdiĠ
dengĠ daiĠ
guiĠ geĠ
puĠ laĠ
ĠdeĠshiĠ qiĠ
1Ġ wanĠ
ceĠ huaĠ
Ġzai ĠweiĠ
9 ĠmiĠ
Ġ kuangĠ
Ġ wuĠshiĠ
ĠĠĠ yingĠguoĠ
le ĠliĠ
bing ĠrenĠ
lan ĠdaĠ
que ĠliĠ
ĠshiĠ yingĠguoĠ
ciĠ xingĠ
yingĠ jieĠ
xiaĠ xunĠ
moĠ teĠerĠ
Ġ zui
Ġ juan
Ġ 1945ĠnianĠ
fang ĠzhongĠ
tu ĠheĠ
ĠdeĠ deĠ
gongĠ qingĠ
jianĠ leĠ
ĠguoĠ daoĠ
wuĠ chuĠ
yangĠ zhouĠ
moĠ teĠ
ĠyiĠjiĠ yuĠ
ĠdeĠjiĠ zaiĠ
changĠweiĠ huiĠ
Ġ tiao
Ġ 1985
yuan ĠrenĠminĠbiĠ
zu ĠliĠ
lv ĠdiĠ
guang ĠfuĠ
rou ĠshiĠxingĠ
ĠyiĠ nanĠ
ĠbuĠ shuĠ
jieĠ fuĠ
jieĠ meiĠ
faĠ shengĠyuĠ
dongĠ luĠ
cheĠ shouĠ
caiĠ dingĠ
linĠ naĠ
shuiĠ jingĠ
eĠ tuĠ
ĠshiĠjiĠ zhiĠ
ĠdeĠguoĠ chengĠzhongĠ
faĠlanĠxiĠ daĠquĠ
Ġ chaoĠjiĠ
Ġ junĠzaiĠ
ling ĠjiĠ
bo ĠfuĠ
nv ĠshiĠ
26 ĠnianĠ
45 ĠnianĠ
weiĠ yuanĠhuiĠ
qiĠ xiangĠ
shangĠ xiaoĠ
taĠ beiĠ
jingĠ nei
ĠsiĠ tanĠ
zhangĠ woĠ
gaoĠ cengĠ
shaoĠ liangĠ
gongĠzuoĠ zheĠ
nongĠ cunĠ
ĠduoĠ mingĠ
ĠweiĠfuĠ shuĠjiĠ
hangĠkongĠ muĠjianĠ
yuan ĠyiĠyuanĠ
jing ĠrenĠ
bing ĠjiĠ
she ĠheĠ
wan ĠyuĠ
lie ĠdiĠ
gongĠ siĠyuĠ
xiaĠ xiaĠyiĠxiaĠdiĠquĠ
bianĠ ruĠ
ĠjinĠ riĠ
ĠnianĠ10ĠyueĠ 1ĠriĠ
biaoĠzhun ĠdeĠ
shengĠhuo ĠzaiĠ
8 ĠshiĠ
a ĠbuĠ
Ġ hunĠ
Ġ 1987ĠnianĠ
xian ĠshiĠdeĠ
ba ĠbuĠ
xingĠ chengĠdeĠ
chengĠ qiĠ
ĠqiĠ zhongĠdeĠ
jiangĠ huaĠ
ĠziĠ dongĠ
ĠtianĠ wenĠ
an ĠxiĠ
ĠĠĠ 2004
ĠĠĠ Ga
ĠĠĠ 2004ĠnianĠ
she ĠxingĠ
tai ĠdiĠ
mu ĠqiĠ
zhou ĠnianĠ
bo ĠyuĠ
qiu ĠyuĠ
qiao ĠchuĠ
43 ĠnianĠ
ĠshiĠ yinĠduĠ
wuĠ suoĠ
junĠ fangĠ
puĠ leiĠ
chanĠ liangĠ
Ġ ti
Ġ 1980
bing ĠzhiĠ
suo ĠfuĠ
nv ĠgeĠshouĠ
ry ĠĠĠ
xiangĠ qianĠ
biĠ huaĠ
sanĠ xiangĠ
guangĠ zhouĠshiĠ
shuiĠ ku
zhuanĠ boĠ
2Ġ wanĠ
yiĠdeĠ daoĠ
ĠbeiĠqiĠ shunĠshiĠzhenĠyuĠ
Ġniu ĠyueĠshiĠ
Ġ louĠ
Ġ XĠ
Ġ 1978ĠnianĠ
ĠĠĠ 2003
dian ĠweiĠyuĠ
jiu ĠjiĠ
quan ĠshiĠjieĠ
ding ĠbuĠ
tu ĠweiĠ
zhuang ĠyouĠ
in Ġ
33 ĠnianĠ
diĠ baĠ
guanĠ yinĠ
wanĠ yanĠ
pinĠ fanĠ
ĠruĠ jinĠ
Ġ fuĠzhiĠ
lu ĠyouĠ
ni ĠdaĠquĠ
duo ĠyiĠ
gou ĠwuĠ
pao ĠbingĠ
ĠguoĠ min
ĠguoĠ fangĠbuĠ
tongĠ huaĠ
xiaĠ weiĠyiĠ
lunĠ shuĠ
gengĠ huanĠ
piĠ ping
xiĠbanĠ ya
Ġ jian
Ġ du
Ġ dongĠxiĠ
Ġ yongĠyiĠ
ĠĠĠ tong
mu ĠyiĠ
pai ĠjiĠ
dou ĠzhiĠ
can ĠjiĠrenĠ
zhao ĠdeĠ
ĠliĠ xiangĠ
keĠ huanĠ
jiangĠ xianĠ
duĠ chaĠ
haiĠ guanĠ
tianĠ jinĠshiĠ
Ġ kui
Ġ 1988
Ġ Ri
Ġ 1982ĠnianĠ
Ġ 1958ĠnianĠ
nuo ĠbeiĠerĠ
nai ĠerĠ
44 ĠnianĠ
youĠ taiĠrenĠ
wuĠ fuĠ
jiangĠ zhangĠ
yaĠ dianĠ
fanĠ dui
xuanĠ piaoĠ
Ġta ĠzhiĠ
renĠweiĠ yuanĠ
ĠduoĠ geĠ
ĠzuiĠzhongĠ zaiĠ
mingĠniĠ suĠdaĠ
2 ĠshiĠ
Ġ shuo
Ġ junĠweiĠ
li ĠyouĠ
qing ĠweiĠ
heĠ yueĠ
yuanĠ shouĠ
jianĠ xiaoĠ
zhanĠ fuĠ
yingĠ shuĠ
luoĠ menĠ
chuanĠ xianĠ
ĠgongĠ changĠ
guangĠ xuĠ
ĠzhuĠ saiĠ
ĠtaĠcengĠ daiĠbiao
Ġ The
en ĠĠĠ
wu ĠzhongĠxinĠ
jiang ĠweiĠwuĠerĠ
ha ĠfuĠ
ĠliĠ changĠ
zhengĠ lunĠ
shangĠ faĠlanĠxiĠdaĠquĠ
baoĠ luĠ
zuiĠ chuĠdeĠ
ĠbingĠ huoĠdeĠ
Ġsui ĠyiĠ
chaoĠjiĠ lianĠsaiĠ
Ġ leiĠsiĠ
Ġ pinĠdaoĠ
qiĠ yongĠ
ĠguoĠ anĠ
ĠdaĠ gongĠ
jiaoĠ duoĠ
fenĠ kaiĠ
meiĠ shuĠguanĠ
tianĠ ranĠ
chongĠ fenĠ
chuangĠ zuo
ren ĠshiĠdeĠ
qu ĠdeĠyiĠ
tong ĠrenĠ
mei ĠrenĠ
zhou ĠzhongĠ
xu ĠjiaĠ
shui ĠxiĠ
hong ĠshiĠziĠ
zhongĠ daĠ
shangĠ chuanĠ
yingĠ sheĠ
guanĠ jieĠ
xinĠ xianĠ
xinĠ huaĠ
jiaoĠ tong
junĠ zhangĠ
biĠ ciĠ
yaĠ chiĠ
tuĠ luĠ
zhunĠ queĠ
Ġma ĠerĠ
faĠbiaoĠ leĠ
ĠwanĠpingĠfangĠ miĠ
Ġ 22Ġ
yan ĠweiĠ
bao ĠzhongĠ
gao ĠweiĠ
chun ĠjiĠ
sun ĠhaiĠ
chou ĠkeĠ
ĠzhiĠ houĠdeĠ
ĠxiĠ lanĠ
taiĠ nanĠshiĠ
xiaĠ banĠ
ĠzhiĠchiĠ zheĠ
Ġ chuanĠtongĠ
ĠĠĠ suĠ
hu ĠrenĠ
mei ĠyuĠ
lai ĠjiĠ
cai ĠfuĠ
1917 ĠnianĠ
beiĠ songĠ
nanĠ ceĠ
canĠ yanĠ
Ġai ĠdeĠ
guiĠdaoĠ jiaoĠtongĠ
xianĠdaiĠ huaĠ
dianĠqiĠ huaĠ
xia ĠheĠ
mu ĠyouĠ
qiu ĠxingĠ
lan ĠqiĠ
fuĠ mianĠ
taiĠ zhongĠshiĠ
wangĠ chaoĠdeĠ
muĠ hanĠmoĠdeĠ
luoĠ houĠ
neiĠ zhengĠbuĠ
1Ġ mianĠ
dao ĠyiĠgeĠ
hua ĠbuĠ
dian ĠzaiĠ
liang ĠzaiĠ
gao ĠliĠ
xu ĠzhiĠ
ĠshiĠ miĠ
ĠshiĠ miĠsiĠ
ĠyiĠ ziĠ
ĠweiĠ guoĠ
gongĠ shuĠ
ĠguoĠ jiaĠjiĠ
fenĠ bianĠ
ĠfuĠ muĠ
bianĠ gengĠ
ĠgaiĠ wuĠzhongĠdeĠ
peiĠ xun
xiaoĠshiĠ houĠ
zhengĠfu ĠheĠ
shengĠwuĠ xueĠ
sanĠjiaoĠ xingĠ
Ġ tie
gai ĠdeĠ
47 ĠnianĠ
zhiĠ zuoĠ
ĠliĠ jiaĠ
pingĠ xianĠ
danĠ maiĠ
wanĠ shanĠ
hongĠ shuiĠ
tuiĠ chu
ĠzhenĠ duiĠ
wuĠliĠ xueĠjiaĠ
dongĠbuĠ daĠquĠ
aĠjiĠ tan
hui ĠshiĠyongĠ
jiang ĠdaĠ
jiu ĠbuĠ
lie ĠtaĠ
huan ĠyouĠ
00 Ġ
rui ĠkeĠ
29 ĠnianĠ
buĠ luĠ
jianĠ jiaoĠ
wuĠ yeĠ
shouĠ yingĠ
yanĠ huĠ
ĠdaĠ zhengĠ
wangĠ fanĠ
gaoĠ xiongĠ
lingĠ shouĠ
guĠ geĠ
lieĠ ru
ĠzhuĠ yanĠ
Ġtong ĠnianĠ10ĠyueĠ
ĠmaĠ dingĠ
niuĠyueĠ zhouĠ
Ġ zun
Ġ An
Ġ xiangĠshiĠ
ĠĠĠ 5Ġ
qi ĠyiĠzhiĠ
zhou ĠxiĠ
chen ĠshiĠ
bang ĠdanĠ
42 Ġ
1910 ĠnianĠ
xingĠ shengĠ
ĠdiĠ chuĠ
zhanĠ qianĠ
tongĠ chengĠ
zheĠ changĠ
dianĠ luĠ
zongĠ tiĠ
chuanĠ jiaoĠshiĠ
ĠzheĠ xiangĠ
qinĠ fanĠ
miaoĠ xieĠ
ĠchaoĠ tingĠ
ĠĠĠ jiaoĠ
dao ĠzhongĠguoĠ
dian ĠzhongĠ
kai ĠxingĠ
sai ĠyuĠ
1908 ĠnianĠ
daĠ xiĠ
xingĠ mingĠ
gongĠ buĠdeĠ
huiĠ shouĠ
houĠ zheĠ
guanĠ kan
taiĠ yinĠ
saiĠ tingĠ
ĠxiangĠ biĠ
Ġri ĠheĠ
tuoĠ leiĠ
ĠzhanĠ zhengĠ
ĠguangĠ zhouĠ
ke ĠĠĠ
shu ĠdeĠyiĠzhongĠ
liang ĠkeĠ
zhen ĠzhongĠ
lin ĠheĠ
lun ĠzhongĠ
10 ĠgeĠ
ĠshiĠ yinĠweiĠ
ĠyiĠ shouĠ
daĠ baiĠ
wuĠ jiaĠ
jieĠ mianĠ
xiangĠ cunĠ
dongĠ wuĠdeĠ
qianĠ fengĠ
banĠ dianĠ
zuĠ gouĠdeĠ
gaoĠ fengĠ
luoĠ niĠ
biaoĠ tiĠ
zhuanĠ men
ĠbuĠguoĠ zaiĠ
faĠxianĠleĠ ciĠtianĠtiĠ
ĠaĠerĠbeiĠ siĠ
Ġ zouĠ
Ġ houĠzaiĠ
ĠĠĠ Be
ĠĠĠ pingĠ
xin ĠnianĠ
dui ĠrenĠ
gai ĠjiĠ
ting ĠzaiĠ
niu ĠjinĠ
53 ĠnianĠ
ght Ġ
1904 ĠnianĠ
ĠzaiĠ geĠ
wenĠ daiĠ
taiĠ yang
qingĠ haiĠ
liangĠ haoĠdeĠ
sheĠ zhiĠdeĠ
zhenĠ chaĠ
lingĠ duiĠ
kaiĠ boĠ
paiĠ ming
shaoĠ huiĠ
ĠgongĠyuanĠ qianĠ
Z Ġ
Ġ ban
Ġ zhiĠdeĠ
ĠĠĠ duoĠ
xing ĠdeĠshiĠ
hu ĠjiĠ
ge Ġyue
tai ĠzhiĠ
guang ĠdaĠ
66 ĠnianĠ
jianĠ jianĠ
chuĠ ruĠ
shuĠ niuĠ
zhengĠ jianĠ
yingĠ jiuĠ
yeĠ tiĠ
liangĠ tiaoĠ
shenĠ yuanĠ
zuĠ zhangĠ
xuĠ niĠ
ĠgeĠ siĠ
ĠqiĠzhongĠ baoĠkuo
Ġgai ĠjiĠ
pingĠlun ĠjiaĠ
Ġ chou
Ġ Wi
nian ĠjianĠ
huo ĠzhiĠ
bo ĠliĠyaĠ
yao ĠzhiĠ
feng ĠxingĠ
pian ĠshiĠ
ning ĠxianĠ
ĠyiĠ fangĠ
diĠ zhenĠ
ĠrenĠ mingĠweiĠ
shouĠ qiangĠ
yangĠ guangĠ
fanĠ dianĠ
caiĠ neng
niĠ guĠlaĠ
linĠ jinĠdeĠ
zhaoĠ muĠ
Ġ000 ĠmingĠ
zhuĠshiĠ huiĠsheĠ
ĠjinĠxingĠ leĠ
Ġ ruiĠshiĠ
chang ĠzhongĠ
gai ĠdiĠquĠ
12 ĠgeĠ
heng ĠdeĠ
80 ĠnianĠ
huiĠ quĠ
zhanĠ siĠ
yaĠ suoĠ
bianĠ jiangĠ
fanĠ kangĠ
ĠyuanĠ yinĠ
Ġyou ĠweiĠ
xianĠdeĠ chengĠshiĠ
caoĠ anĠ
jieĠshouĠ leĠ
ĠyouĠxianĠ gongĠsi
aiĠerĠ lan
ĠĠĠ suoĠ
ĠĠĠ biĠsaiĠ
zheng ĠzhongĠ
mi ĠrenĠ
yong ĠliĠ
na ĠzaiĠ
bang ĠjiaĠ
mou ĠgeĠ
42 ĠnianĠ
ĠyouĠ huiĠ
siĠ zhangĠ
wuĠ juĠ
wuĠ mingĠ
ĠqiĠ yuanĠ
shuĠ baiĠ
zhanĠ duiĠ
duĠ teĠ
ĠkeĠ yiĠshiĠ
fanĠ zui
baĠ mianĠ
chuanĠ shangĠ
ĠshouĠ luĠ
Ġbei ĠweiĠ
ĠK Ġ
jieĠyiĠ chanĠ
ĠĠĠ minĠguoĠ
shan ĠzhiĠ
begin Ġ
chuĠ kou
shouĠ piao
jingĠ jieĠ
lianĠ shuĠ
anĠ dongĠniĠ
zuiĠ xinĠ
ĠdanĠ yinĠweiĠ
ĠzhuĠ tiĠ
haĠ laĠ
Ġ Ni
Ġ heĠyiĠ
ĠĠĠ Fi
ĠĠĠ 2ĠyueĠ
gai ĠyiĠ
liu ĠheĠ
pian ĠyiĠ
tuo ĠdeĠ
tun ĠmenĠ
um Ġ
yuanĠ chuangĠ
fuĠ huoĠ
beiĠ shaĠ
yeĠ keĠ
jueĠ saiĠdeĠ
linĠ xianĠ
ĠjingĠ waiĠshuĠruĠ
ĠĠĠshiĠ jianĠ
ĠdeĠzhongĠ yaoĠ
dianĠziĠyouĠ xiĠ
ti ĠzaiĠ
ju ĠdiĠ
sai ĠshiĠzhongĠ
mo ĠzhiĠ
chuang ĠyiĠ
kua ĠyueĠ
56 ĠnianĠ
zhuĠ ming
junĠ dui
fanĠ xiangĠ
fanĠ sheĠ
leĠyiĠ zhongĠ
Ġba ĠxiĠ
ĠdeĠjiĠchuĠ shangĠ
Ġ 57
Ġ yuanĠweiĠ
ĠĠĠ Com
ĠĠĠ 1ĠyueĠ
dao ĠĠĠ
yong ĠweiĠ
neng ĠliĠdeĠ
gei ĠshiĠzhongĠ
shuai ĠjunĠ
1946 ĠnianĠ
1915 ĠnianĠ
wuĠ luĠ
ĠqiĠ xiaĠdeĠ
quĠ chuĠ
luĠ xingĠmuĠ
xiaoĠ haoĠ
touĠ mingĠ
ĠshangĠ hai
kaoĠ ruĠ
zongĠyiĠ jieĠmuĠ
liaoĠning ĠshengĠ
Ġ geĠliĠ
ĠĠĠ zheĠxieĠ
da ĠĠĠ
du ĠyouĠ
sai ĠsiĠ
cun ĠheĠ
guoĠ jiaĠdeĠ
heĠ faĠ
yingĠ bangĠ
xiaoĠ chuĠ
daiĠ xieĠ
ruĠ xuan
bianĠ lunĠ
guĠ yongĠ
ĠjinĠ tianĠ
ĠchengĠ xianĠ
2Ġ mianĠ
ĠwanĠ quanĠ
ĠwangĠ luoĠ
Ġjin ĠzhiĠ
wuĠxianĠ dianĠ
Ġtian ĠqiĠ
zuiĠhouĠyiĠ ciĠ
ĠsectionĠĠĠ beginĠ
Ġ Me
ai ĠliĠsiĠ
lei ĠxiĠ
lei ĠkeĠ
cao ĠyuanĠ
90 ĠnianĠ
ĠyiĠ langĠ
jiaoĠ xiangĠ
junĠ wangĠ
ĠjianĠ zaoĠ
meiĠguoĠ guoĠjiaĠ
ĠchengĠ duĠ
aiĠ shaĠ
ĠyiĠzhiĠ weiĠ
Ġdang ĠnianĠ
Ġjin ĠjiĠ
ĠzaiĠci ĠqiĠjianĠ
Ġ 1983
Ġ daĠliĠ
Ġ neiĠbuĠ
an ĠbuĠ
sh Ġ
nan ĠweiĠ
suo ĠheĠ
tu ĠzaiĠ
gui ĠyuĠ
xingĠ haoĠ
erĠ yuanĠ
huiĠ mianĠ
jinĠ shenĠ
jingĠ chengĠ
ĠdaĠ tongĠ
nanĠ xiaĠ
panĠ duanĠ
Ġjiu ĠyueĠ
touĠru ĠshiĠyongĠ
Ġ 98
ĠĠĠ Ca
bei ĠyouĠ
bing ĠzhongĠ
ĠshiĠ pinĠ
yuanĠ yuanĠ
zhuĠ duoĠ
jiaoĠ geiĠ
haiĠ junĠdeĠ
muĠ biao
zuĠ ziĠzhiĠquĠ
teĠ gongĠ
bianĠ liangĠ
guĠ xiangĠ
baĠshiĠ luĠxianĠ
guangĠboĠ dianĠtaiĠ
bi ĠzhiĠ
ru ĠzhiĠ
jiu ĠyuĠ
jue ĠqiĠ
pei ĠyueĠ
hong ĠqiĠ
cao ĠdiĠ
BD Ġ
ĠshiĠ fangĠ
buĠ xiangĠ
daĠ lianĠmengĠ
siĠ jiaĠ
jiaĠ shuĠ
beiĠ geĠ
riĠ houĠ
nanĠ yanĠyuanĠ
fengĠ suĠ
fengĠ mianĠ
zeĠ renĠweiĠ
ĠshiĠweiĠ yuanĠhuiĠ
yinĠyueĠ huiĠ
diĠshiĠ erĠ
Ġduo ĠrenĠ
reĠdai ĠdiĠqiĠyaĠ
Ġ gen
Ġ geiĠ
Ġ 1980ĠnianĠ
ying ĠyouĠ
yang ĠrenĠ
les Ġ
ĠzaiĠ xianĠ
ĠbuĠ langĠ
keĠ laĠ
chuĠ laiĠdeĠ
shangĠ huiĠ
xueĠ guanĠ
daiĠ zheĠ
suoĠ xuĠdeĠ
xuanĠ baĠ
Ġ chong
fei ĠsiĠ
shan ĠsiĠ
su ĠheĠ
na ĠxiĠ
ga Ġ
jiĠ shuĠ
ĠliĠ mianĠ
ĠdaĠ siĠ
fenĠ juĠ
ĠjiaĠ qiangĠ
guangĠ dianĠ
yueĠ qiuĠ
tuiĠ ceĠ
ĠranĠ houĠzaiĠ
Ġsi ĠyueĠ
ĠjinĠshiĠ chuĠshenĠ
Ġ shang
Ġ miao
ĠĠĠ huĠ
ling ĠheĠ
lei ĠliĠ
feng ĠqiĠ
pin ĠweiĠ
jieĠ quĠ
keĠ xiĠ
ĠdaĠ shaĠ
laiĠ meiĠ
teĠ youĠzhiĠwuĠ
ĠjianĠ chaĠ
zuiĠgaoĠ faĠyuanĠ
jiaĠliĠfuĠ niĠyaĠ
5 ĠshiĠ
yi ĠshiĠshiĠ
bu ĠdeĠyiĠ
ke ĠshiĠyongĠ
shan ĠxingĠ
cha ĠzhiĠ
1906 ĠnianĠ
renĠ kou
youĠ juĠyuĠ
ĠzhongĠ duoĠ
ĠguoĠ zhongĠ
beiĠ pingĠ
banĠ shangĠ
xiao ĠshiĠdeĠ
xu ĠweiĠ
bian ĠbuĠ
tui ĠdaoĠ
beiĠ haiĠ
huiĠ jiangĠ
nanĠ luĠ
nanĠ nvĠ
juanĠ zengĠ
9 ĠgeĠ
Ġ buĠliĠ
dai ĠzhongĠ
yao ĠxingĠ
po ĠshiĠ
to Ġ
SA Ġ
siĠ mingĠ
jianĠ zhu
beiĠ faĠxianĠ
huiĠ xingĠ
jinĠ saiĠ
tiĠ qinĠ
wangĠ luo
duoĠ yangĠ
yangĠ benĠ
chuanĠ zhuĠ
moĠshiĠ chan
ĠsectionĠĠĠ endĠ
¡ Ġ
xi ĠyueĠ
ĠĠĠ Mar
ĠĠĠ taĠzaiĠ
ke ĠbuĠ
kai ĠshiĠdeĠ
ĠyiĠ jieĠ
chengĠ qiangĠ
shuĠ fuĠ
biĠ luĠ
boĠ yingĠ
haoĠ wuĠ
fengĠ jingĠ
jueĠ zhuĠ
ĠgongĠ zuo
ĠgaiĠ gongĠsiĠ
xunĠ yanĠ
zhaoĠ huiĠ
shouĠhuanĠ yingĠdeĠ
Ġ shengĠrenĠ
da ĠliĠdeĠ
zuan ĠshiĠ
ĠzaiĠ guoĠ
jianĠ ce
ziĠ danĠ
ĠxiĠ quĠ
juĠ huiĠ
zuoĠ paiĠ
xinĠ wen
jiaoĠ xiaoĠdeĠ
tieĠluĠ juĠ
miĠniĠ zhuanĠjiĠ
mei ĠheĠ
dang ĠzhiĠ
feng ĠjiĠ
kong ĠjuĠ
ps Ġ
laiĠ leĠ
meiĠ you
zuĠ zongĠ
ĠgaiĠ geĠ
3Ġ gongĠliĠ
ĠĠĠzhuĠ zuoĠ
saĠerĠ waĠ
kaoĠlv ĠdaoĠ
Ġ za
Ġ zhanĠshiĠ
yi ĠshiĠjiĠ
ĠĠĠ wuĠkeĠlanĠ
huo ĠweiĠ
lei ĠzaiĠ
bie ĠshuĠ
pang ĠqiuĠ
ĠliĠ xingĠ
youĠ renĠ
ĠheĠ fuĠ
chengĠ faĠ
qingĠ daiĠ
muĠ houĠ
luoĠ yangĠ
ĠzhuĠ mingĠ
douĠ yuĠshiĠ
woĠ menĠdeĠ
Ġai ĠliĠ
Ġbei ĠzhiĠ
jiaoĠhuiĠ chuĠ
jiangĠyuĠ liangĠ
ĠjieĠweiĠ luĠdiĠ
Ġ 1986
Ġ zuoĠyouĠ
hui ĠliĠ
san ĠheĠ
che ĠzaiĠ
lin ĠzhiĠ
ku ĠsiĠ
meng ĠyouĠ
geng ĠyouĠ
60 ĠnianĠ
qiĠ zaiĠ
qiĠ xiaĠ
ĠyouĠ taiĠrenĠ
ĠheĠ luĠ
gongĠ tingĠ
jianĠ shuĠ
jinĠ kouĠ
huaĠ tiĠ
tongĠ changĠshiĠ
jiangĠ jieĠ
ĠfuĠ za
wanĠ chengĠdeĠ
miĠ xieĠ
anĠ zhao
suoĠ muĠ
zuiĠ mingĠ
baĠ saiĠerĠ
ĠxuĠ duo
paiĠhangĠ bangĠ
Ġ 1982
ĠĠĠ zhanĠhouĠ
yin ĠyueĠdeĠ
jun ĠdaĠ
zao ĠchuĠ
guang ĠdaoĠ
chan ĠshiĠ
gou ĠxiangĠ
cao ĠdeĠ
ter ĠĠĠ
38 Ġ
youĠ xiaoĠ
ĠzhongĠ wuĠ
daĠ liangĠdeĠ
ĠqiĠ tuĠ
chuĠ ban
ĠdiĠ 2Ġ
dongĠ hua
boĠ leiĠ
dengĠ xiaoĠ
huĠ tongĠ
liuĠ xingĠdeĠ
cengĠ danĠrenĠ
ĠhouĠ beiĠ
ĠciĠ wai
a ĠdeĠ
Ġ qiĠzhiĠ
ĠĠĠ sheĠ
xue ĠshiĠweiĠ
song ĠshiĠ
jiĠ chuĠ
fenĠ dianĠ
wangĠ minĠ
zuiĠ juĠ
fanĠ paiĠ
shanĠ luĠ
ĠgongĠ nengĠ
ĠciĠ juĠ
ĠciĠ lieĠcheĠ
canĠ mouĠ
ĠdeĠzhiĠ zuoĠ
ĠyueĠzhongĠ xunĠ
ĠĠĠ 2003ĠnianĠ
you ĠshiĠyiĠ
zi ĠbuĠ
zhou ĠguoĠ
na ĠweiĠ
han ĠrenĠ
rang ĠrenĠ
daĠ dongĠbuĠdaĠquĠ
jianĠ zaoĠdeĠ
chuĠ shengĠzaiĠ
zhanĠ lieĠ
xiaĠ shuiĠ
zuĠ qun
teĠ luoĠ
ĠĠĠliĠshiĠ yanĠgeĠ
yanĠjiu ĠzhongĠ
4 ĠhaoĠ
Ġ f
ta ĠbuĠ
dai ĠjiaĠ
chuan ĠdaĠ
ve ĠĠĠ
1907 ĠnianĠ
ĠshiĠ minĠ
beiĠ mianĠ
ziĠ jiĠshiĠ
huiĠ xianĠ
juĠ ziĠ
tiĠ neiĠ
junĠ fuĠ
haiĠ wanĠ
jiuĠ ciĠ
ĠhouĠ yinĠ
kongĠ guĠ
Ġtong ĠyueĠ
ĠmeiĠ zhouĠ
ĠluoĠ boĠ
ĠISTAT ĠdaiĠmaĠweiĠ
ĠĠĠ tuĠ
jian ĠyueĠ
gu ĠdiĠ
bo ĠheĠ
nuo ĠkeĠ
57 ĠnianĠ
ĠjiĠ xianĠ
daĠ erĠ
jiaĠ zhuangĠ
keĠ qianĠwangĠ
ciĠ ziĠ
dengĠ baoĠ
ĠjinĠ gongĠ
chanĠ sheng
diĠyiĠ mingĠ
muĠsiĠ teĠ
siĠlingĠ yuanĠ
Ġ 88
Ġ Ch
zhan ĠshiĠqiĠ
zhou ĠsiĠ
min ĠzaiĠ
11 ĠshiĠ
kan ĠwuĠ
lao ĠhuiĠ
xiĠ yinĠ
yuanĠ chengĠ
shuĠ mingĠ
houĠ saiĠ
mingĠ dan
bingĠ chuanĠ
guangĠ xianĠ
Ġzhe ĠliĠ
saĠ moĠ
laoĠ banĠ
nongĠ duĠ
ĠyaĠ meiĠ
huĠbeiĠ shengĠ
Ġ 700
ĠĠĠ duĠ
chang ĠrenĠ
min ĠheĠ
pi ĠerĠ
che ĠheĠ
quĠ xianĠ
xinĠ yang
jiaoĠ wangĠ
qianĠ longĠ
ĠxingĠ bie
fanĠ chuanĠ
baĠ leiĠ
ĠgaiĠ dangĠ
ĠzongĠ jiaoĠ
Ġgai ĠnianĠ
ĠdeĠdaoĠ luĠ
chengĠduĠ shangĠ
shouĠhaiĠ zheĠ
Ġ tuĠerĠqiĠ
jiao ĠxiĠ
du ĠzhongĠ
fan ĠyuĠ
na ĠyiĠ
se ĠheĠ
mao ĠkeĠ
xiangĠ fuĠ
beiĠ anĠ
zuoĠ biaoĠ
ĠdaĠ ziĠ
yinĠ duĠdeĠ
ĠjiaĠ la
muĠ luĠ
maĠ luĠ
ĠjianĠ duĠ
aĠ saiĠbaiĠ
keĠyiĠ yongĠ
ĠhuaĠ xueĠ
ĠshiĠyiĠkeĠ hengĠxingĠ
Ġ xun
Ġ zaoĠqiĠ
Ġ zhunĠbeiĠ
zheng ĠrenĠ
ye ĠliĠ
bo ĠqiĠ
huan ĠshiĠ
tion ĠĠĠ
49 ĠnianĠ
beiĠ shouĠ
fenĠ huaĠ
xiaoĠ fuĠ
qingĠ fuĠ
shenĠ chuĠ
liuĠ mingĠ
ĠaoĠ diĠliĠ
ĠguiĠ dingĠ
Ġzheng ĠyueĠ
5 ĠmingĠ
Ġ daiĠbiao
Ġ fuĠliĠ
an ĠdiĠ
ĠĠĠ Ho
ĠĠĠ genĠju
jie ĠyueĠ
lai ĠweiĠ
neng ĠyuĠ
41 ĠnianĠ
zhongĠ zuĠ
shengĠ xingĠ
jinĠ zhuĠ
quĠ zhuĠjianĠ
zhengĠ jiuĠ
banĠ zhangĠ
shenĠ xueĠ
qiuĠ dui
ĠchengĠ keĠ
ĠjieĠ tiĠ
qunĠ daoĠdeĠ
Ġ nei
Ġ Po
Ġ 1947ĠnianĠ
yin ĠrenĠ
xin ĠdiĠ
ba ĠqiĠ
daĠ jiaĠ
jiaoĠ gaoĠdeĠ
haiĠ yang
2Ġ biĠ
nianĠ duĠ
tongĠguoĠ leĠ
ĠjiaoĠ shouĠ
ĠfeiĠ changĠ
gaoĠxiong ĠshiĠ
ĠpuĠtaoĠ yaĠyuĠ
Ġ Bo
ĠĠĠ ruĠguoĠ
dong ĠzhongĠ
quan ĠzhongĠ
su ĠyuĠ
bang ĠshangĠ
52 ĠnianĠ
yuanĠ laiĠdeĠ
wuĠ jieĠ
yanĠ bianĠ
dengĠ zhanĠ
fanĠ xinĠ
guangĠ xueĠ
tieĠluĠ gongĠsiĠ
faĠxingĠ leĠ
zongĠjiaoĠ quĠ
zuiĠhou ĠyiĠgeĠ
3 ĠliĠ
mei ĠkeĠ
shao ĠyuĠ
58 ĠnianĠ
OS Ġ
style Ġ
ĠdeĠ buĠ
heĠ chengĠ
Ġyue ĠjiĠ
gongĠ lu
wuĠ xuĠ
changĠ shuĠ
duiĠ gaiĠ
muĠ diĠshiĠ
liuĠ jingĠ
ĠshengĠ wuĠ
dianĠying ĠzhongĠ
changĠpian ĠgongĠsiĠ
ĠwanĠmeiĠ yuanĠdeĠ
li ĠsiĠ
fan ĠrenĠ
lv ĠbuĠ
cha ĠsiĠ
ĠzaiĠ neiĠ
xiĠ quĠ
ĠyueĠ duĠ
leĠ jinĠ
ciĠ leiĠ
huaĠ wenĠ
ĠriĠ benĠdeĠ
ĠjiaĠ mengĠ
meiĠ laĠ
lianĠ xianĠ
ĠdanĠ taĠmenĠ
zhengĠshiĠ chengĠliĠ
ĠhuiĠ daoĠ
ĠyanĠ yuanĠ
ĠĠĠshiĠ jieĠ
ĠlianĠ xuĠ
ĠbianĠ haoĠ
xinĠliĠ xueĠ
Ġ zhongĠyiĠ
Ġ quanĠbuĠ
Ġ zhuiĠ
qiu ĠdaĠ
sai ĠshiĠdeĠ
liu ĠqiĠ
hao ĠzhongĠziĠ
guang ĠweiĠ
tang ĠshiĠ
song ĠzhiĠ
zhai ĠdeĠ
ĠshiĠ duanĠ
jieĠ jingĠ
xiangĠ jiangĠ
jiaoĠ yuĠdeĠ
duiĠ yingĠdeĠ
xiaoĠ zhenĠ
danĠ shuiĠyuĠ
shenĠ shouĠ
ĠfuĠ haoĠ
zuĠ lianĠ
ĠtaĠ yeĠshiĠ
guĠ baĠ
haoĠ chengĠshiĠ
ĠgaiĠ chengĠ
ĠciĠ qianĠ
guoĠdeĠ teĠyouĠzhiĠwuĠ
ĠanĠ zhaoĠ
ĠdeĠyiĠge ĠzhongĠ
fuĠshiĠ zhangĠ
ĠgaiĠshengĠfenĠweiĠfaĠguoĠ beiĠbuĠ
zhanĠdou ĠzhongĠ
« Ġ
han ĠsiĠ
HD ĠĠĠ
Ġnian ĠzhiĠhouĠ
ĠyouĠ zheĠ
ĠzaiĠ shangĠ
shengĠ fuĠzeĠguanĠxiaĠ
ĠerĠ jiaĠ
jiaoĠ yuanĠ
saiĠ juĠ
Ġgai ĠdiĠ
1ĠriĠ pingĠjunĠ
Ġliang ĠguoĠ
keĠjiĠ daĠxueĠ
ĠerĠsiĠ keĠ
ĠxunĠ huiĠ
kongĠzhongĠ faĠxianĠ
huanĠxingĠ shanĠ
Ġ Ki
qi ĠshiĠdeĠ
xiao ĠdiĠ
bai ĠjinĠ
chao ĠxiĠ
tuo ĠyuanĠxingĠ
zou ĠdeĠ
ĠdeĠ laĠ
ĠrenĠ neiĠ
jianĠ yanĠ
tongĠ xun
dingĠ lvĠ
liuĠ fangĠ
fengĠ biĠ
ĠliangĠ zheĠ
minĠjinĠ dangĠ
ĠĠĠ So
ta ĠjiĠ
xu ĠheĠ
pai ĠshiĠ
gui ĠjiĠ
bang ĠdaĠ
1903 ĠnianĠ
ĠyiĠ guoĠ
ĠzaiĠ fuĠ
beiĠ diĠ
zuoĠ chuĠleĠ
tiĠ caoĠ
wangĠ guoĠdeĠ
dangĠ paiĠ
hanĠ baoĠ
ĠyeĠ keĠ
yuĠyiĠ daĠliĠ
ĠbenĠ mingĠ
Ġsi ĠliĠ
ĠweiĠzhongĠ xinĠ
ĠshiĠshiĠjieĠ shangĠ
5 ĠhaoĠ
g ĠĠĠ
Ġ 68
Ġ Ð½
ĠĠĠ houĠlaiĠ
da ĠyouĠ
ming ĠliĠ
ru ĠdiĠ
xu ĠliĠ
tie ĠdeĠ
pei ĠsiĠ
gei ĠchuĠ
keĠ taĠ
ĠdaĠ lou
dingĠ muĠ
paiĠ duiĠ
ĠjianĠ shaoĠ
huoĠdeĠ diĠ
Ġjin ĠyiĠbuĠ
Ġjiang ĠyuĠ
ĠtuĠ jingĠ
kaĠluoĠlaiĠnaĠ zhouĠ
Ġ fangĠzhiĠ
ai ĠdiĠ
ĠĠĠ faĠxingĠ
ĠĠĠ canĠkaoĠ
deng ĠyiĠ
tiao ĠshiĠ
34 Ġ
ĠyuĠ jingĠ
Ġli ĠweiĠzhiĠ
shouĠ piĠ
zhanĠ biĠ
huaĠ dongĠ
tiĠ chu
dianĠ ciĠ
wanĠ jieĠ
lianĠ siĠjiĠ
zhengĠzhiĠ xieĠshangĠ
ĠlianĠ bangĠ
ĠO Ġ
ĠheĠbeiĠ shengĠ
Ġ23 Ġ
ĠqiĠxiĠ shenĠduĠ
5 ĠwanĠ
Ġ St
ĠĠĠ wenĠ
fa ĠyouĠ
zhan ĠguoĠ
dai ĠheĠ
wang ĠdaĠ
37 Ġ
align Ġ
jianĠ dingĠ
jinĠ jinĠ
ĠdiĠ keĠ
zhanĠ lieĠjianĠ
yeĠ chengĠ
jiangĠ gaiĠ
minĠ yongĠ
ĠtaĠ biaoĠshiĠ
fanĠ yingĠdeĠ
ĠxiangĠ dangĠ
ĠshiĠweiĠ shuĠjiĠ
Ġtong ĠnianĠ11ĠyueĠ
ĠtongĠ chang
saĠkeĠ senĠ
moĠshiĠchan ĠdiĠzaiĠ
Ġ 1948
Ġ biaoĠzhunĠ
ĠĠĠ caiĠ
er ĠshiĠshiĠjiĠ
suo ĠyuĠ
chun ĠjieĠ
yinĠ yuanĠ
ĠjinĠ guan
meiĠguoĠ haiĠjunĠ
Ġbing ĠshiĠ
shaoĠ nv
ĠdengĠ dengĠ
2010ĠnianĠ meiĠguoĠrenĠkouĠpuĠchaĠ
Ġ1946 ĠnianĠ
Ġmin ĠjiĠ
Ġ 1948ĠnianĠ
ĠĠĠ Ra
ĠĠĠ Ba
ying ĠweiĠ
chi ĠyuĠ
zao ĠshiĠ
ĠyiĠ zhangĠ
jieĠ zhuĠ
sheĠ xiangĠ
zhenĠ dongĠ
huĠ zhaoĠ
zhuĠyiĠ daoĠ
ziĠgeĠ saiĠ
ĠmianĠ dianĠ
2 ĠjiaĠ
Ġ c
Ġ henĠduoĠ
ji ĠyiĠjiĠ
ver Ġ
ĠzhiĠ minĠ
renĠ menĠ
ĠbeiĠ jingĠshiĠ
ĠzheĠ yeĠ
ĠchuĠ daoĠ
ĠdeĠzhiĠ huiĠ
ĠyiĠweiĠ zhuĠ
daoĠzhiĠ leĠ
ĠzuoĠ pinĠ
xunĠhuiĠ yanĠchangĠhuiĠ
huaĠshengĠ dun
shuaiĠling ĠdeĠ
ĠjuĠqingĠ xiaĠ
7 ĠgongĠliĠ
Ġ Pi
ĠĠĠ dianĠyingĠ
nan ĠdaĠ
gao ĠxingĠ
36 Ġ
55 ĠnianĠ
59 ĠnianĠ
1900 ĠnianĠ
ĠyiĠ wenĠ
ĠyuĠ jiaĠ
ĠyouĠ xi
yingĠ huaĠ
duiĠ chenĠ
ĠjiaĠ sheĠ
liangĠ jieĠ
ĠfuĠ luoĠ
teĠ shengĠ
ĠyinĠ hangĠ
ĠwuĠ diĠ
huangĠ puĠ
ouĠ zhouĠdeĠ
ĠzhongĠshiĠ yanĠ
Ġ Ha
Ġ zhuĠliĠ
Ġ 1979ĠnianĠ
nian ĠbeiĠ
sheng ĠyueĠ
hua ĠliĠ
jiang ĠrenĠ
kang ĠdeĠ
et Ġ
63 ĠnianĠ
ĠyuĠ zhouĠ
ĠzaiĠ jianĠ
wuĠ changĠ
xiangĠ xiangĠ
beiĠ keĠ
ĠsiĠ tan
ruĠ zhuĠ
ĠxingĠ xiangĠ
zuiĠ jinĠ
tanĠ huaĠ
naĠcui ĠdeĠguoĠ
Ġ 99
ai ĠziĠ
ĠĠĠ he
ĠĠĠ xueĠ
sheng ĠdeĠyiĠgeĠ
hui ĠrenĠ
tang ĠjiĠ
diao ĠrenĠ
1950 ĠnianĠdaiĠ
weiĠ xieĠ
faĠ guoĠdeĠ
ĠxiĠ zang
jingĠ bao
jingĠ xianĠ
yeĠ shouĠ
wanĠ huiĠ
baĠ naĠ
ĠdanĠ houĠlaiĠ
zhuanĠ anĠ
Ġtong ĠnianĠ9ĠyueĠ
Ġjie ĠheĠ
zhuiĠ suĠzhiĠ
gaoĠdengĠ xueĠxiaoĠ
fuĠqin ĠdeĠ
ĠbiĠyeĠ houĠ
Ġ hun
Ġ jiaĠliĠ
Ġ 1956ĠnianĠ
ĠĠĠ niĠ
ĠĠĠ 2002ĠnianĠ
ti ĠyouĠ
tian ĠyiĠ
ĠyiĠ siĠshiĠ
ĠzhiĠ xiangĠ
ĠzhiĠ zuoĠdeĠ
ĠzaiĠ taiĠwanĠ
ĠrenĠ shouĠshangĠ
ĠyueĠ qiuĠ
jieĠ juĠ
ĠfuĠ siĠ
manĠhuaĠ jiaĠ
langĠdeĠ shengĠ
ĠkeĠxiĠ taĠ
Ġ nuoĠweiĠ
hao ĠyueĠtaiĠ
rong ĠqiĠ
ĠshiĠ neiĠ
ĠyuĠ yuĠ
taĠ duiĠ
bingĠ faĠ
ĠxingĠ bieĠ
zuĠ chengĠyuanĠ
jiuĠ keĠyiĠ
fanĠ xueĠxiaoĠ
ĠxianĠ faĠ
ĠjieĠ chuĠ
nianĠ qingĠ
maiĠkeĠ erĠ
ĠbuĠjiuĠ houĠ
Ġtian ĠfuĠ
3 ĠĠĠ
Ġ chu
Ġ 1987
Ġ 1981ĠnianĠ
ng Ġ
ĠĠĠ 2002
xu ĠyouĠ
zui ĠxiĠ
lou ĠtiĠ
chun ĠdeĠ
chai ĠyouĠ
70 ĠnianĠ
48 Ġ
51 ĠnianĠ
1916 ĠnianĠ
jiaĠ juĠ
chengĠ duĠdeĠ
xianĠ qiĠ
ĠxiĠ la
leĠ zheĠyiĠ
jiaoĠ chuĠ
qianĠ wanĠ
laiĠ teĠ
suoĠ xuĠ
ĠzheĠ liangĠ
huanĠ rao
Ġ 1984
Ġ Te
Ġ ãĤĵ
ĠĠĠ yangĠ
ĠĠĠ aoĠ
ĠĠĠ renĠwuĠ
ĠĠĠ 2024ĠnianĠ
zai ĠshiĠyongĠ
he ĠshiĠdeĠ
hu ĠyiĠ
wu ĠguoĠ
xiu ĠzhuĠ
piao ĠdeĠ
xiĠ tong
xianĠ fengĠ
bingĠ qiuĠ
dianĠ yaĠ
minĠ zhengĠ
teĠ lanĠ
quanĠ zhouĠ
maĠ enĠshengĠ
aĠ erĠjiĠ
ĠshengĠ chanĠ
Ġzhe ĠshiĠyiĠ
ĠbenĠ zhanĠ
zhongĠshiĠ yanĠ
8 ĠgongĠliĠ
ĠĠĠ 20ĠshiĠjiĠ
wan ĠshiĠ
te ĠyiĠ
ben ĠdiĠquĠ
liu ĠweiĠ
gang ĠguoĠ
pang ĠdeĠ
BS Ġ
ĠyouĠ fuĠ
gongĠ fengĠ
geĠ lanĠdeĠ
beiĠ hanĠ
faĠ xianĠyuĠ
jiangĠ daoĠ
pingĠ xingĠ
suoĠ shu
saiĠ maĠ
sanĠ jianĠ
naĠ poĠlunĠ
eĠ waiĠdeĠ
2Ġ gongĠliĠ
ĠneiĠ rongĠ
canĠsaiĠ zheĠ
Ġ kuoĠ
Ġ jianĠzhiĠ
dai ĠjiĠ
dai ĠzaiĠ
men ĠdaĠ
guang ĠshiĠ
ĠyuĠ daĠ
ziĠ youĠshiĠ
dongĠ fengĠ
xiaĠ shuĠ
qingĠ xieĠ
boĠ luoĠdiĠ
touĠ yingĠ
eĠ junĠ
ĠnanĠ ziĠ
minĠzhuĠ zhuĠyiĠ
Ġming ĠshiĠ
ĠgaiĠwuĠzhongĠdeĠ moĠshiĠchanĠdiĠzaiĠ
Ġ yu
Ġ Ka
Ġ xueĠxiĠ
ĠĠĠ xiangĠguanĠ
shou ĠguoĠ
bian ĠzhongĠ
fei ĠyuĠ
xiong ĠzhangĠ
ĠzhiĠ liangĠ
guoĠ duĠ
shengĠ qianĠ
beiĠ panĠ
luĠ jun
ĠyinĠ niĠ
manĠ guanĠ
teĠbie ĠxingĠzhengĠquĠ
muĠniĠ hei
eĠhaiĠeĠ zhouĠ
3 ĠshiĠ
Ġ 1955ĠnianĠ
ĠĠĠ Windows
qu ĠliĠ
lin ĠzaiĠ
meng ĠjiaĠlaĠ
man ĠweiĠ
ĠbuĠ leiĠ
faĠ yinĠ
guanĠ junĠdeĠ
changĠ shaĠ
xinĠ jiaoĠ
ĠxingĠ chaiĠyouĠjiĠ
xuanĠ xiuĠ
ĠshiĠyiĠ jingĠ
waĠ laĠ
ĠĠĠyiĠ xieĠ
Ġgu ĠjiĠ
qingĠhuaĠ daĠxueĠ
Ġ h
da ĠliĠshiĠ
zhang ĠshiĠjianĠ
mai ĠxiaĠ
der Ġ
ĠshiĠ gaiĠ
daĠ siĠ
jieĠ duĠ
shengĠ yuanĠ
ĠqiĠ chengĠ
houĠ huiĠ
ĠfuĠ lanĠkeĠ
wanĠ daoĠ
panĠ luan
Ġye ĠbuĠ
Ġbei ĠrenĠweiĠshiĠ
ĠganĠ suĠ
ĠshiĠwuĠkeĠ lanĠdeĠ
Ġ John
Ġ mĠ
ĠĠĠ Ar
ĠĠĠ miaoĠshuĠ
xiang ĠrenĠ
zuo ĠbuĠ
yong ĠrenĠ
jiu ĠyiĠjingĠ
yang ĠyiĠ
sai ĠzhiĠ
wai ĠyuĠ
wai ĠkeĠ
Ġnian ĠnianĠ
ĠyouĠ ziĠ
ĠzaiĠ jingĠ
keĠ keĠ
quĠ jueĠyuĠ
yingĠ fuĠ
taiĠ shanĠ
daiĠ huiĠ
saiĠ puĠ
Ġ 1979
lian ĠjiĠ
shan ĠyiĠ
que ĠxianĠ
bang ĠshouĠ
54 ĠnianĠ
xingĠ fuĠ
huaĠ feiĠ
guanĠ muĠ
gaiĠ zhuangĠ
liangĠ cengĠ
cheĠ huiĠ
zongĠ zhangĠ
neiĠ waiĠ
ĠxianĠ zaiĠdeĠ
huanĠ manĠ
ĠyeĠ huiĠ
zhengĠzhiĠ juĠ
Ġ mou
Ġ ouĠzhou
xian ĠyueĠ
tong ĠyiĠgeĠ
ct Ġ
III Ġ
ĠheĠ youĠ
fuĠ luoĠ
shengĠ ziĠ
xianĠ beiĠ
xianĠ jingĠ
shangĠ ye
tongĠ meng
xinĠ zeng
zuiĠ zhuĠmingĠdeĠ
zongĠ zuoĠ
saiĠ eĠ
ĠdeĠyiĠ changĠ
ĠbingĠ duiĠ
ĠgongĠ si
ĠgaiĠ zuĠzhiĠ
huanĠ yuanĠ
ĠshuĠ rouĠshiĠxingĠ
yunĠshiĠ kengĠ
Ġ binĠ
Ġ zhongĠzhiĠ
fen ĠheĠ
ni ĠzaiĠ
su ĠjiĠ
han ĠweiĠ
pao ĠtaĠ
ĠshiĠ congĠ
zhongĠ xingĠ
zhengĠ queĠ
yinĠ qiĠdeĠ
tiĠ shangĠ
fenĠ sanĠ
taiĠ langĠ
ĠdeĠyiĠ buĠ
ĠyiĠzhiĠ youĠ
zongĠtongĠ fuĠ
Ġye ĠzaiĠ
Ġ nvĠziĠ
Ġ iĠ
Ġ 1937ĠnianĠ
an ĠweiĠ
gao ĠerĠfuĠ
xiu ĠliĠ
zun ĠshouĠ
jieĠ touĠ
zhuĠ yanĠdeĠ
shengĠ zhengĠfuĠ
faĠ guiĠ
yeĠ kaiĠshiĠ
luĠ xiangĠ
biĠ huĠ
qiuĠ fanĠ
kaiĠ fang
tingĠ huoĠ
nvĠ xingĠdeĠ
ĠxiaĠ xiaĠ
ĠjiaoĠ tongĠ
ĠhuaĠ xueĠshiĠweiĠ
Ġmei ĠriĠ
kenĠ seĠ
Ġ Do
Ġ Ð¸
sa ĠzhuĠsaiĠ
sang ĠnaĠ
75 Ġ
shiĠ yiĠ
ĠyiĠ chuĠ
ĠzhiĠ qiĠ
jieĠ hun
ĠerĠ wenĠmingĠ
juĠ mianĠ
shangĠ yanĠ
teĠ se
lingĠ muĠ
luoĠ shanĠ
yangĠ junĠ
zuiĠ changĠ
fengĠ mingĠ
jueĠ xinĠ
ĠyinĠ qingĠ
1Ġ biĠ
daiĠbiao ĠdeĠ
kaĠsiĠ diĠliĠyaĠ
Ġ yunĠdongĠ
Ġ wuĠliĠ
Ġ zhiĠdeĠshiĠ
Ġ 1952ĠnianĠ
ji ĠshiĠjieĠ
ĠĠĠ pa
nian ĠhouĠ
ke ĠweiĠerĠ
lun ĠweiĠ
shui ĠzhiĠ
ĠdeĠ junĠ
ĠyuĠ 18
jianĠ shouĠ
ĠerĠ xiĠ
dongĠ xingĠ
yanĠ se
guanĠ bingĠ
duiĠ liuĠ
ĠjiaĠ naĠ
liuĠ tongĠ
neiĠ sheĠyouĠ
ĠchengĠ xuĠ
zengĠ qiang
ziĠjiĠ zaiĠ
ĠteĠ langĠ
lvĠweiĠ 0
ĠzaiĠzhongĠguoĠ daĠluĠ
yuan ĠĠĠ
wang ĠliĠ
kai ĠzhiĠ
zhuan ĠxingĠ
cun ĠjiĠ
re ĠdeĠ
cang ĠdeĠ
1938 ĠnianĠ
fuĠ daoĠ
geĠ quĠdeĠ
ĠbuĠ bianĠ
zhuĠ biĠ
guanĠ xi
ĠdaĠ shengĠ
xinĠ huiĠ
anĠ niĠ
suĠ lianĠdeĠ
leiĠ anĠjianĠ
sanĠ jieĠ
guangĠ zhou
baiĠ huoĠ
ganĠ junĠ
ĠfaĠ lvĠ
Ġer ĠyiĠ
ĠguĠ ciĠ
ĠranĠ erĠzaiĠ
Ġliu ĠyueĠ
Ġ xingĠjiĠ
ĠĠĠ quĠ
yun ĠjiĠ
na ĠdaoĠ
qiĠ bingĠ
buĠ heĠ
xiĠ lieĠdeĠ
shouĠ xiaĠ
shouĠ huoĠ
fangĠ ziĠ
taiĠ leiĠ
wangĠ fuĠ
nanĠ duanĠ
meiĠ tiĠdeĠ
kaiĠ guanĠ
ĠxiangĠ tongĠ
ĠchuĠ xianĠzaiĠ
chongĠ fengĠ
ĠzhiĠweiĠ yuĠ
sanĠshiĠ nianĠ
ĠgengĠ mingĠweiĠ
baoĠhanĠ leĠ
diaoĠcha ĠjuĠ
6 ĠmingĠ
Ġ 1958
Ġ Ho
Ġ xinĠxiĠ
Ġ jianĠrenĠ
guo ĠliĠshiĠ
dang ĠyiĠ
suo ĠbuĠtongĠ
zhuang ĠzaiĠ
ĠyouĠ xie
gongĠ bu
gongĠ keĠ
jianĠ tingĠ
zhuĠ yuanĠ
beiĠ zhanĠ
ĠdiĠ xingĠ
shuĠ liangĠdeĠ
fangĠ yingĠ
zheĠ huiĠ
qianĠ zhengĠ
junĠ duiĠdeĠ
pingĠ shenĠ
daiĠ kuanĠ
dangĠ neiĠ
kouĠ anĠ
shuiĠ zhunĠ
chongĠ baiĠ
daiĠbiaoĠ duiĠ
zhunĠ jueĠsaiĠ
Ġ shu
Ġ ya
Ġ lan
ĠĠĠ Hi
zuo ĠguoĠ
mu ĠxiĠ
cai ĠyouĠ
diao ĠdeĠ
hen ĠyouĠ
ĠshiĠ liuĠ
siĠ huĠ
jiaĠ qiĠ
jiaĠ ciĠ
xianĠ jinĠdeĠ
huaĠ banĠ
junĠ xianĠ
junĠ zhengĠ
haiĠ baoĠ
sheĠ zhangĠ
hanĠ liangĠ
1Ġ gongĠliĠ
ĠyingĠ yongĠ
juĠxingĠ leĠ
Ġ ping
Ġ tiĠyuĠ
Ġ piĠpingĠ
fu ĠliĠdeĠ
luo ĠliĠ
ba ĠdiĠ
deng ĠjiaĠ
bin ĠxiĠfaĠ
ly Ġ
diĠ daiĠ
daĠ chen
daĠ gongĠ
daĠ tongĠ
siĠ yuanĠ
xiangĠ jinĠ
ziĠ jiaĠ
huaĠ daĠ
xinĠ aĠjiĠtan
qianĠ liangĠ
zhenĠ duanĠ
paiĠ hang
ĠxiangĠ xiĠ
pinĠ kun
ĠshengĠ mingĠ
tiaoĠjianĠ xiaĠ
A ĠĠĠ
qian ĠheĠ
ru ĠjiĠ
neng ĠshiĠ
lin ĠyiĠ
sha ĠheĠ
qiang ĠjianĠ
pei ĠyuĠ
hen ĠnanĠ
zan ĠchengĠ
47 Ġ
Î² Ġ
ĠbuĠ mingĠ
shengĠ riĠ
ziĠ taiĠ
chuĠ xingĠ
zhanĠ baiĠ
yaĠ maĠ
miĠ lanĠ
shanĠ guĠ
ĠxiangĠ jiaoĠyuĠ
ĠdeĠjiĠ heĠ
ĠzuiĠ zhongĠyuĠ
feiĠliĠ puĠ
tianĠran ĠqiĠ
Ġ luan
li ĠnianĠ
li ĠwuĠ
xue ĠqiĠ
dan ĠheĠ
san ĠguoĠ
duan ĠdaoĠ
kao ĠdeĠ
piao ĠjiaĠ
sun ĠziĠ
90 ĠnianĠdaiĠ
diĠ tuĠ
ĠzaiĠ yuanĠ
ĠzaiĠ beiĠjingĠ
wuĠ quĠ
chuĠ bingĠ
shouĠ yaoĠ
haiĠ baoĠkuoĠ
ĠtaĠ danĠrenĠ
lingĠ wai
ĠbingĠ kaiĠshiĠ
sanĠ cengĠ
ĠzhuĠ gongĠ
ĠshiĠjiĠ luĠ
youĠyiĠ zuoĠ
ĠxueĠ zheĠ
Ġai ĠdeĠhuaĠ
Ġling ĠyiĠgeĠ
Ġsan ĠjiaĠ
muĠdiĠ diĠ
ĠyouĠmingĠ BDĠ
ĠzhongĠyang ĠweiĠyuanĠhuiĠ
banĠgongĠ tingĠ
ĠweiĠfuĠqiĠyuĠgangĠ luĠxingĠmuĠ
Ġ faĠyuĠ
bao ĠyiĠ
wen ĠxiĠ
zu ĠzhongĠ
mian ĠheĠ
pao ĠjiĠ
zhongĠ xin
renĠ mingĠ
xiangĠ siĠdeĠ
dongĠ buĠdeĠ
ciĠ shanĠ
dianĠ yuanĠ
dianĠ tiĠ
qingĠ zhenĠsiĠ
shanĠ poĠ
ĠbingĠ jiangĠqiĠ
caiĠ naĠ
linĠ quĠ
tingĠ boĠ
ĠjuĠ tiĠ
gengĠ gaoĠdeĠ
Ġsi ĠzhiĠ
5 ĠĠĠ
Ġ se
Ġ ST
Ġ duoĠdeĠ
Ġ sanĠnianĠ
Ġ feiĠjiĠ
ĠĠĠ Po
ĠĠĠ 2000ĠnianĠ
wang ĠxiĠ
lian ĠxingĠ
bo ĠyiĠ
long ĠheĠ
ers Ġ
yuĠ leiĠ
daĠ geĠ
xiĠ guanĠ
fuĠ leiĠdeĠ
geĠ changĠ
wuĠ fa
xueĠ shengĠdeĠ
yanĠ houĠ
zuiĠ xiaoĠ
zongĠ jieĠ
ĠyiĠjiĠ weiĠ
chuangĠ banĠrenĠ
ĠguoĠjiaĠ gongĠyuanĠ
ĠjiĠluĠ pianĠ
biĠyeĠ shengĠ
Ġ b
Ġ Da
ĠĠĠ 2001
ĠĠĠ 2001ĠnianĠ
lian ĠyiĠ
lei ĠbuĠ
reng ĠshiĠ
ĠyuĠ wenĠ
qiĠ dongĠ
ĠzaiĠ diĠerĠ
daĠ jinĠ
yuanĠ guĠ
ĠdiĠ jiuĠ
mingĠ yunĠ
ĠriĠ houĠ
banĠ jingĠ
miĠ maĠ
ĠdaoĠ fuĠ
chuanĠ chuĠ
lanĠ jieĠ
chongĠ xin
diĠyiĠ zhiĠ
ĠyuanĠ zhuĠ
ĠmeiĠ ciĠ
ĠzhongĠxin ĠweiĠ
suoĠshiĠ yongĠdeĠ
Ġ Pe
Ġ guanĠzhongĠ
Ġ qiuĠjiĠ
Ġ naiĠ
ĠĠĠ 11
ĠĠĠ sheĠhuiĠ
dui ĠzhongĠguoĠ
qian ĠyouĠ
1930 ĠnianĠdaiĠ
ĠdeĠ siĠ
xianĠ huaĠ
ĠdiĠ zhenĠ
huaĠ gongĠ
huoĠ fuĠ
gaoĠ wenĠ
kaiĠshiĠ houĠ
chengĠyuanĠ guoĠ
Ġmo ĠxiĠgeĠ
1 ĠzhiĠ
ĠĠĠ w
le ĠrenĠ
wang ĠjiaĠ
biao ĠshiĠweiĠ
liu ĠliĠ
tian ĠjiĠ
lei ĠyiĠ
nei ĠshiĠ
bai ĠgongĠ
zhuĠ yiĠdeĠshiĠ
zheĠ zuoĠ
gaiĠ xiaoĠ
duoĠ chuĠ
fengĠ tianĠ
laĠ muĠ
ĠciĠ zhanĠ
manĠ zhouĠ
manĠ haĠ
guoĠjiĠ saiĠ
ĠfenĠ lanĠ
faĠshengĠ houĠ
Ġ1938 ĠnianĠ
luĠyinĠshiĠ zhuanĠjiĠ
Ġ Hi
Ġ Ðµ
Ġ 1954ĠnianĠ
fang ĠrenĠ
huan ĠjiĠ
pin ĠyinĠ
hong ĠyiĠ
ss ĠĠĠ
nt Ġ
buĠ ruĠ
zhuĠ geĠ
ĠqiĠ daĠ
ĠerĠ diĠ
shouĠ qiuĠ
guanĠ jun
taiĠ luoĠ
jiuĠ fenĠ
fanĠ changĠ
ĠdeĠyiĠ banĠ
naĠ xie
xiangĠgangĠ dianĠyingĠ
ziĠyouĠ dangĠ
Ġzai ĠzhiĠ
bangĠzhuĠ xiaĠ
Ġ 1981
bi ĠzhongĠ
wen ĠliĠ
lian ĠsiĠ
la ĠĠĠ
tan ĠwuĠ
qiang ĠxingĠ
ĠweiĠ reĠdaiĠ
ĠyuĠ qianĠ
ĠrenĠ siĠwangĠ
jinĠ gangĠ
yanĠ yongĠ
ciĠ juĠ
ciĠ zhanĠ
baoĠ leiĠ
tongĠ yiĠdeĠ
bingĠ qie
gaiĠ bianĠweiĠ
zuĠ shuĠjiĠ
baiĠ fangĠ
tingĠ cheĠ
pinĠ qingĠ
ĠyeĠ beiĠ
ĠdongĠ riĠbenĠ
ĠguoĠjiaĠ zuĠqiuĠduiĠ
guangĠboĠ dianĠshiĠ
jiaoĠkeĠ wenĠ
Ġ gua
Ġ niuĠyueĠ
ĠĠĠ songĠ
wei ĠdeĠguoĠ
zhen ĠzhiĠ
tian ĠzhiĠ
yuanĠ mingĠ
ciĠ qianĠ
ĠjiaĠ siĠ
ĠzheĠ liangĠgeĠ
ĠshiĠjieĠ shangĠ
kangĠ zhanĠ
ĠzuoĠ quĠ
shengĠjiĠ weiĠ
waiĠjiaoĠ guanĠxiĠ
ĠkeĠxiĠtaĠ niĠdaĠquĠ
Ġ 69
Ġ So
Ġ ãĤ¹
Ġ linĠshiĠ
Ġ huangĠdiĠ
ji ĠshiĠyongĠ
mi ĠxiĠxiĠ
biao ĠyuĠ
jue ĠjiĠ
guoĠ daoĠ
xingĠ geĠ
fuĠ fuĠ
ĠqiĠ mingĠ
xueĠ yanĠjiuĠ
jiangĠ shuiĠ
qingĠ shuiĠ
liangĠ ce
laiĠ shuo
bianĠ dongĠ
yaoĠ saiĠ
fengĠ shanĠ
tingĠ liuĠ
ĠxiangĠ xinĠ
moĠ shouĠ
zhuanĠ zhuĠyuĠ
ĠĠĠin ĠĠĠtheĠĠĠ
aĠfuĠ hanĠ
Ġ 44
huo ĠrenĠ
mian ĠbuĠ
cun ĠzheĠ
2026 ĠnianĠ
1902 ĠnianĠ
ĠshiĠ gongĠ
yuanĠ junĠ
daoĠ fuĠ
ĠxiĠ zangĠ
lianĠ xu
ĠdaoĠ danĠ
ĠshiĠyiĠ huiĠ
lanĠ xianĠ
Ġtong ĠnianĠ8ĠyueĠ
dongĠjiĠ aoĠlinĠpiĠkeĠyunĠdongĠhuiĠ
ĠyunĠ xuĠ
jieĠdaoĠ banĠshiĠchuĠ
Ġ Lo
dian ĠyouĠ
zhang ĠyouĠ
nan ĠdaĠxueĠ
feng ĠheĠ
lun ĠyiĠ
chen ĠyiĠ
ts ĠĠĠ
ad Ġ
ĠyuĠ tiĠ
ĠzaiĠ dongĠ
daĠ saiĠ
siĠ lingĠbuĠ
jieĠ shangĠ
xiangĠ linĠ
jinĠ xiuĠ
quanĠ xinĠ
neiĠ buĠdeĠ
Ġri ĠshiĠ
Ġri ĠjiĠ
shuĠdeĠ dongĠwuĠ
haĠ saĠkeĠsiĠ
ĠdangĠ tianĠ
jinĠshiĠ chuĠshenĠ
ĠyongĠ laiĠ
ĠchongĠ qingĠ
luoĠmaĠ tianĠzhuĠjiaoĠ
aoĠlinĠ piĠ
ouĠzhou ĠguoĠjiaĠ
shaoĠshuĠ minĠzuĠ
neiĠruiĠ laĠ
ĠniuĠyueĠshiĠ baoĠ
Ġ ref
guo ĠyiĠgeĠ
hu ĠshiĠdaiĠ
ge ĠnianĠ
jin ĠguoĠ
na ĠĠĠ
dou ĠyuĠ
long ĠdiĠ
lou ĠyuĠ
wuĠ xingĠ
zhuĠ xianĠ
zuoĠ weiĠshiĠ
lianĠ aiĠ
jiuĠ zhouĠ
ĠchuĠ xiĠ
ĠdeĠshiĠ tiĠ
zhuangĠ cunĠ
ĠwangĠ zhanĠ
8 ĠhaoĠ
Ġ 1941
Ġ diĠzhiĠ
Ġ biaoĠzhiĠ
ĠĠĠ No
ĠĠĠ mengĠ
ta ĠzhiĠ
xin ĠyueĠ
quan ĠliĠdeĠ
cai ĠzhiĠ
kuang ĠyeĠ
sun ĠshangĠ
color Ġ
weiĠ erĠ
jieĠ kouĠ
yingĠ yongĠyuĠ
guanĠ dongĠ
suoĠ zuoĠdeĠ
suĠ geĠlan
ĠwuĠ erĠ
chaĠ bieĠ
ĠwanĠ zhangĠ
ĠzuiĠ hou
6Ġ gongĠliĠ
beiĠjingĠ daĠxueĠ
chuĠbanĠ leĠ
gongĠsi ĠzaiĠ
ĠnianĠdai ĠzhongĠqiĠ
dangĠweiĠ shuĠjiĠ
nongĠcun ĠjuĠminĠ
zhuĠjiaoĠzuoĠ tangĠ
Ġ luĠyiĠ
ĠĠĠ eĠluoĠsiĠ
er ĠshiĠweiĠ
bi ĠyiĠ
ling ĠweiĠ
men ĠheĠ
tu ĠqiĠ
id Ġ
zhongĠ wenĠ
yingĠ yuanĠ
yeĠ luĠsaĠ
ĠfuĠ xingĠ
caiĠ jueĠ
niĠ geĠ
ganĠ shouĠ
poĠ haiĠ
ĠshouĠ duĠ
ĠnianĠ11ĠyueĠ 1ĠriĠ
ĠnianĠzhiĠ qianĠ
ĠduoĠ ciĠ
ĠweiĠyuĠgaiĠguoĠ dongĠnanĠbuĠ
Ġ ningĠ
Ġ 1966ĠnianĠ
Ġ 1909ĠnianĠ
ĠĠĠ styleĠ
zhang ĠguoĠ
zu ĠguoĠ
qing ĠzhongĠ
lun ĠliĠ
cui ĠhuaĠ
ĠdeĠ fuĠ
ĠyiĠ chengĠweiĠ
daĠ daĠ
ziĠ zhuanĠ
shuĠ xiĠ
ciĠ quanĠguoĠ
nanĠ yangĠ
zuiĠ zhangĠdeĠ
baiĠ se
Ġta ĠbuĠ
youĠyiĠ zhongĠ
ziĠyouĠ yongĠ
riĠben ĠrenĠ
Ġmi ĠerĠ
ĠqiangĠ diaoĠ
lanĠqiuĠ yunĠdongĠyuanĠ
Ġ 1978
ĠĠĠ huo
lai ĠbuĠ
nei ĠjiĠ
liao ĠliĠ
chuang ĠyeĠ
43 Ġ
ction Ġ
ĠzaiĠ xiaoĠ
zhuĠ muĠ
xiangĠ wangĠ
gaiĠ yaoĠ
zhouĠ weiĠdeĠ
ĠtaĠ congĠ
xieĠ chengĠ
bianĠ huĠ
liuĠ danĠ
aĠ laĠsiĠ
longĠ leiĠ
zouĠ leĠ
ĠlianĠ mengĠ
ĠweiĠerĠ siĠ
ĠaoĠ zhouĠ
gongĠsi ĠheĠ
jingĠcha ĠjuĠ
zhengĠzhiĠxieĠshangĠ huiĠyiĠ
6 ĠhaoĠ
Ġ g
Ġ 170
wu ĠweiĠyuanĠhuiĠ
jing ĠqiĠ
wen ĠrenĠ
nan ĠyouĠ
zhen ĠweiĠ
lun ĠjiaĠ
68 ĠnianĠ
41 Ġ
ĠshiĠ erĠyueĠ
ĠzhongĠ yuanĠ
jiaĠ banĠ
xianĠ bingĠ
ĠdiĠ guoĠdeĠ
tongĠ guoĠdeĠ
xinĠ siĠ
huoĠ paoĠ
biĠ nanĠ
liangĠ zhouĠ
zuiĠ guĠlaoĠdeĠ
biaoĠ yan
guiĠ dianĠcheĠ
ĠyeĠ meiĠyouĠ
tanĠ taoĠ
qinĠ lve
4Ġ gongĠliĠ
leĠyiĠ changĠ
Ġ tou
Ġ huangĠjiaĠ
bing ĠerĠchengĠ
wa ĠjieĠ
46 Ġ
ĠshiĠ tiĠ
ĠshiĠ sanĠ
ĠyouĠ jinĠ
fuĠ zaĠ
ĠguoĠ wuĠ
shuĠ liang
duiĠ taĠdeĠ
pingĠ pangĠqiuĠ
haiĠ nanĠ
ĠfuĠ keĠ
ĠfuĠ huaĠ
wanĠ meiĠ
benĠ yingĠ
yaoĠ suĠ
ĠdaoĠ shangĠ
chanĠ jieĠjiĠ
kaiĠshiĠ leĠ
ĠshiĠshiĠ jianĠ
boĠshiĠ dunĠ
ĠĠĠA Ġ
ĠweiĠzhuĠ tiĠ
ĠĠĠ To
ĠĠĠ cheĠzhan
huo ĠdiĠ
xie ĠxingĠ
wa ĠsiĠ
zeng ĠyuanĠ
ĠjiĠ muĠ
renĠ qiĠ
daĠ gangĠ
siĠ taĠ
wuĠ shengĠ
xiangĠ taĠ
xianĠ xiaĠ
huiĠ jianĠ
shuĠ maĠ
huoĠ huaĠ
liuĠ wangĠ
maĠ piĠ
chongĠ xiuĠ
gouĠ ruĠ
ĠshiĠweiĠyuĠmeiĠguoĠ miĠsuĠliĠ
ĠminĠ jinĠ
waiĠjiaoĠ guanĠ
ĠxinĠzengĠ benĠtuĠ
6 ĠshiĠ
Ġ à
ĠĠĠ Sa
ĠĠĠ colspanĠ
zu ĠzaiĠ
te ĠweiĠerĠ
gang ĠweiĠ
ceng ĠyiĠ
lao ĠrenĠ
64 ĠnianĠ
background Ġ
ĠshiĠ dangĠdiĠ
xiĠ zang
fuĠ lanĠ
jianĠ qiao
jianĠ mianĠ
ĠguoĠ qiĠ
jieĠ beiĠ
ziĠ diĠ
shuĠ ciĠ
jingĠ jiĠdeĠ
wanĠ biĠ
anĠ chaĠsiĠ
chuanĠ chengĠ
ĠdeĠshiĠ daiĠ
lingĠyiĠ zhongĠ
Ġ che
Ġ chengĠjiĠ
ĠĠĠ c
ĠĠĠ 7Ġ
gu ĠjiaĠ
nan ĠheĠ
jiu ĠxingĠ
qing ĠqiĠ
san ĠsiĠ
wa ĠliĠ
youĠ keĠ
ĠzaiĠ shengĠ
shangĠ huoĠdeĠ
baoĠ dongĠ
zuoĠ weiĠyiĠ
xinĠ cunĠ
qianĠ quĠ
banĠ qiuĠ
lingĠ dao
shanĠ daoĠ
liuĠ langĠ
zongĠ jiao
zongĠ bingĠ
ĠdeĠyiĠ keĠ
canĠ junĠ
leĠyiĠ zuoĠ
ĠyongĠ huĠ
daiĠbiao ĠxingĠ
ĠweiĠyuĠgaiĠguoĠ beiĠbuĠ
muĠniĠ heiĠ
Ġ chuangĠzuoĠ
an ĠyiĠ
ĠĠĠ St
lv ĠchengĠ
chi ĠyiĠ
niu Ġyue
ruo ĠdeĠ
gongĠ lvĠ
jinĠ shengĠweiĠ
juĠ xing
changĠ chengĠ
taiĠ kong
benĠ pianĠ
luoĠ wenĠ
kaiĠ leĠ
shaĠ shouĠ
ĠdeĠzhiĠ yeĠ
ĠshiĠzhenĠ fanĠweiĠneiĠ
ĠĠĠshiĠ shiĠ
ĠrenĠkou ĠweiĠ
ĠfuĠlangĠ shenĠ
1 ĠyiĠ
Ġ Ti
Ġ shouĠyuĠ
Ġ backgroundĠ
ĠĠĠ Wi
ren ĠĠĠ
zuan Ġ
gongĠ wuĠyuanĠ
chengĠ weiĠyiĠgeĠ
huiĠ laiĠ
taĠ shouĠ
chuanĠ bo
lunĠ baoĠ
ĠshuĠ juĠ
yinĠyueĠ jiaĠ
ĠĠĠyiĠ xiaĠshiĠ
ĠnianĠyiĠ houĠ
fenĠbie ĠyuĠ
miaoĠshuĠ leĠ
Ġ Pro
Ġ 1939
ĠĠĠ xianĠshiĠ
bi ĠxiĠ
ying ĠzhongĠ
hao ĠzhiĠ
1949 ĠnianĠ
ĠdeĠ jiaĠ
weiĠ laiĠ
ĠjiĠ suanĠjiĠ
ĠbuĠ jianĠ
jieĠ xianĠ
faĠ dingĠ
ĠerĠ keĠ
yingĠ yun
zhangĠ ai
biĠ mian
gaoĠ tieĠ
chongĠ qingĠshiĠ
kaiĠshiĠ zhiĠ
canĠ zhanĠ
zengĠ jiaĠzhiĠ
ĠnianĠ6ĠyueĠ 30ĠriĠ
Ġba ĠshiĠ
sheĠliĠ leĠ
Ġcong ĠshiĠ
fuĠluoĠliĠdaĠ zhouĠ
ĠĠĠ cong
min ĠzhiĠ
ma ĠdeĠliĠ
rong ĠyeĠ
diao ĠkeĠ
ĠweiĠ xiaoĠ
ĠjiĠ duĠjiaoĠ
ĠheĠ siĠ
ĠbuĠ zhuĠ
beiĠ po
jinĠ menĠ
zhengĠ houĠ
jingĠ juĠ
guanĠ wangĠ
ĠdaĠ suanĠ
ĠkeĠ xueĠjiaĠ
sheĠ tuanĠ
lianĠ suoĠ
zhouĠ wuĠ
quanĠ daoĠ
guĠ quanĠ
ĠgongĠ jueĠ
Ġdan ĠzhiĠ
ĠweiĠsiĠ teĠ
ĠgaiĠbianĠ ziĠ
luĠwa ĠerĠshengĠ
ĠHR ĠĠĠ
Ġ leng
Ġ 1960
Ġ 1944
Ġ 1964ĠnianĠ
Ġ 1977ĠnianĠ
ĠĠĠ Al
wei ĠyiĠjiĠ
luo ĠxiĠ
kai ĠguoĠ
yao ĠyuĠ
zhuan ĠxianĠ
cu ĠchengĠ
ĠweiĠ juĠ
heĠ erĠ
ĠyouĠ shengĠ
xingĠ cheĠ
yuanĠ dongĠ
chengĠ menĠ
huaĠ fenĠweiĠ
ĠdaĠ qiao
qianĠ tiĠ
zhangĠ chengĠ
banĠ gong
laiĠ enĠ
jiuĠ mingĠ
xieĠ huiĠdeĠ
bianĠ huiĠ
maĠ niĠ
chuanĠ jiaoĠ
ĠyiĠzhiĠ jiĠ
kanĠ dengĠ
wuĠkeĠ lanĠdeĠ
ĠsheĠ xianĠ
ĠyaoĠ qiu
xingĠyuĠ leiĠ
fuĠza ĠdeĠ
Ġ 1937
Ġ Fa
Ġ 1975ĠnianĠ
zhi ĠshiĠdeĠ
bi ĠliĠyaĠ
sui ĠyiĠ
ĠjiĠ geĠ
ĠyuĠ liĠ
zhongĠ duoĠ
ĠzaiĠ changĠ
jianĠ die
jieĠ shao
keĠ cheĠ
ĠxiĠ riĠbenĠ
shouĠ tiĠ
jingĠ taiĠ
duiĠ zhanĠ
xiaoĠ duiĠ
zhangĠ jiaĠ
duĠ tuĠ
ruĠ tongĠ
jiuĠ yeĠ
quanĠ shengĠ
ĠwuĠ lunĠ
keĠsaĠsiĠ zhouĠ
Ġ chengĠrenĠ
mi ĠbuĠ
bie ĠrenĠ
nu ĠsiĠ
wn Ġ
ĠyiĠ liangĠ
ĠzhiĠ shangĠ
ĠyuĠ 2021
yuanĠ shuai
fuĠ diĠ
daoĠ changĠ
ĠqiĠ daoĠ
faĠ junĠ
shuĠ niu
danĠ daoĠ
minĠ ganĠ
luoĠ naĠ
quanĠ guo
guĠ yuanĠ
huĠ anĠ
zongĠ seĠ
tuĠ jueĠ
sanĠ fenĠzhiĠ
ĠtaiĠ beiĠshiĠ
ĠzhanĠ muĠsiĠ
ĠluoĠ neĠ
canĠyuĠ zheĠ
ruoĠ ganĠ
Ġ2 ĠĠĠ
yingĠxiang ĠliĠdeĠ
ĠĠĠxiaĠ shuĠ
Ġ shouĠjiĠ
ĠĠĠ zai
ĠĠĠ waiĠ
xiang ĠbuĠ
ping ĠheĠ
ben ĠzhongĠ
rui ĠshiĠdeĠ
guai ĠwuĠ
ĠweiĠ xieĠ
guoĠ qiĠ
gongĠ cheng
gongĠ yongĠ
jianĠ guanĠ
yingĠ yangĠ
zuoĠ keĠ
ĠdaĠ daĠ
jiaoĠ tongĠbuĠ
junĠ yongĠ
dianĠ dongĠ
huoĠ pao
ĠfuĠ nieĠ
jueĠ ceĠ
ĠziĠ jinĠ
ĠyiĠjiĠ jiĠ
douĠ nengĠ
kaoĠ liangĠ
ĠshenĠ tiĠ
ĠĠĠshiĠ jiĠ
ĠtaĠmen ĠshiĠ
yinĠqiĠ leĠ
ĠjianĠzhuĠ mianĠjiĠ
jiangĠxiĠ shengĠ
yaĠmeiĠ niĠya
feiĠteĠ lieĠ
Ġ sheĠzhiĠ
si ĠweiĠerĠ
bai ĠjiĠ
ĠshiĠ hanĠguoĠ
ĠyiĠ tianĠ
ĠweiĠ jingĠ
ĠyuĠ daoĠ
youĠ xingĠ
ĠyouĠ liangĠgeĠ
ĠqiĠ leĠ
chuĠ beiĠ
yeĠ yinĠ
xinĠ jiangĠweiĠwuĠerĠ
gaiĠ sheĠ
minĠ bingĠ
teĠ ding
yunĠ xu
suĠ chengĠ
leiĠ bieĠ
paiĠ wangĠ
paiĠ xuĠ
ĠxianĠ luĠkouĠ
chongĠ qing
piĠ quanĠguoĠzhongĠdianĠwenĠwuĠbaoĠhuĠdanĠweiĠ
chuangĠ shangĠ
ĠshangĠ haiĠshiĠ
ĠdeĠyiĠgeĠ quĠ
ĠdiĠyiĠ ciĠ
Ġ chang
ke ĠzhongĠ
gang ĠdaoĠ
sa ĠliĠ
is Ġ
Î± Ġ
buĠ shuĠ
ĠyouĠ chengĠweiĠ
fuĠ lang
ĠqiĠ yuanĠyuĠ
dongĠ yinĠduĠ
ĠjiaĠ qingĠ
yaĠ teĠ
ĠfuĠ teĠ
guĠ tiĠ
feiĠ chengĠ
chuanĠ foĠjiaoĠ
ĠjinĠ siĠ
eĠ lieĠ
ĠyuanĠ laiĠ
youĠjiĠ duiĠ
Ġjin ĠnianĠ
ĠtangĠ chaoĠ
Ġ1 ĠĠĠ
bianĠchengĠ leĠ
luoĠfuĠ siĠkeĠ
cheĠrenĠ ciĠ
Ġ in
Ġ ne
li ĠxiangĠ
ĠĠĠ t
ĠĠĠ zaiĠyiĠ
da ĠliĠyuĠ
tian ĠheĠ
huan ĠxianĠ
shuang ĠxiangĠ
tes Ġ
youĠ xiuĠ
ĠyouĠ gaiĠ
jieĠ daiĠ
ziĠ ji
yanĠ chiĠ
taiĠ zongĠ
pingĠ fenĠ
yongĠ youĠdeĠ
ĠtaĠ keĠyiĠ
duoĠ yangĠxingĠ
haoĠ maĠ
ĠzheĠ shouĠ
ĠzhuĠ ruĠ
ĠgeĠ linĠ
kaĠ teĠ
nianĠ lingĠ
daoĠshiĠ yueĠtaiĠ
ĠĠĠbuĠ guoĠ
shengĠdaoĠ taiĠ
ĠheiĠlongĠjiangĠ shengĠ
Ġ nie
Ġ ãĤ¤
Ġ xueĠyuanĠ
ĠĠĠ juĠliĠ
cheng ĠliĠyiĠ
gu ĠshiĠdeĠ
zhou ĠdiĠ
quan ĠnianĠ
wai ĠdiĠ
gang ĠzhiĠ
pu ĠbuĠ
cang ĠyuĠ
cu ĠshiĠ
ĠyiĠ wanĠ
ĠweiĠ taiĠwanĠ
guoĠ junĠ
ĠerĠ geĠ
baoĠ guangĠ
xiaĠ menĠ
ĠjiaĠ daĠ
lianĠ qiuĠ
ĠshangĠ wuĠ
ĠshiĠweiĠyuĠ wuĠkeĠlanĠ
ĠhouĠlai ĠzaiĠ
Ġ 78
ao ĠbuĠ
ĠĠĠ Ja
ĠĠĠ guiĠdaoĠ
gu ĠzhiĠ
ban ĠdiĠ
ma ĠdaĠ
xu ĠyueĠ
zong ĠrenĠkouĠdeĠ
sui ĠrenĠkouĠ
suan ĠshiĠ
zei Ġ
ĠyouĠ zhongĠguoĠ
xiangĠ jieĠ
faĠ wenĠ
zhengĠ zhaoĠ
changĠ wuĠ
ĠsiĠ faĠ
dengĠ jiangĠ
ĠxianĠ shengĠ
ĠyiĠjiĠ qiĠtaĠ
ĠĠĠyiĠ xiaĠweiĠ
ĠweiĠyuĠgaiĠguoĠ zhongĠbuĠ
Ġfan ĠzhiĠ
Ġhou ĠrenĠ
taiĠfengĠ jingĠbao
teĠlangĠ puĠ
0 ĠbiĠ
Ġ onlyinclude
Ġ luĠdeĠ
xin ĠshiĠzhenĠ
yong ĠzhongĠ
deng ĠzhiĠwuĠ
kou ĠshiĠ
peng ĠhuĠ
ĠyiĠ tiaoĠ
yuanĠ youĠdeĠ
xiangĠ fanĠ
ĠxiĠ shuĠ
shouĠ jiaĠ
fangĠ daĠ
baoĠ gao
ĠfuĠ luĠ
quanĠ chengĠ
ĠzhongĠguoĠ guoĠminĠdangĠ
zongĠduĠ fuĠ
jiaoĠliuĠ daoĠ
hangĠzhanĠ louĠ
baĠleĠsiĠ tanĠ
Ġonlyinclude Ġ
Ġ Ne
Ġ ÑĢ
Ġ nanĠbuĠ
Ġ xuĠliĠyaĠ
Ġ 1976ĠnianĠ
zhi ĠshiĠyiĠ
ti ĠliĠ
zhen ĠliĠ
liu ĠzhongĠ
san ĠriĠ
ceng ĠjiĠ
can ĠjianĠ
sha ĠyuĠ
1940 ĠnianĠ
text Ġ
ĠshiĠ jiĠshiĠ
ĠyouĠ diĠ
ĠyouĠ xuĠduoĠ
zhuĠ chi
ĠxiĠ ceĠ
juĠ jue
ciĠ keĠ
ruĠ wuĠ
ĠziĠ chengĠ
ĠgeĠ laĠ
ĠyeĠ jianĠ
taoĠ huiĠ
ĠsanĠ geĠ
ĠnianĠjianĠ chengĠ
anĠdeĠ lieĠ
ĠkaĠ laĠ
ĠnvĠ xingĠweiĠ
ĠliĠheĠ wuĠzhengĠzhuangĠganĠranĠzheĠ
dongĠcheĠ zuĠ
meiĠguoĠyiĠ liĠnuoĠyiĠ
ĠfeiĠlvĠ binĠ
Ġ Ta
Ġ 1968ĠnianĠ
ĠĠĠ bingĠ
ĠĠĠ longĠ
bu ĠshiĠyongĠ
gun ĠqiuĠ
92 ĠnianĠ
ĠjiĠ suanĠ
daĠ yingĠ
shuĠ xueĠjiaĠ
riĠ jianĠ
ĠxiĠ junĠ
shouĠ beiĠ
huaĠ leĠ
tongĠ kuĠ
changĠ yongĠ
yaoĠ daoĠ
saiĠ teĠ
ĠdeĠyiĠ tiĠ
tangĠ chaoĠ
poĠ chanĠ
ĠjingĠ chaĠ
leĠyiĠ fenĠ
xuanĠbuĠ jiangĠ
guoĠminĠ dang
guoĠminĠ zhengĠfuĠ
ĠteĠbie ĠshiĠzaiĠ
ĠV Ġ
Ġ 140
Ġ nengĠgouĠ
en ĠheĠ
ĠĠĠ se
ĠĠĠ laiĠ
ĠweiĠ niĠ
erĠ zhanĠ
jianĠ puĠ
ĠqiĠ huaĠ
jinĠ ciĠyuĠ
ĠriĠ yuanĠ
duiĠ daiĠ
xiaoĠ haiĠ
haiĠ yaoĠ
bianĠ tiĠ
suoĠ zuoĠ
suoĠ xiaoĠ
yunĠ suanĠ
baĠ biĠ
caiĠ fangĠshiĠ
tingĠ banĠ
yiĠshiĠ xingĠtaiĠ
ĠgenĠjuĠ 2010ĠnianĠmeiĠguoĠrenĠkouĠpuĠchaĠ
ĠhuoĠdeĠ leĠ
kangĠriĠ zhanĠzhengĠ
a ĠkeĠ
Ġ 1960ĠnianĠ
zhong ĠdeĠyiĠgeĠ
di ĠĠĠ
jin ĠliĠ
hao ĠyiĠ
feng ĠyiĠ
lin ĠjiĠ
bai ĠqiĠ
long ĠyuĠ
mai ĠdiĠ
kun Ġnan
80 ĠnianĠdaiĠ
39 Ġ
mm Ġ
ĠweiĠ teĠ
ĠyuĠ 2015
daĠ dangĠ
geĠ ziĠdeĠ
keĠ yongĠ
ziĠ shenĠdeĠ
huiĠ luĠ
chuĠ dongĠ
chuĠ fangĠ
gaiĠ yongĠ
miĠ teĠ
duoĠ huiĠ
fanĠ chouĠ
shanĠ shangĠ
shanĠ zhanĠ
sanĠ haoĠ
ĠxiangĠ fanĠ
gangĠ quĠ
ĠjuĠ baoĠdaoĠ
zhuanĠ ye
nvĠ zi
Ġdang ĠriĠ
huoĠdong ĠzhongĠ
Ġ2011 ĠnianĠ12ĠyueĠ31ĠriĠ
tanĠxianĠ duiĠ
zhuanĠkeĠ xueĠxiaoĠ
8 ĠmingĠ
Ġ qiu
Ġ tuo
Ġ 1935ĠnianĠ
biao ĠzhongĠ
bian ĠzaiĠ
xuan ĠyiĠ
na ĠkeĠ
mao ĠliĠ
hen ĠjiĠ
ĠzhiĠ liuĠ
zhongĠ jianĠ
xiĠ junĠ
ĠyueĠ tanĠ
chengĠ xiĠ
chuĠ cunĠ
quĠ yuĠdeĠ
zhengĠ queĠdeĠ
yinĠ siĠ
ĠsiĠ huĠ
zhouĠ xianĠ
ĠbingĠ renĠweiĠ
ĠgongĠ minĠ
ĠjianĠ chiĠ
guangĠ huaĠ
ĠziĠ zhuĠ
ĠshiĠdeĠ jiĠ
ĠyeĠ wuĠ
hengĠ kua
ĠĠĠbenĠ zhanĠ
ĠweiĠyuĠgaiĠguoĠ nanĠbuĠ
gaoĠdengĠ jiaoĠyuĠ
jieĠquanĠguoĠ renĠdaĠdaiĠbiaoĠ
zhuangĠweiĠ linĠ
Ġ gaoĠzhongĠ
ĠĠĠ suiĠzhuĠ
ci ĠbuĠ
huo ĠzhongĠ
sha ĠliĠ
hun ĠxiaoĠ
ning ĠboĠ
jinĠ jiangĠ
zuoĠ zhan
zuoĠ ciĠ
ĠdaĠ duiĠ
haiĠ zhanĠ
qingĠ chao
ĠfuĠ fuĠ
guĠ shengĠ
biaoĠ zhangĠ
zongĠ tongĠdeĠ
tangĠ naĠ
tanĠ ceĠ
zhengĠzhiĠ weiĠyuanĠ
Ġer ĠyouĠ
ĠtaĠmen ĠyuĠ
ĠxinĠzeng ĠjingĠwaiĠshuĠruĠ
duoĠlunĠ duoĠ
baoĠkuoĠyiĠxiaĠ wuĠzhongĠ
Ġ nong
Ġ 67
Ġ qia
Ġ 25Ġ
ĠĠĠ Da
ĠĠĠ Si
ĠĠĠ Par
ĠĠĠ piĠ
bei ĠzaiĠ
dong ĠweiĠ
ying ĠqiĠ
dui ĠbuĠ
xiao ĠqiĠ
wen ĠzaiĠ
na ĠjiĠ
10 ĠwanĠ
62 Ġ
ĠdeĠ xinĠ
ĠyiĠ liao
ĠweiĠ zhongĠguoĠ
jianĠ juĠ
huiĠ seĠ
chuĠ quĠ
shuĠ qianĠ
ĠxiĠ linĠ
juĠ huaĠ
ĠdaĠ suan
duĠ chengĠ
qingĠ chun
shenĠ bianĠ
xieĠ leĠ
yangĠ quĠ
maĠ tou
guiĠ ze
xiuĠ shanĠ
ĠnanĠ fangĠ
zuĠqiuĠ jiaĠjiĠ
Ġzong ĠheĠ
ĠĠĠzaoĠnianĠ shengĠhuoĠ
ĠqiĠzhong ĠyiĠgeĠ
Ġ 79
Ġ Chi
ĠĠĠ mo
ĠĠĠ qiuĠ
du ĠqiĠ
mu ĠzaiĠ
ban ĠzhongĠ
ling ĠzaiĠ
ba ĠjiĠ
feng ĠliĠ
one Ġ
sion Ġ
ĠshiĠ riĠben
ĠweiĠ huĠ
ĠyouĠ yuanĠ
xiangĠ yingĠdeĠ
ĠdaĠ junĠ
liangĠ jianĠ
miĠ qie
ĠdanĠ que
ĠbeiĠ fangĠ
hanĠ minĠguoĠ
ĠshiĠjiĠ moĠ
qiĠshiĠ daiĠ
daiĠbiao ĠdaĠ
touĠruĠ fuĠwuĠ
haĠerĠ keĠfuĠ
wangĠqiuĠ gongĠkaiĠsaiĠ
3 ĠfenĠ
Ġ kenĠ
Ġ yaĠliĠshanĠdaĠ
ĠĠĠ yinĠciĠ
ĠĠĠ 1999ĠnianĠ
200 Ġ
duan ĠjiĠ
duan ĠzhiĠ
chong ĠxianĠ
lo Ġ
ĠshiĠ shengĠ
ĠyouĠ guoĠ
wuĠ xiaoĠ
wuĠ laĠ
faĠ diĠ
chuĠ waiĠ
jingĠ yingĠdeĠ
tongĠ banĠ
duĠ tongĠ
nanĠ quĠ
anĠ chaĠshiĠ
ĠtaĠ kaiĠshiĠ
diĠyiĠ jiaĠ
gengĠ haoĠdeĠ
guoĠjiĠ saiĠshiĠ
ĠmuĠ qin
kanĠ saĠsiĠ
xingĠzhengĠ zhangĠguanĠ
ĠshenĠ duĠ
wanĠchengĠ houĠ
guoĠshiĠ daiĠ
fanĠduiĠ paiĠ
taiĠpingĠ yang
guoĠminĠ geĠmingĠ
dianĠying ĠzhiĠ
siĠlanĠ jiaoĠ
xi ĠzhiĠxingĠ
ĠĠĠ ai
ĠĠĠ shangĠyeĠ
mei ĠyiĠgeĠ
huo ĠqiĠ
lin ĠjiaĠ
pai ĠzaiĠ
10 ĠshiĠ
gan ĠheĠ
gongĠ ruĠ
changĠ guanĠ
wenĠ nuan
ĠjiaĠ geĠ
saiĠ huiĠ
baiĠ eĠluoĠsiĠ
zhuanĠ huan
diĠyiĠ zuoĠ
shaĠ leĠ
genĠ sui
ĠshiĠwuĠ suoĠ
waiĠguoĠ renĠ
xiuĠzhengĠ anĠ
xingĠzheng ĠzhongĠxinĠ
Ġ 32
Ġ 1943
Ġ No
Ġ wuĠdeĠ
ĠĠĠ dangĠshiĠ
ĠĠĠ rongĠyuĠ
yue ĠyouĠ
jie ĠbuĠ
fei ĠweiĠ
tu ĠzhiĠ
na ĠyuĠ
lie ĠzhiĠ
chao ĠrenĠ
chan ĠchuĠ
nv ĠshengĠ
89 ĠnianĠ
zhongĠ gongĠzhongĠyangĠ
daĠ jieĠ
zhuĠ houĠ
ĠxiĠ huan
zhengĠ dang
xiaoĠ mie
xiaĠ shuĠdeĠ
bianĠ huaĠdeĠ
lingĠ jianĠ
yunĠ keng
ĠdaoĠ guangĠ
ĠbeiĠ poĠ
niĠ poĠerĠ
ĠdangĠ diĠdeĠ
jueĠseĠ banĠyan
ĠzaiĠjiaĠ shangĠ
Ġ1970 ĠnianĠ
Ġ1940 ĠnianĠ
Ġ jia
Ġ gongĠshiĠ
Ġ 1934ĠnianĠ
ĠĠĠ chen
you ĠnianĠ
you ĠliĠdeĠ
huo ĠyouĠ
zhuang ĠheĠ
tuan ĠyuanĠ
peng ĠzhangĠ
Ã¡ Ġ
xiĠ huanĠ
fuĠ wuĠdeĠ
jieĠ yanĠ
jieĠ shuĠshiĠ
guanĠ zhangĠ
shenĠ xiangĠ
boĠ huiĠ
kongĠ jianĠdeĠ
zhaoĠ mingĠ
keĠyiĠ youĠ
ĠnianĠ6ĠyueĠ 1ĠriĠ
gaoĠsuĠ tieĠluĠ
ĠjinĠguanĠ ruĠciĠ
ĠshiĠziĠ lvĠ
Ġ 1947
Ġ ãģĦ
Ġ bieĠ
Ġ ziĠzhiĠ
Ġ 1927ĠnianĠ
ĠĠĠ zhouĠ
shu ĠnianĠ
dao ĠyueĠ
hui ĠweiĠyuanĠ
guan ĠliĠjiĠ
gai ĠrenĠ
wai ĠshiĠ
zang ĠliĠ
buĠ daoĠ
ĠheĠ gongĠ
fuĠ kaĠ
zhengĠ yiĠdeĠ
yeĠ zheĠ
tongĠ zhiĠdeĠ
zheĠ xueĠjiaĠ
danĠ dangĠ
qingĠ jingĠ
banĠ lvĠ
jiuĠ nengĠ
haoĠ laiĠwuĠ
shuiĠ yuanĠ
ganĠ sheĠ
shaĠ moĠ
nongĠ ye
ĠboĠ geĠ
ĠĠĠdiĠ sanĠ
sanĠshiĠ siĠnianĠ
yuanĠzhuĠ min
zaĠ zhiĠdeĠ
ĠmaoĠ zeĠdongĠ
jiaoĠchaĠ kouĠ
ĠĠĠbenĠshuĠ baoĠkuoĠyiĠxiaĠwuĠzhongĠ
3 ĠjiaĠ
Ġ tui
Ġ 1942
Ġ dongĠjiĠ
Ġ zaoĠzaiĠ
Ġ 1972ĠnianĠ
Ġ 1933ĠnianĠ
ĠĠĠ 1945
ĠĠĠ xieĠ
qi ĠshiĠyongĠ
er ĠshiĠyiĠ
ge ĠshiĠjiĠ
xin ĠjiĠshuĠ
duo ĠyouĠ
heĠ nanĠ
ĠzhongĠ duanĠ
gongĠ guĠ
ĠqiĠ shengĠ
ĠdiĠ 2
yingĠ jianĠ
yeĠ jiangĠ
qianĠ zuoĠ
haiĠ an
ĠfuĠ qiĠ
gaoĠ chuĠ
maĠ geĠliĠ
ĠbingĠ ruĠ
ĠbingĠ danĠrenĠ
leiĠ muĠ
zhouĠliĠ daĠxueĠ
zhongĠyao ĠxingĠ
ĠhaĠerĠ binĠshiĠ
ĠĠĠ v
ĠĠĠ guiĠ
ĠĠĠ zheĠzhongĠ
lai ĠzaiĠ
yao ĠyiĠ
tian ĠyuĠ
chuan ĠyuĠ
zhuang ĠxiangĠ
zan ĠyangĠ
ĠzhiĠ liĠyuĠ
Ġyue ĠĠĠ
xingĠ rongĠ
keĠ jiaĠ
ĠxiĠ guanĠ
quĠ fuĠ
yanĠ geĠdeĠ
xinĠ shangĠ
biĠ yaoĠdeĠ
jiuĠ jinĠshanĠ
suoĠ enĠ
ĠyinĠ yingĠ
ĠgaiĠ mingĠ
ĠgaiĠ mingĠweiĠ
gouĠ chengĠdeĠ
shaĠ teĠ
ĠyingĠ pianĠ
ĠyanĠ jiu
ĠĠĠzhiĠ houĠ
Ġgao ĠshiĠ
chanĠpin ĠdeĠ
puĠluoĠ wangĠsiĠ
Ġ ken
Ġ mang
Ġ 1975
Ġ My
Ġ shanĠxiĠshengĠ
ĠĠĠ yinĠduĠ
dong ĠdiĠ
ben ĠweiĠ
fan ĠxingĠ
ĠweiĠ neng
ĠrenĠ junĠ
yuanĠ dingĠ
ĠbuĠ yuanĠ
zhuĠ gongĠ
daoĠ xianĠ
shuĠ zhangĠ
fangĠ huĠ
taiĠ zuĠ
xiaĠ lieĠ
wangĠ gongĠ
lingĠ hunĠ
xuanĠ gua
baĠ qiangĠ
ĠyiĠjiĠ qiĠ
tangĠ muĠ
2Ġ ri
ranĠ seĠ
laoĠ huĠ
zhunĠ que
ĠmianĠ duiĠ
ĠxiongĠ yaĠliĠ
ĠbuĠsiĠ baoĠ
ĠqiĠzhongĠnanĠ xingĠweiĠ
aiĠhaoĠ zheĠ
dianĠliĠjiĠ cheĠ
Ġ quĠyuĠ
Ġ zaoĠdaoĠ
ping ĠyuĠ
tan ĠxingĠ
kan ĠchuĠ
tun ĠbingĠ
ĠzhiĠ zhuĠ
diĠ qu
ĠzhongĠ jieĠ
ĠzhongĠ liangĠ
chengĠ yuanĠdeĠ
ĠdiĠ shangĠ
changĠ zhuĠ
jiaoĠ huiĠdeĠ
wanĠ cheng
wanĠ juĠ
duoĠ tianĠ
fengĠ xiangĠ
canĠ yuĠdeĠ
ĠjiangĠ junĠ
youĠyiĠ dingĠ
leĠyiĠ xiĠlieĠ
erĠshiĠ yuĠ
ĠmeiĠguoĠ guoĠjiaĠ
xiangĠshiĠ juĠrenĠ
Ġmo ĠerĠ
Ġbo ĠerĠ
genĠju ĠdiĠ
ĠĠĠguangĠ xuĠ
7 ĠmingĠ
7 ĠhaoĠ
Ġ neng
ou ĠdeĠ
ĠĠĠ Te
hou ĠliĠ
bao ĠerĠ
du ĠerĠ
zhang ĠqiĠ
ya ĠqiĠ
kai ĠshiĠyiĠ
deng ĠguoĠ
tian ĠbuĠ
zhiĠ yeĠ
ĠheĠ shengĠ
keĠ yanĠ
beiĠ daoĠ
shouĠ du
shouĠ gou
zhanĠ ling
daiĠ haoĠ
wanĠ faĠ
laĠ shengĠ
ĠdanĠ dangĠ
piĠ luĠ
shuangĠ chongĠ
ĠzuoĠ jiaĠ
ĠyiĠjingĠ beiĠ
2001ĠnianĠ zongĠrenĠkouĠ
Ġhu ĠyuĠ
laĠjiĠ miĠerĠ
ĠĠĠgaiĠdiĠ 2001ĠnianĠzongĠrenĠkouĠ
Ġ à¤
Ġ renĠshiĠ
Ġ 1931ĠnianĠ
ĠĠĠ mingĠchengĠ
sai ĠyiĠ
lan ĠrenĠ
na ĠbuĠ
cun ĠyouĠ
bie ĠmingĠ
ĠweiĠ xinĠ
yuanĠ laiĠ
xiangĠ dangĠyuĠ
xianĠ xianĠ
ĠtaĠ yinĠ
tianĠ wangĠ
ĠgongĠ yingĠ
puĠ dunĠ
ĠgeĠ luĠ
ĠfaĠ sheĠ
xueĠyuanĠ yuanĠzhangĠ
xueĠshengĠ huiĠ
ĠĠĠzhiĠ beiĠ
chiĠxuĠ daoĠ
Ġ6Ġ suiĠrenĠkouĠ
Ġbo ĠsiĠ
jinĠyiĠ buĠdeĠ
yunĠshiĠ keng
C ĠĠĠ
Ġ kuan
Ġ CO
Ġ 1956
Ġ tuĠdiĠ
ĠĠĠ peiĠ
chu ĠyiĠgeĠ
jin ĠweiĠzhiĠ
bing ĠdiĠ
qing ĠjiĠ
ba ĠzaiĠ
chuang ĠliĠdeĠ
zan ĠshangĠ
ĠheĠ taĠdeĠ
gongĠ duĠ
ĠyueĠ kanĠ
beiĠ juĠ
houĠ qin
yanĠ jinĠ
aĠ kenĠseĠ
ĠshiĠjiĠ weiĠ
shaoĠ qingĠ
yueĠ laiĠyueĠ
ĠtongĠ yang
zaiĠyiĠ ciĠ
Ġmei ĠliĠ
lingĠdaoĠ xiaĠ
Ġzu ĠjiĠ
cuoĠ wuĠdeĠ
xiaoĠfeiĠ zheĠ
Ġ tĠ
Ġ 1974ĠnianĠ
ji ĠshiĠdeĠ
ĠĠĠ cengĠ
dong ĠqiĠ
huo ĠdeĠyiĠ
ni ĠrenĠ
zhui ĠzongĠ
1896 ĠnianĠ
ĠdeĠ daĠ
ĠjiĠ suan
ĠheĠ daĠ
zhuĠ chuĠ
zhuĠ junĠ
zhuĠ boĠ
shengĠ tai
ĠxiĠ wang
baoĠ mingĠ
huaĠ chengĠ
xiaĠ laiĠdeĠ
muĠ changĠ
cheĠ shenĠ
zuiĠ chu
ĠdanĠ gaiĠ
ĠzheĠ leiĠ
zhaoĠ shengĠ
Ġtong ĠnianĠ7ĠyueĠ
dianĠshiĠ tai
maoĠ zeĠ
ĠyinĠciĠ taĠ
hunĠ luan
jingĠliĠ leĠ
ĠyiĠsiĠlanĠ jiaoĠ
juĠfeng ĠzhongĠxinĠ
7 ĠshiĠ
Ġ 1955
Ġ jiaĠshiĠ
gu ĠxiĠlaĠ
huo ĠyuĠ
duo ĠzaiĠ
kan ĠqiĠlaiĠ
chuo ĠhaoĠ
ds Ġ
1895 ĠnianĠ
ĠshiĠ douĠ
ĠyiĠ shangĠdeĠ
ĠjiĠ bai
ĠjiĠ linĠ
ĠzhiĠ neng
ĠheĠ geĠ
ĠheĠ dongĠ
daĠ geĠming
xingĠ rong
wuĠ junĠ
zhuĠ jiangĠ
tiĠ duĠ
pingĠ tanĠ
yaĠ daoĠ
huĠ guangĠ
ĠgongĠ gaoĠ
ranĠ shaoĠ
langĠ manĠ
ĠdiĠerĠ geĠ
ĠĠĠliĠ ruĠ
ĠweiĠyuĠfaĠguoĠ daĠdongĠbuĠdaĠquĠ
Ġlu ĠyiĠsiĠ
2019ĠguanĠzhuangĠbingĠduĠ bingĠyiĠ
Ġ lian
ĠĠĠ xingĠtaiĠ
xue ĠyiĠ
yong ĠguoĠ
che ĠyuĠ
11 ĠgeĠ
52 Ġ
1898 ĠnianĠ
ĠshiĠ haoĠ
ĠdeĠ guiĠdaoĠ
ĠnianĠ jinĠ
siĠ wang
jianĠ xiĠ
jianĠ geĠ
jieĠ yunĠ
huaĠ tingĠ
yingĠ gai
yeĠ cengĠ
guanĠ mingĠ
duĠ caiĠ
lianĠ huaĠ
ĠciĠ riĠ
ĠzhongĠguoĠ guoĠjiaĠ
rongĠ ruĠ
zhuĠyiĠ heĠ
ĠtongĠ changĠshiĠ
ĠlianĠ saiĠ
ĠteĠ bieĠ
shengĠwuĠ xueĠjiaĠ
ĠfenĠbuĠyuĠ nanĠmeiĠzhouĠ
ĠW Ġ
Ġ jiaĠzhiĠ
Ġ buĠyiĠ
Ġ 1941ĠnianĠ
ĠĠĠ shanĠ
bao ĠzaiĠ
ĠzhiĠ jiaĠ
zhongĠ ziĠ
daoĠ taĠ
huiĠ yanĠ
ĠxiĠ shengĠ
mingĠ que
nanĠ duĠ
quanĠ leiĠdaĠ
baiĠ leĠ
ĠwuĠ hanĠ
touĠ sheĠ
cengĠ mianĠ
Ġtong ĠjiĠ
zhongĠguoĠ gongĠchanĠdangĠ
ĠzuoĠ zheĠ
kaiĠfaĠ quĠ
haĠerĠ bin
youĠxianĠ gongĠsiĠ
Ġcom Ġ
baĠjiĠsiĠ tanĠ
Ġ 33
ĠĠĠ p
ĠĠĠ yiĠshiĠ
ĠĠĠ xiaoĠxingĠxingĠ
cheng ĠyiĠzhiĠ
zheng ĠshiĠjieĠ
zuo ĠqiĠ
zhuan ĠzhuĠ
zhuan ĠyiĠzhiĠ
lun ĠzaiĠ
ĠshiĠ baoĠ
ĠdeĠ xiĠ
ĠzhongĠ zhengĠ
zhuĠ huaĠ
shuĠ dianĠ
houĠ caiĠ
mingĠ daiĠ
zhanĠ zhengĠshiĠ
xinĠ ze
tiĠ huanĠ
fenĠ duiĠ
yongĠ daoĠ
sheĠ zhengĠ
ĠdeĠyiĠ tiaoĠ
ĠjinĠ gangĠ
yueĠ tuanĠ
anĠdeĠ luĠ
ĠĠĠ Ne
xian ĠshiĠqiĠ
name Ġ
heĠ tongĠ
ĠbuĠ shao
jieĠ gouĠdeĠ
zhuĠ suoĠ
jingĠ queĠ
leĠ sanĠ
tongĠ yangĠdeĠ
fenĠ faĠ
ĠkeĠ jiaĠ
ĠfuĠ jiaĠ
quanĠ jingĠ
tianĠ qiaoĠ
huanĠ jingĠzhongĠ
cunĠ huoĠ
ĠpingĠfangĠ yingĠliĠ
ĠzhanĠ douĠ
ĠnianĠ8ĠyueĠ 1ĠriĠ
ĠneiĠ rong
ĠgaiĠshengĠfenĠweiĠfaĠguoĠ zhongĠ
ĠshiĠwuĠkeĠ lanĠxiĠ
Ġ zhuĠrenĠ
ci ĠxiĠ
ru ĠqiĠ
pi ĠdeĠ
ting ĠyiĠ
liao ĠfaĠ
mao ĠsiĠ
ning ĠxiaĠ
ĠyiĠ shuoĠ
diĠ yaĠ
geĠ luoĠ
ĠbuĠ juĠ
xiangĠ dang
chuĠ xianĠyuĠ
shangĠ qianĠ
tongĠ lingĠ
pingĠ anĠ
haiĠ tanĠ
ĠfuĠ qinĠshiĠ
sheĠ qunĠ
waiĠ xianĠ
ĠchuĠ ziĠ
ĠjieĠ jueĠ
songĠ jiangĠ
ĠyingĠ gaiĠ
dianĠyingĠ yuanĠ
zuĠzhiĠ buĠ
ĠzhangĠ danĠquĠ
ĠnianĠ3ĠyueĠ 1ĠriĠ
sĠĠĠ of
liuĠxingĠ yinĠyueĠ
ĠxingĠzhengĠ yuanĠ
geĠlunĠ biĠya
luĠzhanĠ duiĠ
4 ĠshiĠ
Ġ rong
Ġ 188
Ġ siĠjiĠ
ĠĠĠ Ex
zi ĠrenĠ
xin ĠweiĠ
she ĠyiĠ
liang ĠbuĠfenĠ
nan ĠdiĠquĠ
tou ĠbaoĠ
chuang ĠdeĠ
65 Ġ
77 ĠnianĠ
76 ĠnianĠ
ĠshiĠ dongĠ
ĠzhiĠ suoĠzaiĠ
ĠyuĠ 2019
ĠyuĠ 2016
ĠyouĠ haoĠ
changĠ xiaoĠ
qianĠ jingĠ
bianĠ houĠ
tianĠ eĠ
laĠ dingĠyuĠ
waiĠ jiao
chuanĠ ran
lieĠ ning
tuoĠ puĠ
ĠdeĠrenĠ kouĠweiĠ
ĠĠĠzhongĠ huaĠminĠguoĠ
chengĠnianĠ renĠ
b ĠĠĠ
Ġ 120
Ġ 1971ĠnianĠ
li ĠjiĠ
zhan ĠĠĠ
pao ĠtaiĠ
es ĠĠĠ
MV Ġ
ĠzhiĠ qiuĠduiĠ
guoĠ min
ĠzaiĠ meiĠ
ĠrenĠ chengĠ
erĠ geĠ
gongĠ yanĠ
yingĠ quĠ
guanĠ shuiĠ
fenĠ shouĠ
danĠ ciĠ
qingĠ bao
ĠfuĠ lang
ĠfuĠ yinĠ
zhouĠ quĠ
xuĠ gouĠ
kaiĠ yuanĠ
chengĠweiĠ jiĠ
ĠbaoĠ faĠ
youĠyiĠ mingĠ
daĠxueĠ jiaoĠshouĠ
ĠnianĠ9ĠyueĠ 1ĠriĠ
ĠduoĠ shuĠ
Ġbi ĠliĠshiĠ
peiĠyinĠ yuanĠ
bengĠ kuiĠ
ĠzhiĠluĠ houĠ
Ġ 1962ĠnianĠ
ĠĠĠ wanĠliĠ
bi ĠweiĠ
yan ĠyouĠ
lei ĠdiĠ
nei ĠweiĠ
kua ĠguoĠ
DVD Ġ
center Ġ
zhongĠ guoĠdeĠ
qiĠ tiĠ
beiĠ jingĠdeĠ
chuĠ xuanĠ
shangĠ cengĠ
xueĠ jieĠ
jiaoĠ xiang
taiĠ shangĠ
zhangĠ haoĠ
nanĠ changĠ
qingĠ chenĠ
banĠ changĠ
shenĠ cha
teĠ sheĠ
cheĠ tui
cheĠ huoĠ
fanĠ shouĠ
zeĠ huiĠ
ĠgaiĠ xiaoĠ
zaoĠ qi
ganĠ rao
ĠyinĠweiĠ taĠmenĠ
ĠriĠqiĠ yongĠ
jianĠchaĠ yuĠshiĠ
jieĠmu ĠzhongĠ
Ġ 05
ĠĠĠ yanĠjiuĠ
yue ĠqiĠ
dian ĠyiĠ
xia ĠdiĠ
hai ĠzhongĠ
tian ĠzhongĠ
ze ĠshiĠzaiĠ
shao ĠxingĠ
shuo ĠdaoĠ
Univer si
zhongĠ qiĠ
ĠzaiĠ dangĠshiĠ
xingĠ zouĠ
gongĠ qiĠ
geĠ linĠ
jieĠ riĠ
beiĠ huiĠ
ciĠ changĠ
yeĠ jieĠ
yongĠ chiĠ
banĠ kuaiĠ
liuĠ ruĠ
menĠ jiangĠ
puĠ jingĠ
gangĠ xianĠ
zhuanĠ lanĠ
zhaoĠ pian
kaĠ cheĠ
Ġtong ĠshiĠzaiĠ
hangĠ yunĠ
ĠshenĠ zhenĠ
ĠĠĠyiĠ banĠ
ĠwenĠ jianĠ
yanĠjiu ĠrenĠyuanĠ
boĠwuĠ yuanĠ
Ġrang ĠtaĠ
canĠmou ĠbuĠ
ĠĠĠhouĠ xuĠ
e ĠjiĠ
Ġ Car
Ġ zhengĠdeĠ
Ġ pĠ
ĠĠĠ neiĠ
zi ĠyueĠ
ci ĠqiĠ
bao ĠguoĠ
zhen ĠyiĠ
tian ĠzaiĠ
tan ĠshiĠ
shuo ĠtaĠ
pa ĠlaĠ
ĠyuĠ 2018
qiĠ zhongĠyiĠgeĠ
daĠ suanĠ
gongĠ pingĠ
chengĠ nuo
shengĠ zhangĠzaiĠ
shuĠ linĠ
shouĠ ciĠzaiĠ
dongĠ zhengĠ
leĠ duoĠ
tongĠ riĠ
ĠdaĠ naĠ
qianĠ miĠrenĠ
haiĠ huiĠ
zhenĠ jingĠ
dingĠ baoĠ
maĠ saĠzhuĠsaiĠ
suiĠ pianĠ
diĠyiĠ piĠ
ĠsuiĠ houĠzaiĠ
leĠyiĠ xiangĠ
ĠaĠ boĠ
guangĠxiĠ zhuangĠ
Ġ shan
Ġ Ga
Ġ 1936ĠnianĠ
Ġ 1928ĠnianĠ
gu ĠkeĠ
fei ĠheĠ
lin ĠdiĠ
99 ĠnianĠ
seng Ġ
ĠyuĠ 2020
ĠyuĠ 2013
ĠliĠ fangĠ
xingĠ faĠ
fuĠ shanĠ
xueĠ sheng
zuoĠ yong
haiĠ meiĠyouĠ
anĠ quanĠdeĠ
luoĠ muĠ
puĠ bian
ĠgeĠ ziĠ
ĠxianĠ changĠ
ĠpingĠ jieĠ
huanĠ jingĠdeĠ
kongĠ jiangĠ
keĠyiĠ zhuiĠsuĠdaoĠ
ĠshiĠjieĠ rangĠ
yiĠshiĠ zaiĠ
songĠ wangĠ
ĠmeiĠ junĠ
ĠxinĠ jiangĠ
ĠdeĠdiĠ xiaĠ
ĠjingĠ yingĠ
ĠtongĠ chengĠ
ĠnianĠ12ĠyueĠ 28ĠriĠ
baoĠkuoĠ leĠ
qunĠ dao
ĠzhongĠyangĠ junĠweiĠ
youĠjiĠ huiĠ
zhongĠyuĠ yanĠ
mingĠziĠ mingĠmingĠ
ĠerĠrenĠkouĠmiĠduĠweiĠmeiĠpingĠfangĠ qianĠmiĠrenĠ
gaoĠdengĠ faĠyuanĠ
Ġ ãĦ
Ġ heĠjiĠ
Ġ 1959ĠnianĠ
Ġ 1951ĠnianĠ
ĠĠĠ tongĠshiĠ
ĠĠĠ jingĠguoĠ
guan ĠbuĠ
ma ĠxiĠ
ba ĠrenĠ
10 ĠrenĠ
qiang ĠjieĠ
shuai ĠluoĠ
ck ĠĠĠ
67 ĠnianĠ
95 ĠnianĠ
ĠjiĠ jiangĠ
ĠyuĠ 2024
ĠliĠ yuanĠ
ĠrenĠ quanĠ
huiĠ yiĠdeĠ
zhengĠ quan
zhengĠ xuanĠ
leĠ beiĠ
zheĠ liangĠ
xinĠ geĠ
yangĠ chengĠ
liuĠ shouĠ
guiĠ shuĠ
meiĠguoĠ heĠ
youĠyiĠ weiĠ
riĠben ĠdiĠguoĠ
ĠjiĠbaiĠ leĠ
dongĠliĠ xueĠ
9 ĠhaoĠ
j Ġ
Ġ We
Ġ enĠ
ĠĠĠ dang
ĠĠĠ suoĠyouĠ
dian ĠshiĠjiĠ
zhou ĠdaĠ
ding ĠjiaĠ
lie ĠrenĠ
pang ĠdaĠ
ĠdeĠ chengĠjiĠ
diĠ renĠ
ĠheĠ liuĠyuĠ
gongĠ chiĠ
jiaĠ zuĠdeĠ
jieĠ shu
chuĠ qiĠdeĠ
yanĠ hai
huaĠ zuoĠ
daiĠ shangĠ
xuanĠ lvĠ
dangĠ zhuĠ
tuĠ po
guiĠ leiĠweiĠ
zhuanĠ touĠ
1Ġ fenĠ
ĠtaiĠ leiĠ
ĠlingĠ daoĠ
Ġceng ĠweiĠ
Ġ1 ĠgeĠ
faĠdianĠ changĠ
jiangĠxueĠ jinĠ
Ġ chanĠshengĠ
ĠĠĠ 1998
ĠĠĠ danĠshiĠ
ĠĠĠ 1ĠĠĠ
hu ĠfuĠ
huo ĠyueĠyuĠ
shen ĠdaĠ
pang ĠbianĠ
64 Ġ
74 ĠnianĠ
ĠshiĠ qingĠ
guoĠ jiaĠjiĠ
diĠ mingĠ
jiaĠ diĠ
xianĠ leĠ
xiaoĠ wuĠ
shenĠ mingĠ
liuĠ yanĠ
menĠ waiĠ
ĠchuĠ yanĠ
zaoĠ leĠ
henĠ shao
daĠxueĠ shengĠ
jinĠruĠ leĠ
xueĠzheĠ renĠweiĠ
lianĠheĠguoĠ jiaoĠkeĠwenĠ
Ġ2011ĠnianĠ renĠkouĠ
juĠleĠ buĠdeĠ
3 ĠciĠ
Ġ ×
Ġ zhu
Ġ fo
Ġ paoĠ
Ġ huanĠjingĠ
ĠĠĠ hong
ĠĠĠ be
ĠĠĠ lanĠ
ĠĠĠ xueĠxiaoĠ
guo ĠĠĠ
ci ĠshiĠjianĠ
feng ĠxingĠqiĠ
lin ĠliĠ
cai ĠyiĠ
st ru
nie ĠciĠkeĠ
ĠjiĠ dongĠ
fuĠ chengĠ
wuĠ jiangĠ
huiĠ guĠ
jinĠ miĠ
ĠdiĠ buĠ
shouĠ dao
huaĠ nanĠ
qingĠ laiĠ
biĠ shuĠ
dengĠ renĠdeĠ
tuĠ muĠ
niĠ aoĠ
ĠzhuĠ geĠ
zhuanĠ ruĠ
aiĠ zhengĠ
jingĠjiĠ heĠ
erĠshiĠ erĠnianĠ
ĠboĠ wuĠguanĠ
ĠquanĠ chengĠ
Ġwan ĠnianĠ
guoĠliĠ taiĠwan
ĠnianĠchuĠ shengĠyuĠ
guanĠli ĠweiĠyuanĠhuiĠ
Ġ xuan
Ġ Su
Ġ zanĠ
Ġ jiaĠyiĠ
Ġ hĠ
Ġ 1963ĠnianĠ
ĠĠĠ zuoĠpinĠ
yue ĠyuĠ
jiang ĠbuĠ
luo ĠweiĠqiĠ
ben ĠyuĠ
la ĠqiĠ
pin ĠheĠ
fou ĠdingĠ
1889 ĠnianĠ
deĠ yiĠ
ĠyuĠ mingĠ
ĠliĠ mingĠ
ĠzaiĠ siĠ
daĠ liang
gongĠ touĠ
jianĠ ruoĠ
ĠguoĠ xiaoĠ
zhuĠ zha
huiĠ gui
ciĠ houĠ
huaĠ bingĠ
huaĠ naĠ
xinĠ chengĠliĠdeĠ
ĠkeĠ laĠkeĠ
zuĠ muĠ
xieĠ xinĠ
suĠ xiangĠ
suĠ lvĠ
ĠzhuĠ changĠ
ĠdeĠshiĠ yeĠ
ĠdongĠ haiĠ
nvĠ zuoĠ
ĠwanĠ dunĠ
ĠdangĠ xuanĠweiĠ
junĠshiĠ xingĠdongĠ
ĠgaoĠ xiong
ĠweiĠyuĠgaiĠguoĠ dongĠbeiĠbuĠ
xunĠhuiĠ saiĠ
ĠjinĠbiaoĠ saiĠ
Ġ 1968
Ġ diĠliĠ
wei ĠshiĠjiĠ
mi ĠyuĠ
20 ĠgeĠ
tian ĠyouĠ
hao ĠbuĠ
pei ĠerĠ
pa ĠdeĠ
ĠweiĠ baoĠ
daĠ poĠ
shengĠ pingĠ
faĠ lanĠ
tongĠ leiĠ
bingĠ tuan
liangĠ duanĠ
miĠ teĠliĠ
tianĠ kongĠ
shanĠ beiĠ
ĠdeĠyiĠ xiĠlieĠ
tuĠ rang
aiĠ lunĠ
ĠshengĠ muĠ
ĠyanĠ chuĠ
ĠnianĠ2ĠyueĠ 24ĠriĠ
Ġxian ĠyouĠ
sunĠ huaiĠ
puĠchaĠ guiĠdingĠ
6 ĠpingĠfangĠgongĠliĠ
q Ġ
Ġ d
Ġ xiaĠjiĠ
Ġ zhuoĠ
Ġ 1973ĠnianĠ
Ġ 1913ĠnianĠ
ĠĠĠ Ri
wei ĠyiĠzhiĠ
xiang ĠguoĠ
lu ĠbuĠ
she ĠrenĠ
bai ĠliĠ
huan ĠheĠ
EP Ġ
ĠdeĠ youĠ
ĠyiĠ mianĠ
ĠyuĠ xianĠ
Ġli ĠshiĠjianĠzhuĠ
ĠyouĠ geĠ
ĠrenĠ dingĠ
xiĠ shengĠ
ĠerĠ zhanĠ
yanĠ huiĠ
daiĠ xiaoĠxingĠxingĠ
xieĠ tongĠ
duoĠ mianĠtiĠ
fanĠ rongĠ
haoĠ xianĠ
caiĠ jingĠ
kuoĠ sanĠ
qinĠ shuĠ
Ġyou ĠyiĠgeĠ
fangĠmianĠ junĠ
Ġmo ĠliĠ
ĠgeĠlunĠ biĠyaĠ
2 ĠpingĠfangĠgongĠliĠ
Ġ tieĠluĠ
Ġ nongĠyeĠ
Ġ 1953ĠnianĠ
Ġ 1930ĠnianĠ
huo ĠbuĠ
duo ĠnianĠdeĠ
deng ĠzaiĠ
pu ĠyiĠ
chong ĠqiĠ
nuo ĠweiĠqiĠ
pao ĠdanĠ
zun ĠxunĠ
ki Ġ
83 ĠnianĠ
land Ġ
ĠyiĠ ge
Ġli ĠĠĠ
buĠ lieĠtaĠ
ĠzaiĠ zheĠgeĠ
yuanĠ qiĠ
jieĠ ciĠ
juĠ zhuĠdeĠ
pingĠ heng
boĠ lin
guĠ piaoĠ
ĠdanĠ yeĠyouĠ
ĠyiĠjiĠ zhiĠ
tieĠ cheĠzhanĠ
mianĠjiĠ yueĠ
xiuĠ yangĠ
genĠ zhouĠ
ĠdengĠ jinĠshiĠ
ĠĠĠshengĠ taiĠ
ĠĠĠS Ġ
jieĠjueĠ fangĠanĠ
tuiĠyiĠ houĠ
Ġlin ĠjinĠ
ĠzhongĠhuaĠ minĠ
ĠxiĠtong ĠzhongĠ
aoĠdi ĠliĠdeĠ
kenĠtaĠjiĠ zhouĠ
Ġ cunĠzaiĠ
Ġ qingĠnianĠ
Ġ centerĠ
ĠĠĠ chongĠ
ĠĠĠ xianĠdaiĠ
ĠĠĠ suiĠzheĠ
dong ĠdiĠquĠ
xia ĠyiĠgeĠ
la ĠdaĠ
su ĠdiĠ
re ĠheĠ
73 ĠnianĠ
VID Ġ
ĠdeĠ mingĠ
daĠ duiĠ
yuanĠ wangĠ
beiĠ lieĠweiĠ
jinĠ xianĠ
shangĠ kongĠ
shenĠ xinĠ
suoĠ you
dingĠ xiangĠ
dangĠ qianĠ
ĠdeĠyiĠ tiao
ĠbeiĠ geĠ
guiĠ ding
ĠdeĠshiĠ changĠ
ĠgaiĠ zhuang
shaĠ laĠ
canĠ baiĠ
chenĠ shuĠ
piĠ jiuĠ
Ġer ĠweiĠ
tuiĠ chiĠ
queĠ dianĠ
erĠshiĠ siĠ
haĠ maĠ
ĠdeĠrenĠ heĠ
xiaĠjiĠ aoĠyunĠhuiĠ
geĠliĠ guanĠ
ĠweiĠyuĠgaiĠguoĠ xiĠnanĠbuĠ
aoĠsiĠ ka
Ġkang ĠriĠ
chuangĠliĠ leĠ
Ġpei ĠheĠ
waiĠweiĠ saiĠ
Ġ 1972
Ġ juĠjiĠ
Ġ zaoĠnianĠ
ĠĠĠ o
ĠĠĠ Na
ĠĠĠ We
lan ĠsiĠ
lie ĠyuĠ
ran ĠshiĠ
63 Ġ
71 ĠnianĠ
ys tem
UA Ġ
ĠyiĠ tuĠ
ĠjiĠ suĠ
heĠ nanĠshengĠ
erĠ buĠ
fuĠ yuanĠ
jiaĠ zhiĠdeĠ
daoĠ shuĠ
ziĠ junĠ
shouĠ ru
shouĠ quĠ
baoĠ jianĠ
biĠ fenĠ
meiĠ guiĠ
zongĠ buĠweiĠyuĠ
moĠ huĠ
ĠshiĠshiĠ houĠ
chuangĠ xiaĠ
songĠ huiĠ
Ġzhe ĠweiĠ
caoĠ zongĠ
zaiĠyiĠ daĠliĠ
zuĠqiuĠ xieĠhuiĠ
Ġgai ĠguoĠ
ĠchengĠweiĠ leĠ
xingĠchengĠ leĠ
lianĠbangĠ zhengĠfuĠ
ziĠran ĠbaoĠhuĠ
ĠyiĠmeiĠ yuanĠdeĠ
2 ĠxianĠ
m pi
Ġ zhan
Ġ 66
Ġ lieĠche
Ġ bianĠjiĠ
ao ĠliĠ
ĠĠĠ teĠ
ĠĠĠ guoĠjiaĠduiĠ
qi ĠĠĠ
le ĠyiĠzhiĠ
gao ĠjiĠzhongĠxueĠ
cun ĠyiĠ
gan ĠzhiĠ
qin ĠjiaĠ
chen ĠyuĠ
el Ġ
88 ĠnianĠ
85 ĠnianĠ
ĠshiĠ nanĠ
ĠyiĠ benĠ
ĠjiĠ tiĠ
ĠjiĠ longĠ
ĠyuĠ 2012
ĠzhongĠ shenĠ
xingĠ bie
yuanĠ yin
fuĠ zongĠtongĠ
jieĠ zouĠ
daoĠ zhiĠdeĠ
jinĠ duĠ
jiaoĠ huĠ
junĠ wuĠ
qingĠ xiangĠyuĠ
ĠxingĠ buĠ
jiuĠ geĠ
xieĠ ziĠ
quanĠ xinĠdeĠ
maĠ yaĠ
ĠshengĠ chuĠ
kaoĠ zhengĠ
haĠ saĠkeĠ
ĠquanĠ xianĠ
ĠyiĠliĠ shaĠbaiĠ
1ĠhaoĠ xianĠ
Ġdi ĠshiĠyiĠ
Ġ xi
Ġ cheng
Ġ jueĠseĠ
shu ĠguoĠ
xie ĠliĠ
01 Ġ
ĠzaiĠ zhe
ĠrenĠ men
jianĠ qiĠ
leĠ daĠliangĠ
zhanĠ gongĠ
xiaĠ xingĠ
danĠ weiĠdeĠ
meiĠ youĠdeĠ
ĠbingĠ tongĠguoĠ
paiĠ ziĠ
ĠziĠ yangĠ
puĠ xianĠ
naĠ me
ĠchuĠ shouĠ
ĠwuĠ daoĠ
huanĠ quĠ
keĠyiĠ beiĠ
ĠzhongĠguoĠ gongĠ
taoĠ tuoĠ
yanĠjiuĠ zheĠ
daiĠbiaoĠ zuoĠ
sheĠhuiĠ keĠxueĠ
ĠluoĠ boĠteĠ
ĠĠĠyiĠ geĠ
yinĠduĠ jiaoĠ
ĠcengĠ danĠrenĠ
ĠxuanĠ zeĠ
huiĠfuĠ zhuĠrenĠ
mingĠniĠsuĠdaĠ zhouĠ
puĠchaĠguiĠdingĠ juĠminĠdianĠ
8 ĠpingĠfangĠgongĠliĠ
Ġ zhuang
Ġ buĠdeĠ
Ġ minĠzuĠ
bu ĠshiĠyiĠ
ue Ġ
yan ĠzaiĠ
duo ĠkeĠ
zhen ĠzaiĠ
gui ĠyiĠ
shui ĠguoĠ
tou ĠzhiĠ
ST Ġ
56 Ġ
nve ĠdaiĠ
ĠjiĠ yaĠ
keĠ chuanĠ
ĠxiĠ xianĠ
fangĠ sheĠ
jiaoĠ shou
banĠ xueĠ
duoĠ luoĠ
quanĠ ziĠ
dingĠ yiĠdeĠ
laĠ tuo
ĠshiĠdeĠ guoĠdeĠ
kongĠ tiaoĠ
2Ġ fenĠ
Ġri ĠĠĠ
henĠ gaoĠ
ĠqingĠ qiuĠ
ĠjiuĠ huiĠ
hengĠ xingĠdeĠ
ĠfengĠ baoĠ
daoĠshiĠ zhanĠtaiĠ
ĠkongĠ tai
lingĠxianĠ zhuĠyanĠ
ĠliĠxinĠ lvĠweiĠ0
ĠweiĠreĠdaiĠ danĠshuiĠyuĠ
ĠĠĠxiaĠshuĠ wuĠzhongĠ
6 ĠĠĠ
Ġ 1969
Ġ zhunĠ
Ġ xuanĠjuĠ
Ġ tĠĠĠ
Ġ lunĠdun
ĠĠĠ dan
jiang ĠdaĠxueĠ
ya ĠweiĠ
zhou ĠerĠ
lv ĠyuĠ
12 ĠrenĠ
wo ĠfuĠ
ĠdeĠ shuoĠfaĠ
ĠliĠ chaĠ
ĠyouĠ sanĠ
faĠ xiĠsiĠ
yanĠ shuoĠ
baoĠ jiaĠliĠyaĠ
xiaoĠ mieĠ
ĠxingĠ chengĠdeĠ
dengĠ wenĠtiĠ
quanĠ wanĠ
feiĠ chuanĠ
fengĠ huangĠ
hanĠ guoĠdeĠ
ĠchuĠ kouĠ
chaoĠ guoĠyiĠ
ĠnanĠ feiĠ
yingĠguoĠ huangĠjiaĠ
ĠnianĠ5ĠyueĠ 1ĠriĠ
ĠzheĠshiĠ yinĠweiĠ
fenĠbie ĠzaiĠ
Ġque ĠfaĠ
zhanĠlingĠ leĠ
xiaĠdeĠyiĠgeĠ shuĠ
3 ĠzhiĠ
5 ĠgongĠfenĠ
Ġ 1920
Ġ 1939ĠnianĠ
Ġ 1912ĠnianĠ
he ĠshiĠyongĠ
yuan ĠshiĠdeĠ
ye ĠweiĠqiĠ
yan ĠbuĠ
lu ĠguoĠ
bing ĠyouĠ
la ĠyiĠ
zhen ĠshiĠdeĠ
liu ĠriĠ
dou ĠweiĠ
ka ĠheĠ
huang ĠdaoĠ
ĠdeĠ shouĠ
ĠyiĠ lang
ĠyuĠ fuĠ
diĠ 1Ġ
ĠheĠ tongĠ
yuanĠ linĠ
jieĠ chuĠdeĠ
ĠqiĠ xingĠ
jinĠ ziĠ
riĠ neiĠ
zhengĠ ceĠdeĠ
zheĠ liangĠgeĠ
pingĠ fanĠ
sheĠ youĠyiĠ
zhenĠ tanĠ
suoĠ zhuĠ
guĠ dingĠdeĠ
xuanĠ xiangĠ
feiĠ jiĠdeĠ
puĠ saĠ
shuiĠ quĠ
ĠgaiĠ pian
yueĠ duiĠ
tuoĠ xieĠ
ĠmeiĠ tianĠ
jingĠjiĠ gongĠsiĠ
heiĠ anĠ
ĠmianĠjiĠ 1Ġ
Ġgu ĠliĠ
ĠhaiĠbaĠgaoĠduĠ 2Ġ
ĠrenĠkou ĠweiĠrenĠ
ĠmeiĠnianĠ pingĠjunĠ
heiĠlongĠjiangĠ shengĠ
1 ĠshiĠ
7 ĠpingĠfangĠgongĠliĠ
Ġ dun
Ġ 1959
Ġ qunĠ
Ġ wuĠnianĠ
shang ĠerĠ
ban ĠweiĠ
chen ĠxingĠ
at Ġ
51 Ġ
cri tic
diĠ fuĠ
geĠ zhouĠ
jianĠ zhuĠdeĠ
chengĠ cheĠ
shengĠ biĠdeĠ
faĠ songĠ
jinĠ lingĠ
tongĠ guoĠyiĠ
luĠ quĠ
wenĠ dingĠxingĠ
jiangĠ yuanĠ
ĠsiĠ wang
ĠjiaĠ suĠ
banĠ daoĠdeĠ
liangĠ changĠ
ĠtaĠ huiĠ
tuĠ pianĠ
duanĠ cengĠ
ĠhouĠ laiĠdeĠ
chaoĠ xian
Ġdan ĠdeĠ
tieĠ muĠerĠ
nianĠ daiĠweiĠ
diĠshiĠ siĠ
zaoĠchengĠ leĠ
chengĠrenĠ youĠxiĠ
zuiĠgaoĠ dianĠweiĠ
Ġda ĠzhiĠ
faĠbiaoĠ shengĠmingĠ
Ġpo ĠshiĠ
maĠkeĠsiĠ zhuĠyiĠ
zhuĠlongĠ caoĠ
M ĠĠĠ
e ĠsiĠ
ou ĠerĠ
ĠĠĠ xuĠduoĠ
shen ĠzhongĠ
san ĠyiĠ
ce ĠxianĠ
huang ĠdeĠ
rong ĠxingĠ
tie ĠdaĠniĠ
kun ĠjingĠ
70 ĠnianĠdaiĠ
44 Ġ
zhuĠ keĠ
zhuĠ ziĠ
chuĠ jiaĠ
ĠdiĠ heĠ
quĠ xiangĠ
zhengĠ que
xiaoĠ mingĠ
danĠ niĠerĠ
minĠ suĠ
jiuĠ kaiĠshiĠ
mianĠ baoĠ
mianĠ jiĠdeĠ
guangĠ mingĠ
linĠ yeĠ
manĠ lianĠ
ceĠ suoĠ
yiĠshiĠ zhiĠ
peiĠ tongĠ
yingĠxiangĠ leĠ
quanĠguoĠ renĠdaĠdaiĠbiaoĠ
youĠjiĠ zaiĠ
xiaoĠxingĠ xingĠyuĠ
Ġma ĠliĠyaĠ
anĠdeĠ erĠ
ĠguiĠ huaĠ
ĠshiĠwuĠkeĠ lan
1 ĠpingĠfangĠgongĠliĠ
Ġ qiĠweiĠ
Ġ cuĠjinĠ
Ġ 1957ĠnianĠ
ĠĠĠ riĠben
di ĠshiĠwuĠ
er ĠshiĠqiĠ
pu ĠshiĠ
dou ĠdeĠ
sha ĠerĠ
rou ĠdaoĠ
ĠshiĠ luoĠmaĠ
ĠyiĠ zhaoĠ
ĠzhiĠ li
gongĠ yuanĠdeĠ
geĠ wuĠ
ziĠ jianĠ
huiĠ zhanĠ
jinĠ guanĠ
huaĠ jieĠ
tiĠ siĠ
teĠ quanĠ
maĠ shangĠ
caiĠ gouĠ
ĠxiangĠ guanĠdeĠ
ĠgeĠ diĠ
ĠjuĠ shuoĠ
huanĠ jing
chongĠ dangĠ
aiĠ saiĠeĠ
tuiĠ guang
ĠbianĠ juĠ
Ġãĥ ©
ĠxiĠbeiĠ jieĠ
daĠjiangĠ saiĠ
guanĠcha ĠdaoĠ
raoĠtaiĠyangĠ yunĠ
banĠzhangĠ zhouĠweiĠ
Ġ duan
Ġ lang
Ġ 24Ġ
Ġ 1942ĠnianĠ
ĠĠĠ Ha
lai ĠdaĠ
ling ĠyiĠweiĠ
lie ĠriĠ
tao ĠdaoĠ
kan ĠtaiĠ
kuai ĠjiĠ
100 ĠwanĠ
79 ĠnianĠ
86 ĠnianĠ
82 ĠnianĠ
ster Ġ
ĠweiĠ buĠ
Ġli ĠshiĠshiĠ
ĠyouĠ zhuĠyuĠ
ĠrenĠ daĠ
daĠ huoĠ
chengĠ diĠ
fangĠ xiang
yingĠ dangĠ
zuĠ aiĠ
anĠ suanĠ
benĠ haiĠ
xuĠ muĠ
baĠ qianĠ
ĠgaiĠ xiaoĠxingĠxingĠyuĠ
congĠ shuĠ
piaoĠ lvĠ
yinĠyueĠ jieĠ
youĠjiĠ huaĠheĠwuĠ
Ġma ĠkeĠsiĠ
xiaĠjiĠ aoĠlinĠpiĠkeĠyunĠdongĠ
pangĠ daĠdeĠ
taoĠtaiĠ saiĠ
changĠwu ĠweiĠyuanĠhuiĠ
fangĠdiĠ chanĠ
ĠSAO ĠĠĠ
9 ĠyueĠzhiĠ
Ġ chuan
Ġ 1961ĠnianĠ
ĠĠĠ su
jian ĠĠĠ
yan ĠguoĠ
jun ĠliĠ
21 ĠshiĠjiĠ
ĠzaiĠ yingĠ
yuanĠ zuoĠ
beiĠ xiĠ
ĠqiĠ shouĠ
chuĠ shengĠdeĠ
jinĠ xingĠshiĠ
ĠxiĠ keĠ
ĠxiĠ boĠ
zheĠ yang
jiangĠ luoĠ
shenĠ pan
lianĠ huanĠ
benĠ zuoĠ
quanĠ huiĠ
linĠ chuangĠ
cengĠ ciĠ
pinĠ pai
tangĠ daiĠ
ĠshiĠjianĠ jieĠ
ĠsuiĠ jiĠyiĠ
tuoĠ baĠ
ĠbenĠ ciĠ
ĠliuĠ jingĠ
ĠaĠ genĠ
cangĠ kuĠ
ĠhanĠ gaiĠ
xiangĠgang ĠdaoĠ
ĠzhuanĠ menĠ
Ġda ĠjiĠ
ĠhaiĠbaĠgaoĠduĠ 1Ġ
ĠweiĠyuĠfaĠguoĠ xinĠaĠjiĠtan
ĠjiaĠruĠ leĠ
ĠĠĠR Ġ
foĠ jiao
ĠshiĠyiĠkeĠ raoĠtaiĠyangĠyunĠ
ĠhuaĠshengĠ dun
ĠtaiĠpingĠ yangĠ
ĠshiĠxingĠdengĠweiĠ 6
ĠĠĠguiĠdaoĠ canĠshuĠ
ĠdeĠguiĠdaoĠ banĠzhangĠzhouĠweiĠ
ĠshiĠyiĠkeĠraoĠtaiĠyangĠyunĠ zhuanĠdeĠxiaoĠxingĠxingĠ
Ġ 1932ĠnianĠ
cheng ĠĠĠ
wan ĠheĠ
su ĠxingĠ
bai ĠdaĠ
xun ĠdaoĠ
hang ĠyuanĠ
cang ĠshuĠ
sou ĠjiĠ
54 Ġ
72 ĠnianĠ
va Ġ
renĠ shuĠ
daoĠ xiĠ
tongĠ hangĠ
zuoĠ chengĠ
guanĠ quĠ
liangĠ beiĠ
minĠ zuĠdeĠ
xieĠ xiaĠ
ĠgongĠ jinĠjiĠ
ĠshiĠyiĠ kuan
niĠ yaĠyuĠ
ĠjuĠ changĠ
aĠ leiĠ
ĠtongĠ jinĠshiĠchuĠshenĠ
erĠshiĠ tingĠ
faĠzhanĠ chuĠ
ĠwoĠ menĠdeĠ
zengĠjiaĠ daoĠ
ruiĠ dian
ĠweiĠzhuĠ xiaoĠxingĠxingĠ
laĠheĠ maĠ
sheĠjiaoĠ meiĠtiĠ
junĠshiĠtanĠdingĠ baoĠ
ĠkongĠtai ĠdaĠquĠ
ĠweiĠzhuĠxiaoĠxingĠxingĠ daiĠxiaoĠxingĠxingĠ
3 ĠwanĠ
Ġ 1953
Ġ Bu
Ġ kaĠsiĠ
ĠĠĠ daiĠ
ĠĠĠ yingĠyongĠ
ĠĠĠ canĠkao
yin ĠzhongĠ
ban ĠyiĠ
wan ĠjiĠ
pi ĠliĠ
chi ĠheĠ
dou ĠshiĠyouĠ
hang ĠdeĠ
nai ĠchuanĠ
ls Ġ
ble Ġ
ĠweiĠ ruan
ĠnianĠ qing
siĠ quĠ
chengĠ neiĠ
xueĠ fuĠ
yanĠ chuĠdeĠ
huaĠ wuĠ
meiĠ tongĠpaiĠ
ĠfuĠ sheĠ
lianĠ huiĠ
anĠ dingĠ
benĠ shenĠdeĠ
ĠtaĠ ceng
bianĠ qianĠ
xuanĠ buĠyuĠ
ĠbeiĠ haiĠ
ĠyinĠ suĠ
Ġta ĠrenĠ
ĠfaĠ dongĠ
Ġri ĠqiĠjianĠ
yiĠshiĠ yuĠ
Ġjin ĠyouĠ
Ġba ĠerĠ
jieĠshiĠ leĠ
Ġliang ĠzhongĠ
gaiĠbianĠ ziĠ
ĠpaiĠ sheĠ
kaĠerĠ waĠ
xianĠdeĠyiĠgeĠ zhenĠquĠ
ĠliaoĠ ning
neiĠmengĠguĠ ziĠzhiĠquĠ
ĠshiĠwuĠkeĠlanĠdeĠ cunĠluoĠ
Ġ ying
Ġ zhuĠyiĠ
Ġ chuĠqiĠ
Ġ 1965ĠnianĠ
Ġ alignĠ
ĠĠĠ 1999
ĠĠĠ He
zheng ĠdiĠ
qu ĠqiĠ
ci ĠerĠ
huo ĠdeĠyiĠmeiĠ
hai ĠrenĠ
lv ĠbingĠ
chan ĠzhiĠ
zhao ĠdaoĠleĠ
ka ĠshiĠ
peng ĠjiĠ
ĠshiĠ yuanĠ
ĠyiĠ gangĠyuanĠ
jiaĠ gongĠ
beiĠ quĠ
beiĠ dongĠ
faĠ fangĠ
tongĠ huoĠ
zheĠ ge
xiaĠ guĠ
benĠ shen
sanĠ baiĠ
tingĠ kao
queĠ ding
ĠdeĠdiĠ siĠ
zuĠzhiĠ jiĠ
ĠluĠ junĠ
yinĠyueĠ juĠ
ĠshiĠweiĠyuĠ meiĠguoĠyiĠliĠnuoĠyiĠ
yaĠliĠ sangĠnaĠ
ĠĠĠdiĠ mingĠ
ĠĠĠjiaĠ jingĠ
Ġjiu ĠzaiĠ
ĠminĠ jianĠ
ganĠsuĠ shengĠ
Ġ rao
te ĠdiĠ
53 Ġ
ĠdeĠ qianĠ
daĠ zhanĠ
fuĠ wu
ziĠ keĠ
ĠqiĠ muĠ
juĠ fuĠ
quĠ jingĠ
shouĠ jiaoĠ
shouĠ zhouĠ
changĠ tuĠ
biĠ jinĠ
jiuĠ chengĠ
benĠ haĠ
caiĠ yongĠdeĠ
lieĠ wuĠ
ĠwuĠ yuanĠ
ĠhuoĠ jianĠ
ĠbianĠ chengĠ
pingĠjunĠ shuiĠpingĠ
guiĠmoĠ zuiĠdaĠdeĠ
Ġcan ĠjianĠ
biĠliĠniuĠsiĠ shengĠ
Ġ ãĥĪ
Ġ chouĠ
Ġ heĠliĠ
Ġ kaoĠjinĠ
Ġ pingĠguoĠ
yu ĠshiĠjianĠ
ĠĠĠ ruo
ĠĠĠ You
zhi ĠshiĠjianĠ
lin ĠguoĠ
lun ĠziĠ
huan ĠbingĠ
chou ĠqianĠ
chou ĠwenĠ
nai ĠdeĠ
55 Ġ
78 ĠnianĠ
ĠzhiĠ zeĠ
ĠyuĠ 2014
wuĠ duanĠ
jiaĠ ting
beiĠ guanĠjunĠ
chuĠ mingĠ
yanĠ xingĠ
muĠ lanĠ
boĠ mingĠ
boĠ kuanĠ
suoĠ waĠ
fengĠ ciĠ
congĠ ciĠ
ĠshiĠjiĠ shangĠshiĠ
ĠshengĠ jingĠ
waĠ jueĠ
ĠtiĠ gaoĠ
ĠtianĠ zhuĠjiaoĠ
tieĠluĠ xianĠ
ĠsuoĠ shuĠ
ouĠzhouĠ guanĠjunĠ
ĠchongĠ zhenĠ
wenĠhua ĠheĠ
ĠzhiĠzaoĠ shangĠ
3 ĠpingĠfangĠgongĠliĠ
Ġ 1976
Ġ 89
Ġ 112
bing ĠerĠ
yao ĠjiĠ
che ĠzhiĠ
hao ĠdiĠ
bai ĠerĠ
tiao ĠdeĠ
tao ĠdeĠ
ĠweiĠ jieĠ
ĠyuĠ zaiĠ
youĠ qiĠ
ĠrenĠ keĠ
gongĠ zhengĠ
daoĠ jiaoĠ
beiĠ guanĠ
ziĠ xiĠ
jinĠ liangĠ
shouĠ ci
changĠ chun
ĠsiĠ xingĠ
zhangĠ jieĠ
meiĠ zhouĠdeĠ
ĠtaĠ keĠ
ĠtaĠ xiangĠ
tuĠ sha
tuĠ rangĠ
chuanĠ songĠ
gangĠ taiĠ
zhuanĠ tiĠ
ĠjingĠ shenĠ
yinĠduĠ niĠxiĠyaĠ
Ġhuo ĠerĠ
rengĠran ĠshiĠ
ĠqiĠta ĠrenĠ
Ġge ĠnianĠ
minĠzhuĠzhuĠyiĠ renĠminĠ
Ġ shangĠdeĠ
Ġ yanĠzhongĠ
Ġ colorĠ
Ġ textĠ
yu ĠshiĠyongĠ
li ĠqiĠ
ĠĠĠ 1997
ĠĠĠ yaoĠ
yuan ĠyiĠjiĠ
te ĠkeĠ
nei ĠerĠ
pan ĠxingĠ
mou ĠyiĠ
93 ĠnianĠ
Meta critic
ĠyuĠ gaoĠ
ĠzhongĠ shan
ĠheĠ kouĠ
daĠ shangĠ
gongĠ xueĠ
chuĠ seĠ
ciĠ huiĠyiĠ
tongĠ luoĠ
wenĠ niĠ
fenĠ nuĠ
ĠsiĠ yuanĠ
danĠ xingĠ
meiĠ youĠyiĠ
zhouĠ houĠ
leiĠ dongĠwuĠ
ĠshiĠyiĠ yiĠ
duanĠ zanĠ
zhaoĠ shouĠ
ĠrenĠkouĠ puĠ
ĠyingĠ xiongĠ
ĠshiĠzhenĠ mianĠjiĠweiĠ
ĠbenĠ pianĠ
ĠsuoĠ youĠdeĠ
baoĠdaoĠ chengĠ
kaĠerĠwaĠ duoĠsiĠ
2 ĠzhiĠ
¨ Ġ
Ġ the
Ġ Con
Ġ 1929ĠnianĠ
li ĠchengĠ
ci ĠnianĠ
meng ĠjiaĠla
Ori con
ĠyiĠ seĠlie
ĠweiĠ xiĠ
ĠliĠ kai
buĠ bingĠ
fuĠ nv
ĠbuĠ lanĠ
daoĠ taiĠ
ziĠ daĠ
zhangĠ danĠquĠ
danĠ cheĠ
luoĠ jieĠ
xuanĠ xiu
caiĠ pan
guangĠ chang
ĠxiangĠ shouĠ
ĠxianĠ xiangĠ
ĠguoĠjiaĠ anĠquanĠ
yinĠyueĠ luĠyingĠdaiĠ
gongĠzhongĠ kaiĠfangĠ
ĠdeĠyiĠzuoĠ chengĠshiĠ
5 ĠpingĠfangĠgongĠliĠ
p hi
Ġ u
Ġ 1935
Ġ 1944ĠnianĠ
ĠĠĠ zhe
ĠĠĠ dingĠyiĠ
ĠĠĠ 1997ĠnianĠ
bu ĠliĠsiĠ
qu ĠĠĠ
gu ĠzhongĠ
xie ĠyuĠ
bian ĠyouĠ
zhen ĠfuĠ
han ĠzhongĠ
die ĠdeĠ
61 Ġ
ĠshiĠ baiĠ
ĠjiĠ bingĠ
buĠ shao
ĠzaiĠ zheĠzhongĠ
gongĠ xiaĠ
jianĠ dui
jieĠ luĠ
chengĠ qingĠ
xueĠ paiĠ
fangĠ suoĠ
ĠdaĠ piĠ
yinĠ shuĠ
wenĠ pingĠ
ĠjiaĠ juĠ
anĠ dongĠ
gaoĠ jieĠ
fanĠ xueĠyuanĠ
kaiĠ caiĠ
ĠchuĠ laiĠ
ĠpingĠ jiaĠ
aĠ muĠsiĠteĠ
manĠ zu
ĠzhongĠguoĠ zhengĠfuĠ
ĠjiangĠ huiĠ
ĠnianĠ3ĠyueĠ 31ĠriĠ
ĠnianĠzhiĠ jinĠ
ĠmianĠjiĠ 1
Ġhuo ĠyiĠ
ĠyueĠhanĠ xunĠ
ĠshiĠwuĠkeĠ lanĠ
duoĠerĠ duoĠ
ĠjingĠneiĠ gongĠyouĠ
4 ĠliĠ
Ġ nao
Ġ zhengĠzaiĠ
Ġ 1943ĠnianĠ
ĠĠĠ Q
ĠĠĠ 1994
dong ĠzaiĠ
lai ĠyouĠ
liu ĠguoĠ
shui ĠliĠfaĠ
zhao ĠriĠ
50 ĠmiĠ
87 ĠnianĠ
ĠjiĠ xiangĠ
ĠjiĠ shangĠ
ĠzhiĠ xuĠ
ĠyuĠ 2017
fuĠ teĠ
zhuĠ fuĠ
zhuĠ bianĠ
shengĠ geĠ
faĠ shuĠ
faĠ shouĠdeĠ
huiĠ ru
ĠdiĠ erĠjiĠ
taiĠ yangĠdeĠ
qingĠ junĠ
qingĠ shanĠ
benĠ laiĠ
biaoĠ jueĠ
liuĠ paiĠ
waiĠ shengĠ
chuanĠ dongĠ
paiĠ zhaoĠ
ĠdanĠ xinĠ
lunĠ taiĠ
ĠgeĠ geĠ
cunĠ zai
douĠ yaoĠ
ĠyeĠ yinĠciĠ
ĠzuiĠ houĠzaiĠ
ĠxiaoĠ fangĠ
ĠluoĠ lunĠ
Ġxian ĠdeĠyiĠgeĠ
ĠquĠ xiaoĠ
zhanĠzhengĠ baoĠfaĠ
ĠxingĠchengĠ leĠ
mingĠxingĠ saiĠ
Ġ gong
Ġ niao
Ġ chui
Ġ 1973
Ġ fuĠshiĠ
Ġ siĠnianĠ
er ĠshiĠyiĠnianĠ
qian ĠbuĠ
she ĠqiĠ
cai ĠyuĠ
rong ĠziĠ
pei ĠliĠ
mao ĠziĠ
bin ĠweiĠ
77 Ġ
CO VIDĠ
ĠshiĠ zheĠ
ĠzhiĠ jiaĠgeĠ
faĠ dianĠjiĠ
shouĠ menĠ
yanĠ shouĠ
guanĠ zhongĠdeĠ
fenĠ changĠ
junĠ keĠ
gaiĠ zuĠ
ĠxingĠ xiĠ
anĠ shaĠ
cheĠ zhanĠdeĠ
kaiĠ fangĠdeĠ
baĠ teĠ
ĠchengĠ zuoĠ
renĠweiĠ zheĠ
quĠdeĠ deĠ
ĠdeĠjiĠ changĠ
chengĠyuanĠ zhiĠyiĠ
zhengĠfu ĠyiĠ
Ġãģ Ĩ
Ġling ĠrenĠ
Ġming ĠyiĠ
xuĠduo ĠrenĠ
ĠyouĠqiĠshiĠ zaiĠ
Ġ shuĠjiĠ
Ġ 1967ĠnianĠ
an ĠzaiĠ
ĠĠĠ lianĠ
he ĠdeĠguoĠ
ge ĠshiĠzhenĠ
qu ĠdeĠshiĠ
le ĠguoĠ
yong ĠdaĠ
xia ĠdeĠyiĠgeĠzhongĠ
dai ĠqiĠ
duo ĠjiĠ
xie ĠyouĠ
sai ĠshiĠyuĠ
lie ĠkeĠ
geng ĠdiĠ
ĠjiĠ daĠ
ĠliĠ taoĠwanĠ
chengĠ daĠ
tiĠ changĠ
junĠ shuĠ
zhangĠ huĠ
meiĠ guoĠshiĠ
gaoĠ yaĠ
suĠ qiuĠ
ĠgaiĠ shanĠ
diĠyiĠ daiĠ
qiangĠ poĠ
tangĠ niao
jingĠjiĠ buĠ
ĠzhengĠ mingĠ
ĠgaiĠshengĠfenĠweiĠfaĠguoĠ xiĠbeiĠbuĠ
Ġzhuan ĠrenĠ
ĠÐ¾ ĠÐ
Ġ 1966
Ġ moĠshiĠ
di ĠshiĠqiĠ
qian ĠyiĠzhiĠ
she ĠerĠ
duo ĠerĠshengĠ
200 ĠmiĠ
lao ĠnianĠ
lao ĠyuanĠ
13 ĠgeĠ
zhui ĠdongĠwuĠ
zang ĠzuĠ
97 ĠnianĠ
cm Ġ
ĠshiĠ baĠxiĠ
ĠyuĠ zhangĠ
daĠ anĠ
fuĠ shangĠ
fuĠ yuanĠzhangĠ
ĠbuĠ qiĠ
chuĠ fenĠ
fenĠ ziĠdeĠ
ruĠ jinĠ
biĠ teĠ
lianĠ saiĠzhongĠ
kaiĠ fangĠshiĠ
caiĠ beiĠ
ĠbeiĠ jing
moĠ duanĠ
shuiĠ wuĠ
ĠliĠshiĠ xueĠ
ĠliĠshiĠ zhangĠ
fuĠwuĠ qiĠ
Ġãĥ ĥ
wenĠhua ĠyiĠ
xiaoĠzuĠ saiĠ
ĠerĠgaiĠdiĠ zuiĠgaoĠdianĠweiĠ
baoĠshouĠ dangĠ
ĠerĠgaiĠdiĠzuiĠgaoĠdianĠweiĠ haiĠbaĠgaoĠduĠ
2 ĠciĠ
Y P
e ĠyiĠ
Ġ quĠshiĠ
ji ĠyiĠgeĠ
yi ĠshiĠyiĠ
ĠĠĠ Con
jie ĠshiĠweiĠ
mi ĠheĠ
hou ĠheĠ
mei ĠyueĠ
lai ĠxiĠ
ni ĠxiĠya
tian ĠxingĠ
lin ĠweiĠ
zhao ĠzhiĠ
que ĠxiĠ
100 ĠmiĠ
ĠzhiĠ shengĠ
ĠzhongĠ duiĠ
chuĠ zuĠ
ĠdiĠ 3Ġ
juĠ dongĠ
houĠ mianĠ
fangĠ fa
ĠdaĠ yingĠ
pingĠ min
meiĠ jieĠ
lingĠ hun
cheĠ liang
yunĠ songĠ
shanĠ changĠ
feiĠ cui
baiĠ tuoĠ
ĠxiangĠ huĠ
ĠxianĠ xingĠ
shuiĠ niĠ
ĠfaĠ shouĠ
ĠliĠshiĠ youĠ
ĠfenĠ ziĠ
enĠ shengĠheĠ
ĠdiĠerĠ tianĠ
ĠbingĠyuĠ tong
neiĠrong ĠdeĠ
maĠkeĠ xiĠ
Ġ2010ĠnianĠ renĠkouĠ
daiĠlaiĠ leĠ
zenĠ me
Ġ 1965
Ġ jingĠliĠ
Ġ fangĠyuĠ
Ġ saĠerĠ
ao ĠweiĠhuiĠ
li ĠzhiĠ
yue ĠdeĠ
lu ĠdaĠ
gao ĠyiĠ
suo ĠerĠ
zhuan ĠshiĠ
xun ĠyiĠ
huang ĠziĠ
sta gram
ted Ġ
ĠyuĠ shangĠ
ĠyouĠ zuoĠ
ĠzaiĠ duiĠ
ĠzhongĠ guo
jiaĠ laiĠ
daoĠ xiaĠ
shuĠ shangĠ
riĠ ziĠ
yeĠ yinĠciĠ
zuoĠ yongĠdeĠ
dianĠ yingĠshiĠ
guĠ gongĠ
dingĠ gouĠ
baiĠ yinĠ
ĠbaoĠ han
ganĠ xieĠ
ranĠ liao
ĠzhanĠ shenĠ
ĠzhengĠ tiĠ
Ġwo ĠerĠ
ĠpuĠtaoĠ yaĠ
ĠjinĠru ĠzhiĠluĠhouĠ
9 ĠgongĠliĠ
Ġ pai
Ġ 110
ĠĠĠ An
qian ĠnianĠ
dang ĠsiĠ
wan ĠzhiĠ
bian ĠdiĠ
tian ĠguoĠ
ran s
gou ĠheĠ
kuang ĠdeĠ
zha ĠerĠ
25 ĠrenĠ
49 Ġ
94 ĠnianĠ
ĠweiĠ meiĠguoĠ
jiaĠ leĠbiĠ
ĠbuĠ liaoĠ
jieĠ duanĠdeĠ
chengĠ jiangĠ
jingĠ shangĠ
huaĠ xiangĠ
xiaoĠ zu
xiaĠ xiaĠdeĠ
yongĠ hu
haiĠ keĠyiĠ
meiĠ lianĠ
bianĠ xiuĠ
duoĠ biĠ
zuiĠ xianĠ
dangĠ xiaoĠ
diaoĠ leĠ
Ġyin ĠdiĠ
ĠnianĠ12ĠyueĠ 1ĠriĠ
ĠnianĠzhiĠ jianĠ
chunĠ qiuĠ
ĠfanĠ huiĠ
ĠniĠ guĠlaĠ
yinĠhang ĠdeĠ
Ġdai ĠweiĠ
Ġdong ĠyuĠ
Ġ guan
Ġ 130
Ġ He
Ġ shenĠweiĠ
Ġ tuiĠdongĠ
ĠĠĠ lvĠ
she ĠfuĠ
pi ĠshiĠ
la ĠjiaĠ
ka ĠxiĠ
man ĠheĠ
ĠjiĠ hua
ĠyuĠ 2023
heĠ zhongĠ
buĠ luĠkeĠ
ĠzaiĠ yueĠ
ĠrenĠ shouĠ
jiaĠ zhangĠ
chengĠ weiĠshiĠ
xiangĠ fenĠ
huiĠ wuĠ
chuĠ shenĠdeĠ
biĠ yaĠdeĠ
shenĠ jing
ĠfuĠ laiĠ
zuĠ gou
wanĠ yuanĠ
zhouĠ chengĠ
xuanĠ juĠdeĠ
suĠ junĠ
ĠbingĠ yaoĠqiuĠ
ĠchuĠ zhanĠ
ĠjieĠ shaoĠ
ĠgaiĠ pianĠ
aoĠ duoĠ
liĠ shaĠbaiĠ
touĠ jiaoĠ
ĠyuanĠ xianĠ
ĠdianĠ nao
zhuangĠjiĠ kengĠ
wuĠzhuang ĠbuĠduiĠ
ziĠbenĠ zhuĠyiĠ
jieĠxiaĠ laiĠdeĠ
jueĠseĠbanĠyan ĠyouĠxiĠ
4 ĠpingĠfangĠgongĠliĠ
ĠĠĠ faĠzhanĠ
ĠĠĠ zhuanĠjiĠ
bi ĠzaiĠ
yin ĠbuĠ
ru ĠjiaĠ
xu ĠliĠya
yao ĠyouĠ
zhuan ĠdaoĠ
zhuang ĠchengĠ
gan ĠxingĠquĠ
shao ĠerĠ
ĠshiĠ yongĠyuĠ
Ġnian ĠdeĠyiĠ
ĠzhiĠ houĠyouĠ
yuanĠ chuang
gongĠ suoĠ
ĠyueĠ zhanĠ
jieĠ cengĠ
quĠ shengĠ
jiangĠ huĠshiĠdaiĠ
gaiĠ daoĠ
ruĠ changĠ
qingĠ dianĠ
ĠtaĠ cengĠzaiĠ
suoĠ xiaĠdeĠyiĠgeĠ
sanĠ shengĠ
caiĠ seĠ
ĠwuĠ dingĠ
zhengĠfu ĠweiĠ
ĠlianĠ tongĠ
ĠweiĠjiĠ baiĠkeĠ
beiĠrenĠ wei
tianĠjingĠ yunĠdongĠyuanĠ
baĠleĠsiĠ tan
ĠweiĠyuĠfaĠguoĠao ĠkeĠxiĠtaĠniĠdaĠquĠ
ĠshiĠweiĠyuĠmeiĠguoĠmiĠsuĠliĠ zhouĠ
Ġ yanĠshiĠ
Ġ kunĠ
Ġ 1924ĠnianĠ
li ĠbuĠ
ĠĠĠ bianĠ
ĠĠĠ 1995ĠnianĠ
ke ĠweiĠqiĠ
te ĠyouĠ
lin ĠdaĠ
dou ĠkeĠ
sa u
13 ĠrenĠ
nai ĠzhiĠ
guai ĠshouĠ
98 ĠnianĠ
96 ĠnianĠ
84 ĠnianĠ
ĠyuĠ 2022
zhongĠ cengĠshuiĠyuĠ
diĠ biaoĠ
xingĠ daoĠ
jingĠ ziĠ
yanĠ zheĠ
yeĠ ziĠ
jiaoĠ caiĠ
bingĠ daoĠ
shenĠ gaoĠ
lianĠ duiĠ
liuĠ xiangĠ
ĠchengĠ baoĠ
ĠchengĠ haoĠ
duanĠ tuĠ
ĠdeĠzhiĠ yuanĠ
ĠyingĠ geĠlanĠ
ĠqingĠ chao
erĠshiĠ sanĠnianĠ
ĠbenĠ pian
ĠhongĠ seĠ
buĠfen ĠdeĠ
Ġliu ĠxingĠ
ĠdeĠzhiĠchiĠ zheĠ
ĠliĠru ĠzaiĠ
ĠqiĠxiĠzaiĠdiĠ cengĠshuiĠyuĠ
Ġ Ä
Ġ 1952
xue ĠerĠ
xiao ĠerĠ
ben ĠguoĠ
suo ĠliĠ
shui ĠbuĠ
11 ĠrenĠ
16 ĠgeĠ
lver Ġ
ĠyiĠ zuĠ
diĠ tie
yuanĠ benĠdeĠ
fuĠ danĠ
ĠbuĠ jiu
jieĠ shouĠdeĠ
jinĠ biĠ
shouĠ chuĠ
leĠ wuĠ
guanĠ tongĠ
jiaoĠ suoĠ
gaiĠ ge
gaiĠ gongĠsiĠ
wangĠ zhuĠ
shenĠ houĠ
sheĠ faĠ
shanĠ chengĠ
sanĠ tianĠ
baiĠ fenĠ
touĠ suĠ
ĠweiĠyuĠ taiĠwanĠ
diĠyiĠ ciĠshiĠjieĠdaĠzhanĠ
ĠfaĠ lanĠkeĠ
tuanĠ tiĠdeĠ
jingĠjiĠ changĠ
waĠ leiĠ
yinĠyueĠ xueĠyuanĠ
Ġsui ĠzhiĠ
yingĠyongĠ chengĠshiĠ
jianĠchaĠ yuanĠ
Ġao ĠerĠ
Ġ 1974
Ġ 1954
Ġ 1969ĠnianĠ
ĠĠĠ lvĠyouĠ
ĠĠĠ taĠyuĠ
zhi ĠyiĠjiĠ
xing ĠshiĠweiĠ
shen ĠerĠ
zui ĠjiĠ
sai ĠkeĠsiĠ
san ĠdaoĠ
AT Ġ
ĠshiĠ jinĠ
xingĠ cunĠ
gongĠ fuĠ
gongĠ guanĠ
fuĠ laĠ
jiaĠ jingĠ
shouĠ lieĠ
jingĠ shuĠ
leĠ zheĠgeĠ
fangĠ wen
liangĠ xingĠ
meiĠ ciĠ
sanĠ xianĠ
paiĠ chuĠdeĠ
linĠ ken
ĠchengĠ huaĠ
ĠchengĠ weiĠyiĠ
zhuanĠ huaĠweiĠ
cunĠ zaiĠyiĠ
kaiĠshiĠ jinĠxingĠ
kaĠ luoĠsiĠ
shuoĠ huaĠ
ĠjiangĠ taĠ
ĠshuĠ mingĠ
ĠqianĠ shenĠweiĠ
guanĠjunĠ saiĠ
diĠerĠ ciĠshiĠjieĠdaĠ
huiĠshiĠ diĠ
waiĠjiaoĠbuĠ zhangĠ
yeĠshengĠ dongĠwuĠ
aoĠdaĠliĠ ya
ĠaĠerĠbeiĠsiĠ daĠquĠ
5 ĠzhiĠ
Ġ jiao
Ġ 1926ĠnianĠ
ĠĠĠ tieĠluĠ
yin ĠyueĠshiĠ
ban ĠzaiĠ
bo ĠweiĠ
zui ĠdeĠ
chi ĠzaiĠ
xiu ĠjiĠ
rui ĠdeĠ
lve ĠyouĠ
AR Ġ
Ġnian ĠnianĠdiĠ
ĠzhiĠ kongĠ
qiĠ dianĠ
ĠyouĠ meiĠguoĠ
ĠzhongĠ guoĠshiĠ
gongĠ kai
fuĠ keĠ
zhuĠ ce
beiĠ fenĠ
zheĠ leiĠ
nanĠ zhanĠ
qingĠ chunĠ
biĠ saiĠshiĠ
ĠfuĠ shuĠ
anĠ shanĠ
zuiĠ zhongĠyiĠ
guĠ shouĠ
chuanĠ ruĠ
chongĠ tu
zouĠ langĠ
zongĠtongĠ xuanĠjuĠ
Ġgu ĠerĠ
ĠwanĠrenĠ ciĠ
ĠyeĠjiuĠshiĠ shuoĠ
miĠxiĠxiĠ biĠ
â Ĺ
Ġ 31
ĠĠĠ 1994ĠnianĠ
bu ĠyiĠzhiĠ
jian ĠdeĠshiĠ
yin ĠguoĠ
zhan ĠshiĠdeĠ
ya ĠdiĠ
zhen ĠxiĠ
mo ĠjiĠ
BC Ġ
ĠshiĠ xiangĠgang
ĠyiĠ quĠ
siĠ duoĠ
ĠqiĠ wangĠ
huiĠ yinĠ
luĠ junĠdiĠ
nanĠ anĠ
laĠ laĠ
ĠdanĠ taĠdeĠ
ĠshiĠyiĠ yue
niĠ ri
ĠzhuĠ dongĠ
ĠjuĠ chengĠ
ĠyuanĠ chaoĠ
hongĠ se
tuoĠ zhanĠ
ĠdangĠ juĠ
ĠyinĠweiĠ zaiĠ
Ġfei ĠerĠ
ĠhouĠlai ĠyouĠ
9 ĠpingĠfangĠgongĠliĠ
Ġ 1936
Ġ 900
Ġ yuanĠyuĠ
Ġ keĠjiĠ
Ġ cĠ
ĠĠĠ taĠshiĠ
qu ĠbuĠ
mu ĠdaĠ
zui ĠnianĠqingĠdeĠ
fan ĠliĠ
huang ĠgongĠ
ton Ġ
ĠyouĠ huaĠ
gongĠ yuan
ĠyueĠ keĠ
ĠqiĠ xianĠ
tiĠ cao
huoĠ dongĠshiĠ
ĠkeĠ luĠ
wanĠ baoĠ
miĠ laĠ
boĠ dongĠ
cheĠ tiĠ
guĠ daoĠ
baĠ mingĠ
ĠbeiĠ mianĠ
ĠzheĠ jiuĠshiĠ
ĠyinĠ du
ĠyiĠjiĠ youĠ
2Ġ xianĠdeĠ
shuangĠ bianĠ
ĠfeiĠ zhouĠ
ĠĠĠqiĠ yuanĠ
ĠliĠkaiĠ leĠ
erĠheĠ panĠ
ĠyiĠliĠ fangĠmiĠ
yinĠdiĠ anĠrenĠ
shuangĠdaĠ guanĠjunĠ
ĠgaiĠshengĠfenĠweiĠfaĠguoĠbeiĠbuĠ neiĠluĠshengĠfenĠ
Ġ 1951
Ġ fuĠyuĠ
Ġ 1923ĠnianĠ
ĠĠĠ minĠ
ĠĠĠ 1998ĠnianĠ
ĠĠĠ biĠyeĠyuĠ
ĠĠĠ 1996ĠnianĠ
ren ĠyiĠqiĠ
bu ĠweiĠyuanĠ
xuan ĠzhiĠ
chong ĠwuĠ
hong ĠdeĠ
âĢ ²
teng ĠbaoĠ
91 ĠnianĠ
ley Ġ
ĠzhiĠ liaoĠ
diĠ kangĠ
shengĠ mingĠdeĠ
xianĠ gongĠsiĠ
ziĠ youĠdeĠ
ĠxiĠ yaĠdeĠ
juĠ juĠ
zhengĠ shouĠ
baoĠ liu
feiĠ xianĠ
zeĠ biaoĠshiĠ
eĠ moĠ
ranĠ shao
ĠjiuĠ xiangĠ
Ġa ĠfuĠ
gongĠchanĠ dangĠdeĠ
Ġbei ĠyuĠweiĠ
wenĠyiĠ fuĠ
xinĠjiĠ neiĠyaĠ
ĠjiĠnian ĠbeiĠ
aiĠshaĠ niĠyaĠ
0 ĠrenĠ
Ġ 1967
Ġ Gi
ĠĠĠ 1991ĠnianĠ
xing ĠshiĠjianĠ
jin ĠnianĠlaiĠ
ju ĠheĠwuĠ
hua ĠqiĠ
huo ĠheĠ
she ĠshiĠdeĠ
gang ĠjinĠ
kuo ĠdeĠ
chen ĠzhiĠ
hang ĠjianĠ
hong ĠweiĠ
lao ĠshuĠ
xiong ĠshouĠ
ĠzaiĠ yeĠ
xingĠ jingĠ
jianĠ diĠ
shengĠ daĠ
zhengĠ xianĠ
dongĠ ciĠ
dongĠ yongĠ
fangĠ huoĠ
jiangĠ ciĠ
shenĠ zhenĠshiĠ
qiuĠ lingĠ
xuanĠ wuĠ
suĠ song
maĠ shuĠ
Ġdan ĠjiĠ
meiĠyouĠ renĠ
maiĠ aĠmiĠ
ĠbiĠ jiaoĠ
suoĠyouĠ renĠ
zuĠqiuĠ huiĠ
Ġai ĠsiĠ
juanĠ kuanĠ
lingĠshiĠ guanĠ
ĠdeĠzhuĠ tiĠ
shengĠhuo ĠyuĠ
ĠĠĠjuĠqingĠ jianĠjieĠ
ĠlianĠheĠ taiĠfengĠjingĠbao
ĠliĠgongĠ daĠxueĠ
¤ Ġ
Ġ luoĠdeĠ
Ġ shangĠweiĠ
Ġ kĠ
ti ĠerĠ
ci en
hua ĠguoĠ
zuo ĠxiĠ
hai ĠzhiĠ
hai ĠbuĠ
lai ĠliĠ
mo ĠyuĠ
xiu ĠxingĠ
shuang ĠrenĠ
juan ĠruĠ
ga ĠerĠ
ys Ġ
1890 ĠnianĠ
ĠliĠ baĠnen
jianĠ zhangĠ
ĠqiĠ erĠ
jingĠ wuĠ
guanĠ xinĠ
ĠdaĠ mingĠ
xinĠ baoĠ
luĠ mianĠ
qianĠ fuĠ
xiaĠ xianĠ
ĠkeĠ zuoĠweiĠ
wangĠ zhanĠdeĠ
dengĠ chuĠ
quanĠ meiĠ
Ġbing ĠjiĠ
renĠweiĠ taĠ
erĠshiĠ siĠnianĠ
ĠluĠ xianĠ
diĠerĠ ciĠshiĠjieĠdaĠzhanĠ
ĠhanĠ shuĠ
Ġci ĠjiĠ
ĠĠĠbenĠ jieĠ
ĠweiĠyuĠgaiĠguoĠ xiĠbeiĠbuĠ
caoĠzuo ĠxiĠtongĠ
b ri
Ġ Lu
Ġ shunĠ
Ġ quanĠshiĠ
ĠĠĠ 1990
ĠĠĠ tiĠ
zhi ĠshiĠshiĠ
ping ĠdiĠ
ni ĠjiaĠ
hao ĠkeĠ
nei ĠkeĠ
lan ĠzhiĠ
cai ĠheĠ
ran ĠyouĠ
qiang ĠheĠ
tiao ĠheĠ
kang ĠfuĠ
chun ĠtianĠ
67 Ġ
ty ĠĠĠ
ĠshiĠ mingĠ
ĠshiĠ xinĠ
ĠyiĠ zhuĠ
jiaĠ binĠ
jieĠ pou
jieĠ erĠ
jieĠ jianĠ
beiĠ jiaoĠ
ziĠ tiĠ
shouĠ keĠ
leĠ fuĠ
yanĠ zhuĠ
fenĠ miĠ
taiĠ fuĠ
bingĠ fei
pingĠ jun
muĠ shanĠ
ĠfuĠ nvĠ
jiuĠ xiangĠ
xuĠ zuoĠ
caiĠ kaiĠshiĠ
diĠyiĠ qiĠ
kongĠ queĠ
poĠ lieĠ
Ġdang ĠtaĠ
ĠweiĠdiĠ qiĠ
ĠjiĠzheĠ huiĠ
sheĠhuiĠzhuĠyiĠ gongĠheĠguoĠ
ĠgeĠlanĠ teĠ
² Ġ
Ġ 1911ĠnianĠ
ĠĠĠ woĠ
xing ĠrenĠwuĠ
ti ĠdeĠshiĠ
ju ĠqiĠ
dui ĠxiĠ
bing ĠzhiĠyuĠ
jun ĠshiĠjiĠ
pi ĠziĠ
suo ĠbuĠ
lei ĠzhiĠ
lun ĠzheĠ
10 ĠmiĠ
ka ĠdiĠ
gen ĠzhuĠ
sun ĠzhongĠshanĠ
cuo ĠdeĠ
rd Ġ
ĠshiĠ xiangĠ
qiĠ taĠdeĠ
diĠ qiu
ĠrenĠ youĠ
daĠ jiangĠjunĠ
yuanĠ su
jiaĠ meng
ziĠ wo
juĠ tuanĠ
yeĠ zhuĠ
tongĠ qingĠ
wenĠ tiĠshiĠ
qianĠ beiĠ
meiĠ guoĠjiĠ
bianĠ geĠ
lingĠ zhuĠ
guĠ jianĠzhuĠ
ĠdeĠyiĠ chuĠ
fengĠ jianĠ
niĠ zhuanĠ
shuiĠ xiaĠ
lvĠ zhangĠ
ĠyouĠyuĠ qiĠ
haĠ teĠ
diĠerĠ baiĠ
jinĠbiaoĠ sai
tongĠchangĠ huiĠ
ĠtongĠnianĠ wuĠyueĠ
ĠĠĠB Ġ
ĠweiĠyuĠfaĠguoĠ boĠgenĠdiĠ
zhengĠquanĠ jiaoĠyiĠsuoĠ
xuĠkeĠ zhengĠ
Ġzhong ĠnianĠ
maĠlaĠ yaĠ
ĠxingĠzheng ĠzhongĠxinĠweiĠ
canĠjiĠrenĠ aoĠlinĠpiĠkeĠyunĠdongĠhuiĠ
ĠguoĠanĠ faĠ
Ġ tai
Ġ nv
Ġ mouĠ
Ġ shengĠliĠ
Ġ miaoĠshuĠ
Ġ qiĠjiĠ
ĠĠĠ zuiĠzhongĠ
wei ĠshiĠyongĠ
zheng ĠerĠ
tong ĠzaiĠ
du ĠliĠshiĠ
xia ĠbuĠ
mu ĠkeĠ
jiu ĠweiĠ
duo ĠzhiĠ
ben ĠyiĠ
14 ĠgeĠ
sun ĠhuiĠ
60 ĠnianĠdaiĠ
BL AC
ture Ġ
1897 ĠnianĠ
zhiĠ wuĠ
ĠweiĠ junĠ
youĠ yongĠ
buĠ erĠ
jieĠ mengĠ
chengĠ zan
shengĠ siĠ
riĠ shengĠ
huaĠ huiĠ
xiaoĠ xinĠ
biĠ shangĠ
liangĠ juĠ
guĠ dai
huĠ hangĠ
maĠ muĠ
piĠ aiĠerĠ
taoĠ yuanĠshiĠ
ĠdeĠzhiĠ jieĠ
ĠmuĠ fuĠ
miaoĠ zhun
ĠzongĠ buĠweiĠyuĠ
kongĠzhiĠ qiĠ
renĠminĠ biĠ
juĠbanĠ leĠ
nengĠgou ĠzaiĠ
Ġ geĠzhongĠ
Ġ manĠhuaĠ
Ġ 1914ĠnianĠ
ĠĠĠ neiĠrongĠ
shu ĠĠĠ
ci ĠguoĠgongĠ
huo ĠsiĠ
duo ĠqiĠ
te ĠzhongĠ
chuan ĠyiĠ
lie ĠfuĠ
can ĠzhongĠ
xun ĠzhiĠ
tui ĠwuĠ
niao ĠdeĠ
weiĠ lianĠ
zhiĠ youĠ
ĠyouĠ guanĠdeĠ
ĠzaiĠ shangĠhaiĠ
ĠheĠ feiĠ
xingĠ yunĠ
gongĠ jinĠ
jieĠ naĠ
chengĠ mingĠ
beiĠ shouĠyuĠ
dongĠ daoĠ
jingĠ ying
xueĠ xi
fangĠ keĠ
xiaoĠ ziĠ
xiaoĠ dongĠ
xiaĠ shu
gaiĠ jianĠweiĠ
zhouĠ enĠlaiĠ
jiuĠ chuĠ
teĠ seĠdeĠ
zuiĠ fanĠ
guĠ juĠ
biaoĠ qianĠ
jueĠ ce
ĠgongĠ jianĠ
ĠgongĠ juĠ
diĠyiĠ lunĠ
diĠyiĠ ciĠshiĠjieĠdaĠ
Ġtong ĠshiĠyiĠ
pianĠ changĠ
piĠ linĠ
chuangĠ ruĠ
chuangĠ kouĠ
dianĠshiĠ taiĠdeĠ
ĠtaiĠ ziĠ
ĠmuĠ diĠshiĠ
saĠ leiĠ
ĠanĠ quanĠ
ĠĠĠdeĠ guoĠ
Ġjin ĠnianĠlaiĠ
shengĠchanĠ zongĠzhiĠ
ĠwaiĠ jiaoĠ
siĠliĠ lanĠkaĠ
yinĠfaĠ leĠ
shaĠsiĠ leĠ
junĠzhongĠ jiangĠ
Ġãĥ¼ Ġãĥ
suanĠjianĠ ceĠ
Ġ chuĠshiĠ
Ġ cuiĠ
Ġ mouĠxieĠ
ke ĠyiĠjiĠ
qu ĠerĠ
mei ĠweiĠ
zhang ĠerĠ
nan ĠdiĠ
wang ĠzhongĠ
dang ĠnianĠdeĠ
gou ĠyuĠ
pian ĠliĠ
qiao ĠshiĠ
lao ĠsiĠ
chou ĠjianĠ
ĠshiĠ zhengĠfuĠ
ĠyuĠ 2010
ĠzaiĠ zheĠliĠ
fuĠ ziĠ
beiĠ yongĠ
juĠ minĠdeĠ
yeĠ beiĠchengĠweiĠ
xinĠ ganĠxianĠ
xiaoĠ sanĠ
zhangĠ zheĠ
ĠkeĠ huĠ
guĠ wen
kaiĠ huoĠ
fengĠ boĠ
sanĠ zuoĠ
waiĠ yuanĠ
ĠdanĠ daoĠ
ĠjinĠ laiĠ
ĠgaiĠ xianĠ
ĠgaiĠ juĠ
ĠciĠ hou
ĠmingĠ mingĠweiĠ
ĠhaiĠ yangĠ
youĠyiĠ xiaĠ
jueĠdingĠ jiangĠ
ĠyongĠ zhengĠ
renĠminĠ faĠyuanĠ
ĠyiĠsiĠ lan
ĠkeĠyiĠ zaiĠ
wenĠxueĠ jiangĠ
erĠjiĠ siĠ
Ġsi lverĠ
ĠhuoĠdeĠ diĠ
ĠsaiĠ erĠweiĠ
zhengĠxie ĠfuĠzhuĠxiĠ
Ġ2025 ĠnianĠ
ĠĠĠxiangĠgang ĠshiĠjianĠ
ĠmeiĠnianĠpingĠjunĠ jiangĠyuĠliangĠ
a ĠgeĠ
Ġ dongĠshiĠ
Ġ dengĠrenĠ
Ġ buĠzhiĠ
Ġ rĠ
an ĠqiĠ
ĠĠĠ The
ĠĠĠ Do
ĠĠĠ Ti
ĠĠĠ chengĠshiĠ
ĠĠĠ meiĠtiĠ
ĠĠĠ zongĠjiaoĠ
zhe ĠqiĠ
dang ĠqiĠ
ba ĠliĠdeĠ
gui ĠfuĠ
lun ĠdiĠ
duan ĠyouĠ
hen ĠhaoĠ
th i
AM Ġ
ĠyiĠ qie
ĠrenĠ wenĠ
gongĠ cheĠ
geĠ renĠdeĠ
wuĠ xiangĠ
beiĠ xuanĠweiĠ
beiĠ chengĠzuoĠ
jinĠ qianĠ
ĠriĠ zhiĠshiĠqiĠ
jiaoĠ jieĠchuĠ
ĠkeĠ keĠ
shenĠ xingĠ
ĠfuĠ ziĠ
minĠ shengĠ
jiuĠ huĠ
dengĠ shanĠ
zuiĠ haoĠ
zuiĠ xiaoĠdeĠ
sanĠ fenĠzhiĠyiĠ
moĠ ni
moĠ zuĠ
ĠdeĠdiĠ dianĠ
ĠdeĠzhiĠ liuĠ
Ġa ĠsiĠ
ĠãĤ ¢
ĠnianĠdai ĠqiĠ
qianĠshuĠ leĠ
xieĠshiĠ houĠ
ï ¸
Ġ 1961
Ġ huaĠshiĠ
ĠĠĠ 1950
ĠĠĠ tiĠyuĠ
ĠĠĠ 0Ġ
chang ĠshiĠyongĠ
zhou ĠyouĠ
ling ĠtaĠ
ben ĠheĠ
ben ĠxingĠ
gao ĠrenĠ
gui ĠweiĠ
gui ĠzhiĠ
lun ĠzhiĠ
zhao ĠxiangĠ
tan ĠdaoĠ
tui ĠweiĠ
15 ĠgeĠ
heng ĠliangĠ
nu ĠerĠ
as ĠĠĠ
ĠyuĠ tong
zhongĠ chengĠ
ĠyouĠ jianĠ
ĠyouĠ yuĠshiĠ
geĠ luĠ
faĠ xueĠyuanĠ
dongĠ jieĠ
jingĠ zhuĠ
zhanĠ huoĠ
yingĠ ziĠ
xiaoĠ shengĠ
danĠ niĠ
haiĠ wai
ĠxingĠ rongĠ
caiĠ yuanĠ
ĠgongĠ chengĠshiĠ
ĠziĠ xunĠ
ĠxiangĠ yaoĠ
hanĠ shuĠdeĠ
ĠjuĠ xingĠdeĠ
ĠyuanĠ yinĠshiĠ
Ġer ĠnianĠ
ĠbiĠ mianĠ
ĠtongĠ xingĠ
baoĠhuĠ quĠ
Ġba ĠkeĠ
ĠaiĠ lunĠ
muĠsiĠ lin
ĠĠĠC Ġ
Ġda ĠzhongĠ
kunĠ raoĠ
luĠwa ĠerĠheĠ
jianĠli ĠyiĠgeĠ
yeĠluĠsaĠ leng
Ġ Fran
Ġ juĠzhongĠ
ĠĠĠ la
hai ĠerĠ
wang ĠweiĠjiĠ
ping ĠriĠ
shen ĠzaiĠ
tian ĠliĠ
cun ĠshiĠ
zhui ĠhuiĠ
SS Ġ
daĠ guiĠmo
yuanĠ shuaiĠ
ĠbuĠ renĠ
xianĠ suoĠ
zuoĠ luoĠ
jiaoĠ lvĠ
dianĠ fuĠ
zhangĠ laoĠ
teĠ xuĠ
suoĠ feiĠ
suoĠ niĠ
baĠ wangĠ
ĠbingĠ congĠ
leiĠ teĠ
ĠdanĠ queĠ
ĠwuĠ taiĠ
manĠ enĠ
ouĠ yangĠ
ĠtaĠmenĠ renĠweiĠ
ĠnianĠ2ĠyueĠ 1ĠriĠ
Ġzong ĠbuĠ
faĠerĠ ciĠ
meiĠguoĠzhiĠ bangĠdaĠ
9 ĠmingĠ
L ED
Ġ 1971
Ġ shangĠyouĠ
Ġ biaoĠmingĠ
Ġ junĠjiĠ
ĠĠĠ idĠ
jie ĠshiĠdeĠ
tong ĠliĠ
shang ĠzhongĠ
dong ĠrenĠ
hai ĠjiĠ
jiu ĠshiĠjiĠ
lian ĠyuĠ
min ĠjiĠ
ting ĠfuĠ
sha ĠzhiĠ
tus Ġ
yuĠ zhiĠ
yuĠ qiĠ
ĠliĠ xiĠ
buĠ daĠ
gongĠ yeĠbuĠ
jianĠ wuĠ
jianĠ qingĠ
jieĠ yeĠ
huiĠ duiĠ
zuoĠ fuĠ
jiaoĠ huoĠ
fenĠ gongĠsiĠ
gaiĠ jieĠ
guĠ muĠ
huĠ waiĠ
zongĠ jueĠsaiĠ
ĠdeĠyiĠ suoĠ
ĠdanĠ ciĠ
chanĠ shuĠ
aoĠ huiĠ
qiangĠ lie
liaoĠ ningĠ
ĠmuĠ hanĠmoĠdeĠ
zuĠqiuĠ jinĠbiaoĠsaiĠ
huaiĠ yunĠ
zheĠyiĠ dianĠ
ruoĠ gan
yaĠzhouĠ dianĠshiĠ
zongĠheĠ xingĠ
ruĠxiaĠ biaoĠ
lunĠdun ĠdeĠ
wuĠtaiĠ juĠ
zhanĠweiĠyuĠ zhongĠhuaĠrenĠminĠgongĠheĠguoĠ
keĠxue ĠjiĠshuĠ
hongĠshiĠziĠ huiĠ
aoĠlinĠpiĠ ke
2 ĠdeĠ
4 ĠzhiĠ
Ġ k
Ġ kou
ong Ġ
ai ĠkeĠ
ĠĠĠ Bu
di ĠweiĠyuĠ
ya ĠdaĠ
luo ĠzhiĠ
min ĠyuĠ
yao ĠheĠ
ting ĠjianĠ
cha el
can ĠyinĠ
duan ĠyiĠ
18 ĠshiĠjiĠ
gen ĠdeĠ
ha ĠbuĠsiĠbaoĠ
16 ĠrenĠ
xiong ĠxingĠ
lou ĠdongĠ
2026 ĠnianĠ1ĠyueĠ
Ġnian ĠshiĠqiĠ
faĠ bingĠ
chuĠ tuĠ
shangĠ bingĠ
xueĠ jianĠ
yanĠ changĠdeĠ
jiangĠ taĠmenĠ
muĠ yangĠ
zhenĠ xiaĠxiaĠyiĠxiaĠdiĠquĠ
xuanĠ zongĠ
haoĠ huaĠ
ĠbeiĠ haiĠdaoĠ
taoĠ zouĠ
tuoĠ miĠerĠ
zuiĠzhongĠ zaiĠ
ĠboĠ teĠ
ĠnianĠ8ĠyueĠ 31ĠriĠ
ĠdiĠyiĠ geĠ
zuoĠpin ĠyouĠ
jiangĠqiĠ shengĠgeĠweiĠ
ĠĠĠG roup
Ġ2007ĠnianĠ renĠkouĠ
muĠqin ĠdeĠ
ĠsiĠtaĠ fuĠ
aĠerĠbaĠ niĠyaĠ
c re
Ġ Å
Ġ 1922ĠnianĠ
ĠĠĠ 1991
he ĠliĠdeĠ
chang ĠnianĠ
bai ĠbeiĠ
10 ĠmingĠ
cha ĠbuĠ
can ĠjiĠ
qiang ĠyuĠ
pian ĠjianĠ
wa ĠkeĠ
14 ĠrenĠ
chou ĠdeĠ
chou ĠxiangĠ
Ste am
1894 ĠnianĠ
ĠdeĠ luoĠ
ĠyuĠ 2011
gongĠ gong
gongĠ jianĠ
keĠ fenĠweiĠ
chengĠ jianĠ
xiangĠ jianĠ
beiĠ duanĠ
huiĠ tanĠ
jinĠ leĠ
huaĠ gangĠ
tongĠ guanĠ
jiaoĠ huan
jiaoĠ paiĠ
jiaoĠ tongĠshiĠ
yongĠ pinĠ
lianĠ shengĠ
zhenĠ suoĠ
lingĠ junĠ
zuiĠ changĠjianĠdeĠ
shanĠ cunĠ
saiĠ daoĠ
ĠjuĠ zhuĠzaiĠ
ĠdeĠshiĠ bingĠ
zhuanĠ bianĠweiĠ
ĠdeĠzhiĠ liangĠ
zhunĠ zeĠ
ĠyaoĠ qingĠ
guanĠfangĠ wangĠzhanĠ
ĠzhiĠjinĠ reng
xiaoĠshuo ĠjiaĠ
Ġ biao
Ġ fanĠweiĠ
ai ĠxingĠ
ĠĠĠ con
ĠĠĠ xueĠshuĠ
ming ĠxiĠ
mei ĠliĠdeĠ
nan ĠjiaĠ
zong ĠjiĠweiĠ
kuo ĠyeĠ
liao ĠdongĠ
ha ĠliĠfaĠ
piao ĠshuĠ
09 Ġ
ĠyiĠ guanĠ
ĠyiĠ liaoĠ
ĠyuĠ huiĠ
ĠliĠ muĠ
buĠ jiuĠ
ĠyouĠ qingĠ
chengĠ yuan
shengĠ gaoĠ
jinĠ chuĠ
taĠ suoĠ
yingĠ muĠ
yingĠ lianĠbangĠ
xiaoĠ huiĠ
ruĠ duĠ
ĠfuĠ huoĠ
duoĠ shaoĠ
ĠbingĠ buĠshiĠ
shuiĠ guanĠ
qiangĠ guanĠ
ĠmingĠ xianĠ
ĠqianĠ houĠ
kanĠ laiĠ
zuĠqiuĠ chaoĠjiĠlianĠsaiĠ
kuanĠ duĠ
Ġai ĠjiĠ
ĠriĠzaiĠ meiĠguoĠ
Ġduo ĠerĠ
yingĠjiĠ liĠ
ĠbeiĠqiĠ ruanĠtiaoĠ
Ġ2005ĠnianĠ renĠkouĠ
zhuĠlongĠ cao
ĠfeiĠlvĠ bin
ĠtunĠqiĠ ruanĠtiaoĠ
ĠĠĠlingĠyiĠ fangĠmianĠ
8 ĠĠĠ
A ĠdeĠ
Ġ shengĠjiĠ
ai ĠheĠhuaĠ
ĠĠĠ 1995
sheng ĠguoĠ
jin ĠrenĠ
liang ĠyueĠ
bo ĠliĠsiĠ
tiao ĠxianĠ
liao ĠshiĠ
kui ĠbeiĠkeĠ
gua ĠpaiĠ
IV Ġ
ĠyouĠ erĠ
ĠzaiĠ dangĠdiĠ
xingĠ xinĠguanĠfeiĠyanĠqueĠzhenĠbingĠliĠ
yuanĠ xiĠ
ĠbuĠ jiaĠ
ĠbuĠ buĠzhangĠ
chengĠ shouĠ
zhuĠ baoĠ
ĠqiĠ yue
yanĠ moĠ
ĠdaĠ xiĠ
jiaoĠ yeĠ
banĠ faĠdeĠ
liangĠ tianĠ
meiĠ youĠshiĠ
shenĠ xianĠ
lingĠ quĠ
suoĠ duanĠ
chuanĠ mei
ĠzheĠ geĠmingĠ
zeĠ chengĠweiĠ
ĠzhuĠ mingĠdeĠ
1Ġ riĠzhiĠ
gengĠ haoĠ
ĠwangĠ wangĠ
xiangĠgang ĠdaĠxueĠ
nvĠziĠ tuanĠtiĠ
Ġque ĠbaoĠ
xiaoĠshuo ĠdeĠ
ĠdongĠnanĠ jieĠ
ĠshiĠxiĠbanĠyaĠ kaĠsiĠdiĠliĠyaĠ
ĠweiĠyuĠfaĠguoĠao ĠfuĠnieĠ
aoĠsiĠka ĠjinĠ
4 ĠjiaĠ
Ġ de
Ġ Mu
Ġ Par
Ġ lunĠdunĠ
da Ġli
ma ĠyuĠ
shan ĠrenĠ
feng ĠdiĠ
han ĠheĠ
huang ĠweiĠ
shuang ĠbaoĠ
zha ĠdeĠ
ĠzaiĠ juĠ
wuĠ xiĠ
jieĠ diĠ
fangĠ faĠshiĠ
zhanĠ zhengĠshiĠqiĠ
baoĠ cun
baoĠ yuanĠ
ĠriĠ changĠ
zuiĠ zhongĠyuĠ
dingĠ danĠ
kaiĠ piĠ
tuĠ zhuĠ
ĠziĠ geĠ
linĠ jieĠ
tingĠ gaiĠsheĠ
ĠzheĠ yang
gangĠ aoĠ
shuiĠ bianĠ
xunĠ huan
zhuanĠ dongĠ
liĠ faĠ
ganĠ lanĠ
ganĠ zaoĠ
tanĠ ceĠqiĠ
ĠqianĠ zheĠ
reĠ qingĠ
ĠĠĠyiĠ jiĠ
ĠzhiĠjianĠdeĠ guanĠxiĠ
touĠziĠ zheĠ
1 ĠjiĠ
Ġ 1977
Ġ Au
Ġ houĠyiĠ
Ġ chuĠliĠ
Ġ jiaoĠshiĠ
Ġ zhongĠjiĠ
Ġ yaĠyiĠ
wu ĠyouĠqiĠ
jie ĠjiĠluĠ
hui ĠĠĠ
ye ĠshiĠyiĠ
zhang ĠzhiĠwuĠ
ya ĠliĠyuĠ
hai ĠliĠ
shan ĠweiĠ
qin ĠyuanĠ
huang ĠqiĠ
rong ĠjieĠ
ĠshiĠ yue
weiĠ xingĠ
ĠzhiĠ daĠ
ĠliĠ faĠyuanĠ
renĠ zaiĠ
ĠyouĠ xiangĠ
jianĠ xingĠ
ĠbuĠ fuĠ
zhuĠ renĠweiĠyuanĠ
ĠerĠ baiĠ
tongĠ paiĠdeĠzhuĠ
luĠ guiĠ
qianĠ huĠ
junĠ yunĠ
gaiĠ kuangĠ
biĠ xuĠzaiĠ
gaoĠ qingĠ
dengĠ duoĠ
dengĠ jiĠdeĠ
suoĠ chanĠshengĠdeĠ
liuĠ xiaĠdeĠ
maĠ yeĠ
baĠ dengĠ
menĠ xiaĠ
menĠ kouĠ
ĠbeiĠ songĠ
guiĠ ruĠ
ĠzheĠ shouĠgeĠ
manĠ yanĠ
Ġbing ĠdeĠ
ĠmeiĠ guoĠdeĠ
ĠruĠ xiaĠ
juanĠ zeng
ĠxiĠbanĠ ya
ĠshiĠyiĠweiĠ meiĠguoĠ
Ġ kun
Ġ shengĠweiĠ
Ġ gĠ
ou n
zhong ĠyiĠweiĠ
fen ĠyiĠ
jiang ĠdeĠzhuĠ
dang ĠshiĠyiĠ
ping ĠyiĠ
tu ĠyiĠ
pai ĠbingĠ
ting ĠgongĠ
kong ĠheĠ
tan ĠjiĠ
at ĠĠĠ
MS Ġ
ĠyouĠ gongĠ
jiaĠ zu
chengĠ xingĠ
ĠqiĠ qiuĠ
dongĠ xiangĠ
leĠ xinĠ
fenĠ liangĠ
ĠjiaĠ zhuangĠ
ĠjiaĠ longĠshengĠ
qiuĠ tianĠ
teĠ dianĠshiĠ
dengĠ huiĠ
ĠbeiĠ renĠweiĠ
niĠ guĠ
guiĠ huanĠ
puĠ dun
hanĠ jianĠdeĠ
ĠxianĠ fengĠ
ceĠ bianĠ
youĠyiĠ tiaoĠ
kangĠ naiĠerĠ
ĠxiaoĠ shuoĠ
wenĠtiĠ shangĠ
youĠshiĠ langĠ
zhuĠyao ĠweiĠ
Ġbei ĠshiĠweiĠ
boĠwuĠ guan
ĠfenĠbuĠyuĠ zhongĠguoĠdaĠluĠdeĠ
Ġduo ĠnianĠ
yangĠhuaĠ tanĠ
ĠcheĠzhanĠ bianĠhaoĠweiĠ
ĠjiĠtuan ĠdeĠ
a ĠyiĠ
e ĠzhiĠ
y th
Ġ ð
Ġ daĠshiĠ
Ġ yĠ
Ġ shuĠzhongĠ
yi ĠshiĠweiĠ
zhong ĠdeĠshiĠ
you ĠzhiĠyuanĠ
hou ĠdiĠ
jun ĠsiĠlingĠ
jiu ĠheĠ
pu ĠheĠ
chao ĠzhongĠ
man ĠshiĠ
co Ġ
zhua ĠzhuĠ
ĠyiĠ xinĠ
ĠzhiĠ boĠ
ĠyuĠ nanĠ
qiĠ suĠ
buĠ chongĠ
ĠzhongĠ heĠ
daĠ suan
fuĠ feiĠ
beiĠ xuanĠ
ĠerĠ duiĠ
ĠxiĠ niĠ
junĠ faĠ
junĠ duiĠzaiĠ
dianĠ yingĠyuĠ
duĠ changĠ
gaiĠ lvĠ
liangĠ ge
miĠ ha
jiuĠ zhuĠ
benĠ ciĠ
zongĠ xiangĠ
ĠjinĠ junĠ
lanĠ jingĠ
ĠzheĠ ge
zeĠ lianĠsiĠjiĠ
duanĠ lieĠ
congĠ xiaoĠ
ĠciĠ quĠ
shaĠ qingĠ
ĠshiĠjiĠ jiĠ
tangĠ shuĠ
ĠruĠ tongĠ
kuaiĠ leĠ
ĠguangĠ boĠ
yanĠjiu ĠheĠ
dongĠhuaĠ dianĠyingĠ
ĠrenĠkou ĠyueĠ
xianĠdeĠdiĠ tieĠcheĠzhanĠ
minĠzhuĠzhuĠyiĠrenĠminĠ gongĠheĠguoĠ
Ġ yun
Ġ 1964
li ĠweiĠ
ĠĠĠ 1996
guo ĠdeĠyiĠgeĠ
dian ĠshiĠdeĠ
bo ĠtaĠ
kai ĠliĠ
ze ĠzhiĠ
xiu ĠqiĠ
man ĠxingĠ
bang ĠwanĠ
wa ĠshengĠ
ĠrenĠ gongĠ
jieĠ boĠ
beiĠ houĠ
beiĠ pingĠweiĠ
ĠxiĠ mengĠ
shouĠ jianĠ
shangĠ xueĠ
dongĠ jing
ĠdaĠ xueĠshiĠ
luĠ xianĠdeĠ
qianĠ shenĠweiĠ
taiĠ jianĠ
nanĠ duoĠ
qingĠ danĠ
muĠ caiĠ
shenĠ zhen
tianĠ ciĠ
yunĠ xingĠdeĠ
leiĠ su
baiĠ zhanĠting
ĠciĠ shuĠ
ĠdongĠ beiĠyuĠ
huangĠ jinĠshiĠ
ĠdeĠzhiĠ mingĠ
jingĠjiĠ faĠzhanĠ
erĠshiĠ wuĠ
ĠshiĠweiĠyuĠ riĠbenĠ
yinĠduĠ yangĠ
Ġbei ĠyuĠ
Ġwu ĠyiĠ
ĠdeĠzhiĠchiĠ lvĠ
jueĠding ĠzaiĠ
tongĠweiĠ suĠ
tianĠzhuĠ jiao
ĠgaiĠcunĠ mianĠjiĠ
moĠtuoĠ cheĠ
Ġ Go
Ġ xiĠliĠ
ĠĠĠ zhaoĠ
ĠĠĠ yueĠtaiĠ
shang ĠdeĠyiĠ
du ĠdiĠ
lai ĠheĠ
shen ĠdiĠ
su ĠjiaĠ
gou ĠsiĠ
huang ĠchengĠ
pian ĠbeiĠ
pa ĠkeĠ
shun ĠzhiĠ
teng ĠtongĠ
fuĠ yongĠ
shengĠ keĠ
faĠ chuĠdeĠ
shouĠ gaoĠ
fangĠ sheĠxingĠ
duiĠ zheĠ
wenĠ keĠ
dangĠ wanĠ
puĠ linĠsiĠ
ĠxiangĠ duiĠyuĠ
ĠzhuĠ yaoĠdeĠ
cengĠ duoĠciĠ
diĠyiĠ zhangĠ
ĠshiĠjiĠ qiĠ
ĠdeĠjiĠ yinĠ
ĠrenĠminĠ gongĠheĠguoĠ
liĠshiĠ shangĠ
ĠluĠ waĠerĠ
ĠbaĠ laĠ
ĠcaiĠ nengĠ
ĠleiĠ xingĠweiĠ
boĠwuĠ guanĠdeĠ
Ġzong ĠjiĠ
lingĠdaoĠ zheĠ
shengĠrenĠ daĠ
boĠlanĠ huiĠ
Ġdai ĠyouĠ
2ĠhaoĠ xianĠ
geĠming ĠweiĠyuanĠhuiĠ
ĠĠĠfor ĠĠĠ
zuĠqiuĠjiaĠjiĠ lianĠsaiĠ
7 ĠĠĠ
Ġ CH
Ġ Ju
Ġ fenĠbuĠ
Ġ minĠzhongĠ
ji ĠshiĠyiĠ
wei ĠĠĠformulaĠ
xing ĠweiĠyuanĠhuiĠ
wu ĠrenĠyuanĠ
bei ĠyuĠweiĠ
ming ĠĠĠ
shang ĠdeĠyiĠgeĠ
bian ĠheĠ
qin ĠqiĠ
zang ĠzaiĠ
chai ĠjieĠ
do Ġ
zhiĠ duĠ
ĠjiĠ xiĠ
Ġli ĠshiĠjianĠ
xingĠ xingĠweiĠ
yuanĠ yangĠ
zhuĠ tiĠdeĠ
xueĠ shuoĠ
yanĠ changĠzhiĠ
qianĠ juĠ
danĠ bai
ĠfuĠ feiĠ
wanĠ quanĠbuĠ
boĠ enĠ
yunĠ zhuanĠ
suĠ huaĠ
maĠ saiĠ
ĠbingĠ yinĠ
caiĠ huaĠ
guiĠ xiangĠ
ĠzhuĠ jiaoĠ
ĠyiĠjiĠ zhongĠ
gengĠ rongĠyiĠ
qieĠ duanĠ
ĠdengĠ xiaoĠ
ĠnianĠ5ĠyueĠ 20ĠriĠ
ĠmaĠ enĠshengĠ
tiĠgongĠ fuĠwuĠ
minĠzhuĠ gongĠheĠguoĠ
ĠnaĠ meĠ
ĠlanĠ seĠ
ĠjiĠbenĠ shangĠ
yangĠheĠ tangĠheĠ
ĠĠĠcanĠkaoĠ wenĠxianĠ
xiĠzhiĠxingĠ guanĠ
Q Ġ
´ Ġ
Ġ or
Ġ 1957
Ġ Com
Ġ 1925ĠnianĠ
ĠĠĠ 1992
ĠĠĠ 1993ĠnianĠ
xing ĠĠĠ
fang ĠshiĠdeĠ
ba ĠriĠ
lv ĠzhiĠ
han ĠdanĠ
cong ĠyiĠ
wa ĠziĠshengĠ
qiao ĠheĠ
sa ĠmuĠ
lang ĠkeĠ
ĠshiĠ liangĠ
ĠweiĠ riĠbenĠ
qiĠ xiĠdiĠ
ĠheĠ changĠ
erĠ feiĠ
fuĠ lanĠkeĠ
keĠ luoĠdiĠyaĠ
xiangĠ shouĠ
daoĠ fangĠ
huiĠ biĠ
ĠerĠ taĠdeĠ
shouĠ zuoĠ
ĠdaĠ xianĠ
jiaoĠ zhangĠ
fenĠ zhanĠ
ĠxingĠ taiĠ
teĠ youĠdeĠ
tianĠ ziĠ
biaoĠ shuĠ
fanĠ boĠ
ĠbingĠ wuĠ
neiĠ zhengĠ
baiĠ xueĠ
ĠgeĠ ciĠ
ĠweiĠyuĠ nanĠ
ganĠ raoĠ
ĠshiĠjiĠ huaĠ
zhengĠfuĠ junĠ
erĠshiĠ wuĠnianĠ
ĠshiĠzhiĠ youĠ
faĠshengĠ chongĠtuĠ
Ġye ĠyuĠ
ĠsuoĠyiĠ zaiĠ
ĠmengĠ gu
ĠnianĠchuĠ banĠdeĠ
ĠciĠshiĠ xiaĠ
keĠluoĠ laĠduoĠ
ĠshiĠdeĠrenĠ kouĠweiĠ
boĠluoĠdiĠ haiĠ
huiĠru ĠdiĠtuĠ
G ĠĠĠ
Ġ shuĠshiĠ
ĠĠĠ jieĠgouĠ
cheng ĠyueĠ
bi ĠkeĠ
mei ĠsiĠ
hai ĠkeĠ
gao ĠqiĠ
qiu ĠzhiĠ
feng ĠzaiĠ
gan ĠxingĠ
seng ĠrenĠ
Ġnian ĠshiĠshiĠ
ĠzhiĠ zuoĠrenĠ
jieĠ jue
zhuĠ sheĠ
beiĠ jianĠ
zhengĠ tongĠ
taĠ chengĠweiĠ
yingĠ pingĠrenĠ
tongĠ junĠ
qianĠ yeĠ
taiĠ ciĠ
xiaoĠ baĠ
danĠ fuĠ
menĠ dianĠ
leiĠ biĠ
guiĠ zeĠdeĠ
ĠfaĠ guanĠ
ĠyiĠzhiĠ zhiĠ
zuĠzhiĠ heĠ
taiĠwanĠ shengĠ
ziĠjiĠ weiĠ
diĠerĠ geĠ
keĠneng ĠyouĠ
ĠzhiĠyeĠ shengĠyaĠ
teĠbie ĠdeĠ
jingĠzhengĠ duiĠshouĠ
ĠjieĠkeĠ xunĠ
piĠfuĠ tongĠyiĠ
kaiĠshiĠshiĠ yongĠ
anĠzhuang ĠzaiĠ
ĠhongĠzha ĠjiĠ
ĠyaĠmeiĠ niĠyaĠ
Ġ fuĠheĠ
Ġ lvĠyouĠ
ĠĠĠ zheĠshiĠ
fang ĠshiĠshiĠ
yang ĠguoĠ
shan ĠzhongĠ
che ĠsiĠteĠ
men ĠyuĠ
tou ĠchuĠ
99 Ġ
ft Ġ
xiangĠ xiaĠ
shangĠ mianĠ
tongĠ qinĠ
zuoĠ youĠdeĠ
jiaoĠ sheĠ
bingĠ chengĠ
banĠ jueĠsaiĠ
ĠxingĠ haoĠ
teĠ wuĠ
yangĠ mingĠ
waiĠ chuĠ
touĠ muĠ
zhaoĠ shuĠ
ĠyuanĠ ben
tiaoĠ xuanĠ
tiaoĠ jianĠdeĠ
yueĠ seĠfuĠ
ĠshangĠ yingĠ
leĠyiĠ ciĠ
piaoĠ xuanĠ
ĠwenĠ geĠ
ĠwenĠ xueĠ
fanĠweiĠ neiĠdeĠ
nanĠziĠ tuanĠtiĠ
chuangĠzuoĠ leĠ
ĠãĤ ¯
ĠdiĠsanĠ ciĠ
faĠzhan ĠheĠ
ĠzhongĠbuĠ tongĠdeĠ
ĠweiĠyuĠfaĠguoĠ shangĠfaĠlanĠxiĠdaĠquĠ
luĠjiĠ yaĠ
ĠyiĠnian ĠhouĠ
ĠĠĠ1949 ĠnianĠ
ĠfuĠza ĠdeĠ
Ġ m
Ġ fa
ĠĠĠ eĠ
ĠĠĠ kaiĠfaĠ
bi ĠyouĠ
huo ĠxiĠ
zhou ĠyiĠhuiĠ
ban ĠguoĠ
jiu ĠriĠ
dang ĠshiĠrenĠ
lan ĠdiĠ
sha ĠdiĠ
1899 ĠnianĠ
1886 ĠnianĠ
ĠjiĠ nanĠ
buĠ jianĠ
buĠ juĠ
ĠheĠ jinĠ
daĠ mingĠ
daĠ xuanĠzhongĠ
fuĠ jiaoĠshouĠ
zhengĠ zhouĠ
zhengĠ baĠ
shangĠ baoĠ
jiangĠ laiĠ
haiĠ shuiĠ
jiuĠ jinĠ
lingĠ yuanĠ
luoĠ geĠ
yaoĠ qing
liuĠ lang
ĠdanĠ yuanĠ
chongĠ shenĠ
ĠciĠ xingĠ
zhongĠguoĠ keĠxueĠyuanĠ
ĠwanĠ mingĠ
ĠshuĠ ziĠ
ĠnianĠ12ĠyueĠ 30ĠriĠ
ĠshiĠzhiĠ zaiĠ
shuangĠ cengĠ
Ġxian ĠheĠ
ĠnaĠ xieĠ
ĠzhuĠyaoĠ fenĠbuĠyuĠ
yaĠzhouĠ yunĠdongĠhuiĠ
jianĠchaĠ guanĠ
wuĠrenĠ cheĠzhanĠ
saoĠ rao
shouĠluĠ leĠ
shengĠdiĠ yaĠgeĠ
canĠjia ĠguoĠ
ĠhuaĠshengĠ dunĠ
nongĠcunĠjuĠminĠ dianĠ
xinĠjiangĠweiĠwuĠerĠ ziĠzhiĠquĠ
guangĠxiĠzhuangĠ zuĠziĠzhiĠquĠ
Ġ 1962
Ġ saiĠshiĠ
ĠĠĠ 1993
ĠĠĠ saiĠshiĠ
yin ĠxiĠ
zuo ĠliĠ
dan ĠzhiĠ
du ĠsiĠ
jiu ĠguoĠ
bo ĠliĠweiĠ
fan ĠyouĠ
hao ĠyueĠ
neng ĠyiĠ
gui ĠguoĠ
pu ĠzaiĠ
chao ĠjianĠ
15 ĠrenĠ
my Ġ
Enter tain
ĠyiĠ yuanĠrenĠminĠbiĠ
ĠweiĠ yiĠdeĠ
ĠyuĠ guoĠ
qiĠ fuĠ
buĠ mingĠ
ĠheĠ zaiĠ
keĠ xingĠxingĠ
dongĠ anĠ
zuoĠ daoĠ
xiaĠ langĠdeĠshengĠ
qingĠ tingĠ
meiĠ guoĠyuĠ
guĠ lao
shanĠ junĠ
kaiĠ changĠ
ĠbingĠ keĠ
ĠjinĠ shenĠ
tingĠ yuanĠ
zhuangĠ shangĠ
huanĠ shangĠ
ĠhouĠ xuĠ
ĠshiĠjiĠ shang
ceĠ mianĠ
chuangĠ huĠ
zhiĠshiĠ fenĠziĠ
henĠ rongĠyiĠ
liĠshiĠ nianĠdaiĠweiĠ
Ġceng ĠshiĠ
zhuĠyao ĠyiĠ
ĠzhiĠyouĠ zaiĠ
keĠneng ĠzaiĠ
daĠjiĠ lvĠ
ĠzhuĠyao ĠyouĠ
keĠsiĠ luoĠfaĠkeĠ
baoĠliuĠ leĠ
anĠquan ĠxingĠ
ĠhenĠ kuaiĠ
yunĠzaiĠ huoĠjianĠ
ĠĠĠcanĠkao ĠziĠliaoĠ
A ĠjiĠ
Ġ 42
Ġ xiaĠyiĠ
Ġ muĠdiĠ
en sisĠ
hua ĠxiĠ
yan ĠshiĠdeĠ
ting ĠĠĠ
zhuan ĠerĠ
cong ĠerĠ
tuo ĠyuanĠ
chou ĠjiĠ
rus Ġ
ĠshiĠ shouĠ
ĠweiĠ gaiĠ
ĠweiĠ shenĠ
ĠzhiĠ zao
ĠyuĠ jianĠ
xiĠ aiĠ
chengĠ jiaoĠ
jingĠ huaĠ
zheĠ me
yinĠ fuĠ
xinĠ sheĠ
luĠ teĠ
meiĠ xueĠ
sheĠ jianĠ
zhouĠ bianĠdeĠ
anĠ shengĠ
kaiĠ laiĠ
kaiĠ qiangĠ
moĠ xingĠdeĠ
aiĠ naĠ
heiĠ se
Ġgai ĠrenĠ
ĠnianĠqiĠ danĠrenĠ
ĠĠĠliĠ yongĠ
niĠya ĠheĠ
duiĠwaiĠ kaiĠfangĠ
ĠshiĠxingĠdengĠweiĠ 5
ĠzhongĠwen ĠdaĠxueĠ
ĠteĠlangĠ puĠ
T ĠĠĠ
Ġ Wa
Ġ David
Ġ guoĠyuĠ
Ġ xiĠjiĠ
Ġ diaoĠchaĠ
Ġ ziĠshiĠ
ĠĠĠ 1945ĠnianĠ
xing ĠdeĠyiĠ
zi ĠĠĠ
xin ĠzaiĠ
ya ĠdiĠquĠ
hai ĠjiaĠ
bo ĠdiĠ
la ĠxiĠ
su ĠqiĠ
pai ĠdiĠ
tiao ĠzhiĠ
zan ĠyuĠ
mang ĠshenĠ
68 Ġ
78 Ġ
shouĠ chiĠ
dongĠ zhanĠ
jingĠ songĠ
baoĠ miĠ
fenĠ yuanĠ
fenĠ hangĠ
taiĠ miĠerĠ
wanĠ jiaĠdeĠ
zhouĠ daoĠ
jiuĠ shengĠ
qiuĠ zhangĠ
boĠ chu
guĠ zhuĠ
ĠbingĠ yongĠ
ĠdanĠ maiĠ
ĠbeiĠ jieĠ
ĠjianĠ duiĠ
ĠwuĠ luĠ
lvĠ se
zhaoĠ zeĠ
longĠ duanĠ
ĠzhongĠguoĠ renĠ
ĠzhongĠguoĠ keĠxueĠyuanĠ
tiaoĠ kuan
panĠ guanĠ
ĠruĠ ciĠ
louĠ mianĠ
ĠshenĠ zhiĠshiĠ
Ġgai ĠshiĠzhenĠ
ĠnianĠyiĠ qianĠ
ĠĠĠjiĠ shuĠ
Ġãĥ ª
Ġzhang ĠdaĠ
ĠzhongĠyang ĠweiĠyuanĠ
ĠgaiĠshengĠfenĠweiĠfaĠguoĠ xiĠnanĠbuĠ
fuĠjiĠ niĠyaĠ
Ġdong ĠzhiĠ
suoĠmuĠ shengĠ
wuĠyouĠqiĠ suoĠshuĠdeĠ
h ĠĠĠ
Ġ wen
Ġ kuiĠ
Ġ gongĠyouĠrenĠkouĠ
Ġ 1903ĠnianĠ
ĠĠĠ chiĠ
ĠĠĠ 1988ĠnianĠ
si ĠĠĠ
bi ĠdaĠ
zhou ĠriĠ
gao ĠyueĠ
liu ĠdaĠ
hang ĠdaoĠ
sou ĠxunĠ
ms Ġ
ĠyuĠ linĠ
ĠrenĠ caiĠ
ĠzhongĠ huaĠrenĠminĠgongĠheĠ
chengĠ gong
xiangĠ zhenĠ
beiĠ yongĠyuĠ
faĠ kuanĠ
zhengĠ tingĠ
shouĠ ceĠ
yeĠ xiangĠ
guanĠ shangĠyuĠ
duiĠ jiaoĠ
duĠ leiĠ
shenĠ lingĠ
maĠ maĠ
tuĠ shangĠ
sanĠ tiaoĠ
paiĠ shuiĠ
ĠjinĠ jinĠ
ĠziĠ shaĠ
kongĠ gu
gouĠ zao
longĠ touĠyuĠ
huangĠ diĠdeĠ
ĠshouĠ gouĠ
yanĠjiuĠ faĠxianĠ
ĠshuĠ xueĠ
ĠshiĠqiĠ taĠ
sheĠhuiĠ xueĠ
ĠnianĠ10ĠyueĠ 10ĠriĠ
ĠnianĠ5ĠyueĠ 15ĠriĠ
geĠyueĠ neiĠ
ĠĠĠjuĠ leĠbuĠ
Ġe ĠerĠ
Ġhong ĠzhiĠ
anĠdaĠ lve
luĠyiĠsiĠ anĠnaĠ
guiĠzhouĠ shengĠ
wenĠgeĠ huaĠ
riĠerĠ manĠ
7 ĠyueĠzhiĠ
Ġ queĠdingĠ
Ġ xiĠzhiĠ
ĠĠĠ haoĠ
jian ĠliĠyiĠ
ba ĠyuĠ
liu ĠyouĠ
fan ĠguoĠ
lun ĠbeiĠ
zhao ĠjianĠ
12 ĠshiĠ
nie ĠshengĠ
pen ĠfaĠ
58 Ġ
ĠyiĠ ranĠ
Ġli ĠyiĠjiĠ
ĠyouĠ jiaĠ
ĠzaiĠ qingĠ
xiĠ suĠ
wuĠ chaĠ
shouĠ suoĠ
zhanĠ shangĠ
yeĠ quĠ
zuoĠ ye
wenĠ mingĠdeĠ
fenĠ lan
qianĠ zheĠ
nanĠ huaĠ
minĠ zhengĠfuĠ
huĠ xianĠ
ĠdanĠ niĠerĠ
ĠbeiĠ buĠdeĠcunĠzhuangĠ
ĠshiĠyiĠ tiaoĠ
ĠgeĠ guoĠjiaĠ
aoĠ tuoĠ
aĠ dengĠ
hangĠ haiĠ
zhongĠdeĠ zhiĠ
meiĠyouĠ zaiĠ
ĠliangĠ renĠyuĠ
ĠnianĠ9ĠyueĠ 28ĠriĠ
siĠdeĠ geĠerĠ
ĠnianĠ4ĠyueĠ 30ĠriĠ
ĠnianĠzaiĠ ciĠ
ĠĠĠciĠ houĠ
Ġsi ĠrenĠ
Ġe ĠguoĠ
ĠĠĠzhongĠguoĠ daĠluĠ
ĠĠĠ2025 ĠnianĠ
ĠÑ ģ
yinĠdiĠanĠnaĠ zhouĠ
7 000
Ġ daoĠdeĠ
Ġ xiĠyuĠ
ji ĠdeĠshiĠ
ĠĠĠ 1980
ĠĠĠ aĠerĠ
si ĠshiĠdeĠ
fang ĠguoĠ
yan ĠdiĠ
pi ĠzhiĠ
la ĠbuĠ
yang ĠweiĠ
tu ĠbuĠ
yun ĠzhiĠ
ze ĠbuĠ
neng ĠjiĠ
chuan ĠxiĠ
chi ĠweiĠ
tan ĠzhongĠ
07 Ġ
1871 ĠnianĠ
ĠyiĠ duiĠ
daĠ nao
keĠ kaoĠ
xianĠ cunĠ
ĠqiĠ tiĠ
ĠqiĠ suĠ
tongĠ shuĠ
tongĠ zhiĠshiĠqiĠ
fenĠ lei
ĠsiĠ kaĠ
huoĠ yaoĠ
biĠ mingĠ
meiĠ huaĠ
meiĠ youĠjiĠ
sheĠ quĠdeĠ
gaoĠ chaoĠ
kaiĠ chuangĠ
ĠbingĠ sheĠyouĠ
guiĠ hua
zeĠ chengĠ
lvĠ guanĠ
douĠ laĠ
ĠmingĠ lingĠ
chuangĠ banĠdeĠ
ĠmuĠ banĠ
danĠrenĠ guoĠ
miaoĠ shuĠdeĠ
ĠnianĠ8ĠyueĠ 15ĠriĠ
fangĠshiĠ laiĠ
jianĠzhuĠ mianĠjiĠ
Ġjiang ĠshiĠ
ĠĠĠA ward
xinĠwenĠ faĠbuĠ
ĠweiĠzhuĠ tiĠdeĠ
Ġwu ĠweiĠ
shuaiĠ tuiĠ
Ġqiong ĠsiĠ
nuoĠmanĠdiĠ daĠquĠ
4 ĠciĠ
K ĠĠĠ
a ĠweiĠ
Ġ ar
Ġ 1930
Ġ dĠ
qu ĠyueĠ
mei ĠxiĠ
chang ĠyiĠjiĠ
qing ĠdiĠ
qing ĠdaĠ
ben ĠjiaĠ
pai ĠdaoĠ
guang ĠyuĠ
ceng ĠyinĠ
10 ĠyueĠzhiĠ
sen ĠzaiĠ
23 ĠrenĠ
In stagram
Windows ĠĠĠ
1885 ĠnianĠ
ĠdeĠ chengĠyuanĠ
ĠyiĠ guĠ
buĠ jinĠ
ĠzaiĠ faĠ
keĠ zuoĠ
chengĠ yinĠ
zhuĠ shuĠ
xiangĠ shangĠ
xiangĠ linĠdeĠ
daoĠ suĠ
beiĠ yangĠ
ĠerĠ bu
ĠerĠ lingĠyiĠ
jingĠ xinĠ
leĠ taĠmenĠ
fangĠ baoĠ
huaĠ xuĠ
yeĠ nengĠ
changĠ chunĠ
dianĠ dengĠ
danĠ xiaĠ
ĠkeĠ yiĠdeĠdaoĠ
ĠjiaĠ banĠ
liangĠ taiĠ
shenĠ touĠ
sheĠ shouĠ
sheĠ yingĠshiĠ
suoĠ yinĠ
ĠxiangĠ jiaoĠ
ĠbaoĠ zhangĠ
liĠ kaiĠ
zhaoĠ biaoĠ
ĠnianĠ6ĠyueĠ 28ĠriĠ
jiangĠjunĠ xianĠ
buĠfen ĠdiĠquĠ
xuanĠzeĠ leĠ
Ġ28 Ġ
ĠaiĠerĠ lanĠ
Ġ 87
Ġ 250
Ġ foĠjiaoĠ
Ġ rengĠranĠ
Ġ 1918ĠnianĠ
he ĠshiĠjianĠ
jie ĠweiĠshengĠ
zhan ĠzhiĠjianĠ
ding ĠdiĠquĠ
che ĠjiĠ
neng ĠheĠ
zhuang ĠyuĠ
hong ĠshiĠ
kan ĠchengĠ
16 ĠshiĠjiĠ
17 ĠshiĠjiĠ
zhui ĠbuĠ
nu ĠdeĠ
luan ĠdeĠ
66 Ġ
der ĠĠĠ
ĠzaiĠ tianĠ
fuĠ yangĠ
jieĠ shengĠ
beiĠ pan
ĠdiĠ san
yingĠ guo
luĠ biĠ
jiangĠ wuĠ
dianĠ puĠ
danĠ renĠzhiĠ
ĠxingĠ geĠ
wanĠ saiĠ
zongĠ canĠmouĠbuĠ
sanĠ leiĠ
ĠjinĠ rongĠ
tingĠ zhengĠ
Ġyin ĠshiĠ
erĠshiĠ erĠ
ĠnianĠ9ĠyueĠ 30ĠriĠ
ĠlianĠ bang
minĠzhuĠ paiĠ
ĠzuiĠzhongĠ huanĠxiangĠ
ĠnianĠshiĠ erĠyueĠ
buĠyiĠ dingĠ
ĠliĠkeĠ siĠ
Ġsan ĠrenĠ
miĠerĠ dunĠ
ĠĠĠcheĠzhanĠ zhouĠbianĠ
maĠqiĠ dunĠ
Ġ dao
Ġ hui
Ġ touĠbuĠ
Ġ 1921ĠnianĠ
ĠĠĠ taĠmenĠ
you ĠliĠyuĠ
jie ĠĠĠ
gu ĠxiĠ
luo ĠbuĠ
xu ĠerĠ
han ĠdaĠxueĠ
gan ĠsiĠkeĠ
kang ĠshengĠ
nie ĠfuĠleiĠ
ris Ġ
ĠshiĠ huiĠ
ĠdeĠ xingĠshiĠ
qiĠ youĠ
diĠ guoĠdeĠ
ĠzaiĠ baĠ
daĠ menĠ
beiĠ xingĠ
shouĠ dongĠ
shouĠ junĠ
xueĠ zhe
yingĠ guanĠ
yinĠ xianĠ
changĠ geĠ
luĠ senĠbaoĠ
pingĠ muĠ
muĠ qianĠdeĠ
teĠ lvĠ
dangĠ zhuĠxiĠ
kaiĠ huiĠ
gangĠ gangĠ
ĠgeĠ daĠ
keĠyiĠ yiĠ
liaoĠ yangĠ
peiĠ daiĠ
dianĠshiĠ pinĠdaoĠ
erĠshiĠ baĠnianĠ
shuĠjuĠ kuĠ
shengĠliĠ houĠ
chaoĠxianĠ banĠdaoĠ
gongĠyeĠ quĠ
shengĠweiĠ changĠweiĠ
tieĠdaoĠ bingĠ
ĠtuoĠ maĠsiĠ
ĠĠĠxiaĠ xiaĠ
Ġhan ĠyuĠ
sanĠjiaĠ diĠ
kongĠjun ĠjiĠdiĠ
Ġ 77
Ġ leiĠdeĠ
Ġ tuĠerĠ
Ġ rengĠran
Ġ jingĠyouĠ
ji ĠshiĠqiĠ
ĠĠĠ bu
ĠĠĠ Bi
ĠĠĠ 1992ĠnianĠ
wu ĠrenĠheĠ
mi ĠzhiĠ
mi ĠkeĠ
jing ĠyueĠ
zhen ĠyouĠ
sai ĠkeĠ
chuan ĠweiĠ
dun ĠshiĠ
kuai ĠdiĠ
teng ĠyuanĠ
ga ĠmaĠ
per Ġ
rt Ġ
ĠshiĠ meiĠguo
ĠyiĠ xiaĠweiĠ
ĠyuĠ yuanĠ
gongĠ buĠweiĠ
jinĠ eĠ
juĠ baoĠ
zhengĠ zhanĠ
mingĠ zhuĠ
huaĠ ziĠ
yeĠ siĠ
xinĠ pianĠ
qianĠ biĠ
dianĠ rongĠ
zhangĠ jingĠ
qiuĠ duiĠzaiĠ
tianĠ tang
fanĠ weiĠdeĠ
huĠ kouĠ
fengĠ chenĠ
chuanĠ zheĠ
ĠbeiĠ hanĠ
ĠshiĠyiĠ nian
guiĠ dingĠdeĠ
1Ġ zuoĠ
tanĠ ce
ĠshiĠweiĠ fuĠshuĠjiĠ
qinĠ lveĠ
tuoĠ niĠ
yanĠjiuĠ biaoĠmingĠ
ĠchangĠ jiangĠ
ĠzheĠshiĠ taĠ
meiĠtiĠ baoĠdaoĠ
ĠyuĠqiĠ ta
bianĠhuaĠ tuĠ
jiaĠyiĠ xianĠ
teĠbie ĠshiĠ
Ġdai ĠweiĠsiĠ
xiĠzangĠ ziĠzhiĠquĠ
5 ĠliĠ
I R
Ġ ziĠweiĠ
Ġ taiĠzhongĠ
ĠĠĠ b
ĠĠĠ Ni
ĠĠĠ Pi
ĠĠĠ naĠ
zhu ĠyiĠzhiĠ
luo ĠjiaĠ
zhuang ĠxianĠ
tou ĠxiĠ
zhao ĠchuĠ
pan ĠyuĠ
ff Ġ
sti tu
RS Ġ
ĠshiĠ zongĠ
ĠjiĠ miĠ
ĠzhiĠ zuo
ĠyuĠ zhongĠguoĠ
youĠ xiĠdeĠ
ĠrenĠ shengĠ
yuanĠ langĠ
jianĠ duiĠdeĠ
chengĠ zanĠ
zhuĠ jiaoĠweiĠ
xianĠ zhuangĠ
ziĠ siĠ
shuĠ xiaĠ
quĠ neiĠdeĠ
fangĠ song
baoĠ feiĠ
ĠdaĠ jinĠ
jiaoĠ zhuĠ
qianĠ shenĠshiĠ
gaiĠ juĠ
zuĠ jianĠdeĠ
jiuĠ jiangĠ
anĠ beiĠ
puĠ linĠ
qiangĠ shangĠ
reĠ lieĠ
ĠzhanĠ zongĠrenĠkouĠdeĠ
nuoĠ manĠ
ĠguĠ mingĠ
ĠyunĠ shuĠ
ĠzhuanĠ yeĠ
gaiĠbianĠ chengĠ
ĠguoĠminĠ geĠmingĠ
yinĠdiĠ anĠ
Ġ Har
Ġ Je
an ĠyouĠ
ĠĠĠ guoĠjiaĠ
ĠĠĠ taiĠwan
hu ĠxingĠ
jian ĠdeĠyiĠ
duo ĠliĠya
san ĠdiĠ
feng ĠsiĠ
chuan ĠheĠ
ting ĠweiĠ
duan ĠheĠ
cong ĠdiĠ
ce ĠyouĠ
xun ĠheĠ
long ĠrenĠ
wo ĠshiĠ
50 ĠwanĠ
MA X
sso ci
ĠyuĠ meiĠguoĠ
ĠyuĠ riĠbenĠ
erĠ ciĠ
ĠguoĠ huiĠyiĠyuanĠ
jieĠ chengĠ
ziĠ chan
shouĠ lunĠ
mingĠ wenĠ
shangĠ xueĠyuanĠ
yanĠ qingĠ
baoĠ zhuĠ
huaĠ lianĠ
zuoĠ weiĠyiĠgeĠ
duiĠ jueĠ
junĠ zhengĠfuĠ
haiĠ muĠ
banĠ qianĠ
yaĠ shuĠ
yaĠ naĠ
baĠ jieĠ
fengĠ yunĠ
ĠziĠ benĠ
puĠ lu
ĠxianĠ houĠzaiĠ
ĠxianĠ xiaoĠliĠyuĠ
ĠjuĠ beiĠ
ĠdeĠshiĠ weiĠ
Ġtong ĠnianĠ6ĠyueĠ
hangĠ tian
ĠzuiĠ houĠdeĠ
ĠshiĠyouĠ renĠkouĠ
ĠjiuĠ longĠ
ĠchangĠ biĠsaiĠ
kongĠzhiĠ quanĠ
Ġba ĠjiĠsiĠ
ĠweiĠfuĠ teĠ
ĠtaĠmen ĠyiĠ
ĠyuĠshiĠ zaiĠ
zongĠjiaoĠ lianĠ
biaoĠzhunĠ huaĠ
gaiĠdiĠ quĠdeĠ
jieĠfangĠ jun
ĠĠĠsuiĠ houĠ
ĠbuĠfen ĠdiĠquĠ
ĠĠĠshiĠyongĠ zhuangĠkuangĠ
henĠkuaiĠ jiuĠ
ĠweiĠfuĠqiĠyuĠgang ĠnianĠ
xingĠdong ĠzhongĠ
ĠfenĠbuĠzaiĠ zhongĠguoĠdaĠluĠdeĠ
youĠshiĠyiĠ laiĠ
¸ Ġ
Ġ NA
Ġ 1933
Ġ renĠdeĠ
Ġ yuanĠzhiĠ
ĠĠĠ to
qi ĠshiĠyiĠ
hu ĠzhongĠ
bi Ġli
le ĠyiĠweiĠ
gai ĠyuĠ
zao ĠjiaĠ
wa ĠheĠ
wa ĠerĠdeĠ
niu ĠxiĠlanĠ
sang ĠdeĠ
shua ĠxinĠ
81 ĠnianĠ
dy Ġ
ner Ġ
ĠyiĠ lanĠ
youĠ huaĠ
qiĠ guanĠ
ĠzaiĠ benĠ
ĠzaiĠ 20ĠshiĠjiĠ
daĠ lianĠ
fuĠ baiĠ
huiĠ chengĠ
ĠxiĠ beiĠbuĠ
zhanĠ leĠ
changĠ yongĠdeĠ
luĠ jiaĠ
luĠ tianĠ
huoĠ yanĠ
qingĠ tongĠ
yaĠ yunĠ
yaĠ zuĠlianĠ
lianĠ shouĠ
anĠ quanĠbuĠ
boĠ lanĠdeĠ
zuiĠ zhongĠdeĠ
baĠ xianĠ
ĠbingĠ ziĠ
sanĠ yuanĠ
ĠjianĠ cha
1Ġ ciĠ
ĠshiĠweiĠ zhiĠ
ĠnianĠ1ĠyueĠ 15ĠriĠ
ĠdangĠ wanĠ
zuĠqiuĠ yuanĠ
ĠchangĠ pian
jiaĠzhiĠ guanĠ
juĠminĠ quĠ
kangĠyiĠ huoĠdongĠ
xiangĠhuĠ zuoĠyongĠ
chuangĠzaoĠ leĠ
gongĠneng ĠdeĠ
haĠsaĠkeĠsiĠ tanĠ
Ġ Ste
Ġ zhengĠyiĠ
Ġ biĠliĠ
fang ĠliĠ
yang ĠzaiĠ
chi ĠshiĠ
guang ĠzhiĠ
kong ĠziĠ
qiang ĠshiĠ
pei ĠjianĠ
chuang ĠweiĠ
tao ĠzhiĠ
suan ĠheĠ
1920 ĠnianĠdaiĠ
AN Ġ
1880 ĠnianĠ
weiĠ xiĠ
erĠ jiaĠ
jieĠ zhuangĠ
keĠ yuanĠ
beiĠ feiĠ
ĠqiĠ geĠ
ĠqiĠ houĠzaiĠ
zhengĠ jieĠ
houĠ yuanĠ
shouĠ biĠ
tongĠ xin
zuoĠ chuĠdeĠ
guanĠ fuĠ
nanĠ jingĠshiĠ
yaĠ taiĠ
xuĠ zhouĠ
shanĠ zhenĠ
kaiĠ wangĠ
leiĠ shengĠ
sanĠ taiĠ
ĠgongĠ chiĠdeĠ
ĠjieĠ ciĠ
zhuanĠ zhanĠ
zhuanĠ xieĠdeĠ
chongĠ dieĠ
cengĠ jing
manĠ zhouĠguoĠ
ĠshiĠjieĠ geĠdiĠ
ĠwanĠ shangĠ
ĠmuĠ qinĠshiĠ
waĠ niĠ
Ġjie ĠyouĠ
ĠriĠbenĠ zhengĠfuĠ
xuanĠze ĠdeĠ
duanĠshiĠjianĠ neiĠ
shenĠshengĠ luoĠmaĠdiĠguoĠ
0ĠbiĠ 2Ġ
ï¸ °
bianĠhuaĠtuĠ shi
Ġ William
Ġ feiĠxingĠ
quan ĠliĠjiĠ
men ĠyiĠ
nei ĠliĠ
ting ĠliĠ
10 ĠfenĠ
dou ĠshiĠzaiĠ
zhuo ĠyueĠ
85 Ġ
ĠyuĠ 2008
ĠyuĠ wangĠ
Ġli ĠdeĠyiĠ
renĠ keĠ
buĠ jiaĠ
yuanĠ jingĠ
yuanĠ suĠdeĠ
gongĠ muĠ
xiangĠ xianĠ
chuĠ chuĠzhangĠ
ĠxiĠ luĠ
shouĠ daoĠdeĠ
tongĠ dengĠ
yinĠ bingĠ
duiĠ beiĠ
qianĠ daiĠ
yongĠ kangĠ
gaiĠ dongĠ
ĠfuĠ chuĠ
xuĠ yaoĠdeĠ
boĠ ciĠ
dengĠ diĠdeĠ
shanĠ touĠ
feiĠ wuĠzhiĠ
chuanĠ liuĠ
tingĠ tingĠzhangĠ
ĠbaoĠ shouĠ
touĠ faĠ
huanĠ zhuangĠ
cengĠ jingĠshiĠ
aiĠ meiĠ
ĠdeĠzhiĠ weiĠ
youĠyiĠ dingĠdeĠ
henĠ xiaoĠ
saĠ haĠ
ĠnianĠ12ĠyueĠ 25ĠriĠ
miaoĠ shu
ĠluoĠ ma
siĠshiĠ erĠnianĠ
Ġa ĠgeĠ
ĠlaiĠ ang
taĠmen ĠshiĠ
Ġke ĠzaiĠ
ceĠshiĠ yueĠtaiĠ
Ġcha ĠliĠ
tongĠmengĠ huiĠ
ĠdaĠbuĠfen ĠdeĠ
leiĠsu ĠyiĠgeĠ
8 000
Ġ lun
Ġ heĠshiĠ
Ġ tingĠzhiĠ
Ġ chongĠjianĠ
ĠĠĠ 1984ĠnianĠ
xin ĠdaĠ
xia ĠyiĠyuanĠ
mu ĠzhiĠliĠ
gai ĠerĠ
zhang ĠĠĠ
bo ĠdaĠ
men ĠzhiĠ
cun ĠrenĠ
sha ĠbeiĠ
man ĠrenĠ
hong ĠwuĠ
kuang ĠshiĠ
13 00
bin ĠchengĠ
zou ĠshiĠ
th o
seng ĠlvĠ
72 Ġ
ĠyuĠ wuĠ
diĠ jiuĠ
xingĠ dongĠdeĠ
gongĠ zhenĠ
chengĠ baĠ
zhuĠ xi
daoĠ juĠ
chuĠ ciĠ
ĠerĠ jiangĠ
shangĠ beiĠ
leĠ shuĠ
baoĠ faĠdeĠ
changĠ qiĠyiĠ
jiaoĠ diĠdeĠ
luĠ kaĠ
zhangĠ huaĠ
muĠ biaoĠdeĠ
meiĠ miaoĠ
sheĠ beiĠdeĠ
zhouĠ beiĠ
shanĠ jianĠ
feiĠ wangĠ
zongĠ chengĠ
zongĠ jiaoĠdeĠ
leiĠ si
ĠgongĠ huiĠ
zhuanĠ yunĠ
keĠyiĠ yuĠ
ĠshengĠ taiĠ
ĠshiĠshiĠ zhiĠ
zhongĠdeĠ jiĠ
ĠdeĠjiĠ zhiĠ
wuĠkeĠ lanĠxiĠ
ĠdangĠshiĠ taĠ
ĠsheĠ quĠ
ĠzhouĠ kanĠ
ĠyouĠqiĠ tuĠxingĠ
Ġduo ĠweiĠ
ĠnianĠjiĠ nianĠ
ĠÐ º
ĠdeĠzhiĠchiĠ xiaĠ
wangĠqiuĠ yunĠdongĠyuanĠ
ĠguangĠdongĠ shengĠ
Ġ con
Ġ CN
Ġ juĠrenĠ
Ġ xiĠweiĠ
ao ĠweiĠ
ou ĠjiĠ
ĠĠĠ gongĠluĠ
ãĢ ľ
mi ĠxiĠ
ju ĠjiĠtuanĠ
yan ĠerĠ
zhang ĠyiĠzhiĠ
dai ĠrenĠ
quan ĠyouĠ
ni ĠkeĠsiĠ
gui ĠrenĠ
tuan ĠyouĠxianĠgongĠsiĠ
dun ĠzaiĠ
sun ĠdeĠ
st ro
06 Ġ
ĠyuĠ 2025
ĠyuĠ taĠ
qiĠ faĠ
ĠzaiĠ erĠ
fuĠ leiĠ
jiaĠ yuanĠ
ĠqiĠ ciĠ
houĠ jinĠ
xueĠ yuanĠheĠ
tongĠ guo
changĠ huiĠ
changĠ ciĠ
luĠ luĠ
qianĠ wuĠ
duĠ liangĠ
duĠ boĠ
haiĠ mianĠ
zuĠ zhiĠyiĠ
dengĠ fangĠmianĠ
huĠ zuĠzhiĠ
yunĠ yingĠdeĠ
dangĠ tuanĠ
sanĠ dengĠ
waiĠ guoĠyuĠ
paiĠ yuanĠ
ĠgongĠ jiaoĠ
puĠ luĠ
ĠjuĠ zhuĠ
Ġta ĠliĠ
duanĠ luoĠ
douĠ jiangĠ
tieĠ daoĠdeĠ
jiĠdeĠ jiĠ
ĠxiaoĠ xueĠ
ĠquanĠ taiĠ
ĠzongĠ gongĠ
ĠsuĠ geĠlanĠ
ĠpuĠ tongĠ
ĠxuanĠ chuanĠ
gaoĠsuĠ gongĠ
ĠneiĠ mengĠguĠ
ĠwaiĠ jiaoĠbuĠ
gongĠbuĠ leĠ
quĠdaiĠ leĠ
quĠxiaoĠ leĠ
ĠluoĠmaĠ niĠyaĠ
gongĠanĠ juĠ
ĠaĠlaĠ boĠ
zaoĠchuanĠ changĠ
5 ĠhaoĠmiĠ
Ġ x
Ġ ren
Ġ Ru
Ġ San
Ġ 1905ĠnianĠ
ai ĠdaoĠ
ĠĠĠ da
ĠĠĠ 20
you ĠshiĠyongĠ
xian ĠyouĠxiĠ
xian ĠdeĠyiĠge
liang ĠyouĠ
deng ĠtaĠ
zao ĠyinĠ
dou ĠshiĠyiĠ
ran ĠdeĠ
zhui ĠjiaĠ
fi rst
Ph one
1887 ĠnianĠ
Tho mas
ĠshiĠ duiĠ
ĠyiĠ geĠrenĠ
ĠweiĠ jinĠ
ĠzhiĠ renĠ
ĠliĠ xiaoĠ
ĠzaiĠ jinĠxingĠ
daoĠ laiĠ
shangĠ chengĠ
yanĠ chengĠ
zhanĠ neiĠ
yingĠ xingĠ
ĠdaĠ yeĠ
yinĠ cang
qianĠ xingĠ
taiĠ lang
jiangĠ jieĠshiĠ
dianĠ dongĠjiĠ
daiĠ kuan
qingĠ guiĠ
shanĠ zhuangĠ
chiĠ duĠ
puĠ sen
lunĠ dianĠ
suiĠ houĠdeĠ
touĠ shenĠ
mengĠ lieĠ
ĠfaĠ dongĠjiĠ
zhengĠfuĠ zuĠzhiĠ
ĠmiĠ miĠ
ĠhaiĠ waiĠ
leĠyiĠ mingĠ
ĠliangĠ mingĠ
Ġjin ĠyiĠ
fangĠfaĠ yuanĠ
wenĠhua ĠzhongĠxinĠ
ĠfenĠbuĠyuĠ xiĠ
ĠbiaoĠ mianĠ
Ġ gun
Ġ guoĠshiĠ
Ġ chiĠxuĠ
Ġ gaoĠjiĠ
ĠĠĠ Cha
ci ĠzhiĠhouĠ
gu ĠyouĠ
lu ĠrenĠ
ru ĠzhongĠguoĠ
zu ĠyouĠ
bo ĠzaiĠ
gao ĠerĠ
ma ĠĠĠ
mo ĠriĠ
wa ĠdiĠ
86 Ġ
MA Ġ
lle Ġ
1883 ĠnianĠ
ĠshiĠ fengĠ
ĠdeĠ guĠshiĠ
renĠ kouĠweiĠ
daĠ zaoĠ
jiaĠ miĠ
ĠbuĠ dongĠ
keĠ muĠ
zhuĠ yinĠ
faĠ wangĠ
faĠ shengĠshiĠ
jinĠ yuanĠ
shuĠ shengĠ
zhengĠ bingĠ
houĠ bianĠ
baoĠ gaoĠzhongĠ
guanĠ chuanĠ
changĠ fuĠ
tiĠ gongĠyiĠ
zhangĠ zhouĠ
yongĠ faĠ
ĠjiaĠ shang
banĠ kuai
meiĠ lingĠ
shenĠ chuanĠ
shenĠ miaoĠ
ĠxingĠ cheĠ
qiuĠ duiĠyiĠ
ĠtaĠ baĠ
tianĠ yuanĠ
shanĠ xiangĠ
neiĠ xinĠ
puĠ bianĠdeĠ
hongĠ seĠdeĠ
tuiĠ guanĠ
sheĠjiĠ heĠ
ĠnianĠ1ĠyueĠ 10ĠriĠ
ĠqingĠ daiĠ
ĠnianĠ3ĠyueĠ 18ĠriĠ
ĠnianĠ4ĠyueĠ 28ĠriĠ
pingĠfangĠ miĠ
pengĠ zhuangĠ
ĠĠĠM Ġ
ĠheĠerĠ siĠ
ĠwanĠliĠ fangĠmiĠ
zhuĠzhai ĠquĠ
zuĠzongĠ beiĠ
aĠsaiĠbaiĠ jiangĠ
G DP
Ġ weiĠdeĠ
Ġ shuĠweiĠ
Ġ tuĠzhongĠ
Ġ 1919ĠnianĠ
ĠĠĠ xingĠzhiĠ
ta ĠdeĠyiĠ
ci ĠliĠ
guan ĠrenĠ
mei ĠzhiĠ
duo ĠdiĠ
qin ĠweiĠ
ha ĠmiĠ
30 ĠmiĠ
hun ĠhouĠ
28 ĠrenĠ
ruo ĠwangĠ
50 ĠnianĠdaiĠ
tt Ġ
ĠshiĠ jiuĠ
ĠyiĠ jiuĠ
ĠyiĠ hanĠ
Ġnian ĠshiĠjianĠ
ĠyouĠ xiĠzhongĠ
daĠ faĠguanĠ
xiĠ shuĠ
jieĠ zou
ziĠ dongĠhuaĠ
quĠ gunĠqiuĠ
xueĠ ruoĠ
zhanĠ dianĠ
zuoĠ haoĠ
ĠdaĠ kaiĠ
changĠ fangĠ
duiĠ shangĠ
qianĠ sanĠ
duĠ fuĠ
wangĠ xingĠ
yaĠ pianĠ
bianĠ fangĠ
quanĠ minĠ
liuĠ junĠ
baĠ erĠdeĠ
tuĠ kuĠ
tingĠ chanĠ
chanĠ quanĠ
ĠwuĠ lunĠshiĠ
chongĠ ciĠ
congĠ mingĠ
ĠshengĠ chan
peiĠ shenĠ
ĠdeĠjiĠ chengĠ
ĠdeĠguoĠ wangĠ
canĠjiaĠ gongĠzuoĠ
beiĠbuĠ shengĠ
senĠ teĠ
Ġxian ĠyuĠ
ĠtaĠdeĠ fuĠqin
Ġsuo ĠweiĠ
ĠkaiĠ sheĠ
Ġming ĠshiĠbingĠ
changĠwu ĠweiĠyuanĠ
zhengĠzhiĠbuĠ zhuĠrenĠ
saiĠtingĠ yunĠdongĠyuanĠ
3 ĠweiĠ
e ĠwuĠ
Ġ Ed
ou ĠdaĠ
ĠĠĠ xianĠzaiĠ
he ĠjiĠshuĠ
xing ĠshiĠshiĠ
jun ĠshiĠweiĠyuanĠhuiĠ
dang ĠshiĠshiĠ
tu ĠjiaĠ
se dĠĠĠ
tiao ĠweiĠ
shun ĠtianĠfuĠ
lus Ġ
Char les
School Ġ
ĠjiĠ jianĠ
zhongĠ xinĠdeĠ
ĠzaiĠ xiaĠ
jianĠ kongĠ
ĠguoĠ heĠ
jieĠ huoĠ
keĠ linĠ
baoĠ chouĠ
dianĠ baoĠ
duĠ yinĠ
xuĠ qiu
suoĠ zuĠchengĠ
tianĠ jin
ĠbingĠ huoĠ
laĠ ziĠ
sanĠ fenĠ
ĠjianĠ danĠ
ĠshiĠyiĠ zuo
moĠ fanĠ
ĠchuĠ feiĠ
ĠjieĠ duanĠ
zhuangĠ tai
touĠ ziĠjiĠ
ĠweiĠyuĠ weiĠ
diĠyiĠ zhongĠ
aiĠ dingĠbaoĠ
faĠguoĠ pingĠjunĠshuiĠpingĠ
panĠ dingĠ
ĠxiaĠ lingĠ
daiĠbiaoĠ xingĠdeĠ
ĠbiĠ ru
ĠguĠ quanĠ
ziĠzhiĠ qu
ĠĠĠdiĠ siĠ
lianĠbangĠ zhongĠyiĠyuanĠ
aoĠsiĠ manĠdiĠguoĠ
ĠbeiĠqiĠ yingĠjiĠ
Ġhuang ĠjinĠ
mieĠ jueĠdeĠ
ĠÐ »
Ġao ĠdeĠ
ĠweiĠfuĠqiĠyuĠgang ĠliĠ
fuĠjiaĠ saiĠ
1 ĠdeĠ
³ Ġ
Ġ jiaĠjiĠ
Ġ gouĠchengĠ
ĠĠĠ Love
ĠĠĠ daoĠleĠ
zhong ĠzhiĠyouĠ
le ĠdiĠerĠ
ye ĠshiĠdeĠ
la ĠzaiĠ
deng ĠjiĠweiĠ
zhen ĠrenĠkouĠ
kou ĠheĠ
ceng ĠxiangĠ
se ĠweiĠ
chan ĠdiĠ
po ĠweiĠ
17 ĠrenĠ
pen ĠsheĠ
95 Ġ
ĠyiĠ qieĠ
ĠnianĠ junĠ
ĠliĠ fangĠmiĠ
yuanĠ banĠ
ĠbuĠ fenĠdeĠ
ĠqiĠ zhuĠyaoĠ
ĠxiĠ fuĠ
zheĠ zhiĠyiĠ
guanĠ xingĠ
qianĠ yuanĠ
bingĠ chengĠweiĠ
ĠkeĠ qianĠwangĠ
nanĠ nv
shenĠ naiĠchuanĠ
quanĠ shenĠ
suoĠ chengĠ
tianĠ yeĠ
fanĠ qieĠ
sanĠ ziĠ
ĠdanĠ duiĠ
ĠjianĠ jieĠ
ĠshiĠyiĠ shuĠ
moĠ tian
moĠ ca
ĠyiĠjiĠ nianĠ
seĠ lieĠdeĠ
Ġdan ĠshiĠjiĠshangĠ
zhengĠfuĠ buĠ
hangĠ zhouĠshiĠ
ĠshangĠ mianĠ
panĠ junĠ
ĠhuiĠ guiĠ
buĠshiĠ langĠ
ĠjiuĠ duĠ
ĠquanĠ mianĠ
dongĠwuĠ yuanĠ
ĠranĠ er
Ġwo ĠshiĠ
ĠhuoĠdeĠ nanĠziĠ
Ġbi ĠerĠ
shengĠhuo ĠzhongĠ
haĠfuĠ daĠxueĠ
ĠshiĠluoĠmaĠ niĠyaĠdeĠ
Ġ 43
Ġ AC
Ġ biaoĠdaĠ
ĠĠĠ pro
mi ĠqiĠ
mei ĠnianĠdeĠ
lu ĠdaĠxueĠ
yong ĠdeĠshiĠ
she ĠzhongĠ
suo ĠsiĠ
men ĠjiĠ
su ĠliĠshiĠ
xun ĠyuĠ
xiong ĠdeĠ
nuo ĠerĠ
huai ĠdeĠ
ER Ġ
PC Ġ
tor Ġ
Eu ro
ĠshiĠ xiongĠyaĠliĠ
ĠdeĠ zhuĠyaoĠ
ĠzhiĠ gongĠ
ĠzhiĠ mingĠdeĠ
ĠliĠ erĠ
ĠzaiĠ zheĠxieĠ
daĠ tingĠ
wuĠ huiĠ
zhuĠ yiĠshiĠ
shengĠ yuĠdeĠ
xiangĠ shuĠ
xianĠ daiĠdeĠ
ĠqiĠ xuan
chuĠ yuanĠ
dongĠ xueĠ
taĠ keĠ
wenĠ xue
qianĠ lieĠ
pingĠ xuanĠ
duĠ pinĠ
ĠfuĠ laĠ
teĠ zhengĠdeĠ
fanĠ leĠ
ĠbeiĠ linĠ
baiĠ laoĠhuiĠ
ĠzheĠ duiĠ
ĠzhuĠ banĠ
moĠ biaoĠbenĠ
xunĠ hangĠ
eĠ leiĠ
diĠyiĠ shuĠjiĠ
chaoĠ shengĠ
ĠshiĠjianĠ houĠ
youĠyiĠ xie
zengĠ sunĠ
ĠzhanĠ lingĠ
beiĠjingĠ xiaĠ
zhengĠfu ĠjiĠ
Ġru ĠheĠ
ĠweiĠyuĠfaĠguoĠ nuoĠmanĠdiĠdaĠquĠ
ĠxiĠnanĠ jieĠ
ĠĠĠli ĠrenĠ
ĠĠĠJ Ġ
suanĠjianĠ ce
buĠdeĠyiĠgeĠ xianĠ
jiaĠlaiĠ haiĠxiaĠ
Ġ r
Ġ co
Ġ 51
Ġ Cha
Ġ New
Ġ yangĠshiĠ
ĠĠĠ an
sheng ĠshiĠqiĠ
ming ĠbuĠ
ye ĠjiĠshuĠ
xuan ĠdiĠ
hao ĠzhongĠ
jue ĠheĠ
chao ĠxiangĠ
ran ĠqiĠ
xun ĠzaiĠ
tiao ĠwuĠ
suan ĠxingĠ
[...]
