#version: 0.2
n Ġ
n g
ng Ġ
h Ã
Ã ł
¬ Ġ
i Ġ
Ä ģ
u Ã
Ġ y
Ä «
Ġ z
Ġ d
Ġ s
Ç İ
Ã ¡
Ã ¨
Ã ¬Ġ
Ã Ń
Ã ¹
Ġ Ġ
Ã ©
Ġ j
Ç Ĳ
Å į
Ġ l
Ġ x
i Ãł
Ä ĵ
Ã¡ nĠ
hÃ ¬Ġ
Ġ g
Ä Ľ
Ġ b
Ç Ķ
Ġ c
Ã º
Äģ nĠ
Ãł iĠ
Å «
Åį ngĠ
Ç Ĵ
Ġz h
Ġ t
ã Ģ
Ġ n
Ġ w
Ã¨ iĠ
i Ã¡nĠ
hÃ ©
Ġ m
Ġ q
iÃł nĠ
z h
Äģ ngĠ
ÃŃ ngĠ
Ġ f
d e
Ã ¬
Ġ r
Çİ nĠ
Ġd e
Ġs h
Ã ³
uÃ ¡
hÃ ¨
Ġj i
Ãł nĠ
uÃ ¬Ġ
Ã ²
Çİ ngĠ
hÃ ł
s h
hÃ Ń
uÃ ²
Ġn iÃ¡nĠ
Ã© nĠ
Ġs hÃ¬Ġ
uÃ¡ nĠ
Ġ h
ÇĴ u
Ãł o
Ã¬ ngĠ
uÃ ³
j i
Ġ k
Çİ o
ãĢ ģ
Äĵ ngĠ
Ä« nĠ
s hÃ¬Ġ
Ä« ngĠ
Ġ 1
hÃ ²
Ġc h
Ã² ngĠ
Äģ o
hÃ ¹
c h
uÃ ¨
Ġ p
hÃ© ngĠ
Ġx i
ĠĠ Ġ
Ã¡ iĠ
Ã© iĠ
hÃ² u
ÄĽ iĠ
hÃ ¡
Äĵ nĠ
Ã³ ngĠ
Ã¡ ngĠ
Ġz ÃłiĠ
Ã¹ Ġ
uÃ ©
Åį u
Ġw Ã¨iĠ
2 0
ÇĲ Ġ
Ã³ u
Äģ iĠ
hÃ¨ ngĠ
u ÄģnĠ
Ġy uÃ¨
Å« nĠ
iÃł o
w Ã¨iĠ
g uÃ³
Ä« Ġ
Ã¨ nĠ
ÇĴ ngĠ
ÃŃ nĠ
Ġr Ã©nĠ
Ġzh ÅįngĠ
x i
Çİ iĠ
Ã© ngĠ
hÃł nĠ
u Ãł
u ÇİnĠ
Ġd Ã¬Ġ
hÃł ngĠ
Ġl Ã¬Ġ
Ġy ÇĲ
iÃł ngĠ
Ã¬ nĠ
Ġb Ã¹
s hÃŃ
z ÃłiĠ
y Ãº
ÄĽ ngĠ
Ġs hÃŃ
zh ÅįngĠ
Ġr Ã¬Ġ
u Åį
Ġy Ä«
u ÃłnĠ
i ÄģnĠ
Ġj ÃŃ
Ġy Ãº
u ÇĴ
z hÃ¬Ġ
i Ãº
Ġt Äģ
Ġ hÃ©
ÄĽ nĠ
d Ã¬Ġ
y uÃ¡nĠ
Ã¹ nĠ
Ġc hÃ©ngĠ
b Ã¹
Ġy Ã¬Ġ
Ġg ÅįngĠ
Ġd Ãł
Ġg Ã¨
Äĵ iĠ
Ġx iÃłnĠ
ÇĲ ngĠ
Ġ1 9
ÄĽ r
Ã¡ o
y Ä«
c hÃ©ngĠ
Ġy ÇĴu
y ÇĴu
Ġz hÃ¬Ġ
g ÅįngĠ
y Ã¬Ġ
Ġji Äģ
Ġj Ã¬Ġ
Ġq ÃŃ
l Ã¬Ġ
Ã© r
r Ã©nĠ
Ġd Ãło
Ġy ÇĶ
Ġg uÃ³
Å« Ġ
Ġx ÃŃngĠ
w Ã©iĠ
Ã² u
Ġx uÃ©
d Ãł
j ÃŃ
Ġs Ä«
ĠyuÃ¨ Ġ
ãĢ ĭ
ãĢ Ĭ
Â ·
Ã¨ Ġ
Ãł ngĠ
Ġm ÃŃngĠ
j Ã¬Ġ
Ġl i
Ġsh ÄĵngĠ
Ġ 20
hÃ¡ ngĠ
u Ä«
Ġh uÃ¬Ġ
Ġd Ã©
ÇĶ Ġ
l e
Ġb Ã¬ngĠ
Ġy Ã³u
Ġy uÃ¡nĠ
hÃł o
x ÃŃngĠ
Ãº nĠ
z hÃ¨ngĠ
Ġz hÃ¨
Ġzh Ä«
Ġl e
ji Äģ
Ġx Ä«
h uÃ¬Ġ
ÇĲ nĠ
Ġz hÃ¨ngĠ
j iÃłnĠ
Ġj iÃłnĠ
j Å«nĠ
Ġb Ã¨iĠ
i Çİo
Ġz hÃłnĠ
Ġd uÃ¬Ġ
f ÄģngĠ
j Ä«
Ġj Ä«
Ġz uÃ²
Ġs hÃłngĠ
l i
ãĢ Į
ãĢ į
z uÃ²
u ÄģngĠ
Ġl ÇĲ
Ġch Å«
x iÃłnĠ
h uÃł
Ġd ÃłnĠ
Ġzh ÇĶ
y ÇĶ
d uÃ¬Ġ
hÃ º
zh Ä«
Ġt Ã³ngĠ
Ġk Ã¨
Ġy Ä«nĠ
Ġw Ã©iĠ
s hÃłngĠ
Ġl Ã¡iĠ
m ÃŃngĠ
Ġ Ã©r
ÇĲ Ġy
Ġ ÄĽr
Ġs hÃ¨
x Ä«nĠ
Ġs hÃ¹
hÃ ³
Ġji ÄģnĠ
z hÃ¨
Ġzh Åįu
hÃ²u Ġ
Ġj Ã¬nĠ
i ÇİnĠ
Ġz Ã¬Ġ
hÃ© nĠ
q Å«
Ġf Ã¹
s hÃ¨
Ã¨ r
Ġn Ã¡nĠ
Ġy ÃŃ
uÃ Ń
r Ã¨nĠ
b Ã¨iĠ
Ġp ÃŃngĠ
f Äģ
y ÇĲ
i Ã¡o
d Ãło
x Ä«
Ġx Ä«nĠ
s Ä«
Ġx iÃł
Ġd ÃłiĠ
ch Å«
hÃ² ngĠ
Ġf ÄĵnĠ
y Ã³u
Ġr Ã¨nĠ
n iÃ¡nĠ
Ġf Äģ
uÃł ngĠ
Ġxi ÄģngĠ
s hÃ¹
Ġh uÃ²
d ÃłiĠ
Ç ļ
Ġm ÄĽiĠ
Ġj Ä«ngĠ
Ġg uÄģnĠ
Ġq iÃ¡nĠ
z hÃłnĠ
Ġl Äģ
zh ÇĶ
Ġs uÇĴ
j Ä«ngĠ
u Äĵ
sh ÄĵngĠ
0 0
Ġd uÅį
b ÄĽnĠ
Ġz uÃ¬Ġ
Ġf Çİ
q ÃŃ
Ġy Ã¡nĠ
Ġj iÃło
Ġz hÃŃ
z hÃ¹
Ġsh ÇĴu
Ġl iÃ¡nĠ
x uÃ©
y ÃŃ
Ġg ÄģiĠ
Ġt Ã¨
Ġk ÄĽ
Ġl Ã¹
u ÇĲ
hÃ³ ngĠ
Ġji ÄģngĠ
Ġm Çİ
sh ÇĲ
Ġl Ã¡nĠ
j Ã¬nĠ
l ÇĲ
Ġ hÃ²u
Ġd iÃłnĠ
Ġj Ã¹
x iÃłngĠ
w Ã©nĠ
d Ã©
z Ã¬Ġ
Ġd Ã²ngĠ
Ġy ÄĽ
i ÄĽ
Ġz hÃ¹
Ġx Ã¬Ġ
h uÃ¡
Ġl uÃ³
n Ã¡nĠ
Ġc Ã¬Ġ
m ÃŃnĠ
f Çİ
de Ġ
g uÄģnĠ
x iÃł
Ġf Ãº
k ÇĴu
Çİo Ġ
1 9
e nĠ
Ġm ÃŃnĠ
Ġq uÃ¡nĠ
Ġj Å«nĠ
Ġji Ã©
Ġzh ÇĴngĠ
p ÃŃngĠ
d Ã²ngĠ
Ġq iÃº
y Ã²ngĠ
g Ã¨
q uÃ¡nĠ
Ġd Ã¬ngĠ
Ġx iÃłngĠ
m ÄĽiĠ
Ġs ÃłiĠ
t Äģ
ĠĠĠ 20
Ġq Ä«
zh Åįu
Ġy Ãło
Ġd ÅįngĠ
k ÄģiĠ
Ġw Ã¹
Ġb ÄĽiĠ
Ġg Äģo
y Ä«nĠ
Ġk ÄģiĠ
ĠniÃ¡nĠ 1
w Ã¹
Ġj Ä«nĠ
z hÃŃ
Ġk Äĵ
c hÃ¡ngĠ
ji ÄģngĠ
c hÃ¡
Ġb ÄĽnĠ
ÃŃ Ġ
Ġw Ã©nĠ
Ġm Ã¹
j Ã¹
Ġb Äģ
Ġh uÃ¡
zhÃ¨ nĠ
Ġn Ã©ngĠ
Ġd ÄģngĠ
ji Ã©
Ġde Ġ
Ġji Äĵ
Ġy Ã¹
Ġch Äĵ
Ġx Ã¬ngĠ
Ġl iÃº
Ġy Ãł
Ġy uÃłnĠ
l ÇĲĠ
m iÃłnĠ
h uÃ²
h ÇİiĠ
Ġs ÄģnĠ
Ġz Ã©
Ġl ÃŃnĠ
l Ã¹
Ġ 2
Ġq Å«
d Ã¹
d iÃłnĠ
g Ã²ngĠ
Ġt ÅįngĠ
Ġzh ÇĲ
f Ã¹
z iĠ
Ġj uÃ©
ĠyuÃ¨ Ġ1
sh ÇĴu
y Ã¨
Ç ľ
y uÃ¨
Ãº Ġ
l Ã¡iĠ
zh ÇİngĠ
t ÇĴngĠ
Ġh uÃł
xi ÄģngĠ
Ġd ÄĽngĠ
d ÅįngĠ
i Äģo
Ġy Ä«ngĠ
hÃ¡ iĠ
ji Ã¨
Ġm enĠ
Ġzh ÇİngĠ
Ġsh Ä«
n Ã¨iĠ
f ÇĶ
Ġxi Çİo
t Ã¡iĠ
Ġg Ã©
Ġg uÃ²
ĠyÃŃ ĠgÃ¨
Ġn Ã¨iĠ
Ġli ÇİngĠ
b ÄĽiĠ
Ġf Ã¨nĠ
b iÇİo
j iÃło
Ġ20 1
y Ã¹
Ġh ÇİiĠ
Ġm iÃłnĠ
g Ã©
Ġt Ã¡iĠ
ji Äĵ
g uÃ²
Ġw ÃłiĠ
i Ã©
r Ã¬Ġ
u ÇİngĠ
Ġd Ã¡
q iÃº
x Ã¬Ġ
ji ÄģnĠ
1 ĠniÃ¡nĠ
y Ã¡nĠ
Ġq i
Ġc Ã©ngĠ
g Äģo
s Ã¬Ġ
5 ĠniÃ¡nĠ
0 ĠniÃ¡nĠ
Ġsh ÄģnĠ
s uÇĴ
Ġs hÃ²u
2 ĠniÃ¡nĠ
Ġsh ÇĲ
Ġxi Äĵ
d ÄĽngĠ
Ġw Ã¡ngĠ
Ġf ÄģngĠ
Ġd ÄģnĠ
ĠyuÃ¨Ġ 2
ch ÇİngĠ
Ġ 3
Ġc ÇĲ
q Ä«
4 ĠniÃ¡nĠ
t Ã³ngĠ
s ÄģnĠ
Ġch ÇİngĠ
Ġx iÃło
8 ĠniÃ¡nĠ
z uÃ¬Ġ
ch ÄĵngĠ
Ġw ÇĶ
zh ÇĲ
Ġr Ã¹
d uÅį
Ġc hÃ¡
Ġsh ÄĽngĠ
q iÃ¡nĠ
sh ÄģnĠ
f ÄĵnĠ
l iÃ¡nĠ
Ġk uÃ²
Ġf ÄĵiĠ
Ġs Ã¬Ġ
x Ã¬ngĠ
Ġt iÄģnĠ
3 ĠniÃ¡nĠ
Ġy uÄĵ
y Ãł
z hÃ²ngĠ
g ÇİngĠ
Ġl Ã¬ngĠ
Ġz ÇĴngĠ
Ġb iÇİo
ÇĲĠy Ã²ngĠ
j Ä«nĠ
6 ĠniÃ¡nĠ
Ġy Ã¹nĠ
f Ãº
Ġji Ã¹
Ġm Ã©iĠ
Ġg Äĵ
Ġq Ä«ngĠ
k ÄĽ
q Å«Ġ
ĠzhÅįngĠ guÃ³
Ġ20 0
Ġg uÇİnĠ
y ÄĽ
w ÄĽiĠ
d ÄģnĠ
Ġy ÇİnĠ
Ġz ÇĶ
Ġb ÇĲ
Ġb Ã³
7 ĠniÃ¡nĠ
Ġt ÃłiĠ
m Çİ
zh ÄĽ
ch Äĵ
Ġl iÃłngĠ
Ġy Ã²ngĠ
Ġq Ã¬Ġ
sh ÄĽngĠ
k Ã¨
Ġt ÃŃ
Ġg ÇĶ
Ġzh ÄĽ
hÃ¡ nĠ
r Ã¹
Ġsh ÇĶ
shÃŃ Ġ
o r
Ãło Ġ
w ÃłiĠ
d Çİo
Ġz hÃ²ngĠ
Ġf ÄĵngĠ
Ġc Ã³ngĠ
x Ä«ngĠ
e r
Ġg Ã²ngĠ
Ġn Ãł
Ġw Ãº
y ÇĲngĠ
w ÇĶ
Ġsh ÄĵnĠ
u ÃłiĠ
s ÃłiĠ
Ġy Ã²u
c ÇĲ
b Ã¬ngĠ
q Ã¬Ġ
Ġd Çİo
ĠĠ Ġ19
q i
Äģo ĠkuÃ²
Ġc hÃŃ
t ÇĲ
ĠrÃ©nĠ kÇĴu
Ġx uÇİnĠ
sh ÄĵnĠ
q ÇĲ
f ÄĵngĠ
Ġn Çļ
Ġc hÃ¡ngĠ
z Ã©
Ġn ÃŃ
w ÇİngĠ
t iÄģnĠ
Ġb ÃłnĠ
Ġr Ã¡nĠ
y Ã¡ngĠ
j Ã¬ngĠ
t ÃŃ
t ÃłiĠ
Ġb Åį
z ÇĶ
ĠshÃŃ Ġ
Ġb iÃłnĠ
li Ã¨
Ġs hÃ¨ngĠ
ch ÇİnĠ
m Ã¹
w ÄģnĠ
Ġw ÃłnĠ
d iÇİnĠ
Ġzh ÄģngĠ
Ġ hÃło
9 ĠniÃ¡nĠ
Ġl uÃ²
ĠwÃ¨iĠ yÃº
Ġg ÇİiĠ
ji Äģo
Ġ 4
Ġd Ã¹
Ġg Ã²u
x uÇİnĠ
ĠmÄĽiĠ guÃ³
Ġli Ã¨
Ġl ÃŃ
Ġc ÄģnĠ
â Ģ
Ġ 5
Ġch ÄĵngĠ
d ÄģngĠ
Ġ1 8
Ġzh ÇİnĠ
sh Å«
Ã¨ ngĠ
n Ã©ngĠ
Ġz iĠ
g uÇİnĠ
d Ã¬ngĠ
q Ä«ngĠ
b Åį
Ġz Ä«
Ġb Ã¬Ġ
Ġk Çİ
y Ä«ngĠ
Ġy Ã¨
j uÃ©
Ġji Äģo
d ÇİngĠ
Ġm Ã³
Ġj Ã¬ngĠ
k Äĵ
u Äģ
Ġsh Å«
Ġt uÃ¡nĠ
zh ÄĵngĠ
a Ġ
Ġr Ãº
Ġp ÇĶ
l ÃŃnĠ
Ġg ÄĵnĠ
n Ãł
t Ã¨
Ġch uÃ¡nĠ
s hÃ²u
Ġl Çľ
b iÄģnĠ
ĠqÃŃ ĠzhÅįngĠ
j Ä«Ġ
yÃŃ ĠgÃ¨
t Ġ
l iÃº
Ġb ÇİnĠ
y Ã¹nĠ
Ġxi ÄģnĠ
y Ã¬ngĠ
sh ÇĶ
y Ãło
xi Çİo
b iÃłnĠ
Ġb Çİo
Ġl ÃºnĠ
Ġj ÇĲnĠ
f ÄĵiĠ
Ġw ÄĽiĠ
b Äģ
t ÅįngĠ
Ġw ÄĵiĠ
m Ã©iĠ
c Ã¬Ġ
r Ã³ngĠ
Ġd uÃłnĠ
xi ÇİngĠ
y ÇİnĠ
Ġ Äģ
Ġb iÄģnĠ
chÃ¡ o
Ġm Ã©nĠ
ĠbÃ¹ ĠfÃ¨nĠ
Ġq ÇĶ
Ġt ÇĲ
Ġp ÇĲnĠ
b Ãło
b Ã¹Ġ
Ġt Ã³u
w Ã¡ngĠ
Ġt iÃ¡o
ĠtÄģ ĠmenĠ
z Ãº
Ġji Ã¨
Ġz Ãº
q iÄģnĠ
a r
Ġf Å«
Ġf ÇİnĠ
c ÄģnĠ
g ÇĶ
Ġl Ã³ngĠ
b Ã¬Ġ
Ġsh Äģ
Ġm Ã¬Ġ
x Ã¹
Ġ 6
z ÇĴngĠ
l iÃłngĠ
Ġg uÄ«
ji Å«
ĠpÃŃngĠ fÄģngĠ
j ÇĲngĠ
Ġsh uÅį
b Çİo
ĠhuÃ¡ ngĠ
Ġq Ä«nĠ
Ġt Ã¡ngĠ
Ġf Ã¡ngĠ
Ġs Ä«Ġ
ĠhÃ© Ġ
Ġc hÃ©nĠ
ĠyÇĲ ngĠ
p Ã¡iĠ
Ġg uÇİngĠ
ji Ã¹
a n
w Ãº
h uÃ³
Ġsh ÄģngĠ
Ġs Ã¹
Ġd iÇİnĠ
Ġy Ã¡ngĠ
Ġzh Ä«Ġ
Ġx ÃŃ
ch uÃ¡nĠ
l ÇĲngĠ
Ġs hÃ©nĠ
Ġb Ãło
y ÃŃngĠ
t Ã³u
sh Ä«
j ÇĲ
Ġji ÇİnĠ
ĠyÇĲ ĠjÃŃ
b ÇĲ
d Åįu
Ġd Åįu
Ġm ÇĲĠ
Ġl Ã¨iĠ
Ġx Ä«ngĠ
sh ÇĲĠ
Ġm Ã²
sh uÇĲ
Ġb ÄģoĠkuÃ²
Ġb iÄģo
ĠĠĠ20 1
ĠguÃ³ ĠjiÄģ
Ġsh uÇĲ
j ÇĶ
Ġq ÇĲ
Ġc Ã¡iĠ
ĠĠ ĠzÃłiĠ
x iÃło
c Ã©ngĠ
Ġg uÇĴ
zhÅįngĠ guÃ³
Ġt ÃŃngĠ
s Ä«Ġ
w Ã¹Ġ
Ġq iÄģnĠ
k ÅįngĠ
e ĠĠĠ
s Ã¹
Ġt Ãº
Ġy Ä«Ġ
c Ã¨
ĠqÃŃ ĠtÄģ
Ġ19 9
mÄĽiĠ guÃ³
b ÃłnĠ
Ġs Ã¨
Ġji ÇĶ
e Ġ
Ġzh uÄģngĠ
ĠzhÃ¨ nĠ
20 1
Ġq ÃŃngĠ
ĠchÃ©ngĠ wÃ©iĠ
Ġb ÄģnĠ
Ġ ÄģnĠ
Ġc hÃ¹
huÃł Ġ
Ġw Ã¡nĠ
Ġw ÇİngĠ
Ġg Ã¹
Ġch ÇİnĠ
l Ã¨iĠ
ĠrÃ¬Ġ bÄĽnĠ
Ġzh uÄģnĠ
z Ãło
ĠrÃ©nĠ mÃŃnĠ
n ÃŃ
Ã¡ Ġ
Ġm ÇĶ
li ÇİngĠ
Ġd Ãº
b ÄģnĠ
Ġji ÄĽ
ĠdÃło Ġ
ĠjÃŃ Ġ
Ġc hÃº
s Ġ
Ġc ÃŃ
Ġs uÃ¬Ġ
Ġw Çİ
Ġxi Äģo
y uÃłnĠ
Ġw Ã¹Ġ
Ġji ÇİngĠ
sh Äģ
ĠyÇĲ nĠ
zuÃ² Ġ
g ÄģiĠ
Ġsh ÇĲĠyÃ²ngĠ
ĠshÃ¬Ġ yÄ«
Ġf ÃłnĠ
s hÃ¨ngĠ
Ġ1 0
Ġm ÇĲ
t Ãº
g ÇİiĠ
c Ã³ngĠ
nĠ ĠĠ
f Ã¨nĠ
Ġq Å«Ġ
Ġl ÇĲngĠ
Ġs uÃŃ
Ġl Ã¹nĠ
Ġzh ÄĵnĠ
ĠzhÇĶ ĠyÃło
Ġl Ã©iĠ
zh ÄģngĠ
ĠyÇĶ Ġ
ĠtÄģ Ġde
l Çľ
f ÇİnĠ
m Ã©ngĠ
Ġj ÇĲngĠ
h uÃŃ
q ÃŃngĠ
Ġxi Ã©
hÃ© ĠguÃ³
Ġb iÃ©
ĠgÃ¨ ngĠ
Ġw Å«
p iÃłnĠ
t i
Ġm ÃłnĠ
Ġh uÃŃ
ĠkÄĽ ĠyÇĲ
ĠyÃ³u ĠyÃº
zh uÄģngĠ
q ÇĶ
Ġk ÇĴu
hÃ© Ġ
ĠzhÇĶ nĠ
zhÃ¨ngĠ fÇĶ
r Ã¡nĠ
Ġj iÃł
l uÃ²
dÃł ĠxuÃ©
y uÄĵ
huÃ¡ ngĠ
Ġ 7
Ġh Äģ
Ġl ÇĲĠ
Ġ hÃ¡iĠ
Ġ20 2
l Ã³ngĠ
Ġ ã
Ġx Ã¹
Ġs Ãł
t iÄĽ
b Ã³
u l
ĠxiÄģngĠ gÇİngĠ
Ġsh Åįu
sh ÄģngĠ
p ÇĶ
hÃ³ u
s hÃ©nĠ
Ġb Ã¹Ġ
Ġ 8
ĠshÃ¬Ġ zhÃ¨nĠ
Ġm Ã¬ngĠ
j Ã¹Ġ
Ġz ÅįngĠ
2 Ġ
Ġs Å«
Ġ Ãło
l Ã¹Ġ
Ġb Ä«ngĠ
r Ãº
Ġt Çİ
y ÄģngĠ
âĢ Ķ
Ġt iÄĽ
g Äĵ
Ġ C
xi Ã©
Ġzh ÄĵngĠ
Ġx Å«
l ÃŃngĠ
20 0
Ġt uÅį
z Ä«
x Ã¬nĠ
c Ã¡iĠ
yuÃ¡nĠ huÃ¬Ġ
w ÄĵiĠ
Ġb ÃłiĠ
i n
Ġch Å«Ġ
ĠzhÃ¨ngĠ zhÃ¬Ġ
Ġ1 5
g uÇİngĠ
ĠjiÄģ Ġ
d Ã¡
m Ã²
Ġqi Ã¡ngĠ
q uÃ¨
ĠshÃ¬Ġ jÃ¬Ġ
1 Ġ
c Å«nĠ
n Çļ
Ġ S
Ġg uÄģngĠ
Ġc hÃ³ngĠ
k uÃłngĠ
t ÃŃngĠ
Ġji Çİ
Ġ19 8
Ġc Ã¨
ĠdÃł ĠxuÃ©
jÃŃ Ġ
jÃ¬nĠ xÃŃngĠ
sh uÅį
Ġch uÃłngĠ
a l
Ġ hÃ¡nĠ
Ġr Ã³ngĠ
Ġ Ã¨r
b iÃ©
Ġxi ÇİngĠ
wÃ¨iĠ yÃº
s Ã¨
Ġl ÄĵiĠ
Ġm Ã©ngĠ
f ÃłnĠ
w Ã¡nĠ
Ġ hÃłnĠ
Ġch ÇĶ
b Ä«ngĠ
m Ã©nĠ
ji ÇİngĠ
Ġp Ã¨iĠ
ĠĠ ĠdÃ¬Ġ
Ġl ÃŃngĠ
Ġd ÇİngĠ
x Å«
Ġf Ã¨iĠ
Ġl ÇĶ
Ġ A
Ġz hÃło
Ġq Ã¹
m ÇĲĠ
m Ã¬ngĠ
e n
xi ÄģnĠ
Ġl Ã¹Ġ
de ĠyÄ«
Ġf ÃłngĠ
Ġ 9
Ġd ÃŃ
Ġsh Ä«Ġ
Ġl Ã¨
zh Ä«Ġ
j iÃł
iÃło Ġ
Ġli Ã¡ngĠ
0 Ġ
z hÃło
d Ãº
hÃł iĠ
Ġp ÃłiĠ
gÅįngĠ lÇĲĠ
Ġx ÇĶ
ĠjÃ¬nĠ xÃŃngĠ
zh ÄĵnĠ
Ġx Ã¬nĠ
t uÃ¡nĠ
l uÃ³
ĠtÃ¡iĠ wÄģnĠ
g uÄ«
Ġq iÃ¡o
ĠyÄ«nĠ cÇĲ
j Ãº
ji ÇİnĠ
Ġz ÇĲ
Ġde ĠyÄ«
Ġ1 6
or m
Ġzh uÇİnĠ
Ġch Äģo
ĠdÃ¬Ġ yÄ«
ĠxÃŃngĠ zhÃ¨ngĠ
sh ÇĲĠyÃ²ngĠ
y ÇĲnĠ
ĠyÃ¡nĠ jiÅ«
Ġk Ã¨Ġ
Ġy ÃłngĠ
Ġj Ãº
Ġx Ã¹nĠ
Ġc ÇİiĠ
Ġb ÇİiĠ
ji ÄĽ
d Ã¹Ġ
ĠlÃ¬Ġ yÃł
c hÃŃ
Ġq uÃ¨
Ġy Ã¬ngĠ
d Çİ
Ġj ÇĶ
ĠzhÃ¨ngĠ fÇĶ
j ÇĲnĠ
Ġy ÃŃngĠ
f ÃłngĠ
Ġli Ã¹
Ġzh Å«
zh uÃłngĠ
Ġxi Å«
Ġg e
t Ã¡ngĠ
b iÄģo
ĠyÃ¹nĠ dÃ²ngĠ
ji ÇĶ
zh uÄģnĠ
Ġ1 2
Ġx uÄģnĠ
huÃ² ĠdÃ©
y Ã²u
qi Ã¡ngĠ
ĠyÄ«nĠ wÃ¨iĠ
Ġf ÇĶ
ch uÄģnĠ
Ġb Ã¡iĠ
c hÃ©nĠ
b ÇİnĠ
Ġ M
ĠtÃ³ngĠ shÃŃ
Ġw ÇĴ
g Ã²u
Ġx Ä«Ġ
shÃ¬Ġ jiÃ¨
ĠdiÃłnĠ yÇĲngĠ
a m
rÃ©nĠ kÇĴu
Ġs ÄģiĠ
ĠdÃ¬Ġ Ã¨r
c hÃ³ngĠ
ul aĠ
z ÅįngĠ
Ġc Å«nĠ
t Ä«ngĠ
ĠhuÃ² ĠdÃ©
Ġy ÇĴngĠ
orm ulaĠ
5 ĠrÃ¬Ġ
Ġk ÅįngĠ
3 Ġ
Ġp Ã¡iĠ
y Ã¡
o n
ĠkÄģiĠ shÇĲ
Ġt iÃ¡nĠ
8 ĠrÃ¬Ġ
Ġy Ã¬nĠ
Ġ1 1
c hÃº
ĠzuÃ² ĠwÃ©iĠ
Ġh uÄ«
Ġz ÄĵngĠ
p ÇĲnĠ
Ġh uÇĴ
zh ÇĴngĠ
n iÃłnĠ
ĠzhÅįngĠ huÃ¡
Ġn uÃ²
y ÇĶĠ
rÃ¬Ġ bÄĽnĠ
Ġ ÃłiĠ
Ġh ÄĽnĠ
Ġt uÄ«
ĠniÃ¡nĠ1 2
Ġ1 7
j Å«
x Ä«Ġ
w Å«
xi ÇİnĠ
Ġh uÃ¡nĠ
Ġw ÃłngĠ
Ġq Ä«Ġ
t iÃ¡o
Ġ19 4
g ÇİnĠ
Ġq iÄĽ
zh uÇİnĠ
gÃ²ngĠ hÃ©ĠguÃ³
chÃ©ngĠ wÃ©iĠ
ĠchÄĵ ĠzhÃłnĠ
ĠkÄĽ ĠnÃ©ngĠ
m Ã¬Ġ
l Ã¹nĠ
Ġl Çļ
m ÇĶ
Ġt ÇĴngĠ
Ġh ÄĵiĠ
Ġq ÃºnĠ
x Ã¹nĠ
b Äģo
b ÄģngĠ
Ġn i
y Ã¨Ġ
Ġm ÃłiĠ
ĠrÃ¨nĠ wÃ©iĠ
xi Å«
ĠmÃ©iĠ yÇĴu
b Ã¡iĠ
ĠĠĠ S
gÅįngĠ sÄ«
Ġw Ã¨nĠ
x uÄģnĠ
ĠchÃ¡ o
ĠluÃ³ ĠsÄ«
g uÄģngĠ
ĠpÃŃngĠfÄģngĠ gÅįngĠlÇĲĠ
Ġd Å«
Ġp Ã²
Ġj Ä«Ġ
o u
ĠzhÃ¨ ĠxiÄĵ
Ġt Ã¨Ġ
Ġd Çİ
Ġj Ã¹Ġ
20 ĠniÃ¡nĠ
l Äģ
Ġx ÃºnĠ
kÄģiĠ shÇĲ
mÃ©iĠ yÇĴu
s Å«
de ĠyÃŃĠgÃ¨
Ġj Å«
Ġg ÃłiĠ
Ġ ÃłnĠ
6 ĠrÃ¬Ġ
ĠguÃ³ ĠjÃ¬Ġ
ĠniÃ¡nĠ1 0
4 ĠrÃ¬Ġ
rÃ¨nĠ wÃ©iĠ
5 Ġ
Ġj iÃłngĠ
Ġp Ä«
1 ĠrÃ¬Ġ
1 0
Ġ19 7
7 ĠrÃ¬Ġ
Ġt Ã¡o
l Ã¡nĠ
ĠĠ ĠlÃ¬Ġ
Ã ¼
ch ÇĶ
ĠdÄģngĠ shÃŃ
3 0
Ġh uÃ³
hÃ¡ o
ĠdÃłiĠ biÇİo
Ġzh ÄĽngĠ
Ġd ÄĵngĠ
q iÄĽ
le Ġ
p ÃłiĠ
Ġy ÃłnĠ
Ġy ÇĲĠ
Ġ hÃ²uĠ
Ġc ÃºnĠ
k Çİ
f Ã¡ngĠ
m Ã³
4 Ġ
ĠĠĠ20 2
Ġsh uÄģngĠ
3 ĠrÃ¬Ġ
ĠshÃ¬Ġ jiÃ¨
Ġ B
ĠzuÃ² Ġ
s ĠĠĠ
Ġg ÇİnĠ
y Ã¹Ġ
m ÃłiĠ
d uÃłnĠ
ch uÃłngĠ
ĠfÇİ ĠguÃ³
Ġd iÃło
a t
c ÃŃ
Ġg ÄģngĠ
Ġz Çİo
ĠĠĠ20 0
sh Åįu
Ġj ÇĲ
ji Çİ
Ġ19 5
ÄĽr Ġ
Ġt Ä«ngĠ
z ÇĲ
w Ã¨nĠ
ĠchÃ©ngĠ shÃ¬Ġ
Ġxi ÇİnĠ
Ġb Ä«nĠ
ĠyÃ³u ĠxÃ¬Ġ
00 0
Ġs Ã²ngĠ
Ġ T
ĠyÄ«ngĠ guÃ³
Ġ hÃº
d ÃłnĠ
ĠbiÇİo ĠshÃ¬Ġ
ï ¼
h uÃ¡nĠ
Ġp iÃłnĠ
ĠyÇĲngĠ xiÇİngĠ
Ġs ÄĵnĠ
Ġg uÃłnĠ
c ÃºnĠ
ĠĠ ĠshÄĵngĠ
Ġm Ã¹Ġ
ĠfÄģ ĠzhÇİnĠ
s t
z ÄĵngĠ
f Ã¨iĠ
u ÇĲĠ
1 8
dÃłiĠ biÇİo
Ġd Ã¹nĠ
l ÃŃ
Ġy Ã¹Ġ
xiÄģngĠ gÇİngĠ
Ġxi Ã¡
p Ã¨iĠ
Ġn Ã³ngĠ
g Ã¹
d iÃło
Ġ I
Ġl Ã³u
Ġl Ãº
ĠniÃ¡nĠ1 1
fÇİ Ġ
Ġl ÇİngĠ
ĠtÄģ ĠzÃłiĠ
zh ÇİnĠ
c hÃ¹
ĠshÃ¨ ĠhuÃ¬Ġ
shÃ¹ Ġ
h uÃłnĠ
dÃ¬Ġ qÅ«
Ġr ÃłngĠ
Ġz Ãło
Ġh uÃłnĠ
Ġ19 6
t uÄ«
Ġ hÃ³ngĠ
n i
Åįu ĠzhÅįu
Ġb ÄĵiĠ
ÇİoĠ hÃ¹
ch Å«Ġ
fÇİ ĠguÃ³
0ĠniÃ¡nĠ dÃłiĠ
p ÃłnĠ
xi Äģo
ĠzuÃ¬Ġ zhÅįngĠ
t ÇĶ
ĠtÃ³ngĠ niÃ¡nĠ
20 2
t iÃ¡nĠ
Ã© ĠluÃ³ĠsÄ«
b Ã¡
Ġt ÇİnĠ
zhÅįngĠ xÄ«nĠ
ĠshÃ¨ ĠjÃ¬Ġ
qÄ« ĠjiÄģnĠ
j iÃłngĠ
ĠxiÃł Ġ
Ġg ÇİngĠ
ĠtÅįngĠ guÃ²
Ġk Ã²ngĠ
Ġz uÇĴ
gÃ¨ ngĠ
tÄģ ĠmenĠ
ĠjiÃłnĠ zhÃ¹
ĠzuÃ² ĠpÇĲnĠ
d ÄĵngĠ
Ġ P
ĠdÄģnĠ rÃ¨nĠ
dÃ¬Ġ yÄ«
y ÇĲĠ
kÄĽ ĠyÇĲ
r i
ĠdiÃłnĠ shÃ¬Ġ
ĠhuÃł Ġ
ĠrÃ©nĠmÃŃnĠ gÃ²ngĠhÃ©ĠguÃ³
dÃło Ġ
Ġxi ÄĽ
Ġh uÄģ
l Ã¬ngĠ
ĠdÃ¬Ġ qÅ«
ĠĠ Ġt
Ġs uÄ«
b ÄģoĠkuÃ²
tÃ¡iĠ wÄģnĠ
Ġji Çİo
ĠxuÃ© ĠyuÃłnĠ
d Å«
Ġk uÃłiĠ
ĠkÃ¨ ĠlÃ¡nĠ
ĠjÄ«ngĠ jÃ¬Ġ
Äģo ĠqiÃº
z Çİo
ĠxÃ¬Ġ tÇĴngĠ
l iÃłnĠ
Ġp iÃło
ĠdÃ© Ġ
e l
q iÃ¡o
s Ã²ngĠ
s uÃŃ
Ġg ÄĽiĠ
ĠyÄĽ ĠshÃ¬Ġ
Ġch ÅįngĠ
ÇĲĠy Ã¹
Ġ D
ĠgÅįngĠ sÄ«
ĠxÇĶ ĠduÅį
Ġ1 4
y ÃłnĠ
Ġr Ã¨
ĠshÇĶ ĠyÃº
r o
h uÄģ
hÃło Ġ
ĠÄĽr Ġ
sh Çİo
xiÃł Ġ
t uÅį
l ÃºnĠ
Ġz hÃº
ĠrÃ¡nĠ Ã©r
ĠshÃ¹ Ġ
Ġn Ã¡
ĠhÃ²u ĠlÃ¡iĠ
ĠbÃ¹ ĠtÃ³ngĠ
de ĠdÃ¬Ġ
d Ã²u
ĠyuÃ¨Ġ1 ĠrÃ¬Ġ
ÅįngĠ yÇĴu
Ġ19 3
ĠmiÃłnĠ jÄ«
jiÄģ Ġ
Ġd Ä«ngĠ
Ġl Çİo
h uÇĴ
x ÃºnĠ
6 Ġ
ĠsuÇĴ ĠyÇĴu
ĠzhÅįngĠ xÄ«nĠ
Ġs hÃ²uĠ
ĠĠĠ C
Ġr uÃ¬Ġ
ĠdÃłnĠ shÃ¬Ġ
Ġd ÇĲ
b ÇİiĠ
qiÄģnĠ mÇĲĠ
Ġt ÇĶ
ĠgÅįngĠ lÇĲĠ
g ÄĵnĠ
Ġ1 Ġ
li Ã¹
Ġde ĠyÃŃĠgÃ¨
Ġle Ġ
shÃŃ ĠjiÄģnĠ
c ÇİiĠ
ĠzÃłiĠ 19
t ÇĲĠ
ĠĠĠshÄĵngĠ pÃŃngĠ
Ġb Äģo
ĠfÄģ ĠxiÃłnĠ
ĠchÃ©ngĠ lÃ¬Ġ
ĠbÇĲ ĠsÃłiĠ
Ġsh Çİo
Ġs ÇĲ
mÃŃngĠ wÃ¨iĠ
x ÃŃ
ĠyÄ«nĠ yuÃ¨
ĠshÃŃ ĠjiÄģnĠ
Ġx iÃ¡nĠ
ji Çİo
ĠgÄĵnĠ jÃ¹
Ã¼ Ã¨
Ġ hÃ¹
Ġp ÃŃ
Ġy ÃŃnĠ
ch Äģo
c hÃłngĠ
1 2
ĠmÃŃnĠ guÃ³
g uÃłnĠ
Ġde ĠdÃ¬Ġ
diÃłnĠ shÃ¬Ġ
ĠzhÃ¨ Ġge
g ÄĽiĠ
xÃ¬Ġ tÇĴngĠ
ĠyÄ« ĠxiÄĵ
Ġk Çİo
dÄģnĠ rÃ¨nĠ
zh Å«
Ġm Ã¡o
guÃ³ ĠjiÄģ
y Ã¬nĠ
Ġzh uÃłngĠ
ĠdÄģngĠ dÃ¬Ġ
ĠzÃ¬Ġ jÇĲ
d ÇĲ
ĠĠĠ M
ĠzuÃ¬Ġ hÃ²u
q Ã¹
Ġch uÄģnĠ
Ġl iÃłnĠ
li Ã¡ngĠ
o l
fÄģ ĠxiÃłnĠ
ĠbÃ¬ngĠ qiÄĽ
19 ĠniÃ¡nĠ
h uÄ«
r Ã©ngĠ
ĠĠ Ġde
7 Ġ
ĠzhÃ¨ngĠ shÃ¬Ġ
g Ãło
g ÄģngĠ
Ġb Ãº
Ġf ormulaĠ
zhÄĽ Ġ
j Ã¹nĠ
y Äģ
y ÇĴngĠ
i c
Ġh Çİo
n uÃ²
k uÃłiĠ
Ġr Ã©ngĠ
t ÃŃĠ
y ÇİngĠ
q Ä«nĠ
zhÇĶ ĠyÃ¬Ġ
ĠsuÄ« ĠrÃ¡nĠ
ĠwÃ©nĠ huÃł
ĠĠĠlÃ¬Ġ shÇĲĠ
Ġk Ã¹
Ġw Ã²
a c
ĠfÃ¹ ĠzÃ©
Ġr uÃ²
ĠcÇĲ ĠwÃłiĠ
ĠnÃŃ ĠyÃł
ĠzhÄ«Ġ hÃ²u
de ĠshÃ¬Ġ
r e
z ÇİiĠ
Ġx ÃŃĠ
i t
m ÃłnĠ
biÇİo ĠshÃ¬Ġ
Ġb ÄģngĠ
Ġ1 3
Ġd Ã¹Ġ
zh ÄĽngĠ
t Ã¡nĠ
ĠzhÅįngĠ de
Ġw ÄĵnĠ
chÃ©ngĠ lÃ¬Ġ
ĠbÃ¬ngĠ zÃłiĠ
ĠmÃ¹ ĠqiÃ¡nĠ
yÃ¹nĠ dÃ²ngĠ
Ġg ÄģnĠ
ĠzhÅįngĠ yÄģngĠ
ĠlÃ¬Ġ shÇĲ
l Çļ
Ġc hÃłngĠ
ĠmiÃłnĠ jÄ«Ġ
diÃłnĠ yÇĲngĠ
Ġf Ã¹Ġ
Ġm ÇİnĠ
Ġf ÄģnĠ
yÇĲ ĠjÃŃ
fÄģ ĠshÄĵngĠ
ĠdÃło Ġle
zhÃ¨ngĠ shÃ¬Ġ
Ġb Çİ
dÃ¬Ġ Ã¨r
Ġs Ã¨Ġ
chÄĵngĠ wÃ©iĠ
1 1
ĠtÃŃ ĠgÅįngĠ
ĠrÃ©nĠkÇĴu ĠmÃ¬Ġ
Ġk ÄģngĠ
x ÇĶ
wÄĽiĠ yuÃ¡nĠhuÃ¬Ġ
o nĠ
n Ã³ngĠ
Ġzh Ġ
ĠwÄĽiĠ yuÃ¡nĠhuÃ¬Ġ
Ġp iÄģnĠ
zhÄ« ĠyÄ«Ġ
2 ĠrÃ¬Ġ
h Çİo
Ġxi ÅįngĠ
xi ÄĽ
Ġy Åįu
ĠzhÅįu Ġ
ĠxiÃłnĠ zÃłiĠ
tÅįngĠ guÃ²
ĠshuÅį Ġ
Ġt uÃ¬Ġ
Ġj Ã¹nĠ
e t
d Ã¹nĠ
q ÇĲĠ
Ġ E
ĠquÃ¡nĠ guÃ³
tÄģ Ġde
zhÅįngĠ yÄģngĠ
s uÃłnĠ
ĠgÃ²u Ġ
9 ĠrÃ¬Ġ
shÃ¬Ġ de
d Ä«
ĠzhÄ« ĠchÃŃ
5 0
ĠchÃ©ngĠ yuÃ¡nĠ
p Ã²
k Ã¨Ġ
guÃ³ ĠjÃ¬Ġ
Ġp ÃłnĠ
q ÃºnĠ
Ġh Å«
y ÃŃnĠ
d ÃŃ
zhÅįngĠ de
ĠxuÃ© ĠxiÃło
ĠpÃŃngĠfÄģngĠ qiÄģnĠmÇĲĠ
Ġ hÃ¨
Ġn ÃŃngĠ
k ÃłnĠ
ĠĠĠ A
dÃł Ġde
ji Ã¨Ġ
m Ã¹Ġ
Ġy Äģ
u Ä«Ġ
8 Ġ
ĠyÃº nĠ
zÃ¬Ġ jÇĲ
Ġp Ãł
ĠshÃ¬Ġ de
t Çİ
k Çİo
i l
ĠshÇĴu Ġ
Ġg Ãło
y uÇİnĠ
huÃ³ ĠdÃ²ngĠ
Ġy ÇİngĠ
m enĠ
zhÅįu Ġ
guÃ³ Ġ
m iÇİnĠ
y Ġ
ĠbÃ¹ ĠguÃ²
Ġg tĠ
ĠcÄģnĠ jiÄģ
Ġ H
Ġde ĠshÃ¬Ġ
Ġ 0
t Ã¡o
b ÃłoĠ
dÃł ĠlÃ¬Ġ
C Ġ
xuÃ© Ġ
yÃ¡nĠ jiÅ«
gÃ© Ġ
h ÄĽnĠ
Ġli Ã¡o
hÃ¡ngĠ kÅįngĠ
Ġs hÃło
ĠzhÄĽ Ġ
ĠliÇİngĠ gÃ¨
ĠxuÃ© Ġ
o m
Ġ L
ĠshÃ¬Ġ zÃłiĠ
zhÃ¹ Ġ
Ġxi Ã¨
q ÇĲngĠ
Ġq ÇĲngĠ
sh Å«Ġ
Ġb ÇĶ
Ġl tĠ
Ġb ÇİoĠhÃ¹
ÇĶ nĠ
li Ã¡o
Ġ N
Ġ R
zuÃ² ĠwÃ©iĠ
jÇĶ ĠxÃŃngĠ
d Ġ
z uÇĴ
c hÃ¨
Ġw ÇİnĠ
k Ã²ngĠ
cÄģnĠ jiÄģ
k ÄģngĠ
Ġqi ÄģngĠ
ĠfÄĵnĠ bÃ¹
Ġd Ä«
zhÇĶ ĠyÃło
kÄĽ ĠnÃ©ngĠ
00 ĠniÃ¡nĠ
Ġt Ã¡nĠ
o nĠĠĠ
zhÄ« ĠjiÄģnĠ
ĠhÇİiĠ bÃ¡
Ġk ÃłnĠ
ĠshÃ¨ nĠ
ĠshÃ¬Ġ wÃ¨iĠyÃº
Ġg uÃ¬Ġ
rÃ©nĠ mÃŃnĠ
Ġp Åį
Ġp Ã©ngĠ
ĠgÅįngĠ chÃ©ngĠ
n ÃŃngĠ
ĠlÃ¬ngĠ wÃłiĠ
yÃ³u ĠxÃ¬Ġ
Ġ G
ĠdÃ© ĠguÃ³
shÃ¨ Ġ
Ġc ÇĲĠ
ĠĠĠ P
w ÇİnĠ
sh uÄģngĠ
ĠhuÃ³ ĠdÃ²ngĠ
y Åįu
ĠgÅįngĠ zuÃ²
Ġq ÇĶĠ
ĠzhÄ« ĠjiÄģnĠ
Ġn ÇĲ
Ġsh ÇĲĠ
Ġz hÃłngĠ
Ġxi Ã¡ngĠ
s ÇĲ
ĠqÄ« ĠjiÄģnĠ
xuÃ© ĠxiÃło
z hÃº
ch ÅįngĠ
ĠzhÅįngĠhuÃ¡ ĠrÃ©nĠmÃŃnĠgÃ²ngĠhÃ©ĠguÃ³
yÃº nĠ
f Å«
Ġq ÃŃnĠ
Ġf Ã¡
Ġk ÃłngĠ
gÅįngĠ sÄ«Ġ
x iÃ¡nĠ
ĠzÃº ĠqiÃº
Ġf Å«Ġ
Ġg uÇĲ
Ġxi Ã³ngĠ
xi Ã¡
Ġzh e
shÃ¨ ĠjÃ¬Ġ
d Å«nĠ
z ÃłnĠ
Ġ F
ĠxuÃ© ĠshÄĵngĠ
r uÃ¬Ġ
ĠfÄĵnĠ biÃ©
Ġm iÇİnĠ
Ġh Å«nĠ
Ġ ÄĵnĠ
ĠguÄģnĠ xÃ¬Ġ
shuÅį Ġ
ĠyÇĴu Ġ
u ÄĽ
Ġl Ã¡o
ĠliÃ¡nĠ sÃłiĠ
ĠtÅįngĠ chÃ¡ngĠ
Ġs ÅįngĠ
ĠshÃ¹ nĠ
bÇĲ ĠsÃłiĠ
ĠyÇĲ ĠjÄ«ngĠ
Ġ19 2
q Ã¬ngĠ
ĠshÄĵngĠ huÃ³
ĠshÃłngĠ hÇİiĠ
chÅ« ĠxiÃłnĠ
ĠjuÃ© ĠdÃ¬ngĠ
Ġni ÇĶ
ĠzhÇĶ ĠyÃ¬Ġ
pÃŃngĠ fÄģngĠ
ĠfÇİ Ġ
ĠtiÄĽ ĠlÃ¹
ĠshÃ¬Ġ jiÃłnĠ
b ÃłiĠ
h Äģ
d ĠĠĠ
zhÃłnĠ zhÄĵngĠ
bÃ¹ ĠtÃ³ngĠ
ĠbÄĽiĠ jÄ«ngĠ
a s
ĠdÃł ĠlÃ¹
ĠxiÄģngĠ guÄģnĠ
b ÄĵiĠ
ĠshÃłngĠ de
Ġk uÇİnĠ
s Ã¹Ġ
p ÃŃnĠ
ĠyÃº Ġ201
ĠxÅ« ĠyÃło
ĠqÃŃngĠ kuÃłngĠ
Ġd ÇİoĠ
Ġm iÃ¡o
ĠwÃ¨iĠ le
Ġ Ã©
w ÃłnĠ
ĠzhÃ²ngĠ yÃło
ĠrÃ©nĠ yuÃ¡nĠ
b ÇĶ
Ġk ÄģnĠ
Ġzh uÄ«
yÄ«ngĠ guÃ³
rÃ©nĠ wÃ¹Ġ
19 9
ÇĲĠy Ãł
ch ÇĲĠ
ĠzÇĴngĠ tÇĴngĠ
w ÇĴ
k ÃłngĠ
tÃŃ ĠgÅįngĠ
Ġl iÃło
Ġg ÃłnĠ
Ġk ÇĴngĠ
fÄģngĠ miÃłnĠ
9 Ġ
l Ã¡ngĠ
fÄģ ĠzhÇİnĠ
ch Å«nĠ
ĠrÃ©nĠkÇĴuĠmÃ¬Ġ dÃ¹
ĠshÄĵngĠ yÃº
xuÃ© ĠyuÃłnĠ
Ġs hÃłnĠ
d ÇİoĠ
ĠjiÃło ĠyÃ¹
zÇĶ ĠzhÄ«
o f
s hÃło
xi Ã¡Ġ
Ġw ÄģnĠ
gÃ²ngĠ yÇĴu
Ġzh Äģo
ĠjiÃ© ĠguÇĴ
r Ã¨
l Çİo
ĠzhÃ¨ ĠzhÇĴngĠ
shÃ¨ ĠhuÃ¬Ġ
s hÃłnĠ
shÇĶ ĠyÃº
Ġã ĥ
1 6
m Ãło
y ÃłngĠ
ĠyÇĲ ĠxiÃł
shÃ¨ ĠyÇĴu
ĠdÇİo ĠzhÃ¬Ġ
r Ġ
zh ÇĲĠ
bÃ¹ ĠfÃ¨nĠ
ĠsuÇĴ ĠyÇĲ
ĠyÃ¬Ġ bÄģnĠ
ĠfÄģ ĠxÃŃngĠ
r ÃłngĠ
e s
Ġsh ÄĽnĠ
1 5
ĠzhÃ¬Ġ zuÃ²
ĠĠĠ T
bÃ¹ Ġde
ĠjÃ¬nĠ rÃ¹
Ġch Äģ
b Ãº
zhÃ¨ngĠ zhÃ¬Ġ
ĠxÃ¬Ġ liÃ¨
Ġz Ã¡
ĠĠĠ B
ĠshÃ¬Ġ yÃŃĠgÃ¨
zhÅįngĠ huÃ¡
Ġp ÃŃnĠ
ĠdÃ¬Ġ sÄģnĠ
ĠrÃ¨nĠ hÃ©
ĠzuÃ¬Ġ gÄģo
ĠbÃ¬ngĠ yÃº
ĠdÃº ĠlÃ¬Ġ
Ġy uÇİnĠ
ĠgÅįngĠ yuÃ¡nĠ
ĠhÃło Ġ
c Ã¨Ġ
ĠbÄģnĠ yÃ¡
ĠlÃ¡iĠ zÃ¬Ġ
ĠdÄģnĠ wÃ¨iĠ
f Ã¨ngĠ
Ġy Ã©
ĠgÄģiĠ dÃ¬Ġ
ĠrÃº ĠguÇĴ
ĠzhÄ« ĠyÄ«Ġ
Ġz ÃłnĠ
ĠĠ ĠbÄĽnĠ
Ġ 000
ĠĠĠ19 9
m ÇĲ
ï¼ į
Ġ J
ĠzÃ¬Ġ yÃ³u
sh Ä«Ġ
t Å«
Ġf ÇİngĠ
ĠliÃ¡nĠ mÃ©ngĠ
f ÄģnĠ
Ġs Å«nĠ
Ġs uÃłnĠ
Ġr ÇİngĠ
Ġy Çİ
yÄ«nĠ wÃ¨iĠ
ĠgÃ¨ ĠrÃ©nĠ
ĠjÅ«nĠ shÃ¬Ġ
q ÃŃnĠ
e ĠĠ
s ÄĵnĠ
ĠzhÃŃ Ġ
ĠliÃ¨ ĠchÄĵ
ĠyÃ¬nĠ dÃ¹
ĠĠĠdÃ¬Ġ lÇĲĠ
p Ä«
yÄ«nĠ yuÃ¨
shÃŃ ĠqÄ«
ĠfÄģngĠ shÃ¬Ġ
c ÇĲĠ
yÃ¬Ġ yuÃ¡nĠ
Ġy ÄģoĠqiÃº
l Ã³u
mÇİ ĠwÃ¨iĠ
s Ãł
ĠdÃł ngĠ
y Ä«Ġ
ĠgÄĵnĠ jÃ¹Ġ
d uÄģnĠ
Ġt ÃłnĠ
Ġg ÄĵngĠ
Ġb ÇĲĠ
ĠfÃ¹ ĠqÄ«nĠ
Ġd uÇİnĠ
ĠlÃ¬Ġ rÃº
3 ĠyuÃ¨Ġ
g ÃłiĠ
Ġt Å«
f ÇİngĠ
ĠduÃ¬Ġ yÃº
ĠcÇİiĠ yÃ²ngĠ
a ti
ĠfÄģ ĠshÄĵngĠ
dÃ© ĠguÃ³
Ġr Ã¹Ġ
o w
er Ġ
zh ÇĶĠ
yÄ« ĠzhÇĴngĠ
Ġ ÄģiĠ
chÃ©ngĠ yuÃ¡nĠ
ĠshÃ¹ ĠliÃłngĠ
ĠzhÃłnĠ zhÄĵngĠ
jiÃ© Ġ
ĠtÃ¨ ĠbiÃ©
ĠkÄģiĠ fÄģ
sh ÄĽnĠ
xi Ã¹
ĠxiÃłnĠ de
ĠguÃ³ ĠmÃŃnĠ
ĠgÃ¹ ĠshÃ¬Ġ
shÇĴu Ġ
Ġl Ãł
ĠjiÃłnĠ lÃ¬Ġ
Ġz Äģo
8 ĠyuÃ¨Ġ
1 7
ĠrÃ©nĠ de
g ÄģnĠ
q Ä«Ġ
ĠhÇİiĠ jÅ«nĠ
Ġd ÇĲngĠ
ĠcÃºnĠ zÃłiĠ
miÃłnĠ jÄ«
xi Ã³ngĠ
5 ĠyuÃ¨Ġ
hÃ²u Ġde
g uÃ¬Ġ
ĠsÄ« ĠtÃ¨
t h
Ġz ÃºĠ
Ġc hÃ¨
hÃ¹ nĠ
Ã¨r ĠshÃŃ
ĠzÇĶ ĠzhÄ«
7 ĠyuÃ¨Ġ
ĠzhÃ¹ Ġ
de ĠshÃŃ
ĠguÇİnĠ lÇĲ
ĠzhÃ¨ ĠyÄ«
z Äģo
ĠchÄĵngĠ wÃ©iĠ
f ÇĶĠ
chÃ©ngĠ shÃ¬Ġ
ĠxÃŃngĠ xÄ«ngĠ
ĠchÃ©ngĠ gÅįngĠ
b Ä«nĠ
Ġs ÃłnĠ
k uÃ²
i s
ĠshÃ¬Ġ wÃ¨iĠ
ĠjiÃłnĠ yÃº
ĠniÃ¡nĠ1 ĠyuÃ¨Ġ
Ġ19 1
ĠgÃ© Ġ
dÃł ngĠ
ĠjÇĲnĠ guÇİnĠ
g ÄĵngĠ
s Ã¨Ġ
Ġzh ÇĲĠ
g uÇĴ
uÃ¡ ngĠ
z ÇĴu
shÃ¬Ġ wÃ¨iĠ
b Çİ
w ÄĵnĠ
Ġx uÃ¡nĠ
chÄĵ ĠzhÃłnĠ
zh e
Ġp Ãło
Ġz ÇĴu
ĠrÃ©nĠkÇĴu Ġ
ĠchuÃ¡nĠ tÇĴngĠ
Ġk ÇİiĠ
u r
ĠqiÃº ĠduÃ¬Ġ
ĠchÃº Ġle
Ġã ģ
Ġw ÇĶĠ
ĠshÇĶ Ġde
ĠjÃ¬Ġ shÃ¹
ĠjuÃ© Ġ
ĠshÃŃ Ġde
ĠxuÃ© ĠmÃŃngĠ
Ġl Ã¡ngĠ
fÄģ ĠxÃŃngĠ
T Ġ
ĠniÃ¡nĠ12 ĠyuÃ¨Ġ
ĠnÃ¡ ĠdÃł
ĠcÄģnĠ yÃ¹
Ġc hÃ¬Ġ
9 ĠyuÃ¨Ġ
m ÇİnĠ
guÃłnĠ jÅ«nĠ
ĠyÃº Ġ
t uÃ¬Ġ
chÄĵ Ġ
o Ġ
m iÃ¡o
Ġc uÃ²
h ÄĵiĠ
4 0
ĠpÇĶ ĠchÃ¡
s ÄģiĠ
Ġqi Ã¨
rÃ©nĠ de
w ÇĶĠ
jÃ¬nĠ rÃ¹
ĠguÃłnĠ jÅ«nĠ
zhÃŃ Ġ
Ġh uÄģnĠ
Ġã Ĥ
ĠjiÃ¹ ĠshÃ¬Ġ
Ġy Ã¨Ġ
1 3
x uÃ¡nĠ
ĠjiÄģo ĠtÅįngĠ
Ġy ÅįngĠyÇĴu
Ġm Ãło
Ġf Ã¡nĠ
qÃŃ Ġ
yÇĲ ĠjÄ«ngĠ
ĠchÃ©ngĠ de
Ġx ÇĲ
ĠĠĠ L
6 ĠyuÃ¨Ġ
gÅįngĠ zuÃ²
ĠxÃŃngĠ shÃ¬Ġ
ĠdÅįngĠ bÄĽiĠ
dÃ¬Ġ qÅ«Ġ
ĠgÃ²ngĠ chÇİnĠ
Ġsh ÇĶĠ
ĠchÅ« ĠxiÃłnĠ
shÄĵngĠ huÃ³
Ġf Ã¨ngĠ
shÃłngĠ de
zhÇĶ ĠjiÃło
ĠxÃŃngĠ chÃ©ngĠ
Ġm ÃŃ
Ġq Ã¬ngĠ
shÃ¬Ġ jiÃłnĠ
m Ã³u
Ġ K
4 ĠyuÃ¨Ġ
biÄģnĠ mÇİĠwÃ¨iĠ
ĠĠ ĠyÇĶ
ĠqiÃ¡nĠ wÇİngĠ
jÄ«ngĠ jÃ¬Ġ
dÃł Ġ
ĠĠ ĠrÃ©nĠkÇĴuĠ
ĠwÅ« ĠkÃ¨ĠlÃ¡nĠ
ĠjÃ¹ ĠyÇĴu
ĠgÅįngĠ zuÃ²Ġ
ĠliÃ¡nĠ hÃ©
Ġr uÇİnĠ
s uÃ¬Ġ
ĠxuÃ© ĠjiÄģ
ĠchÄģo ĠguÃ²
ĠzhÃ¨ ĠshÃ¬Ġ
h eĠĠĠ
2 5
ĠjÃ¬Ġ huÃł
ĠmiÃłnĠjÄ« ĠwÃ¨iĠ
ĠlÄģ Ġ
huÃ¬Ġ yÃ¬Ġ
lÃ¬Ġ de
qÃŃ ĠtÄģ
Ġd Ã²u
l iÃło
yÃº Ġ
ĠyÃ¬Ġ shÃ¹
ĠliÃº Ġ
ĠyÃº ĠshÃ¬Ġ
wÃ¡nĠ chÃ©ngĠ
ãĢ ī
ãĢ Ī
Ġc Ã¡ngĠ
Ġqi Å«
p iÄģnĠ
h Å«
x Ã¹Ġ
Ã²u ĠguÃ²
ĠxuÄģnĠ bÃ¹
Ġm Ã¨ngĠ
wÃ©nĠ huÃł
Ġl ÄĽiĠ
r a
yÇĴu Ġ
l Ãº
Ġ19 0
1 4
ĠwÃ¹ ĠguÇİnĠ
dÄģngĠ shÃŃ
Ġs Åįu
xuÄģnĠ bÃ¹
ĠchÅ« ĠbÇİnĠ
w ÃłngĠ
d ÇĲngĠ
Ġy Ã¡o
Ġz ÃłngĠ
Ġs uÄģnĠ
Ġp ÄģiĠ
ĠzhÃŃ ĠdÃło
de ĠrÃ©nĠ
Ġ Ð
t ÃłnĠ
Ġt ÇĲĠ
ĠduÅį ĠshÃ¹
ĠfÇİnĠ yÃ¬ngĠ
ĠwÃ¨iĠ zhÃ¬Ġ
Ġy Ã¡
xÄ« ĠyÃł
ĠĠ ĠgÄģiĠ
d uÃ³
ĠĠĠ D
ĠxÃŃngĠ dÃ²ngĠ
ĠfÄģngĠ miÃłnĠ
d i
Ġp Ã©iĠ
ĠrÃ¡nĠÃ©r Ġ
Ġ W
ĠĠĠ R
ÇĲĠy Ã¨
jiÃłnĠ zhÃ¹
e c
ĠnÇļ ĠxÃ¬ngĠ
ĠshÃ¬Ġ yÃ³u
x ÇĲ
k Ġ
Ġz hÃł
ĠyÇĶ ĠyÃ¡nĠ
Ġg Å«
ĠshÄĵngĠ chÇİnĠ
ĠchÃ¹ Ġ
ĠĠĠ G
Ġxi Ã¹
ĠchÇİnĠ shÄĵngĠ
l Ã¨
f Ã¹Ġ
yÇĲngĠ xiÇİngĠ
guÇİnĠ lÇĲ
ĠzhÃ¨ngĠzhÃ¬Ġ rÃ©nĠwÃ¹Ġ
guÄģnĠ xÃ¬Ġ
Ġ1 00
ĠjÃŃ ĠtuÃ¡nĠ
ĠsÄ« ĠtÇİnĠ
xi Ã¨
A Ġ
ĠkÇĴu Ġ
ĠĠ Ġs
ĠĠ ĠxÃŃngĠzhÃ¨ngĠ
ĠwÃ¡nĠ chÃ©ngĠ
Ġde ĠrÃ©nĠ
ĠshÃŃ ĠqÄ«
yÃ²ngĠ yÃº
ĠsuÃŃ ĠhÃ²u
ĠzÃ¬Ġ zhÃ¬Ġ
ĠnÃ¨iĠ rÃ³ngĠ
p Ã©iĠ
r ÇİnĠ
s ÅįngĠ
le ĠyÄ«
ĠwÃ¨iĠyÃº ĠgÄģiĠ
Ġle ĠyÄ«
chÃ©ngĠ gÅįngĠ
ĠmÃŃngĠ chÄĵngĠ
Ġc ÃłiĠ
ĠkÃ²ngĠ zhÃ¬Ġ
li Ã¨Ġ
qÅ« Ġde
ĠqÃŃ ĠyÃº
ĠtÄģ ĠshÃ¬Ġ
Ã¨r ĠniÃ¡nĠ
ĠyÃ¹nĠdÃ²ngĠ yuÃ¡nĠ
ĠĠ ĠjiÄģ
f ormulaĠ
r uÃ²
qi Å«
ĠdÅįngĠ nÃ¡nĠ
tiÄĽ ĠlÃ¹
b ÇİngĠ
ĠguÃ² ĠchÃ©ngĠ
i Ã¨
Ġsh u
cÄģnĠ yÃ¹
y ÃłoĠ
a nĠ
Ġp Ãº
ĠzhÇĲ ĠyÇĴu
bÄĽiĠ jÄ«ngĠ
ĠyuÃ¨Ġ2 8ĠrÃ¬Ġ
Ġz hÃ©
ĠdÃł ĠliÃłngĠ
p ÇĲ
Ġx uÃ¨
ĠyÃ¬Ġ wÃ¨iĠ
6 0
ĠkÄĵ Ġ
ĠyuÃ¨Ġ1 5ĠrÃ¬Ġ
ĠxiÃł ĠlÃ¬ngĠ
t ÇĲngĠ
mÄĽiĠ yuÃ¡nĠ
ĠshÃ¨nĠ zhÃ¬Ġ
gÅįngĠ chÃ©ngĠ
ĠpÃŃngĠ jÅ«nĠ
p ÃŃ
Ġ3 0
ĠbiÄģo ĠzhÇĶnĠ
Ġz ÇĶĠ
2 4
f ÇĴu
ĠÃ©r ĠqiÄĽ
ĠhuÃ¬Ġ yÃ¬Ġ
Ġ2 Ġ
ĠshÃ²u ĠdÃło
Ġs ÇĶnĠ
ĠjÄ«ngĠ guÃ²
ĠdÄģngĠ zhÅįngĠ
ĠjiÄģ ĠrÃ¹
ĠchÅ« Ġde
ĠmÃŃngĠ de
Ġk uÄģnĠ
ĠdÃ¬Ġ fÄģngĠ
juÃ© ĠdÃ¬ngĠ
âĢ ĵ
r ÃºĠ
ĠluÃ³ ĠmÇİ
bÃ¹ ĠduÃ¬Ġ
fÃ¹ ĠzÃ©
y Ã¡Ġ
ĠwÃº ĠfÇİ
ngĠ ĠĠ
ÄģnĠ quÃ¡nĠ
Ġt Ã©ngĠ
ĠjÅ«nĠ duÃ¬Ġ
ĠniÃ¡nĠ10 ĠyuÃ¨Ġ
m Ġ
ĠhuÃ¡ iĠ
zh Çİo
Ġ200 1ĠniÃ¡nĠ
t ÃºĠ
ĠĠ Ġc
dÃ¬Ġ sÄģnĠ
19 8
zh uÃłnĠ
ĠbÄģoĠkuÃ² Ġ
ÇĶĠ ÄĽr
ĠdÃłnĠ zÃłiĠ
ĠyuÄĵ Ġ
ĠqiÃº Ġ
z hÃł
ĠfÃłnĠ wÃ©iĠ
shÇĴu ĠcÃ¬Ġ
nÃ¨iĠ de
ĠyÃ²ngĠ yÃº
Ġh uÃłiĠ
ĠxiÃłnĠ dÃłiĠ
suÇĴ ĠyÇĴu
ĠlÃ¬Ġ de
ĠyÃ¬Ġ huÃ¬Ġ
dÄģngĠ dÃ¬Ġ
jiÃłnĠ de
liÃ¨ ĠchÄĵ
Ġt Ã¬Ġ
zhÄ« ĠchÃŃ
ĠĠĠ19 8
Ġl ÃłiĠ
z ÃºĠ
Ġd uÄģnĠ
shÃłngĠ hÇİiĠ
ĠfÇİnĠ duÃ¬Ġ
ĠshÃ¬ĠyÄ« ĠzhÇĴngĠ
ĠjÇĶ ĠxÃŃngĠ
a nĠĠĠ
ĠwÇĴ ĠmenĠ
ĠyÃ¬Ġ yuÃ¡nĠ
jiÃło ĠyÃ¹
30 ĠrÃ¬Ġ
Ġzh Äģ
20 ĠrÃ¬Ġ
S Ġ
xi ÅįngĠ
ĠdÃ¬Ġ qÅ«Ġ
jÃ¬Ġ huÃł
ĠfÃ¹ ĠjÃ¬nĠ
ĠgÃ²ngĠchÇİnĠ dÇİngĠ
âĢ ¦
2 ĠyuÃ¨Ġ
0 ĠrÃ¬Ġ
ĠxÄ«nĠ wÃ©nĠ
Ġs Ã¹Ġ
ĠyuÃ¨Ġ2 5ĠrÃ¬Ġ
ĠtÄģ ĠcÃ©ngĠ
p Ġ
quÃ¡nĠ guÃ³
zh Äģo
d Ä«ngĠ
ĠdÃł ĠbÃ¹ĠfÃ¨nĠ
ĠzhÄ«Ġ hÃ²uĠ
wÅ« ĠkÃ¨ĠlÃ¡nĠ
Ã¨Ġ ÄĽr
ĠyuÃ¨Ġ1 0ĠrÃ¬Ġ
a y
Ġd uÃ³
ĠliÃ¡nĠ bÄģngĠ
ĠyÃ¬Ġ zhÃŃ
ĠwÃ¨nĠ tÃŃĠ
d uÇİnĠ
lÃ¡iĠ zÃ¬Ġ
shÃ¬Ġ zÃłiĠ
Ġs uÅį
ĠlÇľ Ġ
ĠhÃło ĠxiÃłnĠ
ÄĽnĠ dÃ¬ngĠ
ĠzÃ¬Ġ rÃ¡nĠ
ĠxÄ« ĠnÃ¡nĠ
deĠyÃŃĠgÃ¨ ĠshÃ¬ĠzhÃ¨nĠ
Ġji ÇĶĠ
Ġq ÇĲĠ
Ġsh Å«Ġ
ĠsuÇĴ Ġ
juÃ© ĠsÃłiĠ
ĠguÄ« ĠmÃ³
jiÄģ ĠrÃ¹
ĠĠĠ I
z hÃłngĠ
ĠĠĠ H
U T
Ġn iÃº
m Ã¡o
ĠqÃŃ ĠhÃ²u
shÃ²u ĠdÃło
ji Å«Ġ
Ġde ĠshÃ¹
ĠzÃłiĠ zhÃ¨
ĠtÃ³ngĠ shÃŃĠ
. .
ĠĠĠ F
ĠkÄĵ ĠxuÃ©
Ġd Å«nĠ
ĠjÃ¬Ġ xÃ¹
gÅįngĠ yuÃ¡nĠ
ĠfÄĵnĠbÃ¹ ĠyÃº
Ġm ÇİiĠ
Ġc hÃ³u
ĠgÄģo ĠdÃ¹
ĠsÄģnĠ niÃ¡nĠ
2 3
a g
lÃ¬Ġ shÇĲ
ĠniÃ¡nĠ11 ĠyuÃ¨Ġ
ĠbÃ¹ ĠduÃ¬Ġ
ĠyÇĴu ĠguÄģnĠ
de ĠjÄ«
w Ã²
ĠlÇĲngĠ dÇİo
ĠfÃº ĠwÃ¹
ĠxiÇİnĠ shÃ¬Ġ
d iÃ©
Ġx uÄĽ
qÇĶ ĠdÃ©
ĠzÇĶ ĠchÃ©ngĠ
ĠyÄ« ĠniÃ¡nĠ
cÃºnĠ zÃłiĠ
ĠbÇİnĠ bÄĽnĠ
qi ÄģngĠ
ĠzhÅįngĠ gÃ²ngĠ
ĠzuÃ² ĠyÃ²ngĠ
ĠzhÃŃ ĠyÃ¨
yÇĴu ĠxiÃłnĠ
c ÃŃĠ
zuÃ² ĠpÇĲnĠ
xuÇİnĠ jÇĶ
f ÃºĠ
gÃ© ĠlÃ¡nĠ
ĠzÃło ĠchÃ©ngĠ
ĠbÃ¹ ĠzhÇİngĠ
shÃ¹ nĠ
jiÃł Ġ
Ġm ÇĴu
ĠgÅįngĠ sÄ«Ġ
yÃ¬nĠ dÃ¹
i r
Ġb Ãł
ĠyuÃ¡nĠ yÄ«nĠ
Ġl Ã¼Ã¨
ĠĠ Ġ18
ĠhuÃ¡nĠ jÃ¬ngĠ
l Ã¼Ã¨
ĠshÇĴu ĠcÃ¬Ġ
ĠjiÇİnĠ chÄĵngĠ
shÃŃ ĠdÃłiĠ
Ġc Äģo
ĠshÃ¨ Ġ
ĠyÃº Ġ200
Ġde ĠshÃŃ
p ÄģiĠ
D Ġ
ch ÄģngĠ
ĠrÃ©nĠkÇĴu ĠpÇĶĠchÃ¡
ĠĠ ĠniÃ¡nĠ
en t
ĠjiÃ© ĠzhÃ¬Ġ
ĠmÃŃnĠ zÃº
ĠxÄ« ĠbÄĽiĠ
b ÇİoĠ
yÃº Ġ201
l ÄĵiĠ
ĠqÅ« ĠwÃ¨iĠ
u s
biÄģo ĠsÃłiĠ
ĠguÄģnĠ yÃº
Ġch Å«nĠ
ĠyÃ¹nĠdÃ²ngĠ huÃ¬Ġ
ĠlÃŃnĠ pÇĲ
ĠyuÃ¨Ġ1 8ĠrÃ¬Ġ
ĠmÃŃnĠ zhÇĶ
l ÇİnĠ
w Çİ
ĠqÃŃ Ġ
y ÅįngĠyÇĴu
ĠyÃ¬Ġ dÃłĠlÃ¬Ġ
ĠguÇİnĠ xiÃ¡Ġ
ĠyÇİnĠ yuÃ¡nĠ
ĠxiÃ© ĠhuÃ¬Ġ
sh ÇĶĠ
Ġde ĠjÄ«
Äģ ĠÄĽr
ĠxÃŃngĠ wÃ©iĠ
Ġl iÃłoĠ
ĠzhÃŃ ĠjiÄĵ
2 2
ĠlÃ¬ngĠ yÄ«
dÃ© Ġ
ĠĠĠ19 4
nÃł Ġ
ĠgÃ© ĠmÃ¬ngĠ
y Ã¡o
qiÃº ĠduÃ¬Ġ
zÇĴngĠ tÇĴngĠ
t ÇİnĠ
c Ã¡ngĠ
q iÇİnĠ
ĠchÅ« Ġle
jÄ« ĠchÇİngĠ
ĠyuÃ¨Ġ2 4ĠrÃ¬Ġ
ĠzhÅįngĠhuÃ¡ ĠmÃŃnĠguÃ³
ĠshÃ¨ ĠyÇĴu
ĠyuÃ¨Ġ2 6ĠrÃ¬Ġ
i g
k ÇĴngĠ
Ġs ÄģngĠ
Ġzh ÄĽnĠ
Ġ19 ĠrÃ¬Ġ
qiÃ¡nĠ wÇİngĠ
wÄĽiĠ yuÃ¡nĠ
ĠxuÇİnĠ zÃ©
t Çİo
ĠyuÃ¨Ġ1 6ĠrÃ¬Ġ
Ġy Äģo
jiÃłnĠ lÃ¬Ġ
xiÃłnĠ de
Ġ O
Ġq uÄĵ
ĠĠ ĠjÃ¹
ĠshÃ¬ĠwÃ¨iĠyÃº ĠmÄĽiĠguÃ³
xÅ« ĠyÃło
ĠzÅįngĠ jiÃło
o o
ĠyuÃ¨Ġ1 7ĠrÃ¬Ġ
ĠguÄģnĠ fÄģngĠ
Ġli Ã¨Ġ
ĠnÃ¡nĠ ziĠ
shÃ¬Ġ yÄ«
ĠchÃº nĠ
ĠyuÃ¨Ġ1 2ĠrÃ¬Ġ
ĠzhÃłnĠ dÃ²u
g uÇĲ
ĠzuÃ¬Ġ chÅ«
jÃŃ ĠtuÃ¡nĠ
zhÇĶ nĠ
Ġc Çİo
ĠmÃŃngĠ zÃ¬Ġ
hÃ¡nĠ guÃ³
xÃŃngĠ de
ĠyuÃ¨Ġ1 1ĠrÃ¬Ġ
f Ã¡nĠ
jiÃ© ĠshÃ¹
ĠlÃŃnĠpÇĲ ĠkÃ¨
hÃ²u ĠlÃ¡iĠ
Ġr Ã²u
Ġz Å«nĠ
e d
c hÃ¬Ġ
sh u
Ġn ÃŃĠ
ĠtÄģĠmenĠ de
ĠzÃłiĠ 201
zÃº ĠqiÃº
l uÃłnĠ
8 0
jÃ¬Ġ xÃ¹
zhÃ¬Ġ zuÃ²
m iÃło
Ġn ÃłiĠ
ĠshÃŃ ĠdÃłiĠ
ĠdÃł Ġ
qiÃº Ġ
e m
r Ã¹Ġ
zÇĶ ĠchÃ©ngĠ
Ġc ÃŃĠ
xuÃ© ĠshÄĵngĠ
ĠyuÃ¨Ġ2 7ĠrÃ¬Ġ
kÄģiĠ fÄģ
jiÄĵ Ġ
Ġj ÃºĠ
ĠzhÅįu Ġde
Ġl ÃŃĠ
Ġt ÃºĠ
chÅ« ĠbÇİnĠ
huÃ¡ iĠ
ĠyuÃ¨Ġ2 1ĠrÃ¬Ġ
UT CĠ
ĠgÃ²ngĠ tÃ³ngĠ
ĠyuÃ¨Ġ2 ĠrÃ¬Ġ
zhÃ¨ ĠxiÄĵ
00 Ġ
ĠyuÃ¨ Ġ19ĠrÃ¬Ġ
shÄģ Ġ
l Ã©iĠ
ĠzhÄ« ĠqiÃ¡nĠ
ĠtÄģ Ġ
ĠbÄģo ĠhÃ¡nĠ
s uÄģnĠ
ĠduÅį Ġ
ĠyuÃ¨Ġ2 2ĠrÃ¬Ġ
ĠĠ ĠshÃ¬Ġ
20 20ĠniÃ¡nĠ
ĠkÃ¨ ĠsÄ«
p Ã©ngĠ
ĠyuÃ¨Ġ2 3ĠrÃ¬Ġ
dÇİo ĠzhÃ¬Ġ
ĠĠĠ W
c Çİo
Ġm ÇĶĠ
c uÃ²
Ġp Ã¡ngĠ
zh uÄ«
yÃ³u ĠyÃº
ĠsÅ« ĠliÃ¡nĠ
ĠjuÃ© ĠsÃ¨
ĠyuÃ¨Ġ1 4ĠrÃ¬Ġ
3 1ĠrÃ¬Ġ
k Ã¹
ĠdÃł ĠzhÃłnĠ
ĠfÄĵnĠ zhÅįngĠ
chÇİnĠ shÄĵngĠ
ĠgÄĵ Ġ
ĠchÃ³ngĠ xÄ«nĠ
7 0
ĠjiÃ© Ġ
ĠyuÃ¨Ġ2 9ĠrÃ¬Ġ
ĠnÇļ ĠzÇĲ
z ÃłngĠ
hÃ¹ Ġ
ĠyÄ« ĠmÃŃngĠ
ĠshÇĲ Ġde
Ġm ÇĲnĠ
yÇĲ ĠlÃ¡iĠ
2 1
c hÃ³u
p iÃło
ĠzÃłiĠ dÃ¬Ġ
ĠmÃ©iĠ tÇĲ
ĠxuÇİnĠ qÅ«
ĠfÄĵiĠ chÃ¡ngĠ
ĠÄģ ĠÄĽr
ĠdiÃło ĠchÃ¡
gÅįngĠ zuÃ²Ġ
ĠÃ©r ĠziĠ
g ÃłnĠ
ĠyuÄĵ ĠhÃłnĠ
Ġch ÇĲ
ĠshÃ¬Ġ fÇİĠguÃ³
Ġn iÇİo
t er
ĠfÄģ Ġ
ĠlÇĲ ĠlÃ¹nĠ
xÃŃngĠ zhÃ¨ngĠ
ĠyuÃ¨Ġ1 3ĠrÃ¬Ġ
zhÃ²ngĠ yÃło
Ġn ÇĶ
ĠlÄģ ĠsÄ«
y ÄģoĠqiÃº
fÄģ ĠbiÇİo
ĠsÃłiĠ shÃ¬Ġ
Ġ U
zhÃ¬Ġ de
ĠguÇİngĠ dÅįngĠ
Ġz Ä«Ġ
Ġm Ã¨iĠ
ĠyÄĽ ĠyÇĴu
ĠbÃº ĠshÃ¬Ġ
ĠrÃ¡nĠ hÃ²u
ĠzÃ¬ĠjÇĲ Ġde
Ġsh uÃ¬Ġ
ĠwÃłiĠ jiÄģo
s Å«nĠ
ĠwÃ¹ ĠzhÇĴngĠ
ĠzhÃº ĠjiÃłnĠ
ĠjiÄĵ ĠshÃ²u
jÃ¬Ġ shÃ¹
ĠsÃłiĠ jÃ¬Ġ
ĠshÃ¬Ġ hÃ©
b ÇĲĠ
mÃŃnĠ zhÇĶ
ĠxÄ« ĠbÄģnĠyÃ¡
u b
ĠlÃ¨iĠ sÃ¬Ġ
Ġb ÃłoĠ
ĠbiÇİo ĠxiÃłnĠ
ĠgÅįngĠ kÄģiĠ
ĠmÇĶ ĠqÄ«nĠ
ĠĠĠ E
dÄģnĠ wÃ¨iĠ
ĠzuÃ¬Ġ jiÄģ
shÅ« ĠjÃ¬Ġ
ĠwÃ¨iĠyÃºĠgÄģiĠ guÃ³
r uÇİnĠ
Ġf Ã©ngĠ
ĠchÃ©ngĠ jÃ¬Ġ
z ÃłoĠ
ĠqÇĶ ĠdÃ©
ĠdÃł ĠhuÃ¬Ġ
h Å«nĠ
ĠguÃ³ Ġ
ĠyÄ«nĠ cÇĲĠ
zuÃ¬Ġ gÄģo
fÃ¹ ĠjÃ¬nĠ
ĠbÃ¬Ġ xÅ«
u n
Ġb ÃłngĠ
zÃ¬Ġ yÃ³u
Ġq Ã¹Ġ
xÃŃngĠ chÃ©ngĠ
jÅ« ĠmÃŃnĠ
shÃŃ Ġde
o s
Ġk ÄĽnĠ
suÇĴ Ġ
ĠrÃ©nĠ lÃ¨iĠ
ĠtÃ¡iĠ bÄĽiĠ
zuÃ¬Ġ zhÅįngĠ
ĠlÃ¡iĠ xÄ«ĠyÃł
gÅįngĠ shÃ¬Ġ
fÄĵnĠ biÃ©
Ãło ĠyÃ¹nĠ
jÇĶ ĠbÃłnĠ
jÃ¹ ĠyÇĴu
Ġzh Çİo
iĠ ĠĠ
Ġs ÇĲĠ
n Çİo
zhÅįngĠ gÃ²ngĠ
ĠmÃ¹ ĠdÃ¬Ġ
Ġr ÃºĠ
19 7
Ġ V
ĠxÄ« ĠyÃł
ĠnÃ©ngĠ lÃ¬Ġ
k ÄģnĠ
Ġf Ã³
ĠxÄ« ĠwÃłngĠ
ĠqÃŃ ĠshÃ¬Ġ
ĠguÄ« ĠdÃ¬ngĠ
fÄģngĠ shÃ¬Ġ
ĠdÃ© ĠdÃło
jÅ«nĠ shÃ¬Ġ
nÃŃ ĠyÃł
diÃło ĠchÃ¡
u m
zhÄ«Ġ hÃ²uĠ
z ÇĶĠ
E E
ĠbÃ¬ngĠ wÃ¨iĠ
dÃ¬Ġ guÃ³
Ġk Ãło
yÃŃ Ġ
pÃŃngĠ yÃ¡ngĠ
p Ã¡nĠ
Ġc ÄģngĠ
k ÇİiĠ
zhÄ« ĠqiÃ¡nĠ
luÃ² Ġ
ĠzÄĵngĠ jiÄģ
ĠdÃ¬Ġ guÃ³
p Ãło
yÇĶ ĠyÃ¡nĠ
ĠtÃłiĠ yÃ¡ngĠ
yÃ¬Ġ shÃ¹
bÅį Ġ
ĠÄĽr ĠshÄĽngĠ
ĠfÄĵnĠ wÃ©iĠ
Ġz ÄģiĠ
y Çİ
Ãło ĠlÃŃnĠpÇĲĠkÃ¨
ĠyÃ³u ĠzhÃ¨ngĠ
ĠyÃŃnĠ hÃ¡ngĠ
de ĠgÅįngĠ
Ġ200 9ĠniÃ¡nĠ
ĠjÃ¬Ġ niÃłnĠ
ch ÇĲ
g Å«
t Ã¨Ġ
ĠhuÃ² Ġ
ĠmÃŃngĠ wÃ¨iĠ
ĠwÄĽiĠ yuÃ¡nĠ
ĠjÃ¹ ĠlÃ¨
ĠchÃ¡o ĠxiÄģnĠ
ĠquÃ¡nĠ lÃ¬Ġ
l ÇĶ
ĠsÄģnĠ gÃ¨
o c
ĠjÃ¬ngĠ nÃ¨iĠ
yÃŃ ĠbÃ¹
ĠwÃ¡nĠ quÃ¡nĠ
ĠjiÃ© ĠmÃ¹
ĠdÃ¡ Ġ
z hÃ©
shÄĵngĠ chÇİnĠ
ĠfÇİ ĠlÇľ
Ġb ÇĲngĠ
Ġd ÇĴngĠ
ĠgÃ²ngĠ yÇĴu
jiÄģo ĠtÅįngĠ
ĠsÃ¬Ġ niÃ¡nĠ
wÃº ĠfÇİ
cÇİiĠ yÃ²ngĠ
z Ã²u
sh uÃłiĠ
Ġ20 20ĠniÃ¡nĠ
ĠxÄ«nĠ de
ĠshÃŃ ĠjÃ¬Ġ
ĠchuÃłngĠ zuÃ²
ĠliÇİngĠ rÃ©nĠ
yÇĴu ĠyÄ«
fÇİ ĠyuÃłnĠ
m e
m ÇĶĠ
ĠgÇİiĠ wÃ©iĠ
Ġt ÇĲĠyÃ¹
ĠzhÃ¨ ĠjiÄģngĠ
xiÃł ĠjÃ¬Ġ
an d
yÃ¬Ġ huÃ¬Ġ
x uÃ¨
ĠĠ ĠzhÃ¨ngĠzhÃ¬Ġ
ĠchÄĵ Ġ
ĠdÃł ĠlÃ¬ĠyÃł
9 ĠyuÃ¨
z ÄģiĠ
Ġ3 Ġ
xi Å«Ġ
ĠbÃ¨iĠ jÇĲngĠ
xÃŃngĠ dÃ²ngĠ
juÃ© Ġ
o p
ĠzhÅįngĠ shÃ¬Ġ
ĠfÃº Ġ
ĠmÃŃngĠ chÃ¡o
ĠlÇĲ ĠsÄ«
Ġxi ÇİoĠ
4 8
ĠshÄĵnĠ fÃ¨nĠ
ĠwÃ¨iĠ mÄĽiĠ
de ĠdÃł
ĠxiÃłnĠ zhÃ¬Ġ
Ġn ÇİiĠ
rÃ©nĠ shÃ¬Ġ
ĠnÃł Ġ
ĠĠ Ġp
ĠjiÄģngĠ jÅ«nĠ
3 5
Ġt ÃŃĠ
ĠĠ ĠyÃ³uĠyÃº
gÃ© ĠmÃ¬ngĠ
Ġ18 9
Ġm iÃ¨
2 8
ĠlÃ¬Ġ yÃ²ngĠ
ĠqÄ« ĠxÄ«
a d
sh uÇĲĠ
Ġji Ã¨Ġ
ĠzhÇĶ ĠrÃ¨nĠ
ĠjÅ« ĠmÃŃnĠ
ĠjiÄģ ĠtÃŃngĠ
ĠdÃ¬ngĠ yÃ¬Ġ
shÃŃ ĠqÄ«Ġ
dÃłĠxuÃ© Ġ
ĠhÄĽnĠ duÅį
kÄĵ ĠxuÃ©
N S
p Ãł
xuÃ© ĠwÃ¨iĠ
Ġd iÄģo
o t
ĠshÃ¹ĠliÃłngĠ wÃ¨iĠ
Ġde ĠgÅįngĠ
ĠyÃ³u Ġ
ĠgÃ© ĠlÃ¡nĠ
a p
ĠdiÃłnĠ ziĠ
mÄĽiĠguÃ³ ĠrÃ©nĠkÇĴuĠpÇĶĠchÃ¡
Ġ20 19ĠniÃ¡nĠ
wÃ¹ ĠbÇİoĠhÃ¹
ĠcÃ©ngĠ rÃ¨nĠ
ĠlÃ¬Ġ rÃºĠ
Ġ202 1ĠniÃ¡nĠ
jÃ¬Ġ niÃłnĠ
ĠgÄģo Ġ
miÃłnĠ jÄ«Ġ
yuÃ¨ Ġ
Ġ5 Ġ
Ġb ÇİngĠ
hÃ© ĠzuÃ²
2 6
t Ã¬Ġ
shÃ¨ ĠlÃ¬Ġ
ĠjÃ¬Ġ suÃłnĠ
chÃ³ngĠ xÄ«nĠ
ĠzÇİo ĠqÄ«
ĠgÃ¨ ĠzhÇĴngĠ
ĠbiÄģo Ġ
ĠdÃ¬Ġ lÃ¬Ġ
Ġg uÅį
jiÄģ ĠpÅį
ĠqÅ« Ġde
ĠyÇĶ nĠ
ĠlÃ¹ ĠjÅ«nĠ
ĠqÅ« ĠyÃ¹
Ġ201 0ĠniÃ¡nĠ
liÃ¡nĠ mÃ©ngĠ
ĠdÃ¬Ġ sÃ¬Ġ
Ġ200 8ĠniÃ¡nĠ
xÃŃngĠ shÃ¬Ġ
ĠzhÃŃ ĠxÃŃngĠ
xi Ã¡ngĠ
ĠgÄģo ĠdÃ¹Ġ
Ġr ÇĶ
jiÄĵ ĠshÃ²u
tÅįngĠ chÃ¡ngĠ
ĠwÃ¨nĠ tÃŃ
ĠbÃ³ ĠshÃ¬Ġ
2 7
ĠzÃłiĠ 200
luÃ³ ĠmÇİ
zhÃ¨ Ġge
shÄĽngĠ fÃ¨nĠ
shÃ¬Ġ zhÇİngĠ
jiÄĽ ĠfÃłngĠ
ĠĠĠ N
ĠjÃ¬Ġ zÇİiĠ
Ġq iÇİnĠ
n iÇİo
Ġj uÇİnĠ
ĠjÃ¹ ĠlÃŃ
m ÇĴu
Ġde ĠdÃł
ĠqiÃº ĠyuÃ¡nĠ
xÄ«nĠ wÃ©nĠ
yÃ¨ ĠyÃº
ĠshÄģ Ġ
ĠwÇĶ ĠniÃ¡nĠ
ĠshÄĽngĠ jÃŃ
ĠxiÃłnĠ shÃŃ
ĠyÃ²u ĠchÄĵngĠ
dÃº ĠlÃ¬Ġ
ĠshÄģngĠ yÃ¨
ĠĠ Ġm
ĠjÄ« ĠchÇİngĠ
ĠtÇĴngĠ zhÃ¬Ġ
l Ã¡o
Ġzh uÃ³
yÃ¬Ġ zhÃŃ
q uÄĵ
ĠjÃ¬Ġ lÃ¹
ĠfÄģ ĠbiÇİo
ĠgÄĵ ĠqÇĶ
a b
shÃ¨ nĠ
de ĠhÃ©
huÃł Ġde
wÃ©nĠ xuÃ©
ĠzÃłiĠ cÇĲ
i nĠĠĠ
ĠzÃłiĠ cÃ¬Ġ
Ġg Åįu
ĠgÃ¨ Ġ
Ġk uÃłngĠ
kÃ²ngĠ zhÃ¬Ġ
ĠjiÄĵ ĠrÇİngĠ
2 9
ĠnÃ©ngĠ gÃ²u
ĠnÇļ Ġ
ĠxiÇİo ĠshÃŃĠ
ĠjiÃło Ġ
ĠbÃ¨iĠ chÄĵngĠwÃ©iĠ
ĠniÇĶ ĠyuÄĵ
P Ġ
Ġd iÃ©
ĠdÃ²ngĠ wÃ¹
Ġz hÃ¡iĠ
ĠrÃ©nĠ shÃ¬Ġ
ĠzhÃ¬Ġ de
ĠjiÃ© ĠgÃ²u
b ÇİoĠhÃ¹
ĠjiÄģ ĠnÃ¡ĠdÃł
Ġf ÇĶĠ
ni ÇĶ
Ġzh uÃłnĠ
ĠbÃ³ ĠwÃ¹ĠguÇİnĠ
Ġg ÇĶĠ
yÃ¬Ġ dÃłĠlÃ¬Ġ
ĠshÄĵngĠ wÃ¹
k uÇİnĠ
qÃ¹ ĠshÃ¬Ġ
Ġk Ã¹Ġ
nÃ¡nĠ ziĠ
n iÃº
ĠrÃ¨ ĠdÃłiĠ
7 ĠyuÃ¨
ĠĠĠ19 7
Ġk Å«nĠ
rÃ©nĠ yuÃ¡nĠ
ĠzhÄĵngĠ yÃ¬Ġ
ĠxÄ« ĠlÃł
Ġb rĠ
ĠyÇĴu ĠyÄ«
lÃ¹ ĠdÃ¬Ġ
ĠhuÃł ĠxuÃ©
ĠyÇĴu ĠxiÃłnĠ
sÄ« ĠlÃ¬ngĠ
ĠĠĠ19 5
Ġb ÇİoĠ
ĠxiÃł Ġde
shÃ¬ĠjiÃ¨ ĠdÃłĠzhÃłnĠ
ĠxÃŃngĠ de
fÇİnĠ yÃ¬ngĠ
Ġc Ã¨Ġ
xiÃło Ġ
fÃº ĠwÃ¹
ĠgÅįngĠ lÇĲ
y Ã©
19 4
ĠĠ ĠyÃº
Ġch ÄģngĠ
ĠbÃ¹ ĠzÃłiĠ
Ġni Ã¨
wÃ¹ĠbÇİoĠhÃ¹ ĠdÄģnĠwÃ¨iĠ
ĠwÃ¡nĠ jiÄģ
zuÃ¬Ġ hÃ²u
ĠyÄ«ngĠ chÇĲĠ
a v
ĠĠĠ 3
ĠjÃŃ ĠzhÅįngĠ
Ġn Çİo
ĠlÄģ ĠbÃ³
ĠdÅįu ĠshÃ¬Ġ
dÃ© ĠdÃło
ĠbÃ¹ ĠnÃ©ngĠ
Ġk uÃŃ
Ġ202 2ĠniÃ¡nĠ
ĠpÃŃngĠ lÃ¹nĠ
ĠĠ ĠformulaĠ
ĠzhÇĲ ĠshÃ¬Ġ
Ġde ĠhÃ©
ĠwÃłnĠ rÃ©nĠ
xÄ« ĠshÄĽngĠ
ĠzuÃ¬Ġ dÃł
Ġx Ãº
Ġsh ÇİnĠ
yÄ« ĠyuÃłnĠ
sh Äģo
ĠzhÃ¨ ĠyÃłngĠ
i m
ĠgÅįngĠ yÃ¨
ĠxiÄģngĠ dÄģngĠ
i Äĵ
Ġc Ã¡o
Ġ4 Ġ
qi Ã¨
ÃłoĠlÃŃnĠpÇĲĠkÃ¨ ĠyÃ¹nĠdÃ²ngĠhuÃ¬Ġ
ĠpÄ« ĠpÃŃngĠ
o v
xiÄģngĠ guÄģnĠ
ĠyÃ¬ngĠ yÃ²ngĠ
ĠshÃ¨ ĠlÃ¬Ġ
guÃ³ ĠmÃŃnĠ
xÄ«nĠ de
ĠbÄģ ĠshÃ¬Ġ
liÃ¡nĠ hÃ©
g ÇĶĠ
ĠzhÃŃ ĠwÃ¹Ġ
ĠmÄĽiĠ niÃ¡nĠ
ĠxiÃłngĠ mÃ¹
zhÅįngĠhuÃ¡ ĠrÃ©nĠmÃŃnĠgÃ²ngĠhÃ©ĠguÃ³
ĠxÄ« ĠyÃ¡ngĠ
ĠcÃ¬Ġ shÃ¬ĠjiÃ¨ĠdÃłĠzhÃłnĠ
b ÃłngĠ
ĠshÃŃĠ Ã¨r
Ġy ÄģnĠ
kÄģiĠ shÇĲĠ
ĠdÃłĠxuÃ© Ġ
j ÇĶĠ
qÃŃngĠ kuÃłngĠ
Ġt Ã²uĠguÃ²
sÇĲ ĠwÃ¡ngĠ
Ġzh ÄģnĠ
chÃº nĠ
ĠkÅįngĠ jiÄģnĠ
ĠĠ Ġf
Ġ Åįu
dÅįngĠ bÄĽiĠ
ĠxÃ¬Ġ bÄģo
ĠgÅįngĠ fÄĵnĠ
yÄ« ĠxiÄĵ
i nĠ
ĠĠ Ġb
ĠsÄ« ĠkÄĵ
Ġy ÅįngĠ
ĠjiÃłnĠ yÃ¬Ġ
ĠdÅįngĠ jÄ«ngĠ
jÃŃ Ġde
ĠcÃ©ngĠ jÄ«ngĠ
n ÃŃĠ
miÃłnĠjÄ« ĠwÃ¨iĠ
ĠlÃŃ ĠkÄģiĠ
3 ĠyuÃ¨
shÃ¬Ġ dÃ¬Ġ
Ġk ÄĵngĠ
mÄĽiĠ zhÅįu
ĠjÇĶ ĠbÃłnĠ
ĠquÃ¡nĠ qiÃº
ĠsÄ« ĠlÃ¡nĠ
ĠlÃ³u Ġ
ĠjiÄĵ ĠduÃłnĠ
ĠshÄģnĠ dÅįngĠ
ĠhÃ¡iĠ yÇĴu
ĠshÃŃ ĠniÃ¡nĠ
ĠrÃ©nĠkÇĴu ĠshÃ¹ĠliÃłngĠwÃ¨iĠ
ĠgÅįngĠ gÃ²ngĠ
ĠbÇĲ ĠlÃ¬Ġ
ĠĠĠ19 6
ĠbÃ¨iĠ ÄĽr
Ġ201 1ĠniÃ¡nĠ
ĠzhÇĶ ĠchÃŃ
8 ĠyuÃ¨
ĠluÃ³ Ġ
ĠxÃ¬ngĠ de
ĠbÃ¹ Ġde
4 5
liÇİngĠ gÃ¨
chÃ¹ Ġ
ĠchÃŃ ĠxÃ¹
ĠgÃłiĠ niÃłnĠ
gÅįngĠ kÄģiĠ
ĠgÄĵ ĠqÇĶĠ
ĠyÄ« ĠshÃ¬Ġ
duÅį Ġ
19 6
n Ã¡
ĠjÄ« ĠbÄĽnĠ
ĠlÃ¹ ĠxiÃłnĠ
b Ãł
ĠguÃ³ ĠwÃ¡ngĠ
9 0
Ġk uÃł
hÃº Ġ
Ġh ÄĵngĠ
ĠwÃ¨iĠyÃº ĠfÇİĠguÃ³
sh ÇİngĠ
p Ãº
ĠshÃ¬Ġ chÇİngĠ
ĠdÃł Ġde
yÃŃnĠ hÃ¡ngĠ
ĠtÃ³ngĠ yÃłngĠ
sÃłiĠ shÃ¬Ġ
Ġ200 7ĠniÃ¡nĠ
ĠĠ ĠyÄ«
ĠĠ ĠchÄĵĠzhÃłnĠ
ĠyÃ¬Ġ shÃ¬Ġ
jÃ¬nĠ shÃ¬Ġ
yÇĴu ĠguÄģnĠ
yÃ¬Ġ yuÃłnĠ
ĠxiÄģngĠ duÃ¬Ġ
ĠyÃł ĠzhÅįu
Ġ5 0
r Ãło
ĠĠ ĠgÄĵnĠjÃ¹Ġ
Ġl ÃłngĠ
rÃ¨nĠwÃ©iĠ shÃ¬Ġ
Ġl uÃłnĠ
ĠfÄĵnĠ lÃ¨iĠ
ĠtÃŃ ĠchÅ«
ĠluÃ² Ġ
Ġ2 5
zÃło ĠchÃ©ngĠ
Ġsh Äģo
ĠmÇİ Ġ
xÇĶ ĠduÅį
Ġh an
ĠwÃ©iĠ ÄĽr
ĠzÇĴngĠ rÃ©nĠkÇĴu
wÃ©iĠ yÄ«
fÃłnĠ wÃ©iĠ
Ġ18 8
ĠwÃ¹ ĠyuÃłnĠ
I Ġ
ĠtiÄģnĠ jÄ«nĠ
Ġh ÇİnĠ
de ĠshÃ¬ĠzhÃ¨nĠ
Ġc Ã¹
jiÃ© ĠmÃ¹
biÄģo ĠzhÇĶnĠ
ĠpÃ¡iĠ mÃŃngĠ
6 ĠyuÃ¨
c ÄģngĠ
ĠlÃ¡iĠ de
m Ã¨ngĠ
ĠjiÃłnĠ shÃ¨
yÃ¡nĠ zhÃ²ngĠ
Ġc uÃ¬Ġ
ĠtÃ¨ ĠzhÄĵngĠ
f Ã³
Ġde ĠxÄ«nĠ
ĠdeĠshÃ¹ ĠjÃ¹Ġ
ĠĠ ĠzhÃ¨
zÃ© Ġ
c ÃłiĠ
ĠmÄĽiĠ gÃ¨
Ġc uÄ«
ĠbÄĽiĠ bÃ¹
ĠqÄ«ngĠ niÃ¡nĠ
zhÅįu ĠshÃ¬Ġ
d iÄģnĠ
00 ĠwÃłnĠ
Ġt Çİo
lÃ¡iĠ de
ĠtÇĶ ĠdÃ¬Ġ
k uÄģnĠ
Ġn iÃłnĠ
ĠmÃ³ ĠshÃ¬Ġ
Ġ201 2ĠniÃ¡nĠ
z Ã¡
ĠrÃ¬Ġ jÅ«nĠ
Ġp Ã¡nĠ
ĠbÃ¬ngĠ jiÄģngĠ
ĠfÃº ĠjiÃłnĠ
gÇİiĠ wÃ©iĠ
ĠyÃ¡nĠ jiÅ«Ġ
ĠmÃ¬ngĠ mÃŃngĠ
b ÇĲĠyÃł
Ġl ÇİnĠ
a k
ĠÃ©r Ġ
ĠchÃ©ngĠ qÅ«Ġ
ĠwÃ¨iĠmÄĽiĠ pÃŃngĠfÄģngĠ
5 ĠyuÃ¨
yuÃ¡nĠ de
ĠguÇĴ Ġ
Ġt Ãło
sh uÃ¬Ġ
ĠzhÃ¬Ġ zÃło
ĠjiÃ¹ ĠshÃ¬ĠzhÃ¨nĠ
Ġh uÇĲ
ĠsuÇĴ ĠshÇĶĠde
z ÇĲĠ
Ġl ÄĽngĠ
ĠchÃ©ngĠ zhÃ¨nĠ
fÄĵiĠ chÃ¡ngĠ
s i
ĠzhÅįngĠguÃ³ ĠdÃłĠlÃ¹
ĠjiÃło ĠtÃ¡ngĠ
ĠqÄ«ngĠ chÃ¡o
k ÄĽnĠ
hÃ¡o ĠmÇĲĠ
Ġsh uÇĲĠ
hÃ©ngĠ xÄ«ngĠ
ĠyÄ« ĠcÃ¬Ġ
gÅįngĠ yÃ¨
3 3
z Å«nĠ
4 ĠyuÃ¨
ĠdÃł ĠqÅ«
ĠdÃ¬ngĠ de
zhÇĶ ĠrÃ¨nĠ
ĠrÃ©nĠkÇĴuĠmÃ¬ĠdÃ¹ ĠwÃ¨iĠmÄĽiĠpÃŃngĠfÄģngĠ
Ġ200 5ĠniÃ¡nĠ
yÄ« ĠcÃ¬Ġ
ĠzhÇĲ ĠhuÄ«
ĠrÃ©nĠ menĠ
kÄģiĠ fÃłngĠ
ĠjÇĲnĠ biÄģoĠsÃłiĠ
dÅįu ĠshÃ¬Ġ
ĠgÃ¨ ĠdÃ¬Ġ
chÃ¡ Ġ
ĠĠĠ 2
E Ġ
Ġp ÄģnĠ
201 0ĠniÃ¡nĠ
ĠmÄĽiĠ pÃŃngĠfÄģngĠ
w Ġ
hÃ¡iĠ yÇĴu
ĠshÃŃ ĠyÃłnĠ
rÃ¨nĠ mÃ¬ngĠ
wÃ¨nĠ tÃŃ
tÃ¨ ĠbiÃ©
zÃ¬ĠjÇĲ Ġde
ĠyÇİnĠ chÃłngĠ
ĠÃ©r ĠshÃ¬Ġ
ĠxiÇİo ĠshÃŃ
ĠcÃ³ngĠ Ã©r
ĠchÇĶ ĠlÇĲ
ĠrÃ©nĠkÇĴuĠshÃ¹ĠliÃłngĠwÃ¨iĠ rÃ©nĠ
Ġ200 6ĠniÃ¡nĠ
ĠshÅ« ĠjÃ¬Ġ
k Ãło
ĠwÃ©iĠ yÃł
ĠĠĠ19 3
deĠyÄ« ĠbÃ¹ĠfÃ¨nĠ
ĠI NS
j ÃºĠ
m ÇĲnĠ
ĠĠ ĠtÄģ
19 5
s hÃ²uĠ
Ġm Ã¡
Ġ201 3ĠniÃ¡nĠ
lÇľ Ġ
b ÇĲngĠ
Ġt ÃºnĠ
shÃ¬Ġ shÃ¬Ġ
ĠxuÇİnĠ jÇĶ
chÄģo ĠguÃ²
Ġd ÃŃĠ
ĠĠĠ hÃ©
ĠÄģnĠ quÃ¡nĠ
ĠsÃ¬Ġ chuÄģnĠ
ĠyuÃ¨ ĠtÃ¡iĠ
ĠniÃ¡nĠ1 ĠyuÃ¨
shÃŃĠ Ã¨r
Ġ201 6ĠniÃ¡nĠ
ĠjÄ« ĠbÃłiĠ
ĠdÇİo ĠyÇİnĠ
sh ÇĲĠy
wÃ¨nĠ tÃŃĠ
ĠINS EE
de ĠxiÇİo
ĠwÄĵiĠ liÃ¡nĠ
ĠsÃ¨ ĠliÃ¨
ĠdÃł ĠyuÄĵ
ĠwÃ©nĠ xuÃ©
tÃŃ ĠchÅ«
ĠzhÃŃ ĠzhÃ¬Ġ
Ġq ÇĲĠyÃ¨
de ĠxÄ«nĠ
ĠĠĠ K
ĠxÃ¹nĠ liÃłnĠ
ĠyÃ³uĠzhÃ¨ngĠ biÄģnĠmÇİĠwÃ¨iĠ
ĠĠĠ O
ĠjÄ« ĠgÃ²u
Ġde ĠyuÃ¡nĠ
ĠdÄģngĠ xuÇİnĠ
Ġh ÅįngĠ
wÃ¨iĠ fÇİĠguÃ³
wÃ¡nĠ quÃ¡nĠ
ĠsÇĲ ĠwÃ¡ngĠ
ĠgÅįngĠ nÃ©ngĠ
ĠjiÄĽ Ġ
ĠhuÃ² ĠzhÄĽ
ĠlÃºnĠ dÅ«nĠ
ĠpÃº ĠtÃ¡o
yÃ¬Ġ de
Ġ20 00ĠniÃ¡nĠ
Ġm iÃło
fÄģngĠ xiÃłngĠ
ĠfÇİ ĠyuÃłnĠ
Ġk ÇİnĠ
ĠpÃŃngĠ tÃ¡iĠ
Ġ201 4ĠniÃ¡nĠ
Ġz hÃ²u
ĠyÃ¬Ġ zhÃ¬Ġ
t Ã©ngĠ
Ġm iÇİo
ĠliÃ¹ ĠniÃ¡nĠ
dÃ¬Ġ fÄģngĠ
ĠkÇİ Ġ
Ġc Ã¡nĠ
ĠsÄ« Ġde
ĠyÃº Ġ199
ĠfÃº ĠwÃ¹Ġ
ĠjÃ¬Ġ huÃłĠ
tÃ³ngĠ shÃŃ
Ġt ÄģngĠ
ĠrÃ©ngĠ rÃ¡nĠ
ĠgÅįngĠ lÃ¹
iÇİo ĠzhÃłnĠ
ĠjiÄģngĠ qÃŃ
ĠjiÃłnĠzhÃ¹ Ġ
ĠyÇĴu ĠshÃŃ
ĠliÃ¡nĠ jiÄĵ
ĠshÅ« ĠguÇİnĠ
ch Äģ
Ġ Ã©ĠluÃ³ĠsÄ«
ĠshÃ¬Ġ zhÅįngĠguÃ³
dÃ¬Ġ de
Ġ201 8ĠniÃ¡nĠ
ĠchÇİnĠ pÇĲnĠ
ĠyÇĲngĠ piÃłnĠ
zÃłiĠ cÃ¬Ġ
ĠyÄ«ngĠ wÃ©nĠ
Ġn Ã¨
ch ÄģiĠ
x uÄĽ
ĠfÄģngĠ xiÃłngĠ
g Ã¨Ġ
Ġsh uÃłiĠ
ĠzÃ© Ġ
y Äģo
ĠxuÃ© ĠxÃŃ
sÅ« ĠliÃ¡nĠ
gÃ²ngĠyÇĴu ĠrÃ©nĠkÇĴu
zhÃŃ ĠxÃŃngĠ
ĠbÃ¬ngĠ bÃ¹
duÅį Ġde
3 8
yÃ¬Ġ qÇĲ
fÄģ ĠbÃ¹
l ÄĽiĠ
ĠhÃ© ĠzuÃ²
ĠdÃło Ġde
ĠrÃ©nĠkÇĴuĠmÃ¬ĠdÃ¹ ĠmÄĽiĠpÃŃngĠfÄģngĠ
diÃłnĠshÃ¬Ġ tÃ¡iĠ
3 6
ĠshÃ¬ĠzhÃ¨nĠ biÄģnĠmÇİĠwÃ¨iĠ
ĠINSEE ĠshÃ¬ĠzhÃ¨nĠbiÄģnĠmÇİĠwÃ¨iĠ
ĠwÄĵiĠ ÄĽr
ĠyÄ« ĠzhÇĴngĠ
ãĢ İ
jÄ«ngĠ guÃ²
Ġ201 5ĠniÃ¡nĠ
ĠdÃłnĠ tÄģ
ĠxiÃłĠlÃ¬ngĠ shÃŃĠ
zhÃŃ ĠjiÄĵ
gÃ²ngĠ tÃ³ngĠ
s uÅį
ãĢ ı
ĠzhuÄģnĠ yÃ¨
ĠyÄ« ĠyuÃłnĠ
ĠxiÄģngĠ tÃ³ngĠ
Ġsh uÃ²
ĠshÃŃĠde ĠrÃ©nĠkÇĴuĠshÃ¹ĠliÃłngĠwÃ¨iĠrÃ©nĠ
ĠxuÇİnĠqÅ« ĠwÃ¨iĠ
mÄĽiĠguÃ³ĠrÃ©nĠkÇĴuĠpÇĶĠchÃ¡ ĠdeĠshÃ¹ĠjÃ¹Ġ
xÃ¬ngĠ de
ĠÃ©r ĠrÃ©nĠkÇĴuĠmÃ¬ĠdÃ¹ĠwÃ¨iĠmÄĽiĠpÃŃngĠfÄģngĠ
ĠdÄģngĠdÃ¬Ġ gÃ²ngĠyÇĴuĠrÃ©nĠkÇĴu
Ġg ÃłoĠ
ĠtiÃ¡o ĠjiÃłnĠ
ĠwÃ¹ ĠlÇĲ
t ÇĲĠyÃ¹
ĠxuÃ© ĠzhÄĽ
ĠjÄ«ngĠ chÃ¡ngĠ
Ġd Ã¨ngĠ
lÇĲngĠ dÇİo
ĠguÄģnĠ yuÃ¡nĠ
m Ã¡ngĠ
ĠxÄ« ĠgÄĵ
ĠhuÃ² ĠjiÃ¹ĠshÃ¬ĠzhÃ¨nĠ
ĠgÄģiĠ shÄĽngĠfÃ¨nĠ
e sĠ
Ġ202 3ĠniÃ¡nĠ
ĠshÄĽngĠjÃŃ ĠxuÇİnĠqÅ«ĠwÃ¨iĠ
ĠyÄ« ĠyÃłngĠ
sh ÇİoĠ
ĠgÅįngĠ chÇĲĠ
ĠjiÃło ĠshÃ²uĠ
Ġm e
ĠzÃ¡ ĠzhÃ¬Ġ
Ġ hÃ¡ngĠ
ĠhÃ© ĠnÃ¡nĠ
yuÃ¡nĠ niÃ¡nĠ
lÃ¬Ġ yÃ²ngĠ
liÃ¡nĠ bÄģngĠ
ĠxiÄģnĠ hÃ²u
ĠĠĠ J
ĠbÅį Ġ
ĠhÇİiĠbÃ¡ ĠgÄģoĠdÃ¹Ġ
ĠguÃ³ ĠhuÃ¬Ġ
ĠzÇİo ĠniÃ¡nĠ
ĠĠ ĠdÃł
xuÃ©ĠxiÃło Ġ
ĠgÄģiĠshÄĽngĠfÃ¨nĠ wÃ¨iĠfÇİĠguÃ³
zhÄ«Ġ hÃ²u
f Ã¡
ĠÃ©r ĠgÄģiĠdÃ¬Ġ
4 6
ĠtÄģ ĠhÃ¡iĠ
ĠyÄ«nĠ Ã©r
ĠÃ©r ĠzÃłiĠ
u t
ĠdÃ²ngĠ huÃł
ĠtÄģ ĠbÃ¨iĠ
de ĠzhÇĶ
7 5
yÃ¬Ġ bÄģnĠ
mÇİ Ġ
Ġd Äģ
tÃ¡iĠ bÄĽiĠ
ĠdÃ¡ ĠdÃło
gÃ¨ ĠrÃ©nĠ
ĠniÃ¡nĠ10 ĠyuÃ¨
ĠzhÄ«ĠjiÄģnĠ de
ĠguÃ³ĠmÃŃnĠ dÇİngĠ
m ÃŃ
Ġ Ã¨
ĠzhuÄģnĠ jÃŃ
ĠbÃ¹ ĠshÇİo
jiÃłnĠ zhÃ¬Ġ
ĠlÇĲ ĠyÃł
ĠjÃŃ Ġde
fÄģ ĠdÃ²ngĠ
ĠcÇĲĠ hÃ²u
xÄ« ĠbÄģnĠyÃ¡
ĠcÄģnĠ sÃłiĠ
gÄģo Ġ
bÇİnĠ bÄĽnĠ
zhÄ«ĠjiÄģnĠ de
ĠyuÃ¨ ĠnÃ¡nĠ
ĠsÄģiĠ ÄĽr
ĠzuÃ² ĠbiÄģo
2 ĠrÃ©nĠ
ĠĠ ĠzhÃ¬Ġ
dÄĽngĠ rÃ©nĠ
k Ã¹nĠ
ĠyÃ¡nĠ zhÃ²ngĠ
yuÃ¨ ĠtÃ¡iĠ
Ġn Ã¬Ġ
ĠshÄĽngĠ deĠyÃŃĠgÃ¨ĠshÃ¬ĠzhÃ¨nĠ
wÃ¨iĠ zhÃ¬Ġ
pÃŃngĠ jÅ«nĠ
Ġde ĠshÇĴu
shÄĵnĠ fÃ¨nĠ
q uÃłnĠ
xÄ« ĠnÃ¡nĠ
ĠzhÅįngĠguÃ³ ĠgÃ²ngĠchÇİnĠdÇİngĠ
ĠsuÃŃ ĠzhÃ¹
ĠyÇĴu ĠxiÄĵ
rÃ©nĠ lÃ¨iĠ
jiÃło Ġ
ĠlÇĲ ĠshÃ¬Ġ
ĠyÃ¬Ġ de
ĠĠĠ of
qÅ« ĠyÃ¹
ĠhÃ¡nĠ guÃ³
dÅįngĠ nÃ¡nĠ
gÄĵnĠ jÃ¹
ĠbÄģngĠ zhÃ¹
jiÄĽĠfÃłngĠ jÅ«nĠ
Ã© Ġ
ĠbÃº ĠhuÃ¬Ġ
ĠĠ Ġ1
Ġp iÃłoĠ
ĠyÇĲ ĠlÃ¡iĠ
zhÇĲ ĠyÇĴu
ĠtÄģ ĠyÄĽ
ĠduÅį ĠgÃ¨
ĠyuÃ¡nĠ bÄĽnĠ
ĠshÃŃ ĠqÄ«Ġ
p Ã¡ngĠ
Åįu ĠyuÃ¡nĠ
ĠtÇĴngĠ jÃ¬Ġ
lÃŃ ĠkÄģiĠ
o d
ĠzhÃŃ ĠwÃ¹
Ġf ÇĴu
yÇİnĠ yuÃ¡nĠ
ĠshÃ¹ ĠjÃ¹
ĠjÄ«ngĠ lÃ¬Ġ
n ÃłiĠ
zhÄĽ Ġde
ĠyÃ²u ĠmÃŃngĠ
ĠqÃ¹ ĠshÃ¬Ġ
ĠyÃ¬Ġ qÇĲ
Ġ6 Ġ
dÄĽngĠ dÃ¬Ġ
yÃł ĠzhÅįu
ĠyÃ³u ĠtÃłiĠ
ĠbÅį ĠlÃ¡nĠ
rÃ©ngĠ rÃ¡nĠ
mÃŃngĠ chÄĵngĠ
in d
ĠjÄ«ngĠ yÃŃngĠ
zhÃłnĠ dÃ²u
ĠjuÃ© ĠsÃ¨Ġ
e v
hÇİiĠ jÅ«nĠ
quÃ¡nĠ qiÃº
ĠguÇĲ ĠdÃło
i d
s ÇĶnĠ
ĠĠĠt h
Ġz Ã²ngĠ
ĠguÇİngĠ bÅį
ĠshÃŃ ĠrÃ¨nĠ
ĠshÄĽngĠ fÃ¨nĠ
Ġ18 7
ĠqÇĶ ĠdÃłiĠ
jiÃ© ĠmÃ¹Ġ
ĠxiÃło Ġ
zÄĵngĠ jiÄģ
yÇĶ nĠ
shÃ¬Ġ yÃ³u
yÄĽ ĠyÇĴu
ĠĠ ĠcÇĲ
ĠchÃ¡ngĠ qÄ«
ĠfÄģ ĠdÃ²ngĠ
Ġ4 0
ĠzÃ© ĠshÃ¬Ġ
ÄĽr ĠlÃ¡nĠ
nÃ¡nĠ xÃ¬ngĠ
S t
ĠjÃ¬Ġ lÃ¹Ġ
jÃ¬ngĠ nÃ¨iĠ
ĠfÄģngĠ fÇİ
Ġ Î
ĠdÃ¬Ġ shÃŃ
Ġ201 7ĠniÃ¡nĠ
ĠjÃŃ ĠqÃŃ
ĠchÅ« ĠrÃ¨nĠ
ĠshÃ¨ ĠzhÃ¬Ġ
3 7
ĠgÇİiĠ biÃłnĠ
jiÄģngĠ jÅ«nĠ
Ġz ÇĲĠ
ĠyÇĲ ĠshÃłngĠ
ĠjiÄģ ĠshÃłngĠ
ĠbÃ¹ĠtÃ³ngĠ de
duÃ¬Ġ yÃº
bÄģo ĠhÃ¡nĠ
ĠniÃ¡nĠ12 ĠyuÃ¨
zhÇĲ ĠhuÄ«
ĠchÇĶ ĠyÃº
mÃ¬ngĠ mÃŃngĠ
Ġ2 4
kÄĽ ĠdÃ¡
c hÃł
l Ġ
huÃ¡nĠ jÃ¬ngĠ
Ġr ÇİnĠ
ĠmÇİ ĠlÃ¬Ġ
hÃ© ĠnÃ¡nĠ
xiÃłnĠ dÃłiĠ
shÄĵngĠhuÃ³ Ġ
ĠjiÄĵĠrÇİngĠ deĠshÃ¬ĠzhÃ¨nĠ
d Ã¡Ġ
xiÃł ĠxiÃ¡
ĠtiÄģnĠ zhÇĶĠjiÃło
ĠguÃ³ĠjiÄģ Ġ
zÇĶ ĠzhÄ«Ġ
Ġ18 6
R Ġ
ĠgÃ²ngĠ hÃ©ĠguÃ³
ĠlÃº ĠwÇİ
y ÄģnĠ
ĠfÄģ ĠbÃ¹
ĠjÄ« ĠhÅ«
ĠwÃ©iĠ yÄ«
ĠĠ ĠjiÇİnĠ
ĠbÃ¹ ĠmÃ©nĠ
ĠchÅ« ĠshÄĵngĠ
ĠxuÇİnĠ rÃ©nĠ
ĠĠ ĠgÄĵnĠjÃ¹
ĠyÄ« ĠwÃ¨iĠ
Ġde ĠzhÇĶ
nÃ¨iĠ rÃ³ngĠ
yÃ¬Ġ wÃ¨iĠ
ĠzhÃ¬Ġ liÃ¡o
ĠwÇĶ ĠqÃ¬Ġ
ĠĠ ĠzÃ¬Ġ
ĠzhÅįngĠ wÃ©nĠ
ĠhuÃ¡ngĠ jiÄģ
ĠzhÄĽngĠ gÃ¨
p Åį
ĠĠ ĠwÃ¨iĠ
kÄĵ Ġ
ĠlÃ¬Ġ fÇİ
zhuÄģnĠ jÃŃĠ
yÄĽ ĠshÃ¬Ġ
x Å«nĠ
xiÃłngĠ mÃ¹
d ÇĴngĠ
bÃ¬ngĠ bÃ¹
ĠbiÇİo Ġ
lÇľ ĠbÄ«nĠ
nÇļ ĠzÇĲ
Ġq uÄģnĠ
ĠshÃŃĠ hÃ²uĠ
Ġshu ÇĲĠyÃ¹
Ġq iÃłnĠ
o b
jÅ«nĠ duÃ¬Ġ
ĠtÇĲ ĠzhÇİngĠ
ĠquÃ¡nĠ bÃ¹
ĠcÃ¡iĠ zhÃ¨ngĠ
yuÄĵ Ġ
Ã¼ Ã¨Ġ
ĠshuÄģngĠ fÄģngĠ
ĠchÅ« ĠshÄĵngĠyÃº
Ġde ĠyÃ¬Ġ
g ÃłoĠ
kÅįngĠ jiÄģnĠ
T A
ĠchÄģo ĠjÃŃ
ÇĶĠÄĽr ĠqÃŃ
ĠzhÃ¬Ġ jÄ«nĠ
ĠlÄģ ĠkÃ¨
k uÃł
ĠlÃ¬Ġ shÄģnĠ
4 ĠrÃ©nĠ
bÄģ ĠshÃ¬Ġ
jiÃłnĠ shÃ¨
ĠdÅįngĠ bÃ¹
nÃ©ngĠ gÃ²u
Ġh ÇĶ
ĠyÃºnĠ nÃ¡nĠ
chÅ« Ġde
ĠbiÇİo ĠyÇİnĠ
mÃ² Ġ
ĠzuÃ¬Ġ zÇİo
ĠĠĠ V
Ġf ÄĽnĠ
ĠzhÄ« ĠwÃłiĠ
ĠsÃł ĠkÃ¨
ĠliÃº ĠxÃŃngĠ
B Ġ
Ġz hÃłiĠ
de ĠshÇĴu
ĠxuÃ©ĠxiÃło Ġ
ĠwÃº ĠxiÃłnĠ
ĠshÃ¬Ġ mÄĽiĠguÃ³
jÄ« ĠdÃ¬Ġ
qÅ« ĠhuÃłĠ
ĠbÃ¬Ġ yÃ¨Ġ
1 00
ĠchÄĵ ĠliÃłngĠ
ĠfÃ¹ĠzÃ© ĠguÇİnĠxiÃ¡Ġ
ĠnÃ¨iĠ bÃ¹
ĠsuÇĴĠshÇĶĠde ĠshÄĽngĠjÃŃĠxuÇİnĠqÅ«ĠwÃ¨iĠ
ĠjiÃ© ĠshÃ¹
ĠkÄģiĠ fÃłngĠ
yÃł Ġ
dÃ¹ Ġde
rÃ©nĠmÃŃnĠ zhÃ¨ngĠfÇĶ
chuÃ¡nĠ tÇĴngĠ
ĠdÃłiĠbiÇİo Ġ
Ġm Ã³u
ĠhuÃ² ĠshÃ¬Ġ
e g
sÄ« ĠtÃ¨
ĠĠ Ġw
1 ĠrÃ©nĠ
jÄ« Ġde
ĠcÃ©ngĠ zÃłiĠ
ĠfÄģngĠ ÃłnĠ
xiÃ© ĠhuÃ¬Ġ
ĠkÅįngĠ jÅ«nĠ
Ġk Äģ
chÃ©ngĠ de
ÄģnĠ pÃ¡iĠ
rÃ¨nĠ hÃ©
ĠwÇİngĠ luÃ²
ĠnÃ³ngĠ yÃ¨
q uÄģnĠ
Ġ202 4ĠniÃ¡nĠ
zh uÃ³
zhÃº ĠjiÃłnĠ
s iĠ
tÃ³u Ġ
ĠyÇĲnĠ qÇĲ
chÃº Ġ
ĠwÃ¨iĠ fÃº
zhÅįngĠ shÃ¬Ġ
ĠjiÄĵ Ġ
l iÃłoĠ
ĠzhÇĶnĠ bÃ¨iĠ
bÃº ĠhuÃ¬Ġ
gÅįngĠ bÃ¹
shÃłngĠ wÃ¨iĠ
ĠdÃł ĠduÅįĠshÃ¹
ĠmÇİ ĠlÃ¡iĠxÄ«ĠyÃł
xÄ« ĠbÄĽiĠ
zhÇĶ ĠxÃŃ
mÃ©iĠ tÇĲ
hÇİo Ġde
Ġc hÃł
ĠdÃł ĠxÃŃngĠ
gÅįngĠ gÃ²ngĠ
dÄģngĠ xuÇİnĠ
Ġw ÄĽnĠdÃ¬ngĠ
chÃ¡o Ġ
q Ã¹Ġ
bÃło ĠfÄģ
ĠjÄ«ngĠ shÃ©nĠ
fÄĵnĠ wÃ©iĠ
ĠzhÃ¹ ĠmÃŃngĠ
dÅįngĠ jÄ«ngĠ
Ġx Ã¹Ġ
ĠrÃ©nĠ gÅįngĠ
ĠjiÃło ĠyÃ¹Ġ
Ġz ÇİiĠ
o g
ĠsuÃŃ Ġzhe
Ġz Å«
fÃº ĠwÃ¹Ġ
ĠpÄģiĠ shÃ¨
Ġch ÇĶĠ
m Ã¨iĠ
s ÇĲĠ
Ġ200 4ĠniÃ¡nĠ
ĠĠ ĠxiÃł
s Åįu
ĠgÄģo ĠsÃ¹
ĠzÇĶ ĠzhÄ«Ġ
xuÇİnĠ zÃ©
Ġg uÃłiĠ
ĠzhÃ¹ ĠzÃłiĠ
fÇİnĠ duÃ¬Ġ
ĠĠĠ202 1ĠniÃ¡nĠ
yÃ³u Ġ
pÃ¡iĠ mÃŃngĠ
ĠÃ¨r ĠshÃŃ
M Ġ
Â °
Ġz Ã²u
ĠxiÃłnĠ rÃ¨nĠ
t ÄģnĠ
ĠnÃ¡nĠ jÄ«ngĠ
gÇİnĠ rÇİnĠ
ĠtÄģ ĠyÇĶ
ĠjiÄģ ĠzÃº
guÃ³ Ġde
xÃ¬Ġ liÃ¨
ï ½
Ġg uÄģ
zhÃłnĠ lÇĲngĠ
ĠzhÃ²ngĠ diÇİnĠ
ĠxuÄģnĠ chuÃ¡nĠ
ĠxiÃłnĠ deĠyÃŃĠgÃ¨
l ÇİngĠ
ĠtuÃ¡nĠ duÃ¬Ġ
ĠquÃ¡nĠ zhÇİngĠ
tÄģ Ġ
ĠzhuÃłngĠ tÃłiĠ
k Å«nĠ
zhÇĶ ĠchÃŃ
lÇĲ ĠlÃ¹nĠ
ĠhuÃ¡ngĠ dÃ¬Ġ
xiÄģngĠ tÃ³ngĠ
g Ã¹Ġ
shÃ¬Ġ hÃ©
shÃ¬Ġ zhÃ¨nĠ
ĠgÅįngĠ bÃ¹
guÃ² ĠchÃ©ngĠ
Ġf Ã©iĠ
jÃŃ ĠqÃŃ
zhÄ« ĠxiÃłnĠ
ĠxiÄģo Ġ
de ĠyuÃ¡nĠ
bÃ¬Ġ xÅ«
ĠjÃ¬Ġ chÃ©ngĠ
u Ġ
Ġm Ã¡ngĠ
ĠmiÃ¡o ĠshÃ¹
ĠzÃłiĠ zhÅįngĠguÃ³
bÃº ĠshÃ¬Ġ
ĠqiÃ¡o Ġ
ĠlÇĲ Ġde
guÇİngĠ chÇİngĠ
shÃ¬Ġ zhÅįngĠ
ĠĠ ĠyuÃ¡nĠ
ĠdÄĽngĠ rÃ©nĠ
n ÇĲ
ĠbÇİo ĠchÃŃ
ÇĲĠy Ã¹Ġ
ĠdeĠyÄ« ĠbÃ¹ĠfÃ¨nĠ
5 5
Ġg uÄ«Ġ
mÃ¹ ĠqiÃ¡nĠ
ĠĠĠ20 19ĠniÃ¡nĠ
ĠsÄģnĠ shÃŃ
lÃ¹ ĠxiÃłnĠ
ĠxÄ« ĠbÃ¹
ĠbÄĽiĠ shÄĽngĠ
ĠnÃ¨iĠ de
ĠjÇĲngĠ chÃ¡
2 ĠyuÃ¨
3 ĠrÃ©nĠ
ĠlÃ¬Ġ ziĠ
xÃ¹nĠ liÃłnĠ
jiÃ¹ ĠshÃ¬Ġ
Ġt Ä«
ĠshÃ¨ ĠbÃ¨iĠ
mÃ©ngĠ gÇĶ
bÃ¹ ĠzÃłiĠ
hÇİiĠ bÃ¡
ĠhÃ²u ĠzhÄĽ
ĠgÇİiĠ biÄģnĠ
bÇĲ ĠlÃ¬Ġ
l a
ĠjÄ« ĠdÅ«
shÃ¨ ĠzhÃ¬Ġ
Ġ hÃ©ngĠ
Ġ am
Ġn ÃłnĠ
shÃ¬Ġ chÇİngĠ
dÃ¬Ġ shÃŃ
nÇļ ĠxÃ¬ngĠ
guÃ³ ĠwÃ¡ngĠ
ĠshÃ¬ĠyÄ« ĠmÃŃngĠ
zhuÄģnĠ jÃŃ
jÃ¬nĠ de
sÄģnĠ niÃ¡nĠ
jÃ¬Ġ huÃłĠ
ĠrÃ©nĠmÃŃnĠ jiÄĽĠfÃłngĠjÅ«nĠ
zuÇĴ ĠyÃ²u
ĠĠ Ġr
ÃłnĠ jiÃłnĠ
ĠshÄĵngĠ zhÇİngĠ
Y ou
ĠzhÄĵnĠ duÃ¬Ġ
f Ã©ngĠ
de ĠyÃ¬Ġ
wÃ¹ ĠzhÇĴngĠ
hÃ¡iĠ shÃ¬Ġ
mÃŃngĠ dÄģnĠ
dÃło Ġle
b ÇĶĠ
Ġx uÄĵ
Ġf ÄĽiĠ
ĠzhÃłnĠ yÃ¬Ġ
jÄ« ĠbÃłiĠ
9 ĠrÃ©nĠ
k uÃŃ
ĠlÃ¡iĠ yuÃ¡nĠ
guÇİngĠ bÅį
ou n
bÃ¹ ĠmÃŃngĠ
duÅį ĠcÃ¬Ġ
u sĠ
V Ġ
ĠdÃ¬Ġ qiÃº
ĠguÃ³ ĠlÃ¬Ġ
ĠĠĠ20 20ĠniÃ¡nĠ
3 2
ĠshÃ¬Ġ wÃ¹
ĠyÃŃ ĠchÇİnĠ
qÃŃ ĠzhÅįngĠ
zhÃŃ ĠyÃ¨
ĠĠĠ201 8ĠniÃ¡nĠ
c Ã¡nĠ
ĠfÄĵiĠ xÃŃngĠ
ĠÃ©r ĠtÃ³ngĠ
ĠqÃŃĠyÃº ĠgÄģngĠ
ĠwÃ¨iĠ nÃ©ngĠ
ĠguÃ³ ĠfÃ¡ngĠ
ĠÄĽr ĠsÄ«
wÃ©nĠ wÃ¹ĠbÇİoĠhÃ¹ĠdÄģnĠwÃ¨iĠ
sÄģnĠ shÃŃ
ĠsuÃ¬Ġ de
4 7
chÃ©ngĠ jÃ¬Ġ
ĠĠ Ġ10
ã ĥ
ĠchÃłngĠ piÃłnĠ
ĠxiÅįngĠ dÃ¬Ġ
ĠjiÃ© ĠmÃ¹Ġ
chÃŃ ĠxÃ¹
Ġ 00
ĠĠ ĠxÄ«nĠ
ĠbÄĽiĠ mÄĽiĠ
shÃło ĠniÃ¡nĠ
e b
ĠhÃ© ĠlÃ¡nĠ
ĠpÇĶ ĠtÅįngĠ
ĠhuÄģnĠ yÃŃngĠ
ĠĠ Ġd
kÇĴu Ġ
xÃŃngĠ wÃ©iĠ
ĠzhÇĶ ĠxÃŃĠ
ĠlÃ¬ĠyÃł Ġ
t Ã²u
x ÃŃĠ
ĠgÃ²ngĠ xiÃłnĠ
ĠjÃ¬nĠ yÃŃĠbÃ¹
ĠbÄģ ĠniÃ¡nĠ
zhÅįngĠhuÃ¡ ĠmÃŃnĠguÃ³
ĠdÃłnĠ bÃ¡iĠ
ĠchÃ¹ Ġde
lÃ¹ĠdÃ¬Ġ miÃłnĠjÄ«ĠwÃ¨iĠ
Ãło ĠmÃ©nĠ
ĠshuÇĲĠyÃ¹ ĠmiÃłnĠjÄ«ĠwÃ¨iĠ
zuÃ¬Ġ jiÄģ
6 5
f ÄĽnĠ
dÃ¬Ġ sÃ¬Ġ
ĠyÃ³u ĠqÃŃ
j ÇĲĠ
ĠzhÃ¨ngĠ zhuÃłngĠ
ĠduÅį ĠcÃ¬Ġ
s ÄģngĠ
ĠzhÄ« ĠmÃŃngĠ
ĠqiÃ¡nĠ shÄĵnĠ
ĠshÃ¬ĠyÄ« ĠwÃ¨iĠ
ĠcÅ«nĠ zhuÄģngĠ
hÃ© ĠbÃ¬ngĠ
ĠtÃ¨ Ġde
uÃ³ ĠwÄĵiĠ
e p
ĠxÃŃngĠ tÃłiĠ
jiÄģ ĠnÃ¡ĠdÃł
ĠshÄģnĠ mÃłiĠ
jiÃłnĠ duÃ¬Ġ
d Äģ
ĠhÄģ ĠÄĽr
Ġs Äģ
ĠgÇİiĠ gÃ©
chÅ« ĠshÄĵnĠ
ĠzuÃ¬Ġ dÃłĠde
ĠbÄģ ĠlÃŃ
ĠjuÃ© ĠsÃłiĠ
yÃ¹nĠdÃ²ngĠ yuÃ¡nĠ
bÃ¹ ĠmÃ©nĠ
n ÃłnĠ
ĠshÃ¬Ġ shÃ¬Ġ
d ÇĲĠ
bÃ¹ ĠzhÇİngĠ
biÇİo ĠxiÃłnĠ
ĠmÃło ĠyÃ¬Ġ
ï½ ŀ
c Äģo
ĠquÃ¨ ĠdÃ¬ngĠ
ĠhuÄ« ĠfÃ¹
u c
ĠjiÃłnĠ zÃło
jÄ« ĠgÃ²u
hÃº nĠ
Ġam pĠ
shÃ¬Ġ wÃ¹
jiÄĵ ĠrÇİngĠ
ĠĠĠ201 7ĠniÃ¡nĠ
ĠzhÇĲ ĠchÅ«Ġ
yÄ« ĠyÃłngĠ
t Ã²uĠguÃ²
ĠdÄģngĠzhÅįngĠ lÃ¹ĠdÃ¬ĠmiÃłnĠjÄ«ĠwÃ¨iĠ
ĠÃ©r ĠshuÇĲĠyÃ¹ĠmiÃłnĠjÄ«ĠwÃ¨iĠ
zhÃ¨ ĠzhÇĴngĠ
qiÃº ĠyuÃ¡nĠ
ĠĠ ĠgÃłiĠ
ĠzÅįngĠ hÃ©
ĠhuÃ¬Ġ zÃłiĠ
c uÃ¬Ġ
ĠzhÅįu ĠniÃ¡nĠ
ĠjiÃ©ĠguÇĴ Ġ
c uÄ«
ĠshÃŃ ĠxiÃłnĠ
Ġzh ÇĶĠ
ĠzÇĶ ĠfÃ¹
ĠrÃ©nĠ zÃłiĠ
ĠshÄĵngĠ yÃ¡
ĠjiÃ© ĠkÃ¨
F Ġ
ĠpÃ² ĠhuÃłiĠ
ĠmÃ¹ ĠbiÄģo
ĠguÇİngĠ fÃłnĠ
jÃŃ ĠwÃ¨iĠ
ĠwÃ©nĠ mÃŃngĠ
ĠyÇĲnĠ fÄģ
shÃłngĠ yÃ¬ngĠ
tÇĲ Ġde
ĠyÄ« ĠshÄĵngĠ
ĠjiÄģ Ġde
ĠyÃ¹nĠ yÃŃngĠ
ĠxiÃ© ĠzhÃ¹
s uÄ«
ĠsÄ« ĠtÇİ
chÇİnĠ pÇĲnĠ
ĠjiÃłnĠ de
ĠcÃ³ngĠ shÃ¬Ġ
Ġsh ÄĽ
ĠzhÃŃ ĠmÃŃnĠ
ĠliÃ¡nĠ xÃ¹
19 3
ĠĠĠt heĠĠĠ
chÅ« ĠshÄĵngĠ
Ġt ÇĲngĠ
ĠzhÇĶ ĠjiÃło
dÃ²ngĠ huÃł
ĠwÃ©nĠ zhÄģngĠ
ĠshÃ¨ngĠ dÃ¹nĠ
ĠzhuÄģnĠ jÃŃĠ
Ġs hÃ©
ĠshÃ¬Ġ zhÇĲ
ĠjÄ« ĠyÃº
xiÇİo ĠxÃŃngĠxÄ«ngĠ
ĠnÃ¡nĠ bÃ¹
ĠkÄģiĠ shÇĲĠ
jÃ¬Ġ lÃ¹
ĠxÄ«nĠ zÄĵngĠ
ĠzÄ« ĠyuÃ¡nĠ
ĠjiÃł Ġ
ĠT heĠĠĠ
sh ÇİnĠ
yÇĴu Ġde
Ġqi ÇİngĠ
ĠniÃ¡nĠ11 ĠyuÃ¨
ĠyÃº ĠlÃ¨
ĠcÃ¨ ĠshÃ¬Ġ
ĠzÃ¬Ġ xÃŃngĠ
ĠzÇĴngĠ miÃłnĠjÄ«Ġ
Ġ6 0
zÄ« ĠliÃłoĠ
ĠĠĠxÃŃngĠzhÃ¨ngĠ qÅ«ĠhuÃłĠ
ĠC h
ĠkÃ¨ ĠlÇĲ
ĠzhÃ¨ngĠ zÃłiĠ
ĠjiÃło ĠhuÃ¬Ġ
ĠlÃ¬Ġ yÃº
ĠlÃ¬Ġ shÇĶĠyÃº
ĠtÇĲĠzhÇİngĠ kÄĽĠdÃ¡
z Å«
ĠtÃ¨ ĠshÅ«
bÃ¬ngĠ lÃ¬Ġ
i v
jiÄģngĠ qÃŃ
Ġs hÃł
ĠbÃło ĠgÃło
ĠwÇİngĠ zhÃłnĠ
Ġ200 2ĠniÃ¡nĠ
X Ġ
zhÇĶ ĠxÃŃĠ
ĠdÃ¬Ġ tiÄĽ
yÇİnĠ chÃłngĠ
e w
z hÃ³u
yÃŃngĠ dÃ©
ĠguÃ²ĠchÃ©ngĠ zhÅįngĠ
3 4
Ġd iÄģnĠ
Ġm iÃ¡nĠ
ĠdÃ¬Ġ xiÃł
dÃł ĠhuÃ¬Ġ
Ġk Ã¹nĠ
zuÃ² ĠzhÃłnĠ
Ġw Åį
ĠyÄ«ngĠ gÃ©ĠlÃ¡nĠ
ĠzÄ« ĠliÃło
Ġ ÅįuĠzhÅįu
ĠĠĠ202 2ĠniÃ¡nĠ
ĠwÃłnĠ lÃ¬Ġ
yÃ¡ ĠlÃ¬Ġ
Ġx Å«nĠ
ĠzhÃ¬Ġ yÃº
shÃŃ ĠjÃ¬Ġ
ĠwÃ©iĠ chÃŃ
ĠjÄ«nĠ huÃ¬Ġ
ĠyÃŃngĠ dÃ©
Ġqi Ã³ngĠ
ĠĠĠS t
Ġch ÄģiĠ
Ġ18 5
ĠjÇĲngĠ fÄģngĠ
ĠyÃŃ ĠdÃ¬ngĠ
l ÇĲĠy
ĠchÃ©ngĠ rÃ¨nĠ
n ÇİiĠ
ĠĠ ĠcÃ³ngĠ
Ġde ĠguÄģnĠ
dÃł ĠliÃłngĠ
ĠĠĠ201 6ĠniÃ¡nĠ
Ġs Ãº
yÃº Ġ199
miÃ¡o ĠshÃ¹
ĠdÃ¬ĠyÄ« ĠcÃ¬Ġ
O Ġ
ĠfÇİ ĠlÃ¡nĠ
le ĠyÃŃĠgÃ¨
lÇĲ ĠshÃ¬Ġ
8 ĠrÃ©nĠ
s ÃłnĠ
zhÃŃ ĠwÃ¹
g Åįu
Ġb iÇİnĠ
ĠjÄ« ĠgÃ²uĠ
de ĠguÄģnĠ
guÇİngĠ fÃłnĠ
Ġt Ã²u
hÃ¡iĠ ziĠ
ĠzÃłiĠ yÄ«
ĠyuÃ¡nĠ zhÃ¹
ni Ã¨
Ġt uÃ³
ĠjiÃło ĠshÃ²u
enĠ ĠĠ
shÄģngĠ yÃ¨
Ġ2 1Ġ
ĠĠĠ 4
ĠzhÃ¨ngĠ mÃŃngĠ
ĠxÄ«ngĠ jiÃłnĠ
lÃ¨iĠ sÃ¬Ġ
ĠzÄģo ĠdÃło
ĠgÅįngĠ mÃŃnĠ
shÃ¨ ĠbÃ¨iĠ
ĠzÃłiĠ19 9
ĠshÃ¬Ġ rÃ¬ĠbÄĽnĠ
ĠbÃ¹ ĠlÄģ
t Å«Ġ
bÃ¨iĠ chÄĵngĠwÃ©iĠ
liÃ¡nĠ sÃłiĠ
l ÃłiĠ
Ġ2 1
chuÃłngĠ zuÃ²
ĠzuÃ²ĠbiÄģo ĠwÃ¨iĠ
ĠtÃ³ngĠ yÃ¬Ġ
s hÃº
ĠĠĠ 5
ĠlÇļ ĠyÃ³u
xi Ã¹Ġ
c Ã¹
Ġd Äģo
ĠtÃ³u ĠzÄ«
ĠshÃ¬Ġ yÇİnĠ
ĠguÇİngĠ chÇİngĠ
Ġh uÄ«Ġ
nÃ¡nĠ jÄ«ngĠ
bÃ³ ĠwÃ¹ĠguÇİnĠ
zhÃ¬Ġ jÄ«nĠ
ĠxiÃłnĠ lÃ¹
ĠsÄ« ĠjÄ«
ĠjÇĲ ĠgÃ¨
hÃło ĠwÃ¨iĠ
ĠguÃ² ĠqÃ¹
shÃ²u ĠshÄģngĠ
ĠbiÇİo ĠmÃŃngĠ
ĠwÃ¨iĠfÃº ĠqÃŃĠyÃºĠgÄģngĠ
zhÃŃ ĠwÃ¹Ġ
q ÇĲĠyÃ²ngĠ
ĠĠĠ201 4ĠniÃ¡nĠ
guÄģnĠ zhÃ²ngĠ
ind ow
ĠhuÃŃ ĠdÃło
jÃ¬Ġ suÃłnĠ
ĠzhÇİnĠ kÄģiĠ
Ãło ĠdÃłĠlÃ¬ĠyÃł
kÄĵ ĠjÃ¬Ġ
ÃłoĠyÃ¹nĠ huÃ¬Ġ
d Ä«Ġ
ĠyÃ¬Ġ mÄĽiĠyuÃ¡nĠ
shÃ¬Ġ yÃŃĠgÃ¨
6 ĠrÃ©nĠ
dÃ¡ ĠdÃło
ch uÃ¡ngĠ
ĠliÇİngĠ zhÇĴngĠ
chÃ¡o ĠxiÄģnĠ
Ġhan sĠ
Ġt wĠ
bÃ¹Ġ hÃ©
liÃº Ġ
zhÇİnĠ kÄģiĠ
N A
Ã©r ĠtÃ³ngĠ
ĠlÃŃnĠ shÃŃ
zhÃ¨ ĠyÄ«
ĠzhÃ¨ngĠ dÇİngĠ
l ÄĽngĠ
gÃ¹ ĠshÃ¬Ġ
ĠzhÃ¬Ġ liÃłngĠ
Ġch uÃŃ
ĠzhÃ¨ngĠ cÃ¨
N Ġ
rÃ©nĠ shÃ¹
ĠkÄĵ ĠjÃ¬Ġ
ĠxiÇİo ĠshuÅį
ĠĠĠ U
ĠzÃłiĠ mÄĽiĠguÃ³
ĠhÇİiĠ ÃłnĠ
zÄģo ĠdÃło
ĠdÅįngĠ lÃŃnĠ
gÄģo ĠsÃ¹
xiÇİnĠ shÃ¬Ġ
ĠrÃ©nĠkÇĴuĠmÃ¬ĠdÃ¹ĠmÄĽiĠpÃŃngĠfÄģngĠ gÅįngĠlÇĲĠ
juÃ© ĠsÃ¨
tÄģĠmenĠ de
Ġz Ã¨ngĠ
ĠĠĠ Äģ
ĠdÃ¬Ġ wÇĶ
ĠxiÃłngĠ mÃ¹Ġ
ĠbiÄģo ĠzhÃ¬Ġ
Ġl ÇĶĠ
ÄģnĠ zhuÄģngĠ
ĠdÃ¬Ġ wÃ¨iĠ
bÃ¹ ĠnÃ©ngĠ
ĠpÃŃngĠ jiÃłĠ
y ÅįngĠ
xiÃł Ġde
ĠbiÃ© Ġ
yÄ« ĠmÃŃngĠ
huÃ¬Ġ zÃłiĠ
ĠgÇĶ nĠ
wÇİngĠ zhÃłnĠ
ĠguÃ³ ĠnÃ¨iĠ
ĠzhÄ« ĠyuÃ¡nĠ
jiÄģo ĠyÃ¬Ġ
ĠwÃ¨iĠ lÃ¡iĠ
ĠmÃŃngĠ zhÃ¬Ġ
a li
ĠyÇĴu ĠrÃ©nĠ
ĠsÄ« ĠxiÇİngĠ
shÄĵngĠ wÃ¹
guÇİnĠ lÇĲĠ
ĠĠĠ201 5ĠniÃ¡nĠ
ĠĠĠde ĠshÃŃ
ĠjÃ¬nĠ gÅįngĠ
ï¼ ı
ĠfÄĵngĠ gÃ©
ĠxuÃ© ĠshÃ¹
ÇĲĠy Ã¨Ġ
Ġji ÇİoĠ
ĠfÄĵiĠ jÄ«
ĠsÃ¹ ĠdÃ¹
ĠjiÄĽ ĠshÃ¬Ġ
Ġt iÄĵ
ĠtÃ³u Ġ
h ÇĶ
ji ÇİoĠ
ĠliÃ¡nĠ xÃ¬Ġ
bÇİo ĠchÃŃ
ĠdeĠyÄ« ĠzhÇĴngĠ
lÃºnĠ dÅ«nĠ
j Å«Ġ
Ġ200 3ĠniÃ¡nĠ
ĠĠĠ201 3ĠniÃ¡nĠ
jÄ« ĠbÄĽnĠ
ĠzhÅįu ĠbiÄģnĠ
ĠzhÃ¹ ĠyÃ¬Ġ
gÄĵ Ġ
ĠzhÄ«ĠchÃŃ Ġ
ÄģnĠ nÃł
Ġm ÄĽngĠ
ĠĠ ĠsuÇĴĠshÇĶĠdeĠshÄĽngĠjÃŃĠxuÇİnĠqÅ«ĠwÃ¨iĠ
ĠshÃ¬Ġ shÃŃ
ĠĠĠde ĠyÃ³uĠzhÃ¨ngĠbiÄģnĠmÇİĠwÃ¨iĠ
ĠĠĠyÃº ĠshÃŃĠdeĠrÃ©nĠkÇĴuĠshÃ¹ĠliÃłngĠwÃ¨iĠrÃ©nĠ
ĠĠĠdeĠshÃŃ ĠqÅ«ĠwÃ¨iĠ
Ġde ĠqÃŃĠzhÅįngĠ
ĠjÃ¬nĠ shÃ¬Ġ
liÃ¨ ĠwÃ¨iĠ
Ġ Ñ
ĠĠĠyÇĶ ĠjiÄĵĠrÇİngĠdeĠshÃ¬ĠzhÃ¨nĠ
Ġt ÄģnĠ
ĠchÃ¡ nĠ
dÃ¬ĠqÅ« Ġde
zhÃ¨ngĠ fÇĶĠ
fÄģ ĠshÃ¨
ĠtiÃ¡o Ġ
lÃ¬Ġ fÇİ
ĠliÃ¡nĠ hÃ©ĠguÃ³
ĠzÃ¬ĠzhÃ¬Ġ qÅ«
6 4
202 2ĠniÃ¡nĠ
shÃłngĠ shÃ¬Ġ
chÃ¨ nĠ
zhÇĶ ĠyÇİnĠ
pÃŃngĠ miÃłnĠ
ĠqiÃ¡o ĠzhÃ¬Ġ
fÄģngĠ de
ĠjÄ«nĠ shÇĶ
tÇĴngĠ zhÃ¬Ġ
qÃŃ ĠshÃ¬Ġ
diÃłnĠ ziĠ
xÃ¬Ġ bÄģo
dÃ²ngĠ wÃ¹
biÇİo ĠyÇİnĠ
xiÃ© Ġ
dÃ¬Ġ xiÃł
cÃ©ngĠ jÄ«ngĠ
ĠjiÄģngĠ sÅ«
ĠwÃłiĠ de
ĠfÇİnĠ huÃŃ
ĠniÃ¡nĠ qÄ«ngĠ
ĠtiÃ¡o ĠzhÄĽngĠ
i ngĠĠĠ
qÄ«ngĠ niÃ¡nĠ
ĠlÃ¹ ĠyÃ¬Ġ
ĠdÄģngĠ niÃ¡nĠ
fÄģ ĠdiÃłnĠ
ĠwÃ©nĠ jiÃłnĠ
ĠsÄ« ĠlÃŃnĠ
7 ĠrÃ©nĠ
ĠsÄ« ĠkÇİ
xiÄģngĠ dÄģngĠ
qi ÇİngĠ
ĠzhÇĲ ĠzÃłiĠ
wÃłiĠ jiÄģo
Ġz ÃłoĠ
ĠlÃ¬Ġ shÇĲĠ
ĠxuÃ© ĠjiÄģĠ
xiÃłĠjÃ¬Ġ ÃłoĠlÃŃnĠpÇĲĠkÃ¨ĠyÃ¹nĠdÃ²ngĠhuÃ¬Ġ
3 9
ĠkÄĽĠnÃ©ngĠ shÃ¬Ġ
de r
al Ġ
ĠtÇĴngĠ yÄ«
ĠrÃ©nĠ dÃł
xiÃłnĠ zhÃ¬Ġ
ĠjÃº ĠzhÇİngĠ
ĠxÄ«nĠ jiÄģĠpÅį
qiÃº ĠchÇİngĠ
ĠhuÃ²ĠdÃ© Ġle
ĠjÃŃ ĠshÇĲ
ĠtÇİo ĠlÃ¹nĠ
Ġh kĠ
Ġp ÇĶĠ
ĠbÃ¹ ĠjiÇĶ
xiÃłnĠ rÃ©nĠ
zh ÄģnĠ
ĠwÃ¨iĠ xÄ«ngĠ
ĠjiÄĽ ĠjuÃ©
ĠfÄĵiĠ jiÃłnĠzhÃ¬Ġ
ĠxiÃłnĠ xiÃłngĠ
ĠduÅį ĠniÃ¡nĠ
ĠbÇĲ ĠjiÃło
xiÃłnĠ zÃłiĠ
ĠjiÄĽ ĠfÃłngĠ
yuÃ¡nĠ yÄ«nĠ
ĠtÄģĠcÃ©ngĠ dÃłiĠbiÇİo
ĠhÃ© ĠpÃŃngĠ
Ġz hÃ¡
rÃ¨ ĠdÃłiĠ
ĠgÅįngĠ lÃ¹Ġ
ĠjÃ¹ ĠjuÃ©
zÃ© ĠshÃ¬Ġ
l y
ĠyÃº Ġ198
ĠdiÃłnĠ tÃ¡iĠ
xuÇİnĠ jÇĶĠ
ĠĠ ĠqÃŃ
Ġde ĠchÃ©ngĠ
ĠqiÃ¡nĠ lÃ³ngĠ
ĠbÃ¹ ĠkÄĽ
jiÃ© ĠgÃ²u
ĠtuÃ¡nĠ tÇĲ
ĠbÃ¹ ĠlÇĶ
wÄĽiĠ shÅ«ĠjÃ¬Ġ
hÃ© ĠpÃŃngĠ
jÃ¹ ĠlÃŃ
ĠgÄģo ĠzhÅįngĠ
ĠtÃłiĠ pÃŃngĠyÃ¡ngĠ
ĠmÃ¡o ĠqiÃº
xi ÇİoĠ
mÃŃnĠ zÃº
q ÇĲĠyÃ¨
Ġ5 00
ĠÄĽr Ġde
ĠrÃ©nĠkÇĴuĠmÃ¬Ġ dÃ¹Ġ
Ġd ÃºĠ
gÅįngĠ nÃ©ngĠ
ĠshÃ¬Ġ tÃº
ĠfÄģ ĠshÃ¨
yÄ«ngĠ gÃ©ĠlÃ¡nĠ
ĠjiÄģ ĠrÃ©nĠ
p ÇĶĠ
ĠtÇĲ ĠxÃ¬Ġ
ĠjiÇĶ ĠniÃ¡nĠ
B C
k ÄĵngĠ
zÃ¬Ġ rÃ¡nĠ
jiÄĵ ĠduÃłnĠ
ĠshÇİo ĠshÃ¹
Ġ2 8
ĠguÄ« ĠhuÃł
ĠruÃ¬Ġ shÃ¬Ġ
ĠjiÄĵ ĠwÃ¨iĠ
ĠtÃŃ ĠshÄĵngĠ
ĠhÃ© ĠbÃ¬ngĠ
guÇİngĠ dÅįngĠ
ĠfÄģngĠ fÇİĠ
ĠchÃ³ngĠ jiÃłnĠ
mÃ³ ĠshÃ¬Ġ
ĠgÅ« ĠjÃ¬Ġ
ĠqÄ« ĠzÇĲ
Ã¨r ĠshÃ¬Ġ
h ÇİoĠ
ĠzuÃ² ĠzhÃłnĠ
ĠhuÃ¡ Ġ
huÃ²ĠdÃ© Ġle
Ġp Çİo
shÃŃ ĠyÃłnĠ
ĠyuÃ¡nĠ yÃº
zhÃłnĠ yÃ¬Ġ
lÇĲ Ġde
jÇĲngĠ chÃ¡
ÄĽr ĠdÃ©
ĠtÃ¨ĠbiÃ© ĠshÃ¬Ġ
ÃłnĠ de
ĠwÃ¨iĠ shÄĵngĠ
ĠyÃ¹nĠ shÅ«
ĠnÇļ ĠÃ©r
ĠshÄĵngĠ mÃ¬ngĠ
ĠnÃ¡nĠ xÃ¬ngĠ
ĠfÄĵiĠjiÃłnĠzhÃ¬Ġ dÃ¬ĠqÅ«Ġ
d Å«Ġ
ĠbÃ¬Ġ miÇİnĠ
ĠmÃ³ ĠxÃŃngĠ
ĠshÃ¬Ġ xuÃ©ĠwÃ¨iĠ
ĠkÃ¨ Ġde
ĠcÃ¬Ġ niÃ¡nĠ
ĠliÃº ĠyÃ¹
ĠmÃ©ngĠ gÇĶ
L Ġ
ĠĠ ĠyÇĲĠxiÃł
ĠjiÃłnĠ duÃ¬Ġ
ĠdÃ²ngĠ lÃ¬Ġ
ĠlÇĲngĠ yÃ¹
ĠruÃ¬Ġ diÇİnĠ
ĠgÅįngĠ jÄ«
ĠxiÃłngĠ zhÄĵngĠ
Ġj uÄģnĠ
ĠfÄĵnĠ xÄ«
ĠxiÄĽ Ġ
ĠkÃ¨ ĠchÃ©ngĠ
ĠdÃ¬ngĠ wÃ¨iĠ
ĠbÃ³ ĠtÃ¨Ġ
Ġli Çİo
ĠqÄ«ĠxÄ« ĠzÃłiĠ
Ġw Äģ
ĠjiÇİngĠ xiÃłngĠ
Ġb Ã¡
jÃ¬Ġ chÃ©ngĠ
ĠjiÃ© ĠgÃ²uĠ
zhÃ²ngĠyÃło Ġde
20 Ġ
ĠhÃ¹ nĠ
ĠnÃ¡nĠ zhÃ¬Ġ
e sĠĠĠ
ĠdÃł ĠchÃ©nĠ
jiÃłnĠ chÃ©ngĠ
Ġc hÃ¡iĠ
ĠbiÇİo ĠmiÃłnĠ
yuÄĵ ĠhÃłnĠ
k Ã¹Ġ
ji Ã¹Ġ
qiÃ¡o Ġ
Äģ ĠlÄģĠbÃ³
Ã©r ĠyÃ¡nĠ
ĠguÃ³ ĠwÃ¹ĠyuÃłnĠ
Ġ3 5
9 5
e x
e st
ĠjÄ« ĠguÄģnĠ
quÃ¡nĠ lÃ¬Ġ
ĠniÃ¡nĠ1 ĠyuÃ¨Ġ1ĠrÃ¬Ġ
ĠbÃ¹ ĠduÃłnĠ
ĠxiÃło ĠzhÇİngĠ
ĠkÇİ ĠÄĽr
ĠshÄĵngĠ yÃ¡Ġ
huÃ¡ Ġ
qÇĲ ĠlÃ¡iĠ
wÃ¨iĠ le
tÃ³ngĠ yÄ«
bÃ¹ĠtÃ³ngĠ de
ĠĠ ĠxÄ«
de ĠzhÇĶĠyÃło
ĠsÄ« ĠrÃ©nĠ
ĠsÄ«Ġ hÃ©
ĠdÃłnĠ yÃ³uĠyÃº
Ġji Ã¹Ġ
zhÃ¬Ġ zÃło
ĠgÄĵ ĠshÇĴu
ĠxiÃ© ĠyÃ¬Ġ
ĠqÃºnĠ dÇİo
or Ġ
ĠlÃºnĠ bÇĲĠyÃł
xi Äĵ
ĠshÃŃ ĠfÄĵnĠ
ĠĠ ĠzhĠ
ĠzÃłiĠ qÃŃ
zhÇİngĠ de
3 1
ĠlÄģ ĠfÅ«
ĠjiÄĵ ĠdÃło
ĠdiÃłnĠshÃ¬Ġ tÃ¡iĠ
x Ãº
shÃŃ ĠxiÃłnĠ
ĠzuÇĴ ĠyÃ²u
ĠjiÃłnĠ kÄģngĠ
jÃ¬nĠ gÅįngĠ
ĠcÇĲ ĠshÃŃ
fÄĵiĠ xÃŃngĠ
chÅ« ĠrÃ¨nĠ
ĠwÃ¨iĠ yÄ«
ĠzhÃ¬Ġ shÇİo
jiÄģo Ġ
xÄ« ĠwÃłngĠ
ĠĠ ĠmÇİ
Ġt Ã²ngĠ
Ġ10 Ġ
ati onĠĠĠ
4 4
ĠyÄ«ngĠ gÄģiĠ
ĠyÃ²ngĠ hÃ¹
ĠzhÇĲ ĠchÅ«
ĠzhÇĲ ĠnÃ©ngĠ
ĠyÇİngĠ huÃł
huÄ« ĠfÃ¹
pÄ« ĠpÃŃngĠ
ĠmÄĽiĠ nÃŃĠyÃł
yÃŃ ĠzhÃ¬Ġ
ĠsÃ¬Ġ gÃ¨
jÃ¬nĠxÃŃngĠ le
ĠpÃŃnĠ dÃło
ĠzhÅįngĠ xuÃ©
d iĠ
s Ãº
ĠzhÃ¨ ĠcÃ¬Ġ
ĠjÃ¬nĠxÃŃngĠ le
ĠyÄ«ngĠ xiÃ³ngĠ
Ġk Ã²u
ÇĲĠy Ãło
ĠnÃ¡nĠ bÄĽiĠ
zÃ¬Ġ zhÃ¬Ġ
wÃ¨iĠ nÃ©ngĠ
ĠshÃŃ ĠshÄ«
ĠjiÄģ ĠlÃ¬Ġ
ĠlÃ¬ngĠ yÃŃĠgÃ¨
guÄģnĠ yÃº
ĠliÇİngĠ niÃ¡nĠ
ĠlÃ¨iĠ xÃŃngĠ
ĠbÄĽiĠ qÇĲ
jÇĶ ĠrÃ©nĠ
ĠĠĠ 6
ĠmÃŃngĠ xiÇİnĠ
miÃłnĠ de
ĠdÃło ĠlÃ¹
ĠwÃłnĠ yuÃ¡nĠ
quÃ¨ ĠzhÄĽnĠ
ĠyÇĴu ĠxiÃło
ĠdÃ²ngĠ wÃ¹Ġ
Ġm ÇĲĠyÃł
jiÃ© ĠgÃ²uĠ
ĠqÃŃĠzhÅįngĠ bÄģoĠkuÃ²
Ġ20 19
Ġ2 3
8 5
hÃ© ĠxÄ«nĠ
ĠshÃ¹ ĠzÃ¬Ġ
ĠrÃ¨nĠ wÃ¹
ĠxÃŃ ĠxÃ¬ngĠ
i a
Ġg ÇĴu
ĠzÃłiĠ jiÄģ
jÃŃ ĠzhÅįngĠ
wÄĽiĠ huÃ¬Ġ
dÇİo ĠyÇİnĠ
ĠhÃº ĠnÃ¡nĠ
i k
ĠshÃ©nĠ jÄ«ngĠ
ac k
jiÃłnĠ yÃº
ĠjiÃ© ĠhÅ«nĠ
r an
zhÅįngĠ xuÃ©
dÃ¬ĠyÄ« ĠcÃ¬Ġ
Ġli ÇĶ
t ÃºnĠ
O S
bÃ¬ngĠ dÃº
d iÄģo
pÄģiĠ shÃ¨
ĠxuÃ© ĠhuÃ¬Ġ
ĠwÃ¹ Ġde
zÄ« ĠyuÃ¡nĠ
chÇĶ ĠlÇĲ
tuÄ« ĠchÅ«
ĠyÇĲ ĠsÃ¨ĠliÃ¨
dÃł ĠbÃ¹ĠfÃ¨nĠ
ĠxiÃł ĠlÃ¡iĠ
ĠyÃ¹nĠ xÃŃngĠ
ĠshÄĵnĠ qÇĲngĠ
ĠĠĠjiÄģ ĠzÃºĠ
ĠwÃ©nĠ huÃłĠ
ĠfÄĵiĠ zhÅįu
ĠbÅį ĠchÅ«Ġ
2020ĠniÃ¡nĠ mÄĽiĠguÃ³ĠrÃ©nĠkÇĴuĠpÇĶĠchÃ¡ĠdeĠshÃ¹ĠjÃ¹Ġ
ĠyÇĶ Ġde
ĠzhÇĶ ĠtÃŃ
ĠĠĠ201 2ĠniÃ¡nĠ
ĠbiÃłnĠ huÃł
ĠmÄĽiĠguÃ³ Ġ
g uÃł
Ġt iÃło
ĠÃło ĠmÃ©nĠ
ĠĠĠ202 3ĠniÃ¡nĠ
d ÃŃĠ
de ĠqÃŃngĠkuÃłngĠ
ĠĠ ĠzÇİoĠniÃ¡nĠ
ĠkuÃłiĠ sÃ¹
shu ÄģiĠ
ĠyÃŃ ĠmÃŃnĠ
ĠĠ Ġh
guÄģnĠ fÄģngĠ
ĠxÃ¬ngĠ biÃ©
ĠzhÄĽ Ġde
dÃ¬ngĠ wÃ¨iĠ
- -
jiÄĵ ĠjÃ¬nĠ
ĠqÃ¬Ġ chÄĵ
t Ãło
gÄģo ĠyÃº
ĠwÃº ĠrÃ©nĠ
ti c
n Ä«
cÃ¨ ĠshÃ¬Ġ
201 6ĠniÃ¡nĠ
ĠsÄĵnĠ lÃŃnĠ
ĠĠ ĠdÄģngĠ
ĠĠ ĠqÃŃĠtÄģ
Ġg ÇĴngĠ
gÃ¨ ĠzhÇĴngĠ
ĠgÄģo ĠdÄĽngĠ
ĠguÇİnĠ lÇĲĠ
tÃ³u ĠrÃ¹
ĠzhÃ¬Ġ zuÃ²Ġ
Ġm Äģ
20 19ĠniÃ¡nĠ
jÄ« ĠyÃº
zhÄ« ĠyÄ«
ĠjÃ¬Ġ zhÄĽ
ĠwÃ©nĠ xiÃłnĠ
ĠzhÅįngĠ bÃ¹
ĠdÃ¬ĠqÅ« Ġde
ĠbÃ¬ngĠ yÇĲ
ĠjiÇİnĠ shÇİo
g uÅį
ĠjÄ« ĠhuÃ¬Ġ
ĠxiÄģngĠ sÃ¬Ġ
ĠguÇİngĠ zhÅįu
shÃŃ ĠzÃ¬Ġ
quÃ¡nĠ bÃ¹
ĠzhÅįngĠguÃ³ Ġ
ĠĠĠ19 2
202 1ĠniÃ¡nĠ
dÃł ĠchÃ©nĠ
shÃ¹ Ġde
z Ã¨ngĠ
Ġch uÄģngĠ
hÃ© Ġde
e f
ĠbÃ¹ ĠjiÇĶĠ
jÄ«ngĠ lÃ¬Ġ
pÄ« ĠzhÇĶnĠ
ĠchÅ« ĠrÃ¹
ĠshÇĲ ĠjiÃłnĠyÃº
ĠyÇĶnĠ xÇĶ
hÃº ĠnÃ¡nĠ
xiÇİo ĠshuÅį
ĠyÄ«ngĠ yÇĶ
lÃ³u Ġ
Ã©r ĠbÃ¨iĠ
ĠshÃ¨ ĠshÄ«Ġ
dÅįngĠ bÃ¹
ĠshÃ¨ngĠ lÃ¬Ġ
de ĠyÇĲngĠxiÇİngĠ
ĠwÇĶ ĠzhuÄģngĠ
zuÃ¬Ġ zÇİo
ĠsÄ« ĠlÃ¬ngĠ
guÄ« ĠhuÃł
hÃ²u ĠxuÇİnĠrÃ©nĠ
yÇĲ ĠshÃłngĠ
Ġ2 7
ĠjuÃ© Ġde
ĠjiÃł ĠzhÃŃ
ĠtuÄ« ĠchÅ«
c Ã¡o
ĠbiÃłnĠ huÃłĠ
dÃ¬Ġ tiÄĽ
ĠshÇĴu ĠdÅ«
de ĠchÃ©ngĠ
dÃ¬Ġ wÃ¨iĠ
ĠmÄĽiĠ zhÅįu
ĠxÃ¬nĠ yÇİngĠ
q iÃłnĠ
m iÃ¡nĠ
ĠgÃ¨ ĠyuÃ¨
ĠtÃ³ngĠ yÄ«
ĠmÃŃngĠchÃ¡o ĠzhÃ¨ngĠzhÃ¬ĠrÃ©nĠwÃ¹Ġ
Ġh uÇİnĠ
ĠhÃ© ĠxÄ«nĠ
ĠzuÃ² ĠjiÄģ
ĠbÃ¹ĠguÃ² Ġ
ji ÇĶĠ
ĠpÄ« ĠzhÇĶnĠ
bÃ¬Ġ yÃ¨Ġ
xiÃ© ĠyÃ¬Ġ
lÃ¬Ġ liÃłngĠ
Ġch Ä«
fÇİ ĠlÇľ
ĠxÃ¬ngĠ zhÃ¬Ġ
qiÃ¡nĠ de
fÄģ Ġ
ĠzhÇĶ ĠxÃŃ
tÃłiĠ pÃŃngĠyÃ¡ngĠ
ĠmÃ¬ngĠ lÃ¬ngĠ
ĠyÄģo ĠqÇĲngĠ
ĠmÃłiĠ kÃ¨
ĠĠ ĠyÇĴu
ĠĠ formulaĠ
Ġde ĠzhÇĶĠyÃło
ĠzhÇĶ ĠzhÄģngĠ
ĠpÃŃngĠfÄģngĠ mÇĲĠ
ĠbÃ¹ ĠdÃ©
zhÃ¨ngĠ cÃ¨
zh Äģ
ĠzhÅįu ĠshÃ¬Ġ
ĠC Ġ
ĠzÃ¬Ġ dÃ²ngĠ
ĠxÃŃngĠ xiÃłngĠ
l ÃłngĠ
ĠĠ Ġn
Ġde ĠtÃ¨
ĠshÄĵnĠ tÇĲ
ĠshÅįu ĠlÃ¹
Ġ15 0
t ÇĶĠ
bÃ¨iĠ jÇĲngĠ
n Ã¬Ġ
ĠxÃºnĠ huÃŃ
ÃłiĠ ÄĽrĠlÃ¡nĠ
ĠkÃ¨ ĠlÄģ
nÃ©ngĠ lÃ¬Ġ
jÅ«nĠ de
e a
ĠĠ ĠbÄģ
ĠgÅįngĠ chÇİngĠ
jiÄģ ĠtÃŃngĠ
ĠyÃŃ ĠdÃ²ngĠ
ĠpÃºĠtÃ¡o ĠyÃ¡
Ġch uÃłnĠ
shÄĵngĠ yÃ¡Ġ
liÃ¡nĠ xÃ¹
ĠpÇĲnĠ pÃ¡iĠ
o h
ĠshÃ¬Ġ yÇĲ
ĠbÃ¹ ĠjÇĲnĠ
ĠhÃ© Ġde
jiÃło ĠhuÃ¬Ġ
m Ã¡
hÃ© ĠzuÃ²Ġ
ĠfÇİngĠ wÃ¨nĠ
A S
ĠtiÄĽ ĠlÃ¹Ġ
Ġ hÃłiĠ
ĠmÃŃnĠ jiÄģnĠ
ĠÃ©rĠrÃ©nĠkÇĴuĠmÃ¬ĠdÃ¹ĠwÃ¨iĠmÄĽiĠpÃŃngĠfÄģngĠ qiÄģnĠmÇĲĠ
ĠyuÃ¡nĠ mÃŃngĠ
ĠtiÄģnĠ wÃ©nĠ
el l
j uÇİnĠ
ĠshÃ¬Ġ fÇĴu
dÄĽngĠ wÃ¨iĠ
shÃ¬Ġ lÃ¬Ġ
yÄ«nĠ cÇĲ
ĠshÄ« Ġde
4 9
U Ġ
ÄĽr ĠsÄ«
lÃ¹ ĠjÅ«nĠ
Ġ2 6
ĠĠ ĠxiÃłnĠ
ti onĠĠĠ
ĠtÇĲ Ġde
dÃłiĠbiÇİo ĠdÃłĠhuÃ¬Ġ
ĠlÃ¬Ġ sÄ«
chÅ« ĠshÄĵngĠyÃº
Ġ199 8ĠniÃ¡nĠ
niÇĶ ĠyuÄĵ
ĠqÄ« Ġde
ĠmÃ² Ġ
zhÃ¨ngĠ zÃłiĠ
ĠzhÅįngĠgÃ²ngĠ zhÅįngĠyÄģngĠ
f Å«Ġ
ĠbÃ¬Ġ yÃ¨ĠyÃº
ĠchÄģ ĠyÃ¬Ġ
ĠjÄ«nĠ rÃ³ngĠ
ĠwÃ¡ngĠ chÃ¡o
Ġ2001ĠniÃ¡nĠ rÃ©nĠkÇĴu
ĠjÃ¹ĠlÃ¨ ĠbÃ¹
mÃło ĠyÃ¬Ġ
jiÃłnĠ zÃło
hÃ¹nĠ hÃ©
yÃ¬Ġ fÄģngĠmiÃłnĠ
ĠdÄĽngĠ dÃ¬Ġ
wÃº ĠxiÃłnĠ
ĠzhÃłnĠ shÃ¬Ġ
ĠzÄĵngĠ zÇĶ
ĠbÃ¬ngĠ mÃ©iĠyÇĴu
ĠhÇİiĠ yÃ¡ngĠ
zhuÃłngĠ tÃłiĠ
tÇĶ ĠdÃ¬Ġ
xiÄģnĠ hÃ²u
zuÃ² ĠchÅ«
ĠxiÇİo ĠxÃŃngĠxÄ«ngĠ
ĠdiÃłnĠ nÇİo
ĠxÃ¬nĠ xÄ«
ĠzÃłiĠ dÃł
Ġ18 4
ĠkÃ¨ ĠlÃ¡iĠ
dÅįu ĠyÇĴu
rÃ¨nĠmÃ¬ngĠ wÃ¨iĠ
ĠshÄĵngĠ yÄ«nĠ
ĠwÃłnĠ mÄĽiĠyuÃ¡nĠ
q u
Ġt iÇİoĠzhÃłnĠ
ĠchÃ©ngĠ xiÃłnĠ
ĠmÃŃnĠ zhÃ²ngĠ
j uÄģnĠ
wÇĶ ĠzhuÄģngĠ
ĠxiÇİo ĠzÇĶ
mÃŃngĠ de
ĠfÃ¹ ĠmÇĶ
xiÄģngĠ duÃ¬Ġ
ĠwÃłiĠ guÃ³
ĠshÇĲ ĠguÇİnĠ
Ġd Ä«Ġ
ĠlÃ¬Ġ liÃłngĠ
zhÃłnĠ de
ĠnÃ¨iĠ lÃ¹
wÇĴ ĠmenĠ
p h
Ġq iÃł
ĠtÃŃ ĠgÄģo
ĠjiÇĶ ĠdiÃłnĠ
fÇİnĠ huÃŃ
Ġ202 5ĠniÃ¡nĠ
zhÃ¬Ġ wÃ¨iĠ
jÄ«ngĠ chÃ¡ngĠ
ti Äĵ
ĠbÃ¬ngĠ fÄĵiĠ
shÃ¹ ĠliÃłngĠ
biÄģo Ġ
Ġb o
jÃ¬Ġ lÃ¹Ġ
ĠÄĵnĠ shÄĽngĠ
ĠhÅįngĠ zhÃł
Ġ2 2
ati onĠ
t Ã²ngĠ
zhÄĽngĠ gÃ¨
d iÃłoĠ
Ġ à
ĠyÄ«ngĠ yÇĶĠ
ĠzÄ« ĠxÃ¹nĠ
ĠzÇĴngĠ bÃ¹
ĠshÄĵngĠhuÃ³ Ġ
ĠmÇĴu ĠxiÄĵ
ĠyÃ¬Ġ yÇĴu
yÃ³u ĠjÄ«
ĠjÄ«ngĠ yÃłnĠ
p er
ĠyÃ¬Ġ yÃ¬Ġ
yÄ« ĠdÃłiĠ
ĠyÇĴu Ġde
ĠzhÃłnĠ lÇĲngĠ
ĠwÃ¡nĠ zhÄĽngĠ
ĠĠ ĠyÃ³u
ĠyuÃ¡nĠ de
jÄ« ĠdÅ«
chÄĵ ĠliÃłngĠ
ch uÄģngĠ
ÇĲĠy ÄĽ
zhÃ¨ngĠ mÃŃngĠ
shÄģnĠ dÅįngĠ
pÃ² ĠhuÃłiĠ
jÄ« ĠchÇĶ
ĠmÄĽiĠ yuÃ¡nĠ
xÄ«ngĠ jiÃłnĠ
yuÃłnĠ zhÇİngĠ
chÃº Ġle
t a
Ġl Ã²u
Ġc Ã¹nĠ
ĠchÃ³ngĠ qÃ¬ngĠ
ĠzuÃ¬ĠhÃ²u ĠyÄ«
ĠhÇİiĠ wÃłiĠ
ĠgÃ¨ngĠ duÅį
yÇĴuĠxiÃłnĠ gÅįngĠsÄ«Ġ
ĠĠ ĠshÃŃ
lÃ³ngĠ jiÄģngĠ
chÃŃ Ġ
9 9
ĠyuÃ¡nĠ niÃ¡nĠ
ĠyÃ²ngĠ lÃ¡iĠ
h uÇİnĠ
ĠdÄģngĠshÃŃ Ġde
sÄģnĠ gÃ¨
ĠyÇİnĠchÃłngĠ huÃ¬Ġ
ãĥ »
ĠÃ©rĠshuÇĲĠyÃ¹ĠmiÃłnĠjÄ«ĠwÃ¨iĠ 0
Ã Ĺ
de ĠbÃ¹
ĠlÄģ ĠdÄ«ngĠ
Ġshu ÄģiĠ
sh ÄĽ
ĠzÃłiĠ dÃ¹
ĠjiÃ¨ ĠquÃ¡nĠguÃ³
ĠlÃ¬ĠshÇĲ ĠshÃłngĠ
B A
tiÄģnĠ jÄ«nĠ
Ġz hÃ³u
ĠkÃ¨ ĠluÃ³
ĠduÃ¬Ġ xiÃłngĠ
B S
v er
ĠĠĠ 7
ĠyÄ« ĠlÃ¬Ġ
ĠrÃ¹ ĠqÄ«nĠ
sÃłiĠ jÃ¬Ġ
20 00ĠniÃ¡nĠ
ĠmÃłnĠ huÃł
Äģo Ġ
niÃ¡nĠ qÄ«ngĠ
sÃ¬Ġ niÃ¡nĠ
ĠtÄģĠmenĠ zÃłiĠ
zhÃło ĠkÄģiĠ
ĠqÃŃ ĠxiÃł
ĠzÃłiĠ gÄģiĠ
ĠzhÃłnĠ hÃ²u
ĠduÅį ĠzhÇĴngĠ
ĠgÇĶ ĠdÃłiĠ
ĠĠĠC h
ĠfÄĵiĠ lÇľĠbÄ«nĠ
zhÃ¨ngĠ de
zuÃ¬Ġ dÃłĠde
ĠrÃ©nĠkÇĴu ĠwÃ¨iĠ
yuÃ¨ ĠtuÃ¡nĠ
suÃŃ ĠhÃ²u
ĠjÃ¹ĠlÃ¨ ĠbÃ¹Ġ
bÃło ĠgÃło
ĠguÄģnĠ zhÃ²ngĠ
biÃłnĠ chÃ©ngĠ
wÃ¨iĠ duÃ¬Ġ
ĠshÄĵngĠ mÃŃngĠ
huÃ¡ngĠ dÃ¬Ġ
ĠdÃło ĠlÃ¹Ġ
zhÅįngĠ bÃ¹
hÇİiĠ dÃło
ĠĠ ĠjiÃ©ĠzhÃ¬Ġ
Ġd Å«Ġ
xuÃ© ĠxÃŃ
ĠjÃ¹ ĠqÃŃngĠ
ĠtÇİ Ġ
ĠrÃ©nĠ wÃ¹
ĠgÅįngĠ shÃ¬Ġ
ĠjiÃłnĠ chÃ©ngĠ
fÄĵnĠ bÃ¹
ĠzÄ« ĠjÄ«nĠ
jiÄĵ ĠdÃło
jÄ«nĠ pÃ¡iĠ
Ġsh ÇİngĠ
zhÇĲ ĠshÃ¬Ġ
ĠĠĠ201 1ĠniÃ¡nĠ
ĠkÄĽĠnÃ©ngĠ huÃ¬Ġ
ĠkÃłngĠ yÃ¬Ġ
ĠbiÇİo ĠdÃ¡
p Çİo
Ġd ÇĶ
Ġt ÄģiĠ
ĠnÃŃĠyÃł ĠzhÅįu
ĠhÄĵngĠ lÃ¬Ġ
gÅįngĠ jÄ«
yÇĲnĠ qÇĲ
ĠfÃ³ ĠjiÃło
Ġde ĠqiÃ¡nĠ
shÃ¬Ġ jÃ¬Ġ
ĠbÃ¬ngĠ yÇĶ
bÅį ĠlÃ¡nĠ
ĠchÃ©ngĠwÃ©iĠ le
xuÄģnĠ chuÃ¡nĠ
ĠĠ ĠshÃ¨ngĠ
ĠwÃ¨iĠ de
ĠxiÃłnĠ chÇİngĠ
chÃ¡ iĠ
d ÃºĠ
Ġw Å«Ġ
ĠgÄģo ĠjÃŃ
shÅ« ĠzhÇİngĠ
cÄģnĠ sÃłiĠ
Ġs hÃº
ĠĠĠ 8
ĠrÃ¨nĠ mÃ¬ngĠ
ĠniÃ¡nĠ dÃ¹
ĠzÃłiĠ 18
ĠyÃŃ Ġ
ĠÃło ĠdÃłĠlÃ¬ĠyÃł
ĠĠ ĠzhÅįngĠ
ĠĠ ĠzhÅįngĠguÃ³
ĠzhÇĶ ĠyÇİnĠ
ĠyÄĽ ĠjiÃ¹ĠshÃ¬Ġ
ĠgÇİiĠ shÃłnĠ
ĠchuÃłngĠ lÃ¬Ġ
6 8
ĠĠĠ202 4ĠniÃ¡nĠ
h ÅįngĠ
bÃ¬ngĠ wÃ¨iĠ
qÇĶ ĠdÃłiĠ
ĠlÃ¬Ġ rÃ¨nĠ
ĠhuÃł Ġde
ĠĠĠ201 0ĠniÃ¡nĠ
Ġ194 9ĠniÃ¡nĠ
xiÃłngĠ mÃ¹Ġ
hÃ¡o ĠmÇĲ
ĠwÃ©iĠ qÃŃ
ĠtÃ³u ĠpiÃło
ĠshuÇĲ ĠpÃŃngĠ
ĠjiÇĶ ĠlÃ³ngĠ
ĠzhÃ¨ngĠ chÃ¡ngĠ
â Ķ
ĠdÅįngĠ fÄģngĠ
ĠdÅįngĠ xÄ«
ĠyÇİnĠ chÅ«
ĠchuÃłngĠ bÃłnĠ
ĠhÇİiĠbÃ¡ ĠgÄģoĠdÃ¹
ĠdÃ© ĠlÇĲ
jÄ« ĠguÄģnĠ
ĠhuÃł ĠhÃ©
ĠchuÃłngĠ zÃło
mÃŃnĠ zhÃ²ngĠ
ĠzhuÄģnĠ mÃ©nĠ
ĠxÄ« ĠyÇĲnĠ
zÃ¬Ġ dÃ²ngĠ
ĠbÄģ Ġ
ĠjÃ¬ngĠ zhÄĵngĠ
Ġ199 9ĠniÃ¡nĠ
ĠtÄģ ĠyÃº
ĠĠ ĠxiÄģngĠgÇİngĠ
Ġh uÄģngĠ
ĠbÃ¹ ĠlÃ¡iĠ
ĠxÃŃngĠzhÃ¨ngĠ qÅ«
ĠtuÄ« ĠdÃ²ngĠ
w Å«Ġ
Ġf Ã©nĠ
de ĠqiÃ¡nĠ
niÃ¡nĠ jiÄģnĠ
ĠĠĠjÃ¹ ĠqÃŃngĠ
ĠzÃłiĠ nÃł
chÃ©ngĠ xiÃłnĠ
ĠmÃŃngĠ yÃ¬Ġ
xuÃ© ĠjiÄģ
huÃŃ ĠdÃło
nÃ³ngĠ yÃ¨
z Ä«Ġ
ĠsÄ« ĠfÇİ
ĠmÃ¬Ġ mÃ¬Ġ
T V
k ÇİnĠ
ĠzÃłiĠ tÄģ
ĠyÃ¬Ġ shÃŃ
deĠshÃŃ ĠqÅ«ĠwÃ¨iĠ
shÃ¬Ġ tÃº
guÃ³ ĠhuÃ¬Ġ
ĠzÃ© ĠdÅįngĠ
yÃ¹nĠ xÃŃngĠ
tÃ³u ĠzÄ«
Ãło ĠdÃ¬ĠlÃ¬Ġ
ĠzuÃ² ĠchÅ«
Ġp ÇĲ
200 8ĠniÃ¡nĠ
jiÇİnĠ chÃ¡
h ÄĵngĠ
q iÇİo
ĠĠ ĠyÃ¡nĠ
Ã©r Ġ
K Ġ
Ġch uÃ¡ngĠ
q ÇĶĠ
ĠlÃ¬ngĠ yÇĴu
ĠyÃ¡nĠjiÅ« ĠsuÇĴ
zhuÃłngĠ kuÃłngĠ
ĠshÃ¬Ġ dÃ©ĠguÃ³
ĠyuÃ¨ ĠtuÃ¡nĠ
Ġde ĠqÃŃngĠkuÃłngĠ
ĠdÃ© ĠyÇĲ
bÇİo ĠliÃº
ĠzhuÄģngĠ jiÇİ
ĠtuÅį Ġ
ĠdÃ¬Ġ de
ĠjÃ¹ ĠfÄĵngĠ
ĠdÃ¬Ġ yÃŃĠgÃ¨
ĠguÄģnĠ chÃ¡
ĠhuÃ¡ ĠshÃ¨ngĠdÃ¹nĠ
ï¼ ħ
ĠxÄ« ĠfÄģngĠ
ĠgÇİnĠ dÃło
ĠĠ Ġl
zuÃ¬Ġ chÅ«
ĠyÃ¬Ġ rÃ©nĠ
ĠchÇİnĠ yÃ¨
ĠĠĠt o
t iÃło
ĠĠ ĠcÇĲĠwÃłiĠ
201 2ĠniÃ¡nĠ
b o
hÃ© ĠlÃ¡nĠ
shÃ¹ ĠjÃ¹
yÃ¹nĠ shÅ«
Ġw ÄĽnĠ
ĠshÃ¬Ġ lÃ¬Ġ
zhÅįngĠ shÄģnĠ
yuÃ¨ ĠnÃ¡nĠ
ĠyÃŃngĠ yÃ¹nĠ
ĠxÄ«Ġ ÄģnĠ
ĠbÃ¹ ĠluÃ²
ĠkÇİo ĠlÇľ
âĶ Ģ
ĠjuÃ© ĠduÃ¬Ġ
ĠshÄ« ĠbÃłiĠ
202 3ĠniÃ¡nĠ
fÇİngĠ wÃ¨nĠ
ĠpÇĶ ĠbiÃłnĠ
chÇĶ ĠyÃº
i ch
w ÄĽnĠ
ch uÃŃ
ĠzhÃ¨ngĠ fÇĶĠ
shÄĵngĠ yÃº
tÄģ ĠzÃłiĠ
lÃ¡iĠ yuÃ¡nĠ
wÇİngĠ luÃ²
ĠgÄĵnĠ tÃŃngĠ
ĠliÃ¨ĠchÄĵ Ġ
ĠzhÅįngĠ jiÄģnĠ
S TĠ
wÃ¨iĠ shÃ¬Ġ
ĠgÃ¨ ĠyuÃ¨Ġ
g Ġ
wÃ©iĠ chÃŃ
ĠwÃ©nĠ zÃ¬Ġ
ĠshÄ« ĠqÃ¹
zÄ« ĠgÃ©Ġ
4 2
ĠdÄģnĠ qÅ«Ġ
ĠdiÃłnĠshÃ¬Ġ jÃ¹Ġ
ĠyÃ³u ĠqÃŃĠshÃ¬Ġ
ĠgÃ²u ĠchÃ©ngĠ
zÅįngĠ hÃ©
tÇİo ĠlÃ¹nĠ
Ġp Ã¬nĠ
yÃ²ngĠ de
ĠxÄ«ngĠ qÄ«
ĠjÄ« Ġde
ĠfÃº ĠhÃ©
chÃłngĠ piÃłnĠ
ĠzhÃ¨ngĠ cÃ¨Ġ
Ġt ou
ĠzhÃ¬Ġ lÃ¬Ġ
ĠxÄ« ĠzÃłngĠ
tÃ³u ĠpiÃło
ĠsuÃ¬Ġ shÃŃ
sÃ¬Ġ shÃŃ
liÃº ĠxÃŃngĠ
ĠshÄĵngĠhuÃ³ ĠxÃŃĠxÃ¬ngĠ
ĠzhÅįngĠ yÃº
jiÃ© ĠshÃ¹Ġ
ri c
Ġzh uÅį
bÃ¹ ĠduÃłnĠ
ĠxiÃłnĠ wÃ¨iĠ
ĠtÃ³ngĠ mÃ©ngĠ
ĠfÃłngĠ qÃ¬Ġ
zhÇĶnĠ bÃ¨iĠ
zÃłiĠ mÄĽiĠguÃ³
Ġd uÇĴ
t uÃ²
Ġzh Å«Ġ
ĠyÃ¹ ĠjÃ¬Ġ
ĠyÄģ ĠlÃ¬Ġ
Ġ199 2ĠniÃ¡nĠ
ĠcÇĲĠ hÃ²uĠ
jÄ« ĠchÄĵ
00 ĠmÇĲ
ĠyÄĽ ĠkÄĽĠyÇĲ
ĠdÇİo Ġde
ĠbiÃłnĠ chÃ©ngĠ
shÄ« ĠfÃłnĠ
20 ĠshÃ¬ĠjÃ¬Ġ
a h
ĠguÇİngĠdÅįngĠ shÄĽngĠ
zÃ¡ ĠzhÃ¬Ġ
ĠgÃ© ĠlÄģ
bÅį ĠchÅ«Ġ
guÄ« ĠdÃ¬ngĠ
Ġg Çİo
ĠshÄĵngĠhuÃ³ĠxÃŃĠxÃ¬ngĠ bÃ¹ĠmÃŃngĠ
7 8
Ġg uÃł
ĠzhÄ« ĠdÃło
jÄ« ĠhÅ«
ĠzhÇĴngĠ ziĠ
an dĠĠĠ
i f
Ġq uÇİnĠ
ĠshÃ¨ ĠqÅ«
zhÃ¹ ĠmÃŃngĠ
ĠĠ Ġ12
ĠyÄ« ĠmÃ©iĠ
ĠjÃ¬Ġ shÃ¹Ġ
zhÄ« ĠwÃ¨iĠ
fÃ³ ĠjiÃło
yÃ²ngĠ lÃ¡iĠ
gÇİiĠ biÃłnĠ
ĠtiÄĽ ĠdÃło
l ay
ĠzhÃ¹ ĠzuÃ²Ġ
Ġ2 9
ĠbÇİo ĠliÃº
m iÃłoĠ
ĠchÅ« ĠzhÃłnĠ
tÃ³ngĠ niÃ¡nĠ
wÇĶ ĠqÃ¬Ġ
bÃłnĠ dÇİo
ĠĠĠdÃ¬Ġ Ã¨r
ĠA Ġ
tÃ³ngĠ yÃ¬Ġ
ĠshuÅį ĠfÇİĠ
ĠguÃ³ĠjiÄģ ĠduÃ¬Ġ
ĠjiÃło ĠliÃłnĠ
I n
ĠdeĠdÃ¬Ġ fÄģngĠ
ĠshÃ¬Ġ nÃ¡nĠ
ĠjiÄģngĠ huÃ¬Ġ
qi Ã³ngĠ
ĠqiÃ¡ngĠ liÃ¨
ĠĠ ĠsuÄ«ĠrÃ¡nĠ
ĠlÃ¬Ġ jÃŃ
deĠdÃ¬Ġ fÄģngĠ
ĠchÃ©ngĠlÃ¬Ġ yÃº
hÃ© ĠdÇİngĠ
yÃ¬Ġ qÃŃngĠ
sÃ¬Ġ chuÄģnĠ
ĠtÃº ĠshÅ«ĠguÇİnĠ
ĠdeĠqÃŃĠzhÅįngĠ yÄ«ĠzhÇĴngĠ
hÃ© ĠshÃ¬Ġ
ĠyuÄĵ ĠwÃ¨iĠ
sÃ¨ Ġde
guÇĴ Ġ
gÃ© ĠwÃ¨iĠ
7 6
Ġd ÇĲĠ
Ġ199 6ĠniÃ¡nĠ
201 5ĠniÃ¡nĠ
ĠjiÃło ĠxuÃ©
m ÇİiĠ
ĠĠ ĠbÃ¨iĠjÇĲngĠ
Ġsh ÇİoĠ
ĠyÄ« ĠliÃ¡o
ĠzhÅįu ĠwÃ©iĠ
or t
Ġ194 5ĠniÃ¡nĠ
ĠĠ ĠfÃº
hÃ© ĠqÃŃĠtÄģ
ĠzhÃ¬Ġ dÃ¬ngĠ
ĠfÄĵnĠ lÃ¡nĠ
tÃŃ ĠmÃŃngĠ
ar t
ĠgÄģo Ġde
ĠmÇĲĠ ÄĽr
ĠxÇĲ ĠhuÄģnĠ
chÃ¡ngĠ qÄ«
ĠwÃ¡ngĠ guÃ³
tuÃ¡nĠ tÇĲ
zhÄĵnĠ duÃ¬Ġ
Ã©r ĠchÃ©ngĠ
xÄ« ĠlÃł
gÄĵ ĠshÇĴu
ĠguÄģngĠ xÃ¹
yÇĴuĠxiÃłnĠ gÅįngĠsÄ«
yÄ« ĠwÃ¨iĠ
ĠluÃ³ ĠsÄ«Ġ
gÄĵ ĠqÇĶ
ĠdÃło ĠdÃ¡
ĠjÅ«nĠ wÃ¨iĠ
shÃ¬Ġ fÇĴu
ĠyÄĽ ĠbÃ¨iĠ
ĠbÃ³ ĠlÃŃnĠ
r ÇĶ
ĠzhÇĶ ĠjuÃ©
Ġ4 5
Ġde ĠyÇĲngĠxiÇİngĠ
sh uÄģ
201 4ĠniÃ¡nĠ
ĠmÇİ ĠÄĽr
ĠjÅ«nĠ zÃłiĠ
pÃŃngĠ lÃ¹nĠ
ĠĠ ĠmÄĽiĠguÃ³
ĠbÃ¬ngĠ yÃ³u
ĠkÃ¨ ĠyÃ¹nĠ
ĠjiÃ© ĠhÃ©
Ġg Ã¹Ġ
ĠzuÃ² ĠzhÄĽ
ĠÄģnĠ dÃ©
ĠĠ ĠduÃ¬Ġ
ĠĠĠ Ã©r
ĠyuÃ¡nĠ xÃŃngĠ
chÅ« Ġle
ĠgÄģiĠ cÅ«nĠ
ĠjÃ¹ ĠtÇĲ
ĠcÄģnĠ kÇİo
wÃ¡nĠ jiÄģ
jÇĲnĠ biÄģoĠsÃłiĠ
ĠshÇĲĠyÃ²ngĠ de
ĠkÄģngĠ xÄ«
I N
ĠhÃ© ĠpÃłnĠ
Ġ20 ĠshÃ¬ĠjÃ¬Ġ
ĠbÃ¬ngĠ bÃ¨iĠ
ĠgÃ¨ngĠ jiÄģ
fÇİ ĠlÃ¡nĠ
wÃ¹ ĠzhÃ¬Ġ
dÃłiĠbiÇİo Ġ
ĠbÄĽnĠ zhÃłnĠ
201 8ĠniÃ¡nĠ
shÃ¨ngĠ lÃ¬Ġ
dÃło Ġde
gÃ²ngĠ chÇİnĠ
ĠwÇĶ ĠtÃ¡iĠ
202 4ĠniÃ¡nĠ
ĠshÄĵngĠ chÄĵngĠ
ĠwÃ©iĠ ÄģiĠ
Ġ8 0
200 9ĠniÃ¡nĠ
Ġw ÄĵngĠ
ĠxiÇİo ĠxÃŃngĠ
ĠqÃŃĠzhÅįngĠ nÃ¡nĠxÃ¬ngĠ
i ngĠ
ĠrÃ¨nĠ wÃ¹Ġ
rÃ¹ ĠqÄ«nĠ
Ġ198 8ĠniÃ¡nĠ
gÇİiĠ biÄģnĠ
h uÇĲ
zh Å«Ġ
yuÃ¡nĠ zhÃ¹
ĠwÃ©iĠ zhÇĶĠ
an t
ĠgÄĵngĠ mÃŃngĠwÃ¨iĠ
ig h
G Ġ
H Ġ
ĠĠ ĠzÄĵngĠzÇĶ
ĠjÄ« ĠchÇĶ
xÄ« ĠbÃ¹
ĠpÃ¨iĠ yÄ«nĠ
dÇĲ ĠdÃ¡
jÃ¹ ĠjuÃ©
ĠĠĠdÃ¬Ġ fÄģngĠ
deĠyÄ« ĠzhÇĴngĠ
r y
ĠjÄ«nĠ rÃ¬Ġ
ĠcÇĲ ĠcÃ¬Ġ
lÃŃnĠ shÃŃ
ĠyÃ¬Ġ niÃ¡nĠ
sÄ« Ġde
xiÇİo ĠshuÅįĠ
ĠcÃ¡iĠ nÃ©ngĠ
4 3
a st
ĠĠ ĠjÃ¬nĠ
dÃ© ĠyÇĲ
ĠmÃŃnĠzhÇĶ ĠdÇİngĠ
I C
ĠchÃ¡ngĠ shÃ¬Ġ
ĠbÃłnĠ shÃ¬Ġ
ĠjÄ« ĠxiÃ¨
yÃ¬ngĠ yÃ²ngĠ
ĠĠĠ200 8ĠniÃ¡nĠ
8 8
zhÃ¨ ĠjiÄģngĠ
yÃŃ ĠdÃ¹
Ġ199 7ĠniÃ¡nĠ
ĠsÅ« ĠgÃ©ĠlÃ¡nĠ
ĠzhÃło Ġ
tiÃ¡o ĠjiÃłnĠ
e y
ĠrÃ©nĠ wÃ¹Ġ
ĠlÃ¬Ġ shÇĶ
bÄĽnĠ tÇĶ
ĠbÄĽnĠ shÄĵnĠ
yÇĲ ĠxiÃł
rÃ¹ ĠxuÇİnĠ
t ÄģngĠ
ĠfÇİ ĠguÄģnĠ
mÄĽiĠ niÃ¡nĠ
ĠjÄ« ĠjÃŃ
liÃ¡nĠ jiÄĵ
Ġ199 4ĠniÃ¡nĠ
201 7ĠniÃ¡nĠ
ĠzÄ« ĠliÃłoĠ
ar d
jÃ¹ ĠlÃ¨
ĠyÃł Ġ
ar Ġ
xiÃ© ĠzhÃ¹
bÄģoĠkuÃ² Ġ
ĠrÃ©nĠ hÃ©
zhÅįngĠ xuÃ©Ġ
guÄģnĠ yuÃ¡nĠ
ĠqÅ« ĠyÃ¹Ġ
ĠyÄ« ĠdÃłiĠ
ĠgÅįngĠ jÄ«nĠ
wÃ©iĠ zhÇĶĠ
rÃ³ngĠ yÃ¬Ġ
A M
gÅįngĠ zhÃ²ngĠ
ĠxiÅ« ĠgÇİiĠ
e dĠĠĠ
zhÃ¨nĠ qÅ«Ġ
cÃ©ngĠ zÃłiĠ
guÃ³ ĠnÃ¨iĠ
jÄ«ngĠ yÃŃngĠ
ziĠ de
nÇļ Ġ
guÇİngĠ zhÅįu
ĠbÇĲĠsÃłiĠ zhÅįngĠ
ĠzhÅįngĠhuÃ¡ĠrÃ©nĠmÃŃnĠgÃ²ngĠhÃ©ĠguÃ³ ĠzhÃ¨ngĠzhÃ¬ĠrÃ©nĠwÃ¹Ġ
ĠxuÇİnĠ shÇĴu
ĠS t
ã ģ
ĠjÃŃ ĠshÃ¬Ġ
jÃ¬Ġ zhÄĽ
ĠzhÅįngĠguÃ³ ĠrÃ©nĠmÃŃnĠjiÄĽĠfÃłngĠjÅ«nĠ
kÇİ Ġ
ĠdÃ© ĠmÃŃngĠ
fÃº ĠjiÃłnĠ
ĠfÄĵnĠbiÃ© ĠwÃ¨iĠ
gÄģo ĠdÄĽngĠ
ĠduÃ¬Ġ yÃ¬ngĠ
pÃŃngĠ tÃ¡iĠ
m iÃ¨
Ġh uÇĲĠ
ĠcÃ¨ ĠliÃ¡ngĠ
ĠbÇĲ ĠrÃº
4 1
yÄ« ĠtÃ³ngĠ
ĠjÄ«ngĠ diÇİnĠ
ĠwÄĽiĠ huÃ¬Ġ
Ġ198 5ĠniÃ¡nĠ
ĠquÄĵ ĠfÃ¡
a ng
x ÇĲĠ
ĠlÃ¬Ġ yÃ¬Ġ
ĠgÇĶ ĠfÃ¨nĠ
ĠhuÃŃ ĠyÃ¬ngĠ
ĠshÃ¬Ġ wÅ«ĠkÃ¨ĠlÃ¡nĠ
qÃ¬Ġ chÄĵ
n Ãº
Ġde ĠfÃ¹
fÄģngĠ fÇİ
tiÄģnĠ zhÇĶĠjiÃło
ĠzhÃ¨nĠ qÅ«Ġ
ĠxiÄģo ĠshÃ²u
de ĠfÃ¹
ĠshÃłngĠ shÃ¬Ġ
ĠchÅ« ĠlÃ¡iĠ
ĠhÇİiĠ pÃŃngĠmiÃłnĠ
ĠtÃŃngĠ zhÇĲ
ĠhÇİiĠbÃ¡ ĠwÃ¨iĠ
Ġ Z
mÇĶ ĠsÄ«Ġ
b er
Ġt ÇĶĠÄĽrĠqÃŃ
yÃŃ ĠshÃ¬Ġ
ĠliÇİngĠ mÃŃngĠ
ĠĠ Ġ17
ÇĴu ĠxiÃłngĠ
jiÃłnĠ yÃ¬Ġ
ĠshÃ¹ ĠwÃ¨iĠ
ĠnÃ©ngĠ liÃłngĠ
ĠbÃło ĠgÃłoĠ
ĠmÃ² ĠxÄ«ĠgÄĵ
A R
ĠyÇİnĠ chÅ«Ġ
ĠxiÃłnĠ jÄ«nĠ
shÃ²u ĠyÇĶ
Ġx ÇĲngĠ
mÇİ ĠlÃ¡iĠxÄ«ĠyÃł
fÄĵiĠ jÄ«
ĠhuÃ¡ngĠ jÄ«nĠ
mÃłnĠ huÃł
s p
ĠjiÄĵ ĠjÃ¬nĠ
ĠfÃ¨nĠ zÇĲ
ĠxiÇİngĠ niÃ¡nĠ
bÃ¹ ĠkÄĽ
rÃ©nĠ zÃłiĠ
ĠlÇĲ ĠdÃ¡
I I
yÇĴu ĠsuÇĴ
nÃ¡nĠ bÃ¹
yÄģ Ġ
ĠbÃ¹ ĠbÄ«ngĠ
ĠgÃ²u ĠmÇİiĠ
ĠshÃŃ ĠyÄ«
ĠshÃŃ ĠsÄģnĠ
ĠgÄģo ĠxiÃ³ngĠ
xÄ«ngĠ dÄĽngĠwÃ¨iĠ
yÃ¹nĠ yÃŃngĠ
ĠzhÃ¨ngĠzhuÃłngĠ gÇİnĠrÇİnĠ
C h
ĠxÄ« ĠjiÄĵ
5 8
Ġji Å«
ĠchÃ¡ Ġ
bÇĲ ĠjiÃło
xiÃłĠxiÃ¡ ĠdeĠyÃŃĠgÃ¨
ĠdÃ¬Ġ liÃ¹
dÄģnĠ qÅ«Ġ
shÇĶ Ġde
201 1ĠniÃ¡nĠ
yÃ¬Ġ mÃŃngĠ
ĠyÃŃ ĠshÃ¬Ġ
jiÃ© ĠhÅ«nĠ
bÃ¬ngĠ mÃ©iĠyÇĴu
ĠshÃŃ ĠxÃŃngĠ
ĠyÄ« ĠtÃ³ngĠ
ĠzhÃ¨ngĠ quÃ¡nĠ
ĠshÃłngĠ wÃ¨iĠ
ĠsÃł ĠÄĽr
chuÃłngĠ lÃ¬Ġ
ĠĠ ĠqÄ«ngĠ
bÄĽiĠ bÃ¹
in t
sÄ« ĠtÇİnĠ
ĠshÇĴu ĠxiÄģnĠ
ĠnuÃ² Ġ
ĠcÃ¹ ĠjÃ¬nĠ
ĠbÃ¨iĠ rÃ¨nĠwÃ©iĠshÃ¬Ġ
ĠyÄĽ ĠhuÃ¬Ġ
tÃ¨ ĠzhÄĵngĠ
ĠshÄĵnĠ zhÃ¨nĠ
Ġ18 0
gÄĵ ĠqÇĶĠ
fÄģngĠ ÃłnĠ
ĠshÃ¨ ĠshÄ«
jÃ¬nĠ yÃŃĠbÃ¹
ĠyÄ« ĠzuÃ²
tÇĴngĠ jÃ¬Ġ
ĠfÄĵngĠ gÃ©Ġ
yÇİnĠ chÅ«Ġ
ĠduÃ¬Ġ de
zhÇĶ ĠtÃŃ
ĠkÇİ ĠsÄ«
a u
ĠlÃ¡iĠ yuÃ¨
yÄĽ Ġ
ĠbÃ³ Ġ
ĠsuÃŃ ĠjÃŃ
6 7
Ġy Äĵ
ch ÇĶĠ
ÄģiĠ jÃŃ
ĠyÃŃ ĠzhÃ¬Ġ
wÇĶ ĠniÃ¡nĠ
w Äģ
ĠĠ ĠlÇĲ
ĠyuÃ¡nĠ shÃ¬Ġ
yÃ¡nĠ shÄĵnĠ
E R
ĠxiÃłngĠ shÃ¬Ġ
duÅį ĠgÃ¨
ĠqiÃ¡ngĠ diÃło
ĠzÄĵngĠ zhÇİngĠ
i st
Ġ Ã
ĠĠĠ 9
ĠshÄĵngĠ tÃłiĠ
ĠchÃ¡o Ġ
ĠniÃ¡nĠ dÃłiĠ
Ġch Åįu
mÃŃnĠzhÇĶ ĠdÇİngĠ
k uÃ¬Ġ
l ÃŃĠ
kÄģiĠ tÅįngĠ
tÃłiĠ yÃ¡ngĠ
yÄ«ngĠ wÃ©nĠ
ĠqÇĲ ĠlÃ¡iĠ
zhÃło Ġ
A T
ĠdÃł ĠlÃ¹Ġ
jiÄģ ĠzÃº
zhÇĲ ĠchÅ«Ġ
ĠlÃ¬ngĠ yÃ¬ĠfÄģngĠmiÃłnĠ
ĠzhÃ²ngĠ dÃł
ĠxÃ¹ ĠlÃ¬ĠyÃł
ĠcÄģo ĠzuÃ²
ĠÃ©r ĠfÄĵiĠ
ĠquÃ¡nĠ miÃłnĠ
ĠtÃ¡iĠ nÃ¡nĠ
ĠfÃłnĠ zuÃ¬Ġ
yÃ¬Ġ shÃ¬Ġ
dÃł ĠqÅ«
ĠbÃłnĠ gÅįngĠshÃ¬Ġ
ĠdÃ¬ĠÃ¨r ĠcÃ¬Ġ
yÄģo ĠqÇĲngĠ
m ÄĽngĠ
dÃł ĠlÃ³u
jiÄģnĠ de
nÃ¨iĠ bÃ¹
ĠĠ ĠbÃ¹
Ġp Å«
gÅįngĠ chÇİngĠ
ĠmiÃłnĠ duÃ¬Ġ
ĠĠĠ200 9ĠniÃ¡nĠ
pÃº ĠtÃ¡o
I S
ĠgÅįngĠ chÇĲ
ĠxÄ« Ġde
ĠpÃ©ngĠ yÇĴu
yÃŃ ĠdÃłiĠ
al l
ĠcÇİiĠ qÇĶ
gÄĵngĠ mÃŃngĠwÃ¨iĠ
xiÅįngĠ dÃ¬Ġ
ĠĠĠ19 1
ÄģnĠ dÃ©
ĠyÇĲnĠ qÃŃngĠ
ĠtÃ³ngĠshÃŃ ĠgÄģiĠdÃ¬Ġ
zÅįngĠ jiÃło
shÃŃ ĠshÄ«
ĠyÄ« ĠsÄ«ĠlÃ¡nĠ
ĠmÄĽiĠ jÅ«nĠ
ĠzÇĴngĠ lÇĲ
ĠfÄĵngĠ xiÇİnĠ
Ġ18 3
gÅįngĠ huÃ¬Ġ
ĠyÃ¡nĠ hÇİiĠ
ĠjÄ«nĠ shÄģnĠ
suÇĴ ĠcÇİiĠyÃ²ngĠ
ĠtÄģ ĠhÃ©
shÄĵngĠ de
ĠxiÃłĠlÃ¬ngĠ shÃŃĠjiÄģnĠ
ĠĠ ĠyÇĲ
ĠdÃ¬Ġ zhÃ¨nĠ
ĠzÄ« ĠgÃ©
ĠzhuÄ« ĠsÃ¹
dÃło ĠdÃ¡
ĠnÃ¨iĠlÃ¹ ĠshÄĽngĠfÃ¨nĠ
ĠyÇĶ ĠqÃŃĠtÄģ
ĠzhÄ« ĠshÃŃ
ĠbÅį ĠluÃ³
ĠzhÅįngĠ deĠ
ÇĲĠy Ã¡nĠ
ĠmÄĽiĠ shÃ¹
shÇĴu ĠwÃ¨iĠ
ĠshÄĽngĠ hÃ©
Ġ7 0
dÃ¡ ĠchÃ©ngĠ
il l
sÄ« ĠjÄ«
shÇĲ Ġde
ĠfÃº ĠlÇİngĠ
ĠmiÇİnĠ diÄģnĠ
dÃ¬Ġ wÇĶ
zhÄ« ĠyuÃ¡nĠ
ĠzhÃŃ ĠwÃ¨iĠ
ĠliÃ¡nĠ wÇİngĠ
i p
Ġr Ã¹nĠ
Ġh ÇİoĠ
ĠdÃłnĠ yÄ«nĠ
ĠyÃł ĠlÃ¬ĠshÄģnĠ
gÃ© Ġde
ĠtÃłiĠ guÃ³
ĠbÃło ĠzhÃł
Ġ9 0
it h
p ÄģnĠ
ĠshÄģnĠ jÄ«
zhuÄģnĠ yÃ¨
t Ä«
ĠshÃ¬Ġ wÄĵiĠ
guÃ² ĠqÃ¹
ĠzÃłiĠ19 8
ĠyÄģoĠqiÃº Ġ
guÇĲ ĠdÃło
kÃ¨ ĠchÃ©ngĠ
ĠzhÇĴngĠ zÃº
yÄ« ĠniÃ¡nĠ
xiÄģngĠ sÃ¬Ġ
jiÄĽ ĠjuÃ©
ĠshÃŃ ĠzÃ¬Ġ
zÇĴngĠ dÅ«
ĠfÄĵnĠ bÃ¹Ġ
201 3ĠniÃ¡nĠ
guÄ« ĠmÃ³
6 6
ĠshÃ¨ ĠjÃŃ
jÄ«ngĠ shÃ©nĠ
ĠmÃ¹ ĠbiÄģoĠ
ĠbiÄģo ĠbÄĽnĠ
mÃ¬ngĠ mÃŃngĠwÃ¨iĠ
n d
Ġs ÄĵngĠ
ĠjÃ¬Ġ yÃ¬Ġ
Ġli ÇİnĠ
ĠyÃº Ġ197
ĠxÄ«nĠ lÇĲ
jÃ¬nĠ dÇİngĠ
ĠrÃ¹ ĠxuÇİnĠ
gÄģo ĠzhÅįngĠ
cÄģnĠ mÃ³u
ĠdÅįu ĠyÇĴu
Ġ199 5ĠniÃ¡nĠ
ĠsuÃŃ ĠhÃ²uĠ
shÃŃ ĠfÄĵnĠ
jiÃ© ĠhÃ©
ĠfÄģngĠ yÃ¡nĠ
bÃłnĠ gÅįngĠshÃ¬Ġ
ĠpiÃło ĠfÃ¡ngĠ
ĠdÃ¬Ġ 1
ĠchÅ« ĠkÇĴu
ĠjiÇİngĠ shÃ¹
hÃ© ĠchÃ©ngĠ
sh uÃ²
xi Ã¨Ġ
ĠshuÅį ĠmÃŃngĠ
ĠzhÃ¨ngĠ xiÃ©
ĠdÃłnĠ qÃŃ
ĠnÃŃ ĠxÄ«ĠyÃł
chuÃłngĠ bÃłnĠ
ĠnÃł ĠxiÄĵ
yÃ¡ngĠ jiÃłnĠ
7 9
ĠchÅ« ĠshÄĵnĠ
ĠnÃ¡nĠ jÃŃ
rÃ¬Ġ jÅ«nĠ
ĠshÃŃ ĠqÅ«Ġ
rÃ©nĠ menĠ
ĠguÃ¬Ġ zÃº
ĠbÃ³ĠshÃ¬Ġ xuÃ©ĠwÃ¨iĠ
t y
ĠĠ Ġ11
Ġj ÇĲĠ
Ġp ÄĵnĠ
hÃ²u ĠbÃ¨iĠ
zhÃłnĠ shÃ¬Ġ
ĠsÃ¬Ġ shÃŃ
qÃ¬Ġ xuÃ¡nĠ
Ġ198 4ĠniÃ¡nĠ
ĠniÃ¡nĠ lÃŃngĠ
chÃ©ngĠ rÃ¨nĠ
pÇĶ ĠbiÃłnĠ
ĠĠĠdÃ¬ĠfÄģngĠ zÄ«ĠliÃłoĠ
ĠsÄ« ĠkÃ¨
ĠjÃ¬nĠ zhÇĲ
zuÃ² ĠyÃ²ngĠ
Ġ3 00
bÃ³ Ġ
ĠshÃ¨ĠhuÃ¬Ġ zhÇĶĠyÃ¬Ġ
ĠfÄģnĠ yÃ¬Ġ
Ġt uÃ²
xÄ«nĠ jiÄģĠpÅį
ĠjÅ«nĠ tuÃ¡nĠ
shÄĵnĠ qÇĲngĠ
ĠbÅį ĠfÃłngĠ
zÇĴngĠ rÃ©nĠkÇĴu
zÇİo ĠqÄ«
5 3
yÄ« ĠshÃ¬Ġ
ĠxÃŃ ĠjÄ«
dÇİ Ġ
ĠxiÅįngĠ yÃ¡ĠlÃ¬Ġ
g uÄ«Ġ
x Ġ
ĠjiÄģ ĠqiÃ¡ngĠ
chÅ« ĠzhÃłnĠ
ĠbÃłnĠ dÇİo
Ġ15 Ġ
ĠshÃłngĠ yÇĴu
zhÃ¨ ĠyÃłngĠ
ĠdÃ¬Ġ qÄ«
chÅ« ĠxiÃłnĠzÃłiĠ
fÃ¹ ĠqÄ«nĠ
zuÃ¬Ġ dÃł
Ġ198 9ĠniÃ¡nĠ
Ġxi Ã¨Ġ
ĠyÇĲ ĠbiÃłnĠ
ĠbÃ¹ ĠdiÃłnĠyÇĲngĠ
ĠjÃ¹ ĠyuÃłnĠ
xÃ¬ngĠ liÃłnĠ
Ġ199 3ĠniÃ¡nĠ
Ġn uÃ³ĠwÄĵiĠ
suÇĴ ĠzÃłiĠ
ĠĠĠjiÇİnĠ jiÃ¨Ġ
ĠyuÃ¡nĠ zÃ¬Ġ
ĠÄĽr ĠhÃ©
ĠdÄģnĠ qÅ«
huÄģ Ġ
ĠĠ ĠwÃłiĠ
ĠnÃ¡nĠ fÄģngĠ
yÃ¡nĠ jiÅ«Ġ
ĠnÃł Ġme
ĠquÃ¨ ĠrÃ¨nĠ
gÇİnĠ dÃło
ĠdeĠdÃ¬Ġ qÅ«Ġ
a ĠĠĠ
n ÇĶ
guÃ³ ĠlÃ¬Ġ
qiÃº ĠyÃ¹nĠdÃ²ngĠyuÃ¡nĠ
tÃ³u ĠxiÃ¡ngĠ
chÃ¡ nĠ
Ġt Åįu
ĠyÇĶ ĠqÃŃ
ĠdÇİ ĠjÄ«
ĠjÃŃ ĠhÃ©
dÃ¬Ġ yÃŃĠgÃ¨
ĠchÇİngĠ bÇĲĠsÃłiĠ
bÄģngĠ zhÃ¹
7 2
Ġ 00Ġ
ĠĠ ĠjiÄģoĠtÅįngĠ
Ġq uÃłnĠ
ĠzÃłiĠ rÃ¬ĠbÄĽnĠ
yÇĴu ĠxiÃło
ĠzÇĶ ĠjiÃłnĠ
ĠlÃŃ ĠmÇĲĠ
shu ÇĲĠyÃ¹Ġ
ĠmÃŃngĠ dÄģnĠ
quÃ¨ ĠdÃ¬ngĠ
yÄ« ĠxiÇİoĠshÃŃĠ
ĠxÄ«nĠ jiÄģngĠ
ĠjÄ«nĠ tiÄģnĠ
ĠxiÇİo Ġde
gÄģo ĠjÃŃ
ĠguÇİngĠ gÃło
s ÇİnĠ
zhÄ« ĠzhÅįngĠ
Ġ19 20ĠniÃ¡nĠ
D TĠ
c ÇİoĠ
zh ÄĽnĠ
ĠyÄ« ĠtiÃ¡o
ĠdÃł ĠxÄ«ĠyÃ¡ngĠ
ĠsÄģnĠ jiÇİo
tÃ³ngĠ yÃłngĠ
ĠqÇĶ ĠxiÄģo
zÇĴu Ġ
t uÃ³
ar k
ĠjiÇİnĠ chÃ¡
ĠhuÇĴ ĠshÄģnĠ
ĠmÇİ ĠkÃ¨
bÃ¬Ġ yÃ¨ĠyÃº
ĠhÄĽnĠ kuÃłiĠ
wÇİnĠ shÃłngĠ
Ġw ÄģngĠ
h uÄ«Ġ
Ġ Y
ĠzhÇĶ ĠshÃ¬Ġ
ĠnÃ¡nĠ fÄĵiĠ
ĠtÃ¡iĠ fÄĵngĠ
chÄĵngĠ wÃ¨iĠ
ĠtÃ³u ĠrÃ¹
zhÅįngĠguÃ³ ĠdÃłĠlÃ¹
ĠzhÃło ĠpiÄģnĠ
ati on
p Ã¬Ġ
zhÄ« ĠwÃłiĠ
Ġ7 Ġ
A C
rÃ©nĠ hÃ©
zÃ¬Ġ xÃŃngĠ
ĠzhÃ¹ ĠyÃº
fÃ¹ ĠzhÇĶĠrÃ¨nĠ
ĠbÅį ĠÄĽr
an c
Ġ 0Ġ
ĠdÃ© Ġde
ĠzhÃłnĠ dÃ¬Ġ
ĠzhÃŃ Ġde
ĠwÃ¹ ĠzhÃ¬Ġ
z hÃłiĠ
ĠdÃ¬Ġ miÃłnĠ
ĠbÄĽiĠ fÄģngĠ
Ġ3 0Ġ
quÃ¨ĠzhÄĽnĠ bÃ¬ngĠlÃ¬Ġ
h uÇĲĠ
ĠdÃł ĠzhÃ¬Ġ
jÃŃ ĠbÃ¬ngĠ
shÃ¹ ĠwÃ¨iĠ
zhÇİngĠ guÄģnĠ
ĠcÃ©ngĠ wÃ¨iĠ
ĠjiÃ¹ ĠdÃº
5 ĠrÃ©nĠ
ĠzuÃ² ĠwÃ¨iĠ
rÃº ĠxiÃłĠ
yÃ¬Ġ bÇİiĠ
ĠnÇĶ ĠlÃ¬Ġ
mÇĴu ĠxiÄĵ
ĠĠ Ġg
ĠÃ©r ĠbÃºĠshÃ¬Ġ
ĠshÃ¨ ĠyÇĲngĠ
jiÃło ĠtÃ¡ngĠ
ĠbÃło ĠdÃło
shÃ¬ĠjiÃ¨ ĠbÄĵiĠ
ĠbÄ«nĠ hÇİiĠ
hÃło Ġde
fÄģ ĠbÃ¹Ġ
ou r
ĠshÃ¬Ġ zhÇİngĠ
ĠbÃło ĠdÃłoĠ
jiÃ©ĠshÃ¹ ĠhÃ²uĠ
w Åį
ĠĠ ĠzhÃ¨ngĠ
Ġzh uÃ¬Ġ
ĠyÄ« ĠjÃŃ
huÃ¬Ġ de
jiÃło ĠliÃłnĠ
rÃ¬Ġ zhÃ¬Ġ
ĠxÃ¹nĠ sÃ¹
ĠchÃ¡o ĠtÃŃngĠ
Ġc nĠ
wÃ©iĠ ÄĽr
ĠyÃ¬nĠ dÃ¬Ġ
l u
ĠyÇĴu ĠyÃ¬Ġ
zhÃ¨ngĠ quÃ¡nĠ
ĠfÇİ ĠÃłnĠ
ĠqiÃº ĠhuÃ¬Ġ
Ġ3 6
chÃ³ngĠ jiÃłnĠ
ĠdiÃło ĠkuÃłiĠ
ĠshÃ¹ ĠxuÃ©
yÃŃ ĠdÃ²ngĠ
ĠzÇĶ ĠhÃ©
ĠwÇİ Ġ
ĠzhuÃłngĠ kuÃłngĠ
kÇİo ĠlÇľ
ĠshÃ¬ĠyÃŃĠgÃ¨ ĠwÃ¨iĠyÃº
ĠshÃ¬Ġ nÃŃ
ĠwÃ¨iĠ UTCĠ
ĠdÃł ĠwÃ¨iĠ
dÅįngĠ jÃ¬Ġ
ĠhuÇĴ Ġ
ĠshuÃłiĠ lÇĲngĠ
7 7
ĠshÃ¹ Ġde
tÃº ĠshÅ«ĠguÇİnĠ
tÇİ Ġ
ĠzhÄģo ĠhÃ©
ĠĠ ĠchÃ©ngĠ
ĠshÃ¬Ġ nÃ¨iĠ
shÃ¬Ġ bÄ«ngĠ
ĠshÃłngĠ shÃ¹
ĠlÇĲ ĠlÃ¡nĠ
ĠtÃŃ ĠmÃŃngĠ
shuÇĲ ĠpÃŃngĠ
ĠjÃŃĠ UTCĠ
shÃ¨ĠyÇĴu ĠxiÃłĠlÃ¬ngĠshÃŃĠjiÄģnĠ
shÃ¨nĠ zhÃ¬Ġ
ĠÃ©rĠgÄģiĠdÃ¬Ġ suÇĴĠcÇİiĠyÃ²ngĠ
deĠshÃŃĠqÅ«ĠwÃ¨iĠ UTCĠ
ĠtÃ³ngĠshÃŃĠgÄģiĠdÃ¬Ġ shÃ¨ĠyÇĴuĠxiÃłĠlÃ¬ngĠshÃŃĠjiÄģnĠ
ĠdiÃłoĠkuÃłiĠ yÄ«ĠxiÇİoĠshÃŃĠ
ĠÃ©rĠgÄģiĠdÃ¬ĠsuÇĴĠcÇİiĠyÃ²ngĠ deĠshÃŃĠqÅ«ĠwÃ¨iĠUTCĠ
gÅįngĠ lÃ¹
zhÃ¹ ĠmÃŃngĠde
fÇİ ĠÃłnĠ
ĠguÃ² Ġ
ĠduÃłnĠ shÃŃĠjiÄģnĠ
r Ã¹nĠ
ĠĠ ĠqiÃ¡nĠ
de ĠzhÅįngĠ
ĠshÃ¬Ġ qÅ«
ĠyÄ« ĠxuÃ©
ĠĠ Ġk
Ãło ĠsÄ«
yÇĲ ĠqiÃ¡nĠ
dÃł ĠxÃŃngĠ
ĠjiÄģo ĠyÃ¬Ġ
Ġj uÃłnĠ
ÃłnĠ zhÃło
ĠguÃ³ Ġde
ĠsuÇĴ ĠshÇĶ
ĠbÃ¹Ġ ÄĽr
rÃº ĠcÇĲĠ
ĠbÃ¹ ĠmÇİnĠ
19 2
Ġle ĠyÃŃĠgÃ¨
ĠtÃłiĠ kÅįngĠ
hÃ¡ngĠ bÇİngĠ
wÃ©nĠ jiÃłnĠ
Ġ199 1ĠniÃ¡nĠ
gÄģoĠyÃº ĠhÇİiĠpÃŃngĠmiÃłnĠ
ĠyÃ¡nĠ shÄĵnĠ
shÄ« ĠqÃ¹
ĠgÃ¹ ĠwÃ¨nĠ
Ġ195 8ĠniÃ¡nĠ
kuÃłiĠ sÃ¹
ĠchÃ¹Ġde ĠhÇİiĠbÃ¡ĠwÃ¨iĠ
ĠchÃ¹ĠdeĠhÇİiĠbÃ¡ĠwÃ¨iĠ gÄģoĠyÃºĠhÇİiĠpÃŃngĠmiÃłnĠ
5 2
dÃł ĠxÄ«ĠyÃ¡ngĠ
ĠzhÃ¹ ĠzhÃ¡iĠ
diÇİnĠ de
ĠtÄģ ĠduÃ¬Ġ
ĠxiÃł ĠjiÃłngĠ
ĠxÃ¬Ġ liÃ¨Ġ
z hÃ¡
zÃłiĠ dÃ¹
ĠjÃŃ ĠbÄĽiĠmÄĽiĠ
duÃ¬Ġ de
ĠzÄĵngĠ jiÄģĠ
ĠzhÄĽngĠ tÇĲ
Ġ X
hÃ¡ngĠ tiÄģnĠ
ĠyÄĽ ĠzÃłiĠ
ĠshÃłngĠ yÃ¬ngĠ
lÇľ ĠwÃ¨iĠ
zhÃ¬Ġ liÃ¡o
ĠjÃ¹ ĠbÄĽnĠ
ĠkÄĵ ĠÄĽr
ĠjiÄģo ĠhuÃ¬Ġ
ĠcÃ¡iĠ liÃło
ĠmÃŃngĠ quÃ¨
qÅ«Ġde ĠmiÃłnĠjÄ«ĠwÃ¨iĠ
.. .
jÃ¬Ġ de
zhÄ« ĠziĠ
tÃłiĠ ziĠ
Ġp ÃłoĠ
Ã©r ĠziĠ
yÃ¹ Ġde
fÄĵnĠ xÄ«
Ġxi Ã¹Ġ
dÃł ĠyuÄĵ
huÃł ĠwÃ¨iĠ
Ġ3 8
tiÃ¡o ĠzhÄĽngĠ
ĠwÃ©iĠ qÃŃĠ
ĠkÄĵ ĠxuÃ©ĠyuÃłnĠ
ĠfÅ« ĠrÃ©nĠ
Ġ195 0ĠniÃ¡nĠ
ĠdeĠyÄ« ĠzuÃ²
ĠĠ ĠzhÇĶĠyÃło
ĠjÄ« ĠdÃ¬Ġ
ĠĠ ĠfÃ¹
fÄģ ĠqÇĲ
ĠxÄ«Ġ ÄĽr
ĠwÇĶĠ hÃłnĠ
5 6
Ġl Ã¼Ã¨Ġ
ĠlÃ¬Ġ hÃ©
ĠxiÃłnĠ fÇİ
ĠzhÃłnĠ lÃ¼Ã¨
ĠshÄģnĠ fÄĵngĠ
ĠĠĠ19 0
bÄģ ĠlÃŃ
200 7ĠniÃ¡nĠ
jiÄĽ Ġ
7 3
diÃłnĠ lÃ¬Ġ
ĠshÃ¬ĠyÄ« ĠkÄĵ
gÇİiĠ gÃ©
deĠyÄ« ĠzuÃ²
ĠbÄĽiĠjÄ«ngĠ shÃ¬Ġ
O N
ĠzÃ¬Ġ shÄĵnĠ
shÃ¨ ĠshÄ«Ġ
jiÃło ĠshÃ²uĠ
Ġ199 0ĠniÃ¡nĠ
ĠÃło ĠyÃ¹nĠ
ĠcÄģnĠjiÄģ Ġle
5 4
Ġs ÇİnĠ
ĠbÃłnĠ gÅįngĠ
Ġ10 ĠyuÃ¨Ġ
ĠgÅįngĠ rÃ©nĠ
ĠdÃł ĠgÃ©ĠmÃ¬ngĠ
zhÇĶ Ġde
ĠsuÇĴ ĠwÃ¨iĠ
19 1
ĠlÃ©iĠ sÄ«
yÇĲnĠ fÄģ
ĠmÇİ ĠlÄģ
ĠkÄĵ ĠfÅ«
ĠjiÇİnĠ dÄģnĠ
s s
ĠĠ Ġ16
Ġl Ã¨Ġ
ĠhÃ²u Ġde
ĠlÇļ ĠxÃŃngĠ
fÃ¨iĠ yÃ¡nĠ
a z
r am
t ÄģiĠ
jÃ¬Ġ zÇİiĠ
diÃłnĠ tÃ¡iĠ
ĠliÇİngĠ cÃ¬Ġ
ĠzhÃ© ĠxuÃ©
Ġk uÃ¡ngĠ
gÅįngĠ lÇĲ
a w
ĠqiÃº ĠchÇİngĠ
ĠdÄģngĠ jÃº
ĠliÃº ĠyÃ¹Ġ
ĠxiÇİo ĠshuÅįĠ
ĠshÇĲ ĠmÃ¬Ġ
lÃ¬ĠshÇĲ ĠshÃłngĠ
ĠdÃ¡ ĠchÃ©ngĠ
ĠzÃłiĠ zhÅįngĠ
xuÇİnĠ wÃ¨iĠ
ĠshÃłngĠhÇİiĠ shÃ¬Ġ
ĠshÃ¬Ġ xiÄģngĠgÇİngĠ
rÃ¨nĠ wÃ¹Ġ
dÃ¬ngĠ yÃ¬Ġ
ĠyÃ¨ ĠwÃ¹
ĠtiÃ¡o ĠyuÄĵ
ĠshÃŃĠjÃ¬Ġ shÃłngĠ
ĠlÃ¹nĠ wÃ©nĠ
ĠĠĠ200 7ĠniÃ¡nĠ
9 6
ĠĠ ĠtÃ¡iĠwÄģnĠ
ĠyÇĲ ĠqiÃ¡nĠ
ĠyuÃ¡nĠ wÃ¨iĠ
ĠruÇİnĠ jiÃłnĠ
9 8
w ÄĽnĠdÃ¬ngĠ
ĠtÃ³ngĠ rÃ¬Ġ
ĠwÇİ ĠÄĽr
ĠxiÅ« ĠzhÃ¨ngĠ
h ÇİnĠ
h uÄģnĠ
Ġp Ã³
ĠjiÄģ ĠjÃ¬ngĠ
shÇĲ ĠshÃłngĠ
nÃŃ ĠsÄ«
T ub
mÃ³ ĠxÃŃngĠ
ĠĠĠth eĠĠ
s ÃłngĠ
x uÄĵ
ĠĠ ĠjÃŃ
yÇĲngĠ piÃłnĠ
quÃ¨ ĠrÃ¨nĠ
jiÃłnĠ zhÃ¹Ġ
ĠbÄģ ĠxÄ«
ĠdÇĲ ĠdÃ¡
zh ÄģiĠ
de ĠpÃŃngĠjÅ«nĠ
ĠwÃ©iĠ kÃ¨
ĠdiÃłnĠ chÄĵ
ĠqÃ¬Ġ xiÃłngĠ
shÄ« ĠbÃłiĠ
rÃ©nĠmÃŃnĠ bÃ¬Ġ
dÃło ĠlÃ¹
ĠdÄģnĠ mÃłiĠ
ĠyÃŃ ĠdÃ¹
ĠdÃłiĠ yÇĴu
cÃ³ngĠ shÃ¬Ġ
ĠĠĠ202 5ĠniÃ¡nĠ
ĠdÃ¬Ġ yÃł
ĠxiÄģngĠ xÃ¬nĠ
zhÅįu ĠbiÄģnĠ
qi Å«Ġ
ĠqÃŃĠzhÅįngĠ yÄ«
Ġ198 6ĠniÃ¡nĠ
xÃŃ ĠjÄ«
Ġr Ãło
ĠyÃ¬Ġ jiÃłnĠ
ĠjiÄģ ĠgÄĵ
huÃł ĠhÃ©
shÄĵngĠ wÃ¨iĠ
ĠbÄĵiĠ sÄ«
i ng
Ġd iÃłoĠ
Ġzh ÄģiĠ
qÃºnĠ dÇİo
ĠfÄĵnĠbiÃ© ĠshÃ¬Ġ
c ÅįngĠ
ĠwÇİngĠ lÃ¹
200 1ĠniÃ¡nĠ
ĠshÃ¬ĠjiÃ¨ ĠbÄĵiĠ
ĠshÃŃ ĠsÃ¬Ġ
ĠduÃ¬Ġ wÇĶ
yÃ¨ Ġde
xÄ«ngĠ qÄ«
d Äģo
ĠzhÃło ĠkÄģiĠ
dÃ¬Ġ qiÃº
ĠfÃ¡ngĠ yÃ¹
at h
qiÃ¡o ĠzhÃ¬Ġ
ĠzhÄ« ĠzhÅįngĠ
xiÃł ĠwÇĶĠ
ĠshÇĲ ĠqÃŃ
ĠzhÇİnĠ lÇİnĠ
shÇĲĠyÃ²ngĠ de
A P
qÃ¬Ġ de
tiÄĽ ĠlÃ¹Ġ
7 4
f Ã©iĠ
ĠÄģ ĠlÄģĠbÃ³
mÃ² ĠxÄ«ĠgÄĵ
ĠgÇİnĠ rÇİnĠ
ĠkÃłngĠ rÃ¬Ġ
ĠliÇİngĠ guÃ³
ĠhÃ¡iĠ shÃ¬Ġ
ĠĠ ĠrÃ¬ĠbÄĽnĠ
Ġb ÇĲĠyÃł
ch Ä«
dÃł ĠxuÇİnĠ
ĠshÄĵngĠ rÃ¨nĠ
ĠtÃ¨ ĠdÃ¬ngĠ
ĠzhÇİnĠ shÃ¬Ġ
ĠlÃŃnĠ jÃ¬nĠ
Ġx ÇĲĠ
ĠhuÃ¬Ġ shÃ¬Ġ
ĠmiÃłnĠ de
ĠpÃ¨iĠ hÃ©
ĠxuÃ© ĠxÃŃĠ
ĠrÃº ĠhÃ©
ĠlÃ¡o ĠdÃ²ngĠ
Ġk Å«
ĠjÃŃ ĠwÃ¨iĠ
bÅį ĠfÃłngĠ
jiÃ¹ ĠdÃº
ĠzhuÄģngĠ shÃ¬Ġ
Ġ198 3ĠniÃ¡nĠ
ĠĠĠ hÃ²u
dÃ¬Ġ 1
ĠzhÃ¨ngĠ jÃ¹
ĠbÃ¨iĠ qÃŃ
qÃ¬Ġ xiÃłngĠ
liÃłngĠ de
ĠsÃ¨ Ġde
yuÃ¡nĠ bÄĽnĠ
ĠlÃ¹ ĠxÃ¹
ĠqÇĲ ĠyuÃ¡nĠ
r Ã²u
ĠshÃŃ ĠxÃ¬ngĠ
zhÅįngĠ yÇĴu
ĠjiÄģngĠ xÄ«
kÃ¨ ĠlÇĲ
Ġ198 0ĠniÃ¡nĠ
f f
Ãło ĠzhÅįu
dÃ¬Ġ liÃ¹
zhÅįu Ġde
ĠdÄĽngĠ dÄĽngĠ
ĠkÃłnĠ dÃło
ĠzÇĴu Ġ
k Äģ
xiÃłnĠ xiÃłngĠ
lÃŃngĠ chÃ©nĠ
ĠshÃło ĠniÃ¡nĠ
ĠĠ ĠtiÄģnĠ
ĠdÃłiĠ lÇĲngĠ
ĠluÃ³ ĠlÇĲĠdÃ¡
ĠjiÃł ĠgÃ©
ĠlÇĲngĠdÇİo ĠrÃ©nĠ
ĠshÃŃ ĠwÇĶ
ĠkÇİo ĠgÇĶ
g h
Ãło ĠÄĽr
ĠtÄģ ĠjiÄģngĠ
ĠhuÃ¬Ġ de
zhÃ¨ngĠ dÇİngĠ
ĠchÅ« ĠxiÃłnĠzÃłiĠ
ĠdÄģngĠ shÃŃĠ
hÃ³u Ġ
in c
huÄ« ĠshÄĽngĠ
jÅ«nĠ qÅ«
zuÃ² Ġde
ĠbÃ³ ĠtÃ¨
guÄģnĠ bÃ¬Ġ
ĠbÃłnĠ yÇİnĠ
xiÇİo ĠxuÃ©
ĠyÃ¬nĠ dÃ¹Ġ
d Ã¨ngĠ
hÃ¨ Ġ
ĠtÄģ ĠrÃ¨nĠwÃ©iĠ
ĠdÇİo ĠdÃłnĠ
Ġ198 2ĠniÃ¡nĠ
duÃ³ Ġde
Ġz uÇĲ
ĠluÃ² ĠfÃ¡
ĠtÃº ĠxÃŃngĠ
yÇĶnĠ xÇĶ
ĠzuÃ² Ġde
fÃ¹ Ġde
You Tub
A N
jiÄģ ĠlÄģ
ĠzÃ¬Ġ mÇĶ
ĠfÄĵiĠ lÃ¬Ġ
ÇĲĠy ÃłnĠ
xÄ« ĠlÃ¡nĠ
fÄĵnĠ pÃ¨iĠ
zÄ« ĠliÃło
Ġb ÃŃ
ĠdÃ¬Ġ diÇİnĠ
ĠshÃŃ ĠshÃ¬Ġ
dÃłiĠ de
shÅįu ĠlÃ¹
h uÄģngĠ
Ġxi Å«Ġ
jÅ«nĠ zÃłiĠ
ĠbÃ¨iĠ pÃ²
ĠbÄĽnĠ piÃłnĠ
gÄģo Ġde
hÇİiĠbÃ¡ ĠgÄģoĠdÃ¹
ĠĠ ĠmÃ¹ĠqiÃ¡nĠ
ĠjiÄģo ĠliÃº
ĠdÃ¬Ġ 2
ĠshÃŃ ĠliÃ¹
dÇİngĠ yuÃ¡nĠ
fÃ¹ĠzÃ© ĠguÇİnĠxiÃ¡Ġ
ĠzhÃ¨ngĠzhuÃłngĠgÇİnĠrÇİnĠ zhÄĽ
5 1
ĠshÃ¬Ġ mÃŃnĠ
ĠdÃł ĠdÃło
sÄ« ĠxiÇİngĠ
tÇĴngĠ yÄ«
i li
m ÃłoĠ
ĠguÃ³ ĠjÅ«nĠ
mÃŃngĠ xiÇİnĠ
ĠwÃº ĠlÃ¹nĠ
r Ã³u
ĠyÄ« ĠlÇİngĠ
ĠxÃŃngĠ mÃ¹
ĠjÄ« ĠyÄ«nĠ
ĠxiÃł ĠxiÃ¡
sÃ¹ ĠdÃ¹
ĠpÃ² Ġ
suÄ« ĠrÃ¡nĠ
ĠdÃ¬Ġ lÇĲ
ĠxÃŃ ĠwÃ¨iĠ
gÃ²u ĠmÇİiĠ
e le
i Ã¨Ġ
p Ã¹
ĠzÄ« ĠchÇİnĠ
ĠzhÄĵnĠ shÃŃ
shÅįu ĠrÃ¹
ĠdÃłngĠ tiÄģnĠ
Ġs ec
jiÄģ Ġde
xiÃłnĠ chÇİngĠ
chÅ« ĠlÃ¡iĠ
ĠsuÇĴ ĠzÃłiĠ
ĠquÃ¡nĠ xiÃłnĠ
ĠrÃ©nĠmÃŃnĠ dÃłiĠbiÇİoĠdÃłĠhuÃ¬Ġ
ĠgÅįngĠkÄģiĠ sÃłiĠ
f ÄĽiĠ
h uÃłiĠ
ĠĠ ĠzhÃłnĠ
ĠĠ ĠgÃ¨ĠrÃ©nĠ
ĠyÄ« ĠcÃŃ
ĠlÃ¹ ĠyÇĲngĠ
ĠxÃ¬Ġ jÃ¹
quÃ¡nĠ miÃłnĠ
Ġn Ãº
ĠqÃŃ ĠbÄ«ngĠ
jiÃło ĠwÃ©iĠ
ĠĠĠjiÄģ ĠtÃŃngĠ
Åįu ĠmÃ©ngĠ
ĠyÇĲ ĠbÃ¨iĠ
hÃ³ngĠ sÃ¨
ĠzÃ© ĠrÃ¨nĠ
Ġ194 6ĠniÃ¡nĠ
yÃ³u ĠtÃłiĠ
ĠduÅį ĠwÃ¨iĠ
ĠtÃ³ngĠshÃŃ ĠyÄĽ
Ġ194 8ĠniÃ¡nĠ
ĠtÃ¨ ĠdiÇİnĠ
ĠchÄĵ ĠxiÄģngĠ
k ÇĶ
ĠzhÃ¬Ġ dÃ¹Ġ
jÄ« ĠgÃ²uĠ
ĠB Ġ
Ġg Äģ
ĠyuÃ¨ Ġde
ĠyuÃ¨ ĠduÃ¬Ġ
wÃ¹ ĠlÇĲ
ĠbÅį ĠchÅ«
200 6ĠniÃ¡nĠ
ĠpÅį Ġ
guÃ³ ĠfÃ¡ngĠ
ĠdÃł ĠsÃłiĠ
ĠjÄ« ĠqÃ¬Ġ
niÃ¡nĠ dÃ¹
yÃŃ ĠmÃŃnĠ
biÃłnĠ wÃ¨iĠ
ĠbiÄģnĠ jiÃ¨
ĠzhÇĶĠyÃło ĠshÃ¬Ġ
ĠquÃ¨ ĠbÇİo
huÇĴ Ġ
6 1
f Ã¡Ġ
ĠdiÃłoĠchÃ¡ Ġ
Ġch ÇĴu
ĠyÃ³u ĠcÇĲ
fÄĵngĠ bÃło
shÃ¬Ġ yÄ«ĠzhÇĴngĠ
ĠjÃŃ ĠbÃ¬ngĠ
ĠjÃ¬Ġ de
ĠwÃ©iĠ rÃło
shÃłngĠ yÇĴu
202 5ĠniÃ¡nĠ
ĠkÄģiĠfÄģ Ġ
k uÃ¡ngĠ
ĠqÄ« ĠniÃ¡nĠ
ĠyÃł ĠmÄĽiĠnÃŃĠyÃł
ĠyÃº Ġ196
yÃŃ ĠcÃ¬ĠshÃ¬ĠjiÃ¨ĠdÃłĠzhÃłnĠ
ĠjÇĲ ĠyÇĶ
g uÄģ
n e
ĠdÅįu ĠhuÃ¬Ġ
pÇĶ ĠtÅįngĠ
ĠyÄ«nĠyuÃ¨ Ġ
g ÇĴngĠ
Ġl uÇİnĠ
ĠqÃ¬Ġ hÃ²u
ĠyÄ«nĠwÃ¨iĠ tÄģ
ĠĠ ĠshÇĲĠyÃ²ngĠ
Ġr Ã³u
ĠhÃ© ĠqÃŃĠtÄģ
ĠxiÄģngĠ hÃ¹
ĠkuÃ² ĠzhÇİnĠ
dÄģngĠ jÃº
ĠguÃ³ĠjiÄģ Ġde
ĠbÃ¹Ġ hÃ©
Ġk ÇĶ
yuÃ¡nĠ gÅįngĠ
ĠlÃ¡iĠ dÃło
diÃ© Ġ
Ġ Q
ĠyÄ«nĠ shÃ¬Ġ
chÅ« ĠyÇİnĠ
jÄ«nĠ shÇĶ
ĠbiÃłnĠ dÃ©
wÃ¡ngĠ chÃ¡o
Ġ198 7ĠniÃ¡nĠ
Ġn Ã¨nĠ
ĠxiÄģo ĠxÄ«
ĠjiÃłngĠ dÄ«
om p
ĠlÃºĠwÇİ ĠÄĽrĠshÄĽngĠ
ĠliÇİngĠ wÃ¨iĠ
9 3
ĠzhÃłngĠ ÃłiĠ
ĠĠ ĠmÃŃngĠ
ĠchÃ©ngĠ bÄĽnĠ
ĠnÃ¡nĠ yÇĲ
ĠduÅį ĠmÃŃngĠ
ĠliÃ¨ ĠwÃ¨iĠ
ĠchuÃłngĠ jiÃłnĠ
ĠjiÄģĠlÃ¬Ġ fÃº
6 3
ĠwÃ©iĠ sÄ«
zhÃłnĠ tÃ¡iĠ
ĠgÃ¨ ĠlÃ¨iĠ
yÃ¬Ġ qÇĲĠ
duÅį ĠlÃ¬ĠyÃł
ĠtuÃ¬Ġ yÃ¬Ġ
Ġ1 20
lÃ¨iĠ xÃŃngĠ
Ã¡o Ġ
ĠjiÄģnĠ rÃ¨nĠ
Ã¨r ĠzhÃłnĠ
wÃ©nĠ zhÄģngĠ
tiÄĽ ĠdÃło
zhÅįngĠ wÃ©nĠ
bÄĽnĠ shÄĵnĠ
biÇİo ĠdÃ¡
dÄģnĠ qÅ«
jiÄĽ ĠshÃ¬Ġ
zhÇİnĠ shÃ¬Ġ
Ġs Å«Ġ
Ġc Å«
Ġp Ä«nĠ
fÃłngĠ qÃ¬Ġ
yuÇİnĠ jÃ¬ngĠ
Ġw Ã¡
ĠzhÅįngĠ shÄģnĠ
ĠyÇĲ ĠwÃ©iĠ
ĠsÄģnĠ shÃ¬Ġ
ĠtiÄģnĠ rÃ¡nĠ
wÃº ĠrÃ©nĠ
xuÃ© ĠzhÄĽ
yÄ«ngĠ gÄģiĠ
Ġ8 ĠyuÃ¨Ġ
ĠwÃ² ĠÄĽr
ĠĠ ĠbÃ¨iĠ
ĠsÄ« ĠtuÅį
tÃ³ngĠ pÃ¡iĠ
dÄģngĠ zhÅįngĠ
bÄģ ĠxÄ«
ĠbiÄģnĠ jÃŃ
200 5ĠniÃ¡nĠ
Ġd ÇİnĠ
Ġg uÇĲĠ
Ġf Ãł
ch uÃłnĠ
ĠyÄ« ĠzhÄ«
ĠjÃŃ ĠlÃŃnĠ
qÃŃ ĠwÃ¨iĠ
g Çİo
s hÃ©ngĠ
ĠshÃŃ ĠbÄģ
yÃ²ngĠ zuÃ²
yÄ«ngĠ yÇĶ
ĠmÇİnĠ zÃº
lÃ¬Ġ shÇĲĠ
ĠsÄ« ĠmÇİ
shÃŃĠ Ã¨rĠniÃ¡nĠ
ĠwÃ¨iĠyÃº ĠzhÅįngĠguÃ³
ĠshÅįu ĠshÃ¬Ġ
ĠchuÃłngĠ zuÃ²Ġ
mÇĲĠ ÄĽr
ĠĠĠ200 6ĠniÃ¡nĠ
ĠdÃł ĠguÄ«ĠmÃ³
ĠxiÃło ĠyuÃ¡nĠ
ĠfÄĵngĠ bÃło
ĠzhÃ¨ĠyÃłngĠ de
Ġk uÄģngĠ
ĠzÃłiĠ xÄ«
zÃłiĠ wÃ¨iĠ
ĠjiÃło ĠwÃ©iĠ
ĠshÅįu ĠrÃ¹
ĠĠ ĠchÃºĠle
de ĠshÃŃĠjiÄģnĠ
huÃ² ĠshÃ¬Ġ
ĠjiÄģo Ġ
ĠjÄ«ĠdÅ« ĠjiÃło
l Ã¼Ã¨Ġ
Ġxi Ã¨ĠÄĽr
ĠyÃ³u ĠyÇĴngĠ
ĠzhÃłnĠ duÃ¬Ġ
lÃ¡iĠ dÃło
ĠgÃ¹ ĠdÃ¬ngĠ
fÄģĠxiÃłnĠ le
ĠzÃłiĠ xiÄģngĠgÇİngĠ
ĠzhÃ¨ ĠshÇĴu
jiÃłnĠ kÄģngĠ
ĠzhuÄģngĠ bÃ¨iĠ
lÄģ Ġ
1 0Ġ
shÃ¬Ġ zhÃ¨ngĠfÇĶ
Ġli Ã¹Ġ
biÇİo Ġ
liÃ¨ ĠrÃ¹
ĠbÇİo ĠcÃºnĠ
y ÇĲĠy
xiÃłnĠ deĠyÃŃĠgÃ¨
ĠxiÇİo ĠxuÃ©
Ġ hÃ¡o
ĠgÅįngĠyuÃ¡nĠ qiÃ¡nĠ
5 9
p Å«
ĠhuÃł ĠshÃŃ
xiÄģngĠ shÃ¬Ġ
ĠcÇĲ ĠzhÃłnĠ
ĠmÃ³ Ġ
ĠbÇİiĠ wÃłnĠ
xÃ¹nĠ sÃ¹
yÇĲĠ hÃ²uĠ
yÄĽ ĠbÃ¨iĠ
ĠbÇİo ĠshÇĴu
zhuÄģngĠ bÃ¨iĠ
Ġ12 ĠyuÃ¨Ġ
ĠzÃłiĠ xÄ«nĠ
zhÅįngĠ hÇİiĠ
ĠhÃ© ĠzuÃ²Ġ
ĠdÃł ĠfÃº
ĠguÄģnĠ zhÃ¬Ġ
lÃ¡iĠ shuÅįĠ
ĠcÇİiĠ fÇİngĠ
ĠhÄĵiĠ lÃ³ngĠjiÄģngĠ
Ġs ÃłngĠ
ĠĠ ĠrÃ¬Ġ
ĠgÅįngĠ zhÃ²ngĠ
ĠjiÄģ ĠzhÅįu
ĠshÃłngĠ shÅ«
ĠdÃłnĠ bÃ¹
ĠhuÃ¡ ĠrÃ©nĠ
ĠzhÇĲ ĠdÃ¬ngĠ
ĠjiÃ¹ ĠhuÃ¬Ġ
tiÄģnĠ wÃ©nĠ
xuÇİnĠ shÇĴu
ĠbÃ¬Ġ yÃ¨
ĠwÇİngĠ wÇİngĠ
ĠshÃ¬ĠyÄ« ĠzuÃ²
shÇĲĠy Ã¡nĠ
ĠĠ ĠhuÃ²
ĠyÇĶ ĠmÃ¡oĠqiÃº
ĠkÃ¨ ĠlÇĲĠsÄ«
jiÃło ĠshÃ²u
ĠrÃ³ngĠ yÃ¬Ġ
ĠmÃ¡o ĠzÃ©ĠdÅįngĠ
ĠdÇĴngĠ shÃ¬Ġ
zuÇĴĠyÃ²u Ġ
W indow
d ÇĶ
t iÇİoĠzhÃłnĠ
ĠgÃ¨ ĠzÃ¬Ġ
dÃł ĠdÃło
ĠzhÃŃ ĠjÃ¬ngĠ
ĠzhuÄģngĠ zhÃ¬Ġ
ĠhuÃŃ Ġ
zÄģiĠ pÃ©iĠ
ĠĠ Ġ1Ġ
rÃ©nĠ wÃ¹
kÃ¨ ĠsÄ«
tiÄģnĠ tÃ¡ngĠ
t Äģo
ĠĠ ĠgÃ¹ĠshÃ¬Ġ
ĠshÃ¬Ġ zhÅįngĠ
dÃ© ĠlÇĲ
ĠshÃŃĠ Ã¨rĠniÃ¡nĠ
dÅįu ĠhuÃ¬Ġ
ic eĠ
ĠchÃ¨ ĠxiÄģo
ĠĠĠI n
7 ĠyuÃ¨Ġ1ĠrÃ¬Ġ
Ġ1 ĠgÃ¨
zhÄ« ĠmÃŃngĠ
Ġ16 0
shÃ¬ĠjiÃ¨ ĠshÃłngĠ
ĠĠ ĠyuÃ¨
de ĠhÃ²u
ĠshÃ¬Ġ Ã©ĠluÃ³ĠsÄ«
ĠyÃ¬Ġ diÇİnĠ
yÇĴu ĠyÃŃĠgÃ¨
ĠyÇĶ ĠcÇĲ
ĠsÄ« ĠdÃ¬Ġ
ĠchuÃ¡nĠ shuÅį
ĠrÃłngĠ tÄģ
de ĠfÄģngĠshÃ¬Ġ
ĠshÃ¬Ġ lÃ¡ngĠ
dÃ¬Ġ qÄ«
ĠjÃ¹ ĠjÃŃ
wÇİngĠ lÃ¹
tÅįngĠ chÄĵĠ
5 00
ĠlÇľ ĠshÄ«
ti onĠ
kÃłnĠ dÃło
ĠĠ ĠyÃ³uĠxÃ¬Ġ
ĠsÄ« ĠtÃ¨Ġ
xÄ« ĠyÇĲnĠ
Ġ3 2
mÃ¹ ĠdÃ¬Ġ
shÃ©nĠ me
Ġ8 Ġ
ĠlÇĶ ĠshÃ¬Ġ
ĠtÅ« ĠrÃ¡nĠ
o y
ĠniÃ¡nĠ jiÄģnĠ
ĠtÄģ ĠyÇĲ
jiÄģngĠ sÅ«
Ġ15 8
i sĠ
zhÅįngĠ bÃ¨iĠ
ĠnÃ¡nĠ bÃ¹Ġ
ĠmÃ¹ ĠsÄ«ĠlÃŃnĠ
Ġ201 1
ĠzÃº ĠgÃ²u
Ġ195 6ĠniÃ¡nĠ
9 2
shÃ¨ ĠqÅ«
ĠtÅįngĠ xÃ¹nĠ
ĠkÅįngĠ zhÅįngĠ
ĠnÃ³ngĠ mÃŃnĠ
lÇļ ĠkÃ¨
ĠqÇĲngĠ qiÃº
r Çİo
xiÃłnĠ shÃŃ
ĠguÄģnĠ bÃ¬Ġ
Ġ197 8ĠniÃ¡nĠ
nuÃ² Ġ
fÄģnĠ yÃ¬Ġ
ĠtÇĲĠyÃ¹ ĠchÇİngĠ
ĠdÃ© ĠzhÄ«
ĠdiÃłnĠ lÃ¬Ġ
ĠyÃł ĠjÅ«nĠ
chÄĵ ĠchÇİngĠ
ĠmÃ² ĠsÄ«ĠkÄĵ
f Ã©nĠ
ĠzÇĴngĠ miÃłnĠjÄ«
ĠgÄĵ ĠshÇĴuĠ
hÃ¡nĠ shÃ¹
zÇĶ ĠjiÃłnĠ
bÃło ĠfÄģĠ
yÇĲnĠ qÃŃngĠ
cÇİiĠ qÇĶ
tÃ¡o ĠwÇİnĠ
ĠshÄĵngĠzhÇİngĠ yÃº
i de
ĠhÃ© ĠbÄĽiĠ
qÅ« ĠyÃ¹Ġ
ĠrÃ¨nĠ qÄ«
ĠyÄ«ngĠguÃ³ Ġ
ĠzÃºĠqiÃº ĠduÃ¬Ġ
ĠdÃłiĠ lÃ¡iĠ
ĠlÃ¬ngĠ rÃ©nĠ
ĠyÃ³uĠtÃłiĠ rÃ©nĠ
ĠtuÄ« ĠguÇİngĠ
huÇĴ ĠjiÃłnĠ
ĠzÃłiĠ19 7
pÃŃnĠ dÃło
ĠjiÄģ ĠmÃ©ngĠ
ĠguÄģnĠ diÇİnĠ
ĠshÇĴu ĠfÇĶ
ĠnÃ¨iĠ gÃ©
jiÇİnĠ dÄģnĠ
u Çİ
xiÃło ĠzhÇİngĠ
Ġ11 ĠyuÃ¨Ġ
c Ã¹nĠ
Ġc ÇİoĠ
ĠgÅįngĠ qÇĲngĠ
ĠcÃ¬Ġ shÇĲĠ
ĠfÃº ĠlÃ©iĠ
ĠliÇİngĠ zhÄĽ
tÇĲ ĠxÃ¬Ġ
ĠmÃ©ngĠ tÃ¨
Ġ17 9
ĠdÃłiĠbiÇİo ĠtuÃ¡nĠ
ĠliÃ¡nĠhÃ© ĠhuÃ¬Ġ
ĠshÄģnĠdÅįngĠ shÄĽngĠ
wÃ¨iĠ yÄ«
sÄ« ĠlÄģĠfÅ«
fÄĵnĠ lÃ¨iĠ
Ġch ÇĲĠ
kÃ¨ Ġde
kÅįngĠ jÅ«nĠ
ĠchÃº ĠcÇĲ
ĠlÇİngĠ pÇĶ
ĠzhÃ²ngĠyÃło Ġde
6 2
ĠĠ ĠnÃ¡nĠ
ĠyÇĴu ĠyÃŃĠgÃ¨
ĠzuÃ¬Ġ duÅį
yÃ¨ ĠwÃ¹Ġ
s hÃ©
ch Åįu
bÃ¬ngĠ fÄĵiĠ
ĠzhÅįngĠ xuÃ©Ġ
ĠfÄģ ĠqÇĲ
ĠmÃ² ĠÄĽr
ĠjiÄĽ ĠsÃłnĠ
dÃ© ĠzhÇĶĠ
chÃ¡ngĠ shÃ¬Ġ
a le
ĠxÃŃngĠ rÃ³ngĠ
ĠjÄ« ĠjÄ«nĠhuÃ¬Ġ
ĠtÃ³ngĠ mÃŃngĠ
ĠxÃ¬ngĠ nÃ©ngĠ
Ġ18 1
biÃłnĠ dÃ©
ĠqiÄģnĠ dÃ¬ngĠ
kÇİ ĠluÃ³
zh uÅį
shÃ¬Ġ wÄĵiĠ
ĠzhÃ¹ ĠmÃŃngĠde
ĠchÃ¹ ĠzhÇİngĠ
ĠsÃł ĠsÄ«
ĠI n
ĠzhÃłngĠ fÅ«
Ġde ĠfÄģngĠshÃ¬Ġ
ĠshÃ¬Ġ jÃŃ
shÃ¬Ġ mÃŃnĠ
ĠgÅįngĠ yÃ¬Ġ
ĠgÄģiĠ dÇİngĠ
ĠcÄģnĠ tÄ«ngĠ
ĠfÃ¹ĠjÃ¬nĠ de
3 00
5 7
8 7
Ġ1 1Ġ
zhÄ« ĠzhÃłnĠ
ĠjÇĲnĠ jÃŃ
yÇİnĠ chÅ«
ĠdÃ¬Ġ bÄģ
shÃŃ ĠniÃ¡nĠ
chÃ©ngĠ dÃ¹
ĠzhÃ¬Ġ dÃ¹
ĠbÄĽiĠ bÃ¹Ġ
fÃº ĠyÃ¬Ġ
ĠjÅ« ĠzhÃ¹
ĠyÃ¬Ġ siĠ
ĠgÃ¨ ĠguÃ³
ĠdÃ© ĠjÅ«nĠ
jÅ«nĠ guÄģnĠ
ĠjiÄĵ ĠchÃ¹
ĠwÄĵiĠ xiÇİnĠ
huÃ¡ngĠ jiÄģ
Ġ197 9ĠniÃ¡nĠ
5 ĠmÇĲĠ
Ġm Äģo
Ġ1 2Ġ
zhÃ¨ngĠ cÃ¨Ġ
ĠtÃ¨ ĠlÄģ
ĠzhÄ« ĠxiÃłnĠ
chÅ« ĠqÄ«
ĠĠ ĠjÇĲnĠguÇİnĠ
ĠgÅįngĠ yÃ¬ngĠ
ĠzuÃ² ĠqÇĶ
huÃł ĠxuÃ©
200 4ĠniÃ¡nĠ
ĠtuÄ« ĠjÃ¬nĠ
ĠI S
ĠyÅįu ĠshÃ¬Ġ
ĠyuÃ¡nĠzhÃ¹ ĠmÃŃnĠ
ĠyÄ« ĠjiÄģ
ĠzhÃ¨ ĠzuÃ²
ĠmÄĽiĠ rÃ¬Ġ
ĠzhÇĲ ĠkÃ²ngĠ
chÇİngĠ de
bÃ¬ngĠ rÃ¹
qiÄģnĠ mÇĲ
ĠguÇİngĠ xÄ«
Ġ15 7
6 9
s onĠ
ĠchÃ¡ngĠ dÃ¹
ĠchuÃ¡nĠ bÅį
ĠbÇİiĠ kÄĵ
ĠĠĠgÃłiĠ yÃłoĠ
ĠzhÃ¨ ĠxiÃłngĠ
sÄ« ĠkÃ¨
ĠbÄĽnĠ dÃ¬Ġ
ĠbÇĲ ĠdÃ©
ĠguÄ« ĠfÃłnĠ
jiÇİnĠ shÇİo
ĠliÃ¡o ĠnÃŃngĠ
xÇĲ ĠhuÄģnĠ
p p
ĠshÃ¬Ġ bÃ¹
dÃłiĠ lÃ¡iĠ
ĠzhÇĲ ĠdÇİo
ĠbÅį ĠsÄ«
ĠrÃº ĠjÄ«nĠ
ĠchuÃłngĠ shÇĲ
ĠxiÄģngĠguÄģnĠ de
ĠyÇĴuĠxiÃłnĠ gÅįngĠsÄ«
ĠĠ ĠchÅ«
ĠduÃ¬Ġ wÃłiĠ
ĠxiÄģo ĠfÃ¨iĠ
ĠlÇĲngĠ dÃ¬Ġ
ĠA l
quÄĵ ĠfÃ¡
ĠĠ ĠchÃ©nĠ
Ġb ÄĵnĠ
ĠshÃ¬Ġ tÃ¡iĠwÄģnĠ
ĠduÃ¬Ġ kÃłngĠ
ĠbÄĽnĠ tÇĶ
hÇİiĠ ÃłnĠ
ĠgÅįngĠ huÃ¬Ġ
ĠdÃł ĠduÅį
ĠxiÃł ĠjÃ¬Ġ
jÃ¬nĠ zhÇĲ
gÃ¨ ĠdÃ¬Ġ
ĠbÃło ĠfÄģ
oc k
wÃ¨iĠ shÄĵngĠ
ĠzhÅįngĠ yÇĴu
ĠjÄ«nĠ pÃ¡iĠ
jiÃło ĠyÃ¹Ġ
ĠguÄ« ĠzÃ©
rÃº ĠhÃ©
Ġ194 7ĠniÃ¡nĠ
C O
o k
shÃŃĠqÄ« Ġde
ĠjÃ¬ĠsuÃłnĠ jÄ«
Ġt uÇĴ
Ġp ÄĵngĠ
ĠxÃŃngĠ zhuÃłngĠ
ĠzhÃ¹ ĠzuÃ²
diÃłnĠ nÇİo
z Ġ
ĠfÃ¹ ĠgÃłiĠ
guÄģnĠ chÃ¡
huÃ² ĠzhÄĽ
cÃ¡iĠ zhÃ¨ngĠ
diÃłoĠchÃ¡ Ġ
ĠĠ ĠlÃ¬ngĠwÃłiĠ
Ġw ÃºĠ
ĠdÃło ĠyuÃłnĠ
ĠbÃ¨iĠ shÃ¬ĠwÃ¨iĠ
tÃŃ ĠshÄĵngĠ
fÃ¨nĠ zÇĲ
Ġxi Ã¡Ġ
ĠzÃłiĠ bÄĽiĠ
xiÃłngĠ de
ĠyÃ²u ĠyÃ¬Ġ
ĠbiÄģnĠ jÃ¬ngĠ
ĠtÃ¡ngĠ chÃ¡o
ĠzhÃłnĠ tÃ¡iĠ
ĠgÄģiĠ piÃłnĠ
ĠgÄĵ ĠlÃºnĠbÇĲĠyÃł
ĠqiÃ¡o ĠliÃ¡ngĠ
pÇĲnĠ pÃ¡iĠ
lÃ¹ ĠyÃ¬Ġ
ĠlÇĲngĠ tÇĶ
ĠkÅįngĠ qÃ¬Ġ
ĠlÇļ ĠkÃ¨
liÃ¨ĠchÄĵ Ġ
ĠshÃ¬Ġ bÄ«ngĠ
ĠyuÃ¡nĠ sÃ¹
xÃŃngĠ wÃ¨iĠ
ĠwÃ¡ngĠ shÃ¬Ġ
gÃ²u ĠchÃ©ngĠ
ĠhuÄģ ĠyuÃ¡nĠ
e ar
u mĠ
ĠĠ ĠbÄĽiĠ
ĠĠ ĠsÄģnĠ
ĠshÃ¬Ġ zhÃ¨ngĠ
ĠjÃ¹ ĠdÃł
ĠdÃ²ngĠ zuÃ²
19 0
fÃ¹ ĠshÅ«ĠjÃ¬Ġ
ĠnÃ³ngĠ cÅ«nĠ
xiÄĽ Ġ
yÃŃnĠ pÃ¡iĠ
a sĠĠĠ
Ġ ì
shÇĴu Ġde
ĠyÇİnĠ yÃ¬Ġ
Ġ16 2
tuÄ« ĠjÃ¬nĠ
i sĠĠĠ
bÃło ĠzhÃł
ĠmÇĲ Ġde
ĠsÃł Ġ
ĠbÃ¡iĠ sÃ¨
zhÇĶ ĠjuÃ©
ĠcÃ©ngĠ shÃ¬Ġ
ĠchÃ¡ngĠ jiÄģngĠ
mÃ¹ ĠbiÄģo
Ġ18 2
ĠtÃ¡nĠ pÃłnĠ
ĠshÃ¬ĠwÃ¨iĠ le
guÃ² Ġ
gÄģo ĠxiÃ³ngĠ
ĠqÃ¬Ġ de
qÅ« ĠyÃ¬ĠhuÃ¬Ġ
ĠyÄĽ Ġ
kÄĽ Ġ
on t
ĠlÄĽiĠ jÃ¬Ġ
ĠĠĠ hÃ³ngĠ
ĠshÃ¨ ĠyÃº
ĠĠ ĠliÃº
ĠzÃłiĠ yÃº
zhÃ¬Ġ dÃ¬ngĠ
ĠyÃ¹nĠ yÃ²ngĠ
Ġ9 ĠyuÃ¨Ġ
ĠyÃ¬nĠ nÃŃ
ĠdÄĵngĠ lÃ¹
ĠwÃ¨iĠ 2
ĠĠ ĠyÄ«nĠ
Ġq ÇĲĠyÃ¨Ġ
ĠshÃŃ ĠyÃ²ngĠ
Ġ19 ĠshÃ¬ĠjÃ¬Ġ
bÃ¨iĠ ÄĽr
ĠfÄĵnĠ pÃ¨iĠ
ĠkÇĴngĠ bÃ¹
Ġzh ÇĲĠyÃło
Ġp Ã©nĠ
ĠyÇĲ ĠwÃłiĠ
ĠshÃ¹ ĠjÃ¹Ġ
ĠqiÃº ĠjÃ¬Ġ
tÅįngĠguÃ² Ġ
ĠshÃŃ ĠhÃ²u
rÃ¨nĠ wÃ¹
en c
ĠxÃ¬nĠ hÃło
Ġ195 2ĠniÃ¡nĠ
ĠxiÃłnĠ shÃ¬Ġ
Ġ197 2ĠniÃ¡nĠ
b iÇİnĠ
ĠÃ©r ĠbÃ¨iĠ
cÃ¬Ġ yÃº
p iÃłoĠ
Ġb ÄĵngĠ
yÄĽ ĠhuÃ¬Ġ
ĠnÃŃ ĠhÄĵiĠ
ĠzhuÇİnĠ xiÃłngĠ
ĠzÄĵngĠ qiÃ¡ngĠ
ĠzhÃŃĠmÃŃnĠ dÃ¬Ġ
ĠfÄģ ĠdiÃłnĠ
mÄĽiĠ shÃ¹
ĠwÃ©nĠ wÃ¹ĠbÇİoĠhÃ¹ĠdÄģnĠwÃ¨iĠ
hÇİiĠ yÃ¹Ġ
ĠzhÃ²ngĠ duÅį
ĠyÇĲĠjÃŃ Ġ
yuÃłnĠ shÃ¬Ġ
Ġ195 5ĠniÃ¡nĠ
Ġde ĠyÃ¡nĠjiÅ«
hÃ¹ ĠxiÄģngĠ
hÃ²u ĠqÄ«
ĠtÃ³ngĠ zhÃ¬Ġ
ĠluÃ³ ĠfÅ«
shÄĵnĠ zhÃ¨nĠ
ĠfÃ¡ ĠlÃ¬ĠyÃł
qÇĲ ĠdÃ²ngĠ
8 6
dÃł ĠjiÇİngĠ
ĠĠ ĠwÃ©iĠ
de ĠdÃ¬ĠyÄ«
dÃł ĠshÃł
Ġ5 5
hÅ«nĠ yÄ«nĠ
shÃ¬Ġ yÇĲ
ĠyÄ« ĠchÃ¡ngĠ
ĠchÃ©ngĠ dÃ¹
huÃ¬Ġ zhÇİngĠ
ĠfÃ¹ ĠshÇĶ
ĠkÄģiĠ shÃ¨
chÇİnĠ yÃ¨
ĠtÇİ ĠnÃŃ
ĠÃ©rĠrÃ©nĠkÇĴuĠmÃ¬ĠdÃ¹ĠwÃ¨iĠmÄĽiĠpÃŃngĠfÄģngĠ qiÄģnĠmÇĲ
Ġsec tionĠĠĠ
tÃŃngĠ zhÇĲ
kÄĽĠnÃ©ngĠ huÃ¬Ġ
l Ã¨Ġ
ĠshÃ¬Ġ yÃ¬ĠdÃłĠlÃ¬Ġ
ĠdÃ¬Ġ zhÃ¬Ġ
ĠbÃ¹ ĠliÃ¨
ĠdÃł ĠbÇİnĠ
zhÃŃ Ġde
fÃ¹ ĠgÃłiĠ
zhÇĲ ĠnÃ©ngĠ
ĠS Ġ
ĠÃłnĠ zhÃło
ĠzÃłiĠ wÃ¨iĠ
ĠshÄĵngĠ cÃºnĠ
ĠshÃ¨ ĠdÃ¬ngĠ
shÃ¨ ĠjÃŃ
chÃ¡ngĠ de
ĠzÄ« ĠbÄĽnĠ
cÃ¨ Ġde
ĠxiÄģo ĠxÄ«Ġ
Ġ198 1ĠniÃ¡nĠ
ĠzhÃ¨ĠjiÄģngĠ shÄĽngĠ
Ġp Ã¹
ĠchÃ©ngĠ kÃ¨
bÃ¹ ĠzÃº
ĠcÇĲ ĠqiÃ¡nĠ
ĠshÃ©nĠ me
zhuÄģngĠ zhÃ¬Ġ
ĠtÅįngĠguÃ² Ġ
ĠdeĠyÃŃĠgÃ¨ ĠshÃ¬ĠzhÃ¨nĠ
deĠxiÇİo ĠxÃŃngĠxÄ«ngĠ
hÅįngĠ zhÃł
Ġ20 Ġ
shuÃłiĠ lÇĲngĠ
ÃłiĠ qÃŃngĠ
shÃ¬Ġ yÇĴu
ĠyÃ¹ ĠshÇĲĠ
jÇĲ ĠyÇĶ
tuÄ« ĠdÃ²ngĠ
8 2
Ġl ÇĴngĠ
ĠkÃ¨ ĠlÃ¬Ġ
jiÄĵ ĠjÃŃ
Ġ Ï
dÃł ĠguÄ«ĠmÃ³
ĠshÇĴu ĠgÃ¨
ĠwÇİngĠ qiÃº
tÃ¡nĠ pÃłnĠ
sÄ« ĠdÃ¹nĠ
zhÃłnĠ tÃŃngĠ
ĠkÄģiĠ zhÇİnĠ
ĠdÃ¡ ĠÄĽr
ĠgÇĶ ĠlÃ¬Ġ
Ġ7 ĠyuÃ¨Ġ
ĠÃ¨r ĠshÃ¬Ġ
ĠfÃ¹Ġ hÃłnĠ
shuÄģngĠ fÄģngĠ
ruÃ¬Ġ shÃ¬Ġ
gÃłiĠ niÃłnĠ
ĠpÃ©iĠ xÃ¹nĠ
ĠĠĠgÄĵnĠjÃ¹Ġ 2020ĠniÃ¡nĠmÄĽiĠguÃ³ĠrÃ©nĠkÇĴuĠpÇĶĠchÃ¡ĠdeĠshÃ¹ĠjÃ¹Ġ
ĠyÇĶ ĠzhÅįngĠ
Ġ20 20
fÄĵiĠ zhÅįu
Ġ7 5
z Ã²ngĠ
â Ĩ
Ġ hÃ¡ngĠkÅįngĠ
ĠĠ ĠquÃ¡nĠ
ĠzhÃ¬Ġ chÃ©ngĠ
ĠzÃ© ĠwÃ¨iĠ
ĠlÇĲngĠ yÃ¹Ġ
Ġ000 ĠrÃ©nĠ
zhÄ«ĠchÃŃ Ġ
ĠĠ ĠjÄ«nĠ
ĠduÅį Ġde
guÄģnĠ fÃ¨iĠyÃ¡nĠ
ĠchÇİngĠ jÇĲngĠ
jiÇĶ ĠdiÃłnĠ
Ġ193 7ĠniÃ¡nĠ
ĠxÃŃngĠ rÃ©nĠ
hÃ¡ngĠ bÄģnĠ
ĠyÃ³u ĠjÄ«
ÃłiĠ lÃ¬Ġ
ĠlÃ¡iĠ nÃł
huÃ² Ġ
ĠmiÃ¡o ĠshÃ¹Ġ
Ġde ĠdÃ¬ĠyÄ«
dÃ²ngĠ lÃ¬Ġ
liÃ¡nĠ hÃ©ĠguÃ³
ĠtÃº ĠzhÅįngĠ
wÄĵiĠ liÃ¡nĠ
ĠĠ ĠdÃło
yÃŃ ĠdÃło
ĠgÃ© ĠlÃ©iĠ
shÅ« ĠrÃ¹
ĠjiÃ¨ ĠshÃło
gÇĶ ĠfÃ¨nĠ
ĠfÃ¡ngĠ zhÇĲ
qÇĶ ĠxiÄģo
ĠĠĠ200 5ĠniÃ¡nĠ
ĠjiÄģ ĠlÃ¬ĠyÃł
Ã¨r Ġ
ĠxiÄģngĠ zhÃ¨nĠ
ĠzhÃ¹ ĠcÃ¨
qiÃº ĠhuÃ¬Ġ
ĠbÃ¬Ġ yÃło
ĠqÇĲ ĠyÃ¬Ġ
suÃŃ ĠzhÃ¹
oo k
Ġde ĠzhÃ²ngĠyÃło
chÃ©ngĠ xÃ¹
ĠduÃ¬Ġ cÇĲ
ĠdÃłiĠ wÃ©iĠ
Ġ3 3
ĠĠĠ 0
jiÄģ ĠmÃ©ngĠ
ĠshÃłngĠ shÅ«Ġ
xiÃł ĠlÃ¬ngĠ
bÇİo ĠcÃºnĠ
ĠyÄĽ ĠbÃ¹
tuÃ¡nĠ tÇĲĠ
8 9
a yĠ
de ĠyÃ¡nĠ
ĠhÃ© ĠdÃło
lÃ¬Ġ yÃł
ĠjÄ« ĠzhÃ¬Ġ
shÃŃ ĠduÃłnĠ
Ġ3 9
ĠkÄĽĠyÇĲ ĠzÃłiĠ
ni Ã¡ngĠ
ĠgÄĽiĠ le
de ĠzhÃ²ngĠyÃło
gÅįngĠ rÃ©nĠ
jÅ«nĠ wÃ¨iĠ
ĠqÃŃngĠ bÃło
ĠÃło ĠdÃ¬ĠlÃ¬Ġ
zÃłiĠ cÇĲ
jÃ¬Ġ shÃ¹Ġ
xÄ« ĠfÄģngĠ
mÇİ ĠlÃ¬Ġ
hÃ¡nĠ yÇĴu
qÇĲ ĠyÃ¬Ġ
ĠsuÃ¬Ġ dÃło
zhÃ¬Ġ zuÃ²Ġ
nÃ¡nĠ bÄĽiĠ
kÄģiĠ shÃ¨
ĠchÃŃ Ġ
zhÃ¨ngĠfÇĶ Ġde
dÅ« ĠshÃ¬Ġ
ĠgÄĵngĠ xÄ«nĠ
Ġhan tĠ
zhÃ¬Ġ dÃ¹
ĠyÇĶ ĠhÃ©
Ġde ĠzuÃ²ĠpÇĲnĠ
shÃŃ ĠyÄ«
zÃłiĠ rÃ¬ĠbÄĽnĠ
jÄ« ĠjÃŃ
ĠzuÃ² ĠjiÄģĠ
ĠgÄģiĠ gÅįngĠsÄ«
shÇĲ ĠjiÃłnĠyÃº
ĠguÃ² ĠdÃ¹
Ġ3 ĠgÃ¨
Ġ197 6ĠniÃ¡nĠ
tuÄ« ĠchÅ«Ġ
ĠcuÃ² Ġ
de ĠgÄģo
ĠyÇĲ ĠyÇĴu
ĠwÃ©iĠ ÄĽrĠ
mÃ¹ ĠbiÄģoĠ
xÃ¬nĠ xÄ«
Ġ16 4
ĠliÇİo ĠjiÄĽ
o de
bÃ¹ ĠdÃ©
ĠduÃ¬Ġ zhÇİngĠ
ĠchÅ« ĠyÇİnĠ
ĠjÃ¬nĠ niÃ¡nĠ
ĠlÃ¨ ĠsÄ«ĠtÇİnĠ
Ġ193 8ĠniÃ¡nĠ
ĠhÅ«nĠ yÄ«nĠ
guÃ²ĠchÃ©ngĠ zhÅįngĠ
ĠhÃ²u ĠbÃ¨iĠ
zhÃŃ ĠmÃŃnĠ
ĠguÇİnĠ xiÃ¡
ĠhÄĵiĠ sÃ¨
sÄĵnĠ lÃŃnĠ
ĠxÄ« ĠbÃ¹Ġ
ĠdÅįngĠ jÃ¬Ġ
juÃ© ĠsÃ¨Ġ
ĠxiÄģnĠ shÄĵngĠ
Ġ15 6
i b
yÃ¬Ġ yÇĴu
ĠÄĽr ĠsÄ«Ġ
zhÃ¹ ĠzhÃ¡iĠ
jÄ«nĠ rÃ³ngĠ
wÇĶ ĠtÃ¡iĠ
jiÄĽ ĠsÃłnĠ
ĠzÃłiĠ19 6
e tĠ
ĠzhÄ« ĠziĠ
ĠjiÃ© ĠshÃ¹Ġ
pÃŃngĠ wÃ¨iĠ
ĠJ R
dÃ¬Ġ 2
hÃ³ngĠ jÅ«nĠ
bÃłnĠ gÅįngĠ
ĠpÃ² ĠlÃºnĠ
zÃłiĠ yÄ«
ĠzuÃ¬Ġ jÃ¬nĠ
ĠbÅį ĠlÃŃ
ĠrÃ³ngĠ nÃł
hÃ¹ ĠdÃ²ngĠ
zhÃ¬Ġ 199
fÄģ ĠchÅ«
ruÃ² Ġ
o li
ĠshÃ¬Ġ dÃ¹nĠ
ĠjÃŃ ĠshÃŃ
ĠyÇĴu ĠsuÇĴ
lÃ¬Ġ shÇĶĠyÃº
duÃ¬Ġ wÃłiĠ
ĠfÄģ ĠmÃŃngĠ
ĠxiÃłngĠ de
Ġ3 4
ĠluÃ² ĠkÃ¨
ĠtÃ³ngĠshÃŃ ĠyÄĽĠshÃ¬Ġ
dÃłnĠ bÃ¡iĠ
kÃłngĠ yÃ¬Ġ
de ĠnÇļ
ĠyÃº Ġ202
ĠdÃłnĠ rÃ©ngĠ
ĠjiÄĵ ĠshÅįu
Ġ195 4ĠniÃ¡nĠ
ĠzhÅįngĠguÃ³ĠdÃłĠlÃ¹ Ġde
dÃ²ngĠ huÃłĠ
zhuÃłngĠ bÃ¬ngĠdÃº
Ġde ĠzhÅįngĠ
dÃ¬Ġ zhÃ¨nĠ
zÇĶ ĠhÃ©
shÅ« ĠyuÃłnĠ
Ġk uÃ¬Ġ
ĠgÃ¨ ĠgÃ¨
ĠzhÄ« ĠchÄĵngĠ
ĠxÄ« ĠlÇĲ
eĠĠĠ C
ĠxiÃ© ĠtiÃ¡o
en tĠ
Ġn Ä«
tÃ¡iĠ nÃ¡nĠ
lÇĲngĠ shÃ¬Ġ
Ġ194 1ĠniÃ¡nĠ
li ÇĶ
ĠsuÇĴ ĠzÃłiĠdÃ¬Ġ
tÄģ ĠwÃ¨iĠ
dÇİo ĠdÃłnĠ
ĠÄģnĠ zhuÄģngĠ
ĠlÄģ ĠtÃ¨
jiÄģngĠ huÃ¬Ġ
zhÇĲ ĠkÃ²ngĠ
dÇİo ĠshÃ¬Ġ
cÄģnĠ xuÇİnĠ
zhuÄģngĠ jiÇİ
ĠnÃŃĠyÃł Ġ
ĠwÃ¨iĠ shÃ¬Ġ
bÃ¹ ĠmÇİnĠ
jiÃ© ĠguÇĴ
ĠbÃło ĠdÇİo
ĠchÃº Ġ
ĠxÃ¬nĠ xÄ«Ġ
chuÃłngĠ zÃło
Ġ1 000
wÃ©nĠ huÃłĠ
Ġ194 4ĠniÃ¡nĠ
gÃ¹ ĠwÃ¨nĠ
Ġ nĠ
ĠzhÃ¨ ĠyÄĽĠshÃ¬Ġ
qÃ¬Ġ hÃ²u
ĠjiÃł ĠshÇĲ
ĠpÃłiĠ qiÇİnĠ
ĠtiÄĽĠlÃ¹ ĠchÄĵĠzhÃłnĠ
ĠdÅįngĠbÄĽiĠ bÃ¹
3 0ĠniÃ¡nĠ
n Ã¨
t ÇĶĠÄĽrĠqÃŃ
ĠĠ ĠgÇĶ
ĠĠ ĠjÄ«ngĠjÃ¬Ġ
guÃ³ ĠjiÄģĠ
ĠhÃ© ĠmÇİ
ĠyÃ²ngĠ zuÃ²
ĠliÃ¨ Ġde
wÃ¡nĠ gÅįngĠ
xiÄģnĠ shÄĵngĠ
yÇĲnĠ zhÇĴngĠ
yÃºnĠ nÃ¡nĠ
8 1
yuÃ¡nĠ shÃ¬Ġ
zhÄ« Ġde
ĠfÃº ĠlÇĲ
ĠqiÄģnĠ shÇĶ
quÃ¨ Ġ
ĠdÄĵngĠ shÃłngĠ
lÇļ ĠyÃ³u
ĠjÃŃ ĠÄĽr
dÄģngĠ niÃ¡nĠ
Ġni Ã¡ngĠ
shÃ¨ĠhuÃ¬Ġ zhÇĶĠyÃ¬Ġ
ĠyÇĲĠxiÃł ĠdÃ¬ĠqÅ«Ġ
ĠxiÄģngĠdÄģngĠ yÃº
yÃº ĠlÃ¨
ĠyÃ³u ĠxÃŃngĠ
ĠyuÃ¡nĠ gÅįngĠ
jÄ« ĠxiÃ¨
shÇĴu ĠdÅ«
fÃłnĠ zuÃ¬Ġ
zÄĵngĠ jiÄģĠ
7 1
20 19
ĠjÃŃ ĠdÃł
ĠguÄģnĠ zhÃ¹
ĠbÄĽnĠ rÃ©nĠ
zhÄĵngĠ yÃ¬Ġ
ĠfÄģĠxiÃłnĠ le
ĠjÄ« ĠsÄ«ĠtÇİnĠ
ĠyÃło Ġ
ĠtuÃ¡nĠ tÇĲĠ
nÃł ĠshÄĽngĠ
chÃ³ngĠ qÃ¬ngĠ
ĠlÇļ Ġ
Ġ196 0ĠniÃ¡nĠ
y p
de ĠzhÃ¨ngĠ
ĠdÃłnĠ zhÃ¨
ĠzuÃ¬Ġ hÃ²uĠ
kÃ¨ ĠyÃ¹nĠ
ĠmiÇİo Ġ
m er
zuÃ² ĠjiÄģ
ĠtÃ¨ ĠxÃ¬ngĠ
ĠmÃ¬Ġ shÅ«ĠzhÇİngĠ
ĠniÃ¡nĠ12ĠyuÃ¨Ġ 31ĠrÃ¬Ġ
zhuÃłnĠ deĠxiÇİoĠxÃŃngĠxÄ«ngĠ
ĠshÃ¬Ġ hÃ²u
xÄ«nĠ zÄĵngĠ
bÃ¨iĠ rÃ¨nĠwÃ©iĠshÃ¬Ġ
ĠqiÃ¡nĠ tÇĲngĠ
ĠzÇĶ ĠchÃ©ngĠde
ĠtÃ¬Ġ dÃłiĠ
ĠlÃ¹ĠyÇĲngĠ dÃłiĠ
diÃłnĠ qÃ¬Ġ
chuÃ¡nĠ mÃ©iĠ
eĠĠĠ S
jiÇĶ ĠlÃ³ngĠ
yÄ« ĠsÄ«ĠlÃ¡nĠ
Ġq iÄģo
ĠbÃ¹ ĠlÇĲ
ĠxiÃłnĠ yÇĲ
jÃŃ ĠshÃŃ
diÃłnĠshÃ¬Ġ jÃ¹Ġ
ĠmÃ¨iĠ mÃ¨iĠ
gÅįngĠ ÄģnĠ
xuÃ© ĠshÃ¹
bÅį ĠchÅ«
ĠgÄĵnĠ suÃŃ
ĠsuÇĴĠyÇĴu Ġde
e dĠ
t uÇĴ
Ġs hÃłoĠ
ĠĠĠ v
ĠdÃ¬Ġ 3
ĠyÄ« ĠzhÅįu
ĠhuÃ¬Ġ shÃłngĠ
ĠzhÇĶ ĠbÃłnĠ
zhÇĶ ĠzhÄģngĠ
ĠzÄ« ĠgÃ©Ġ
tÃº ĠzhÅįngĠ
ĠxÃºnĠ zhÇİo
ĠT h
Ġf Ã¡Ġ
ĠbÃ¹ ĠdÃŃ
ĠzhÅįu ĠzhÇİngĠ
ĠjÃ¬ngĠ xuÇİnĠ
chÅįngĠ tÅ«Ġ
ĠdÃł ĠlÃ³u
jÄ« ĠzhÃ¬Ġ
chÅ« ĠqÄ«Ġ
ĠjÇĲnĠ yÇĴu
ĠhÇİnĠ mÃ²
ĠkÃ¹nĠ nÃ¡nĠ
ĠyÇĲ ĠnÃ¡nĠ
ĠgÃ© ĠlÃŃnĠ
ĠgÃ¨ngĠ wÃ©iĠ
Ġ193 9ĠniÃ¡nĠ
t u
ĠwÃ¨iĠ yÇĴu
ĠbÃ¬ngĠ rÃ¹
ĠsÄģnĠ mÃŃngĠ
ĠshÃ²u ĠyÇĶ
tÃŃ ĠchÅ«Ġ
ĠwÃłnĠ pÃŃngĠfÄģngĠ
ĠcÃ¡iĠ chÇİnĠ
ĠxÅ« ĠqiÃº
mÃ¬ngĠ lÃ¬ngĠ
ĠzÃłiĠ nÃ¡nĠ
lÃ¬Ġ jÃŃ
chÅ« ĠxÃŃ
ĠjuÃ© ĠyÃ¬Ġ
ĠxiÄģo ĠliÃłngĠ
ĠxiÅ« ĠjiÃłnĠ
ĠdÇİ ĠsuÃłnĠ
Ġ196 8ĠniÃ¡nĠ
p Ã¬nĠ
ĠĠ ĠpÃŃngĠjiÃłĠ
jÃŃ ĠzhÅįuĠde
ĠbÄģ ĠlÄģ
jiÃ© ĠdÃ¹
ĠchÅįngĠ tÅ«Ġ
deĠpÃŃngĠjÅ«nĠ hÇİiĠbÃ¡ĠgÄģoĠdÃ¹
Ġl Ã©ngĠ
ĠwÃ¨iĠ qÃŃ
ĠchÇİnĠshÄĵngĠ de
lÃ¡o ĠdÃ²ngĠ
a ch
q uÇİnĠ
Ġr Ã¨Ġ
ÄģiĠ ÄĽr
ĠzhÃ¨ ĠchÇİngĠ
liÃ¡nĠ xÃ¬Ġ
ĠzhÅįngĠguÃ³ Ġde
ĠcÄģnĠ mÃ³u
shÃ²u ĠhuÄģnĠyÃŃngĠ
Ġ15 9
ĠÃ©rĠgÄģiĠdÃ¬Ġ deĠpÃŃngĠjÅ«nĠhÇİiĠbÃ¡ĠgÄģoĠdÃ¹
L E
ĠĠ ĠxiÄģngĠ
ĠdÃłiĠ lÇĲ
ĠkÄĽ ĠshÃ¬Ġ
ĠzhÇĶĠchÃŃ ĠrÃ©nĠ
de ĠpÃŃngĠ
ĠxiÃłnĠ rÃ©nĠ
ĠluÃ³ ĠdÃ©
Ġ5 ĠyuÃ¨Ġ
pÃłiĠ qiÇİnĠ
ĠĠĠT h
2010ĠniÃ¡nĠ mÄĽiĠguÃ³ĠrÃ©nĠkÇĴuĠpÇĶĠchÃ¡ĠdeĠshÃ¹ĠjÃ¹Ġ
ĠrÃ©nĠgÅįngĠ yÇĲnĠzhÇĴngĠ
n uÇİnĠ
Ġp ÃŃĠ
ĠyÄ« ĠbÃ¹
chÃ¡ngĠ jiÃłnĠ
miÃłnĠ duÃ¬Ġ
eĠĠĠ M
shÄĵngĠ chÄĵngĠ
ĠqÄ«ngĠ huÃ¡
Ġ4 00
Ġ197 0ĠniÃ¡nĠ
ĠhÃº Ġ
ĠgÅįngĠsÄ« Ġde
ĠrÃ©nĠgÅįngĠyÇĲnĠzhÇĴngĠ zÄģiĠpÃ©iĠ
Ġs Çİo
yÃ¬Ġ shÃŃ
ĠshÄĵngĠ de
bÃ¨iĠ pÃ²
ĠliÃº ĠxiÃł
ĠshÄĵnĠ dÃ¹
zÃ© ĠrÃ¨nĠ
Ġ6 ĠyuÃ¨Ġ
ĠfÃºĠjiÃłnĠ shÄĽngĠ
fÇİĠlÃ¡nĠ xÄ«
ĠgÅįngĠ juÃ©
ĠjiÄģo ĠchÄģ
Ġ194 0ĠniÃ¡nĠ
dÄĵngĠ lÃ¹
o st
ĠrÃ©nĠ cÃ¬Ġ
zhÃ¬Ġ dÃ¹Ġ
ĠdÃł ĠzhÃ²ngĠ
ĠyuÃ¡nĠ lÃ¡iĠ
qiÃº ĠjÃ¬Ġ
ĠsÅ« ĠdÄģnĠ
dÄĵngĠ shÃłngĠ
qÄ«nĠ wÃ¡ngĠ
ĠĠ ĠdÅįngĠ
ĠzÃłiĠ tÃ¡iĠwÄģnĠ
ĠbÃ¹ ĠsÄ«
xiÃłnĠ jÄ«nĠ
Ã¨r ĠrÃ©nĠ
ĠjÅ«nĠ zhÇĶ
ĠnÃ©ngĠ yuÃ¡nĠ
ĠshÄģnĠ xÄ«
zhÇĲ ĠchÅ«
Ġ6 4
ĠxÃŃngĠzhÃ¨ngĠ zhÅįngĠxÄ«nĠ
yÇĲnĠ rÃ¹
Ġ196 4ĠniÃ¡nĠ
ĠfÃłnĠwÃ©iĠ nÃ¨iĠ
A O
e am
Ġj Å«Ġ
ÃłiĠ dÃ©
jÄ« ĠchÇĶĠ
ĠduÅį ĠÄĽr
xiÃł ĠjiÃłngĠ
shÄģnĠ mÃłiĠ
zÄ« ĠxÃ¹nĠ
a ngĠ
j uÃłnĠ
dÃ¬Ġ diÇİnĠ
wÃ¹ ĠyuÃ¡nĠ
ĠgÄĵ ĠÄĽr
qiÄģnĠ zhÃ¬Ġ
ĠshÄģngĠ pÇĲnĠ
ĠbÃº ĠdÃło
yÇĲ ĠsÃ¨ĠliÃ¨
duÅį ĠniÃ¡nĠ
8 4
wÃ©iĠ zhÇĲĠ
duÃ¬Ġ zhÇİngĠ
shÃłngĠ wÇĶĠ
ĠjÃ¬nĠ bÃ¹
ĠdÄģnĠ nÃŃ
xuÄģnĠ bÃ¹Ġ
jÇĶĠxÃŃngĠ de
x Å«Ġ
ĠyÄ« ĠzhÃ¬Ġ
ĠzhÃŃ ĠzhÃ¨ngĠ
xuÃ© ĠhuÃ¬Ġ
ĠmÃ¬ngĠ mÃŃngĠwÃ¨iĠ
ĠchÃºĠcÇĲ ĠzhÄ«ĠwÃłiĠ
ĠzhÃŃ ĠlÃ¬Ġ
hÄĽnĠ kuÃłiĠ
xÅ«nĠ zhÄģngĠ
p ÄĵnĠ
ĠrÃ©nĠ shÃ¹
yÃº ĠshÃ¬Ġ
ĠyÃ¬Ġ rÃ¬Ġ
ĠdÃłnĠ yÄĽ
mÄĽiĠ gÃ¨
chÃ¡ngĠ jiÃłnĠde
Ġ4 ĠgÃ¨
ĠkÇİ ĠlÄģ
ĠxÃ¬ĠtÇĴngĠ de
ĠlÃ¬Ġ chÇİngĠ
shÃŃ ĠzhÄĵnĠ
ĠyÄ« ĠqiÃ¨
yÇĴu ĠshÃŃ
ĠzÃ¬Ġ wÇĴ
yÇĲ ĠyÇĴu
ĠhuÃ² ĠyÃ¹nĠ
wÃ©nĠ zÃ¬Ġ
bÇİo ĠzhÃłngĠ
ĠÃło ĠsÄ«
ĠhÃłnĠ zÃºĠ
liÃ¹ ĠniÃ¡nĠ
y uÄģnĠ
ĠyÄ«nĠ qÃŃ
zhÃŃ ĠdÃło
ĠyÄ«ngĠ cÃ¹nĠ
ĠrÃº ĠxiÃłĠ
ĠshÃ¬ĠyÄ« ĠbÃ¹
ĠshÅįu ĠcÃ¡ngĠ
ĠjÃ¬ngĠnÃ¨iĠ gÃ²ngĠyÇĴu
ĠĠ ĠlÄģ
de ĠyÃŃ
jiÄģnĠ rÃ¨nĠ
ĠshuÅį ĠfÇİ
xiÃło ĠlÃ¬ĠyÃº
liÇİngĠ rÃ©nĠ
ĠfÃ¹ĠzÃ© Ġ
ĠĠ ĠgÃ¨
Ġde ĠbÃ¹
hÃ²u ĠzÃłiĠ
duÃ¬Ġ shÇĴu
ĠjiÄĵ ĠtÃ¬Ġ
ĠzhuÄģnĠ jiÄģ
zÇİo ĠshÃłngĠ
dÃł ĠliÃ¡nĠmÃ©ngĠ
ĠzuÃ¬Ġ dÄ«
chÃ¡ngĠ wÃ¹
chÄģo ĠjÃŃ
ĠmiÇİnĠ fÃ¨iĠ
zhÃłngĠ ÃłiĠ
ĠĠĠf or
n eĠ
de ĠlÇĲ
ĠwÃ¨iĠ zÃłiĠ
ĠdÃło ĠdÃ©
ĠshÃ¨ ĠqÅ«Ġ
ĠqÃºnĠ dÇİoĠ
wÇĶĠ hÃłnĠ
ĠshÃ¬Ġ xÄ«ĠbÄģnĠyÃ¡
ĠfÃ¹ ĠzÃ¡
ĠduÅį ĠrÃ©nĠ
chÃ¡ngĠ wÄĽiĠ
ĠcÃ³ngĠ cÇĲ
â Ī
ĠmÇİ ĠlÃ¡iĠ
Ġ6 5
Ġ197 5ĠniÃ¡nĠ
Ġde ĠgÄģo
shÃłngĠ zhÃ¨nĠ
ĠfÃº ĠÄĽr
pÃŃngĠ mÃŃnĠ
ĠwÃ¨iĠyÃºĠgÄģiĠ shÄĽngĠ
ĠzÃº ĠqÃºnĠ
xiÅ« ĠgÇİiĠ
Ġ hÃ³u
ĠshÃ¬Ġ yÃłnĠ
ĠtÅįngĠ xÃ¬nĠ
wÇĶ ĠshÃŃ
wÃ¡ngĠ guÃ³
wÃº ĠÄĽr
el Ġ
ĠĠ ĠgÄģo
Ġzh ÇİiĠ
ĠdÃł ĠqÅ«Ġ
xuÃ© ĠjiÄģĠ
ÄĽr Ġde
ĠsÄ« ĠzhÃŃ
ĠyuÃ¡nĠ xiÄģnĠ
zhÄ« ĠdÃło
ĠnÃł ĠcuÃ¬Ġ
ĠbÃło ĠlÃ¬Ġ
yÇİnĠchÃłngĠ huÃ¬Ġ
zÃłiĠ yÃº
zÃłiĠ dÃ¬Ġ
ĠduÃ¬Ġ shÇĴu
ĠchÅ« ĠqÄ«
ĠxiÃ© Ġ
Ġ195 9ĠniÃ¡nĠ
jiÃłngĠ lÇĲngĠ
YouTub e
n Ä«Ġ
s ÄĵngĠ
Ġy uÄģnĠ
ĠzÃłiĠ shÃ¬Ġ
ĠzÃłiĠ tÄģĠde
ĠwÃ©iĠ hÃ¹
ĠsuÇĴ ĠchÃ¹ĠdeĠhÇİiĠbÃ¡ĠwÃ¨iĠgÄģoĠyÃºĠhÇİiĠpÃŃngĠmiÃłnĠ
ĠtÃ¨ ĠlÇĲ
ĠfÃº ĠzhÅįu
jÃ¹ Ġde
cÄģnĠ yÃ¹Ġ
ĠxiÇİnĠ zhÃ¹
ĠwÇİnĠ shÃłngĠ
yÇĴu ĠrÃ©nĠ
ĠjÄ« ĠjÄ«nĠ
ĠdÄģngĠ rÃ¬Ġ
Ġqi Ã¨ĠÄĽr
Ġ3 1
yÃŃngĠ yÃ¹nĠ
ĠzhuÇİnĠ huÃłnĠ
ĠdÇĲ ĠkÃłngĠ
ĠshÃŃĠyÃłnĠ shÃ¬Ġ
ĠĠ ĠqÃŃĠzhÅįngĠ
jÃ¹ ĠjÃŃ
jÃ¹ ĠqÃŃngĠ
Ġ4 6
ĠshÃ©nĠ huÃł
ĠqÇĲ ĠdÃ²ngĠ
mÇĶ ĠqÄ«nĠ
ĠwÄĵnĠ dÃ¹
ĠyÇĴuĠxiÃłnĠ gÅįngĠsÄ«Ġ
ĠshuÃ² ĠshÃ¬Ġ
l iÇİo
hÃłnĠ zÃ¬Ġ
ĠlÃ¬Ġ bÃ¹
zÃłiĠ qÃŃ
bÃ¨iĠ shÃ¬ĠwÃ¨iĠ
ĠÄģ ĠlÄģ
ĠdÄģngĠdÃ¬Ġ de
cÄģnĠjiÄģ Ġle
Ġq Ãº
Ġde ĠfÄģĠzhÇİnĠ
zhÅįngĠ qÄ«
jÃŃ ĠshÃ¬Ġ
Ġ4 8
ĠfÃ¡ngĠ wÅ«
jiÇİnĠ cÃ¨
i o
r u
ĠdeĠ Äģ
ĠzhÃ²ngĠ liÃłngĠ
ĠyÇĲnĠ yÃ²ngĠ
ĠhuÇĴ ĠjiÃłnĠ
s Äģ
ĠqÃŃ ĠshÃŃ
dÃł ĠlÃ¹
xiÃłnĠ fÇİ
ĠtÃŃĠgÅįngĠ le
ĠbÇĲĠlÃ¬Ġ shÃŃ
k Ã©
k uÄģngĠ
ĠxiÃł ĠdeĠyÃŃĠgÃ¨
jiÄģo ĠliÃº
ĠzhÅįngĠshÃ¬Ġ yÇİnĠ
ĠshÃŃ ĠyÃ³u
yuÃ¡nĠ zÃ¬Ġ
ĠsÄ« ĠlÃ¬Ġ
ĠrÃ¨nĠ zhÅįngĠgÃ²ngĠ
ĠnÃŃ ĠkÃ¨
zÇĶ ĠchÃ©ngĠde
tÃ¨ ĠshÅ«
gÃ¨ngĠ jiÄģ
huÄģ ĠyuÃ¡nĠ
shÇİo ĠshÃ¹
bÃ¹Ġde ĠcÅ«nĠzhuÄģngĠ
ĠkÄĵĠ hÃ©ngĠxÄ«ngĠ
ĠluÃ²ĠfÃ¡ ĠkÃ¨
de ĠdiÃłnĠyÇĲngĠ
gÅįngĠ jÄ«Ġ
yÇĶ ĠqÃŃĠtÄģ
ĠkÄĽ Ġ
ĠwÃ©nĠ yÃ¬Ġ
ĠbiÄģnĠ yuÃ¡nĠ
ĠhÃ¡iĠ ziĠ
ĠguÃ³ĠmÃŃnĠ zhÃ¨ngĠfÇĶ
Ġde ĠyÃ¡nĠ
hÃ¡ngĠ xiÃłnĠ
ĠmÄĽiĠ tiÄģnĠ
qi Äĵ
ĠwÄĵiĠ xiÃ©
jÇĲngĠ fÄģngĠ
Ġ194 2ĠniÃ¡nĠ
ĠmÃ¹ĠqiÃ¡nĠ shÃłngĠwÃ¨iĠ
Ġh uÇİngĠ
ĠfÄģ ĠbÃ¹Ġ
dÅįngĠ xiÃłnĠ
tÃ¡iĠ bÃ¬Ġ
ĠrÃº ĠcÇĲ
xiÇİo ĠzÇĶ
â Ħ
zhÃ¬Ġ shÇİo
ĠchÃ©ngĠ xÃ¹
jÄ« ĠjÄ«nĠhuÃ¬Ġ
ĠsÄģnĠ fÄĵnĠ
ĠdÃŃ ĠrÃ©nĠ
âĨ Ĵ
Ġl ÃłnĠ
Ġr ÄĽnĠ
ĠĠĠ inĠĠĠ
ĠchÅ« ĠxÃŃ
yÇĲ ĠbÃ¨iĠ
ĠjÅ«nĠ de
yÄĽ ĠzÃłiĠ
ĠgÇĶ ĠlÄģ
ĠbÃło ĠdÇİoĠ
Ġ193 6ĠniÃ¡nĠ
ĠyÅįu ĠxiÃ¹
tÃ¡o ĠtÃłiĠ
Ġc ÅįngĠ
yÃ¬Ġ yÃ¬Ġ
ĠhÃ²u ĠzÃłiĠ
ĠquÃ¡nĠ shÃ¬Ġ
ĠgÇĶ ĠdiÇİnĠ
yÃ¡ngĠ shÃ¬Ġ
ĠlÇĲngĠ xiÄģnĠ
ĠchuÃłngĠ xÄ«nĠ
ĠrÃ³ngĠ yÃ¹
gÃ²u ĠzÃłoĠ
Ġ17 8
ro s
ĠĠ ĠduÃ¬ĠyÃº
Ġq ÇĲĠyÃ²ngĠ
yÇĶ Ġde
ĠkÃ¨ ĠlÃŃnĠ
ĠtiÄģnĠ wÃ©nĠxuÃ©
ĠÃłiĠ dÃ©
Ã© ĠwÃ¨iĠ
lÇĲ ĠgÅįngĠ
ĠshÃ¬Ġ huÃ¬Ġ
ĠshÃ¬Ġ gÃ¨
ĠrÃ¨nĠ zhÃŃ
ĠjiÄģngĠ zÃłiĠ
ĠzÇĴngĠ dÅ«
ĠS h
ĠtÄģ ĠchÃ©ngĠwÃ©iĠ
ĠwÇĶ ĠgÃ¨
ĠdÇİo ĠshÃ¬Ġ
ĠchÇĶ ĠlÇĲĠ
Ġle ĠtÄģĠde
ĠkÃ¨ ĠxÄ«
ĠyÃ²ngĠ de
chÃ©ngĠlÃ¬Ġ de
cuÃ² ĠshÄ«Ġ
kÇİĠluÃ³ ĠlÃ¡iĠnÃł
c Ġ
wÃ¨iĠ xÄ«ngĠ
gÅįngĠ mÃŃnĠ
ĠjÄ« ĠchÄĵ
ĠshÃłngĠ shÄĵngĠ
ÇĲĠy ÃŃ
ĠgÇİiĠ mÃŃngĠwÃ¨iĠ
jiÇĶ ĠniÃ¡nĠ
dÃ¬ĠÃ¨r ĠcÃ¬Ġ
ĠduÃ³ Ġde
ĠzhÇĶ ĠdÇİ
duÅį ĠzhÇĴngĠ
ĠyÇİnĠ shÄĵngĠ
ĠpÇĶ ĠluÃ³
huÃŃ ĠyÃ¬ngĠ
ĠguÃ¬Ġ zhÅįu
zhÇİo ĠdÃło
9 4
W Ġ
p ÃłoĠ
Ã© ĠguÃ³
ĠkÄĵ ĠxuÃ©ĠjiÄģ
ĠnÃ¨iĠ dÃ¬Ġ
Ġãĥ ¼
ĠjiÄģngĠsÅ« ĠshÄĽngĠ
5 0ĠniÃ¡nĠ
ĠfÃ¹ ĠnÇļ
ĠchÃ¡ngĠ wÄĽiĠhuÃ¬Ġ
lÇĲngĠ xiÃ¹
ĠÃło ĠÄĽr
tiÃ¡o ĠlÃ¬Ġ
tiÃ¡o ĠyuÄĵĠ
ĠgÅįngĠlÇĲ Ġde
I P
ĠĠ ĠhuÃ¡ngĠ
shÃ¨ ĠqÅ«Ġ
zhÇĶ ĠchÇİngĠ
ĠluÃ² ĠshÄģnĠjÄ«
ĠtÃº ĠxiÃłngĠ
Ġ9 Ġ
ĠxÃŃngĠzhÃ¨ngĠ zhÃ¨nĠqÅ«Ġ
p ÇĴ
ĠĠ ĠlÃŃnĠ
ĠfÄģ ĠchÅ«
ĠchÄĵ ĠduÃ¬Ġ
wÄĽiĠ fÃ¹ĠshÅ«ĠjÃ¬Ġ
ĠbÅį ĠlÃ¬Ġ
ĠxÃŃ ĠjÄ«Ġ
Ġ196 6ĠniÃ¡nĠ
kÄĽĠnÃ©ngĠ shÃ¬Ġ
ĠlÃ¡ngĠ zhÅįngĠ
ĠhÄģĠÄĽr ĠbÄ«nĠ
ĠyuÃ¨ ĠqiÃº
dÃł ĠlÃ³uĠ
ĠjiÄģnĠ chÃŃ
ĠzhÃ¹ Ġde
zhÅįu ĠfÇĶ
ĠtÃłiĠ pÃŃngĠ
ĠxuÄģnĠ bÃ¹Ġ
shÃ¬Ġ fÃłngĠ
wÃ¨iĠ lÃ¡iĠ
ĠyÃ¬Ġ yÃº
ÄĽr ĠmÃłnĠ
ĠhuÃ¬Ġ yuÃ¡nĠ
ĠmÇİ ĠdÄ«ngĠ
ĠjiÃ© ĠlÃ¹nĠ
gÄģo ĠdÃ¹
ĠchÅįngĠ mÇİnĠ
gÃ²ngĠchÇİnĠ dÇİngĠ
3 ĠgÃ¨
Ġq iÃło
ĠshÃ¬Ġ yÇĶ
ĠzÃłiĠ bÃ¹
ĠshÃŃ ĠpÇĲnĠ
ĠgÄģiĠ guÃ³
jiÃ© Ġde
jiÃ¨ ĠquÃ¡nĠguÃ³
dÇĴngĠ shÃ¬Ġ
ĠÃ©rĠgÄģiĠdÃ¬ĠdeĠpÃŃngĠjÅ«nĠhÇİiĠbÃ¡ĠgÄģoĠdÃ¹ ĠwÃ¨iĠ
ĠĠĠ a
ĠdÃ© ĠyÇĶĠ
fÃ¹ ĠxÄ«ngĠ
shÄģnĠ xiÃłnĠ
xuÇİnĠ qÅ«
k Ã²u
Ġb ÇĶĠ
yÄ« ĠxuÃ©
ĠxÄ« ĠsÄ«
âĢ §
ĠfÃ¨iĠ yÃ²ngĠ
ĠbÇİoĠhÃ¹ Ġ
ĠshÄĽnĠ pÃłnĠ
lÃ¬ĠfÇİ ĠhuÃ¬Ġ
ĠwÃ¨iĠ hÃ©
ĠyÇĲ ĠbÄĽiĠ
jÄ« ĠbÇİiĠkÄĵ
yuÃ¨ ĠduÃ¬Ġ
ĠgÄĵ ĠcÃŃ
Ġ193 5ĠniÃ¡nĠ
ĠzÃłiĠ19 4
e li
ĠĠ ĠluÃ³
ĠjiÃłnĠ shÃ¨Ġ
ĠzhÃłnĠ liÃ¨
ĠwÃ©nĠ wÃ¹
Ġ2 ĠgÃ¨
200 3ĠniÃ¡nĠ
Ġ195 3ĠniÃ¡nĠ
ĠxiÃłnĠ shÃłngĠ
jiÃło ĠshÃ¬Ġ
ĠwÃłiĠ guÄģnĠ
ĠyÇĲnĠ rÃ¹
ĠwÅ« ĠrÇİnĠ
ĠpÄģiĠ shÃ¨Ġ
g Å«Ġ
r ÄĽnĠ
ĠnÃ¨iĠ zhÃłnĠ
Ġm Ã¡nĠ
ĠyÃº ĠlÃ¨iĠ
ĠsÄ« ĠshÄĽngĠ
ĠduÃ¬Ġ fÄģngĠ
shÃ¨ ĠshÄ«
ĠyÃ¡nĠ rÃ©nĠ
ĠxiÃło ĠguÇĴĠ
ĠtÃŃ ĠyÃ¬Ġ
xiÇİo ĠshÃŃ
ĠĠĠ200 4ĠniÃ¡nĠ
ĠgÃło ĠsÃ¹
as s
ĠgÄģiĠdÃ¬Ġ de
ĠsÃº ĠchÄĵngĠ
. &
ĠshÄĵngĠ chÃ©ngĠ
ĠzhÃ¨ngĠ miÃłnĠ
ĠdÃłiĠ de
kÄģiĠ zhÇİnĠ
yÄĽ ĠnÃł
gÇİiĠ zhÃ¬ĠwÃ¨iĠ
yÅįu Ġ
k ÇİoĠ
ĠĠ ĠwÃ¨iĠle
Ġm iÃ¨Ġ
Ġde ĠxiÇİo
chÃ©ngĠ rÃ©nĠ
ĠpÃŃngĠ yuÃ¡nĠ
ĠkuÃ² ĠzhÄģngĠ
tiÄģnĠ huÃ¡ngĠ
ĠjiÄģo ĠhuÃłnĠ
ĠpÃłiĠ chÅ«
ĠĠĠP ro
hÃ© ĠrÃ©nĠkÇĴu
ĠdÃł ĠshÇĲĠguÇİnĠ
ĠkÄĵ ĠdeĠqÃŃĠzhÅįngĠyÄ«ĠzhÇĴngĠ
ĠluÃ² ĠfÅ«
fÄĵiĠ lÇľĠbÄ«nĠ
lÃ¹nĠ wÃ©nĠ
ĠdÄĵngĠ chÃ¡ngĠ
ĠbÃº ĠyÃło
9 7
b Ä«
c t
ĠgÅįngĠ jÄ«Ġ
jÃŃ ĠxÃŃngĠzhÃ¨ngĠ
ĠbÃ¬ngĠ dÃº
fÄģngĠ fÇİĠ
mÃŃngĠ xÄ«ngĠ
Ġqi Äĵ
bÃło ĠgÃłoĠ
ĠlÃ³ngĠ shÄĽngĠ
u sĠĠĠ
ĠpÃŃngĠ hÃ©ngĠ
fÇİ ĠtÃŃngĠ
ĠĠ ĠwÃ¡ngĠ
hÃ¹ ĠbÃ¹
hÇİiĠ wÃłiĠ
ĠzÃ© ĠÄĽrĠshÄĽngĠ
ĠdÄģnĠ dÃº
ĠqÄ«ngĠ shÃłoĠniÃ¡nĠ
ĠtÃłiĠ ziĠ
ĠtÃłiĠ lÄĵiĠ
ĠshÃ¨ngĠ jÄ«ngĠ
l uÇİnĠ
Ġq iÇİo
ĠlÃ¬Ġ kÃ¨
ĠlÇĲ ĠchÃ©ngĠ
Ġ18 Ġ
ĠshÅ« ĠzhÅįngĠ
ĠbÇİo ĠzhÃłngĠ
chÃ©ngĠwÃ©iĠ le
m Ã¡iĠ
hÃ© ĠsuÄģnĠ
de ĠjiÄģ
ĠdiÃłnĠ huÃł
of t
shÄģĠ hÃłiĠ
ĠĠ ĠkÇİ
ĠĠ ĠzuÃ²ĠwÃ©iĠ
fÄģngĠ mÇĲĠ
ĠlÄģ ĠjÄ«
ĠlÃ¡nĠ qiÃº
19 Ġ
ĠshÄģngĠ rÃ©nĠ
qÃŃngĠ bÃło
ĠxÅ«nĠ zhÄģngĠ
i re
q ÇĲĠyÃ¨Ġ
ĠzÃłiĠ nÃ¨iĠde
Ġ20 00
Ġqi Ã¨Ġ
ĠfÄĵiĠ fÇİ
ĠxuÇİnĠ shÇĴuĠ
ĠnÃŃ ĠsÄ«
gÅįngĠsÄ« Ġde
M A
u d
Ġd iÄĵ
shÃ¬Ġ yÇİnĠ
ĠchÃ©ngĠ zhÇİngĠ
gÅįngĠ yÃ¬ngĠ
ĠmÃŃngĠ rÃ©nĠ
ĠfÃ¹ ĠbÃ¹ĠzhÇİngĠ
shÃ²u ĠquÃ¡nĠ
ĠzÃº ĠxiÃ©
ĠzhÃłnĠdÃ²u Ġ
H D
yÃ¬Ġ jiÃłnĠ
dÃł ĠzhÃ¬Ġ
dÃ²ngĠ wÃ¹Ġ
Ġ3 7
ĠkÃło ĠjÃ¬nĠ
ĠĠ ĠwÇĶ
Ġn ÇĲĠ
bÄĽiĠ shÃ¬Ġ
ĠhuÄģ Ġ
ĠzhÃ¬ĠzuÃ² ĠrÃ©nĠ
ĠĠ ĠzhÄģngĠ
bÃ¹ ĠluÃ²
ĠyÃ¬Ġ wÃłiĠ
ĠsÄģnĠ rÃ©nĠ
ĠtÅįngĠ wÇİngĠ
Ġ5 8
qÄ«ngĠ chÃ¡o
ĠzhÇĶĠyÃło Ġde
ĠfÇİĠguÃ³ Ġ
fÄģĠshÄĵngĠ zÃłiĠ
xuÇİnĠjÇĶ ĠzhÅįngĠ
i z
i le
Ġz hÃ²uĠ
hÃ¨ ĠÄĽr
ĠdÃł ĠgÅįngĠ
yÃ³u ĠrÃ©nĠgÅįngĠyÇĲnĠzhÇĴngĠzÄģiĠpÃ©iĠ
Ġl ÃºĠ
ĠbÃ¹ ĠlÇİngĠ
ĠdÃł ĠqiÃ¡o
yÇĶ ĠliÃłngĠ
ĠkÄĽ ĠjiÃłnĠ
nÃ¨iĠ gÃ©
tÅįngĠ xÃ¹nĠ
ĠzhÄģnĠ mÇĶĠsÄ«Ġ
ĠmÃ¹ĠqiÃ¡nĠshÃłngĠwÃ¨iĠ yÃ³uĠrÃ©nĠgÅįngĠyÇĲnĠzhÇĴngĠzÄģiĠpÃ©iĠ
I T
ÃłnĠ chÃ¡
ĠtÃ¡iĠ zhÅįngĠ
xiÇİo Ġde
xÃ¬nĠ yÇİngĠ
Ġ194 3ĠniÃ¡nĠ
zÄĵngĠ zhÇİngĠ
ĠjiÇİo ĠdÃ¹
ĠchÅįngĠ tÅ«
oo g
ĠchÅ«ĠrÃ¹ ĠkÇĴuĠ
ĠbÃ¹ ĠzÃº
dÃł ĠduÅįĠshÃ¹
ĠjiÄģngĠ tÄģ
ĠjiÃłnĠlÃ¬Ġ le
ĠzhÃŃĠyÃ¨ ĠshÄĵngĠyÃ¡Ġ
Ġt Ãł
wÃ¨iĠ de
ĠhuÃ² ĠbÃ¬Ġ
ĠkÄĽ ĠzÃłiĠ
ĠliÇİngĠ tiÃ¡o
shuÇĲ ĠliÃłngĠ
rÃº ĠguÇĴ
hÃ¹nĠ luÃłnĠ
qÅ« ĠnÃ¨iĠ
rÃ¨nĠ wÃ¨iĠ
hÇİiĠ yÃ¡ngĠ
ĠĠĠdÃ¬Ġ yÄ«
ĠmÃłiĠ kÃ¨Ġ
ĠmÃ¡o Ġ
sÄģiĠ ÄĽr
E S
zh uÃ¬Ġ
ĠdÃł ĠjiÇİngĠ
ĠpÃŃngĠ miÃłnĠ
an n
bÃłnĠ yÇİnĠ
ĠtÃłnĠ xiÇİnĠ
ĠhuÃłĠhÃ© ĠwÃ¹Ġ
Ġz Ã©iĠ
ĠsÄ« ĠtÃº
jiÄģ ĠrÃ¹Ġ
jÄ« ĠyÄ«nĠ
nÃ¨iĠ zhÃłnĠ
ĠsÃ¬Ġ hÅ«
ĠgÃ²ngĠ hÃ©ĠdÇİngĠ
ĠyÇĲngĠ xiÃłngĠ
ĠwÇĴ Ġde
ĠhÇİo ĠpÃŃngĠ
il li
ĠyuÃ¨ ĠlÃ¡iĠyuÃ¨
shÃŃ ĠkÄĵngĠ
dÃ¬Ġ zÃłiĠ
ĠdÃł ĠxiÇİo
yÄ« ĠliÃ¡o
ĠjÃ¬nĠ Ã©r
ĠpÃŃngĠ dÄĽngĠ
yÃ²ngĠ hÃ¹
ĠbÄĽnĠ xiÃłnĠ
ĠzhÇİngĠ de
jiÃło ĠyÃº
ĠdÃłĠxuÃ© Ġde
luÃ³ Ġ
ĠfÇĶ ĠzhÃ¹
ĠtÃ¡o ĠtÃłiĠ
ĠyÇĲ ĠcÇĲ
ĠzhÇİngĠ dÃ¡
ĠzhÃ²ngĠ shÃ¬Ġ
jÄ«Ġ hÃ©
wÃ¡nĠ zhÄĽngĠ
ĠzÃłnĠ tÃŃngĠ
ĠwÃłiĠjiÄģo ĠbÃ¹
i aĠ
hÃ© ĠbÄĽiĠ
zhÅįngĠ jiÃłngĠ
Ġ19 Ġ
qÅ« ĠjiÄģnĠ
chÅ« ĠkÇĴu
shÃ¹ ĠxuÃ©
am p
ĠshuÃ² ĠshÃ¬ĠxuÃ©ĠwÃ¨iĠ
ĠzhÃłnĠ de
zhÇĶ ĠbÃłnĠ
ĠdÅįngĠ hÇİiĠ
mÃ² ĠsÄ«ĠkÄĵ
qÄ«nĠ zÃ¬Ġ
piÃło ĠfÃ¡ngĠ
fÃłnĠwÃ©iĠ nÃ¨iĠ
ĠwÃ¨iĠ zhÅįngĠguÃ³
zhÃ¬Ġ liÃłngĠ
ĠzhÄ« ĠxiÃłĠ
ĠbÄģ ĠÄĽr
ĠtÅįngĠ yÃ²ngĠ
or g
ĠwÄĵiĠ xiÃ©Ġ
cÄģnĠ jiÄģĠ
Ġ197 4ĠniÃ¡nĠ
dÃłnĠ shuÇĲ
ĠzhÇİo ĠdÃło
zÃ²u Ġ
shÃŃ ĠxÃŃngĠ
ĠjÃ¹ ĠbÃ¨iĠ
deĠ Äģ
xiÃł ĠlÃ¡iĠ
xiÃł ĠwÇĶ
ĠshÄ« ĠfÃłnĠ
sÃ¬Ġ gÃ¨
ĠchÃ³ngĠ zhÄĵnĠ
ĠlÇİo Ġde
hÄģ ĠÄĽr
ĠzhÃł ĠdÃłnĠ
tÇİnĠ dÄ«ngĠ
od iceĠ
shÃ¬Ġ rÃ©nĠ
Ġp ÇĴ
ĠgÄģo ĠdÃ¡
ĠchÄĵngĠ hÃłoĠ
ĠdÅįngĠnÃ¡nĠ bÃ¹
a de
ĠyÃ¬Ġ zÃłiĠ
huÃ¬Ġ yuÃ¡nĠ
ĠjiÃło ĠshÄ«
ĠshÇĴu ĠxiÃłngĠ
yÃŃ ĠzhÇĲ
ĠyÄ«ngĠ jÅ«nĠ
ĠĠĠS h
Ġà ¸
âĦ ĥ
m Äģo
ĠĠĠ ÃłiĠ
ĠzhÃ¨ ĠlÇĲ
huÃ¬Ġ shÃłngĠ
ĠduÃ¬Ġ qÃŃ
jÄ« ĠhuÃ¬Ġ
guÄģnĠ cÃ¨
ĠdÃ¬ngĠ jÅ«
ĠyuÄĵ ĠsÃ¨
ĠzhuÄģnĠ yÃ¨Ġ
shÄģ ĠbÃ¡iĠ
ec t
fÃ¹ĠjÃ¬nĠ de
ĠfÇİĠlÃ¡nĠ xÄ«
de ĠyÃ¡nĠjiÅ«
de ĠgÃ¹ĠshÃ¬Ġ
jÄ« ĠqÃ¬Ġ
ĠjiÄģnĠ chÃ¡
or d
ĠchÃŃ ĠyÇĴu
liÇİngĠ cÃ¬Ġ
pÃ¨iĠ hÃ©
lay St
Ġzh eĠ
ĠrÃ©nĠ quÃ¡nĠ
ĠyÄ« ĠrÃ¡nĠ
dÃ¬Ġ bÄģ
qiÄģnĠ dÃ¬ngĠ
ĠpÃ¡iĠ hÃ¡ngĠbÇİngĠ
ĠxÃºnĠ huÃ¡nĠ
ĠĠĠgÃ¨ĠrÃ©nĠ shÄĵngĠhuÃ³Ġ
m Ã¡nĠ
de ĠxÄ«
ĠyÄ«nĠ sÃ¹
xÄ«nĠ lÇĲ
ĠkÄģiĠ tÅįngĠ
ĠshÄģ ĠsÇĲ
ĠjiÇİ Ġ
n iÃło
n uÃ³ĠwÄĵiĠ
Ġde ĠhÃ²u
ĠshÃ¬Ġ yÄ«nĠwÃ¨iĠ
ĠbÃ¬ngĠ yÇĴu
ĠguÄģnĠ jiÃłnĠ
xiÃło ĠlÃ¬Ġ
yÄģ ĠlÃ¬Ġ
ĠtuÃ¬Ġ chÅ«
ĠyuÃ¡nĠyÄ«nĠ shÃ¬Ġ
kÃ¹nĠ nÃ¡nĠ
ĠlÃ¬Ġ tÃ¨
ĠfÄĵnĠ xÄ«Ġ
xiÄģngĠ hÃ¹
ĠhÇİiĠ nÃ¡nĠ
ĠtiÄģnĠ huÃ¡ngĠ
gÇİngĠ yuÃ¡nĠ
ĠdÇİo ĠyÇĶĠ
Ġ16 3
dÄ« ĠqÃ¬Ġ
ĠĠ ĠzhÃ¹
ĠzÃłiĠ yÇĶ
ĠhÃ© ĠliÃº
ĠmÃŃnĠ jÃ¬nĠdÇİngĠ
jiÃło ĠqÅ«
ĠgÇİiĠ chÄĵngĠ
ĠpÃłiĠ de
Ġ16 Ġ
ĠM Ġ
rÃ©nĠkÇĴu ĠpÇĶĠchÃ¡
m ent
y Äĵ
Ġ1 3Ġ
ĠdÃł ĠshÃł
huÃ² ĠbÃ¬Ġ
sÄģnĠ jiÇİo
guÇİnĠ xiÃ¡Ġ
ĠtÃ³ngĠniÃ¡nĠ 12
ĠshÃ¬Ġ fÃłngĠ
duÃ¬Ġ kÃłngĠ
ĠxiÄģngĠ fÇİnĠ
qÄ« ĠniÃ¡nĠ
ĠwÄĽiĠ tuÅį
ĠshÅįu ĠgÃ²u
ĠhuÇĴ ĠbÃłnĠ
ĠnuÃ² ĠmÃłnĠ
lÃ¬ngĠ yÄ«
shÃło ĠjiÃłngĠ
ĠchÃ¨ nĠ
ÇĴu Ġ
ĠliÃ¡nĠ zÇİiĠ
ĠfÃº ĠzhuÄģngĠ
zhÃŃ ĠwÃ¨iĠ
dÄĽngĠ dÄĽngĠ
bÃłnĠ shÃ¬Ġ
Ġ15 2
shuÅį ĠmÃŃngĠ
ĠR Ġ
ĠniÇİo ĠlÃ¨iĠ
1 0ĠniÃ¡nĠ
E C
Ġt ÇĶĠ
Ã©r ĠlÃ¡iĠ
xÃŃngĠ shÄģnĠ
ĠshÃłngĠ xiÃł
yÇĲ ĠwÃłiĠ
ĠliÃ¡nĠ luÃ²
ĠbÄģ ĠnÃ¨nĠ
zÇĴngĠ lÇĲ
Ġ195 1ĠniÃ¡nĠ
8 3
I D
ĠshÃ¬Ġ zhÅįngĠhuÃ¡ĠrÃ©nĠmÃŃnĠgÃ²ngĠhÃ©ĠguÃ³
Åįu Ġ
jiÃ© ĠkÃ¨
wÃłiĠ guÃ³
ĠbiÄģnĠ hÃło
ĠfÃ¡ngĠ kÅįngĠ
ĠM ar
tuÃ¬Ġ yÃ¬Ġ
hÃ© ĠgÇĶ
zÃłiĠ zhÅįngĠguÃ³
ĠtÄģ ĠwÃ¨iĠ
ĠqÃŃ ĠzÃłiĠ
zhÄ« ĠxiÃłĠ
ĠjÃ¬nĠ pÃŃngĠ
ĠpÃŃngĠ jiÃł
ĠyÇİnĠ jiÇİngĠ
qiÃ¡ngĠ liÃ¨
ĠxÃºnĠ yÃ¡ngĠjiÃłnĠ
gÃ¹ ĠdÃ¬ngĠ
ĠmiÃłnĠjÄ«Ġ hÃ©ĠrÃ©nĠkÇĴu
hÄĽnĠ duÅį
ĠyÇĶĠcÇĲ ĠtÃ³ngĠshÃŃĠ
t ou
ĠyÃł ĠmÃ¹
gÃ© ĠlÃŃ
ĠdÇĴngĠ shÃ¬ĠzhÇİngĠ
Ġ v
ÄģnĠ rÃ©nĠ
shÃ¬Ġ zhÃ¨ngĠ
ĠĠĠ 2Ġ
ĠĠĠ and
ĠzÇĶ ĠzhÇĲ
Ġ4 7
biÃłnĠ huÃłĠ
ĠxiÃłnĠzÃłiĠ de
ĠshÃ¹nĠ lÃ¬Ġ
ĠtÅ« ĠpÃ²
ĠbÃ¹ ĠwÃ¨iĠ
yuÃ¡nĠ xÃŃngĠ
fÄģ ĠhuÄ«
yÃł ĠlÃ¬ĠshÄģnĠ
cÃ¨ ĠliÃ¡ngĠ
ĠjiÇĶ Ġde
Ġ17 7
ĠyÄģ Ġ
ĠmÃło ĠxiÇİnĠ
ĠshÃ¬ĠyÃŃĠgÃ¨ĠwÃ¨iĠyÃº ĠmÄĽiĠguÃ³
9 1
Ġzh uÄģ
zhÃ¬Ġ 2
ĠwÃ©iĠ fÇİnĠ
chÅ« ĠchÇİngĠ
ĠliÃ¡nĠ rÃ¨nĠ
ĠtÃ¨ ĠlÄĵiĠ
ĠjiÄĵ ĠdÃłoĠ
zÃ© ĠwÃ¨iĠ
ĠmÃłnĠ dÃ¬ĠguÃ³
ĠbÄ«ngĠ tuÃ¡nĠ
chuÃłngĠ jiÃłnĠ
s Çİo
Ġm ÃŃĠ
ĠlÇĲ ĠxiÇİngĠ
niÃ¡nĠ de
shÄĵngĠ tÃłiĠ
xuÃ© ĠxÃŃĠ
ĠshÃ²u ĠquÃ¡nĠ
ĠyÃ²ngĠ tÃºĠ
ĠdÇİo ĠshÃłngĠ
jÃ¬ngĠ zhÄĵngĠ
ĠbÄģnĠ jiÇİngĠ
ĠhÄģ ĠlÃ¬Ġ
jiÇİnĠ jiÃ¨Ġ
zhuÇİnĠ xiÃłngĠ
Ġ197 3ĠniÃ¡nĠ
ruÃ¬Ġ diÇİnĠ
suÃ¬Ġ dÃło
ĠsÄģiĠÄĽr ĠwÃ©iĠyÃł
S h
ĠshÃ¬Ġ zhÅįngĠxÄ«nĠ
zÃłiĠ xiÄģngĠgÇİngĠ
ĠshÃŃ ĠjiÇĶ
ĠchÃ©ngĠ rÃ©nĠ
ĠgÅįngĠ zhÇĶ
ĠzhÃ¨ngĠ shÃŃ
ĠzuÃ² ĠtÃ¡ngĠ
ĠmÇİ ĠsÄ«Ġ
ĠcÃ©ngĠ yÃº
Ġ197 1ĠniÃ¡nĠ
ĠjiÄĵĠwÃ¨iĠ zhÄ«Ġ
ĠgÄģiĠdÃ¬Ġde ĠmiÃłnĠjÄ«ĠhÃ©ĠrÃ©nĠkÇĴu
ĠgÄģiĠdÃ¬ĠdeĠmiÃłnĠjÄ«ĠhÃ©ĠrÃ©nĠkÇĴu ĠjiÄĵĠwÃ¨iĠzhÄ«Ġ
h Å«Ġ
ĠĠ ĠjiÃłnĠ
yÇĴu ĠjÄ«
jÄ«ngĠ lÇĲĠ
ĠgÄģiĠ zhuÄģngĠ
duÅį ĠshÃ¹
ĠgÃ²ngĠ jÃ¬Ġ
ĠwÃº ĠzhÃ¨ngĠzhuÃłngĠgÇİnĠrÇİnĠzhÄĽ
ĠqiÄģnĠ mÇĲĠ
dÃłiĠbiÇİo ĠtuÃ¡nĠ
ĠĠĠA l
ĠtÃ¡iĠbÄĽiĠ shÃ¬Ġ
c ÇİnĠ
xiÃłnĠ lÃ¹
ĠyÄĽ ĠchÄĵngĠ
ĠshÃ²u ĠshÄģngĠ
ĠzhÃ²ngĠ zhÃŃ
zÄ« ĠgÃ©
quÃ¨ Ġde
zhuÄģnĠ mÃ©nĠ
ĠjiÃłoĠyÃ¹ ĠbÃ¹
de ĠnÃ¡nĠ
jÃŃ ĠrÃ©nĠ
duÃ¬Ġ zhÃ¨nĠ
ĠjÃ¹ ĠchÇİngĠ
ĠqÅ« ĠnÃ¨iĠ
ĠzÇĶ ĠhÃ©Ġ
ĠtÃ³u ĠxiÃ¡ngĠ
sÄ«ĠlÃ¬ngĠ bÃ¹
kÃło ĠjÃ¬nĠ
ĠshÃŃ ĠbÃłoĠ
bÇĲ ĠdÃ©
ĠhÄģ ĠlÄģ
ĠsÅ« ĠwÃ©iĠÄģiĠ
tuÃ¡nĠ duÃ¬Ġ
Ġ14 0
miÇİnĠ diÄģnĠ
ĠshÄĵngĠzhÇİngĠyÃº ĠhÇİiĠbÃ¡
ĠĠ ĠshÃłngĠ
hÃ© ĠzhÅįngĠ
ĠgÅįngĠ ÄģnĠ
ĠbÃ¬ngĠ biÇİoĠshÃ¬Ġ
ĠzhÄ« ĠliÃºĠ
ĠyÄ«nĠ c
shÃ¨ ĠyÇĲngĠ
ĠzhÇĴngĠ lÃ¨iĠ
ĠxÃ¬ngĠ qÃ¹Ġ
ĠgÃ© ĠlÇĲ
ĠshÇĲ ĠshÃłngĠ
ĠmÃ³ ĠfÇİ
ĠkÄĽĠnÃ©ngĠ xÃ¬ngĠ
ĠshuÄģngĠ dÇİ
ĠgÄģngĠ qÃŃnĠ
ĠP Ġ
jÃ¹ĠlÃ¨ ĠbÃ¹
1 ĠlÃ¬Ġ
Ġde ĠzuÃ¬Ġ
ĠyÇĲ ĠzhÄ«
ÇĲĠy Ã¹nĠ
qi Ã¨Ġ
ĠshÃ©nĠ mÃ¬Ġ
mÄĽiĠguÃ³ Ġ
shÄģngĠ wÃ¡ngĠ
ĠsÄģiĠ bÃłiĠ
ĠpÃ©iĠ yÇİngĠ
tÇİnĠ kÃ¨
n t
ĠyÄ« ĠjÃ¹
ĠdiÃłnĠ qÃ¬Ġ
ĠhÇİiĠ shÃłngĠ
ĠfÄģngĠ biÃłnĠ
ĠzÇĴngĠ jiÄģnĠ
ĠrÃº ĠtÃ³ngĠ
tÃ¨ ĠdÃ¬ngĠ
Ġ197 7ĠniÃ¡nĠ
shÅįu ĠgÃ²u
zÇĲ ĠyÃ³uĠxÃ¬Ġ
ro m
Ġg ÄĽnĠ
dÃł ĠduÅį
Ã¨r ĠjÃŃ
wÃ©nĠ mÃŃngĠ
ĠtiÄģnĠ qÃ¬Ġ
ĠbÄģnĠ cÃ¬Ġ
ĠxiÄģo ĠfÃ¡ngĠ
lÄģ ĠdÄ«ngĠ
pÃºĠtÃ¡o ĠyÃ¡
chÃ©ngĠ bÄĽnĠ
ĠzhÄ« ĠzhÃłnĠ
ĠjiÄģnĠ dÅ«
yÃŃ ĠdÃ¬ngĠ
ĠgÄģiĠ wÃ¹ĠzhÇĴngĠ
ĠlÃ¹ ĠshÃłngĠ
rÃ¬Ġ bÃłoĠ
ĠmÃ©iĠ tÇĲĠ
ĠdÇİo ĠyÇĶ
Ġ195 7ĠniÃ¡nĠ
l Ãł
t t
Ġ Ø
ĠdÃ¬Ġ dÃłiĠ
zhÃ¬Ġ piÃłnĠ
yÇĴu ĠyÃ¬Ġ
ĠmÃŃngĠ jÃ¬nĠshÃ¬Ġ
yÇĶ ĠqÃŃ
ĠhuÃ² ĠchÄĵngĠ
ĠgÄģiĠ xiÃło
ĠjiÃ¨ Ġde
yuÄĵ ĠwÃ¨iĠ
Ġ193 3ĠniÃ¡nĠ
ĠsÃ¬ĠchuÄģnĠ shÄĽngĠ
O M
ĠrÃ¬Ġ zhÃ¬Ġ
qÃŃ ĠxiÃł
liÇİngĠ zhÇĴngĠ
ĠgÃ¨ngĠ duÅįĠde
cÃ¡iĠ nÃ©ngĠ
ĠrÃ³ngĠ yÃ¹Ġ
ch Ġ
zhÅįngĠ deĠ
xiÃłnĠ chÃ©ngĠ
xiÃłnĠ shÃłngĠ
wÇİngĠ wÇİngĠ
ĠdÅ« ĠshÃ¬Ġ
Ġ196 2ĠniÃ¡nĠ
gÃ¨ngĠ duÅį
de ĠsÄģnĠ
ĠshÃ¬Ġ jiÃ¨Ġ
shÃŃ ĠshÃłngĠ
ĠyÃŃ ĠbÃłnĠ
zhÇĲ ĠzÃłiĠ
ĠliÃłngĠ zÇĲ
qiÄģnĠ shÇĶ
200 2ĠniÃ¡nĠ
xÃºnĠ zhÇİo
ĠxÄ«ĠbÄĽiĠ bÃ¹
ĠzhuÃłnĠ xiÄĽ
ĠshÇİnĠ xÄ«
x ÇĲngĠ
de ĠzuÃ²ĠpÇĲnĠ
Ġ1 4Ġ
yÄ« ĠshÄĵngĠ
dÃł ĠfÃº
dÃł ĠsÃłiĠ
yÃ³u ĠyÇĴngĠ
ĠshÄ« ĠgÅįngĠ
ĠshÄĵnĠ dÃ¹Ġ
ĠmÄĽiĠguÃ³ Ġde
ĠliÃ¨ ĠchÅ«
ĠmÇİnĠ zhÅįu
ĠshÃ¬ĠnÃ¡nĠ jÃŃĠzhÅįuĠde
I IĠ
ĠjÃŃ ĠjiÄģngĠ
ĠyÃŃ ĠzhÇĲ
or l
ĠfÇİnĠ Ã©r
bÃ¬Ġ miÇİnĠ
xiÃ© ĠshÄģngĠ
ĠxiÇİngĠ yÃło
bÄģo ĠwÃ©iĠ
ol Ġ
dÃ¬ĠÃ¨r ĠcÃ¬ĠshÃ¬ĠjiÃ¨ĠdÃłĠzhÃłnĠ
p ÄĵngĠ
q Ãº
Ġk Ã©
ĠĠĠ X
ĠjiÄģ ĠzhÅįngĠ
dÃłiĠ lÇĲngĠ
ĠqÅ« ĠfÄĵnĠ
ĠzhÃ²ngĠ yÃ¬ĠyuÃłnĠ
ĠĠĠchÄĵĠzhÃłnĠ jiÃ©ĠgÃ²uĠ
hÃ© ĠfÇİ
Ġde ĠchÃ©ngĠyuÃ¡nĠ
hÃłnĠ lÃŃnĠ
ĠhÇİiĠ yÃ¹Ġ
ĠshÅ« ĠyuÃłnĠ
gÇİiĠ mÃŃngĠwÃ¨iĠ
ĠĠĠ200 3ĠniÃ¡nĠ
zhÇĶĠyÃło Ġde
4 ĠyuÃ¨Ġ1ĠrÃ¬Ġ
Ġl a
Ġc om
de ĠfÄĵngĠ
yÃ¡nĠ chÃ¡ngĠ
ĠzhÃ¨nĠ qÅ«ĠdeĠmiÃłnĠjÄ«ĠwÃ¨iĠ
deĠyÄ« ĠxiÄĵ
lÇļ ĠxÃŃngĠ
ĠĠĠbÄĽnĠ zhÃłnĠ
hÃ¹ ĠliÃ¡nĠwÇİngĠ
jiÄĵ ĠchÃ¹
ĠjiÄģo ĠgÄĽiĠ
huÃŃ ĠguÄ«
ĠjÇĲ ĠniÃ¡nĠ
ĠchÃ³u Ġ
dÃ¬Ġ 3
ĠyÇĴu ĠzhÃ¹
ĠtÃ¨ ĠsÃ¨Ġ
ĠbÄģ ĠhÃ¨
ĠcÄģnĠ xuÇİnĠ
nÃł ĠcuÃ¬Ġ
xiÇİo ĠxÃŃngĠ
xÃ¹ ĠlÃ¬ĠyÃł
shÃ©nĠ jÄ«ngĠ
P S
Ġd uÄ«
ĠyÇĶ ĠzhÃ²u
ĠlÃ¹ ĠzhÃ¬Ġ
shÇĴu ĠxiÃłngĠ
eĠĠĠ of
ĠĠ ĠrÃ¡nĠÃ©rĠ
hÃ© ĠpÃłnĠ
yÄ« ĠrÃ¡nĠ
ĠjÃ¬Ġ wÃ¨iĠ
dÃ© ĠzhÄ«
ĠjÅ«nĠ guÄģnĠ
lÃŃ ĠziĠ
ĠjÃ¬ĠlÃ¹ ĠpiÃłnĠ
Ġp Ä«Ġ
hÃ²u ĠsÃłiĠ
ĠrÃ©nĠ chÄĵngĠ
mÃŃngĠ zhÃ¬Ġ
ĠzhÅįu ĠfÇĶ
hÇİiĠ xiÃ¡
Ġ4 2
ĠcÄģnĠ yÃ¬ĠyuÃłnĠ
gÄģiĠ guÃ³
ĠyÃ¬ngĠ jÃŃ
ĠxiÃ¡ngĠ xÃ¬Ġ
zÇĴu ĠxiÃłngĠ
u st
Ã© ĠzhÅįu
zh uÄģ
ĠzhÃŃ ĠbÃłngĠ
ĠtÃ¨ ĠlÃ¡nĠ
Ġ4 ĠyuÃ¨Ġ
ĠshÄģngĠ diÃłnĠ
ĠxuÄģnĠ chÄĵngĠ
sÅ« ĠgÃ©ĠlÃ¡nĠ
tÃŃĠgÅįngĠ le
f Ġ
Ġch uÄ«
ĠyÃº ĠrÃ©nĠ
ĠyÃ¬Ġ qÃŃngĠ
ĠzhÃ¨ ĠlÃ¨iĠ
xiÃłnĠ zhÄ«ĠxiÃłnĠ
duÃ¬Ġ cÇĲ
ĠcÄģnĠ yÃ¹Ġ
ĠbÇİo ĠluÃ³Ġ
zÄ« ĠjÄ«nĠ
chÇĶ ĠlÇĲĠ
ĠnÃ¡ ĠxiÃł
ĠmÃ¹ĠdÃ¬Ġ shÃ¬Ġ
ĠdÄģngĠxuÇİnĠ wÃ¨iĠ
jÃ¹ ĠfÄĵngĠ
ĠyuÄĵ ĠyÇĴu
ĠzhÅįngĠguÃ³ ĠguÃ³ĠmÃŃnĠdÇİngĠ
fÄĵngĠ bÃłoĠ
ĠgÇİiĠ jÃ¬nĠ
dÇİngĠ de
ĠxÅ« ĠqiÃºĠ
l ÃłnĠ
ĠĠ ĠjÄ«
ĠshÃ¬Ġ dÃł
ĠdÃłnĠ zuÃ¬ĠzhÅįngĠ
ĠfÃ¹ ĠxÄ«ngĠ
ĠmÇİ ĠsÄ«
dÅįngĠ fÄģngĠ
liÃ¡nĠ rÃ¨nĠ
ĠÃ¨r ĠrÃ©nĠ
zhÃło ĠpiÄģnĠ
xÄ«Ġ ÄģnĠ
lÃ¬Ġ chÇİngĠ
ĠfÄĵnĠ zhÄ«
ĠĠĠ20 19
ĠyÃ¹ ĠsuÃłnĠ
lÃ¹ ĠxÃ¹
ĠhuÃł ĠmiÃłnĠ
xÄ«ngĠ de
ĠnÇļ ĠhÃ¡iĠ
ĠgÇİiĠ zÃło
sÄ« ĠfÇİ
fÄĵnĠ lÃ¡nĠ
ĠbÃłnĠ lÇĲ
ĠpÇĶ ĠlÄģ
guÃ³ĠjiÄģ ĠduÃ¬Ġ
ĠruÃ² Ġ
miÇİnĠ fÃ¨iĠ
shÃ¬ĠwÃ¨iĠ le
ĠchÃ¬Ġ wÄĽiĠ
ĠjÇĶĠxÃŃngĠ de
ĠxÃºnĠhuÃŃ ĠsÃłiĠ
ĠĠ ĠwÃº
hÃ© ĠtÃ³ngĠ
ĠdÃło ĠguÄģngĠ
huÃ¬Ġ yÇĴu
ĠrÃ¨nĠ zhÃ¨ngĠ
zhÅįu ĠwÃ©iĠ
ĠshÄ« ĠrÃ©nĠ
gÄĵ ĠlÃºnĠbÇĲĠyÃł
guÇİngĠ gÃło
ĠshÃ¬ĠwÃ¨iĠyÃº ĠwÅ«ĠkÃ¨ĠlÃ¡nĠ
nÃ¡ ĠxiÃł
ĠshÃ¬Ġ pÃŃnĠ
ĠshÃŃ ĠzhÃ¬Ġ
zhÃ¬Ġ lÃ¬Ġ
ĠhÃ© ĠchÃ©ngĠ
dÃ¬Ġ dÃłiĠ
ĠyÇĴu ĠjÄ«
shÃ¨ ĠdÃ¬ngĠ
fÄģ ĠshÃ²uĠ
ĠrÃ¨nĠ tÃ³ngĠ
ĠliÃº ĠqiÃº
ĠyÃ²ngĠ yÇĲ
ĠnÇļ ĠÃ©rĠ
luÃ² ĠchÃ©ngĠ
ĠhuÃ³ ĠyuÃ¨
Ġ196 5ĠniÃ¡nĠ
ĠU Ġ
yÃº ĠlÃ¨iĠ
ĠshÃŃ ĠwÃ¹
ĠtÄģ ĠyÃ²u
ĠxÄ« ĠyuÃ¡nĠ
ĠlÃ¡iĠ sÄ«
zhÇĶ ĠlÃ¬Ġ
ĠjÇĲngĠ guÄģnĠ
ĠĠĠgÄĵnĠjÃ¹Ġ 2010ĠniÃ¡nĠmÄĽiĠguÃ³ĠrÃ©nĠkÇĴuĠpÇĶĠchÃ¡ĠdeĠshÃ¹ĠjÃ¹Ġ
ĠkÄģ ĠfÄĵiĠ
ĠĠ ĠshÄģ
de ĠfÄģĠzhÇİnĠ
ĠxÄ« ĠshÅįu
ĠbÃ¨iĠ pÃłnĠ
ĠÃ©r ĠchÃ©ngĠ
ĠzÃ¬Ġ jÇĲĠ
ĠcÃ¬Ġ rÃ¬Ġ
fÇİ ĠguÄģnĠ
ĠĠĠ20 00ĠniÃ¡nĠ
jiÃ¨ ĠshÃło
ĠtÃŃ ĠchÅ«Ġ
eĠĠĠ P
ĠshÃ¬ĠyÄ« ĠjiÄģ
ti v
ĠzhÃ¨ngĠfÇĶ Ġde
tÅ« ĠrÃ¡nĠ
ĠxÄ«ĠbÄģnĠyÃ¡ ĠyÇĶĠ
de ĠguÄģnĠxÃ¬Ġ
ĠyuÃ¨ ĠshÄĵngĠ
ĠzhÅįngĠ diÇİnĠ
ĠpÃŃngĠ chÃ©ngĠ
lÃŃnĠ de
ĠhÅ« ĠyÃ¹
fÅ« ĠrÃ©nĠ
Ġ192 8ĠniÃ¡nĠ
sÇĶnĠ shÄ«
ĠjiÃ©ĠkÃ¨ ĠxÃ¹nĠ
Ġn Ã¡ngĠ
ĠxiÃłnĠ cÃºnĠ
ĠxÄ« ĠlÃ¡nĠ
ĠlÇĲ ĠchÃ¡
ĠshÇĴu ĠxÃŃ
ĠqiÄģnĠ yÇĲnĠ
mÄĽiĠguÃ³ ĠrÃ©nĠ
ĠdÃ¬ĠÃ¨r ĠcÃ¬ĠshÃ¬ĠjiÃ¨ĠdÃłĠzhÃłnĠ
D V
U S
q iÃł
Ç ĺ
ĠĠ ĠfÇİĠguÃ³
Ġc Äģ
Ġt Å«nĠ
ĠchÃ©ngĠ le
ĠxÄ« ĠzhÅįu
zhÄ« ĠjÃ¬Ġ
ĠbÃ³ ĠÄĽr
jiÃ¹ ĠhuÃ¬Ġ
ĠtÃ³ngĠniÃ¡nĠ 10
jÄ«ĠdÅ« ĠjiÃło
shÃ¬Ġ zhÅįngĠguÃ³
ĠzÃłiĠ yÄ«ngĠguÃ³
ĠyÇĲ ĠzhÃ¬Ġ
ĠdÃ© ĠdÃłoĠle
duÃ¬Ġ qÃŃ
ĠbÇİo ĠzhÃ¨ngĠ
bÄģ ĠniÃ¡nĠ
zhuÇİnĠ huÃłnĠ
ĠD Ġ
yÇİngĠ huÃł
ĠshÃ¬Ġ yÃ¨
hÃ²u ĠfÄģngĠ
nÃ¡nĠ yÇĲ
ĠĠĠ20 20
bÃ¹Ġ ÄĽr
ĠqÄ«nĠ wÃ¡ngĠ
ĠÃłiĠ ÄĽrĠlÃ¡nĠ
mÇĶ ĠsÄ«
ĠfÃ¹Ġ hÃ©
gÄĵngĠ xÄ«nĠ
u g
gÅįngĠ zhÃłnĠ
gÅįngĠ lÃ¹Ġ
ĠzhÄ« ĠyÄ«
ĠyÃ¡nĠ chÃ¡ngĠ
ĠqÄ«ngĠ chÅ«nĠ
fÄĵngĠ gÃ©
ĠdÄ« ĠyÃº
xiÅįngĠ yÃ¡ĠlÃ¬Ġ
duÇİnĠ zÃłnĠ
ĠrÃ¨ĠdÃłiĠ qÃ¬ĠxuÃ¡nĠ
O R
zÃłiĠ 199
ĠxiÃłnĠ yÃº
ĠqÃŃ ĠziĠ
ĠduÅį ĠyÃłngĠ
ĠfÇİ ĠtÃŃngĠ
jiÄĵ ĠshÃ²uĠ
ĠdÃ¬ĠÃ¨r ĠgÃ¨
dÄģngĠshÃŃ Ġde
ĠyÄĵ ĠsÅ«
ĠĠ ĠgÅįngĠ
dÃ¬Ġ chÇİnĠ
xÃŃngĠ xiÃłngĠ
ĠzuÃ² ĠluÃ²
ĠzÃ¬Ġ chÄĵngĠ
shÃ¹ ĠzÃ¬Ġ
xuÃ© Ġde
ĠhuÃł ĠfÄĵnĠ
ĠtiÄģnĠ tÇĲĠ
fÃłngĠ zÃłiĠ
hÃ¡o Ġ
yÄ« ĠjÃŃ
jÄ« ĠjÄ«nĠ
ĠkÃ¨ ĠsÃłĠsÄ«
ĠÃ©r ĠbÃ¹
ĠshÃ¨ Ġde
yÃ¨ ĠwÃ¹
ĠfÅ« ĠkÇİ
ĠqÃŃngĠ gÇİnĠ
de ĠwÇĶ
ĠhuÃ¬Ġ zhÇİngĠ
ĠdÃłnĠ quÃ¨
ĠrÃ¨nĠ shÃŃ
tÃłiĠ kÅįngĠ
ĠzhÄĵnĠ zhÃ¨ngĠ
bÃ³ ĠshÃ¬Ġ
18 9
pÄģiĠ shÃ¨Ġ
ĠĠ ĠjiÃ©
shÃ¬Ġ qÅ«
ĠdeĠ M
ĠliÃº ĠzÃłiĠ
ĠshÄģnĠ xÄ«ĠshÄĽngĠ
ĠtuÄ« ĠchÅ«Ġ
yÅįu ĠxiÃ¹
ĠgÅįngĠzuÃ² ĠshÃ¬Ġ
ĠrÃ©nĠdÃł ĠdÃłiĠbiÇİoĠ
w ÃºĠ
ĠshÃ¬Ġ jiÄģ
Ġh Äĵ
shÃ¬Ġ yÃłnĠ
gÅįngĠ bÃ¹Ġ
yÃ¬Ġ rÃ©nĠ
shÃłngĠ xiÃłnĠ
ĠtÃ¨ ĠsÃ¨
ĠkuÃ² ĠdÃł
ĠzÇĴngĠ huÃ¬Ġ
dÃłĠxuÃ© Ġde
ĠtÇİ ĠÄĽr
Ġ193 0ĠniÃ¡nĠ
shÃŃĠqÄ« ĠniÃ¡nĠ
ĠjiÄģ ĠrÃ¹Ġ
ĠfÃº ĠluÃ³ĠlÇĲĠdÃ¡
xiÄģngĠ xÃ¬nĠ
xÃ¬ĠtÇĴngĠ de
ĠkÇİo ĠshÃ¬Ġ
jÃ¹nĠ gÅįngĠ
ĠmiÃłnĠjÄ«Ġ 0
chÃ¨ ĠxiÄģo
ĠshÄģĠ hÃłiĠ
cÄģo ĠzuÃ²
ĠĠ ĠzhÃŃ
ĠyuÃ¨ ĠchÅ«
ĠshÃŃ ĠduÃłnĠ
ĠyÃ¬Ġ mÃŃngĠ
hÃ¡ngĠ zhÃłnĠ
ĠdÄģngĠ dÃłiĠ
ĠnÇļ ĠwÃ¡ngĠ
ĠqÃŃĠzhÅįngĠ yÃŃĠgÃ¨
liÃº ĠzÃłiĠ
ĠtÃº ĠjÄ«ngĠ
ĠtiÄĽ ĠdÃłoĠ
zhÅįngĠgÃ²ngĠ zhÅįngĠyÄģngĠ
Ġl Çİ
zhÅįngĠ wÃ¨iĠ
ĠyÃº ĠlÃ©iĠ
shÄĵngĠ mÃ¬ngĠ
jÃ¬ngĠ de
jÃ¬ngĠ xuÇİnĠ
bÃło ĠlÃ¬Ġ
ĠpÃŃnĠ dÃłoĠ
ĠxÄ«ĠnÃ¡nĠ bÃ¹
ĠfÇĴu ĠzÃ©
ĠdÃłnĠbÃ¡iĠ zhÃ¬Ġ
oog le
D S
f Ãł
ĠchÃ©ngĠ niÃ¡nĠ
ĠjiÃło ĠkÄĵ
ĠsÄģnĠ guÃ³
liÃłngĠ xiÃłngĠ
Ġ193 2ĠniÃ¡nĠ
ĠbÃ¬ngĠqiÄĽ ĠzÃłiĠ
ĠgÄĵnĠjÃ¹Ġ 2020ĠniÃ¡nĠmÄĽiĠguÃ³ĠrÃ©nĠkÇĴuĠpÇĶĠchÃ¡ĠdeĠshÃ¹ĠjÃ¹Ġ
ĠzhÃ¬Ġ yuÃ¡nĠ
hÃ¡ngĠ zhÅįu
kÄģiĠ gÅįngĠ
yÃ¬ngĠ de
ĠxÃŃngĠzhÃ¨ngĠ yuÃłnĠ
Ġ193 1ĠniÃ¡nĠ
re s
ĠshÃ¹nĠ shÃŃĠzhÄĵnĠ
ĠshÃ¬Ġ gÃ¹
ĠzhÇĶ ĠchÇİngĠ
ĠqÃŃngĠ xÃŃngĠ
yÃº Ġ202
bÃ¹ ĠbÃ¹ĠzhÇİngĠ
jiÃłnĠ shÃ¨Ġ
ĠzhÃłnĠ jÃ¬Ġ
ĠguÄģnĠ zhuÃłngĠbÃ¬ngĠdÃº
mÃŃnĠ guÃ³
zhÃŃ ĠzhÃ¨ngĠ
ĠbÄĽnĠ jiÃ¨
ĠjuÃ© ĠshÃ¬Ġ
zuÃ¬Ġ duÅį
ĠtÃºnĠ qÃŃ
ĠĠ ĠxiÇİo
Ġg Ã¹nĠ
le ĠtÄģĠde
ĠwÃ©iĠ zhÇĶ
ĠzhÃº ĠbÃ¹
ĠfÇİĠlÃ¡nĠ kÃ¨
w ÄĵngĠ
ĠzhÄ« ĠjiÄģĠgÄĵ
Ġ201 8
qiÃ¡ngĠ diÃło
Ġ191 2ĠniÃ¡nĠ
ĠĠ ĠjiÄģngĠ
de ĠgÇĶ
ĠzhÅįngĠ bÃ¹Ġ
ĠdÃ¬Ġ diĠ
ĠzhÄ« ĠyÃ¬Ġ
xÄ«nĠ jiÄģngĠ
ĠzhÃ¹ ĠlÇĲ
ĠluÃ³ ĠbÃ³ĠtÃ¨Ġ
zuÃ¬Ġ wÃ¨iĠ
fÄĵngĠ xiÇİnĠ
yÃło ĠwÃ¹
xÃ¬nĠ hÃło
ĠchÃ©ngĠ fÃ¨nĠ
Ġ4 3
juÃ© Ġde
zÇĴngĠ bÃ¹
ĠzÃ¬ĠyÃ³u Ġ
t Åįu
ĠĠĠ ÄģnĠ
ĠzÃłiĠ bÄģ
dÃł ĠzhÃłnĠ
ĠlÃ¹ ĠduÃłnĠ
Ġ3 ĠyuÃ¨Ġ
mÇİ ĠlÄģ
ĠzhuÄģnĠ yÃ²ngĠ
Ġ196 7ĠniÃ¡nĠ
ĠsÇĲ ĠxÃŃngĠ
1 1Ġ
w it
ĠĠ ĠzÇİoĠqÄ«
shÃŃ ĠyÃ²ngĠ
ĠyÄ« ĠtiÄģnĠ
ĠjÄ«ngĠ yÃ³u
ĠpÃ¨iĠ bÃ¨iĠ
ĠzhÃ²ngĠdiÇİnĠ wÃ©nĠwÃ¹ĠbÇİoĠhÃ¹ĠdÄģnĠwÃ¨iĠ
Ġs Äģo
Ġp Ã¡
jÃŃ ĠhÃ©
Ġ201 6
ĠmÃ³ ĠnÇĲ
biÄģo ĠzhÃ¬Ġ
ĠhuÃłnĠ zhÄĽ
ĠĠĠyÃ¡nĠ gÃ©Ġ
ĠkÃłngĠrÃ¬Ġ zhÃłnĠzhÄĵngĠ
4 00
shÃ¬Ġ nÃ¡nĠ
Ġ1 ĠlÃ¬Ġ
chÃ©ngĠ niÃ¡nĠ
hÃ¡ngĠ yÃ¨
ĠfÃº ĠdÃ©
19 00
ĠxiÃło ĠlÃ¬Ġ
chuÃ¡nĠ bÅį
ĠdÃłĠliÃłngĠ de
ĠbÃłngĠ qiÃº
ĠzuÇĴĠyÃ²u Ġ
g uÇĲĠ
ĠĠ ĠwÅ«ĠkÃ¨ĠlÃ¡nĠ
ĠshÃ¬Ġ yÄ«ngĠguÃ³
ĠzhÅįngĠ bÃ¨iĠ
hÃłnĠ yÇĶ
ĠxiÃłnĠ rÃ¹
ĠqÃŃ ĠfÃ¹
ĠxuÃ© Ġde
ĠsÄ« ĠlÄģ
ĠyuÃ¡nĠ ziĠ
ĠfÇİ ĠlÇľĠ
ĠyuÃłnĠ zhÇİngĠ
fÃ¹ ĠzÃ¡
ĠliÇİngĠ cÃ¨
Ġqi Å«Ġ
ĠxiÃło ĠguÇĴ
ĠliÃ¨ ĠrÃ¹
ĠhuÃŃ ĠyÃ¬Ġ
ĠT Ġ
Ġ196 1ĠniÃ¡nĠ
a x
zhÅįngĠ fÄģĠxiÃłnĠ
ĠmÃŃngĠ xÄ«ngĠ
jÄ«ngĠ yÃłnĠ
ĠluÃ³ ĠlÄģ
shÄĽngĠ deĠyÃŃĠgÃ¨ĠshÃ¬ĠzhÃ¨nĠ
tiÄģnĠ fÇĶ
ĠmÃ¡o ĠdÃ¹nĠ
ĠF Ġ
ĠzÃłnĠ shÃŃ
ĠdÃ²u Ġ
ĠĠ ĠmÄĽiĠ
shÃ¬Ġ wÃ¹Ġ
yuÃ¡nĠ sÃ¹
ĠdÃ© ĠÄĽr
zhÃ¨ngĠ shÃŃ
ĠtÃ³ngĠ wÃ¨iĠ
shÄĵngĠ zhÇİngĠ
ĠjiÃło ĠzÅįngĠ
ĠyÄĽ ĠkÄĽ
ĠshÇĲ ĠdÃ¬Ġ
wÃłiĠ lÃ¡ngĠ
tÅįngĠ xÃ¬nĠ
ĠqÃŃĠtÄģ Ġde
Ġni Ã¨Ġ
kÃłngĠ rÃ¬Ġ
ĠzhÃ¨ngĠxiÃ© ĠwÄĽiĠyuÃ¡nĠ
ĠĠ ĠtÄģĠde
ÄģiĠ ÄĽrĠ
ĠmÃŃngĠ jÇĶĠrÃ©nĠ
ĠzhÃłnĠ chÇİngĠ
dÃłiĠ yÇĴu
fÃ¹ ĠnÇļ
jiÇİngĠ xiÃłngĠ
ĠbÇİiĠ niÃ¡nĠ
Ġ192 7ĠniÃ¡nĠ
dÇĴngĠ shÃ¬ĠzhÇİngĠ
ĠshÃ¬Ġ xiÃłĠxiÃ¡ĠdeĠyÃŃĠgÃ¨
ĠrÃ¬Ġ chÃ¡ngĠ
chÃ©ngĠ zhÃ¨nĠ
gÅįngĠ yÃ¬Ġ
ĠxuÃ© ĠkÄĵ
shÃłngĠ xiÃł
ĠshÃ¨ ĠqÃºnĠ
shÄĵngĠ mÃŃngĠ
jiÄĵ ĠshÅįu
dÇİo Ġde
ĠrÃº ĠxiÃł
ĠyÇĲngĠ shÃ¬Ġ
ĠÃ¨r ĠniÃ¡nĠ
xiÅ« ĠjiÃłnĠ
ĠdÃ©ĠguÃ³ Ġ
ĠlÃ¡o ĠgÅįngĠ
ĠzuÃ¬ĠgÄģo Ġde
Ġz hÃ©Ġ
ĠwÃ¨iĠ yuÃ¡nĠ
ĠbÃ¹ ĠbiÃłnĠ
shÃŃ ĠbÄģ
shÃ¨ Ġde
ĠsÄģnĠ zhÇĴngĠ
yÄ«ngĠ xiÃ³ngĠ
pÃ¨iĠ bÃ¨iĠ
gÃ¨ngĠ wÃ©iĠ
yÅįu ĠshÃ¬Ġ
N BA
yÄ« ĠtiÃ¡o
dÃł ĠwÃ¨iĠ
dÃł ĠzhÃ²ngĠ
ĠmiÃłnĠ xiÃłngĠ
chÇİngĠ dÃ¬Ġ
ĠfÄĵngĠ wÃ¨iĠ
fÄĵngĠ wÃ¨iĠ
ĠqÇĲ ĠchÅ«
pÃ¨iĠ yÄ«nĠ
zhÇİnĠ lÇİnĠ
Ġde ĠgÃ¹ĠshÃ¬Ġ
ĠzÃłiĠ fÇİĠguÃ³
ĠyÇĲ ĠshÃłngĠde
ĠzhÄ« ĠfÃ¹
zhÄ« ĠshÃ¬Ġ
jiÄĵ ĠrÃ¨nĠ
ĠshuÇĲ ĠlÃ¬Ġ
eĠĠĠ B
es s
ĠzhÃŃĠyÃ¨ ĠshÄĵngĠyÃ¡
1 2ĠniÃ¡nĠ
m eĠ
ĠgÃ¨ ĠguÃ³ĠjiÄģ
ĠzhÄ« ĠshÃŃĠ
ĠdÃłnĠ shuÇĲ
ĠhuÃ² ĠÄĽr
Ġ5 3
liÃº ĠxiÃł
ĠshÅįu ĠjÃŃ
ĠsÅ« ĠdÃ¡
ĠdÃłngĠ ÃłnĠ
e e
u p
ĠĠ ĠfÄĵnĠlÃ¨iĠ
ĠfÇİ ĠyÇĶ
ĠyÄ«ngĠ lÇĲĠ
biÇİo ĠmÃŃngĠ
ĠcÃ¡iĠ pÃłnĠ
ĠE Ġ
ĠdÃ²u ĠzhÄĵngĠ
ĠÐ °
ĠrÃ©nĠkÇĴuĠmÃ¬ĠdÃ¹ĠmÄĽiĠpÃŃngĠfÄģngĠ gÅįngĠlÇĲ
yÃ¬Ġ wÃłiĠ
ĠyÃ³u ĠkÃ¨
xÃŃngĠ rÃ³ngĠ
duÃ¬Ġ fÄģngĠ
shÃ¨ ĠxiÃ¡nĠ
guÄģnĠ kÃłnĠ
bÃ¬Ġ yÃ¨
gÇİiĠ shÃłnĠ
Ġ17 Ġ
ĠjÃ¹Ġ hÃ©
ĠJ Ġ
ĠruÇİnĠ tiÃ¡o
hÃ© ĠbÃ¬ngĠwÃ¨iĠ
ĠshÃ¬Ġ xÄ«ngĠdÄĽngĠwÃ¨iĠ
ĠpÃŃngĠ jiÃ¨
ĠzhÇİngĠ zÇĲ
ĠnÃ¨iĠ zhÃ¨ngĠ
ĠsÃ¬Ġ dÃł
ĠshÄĵnĠ wÃ¨iĠ
ĠbiÄģnĠ jÃ¹Ġ
ĠshÄģngĠ chÇİngĠ
ĠwÃ¨iĠ mÃŃngĠ
ĠbÃ¹ ĠlÃ©iĠ
ĠdÃł ĠshÇĲĠ
ĠxiÃłnĠ yÇĴu
yÄ« ĠjiÄģ
ĠyuÃ¡nĠ shÇĲ
yÇĶ ĠmÃ¡oĠqiÃº
xiÃł Ġle
shÇĴu ĠxÃŃ
zhÇĲ ĠyÃº
fÃº ĠhÃ©
ĠyÇİnĠ jÄ«ngĠ
ĠjiÇİ ĠshÃ¨
ĠĠĠ200 2ĠniÃ¡nĠ
ĠtÇİnĠ kÃ¨
s hÃł
Ġj ÇĶĠ
ĠzhÅįngĠ xÃºnĠ
ĠdÃ© ĠlÃ¬Ġ
ĠjuÃ© ĠyÃº
ĠdÄģnĠ yÄ«
zhÃ²ngĠ diÇİnĠ
ĠzÇĴngĠ cÃ¡iĠ
jÃ¬ngĠ sÃłiĠ
cÃ¡iĠ liÃło
ation al
E N
zhÅįngĠ shÅ«
ĠbÄĽnĠ zuÃ²
ĠbÄģ ĠfÃ¡ĠlÃ¬ĠyÃł
nÃ¨iĠ ruÃ¬Ġ
tÃłiĠ guÃ³
ĠlÇĲĠ Ã¡ngĠ
ĠzÅįngĠ yÃ¬Ġ
ĠbÇĶ ĠchÅįngĠ
ĠdÃ© ĠyÃ¬ĠzhÃ¬Ġ
qÃŃ ĠbÄ«ngĠ
tÃ¡iĠ fÄĵngĠ
kÃ¨ ĠluÃ³
ĠsÃ¹ ĠdÃ¹Ġ
ĠlÃŃngĠ hÃºnĠ
ĠĠĠ202 1
ĠtiÄģnĠwÃ©nĠ tÃ¡iĠ
de ĠdiÃłnĠ
ĠzhÅįngĠguÃ³ ĠrÃ©nĠmÃŃnĠ
ĠqÄ«nĠ zÃ¬Ġ
ĠzhÄĵngĠ qÇĶ
ĠcÅ«nĠ luÃ²Ġ
ĠxÃºnĠ qiÃº
Ġ196 3ĠniÃ¡nĠ
ĠzuÇĴ ĠyÃ¬Ġ
nÃ³ngĠ mÃŃnĠ
i dĠ
Äģ ĠgÄĵnĠtÃŃngĠ
ĠzÃłiĠ jÄ«nĠ
ĠzhÃ¨ ĠbÃ¹
ĠhÃ²u ĠyÃº
ĠfÃº ĠlÃ¡nĠ
ĠqÅ« ĠshÃ¬Ġ
18 Ġ
Ġ196 9ĠniÃ¡nĠ
ÅįuĠzhÅįu Ġ
xiÄģo ĠliÃłngĠ
K B
ĠjiÃłnĠ shÃ¬Ġ
li ÇİnĠ
wÃ¹ Ġde
biÇİo ĠmiÃłnĠ
or k
liÃº ĠchuÃ¡nĠ
Ġ11 0
ĠchÃ©ngĠlÃ¬Ġ hÃ²uĠ
ĠzÃºĠqiÃº ĠyÃ¹nĠdÃ²ngĠyuÃ¡nĠ
shÃło ĠnÇļ
ĠpÃŃnĠ lÇľ
bÄĽiĠjÄ«ngĠ shÃ¬Ġ
hÃ© ĠshÃłngĠ
ĠĠĠ Ãło
ĠyÃ¬Ġ bÇİiĠ
ĠqÃŃ ĠhÃ²uĠ
ĠwÃ©iĠ duÅįĠlÃ¬ĠyÃł
shÃłngĠ shÅ«
ĠjÃ¹ ĠlÃŃĠ
ĠjiÄĵ ĠzhÃ¹
ĠliÇİngĠ gÃ¨Ġ
er t
ĠshÄģ ĠtiÃ¡nĠ
ĠgÃ²ngĠchÇİnĠ zhÇĶĠyÃ¬Ġ
ter n
ĠzhÅįngĠshÃ¬Ġ jÃ¬Ġ
ĠhÄĵiĠlÃ³ngĠjiÄģngĠ shÄĽngĠ
l Ã²u
ĠĠ ĠkÄĵ
ĠzhÅįngĠ duÃ¬Ġ
ĠyÄ« ĠbÃ¹ĠfÃ¨nĠ
ĠbÃ¬ngĠ xiÃłngĠ
ĠdÃłnĠ mÃ©iĠyÇĴu
ĠcÃ³ngĠ wÃ¨iĠ
qÄ«ngĠ xiÃłngĠ
ĠjÃ¬ngĠ jÃ¬Ġ
ĠtÃ³u ĠxiÃ¡nĠ
lÇļ Ġ
de ĠshÃ¨ngĠ
ĠshÃŃ ĠwÃ¨iĠ
ĠshÄĵngĠ jÄ«
xÃ¬Ġ liÃ¨Ġ
Ġ15 5
tÅ« ĠpÃ²
4 ĠgÃ¨
de ĠchÃ©ngĠyuÃ¡nĠ
Ġde ĠshÃŃĠjiÄģnĠ
ĠdÃ¬Ġ yÄ«Ġ
ĠdÃł ĠdÃ¬Ġ
ĠlÄģ ĠÄĽr
bÃ¬ngĠ shÃ¬Ġ
biÄģnĠ hÃłoĠwÃ¨iĠ
ĠqÃŃĠzhÅįngĠ yÇĴu
ĠbÇİo ĠxiÇİnĠ
ĠxÃŃ ĠguÃłnĠ
ĠdÅ« ĠhuÃ¬Ġ
ĠgÇİnĠ lÇİnĠ
Ġ192 9ĠniÃ¡nĠ
de ĠwÃłiĠ
ĠxiÃłnĠ lÃ¹Ġ
chÃ©ngĠ kÃ¨
ĠjiÄģ ĠyÃ¬Ġ
ĠpÃŃngĠ guÇĴ
gÃ¨ ĠzÃ¬Ġ
ĠhÇİiĠ xiÃ¡
guÃ² ĠdÃ¹
zhÇĲ ĠdÃ¬ngĠ
ĠxuÇİnĠ qÅ«Ġ
Ġ6 00
dÇİ ĠsuÃłnĠ
ĠshÃ¬ĠshÃŃ ĠshÃłngĠ
ĠjiÄģĠlÃ¬ĠfÃº ĠnÃŃĠyÃłĠzhÅįu
Ġde ĠguÄģnĠxÃ¬Ġ
yÃº ĠrÃ©nĠ
ĠbÄĽnĠ mÃŃngĠ
ĠwÄĵiĠ lÃ¬Ġ
eĠĠĠ A
ĠshÅįu ĠfÃ¨iĠ
ĠlÇİngĠ dÃ©
Ġ193 4ĠniÃ¡nĠ
ĠxÇĲ ĠjÃ¹
ĠzÃłiĠnÃł ĠlÇĲ
p Ã³
ĠyÇĶ ĠyÄ«nĠ
jiÄģo ĠhuÃłnĠ
gÇĶ ĠdÃłiĠ
lÇĲngĠ yÃ¹
pÃ¨iĠ zhÃ¬Ġ
dÃ¬ĠyÄ« ĠwÃ¨iĠ
ĠgÄģnĠ sÃ¹
d uÇĴ
ĠĠ ĠguÃ³ĠjÃ¬Ġ
de ĠzhÃŃ
wÃ©iĠ fÇİnĠ
jiÄģ ĠqiÃ¡ngĠ
ĠxÄ« ĠbÃ³
ĠdÃłnĠ tÄģĠmenĠ
ĠlÃ¡iĠ yÄ«nĠ
lÃ¡iĠ yÄ«nĠ
dÅįngĠ nÃŃĠ
shÄģnĠ shÃ¬Ġ
zhÃ²ngĠ dÃł
ĠzhÇİnĠ xiÃłnĠ
ĠzÃłnĠ zhÃ¹
ĠshÃŃĠqÄ« Ġde
ĠgÄģoĠsÃ¹ ĠgÅįngĠlÃ¹
pÃ¡iĠmÃŃngĠ dÃ¬Ġ
l o
Ġb Ä«
jÃ¬Ġ wÃ¨iĠ
ĠtÃ³ngĠ pÃ¡iĠ
ĠguÄģnĠ cÃ¨
jÃ¬nĠ jÃŃ
zÃ¬Ġ shÄĵnĠ
mÃŃnĠ jiÄģnĠ
hÃ¡iĠ zÃłiĠ
ĠtuÄ« ĠjiÃłnĠ
ĠĠĠ18 9
gÃ©ĠmÃ¬ngĠ jÅ«nĠ
ĠsuÇĴ Ġde
suÇĴ ĠwÃ¨iĠ
ĠxuÇİnĠ wÃ¨iĠ
ĠwÃ¨iĠyÃº ĠyÃŃnĠ
ĠkÇİ ĠÄĽrĠ
ĠĠĠ201 8
liÇİngĠ niÃ¡nĠ
ĠxiÅ« ĠdÃłoĠyuÃłnĠ
Ġ17 0
ĠH R
ĠdÃ¬Ġ mÃŃngĠ
ĠyÃ³u ĠjÃº
ĠxiÄģngĠ bÇĲ
dÃ© ĠdÃłoĠle
ĠjiÃ¹ ĠyuÃ¡nĠ
tÃŃ ĠdÃło
biÄģnĠ jÃŃ
ar y
ĠgÇİngĠ kÇĴu
yÄ«nĠyuÃ¨ Ġ
shÃŃĠjÃ¬Ġ shÃłngĠ
r ou
de ĠjÃŃ
ĠjÃ¬nĠ rÃ¹Ġ
deĠ M
Ġ4 9
ĠtÃº ĠshÄģ
sÅ« ĠlÇĲ
xÃºnĠ huÃ¡nĠ
ĠmiÃ¡o ĠhuÃ¬Ġ
gÅ« ĠjÃ¬Ġ
g uÃłiĠ
de ĠzhÃ¬Ġ
ĠjÃ¬nĠ chÃ©ngĠ
ĠdÅįngĠ bÃ¹Ġ
jiÄģngĠ zÃłiĠ
ĠtÃº ĠjÃ¬ngĠ
chÃ³u Ġ
k Å«
ĠzÃłiĠ nÃ¨iĠ
yuÃ¡nĠ ziĠ
ĠxuÃ© ĠwÃ¨iĠ
ĠmÄĽiĠguÃ³ ĠhÇİiĠjÅ«nĠ
ĠÄģnĠ pÃ¡iĠ
ĠlÃ¹ĠyÃ¬Ġ sÄ«Ġ
1 5ĠniÃ¡nĠ
ĠshÃ¬Ġ cÃ³ngĠ
shÃ¬Ġ jiÃ¨Ġ
hÃ¡ngĠ xÃŃngĠ
zhÃ¨ngĠ biÃłnĠ
ĠxiÃł ĠxÃºnĠ
ĠlÃºnĠ duÅį
ĠĠĠS p
chÅįngĠ tÅ«
dÃłngĠ tiÄģnĠ
shÃłngĠhÇİiĠ shÃ¬Ġ
ĠĠĠniÃ¡nĠ ĠĠ
guÃ³ĠmÃŃnĠ dÇİngĠ
hÃ©ĠnÃ¡nĠ shÄĽngĠ
ĠshÃ¬Ġ duÃ¬Ġ
shÃ¬Ġ bÃ¹
ĠyÇĲ ĠdÅįngĠ
zhÄ« ĠyÃ¬Ġ
ĠqÅ« ĠzhÃºĠjiÃłnĠ
ĠxiÃło ĠyÃ¬ngĠ
chÄĵ Ġde
ĠbÃłnĠ niÃ¡nĠ
ĠjÃ¬ngĠ sÃłiĠ
ĠshÅ« ĠchÅ«
ĠwÃ¡nĠ gÅįngĠ
ĠdÃŃ ĠshÃ¬ĠnÃŃ
jÇĲnĠ jÃŃ
pÃłiĠ chÅ«
ĠdÇĲ ĠzhÃ¬Ġ
ĠjÃŃĠtuÃ¡nĠ jÅ«nĠ
ĠĠĠjiÇİnĠ lÃ¬Ġ
ĠĠ ĠyÃ¬Ġ
Ġp Ã¬Ġ
ĠdÃł ĠduÃ¬Ġ
ĠzhÃ¨ ĠliÇİngĠgÃ¨
ĠlÃŃ ĠziĠ
ĠchuÃ¡nĠ mÃ©iĠ
zÃº Ġde
ĠĠĠ201 6
ĠĠĠ200 1ĠniÃ¡nĠ
ĠshÃło ĠnÇļ
jÃŃĠxÃŃngĠzhÃ¨ngĠ dÄģnĠwÃ¨iĠ
ĠĠ ĠzhÄĵngĠyÃ¬Ġ
Ġp iÄģo
ĠĠĠ Y
ĠzhÅįngĠ duÃłnĠ
ĠshÃŃ ĠjiÃłnĠ
ĠjiÄģngĠ nÃ¡nĠ
ĠshÃ¬ĠjÃ¬Ġ de
gÃło ĠsÃ¹
Ġy ÄģngĠ
ĠĠ ĠpÇĶ
ĠyÄ« ĠlÃłiĠ
xÄ« Ġde
ĠgÄĵ ĠgÄĵ
ĠdÃłnĠshÃ¬Ġ zÃłiĠ
ĠzhuÃłngĠ jÄ«
ruÇİnĠ jiÃłnĠ
sp anĠ
E T
Ġb Ã¡o
ÄĵnĠ lÃ¡iĠ
zhÃ¬Ġ 198
ĠjÃ¹ ĠdÃłĠde
Ġ5 2
ĠS AO
ĠÃłiĠ lÃ¬Ġ
mÇĶ ĠjiÃłnĠ
ĠxÃ¬ĠliÃ¨ Ġde
kuÃ² ĠzhÇİnĠ
chÃ¬Ġ jÄ«ngĠ
luÃ³ĠmÇİ ĠdÃ¬ĠguÃ³
ĠshÇĲĠmÃ¬Ġ sÄ«
ĠĠ ĠjÄ«ngĠlÃ¬Ġ
Ġ1 30
ĠyÄ« ĠduÃłnĠ
ĠbÃ¬ngĠ chÃ©ngĠwÃ©iĠ
zhÃ¹ ĠyÃº
ĠyÃŃnĠ wÄĽiĠ
zhÄĽngĠ tÇĲ
wÄĽiĠyuÃ¡nĠhuÃ¬Ġ wÄĽiĠyuÃ¡nĠ
ĠxiÃłnĠshÃŃ ĠyÃ³u
Ġn Ã¹
Ġm a
ĠshÃ¬Ġ yÃ¬ngĠ
zhÅįngĠ jiÄģnĠ
ĠqÃŃ ĠB
ĠshÃ¨ ĠjiÄģo
quÃ¡nĠ xiÃłnĠ
qÄ« Ġde
hÃ¡nĠ gÃłiĠ
ĠxuÇİnĠ jÇĶĠ
ĠchÃ¡ngĠ chÃ¡ngĠ
ĠshÄģngĠ hÃłiĠ
Ġ15 4
biÃ© Ġ
Ġ000 ĠmÃŃngĠ
tÃ¡iĠbÄĽiĠ shÃ¬Ġ
ĠbÃ¬ĠyÃ¨Ġ hÃ²u
ĠbÃ¹ ĠlÃ¡nĠ
huÃł ĠfÄĵnĠ
bÄĽiĠ bÃ¹Ġ
ĠgÄĵnĠ bÄĽnĠ
nÃł ĠlÇĲ
ĠlÃ³ngĠ cÇİo
ĠxÄ«ngĠ xÃ¬Ġ
Ġ16 8
ou s
J Ġ
zÃłiĠ jiÄģ
ĠguÃ³ ĠdÃło
ĠjÄ« ĠdÃ²ngĠ
dÅįu ĠzÃłiĠ
zhÅįngĠguÃ³ Ġ
xiÃ© ĠdÃ¬ngĠ
lÇĲngĠdÇİo ĠrÃ©nĠ
ĠĠ ĠdÃłnĠ
Ġm iÃłoĠ
Ġk ÇİoĠ
ĠĠĠ 6Ġ
ĠrÃ©nĠ qÃ¬Ġ
zhÃ¬Ġ chÃ©ngĠ
wÃ©nĠ xiÃłnĠ
jÃ¬ngĠ wÃłiĠ
ĠzhÄģngĠ zhuÄģnĠjÃŃĠ
zÄ« ĠchÇİnĠ
ĠqiÃ¡ngĠ dÃ¹
ĠnuÃ² ĠfÅ«
yÃ¹nĠdÃ²ngĠ huÃ¬Ġ
ĠqÄ«ngĠchÃ¡o ĠzhÃ¨ngĠzhÃ¬ĠrÃ©nĠwÃ¹Ġ
zÅ« ĠjiÃ¨
0 ĠzuÃ²ĠbiÄģoĠwÃ¨iĠ
6 ĠmÇĲĠ
m Äģ
ÃłiĠ guÃ³
de ĠzÇĴngĠ
ĠjÃ¬Ġ sÃ¬Ġ
ĠyuÃ¡nĠ sÃ¹Ġ
ĠzhÇĶ ĠguÇİnĠ
ĠxiÄģngĠ bÇĲĠ
ĠrÃ¹ ĠkÇĴu
ĠhÃło ĠyuÃ¨ĠtÃ¡iĠ
xiÇİo ĠxuÃ©Ġ
ĠfÃ¡ngĠ jiÄģnĠ
xiÄģo ĠfÃ¨iĠ
ĠdiÃłnĠshÃ¬Ġ jÃ¹
guÃ³ĠjÃ¬Ġ jÄ«ĠchÇİngĠ
ĠwÃ¨iĠyÃºĠyÃŃnĠ jÄ«ngĠ
ĠqÃŃĠB 1900
0ĠzuÃ²ĠbiÄģoĠwÃ¨iĠ chÃ¬ĠjÄ«ngĠ
s Å«Ġ
ÄģnĠ xiÃłnĠ
hÃ¨ nĠ
Ġch uÃ²
bÃ¹ ĠbÄ«ngĠ
ĠyÃ¬Ġ yuÃłnĠ
ĠjiÄģ ĠhÃ©
ï¼ İ
bÇĲĠsÃłiĠ zhÅįngĠ
hÃ© ĠdÃł
Ġk uÄģ
jÅ«nĠ wÄĽiĠ
ĠmÄĽiĠ cÃ¬Ġ
ĠfÇİ ĠlÃ¬ngĠ
ĠkÄĽ ĠdÃ¡
ĠlÃ¡nĠ sÃ¨
yÄ«nĠ sÃ¹Ġ
ĠyuÃłnĠ yÃ¬Ġ
ĠwÇĶ ĠdÃ©
ri s
guÇİngĠdÅįngĠ shÄĽngĠ
p ÃŃĠ
Ġx Ġ
zh Äĵ
ĠyÄ« ĠxiÃłngĠ
ĠchÃ©ngĠ bÇİo
ĠdÃłnĠ wÃ¨iĠ
ĠkÃ¨ ĠsÄ«Ġ
ĠzhÅįu ĠqÄ«
bÄĽnĠ dÃ¬Ġ
ĠjiÃło ĠqÅ«
yÄ«nĠ sÃ¹
shÇĴu ĠgÃ¨
ĠtÃŃ ĠchÅ«Ġle
ĠcÃ¡iĠ wÃ¹
ĠkÇĴu ĠjÃ¬ngĠ
jiÃł ĠzhÃŃ
ĠzhÃº Ġ
ĠchuÃłngĠshÇĲ ĠrÃ©nĠ
Ġd uÃ²
ĠdÃłnĠ bÃ¨iĠ
ĠfÃº ĠhuÃł
ĠshÄģnĠ dÃ¬Ġ
ĠlÇľ ĠsÃ¨
jiÇİ Ġ
om m
Äģ ĠlÄģ
Ġz Ã¡Ġ
Ġg ÇİoĠ
ĠĠĠ 3Ġ
ĠdÃ¬Ġ jiÇĶ
zhÃ¬Ġ yÃº
ĠduÃ¬Ġ tÄģ
ĠlÃ¡iĠ shuÅįĠ
ĠmÇİ ĠÄĵnĠshÄĽngĠ
ĠbÄĽiĠ hÇİiĠdÃło
ĠchÃ¡ngĠ jiÃłnĠ
jiÃ¹ ĠyuÃ¡nĠ
ĠsÃ¨ ĠcÇİiĠ
ĠlÇĲngĠ dÇİoĠ
Ġ14 9
ĠpÃ©ngĠ yÇĴuĠ
ĠdÃºĠlÃ¬Ġ de
ĠĠĠchÄĵĠzhÃłnĠ gÃ²uĠzÃłoĠ
de ĠquÃ¡nĠ
ĠshÃ¬Ġ yÃ¬nĠdÃ¹
ĠyÇĶ ĠzhÄ«
bÃ¨iĠ pÃłnĠ
ĠfÄĵnĠ lÃŃ
jiÃł ĠshÇĲ
huÃłnĠ zhÄĽ
xiÄģo ĠshÃ²u
ĠxuÇİnĠzÃ© Ġ
1 2Ġ
l an
Ġl uÃ¡nĠ
wÃ¨iĠ jÅ«nĠ
ĠjÃŃ ĠhÃ²u
zhÄ« ĠfÃ¹
dÃłiĠ lÇĲ
ĠcÃ¬Ġ liÃ¨ĠchÄĵ
ĠkuÃ² ĠjiÃłnĠ
dÅįu ĠbÃ¨iĠ
zÄģo ĠshÃ²u
h Ġ
s k
Ġ ÇĴu
Ġf ÄĽngĠ
zhÅįngĠ yÃº
ĠgÅįngĠ diÃłnĠ
huÃ¡ ĠrÃ©nĠ
yÃ¹ ĠwÃ©iĠ
ĠlÃ¬ngĠ yÄ«ĠzhÇĴngĠ
ĠyÇİnĠ huÃł
ĠyÄ«nĠcÇĲ ĠzÃłiĠ
ĠyÇĴngĠ jiÇĶ
ĠduÇİnĠ zÃłnĠ
ĠzhuÄ«ĠsÃ¹ ĠdÃło
5 ĠgÅįngĠlÇĲĠ
a di
Ġc ÇİnĠ
ch o
ĠgÅįngĠ jiÄģo
ĠdÃł ĠzÃ¬Ġ
ĠxÄ«nĠ jiÃłnĠ
ĠbÄĽnĠ dÃ¬ĠqÅ«
wÄĽiĠ chÃ¡ngĠwÄĽiĠ
ĠbÅį ĠyÄ«nĠ
nÃŃ ĠsÅ«ĠdÃ¡
ĠcÃŃ ĠhuÃ¬Ġ
ĠA r
ĠhÄĵiĠ rÃ©nĠ
ĠshÃ²uĠ hÃłiĠ
ĠpÃłnĠ luÃłnĠ
ĠluÃ³ĠmÇİ ĠnÃŃĠyÃł
d ÇİnĠ
ĠĠ ĠzhÅįngĠhuÃ¡ĠrÃ©nĠmÃŃnĠgÃ²ngĠhÃ©ĠguÃ³
ĠshÃ¬Ġ bÄģ
ĠbÃ¹ ĠlÃ¬Ġ
ĠyÄ« ĠsÄ«
ĠyuÃ¡nĠ chÃ¡o
ĠshÇĴu ĠwÃ¨iĠ
ĠhÃło Ġde
ĠjiÃł ĠzhÃŃĠ
ĠmÃ©ngĠ jÅ«nĠ
tiÃ¡nĠ jÃ¬ngĠ
shÃ¹nĠ lÃ¬Ġ
ĠĠ ĠshuÇĲ
ĠqÃŃ ĠzhÃ¬Ġ
yÇĶ ĠhÃ©
guÄģnĠ diÇİnĠ
ĠyÃło ĠwÃ¹
ĠbÄģ ĠmÇİ
ĠgÇİiĠ mÃŃngĠ
ĠÄģ ĠgÄĵnĠtÃŃngĠ
ĠgÃ¨ngĠ shÃ¬Ġ
xÃºnĠ huÃŃ
ĠzhÃ¬ĠliÃ¡o Ġ
fÄĵnĠbÃ¹ ĠyÃº
ĠxiÄģngĠzhÃ¨nĠ jÃŃĠxÃŃngĠzhÃ¨ngĠdÄģnĠwÃ¨iĠ
shÃ¬Ġ pÃŃnĠ
ĠxÄ« ĠshÃ¬Ġ
xÄ« ĠzÃłngĠ
niÃ¡nĠ lÃŃngĠ
ĠshÇĴu ĠjÄ«
kÃ¨ ĠlÃŃnĠ
ĠbiÃłnĠ huÃłnĠ
ĠtiÃ¡nĠ jÃ¬ngĠ
ĠchÅįngĠ fÃ¨nĠ
ĠyÃ© Ġ
ĠnÃłnĠ mÃŃnĠ
de ĠzuÃ¬Ġ
Ġde ĠxÃŃngĠshÃ¬Ġ
Ġk ÄĽnĠdÃ¬ngĠ
yuÃ¡nĠ yÃº
ĠdÃł ĠlÃŃnĠ
mÄĽiĠ jÅ«nĠ
ĠtÃŃ ĠqÃŃnĠ
mÃ¹ ĠsÄ«ĠlÃŃnĠ
ĠtÇĲ ĠzhÃ¬Ġ
ĠyÃ¡ngĠ shÃ¬Ġ
chÃ©ngĠlÃ¬Ġ yÃº
Ġr Çİo
ÄĽr ĠtÃ¨
ĠzhÃ¬Ġ 199
ĠzhÄ« ĠfÇĶĠ
jÄ« ĠfÄĵnĠ
shÄģnĠ qÅ«
mÇİ ĠtÃ³u
ĠtiÃ¡o ĠwÃ©nĠ
zÇĴngĠ shÅ«ĠjÃ¬Ġ
ĠshÇĲĠyÃ²ngĠ zhÄĽ
gÄĵ ĠshÇĴuĠ
am Ġ
ĠhÃº ĠbÄĽiĠ
yÇĲĠ hÃ²u
qÃ¬ngĠ zhÃ¹
ĠxiÃłnĠdeĠyÃŃĠgÃ¨ ĠfÄĵiĠjiÃłnĠzhÃ¬ĠdÃ¬ĠqÅ«Ġ
guÄģnĠfÃ¨iĠyÃ¡nĠ quÃ¨ĠzhÄĽnĠbÃ¬ngĠlÃ¬Ġ
I V
Ġx ÇĶĠ
Ġde ĠyÄ«nĠyuÃ¨
jÃŃ ĠlÃŃnĠ
ĠmÇİ ĠkÃ¨ĠsÄ«
ĠyÄĽ ĠmÃ©iĠyÇĴu
nÃ¡nĠ bÃ¹Ġ
zhÅįu ĠcÃ¬ĠshÇĲĠ
ĠwÃ¹ ĠpÇĲnĠ
ĠdeĠ hÃº
ĠnÃ¨iĠ mÃ©ngĠgÇĶ
ĠliÇİngĠ ÃłnĠ
ĠchÇİngĠ dÃ¬Ġ
ĠwÄĵiĠ yÃŃ
ĠhuÃ¡ngĠ hÃ²u
Ġn Ã¨Ġ
ĠyuÃ¡nĠ dÃ¬ngĠ
yÇĶ ĠzhÅįngĠ
shÃłngĠ wÇĶ
ĠzhÃŃ ĠdÇİoĠ
ĠgÄģiĠ jÃ¹
mÇİ ĠÄĽr
hÃ¡nĠ shÃ¹Ġ
er v
ĠmÇĲĠ ÄĽrĠ
ĠguÃ³ĠfÃ¡ngĠ bÃ¹
ĠbÃłnĠshÃ¬Ġ chÃ¹Ġ
t Å«nĠ
ĠĠ ĠsÄ«
ĠlÇĲ ĠjiÄĽ
mÃŃngĠ shÃ¬Ġ
deĠ hÃ³ngĠ
ĠfÄģngĠ chÃ©ngĠshÃ¬Ġ
ĠtÃŃ ĠdÃło
wÇĶ ĠdÃ¬Ġ
ĠxuÇİnĠ mÃŃnĠ
Ġ4 4
ĠcÄģnĠ jiÄģĠ
ĠzhuÇİnĠ rÃ¨nĠ
dÃ¹Ġ hÃ©
ĠyÇĲngĠxiÇİngĠ lÃ¬Ġ
suÃŃ ĠjÃŃ
ĠzÃłiĠ19 5
gÄĽiĠ le
ĠzÃºĠqiÃº ĠliÃ¡nĠsÃłiĠ
ĠnÃ¡nĠjÃŃ ĠtiÃ¡oĠyuÄĵ
ĠgÄĽnĠ dÃ¬Ġ
² Ġ
Ã© ĠluÃ³ĠsÄ«Ġ
Ġm Ã¡iĠ
ĠlÇĲ ĠsÄ«Ġ
ĠzhÇĶ ĠdÃ²ngĠ
ĠbÄĽnĠ shÅ«
ĠgÃ© ĠshÃ¬Ġ
tÃ³ngĠ mÃ©ngĠ
Ġ5 9
ĠĠĠ201 7
ĠqiÄģnĠ zhÃ¬Ġ
pÇĶ ĠzhÃłiĠ
ĠjÅ« ĠzhÃ¹ĠzÃłiĠ
ĠpÃł ĠÄĽr
chÃ¨ ĠtuÃ¬Ġ
Ġ191 8ĠniÃ¡nĠ
ĠchÅ«ĠxiÃłnĠ le
u k
zÃłiĠ zhÃ¨
rÃ©nĠ gÅįngĠ
ĠxuÃ© ĠshÃ¬Ġ
ĠjiÄģnĠ de
ĠjÃ¬nĠ dÃłiĠ
ĠzÃ¬Ġ cÇĲ
yÃ¡nĠ zhÃ¬Ġ
dÄģnĠ mÃłiĠ
tÃŃ ĠgÄģo
nÃł ĠxiÄĵ
tuÅį Ġ
ĠyÃºnĠnÃ¡nĠ shÄĽngĠ
m iÇİo
ĠÄĽr ĠfÅ«
xÃ¬Ġ jÃ¹
in eĠ
ĠfÃ¹ĠqÄ«nĠ shÃ¬Ġ
ĠsuÅį ĠxiÄĽĠ
ĠĠ ĠdiÃłnĠyÇĲngĠ
Ġg Å«Ġ
de ĠchuÃ¡nĠ
de ĠbÃ¹ĠfÃ¨nĠ
de ĠjuÃ©ĠduÃ¬Ġ
ĠdÃ¬Ġ 4
ĠxÄ« ĠlÃŃnĠ
ĠlÇĲ ĠkÃ¨
ĠyÃ¡nĠ sÃ¨
ĠliÃº ĠjÄ«ngĠ
ĠjiÃ¹ ĠxiÃłngĠ
ĠhuÃŃ ĠguÄ«
Ġ192 4ĠniÃ¡nĠ
ĠqÃŃngĠkuÃłngĠ xiÃłĠ
ĠgÄĵngĠ huÃłnĠ
Ġ190 9ĠniÃ¡nĠ
zÃºĠqiÃº ĠyÃ¹nĠdÃ²ngĠyuÃ¡nĠ
liÇİo ĠjiÄĽ
ĠguÄģnĠzhuÃłngĠbÃ¬ngĠdÃº ĠbÃ¬ngĠ
p ÄģngĠ
Ġ ë
ĠĠ ĠtÃ¡ngĠ
ĠĠ ĠzhÃ¨Ġge
Ġxi Äģ
ĠyÇĶ ĠwÃ©nĠ
ĠxÃŃngĠ shÇĲ
ĠxiÄģngĠ cÅ«nĠ
ĠlÄģ ĠmÇĶ
ĠjiÃło ĠshÄ«Ġ
jÃ¬nĠ rÃ¹Ġ
ĠyÃ¹ ĠcÃ¨
ĠshÄ« ĠzhÇİngĠ
shÄĵnĠ tÇĲ
nÃł ĠrÃ¹
ĠhÄģ ĠsÃłĠkÃ¨
it y
ĠĠ ĠqÃ¬Ġ
ĠĠ ĠxiÄģngĠguÄģnĠ
ĠzÃłiĠ qiÃ¡nĠ
ĠjÃ¬Ġ rÃ¨nĠ
ĠhuÃ¬Ġ yÇĴu
Ġle ĠduÃ¬Ġ
ĠrÃ¨nĠ nÃ¨iĠ
shÄĵngĠ yÃ¡
ĠshÇĲ ĠzhÅįngĠ
ĠzÄ« ĠshÄĽngĠ
yÄ«ngĠ bÃłngĠ
ĠwÄĵiĠ ruÇİnĠ
cÄģnĠ tÄ«ngĠ
ĠguÃ³ĠjiÄģ ĠgÅįngĠyuÃ¡nĠ
tÃŃngĠ yÃ¹nĠ
ĠdeĠyÄ« ĠxiÄĵ
ĠpÄ« ĠpÃłnĠ
2 ĠgÃ¨
a f
de ĠmÄĽiĠguÃ³
ĠbÃ¹ ĠshÃ¬Ġ
jÃŃ ĠjiÄģngĠ
ĠrÃ¨nĠ tiÄģnĠtÃ¡ngĠ
ĠduÅį ĠxiÃłngĠ
zhÃ¹ ĠyÃ¬Ġ
ĠliÃ¡nĠ duÃ¬Ġ
ĠhÃ²u ĠyÃ²u
ĠbÄĽnĠ kÄĵ
ĠshÇĲ ĠtÄģ
zhÃ²ngĠ yÃłoĠ
fÃº Ġde
ĠmÃ³ ĠÄĽr
shÄģ ĠsÇĲ
en d
ĠkÄģiĠshÇĲ ĠzÃłiĠ
Ġni ÇĶĠ
ĠtÅįngĠchÃ¡ngĠ shÃ¬Ġ
ĠmÃŃnĠzÃº ĠzhÇĶĠyÃ¬Ġ
ĠgÄģiĠcÅ«nĠ shÇĲĠjiÃłnĠyÃº
li c
zhÃ¨ ĠshÃ¬Ġ
ĠhÃ²u ĠwÃ¨iĠ
biÃłnĠ huÃł
ĠxÃ¬nĠ rÃ¨nĠ
ĠyÃ¡nĠjiÅ« ĠshÄĵngĠ
Ġãĥ ³
ĠshÃ¬ĠwÃ¨iĠyÃºĠmÄĽiĠguÃ³ ĠmÃ¬Ġ
ĠnÃ¡nĠjÃŃĠtiÃ¡oĠyuÄĵ ĠtÇĲĠxÃ¬Ġ
t Ã¨ĠÄĽr
ĠjÃŃ ĠbiÃ©
yÄ« ĠchÃ¡ngĠ
yÃ¬Ġ zhÃ¬Ġ
ĠdÃłnĠ shÄĵngĠ
duÃ¬Ġ wÇĶ
ĠhÃ²u ĠyÄ«nĠ
ĠdÅįngĠ yÃł
ĠcÇĲ ĠlÃ¨iĠ
zhÃ²ngĠ de
ĠgÄĵ ĠchÃłngĠ
ĠpÇĶ ĠlÃŃnĠ
ĠdiÇİnĠ de
ĠwÅ« ĠdÇĲngĠ
Ġ16 6
ĠdÇİ ĠpÃ²
ĠguÃ³ĠjÃ¬Ġ jÄ«ĠchÇİngĠ
ĠbÄģo ĠwÃ©iĠ
ĠcuÃ² ĠshÄ«Ġ
luÃ³ĠmÇİ ĠnÃŃĠyÃł
C D
Ġs Ġ
ĠĠ ĠcÄģnĠkÇİo
ĠzÃłiĠ bÃ¨iĠ
ĠbÃ¹ ĠzhÃ¨ngĠ
zÃłiĠ gÄģiĠ
zhÅįngĠ zuÃ¬Ġ
lÃ¬Ġ yÃ¬Ġ
ĠzhÃ¨ ĠliÇİngĠ
xiÃłnĠ rÃ¹
dÄĽngĠ zhÃŃĠ
zÇĶ ĠhÃ©Ġ
Ġ5 6
ĠfÃ¨iĠ chÃº
ĠfÄģngĠmiÃłnĠ de
ĠbÃł Ġ
1 8ĠniÃ¡nĠ
2 ĠmÇĲĠ
ĠĠ ĠmÃ¹
ĠĠ ĠshÃ¨ĠhuÃ¬Ġ
ĠwÃ¨iĠ jiÃłnĠ
tÄģ ĠshÃ¬Ġ
ĠkÄĵ ĠxiÇİoĠxÃŃngĠxÄ«ngĠ
ĠqÄ«ngĠ xiÃłngĠ
ĠrÃ©nĠmÃŃnĠ fÇİĠyuÃłnĠ
ĠlÇĲĠ hÃ©
chuÄģnĠ xiÃłnĠ
ĠyÇĲĠ hÃ²uĠ
lÃ¬ngĠ rÃ©nĠ
xÃŃ ĠjÄ«Ġ
zÄģo ĠyÃ¹
ĠĠĠ194 9ĠniÃ¡nĠ
hÄĵngĠ lÃ¬Ġ
C A
n ÇİoĠ
o ng
zhÄ« ĠdÃ¬Ġ
zhÄ« ĠshÃŃ
ĠdÃłiĠ mÇİĠwÃ¨iĠ
chÅ« ĠdÃłoĠ
ĠzuÃ¬Ġ wÃ¨iĠ
ĠkÄĵ ĠhuÃłnĠ
ĠzhÇĲ ĠdeĠshÃ¬Ġ
ĠchÇİngĠ de
ĠzhuÇİnĠ huÃ¬Ġ
ĠzuÃ¬ĠzhÅįngĠ zÃłiĠ
ĠdÅįngĠnÃ¡nĠ bÃ¹Ġ
laySt ationĠĠĠ
i tĠ
zhÅįngĠ zhÃ¨ngĠ
ĠdÃł ĠpÄ«
ĠxuÃ© ĠzhÄĽĠ
zhÃłnĠ hÃ²u
jÄ«ngĠ lÇĲ
ĠwÃ¨iĠyÃº ĠzhÅįngĠhuÃ¡ĠrÃ©nĠmÃŃnĠgÃ²ngĠhÃ©ĠguÃ³
dÇĲ ĠcÃ©ngĠ
yÃ¡nĠjiÅ« ĠyuÃłnĠ
ĠnÃ¡nĠjÃŃĠtiÃ¡oĠyuÄĵĠtÇĲĠxÃ¬Ġ guÇİnĠlÇĲĠ
ĠshÇĴu Ġde
ĠjÅ«nĠ rÃ©nĠ
miÃłnĠ lÃŃnĠ
ĠwÃ¡ngĠ wÃ¨iĠ
ĠyÃ²ngĠ tÃº
ĠjÇĲnĠ cÃ¬ĠyÃº
ĠĠĠ202 3
yÃ¡o Ġ
q iÄģo
Ġde ĠshÃ¨ĠjÃ¬Ġ
ÃłnĠ lÃ¬Ġ
shÃŃ ĠrÃ¨nĠ
ĠxÄ«nĠ xÄ«ngĠ
ĠmiÃłnĠ lÃŃnĠ
ĠcÇĲ ĠshÃ¬Ġ
ĠgÇİiĠ gÃ©Ġ
yÇĲnĠ yÃ²ngĠ
ĠlÃ¬ĠshÇĲ ĠxuÃ©ĠjiÄģ
ĠzÃºĠqiÃº ĠjÃ¹ĠlÃ¨ĠbÃ¹Ġ
ĠfÇĴu ĠrÃ¨nĠ
t Ãł
ã Ĥ
Ġs ÃºĠ
Ġc ÄģiĠ
hÃ© ĠyuÄĵĠ
ĠzÃłiĠ yuÃ¡nĠ
nÃ¡nĠ fÄģngĠ
ĠmÃŃnĠ zÃºĠ
xiÃło ĠyÃ¬ngĠ
ĠjiÄģĠrÃ¹ Ġle
jÅ«ĠmÃŃnĠ diÇİnĠ
cÃ¹ ĠjÃ¬nĠ
U N
n Ã¹
shÃłngĠ shÄĵngĠ
ĠzhÅįu ĠkÄģnĠ
jiÄģnĠ dÅ«
ĠzÇĶ ĠxiÄģnĠ
gÇİiĠ zÃło
ĠÃ¨r Ġ
ĠyÇĲĠ hÃ²u
ic k
ĠchÇİnĠshÄĵngĠ le
Äģ ĠjÄ«
Ġde ĠzhÃ¨ngĠ
ĠyÄ«nĠ mÃ³u
ĠliÃ¡nĠ jÅ«nĠ
ĠzÇĴngĠ lÇĲĠ
xiÇİo ĠpÃŃngĠ
ĠtÃ³ngĠniÃ¡nĠ 11
ĠxiÄĽ ĠdÃłoĠ
ĠzÃłiĠ19 3
ĠyÄ«ĠlÃ¬Ġ nuÃ²
ÇĲĠy Äģ
ĠlÃ¹ ĠyÄ«nĠ
ĠjÃ¹ ĠshuÅį
ĠdÃ¬ngĠ qÄ«
ĠxÃ¬ngĠ shÃ¬Ġ
ĠqÄ«ngĠ dÃłiĠ
ĠnÃł Ġde
ĠcÄģnĠ jiÃłnĠ
ĠpÇĲnĠ zhÃ¬Ġ
on s
ĠyÃ³uĠxÃ¬Ġ de
xiÄĽ ĠdÃłoĠ
zÇĶĠzhÄ« Ġde
ĠzhÃ¬ĠzuÃ² Ġde
ĠsÄģiĠbÃłiĠ jiÄģngĠ
g Äģ
Ġt uÇĲ
ĠwÃ¨iĠ cÇĲ
ĠyuÃ¡nĠ hÃ©
xÄ« ĠxÄ«
ĠqiÃ¡nĠ zhÄĽ
Ġ5 7
ĠÃło ĠzhÅįu
ĠpÃŃ ĠfÅ«
nÃ³ngĠ cÅ«nĠ
ĠĠĠ andĠĠĠ
guÃ³ ĠwÃ¹ĠyuÃłnĠ
ĠyÇĴu ĠxÇĶĠduÅį
wÃ©iĠ wÃºĠÄĽr
hÃº ĠbÄĽiĠ
ĠguÄģnĠ zhÃ¹Ġ
ĠxiÃłngĠ dÅįngĠ
jiÃ¨ Ġde
ĠshÃ¨ngĠ yÃº
ĠlÇĲngĠ tÇĶĠ
ĠrÃ³ngĠ liÃłngĠ
ĠyÃ¡nĠjiÅ« ĠyuÃłnĠ
ro p
ĠnÃ¡ ĠpÃ²ĠlÃºnĠ
ĠchÃ¨ ĠtuÃ¬Ġ
ĠzÇĴu ĠxiÃłngĠ
ĠsÇĶnĠ shÄ«
mÄĽiĠguÃ³ĠrÃ©nĠkÇĴuĠpÇĶĠchÃ¡ Ġ
TA T
l uÃ¡nĠ
shÃ¬Ġ yÃ¨
20 00
dÃł ĠqÃ¬Ġ
ĠdÃ© ĠpiÃło
ĠfÄĵnĠ zhÄ«Ġ
ĠmÇİ ĠlÇĲ
lÃ¹ ĠzhÃ¬Ġ
shÇĴu ĠbÅįĠ
jiÄĵ ĠdÃłoĠ
en s
zhÄĵnĠ sÃ¬Ġ
Ġ192 5ĠniÃ¡nĠ
A I
m anĠ
hÃ© ĠhÃ©
wÃ¨iĠ 1
zÃłiĠ nÃ¨iĠde
ĠtÄģ ĠcÃ³ngĠ
ĠjÃ¬Ġ nÃ©ngĠ
duÃ¬Ġ xiÃłngĠ
ĠhÃ²u ĠxÃ¹
ĠcÅ«nĠ mÃŃnĠ
bÃ¡iĠ sÃ¨
Ġ191 4ĠniÃ¡nĠ
ĠjiÄĽĠfÃłngĠ jÅ«nĠ
chÃ¡iĠ yÃ³uĠjÄ«
Ġx Å«Ġ
ĠsÄģnĠ dÃł
chÃ¡o ĠtÃŃngĠ
mÃ¬Ġ mÃ¬Ġ
e ch
de ĠshÃŃĠhÃ²uĠ
ĠzÃłiĠ xiÃłnĠ
yÄ« ĠzhÃŃĠ
ĠzhÃłnĠ shÃ¨ngĠ
ĠguÄģnĠ liÃ¡nĠ
ĠsuÃ¬Ġ shÃŃĠ
ĠĠ ĠyÃ¹
ĠyÇĲ ĠwÇİngĠ
ĠbÃ¨iĠ rÃ¨nĠwÃ©iĠ
ĠbÃ³ ĠgÃ©
ĠyÃ¨ Ġde
Ġ202 1
ĠxiÅ« ĠfÃ¹
ĠhuÃ¡nĠ qiÃº
C T
S S
u ni
ĠĠ ĠmÃŃnĠguÃ³
wÃ¨iĠ dÃ¬Ġ
ĠhuÃ¬Ġ bÃ¨iĠ
ĠbÃ¬ngĠ duÃ¬Ġ
ĠzhÃłnĠ zÇĴngĠrÃ©nĠkÇĴu
ĠxÄ«nĠ zhÃº
ĠsÄģnĠ jiÇİ
ĠgÃ© ĠlÃ¡iĠ
ĠwÇĶ ĠshÃ¬Ġ
ĠjiÃ¹ ĠzÃłiĠ
nÃ©ngĠ yuÃ¡nĠ
ĠjiÇİnĠ shÇİoĠ
ĠchÃ³ngĠ fÇİnĠ
at t
zhÅįngĠxÄ«nĠ de
suÃŃ Ġzhe
zhÃ¨ngĠzhÃ¬Ġ jÃº
ĠtÃºĠ ÃłnĠ
y st
ĠĠ ĠzhÃ¨ĠxiÄĵ
hÃ© ĠyÄ«
ĠbÃ¹ ĠqiÄģngĠ
shÃŃ ĠpÇĲnĠ
ĠzhÃ¬Ġ huÃ¬Ġ
ĠjiÄģngĠ yÃº
ĠfÄĵiĠ ÄĽrĠdÃ©
bÃ³ ĠlÃŃnĠ
jiÇİngĠ shÃ¹
ĠÐ ¾
o sĠ
ĠĠ Ġ13
Ġx uÃłnĠ
Ġde ĠbÃ¹ĠfÃ¨nĠ
ĠyuÃ¡nĠ yÇĴu
ĠshÃ¨ ĠxiÃłnĠ
ĠqiÃ¡nĠ de
ĠshÇĴu ĠduÃłnĠ
lÃ¡iĠ shuÅį
ĠlÃ¨iĠ de
ĠmÇĲ ĠlÃ¡nĠ
ĠshÃ¬ĠjiÃ¨ ĠshÃłngĠ
fÄģngĠmiÃłnĠ de
ĠzÇĶĠchÃ©ngĠ bÃ¹ĠfÃ¨nĠ
ĠzhÇĲĠhuÄ« ĠguÄģnĠ
ÄģnĠnÃł ĠzhÅįu
ĠshÃ¬Ġ juÃ©
ĠlÃ¬Ġ tÃ¡oĠwÇİnĠ
shÃŃ ĠsÃ¬Ġ
bÃ¹ ĠjÇĲnĠ
ĠdÃł ĠzhÃ¨ngĠ
Ġ19 19ĠniÃ¡nĠ
yÄ« ĠzhÄ«
ĠkÃ¨ ĠlÇĶ
ĠyÃ¡nĠ lÃ¹nĠ
ĠdÄģnĠ xÄ«nĠ
ĠchÃ¡ngĠ zhÃ¹
ĠniÃ¡nĠ10 ĠyuÃ¨Ġ1ĠrÃ¬Ġ
N H
± Ġ
ĠdÃ¬Ġ tÃº
ĠdÃł ĠjiÄģ
ĠdÃł ĠlÇĲ
yÄ« ĠzuÃ²
fÄģngĠ yÃ¡nĠ
ĠchÅ« ĠdÃło
ĠxiÄģngĠ liÃ¡nĠ
ĠqÄ« ĠzÇĲĠ
ĠsÃ¹ ĠsÃ²ngĠ
on d
de ĠshÄĵngĠ
zÃłiĠ bÄĽiĠjÄ«ngĠ
bÃ¹ ĠjÃŃ
ĠtÃ¨ ĠlÇİngĠpÇĶ
ĠdÅįngĠ rÃ¬ĠbÄĽnĠ
ĠgÇĶ ĠdÅįngĠ
ĠdÃ¹ Ġde
liÇİngĠ guÃ³
Ġ15 3
ĠjÇĶ ĠzhÃ¨nĠ
shÅįu ĠcÃ¡ngĠ
ĠH Ġ
ĠfÄĵnĠbÃ¹ ĠzÃłiĠ
Ġ192 2ĠniÃ¡nĠ
ĠhuÃ¡iĠ yÃŃ
ĠdiÃ© Ġ
pÃŃngĠ yuÃ¡nĠ
jiÃ© ĠguÇĴĠ
ĠshÄĽngĠ dÃło
ĠxiÃłnĠshÃŃĠyÃ³u ĠnÃ¡nĠjÃŃĠtiÃ¡oĠyuÄĵĠtÇĲĠxÃ¬ĠguÇİnĠlÇĲĠ
n Ã¡ngĠ
Ã© ĠwÃłiĠ
Ġp Ã¨ngĠ
ĠyÃŃ ĠdÃłnĠ
yÇĲ ĠbÄĽiĠ
ĠdÃłiĠ tÃ¬Ġ
ĠfÃº ĠlÃ¬Ġ
ĠmÄĽiĠguÃ³ ĠguÃ³ĠjiÄģ
ĠjiÇİ ĠjÄ«
ĠfÃ¹ĠzÃ© ĠrÃ©nĠ
chÃł Ġ
âĪ Ĵ
Ã© ĠjÅ«nĠ
Ġde ĠwÃłiĠ
ch ÇĴu
ĠzÃłiĠ bÄĽiĠjÄ«ngĠ
ĠyÄ« ĠrÃ©nĠ
ĠbÃ¨iĠ rÃ¨nĠmÃ¬ngĠwÃ¨iĠ
ĠxiÃ© ĠdÃłiĠ
zÄ« ĠbÄĽnĠ
ĠdÇİngĠ zÇĶ
jiÃ©ĠshÃ¹ ĠhÃ²u
ĠlÃ¨iĠsÃ¬Ġ de
ĠpÃ¡iĠmÃŃngĠ dÃ¬Ġ
ĠĠĠzhÃ¬Ġ zuÃ²Ġ
ĠchuÃŃ ĠzhÃŃ
e di
ĠrÃ¬Ġ bÃłoĠ
bÃ¹ ĠzÃºĠ
gÅįngĠ dÇİ
jÄ« ĠzhÃ²ngĠ
ĠyÄ«nĠ sÃ¹Ġ
ĠxiÄģngĠ jÃ¬Ġ
jÄ«ngĠ diÇİnĠ
ĠluÃ³ ĠmÃ©nĠ
Ġ201 5
ĠqÇĲ ĠdiÇİnĠ
bÄģnĠ jiÇİngĠ
Ġ17 6
zÄĵngĠ qiÃ¡ngĠ
tuÄ« ĠjiÃłnĠ
dÃ²u ĠzhÄĵngĠ
ol spanĠ
ĠchÇĲ ĠcÃ¹nĠ
ĠbÃ¹ĠdÃ© ĠbÃ¹
ĠshÃ¬Ġ pÃ¡iĠ
Ġch ÇĴngĠ
ĠxÄ« ĠcÃ¨
dÃ© Ġde
dÃ© ĠlÄģ
ĠshÃ¨ngĠ dÃ¬Ġ
ĠgÇİiĠ jiÃłnĠ
ĠtÃ¡ngĠ nÃł
ĠhÃ¡nĠ gÃłiĠ
ĠshÃ¹nĠ zhÃ¬Ġ
th Ġ
ĠchuÃ¡nĠtÇĴngĠ de
tuÃ¬Ġ chÅ«
fÃ¹ĠzÃ© Ġ
ent erĠ
ĠĠĠwÃłiĠ bÃ¹
hÃ© ĠyuÄĵ
ĠlÃ¬Ġ ÄģnĠ
yÇĴu ĠxiÄĵ
ĠzhÇĶ ĠquÃ¡nĠ
ĠshÃ¹ ĠshÃŃ
shÃ¨ ĠjÄ«
ĠxiÃłngĠ bÄĽiĠ
ĠfÄĵiĠ jÄ«Ġ
yÃł Ġde
ĠyÇİnĠ zÃ²u
tiÄģnĠ wÃ©nĠxuÃ©
ĠcÃ¡iĠ liÃłoĠ
ĠkÄĽĠyÇĲ ĠtÅįngĠguÃ²
ĠĠĠ202 2
ĠcÄģnĠyÃ¹ Ġle
ĠtÃłiĠyÃ¡ngĠ gÅįngĠ
ĠzhÃ¬ĠlÃ¬Ġ yÃº
Ġde ĠdiÃłnĠ
shÃ¬Ġ jÃŃ
ĠjiÄģnĠ yÃ¹
chÅ« ĠsÃłiĠ
ĠjÄ«nĠ gÄģngĠ
ĠjiÄĵ ĠrÃ¨nĠ
ĠfÄģngĠ de
ĠyÃ¡nĠjiÅ« ĠsuÇĴĠ
ĠyÃ¬ngĠ duÃ¬Ġ
ĠxiÅ« ĠsÄ«
deĠdÃ¬Ġ sÄģnĠ
ĠliÃ¡o Ġ
00ĠwÃłnĠ mÄĽiĠyuÃ¡nĠ
nÃ¨iĠruÃ¬Ġ lÄģ
Ġg ÄĽngĠ
Ġde ĠchÃ©ngĠjÃ¬Ġ
Ġh Å«Ġ
ĠgÅįngĠ gÃło
zhÃłnĠ lÃ¼Ã¨
ĠdeĠ ÃłiĠ
ĠwÇĶ ĠshÃŃ
ĠwÇĶ ĠdÇİo
ĠtÃ³u ĠbÃ¹
ĠĠĠ201 5
ĠgÇİnĠ qÃŃngĠ
Ġ192 3ĠniÃ¡nĠ
Ã¨rĠshÃŃ ĠniÃ¡nĠ
ĠxuÃ© ĠxÃ¬Ġ
ĠliÃłngĠ de
bÃ¬ngĠ qiÄĽ
ĠnÇļ ĠyÇİnĠyuÃ¡nĠ
ĠpÇĲnĠ zhÇĴngĠ
xuÄģnĠ chÄĵngĠ
oh nĠĠĠ
ĠhÃ©ĠdÃło ĠquÃ¡nĠzhÇİngĠ
Ġz Åįu
ĠĠ ĠsÃ¬Ġ
ĠĠĠ Ð
ĠdÃł ĠshÄ«
Ã©r ĠbÃ¹
ĠdÃ© ĠlÄģ
ĠbÃ¬ngĠ wÃº
ĠyÄ«nĠ yÃ¬ngĠ
ĠjÃ¬nĠ jÃŃ
ĠhuÃ² ĠwÃ¹
ĠhuÃ² ĠshÃ¨ngĠ
miÃłnĠ shÃłngĠ
yÃ¹ ĠjÃ¬Ġ
ĠbiÃłnĠ shÃ¬Ġ
ar dĠĠĠ
en dĠ
ĠdeĠdÃ¬Ġ sÄģnĠ
jiÄģngĠsÅ« ĠshÄĽngĠ
ĠrÃ©nĠ shÄĵngĠ
ĠjiÄģ ĠxiÄģngĠ
ĠshÄĵngĠ gÃ©ĠwÃ¨iĠ
ĠbÃ¬ngĠ huÃ²ĠdÃ©
zhÃłnĠ chÇİngĠ
ĠcÃ©ngĠ dÄģnĠrÃ¨nĠ
ĠwÃ¡ngĠ zÇĲ
ĠshÃ©nĠ shÃ¨ngĠ
ĠdÃº ĠtÃ¨Ġde
mÃ³ Ġ
ĠzhÄ«ĠchÃŃ ĠzhÄĽ
ĠxiÄģngĠtÃ³ngĠ de
3 ĠmÇĲĠ
8 ĠmÇĲĠ
hÃ¹ ĠshÃŃĠdÃłiĠ
zÃłiĠ bÄĽiĠ
zhÃ¬Ġ 1
ĠlÇĲ ĠyÃ³u
ĠpÃŃngĠ mÃŃnĠ
ĠliÃ¡nĠ jiÄĵĠ
ĠshÄĵnĠ shÃłngĠ
yÃ¹nĠ yÃ²ngĠ
ĠlÃ¨iĠ wÃ¨iĠ
ĠkÄĵ ĠlÃ¬Ġ
ĠbÄĽnĠ cÃ¬Ġ
fÃ¹ ĠzhÇĶĠxÃŃĠ
qiÃº ĠbÇĲĠsÃłiĠ
jiÄģnĠ chÃ¡
liÃ¨ ĠbiÇİoĠ
xÃŃ ĠwÃ¨iĠ
ĠwÇİnĠ niÃ¡nĠ
ĠmÃ¨ngĠ xiÇİngĠ
ĠÄģĠÄĽr ĠbÄĵiĠsÄ«
ĠhÃ©ĠnÃ¡nĠ shÄĽngĠ
dÅįngĠbÃ¹ ĠshÃŃĠqÅ«Ġ
ĠĠ ĠzhÃŃĠyÃ¨ĠshÄĵngĠyÃ¡Ġ
hÃ© ĠxÄ«
Ġde ĠzhÃŃ
ch uÄ«
ĠbÃ¹ ĠmÃŃngĠ
ĠzhÃ¨ ĠyÄĽ
ĠyÃŃ ĠdÃ¬ngĠde
sÄ« ĠtÃ¨Ġ
ĠliÃ¡nĠ jiÃ©
fÇİ Ġde
ĠbÃ³ ĠjuÃ©
ĠtiÃ¡o ĠyuÄĵĠ
ĠmÃ¬Ġ dÃ¹
wÄĵiĠ ÄĽr
ĠnÃ³ngĠ chÇİngĠ
ĠhÃ¨ ĠÄĽr
U ni
de ĠguÃ³ĠjiÄģ
ĠzÃłiĠ shÃłngĠ
ĠwÃ¨iĠ tÃ¡iĠwÄģnĠ
ĠrÃ©nĠ dÅįu
pÃŃngĠ gÅ«
huÃ² ĠshÃ¨ngĠ
ĠzÃ© ĠzÃłiĠ
ĠshÄ« ĠdÃ¬Ġ
gÇĶ ĠwÅ«
cÃ¨ ĠqÃ¬Ġ
shÅįu ĠdÃło
ĠmÃ¹Ġ Ã©r
ĠhuÃłnĠ chÃ©ngĠ
ĠyÃºĠ201 2ĠniÃ¡nĠ
ĠqÃŃngĠkuÃłngĠ xiÃł
wÃłngĠ yuÇİnĠjÃ¬ngĠ
jiÃłnĠlÃ¬Ġ le
M S
c i
Ġp Äģo
zÃłiĠ xÄ«nĠ
ĠxuÃ© ĠshÃ¬ĠxuÃ©ĠwÃ¨iĠ
xÃŃngĠ tÃłiĠ
jiÄģ ĠlÃ¬Ġ
ĠpÃŃngĠ gÅ«
ĠfÄĵnĠ zÇĲ
ĠjiÃ© ĠchÅ«
ĠshÇĲ ĠjÃ¬Ġ
er s
fÄĵngĠ gÃ©Ġ
ĠyÃ¨ ĠwÃ¹Ġ
ĠĠĠdÃ¬Ġ sÄģnĠ
ĠE STĠ
ĠzÃłiĠzhÃ¨ Ġge
ĠdeĠtÃ¨ ĠyÇĴu
ĠhÅįngĠzhÃł ĠjÄ«
4 ĠniÃ¡nĠ12
r ÇİoĠ
ĠĠ ĠyÄ«nĠwÃ¨iĠ
ĠĠ ĠbÇĲĠsÃłiĠ
de ĠzhÃ¨ngĠzhÃ¬Ġ
Ġsh uÃŃ
Ä«ngĠ pÄģngĠ
ĠĠĠ Z
ĠwÃ¨iĠ dÃł
zhÃ¬Ġ zÃłiĠ
ĠliÃ¡nĠ tÃ³ngĠ
ĠcÇĲ ĠjÇĶ
jÃ¹Ġ hÃ©
Ġ16 5
Ġ14 5
ĠyÃºĠ201 5ĠniÃ¡nĠ
ow Ġ
tuÃ¬Ġ xiÅ«Ġ
ĠwÃ¨iĠyÃºĠfÇİĠguÃ³ ĠÃło
ĠĠĠzhÃ¨ ĠkÄĵĠxiÇİoĠxÃŃngĠxÄ«ngĠ
ĠchÃł Ġ
ĠshÃ¬ĠyÄ«ĠkÄĵ ĠwÃ©iĠrÃło
T h
b Ġ
t o
Ġr Ã¡o
ĠjÃŃ ĠqÃŃĠtÄģ
ĠchÅ« ĠbÃ¹
shÇĴu ĠzhÅįngĠ
ĠxiÇİo ĠxuÃ©Ġ
ĠcÃ©ngĠ bÃ¨iĠ
ĠwÃ¡ngĠ guÃ³Ġ
ĠgÅįngĠzuÃ² ĠrÃ©nĠyuÃ¡nĠ
F C
b ÄĵngĠ
Ġd ÇĴu
ĠĠ ĠyÄ«ĠxiÄĵ
wÃ¨iĠ qÃŃ
ĠlÃ¬Ġ xuÃ©
bÃ¹ ĠshÇİo
Ġle ĠxÇĶĠduÅį
ĠlÇĲ ĠniÃłnĠ
ĠmÄĽiĠ lÃ¬Ġ
Ġ5 ĠdiÃłoĠkuÃłiĠyÄ«ĠxiÇİoĠshÃŃĠ
ĠmÇĶ ĠsÄ«ĠtÃ¨
jiÃłngĠ dÄ«
ac eb
ĠE DTĠ
Ġ30 ĠfÄĵnĠ
ĠjÃŃĠbÄĽiĠmÄĽiĠ dÅįngĠbÃ¹ĠshÃŃĠqÅ«Ġ
ĠtÃłiĠyÃ¡ngĠgÅįngĠ zhuÃłnĠdeĠxiÇİoĠxÃŃngĠxÄ«ngĠ
ĠshÃ¬ĠyÄ«ĠkÄĵĠwÃ©iĠrÃło ĠtÃłiĠyÃ¡ngĠgÅįngĠzhuÃłnĠdeĠxiÇİoĠxÃŃngĠxÄ«ngĠ
y n
ÃłiĠ de
de ĠguÃ³ĠjÃ¬Ġ
ĠyÇĶ ĠtÄģ
ĠdÃłnĠ yÃło
ĠlÃ¡iĠ Ã¡ngĠ
sÄ« ĠmÇİ
ĠsuÇĴ ĠyÇĲĠ
yÃ¹ ĠsuÃłnĠ
ĠdÄģnĠ yuÃ¡nĠ
ĠbÇĲ ĠdÃ©Ġ
kÃ¨ ĠlÃ¡iĠ
Ġ5 4
ĠlÃ³ngĠ de
Ġ8 00
ĠxiÅ« ĠdÃ¬ngĠ
ĠtuÄ« ĠxÃŃngĠ
Ġ17 5
nÃŃngĠ tÇĶ
ĠqÃ¬ngĠ zhÃ¹
deĠjuÃ©ĠduÃ¬Ġ xÄ«ngĠdÄĽngĠwÃ¨iĠ
a tĠ
ĠyÇĲ ĠqÃŃ
zhÃ¹ ĠcÃ¨
ĠfÃº ĠyÃ¬Ġ
xiÄģngĠ shÃ¬ĠdÃ¬Ġ
ĠshÄģnĠ dÇĲngĠ
ĠcÇĲ ĠdÃ¬Ġ
qÃ¬Ġ hÃ²uĠ
ĠmÃ³ ĠtÃ¨Ġ
zhÄĵngĠ qÇĶ
gÇĶ ĠdiÇİnĠ
ĠmÃ¬Ġ qiÃ¨
zhÅįngĠguÃ³ ĠrÃ©nĠmÃŃnĠjiÄĽĠfÃłngĠjÅ«nĠ
ĠS p
gÃ²ngĠhÃ©ĠguÃ³ Ġ
dÄĵngĠ chÃ¡ngĠ
ĠĠĠT heĠĠĠ
ĠyÃ¡o ĠgÇĶnĠ
oc i
ĠshÃ¬ĠxiÃłĠxiÃ¡ĠdeĠyÃŃĠgÃ¨ ĠxiÄģngĠzhÃ¨nĠjÃŃĠxÃŃngĠzhÃ¨ngĠdÄģnĠwÃ¨iĠ
1 5Ġ
3 0Ġ
ĠĠ ĠshÃ¨ĠjÃ¬Ġ
Ġl Ã¬nĠ
Ġg Ã¡
Ġk uÄ«
shÃŃ ĠyÃ³u
ĠchÃ©ngĠ dÄģnĠ
ĠxiÃłnĠ xÃ¬ngĠ
ĠyuÃ¡nĠ chuÃłngĠ
jiÄģ ĠshÃłngĠ
ĠfÃ¹ ĠyÇĴu
qiÃ¡nĠ tÇĲngĠ
ĠliÃ¨ ĠbiÇİoĠ
qÄ«ngĠ huÃ¡
huÃłnĠ chÃ©ngĠ
ĠkÇĴngĠ lÃ³ngĠ
ĠxuÃ¡nĠ zhuÇİnĠ
ĠfÃ¡nĠ zhÃŃ
ĠĠĠzhÃ¨ĠkÄĵĠxiÇİoĠxÃŃngĠxÄ«ngĠ deĠjuÃ©ĠduÃ¬ĠxÄ«ngĠdÄĽngĠwÃ¨iĠ
ĠĠ ĠchÃ¡ngĠ
Ġm Ġ
de ĠwÃ¨iĠzhÃ¬Ġ
shÃŃ ĠliÃ¹
ĠdÃł ĠbÃ¹
ĠnÃ¡nĠ mÄĽiĠzhÅįu
ĠfÄģ ĠyÄ«nĠ
bÄĽnĠ xiÃłnĠ
ĠzhÄĵngĠ qÃ¬Ġ
wÄĵiĠ xiÃ©
dÇİ ĠjÄ«
gÄģoĠsÃ¹ ĠgÅįngĠlÃ¹
ĠzhÃ¨ĠshÇĴu ĠgÄĵ
z hÃ¡iĠ
de ĠduÃ¬Ġ
ĠqiÃ¡nĠ hÃ²u
jiÃło ĠqÅ«Ġ
jiÄĵ ĠtÃ¬Ġ
bÇİo ĠxiÇİnĠ
ĠqiÃ¡ngĠ zhÃ¬Ġ
Ġ198 0ĠniÃ¡nĠdÃłiĠ
ĠqÃºnĠ zhÃ²ngĠ
ĠpiÃłnĠ duÃłnĠ
ĠsuÅį ĠxiÄĽ
ÄģnĠ huÄ«ĠshÄĽngĠ
yÄ« ĠlÇİngĠ
ĠdÃłnĠ hÃ²uĠlÃ¡iĠ
yÇĲ ĠwÃ©iĠ
ĠgÃ© ĠlÇĶ
yÃ¡ngĠ xiÃłnĠ
ar dĠ
ĠguÄ« ĠzÃ©Ġ
sÄ«Ġ hÃ©
ĠcÃŃ ĠshÃłnĠ
mÇİnĠ zÃº
ĠgÇİiĠbiÄģnĠ zÃ¬Ġ
1 4ĠniÃ¡nĠ
T E
ĠĠ ĠyÃ¡ngĠ
de ĠtÃ³ngĠ
hÃ¨ ĠsÃ¨Ġ
20 20
ĠdÃ¬Ġ 5
shÃŃ ĠqÃ¬Ġ
ĠyÄ« ĠxuÃ©ĠyuÃłnĠ
huÃ¬Ġ bÃ¨iĠ
ĠxiÃł ĠzÃłiĠ
dÃ²ngĠ yuÃ¡nĠ
ĠtÅįngĠ dÃło
ĠcÇĲ ĠtiÄģnĠtÇĲĠ
ĠpÇĶ ĠlÇĶĠshÃ¬Ġ
Ġ6 2
ĠchÇĶ ĠshÃłngĠ
tiÃ¡o Ġ
mÃ¬Ġ shÅ«ĠzhÇİngĠ
tuÄ« ĠguÇİngĠ
bÇİoĠ ÄģnĠ
ĠqiÃ¡nĠshÄĵnĠ wÃ¨iĠ
G B
hÃ²u ĠwÃ¨iĠ
ĠwÃ¨iĠ gÄģiĠ
ĠsÄ« ĠjÄ«Ġ
ĠcÄģnĠ shÃ¹Ġ
ĠshÅ« ĠrÃ¹
ĠxiÄģnĠ qiÃ¡nĠ
bÃło ĠdÃło
huÃ¡ngĠ jÄ«nĠ
ĠhuÃ²ĠdÃ© ĠyÄ«ĠmÃ©iĠ
ĠhuÇĴ ĠchÄĵĠzhÃłnĠ
ĠwÃ©nĠhuÃł ĠdÃłĠgÃ©ĠmÃ¬ngĠ
Ġ191 3ĠniÃ¡nĠ
7 ĠmÇĲĠ
a sh
Ġde ĠgÇĶ
ĠsÄ« ĠkÄĵĠ
ĠshÇĲ ĠyÃº
jÃ¬ngĠ jÃ¬Ġ
guÇİnĠ zhÃ¬Ġ
qÇĶ ĠzÃ¬Ġ
xÃ¬nĠ xÄ«Ġ
dÄĵngĠ jÃ¬Ġ
yÃ¡nĠjiÅ« ĠsuÇĴ
guÇİnĠlÇĲ ĠjÃº
tÇĲĠyÃ¹ ĠchÇİngĠ
g Ã¡
ĠshÃ¬Ġ qÃŃ
shÃ¬Ġ yÇĶ
shÃ¬Ġ zhÇĲ
zhÃŃ ĠrÃ©nĠyuÃ¡nĠ
ĠwÃ©nĠ bÄĽnĠ
ĠgÃ© ĠlÃŃ
sÃ¬Ġ hÅ«
ĠtÃłiĠ dÃ¹Ġ
ĠzÄ« ĠxÃºnĠ
bÄģo Ġ
ĠÃ© ĠhÃłiĠ
ĠdÅįngĠbÄĽiĠ bÃ¹Ġ
dÄģngĠdÃ¬Ġ de
ĠqÃŃĠhÃ²u ĠyÃº
ĠjÃŃ ĠxiÃłnĠ
li Ã¹Ġ
wÃ©nĠ yÃ¬Ġ
diÃłnĠ chÄĵ
ĠgÃ© ĠniÃ¡nĠ
ĠmiÃłnĠ 2
ĠwÃº ĠxÅ«
mÃ©iĠ tÇĲĠ
ĠtÃŃngĠ kÃło
ĠlÇĲĠ Ãło
sĠĠĠ of
ĠgÇİngĠ tiÄĽ
Ġ192 1ĠniÃ¡nĠ
wÃºĠxiÃłnĠ diÃłnĠshÃ¬Ġ
de ĠrÃ¬ĠbÄĽnĠ
wÃ¨iĠ bÃ¨iĠ
ĠhÃ© ĠtÄģĠde
ĠdÃł ĠchÃ©ngĠ
ĠxiÃłnĠ chÃ©ngĠ
ĠguÃ³ ĠyÇĶ
ĠzhÄ« ĠshÃ¬Ġ
ĠyÃŃ ĠzhÇĲĠ
00 ĠpÃŃngĠfÄģngĠqiÄģnĠmÇĲĠ
ĠjiÃ© ĠzÃ²u
yÃł ĠmÄĽiĠnÃŃĠyÃł
ĠguÇİnĠ zhÃ¬Ġ
ĠtÃŃ ĠqiÃ¡nĠ
zÇĴngĠ zhÃłnĠ
ĠbÄģoĠkuÃ² ĠyÇĲĠxiÃł
ĠjiÇİngĠ jÄ«nĠ
ĠxÅ« ĠnÇĲ
ĠchÃ¨ ĠdÇĲ
lÃº ĠwÇİ
ĠshÇİnĠ xÄ«ĠshÄĽngĠ
ĠwÃºĠxiÃłnĠ diÃłnĠshÃ¬Ġ
ĠxiÃłnĠ fÇİĠ
ĠxuÃ© ĠyuÃ¡nĠ
zÃ¬Ġ jÇĲĠ
quÃ¡nĠ de
ĠtÇĲ ĠzhÃ²ngĠ
ĠbÄģnĠ yÃ¡Ġ
ĠdeĠyÄ« ĠtiÃ¡o
ĠhuÇĴ ĠchÄĵ
lÃ¡iĠzÃ¬Ġ yÃº
P C
d uÃ²
d uÄ«
Ġg ÄĽ
Ġw Ã¡Ġ
Ġde ĠmÃŃngĠzÃ¬Ġ
ĠqÃŃ ĠdÃ¹nĠ
ĠÃ©r ĠyÃ¡nĠ
yÃ³u ĠxÃŃngĠ
shÄĵngĠ dÃłiĠ
Ġ201 7
ĠwÃłiĠ jiÃ¨
tuÄ« ĠfÄģnĠ
tÇİ ĠjÄ«
ĠcuÃ² ĠwÃ¹
ĠmÃ¨ngĠ jiÄģĠlÄģ
pÃ©iĠ yÇİngĠ
oun dĠ
ĠzÇĴngĠbÃ¹ ĠwÃ¨iĠyÃº
ĠlÃ¬Ġ wÃ©iĠ
ĠchÃ©ngĠ qÅ«
ĠchÃ©ngĠ dÅ«
ĠxÄ« ĠmÃ©ngĠ
fÄģngĠ xÃŃngĠ
zhÄ« ĠshÃŃĠ
ĠfÃ¹ ĠzhÃ¬Ġ
ĠjÄ«ngĠ lÃŃngĠ
ĠzhÇİngĠ wÃ²
ĠliÇİngĠ zuÃ²
jiÃło ĠxuÃ©
Ġ6 6
ĠzhuÇİnĠ wÃ©iĠ
ĠbÇİiĠ xÃ¬ngĠ
ĠL Ġ
ĠN Ġ
ĠshÄĽnĠ chÃ¡
ĠniÇİo Ġ
d ÇĴu
ĠĠ ĠyÇĲngĠxiÇİngĠ
duÃ¬Ġ yuÃ¡nĠ
shÃłngĠ le
chÃ¡ngĠ shÄģ
Ġ2 2Ġ
ĠbÃ³ ĠgÄĽnĠdÃ¬Ġ
ĠyÃ¬nĠdÃ¹ ĠjiÃło
bÃłoĠfÄģ ĠhÃ²uĠ
S p
Äģ ĠmÃ¬Ġ
hÃ²u ĠcÃ¡iĠ
ĠyÇĲ ĠxÄ«
ĠhÃ© ĠtÃ³ngĠ
ĠnÃ¡nĠ hÇİiĠ
ĠdÅįngĠ xÄ«Ġ
zhÃŃ ĠdÇİoĠ
jiÃ© ĠhÃ©Ġ
ĠqÅ« ĠjiÄģnĠ
Ġ201 0
ĠfÅ« Ġde
ĠwÇİ ĠduÅį
ĠkÃ¨Ġ hÃ¹
pÃłnĠ luÃłnĠ
ĠshÃłnĠ chÃ¡ngĠ
ĠĠ ĠrÃ©nĠ
ĠĠ ĠrÃºĠguÇĴ
shÃ¬Ġ nÃ¨iĠ
ĠshÃŃ ĠdÃł
ĠrÃ¬Ġ qÄ«
ĠshÃłngĠ xiÃłnĠ
ĠxÄ«nĠ xÄ«ĠlÃ¡nĠ
ĠgÇİiĠ zhuÄģngĠ
kÅįngĠ qÃ¬Ġ
ĠxiÇİngĠ fÇİĠ
ĠfÃ¨iĠ ÄĽr
ĠquÃ¨ ĠzhÄĽnĠ
ĠgÄģngĠ tiÄĽ
ĠI Ġ
Ġ192 6ĠniÃ¡nĠ
kuÃ² ĠjiÃłnĠ
ÄģĠÄĽr ĠbÄģ
ĠdeĠyÃ¬Ġ siĠ
1 3ĠniÃ¡nĠ
z uÇİnĠ
ĠjÃŃ ĠliÃ¡nĠsÃłiĠ
ĠbÃ¨iĠ kÃ¨
fÄģ Ġde
xuÃ© ĠxÃ¬Ġ
ĠcÃ¬Ġ ziĠ
ĠdÄĽngĠ yÃº
xÃ¬ngĠ hÃ©
ĠtÃłiĠ yÄ«nĠ
qÇĲ Ġle
Ġ6 8
ĠjÇĲngĠ gÃło
ĠlÃŃngĠ gÇİnĠ
hÃ¡o ĠwÃº
huÇĴ ĠshÄģnĠ
chÅ«ĠxiÃłnĠ le
ĠjiÄģĠrÃ¹ ĠzhÅįngĠguÃ³ĠgÃ²ngĠchÇİnĠdÇİngĠ
ĠĠ ĠduÅį
Ġde ĠshÄĵngĠ
ĠgÅįngĠ lÃ¬Ġ
yÇĴu ĠxÇĶĠduÅį
dÃł ĠbÇİnĠ
ĠfÇİ ĠÄĽr
ĠbÄĽiĠ hÃ¡nĠ
bÅį ĠlÃŃ
biÄģnĠ hÃło
ĠbiÄģnĠ xÃŃngĠ
cÄģnĠ kÇİo
Ġ7 4
Ġ17 2
u di
ĠzhÅįngĠ zuÃ¬Ġ
dÃ¬Ġ tÃº
ĠyÃŃ ĠchuÃ¡nĠ
ĠqÄ« ĠkÄģnĠ
zÇĶ ĠzhÇĲ
ĠluÃ² ĠyÄ«
tÃ¨ ĠqÅ«
ĠjiÃ¨ ĠyÃ³u
Ġ202 2
zhÇĴngĠ zÃº
tiÄģnĠwÃ©nĠ tÃ¡iĠ
m i
ĠshÃ¬Ġ jiÄģngĠ
shÃ¬Ġ gÃ¹
ĠwÃ¨iĠ zhÅįngĠ
xÃŃngĠ bÃ¹
ĠzhÃ¨ ĠshÃŃ
ĠwÃ©iĠ lÃ¡iĠ
ĠfÄĵnĠ liÃ¨
huÃ¡ ĠxuÄĽ
guÄģnĠ zhÃ¹
ĠdÅįngĠ cÃ¨
ĠsÄģnĠ cÃ¬Ġ
zhÇİngĠ yuÄĵ
ĠcÃ©ngĠ de
tÃŃ ĠjiÄģo
diÇİnĠ lÇĲĠ
tÅįngĠ dÃło
ĠbiÄģnĠ chÃ©ngĠ
ĠhuÇĴ ĠzÄģiĠ
xÃºnĠ qiÃº
ĠhÃ¹ Ġ
zhÃłnĠzhÄĵngĠ zhÅįngĠ
ĠzuÃ¬ĠzÇİo Ġde
ĠzÃłiĠzhÅįngĠguÃ³ ĠdÃłĠlÃ¹
fÄģĠdiÃłnĠ chÇİngĠ
A r
t or
w Ãł
ĠĠ ĠhÇİiĠ
ĠĠ ĠxiÃło
ĠtÄģ ĠyÄĽĠshÃ¬Ġ
ĠshÃłngĠ fÄģngĠ
ÇĲĠy ÇİnĠ
ĠzÃ¬Ġ mÇĶĠ
Ġ2 3Ġ
shÇĴu ĠxiÄģnĠ
zÃ© ĠzÃłiĠ
zÇĴngĠ sÄ«ĠlÃ¬ngĠ
jÇĲngĠ guÄģnĠ
qiÃ¡ngĠ de
ĠhÄĽnĠ shÇİo
ĠhÃ³ngĠ sÃ¨
gÄĵnĠ suÃŃ
ĠgÅįngĠ shÄģngĠ
dÃł ĠqiÃ¡o
ĠxÄ«nĠ rÃ©nĠ
hÃ³ngĠ sÃ¨Ġ
zhÃŃ ĠlÃ¬Ġ
jÃ¹ ĠchÇİngĠ
dÅįngĠ xÄ«
jiÃło ĠzÅįngĠ
ĠcÇĲ ĠshÃŃĠ
ĠmÃ©iĠ ÄĽr
chÄĵ ĠduÃ¬Ġ
jiÄģo ĠgÄĽiĠ
ĠchÄĵngĠ zÃłnĠ
ĠtÇĲ ĠxÃŃngĠ
ĠpÃ¨iĠ zhÃ¬Ġ
wÅ« ĠrÇİnĠ
ĠpÃ² ĠshÇĲ
ĠzÅįngĠjiÃło Ġ
e mĠ
de ĠmÃ³ĠshÃ¬Ġ
ĠshÃ¬Ġ yÇĴu
Ãło ĠduÅį
ĠzhÅįngĠ wÃ¨iĠ
ĠdÃ¬Ġ shÃłngĠ
ĠdÃ¬Ġ chÇĶ
ĠjiÄģ ĠsÄ«
ĠxÄ« ĠnÃŃ
ĠxiÃł ĠlÃ¡iĠde
xiÃł ĠyÄ«
ĠbÄģ ĠjÄ«ĠsÄ«ĠtÇİnĠ
ĠjiÄĵ ĠshÃ²uĠ
tÇĲ ĠzhÃ¬Ġ
ĠshÅįu ĠdÃło
ĠliÃ¹ ĠgÃ¨
ĠhuÇĴ ĠxÄ«ngĠ
ĠyÃºĠ201 4ĠniÃ¡nĠ
cÄģnĠmÃ³u ĠzhÇİngĠ
kÇİĠluÃ³ĠlÃ¡iĠnÃł ĠzhÅįu
O V
x uÃłnĠ
ĠĠ ĠtÃ¨ĠzhÄĵngĠ
de ĠwÃ¨nĠtÃŃĠ
ĠshÃ¬Ġ yÃ²ngĠ
ĠzÃłiĠ yÃŃĠgÃ¨
ĠrÃ©nĠ duÃ¬Ġ
ĠchÅ« ĠshÃ²u
xÄ« ĠbÃ¹Ġ
ĠmÃ¹ ĠhÇİnĠmÃ²
diÃłnĠ dÃ²ngĠ
gÃ© ĠÄĽr
ĠqÇĲ ĠtÃº
wÄĵiĠ xiÇİnĠ
ĠyÃ¡nĠjiÅ« ĠyuÃ¡nĠ
ĠtÃ¨Ġ ÄĽr
deĠdÃ¬Ġ wÃ¨iĠ
zhÇĲĠhuÄ« ĠguÄģnĠ
ĠĠĠxiÃł ĠxiÃ¡
I A
a sĠ
ĠĠĠ Ã¨r
ĠrÃ¬Ġ hÃ²u
ĠjiÄģ ĠqÃ¬ngĠ
ĠzhÃ¨ ĠwÃ¨iĠ
ĠfÃ¹ ĠzhÇĶĠxÃŃĠ
ĠjiÃ¹ ĠyÇĴu
Ġ6 ĠdiÃłoĠkuÃłiĠyÄ«ĠxiÇİoĠshÃŃĠ
ĠC STĠ
ĠC DTĠ
ĠhÄĽnĠ dÃł
rÃ©ngĠ zÃłiĠ
ĠĠĠ199 9ĠniÃ¡nĠ
6ĠyuÃ¨Ġ 30ĠrÃ¬Ġ
dÄģngĠxuÇİnĠ wÃ¨iĠ
zhÅįngĠbÃ¹ ĠshÃŃĠqÅ«Ġ
ĠjÃŃĠbÄĽiĠmÄĽiĠ zhÅįngĠbÃ¹ĠshÃŃĠqÅ«Ġ
Ġg u
ĠĠĠ hÃ²uĠlÃ¡iĠ
ĠsÄ« ĠzhÇİngĠ
ĠbÃ¬ngĠ chÄĵngĠ
ĠgÄģiĠ niÃ¡nĠ
huÃ¡ ĠshÃ¨ngĠdÃ¹nĠ
er sĠ
ĠlÇĲngĠ xiÃ¹
ĠxiÃ© ĠdÃ¬ngĠ
qÇĶ ĠxiÄģoĠ
ĠlÇĲĠ ÄĽr
ĠrÃ³ngĠ hÃ©
ĠhÄĽnĠ dÃłĠde
ĠyÃŃnĠ pÃ¡iĠ
ĠĠĠA r
gÅįngĠyuÃ¡nĠ qiÃ¡nĠ
ĠyÇĶnĠ shÃŃĠkÄĵngĠ
yuÃ¡nĠzhÃ¹ ĠmÃŃnĠ
o th
ĠĠ ĠhÄģ
Ġn Ã²ngĠ
de ĠÃ©rĠziĠ
yuÃ¡nĠ wÃ¨iĠ
ĠxiÃłnĠ hÃ©
shÃłngĠ jiÃłngĠ
xiÃłngĠ jiÇİngĠ
deĠ ÃłiĠ
ĠjÅ«nĠ fÄģngĠ
ĠxiÃłngĠ nÃ¡nĠ
ĠqÄ« ĠtÃºĠxÃŃngĠ
tÃŃ ĠcÃ¡iĠ
shÄģngĠ pÇĲnĠ
at eĠ
b ÃŃ
q iÃ©
ĠĠ ĠyÄ«ngĠguÃ³
Ġn Çİ
Ġde ĠjiÄģ
hÃ²u ĠqÄ«Ġ
ĠzhÃłnĠ fÃ¡ngĠ
ĠliÃº ĠdÃ²ngĠ
ĠshÃ²u ĠmÃ¬ngĠ
ĠcÃŃ ĠzhÃŃĠ
ĠlÃ¹nĠ tÃ¡nĠ
ĠjiÃłnĠzhÃ¹ ĠwÃ¹
zhÃłnĠzhÄĵngĠ qÄ«ĠjiÄģnĠ
ĠyÃ¡nĠhÇİiĠ shÄĽngĠfÃ¨nĠ
Ġde ĠÃ©rĠziĠ
ĠshÃ¬Ġ tÄģ
lÃ¬Ġ bÃ¹
jÃ¬Ġ yÃ¬Ġ
ĠzhÄ« ĠdÃ¬Ġ
Ġle ĠyÄ«ĠxiÄĵ
xiÃłnĠ xÃ¬ngĠ
ĠfÃ¹ ĠjiÄģ
yÇĲ ĠnÃ¡nĠ
19 ĠshÃ¬ĠjÃ¬Ġ
xiÄģngĠ bÇĲĠ
yÃ¡nĠ ÃłnĠ
ĠĠĠ201 3
ĠÄģnĠ huÄ«
ĠmÃ¬ngĠ yÃ¹nĠ
ĠfÄģĠshÄĵngĠ zÃłiĠ
Ġ191 7ĠniÃ¡nĠ
us ic
ĠrÃ²u Ġ
fÄģĠbiÇİo Ġ
ĠgÃ©ĠlÃ¡nĠ tÃ¨
ĠhÃ© ĠyÄ«
fÄģ ĠshÃ²u
ĠdÃłiĠ mÇİ
ĠjiÄĵ ĠguÇİnĠ
ĠgÃ© ĠlÄĵiĠ
jiÄģnĠ chÃŃ
ĠtiÄģnĠ de
ĠshÇĶ ĠmÃŃngĠ
ĠjÇĲnĠ jÇĲnĠ
ĠzÃło ĠxÃŃngĠ
ĠG Ġ
ĠyÃºĠ201 3ĠniÃ¡nĠ
hÅ« ĠyÃ¹
zuÃ¬ĠhÃ²u ĠyÄ«
ĠwÃłnĠpÃŃngĠfÄģngĠ mÇĲĠ
p Ä«nĠ
zhÅįngĠ qÄ«Ġ
bÃ¨iĠ rÃ¨nĠwÃ©iĠ
ĠcÃ¬Ġ shÇĲ
ĠnÃł ĠyÃłngĠ
ĠguÄ« ĠhuÃłĠ
ĠrÃ¬ĠbÄĽnĠ de
gÇİiĠ gÃ©Ġ
sÃ²ngĠ dÃło
ĠyÃºĠ201 6ĠniÃ¡nĠ
ĠfÄģĠshÄĵngĠ le
kÄģiĠfÄģ Ġ
ĠĠ ĠfÄĵiĠ
ĠĠ ĠfÇİnĠ
Ġde ĠmiÃłnĠjÄ«ĠwÃ¨iĠ
ĠshÃłngĠ miÃłnĠ
ĠchÅ« ĠchÇİngĠ
mÃŃngĠ zÃ¬Ġ
ĠjÄ«ngĠ dÅ«
ĠyÃ¡nĠ xÃ¹
zhÃ¹ ĠfÃ¡ngĠ
fÇİ ĠlÃ¬ngĠ
suÇĴ Ġde
dÄģnĠ dÃº
hÃ¡nĠ yÃ¬Ġ
ĠÄģ ĠlÇĲ
ĠbiÄģnĠ jÃ¹
yuÄĵ ĠyÇĴu
juÃ©ĠsÃłiĠ zhÅįngĠ
ÄģĠÄĽr ĠbÄĵiĠsÄ«
ĠĠ ĠzhÇĶ
Ġt ÇĲĠyÃłnĠ
ĠbÃ¹ ĠzhÄ«
ĠlÃ¹ Ġde
jiÄģngĠ shÃ¬Ġ
lÃ¹ ĠduÃłnĠ
ĠnÃŃ ĠpÅį
pÇĶ ĠlÄĵiĠ
ĠtuÃ¬Ġ xiÅ«Ġ
zhÃł ĠdÃłnĠ
4 ĠmÇĲĠ
dÃ¬Ġ zhÃ¬Ġ
rÃ©nĠ dÃł
jÅ«nĠ yÇĴu
ĠjÄ« ĠfÄĵnĠ
ĠjÄ« ĠlÃ³ngĠ
chÃ¡ngĠ jiÄģngĠ
ĠshÄģnĠ shÃ¬Ġ
ĠguÄģngĠ xÃ¹Ġ
ĠhuÃ¡nĠ xÃŃngĠshÄģnĠ
Ġ14 6
ic ros
ĠdÅįngĠnÃ¡nĠ yÃł
sÃ¬ĠchuÄģnĠ shÄĽngĠ
a il
e k
p Ã©nĠ
w ÄģngĠ
ĠchÃ©ngĠ nuÃ²
ĠzÃ¬Ġ shÄģ
ĠguÄģnĠ guÄģngĠ
shÄĵngĠ chÃ©ngĠ
ĠmÃ¹ ĠzhÃ¬Ġ
ĠyÃł ĠdÄģngĠ
zhÇĲ ĠhuÄ«Ġ
dÄģnĠ yuÃ¡nĠ
ĠbiÃłnĠ gÄĵngĠ
chÄģiĠ chÃºĠ
ĠĠ ĠguÄģnĠyÃº
qÅ« ĠhÃ©
ĠrÃ¨nĠ dÃ¬ngĠ
zhÃłnĠ zhÅįngĠ
ĠgÄģo ĠyÃº
jiÃ¨ ĠshÃŃ
ĠnÃł ĠÄĽr
ĠrÃ¡nĠ liÃło
tÃłiĠ lÃ¡ngĠ
jÇĲ ĠnÃ¡nĠ
ĠdÅįu ĠzÃłiĠ
ĠshuÇĲ ĠshÃłngĠ
ĠqiÄģnĠ rÃ©nĠ
ĠtuÅį ĠlÃŃ
guÇİngĠ xÄ«
dÄĵngĠ lÃ¹Ġ
Ġ191 1ĠniÃ¡nĠ
1 6Ġ
A l
i sh
u nĠ
wÃ¨iĠ yÇĴu
ĠdÃł ĠdÅįngĠbÃ¹
ĠshÄĵngĠ wÃ¨iĠ
ĠÃ©r ĠhÃ²u
fÄģ ĠmÃŃngĠ
ĠxiÃł ĠmÃ©nĠ
ĠzuÃ¬Ġ duÅįĠde
ĠzhÃ¹ ĠfÃ¡ngĠ
kÄģiĠ bÃłnĠ
ĠbÄĽnĠ lÃ¡iĠ
ĠliÃº ĠliÃłngĠ
ĠrÃ¹ ĠwÃ©iĠ
ĠjiÄģo ĠxiÇİngĠ
ĠjiÇĶ ĠbÄģ
jiÇİnĠ shÇİoĠ
ĠsÄĵnĠ bÇİo
ĠguÇİnĠlÇĲ ĠjÃº
gÃłnĠ xiÃłnĠ
1 6ĠniÃ¡nĠ
de ĠjÃ¬nĠ
de ĠdÃ¬ĠÃ¨r
ĠzhÅįngĠ zhÇĲ
wÃ©nĠ wÃ¹
deĠ Ã¨r
zhÄĵngĠ duÃ³
18 8
sÃł ĠÄĽr
ĠzÇĶĠzhÄ« Ġde
ĠlÃ¬ĠfÇİ ĠhuÃ¬Ġ
ĠlÇĲĠlÃ¡nĠ kÇİ
c Å«
Ġt Ä«Ġ
ĠshÃ¬Ġ yÃº
ĠlÃ¬Ġ xiÃłnĠ
ĠjÃŃ ĠtÇĲ
dÃ¬Ġ miÃłnĠ
ĠgÃ¨ ĠshÄĽngĠ
ĠwÃ©iĠ xiÅ«
ĠdÃ²ngĠ tÃłiĠ
ĠzhÃ¹ ĠshÇĴu
dÄģnĠ xÄ«nĠ
gÇĶ ĠlÇİoĠde
zhÃº ĠbÃ¹
ĠzÃłiĠ bÄĽnĠ
ĠlÃ¬Ġ shÃ¬Ġ
wÃ©iĠ sÃłiĠ
zhÃ¨ngĠ quÃłnĠ
ĠkÃ¨ ĠlÃ¡o
ÇĲĠy Ä«ngĠ
shÃ¨ ĠyÃº
ĠjÃ¹ ĠluÃ²
ĠgÄģo ĠjiÃł
sÄģnĠ yuÃ¨
ĠyÃ¨ ĠyÃº
bÇİo ĠshÇĴu
ĠzÃło ĠchÃ©ngĠde
Ġ Ù
ĠĠ ĠfÄģĠzhÇİnĠ
zh eĠ
ĠmÄĽiĠ yÄ«
zhÇĶ ĠdÃ²ngĠ
er n
zhuÄģngĠ shÃ¬Ġ
Ġ9 8
Ġ13 6
ĠzÄģo ĠshÃ²u
ĠruÇİnĠ tÇĲ
ĠbÃ¬ĠyÃ¨Ġ hÃ²uĠ
shÄģnĠdÅįngĠ shÄĽngĠ
ĠjÇĲĠ hÃ©
ĠjiÄģ ĠlÇĲ
jÃŃ ĠlÃ¬Ġ
zhÃ¨ngĠ chÃ¡ngĠ
huÃł ĠshÃŃ
ĠkÃ¨ ĠjiÄģ
mÃŃngĠ yÃ¬Ġ
qÃŃ Ġde
ĠliÃ¡nĠ jiÃ©Ġ
ĠdÃ²ngĠ huÃłĠ
ĠbÄĽiĠ wÃ¨iĠ
ĠzÃ© ĠyÇĴu
Ġ201 3
ĠshÇĲ ĠchÄĵngĠ
chÄĵngĠ zuÃ²Ġ
Ġ5 ĠgÃ¨
ĠkÇİ ĠluÃ²
ĠdiÇİnĠ xÃŃngĠ
dÃº ĠlÃ¬Ġde
ĠqÄ«ĠxÄ« ĠdÃ¬Ġ
ĠyÅįngĠ zhÃ¨ngĠ
zÃ¬ĠzhÃ¬Ġ qÅ«
ĠbÄĽiĠqÇĲ ĠshÃ¹nĠshÃŃĠzhÄĵnĠ
8 ĠyuÃ¨Ġ1ĠrÃ¬Ġ
x ÇĶĠ
Ġs hÃ©ngĠ
ĠĠ ĠbÃ¡iĠ
bÃ¹ ĠlÇĶ
ĠduÃ¬Ġ chÃ¨nĠ
ĠluÃ³ ĠbÃ³
ĠxÃ¬ngĠ cÃºnĠ
kÄĽ ĠzÃłiĠ
Ġ200 9
ĠlÇĲngĠ shÃ¬Ġ
0Ġ ÅįuĠyuÃ¡nĠ
ĠzÅ«nĠ zhÃ²ngĠ
1 7ĠniÃ¡nĠ
D A
de ĠyÃ¹
ĠhÃ© ĠfÇİ
ĠzhÃ¬Ġ yÃŃ
jÃ¹ ĠbÄĽnĠ
ĠbiÄģo ĠjÃ¬Ġ
ĠqiÄģnĠ yuÄĵ
Ġ8 5
ĠtiÄĽ Ġ
ĠzhÅ« ĠsÄģiĠ
Ġ14 8
dÇĲ ĠkÃłngĠ
miÃ¡o ĠhuÃ¬Ġ
ver s
ĠĠ ĠbÃ³
ĠĠ ĠfÄĵnĠbÃ¹Ġ
ĠhÃ© ĠgÇĶ
wÃ©iĠ zhÇĲ
ĠzhÃ¨ ĠduÃłnĠ
duÃ¬Ġ yÃ¬ngĠ
zhÃ¹ ĠlÇĲ
ĠluÃ³ ĠmÇĶ
ĠsÄģnĠ jiÃ¨ĠquÃ¡nĠguÃ³
ĠqÅ« ĠdÃ²ngĠ
ĠsÃ¬Ġ yuÃłnĠ
fÃº ĠlÃ¬Ġ
ĠwÃłnĠ mÃŃngĠ
Ġ6 ĠgÃ¨
fÃ¡ngĠ yÃ¹
hÃ¡ngĠkÅįngĠ mÇĶĠjiÃłnĠ
qÇĲngĠ qiÃº
xiÄģngĠguÄģnĠ de
1 1ĠniÃ¡nĠ
a in
ĠyÄ« ĠshuÅį
ĠhÃ© ĠzhÅįngĠ
ĠgÄģiĠ dÃ¬ĠqÅ«
ĠnÃ¨iĠ yÃł
fÃº ĠzhÅįu
yÄ«ngĠ jÅ«nĠ
ĠtÃ³u ĠzÄ«Ġ
zÇĴngĠ cÃ¡iĠ
kÅįngĠ zhÅįngĠ
ĠwÄĽiĠyuÃ¡nĠhuÃ¬Ġ wÄĽiĠyuÃ¡nĠ
ĠyÃºĠ201 0ĠniÃ¡nĠ
ĠyÃ© ĠfÅ«
ĠchÅ«ĠrÃ¹ ĠkÇĴu
ĠyÃ¬ĠsiĠ shÃ¬Ġ
Ã¨ ĠhuÃłĠ
ĠĠ ĠmÃ²
ĠĠ ĠgÄģiĠdÃ¬Ġ
ĠdÃłnĠ yÄ«nĠwÃ¨iĠ
shÃ¨ ĠqÃºnĠ
mÄĽiĠ tiÄģnĠ
gÃ²ngĠ hÃ©ĠdÇİngĠ
ĠtÃŃ ĠchÅ«Ġde
ĠchÃ¡ngĠ wÃ¹
ĠchuÃ¡nĠ shuÅįĠ
yÇİnĠ yÃ¬Ġ
ĠsÃł ĠlÄģ
ĠjÃ¬ĠniÃłnĠ bÄĵiĠ
ĠmiÃ¨ ĠwÃ¡ngĠ
guÃ³ĠmÃŃnĠ zhÃ¨ngĠfÇĶ
ĠkÃ¨ĠluÃ³ ĠdÃ¬ĠyÃł
zhÃ¨ĠjiÄģngĠ shÄĽngĠ
l as
Ġd i
hÃ© ĠliÃº
ĠzÃłiĠ ĠĠ
ĠbÃ¹ ĠshÃ²u
yÇĶ ĠzhÃ²u
zhÃ¨ ĠcÃ¬Ġ
ĠlÃ¹ ĠjÃ¬ngĠ
ĠxÃ¬Ġ jÅ«nĠ
jÃ¹ ĠjÃŃĠ
ĠzhÇĲ ĠlÃ¬ngĠ
ĠsÃ¬Ġ shÃ¬Ġ
biÄģnĠ de
tÃ³u ĠpiÃłoĠ
ĠqiÄģnĠ wÃłnĠ
ĠchÇĶ ĠcÃºnĠ
am eĠ
cÇİiĠ fÇİngĠ
ĠxiÃłnĠdeĠyÃŃĠgÃ¨ ĠxÃŃngĠzhÃ¨ngĠzhÃ¨nĠqÅ«Ġ
Ġ á
Ãło ĠsÄ«ĠkÇİ
ĠrÃ©nĠ cÃ¡iĠ
bÃ¹ ĠzhÃ¬Ġ
bÃ¹ ĠbiÃłnĠ
ĠyuÃ¡nĠ shuÃłiĠ
ĠshÃ¨ ĠzÃłiĠ
ĠshÃ¹ ĠmÃ¹
ĠchuÃ¡nĠ chÇİngĠ
ĠyÄ«Ġ hÃło
ĠzhÄĵnĠ chÃ¡
ĠdÃŃ ĠyÃł
ĠyÃ¬nĠ shuÄģ
ĠjÄ«ngĠjÃ¬Ġ xuÃ©
zhÇĶĠyÃ¬Ġ de
ĠkÃłngĠ zhÃłnĠ
ĠzÄģo ĠyÃ¹
gÅįngĠgÃ²ngĠ jiÄģoĠtÅįngĠ
hÃ© ĠlÇĲ
ĠjiÄģ ĠsÃ¹
ĠjiÃłnĠ zhÃ¬Ġ
ĠkÃ¨ ĠlÃ©iĠ
zhÇĶ ĠjuÃ©Ġ
ĠmÇİ ĠgÃ©
jiÄģngĠ tÄģ
ĠzÇĴngĠ gÃ²ngĠ
Ġ200 8
yÄĽ ĠkÄĽĠyÇĲ
jiÄģo ĠhuÃ¬Ġ
qÄ«ngĠ dÇİo
ĠdÅįu ĠbÃ¨iĠ
ĠqiÄģnĠ mÃŃngĠ
ĠzhÄĵngĠ fÃº
ĠchÄģo ĠyuÃ¨
jÅ« ĠzhÃ¹Ġ
zÇĲ ĠdÃłnĠ
ĠchuÄģnĠ guÃ²
ĠwÄĵnĠ dÃłiĠ
ĠshÄĽnĠ yÃ¡ngĠ
ĠzuÃ¬ĠgÄģo ĠfÇİĠyuÃłnĠ
kuÃ² ĠdÃł
gÅįngĠzuÃ² ĠshÃ¬Ġ
ĠniÇĶĠyuÄĵ ĠzhÅįu
tÇĲĠyÃ¹ ĠguÇİnĠ
ĠshÄģnĠmÃłiĠ deĠyÄ«ĠbÃ¹ĠfÃ¨nĠ
P h
r ac
ĠĠ ĠwÃ¨iĠyÃº
de ĠhuÃł
ĠwÃ¨iĠ mÄĽiĠguÃ³
zhÃ¬Ġ 197
xiÃłngĠ zhÄĵngĠ
ĠzhÇİngĠ yuÄĵ
ĠshÄ« ĠziĠ
shÄģnĠ xÄ«
ĠwÃłnĠ zhÄģngĠ
ĠgÇİiĠ liÃ¡ngĠ
ĠzÄ« ĠzhÃ¹
biÄģnĠ wÃ¨iĠ
eĠĠĠ R
shÄģ ĠnÃŃĠyÃł
ĠxÅ« ĠgÃ²u
deĠyÄ« ĠtiÃ¡o
ĠshÇĶĠde ĠzhÃŃĠwÃ¹Ġ
ĠzÄĵngĠjiÄģ Ġle
r Ã¨Ġ
ĠshÃ¬Ġ gÄģiĠ
chÃ©ngĠ qÅ«
rÃ¨nĠ zhÃŃ
xÄ« ĠshÅįu
ĠlÃ¹ ĠdÃ©
ĠmÇİ ĠtÃ³u
ĠquÃ¡nĠ de
ĠlÃŃnĠ chuÃ¡ngĠ
ĠfÄĵngĠ miÃłnĠ
ĠyÇĲnĠ jÃ¬nĠ
tuÃ¡nĠ zhÇİngĠ
zhuÄģnĠ jiÄģ
Ġ17 3
zÃłnĠ shÃŃ
ĠyÃ¬nĠdÃ¹ ĠnÃŃĠxÄ«ĠyÃł
jÃ¬ngĠwÃłiĠ shÅ«ĠrÃ¹
ĠĠ ĠjÃ¬Ġ
ĠdÃ¬Ġ hÇİiĠ
ĠbÃ¹ ĠbÃ¹ĠzhÇİngĠ
ĠdÃł ĠliÃ¡nĠ
ĠjiÄģ ĠÄĽr
ĠzhÄ« ĠqiÃºĠduÃ¬Ġ
ĠshÃłngĠ fÇİĠlÃ¡nĠxÄ«
hÃº ĠbÄĽiĠshÄĽngĠ
Ġ2 50
wÃłiĠ jiÃ¨
dÃ¬ngĠ jÅ«
zhÅįngĠguÃ³ ĠgÃ²ngĠchÇİnĠdÇİngĠ
Ġ199 0ĠniÃ¡nĠdÃłiĠ
ĠshÇĲĠyÃ²ngĠ le
ĠxÅ« Ġde
ĠÃ¨r ĠzhÃłnĠ
kÄģiĠshÇĲ ĠzÃłiĠ
ĠjiÃłngĠ lÇĲngĠ
5 ĠgÃ¨
6 00
9 0ĠniÃ¡nĠdÃłiĠ
Ġy Ã¡Ġ
de ĠzhÅįngĠguÃ³
yÄ« ĠlÃ¬Ġ
rÃ©nĠ suÇĴ
ĠzhÃ¨ngĠ quÃłnĠ
jiÃłnĠ yÇĴu
ĠchÅ« ĠzÃ¬Ġ
ĠzhÇĶ ĠliÃº
ĠqiÃ¡nĠ jÃ¬nĠ
zhÇĶ ĠtÃŃĠ
ĠmÃ³ ĠgÄĵnĠ
ĠtÄģĠmenĠ shÃ¬Ġ
Ġ6 9
ĠbÄ«ngĠ chuÄģnĠ
ĠwÇĴ Ġ
ĠshÃ¬ĠjiÃ¨ ĠyÃŃĠchÇİnĠ
ĠhÃ²uĠlÃ¡iĠ zÃłiĠ
dÃ²u Ġ
ĠliÃłnĠ xÃŃ
ĠyÃºĠ201 8ĠniÃ¡nĠ
ĠchÃ³u ĠbÃ¨iĠ
wÃ©iĠyÄ« Ġde
4 ĠniÃ¡nĠ1ĠyuÃ¨Ġ
ĠzÃłiĠ yÃ¬ĠqÇĲĠ
ĠdÃł ĠqÃ¬Ġ
ĠhuÃ¬Ġ huÃł
ĠlÃ¡iĠ wÃ¹
dÃło ĠlÃ¹Ġ
wÃ¹ ĠpÇĶ
hÃ¡iĠ bÄģoĠkuÃ²
chÄĵngĠ zuÃ²
yÄĽ ĠbÃ¹
ĠchÄĵngĠ zhÄ«ĠwÃ¨iĠ
yÄ«ngĠ guÃ³Ġ
ĠyÃ¨ ĠjiÄģnĠ
ĠbÇİo ĠjiÃłnĠ
ĠÄģnĠ huÄ«ĠshÄĽngĠ
ĠA n
en si
ĠxÄ«Ġ hÃ©
ĠjÄ«Ġ hÃ©
ĠquÃ¡nĠguÃ³ ĠzhÃ²ngĠdiÇİnĠwÃ©nĠwÃ¹ĠbÇİoĠhÃ¹ĠdÄģnĠwÃ¨iĠ
liÃ¡o Ġ
ĠyÃºĠ201 7ĠniÃ¡nĠ
ĠfÄĽnĠ sÄ«
hÃºĠnÃ¡nĠ shÄĽngĠ
I R
T P
de ĠxÃŃngĠshÃ¬Ġ
Ġde ĠlÃ¬ĠshÇĲ
ĠhÃ© ĠbÄĽiĠshÄĽngĠ
ĠlÇĲ ĠgÅįngĠ
ĠduÅį ĠyuÃ¡nĠ
ĠgÄģiĠ zhÃłnĠ
yÃ¡nĠ hÇİiĠ
ĠshuÇĲ ĠkÃ¹
jÃº ĠjÃºĠzhÇİngĠ
ĠpÃŃ ĠlÃŃnĠ
ĠwÃ² Ġ
ĠĠĠbÄĽnĠ shÇĶ
ĠtÃłnĠ suÇĴ
ĠĠĠ194 5ĠniÃ¡nĠ
ĠbÃ¬ngĠjiÄģngĠ qÃŃ
ĠnÃ¨ ĠshÄĽngĠ
ĠwÃºĠxiÃłnĠ diÃłnĠ
bÇĲĠlÃ¬Ġ niÃº
shÃŃĠyÃłnĠ shÃ¬Ġ
ĠhÃºĠnÃ¡nĠ shÄĽngĠ
M P
gÅįngĠ zhÇĶ
ĠyÇĶ ĠyÇĲ
ĠxÄ« ĠrÃ¬ĠbÄĽnĠ
fÄģngĠ chÃ©ngĠ
pÃŃngĠ hÃ©ngĠ
zhÃ¨nĠ wÃ¡ngĠ
dÅįngĠ bÃ¹Ġ
fÄĵnĠ lÃŃ
ĠbÇİo ĠjiÄģĠlÃ¬ĠyÃł
ar i
ĠxiÇİngĠ yÃ¬ngĠ
zhÇİnĠ xiÃłnĠ
xiÄģo Ġ
ĠruÃ² ĠgÄģnĠ
ĠduÇİnĠ piÃłnĠ
ĠĠĠs t
ĠduÃ³ Ġ
ĠbÇİoĠ ÄģnĠ
ĠxiÇİoĠshÃŃ ĠnÃ¨iĠ
ĠfÄģĠdÃ²ngĠ jÄ«
xiÃłĠxiÃ¡ ĠyÇĲĠxiÃłĠdÃ¬ĠqÅ«Ġ
1 000
9 ĠyuÃ¨Ġ1ĠrÃ¬Ġ
D NA
p Äģo
t iÄģo
ĠjiÄģ ĠzhuÄģngĠ
ĠgÄģiĠ zÇĶĠzhÄ«
ĠxÃ¬ngĠ hÃ©
sÃ¬Ġ yuÃ¨
ĠchÃ¡ngĠ chÅ«nĠ
âĢ ĭ
kÇİ ĠÄĽr
ol og
ĠhÃ¨ Ġ
ĠyÃ¬ĠwÃ¨iĠ zhe
a i
ĠwÃ¨iĠ tÄģ
ĠtÄģ ĠshuÅįĠ
ĠzhÃ¬Ġ shÃ¬Ġ
ĠxiÃł ĠwÇĶĠ
yÃŃ ĠzhÇĲĠ
shÇĴu ĠdÃ¹
shÇĴu ĠduÃłnĠ
xÃ¬ngĠ zhÃ¬Ġ
ĠzhÄģngĠ zhuÄģnĠjÃŃ
fÄĵiĠ fÇİ
cÃ©ngĠ yÃº
bÃłnĠ lÇĲ
ĠhÄģ ĠlÇĲ
chuÃłngĠ zuÃ²Ġ
ĠshÃło ĠjiÃłngĠ
eĠĠ Ġf
ĠsÄģ ĠlÄĽngĠ
0 2
de ĠqÄ«ngĠ
de ĠshuÇĲ
de ĠshÃ¨ĠjÃ¬Ġ
de ĠxÃŃngĠwÃ©iĠ
ĠrÃ©nĠ wÃ©iĠ
ĠyÄ« ĠfÃ¨nĠ
ĠjÃŃ ĠduÄģnĠ
ĠjÄ« ĠchÇĶĠ
sÄ« ĠlÃ¬Ġ
zhÃłnĠ tÄ«ngĠ
ĠzhÃŃ ĠyuÃ¡nĠ
xiÃł ĠtiÄģnĠ
jiÄģnĠ yÃ¹
ĠbÅį ĠshÃ¬ĠdÃ¹nĠ
ĠzÇĲ ĠdÃłnĠ
ĠzhÅįuĠ ÄĵnĠlÃ¡iĠ
et h
guÃ³ĠjÃ¬Ġ zÃº
liÃ¡o ĠnÃŃngĠ
ĠguÇĲ ĠdÃłoĠ
0 5
e h
ĠĠ ĠyÃ¬ĠbÄģnĠ
ÃłnĠ zhÅįngĠ
ĠshÃ¬Ġ bÃ¨iĠ
ĠshÃ¬Ġ bÃ¬Ġ
wÃ¨iĠ lÃŃnĠ
ĠgÃ¨ ĠdÃł
ĠgÃ¨ ĠtÇĲ
chÃ©ngĠ zhÇİngĠ
rÃ¨nĠ zhÃ¨ngĠ
ĠxÄ«nĠ shÃ¬Ġ
ĠguÃ² ĠyÃº
wÇİngĠ shÃłngĠ
ĠyÃ¬nĠ xiÃłngĠ
jiÃłngĠ yÇĶĠliÃłngĠ
ĠyÅįu ĠxiÄģnĠ
ĠyÃºĠ201 1ĠniÃ¡nĠ
kuÃ² ĠzhÄģngĠ
igh t
1 ĠmÇĲĠ
8 0ĠniÃ¡nĠdÃłiĠ
de ĠshÅ«
ĠwÃ¨iĠ xÄ«nĠ
ĠrÃ©nĠ rÃ¨nĠwÃ©iĠ
ĠwÃ©iĠ jÄ«ĠbÇİiĠkÄĵ
ĠshÃ¨ ĠxiÃ¡nĠ
xÄ« ĠfÇİ
ĠluÃ³ ĠjÃŃ
lÃ¹ ĠzhÃłnĠduÃ¬Ġ
ĠmiÃłnĠ tÇĲ
mÃ¹ ĠnÃŃĠhÄĵiĠ
ĠyÃ¡nĠjiÅ« ĠzhÅįngĠxÄ«nĠ
jÇĲnĠ yÇĴu
xiÄģo ĠshÄ«Ġ
ĠshÃŃĠjiÄģnĠ wÃ¨iĠ
mÃ¡o Ġ
ĠqÅ«Ġde ĠfÃ¹ĠzÃ©ĠguÇİnĠxiÃ¡Ġ
Window sĠĠĠ
de ĠfÄĵiĠ
Ġde ĠshÃŃĠhÃ²uĠ
ĠdÃ¬Ġ shÃ¬Ġ
ĠbÃ¨iĠ gÃło
ĠmÇİ ĠkÃ¨Ġ
diÃłnĠ huÃł
tÃŃ ĠchÅ«Ġle
ĠjiÄģo ĠdiÇİnĠ
kÄĵ ĠdeĠqÃŃĠzhÅįngĠyÄ«ĠzhÇĴngĠ
ĠwÇİngĠ mÃŃnĠ
ĠwÇİngĠ fÇİnĠ
hÃ¡ngĠkÅįngĠ gÅįngĠsÄ«
ĠsÇĶnĠ shÄ«Ġ
jiÄģĠrÃ¹ Ġle
ĠrÃ²u ĠshÃŃĠxÃ¬ngĠ
chÄģ ĠyÃ¬Ġ
jÃ¬ĠsuÃłnĠ jÄ«
ĠĠ ĠfÄĵnĠ
Ġm aĠ
ĠshÃ¬Ġ zuÃ¬Ġ
ĠzÃłiĠ dÄģngĠshÃŃ
shÃŃ ĠsÄģnĠ
bÃ¹ ĠxiÃ¡ngĠ
ĠzhÃ¬Ġ piÃłnĠ
ĠdÃ© ĠlÃ¡nĠ
ĠjiÃłnĠ zÃłoĠ
ĠzhÅįu ĠjÃ¬Ġ
chÅ« ĠdÃło
ĠlÃ¹ ĠsÄģĠlÄĽngĠ
nÃ¡nĠ fÄĵiĠ
ĠkÄĵ ĠxuÃ©Ġ
ĠqÅ« ĠyÃ¬ĠhuÃ¬Ġ
ĠhuÃł ĠguÄ«
bÄĽiĠ fÄģngĠ
biÄģnĠ mÇİ
ĠjÇĲngĠ diÇİnĠ
in u
jÅ« ĠzhÃ¹
ĠchÃ©ngĠlÃ¬Ġ le
dÄ« ĠyÃº
inc lu
A L
G C
ĠĠ ĠfÄģĠxÃŃngĠ
de ĠjÃ¬Ġ
Ġde ĠnÃ¡nĠ
shÃ¬Ġ zhÅįngĠxÄ«nĠ
ĠzhÅįngĠ yuÃ¡nĠ
ĠzhÃ¬Ġ nÃ©ngĠ
yÃ¬Ġ miÃ¡o
ĠzhÅįu ĠdeĠyÃŃĠgÃ¨ĠshÃ¬ĠzhÃ¨nĠ
ĠxiÃł ĠfÄģngĠ
shÄĽngĠ hÃ©
gÇİiĠ jiÃłnĠ
ĠĠĠlÃ¬Ġ shÇĲ
ĠshÇİo ĠliÃłngĠ
Ġ100 Ġ
ĠgÄģoĠsÃ¹ ĠgÅįngĠlÃ¹Ġ
kÃ¨ĠlÇĲ ĠmÇĲĠyÃł
6 ĠyuÃ¨Ġ1ĠrÃ¬Ġ
ĠĠ ĠzÇĴngĠ
ĠĠ ĠyÇĴngĠ
shÃ¬Ġ duÃ¬Ġ
ĠshÃŃ Ġ30ĠfÄĵnĠ
ĠzhÃ¬Ġ yuÃłnĠ
ĠzhÃ¬Ġ 198
ĠxÃŃngĠ chÄĵ
ĠzhÄ« Ġde
jÄ« ĠqiÄģngĠ
ĠfÄģ ĠshÃ²u
ĠgÄģo ĠxiÃło
hÇİiĠ shÃłngĠ
ĠrÃ¡nĠ shÄģo
zhÄĵngĠ yuÃ¨
rÃ³ngĠ yÃ¹
ĠbÃłiĠ zhÃłnĠtÃŃngĠ
ĠqÃºnĠ tÇĲ
zhÃ¨ngĠzhÃ¬Ġ rÃ©nĠwÃ¹Ġ
2 2Ġ
b aĠ
t ÇİoĠ
ĠĠ ĠsuÇĴ
ĠĠ ĠtÄģĠzÃłiĠ
xiÃł ĠzÃłiĠ
zhÅįu ĠqÄ«
tÃ³ngĠ zhÃ¬Ġ
ĠgÇİiĠ rÃ¨nĠ
fÄĵiĠ dÃłnĠ
ĠtiÃ¡o ĠlÃ¬Ġ
ĠyÇĲngĠ pÃŃngĠ
eĠĠĠ T
liÇİngĠ mÃŃngĠ
Ġ9 5
guÄ« ĠzÃ©
kÄĽĠyÇĲ ĠzÃłiĠ
ĠdeĠshÃŃ ĠhÃ²u
ĠgÃ²ngĠhÃ©ĠguÃ³ Ġ
oun d
ĠjÃ¬nĠshÃ¬Ġ chÅ«ĠshÄĵnĠ
l ÇĴngĠ
Ġs t
ĠniÃ¡nĠ de
ĠdÃł ĠliÃ¡nĠmÃ©ngĠ
ĠjiÄģ ĠyÇĲ
ĠmÃŃngĠ dÃłiĠ
ĠshÇĴu ĠzhÅįngĠ
quÃ¡nĠ tÇĲ
xÃ¬Ġ de
ĠcÃ©ngĠ yÇĴu
suÇĴ ĠshÇĶ
jÄ«nĠ rÃ¬Ġ
ĠqÄ«ngĠ hÇİiĠ
pÇĶ ĠsÄĵnĠ
wÄĵiĠ jÄ«Ġ
zhÄĵnĠ zhÃ¨ngĠ
ĠzhuÇİnĠ Ã©r
ĠzhuÇİnĠ biÃłnĠ
ĠyÃŃngĠ yÇİngĠ
ĠyÄ«nĠwÃ¨iĠ tÄģĠmenĠ
ĠĠĠ199 7ĠniÃ¡nĠ
wÄĵnĠ dÃ¹
b ÄĵnĠ
b Ã¡Ġ
g r
ĠĠ ĠzuÃ¬Ġ
Ġn ÇİoĠ
Ġsh Äĵ
xi Äģ
ĠdÃ¬Ġ guÃ³Ġ
ĠhuÃ¬Ġ shÃ¬ĠdÃ¬Ġ
ĠyÃ¡nĠ zhÃ¬Ġ
ĠshÇĴu ĠdÃ¹
ĠjÅ«nĠ jiÃłnĠ
ĠkÄģiĠ bÃłnĠ
qi Çİ
ĠlÇĶ ĠmÃ¹
yÇĲnĠ jÃ¬nĠ
ĠzhuÃłngĠ zÃº
zÃłnĠ tÃŃngĠ
ĠĠĠ199 8ĠniÃ¡nĠ
ĠxÃŃngĠchÃ©ngĠ le
Ġ190 5ĠniÃ¡nĠ
ĠchÅ«ĠbÇİnĠ shÃ¨
kÇĴngĠ bÃ¹
mÃŃ ĠnÇĲ
i el
o x
Ġz uÃłnĠ
bÃ¹ ĠqÄ«ngĠ
ĠxiÃłnĠ jÃŃ
ĠjiÃłnĠ zhÃ¨ngĠ
ĠjiÃłnĠ qiÃ¡o
xiÃłnĠ zhÇİngĠ
mÃŃnĠ dÇİngĠ
ĠfÃº ĠhÃło
jiÄģngĠ xÄ«
ĠzÇĴngĠ Ã©ĠwÃ¨iĠ
ĠxuÇİnĠ xiÃ¹
ĠliÃ¨ ĠsÄ«
gÇĶ ĠlÃ¬Ġ
lÇľ ĠshÄ«
ĠmÃłnĠ huÃłĠ
ĠrÃ©ngĠ zÃłiĠ
rÃłngĠ tÄģ
ĠkÅ«nĠ chÃ³ngĠ
ĠyÇİngĠhuÃł ĠtÃłnĠ
aceb ook
e ĠĠĠde
ĠshÃŃ ĠzÃłiĠ
yÄ« ĠrÃ©nĠ
ĠshÃ¹ ĠbÇİiĠ
zhÃłnĠ dÃ¬Ġ
ĠsuÇĴ ĠzhÇİngĠ
ĠyÃ¡nĠ gÃ©
ĠjiÃło ĠqÅ«Ġ
ĠyÃ¹ ĠbÃ¨iĠ
ĠshÄģnĠ xiÃłnĠ
ĠdÄģnĠ dÇİ
ĠhÃ¡nĠ shÃ¹
deĠshÃŃ ĠhÃ²u
ĠzÃłiĠcÇĲ ĠqÄ«ĠjiÄģnĠ
ĠxÄ«nĠzÄĵngĠ bÄĽnĠtÇĶ
ĠhÃ¹nĠ hÃ©
n ÇĲĠ
ĠĠ ĠtÃ³ngĠ
Ġde ĠchÃ©ngĠshÃ¬Ġ
Ġde ĠwÃ¨iĠzhÃ¬Ġ
ĠzÃłiĠ Äģ
ĠshÃŃ ĠshÄ«Ġ
ĠyÄ« ĠgÃ²ngĠ
ĠhÃ© ĠdÅįngĠ
ĠguÄģnĠ de
kÄĵ ĠxuÃ©ĠyuÃłnĠ
yÇİnĠ zÃ²u
eĠĠĠ L
ĠbiÃ© ĠmÃŃngĠ
ĠshÅįu ĠrÃ¹Ġ
ĠzÄĵngĠ shÃ¨
pÃŃnĠ dÃłoĠ
zhuÃłnĠ xiÄĽ
ĠĠĠE n
U R
e at
u per
Ġp ÇĲĠ
ĠshÄĵngĠ jÃŃ
ĠzhÃ¨ ĠshÇĲĠde
ĠzhÃłnĠ shÃ¹
shÃ¨ ĠjiÄģo
ĠbÄĽiĠ sÃ²ngĠ
Ġ2 5Ġ
ĠchÃ¡ ĠlÇĲ
bÃ¬ngĠ wÃº
tÃŃ ĠjÃŃ
ĠjiÄģo ĠjiÃ¨
Ġ7 6
ĠxÇĶ ĠkÄĽ
chÃ³ngĠ fÇİnĠ
ĠjÇĲ ĠnÃ¡nĠ
xiÄģo ĠfÃ¡ngĠ
ĠÃ© Ġ
dÃłngĠ zuÃ²
nÇĶ ĠlÃ¬Ġ
8 ĠgÃ¨
ĠyÄ« ĠxÃ¬ĠliÃ¨
ĠchÃ©ngĠ qiÃ¡ngĠ
ĠyÇĴu Ġzhe
ĠlÃ¡iĠ shuÅį
bÃ¨iĠ bÇĶĠ
ĠqiÃ¡nĠ zÃłiĠ
ĠbÄģ ĠlÇĲ
ĠsÄģnĠ wÃ¨iĠ
jiÃło ĠshÄ«
ĠchÃ¡ngĠ ÄģnĠ
ĠshÃ¨ngĠ dÃłnĠ
diÇİnĠ lÇĲ
cÃ³ngĠ wÃ¨iĠ
cÃ¡iĠ pÃłnĠ
Ġ16 7
ĠchÄģo ĠrÃ©nĠ
yÄģoĠqiÃº Ġ
fÄĵnĠbiÃ© ĠwÃ¨iĠ
shÄ«ĠfÃłnĠ dÃłĠxuÃ©
b eg
ĠĠ ĠjÄ«ngĠ
de ĠlÃ¬ĠshÇĲ
ĠrÃ©nĠ wÃ©nĠ
bÃ¹ ĠlÃ¬Ġ
ĠyÃ¬Ġ kÄĽ
ĠzhÅįu ĠfÃ¹ĠzÃ©ĠguÇİnĠxiÃ¡Ġ
bÃ¨iĠ fÄģĠxiÃłnĠ
niÃ¡nĠ qiÃ¡nĠ
ĠqiÃ¡nĠ fÄĵngĠ
ĠgÄģo ĠdÃ¬Ġ
wÇİngĠ qiÃº
shuÇĲ ĠlÃ¬Ġ
ĠhÃº ĠbÄĽiĠshÄĽngĠ
ĠwÃ¡nĠchÃ©ngĠ le
zhÇĶĠchÃŃ Ġ
shÇİnĠ xÄ«
ÄģĠjÄ« ĠtÇİnĠ
Y Ġ
s hÃºĠ
Ġ XĠ
ĠyuÃ¨ ĠyÇĶ
ĠbÃ¹ ĠdÃ¡
zhÃ¬Ġ 194
ĠgÃ¨ ĠjÃŃ
ĠjiÄģ ĠlÄģ
rÃ©nĠ qÃºnĠ
ĠmÃŃngĠ nÃŃĠsÅ«ĠdÃ¡
xiÃłnĠ yÃº
zhÄ« ĠchÃ¹Ġ
ĠguÄģnĠ zhÃ¨ngĠ
ĠtÃ¨ ĠlÃ¬Ġ
ĠgÃ© ĠlÄģĠsÄ«
fÄĵnĠ zhÄ«
ĠjiÃ¹ ĠkÄĽĠyÇĲ
shÃ²u ĠsÇĶnĠ
ĠdÃº ĠtÃ¨
ĠmÃ©iĠyÇĴu ĠrÃ¨nĠhÃ©
ĠrÃ¨ ĠmÃ©nĠ
ĠhÃ²uĠlÃ¡iĠ de
Ġ191 6ĠniÃ¡nĠ
ĠxÄ«ĠyÃł Ġ
ĠyuÄĵĠsÃ¨ ĠfÅ«Ġ
hÃ© ĠdÅįngĠ
de ĠyuÃ¡nĠyÄ«nĠ
ĠbÃ¹ ĠshÇĶ
ĠyÃº Ġ2020ĠniÃ¡nĠ
dÃł ĠshÇĲĠ
ĠxÄ« ĠdÃ©
ĠzhÃ¨ngĠ dÃ©
ĠzuÃ² ĠfÇİ
yÃŃ ĠchÇİnĠ
ĠfÅ« ĠkÇİĠ
chuÃ¡nĠ shuÅį
ĠtÄģĠde ĠfÃ¹ĠqÄ«nĠ
xÅ« ĠqiÃº
zhÄ«Ġ hÃ²uĠde
yÃ¬nĠ nÃŃ
Ġ191 5ĠniÃ¡nĠ
ĠzhÇĶĠchÃŃ Ġ
N et
z uÇĲ
ĠĠ ĠdiÃłnĠ
yÇĴu ĠzhÃ¹
Ġle ĠtÄģ
ĠyÃŃ ĠmiÃłnĠ
ĠxiÃł ĠwÇĶ
ĠxiÄģngĠ shÃ¬Ġ
ĠfÇİ ĠxuÃ©
fÄĵnĠ qÅ«
kÄĽ ĠqiÃ¡nĠwÇİngĠ
mÇİ ĠchÇİngĠ
ĠzhÃ²ngĠ rÃ©nĠ
ĠtuÃ¡nĠ jiÃ©
ĠxiÄģnĠ wÃ©iĠ
bÄģ Ġ
qÃºnĠ zhÃ²ngĠ
ĠgÅįngĠchÃ©ngĠ shÄ«
ĠK Ġ
C P
ĠĠ ĠjiÃłnĠzhÃ¹Ġ
Ġt ÃłoĠ
Ġn Ãło
de ĠshÄ«
ĠjÃŃ ĠkÄĽ
ĠhÃ© ĠhÃ©
gÅįngĠ jiÄģo
xÃŃngĠ mÃ¹
zuÃ² ĠzhÄĽ
ĠjÃ¬nĠ jÅ«nĠ
ĠdÃłiĠ bÇĶ
dÃłiĠ bÇĶ
ĠguÄģnĠ kÃłnĠ
zhÃłnĠ wÃ¨iĠyÃº
ĠfÃº ĠshÃ¨
pÃŃngĠ jiÃł
ĠdÃ¡ ĠnÃŃĠ
tiÄģnĠ qÃ¬Ġ
bÅį ĠsÄ«
ĠtiÃ¡o ĠkuÇİnĠ
lÇĲngĠ yÃ¹Ġ
ĠÄģnĠ nÃł
ĠcÃŃ ĠkÃ¨
ĠgÇİnĠ juÃ©
shÅįu ĠjÃŃ
huÃłnĠ xiÇİngĠ
ĠliÃ¡nĠsÃłiĠ guÃłnĠjÅ«nĠ
ĠsÅ«nĠ ziĠ
2 1Ġ
A V
o ngĠĠĠ
s Äģo
Ġb Ã¨nĠ
wÃ¨iĠ xÄ«nĠ
bÃ¹ ĠlÄģ
Ã©r ĠwÃ©nĠmÃŃngĠ
yÇĲ ĠdÅįngĠ
ĠhuÃ¡ ĠbÄĽiĠ
duÅį ĠrÃ©nĠ
wÃłiĠ de
ĠchÃ¡ngĠ jiÃłnĠde
an k
ĠchÇİnĠ liÃłngĠ
ĠcÃŃ ĠxÃ¬ngĠ
ĠzhÇĶnĠ quÃ¨
rÃº ĠcÇĲ
bÄ«ngĠ bÃ¹
xiÇİnĠ zhÃ¹
yÃ³uĠxÃ¬Ġ de
ĠyÃłĠlÃ¬ĠshÄģnĠ dÃł
Ġl Ã¡
zÃłiĠ dÃł
ĠyÄ« ĠwÃłnĠ
yuÃ¡nĠ sÃ¹Ġ
ĠzhÃ¬Ġ yÃŃĠ
ĠbÃ¬ngĠ bÃºĠshÃ¬Ġ
qÅ« ĠfÄĵnĠ
niÃ¡nĠ dÃłiĠ
mÄĽiĠ rÃ¬Ġ
ĠqÄ« ĠwÃłngĠ
ĠshÃ¨ngĠ xiÃł
ĠliÃ¨ ĠnÃŃngĠ
ĠchuÃ¡nĠ zhÄ«
ĠhuÃ²ĠdÃ© Ġ
ĠhÃº nĠ
18 7
tuÅį ĠlÃŃ
ĠtÅ« ĠchÅ«
liÃ¡nĠhÃ© ĠhuÃ¬Ġ
cuÄ« ĠhuÇĲ
ĠĠ ĠdÃ©
shÃŃ ĠlÃ¬Ġ
ĠbÃ¬ngĠ kÄģiĠshÇĲ
ĠfÃ¹ ĠshÃ¬Ġ
ĠdeĠ hÃ³ngĠ
lÃŃnĠ jÃ¬nĠ
ĠshÄģngĠ wÃ¹
Ġ12 7
ĠxiÄĽ ĠzuÃ²
ĠpÃłnĠ duÃłnĠ
sÃł ĠsÄ«
ĠdÃłngĠ wÇİnĠ
ĠlÃłngĠ mÃłnĠ
xiÄĵ ĠgÄĵnĠ
dÇĲĠcÃ©ngĠ shuÇĲĠyÃ¹Ġ
0 1
m m
ĠĠ ĠsÃłiĠ
de ĠliÇİngĠ
Ġde ĠxiÄģngĠ
ĠyÃº Ġ2019ĠniÃ¡nĠ
ĠjiÃłnĠ guÃ³
ĠtÃ³ngĠ shÃ¬Ġ
ĠshÃ¨ ĠjÄ«
ĠnÃ¡nĠ nÇļ
sÄ« ĠrÃ©nĠ
ĠjÃ¹ ĠjÃŃĠ
ĠshÄģ ĠrÃ©nĠ
ĠzhÄĵngĠ lÃ¹nĠ
shÅįu ĠshÃ¬Ġ
pÃ©iĠ xÃ¹nĠ
jiÄģoĠyÃ¬Ġ suÇĴ
g u
z hÃ²u
hÃ© ĠtÃ¡ngĠ
hÃ© ĠchÃłngĠ
ĠwÃ¨iĠ jÄ«ngĠ
zÃłiĠ 198
ĠtÄģ ĠbiÇİoĠshÃ¬Ġ
ĠhÃ© ĠyuÄĵ
ĠshÃłngĠ dÃ¬Ġ
ĠdÃłnĠ gÄģiĠ
ĠhÃ²u ĠxuÇİnĠrÃ©nĠ
ĠdÄĽngĠ jÃŃ
yÃ¹ ĠbÃ¨iĠ
fÄĵnĠ zhÅįngĠ
fÄĵnĠ chÃ©ngĠ
zhÃ²ngĠ duÅį
ĠbÇĲ ĠhÇİiĠ
ĠzhÄģngĠ dÄģnĠqÅ«Ġ
ĠdiÇİnĠ wÃ¨iĠ
ĠjÇĶ ĠrÃ©nĠ
ĠzhÄ«ĠhÃ²u Ġde
ĠmiÇİnĠ yÃ¬Ġ
Ġ191 0ĠniÃ¡nĠ
ĠcÄģnĠmÃ³u ĠzhÇİngĠ
a iĠ
l Çĺ
ĠĠ ĠshÇĴu
Ġm Çİo
ĠshÃŃ ĠchÃ¡ngĠ
bÃ¹ ĠwÃ¨iĠ
ĠhuÃ² ĠqÇĶ
ĠzhÃ¹ ĠyÇĴuĠ
lÃ¹ ĠzhÃłnĠ
ĠhÇİiĠ wÄģnĠ
ĠcÃ¨ ĠlÃ¼Ã¨
chÃ¨ ĠdÇĲ
n Çİ
ĠzÃłiĠ xiÃło
ĠwÃ¨iĠ rÃ¨ĠdÃłiĠ
zhÃ¬Ġ shÃ¬Ġ
ĠtÄģ ĠkÄģiĠshÇĲ
gÅįngĠ de
mÃŃngĠ chÃ¡o
ĠjiÄģnĠ guÇİnĠ
chÃ¡ngĠ dÃ¹
ĠzhÇĲ ĠhuÄ«Ġ
yÃ¹ ĠdÃło
liÃ¡nĠ luÃ²
ĠtÃŃ ĠcÃ¡iĠ
ĠnÇļ ĠrÃ©nĠ
Ġ6 7
ĠyÄģ ĠsuÅį
ĠxÅ«ĠyÃło Ġ
bÇĶ ĠchÅįngĠ
ĠshÃŃĠqÄ« ĠniÃ¡nĠ
ĠjÄ«ngĠguÃ² Ġ
ĠsÃłĠkÃ¨ ĠsÄĵnĠ
ĠĠĠgÃłiĠ shÃ¹Ġ
ali g
sÃłngĠ shÄĵngĠ
ĠÃ©ĠhÃłiĠ Ã©ĠzhÅįu
beg inĠ
n Ã¼Ã¨
de ĠfÇİnĠ
ÃłnĠ shÃ¬Ġ
ĠyÃ¬Ġ miÃ¡o
le r
ĠyuÃ¡nĠ wÃłiĠlÃ¡ngĠ
ĠnÃ¡nĠ sÃ²ngĠ
ĠyÃŃ ĠjÅ«
jÄ«ngĠ yÃ³u
ĠshÃ²u ĠdÃłoĠle
ĠmÃ©iĠ lÃ¬Ġ
juÃ© ĠyÃ¬Ġ
ĠĠĠ201 2
shÄģngĠ diÃłnĠ
guÄ« ĠfÃłnĠ
deĠjÄ« ĠhuÃ¬Ġ
ĠdeĠhÃ© ĠliÃºĠ
ĠsectionĠĠĠ beginĠ
I G
ĠĠ ĠpÃŃngĠ
ĠĠ ĠchÃº
ĠĠ ĠxÇĶĠduÅį
ĠshÃ¬Ġ qiÃ¡nĠ
Ġ1 0ĠniÃ¡nĠ
zhÃ¬Ġ yÃŃ
ĠyÃ¬Ġ tÃŃ
dÃł ĠlÇĲ
duÃ¬Ġ shÇĴuĠ
ĠxÄ«nĠ shÄĵngĠ
shÇĴu ĠjÄ«
xÃ¬ngĠ qÃ¹Ġ
xiÃ© ĠtiÃ¡o
xiÅ« ĠzhÃ¨ngĠ
fÃ¨iĠ chÃº
yÇĴngĠ jiÇĶ
shÄĽnĠ pÃłnĠ
ĠshÃ¬Ġ zhÃ¨ngĠfÇĶ
lÃ¬Ġ wÃ¨iĠ
bÃ¨iĠ liÃ¨ĠwÃ¨iĠ
ĠlÃŃ ĠbÄģĠnÃ¨nĠ
ĠjiÃ¨ ĠmiÃłnĠ
lÃ¨iĠ xÃŃngĠde
cÃ¡iĠ dÃ¬ngĠ
ĠlÃ¨ ĠyuÃ¡nĠ
ĠnuÃ² ĠbÃ¨iĠÄĽr
mÃło ĠxiÇİnĠ
Ġ190 6ĠniÃ¡nĠ
ĠdÄģ ĠzÃłiĠ
i on
guÃ³ ĠjÅ«nĠ
shÃŃ ĠjiÇĶ
ĠyÄ« ĠzhÃło
ĠsÄ« ĠwÃ©iĠ
ĠxiÃł ĠshÇĶ
ĠjÄ«ngĠ fÃ¨iĠ
zhÃ¹ ĠzÃłiĠ
ĠgÄģo ĠyuÃ¡nĠ
ĠbÄģ ĠlÃ¨ĠsÄ«ĠtÇİnĠ
ĠqÅ« ĠzhÃº
ĠliÃ¨ ĠbiÇİo
ĠÃłnĠ jiÃłnĠ
ĠzÇİo ĠzÃłiĠ
ĠhÇİo Ġde
tÃ¡o Ġ
chÃ¨ ĠxiÄģoĠ
ĠĠĠ199 4ĠniÃ¡nĠ
ĠdiÄģo ĠxiÃłngĠ
jÃ¬ngĠnÃ¨iĠ gÃ²ngĠyÇĴu
sÄģiĠÄĽr ĠwÃ©iĠyÃł
1 7Ġ
f li
Ġde ĠzÃ¬Ġ
ĠguÃ³ ĠwÃ¹
chÅ« ĠfÄģĠ
ĠxÃ¬Ġ de
sÃ¬Ġ shÃ¬Ġ
ĠtiÄģnĠ hÃ²u
zhÃ²ngĠ yÃ¬ĠyuÃłnĠ
ĠjiÃ¹ ĠjÄ«nĠshÄģnĠ
eĠĠĠ H
gÃ²u Ġ
ĠtiÃ¡nĠ xÃ¬nĠ
fÃ¡ngĠ wÅ«
Ã©ĠluÃ³ĠsÄ« Ġde
ĠsÇĲĠ hÃ²u
ĠgÅįu ĠtÅįngĠ
ĠzhÃłnĠliÃ¨ ĠjiÃłnĠ
1 50
ĠĠ ĠxiÃłnĠdÃłiĠ
ĠzhÅįngĠ lÃ¬Ġ
shÃŃ ĠwÇĶ
ĠtÄģ ĠyÃ¬Ġ
ĠgÅįngĠ bÃ¹Ġ
ĠzuÃ² ĠyÃ¨
ĠÃ©r ĠyuÃ¡nĠ
ĠfÃ¹ ĠshÇĲĠ
ĠdÃłiĠ zhÃ¹
ĠxiÃłngĠ liÃłngĠ
ĠbÄģ ĠlÃŃĠ
suÇĴ ĠshÇĶĠde
qiÃ¡nĠ xiÃłnĠ
yÇĲngĠ shÃ¬Ġ
ĠdÇİngĠ de
ĠdÃ¬ĠÃ¨r Ġ
ĠgÄĽiĠ shÃ¬ĠzhÅįngĠ
ĠgÃłnĠ bÃ¹
Ġ190 4ĠniÃ¡nĠ
ĠzÅ« ĠjiÃ¨
ĠzÃłiĠjiÄģ ĠshÃłngĠ
1 20
J R
Q u
i x
ĠĠ Ġy
Ġl uÇĴ
Ġp Åįu
ĠyÃº Ġ2022ĠniÃ¡nĠ
dÃ¬Ġ xÃŃngĠ
ĠjiÄģ ĠgÅįngĠ
ĠsÄ« ĠzÃłiĠ
le ĠxÇĶĠduÅį
ĠzhÃ¨ngĠ wÃ¹
ĠfÄģ ĠjuÃ©
ĠbÄģ ĠbÄģ
ĠliÃº ĠchuÃ¡nĠ
yÄĽ ĠzhÃłnĠ
dÄģnĠ yÄ«
ĠwÃłnĠ dÅ«nĠ
ĠlÃŃ ĠxÄ«nĠ
dÄģngĠ rÃ¬Ġ
ĠbiÄģnĠ fÃº
ĠjiÃ¨ ĠshÃłoĠ
lÇĲngĠ xiÃ¹Ġ
ĠniÃ¡nĠ11 ĠyuÃ¨Ġ1ĠrÃ¬Ġ
Ġ14 7
et t
ĠcuÃ² ĠshÄ«
Ġ190 7ĠniÃ¡nĠ
ĠmÃ³u ĠshÄģ
2 5Ġ
a j
k ÃłoĠ
ĠĠ ĠyÄ«nĠyuÃ¨
Ġb Ã¨ngĠ
hÃ© ĠshÃŃ
hÃ© ĠbÄĽiĠshÄĽngĠ
de ĠrÃ¬Ġ
ĠzhÅįngĠ jÃŃ
zÃłiĠ nÃ¨iĠ
ĠyÃº Ġ2021ĠniÃ¡nĠ
Ġ19 00ĠniÃ¡nĠ
ĠzhÃ¬Ġ pÇĲnĠ
lÃ¬Ġ ziĠ
ĠshÃłngĠ cÃ©ngĠ
ĠfÄĵnĠ chÃ©ngĠ
ĠlÄģ Ġde
ĠfÇİ ĠdÃ¬ngĠ
xuÃ© ĠyuÃ¡nĠ
ĠfÃº Ġde
ĠfÃº ĠyÄ«nĠ
quÃ¡nĠ shÃ¬Ġ
ĠsÃłiĠ zhÅįngĠ
fÃ¹ ĠmÇĶ
tÃ³u ĠzÄ«Ġ
ĠjiÇİnĠ cÃ¨
Ġ7 00
ĠlÃ¨ ĠbÇĲĠhÇİiĠ
ĠxÃ¬nĠ hÃłoĠ
shÅįu ĠrÃ¹Ġ
yÃ¬nĠ shuÄģ
ĠzhuÄ« ĠqiÃº
gÄģnĠ sÃ¹
3 ĠyuÃ¨Ġ1ĠrÃ¬Ġ
9 ĠmÇĲĠ
xÃŃngĠ shÇĲ
zhÃ¨ngĠ xiÃ©
ĠchÅ« ĠniÃ¡nĠ
ĠzhÇĶ ĠlÃ¬Ġ
ĠlÃ¡iĠ wÇİngĠ
ĠshÃ¹ ĠgÃ¨
ĠkÄĽ ĠyÃ²ngĠ
ĠdÄĽngĠ dÃłiĠ
gÄģo ĠdÃ¡
ĠxiÄĵ ĠÄĽr
ĠtiÄģnĠ xiÃł
wÇĶ ĠshÃ¬Ġ
ĠnÇļ ĠshÃ©nĠ
zÃ© ĠyÇĴu
tÃŃ ĠyÃ¬Ġ
ĠhÃło ĠzhÇĴngĠziĠ
ĠzhÄĵnĠ rÃ©nĠ
ĠlÇĲĠ ÄģnĠ
ĠÃ¨r ĠjÃŃ
qiÃ¡ngĠ zhÃ¬Ġ
zhuÇİnĠ wÃ©iĠ
ĠdeĠdÃ¬Ġ yÃŃĠgÃ¨
sÇĲ ĠyÃº
lÇİo ĠhuÃ¬Ġ
ĠĠĠbÄĽnĠ yÃº
hÃ¹nĠ nÃŃngĠtÇĶ
ĠcuÄ« ĠhuÇĲ
ĠnÃº ĠlÃ¬Ġ
KB 48
p Ã¹Ġ
Ġde ĠwÇĶ
ĠjÃŃ ĠyÃł
ĠzhÃ¨ngĠ jÃ¹Ġ
xiÃłnĠ hÃ©
ĠyÃ¡nĠ fÄģ
ĠlÃ¡nĠ kÃ¨ĠlÃŃnĠ
ĠluÃ³ ĠxuÃ¡nĠ
Ġ2 ĠyuÃ¨Ġ
nÃ¨iĠ yÇĴu
fÄĵngĠ fÃ¹Ġ
ĠzhuÄģnĠ lÃ¬Ġ
ĠxiÄģo ĠshÃ²uĠ
ti n
Ġ8 8
wÄĵiĠ bÃ³
202 3
ĠbÄģngĠ zhÃ¹Ġ
ĠyÃºĠ200 9ĠniÃ¡nĠ
shÇĲĠyÃ¡nĠ gÃ©Ġ
d uc
Ġde ĠjÃ¬Ġ
ĠĠĠ 4Ġ
ĠwÃ¨iĠ rÃ¬ĠbÄĽnĠ
dÃł ĠdÃ¬Ġ
ĠduÃ¬Ġ yuÃ¡nĠ
mÃŃngĠ rÃ©nĠ
zhÃłnĠ zhÃ¬Ġ
ĠshÇĴu ĠlÇĲngĠ
ĠquÃ¡nĠ wÄĵiĠ
ĠdÄģngĠ tÄģ
Ġ201 2
mÇİ ĠlÃ¡iĠ
ĠshÃ¬ĠyÄ« ĠkuÇİnĠ
Ġ10 ĠyuÃ¨
ĠmÇĲ ĠdeĠdÃ¬ĠqÅ«Ġ
ĠyÇĴngĠ yuÇİnĠ
fÃ¡ngĠ kÅįngĠ
ĠsÅ«nĠ zhÅįngĠshÄģnĠ
ĠxÄ«ĠnÃ¡nĠ bÃ¹Ġ
qÇĶĠdÃ© Ġle
ĠsectionĠĠĠ endĠ
ĠyÃ³uĠjÃº ĠyÃº
ĠshÄĽngĠdÃło ĠtÃ¡iĠ
U C
a dĠ
g ÇĴu
i onĠ
ĠĠ ĠkÄģiĠ
hÃ© ĠshÃ¨ĠhuÃ¬Ġ
de ĠqÃ¬Ġ
ĠshÃ¬Ġ xÄ«nĠ
ĠdÃ¬Ġ ÄģnĠ
ĠyÇĲ ĠzÃłiĠ
ĠtÄģ ĠdÄģnĠrÃ¨nĠ
ĠshÃłngĠ yÃ³u
ĠÄĽr ĠdÃ©
ĠfÄģ ĠhuÄ«
ĠmÇİ ĠshÃ¬Ġ
gÃ© ĠlÄĵiĠ
ĠchÇİngĠ suÇĴĠ
or e
yÇĲngĠ xiÃłngĠ
xuÇİnĠ qÅ«Ġ
biÄģnĠ jÃ¬ngĠ
ĠxÄ«ngĠ jÃ¬Ġ
ĠwÃ¡nĠ mÄĽiĠ
ĠjiÇİngĠ pÃ¡iĠ
Ġ9 9
shÇĲĠyÃ²ngĠ le
ĠtÇĶ ĠrÇİngĠ
bÃº ĠdÃło
niÇİo Ġ
ĠzÃ¬ĠxÃŃngĠ chÄĵ
ĠdÇĴngĠshÃ¬Ġ huÃ¬Ġ
sÅ«ĠlÇĲ ĠzhÅįu
icros oft
1 3Ġ
Ġde ĠzÇĴngĠ
ĠyuÃ¨ ĠqÃ¬Ġ
ĠgÄģiĠ shÅ«
lÇĲ ĠjiÄĽ
gÃ¨ ĠlÃ¨iĠ
rÃ¹ ĠwÃ©iĠ
gÇĶ nĠ
ĠmÃ¬Ġ shÅ«
Ġ202 3
ĠxÃ¹ ĠshÃ¹
zÄ« ĠxÃºnĠ
jiÇİngĠ jÄ«nĠ
ĠzÇĲ ĠmÃ¨iĠ
fÃłngĠ sÃ²ngĠ
Ġ17 4
ĠmÃŃ ĠnÇĲ
ĠĠĠW indow
ĠlÃºĠwÇİ ĠÄĽrĠhÃ©
ĠjiÄĵĠwÃ¨iĠ lÃ¹ĠdÃ¬Ġ
hÃłnĠlÃŃnĠ yuÃłnĠ
C DĠ
D R
p en
r ÇİngĠ
Ġz ÄĽnĠ
ĠĠ ĠruÃ²
Ġde ĠshuÅįĠfÇİĠ
ĠgÅįngĠ jÃ¹
ÄĽr ĠdÃ¹nĠ
ĠjiÃ© ĠhÃ©Ġ
ĠkÄĵ ĠyÃ¡nĠ
ĠmÄĽiĠguÃ³ ĠzÇĴngĠtÇĴngĠ
ĠzhÇĶnĠ juÃ©ĠsÃłiĠ
huÃ¡ngĠ hÃ²u
ĠdÇİngĠ pÃłiĠ
gÇİnĠ lÇİnĠ
xiÅ« ĠdÃ¬ngĠ
ĠrÃ©ngĠ yÇĴu
nÃŃngĠ bÅį
chÅįngĠ mÇİnĠ
guÃ¬Ġ zÃº
ĠyÃ¬ĠshÃ¹ ĠjiÄģ
ĠpÃŃngĠlÃ¹nĠ jiÄģ
ĠĠ ĠlÇļ
ĠĠĠ hÃłnĠ
ĠwÃ¨iĠ rÃ©nĠ
bÃ¹ ĠlÃ¡iĠ
zuÃ² ĠjiÄģĠ
ĠfÃ¹ ĠmiÃłnĠ
bÄĽnĠ rÃ©nĠ
ĠyÃ¹ ĠdÃ¬ngĠ
ĠchÄĵ ĠshÄĵnĠ
chÄĵ ĠzÇĶ
shÄĵnĠ wÃ¡ngĠ
ĠgÃ²u ĠzÃło
liÃº ĠqiÃº
ĠjiÃ¨ ĠjÄ«nĠ
ĠzhuÄģnĠ jiÄģĠ
ĠwÃłngĠ yuÇİnĠjÃ¬ngĠ
ĠmÇİnĠ guÃłnĠ
niÇİo ĠlÃ¨iĠ
ĠtiÄģnĠrÃ¡nĠ qÃ¬Ġ
hÄģĠÄĽr ĠbÄ«nĠ
g ÇİoĠ
Ġde ĠshÄ«
Ġde ĠgÃłiĠniÃłnĠ
hÃ²u ĠxÃ¹
jiÄģ ĠyÇĲ
ĠzhÃ¨ngĠ yÃ¬Ġ
jÅ«nĠ rÃ©nĠ
ĠzhÇĶ ĠtÇĲ
ĠmÇİ ĠlÃ¬ĠyÃłĠ
dÃ© ĠÄĽr
pÃŃngĠ jiÃłĠ
jiÄģngĠ nÃ¡nĠ
ĠguÃ² Ġle
ĠmÇĲ ĠzhÃ¬Ġ
18 6
ĠjÃ¹nĠ gÅįngĠ
ĠĠĠ18 8
quÄĵ Ġ
p iÄģo
Ġl ÇİoĠ
Ġsh uÄģ
ĠgÅįngĠ pÃŃngĠ
ĠfÄģ ĠshÃ²uĠ
ĠbÄĽiĠ pÃŃngĠ
xiÄģngĠ liÃ¡nĠ
tÃ³ngĠ mÃŃngĠ
ĠzÇĴngĠ jÃ¬Ġ
liÃº ĠliÃłngĠ
ĠguÃ³ĠjiÄģ ĠjÃŃ
ĠdÃº ĠzhÄĽ
ĠcÃŃ ĠdiÇİnĠ
Ġ9 7
guÃ³ĠjiÄģ Ġde
ĠjÅ«nĠshÃ¬Ġ tÇİnĠdÄ«ngĠ
A G
de ĠtÃ³u
ĠshÃ¬Ġ chÅ«
ĠbÃ¬ngĠ cÃ³ngĠ
mÃŃngĠ quÃ¨
ĠqiÃº ĠmÃŃ
gÃ¨ ĠgÃ¨
ĠbÄģ ĠdÃ¡
yuÃ¨ ĠqiÃº
ĠmiÃłnĠ tÇĲĠ
ĠzÄ« ĠbiÃ©
ĠbÇİnĠ quÃ¡nĠ
ĠqiÃ¡ngĠ huÃł
ĠchuÄģnĠ yuÃ¨
Ġ190 8ĠniÃ¡nĠ
ĠzhÄĽnĠ duÃłnĠ
chÃ³u ĠbÃ¨iĠ
ĠsÄ«ĠlÃ¬ngĠ yuÃ¡nĠ
I F
n Ã¹Ġ
o ngĠ
y l
Ġn Ã¼Ã¨
Ġde ĠjÃ¬nĠ
ĠbÃ¹ ĠzuÃ²ĠpÇĲnĠ
dÃ¬Ġ lÇĲ
ĠyuÃ¡nĠ zÃ©
xÃŃngĠ chÄĵ
ĠlÇĲ ĠmiÃłnĠ
ĠzÃ© ĠyÃ³u
ĠshÄĽngĠ zhÇİngĠ
qiÃ¡nĠ lÃ¡iĠ
jÅ« ĠzhÃ¹ĠzÃłiĠ
Ġ197 0ĠniÃ¡nĠdÃłiĠ
ĠĠĠlÃ¬Ġ shÇĲĠyÃ¡nĠgÃ©Ġ
chuÃłngĠ xÄ«nĠ
ĠgÃłnĠ xiÃłnĠ
ĠlÃ¨iĠsÃ¬Ġ yÃº
ĠdÅįngĠjÄ«ngĠ dÅ«
tÃ¨ĠbiÃ© ĠxÃŃngĠzhÃ¨ngĠqÅ«
lÃºĠwÇİ ĠÄĽrĠshÄĽngĠ
y c
Ġ aĠ
hÃ© ĠshuÇĲ
de ĠxÃ¬ngĠ
ĠbÃ¹ ĠdÃłnĠ
ĠgÅįngĠ zhÃłnĠ
ĠnÃ¡nĠ hÃ¡iĠ
ĠyÃŃ ĠqÃ¬Ġ
ĠyÄĽ ĠchÄĵngĠwÃ©iĠ
guÄģnĠ de
yuÃ¨ ĠlÃ¡iĠyuÃ¨
Ġ201 4
ĠshÄģnĠ qÅ«
ĠshÃ²u ĠhuÄģnĠyÃŃngĠ
ĠbÄģnĠ diÇİnĠ
huÃ²ĠdÃ© Ġ
xuÄģnĠ yÃ¡nĠ
yÃ¹nĠdÃ²ngĠ de
fÄģĠshÄĵngĠ le
ĠzhÇĶĠyÃ¬Ġ de
ĠĠĠ199 1ĠniÃ¡nĠ
ĠIS TAT
ĠISTAT ĠdÃłiĠmÇİĠwÃ¨iĠ
1 ĠhÃło
ĠĠ ĠtÃ³ngĠniÃ¡nĠ
hÃ© ĠhuÃ¡
Ġde ĠzhÄ«ĠchÃŃ
ĠĠĠ ÃłnĠ
ĠzÃłiĠ shÃłngĠhÇİiĠ
ĠzhÅįu ĠmÃ²
ĠgÄģiĠ shÃ¬ĠzhÃ¨nĠ
ĠkÄĽ ĠyÃ³u
ĠluÃ² ĠchÃ©ngĠ
Ġ6 3
jÇĲngĠ bÃło
ĠyÄ«Ġ ÄĽr
Ġ16 9
ĠtÃ¡o ĠyuÃ¡nĠ
miÃ¡o ĠshÃ¹Ġ
ĠtÃºnĠ mÃ©nĠ
P ro
ĠĠ ĠyÃł
hÃ©ngĠ bÄ«nĠ
ĠtÄģ ĠyÇĴu
ĠjiÄģ ĠtÃłiĠ
jÃŃ ĠhuÃ¬Ġ
ĠbÃ¨iĠ fÄģĠxiÃłnĠ
xiÃłnĠ yÇĴu
ĠzhÇĶ ĠdÇİo
chÅ« ĠshÃ²u
ĠtÃ¨ ĠshÃ¬Ġ
lÃ¹ ĠyÄ«nĠ
gÄģo ĠjiÃł
chuÃ¡nĠ fÃ³ĠjiÃło
eĠĠĠ D
mÃ¬Ġ shÅ«
yÃ¬nĠ dÃ¬Ġ
ĠduÇİnĠ piÄģnĠ
ĠdÃ¬ĠshÃŃ ĠyÄ«
ĠliÃºĠyÃ¹ ĠmiÃłnĠjÄ«Ġ
O P
ĠĠ ĠwÃłnĠlÃ¬Ġ
Ġn iÃłngĠ
zÃłiĠ tÃ¡iĠwÄģnĠ
zhÅįngĠ duÃłnĠ
ĠyÄ« ĠqÃºnĠ
ĠhÃ© ĠshÃ¬Ġ
ĠhÃ© ĠjÄ«nĠ
ĠdÃł ĠlÃ³uĠ
ĠduÃ¬Ġ zÃłiĠ
huÃł ĠxiÃłnĠ
ĠquÃ¡nĠ tÃ¡iĠ
yÄ«nĠ Ã©r
fÃ¹ ĠshÃ¬Ġ
ĠyÃ¹nĠ suÃłnĠ
ĠtÃłiĠ dÃ¹
ĠshÃ¨ngĠ mÇĶ
ĠlÇľ ĠwÃ¨iĠ
ĠxÃŃngĠzhÃ¨ngĠ qÅ«Ġ
ĠbÃ¡iĠ rÃ©nĠ
tiÃ¡o ĠyuÄĵ
ĠzuÃ¬ĠhÃ²u Ġde
ĠtuÃ¬Ġ xiÅ«
qÃºnĠ dÇİoĠ
zhÇĶnĠ juÃ©ĠsÃłiĠ
ĠzhuÄ«ĠsÃ¹ ĠzhÃ¬Ġ
Ġn iÃło
de ĠsuÇĴĠyÇĴu
Ġ1 ĠhÃło
Ã¡iĠ zhÃ¨ngĠ
ĠzhÅįngĠ cÃ©ngĠ
ĠchÃ©ngĠ xiÃłngĠ
chÃ©ngĠ xÃ¹Ġ
ĠkÃ¨ ĠhÃ©
ĠfÃ¹ Ġde
ĠyÃŃ ĠlÃ¡nĠ
ĠtÃ¨ ĠlÃ©iĠ
ĠyÄĽ ĠyÄ«nĠcÇĲ
sÄģnĠ shÃ¬Ġ
qiÃ¡nĠ lÃ³ngĠ
Ġ200 7
ĠchÃ¡ngĠ guÄ«
mÃ² ĠqÄ«
ĠjÇĲ ĠzhuÄ«
ĠsÇĲ ĠyÃº
ĠĠĠ199 5ĠniÃ¡nĠ
ĠdÇĲngĠ diÇİnĠ
ĠyÃºĠ200 8ĠniÃ¡nĠ
b a
q iÃło
Ġ iĠ
de ĠchÃ©ngĠshÃ¬Ġ
Ġde ĠchÃ©ngĠzhÃ¨nĠ
duÃ¬Ġ zÃłiĠ
ĠjiÄģnĠ zhÃ¬Ġ
ĠxÄ«nĠ chÃ©ngĠ
dÃłiĠ bÇĶĠ
jiÃło Ġde
jiÄĵ ĠwÃ¨iĠ
ĠsÃ¬Ġ rÃ©nĠ
ĠzÇĶ ĠjÃŃ
ĠshÄĵnĠ rÃ¹
xiÇİo ĠshÃŃĠ
ĠshuÅį ĠshÃ¬Ġ
ĠshÃ¬ĠyÄ« ĠkÄĵĠhÃ©ngĠxÄ«ngĠ
gÇİiĠ chÄĵngĠ
ĠzhÄĵnĠ zhÃ¨ngĠde
Ġ8 7
ĠshÃ¨ĠjÃ¬Ġ de
ĠzhÄ«ĠhÃ²u ĠzÃłiĠ
ĠyÇİ Ġ
0 6
ĠĠ ĠmÃŃngĠchÄĵngĠ
Ġzh Äĵ
ĠlÃ¬Ġ shÃŃ
shÃŃ ĠwÃ¹
zhÃ¬Ġ nÃ©ngĠ
yÇĴu ĠkÄĽĠnÃ©ngĠ
ĠzhÃłnĠ jÃ¹
ĠzhÇĶ ĠjuÃ©Ġ
yÇĲ ĠjÃŃĠ
ĠxÄ«nĠ ÄģĠjÄ«ĠtÇİnĠ
ĠsuÇĴ ĠshÃ¬Ġ
jiÄĵ ĠguÇİnĠ
sÄģnĠ rÃ©nĠ
fÄĵnĠ bÃ¹Ġ
ĠtÃłiĠ ÄĽr
ĠgÃ²ngĠ fÃ¨ngĠ
liÃ¨ ĠbiÇİo
nÃ©ngĠ liÃłngĠ
ĠdÃº ĠpÇĲnĠ
ĠwÇİ ĠlÄģ
ĠgÃ¨ngĠ dÃłĠde
ĠĠĠ202 5
ĠxiÃ¡nĠ fÄĵngĠ
lÃº ĠxÃŃngĠmÃ¹
B DĠ
ĠbÃ¹ ĠzÃºĠ
ĠjÃŃ ĠsÄ«
chÃ©ngĠ dÅ«
ĠfÄĵnĠ qÅ«
shÄĵngĠ rÃ¨nĠ
ĠzuÃ¬Ġ jÃ¬nĠde
ĠkÄĵ ĠlÃŃnĠ
miÃłnĠ shÃ¬Ġ
yÃ¡nĠ lÃ¹nĠ
ĠtiÄģnĠ jiÄģ
ĠfÄĵngĠ jÇĲngĠ
eĠĠĠ G
ĠcÃŃ ĠqÃ¹
Ġ190 3ĠniÃ¡nĠ
shÃ¬ĠyÄ« ĠzuÃ²
A D
B L
k ÇĶĠ
de ĠmÃŃngĠzÃ¬Ġ
Ġde ĠdiÃłnĠyÇĲngĠ
ĠjÃŃ ĠhuÃ¬Ġ
ĠhÃ© ĠxÄ«
zuÃ² ĠqÇĶ
ĠtÃ³ngĠ yuÃ¨
qÅ« ĠzhÃº
xuÃ© ĠjÄ«nĠ
ĠgÄģo ĠshÄģnĠ
chÇİngĠ jÇĲngĠ
ĠgÄĵ ĠdÃ©
shÄĵnĠ wÃ¨iĠ
ĠwÅ« ĠsÄ«
Ġ9 6
ĠtÃ¡iĠwÄģnĠ shÄĽngĠ
deĠdÃ¬Ġ tiÄĽ
ĠtÅ« ĠjÄ«
ĠtÃŃĠ ÃłnĠ
shÃ²uĠ hÃłiĠ
ĠliÃ¡oĠnÃŃngĠ shÄĽngĠ
ĠxÄ«nĠÄģĠjÄ«ĠtÇİnĠ dÃłĠqÅ«
I M
ĠĠ ĠyÃŃĠgÃ¨
Ġde ĠxÄ«
shÃ¬Ġ yuÃ¨ĠtÃ¡iĠ
ĠzhÄ« ĠxiÃł
ĠzhÃ¨ngĠ wÄĽiĠ
ĠfÃ¹ ĠyÃº
bÃ¨iĠ rÃ¨nĠmÃ¬ngĠwÃ¨iĠ
xuÃ© ĠshÃ¬Ġ
ĠzhÃ¹ ĠzhÃ²ngĠ
ĠzÇĴngĠ shÃ¬Ġ
ĠyÃ¹nĠ zuÃ²Ġ
ĠbÇĲ ĠrÃºĠ
bÃło ĠdÃłoĠ
ĠzÃº ĠrÃ©nĠ
jiÃ¹ ĠyÇĴu
ĠyÃ¡ngĠ zhÅįu
ĠsÃł ĠzhÅ«ĠsÄģiĠ
on ly
ĠtÇĴngĠ yÄ«Ġ
ĠlÇĲngĠdÇİo Ġde
ĠyuÄĵĠhÃłnĠ xÃ¹nĠ
ĠkÃ¹Ġ ÄĽr
ĠpÃºĠtÃ¡oĠyÃ¡ ĠyÇĶĠ
ĠĠ ĠshÃ¬ĠjiÃ¨
ĠdÃ¬Ġ zhÅįngĠhÇİiĠ
ĠyÄ« ĠrÃ¬Ġ
ĠyÄĽ ĠshÄĵngĠ
ĠquÃ¡nĠ chÃ©ngĠ
ĠwÃłiĠ bÃ¹
suÇĴ ĠzÃłiĠdÃ¬Ġ
duÅį ĠwÃ¨iĠ
ĠguÇİnĠ kÃ²ngĠ
ĠshÄģngĠ wÃ¡ngĠ
ĠsuÃ¬Ġ rÃ©nĠkÇĴu
ĠyuÇİnĠ dÅįngĠ
cÄģnĠyÃ¹ Ġle
ĠO Ġ
ĠlÇĲĠshÃ¬Ġ huÃ¬Ġ
ĠlÃ¬ĠfÇİ ĠwÄĽiĠyuÃ¡nĠ
jiÃ¹ĠdÃº ĠyÃº
ĠjÄ«ĠqÃ¬Ġ rÃ©nĠ
illi am
alig nĠ
T S
ĠĠ ĠzhÃ¹ĠzuÃ²Ġ
ĠlÃ¬Ġ fÄģngĠ
shÃŃ ĠbiÇİoĠshÃ¬Ġ
zÃłiĠ yÄ«ngĠguÃ³
ĠshÃŃ ĠlÃ¬Ġ
ĠchÃ©ngĠ xÃ¹Ġ
ĠgÅįngĠ dÇİngĠ
ĠdÃł ĠtÃ³ngĠ
rÃ©nĠ quÃ¡nĠ
wÃ©iĠ hÃ¹
ĠduÃ¬Ġ yÇĴu
ĠrÃ¨nĠ jiÃłoĠ
jÄ«ngĠ dÅ«
ĠdÅįngĠ fÄĵngĠ
ĠxiÇİo ĠzÇĶĠ
zhÇĲ ĠdÇİo
ĠsÃ¬Ġ mÃŃngĠ
ĠgÇİiĠ zÃłoĠ
cÄģnĠ yÃ¬ĠyuÃłnĠ
mÄĽiĠguÃ³ ĠzÇĴngĠtÇĴngĠ
ĠwÇİngĠ shÃłngĠ
ĠjiÃł ĠgÃ²u
deĠyÄ« ĠcÃ¬Ġ
zhÄĵnĠ chÃ¡
ĠyÃłngĠ bÄĽnĠ
ĠhuÃ¡nĠ bÇİo
bÃ¡iĠ sÃ¨Ġ
rÃ©ngĠ yÇĴu
ĠtÅ« ĠjuÃ©
fÄģĠxÃŃngĠ de
ĠgÄģiĠshÄĽngĠfÃ¨nĠwÃ¨iĠfÇİĠguÃ³ ĠbÄĽiĠbÃ¹
ĠyÃłĠlÃ¬ĠshÄģnĠ dÃłĠ
zhÄĽnĠ duÃłnĠ
xiÃ©ĠshÄģngĠ huÃ¬ĠyÃ¬Ġ
ĠdeĠtÃ¨ĠyÇĴu ĠzhÃŃĠwÃ¹Ġ
I DĠ
ĠĠ ĠdÃłiĠ
ĠrÃ¬Ġ yÃ¬Ġ
dÃ¬Ġ yÄ«Ġ
jÃŃ ĠqÃŃĠtÄģ
ĠzuÃ² ĠqÇĶĠ
shÃłngĠ bÃłnĠ
zhÇĶ ĠquÃ¡nĠ
ĠhÃ²u ĠfÄģngĠ
kÄģiĠ mÃ¹
jiÃ© ĠyÃ¹nĠ
gÃ²ngĠ jÃ¬Ġ
dÃ¬ngĠ de
ĠzhÃ¨nĠ rÃ³ngĠ
jiÃł ĠgÃ©
chÃŃ ĠyÇĴu
on ic
ĠhÄĵiĠ ÃłnĠ
ĠlÃ¡iĠzÃ¬Ġ yÃº
ĠfÃ¨ngĠ huÃ¡ngĠ
ĠqiÇİnĠ zÃ©
ĠdÄģ ĠpÃ¨iĠ
ĠchÄģoĠjÃŃ ĠliÃ¡nĠsÃłiĠ
lÇĲĠshÃ¬Ġ huÃ¬Ġ
Z Ġ
q ÇĲnĠ
Ġ i
Ġde ĠzuÃ²ĠbiÄģoĠwÃ¨iĠ
ĠshÃ¬Ġ dÃłiĠ
wÃ¨iĠ ĠĠ
ĠzhÃ¬Ġ zÃłoĠ
zuÃ² ĠwÃ¨iĠ
ĠwÃ©iĠ zhÇĲĠ
ĠguÄģnĠ yÄ«nĠ
ĠliÃ¡nĠ xiÃłnĠ
ĠdiÃłnĠ rÃ³ngĠ
ĠĠĠ20 ĠshÃ¬ĠjÃ¬Ġ
jÃ¹ ĠbÃ¨iĠ
tiÄģnĠ rÃ¡nĠ
cÄģnĠ guÄģnĠ
ĠqÇĲ ĠyuÃ¡nĠyÃº
ĠcÃŃ ĠjÄ«
ĠlÇĶ ĠsÄ«
3ĠyuÃ¨Ġ 31ĠrÃ¬Ġ
ĠcuÃ² ĠwÃ¹Ġ
ĠzhÃłnĠdÃ²u ĠjÄ«
ĠhuÃłĠxuÃ© ĠshÃ¬ĠwÃ¨iĠ
ĠĠ ĠtÃłiĠ
ĠĠ ĠlÃ³ngĠ
Ġl Ä«
ĠyÃ¬Ġ shÃ¹Ġ
ĠzhÃ¬Ġ zhÅįngĠ
ĠyÇĶ ĠqiÃ¡nĠ
ĠlÇĲ ĠbÃ¹
zhÄ« ĠshÃłngĠ
ĠrÃ¨nĠ yÃ¬Ġ
xuÃ© ĠtÃ¡ngĠ
ĠfÃº ĠtÃ¨
ĠdeĠ ÄģnĠ
ĠyÃ¹ Ġde
lÃ¹ Ġde
ĠqÅ« ĠbiÃ©
ĠyÄ«ngĠ Ã©r
xÃ¬ngĠ biÃ©
xuÇİnĠ chÅ«
ĠlÇľ ĠshÄ«Ġ
ĠbiÄģnĠ wÃ¨iĠ
ĠtiÃ¡o ĠjiÃ©
ĠpÃŃngĠfÄģngĠ yÄ«ngĠ
ĠhuÃ¡ngĠ sÃ¨
ĠwÇİngĠ yÇĴu
ĠzhÄĽngĠ hÃ©
ĠdeĠdÃ¬Ġ wÃ¨iĠ
ĠÐ ½
oo d
qÃŃngĠkuÃłngĠ xiÃłĠ
ĠzhÃ¬ĠzÃło ĠshÄģngĠ
ĠkÃ¨ĠsÃłĠsÄ« ĠzhÅįu
ĠzÃłiĠ xiÃł
ĠzÃłiĠ dÅįngĠ
guÃ³ ĠgÃ²ngĠ
ĠdÃ¬Ġ yÃŃĠcÃ¬ĠshÃ¬ĠjiÃ¨ĠdÃłĠzhÃłnĠ
yÃº ĠlÃ©iĠ
dÃł ĠdÃłoĠ
hÃ¡ngĠ yÃ¹nĠ
li n
ĠchÅ« ĠshÇĲ
ĠmÃŃnĠ jÃŃĠ
pÃŃngĠ jiÃ¨
lÃ¹ ĠyÄ«nĠshÃ¬Ġ
ĠwÃ¡ngĠ chÃ¡oĠ
jÇĶ ĠzhÃ¨nĠ
bÄģnĠ fÄģ
ĠjiÇİngĠ lÃ¬Ġ
ĠyÇĴngĠ kÄģngĠ
ĠjiÃłnĠzhÃ¹ ĠshÄ«
zuÇĴ ĠyÃ¬Ġ
sÇĲĠ hÃ²uĠ
deĠmÃ³ĠshÃ¬Ġ chÇİnĠ
ĠĠ ĠlÃ¡iĠ
ĠĠ ĠxuÃ©ĠxiÃło
de ĠjiÃłnĠ
de ĠquÃ¡nĠlÃ¬Ġ
ch uÇİngĠ
Ġp ÇĶĠÄĽr
ĠhÃ© ĠchÃłngĠ
yÄ« ĠxÃ¬ĠliÃ¨
ĠqÃŃ ĠjiÄģnĠ
ĠzhÃ¨ ĠtiÃ¡o
duÃ¬Ġ tÄģ
ĠrÃ¨nĠ zhÄ«
ĠgÄģiĠ shÃ¬Ġ
ĠjiÄģngĠ yuÃ¡nĠ
ĠbÄĽnĠ zhÃ¬Ġ
xÃ¬ngĠ nÃ©ngĠ
yÇĲngĠ zhÇİnĠ
zÇĶ ĠwÃ¨iĠ
ĠluÃ² ĠbÃłiĠ
bÇİo ĠzhÃ¨ngĠ
ĠguÃ³ĠjiÄģ ĠÄģnĠquÃ¡nĠ
Ġ7 8
ĠsÅ« ĠzhÅįu
xÇĲ ĠjÃ¹
fÃ¹Ġ hÃ©
ap p
ĠwÃ©iĠyÄ« Ġde
ĠkÇİĠsÄ« ĠdÃ¬ĠlÃ¬Ġ
6 ĠgÃ¨
ĠshÃ¬Ġ yÃ²ngĠyÃº
Ã©r ĠfÄĵiĠ
ĠbÃ¬ngĠ shÃ¬Ġ
duÅį ĠmÃŃngĠ
ĠzÇĴngĠ zhÇİngĠ
yÄĽ ĠmÃ©iĠyÇĴu
ĠgÇĶ ĠquÃ¡nĠ
er i
sÃłiĠ zhÅįngĠ
ĠjÃ¬ngĠ tÃ³u
ĠyÇĲĠjÃŃ ĠzÃłiĠ
ĠtÃŃngĠ chÄĵĠchÇİngĠ
mÃ³ ĠnÇĲ
ĠnÇĲ ĠmenĠ
ĠshÄĵngĠhuÃ³ ĠzÃłiĠ
ĠdÇİoĠzhÃ¬Ġ le
ĠcÇİiĠyÃ²ngĠ le
ĠdeĠshÃŃ ĠqÅ«ĠwÃ¨iĠ
ĠjÃŃĠzhÅįngĠ zÃłiĠ
u re
ÄģnĠ suÄģnĠ
sh uÃŃ
ĠtÄģ ĠkÄĽĠyÇĲ
jÃŃ ĠquÃ¡nĠ
ĠzhÄ« ĠjÃ¬Ġ
ĠfÄģ ĠyÃ¡nĠrÃ©nĠ
bÄĽnĠ piÃłnĠ
zÃ¬Ġ mÇĶ
fÃ¹ ĠyÇĶ
fÄĵnĠ liÃ¨
tÃłiĠ pÃŃngĠ
biÄģnĠ yuÃ¡nĠ
ĠjÇĲnĠ zhÄģngĠ
ĠtÇĲ ĠxiÃłnĠ
ĠzÃº ĠliÃ¡nĠ
ĠfÇİnĠ kÃłngĠ
ĠbÄ«ngĠ lÃ¬Ġ
ĠxiÇİngĠ xiÃłngĠ
ĠyÃ¡nĠjiÅ« ĠrÃ©nĠyuÃ¡nĠ
ou t
ĠxiÃ¡ ĠqÅ«
tÃ¡o ĠyuÃ¡nĠ
ĠlÃ¡o ĠlÃºnĠ
ĠchuÃłngĠzuÃ² Ġde
ĠyÃŃngĠdÃ© Ġle
ĠmÃŃngĠxiÇİnĠ de
deĠqÃŃngĠkuÃłngĠ xiÃł
ĠjÃŃĠlÃŃnĠ shÄĽngĠ
2 ĠlÃ¬Ġ
4 ĠmÃŃngĠ
m aĠ
Ġt iÄģo
ĠshÃ¬Ġ wÃ¹Ġ
jÄ« ĠchÄĵĠ
yÇĶ ĠwÃ©nĠ
yÇĲ ĠshÃłngĠde
ĠmÃ³ ĠfÇİngĠ
ĠtÇĲ ĠjÄ«
cÄģnĠ yÃ¬ĠyuÃ¡nĠ
ĠbÃło ĠzhÇĲ
ĠxÃ¬nĠ tÃº
ĠzhÅ« ĠduÅį
ĠhuÃ³ Ġ
dÃŃ ĠnÃ¡nĠ
guÃ¬Ġ zhÅįu
yÃ¡nĠzhÃ²ngĠ de
g eĠ
r aĠ
t ÇĲĠyÃłnĠ
Ã¨ ĠtÃº
Ġh ÇĶĠ
ĠlÃ¬Ġ sÄģngĠ
ĠtÄģ ĠdeĠ
ĠdÃł ĠmÃŃngĠ
ĠdÃł ĠxuÇİnĠ
yÄ« ĠlÃłiĠ
ĠlÇĲ ĠqÃŃ
ĠpÃŃngĠ wÃ¨iĠ
dÃłiĠ tÃ¬Ġ
ĠjÃ¹ ĠqÃ¬ngĠ
ĠbÄĽiĠ cÃ¨
jÃ¹ ĠyuÃłnĠ
xiÄģngĠ jÃ¬Ġ
ĠchÃ¡ngĠ shÄģ
shÃ²u ĠpiÃło
ĠxiÄģnĠ jÃ¬nĠ
xiÃło Ġde
gÇİiĠ zhuÄģngĠ
ĠmÃłnĠ liÃ¡nĠ
gÄĵ ĠhuÃ¡
ĠdÄĵngĠ jÃ¬Ġ
ĠmÃ¹Ġ ÄĽr
ĠĠĠM ar
ĠyÇİ ĠdiÇİnĠ
lÄĽiĠ jÃ¬Ġ
a ul
n Ã²ngĠ
ĠĠ ĠsuÃŃĠzhÃ¹
gÅįngĠ jÃ¹Ġ
zhÃłnĠ jÃ¹
ĠfÇİ ĠjÅ«nĠ
dÃ© ĠjÅ«nĠ
gÄģo ĠyuÃ¡nĠ
tÃ³ngĠ xÃ¬ngĠliÃłnĠ
ĠqÄ«ngĠ dÇİo
ĠchÇİnĠ yÃ¨Ġ
ĠtuÅį ĠmÇİĠsÄ«Ġ
tiÃ¡o ĠkuÇİnĠ
fÃ¨iĠ yÃ²ngĠ
huÇĴ ĠzÄģiĠ
ĠwÄĵnĠ quÃ¡nĠ
ĠĠĠ199 6ĠniÃ¡nĠ
zhÃ¬ĠzuÃ² ĠrÃ©nĠ
mÃŃnĠzhÇĶ ĠzhÇĶĠyÃ¬Ġ
ĠshÃŃĠniÃ¡nĠ dÃłiĠ
ĠtiÄģnĠjÄ«nĠ shÃ¬Ġ
ĠjÃ¹ĠqÃ¬ngĠ xiÃłĠ
0 4
3 ĠmÃŃngĠ
b Ã¡o
l uÇĴ
ĠĠ ĠcÃŃ
ĠshÃ¬Ġ dÃ¬Ġ
ĠwÃ¨iĠ ĠĠ
ĠyÄ« ĠzhÄģngĠ
ĠyÃº ĠshÃŃĠdeĠrÃ©nĠkÇĴuĠshÃ¹ĠliÃłngĠwÃ¨iĠrÃ©nĠ
ĠgÅįngĠ de
ĠjiÄģ ĠsuÇĴ
shÃłngĠ shÃ¹
yÃ³u ĠlÃ¡iĠ
ĠyÃ¡nĠ shÃŃ
ĠmÇİ ĠdÃ¬Ġ
ĠyÃŃĠgÃ¨ Ġ
wÄĽiĠ tuÅį
ĠshÄĵnĠ wÃ¡ngĠ
ĠxuÇİnĠ bÃ¡
ĠyÃ¡ngĠ guÄģngĠ
ĠxÃŃ ĠjÃ¬nĠpÃŃngĠ
ĠshuÇĲ ĠmiÃłnĠ
sÃ¹ ĠsÃ²ngĠ
ĠjÇĲngĠ yuÃ¡nĠ
nÇļ ĠzÇĲĠ
bÇİnĠ de
lÃ¬ngĠ wÃłiĠ
hÄģ ĠdÃ¹nĠ
ĠĠĠjiÄģ ĠjÃ¬ngĠ
suÇĴĠyÇĴu Ġde
ĠsÇĲĠ hÃ²uĠ
op h
ĠjiÄģĠnÃ¡ĠdÃł Ġ
Ġz ÇİoĠ
ĠĠ ĠshÇĲ
ĠĠ ĠjiÃłoĠyÃ¹Ġ
Ġm ÇĲĠy
de ĠzÃ¬Ġ
ĠĠĠ ÄģiĠ
bÃ¹ ĠshÇĶ
ĠgÅįngĠ dÇİ
ĠbÃ¬ngĠ dÄģnĠrÃ¨nĠ
ĠdÃłnĠ dÃło
ĠjÅ«nĠ qÅ«
dÃ²ngĠ zuÃ²
ĠwÃ¹ ĠtÇĲ
ĠliÃº ĠyÃ¬Ġ
hÃ¡nĠ liÃłngĠ
ĠgÃ²ngĠ hÃ©
ĠgÇİiĠ yÃ³u
cÃ©ngĠ wÃ¨iĠ
202 1
deĠshÃ¬Ġ jiÃłnĠ
chÇİnĠshÄĵngĠ le
ĠjÃŃĠzhÅįngĠ xuÃ©Ġ
ĠgÃ¨ĠdÃ¬Ġ de
ĠgÄģiĠwÃ¹ĠzhÇĴngĠ deĠmÃ³ĠshÃ¬ĠchÇİnĠ
5 ĠyuÃ¨Ġ1ĠrÃ¬Ġ
ĠĠ ĠwÃ©nĠ
Ġde ĠliÇİngĠ
ĠzhÄ« ĠduÃ¬Ġ
jiÄģ ĠzhÅįngĠ
ĠlÇĲ ĠdÃ©
ĠjÃ¬nĠ kÇĴu
qÅ« ĠdÃ²ngĠ
ĠmÄĽiĠ yÃŃĠgÃ¨
ĠhÃ²u ĠqÄ«
ĠdiÃłnĠ xÃ¬nĠ
dÃ© ĠyÃ¬ĠzhÃ¬Ġ
ĠjÄ«nĠ mÃ©nĠ
ĠsÄģnĠ yuÃ¨
ĠshÄģnĠ pÅį
ĠnÃŃ ĠgÇĶĠlÄģ
ĠjiÄģo ĠyÃ³u
ĠlÃ³ngĠ pÅį
liÃłngĠ zÇĲ
ĠmÇĲ ĠtÃ¨
ĠtuÅį ĠwÃ©iĠyÃł
ĠÃłiĠ qÃŃngĠ
ĠdÃłiĠbiÇİo ĠxÃ¬ngĠ
xiÃ¡nĠ zhÇĶĠyÇİnĠ
ĠãĤ ĵ
huÃ¬ĠyÃ¬Ġ shÃłngĠ
ĠniÃº ĠjÄ«nĠ
ĠyÃºĠ200 6ĠniÃ¡nĠ
2010ĠniÃ¡nĠ mÄĽiĠguÃ³ĠrÃ©nĠkÇĴuĠpÇĶĠchÃ¡Ġ
guÇĲĠdÃło ĠjiÄģoĠtÅįngĠ
hÃ¡ngĠzhÃłnĠ lÃ³u
ĠyÄ«ĠlÃ¬ĠnuÃ² ĠyÄ«ĠzhÅįu
1 4Ġ
ĠdÃ¬Ġ 6
ĠdÃ¬Ġ tÃºĠ
shÃŃ ĠyÄ«ĠniÃ¡nĠ
ĠyÇĴu ĠhÇİo
ĠchÅ« ĠdÃłoĠ
ĠwÃ©iĠ nÃł
ĠquÃ¡nĠ tÇĲ
ĠjiÃ© ĠkÃ¨Ġ
ĠzhÇĴngĠ jiÄģ
ĠbÄĽiĠ yuÄĵ
ĠkÄģiĠ chuÃłngĠ
ĠmÃ¹ ĠfÇĶ
yÃ¨ ĠjiÄģnĠ
ĠyÃ¹nĠ zuÃ²
ĠchÃ¡ngĠ bÃ¨iĠ
ĠziĠ de
ĠziĠ gÅįngĠsÄ«Ġ
ĠlÇľ Ġde
ĠqÃŃngĠ jiÃ©
yuÃłnĠ yÃ¬Ġ
bÃ³ ĠwÃ¹ĠyuÃłnĠ
yÃ²u Ġ
ĠdiÃło ĠrÃ¨nĠ
chÄģo ĠyuÃ¨
kÇİo ĠgÇĶ
hÄĵiĠ sÃ¨
zhÄ«ĠyÄ« Ġde
bo x
yÃ¡nĠshÄĵnĠ zhÃ¬Ġ
ĠzÃłiĠ jiÃłnĠ
ĠzÃłiĠ shuÇĲ
ĠzÃłiĠ ÅįuĠzhÅįu
ĠzÃłiĠ dÄģngĠdÃ¬Ġ
ĠchÅ« ĠyÃº
ĠsuÇĴ ĠÄĵnĠ
dÃ© ĠfÄĵnĠ
ĠjÄ«nĠ sÄ«
ĠjiÄĵ ĠshÃ¬Ġ
ĠchÄĵ ĠxÃŃngĠ
tÃ³ngĠ wÃ¨iĠ
ĠrÃ¹ ĠjÃ¬ngĠ
fÄĵnĠ xÄ«Ġ
ĠbÃ³ ĠluÃ³
ĠluÃ² ĠyÃ¡ngĠ
ĠlÃŃ ĠhÅ«nĠ
ĠĠĠ201 4
zhÅįngĠguÃ³ Ġde
eĠĠĠ F
bÃłnĠ dÇİoĠ
shÄģngĠ hÃłiĠ
ĠjiÇİ ĠjÃŃĠliÃ¡nĠsÃłiĠ
ĠliÃ¡ngĠ shÃŃ
ĠquÃ¨ ĠlÃ¬Ġ
ĠzuÇĴ ĠpÃłiĠ
dÃ¬ĠyÄ« ĠjiÃ¨
ĠdÅįngĠnÃ¡nĠ jiÄĵ
ĠbÄģoĠhÃ¡nĠ le
deĠqÃŃngĠkuÃłngĠ xiÃłĠ
ĠjiÃ¨ĠquÃ¡nĠguÃ³ ĠrÃ©nĠmÃŃnĠdÃłiĠbiÇİoĠdÃłĠhuÃ¬Ġ
dÅįngĠjÃ¬Ġ ÃłoĠlÃŃnĠpÇĲĠkÃ¨ĠyÃ¹nĠdÃ²ngĠhuÃ¬Ġ
C R
a ur
ĠĠ Ġli
ĠĠ Ġ14
ĠbÃ¹ ĠxÃŃngĠ
ĠlÃ¹ ĠshÃ¬Ġ
deĠ ÄģnĠ
ĠshÄ« ĠtuÃ¡nĠ
dÄĽngĠ dÃłiĠ
ĠqÃ¬Ġ tÇĲ
kÃ¨ ĠsÄ«Ġ
bÄģ ĠÄĽr
xiÇİngĠ yÃło
bÇİo Ġde
ĠshÃ©nĠ qÃŃ
ĠjiÇĶ ĠjÄ«ngĠ
mÃ©ngĠ tÃ¨
ĠkÅįngĠ jiÃłngĠ
18 0
ĠkÄĽnĠ sÃ¨
ĠmÃ¹ĠbiÄģo ĠshÃ¬Ġ
lÇĲngĠshÃ¬Ġ guÇİnĠ
B M
Ġc odiceĠ
Ġt Ã¹
Ġm Ãº
ĠzÃłiĠ jiÄĵ
ĠyÇĲ ĠshÃ¬Ġ
jiÄģ ĠsÃ¹
jÅ«nĠ tuÃ¡nĠ
rÃ¨nĠ qÄ«
niÃ¡nĠ lÃ¡iĠ
ĠdiÃłnĠ chÃŃ
ĠluÃ³ ĠlÃŃnĠ
ĠfÃº ĠlÃ¡iĠ
ĠquÃ¡nĠ xÄ«nĠ
ĠshÃ²u ĠsÇĶnĠ
ĠnÇļ ĠzhÇĶĠjuÃ©
ĠhuÃ¡ngĠ shÃ¬Ġ
ĠzhÃ¨nĠ yÃŃngĠ
shÄģngĠ chÇİngĠ
Ġ8 6
cÃŃ Ġde
ĠhÃ³ngĠ zhÃ¬Ġ
ol le
nÃ³ngĠ chÇİngĠ
ĠzÃ¬ĠyÃ³u ĠdÇİngĠ
shÄĽnĠ chÃ¡
duÃ³ ĠguÃłnĠ
Window s
ĠĠ ĠjiÃ¹
shÃŃ ĠsÄģnĠniÃ¡nĠ
ĠzhÄ« ĠshÃłngĠ
ĠzhÄ« ĠliÃº
ĠfÄĵnĠ fÄĵnĠ
ĠshÇĴu ĠgÄĵ
ĠliÃ¡nĠ sÄ«ĠjÄ«
ĠyÃ¹ ĠjÇĲngĠ
fÃº ĠlÇİngĠ
ĠtÃłiĠ yuÃ¡nĠ
tÃłiĠ zÅįngĠ
xuÇİnĠ zhÅįngĠ
ĠchuÃ¡nĠ dÃ¬Ġ
ĠbiÄģnĠ jiÃ¨Ġ
Ġ7 2
ĠhÄĽnĠ nÃ¡nĠ
ĠĠĠ199 3ĠniÃ¡nĠ
gÅįngĠbÃ¹ ĠwÃ¨iĠ
fli x
i e
Ġm Ãł
ĠlÃ¬Ġ dÃłiĠ
ĠjÃ¬Ġ shÃ¬Ġ
ĠyuÃ¨Ġ Ã¨rĠshÃŃ
ĠlÄģ ĠdÃ©
ĠzuÃ¬Ġ xÄ«nĠ
ĠgÄģiĠ jiÃłnĠzhÃ¹
ĠkÄĽ ĠkÃło
ĠyÄĽ ĠcÃ©ngĠ
ĠfÃº ĠjÃŃ
wÃ¹ ĠpÇĲnĠ
ĠyÃ¹ ĠdÃło
chÄĵ ĠrÃ©nĠcÃ¬Ġ
qÄ«ngĠ shÃłoĠniÃ¡nĠ
ĠbÇİo ĠlÄĽiĠ
ĠwÄĵiĠ jÄ«Ġ
ĠlÃ³ngĠ kÄĵ
ĠlÃ³ngĠ lÃ¨iĠ
lÇĲngĠ tÇĶ
yÃŃngĠ lÃ¬Ġ
ĠdÅįu Ġ
dÇİ ĠkÄģiĠ
ĠkÅįngĠ xÃŃ
shÅįu Ġ
202 2
el lĠ
xÃºnĠ yÃ¡ngĠjiÃłnĠ
dÃłngĠ de
ĠquÄĵ ĠdiÇİnĠ
ĠbÄģĠshÃ¬Ġ lÃ¹ĠxiÃłnĠ
E D
de ĠhÇİiĠ
Ġr ef
ĠlÃ¬Ġ jÄ«ngĠ
dÃ¬Ġ yÃ¹
chÃ©ngĠ le
ĠjÃ¬Ġ yÇĴu
ĠmÃŃngĠ yÃ¹
bÃ¨iĠ gÃło
ĠjÄ«ngĠ yÄ«ngĠ
zhÇĶ ĠliÃº
ĠzhÃŃ ĠbÅį
ĠfÃº ĠshÃ¬Ġ
ĠsÃłiĠ chÄĵ
ĠgÄģo ĠfÄĵngĠ
ĠgÇĶ ĠsÄ«
tiÄģnĠ jiÄģ
dÃ¬ngĠ le
jÇĲ ĠgÃ¨
xiÃło ĠyuÃ¡nĠ
ĠsuÃŃ ĠjÄ«
ĠdÃ¬ĠyÄ« ĠwÃ¨iĠ
ĠdÅ« ĠdÅ«
sÃ²ngĠ wÇİngĠ
ĠshÃ¹nĠ xÃ¹
ĠniÃº Ġ
ĠĠ ĠmÃ©iĠ
Ġde ĠwÃ¨nĠtÃŃĠ
shÃ¬Ġ yÃ¬ngĠ
ĠyÄ« ĠkÄĵ
ĠyÄ« ĠliÃłngĠ
ĠtÄģ ĠyÄ«nĠ
yuÃ¡nĠ shÇĲ
ĠjiÃłnĠ jiÃłnĠ
zhÄ« ĠchÅ«
ĠxiÄģngĠ jiÃłoĠyÃº
lÇĲ ĠbÃ¹
ĠdiÃłnĠ jÄ«
ĠhuÃ¡ ĠwÃ¨iĠ
gÃ© ĠshÃ¬Ġ
duÅį ĠyÃłngĠ
ĠwÄĵiĠ fÅ«
ĠjiÇĶ ĠzhÅįu
ĠguÄģngĠ pÇĶ
ĠdÃ¬ĠÃ¨r ĠtiÄģnĠ
mÃ¬Ġ de
ĠP ro
ĠÐ ¸
ĠxÄ«ĠbÄĽiĠ bÃ¹Ġ
ĠwÃłnĠrÃ©nĠ cÃ¬Ġ
ĠxÃ¬ĠbÄģo Ġ
qiÇİo Ġ
ĠbÃłnĠshÃ¬Ġ chÃ¹
zÇĴngĠdÅ« ĠfÇĶ
ĠjiÃ¹ĠdÃº ĠyÃº
ĠwÇİngĠqiÃº ĠgÅįngĠkÄģiĠsÃłiĠ
Ġde ĠfÄĵngĠ
zÃłiĠ xÄ«
ĠyÄ« ĠduÃ¬Ġ
ĠgÅįngĠ zhÇĶĠ
ĠxÃŃngĠ bÃ¹
jiÄģ ĠrÃ©nĠ
ĠzuÃ² Ġle
ĠwÃ©iĠ lÄģ
ĠhÃ²u ĠchÄĵ
ĠdiÃłnĠ liÃº
ĠdÃ²ngĠ zuÃ²Ġ
ĠqiÃº ĠfÃłnĠ
ĠzÃº ĠyÇĲ
ĠgÃ¹ ĠcÇĲ
huÃ¡ngĠ sÃ¨
ĠfÃłngĠ shÃ¨
Ġ12 5
ĠÃłiĠ lÃºnĠ
ĠmiÃłnĠjÄ« ĠyuÄĵ
ĠlÇİo ĠshÄ«
chÅ«ĠxiÃłnĠ de
ĠÄģiĠ ÄĽr
ĠyÃ¡o Ġ
ĠdeĠjÄ« ĠhuÃ¬Ġ
yÃ¡o ĠgÇĶnĠ
ĠwÃłiĠjiÄģo ĠguÄģnĠ
bÇĲĠlÃ¬Ġ shÃŃ
ĠzhÇĶĠjiÃło ĠzuÃ²ĠtÃ¡ngĠ
shÇİnĠ xÄ«ĠshÄĽngĠ
7 ĠgÃ¨
8 00
c o
ĠĠ ĠkÃ¨
Ġde ĠshÅ«
ĠwÃ¨iĠ shÃŃĠ
ĠtÄģ ĠjiÃ¹
ĠyÃ¬Ġ jÃŃ
dÃł ĠxiÇİo
ĠshÄĵngĠ jÄ«Ġ
ĠxiÃłngĠ xÄ«
ĠsÃłiĠ de
ĠmÃ¹ ĠnÃŃĠhÄĵiĠ
ĠqÅ« ĠhÃ©
shÇĴu ĠqiÄģngĠ
dÄģnĠ dÇİ
kÃ¨ ĠlÇĲĠsÄ«
tÇĲ ĠcÄģo
yÃ¹nĠ zuÃ²Ġ
ĠbiÄģnĠ zhÃ¬Ġ
ĠdÃº ĠzÃ¬Ġ
ĠjÃ¬nĠxÃŃngĠ de
ĠtuÄ« ĠfÄģnĠ
mÇĲ ĠlÃ¡nĠ
ĠpÃło ĠbÄ«ngĠ
hÄĵiĠ lÃ³ngĠjiÄģngĠ
ĠchÅ«nĠ qiÅ«
xÃŃngĠzhÃ¨ngĠ qÅ«
ĠmÇİĠlÃ¡iĠxÄ«ĠyÃł Ġ
ĠjiÃłoĠkÄĵ ĠwÃ©nĠ
ĠdÃ¬Ġ yÃ¹
lÃ¬Ġ shÇĶ
ĠwÃ©iĠ qÄ«
ĠyÃł ĠzhÇĴngĠ
ĠzÃ© ĠbÃ¨iĠ
ĠtÅįngĠ zhÄ«Ġ
tÃ³ngĠ bÃ¹
ĠshÇĶ ĠrÃ²uĠshÃŃĠxÃ¬ngĠ
ĠbÃ¹ĠfÃ¨nĠ de
ĠchÃº ĠfÄĵiĠ
ĠyÇĲnĠ shÃŃ
Ġ9 3
ĠjÃº ĠjÃºĠzhÇİngĠ
ĠÐ µ
ĠyÃºĠ200 7ĠniÃ¡nĠ
guÇİngĠbÅį ĠdiÃłnĠtÃ¡iĠ
ĠjÃ¬nĠniÃ¡nĠ lÃ¡iĠ
ĠkÃ¨ĠxÄ« ĠtÇİĠnÃŃ
M V
S O
t Ã¹
Ġde ĠzhÃ¨ngĠzhÃ¬Ġ
ĠshÃ¬Ġ bÄĽiĠ
zÃłiĠ tÄģ
ĠyÇĶ ĠshÃ¬Ġ
ĠshÃ¨ ĠzhÇİngĠ
ĠrÃ¨nĠ kÄĽ
ĠxiÄģngĠ yÃ¬ngĠ
ĠzhÃŃ ĠdÇİo
ĠshÇĴu ĠgÄĵĠqÇĶĠ
ĠliÃº ĠlÃłngĠ
ĠlÃŃnĠ zhÅįngĠ
ĠshÄģnĠ kÇĴu
ĠshÄĽngĠ de
qiÃ¡nĠ jÃ¬nĠ
fÃº ĠyÄ«nĠ
ĠqÄ«ngĠ tÃŃngĠ
ĠcÄģnĠ yÇİnĠ
ĠmÃ³ ĠzÃ©ĠÄĽrĠshÄĽngĠ
tÃ¨ ĠliÃ¨
biÃłnĠ gÄĵngĠ
ĠbÇİo ĠwÃ¨iĠ
ĠbiÄģo ĠtÃŃ
ĠsuÃŃ ĠzhÄ«
ĠchuÃłngĠ xiÃł
gÄĵnĠ jÃ¹Ġ
ĠrÃ¡nĠhÃ²u ĠzÃłiĠ
ty leĠ
H E
Ġn uÇİnĠ
Ġde ĠfÄĵnĠ
shÃ¬Ġ cÃ³ngĠ
ĠjÃŃ ĠwÃ©iĠ
ĠzhÃ¬Ġ cÃ¡iĠ
ĠjiÄģ ĠzÃºĠ
ĠyuÃ¡nĠ zÃ©Ġ
ĠjÃ¬nĠ zhÇİnĠ
chÅ« ĠfÄģ
zhÃłnĠ fÃ¡ngĠ
zhÃłnĠ bÃłiĠ
ĠmÃŃnĠ yÃ²ngĠ
ĠbÄģ ĠkÃ¨
rÃ¬Ġ yÃ¬Ġ
ĠfÄģngĠ zhÄĵnĠ
chÇİngĠ bÇĲĠsÃłiĠ
ĠnÃł ĠlÇĲ
kÄĵ ĠxuÃ©Ġ
ĠzÃº ĠzÃ¬ĠzhÃ¬Ġ
zÇĴngĠ jiÄģnĠ
bÇİo ĠluÃ³
ĠguÇİngĠ yÃ¬Ġ
ĠyÃ¡ngĠ xiÃłnĠ
guÄ« ĠhuÃłĠ
ĠrÃ©nĠdÃł ĠchÃ¡ngĠwÄĽiĠhuÃ¬Ġ
juÄģnĠ zÃ¨ngĠ
yÃ³uĠtÃłiĠ rÃ©nĠ
ĠzÄ«ĠbiÃ© ĠkÃ¨
S P
Ġde ĠtÃ³ngĠ
Ġde ĠsÄģnĠ
ĠshÃ¬Ġ dÄģngĠdÃ¬Ġ
Ġ1 ĠhÃłoĠxiÃłnĠ
ĠdÃ¬Ġ shÃŃĠÃ¨r
ĠtÄģ ĠrÃ©nĠ
yÃ³u ĠkÃ¨
ĠgÄģiĠ jiÃłnĠ
deĠ ÄģnĠquÃ¡nĠ
ĠdÅįngĠ hÃłnĠ
huÃ² ĠjiÇİngĠ
ĠjuÃ© ĠcÃ¨
ĠgÃ© ĠÄĽr
ĠchÃ¡ ĠÄĽrĠsÄ«Ġ
ĠfÄĵiĠ ÄĽr
ĠzhÅįngĠguÃ³ ĠdÃłĠlÃ¹Ġ
zÃ© ĠyÃ³u
ĠnÃŃ ĠkÃ¨Ġ
ĠlÃŃ ĠshÃ¬Ġ
zÃº ĠqÃºnĠ
zÇĴngĠ lÇĲĠ
ĠguÇİngĠ gÃłoĠ
ti on
ĠxÃ¹ ĠjÃŃĠ
ĠxiÄģngĠgÇİngĠ diÃłnĠyÇĲngĠ
ĠzhuÇİnĠ yÃŃ
ĠjÃº ĠbÃ¹
zÅįngĠ yÃ¬Ġ
ĠP h
ri v
ĠmiÃ¨ ĠjuÃ©
ĠfÄģĠbiÇİo Ġ
ĠwÃ¨iĠfÃºĠqÃŃĠyÃºĠgÄģngĠ lÃºĠxÃŃngĠmÃ¹
dÄ«ĠqÃ¬Ġ yÄģĠ
wÃ©iĠwÃºĠÄĽr ĠzÃ¬ĠzhÃ¬ĠqÅ«
ĠlÃ¬ĠsÄģngĠ nÃł
ĠĠ ĠzuÃ²ĠpÇĲnĠ
Ġc Ã©nĠ
Ġde ĠnÃ¨iĠrÃ³ngĠ
hÃ¹ ĠshÃ¬Ġ
ĠyuÃ¨ ĠfÃ¨nĠ
ĠzhÅįngĠ dÄĽngĠ
shÃŃ ĠwÃ¨iĠ
ĠyÃ¬Ġ chÃ¡ngĠ
ĠqÃŃ ĠcÃ¬Ġ
ĠbÃ¨iĠ lÄģ
shÃ¹ ĠjÃ¹Ġ
wÃ¹ ĠshÃ¬Ġ
zhÃ¨nĠ rÃ³ngĠ
ĠnÃ©ngĠ zÃłiĠ
ĠdeĠ Ã¨r
ĠyÃ¹ ĠgÃło
ĠqÅ« ĠfÃ¹ĠzÃ©ĠguÇİnĠxiÃ¡Ġ
ĠzhÇĲ ĠzÃ©
fÃ¹ ĠyÇĴu
bÃ¬ngĠ zÃłiĠ
tÃ³u ĠxiÃ¡nĠ
ĠĠĠ201 0
lÃ³ngĠ de
nÇļ ĠÃ©r
ĠxÃ¬nĠ fÃ¨ngĠ
ĠcÃºnĠ chÇĶ
yÃ¬nĠ dÃ¹Ġ
ĠÃ© ĠluÃ³ĠsÄ«Ġ
ĠzÄģiĠ nÃłnĠ
ĠcÃ¹ ĠshÇĲ
ĠguÇİngĠbÅį ĠgÅįngĠsÄ«
ĠyÄ«ĠlÃ¬Ġ shÄģĠbÃ¡iĠ
bÃłnĠshÃ¬Ġ chÃ¹
5 0Ġ
S A
ĠshÃ¬Ġ qÃŃngĠ
hÃ²u ĠzhÄĽ
ĠzÃłiĠ yÄ«ĠcÃ¬Ġ
shÃŃ ĠjiÃłnĠ
ĠhÃ© ĠkÇĴu
jiÄģ ĠbÄ«nĠ
ĠxÄ« ĠmÇĲĠyÃł
ĠtÃ³ngĠ bÃ¹
ĠyÃ¡nĠ xiÃłnĠ
ĠyÃ¡nĠ yÃ²ngĠ
ĠjÃ¹ ĠzhÅįngĠ
ĠjÃ¹ ĠjuÃ©Ġ
ĠdÄģngĠ rÃ¡nĠ
chÄĵ ĠxiÄģngĠ
ĠtÃŃ ĠjiÄģo
qÃ¬Ġ wÄĵnĠ
nÃŃ ĠsÄ«Ġ
ĠhÃ¡iĠ zÃłiĠ
biÄģo ĠbÄĽnĠ
xÄ«Ġ ÄĽr
ĠhuÃ³ ĠxÃ¬ngĠ
ĠlÇİo ĠwÅį
ĠzÃłiĠ19 2
ĠbÇİ ĠtÄģ
ĠtÃŃĠgÅįngĠ de
ĠpÃ©iĠ chÃ¡ngĠ
wÇİ Ġ
y ĠĠĠ
Ã© ĠbÇĲĠyÃł
Ġde ĠduÃ¬Ġ
Ġde ĠhuÃł
wÃ¨iĠ zhÅįngĠ
ĠdÃ¬Ġ xÃŃngĠ
ĠwÃ©iĠ tÃ¨
ĠshÃ¹ ĠniÃ¡nĠ
ĠjÃ¬nĠ shÄĵngĠ
dÃ© ĠdÃłoĠ
ĠzhÃ¹ ĠdÃ¬Ġ
guÄģnĠ shÇİngĠ
rÃ¬Ġ chÃ¡ngĠ
liÃ¡nĠ zÇİiĠ
fÃº ĠzhuÄģngĠ
dÇİo ĠshÃłngĠ
xÄ«ngĠ xÃ¬Ġ
biÄģnĠ jÃ¹Ġ
shuÇĲ ĠkÃ¹
shÄģngĠ rÃ©nĠ
wÄĵiĠ jÄ«
wÄĵiĠ xiÃ©Ġ
ĠyuÇİnĠ zhÄĵngĠ
sÄģiĠ Ã©ĠbÇĲĠyÃł
ĠxuÃ¨ ĠtÇĴngĠ
miÃ¡oĠshÃ¹ ĠwÃ¨iĠ
0 3
ĠĠ ĠcÃ©ngĠ
ĠĠ ĠzhÅ«
Ġde ĠsuÇĴĠyÇĴu
ĠshÃ¬Ġ hÃ¡nĠguÃ³
ĠzÃłiĠ rÃ¨nĠ
ĠyÇĲ ĠwÃłiĠde
ĠxiÃłnĠ xÃŃngĠ
ĠsÄ« ĠshÃ¬Ġ
ĠdÃ© ĠfÄĵnĠ
zhÄ« ĠbÃ¹
ĠzhÅįu ĠlÃ¬Ġ
ĠshÇĴu ĠshÃ¹
ĠmÇİ ĠxÃ¹nĠ
ĠmÇİ ĠlÃ¬ĠyÃł
pÃŃngĠ xiÃłnĠ
dÃ²ngĠ gÅįngĠ
ĠfÄģngĠ chÃ©ngĠ
ĠnÃł Ġge
ĠkÇİ ĠtÃ¨
ĠwÄĵiĠ nÃŃĠsÄ«
bÇİo ĠwÃ¨iĠ
lÇĲngĠ dÇİoĠ
ĠjÅ« ĠzhÃ¹Ġ
8ĠyuÃ¨Ġ 31ĠrÃ¬Ġ
wÃ¡nĠchÃ©ngĠ le
ĠwÃ¨iĠyÃºĠgÄģiĠguÃ³ ĠxÄ«ĠbÃ¹Ġ
ĠdiÄģo ĠsÃ¹
ĠjÇĶĠbÃłnĠ de
ĠchÇĶĠlÇĲ ĠqÃ¬Ġ
ĠwÃ¹ĠlÇĲ ĠxuÃ©
ĠjÃ¹ĠfÄĵngĠ zhÅįngĠxÄ«nĠ
ĠluÃ³ĠlÄģ ĠduÅį
0 8
Ġde ĠdÃ¬ĠÃ¨r
ĠguÃ³ ĠyÇĴu
ĠzhÃłnĠ lÃ¬Ġ
ĠjiÄģngĠ xÄ«ĠshÄĽngĠ
ĠmÃŃnĠ zhÃ¨ngĠ
zhÇİngĠ dÃ¡
ĠwÇĶ ĠdÃ¬Ġ
ĠbÃ³ ĠlÄģ
ĠmÃ³ ĠtuÅį
biÄģnĠ jiÃ¨
ĠzhÃ¨nĠ yÄģ
ĠkÄĽĠyÇĲ ĠyÃ²ngĠ
jÇĲnĠ zhÄģngĠ
ĠtÃ¨ĠbiÃ© ĠshÃ¬ĠzÃłiĠ
zhÇĶĠjiÃło ĠliÃłnĠ
ĠwÇĴĠmenĠ de
kuÃŃ Ġ
yÃŃngĠdÃ© Ġle
6 ĠniÃ¡nĠ1ĠyuÃ¨Ġ
e org
l ÃºĠ
Ġr ÇĶĠ
Ġde ĠshuÇĲ
ji ÇĴngĠ
zhÃ¬Ġ yuÃłnĠ
ĠtÄģ ĠsuÇĴ
ĠyÃ¬Ġ lÃ¬Ġ
ĠdÃł ĠlÃ¬Ġ
ĠgÃ¨ ĠxiÃłngĠ
ĠsÄ« ĠluÃ²
ĠdÃłnĠ yÇĴu
ĠzÃ¬Ġ 199
ĠmÄĽiĠ lÄģ
zhÇĶ ĠguÇİnĠ
ĠjiÃło ĠdÃłĠde
kÄģiĠ shÇĲĠy
ĠmÃ¹ ĠzÃłngĠ
jiÃło ĠshÄ«Ġ
ĠshÄĽngĠ fÃ¹ĠzÃ©ĠguÇİnĠxiÃ¡Ġ
tiÄģnĠ de
ĠbiÃłnĠ xÃŃngĠ
âĢ »
ĠfÃ¡ngĠ ziĠ
ĠwÃ¡nĠ shÃłnĠ
ĠmÇĲ ĠlÄĵiĠ
ĠzuÃ¬ĠzhÅįngĠ yÃº
ĠxiÅįngĠ zhÇİngĠ
ĠsÅįu Ġ
ĠjÄ«ĠbÄĽnĠ shÃłngĠ
ex tĠ
zÃ¬ĠxÃŃngĠ chÄĵ
ĠfÄĵiĠlÃ¬Ġ pÇĶ
S M
i dĠĠĠ
u ri
ĠĠ ĠshÃ¬ĠjiÃłnĠ
ĠrÃ©nĠ bÃ¨iĠ
ĠbÃ¹ ĠluÃ³
ĠbÃ¹ ĠlÃ¹nĠ
ĠrÃ¬Ġ yÇĶ
ĠyÃº ĠlÃ¹nĠ
zhÃ¬Ġ huÃ¬Ġ
ĠyÇĴu ĠliÇİngĠ
ĠjÃ¬Ġ zhÄĽĠ
ĠmÃŃngĠ shÃ¬Ġ
ĠzhÃłnĠ guÃ³
hÃº ĠguÇİngĠ
ĠnÃ¡nĠ cÃ¨
ĠfÇİ Ġde
ĠtÅįngĠ xÃŃngĠ
rÃ¬Ġ qÄ«
ĠshÄĽngĠ jiÄĵĠrÇİngĠ
ĠchÃ¡ngĠ wÄĽiĠ
ĠcÄģnĠ guÄģnĠ
juÃ© ĠshÃ¬Ġ
ĠÄģ ĠliÃ¨
huÃŃ ĠhÃ©
zhuÇİnĠ yÃŃ
it t
ĠxiÄģngĠduÃ¬Ġ yÃº
ĠjiÃ¨ĠquÃ¡nĠguÃ³ ĠzhÃ¨ngĠxiÃ©ĠwÄĽiĠyuÃ¡nĠ
tÇİĠjÄ« ĠzhÅįu
ĠzhÅįngĠ chÇİngĠ
ĠbÃ¹ ĠliÃ¡ngĠ
yuÃ¡nĠ hÃ©
ĠdÃł ĠyÃº
dÃł ĠduÃ¬Ġ
ĠzuÃ² ĠfÇİĠ
ĠjiÄģnĠ shÃ¬Ġ
ĠyÃŃ ĠdÃłiĠ
ĠliÃ¡nĠ chuÃłnĠ
ĠyÄĽ ĠkÄĽĠnÃ©ngĠ
ĠxÃ¬ngĠ gÃ©
mÃ¹ ĠfÇĶ
ĠqÇĶ ĠxiÄģoĠ
ĠshÄģ ĠmÃ²
shÄ« ĠgÅįngĠ
ĠjiÇİnĠ yÃłnĠ
ĠxiÅ« ĠxiÃ¡nĠ
ĠxuÄģnĠ gÃło
yÃ³uĠxÃ¬Ġ zhÅįngĠ
eĠĠ Ġs
ĠyÃ²uĠmÃŃngĠ BDĠ
ĠdeĠqÃŃngĠkuÃłngĠ xiÃł
2 ĠmÃŃngĠ
c c
p Ã¨ngĠ
Ġb ack
shÃŃ ĠtÇĲ
ĠchÃ©ngĠ jiÃ¹
ĠshÃłngĠ sÃ¹
jÃ¬nĠ jÅ«nĠ
zÃ¬Ġ wÇĴ
ĠmÃ¹ Ġde
ĠshÄĽngĠ huÃ¬Ġ
ĠnÃł ĠrÃ¹
ĠpÇĶ ĠlÇĲ
fÃ¨nĠ zÇĲĠ
ĠhÄģ ĠdÃ©
nÇļ ĠwÃ¡ngĠ
dÇİ ĠpÃ²
20ĠniÃ¡nĠ dÃłiĠ
ĠguÃ³ĠjÃ¬Ġ sÃłiĠ
ro w
ol orĠ
zhÅįngĠyÄģngĠ wÄĽiĠyuÃ¡nĠhuÃ¬Ġ
yÃ¡nĠjiÅ« ĠsuÇĴĠ
ĠkÇĴngĠ tÃłiĠ
ĠxuÃ¨ ĠyÃ¨
yÃºĠ201 6ĠniÃ¡nĠ
fÃ¡nĠ mÃ¡ngĠ
zhÄģnĠ mÇĶĠsÄ«Ġ
ĠxÇĲĠ ÃłiĠ
ĠdÃłiĠwÃ©iĠ sÄ«
r uc
ĠĠ ĠwÅ«
hÃ© Ġ1
ĠrÃ©nĠ zhÃ¬Ġ
ĠzhÃ¨ngĠ tÇĴngĠ
xÄ« ĠbÃ³
guÃ² Ġde
ĠfÄĵiĠ dÃłnĠ
ĠbÇĲ ĠcÇĲ
rÃ¹ ĠjÃ¬ngĠ
ĠqÃŃĠzhÅįngĠ nÃ¡nĠ
huÃŃ ĠyÃ¬Ġ
ĠxiÄģngĠgÇİngĠ de
guÇİngĠ zhÅįuĠshÃ¬Ġ
ĠxiÇİngĠ fÇİ
ĠjÃº Ġde
zhuÇİnĠ huÃ¬Ġ
ĠÃ© ĠguÃ³
ĠĠĠ198 8ĠniÃ¡nĠ
hÃ¹Ġ hÃ¡ngĠ
ĠzhuÃłnĠ jÃ¬Ġ
ĠhuÃ¡ngĠjiÄģ ĠhÇİiĠjÅ«nĠ
ep h
C E
ĠlÃ¬Ġ tÇĲ
ĠgÃ¨ ĠxÃ¬ngĠ
ĠguÃ³ ĠÄģnĠ
ĠhuÃ¬Ġ zhÃ¬Ġ
ĠduÅį ĠÄĽrĠshÄĽngĠ
ĠshÇĴu ĠrÃ¨nĠ
ĠjiÄģngĠ gÄģiĠ
lÃ¹ ĠshÃłngĠ
zhÇİngĠ wÃ²
ĠzhÇİngĠ zÇĲĠ
ĠguÃ² ĠqÃ¹Ġ
shÄģnĠ sÃ¬Ġ
zhÄĽ ĠhÃ©
shÃ²u ĠmÃ¬ngĠ
ĠwÇİngĠ luÃ²Ġ
shÃ©nĠ shÄĽngĠ
ĠchÃ³ngĠ fÃ¹
ĠhuÇĴ ĠlÃ¬Ġ
ĠnÃ¡ ĠmÇİ
ĠdeĠyÃŃĠgÃ¨ ĠqÅ«Ġ
mÃłnĠ huÃłĠ
bÃº ĠyÃło
zhÃ¨ngĠzhÃ¬Ġ xiÃ©ĠshÄģngĠhuÃ¬ĠyÃ¬Ġ
ĠfÇİnĠduÃ¬Ġ pÃłiĠ
Ã¨ĠÄĽr ĠshÄĽngĠ
ĠzÃłiĠzhÃ¨ ĠxiÄĵ
ĠdeĠjÄ« ĠbÄĽnĠ
ĠzÃłiĠ201 0ĠniÃ¡nĠ
pÃ©ngĠ yÇĴu
ĠwÃ¨nĠtÃŃ Ġde
ĠkuÃł ĠyuÃ¨
yÄĵ ĠsÅ«
1 ĠmÃŃngĠ
I L
ĠtÄģ ĠbÃ¹
ĠgÅįngĠ tÃŃngĠ
ĠzhÃ¬Ġ shÇĲ
huÃł ĠguÄ«
ĠmÄĽiĠ rÃ©nĠ
ĠyÃ¡nĠ ÃłnĠ
lÇĲ ĠchÃ©ngĠ
lÇĲ ĠxiÇİngĠ
xiÃł ĠfÄģngĠ
ĠshÄĵnĠ gÄģo
ĠbÃłnĠ jÃ¬ngĠ
yÃ¡ngĠ xÃ¬ngĠ
ĠliÃ¨ ĠshÃ¬Ġ
bÃło ĠdÇİo
ĠxÄ«ngĠ qÄ«Ġ
ĠtÃº ĠpiÃłnĠ
Ġ196 0ĠniÃ¡nĠdÃłiĠ
ĠãĤ ¹
ĠzÃłngĠ yÃº
ĠgÅįu Ġ
ĠqiÃ¡nĠshÄĵnĠ shÃ¬Ġ
qÅ«ĠyÃ¬ĠhuÃ¬Ġ xuÇİnĠjÇĶĠ
ÃłiĠdÃ© ĠhuÃ¡
ĠĠ Ġ15
ĠshÃŃ ĠyÄ«ĠniÃ¡nĠ
gÅįngĠ rÃ¹
Ã©r ĠdÃ©ĠmÃŃngĠ
ĠjiÃłnĠ jiÄĵ
mÃŃngĠ yÃ¹
ĠquÃ¡nĠ zhÅįu
ĠgÃ© Ġde
ĠfÄĵngĠ bÃ¬Ġ
ĠjÃ¬ngĠ nÃ¨iĠde
ĠwÄĽiĠ rÃ¨nĠ
wÃ¡ngĠ wÃ¨iĠ
ĠĠĠ201 1
kÅįngĠ xÃŃ
ĠzhÄĵnĠ de
in k
dÃ¡ ĠkÄĵ
dÇİ ĠjÃ¬nĠ
ĠxuÄģnĠ yÃ¡nĠ
ĠdÄģngĠdÃ¬Ġ jÅ«ĠmÃŃnĠ
ĠzuÃ¬ĠhÃ²u ĠyÄ«ĠcÃ¬Ġ
ĠmiÃ¡o ĠxiÄĽ
mÃ¡o ĠzÃ©ĠdÅįngĠ
Ġtou Ġ
ĠxiÅ«ĠzhÃ¨ngĠ ÃłnĠ
ĠdÃłĠdÅįngĠbÃ¹ ĠdÃłĠqÅ«
inclu deĠ
0 9
a ĠĠĠS
Ġ ĠshÃ¬Ġ
shÃ¬Ġ gÃ¹Ġ
ch ÇĴngĠ
ĠĠĠ hÃº
ĠwÃ¨iĠ zhÄ«
dÃ¬Ġ jiÇĶ
ĠgÅįngĠ jÃ¹Ġ
chÃ©ngĠ qiÃ¡ngĠ
ĠfÃ¹ ĠyÇĶ
shÄĵngĠ gÃ©ĠwÃ¨iĠ
pÃŃngĠ dÃ¬ngĠ
zhÃŃ ĠbÅį
ĠsÄģnĠ bÃ¹
ĠgÃ© ĠsÄ«
ĠgÇĶ ĠbÄģ
tÃŃ ĠchÅ«Ġde
ĠtÃŃngĠ zhÃłnĠ
bÄ«ngĠ lÃ¬Ġ
ĠtuÄ« ĠcÃ¨
mÃłiĠ kÃ¨Ġ
ĠchÅįngĠ jÄ«
Ġ13 8
ĠqÇĶĠdÃ© Ġle
cÃ¡nĠ jÃŃĠrÃ©nĠ
jiÃ©ĠdÃ¹ ĠshÇĲĠ
gr oundĠ
ĠbÃ¹ ĠzhÃ¬Ġ
zhÃ¬Ġ 196
yÄ« ĠtiÄģnĠ
ĠyÃ³u ĠlÃºnĠ
jiÄģ ĠzhÅįu
ĠshÃłngĠ le
ĠnÃ¡nĠ yÃ¡ngĠ
chÅ« ĠniÃ¡nĠ
xuÃ© ĠhÃ©
ĠjÃ¹ ĠdiÇİnĠ
chÃ¡ngĠ zhÃ¹
ĠjiÄĵ ĠxiÃłĠlÃ¡iĠ
shÇĴu ĠrÃ¨nĠ
ĠfÃ¨nĠ zÇĲĠ
zhÃ²ngĠ zhÃŃ
ĠbÃ³ ĠÄĵnĠ
ĠcÃ³ngĠ zhÅįngĠ
ĠnÃŃ ĠrÃ¬Ġ
cÃ¬Ġ shÃ¹
ĠtÃº Ġde
ĠzhÄĵnĠ xiÃłngĠ
ĠchuÃłngĠ yÃ¬Ġ
Ġ12 ĠgÃ¨
xiÄģo ĠshÃ²uĠ
ĠliÃłnĠ ÃłiĠ
ĠÄģiĠ jÃŃ
nÃłnĠ mÃŃnĠ
shÃŃĠzÃ¬Ġ huÃ¬Ġ
o ĠĠĠ
hÃ© ĠtÄģĠde
Ġde ĠguÇĲĠdÃło
wÃ¨iĠ tÄģ
ĠzhÅįngĠ shÅ«
ĠrÃ¬Ġ jÃ¬Ġ
fÄģngĠ biÃłnĠ
ĠhuÃ² ĠjiÇİngĠ
ĠdiÃłnĠ zÇĲĠyÃ³uĠxÃ¬Ġ
ĠbÄĽnĠ yÃº
ĠguÃ² Ġde
ĠmÃ©iĠ kÃ¨
ĠshÄĵnĠ shÃ²u
ĠchÄĵngĠ hÅ«
ĠshÅ« ĠfÇİ
ĠÄģ ĠfÃ¹ĠhÃłnĠ
ĠbiÄģnĠ hÃłoĠwÃ¨iĠ
ĠyÄ«ngĠguÃ³ Ġde
shÃŃĠjiÄģnĠ nÃ¨iĠ
ĠkÃłnĠ jiÃłnĠ
ĠĠĠ199 2ĠniÃ¡nĠ
cuÃ² ĠwÃ¹
ĠdeĠdÃł ĠxÃŃngĠ
ĠfÃºĠlÇİngĠ shÃ©nĠ
ĠbÃ¹ĠliÃ¨ ĠdiÄģnĠ
bÃłnĠgÅįngĠ tÄ«ngĠ
ĠdÃłnĠ cÇĲ
ĠdÃłiĠ lÃ¡iĠde
ĠfÄĵnĠ xiÇİngĠ
ĠxiÄģngĠ shÃ¬ĠdÃ¬Ġ
ĠgÄģiĠ xiÃłnĠ
ĠbÄģ ĠsÄģiĠ
shÄĵnĠ shÃłngĠ
kÄĵ ĠÄĽr
ĠxiÄģo ĠshÄ«Ġ
ĠhuÃŃ ĠhÃ©
ĠxiÄģngĠgÇİngĠ zhÃ¨ngĠfÇĶ
shÄģngĠ wÃ¹
jÃ¬nĠxÃŃngĠ de
ĠfÃłngĠ zÃłiĠ
jÇĲnĠ sÃłiĠ
Ġ12 8
sÅ« ĠdÄģnĠ
jiÇİ ĠbÇİnĠ
shÄĽnĠ yÃ¡ngĠ
chÇİnĠshÄĵngĠ de
ĠdÃ¨ngĠ xiÇİoĠpÃŃngĠ
ĠnuÃ²ĠmÃłnĠ dÇĲ
ĠĠĠqÃ¬Ġ hÃ²uĠ
a eĠ
l Ã©ngĠ
ĠĠ ĠzhÅįu
ĠĠ ĠqÃŃĠhÃ²u
ĠĠ ĠzhÅįngĠhuÃ¡ĠmÃŃnĠguÃ³
guÃ³ ĠÄģnĠ
ĠshÃŃ ĠliÃ¹ĠniÃ¡nĠ
ĠjÃŃ ĠlÃ¬ĠyÃł
ĠxiÃłnĠ mÃŃngĠ
ĠxÃŃngĠ chÃ¡iĠyÃ³uĠjÄ«
jiÄģ ĠyÃ¬Ġ
jiÄģ ĠÄĽr
ĠlÇĲ ĠkÄĵ
ĠnÃ¡nĠ sÄ«ĠlÄģĠfÅ«
ĠxiÃł ĠyÄ«
ĠxiÃł ĠwÄĵiĠyÃŃ
ĠzuÃ¬Ġ xiÇİo
lÃ¹ ĠyÇĶ
gÃ© ĠlÇĲ
ĠyÃ²u ĠyÇĴu
ĠbÄģnĠ fÄģ
ĠrÃ¬ĠbÄĽnĠ zhÃ¨ngĠfÇĶ
ĠzhuÄģnĠ yuÃ¡nĠ
lÃ¬ngĠ yÃŃĠgÃ¨
ĠpÃŃ ĠÄĽr
pÃŃnĠ fÃ¡nĠ
mÃ¡o ĠdÃ¹nĠ
ĠyÃºĠ200 5ĠniÃ¡nĠ
ĠĠ ĠsuÃŃĠzhe
ĠĠ ĠmiÃ¡oĠshÃ¹Ġ
shÃŃ ĠbiÃ©
zÃłiĠ shÃłngĠhÇİiĠ
dÃło ĠqiÃłnĠ
ĠsuÇĴ ĠmÇĶ
ĠgÃ²ngĠ xiÇİngĠ
ar m
ĠbÃło ĠdÃ²ngĠ
ĠgÃ¨ngĠ yÇĴu
ĠlÄĵiĠ shÄĽngĠ
ĠzhÅįngĠyÄģngĠ diÃłnĠshÃ¬ĠtÃ¡iĠ
shÃ¨ĠjÃ¬Ġ de
ĠbÇĲĠ 2Ġ
ĠfÃ¡nĠ rÃ³ngĠ
ĠĠĠs tyleĠ
shÃ¬ĠyÄ« ĠmÃŃngĠ
huÄģnĠ yÃŃngĠ
Ġg uÇİ
ĠzÃłiĠ mÇİ
ĠwÃ¨iĠ yÃ³u
ĠshÃŃ ĠwÇĶĠniÃ¡nĠ
ĠyÄ« ĠfÄģngĠ
ĠxÄ«nĠ jiÃ¨
yÃŃ ĠjÅ«
ĠhÃ²u ĠdÃłiĠ
zÃ¬Ġ chÄĵngĠ
ĠgÄģo ĠcÃ©ngĠ
ĠdeĠ ÄģnĠquÃ¡nĠ
ĠsÄģnĠ jÃŃ
sÃ¬Ġ dÃł
ĠgÃ²u ĠwÃ¹
fÄĵiĠ jÄ«Ġ
ĠbÄģoĠkuÃ² Ġle
ĠshuÇĲ ĠshÄĵnĠ
ĠqiÃ¡ngĠ dÃłĠde
ĠdÃłĠxuÃ© ĠshÄĵngĠ
ĠhÅ« ĠxÄ«
Ġ190 2ĠniÃ¡nĠ
ĠnÇļĠxÃ¬ngĠ wÃ¨iĠ
nÃłiĠ ÄĽr
Ġdi Å«
2 ĠyuÃ¨Ġ24ĠrÃ¬Ġ
3 000
6 ĠniÃ¡nĠ1
ĠĠ ĠyÃ¨
ĠjÃŃ ĠjÃ¹
ĠqÃŃ Ġde
jÃŃ ĠbiÃ©
ĠbÃ¨iĠ miÃłnĠ
shÃłngĠ fÄģngĠ
zhÃłnĠ shÃ¨ngĠ
shÄĵngĠ wÃ¹Ġ
ĠzuÃ¬Ġ yÇĴu
sÄģnĠ jÃŃ
ĠluÃ² ĠtÃ¨
ĠlÇľ ĠhuÃł
ĠbiÄģnĠ hÃłoĠ
lÇĲngĠ dÃ¬Ġ
Ġ10 ĠgÃ¨
gÇİiĠ mÃŃngĠ
Ġ13 7
ĠdÃ¬ĠsÄģnĠ cÃ¬Ġ
ĠcÇİo ĠyuÃ¡nĠ
jÇĶĠbÃłnĠ de
zÄĵngĠjiÄģ Ġle
ĠfÄĵiĠxÃŃngĠ yuÃ¡nĠ
ĠfÃºĠluÃ³ĠlÇĲĠdÃ¡ ĠzhÅįu
ĠĠ ĠshÃ¨
ĠĠ ĠzhÇĲ
ĠĠ ĠdÄģnĠ
shÃŃ ĠshÃ¬Ġ
ĠyÄ« Ġde
ĠyÄ« ĠbiÄģnĠ
bÃ¹ ĠzhÇĶĠrÃ¨nĠ
jÃŃ ĠwÃ©iĠ
zhÃ¨ngĠ miÃłnĠ
ĠxÄ« ĠzÃłiĠ
ĠjiÃłnĠ zhÄ«
ĠjiÃłnĠ dÃło
ĠbÃ¨iĠ yÃ¹ĠwÃ©iĠ
ĠxÄ«nĠ tÃ¡iĠbÃ¬Ġ
ĠqiÃ¡nĠ fÄģngĠ
ĠduÅį ĠjiÄģ
ĠjiÃło ĠshÃ¬Ġ
ĠshÇĴu ĠhÃ¹
ĠxÃ¬ngĠ mÃŃngĠ
ĠxÃ¬ngĠ qÃ¹
ĠshÄģnĠ de
yÃł ĠjÅ«nĠ
ĠjiÃ¹ ĠdÃºĠ
dÄģngĠ dÃłiĠ
ĠyÇĲĠjÃŃ ĠqÃŃĠtÄģ
ĠjiÇİngĠ zuÃ¬ĠjiÄģ
luÃ² ĠshÄģnĠjÄ«
Ġ7 9
shuÅį ĠfÇİĠ
ĠzuÃ¬ĠzhÅįngĠ yÇĲ
diÃłnĠyÇĲngĠ jiÃ©
om Ġ
ĠpÃ©ngĠ zhÃłngĠ
ĠbÄĽiĠjÄ«ngĠ dÃłĠxuÃ©
zhÃ© ĠxuÃ©
ab le
Ġbo ĠdÃ¹
0 7
b le
o ul
ĠĠ ĠnÃ¨iĠ
ĠĠ ĠjiÇİ
Ġde ĠguÃ³ĠjiÄģ
ĠshÃŃ ĠhuÃ¬Ġ
ĠchÃ©ngĠ shÃº
ĠgÃ¨ ĠbiÃ©
zhÃ¨ngĠ zhuÃłngĠ
huÃ¬Ġ rÃ¹
jÅ«nĠ zhÇĶ
ĠqiÃ¡nĠ rÃ¨nĠ
ĠlÃ¹ ĠkÇĴuĠ
ĠmÇİ ĠdÃ©
ĠjÃ¹ ĠtuÃ¡nĠ
ĠyÃ¹ ĠfÃ¡ngĠ
ĠsÃ¬Ġ wÃ¨iĠ
hÃ¡nĠ guÃ³Ġ
dÇİo ĠyÇĶ
Ġ4 1
ĠtuÃ¡nĠ zhÇİngĠ
zhÄĵngĠ fÃº
yÃ¬ngĠ duÃ¬Ġ
rÃ³ngĠ liÃłngĠ
al lĠ
ĠbÃ¹ĠtÃ³ngĠ yÃº
guÃ³ĠjiÄģ ĠgÅįngĠyuÃ¡nĠ
ĠcÃºnĠzÃłiĠ yÃº
mÇİnĠ zhÅįu
ĠduÃ³ ĠqÇĶ
deĠjÄ« ĠbÄĽnĠ
ĠĠĠ18 7
ĠÅįu ĠmÃ©ngĠ
ĠlÇİnĠ huÃ¬Ġ
dÅįngĠjÄ«ngĠ dÅ«
ĠdeĠguÄģnĠ diÇİnĠ
ĠmÄĽiĠshÃ¹ ĠguÇİnĠ
- .
f orm
ĠĠ ĠsuÇĴĠyÇĴu
ĠĠ ĠzhÃ¨ĠzhÇĴngĠ
de ĠjÄ«ngĠjÃ¬Ġ
hÃ²u ĠyÃ¬Ġ
ĠhÃ© ĠlÇĲ
yÄ« ĠxiÃłngĠ
ĠyÇĴu ĠlÃ¬Ġ
jiÄģ ĠhÃ©
ĠyÃŃ ĠjÃ¬Ġ
ĠxiÃł ĠyÃ³u
zhÇĶ ĠdÇİo
ĠjiÃło ĠdÃł
ĠdiÃłnĠ dÃ²ngĠ
ĠbÄĽnĠ jÃ¹
ĠyÃ¹ ĠshÇĲ
ĠtÅįngĠ dÃłoĠ
ĠshÄ« ĠzÅįngĠ
chÇİngĠ hÃ©
qÄ«ngĠ chÃ©nĠ
ĠbiÄģnĠ mÇİ
tÃº ĠxiÃłngĠ
jÃº Ġde
ĠyÃ¬ngĠ bÃ¬Ġ
ĠxÄ«Ġ ÃłnĠ
on eĠ
ĠpÃ² ĠhÃłiĠ
pÃłiĠ wÇİngĠ
ĠyÄ«nĠyuÃ¨ ĠlÃ¹ĠyÇĲngĠdÃłiĠ
ĠwÇİnĠ jiÄģnĠ
chÅ«nĠ jÃ¬Ġ
ĠgÄĵngĠ gÇİiĠ
5ĠyuÃ¨Ġ 20ĠrÃ¬Ġ
ĠzuÃ¬ĠchÅ« Ġde
ĠguÃ³ĠhuÃ¬Ġ yÃ¬ĠyuÃ¡nĠ
jÃ¹ĠlÃ¨ ĠbÃ¹Ġ
ĠshÃłngĠfÇİĠlÃ¡nĠxÄ« ĠdÃłĠqÅ«
ĠĠ Ġch
ĠwÃ¨iĠ lÃ¬Ġ
ĠyÄ« ĠkÄģiĠshÇĲ
gÅįngĠ juÃ©
lÃ¬Ġ hÃ©
ĠxuÃ© ĠniÃ¡nĠ
ĠchÅ« ĠxiÃłnĠde
dÃ²ngĠ de
gÄģo ĠcÃ©ngĠ
chÄĵngĠ zhÄ«ĠwÃ¨iĠ
ĠjiÃ¹ ĠbÃ¨iĠ
mÇİ ĠÄĵnĠshÄĽngĠ
wÇĶ ĠyuÃ¨Ġ
yÇİnĠ jiÇİngĠ
ĠshÄģngĠ yÃ¨Ġ
ĠwÇİngĠ lÃ¡iĠ
ĠhÃ¡nĠ yÇĴu
ri tic
rÃ©ngĠ wÃ¨iĠ
it yĠ
ĠdÇĲngĠ jÃŃ
shÃŃĠdÃłiĠ de
huÃ¡iĠ yÃŃ
ĠbÃ¹ĠsÄ« ĠbÇİo
C l
Äģ ĠfÃ¹ĠhÃłnĠ
Ġs hÃ©Ġ
ĠĠ ĠguÄģnĠ
Ġt Äģo
ĠshÃ¬Ġ zÃ¬Ġ
ĠyÃº Ġ2023ĠniÃ¡nĠ
ĠtÄģ ĠhuÃ¬Ġ
ĠtÃ³ngĠ xÃ¬ngĠliÃłnĠ
zhÃ¨nĠ qÅ«ĠdeĠmiÃłnĠjÄ«ĠwÃ¨iĠ
hÇİiĠ nÃ¡nĠ
er m
ĠbÇİnĠ kuÃłiĠ
ĠsuÃ¬Ġ dÃłoĠ
deĠdÃ¬Ġ yÃŃĠgÃ¨
ĠmÇĴu ĠzhÇĴngĠ
bÇİoĠhÃ¹ Ġ
nd ro
i er
ĠĠ ĠqÄ«
ĠzÃłiĠ duÃ¬Ġ
ĠzÃłiĠ jiÄģngĠ
shÃŃ ĠbÃ¨iĠ
ĠdÃł ĠtÄ«ngĠ
gÅįngĠ jÃ¹
ĠyÇĶ ĠyÃ¬Ġ
ĠbÃ¬ngĠ tÅįngĠguÃ²
ĠzhÃ¨ngĠ biÃłnĠ
ĠxÄ«nĠ jÄ«
zhÇĶ ĠtÇĲ
ĠluÃ³ ĠbÄ«nĠ
guÄģnĠ jiÃłnĠ
ĠtÅįngĠ chÄĵngĠ
ĠhuÃł ĠjiÄģ
ĠyÃ¹nĠ zÃłiĠ
fÃº ĠÄĽr
ĠzÇĶ ĠzhÇİngĠ
ĠcÄģnĠ zhÃ¨ngĠ
ĠshÅ« ĠdiÃłnĠ
in e
deĠyÄ« ĠxiÃłngĠ
ĠliÃ¡ngĠ hÇİoĠde
ĠnuÃ² ĠkÃ¨
ĠjÇĲ ĠzhÇĴngĠ
ĠĠĠC l
lÇİo ĠyuÃłnĠ
ĠbÇĲĠ ÄĽr
ĠmÇĲnĠ nÃ¡nĠ
xÃŃngĠzhÃ¨ngĠ yuÃłnĠ
shÇĶĠde ĠzhÃŃĠwÃ¹Ġ
B BC
C H
S c
p Ã¡
de ĠdÃłiĠ
Ġde ĠfÇİnĠ
ĠyuÃ¨ ĠdÃº
ĠrÃ©nĠ yÇĶ
ĠzhÅįngĠ jiÃłngĠ
ĠyÄ« ĠkÃło
dÃ¬Ġ shÃ¬Ġ
hÃ¡ngĠ hÇİiĠ
ĠbÃ¬ngĠ rÃ¨nĠwÃ©iĠ
jÄ« ĠtuÃ¬Ġ
shÄĵngĠ cÃºnĠ
ĠzuÃ¬Ġ zhÃ²ngĠyÃłoĠde
ĠshÇĴu ĠqiÄģngĠ
yÃ¹ ĠdÃ¬ngĠ
guÃ² ĠyÃº
jiÄģnĠ shÃ¬Ġ
yÃ¡nĠ yÃ²ngĠ
ĠtiÄģnĠ kÅįngĠ
zhÄĽ ĠzÃłiĠ
zÇĶ Ġde
liÃ¨ ĠshÃ¬Ġ
xuÇİnĠ shÇĴuĠ
Ġ5 1
ĠshÅ« ĠxiÄĽ
wÃ¡ngĠ shÃ¬Ġ
xiÃ© ĠdÃłiĠ
ĠguÄģngĠ xuÃ©
ĠxiÇİngĠ yÇĴu
ĠzhÅ« ĠrÃº
Ġ12 6
ĠhÃ¹ ĠliÃ¡nĠwÇİngĠ
ĠĠĠc olspanĠ
gÃłnĠ bÃ¹
deĠgÅįngĠ nÃ©ngĠ
ĠtÇĲĠyÃ¹ ĠguÇİnĠ
ĠjuÄģnĠ zÃ¨ngĠ
7 0ĠniÃ¡nĠdÃłiĠ
a ĠĠĠP
r yĠ
ĠĠ Ġsh
ĠĠ ĠmÃłiĠ
zÃłiĠ zhÅįngĠ
ĠdÃ© ĠchuÄģnĠ
zhÃ¨ngĠ wÃ¹
ĠlÇĲ ĠjiÄģ
ĠpÃŃngĠ ÄģnĠ
ĠsuÇĴ ĠxiÃ¡
dÃ© ĠsÄ«
deĠ hÃº
dÅįngĠ yÃł
tÃ¡iĠ zhÅįngĠ
ĠtÃŃ ĠjÃŃ
wÇĶ ĠgÃ¨
ĠbiÃłnĠ wÃ¨iĠ
ĠbiÄģnĠ xiÄĽ
shÄ« Ġde
cÃ©ngĠ shÃ¬Ġ
ĠqiÄģnĠ xÇĲ
ĠtuÅį ĠÄĽr
quÃ¨ ĠbÇİo
dÇİ ĠbÃłiĠ
kÇİo ĠshÃ¬Ġ
ĠxiÃłnĠde ĠfÄĵiĠjiÃłnĠzhÃ¬ĠdÃ¬ĠqÅ«Ġ
ĠcÄģnĠsÃłiĠ zÄ«ĠgÃ©Ġ
ĠĠĠcÇĲ ĠzhÃłnĠ
ĠshÃ¬ĠwÃ¹ ĠsuÇĴ
2 ĠĠĠ
2 3Ġ
2 50
c ÄģiĠ
ĠĠ ĠyÄ«ngĠ
ĠĠ ĠguÇĲĠdÃło
hÃ© ĠjÄ«nĠ
ĠrÃ©nĠ shÃ²uĠshÄģngĠ
ĠzhÅįngĠ niÃ¡nĠ
ĠchÃ©ngĠ mÃ©nĠ
bÃ¹ ĠjiÄģĠ
huÃ¬Ġ shÃ¬Ġ
ĠzhÃłnĠ qiÃ¡nĠ
ĠdÃłnĠ yÃº
ĠÃ©r ĠqÃŃ
ĠnÃ¡nĠ rÃ©nĠ
quÃ¡nĠ shÃ¬ĠjiÃ¨
ĠbÄĽiĠ hÇİiĠ
ĠzÃ© ĠhuÃ¬Ġ
ĠlÃŃnĠ suÄģnĠ
sÃłiĠ tÇĲngĠ
ĠjiÄģo ĠliÃºĠ
kÄĵ ĠyÄ«ĠshÄĵngĠ
ĠjiÇİnĠ pÇĶĠzhÃłiĠ
ĠrÃ¬ĠbÄĽnĠ rÃ©nĠ
huÃ¡ngĠ tÃłiĠ
Ġ8 9
ĠxiÃ³ngĠ xÃ¬ngĠ
gÄĵngĠ huÃłnĠ
chÇĲ ĠcÃ¹nĠ
biÇİoĠxiÃłnĠ chÅ«
ĠxiÃłnĠlÃ¹ ĠkÇĴuĠ
jÃ¬ĠzhÄĽ ĠhuÃ¬Ġ
fÃºĠjiÃłnĠ shÄĽngĠ
gh t
ĠbÃ¹ĠliÃ¨ ĠtÇİĠnÃŃ
ĠdÃłĠjiÇİngĠ sÃłiĠ
Ġback groundĠ
ĠkÇĴngĠtÃłiĠ dÃłĠqÅ«
5 ĠwÃłnĠ
ï ¹
ĠĠ ĠsÃ²ngĠ
de ĠkÄģiĠ
dÃ¬Ġ zhÅįngĠhÇİiĠ
yuÃ¡nĠ zhÃ¹Ġ
ĠyÇĴu ĠliÇİngĠgÃ¨
ĠjiÃłnĠ yÇĴu
zuÃ² ĠluÃ²
ĠdÃłnĠ yÄĽĠyÇĴu
rÃ¨nĠ shÃŃ
gÃ© ĠlÇĶ
ĠbÃ³ ĠkÃ¨
or eĠ
ĠjiÃ¨ ĠcÇĲ
ĠzhÃło ĠgÃ¹
ĠxÄ«Ġ hÃłnĠ
ĠxÃºnĠ yÇİnĠ
ĠzhÅįngĠyÄģngĠ jÅ«nĠwÄĽiĠ
hÄĽnĠ dÃł
wÇİnĠ jiÄģnĠ
ĠgÅįngĠzuÃ² Ġde
ĠĠĠ198 9ĠniÃ¡nĠ
zÃ¬ĠyÃ³u Ġ
lÇľĠwÃ¨iĠ 0
ĠhÄģĠÄĽrĠbÄ«nĠ shÃ¬Ġ
o le
ĠĠ ĠshÄ«
ĠzÃłiĠ jÃ¹
ĠwÃ¨iĠ jÃŃ
ĠyÄ« ĠlÄģĠkÃ¨
ĠjiÄģ ĠshÇĶ
ĠlÇĲ ĠmÃ¹
shÄĵngĠ jÃŃ
ĠshÇĴu ĠÄĽr
zhÃŃ ĠzhÃ¬Ġ
ĠqÅ« ĠbiÃ©Ġ
ĠhÇİiĠ shÃ¬Ġ
sÃ¬Ġ jÅ«nĠ
ĠchÇİngĠ shÄģngĠ
ĠsÃ¬Ġ yuÃ¨
ĠfÄĵngĠ kuÃ¡ngĠ
ĠnÃŃ ĠÄĽr
ĠzÃº Ġde
pÃ¡iĠ hÃ¡ngĠbÇİngĠ
dÅįu ĠmÃ©iĠyÇĴu
huÃ¡ngĠ sÃ¨Ġ
Ġ7 3
ĠshÃ¬ĠjÃ¬Ġ mÃ²
jÃº ĠshÃ¬Ġ
ĠdÇİ ĠkÄģiĠ
ri p
gÄĵnĠ bÄĽnĠ
ĠzuÃ¬ĠhÃ²u ĠyÃŃĠgÃ¨
chÃ©ngĠlÃ¬Ġ le
ĠdÄģ ĠdÃłngĠ
tÃ²u ĠlÃ¹
ĠbÃ¬ĠyÃ¨ ĠshÄĵngĠ
ĠbÄĽiĠqÇĲĠshÃ¹nĠshÃŃĠzhÄĵnĠ yÇĶ
ĠgÄģiĠwÃ¹ĠzhÇĴngĠdeĠmÃ³ĠshÃ¬ĠchÇİnĠ dÃ¬ĠzÃłiĠ
P P
m ÃŃĠ
Ġb aĠ
ÄģnĠ zhÃ¬Ġ
Ġr ÄĽ
ĠzÃłiĠ gÄģo
ĠlÃ¬Ġ wÃłiĠ
ĠbÃ¹ ĠdÄĽngĠ
shÃŃ ĠsÃ¬ĠniÃ¡nĠ
ĠshÃŃ ĠyÃº
ĠhÃ© nĠ
ĠchÃ©ngĠ bÇİoĠ
wÃ©iĠ yÄĽĠnÃł
jÄ«ngĠ yÄ«ngĠ
lÇĲ ĠniÃłnĠ
ĠdÄģngĠ qiÃ¡nĠ
ĠshÄģnĠ hÃº
zhÃ²ngĠ yÃ¬ĠyuÃ¡nĠ
kÃ¨ ĠlÄģ
tÃ¨ ĠlÇİngĠpÇĶ
jiÃ¹ ĠrÃ¨nĠ
xÃ¬nĠ hÃłoĠ
ĠyÃłngĠ de
zhuÄģnĠ kÄĵ
ĠrÃ¨nĠwÃ©iĠ zhÃ¨
ĠshuÄģngĠ chÃ³ngĠ
ĠyÅįu ĠdiÇİnĠ
zhÇĶĠyÃło ĠshÃ¬Ġ
ĠJ ohnĠĠĠ
ĠmÇĶĠqÄ«nĠ shÃ¬Ġ
ĠniÇĶĠyuÄĵ ĠshÃŃĠbÃłoĠ
ĠzhÃ¹ĠyÃ¬Ġ deĠshÃ¬Ġ
l ÇİoĠ
yÃ¬Ġ shÃ¹Ġ
jiÃłnĠ dÃło
xiÃłnĠ jÃŃ
xÄ«nĠ shÃ¬ĠzhÃ¨nĠ
rÃ¨nĠ dÃ¬ngĠ
ĠpÃŃngĠ dÃ¬ngĠ
ĠmÃ¹ ĠrÃ³ngĠ
ĠjiÄĵ ĠjÃŃ
hÇİiĠ xiÃ¡Ġ
ĠyuÄĵ Ġ1
ĠjiÄģo ĠzhÃłnĠ
ĠtÃ¡ngĠ qÅ«Ġ
Ġ7 7
guÄ« ĠzÃ©Ġ
ĠmiÃłnĠjÄ« Ġ1Ġ
ĠdeĠyÃŃĠgÃ¨ ĠxiÃłnĠ
ĠniÇĶ ĠxÄ«ĠlÃ¡nĠ
ĠzuÃ¬ĠgÄģo ĠdiÇİnĠ
ow er
ur eĠ
ĠãĤ ¤
ĠzhÃ¨ĠshÃ¬Ġ yÄ«nĠwÃ¨iĠ
ĠbÃł ĠgÅįngĠ
ĠxÄ«nĠjiÄģĠpÅį Ġ
ĠxÃºnĠhuÃŃ ĠyÇİnĠchÃłngĠhuÃ¬Ġ
ÃłnĠchÃ¡ ĠsÄ«
ĠguÄģnĠzhuÃłngĠbÃ¬ngĠdÃºĠbÃ¬ngĠ yÃ¬ĠqÃŃngĠ
inu x
B O
ĠĠ ĠlÃ¹
ĠĠ ĠbÇİo
ĠĠ ĠzhÄĵnĠ
Ġg eĠ
ĠyÃº ĠtÃ³ngĠniÃ¡nĠ
ĠdÃł ĠshÇĲ
ĠxÃŃngĠ xÃ¬ngĠ
ĠmÃŃngĠ jiÃło
ĠhuÃ¬Ġ hÃ©
le ĠduÃ¬Ġ
ĠbÃ¬ngĠ bÇİ
ĠzhÃłnĠ nÃ¨iĠ
ĠzhÇĶ ĠtÃŃĠ
xÄ« ĠbÃ¹Ġde
ĠduÅį ĠtiÃ¡nĠ
ĠliÃº ĠwÃ¡ngĠ
fÄĵnĠ xiÇİngĠ
ĠyuÄĵ Ġ2
biÃłnĠ huÃłnĠ
rÃ³ngĠ hÃ©
Ġ8 4
ĠzhÄĵngĠ duÃ³
jiÇİngĠ pÃ¡iĠ
zhÃło ĠjÃŃ
on y
ĠdÃłiĠbiÇİo ĠdÃłĠhuÃ¬Ġ
ĠkÃ²ngĠ gÇĶ
ĠĠĠt uÃ¬Ġ
ol d
yÅįu ĠxiÄģnĠ
9ĠyuÃ¨Ġ 30ĠrÃ¬Ġ
fÃ¹ĠzÃ© ĠrÃ©nĠ
ĠshuÃ¬Ġ miÃ¡nĠ
ĠyÇĲnĠqÇĲ Ġle
n iÃłngĠ
Ġde ĠjÃŃ
Ġde ĠxuÇİnĠ
Ã¡ngĠ guÃ¬Ġ
ĠjiÄģ ĠlÄĵiĠ
jÃ¬Ġ sÃ¬Ġ
ĠzhÃ¨ngĠ quÃ¨
ÇĲĠy Ã²u
ĠshÇĴu ĠbÅįĠ
ĠluÃ³ ĠnÃ¨Ġ
deĠ 3
sÄģnĠ dÃł
ĠxuÇİnĠ chÅ«
tÃŃ ĠqiÃ¡nĠ
ĠwÄĵiĠ tÃ¨
jiÃ¹ ĠbÃ¨iĠ
ĠqÃŃngĠ xÃ¹
ĠjiÄĽ ĠchÃº
ĠxÃ¹ ĠliÃ¨
zhuÄģnĠ jÃŃĠde
ĠfÇĶ ĠbÃłiĠ
ĠyÇĴngĠ gÇİnĠ
fÃ¨iĠ chÃºĠ
ĠkÃłnĠ fÇİĠ
xiÃ¡ ĠqÅ«
ati v
ĠqiÅ« ĠlÃŃngĠ
wÃ©nĠhuÃł ĠyÃŃĠchÇİnĠ
ĠzhuÃłngĠzÃº ĠzÃ¬ĠzhÃ¬ĠqÅ«
ĠmÃŃngĠnÃŃĠsÅ«ĠdÃ¡ ĠzhÅįu
z Ã©iĠ
ĠĠ ĠsÃł
Ġde ĠmÃŃngĠchÄĵngĠ
guÃ³ ĠyÇĶ
ĠlÃ¬Ġ wÃ©nĠ
yÄ« ĠjÃ¹
le ĠgÄģiĠ
ĠyuÃ¡nĠ dÃ¬Ġ
ĠchÅ« ĠkÇĴuĠ
ĠkÃ¨ ĠlÄģĠkÃ¨
ĠxÄ«nĠ xÃŃngĠ
ĠxÄ«nĠ huÃ¡
ĠxÄ«nĠ zÃłngĠ
ĠjÃ¹ ĠchÄĵngĠ
gÃ²ngĠ fÃ¨ngĠ
qiÃ¡nĠ hÃ²u
zhÃ²ngĠ liÃłngĠ
ĠnÃł ĠsÄ«
biÄģnĠ jÃŃĠ
eĠĠĠ W
ĠsÃ¨ ĠliÃ¨Ġ
Ġ14 4
ĠmiÃłnĠjÄ« ĠyuÄĵĠwÃ¨iĠ
ĠyÃŃnĠ hÃ©
dÃŃ ĠrÃ©nĠ
ĠgÃło ĠshÃ¬ĠpÃ¡iĠ
ĠzhÃłnĠzhÄĵngĠ zhÅįngĠ
un d
ĠĠĠxiÃł ĠshÇĶ
ĠchÄģiĠ chÃº
s ch
Ġ only
wÃ¨iĠ hÃ©
ĠshÃŃ ĠbÃ¨iĠ
ĠyÇĶ ĠfÇİ
dÃł ĠgÅįngĠ
xÄ«nĠ cÅ«nĠ
yÇĲ ĠzhÄ«
dÃło ĠdÃ©
ĠxiÃł ĠbÃłnĠ
ĠzhÃŃ ĠlÃ¹Ġ
zhÃ¹ ĠrÃ¹
ĠtÃ¨ ĠdÃ¬ngĠde
lÇĲ ĠxuÃ©
huÃ² ĠwÃ¹
ĠhuÃł ĠwÃ¨iĠ
sÄģnĠ cÃ¬Ġ
ĠjiÃ¹ ĠyÃ¨
ĠqÄ«ngĠ zhÄĵnĠsÃ¬Ġ
ĠfÄĵngĠ fÃ¹Ġde
ĠshÅ« ĠjÃŃ
zÇĴngĠ huÃ¬Ġ
cÃ©ngĠ rÃ¨nĠ
Ġ10 8
mÃ² ĠÄĽr
Ġ11 ĠyuÃ¨
ĠdiÃło ĠyÃº
shÅįu ĠfÃ¨iĠ
huÇĴ ĠpÃło
hÄģ ĠsÃłĠkÃ¨
kuÃ² Ġ
duÃ³ ĠqÇĶ
ĠzhÃłnĠyÃ¬Ġ zhÅįngĠ
ĠtÃ²u ĠlÃ¹
k uÄ«
¡ Ġ
Ġ Ġde
ĠĠ ĠpÃ¨iĠ
ĠtÄģ ĠzhÅįu
ĠdÃł ĠfÅ«Ġ
chÃ©ngĠ dÄģnĠ
lÃ¬Ġ wÄĽiĠ
jÄ« ĠchÃ©nĠ
zhÄ« ĠjiÄģĠgÄĵ
ĠpÃŃngĠ xÃŃngĠ
ĠxiÃł ĠliÃ¨
chÅ« ĠyÃº
xiÃł ĠmÃ©nĠ
huÃ² ĠqÇĶ
qiÃº Ġde
ĠcÃ©ngĠ yÇĶ
ĠcÇĲ ĠyÄ«
biÄģnĠ chÃ©ngĠ
wÃ¡ngĠ zhÅ«
ĠqiÄģnĠ shÃ¬Ġ
ĠgÃ¹ ĠyÃ¬Ġ
ĠshÃ¬ĠyÄ« ĠsuÇĴ
ĠshÃ¬ĠyÄ« ĠtiÃ¡o
lÇľ ĠsÃ¨Ġ
ĠĠĠdÃ¬Ġ mÃŃngĠ
jiÃł ĠzhÃŃĠ
xuÄģnĠ gÃło
ĠtÃ¡o ĠwÃ¡ngĠ
ĠĠĠ202 4
yÇĲĠ 2
ĠkÇİo ĠchÃ¡
ĠbÇİ Ġ
ĠzÇİoĠqÄ« Ġde
ĠĠĠw ith
zhÅįngĠshÃ¬Ġ jÃ¬Ġ
ĠzÇİiĠ xiÃłngĠ
zhÃŃĠmÃŃnĠ dÃ¬Ġ
E P
T T
Ġde ĠxuÃ©ĠshÄĵngĠ
ĠzÃłiĠ 17
ĠyÄ« ĠsuÇĴ
ĠxiÃłnĠ dÃ¬ngĠ
gÅįngĠ zhÇĶĠ
jÃŃ ĠtÇĲ
ĠbÃ¬ngĠ yÄģoĠqiÃº
ĠzhÃ¨ ĠyÃ¬ĠdiÇİnĠ
ĠjiÃłnĠ zÃłiĠ
ĠzhÃłnĠ shÃ©nĠ
ĠzÃ¬Ġ wÃ¨iĠ
ĠgÄģiĠ qÅ«
ĠlÃŃnĠ de
shÄģnĠ de
ĠluÃ² ĠgÄĵ
ĠqÇĶ ĠjuÃ©ĠyÃº
ĠjiÄĽ ĠjiÄĽ
ĠcÃŃ ĠchÇİngĠ
ĠfÃłnĠ diÃłnĠ
lÇľ ĠsÃ¨
sÃ¨ ĠcÇİiĠ
en n
ĠĠĠshÄĵngĠ tÃłiĠ
ĠhÃ¨ nĠ
ĠĠĠ199 0ĠniÃ¡nĠ
ĠzÃłiĠ201 2ĠniÃ¡nĠ
chÅ«ĠbÇİnĠ shÃ¨
shuÇĲĠ hÃ©
ĠqiÇİngĠ pÃ²
ĠquÃ¨ĠzhÄĽnĠ bÃ¬ngĠlÃ¬Ġ
jÇĲngĠbÃło ĠzhÅįngĠxÄ«nĠ
2 ĠhÃło
D P
ÄģnĠ shÃŃ
ĠshÃŃ ĠyÇĴu
ĠshÃŃ ĠshÃłngĠ
jÄ« ĠlÃ³ngĠ
xÄ«nĠ jiÃłnĠ
ĠshÇĴu ĠbÃ¨iĠ
ĠkÄĽ ĠyÇĲĠ
nÃ¡nĠ nÇļ
ĠfÃº ĠniÃ¨Ġ
shÇĴu ĠlÇĲngĠ
Ġ3 000
wÃłiĠ guÄģnĠ
shÄĵnĠ rÃ¹
qÄ«ngĠ tuÃ¡nĠ
jÇĲngĠ gÃło
ĠshuÅį ĠfÃº
bÄģnĠ cÃ¬Ġ
ĠcÃŃ ĠshÃ¬Ġ
ĠC ar
ĠbÄģo Ġ
xÇĶ ĠkÄĽ
ĠzÃłnĠ chÃ©ngĠ
dÃłngĠ ÃłnĠ
ir st
ĠlÃ¬ngĠyÄ« ĠwÃ¨iĠ
ĠkuÄģngĠ jiÃł
ĠwÃ¨iĠ kÄĵ
ĠzhÃ¬Ġ suÇĴĠzÃłiĠ
ĠxÃŃngĠ shÄĽngĠ
ĠlÃ¡iĠ kÃłnĠ
ĠhuÃ² ĠqÃŃĠtÄģ
ĠjiÄĵ ĠtÃ³u
ĠzhÇĲ Ġde
lÃ¡iĠ wÇİngĠ
ĠsÃ¬Ġ miÃło
ĠqÄ«ngĠ jÅ«nĠ
ĠyÃ²u ĠzÃłiĠ
Ġ5 0Ġ
xiÃło ĠguÇĴ
ĠchÇİnĠ wÃ¹Ġ
ĠzhuÄģnĠ lÃ¡nĠ
ĠlÃ©iĠ dÃ¡
Ġ195 0ĠniÃ¡nĠdÃłiĠ
fÄģĠshÄĵngĠ de
et er
fÅ« ĠfÃ¹
gÅįngĠzuÃ² Ġde
ĠĠĠ18 6
ĠV Ġ
mÃ¨ngĠ jiÄģĠlÄģ
hÇİiĠbÃ¡ ĠgÄģoĠdÃ¹Ġ
Ġ00 0Ġ
ĠsÄģnĠjiÇİo ĠxÃŃngĠ
E n
M O
v erĠ
ĠĠ ĠmÇĲ
yÄ« ĠbÃ¹
ĠyÇĶ ĠmÄĽiĠguÃ³
zuÃ² ĠbiÄģo
zhÄ« ĠxiÃł
ĠwÃ©iĠ yÄĽĠnÃł
ĠguÃ² ĠwÇİngĠ
ĠliÇİngĠ dÃł
zhÇĲ ĠzÃ©
ĠtÃŃ ĠchÃłngĠ
gÇĶ ĠjÃ¬Ġ
ĠqÄ«nĠ fÃłnĠ
ĠrÃ©nĠmÃŃnĠ zhÃ¨ngĠfÇĶ
liÇİngĠ cÃ¨
lÃŃngĠ de
luÃ³ ĠnÃł
ĠxÃŃngĠzhÃ¨ngĠ zhÇİngĠguÄģnĠ
lÃ¹nĠ tÃ¡nĠ
ĠxÃºnĠ wÃ¨nĠ
dÃŃ ĠshÃ¬ĠnÃŃ
ĠĠĠA n
kÇİo ĠrÃ¹
ĠbÇĶ ĠrÇĶ
ĠgÅįngĠchÃ©ngĠ shÄ«Ġ
ĠpÃło ĠtÇİ
qiÅ« ĠjÃ¬Ġ
tÃºĠ ÃłnĠ
xiÃłĠjÃ¬Ġ ÃłoĠyÃ¹nĠhuÃ¬Ġ
oun t
ĠÑ Ģ
ĠshÇİoĠshÃ¹ ĠmÃŃnĠzÃº
ĠyÄ«ĠsÄ«ĠlÃ¡nĠ jiÃło
ĠpÃ©nĠ dÃ¬Ġ
Ġonly includeĠ
2 ĠyuÃ¨Ġ1ĠrÃ¬Ġ
T M
Ġz uÄģnĠ
hÃ²u ĠqÃŃnĠ
guÃ³ ĠgÅįngĠ
ĠlÃ¬Ġ shÇĲĠy
zÃłiĠ bÄģ
ĠyÃ¬Ġ fÄģngĠmiÃłnĠ
ĠgÅįngĠ wÃ¹ĠyuÃ¡nĠ
gÅįngĠ dÇİngĠ
wÃ©iĠ sÄ«
Ã¨Ġ ÄĽrĠ
ĠtÃ³ngĠ xÃ¬ngĠ
ĠnÃ¡nĠ bÃ¹Ġde
ĠpÃŃngĠ fÄĵnĠ
mÃŃnĠ jÃ¬nĠdÇİngĠ
shÄģnĠ dÇĲngĠ
ĠgÇİiĠ yÃ²ngĠ
ĠyÃ¡ngĠ jÄ«
qÃŃngĠ xÃ¹
ĠpÃ¨iĠ sÄ«
ĠdÃłiĠbiÇİo ĠduÃ¬Ġ
Ġ13 9
zÃłnĠ zhÃ¹
zuÃ¬ĠgÄģo Ġde
ĠzÃłiĠ200 8ĠniÃ¡nĠ
jÃ¬nĠshÃ¬Ġ chÅ«ĠshÄĵnĠ
zhÃłnĠdÃ²u Ġ
fÃ©ngĠ xÄ«ngĠqÄ«
ĠlÃ¬ĠhÃ© ĠwÃºĠzhÃ¨ngĠzhuÃłngĠgÇİnĠrÇİnĠzhÄĽ
+ +
a ĠĠĠM
f or
t onĠ
y s
ĠĠ ĠzÇİo
hÃ© ĠdÃ¬Ġ
de ĠjÄ«ngĠ
Ãło ĠwÄĽiĠhuÃ¬Ġ
hÃ²u ĠshÃ¬Ġ
ĠzÃłiĠ jÃ¬nĠ
ĠsÄ« ĠdÃ¹nĠ
ĠdÃ© ĠdÃłoĠ
xÃŃngĠ bÄĽnĠ
xÄ«nĠ jiÃ¨
ĠxiÄģngĠ lÃŃnĠ
ĠjiÄģngĠ zhÃ¨
mÄĽiĠ jiÇİngĠ
ĠmiÃłnĠ shÃ¬Ġ
ĠshÄģnĠ jÄ«Ġ
ĠshÃ¨ngĠ diÃłnĠ
cÄģnĠ yÇİnĠ
Ġ9 4
ĠdeĠyÄ« ĠwÃ¨iĠ
zhuÄģnĠ yÃ²ngĠ
ĠdÄĵngĠ lÃ¹Ġ
huÃ³ĠdÃ²ngĠ de
dÃ¬ĠsÄģnĠ cÃ¬Ġ
ĠĠĠ193 7ĠniÃ¡nĠ
ĠxÄ«nĠzÄĵngĠ jÃ¬ngĠwÃłiĠshÅ«ĠrÃ¹
ĠĠĠyÇĲĠxiÃł ĠwÃ¨iĠ
ĠjiÄģĠlÃ¬ĠfÃº ĠnÃŃĠyÃł
ĠtiÄģnĠwÃ©nĠxuÃ© ĠjiÄģ
ĠfÄĽngĠ cÃ¬Ġ
2 5ĠniÃ¡nĠ
h Äĵ
ÄģnĠ huÄ«
hÃ¡ngĠ yuÃ¡nĠ
ĠjÃ¬nĠ zhÃ¬Ġ
ĠfÃ¹ ĠzÇĴngĠtÇĴngĠ
ĠfÃ¹ ĠzhÇĶĠrÃ¨nĠ
ĠfÄĵnĠ de
ĠjiÃło ĠyÃ¬Ġ
lÇĲ ĠkÃ¨
ĠliÃº ĠchÃ©ngĠ
ĠjuÃ© ĠwÃ¨iĠ
ĠrÃ¹ ĠqiÃºĠ
âĢ ¢
ĠchuÃ¡nĠ shÅ«
qiÄģnĠ yuÄĵ
shÄ« ĠzÅįngĠ
bÇĲ ĠcÇĲ
Ġ10 9
ĠdÃ¬ĠÃ¨r ĠjÃ¬Ġ
ĠhuÄ« ĠfÃ¹Ġ
fÃ¡ngĠ jiÄģnĠ
ĠyÃ³uĠxÃ¬Ġ zhÅįngĠ
ĠfÄģĠzhÇİnĠ de
ol l
ĠbÃ¹ĠguÃ² ĠzÃłiĠ
zuÇĴ Ġ
ĠguÇĲ ĠdiÃłnĠchÄĵ
ĠtÅįngĠchÃ¡ngĠ huÃ¬Ġ
ĠxÄ«ĠbÄĽiĠ jiÄĵ
zÄģiĠ hÃłiĠ
ĠyÃ¬ĠshÃŃ ĠdÃło
5 ĠniÃ¡nĠ1ĠyuÃ¨Ġ
k mĠ
shÃ¬Ġ dÃł
wÃ¨iĠ dÃł
ĠrÃ©nĠ sÇĲĠwÃ¡ngĠ
ĠzhÃ¨ ĠbÃ¹ĠdiÃłnĠyÇĲngĠ
ĠxÄ« ĠshÄĵngĠ
huÃł ĠrÃ¹
ĠqiÃ¡nĠ xiÃłnĠ
bÄĽnĠ zhÃłnĠ
qÃŃ ĠzÃłiĠ
ĠdiÃłnĠ yÄģ
ĠmÃŃnĠ bÄ«ngĠ
chÃ¡ngĠ chÅ«nĠ
ĠhuÃ¡ ĠdÅįngĠ
ĠzÇĴngĠ bÄĵiĠ
yÇİnĠ huÃł
ĠmÃ² ĠduÄģnĠ
ĠguÃ³ĠjiÄģ ĠbÄĵiĠ
ĠzhÃ¨nĠ qÅ«
al k
ĠzhÅ« ĠshÃ¬ĠhuÃ¬Ġ
hÃ¡o ĠhuÃ¡
Ġãģ Ħ
ĠbiÇİoĠxiÃłnĠ chÅ«
ĠniÇĶĠyuÄĵ ĠshÃ¬Ġ
huÇİnĠ mÃłnĠ
ĠwÅ«Ġ ÄĽr
ĠtÃ¡iĠfÄĵngĠ jÇĲngĠbÃłoĠzhÅįngĠxÄ«nĠ
Ġ2011 ĠniÃ¡nĠ12ĠyuÃ¨Ġ31ĠrÃ¬Ġ
ĠbÄģoĠkuÃ²ĠyÇĲĠxiÃł ĠwÃ¹ĠzhÇĴngĠ
ensi sĠ
ĠĠ ĠsÅ«
hÃ© ĠxiÃłnĠ
de ĠshÄĵnĠfÃ¨nĠ
ĠrÃ©nĠ jÅ«nĠ
gÅįngĠ shÄģngĠ
dÃł ĠshÇĲĠguÇİnĠ
ĠhuÃ¬Ġ xÄ«ngĠ
xÄ«nĠ zhÃº
Ã¨r ĠyuÃ¨
xÄ« ĠxiÃłnĠ
xuÃ© ĠzhÄĽĠ
ĠkÄĽ ĠyÃ²ngĠyÃº
dÃ© ĠlÄĵiĠ
ĠdÃ²ngĠ gÅįngĠ
ĠyÄĽ ĠnÃ©ngĠ
ĠcÃ¬Ġ jÄ«
deĠ ÅįuĠzhÅįu
guÄģnĠ guÄģngĠ
ĠbÄĽiĠ kÃ¨
zhÃ¨nĠ yÄģ
ĠxiÇİo ĠshÃŃĠde
xÃ¬Ġ jÅ«nĠ
dÄĽngĠ de
ĠqÃ¬Ġ xuÃ¡nĠ
ĠyÃ²u Ġ
ĠtÃº ĠÄĽr
mÃ©ngĠ jÅ«nĠ
ĠzhuÇİnĠ chÃ©ngĠ
pÃłnĠ juÃ©
ĠsÄ«ĠtÃ¨ ĠlÄģ
fÄģĠdÃ²ngĠ jÄ«
ĠchuÃłngĠbÃłnĠ rÃ©nĠ
ĠbÇİoĠshÇĴu ĠdÇİngĠ
ĠzhuÃłngĠjÄ« ĠkÄĵngĠ
i al
u eĠ
ĠĠ ĠdiÃłnĠshÃ¬Ġ
de ĠzhÃ¹
ĠĠĠ Ã©ĠluÃ³ĠsÄ«
hÃ²u ĠbiÃłnĠ
ĠbÃ¹ ĠjÃŃ
ĠhÃ© ĠliÃºĠ
chÃ©ngĠ dÃ¹Ġde
ĠyÇĶ ĠxÄ«nĠ
le y
ĠjÃ¬nĠ de
ĠtÃ¨ ĠqÅ«
kÇĴu ĠÃłnĠ
ĠjiÃ© ĠrÃ¬Ġ
zhÇİngĠ zhÃ³u
ĠdÄģnĠ dÄģngĠ
fÄĵnĠ zÇĶ
ĠbÇĲ ĠjiÃłoĠ
jiÄģo ĠzhÃłnĠ
bÃ¬Ġ yÃło
lÇĲngĠ xiÄģnĠ
ĠjiÇİnĠ huÃł
ĠguÄģngĠ mÃŃngĠ
ĠdiÃłnĠyÇĲngĠ de
zhuÇİnĠ yÃŃĠdÃło
ĠxiÃ¡ ĠshÃ¬Ġ
202 4
yÃ¡nĠjiÅ« ĠshÄĵngĠ
sÇĲ ĠxÃŃngĠ
ĠĠĠbÄĽnĠ piÃłnĠ
eĠĠ Ġc
ĠbÇĲĠ 0
ĠxÃŃngĠchÃ©ngĠ de
ĠĠĠE x
zÃłiĠ nÃ¡nĠ
ĠyÇĶ ĠlÃŃnĠ
ĠyuÃ¡nĠ lÇİngĠ
ĠxÄ« ĠlÄģ
jiÃłnĠ zÃłoĠ
ĠjÄ« ĠrÃ²u
ĠchÅ« ĠzhÅįngĠ
zhÄ« ĠnÃ¨iĠ
ĠÃ©r ĠzhÃ¨
ÇĲĠy Ã¡ngĠ
qÅ« ĠshÃ¬Ġ
Ã¨r ĠcÃ¬Ġ
ĠzhÃŃ ĠshÇĶ
ĠfÃº ĠlÄģ
zhÃŃ ĠdÇİo
ĠzhÇĲ ĠshÃ¹
ĠyÄ«ngĠ bÃłngĠ
ĠxiÇİo ĠzhÃ¨nĠ
ĠgÇĶ ĠlÄģĠ
cÇĲ ĠcÃ¬Ġ
ĠbiÃłnĠ lÃ¹nĠ
xuÇİnĠ xiÃ¹
tÅįngĠ yÃ²ngĠ
zÃło ĠchÃ©ngĠde
ĠjÇĲngĠ gÃłoĠ
ĠrÃ³ngĠ huÃ²
ĠzÇĲ ĠnÇļ
tuÄ« ĠchÅ«Ġde
ĠmiÃłnĠjÄ« Ġ1
gÄĽiĠ tÄģ
4ĠyuÃ¨Ġ 30ĠrÃ¬Ġ
fÇĴu ĠrÃ¨nĠ
em p
Ġ2011ĠniÃ¡nĠ rÃ©nĠkÇĴu
lÇĲngĠdÇİo Ġde
ĠnÃ¬Ġ chÄĵngĠ
ĠzÃ²ngĠ duÃ¬Ġ
ĠĠĠw h
zhÃ¬ĠliÃ¡o Ġ
ĠxÃŃngĠzhÃ¨ngĠzhÅįngĠxÄ«nĠ wÃ¨iĠ
ĠjÃŃ ĠzÃłiĠ
ĠdÃł ĠdÃłoĠ
yÄ« ĠqiÃ¨
ĠjiÄģ ĠlÃ³ngĠshÄĽngĠ
ĠmÃŃngĠ wÃ©nĠ
ĠmÃŃngĠ lÃ¹Ġ
ĠchÅ« ĠfÄģ
ĠzhÇĶ ĠjiÃłoĠ
rÃ¨nĠ tÃ³ngĠ
ĠmÇİ ĠdÃ¡
ĠqÄ« ĠshÃ¬Ġ
ĠliÃº ĠshÃ¬Ġ
huÃ² ĠqÃŃĠtÄģ
hÇİiĠ yÃ¹
ĠyÄ«ngĠ dÄģngĠ
ĠyÄ«ngĠ jiÇĶ
yÃ¡nĠ sÃ¨
fÄĵnĠ fÄĵnĠ
ĠzhÅįngĠguÃ³ ĠguÃ³ĠjiÄģ
ĠzÇĶ Ġde
tÅįngĠ chÄĵ
tÅįngĠ wÇİngĠ
shÃ¨ngĠ chÅ«
ĠbÇİiĠ fÄĵnĠ
chÃ³ngĠ bÃłiĠ
pÃłiĠ de
ĠwÃ©nĠhuÃł ĠyÃŃĠchÇİnĠ
jÇĶĠxÃŃngĠ le
ĠzhuÄ« ĠsuÃŃ
suÃ¬Ġ dÃłoĠ
ĠxiÇİoĠ hÃ¡iĠ
ot t
9 ĠyuÃ¨Ġ28ĠrÃ¬Ġ
Ġ Ġs
ĠĠ ĠdÃ¹
ĠĠ ĠfÃłnĠ
ĠyÄ« ĠshÄ«
dÃ¬Ġ guÃ³Ġ
ĠyÃ¬Ġ tÃº
ĠqÃŃ ĠjiÃłnĠ
ĠxÃŃngĠ shÃ¬Ġde
ĠxÄ« ĠmÃ©nĠ
ĠbÄĽiĠ bÃ¹Ġde
ĠjÄ«nĠ shÃ¬Ġ
ĠchÄĵ Ġde
dÃ¬ngĠ yÃ¬ĠwÃ¨iĠ
ĠguÇİngĠ zhÅįuĠ
ĠguÇİngĠ zhÅįuĠshÃ¬Ġ
ĠsÃ¹ Ġde
ĠrÃ¬ĠbÄĽnĠ dÃ¬ĠguÃ³
ĠsuÃ¬Ġ jÃŃ
chuÄģnĠ yuÃ¨
Ġ11 5
fÃ¡ngĠ zhÇĲ
ĠhÃ²uĠlÃ¡iĠ bÃ¨iĠ
ĠguÃ¬Ġ lÃŃnĠ
ĠgÄĵnĠjÃ¹Ġ 2010ĠniÃ¡nĠmÄĽiĠguÃ³ĠrÃ©nĠkÇĴuĠpÇĶĠchÃ¡Ġ
ow nĠ
ĠdÃ¬ngĠyÃ¬Ġ wÃ¨iĠ
ĠkÇİoĠlÇľ ĠdÃło
i u
m Çİo
Ġs uÇĲ
ĠĠ ĠfÄĵngĠ
ĠĠ ĠdÃłnĠshÃ¬Ġ
Ġq Ã¬nĠ
Ġji ÇĴngĠ
ĠshÃŃ ĠkÅįngĠ
ĠrÃ¬Ġ wÃ©nĠ
yuÃ¡nĠ zÃ©
ĠdÃł ĠjiÄģngĠjÅ«nĠ
chÃ©ngĠ fÃ¨nĠ
dÃł ĠlÃ¼Ã¨
ĠsÄ« ĠdÃłĠlÃŃnĠ
ĠduÅį ĠchÃ¹
ĠshÇĴu ĠbÃ¹
ĠliÃ¡nĠ de
ĠyÄĽ ĠchÃ©ngĠwÃ©iĠ
yuÃ¨ ĠqÃ¬Ġ
hÃ¡iĠ huÃ¬Ġ
hÃ¡iĠ yÃło
fÇĶ ĠzhÃ¹
tÃ¡iĠ zhÅįngĠshÃ¬Ġ
tÃłiĠ shÇĴuĠ
nÃ©ngĠ zÃłiĠ
ar g
ĠtÃ¡ngĠ dÃłiĠ
mÃ¬Ġ shÅ«Ġ
kÇİ ĠlÄģ
ĠsÃ²ngĠ dÃło
ĠD av
ĠÄģiĠ xÄ«ĠyÃł
Ġ190 1ĠniÃ¡nĠ
ĠmÇĲnĠ gÇİnĠ
ĠpÇİo ĠdÃło
ĠxÃŃngĠzhÃ¨ngĠqÅ« ĠhuÃł
gÃ²ngĠchÇİnĠ zhÇĶĠyÃ¬Ġ
ĠguÃ¬ĠzhÅįu ĠshÄĽngĠ
a ĠĠĠC
l or
Ġl Äģo
ĠwÃ¨iĠ miÇİnĠ
ĠyÄ« ĠbÄĽnĠ
ĠyÇĴu ĠkÄĽĠnÃ©ngĠ
ĠyÇĴu ĠbÃ¹ĠtÃ³ngĠ
ĠshÃłngĠ zhÃ¨nĠ
huÃł ĠmiÃłnĠ
ĠnÃ¡nĠ chÄģngĠ
ĠfÄĵnĠ jiÄĽ
ĠdiÃłnĠ zhÃłnĠ
ĠqÃ¬Ġ yÄģ
ĠwÃº ĠyÃ¬Ġ
ĠchÃ¡ngĠ yÃ²ngĠ
ĠchÄĵngĠ hÅ«Ġ
liÃº ĠdÃ²ngĠ
ĠjÇĲnĠ zÃłiĠ
ĠqÇĶ ĠmÃ¹
ĠjiÃ¨ ĠzhÅįngĠyÄģngĠ
ĠjiÇİnĠ qÄ«ngĠ
ĠqiÄģnĠ wÇİngĠ
sÃ¹ ĠdÃ¹Ġ
ĠjiÄĽ ĠmÃ¨iĠ
ĠtÄģĠde ĠmÃŃngĠzÃ¬Ġ
zÄĵngĠ shÃ¨
gÃ¹ ĠzhÃłngĠ
qÄ«nĠ fÃłnĠ
ĠmÇĴu ĠgÃ¨
bÃł Ġ
ĠshÃŃĠzÃ¬Ġ lÇľ
zhÃ¨ĠyÃłngĠ de
7 ĠgÅįngĠlÇĲĠ
e o
e al
â ħ
ĠĠ ĠbÇĲ
ĠĠ ĠbÅį
hÃ©ngĠ kuÃł
ĠjÃŃ ĠxÃ¬ngĠ
ĠchÃ©ngĠ jiÃ¹Ġ
ĠzhÃ¬Ġ ÄģnĠ
ĠjÃ¬Ġ jÅ«nĠ
hÃło ĠzhÄĽ
xÃŃngĠ xÄ«ngĠ
jiÃłnĠ zÃłiĠ
ĠbÃ¨iĠ lÃ¬Ġ
ĠshÃłngĠ jiÄģ
ĠyÄ«nĠ yuÃ¡nĠ
ĠqiÃ¡nĠ lÃ¡iĠ
ĠshÇĴu ĠpÄ«
fÇİ ĠlÇľĠ
ĠquÃ¡nĠ yÃ¬Ġ
ĠjÅ«nĠ yÇĴu
ĠkÄģiĠ yuÃ¡nĠ
ĠwÃłiĠ jÃŃ
yÃ¡nĠ xÃ¹
ĠxiÃło ĠqÅ«
ĠbÃło ĠfÄģĠ
ĠtÃº ĠshÅ«
ĠbÃ¹Ġ hÃ¡nĠ
Ġ8 ĠyuÃ¨
ĠchÃ³ngĠ bÃłiĠ
chÃ¹ Ġde
202 6ĠniÃ¡nĠ
xÃŃ ĠguÃłnĠ
ĠnÃŃngĠ bÅį
ĠpÃŃnĠ kÃ¹nĠ
ĠsuÃłnĠ fÇİ
ĠyÃ¬ĠwÃ¨iĠ zhÃ¹
zhÃ¬ĠzuÃ² Ġde
ĠyÇĲnĠfÄģ Ġle
00ĠmÇĲ ĠdeĠdÃ¬ĠqÅ«Ġ
ĠĠĠbÄĽnĠshÇĶ ĠbÄģoĠkuÃ²ĠyÇĲĠxiÃłĠwÃ¹ĠzhÇĴngĠ
l Çİ
Ġji Ã¡
ĠyÄ« ĠjiÄģnĠ
ĠjÃŃ ĠbÃ¹
chÃ©ngĠ nuÃ²
ĠyÇĴu ĠsÄģnĠ
ĠbÃ¬ngĠ yÇĲĠ
ĠyÃ³u ĠmÄĽiĠguÃ³
yÇĶ ĠyÇĲ
yÇĶ ĠlÃŃnĠ
ĠduÅį ĠtiÃ¡o
ĠxiÇİo ĠyÃº
ĠshÇĲ ĠdÅįu
ĠyuÄĵ ĠkÃ¨
ĠgÇĶ ĠxÄ«ĠlÃł
ĠzhÃ²ngĠ shÄģngĠ
fÄĵngĠ bÃ¬Ġ
liÃº ĠlÃłngĠ
ĠbiÄģnĠ jÃŃĠ
ĠtÇĲ ĠnÃ¨iĠ
ĠtÇĲ ĠcÄģo
ĠfÃ¡ngĠ xiÃłnĠ
shÄ« ĠrÃ©nĠ
ĠzhuÄģnĠ zhÃ¹ĠyÃº
shÃ¨ngĠ yÃº
ĠzhÃło ĠjÃŃ
hÃ¡o ĠsÄĵnĠ
deĠdÃ¬Ġ qÅ«Ġ
ic al
ĠrÃ©ngĠ wÃ¨iĠ
deĠshÃ¬Ġ qÃŃngĠ
ĠyÅįu ĠhuÃ¬Ġ
tÃłnĠ xiÇİnĠ
ĠhuÃ¬ĠyÃ¬Ġ shÃłngĠ
xiÄģngĠtÃ³ngĠ de
ĠgÇĴu Ġ
ĠjÃ¬nĠbÃ¹ ĠdÇİngĠ
ĠdÄģnĠnÃŃ ĠÄĽrĠ
niÃło ĠbÃ¬ngĠ
ĠshÃ¬ĠwÃ¨iĠyÃºĠmÄĽiĠguÃ³ĠmÃ¬Ġ sÅ«ĠlÇĲĠzhÅįu
3 ĠgÅįngĠlÇĲĠ
G P
de ĠqÃŃĠtÄģ
ĠzÃłiĠ mÄĽiĠ
xi Ã¡oĠ
ĠdÃ¬Ġ yÃ¬ĠbÇİiĠ
zhÃ¬Ġ zÃłoĠ
ĠchÃ©ngĠ zuÃ²
yÄ« ĠxuÃ©ĠyuÃłnĠ
ĠmÃŃngĠ chÃ©ngĠyuÃ¡nĠ
Ġle ĠgÄģiĠ
zhÃ¨ ĠlÇĲ
ĠfÃ¹ ĠjÃºĠzhÇİngĠ
sÄ« ĠkÃ¨Ġ
ĠquÃ¡nĠ jÃ¬ngĠ
ĠquÃ¡nĠ wÄģnĠ
ĠjiÃ© Ġde
gÃ²ngĠ xiÃłnĠ
ĠjuÃ© ĠxÄ«nĠ
ĠshÄ« ĠxÃŃngĠ
ĠyÃ²u ĠbÃ¨iĠ
ĠyÃ²u ĠchÄĵngĠwÃ©iĠ
ĠchÃ¡ngĠ zhÄĵngĠ
bÄģ ĠlÃ¨ĠsÄ«ĠtÇİnĠ
zÃº ĠrÃ©nĠ
ĠlÃ¨iĠ xÃŃngĠde
ĠsuÃ¬Ġ piÃłnĠ
ĠliÃ¡ngĠ hÇİo
ĠhuÃ¡nĠ yuÃ¡nĠ
xiÅ« ĠfÃ¹
ĠkÃłnĠ qÇĲĠlÃ¡iĠ
ĠbÇİngĠ dÄģnĠ
tÃ¬Ġ dÃłiĠ
ĠchÃłngĠpiÃłnĠ gÅįngĠsÄ«
zuÃ¬ĠzÇİo Ġde
m p
z ÇİoĠ
ĠĠ ĠkÄĽ
ĠĠ ĠguÄģngĠxÃ¹
hÃ© ĠnÃ¨iĠ
de ĠyÃ³u
ĠshÃ¬Ġ xÄ«
shÃ¬Ġ gÃ¨
ĠzÃłiĠ kÃ¨
shÃŃ ĠyuÃ¨
yÄ« ĠduÃłnĠ
ĠzhÃ¬Ġ 10
yÃ¬Ġ yÃº
ĠyuÃ¨Ġ hÃ²uĠ
ĠjiÃłnĠ le
ĠshÃ¹ ĠyÇĶ
shÄĵngĠ xiÃłoĠ
ĠgÄģo ĠlÃŃ
ĠhuÃ¡ ĠnÃł
hÇİiĠ guÄģnĠ
dÅįngĠ qÅ«
ĠmiÃłnĠ bÄģo
ĠshÇĶ ĠxÃ¬ngĠ
er g
ĠpÇĶ ĠjÄ«ngĠ
lÃŃnĠ xiÃłnĠ
mÄĽiĠguÃ³ Ġde
shÃ©nĠ shÃ¨ngĠ
ĠxÃŃngĠzhÃ¨ngĠ qÅ«ĠyÃ¹
ĠyÃŃngĠ dÃ¬Ġ
am es
zhuÇİnĠ chÃ©ngĠ
ĠbÄ«nĠ xÄ«ĠfÇİ
ĠzuÇĴ Ġ
gÃ¨ngĠ shÃ¬Ġ
kÄĽĠyÇĲ ĠtÅįngĠguÃ²
ĠkuÃłiĠ jÃ¬Ġ
ĠlÇİo ĠbÇİnĠ
ĠtÃłnĠ tÇİo
7ĠyuÃ¨Ġ 7ĠrÃ¬Ġ
ĠliÃ¡nĠhÃ© ĠtÃ¡iĠfÄĵngĠjÇĲngĠbÃłoĠzhÅįngĠxÄ«nĠ
ĠW Ġ
ĠmÄĽngĠ gÇĶ
ta in
DV D
G N
e eĠ
r Ã¡o
v i
ÄģnĠ shÃ¬Ġ
ãĢ ķ
ĠzhÅįngĠ nÃ¡nĠ
ĠdÃł ĠjÅ«nĠ
ĠzhÃ¬Ġ 12
ĠzhÃłnĠ jiÃłnĠ
ĠÃ©r ĠtÄģ
xÄ«nĠ zÃłngĠ
ĠduÅį ĠyÃº
ĠshÇĴu ĠzhÄģngĠ
ĠbÄģ ĠsÄ«
fÃ¹ ĠjiÄģ
lÃ¡iĠ kÃłnĠ
ĠgÃ© ĠluÃ³
ĠxiÃło ĠxiÃłngĠ
ĠbiÄģnĠ jiÄģngĠ
ĠmÃ¬Ġ shÅ«Ġ
pÃ¡iĠ hÃ¡ngĠ
dÅįu Ġ
liÇİngĠ zhÄĽ
ĠlÇĲngĠ xiÃ¹Ġ
ĠÃło ĠdÃ©
luÃ³ ĠsÄ«
ĠzhÅ« ĠgÄĽ
ĠpÃ¡iĠ fÃłngĠ
zhÇĴngĠ lÃ¨iĠ
xÄ«Ġ hÃ©
ĠpÄ« ĠquÃ¡nĠguÃ³ĠzhÃ²ngĠdiÇİnĠwÃ©nĠwÃ¹ĠbÇİoĠhÃ¹ĠdÄģnĠwÃ¨iĠ
ĠpiÃłnĠ zhÅįngĠ
diÃłnĠshÃ¬Ġ jÃ¹
yÃ¬nĠ xiÃłngĠ
nÃ³ngĠ lÃ¬Ġ
ĠyÃ¬nĠdÃ¹ ĠyÃ¡ngĠ
ĠĠĠ198 4ĠniÃ¡nĠ
ĠzÃłiĠzhÃ¨ ĠzhÇĴngĠ
ĠfÄĵnĠbÃ¹ĠyÃº ĠnÃ¡nĠmÄĽiĠzhÅįu
ĠqÃŃĠzhÅįngĠnÃ¡nĠxÃ¬ngĠ wÃ¨iĠ
yÃłĠlÃ¬ĠshÄģnĠ dÃł
ĠĠ ĠqÅ«
Ġn Ã¹Ġ
ĠdÃ¬Ġ 7
ĠbÃ¹ ĠgÇİnĠ
zhÃ¬Ġ 195
ĠhÃ© ĠmÄĽiĠguÃ³
yuÃ¡nĠ shuÃłiĠ
ĠyÃ¬Ġ bÃ¨iĠ
yÄ« ĠduÃ¬Ġ
ĠzhÄ« ĠfÃ¹Ġ
ĠjÄ« ĠqiÄģngĠ
ĠzhÅįu ĠhÃ©
fÄģ ĠyÃ¡nĠrÃ©nĠ
ĠfÇİ ĠyÇĶĠ
ĠtÅįngĠ chÄĵ
Ġ3 ĠniÃ¡nĠ
wÃłiĠ wÃ©iĠsÃłiĠ
sÃłiĠ mÇİ
ĠshÃ¨ngĠ mÇİ
chÇİnĠ liÃłngĠ
ĠcÄģnĠ yÃ¬ĠyuÃ¡nĠ
ĠqÃŃĠzhÅįngĠ zuÃ¬Ġ
liÃº Ġde
xiÇİo ĠzÇĶĠ
ĠlÃºnĠ tÃ¨
ĠwÄĵiĠ jÄ«
tÃ³u Ġde
ĠzhÄĵnĠ zhÅ«
ĠshÅįu Ġ
ĠjÃº ĠmiÃłnĠ
chuÄģnĠ guÃ²
chÄģo Ġ
ĠkÇİo ĠrÃ¹
rÃ©nĠmÃŃnĠ gÃ²ngĠhÃ©ĠguÃ³
Ã¨rĠshÃŃ ĠshÃ¬ĠjÃ¬Ġ
ĠjÇĲnĠguÇİnĠ rÃºĠcÇĲĠ
ĠmÃŃngĠchÄĵngĠ wÃ¨iĠ
deĠguÄģnĠ diÇİnĠ
ĠzhÇĶĠtÃŃ ĠqÅ«Ġ
niÃ¡nĠqÄ«ngĠ de
ĠdeĠqÃŃngĠkuÃłngĠ xiÃłĠ
ĠÃłiĠdÃ© ĠhuÃ¡
rÃ©nĠkÇĴuĠpÇĶĠchÃ¡ Ġ
ĠgÄģnĠsÃ¹ ĠshÄĽngĠ
ĠpÃŃngĠfÄģngĠyÄ«ngĠ lÇĲĠ
y iĠ
Ġz hÃ²uĠde
ĠĠ ĠlÄĵiĠ
ĠĠ ĠnÃ¨iĠrÃ³ngĠ
ĠĠ ĠxÃŃngĠtÃłiĠ
ãĢ Ķ
guÃ³ ĠyÇĴu
ĠbÃ¹ ĠyÃł
ĠshÃŃ ĠyuÃ¨
ĠyÄ« ĠjÃ¹Ġ
ĠjÃŃ ĠyÇĶ
dÃ¬Ġ 4
yuÃ¡nĠ yÇĴu
yuÃ¡nĠ zÃ©Ġ
yÃ¬Ġ zÃłiĠ
dÃł ĠjiÄĵ
ĠjÄ« ĠfÇĶ
ĠÃ©r ĠlÃ¡iĠ
ĠhuÃ¡ ĠnÃ¡nĠ
yÃ¡nĠ xiÃłnĠ
ĠqÃ¬Ġ wÄĵnĠ
ĠchÃ¡ngĠ piÄģnĠ
huÃ³ ĠyuÃ¨
Ġ10 6
pÇĶ ĠdÃ¹nĠ
jiÄĽ ĠchÃº
ĠyÃŃngĠ yÃ¨
ĠpÃ¡iĠ chÃº
fÄģnĠ qiÃ©
cuÃ² ĠshÄ«
2001ĠniÃ¡nĠ zÇĴngĠrÃ©nĠkÇĴu
gÇĶĠfÃ¨nĠ yÇĴuĠxiÃłnĠgÅįngĠsÄ«Ġ
tou Ġ
ĠĠĠgÄģiĠdÃ¬Ġ 2001ĠniÃ¡nĠzÇĴngĠrÃ©nĠkÇĴu
6 0ĠniÃ¡nĠdÃłiĠ
8 ĠgÅįngĠlÇĲĠ
G oogle
e u
Ġt Ġ
de ĠnÃ©ngĠlÃ¬Ġ
Ġ1 ĠyuÃ¨Ġ
hÃłnĠ rÃ©nĠ
zhÅįngĠ duÃ¬Ġ
bÃ¹ ĠliÃ¡ngĠ
ĠqÃŃ ĠwÃ¨iĠ
jÅ«nĠ yÇĲ
ĠfÄģ ĠyÃ¡nĠ
ĠkÄĽ ĠrÃ³ngĠnÃł
ĠfÃº ĠgÄģngĠ
zhÅįu ĠrÃ©nĠ
miÃłnĠ xiÃłngĠ
yuÃ¨ ĠdÃº
ĠshÄ« ĠtÇĲ
qÄ« ĠzÇĲ
ĠchÇİngĠ shÃłngĠ
zhÃ²ngĠ shÃ¬Ġ
ĠbiÇİo ĠzhÄģngĠ
fÃº ĠluÃ³ĠlÇĲĠdÃ¡
ĠqÃ¬Ġ guÄģnĠ
ĠxuÇİnĠ zhÅįngĠ
ĠfÅ« ĠfÃ¹
Ġ6 ĠsuÃ¬ĠrÃ©nĠkÇĴu
ĠhuÃ¡ngĠ hÃ©
gÇİiĠ shÃ¨
ĠhuÃŃ ĠguÃ³
ĠcÃ¨ Ġde
ĠxÃ¬nĠ yÃ²ngĠ
ĠT V
ĠdeĠgÅįngĠ nÃ©ngĠ
ĠniÃ¡nĠqÄ«ngĠ rÃ©nĠ
Ġà ¤
ĠĠ ĠhuÃ¬Ġ
ĠĠ ĠtÄģĠmenĠ
ĠĠ ĠzhÃłnĠhÃ²u
Ġde ĠyÃ³uĠxÃ¬Ġ
ĠzhÅįngĠ rÃ¬Ġ
ĠlÃ¬Ġ zÃłiĠ
ĠyÄ« ĠcÃŃĠ
ĠxÃŃngĠ diÃłnĠlÃ¬Ġ
wÃ©iĠ ÄĽrĠ
ĠmÃŃngĠ chÃ©ngĠ
ĠshÄĵngĠ qiÃ¡nĠ
le x
ĠzhÃłnĠ zhÅįngĠ
ĠjÃ¬nĠ sÃ¬Ġ
zhÃ¹ ĠshÇĴu
ĠluÃ³ ĠlÃºnĠ
guÄģnĠ zhÃ¹Ġ
ĠquÃ¡nĠ niÃ¡nĠ
yÄ«nĠ sÄ«ĠtÇİnĠ
duÅį ĠÄĽr
shÄģnĠ dÃ¬Ġ
guÇİnĠ kÃ²ngĠ
ĠbÇİo ĠluÃ³
ĠshÃ©nĠ de
xiÃło ĠguÇĴĠ
liÇİngĠ ÃłnĠ
Ġ10 5
zhuÃłngĠ de
ĠdÃłngĠ zuÃ²
pÃŃngĠjÅ«nĠ jiÃłngĠyÇĶĠliÃłngĠ
ĠfÄģĠbÃ¹ Ġle
ĠdÄģo Ġ
ĠduÅįĠniÃ¡nĠ lÃ¡iĠ
ĠĠĠzÇİoĠniÃ¡nĠ shÄĵngĠhuÃ³Ġ
ĠduÅįĠyÃłngĠ xÃ¬ngĠ
E M
R O
t ÃłoĠ
hÃ©ngĠ liÃ¡ngĠ
ĠzhÅįngĠ dÅįngĠ
ĠxiÃłnĠ zhÇİngĠ
xÃŃngĠ hÃło
jÅ«nĠ xiÃ¡nĠ
ĠshÃłngĠ suÇĴ
ĠzÃ¬Ġ cÃ³ngĠ
ĠfÄĵnĠ xiÃło
ĠfÄģ ĠshÄĵngĠyÃº
ĠkÄĽ ĠqiÃ¡nĠwÇİngĠ
ĠdÃ²ngĠ yuÃ¡nĠ
ĠdeĠ Ãło
huÃ² ĠyÃ¹nĠ
ĠliÇİngĠ tiÄģnĠ
ĠshÇĲ ĠyÇĲĠlÃ¡iĠ
ĠnÇļ ĠzÇĲĠ
ĠbÃłnĠ zhÇİngĠzhÃ³u
ĠgÃ²u ĠxiÇİngĠ
yÃ¬ngĠ bÃ¬Ġ
ĠqÇĶ ĠzÃ¬Ġ
ĠfÅ« ĠsÄ«ĠjÄ«
ĠhÃ©Ġ M
ĠdiÇİnĠ xÃŃngĠde
ĠtÃ¡iĠwÄģnĠ de
ĠjiÃłngĠ dÄ«Ġ
bÇİiĠ xÃ¬ngĠ
pÃŃnĠ lÇľ
ĠfÄģĠxÃŃngĠ de
ĠniÃº ĠdÃ¹nĠ
ag eĠ
yÃºĠ201 7ĠniÃ¡nĠ
deĠhÃ© ĠxÄ«nĠ
bÃłngĠ qiÃº
chÄģiĠ chÃº
lÇĲĠshÃ¬Ġ zhÇİngĠ
ĠpÇĶĠluÃ³ ĠwÃłngĠ
2 ĠgÅįngĠlÇĲĠ
8 ĠyuÃ¨Ġ15ĠrÃ¬Ġ
P layStationĠĠĠ
z uÄģnĠ
Ġch uÇİngĠ
ĠshÃŃ ĠsÄģnĠniÃ¡nĠ
yÃ¬Ġ zhÇİngĠ
le rĠ
ĠzhÃłnĠ qÅ«
ĠshÃ¨ ĠzhÃ¬Ġde
lÇĲ ĠkÃ¨Ġ
ĠjiÃ© ĠdiÇİnĠ
kÄģiĠ yÃ¨Ġ
ĠwÃ¹ ĠzÄ«
ĠhuÃ¡ ĠxuÄĽ
ĠyÃł ĠrÃ¨ĠdÃłiĠ
ĠsÄģnĠ cÃ©ngĠ
ĠlÃŃnĠ kÄĽnĠ
bÄĽiĠ mÄĽiĠ
xuÇİnĠ mÃŃnĠ
guÇİnĠ xiÃ¡
tÃ¨ ĠxÃ¬ngĠ
ĠbiÄģnĠ zÇĶ
ĠzhuÄģnĠ kÄĵ
shÃ¨ngĠ dÃłnĠ
ĠlÇĲngĠ nÃ¡nĠ
pÇĶ ĠlÃ¹
xÃ¬nĠ yÃ²ngĠ
tÃŃngĠ kÃło
xÅ« ĠqiÃºĠ
luÃ³ ĠwÄģnĠ
ĠyÇĴngĠ shÃ¬Ġ
ĠkÄģiĠshÇĲ Ġle
ĠnuÃ² ĠsÄ«Ġ
ĠĠĠ200 8
ĠyÇĲngĠxiÇİngĠ lÃ¬Ġde
dÅ« ĠchÃ¡
ĠshÃŃĠjiÄģnĠ de
ĠkÇİiĠ lÃ¬Ġ
fÃºĠ hÃło
yÃºĠ201 4ĠniÃ¡nĠ
ĠzÃłiĠ201 3ĠniÃ¡nĠ
ĠshÃŃĠdÃłiĠ de
dÃłnĠshuÇĲ ĠyÃºĠ
ĠĠ ĠxÃŃngĠ
ĠĠ ĠxiÇİoĠxÃŃngĠxÄ«ngĠ
ĠzÃłiĠ chÇİngĠ
Åįu ĠmÄĽiĠ
zÃłiĠ 197
dÃ¬Ġ 5
ĠxiÃłnĠ shÃŃĠ
rÃ©nĠ cÃ¡iĠ
ĠbÃ¨iĠ gÃ©
wÃ¹ ĠjÃº
ĠwÃ©nĠ xuÃ©Ġ
shÇĴu ĠshÃ¹
ĠshÄ« ĠcÃ³ngĠ
jiÄģnĠ jÃ¬nĠ
ĠcÃ©ngĠ cÃ¬Ġ
kÄĽ ĠjiÃłnĠ
yÄĽ ĠshÄĵngĠ
ĠyÃ²ngĠ dÃ¬Ġ
ĠlÃºnĠ de
lÇĲngĠ duÃ¬Ġ
Ġ10 4
Ġã Ħ
ĠfÇĶ ĠyÄ«nĠ
ĠrÃ¨nĠwÃ©iĠ shÃ¬Ġ
ĠdÇİ ĠbÃłiĠ
ĠchÃ©ngĠshÃ¬Ġ de
pÃłnĠ duÃłnĠ
ĠfÇİngĠ zhÄ«
mÃ³u ĠshÄģ
zhÇĶĠchÃŃ ĠrÃ©nĠ
ĠlÇĲngĠyÃ¹ Ġde
ĠshÃ¬ĠwÄĵiĠ zhÄĽ
h uÇİngĠ
ĠĠ ĠtÃ¨
ĠĠ ĠtÄģĠshÃ¬Ġ
Ġde ĠfÄĵiĠ
ĠshÃŃ ĠbiÃ©
zhÃ¬Ġ 10
gÅįngĠ shÇĶ
Ã¨r ĠhÃło
zhÃłnĠ shÃ¹
ĠcÃ¬Ġ quÃ¡nĠguÃ³
ĠfÃº ĠdÃłĠxuÃ©
ĠbÄĽiĠ yÃ¡ngĠ
ĠtÃ¡iĠ zhÅįngĠshÃ¬Ġ
ĠzhÅįngĠguÃ³ ĠzhÃ¨ngĠfÇĶ
ĠlÃŃ ĠmÃŃngĠ
ĠshÅ« ĠjÃŃĠ
ĠqÃŃĠtÄģ ĠrÃ©nĠ
ĠhÃ¡nĠ mÃŃnĠguÃ³
tÄ«ngĠ zhÇİngĠ
ĠĠĠ200 9
gÄģngĠ qÃŃnĠ
ĠhÇİo ĠyÇĴu
il Ġ
shuÄģngĠ dÇİ
ĠkÄģnĠ dÄĵngĠ
ĠsÅįu ĠsuÇĴ
ĠliÃ¡nĠbÄģngĠ zhÃ¨ngĠfÇĶ
yÃºĠ201 5ĠniÃ¡nĠ
ĠsÄģnĠshÃŃ ĠniÃ¡nĠ
ĠtÃ²u ĠmÃŃngĠ
ĠwÃ¡nĠzhÄĽngĠ de
ĠyÃ¬nĠdÃ¬Ġ ÄģnĠnÃłĠzhÅįu
5 000
Ġde ĠshÄĵnĠfÃ¨nĠ
shÃ¬Ġ yÃ¨Ġ
Ġp Ä«ngĠpÄģngĠ
ĠzÃłiĠ yÃ³u
ĠzÃłiĠ shÄĵngĠ
ĠzÃłiĠ 20ĠshÃ¬ĠjÃ¬Ġ
ĠyÇĲ ĠchÃ©ngĠwÃ©iĠ
ĠbÃ¹ ĠxÅ«ĠyÃło
ĠyÃ¬Ġ chÄĵngĠ
yÃ¬Ġ chÃ¡ngĠ
ĠqÃŃ ĠxiÃłĠde
dÃł ĠjÅ«nĠ
jÃ¬Ġ wÄĽiĠ
ĠhuÃ¬Ġ dÇİoĠzhÃ¬Ġ
zuÃ² ĠchÅ«Ġle
xÄ«nĠ rÃ©nĠ
ĠfÇİ ĠxuÃ©ĠyuÃłnĠ
ĠyÄĽ ĠwÃ¨iĠ
duÅį ĠyuÃ¡nĠ
fÃº ĠshÃ¬Ġ
ĠzhÄģngĠ shÃ¬Ġ
liÇİngĠ wÃ¨iĠ
piÃłnĠ duÃłnĠ
mÃ² ĠniÃ¡nĠ
ĠzhÄĽngĠ jiÃ¹
ĠgÇİnĠ juÃ©Ġ
ĠrÃłngĠ tÄģĠmenĠ
ĠzhÇĶĠyÃ¬Ġ zhÄĽ
199 9ĠniÃ¡nĠ
eĠĠ Ġp
ĠyÃ¬ĠzhÃŃ ĠdÃło
yÃºĠ201 8ĠniÃ¡nĠ
ĠzhÅįngĠhuÃ¡ĠmÃŃnĠguÃ³ ĠzhÃ¨ngĠfÇĶ
ĠU ni
xuÃ¨ ĠguÇİnĠ
ĠdiÄģo Ġ
ĠdeĠhÃ© ĠxÄ«nĠ
ĠdeĠzhÇĶ ĠtÃŃ
ĠzÃºĠgÃ²u Ġde
ĠyÃ³uĠjÄ« ĠduÃ¬Ġ
bÇĲĠlÃ¬ĠniÃº ĠsÄ«ĠshÄĽngĠ
s ÇĴngĠ
ĠĠ ĠyÃ¬nĠdÃ¹
hÃ© ĠlÃ¬Ġ
hÃ© ĠjÃ¬Ġ
de ĠmÃ¹
ĠzÃłiĠ 1
ĠyuÃ¨ ĠtÃ¡nĠ
shÃŃ ĠwÇĶĠniÃ¡nĠ
gÅįngĠ diÃłnĠ
ĠdÃ© ĠyÇĶ
shÃłngĠ rÃ¨nĠ
ĠdÃłiĠ zhe
ĠxiÄģngĠ chuÃ¡nĠ
zhÃłnĠ yÇĴu
ĠzuÃ¬Ġ jÃ¹
ĠlÃ¹ ĠkÇĴu
shÇĲ ĠzhÅįngĠ
ĠhÇİiĠ dÃło
rÃ¬Ġ hÃ²u
ĠzhuÄģnĠ shÇĶ
ĠjiÇİngĠ jiÃ¨ĠshÃŃ
Ġ12 9
lÃŃ ĠhÅ«nĠ
ĠnÃ³ngĠ lÃ¬Ġ
ĠjÃ¬nĠrÃ¹ ĠzhÃŃĠlÃ¹Ġ
yÄ«nĠyuÃ¨ ĠhuÃ¬Ġ
ĠW indow
ĠĠĠ198 2ĠniÃ¡nĠ
wÃ² ĠÄĽr
Ġ189 8ĠniÃ¡nĠ
ĠrÃ¨ĠdÃłiĠ fÄĵngĠbÃło
ĠxiÃłngĠmÃ¹ Ġde
ĠgÄģiĠshÄĽngĠfÃ¨nĠwÃ¨iĠfÇİĠguÃ³ ĠzhÅįngĠ
ĠĠĠof ĠĠĠtheĠĠĠ
ob ert
AT P
5 ĠniÃ¡nĠ1
ĠyÇĲ ĠzhÃ¬ĠyÃº
zhÃ¬Ġ xiÃłnĠ
dÃł ĠjiÄģ
ĠshÄĵngĠ jiÃłngĠ
ĠbÃ¬ngĠ zhÇĲĠyÃº
ĠchÅ« ĠtÇĶ
ÇĲĠy ÃŃngĠ
ĠfÃ¹ ĠbÃ¹
ĠlÄģ ĠfÅ«Ġ
ĠgÄģiĠ zhÃ¨nĠ
ĠhÃ²u ĠyÃ¬Ġ
xiÃłngĠ bÄĽiĠ
dÃ© ĠlÃ¬Ġ
ĠwÃ¹ ĠduÃłnĠ
ĠzhÇĲ ĠyÃº
ĠyÄ«ngĠ wÇĶ
yÃ¡nĠ fÄģ
ĠwÃ¡ngĠ fÄĵiĠ
Ġ3 5Ġ
ĠsÃ¬Ġ fÄĵnĠ
ĠzÇĴngĠ jÃº
ĠbÇĲ Ġ1
sÃłiĠ de
shÅ« ĠzhÅįngĠ
ĠlÃ³ngĠ tÃ³u
ĠfÃ¡ngĠ shÇĴu
ĠzhÇĶĠyÃło ĠyÃ³u
rÃ¡nĠ shÄģo
yuÄĵ ĠsÃ¨
ĠpÃłiĠ xÃ¬Ġ
Ġ11 8
lÃ¡nĠ qiÃº
pÃłnĠ chÇĶ
Ġãĥ Ī
ĠchÃ¨ ĠxiÄģoĠ
ĠfÃ¨ngĠ mÃ¬ngĠ
wÃ¨nĠtÃŃ Ġde
ĠĠĠqÃŃĠtÄģ Ġ
cÃ¡nĠjÃŃĠrÃ©nĠ ÃłoĠlÃŃnĠpÇĲĠkÃ¨ĠyÃ¹nĠdÃ²ngĠhuÃ¬Ġ
c ÃłnĠ
k uÄģ
ĠĠ ĠwÃ©nĠhuÃłĠ
ĠwÃ¨iĠ cÇĲĠ
ĠqÃŃ ĠhuÃłnĠ
wÃ©iĠ qÄ«
ĠbÃ¬ngĠ yÃ²ngĠ
ĠjÄ« ĠshÄĵnĠ
ĠshÃłngĠ kÅįngĠ
ĠchÅ« ĠqÄ«Ġ
ĠshÃ¨ ĠtuÃ¡nĠ
ĠzÃ¬Ġ zhÇĶ
ĠfÄĵnĠ sÃłnĠ
ĠduÅį ĠdÃ¡
ĠjiÃło ĠgÄģoĠde
ĠjÃ¹ Ġde
ĠxiÃłngĠ shÃłngĠ
ĠsÃłiĠ ÄĽr
ĠwÃ©nĠ zhÅįngĠ
ĠdeĠ 3
xiÄģngĠ cÅ«nĠ
Ġ200 6
ĠgÇĶ ĠjÃ¬Ġ
ĠchuÃ¡nĠ yuÃ¡nĠ
ĠbiÄģnĠ de
ĠfÃ¡ngĠ wÃ¨iĠ
ĠtÃº ĠshÄģĠ
Ġ10 3
ĠzhÃ¨ngĠzhÃ¬Ġ jiÄģĠ
ĠcÃ¨ ĠlÃ¼Ã¨Ġ
pÇĲnĠ zhÇĴngĠ
ĠlÃº ĠsÄĵnĠbÇİo
hÄĽnĠ shÇİo
xuÃ¨ Ġ
lÃ¡iĠyuÃ¡nĠ yÃº
ĠshÃ¬ĠbÃ¬Ġ lÇĶ
z hÃ©Ġ
de ĠshÃ¨ĠhuÃ¬Ġ
ÄģiĠ nÃłĠshÄĽngĠ
ĠdÃ¬Ġ 11
shÃŃ ĠliÃ¹ĠniÃ¡nĠ
bÃ¹ ĠzhÃ¨ngĠ
ĠbÃ¨iĠ liÃ¨ĠwÃ¨iĠ
ĠshÃłngĠ yÄ«
ĠpÃŃngĠ shÄĽnĠ
ĠdÅįngĠ yÇĶ
tÃŃ ĠdÃłoĠ
cÃ©ngĠ bÃ¨iĠ
ĠxiÄģo ĠchÃº
shÃ¨ngĠ mÇĶ
in al
mÃ¬Ġ qiÃ¨
kÃ²ngĠ gÇĶ
5ĠyuÃ¨Ġ 31ĠrÃ¬Ġ
ĠtÇĴngĠzhÃ¬Ġ zhÄĽ
gÅįu ĠtÅįngĠ
ĠkÃ¨ĠlÄģ ĠhÃ©ĠmÇİ
ĠchÃ³ngĠqÃ¬ngĠ shÃ¬Ġ
O K
m entĠ
n ÃºĠ
ĠĠ ĠjÃ¹Ġ
shÃ¬Ġ yÄ«nĠwÃ¨iĠ
ĠdÃ¬Ġ sÄ«
ĠshÃŃ ĠkÃ¨
ĠjÃŃ ĠbiÃłnĠ
ĠyÃº Ġ2024ĠniÃ¡nĠ
ĠyÃ¬Ġ gÇİngĠyuÃ¡nĠ
ĠjiÄģ ĠlÃ¡iĠ
ĠxÄ« ĠtÃ¨ĠlÄĵiĠ
shÃ¨ ĠrÃ¹
chÅ« ĠzÃ¬Ġ
00 ĠrÃ©nĠ
ĠliÃ¡nĠ xÃ¹Ġ
ĠmÃŃnĠ shÃ¬Ġ
ĠbÄĽiĠ jÃŃ
chÃ¡ngĠ chÃ¡ngĠ
ĠjiÃ¹ ĠrÃ¨nĠ
chÄĵ ĠxÃŃngĠ
ÃłoĠ ÄĵnĠ
wÇĶ ĠyuÃ¨
zÃ© ĠbÃ¨iĠ
Ġ4 0Ġ
dÃ¬ngĠ qÄ«
ĠshÃ©nĠ shÃ¨
huÃŃ Ġ
ĠhuÃŃ ĠxiÇİngĠ
ĠfÃłngĠ sÃ²ngĠ
tuÄ« ĠxÃŃngĠ
ĠfÄģĠxiÃłnĠ yÃº
ĠpÃł ĠlÄģ
wÇĴ Ġ
ĠshÄĵngĠchÇİnĠ de
tÇİnĠ kÃ¨Ġ
cuÃ² Ġ
ĠhÄģĠÄĽr ĠkÄĵĠfÅ«
gÄģoĠsÃ¹ ĠgÅįngĠlÃ¹Ġ
ĠshÄ«ĠqÃ¹ Ġle
O L
ĠĠ ĠlÃ¡nĠ
ĠzhÅįngĠ shÄĵnĠ
ĠdÃ¬Ġ 10
ĠdÃ¬Ġ lÃ¬Ġde
ĠrÃ¬Ġ ziĠ
ĠyuÃ¡nĠ zhÇĲ
ĠyuÃ¡nĠ lÃ¡iĠde
huÃł ĠzhÅįngĠ
ĠtÃ³ngĠ xuÃ©
Ã¨r ĠbÇİiĠ
dÃłiĠ dÃło
zhÃłnĠ qiÃ¡nĠ
shÄĵngĠ yÄ«nĠ
ĠduÅį ĠwÇİ
chÃ¡ngĠ ÄģnĠ
fÃ¹ ĠzÃ¡Ġ
xÃ¬ngĠ cÃºnĠ
ĠzhÃ²ngĠ zhÃ¬Ġ
ĠpÇĶ ĠlÃ¬Ġ
ĠqÇĲ ĠshÃ¬Ġ
ĠcÃ¡iĠ huÃ¬Ġ
ĠsÃ¨ ĠqÃŃngĠ
ĠwÃ¹Ġ hÃ©
ul t
Ġ8 3
ĠlÄĵiĠ mÃ¬Ġ
ĠA m
ĠzhÅ« ĠlÃ¬Ġ
ĠdÃ¬ĠÃ¨r ĠlÃºnĠ
ĠyÇĴngĠ lÃ¨
Ġ11 7
mÃ³ ĠfÇİngĠ
ĠshÇĶĠyÃº Ġ
ĠhÃ¹ ĠxiÄģngĠ
huÄ« ĠfÃ¹Ġ
ĠwÃ©nĠhuÃł Ġde
ĠpÃłnĠ juÃ©
ĠW h
cÃºnĠzÃłiĠ yÃº
ir l
ĠyÃºĠ200 4ĠniÃ¡nĠ
ĠzÃłiĠ201 1ĠniÃ¡nĠ
ĠĠĠp ro
ĠzhÃŃĠxÃŃngĠ guÄģnĠ
ĠshuÃłiĠ xiÄģnĠ
ĠlÇİngĠdÃ© ĠshÄĽngĠ
d ÄģoĠ
r eĠ
Ġn ÇĶĠ
ĠzÃłiĠ lÃ¬Ġ
le ĠtÄģ
ĠbÃ¨iĠ xuÇİnĠwÃ¨iĠ
mÃŃngĠ lÃ¹Ġ
ĠjiÄģngĠ jÃ¬nĠ
ĠdiÃłnĠ cÃŃ
xiÃłngĠ nÃ¡nĠ
ĠwÃłiĠ xÃŃngĠ
ĠwÃ¡ngĠ gÅįngĠ
ĠzÄ« ĠtÃłiĠ
zÇĴngĠ dÅ«Ġ
ĠgÃ¹ ĠxiÄģngĠ
pÇĶ ĠlÇĶĠshÃ¬Ġ
ĠchÇĶ ĠfÃ¨nĠ
ĠdÃ¬ĠyÄ« ĠbÃ¹
ĠÃłiĠ guÃ³
ĠmiÃ¡o ĠzhÇĶnĠ
chÃ©ngĠgÅįngĠ de
ĠzÃłiĠ201 5ĠniÃ¡nĠ
ĠzÃłiĠ200 9ĠniÃ¡nĠ
xiÄģngĠduÃ¬Ġ lÃ¹nĠ
ĠniÃ¡nĠdÃłiĠ wÃ¨iĠ
hÃ ¬
ĠshÃ¬Ġ dÅįngĠ
shÃ¬Ġ qÃŃ
Ġp Ġ
ĠshÃŃ ĠsÃ¬ĠniÃ¡nĠ
ĠjÃŃ ĠtÄģ
ĠhÃ© ĠjÃ¬Ġ
jÄ« ĠluÃ²
zuÃ² Ġle
zhÃłnĠ zÃłiĠ
gÃ© ĠlÄģ
ĠyÃ¹nĠ sÃ²ngĠ
fÄĵiĠ lÃ¬Ġ
ĠÃło ĠlÃŃnĠpÇĲĠkÃ¨
ĠbÄ«ngĠ bÃ¹
cÅ«nĠ mÃŃnĠ
Ġ12 ĠyuÃ¨
ĠbÃ¡iĠ sÃ¨Ġ
ĠmÃ¹Ġ hÃ²u
18 4
ĠhuÄģ ĠfÃ¨iĠ
guÃ³ĠjiÄģ ĠzÃºĠqiÃºĠduÃ¬Ġ
wÄĽiĠyuÃ¡nĠhuÃ¬Ġ de
nÃŃngĠ xiÃłnĠ
ĠzhÃ¨ĠshÃ¬Ġ tÄģ
ĠluÃ³ĠmÇİ ĠtiÄģnĠzhÇĶĠjiÃło
xÃŃngĠzhÃ¨ngĠ zhÇİngĠguÄģnĠ
dÅįngĠnÃ¡nĠ yÃł
ĠguÃ³ĠlÃ¬Ġ tÃ¡iĠwÄģnĠ
mÄĽiĠshÃ¹ ĠguÇİnĠ
ĠÃ©rĠrÃ©nĠkÇĴuĠmÃ¬ĠdÃ¹ĠwÃ¨iĠmÄĽiĠpÃŃngĠfÄģngĠqiÄģnĠmÇĲ ĠrÃ©nĠ
ĠdeĠhÃº ĠpÅįĠ
5 ĠyuÃ¨Ġ15ĠrÃ¬Ġ
z ÄĽnĠ
Äģ ĠlÇĲ
ĠĠ ĠfÃ¨iĠ
ĠshÃ¬Ġ ĠĠ
ĠshÃ¬Ġ yuÃ¡nĠ
ĠbÃ¹ ĠyuÃłnĠ
zÃłiĠ 194
gÅįngĠ yuÄĵĠ
ĠchÅ« ĠsÃłiĠ
yÇĶ ĠzhÄ«
yÇĲ Ġ1
fÃ¹ ĠyuÃłnĠzhÇİngĠ
ĠhÇİiĠ tÄģnĠ
ĠyÃ¹nĠ huÃ¬Ġ
sÃłiĠ chÄĵ
zÇĴngĠ jÃº
ĠchÃ©nĠ mÃ²
zhÅįngĠguÃ³ ĠrÃ©nĠmÃŃnĠ
ĠlÃ©iĠ sÄ«Ġ
hÃłiĠ pÃł
ĠchÄģo Ġ
ĠquÃ¨ ĠshÃŃ
ĠmÃłiĠ ÄģĠmÃ¬Ġ
ĠrÃ¨nĠwÃ©iĠ tÄģ
cÃŃ ĠshÃłnĠ
ĠxiÇİnĠ rÃ¡nĠ
ĠchÅįngĠ shÃ©ngĠ
qÃºnĠ tÇĲ
ĠÃ© ĠjÅ«nĠ
duÄģnĠ de
ĠlÄĽiĠ jÄ«
ig n
ĠzÃłiĠ201 8ĠniÃ¡nĠ
ĠzhÄ«ĠqiÃ¡nĠ de
cÇİiĠyÃ²ngĠ le
ĠcuÄ« ĠhuÃł
fÄģngĠxiÃłngĠ de
ĠxiÇİoĠxÃŃngĠxÄ«ngĠ dÃłiĠ
ĠshÃ¬ĠwÅ«ĠkÃ¨ĠlÃ¡nĠ de
ĠkÄĽnĠsÃ¨ ĠzhÅįu
Ġt h
ÃłnĠ shÄģ
ĠzÃłiĠ 16
zhÅįngĠ zhÇĲ
ĠhÃ© ĠshuÇĲ
dÃ¬Ġ shÃłngĠ
yÇĴu Ġzhe
ĠqÃŃ ĠduÃ¬Ġ
ĠshÃłngĠ bÃłnĠ
ĠwÃ©iĠ lÃ¬Ġ
xÄ«nĠ qÅ«
ĠyÃŃ ĠtÇĲ
bÃ¨iĠ pÃŃngĠwÃ¨iĠ
fÄģ ĠyÃ¹
yÇĲ ĠxÄ«
xiÃł ĠshÇĶ
ĠfÃº ĠkÃ¨
ĠxiÃłngĠ qiÃ¡nĠ
ĠgÃ© ĠlÃ¬Ġ
bÄĽiĠ pÃŃngĠ
ĠxiÃło ĠqÅ«Ġ
ĠtÃłiĠ guÃ³Ġ
rÃ¹ Ġle
ĠshÃ¨ngĠ chÅ«
ĠtÄģĠmenĠ rÃ¨nĠwÃ©iĠ
shÄģ ĠtiÃ¡nĠ
gÇİiĠ zÃłoĠ
ĠlÃ©iĠ nuÃ²
ĠjiÃł ĠrÃ¬Ġ
tiÄĽ Ġ
ĠyÃ¹nĠdÃ²ngĠ de
qiÃ¡ngĠ dÃłĠde
xÃºnĠ yÇİnĠ
zhÃłnĠzhÄĵngĠ de
ĠgÄĵngĠ mÃŃngĠ
gÅįngĠchÃ©ngĠ shÄ«Ġ
shuÃłiĠ xiÄģnĠ
deĠdÃł ĠxÃŃngĠ
ĠchÅ«ĠshÄĵngĠ zÃłiĠ
ĠyÃ³uĠqÃŃ ĠshÃ¬ĠzÃłiĠ
ĠguÇİngĠfÃłnĠ de
ĠbÃ¹ĠlÄģ ĠgÃ©
ĠbÃłnĠyÇİnĠ yÃ³uĠxÃ¬Ġ
lÃ¹ĠyÄ«nĠshÃ¬Ġ zhuÄģnĠjÃŃĠ
ĠwÄĵiĠfÅ« ĠtÃ¨
t Ä«Ġ
ĠĠ Ġj
ĠshÃ¬Ġ hÃło
Ġh Ġ
ĠwÃ¨iĠ xiÄģngĠgÇİngĠ
ĠshÃŃ ĠtÇĲ
zhÅįngĠ yÄĽ
ĠhÃ© ĠyuÄĵĠ
bÃ¹ ĠzhÄ«
ĠzhÃ¨ ĠduÃ¬Ġ
zhÄ« ĠluÃłnĠ
yÇĲ ĠcÇĲ
zhÃ¹ ĠzhÄģ
ĠdeĠ S
ĠliÃº ĠdÃłnĠ
ĠliÇİngĠ cÃ©ngĠ
ĠliÇİngĠ sÅįu
gÇİngĠ kÇĴu
ĠqÄ«ngĠ tÃ³ngĠ
dÄģnĠ dÄģngĠ
qÇĲ ĠdÄģnĠrÃ¨nĠ
ĠbÅį ĠtÃ¨
ĠcÄģnĠ yÃ¬Ġ
ĠcÄģnĠ yÇĲnĠ
ĠkÇİ ĠluÃ³
sÃ¹ Ġde
shÄģ ĠrÃ©nĠ
ĠzÇĲ ĠnÇļĠ
ri st
huÇĴ ĠchÄĵĠzhÃłnĠ
kÄģngĠ xÄ«
ĠguÇİnĠlÇĲ ĠwÄĽiĠyuÃ¡nĠhuÃ¬Ġ
ĠqiÅ« ĠjÃ¬Ġ
ĠĠĠI I
ĠrÇĶ ĠlÄģ
ĠzhÃłiĠ wÃ¹
wÃłiĠjiÄģo ĠbÃ¹
tÃ³uĠrÃ¹ ĠshÇĲĠyÃ²ngĠ
ĠzÄ«ĠgÃ© ĠsÃłiĠ
guÃ³ĠgÃ²ngĠ nÃ¨iĠzhÃłnĠ
c Ã²u
h ÇĶĠ
de ĠtÃ¨
ĠbÃ¹ ĠkÄĽĠnÃ©ngĠ
ĠchÃ©ngĠ guÇĴ
ĠyÇĶ ĠzhÅįngĠguÃ³
ĠbÃ¬ngĠ huÃ²
ĠshÃłngĠ rÃ¨nĠ
ĠduÅį ĠniÃ¨
ĠzhÃŃ ĠgÅįngĠ
ĠlÃ¡nĠ bÇİnĠ
ĠjÃ¹ ĠzÇĶ
ĠbÄĽiĠ zhÃ¬Ġ
Ġ2 ĠhÃłoĠxiÃłnĠ
shÇĴu ĠyÃ¬ngĠ
Ġ200 3
fÄĵngĠ de
shÃ²u ĠdÃłoĠle
ĠmÃ² ĠniÃ¡nĠ
ĠshuÇĲ ĠzhÇĶnĠ
ĠÄģnĠ dÅįngĠ
ĠxiÄĽ ĠzuÃ²Ġ
guÃ³ĠjiÄģ ĠÄģnĠquÃ¡nĠ
yÇĴngĠ yuÇİnĠ
ĠdÄ« Ġde
wÇİnĠ qÄ«
ĠkÅ«nĠ mÃŃngĠ
ãģ ®
shÇĲĠyÃ¡nĠ jiÅ«
p ac
Ġ ×
ĠĠ Ġx
ĠĠ ĠshÃ²u
ĠĠ ĠrÃ³ngĠyÃ¹Ġ
ÄģnĠ zÃłngĠ
Ãło ĠbÅį
shÃ¬Ġ zuÃ¬Ġ
ĠzÃłiĠ yÄ«ĠxiÄĵ
ĠzÃłiĠ mÇĴuĠxiÄĵ
ĠdÃ¬Ġ 8
ĠbÃ¹ ĠrÃº
ĠdÃł ĠbÃłiĠ
yÄ« ĠkÄĵ
ĠyÇĶ ĠrÃ¬ĠbÄĽnĠ
ĠxÃŃngĠ hÃło
dÃł ĠfÅ«Ġ
jÃŃ ĠjiÃ©
ĠwÃ©iĠ shÄĵngĠ
ĠguÄģnĠ niÃłnĠ
shÇĲ ĠguÇİnĠ
ĠlÃ¡nĠ dÄĵngĠ
deĠ S
ĠqÄ« ĠgÃ¨
nÃ¨iĠ mÃ©ngĠgÇĶ
ĠdÃ¡ Ġde
dÄĽngĠ jÃŃ
ĠkuÃ² ĠsÃłnĠ
ĠzÇĴngĠ zhÃłnĠ
shÄĵnĠ de
kÄĵ Ġde
an aĠ
ĠhuÃŃ ĠlÃ¡iĠ
xiÄģnĠ wÃ©iĠ
tuÃ¡nĠ de
mÃ©iĠyÇĴu ĠrÃ¨nĠhÃ©
ĠtÃ¡o Ġ
at or
ĠxiÄĽ ĠchÃ©ngĠ
xÃºnĠ luÃ³
ĠxuÃ©ĠshÄĵngĠ huÃ¬Ġ
ĠkÄģnĠ sÃłĠsÄ«
tuÃ¬Ġ xiÅ«
ĠsuÄģnĠ yÃ¡nĠ
wÇİ ĠÄĽr
tÇİo ĠfÃ¡
ĠguÄ«ĠdÃ¬ngĠ jÅ«ĠmÃŃnĠdiÇİnĠ
ĠĠĠ195 0ĠniÃ¡nĠ
yÃ© Ġ
fÄĽnĠ sÄ«
ĠĠĠwÃłiĠbÃ¹ ĠliÃ¡nĠjiÃ©Ġ
C C
ĠĠ ĠsÃłiĠshÃ¬Ġ
ÄģnĠ de
iÃ¡nĠ yiĠ
hÃ© ĠyÇĶ
Ġm ÃłoĠ
ĠzÃłiĠ dÃ©ĠguÃ³
ĠrÃ©nĠ dÃło
ĠzhÅįngĠ fÄģĠxiÃłnĠ
ĠlÃ¬Ġ fÇİĠyuÃłnĠ
ĠdÃ© ĠjiÇİ
ĠbÃ¬ngĠ zuÃ¬ĠzhÅįngĠ
ĠlÇĲ ĠbÃłiĠ
ĠshÃ¹ ĠyÇĶĠ
ĠdÃłiĠ kuÇİnĠ
ĠmÇİ ĠlÃŃnĠ
deĠ D
ĠbÄģ ĠxÄ«Ġ
ĠzÃ© ĠyÇĲ
diÃłnĠ chÃŃ
ĠnÃ¨iĠ yÇĴu
ĠxiÃło ĠlÇľ
ĠbiÃłnĠ lÃ¬Ġ
bÄģ ĠyuÃ¨
ĠguÄ« ĠgÃ©
ĠdÅįu ĠkÄĽĠyÇĲ
ĠqÇĲ ĠfÄĵiĠ
ĠyÃ³uĠyÃº ĠqÃŃ
ĠsÄģiĠ sÄ«
jÅ« ĠyÃº
hÅ« ĠxÄ«
ĠsÇĶnĠ hÃłiĠ
ĠĠĠ198 6ĠniÃ¡nĠ
ĠĠĠ198 7ĠniÃ¡nĠ
yÃºĠ201 3ĠniÃ¡nĠ
diÃłoĠchÃ¡ ĠjÃº
gÅįngĠzhÃ²ngĠ kÄģiĠfÃłngĠ
ĠzhÇĴngĠjiÄģ ĠcÃŃĠ
4 0Ġ
O SĠ
Ġc enterĠ
ÄģnĠ nÃłĠ
hÃ© ĠwÃ¨iĠ
de rĠ
Ġde ĠjÄ«ngĠ
hÃ²u ĠbÇĶ
guÃ³ ĠwÃłiĠ
ĠchÃ©ngĠ zÃłiĠ
ĠxuÃ© ĠpÃłiĠ
ĠjiÃłnĠ diÃ©
yÇĶ ĠtÄģ
ĠmÄĽiĠ xiÇİoĠshÃŃ
jÄ«ngĠ wÃ¨iĠ
ĠzhÃ¹ ĠzhÄģ
nÃ¡nĠ hÃ¡iĠ
ĠfÃº ĠlÇĶ
ĠhÇİiĠ guÄģnĠ
rÃ¬Ġ jÃ¬Ġ
ĠxiÃło ĠyÇĴu
Ġ4 5Ġ
pÃ¡iĠ chÃº
luÃ³ ĠbÃ³ĠtÃ¨Ġ
jÇĲnĠ jÇĲnĠ
ĠtuÄ« ĠchÅ«Ġle
ĠrÃłngĠ rÃ©nĠ
50 ĠwÃłnĠ
zÃłnĠ wÃº
ĠguÃ³ĠmÃŃnĠ gÃ©ĠmÃ¬ngĠjÅ«nĠ
ĠĠĠ198 5ĠniÃ¡nĠ
ĠzÃłiĠzhÃ¨ ĠlÇĲ
ĠlÃ¨iĠxÃŃngĠ wÃ¨iĠ
ĠzuÃ²ĠluÃ² ĠyÃº
ĠjiÃłoĠkÄĵĠwÃ©nĠ zÇĶĠzhÄ«
o z
ĠĠ ĠgÃ©
ĠĠ ĠrÃ¡nĠÃ©r
Ġde ĠxÃŃngĠwÃ©iĠ
shÃ¬Ġ shÃŃ
ĠyÃº Ġ9
ĠyÃ¬Ġ zhÇİngĠ
chÃ©ngĠ yÄ«
ĠyÇĴu ĠzhÃ¹ĠyÃº
ĠjÃ¬Ġ shÄĵngĠ
dÃł ĠgÄģngĠ
ĠshÄĵngĠ yuÃ¡nĠ
ĠshÄĵngĠ pÃŃngĠ
ĠbÃ¨iĠ ÄĽrĠ
ĠzhÇĶ ĠbiÄģnĠ
shÃłngĠ dÃ¬Ġ
xÄ«nĠ shÃ¬Ġ
ĠfÃ¹ ĠzÇĴngĠ
ĠxÄ«nĠ jÇĲ
ĠduÅį ĠbÃ¹
dÃ© ĠluÃ³
quÃ¡nĠ shÃ¹
ĠdÅįngĠ qÅ«
ĠtÅįngĠ qÃŃnĠ
ĠtÃłiĠ mÇĲĠÄĽr
qÄ«ngĠ dÃłiĠ
liÃº ĠfÃłngĠ
tÅįngĠ zhÄ«
gÇĶ ĠbÄģ
bÇİo ĠjiÄģĠlÃ¬ĠyÃł
ĠxÄ«ngĠ yÃºnĠ
ĠjiÃł ĠgÄĽiĠ
quÃ¨ ĠlÃ¬Ġ
ĠcÃ¨ ĠhuÃł
ĠmÃłiĠ jÄ«nĠ
zhÅ« ĠlÃ³ngĠcÇİo
ĠpÇĶĠchÃ¡ ĠguÄ«ĠdÃ¬ngĠjÅ«ĠmÃŃnĠdiÇİnĠ
ĠxuÄģnĠbÃ¹ ĠjiÄģngĠ
yÃºĠ201 0ĠniÃ¡nĠ
21 ĠshÃ¬ĠjÃ¬Ġ
ov eĠ
ĠĠĠb y
ĠgÅįngĠgÃ²ngĠ jiÄģoĠtÅįngĠ
ĠtiÄĵ ĠmÃ¹ĠÃ©r
lÇļĠkÃ¨ ĠtiÄĽĠdÃłoĠ
Ġcom Ġ
ĠxiÃłnĠ bÄ«ngĠ
ĠdÃło ĠfÅ«Ġ
wÃ©iĠ rÃło
ĠmÃŃngĠ gÇĶĠwÅ«
xiÃłnĠ wÃ¨iĠ
rÃ¨nĠ zhÃŃĠ
qÃŃ ĠzhÃ¬Ġ
ĠdÃ²ngĠ cÃŃ
fÇİ ĠzhÅįngĠ
ĠmÃŃnĠ hÃ¡ngĠ
kÄģiĠ mÃ¹Ġ
ĠkÄĵ Ġde
jiÄģngĠ yÃº
ĠjuÃ© ĠdÃłĠduÅįĠshÃ¹
yÃ¹ ĠcÃ¨
chÄĵngĠ hÅ«
ĠnÃł ĠhÃ©
wÇİngĠ lÃ¡iĠ
ĠcÄģnĠ shÃ¹
qiÄģnĠ zhÃ¨ngĠ
Ġ10 7
Ġ7 ĠyuÃ¨
ĠniÃ¡nĠ12 ĠyuÃ¨Ġ1ĠrÃ¬Ġ
Ġãĥ «
xuÃ¡nĠ zhuÇİnĠ
ĠpÃŃngĠjÅ«nĠ shuÇĲĠpÃŃngĠ
ĠzÅ«nĠ xÃºnĠ
ruÇİnĠ tÇĲ
mÇĴu ĠzhÇĴngĠ
sÇĶnĠ shÄ«Ġ
1 10
6 ĠyuÃ¨Ġ28ĠrÃ¬Ġ
e yĠ
Ġm Åį
de ĠjÅ«nĠshÃ¬Ġ
ĠshÃ¬Ġ rÃ©nĠ
ĠshÃ¬Ġ fÃłnĠ
ĠbÃ¹ ĠlÃºnĠ
ĠhÃ© ĠdÃł
ĠyuÃ¡nĠ yÃ¬Ġ
jÅ«nĠ bÃ¨iĠ
yÇĶ ĠyÄ«nĠ
xÄ«nĠ guÄģnĠfÃ¨iĠyÃ¡nĠquÃ¨ĠzhÄĽnĠbÃ¬ngĠlÃ¬Ġ
ĠshÃ¹ ĠzhÃŃ
ĠshÃ¹ ĠmÇİ
ĠxiÄģngĠ rÃ³ngĠ
ĠyÃ¡nĠ shÃ¬Ġ
yÃŃ ĠbÃłnĠ
yÃŃ ĠchuÃ¡nĠ
ĠsÃłiĠ huÃ¬Ġ
ĠdeĠ hÃ¡iĠziĠ
sÄģnĠ zhÇĴngĠ
ĠfÄĵngĠ fÃ¹
liÃ¨ Ġde
jiÄģo Ġde
ĠmÄĽiĠguÃ³ ĠlÃ¹ĠjÅ«nĠ
ar a
wÃº ĠzhÃ¨ngĠzhuÃłngĠgÇİnĠrÇİnĠzhÄĽ
ĠjiÇİnĠ yÃ¬Ġ
ĠzhuÄģnĠ ÃłnĠ
ĠxiÄģo ĠmiÃ¨
ĠA d
ĠbÃ¡iĠ Ã©ĠluÃ³ĠsÄ«
gÃ²u ĠzÃło
tÄ«ngĠ dÃło
ĠtÃ¨Ġ ÄģĠlÄģĠbÃ³
ĠhuÃłnĠ qÇĶ
huÇĴ ĠxÄ«ngĠ
fÄģnĠ chuÃ¡nĠ
ĠguÃłnĠjÅ«nĠ liÃ¡nĠsÃłiĠ
tÃłnĠ suÇĴ
ĠyÃ¡ ĠchÇĲ
di Å«
ĠsÇĶnĠ shÄģngĠ
ĠtÃ¬Ġ huÃłnĠ
Ġ189 5ĠniÃ¡nĠ
lÃ¡o ĠgÅįngĠ
cuÃ¬Ġ tÃ¡iĠ
ĠrÃło ĠtÃłiĠyÃ¡ngĠ
a el
g ÄĽngĠ
Ġ a
de ĠkÃ¨
ĠĠĠ 5Ġ
ĠrÃ©nĠ qÃºnĠ
ĠyÄ« ĠlÃ¹
ĠyÃ¬Ġ bÃ¹
ĠzhÃ¬Ġ 194
ĠjiÄģ ĠzhÇİngĠ
ĠqÃŃ ĠyÇĶ
ĠbÃ¬ngĠ lÃ¬Ġ
huÃ¬Ġ miÃłnĠ
ĠzhÃłnĠ zÃłiĠ
xiÃłnĠ fÇİĠ
ĠÄĽr ĠdÃ¹nĠ
qÅ« ĠzhÃºĠjiÃłnĠ
Ã¨r ĠdÄĽngĠ
shÃ¹ ĠjÃŃĠshÃ¬Ġ
yÃŃ ĠjiÄģo
jÃ¬nĠ dÃłiĠ
ĠquÃ¡nĠ lÄĽiĠ
wÃ¹ ĠchÃ¹
ĠjiÄĵ ĠbÃ³
ĠshÄģnĠ gÇĶ
chÄĵngĠ zÃłnĠ
ĠyuÄĵ Ġ3
ĠchuÃ¡nĠ sÃ²ngĠ
cÃ¨ ĠlÃ¼Ã¨
ĠlÃ©iĠ dÃ©
Ġ8 ĠgÃ¨
ĠdÇİngĠ wÄĽiĠ
ĠdÃ¬ĠyÄ« ĠjiÃ¨
on n
ĠdÄĵngĠ jÃ¬nĠshÃ¬Ġ
xÃºnĠ wÃ¨nĠ
Ġ13 5
ĠqÇĲngĠ qiÃºĠ
hÄģ ĠgÄĵnĠ
ĠjiÄĵĠshÃ²u Ġle
ĠzÃłiĠ200 7ĠniÃ¡nĠ
ĠbÃ¹ĠlÃ¡iĠ ÄĵnĠ
ĠĠĠdÃ¬ĠÃ¨r ĠcÃ¬ĠshÃ¬ĠjiÃ¨ĠdÃłĠzhÃłnĠ
fÄģĠxiÃłnĠle ĠcÇĲĠtiÄģnĠtÇĲĠ
s c
ÄģnĠ fÇĶ
ĠzÃłiĠ yÃ¬nĠdÃ¹
dÃ¬Ġ sÄ«
yÃ¬Ġ mÄĽiĠguÃ³ĠrÃ©nĠ
ĠjÃ¬Ġ Ã©r
ĠshÄĵngĠ yÃ¹
ĠyuÃ¡nĠ shÇĴu
ĠbÃ¨iĠ shÃ²u
ĠshÃłngĠ sÃ¹Ġ
zuÃ² ĠshÃ¬Ġ
ĠjÃ¬nĠ shÄĵngĠwÃ¨iĠ
ĠduÅį ĠlÃºnĠduÅį
ĠzuÃ¬Ġ zhÃ¹ĠmÃŃngĠde
miÃłnĠ chÄĵĠzhÃłnĠ
ĠzÇĴngĠ tÇĲ
ĠqÄ«ngĠ chÇĶ
ĠgÃ²u ĠjiÃłnĠ
ĠchuÃ¡nĠ zhÄ«Ġ
ĠdÃº ĠxÃ¬ngĠ
ĠlÇĲĠ ÃłoĠ
ĠsÅ« ĠjÅ«nĠ
nÇļ ĠyÇİnĠyuÃ¡nĠ
chÃ³ngĠ fÃ¹
ĠdÇİ Ġ
5Ġ hÃ¡oĠmÇĲĠ
at aĠ
zÇİo ĠniÃ¡nĠ
ĠĠĠ198 3ĠniÃ¡nĠ
fÄģĠbiÇİo Ġle
ĠzhÅįuĠniÃ¡nĠ jÃ¬ĠniÃłnĠ
ĠmÄģ ĠmÄģ
ĠcÇİoĠ ÃłnĠ
ĠlÃŃĠxÄ«nĠ lÇľĠwÃ¨iĠ0
R T
e Ġde
ĠĠ ĠguÃ³ĠjiÄģĠduÃ¬Ġ
de ĠqÄ«nĠ
ĠĠĠ Î
ĠwÃ¨iĠ sÄ«
ĠzhÅįngĠ yÄ«
ĠyÇĶ ĠdÃł
ĠmÃŃngĠ cÃŃ
ĠjÃ¬nĠ shÄĵnĠ
Ã¨r ĠshÃŃĠÃ¨rĠniÃ¡nĠ
yÃŃ ĠqÃ¬Ġ
ĠhÃ²u ĠrÃ¨nĠ
ĠkÄģiĠ gÅįngĠ
ĠhuÃł ĠjiÄģĠ
ĠxiÇİo ĠtÃŃĠqÃŃnĠ
ĠchÇİngĠ hÃ©
shÅ« ĠniÇĶ
dÇİngĠ bÃ¹
ĠchÃ©nĠ shÃ¬Ġ
ĠshuÇĲ ĠkÃ¹Ġ
ĠyÇĲnĠ dÇİo
ĠyÇĲnĠ cÃ¡ngĠ
xÅ« ĠkÄĵ
ĠhÃ³ngĠ jÅ«nĠ
zÇİo ĠqÄ«Ġ
ĠlÇİo ĠshÄ«Ġ
bÇİiĠ wÃłnĠ
ĠzÇĴu ĠlÃ¡ngĠ
ĠshÃ¬ĠyÃ³u ĠyÃº
ĠleĠyÄ« ĠfÃ¨nĠ
ĠtÄģĠcÃ©ngĠ zÃłiĠ
ĠmÇİiĠ jiÄģ
ĠfÃºĠwÃ¹ ĠqÃ¬Ġ
yÃºĠ201 2ĠniÃ¡nĠ
kÇĴngĠ lÃ³ngĠ
ĠkÄĽnĠ tÇİĠjÄ«ĠzhÅįu
ĠhÇİiĠbÃ¡ĠgÄģoĠdÃ¹Ġ 2Ġ
sÇĶnĠ hÃłiĠ
ĠyÃ¡nĠshÄĵnĠ zhÃ¬Ġ
wit ter
ĠguÄģngĠxÃ¹Ġ Ã¨rĠshÃŃ
ĠĠĠxiÃłĠshÇĶ ĠwÃ¹ĠzhÇĴngĠ
6 ĠgÅįngĠlÇĲĠ
ĠĠ Ġle
Ġde ĠwÃ©nĠzhÄģngĠ
hÃ¨ ĠsÃ¨
ĠzÃłiĠ zhÃŃ
ĠrÃ©nĠ lÃ¬Ġ
ĠyÇĶ ĠmÃ¡o
ĠsÄ« ĠluÃ²ĠfÃ¡ĠkÃ¨
ĠyuÃ¨Ġ hÃ²u
ĠbÃ¬ngĠ rÃ©nĠ
ĠchÅ« ĠjÃ¬ngĠ
ĠtÃ³ngĠ jÃ¬nĠshÃ¬ĠchÅ«ĠshÄĵnĠ
ĠnÃ¡nĠ yÇİnĠyuÃ¡nĠ
rÃ¨nĠ nÃ¨iĠ
ĠrÃ¨nĠ kÄĽĠ
dÃłiĠ zhÃ¹
ĠduÅį ĠshÇİo
qÃŃ ĠhÃ²u
ĠjiÃło ĠzuÃ²
pÃŃngĠ tÇİnĠ
ĠqiÃº ĠzhÇİngĠ
gÃ¨ ĠguÃ³
ĠmÃ¹ ĠcÃ¡iĠ
ĠliÃº ĠlÇİnĠ
ĠtiÄģnĠ hÃ²uĠ
jÃ¬ngĠ nÃ¨iĠde
biÄģnĠ rÃ¹
Ġ6 ĠyuÃ¨
ĠchÃ©nĠ jÄ«
xiÃło ĠqÅ«
ĠzhuÄģngĠ yuÃ¡nĠ
shÃ¨ngĠ jÄ«ngĠ
ĠzhÄĵnĠ jÅ«nĠ
huÃ¡ngĠ hÃ²uĠ
pÇĶ ĠjÄ«ngĠ
dÃ¡ ĠÄĽr
ĠniÃ¡nĠ12 ĠyuÃ¨Ġ28ĠrÃ¬Ġ
mÇĶ Ġde
ĠhuÃłnĠ yÇĴu
ĠgÇİngĠ qÅ«
ĠhÃ²uĠlÃ¡iĠ tÄģ
ĠzÃłnĠ yÃ¡ngĠ
7ĠyuÃ¨Ġ 20ĠrÃ¬Ġ
ĠwÃ¨iĠyÃºĠgÄģiĠguÃ³ ĠdÅįngĠnÃ¡nĠbÃ¹Ġ
ĠzÃłiĠ200 5ĠniÃ¡nĠ
lÃ¡o Ġ
chuÃ¡nĠtÇĴngĠ de
ĠshÃ¬ĠyÄ«ĠwÃ¨iĠ mÄĽiĠguÃ³
ĠjiÄĵĠdÃło ĠbÃłnĠshÃ¬ĠchÃ¹Ġ
ĠmÃłiĠkÃ¨Ġ ÄĽrĠ
yst em
ĠdÃ¡ĠnÃŃĠ hÃło
5 ĠniÃ¡nĠ10
T heĠĠĠ
ĠĠ ĠshÄĵnĠ
Ãło ĠdÃ©
ji Ã¡
ĠwÃ¨iĠ bÃ¨iĠ
ĠyÇĲ ĠjÃ¬ĠniÃłnĠ
ĠdÃł ĠtÃ¡ngĠ
wÃ©iĠ gÅįngĠ
ĠmÃŃngĠ shÃ¬ĠbÄ«ngĠ
ĠxÄ« ĠzhÃ¬Ġ
ĠxÄ« ĠbÄģnĠyÃ¡Ġ
ĠzhÃłnĠ hÃ²uĠ
ĠshÃłngĠ bÃ¹
ĠchÅ« ĠfÄģĠ
zhÃ¹ ĠzuÃ²
ĠgÄģiĠ xiÇİoĠxÃŃngĠxÄ«ngĠ
huÃ¡ ĠbÄĽiĠ
ĠcÃ¬Ġ wÃ¨iĠ
miÃłnĠ qiÃ¡nĠ
nÃ¨iĠ wÃłiĠ
ĠdÃ¡ ĠdÃłoĠ
ĠxiÃło ĠshÃ¨
ĠzÇĴngĠ guÇİnĠ
jÄ«nĠ gÄģngĠ
ĠzhÅįngĠguÃ³ ĠkÄĵĠxuÃ©ĠyuÃłnĠ
ĠwÃº ĠyuÃ¡nĠ
wÇİngĠ fÇİnĠ
rÃ³ngĠ huÃ²
zÃº ĠqiÃºĠduÃ¬Ġ
fÇİnĠ kÃłngĠ
ĠjÅ« ĠliÃº
lÃ¡nĠ sÃ¨
ĠxÃ¬ĠtÇĴngĠ zhÅįngĠ
ĠyÃºĠ200 3ĠniÃ¡nĠ
ĠdÃ¬ĠguÃ³ Ġde
ĠgÄĵĠqÇĶ Ġde
00ĠwÃłnĠ yuÃ¡nĠ
ĠjÃ¬ĠchÃ©ngĠ rÃ©nĠ
ĠxiÃłĠdeĠyÃŃĠgÃ¨ ĠshÇĶĠ
1 ĠĠĠ
i iĠ
hÃ© ĠyÃŃĠgÃ¨
shÃ¬Ġ yÃ²ngĠ
Ġ1 ĠrÃ¬Ġ
ĠzhÅįngĠ yÄĽ
ĠlÃ¬Ġ zhÃ¬Ġ
ĠlÃ¬Ġ wÄĽiĠ
ĠbÃ¹ ĠyÇĶ
ĠyÃº ĠlÃ¨Ġ
ĠjiÄģ ĠlÃ¨ĠbÇĲĠhÇİiĠ
wÃ©iĠ xÄ«nĠ
dÃł ĠliÃ¡nĠ
jÃ¬Ġ hÃ²uĠsÃłiĠ
ĠyÃ³u ĠjÃ¬Ġ
ĠzhÃ¨ngĠ de
ĠchÅ« ĠpÇĲnĠ
xiÃłnĠ mÃŃngĠ
ĠzÃ¬Ġ shÄģĠ
qÃŃ ĠrÃ©nĠ
ĠtÃ¨ ĠrÃ©nĠ
ĠkÄĵ ĠzhÇİngĠ
Ġ2 4Ġ
ĠliÇİngĠ xiÃłngĠ
ĠzhÃ²ngĠ xÃŃngĠ
mÃ¹ ĠbÇİnĠ
ĠjiÄģo ĠwÇİngĠ
biÄģnĠ zhÃ¬Ġ
huÃ³ ĠxÃ¬ngĠ
xiÃło ĠqÅ«Ġ
ĠshÃ¬ĠyÄ« ĠbÃ¹Ġ
ĠshÅįu ĠgÃ²uĠ
ĠtÇİ ĠlÄģ
ĠqiÃ¡ngĠ dÃ¹Ġ
zhÄĵnĠ jÅ«nĠ
ĠxuÄģnĠ shÃ¬Ġ
ĠsÄģiĠ tÃ¨
Ġ11 4
ĠtÄ«ngĠ dÃło
ĠÄģĠÄĽr ĠbÄģ
ĠzÃłiĠ200 6ĠniÃ¡nĠ
ĠwÃºĠrÃ©nĠ jÄ«Ġ
ĠhÇİiĠbÃ¡ĠgÄģoĠdÃ¹ Ġ1Ġ
mer ic
ĠhuÃ³ĠyuÃ¨ ĠyÃº
s ti
ĠĠ ĠzhÇİngĠ
ĠshÃ¬Ġ yÃ¬Ġ
Ãło ĠhuÃ¬Ġ
zhÅįngĠ shÄĵnĠ
yÇĴu Ġle
jÃ¬Ġ shÃ¬Ġ
ĠshÄĵngĠ wÃ¹Ġ
jiÄģ ĠgÅįngĠ
jÅ«nĠ zhÇİngĠ
ĠduÃ¬Ġ gÄģiĠ
ÇĲĠy uÄĵ
ĠkÄĽ ĠfÄĵnĠwÃ©iĠ
ĠmÇİ ĠwÃ¨iĠ
ĠkÄģiĠ mÃ¹
ĠbÄģ ĠsÄģiĠÄĽr
ĠtÅįngĠ zhÄ«
ĠyÃ¹nĠ shÅ«Ġ
zÇĶ ĠxiÄģnĠ
zhÄĵngĠ qÃ¬Ġ
biÃłnĠ lÃ¹nĠ
ĠcÇİiĠ hÃ³ngĠ
ĠhÃ²uĠlÃ¡iĠ yÃ²u
yÃ¡nĠjiÅ« ĠzhÅįngĠxÄ«nĠ
ĠĠĠbÄĽnĠ jiÃ¨
ĠchuÃ¡nĠtÇĴngĠ shÃłngĠ
xiÃ¨ ĠrÃ¨nĠ
ĠzhÃ© ĠxuÃ©Ġ
cÃºnĠzÃłiĠ de
ĠzÅ«nĠ shÇĴu
ĠzÃłiĠ201 7ĠniÃ¡nĠ
kÄģnĠ dÄĵngĠ
mÃŃngĠchÄĵngĠ wÃ¨iĠ
ĠjiÃ©ĠshÃ¹ ĠhÃ²uĠ
ĠjiÄĽĠjuÃ© ĠfÄģngĠÃłnĠ
xiÃłnĠdeĠyÃŃĠgÃ¨ ĠfÄĵiĠjiÃłnĠzhÃ¬ĠdÃ¬ĠqÅ«Ġ
ĠxiÄģoĠfÃ¨iĠ zhÄĽ
shÃŃĠqÃ¬Ġ shÃŃĠdÃłiĠ
ĠnÃŃĠpÅį ĠÄĽr
a inĠ
y th
de ĠnÃ¨iĠrÃ³ngĠ
ÇĴu ĠÄĽr
ĠbÃ¹ ĠluÃ²Ġ
ĠshÃŃ ĠrÃ©nĠ
ĠyÄ« ĠshÇĴu
ĠxiÃłngĠ wÃ¨iĠ
ĠyÃło ĠwÃ¹Ġ
jÃ¹ ĠjuÃ©Ġ
ĠjiÄĵ ĠlÃ¬Ġ
ĠqÅ« ĠxiÃłnĠ
fÃ¹ ĠzÇĴngĠtÇĴngĠ
ĠyÄ«ngĠ shÇĶ
hÃ¡iĠ mÃ©iĠyÇĴu
mÇİ ĠkÃ¨ĠsÄ«
shÅ« ĠxiÄĽ
ĠqiÃ¡ngĠ diÃłoĠ
ĠlÇĶ ĠxiÇİo
deĠyÄ« ĠchÃ¡ngĠ
ĠdÃ¬ĠyÄ« ĠpÄ«
yÃ²u ĠchÄĵngĠ
ĠyÄ«nĠwÃ¨iĠ zÃłiĠ
sĠĠĠ C
cÃŃ ĠqÃ¹
ĠxiÃ¡ ĠzhÇİiĠ
ĠchÅįngĠ jÄ«Ġ
ĠsuÄ«ĠrÃ¡nĠ zÃłiĠ
et ac
ĠxiÃ¨ ĠrÃ¨nĠ
leĠyÄ« ĠzhÇĴngĠ
jÃ¬ĠchÃ©ngĠ rÃ©nĠ
ĠtÃ³ngĠniÃ¡nĠ12 ĠyuÃ¨Ġ
5 ĠniÃ¡nĠ10ĠyuÃ¨Ġ
9 ĠyuÃ¨Ġ29ĠrÃ¬Ġ
H K
R I
p sĠ
ĠĠ ĠwÃłnĠ
ĠĠ ĠdÃ¬ngĠyÃ¬Ġ
ĠĠ ĠyÃ¬ngĠyÃ²ngĠ
ĠĠ ĠqÇĲĠyuÃ¡nĠ
de ĠmÇİ
Ġde ĠyuÃ¡nĠyÄ«nĠ
ĠzÃłiĠ hÃ©
ĠbÃ¹ ĠbÃ¨iĠ
ĠbÃ¹ ĠwÃ©iĠ
ĠdÃł ĠdÃł
ĠgÃ¨ ĠzhÅįu
ĠjÃ¬Ġ hÃ²uĠsÃłiĠ
Ã©r ĠdÇİo
wÃ©iĠ rÃ©nĠ
ĠzhÄ« ĠfÃ¡ngĠ
ĠyÄ«nĠ zÃłiĠ
mÃŃngĠ liÃ¨
ĠrÃ¨nĠ zhÃŃĠ
ĠtÃ¨ ĠzhÇĴngĠ
zÃ¬Ġ shÄģ
deĠ 2
ĠkÄĵ ĠduÅįĠÄĽrĠshÄĽngĠ
zhÃ¨nĠ yÃŃngĠ
bÄĽiĠ hÃ¡nĠ
liÃ¡nĠ tÃ³ngĠ
yÄ«ngĠ Ã©r
kÄĵ ĠxuÃ©ĠjiÄģ
ĠchuÃ¡nĠ jiÃłoĠshÃ¬Ġ
zÇĴngĠ zhÃŃ
an a
ĠkÄĽĠyÇĲ ĠshÇĲĠyÃ²ngĠ
shÃ¬ĠjiÃ¨ Ġde
ĠjiÃłnĠzhÃ¹ ĠwÃ¹Ġ
ĠdÃłnĠshÃ¬Ġ tÄģ
7ĠyuÃ¨Ġ 31ĠrÃ¬Ġ
ĠsuÅį ĠduÇİnĠ
lÃ¨iĠsÃ¬Ġ yÃº
kÄĵĠjÃ¬Ġ dÃłĠxuÃ©
ĠpÃ¬nĠ qÇĲngĠ
ĠshÃ¬ĠxÄ«ngĠdÄĽngĠwÃ¨iĠ 6
C S
R A
ĠĠ ĠshÃ¬ĠjÃ¬Ġ
ĠĠ ĠdÄģngĠshÃŃ
de ĠyÄ«nĠyuÃ¨
ĠwÃ¨iĠ 1
ĠyÄ« ĠzhÃŃĠ
chÃ©ngĠ shÃº
ĠyuÃ¡nĠ qÅ«
ĠlÇĲ ĠxÃ¬ngĠ
xiÃłnĠ cÃºnĠ
ĠyÄ«nĠ jiÃ©
ĠshÃ¹ ĠqiÄģnĠ
ĠshÇĴu ĠyÃ¬ngĠ
ĠlÃ¹ ĠdÃ¬Ġ
chÃ¡ngĠ guÄ«
ĠzhÇĲ ĠhÇİo
suÇĴ ĠchÃ¹ĠdeĠhÇİiĠbÃ¡ĠwÃ¨iĠgÄģoĠyÃºĠhÇİiĠpÃŃngĠmiÃłnĠ
ĠzhÄģngĠ xuÃ©
yÃ¹nĠ zhuÃłnĠdeĠxiÇİoĠxÃŃngĠxÄ«ngĠ
ĠwÄĵiĠ sÄ«
ĠwÄĵiĠ ÄĽrĠ
ĠjiÃ¨ ĠxiÃłnĠ
qiÄģnĠ wÇİngĠ
yÃŃngĠ yÃ¨Ġ
bÄģnĠ bÃ¹
ĠhuÃŃ ĠguÄ«Ġ
cÃ¡iĠ liÃłoĠ
ĠÃ¨r ĠcÃ©ngĠ
ĠquÃ¨ ĠbÃ¨iĠ
yÃ²u ĠyÃ¬Ġ
fÃ¡ngĠ wÃ¨iĠ
ĠzuÇĴ ĠÃłnĠ
ĠxiÃłnĠdÃłiĠ huÃł
ĠĠĠ194 6ĠniÃ¡nĠ
ĠzÃłiĠ201 4ĠniÃ¡nĠ
ĠniÃ¨ ĠfÅ«
ĠwÃ¨iĠyÃºĠfÇİĠguÃ³ ĠxÄ«nĠÄģĠjÄ«ĠtÇİnĠdÃłĠqÅ«
jiÇİnĠchÃ¡ ĠyuÃłnĠ
fÇİĠlÃ¡nĠ kÃ¨
ĠshÃ¬ĠyÄ«ĠkÄĵ ĠrÃłoĠtÃłiĠyÃ¡ngĠ
jiÃ©ĠdÃ¹ ĠshÇĲ
ĠqÄ«ngĠhuÃ¡ ĠdÃłĠxuÃ©
ÃłiĠdÃ© ĠhuÃ¡Ġ
ĠdeĠguÇĲĠdÃło ĠbÃłnĠzhÇİngĠzhÃ³u
ĠĠĠguÇĲĠdÃło ĠcÄģnĠshÃ¹Ġ
ĠshÃ¬ĠyÄ«ĠkÄĵĠrÃłoĠtÃłiĠyÃ¡ngĠ yÃ¹nĠzhuÃłnĠdeĠxiÇİoĠxÃŃngĠxÄ«ngĠ
ĠĠ ĠliÇİngĠ
hÃ© ĠguÃ³ĠjiÄģ
de ĠnÃł
de ĠmiÃłnĠjÄ«ĠwÃ¨iĠ
ĠniÃ¡nĠ jÅ«nĠ
ĠniÃ¡nĠ jÇĲnĠ
ĠlÃ¬Ġ yuÃ¡nĠ
ĠtÄģ ĠyÃ³u
chÃ©ngĠ shÃ¬Ġde
ĠzhÃ¬Ġ 197
ĠyÇĶ ĠwÃ¨iĠ
ĠzhÃ¨ ĠjiÃ¹ĠshÃ¬Ġ
ĠzhÇĶ ĠchÃłngĠ
ĠlÃ¡iĠ ÄĵnĠ
bÃ¨iĠ xuÇİnĠwÃ¨iĠ
ĠxiÃł ĠxÃŃngĠ
ĠjiÃło ĠxiÇİoĠde
ĠxiÃłngĠ tÄģ
ĠbÄģ ĠtÃ¨
guÃ² ĠqÃ¹Ġ
sÄģnĠ mÃŃngĠ
ĠtiÄģnĠ tÇĲ
ĠqÃ¬Ġ jÄ«nĠ
ĠyÃ²u ĠyÃº
fÄĵngĠ gÃ©Ġde
ĠbÅį ĠchÅ«Ġde
bÄģ ĠsÄ«
ar le
ĠshÄģ ĠlÄģ
cÃ¡iĠ chÇİnĠ
ĠÃ¨r ĠjiÇİ
ĠkÃ¨Ġ hÃ¡nĠ
ĠtuÄ« ĠlÇĲ
ĠhÃº ĠguÇİngĠ
st ag
ĠfÄģnĠ tÃ¡iĠ
ĠxuÃ¨ ĠguÇİnĠ
ĠxiÇİoĠshÃŃ ĠhÃ²u
yÇĶnĠ kÄĵngĠ
jiÄĵĠrÇİngĠ deĠshÃ¬ĠzhÃ¨nĠ
ĠdÇİĠjÄ« ĠlÇľ
ĠwÃ©iĠzhÇĶ ĠxiÇİoĠxÃŃngĠxÄ«ngĠdÃłiĠ
ĠwÃ©iĠzhÇĶĠxiÇİoĠxÃŃngĠxÄ«ngĠdÃłiĠ xiÇİoĠxÃŃngĠxÄ«ngĠ
l ÇĶĠ
o ch
de ĠshÄĵnĠ
shÃ¬Ġ xÄ«nĠ
ĠyÇĲ ĠgÅįngĠ
zÃłiĠ 196
ĠyÃº Ġ2
bÃ¹ ĠjiÇĶĠ
ĠzhÃ¬Ġ 2
ĠzhÃ¬Ġ dÃ¬Ġ
ĠyuÃ¡nĠ jÃŃ
ĠxÄ« ĠjÄ«nĠ
shÃłngĠ chÇİngĠ
ĠgÄģiĠ xiÃłngĠmÃ¹
shÇĲ ĠdÃ¬Ġ
dÃ© ĠzhÇĶ
ĠyÄĽ ĠbÃ¨iĠchÄĵngĠwÃ©iĠ
ĠqÄ« ĠxÃ¬ngĠ
fÃ¹ ĠshÇĶ
jiÄĵ ĠshÃ¬Ġ
shÄģnĠ xÄ«ĠshÄĽngĠ
zhÄĽ ĠwÃ¨iĠ
kÃ¨ ĠchuÃłnĠ
ĠchÃ¡ngĠ niÃ¡nĠ
dÄģngĠ shÃŃĠ
bÄģ ĠlÄģ
ĠqÇĶ ĠmÃ¹Ġ
jiÃ¹ ĠyÇĲĠjÄ«ngĠ
ĠzhÃ¨nĠ dÃ¬Ġ
nÇļ ĠhÃ¡iĠ
sÃ¨ ĠqÃŃngĠ
ĠlÃŃngĠ mÃ¹
jiÄĽ ĠmÃ¨iĠ
ĠquÃ¨ Ġ
Ġ11 2
sĠĠĠ A
ĠyÅįu Ġ
ĠshÃ¬ĠwÃ¨iĠyÃº ĠrÃ¬ĠbÄĽnĠ
Ġãĥ ©
is s
wÃ©nĠhuÃł Ġde
ĠkÄĽnĠ nÃŃ
ov er
ĠkÃ¨ĠlÇĲ ĠmÇĲĠyÃł
ĠmÇĶĠsÄ«ĠtÃ¨ ĠdÄģnĠ
mÃŃĠnÇĲ ĠzhuÄģnĠjÃŃĠ
ĠshÃ¬ĠwÅ«ĠkÃ¨ĠlÃ¡nĠde ĠcÅ«nĠluÃ²Ġ
1 ĠjiÄģĠ
4 ĠyuÃ¨Ġ28ĠrÃ¬Ġ
9 ĠyuÃ¨Ġ15ĠrÃ¬Ġ
Y P
e z
Ġ alignĠ
de ĠjÄ«nĠ
de ĠhuÃ³ĠdÃ²ngĠ
Ġde ĠbÇĲ
ĠzÃłiĠ hÇİiĠ
ĠzhÅįngĠ suÇĴ
ĠhÃ© ĠshÃłngĠ
jiÃłnĠ tÇĲngĠ
ĠjÄ« ĠyÃł
ĠyÄ«nĠ ziĠ
xÄ«nĠ tÃ¡iĠbÃ¬Ġ
ĠfÃ¹ ĠlÃ¡nĠkÃ¨ĠlÃŃnĠ
ĠxÄ«nĠ zÃ©
ĠfÄĵnĠ dÇİ
yÃŃ ĠrÃ©nĠ
lÇĲ ĠhuÃ¬Ġ
xiÃłngĠ liÃłngĠ
ĠyÄĽ ĠjiÄģngĠ
ĠzhÇĴngĠ zhÇĴngĠ
pÃŃngĠ shÄĽnĠ
ĠchÄĵ ĠtÇĲ
lÃ¹ ĠdÃ©
yÃ¹ ĠnÃłnĠ
qiÃº ĠmÃŃ
ĠwÇĶ ĠyuÃ¨
fÃº ĠshÃ¨
ĠluÃ² ĠlÃŃnĠ
ĠbÇİnĠ de
ĠtÃ³u ĠyÇĲngĠ
ĠzÃº ĠyÃº
ĠhuÃ¡ngĠ pÇĶ
ĠsuÃ¬Ġ yÇĲĠshÃłngĠ
shÃ¨ngĠ chÅ«Ġ
jiÇİngĠ zhÄģngĠ
ĠnuÃ² ĠsÄ«
cÃºnĠ chÇĶ
qÄ«ĠjiÄģnĠ de
suÃŃ ĠjÄ«
ĠwÃ² ĠsÄ«
11 ĠyuÃ¨Ġ
ĠxiÃłnĠde ĠchÃ©ngĠshÃ¬Ġ
8ĠyuÃ¨Ġ 4ĠrÃ¬Ġ
xÇĲ ĠjÃ¹Ġ
shu ÇĲĠyÃ¹
kÄģiĠshÇĲĠ hÃ²uĠ
ĠwÄĽnĠdÃ¬ngĠ xÃ¬ngĠ
rÃ¨ĠdÃłiĠ fÄĵngĠbÃłoĠ
ĠgÄģoĠdÄĽngĠ jiÃłoĠyÃ¹
ĠgÃ¨ĠyuÃ¨ Ġde
bÃ¬ĠyÃ¨Ġ hÃ²uĠ
omp an
lÇĲĠgÅįngĠ dÃłĠxuÃ©
i eĠ
s hÃ¡o
ĠĠ ĠyÃ¡nĠjiÅ«
ĠĠ ĠhÄĵiĠ
Ġc Ġ
hÃ© ĠyÃ¬Ġ
ĠyÄ« ĠjiÃł
ĠhÃ© ĠnÃ¨iĠ
yuÃ¡nĠ xiÄģnĠ
rÃ©nĠ yÇĶ
rÃ©nĠ duÃ¬Ġ
ĠyÇĶ ĠxÃ¬Ġ
ĠlÇĲ ĠxuÃ©
ĠshÃ¨ ĠchÃ©ngĠ
ĠfÃ¹ ĠfÃ¨iĠ
shÃ¨ ĠlÃ¬Ġde
Ã¨r ĠjiÇİ
dÃłiĠ mÇİ
ĠmÄĽiĠ yuÃ¨
ĠzhÃ¹ ĠrÃ¹
deĠ hÃ¹
ĠdÅįngĠ zhÃ¬Ġ
ĠbÄĽiĠ kÇİĠluÃ³ĠlÃ¡iĠnÃłĠzhÅįu
ĠbÄģ ĠhÄģ
ĠcÇĲ ĠchÃ¹
ĠqÄ«ngĠ sÅįngĠ
ĠgÇĶ ĠchÃ©ngĠ
ĠyÃ²u ĠÃłnĠ
ĠnÃŃ Ġde
bÅį ĠyÃ¬ngĠ
ĠwÄĽiĠ nÃ¨iĠruÃ¬ĠlÄģ
ĠtÄģĠmenĠ yÄĽ
ĠfÃ¡ngĠ hÃ¹
ĠxÄ«ngĠ xÄ«ngĠ
ĠguÃ³ĠjiÄģ ĠzÃºĠqiÃºĠduÃ¬Ġ
ĠbÄģnĠ bÃ¹
ĠmÇĶ Ġde
ĠcÃŃ Ġde
ĠmÃłnĠ wÄĵiĠ
pÇĶ ĠluÃ³
[...]
