{"!":0,"\"":1,"#":2,"$":3,"%":4,"&":5,"'":6,"(":7,")":8,"*":9,"+":10,",":11,"-":12,".":13,"/":14,"0":15,"1":16,"2":17,"3":18,"4":19,"5":20,"6":21,"7":22,"8":23,"9":24,":":25,";":26,"=":27,"?":28,"@":29,"A":30,"B":31,"C":32,"D":33,"E":34,"F":35,"G":36,"H":37,"I":38,"J":39,"K":40,"L":41,"M":42,"N":43,"O":44,"P":45,"Q":46,"R":47,"S":48,"T":49,"U":50,"V":51,"W":52,"X":53,"Y":54,"Z":55,"[":56,"\\":57,"]":58,"^":59,"_":60,"`":61,"a":62,"b":63,"c":64,"d":65,"e":66,"f":67,"g":68,"h":69,"i":70,"j":71,"k":72,"l":73,"m":74,"n":75,"o":76,"p":77,"q":78,"r":79,"s":80,"t":81,"u":82,"v":83,"w":84,"x":85,"y":86,"z":87,"|":88,"~":89,"¡":90,"¢":91,"£":92,"¤":93,"¥":94,"¦":95,"§":96,"¨":97,"©":98,"ª":99,"«":100,"¬":101,"®":102,"¯":103,"°":104,"±":105,"²":106,"³":107,"´":108,"µ":109,"¶":110,"·":111,"¸":112,"¹":113,"º":114,"»":115,"¼":116,"½":117,"¾":118,"¿":119,"Â":120,"Ã":121,"Ä":122,"Å":123,"Æ":124,"Ç":125,"È":126,"É":127,"Ê":128,"Ë":129,"Ì":130,"Í":131,"Î":132,"Ï":133,"Ð":134,"Ñ":135,"Ò":136,"Ó":137,"Ô":138,"Õ":139,"Ö":140,"×":141,"Ø":142,"Ù":143,"Ú":144,"Û":145,"Ü":146,"Þ":147,"ß":148,"à":149,"á":150,"â":151,"ã":152,"ä":153,"ê":154,"ë":155,"ì":156,"í":157,"î":158,"ï":159,"ð":160,"ñ":161,"Ċ":162,"Ġ":163,"ġ":164,"Ģ":165,"ģ":166,"Ĥ":167,"ĥ":168,"Ħ":169,"ħ":170,"Ĩ":171,"ĩ":172,"Ī":173,"ī":174,"Ĭ":175,"ĭ":176,"Į":177,"į":178,"İ":179,"ı":180,"Ĳ":181,"ĳ":182,"Ĵ":183,"ĵ":184,"Ķ":185,"ķ":186,"ĸ":187,"Ĺ":188,"ĺ":189,"Ļ":190,"ļ":191,"Ľ":192,"ľ":193,"Ŀ":194,"ŀ":195,"Ł":196,"ł":197,"Ń":198,"nĠ":199,"ng":200,"ngĠ":201,"hÃ":202,"Ãł":203,"¬Ġ":204,"iĠ":205,"Äģ":206,"uÃ":207,"Ġy":208,"Ä«":209,"Ġz":210,"Ġd":211,"Ġs":212,"Çİ":213,"Ã¡":214,"Ã¨":215,"Ã¬Ġ":216,"ÃŃ":217,"Ã¹":218,"ĠĠ":219,"Ã©":220,"Ġj":221,"ÇĲ":222,"Åį":223,"Ġl":224,"Ġx":225,"iÃł":226,"Äĵ":227,"Ã¡nĠ":228,"hÃ¬Ġ":229,"Ġg":230,"ÄĽ":231,"Ġb":232,"ÇĶ":233,"Ġc":234,"Ãº":235,"ÄģnĠ":236,"ÃłiĠ":237,"Å«":238,"ÅįngĠ":239,"ÇĴ":240,"Ġzh":241,"Ġt":242,"ãĢ":243,"Ġn":244,"Ġw":245,"Ã¨iĠ":246,"iÃ¡nĠ":247,"hÃ©":248,"Ġm":249,"Ġq":250,"iÃłnĠ":251,"zh":252,"ÄģngĠ":253,"ÃŃngĠ":254,"Ġf":255,"de":256,"Ã¬":257,"Ġr":258,"ÇİnĠ":259,"Ġde":260,"Ġsh":261,"Ã³":262,"uÃ¡":263,"hÃ¨":264,"Ġji":265,"ÃłnĠ":266,"uÃ¬Ġ":267,"Ã²":268,"ÇİngĠ":269,"hÃł":270,"sh":271,"hÃŃ":272,"uÃ²":273,"ĠniÃ¡nĠ":274,"Ã©nĠ":275,"ĠshÃ¬Ġ":276,"uÃ¡nĠ":277,"Ġh":278,"ÇĴu":279,"Ãło":280,"Ã¬ngĠ":281,"uÃ³":282,"ji":283,"Ġk":284,"Çİo":285,"ãĢģ":286,"ÄĵngĠ":287,"Ä«nĠ":288,"shÃ¬Ġ":289,"Ä«ngĠ":290,"Ġ1":291,"hÃ²":292,"Ġch":293,"Ã²ngĠ":294,"Äģo":295,"hÃ¹":296,"ch":297,"uÃ¨":298,"Ġp":299,"hÃ©ngĠ":300,"Ġxi":301,"ĠĠĠ":302,"Ã¡iĠ":303,"Ã©iĠ":304,"hÃ²u":305,"ÄĽiĠ":306,"hÃ¡":307,"ÄĵnĠ":308,"Ã³ngĠ":309,"Ã¡ngĠ":310,"ĠzÃłiĠ":311,"Ã¹Ġ":312,"uÃ©":313,"Åįu":314,"ĠwÃ¨iĠ":315,"20":316,"ÇĲĠ":317,"Ã³u":318,"ÄģiĠ":319,"hÃ¨ngĠ":320,"uÄģnĠ":321,"ĠyuÃ¨":322,"Å«nĠ":323,"iÃło":324,"wÃ¨iĠ":325,"guÃ³":326,"Ä«Ġ":327,"Ã¨nĠ":328,"ÇĴngĠ":329,"ÃŃnĠ":330,"ĠrÃ©nĠ":331,"ĠzhÅįngĠ":332,"xi":333,"ÇİiĠ":334,"Ã©ngĠ":335,"hÃłnĠ":336,"uÃł":337,"uÇİnĠ":338,"ĠdÃ¬Ġ":339,"hÃłngĠ":340,"ĠlÃ¬Ġ":341,"ĠyÇĲ":342,"iÃłngĠ":343,"Ã¬nĠ":344,"ĠbÃ¹":345,"shÃŃ":346,"zÃłiĠ":347,"yÃº":348,"ÄĽngĠ":349,"ĠshÃŃ":350,"zhÅįngĠ":351,"ĠrÃ¬Ġ":352,"uÅį":353,"ĠyÄ«":354,"uÃłnĠ":355,"iÄģnĠ":356,"ĠjÃŃ":357,"ĠyÃº":358,"uÇĴ":359,"zhÃ¬Ġ":360,"iÃº":361,"ĠtÄģ":362,"ĠhÃ©":363,"ÄĽnĠ":364,"dÃ¬Ġ":365,"yuÃ¡nĠ":366,"Ã¹nĠ":367,"ĠchÃ©ngĠ":368,"bÃ¹":369,"ĠyÃ¬Ġ":370,"ĠgÅįngĠ":371,"ĠdÃł":372,"ĠgÃ¨":373,"ÄĵiĠ":374,"ĠxiÃłnĠ":375,"ÇĲngĠ":376,"Ġ19":377,"ÄĽr":378,"Ã¡o":379,"yÄ«":380,"chÃ©ngĠ":381,"ĠyÇĴu":382,"yÇĴu":383,"ĠzhÃ¬Ġ":384,"gÅįngĠ":385,"yÃ¬Ġ":386,"ĠjiÄģ":387,"ĠjÃ¬Ġ":388,"ĠqÃŃ":389,"lÃ¬Ġ":390,"Ã©r":391,"rÃ©nĠ":392,"ĠdÃło":393,"ĠyÇĶ":394,"ĠguÃ³":395,"Å«Ġ":396,"ĠxÃŃngĠ":397,"wÃ©iĠ":398,"Ã²u":399,"ĠxuÃ©":400,"dÃł":401,"jÃŃ":402,"ĠsÄ«":403,"ĠyuÃ¨Ġ":404,"ãĢĭ":405,"ãĢĬ":406,"Â·":407,"Ã¨Ġ":408,"ÃłngĠ":409,"ĠmÃŃngĠ":410,"jÃ¬Ġ":411,"Ġli":412,"ĠshÄĵngĠ":413,"Ġ20":414,"hÃ¡ngĠ":415,"uÄ«":416,"ĠhuÃ¬Ġ":417,"ĠdÃ©":418,"ÇĶĠ":419,"le":420,"ĠbÃ¬ngĠ":421,"ĠyÃ³u":422,"ĠyuÃ¡nĠ":423,"hÃło":424,"xÃŃngĠ":425,"ÃºnĠ":426,"zhÃ¨ngĠ":427,"ĠzhÃ¨":428,"ĠzhÄ«":429,"Ġle":430,"jiÄģ":431,"ĠxÄ«":432,"huÃ¬Ġ":433,"ÇĲnĠ":434,"ĠzhÃ¨ngĠ":435,"jiÃłnĠ":436,"ĠjiÃłnĠ":437,"jÅ«nĠ":438,"ĠbÃ¨iĠ":439,"iÇİo":440,"ĠzhÃłnĠ":441,"ĠduÃ¬Ġ":442,"fÄģngĠ":443,"jÄ«":444,"ĠjÄ«":445,"ĠzuÃ²":446,"ĠshÃłngĠ":447,"li":448,"ãĢĮ":449,"ãĢį":450,"zuÃ²":451,"uÄģngĠ":452,"ĠlÇĲ":453,"ĠchÅ«":454,"xiÃłnĠ":455,"huÃł":456,"ĠdÃłnĠ":457,"ĠzhÇĶ":458,"yÇĶ":459,"duÃ¬Ġ":460,"hÃº":461,"zhÄ«":462,"ĠtÃ³ngĠ":463,"ĠkÃ¨":464,"ĠyÄ«nĠ":465,"ĠwÃ©iĠ":466,"shÃłngĠ":467,"ĠlÃ¡iĠ":468,"mÃŃngĠ":469,"ĠÃ©r":470,"ÇĲĠy":471,"ĠÄĽr":472,"ĠshÃ¨":473,"xÄ«nĠ":474,"ĠshÃ¹":475,"hÃ³":476,"ĠjiÄģnĠ":477,"zhÃ¨":478,"ĠzhÅįu":479,"hÃ²uĠ":480,"ĠjÃ¬nĠ":481,"iÇİnĠ":482,"ĠzÃ¬Ġ":483,"hÃ©nĠ":484,"qÅ«":485,"ĠfÃ¹":486,"shÃ¨":487,"Ã¨r":488,"ĠnÃ¡nĠ":489,"ĠyÃŃ":490,"uÃŃ":491,"rÃ¨nĠ":492,"bÃ¨iĠ":493,"ĠpÃŃngĠ":494,"fÄģ":495,"yÇĲ":496,"iÃ¡o":497,"dÃło":498,"xÄ«":499,"ĠxÄ«nĠ":500,"sÄ«":501,"ĠxiÃł":502,"ĠdÃłiĠ":503,"chÅ«":504,"hÃ²ngĠ":505,"ĠfÄĵnĠ":506,"yÃ³u":507,"ĠrÃ¨nĠ":508,"niÃ¡nĠ":509,"ĠfÄģ":510,"uÃłngĠ":511,"ĠxiÄģngĠ":512,"shÃ¹":513,"ĠhuÃ²":514,"dÃłiĠ":515,"Çļ":516,"ĠmÄĽiĠ":517,"ĠjÄ«ngĠ":518,"ĠguÄģnĠ":519,"ĠqiÃ¡nĠ":520,"zhÃłnĠ":521,"ĠlÄģ":522,"zhÇĶ":523,"ĠsuÇĴ":524,"jÄ«ngĠ":525,"uÄĵ":526,"shÄĵngĠ":527,"00":528,"ĠduÅį":529,"bÄĽnĠ":530,"ĠzuÃ¬Ġ":531,"ĠfÇİ":532,"qÃŃ":533,"ĠyÃ¡nĠ":534,"ĠjiÃło":535,"ĠzhÃŃ":536,"zhÃ¹":537,"ĠshÇĴu":538,"ĠliÃ¡nĠ":539,"xuÃ©":540,"yÃŃ":541,"ĠgÄģiĠ":542,"ĠtÃ¨":543,"ĠkÄĽ":544,"ĠlÃ¹":545,"uÇĲ":546,"hÃ³ngĠ":547,"ĠjiÄģngĠ":548,"ĠmÇİ":549,"shÇĲ":550,"ĠlÃ¡nĠ":551,"jÃ¬nĠ":552,"lÇĲ":553,"ĠhÃ²u":554,"ĠdiÃłnĠ":555,"ĠjÃ¹":556,"xiÃłngĠ":557,"wÃ©nĠ":558,"dÃ©":559,"zÃ¬Ġ":560,"ĠdÃ²ngĠ":561,"ĠyÄĽ":562,"iÄĽ":563,"ĠzhÃ¹":564,"ĠxÃ¬Ġ":565,"huÃ¡":566,"ĠluÃ³":567,"nÃ¡nĠ":568,"ĠcÃ¬Ġ":569,"mÃŃnĠ":570,"fÇİ":571,"deĠ":572,"guÄģnĠ":573,"xiÃł":574,"ĠfÃº":575,"kÇĴu":576,"ÇİoĠ":577,"19":578,"enĠ":579,"ĠmÃŃnĠ":580,"ĠquÃ¡nĠ":581,"ĠjÅ«nĠ":582,"ĠjiÃ©":583,"ĠzhÇĴngĠ":584,"pÃŃngĠ":585,"dÃ²ngĠ":586,"ĠqiÃº":587,"yÃ²ngĠ":588,"gÃ¨":589,"quÃ¡nĠ":590,"ĠdÃ¬ngĠ":591,"ĠxiÃłngĠ":592,"mÄĽiĠ":593,"ĠsÃłiĠ":594,"tÄģ":595,"ĠĠĠ20":596,"ĠqÄ«":597,"zhÅįu":598,"ĠyÃło":599,"ĠdÅįngĠ":600,"kÄģiĠ":601,"ĠwÃ¹":602,"ĠbÄĽiĠ":603,"ĠgÄģo":604,"yÄ«nĠ":605,"ĠkÄģiĠ":606,"ĠniÃ¡nĠ1":607,"wÃ¹":608,"ĠjÄ«nĠ":609,"zhÃŃ":610,"ĠkÄĵ":611,"chÃ¡ngĠ":612,"jiÄģngĠ":613,"chÃ¡":614,"ĠbÄĽnĠ":615,"ÃŃĠ":616,"ĠwÃ©nĠ":617,"ĠmÃ¹":618,"jÃ¹":619,"ĠbÄģ":620,"ĠhuÃ¡":621,"zhÃ¨nĠ":622,"ĠnÃ©ngĠ":623,"ĠdÄģngĠ":624,"jiÃ©":625,"ĠdeĠ":626,"ĠjiÄĵ":627,"ĠyÃ¹":628,"ĠchÄĵ":629,"ĠxÃ¬ngĠ":630,"ĠliÃº":631,"ĠyÃł":632,"ĠyuÃłnĠ":633,"lÇĲĠ":634,"miÃłnĠ":635,"huÃ²":636,"hÇİiĠ":637,"ĠsÄģnĠ":638,"ĠzÃ©":639,"ĠlÃŃnĠ":640,"lÃ¹":641,"Ġ2":642,"ĠqÅ«":643,"dÃ¹":644,"diÃłnĠ":645,"gÃ²ngĠ":646,"ĠtÅįngĠ":647,"ĠzhÇĲ":648,"fÃ¹":649,"ziĠ":650,"ĠjuÃ©":651,"ĠyuÃ¨Ġ1":652,"shÇĴu":653,"yÃ¨":654,"Çľ":655,"yuÃ¨":656,"ÃºĠ":657,"lÃ¡iĠ":658,"zhÇİngĠ":659,"tÇĴngĠ":660,"ĠhuÃł":661,"xiÄģngĠ":662,"ĠdÄĽngĠ":663,"dÅįngĠ":664,"iÄģo":665,"ĠyÄ«ngĠ":666,"hÃ¡iĠ":667,"jiÃ¨":668,"ĠmenĠ":669,"ĠzhÇİngĠ":670,"ĠshÄ«":671,"nÃ¨iĠ":672,"fÇĶ":673,"ĠxiÇİo":674,"tÃ¡iĠ":675,"ĠgÃ©":676,"ĠguÃ²":677,"ĠyÃŃĠgÃ¨":678,"ĠnÃ¨iĠ":679,"ĠliÇİngĠ":680,"bÄĽiĠ":681,"ĠfÃ¨nĠ":682,"biÇİo":683,"jiÃło":684,"Ġ201":685,"yÃ¹":686,"ĠhÇİiĠ":687,"ĠmiÃłnĠ":688,"gÃ©":689,"ĠtÃ¡iĠ":690,"jiÄĵ":691,"guÃ²":692,"ĠwÃłiĠ":693,"iÃ©":694,"rÃ¬Ġ":695,"uÇİngĠ":696,"ĠdÃ¡":697,"qiÃº":698,"xÃ¬Ġ":699,"jiÄģnĠ":700,"1ĠniÃ¡nĠ":701,"yÃ¡nĠ":702,"Ġqi":703,"ĠcÃ©ngĠ":704,"gÄģo":705,"sÃ¬Ġ":706,"5ĠniÃ¡nĠ":707,"0ĠniÃ¡nĠ":708,"ĠshÄģnĠ":709,"suÇĴ":710,"ĠshÃ²u":711,"2ĠniÃ¡nĠ":712,"ĠshÇĲ":713,"ĠxiÄĵ":714,"dÄĽngĠ":715,"ĠwÃ¡ngĠ":716,"ĠfÄģngĠ":717,"ĠdÄģnĠ":718,"ĠyuÃ¨Ġ2":719,"chÇİngĠ":720,"Ġ3":721,"ĠcÇĲ":722,"qÄ«":723,"4ĠniÃ¡nĠ":724,"tÃ³ngĠ":725,"sÄģnĠ":726,"ĠchÇİngĠ":727,"ĠxiÃło":728,"8ĠniÃ¡nĠ":729,"zuÃ¬Ġ":730,"chÄĵngĠ":731,"ĠwÇĶ":732,"zhÇĲ":733,"ĠrÃ¹":734,"duÅį":735,"ĠchÃ¡":736,"ĠshÄĽngĠ":737,"qiÃ¡nĠ":738,"shÄģnĠ":739,"fÄĵnĠ":740,"liÃ¡nĠ":741,"ĠkuÃ²":742,"ĠfÄĵiĠ":743,"ĠsÃ¬Ġ":744,"xÃ¬ngĠ":745,"ĠtiÄģnĠ":746,"3ĠniÃ¡nĠ":747,"ĠyuÄĵ":748,"yÃł":749,"zhÃ²ngĠ":750,"gÇİngĠ":751,"ĠlÃ¬ngĠ":752,"ĠzÇĴngĠ":753,"ĠbiÇİo":754,"ÇĲĠyÃ²ngĠ":755,"jÄ«nĠ":756,"6ĠniÃ¡nĠ":757,"ĠyÃ¹nĠ":758,"fÃº":759,"ĠjiÃ¹":760,"ĠmÃ©iĠ":761,"ĠgÄĵ":762,"ĠqÄ«ngĠ":763,"kÄĽ":764,"qÅ«Ġ":765,"ĠzhÅįngĠguÃ³":766,"Ġ200":767,"ĠguÇİnĠ":768,"yÄĽ":769,"wÄĽiĠ":770,"dÄģnĠ":771,"ĠyÇİnĠ":772,"ĠzÇĶ":773,"ĠbÇĲ":774,"ĠbÃ³":775,"7ĠniÃ¡nĠ":776,"ĠtÃłiĠ":777,"mÇİ":778,"zhÄĽ":779,"chÄĵ":780,"ĠliÃłngĠ":781,"ĠyÃ²ngĠ":782,"ĠqÃ¬Ġ":783,"shÄĽngĠ":784,"kÃ¨":785,"ĠtÃŃ":786,"ĠgÇĶ":787,"ĠzhÄĽ":788,"hÃ¡nĠ":789,"rÃ¹":790,"ĠshÇĶ":791,"shÃŃĠ":792,"or":793,"ÃłoĠ":794,"wÃłiĠ":795,"dÇİo":796,"ĠzhÃ²ngĠ":797,"ĠfÄĵngĠ":798,"ĠcÃ³ngĠ":799,"xÄ«ngĠ":800,"er":801,"ĠgÃ²ngĠ":802,"ĠnÃł":803,"ĠwÃº":804,"yÇĲngĠ":805,"wÇĶ":806,"ĠshÄĵnĠ":807,"uÃłiĠ":808,"sÃłiĠ":809,"ĠyÃ²u":810,"cÇĲ":811,"bÃ¬ngĠ":812,"qÃ¬Ġ":813,"ĠdÇİo":814,"ĠĠĠ19":815,"qi":816,"ÄģoĠkuÃ²":817,"ĠchÃŃ":818,"tÇĲ":819,"ĠrÃ©nĠkÇĴu":820,"ĠxuÇİnĠ":821,"shÄĵnĠ":822,"qÇĲ":823,"fÄĵngĠ":824,"ĠnÇļ":825,"ĠchÃ¡ngĠ":826,"zÃ©":827,"ĠnÃŃ":828,"wÇİngĠ":829,"tiÄģnĠ":830,"ĠbÃłnĠ":831,"ĠrÃ¡nĠ":832,"yÃ¡ngĠ":833,"jÃ¬ngĠ":834,"tÃŃ":835,"tÃłiĠ":836,"ĠbÅį":837,"zÇĶ":838,"ĠshÃŃĠ":839,"ĠbiÃłnĠ":840,"liÃ¨":841,"ĠshÃ¨ngĠ":842,"chÇİnĠ":843,"mÃ¹":844,"wÄģnĠ":845,"ĠwÃłnĠ":846,"diÇİnĠ":847,"ĠzhÄģngĠ":848,"ĠhÃło":849,"9ĠniÃ¡nĠ":850,"ĠluÃ²":851,"ĠwÃ¨iĠyÃº":852,"ĠgÇİiĠ":853,"jiÄģo":854,"Ġ4":855,"ĠdÃ¹":856,"ĠgÃ²u":857,"xuÇİnĠ":858,"ĠmÄĽiĠguÃ³":859,"ĠliÃ¨":860,"ĠlÃŃ":861,"ĠcÄģnĠ":862,"âĢ":863,"Ġ5":864,"ĠchÄĵngĠ":865,"dÄģngĠ":866,"Ġ18":867,"ĠzhÇİnĠ":868,"shÅ«":869,"Ã¨ngĠ":870,"nÃ©ngĠ":871,"ĠziĠ":872,"guÇİnĠ":873,"dÃ¬ngĠ":874,"qÄ«ngĠ":875,"bÅį":876,"ĠzÄ«":877,"ĠbÃ¬Ġ":878,"ĠkÇİ":879,"yÄ«ngĠ":880,"ĠyÃ¨":881,"juÃ©":882,"ĠjiÄģo":883,"dÇİngĠ":884,"ĠmÃ³":885,"ĠjÃ¬ngĠ":886,"kÄĵ":887,"uÄģ":888,"ĠshÅ«":889,"ĠtuÃ¡nĠ":890,"zhÄĵngĠ":891,"aĠ":892,"ĠrÃº":893,"ĠpÇĶ":894,"lÃŃnĠ":895,"ĠgÄĵnĠ":896,"nÃł":897,"tÃ¨":898,"ĠchuÃ¡nĠ":899,"shÃ²u":900,"ĠlÇľ":901,"biÄģnĠ":902,"ĠqÃŃĠzhÅįngĠ":903,"jÄ«Ġ":904,"yÃŃĠgÃ¨":905,"tĠ":906,"liÃº":907,"ĠbÇİnĠ":908,"yÃ¹nĠ":909,"ĠxiÄģnĠ":910,"yÃ¬ngĠ":911,"shÇĶ":912,"yÃło":913,"xiÇİo":914,"biÃłnĠ":915,"ĠbÇİo":916,"ĠlÃºnĠ":917,"ĠjÇĲnĠ":918,"fÄĵiĠ":919,"ĠwÄĽiĠ":920,"bÄģ":921,"tÅįngĠ":922,"ĠwÄĵiĠ":923,"mÃ©iĠ":924,"cÃ¬Ġ":925,"rÃ³ngĠ":926,"ĠduÃłnĠ":927,"xiÇİngĠ":928,"yÇİnĠ":929,"ĠÄģ":930,"ĠbiÄģnĠ":931,"chÃ¡o":932,"ĠmÃ©nĠ":933,"ĠbÃ¹ĠfÃ¨nĠ":934,"ĠqÇĶ":935,"ĠtÇĲ":936,"ĠpÇĲnĠ":937,"bÃło":938,"bÃ¹Ġ":939,"ĠtÃ³u":940,"wÃ¡ngĠ":941,"ĠtiÃ¡o":942,"ĠtÄģĠmenĠ":943,"zÃº":944,"ĠjiÃ¨":945,"ĠzÃº":946,"qiÄģnĠ":947,"ar":948,"ĠfÅ«":949,"ĠfÇİnĠ":950,"cÄģnĠ":951,"gÇĶ":952,"ĠlÃ³ngĠ":953,"bÃ¬Ġ":954,"ĠshÄģ":955,"ĠmÃ¬Ġ":956,"xÃ¹":957,"Ġ6":958,"zÇĴngĠ":959,"liÃłngĠ":960,"ĠguÄ«":961,"jiÅ«":962,"ĠpÃŃngĠfÄģngĠ":963,"jÇĲngĠ":964,"ĠshuÅį":965,"bÇİo":966,"ĠhuÃ¡ngĠ":967,"ĠqÄ«nĠ":968,"ĠtÃ¡ngĠ":969,"ĠfÃ¡ngĠ":970,"ĠsÄ«Ġ":971,"ĠhÃ©Ġ":972,"ĠchÃ©nĠ":973,"ĠyÇĲngĠ":974,"pÃ¡iĠ":975,"ĠguÇİngĠ":976,"jiÃ¹":977,"an":978,"wÃº":979,"huÃ³":980,"ĠshÄģngĠ":981,"ĠsÃ¹":982,"ĠdiÇİnĠ":983,"ĠyÃ¡ngĠ":984,"ĠzhÄ«Ġ":985,"ĠxÃŃ":986,"chuÃ¡nĠ":987,"lÇĲngĠ":988,"ĠshÃ©nĠ":989,"ĠbÃło":990,"yÃŃngĠ":991,"tÃ³u":992,"shÄ«":993,"jÇĲ":994,"ĠjiÇİnĠ":995,"ĠyÇĲĠjÃŃ":996,"bÇĲ":997,"dÅįu":998,"ĠdÅįu":999,"ĠmÇĲĠ":1000,"ĠlÃ¨iĠ":1001,"ĠxÄ«ngĠ":1002,"shÇĲĠ":1003,"ĠmÃ²":1004,"shuÇĲ":1005,"ĠbÄģoĠkuÃ²":1006,"ĠbiÄģo":1007,"ĠĠĠ201":1008,"ĠguÃ³ĠjiÄģ":1009,"ĠshuÇĲ":1010,"jÇĶ":1011,"ĠqÇĲ":1012,"ĠcÃ¡iĠ":1013,"ĠĠĠzÃłiĠ":1014,"xiÃło":1015,"cÃ©ngĠ":1016,"ĠguÇĴ":1017,"zhÅįngĠguÃ³":1018,"ĠtÃŃngĠ":1019,"sÄ«Ġ":1020,"wÃ¹Ġ":1021,"ĠqiÄģnĠ":1022,"kÅįngĠ":1023,"eĠĠĠ":1024,"sÃ¹":1025,"ĠtÃº":1026,"ĠyÄ«Ġ":1027,"cÃ¨":1028,"ĠqÃŃĠtÄģ":1029,"Ġ199":1030,"mÄĽiĠguÃ³":1031,"bÃłnĠ":1032,"ĠsÃ¨":1033,"ĠjiÇĶ":1034,"eĠ":1035,"ĠzhuÄģngĠ":1036,"ĠzhÃ¨nĠ":1037,"201":1038,"ĠqÃŃngĠ":1039,"ĠchÃ©ngĠwÃ©iĠ":1040,"ĠbÄģnĠ":1041,"ĠÄģnĠ":1042,"ĠchÃ¹":1043,"huÃłĠ":1044,"ĠwÃ¡nĠ":1045,"ĠwÇİngĠ":1046,"ĠgÃ¹":1047,"ĠchÇİnĠ":1048,"lÃ¨iĠ":1049,"ĠrÃ¬ĠbÄĽnĠ":1050,"ĠzhuÄģnĠ":1051,"zÃło":1052,"ĠrÃ©nĠmÃŃnĠ":1053,"nÃŃ":1054,"Ã¡Ġ":1055,"ĠmÇĶ":1056,"liÇİngĠ":1057,"ĠdÃº":1058,"bÄģnĠ":1059,"ĠjiÄĽ":1060,"ĠdÃłoĠ":1061,"ĠjÃŃĠ":1062,"ĠchÃº":1063,"sĠ":1064,"ĠcÃŃ":1065,"ĠsuÃ¬Ġ":1066,"ĠwÇİ":1067,"ĠxiÄģo":1068,"yuÃłnĠ":1069,"ĠwÃ¹Ġ":1070,"ĠjiÇİngĠ":1071,"shÄģ":1072,"ĠyÇĲnĠ":1073,"zuÃ²Ġ":1074,"gÄģiĠ":1075,"ĠshÇĲĠyÃ²ngĠ":1076,"ĠshÃ¬ĠyÄ«":1077,"ĠfÃłnĠ":1078,"shÃ¨ngĠ":1079,"Ġ10":1080,"ĠmÇĲ":1081,"tÃº":1082,"gÇİiĠ":1083,"cÃ³ngĠ":1084,"nĠĠĠ":1085,"fÃ¨nĠ":1086,"ĠqÅ«Ġ":1087,"ĠlÇĲngĠ":1088,"ĠsuÃŃ":1089,"ĠlÃ¹nĠ":1090,"ĠzhÄĵnĠ":1091,"ĠzhÇĶĠyÃło":1092,"ĠlÃ©iĠ":1093,"zhÄģngĠ":1094,"ĠyÇĶĠ":1095,"ĠtÄģĠde":1096,"lÇľ":1097,"fÇİnĠ":1098,"mÃ©ngĠ":1099,"ĠjÇĲngĠ":1100,"huÃŃ":1101,"qÃŃngĠ":1102,"ĠxiÃ©":1103,"hÃ©ĠguÃ³":1104,"ĠbiÃ©":1105,"ĠgÃ¨ngĠ":1106,"ĠwÅ«":1107,"piÃłnĠ":1108,"ti":1109,"ĠmÃłnĠ":1110,"ĠhuÃŃ":1111,"ĠkÄĽĠyÇĲ":1112,"ĠyÃ³uĠyÃº":1113,"zhuÄģngĠ":1114,"qÇĶ":1115,"ĠkÇĴu":1116,"hÃ©Ġ":1117,"ĠzhÇĶnĠ":1118,"zhÃ¨ngĠfÇĶ":1119,"rÃ¡nĠ":1120,"ĠjiÃł":1121,"luÃ²":1122,"dÃłĠxuÃ©":1123,"yuÄĵ":1124,"huÃ¡ngĠ":1125,"Ġ7":1126,"ĠhÄģ":1127,"ĠlÇĲĠ":1128,"ĠhÃ¡iĠ":1129,"Ġ202":1130,"lÃ³ngĠ":1131,"Ġã":1132,"ĠxÃ¹":1133,"ĠsÃł":1134,"tiÄĽ":1135,"bÃ³":1136,"ul":1137,"ĠxiÄģngĠgÇİngĠ":1138,"ĠshÅįu":1139,"shÄģngĠ":1140,"pÇĶ":1141,"hÃ³u":1142,"shÃ©nĠ":1143,"ĠbÃ¹Ġ":1144,"Ġ8":1145,"ĠshÃ¬ĠzhÃ¨nĠ":1146,"ĠmÃ¬ngĠ":1147,"jÃ¹Ġ":1148,"ĠzÅįngĠ":1149,"2Ġ":1150,"ĠsÅ«":1151,"ĠÃło":1152,"lÃ¹Ġ":1153,"ĠbÄ«ngĠ":1154,"rÃº":1155,"ĠtÇİ":1156,"yÄģngĠ":1157,"âĢĶ":1158,"ĠtiÄĽ":1159,"gÄĵ":1160,"ĠC":1161,"xiÃ©":1162,"ĠzhÄĵngĠ":1163,"ĠxÅ«":1164,"lÃŃngĠ":1165,"200":1166,"ĠtuÅį":1167,"zÄ«":1168,"xÃ¬nĠ":1169,"cÃ¡iĠ":1170,"yuÃ¡nĠhuÃ¬Ġ":1171,"wÄĵiĠ":1172,"ĠbÃłiĠ":1173,"in":1174,"ĠchÅ«Ġ":1175,"ĠzhÃ¨ngĠzhÃ¬Ġ":1176,"Ġ15":1177,"guÇİngĠ":1178,"ĠjiÄģĠ":1179,"dÃ¡":1180,"mÃ²":1181,"ĠqiÃ¡ngĠ":1182,"quÃ¨":1183,"ĠshÃ¬ĠjÃ¬Ġ":1184,"1Ġ":1185,"cÅ«nĠ":1186,"nÇļ":1187,"ĠS":1188,"ĠguÄģngĠ":1189,"ĠchÃ³ngĠ":1190,"kuÃłngĠ":1191,"tÃŃngĠ":1192,"ĠjiÇİ":1193,"Ġ198":1194,"ĠcÃ¨":1195,"ĠdÃłĠxuÃ©":1196,"jÃŃĠ":1197,"jÃ¬nĠxÃŃngĠ":1198,"shuÅį":1199,"ĠchuÃłngĠ":1200,"al":1201,"ĠhÃ¡nĠ":1202,"ĠrÃ³ngĠ":1203,"ĠÃ¨r":1204,"biÃ©":1205,"ĠxiÇİngĠ":1206,"wÃ¨iĠyÃº":1207,"sÃ¨":1208,"ĠlÄĵiĠ":1209,"ĠmÃ©ngĠ":1210,"fÃłnĠ":1211,"wÃ¡nĠ":1212,"ĠhÃłnĠ":1213,"ĠchÇĶ":1214,"bÄ«ngĠ":1215,"mÃ©nĠ":1216,"jiÇİngĠ":1217,"ĠpÃ¨iĠ":1218,"ĠĠĠdÃ¬Ġ":1219,"ĠlÃŃngĠ":1220,"ĠdÇİngĠ":1221,"xÅ«":1222,"ĠfÃ¨iĠ":1223,"ĠlÇĶ":1224,"ĠA":1225,"ĠzhÃło":1226,"ĠqÃ¹":1227,"mÇĲĠ":1228,"mÃ¬ngĠ":1229,"en":1230,"xiÄģnĠ":1231,"ĠlÃ¹Ġ":1232,"deĠyÄ«":1233,"ĠfÃłngĠ":1234,"Ġ9":1235,"ĠdÃŃ":1236,"ĠshÄ«Ġ":1237,"ĠlÃ¨":1238,"zhÄ«Ġ":1239,"jiÃł":1240,"iÃłoĠ":1241,"ĠliÃ¡ngĠ":1242,"0Ġ":1243,"zhÃło":1244,"dÃº":1245,"hÃłiĠ":1246,"ĠpÃłiĠ":1247,"gÅįngĠlÇĲĠ":1248,"ĠxÇĶ":1249,"ĠjÃ¬nĠxÃŃngĠ":1250,"zhÄĵnĠ":1251,"ĠxÃ¬nĠ":1252,"tuÃ¡nĠ":1253,"luÃ³":1254,"ĠtÃ¡iĠwÄģnĠ":1255,"guÄ«":1256,"ĠqiÃ¡o":1257,"ĠyÄ«nĠcÇĲ":1258,"jÃº":1259,"jiÇİnĠ":1260,"ĠzÇĲ":1261,"ĠdeĠyÄ«":1262,"Ġ16":1263,"orm":1264,"ĠzhuÇİnĠ":1265,"ĠchÄģo":1266,"ĠdÃ¬ĠyÄ«":1267,"ĠxÃŃngĠzhÃ¨ngĠ":1268,"shÇĲĠyÃ²ngĠ":1269,"yÇĲnĠ":1270,"ĠyÃ¡nĠjiÅ«":1271,"ĠkÃ¨Ġ":1272,"ĠyÃłngĠ":1273,"ĠjÃº":1274,"ĠxÃ¹nĠ":1275,"ĠcÇİiĠ":1276,"ĠbÇİiĠ":1277,"jiÄĽ":1278,"dÃ¹Ġ":1279,"ĠlÃ¬ĠyÃł":1280,"chÃŃ":1281,"ĠquÃ¨":1282,"ĠyÃ¬ngĠ":1283,"dÇİ":1284,"ĠjÇĶ":1285,"ĠzhÃ¨ngĠfÇĶ":1286,"jÇĲnĠ":1287,"ĠyÃŃngĠ":1288,"fÃłngĠ":1289,"ĠliÃ¹":1290,"ĠzhÅ«":1291,"zhuÃłngĠ":1292,"ĠxiÅ«":1293,"Ġge":1294,"tÃ¡ngĠ":1295,"biÄģo":1296,"ĠyÃ¹nĠdÃ²ngĠ":1297,"jiÇĶ":1298,"zhuÄģnĠ":1299,"Ġ12":1300,"ĠxuÄģnĠ":1301,"huÃ²ĠdÃ©":1302,"yÃ²u":1303,"qiÃ¡ngĠ":1304,"ĠyÄ«nĠwÃ¨iĠ":1305,"ĠfÇĶ":1306,"chuÄģnĠ":1307,"ĠbÃ¡iĠ":1308,"chÃ©nĠ":1309,"bÇİnĠ":1310,"ĠM":1311,"ĠtÃ³ngĠshÃŃ":1312,"ĠwÇĴ":1313,"gÃ²u":1314,"ĠxÄ«Ġ":1315,"shÃ¬ĠjiÃ¨":1316,"ĠdiÃłnĠyÇĲngĠ":1317,"am":1318,"rÃ©nĠkÇĴu":1319,"ĠsÄģiĠ":1320,"ĠdÃ¬ĠÃ¨r":1321,"chÃ³ngĠ":1322,"ulaĠ":1323,"zÅįngĠ":1324,"ĠcÅ«nĠ":1325,"tÄ«ngĠ":1326,"ĠhuÃ²ĠdÃ©":1327,"ĠyÇĴngĠ":1328,"ormulaĠ":1329,"5ĠrÃ¬Ġ":1330,"ĠkÅįngĠ":1331,"3Ġ":1332,"ĠpÃ¡iĠ":1333,"yÃ¡":1334,"on":1335,"ĠkÄģiĠshÇĲ":1336,"ĠtiÃ¡nĠ":1337,"8ĠrÃ¬Ġ":1338,"ĠyÃ¬nĠ":1339,"Ġ11":1340,"chÃº":1341,"ĠzuÃ²ĠwÃ©iĠ":1342,"ĠhuÄ«":1343,"ĠzÄĵngĠ":1344,"pÇĲnĠ":1345,"ĠhuÇĴ":1346,"zhÇĴngĠ":1347,"niÃłnĠ":1348,"ĠzhÅįngĠhuÃ¡":1349,"ĠnuÃ²":1350,"yÇĶĠ":1351,"rÃ¬ĠbÄĽnĠ":1352,"ĠÃłiĠ":1353,"ĠhÄĽnĠ":1354,"ĠtuÄ«":1355,"ĠniÃ¡nĠ12":1356,"Ġ17":1357,"jÅ«":1358,"xÄ«Ġ":1359,"wÅ«":1360,"xiÇİnĠ":1361,"ĠhuÃ¡nĠ":1362,"ĠwÃłngĠ":1363,"ĠqÄ«Ġ":1364,"tiÃ¡o":1365,"Ġ194":1366,"gÇİnĠ":1367,"ĠqiÄĽ":1368,"zhuÇİnĠ":1369,"gÃ²ngĠhÃ©ĠguÃ³":1370,"chÃ©ngĠwÃ©iĠ":1371,"ĠchÄĵĠzhÃłnĠ":1372,"ĠkÄĽĠnÃ©ngĠ":1373,"mÃ¬Ġ":1374,"lÃ¹nĠ":1375,"ĠlÇļ":1376,"mÇĶ":1377,"ĠtÇĴngĠ":1378,"ĠhÄĵiĠ":1379,"ĠqÃºnĠ":1380,"xÃ¹nĠ":1381,"bÄģo":1382,"bÄģngĠ":1383,"Ġni":1384,"yÃ¨Ġ":1385,"ĠmÃłiĠ":1386,"ĠrÃ¨nĠwÃ©iĠ":1387,"xiÅ«":1388,"ĠmÃ©iĠyÇĴu":1389,"bÃ¡iĠ":1390,"ĠĠĠS":1391,"gÅįngĠsÄ«":1392,"ĠwÃ¨nĠ":1393,"xuÄģnĠ":1394,"ĠchÃ¡o":1395,"ĠluÃ³ĠsÄ«":1396,"guÄģngĠ":1397,"ĠpÃŃngĠfÄģngĠgÅįngĠlÇĲĠ":1398,"ĠdÅ«":1399,"ĠpÃ²":1400,"ĠjÄ«Ġ":1401,"ou":1402,"ĠzhÃ¨ĠxiÄĵ":1403,"ĠtÃ¨Ġ":1404,"ĠdÇİ":1405,"ĠjÃ¹Ġ":1406,"20ĠniÃ¡nĠ":1407,"lÄģ":1408,"ĠxÃºnĠ":1409,"kÄģiĠshÇĲ":1410,"mÃ©iĠyÇĴu":1411,"sÅ«":1412,"deĠyÃŃĠgÃ¨":1413,"ĠjÅ«":1414,"ĠgÃłiĠ":1415,"ĠÃłnĠ":1416,"6ĠrÃ¬Ġ":1417,"ĠguÃ³ĠjÃ¬Ġ":1418,"ĠniÃ¡nĠ10":1419,"4ĠrÃ¬Ġ":1420,"rÃ¨nĠwÃ©iĠ":1421,"5Ġ":1422,"ĠjiÃłngĠ":1423,"ĠpÄ«":1424,"1ĠrÃ¬Ġ":1425,"10":1426,"Ġ197":1427,"7ĠrÃ¬Ġ":1428,"ĠtÃ¡o":1429,"lÃ¡nĠ":1430,"ĠĠĠlÃ¬Ġ":1431,"Ã¼":1432,"chÇĶ":1433,"ĠdÄģngĠshÃŃ":1434,"30":1435,"ĠhuÃ³":1436,"hÃ¡o":1437,"ĠdÃłiĠbiÇİo":1438,"ĠzhÄĽngĠ":1439,"ĠdÄĵngĠ":1440,"qiÄĽ":1441,"leĠ":1442,"pÃłiĠ":1443,"ĠyÃłnĠ":1444,"ĠyÇĲĠ":1445,"ĠhÃ²uĠ":1446,"ĠcÃºnĠ":1447,"kÇİ":1448,"fÃ¡ngĠ":1449,"mÃ³":1450,"4Ġ":1451,"ĠĠĠ202":1452,"ĠshuÄģngĠ":1453,"3ĠrÃ¬Ġ":1454,"ĠshÃ¬ĠjiÃ¨":1455,"ĠB":1456,"ĠzuÃ²Ġ":1457,"sĠĠĠ":1458,"ĠgÇİnĠ":1459,"yÃ¹Ġ":1460,"mÃłiĠ":1461,"duÃłnĠ":1462,"chuÃłngĠ":1463,"ĠfÇİĠguÃ³":1464,"ĠdiÃło":1465,"at":1466,"cÃŃ":1467,"ĠgÄģngĠ":1468,"ĠzÇİo":1469,"ĠĠĠ200":1470,"shÅįu":1471,"ĠjÇĲ":1472,"jiÇİ":1473,"Ġ195":1474,"ÄĽrĠ":1475,"ĠtÄ«ngĠ":1476,"zÇĲ":1477,"wÃ¨nĠ":1478,"ĠchÃ©ngĠshÃ¬Ġ":1479,"ĠxiÇİnĠ":1480,"ĠbÄ«nĠ":1481,"ĠyÃ³uĠxÃ¬Ġ":1482,"000":1483,"ĠsÃ²ngĠ":1484,"ĠT":1485,"ĠyÄ«ngĠguÃ³":1486,"ĠhÃº":1487,"dÃłnĠ":1488,"ĠbiÇİoĠshÃ¬Ġ":1489,"ï¼":1490,"huÃ¡nĠ":1491,"ĠpiÃłnĠ":1492,"ĠyÇĲngĠxiÇİngĠ":1493,"ĠsÄĵnĠ":1494,"ĠguÃłnĠ":1495,"cÃºnĠ":1496,"ĠĠĠshÄĵngĠ":1497,"ĠmÃ¹Ġ":1498,"ĠfÄģĠzhÇİnĠ":1499,"st":1500,"zÄĵngĠ":1501,"fÃ¨iĠ":1502,"uÇĲĠ":1503,"18":1504,"dÃłiĠbiÇİo":1505,"ĠdÃ¹nĠ":1506,"lÃŃ":1507,"ĠyÃ¹Ġ":1508,"xiÄģngĠgÇİngĠ":1509,"ĠxiÃ¡":1510,"pÃ¨iĠ":1511,"ĠnÃ³ngĠ":1512,"gÃ¹":1513,"diÃło":1514,"ĠI":1515,"ĠlÃ³u":1516,"ĠlÃº":1517,"ĠniÃ¡nĠ11":1518,"fÇİĠ":1519,"ĠlÇİngĠ":1520,"ĠtÄģĠzÃłiĠ":1521,"zhÇİnĠ":1522,"chÃ¹":1523,"ĠshÃ¨ĠhuÃ¬Ġ":1524,"shÃ¹Ġ":1525,"huÃłnĠ":1526,"dÃ¬ĠqÅ«":1527,"ĠrÃłngĠ":1528,"ĠzÃło":1529,"ĠhuÃłnĠ":1530,"Ġ196":1531,"tuÄ«":1532,"ĠhÃ³ngĠ":1533,"ni":1534,"ÅįuĠzhÅįu":1535,"ĠbÄĵiĠ":1536,"ÇİoĠhÃ¹":1537,"chÅ«Ġ":1538,"fÇİĠguÃ³":1539,"0ĠniÃ¡nĠdÃłiĠ":1540,"pÃłnĠ":1541,"xiÄģo":1542,"ĠzuÃ¬ĠzhÅįngĠ":1543,"tÇĶ":1544,"ĠtÃ³ngĠniÃ¡nĠ":1545,"202":1546,"tiÃ¡nĠ":1547,"Ã©ĠluÃ³ĠsÄ«":1548,"bÃ¡":1549,"ĠtÇİnĠ":1550,"zhÅįngĠxÄ«nĠ":1551,"ĠshÃ¨ĠjÃ¬Ġ":1552,"qÄ«ĠjiÄģnĠ":1553,"jiÃłngĠ":1554,"ĠxiÃłĠ":1555,"ĠgÇİngĠ":1556,"ĠtÅįngĠguÃ²":1557,"ĠkÃ²ngĠ":1558,"ĠzuÇĴ":1559,"gÃ¨ngĠ":1560,"tÄģĠmenĠ":1561,"ĠjiÃłnĠzhÃ¹":1562,"ĠzuÃ²ĠpÇĲnĠ":1563,"dÄĵngĠ":1564,"ĠP":1565,"ĠdÄģnĠrÃ¨nĠ":1566,"dÃ¬ĠyÄ«":1567,"yÇĲĠ":1568,"kÄĽĠyÇĲ":1569,"ri":1570,"ĠdiÃłnĠshÃ¬Ġ":1571,"ĠhuÃłĠ":1572,"ĠrÃ©nĠmÃŃnĠgÃ²ngĠhÃ©ĠguÃ³":1573,"dÃłoĠ":1574,"ĠxiÄĽ":1575,"ĠhuÄģ":1576,"lÃ¬ngĠ":1577,"ĠdÃ¬ĠqÅ«":1578,"ĠĠĠt":1579,"ĠsuÄ«":1580,"bÄģoĠkuÃ²":1581,"tÃ¡iĠwÄģnĠ":1582,"ĠjiÇİo":1583,"ĠxuÃ©ĠyuÃłnĠ":1584,"dÅ«":1585,"ĠkuÃłiĠ":1586,"ĠkÃ¨ĠlÃ¡nĠ":1587,"ĠjÄ«ngĠjÃ¬Ġ":1588,"ÄģoĠqiÃº":1589,"zÇİo":1590,"ĠxÃ¬ĠtÇĴngĠ":1591,"liÃłnĠ":1592,"ĠpiÃło":1593,"ĠdÃ©Ġ":1594,"el":1595,"qiÃ¡o":1596,"sÃ²ngĠ":1597,"suÃŃ":1598,"ĠgÄĽiĠ":1599,"ĠyÄĽĠshÃ¬Ġ":1600,"ĠchÅįngĠ":1601,"ÇĲĠyÃ¹":1602,"ĠD":1603,"ĠgÅįngĠsÄ«":1604,"ĠxÇĶĠduÅį":1605,"Ġ14":1606,"yÃłnĠ":1607,"ĠrÃ¨":1608,"ĠshÇĶĠyÃº":1609,"ro":1610,"huÄģ":1611,"hÃłoĠ":1612,"ĠÄĽrĠ":1613,"shÇİo":1614,"xiÃłĠ":1615,"tuÅį":1616,"lÃºnĠ":1617,"ĠzhÃº":1618,"ĠrÃ¡nĠÃ©r":1619,"ĠshÃ¹Ġ":1620,"ĠnÃ¡":1621,"ĠhÃ²uĠlÃ¡iĠ":1622,"ĠbÃ¹ĠtÃ³ngĠ":1623,"deĠdÃ¬Ġ":1624,"dÃ²u":1625,"ĠyuÃ¨Ġ1ĠrÃ¬Ġ":1626,"ÅįngĠyÇĴu":1627,"Ġ193":1628,"ĠmiÃłnĠjÄ«":1629,"jiÄģĠ":1630,"ĠdÄ«ngĠ":1631,"ĠlÇİo":1632,"huÇĴ":1633,"xÃºnĠ":1634,"6Ġ":1635,"ĠsuÇĴĠyÇĴu":1636,"ĠzhÅįngĠxÄ«nĠ":1637,"ĠshÃ²uĠ":1638,"ĠĠĠC":1639,"ĠruÃ¬Ġ":1640,"ĠdÃłnĠshÃ¬Ġ":1641,"ĠdÇĲ":1642,"bÇİiĠ":1643,"qiÄģnĠmÇĲĠ":1644,"ĠtÇĶ":1645,"ĠgÅįngĠlÇĲĠ":1646,"gÄĵnĠ":1647,"Ġ1Ġ":1648,"liÃ¹":1649,"ĠdeĠyÃŃĠgÃ¨":1650,"ĠleĠ":1651,"shÃŃĠjiÄģnĠ":1652,"cÇİiĠ":1653,"ĠzÃłiĠ19":1654,"tÇĲĠ":1655,"ĠĠĠshÄĵngĠpÃŃngĠ":1656,"ĠbÄģo":1657,"ĠfÄģĠxiÃłnĠ":1658,"ĠchÃ©ngĠlÃ¬Ġ":1659,"ĠbÇĲĠsÃłiĠ":1660,"ĠshÇİo":1661,"ĠsÇĲ":1662,"mÃŃngĠwÃ¨iĠ":1663,"xÃŃ":1664,"ĠyÄ«nĠyuÃ¨":1665,"ĠshÃŃĠjiÄģnĠ":1666,"ĠxiÃ¡nĠ":1667,"jiÇİo":1668,"ĠgÄĵnĠjÃ¹":1669,"Ã¼Ã¨":1670,"ĠhÃ¹":1671,"ĠpÃŃ":1672,"ĠyÃŃnĠ":1673,"chÄģo":1674,"chÃłngĠ":1675,"12":1676,"ĠmÃŃnĠguÃ³":1677,"guÃłnĠ":1678,"ĠdeĠdÃ¬Ġ":1679,"diÃłnĠshÃ¬Ġ":1680,"ĠzhÃ¨Ġge":1681,"gÄĽiĠ":1682,"xÃ¬ĠtÇĴngĠ":1683,"ĠyÄ«ĠxiÄĵ":1684,"ĠkÇİo":1685,"dÄģnĠrÃ¨nĠ":1686,"zhÅ«":1687,"ĠmÃ¡o":1688,"guÃ³ĠjiÄģ":1689,"yÃ¬nĠ":1690,"ĠzhuÃłngĠ":1691,"ĠdÄģngĠdÃ¬Ġ":1692,"ĠzÃ¬ĠjÇĲ":1693,"dÇĲ":1694,"ĠĠĠM":1695,"ĠzuÃ¬ĠhÃ²u":1696,"qÃ¹":1697,"ĠchuÄģnĠ":1698,"ĠliÃłnĠ":1699,"liÃ¡ngĠ":1700,"ol":1701,"fÄģĠxiÃłnĠ":1702,"ĠbÃ¬ngĠqiÄĽ":1703,"19ĠniÃ¡nĠ":1704,"huÄ«":1705,"rÃ©ngĠ":1706,"ĠĠĠde":1707,"7Ġ":1708,"ĠzhÃ¨ngĠshÃ¬Ġ":1709,"gÃło":1710,"gÄģngĠ":1711,"ĠbÃº":1712,"ĠformulaĠ":1713,"zhÄĽĠ":1714,"jÃ¹nĠ":1715,"yÄģ":1716,"yÇĴngĠ":1717,"ic":1718,"ĠhÇİo":1719,"nuÃ²":1720,"kuÃłiĠ":1721,"ĠrÃ©ngĠ":1722,"tÃŃĠ":1723,"yÇİngĠ":1724,"qÄ«nĠ":1725,"zhÇĶĠyÃ¬Ġ":1726,"ĠsuÄ«ĠrÃ¡nĠ":1727,"ĠwÃ©nĠhuÃł":1728,"ĠĠĠlÃ¬ĠshÇĲĠ":1729,"ĠkÃ¹":1730,"ĠwÃ²":1731,"ac":1732,"ĠfÃ¹ĠzÃ©":1733,"ĠruÃ²":1734,"ĠcÇĲĠwÃłiĠ":1735,"ĠnÃŃĠyÃł":1736,"ĠzhÄ«ĠhÃ²u":1737,"deĠshÃ¬Ġ":1738,"re":1739,"zÇİiĠ":1740,"ĠxÃŃĠ":1741,"it":1742,"mÃłnĠ":1743,"biÇİoĠshÃ¬Ġ":1744,"ĠbÄģngĠ":1745,"Ġ13":1746,"ĠdÃ¹Ġ":1747,"zhÄĽngĠ":1748,"tÃ¡nĠ":1749,"ĠzhÅįngĠde":1750,"ĠwÄĵnĠ":1751,"chÃ©ngĠlÃ¬Ġ":1752,"ĠbÃ¬ngĠzÃłiĠ":1753,"ĠmÃ¹ĠqiÃ¡nĠ":1754,"yÃ¹nĠdÃ²ngĠ":1755,"ĠgÄģnĠ":1756,"ĠzhÅįngĠyÄģngĠ":1757,"ĠlÃ¬ĠshÇĲ":1758,"lÇļ":1759,"ĠchÃłngĠ":1760,"ĠmiÃłnĠjÄ«Ġ":1761,"diÃłnĠyÇĲngĠ":1762,"ĠfÃ¹Ġ":1763,"ĠmÇİnĠ":1764,"ĠfÄģnĠ":1765,"yÇĲĠjÃŃ":1766,"fÄģĠshÄĵngĠ":1767,"ĠdÃłoĠle":1768,"zhÃ¨ngĠshÃ¬Ġ":1769,"ĠbÇİ":1770,"dÃ¬ĠÃ¨r":1771,"ĠsÃ¨Ġ":1772,"chÄĵngĠwÃ©iĠ":1773,"11":1774,"ĠtÃŃĠgÅįngĠ":1775,"ĠrÃ©nĠkÇĴuĠmÃ¬Ġ":1776,"ĠkÄģngĠ":1777,"xÇĶ":1778,"wÄĽiĠyuÃ¡nĠhuÃ¬Ġ":1779,"onĠ":1780,"nÃ³ngĠ":1781,"ĠzhĠ":1782,"ĠwÄĽiĠyuÃ¡nĠhuÃ¬Ġ":1783,"ĠpiÄģnĠ":1784,"zhÄ«ĠyÄ«Ġ":1785,"2ĠrÃ¬Ġ":1786,"hÇİo":1787,"ĠxiÅįngĠ":1788,"xiÄĽ":1789,"ĠyÅįu":1790,"ĠzhÅįuĠ":1791,"ĠxiÃłnĠzÃłiĠ":1792,"tÅįngĠguÃ²":1793,"ĠshuÅįĠ":1794,"ĠtuÃ¬Ġ":1795,"ĠjÃ¹nĠ":1796,"et":1797,"dÃ¹nĠ":1798,"qÇĲĠ":1799,"ĠE":1800,"ĠquÃ¡nĠguÃ³":1801,"tÄģĠde":1802,"zhÅįngĠyÄģngĠ":1803,"suÃłnĠ":1804,"ĠgÃ²uĠ":1805,"9ĠrÃ¬Ġ":1806,"shÃ¬Ġde":1807,"dÄ«":1808,"ĠzhÄ«ĠchÃŃ":1809,"50":1810,"ĠchÃ©ngĠyuÃ¡nĠ":1811,"pÃ²":1812,"kÃ¨Ġ":1813,"guÃ³ĠjÃ¬Ġ":1814,"ĠpÃłnĠ":1815,"qÃºnĠ":1816,"ĠhÅ«":1817,"yÃŃnĠ":1818,"dÃŃ":1819,"zhÅįngĠde":1820,"ĠxuÃ©ĠxiÃło":1821,"ĠpÃŃngĠfÄģngĠqiÄģnĠmÇĲĠ":1822,"ĠhÃ¨":1823,"ĠnÃŃngĠ":1824,"kÃłnĠ":1825,"ĠĠĠA":1826,"dÃłĠde":1827,"jiÃ¨Ġ":1828,"mÃ¹Ġ":1829,"ĠyÄģ":1830,"uÄ«Ġ":1831,"8Ġ":1832,"ĠyÃºnĠ":1833,"zÃ¬ĠjÇĲ":1834,"ĠpÃł":1835,"ĠshÃ¬Ġde":1836,"tÇİ":1837,"kÇİo":1838,"il":1839,"ĠshÇĴuĠ":1840,"ĠgÃło":1841,"yuÇİnĠ":1842,"huÃ³ĠdÃ²ngĠ":1843,"ĠyÇİngĠ":1844,"menĠ":1845,"zhÅįuĠ":1846,"guÃ³Ġ":1847,"miÇİnĠ":1848,"yĠ":1849,"ĠbÃ¹ĠguÃ²":1850,"ĠgtĠ":1851,"ĠcÄģnĠjiÄģ":1852,"ĠH":1853,"ĠdeĠshÃ¬Ġ":1854,"Ġ0":1855,"tÃ¡o":1856,"bÃłoĠ":1857,"dÃłĠlÃ¬Ġ":1858,"CĠ":1859,"xuÃ©Ġ":1860,"yÃ¡nĠjiÅ«":1861,"gÃ©Ġ":1862,"hÄĽnĠ":1863,"ĠliÃ¡o":1864,"hÃ¡ngĠkÅįngĠ":1865,"ĠshÃło":1866,"ĠzhÄĽĠ":1867,"ĠliÇİngĠgÃ¨":1868,"ĠxuÃ©Ġ":1869,"om":1870,"ĠL":1871,"ĠshÃ¬ĠzÃłiĠ":1872,"zhÃ¹Ġ":1873,"ĠxiÃ¨":1874,"qÇĲngĠ":1875,"ĠqÇĲngĠ":1876,"shÅ«Ġ":1877,"ĠbÇĶ":1878,"ĠltĠ":1879,"ĠbÇİoĠhÃ¹":1880,"ÇĶnĠ":1881,"liÃ¡o":1882,"ĠN":1883,"ĠR":1884,"zuÃ²ĠwÃ©iĠ":1885,"jÇĶĠxÃŃngĠ":1886,"dĠ":1887,"zuÇĴ":1888,"chÃ¨":1889,"ĠwÇİnĠ":1890,"kÃ²ngĠ":1891,"cÄģnĠjiÄģ":1892,"kÄģngĠ":1893,"ĠqiÄģngĠ":1894,"ĠfÄĵnĠbÃ¹":1895,"ĠdÄ«":1896,"zhÇĶĠyÃło":1897,"kÄĽĠnÃ©ngĠ":1898,"00ĠniÃ¡nĠ":1899,"ĠtÃ¡nĠ":1900,"onĠĠĠ":1901,"zhÄ«ĠjiÄģnĠ":1902,"ĠhÇİiĠbÃ¡":1903,"ĠkÃłnĠ":1904,"ĠshÃ¨nĠ":1905,"ĠshÃ¬ĠwÃ¨iĠyÃº":1906,"ĠguÃ¬Ġ":1907,"rÃ©nĠmÃŃnĠ":1908,"ĠpÅį":1909,"ĠpÃ©ngĠ":1910,"ĠgÅįngĠchÃ©ngĠ":1911,"nÃŃngĠ":1912,"ĠlÃ¬ngĠwÃłiĠ":1913,"yÃ³uĠxÃ¬Ġ":1914,"ĠG":1915,"ĠdÃ©ĠguÃ³":1916,"shÃ¨Ġ":1917,"ĠcÇĲĠ":1918,"ĠĠĠP":1919,"wÇİnĠ":1920,"shuÄģngĠ":1921,"ĠhuÃ³ĠdÃ²ngĠ":1922,"yÅįu":1923,"ĠgÅįngĠzuÃ²":1924,"ĠqÇĶĠ":1925,"ĠzhÄ«ĠjiÄģnĠ":1926,"ĠnÇĲ":1927,"ĠshÇĲĠ":1928,"ĠzhÃłngĠ":1929,"ĠxiÃ¡ngĠ":1930,"sÇĲ":1931,"ĠqÄ«ĠjiÄģnĠ":1932,"xuÃ©ĠxiÃło":1933,"zhÃº":1934,"chÅįngĠ":1935,"ĠzhÅįngĠhuÃ¡ĠrÃ©nĠmÃŃnĠgÃ²ngĠhÃ©ĠguÃ³":1936,"yÃºnĠ":1937,"fÅ«":1938,"ĠqÃŃnĠ":1939,"ĠfÃ¡":1940,"ĠkÃłngĠ":1941,"gÅįngĠsÄ«Ġ":1942,"xiÃ¡nĠ":1943,"ĠzÃºĠqiÃº":1944,"ĠfÅ«Ġ":1945,"ĠguÇĲ":1946,"ĠxiÃ³ngĠ":1947,"xiÃ¡":1948,"Ġzhe":1949,"shÃ¨ĠjÃ¬Ġ":1950,"dÅ«nĠ":1951,"zÃłnĠ":1952,"ĠF":1953,"ĠxuÃ©ĠshÄĵngĠ":1954,"ruÃ¬Ġ":1955,"ĠfÄĵnĠbiÃ©":1956,"ĠmiÇİnĠ":1957,"ĠhÅ«nĠ":1958,"ĠÄĵnĠ":1959,"ĠguÄģnĠxÃ¬Ġ":1960,"shuÅįĠ":1961,"ĠyÇĴuĠ":1962,"uÄĽ":1963,"ĠlÃ¡o":1964,"ĠliÃ¡nĠsÃłiĠ":1965,"ĠtÅįngĠchÃ¡ngĠ":1966,"ĠsÅįngĠ":1967,"ĠshÃ¹nĠ":1968,"bÇĲĠsÃłiĠ":1969,"ĠyÇĲĠjÄ«ngĠ":1970,"Ġ192":1971,"qÃ¬ngĠ":1972,"ĠshÄĵngĠhuÃ³":1973,"ĠshÃłngĠhÇİiĠ":1974,"chÅ«ĠxiÃłnĠ":1975,"ĠjuÃ©ĠdÃ¬ngĠ":1976,"ĠniÇĶ":1977,"ĠzhÇĶĠyÃ¬Ġ":1978,"pÃŃngĠfÄģngĠ":1979,"ĠfÇİĠ":1980,"ĠtiÄĽĠlÃ¹":1981,"ĠshÃ¬ĠjiÃłnĠ":1982,"bÃłiĠ":1983,"hÄģ":1984,"dĠĠĠ":1985,"zhÃłnĠzhÄĵngĠ":1986,"bÃ¹ĠtÃ³ngĠ":1987,"ĠbÄĽiĠjÄ«ngĠ":1988,"as":1989,"ĠdÃłĠlÃ¹":1990,"ĠxiÄģngĠguÄģnĠ":1991,"bÄĵiĠ":1992,"ĠshÃłngĠde":1993,"ĠkuÇİnĠ":1994,"sÃ¹Ġ":1995,"pÃŃnĠ":1996,"ĠyÃºĠ201":1997,"ĠxÅ«ĠyÃło":1998,"ĠqÃŃngĠkuÃłngĠ":1999,"ĠdÇİoĠ":2000,"ĠmiÃ¡o":2001,"ĠwÃ¨iĠle":2002,"ĠÃ©":2003,"wÃłnĠ":2004,"ĠzhÃ²ngĠyÃło":2005,"ĠrÃ©nĠyuÃ¡nĠ":2006,"bÇĶ":2007,"ĠkÄģnĠ":2008,"ĠzhuÄ«":2009,"yÄ«ngĠguÃ³":2010,"rÃ©nĠwÃ¹Ġ":2011,"199":2012,"ÇĲĠyÃł":2013,"chÇĲĠ":2014,"ĠzÇĴngĠtÇĴngĠ":2015,"wÇĴ":2016,"kÃłngĠ":2017,"tÃŃĠgÅįngĠ":2018,"ĠliÃło":2019,"ĠgÃłnĠ":2020,"ĠkÇĴngĠ":2021,"fÄģngĠmiÃłnĠ":2022,"9Ġ":2023,"lÃ¡ngĠ":2024,"fÄģĠzhÇİnĠ":2025,"chÅ«nĠ":2026,"ĠrÃ©nĠkÇĴuĠmÃ¬ĠdÃ¹":2027,"ĠshÄĵngĠyÃº":2028,"xuÃ©ĠyuÃłnĠ":2029,"ĠshÃłnĠ":2030,"dÇİoĠ":2031,"ĠjiÃłoĠyÃ¹":2032,"zÇĶĠzhÄ«":2033,"of":2034,"shÃło":2035,"xiÃ¡Ġ":2036,"ĠwÄģnĠ":2037,"gÃ²ngĠyÇĴu":2038,"ĠzhÄģo":2039,"ĠjiÃ©ĠguÇĴ":2040,"rÃ¨":2041,"lÇİo":2042,"ĠzhÃ¨ĠzhÇĴngĠ":2043,"shÃ¨ĠhuÃ¬Ġ":2044,"shÃłnĠ":2045,"shÇĶĠyÃº":2046,"Ġãĥ":2047,"16":2048,"mÃło":2049,"yÃłngĠ":2050,"ĠyÇĲĠxiÃł":2051,"shÃ¨ĠyÇĴu":2052,"ĠdÇİoĠzhÃ¬Ġ":2053,"rĠ":2054,"zhÇĲĠ":2055,"bÃ¹ĠfÃ¨nĠ":2056,"ĠsuÇĴĠyÇĲ":2057,"ĠyÃ¬ĠbÄģnĠ":2058,"ĠfÄģĠxÃŃngĠ":2059,"rÃłngĠ":2060,"es":2061,"ĠshÄĽnĠ":2062,"15":2063,"ĠzhÃ¬ĠzuÃ²":2064,"ĠĠĠT":2065,"bÃ¹Ġde":2066,"ĠjÃ¬nĠrÃ¹":2067,"ĠchÄģ":2068,"bÃº":2069,"zhÃ¨ngĠzhÃ¬Ġ":2070,"ĠxÃ¬ĠliÃ¨":2071,"ĠzÃ¡":2072,"ĠĠĠB":2073,"ĠshÃ¬ĠyÃŃĠgÃ¨":2074,"zhÅįngĠhuÃ¡":2075,"ĠpÃŃnĠ":2076,"ĠdÃ¬ĠsÄģnĠ":2077,"ĠrÃ¨nĠhÃ©":2078,"ĠzuÃ¬ĠgÄģo":2079,"ĠbÃ¬ngĠyÃº":2080,"ĠdÃºĠlÃ¬Ġ":2081,"ĠyuÇİnĠ":2082,"ĠgÅįngĠyuÃ¡nĠ":2083,"ĠhÃłoĠ":2084,"cÃ¨Ġ":2085,"ĠbÄģnĠyÃ¡":2086,"ĠlÃ¡iĠzÃ¬Ġ":2087,"ĠdÄģnĠwÃ¨iĠ":2088,"fÃ¨ngĠ":2089,"ĠyÃ©":2090,"ĠgÄģiĠdÃ¬Ġ":2091,"ĠrÃºĠguÇĴ":2092,"ĠzhÄ«ĠyÄ«Ġ":2093,"ĠzÃłnĠ":2094,"ĠĠĠbÄĽnĠ":2095,"Ġ000":2096,"ĠĠĠ199":2097,"mÇĲ":2098,"ï¼į":2099,"ĠJ":2100,"ĠzÃ¬ĠyÃ³u":2101,"shÄ«Ġ":2102,"tÅ«":2103,"ĠfÇİngĠ":2104,"ĠliÃ¡nĠmÃ©ngĠ":2105,"fÄģnĠ":2106,"ĠsÅ«nĠ":2107,"ĠsuÃłnĠ":2108,"ĠrÇİngĠ":2109,"ĠyÇİ":2110,"yÄ«nĠwÃ¨iĠ":2111,"ĠgÃ¨ĠrÃ©nĠ":2112,"ĠjÅ«nĠshÃ¬Ġ":2113,"qÃŃnĠ":2114,"eĠĠ":2115,"sÄĵnĠ":2116,"ĠzhÃŃĠ":2117,"ĠliÃ¨ĠchÄĵ":2118,"ĠyÃ¬nĠdÃ¹":2119,"ĠĠĠdÃ¬ĠlÇĲĠ":2120,"pÄ«":2121,"yÄ«nĠyuÃ¨":2122,"shÃŃĠqÄ«":2123,"ĠfÄģngĠshÃ¬Ġ":2124,"cÇĲĠ":2125,"yÃ¬ĠyuÃ¡nĠ":2126,"ĠyÄģoĠqiÃº":2127,"lÃ³u":2128,"mÇİĠwÃ¨iĠ":2129,"sÃł":2130,"ĠdÃłngĠ":2131,"yÄ«Ġ":2132,"ĠgÄĵnĠjÃ¹Ġ":2133,"duÄģnĠ":2134,"ĠtÃłnĠ":2135,"ĠgÄĵngĠ":2136,"ĠbÇĲĠ":2137,"ĠfÃ¹ĠqÄ«nĠ":2138,"ĠduÇİnĠ":2139,"ĠlÃ¬ĠrÃº":2140,"3ĠyuÃ¨Ġ":2141,"gÃłiĠ":2142,"ĠtÅ«":2143,"fÇİngĠ":2144,"ĠduÃ¬ĠyÃº":2145,"ĠcÇİiĠyÃ²ngĠ":2146,"ati":2147,"ĠfÄģĠshÄĵngĠ":2148,"dÃ©ĠguÃ³":2149,"ĠrÃ¹Ġ":2150,"ow":2151,"erĠ":2152,"zhÇĶĠ":2153,"yÄ«ĠzhÇĴngĠ":2154,"ĠÄģiĠ":2155,"chÃ©ngĠyuÃ¡nĠ":2156,"ĠshÃ¹ĠliÃłngĠ":2157,"ĠzhÃłnĠzhÄĵngĠ":2158,"jiÃ©Ġ":2159,"ĠtÃ¨ĠbiÃ©":2160,"ĠkÄģiĠfÄģ":2161,"shÄĽnĠ":2162,"xiÃ¹":2163,"ĠxiÃłnĠde":2164,"ĠguÃ³ĠmÃŃnĠ":2165,"ĠgÃ¹ĠshÃ¬Ġ":2166,"shÇĴuĠ":2167,"ĠlÃł":2168,"ĠjiÃłnĠlÃ¬Ġ":2169,"ĠzÄģo":2170,"8ĠyuÃ¨Ġ":2171,"17":2172,"ĠrÃ©nĠde":2173,"gÄģnĠ":2174,"qÄ«Ġ":2175,"ĠhÇİiĠjÅ«nĠ":2176,"ĠdÇĲngĠ":2177,"ĠcÃºnĠzÃłiĠ":2178,"miÃłnĠjÄ«":2179,"xiÃ³ngĠ":2180,"5ĠyuÃ¨Ġ":2181,"hÃ²uĠde":2182,"guÃ¬Ġ":2183,"ĠsÄ«ĠtÃ¨":2184,"th":2185,"ĠzÃºĠ":2186,"ĠchÃ¨":2187,"hÃ¹nĠ":2188,"Ã¨rĠshÃŃ":2189,"ĠzÇĶĠzhÄ«":2190,"7ĠyuÃ¨Ġ":2191,"ĠzhÃ¹Ġ":2192,"deĠshÃŃ":2193,"ĠguÇİnĠlÇĲ":2194,"ĠzhÃ¨ĠyÄ«":2195,"zÄģo":2196,"ĠchÄĵngĠwÃ©iĠ":2197,"fÇĶĠ":2198,"chÃ©ngĠshÃ¬Ġ":2199,"ĠxÃŃngĠxÄ«ngĠ":2200,"ĠchÃ©ngĠgÅįngĠ":2201,"bÄ«nĠ":2202,"ĠsÃłnĠ":2203,"kuÃ²":2204,"is":2205,"ĠshÃ¬ĠwÃ¨iĠ":2206,"ĠjiÃłnĠyÃº":2207,"ĠniÃ¡nĠ1ĠyuÃ¨Ġ":2208,"Ġ191":2209,"ĠgÃ©Ġ":2210,"dÃłngĠ":2211,"ĠjÇĲnĠguÇİnĠ":2212,"gÄĵngĠ":2213,"sÃ¨Ġ":2214,"ĠzhÇĲĠ":2215,"guÇĴ":2216,"uÃ¡ngĠ":2217,"zÇĴu":2218,"shÃ¬ĠwÃ¨iĠ":2219,"bÇİ":2220,"wÄĵnĠ":2221,"ĠxuÃ¡nĠ":2222,"chÄĵĠzhÃłnĠ":2223,"zhe":2224,"ĠpÃło":2225,"ĠzÇĴu":2226,"ĠrÃ©nĠkÇĴuĠ":2227,"ĠchuÃ¡nĠtÇĴngĠ":2228,"ĠkÇİiĠ":2229,"ur":2230,"ĠqiÃºĠduÃ¬Ġ":2231,"ĠchÃºĠle":2232,"Ġãģ":2233,"ĠwÇĶĠ":2234,"ĠshÇĶĠde":2235,"ĠjÃ¬ĠshÃ¹":2236,"ĠjuÃ©Ġ":2237,"ĠshÃŃĠde":2238,"ĠxuÃ©ĠmÃŃngĠ":2239,"ĠlÃ¡ngĠ":2240,"fÄģĠxÃŃngĠ":2241,"TĠ":2242,"ĠniÃ¡nĠ12ĠyuÃ¨Ġ":2243,"ĠnÃ¡ĠdÃł":2244,"ĠcÄģnĠyÃ¹":2245,"ĠchÃ¬Ġ":2246,"9ĠyuÃ¨Ġ":2247,"mÇİnĠ":2248,"guÃłnĠjÅ«nĠ":2249,"ĠyÃºĠ":2250,"tuÃ¬Ġ":2251,"chÄĵĠ":2252,"oĠ":2253,"miÃ¡o":2254,"ĠcuÃ²":2255,"hÄĵiĠ":2256,"40":2257,"ĠpÇĶĠchÃ¡":2258,"sÄģiĠ":2259,"ĠqiÃ¨":2260,"rÃ©nĠde":2261,"wÇĶĠ":2262,"jÃ¬nĠrÃ¹":2263,"ĠguÃłnĠjÅ«nĠ":2264,"zhÃŃĠ":2265,"ĠhuÄģnĠ":2266,"ĠãĤ":2267,"ĠjiÃ¹ĠshÃ¬Ġ":2268,"ĠyÃ¨Ġ":2269,"13":2270,"xuÃ¡nĠ":2271,"ĠjiÄģoĠtÅįngĠ":2272,"ĠyÅįngĠyÇĴu":2273,"ĠmÃło":2274,"ĠfÃ¡nĠ":2275,"qÃŃĠ":2276,"yÇĲĠjÄ«ngĠ":2277,"ĠchÃ©ngĠde":2278,"ĠxÇĲ":2279,"ĠĠĠL":2280,"6ĠyuÃ¨Ġ":2281,"gÅįngĠzuÃ²":2282,"ĠxÃŃngĠshÃ¬Ġ":2283,"ĠdÅįngĠbÄĽiĠ":2284,"dÃ¬ĠqÅ«Ġ":2285,"ĠgÃ²ngĠchÇİnĠ":2286,"ĠshÇĶĠ":2287,"ĠchÅ«ĠxiÃłnĠ":2288,"shÄĵngĠhuÃ³":2289,"ĠfÃ¨ngĠ":2290,"shÃłngĠde":2291,"zhÇĶĠjiÃło":2292,"ĠxÃŃngĠchÃ©ngĠ":2293,"ĠmÃŃ":2294,"ĠqÃ¬ngĠ":2295,"shÃ¬ĠjiÃłnĠ":2296,"mÃ³u":2297,"ĠK":2298,"4ĠyuÃ¨Ġ":2299,"biÄģnĠmÇİĠwÃ¨iĠ":2300,"ĠĠĠyÇĶ":2301,"ĠqiÃ¡nĠwÇİngĠ":2302,"jÄ«ngĠjÃ¬Ġ":2303,"dÃłĠ":2304,"ĠĠĠrÃ©nĠkÇĴuĠ":2305,"ĠwÅ«ĠkÃ¨ĠlÃ¡nĠ":2306,"ĠjÃ¹ĠyÇĴu":2307,"ĠgÅįngĠzuÃ²Ġ":2308,"ĠliÃ¡nĠhÃ©":2309,"ĠruÇİnĠ":2310,"suÃ¬Ġ":2311,"ĠxuÃ©ĠjiÄģ":2312,"ĠchÄģoĠguÃ²":2313,"ĠzhÃ¨ĠshÃ¬Ġ":2314,"heĠĠĠ":2315,"25":2316,"ĠjÃ¬ĠhuÃł":2317,"ĠmiÃłnĠjÄ«ĠwÃ¨iĠ":2318,"ĠlÄģĠ":2319,"huÃ¬ĠyÃ¬Ġ":2320,"lÃ¬Ġde":2321,"qÃŃĠtÄģ":2322,"ĠdÃ²u":2323,"liÃło":2324,"yÃºĠ":2325,"ĠyÃ¬ĠshÃ¹":2326,"ĠliÃºĠ":2327,"ĠyÃºĠshÃ¬Ġ":2328,"wÃ¡nĠchÃ©ngĠ":2329,"ãĢī":2330,"ãĢĪ":2331,"ĠcÃ¡ngĠ":2332,"ĠqiÅ«":2333,"piÄģnĠ":2334,"hÅ«":2335,"xÃ¹Ġ":2336,"Ã²uĠguÃ²":2337,"ĠxuÄģnĠbÃ¹":2338,"ĠmÃ¨ngĠ":2339,"wÃ©nĠhuÃł":2340,"ĠlÄĽiĠ":2341,"ra":2342,"yÇĴuĠ":2343,"lÃº":2344,"Ġ190":2345,"14":2346,"ĠwÃ¹ĠguÇİnĠ":2347,"dÄģngĠshÃŃ":2348,"ĠsÅįu":2349,"xuÄģnĠbÃ¹":2350,"ĠchÅ«ĠbÇİnĠ":2351,"wÃłngĠ":2352,"dÇĲngĠ":2353,"ĠyÃ¡o":2354,"ĠzÃłngĠ":2355,"ĠsuÄģnĠ":2356,"ĠpÄģiĠ":2357,"ĠzhÃŃĠdÃło":2358,"deĠrÃ©nĠ":2359,"ĠÐ":2360,"tÃłnĠ":2361,"ĠtÇĲĠ":2362,"ĠduÅįĠshÃ¹":2363,"ĠfÇİnĠyÃ¬ngĠ":2364,"ĠwÃ¨iĠzhÃ¬Ġ":2365,"ĠyÃ¡":2366,"xÄ«ĠyÃł":2367,"ĠĠĠgÄģiĠ":2368,"duÃ³":2369,"ĠĠĠD":2370,"ĠxÃŃngĠdÃ²ngĠ":2371,"ĠfÄģngĠmiÃłnĠ":2372,"di":2373,"ĠpÃ©iĠ":2374,"ĠrÃ¡nĠÃ©rĠ":2375,"ĠW":2376,"ĠĠĠR":2377,"ÇĲĠyÃ¨":2378,"jiÃłnĠzhÃ¹":2379,"ec":2380,"ĠnÇļĠxÃ¬ngĠ":2381,"ĠshÃ¬ĠyÃ³u":2382,"xÇĲ":2383,"kĠ":2384,"ĠzhÃł":2385,"ĠyÇĶĠyÃ¡nĠ":2386,"ĠgÅ«":2387,"ĠshÄĵngĠchÇİnĠ":2388,"ĠchÃ¹Ġ":2389,"ĠĠĠG":2390,"ĠxiÃ¹":2391,"ĠchÇİnĠshÄĵngĠ":2392,"lÃ¨":2393,"fÃ¹Ġ":2394,"yÇĲngĠxiÇİngĠ":2395,"guÇİnĠlÇĲ":2396,"ĠzhÃ¨ngĠzhÃ¬ĠrÃ©nĠwÃ¹Ġ":2397,"guÄģnĠxÃ¬Ġ":2398,"Ġ100":2399,"ĠjÃŃĠtuÃ¡nĠ":2400,"ĠsÄ«ĠtÇİnĠ":2401,"xiÃ¨":2402,"AĠ":2403,"ĠkÇĴuĠ":2404,"ĠĠĠs":2405,"ĠĠĠxÃŃngĠzhÃ¨ngĠ":2406,"ĠwÃ¡nĠchÃ©ngĠ":2407,"ĠdeĠrÃ©nĠ":2408,"ĠshÃŃĠqÄ«":2409,"yÃ²ngĠyÃº":2410,"ĠsuÃŃĠhÃ²u":2411,"ĠzÃ¬ĠzhÃ¬Ġ":2412,"ĠnÃ¨iĠrÃ³ngĠ":2413,"pÃ©iĠ":2414,"rÇİnĠ":2415,"sÅįngĠ":2416,"leĠyÄ«":2417,"ĠwÃ¨iĠyÃºĠgÄģiĠ":2418,"ĠleĠyÄ«":2419,"chÃ©ngĠgÅįngĠ":2420,"ĠmÃŃngĠchÄĵngĠ":2421,"ĠcÃłiĠ":2422,"ĠkÃ²ngĠzhÃ¬Ġ":2423,"liÃ¨Ġ":2424,"qÅ«Ġde":2425,"ĠqÃŃĠyÃº":2426,"ĠtÄģĠshÃ¬Ġ":2427,"Ã¨rĠniÃ¡nĠ":2428,"ĠyÃ¹nĠdÃ²ngĠyuÃ¡nĠ":2429,"ĠĠĠjiÄģ":2430,"formulaĠ":2431,"ruÃ²":2432,"qiÅ«":2433,"ĠdÅįngĠnÃ¡nĠ":2434,"tiÄĽĠlÃ¹":2435,"bÇİngĠ":2436,"ĠguÃ²ĠchÃ©ngĠ":2437,"iÃ¨":2438,"Ġshu":2439,"cÄģnĠyÃ¹":2440,"yÃłoĠ":2441,"anĠ":2442,"ĠpÃº":2443,"ĠzhÇĲĠyÇĴu":2444,"bÄĽiĠjÄ«ngĠ":2445,"ĠyuÃ¨Ġ28ĠrÃ¬Ġ":2446,"ĠzhÃ©":2447,"ĠdÃłĠliÃłngĠ":2448,"pÇĲ":2449,"ĠxuÃ¨":2450,"ĠyÃ¬ĠwÃ¨iĠ":2451,"60":2452,"ĠkÄĵĠ":2453,"ĠyuÃ¨Ġ15ĠrÃ¬Ġ":2454,"ĠxiÃłĠlÃ¬ngĠ":2455,"tÇĲngĠ":2456,"mÄĽiĠyuÃ¡nĠ":2457,"ĠshÃ¨nĠzhÃ¬Ġ":2458,"gÅįngĠchÃ©ngĠ":2459,"ĠpÃŃngĠjÅ«nĠ":2460,"pÃŃ":2461,"Ġ30":2462,"ĠbiÄģoĠzhÇĶnĠ":2463,"ĠzÇĶĠ":2464,"24":2465,"fÇĴu":2466,"ĠÃ©rĠqiÄĽ":2467,"ĠhuÃ¬ĠyÃ¬Ġ":2468,"Ġ2Ġ":2469,"ĠshÃ²uĠdÃło":2470,"ĠsÇĶnĠ":2471,"ĠjÄ«ngĠguÃ²":2472,"ĠdÄģngĠzhÅįngĠ":2473,"ĠjiÄģĠrÃ¹":2474,"ĠchÅ«Ġde":2475,"ĠmÃŃngĠde":2476,"ĠkuÄģnĠ":2477,"ĠdÃ¬ĠfÄģngĠ":2478,"juÃ©ĠdÃ¬ngĠ":2479,"âĢĵ":2480,"rÃºĠ":2481,"ĠluÃ³ĠmÇİ":2482,"bÃ¹ĠduÃ¬Ġ":2483,"fÃ¹ĠzÃ©":2484,"yÃ¡Ġ":2485,"ĠwÃºĠfÇİ":2486,"ngĠĠĠ":2487,"ÄģnĠquÃ¡nĠ":2488,"ĠtÃ©ngĠ":2489,"ĠjÅ«nĠduÃ¬Ġ":2490,"ĠniÃ¡nĠ10ĠyuÃ¨Ġ":2491,"mĠ":2492,"ĠhuÃ¡iĠ":2493,"zhÇİo":2494,"Ġ2001ĠniÃ¡nĠ":2495,"tÃºĠ":2496,"ĠĠĠc":2497,"dÃ¬ĠsÄģnĠ":2498,"198":2499,"zhuÃłnĠ":2500,"ĠbÄģoĠkuÃ²Ġ":2501,"ÇĶĠÄĽr":2502,"ĠdÃłnĠzÃłiĠ":2503,"ĠyuÄĵĠ":2504,"ĠqiÃºĠ":2505,"zhÃł":2506,"ĠfÃłnĠwÃ©iĠ":2507,"shÇĴuĠcÃ¬Ġ":2508,"nÃ¨iĠde":2509,"ĠyÃ²ngĠyÃº":2510,"ĠhuÃłiĠ":2511,"ĠxiÃłnĠdÃłiĠ":2512,"suÇĴĠyÇĴu":2513,"ĠlÃ¬Ġde":2514,"ĠyÃ¬ĠhuÃ¬Ġ":2515,"dÄģngĠdÃ¬Ġ":2516,"jiÃłnĠde":2517,"liÃ¨ĠchÄĵ":2518,"ĠtÃ¬Ġ":2519,"zhÄ«ĠchÃŃ":2520,"ĠĠĠ198":2521,"ĠlÃłiĠ":2522,"zÃºĠ":2523,"ĠduÄģnĠ":2524,"shÃłngĠhÇİiĠ":2525,"ĠfÇİnĠduÃ¬Ġ":2526,"ĠshÃ¬ĠyÄ«ĠzhÇĴngĠ":2527,"ĠjÇĶĠxÃŃngĠ":2528,"anĠĠĠ":2529,"ĠwÇĴĠmenĠ":2530,"ĠyÃ¬ĠyuÃ¡nĠ":2531,"jiÃłoĠyÃ¹":2532,"30ĠrÃ¬Ġ":2533,"ĠzhÄģ":2534,"20ĠrÃ¬Ġ":2535,"SĠ":2536,"xiÅįngĠ":2537,"ĠdÃ¬ĠqÅ«Ġ":2538,"jÃ¬ĠhuÃł":2539,"ĠfÃ¹ĠjÃ¬nĠ":2540,"ĠgÃ²ngĠchÇİnĠdÇİngĠ":2541,"âĢ¦":2542,"2ĠyuÃ¨Ġ":2543,"0ĠrÃ¬Ġ":2544,"ĠxÄ«nĠwÃ©nĠ":2545,"ĠsÃ¹Ġ":2546,"ĠyuÃ¨Ġ25ĠrÃ¬Ġ":2547,"ĠtÄģĠcÃ©ngĠ":2548,"pĠ":2549,"quÃ¡nĠguÃ³":2550,"zhÄģo":2551,"dÄ«ngĠ":2552,"ĠdÃłĠbÃ¹ĠfÃ¨nĠ":2553,"ĠzhÄ«ĠhÃ²uĠ":2554,"wÅ«ĠkÃ¨ĠlÃ¡nĠ":2555,"Ã¨ĠÄĽr":2556,"ĠyuÃ¨Ġ10ĠrÃ¬Ġ":2557,"ay":2558,"ĠduÃ³":2559,"ĠliÃ¡nĠbÄģngĠ":2560,"ĠyÃ¬ĠzhÃŃ":2561,"ĠwÃ¨nĠtÃŃĠ":2562,"duÇİnĠ":2563,"lÃ¡iĠzÃ¬Ġ":2564,"shÃ¬ĠzÃłiĠ":2565,"ĠsuÅį":2566,"ĠlÇľĠ":2567,"ĠhÃłoĠxiÃłnĠ":2568,"ÄĽnĠdÃ¬ngĠ":2569,"ĠzÃ¬ĠrÃ¡nĠ":2570,"ĠxÄ«ĠnÃ¡nĠ":2571,"deĠyÃŃĠgÃ¨ĠshÃ¬ĠzhÃ¨nĠ":2572,"ĠjiÇĶĠ":2573,"ĠqÇĲĠ":2574,"ĠshÅ«Ġ":2575,"ĠsuÇĴĠ":2576,"juÃ©ĠsÃłiĠ":2577,"ĠguÄ«ĠmÃ³":2578,"jiÄģĠrÃ¹":2579,"ĠĠĠI":2580,"zhÃłngĠ":2581,"ĠĠĠH":2582,"UT":2583,"ĠniÃº":2584,"mÃ¡o":2585,"ĠqÃŃĠhÃ²u":2586,"shÃ²uĠdÃło":2587,"jiÅ«Ġ":2588,"ĠdeĠshÃ¹":2589,"ĠzÃłiĠzhÃ¨":2590,"ĠtÃ³ngĠshÃŃĠ":2591,"..":2592,"ĠĠĠF":2593,"ĠkÄĵĠxuÃ©":2594,"ĠdÅ«nĠ":2595,"ĠjÃ¬ĠxÃ¹":2596,"gÅįngĠyuÃ¡nĠ":2597,"ĠfÄĵnĠbÃ¹ĠyÃº":2598,"ĠmÇİiĠ":2599,"ĠchÃ³u":2600,"ĠgÄģoĠdÃ¹":2601,"ĠsÄģnĠniÃ¡nĠ":2602,"23":2603,"ag":2604,"lÃ¬ĠshÇĲ":2605,"ĠniÃ¡nĠ11ĠyuÃ¨Ġ":2606,"ĠbÃ¹ĠduÃ¬Ġ":2607,"ĠyÇĴuĠguÄģnĠ":2608,"deĠjÄ«":2609,"wÃ²":2610,"ĠlÇĲngĠdÇİo":2611,"ĠfÃºĠwÃ¹":2612,"ĠxiÇİnĠshÃ¬Ġ":2613,"diÃ©":2614,"ĠxuÄĽ":2615,"qÇĶĠdÃ©":2616,"ĠzÇĶĠchÃ©ngĠ":2617,"ĠyÄ«ĠniÃ¡nĠ":2618,"cÃºnĠzÃłiĠ":2619,"ĠbÇİnĠbÄĽnĠ":2620,"qiÄģngĠ":2621,"ĠzhÅįngĠgÃ²ngĠ":2622,"ĠzuÃ²ĠyÃ²ngĠ":2623,"ĠzhÃŃĠyÃ¨":2624,"yÇĴuĠxiÃłnĠ":2625,"cÃŃĠ":2626,"zuÃ²ĠpÇĲnĠ":2627,"xuÇİnĠjÇĶ":2628,"fÃºĠ":2629,"gÃ©ĠlÃ¡nĠ":2630,"ĠzÃłoĠchÃ©ngĠ":2631,"ĠbÃ¹ĠzhÇİngĠ":2632,"shÃ¹nĠ":2633,"jiÃłĠ":2634,"ĠmÇĴu":2635,"ĠgÅįngĠsÄ«Ġ":2636,"yÃ¬nĠdÃ¹":2637,"ir":2638,"ĠbÃł":2639,"ĠyuÃ¡nĠyÄ«nĠ":2640,"ĠlÃ¼Ã¨":2641,"ĠĠĠ18":2642,"ĠhuÃ¡nĠjÃ¬ngĠ":2643,"lÃ¼Ã¨":2644,"ĠshÇĴuĠcÃ¬Ġ":2645,"ĠjiÇİnĠchÄĵngĠ":2646,"shÃŃĠdÃłiĠ":2647,"ĠcÄģo":2648,"ĠshÃ¨Ġ":2649,"ĠyÃºĠ200":2650,"ĠdeĠshÃŃ":2651,"pÄģiĠ":2652,"DĠ":2653,"chÄģngĠ":2654,"ĠrÃ©nĠkÇĴuĠpÇĶĠchÃ¡":2655,"ĠĠĠniÃ¡nĠ":2656,"ent":2657,"ĠjiÃ©ĠzhÃ¬Ġ":2658,"ĠmÃŃnĠzÃº":2659,"ĠxÄ«ĠbÄĽiĠ":2660,"bÇİoĠ":2661,"yÃºĠ201":2662,"lÄĵiĠ":2663,"ĠqÅ«ĠwÃ¨iĠ":2664,"us":2665,"biÄģoĠsÃłiĠ":2666,"ĠguÄģnĠyÃº":2667,"ĠchÅ«nĠ":2668,"ĠyÃ¹nĠdÃ²ngĠhuÃ¬Ġ":2669,"ĠlÃŃnĠpÇĲ":2670,"ĠyuÃ¨Ġ18ĠrÃ¬Ġ":2671,"ĠmÃŃnĠzhÇĶ":2672,"lÇİnĠ":2673,"wÇİ":2674,"ĠqÃŃĠ":2675,"yÅįngĠyÇĴu":2676,"ĠyÃ¬ĠdÃłĠlÃ¬Ġ":2677,"ĠguÇİnĠxiÃ¡Ġ":2678,"ĠyÇİnĠyuÃ¡nĠ":2679,"ĠxiÃ©ĠhuÃ¬Ġ":2680,"shÇĶĠ":2681,"ĠdeĠjÄ«":2682,"ÄģĠÄĽr":2683,"ĠxÃŃngĠwÃ©iĠ":2684,"ĠliÃłoĠ":2685,"ĠzhÃŃĠjiÄĵ":2686,"22":2687,"ĠlÃ¬ngĠyÄ«":2688,"dÃ©Ġ":2689,"ĠĠĠ194":2690,"nÃłĠ":2691,"ĠgÃ©ĠmÃ¬ngĠ":2692,"yÃ¡o":2693,"qiÃºĠduÃ¬Ġ":2694,"zÇĴngĠtÇĴngĠ":2695,"tÇİnĠ":2696,"cÃ¡ngĠ":2697,"qiÇİnĠ":2698,"ĠchÅ«Ġle":2699,"jÄ«ĠchÇİngĠ":2700,"ĠyuÃ¨Ġ24ĠrÃ¬Ġ":2701,"ĠzhÅįngĠhuÃ¡ĠmÃŃnĠguÃ³":2702,"ĠshÃ¨ĠyÇĴu":2703,"ĠyuÃ¨Ġ26ĠrÃ¬Ġ":2704,"ig":2705,"kÇĴngĠ":2706,"ĠsÄģngĠ":2707,"ĠzhÄĽnĠ":2708,"Ġ19ĠrÃ¬Ġ":2709,"qiÃ¡nĠwÇİngĠ":2710,"wÄĽiĠyuÃ¡nĠ":2711,"ĠxuÇİnĠzÃ©":2712,"tÇİo":2713,"ĠyuÃ¨Ġ16ĠrÃ¬Ġ":2714,"ĠyÄģo":2715,"jiÃłnĠlÃ¬Ġ":2716,"xiÃłnĠde":2717,"ĠO":2718,"ĠquÄĵ":2719,"ĠĠĠjÃ¹":2720,"ĠshÃ¬ĠwÃ¨iĠyÃºĠmÄĽiĠguÃ³":2721,"xÅ«ĠyÃło":2722,"ĠzÅįngĠjiÃło":2723,"oo":2724,"ĠyuÃ¨Ġ17ĠrÃ¬Ġ":2725,"ĠguÄģnĠfÄģngĠ":2726,"ĠliÃ¨Ġ":2727,"ĠnÃ¡nĠziĠ":2728,"shÃ¬ĠyÄ«":2729,"ĠchÃºnĠ":2730,"ĠyuÃ¨Ġ12ĠrÃ¬Ġ":2731,"ĠzhÃłnĠdÃ²u":2732,"guÇĲ":2733,"ĠzuÃ¬ĠchÅ«":2734,"jÃŃĠtuÃ¡nĠ":2735,"zhÇĶnĠ":2736,"ĠcÇİo":2737,"ĠmÃŃngĠzÃ¬Ġ":2738,"hÃ¡nĠguÃ³":2739,"xÃŃngĠde":2740,"ĠyuÃ¨Ġ11ĠrÃ¬Ġ":2741,"fÃ¡nĠ":2742,"jiÃ©ĠshÃ¹":2743,"ĠlÃŃnĠpÇĲĠkÃ¨":2744,"hÃ²uĠlÃ¡iĠ":2745,"ĠrÃ²u":2746,"ĠzÅ«nĠ":2747,"ed":2748,"chÃ¬Ġ":2749,"shu":2750,"ĠnÃŃĠ":2751,"ĠtÄģĠmenĠde":2752,"ĠzÃłiĠ201":2753,"zÃºĠqiÃº":2754,"luÃłnĠ":2755,"80":2756,"jÃ¬ĠxÃ¹":2757,"zhÃ¬ĠzuÃ²":2758,"miÃło":2759,"ĠnÃłiĠ":2760,"ĠshÃŃĠdÃłiĠ":2761,"ĠdÃłĠ":2762,"qiÃºĠ":2763,"em":2764,"rÃ¹Ġ":2765,"zÇĶĠchÃ©ngĠ":2766,"ĠcÃŃĠ":2767,"xuÃ©ĠshÄĵngĠ":2768,"ĠyuÃ¨Ġ27ĠrÃ¬Ġ":2769,"kÄģiĠfÄģ":2770,"jiÄĵĠ":2771,"ĠjÃºĠ":2772,"ĠzhÅįuĠde":2773,"ĠlÃŃĠ":2774,"ĠtÃºĠ":2775,"chÅ«ĠbÇİnĠ":2776,"huÃ¡iĠ":2777,"ĠyuÃ¨Ġ21ĠrÃ¬Ġ":2778,"UTCĠ":2779,"ĠgÃ²ngĠtÃ³ngĠ":2780,"ĠyuÃ¨Ġ2ĠrÃ¬Ġ":2781,"zhÃ¨ĠxiÄĵ":2782,"00Ġ":2783,"ĠyuÃ¨Ġ19ĠrÃ¬Ġ":2784,"shÄģĠ":2785,"lÃ©iĠ":2786,"ĠzhÄ«ĠqiÃ¡nĠ":2787,"ĠtÄģĠ":2788,"ĠbÄģoĠhÃ¡nĠ":2789,"suÄģnĠ":2790,"ĠduÅįĠ":2791,"ĠyuÃ¨Ġ22ĠrÃ¬Ġ":2792,"ĠĠĠshÃ¬Ġ":2793,"2020ĠniÃ¡nĠ":2794,"ĠkÃ¨ĠsÄ«":2795,"pÃ©ngĠ":2796,"ĠyuÃ¨Ġ23ĠrÃ¬Ġ":2797,"dÇİoĠzhÃ¬Ġ":2798,"ĠĠĠW":2799,"cÇİo":2800,"ĠmÇĶĠ":2801,"cuÃ²":2802,"ĠpÃ¡ngĠ":2803,"zhuÄ«":2804,"yÃ³uĠyÃº":2805,"ĠsÅ«ĠliÃ¡nĠ":2806,"ĠjuÃ©ĠsÃ¨":2807,"ĠyuÃ¨Ġ14ĠrÃ¬Ġ":2808,"31ĠrÃ¬Ġ":2809,"kÃ¹":2810,"ĠdÃłĠzhÃłnĠ":2811,"ĠfÄĵnĠzhÅįngĠ":2812,"chÇİnĠshÄĵngĠ":2813,"ĠgÄĵĠ":2814,"ĠchÃ³ngĠxÄ«nĠ":2815,"70":2816,"ĠjiÃ©Ġ":2817,"ĠyuÃ¨Ġ29ĠrÃ¬Ġ":2818,"ĠnÇļĠzÇĲ":2819,"zÃłngĠ":2820,"hÃ¹Ġ":2821,"ĠyÄ«ĠmÃŃngĠ":2822,"ĠshÇĲĠde":2823,"ĠmÇĲnĠ":2824,"yÇĲĠlÃ¡iĠ":2825,"21":2826,"chÃ³u":2827,"piÃło":2828,"ĠzÃłiĠdÃ¬Ġ":2829,"ĠmÃ©iĠtÇĲ":2830,"ĠxuÇİnĠqÅ«":2831,"ĠfÄĵiĠchÃ¡ngĠ":2832,"ĠÄģĠÄĽr":2833,"ĠdiÃłoĠchÃ¡":2834,"gÅįngĠzuÃ²Ġ":2835,"ĠÃ©rĠziĠ":2836,"gÃłnĠ":2837,"ĠyuÄĵĠhÃłnĠ":2838,"ĠchÇĲ":2839,"ĠshÃ¬ĠfÇİĠguÃ³":2840,"ĠniÇİo":2841,"ter":2842,"ĠfÄģĠ":2843,"ĠlÇĲĠlÃ¹nĠ":2844,"xÃŃngĠzhÃ¨ngĠ":2845,"ĠyuÃ¨Ġ13ĠrÃ¬Ġ":2846,"zhÃ²ngĠyÃło":2847,"ĠnÇĶ":2848,"ĠlÄģĠsÄ«":2849,"yÄģoĠqiÃº":2850,"fÄģĠbiÇİo":2851,"ĠsÃłiĠshÃ¬Ġ":2852,"ĠU":2853,"zhÃ¬Ġde":2854,"ĠguÇİngĠdÅįngĠ":2855,"ĠzÄ«Ġ":2856,"ĠmÃ¨iĠ":2857,"ĠyÄĽĠyÇĴu":2858,"ĠbÃºĠshÃ¬Ġ":2859,"ĠrÃ¡nĠhÃ²u":2860,"ĠzÃ¬ĠjÇĲĠde":2861,"ĠshuÃ¬Ġ":2862,"ĠwÃłiĠjiÄģo":2863,"sÅ«nĠ":2864,"ĠwÃ¹ĠzhÇĴngĠ":2865,"ĠzhÃºĠjiÃłnĠ":2866,"ĠjiÄĵĠshÃ²u":2867,"jÃ¬ĠshÃ¹":2868,"ĠsÃłiĠjÃ¬Ġ":2869,"ĠshÃ¬ĠhÃ©":2870,"bÇĲĠ":2871,"mÃŃnĠzhÇĶ":2872,"ĠxÄ«ĠbÄģnĠyÃ¡":2873,"ub":2874,"ĠlÃ¨iĠsÃ¬Ġ":2875,"ĠbÃłoĠ":2876,"ĠbiÇİoĠxiÃłnĠ":2877,"ĠgÅįngĠkÄģiĠ":2878,"ĠmÇĶĠqÄ«nĠ":2879,"ĠĠĠE":2880,"dÄģnĠwÃ¨iĠ":2881,"ĠzuÃ¬ĠjiÄģ":2882,"shÅ«ĠjÃ¬Ġ":2883,"ĠwÃ¨iĠyÃºĠgÄģiĠguÃ³":2884,"ruÇİnĠ":2885,"ĠfÃ©ngĠ":2886,"ĠchÃ©ngĠjÃ¬Ġ":2887,"zÃłoĠ":2888,"ĠqÇĶĠdÃ©":2889,"ĠdÃłĠhuÃ¬Ġ":2890,"hÅ«nĠ":2891,"ĠguÃ³Ġ":2892,"ĠyÄ«nĠcÇĲĠ":2893,"zuÃ¬ĠgÄģo":2894,"fÃ¹ĠjÃ¬nĠ":2895,"ĠbÃ¬ĠxÅ«":2896,"un":2897,"ĠbÃłngĠ":2898,"zÃ¬ĠyÃ³u":2899,"ĠqÃ¹Ġ":2900,"xÃŃngĠchÃ©ngĠ":2901,"jÅ«ĠmÃŃnĠ":2902,"shÃŃĠde":2903,"os":2904,"ĠkÄĽnĠ":2905,"suÇĴĠ":2906,"ĠrÃ©nĠlÃ¨iĠ":2907,"ĠtÃ¡iĠbÄĽiĠ":2908,"zuÃ¬ĠzhÅįngĠ":2909,"ĠlÃ¡iĠxÄ«ĠyÃł":2910,"gÅįngĠshÃ¬Ġ":2911,"fÄĵnĠbiÃ©":2912,"ÃłoĠyÃ¹nĠ":2913,"jÇĶĠbÃłnĠ":2914,"jÃ¹ĠyÇĴu":2915,"ĠzhÇİo":2916,"iĠĠĠ":2917,"ĠsÇĲĠ":2918,"nÇİo":2919,"zhÅįngĠgÃ²ngĠ":2920,"ĠmÃ¹ĠdÃ¬Ġ":2921,"ĠrÃºĠ":2922,"197":2923,"ĠV":2924,"ĠxÄ«ĠyÃł":2925,"ĠnÃ©ngĠlÃ¬Ġ":2926,"kÄģnĠ":2927,"ĠfÃ³":2928,"ĠxÄ«ĠwÃłngĠ":2929,"ĠqÃŃĠshÃ¬Ġ":2930,"ĠguÄ«ĠdÃ¬ngĠ":2931,"fÄģngĠshÃ¬Ġ":2932,"ĠdÃ©ĠdÃło":2933,"jÅ«nĠshÃ¬Ġ":2934,"nÃŃĠyÃł":2935,"diÃłoĠchÃ¡":2936,"um":2937,"zhÄ«ĠhÃ²uĠ":2938,"zÇĶĠ":2939,"EE":2940,"ĠbÃ¬ngĠwÃ¨iĠ":2941,"dÃ¬ĠguÃ³":2942,"ĠkÃło":2943,"yÃŃĠ":2944,"pÃŃngĠyÃ¡ngĠ":2945,"pÃ¡nĠ":2946,"ĠcÄģngĠ":2947,"kÇİiĠ":2948,"zhÄ«ĠqiÃ¡nĠ":2949,"luÃ²Ġ":2950,"ĠzÄĵngĠjiÄģ":2951,"ĠdÃ¬ĠguÃ³":2952,"pÃło":2953,"yÇĶĠyÃ¡nĠ":2954,"ĠtÃłiĠyÃ¡ngĠ":2955,"yÃ¬ĠshÃ¹":2956,"bÅįĠ":2957,"ĠÄĽrĠshÄĽngĠ":2958,"ĠfÄĵnĠwÃ©iĠ":2959,"ĠzÄģiĠ":2960,"yÇİ":2961,"ÃłoĠlÃŃnĠpÇĲĠkÃ¨":2962,"ĠyÃ³uĠzhÃ¨ngĠ":2963,"ĠyÃŃnĠhÃ¡ngĠ":2964,"deĠgÅįngĠ":2965,"Ġ2009ĠniÃ¡nĠ":2966,"ĠjÃ¬ĠniÃłnĠ":2967,"chÇĲ":2968,"gÅ«":2969,"tÃ¨Ġ":2970,"ĠhuÃ²Ġ":2971,"ĠmÃŃngĠwÃ¨iĠ":2972,"ĠwÄĽiĠyuÃ¡nĠ":2973,"ĠjÃ¹ĠlÃ¨":2974,"ĠchÃ¡oĠxiÄģnĠ":2975,"ĠquÃ¡nĠlÃ¬Ġ":2976,"lÇĶ":2977,"ĠsÄģnĠgÃ¨":2978,"oc":2979,"ĠjÃ¬ngĠnÃ¨iĠ":2980,"yÃŃĠbÃ¹":2981,"ĠwÃ¡nĠquÃ¡nĠ":2982,"ĠjiÃ©ĠmÃ¹":2983,"ĠdÃ¡Ġ":2984,"zhÃ©":2985,"shÄĵngĠchÇİnĠ":2986,"ĠfÇİĠlÇľ":2987,"ĠbÇĲngĠ":2988,"ĠdÇĴngĠ":2989,"ĠgÃ²ngĠyÇĴu":2990,"jiÄģoĠtÅįngĠ":2991,"ĠsÃ¬ĠniÃ¡nĠ":2992,"wÃºĠfÇİ":2993,"cÇİiĠyÃ²ngĠ":2994,"zÃ²u":2995,"shuÃłiĠ":2996,"Ġ2020ĠniÃ¡nĠ":2997,"ĠxÄ«nĠde":2998,"ĠshÃŃĠjÃ¬Ġ":2999,"ĠchuÃłngĠzuÃ²":3000,"ĠliÇİngĠrÃ©nĠ":3001,"yÇĴuĠyÄ«":3002,"fÇİĠyuÃłnĠ":3003,"me":3004,"mÇĶĠ":3005,"ĠgÇİiĠwÃ©iĠ":3006,"ĠtÇĲĠyÃ¹":3007,"ĠzhÃ¨ĠjiÄģngĠ":3008,"xiÃłĠjÃ¬Ġ":3009,"and":3010,"yÃ¬ĠhuÃ¬Ġ":3011,"xuÃ¨":3012,"ĠĠĠzhÃ¨ngĠzhÃ¬Ġ":3013,"ĠchÄĵĠ":3014,"ĠdÃłĠlÃ¬ĠyÃł":3015,"9ĠyuÃ¨":3016,"zÄģiĠ":3017,"Ġ3Ġ":3018,"xiÅ«Ġ":3019,"ĠbÃ¨iĠjÇĲngĠ":3020,"xÃŃngĠdÃ²ngĠ":3021,"juÃ©Ġ":3022,"op":3023,"ĠzhÅįngĠshÃ¬Ġ":3024,"ĠfÃºĠ":3025,"ĠmÃŃngĠchÃ¡o":3026,"ĠlÇĲĠsÄ«":3027,"ĠxiÇİoĠ":3028,"48":3029,"ĠshÄĵnĠfÃ¨nĠ":3030,"ĠwÃ¨iĠmÄĽiĠ":3031,"deĠdÃł":3032,"ĠxiÃłnĠzhÃ¬Ġ":3033,"ĠnÇİiĠ":3034,"rÃ©nĠshÃ¬Ġ":3035,"ĠnÃłĠ":3036,"ĠĠĠp":3037,"ĠjiÄģngĠjÅ«nĠ":3038,"35":3039,"ĠtÃŃĠ":3040,"ĠĠĠyÃ³uĠyÃº":3041,"gÃ©ĠmÃ¬ngĠ":3042,"Ġ189":3043,"ĠmiÃ¨":3044,"28":3045,"ĠlÃ¬ĠyÃ²ngĠ":3046,"ĠqÄ«ĠxÄ«":3047,"ad":3048,"shuÇĲĠ":3049,"ĠjiÃ¨Ġ":3050,"ĠzhÇĶĠrÃ¨nĠ":3051,"ĠjÅ«ĠmÃŃnĠ":3052,"ĠjiÄģĠtÃŃngĠ":3053,"ĠdÃ¬ngĠyÃ¬Ġ":3054,"shÃŃĠqÄ«Ġ":3055,"dÃłĠxuÃ©Ġ":3056,"ĠhÄĽnĠduÅį":3057,"kÄĵĠxuÃ©":3058,"NS":3059,"pÃł":3060,"xuÃ©ĠwÃ¨iĠ":3061,"ĠdiÄģo":3062,"ot":3063,"ĠshÃ¹ĠliÃłngĠwÃ¨iĠ":3064,"ĠdeĠgÅįngĠ":3065,"ĠyÃ³uĠ":3066,"ĠgÃ©ĠlÃ¡nĠ":3067,"ap":3068,"ĠdiÃłnĠziĠ":3069,"mÄĽiĠguÃ³ĠrÃ©nĠkÇĴuĠpÇĶĠchÃ¡":3070,"Ġ2019ĠniÃ¡nĠ":3071,"wÃ¹ĠbÇİoĠhÃ¹":3072,"ĠcÃ©ngĠrÃ¨nĠ":3073,"ĠlÃ¬ĠrÃºĠ":3074,"Ġ2021ĠniÃ¡nĠ":3075,"jÃ¬ĠniÃłnĠ":3076,"ĠgÄģoĠ":3077,"miÃłnĠjÄ«Ġ":3078,"yuÃ¨Ġ":3079,"Ġ5Ġ":3080,"ĠbÇİngĠ":3081,"hÃ©ĠzuÃ²":3082,"26":3083,"tÃ¬Ġ":3084,"shÃ¨ĠlÃ¬Ġ":3085,"ĠjÃ¬ĠsuÃłnĠ":3086,"chÃ³ngĠxÄ«nĠ":3087,"ĠzÇİoĠqÄ«":3088,"ĠgÃ¨ĠzhÇĴngĠ":3089,"ĠbiÄģoĠ":3090,"ĠdÃ¬ĠlÃ¬Ġ":3091,"ĠguÅį":3092,"jiÄģĠpÅį":3093,"ĠqÅ«Ġde":3094,"ĠyÇĶnĠ":3095,"ĠlÃ¹ĠjÅ«nĠ":3096,"ĠqÅ«ĠyÃ¹":3097,"Ġ2010ĠniÃ¡nĠ":3098,"liÃ¡nĠmÃ©ngĠ":3099,"ĠdÃ¬ĠsÃ¬Ġ":3100,"Ġ2008ĠniÃ¡nĠ":3101,"xÃŃngĠshÃ¬Ġ":3102,"ĠzhÃŃĠxÃŃngĠ":3103,"xiÃ¡ngĠ":3104,"ĠgÄģoĠdÃ¹Ġ":3105,"ĠrÇĶ":3106,"jiÄĵĠshÃ²u":3107,"tÅįngĠchÃ¡ngĠ":3108,"ĠwÃ¨nĠtÃŃ":3109,"ĠbÃ³ĠshÃ¬Ġ":3110,"27":3111,"ĠzÃłiĠ200":3112,"luÃ³ĠmÇİ":3113,"zhÃ¨Ġge":3114,"shÄĽngĠfÃ¨nĠ":3115,"shÃ¬ĠzhÇİngĠ":3116,"jiÄĽĠfÃłngĠ":3117,"ĠĠĠN":3118,"ĠjÃ¬ĠzÇİiĠ":3119,"ĠqiÇİnĠ":3120,"niÇİo":3121,"ĠjuÇİnĠ":3122,"ĠjÃ¹ĠlÃŃ":3123,"mÇĴu":3124,"ĠdeĠdÃł":3125,"ĠqiÃºĠyuÃ¡nĠ":3126,"xÄ«nĠwÃ©nĠ":3127,"yÃ¨ĠyÃº":3128,"ĠshÄģĠ":3129,"ĠwÇĶĠniÃ¡nĠ":3130,"ĠshÄĽngĠjÃŃ":3131,"ĠxiÃłnĠshÃŃ":3132,"ĠyÃ²uĠchÄĵngĠ":3133,"dÃºĠlÃ¬Ġ":3134,"ĠshÄģngĠyÃ¨":3135,"ĠĠĠm":3136,"ĠjÄ«ĠchÇİngĠ":3137,"ĠtÇĴngĠzhÃ¬Ġ":3138,"lÃ¡o":3139,"ĠzhuÃ³":3140,"yÃ¬ĠzhÃŃ":3141,"quÄĵ":3142,"ĠjÃ¬ĠlÃ¹":3143,"ĠfÄģĠbiÇİo":3144,"ĠgÄĵĠqÇĶ":3145,"ab":3146,"shÃ¨nĠ":3147,"deĠhÃ©":3148,"huÃłĠde":3149,"wÃ©nĠxuÃ©":3150,"ĠzÃłiĠcÇĲ":3151,"inĠĠĠ":3152,"ĠzÃłiĠcÃ¬Ġ":3153,"ĠgÅįu":3154,"ĠgÃ¨Ġ":3155,"ĠkuÃłngĠ":3156,"kÃ²ngĠzhÃ¬Ġ":3157,"ĠjiÄĵĠrÇİngĠ":3158,"29":3159,"ĠnÃ©ngĠgÃ²u":3160,"ĠnÇļĠ":3161,"ĠxiÇİoĠshÃŃĠ":3162,"ĠjiÃłoĠ":3163,"ĠbÃ¨iĠchÄĵngĠwÃ©iĠ":3164,"ĠniÇĶĠyuÄĵ":3165,"PĠ":3166,"ĠdiÃ©":3167,"ĠdÃ²ngĠwÃ¹":3168,"ĠzhÃ¡iĠ":3169,"ĠrÃ©nĠshÃ¬Ġ":3170,"ĠzhÃ¬Ġde":3171,"ĠjiÃ©ĠgÃ²u":3172,"bÇİoĠhÃ¹":3173,"ĠjiÄģĠnÃ¡ĠdÃł":3174,"ĠfÇĶĠ":3175,"niÇĶ":3176,"ĠzhuÃłnĠ":3177,"ĠbÃ³ĠwÃ¹ĠguÇİnĠ":3178,"ĠgÇĶĠ":3179,"yÃ¬ĠdÃłĠlÃ¬Ġ":3180,"ĠshÄĵngĠwÃ¹":3181,"kuÇİnĠ":3182,"qÃ¹ĠshÃ¬Ġ":3183,"ĠkÃ¹Ġ":3184,"nÃ¡nĠziĠ":3185,"niÃº":3186,"ĠrÃ¨ĠdÃłiĠ":3187,"7ĠyuÃ¨":3188,"ĠĠĠ197":3189,"ĠkÅ«nĠ":3190,"rÃ©nĠyuÃ¡nĠ":3191,"ĠzhÄĵngĠyÃ¬Ġ":3192,"ĠxÄ«ĠlÃł":3193,"ĠbrĠ":3194,"ĠyÇĴuĠyÄ«":3195,"lÃ¹ĠdÃ¬Ġ":3196,"ĠhuÃłĠxuÃ©":3197,"ĠyÇĴuĠxiÃłnĠ":3198,"sÄ«ĠlÃ¬ngĠ":3199,"ĠĠĠ195":3200,"ĠbÇİoĠ":3201,"ĠxiÃłĠde":3202,"shÃ¬ĠjiÃ¨ĠdÃłĠzhÃłnĠ":3203,"ĠxÃŃngĠde":3204,"fÇİnĠyÃ¬ngĠ":3205,"ĠcÃ¨Ġ":3206,"xiÃłoĠ":3207,"fÃºĠwÃ¹":3208,"ĠgÅįngĠlÇĲ":3209,"yÃ©":3210,"194":3211,"ĠĠĠyÃº":3212,"ĠchÄģngĠ":3213,"ĠbÃ¹ĠzÃłiĠ":3214,"ĠniÃ¨":3215,"wÃ¹ĠbÇİoĠhÃ¹ĠdÄģnĠwÃ¨iĠ":3216,"ĠwÃ¡nĠjiÄģ":3217,"zuÃ¬ĠhÃ²u":3218,"ĠyÄ«ngĠchÇĲĠ":3219,"av":3220,"ĠĠĠ3":3221,"ĠjÃŃĠzhÅįngĠ":3222,"ĠnÇİo":3223,"ĠlÄģĠbÃ³":3224,"ĠdÅįuĠshÃ¬Ġ":3225,"dÃ©ĠdÃło":3226,"ĠbÃ¹ĠnÃ©ngĠ":3227,"ĠkuÃŃ":3228,"Ġ2022ĠniÃ¡nĠ":3229,"ĠpÃŃngĠlÃ¹nĠ":3230,"ĠĠĠformulaĠ":3231,"ĠzhÇĲĠshÃ¬Ġ":3232,"ĠdeĠhÃ©":3233,"ĠwÃłnĠrÃ©nĠ":3234,"xÄ«ĠshÄĽngĠ":3235,"ĠzuÃ¬ĠdÃł":3236,"ĠxÃº":3237,"ĠshÇİnĠ":3238,"yÄ«ĠyuÃłnĠ":3239,"shÄģo":3240,"ĠzhÃ¨ĠyÃłngĠ":3241,"im":3242,"ĠgÅįngĠyÃ¨":3243,"ĠxiÄģngĠdÄģngĠ":3244,"iÄĵ":3245,"ĠcÃ¡o":3246,"Ġ4Ġ":3247,"qiÃ¨":3248,"ÃłoĠlÃŃnĠpÇĲĠkÃ¨ĠyÃ¹nĠdÃ²ngĠhuÃ¬Ġ":3249,"ĠpÄ«ĠpÃŃngĠ":3250,"ov":3251,"xiÄģngĠguÄģnĠ":3252,"ĠyÃ¬ngĠyÃ²ngĠ":3253,"ĠshÃ¨ĠlÃ¬Ġ":3254,"guÃ³ĠmÃŃnĠ":3255,"xÄ«nĠde":3256,"ĠbÄģĠshÃ¬Ġ":3257,"liÃ¡nĠhÃ©":3258,"gÇĶĠ":3259,"ĠzhÃŃĠwÃ¹Ġ":3260,"ĠmÄĽiĠniÃ¡nĠ":3261,"ĠxiÃłngĠmÃ¹":3262,"zhÅįngĠhuÃ¡ĠrÃ©nĠmÃŃnĠgÃ²ngĠhÃ©ĠguÃ³":3263,"ĠxÄ«ĠyÃ¡ngĠ":3264,"ĠcÃ¬ĠshÃ¬ĠjiÃ¨ĠdÃłĠzhÃłnĠ":3265,"bÃłngĠ":3266,"ĠshÃŃĠÃ¨r":3267,"ĠyÄģnĠ":3268,"kÄģiĠshÇĲĠ":3269,"ĠdÃłĠxuÃ©Ġ":3270,"jÇĶĠ":3271,"qÃŃngĠkuÃłngĠ":3272,"ĠtÃ²uĠguÃ²":3273,"sÇĲĠwÃ¡ngĠ":3274,"ĠzhÄģnĠ":3275,"chÃºnĠ":3276,"ĠkÅįngĠjiÄģnĠ":3277,"ĠĠĠf":3278,"ĠÅįu":3279,"dÅįngĠbÄĽiĠ":3280,"ĠxÃ¬ĠbÄģo":3281,"ĠgÅįngĠfÄĵnĠ":3282,"yÄ«ĠxiÄĵ":3283,"inĠ":3284,"ĠĠĠb":3285,"ĠsÄ«ĠkÄĵ":3286,"ĠyÅįngĠ":3287,"ĠjiÃłnĠyÃ¬Ġ":3288,"ĠdÅįngĠjÄ«ngĠ":3289,"jÃŃĠde":3290,"ĠcÃ©ngĠjÄ«ngĠ":3291,"nÃŃĠ":3292,"miÃłnĠjÄ«ĠwÃ¨iĠ":3293,"ĠlÃŃĠkÄģiĠ":3294,"3ĠyuÃ¨":3295,"shÃ¬ĠdÃ¬Ġ":3296,"ĠkÄĵngĠ":3297,"mÄĽiĠzhÅįu":3298,"ĠjÇĶĠbÃłnĠ":3299,"ĠquÃ¡nĠqiÃº":3300,"ĠsÄ«ĠlÃ¡nĠ":3301,"ĠlÃ³uĠ":3302,"ĠjiÄĵĠduÃłnĠ":3303,"ĠshÄģnĠdÅįngĠ":3304,"ĠhÃ¡iĠyÇĴu":3305,"ĠshÃŃĠniÃ¡nĠ":3306,"ĠrÃ©nĠkÇĴuĠshÃ¹ĠliÃłngĠwÃ¨iĠ":3307,"ĠgÅįngĠgÃ²ngĠ":3308,"ĠbÇĲĠlÃ¬Ġ":3309,"ĠĠĠ196":3310,"ĠbÃ¨iĠÄĽr":3311,"Ġ2011ĠniÃ¡nĠ":3312,"ĠzhÇĶĠchÃŃ":3313,"8ĠyuÃ¨":3314,"ĠluÃ³Ġ":3315,"ĠxÃ¬ngĠde":3316,"ĠbÃ¹Ġde":3317,"45":3318,"liÇİngĠgÃ¨":3319,"chÃ¹Ġ":3320,"ĠchÃŃĠxÃ¹":3321,"ĠgÃłiĠniÃłnĠ":3322,"gÅįngĠkÄģiĠ":3323,"ĠgÄĵĠqÇĶĠ":3324,"ĠyÄ«ĠshÃ¬Ġ":3325,"duÅįĠ":3326,"196":3327,"nÃ¡":3328,"ĠjÄ«ĠbÄĽnĠ":3329,"ĠlÃ¹ĠxiÃłnĠ":3330,"bÃł":3331,"ĠguÃ³ĠwÃ¡ngĠ":3332,"90":3333,"ĠkuÃł":3334,"hÃºĠ":3335,"ĠhÄĵngĠ":3336,"ĠwÃ¨iĠyÃºĠfÇİĠguÃ³":3337,"shÇİngĠ":3338,"pÃº":3339,"ĠshÃ¬ĠchÇİngĠ":3340,"ĠdÃłĠde":3341,"yÃŃnĠhÃ¡ngĠ":3342,"ĠtÃ³ngĠyÃłngĠ":3343,"sÃłiĠshÃ¬Ġ":3344,"Ġ2007ĠniÃ¡nĠ":3345,"ĠĠĠyÄ«":3346,"ĠĠĠchÄĵĠzhÃłnĠ":3347,"ĠyÃ¬ĠshÃ¬Ġ":3348,"jÃ¬nĠshÃ¬Ġ":3349,"yÇĴuĠguÄģnĠ":3350,"yÃ¬ĠyuÃłnĠ":3351,"ĠxiÄģngĠduÃ¬Ġ":3352,"ĠyÃłĠzhÅįu":3353,"Ġ50":3354,"rÃło":3355,"ĠĠĠgÄĵnĠjÃ¹Ġ":3356,"ĠlÃłngĠ":3357,"rÃ¨nĠwÃ©iĠshÃ¬Ġ":3358,"ĠluÃłnĠ":3359,"ĠfÄĵnĠlÃ¨iĠ":3360,"ĠtÃŃĠchÅ«":3361,"ĠluÃ²Ġ":3362,"Ġ25":3363,"zÃłoĠchÃ©ngĠ":3364,"ĠshÄģo":3365,"ĠmÇİĠ":3366,"xÇĶĠduÅį":3367,"Ġhan":3368,"ĠwÃ©iĠÄĽr":3369,"ĠzÇĴngĠrÃ©nĠkÇĴu":3370,"wÃ©iĠyÄ«":3371,"fÃłnĠwÃ©iĠ":3372,"Ġ188":3373,"ĠwÃ¹ĠyuÃłnĠ":3374,"IĠ":3375,"ĠtiÄģnĠjÄ«nĠ":3376,"ĠhÇİnĠ":3377,"deĠshÃ¬ĠzhÃ¨nĠ":3378,"ĠcÃ¹":3379,"jiÃ©ĠmÃ¹":3380,"biÄģoĠzhÇĶnĠ":3381,"ĠpÃ¡iĠmÃŃngĠ":3382,"6ĠyuÃ¨":3383,"cÄģngĠ":3384,"ĠlÃ¡iĠde":3385,"mÃ¨ngĠ":3386,"ĠjiÃłnĠshÃ¨":3387,"yÃ¡nĠzhÃ²ngĠ":3388,"ĠcuÃ¬Ġ":3389,"ĠtÃ¨ĠzhÄĵngĠ":3390,"fÃ³":3391,"ĠdeĠxÄ«nĠ":3392,"ĠdeĠshÃ¹ĠjÃ¹Ġ":3393,"ĠĠĠzhÃ¨":3394,"zÃ©Ġ":3395,"cÃłiĠ":3396,"ĠmÄĽiĠgÃ¨":3397,"ĠcuÄ«":3398,"ĠbÄĽiĠbÃ¹":3399,"ĠqÄ«ngĠniÃ¡nĠ":3400,"zhÅįuĠshÃ¬Ġ":3401,"diÄģnĠ":3402,"00ĠwÃłnĠ":3403,"ĠtÇİo":3404,"lÃ¡iĠde":3405,"ĠtÇĶĠdÃ¬Ġ":3406,"kuÄģnĠ":3407,"ĠniÃłnĠ":3408,"ĠmÃ³ĠshÃ¬Ġ":3409,"Ġ2012ĠniÃ¡nĠ":3410,"zÃ¡":3411,"ĠrÃ¬ĠjÅ«nĠ":3412,"ĠpÃ¡nĠ":3413,"ĠbÃ¬ngĠjiÄģngĠ":3414,"ĠfÃºĠjiÃłnĠ":3415,"gÇİiĠwÃ©iĠ":3416,"ĠyÃ¡nĠjiÅ«Ġ":3417,"ĠmÃ¬ngĠmÃŃngĠ":3418,"bÇĲĠyÃł":3419,"ĠlÇİnĠ":3420,"ak":3421,"ĠÃ©rĠ":3422,"ĠchÃ©ngĠqÅ«Ġ":3423,"ĠwÃ¨iĠmÄĽiĠpÃŃngĠfÄģngĠ":3424,"5ĠyuÃ¨":3425,"yuÃ¡nĠde":3426,"ĠguÇĴĠ":3427,"ĠtÃło":3428,"shuÃ¬Ġ":3429,"ĠzhÃ¬ĠzÃło":3430,"ĠjiÃ¹ĠshÃ¬ĠzhÃ¨nĠ":3431,"ĠhuÇĲ":3432,"ĠsuÇĴĠshÇĶĠde":3433,"zÇĲĠ":3434,"ĠlÄĽngĠ":3435,"ĠchÃ©ngĠzhÃ¨nĠ":3436,"fÄĵiĠchÃ¡ngĠ":3437,"si":3438,"ĠzhÅįngĠguÃ³ĠdÃłĠlÃ¹":3439,"ĠjiÃłoĠtÃ¡ngĠ":3440,"ĠqÄ«ngĠchÃ¡o":3441,"kÄĽnĠ":3442,"hÃ¡oĠmÇĲĠ":3443,"ĠshuÇĲĠ":3444,"hÃ©ngĠxÄ«ngĠ":3445,"ĠyÄ«ĠcÃ¬Ġ":3446,"gÅįngĠyÃ¨":3447,"33":3448,"zÅ«nĠ":3449,"4ĠyuÃ¨":3450,"ĠdÃłĠqÅ«":3451,"ĠdÃ¬ngĠde":3452,"zhÇĶĠrÃ¨nĠ":3453,"ĠrÃ©nĠkÇĴuĠmÃ¬ĠdÃ¹ĠwÃ¨iĠmÄĽiĠpÃŃngĠfÄģngĠ":3454,"Ġ2005ĠniÃ¡nĠ":3455,"yÄ«ĠcÃ¬Ġ":3456,"ĠzhÇĲĠhuÄ«":3457,"ĠrÃ©nĠmenĠ":3458,"kÄģiĠfÃłngĠ":3459,"ĠjÇĲnĠbiÄģoĠsÃłiĠ":3460,"dÅįuĠshÃ¬Ġ":3461,"ĠgÃ¨ĠdÃ¬Ġ":3462,"chÃ¡Ġ":3463,"ĠĠĠ2":3464,"EĠ":3465,"ĠpÄģnĠ":3466,"2010ĠniÃ¡nĠ":3467,"ĠmÄĽiĠpÃŃngĠfÄģngĠ":3468,"wĠ":3469,"hÃ¡iĠyÇĴu":3470,"ĠshÃŃĠyÃłnĠ":3471,"rÃ¨nĠmÃ¬ngĠ":3472,"wÃ¨nĠtÃŃ":3473,"tÃ¨ĠbiÃ©":3474,"zÃ¬ĠjÇĲĠde":3475,"ĠyÇİnĠchÃłngĠ":3476,"ĠÃ©rĠshÃ¬Ġ":3477,"ĠxiÇİoĠshÃŃ":3478,"ĠcÃ³ngĠÃ©r":3479,"ĠchÇĶĠlÇĲ":3480,"ĠrÃ©nĠkÇĴuĠshÃ¹ĠliÃłngĠwÃ¨iĠrÃ©nĠ":3481,"Ġ2006ĠniÃ¡nĠ":3482,"ĠshÅ«ĠjÃ¬Ġ":3483,"kÃło":3484,"ĠwÃ©iĠyÃł":3485,"ĠĠĠ193":3486,"deĠyÄ«ĠbÃ¹ĠfÃ¨nĠ":3487,"ĠINS":3488,"jÃºĠ":3489,"mÇĲnĠ":3490,"ĠĠĠtÄģ":3491,"195":3492,"shÃ²uĠ":3493,"ĠmÃ¡":3494,"Ġ2013ĠniÃ¡nĠ":3495,"lÇľĠ":3496,"bÇĲngĠ":3497,"ĠtÃºnĠ":3498,"shÃ¬ĠshÃ¬Ġ":3499,"ĠxuÇİnĠjÇĶ":3500,"chÄģoĠguÃ²":3501,"ĠdÃŃĠ":3502,"ĠĠĠhÃ©":3503,"ĠÄģnĠquÃ¡nĠ":3504,"ĠsÃ¬ĠchuÄģnĠ":3505,"ĠyuÃ¨ĠtÃ¡iĠ":3506,"ĠniÃ¡nĠ1ĠyuÃ¨":3507,"shÃŃĠÃ¨r":3508,"Ġ2016ĠniÃ¡nĠ":3509,"ĠjÄ«ĠbÃłiĠ":3510,"ĠdÇİoĠyÇİnĠ":3511,"shÇĲĠy":3512,"wÃ¨nĠtÃŃĠ":3513,"ĠINSEE":3514,"deĠxiÇİo":3515,"ĠwÄĵiĠliÃ¡nĠ":3516,"ĠsÃ¨ĠliÃ¨":3517,"ĠdÃłĠyuÄĵ":3518,"ĠwÃ©nĠxuÃ©":3519,"tÃŃĠchÅ«":3520,"ĠzhÃŃĠzhÃ¬Ġ":3521,"ĠqÇĲĠyÃ¨":3522,"deĠxÄ«nĠ":3523,"ĠĠĠK":3524,"ĠxÃ¹nĠliÃłnĠ":3525,"ĠyÃ³uĠzhÃ¨ngĠbiÄģnĠmÇİĠwÃ¨iĠ":3526,"ĠĠĠO":3527,"ĠjÄ«ĠgÃ²u":3528,"ĠdeĠyuÃ¡nĠ":3529,"ĠdÄģngĠxuÇİnĠ":3530,"ĠhÅįngĠ":3531,"wÃ¨iĠfÇİĠguÃ³":3532,"wÃ¡nĠquÃ¡nĠ":3533,"ĠsÇĲĠwÃ¡ngĠ":3534,"ĠgÅįngĠnÃ©ngĠ":3535,"ĠjiÄĽĠ":3536,"ĠhuÃ²ĠzhÄĽ":3537,"ĠlÃºnĠdÅ«nĠ":3538,"ĠpÃºĠtÃ¡o":3539,"yÃ¬Ġde":3540,"Ġ2000ĠniÃ¡nĠ":3541,"ĠmiÃło":3542,"fÄģngĠxiÃłngĠ":3543,"ĠfÇİĠyuÃłnĠ":3544,"ĠkÇİnĠ":3545,"ĠpÃŃngĠtÃ¡iĠ":3546,"Ġ2014ĠniÃ¡nĠ":3547,"ĠzhÃ²u":3548,"ĠyÃ¬ĠzhÃ¬Ġ":3549,"tÃ©ngĠ":3550,"ĠmiÇİo":3551,"ĠliÃ¹ĠniÃ¡nĠ":3552,"dÃ¬ĠfÄģngĠ":3553,"ĠkÇİĠ":3554,"ĠcÃ¡nĠ":3555,"ĠsÄ«Ġde":3556,"ĠyÃºĠ199":3557,"ĠfÃºĠwÃ¹Ġ":3558,"ĠjÃ¬ĠhuÃłĠ":3559,"tÃ³ngĠshÃŃ":3560,"ĠtÄģngĠ":3561,"ĠrÃ©ngĠrÃ¡nĠ":3562,"ĠgÅįngĠlÃ¹":3563,"iÇİoĠzhÃłnĠ":3564,"ĠjiÄģngĠqÃŃ":3565,"ĠjiÃłnĠzhÃ¹Ġ":3566,"ĠyÇĴuĠshÃŃ":3567,"ĠliÃ¡nĠjiÄĵ":3568,"ĠshÅ«ĠguÇİnĠ":3569,"chÄģ":3570,"ĠÃ©ĠluÃ³ĠsÄ«":3571,"ĠshÃ¬ĠzhÅįngĠguÃ³":3572,"dÃ¬Ġde":3573,"Ġ2018ĠniÃ¡nĠ":3574,"ĠchÇİnĠpÇĲnĠ":3575,"ĠyÇĲngĠpiÃłnĠ":3576,"zÃłiĠcÃ¬Ġ":3577,"ĠyÄ«ngĠwÃ©nĠ":3578,"ĠnÃ¨":3579,"chÄģiĠ":3580,"xuÄĽ":3581,"ĠfÄģngĠxiÃłngĠ":3582,"gÃ¨Ġ":3583,"ĠshuÃłiĠ":3584,"ĠzÃ©Ġ":3585,"yÄģo":3586,"ĠxuÃ©ĠxÃŃ":3587,"sÅ«ĠliÃ¡nĠ":3588,"gÃ²ngĠyÇĴuĠrÃ©nĠkÇĴu":3589,"zhÃŃĠxÃŃngĠ":3590,"ĠbÃ¬ngĠbÃ¹":3591,"duÅįĠde":3592,"38":3593,"yÃ¬ĠqÇĲ":3594,"fÄģĠbÃ¹":3595,"lÄĽiĠ":3596,"ĠhÃ©ĠzuÃ²":3597,"ĠdÃłoĠde":3598,"ĠrÃ©nĠkÇĴuĠmÃ¬ĠdÃ¹ĠmÄĽiĠpÃŃngĠfÄģngĠ":3599,"diÃłnĠshÃ¬ĠtÃ¡iĠ":3600,"36":3601,"ĠshÃ¬ĠzhÃ¨nĠbiÄģnĠmÇİĠwÃ¨iĠ":3602,"ĠINSEEĠshÃ¬ĠzhÃ¨nĠbiÄģnĠmÇİĠwÃ¨iĠ":3603,"ĠwÄĵiĠÄĽr":3604,"ĠyÄ«ĠzhÇĴngĠ":3605,"ãĢİ":3606,"jÄ«ngĠguÃ²":3607,"Ġ2015ĠniÃ¡nĠ":3608,"ĠdÃłnĠtÄģ":3609,"ĠxiÃłĠlÃ¬ngĠshÃŃĠ":3610,"zhÃŃĠjiÄĵ":3611,"gÃ²ngĠtÃ³ngĠ":3612,"suÅį":3613,"ãĢı":3614,"ĠzhuÄģnĠyÃ¨":3615,"ĠyÄ«ĠyuÃłnĠ":3616,"ĠxiÄģngĠtÃ³ngĠ":3617,"ĠshuÃ²":3618,"ĠshÃŃĠdeĠrÃ©nĠkÇĴuĠshÃ¹ĠliÃłngĠwÃ¨iĠrÃ©nĠ":3619,"ĠxuÇİnĠqÅ«ĠwÃ¨iĠ":3620,"mÄĽiĠguÃ³ĠrÃ©nĠkÇĴuĠpÇĶĠchÃ¡ĠdeĠshÃ¹ĠjÃ¹Ġ":3621,"xÃ¬ngĠde":3622,"ĠÃ©rĠrÃ©nĠkÇĴuĠmÃ¬ĠdÃ¹ĠwÃ¨iĠmÄĽiĠpÃŃngĠfÄģngĠ":3623,"ĠdÄģngĠdÃ¬ĠgÃ²ngĠyÇĴuĠrÃ©nĠkÇĴu":3624,"ĠgÃłoĠ":3625,"ĠtiÃ¡oĠjiÃłnĠ":3626,"ĠwÃ¹ĠlÇĲ":3627,"tÇĲĠyÃ¹":3628,"ĠxuÃ©ĠzhÄĽ":3629,"ĠjÄ«ngĠchÃ¡ngĠ":3630,"ĠdÃ¨ngĠ":3631,"lÇĲngĠdÇİo":3632,"ĠguÄģnĠyuÃ¡nĠ":3633,"mÃ¡ngĠ":3634,"ĠxÄ«ĠgÄĵ":3635,"ĠhuÃ²ĠjiÃ¹ĠshÃ¬ĠzhÃ¨nĠ":3636,"ĠgÄģiĠshÄĽngĠfÃ¨nĠ":3637,"esĠ":3638,"Ġ2023ĠniÃ¡nĠ":3639,"ĠshÄĽngĠjÃŃĠxuÇİnĠqÅ«ĠwÃ¨iĠ":3640,"ĠyÄ«ĠyÃłngĠ":3641,"shÇİoĠ":3642,"ĠgÅįngĠchÇĲĠ":3643,"ĠjiÃłoĠshÃ²uĠ":3644,"Ġme":3645,"ĠzÃ¡ĠzhÃ¬Ġ":3646,"ĠhÃ¡ngĠ":3647,"ĠhÃ©ĠnÃ¡nĠ":3648,"yuÃ¡nĠniÃ¡nĠ":3649,"lÃ¬ĠyÃ²ngĠ":3650,"liÃ¡nĠbÄģngĠ":3651,"ĠxiÄģnĠhÃ²u":3652,"ĠĠĠJ":3653,"ĠbÅįĠ":3654,"ĠhÇİiĠbÃ¡ĠgÄģoĠdÃ¹Ġ":3655,"ĠguÃ³ĠhuÃ¬Ġ":3656,"ĠzÇİoĠniÃ¡nĠ":3657,"ĠĠĠdÃł":3658,"xuÃ©ĠxiÃłoĠ":3659,"ĠgÄģiĠshÄĽngĠfÃ¨nĠwÃ¨iĠfÇİĠguÃ³":3660,"zhÄ«ĠhÃ²u":3661,"fÃ¡":3662,"ĠÃ©rĠgÄģiĠdÃ¬Ġ":3663,"46":3664,"ĠtÄģĠhÃ¡iĠ":3665,"ĠyÄ«nĠÃ©r":3666,"ĠÃ©rĠzÃłiĠ":3667,"ut":3668,"ĠdÃ²ngĠhuÃł":3669,"ĠtÄģĠbÃ¨iĠ":3670,"deĠzhÇĶ":3671,"75":3672,"yÃ¬ĠbÄģnĠ":3673,"mÇİĠ":3674,"ĠdÄģ":3675,"tÃ¡iĠbÄĽiĠ":3676,"ĠdÃ¡ĠdÃło":3677,"gÃ¨ĠrÃ©nĠ":3678,"ĠniÃ¡nĠ10ĠyuÃ¨":3679,"ĠzhÄ«ĠjiÄģnĠde":3680,"ĠguÃ³ĠmÃŃnĠdÇİngĠ":3681,"mÃŃ":3682,"ĠÃ¨":3683,"ĠzhuÄģnĠjÃŃ":3684,"ĠbÃ¹ĠshÇİo":3685,"jiÃłnĠzhÃ¬Ġ":3686,"ĠlÇĲĠyÃł":3687,"ĠjÃŃĠde":3688,"fÄģĠdÃ²ngĠ":3689,"ĠcÇĲĠhÃ²u":3690,"xÄ«ĠbÄģnĠyÃ¡":3691,"ĠcÄģnĠsÃłiĠ":3692,"gÄģoĠ":3693,"bÇİnĠbÄĽnĠ":3694,"zhÄ«ĠjiÄģnĠde":3695,"ĠyuÃ¨ĠnÃ¡nĠ":3696,"ĠsÄģiĠÄĽr":3697,"ĠzuÃ²ĠbiÄģo":3698,"2ĠrÃ©nĠ":3699,"ĠĠĠzhÃ¬Ġ":3700,"dÄĽngĠrÃ©nĠ":3701,"kÃ¹nĠ":3702,"ĠyÃ¡nĠzhÃ²ngĠ":3703,"yuÃ¨ĠtÃ¡iĠ":3704,"ĠnÃ¬Ġ":3705,"ĠshÄĽngĠdeĠyÃŃĠgÃ¨ĠshÃ¬ĠzhÃ¨nĠ":3706,"wÃ¨iĠzhÃ¬Ġ":3707,"pÃŃngĠjÅ«nĠ":3708,"ĠdeĠshÇĴu":3709,"shÄĵnĠfÃ¨nĠ":3710,"quÃłnĠ":3711,"xÄ«ĠnÃ¡nĠ":3712,"ĠzhÅįngĠguÃ³ĠgÃ²ngĠchÇİnĠdÇİngĠ":3713,"ĠsuÃŃĠzhÃ¹":3714,"ĠyÇĴuĠxiÄĵ":3715,"rÃ©nĠlÃ¨iĠ":3716,"jiÃłoĠ":3717,"ĠlÇĲĠshÃ¬Ġ":3718,"ĠyÃ¬Ġde":3719,"ĠĠĠof":3720,"qÅ«ĠyÃ¹":3721,"ĠhÃ¡nĠguÃ³":3722,"dÅįngĠnÃ¡nĠ":3723,"gÄĵnĠjÃ¹":3724,"ĠbÄģngĠzhÃ¹":3725,"jiÄĽĠfÃłngĠjÅ«nĠ":3726,"Ã©Ġ":3727,"ĠbÃºĠhuÃ¬Ġ":3728,"ĠĠĠ1":3729,"ĠpiÃłoĠ":3730,"ĠyÇĲĠlÃ¡iĠ":3731,"zhÇĲĠyÇĴu":3732,"ĠtÄģĠyÄĽ":3733,"ĠduÅįĠgÃ¨":3734,"ĠyuÃ¡nĠbÄĽnĠ":3735,"ĠshÃŃĠqÄ«Ġ":3736,"pÃ¡ngĠ":3737,"ÅįuĠyuÃ¡nĠ":3738,"ĠtÇĴngĠjÃ¬Ġ":3739,"lÃŃĠkÄģiĠ":3740,"od":3741,"ĠzhÃŃĠwÃ¹":3742,"ĠfÇĴu":3743,"yÇİnĠyuÃ¡nĠ":3744,"ĠshÃ¹ĠjÃ¹":3745,"ĠjÄ«ngĠlÃ¬Ġ":3746,"nÃłiĠ":3747,"zhÄĽĠde":3748,"ĠyÃ²uĠmÃŃngĠ":3749,"ĠqÃ¹ĠshÃ¬Ġ":3750,"ĠyÃ¬ĠqÇĲ":3751,"Ġ6Ġ":3752,"dÄĽngĠdÃ¬Ġ":3753,"yÃłĠzhÅįu":3754,"ĠyÃ³uĠtÃłiĠ":3755,"ĠbÅįĠlÃ¡nĠ":3756,"rÃ©ngĠrÃ¡nĠ":3757,"mÃŃngĠchÄĵngĠ":3758,"ind":3759,"ĠjÄ«ngĠyÃŃngĠ":3760,"zhÃłnĠdÃ²u":3761,"ĠjuÃ©ĠsÃ¨Ġ":3762,"ev":3763,"hÇİiĠjÅ«nĠ":3764,"quÃ¡nĠqiÃº":3765,"ĠguÇĲĠdÃło":3766,"id":3767,"sÇĶnĠ":3768,"ĠĠĠth":3769,"ĠzÃ²ngĠ":3770,"ĠguÇİngĠbÅį":3771,"ĠshÃŃĠrÃ¨nĠ":3772,"ĠshÄĽngĠfÃ¨nĠ":3773,"Ġ187":3774,"ĠqÇĶĠdÃłiĠ":3775,"jiÃ©ĠmÃ¹Ġ":3776,"ĠxiÃłoĠ":3777,"zÄĵngĠjiÄģ":3778,"yÇĶnĠ":3779,"shÃ¬ĠyÃ³u":3780,"yÄĽĠyÇĴu":3781,"ĠĠĠcÇĲ":3782,"ĠchÃ¡ngĠqÄ«":3783,"ĠfÄģĠdÃ²ngĠ":3784,"Ġ40":3785,"ĠzÃ©ĠshÃ¬Ġ":3786,"ÄĽrĠlÃ¡nĠ":3787,"nÃ¡nĠxÃ¬ngĠ":3788,"St":3789,"ĠjÃ¬ĠlÃ¹Ġ":3790,"jÃ¬ngĠnÃ¨iĠ":3791,"ĠfÄģngĠfÇİ":3792,"ĠÎ":3793,"ĠdÃ¬ĠshÃŃ":3794,"Ġ2017ĠniÃ¡nĠ":3795,"ĠjÃŃĠqÃŃ":3796,"ĠchÅ«ĠrÃ¨nĠ":3797,"ĠshÃ¨ĠzhÃ¬Ġ":3798,"37":3799,"ĠgÇİiĠbiÃłnĠ":3800,"jiÄģngĠjÅ«nĠ":3801,"ĠzÇĲĠ":3802,"ĠyÇĲĠshÃłngĠ":3803,"ĠjiÄģĠshÃłngĠ":3804,"ĠbÃ¹ĠtÃ³ngĠde":3805,"duÃ¬ĠyÃº":3806,"bÄģoĠhÃ¡nĠ":3807,"ĠniÃ¡nĠ12ĠyuÃ¨":3808,"zhÇĲĠhuÄ«":3809,"ĠchÇĶĠyÃº":3810,"mÃ¬ngĠmÃŃngĠ":3811,"Ġ24":3812,"kÄĽĠdÃ¡":3813,"chÃł":3814,"lĠ":3815,"huÃ¡nĠjÃ¬ngĠ":3816,"ĠrÇİnĠ":3817,"ĠmÇİĠlÃ¬Ġ":3818,"hÃ©ĠnÃ¡nĠ":3819,"xiÃłnĠdÃłiĠ":3820,"shÄĵngĠhuÃ³Ġ":3821,"ĠjiÄĵĠrÇİngĠdeĠshÃ¬ĠzhÃ¨nĠ":3822,"dÃ¡Ġ":3823,"xiÃłĠxiÃ¡":3824,"ĠtiÄģnĠzhÇĶĠjiÃło":3825,"ĠguÃ³ĠjiÄģĠ":3826,"zÇĶĠzhÄ«Ġ":3827,"Ġ186":3828,"RĠ":3829,"ĠgÃ²ngĠhÃ©ĠguÃ³":3830,"ĠlÃºĠwÇİ":3831,"yÄģnĠ":3832,"ĠfÄģĠbÃ¹":3833,"ĠjÄ«ĠhÅ«":3834,"ĠwÃ©iĠyÄ«":3835,"ĠĠĠjiÇİnĠ":3836,"ĠbÃ¹ĠmÃ©nĠ":3837,"ĠchÅ«ĠshÄĵngĠ":3838,"ĠxuÇİnĠrÃ©nĠ":3839,"ĠĠĠgÄĵnĠjÃ¹":3840,"ĠyÄ«ĠwÃ¨iĠ":3841,"ĠdeĠzhÇĶ":3842,"nÃ¨iĠrÃ³ngĠ":3843,"yÃ¬ĠwÃ¨iĠ":3844,"ĠzhÃ¬ĠliÃ¡o":3845,"ĠwÇĶĠqÃ¬Ġ":3846,"ĠĠĠzÃ¬Ġ":3847,"ĠzhÅįngĠwÃ©nĠ":3848,"ĠhuÃ¡ngĠjiÄģ":3849,"ĠzhÄĽngĠgÃ¨":3850,"pÅį":3851,"ĠĠĠwÃ¨iĠ":3852,"kÄĵĠ":3853,"ĠlÃ¬ĠfÇİ":3854,"zhuÄģnĠjÃŃĠ":3855,"yÄĽĠshÃ¬Ġ":3856,"xÅ«nĠ":3857,"xiÃłngĠmÃ¹":3858,"dÇĴngĠ":3859,"bÃ¬ngĠbÃ¹":3860,"ĠbiÇİoĠ":3861,"lÇľĠbÄ«nĠ":3862,"nÇļĠzÇĲ":3863,"ĠquÄģnĠ":3864,"ĠshÃŃĠhÃ²uĠ":3865,"ĠshuÇĲĠyÃ¹":3866,"ĠqiÃłnĠ":3867,"ob":3868,"jÅ«nĠduÃ¬Ġ":3869,"ĠtÇĲĠzhÇİngĠ":3870,"ĠquÃ¡nĠbÃ¹":3871,"ĠcÃ¡iĠzhÃ¨ngĠ":3872,"yuÄĵĠ":3873,"Ã¼Ã¨Ġ":3874,"ĠshuÄģngĠfÄģngĠ":3875,"ĠchÅ«ĠshÄĵngĠyÃº":3876,"ĠdeĠyÃ¬Ġ":3877,"gÃłoĠ":3878,"kÅįngĠjiÄģnĠ":3879,"TA":3880,"ĠchÄģoĠjÃŃ":3881,"ÇĶĠÄĽrĠqÃŃ":3882,"ĠzhÃ¬ĠjÄ«nĠ":3883,"ĠlÄģĠkÃ¨":3884,"kuÃł":3885,"ĠlÃ¬ĠshÄģnĠ":3886,"4ĠrÃ©nĠ":3887,"bÄģĠshÃ¬Ġ":3888,"jiÃłnĠshÃ¨":3889,"ĠdÅįngĠbÃ¹":3890,"nÃ©ngĠgÃ²u":3891,"ĠhÇĶ":3892,"ĠyÃºnĠnÃ¡nĠ":3893,"chÅ«Ġde":3894,"ĠbiÇİoĠyÇİnĠ":3895,"mÃ²Ġ":3896,"ĠzuÃ¬ĠzÇİo":3897,"ĠĠĠV":3898,"ĠfÄĽnĠ":3899,"ĠzhÄ«ĠwÃłiĠ":3900,"ĠsÃłĠkÃ¨":3901,"ĠliÃºĠxÃŃngĠ":3902,"BĠ":3903,"ĠzhÃłiĠ":3904,"deĠshÇĴu":3905,"ĠxuÃ©ĠxiÃłoĠ":3906,"ĠwÃºĠxiÃłnĠ":3907,"ĠshÃ¬ĠmÄĽiĠguÃ³":3908,"jÄ«ĠdÃ¬Ġ":3909,"qÅ«ĠhuÃłĠ":3910,"ĠbÃ¬ĠyÃ¨Ġ":3911,"100":3912,"ĠchÄĵĠliÃłngĠ":3913,"ĠfÃ¹ĠzÃ©ĠguÇİnĠxiÃ¡Ġ":3914,"ĠnÃ¨iĠbÃ¹":3915,"ĠsuÇĴĠshÇĶĠdeĠshÄĽngĠjÃŃĠxuÇİnĠqÅ«ĠwÃ¨iĠ":3916,"ĠjiÃ©ĠshÃ¹":3917,"ĠkÄģiĠfÃłngĠ":3918,"yÃłĠ":3919,"dÃ¹Ġde":3920,"rÃ©nĠmÃŃnĠzhÃ¨ngĠfÇĶ":3921,"chuÃ¡nĠtÇĴngĠ":3922,"ĠdÃłiĠbiÇİoĠ":3923,"ĠmÃ³u":3924,"ĠhuÃ²ĠshÃ¬Ġ":3925,"eg":3926,"sÄ«ĠtÃ¨":3927,"ĠĠĠw":3928,"1ĠrÃ©nĠ":3929,"jÄ«Ġde":3930,"ĠcÃ©ngĠzÃłiĠ":3931,"ĠfÄģngĠÃłnĠ":3932,"xiÃ©ĠhuÃ¬Ġ":3933,"ĠkÅįngĠjÅ«nĠ":3934,"ĠkÄģ":3935,"chÃ©ngĠde":3936,"ÄģnĠpÃ¡iĠ":3937,"rÃ¨nĠhÃ©":3938,"ĠwÇİngĠluÃ²":3939,"ĠnÃ³ngĠyÃ¨":3940,"quÄģnĠ":3941,"Ġ2024ĠniÃ¡nĠ":3942,"zhuÃ³":3943,"zhÃºĠjiÃłnĠ":3944,"siĠ":3945,"tÃ³uĠ":3946,"ĠyÇĲnĠqÇĲ":3947,"chÃºĠ":3948,"ĠwÃ¨iĠfÃº":3949,"zhÅįngĠshÃ¬Ġ":3950,"ĠjiÄĵĠ":3951,"liÃłoĠ":3952,"ĠzhÇĶnĠbÃ¨iĠ":3953,"bÃºĠhuÃ¬Ġ":3954,"gÅįngĠbÃ¹":3955,"shÃłngĠwÃ¨iĠ":3956,"ĠdÃłĠduÅįĠshÃ¹":3957,"ĠmÇİĠlÃ¡iĠxÄ«ĠyÃł":3958,"xÄ«ĠbÄĽiĠ":3959,"zhÇĶĠxÃŃ":3960,"mÃ©iĠtÇĲ":3961,"hÇİoĠde":3962,"ĠchÃł":3963,"ĠdÃłĠxÃŃngĠ":3964,"gÅįngĠgÃ²ngĠ":3965,"dÄģngĠxuÇİnĠ":3966,"ĠwÄĽnĠdÃ¬ngĠ":3967,"chÃ¡oĠ":3968,"qÃ¹Ġ":3969,"bÃłoĠfÄģ":3970,"ĠjÄ«ngĠshÃ©nĠ":3971,"fÄĵnĠwÃ©iĠ":3972,"ĠzhÃ¹ĠmÃŃngĠ":3973,"dÅįngĠjÄ«ngĠ":3974,"ĠxÃ¹Ġ":3975,"ĠrÃ©nĠgÅįngĠ":3976,"ĠjiÃłoĠyÃ¹Ġ":3977,"ĠzÇİiĠ":3978,"og":3979,"ĠsuÃŃĠzhe":3980,"ĠzÅ«":3981,"fÃºĠwÃ¹Ġ":3982,"ĠpÄģiĠshÃ¨":3983,"ĠchÇĶĠ":3984,"mÃ¨iĠ":3985,"sÇĲĠ":3986,"Ġ2004ĠniÃ¡nĠ":3987,"ĠĠĠxiÃł":3988,"sÅįu":3989,"ĠgÄģoĠsÃ¹":3990,"ĠzÇĶĠzhÄ«Ġ":3991,"xuÇİnĠzÃ©":3992,"ĠguÃłiĠ":3993,"ĠzhÃ¹ĠzÃłiĠ":3994,"fÇİnĠduÃ¬Ġ":3995,"ĠĠĠ2021ĠniÃ¡nĠ":3996,"yÃ³uĠ":3997,"pÃ¡iĠmÃŃngĠ":3998,"ĠÃ¨rĠshÃŃ":3999,"MĠ":4000,"Â°":4001,"ĠzÃ²u":4002,"ĠxiÃłnĠrÃ¨nĠ":4003,"tÄģnĠ":4004,"ĠnÃ¡nĠjÄ«ngĠ":4005,"gÇİnĠrÇİnĠ":4006,"ĠtÄģĠyÇĶ":4007,"ĠjiÄģĠzÃº":4008,"guÃ³Ġde":4009,"xÃ¬ĠliÃ¨":4010,"ï½":4011,"ĠguÄģ":4012,"zhÃłnĠlÇĲngĠ":4013,"ĠzhÃ²ngĠdiÇİnĠ":4014,"ĠxuÄģnĠchuÃ¡nĠ":4015,"ĠxiÃłnĠdeĠyÃŃĠgÃ¨":4016,"lÇİngĠ":4017,"ĠtuÃ¡nĠduÃ¬Ġ":4018,"ĠquÃ¡nĠzhÇİngĠ":4019,"tÄģĠ":4020,"ĠzhuÃłngĠtÃłiĠ":4021,"kÅ«nĠ":4022,"zhÇĶĠchÃŃ":4023,"lÇĲĠlÃ¹nĠ":4024,"ĠhuÃ¡ngĠdÃ¬Ġ":4025,"xiÄģngĠtÃ³ngĠ":4026,"gÃ¹Ġ":4027,"shÃ¬ĠhÃ©":4028,"shÃ¬ĠzhÃ¨nĠ":4029,"ĠgÅįngĠbÃ¹":4030,"guÃ²ĠchÃ©ngĠ":4031,"ĠfÃ©iĠ":4032,"jÃŃĠqÃŃ":4033,"zhÄ«ĠxiÃłnĠ":4034,"ĠxiÄģoĠ":4035,"deĠyuÃ¡nĠ":4036,"bÃ¬ĠxÅ«":4037,"ĠjÃ¬ĠchÃ©ngĠ":4038,"uĠ":4039,"ĠmÃ¡ngĠ":4040,"ĠmiÃ¡oĠshÃ¹":4041,"ĠzÃłiĠzhÅįngĠguÃ³":4042,"bÃºĠshÃ¬Ġ":4043,"ĠqiÃ¡oĠ":4044,"ĠlÇĲĠde":4045,"guÇİngĠchÇİngĠ":4046,"shÃ¬ĠzhÅįngĠ":4047,"ĠĠĠyuÃ¡nĠ":4048,"ĠdÄĽngĠrÃ©nĠ":4049,"nÇĲ":4050,"ĠbÇİoĠchÃŃ":4051,"ÇĲĠyÃ¹Ġ":4052,"ĠdeĠyÄ«ĠbÃ¹ĠfÃ¨nĠ":4053,"55":4054,"ĠguÄ«Ġ":4055,"mÃ¹ĠqiÃ¡nĠ":4056,"ĠĠĠ2019ĠniÃ¡nĠ":4057,"ĠsÄģnĠshÃŃ":4058,"lÃ¹ĠxiÃłnĠ":4059,"ĠxÄ«ĠbÃ¹":4060,"ĠbÄĽiĠshÄĽngĠ":4061,"ĠnÃ¨iĠde":4062,"ĠjÇĲngĠchÃ¡":4063,"2ĠyuÃ¨":4064,"3ĠrÃ©nĠ":4065,"ĠlÃ¬ĠziĠ":4066,"xÃ¹nĠliÃłnĠ":4067,"jiÃ¹ĠshÃ¬Ġ":4068,"ĠtÄ«":4069,"ĠshÃ¨ĠbÃ¨iĠ":4070,"mÃ©ngĠgÇĶ":4071,"bÃ¹ĠzÃłiĠ":4072,"hÇİiĠbÃ¡":4073,"ĠhÃ²uĠzhÄĽ":4074,"ĠgÇİiĠbiÄģnĠ":4075,"bÇĲĠlÃ¬Ġ":4076,"la":4077,"ĠjÄ«ĠdÅ«":4078,"shÃ¨ĠzhÃ¬Ġ":4079,"ĠhÃ©ngĠ":4080,"Ġam":4081,"ĠnÃłnĠ":4082,"shÃ¬ĠchÇİngĠ":4083,"dÃ¬ĠshÃŃ":4084,"nÇļĠxÃ¬ngĠ":4085,"guÃ³ĠwÃ¡ngĠ":4086,"ĠshÃ¬ĠyÄ«ĠmÃŃngĠ":4087,"zhuÄģnĠjÃŃ":4088,"jÃ¬nĠde":4089,"sÄģnĠniÃ¡nĠ":4090,"jÃ¬ĠhuÃłĠ":4091,"ĠrÃ©nĠmÃŃnĠjiÄĽĠfÃłngĠjÅ«nĠ":4092,"zuÇĴĠyÃ²u":4093,"ĠĠĠr":4094,"ÃłnĠjiÃłnĠ":4095,"ĠshÄĵngĠzhÇİngĠ":4096,"You":4097,"ĠzhÄĵnĠduÃ¬Ġ":4098,"fÃ©ngĠ":4099,"deĠyÃ¬Ġ":4100,"wÃ¹ĠzhÇĴngĠ":4101,"hÃ¡iĠshÃ¬Ġ":4102,"mÃŃngĠdÄģnĠ":4103,"dÃłoĠle":4104,"bÇĶĠ":4105,"ĠxuÄĵ":4106,"ĠfÄĽiĠ":4107,"ĠzhÃłnĠyÃ¬Ġ":4108,"jÄ«ĠbÃłiĠ":4109,"9ĠrÃ©nĠ":4110,"kuÃŃ":4111,"ĠlÃ¡iĠyuÃ¡nĠ":4112,"guÇİngĠbÅį":4113,"oun":4114,"bÃ¹ĠmÃŃngĠ":4115,"duÅįĠcÃ¬Ġ":4116,"usĠ":4117,"VĠ":4118,"ĠdÃ¬ĠqiÃº":4119,"ĠguÃ³ĠlÃ¬Ġ":4120,"ĠĠĠ2020ĠniÃ¡nĠ":4121,"32":4122,"ĠshÃ¬ĠwÃ¹":4123,"ĠyÃŃĠchÇİnĠ":4124,"qÃŃĠzhÅįngĠ":4125,"zhÃŃĠyÃ¨":4126,"ĠĠĠ2018ĠniÃ¡nĠ":4127,"cÃ¡nĠ":4128,"ĠfÄĵiĠxÃŃngĠ":4129,"ĠÃ©rĠtÃ³ngĠ":4130,"ĠqÃŃĠyÃºĠgÄģngĠ":4131,"ĠwÃ¨iĠnÃ©ngĠ":4132,"ĠguÃ³ĠfÃ¡ngĠ":4133,"ĠÄĽrĠsÄ«":4134,"wÃ©nĠwÃ¹ĠbÇİoĠhÃ¹ĠdÄģnĠwÃ¨iĠ":4135,"sÄģnĠshÃŃ":4136,"ĠsuÃ¬Ġde":4137,"47":4138,"chÃ©ngĠjÃ¬Ġ":4139,"ĠĠĠ10":4140,"ãĥ":4141,"ĠchÃłngĠpiÃłnĠ":4142,"ĠxiÅįngĠdÃ¬Ġ":4143,"ĠjiÃ©ĠmÃ¹Ġ":4144,"chÃŃĠxÃ¹":4145,"Ġ00":4146,"ĠĠĠxÄ«nĠ":4147,"ĠbÄĽiĠmÄĽiĠ":4148,"shÃłoĠniÃ¡nĠ":4149,"eb":4150,"ĠhÃ©ĠlÃ¡nĠ":4151,"ĠpÇĶĠtÅįngĠ":4152,"ĠhuÄģnĠyÃŃngĠ":4153,"ĠĠĠd":4154,"kÇĴuĠ":4155,"xÃŃngĠwÃ©iĠ":4156,"ĠzhÇĶĠxÃŃĠ":4157,"ĠlÃ¬ĠyÃłĠ":4158,"tÃ²u":4159,"xÃŃĠ":4160,"ĠgÃ²ngĠxiÃłnĠ":4161,"ĠjÃ¬nĠyÃŃĠbÃ¹":4162,"ĠbÄģĠniÃ¡nĠ":4163,"zhÅįngĠhuÃ¡ĠmÃŃnĠguÃ³":4164,"ĠdÃłnĠbÃ¡iĠ":4165,"ĠchÃ¹Ġde":4166,"lÃ¹ĠdÃ¬ĠmiÃłnĠjÄ«ĠwÃ¨iĠ":4167,"ÃłoĠmÃ©nĠ":4168,"ĠshuÇĲĠyÃ¹ĠmiÃłnĠjÄ«ĠwÃ¨iĠ":4169,"zuÃ¬ĠjiÄģ":4170,"65":4171,"fÄĽnĠ":4172,"dÃ¬ĠsÃ¬Ġ":4173,"ĠyÃ³uĠqÃŃ":4174,"jÇĲĠ":4175,"ĠzhÃ¨ngĠzhuÃłngĠ":4176,"ĠduÅįĠcÃ¬Ġ":4177,"sÄģngĠ":4178,"ĠzhÄ«ĠmÃŃngĠ":4179,"ĠqiÃ¡nĠshÄĵnĠ":4180,"ĠshÃ¬ĠyÄ«ĠwÃ¨iĠ":4181,"ĠcÅ«nĠzhuÄģngĠ":4182,"hÃ©ĠbÃ¬ngĠ":4183,"ĠtÃ¨Ġde":4184,"uÃ³ĠwÄĵiĠ":4185,"ep":4186,"ĠxÃŃngĠtÃłiĠ":4187,"jiÄģĠnÃ¡ĠdÃł":4188,"ĠshÄģnĠmÃłiĠ":4189,"jiÃłnĠduÃ¬Ġ":4190,"dÄģ":4191,"ĠhÄģĠÄĽr":4192,"ĠsÄģ":4193,"ĠgÇİiĠgÃ©":4194,"chÅ«ĠshÄĵnĠ":4195,"ĠzuÃ¬ĠdÃłĠde":4196,"ĠbÄģĠlÃŃ":4197,"ĠjuÃ©ĠsÃłiĠ":4198,"yÃ¹nĠdÃ²ngĠyuÃ¡nĠ":4199,"bÃ¹ĠmÃ©nĠ":4200,"nÃłnĠ":4201,"ĠshÃ¬ĠshÃ¬Ġ":4202,"dÇĲĠ":4203,"bÃ¹ĠzhÇİngĠ":4204,"biÇİoĠxiÃłnĠ":4205,"ĠmÃłoĠyÃ¬Ġ":4206,"ï½ŀ":4207,"cÄģo":4208,"ĠquÃ¨ĠdÃ¬ngĠ":4209,"ĠhuÄ«ĠfÃ¹":4210,"uc":4211,"ĠjiÃłnĠzÃło":4212,"jÄ«ĠgÃ²u":4213,"hÃºnĠ":4214,"ĠampĠ":4215,"shÃ¬ĠwÃ¹":4216,"jiÄĵĠrÇİngĠ":4217,"ĠĠĠ2017ĠniÃ¡nĠ":4218,"ĠzhÇĲĠchÅ«Ġ":4219,"yÄ«ĠyÃłngĠ":4220,"tÃ²uĠguÃ²":4221,"ĠdÄģngĠzhÅįngĠlÃ¹ĠdÃ¬ĠmiÃłnĠjÄ«ĠwÃ¨iĠ":4222,"ĠÃ©rĠshuÇĲĠyÃ¹ĠmiÃłnĠjÄ«ĠwÃ¨iĠ":4223,"zhÃ¨ĠzhÇĴngĠ":4224,"qiÃºĠyuÃ¡nĠ":4225,"ĠĠĠgÃłiĠ":4226,"ĠzÅįngĠhÃ©":4227,"ĠhuÃ¬ĠzÃłiĠ":4228,"cuÃ¬Ġ":4229,"ĠzhÅįuĠniÃ¡nĠ":4230,"ĠjiÃ©ĠguÇĴĠ":4231,"cuÄ«":4232,"ĠshÃŃĠxiÃłnĠ":4233,"ĠzhÇĶĠ":4234,"ĠzÇĶĠfÃ¹":4235,"ĠrÃ©nĠzÃłiĠ":4236,"ĠshÄĵngĠyÃ¡":4237,"ĠjiÃ©ĠkÃ¨":4238,"FĠ":4239,"ĠpÃ²ĠhuÃłiĠ":4240,"ĠmÃ¹ĠbiÄģo":4241,"ĠguÇİngĠfÃłnĠ":4242,"jÃŃĠwÃ¨iĠ":4243,"ĠwÃ©nĠmÃŃngĠ":4244,"ĠyÇĲnĠfÄģ":4245,"shÃłngĠyÃ¬ngĠ":4246,"tÇĲĠde":4247,"ĠyÄ«ĠshÄĵngĠ":4248,"ĠjiÄģĠde":4249,"ĠyÃ¹nĠyÃŃngĠ":4250,"ĠxiÃ©ĠzhÃ¹":4251,"suÄ«":4252,"ĠsÄ«ĠtÇİ":4253,"chÇİnĠpÇĲnĠ":4254,"ĠjiÃłnĠde":4255,"ĠcÃ³ngĠshÃ¬Ġ":4256,"ĠshÄĽ":4257,"ĠzhÃŃĠmÃŃnĠ":4258,"ĠliÃ¡nĠxÃ¹":4259,"193":4260,"ĠĠĠtheĠĠĠ":4261,"chÅ«ĠshÄĵngĠ":4262,"ĠtÇĲngĠ":4263,"ĠzhÇĶĠjiÃło":4264,"dÃ²ngĠhuÃł":4265,"ĠwÃ©nĠzhÄģngĠ":4266,"ĠshÃ¨ngĠdÃ¹nĠ":4267,"ĠzhuÄģnĠjÃŃĠ":4268,"ĠshÃ©":4269,"ĠshÃ¬ĠzhÇĲ":4270,"ĠjÄ«ĠyÃº":4271,"xiÇİoĠxÃŃngĠxÄ«ngĠ":4272,"ĠnÃ¡nĠbÃ¹":4273,"ĠkÄģiĠshÇĲĠ":4274,"jÃ¬ĠlÃ¹":4275,"ĠxÄ«nĠzÄĵngĠ":4276,"ĠzÄ«ĠyuÃ¡nĠ":4277,"ĠjiÃłĠ":4278,"ĠTheĠĠĠ":4279,"shÇİnĠ":4280,"yÇĴuĠde":4281,"ĠqiÇİngĠ":4282,"ĠniÃ¡nĠ11ĠyuÃ¨":4283,"ĠyÃºĠlÃ¨":4284,"ĠcÃ¨ĠshÃ¬Ġ":4285,"ĠzÃ¬ĠxÃŃngĠ":4286,"ĠzÇĴngĠmiÃłnĠjÄ«Ġ":4287,"Ġ60":4288,"zÄ«ĠliÃłoĠ":4289,"ĠĠĠxÃŃngĠzhÃ¨ngĠqÅ«ĠhuÃłĠ":4290,"ĠCh":4291,"ĠkÃ¨ĠlÇĲ":4292,"ĠzhÃ¨ngĠzÃłiĠ":4293,"ĠjiÃłoĠhuÃ¬Ġ":4294,"ĠlÃ¬ĠyÃº":4295,"ĠlÃ¬ĠshÇĶĠyÃº":4296,"ĠtÇĲĠzhÇİngĠkÄĽĠdÃ¡":4297,"zÅ«":4298,"ĠtÃ¨ĠshÅ«":4299,"bÃ¬ngĠlÃ¬Ġ":4300,"iv":4301,"jiÄģngĠqÃŃ":4302,"ĠshÃł":4303,"ĠbÃłoĠgÃło":4304,"ĠwÇİngĠzhÃłnĠ":4305,"Ġ2002ĠniÃ¡nĠ":4306,"XĠ":4307,"zhÇĶĠxÃŃĠ":4308,"ĠdÃ¬ĠtiÄĽ":4309,"yÇİnĠchÃłngĠ":4310,"ew":4311,"zhÃ³u":4312,"yÃŃngĠdÃ©":4313,"ĠguÃ²ĠchÃ©ngĠzhÅįngĠ":4314,"34":4315,"ĠdiÄģnĠ":4316,"ĠmiÃ¡nĠ":4317,"ĠdÃ¬ĠxiÃł":4318,"dÃłĠhuÃ¬Ġ":4319,"ĠkÃ¹nĠ":4320,"zuÃ²ĠzhÃłnĠ":4321,"ĠwÅį":4322,"ĠyÄ«ngĠgÃ©ĠlÃ¡nĠ":4323,"ĠzÄ«ĠliÃło":4324,"ĠÅįuĠzhÅįu":4325,"ĠĠĠ2022ĠniÃ¡nĠ":4326,"ĠwÃłnĠlÃ¬Ġ":4327,"yÃ¡ĠlÃ¬Ġ":4328,"ĠxÅ«nĠ":4329,"ĠzhÃ¬ĠyÃº":4330,"shÃŃĠjÃ¬Ġ":4331,"ĠwÃ©iĠchÃŃ":4332,"ĠjÄ«nĠhuÃ¬Ġ":4333,"ĠyÃŃngĠdÃ©":4334,"ĠqiÃ³ngĠ":4335,"ĠĠĠSt":4336,"ĠchÄģiĠ":4337,"Ġ185":4338,"ĠjÇĲngĠfÄģngĠ":4339,"ĠyÃŃĠdÃ¬ngĠ":4340,"lÇĲĠy":4341,"ĠchÃ©ngĠrÃ¨nĠ":4342,"nÇİiĠ":4343,"ĠĠĠcÃ³ngĠ":4344,"ĠdeĠguÄģnĠ":4345,"dÃłĠliÃłngĠ":4346,"ĠĠĠ2016ĠniÃ¡nĠ":4347,"ĠsÃº":4348,"yÃºĠ199":4349,"miÃ¡oĠshÃ¹":4350,"ĠdÃ¬ĠyÄ«ĠcÃ¬Ġ":4351,"OĠ":4352,"ĠfÇİĠlÃ¡nĠ":4353,"leĠyÃŃĠgÃ¨":4354,"lÇĲĠshÃ¬Ġ":4355,"8ĠrÃ©nĠ":4356,"sÃłnĠ":4357,"zhÃŃĠwÃ¹":4358,"gÅįu":4359,"ĠbiÇİnĠ":4360,"ĠjÄ«ĠgÃ²uĠ":4361,"deĠguÄģnĠ":4362,"guÇİngĠfÃłnĠ":4363,"ĠtÃ²u":4364,"hÃ¡iĠziĠ":4365,"ĠzÃłiĠyÄ«":4366,"ĠyuÃ¡nĠzhÃ¹":4367,"niÃ¨":4368,"ĠtuÃ³":4369,"ĠjiÃłoĠshÃ²u":4370,"enĠĠĠ":4371,"shÄģngĠyÃ¨":4372,"Ġ21Ġ":4373,"ĠĠĠ4":4374,"ĠzhÃ¨ngĠmÃŃngĠ":4375,"ĠxÄ«ngĠjiÃłnĠ":4376,"lÃ¨iĠsÃ¬Ġ":4377,"ĠzÄģoĠdÃło":4378,"ĠgÅįngĠmÃŃnĠ":4379,"shÃ¨ĠbÃ¨iĠ":4380,"ĠzÃłiĠ199":4381,"ĠshÃ¬ĠrÃ¬ĠbÄĽnĠ":4382,"ĠbÃ¹ĠlÄģ":4383,"tÅ«Ġ":4384,"bÃ¨iĠchÄĵngĠwÃ©iĠ":4385,"liÃ¡nĠsÃłiĠ":4386,"lÃłiĠ":4387,"Ġ21":4388,"chuÃłngĠzuÃ²":4389,"ĠzuÃ²ĠbiÄģoĠwÃ¨iĠ":4390,"ĠtÃ³ngĠyÃ¬Ġ":4391,"shÃº":4392,"ĠĠĠ5":4393,"ĠlÇļĠyÃ³u":4394,"xiÃ¹Ġ":4395,"cÃ¹":4396,"ĠdÄģo":4397,"ĠtÃ³uĠzÄ«":4398,"ĠshÃ¬ĠyÇİnĠ":4399,"ĠguÇİngĠchÇİngĠ":4400,"ĠhuÄ«Ġ":4401,"nÃ¡nĠjÄ«ngĠ":4402,"bÃ³ĠwÃ¹ĠguÇİnĠ":4403,"zhÃ¬ĠjÄ«nĠ":4404,"ĠxiÃłnĠlÃ¹":4405,"ĠsÄ«ĠjÄ«":4406,"ĠjÇĲĠgÃ¨":4407,"hÃłoĠwÃ¨iĠ":4408,"ĠguÃ²ĠqÃ¹":4409,"shÃ²uĠshÄģngĠ":4410,"ĠbiÇİoĠmÃŃngĠ":4411,"ĠwÃ¨iĠfÃºĠqÃŃĠyÃºĠgÄģngĠ":4412,"zhÃŃĠwÃ¹Ġ":4413,"qÇĲĠyÃ²ngĠ":4414,"ĠĠĠ2014ĠniÃ¡nĠ":4415,"guÄģnĠzhÃ²ngĠ":4416,"indow":4417,"ĠhuÃŃĠdÃło":4418,"jÃ¬ĠsuÃłnĠ":4419,"ĠzhÇİnĠkÄģiĠ":4420,"ÃłoĠdÃłĠlÃ¬ĠyÃł":4421,"kÄĵĠjÃ¬Ġ":4422,"ÃłoĠyÃ¹nĠhuÃ¬Ġ":4423,"dÄ«Ġ":4424,"ĠyÃ¬ĠmÄĽiĠyuÃ¡nĠ":4425,"shÃ¬ĠyÃŃĠgÃ¨":4426,"6ĠrÃ©nĠ":4427,"dÃ¡ĠdÃło":4428,"chuÃ¡ngĠ":4429,"ĠliÇİngĠzhÇĴngĠ":4430,"chÃ¡oĠxiÄģnĠ":4431,"ĠhansĠ":4432,"ĠtwĠ":4433,"bÃ¹ĠhÃ©":4434,"liÃºĠ":4435,"zhÇİnĠkÄģiĠ":4436,"NA":4437,"Ã©rĠtÃ³ngĠ":4438,"ĠlÃŃnĠshÃŃ":4439,"zhÃ¨ĠyÄ«":4440,"ĠzhÃ¨ngĠdÇİngĠ":4441,"lÄĽngĠ":4442,"gÃ¹ĠshÃ¬Ġ":4443,"ĠzhÃ¬ĠliÃłngĠ":4444,"ĠchuÃŃ":4445,"ĠzhÃ¨ngĠcÃ¨":4446,"NĠ":4447,"rÃ©nĠshÃ¹":4448,"ĠkÄĵĠjÃ¬Ġ":4449,"ĠxiÇİoĠshuÅį":4450,"ĠĠĠU":4451,"ĠzÃłiĠmÄĽiĠguÃ³":4452,"ĠhÇİiĠÃłnĠ":4453,"zÄģoĠdÃło":4454,"ĠdÅįngĠlÃŃnĠ":4455,"gÄģoĠsÃ¹":4456,"xiÇİnĠshÃ¬Ġ":4457,"ĠrÃ©nĠkÇĴuĠmÃ¬ĠdÃ¹ĠmÄĽiĠpÃŃngĠfÄģngĠgÅįngĠlÇĲĠ":4458,"juÃ©ĠsÃ¨":4459,"tÄģĠmenĠde":4460,"ĠzÃ¨ngĠ":4461,"ĠĠĠÄģ":4462,"ĠdÃ¬ĠwÇĶ":4463,"ĠxiÃłngĠmÃ¹Ġ":4464,"ĠbiÄģoĠzhÃ¬Ġ":4465,"ĠlÇĶĠ":4466,"ÄģnĠzhuÄģngĠ":4467,"ĠdÃ¬ĠwÃ¨iĠ":4468,"bÃ¹ĠnÃ©ngĠ":4469,"ĠpÃŃngĠjiÃłĠ":4470,"yÅįngĠ":4471,"xiÃłĠde":4472,"ĠbiÃ©Ġ":4473,"yÄ«ĠmÃŃngĠ":4474,"huÃ¬ĠzÃłiĠ":4475,"ĠgÇĶnĠ":4476,"wÇİngĠzhÃłnĠ":4477,"ĠguÃ³ĠnÃ¨iĠ":4478,"ĠzhÄ«ĠyuÃ¡nĠ":4479,"jiÄģoĠyÃ¬Ġ":4480,"ĠwÃ¨iĠlÃ¡iĠ":4481,"ĠmÃŃngĠzhÃ¬Ġ":4482,"ali":4483,"ĠyÇĴuĠrÃ©nĠ":4484,"ĠsÄ«ĠxiÇİngĠ":4485,"shÄĵngĠwÃ¹":4486,"guÇİnĠlÇĲĠ":4487,"ĠĠĠ2015ĠniÃ¡nĠ":4488,"ĠĠĠdeĠshÃŃ":4489,"ĠjÃ¬nĠgÅįngĠ":4490,"ï¼ı":4491,"ĠfÄĵngĠgÃ©":4492,"ĠxuÃ©ĠshÃ¹":4493,"ÇĲĠyÃ¨Ġ":4494,"ĠjiÇİoĠ":4495,"ĠfÄĵiĠjÄ«":4496,"ĠsÃ¹ĠdÃ¹":4497,"ĠjiÄĽĠshÃ¬Ġ":4498,"ĠtiÄĵ":4499,"ĠtÃ³uĠ":4500,"hÇĶ":4501,"jiÇİoĠ":4502,"ĠliÃ¡nĠxÃ¬Ġ":4503,"bÇİoĠchÃŃ":4504,"ĠdeĠyÄ«ĠzhÇĴngĠ":4505,"lÃºnĠdÅ«nĠ":4506,"jÅ«Ġ":4507,"Ġ2003ĠniÃ¡nĠ":4508,"ĠĠĠ2013ĠniÃ¡nĠ":4509,"jÄ«ĠbÄĽnĠ":4510,"ĠzhÅįuĠbiÄģnĠ":4511,"ĠzhÃ¹ĠyÃ¬Ġ":4512,"gÄĵĠ":4513,"ĠzhÄ«ĠchÃŃĠ":4514,"ÄģnĠnÃł":4515,"ĠmÄĽngĠ":4516,"ĠĠĠsuÇĴĠshÇĶĠdeĠshÄĽngĠjÃŃĠxuÇİnĠqÅ«ĠwÃ¨iĠ":4517,"ĠshÃ¬ĠshÃŃ":4518,"ĠĠĠdeĠyÃ³uĠzhÃ¨ngĠbiÄģnĠmÇİĠwÃ¨iĠ":4519,"ĠĠĠyÃºĠshÃŃĠdeĠrÃ©nĠkÇĴuĠshÃ¹ĠliÃłngĠwÃ¨iĠrÃ©nĠ":4520,"ĠĠĠdeĠshÃŃĠqÅ«ĠwÃ¨iĠ":4521,"ĠdeĠqÃŃĠzhÅįngĠ":4522,"ĠjÃ¬nĠshÃ¬Ġ":4523,"liÃ¨ĠwÃ¨iĠ":4524,"ĠÑ":4525,"ĠĠĠyÇĶĠjiÄĵĠrÇİngĠdeĠshÃ¬ĠzhÃ¨nĠ":4526,"ĠtÄģnĠ":4527,"ĠchÃ¡nĠ":4528,"dÃ¬ĠqÅ«Ġde":4529,"zhÃ¨ngĠfÇĶĠ":4530,"fÄģĠshÃ¨":4531,"ĠtiÃ¡oĠ":4532,"lÃ¬ĠfÇİ":4533,"ĠliÃ¡nĠhÃ©ĠguÃ³":4534,"ĠzÃ¬ĠzhÃ¬ĠqÅ«":4535,"64":4536,"2022ĠniÃ¡nĠ":4537,"shÃłngĠshÃ¬Ġ":4538,"chÃ¨nĠ":4539,"zhÇĶĠyÇİnĠ":4540,"pÃŃngĠmiÃłnĠ":4541,"ĠqiÃ¡oĠzhÃ¬Ġ":4542,"fÄģngĠde":4543,"ĠjÄ«nĠshÇĶ":4544,"tÇĴngĠzhÃ¬Ġ":4545,"qÃŃĠshÃ¬Ġ":4546,"diÃłnĠziĠ":4547,"xÃ¬ĠbÄģo":4548,"dÃ²ngĠwÃ¹":4549,"biÇİoĠyÇİnĠ":4550,"xiÃ©Ġ":4551,"dÃ¬ĠxiÃł":4552,"cÃ©ngĠjÄ«ngĠ":4553,"ĠjiÄģngĠsÅ«":4554,"ĠwÃłiĠde":4555,"ĠfÇİnĠhuÃŃ":4556,"ĠniÃ¡nĠqÄ«ngĠ":4557,"ĠtiÃ¡oĠzhÄĽngĠ":4558,"ingĠĠĠ":4559,"qÄ«ngĠniÃ¡nĠ":4560,"ĠlÃ¹ĠyÃ¬Ġ":4561,"ĠdÄģngĠniÃ¡nĠ":4562,"fÄģĠdiÃłnĠ":4563,"ĠwÃ©nĠjiÃłnĠ":4564,"ĠsÄ«ĠlÃŃnĠ":4565,"7ĠrÃ©nĠ":4566,"ĠsÄ«ĠkÇİ":4567,"xiÄģngĠdÄģngĠ":4568,"qiÇİngĠ":4569,"ĠzhÇĲĠzÃłiĠ":4570,"wÃłiĠjiÄģo":4571,"ĠzÃłoĠ":4572,"ĠlÃ¬ĠshÇĲĠ":4573,"ĠxuÃ©ĠjiÄģĠ":4574,"xiÃłĠjÃ¬ĠÃłoĠlÃŃnĠpÇĲĠkÃ¨ĠyÃ¹nĠdÃ²ngĠhuÃ¬Ġ":4575,"39":4576,"ĠkÄĽĠnÃ©ngĠshÃ¬Ġ":4577,"der":4578,"alĠ":4579,"ĠtÇĴngĠyÄ«":4580,"ĠrÃ©nĠdÃł":4581,"xiÃłnĠzhÃ¬Ġ":4582,"ĠjÃºĠzhÇİngĠ":4583,"ĠxÄ«nĠjiÄģĠpÅį":4584,"qiÃºĠchÇİngĠ":4585,"ĠhuÃ²ĠdÃ©Ġle":4586,"ĠjÃŃĠshÇĲ":4587,"ĠtÇİoĠlÃ¹nĠ":4588,"ĠhkĠ":4589,"ĠpÇĶĠ":4590,"ĠbÃ¹ĠjiÇĶ":4591,"xiÃłnĠrÃ©nĠ":4592,"zhÄģnĠ":4593,"ĠwÃ¨iĠxÄ«ngĠ":4594,"ĠjiÄĽĠjuÃ©":4595,"ĠfÄĵiĠjiÃłnĠzhÃ¬Ġ":4596,"ĠxiÃłnĠxiÃłngĠ":4597,"ĠduÅįĠniÃ¡nĠ":4598,"ĠbÇĲĠjiÃło":4599,"xiÃłnĠzÃłiĠ":4600,"ĠjiÄĽĠfÃłngĠ":4601,"yuÃ¡nĠyÄ«nĠ":4602,"ĠtÄģĠcÃ©ngĠdÃłiĠbiÇİo":4603,"ĠhÃ©ĠpÃŃngĠ":4604,"ĠzhÃ¡":4605,"rÃ¨ĠdÃłiĠ":4606,"ĠgÅįngĠlÃ¹Ġ":4607,"ĠjÃ¹ĠjuÃ©":4608,"zÃ©ĠshÃ¬Ġ":4609,"ly":4610,"ĠyÃºĠ198":4611,"ĠdiÃłnĠtÃ¡iĠ":4612,"xuÇİnĠjÇĶĠ":4613,"ĠĠĠqÃŃ":4614,"ĠdeĠchÃ©ngĠ":4615,"ĠqiÃ¡nĠlÃ³ngĠ":4616,"ĠbÃ¹ĠkÄĽ":4617,"jiÃ©ĠgÃ²u":4618,"ĠtuÃ¡nĠtÇĲ":4619,"ĠbÃ¹ĠlÇĶ":4620,"wÄĽiĠshÅ«ĠjÃ¬Ġ":4621,"hÃ©ĠpÃŃngĠ":4622,"jÃ¹ĠlÃŃ":4623,"ĠgÄģoĠzhÅįngĠ":4624,"ĠtÃłiĠpÃŃngĠyÃ¡ngĠ":4625,"ĠmÃ¡oĠqiÃº":4626,"xiÇİoĠ":4627,"mÃŃnĠzÃº":4628,"qÇĲĠyÃ¨":4629,"Ġ500":4630,"ĠÄĽrĠde":4631,"ĠrÃ©nĠkÇĴuĠmÃ¬ĠdÃ¹Ġ":4632,"ĠdÃºĠ":4633,"gÅįngĠnÃ©ngĠ":4634,"ĠshÃ¬ĠtÃº":4635,"ĠfÄģĠshÃ¨":4636,"yÄ«ngĠgÃ©ĠlÃ¡nĠ":4637,"ĠjiÄģĠrÃ©nĠ":4638,"pÇĶĠ":4639,"ĠtÇĲĠxÃ¬Ġ":4640,"ĠjiÇĶĠniÃ¡nĠ":4641,"BC":4642,"kÄĵngĠ":4643,"zÃ¬ĠrÃ¡nĠ":4644,"jiÄĵĠduÃłnĠ":4645,"ĠshÇİoĠshÃ¹":4646,"Ġ28":4647,"ĠguÄ«ĠhuÃł":4648,"ĠruÃ¬ĠshÃ¬Ġ":4649,"ĠjiÄĵĠwÃ¨iĠ":4650,"ĠtÃŃĠshÄĵngĠ":4651,"ĠhÃ©ĠbÃ¬ngĠ":4652,"guÇİngĠdÅįngĠ":4653,"ĠfÄģngĠfÇİĠ":4654,"ĠchÃ³ngĠjiÃłnĠ":4655,"mÃ³ĠshÃ¬Ġ":4656,"ĠgÅ«ĠjÃ¬Ġ":4657,"ĠqÄ«ĠzÇĲ":4658,"Ã¨rĠshÃ¬Ġ":4659,"hÇİoĠ":4660,"ĠzuÃ²ĠzhÃłnĠ":4661,"ĠhuÃ¡Ġ":4662,"huÃ²ĠdÃ©Ġle":4663,"ĠpÇİo":4664,"shÃŃĠyÃłnĠ":4665,"ĠyuÃ¡nĠyÃº":4666,"zhÃłnĠyÃ¬Ġ":4667,"lÇĲĠde":4668,"jÇĲngĠchÃ¡":4669,"ÄĽrĠdÃ©":4670,"ĠtÃ¨ĠbiÃ©ĠshÃ¬Ġ":4671,"ÃłnĠde":4672,"ĠwÃ¨iĠshÄĵngĠ":4673,"ĠyÃ¹nĠshÅ«":4674,"ĠnÇļĠÃ©r":4675,"ĠshÄĵngĠmÃ¬ngĠ":4676,"ĠnÃ¡nĠxÃ¬ngĠ":4677,"ĠfÄĵiĠjiÃłnĠzhÃ¬ĠdÃ¬ĠqÅ«Ġ":4678,"dÅ«Ġ":4679,"ĠbÃ¬ĠmiÇİnĠ":4680,"ĠmÃ³ĠxÃŃngĠ":4681,"ĠshÃ¬ĠxuÃ©ĠwÃ¨iĠ":4682,"ĠkÃ¨Ġde":4683,"ĠcÃ¬ĠniÃ¡nĠ":4684,"ĠliÃºĠyÃ¹":4685,"ĠmÃ©ngĠgÇĶ":4686,"LĠ":4687,"ĠĠĠyÇĲĠxiÃł":4688,"ĠjiÃłnĠduÃ¬Ġ":4689,"ĠdÃ²ngĠlÃ¬Ġ":4690,"ĠlÇĲngĠyÃ¹":4691,"ĠruÃ¬ĠdiÇİnĠ":4692,"ĠgÅįngĠjÄ«":4693,"ĠxiÃłngĠzhÄĵngĠ":4694,"ĠjuÄģnĠ":4695,"ĠfÄĵnĠxÄ«":4696,"ĠxiÄĽĠ":4697,"ĠkÃ¨ĠchÃ©ngĠ":4698,"ĠdÃ¬ngĠwÃ¨iĠ":4699,"ĠbÃ³ĠtÃ¨Ġ":4700,"ĠliÇİo":4701,"ĠqÄ«ĠxÄ«ĠzÃłiĠ":4702,"ĠwÄģ":4703,"ĠjiÇİngĠxiÃłngĠ":4704,"ĠbÃ¡":4705,"jÃ¬ĠchÃ©ngĠ":4706,"ĠjiÃ©ĠgÃ²uĠ":4707,"zhÃ²ngĠyÃłoĠde":4708,"20Ġ":4709,"ĠhÃ¹nĠ":4710,"ĠnÃ¡nĠzhÃ¬Ġ":4711,"esĠĠĠ":4712,"ĠdÃłĠchÃ©nĠ":4713,"jiÃłnĠchÃ©ngĠ":4714,"ĠchÃ¡iĠ":4715,"ĠbiÇİoĠmiÃłnĠ":4716,"yuÄĵĠhÃłnĠ":4717,"kÃ¹Ġ":4718,"jiÃ¹Ġ":4719,"qiÃ¡oĠ":4720,"ÄģĠlÄģĠbÃ³":4721,"Ã©rĠyÃ¡nĠ":4722,"ĠguÃ³ĠwÃ¹ĠyuÃłnĠ":4723,"Ġ35":4724,"95":4725,"ex":4726,"est":4727,"ĠjÄ«ĠguÄģnĠ":4728,"quÃ¡nĠlÃ¬Ġ":4729,"ĠniÃ¡nĠ1ĠyuÃ¨Ġ1ĠrÃ¬Ġ":4730,"ĠbÃ¹ĠduÃłnĠ":4731,"ĠxiÃłoĠzhÇİngĠ":4732,"ĠkÇİĠÄĽr":4733,"ĠshÄĵngĠyÃ¡Ġ":4734,"huÃ¡Ġ":4735,"qÇĲĠlÃ¡iĠ":4736,"wÃ¨iĠle":4737,"tÃ³ngĠyÄ«":4738,"bÃ¹ĠtÃ³ngĠde":4739,"ĠĠĠxÄ«":4740,"deĠzhÇĶĠyÃło":4741,"ĠsÄ«ĠrÃ©nĠ":4742,"ĠsÄ«ĠhÃ©":4743,"ĠdÃłnĠyÃ³uĠyÃº":4744,"ĠjiÃ¹Ġ":4745,"zhÃ¬ĠzÃło":4746,"ĠgÄĵĠshÇĴu":4747,"ĠxiÃ©ĠyÃ¬Ġ":4748,"ĠqÃºnĠdÇİo":4749,"orĠ":4750,"ĠlÃºnĠbÇĲĠyÃł":4751,"xiÄĵ":4752,"ĠshÃŃĠfÄĵnĠ":4753,"ĠĠĠzhĠ":4754,"ĠzÃłiĠqÃŃ":4755,"zhÇİngĠde":4756,"31":4757,"ĠlÄģĠfÅ«":4758,"ĠjiÄĵĠdÃło":4759,"ĠdiÃłnĠshÃ¬ĠtÃ¡iĠ":4760,"xÃº":4761,"shÃŃĠxiÃłnĠ":4762,"ĠzuÇĴĠyÃ²u":4763,"ĠjiÃłnĠkÄģngĠ":4764,"jÃ¬nĠgÅįngĠ":4765,"ĠcÇĲĠshÃŃ":4766,"fÄĵiĠxÃŃngĠ":4767,"chÅ«ĠrÃ¨nĠ":4768,"ĠwÃ¨iĠyÄ«":4769,"ĠzhÃ¬ĠshÇİo":4770,"jiÄģoĠ":4771,"xÄ«ĠwÃłngĠ":4772,"ĠĠĠmÇİ":4773,"ĠtÃ²ngĠ":4774,"Ġ10Ġ":4775,"ationĠĠĠ":4776,"44":4777,"ĠyÄ«ngĠgÄģiĠ":4778,"ĠyÃ²ngĠhÃ¹":4779,"ĠzhÇĲĠchÅ«":4780,"ĠzhÇĲĠnÃ©ngĠ":4781,"ĠyÇİngĠhuÃł":4782,"huÄ«ĠfÃ¹":4783,"pÄ«ĠpÃŃngĠ":4784,"ĠmÄĽiĠnÃŃĠyÃł":4785,"yÃŃĠzhÃ¬Ġ":4786,"ĠsÃ¬ĠgÃ¨":4787,"jÃ¬nĠxÃŃngĠle":4788,"ĠpÃŃnĠdÃło":4789,"ĠzhÅįngĠxuÃ©":4790,"diĠ":4791,"sÃº":4792,"ĠzhÃ¨ĠcÃ¬Ġ":4793,"ĠjÃ¬nĠxÃŃngĠle":4794,"ĠyÄ«ngĠxiÃ³ngĠ":4795,"ĠkÃ²u":4796,"ÇĲĠyÃło":4797,"ĠnÃ¡nĠbÄĽiĠ":4798,"zÃ¬ĠzhÃ¬Ġ":4799,"wÃ¨iĠnÃ©ngĠ":4800,"ĠshÃŃĠshÄ«":4801,"ĠjiÄģĠlÃ¬Ġ":4802,"ĠlÃ¬ngĠyÃŃĠgÃ¨":4803,"guÄģnĠyÃº":4804,"ĠliÇİngĠniÃ¡nĠ":4805,"ĠlÃ¨iĠxÃŃngĠ":4806,"ĠbÄĽiĠqÇĲ":4807,"jÇĶĠrÃ©nĠ":4808,"ĠĠĠ6":4809,"ĠmÃŃngĠxiÇİnĠ":4810,"miÃłnĠde":4811,"ĠdÃłoĠlÃ¹":4812,"ĠwÃłnĠyuÃ¡nĠ":4813,"quÃ¨ĠzhÄĽnĠ":4814,"ĠyÇĴuĠxiÃło":4815,"ĠdÃ²ngĠwÃ¹Ġ":4816,"ĠmÇĲĠyÃł":4817,"jiÃ©ĠgÃ²uĠ":4818,"ĠqÃŃĠzhÅįngĠbÄģoĠkuÃ²":4819,"Ġ2019":4820,"Ġ23":4821,"85":4822,"hÃ©ĠxÄ«nĠ":4823,"ĠshÃ¹ĠzÃ¬Ġ":4824,"ĠrÃ¨nĠwÃ¹":4825,"ĠxÃŃĠxÃ¬ngĠ":4826,"ia":4827,"ĠgÇĴu":4828,"ĠzÃłiĠjiÄģ":4829,"jÃŃĠzhÅįngĠ":4830,"wÄĽiĠhuÃ¬Ġ":4831,"dÇİoĠyÇİnĠ":4832,"ĠhÃºĠnÃ¡nĠ":4833,"ik":4834,"ĠshÃ©nĠjÄ«ngĠ":4835,"ack":4836,"jiÃłnĠyÃº":4837,"ĠjiÃ©ĠhÅ«nĠ":4838,"ran":4839,"zhÅįngĠxuÃ©":4840,"dÃ¬ĠyÄ«ĠcÃ¬Ġ":4841,"ĠliÇĶ":4842,"tÃºnĠ":4843,"OS":4844,"bÃ¬ngĠdÃº":4845,"diÄģo":4846,"pÄģiĠshÃ¨":4847,"ĠxuÃ©ĠhuÃ¬Ġ":4848,"ĠwÃ¹Ġde":4849,"zÄ«ĠyuÃ¡nĠ":4850,"chÇĶĠlÇĲ":4851,"tuÄ«ĠchÅ«":4852,"ĠyÇĲĠsÃ¨ĠliÃ¨":4853,"dÃłĠbÃ¹ĠfÃ¨nĠ":4854,"ĠxiÃłĠlÃ¡iĠ":4855,"ĠyÃ¹nĠxÃŃngĠ":4856,"ĠshÄĵnĠqÇĲngĠ":4857,"ĠĠĠjiÄģĠzÃºĠ":4858,"ĠwÃ©nĠhuÃłĠ":4859,"ĠfÄĵiĠzhÅįu":4860,"ĠbÅįĠchÅ«Ġ":4861,"2020ĠniÃ¡nĠmÄĽiĠguÃ³ĠrÃ©nĠkÇĴuĠpÇĶĠchÃ¡ĠdeĠshÃ¹ĠjÃ¹Ġ":4862,"ĠyÇĶĠde":4863,"ĠzhÇĶĠtÃŃ":4864,"ĠĠĠ2012ĠniÃ¡nĠ":4865,"ĠbiÃłnĠhuÃł":4866,"ĠmÄĽiĠguÃ³Ġ":4867,"guÃł":4868,"ĠtiÃło":4869,"ĠÃłoĠmÃ©nĠ":4870,"ĠĠĠ2023ĠniÃ¡nĠ":4871,"dÃŃĠ":4872,"deĠqÃŃngĠkuÃłngĠ":4873,"ĠĠĠzÇİoĠniÃ¡nĠ":4874,"ĠkuÃłiĠsÃ¹":4875,"shuÄģiĠ":4876,"ĠyÃŃĠmÃŃnĠ":4877,"ĠĠĠh":4878,"guÄģnĠfÄģngĠ":4879,"ĠxÃ¬ngĠbiÃ©":4880,"ĠzhÄĽĠde":4881,"dÃ¬ngĠwÃ¨iĠ":4882,"--":4883,"jiÄĵĠjÃ¬nĠ":4884,"ĠqÃ¬ĠchÄĵ":4885,"tÃło":4886,"gÄģoĠyÃº":4887,"ĠwÃºĠrÃ©nĠ":4888,"tic":4889,"nÄ«":4890,"cÃ¨ĠshÃ¬Ġ":4891,"2016ĠniÃ¡nĠ":4892,"ĠsÄĵnĠlÃŃnĠ":4893,"ĠĠĠdÄģngĠ":4894,"ĠĠĠqÃŃĠtÄģ":4895,"ĠgÇĴngĠ":4896,"gÃ¨ĠzhÇĴngĠ":4897,"ĠgÄģoĠdÄĽngĠ":4898,"ĠguÇİnĠlÇĲĠ":4899,"tÃ³uĠrÃ¹":4900,"ĠzhÃ¬ĠzuÃ²Ġ":4901,"ĠmÄģ":4902,"2019ĠniÃ¡nĠ":4903,"jÄ«ĠyÃº":4904,"zhÄ«ĠyÄ«":4905,"ĠjÃ¬ĠzhÄĽ":4906,"ĠwÃ©nĠxiÃłnĠ":4907,"ĠzhÅįngĠbÃ¹":4908,"ĠdÃ¬ĠqÅ«Ġde":4909,"ĠbÃ¬ngĠyÇĲ":4910,"ĠjiÇİnĠshÇİo":4911,"guÅį":4912,"ĠjÄ«ĠhuÃ¬Ġ":4913,"ĠxiÄģngĠsÃ¬Ġ":4914,"ĠguÇİngĠzhÅįu":4915,"shÃŃĠzÃ¬Ġ":4916,"quÃ¡nĠbÃ¹":4917,"ĠzhÅįngĠguÃ³Ġ":4918,"ĠĠĠ192":4919,"2021ĠniÃ¡nĠ":4920,"dÃłĠchÃ©nĠ":4921,"shÃ¹Ġde":4922,"zÃ¨ngĠ":4923,"ĠchuÄģngĠ":4924,"hÃ©Ġde":4925,"ef":4926,"ĠbÃ¹ĠjiÇĶĠ":4927,"jÄ«ngĠlÃ¬Ġ":4928,"pÄ«ĠzhÇĶnĠ":4929,"ĠchÅ«ĠrÃ¹":4930,"ĠshÇĲĠjiÃłnĠyÃº":4931,"ĠyÇĶnĠxÇĶ":4932,"hÃºĠnÃ¡nĠ":4933,"xiÇİoĠshuÅį":4934,"ĠyÄ«ngĠyÇĶ":4935,"lÃ³uĠ":4936,"Ã©rĠbÃ¨iĠ":4937,"ĠshÃ¨ĠshÄ«Ġ":4938,"dÅįngĠbÃ¹":4939,"ĠshÃ¨ngĠlÃ¬Ġ":4940,"deĠyÇĲngĠxiÇİngĠ":4941,"ĠwÇĶĠzhuÄģngĠ":4942,"zuÃ¬ĠzÇİo":4943,"ĠsÄ«ĠlÃ¬ngĠ":4944,"guÄ«ĠhuÃł":4945,"hÃ²uĠxuÇİnĠrÃ©nĠ":4946,"yÇĲĠshÃłngĠ":4947,"Ġ27":4948,"ĠjuÃ©Ġde":4949,"ĠjiÃłĠzhÃŃ":4950,"ĠtuÄ«ĠchÅ«":4951,"cÃ¡o":4952,"ĠbiÃłnĠhuÃłĠ":4953,"dÃ¬ĠtiÄĽ":4954,"ĠshÇĴuĠdÅ«":4955,"deĠchÃ©ngĠ":4956,"dÃ¬ĠwÃ¨iĠ":4957,"ĠmÄĽiĠzhÅįu":4958,"ĠxÃ¬nĠyÇİngĠ":4959,"qiÃłnĠ":4960,"miÃ¡nĠ":4961,"ĠgÃ¨ĠyuÃ¨":4962,"ĠtÃ³ngĠyÄ«":4963,"ĠmÃŃngĠchÃ¡oĠzhÃ¨ngĠzhÃ¬ĠrÃ©nĠwÃ¹Ġ":4964,"ĠhuÇİnĠ":4965,"ĠhÃ©ĠxÄ«nĠ":4966,"ĠzuÃ²ĠjiÄģ":4967,"ĠbÃ¹ĠguÃ²Ġ":4968,"jiÇĶĠ":4969,"ĠpÄ«ĠzhÇĶnĠ":4970,"bÃ¬ĠyÃ¨Ġ":4971,"xiÃ©ĠyÃ¬Ġ":4972,"lÃ¬ĠliÃłngĠ":4973,"ĠchÄ«":4974,"fÇİĠlÇľ":4975,"ĠxÃ¬ngĠzhÃ¬Ġ":4976,"qiÃ¡nĠde":4977,"fÄģĠ":4978,"ĠzhÇĶĠxÃŃ":4979,"tÃłiĠpÃŃngĠyÃ¡ngĠ":4980,"ĠmÃ¬ngĠlÃ¬ngĠ":4981,"ĠyÄģoĠqÇĲngĠ":4982,"ĠmÃłiĠkÃ¨":4983,"ĠĠĠyÇĴu":4984,"ĠĠformulaĠ":4985,"ĠdeĠzhÇĶĠyÃło":4986,"ĠzhÇĶĠzhÄģngĠ":4987,"ĠpÃŃngĠfÄģngĠmÇĲĠ":4988,"ĠbÃ¹ĠdÃ©":4989,"zhÃ¨ngĠcÃ¨":4990,"zhÄģ":4991,"ĠzhÅįuĠshÃ¬Ġ":4992,"ĠCĠ":4993,"ĠzÃ¬ĠdÃ²ngĠ":4994,"ĠxÃŃngĠxiÃłngĠ":4995,"lÃłngĠ":4996,"ĠĠĠn":4997,"ĠdeĠtÃ¨":4998,"ĠshÄĵnĠtÇĲ":4999,"ĠshÅįuĠlÃ¹":5000,"Ġ150":5001,"tÇĶĠ":5002,"bÃ¨iĠjÇĲngĠ":5003,"nÃ¬Ġ":5004,"ĠxÃºnĠhuÃŃ":5005,"ÃłiĠÄĽrĠlÃ¡nĠ":5006,"ĠkÃ¨ĠlÄģ":5007,"nÃ©ngĠlÃ¬Ġ":5008,"jÅ«nĠde":5009,"ea":5010,"ĠĠĠbÄģ":5011,"ĠgÅįngĠchÇİngĠ":5012,"jiÄģĠtÃŃngĠ":5013,"ĠyÃŃĠdÃ²ngĠ":5014,"ĠpÃºĠtÃ¡oĠyÃ¡":5015,"ĠchuÃłnĠ":5016,"shÄĵngĠyÃ¡Ġ":5017,"liÃ¡nĠxÃ¹":5018,"ĠpÇĲnĠpÃ¡iĠ":5019,"oh":5020,"ĠshÃ¬ĠyÇĲ":5021,"ĠbÃ¹ĠjÇĲnĠ":5022,"ĠhÃ©Ġde":5023,"jiÃłoĠhuÃ¬Ġ":5024,"mÃ¡":5025,"hÃ©ĠzuÃ²Ġ":5026,"ĠfÇİngĠwÃ¨nĠ":5027,"AS":5028,"ĠtiÄĽĠlÃ¹Ġ":5029,"ĠhÃłiĠ":5030,"ĠmÃŃnĠjiÄģnĠ":5031,"ĠÃ©rĠrÃ©nĠkÇĴuĠmÃ¬ĠdÃ¹ĠwÃ¨iĠmÄĽiĠpÃŃngĠfÄģngĠqiÄģnĠmÇĲĠ":5032,"ĠyuÃ¡nĠmÃŃngĠ":5033,"ĠtiÄģnĠwÃ©nĠ":5034,"ell":5035,"juÇİnĠ":5036,"ĠshÃ¬ĠfÇĴu":5037,"dÄĽngĠwÃ¨iĠ":5038,"shÃ¬ĠlÃ¬Ġ":5039,"yÄ«nĠcÇĲ":5040,"ĠshÄ«Ġde":5041,"49":5042,"UĠ":5043,"ÄĽrĠsÄ«":5044,"lÃ¹ĠjÅ«nĠ":5045,"Ġ26":5046,"ĠĠĠxiÃłnĠ":5047,"tionĠĠĠ":5048,"ĠtÇĲĠde":5049,"dÃłiĠbiÇİoĠdÃłĠhuÃ¬Ġ":5050,"ĠlÃ¬ĠsÄ«":5051,"chÅ«ĠshÄĵngĠyÃº":5052,"Ġ1998ĠniÃ¡nĠ":5053,"niÇĶĠyuÄĵ":5054,"ĠqÄ«Ġde":5055,"ĠmÃ²Ġ":5056,"zhÃ¨ngĠzÃłiĠ":5057,"ĠzhÅįngĠgÃ²ngĠzhÅįngĠyÄģngĠ":5058,"fÅ«Ġ":5059,"ĠbÃ¬ĠyÃ¨ĠyÃº":5060,"ĠchÄģĠyÃ¬Ġ":5061,"ĠjÄ«nĠrÃ³ngĠ":5062,"ĠwÃ¡ngĠchÃ¡o":5063,"Ġ2001ĠniÃ¡nĠrÃ©nĠkÇĴu":5064,"ĠjÃ¹ĠlÃ¨ĠbÃ¹":5065,"mÃłoĠyÃ¬Ġ":5066,"jiÃłnĠzÃło":5067,"hÃ¹nĠhÃ©":5068,"yÃ¬ĠfÄģngĠmiÃłnĠ":5069,"ĠdÄĽngĠdÃ¬Ġ":5070,"wÃºĠxiÃłnĠ":5071,"ĠzhÃłnĠshÃ¬Ġ":5072,"ĠzÄĵngĠzÇĶ":5073,"ĠbÃ¬ngĠmÃ©iĠyÇĴu":5074,"ĠhÇİiĠyÃ¡ngĠ":5075,"zhuÃłngĠtÃłiĠ":5076,"tÇĶĠdÃ¬Ġ":5077,"xiÄģnĠhÃ²u":5078,"zuÃ²ĠchÅ«":5079,"ĠxiÇİoĠxÃŃngĠxÄ«ngĠ":5080,"ĠdiÃłnĠnÇİo":5081,"ĠxÃ¬nĠxÄ«":5082,"ĠzÃłiĠdÃł":5083,"Ġ184":5084,"ĠkÃ¨ĠlÃ¡iĠ":5085,"dÅįuĠyÇĴu":5086,"rÃ¨nĠmÃ¬ngĠwÃ¨iĠ":5087,"ĠshÄĵngĠyÄ«nĠ":5088,"ĠwÃłnĠmÄĽiĠyuÃ¡nĠ":5089,"qu":5090,"ĠtiÇİoĠzhÃłnĠ":5091,"ĠchÃ©ngĠxiÃłnĠ":5092,"ĠmÃŃnĠzhÃ²ngĠ":5093,"juÄģnĠ":5094,"wÇĶĠzhuÄģngĠ":5095,"ĠxiÇİoĠzÇĶ":5096,"mÃŃngĠde":5097,"ĠfÃ¹ĠmÇĶ":5098,"xiÄģngĠduÃ¬Ġ":5099,"ĠwÃłiĠguÃ³":5100,"ĠshÇĲĠguÇİnĠ":5101,"ĠdÄ«Ġ":5102,"ĠlÃ¬ĠliÃłngĠ":5103,"zhÃłnĠde":5104,"ĠnÃ¨iĠlÃ¹":5105,"wÇĴĠmenĠ":5106,"ph":5107,"ĠqiÃł":5108,"ĠtÃŃĠgÄģo":5109,"ĠjiÇĶĠdiÃłnĠ":5110,"fÇİnĠhuÃŃ":5111,"Ġ2025ĠniÃ¡nĠ":5112,"zhÃ¬ĠwÃ¨iĠ":5113,"jÄ«ngĠchÃ¡ngĠ":5114,"tiÄĵ":5115,"ĠbÃ¬ngĠfÄĵiĠ":5116,"shÃ¹ĠliÃłngĠ":5117,"biÄģoĠ":5118,"Ġbo":5119,"jÃ¬ĠlÃ¹Ġ":5120,"ĠÄĵnĠshÄĽngĠ":5121,"ĠhÅįngĠzhÃł":5122,"Ġ22":5123,"ationĠ":5124,"tÃ²ngĠ":5125,"zhÄĽngĠgÃ¨":5126,"diÃłoĠ":5127,"Ġà":5128,"ĠyÄ«ngĠyÇĶĠ":5129,"ĠzÄ«ĠxÃ¹nĠ":5130,"ĠzÇĴngĠbÃ¹":5131,"ĠshÄĵngĠhuÃ³Ġ":5132,"ĠmÇĴuĠxiÄĵ":5133,"ĠyÃ¬ĠyÇĴu":5134,"yÃ³uĠjÄ«":5135,"ĠjÄ«ngĠyÃłnĠ":5136,"per":5137,"ĠyÃ¬ĠyÃ¬Ġ":5138,"yÄ«ĠdÃłiĠ":5139,"ĠyÇĴuĠde":5140,"ĠzhÃłnĠlÇĲngĠ":5141,"ĠwÃ¡nĠzhÄĽngĠ":5142,"ĠĠĠyÃ³u":5143,"ĠyuÃ¡nĠde":5144,"jÄ«ĠdÅ«":5145,"chÄĵĠliÃłngĠ":5146,"chuÄģngĠ":5147,"ÇĲĠyÄĽ":5148,"zhÃ¨ngĠmÃŃngĠ":5149,"shÄģnĠdÅįngĠ":5150,"pÃ²ĠhuÃłiĠ":5151,"jÄ«ĠchÇĶ":5152,"ĠmÄĽiĠyuÃ¡nĠ":5153,"xÄ«ngĠjiÃłnĠ":5154,"yuÃłnĠzhÇİngĠ":5155,"chÃºĠle":5156,"ta":5157,"ĠlÃ²u":5158,"ĠcÃ¹nĠ":5159,"ĠchÃ³ngĠqÃ¬ngĠ":5160,"ĠzuÃ¬ĠhÃ²uĠyÄ«":5161,"ĠhÇİiĠwÃłiĠ":5162,"ĠgÃ¨ngĠduÅį":5163,"yÇĴuĠxiÃłnĠgÅįngĠsÄ«Ġ":5164,"ĠĠĠshÃŃ":5165,"lÃ³ngĠjiÄģngĠ":5166,"chÃŃĠ":5167,"99":5168,"ĠyuÃ¡nĠniÃ¡nĠ":5169,"ĠyÃ²ngĠlÃ¡iĠ":5170,"huÇİnĠ":5171,"ĠdÄģngĠshÃŃĠde":5172,"sÄģnĠgÃ¨":5173,"ĠyÇİnĠchÃłngĠhuÃ¬Ġ":5174,"ãĥ»":5175,"ĠÃ©rĠshuÇĲĠyÃ¹ĠmiÃłnĠjÄ«ĠwÃ¨iĠ0":5176,"ÃĹ":5177,"deĠbÃ¹":5178,"ĠlÄģĠdÄ«ngĠ":5179,"ĠshuÄģiĠ":5180,"shÄĽ":5181,"ĠzÃłiĠdÃ¹":5182,"ĠjiÃ¨ĠquÃ¡nĠguÃ³":5183,"ĠlÃ¬ĠshÇĲĠshÃłngĠ":5184,"BA":5185,"tiÄģnĠjÄ«nĠ":5186,"ĠzhÃ³u":5187,"ĠkÃ¨ĠluÃ³":5188,"ĠduÃ¬ĠxiÃłngĠ":5189,"BS":5190,"ver":5191,"ĠĠĠ7":5192,"ĠyÄ«ĠlÃ¬Ġ":5193,"ĠrÃ¹ĠqÄ«nĠ":5194,"sÃłiĠjÃ¬Ġ":5195,"2000ĠniÃ¡nĠ":5196,"ĠmÃłnĠhuÃł":5197,"ÄģoĠ":5198,"niÃ¡nĠqÄ«ngĠ":5199,"sÃ¬ĠniÃ¡nĠ":5200,"ĠtÄģĠmenĠzÃłiĠ":5201,"zhÃłoĠkÄģiĠ":5202,"ĠqÃŃĠxiÃł":5203,"ĠzÃłiĠgÄģiĠ":5204,"ĠzhÃłnĠhÃ²u":5205,"ĠduÅįĠzhÇĴngĠ":5206,"ĠgÇĶĠdÃłiĠ":5207,"ĠĠĠCh":5208,"ĠfÄĵiĠlÇľĠbÄ«nĠ":5209,"zhÃ¨ngĠde":5210,"zuÃ¬ĠdÃłĠde":5211,"ĠrÃ©nĠkÇĴuĠwÃ¨iĠ":5212,"yuÃ¨ĠtuÃ¡nĠ":5213,"suÃŃĠhÃ²u":5214,"ĠjÃ¹ĠlÃ¨ĠbÃ¹Ġ":5215,"bÃłoĠgÃło":5216,"ĠguÄģnĠzhÃ²ngĠ":5217,"biÃłnĠchÃ©ngĠ":5218,"wÃ¨iĠduÃ¬Ġ":5219,"ĠshÄĵngĠmÃŃngĠ":5220,"huÃ¡ngĠdÃ¬Ġ":5221,"ĠdÃłoĠlÃ¹Ġ":5222,"zhÅįngĠbÃ¹":5223,"hÇİiĠdÃło":5224,"ĠĠĠjiÃ©ĠzhÃ¬Ġ":5225,"ĠdÅ«Ġ":5226,"xuÃ©ĠxÃŃ":5227,"ĠjÃ¹ĠqÃŃngĠ":5228,"ĠtÇİĠ":5229,"ĠrÃ©nĠwÃ¹":5230,"ĠgÅįngĠshÃ¬Ġ":5231,"ĠjiÃłnĠchÃ©ngĠ":5232,"fÄĵnĠbÃ¹":5233,"ĠzÄ«ĠjÄ«nĠ":5234,"jiÄĵĠdÃło":5235,"jÄ«nĠpÃ¡iĠ":5236,"ĠshÇİngĠ":5237,"zhÇĲĠshÃ¬Ġ":5238,"ĠĠĠ2011ĠniÃ¡nĠ":5239,"ĠkÄĽĠnÃ©ngĠhuÃ¬Ġ":5240,"ĠkÃłngĠyÃ¬Ġ":5241,"ĠbiÇİoĠdÃ¡":5242,"pÇİo":5243,"ĠdÇĶ":5244,"ĠtÄģiĠ":5245,"ĠnÃŃĠyÃłĠzhÅįu":5246,"ĠhÄĵngĠlÃ¬Ġ":5247,"gÅįngĠjÄ«":5248,"yÇĲnĠqÇĲ":5249,"ĠfÃ³ĠjiÃło":5250,"ĠdeĠqiÃ¡nĠ":5251,"shÃ¬ĠjÃ¬Ġ":5252,"ĠbÃ¬ngĠyÇĶ":5253,"bÅįĠlÃ¡nĠ":5254,"ĠchÃ©ngĠwÃ©iĠle":5255,"xuÄģnĠchuÃ¡nĠ":5256,"ĠĠĠshÃ¨ngĠ":5257,"ĠwÃ¨iĠde":5258,"ĠxiÃłnĠchÇİngĠ":5259,"chÃ¡iĠ":5260,"dÃºĠ":5261,"ĠwÅ«Ġ":5262,"ĠgÄģoĠjÃŃ":5263,"shÅ«ĠzhÇİngĠ":5264,"cÄģnĠsÃłiĠ":5265,"ĠshÃº":5266,"ĠĠĠ8":5267,"ĠrÃ¨nĠmÃ¬ngĠ":5268,"ĠniÃ¡nĠdÃ¹":5269,"ĠzÃłiĠ18":5270,"ĠyÃŃĠ":5271,"ĠÃłoĠdÃłĠlÃ¬ĠyÃł":5272,"ĠĠĠzhÅįngĠ":5273,"ĠĠĠzhÅįngĠguÃ³":5274,"ĠzhÇĶĠyÇİnĠ":5275,"ĠyÄĽĠjiÃ¹ĠshÃ¬Ġ":5276,"ĠgÇİiĠshÃłnĠ":5277,"ĠchuÃłngĠlÃ¬Ġ":5278,"68":5279,"ĠĠĠ2024ĠniÃ¡nĠ":5280,"hÅįngĠ":5281,"bÃ¬ngĠwÃ¨iĠ":5282,"qÇĶĠdÃłiĠ":5283,"ĠlÃ¬ĠrÃ¨nĠ":5284,"ĠhuÃłĠde":5285,"ĠĠĠ2010ĠniÃ¡nĠ":5286,"Ġ1949ĠniÃ¡nĠ":5287,"xiÃłngĠmÃ¹Ġ":5288,"hÃ¡oĠmÇĲ":5289,"ĠwÃ©iĠqÃŃ":5290,"ĠtÃ³uĠpiÃło":5291,"ĠshuÇĲĠpÃŃngĠ":5292,"ĠjiÇĶĠlÃ³ngĠ":5293,"ĠzhÃ¨ngĠchÃ¡ngĠ":5294,"âĶ":5295,"ĠdÅįngĠfÄģngĠ":5296,"ĠdÅįngĠxÄ«":5297,"ĠyÇİnĠchÅ«":5298,"ĠchuÃłngĠbÃłnĠ":5299,"ĠhÇİiĠbÃ¡ĠgÄģoĠdÃ¹":5300,"ĠdÃ©ĠlÇĲ":5301,"jÄ«ĠguÄģnĠ":5302,"ĠhuÃłĠhÃ©":5303,"ĠchuÃłngĠzÃło":5304,"mÃŃnĠzhÃ²ngĠ":5305,"ĠzhuÄģnĠmÃ©nĠ":5306,"ĠxÄ«ĠyÇĲnĠ":5307,"zÃ¬ĠdÃ²ngĠ":5308,"ĠbÄģĠ":5309,"ĠjÃ¬ngĠzhÄĵngĠ":5310,"Ġ1999ĠniÃ¡nĠ":5311,"ĠtÄģĠyÃº":5312,"ĠĠĠxiÄģngĠgÇİngĠ":5313,"ĠhuÄģngĠ":5314,"ĠbÃ¹ĠlÃ¡iĠ":5315,"ĠxÃŃngĠzhÃ¨ngĠqÅ«":5316,"ĠtuÄ«ĠdÃ²ngĠ":5317,"wÅ«Ġ":5318,"ĠfÃ©nĠ":5319,"deĠqiÃ¡nĠ":5320,"niÃ¡nĠjiÄģnĠ":5321,"ĠĠĠjÃ¹ĠqÃŃngĠ":5322,"ĠzÃłiĠnÃł":5323,"chÃ©ngĠxiÃłnĠ":5324,"ĠmÃŃngĠyÃ¬Ġ":5325,"xuÃ©ĠjiÄģ":5326,"huÃŃĠdÃło":5327,"nÃ³ngĠyÃ¨":5328,"zÄ«Ġ":5329,"ĠsÄ«ĠfÇİ":5330,"ĠmÃ¬ĠmÃ¬Ġ":5331,"TV":5332,"kÇİnĠ":5333,"ĠzÃłiĠtÄģ":5334,"ĠyÃ¬ĠshÃŃ":5335,"deĠshÃŃĠqÅ«ĠwÃ¨iĠ":5336,"shÃ¬ĠtÃº":5337,"guÃ³ĠhuÃ¬Ġ":5338,"ĠzÃ©ĠdÅįngĠ":5339,"yÃ¹nĠxÃŃngĠ":5340,"tÃ³uĠzÄ«":5341,"ÃłoĠdÃ¬ĠlÃ¬Ġ":5342,"ĠzuÃ²ĠchÅ«":5343,"ĠpÇĲ":5344,"2008ĠniÃ¡nĠ":5345,"jiÇİnĠchÃ¡":5346,"hÄĵngĠ":5347,"qiÇİo":5348,"ĠĠĠyÃ¡nĠ":5349,"Ã©rĠ":5350,"KĠ":5351,"ĠchuÃ¡ngĠ":5352,"qÇĶĠ":5353,"ĠlÃ¬ngĠyÇĴu":5354,"ĠyÃ¡nĠjiÅ«ĠsuÇĴ":5355,"zhuÃłngĠkuÃłngĠ":5356,"ĠshÃ¬ĠdÃ©ĠguÃ³":5357,"ĠyuÃ¨ĠtuÃ¡nĠ":5358,"ĠdeĠqÃŃngĠkuÃłngĠ":5359,"ĠdÃ©ĠyÇĲ":5360,"bÇİoĠliÃº":5361,"ĠzhuÄģngĠjiÇİ":5362,"ĠtuÅįĠ":5363,"ĠdÃ¬Ġde":5364,"ĠjÃ¹ĠfÄĵngĠ":5365,"ĠdÃ¬ĠyÃŃĠgÃ¨":5366,"ĠguÄģnĠchÃ¡":5367,"ĠhuÃ¡ĠshÃ¨ngĠdÃ¹nĠ":5368,"ï¼ħ":5369,"ĠxÄ«ĠfÄģngĠ":5370,"ĠgÇİnĠdÃło":5371,"ĠĠĠl":5372,"zuÃ¬ĠchÅ«":5373,"ĠyÃ¬ĠrÃ©nĠ":5374,"ĠchÇİnĠyÃ¨":5375,"ĠĠĠto":5376,"tiÃło":5377,"ĠĠĠcÇĲĠwÃłiĠ":5378,"2012ĠniÃ¡nĠ":5379,"bo":5380,"hÃ©ĠlÃ¡nĠ":5381,"shÃ¹ĠjÃ¹":5382,"yÃ¹nĠshÅ«":5383,"ĠwÄĽnĠ":5384,"ĠshÃ¬ĠlÃ¬Ġ":5385,"zhÅįngĠshÄģnĠ":5386,"yuÃ¨ĠnÃ¡nĠ":5387,"ĠyÃŃngĠyÃ¹nĠ":5388,"ĠxÄ«ĠÄģnĠ":5389,"ĠbÃ¹ĠluÃ²":5390,"ĠkÇİoĠlÇľ":5391,"âĶĢ":5392,"ĠjuÃ©ĠduÃ¬Ġ":5393,"ĠshÄ«ĠbÃłiĠ":5394,"2023ĠniÃ¡nĠ":5395,"fÇİngĠwÃ¨nĠ":5396,"ĠpÇĶĠbiÃłnĠ":5397,"chÇĶĠyÃº":5398,"ich":5399,"wÄĽnĠ":5400,"chuÃŃ":5401,"ĠzhÃ¨ngĠfÇĶĠ":5402,"shÄĵngĠyÃº":5403,"tÄģĠzÃłiĠ":5404,"lÃ¡iĠyuÃ¡nĠ":5405,"wÇİngĠluÃ²":5406,"ĠgÄĵnĠtÃŃngĠ":5407,"ĠliÃ¨ĠchÄĵĠ":5408,"ĠzhÅįngĠjiÄģnĠ":5409,"STĠ":5410,"wÃ¨iĠshÃ¬Ġ":5411,"ĠgÃ¨ĠyuÃ¨Ġ":5412,"gĠ":5413,"wÃ©iĠchÃŃ":5414,"ĠwÃ©nĠzÃ¬Ġ":5415,"ĠshÄ«ĠqÃ¹":5416,"zÄ«ĠgÃ©Ġ":5417,"42":5418,"ĠdÄģnĠqÅ«Ġ":5419,"ĠdiÃłnĠshÃ¬ĠjÃ¹Ġ":5420,"ĠyÃ³uĠqÃŃĠshÃ¬Ġ":5421,"ĠgÃ²uĠchÃ©ngĠ":5422,"zÅįngĠhÃ©":5423,"tÇİoĠlÃ¹nĠ":5424,"ĠpÃ¬nĠ":5425,"yÃ²ngĠde":5426,"ĠxÄ«ngĠqÄ«":5427,"ĠjÄ«Ġde":5428,"ĠfÃºĠhÃ©":5429,"chÃłngĠpiÃłnĠ":5430,"ĠzhÃ¨ngĠcÃ¨Ġ":5431,"Ġtou":5432,"ĠzhÃ¬ĠlÃ¬Ġ":5433,"ĠxÄ«ĠzÃłngĠ":5434,"tÃ³uĠpiÃło":5435,"ĠsuÃ¬ĠshÃŃ":5436,"sÃ¬ĠshÃŃ":5437,"liÃºĠxÃŃngĠ":5438,"ĠshÄĵngĠhuÃ³ĠxÃŃĠxÃ¬ngĠ":5439,"ĠzhÅįngĠyÃº":5440,"jiÃ©ĠshÃ¹Ġ":5441,"ric":5442,"ĠzhuÅį":5443,"bÃ¹ĠduÃłnĠ":5444,"ĠxiÃłnĠwÃ¨iĠ":5445,"ĠtÃ³ngĠmÃ©ngĠ":5446,"ĠfÃłngĠqÃ¬Ġ":5447,"zhÇĶnĠbÃ¨iĠ":5448,"zÃłiĠmÄĽiĠguÃ³":5449,"ĠduÇĴ":5450,"tuÃ²":5451,"ĠzhÅ«Ġ":5452,"ĠyÃ¹ĠjÃ¬Ġ":5453,"ĠyÄģĠlÃ¬Ġ":5454,"Ġ1992ĠniÃ¡nĠ":5455,"ĠcÇĲĠhÃ²uĠ":5456,"jÄ«ĠchÄĵ":5457,"00ĠmÇĲ":5458,"ĠyÄĽĠkÄĽĠyÇĲ":5459,"ĠdÇİoĠde":5460,"ĠbiÃłnĠchÃ©ngĠ":5461,"shÄ«ĠfÃłnĠ":5462,"20ĠshÃ¬ĠjÃ¬Ġ":5463,"ah":5464,"ĠguÇİngĠdÅįngĠshÄĽngĠ":5465,"zÃ¡ĠzhÃ¬Ġ":5466,"ĠgÃ©ĠlÄģ":5467,"bÅįĠchÅ«Ġ":5468,"guÄ«ĠdÃ¬ngĠ":5469,"ĠgÇİo":5470,"ĠshÄĵngĠhuÃ³ĠxÃŃĠxÃ¬ngĠbÃ¹ĠmÃŃngĠ":5471,"78":5472,"ĠguÃł":5473,"ĠzhÄ«ĠdÃło":5474,"jÄ«ĠhÅ«":5475,"ĠzhÇĴngĠziĠ":5476,"andĠĠĠ":5477,"if":5478,"ĠquÇİnĠ":5479,"ĠshÃ¨ĠqÅ«":5480,"zhÃ¹ĠmÃŃngĠ":5481,"ĠĠĠ12":5482,"ĠyÄ«ĠmÃ©iĠ":5483,"ĠjÃ¬ĠshÃ¹Ġ":5484,"zhÄ«ĠwÃ¨iĠ":5485,"fÃ³ĠjiÃło":5486,"yÃ²ngĠlÃ¡iĠ":5487,"gÇİiĠbiÃłnĠ":5488,"ĠtiÄĽĠdÃło":5489,"lay":5490,"ĠzhÃ¹ĠzuÃ²Ġ":5491,"Ġ29":5492,"ĠbÇİoĠliÃº":5493,"miÃłoĠ":5494,"ĠchÅ«ĠzhÃłnĠ":5495,"tÃ³ngĠniÃ¡nĠ":5496,"wÇĶĠqÃ¬Ġ":5497,"bÃłnĠdÇİo":5498,"ĠĠĠdÃ¬ĠÃ¨r":5499,"ĠAĠ":5500,"tÃ³ngĠyÃ¬Ġ":5501,"ĠshuÅįĠfÇİĠ":5502,"ĠguÃ³ĠjiÄģĠduÃ¬Ġ":5503,"ĠjiÃłoĠliÃłnĠ":5504,"In":5505,"ĠdeĠdÃ¬ĠfÄģngĠ":5506,"ĠshÃ¬ĠnÃ¡nĠ":5507,"ĠjiÄģngĠhuÃ¬Ġ":5508,"qiÃ³ngĠ":5509,"ĠqiÃ¡ngĠliÃ¨":5510,"ĠĠĠsuÄ«ĠrÃ¡nĠ":5511,"ĠlÃ¬ĠjÃŃ":5512,"deĠdÃ¬ĠfÄģngĠ":5513,"ĠchÃ©ngĠlÃ¬ĠyÃº":5514,"hÃ©ĠdÇİngĠ":5515,"yÃ¬ĠqÃŃngĠ":5516,"sÃ¬ĠchuÄģnĠ":5517,"ĠtÃºĠshÅ«ĠguÇİnĠ":5518,"ĠdeĠqÃŃĠzhÅįngĠyÄ«ĠzhÇĴngĠ":5519,"hÃ©ĠshÃ¬Ġ":5520,"ĠyuÄĵĠwÃ¨iĠ":5521,"sÃ¨Ġde":5522,"guÇĴĠ":5523,"gÃ©ĠwÃ¨iĠ":5524,"76":5525,"ĠdÇĲĠ":5526,"Ġ1996ĠniÃ¡nĠ":5527,"2015ĠniÃ¡nĠ":5528,"ĠjiÃłoĠxuÃ©":5529,"mÇİiĠ":5530,"ĠĠĠbÃ¨iĠjÇĲngĠ":5531,"ĠshÇİoĠ":5532,"ĠyÄ«ĠliÃ¡o":5533,"ĠzhÅįuĠwÃ©iĠ":5534,"ort":5535,"Ġ1945ĠniÃ¡nĠ":5536,"ĠĠĠfÃº":5537,"hÃ©ĠqÃŃĠtÄģ":5538,"ĠzhÃ¬ĠdÃ¬ngĠ":5539,"ĠfÄĵnĠlÃ¡nĠ":5540,"tÃŃĠmÃŃngĠ":5541,"art":5542,"ĠgÄģoĠde":5543,"ĠmÇĲĠÄĽr":5544,"ĠxÇĲĠhuÄģnĠ":5545,"chÃ¡ngĠqÄ«":5546,"ĠwÃ¡ngĠguÃ³":5547,"tuÃ¡nĠtÇĲ":5548,"zhÄĵnĠduÃ¬Ġ":5549,"Ã©rĠchÃ©ngĠ":5550,"xÄ«ĠlÃł":5551,"gÄĵĠshÇĴu":5552,"ĠguÄģngĠxÃ¹":5553,"yÇĴuĠxiÃłnĠgÅįngĠsÄ«":5554,"yÄ«ĠwÃ¨iĠ":5555,"ĠluÃ³ĠsÄ«Ġ":5556,"gÄĵĠqÇĶ":5557,"ĠdÃłoĠdÃ¡":5558,"ĠjÅ«nĠwÃ¨iĠ":5559,"shÃ¬ĠfÇĴu":5560,"ĠyÄĽĠbÃ¨iĠ":5561,"ĠbÃ³ĠlÃŃnĠ":5562,"rÇĶ":5563,"ĠzhÇĶĠjuÃ©":5564,"Ġ45":5565,"ĠdeĠyÇĲngĠxiÇİngĠ":5566,"shuÄģ":5567,"2014ĠniÃ¡nĠ":5568,"ĠmÇİĠÄĽr":5569,"ĠjÅ«nĠzÃłiĠ":5570,"pÃŃngĠlÃ¹nĠ":5571,"ĠĠĠmÄĽiĠguÃ³":5572,"ĠbÃ¬ngĠyÃ³u":5573,"ĠkÃ¨ĠyÃ¹nĠ":5574,"ĠjiÃ©ĠhÃ©":5575,"ĠgÃ¹Ġ":5576,"ĠzuÃ²ĠzhÄĽ":5577,"ĠÄģnĠdÃ©":5578,"ĠĠĠduÃ¬Ġ":5579,"ĠĠĠÃ©r":5580,"ĠyuÃ¡nĠxÃŃngĠ":5581,"chÅ«Ġle":5582,"ĠgÄģiĠcÅ«nĠ":5583,"ĠjÃ¹ĠtÇĲ":5584,"ĠcÄģnĠkÇİo":5585,"wÃ¡nĠjiÄģ":5586,"jÇĲnĠbiÄģoĠsÃłiĠ":5587,"ĠshÇĲĠyÃ²ngĠde":5588,"ĠkÄģngĠxÄ«":5589,"IN":5590,"ĠhÃ©ĠpÃłnĠ":5591,"Ġ20ĠshÃ¬ĠjÃ¬Ġ":5592,"ĠbÃ¬ngĠbÃ¨iĠ":5593,"ĠgÃ¨ngĠjiÄģ":5594,"fÇİĠlÃ¡nĠ":5595,"wÃ¹ĠzhÃ¬Ġ":5596,"dÃłiĠbiÇİoĠ":5597,"ĠbÄĽnĠzhÃłnĠ":5598,"2018ĠniÃ¡nĠ":5599,"shÃ¨ngĠlÃ¬Ġ":5600,"dÃłoĠde":5601,"gÃ²ngĠchÇİnĠ":5602,"ĠwÇĶĠtÃ¡iĠ":5603,"2024ĠniÃ¡nĠ":5604,"ĠshÄĵngĠchÄĵngĠ":5605,"ĠwÃ©iĠÄģiĠ":5606,"Ġ80":5607,"2009ĠniÃ¡nĠ":5608,"ĠwÄĵngĠ":5609,"ĠxiÇİoĠxÃŃngĠ":5610,"ĠqÃŃĠzhÅįngĠnÃ¡nĠxÃ¬ngĠ":5611,"ingĠ":5612,"ĠrÃ¨nĠwÃ¹Ġ":5613,"rÃ¹ĠqÄ«nĠ":5614,"Ġ1988ĠniÃ¡nĠ":5615,"gÇİiĠbiÄģnĠ":5616,"huÇĲ":5617,"zhÅ«Ġ":5618,"yuÃ¡nĠzhÃ¹":5619,"ĠwÃ©iĠzhÇĶĠ":5620,"ant":5621,"ĠgÄĵngĠmÃŃngĠwÃ¨iĠ":5622,"igh":5623,"GĠ":5624,"HĠ":5625,"ĠĠĠzÄĵngĠzÇĶ":5626,"ĠjÄ«ĠchÇĶ":5627,"xÄ«ĠbÃ¹":5628,"ĠpÃ¨iĠyÄ«nĠ":5629,"dÇĲĠdÃ¡":5630,"jÃ¹ĠjuÃ©":5631,"ĠĠĠdÃ¬ĠfÄģngĠ":5632,"deĠyÄ«ĠzhÇĴngĠ":5633,"ry":5634,"ĠjÄ«nĠrÃ¬Ġ":5635,"ĠcÇĲĠcÃ¬Ġ":5636,"lÃŃnĠshÃŃ":5637,"ĠyÃ¬ĠniÃ¡nĠ":5638,"sÄ«Ġde":5639,"xiÇİoĠshuÅįĠ":5640,"ĠcÃ¡iĠnÃ©ngĠ":5641,"43":5642,"ast":5643,"ĠĠĠjÃ¬nĠ":5644,"dÃ©ĠyÇĲ":5645,"ĠmÃŃnĠzhÇĶĠdÇİngĠ":5646,"IC":5647,"ĠchÃ¡ngĠshÃ¬Ġ":5648,"ĠbÃłnĠshÃ¬Ġ":5649,"ĠjÄ«ĠxiÃ¨":5650,"yÃ¬ngĠyÃ²ngĠ":5651,"ĠĠĠ2008ĠniÃ¡nĠ":5652,"88":5653,"zhÃ¨ĠjiÄģngĠ":5654,"yÃŃĠdÃ¹":5655,"Ġ1997ĠniÃ¡nĠ":5656,"ĠsÅ«ĠgÃ©ĠlÃ¡nĠ":5657,"ĠzhÃłoĠ":5658,"tiÃ¡oĠjiÃłnĠ":5659,"ey":5660,"ĠrÃ©nĠwÃ¹Ġ":5661,"ĠlÃ¬ĠshÇĶ":5662,"bÄĽnĠtÇĶ":5663,"ĠbÄĽnĠshÄĵnĠ":5664,"yÇĲĠxiÃł":5665,"rÃ¹ĠxuÇİnĠ":5666,"tÄģngĠ":5667,"ĠfÇİĠguÄģnĠ":5668,"mÄĽiĠniÃ¡nĠ":5669,"ĠjÄ«ĠjÃŃ":5670,"liÃ¡nĠjiÄĵ":5671,"Ġ1994ĠniÃ¡nĠ":5672,"2017ĠniÃ¡nĠ":5673,"ĠzÄ«ĠliÃłoĠ":5674,"ard":5675,"jÃ¹ĠlÃ¨":5676,"ĠyÃłĠ":5677,"arĠ":5678,"xiÃ©ĠzhÃ¹":5679,"bÄģoĠkuÃ²Ġ":5680,"ĠrÃ©nĠhÃ©":5681,"zhÅįngĠxuÃ©Ġ":5682,"guÄģnĠyuÃ¡nĠ":5683,"ĠqÅ«ĠyÃ¹Ġ":5684,"ĠyÄ«ĠdÃłiĠ":5685,"ĠgÅįngĠjÄ«nĠ":5686,"wÃ©iĠzhÇĶĠ":5687,"rÃ³ngĠyÃ¬Ġ":5688,"AM":5689,"gÅįngĠzhÃ²ngĠ":5690,"ĠxiÅ«ĠgÇİiĠ":5691,"edĠĠĠ":5692,"zhÃ¨nĠqÅ«Ġ":5693,"cÃ©ngĠzÃłiĠ":5694,"guÃ³ĠnÃ¨iĠ":5695,"jÄ«ngĠyÃŃngĠ":5696,"ziĠde":5697,"nÇļĠ":5698,"guÇİngĠzhÅįu":5699,"ĠbÇĲĠsÃłiĠzhÅįngĠ":5700,"ĠzhÅįngĠhuÃ¡ĠrÃ©nĠmÃŃnĠgÃ²ngĠhÃ©ĠguÃ³ĠzhÃ¨ngĠzhÃ¬ĠrÃ©nĠwÃ¹Ġ":5701,"ĠxuÇİnĠshÇĴu":5702,"ĠSt":5703,"ãģ":5704,"ĠjÃŃĠshÃ¬Ġ":5705,"jÃ¬ĠzhÄĽ":5706,"ĠzhÅįngĠguÃ³ĠrÃ©nĠmÃŃnĠjiÄĽĠfÃłngĠjÅ«nĠ":5707,"kÇİĠ":5708,"ĠdÃ©ĠmÃŃngĠ":5709,"fÃºĠjiÃłnĠ":5710,"ĠfÄĵnĠbiÃ©ĠwÃ¨iĠ":5711,"gÄģoĠdÄĽngĠ":5712,"ĠduÃ¬ĠyÃ¬ngĠ":5713,"pÃŃngĠtÃ¡iĠ":5714,"miÃ¨":5715,"ĠhuÇĲĠ":5716,"ĠcÃ¨ĠliÃ¡ngĠ":5717,"ĠbÇĲĠrÃº":5718,"41":5719,"yÄ«ĠtÃ³ngĠ":5720,"ĠjÄ«ngĠdiÇİnĠ":5721,"ĠwÄĽiĠhuÃ¬Ġ":5722,"Ġ1985ĠniÃ¡nĠ":5723,"ĠquÄĵĠfÃ¡":5724,"ang":5725,"xÇĲĠ":5726,"ĠlÃ¬ĠyÃ¬Ġ":5727,"ĠgÇĶĠfÃ¨nĠ":5728,"ĠhuÃŃĠyÃ¬ngĠ":5729,"ĠshÃ¬ĠwÅ«ĠkÃ¨ĠlÃ¡nĠ":5730,"qÃ¬ĠchÄĵ":5731,"nÃº":5732,"ĠdeĠfÃ¹":5733,"fÄģngĠfÇİ":5734,"tiÄģnĠzhÇĶĠjiÃło":5735,"ĠzhÃ¨nĠqÅ«Ġ":5736,"ĠxiÄģoĠshÃ²u":5737,"deĠfÃ¹":5738,"ĠshÃłngĠshÃ¬Ġ":5739,"ĠchÅ«ĠlÃ¡iĠ":5740,"ĠhÇİiĠpÃŃngĠmiÃłnĠ":5741,"ĠtÃŃngĠzhÇĲ":5742,"ĠhÇİiĠbÃ¡ĠwÃ¨iĠ":5743,"ĠZ":5744,"mÇĶĠsÄ«Ġ":5745,"ber":5746,"ĠtÇĶĠÄĽrĠqÃŃ":5747,"yÃŃĠshÃ¬Ġ":5748,"ĠliÇİngĠmÃŃngĠ":5749,"ĠĠĠ17":5750,"ÇĴuĠxiÃłngĠ":5751,"jiÃłnĠyÃ¬Ġ":5752,"ĠshÃ¹ĠwÃ¨iĠ":5753,"ĠnÃ©ngĠliÃłngĠ":5754,"ĠbÃłoĠgÃłoĠ":5755,"ĠmÃ²ĠxÄ«ĠgÄĵ":5756,"AR":5757,"ĠyÇİnĠchÅ«Ġ":5758,"ĠxiÃłnĠjÄ«nĠ":5759,"shÃ²uĠyÇĶ":5760,"ĠxÇĲngĠ":5761,"mÇİĠlÃ¡iĠxÄ«ĠyÃł":5762,"fÄĵiĠjÄ«":5763,"ĠhuÃ¡ngĠjÄ«nĠ":5764,"mÃłnĠhuÃł":5765,"sp":5766,"ĠjiÄĵĠjÃ¬nĠ":5767,"ĠfÃ¨nĠzÇĲ":5768,"ĠxiÇİngĠniÃ¡nĠ":5769,"bÃ¹ĠkÄĽ":5770,"rÃ©nĠzÃłiĠ":5771,"ĠlÇĲĠdÃ¡":5772,"II":5773,"yÇĴuĠsuÇĴ":5774,"nÃ¡nĠbÃ¹":5775,"yÄģĠ":5776,"ĠbÃ¹ĠbÄ«ngĠ":5777,"ĠgÃ²uĠmÇİiĠ":5778,"ĠshÃŃĠyÄ«":5779,"ĠshÃŃĠsÄģnĠ":5780,"ĠgÄģoĠxiÃ³ngĠ":5781,"xÄ«ngĠdÄĽngĠwÃ¨iĠ":5782,"yÃ¹nĠyÃŃngĠ":5783,"ĠzhÃ¨ngĠzhuÃłngĠgÇİnĠrÇİnĠ":5784,"Ch":5785,"ĠxÄ«ĠjiÄĵ":5786,"58":5787,"ĠjiÅ«":5788,"ĠchÃ¡Ġ":5789,"bÇĲĠjiÃło":5790,"xiÃłĠxiÃ¡ĠdeĠyÃŃĠgÃ¨":5791,"ĠdÃ¬ĠliÃ¹":5792,"dÄģnĠqÅ«Ġ":5793,"shÇĶĠde":5794,"2011ĠniÃ¡nĠ":5795,"yÃ¬ĠmÃŃngĠ":5796,"ĠyÃŃĠshÃ¬Ġ":5797,"jiÃ©ĠhÅ«nĠ":5798,"bÃ¬ngĠmÃ©iĠyÇĴu":5799,"ĠshÃŃĠxÃŃngĠ":5800,"ĠyÄ«ĠtÃ³ngĠ":5801,"ĠzhÃ¨ngĠquÃ¡nĠ":5802,"ĠshÃłngĠwÃ¨iĠ":5803,"ĠsÃłĠÄĽr":5804,"chuÃłngĠlÃ¬Ġ":5805,"ĠĠĠqÄ«ngĠ":5806,"bÄĽiĠbÃ¹":5807,"int":5808,"sÄ«ĠtÇİnĠ":5809,"ĠshÇĴuĠxiÄģnĠ":5810,"ĠnuÃ²Ġ":5811,"ĠcÃ¹ĠjÃ¬nĠ":5812,"ĠbÃ¨iĠrÃ¨nĠwÃ©iĠshÃ¬Ġ":5813,"ĠyÄĽĠhuÃ¬Ġ":5814,"tÃ¨ĠzhÄĵngĠ":5815,"ĠshÄĵnĠzhÃ¨nĠ":5816,"Ġ180":5817,"gÄĵĠqÇĶĠ":5818,"fÄģngĠÃłnĠ":5819,"ĠshÃ¨ĠshÄ«":5820,"jÃ¬nĠyÃŃĠbÃ¹":5821,"ĠyÄ«ĠzuÃ²":5822,"tÇĴngĠjÃ¬Ġ":5823,"ĠfÄĵngĠgÃ©Ġ":5824,"yÇİnĠchÅ«Ġ":5825,"ĠduÃ¬Ġde":5826,"zhÇĶĠtÃŃ":5827,"ĠkÇİĠsÄ«":5828,"au":5829,"ĠlÃ¡iĠyuÃ¨":5830,"yÄĽĠ":5831,"ĠbÃ³Ġ":5832,"ĠsuÃŃĠjÃŃ":5833,"67":5834,"ĠyÄĵ":5835,"chÇĶĠ":5836,"ÄģiĠjÃŃ":5837,"ĠyÃŃĠzhÃ¬Ġ":5838,"wÇĶĠniÃ¡nĠ":5839,"wÄģ":5840,"ĠĠĠlÇĲ":5841,"ĠyuÃ¡nĠshÃ¬Ġ":5842,"yÃ¡nĠshÄĵnĠ":5843,"ER":5844,"ĠxiÃłngĠshÃ¬Ġ":5845,"duÅįĠgÃ¨":5846,"ĠqiÃ¡ngĠdiÃło":5847,"ĠzÄĵngĠzhÇİngĠ":5848,"ist":5849,"ĠÃ":5850,"ĠĠĠ9":5851,"ĠshÄĵngĠtÃłiĠ":5852,"ĠchÃ¡oĠ":5853,"ĠniÃ¡nĠdÃłiĠ":5854,"ĠchÅįu":5855,"mÃŃnĠzhÇĶĠdÇİngĠ":5856,"kuÃ¬Ġ":5857,"lÃŃĠ":5858,"kÄģiĠtÅįngĠ":5859,"tÃłiĠyÃ¡ngĠ":5860,"yÄ«ngĠwÃ©nĠ":5861,"ĠqÇĲĠlÃ¡iĠ":5862,"zhÃłoĠ":5863,"AT":5864,"ĠdÃłĠlÃ¹Ġ":5865,"jiÄģĠzÃº":5866,"zhÇĲĠchÅ«Ġ":5867,"ĠlÃ¬ngĠyÃ¬ĠfÄģngĠmiÃłnĠ":5868,"ĠzhÃ²ngĠdÃł":5869,"ĠxÃ¹ĠlÃ¬ĠyÃł":5870,"ĠcÄģoĠzuÃ²":5871,"ĠÃ©rĠfÄĵiĠ":5872,"ĠquÃ¡nĠmiÃłnĠ":5873,"ĠtÃ¡iĠnÃ¡nĠ":5874,"ĠfÃłnĠzuÃ¬Ġ":5875,"yÃ¬ĠshÃ¬Ġ":5876,"dÃłĠqÅ«":5877,"ĠbÃłnĠgÅįngĠshÃ¬Ġ":5878,"ĠdÃ¬ĠÃ¨rĠcÃ¬Ġ":5879,"yÄģoĠqÇĲngĠ":5880,"mÄĽngĠ":5881,"dÃłĠlÃ³u":5882,"jiÄģnĠde":5883,"nÃ¨iĠbÃ¹":5884,"ĠĠĠbÃ¹":5885,"ĠpÅ«":5886,"gÅįngĠchÇİngĠ":5887,"ĠmiÃłnĠduÃ¬Ġ":5888,"ĠĠĠ2009ĠniÃ¡nĠ":5889,"pÃºĠtÃ¡o":5890,"IS":5891,"ĠgÅįngĠchÇĲ":5892,"ĠxÄ«Ġde":5893,"ĠpÃ©ngĠyÇĴu":5894,"yÃŃĠdÃłiĠ":5895,"all":5896,"ĠcÇİiĠqÇĶ":5897,"gÄĵngĠmÃŃngĠwÃ¨iĠ":5898,"xiÅįngĠdÃ¬Ġ":5899,"ĠĠĠ191":5900,"ÄģnĠdÃ©":5901,"ĠyÇĲnĠqÃŃngĠ":5902,"ĠtÃ³ngĠshÃŃĠgÄģiĠdÃ¬Ġ":5903,"zÅįngĠjiÃło":5904,"shÃŃĠshÄ«":5905,"ĠyÄ«ĠsÄ«ĠlÃ¡nĠ":5906,"ĠmÄĽiĠjÅ«nĠ":5907,"ĠzÇĴngĠlÇĲ":5908,"ĠfÄĵngĠxiÇİnĠ":5909,"Ġ183":5910,"gÅįngĠhuÃ¬Ġ":5911,"ĠyÃ¡nĠhÇİiĠ":5912,"ĠjÄ«nĠshÄģnĠ":5913,"suÇĴĠcÇİiĠyÃ²ngĠ":5914,"ĠtÄģĠhÃ©":5915,"shÄĵngĠde":5916,"ĠxiÃłĠlÃ¬ngĠshÃŃĠjiÄģnĠ":5917,"ĠĠĠyÇĲ":5918,"ĠdÃ¬ĠzhÃ¨nĠ":5919,"ĠzÄ«ĠgÃ©":5920,"ĠzhuÄ«ĠsÃ¹":5921,"dÃłoĠdÃ¡":5922,"ĠnÃ¨iĠlÃ¹ĠshÄĽngĠfÃ¨nĠ":5923,"ĠyÇĶĠqÃŃĠtÄģ":5924,"ĠzhÄ«ĠshÃŃ":5925,"ĠbÅįĠluÃ³":5926,"ĠzhÅįngĠdeĠ":5927,"ÇĲĠyÃ¡nĠ":5928,"ĠmÄĽiĠshÃ¹":5929,"shÇĴuĠwÃ¨iĠ":5930,"ĠshÄĽngĠhÃ©":5931,"Ġ70":5932,"dÃ¡ĠchÃ©ngĠ":5933,"ill":5934,"sÄ«ĠjÄ«":5935,"shÇĲĠde":5936,"ĠfÃºĠlÇİngĠ":5937,"ĠmiÇİnĠdiÄģnĠ":5938,"dÃ¬ĠwÇĶ":5939,"zhÄ«ĠyuÃ¡nĠ":5940,"ĠzhÃŃĠwÃ¨iĠ":5941,"ĠliÃ¡nĠwÇİngĠ":5942,"ip":5943,"ĠrÃ¹nĠ":5944,"ĠhÇİoĠ":5945,"ĠdÃłnĠyÄ«nĠ":5946,"ĠyÃłĠlÃ¬ĠshÄģnĠ":5947,"gÃ©Ġde":5948,"ĠtÃłiĠguÃ³":5949,"ĠbÃłoĠzhÃł":5950,"Ġ90":5951,"ith":5952,"pÄģnĠ":5953,"ĠshÄģnĠjÄ«":5954,"zhuÄģnĠyÃ¨":5955,"tÄ«":5956,"ĠshÃ¬ĠwÄĵiĠ":5957,"guÃ²ĠqÃ¹":5958,"ĠzÃłiĠ198":5959,"ĠyÄģoĠqiÃºĠ":5960,"guÇĲĠdÃło":5961,"kÃ¨ĠchÃ©ngĠ":5962,"ĠzhÇĴngĠzÃº":5963,"yÄ«ĠniÃ¡nĠ":5964,"xiÄģngĠsÃ¬Ġ":5965,"jiÄĽĠjuÃ©":5966,"ĠshÃŃĠzÃ¬Ġ":5967,"zÇĴngĠdÅ«":5968,"ĠfÄĵnĠbÃ¹Ġ":5969,"2013ĠniÃ¡nĠ":5970,"guÄ«ĠmÃ³":5971,"66":5972,"ĠshÃ¨ĠjÃŃ":5973,"jÄ«ngĠshÃ©nĠ":5974,"ĠmÃ¹ĠbiÄģoĠ":5975,"ĠbiÄģoĠbÄĽnĠ":5976,"mÃ¬ngĠmÃŃngĠwÃ¨iĠ":5977,"nd":5978,"ĠsÄĵngĠ":5979,"ĠjÃ¬ĠyÃ¬Ġ":5980,"ĠliÇİnĠ":5981,"ĠyÃºĠ197":5982,"ĠxÄ«nĠlÇĲ":5983,"jÃ¬nĠdÇİngĠ":5984,"ĠrÃ¹ĠxuÇİnĠ":5985,"gÄģoĠzhÅįngĠ":5986,"cÄģnĠmÃ³u":5987,"ĠdÅįuĠyÇĴu":5988,"Ġ1995ĠniÃ¡nĠ":5989,"ĠsuÃŃĠhÃ²uĠ":5990,"shÃŃĠfÄĵnĠ":5991,"jiÃ©ĠhÃ©":5992,"ĠfÄģngĠyÃ¡nĠ":5993,"bÃłnĠgÅįngĠshÃ¬Ġ":5994,"ĠpiÃłoĠfÃ¡ngĠ":5995,"ĠdÃ¬Ġ1":5996,"ĠchÅ«ĠkÇĴu":5997,"ĠjiÇİngĠshÃ¹":5998,"hÃ©ĠchÃ©ngĠ":5999,"shuÃ²":6000,"xiÃ¨Ġ":6001,"ĠshuÅįĠmÃŃngĠ":6002,"ĠzhÃ¨ngĠxiÃ©":6003,"ĠdÃłnĠqÃŃ":6004,"ĠnÃŃĠxÄ«ĠyÃł":6005,"chuÃłngĠbÃłnĠ":6006,"ĠnÃłĠxiÄĵ":6007,"yÃ¡ngĠjiÃłnĠ":6008,"79":6009,"ĠchÅ«ĠshÄĵnĠ":6010,"ĠnÃ¡nĠjÃŃ":6011,"rÃ¬ĠjÅ«nĠ":6012,"ĠshÃŃĠqÅ«Ġ":6013,"rÃ©nĠmenĠ":6014,"ĠguÃ¬ĠzÃº":6015,"ĠbÃ³ĠshÃ¬ĠxuÃ©ĠwÃ¨iĠ":6016,"ty":6017,"ĠĠĠ11":6018,"ĠjÇĲĠ":6019,"ĠpÄĵnĠ":6020,"hÃ²uĠbÃ¨iĠ":6021,"zhÃłnĠshÃ¬Ġ":6022,"ĠsÃ¬ĠshÃŃ":6023,"qÃ¬ĠxuÃ¡nĠ":6024,"Ġ1984ĠniÃ¡nĠ":6025,"ĠniÃ¡nĠlÃŃngĠ":6026,"chÃ©ngĠrÃ¨nĠ":6027,"pÇĶĠbiÃłnĠ":6028,"ĠĠĠdÃ¬ĠfÄģngĠzÄ«ĠliÃłoĠ":6029,"ĠsÄ«ĠkÃ¨":6030,"ĠjÃ¬nĠzhÇĲ":6031,"zuÃ²ĠyÃ²ngĠ":6032,"Ġ300":6033,"bÃ³Ġ":6034,"ĠshÃ¨ĠhuÃ¬ĠzhÇĶĠyÃ¬Ġ":6035,"ĠfÄģnĠyÃ¬Ġ":6036,"ĠtuÃ²":6037,"xÄ«nĠjiÄģĠpÅį":6038,"ĠjÅ«nĠtuÃ¡nĠ":6039,"shÄĵnĠqÇĲngĠ":6040,"ĠbÅįĠfÃłngĠ":6041,"zÇĴngĠrÃ©nĠkÇĴu":6042,"zÇİoĠqÄ«":6043,"53":6044,"yÄ«ĠshÃ¬Ġ":6045,"ĠxÃŃĠjÄ«":6046,"dÇİĠ":6047,"ĠxiÅįngĠyÃ¡ĠlÃ¬Ġ":6048,"guÄ«Ġ":6049,"xĠ":6050,"ĠjiÄģĠqiÃ¡ngĠ":6051,"chÅ«ĠzhÃłnĠ":6052,"ĠbÃłnĠdÇİo":6053,"Ġ15Ġ":6054,"ĠshÃłngĠyÇĴu":6055,"zhÃ¨ĠyÃłngĠ":6056,"ĠdÃ¬ĠqÄ«":6057,"chÅ«ĠxiÃłnĠzÃłiĠ":6058,"fÃ¹ĠqÄ«nĠ":6059,"zuÃ¬ĠdÃł":6060,"Ġ1989ĠniÃ¡nĠ":6061,"ĠxiÃ¨Ġ":6062,"ĠyÇĲĠbiÃłnĠ":6063,"ĠbÃ¹ĠdiÃłnĠyÇĲngĠ":6064,"ĠjÃ¹ĠyuÃłnĠ":6065,"xÃ¬ngĠliÃłnĠ":6066,"Ġ1993ĠniÃ¡nĠ":6067,"ĠnuÃ³ĠwÄĵiĠ":6068,"suÇĴĠzÃłiĠ":6069,"ĠĠĠjiÇİnĠjiÃ¨Ġ":6070,"ĠyuÃ¡nĠzÃ¬Ġ":6071,"ĠÄĽrĠhÃ©":6072,"ĠdÄģnĠqÅ«":6073,"huÄģĠ":6074,"ĠĠĠwÃłiĠ":6075,"ĠnÃ¡nĠfÄģngĠ":6076,"yÃ¡nĠjiÅ«Ġ":6077,"ĠnÃłĠme":6078,"ĠquÃ¨ĠrÃ¨nĠ":6079,"gÇİnĠdÃło":6080,"ĠdeĠdÃ¬ĠqÅ«Ġ":6081,"aĠĠĠ":6082,"nÇĶ":6083,"guÃ³ĠlÃ¬Ġ":6084,"qiÃºĠyÃ¹nĠdÃ²ngĠyuÃ¡nĠ":6085,"tÃ³uĠxiÃ¡ngĠ":6086,"chÃ¡nĠ":6087,"ĠtÅįu":6088,"ĠyÇĶĠqÃŃ":6089,"ĠdÇİĠjÄ«":6090,"ĠjÃŃĠhÃ©":6091,"dÃ¬ĠyÃŃĠgÃ¨":6092,"ĠchÇİngĠbÇĲĠsÃłiĠ":6093,"bÄģngĠzhÃ¹":6094,"72":6095,"Ġ00Ġ":6096,"ĠĠĠjiÄģoĠtÅįngĠ":6097,"ĠquÃłnĠ":6098,"ĠzÃłiĠrÃ¬ĠbÄĽnĠ":6099,"yÇĴuĠxiÃło":6100,"ĠzÇĶĠjiÃłnĠ":6101,"ĠlÃŃĠmÇĲĠ":6102,"shuÇĲĠyÃ¹Ġ":6103,"ĠmÃŃngĠdÄģnĠ":6104,"quÃ¨ĠdÃ¬ngĠ":6105,"yÄ«ĠxiÇİoĠshÃŃĠ":6106,"ĠxÄ«nĠjiÄģngĠ":6107,"ĠjÄ«nĠtiÄģnĠ":6108,"ĠxiÇİoĠde":6109,"gÄģoĠjÃŃ":6110,"ĠguÇİngĠgÃło":6111,"sÇİnĠ":6112,"zhÄ«ĠzhÅįngĠ":6113,"Ġ1920ĠniÃ¡nĠ":6114,"DTĠ":6115,"cÇİoĠ":6116,"zhÄĽnĠ":6117,"ĠyÄ«ĠtiÃ¡o":6118,"ĠdÃłĠxÄ«ĠyÃ¡ngĠ":6119,"ĠsÄģnĠjiÇİo":6120,"tÃ³ngĠyÃłngĠ":6121,"ĠqÇĶĠxiÄģo":6122,"zÇĴuĠ":6123,"tuÃ³":6124,"ark":6125,"ĠjiÇİnĠchÃ¡":6126,"ĠhuÇĴĠshÄģnĠ":6127,"ĠmÇİĠkÃ¨":6128,"bÃ¬ĠyÃ¨ĠyÃº":6129,"ĠhÄĽnĠkuÃłiĠ":6130,"wÇİnĠshÃłngĠ":6131,"ĠwÄģngĠ":6132,"huÄ«Ġ":6133,"ĠY":6134,"ĠzhÇĶĠshÃ¬Ġ":6135,"ĠnÃ¡nĠfÄĵiĠ":6136,"ĠtÃ¡iĠfÄĵngĠ":6137,"chÄĵngĠwÃ¨iĠ":6138,"ĠtÃ³uĠrÃ¹":6139,"zhÅįngĠguÃ³ĠdÃłĠlÃ¹":6140,"ĠzhÃłoĠpiÄģnĠ":6141,"ation":6142,"pÃ¬Ġ":6143,"zhÄ«ĠwÃłiĠ":6144,"Ġ7Ġ":6145,"AC":6146,"rÃ©nĠhÃ©":6147,"zÃ¬ĠxÃŃngĠ":6148,"ĠzhÃ¹ĠyÃº":6149,"fÃ¹ĠzhÇĶĠrÃ¨nĠ":6150,"ĠbÅįĠÄĽr":6151,"anc":6152,"Ġ0Ġ":6153,"ĠdÃ©Ġde":6154,"ĠzhÃłnĠdÃ¬Ġ":6155,"ĠzhÃŃĠde":6156,"ĠwÃ¹ĠzhÃ¬Ġ":6157,"zhÃłiĠ":6158,"ĠdÃ¬ĠmiÃłnĠ":6159,"ĠbÄĽiĠfÄģngĠ":6160,"Ġ30Ġ":6161,"quÃ¨ĠzhÄĽnĠbÃ¬ngĠlÃ¬Ġ":6162,"huÇĲĠ":6163,"ĠdÃłĠzhÃ¬Ġ":6164,"jÃŃĠbÃ¬ngĠ":6165,"shÃ¹ĠwÃ¨iĠ":6166,"zhÇİngĠguÄģnĠ":6167,"ĠcÃ©ngĠwÃ¨iĠ":6168,"ĠjiÃ¹ĠdÃº":6169,"5ĠrÃ©nĠ":6170,"ĠzuÃ²ĠwÃ¨iĠ":6171,"rÃºĠxiÃłĠ":6172,"yÃ¬ĠbÇİiĠ":6173,"ĠnÇĶĠlÃ¬Ġ":6174,"mÇĴuĠxiÄĵ":6175,"ĠĠĠg":6176,"ĠÃ©rĠbÃºĠshÃ¬Ġ":6177,"ĠshÃ¨ĠyÇĲngĠ":6178,"jiÃłoĠtÃ¡ngĠ":6179,"ĠbÃłoĠdÃło":6180,"shÃ¬ĠjiÃ¨ĠbÄĵiĠ":6181,"ĠbÄ«nĠhÇİiĠ":6182,"hÃłoĠde":6183,"fÄģĠbÃ¹Ġ":6184,"our":6185,"ĠshÃ¬ĠzhÇİngĠ":6186,"ĠbÃłoĠdÃłoĠ":6187,"jiÃ©ĠshÃ¹ĠhÃ²uĠ":6188,"wÅį":6189,"ĠĠĠzhÃ¨ngĠ":6190,"ĠzhuÃ¬Ġ":6191,"ĠyÄ«ĠjÃŃ":6192,"huÃ¬Ġde":6193,"jiÃłoĠliÃłnĠ":6194,"rÃ¬ĠzhÃ¬Ġ":6195,"ĠxÃ¹nĠsÃ¹":6196,"ĠchÃ¡oĠtÃŃngĠ":6197,"ĠcnĠ":6198,"wÃ©iĠÄĽr":6199,"ĠyÃ¬nĠdÃ¬Ġ":6200,"lu":6201,"ĠyÇĴuĠyÃ¬Ġ":6202,"zhÃ¨ngĠquÃ¡nĠ":6203,"ĠfÇİĠÃłnĠ":6204,"ĠqiÃºĠhuÃ¬Ġ":6205,"Ġ36":6206,"chÃ³ngĠjiÃłnĠ":6207,"ĠdiÃłoĠkuÃłiĠ":6208,"ĠshÃ¹ĠxuÃ©":6209,"yÃŃĠdÃ²ngĠ":6210,"ĠzÇĶĠhÃ©":6211,"ĠwÇİĠ":6212,"ĠzhuÃłngĠkuÃłngĠ":6213,"kÇİoĠlÇľ":6214,"ĠshÃ¬ĠyÃŃĠgÃ¨ĠwÃ¨iĠyÃº":6215,"ĠshÃ¬ĠnÃŃ":6216,"ĠwÃ¨iĠUTCĠ":6217,"ĠdÃłĠwÃ¨iĠ":6218,"dÅįngĠjÃ¬Ġ":6219,"ĠhuÇĴĠ":6220,"ĠshuÃłiĠlÇĲngĠ":6221,"77":6222,"ĠshÃ¹Ġde":6223,"tÃºĠshÅ«ĠguÇİnĠ":6224,"tÇİĠ":6225,"ĠzhÄģoĠhÃ©":6226,"ĠĠĠchÃ©ngĠ":6227,"ĠshÃ¬ĠnÃ¨iĠ":6228,"shÃ¬ĠbÄ«ngĠ":6229,"ĠshÃłngĠshÃ¹":6230,"ĠlÇĲĠlÃ¡nĠ":6231,"ĠtÃŃĠmÃŃngĠ":6232,"shuÇĲĠpÃŃngĠ":6233,"ĠjÃŃĠUTCĠ":6234,"shÃ¨ĠyÇĴuĠxiÃłĠlÃ¬ngĠshÃŃĠjiÄģnĠ":6235,"shÃ¨nĠzhÃ¬Ġ":6236,"ĠÃ©rĠgÄģiĠdÃ¬ĠsuÇĴĠcÇİiĠyÃ²ngĠ":6237,"deĠshÃŃĠqÅ«ĠwÃ¨iĠUTCĠ":6238,"ĠtÃ³ngĠshÃŃĠgÄģiĠdÃ¬ĠshÃ¨ĠyÇĴuĠxiÃłĠlÃ¬ngĠshÃŃĠjiÄģnĠ":6239,"ĠdiÃłoĠkuÃłiĠyÄ«ĠxiÇİoĠshÃŃĠ":6240,"ĠÃ©rĠgÄģiĠdÃ¬ĠsuÇĴĠcÇİiĠyÃ²ngĠdeĠshÃŃĠqÅ«ĠwÃ¨iĠUTCĠ":6241,"gÅįngĠlÃ¹":6242,"zhÃ¹ĠmÃŃngĠde":6243,"fÇİĠÃłnĠ":6244,"ĠguÃ²Ġ":6245,"ĠduÃłnĠshÃŃĠjiÄģnĠ":6246,"rÃ¹nĠ":6247,"ĠĠĠqiÃ¡nĠ":6248,"deĠzhÅįngĠ":6249,"ĠshÃ¬ĠqÅ«":6250,"ĠyÄ«ĠxuÃ©":6251,"ĠĠĠk":6252,"ÃłoĠsÄ«":6253,"yÇĲĠqiÃ¡nĠ":6254,"dÃłĠxÃŃngĠ":6255,"ĠjiÄģoĠyÃ¬Ġ":6256,"ĠjuÃłnĠ":6257,"ÃłnĠzhÃło":6258,"ĠguÃ³Ġde":6259,"ĠsuÇĴĠshÇĶ":6260,"ĠbÃ¹ĠÄĽr":6261,"rÃºĠcÇĲĠ":6262,"ĠbÃ¹ĠmÇİnĠ":6263,"192":6264,"ĠleĠyÃŃĠgÃ¨":6265,"ĠtÃłiĠkÅįngĠ":6266,"hÃ¡ngĠbÇİngĠ":6267,"wÃ©nĠjiÃłnĠ":6268,"Ġ1991ĠniÃ¡nĠ":6269,"gÄģoĠyÃºĠhÇİiĠpÃŃngĠmiÃłnĠ":6270,"ĠyÃ¡nĠshÄĵnĠ":6271,"shÄ«ĠqÃ¹":6272,"ĠgÃ¹ĠwÃ¨nĠ":6273,"Ġ1958ĠniÃ¡nĠ":6274,"kuÃłiĠsÃ¹":6275,"ĠchÃ¹ĠdeĠhÇİiĠbÃ¡ĠwÃ¨iĠ":6276,"ĠchÃ¹ĠdeĠhÇİiĠbÃ¡ĠwÃ¨iĠgÄģoĠyÃºĠhÇİiĠpÃŃngĠmiÃłnĠ":6277,"52":6278,"dÃłĠxÄ«ĠyÃ¡ngĠ":6279,"ĠzhÃ¹ĠzhÃ¡iĠ":6280,"diÇİnĠde":6281,"ĠtÄģĠduÃ¬Ġ":6282,"ĠxiÃłĠjiÃłngĠ":6283,"ĠxÃ¬ĠliÃ¨Ġ":6284,"zhÃ¡":6285,"zÃłiĠdÃ¹":6286,"ĠjÃŃĠbÄĽiĠmÄĽiĠ":6287,"duÃ¬Ġde":6288,"ĠzÄĵngĠjiÄģĠ":6289,"ĠzhÄĽngĠtÇĲ":6290,"ĠX":6291,"hÃ¡ngĠtiÄģnĠ":6292,"ĠyÄĽĠzÃłiĠ":6293,"ĠshÃłngĠyÃ¬ngĠ":6294,"lÇľĠwÃ¨iĠ":6295,"zhÃ¬ĠliÃ¡o":6296,"ĠjÃ¹ĠbÄĽnĠ":6297,"ĠkÄĵĠÄĽr":6298,"ĠjiÄģoĠhuÃ¬Ġ":6299,"ĠcÃ¡iĠliÃło":6300,"ĠmÃŃngĠquÃ¨":6301,"qÅ«ĠdeĠmiÃłnĠjÄ«ĠwÃ¨iĠ":6302,"...":6303,"jÃ¬Ġde":6304,"zhÄ«ĠziĠ":6305,"tÃłiĠziĠ":6306,"ĠpÃłoĠ":6307,"Ã©rĠziĠ":6308,"yÃ¹Ġde":6309,"fÄĵnĠxÄ«":6310,"ĠxiÃ¹Ġ":6311,"dÃłĠyuÄĵ":6312,"huÃłĠwÃ¨iĠ":6313,"Ġ38":6314,"tiÃ¡oĠzhÄĽngĠ":6315,"ĠwÃ©iĠqÃŃĠ":6316,"ĠkÄĵĠxuÃ©ĠyuÃłnĠ":6317,"ĠfÅ«ĠrÃ©nĠ":6318,"Ġ1950ĠniÃ¡nĠ":6319,"ĠdeĠyÄ«ĠzuÃ²":6320,"ĠĠĠzhÇĶĠyÃło":6321,"ĠjÄ«ĠdÃ¬Ġ":6322,"ĠĠĠfÃ¹":6323,"fÄģĠqÇĲ":6324,"ĠxÄ«ĠÄĽr":6325,"ĠwÇĶĠhÃłnĠ":6326,"56":6327,"ĠlÃ¼Ã¨Ġ":6328,"ĠlÃ¬ĠhÃ©":6329,"ĠxiÃłnĠfÇİ":6330,"ĠzhÃłnĠlÃ¼Ã¨":6331,"ĠshÄģnĠfÄĵngĠ":6332,"ĠĠĠ190":6333,"bÄģĠlÃŃ":6334,"2007ĠniÃ¡nĠ":6335,"jiÄĽĠ":6336,"73":6337,"diÃłnĠlÃ¬Ġ":6338,"ĠshÃ¬ĠyÄ«ĠkÄĵ":6339,"gÇİiĠgÃ©":6340,"deĠyÄ«ĠzuÃ²":6341,"ĠbÄĽiĠjÄ«ngĠshÃ¬Ġ":6342,"ON":6343,"ĠzÃ¬ĠshÄĵnĠ":6344,"shÃ¨ĠshÄ«Ġ":6345,"jiÃłoĠshÃ²uĠ":6346,"Ġ1990ĠniÃ¡nĠ":6347,"ĠÃłoĠyÃ¹nĠ":6348,"ĠcÄģnĠjiÄģĠle":6349,"54":6350,"ĠsÇİnĠ":6351,"ĠbÃłnĠgÅįngĠ":6352,"Ġ10ĠyuÃ¨Ġ":6353,"ĠgÅįngĠrÃ©nĠ":6354,"ĠdÃłĠgÃ©ĠmÃ¬ngĠ":6355,"zhÇĶĠde":6356,"ĠsuÇĴĠwÃ¨iĠ":6357,"191":6358,"ĠlÃ©iĠsÄ«":6359,"yÇĲnĠfÄģ":6360,"ĠmÇİĠlÄģ":6361,"ĠkÄĵĠfÅ«":6362,"ĠjiÇİnĠdÄģnĠ":6363,"ss":6364,"ĠĠĠ16":6365,"ĠlÃ¨Ġ":6366,"ĠhÃ²uĠde":6367,"ĠlÇļĠxÃŃngĠ":6368,"fÃ¨iĠyÃ¡nĠ":6369,"az":6370,"ram":6371,"tÄģiĠ":6372,"jÃ¬ĠzÇİiĠ":6373,"diÃłnĠtÃ¡iĠ":6374,"ĠliÇİngĠcÃ¬Ġ":6375,"ĠzhÃ©ĠxuÃ©":6376,"ĠkuÃ¡ngĠ":6377,"gÅįngĠlÇĲ":6378,"aw":6379,"ĠqiÃºĠchÇİngĠ":6380,"ĠdÄģngĠjÃº":6381,"ĠliÃºĠyÃ¹Ġ":6382,"ĠxiÇİoĠshuÅįĠ":6383,"ĠshÇĲĠmÃ¬Ġ":6384,"lÃ¬ĠshÇĲĠshÃłngĠ":6385,"ĠdÃ¡ĠchÃ©ngĠ":6386,"ĠzÃłiĠzhÅįngĠ":6387,"xuÇİnĠwÃ¨iĠ":6388,"ĠshÃłngĠhÇİiĠshÃ¬Ġ":6389,"ĠshÃ¬ĠxiÄģngĠgÇİngĠ":6390,"rÃ¨nĠwÃ¹Ġ":6391,"dÃ¬ngĠyÃ¬Ġ":6392,"ĠyÃ¨ĠwÃ¹":6393,"ĠtiÃ¡oĠyuÄĵ":6394,"ĠshÃŃĠjÃ¬ĠshÃłngĠ":6395,"ĠlÃ¹nĠwÃ©nĠ":6396,"ĠĠĠ2007ĠniÃ¡nĠ":6397,"96":6398,"ĠĠĠtÃ¡iĠwÄģnĠ":6399,"ĠyÇĲĠqiÃ¡nĠ":6400,"ĠyuÃ¡nĠwÃ¨iĠ":6401,"ĠruÇİnĠjiÃłnĠ":6402,"98":6403,"wÄĽnĠdÃ¬ngĠ":6404,"ĠtÃ³ngĠrÃ¬Ġ":6405,"ĠwÇİĠÄĽr":6406,"ĠxiÅ«ĠzhÃ¨ngĠ":6407,"hÇİnĠ":6408,"huÄģnĠ":6409,"ĠpÃ³":6410,"ĠjiÄģĠjÃ¬ngĠ":6411,"shÇĲĠshÃłngĠ":6412,"nÃŃĠsÄ«":6413,"Tub":6414,"mÃ³ĠxÃŃngĠ":6415,"ĠĠĠtheĠĠ":6416,"sÃłngĠ":6417,"xuÄĵ":6418,"ĠĠĠjÃŃ":6419,"yÇĲngĠpiÃłnĠ":6420,"quÃ¨ĠrÃ¨nĠ":6421,"jiÃłnĠzhÃ¹Ġ":6422,"ĠbÄģĠxÄ«":6423,"ĠdÇĲĠdÃ¡":6424,"zhÄģiĠ":6425,"deĠpÃŃngĠjÅ«nĠ":6426,"ĠwÃ©iĠkÃ¨":6427,"ĠdiÃłnĠchÄĵ":6428,"ĠqÃ¬ĠxiÃłngĠ":6429,"shÄ«ĠbÃłiĠ":6430,"rÃ©nĠmÃŃnĠbÃ¬Ġ":6431,"dÃłoĠlÃ¹":6432,"ĠdÄģnĠmÃłiĠ":6433,"ĠyÃŃĠdÃ¹":6434,"ĠdÃłiĠyÇĴu":6435,"cÃ³ngĠshÃ¬Ġ":6436,"ĠĠĠ2025ĠniÃ¡nĠ":6437,"ĠdÃ¬ĠyÃł":6438,"ĠxiÄģngĠxÃ¬nĠ":6439,"zhÅįuĠbiÄģnĠ":6440,"qiÅ«Ġ":6441,"ĠqÃŃĠzhÅįngĠyÄ«":6442,"Ġ1986ĠniÃ¡nĠ":6443,"xÃŃĠjÄ«":6444,"ĠrÃło":6445,"ĠyÃ¬ĠjiÃłnĠ":6446,"ĠjiÄģĠgÄĵ":6447,"huÃłĠhÃ©":6448,"shÄĵngĠwÃ¨iĠ":6449,"ĠbÄĵiĠsÄ«":6450,"ing":6451,"ĠdiÃłoĠ":6452,"ĠzhÄģiĠ":6453,"qÃºnĠdÇİo":6454,"ĠfÄĵnĠbiÃ©ĠshÃ¬Ġ":6455,"cÅįngĠ":6456,"ĠwÇİngĠlÃ¹":6457,"2001ĠniÃ¡nĠ":6458,"ĠshÃ¬ĠjiÃ¨ĠbÄĵiĠ":6459,"ĠshÃŃĠsÃ¬Ġ":6460,"ĠduÃ¬ĠwÇĶ":6461,"yÃ¨Ġde":6462,"xÄ«ngĠqÄ«":6463,"dÄģo":6464,"ĠzhÃłoĠkÄģiĠ":6465,"dÃ¬ĠqiÃº":6466,"ĠfÃ¡ngĠyÃ¹":6467,"ath":6468,"qiÃ¡oĠzhÃ¬Ġ":6469,"ĠzhÄ«ĠzhÅįngĠ":6470,"xiÃłĠwÇĶĠ":6471,"ĠshÇĲĠqÃŃ":6472,"ĠzhÇİnĠlÇİnĠ":6473,"shÇĲĠyÃ²ngĠde":6474,"AP":6475,"qÃ¬Ġde":6476,"tiÄĽĠlÃ¹Ġ":6477,"74":6478,"fÃ©iĠ":6479,"ĠÄģĠlÄģĠbÃ³":6480,"mÃ²ĠxÄ«ĠgÄĵ":6481,"ĠgÇİnĠrÇİnĠ":6482,"ĠkÃłngĠrÃ¬Ġ":6483,"ĠliÇİngĠguÃ³":6484,"ĠhÃ¡iĠshÃ¬Ġ":6485,"ĠĠĠrÃ¬ĠbÄĽnĠ":6486,"ĠbÇĲĠyÃł":6487,"chÄ«":6488,"dÃłĠxuÇİnĠ":6489,"ĠshÄĵngĠrÃ¨nĠ":6490,"ĠtÃ¨ĠdÃ¬ngĠ":6491,"ĠzhÇİnĠshÃ¬Ġ":6492,"ĠlÃŃnĠjÃ¬nĠ":6493,"ĠxÇĲĠ":6494,"ĠhuÃ¬ĠshÃ¬Ġ":6495,"ĠmiÃłnĠde":6496,"ĠpÃ¨iĠhÃ©":6497,"ĠxuÃ©ĠxÃŃĠ":6498,"ĠrÃºĠhÃ©":6499,"ĠlÃ¡oĠdÃ²ngĠ":6500,"ĠkÅ«":6501,"ĠjÃŃĠwÃ¨iĠ":6502,"bÅįĠfÃłngĠ":6503,"jiÃ¹ĠdÃº":6504,"ĠzhuÄģngĠshÃ¬Ġ":6505,"Ġ1983ĠniÃ¡nĠ":6506,"ĠĠĠhÃ²u":6507,"dÃ¬Ġ1":6508,"ĠzhÃ¨ngĠjÃ¹":6509,"ĠbÃ¨iĠqÃŃ":6510,"qÃ¬ĠxiÃłngĠ":6511,"liÃłngĠde":6512,"ĠsÃ¨Ġde":6513,"yuÃ¡nĠbÄĽnĠ":6514,"ĠlÃ¹ĠxÃ¹":6515,"ĠqÇĲĠyuÃ¡nĠ":6516,"rÃ²u":6517,"ĠshÃŃĠxÃ¬ngĠ":6518,"zhÅįngĠyÇĴu":6519,"ĠjiÄģngĠxÄ«":6520,"kÃ¨ĠlÇĲ":6521,"Ġ1980ĠniÃ¡nĠ":6522,"ff":6523,"ÃłoĠzhÅįu":6524,"dÃ¬ĠliÃ¹":6525,"zhÅįuĠde":6526,"ĠdÄĽngĠdÄĽngĠ":6527,"ĠkÃłnĠdÃło":6528,"ĠzÇĴuĠ":6529,"kÄģ":6530,"xiÃłnĠxiÃłngĠ":6531,"lÃŃngĠchÃ©nĠ":6532,"ĠshÃłoĠniÃ¡nĠ":6533,"ĠĠĠtiÄģnĠ":6534,"ĠdÃłiĠlÇĲngĠ":6535,"ĠluÃ³ĠlÇĲĠdÃ¡":6536,"ĠjiÃłĠgÃ©":6537,"ĠlÇĲngĠdÇİoĠrÃ©nĠ":6538,"ĠshÃŃĠwÇĶ":6539,"ĠkÇİoĠgÇĶ":6540,"gh":6541,"ÃłoĠÄĽr":6542,"ĠtÄģĠjiÄģngĠ":6543,"ĠhuÃ¬Ġde":6544,"zhÃ¨ngĠdÇİngĠ":6545,"ĠchÅ«ĠxiÃłnĠzÃłiĠ":6546,"ĠdÄģngĠshÃŃĠ":6547,"hÃ³uĠ":6548,"inc":6549,"huÄ«ĠshÄĽngĠ":6550,"jÅ«nĠqÅ«":6551,"zuÃ²Ġde":6552,"ĠbÃ³ĠtÃ¨":6553,"guÄģnĠbÃ¬Ġ":6554,"ĠbÃłnĠyÇİnĠ":6555,"xiÇİoĠxuÃ©":6556,"ĠyÃ¬nĠdÃ¹Ġ":6557,"dÃ¨ngĠ":6558,"hÃ¨Ġ":6559,"ĠtÄģĠrÃ¨nĠwÃ©iĠ":6560,"ĠdÇİoĠdÃłnĠ":6561,"Ġ1982ĠniÃ¡nĠ":6562,"duÃ³Ġde":6563,"ĠzuÇĲ":6564,"ĠluÃ²ĠfÃ¡":6565,"ĠtÃºĠxÃŃngĠ":6566,"yÇĶnĠxÇĶ":6567,"ĠzuÃ²Ġde":6568,"fÃ¹Ġde":6569,"YouTub":6570,"AN":6571,"jiÄģĠlÄģ":6572,"ĠzÃ¬ĠmÇĶ":6573,"ĠfÄĵiĠlÃ¬Ġ":6574,"ÇĲĠyÃłnĠ":6575,"xÄ«ĠlÃ¡nĠ":6576,"fÄĵnĠpÃ¨iĠ":6577,"zÄ«ĠliÃło":6578,"ĠbÃŃ":6579,"ĠdÃ¬ĠdiÇİnĠ":6580,"ĠshÃŃĠshÃ¬Ġ":6581,"dÃłiĠde":6582,"shÅįuĠlÃ¹":6583,"huÄģngĠ":6584,"ĠxiÅ«Ġ":6585,"jÅ«nĠzÃłiĠ":6586,"ĠbÃ¨iĠpÃ²":6587,"ĠbÄĽnĠpiÃłnĠ":6588,"gÄģoĠde":6589,"hÇİiĠbÃ¡ĠgÄģoĠdÃ¹":6590,"ĠĠĠmÃ¹ĠqiÃ¡nĠ":6591,"ĠjiÄģoĠliÃº":6592,"ĠdÃ¬Ġ2":6593,"ĠshÃŃĠliÃ¹":6594,"dÇİngĠyuÃ¡nĠ":6595,"fÃ¹ĠzÃ©ĠguÇİnĠxiÃ¡Ġ":6596,"ĠzhÃ¨ngĠzhuÃłngĠgÇİnĠrÇİnĠzhÄĽ":6597,"51":6598,"ĠshÃ¬ĠmÃŃnĠ":6599,"ĠdÃłĠdÃło":6600,"sÄ«ĠxiÇİngĠ":6601,"tÇĴngĠyÄ«":6602,"ili":6603,"mÃłoĠ":6604,"ĠguÃ³ĠjÅ«nĠ":6605,"mÃŃngĠxiÇİnĠ":6606,"ĠwÃºĠlÃ¹nĠ":6607,"rÃ³u":6608,"ĠyÄ«ĠlÇİngĠ":6609,"ĠxÃŃngĠmÃ¹":6610,"ĠjÄ«ĠyÄ«nĠ":6611,"ĠxiÃłĠxiÃ¡":6612,"sÃ¹ĠdÃ¹":6613,"ĠpÃ²Ġ":6614,"suÄ«ĠrÃ¡nĠ":6615,"ĠdÃ¬ĠlÇĲ":6616,"ĠxÃŃĠwÃ¨iĠ":6617,"gÃ²uĠmÇİiĠ":6618,"ele":6619,"iÃ¨Ġ":6620,"pÃ¹":6621,"ĠzÄ«ĠchÇİnĠ":6622,"ĠzhÄĵnĠshÃŃ":6623,"shÅįuĠrÃ¹":6624,"ĠdÃłngĠtiÄģnĠ":6625,"Ġsec":6626,"jiÄģĠde":6627,"xiÃłnĠchÇİngĠ":6628,"chÅ«ĠlÃ¡iĠ":6629,"ĠsuÇĴĠzÃłiĠ":6630,"ĠquÃ¡nĠxiÃłnĠ":6631,"ĠrÃ©nĠmÃŃnĠdÃłiĠbiÇİoĠdÃłĠhuÃ¬Ġ":6632,"ĠgÅįngĠkÄģiĠsÃłiĠ":6633,"fÄĽiĠ":6634,"huÃłiĠ":6635,"ĠĠĠzhÃłnĠ":6636,"ĠĠĠgÃ¨ĠrÃ©nĠ":6637,"ĠyÄ«ĠcÃŃ":6638,"ĠlÃ¹ĠyÇĲngĠ":6639,"ĠxÃ¬ĠjÃ¹":6640,"quÃ¡nĠmiÃłnĠ":6641,"ĠnÃº":6642,"ĠqÃŃĠbÄ«ngĠ":6643,"jiÃłoĠwÃ©iĠ":6644,"ĠĠĠjiÄģĠtÃŃngĠ":6645,"ÅįuĠmÃ©ngĠ":6646,"ĠyÇĲĠbÃ¨iĠ":6647,"hÃ³ngĠsÃ¨":6648,"ĠzÃ©ĠrÃ¨nĠ":6649,"Ġ1946ĠniÃ¡nĠ":6650,"yÃ³uĠtÃłiĠ":6651,"ĠduÅįĠwÃ¨iĠ":6652,"ĠtÃ³ngĠshÃŃĠyÄĽ":6653,"Ġ1948ĠniÃ¡nĠ":6654,"ĠtÃ¨ĠdiÇİnĠ":6655,"ĠchÄĵĠxiÄģngĠ":6656,"kÇĶ":6657,"ĠzhÃ¬ĠdÃ¹Ġ":6658,"jÄ«ĠgÃ²uĠ":6659,"ĠBĠ":6660,"ĠgÄģ":6661,"ĠyuÃ¨Ġde":6662,"ĠyuÃ¨ĠduÃ¬Ġ":6663,"wÃ¹ĠlÇĲ":6664,"ĠbÅįĠchÅ«":6665,"2006ĠniÃ¡nĠ":6666,"ĠpÅįĠ":6667,"guÃ³ĠfÃ¡ngĠ":6668,"ĠdÃłĠsÃłiĠ":6669,"ĠjÄ«ĠqÃ¬Ġ":6670,"niÃ¡nĠdÃ¹":6671,"yÃŃĠmÃŃnĠ":6672,"biÃłnĠwÃ¨iĠ":6673,"ĠbiÄģnĠjiÃ¨":6674,"ĠzhÇĶĠyÃłoĠshÃ¬Ġ":6675,"ĠquÃ¨ĠbÇİo":6676,"huÇĴĠ":6677,"61":6678,"fÃ¡Ġ":6679,"ĠdiÃłoĠchÃ¡Ġ":6680,"ĠchÇĴu":6681,"ĠyÃ³uĠcÇĲ":6682,"fÄĵngĠbÃło":6683,"shÃ¬ĠyÄ«ĠzhÇĴngĠ":6684,"ĠjÃŃĠbÃ¬ngĠ":6685,"ĠjÃ¬Ġde":6686,"ĠwÃ©iĠrÃło":6687,"shÃłngĠyÇĴu":6688,"2025ĠniÃ¡nĠ":6689,"ĠkÄģiĠfÄģĠ":6690,"kuÃ¡ngĠ":6691,"ĠqÄ«ĠniÃ¡nĠ":6692,"ĠyÃłĠmÄĽiĠnÃŃĠyÃł":6693,"ĠyÃºĠ196":6694,"yÃŃĠcÃ¬ĠshÃ¬ĠjiÃ¨ĠdÃłĠzhÃłnĠ":6695,"ĠjÇĲĠyÇĶ":6696,"guÄģ":6697,"ne":6698,"ĠdÅįuĠhuÃ¬Ġ":6699,"pÇĶĠtÅįngĠ":6700,"ĠyÄ«nĠyuÃ¨Ġ":6701,"gÇĴngĠ":6702,"ĠluÇİnĠ":6703,"ĠqÃ¬ĠhÃ²u":6704,"ĠyÄ«nĠwÃ¨iĠtÄģ":6705,"ĠĠĠshÇĲĠyÃ²ngĠ":6706,"ĠrÃ³u":6707,"ĠhÃ©ĠqÃŃĠtÄģ":6708,"ĠxiÄģngĠhÃ¹":6709,"ĠkuÃ²ĠzhÇİnĠ":6710,"dÄģngĠjÃº":6711,"ĠguÃ³ĠjiÄģĠde":6712,"ĠbÃ¹ĠhÃ©":6713,"ĠkÇĶ":6714,"yuÃ¡nĠgÅįngĠ":6715,"ĠlÃ¡iĠdÃło":6716,"diÃ©Ġ":6717,"ĠQ":6718,"ĠyÄ«nĠshÃ¬Ġ":6719,"chÅ«ĠyÇİnĠ":6720,"jÄ«nĠshÇĶ":6721,"ĠbiÃłnĠdÃ©":6722,"wÃ¡ngĠchÃ¡o":6723,"Ġ1987ĠniÃ¡nĠ":6724,"ĠnÃ¨nĠ":6725,"ĠxiÄģoĠxÄ«":6726,"ĠjiÃłngĠdÄ«":6727,"omp":6728,"ĠlÃºĠwÇİĠÄĽrĠshÄĽngĠ":6729,"ĠliÇİngĠwÃ¨iĠ":6730,"93":6731,"ĠzhÃłngĠÃłiĠ":6732,"ĠĠĠmÃŃngĠ":6733,"ĠchÃ©ngĠbÄĽnĠ":6734,"ĠnÃ¡nĠyÇĲ":6735,"ĠduÅįĠmÃŃngĠ":6736,"ĠliÃ¨ĠwÃ¨iĠ":6737,"ĠchuÃłngĠjiÃłnĠ":6738,"ĠjiÄģĠlÃ¬ĠfÃº":6739,"63":6740,"ĠwÃ©iĠsÄ«":6741,"zhÃłnĠtÃ¡iĠ":6742,"ĠgÃ¨ĠlÃ¨iĠ":6743,"yÃ¬ĠqÇĲĠ":6744,"duÅįĠlÃ¬ĠyÃł":6745,"ĠtuÃ¬ĠyÃ¬Ġ":6746,"Ġ120":6747,"lÃ¨iĠxÃŃngĠ":6748,"Ã¡oĠ":6749,"ĠjiÄģnĠrÃ¨nĠ":6750,"Ã¨rĠzhÃłnĠ":6751,"wÃ©nĠzhÄģngĠ":6752,"tiÄĽĠdÃło":6753,"zhÅįngĠwÃ©nĠ":6754,"bÄĽnĠshÄĵnĠ":6755,"biÇİoĠdÃ¡":6756,"dÄģnĠqÅ«":6757,"jiÄĽĠshÃ¬Ġ":6758,"zhÇİnĠshÃ¬Ġ":6759,"ĠsÅ«Ġ":6760,"ĠcÅ«":6761,"ĠpÄ«nĠ":6762,"fÃłngĠqÃ¬Ġ":6763,"yuÇİnĠjÃ¬ngĠ":6764,"ĠwÃ¡":6765,"ĠzhÅįngĠshÄģnĠ":6766,"ĠyÇĲĠwÃ©iĠ":6767,"ĠsÄģnĠshÃ¬Ġ":6768,"ĠtiÄģnĠrÃ¡nĠ":6769,"wÃºĠrÃ©nĠ":6770,"xuÃ©ĠzhÄĽ":6771,"yÄ«ngĠgÄģiĠ":6772,"Ġ8ĠyuÃ¨Ġ":6773,"ĠwÃ²ĠÄĽr":6774,"ĠĠĠbÃ¨iĠ":6775,"ĠsÄ«ĠtuÅį":6776,"tÃ³ngĠpÃ¡iĠ":6777,"dÄģngĠzhÅįngĠ":6778,"bÄģĠxÄ«":6779,"ĠbiÄģnĠjÃŃ":6780,"2005ĠniÃ¡nĠ":6781,"ĠdÇİnĠ":6782,"ĠguÇĲĠ":6783,"ĠfÃł":6784,"chuÃłnĠ":6785,"ĠyÄ«ĠzhÄ«":6786,"ĠjÃŃĠlÃŃnĠ":6787,"qÃŃĠwÃ¨iĠ":6788,"gÇİo":6789,"shÃ©ngĠ":6790,"ĠshÃŃĠbÄģ":6791,"yÃ²ngĠzuÃ²":6792,"yÄ«ngĠyÇĶ":6793,"ĠmÇİnĠzÃº":6794,"lÃ¬ĠshÇĲĠ":6795,"ĠsÄ«ĠmÇİ":6796,"shÃŃĠÃ¨rĠniÃ¡nĠ":6797,"ĠwÃ¨iĠyÃºĠzhÅįngĠguÃ³":6798,"ĠshÅįuĠshÃ¬Ġ":6799,"ĠchuÃłngĠzuÃ²Ġ":6800,"mÇĲĠÄĽr":6801,"ĠĠĠ2006ĠniÃ¡nĠ":6802,"ĠdÃłĠguÄ«ĠmÃ³":6803,"ĠxiÃłoĠyuÃ¡nĠ":6804,"ĠfÄĵngĠbÃło":6805,"ĠzhÃ¨ĠyÃłngĠde":6806,"ĠkuÄģngĠ":6807,"ĠzÃłiĠxÄ«":6808,"zÃłiĠwÃ¨iĠ":6809,"ĠjiÃłoĠwÃ©iĠ":6810,"ĠshÅįuĠrÃ¹":6811,"ĠĠĠchÃºĠle":6812,"deĠshÃŃĠjiÄģnĠ":6813,"huÃ²ĠshÃ¬Ġ":6814,"ĠjiÄģoĠ":6815,"ĠjÄ«ĠdÅ«ĠjiÃło":6816,"lÃ¼Ã¨Ġ":6817,"ĠxiÃ¨ĠÄĽr":6818,"ĠyÃ³uĠyÇĴngĠ":6819,"ĠzhÃłnĠduÃ¬Ġ":6820,"lÃ¡iĠdÃło":6821,"ĠgÃ¹ĠdÃ¬ngĠ":6822,"fÄģĠxiÃłnĠle":6823,"ĠzÃłiĠxiÄģngĠgÇİngĠ":6824,"ĠzhÃ¨ĠshÇĴu":6825,"jiÃłnĠkÄģngĠ":6826,"ĠzhuÄģngĠbÃ¨iĠ":6827,"lÄģĠ":6828,"10Ġ":6829,"shÃ¬ĠzhÃ¨ngĠfÇĶ":6830,"ĠliÃ¹Ġ":6831,"biÇİoĠ":6832,"liÃ¨ĠrÃ¹":6833,"ĠbÇİoĠcÃºnĠ":6834,"yÇĲĠy":6835,"xiÃłnĠdeĠyÃŃĠgÃ¨":6836,"ĠxiÇİoĠxuÃ©":6837,"ĠhÃ¡o":6838,"ĠgÅįngĠyuÃ¡nĠqiÃ¡nĠ":6839,"59":6840,"pÅ«":6841,"ĠhuÃłĠshÃŃ":6842,"xiÄģngĠshÃ¬Ġ":6843,"ĠcÇĲĠzhÃłnĠ":6844,"ĠmÃ³Ġ":6845,"ĠbÇİiĠwÃłnĠ":6846,"xÃ¹nĠsÃ¹":6847,"yÇĲĠhÃ²uĠ":6848,"yÄĽĠbÃ¨iĠ":6849,"ĠbÇİoĠshÇĴu":6850,"zhuÄģngĠbÃ¨iĠ":6851,"Ġ12ĠyuÃ¨Ġ":6852,"ĠzÃłiĠxÄ«nĠ":6853,"zhÅįngĠhÇİiĠ":6854,"ĠhÃ©ĠzuÃ²Ġ":6855,"ĠdÃłĠfÃº":6856,"ĠguÄģnĠzhÃ¬Ġ":6857,"lÃ¡iĠshuÅįĠ":6858,"ĠcÇİiĠfÇİngĠ":6859,"ĠhÄĵiĠlÃ³ngĠjiÄģngĠ":6860,"ĠsÃłngĠ":6861,"ĠĠĠrÃ¬Ġ":6862,"ĠgÅįngĠzhÃ²ngĠ":6863,"ĠjiÄģĠzhÅįu":6864,"ĠshÃłngĠshÅ«":6865,"ĠdÃłnĠbÃ¹":6866,"ĠhuÃ¡ĠrÃ©nĠ":6867,"ĠzhÇĲĠdÃ¬ngĠ":6868,"ĠjiÃ¹ĠhuÃ¬Ġ":6869,"tiÄģnĠwÃ©nĠ":6870,"xuÇİnĠshÇĴu":6871,"ĠbÃ¬ĠyÃ¨":6872,"ĠwÇİngĠwÇİngĠ":6873,"ĠshÃ¬ĠyÄ«ĠzuÃ²":6874,"shÇĲĠyÃ¡nĠ":6875,"ĠĠĠhuÃ²":6876,"ĠyÇĶĠmÃ¡oĠqiÃº":6877,"ĠkÃ¨ĠlÇĲĠsÄ«":6878,"jiÃłoĠshÃ²u":6879,"ĠrÃ³ngĠyÃ¬Ġ":6880,"ĠmÃ¡oĠzÃ©ĠdÅįngĠ":6881,"ĠdÇĴngĠshÃ¬Ġ":6882,"zuÇĴĠyÃ²uĠ":6883,"Window":6884,"dÇĶ":6885,"tiÇİoĠzhÃłnĠ":6886,"ĠgÃ¨ĠzÃ¬Ġ":6887,"dÃłĠdÃło":6888,"ĠzhÃŃĠjÃ¬ngĠ":6889,"ĠzhuÄģngĠzhÃ¬Ġ":6890,"ĠhuÃŃĠ":6891,"zÄģiĠpÃ©iĠ":6892,"ĠĠĠ1Ġ":6893,"rÃ©nĠwÃ¹":6894,"kÃ¨ĠsÄ«":6895,"tiÄģnĠtÃ¡ngĠ":6896,"tÄģo":6897,"ĠĠĠgÃ¹ĠshÃ¬Ġ":6898,"ĠshÃ¬ĠzhÅįngĠ":6899,"dÃ©ĠlÇĲ":6900,"ĠshÃŃĠÃ¨rĠniÃ¡nĠ":6901,"dÅįuĠhuÃ¬Ġ":6902,"iceĠ":6903,"ĠchÃ¨ĠxiÄģo":6904,"ĠĠĠIn":6905,"7ĠyuÃ¨Ġ1ĠrÃ¬Ġ":6906,"Ġ1ĠgÃ¨":6907,"zhÄ«ĠmÃŃngĠ":6908,"Ġ160":6909,"shÃ¬ĠjiÃ¨ĠshÃłngĠ":6910,"ĠĠĠyuÃ¨":6911,"deĠhÃ²u":6912,"ĠshÃ¬ĠÃ©ĠluÃ³ĠsÄ«":6913,"ĠyÃ¬ĠdiÇİnĠ":6914,"yÇĴuĠyÃŃĠgÃ¨":6915,"ĠyÇĶĠcÇĲ":6916,"ĠsÄ«ĠdÃ¬Ġ":6917,"ĠchuÃ¡nĠshuÅį":6918,"ĠrÃłngĠtÄģ":6919,"deĠfÄģngĠshÃ¬Ġ":6920,"ĠshÃ¬ĠlÃ¡ngĠ":6921,"dÃ¬ĠqÄ«":6922,"ĠjÃ¹ĠjÃŃ":6923,"wÇİngĠlÃ¹":6924,"tÅįngĠchÄĵĠ":6925,"500":6926,"ĠlÇľĠshÄ«":6927,"tionĠ":6928,"kÃłnĠdÃło":6929,"ĠĠĠyÃ³uĠxÃ¬Ġ":6930,"ĠsÄ«ĠtÃ¨Ġ":6931,"xÄ«ĠyÇĲnĠ":6932,"Ġ32":6933,"mÃ¹ĠdÃ¬Ġ":6934,"shÃ©nĠme":6935,"Ġ8Ġ":6936,"ĠlÇĶĠshÃ¬Ġ":6937,"ĠtÅ«ĠrÃ¡nĠ":6938,"oy":6939,"ĠniÃ¡nĠjiÄģnĠ":6940,"ĠtÄģĠyÇĲ":6941,"jiÄģngĠsÅ«":6942,"Ġ158":6943,"isĠ":6944,"zhÅįngĠbÃ¨iĠ":6945,"ĠnÃ¡nĠbÃ¹Ġ":6946,"ĠmÃ¹ĠsÄ«ĠlÃŃnĠ":6947,"Ġ2011":6948,"ĠzÃºĠgÃ²u":6949,"Ġ1956ĠniÃ¡nĠ":6950,"92":6951,"shÃ¨ĠqÅ«":6952,"ĠtÅįngĠxÃ¹nĠ":6953,"ĠkÅįngĠzhÅįngĠ":6954,"ĠnÃ³ngĠmÃŃnĠ":6955,"lÇļĠkÃ¨":6956,"ĠqÇĲngĠqiÃº":6957,"rÇİo":6958,"xiÃłnĠshÃŃ":6959,"ĠguÄģnĠbÃ¬Ġ":6960,"Ġ1978ĠniÃ¡nĠ":6961,"nuÃ²Ġ":6962,"fÄģnĠyÃ¬Ġ":6963,"ĠtÇĲĠyÃ¹ĠchÇİngĠ":6964,"ĠdÃ©ĠzhÄ«":6965,"ĠdiÃłnĠlÃ¬Ġ":6966,"ĠyÃłĠjÅ«nĠ":6967,"chÄĵĠchÇİngĠ":6968,"ĠmÃ²ĠsÄ«ĠkÄĵ":6969,"fÃ©nĠ":6970,"ĠzÇĴngĠmiÃłnĠjÄ«":6971,"ĠgÄĵĠshÇĴuĠ":6972,"hÃ¡nĠshÃ¹":6973,"zÇĶĠjiÃłnĠ":6974,"bÃłoĠfÄģĠ":6975,"yÇĲnĠqÃŃngĠ":6976,"cÇİiĠqÇĶ":6977,"tÃ¡oĠwÇİnĠ":6978,"ĠshÄĵngĠzhÇİngĠyÃº":6979,"ide":6980,"ĠhÃ©ĠbÄĽiĠ":6981,"qÅ«ĠyÃ¹Ġ":6982,"ĠrÃ¨nĠqÄ«":6983,"ĠyÄ«ngĠguÃ³Ġ":6984,"ĠzÃºĠqiÃºĠduÃ¬Ġ":6985,"ĠdÃłiĠlÃ¡iĠ":6986,"ĠlÃ¬ngĠrÃ©nĠ":6987,"ĠyÃ³uĠtÃłiĠrÃ©nĠ":6988,"ĠtuÄ«ĠguÇİngĠ":6989,"huÇĴĠjiÃłnĠ":6990,"ĠzÃłiĠ197":6991,"pÃŃnĠdÃło":6992,"ĠjiÄģĠmÃ©ngĠ":6993,"ĠguÄģnĠdiÇİnĠ":6994,"ĠshÇĴuĠfÇĶ":6995,"ĠnÃ¨iĠgÃ©":6996,"jiÇİnĠdÄģnĠ":6997,"uÇİ":6998,"xiÃłoĠzhÇİngĠ":6999,"Ġ11ĠyuÃ¨Ġ":7000,"cÃ¹nĠ":7001,"ĠcÇİoĠ":7002,"ĠgÅįngĠqÇĲngĠ":7003,"ĠcÃ¬ĠshÇĲĠ":7004,"ĠfÃºĠlÃ©iĠ":7005,"ĠliÇİngĠzhÄĽ":7006,"tÇĲĠxÃ¬Ġ":7007,"ĠmÃ©ngĠtÃ¨":7008,"Ġ179":7009,"ĠdÃłiĠbiÇİoĠtuÃ¡nĠ":7010,"ĠliÃ¡nĠhÃ©ĠhuÃ¬Ġ":7011,"ĠshÄģnĠdÅįngĠshÄĽngĠ":7012,"wÃ¨iĠyÄ«":7013,"sÄ«ĠlÄģĠfÅ«":7014,"fÄĵnĠlÃ¨iĠ":7015,"ĠchÇĲĠ":7016,"kÃ¨Ġde":7017,"kÅįngĠjÅ«nĠ":7018,"ĠchÃºĠcÇĲ":7019,"ĠlÇİngĠpÇĶ":7020,"ĠzhÃ²ngĠyÃłoĠde":7021,"62":7022,"ĠĠĠnÃ¡nĠ":7023,"ĠyÇĴuĠyÃŃĠgÃ¨":7024,"ĠzuÃ¬ĠduÅį":7025,"yÃ¨ĠwÃ¹Ġ":7026,"shÃ©":7027,"chÅįu":7028,"bÃ¬ngĠfÄĵiĠ":7029,"ĠzhÅįngĠxuÃ©Ġ":7030,"ĠfÄģĠqÇĲ":7031,"ĠmÃ²ĠÄĽr":7032,"ĠjiÄĽĠsÃłnĠ":7033,"dÃ©ĠzhÇĶĠ":7034,"chÃ¡ngĠshÃ¬Ġ":7035,"ale":7036,"ĠxÃŃngĠrÃ³ngĠ":7037,"ĠjÄ«ĠjÄ«nĠhuÃ¬Ġ":7038,"ĠtÃ³ngĠmÃŃngĠ":7039,"ĠxÃ¬ngĠnÃ©ngĠ":7040,"Ġ181":7041,"biÃłnĠdÃ©":7042,"ĠqiÄģnĠdÃ¬ngĠ":7043,"kÇİĠluÃ³":7044,"zhuÅį":7045,"shÃ¬ĠwÄĵiĠ":7046,"ĠzhÃ¹ĠmÃŃngĠde":7047,"ĠchÃ¹ĠzhÇİngĠ":7048,"ĠsÃłĠsÄ«":7049,"ĠIn":7050,"ĠzhÃłngĠfÅ«":7051,"ĠdeĠfÄģngĠshÃ¬Ġ":7052,"ĠshÃ¬ĠjÃŃ":7053,"shÃ¬ĠmÃŃnĠ":7054,"ĠgÅįngĠyÃ¬Ġ":7055,"ĠgÄģiĠdÇİngĠ":7056,"ĠcÄģnĠtÄ«ngĠ":7057,"ĠfÃ¹ĠjÃ¬nĠde":7058,"300":7059,"57":7060,"87":7061,"Ġ11Ġ":7062,"zhÄ«ĠzhÃłnĠ":7063,"ĠjÇĲnĠjÃŃ":7064,"yÇİnĠchÅ«":7065,"ĠdÃ¬ĠbÄģ":7066,"shÃŃĠniÃ¡nĠ":7067,"chÃ©ngĠdÃ¹":7068,"ĠzhÃ¬ĠdÃ¹":7069,"ĠbÄĽiĠbÃ¹Ġ":7070,"fÃºĠyÃ¬Ġ":7071,"ĠjÅ«ĠzhÃ¹":7072,"ĠyÃ¬ĠsiĠ":7073,"ĠgÃ¨ĠguÃ³":7074,"ĠdÃ©ĠjÅ«nĠ":7075,"jÅ«nĠguÄģnĠ":7076,"ĠjiÄĵĠchÃ¹":7077,"ĠwÄĵiĠxiÇİnĠ":7078,"huÃ¡ngĠjiÄģ":7079,"Ġ1979ĠniÃ¡nĠ":7080,"5ĠmÇĲĠ":7081,"ĠmÄģo":7082,"Ġ12Ġ":7083,"zhÃ¨ngĠcÃ¨Ġ":7084,"ĠtÃ¨ĠlÄģ":7085,"ĠzhÄ«ĠxiÃłnĠ":7086,"chÅ«ĠqÄ«":7087,"ĠĠĠjÇĲnĠguÇİnĠ":7088,"ĠgÅįngĠyÃ¬ngĠ":7089,"ĠzuÃ²ĠqÇĶ":7090,"huÃłĠxuÃ©":7091,"2004ĠniÃ¡nĠ":7092,"ĠtuÄ«ĠjÃ¬nĠ":7093,"ĠIS":7094,"ĠyÅįuĠshÃ¬Ġ":7095,"ĠyuÃ¡nĠzhÃ¹ĠmÃŃnĠ":7096,"ĠyÄ«ĠjiÄģ":7097,"ĠzhÃ¨ĠzuÃ²":7098,"ĠmÄĽiĠrÃ¬Ġ":7099,"ĠzhÇĲĠkÃ²ngĠ":7100,"chÇİngĠde":7101,"bÃ¬ngĠrÃ¹":7102,"qiÄģnĠmÇĲ":7103,"ĠguÇİngĠxÄ«":7104,"Ġ157":7105,"69":7106,"sonĠ":7107,"ĠchÃ¡ngĠdÃ¹":7108,"ĠchuÃ¡nĠbÅį":7109,"ĠbÇİiĠkÄĵ":7110,"ĠĠĠgÃłiĠyÃłoĠ":7111,"ĠzhÃ¨ĠxiÃłngĠ":7112,"sÄ«ĠkÃ¨":7113,"ĠbÄĽnĠdÃ¬Ġ":7114,"ĠbÇĲĠdÃ©":7115,"ĠguÄ«ĠfÃłnĠ":7116,"jiÇİnĠshÇİo":7117,"ĠliÃ¡oĠnÃŃngĠ":7118,"xÇĲĠhuÄģnĠ":7119,"pp":7120,"ĠshÃ¬ĠbÃ¹":7121,"dÃłiĠlÃ¡iĠ":7122,"ĠzhÇĲĠdÇİo":7123,"ĠbÅįĠsÄ«":7124,"ĠrÃºĠjÄ«nĠ":7125,"ĠchuÃłngĠshÇĲ":7126,"ĠxiÄģngĠguÄģnĠde":7127,"ĠyÇĴuĠxiÃłnĠgÅįngĠsÄ«":7128,"ĠĠĠchÅ«":7129,"ĠduÃ¬ĠwÃłiĠ":7130,"ĠxiÄģoĠfÃ¨iĠ":7131,"ĠlÇĲngĠdÃ¬Ġ":7132,"ĠAl":7133,"quÄĵĠfÃ¡":7134,"ĠĠĠchÃ©nĠ":7135,"ĠbÄĵnĠ":7136,"ĠshÃ¬ĠtÃ¡iĠwÄģnĠ":7137,"ĠduÃ¬ĠkÃłngĠ":7138,"ĠbÄĽnĠtÇĶ":7139,"hÇİiĠÃłnĠ":7140,"ĠgÅįngĠhuÃ¬Ġ":7141,"ĠdÃłĠduÅį":7142,"ĠxiÃłĠjÃ¬Ġ":7143,"jÃ¬nĠzhÇĲ":7144,"gÃ¨ĠdÃ¬Ġ":7145,"ĠbÃłoĠfÄģ":7146,"ock":7147,"wÃ¨iĠshÄĵngĠ":7148,"ĠzhÅįngĠyÇĴu":7149,"ĠjÄ«nĠpÃ¡iĠ":7150,"jiÃłoĠyÃ¹Ġ":7151,"ĠguÄ«ĠzÃ©":7152,"rÃºĠhÃ©":7153,"Ġ1947ĠniÃ¡nĠ":7154,"CO":7155,"ok":7156,"shÃŃĠqÄ«Ġde":7157,"ĠjÃ¬ĠsuÃłnĠjÄ«":7158,"ĠtuÇĴ":7159,"ĠpÄĵngĠ":7160,"ĠxÃŃngĠzhuÃłngĠ":7161,"ĠzhÃ¹ĠzuÃ²":7162,"diÃłnĠnÇİo":7163,"zĠ":7164,"ĠfÃ¹ĠgÃłiĠ":7165,"guÄģnĠchÃ¡":7166,"huÃ²ĠzhÄĽ":7167,"cÃ¡iĠzhÃ¨ngĠ":7168,"diÃłoĠchÃ¡Ġ":7169,"ĠĠĠlÃ¬ngĠwÃłiĠ":7170,"ĠwÃºĠ":7171,"ĠdÃłoĠyuÃłnĠ":7172,"ĠbÃ¨iĠshÃ¬ĠwÃ¨iĠ":7173,"tÃŃĠshÄĵngĠ":7174,"fÃ¨nĠzÇĲ":7175,"ĠxiÃ¡Ġ":7176,"ĠzÃłiĠbÄĽiĠ":7177,"xiÃłngĠde":7178,"ĠyÃ²uĠyÃ¬Ġ":7179,"ĠbiÄģnĠjÃ¬ngĠ":7180,"ĠtÃ¡ngĠchÃ¡o":7181,"ĠzhÃłnĠtÃ¡iĠ":7182,"ĠgÄģiĠpiÃłnĠ":7183,"ĠgÄĵĠlÃºnĠbÇĲĠyÃł":7184,"ĠqiÃ¡oĠliÃ¡ngĠ":7185,"pÇĲnĠpÃ¡iĠ":7186,"lÃ¹ĠyÃ¬Ġ":7187,"ĠlÇĲngĠtÇĶ":7188,"ĠkÅįngĠqÃ¬Ġ":7189,"ĠlÇļĠkÃ¨":7190,"liÃ¨ĠchÄĵĠ":7191,"ĠshÃ¬ĠbÄ«ngĠ":7192,"ĠyuÃ¡nĠsÃ¹":7193,"xÃŃngĠwÃ¨iĠ":7194,"ĠwÃ¡ngĠshÃ¬Ġ":7195,"gÃ²uĠchÃ©ngĠ":7196,"ĠhuÄģĠyuÃ¡nĠ":7197,"ear":7198,"umĠ":7199,"ĠĠĠbÄĽiĠ":7200,"ĠĠĠsÄģnĠ":7201,"ĠshÃ¬ĠzhÃ¨ngĠ":7202,"ĠjÃ¹ĠdÃł":7203,"ĠdÃ²ngĠzuÃ²":7204,"190":7205,"fÃ¹ĠshÅ«ĠjÃ¬Ġ":7206,"ĠnÃ³ngĠcÅ«nĠ":7207,"xiÄĽĠ":7208,"yÃŃnĠpÃ¡iĠ":7209,"asĠĠĠ":7210,"Ġì":7211,"shÇĴuĠde":7212,"ĠyÇİnĠyÃ¬Ġ":7213,"Ġ162":7214,"tuÄ«ĠjÃ¬nĠ":7215,"isĠĠĠ":7216,"bÃłoĠzhÃł":7217,"ĠmÇĲĠde":7218,"ĠsÃłĠ":7219,"ĠbÃ¡iĠsÃ¨":7220,"zhÇĶĠjuÃ©":7221,"ĠcÃ©ngĠshÃ¬Ġ":7222,"ĠchÃ¡ngĠjiÄģngĠ":7223,"mÃ¹ĠbiÄģo":7224,"Ġ182":7225,"ĠtÃ¡nĠpÃłnĠ":7226,"ĠshÃ¬ĠwÃ¨iĠle":7227,"guÃ²Ġ":7228,"gÄģoĠxiÃ³ngĠ":7229,"ĠqÃ¬Ġde":7230,"qÅ«ĠyÃ¬ĠhuÃ¬Ġ":7231,"ĠyÄĽĠ":7232,"kÄĽĠ":7233,"ont":7234,"ĠlÄĽiĠjÃ¬Ġ":7235,"ĠĠĠhÃ³ngĠ":7236,"ĠshÃ¨ĠyÃº":7237,"ĠĠĠliÃº":7238,"ĠzÃłiĠyÃº":7239,"zhÃ¬ĠdÃ¬ngĠ":7240,"ĠyÃ¹nĠyÃ²ngĠ":7241,"Ġ9ĠyuÃ¨Ġ":7242,"ĠyÃ¬nĠnÃŃ":7243,"ĠdÄĵngĠlÃ¹":7244,"ĠwÃ¨iĠ2":7245,"ĠĠĠyÄ«nĠ":7246,"ĠqÇĲĠyÃ¨Ġ":7247,"ĠshÃŃĠyÃ²ngĠ":7248,"Ġ19ĠshÃ¬ĠjÃ¬Ġ":7249,"bÃ¨iĠÄĽr":7250,"ĠfÄĵnĠpÃ¨iĠ":7251,"ĠkÇĴngĠbÃ¹":7252,"ĠzhÇĲĠyÃło":7253,"ĠpÃ©nĠ":7254,"ĠyÇĲĠwÃłiĠ":7255,"ĠshÃ¹ĠjÃ¹Ġ":7256,"ĠqiÃºĠjÃ¬Ġ":7257,"tÅįngĠguÃ²Ġ":7258,"ĠshÃŃĠhÃ²u":7259,"rÃ¨nĠwÃ¹":7260,"enc":7261,"ĠxÃ¬nĠhÃło":7262,"Ġ1952ĠniÃ¡nĠ":7263,"ĠxiÃłnĠshÃ¬Ġ":7264,"Ġ1972ĠniÃ¡nĠ":7265,"biÇİnĠ":7266,"ĠÃ©rĠbÃ¨iĠ":7267,"cÃ¬ĠyÃº":7268,"piÃłoĠ":7269,"ĠbÄĵngĠ":7270,"yÄĽĠhuÃ¬Ġ":7271,"ĠnÃŃĠhÄĵiĠ":7272,"ĠzhuÇİnĠxiÃłngĠ":7273,"ĠzÄĵngĠqiÃ¡ngĠ":7274,"ĠzhÃŃĠmÃŃnĠdÃ¬Ġ":7275,"ĠfÄģĠdiÃłnĠ":7276,"mÄĽiĠshÃ¹":7277,"ĠwÃ©nĠwÃ¹ĠbÇİoĠhÃ¹ĠdÄģnĠwÃ¨iĠ":7278,"hÇİiĠyÃ¹Ġ":7279,"ĠzhÃ²ngĠduÅį":7280,"ĠyÇĲĠjÃŃĠ":7281,"yuÃłnĠshÃ¬Ġ":7282,"Ġ1955ĠniÃ¡nĠ":7283,"ĠdeĠyÃ¡nĠjiÅ«":7284,"hÃ¹ĠxiÄģngĠ":7285,"hÃ²uĠqÄ«":7286,"ĠtÃ³ngĠzhÃ¬Ġ":7287,"ĠluÃ³ĠfÅ«":7288,"shÄĵnĠzhÃ¨nĠ":7289,"ĠfÃ¡ĠlÃ¬ĠyÃł":7290,"qÇĲĠdÃ²ngĠ":7291,"86":7292,"dÃłĠjiÇİngĠ":7293,"ĠĠĠwÃ©iĠ":7294,"deĠdÃ¬ĠyÄ«":7295,"dÃłĠshÃł":7296,"Ġ55":7297,"hÅ«nĠyÄ«nĠ":7298,"shÃ¬ĠyÇĲ":7299,"ĠyÄ«ĠchÃ¡ngĠ":7300,"ĠchÃ©ngĠdÃ¹":7301,"huÃ¬ĠzhÇİngĠ":7302,"ĠfÃ¹ĠshÇĶ":7303,"ĠkÄģiĠshÃ¨":7304,"chÇİnĠyÃ¨":7305,"ĠtÇİĠnÃŃ":7306,"ĠÃ©rĠrÃ©nĠkÇĴuĠmÃ¬ĠdÃ¹ĠwÃ¨iĠmÄĽiĠpÃŃngĠfÄģngĠqiÄģnĠmÇĲ":7307,"ĠsectionĠĠĠ":7308,"tÃŃngĠzhÇĲ":7309,"kÄĽĠnÃ©ngĠhuÃ¬Ġ":7310,"lÃ¨Ġ":7311,"ĠshÃ¬ĠyÃ¬ĠdÃłĠlÃ¬Ġ":7312,"ĠdÃ¬ĠzhÃ¬Ġ":7313,"ĠbÃ¹ĠliÃ¨":7314,"ĠdÃłĠbÇİnĠ":7315,"zhÃŃĠde":7316,"fÃ¹ĠgÃłiĠ":7317,"zhÇĲĠnÃ©ngĠ":7318,"ĠSĠ":7319,"ĠÃłnĠzhÃło":7320,"ĠzÃłiĠwÃ¨iĠ":7321,"ĠshÄĵngĠcÃºnĠ":7322,"ĠshÃ¨ĠdÃ¬ngĠ":7323,"shÃ¨ĠjÃŃ":7324,"chÃ¡ngĠde":7325,"ĠzÄ«ĠbÄĽnĠ":7326,"cÃ¨Ġde":7327,"ĠxiÄģoĠxÄ«Ġ":7328,"Ġ1981ĠniÃ¡nĠ":7329,"ĠzhÃ¨ĠjiÄģngĠshÄĽngĠ":7330,"ĠpÃ¹":7331,"ĠchÃ©ngĠkÃ¨":7332,"bÃ¹ĠzÃº":7333,"ĠcÇĲĠqiÃ¡nĠ":7334,"ĠshÃ©nĠme":7335,"zhuÄģngĠzhÃ¬Ġ":7336,"ĠtÅįngĠguÃ²Ġ":7337,"ĠdeĠyÃŃĠgÃ¨ĠshÃ¬ĠzhÃ¨nĠ":7338,"deĠxiÇİoĠxÃŃngĠxÄ«ngĠ":7339,"hÅįngĠzhÃł":7340,"Ġ20Ġ":7341,"shuÃłiĠlÇĲngĠ":7342,"ÃłiĠqÃŃngĠ":7343,"shÃ¬ĠyÇĴu":7344,"ĠyÃ¹ĠshÇĲĠ":7345,"jÇĲĠyÇĶ":7346,"tuÄ«ĠdÃ²ngĠ":7347,"82":7348,"ĠlÇĴngĠ":7349,"ĠkÃ¨ĠlÃ¬Ġ":7350,"jiÄĵĠjÃŃ":7351,"ĠÏ":7352,"dÃłĠguÄ«ĠmÃ³":7353,"ĠshÇĴuĠgÃ¨":7354,"ĠwÇİngĠqiÃº":7355,"tÃ¡nĠpÃłnĠ":7356,"sÄ«ĠdÃ¹nĠ":7357,"zhÃłnĠtÃŃngĠ":7358,"ĠkÄģiĠzhÇİnĠ":7359,"ĠdÃ¡ĠÄĽr":7360,"ĠgÇĶĠlÃ¬Ġ":7361,"Ġ7ĠyuÃ¨Ġ":7362,"ĠÃ¨rĠshÃ¬Ġ":7363,"ĠfÃ¹ĠhÃłnĠ":7364,"shuÄģngĠfÄģngĠ":7365,"ruÃ¬ĠshÃ¬Ġ":7366,"gÃłiĠniÃłnĠ":7367,"ĠpÃ©iĠxÃ¹nĠ":7368,"ĠĠĠgÄĵnĠjÃ¹Ġ2020ĠniÃ¡nĠmÄĽiĠguÃ³ĠrÃ©nĠkÇĴuĠpÇĶĠchÃ¡ĠdeĠshÃ¹ĠjÃ¹Ġ":7369,"ĠyÇĶĠzhÅįngĠ":7370,"Ġ2020":7371,"fÄĵiĠzhÅįu":7372,"Ġ75":7373,"zÃ²ngĠ":7374,"âĨ":7375,"ĠhÃ¡ngĠkÅįngĠ":7376,"ĠĠĠquÃ¡nĠ":7377,"ĠzhÃ¬ĠchÃ©ngĠ":7378,"ĠzÃ©ĠwÃ¨iĠ":7379,"ĠlÇĲngĠyÃ¹Ġ":7380,"Ġ000ĠrÃ©nĠ":7381,"zhÄ«ĠchÃŃĠ":7382,"ĠĠĠjÄ«nĠ":7383,"ĠduÅįĠde":7384,"guÄģnĠfÃ¨iĠyÃ¡nĠ":7385,"ĠchÇİngĠjÇĲngĠ":7386,"jiÇĶĠdiÃłnĠ":7387,"Ġ1937ĠniÃ¡nĠ":7388,"ĠxÃŃngĠrÃ©nĠ":7389,"hÃ¡ngĠbÄģnĠ":7390,"ĠyÃ³uĠjÄ«":7391,"ÃłiĠlÃ¬Ġ":7392,"ĠlÃ¡iĠnÃł":7393,"huÃ²Ġ":7394,"ĠmiÃ¡oĠshÃ¹Ġ":7395,"ĠdeĠdÃ¬ĠyÄ«":7396,"dÃ²ngĠlÃ¬Ġ":7397,"liÃ¡nĠhÃ©ĠguÃ³":7398,"ĠtÃºĠzhÅįngĠ":7399,"wÄĵiĠliÃ¡nĠ":7400,"ĠĠĠdÃło":7401,"yÃŃĠdÃło":7402,"ĠgÃ©ĠlÃ©iĠ":7403,"shÅ«ĠrÃ¹":7404,"ĠjiÃ¨ĠshÃło":7405,"gÇĶĠfÃ¨nĠ":7406,"ĠfÃ¡ngĠzhÇĲ":7407,"qÇĶĠxiÄģo":7408,"ĠĠĠ2005ĠniÃ¡nĠ":7409,"ĠjiÄģĠlÃ¬ĠyÃł":7410,"Ã¨rĠ":7411,"ĠxiÄģngĠzhÃ¨nĠ":7412,"ĠzhÃ¹ĠcÃ¨":7413,"qiÃºĠhuÃ¬Ġ":7414,"ĠbÃ¬ĠyÃło":7415,"ĠqÇĲĠyÃ¬Ġ":7416,"suÃŃĠzhÃ¹":7417,"ook":7418,"ĠdeĠzhÃ²ngĠyÃło":7419,"chÃ©ngĠxÃ¹":7420,"ĠduÃ¬ĠcÇĲ":7421,"ĠdÃłiĠwÃ©iĠ":7422,"Ġ33":7423,"ĠĠĠ0":7424,"jiÄģĠmÃ©ngĠ":7425,"ĠshÃłngĠshÅ«Ġ":7426,"xiÃłĠlÃ¬ngĠ":7427,"bÇİoĠcÃºnĠ":7428,"ĠyÄĽĠbÃ¹":7429,"tuÃ¡nĠtÇĲĠ":7430,"89":7431,"ayĠ":7432,"deĠyÃ¡nĠ":7433,"ĠhÃ©ĠdÃło":7434,"lÃ¬ĠyÃł":7435,"ĠjÄ«ĠzhÃ¬Ġ":7436,"shÃŃĠduÃłnĠ":7437,"Ġ39":7438,"ĠkÄĽĠyÇĲĠzÃłiĠ":7439,"niÃ¡ngĠ":7440,"ĠgÄĽiĠle":7441,"deĠzhÃ²ngĠyÃło":7442,"gÅįngĠrÃ©nĠ":7443,"jÅ«nĠwÃ¨iĠ":7444,"ĠqÃŃngĠbÃło":7445,"ĠÃłoĠdÃ¬ĠlÃ¬Ġ":7446,"zÃłiĠcÇĲ":7447,"jÃ¬ĠshÃ¹Ġ":7448,"xÄ«ĠfÄģngĠ":7449,"mÇİĠlÃ¬Ġ":7450,"hÃ¡nĠyÇĴu":7451,"qÇĲĠyÃ¬Ġ":7452,"ĠsuÃ¬ĠdÃło":7453,"zhÃ¬ĠzuÃ²Ġ":7454,"nÃ¡nĠbÄĽiĠ":7455,"kÄģiĠshÃ¨":7456,"ĠchÃŃĠ":7457,"zhÃ¨ngĠfÇĶĠde":7458,"dÅ«ĠshÃ¬Ġ":7459,"ĠgÄĵngĠxÄ«nĠ":7460,"ĠhantĠ":7461,"zhÃ¬ĠdÃ¹":7462,"ĠyÇĶĠhÃ©":7463,"ĠdeĠzuÃ²ĠpÇĲnĠ":7464,"shÃŃĠyÄ«":7465,"zÃłiĠrÃ¬ĠbÄĽnĠ":7466,"jÄ«ĠjÃŃ":7467,"ĠzuÃ²ĠjiÄģĠ":7468,"ĠgÄģiĠgÅįngĠsÄ«":7469,"shÇĲĠjiÃłnĠyÃº":7470,"ĠguÃ²ĠdÃ¹":7471,"Ġ3ĠgÃ¨":7472,"Ġ1976ĠniÃ¡nĠ":7473,"tuÄ«ĠchÅ«Ġ":7474,"ĠcuÃ²Ġ":7475,"deĠgÄģo":7476,"ĠyÇĲĠyÇĴu":7477,"ĠwÃ©iĠÄĽrĠ":7478,"mÃ¹ĠbiÄģoĠ":7479,"xÃ¬nĠxÄ«":7480,"Ġ164":7481,"ĠliÇİoĠjiÄĽ":7482,"ode":7483,"bÃ¹ĠdÃ©":7484,"ĠduÃ¬ĠzhÇİngĠ":7485,"ĠchÅ«ĠyÇİnĠ":7486,"ĠjÃ¬nĠniÃ¡nĠ":7487,"ĠlÃ¨ĠsÄ«ĠtÇİnĠ":7488,"Ġ1938ĠniÃ¡nĠ":7489,"ĠhÅ«nĠyÄ«nĠ":7490,"guÃ²ĠchÃ©ngĠzhÅįngĠ":7491,"ĠhÃ²uĠbÃ¨iĠ":7492,"zhÃŃĠmÃŃnĠ":7493,"ĠguÇİnĠxiÃ¡":7494,"ĠhÄĵiĠsÃ¨":7495,"sÄĵnĠlÃŃnĠ":7496,"ĠxÄ«ĠbÃ¹Ġ":7497,"ĠdÅįngĠjÃ¬Ġ":7498,"juÃ©ĠsÃ¨Ġ":7499,"ĠxiÄģnĠshÄĵngĠ":7500,"Ġ156":7501,"ib":7502,"yÃ¬ĠyÇĴu":7503,"ĠÄĽrĠsÄ«Ġ":7504,"zhÃ¹ĠzhÃ¡iĠ":7505,"jÄ«nĠrÃ³ngĠ":7506,"wÇĶĠtÃ¡iĠ":7507,"jiÄĽĠsÃłnĠ":7508,"ĠzÃłiĠ196":7509,"etĠ":7510,"ĠzhÄ«ĠziĠ":7511,"ĠjiÃ©ĠshÃ¹Ġ":7512,"pÃŃngĠwÃ¨iĠ":7513,"ĠJR":7514,"dÃ¬Ġ2":7515,"hÃ³ngĠjÅ«nĠ":7516,"bÃłnĠgÅįngĠ":7517,"ĠpÃ²ĠlÃºnĠ":7518,"zÃłiĠyÄ«":7519,"ĠzuÃ¬ĠjÃ¬nĠ":7520,"ĠbÅįĠlÃŃ":7521,"ĠrÃ³ngĠnÃł":7522,"hÃ¹ĠdÃ²ngĠ":7523,"zhÃ¬Ġ199":7524,"fÄģĠchÅ«":7525,"ruÃ²Ġ":7526,"oli":7527,"ĠshÃ¬ĠdÃ¹nĠ":7528,"ĠjÃŃĠshÃŃ":7529,"ĠyÇĴuĠsuÇĴ":7530,"lÃ¬ĠshÇĶĠyÃº":7531,"duÃ¬ĠwÃłiĠ":7532,"ĠfÄģĠmÃŃngĠ":7533,"ĠxiÃłngĠde":7534,"Ġ34":7535,"ĠluÃ²ĠkÃ¨":7536,"ĠtÃ³ngĠshÃŃĠyÄĽĠshÃ¬Ġ":7537,"dÃłnĠbÃ¡iĠ":7538,"kÃłngĠyÃ¬Ġ":7539,"deĠnÇļ":7540,"ĠyÃºĠ202":7541,"ĠdÃłnĠrÃ©ngĠ":7542,"ĠjiÄĵĠshÅįu":7543,"Ġ1954ĠniÃ¡nĠ":7544,"ĠzhÅįngĠguÃ³ĠdÃłĠlÃ¹Ġde":7545,"dÃ²ngĠhuÃłĠ":7546,"zhuÃłngĠbÃ¬ngĠdÃº":7547,"ĠdeĠzhÅįngĠ":7548,"dÃ¬ĠzhÃ¨nĠ":7549,"zÇĶĠhÃ©":7550,"shÅ«ĠyuÃłnĠ":7551,"ĠkuÃ¬Ġ":7552,"ĠgÃ¨ĠgÃ¨":7553,"ĠzhÄ«ĠchÄĵngĠ":7554,"ĠxÄ«ĠlÇĲ":7555,"eĠĠĠC":7556,"ĠxiÃ©ĠtiÃ¡o":7557,"entĠ":7558,"ĠnÄ«":7559,"tÃ¡iĠnÃ¡nĠ":7560,"lÇĲngĠshÃ¬Ġ":7561,"Ġ1941ĠniÃ¡nĠ":7562,"liÇĶ":7563,"ĠsuÇĴĠzÃłiĠdÃ¬Ġ":7564,"tÄģĠwÃ¨iĠ":7565,"dÇİoĠdÃłnĠ":7566,"ĠÄģnĠzhuÄģngĠ":7567,"ĠlÄģĠtÃ¨":7568,"jiÄģngĠhuÃ¬Ġ":7569,"zhÇĲĠkÃ²ngĠ":7570,"dÇİoĠshÃ¬Ġ":7571,"cÄģnĠxuÇİnĠ":7572,"zhuÄģngĠjiÇİ":7573,"ĠnÃŃĠyÃłĠ":7574,"ĠwÃ¨iĠshÃ¬Ġ":7575,"bÃ¹ĠmÇİnĠ":7576,"jiÃ©ĠguÇĴ":7577,"ĠbÃłoĠdÇİo":7578,"ĠchÃºĠ":7579,"ĠxÃ¬nĠxÄ«Ġ":7580,"chuÃłngĠzÃło":7581,"Ġ1000":7582,"wÃ©nĠhuÃłĠ":7583,"Ġ1944ĠniÃ¡nĠ":7584,"gÃ¹ĠwÃ¨nĠ":7585,"ĠnĠ":7586,"ĠzhÃ¨ĠyÄĽĠshÃ¬Ġ":7587,"qÃ¬ĠhÃ²u":7588,"ĠjiÃłĠshÇĲ":7589,"ĠpÃłiĠqiÇİnĠ":7590,"ĠtiÄĽĠlÃ¹ĠchÄĵĠzhÃłnĠ":7591,"ĠdÅįngĠbÄĽiĠbÃ¹":7592,"30ĠniÃ¡nĠ":7593,"nÃ¨":7594,"tÇĶĠÄĽrĠqÃŃ":7595,"ĠĠĠgÇĶ":7596,"ĠĠĠjÄ«ngĠjÃ¬Ġ":7597,"guÃ³ĠjiÄģĠ":7598,"ĠhÃ©ĠmÇİ":7599,"ĠyÃ²ngĠzuÃ²":7600,"ĠliÃ¨Ġde":7601,"wÃ¡nĠgÅįngĠ":7602,"xiÄģnĠshÄĵngĠ":7603,"yÇĲnĠzhÇĴngĠ":7604,"yÃºnĠnÃ¡nĠ":7605,"81":7606,"yuÃ¡nĠshÃ¬Ġ":7607,"zhÄ«Ġde":7608,"ĠfÃºĠlÇĲ":7609,"ĠqiÄģnĠshÇĶ":7610,"quÃ¨Ġ":7611,"ĠdÄĵngĠshÃłngĠ":7612,"lÇļĠyÃ³u":7613,"ĠjÃŃĠÄĽr":7614,"dÄģngĠniÃ¡nĠ":7615,"ĠniÃ¡ngĠ":7616,"shÃ¨ĠhuÃ¬ĠzhÇĶĠyÃ¬Ġ":7617,"ĠyÇĲĠxiÃłĠdÃ¬ĠqÅ«Ġ":7618,"ĠxiÄģngĠdÄģngĠyÃº":7619,"yÃºĠlÃ¨":7620,"ĠyÃ³uĠxÃŃngĠ":7621,"ĠyuÃ¡nĠgÅįngĠ":7622,"jÄ«ĠxiÃ¨":7623,"shÇĴuĠdÅ«":7624,"fÃłnĠzuÃ¬Ġ":7625,"zÄĵngĠjiÄģĠ":7626,"71":7627,"2019":7628,"ĠjÃŃĠdÃł":7629,"ĠguÄģnĠzhÃ¹":7630,"ĠbÄĽnĠrÃ©nĠ":7631,"zhÄĵngĠyÃ¬Ġ":7632,"ĠfÄģĠxiÃłnĠle":7633,"ĠjÄ«ĠsÄ«ĠtÇİnĠ":7634,"ĠyÃłoĠ":7635,"ĠtuÃ¡nĠtÇĲĠ":7636,"nÃłĠshÄĽngĠ":7637,"chÃ³ngĠqÃ¬ngĠ":7638,"ĠlÇļĠ":7639,"Ġ1960ĠniÃ¡nĠ":7640,"yp":7641,"deĠzhÃ¨ngĠ":7642,"ĠdÃłnĠzhÃ¨":7643,"ĠzuÃ¬ĠhÃ²uĠ":7644,"kÃ¨ĠyÃ¹nĠ":7645,"ĠmiÇİoĠ":7646,"mer":7647,"zuÃ²ĠjiÄģ":7648,"ĠtÃ¨ĠxÃ¬ngĠ":7649,"ĠmÃ¬ĠshÅ«ĠzhÇİngĠ":7650,"ĠniÃ¡nĠ12ĠyuÃ¨Ġ31ĠrÃ¬Ġ":7651,"zhuÃłnĠdeĠxiÇİoĠxÃŃngĠxÄ«ngĠ":7652,"ĠshÃ¬ĠhÃ²u":7653,"xÄ«nĠzÄĵngĠ":7654,"bÃ¨iĠrÃ¨nĠwÃ©iĠshÃ¬Ġ":7655,"ĠqiÃ¡nĠtÇĲngĠ":7656,"ĠzÇĶĠchÃ©ngĠde":7657,"ĠtÃ¬ĠdÃłiĠ":7658,"ĠlÃ¹ĠyÇĲngĠdÃłiĠ":7659,"diÃłnĠqÃ¬Ġ":7660,"chuÃ¡nĠmÃ©iĠ":7661,"eĠĠĠS":7662,"jiÇĶĠlÃ³ngĠ":7663,"yÄ«ĠsÄ«ĠlÃ¡nĠ":7664,"ĠqiÄģo":7665,"ĠbÃ¹ĠlÇĲ":7666,"ĠxiÃłnĠyÇĲ":7667,"jÃŃĠshÃŃ":7668,"diÃłnĠshÃ¬ĠjÃ¹Ġ":7669,"ĠmÃ¨iĠmÃ¨iĠ":7670,"gÅįngĠÄģnĠ":7671,"xuÃ©ĠshÃ¹":7672,"bÅįĠchÅ«":7673,"ĠgÄĵnĠsuÃŃ":7674,"ĠsuÇĴĠyÇĴuĠde":7675,"edĠ":7676,"tuÇĴ":7677,"ĠshÃłoĠ":7678,"ĠĠĠv":7679,"ĠdÃ¬Ġ3":7680,"ĠyÄ«ĠzhÅįu":7681,"ĠhuÃ¬ĠshÃłngĠ":7682,"ĠzhÇĶĠbÃłnĠ":7683,"zhÇĶĠzhÄģngĠ":7684,"ĠzÄ«ĠgÃ©Ġ":7685,"tÃºĠzhÅįngĠ":7686,"ĠxÃºnĠzhÇİo":7687,"ĠTh":7688,"ĠfÃ¡Ġ":7689,"ĠbÃ¹ĠdÃŃ":7690,"ĠzhÅįuĠzhÇİngĠ":7691,"ĠjÃ¬ngĠxuÇİnĠ":7692,"chÅįngĠtÅ«Ġ":7693,"ĠdÃłĠlÃ³u":7694,"jÄ«ĠzhÃ¬Ġ":7695,"chÅ«ĠqÄ«Ġ":7696,"ĠjÇĲnĠyÇĴu":7697,"ĠhÇİnĠmÃ²":7698,"ĠkÃ¹nĠnÃ¡nĠ":7699,"ĠyÇĲĠnÃ¡nĠ":7700,"ĠgÃ©ĠlÃŃnĠ":7701,"ĠgÃ¨ngĠwÃ©iĠ":7702,"Ġ1939ĠniÃ¡nĠ":7703,"tu":7704,"ĠwÃ¨iĠyÇĴu":7705,"ĠbÃ¬ngĠrÃ¹":7706,"ĠsÄģnĠmÃŃngĠ":7707,"ĠshÃ²uĠyÇĶ":7708,"tÃŃĠchÅ«Ġ":7709,"ĠwÃłnĠpÃŃngĠfÄģngĠ":7710,"ĠcÃ¡iĠchÇİnĠ":7711,"ĠxÅ«ĠqiÃº":7712,"mÃ¬ngĠlÃ¬ngĠ":7713,"ĠzÃłiĠnÃ¡nĠ":7714,"lÃ¬ĠjÃŃ":7715,"chÅ«ĠxÃŃ":7716,"ĠjuÃ©ĠyÃ¬Ġ":7717,"ĠxiÄģoĠliÃłngĠ":7718,"ĠxiÅ«ĠjiÃłnĠ":7719,"ĠdÇİĠsuÃłnĠ":7720,"Ġ1968ĠniÃ¡nĠ":7721,"pÃ¬nĠ":7722,"ĠĠĠpÃŃngĠjiÃłĠ":7723,"jÃŃĠzhÅįuĠde":7724,"ĠbÄģĠlÄģ":7725,"jiÃ©ĠdÃ¹":7726,"ĠchÅįngĠtÅ«Ġ":7727,"deĠpÃŃngĠjÅ«nĠhÇİiĠbÃ¡ĠgÄģoĠdÃ¹":7728,"ĠlÃ©ngĠ":7729,"ĠwÃ¨iĠqÃŃ":7730,"ĠchÇİnĠshÄĵngĠde":7731,"lÃ¡oĠdÃ²ngĠ":7732,"ach":7733,"quÇİnĠ":7734,"ĠrÃ¨Ġ":7735,"ÄģiĠÄĽr":7736,"ĠzhÃ¨ĠchÇİngĠ":7737,"liÃ¡nĠxÃ¬Ġ":7738,"ĠzhÅįngĠguÃ³Ġde":7739,"ĠcÄģnĠmÃ³u":7740,"shÃ²uĠhuÄģnĠyÃŃngĠ":7741,"Ġ159":7742,"ĠÃ©rĠgÄģiĠdÃ¬ĠdeĠpÃŃngĠjÅ«nĠhÇİiĠbÃ¡ĠgÄģoĠdÃ¹":7743,"LE":7744,"ĠĠĠxiÄģngĠ":7745,"ĠdÃłiĠlÇĲ":7746,"ĠkÄĽĠshÃ¬Ġ":7747,"ĠzhÇĶĠchÃŃĠrÃ©nĠ":7748,"deĠpÃŃngĠ":7749,"ĠxiÃłnĠrÃ©nĠ":7750,"ĠluÃ³ĠdÃ©":7751,"Ġ5ĠyuÃ¨Ġ":7752,"pÃłiĠqiÇİnĠ":7753,"ĠĠĠTh":7754,"2010ĠniÃ¡nĠmÄĽiĠguÃ³ĠrÃ©nĠkÇĴuĠpÇĶĠchÃ¡ĠdeĠshÃ¹ĠjÃ¹Ġ":7755,"ĠrÃ©nĠgÅįngĠyÇĲnĠzhÇĴngĠ":7756,"nuÇİnĠ":7757,"ĠpÃŃĠ":7758,"ĠyÄ«ĠbÃ¹":7759,"chÃ¡ngĠjiÃłnĠ":7760,"miÃłnĠduÃ¬Ġ":7761,"eĠĠĠM":7762,"shÄĵngĠchÄĵngĠ":7763,"ĠqÄ«ngĠhuÃ¡":7764,"Ġ400":7765,"Ġ1970ĠniÃ¡nĠ":7766,"ĠhÃºĠ":7767,"ĠgÅįngĠsÄ«Ġde":7768,"ĠrÃ©nĠgÅįngĠyÇĲnĠzhÇĴngĠzÄģiĠpÃ©iĠ":7769,"ĠsÇİo":7770,"yÃ¬ĠshÃŃ":7771,"ĠshÄĵngĠde":7772,"bÃ¨iĠpÃ²":7773,"ĠliÃºĠxiÃł":7774,"ĠshÄĵnĠdÃ¹":7775,"zÃ©ĠrÃ¨nĠ":7776,"Ġ6ĠyuÃ¨Ġ":7777,"ĠfÃºĠjiÃłnĠshÄĽngĠ":7778,"fÇİĠlÃ¡nĠxÄ«":7779,"ĠgÅįngĠjuÃ©":7780,"ĠjiÄģoĠchÄģ":7781,"Ġ1940ĠniÃ¡nĠ":7782,"dÄĵngĠlÃ¹":7783,"ost":7784,"ĠrÃ©nĠcÃ¬Ġ":7785,"zhÃ¬ĠdÃ¹Ġ":7786,"ĠdÃłĠzhÃ²ngĠ":7787,"ĠyuÃ¡nĠlÃ¡iĠ":7788,"qiÃºĠjÃ¬Ġ":7789,"ĠsÅ«ĠdÄģnĠ":7790,"dÄĵngĠshÃłngĠ":7791,"qÄ«nĠwÃ¡ngĠ":7792,"ĠĠĠdÅįngĠ":7793,"ĠzÃłiĠtÃ¡iĠwÄģnĠ":7794,"ĠbÃ¹ĠsÄ«":7795,"xiÃłnĠjÄ«nĠ":7796,"Ã¨rĠrÃ©nĠ":7797,"ĠjÅ«nĠzhÇĶ":7798,"ĠnÃ©ngĠyuÃ¡nĠ":7799,"ĠshÄģnĠxÄ«":7800,"zhÇĲĠchÅ«":7801,"Ġ64":7802,"ĠxÃŃngĠzhÃ¨ngĠzhÅįngĠxÄ«nĠ":7803,"yÇĲnĠrÃ¹":7804,"Ġ1964ĠniÃ¡nĠ":7805,"ĠfÃłnĠwÃ©iĠnÃ¨iĠ":7806,"AO":7807,"eam":7808,"ĠjÅ«Ġ":7809,"ÃłiĠdÃ©":7810,"jÄ«ĠchÇĶĠ":7811,"ĠduÅįĠÄĽr":7812,"xiÃłĠjiÃłngĠ":7813,"shÄģnĠmÃłiĠ":7814,"zÄ«ĠxÃ¹nĠ":7815,"angĠ":7816,"juÃłnĠ":7817,"dÃ¬ĠdiÇİnĠ":7818,"wÃ¹ĠyuÃ¡nĠ":7819,"ĠgÄĵĠÄĽr":7820,"qiÄģnĠzhÃ¬Ġ":7821,"ĠshÄģngĠpÇĲnĠ":7822,"ĠbÃºĠdÃło":7823,"yÇĲĠsÃ¨ĠliÃ¨":7824,"duÅįĠniÃ¡nĠ":7825,"84":7826,"wÃ©iĠzhÇĲĠ":7827,"duÃ¬ĠzhÇİngĠ":7828,"shÃłngĠwÇĶĠ":7829,"ĠjÃ¬nĠbÃ¹":7830,"ĠdÄģnĠnÃŃ":7831,"xuÄģnĠbÃ¹Ġ":7832,"jÇĶĠxÃŃngĠde":7833,"xÅ«Ġ":7834,"ĠyÄ«ĠzhÃ¬Ġ":7835,"ĠzhÃŃĠzhÃ¨ngĠ":7836,"xuÃ©ĠhuÃ¬Ġ":7837,"ĠmÃ¬ngĠmÃŃngĠwÃ¨iĠ":7838,"ĠchÃºĠcÇĲĠzhÄ«ĠwÃłiĠ":7839,"ĠzhÃŃĠlÃ¬Ġ":7840,"hÄĽnĠkuÃłiĠ":7841,"xÅ«nĠzhÄģngĠ":7842,"pÄĵnĠ":7843,"ĠrÃ©nĠshÃ¹":7844,"yÃºĠshÃ¬Ġ":7845,"ĠyÃ¬ĠrÃ¬Ġ":7846,"ĠdÃłnĠyÄĽ":7847,"mÄĽiĠgÃ¨":7848,"chÃ¡ngĠjiÃłnĠde":7849,"Ġ4ĠgÃ¨":7850,"ĠkÇİĠlÄģ":7851,"ĠxÃ¬ĠtÇĴngĠde":7852,"ĠlÃ¬ĠchÇİngĠ":7853,"shÃŃĠzhÄĵnĠ":7854,"ĠyÄ«ĠqiÃ¨":7855,"yÇĴuĠshÃŃ":7856,"ĠzÃ¬ĠwÇĴ":7857,"yÇĲĠyÇĴu":7858,"ĠhuÃ²ĠyÃ¹nĠ":7859,"wÃ©nĠzÃ¬Ġ":7860,"bÇİoĠzhÃłngĠ":7861,"ĠÃłoĠsÄ«":7862,"ĠhÃłnĠzÃºĠ":7863,"liÃ¹ĠniÃ¡nĠ":7864,"yuÄģnĠ":7865,"ĠyÄ«nĠqÃŃ":7866,"zhÃŃĠdÃło":7867,"ĠyÄ«ngĠcÃ¹nĠ":7868,"ĠrÃºĠxiÃłĠ":7869,"ĠshÃ¬ĠyÄ«ĠbÃ¹":7870,"ĠshÅįuĠcÃ¡ngĠ":7871,"ĠjÃ¬ngĠnÃ¨iĠgÃ²ngĠyÇĴu":7872,"ĠĠĠlÄģ":7873,"deĠyÃŃ":7874,"jiÄģnĠrÃ¨nĠ":7875,"ĠshuÅįĠfÇİ":7876,"xiÃłoĠlÃ¬ĠyÃº":7877,"liÇİngĠrÃ©nĠ":7878,"ĠfÃ¹ĠzÃ©Ġ":7879,"ĠĠĠgÃ¨":7880,"ĠdeĠbÃ¹":7881,"hÃ²uĠzÃłiĠ":7882,"duÃ¬ĠshÇĴu":7883,"ĠjiÄĵĠtÃ¬Ġ":7884,"ĠzhuÄģnĠjiÄģ":7885,"zÇİoĠshÃłngĠ":7886,"dÃłĠliÃ¡nĠmÃ©ngĠ":7887,"ĠzuÃ¬ĠdÄ«":7888,"chÃ¡ngĠwÃ¹":7889,"chÄģoĠjÃŃ":7890,"ĠmiÇİnĠfÃ¨iĠ":7891,"zhÃłngĠÃłiĠ":7892,"ĠĠĠfor":7893,"neĠ":7894,"deĠlÇĲ":7895,"ĠwÃ¨iĠzÃłiĠ":7896,"ĠdÃłoĠdÃ©":7897,"ĠshÃ¨ĠqÅ«Ġ":7898,"ĠqÃºnĠdÇİoĠ":7899,"wÇĶĠhÃłnĠ":7900,"ĠshÃ¬ĠxÄ«ĠbÄģnĠyÃ¡":7901,"ĠfÃ¹ĠzÃ¡":7902,"ĠduÅįĠrÃ©nĠ":7903,"chÃ¡ngĠwÄĽiĠ":7904,"ĠcÃ³ngĠcÇĲ":7905,"âĪ":7906,"ĠmÇİĠlÃ¡iĠ":7907,"Ġ65":7908,"Ġ1975ĠniÃ¡nĠ":7909,"ĠdeĠgÄģo":7910,"shÃłngĠzhÃ¨nĠ":7911,"ĠfÃºĠÄĽr":7912,"pÃŃngĠmÃŃnĠ":7913,"ĠwÃ¨iĠyÃºĠgÄģiĠshÄĽngĠ":7914,"ĠzÃºĠqÃºnĠ":7915,"xiÅ«ĠgÇİiĠ":7916,"ĠhÃ³u":7917,"ĠshÃ¬ĠyÃłnĠ":7918,"ĠtÅįngĠxÃ¬nĠ":7919,"wÇĶĠshÃŃ":7920,"wÃ¡ngĠguÃ³":7921,"wÃºĠÄĽr":7922,"elĠ":7923,"ĠĠĠgÄģo":7924,"ĠzhÇİiĠ":7925,"ĠdÃłĠqÅ«Ġ":7926,"xuÃ©ĠjiÄģĠ":7927,"ÄĽrĠde":7928,"ĠsÄ«ĠzhÃŃ":7929,"ĠyuÃ¡nĠxiÄģnĠ":7930,"zhÄ«ĠdÃło":7931,"ĠnÃłĠcuÃ¬Ġ":7932,"ĠbÃłoĠlÃ¬Ġ":7933,"yÇİnĠchÃłngĠhuÃ¬Ġ":7934,"zÃłiĠyÃº":7935,"zÃłiĠdÃ¬Ġ":7936,"ĠduÃ¬ĠshÇĴu":7937,"ĠchÅ«ĠqÄ«":7938,"ĠxiÃ©Ġ":7939,"Ġ1959ĠniÃ¡nĠ":7940,"jiÃłngĠlÇĲngĠ":7941,"YouTube":7942,"nÄ«Ġ":7943,"sÄĵngĠ":7944,"ĠyuÄģnĠ":7945,"ĠzÃłiĠshÃ¬Ġ":7946,"ĠzÃłiĠtÄģĠde":7947,"ĠwÃ©iĠhÃ¹":7948,"ĠsuÇĴĠchÃ¹ĠdeĠhÇİiĠbÃ¡ĠwÃ¨iĠgÄģoĠyÃºĠhÇİiĠpÃŃngĠmiÃłnĠ":7949,"ĠtÃ¨ĠlÇĲ":7950,"ĠfÃºĠzhÅįu":7951,"jÃ¹Ġde":7952,"cÄģnĠyÃ¹Ġ":7953,"ĠxiÇİnĠzhÃ¹":7954,"ĠwÇİnĠshÃłngĠ":7955,"yÇĴuĠrÃ©nĠ":7956,"ĠjÄ«ĠjÄ«nĠ":7957,"ĠdÄģngĠrÃ¬Ġ":7958,"ĠqiÃ¨ĠÄĽr":7959,"Ġ31":7960,"yÃŃngĠyÃ¹nĠ":7961,"ĠzhuÇİnĠhuÃłnĠ":7962,"ĠdÇĲĠkÃłngĠ":7963,"ĠshÃŃĠyÃłnĠshÃ¬Ġ":7964,"ĠĠĠqÃŃĠzhÅįngĠ":7965,"jÃ¹ĠjÃŃ":7966,"jÃ¹ĠqÃŃngĠ":7967,"Ġ46":7968,"ĠshÃ©nĠhuÃł":7969,"ĠqÇĲĠdÃ²ngĠ":7970,"mÇĶĠqÄ«nĠ":7971,"ĠwÄĵnĠdÃ¹":7972,"ĠyÇĴuĠxiÃłnĠgÅįngĠsÄ«Ġ":7973,"ĠshuÃ²ĠshÃ¬Ġ":7974,"liÇİo":7975,"hÃłnĠzÃ¬Ġ":7976,"ĠlÃ¬ĠbÃ¹":7977,"zÃłiĠqÃŃ":7978,"bÃ¨iĠshÃ¬ĠwÃ¨iĠ":7979,"ĠÄģĠlÄģ":7980,"ĠdÄģngĠdÃ¬Ġde":7981,"cÄģnĠjiÄģĠle":7982,"ĠqÃº":7983,"ĠdeĠfÄģĠzhÇİnĠ":7984,"zhÅįngĠqÄ«":7985,"jÃŃĠshÃ¬Ġ":7986,"Ġ48":7987,"ĠfÃ¡ngĠwÅ«":7988,"jiÇİnĠcÃ¨":7989,"io":7990,"ru":7991,"ĠdeĠÄģ":7992,"ĠzhÃ²ngĠliÃłngĠ":7993,"ĠyÇĲnĠyÃ²ngĠ":7994,"ĠhuÇĴĠjiÃłnĠ":7995,"sÄģ":7996,"ĠqÃŃĠshÃŃ":7997,"dÃłĠlÃ¹":7998,"xiÃłnĠfÇİ":7999,"ĠtÃŃĠgÅįngĠle":8000,"ĠbÇĲĠlÃ¬ĠshÃŃ":8001,"kÃ©":8002,"kuÄģngĠ":8003,"ĠxiÃłĠdeĠyÃŃĠgÃ¨":8004,"jiÄģoĠliÃº":8005,"ĠzhÅįngĠshÃ¬ĠyÇİnĠ":8006,"ĠshÃŃĠyÃ³u":8007,"yuÃ¡nĠzÃ¬Ġ":8008,"ĠsÄ«ĠlÃ¬Ġ":8009,"ĠrÃ¨nĠzhÅįngĠgÃ²ngĠ":8010,"ĠnÃŃĠkÃ¨":8011,"zÇĶĠchÃ©ngĠde":8012,"tÃ¨ĠshÅ«":8013,"gÃ¨ngĠjiÄģ":8014,"huÄģĠyuÃ¡nĠ":8015,"shÇİoĠshÃ¹":8016,"bÃ¹ĠdeĠcÅ«nĠzhuÄģngĠ":8017,"ĠkÄĵĠhÃ©ngĠxÄ«ngĠ":8018,"ĠluÃ²ĠfÃ¡ĠkÃ¨":8019,"deĠdiÃłnĠyÇĲngĠ":8020,"gÅįngĠjÄ«Ġ":8021,"yÇĶĠqÃŃĠtÄģ":8022,"ĠkÄĽĠ":8023,"ĠwÃ©nĠyÃ¬Ġ":8024,"ĠbiÄģnĠyuÃ¡nĠ":8025,"ĠhÃ¡iĠziĠ":8026,"ĠguÃ³ĠmÃŃnĠzhÃ¨ngĠfÇĶ":8027,"ĠdeĠyÃ¡nĠ":8028,"hÃ¡ngĠxiÃłnĠ":8029,"ĠmÄĽiĠtiÄģnĠ":8030,"qiÄĵ":8031,"ĠwÄĵiĠxiÃ©":8032,"jÇĲngĠfÄģngĠ":8033,"Ġ1942ĠniÃ¡nĠ":8034,"ĠmÃ¹ĠqiÃ¡nĠshÃłngĠwÃ¨iĠ":8035,"ĠhuÇİngĠ":8036,"ĠfÄģĠbÃ¹Ġ":8037,"dÅįngĠxiÃłnĠ":8038,"tÃ¡iĠbÃ¬Ġ":8039,"ĠrÃºĠcÇĲ":8040,"xiÇİoĠzÇĶ":8041,"âĦ":8042,"zhÃ¬ĠshÇİo":8043,"ĠchÃ©ngĠxÃ¹":8044,"jÄ«ĠjÄ«nĠhuÃ¬Ġ":8045,"ĠsÄģnĠfÄĵnĠ":8046,"ĠdÃŃĠrÃ©nĠ":8047,"âĨĴ":8048,"ĠlÃłnĠ":8049,"ĠrÄĽnĠ":8050,"ĠĠĠinĠĠĠ":8051,"ĠchÅ«ĠxÃŃ":8052,"yÇĲĠbÃ¨iĠ":8053,"ĠjÅ«nĠde":8054,"yÄĽĠzÃłiĠ":8055,"ĠgÇĶĠlÄģ":8056,"ĠbÃłoĠdÇİoĠ":8057,"Ġ1936ĠniÃ¡nĠ":8058,"ĠyÅįuĠxiÃ¹":8059,"tÃ¡oĠtÃłiĠ":8060,"ĠcÅįngĠ":8061,"yÃ¬ĠyÃ¬Ġ":8062,"ĠhÃ²uĠzÃłiĠ":8063,"ĠquÃ¡nĠshÃ¬Ġ":8064,"ĠgÇĶĠdiÇİnĠ":8065,"yÃ¡ngĠshÃ¬Ġ":8066,"ĠlÇĲngĠxiÄģnĠ":8067,"ĠchuÃłngĠxÄ«nĠ":8068,"ĠrÃ³ngĠyÃ¹":8069,"gÃ²uĠzÃłoĠ":8070,"Ġ178":8071,"ros":8072,"ĠĠĠduÃ¬ĠyÃº":8073,"ĠqÇĲĠyÃ²ngĠ":8074,"yÇĶĠde":8075,"ĠkÃ¨ĠlÃŃnĠ":8076,"ĠtiÄģnĠwÃ©nĠxuÃ©":8077,"ĠÃłiĠdÃ©":8078,"Ã©ĠwÃ¨iĠ":8079,"lÇĲĠgÅįngĠ":8080,"ĠshÃ¬ĠhuÃ¬Ġ":8081,"ĠshÃ¬ĠgÃ¨":8082,"ĠrÃ¨nĠzhÃŃ":8083,"ĠjiÄģngĠzÃłiĠ":8084,"ĠzÇĴngĠdÅ«":8085,"ĠSh":8086,"ĠtÄģĠchÃ©ngĠwÃ©iĠ":8087,"ĠwÇĶĠgÃ¨":8088,"ĠdÇİoĠshÃ¬Ġ":8089,"ĠchÇĶĠlÇĲĠ":8090,"ĠleĠtÄģĠde":8091,"ĠkÃ¨ĠxÄ«":8092,"ĠyÃ²ngĠde":8093,"chÃ©ngĠlÃ¬Ġde":8094,"cuÃ²ĠshÄ«Ġ":8095,"kÇİĠluÃ³ĠlÃ¡iĠnÃł":8096,"cĠ":8097,"wÃ¨iĠxÄ«ngĠ":8098,"gÅįngĠmÃŃnĠ":8099,"ĠjÄ«ĠchÄĵ":8100,"ĠshÃłngĠshÄĵngĠ":8101,"ÇĲĠyÃŃ":8102,"ĠgÇİiĠmÃŃngĠwÃ¨iĠ":8103,"jiÇĶĠniÃ¡nĠ":8104,"dÃ¬ĠÃ¨rĠcÃ¬Ġ":8105,"ĠduÃ³Ġde":8106,"ĠzhÇĶĠdÇİ":8107,"duÅįĠzhÇĴngĠ":8108,"ĠyÇİnĠshÄĵngĠ":8109,"ĠpÇĶĠluÃ³":8110,"huÃŃĠyÃ¬ngĠ":8111,"ĠguÃ¬ĠzhÅįu":8112,"zhÇİoĠdÃło":8113,"94":8114,"WĠ":8115,"pÃłoĠ":8116,"Ã©ĠguÃ³":8117,"ĠkÄĵĠxuÃ©ĠjiÄģ":8118,"ĠnÃ¨iĠdÃ¬Ġ":8119,"Ġãĥ¼":8120,"ĠjiÄģngĠsÅ«ĠshÄĽngĠ":8121,"50ĠniÃ¡nĠ":8122,"ĠfÃ¹ĠnÇļ":8123,"ĠchÃ¡ngĠwÄĽiĠhuÃ¬Ġ":8124,"lÇĲngĠxiÃ¹":8125,"ĠÃłoĠÄĽr":8126,"tiÃ¡oĠlÃ¬Ġ":8127,"tiÃ¡oĠyuÄĵĠ":8128,"ĠgÅįngĠlÇĲĠde":8129,"IP":8130,"ĠĠĠhuÃ¡ngĠ":8131,"shÃ¨ĠqÅ«Ġ":8132,"zhÇĶĠchÇİngĠ":8133,"ĠluÃ²ĠshÄģnĠjÄ«":8134,"ĠtÃºĠxiÃłngĠ":8135,"Ġ9Ġ":8136,"ĠxÃŃngĠzhÃ¨ngĠzhÃ¨nĠqÅ«Ġ":8137,"pÇĴ":8138,"ĠĠĠlÃŃnĠ":8139,"ĠfÄģĠchÅ«":8140,"ĠchÄĵĠduÃ¬Ġ":8141,"wÄĽiĠfÃ¹ĠshÅ«ĠjÃ¬Ġ":8142,"ĠbÅįĠlÃ¬Ġ":8143,"ĠxÃŃĠjÄ«Ġ":8144,"Ġ1966ĠniÃ¡nĠ":8145,"kÄĽĠnÃ©ngĠshÃ¬Ġ":8146,"ĠlÃ¡ngĠzhÅįngĠ":8147,"ĠhÄģĠÄĽrĠbÄ«nĠ":8148,"ĠyuÃ¨ĠqiÃº":8149,"dÃłĠlÃ³uĠ":8150,"ĠjiÄģnĠchÃŃ":8151,"ĠzhÃ¹Ġde":8152,"zhÅįuĠfÇĶ":8153,"ĠtÃłiĠpÃŃngĠ":8154,"ĠxuÄģnĠbÃ¹Ġ":8155,"shÃ¬ĠfÃłngĠ":8156,"wÃ¨iĠlÃ¡iĠ":8157,"ĠyÃ¬ĠyÃº":8158,"ÄĽrĠmÃłnĠ":8159,"ĠhuÃ¬ĠyuÃ¡nĠ":8160,"ĠmÇİĠdÄ«ngĠ":8161,"ĠjiÃ©ĠlÃ¹nĠ":8162,"gÄģoĠdÃ¹":8163,"ĠchÅįngĠmÇİnĠ":8164,"gÃ²ngĠchÇİnĠdÇİngĠ":8165,"3ĠgÃ¨":8166,"ĠqiÃło":8167,"ĠshÃ¬ĠyÇĶ":8168,"ĠzÃłiĠbÃ¹":8169,"ĠshÃŃĠpÇĲnĠ":8170,"ĠgÄģiĠguÃ³":8171,"jiÃ©Ġde":8172,"jiÃ¨ĠquÃ¡nĠguÃ³":8173,"dÇĴngĠshÃ¬Ġ":8174,"ĠÃ©rĠgÄģiĠdÃ¬ĠdeĠpÃŃngĠjÅ«nĠhÇİiĠbÃ¡ĠgÄģoĠdÃ¹ĠwÃ¨iĠ":8175,"ĠĠĠa":8176,"ĠdÃ©ĠyÇĶĠ":8177,"fÃ¹ĠxÄ«ngĠ":8178,"shÄģnĠxiÃłnĠ":8179,"xuÇİnĠqÅ«":8180,"kÃ²u":8181,"ĠbÇĶĠ":8182,"yÄ«ĠxuÃ©":8183,"ĠxÄ«ĠsÄ«":8184,"âĢ§":8185,"ĠfÃ¨iĠyÃ²ngĠ":8186,"ĠbÇİoĠhÃ¹Ġ":8187,"ĠshÄĽnĠpÃłnĠ":8188,"lÃ¬ĠfÇİĠhuÃ¬Ġ":8189,"ĠwÃ¨iĠhÃ©":8190,"ĠyÇĲĠbÄĽiĠ":8191,"jÄ«ĠbÇİiĠkÄĵ":8192,"yuÃ¨ĠduÃ¬Ġ":8193,"ĠgÄĵĠcÃŃ":8194,"Ġ1935ĠniÃ¡nĠ":8195,"ĠzÃłiĠ194":8196,"eli":8197,"ĠĠĠluÃ³":8198,"ĠjiÃłnĠshÃ¨Ġ":8199,"ĠzhÃłnĠliÃ¨":8200,"ĠwÃ©nĠwÃ¹":8201,"Ġ2ĠgÃ¨":8202,"2003ĠniÃ¡nĠ":8203,"Ġ1953ĠniÃ¡nĠ":8204,"ĠxiÃłnĠshÃłngĠ":8205,"jiÃłoĠshÃ¬Ġ":8206,"ĠwÃłiĠguÄģnĠ":8207,"ĠyÇĲnĠrÃ¹":8208,"ĠwÅ«ĠrÇİnĠ":8209,"ĠpÄģiĠshÃ¨Ġ":8210,"gÅ«Ġ":8211,"rÄĽnĠ":8212,"ĠnÃ¨iĠzhÃłnĠ":8213,"ĠmÃ¡nĠ":8214,"ĠyÃºĠlÃ¨iĠ":8215,"ĠsÄ«ĠshÄĽngĠ":8216,"ĠduÃ¬ĠfÄģngĠ":8217,"shÃ¨ĠshÄ«":8218,"ĠyÃ¡nĠrÃ©nĠ":8219,"ĠxiÃłoĠguÇĴĠ":8220,"ĠtÃŃĠyÃ¬Ġ":8221,"xiÇİoĠshÃŃ":8222,"ĠĠĠ2004ĠniÃ¡nĠ":8223,"ĠgÃłoĠsÃ¹":8224,"ass":8225,"ĠgÄģiĠdÃ¬Ġde":8226,"ĠsÃºĠchÄĵngĠ":8227,".&":8228,"ĠshÄĵngĠchÃ©ngĠ":8229,"ĠzhÃ¨ngĠmiÃłnĠ":8230,"ĠdÃłiĠde":8231,"kÄģiĠzhÇİnĠ":8232,"yÄĽĠnÃł":8233,"gÇİiĠzhÃ¬ĠwÃ¨iĠ":8234,"yÅįuĠ":8235,"kÇİoĠ":8236,"ĠĠĠwÃ¨iĠle":8237,"ĠmiÃ¨Ġ":8238,"ĠdeĠxiÇİo":8239,"chÃ©ngĠrÃ©nĠ":8240,"ĠpÃŃngĠyuÃ¡nĠ":8241,"ĠkuÃ²ĠzhÄģngĠ":8242,"tiÄģnĠhuÃ¡ngĠ":8243,"ĠjiÄģoĠhuÃłnĠ":8244,"ĠpÃłiĠchÅ«":8245,"ĠĠĠPro":8246,"hÃ©ĠrÃ©nĠkÇĴu":8247,"ĠdÃłĠshÇĲĠguÇİnĠ":8248,"ĠkÄĵĠdeĠqÃŃĠzhÅįngĠyÄ«ĠzhÇĴngĠ":8249,"ĠluÃ²ĠfÅ«":8250,"fÄĵiĠlÇľĠbÄ«nĠ":8251,"lÃ¹nĠwÃ©nĠ":8252,"ĠdÄĵngĠchÃ¡ngĠ":8253,"ĠbÃºĠyÃło":8254,"97":8255,"bÄ«":8256,"ct":8257,"ĠgÅįngĠjÄ«Ġ":8258,"jÃŃĠxÃŃngĠzhÃ¨ngĠ":8259,"ĠbÃ¬ngĠdÃº":8260,"fÄģngĠfÇİĠ":8261,"mÃŃngĠxÄ«ngĠ":8262,"ĠqiÄĵ":8263,"bÃłoĠgÃłoĠ":8264,"ĠlÃ³ngĠshÄĽngĠ":8265,"usĠĠĠ":8266,"ĠpÃŃngĠhÃ©ngĠ":8267,"fÇİĠtÃŃngĠ":8268,"ĠĠĠwÃ¡ngĠ":8269,"hÃ¹ĠbÃ¹":8270,"hÇİiĠwÃłiĠ":8271,"ĠzÃ©ĠÄĽrĠshÄĽngĠ":8272,"ĠdÄģnĠdÃº":8273,"ĠqÄ«ngĠshÃłoĠniÃ¡nĠ":8274,"ĠtÃłiĠziĠ":8275,"ĠtÃłiĠlÄĵiĠ":8276,"ĠshÃ¨ngĠjÄ«ngĠ":8277,"luÇİnĠ":8278,"ĠqiÇİo":8279,"ĠlÃ¬ĠkÃ¨":8280,"ĠlÇĲĠchÃ©ngĠ":8281,"Ġ18Ġ":8282,"ĠshÅ«ĠzhÅįngĠ":8283,"ĠbÇİoĠzhÃłngĠ":8284,"chÃ©ngĠwÃ©iĠle":8285,"mÃ¡iĠ":8286,"hÃ©ĠsuÄģnĠ":8287,"deĠjiÄģ":8288,"ĠdiÃłnĠhuÃł":8289,"oft":8290,"shÄģĠhÃłiĠ":8291,"ĠĠĠkÇİ":8292,"ĠĠĠzuÃ²ĠwÃ©iĠ":8293,"fÄģngĠmÇĲĠ":8294,"ĠlÄģĠjÄ«":8295,"ĠlÃ¡nĠqiÃº":8296,"19Ġ":8297,"ĠshÄģngĠrÃ©nĠ":8298,"qÃŃngĠbÃło":8299,"ĠxÅ«nĠzhÄģngĠ":8300,"ire":8301,"qÇĲĠyÃ¨Ġ":8302,"ĠzÃłiĠnÃ¨iĠde":8303,"Ġ2000":8304,"ĠqiÃ¨Ġ":8305,"ĠfÄĵiĠfÇİ":8306,"ĠxuÇİnĠshÇĴuĠ":8307,"ĠnÃŃĠsÄ«":8308,"gÅįngĠsÄ«Ġde":8309,"MA":8310,"ud":8311,"ĠdiÄĵ":8312,"shÃ¬ĠyÇİnĠ":8313,"ĠchÃ©ngĠzhÇİngĠ":8314,"gÅįngĠyÃ¬ngĠ":8315,"ĠmÃŃngĠrÃ©nĠ":8316,"ĠfÃ¹ĠbÃ¹ĠzhÇİngĠ":8317,"shÃ²uĠquÃ¡nĠ":8318,"ĠzÃºĠxiÃ©":8319,"ĠzhÃłnĠdÃ²uĠ":8320,"HD":8321,"yÃ¬ĠjiÃłnĠ":8322,"dÃłĠzhÃ¬Ġ":8323,"dÃ²ngĠwÃ¹Ġ":8324,"Ġ37":8325,"ĠkÃłoĠjÃ¬nĠ":8326,"ĠĠĠwÇĶ":8327,"ĠnÇĲĠ":8328,"bÄĽiĠshÃ¬Ġ":8329,"ĠhuÄģĠ":8330,"ĠzhÃ¬ĠzuÃ²ĠrÃ©nĠ":8331,"ĠĠĠzhÄģngĠ":8332,"bÃ¹ĠluÃ²":8333,"ĠyÃ¬ĠwÃłiĠ":8334,"ĠsÄģnĠrÃ©nĠ":8335,"ĠtÅįngĠwÇİngĠ":8336,"Ġ58":8337,"qÄ«ngĠchÃ¡o":8338,"ĠzhÇĶĠyÃłoĠde":8339,"ĠfÇİĠguÃ³Ġ":8340,"fÄģĠshÄĵngĠzÃłiĠ":8341,"xuÇİnĠjÇĶĠzhÅįngĠ":8342,"iz":8343,"ile":8344,"ĠzhÃ²uĠ":8345,"hÃ¨ĠÄĽr":8346,"ĠdÃłĠgÅįngĠ":8347,"yÃ³uĠrÃ©nĠgÅįngĠyÇĲnĠzhÇĴngĠzÄģiĠpÃ©iĠ":8348,"ĠlÃºĠ":8349,"ĠbÃ¹ĠlÇİngĠ":8350,"ĠdÃłĠqiÃ¡o":8351,"yÇĶĠliÃłngĠ":8352,"ĠkÄĽĠjiÃłnĠ":8353,"nÃ¨iĠgÃ©":8354,"tÅįngĠxÃ¹nĠ":8355,"ĠzhÄģnĠmÇĶĠsÄ«Ġ":8356,"ĠmÃ¹ĠqiÃ¡nĠshÃłngĠwÃ¨iĠyÃ³uĠrÃ©nĠgÅįngĠyÇĲnĠzhÇĴngĠzÄģiĠpÃ©iĠ":8357,"IT":8358,"ÃłnĠchÃ¡":8359,"ĠtÃ¡iĠzhÅįngĠ":8360,"xiÇİoĠde":8361,"xÃ¬nĠyÇİngĠ":8362,"Ġ1943ĠniÃ¡nĠ":8363,"zÄĵngĠzhÇİngĠ":8364,"ĠjiÇİoĠdÃ¹":8365,"ĠchÅįngĠtÅ«":8366,"oog":8367,"ĠchÅ«ĠrÃ¹ĠkÇĴuĠ":8368,"ĠbÃ¹ĠzÃº":8369,"dÃłĠduÅįĠshÃ¹":8370,"ĠjiÄģngĠtÄģ":8371,"ĠjiÃłnĠlÃ¬Ġle":8372,"ĠzhÃŃĠyÃ¨ĠshÄĵngĠyÃ¡Ġ":8373,"ĠtÃł":8374,"wÃ¨iĠde":8375,"ĠhuÃ²ĠbÃ¬Ġ":8376,"ĠkÄĽĠzÃłiĠ":8377,"ĠliÇİngĠtiÃ¡o":8378,"shuÇĲĠliÃłngĠ":8379,"rÃºĠguÇĴ":8380,"hÃ¹nĠluÃłnĠ":8381,"qÅ«ĠnÃ¨iĠ":8382,"rÃ¨nĠwÃ¨iĠ":8383,"hÇİiĠyÃ¡ngĠ":8384,"ĠĠĠdÃ¬ĠyÄ«":8385,"ĠmÃłiĠkÃ¨Ġ":8386,"ĠmÃ¡oĠ":8387,"sÄģiĠÄĽr":8388,"ES":8389,"zhuÃ¬Ġ":8390,"ĠdÃłĠjiÇİngĠ":8391,"ĠpÃŃngĠmiÃłnĠ":8392,"ann":8393,"bÃłnĠyÇİnĠ":8394,"ĠtÃłnĠxiÇİnĠ":8395,"ĠhuÃłĠhÃ©ĠwÃ¹Ġ":8396,"ĠzÃ©iĠ":8397,"ĠsÄ«ĠtÃº":8398,"jiÄģĠrÃ¹Ġ":8399,"jÄ«ĠyÄ«nĠ":8400,"nÃ¨iĠzhÃłnĠ":8401,"ĠsÃ¬ĠhÅ«":8402,"ĠgÃ²ngĠhÃ©ĠdÇİngĠ":8403,"ĠyÇĲngĠxiÃłngĠ":8404,"ĠwÇĴĠde":8405,"ĠhÇİoĠpÃŃngĠ":8406,"illi":8407,"ĠyuÃ¨ĠlÃ¡iĠyuÃ¨":8408,"shÃŃĠkÄĵngĠ":8409,"dÃ¬ĠzÃłiĠ":8410,"ĠdÃłĠxiÇİo":8411,"yÄ«ĠliÃ¡o":8412,"ĠjÃ¬nĠÃ©r":8413,"ĠpÃŃngĠdÄĽngĠ":8414,"yÃ²ngĠhÃ¹":8415,"ĠbÄĽnĠxiÃłnĠ":8416,"ĠzhÇİngĠde":8417,"jiÃłoĠyÃº":8418,"ĠdÃłĠxuÃ©Ġde":8419,"luÃ³Ġ":8420,"ĠfÇĶĠzhÃ¹":8421,"ĠtÃ¡oĠtÃłiĠ":8422,"ĠyÇĲĠcÇĲ":8423,"ĠzhÇİngĠdÃ¡":8424,"ĠzhÃ²ngĠshÃ¬Ġ":8425,"jÄ«ĠhÃ©":8426,"wÃ¡nĠzhÄĽngĠ":8427,"ĠzÃłnĠtÃŃngĠ":8428,"ĠwÃłiĠjiÄģoĠbÃ¹":8429,"iaĠ":8430,"hÃ©ĠbÄĽiĠ":8431,"zhÅįngĠjiÃłngĠ":8432,"Ġ19Ġ":8433,"qÅ«ĠjiÄģnĠ":8434,"chÅ«ĠkÇĴu":8435,"shÃ¹ĠxuÃ©":8436,"amp":8437,"ĠshuÃ²ĠshÃ¬ĠxuÃ©ĠwÃ¨iĠ":8438,"ĠzhÃłnĠde":8439,"zhÇĶĠbÃłnĠ":8440,"ĠdÅįngĠhÇİiĠ":8441,"mÃ²ĠsÄ«ĠkÄĵ":8442,"qÄ«nĠzÃ¬Ġ":8443,"piÃłoĠfÃ¡ngĠ":8444,"fÃłnĠwÃ©iĠnÃ¨iĠ":8445,"ĠwÃ¨iĠzhÅįngĠguÃ³":8446,"zhÃ¬ĠliÃłngĠ":8447,"ĠzhÄ«ĠxiÃłĠ":8448,"ĠbÄģĠÄĽr":8449,"ĠtÅįngĠyÃ²ngĠ":8450,"org":8451,"ĠwÄĵiĠxiÃ©Ġ":8452,"cÄģnĠjiÄģĠ":8453,"Ġ1974ĠniÃ¡nĠ":8454,"dÃłnĠshuÇĲ":8455,"ĠzhÇİoĠdÃło":8456,"zÃ²uĠ":8457,"shÃŃĠxÃŃngĠ":8458,"ĠjÃ¹ĠbÃ¨iĠ":8459,"deĠÄģ":8460,"xiÃłĠlÃ¡iĠ":8461,"xiÃłĠwÇĶ":8462,"ĠshÄ«ĠfÃłnĠ":8463,"sÃ¬ĠgÃ¨":8464,"ĠchÃ³ngĠzhÄĵnĠ":8465,"ĠlÇİoĠde":8466,"hÄģĠÄĽr":8467,"ĠzhÃłĠdÃłnĠ":8468,"tÇİnĠdÄ«ngĠ":8469,"odiceĠ":8470,"shÃ¬ĠrÃ©nĠ":8471,"ĠpÇĴ":8472,"ĠgÄģoĠdÃ¡":8473,"ĠchÄĵngĠhÃłoĠ":8474,"ĠdÅįngĠnÃ¡nĠbÃ¹":8475,"ade":8476,"ĠyÃ¬ĠzÃłiĠ":8477,"huÃ¬ĠyuÃ¡nĠ":8478,"ĠjiÃłoĠshÄ«":8479,"ĠshÇĴuĠxiÃłngĠ":8480,"yÃŃĠzhÇĲ":8481,"ĠyÄ«ngĠjÅ«nĠ":8482,"ĠĠĠSh":8483,"Ġà¸":8484,"âĦĥ":8485,"mÄģo":8486,"ĠĠĠÃłiĠ":8487,"ĠzhÃ¨ĠlÇĲ":8488,"huÃ¬ĠshÃłngĠ":8489,"ĠduÃ¬ĠqÃŃ":8490,"jÄ«ĠhuÃ¬Ġ":8491,"guÄģnĠcÃ¨":8492,"ĠdÃ¬ngĠjÅ«":8493,"ĠyuÄĵĠsÃ¨":8494,"ĠzhuÄģnĠyÃ¨Ġ":8495,"shÄģĠbÃ¡iĠ":8496,"ect":8497,"fÃ¹ĠjÃ¬nĠde":8498,"ĠfÇİĠlÃ¡nĠxÄ«":8499,"deĠyÃ¡nĠjiÅ«":8500,"deĠgÃ¹ĠshÃ¬Ġ":8501,"jÄ«ĠqÃ¬Ġ":8502,"ĠjiÄģnĠchÃ¡":8503,"ord":8504,"ĠchÃŃĠyÇĴu":8505,"liÇİngĠcÃ¬Ġ":8506,"pÃ¨iĠhÃ©":8507,"laySt":8508,"ĠzheĠ":8509,"ĠrÃ©nĠquÃ¡nĠ":8510,"ĠyÄ«ĠrÃ¡nĠ":8511,"dÃ¬ĠbÄģ":8512,"qiÄģnĠdÃ¬ngĠ":8513,"ĠpÃ¡iĠhÃ¡ngĠbÇİngĠ":8514,"ĠxÃºnĠhuÃ¡nĠ":8515,"ĠĠĠgÃ¨ĠrÃ©nĠshÄĵngĠhuÃ³Ġ":8516,"mÃ¡nĠ":8517,"deĠxÄ«":8518,"ĠyÄ«nĠsÃ¹":8519,"xÄ«nĠlÇĲ":8520,"ĠkÄģiĠtÅįngĠ":8521,"ĠshÄģĠsÇĲ":8522,"ĠjiÇİĠ":8523,"niÃło":8524,"nuÃ³ĠwÄĵiĠ":8525,"ĠdeĠhÃ²u":8526,"ĠshÃ¬ĠyÄ«nĠwÃ¨iĠ":8527,"ĠbÃ¬ngĠyÇĴu":8528,"ĠguÄģnĠjiÃłnĠ":8529,"xiÃłoĠlÃ¬Ġ":8530,"yÄģĠlÃ¬Ġ":8531,"ĠtuÃ¬ĠchÅ«":8532,"ĠyuÃ¡nĠyÄ«nĠshÃ¬Ġ":8533,"kÃ¹nĠnÃ¡nĠ":8534,"ĠlÃ¬ĠtÃ¨":8535,"ĠfÄĵnĠxÄ«Ġ":8536,"xiÄģngĠhÃ¹":8537,"ĠhÇİiĠnÃ¡nĠ":8538,"ĠtiÄģnĠhuÃ¡ngĠ":8539,"gÇİngĠyuÃ¡nĠ":8540,"ĠdÇİoĠyÇĶĠ":8541,"Ġ163":8542,"dÄ«ĠqÃ¬Ġ":8543,"ĠĠĠzhÃ¹":8544,"ĠzÃłiĠyÇĶ":8545,"ĠhÃ©ĠliÃº":8546,"ĠmÃŃnĠjÃ¬nĠdÇİngĠ":8547,"jiÃłoĠqÅ«":8548,"ĠgÇİiĠchÄĵngĠ":8549,"ĠpÃłiĠde":8550,"Ġ16Ġ":8551,"ĠMĠ":8552,"rÃ©nĠkÇĴuĠpÇĶĠchÃ¡":8553,"ment":8554,"yÄĵ":8555,"Ġ13Ġ":8556,"ĠdÃłĠshÃł":8557,"huÃ²ĠbÃ¬Ġ":8558,"sÄģnĠjiÇİo":8559,"guÇİnĠxiÃ¡Ġ":8560,"ĠtÃ³ngĠniÃ¡nĠ12":8561,"ĠshÃ¬ĠfÃłngĠ":8562,"duÃ¬ĠkÃłngĠ":8563,"ĠxiÄģngĠfÇİnĠ":8564,"qÄ«ĠniÃ¡nĠ":8565,"ĠwÄĽiĠtuÅį":8566,"ĠshÅįuĠgÃ²u":8567,"ĠhuÇĴĠbÃłnĠ":8568,"ĠnuÃ²ĠmÃłnĠ":8569,"lÃ¬ngĠyÄ«":8570,"shÃłoĠjiÃłngĠ":8571,"ĠchÃ¨nĠ":8572,"ÇĴuĠ":8573,"ĠliÃ¡nĠzÇİiĠ":8574,"ĠfÃºĠzhuÄģngĠ":8575,"zhÃŃĠwÃ¨iĠ":8576,"dÄĽngĠdÄĽngĠ":8577,"bÃłnĠshÃ¬Ġ":8578,"Ġ152":8579,"shuÅįĠmÃŃngĠ":8580,"ĠRĠ":8581,"ĠniÇİoĠlÃ¨iĠ":8582,"10ĠniÃ¡nĠ":8583,"EC":8584,"ĠtÇĶĠ":8585,"Ã©rĠlÃ¡iĠ":8586,"xÃŃngĠshÄģnĠ":8587,"ĠshÃłngĠxiÃł":8588,"yÇĲĠwÃłiĠ":8589,"ĠliÃ¡nĠluÃ²":8590,"ĠbÄģĠnÃ¨nĠ":8591,"zÇĴngĠlÇĲ":8592,"Ġ1951ĠniÃ¡nĠ":8593,"83":8594,"ID":8595,"ĠshÃ¬ĠzhÅįngĠhuÃ¡ĠrÃ©nĠmÃŃnĠgÃ²ngĠhÃ©ĠguÃ³":8596,"ÅįuĠ":8597,"jiÃ©ĠkÃ¨":8598,"wÃłiĠguÃ³":8599,"ĠbiÄģnĠhÃło":8600,"ĠfÃ¡ngĠkÅįngĠ":8601,"ĠMar":8602,"tuÃ¬ĠyÃ¬Ġ":8603,"hÃ©ĠgÇĶ":8604,"zÃłiĠzhÅįngĠguÃ³":8605,"ĠtÄģĠwÃ¨iĠ":8606,"ĠqÃŃĠzÃłiĠ":8607,"zhÄ«ĠxiÃłĠ":8608,"ĠjÃ¬nĠpÃŃngĠ":8609,"ĠpÃŃngĠjiÃł":8610,"ĠyÇİnĠjiÇİngĠ":8611,"qiÃ¡ngĠliÃ¨":8612,"ĠxÃºnĠyÃ¡ngĠjiÃłnĠ":8613,"gÃ¹ĠdÃ¬ngĠ":8614,"ĠmiÃłnĠjÄ«ĠhÃ©ĠrÃ©nĠkÇĴu":8615,"hÄĽnĠduÅį":8616,"ĠyÇĶĠcÇĲĠtÃ³ngĠshÃŃĠ":8617,"tou":8618,"ĠyÃłĠmÃ¹":8619,"gÃ©ĠlÃŃ":8620,"ĠdÇĴngĠshÃ¬ĠzhÇİngĠ":8621,"Ġv":8622,"ÄģnĠrÃ©nĠ":8623,"shÃ¬ĠzhÃ¨ngĠ":8624,"ĠĠĠ2Ġ":8625,"ĠĠĠand":8626,"ĠzÇĶĠzhÇĲ":8627,"Ġ47":8628,"biÃłnĠhuÃłĠ":8629,"ĠxiÃłnĠzÃłiĠde":8630,"ĠshÃ¹nĠlÃ¬Ġ":8631,"ĠtÅ«ĠpÃ²":8632,"ĠbÃ¹ĠwÃ¨iĠ":8633,"yuÃ¡nĠxÃŃngĠ":8634,"fÄģĠhuÄ«":8635,"yÃłĠlÃ¬ĠshÄģnĠ":8636,"cÃ¨ĠliÃ¡ngĠ":8637,"ĠjiÇĶĠde":8638,"Ġ177":8639,"ĠyÄģĠ":8640,"ĠmÃłoĠxiÇİnĠ":8641,"ĠshÃ¬ĠyÃŃĠgÃ¨ĠwÃ¨iĠyÃºĠmÄĽiĠguÃ³":8642,"91":8643,"ĠzhuÄģ":8644,"zhÃ¬Ġ2":8645,"ĠwÃ©iĠfÇİnĠ":8646,"chÅ«ĠchÇİngĠ":8647,"ĠliÃ¡nĠrÃ¨nĠ":8648,"ĠtÃ¨ĠlÄĵiĠ":8649,"ĠjiÄĵĠdÃłoĠ":8650,"zÃ©ĠwÃ¨iĠ":8651,"ĠmÃłnĠdÃ¬ĠguÃ³":8652,"ĠbÄ«ngĠtuÃ¡nĠ":8653,"chuÃłngĠjiÃłnĠ":8654,"sÇİo":8655,"ĠmÃŃĠ":8656,"ĠlÇĲĠxiÇİngĠ":8657,"niÃ¡nĠde":8658,"shÄĵngĠtÃłiĠ":8659,"xuÃ©ĠxÃŃĠ":8660,"ĠshÃ²uĠquÃ¡nĠ":8661,"ĠyÃ²ngĠtÃºĠ":8662,"ĠdÇİoĠshÃłngĠ":8663,"jÃ¬ngĠzhÄĵngĠ":8664,"ĠbÄģnĠjiÇİngĠ":8665,"ĠhÄģĠlÃ¬Ġ":8666,"jiÇİnĠjiÃ¨Ġ":8667,"zhuÇİnĠxiÃłngĠ":8668,"Ġ1973ĠniÃ¡nĠ":8669,"ruÃ¬ĠdiÇİnĠ":8670,"suÃ¬ĠdÃło":8671,"ĠsÄģiĠÄĽrĠwÃ©iĠyÃł":8672,"Sh":8673,"ĠshÃ¬ĠzhÅįngĠxÄ«nĠ":8674,"zÃłiĠxiÄģngĠgÇİngĠ":8675,"ĠshÃŃĠjiÇĶ":8676,"ĠchÃ©ngĠrÃ©nĠ":8677,"ĠgÅįngĠzhÇĶ":8678,"ĠzhÃ¨ngĠshÃŃ":8679,"ĠzuÃ²ĠtÃ¡ngĠ":8680,"ĠmÇİĠsÄ«Ġ":8681,"ĠcÃ©ngĠyÃº":8682,"Ġ1971ĠniÃ¡nĠ":8683,"ĠjiÄĵĠwÃ¨iĠzhÄ«Ġ":8684,"ĠgÄģiĠdÃ¬ĠdeĠmiÃłnĠjÄ«ĠhÃ©ĠrÃ©nĠkÇĴu":8685,"ĠgÄģiĠdÃ¬ĠdeĠmiÃłnĠjÄ«ĠhÃ©ĠrÃ©nĠkÇĴuĠjiÄĵĠwÃ¨iĠzhÄ«Ġ":8686,"hÅ«Ġ":8687,"ĠĠĠjiÃłnĠ":8688,"yÇĴuĠjÄ«":8689,"jÄ«ngĠlÇĲĠ":8690,"ĠgÄģiĠzhuÄģngĠ":8691,"duÅįĠshÃ¹":8692,"ĠgÃ²ngĠjÃ¬Ġ":8693,"ĠwÃºĠzhÃ¨ngĠzhuÃłngĠgÇİnĠrÇİnĠzhÄĽ":8694,"ĠqiÄģnĠmÇĲĠ":8695,"dÃłiĠbiÇİoĠtuÃ¡nĠ":8696,"ĠĠĠAl":8697,"ĠtÃ¡iĠbÄĽiĠshÃ¬Ġ":8698,"cÇİnĠ":8699,"xiÃłnĠlÃ¹":8700,"ĠyÄĽĠchÄĵngĠ":8701,"ĠshÃ²uĠshÄģngĠ":8702,"ĠzhÃ²ngĠzhÃŃ":8703,"zÄ«ĠgÃ©":8704,"quÃ¨Ġde":8705,"zhuÄģnĠmÃ©nĠ":8706,"ĠjiÃłoĠyÃ¹ĠbÃ¹":8707,"deĠnÃ¡nĠ":8708,"jÃŃĠrÃ©nĠ":8709,"duÃ¬ĠzhÃ¨nĠ":8710,"ĠjÃ¹ĠchÇİngĠ":8711,"ĠqÅ«ĠnÃ¨iĠ":8712,"ĠzÇĶĠhÃ©Ġ":8713,"ĠtÃ³uĠxiÃ¡ngĠ":8714,"sÄ«ĠlÃ¬ngĠbÃ¹":8715,"kÃłoĠjÃ¬nĠ":8716,"ĠshÃŃĠbÃłoĠ":8717,"bÇĲĠdÃ©":8718,"ĠhÄģĠlÄģ":8719,"ĠsÅ«ĠwÃ©iĠÄģiĠ":8720,"tuÃ¡nĠduÃ¬Ġ":8721,"Ġ140":8722,"miÇİnĠdiÄģnĠ":8723,"ĠshÄĵngĠzhÇİngĠyÃºĠhÇİiĠbÃ¡":8724,"ĠĠĠshÃłngĠ":8725,"hÃ©ĠzhÅįngĠ":8726,"ĠgÅįngĠÄģnĠ":8727,"ĠbÃ¬ngĠbiÇİoĠshÃ¬Ġ":8728,"ĠzhÄ«ĠliÃºĠ":8729,"ĠyÄ«nĠc":8730,"shÃ¨ĠyÇĲngĠ":8731,"ĠzhÇĴngĠlÃ¨iĠ":8732,"ĠxÃ¬ngĠqÃ¹Ġ":8733,"ĠgÃ©ĠlÇĲ":8734,"ĠshÇĲĠshÃłngĠ":8735,"ĠmÃ³ĠfÇİ":8736,"ĠkÄĽĠnÃ©ngĠxÃ¬ngĠ":8737,"ĠshuÄģngĠdÇİ":8738,"ĠgÄģngĠqÃŃnĠ":8739,"ĠPĠ":8740,"jÃ¹ĠlÃ¨ĠbÃ¹":8741,"1ĠlÃ¬Ġ":8742,"ĠdeĠzuÃ¬Ġ":8743,"ĠyÇĲĠzhÄ«":8744,"ÇĲĠyÃ¹nĠ":8745,"qiÃ¨Ġ":8746,"ĠshÃ©nĠmÃ¬Ġ":8747,"mÄĽiĠguÃ³Ġ":8748,"shÄģngĠwÃ¡ngĠ":8749,"ĠsÄģiĠbÃłiĠ":8750,"ĠpÃ©iĠyÇİngĠ":8751,"tÇİnĠkÃ¨":8752,"nt":8753,"ĠyÄ«ĠjÃ¹":8754,"ĠdiÃłnĠqÃ¬Ġ":8755,"ĠhÇİiĠshÃłngĠ":8756,"ĠfÄģngĠbiÃłnĠ":8757,"ĠzÇĴngĠjiÄģnĠ":8758,"ĠrÃºĠtÃ³ngĠ":8759,"tÃ¨ĠdÃ¬ngĠ":8760,"Ġ1977ĠniÃ¡nĠ":8761,"shÅįuĠgÃ²u":8762,"zÇĲĠyÃ³uĠxÃ¬Ġ":8763,"rom":8764,"ĠgÄĽnĠ":8765,"dÃłĠduÅį":8766,"Ã¨rĠjÃŃ":8767,"wÃ©nĠmÃŃngĠ":8768,"ĠtiÄģnĠqÃ¬Ġ":8769,"ĠbÄģnĠcÃ¬Ġ":8770,"ĠxiÄģoĠfÃ¡ngĠ":8771,"lÄģĠdÄ«ngĠ":8772,"pÃºĠtÃ¡oĠyÃ¡":8773,"chÃ©ngĠbÄĽnĠ":8774,"ĠzhÄ«ĠzhÃłnĠ":8775,"ĠjiÄģnĠdÅ«":8776,"yÃŃĠdÃ¬ngĠ":8777,"ĠgÄģiĠwÃ¹ĠzhÇĴngĠ":8778,"ĠlÃ¹ĠshÃłngĠ":8779,"rÃ¬ĠbÃłoĠ":8780,"ĠmÃ©iĠtÇĲĠ":8781,"ĠdÇİoĠyÇĶ":8782,"Ġ1957ĠniÃ¡nĠ":8783,"lÃł":8784,"tt":8785,"ĠØ":8786,"ĠdÃ¬ĠdÃłiĠ":8787,"zhÃ¬ĠpiÃłnĠ":8788,"yÇĴuĠyÃ¬Ġ":8789,"ĠmÃŃngĠjÃ¬nĠshÃ¬Ġ":8790,"yÇĶĠqÃŃ":8791,"ĠhuÃ²ĠchÄĵngĠ":8792,"ĠgÄģiĠxiÃło":8793,"ĠjiÃ¨Ġde":8794,"yuÄĵĠwÃ¨iĠ":8795,"Ġ1933ĠniÃ¡nĠ":8796,"ĠsÃ¬ĠchuÄģnĠshÄĽngĠ":8797,"OM":8798,"ĠrÃ¬ĠzhÃ¬Ġ":8799,"qÃŃĠxiÃł":8800,"liÇİngĠzhÇĴngĠ":8801,"ĠgÃ¨ngĠduÅįĠde":8802,"cÃ¡iĠnÃ©ngĠ":8803,"ĠrÃ³ngĠyÃ¹Ġ":8804,"chĠ":8805,"zhÅįngĠdeĠ":8806,"xiÃłnĠchÃ©ngĠ":8807,"xiÃłnĠshÃłngĠ":8808,"wÇİngĠwÇİngĠ":8809,"ĠdÅ«ĠshÃ¬Ġ":8810,"Ġ1962ĠniÃ¡nĠ":8811,"gÃ¨ngĠduÅį":8812,"deĠsÄģnĠ":8813,"ĠshÃ¬ĠjiÃ¨Ġ":8814,"shÃŃĠshÃłngĠ":8815,"ĠyÃŃĠbÃłnĠ":8816,"zhÇĲĠzÃłiĠ":8817,"ĠliÃłngĠzÇĲ":8818,"qiÄģnĠshÇĶ":8819,"2002ĠniÃ¡nĠ":8820,"xÃºnĠzhÇİo":8821,"ĠxÄ«ĠbÄĽiĠbÃ¹":8822,"ĠzhuÃłnĠxiÄĽ":8823,"ĠshÇİnĠxÄ«":8824,"xÇĲngĠ":8825,"deĠzuÃ²ĠpÇĲnĠ":8826,"Ġ14Ġ":8827,"yÄ«ĠshÄĵngĠ":8828,"dÃłĠfÃº":8829,"dÃłĠsÃłiĠ":8830,"yÃ³uĠyÇĴngĠ":8831,"ĠshÄ«ĠgÅįngĠ":8832,"ĠshÄĵnĠdÃ¹Ġ":8833,"ĠmÄĽiĠguÃ³Ġde":8834,"ĠliÃ¨ĠchÅ«":8835,"ĠmÇİnĠzhÅįu":8836,"ĠshÃ¬ĠnÃ¡nĠjÃŃĠzhÅįuĠde":8837,"IIĠ":8838,"ĠjÃŃĠjiÄģngĠ":8839,"ĠyÃŃĠzhÇĲ":8840,"orl":8841,"ĠfÇİnĠÃ©r":8842,"bÃ¬ĠmiÇİnĠ":8843,"xiÃ©ĠshÄģngĠ":8844,"ĠxiÇİngĠyÃło":8845,"bÄģoĠwÃ©iĠ":8846,"olĠ":8847,"dÃ¬ĠÃ¨rĠcÃ¬ĠshÃ¬ĠjiÃ¨ĠdÃłĠzhÃłnĠ":8848,"pÄĵngĠ":8849,"qÃº":8850,"ĠkÃ©":8851,"ĠĠĠX":8852,"ĠjiÄģĠzhÅįngĠ":8853,"dÃłiĠlÇĲngĠ":8854,"ĠqÅ«ĠfÄĵnĠ":8855,"ĠzhÃ²ngĠyÃ¬ĠyuÃłnĠ":8856,"ĠĠĠchÄĵĠzhÃłnĠjiÃ©ĠgÃ²uĠ":8857,"hÃ©ĠfÇİ":8858,"ĠdeĠchÃ©ngĠyuÃ¡nĠ":8859,"hÃłnĠlÃŃnĠ":8860,"ĠhÇİiĠyÃ¹Ġ":8861,"ĠshÅ«ĠyuÃłnĠ":8862,"gÇİiĠmÃŃngĠwÃ¨iĠ":8863,"ĠĠĠ2003ĠniÃ¡nĠ":8864,"zhÇĶĠyÃłoĠde":8865,"4ĠyuÃ¨Ġ1ĠrÃ¬Ġ":8866,"Ġla":8867,"Ġcom":8868,"deĠfÄĵngĠ":8869,"yÃ¡nĠchÃ¡ngĠ":8870,"ĠzhÃ¨nĠqÅ«ĠdeĠmiÃłnĠjÄ«ĠwÃ¨iĠ":8871,"deĠyÄ«ĠxiÄĵ":8872,"lÇļĠxÃŃngĠ":8873,"ĠĠĠbÄĽnĠzhÃłnĠ":8874,"hÃ¹ĠliÃ¡nĠwÇİngĠ":8875,"jiÄĵĠchÃ¹":8876,"ĠjiÄģoĠgÄĽiĠ":8877,"huÃŃĠguÄ«":8878,"ĠjÇĲĠniÃ¡nĠ":8879,"ĠchÃ³uĠ":8880,"dÃ¬Ġ3":8881,"ĠyÇĴuĠzhÃ¹":8882,"ĠtÃ¨ĠsÃ¨Ġ":8883,"ĠbÄģĠhÃ¨":8884,"ĠcÄģnĠxuÇİnĠ":8885,"nÃłĠcuÃ¬Ġ":8886,"xiÇİoĠxÃŃngĠ":8887,"xÃ¹ĠlÃ¬ĠyÃł":8888,"shÃ©nĠjÄ«ngĠ":8889,"PS":8890,"ĠduÄ«":8891,"ĠyÇĶĠzhÃ²u":8892,"ĠlÃ¹ĠzhÃ¬Ġ":8893,"shÇĴuĠxiÃłngĠ":8894,"eĠĠĠof":8895,"ĠĠĠrÃ¡nĠÃ©rĠ":8896,"hÃ©ĠpÃłnĠ":8897,"yÄ«ĠrÃ¡nĠ":8898,"ĠjÃ¬ĠwÃ¨iĠ":8899,"dÃ©ĠzhÄ«":8900,"ĠjÅ«nĠguÄģnĠ":8901,"lÃŃĠziĠ":8902,"ĠjÃ¬ĠlÃ¹ĠpiÃłnĠ":8903,"ĠpÄ«Ġ":8904,"hÃ²uĠsÃłiĠ":8905,"ĠrÃ©nĠchÄĵngĠ":8906,"mÃŃngĠzhÃ¬Ġ":8907,"ĠzhÅįuĠfÇĶ":8908,"hÇİiĠxiÃ¡":8909,"Ġ42":8910,"ĠcÄģnĠyÃ¬ĠyuÃłnĠ":8911,"gÄģiĠguÃ³":8912,"ĠyÃ¬ngĠjÃŃ":8913,"ĠxiÃ¡ngĠxÃ¬Ġ":8914,"zÇĴuĠxiÃłngĠ":8915,"ust":8916,"Ã©ĠzhÅįu":8917,"zhuÄģ":8918,"ĠzhÃŃĠbÃłngĠ":8919,"ĠtÃ¨ĠlÃ¡nĠ":8920,"Ġ4ĠyuÃ¨Ġ":8921,"ĠshÄģngĠdiÃłnĠ":8922,"ĠxuÄģnĠchÄĵngĠ":8923,"sÅ«ĠgÃ©ĠlÃ¡nĠ":8924,"tÃŃĠgÅįngĠle":8925,"fĠ":8926,"ĠchuÄ«":8927,"ĠyÃºĠrÃ©nĠ":8928,"ĠyÃ¬ĠqÃŃngĠ":8929,"ĠzhÃ¨ĠlÃ¨iĠ":8930,"xiÃłnĠzhÄ«ĠxiÃłnĠ":8931,"duÃ¬ĠcÇĲ":8932,"ĠcÄģnĠyÃ¹Ġ":8933,"ĠbÇİoĠluÃ³Ġ":8934,"zÄ«ĠjÄ«nĠ":8935,"chÇĶĠlÇĲĠ":8936,"ĠnÃ¡ĠxiÃł":8937,"ĠmÃ¹ĠdÃ¬ĠshÃ¬Ġ":8938,"ĠdÄģngĠxuÇİnĠwÃ¨iĠ":8939,"jÃ¹ĠfÄĵngĠ":8940,"ĠyuÄĵĠyÇĴu":8941,"ĠzhÅįngĠguÃ³ĠguÃ³ĠmÃŃnĠdÇİngĠ":8942,"fÄĵngĠbÃłoĠ":8943,"ĠgÇİiĠjÃ¬nĠ":8944,"dÇİngĠde":8945,"ĠxÅ«ĠqiÃºĠ":8946,"lÃłnĠ":8947,"ĠĠĠjÄ«":8948,"ĠshÃ¬ĠdÃł":8949,"ĠdÃłnĠzuÃ¬ĠzhÅįngĠ":8950,"ĠfÃ¹ĠxÄ«ngĠ":8951,"ĠmÇİĠsÄ«":8952,"dÅįngĠfÄģngĠ":8953,"liÃ¡nĠrÃ¨nĠ":8954,"ĠÃ¨rĠrÃ©nĠ":8955,"zhÃłoĠpiÄģnĠ":8956,"xÄ«ĠÄģnĠ":8957,"lÃ¬ĠchÇİngĠ":8958,"ĠfÄĵnĠzhÄ«":8959,"ĠĠĠ2019":8960,"ĠyÃ¹ĠsuÃłnĠ":8961,"lÃ¹ĠxÃ¹":8962,"ĠhuÃłĠmiÃłnĠ":8963,"xÄ«ngĠde":8964,"ĠnÇļĠhÃ¡iĠ":8965,"ĠgÇİiĠzÃło":8966,"sÄ«ĠfÇİ":8967,"fÄĵnĠlÃ¡nĠ":8968,"ĠbÃłnĠlÇĲ":8969,"ĠpÇĶĠlÄģ":8970,"guÃ³ĠjiÄģĠduÃ¬Ġ":8971,"ĠruÃ²Ġ":8972,"miÇİnĠfÃ¨iĠ":8973,"shÃ¬ĠwÃ¨iĠle":8974,"ĠchÃ¬ĠwÄĽiĠ":8975,"ĠjÇĶĠxÃŃngĠde":8976,"ĠxÃºnĠhuÃŃĠsÃłiĠ":8977,"ĠĠĠwÃº":8978,"hÃ©ĠtÃ³ngĠ":8979,"ĠdÃłoĠguÄģngĠ":8980,"huÃ¬ĠyÇĴu":8981,"ĠrÃ¨nĠzhÃ¨ngĠ":8982,"zhÅįuĠwÃ©iĠ":8983,"ĠshÄ«ĠrÃ©nĠ":8984,"gÄĵĠlÃºnĠbÇĲĠyÃł":8985,"guÇİngĠgÃło":8986,"ĠshÃ¬ĠwÃ¨iĠyÃºĠwÅ«ĠkÃ¨ĠlÃ¡nĠ":8987,"nÃ¡ĠxiÃł":8988,"ĠshÃ¬ĠpÃŃnĠ":8989,"ĠshÃŃĠzhÃ¬Ġ":8990,"zhÃ¬ĠlÃ¬Ġ":8991,"ĠhÃ©ĠchÃ©ngĠ":8992,"dÃ¬ĠdÃłiĠ":8993,"ĠyÇĴuĠjÄ«":8994,"shÃ¨ĠdÃ¬ngĠ":8995,"fÄģĠshÃ²uĠ":8996,"ĠrÃ¨nĠtÃ³ngĠ":8997,"ĠliÃºĠqiÃº":8998,"ĠyÃ²ngĠyÇĲ":8999,"ĠnÇļĠÃ©rĠ":9000,"luÃ²ĠchÃ©ngĠ":9001,"ĠhuÃ³ĠyuÃ¨":9002,"Ġ1965ĠniÃ¡nĠ":9003,"ĠUĠ":9004,"yÃºĠlÃ¨iĠ":9005,"ĠshÃŃĠwÃ¹":9006,"ĠtÄģĠyÃ²u":9007,"ĠxÄ«ĠyuÃ¡nĠ":9008,"ĠlÃ¡iĠsÄ«":9009,"zhÇĶĠlÃ¬Ġ":9010,"ĠjÇĲngĠguÄģnĠ":9011,"ĠĠĠgÄĵnĠjÃ¹Ġ2010ĠniÃ¡nĠmÄĽiĠguÃ³ĠrÃ©nĠkÇĴuĠpÇĶĠchÃ¡ĠdeĠshÃ¹ĠjÃ¹Ġ":9012,"ĠkÄģĠfÄĵiĠ":9013,"ĠĠĠshÄģ":9014,"deĠfÄģĠzhÇİnĠ":9015,"ĠxÄ«ĠshÅįu":9016,"ĠbÃ¨iĠpÃłnĠ":9017,"ĠÃ©rĠchÃ©ngĠ":9018,"ĠzÃ¬ĠjÇĲĠ":9019,"ĠcÃ¬ĠrÃ¬Ġ":9020,"fÇİĠguÄģnĠ":9021,"ĠĠĠ2000ĠniÃ¡nĠ":9022,"jiÃ¨ĠshÃło":9023,"ĠtÃŃĠchÅ«Ġ":9024,"eĠĠĠP":9025,"ĠshÃ¬ĠyÄ«ĠjiÄģ":9026,"tiv":9027,"ĠzhÃ¨ngĠfÇĶĠde":9028,"tÅ«ĠrÃ¡nĠ":9029,"ĠxÄ«ĠbÄģnĠyÃ¡ĠyÇĶĠ":9030,"deĠguÄģnĠxÃ¬Ġ":9031,"ĠyuÃ¨ĠshÄĵngĠ":9032,"ĠzhÅįngĠdiÇİnĠ":9033,"ĠpÃŃngĠchÃ©ngĠ":9034,"lÃŃnĠde":9035,"ĠhÅ«ĠyÃ¹":9036,"fÅ«ĠrÃ©nĠ":9037,"Ġ1928ĠniÃ¡nĠ":9038,"sÇĶnĠshÄ«":9039,"ĠjiÃ©ĠkÃ¨ĠxÃ¹nĠ":9040,"ĠnÃ¡ngĠ":9041,"ĠxiÃłnĠcÃºnĠ":9042,"ĠxÄ«ĠlÃ¡nĠ":9043,"ĠlÇĲĠchÃ¡":9044,"ĠshÇĴuĠxÃŃ":9045,"ĠqiÄģnĠyÇĲnĠ":9046,"mÄĽiĠguÃ³ĠrÃ©nĠ":9047,"ĠdÃ¬ĠÃ¨rĠcÃ¬ĠshÃ¬ĠjiÃ¨ĠdÃłĠzhÃłnĠ":9048,"DV":9049,"US":9050,"qiÃł":9051,"Çĺ":9052,"ĠĠĠfÇİĠguÃ³":9053,"ĠcÄģ":9054,"ĠtÅ«nĠ":9055,"ĠchÃ©ngĠle":9056,"ĠxÄ«ĠzhÅįu":9057,"zhÄ«ĠjÃ¬Ġ":9058,"ĠbÃ³ĠÄĽr":9059,"jiÃ¹ĠhuÃ¬Ġ":9060,"ĠtÃ³ngĠniÃ¡nĠ10":9061,"jÄ«ĠdÅ«ĠjiÃło":9062,"shÃ¬ĠzhÅįngĠguÃ³":9063,"ĠzÃłiĠyÄ«ngĠguÃ³":9064,"ĠyÇĲĠzhÃ¬Ġ":9065,"ĠdÃ©ĠdÃłoĠle":9066,"duÃ¬ĠqÃŃ":9067,"ĠbÇİoĠzhÃ¨ngĠ":9068,"bÄģĠniÃ¡nĠ":9069,"zhuÇİnĠhuÃłnĠ":9070,"ĠDĠ":9071,"yÇİngĠhuÃł":9072,"ĠshÃ¬ĠyÃ¨":9073,"hÃ²uĠfÄģngĠ":9074,"nÃ¡nĠyÇĲ":9075,"ĠĠĠ2020":9076,"bÃ¹ĠÄĽr":9077,"ĠqÄ«nĠwÃ¡ngĠ":9078,"ĠÃłiĠÄĽrĠlÃ¡nĠ":9079,"mÇĶĠsÄ«":9080,"ĠfÃ¹ĠhÃ©":9081,"gÄĵngĠxÄ«nĠ":9082,"ug":9083,"gÅįngĠzhÃłnĠ":9084,"gÅįngĠlÃ¹Ġ":9085,"ĠzhÄ«ĠyÄ«":9086,"ĠyÃ¡nĠchÃ¡ngĠ":9087,"ĠqÄ«ngĠchÅ«nĠ":9088,"fÄĵngĠgÃ©":9089,"ĠdÄ«ĠyÃº":9090,"xiÅįngĠyÃ¡ĠlÃ¬Ġ":9091,"duÇİnĠzÃłnĠ":9092,"ĠrÃ¨ĠdÃłiĠqÃ¬ĠxuÃ¡nĠ":9093,"OR":9094,"zÃłiĠ199":9095,"ĠxiÃłnĠyÃº":9096,"ĠqÃŃĠziĠ":9097,"ĠduÅįĠyÃłngĠ":9098,"ĠfÇİĠtÃŃngĠ":9099,"jiÄĵĠshÃ²uĠ":9100,"ĠdÃ¬ĠÃ¨rĠgÃ¨":9101,"dÄģngĠshÃŃĠde":9102,"ĠyÄĵĠsÅ«":9103,"ĠĠĠgÅįngĠ":9104,"dÃ¬ĠchÇİnĠ":9105,"xÃŃngĠxiÃłngĠ":9106,"ĠzuÃ²ĠluÃ²":9107,"ĠzÃ¬ĠchÄĵngĠ":9108,"shÃ¹ĠzÃ¬Ġ":9109,"xuÃ©Ġde":9110,"ĠhuÃłĠfÄĵnĠ":9111,"ĠtiÄģnĠtÇĲĠ":9112,"fÃłngĠzÃłiĠ":9113,"hÃ¡oĠ":9114,"yÄ«ĠjÃŃ":9115,"jÄ«ĠjÄ«nĠ":9116,"ĠkÃ¨ĠsÃłĠsÄ«":9117,"ĠÃ©rĠbÃ¹":9118,"ĠshÃ¨Ġde":9119,"yÃ¨ĠwÃ¹":9120,"ĠfÅ«ĠkÇİ":9121,"ĠqÃŃngĠgÇİnĠ":9122,"deĠwÇĶ":9123,"ĠhuÃ¬ĠzhÇİngĠ":9124,"ĠdÃłnĠquÃ¨":9125,"ĠrÃ¨nĠshÃŃ":9126,"tÃłiĠkÅįngĠ":9127,"ĠzhÄĵnĠzhÃ¨ngĠ":9128,"bÃ³ĠshÃ¬Ġ":9129,"189":9130,"pÄģiĠshÃ¨Ġ":9131,"ĠĠĠjiÃ©":9132,"shÃ¬ĠqÅ«":9133,"ĠdeĠM":9134,"ĠliÃºĠzÃłiĠ":9135,"ĠshÄģnĠxÄ«ĠshÄĽngĠ":9136,"ĠtuÄ«ĠchÅ«Ġ":9137,"yÅįuĠxiÃ¹":9138,"ĠgÅįngĠzuÃ²ĠshÃ¬Ġ":9139,"ĠrÃ©nĠdÃłĠdÃłiĠbiÇİoĠ":9140,"wÃºĠ":9141,"ĠshÃ¬ĠjiÄģ":9142,"ĠhÄĵ":9143,"shÃ¬ĠyÃłnĠ":9144,"gÅįngĠbÃ¹Ġ":9145,"yÃ¬ĠrÃ©nĠ":9146,"shÃłngĠxiÃłnĠ":9147,"ĠtÃ¨ĠsÃ¨":9148,"ĠkuÃ²ĠdÃł":9149,"ĠzÇĴngĠhuÃ¬Ġ":9150,"dÃłĠxuÃ©Ġde":9151,"ĠtÇİĠÄĽr":9152,"Ġ1930ĠniÃ¡nĠ":9153,"shÃŃĠqÄ«ĠniÃ¡nĠ":9154,"ĠjiÄģĠrÃ¹Ġ":9155,"ĠfÃºĠluÃ³ĠlÇĲĠdÃ¡":9156,"xiÄģngĠxÃ¬nĠ":9157,"xÃ¬ĠtÇĴngĠde":9158,"ĠkÇİoĠshÃ¬Ġ":9159,"jÃ¹nĠgÅįngĠ":9160,"ĠmiÃłnĠjÄ«Ġ0":9161,"chÃ¨ĠxiÄģo":9162,"ĠshÄģĠhÃłiĠ":9163,"cÄģoĠzuÃ²":9164,"ĠĠĠzhÃŃ":9165,"ĠyuÃ¨ĠchÅ«":9166,"ĠshÃŃĠduÃłnĠ":9167,"ĠyÃ¬ĠmÃŃngĠ":9168,"hÃ¡ngĠzhÃłnĠ":9169,"ĠdÄģngĠdÃłiĠ":9170,"ĠnÇļĠwÃ¡ngĠ":9171,"ĠqÃŃĠzhÅįngĠyÃŃĠgÃ¨":9172,"liÃºĠzÃłiĠ":9173,"ĠtÃºĠjÄ«ngĠ":9174,"ĠtiÄĽĠdÃłoĠ":9175,"zhÅįngĠgÃ²ngĠzhÅįngĠyÄģngĠ":9176,"ĠlÇİ":9177,"zhÅįngĠwÃ¨iĠ":9178,"ĠyÃºĠlÃ©iĠ":9179,"shÄĵngĠmÃ¬ngĠ":9180,"jÃ¬ngĠde":9181,"jÃ¬ngĠxuÇİnĠ":9182,"bÃłoĠlÃ¬Ġ":9183,"ĠpÃŃnĠdÃłoĠ":9184,"ĠxÄ«ĠnÃ¡nĠbÃ¹":9185,"ĠfÇĴuĠzÃ©":9186,"ĠdÃłnĠbÃ¡iĠzhÃ¬Ġ":9187,"oogle":9188,"DS":9189,"fÃł":9190,"ĠchÃ©ngĠniÃ¡nĠ":9191,"ĠjiÃłoĠkÄĵ":9192,"ĠsÄģnĠguÃ³":9193,"liÃłngĠxiÃłngĠ":9194,"Ġ1932ĠniÃ¡nĠ":9195,"ĠbÃ¬ngĠqiÄĽĠzÃłiĠ":9196,"ĠgÄĵnĠjÃ¹Ġ2020ĠniÃ¡nĠmÄĽiĠguÃ³ĠrÃ©nĠkÇĴuĠpÇĶĠchÃ¡ĠdeĠshÃ¹ĠjÃ¹Ġ":9197,"ĠzhÃ¬ĠyuÃ¡nĠ":9198,"hÃ¡ngĠzhÅįu":9199,"kÄģiĠgÅįngĠ":9200,"yÃ¬ngĠde":9201,"ĠxÃŃngĠzhÃ¨ngĠyuÃłnĠ":9202,"Ġ1931ĠniÃ¡nĠ":9203,"res":9204,"ĠshÃ¹nĠshÃŃĠzhÄĵnĠ":9205,"ĠshÃ¬ĠgÃ¹":9206,"ĠzhÇĶĠchÇİngĠ":9207,"ĠqÃŃngĠxÃŃngĠ":9208,"yÃºĠ202":9209,"bÃ¹ĠbÃ¹ĠzhÇİngĠ":9210,"jiÃłnĠshÃ¨Ġ":9211,"ĠzhÃłnĠjÃ¬Ġ":9212,"ĠguÄģnĠzhuÃłngĠbÃ¬ngĠdÃº":9213,"mÃŃnĠguÃ³":9214,"zhÃŃĠzhÃ¨ngĠ":9215,"ĠbÄĽnĠjiÃ¨":9216,"ĠjuÃ©ĠshÃ¬Ġ":9217,"zuÃ¬ĠduÅį":9218,"ĠtÃºnĠqÃŃ":9219,"ĠĠĠxiÇİo":9220,"ĠgÃ¹nĠ":9221,"leĠtÄģĠde":9222,"ĠwÃ©iĠzhÇĶ":9223,"ĠzhÃºĠbÃ¹":9224,"ĠfÇİĠlÃ¡nĠkÃ¨":9225,"wÄĵngĠ":9226,"ĠzhÄ«ĠjiÄģĠgÄĵ":9227,"Ġ2018":9228,"qiÃ¡ngĠdiÃło":9229,"Ġ1912ĠniÃ¡nĠ":9230,"ĠĠĠjiÄģngĠ":9231,"deĠgÇĶ":9232,"ĠzhÅįngĠbÃ¹Ġ":9233,"ĠdÃ¬ĠdiĠ":9234,"ĠzhÄ«ĠyÃ¬Ġ":9235,"xÄ«nĠjiÄģngĠ":9236,"ĠzhÃ¹ĠlÇĲ":9237,"ĠluÃ³ĠbÃ³ĠtÃ¨Ġ":9238,"zuÃ¬ĠwÃ¨iĠ":9239,"fÄĵngĠxiÇİnĠ":9240,"yÃłoĠwÃ¹":9241,"xÃ¬nĠhÃło":9242,"ĠchÃ©ngĠfÃ¨nĠ":9243,"Ġ43":9244,"juÃ©Ġde":9245,"zÇĴngĠbÃ¹":9246,"ĠzÃ¬ĠyÃ³uĠ":9247,"tÅįu":9248,"ĠĠĠÄģnĠ":9249,"ĠzÃłiĠbÄģ":9250,"dÃłĠzhÃłnĠ":9251,"ĠlÃ¹ĠduÃłnĠ":9252,"Ġ3ĠyuÃ¨Ġ":9253,"mÇİĠlÄģ":9254,"ĠzhuÄģnĠyÃ²ngĠ":9255,"Ġ1967ĠniÃ¡nĠ":9256,"ĠsÇĲĠxÃŃngĠ":9257,"11Ġ":9258,"wit":9259,"ĠĠĠzÇİoĠqÄ«":9260,"shÃŃĠyÃ²ngĠ":9261,"ĠyÄ«ĠtiÄģnĠ":9262,"ĠjÄ«ngĠyÃ³u":9263,"ĠpÃ¨iĠbÃ¨iĠ":9264,"ĠzhÃ²ngĠdiÇİnĠwÃ©nĠwÃ¹ĠbÇİoĠhÃ¹ĠdÄģnĠwÃ¨iĠ":9265,"ĠsÄģo":9266,"ĠpÃ¡":9267,"jÃŃĠhÃ©":9268,"Ġ2016":9269,"ĠmÃ³ĠnÇĲ":9270,"biÄģoĠzhÃ¬Ġ":9271,"ĠhuÃłnĠzhÄĽ":9272,"ĠĠĠyÃ¡nĠgÃ©Ġ":9273,"ĠkÃłngĠrÃ¬ĠzhÃłnĠzhÄĵngĠ":9274,"400":9275,"shÃ¬ĠnÃ¡nĠ":9276,"Ġ1ĠlÃ¬Ġ":9277,"chÃ©ngĠniÃ¡nĠ":9278,"hÃ¡ngĠyÃ¨":9279,"ĠfÃºĠdÃ©":9280,"1900":9281,"ĠxiÃłoĠlÃ¬Ġ":9282,"chuÃ¡nĠbÅį":9283,"ĠdÃłĠliÃłngĠde":9284,"ĠbÃłngĠqiÃº":9285,"ĠzuÇĴĠyÃ²uĠ":9286,"guÇĲĠ":9287,"ĠĠĠwÅ«ĠkÃ¨ĠlÃ¡nĠ":9288,"ĠshÃ¬ĠyÄ«ngĠguÃ³":9289,"ĠzhÅįngĠbÃ¨iĠ":9290,"hÃłnĠyÇĶ":9291,"ĠxiÃłnĠrÃ¹":9292,"ĠqÃŃĠfÃ¹":9293,"ĠxuÃ©Ġde":9294,"ĠsÄ«ĠlÄģ":9295,"ĠyuÃ¡nĠziĠ":9296,"ĠfÇİĠlÇľĠ":9297,"ĠyuÃłnĠzhÇİngĠ":9298,"fÃ¹ĠzÃ¡":9299,"ĠliÇİngĠcÃ¨":9300,"ĠqiÅ«Ġ":9301,"ĠxiÃłoĠguÇĴ":9302,"ĠliÃ¨ĠrÃ¹":9303,"ĠhuÃŃĠyÃ¬Ġ":9304,"ĠTĠ":9305,"Ġ1961ĠniÃ¡nĠ":9306,"ax":9307,"zhÅįngĠfÄģĠxiÃłnĠ":9308,"ĠmÃŃngĠxÄ«ngĠ":9309,"jÄ«ngĠyÃłnĠ":9310,"ĠluÃ³ĠlÄģ":9311,"shÄĽngĠdeĠyÃŃĠgÃ¨ĠshÃ¬ĠzhÃ¨nĠ":9312,"tiÄģnĠfÇĶ":9313,"ĠmÃ¡oĠdÃ¹nĠ":9314,"ĠFĠ":9315,"ĠzÃłnĠshÃŃ":9316,"ĠdÃ²uĠ":9317,"ĠĠĠmÄĽiĠ":9318,"shÃ¬ĠwÃ¹Ġ":9319,"yuÃ¡nĠsÃ¹":9320,"ĠdÃ©ĠÄĽr":9321,"zhÃ¨ngĠshÃŃ":9322,"ĠtÃ³ngĠwÃ¨iĠ":9323,"shÄĵngĠzhÇİngĠ":9324,"ĠjiÃłoĠzÅįngĠ":9325,"ĠyÄĽĠkÄĽ":9326,"ĠshÇĲĠdÃ¬Ġ":9327,"wÃłiĠlÃ¡ngĠ":9328,"tÅįngĠxÃ¬nĠ":9329,"ĠqÃŃĠtÄģĠde":9330,"ĠniÃ¨Ġ":9331,"kÃłngĠrÃ¬Ġ":9332,"ĠzhÃ¨ngĠxiÃ©ĠwÄĽiĠyuÃ¡nĠ":9333,"ĠĠĠtÄģĠde":9334,"ÄģiĠÄĽrĠ":9335,"ĠmÃŃngĠjÇĶĠrÃ©nĠ":9336,"ĠzhÃłnĠchÇİngĠ":9337,"dÃłiĠyÇĴu":9338,"fÃ¹ĠnÇļ":9339,"jiÇİngĠxiÃłngĠ":9340,"ĠbÇİiĠniÃ¡nĠ":9341,"Ġ1927ĠniÃ¡nĠ":9342,"dÇĴngĠshÃ¬ĠzhÇİngĠ":9343,"ĠshÃ¬ĠxiÃłĠxiÃ¡ĠdeĠyÃŃĠgÃ¨":9344,"ĠrÃ¬ĠchÃ¡ngĠ":9345,"chÃ©ngĠzhÃ¨nĠ":9346,"gÅįngĠyÃ¬Ġ":9347,"ĠxuÃ©ĠkÄĵ":9348,"shÃłngĠxiÃł":9349,"ĠshÃ¨ĠqÃºnĠ":9350,"shÄĵngĠmÃŃngĠ":9351,"jiÄĵĠshÅįu":9352,"dÇİoĠde":9353,"ĠrÃºĠxiÃł":9354,"ĠyÇĲngĠshÃ¬Ġ":9355,"ĠÃ¨rĠniÃ¡nĠ":9356,"xiÅ«ĠjiÃłnĠ":9357,"ĠdÃ©ĠguÃ³Ġ":9358,"ĠlÃ¡oĠgÅįngĠ":9359,"ĠzuÃ¬ĠgÄģoĠde":9360,"ĠzhÃ©Ġ":9361,"ĠwÃ¨iĠyuÃ¡nĠ":9362,"ĠbÃ¹ĠbiÃłnĠ":9363,"shÃŃĠbÄģ":9364,"shÃ¨Ġde":9365,"ĠsÄģnĠzhÇĴngĠ":9366,"yÄ«ngĠxiÃ³ngĠ":9367,"pÃ¨iĠbÃ¨iĠ":9368,"gÃ¨ngĠwÃ©iĠ":9369,"yÅįuĠshÃ¬Ġ":9370,"NBA":9371,"yÄ«ĠtiÃ¡o":9372,"dÃłĠwÃ¨iĠ":9373,"dÃłĠzhÃ²ngĠ":9374,"ĠmiÃłnĠxiÃłngĠ":9375,"chÇİngĠdÃ¬Ġ":9376,"ĠfÄĵngĠwÃ¨iĠ":9377,"fÄĵngĠwÃ¨iĠ":9378,"ĠqÇĲĠchÅ«":9379,"pÃ¨iĠyÄ«nĠ":9380,"zhÇİnĠlÇİnĠ":9381,"ĠdeĠgÃ¹ĠshÃ¬Ġ":9382,"ĠzÃłiĠfÇİĠguÃ³":9383,"ĠyÇĲĠshÃłngĠde":9384,"ĠzhÄ«ĠfÃ¹":9385,"zhÄ«ĠshÃ¬Ġ":9386,"jiÄĵĠrÃ¨nĠ":9387,"ĠshuÇĲĠlÃ¬Ġ":9388,"eĠĠĠB":9389,"ess":9390,"ĠzhÃŃĠyÃ¨ĠshÄĵngĠyÃ¡":9391,"12ĠniÃ¡nĠ":9392,"meĠ":9393,"ĠgÃ¨ĠguÃ³ĠjiÄģ":9394,"ĠzhÄ«ĠshÃŃĠ":9395,"ĠdÃłnĠshuÇĲ":9396,"ĠhuÃ²ĠÄĽr":9397,"Ġ53":9398,"liÃºĠxiÃł":9399,"ĠshÅįuĠjÃŃ":9400,"ĠsÅ«ĠdÃ¡":9401,"ĠdÃłngĠÃłnĠ":9402,"ee":9403,"up":9404,"ĠĠĠfÄĵnĠlÃ¨iĠ":9405,"ĠfÇİĠyÇĶ":9406,"ĠyÄ«ngĠlÇĲĠ":9407,"biÇİoĠmÃŃngĠ":9408,"ĠcÃ¡iĠpÃłnĠ":9409,"ĠEĠ":9410,"ĠdÃ²uĠzhÄĵngĠ":9411,"ĠÐ°":9412,"ĠrÃ©nĠkÇĴuĠmÃ¬ĠdÃ¹ĠmÄĽiĠpÃŃngĠfÄģngĠgÅįngĠlÇĲ":9413,"yÃ¬ĠwÃłiĠ":9414,"ĠyÃ³uĠkÃ¨":9415,"xÃŃngĠrÃ³ngĠ":9416,"duÃ¬ĠfÄģngĠ":9417,"shÃ¨ĠxiÃ¡nĠ":9418,"guÄģnĠkÃłnĠ":9419,"bÃ¬ĠyÃ¨":9420,"gÇİiĠshÃłnĠ":9421,"Ġ17Ġ":9422,"ĠjÃ¹ĠhÃ©":9423,"ĠJĠ":9424,"ĠruÇİnĠtiÃ¡o":9425,"hÃ©ĠbÃ¬ngĠwÃ¨iĠ":9426,"ĠshÃ¬ĠxÄ«ngĠdÄĽngĠwÃ¨iĠ":9427,"ĠpÃŃngĠjiÃ¨":9428,"ĠzhÇİngĠzÇĲ":9429,"ĠnÃ¨iĠzhÃ¨ngĠ":9430,"ĠsÃ¬ĠdÃł":9431,"ĠshÄĵnĠwÃ¨iĠ":9432,"ĠbiÄģnĠjÃ¹Ġ":9433,"ĠshÄģngĠchÇİngĠ":9434,"ĠwÃ¨iĠmÃŃngĠ":9435,"ĠbÃ¹ĠlÃ©iĠ":9436,"ĠdÃłĠshÇĲĠ":9437,"ĠxiÃłnĠyÇĴu":9438,"yÄ«ĠjiÄģ":9439,"ĠyuÃ¡nĠshÇĲ":9440,"yÇĶĠmÃ¡oĠqiÃº":9441,"xiÃłĠle":9442,"shÇĴuĠxÃŃ":9443,"zhÇĲĠyÃº":9444,"fÃºĠhÃ©":9445,"ĠyÇİnĠjÄ«ngĠ":9446,"ĠjiÇİĠshÃ¨":9447,"ĠĠĠ2002ĠniÃ¡nĠ":9448,"ĠtÇİnĠkÃ¨":9449,"shÃł":9450,"ĠjÇĶĠ":9451,"ĠzhÅįngĠxÃºnĠ":9452,"ĠdÃ©ĠlÃ¬Ġ":9453,"ĠjuÃ©ĠyÃº":9454,"ĠdÄģnĠyÄ«":9455,"zhÃ²ngĠdiÇİnĠ":9456,"ĠzÇĴngĠcÃ¡iĠ":9457,"jÃ¬ngĠsÃłiĠ":9458,"cÃ¡iĠliÃło":9459,"ational":9460,"EN":9461,"zhÅįngĠshÅ«":9462,"ĠbÄĽnĠzuÃ²":9463,"ĠbÄģĠfÃ¡ĠlÃ¬ĠyÃł":9464,"nÃ¨iĠruÃ¬Ġ":9465,"tÃłiĠguÃ³":9466,"ĠlÇĲĠÃ¡ngĠ":9467,"ĠzÅįngĠyÃ¬Ġ":9468,"ĠbÇĶĠchÅįngĠ":9469,"ĠdÃ©ĠyÃ¬ĠzhÃ¬Ġ":9470,"qÃŃĠbÄ«ngĠ":9471,"tÃ¡iĠfÄĵngĠ":9472,"kÃ¨ĠluÃ³":9473,"ĠsÃ¹ĠdÃ¹Ġ":9474,"ĠlÃŃngĠhÃºnĠ":9475,"ĠĠĠ2021":9476,"ĠtiÄģnĠwÃ©nĠtÃ¡iĠ":9477,"deĠdiÃłnĠ":9478,"ĠzhÅįngĠguÃ³ĠrÃ©nĠmÃŃnĠ":9479,"ĠqÄ«nĠzÃ¬Ġ":9480,"ĠzhÄĵngĠqÇĶ":9481,"ĠcÅ«nĠluÃ²Ġ":9482,"ĠxÃºnĠqiÃº":9483,"Ġ1963ĠniÃ¡nĠ":9484,"ĠzuÇĴĠyÃ¬Ġ":9485,"nÃ³ngĠmÃŃnĠ":9486,"idĠ":9487,"ÄģĠgÄĵnĠtÃŃngĠ":9488,"ĠzÃłiĠjÄ«nĠ":9489,"ĠzhÃ¨ĠbÃ¹":9490,"ĠhÃ²uĠyÃº":9491,"ĠfÃºĠlÃ¡nĠ":9492,"ĠqÅ«ĠshÃ¬Ġ":9493,"18Ġ":9494,"Ġ1969ĠniÃ¡nĠ":9495,"ÅįuĠzhÅįuĠ":9496,"xiÄģoĠliÃłngĠ":9497,"KB":9498,"ĠjiÃłnĠshÃ¬Ġ":9499,"liÇİnĠ":9500,"wÃ¹Ġde":9501,"biÇİoĠmiÃłnĠ":9502,"ork":9503,"liÃºĠchuÃ¡nĠ":9504,"Ġ110":9505,"ĠchÃ©ngĠlÃ¬ĠhÃ²uĠ":9506,"ĠzÃºĠqiÃºĠyÃ¹nĠdÃ²ngĠyuÃ¡nĠ":9507,"shÃłoĠnÇļ":9508,"ĠpÃŃnĠlÇľ":9509,"bÄĽiĠjÄ«ngĠshÃ¬Ġ":9510,"hÃ©ĠshÃłngĠ":9511,"ĠĠĠÃło":9512,"ĠyÃ¬ĠbÇİiĠ":9513,"ĠqÃŃĠhÃ²uĠ":9514,"ĠwÃ©iĠduÅįĠlÃ¬ĠyÃł":9515,"shÃłngĠshÅ«":9516,"ĠjÃ¹ĠlÃŃĠ":9517,"ĠjiÄĵĠzhÃ¹":9518,"ĠliÇİngĠgÃ¨Ġ":9519,"ert":9520,"ĠshÄģĠtiÃ¡nĠ":9521,"ĠgÃ²ngĠchÇİnĠzhÇĶĠyÃ¬Ġ":9522,"tern":9523,"ĠzhÅįngĠshÃ¬ĠjÃ¬Ġ":9524,"ĠhÄĵiĠlÃ³ngĠjiÄģngĠshÄĽngĠ":9525,"lÃ²u":9526,"ĠĠĠkÄĵ":9527,"ĠzhÅįngĠduÃ¬Ġ":9528,"ĠyÄ«ĠbÃ¹ĠfÃ¨nĠ":9529,"ĠbÃ¬ngĠxiÃłngĠ":9530,"ĠdÃłnĠmÃ©iĠyÇĴu":9531,"ĠcÃ³ngĠwÃ¨iĠ":9532,"qÄ«ngĠxiÃłngĠ":9533,"ĠjÃ¬ngĠjÃ¬Ġ":9534,"ĠtÃ³uĠxiÃ¡nĠ":9535,"lÇļĠ":9536,"deĠshÃ¨ngĠ":9537,"ĠshÃŃĠwÃ¨iĠ":9538,"ĠshÄĵngĠjÄ«":9539,"xÃ¬ĠliÃ¨Ġ":9540,"Ġ155":9541,"tÅ«ĠpÃ²":9542,"4ĠgÃ¨":9543,"deĠchÃ©ngĠyuÃ¡nĠ":9544,"ĠdeĠshÃŃĠjiÄģnĠ":9545,"ĠdÃ¬ĠyÄ«Ġ":9546,"ĠdÃłĠdÃ¬Ġ":9547,"ĠlÄģĠÄĽr":9548,"bÃ¬ngĠshÃ¬Ġ":9549,"biÄģnĠhÃłoĠwÃ¨iĠ":9550,"ĠqÃŃĠzhÅįngĠyÇĴu":9551,"ĠbÇİoĠxiÇİnĠ":9552,"ĠxÃŃĠguÃłnĠ":9553,"ĠdÅ«ĠhuÃ¬Ġ":9554,"ĠgÇİnĠlÇİnĠ":9555,"Ġ1929ĠniÃ¡nĠ":9556,"deĠwÃłiĠ":9557,"ĠxiÃłnĠlÃ¹Ġ":9558,"chÃ©ngĠkÃ¨":9559,"ĠjiÄģĠyÃ¬Ġ":9560,"ĠpÃŃngĠguÇĴ":9561,"gÃ¨ĠzÃ¬Ġ":9562,"ĠhÇİiĠxiÃ¡":9563,"guÃ²ĠdÃ¹":9564,"zhÇĲĠdÃ¬ngĠ":9565,"ĠxuÇİnĠqÅ«Ġ":9566,"Ġ600":9567,"dÇİĠsuÃłnĠ":9568,"ĠshÃ¬ĠshÃŃĠshÃłngĠ":9569,"ĠjiÄģĠlÃ¬ĠfÃºĠnÃŃĠyÃłĠzhÅįu":9570,"ĠdeĠguÄģnĠxÃ¬Ġ":9571,"yÃºĠrÃ©nĠ":9572,"ĠbÄĽnĠmÃŃngĠ":9573,"ĠwÄĵiĠlÃ¬Ġ":9574,"eĠĠĠA":9575,"ĠshÅįuĠfÃ¨iĠ":9576,"ĠlÇİngĠdÃ©":9577,"Ġ1934ĠniÃ¡nĠ":9578,"ĠxÇĲĠjÃ¹":9579,"ĠzÃłiĠnÃłĠlÇĲ":9580,"pÃ³":9581,"ĠyÇĶĠyÄ«nĠ":9582,"jiÄģoĠhuÃłnĠ":9583,"gÇĶĠdÃłiĠ":9584,"lÇĲngĠyÃ¹":9585,"pÃ¨iĠzhÃ¬Ġ":9586,"dÃ¬ĠyÄ«ĠwÃ¨iĠ":9587,"ĠgÄģnĠsÃ¹":9588,"duÇĴ":9589,"ĠĠĠguÃ³ĠjÃ¬Ġ":9590,"deĠzhÃŃ":9591,"wÃ©iĠfÇİnĠ":9592,"jiÄģĠqiÃ¡ngĠ":9593,"ĠxÄ«ĠbÃ³":9594,"ĠdÃłnĠtÄģĠmenĠ":9595,"ĠlÃ¡iĠyÄ«nĠ":9596,"lÃ¡iĠyÄ«nĠ":9597,"dÅįngĠnÃŃĠ":9598,"shÄģnĠshÃ¬Ġ":9599,"zhÃ²ngĠdÃł":9600,"ĠzhÇİnĠxiÃłnĠ":9601,"ĠzÃłnĠzhÃ¹":9602,"ĠshÃŃĠqÄ«Ġde":9603,"ĠgÄģoĠsÃ¹ĠgÅįngĠlÃ¹":9604,"pÃ¡iĠmÃŃngĠdÃ¬Ġ":9605,"lo":9606,"ĠbÄ«":9607,"jÃ¬ĠwÃ¨iĠ":9608,"ĠtÃ³ngĠpÃ¡iĠ":9609,"ĠguÄģnĠcÃ¨":9610,"jÃ¬nĠjÃŃ":9611,"zÃ¬ĠshÄĵnĠ":9612,"mÃŃnĠjiÄģnĠ":9613,"hÃ¡iĠzÃłiĠ":9614,"ĠtuÄ«ĠjiÃłnĠ":9615,"ĠĠĠ189":9616,"gÃ©ĠmÃ¬ngĠjÅ«nĠ":9617,"ĠsuÇĴĠde":9618,"suÇĴĠwÃ¨iĠ":9619,"ĠxuÇİnĠwÃ¨iĠ":9620,"ĠwÃ¨iĠyÃºĠyÃŃnĠ":9621,"ĠkÇİĠÄĽrĠ":9622,"ĠĠĠ2018":9623,"liÇİngĠniÃ¡nĠ":9624,"ĠxiÅ«ĠdÃłoĠyuÃłnĠ":9625,"Ġ170":9626,"ĠHR":9627,"ĠdÃ¬ĠmÃŃngĠ":9628,"ĠyÃ³uĠjÃº":9629,"ĠxiÄģngĠbÇĲ":9630,"dÃ©ĠdÃłoĠle":9631,"ĠjiÃ¹ĠyuÃ¡nĠ":9632,"tÃŃĠdÃło":9633,"biÄģnĠjÃŃ":9634,"ary":9635,"ĠgÇİngĠkÇĴu":9636,"yÄ«nĠyuÃ¨Ġ":9637,"shÃŃĠjÃ¬ĠshÃłngĠ":9638,"rou":9639,"deĠjÃŃ":9640,"ĠjÃ¬nĠrÃ¹Ġ":9641,"deĠM":9642,"Ġ49":9643,"ĠtÃºĠshÄģ":9644,"sÅ«ĠlÇĲ":9645,"xÃºnĠhuÃ¡nĠ":9646,"ĠmiÃ¡oĠhuÃ¬Ġ":9647,"gÅ«ĠjÃ¬Ġ":9648,"guÃłiĠ":9649,"deĠzhÃ¬Ġ":9650,"ĠjÃ¬nĠchÃ©ngĠ":9651,"ĠdÅįngĠbÃ¹Ġ":9652,"jiÄģngĠzÃłiĠ":9653,"ĠtÃºĠjÃ¬ngĠ":9654,"chÃ³uĠ":9655,"kÅ«":9656,"ĠzÃłiĠnÃ¨iĠ":9657,"yuÃ¡nĠziĠ":9658,"ĠxuÃ©ĠwÃ¨iĠ":9659,"ĠmÄĽiĠguÃ³ĠhÇİiĠjÅ«nĠ":9660,"ĠÄģnĠpÃ¡iĠ":9661,"ĠlÃ¹ĠyÃ¬ĠsÄ«Ġ":9662,"15ĠniÃ¡nĠ":9663,"ĠshÃ¬ĠcÃ³ngĠ":9664,"shÃ¬ĠjiÃ¨Ġ":9665,"hÃ¡ngĠxÃŃngĠ":9666,"zhÃ¨ngĠbiÃłnĠ":9667,"ĠxiÃłĠxÃºnĠ":9668,"ĠlÃºnĠduÅį":9669,"ĠĠĠSp":9670,"chÅįngĠtÅ«":9671,"dÃłngĠtiÄģnĠ":9672,"shÃłngĠhÇİiĠshÃ¬Ġ":9673,"ĠĠĠniÃ¡nĠĠĠ":9674,"guÃ³ĠmÃŃnĠdÇİngĠ":9675,"hÃ©ĠnÃ¡nĠshÄĽngĠ":9676,"ĠshÃ¬ĠduÃ¬Ġ":9677,"shÃ¬ĠbÃ¹":9678,"ĠyÇĲĠdÅįngĠ":9679,"zhÄ«ĠyÃ¬Ġ":9680,"ĠqÅ«ĠzhÃºĠjiÃłnĠ":9681,"ĠxiÃłoĠyÃ¬ngĠ":9682,"chÄĵĠde":9683,"ĠbÃłnĠniÃ¡nĠ":9684,"ĠjÃ¬ngĠsÃłiĠ":9685,"ĠshÅ«ĠchÅ«":9686,"ĠwÃ¡nĠgÅįngĠ":9687,"ĠdÃŃĠshÃ¬ĠnÃŃ":9688,"jÇĲnĠjÃŃ":9689,"pÃłiĠchÅ«":9690,"ĠdÇĲĠzhÃ¬Ġ":9691,"ĠjÃŃĠtuÃ¡nĠjÅ«nĠ":9692,"ĠĠĠjiÇİnĠlÃ¬Ġ":9693,"ĠĠĠyÃ¬Ġ":9694,"ĠpÃ¬Ġ":9695,"ĠdÃłĠduÃ¬Ġ":9696,"ĠzhÃ¨ĠliÇİngĠgÃ¨":9697,"ĠlÃŃĠziĠ":9698,"ĠchuÃ¡nĠmÃ©iĠ":9699,"zÃºĠde":9700,"ĠĠĠ2016":9701,"ĠĠĠ2001ĠniÃ¡nĠ":9702,"ĠshÃłoĠnÇļ":9703,"jÃŃĠxÃŃngĠzhÃ¨ngĠdÄģnĠwÃ¨iĠ":9704,"ĠĠĠzhÄĵngĠyÃ¬Ġ":9705,"ĠpiÄģo":9706,"ĠĠĠY":9707,"ĠzhÅįngĠduÃłnĠ":9708,"ĠshÃŃĠjiÃłnĠ":9709,"ĠjiÄģngĠnÃ¡nĠ":9710,"ĠshÃ¬ĠjÃ¬Ġde":9711,"gÃłoĠsÃ¹":9712,"ĠyÄģngĠ":9713,"ĠĠĠpÇĶ":9714,"ĠyÄ«ĠlÃłiĠ":9715,"xÄ«Ġde":9716,"ĠgÄĵĠgÄĵ":9717,"ĠdÃłnĠshÃ¬ĠzÃłiĠ":9718,"ĠzhuÃłngĠjÄ«":9719,"ruÇİnĠjiÃłnĠ":9720,"spanĠ":9721,"ET":9722,"ĠbÃ¡o":9723,"ÄĵnĠlÃ¡iĠ":9724,"zhÃ¬Ġ198":9725,"ĠjÃ¹ĠdÃłĠde":9726,"Ġ52":9727,"ĠSAO":9728,"ĠÃłiĠlÃ¬Ġ":9729,"mÇĶĠjiÃłnĠ":9730,"ĠxÃ¬ĠliÃ¨Ġde":9731,"kuÃ²ĠzhÇİnĠ":9732,"chÃ¬ĠjÄ«ngĠ":9733,"luÃ³ĠmÇİĠdÃ¬ĠguÃ³":9734,"ĠshÇĲĠmÃ¬ĠsÄ«":9735,"ĠĠĠjÄ«ngĠlÃ¬Ġ":9736,"Ġ130":9737,"ĠyÄ«ĠduÃłnĠ":9738,"ĠbÃ¬ngĠchÃ©ngĠwÃ©iĠ":9739,"zhÃ¹ĠyÃº":9740,"ĠyÃŃnĠwÄĽiĠ":9741,"zhÄĽngĠtÇĲ":9742,"wÄĽiĠyuÃ¡nĠhuÃ¬ĠwÄĽiĠyuÃ¡nĠ":9743,"ĠxiÃłnĠshÃŃĠyÃ³u":9744,"ĠnÃ¹":9745,"Ġma":9746,"ĠshÃ¬ĠyÃ¬ngĠ":9747,"zhÅįngĠjiÄģnĠ":9748,"ĠqÃŃĠB":9749,"ĠshÃ¨ĠjiÄģo":9750,"quÃ¡nĠxiÃłnĠ":9751,"qÄ«Ġde":9752,"hÃ¡nĠgÃłiĠ":9753,"ĠxuÇİnĠjÇĶĠ":9754,"ĠchÃ¡ngĠchÃ¡ngĠ":9755,"ĠshÄģngĠhÃłiĠ":9756,"Ġ154":9757,"biÃ©Ġ":9758,"Ġ000ĠmÃŃngĠ":9759,"tÃ¡iĠbÄĽiĠshÃ¬Ġ":9760,"ĠbÃ¬ĠyÃ¨ĠhÃ²u":9761,"ĠbÃ¹ĠlÃ¡nĠ":9762,"huÃłĠfÄĵnĠ":9763,"bÄĽiĠbÃ¹Ġ":9764,"ĠgÄĵnĠbÄĽnĠ":9765,"nÃłĠlÇĲ":9766,"ĠlÃ³ngĠcÇİo":9767,"ĠxÄ«ngĠxÃ¬Ġ":9768,"Ġ168":9769,"ous":9770,"JĠ":9771,"zÃłiĠjiÄģ":9772,"ĠguÃ³ĠdÃło":9773,"ĠjÄ«ĠdÃ²ngĠ":9774,"dÅįuĠzÃłiĠ":9775,"zhÅįngĠguÃ³Ġ":9776,"xiÃ©ĠdÃ¬ngĠ":9777,"lÇĲngĠdÇİoĠrÃ©nĠ":9778,"ĠĠĠdÃłnĠ":9779,"ĠmiÃłoĠ":9780,"ĠkÇİoĠ":9781,"ĠĠĠ6Ġ":9782,"ĠrÃ©nĠqÃ¬Ġ":9783,"zhÃ¬ĠchÃ©ngĠ":9784,"wÃ©nĠxiÃłnĠ":9785,"jÃ¬ngĠwÃłiĠ":9786,"ĠzhÄģngĠzhuÄģnĠjÃŃĠ":9787,"zÄ«ĠchÇİnĠ":9788,"ĠqiÃ¡ngĠdÃ¹":9789,"ĠnuÃ²ĠfÅ«":9790,"yÃ¹nĠdÃ²ngĠhuÃ¬Ġ":9791,"ĠqÄ«ngĠchÃ¡oĠzhÃ¨ngĠzhÃ¬ĠrÃ©nĠwÃ¹Ġ":9792,"zÅ«ĠjiÃ¨":9793,"0ĠzuÃ²ĠbiÄģoĠwÃ¨iĠ":9794,"6ĠmÇĲĠ":9795,"mÄģ":9796,"ÃłiĠguÃ³":9797,"deĠzÇĴngĠ":9798,"ĠjÃ¬ĠsÃ¬Ġ":9799,"ĠyuÃ¡nĠsÃ¹Ġ":9800,"ĠzhÇĶĠguÇİnĠ":9801,"ĠxiÄģngĠbÇĲĠ":9802,"ĠrÃ¹ĠkÇĴu":9803,"ĠhÃłoĠyuÃ¨ĠtÃ¡iĠ":9804,"xiÇİoĠxuÃ©Ġ":9805,"ĠfÃ¡ngĠjiÄģnĠ":9806,"xiÄģoĠfÃ¨iĠ":9807,"ĠdiÃłnĠshÃ¬ĠjÃ¹":9808,"guÃ³ĠjÃ¬ĠjÄ«ĠchÇİngĠ":9809,"ĠwÃ¨iĠyÃºĠyÃŃnĠjÄ«ngĠ":9810,"ĠqÃŃĠB1900":9811,"0ĠzuÃ²ĠbiÄģoĠwÃ¨iĠchÃ¬ĠjÄ«ngĠ":9812,"sÅ«Ġ":9813,"ÄģnĠxiÃłnĠ":9814,"hÃ¨nĠ":9815,"ĠchuÃ²":9816,"bÃ¹ĠbÄ«ngĠ":9817,"ĠyÃ¬ĠyuÃłnĠ":9818,"ĠjiÄģĠhÃ©":9819,"ï¼İ":9820,"bÇĲĠsÃłiĠzhÅįngĠ":9821,"hÃ©ĠdÃł":9822,"ĠkuÄģ":9823,"jÅ«nĠwÄĽiĠ":9824,"ĠmÄĽiĠcÃ¬Ġ":9825,"ĠfÇİĠlÃ¬ngĠ":9826,"ĠkÄĽĠdÃ¡":9827,"ĠlÃ¡nĠsÃ¨":9828,"yÄ«nĠsÃ¹Ġ":9829,"ĠyuÃłnĠyÃ¬Ġ":9830,"ĠwÇĶĠdÃ©":9831,"ris":9832,"guÇİngĠdÅįngĠshÄĽngĠ":9833,"pÃŃĠ":9834,"ĠxĠ":9835,"zhÄĵ":9836,"ĠyÄ«ĠxiÃłngĠ":9837,"ĠchÃ©ngĠbÇİo":9838,"ĠdÃłnĠwÃ¨iĠ":9839,"ĠkÃ¨ĠsÄ«Ġ":9840,"ĠzhÅįuĠqÄ«":9841,"bÄĽnĠdÃ¬Ġ":9842,"ĠjiÃłoĠqÅ«":9843,"yÄ«nĠsÃ¹":9844,"shÇĴuĠgÃ¨":9845,"ĠtÃŃĠchÅ«Ġle":9846,"ĠcÃ¡iĠwÃ¹":9847,"ĠkÇĴuĠjÃ¬ngĠ":9848,"jiÃłĠzhÃŃ":9849,"ĠzhÃºĠ":9850,"ĠchuÃłngĠshÇĲĠrÃ©nĠ":9851,"ĠduÃ²":9852,"ĠdÃłnĠbÃ¨iĠ":9853,"ĠfÃºĠhuÃł":9854,"ĠshÄģnĠdÃ¬Ġ":9855,"ĠlÇľĠsÃ¨":9856,"jiÇİĠ":9857,"omm":9858,"ÄģĠlÄģ":9859,"ĠzÃ¡Ġ":9860,"ĠgÇİoĠ":9861,"ĠĠĠ3Ġ":9862,"ĠdÃ¬ĠjiÇĶ":9863,"zhÃ¬ĠyÃº":9864,"ĠduÃ¬ĠtÄģ":9865,"ĠlÃ¡iĠshuÅįĠ":9866,"ĠmÇİĠÄĵnĠshÄĽngĠ":9867,"ĠbÄĽiĠhÇİiĠdÃło":9868,"ĠchÃ¡ngĠjiÃłnĠ":9869,"jiÃ¹ĠyuÃ¡nĠ":9870,"ĠsÃ¨ĠcÇİiĠ":9871,"ĠlÇĲngĠdÇİoĠ":9872,"Ġ149":9873,"ĠpÃ©ngĠyÇĴuĠ":9874,"ĠdÃºĠlÃ¬Ġde":9875,"ĠĠĠchÄĵĠzhÃłnĠgÃ²uĠzÃłoĠ":9876,"deĠquÃ¡nĠ":9877,"ĠshÃ¬ĠyÃ¬nĠdÃ¹":9878,"ĠyÇĶĠzhÄ«":9879,"bÃ¨iĠpÃłnĠ":9880,"ĠfÄĵnĠlÃŃ":9881,"jiÃłĠshÇĲ":9882,"huÃłnĠzhÄĽ":9883,"xiÄģoĠshÃ²u":9884,"ĠxuÇİnĠzÃ©Ġ":9885,"12Ġ":9886,"lan":9887,"ĠluÃ¡nĠ":9888,"wÃ¨iĠjÅ«nĠ":9889,"ĠjÃŃĠhÃ²u":9890,"zhÄ«ĠfÃ¹":9891,"dÃłiĠlÇĲ":9892,"ĠcÃ¬ĠliÃ¨ĠchÄĵ":9893,"ĠkuÃ²ĠjiÃłnĠ":9894,"dÅįuĠbÃ¨iĠ":9895,"zÄģoĠshÃ²u":9896,"hĠ":9897,"sk":9898,"ĠÇĴu":9899,"ĠfÄĽngĠ":9900,"zhÅįngĠyÃº":9901,"ĠgÅįngĠdiÃłnĠ":9902,"huÃ¡ĠrÃ©nĠ":9903,"yÃ¹ĠwÃ©iĠ":9904,"ĠlÃ¬ngĠyÄ«ĠzhÇĴngĠ":9905,"ĠyÇİnĠhuÃł":9906,"ĠyÄ«nĠcÇĲĠzÃłiĠ":9907,"ĠyÇĴngĠjiÇĶ":9908,"ĠduÇİnĠzÃłnĠ":9909,"ĠzhuÄ«ĠsÃ¹ĠdÃło":9910,"5ĠgÅįngĠlÇĲĠ":9911,"adi":9912,"ĠcÇİnĠ":9913,"cho":9914,"ĠgÅįngĠjiÄģo":9915,"ĠdÃłĠzÃ¬Ġ":9916,"ĠxÄ«nĠjiÃłnĠ":9917,"ĠbÄĽnĠdÃ¬ĠqÅ«":9918,"wÄĽiĠchÃ¡ngĠwÄĽiĠ":9919,"ĠbÅįĠyÄ«nĠ":9920,"nÃŃĠsÅ«ĠdÃ¡":9921,"ĠcÃŃĠhuÃ¬Ġ":9922,"ĠAr":9923,"ĠhÄĵiĠrÃ©nĠ":9924,"ĠshÃ²uĠhÃłiĠ":9925,"ĠpÃłnĠluÃłnĠ":9926,"ĠluÃ³ĠmÇİĠnÃŃĠyÃł":9927,"dÇİnĠ":9928,"ĠĠĠzhÅįngĠhuÃ¡ĠrÃ©nĠmÃŃnĠgÃ²ngĠhÃ©ĠguÃ³":9929,"ĠshÃ¬ĠbÄģ":9930,"ĠbÃ¹ĠlÃ¬Ġ":9931,"ĠyÄ«ĠsÄ«":9932,"ĠyuÃ¡nĠchÃ¡o":9933,"ĠshÇĴuĠwÃ¨iĠ":9934,"ĠhÃłoĠde":9935,"ĠjiÃłĠzhÃŃĠ":9936,"ĠmÃ©ngĠjÅ«nĠ":9937,"tiÃ¡nĠjÃ¬ngĠ":9938,"shÃ¹nĠlÃ¬Ġ":9939,"ĠĠĠshuÇĲ":9940,"ĠqÃŃĠzhÃ¬Ġ":9941,"yÇĶĠhÃ©":9942,"guÄģnĠdiÇİnĠ":9943,"ĠyÃłoĠwÃ¹":9944,"ĠbÄģĠmÇİ":9945,"ĠgÇİiĠmÃŃngĠ":9946,"ĠÄģĠgÄĵnĠtÃŃngĠ":9947,"ĠgÃ¨ngĠshÃ¬Ġ":9948,"xÃºnĠhuÃŃ":9949,"ĠzhÃ¬ĠliÃ¡oĠ":9950,"fÄĵnĠbÃ¹ĠyÃº":9951,"ĠxiÄģngĠzhÃ¨nĠjÃŃĠxÃŃngĠzhÃ¨ngĠdÄģnĠwÃ¨iĠ":9952,"shÃ¬ĠpÃŃnĠ":9953,"ĠxÄ«ĠshÃ¬Ġ":9954,"xÄ«ĠzÃłngĠ":9955,"niÃ¡nĠlÃŃngĠ":9956,"ĠshÇĴuĠjÄ«":9957,"kÃ¨ĠlÃŃnĠ":9958,"ĠbiÃłnĠhuÃłnĠ":9959,"ĠtiÃ¡nĠjÃ¬ngĠ":9960,"ĠchÅįngĠfÃ¨nĠ":9961,"ĠyÃ©Ġ":9962,"ĠnÃłnĠmÃŃnĠ":9963,"deĠzuÃ¬Ġ":9964,"ĠdeĠxÃŃngĠshÃ¬Ġ":9965,"ĠkÄĽnĠdÃ¬ngĠ":9966,"yuÃ¡nĠyÃº":9967,"ĠdÃłĠlÃŃnĠ":9968,"mÄĽiĠjÅ«nĠ":9969,"ĠtÃŃĠqÃŃnĠ":9970,"mÃ¹ĠsÄ«ĠlÃŃnĠ":9971,"ĠtÇĲĠzhÃ¬Ġ":9972,"ĠyÃ¡ngĠshÃ¬Ġ":9973,"chÃ©ngĠlÃ¬ĠyÃº":9974,"ĠrÇİo":9975,"ÄĽrĠtÃ¨":9976,"ĠzhÃ¬Ġ199":9977,"ĠzhÄ«ĠfÇĶĠ":9978,"jÄ«ĠfÄĵnĠ":9979,"shÄģnĠqÅ«":9980,"mÇİĠtÃ³u":9981,"ĠtiÃ¡oĠwÃ©nĠ":9982,"zÇĴngĠshÅ«ĠjÃ¬Ġ":9983,"ĠshÇĲĠyÃ²ngĠzhÄĽ":9984,"gÄĵĠshÇĴuĠ":9985,"amĠ":9986,"ĠhÃºĠbÄĽiĠ":9987,"yÇĲĠhÃ²u":9988,"qÃ¬ngĠzhÃ¹":9989,"ĠxiÃłnĠdeĠyÃŃĠgÃ¨ĠfÄĵiĠjiÃłnĠzhÃ¬ĠdÃ¬ĠqÅ«Ġ":9990,"guÄģnĠfÃ¨iĠyÃ¡nĠquÃ¨ĠzhÄĽnĠbÃ¬ngĠlÃ¬Ġ":9991,"IV":9992,"ĠxÇĶĠ":9993,"ĠdeĠyÄ«nĠyuÃ¨":9994,"jÃŃĠlÃŃnĠ":9995,"ĠmÇİĠkÃ¨ĠsÄ«":9996,"ĠyÄĽĠmÃ©iĠyÇĴu":9997,"nÃ¡nĠbÃ¹Ġ":9998,"zhÅįuĠcÃ¬ĠshÇĲĠ":9999,"ĠwÃ¹ĠpÇĲnĠ":10000,"ĠdeĠhÃº":10001,"ĠnÃ¨iĠmÃ©ngĠgÇĶ":10002,"ĠliÇİngĠÃłnĠ":10003,"ĠchÇİngĠdÃ¬Ġ":10004,"ĠwÄĵiĠyÃŃ":10005,"ĠhuÃ¡ngĠhÃ²u":10006,"ĠnÃ¨Ġ":10007,"ĠyuÃ¡nĠdÃ¬ngĠ":10008,"yÇĶĠzhÅįngĠ":10009,"shÃłngĠwÇĶ":10010,"ĠzhÃŃĠdÇİoĠ":10011,"ĠgÄģiĠjÃ¹":10012,"mÇİĠÄĽr":10013,"hÃ¡nĠshÃ¹Ġ":10014,"erv":10015,"ĠmÇĲĠÄĽrĠ":10016,"ĠguÃ³ĠfÃ¡ngĠbÃ¹":10017,"ĠbÃłnĠshÃ¬ĠchÃ¹Ġ":10018,"tÅ«nĠ":10019,"ĠĠĠsÄ«":10020,"ĠlÇĲĠjiÄĽ":10021,"mÃŃngĠshÃ¬Ġ":10022,"deĠhÃ³ngĠ":10023,"ĠfÄģngĠchÃ©ngĠshÃ¬Ġ":10024,"ĠtÃŃĠdÃło":10025,"wÇĶĠdÃ¬Ġ":10026,"ĠxuÇİnĠmÃŃnĠ":10027,"Ġ44":10028,"ĠcÄģnĠjiÄģĠ":10029,"ĠzhuÇİnĠrÃ¨nĠ":10030,"dÃ¹ĠhÃ©":10031,"ĠyÇĲngĠxiÇİngĠlÃ¬Ġ":10032,"suÃŃĠjÃŃ":10033,"ĠzÃłiĠ195":10034,"gÄĽiĠle":10035,"ĠzÃºĠqiÃºĠliÃ¡nĠsÃłiĠ":10036,"ĠnÃ¡nĠjÃŃĠtiÃ¡oĠyuÄĵ":10037,"ĠgÄĽnĠdÃ¬Ġ":10038,"²Ġ":10039,"Ã©ĠluÃ³ĠsÄ«Ġ":10040,"ĠmÃ¡iĠ":10041,"ĠlÇĲĠsÄ«Ġ":10042,"ĠzhÇĶĠdÃ²ngĠ":10043,"ĠbÄĽnĠshÅ«":10044,"ĠgÃ©ĠshÃ¬Ġ":10045,"tÃ³ngĠmÃ©ngĠ":10046,"Ġ59":10047,"ĠĠĠ2017":10048,"ĠqiÄģnĠzhÃ¬Ġ":10049,"pÇĶĠzhÃłiĠ":10050,"ĠjÅ«ĠzhÃ¹ĠzÃłiĠ":10051,"ĠpÃłĠÄĽr":10052,"chÃ¨ĠtuÃ¬Ġ":10053,"Ġ1918ĠniÃ¡nĠ":10054,"ĠchÅ«ĠxiÃłnĠle":10055,"uk":10056,"zÃłiĠzhÃ¨":10057,"rÃ©nĠgÅįngĠ":10058,"ĠxuÃ©ĠshÃ¬Ġ":10059,"ĠjiÄģnĠde":10060,"ĠjÃ¬nĠdÃłiĠ":10061,"ĠzÃ¬ĠcÇĲ":10062,"yÃ¡nĠzhÃ¬Ġ":10063,"dÄģnĠmÃłiĠ":10064,"tÃŃĠgÄģo":10065,"nÃłĠxiÄĵ":10066,"tuÅįĠ":10067,"ĠyÃºnĠnÃ¡nĠshÄĽngĠ":10068,"miÇİo":10069,"ĠÄĽrĠfÅ«":10070,"xÃ¬ĠjÃ¹":10071,"ineĠ":10072,"ĠfÃ¹ĠqÄ«nĠshÃ¬Ġ":10073,"ĠsuÅįĠxiÄĽĠ":10074,"ĠĠĠdiÃłnĠyÇĲngĠ":10075,"ĠgÅ«Ġ":10076,"deĠchuÃ¡nĠ":10077,"deĠbÃ¹ĠfÃ¨nĠ":10078,"deĠjuÃ©ĠduÃ¬Ġ":10079,"ĠdÃ¬Ġ4":10080,"ĠxÄ«ĠlÃŃnĠ":10081,"ĠlÇĲĠkÃ¨":10082,"ĠyÃ¡nĠsÃ¨":10083,"ĠliÃºĠjÄ«ngĠ":10084,"ĠjiÃ¹ĠxiÃłngĠ":10085,"ĠhuÃŃĠguÄ«":10086,"Ġ1924ĠniÃ¡nĠ":10087,"ĠqÃŃngĠkuÃłngĠxiÃłĠ":10088,"ĠgÄĵngĠhuÃłnĠ":10089,"Ġ1909ĠniÃ¡nĠ":10090,"zÃºĠqiÃºĠyÃ¹nĠdÃ²ngĠyuÃ¡nĠ":10091,"liÇİoĠjiÄĽ":10092,"ĠguÄģnĠzhuÃłngĠbÃ¬ngĠdÃºĠbÃ¬ngĠ":10093,"pÄģngĠ":10094,"Ġë":10095,"ĠĠĠtÃ¡ngĠ":10096,"ĠĠĠzhÃ¨Ġge":10097,"ĠxiÄģ":10098,"ĠyÇĶĠwÃ©nĠ":10099,"ĠxÃŃngĠshÇĲ":10100,"ĠxiÄģngĠcÅ«nĠ":10101,"ĠlÄģĠmÇĶ":10102,"ĠjiÃłoĠshÄ«Ġ":10103,"jÃ¬nĠrÃ¹Ġ":10104,"ĠyÃ¹ĠcÃ¨":10105,"ĠshÄ«ĠzhÇİngĠ":10106,"shÄĵnĠtÇĲ":10107,"nÃłĠrÃ¹":10108,"ĠhÄģĠsÃłĠkÃ¨":10109,"ity":10110,"ĠĠĠqÃ¬Ġ":10111,"ĠĠĠxiÄģngĠguÄģnĠ":10112,"ĠzÃłiĠqiÃ¡nĠ":10113,"ĠjÃ¬ĠrÃ¨nĠ":10114,"ĠhuÃ¬ĠyÇĴu":10115,"ĠleĠduÃ¬Ġ":10116,"ĠrÃ¨nĠnÃ¨iĠ":10117,"shÄĵngĠyÃ¡":10118,"ĠshÇĲĠzhÅįngĠ":10119,"ĠzÄ«ĠshÄĽngĠ":10120,"yÄ«ngĠbÃłngĠ":10121,"ĠwÄĵiĠruÇİnĠ":10122,"cÄģnĠtÄ«ngĠ":10123,"ĠguÃ³ĠjiÄģĠgÅįngĠyuÃ¡nĠ":10124,"tÃŃngĠyÃ¹nĠ":10125,"ĠdeĠyÄ«ĠxiÄĵ":10126,"ĠpÄ«ĠpÃłnĠ":10127,"2ĠgÃ¨":10128,"af":10129,"deĠmÄĽiĠguÃ³":10130,"ĠbÃ¹ĠshÃ¬Ġ":10131,"jÃŃĠjiÄģngĠ":10132,"ĠrÃ¨nĠtiÄģnĠtÃ¡ngĠ":10133,"ĠduÅįĠxiÃłngĠ":10134,"zhÃ¹ĠyÃ¬Ġ":10135,"ĠliÃ¡nĠduÃ¬Ġ":10136,"ĠhÃ²uĠyÃ²u":10137,"ĠbÄĽnĠkÄĵ":10138,"ĠshÇĲĠtÄģ":10139,"zhÃ²ngĠyÃłoĠ":10140,"fÃºĠde":10141,"ĠmÃ³ĠÄĽr":10142,"shÄģĠsÇĲ":10143,"end":10144,"ĠkÄģiĠshÇĲĠzÃłiĠ":10145,"ĠniÇĶĠ":10146,"ĠtÅįngĠchÃ¡ngĠshÃ¬Ġ":10147,"ĠmÃŃnĠzÃºĠzhÇĶĠyÃ¬Ġ":10148,"ĠgÄģiĠcÅ«nĠshÇĲĠjiÃłnĠyÃº":10149,"lic":10150,"zhÃ¨ĠshÃ¬Ġ":10151,"ĠhÃ²uĠwÃ¨iĠ":10152,"biÃłnĠhuÃł":10153,"ĠxÃ¬nĠrÃ¨nĠ":10154,"ĠyÃ¡nĠjiÅ«ĠshÄĵngĠ":10155,"Ġãĥ³":10156,"ĠshÃ¬ĠwÃ¨iĠyÃºĠmÄĽiĠguÃ³ĠmÃ¬Ġ":10157,"ĠnÃ¡nĠjÃŃĠtiÃ¡oĠyuÄĵĠtÇĲĠxÃ¬Ġ":10158,"tÃ¨ĠÄĽr":10159,"ĠjÃŃĠbiÃ©":10160,"yÄ«ĠchÃ¡ngĠ":10161,"yÃ¬ĠzhÃ¬Ġ":10162,"ĠdÃłnĠshÄĵngĠ":10163,"duÃ¬ĠwÇĶ":10164,"ĠhÃ²uĠyÄ«nĠ":10165,"ĠdÅįngĠyÃł":10166,"ĠcÇĲĠlÃ¨iĠ":10167,"zhÃ²ngĠde":10168,"ĠgÄĵĠchÃłngĠ":10169,"ĠpÇĶĠlÃŃnĠ":10170,"ĠdiÇİnĠde":10171,"ĠwÅ«ĠdÇĲngĠ":10172,"Ġ166":10173,"ĠdÇİĠpÃ²":10174,"ĠguÃ³ĠjÃ¬ĠjÄ«ĠchÇİngĠ":10175,"ĠbÄģoĠwÃ©iĠ":10176,"ĠcuÃ²ĠshÄ«Ġ":10177,"luÃ³ĠmÇİĠnÃŃĠyÃł":10178,"CD":10179,"ĠsĠ":10180,"ĠĠĠcÄģnĠkÇİo":10181,"ĠzÃłiĠbÃ¨iĠ":10182,"ĠbÃ¹ĠzhÃ¨ngĠ":10183,"zÃłiĠgÄģiĠ":10184,"zhÅįngĠzuÃ¬Ġ":10185,"lÃ¬ĠyÃ¬Ġ":10186,"ĠzhÃ¨ĠliÇİngĠ":10187,"xiÃłnĠrÃ¹":10188,"dÄĽngĠzhÃŃĠ":10189,"zÇĶĠhÃ©Ġ":10190,"Ġ56":10191,"ĠfÃ¨iĠchÃº":10192,"ĠfÄģngĠmiÃłnĠde":10193,"ĠbÃłĠ":10194,"18ĠniÃ¡nĠ":10195,"2ĠmÇĲĠ":10196,"ĠĠĠmÃ¹":10197,"ĠĠĠshÃ¨ĠhuÃ¬Ġ":10198,"ĠwÃ¨iĠjiÃłnĠ":10199,"tÄģĠshÃ¬Ġ":10200,"ĠkÄĵĠxiÇİoĠxÃŃngĠxÄ«ngĠ":10201,"ĠqÄ«ngĠxiÃłngĠ":10202,"ĠrÃ©nĠmÃŃnĠfÇİĠyuÃłnĠ":10203,"ĠlÇĲĠhÃ©":10204,"chuÄģnĠxiÃłnĠ":10205,"ĠyÇĲĠhÃ²uĠ":10206,"lÃ¬ngĠrÃ©nĠ":10207,"xÃŃĠjÄ«Ġ":10208,"zÄģoĠyÃ¹":10209,"ĠĠĠ1949ĠniÃ¡nĠ":10210,"hÄĵngĠlÃ¬Ġ":10211,"CA":10212,"nÇİoĠ":10213,"ong":10214,"zhÄ«ĠdÃ¬Ġ":10215,"zhÄ«ĠshÃŃ":10216,"ĠdÃłiĠmÇİĠwÃ¨iĠ":10217,"chÅ«ĠdÃłoĠ":10218,"ĠzuÃ¬ĠwÃ¨iĠ":10219,"ĠkÄĵĠhuÃłnĠ":10220,"ĠzhÇĲĠdeĠshÃ¬Ġ":10221,"ĠchÇİngĠde":10222,"ĠzhuÇİnĠhuÃ¬Ġ":10223,"ĠzuÃ¬ĠzhÅįngĠzÃłiĠ":10224,"ĠdÅįngĠnÃ¡nĠbÃ¹Ġ":10225,"layStationĠĠĠ":10226,"itĠ":10227,"zhÅįngĠzhÃ¨ngĠ":10228,"ĠdÃłĠpÄ«":10229,"ĠxuÃ©ĠzhÄĽĠ":10230,"zhÃłnĠhÃ²u":10231,"jÄ«ngĠlÇĲ":10232,"ĠwÃ¨iĠyÃºĠzhÅįngĠhuÃ¡ĠrÃ©nĠmÃŃnĠgÃ²ngĠhÃ©ĠguÃ³":10233,"dÇĲĠcÃ©ngĠ":10234,"yÃ¡nĠjiÅ«ĠyuÃłnĠ":10235,"ĠnÃ¡nĠjÃŃĠtiÃ¡oĠyuÄĵĠtÇĲĠxÃ¬ĠguÇİnĠlÇĲĠ":10236,"ĠshÇĴuĠde":10237,"ĠjÅ«nĠrÃ©nĠ":10238,"miÃłnĠlÃŃnĠ":10239,"ĠwÃ¡ngĠwÃ¨iĠ":10240,"ĠyÃ²ngĠtÃº":10241,"ĠjÇĲnĠcÃ¬ĠyÃº":10242,"ĠĠĠ2023":10243,"yÃ¡oĠ":10244,"qiÄģo":10245,"ĠdeĠshÃ¨ĠjÃ¬Ġ":10246,"ÃłnĠlÃ¬Ġ":10247,"shÃŃĠrÃ¨nĠ":10248,"ĠxÄ«nĠxÄ«ngĠ":10249,"ĠmiÃłnĠlÃŃnĠ":10250,"ĠcÇĲĠshÃ¬Ġ":10251,"ĠgÇİiĠgÃ©Ġ":10252,"yÇĲnĠyÃ²ngĠ":10253,"ĠlÃ¬ĠshÇĲĠxuÃ©ĠjiÄģ":10254,"ĠzÃºĠqiÃºĠjÃ¹ĠlÃ¨ĠbÃ¹Ġ":10255,"ĠfÇĴuĠrÃ¨nĠ":10256,"tÃł":10257,"ãĤ":10258,"ĠsÃºĠ":10259,"ĠcÄģiĠ":10260,"hÃ©ĠyuÄĵĠ":10261,"ĠzÃłiĠyuÃ¡nĠ":10262,"nÃ¡nĠfÄģngĠ":10263,"ĠmÃŃnĠzÃºĠ":10264,"xiÃłoĠyÃ¬ngĠ":10265,"ĠjiÄģĠrÃ¹Ġle":10266,"jÅ«ĠmÃŃnĠdiÇİnĠ":10267,"cÃ¹ĠjÃ¬nĠ":10268,"UN":10269,"nÃ¹":10270,"shÃłngĠshÄĵngĠ":10271,"ĠzhÅįuĠkÄģnĠ":10272,"jiÄģnĠdÅ«":10273,"ĠzÇĶĠxiÄģnĠ":10274,"gÇİiĠzÃło":10275,"ĠÃ¨rĠ":10276,"ĠyÇĲĠhÃ²u":10277,"ick":10278,"ĠchÇİnĠshÄĵngĠle":10279,"ÄģĠjÄ«":10280,"ĠdeĠzhÃ¨ngĠ":10281,"ĠyÄ«nĠmÃ³u":10282,"ĠliÃ¡nĠjÅ«nĠ":10283,"ĠzÇĴngĠlÇĲĠ":10284,"xiÇİoĠpÃŃngĠ":10285,"ĠtÃ³ngĠniÃ¡nĠ11":10286,"ĠxiÄĽĠdÃłoĠ":10287,"ĠzÃłiĠ193":10288,"ĠyÄ«ĠlÃ¬ĠnuÃ²":10289,"ÇĲĠyÄģ":10290,"ĠlÃ¹ĠyÄ«nĠ":10291,"ĠjÃ¹ĠshuÅį":10292,"ĠdÃ¬ngĠqÄ«":10293,"ĠxÃ¬ngĠshÃ¬Ġ":10294,"ĠqÄ«ngĠdÃłiĠ":10295,"ĠnÃłĠde":10296,"ĠcÄģnĠjiÃłnĠ":10297,"ĠpÇĲnĠzhÃ¬Ġ":10298,"ons":10299,"ĠyÃ³uĠxÃ¬Ġde":10300,"xiÄĽĠdÃłoĠ":10301,"zÇĶĠzhÄ«Ġde":10302,"ĠzhÃ¬ĠzuÃ²Ġde":10303,"ĠsÄģiĠbÃłiĠjiÄģngĠ":10304,"gÄģ":10305,"ĠtuÇĲ":10306,"ĠwÃ¨iĠcÇĲ":10307,"ĠyuÃ¡nĠhÃ©":10308,"xÄ«ĠxÄ«":10309,"ĠqiÃ¡nĠzhÄĽ":10310,"Ġ57":10311,"ĠÃłoĠzhÅįu":10312,"ĠpÃŃĠfÅ«":10313,"nÃ³ngĠcÅ«nĠ":10314,"ĠĠĠandĠĠĠ":10315,"guÃ³ĠwÃ¹ĠyuÃłnĠ":10316,"ĠyÇĴuĠxÇĶĠduÅį":10317,"wÃ©iĠwÃºĠÄĽr":10318,"hÃºĠbÄĽiĠ":10319,"ĠguÄģnĠzhÃ¹Ġ":10320,"ĠxiÃłngĠdÅįngĠ":10321,"jiÃ¨Ġde":10322,"ĠshÃ¨ngĠyÃº":10323,"ĠlÇĲngĠtÇĶĠ":10324,"ĠrÃ³ngĠliÃłngĠ":10325,"ĠyÃ¡nĠjiÅ«ĠyuÃłnĠ":10326,"rop":10327,"ĠnÃ¡ĠpÃ²ĠlÃºnĠ":10328,"ĠchÃ¨ĠtuÃ¬Ġ":10329,"ĠzÇĴuĠxiÃłngĠ":10330,"ĠsÇĶnĠshÄ«":10331,"mÄĽiĠguÃ³ĠrÃ©nĠkÇĴuĠpÇĶĠchÃ¡Ġ":10332,"TAT":10333,"luÃ¡nĠ":10334,"shÃ¬ĠyÃ¨":10335,"2000":10336,"dÃłĠqÃ¬Ġ":10337,"ĠdÃ©ĠpiÃło":10338,"ĠfÄĵnĠzhÄ«Ġ":10339,"ĠmÇİĠlÇĲ":10340,"lÃ¹ĠzhÃ¬Ġ":10341,"shÇĴuĠbÅįĠ":10342,"jiÄĵĠdÃłoĠ":10343,"ens":10344,"zhÄĵnĠsÃ¬Ġ":10345,"Ġ1925ĠniÃ¡nĠ":10346,"AI":10347,"manĠ":10348,"hÃ©ĠhÃ©":10349,"wÃ¨iĠ1":10350,"zÃłiĠnÃ¨iĠde":10351,"ĠtÄģĠcÃ³ngĠ":10352,"ĠjÃ¬ĠnÃ©ngĠ":10353,"duÃ¬ĠxiÃłngĠ":10354,"ĠhÃ²uĠxÃ¹":10355,"ĠcÅ«nĠmÃŃnĠ":10356,"bÃ¡iĠsÃ¨":10357,"Ġ1914ĠniÃ¡nĠ":10358,"ĠjiÄĽĠfÃłngĠjÅ«nĠ":10359,"chÃ¡iĠyÃ³uĠjÄ«":10360,"ĠxÅ«Ġ":10361,"ĠsÄģnĠdÃł":10362,"chÃ¡oĠtÃŃngĠ":10363,"mÃ¬ĠmÃ¬Ġ":10364,"ech":10365,"deĠshÃŃĠhÃ²uĠ":10366,"ĠzÃłiĠxiÃłnĠ":10367,"yÄ«ĠzhÃŃĠ":10368,"ĠzhÃłnĠshÃ¨ngĠ":10369,"ĠguÄģnĠliÃ¡nĠ":10370,"ĠsuÃ¬ĠshÃŃĠ":10371,"ĠĠĠyÃ¹":10372,"ĠyÇĲĠwÇİngĠ":10373,"ĠbÃ¨iĠrÃ¨nĠwÃ©iĠ":10374,"ĠbÃ³ĠgÃ©":10375,"ĠyÃ¨Ġde":10376,"Ġ2021":10377,"ĠxiÅ«ĠfÃ¹":10378,"ĠhuÃ¡nĠqiÃº":10379,"CT":10380,"SS":10381,"uni":10382,"ĠĠĠmÃŃnĠguÃ³":10383,"wÃ¨iĠdÃ¬Ġ":10384,"ĠhuÃ¬ĠbÃ¨iĠ":10385,"ĠbÃ¬ngĠduÃ¬Ġ":10386,"ĠzhÃłnĠzÇĴngĠrÃ©nĠkÇĴu":10387,"ĠxÄ«nĠzhÃº":10388,"ĠsÄģnĠjiÇİ":10389,"ĠgÃ©ĠlÃ¡iĠ":10390,"ĠwÇĶĠshÃ¬Ġ":10391,"ĠjiÃ¹ĠzÃłiĠ":10392,"nÃ©ngĠyuÃ¡nĠ":10393,"ĠjiÇİnĠshÇİoĠ":10394,"ĠchÃ³ngĠfÇİnĠ":10395,"att":10396,"zhÅįngĠxÄ«nĠde":10397,"suÃŃĠzhe":10398,"zhÃ¨ngĠzhÃ¬ĠjÃº":10399,"ĠtÃºĠÃłnĠ":10400,"yst":10401,"ĠĠĠzhÃ¨ĠxiÄĵ":10402,"hÃ©ĠyÄ«":10403,"ĠbÃ¹ĠqiÄģngĠ":10404,"shÃŃĠpÇĲnĠ":10405,"ĠzhÃ¬ĠhuÃ¬Ġ":10406,"ĠjiÄģngĠyÃº":10407,"ĠfÄĵiĠÄĽrĠdÃ©":10408,"bÃ³ĠlÃŃnĠ":10409,"jiÇİngĠshÃ¹":10410,"ĠÐ¾":10411,"osĠ":10412,"ĠĠĠ13":10413,"ĠxuÃłnĠ":10414,"ĠdeĠbÃ¹ĠfÃ¨nĠ":10415,"ĠyuÃ¡nĠyÇĴu":10416,"ĠshÃ¨ĠxiÃłnĠ":10417,"ĠqiÃ¡nĠde":10418,"ĠshÇĴuĠduÃłnĠ":10419,"lÃ¡iĠshuÅį":10420,"ĠlÃ¨iĠde":10421,"ĠmÇĲĠlÃ¡nĠ":10422,"ĠshÃ¬ĠjiÃ¨ĠshÃłngĠ":10423,"fÄģngĠmiÃłnĠde":10424,"ĠzÇĶĠchÃ©ngĠbÃ¹ĠfÃ¨nĠ":10425,"ĠzhÇĲĠhuÄ«ĠguÄģnĠ":10426,"ÄģnĠnÃłĠzhÅįu":10427,"ĠshÃ¬ĠjuÃ©":10428,"ĠlÃ¬ĠtÃ¡oĠwÇİnĠ":10429,"shÃŃĠsÃ¬Ġ":10430,"bÃ¹ĠjÇĲnĠ":10431,"ĠdÃłĠzhÃ¨ngĠ":10432,"Ġ1919ĠniÃ¡nĠ":10433,"yÄ«ĠzhÄ«":10434,"ĠkÃ¨ĠlÇĶ":10435,"ĠyÃ¡nĠlÃ¹nĠ":10436,"ĠdÄģnĠxÄ«nĠ":10437,"ĠchÃ¡ngĠzhÃ¹":10438,"ĠniÃ¡nĠ10ĠyuÃ¨Ġ1ĠrÃ¬Ġ":10439,"NH":10440,"±Ġ":10441,"ĠdÃ¬ĠtÃº":10442,"ĠdÃłĠjiÄģ":10443,"ĠdÃłĠlÇĲ":10444,"yÄ«ĠzuÃ²":10445,"fÄģngĠyÃ¡nĠ":10446,"ĠchÅ«ĠdÃło":10447,"ĠxiÄģngĠliÃ¡nĠ":10448,"ĠqÄ«ĠzÇĲĠ":10449,"ĠsÃ¹ĠsÃ²ngĠ":10450,"ond":10451,"deĠshÄĵngĠ":10452,"zÃłiĠbÄĽiĠjÄ«ngĠ":10453,"bÃ¹ĠjÃŃ":10454,"ĠtÃ¨ĠlÇİngĠpÇĶ":10455,"ĠdÅįngĠrÃ¬ĠbÄĽnĠ":10456,"ĠgÇĶĠdÅįngĠ":10457,"ĠdÃ¹Ġde":10458,"liÇİngĠguÃ³":10459,"Ġ153":10460,"ĠjÇĶĠzhÃ¨nĠ":10461,"shÅįuĠcÃ¡ngĠ":10462,"ĠHĠ":10463,"ĠfÄĵnĠbÃ¹ĠzÃłiĠ":10464,"Ġ1922ĠniÃ¡nĠ":10465,"ĠhuÃ¡iĠyÃŃ":10466,"ĠdiÃ©Ġ":10467,"pÃŃngĠyuÃ¡nĠ":10468,"jiÃ©ĠguÇĴĠ":10469,"ĠshÄĽngĠdÃło":10470,"ĠxiÃłnĠshÃŃĠyÃ³uĠnÃ¡nĠjÃŃĠtiÃ¡oĠyuÄĵĠtÇĲĠxÃ¬ĠguÇİnĠlÇĲĠ":10471,"nÃ¡ngĠ":10472,"Ã©ĠwÃłiĠ":10473,"ĠpÃ¨ngĠ":10474,"ĠyÃŃĠdÃłnĠ":10475,"yÇĲĠbÄĽiĠ":10476,"ĠdÃłiĠtÃ¬Ġ":10477,"ĠfÃºĠlÃ¬Ġ":10478,"ĠmÄĽiĠguÃ³ĠguÃ³ĠjiÄģ":10479,"ĠjiÇİĠjÄ«":10480,"ĠfÃ¹ĠzÃ©ĠrÃ©nĠ":10481,"chÃłĠ":10482,"âĪĴ":10483,"Ã©ĠjÅ«nĠ":10484,"ĠdeĠwÃłiĠ":10485,"chÇĴu":10486,"ĠzÃłiĠbÄĽiĠjÄ«ngĠ":10487,"ĠyÄ«ĠrÃ©nĠ":10488,"ĠbÃ¨iĠrÃ¨nĠmÃ¬ngĠwÃ¨iĠ":10489,"ĠxiÃ©ĠdÃłiĠ":10490,"zÄ«ĠbÄĽnĠ":10491,"ĠdÇİngĠzÇĶ":10492,"jiÃ©ĠshÃ¹ĠhÃ²u":10493,"ĠlÃ¨iĠsÃ¬Ġde":10494,"ĠpÃ¡iĠmÃŃngĠdÃ¬Ġ":10495,"ĠĠĠzhÃ¬ĠzuÃ²Ġ":10496,"ĠchuÃŃĠzhÃŃ":10497,"edi":10498,"ĠrÃ¬ĠbÃłoĠ":10499,"bÃ¹ĠzÃºĠ":10500,"gÅįngĠdÇİ":10501,"jÄ«ĠzhÃ²ngĠ":10502,"ĠyÄ«nĠsÃ¹Ġ":10503,"ĠxiÄģngĠjÃ¬Ġ":10504,"jÄ«ngĠdiÇİnĠ":10505,"ĠluÃ³ĠmÃ©nĠ":10506,"Ġ2015":10507,"ĠqÇĲĠdiÇİnĠ":10508,"bÄģnĠjiÇİngĠ":10509,"Ġ176":10510,"zÄĵngĠqiÃ¡ngĠ":10511,"tuÄ«ĠjiÃłnĠ":10512,"dÃ²uĠzhÄĵngĠ":10513,"olspanĠ":10514,"ĠchÇĲĠcÃ¹nĠ":10515,"ĠbÃ¹ĠdÃ©ĠbÃ¹":10516,"ĠshÃ¬ĠpÃ¡iĠ":10517,"ĠchÇĴngĠ":10518,"ĠxÄ«ĠcÃ¨":10519,"dÃ©Ġde":10520,"dÃ©ĠlÄģ":10521,"ĠshÃ¨ngĠdÃ¬Ġ":10522,"ĠgÇİiĠjiÃłnĠ":10523,"ĠtÃ¡ngĠnÃł":10524,"ĠhÃ¡nĠgÃłiĠ":10525,"ĠshÃ¹nĠzhÃ¬Ġ":10526,"thĠ":10527,"ĠchuÃ¡nĠtÇĴngĠde":10528,"tuÃ¬ĠchÅ«":10529,"fÃ¹ĠzÃ©Ġ":10530,"enterĠ":10531,"ĠĠĠwÃłiĠbÃ¹":10532,"hÃ©ĠyuÄĵ":10533,"ĠlÃ¬ĠÄģnĠ":10534,"yÇĴuĠxiÄĵ":10535,"ĠzhÇĶĠquÃ¡nĠ":10536,"ĠshÃ¹ĠshÃŃ":10537,"shÃ¨ĠjÄ«":10538,"ĠxiÃłngĠbÄĽiĠ":10539,"ĠfÄĵiĠjÄ«Ġ":10540,"yÃłĠde":10541,"ĠyÇİnĠzÃ²u":10542,"tiÄģnĠwÃ©nĠxuÃ©":10543,"ĠcÃ¡iĠliÃłoĠ":10544,"ĠkÄĽĠyÇĲĠtÅįngĠguÃ²":10545,"ĠĠĠ2022":10546,"ĠcÄģnĠyÃ¹Ġle":10547,"ĠtÃłiĠyÃ¡ngĠgÅįngĠ":10548,"ĠzhÃ¬ĠlÃ¬ĠyÃº":10549,"ĠdeĠdiÃłnĠ":10550,"shÃ¬ĠjÃŃ":10551,"ĠjiÄģnĠyÃ¹":10552,"chÅ«ĠsÃłiĠ":10553,"ĠjÄ«nĠgÄģngĠ":10554,"ĠjiÄĵĠrÃ¨nĠ":10555,"ĠfÄģngĠde":10556,"ĠyÃ¡nĠjiÅ«ĠsuÇĴĠ":10557,"ĠyÃ¬ngĠduÃ¬Ġ":10558,"ĠxiÅ«ĠsÄ«":10559,"deĠdÃ¬ĠsÄģnĠ":10560,"ĠliÃ¡oĠ":10561,"00ĠwÃłnĠmÄĽiĠyuÃ¡nĠ":10562,"nÃ¨iĠruÃ¬ĠlÄģ":10563,"ĠgÄĽngĠ":10564,"ĠdeĠchÃ©ngĠjÃ¬Ġ":10565,"ĠhÅ«Ġ":10566,"ĠgÅįngĠgÃło":10567,"zhÃłnĠlÃ¼Ã¨":10568,"ĠdeĠÃłiĠ":10569,"ĠwÇĶĠshÃŃ":10570,"ĠwÇĶĠdÇİo":10571,"ĠtÃ³uĠbÃ¹":10572,"ĠĠĠ2015":10573,"ĠgÇİnĠqÃŃngĠ":10574,"Ġ1923ĠniÃ¡nĠ":10575,"Ã¨rĠshÃŃĠniÃ¡nĠ":10576,"ĠxuÃ©ĠxÃ¬Ġ":10577,"ĠliÃłngĠde":10578,"bÃ¬ngĠqiÄĽ":10579,"ĠnÇļĠyÇİnĠyuÃ¡nĠ":10580,"ĠpÇĲnĠzhÇĴngĠ":10581,"xuÄģnĠchÄĵngĠ":10582,"ohnĠĠĠ":10583,"ĠhÃ©ĠdÃłoĠquÃ¡nĠzhÇİngĠ":10584,"ĠzÅįu":10585,"ĠĠĠsÃ¬Ġ":10586,"ĠĠĠÐ":10587,"ĠdÃłĠshÄ«":10588,"Ã©rĠbÃ¹":10589,"ĠdÃ©ĠlÄģ":10590,"ĠbÃ¬ngĠwÃº":10591,"ĠyÄ«nĠyÃ¬ngĠ":10592,"ĠjÃ¬nĠjÃŃ":10593,"ĠhuÃ²ĠwÃ¹":10594,"ĠhuÃ²ĠshÃ¨ngĠ":10595,"miÃłnĠshÃłngĠ":10596,"yÃ¹ĠjÃ¬Ġ":10597,"ĠbiÃłnĠshÃ¬Ġ":10598,"ardĠĠĠ":10599,"endĠ":10600,"ĠdeĠdÃ¬ĠsÄģnĠ":10601,"jiÄģngĠsÅ«ĠshÄĽngĠ":10602,"ĠrÃ©nĠshÄĵngĠ":10603,"ĠjiÄģĠxiÄģngĠ":10604,"ĠshÄĵngĠgÃ©ĠwÃ¨iĠ":10605,"ĠbÃ¬ngĠhuÃ²ĠdÃ©":10606,"zhÃłnĠchÇİngĠ":10607,"ĠcÃ©ngĠdÄģnĠrÃ¨nĠ":10608,"ĠwÃ¡ngĠzÇĲ":10609,"ĠshÃ©nĠshÃ¨ngĠ":10610,"ĠdÃºĠtÃ¨Ġde":10611,"mÃ³Ġ":10612,"ĠzhÄ«ĠchÃŃĠzhÄĽ":10613,"ĠxiÄģngĠtÃ³ngĠde":10614,"3ĠmÇĲĠ":10615,"8ĠmÇĲĠ":10616,"hÃ¹ĠshÃŃĠdÃłiĠ":10617,"zÃłiĠbÄĽiĠ":10618,"zhÃ¬Ġ1":10619,"ĠlÇĲĠyÃ³u":10620,"ĠpÃŃngĠmÃŃnĠ":10621,"ĠliÃ¡nĠjiÄĵĠ":10622,"ĠshÄĵnĠshÃłngĠ":10623,"yÃ¹nĠyÃ²ngĠ":10624,"ĠlÃ¨iĠwÃ¨iĠ":10625,"ĠkÄĵĠlÃ¬Ġ":10626,"ĠbÄĽnĠcÃ¬Ġ":10627,"fÃ¹ĠzhÇĶĠxÃŃĠ":10628,"qiÃºĠbÇĲĠsÃłiĠ":10629,"jiÄģnĠchÃ¡":10630,"liÃ¨ĠbiÇİoĠ":10631,"xÃŃĠwÃ¨iĠ":10632,"ĠwÇİnĠniÃ¡nĠ":10633,"ĠmÃ¨ngĠxiÇİngĠ":10634,"ĠÄģĠÄĽrĠbÄĵiĠsÄ«":10635,"ĠhÃ©ĠnÃ¡nĠshÄĽngĠ":10636,"dÅįngĠbÃ¹ĠshÃŃĠqÅ«Ġ":10637,"ĠĠĠzhÃŃĠyÃ¨ĠshÄĵngĠyÃ¡Ġ":10638,"hÃ©ĠxÄ«":10639,"ĠdeĠzhÃŃ":10640,"chuÄ«":10641,"ĠbÃ¹ĠmÃŃngĠ":10642,"ĠzhÃ¨ĠyÄĽ":10643,"ĠyÃŃĠdÃ¬ngĠde":10644,"sÄ«ĠtÃ¨Ġ":10645,"ĠliÃ¡nĠjiÃ©":10646,"fÇİĠde":10647,"ĠbÃ³ĠjuÃ©":10648,"ĠtiÃ¡oĠyuÄĵĠ":10649,"ĠmÃ¬ĠdÃ¹":10650,"wÄĵiĠÄĽr":10651,"ĠnÃ³ngĠchÇİngĠ":10652,"ĠhÃ¨ĠÄĽr":10653,"Uni":10654,"deĠguÃ³ĠjiÄģ":10655,"ĠzÃłiĠshÃłngĠ":10656,"ĠwÃ¨iĠtÃ¡iĠwÄģnĠ":10657,"ĠrÃ©nĠdÅįu":10658,"pÃŃngĠgÅ«":10659,"huÃ²ĠshÃ¨ngĠ":10660,"ĠzÃ©ĠzÃłiĠ":10661,"ĠshÄ«ĠdÃ¬Ġ":10662,"gÇĶĠwÅ«":10663,"cÃ¨ĠqÃ¬Ġ":10664,"shÅįuĠdÃło":10665,"ĠmÃ¹ĠÃ©r":10666,"ĠhuÃłnĠchÃ©ngĠ":10667,"ĠyÃºĠ2012ĠniÃ¡nĠ":10668,"ĠqÃŃngĠkuÃłngĠxiÃł":10669,"wÃłngĠyuÇİnĠjÃ¬ngĠ":10670,"jiÃłnĠlÃ¬Ġle":10671,"MS":10672,"ci":10673,"ĠpÄģo":10674,"zÃłiĠxÄ«nĠ":10675,"ĠxuÃ©ĠshÃ¬ĠxuÃ©ĠwÃ¨iĠ":10676,"xÃŃngĠtÃłiĠ":10677,"jiÄģĠlÃ¬Ġ":10678,"ĠpÃŃngĠgÅ«":10679,"ĠfÄĵnĠzÇĲ":10680,"ĠjiÃ©ĠchÅ«":10681,"ĠshÇĲĠjÃ¬Ġ":10682,"ers":10683,"fÄĵngĠgÃ©Ġ":10684,"ĠyÃ¨ĠwÃ¹Ġ":10685,"ĠĠĠdÃ¬ĠsÄģnĠ":10686,"ĠESTĠ":10687,"ĠzÃłiĠzhÃ¨Ġge":10688,"ĠdeĠtÃ¨ĠyÇĴu":10689,"ĠhÅįngĠzhÃłĠjÄ«":10690,"4ĠniÃ¡nĠ12":10691,"rÇİoĠ":10692,"ĠĠĠyÄ«nĠwÃ¨iĠ":10693,"ĠĠĠbÇĲĠsÃłiĠ":10694,"deĠzhÃ¨ngĠzhÃ¬Ġ":10695,"ĠshuÃŃ":10696,"Ä«ngĠpÄģngĠ":10697,"ĠĠĠZ":10698,"ĠwÃ¨iĠdÃł":10699,"zhÃ¬ĠzÃłiĠ":10700,"ĠliÃ¡nĠtÃ³ngĠ":10701,"ĠcÇĲĠjÇĶ":10702,"jÃ¹ĠhÃ©":10703,"Ġ165":10704,"Ġ145":10705,"ĠyÃºĠ2015ĠniÃ¡nĠ":10706,"owĠ":10707,"tuÃ¬ĠxiÅ«Ġ":10708,"ĠwÃ¨iĠyÃºĠfÇİĠguÃ³ĠÃło":10709,"ĠĠĠzhÃ¨ĠkÄĵĠxiÇİoĠxÃŃngĠxÄ«ngĠ":10710,"ĠchÃłĠ":10711,"ĠshÃ¬ĠyÄ«ĠkÄĵĠwÃ©iĠrÃło":10712,"Th":10713,"bĠ":10714,"to":10715,"ĠrÃ¡o":10716,"ĠjÃŃĠqÃŃĠtÄģ":10717,"ĠchÅ«ĠbÃ¹":10718,"shÇĴuĠzhÅįngĠ":10719,"ĠxiÇİoĠxuÃ©Ġ":10720,"ĠcÃ©ngĠbÃ¨iĠ":10721,"ĠwÃ¡ngĠguÃ³Ġ":10722,"ĠgÅįngĠzuÃ²ĠrÃ©nĠyuÃ¡nĠ":10723,"FC":10724,"bÄĵngĠ":10725,"ĠdÇĴu":10726,"ĠĠĠyÄ«ĠxiÄĵ":10727,"wÃ¨iĠqÃŃ":10728,"ĠlÃ¬ĠxuÃ©":10729,"bÃ¹ĠshÇİo":10730,"ĠleĠxÇĶĠduÅį":10731,"ĠlÇĲĠniÃłnĠ":10732,"ĠmÄĽiĠlÃ¬Ġ":10733,"Ġ5ĠdiÃłoĠkuÃłiĠyÄ«ĠxiÇİoĠshÃŃĠ":10734,"ĠmÇĶĠsÄ«ĠtÃ¨":10735,"jiÃłngĠdÄ«":10736,"aceb":10737,"ĠEDTĠ":10738,"Ġ30ĠfÄĵnĠ":10739,"ĠjÃŃĠbÄĽiĠmÄĽiĠdÅįngĠbÃ¹ĠshÃŃĠqÅ«Ġ":10740,"ĠtÃłiĠyÃ¡ngĠgÅįngĠzhuÃłnĠdeĠxiÇİoĠxÃŃngĠxÄ«ngĠ":10741,"ĠshÃ¬ĠyÄ«ĠkÄĵĠwÃ©iĠrÃłoĠtÃłiĠyÃ¡ngĠgÅįngĠzhuÃłnĠdeĠxiÇİoĠxÃŃngĠxÄ«ngĠ":10742,"yn":10743,"ÃłiĠde":10744,"deĠguÃ³ĠjÃ¬Ġ":10745,"ĠyÇĶĠtÄģ":10746,"ĠdÃłnĠyÃło":10747,"ĠlÃ¡iĠÃ¡ngĠ":10748,"sÄ«ĠmÇİ":10749,"ĠsuÇĴĠyÇĲĠ":10750,"yÃ¹ĠsuÃłnĠ":10751,"ĠdÄģnĠyuÃ¡nĠ":10752,"ĠbÇĲĠdÃ©Ġ":10753,"kÃ¨ĠlÃ¡iĠ":10754,"Ġ54":10755,"ĠlÃ³ngĠde":10756,"Ġ800":10757,"ĠxiÅ«ĠdÃ¬ngĠ":10758,"ĠtuÄ«ĠxÃŃngĠ":10759,"Ġ175":10760,"nÃŃngĠtÇĶ":10761,"ĠqÃ¬ngĠzhÃ¹":10762,"deĠjuÃ©ĠduÃ¬ĠxÄ«ngĠdÄĽngĠwÃ¨iĠ":10763,"atĠ":10764,"ĠyÇĲĠqÃŃ":10765,"zhÃ¹ĠcÃ¨":10766,"ĠfÃºĠyÃ¬Ġ":10767,"xiÄģngĠshÃ¬ĠdÃ¬Ġ":10768,"ĠshÄģnĠdÇĲngĠ":10769,"ĠcÇĲĠdÃ¬Ġ":10770,"qÃ¬ĠhÃ²uĠ":10771,"ĠmÃ³ĠtÃ¨Ġ":10772,"zhÄĵngĠqÇĶ":10773,"gÇĶĠdiÇİnĠ":10774,"ĠmÃ¬ĠqiÃ¨":10775,"zhÅįngĠguÃ³ĠrÃ©nĠmÃŃnĠjiÄĽĠfÃłngĠjÅ«nĠ":10776,"ĠSp":10777,"gÃ²ngĠhÃ©ĠguÃ³Ġ":10778,"dÄĵngĠchÃ¡ngĠ":10779,"ĠĠĠTheĠĠĠ":10780,"ĠyÃ¡oĠgÇĶnĠ":10781,"oci":10782,"ĠshÃ¬ĠxiÃłĠxiÃ¡ĠdeĠyÃŃĠgÃ¨ĠxiÄģngĠzhÃ¨nĠjÃŃĠxÃŃngĠzhÃ¨ngĠdÄģnĠwÃ¨iĠ":10783,"15Ġ":10784,"30Ġ":10785,"ĠĠĠshÃ¨ĠjÃ¬Ġ":10786,"ĠlÃ¬nĠ":10787,"ĠgÃ¡":10788,"ĠkuÄ«":10789,"shÃŃĠyÃ³u":10790,"ĠchÃ©ngĠdÄģnĠ":10791,"ĠxiÃłnĠxÃ¬ngĠ":10792,"ĠyuÃ¡nĠchuÃłngĠ":10793,"jiÄģĠshÃłngĠ":10794,"ĠfÃ¹ĠyÇĴu":10795,"qiÃ¡nĠtÇĲngĠ":10796,"ĠliÃ¨ĠbiÇİoĠ":10797,"qÄ«ngĠhuÃ¡":10798,"huÃłnĠchÃ©ngĠ":10799,"ĠkÇĴngĠlÃ³ngĠ":10800,"ĠxuÃ¡nĠzhuÇİnĠ":10801,"ĠfÃ¡nĠzhÃŃ":10802,"ĠĠĠzhÃ¨ĠkÄĵĠxiÇİoĠxÃŃngĠxÄ«ngĠdeĠjuÃ©ĠduÃ¬ĠxÄ«ngĠdÄĽngĠwÃ¨iĠ":10803,"ĠĠĠchÃ¡ngĠ":10804,"ĠmĠ":10805,"deĠwÃ¨iĠzhÃ¬Ġ":10806,"shÃŃĠliÃ¹":10807,"ĠdÃłĠbÃ¹":10808,"ĠnÃ¡nĠmÄĽiĠzhÅįu":10809,"ĠfÄģĠyÄ«nĠ":10810,"bÄĽnĠxiÃłnĠ":10811,"ĠzhÄĵngĠqÃ¬Ġ":10812,"wÄĵiĠxiÃ©":10813,"dÇİĠjÄ«":10814,"gÄģoĠsÃ¹ĠgÅįngĠlÃ¹":10815,"ĠzhÃ¨ĠshÇĴuĠgÄĵ":10816,"zhÃ¡iĠ":10817,"deĠduÃ¬Ġ":10818,"ĠqiÃ¡nĠhÃ²u":10819,"jiÃłoĠqÅ«Ġ":10820,"jiÄĵĠtÃ¬Ġ":10821,"bÇİoĠxiÇİnĠ":10822,"ĠqiÃ¡ngĠzhÃ¬Ġ":10823,"Ġ1980ĠniÃ¡nĠdÃłiĠ":10824,"ĠqÃºnĠzhÃ²ngĠ":10825,"ĠpiÃłnĠduÃłnĠ":10826,"ĠsuÅįĠxiÄĽ":10827,"ÄģnĠhuÄ«ĠshÄĽngĠ":10828,"yÄ«ĠlÇİngĠ":10829,"ĠdÃłnĠhÃ²uĠlÃ¡iĠ":10830,"yÇĲĠwÃ©iĠ":10831,"ĠgÃ©ĠlÇĶ":10832,"yÃ¡ngĠxiÃłnĠ":10833,"ardĠ":10834,"ĠguÄ«ĠzÃ©Ġ":10835,"sÄ«ĠhÃ©":10836,"ĠcÃŃĠshÃłnĠ":10837,"mÇİnĠzÃº":10838,"ĠgÇİiĠbiÄģnĠzÃ¬Ġ":10839,"14ĠniÃ¡nĠ":10840,"TE":10841,"ĠĠĠyÃ¡ngĠ":10842,"deĠtÃ³ngĠ":10843,"hÃ¨ĠsÃ¨Ġ":10844,"2020":10845,"ĠdÃ¬Ġ5":10846,"shÃŃĠqÃ¬Ġ":10847,"ĠyÄ«ĠxuÃ©ĠyuÃłnĠ":10848,"huÃ¬ĠbÃ¨iĠ":10849,"ĠxiÃłĠzÃłiĠ":10850,"dÃ²ngĠyuÃ¡nĠ":10851,"ĠtÅįngĠdÃło":10852,"ĠcÇĲĠtiÄģnĠtÇĲĠ":10853,"ĠpÇĶĠlÇĶĠshÃ¬Ġ":10854,"Ġ62":10855,"ĠchÇĶĠshÃłngĠ":10856,"tiÃ¡oĠ":10857,"mÃ¬ĠshÅ«ĠzhÇİngĠ":10858,"tuÄ«ĠguÇİngĠ":10859,"bÇİoĠÄģnĠ":10860,"ĠqiÃ¡nĠshÄĵnĠwÃ¨iĠ":10861,"GB":10862,"hÃ²uĠwÃ¨iĠ":10863,"ĠwÃ¨iĠgÄģiĠ":10864,"ĠsÄ«ĠjÄ«Ġ":10865,"ĠcÄģnĠshÃ¹Ġ":10866,"ĠshÅ«ĠrÃ¹":10867,"ĠxiÄģnĠqiÃ¡nĠ":10868,"bÃłoĠdÃło":10869,"huÃ¡ngĠjÄ«nĠ":10870,"ĠhuÃ²ĠdÃ©ĠyÄ«ĠmÃ©iĠ":10871,"ĠhuÇĴĠchÄĵĠzhÃłnĠ":10872,"ĠwÃ©nĠhuÃłĠdÃłĠgÃ©ĠmÃ¬ngĠ":10873,"Ġ1913ĠniÃ¡nĠ":10874,"7ĠmÇĲĠ":10875,"ash":10876,"ĠdeĠgÇĶ":10877,"ĠsÄ«ĠkÄĵĠ":10878,"ĠshÇĲĠyÃº":10879,"jÃ¬ngĠjÃ¬Ġ":10880,"guÇİnĠzhÃ¬Ġ":10881,"qÇĶĠzÃ¬Ġ":10882,"xÃ¬nĠxÄ«Ġ":10883,"dÄĵngĠjÃ¬Ġ":10884,"yÃ¡nĠjiÅ«ĠsuÇĴ":10885,"guÇİnĠlÇĲĠjÃº":10886,"tÇĲĠyÃ¹ĠchÇİngĠ":10887,"gÃ¡":10888,"ĠshÃ¬ĠqÃŃ":10889,"shÃ¬ĠyÇĶ":10890,"shÃ¬ĠzhÇĲ":10891,"zhÃŃĠrÃ©nĠyuÃ¡nĠ":10892,"ĠwÃ©nĠbÄĽnĠ":10893,"ĠgÃ©ĠlÃŃ":10894,"sÃ¬ĠhÅ«":10895,"ĠtÃłiĠdÃ¹Ġ":10896,"ĠzÄ«ĠxÃºnĠ":10897,"bÄģoĠ":10898,"ĠÃ©ĠhÃłiĠ":10899,"ĠdÅįngĠbÄĽiĠbÃ¹Ġ":10900,"dÄģngĠdÃ¬Ġde":10901,"ĠqÃŃĠhÃ²uĠyÃº":10902,"ĠjÃŃĠxiÃłnĠ":10903,"liÃ¹Ġ":10904,"wÃ©nĠyÃ¬Ġ":10905,"diÃłnĠchÄĵ":10906,"ĠgÃ©ĠniÃ¡nĠ":10907,"ĠmiÃłnĠ2":10908,"ĠwÃºĠxÅ«":10909,"mÃ©iĠtÇĲĠ":10910,"ĠtÃŃngĠkÃło":10911,"ĠlÇĲĠÃło":10912,"sĠĠĠof":10913,"ĠgÇİngĠtiÄĽ":10914,"Ġ1921ĠniÃ¡nĠ":10915,"wÃºĠxiÃłnĠdiÃłnĠshÃ¬Ġ":10916,"deĠrÃ¬ĠbÄĽnĠ":10917,"wÃ¨iĠbÃ¨iĠ":10918,"ĠhÃ©ĠtÄģĠde":10919,"ĠdÃłĠchÃ©ngĠ":10920,"ĠxiÃłnĠchÃ©ngĠ":10921,"ĠguÃ³ĠyÇĶ":10922,"ĠzhÄ«ĠshÃ¬Ġ":10923,"ĠyÃŃĠzhÇĲĠ":10924,"00ĠpÃŃngĠfÄģngĠqiÄģnĠmÇĲĠ":10925,"ĠjiÃ©ĠzÃ²u":10926,"yÃłĠmÄĽiĠnÃŃĠyÃł":10927,"ĠguÇİnĠzhÃ¬Ġ":10928,"ĠtÃŃĠqiÃ¡nĠ":10929,"zÇĴngĠzhÃłnĠ":10930,"ĠbÄģoĠkuÃ²ĠyÇĲĠxiÃł":10931,"ĠjiÇİngĠjÄ«nĠ":10932,"ĠxÅ«ĠnÇĲ":10933,"ĠchÃ¨ĠdÇĲ":10934,"lÃºĠwÇİ":10935,"ĠshÇİnĠxÄ«ĠshÄĽngĠ":10936,"ĠwÃºĠxiÃłnĠdiÃłnĠshÃ¬Ġ":10937,"ĠxiÃłnĠfÇİĠ":10938,"ĠxuÃ©ĠyuÃ¡nĠ":10939,"zÃ¬ĠjÇĲĠ":10940,"quÃ¡nĠde":10941,"ĠtÇĲĠzhÃ²ngĠ":10942,"ĠbÄģnĠyÃ¡Ġ":10943,"ĠdeĠyÄ«ĠtiÃ¡o":10944,"ĠhuÇĴĠchÄĵ":10945,"lÃ¡iĠzÃ¬ĠyÃº":10946,"PC":10947,"duÃ²":10948,"duÄ«":10949,"ĠgÄĽ":10950,"ĠwÃ¡Ġ":10951,"ĠdeĠmÃŃngĠzÃ¬Ġ":10952,"ĠqÃŃĠdÃ¹nĠ":10953,"ĠÃ©rĠyÃ¡nĠ":10954,"yÃ³uĠxÃŃngĠ":10955,"shÄĵngĠdÃłiĠ":10956,"Ġ2017":10957,"ĠwÃłiĠjiÃ¨":10958,"tuÄ«ĠfÄģnĠ":10959,"tÇİĠjÄ«":10960,"ĠcuÃ²ĠwÃ¹":10961,"ĠmÃ¨ngĠjiÄģĠlÄģ":10962,"pÃ©iĠyÇİngĠ":10963,"oundĠ":10964,"ĠzÇĴngĠbÃ¹ĠwÃ¨iĠyÃº":10965,"ĠlÃ¬ĠwÃ©iĠ":10966,"ĠchÃ©ngĠqÅ«":10967,"ĠchÃ©ngĠdÅ«":10968,"ĠxÄ«ĠmÃ©ngĠ":10969,"fÄģngĠxÃŃngĠ":10970,"zhÄ«ĠshÃŃĠ":10971,"ĠfÃ¹ĠzhÃ¬Ġ":10972,"ĠjÄ«ngĠlÃŃngĠ":10973,"ĠzhÇİngĠwÃ²":10974,"ĠliÇİngĠzuÃ²":10975,"jiÃłoĠxuÃ©":10976,"Ġ66":10977,"ĠzhuÇİnĠwÃ©iĠ":10978,"ĠbÇİiĠxÃ¬ngĠ":10979,"ĠLĠ":10980,"ĠNĠ":10981,"ĠshÄĽnĠchÃ¡":10982,"ĠniÇİoĠ":10983,"dÇĴu":10984,"ĠĠĠyÇĲngĠxiÇİngĠ":10985,"duÃ¬ĠyuÃ¡nĠ":10986,"shÃłngĠle":10987,"chÃ¡ngĠshÄģ":10988,"Ġ22Ġ":10989,"ĠbÃ³ĠgÄĽnĠdÃ¬Ġ":10990,"ĠyÃ¬nĠdÃ¹ĠjiÃło":10991,"bÃłoĠfÄģĠhÃ²uĠ":10992,"Sp":10993,"ÄģĠmÃ¬Ġ":10994,"hÃ²uĠcÃ¡iĠ":10995,"ĠyÇĲĠxÄ«":10996,"ĠhÃ©ĠtÃ³ngĠ":10997,"ĠnÃ¡nĠhÇİiĠ":10998,"ĠdÅįngĠxÄ«Ġ":10999,"zhÃŃĠdÇİoĠ":11000,"jiÃ©ĠhÃ©Ġ":11001,"ĠqÅ«ĠjiÄģnĠ":11002,"Ġ2010":11003,"ĠfÅ«Ġde":11004,"ĠwÇİĠduÅį":11005,"ĠkÃ¨ĠhÃ¹":11006,"pÃłnĠluÃłnĠ":11007,"ĠshÃłnĠchÃ¡ngĠ":11008,"ĠĠĠrÃ©nĠ":11009,"ĠĠĠrÃºĠguÇĴ":11010,"shÃ¬ĠnÃ¨iĠ":11011,"ĠshÃŃĠdÃł":11012,"ĠrÃ¬ĠqÄ«":11013,"ĠshÃłngĠxiÃłnĠ":11014,"ĠxÄ«nĠxÄ«ĠlÃ¡nĠ":11015,"ĠgÇİiĠzhuÄģngĠ":11016,"kÅįngĠqÃ¬Ġ":11017,"ĠxiÇİngĠfÇİĠ":11018,"ĠfÃ¨iĠÄĽr":11019,"ĠquÃ¨ĠzhÄĽnĠ":11020,"ĠgÄģngĠtiÄĽ":11021,"ĠIĠ":11022,"Ġ1926ĠniÃ¡nĠ":11023,"kuÃ²ĠjiÃłnĠ":11024,"ÄģĠÄĽrĠbÄģ":11025,"ĠdeĠyÃ¬ĠsiĠ":11026,"13ĠniÃ¡nĠ":11027,"zuÇİnĠ":11028,"ĠjÃŃĠliÃ¡nĠsÃłiĠ":11029,"ĠbÃ¨iĠkÃ¨":11030,"fÄģĠde":11031,"xuÃ©ĠxÃ¬Ġ":11032,"ĠcÃ¬ĠziĠ":11033,"ĠdÄĽngĠyÃº":11034,"xÃ¬ngĠhÃ©":11035,"ĠtÃłiĠyÄ«nĠ":11036,"qÇĲĠle":11037,"Ġ68":11038,"ĠjÇĲngĠgÃło":11039,"ĠlÃŃngĠgÇİnĠ":11040,"hÃ¡oĠwÃº":11041,"huÇĴĠshÄģnĠ":11042,"chÅ«ĠxiÃłnĠle":11043,"ĠjiÄģĠrÃ¹ĠzhÅįngĠguÃ³ĠgÃ²ngĠchÇİnĠdÇİngĠ":11044,"ĠĠĠduÅį":11045,"ĠdeĠshÄĵngĠ":11046,"ĠgÅįngĠlÃ¬Ġ":11047,"yÇĴuĠxÇĶĠduÅį":11048,"dÃłĠbÇİnĠ":11049,"ĠfÇİĠÄĽr":11050,"ĠbÄĽiĠhÃ¡nĠ":11051,"bÅįĠlÃŃ":11052,"biÄģnĠhÃło":11053,"ĠbiÄģnĠxÃŃngĠ":11054,"cÄģnĠkÇİo":11055,"Ġ74":11056,"Ġ172":11057,"udi":11058,"ĠzhÅįngĠzuÃ¬Ġ":11059,"dÃ¬ĠtÃº":11060,"ĠyÃŃĠchuÃ¡nĠ":11061,"ĠqÄ«ĠkÄģnĠ":11062,"zÇĶĠzhÇĲ":11063,"ĠluÃ²ĠyÄ«":11064,"tÃ¨ĠqÅ«":11065,"ĠjiÃ¨ĠyÃ³u":11066,"Ġ2022":11067,"zhÇĴngĠzÃº":11068,"tiÄģnĠwÃ©nĠtÃ¡iĠ":11069,"mi":11070,"ĠshÃ¬ĠjiÄģngĠ":11071,"shÃ¬ĠgÃ¹":11072,"ĠwÃ¨iĠzhÅįngĠ":11073,"xÃŃngĠbÃ¹":11074,"ĠzhÃ¨ĠshÃŃ":11075,"ĠwÃ©iĠlÃ¡iĠ":11076,"ĠfÄĵnĠliÃ¨":11077,"huÃ¡ĠxuÄĽ":11078,"guÄģnĠzhÃ¹":11079,"ĠdÅįngĠcÃ¨":11080,"ĠsÄģnĠcÃ¬Ġ":11081,"zhÇİngĠyuÄĵ":11082,"ĠcÃ©ngĠde":11083,"tÃŃĠjiÄģo":11084,"diÇİnĠlÇĲĠ":11085,"tÅįngĠdÃło":11086,"ĠbiÄģnĠchÃ©ngĠ":11087,"ĠhuÇĴĠzÄģiĠ":11088,"xÃºnĠqiÃº":11089,"ĠhÃ¹Ġ":11090,"zhÃłnĠzhÄĵngĠzhÅįngĠ":11091,"ĠzuÃ¬ĠzÇİoĠde":11092,"ĠzÃłiĠzhÅįngĠguÃ³ĠdÃłĠlÃ¹":11093,"fÄģĠdiÃłnĠchÇİngĠ":11094,"Ar":11095,"tor":11096,"wÃł":11097,"ĠĠĠhÇİiĠ":11098,"ĠĠĠxiÃło":11099,"ĠtÄģĠyÄĽĠshÃ¬Ġ":11100,"ĠshÃłngĠfÄģngĠ":11101,"ÇĲĠyÇİnĠ":11102,"ĠzÃ¬ĠmÇĶĠ":11103,"Ġ23Ġ":11104,"shÇĴuĠxiÄģnĠ":11105,"zÃ©ĠzÃłiĠ":11106,"zÇĴngĠsÄ«ĠlÃ¬ngĠ":11107,"jÇĲngĠguÄģnĠ":11108,"qiÃ¡ngĠde":11109,"ĠhÄĽnĠshÇİo":11110,"ĠhÃ³ngĠsÃ¨":11111,"gÄĵnĠsuÃŃ":11112,"ĠgÅįngĠshÄģngĠ":11113,"dÃłĠqiÃ¡o":11114,"ĠxÄ«nĠrÃ©nĠ":11115,"hÃ³ngĠsÃ¨Ġ":11116,"zhÃŃĠlÃ¬Ġ":11117,"jÃ¹ĠchÇİngĠ":11118,"dÅįngĠxÄ«":11119,"jiÃłoĠzÅįngĠ":11120,"ĠcÇĲĠshÃŃĠ":11121,"ĠmÃ©iĠÄĽr":11122,"chÄĵĠduÃ¬Ġ":11123,"jiÄģoĠgÄĽiĠ":11124,"ĠchÄĵngĠzÃłnĠ":11125,"ĠtÇĲĠxÃŃngĠ":11126,"ĠpÃ¨iĠzhÃ¬Ġ":11127,"wÅ«ĠrÇİnĠ":11128,"ĠpÃ²ĠshÇĲ":11129,"ĠzÅįngĠjiÃłoĠ":11130,"emĠ":11131,"deĠmÃ³ĠshÃ¬Ġ":11132,"ĠshÃ¬ĠyÇĴu":11133,"ÃłoĠduÅį":11134,"ĠzhÅįngĠwÃ¨iĠ":11135,"ĠdÃ¬ĠshÃłngĠ":11136,"ĠdÃ¬ĠchÇĶ":11137,"ĠjiÄģĠsÄ«":11138,"ĠxÄ«ĠnÃŃ":11139,"ĠxiÃłĠlÃ¡iĠde":11140,"xiÃłĠyÄ«":11141,"ĠbÄģĠjÄ«ĠsÄ«ĠtÇİnĠ":11142,"ĠjiÄĵĠshÃ²uĠ":11143,"tÇĲĠzhÃ¬Ġ":11144,"ĠshÅįuĠdÃło":11145,"ĠliÃ¹ĠgÃ¨":11146,"ĠhuÇĴĠxÄ«ngĠ":11147,"ĠyÃºĠ2014ĠniÃ¡nĠ":11148,"cÄģnĠmÃ³uĠzhÇİngĠ":11149,"kÇİĠluÃ³ĠlÃ¡iĠnÃłĠzhÅįu":11150,"OV":11151,"xuÃłnĠ":11152,"ĠĠĠtÃ¨ĠzhÄĵngĠ":11153,"deĠwÃ¨nĠtÃŃĠ":11154,"ĠshÃ¬ĠyÃ²ngĠ":11155,"ĠzÃłiĠyÃŃĠgÃ¨":11156,"ĠrÃ©nĠduÃ¬Ġ":11157,"ĠchÅ«ĠshÃ²u":11158,"xÄ«ĠbÃ¹Ġ":11159,"ĠmÃ¹ĠhÇİnĠmÃ²":11160,"diÃłnĠdÃ²ngĠ":11161,"gÃ©ĠÄĽr":11162,"ĠqÇĲĠtÃº":11163,"wÄĵiĠxiÇİnĠ":11164,"ĠyÃ¡nĠjiÅ«ĠyuÃ¡nĠ":11165,"ĠtÃ¨ĠÄĽr":11166,"deĠdÃ¬ĠwÃ¨iĠ":11167,"zhÇĲĠhuÄ«ĠguÄģnĠ":11168,"ĠĠĠxiÃłĠxiÃ¡":11169,"IA":11170,"asĠ":11171,"ĠĠĠÃ¨r":11172,"ĠrÃ¬ĠhÃ²u":11173,"ĠjiÄģĠqÃ¬ngĠ":11174,"ĠzhÃ¨ĠwÃ¨iĠ":11175,"ĠfÃ¹ĠzhÇĶĠxÃŃĠ":11176,"ĠjiÃ¹ĠyÇĴu":11177,"Ġ6ĠdiÃłoĠkuÃłiĠyÄ«ĠxiÇİoĠshÃŃĠ":11178,"ĠCSTĠ":11179,"ĠCDTĠ":11180,"ĠhÄĽnĠdÃł":11181,"rÃ©ngĠzÃłiĠ":11182,"ĠĠĠ1999ĠniÃ¡nĠ":11183,"6ĠyuÃ¨Ġ30ĠrÃ¬Ġ":11184,"dÄģngĠxuÇİnĠwÃ¨iĠ":11185,"zhÅįngĠbÃ¹ĠshÃŃĠqÅ«Ġ":11186,"ĠjÃŃĠbÄĽiĠmÄĽiĠzhÅįngĠbÃ¹ĠshÃŃĠqÅ«Ġ":11187,"Ġgu":11188,"ĠĠĠhÃ²uĠlÃ¡iĠ":11189,"ĠsÄ«ĠzhÇİngĠ":11190,"ĠbÃ¬ngĠchÄĵngĠ":11191,"ĠgÄģiĠniÃ¡nĠ":11192,"huÃ¡ĠshÃ¨ngĠdÃ¹nĠ":11193,"ersĠ":11194,"ĠlÇĲngĠxiÃ¹":11195,"ĠxiÃ©ĠdÃ¬ngĠ":11196,"qÇĶĠxiÄģoĠ":11197,"ĠlÇĲĠÄĽr":11198,"ĠrÃ³ngĠhÃ©":11199,"ĠhÄĽnĠdÃłĠde":11200,"ĠyÃŃnĠpÃ¡iĠ":11201,"ĠĠĠAr":11202,"gÅįngĠyuÃ¡nĠqiÃ¡nĠ":11203,"ĠyÇĶnĠshÃŃĠkÄĵngĠ":11204,"yuÃ¡nĠzhÃ¹ĠmÃŃnĠ":11205,"oth":11206,"ĠĠĠhÄģ":11207,"ĠnÃ²ngĠ":11208,"deĠÃ©rĠziĠ":11209,"yuÃ¡nĠwÃ¨iĠ":11210,"ĠxiÃłnĠhÃ©":11211,"shÃłngĠjiÃłngĠ":11212,"xiÃłngĠjiÇİngĠ":11213,"deĠÃłiĠ":11214,"ĠjÅ«nĠfÄģngĠ":11215,"ĠxiÃłngĠnÃ¡nĠ":11216,"ĠqÄ«ĠtÃºĠxÃŃngĠ":11217,"tÃŃĠcÃ¡iĠ":11218,"shÄģngĠpÇĲnĠ":11219,"ateĠ":11220,"bÃŃ":11221,"qiÃ©":11222,"ĠĠĠyÄ«ngĠguÃ³":11223,"ĠnÇİ":11224,"ĠdeĠjiÄģ":11225,"hÃ²uĠqÄ«Ġ":11226,"ĠzhÃłnĠfÃ¡ngĠ":11227,"ĠliÃºĠdÃ²ngĠ":11228,"ĠshÃ²uĠmÃ¬ngĠ":11229,"ĠcÃŃĠzhÃŃĠ":11230,"ĠlÃ¹nĠtÃ¡nĠ":11231,"ĠjiÃłnĠzhÃ¹ĠwÃ¹":11232,"zhÃłnĠzhÄĵngĠqÄ«ĠjiÄģnĠ":11233,"ĠyÃ¡nĠhÇİiĠshÄĽngĠfÃ¨nĠ":11234,"ĠdeĠÃ©rĠziĠ":11235,"ĠshÃ¬ĠtÄģ":11236,"lÃ¬ĠbÃ¹":11237,"jÃ¬ĠyÃ¬Ġ":11238,"ĠzhÄ«ĠdÃ¬Ġ":11239,"ĠleĠyÄ«ĠxiÄĵ":11240,"xiÃłnĠxÃ¬ngĠ":11241,"ĠfÃ¹ĠjiÄģ":11242,"yÇĲĠnÃ¡nĠ":11243,"19ĠshÃ¬ĠjÃ¬Ġ":11244,"xiÄģngĠbÇĲĠ":11245,"yÃ¡nĠÃłnĠ":11246,"ĠĠĠ2013":11247,"ĠÄģnĠhuÄ«":11248,"ĠmÃ¬ngĠyÃ¹nĠ":11249,"ĠfÄģĠshÄĵngĠzÃłiĠ":11250,"Ġ1917ĠniÃ¡nĠ":11251,"usic":11252,"ĠrÃ²uĠ":11253,"fÄģĠbiÇİoĠ":11254,"ĠgÃ©ĠlÃ¡nĠtÃ¨":11255,"ĠhÃ©ĠyÄ«":11256,"fÄģĠshÃ²u":11257,"ĠdÃłiĠmÇİ":11258,"ĠjiÄĵĠguÇİnĠ":11259,"ĠgÃ©ĠlÄĵiĠ":11260,"jiÄģnĠchÃŃ":11261,"ĠtiÄģnĠde":11262,"ĠshÇĶĠmÃŃngĠ":11263,"ĠjÇĲnĠjÇĲnĠ":11264,"ĠzÃłoĠxÃŃngĠ":11265,"ĠGĠ":11266,"ĠyÃºĠ2013ĠniÃ¡nĠ":11267,"hÅ«ĠyÃ¹":11268,"zuÃ¬ĠhÃ²uĠyÄ«":11269,"ĠwÃłnĠpÃŃngĠfÄģngĠmÇĲĠ":11270,"pÄ«nĠ":11271,"zhÅįngĠqÄ«Ġ":11272,"bÃ¨iĠrÃ¨nĠwÃ©iĠ":11273,"ĠcÃ¬ĠshÇĲ":11274,"ĠnÃłĠyÃłngĠ":11275,"ĠguÄ«ĠhuÃłĠ":11276,"ĠrÃ¬ĠbÄĽnĠde":11277,"gÇİiĠgÃ©Ġ":11278,"sÃ²ngĠdÃło":11279,"ĠyÃºĠ2016ĠniÃ¡nĠ":11280,"ĠfÄģĠshÄĵngĠle":11281,"kÄģiĠfÄģĠ":11282,"ĠĠĠfÄĵiĠ":11283,"ĠĠĠfÇİnĠ":11284,"ĠdeĠmiÃłnĠjÄ«ĠwÃ¨iĠ":11285,"ĠshÃłngĠmiÃłnĠ":11286,"ĠchÅ«ĠchÇİngĠ":11287,"mÃŃngĠzÃ¬Ġ":11288,"ĠjÄ«ngĠdÅ«":11289,"ĠyÃ¡nĠxÃ¹":11290,"zhÃ¹ĠfÃ¡ngĠ":11291,"fÇİĠlÃ¬ngĠ":11292,"suÇĴĠde":11293,"dÄģnĠdÃº":11294,"hÃ¡nĠyÃ¬Ġ":11295,"ĠÄģĠlÇĲ":11296,"ĠbiÄģnĠjÃ¹":11297,"yuÄĵĠyÇĴu":11298,"juÃ©ĠsÃłiĠzhÅįngĠ":11299,"ÄģĠÄĽrĠbÄĵiĠsÄ«":11300,"ĠĠĠzhÇĶ":11301,"ĠtÇĲĠyÃłnĠ":11302,"ĠbÃ¹ĠzhÄ«":11303,"ĠlÃ¹Ġde":11304,"jiÄģngĠshÃ¬Ġ":11305,"lÃ¹ĠduÃłnĠ":11306,"ĠnÃŃĠpÅį":11307,"pÇĶĠlÄĵiĠ":11308,"ĠtuÃ¬ĠxiÅ«Ġ":11309,"zhÃłĠdÃłnĠ":11310,"4ĠmÇĲĠ":11311,"dÃ¬ĠzhÃ¬Ġ":11312,"rÃ©nĠdÃł":11313,"jÅ«nĠyÇĴu":11314,"ĠjÄ«ĠfÄĵnĠ":11315,"ĠjÄ«ĠlÃ³ngĠ":11316,"chÃ¡ngĠjiÄģngĠ":11317,"ĠshÄģnĠshÃ¬Ġ":11318,"ĠguÄģngĠxÃ¹Ġ":11319,"ĠhuÃ¡nĠxÃŃngĠshÄģnĠ":11320,"Ġ146":11321,"icros":11322,"ĠdÅįngĠnÃ¡nĠyÃł":11323,"sÃ¬ĠchuÄģnĠshÄĽngĠ":11324,"ail":11325,"ek":11326,"pÃ©nĠ":11327,"wÄģngĠ":11328,"ĠchÃ©ngĠnuÃ²":11329,"ĠzÃ¬ĠshÄģ":11330,"ĠguÄģnĠguÄģngĠ":11331,"shÄĵngĠchÃ©ngĠ":11332,"ĠmÃ¹ĠzhÃ¬Ġ":11333,"ĠyÃłĠdÄģngĠ":11334,"zhÇĲĠhuÄ«Ġ":11335,"dÄģnĠyuÃ¡nĠ":11336,"ĠbiÃłnĠgÄĵngĠ":11337,"chÄģiĠchÃºĠ":11338,"ĠĠĠguÄģnĠyÃº":11339,"qÅ«ĠhÃ©":11340,"ĠrÃ¨nĠdÃ¬ngĠ":11341,"zhÃłnĠzhÅįngĠ":11342,"ĠgÄģoĠyÃº":11343,"jiÃ¨ĠshÃŃ":11344,"ĠnÃłĠÄĽr":11345,"ĠrÃ¡nĠliÃło":11346,"tÃłiĠlÃ¡ngĠ":11347,"jÇĲĠnÃ¡nĠ":11348,"ĠdÅįuĠzÃłiĠ":11349,"ĠshuÇĲĠshÃłngĠ":11350,"ĠqiÄģnĠrÃ©nĠ":11351,"ĠtuÅįĠlÃŃ":11352,"guÇİngĠxÄ«":11353,"dÄĵngĠlÃ¹Ġ":11354,"Ġ1911ĠniÃ¡nĠ":11355,"16Ġ":11356,"Al":11357,"ish":11358,"unĠ":11359,"wÃ¨iĠyÇĴu":11360,"ĠdÃłĠdÅįngĠbÃ¹":11361,"ĠshÄĵngĠwÃ¨iĠ":11362,"ĠÃ©rĠhÃ²u":11363,"fÄģĠmÃŃngĠ":11364,"ĠxiÃłĠmÃ©nĠ":11365,"ĠzuÃ¬ĠduÅįĠde":11366,"ĠzhÃ¹ĠfÃ¡ngĠ":11367,"kÄģiĠbÃłnĠ":11368,"ĠbÄĽnĠlÃ¡iĠ":11369,"ĠliÃºĠliÃłngĠ":11370,"ĠrÃ¹ĠwÃ©iĠ":11371,"ĠjiÄģoĠxiÇİngĠ":11372,"ĠjiÇĶĠbÄģ":11373,"jiÇİnĠshÇİoĠ":11374,"ĠsÄĵnĠbÇİo":11375,"ĠguÇİnĠlÇĲĠjÃº":11376,"gÃłnĠxiÃłnĠ":11377,"16ĠniÃ¡nĠ":11378,"deĠjÃ¬nĠ":11379,"deĠdÃ¬ĠÃ¨r":11380,"ĠzhÅįngĠzhÇĲ":11381,"wÃ©nĠwÃ¹":11382,"deĠÃ¨r":11383,"zhÄĵngĠduÃ³":11384,"188":11385,"sÃłĠÄĽr":11386,"ĠzÇĶĠzhÄ«Ġde":11387,"ĠlÃ¬ĠfÇİĠhuÃ¬Ġ":11388,"ĠlÇĲĠlÃ¡nĠkÇİ":11389,"cÅ«":11390,"ĠtÄ«Ġ":11391,"ĠshÃ¬ĠyÃº":11392,"ĠlÃ¬ĠxiÃłnĠ":11393,"ĠjÃŃĠtÇĲ":11394,"dÃ¬ĠmiÃłnĠ":11395,"ĠgÃ¨ĠshÄĽngĠ":11396,"ĠwÃ©iĠxiÅ«":11397,"ĠdÃ²ngĠtÃłiĠ":11398,"ĠzhÃ¹ĠshÇĴu":11399,"dÄģnĠxÄ«nĠ":11400,"gÇĶĠlÇİoĠde":11401,"zhÃºĠbÃ¹":11402,"ĠzÃłiĠbÄĽnĠ":11403,"ĠlÃ¬ĠshÃ¬Ġ":11404,"wÃ©iĠsÃłiĠ":11405,"zhÃ¨ngĠquÃłnĠ":11406,"ĠkÃ¨ĠlÃ¡o":11407,"ÇĲĠyÄ«ngĠ":11408,"shÃ¨ĠyÃº":11409,"ĠjÃ¹ĠluÃ²":11410,"ĠgÄģoĠjiÃł":11411,"sÄģnĠyuÃ¨":11412,"ĠyÃ¨ĠyÃº":11413,"bÇİoĠshÇĴu":11414,"ĠzÃłoĠchÃ©ngĠde":11415,"ĠÙ":11416,"ĠĠĠfÄģĠzhÇİnĠ":11417,"zheĠ":11418,"ĠmÄĽiĠyÄ«":11419,"zhÇĶĠdÃ²ngĠ":11420,"ern":11421,"zhuÄģngĠshÃ¬Ġ":11422,"Ġ98":11423,"Ġ136":11424,"ĠzÄģoĠshÃ²u":11425,"ĠruÇİnĠtÇĲ":11426,"ĠbÃ¬ĠyÃ¨ĠhÃ²uĠ":11427,"shÄģnĠdÅįngĠshÄĽngĠ":11428,"ĠjÇĲĠhÃ©":11429,"ĠjiÄģĠlÇĲ":11430,"jÃŃĠlÃ¬Ġ":11431,"zhÃ¨ngĠchÃ¡ngĠ":11432,"huÃłĠshÃŃ":11433,"ĠkÃ¨ĠjiÄģ":11434,"mÃŃngĠyÃ¬Ġ":11435,"qÃŃĠde":11436,"ĠliÃ¡nĠjiÃ©Ġ":11437,"ĠdÃ²ngĠhuÃłĠ":11438,"ĠbÄĽiĠwÃ¨iĠ":11439,"ĠzÃ©ĠyÇĴu":11440,"Ġ2013":11441,"ĠshÇĲĠchÄĵngĠ":11442,"chÄĵngĠzuÃ²Ġ":11443,"Ġ5ĠgÃ¨":11444,"ĠkÇİĠluÃ²":11445,"ĠdiÇİnĠxÃŃngĠ":11446,"dÃºĠlÃ¬Ġde":11447,"ĠqÄ«ĠxÄ«ĠdÃ¬Ġ":11448,"ĠyÅįngĠzhÃ¨ngĠ":11449,"zÃ¬ĠzhÃ¬ĠqÅ«":11450,"ĠbÄĽiĠqÇĲĠshÃ¹nĠshÃŃĠzhÄĵnĠ":11451,"8ĠyuÃ¨Ġ1ĠrÃ¬Ġ":11452,"xÇĶĠ":11453,"ĠshÃ©ngĠ":11454,"ĠĠĠbÃ¡iĠ":11455,"bÃ¹ĠlÇĶ":11456,"ĠduÃ¬ĠchÃ¨nĠ":11457,"ĠluÃ³ĠbÃ³":11458,"ĠxÃ¬ngĠcÃºnĠ":11459,"kÄĽĠzÃłiĠ":11460,"Ġ2009":11461,"ĠlÇĲngĠshÃ¬Ġ":11462,"0ĠÅįuĠyuÃ¡nĠ":11463,"ĠzÅ«nĠzhÃ²ngĠ":11464,"17ĠniÃ¡nĠ":11465,"DA":11466,"deĠyÃ¹":11467,"ĠhÃ©ĠfÇİ":11468,"ĠzhÃ¬ĠyÃŃ":11469,"jÃ¹ĠbÄĽnĠ":11470,"ĠbiÄģoĠjÃ¬Ġ":11471,"ĠqiÄģnĠyuÄĵ":11472,"Ġ85":11473,"ĠtiÄĽĠ":11474,"ĠzhÅ«ĠsÄģiĠ":11475,"Ġ148":11476,"dÇĲĠkÃłngĠ":11477,"miÃ¡oĠhuÃ¬Ġ":11478,"vers":11479,"ĠĠĠbÃ³":11480,"ĠĠĠfÄĵnĠbÃ¹Ġ":11481,"ĠhÃ©ĠgÇĶ":11482,"wÃ©iĠzhÇĲ":11483,"ĠzhÃ¨ĠduÃłnĠ":11484,"duÃ¬ĠyÃ¬ngĠ":11485,"zhÃ¹ĠlÇĲ":11486,"ĠluÃ³ĠmÇĶ":11487,"ĠsÄģnĠjiÃ¨ĠquÃ¡nĠguÃ³":11488,"ĠqÅ«ĠdÃ²ngĠ":11489,"ĠsÃ¬ĠyuÃłnĠ":11490,"fÃºĠlÃ¬Ġ":11491,"ĠwÃłnĠmÃŃngĠ":11492,"Ġ6ĠgÃ¨":11493,"fÃ¡ngĠyÃ¹":11494,"hÃ¡ngĠkÅįngĠmÇĶĠjiÃłnĠ":11495,"qÇĲngĠqiÃº":11496,"xiÄģngĠguÄģnĠde":11497,"11ĠniÃ¡nĠ":11498,"ain":11499,"ĠyÄ«ĠshuÅį":11500,"ĠhÃ©ĠzhÅįngĠ":11501,"ĠgÄģiĠdÃ¬ĠqÅ«":11502,"ĠnÃ¨iĠyÃł":11503,"fÃºĠzhÅįu":11504,"yÄ«ngĠjÅ«nĠ":11505,"ĠtÃ³uĠzÄ«Ġ":11506,"zÇĴngĠcÃ¡iĠ":11507,"kÅįngĠzhÅįngĠ":11508,"ĠwÄĽiĠyuÃ¡nĠhuÃ¬ĠwÄĽiĠyuÃ¡nĠ":11509,"ĠyÃºĠ2010ĠniÃ¡nĠ":11510,"ĠyÃ©ĠfÅ«":11511,"ĠchÅ«ĠrÃ¹ĠkÇĴu":11512,"ĠyÃ¬ĠsiĠshÃ¬Ġ":11513,"Ã¨ĠhuÃłĠ":11514,"ĠĠĠmÃ²":11515,"ĠĠĠgÄģiĠdÃ¬Ġ":11516,"ĠdÃłnĠyÄ«nĠwÃ¨iĠ":11517,"shÃ¨ĠqÃºnĠ":11518,"mÄĽiĠtiÄģnĠ":11519,"gÃ²ngĠhÃ©ĠdÇİngĠ":11520,"ĠtÃŃĠchÅ«Ġde":11521,"ĠchÃ¡ngĠwÃ¹":11522,"ĠchuÃ¡nĠshuÅįĠ":11523,"yÇİnĠyÃ¬Ġ":11524,"ĠsÃłĠlÄģ":11525,"ĠjÃ¬ĠniÃłnĠbÄĵiĠ":11526,"ĠmiÃ¨ĠwÃ¡ngĠ":11527,"guÃ³ĠmÃŃnĠzhÃ¨ngĠfÇĶ":11528,"ĠkÃ¨ĠluÃ³ĠdÃ¬ĠyÃł":11529,"zhÃ¨ĠjiÄģngĠshÄĽngĠ":11530,"las":11531,"Ġdi":11532,"hÃ©ĠliÃº":11533,"ĠzÃłiĠĠĠ":11534,"ĠbÃ¹ĠshÃ²u":11535,"yÇĶĠzhÃ²u":11536,"zhÃ¨ĠcÃ¬Ġ":11537,"ĠlÃ¹ĠjÃ¬ngĠ":11538,"ĠxÃ¬ĠjÅ«nĠ":11539,"jÃ¹ĠjÃŃĠ":11540,"ĠzhÇĲĠlÃ¬ngĠ":11541,"ĠsÃ¬ĠshÃ¬Ġ":11542,"biÄģnĠde":11543,"tÃ³uĠpiÃłoĠ":11544,"ĠqiÄģnĠwÃłnĠ":11545,"ĠchÇĶĠcÃºnĠ":11546,"ameĠ":11547,"cÇİiĠfÇİngĠ":11548,"ĠxiÃłnĠdeĠyÃŃĠgÃ¨ĠxÃŃngĠzhÃ¨ngĠzhÃ¨nĠqÅ«Ġ":11549,"Ġá":11550,"ÃłoĠsÄ«ĠkÇİ":11551,"ĠrÃ©nĠcÃ¡iĠ":11552,"bÃ¹ĠzhÃ¬Ġ":11553,"bÃ¹ĠbiÃłnĠ":11554,"ĠyuÃ¡nĠshuÃłiĠ":11555,"ĠshÃ¨ĠzÃłiĠ":11556,"ĠshÃ¹ĠmÃ¹":11557,"ĠchuÃ¡nĠchÇİngĠ":11558,"ĠyÄ«ĠhÃło":11559,"ĠzhÄĵnĠchÃ¡":11560,"ĠdÃŃĠyÃł":11561,"ĠyÃ¬nĠshuÄģ":11562,"ĠjÄ«ngĠjÃ¬ĠxuÃ©":11563,"zhÇĶĠyÃ¬Ġde":11564,"ĠkÃłngĠzhÃłnĠ":11565,"ĠzÄģoĠyÃ¹":11566,"gÅįngĠgÃ²ngĠjiÄģoĠtÅįngĠ":11567,"hÃ©ĠlÇĲ":11568,"ĠjiÄģĠsÃ¹":11569,"ĠjiÃłnĠzhÃ¬Ġ":11570,"ĠkÃ¨ĠlÃ©iĠ":11571,"zhÇĶĠjuÃ©Ġ":11572,"ĠmÇİĠgÃ©":11573,"jiÄģngĠtÄģ":11574,"ĠzÇĴngĠgÃ²ngĠ":11575,"Ġ2008":11576,"yÄĽĠkÄĽĠyÇĲ":11577,"jiÄģoĠhuÃ¬Ġ":11578,"qÄ«ngĠdÇİo":11579,"ĠdÅįuĠbÃ¨iĠ":11580,"ĠqiÄģnĠmÃŃngĠ":11581,"ĠzhÄĵngĠfÃº":11582,"ĠchÄģoĠyuÃ¨":11583,"jÅ«ĠzhÃ¹Ġ":11584,"zÇĲĠdÃłnĠ":11585,"ĠchuÄģnĠguÃ²":11586,"ĠwÄĵnĠdÃłiĠ":11587,"ĠshÄĽnĠyÃ¡ngĠ":11588,"ĠzuÃ¬ĠgÄģoĠfÇİĠyuÃłnĠ":11589,"kuÃ²ĠdÃł":11590,"gÅįngĠzuÃ²ĠshÃ¬Ġ":11591,"ĠniÇĶĠyuÄĵĠzhÅįu":11592,"tÇĲĠyÃ¹ĠguÇİnĠ":11593,"ĠshÄģnĠmÃłiĠdeĠyÄ«ĠbÃ¹ĠfÃ¨nĠ":11594,"Ph":11595,"rac":11596,"ĠĠĠwÃ¨iĠyÃº":11597,"deĠhuÃł":11598,"ĠwÃ¨iĠmÄĽiĠguÃ³":11599,"zhÃ¬Ġ197":11600,"xiÃłngĠzhÄĵngĠ":11601,"ĠzhÇİngĠyuÄĵ":11602,"ĠshÄ«ĠziĠ":11603,"shÄģnĠxÄ«":11604,"ĠwÃłnĠzhÄģngĠ":11605,"ĠgÇİiĠliÃ¡ngĠ":11606,"ĠzÄ«ĠzhÃ¹":11607,"biÄģnĠwÃ¨iĠ":11608,"eĠĠĠR":11609,"shÄģĠnÃŃĠyÃł":11610,"ĠxÅ«ĠgÃ²u":11611,"deĠyÄ«ĠtiÃ¡o":11612,"ĠshÇĶĠdeĠzhÃŃĠwÃ¹Ġ":11613,"ĠzÄĵngĠjiÄģĠle":11614,"rÃ¨Ġ":11615,"ĠshÃ¬ĠgÄģiĠ":11616,"chÃ©ngĠqÅ«":11617,"rÃ¨nĠzhÃŃ":11618,"xÄ«ĠshÅįu":11619,"ĠlÃ¹ĠdÃ©":11620,"ĠmÇİĠtÃ³u":11621,"ĠquÃ¡nĠde":11622,"ĠlÃŃnĠchuÃ¡ngĠ":11623,"ĠfÄĵngĠmiÃłnĠ":11624,"ĠyÇĲnĠjÃ¬nĠ":11625,"tuÃ¡nĠzhÇİngĠ":11626,"zhuÄģnĠjiÄģ":11627,"Ġ173":11628,"zÃłnĠshÃŃ":11629,"ĠyÃ¬nĠdÃ¹ĠnÃŃĠxÄ«ĠyÃł":11630,"jÃ¬ngĠwÃłiĠshÅ«ĠrÃ¹":11631,"ĠĠĠjÃ¬Ġ":11632,"ĠdÃ¬ĠhÇİiĠ":11633,"ĠbÃ¹ĠbÃ¹ĠzhÇİngĠ":11634,"ĠdÃłĠliÃ¡nĠ":11635,"ĠjiÄģĠÄĽr":11636,"ĠzhÄ«ĠqiÃºĠduÃ¬Ġ":11637,"ĠshÃłngĠfÇİĠlÃ¡nĠxÄ«":11638,"hÃºĠbÄĽiĠshÄĽngĠ":11639,"Ġ250":11640,"wÃłiĠjiÃ¨":11641,"dÃ¬ngĠjÅ«":11642,"zhÅįngĠguÃ³ĠgÃ²ngĠchÇİnĠdÇİngĠ":11643,"Ġ1990ĠniÃ¡nĠdÃłiĠ":11644,"ĠshÇĲĠyÃ²ngĠle":11645,"ĠxÅ«Ġde":11646,"ĠÃ¨rĠzhÃłnĠ":11647,"kÄģiĠshÇĲĠzÃłiĠ":11648,"ĠjiÃłngĠlÇĲngĠ":11649,"5ĠgÃ¨":11650,"600":11651,"90ĠniÃ¡nĠdÃłiĠ":11652,"ĠyÃ¡Ġ":11653,"deĠzhÅįngĠguÃ³":11654,"yÄ«ĠlÃ¬Ġ":11655,"rÃ©nĠsuÇĴ":11656,"ĠzhÃ¨ngĠquÃłnĠ":11657,"jiÃłnĠyÇĴu":11658,"ĠchÅ«ĠzÃ¬Ġ":11659,"ĠzhÇĶĠliÃº":11660,"ĠqiÃ¡nĠjÃ¬nĠ":11661,"zhÇĶĠtÃŃĠ":11662,"ĠmÃ³ĠgÄĵnĠ":11663,"ĠtÄģĠmenĠshÃ¬Ġ":11664,"Ġ69":11665,"ĠbÄ«ngĠchuÄģnĠ":11666,"ĠwÇĴĠ":11667,"ĠshÃ¬ĠjiÃ¨ĠyÃŃĠchÇİnĠ":11668,"ĠhÃ²uĠlÃ¡iĠzÃłiĠ":11669,"dÃ²uĠ":11670,"ĠliÃłnĠxÃŃ":11671,"ĠyÃºĠ2018ĠniÃ¡nĠ":11672,"ĠchÃ³uĠbÃ¨iĠ":11673,"wÃ©iĠyÄ«Ġde":11674,"4ĠniÃ¡nĠ1ĠyuÃ¨Ġ":11675,"ĠzÃłiĠyÃ¬ĠqÇĲĠ":11676,"ĠdÃłĠqÃ¬Ġ":11677,"ĠhuÃ¬ĠhuÃł":11678,"ĠlÃ¡iĠwÃ¹":11679,"dÃłoĠlÃ¹Ġ":11680,"wÃ¹ĠpÇĶ":11681,"hÃ¡iĠbÄģoĠkuÃ²":11682,"chÄĵngĠzuÃ²":11683,"yÄĽĠbÃ¹":11684,"ĠchÄĵngĠzhÄ«ĠwÃ¨iĠ":11685,"yÄ«ngĠguÃ³Ġ":11686,"ĠyÃ¨ĠjiÄģnĠ":11687,"ĠbÇİoĠjiÃłnĠ":11688,"ĠÄģnĠhuÄ«ĠshÄĽngĠ":11689,"ĠAn":11690,"ensi":11691,"ĠxÄ«ĠhÃ©":11692,"ĠjÄ«ĠhÃ©":11693,"ĠquÃ¡nĠguÃ³ĠzhÃ²ngĠdiÇİnĠwÃ©nĠwÃ¹ĠbÇİoĠhÃ¹ĠdÄģnĠwÃ¨iĠ":11694,"liÃ¡oĠ":11695,"ĠyÃºĠ2017ĠniÃ¡nĠ":11696,"ĠfÄĽnĠsÄ«":11697,"hÃºĠnÃ¡nĠshÄĽngĠ":11698,"IR":11699,"TP":11700,"deĠxÃŃngĠshÃ¬Ġ":11701,"ĠdeĠlÃ¬ĠshÇĲ":11702,"ĠhÃ©ĠbÄĽiĠshÄĽngĠ":11703,"ĠlÇĲĠgÅįngĠ":11704,"ĠduÅįĠyuÃ¡nĠ":11705,"ĠgÄģiĠzhÃłnĠ":11706,"yÃ¡nĠhÇİiĠ":11707,"ĠshuÇĲĠkÃ¹":11708,
[...]
