#version: 0.2
n g
h Ã
Ã ł
Ä ģ
Ã ¬
Ã ¡
Ä «
Ã ¨
Ç İ
Ġ Ġ
Ã ©
Ã Ń
s hÃ
Ã ¹
Ã¡ n
z h
Ç Ĳ
Å į
j i
d e
Ãł n
Ä ĵ
z hÃ
s h
Ä Ľ
Ã ³
Ç Ķ
x i
Ã ²
Ã º
Äģ n
ĠĠ Ġ
Ãł i
Å «
Åį ng
Ç Ĵ
ã Ģ
shÃ ¬
h u
Ã¨ i
g u
i Ã¡n
hÃ ©
Ãł o
Äģ ng
ÃŃ ng
y u
Çİ n
c h
n iÃ¡n
y Ä«
Çİ ng
Ã© n
ÇĴ u
Ã¬ ng
w Ã¨i
Çİ o
z Ãłi
ãĢ ģ
j Ä«
Äĵ ng
zh Åįng
x Ä«
b Ã¹
j Ã¬
Ãł ng
l i
zhÃ ¨
shÃ Ń
d Ã¬
gu Ã³
y Ãº
r Ã©n
Ã² ng
c hÃ
Äģ o
d u
c hÃ©
y ÇĲ
l Ã¬
Ã¡ ng
y Ã¬
u Ã²
Ã¡ i
zhÃ ¬
chÃ© ng
Ã© i
x u
g Åįng
j ÃŃ
² u
ÄĽ i
i Ãłn
Äĵ n
Ã³ ng
yu Ã¨
y ÇĴu
yu Ã¡n
d Ãł
q i
Åį u
l ÇĲ
2 0
Ã³ u
Äģ i
xi Ãłn
ji Äģ
s Ä«
Å« n
x ÃŃng
y ÇĶ
Ã¨ n
ÇĴ ng
ÃŃ n
t Äģ
r Ã¬
zh Ä«
hÃ ²u
Çİ i
g Ã¨
zhÃ ł
Ã© ng
l e
w Ã©i
hu Ã¬
d Ãło
1 9
b i
shÃ ł
q Ä«
q ÃŃ
shÃ ¨
s u
zhÃ¨ ng
m ÃŃng
ji Ãłn
xu Ã©
ch Å«
y Ã¹
ÄĽ ng
z uÃ²
sh Äĵng
du Ã¬
y Ã³u
q Å«
shÃł ng
ÄĽ n
d Ã©
l Ã¹
b Ã¨i
chÃ ¡
t i
sh ÇĲ
zhÃł n
zh ÇĶ
Äĵ i
q u
j Ã¹
xÄ« n
j Å«n
zh u
ÄĽ r
Ã¡ o
shÃ ¹
u Ã¬
r Ã¨n
f Äģ
w Ã¹
b Ã¬ng
k Ã¨
Ã© r
d Ãłi
y ÃŃ
jÃ¬ n
z Ã¬
yÄ« n
f Ã¹
f Äģng
jÄ« ng
n Ã¡n
hu Ãł
x Ã¬
zh Åįu
p ÃŃng
Ã² u
xi Ãł
l Ã¡i
y Ã²ng
sh u
gu Äģn
t Ã³ng
ãĢ ĭ
ãĢ Ĭ
f Çİ
zhÃ ¹
m ÄĽi
hÃ ¡
Â ·
ji Äģn
j ÇĲ
hu Ã²
d Ã¹
c hu
b ÄĽn
xi Äģng
zhÃ Ń
d Ã²ng
xi Ãłng
m ÃŃn
ji Äģng
f Äĵn
sh ÇĴu
qu Ã¡n
w Ã©n
y Ã¡n
hÃ ł
su ÇĴ
ji Ãło
q iÃ¡n
d iÃłn
t Ã¨
d i
du Åį
Ãº n
z uÃ¬
k Äģi
t u
ji Ã©
l iÃ¡n
zh ÇĲ
k ÄĽ
d Ãłn
m Ã¹
y Ã¨
f Ãº
m Çİ
y ÄĽ
d Åįng
qi Ãº
b ÄĽi
ãĢ Į
ãĢ į
g Äģo
y Ãł
q ÇĲ
ji Äĵ
m iÃłn
h Çİi
zh Çİng
sh Ä«
jÄ« n
c ÇĲ
l u
n Ã¨i
t ÇĲ
s Ãłi
s Äģn
t Ã¡i
g Ã©
x Ã¬ng
gu Ã²
r Ã¹
20 1
d ÄĽng
y Ãło
j u
ch Äĵ
c Ã¬
w ÇĶ
g Äģi
d Ã¬ng
chÃ¡ ng
bi Çİo
l Äģ
g Ã²ng
ji Ã¨
shÃ ²u
d Çİo
sh Äģn
ch Çİng
s Ã¬
b ÇĲ
z Ã©
t ÃŃ
k Äĵ
d Äģng
n Ã©ng
Ã¨ r
w Ãłi
d Äģn
x Ã¹
z i
k ÇĴu
xi Çİo
z ÇĶ
b Äģ
ju Ã©
l ÃŃn
li Ãº
sh ÄĽng
yÄ« ng
k u
l Ã¡n
lu Ã³
t Åįng
20 0
Ä« ng
² ng
m ÇĲ
zhÃ ²ng
e n
zh ÄĽ
sh ÇĶ
ti Äģn
zhÃ¨ n
Ç ļ
q Ã¬
zh ÇĴng
li Ã¨
ch Äĵng
sh Å«
yu Ãłn
b Çİo
t Ãłi
f ÇĶ
f Äĵng
g ÇĶ
qÄ« ng
sh Äĵn
w Ã¡ng
yÃ¹ n
gu Çİn
f Äĵi
ji Ã¹
li Çİng
c Ã©ng
m Ã©i
1 0
f Ã¨n
hÃł o
³ ng
y Çİn
w ÄĽi
z ÇĴng
xu Çİn
xi Ãło
d Ã¡
n Ãł
li Ãłng
b Åį
z Ãº
j Ã¬ng
b Ãło
n ÃŃ
w Ãº
t ÇĴng
hu Ã¡
ji Äģo
yu Äĵ
yÇĲ ng
b iÃłn
xÄ« ng
s Ã¹
shu ÇĲ
y Ã¡ng
hÃ ¹
m en
b Äģo
g Äĵ
b Ã³
c Äģn
c Ã³ng
di Çİn
b Ã¬
r Ãº
b Ãłn
bi Äģn
w Çİng
q ÇĶ
m i
ch Çİn
s Ã¨
z Ä«
chu Ã¡n
0 0
shÃ¨ ng
r Ã¡n
t Ãº
zh Äģng
p ÇĶ
g Çİi
g Çİng
n Çļ
l Ã¬ng
l uÃ²
y Ã²u
t Ã³u
c Ã¨
l Ç
chÃ Ń
1 8
lÇ ľ
qi Äģn
shÃ ©
l ÃŃ
d Åįu
p ÇĲ
1 2
zh Äĵng
n i
k uÃ²
sh Äģ
d Çİng
f Çİn
g Ã²u
l Ã¨i
x ÃŃ
jÇĲ ng
tu Ã¡n
w Äĵi
xi Äĵ
lÇĲ ng
l Ã³ng
gu Ä«
xi Äģn
r Ã³ng
hu Ã¡ng
xi Çİng
b Äģn
ji ÇĶ
y Ã¬ng
m Ã©n
sh Äģng
shÃ© n
20 2
b Çİn
k Çİ
m ÇĶ
jÇĲ n
f Å«
j ÇĶ
m Ã³
gu Çİng
c ÃŃ
shu Åį
q ÃŃng
zh Çİn
hÃ¡ i
zhu Äģng
m Ã²
c Ã¡i
d Ãº
1 1
pÇĲ n
t ÃŃng
chÃ¡ o
y ÃŃng
ti Ã¡o
ji Çİn
t Ã¡ng
hu ÃŃ
du Ãłn
chÃ© n
g Äĵn
m Ã¬
w Ãłn
p Ã¡i
w Äģn
z Ãło
hÃ¡ ng
w Ã¡n
bi Äģo
g Ã¹
l Ãºn
19 9
xi Ã©
ji Çİng
hÃł n
j Ãº
f Ãłn
f Ã¡ng
hu Ã³
hÃ¡ n
p i
k Åįng
o r
ti ÄĽ
m Ã©ng
bi Ã©
w Å«
ji ÄĽ
zhu Äģn
yÇĲ n
x Å«
zh Äĵn
d ÇĲ
e r
chÃ º
hÃ º
ji Ãł
b Ä«ng
m Ã¬ng
l ÃŃng
hÃ ³ng
qÄ« n
z ÇĲ
lÃ¹ n
xÃ¬ n
chÃ ¹
ch ÇĶ
s Å«
a n
xi Å«
z Åįng
1 5
qu Ã¨
xi Äģo
zhÃł o
qi Ã¡ng
q Ã¹
c Å«n
chÃ ³ng
p iÃłn
ji Å«
f Ãłng
su ÃŃ
sh Åįu
gÃ¨ ng
â Ģ
gu Äģng
Ã¨ ng
j Å«
o n
ji Çİ
chu Ãłng
d ÃŃ
1 6
zhu Çİn
gu ÇĴ
xÃ¹ n
m Ãłn
p Ãłi
f Ã¨i
p Ã¨i
19 8
d Çİ
tu Åį
l a
xu Äģn
b Ã¡i
zh Å«
d Å«
t ÇĶ
di Ãło
xi Ã¡
li Ã¹
1 7
su Ã¬
hu Ä«
t Ä«ng
qi ÄĽ
t Çİ
qi Ã¡o
h Äģ
g Çİn
z Äĵng
xi Çİn
m Ãłi
hu Ã¡n
x ÇĶ
w Çİ
tu Ä«
w Ã¨n
ch Äģo
t iÃ¡n
b Çİi
c Çİi
li Ã¡ng
y Ã¡
s Ãł
a r
b Ãłi
c Ãºn
ji Çİo
sh Çİo
y Ãłn
zhu Ãłng
hu ÇĴ
l Ã©i
1 4
z u
ji Ãłng
chu Äģn
yÃ¬ n
z Çİo
chÃ ł
y ÇĴng
s ÇĲ
d Äĵng
3 0
zhÇĶ n
l Ã¨
x Ãºn
n uÃ²
k Ã¹
hu Ãłn
s Ã²ng
g Ãło
l ÇĶ
1 3
19 4
b Äģng
l Çļ
p Ä«
y Ãłng
h ÄĽn
q Ãºn
zh ÄĽng
gu Ãłn
p Ã²
g Äģng
w ÇĴ
19 7
hu Äģ
l Äĵi
h Çİo
t Ã¡o
ku Ãłng
hÃ ¨
i n
dÃ¹ n
n Ã³ng
g ÄĽi
s Äģi
shu Äģng
li Ãłn
ku Ãłi
d Ä«
b Ä«
p Ãłn
xi ÄĽ
19 5
k Çİo
g Ãłi
h Äĵi
w Ãłng
li Ãło
r Ã¨
g e
zu ÇĴ
k Ã²ng
19 6
y Äģng
chÃł ng
y ÃŃn
³ u
r Ã©ng
s Äĵn
b Äĵi
l Ãº
pi Ãło
y Äģ
2 5
bÄ« n
âĢ Ķ
r Ãłng
ch Åįng
l Ã³u
b ÇĶ
l Çİo
zhÃ º
jÃ¹ n
y Çİng
r uÃ¬
y Äģo
xi Ã¡n
xi Ã¨
n iÃłn
f or
y Åįu
t Ã¡n
k Äģng
p ÃŃ
hÃ© ng
yÃº n
x ÇĲ
k Ãłn
n ÃŃng
li Ã¡o
shÃł o
b Ãº
2 4
qÇĲ ng
ch ÇĲ
m u
d Ã²u
mi Çİn
y Åįng
t Çİn
w Çİn
h Å«
f Äģn
a l
t Å«
g Äģn
su Ãłn
d Ä«ng
yu Çİn
w Äĵn
t uÃ¬
zh e
2 1
s t
xi Ã¹
b Çİ
m Çİn
19 3
2 3
mu la
k Ãłng
for mula
2 8
t h
m Ã¡o
r uÃ²
pi Äģn
chÃ ¨
m Ãło
l Çİng
q ÃŃn
b Ã¡
n Ã¡
z Ãłn
gu ÇĲ
gu Ã¬
o u
p ÃŃn
w Ã²
xi Ã³ng
shÃł n
r e
2 2
xi Åįng
m e
su Ä«
Ã ¼
2 6
sh ÄĽn
q Ã¬ng
mi Ã¡o
f Çİng
5 0
20 20
2 7
l Ã¡ng
r u
qi Å«
s Åįng
Ã¼ Ã¨
d Ãłng
g Äĵng
qi Äģng
r i
f Ã¡
z Äģo
f Ã¨ng
zhÃł ng
ï ¼
hÃ¡ o
d Å«n
z ÇĴu
hÃł i
qi Ã¨
2 9
t Ãłn
p Ãło
p Ãł
shÃ¹ n
p Ã©ng
xu Ã¡n
201 0
n ÇĲ
00 0
dÇĲ ng
ni ÇĶ
z Çİi
zh Äģo
zhu Ä«
l Ã¼Ã¨
ch Å«n
20 19
h Å«n
k ÇĴng
du Äģn
shÃ¨ n
xi Ã¡ng
du Çİn
g Ãłn
t e
r o
k Äģn
l Ã¡o
c Çİo
201 6
s i
g Å«
p Ã©i
201 8
ku Çİn
z Ã¡
s Å«n
y Ã©
y Çİ
p Åį
202 1
r a
. 5
chÃ ¬
du Ã³
201 4
f Ã¡n
201 1
201 5
c uÃ²
201 7
zhÃ ©
y Ã¡o
p Äģi
t Ã²u
c Ã¡ng
201 2
4 0
k Çİi
201 3
202 2
m ÃŃ
ru Çİn
su Äģn
ch Äģ
z Ãłng
mi Ãło
l t
200 9
zh Çİo
200 8
hu Ã¡i
ã ĥ
c e
6 0
a m
c u
xu Ã¨
chÃ ³u
s e
b Çİng
m Ã¨ng
10 0
t Ã¬
p Ãº
n Çİo
202 3
zhu Ãłn
g t
l ÄĽi
19 0
3 1
c Ãłi
c Ã¹
s Ãłn
m Ã³u
ti on
t a
hÃ¹ n
ÇĶ n
ku Äģn
200 7
ni Ãº
m ÇĴu
t Çİo
di Ã©
200 1
o l
t Ã©ng
s Åįu
k ÄĽn
qi Çİn
0 .
ch Äģng
r Çİn
qu Äĵ
f ÇĴu
s ÇĶn
e l
b Ãł
200 0
8 0
k Ãło
su Åį
200 6
ni Çİo
chÃº n
m a
202 4
l Çİn
ã ģ
z Äģi
zhÃ ¡
xu ÄĽ
hu ÇĲ
lu Ãłn
1 .
tÇĲ ng
200 5
z Å«n
b Ãłng
l Ãł
hu Äģn
r Çİng
sh uÃ¬
mÇĲ n
3 5
l Ãłi
c Äģng
7 0
f Ã³
p Ã¡n
o f
n Ãłi
w ÄĽn
e t
c Äģo
s Äģng
p Ã¡ng
9 0
2 .
bÇĲ ng
ï¼ į
zh Äģ
ã Ĥ
shu Ãłi
ni Ã¨
e s
hÃ ³u
m Ã¨i
sh Äģo
n ÇĶ
d ÇĴng
i l
a t
o w
f Ã©ng
mi Ã¨
yÇĶ n
z Ã²u
m Çİi
hu Ãłi
200 4
4 5
y Äģn
c o
4 8
th e
zhu Ã³
an d
t er
h e
t Ãło
n Çİi
k Å«n
202 5
zh ÄĽn
c k
r ÇĶ
ku Ãł
ku ÃŃ
ãĢ ī
ãĢ Ī
g Åįu
3 6
cu Ä«
3 8
sh Çİn
r Ã²u
di Äģo
200 3
h ÇĶ
gu Åį
3 7
c uÃ¬
n e
x Ãº
m Ã¡ng
ju Çİn
c Ã¡n
di Äģn
zh Äģn
c Ã¡o
18 9
I N
200 2
3 .
i s
b o
k Äĵng
T C
v e
3 4
m Ã¡
l ÄĽng
a s
z Å«
7 5
âĢ ĵ
s Ãº
qu Äģn
d Äģ
t o
ch Äģi
n u
l Ãłng
kÃ¹ n
4 6
t Ãºn
f ÄĽn
199 0
âĢ ¦
zhÃ ²u
sh Çİng
r Ãło
h Äĵng
t Ä«
x Å«n
3 9
n Ã¨
. .
p Ã¬
n Ãłn
p Äģn
6 5
h Åįng
shÃ º
t Äģn
C h
t Äģng
k Çİn
M a
n Ã¬
3 2
I n
S T
4 7
h Çİn
i t
U TC
q iÃłn
199 9
199 8
198 0
18 8
5 00
3 3
6 4
qi Çİng
sh uÃ²
p Çİo
l o
b e
k Äģ
zhÃ¡ i
. 8
S E
5 5
qu Ãłn
n Ä«
d Ã¨ng
199 7
T he
m iÃ¡n
4 9
g Çİo
I I
6 8
C o
v i
sh ÄĽ
z Ã¨ng
R e
h an
zhÃ ³u
zhÃł i
4 4
199 6
n a
ti Äĵ
d Äģo
a d
b r
199 4
v er
f Ã©i
z Ã²ng
qi Ã³ng
c i
ti Ãło
chu Ã¡ng
. 0
. 7
199 2
b a
chu ÃŃ
ju Äģn
chÃ¡ i
mi Çİo
gu Äģ
xu Äĵ
t Ã²ng
199 5
f ÄĽi
. 9
ch Ä«
o o
m ÄĽng
w Åį
6 7
i r
shu Äģi
tu Ã³
chu Äģng
hu Çİn
199 1
197 0
5 8
a y
195 0
c a
n d
gu Ãł
chÃ¡ n
3 00
w Äģ
199 3
18 7
194 9
. 6
p e
s Äģ
ti Çİo
A T
196 0
bi Çİn
4 2
194 5
i ng
gu Ãłi
a u
k ÇĶ
n Ãº
198 8
d ÇĶ
198 9
i g
p Ã¹
6 9
li ÇĶ
g ÇĴng
SE E
t uÃ²
am p
c t
li Çİo
IN SEE
5 9
t Äģi
4 3
6 6
chu Ãłn
o p
chÃ¨ n
o s
5 7
198 5
hu Äģng
9 9
S A
ãĢ İ
cÃ¹ n
ãĢ ı
198 4
hÃº n
4 1
p Å«
l y
u s
k Ã²u
f Ã©n
8 8
198 6
r Çİo
m p
S t
i d
rÃ¹ n
T V
15 0
zhu Åį
in d
4 00
s Çİn
198 7
7 8
u n
e d
h a
198 2
5 6
L i
u r
ar d
nu Ã³
198 3
N A
gÇĶ n
R o
D e
s s
m Äģ
t ou
pÃ¬ n
C D
ch Åįu
b er
g ÇĴu
qu Çİn
M i
7 7
zh Äģi
M e
qi Ãł
m Äģo
qi Çİo
M ar
t w
k Å«
ku Ã¡ng
r Ã³u
de r
7 9
l Ã²u
O S
Â °
k uÃ¬
s Ãłng
ï ½
A l
18 0
t y
B C
5 4
197 9
6 1
19 20
. 2
a ng
p Äĵn
9 8
s Äĵng
5 2
Y ou
a p
197 8
n Ã¹
. 1
w Äĵng
6 2
y Äĵ
du ÇĴ
L e
5 3
xÇĲ ng
ju Ãłn
ï½ ŀ
B A
k e
194 6
t s
C O
m o
c tion
5 1
195 8
198 1
. 3
V i
197 2
194 8
zhu Ã¬
. 4
c Åįng
t Åįu
A M
h i
6 3
m an
ow s
A R
r y
194 1
W ind
B S
w Ã¡
li Çİn
19 30
M o
P ro
lu Çİn
ku Äģng
q Ãº
tu ÇĴ
k Ã©
7 6
han s
v a
194 0
193 7
c on
197 6
zu ÇĲ
194 4
J o
8 9
197 5
u m
ï¼ ı
T e
196 8
ni Ã¡ng
p Ã³
shu Äģ
h k
yu Äģn
t Äģo
p er
w Äģng
g a
10 00
r an
Wind ows
9 5
N e
b ÃŃ
s Çİo
d a
8 7
196 6
8 5
f Ãł
p Äĵng
6 00
l Ãłn
S e
S ta
s p
1 20
194 7
G a
A r
o t
g Äģ
195 6
A C
196 4
d Çİn
c Å«
194 2
195 5
ch ÇĴu
la y
195 2
193 9
I S
193 8
7 2
7 4
h t
r ÄĽn
197 3
a ce
f i
197 4
195 4
qi Äĵ
E D
19 00
- -
B e
A P
or e
194 3
197 7
D a
197 1
pÄ« n
p ÇĴ
m Ã¡n
196 7
shÃ© ng
men t
I C
8 00
E R
L a
8 6
195 9
b Äĵng
s on
196 5
J R
196 9
R a
du Ä«
D i
o k
p Ã©n
ãĥ »
Ã Ĺ
qi Ãło
chu Ä«
I D
qi Äģo
S u
in e
193 6
16 0
9 7
b Äĵn
zhu Äģ
en t
195 3
S a
196 2
M A
T u
ti c
196 1
l ÇĴng
a tion
â Ķ
193 5
t Ãł
m Ã¡i
S h
9 6
O N
a k
ï¼ ħ
195 1
195 7
196 3
L o
âĶ Ģ
on e
r ou
8 4
J a
202 6
d o
c Çİn
8 2
g i
b u
m er
7 3
p o
9 4
t Å«n
9 2
S o
A N
I P
A n
h o
a li
193 3
M u
193 1
n Ã¡ng
ni Ãło
le s
7 1
b Ã¡o
nu Çİn
l Ã©ng
p Ã¡
8 3
9 3
a i
W e
8 1
d ÇĴu
19 18
st a
H D
B o
s Äģo
U ni
19 28
lu Ã¡n
k i
193 2
w i
n Ã¨n
c ol
in t
M V
S S
ou r
1 10
t Ã¹
I T
19 12
al l
19 29
tu ÇĲ
du Ã²
19 27
c n
193 4
ar e
P a
7 00
1 .5
g Ã¡
ch e
b y
te d
st er
hu Çİng
S i
25 0
f f
9 1
m m
P ar
z Ã©i
R i
19 24
p p
p h
.. .
19 19
ku Ä«
H e
s o
xu Ãłn
1 30
pi Äģo
n o
19 25
P S
P lay
p Äģo
14 0
xi Äģ
B u
C a
S M
C on
S p
P C
19 14
b le
st e
zh Çİi
k m
D V
zh Äĵ
E n
me s
You Tu
co m
B a
h Äĵ
F i
T i
di Äĵ
el l
g ra
l Çİ
A S
i a
19 11
W i
sh i
en d
il l
n Ã¼Ã¨
an a
ar a
G e
19 26
de n
19 22
N a
n Çİ
si on
hÃ¨ n
19 17
E T
N BA
I V
shu ÃŃ
c Äģi
r Ã¡o
E N
19 23
ar t
19 21
f e
p Ã¨ng
s a
k a
ku Äģ
G oo
th er
0. 0
ch ÇĴng
T o
17 0
à ¸
E C
l d
m Çİo
n Ã²ng
A L
H a
M S
se ction
N i
YouTu be
E P
h n
B L
19 13
ti Äģo
J u
H K
le r
2 .5
â Ĩ
han t
gÃ¹ n
190 9
g in
In ter
c ro
S te
M P
A I
H o
g ÄĽng
W or
n Ãło
P o
f ÄĽng
D o
lu ÇĴ
U S
an t
g o
y a
DV D
or t
z Åįu
ri s
3 000
P i
c Äģ
C ar
19 10
R O
D S
T h
1 12
A K
M y
p en
R E
p ro
v en
19 16
Sta tion
ãĥ ¼
c huÃ²
N et
Î ±
K i
S ch
ol o
N o
ar i
tu re
g n
L in
C P
U N
g le
â Ī
er s
hÃ© n
19 15
ou n
ni Ãłng
190 5
F C
m y
L u
l l
W il
C N
â Ħ
âĨ Ĵ
190 1
F a
A u
ti ng
Ne w
D NA
E x
âĢ §
ar y
9 00
P h
si c
H R
di ce
si s
. &
C H
z ÄĽn
T A
di a
Q u
T O
190 6
le n
190 4
chu Çİng
2. 0
A V
F or
g ÄĽn
Jo hn
w e
er e
A nd
M O
di ng
co dice
ch Çİo
ji ÇĴng
âĦ ĥ
T a
p a
p s
Play Station
f u
k o
w Ãł
b Ã¨ng
0 5
C C
t on
v o
er i
di Å«
190 7
190 8
Goo gle
A G
E ST
0 .5
M I
zu Ãłn
S O
or y
te s
L E
G u
ji Ã¡
zu Çİn
c y
l Ä«
ch i
le y
B O
en ter
B BC
A D
I G
c al
II I
C u
4 .
c ri
of t
15 00
R u
li n
5 000
or i
zu Äģn
p u
G o
I ST
sh Äĵ
lÇ ĺ
F e
C ol
w or
S y
K a
M E
ti ve
C R
g en
3 D
w it
rou nd
6 .
I A
gu Çİ
10 5
j e
r on
m Ãł
Ð °
10 1
190 3
G B
p Ä«ng
ch a
shÃ ¡
l an
0 9
T E
re e
A d
H u
c Ãłn
c Ã©n
190 2
B D
N C
l and
c an
z e
ow n
es s
p Äģng
x t
3 50
w a
in a
SA O
shÃ¡ o
5 .
D C
n et
sp an
de s
Î ²
g ht
lÃ¬ n
en ce
B 1900
in c
B1900 .0
bo ok
de l
E S
B M
ï¼ İ
d y
ãĥ ³
H i
189 8
0 6
1 18
P e
m s
ãģ ®
l Ã¡
p t
qÇĲ n
te l
3 60
D R
m on
0 1
D A
g h
O pen
189 5
l Ãło
y le
12 5
m Ãº
la r
b Ã¨n
3 .5
H O
K o
1 %
M C
an ce
AT P
Mi cro
Ð ¾
10 8
g y
2 %
N G
p Åįu
ig h
s y
c or
t t
di o
K e
qi Ã©
z a
A pp
P u
ni ng
gra m
I F
F ran
f t
re s
Co m
ti n
âĪ Ĵ
0 7
0 8
2 30
F ace
10 4
D u
re f
O ne
Wor ld
ol d
S er
s oft
ED T
IST AT
M on
S tu
sh Äģi
.5 %
s ÇĴng
à ¤
N O
n er
189 6
C or
L L
B i
g er
lu s
10 9
D P
y Å«
la s
A A
f li
Co mp
re a
g ÄĽ
R I
v el
r en
li ne
R T
su ÇĲ
S P
xi Ã¡o
qi Çİ
E X
r ÄĽ
B ar
B ri
li ng
ber t
B 48
10 6
18 90
ct or
C ST
S an
M L
CD T
Lo ve
it y
m ar
3 %
z Äģng
ro w
D O
wi th
H E
f a
P er
p Äĵi
w ard
H ar
M an
d s
tion al
ta in
j a
0 4
4 000
11 5
cu Ãłn
1 200
k y
u x
ou nd
ig ht
M 1
50 %
0 3
G P
p Ã¡o
C E
ba ck
188 9
be gin
6 %
J e
189 9
o ol
col span
187 1
ri ng
E d
R S
ow er
mi c
Face book
lu de
Wil li
Micro soft
âĢ ĭ
24 0
tu r
Ma c
16 00
L O
Li ve
B E
ck et
10 2
c c
k er
10 %
bo x
T T
189 7
G i
N H
E E
chÃ ²u
P re
T ri
11 7
O n
P P
qÃ¬ n
4 %
k s
I s
S C
0 2
v an
5 %
c m
shu Çİng
st yle
m b
10 3
AK B48
M D
y Çİo
10 7
G ra
b li
Mu sic
G re
oo d
c Ã²u
0. 00
Lin ux
inc lude
D is
O r
T ra
P ri
t Çİng
w w
N or
p ha
mi n
8 %
O ri
y e
on ly
4 50
V ID
tu s
12 7
ma s
t ra
Da vi
qu e
an e
12 8
ali gn
4 .5
l Äģo
li s
ou s
1. 2
Ga me
fli x
9 %
C L
or a
Net flix
E l
189 4
2 20
r in
B er
Ð ½
s er
Willi am
I L
V o
S H
s ti
ro m
T wit
18 80
Re d
y i
R NA
z Ã¡o
13 6
P G
F u
Ð ¸
er o
ãģ Ħ
T R
20 %
st ra
Te am
7 %
18 00
W a
ãĤ ¹
Uni ver
g round
t or
188 5
ng e
li Çİ
11 4
an o
ãĤ ĵ
p iÃ¡n
ru s
H z
T y
Ch ar
col or
11 6
28 0
na me
St ar
E u
G en
U R
h y
Ð µ
11 3
er a
l la
188 6
7 .
si ng
ãĤ ¤
T S
t en
Sch ool
P O
m Çİng
la ss
189 3
.9 %
ir l
B la
M c
e x
1. 8
ni c
ou t
11 1
Mar k
S L
ir st
ã Ħ
.8 %
ci al
Su per
D on
a c
.4 %
W al
.3 %
je ct
le x
m ÇĴ
an s
âĢ »
t ri
li a
i e
m Åį
13 5
.7 %
Davi d
26 0
18 60
90 %
na tional
Ge or
M or
y s
n ÃŃn
gu e
t le
an y
5 .5
P et
W TA
w ay
.1 %
rou p
H C
M at
80 %
8 .
ni s
ce s
U A
U n
w as
ou se
h am
188 8
.2 %
A c
te xt
.6 %
S D
- .
ca tion
B ra
on y
ro id
1. 6
back ground
y Å«n
d Çİi
re am
Sh ow
12 9
G O
o m
ch Äĵn
18 70
st ri
G N
ï ¹
30 %
C he
ni a
188 7
b ur
d on
p ri
shu Äģn
18 68
6 000
c le
Ã ¶
Ñ Ģ
188 3
C y
N F
V A
lu b
mer i
K u
an k
Me ta
3 20
A b
X box
C S
N HK
A F
D D
Twit ter
K P
n y
only include
T ho
en s
pi Ã¡o
+ +
bi t
t Ãłng
18 64
âĢ ¢
I ON
188 4
1 19
R C
U E
ti s
12 2
C l
25 00
189 2
2 10
6 .5
A 1
o ng
in s
W h
c enter
le t
mi Ã¹
15 5
S ou
IS O
â ħ
14 5
189 1
6 50
7 .5
9 .
p re
And roid
G irl
se l
N S
c ar
v il
ãĢ ķ
si l
O R
y o
A s
ãĢ Ķ
18 50
on a
cu Åį
ht t
re d
l ow
x y
en sis
Inter national
D ay
c er
m Ä«
18 67
ste m
I M
p Ãłng
ãĥ Ī
Al l
N ation
se d
187 9
m ber
Ja mes
En ter
W ar
f fi
3 80
A B
U P
di s
40 %
187 6
C oun
V er
1. 4
Univer si
i m
v in
Geor ge
H er
18 75
18 61
27 0
D ra
t d
li e
si a
el d
A ir
G roup
I R
ch o
ti me
12 6
am a
2. 4
N T
P au
l or
in ter
A ni
S pe
Ga mes
NG C
H y
st ru
ãĥ «
187 3
H ol
M G
12 3
ãĥ ©
E ng
P V
100 %
B en
H T
v al
Col le
d ay
M B
16 8
CO VID
cri tic
C lub
F M
H en
lu e
18 65
il d
A O
P L
th at
as s
A meri
D E
12 1
C enter
u t
cu s
1. 0
B lo
17 5
ãģ Ĩ
We b
H 2
Y P
f rom
Ã ¤
14 00
A li
o d
MA X
wor k
p ar
13 8
2 28
T P
f er
18 48
chÃł n
1. 3
a st
al d
ne y
li Å«
18 62
60 %
3 30
d ge
p ÄĽng
12 4
ãĤ ¢
188 1
188 2
7 37
a ge
C an
187 8
5 50
S ha
gu Çİi
ru ÇĲ
187 2
E le
L C
bÃ¬ n
70 %
IN K
Meta critic
Ori con
b or
n Ã¡o
15 6
M TV
U C
b ri
16 5
co mp
B oo
L ED
f o
18 40
ni Çİn
IV E
H igh
S pi
c ore
d Äģi
w an
7 50
I t
n s
t ro
shÃł i
ãĥ ĥ
olo gy
mi ng
13 00
ãģ Ĺ
13 7
sta gram
7 000
1. 1
9 3.
B ro
D OS
S Q
U B
22 9
I U
c re
z o
C hu
G DP
K ing
O K
Ñ ģ
en a
2. 2
Le a
S he
r and
15 2
al s
St re
TV B
Mi cha
V a
li p
15 9
187 7
Ro bert
ty pe
S ur
â Ĺ
ku ÇĲ
18 66
ri st
Ch i
Ch ris
P at
i OS
Ð »
ol y
Pro du
S K
18 69
âĢ ²
sil ver
T HE
U p
4 .0
C e
D M
g ar
h er
s en
xi ÇĶ
15 %
F ri
N ET
P la
2. 8
Ð º
sh e
13 9
In stagram
Ph one
B I
C ++
st ar
BL AC
Ty pe
B ig
p or
Ð ²
D J
r Äĵng
0. 3
is s
App le
C G
H el
W E
e w
ra y
ãĤ ¯
co de
Micha el
A t
D F
ï ¸
ar k
al k
1 100
15 8
on s
at or
Te ch
Pau l
2 25
30 5
13 3
IN E
ci a
R A
s Çİ
ãĥ ª
A ward
H I
Y O
13 2
Ste am
20 5
18 63
Par k
Nation al
B ill
Y e
25 %
1. 7
tain ment
2 15
C i
b ra
st o
ne w
Universi ty
F O
r al
3. 6
Me dia
C A
F 1
K BS
V al
14 8
13 1
L ou
S mi
16 6
ar ch
2. 7
187 4
ss o
E F
M er
X X
b al
k g
n ow
18 58
F in
K ar
T ran
g on
v es
14 7
2. 6
sp ace
Bla ck
T er
a ch
g an
Pet er
G ar
de o
25 6
ãģ ĭ
G A
I E
M 2
k ÇĶn
18 30
2. 3
Ri ch
C BS
U T
18 51
Le e
B N
U I
19 2
z er
Î ¼
ad a
8 000
ch ÄĽ
3. 0
Ja ck
Enter tainment
3 10
4 .8
J ap
W in
lÇĲ n
bi n
mi ni
14 3
se t
C ity
M k
g Ãłng
18 55
ri e
at er
In tel
P ower
E M
I X
S am
h Çİ
Sp ace
R AM
ð «
18 5
18 59
zu Ã³
ST AR
shi p
Char les
b el
p y
13 4
Di re
A ng
A BC
F la
en e
18 54
14 6
30 1
en ti
17 00
Vi u
Ja va
3 70
i f
18 57
F ree
G M
P y
T ai
w hi
st ro
v s
Ø §
10 .
an n
29 0
ãģ ª
Li fe
ï¸ °
E r
P an
V e
Î ³
2 14
4 20
D ream
Y a
Ñ Ĥ
1. 9
Re cor
Al pha
Comp any
sti tu
e k
f ang
f ace
Î ¿
ãĢ ľ
mi s
18 56
18 53
Pro ject
A m
H ouse
P op
f irst
di um
ãģ Ł
et y
Ti me
Tho mas
C al
M in
a e
o x
v on
v is
14 4
Sa int
F A
K en
O VA
75 %
C ent
T ru
V O
b Ã²
A 2
I O
16 7
Stre et
3 A
H S
S BS
sh Çİ
bi li
ku Çİ
18 41
ver y
A lex
B at
L P
L au
T or
di n
ri c
3 40
P M
P or
S hi
chu Çİn
ma t
ma tion
BLAC KP
7 .6
9 2.
M et
p le
z Äģ
20 8
18 15
17 8
CP U
BLACKP INK
2 23
3 3.
B ur
c is
m Ã¨n
So ci
Stu dio
Eu ro
8 50
L GB
S ing
p la
ch er
zu Åį
se s
Ro ck
ww w
I BM
s pe
S F
20 7
di e
p lay
s g
ni e
17 1
23 5
ta tion
ãģ ¨
ãģ ¾
D ig
F er
L IVE
M r
P E
S U
V E
Y u
n Ã¬ng
20 3
B 2
W hi
n ot
Ar t
SQ L
P ad
18 46
16 4
for d
oo t
Colle ge
b re
c ra
15 7
vi ce
ber g
pu bli
B R
L T
N E
li t
14 1
IC E
4 .7
4 .6
8 .5
B 1
C ro
C ap
S un
on d
17 6
th y
IN G
bo ard
In c
Te le
Ameri can
A sso
L S
h Äģn
y ou
Â ²
18 12
18 45
18 44
si gn
3. 2
Ro ad
Girl s
sel f
Z e
s ch
mi t
23 1
O ffi
c ture
c lass
H F
L td
M 3
M il
R os
ãĤ Ĭ
wit ch
LGB T
A g
b all
20 9
ce ss
ãģ į
of f
2. 1
2. 9
NA SA
GN U
L A
w Äģi
de d
Jo se
Smi th
C la
G er
P A
P ra
am pi
IU CN
2 16
P N
Î º
18 49
15 3
te mp
ve d
Goo d
C T
F il
N BC
T our
w h
zh ÇĴu
sh a
20 4
23 8
au rus
Produ ction
B B
C ra
G al
H all
S ci
n al
o i
y n
vi sion
Vi deo
Ga la
G T
O 2
l Äĵ
p m
u e
Ï ĥ
mi ted
or ts
in o
tion s
E li
P R
S ky
t al
20 6
le a
qu i
ma c
4 60
5 .0
a b
m al
w in
18 14
or g
2 18
a ni
f ra
eri es
Rich ard
S I
l ti
w ar
chÇĶ n
ri ch
ang e
IG N
5 .8
A ct
L D
â ĸ
pi c
Bo y
F ar
T ur
W S
Ï Ģ
de f
18 47
15 4
3. 4
tur n
5 80
6 .0
A ma
F F
b un
e p
f ri
le d
18 43
man n
Be st
ph y
Sy stem
pt r
4 30
M as
M BC
P lan
z z
17 7
40 1
che m
4 10
B el
S al
ãĤ ·
NF L
Viu TV
S witch
W o
k ing
16 3
0. 2
AM D
AP I
We st
Jap an
I CO
b ar
b us
u p
men ts
18 52
16 2
th on
es ti
Ch rist
cri pt
V II
18 20
11 .
or n
ge t
th is
ãģ ı
Ma x
F re
P rin
c il
14 2
23 4
ri a
Ro y
5 .7
V R
17 2
ãģ Ĭ
ãģ ķ
Recor ds
6 40
D an
S qu
V ir
w ood
16 9
35 00
Li mited
C ore
K C
T 1
g s
p hi
Â ±
18 39
ar s
23 2
3. 7
da ta
4 80
C M
c Ä«
17 9
th i
ca de
fu l
20 30
en i
14 9
0. 1
ma x
36 5
3. 3
In stitu
H ow
v ar
18 21
ãĥ Ń
ãģ ¿
Ch a
ay a
Uni code
RO M
CC TV
3 90
B U
R es
V ol
X P
n ess
t v
30 6
al o
22 2
60 1
0. 4
un ch
5 .9
F an
tu be
17 3
it ch
Bo b
E A
P F
12 .
24 7
it al
C amp
K K
li an
pi ng
17 90
der s
2 11
5 60
F un
O H
S N
k h
w id
or d
ãĥ ¬
ci ation
B F
E s
T op
V M
t ran
3. 8
For ce
H ot
M U
P D
P H
S ir
shu Çİ
18 3
17 95
30 3
re w
âĹ ĭ
u se
lu m
23 3
se arch
ãģ ¡
180 1
2 13
T ok
w Ã¨ng
ãĥ ŀ
.0 %
US B
d ra
su b
17 4
ru n
3. 1
Ma g
MV P
C K
l li
z on
Ï ģ
á Ģ
ì Ŀ
18 6
18 38
or s
St ore
ke y
He art
Dire ct
5 20
B ank
D DR
G lo
Z i
z y
mi ly
ck er
Je an
6 10
F le
i Pad
r ÇĴng
bi le
16 1
50 1
ãĥ ī
Ho me
htt p
2 24
C F
P en
e le
m g
su r
ti a
18 13
ãĤ ī
Ph il
G E
L on
k in
t z
Ï Ħ
en se
18 2
18 32
18 42
la tion
25 5
it s
Soci ety
A E
G old
H an
S co
f ter
i Phone
18 4
0. 6
ãĤ «
lo s
Mi ni
Da ta
7 20
K I
S cript
d d
i se
â ĺ
18 36
la te
17 93
ãĤ ª
Co mic
vi ng
Mu se
Ki Ha
bun tu
2 21
C ri
D r
H BO
M T
M el
T un
g re
h ÇĴu
ti an
18 33
ni ty
17 89
tic s
Ri ver
oun t
htt ps
Asso ciation
Gala xy
B ay
D AM
M 4
Q Q
c l
f in
ng a
ti es
18 35
15 1
th o
ãĤ ¿
ad y
2 19
2 17
3 38
5 .6
6 .7
C ry
F T
J YP
R ap
S R
U buntu
W A
f y
l on
ð Ĳ
sh ang
âĢ °
th a
Mar tin
180 4
ON E
CE O
wid th
4 70
7 40
8 30
n t
li ght
for m
To m
Hen ry
Lea gue
Y G
d ro
w ell
Ï Ĥ
Ð ´
â ī
Ch ampi
Ma ster
.8 1
Gen er
E ar
F ra
L INE
P hi
V il
g Ãł
u ni
Î ½
ch el
mu s
am er
to p
AR T
Gre en
vil le
2 12
D K
c ti
h as
n m
Ñ ĥ
le ss
18 28
0. 7
ãĤ ³
op er
AP AN
row n
0 %
D y
D ou
F R
M ana
N ight
P in
a g
h ar
o ni
19 1
di t
30 2
ta ble
0. 8
95 %
Bill board
Offi ce
6 80
B r
B al
J an
M Hz
P I
S NH
b an
b ro
k ar
Î ¹
18 1
16 24
st s
23 7
si de
ma in
ãĤ ĭ
Ch ina
Co de
You ng
con d
No te
Jose ph
SNH 48
4 .9
B ir
D es
F DA
J APAN
O b
P K
à ¹
á ¹
16 44
30 8
st on
0. 9
St ra
CO M
tic al
Pa la
4 40
D B
G R
V an
hu n
tu ÃŃ
10 000
18 37
23 9
th an
ri ck
180 6
Lo ng
So ng
Uni ted
Par t
mac OS
C V
E ast
M W
U 21
Ã ¢
Ã ®
Î ´
à ¥
â ĳ
18 19
29 9
3. 9
34 6
HT ML
ann el
7 80
H ill
T w
T en
T alk
j o
p ort
18 25
24 5
23 6
50 5
27 9
ãģ «
Ra dio
Dig ital
5 40
7 .8
D own
E V
H 5
J i
r pm
w n
li c
chÃ ²ng
13 .
si an
el la
New s
3 25
7 .9
C at
P as
00 1
17 76
ri ght
ãģ ĺ
lo ng
bu t
den t
NC AA
Ser ver
F AT
S il
18 18
14 .
26 5
ãģ ĵ
ne d
Qu e
Hel lo
B an
B ru
D ri
N u
V en
W at
18 24
18 31
202 7
Ch o
Hi st
Ko ng
E m
G S
R PG
p r
Ã §
Ã ´
tu m
me d
38 6
Ch ild
Ser vice
âħ ¡
5 1.
U M
b et
hu r
su al
ro me
vi a
BS D
Fran k
Is land
Py thon
publi c
Sci ence
1 A
B lue
C W
F ore
X ML
c lo
Î »
27 5
27 00
and a
You tube
Ju mp
Ed ward
Un der
Whi te
3 12
5 G
7 30
B or
F irst
G rand
H L
O M
P oly
T BS
h Äģo
n es
re y
26 4
29 5
180 2
BL UE
Institu te
Champi on
3 2.
6 30
H or
O ut
S um
T M
b en
f un
su s
18 22
ni Äĵ
28 8
ra tion
ãĤ ¸
ak a
En vi
4 .2
6 .8
C as
L an
L es
O s
o ther
p lo
p op
Ù Ħ
li st
la ng
ar ed
24 4
ãĥ ķ
va te
IT F
2 D
6 .9
G ro
J T
S of
c ent
e m
x el
la unch
24 9
35 %
90 3
Nor th
Squ are
6 .6
O T
P ID
S eries
u l
z ation
Å ¡
24 3
28 00
You r
Ho ng
Th is
Cu p
9 1.
F X
L ang
N P
_ _
h r
18 10
15 .
16 22
17 92
30 7
re turn
ta s
70 1
SA RS
PO P
Tech n
5 .1
9 60
C ur
H am
R ay
S ig
S HO
V V
o b
p Çİi
v y
Î µ
16 50
80 1
vi ew
Net work
MI UI
bur g
Tun es
2 100
P al
U r
p art
Ð ¼
18 26
an ti
15 73
ou d
as on
ci ng
ha ve
7 47
C le
J our
i mp
tu al
18 34
30 4
ou ld
22 6
27 8
lt a
ãĥ Ł
ãĤ Ĥ
37 5
ad d
180 5
AC T
AP P
AI R
olo gi
Blo ck
H A
L y
Y o
h el
i i
r d
ch en
00 7
or o
29 6
29 8
si g
38 5
AT A
Mo del
ga in
Da ni
Stu di
3 35
5 90
9 000
C U
N ow
R y
R am
W N
m l
n on
o c
Ï ī
â ĭ
12 %
or k
17 80
13 %
re ss
22 7
ãĥ ł
ol f
ma p
Ma y
Re al
Sp orts
ding s
IF A
3 15
6 3.
G il
J on
O p
S c
h ad
i Tunes
k en
Â »
25 1
ou gh
27 7
at o
one y
CN N
2 A
D ar
G ran
O ver
R en
R us
R FC
p H
zi ne
18 .
15 82
17 99
25 9
24 6
24 8
180 9
Inter net
Sou th
Eng ine
4 G
5 30
C 2
D LC
S m
g Ã¨n
s Çİng
s in
Â «
li o
18 23
an der
16 21
27 2
ru m
40 5
AT ION
tw are
180 3
da e
Sta te
ste ms
EE E
pre ss
3 34
6 20
7 70
C lass
S G
di tion
lu tion
16 25
ge s
28 4
28 5
ãĤ µ
Au to
Pu bli
3 11
8 80
D ot
K h
S ony
V I
Ã ī
á »
25 8
27 6
cu r
ãģ Į
Al f
Mo bile
B us
K O
O per
S w
W ay
X T
p res
à ¦
25 3
al y
35 7
nu m
Mar ia
Mo on
Wi i
Pi er
6 60
C li
G et
N M
S V
U L
s m
Ð ¹
di an
ãĥ Ĺ
ck s
ST A
IP v
Uni x
Wh at
Euro pe
5 70
C er
U 19
W F
e e
m or
Ð ³
tu Äģn
18 27
15 70
ãģ Ĥ
ga zine
Be au
0.0 1
Lin k
vel op
Boo k
Tran s
3 14
3 DS
6 90
B re
B BS
C 6
D SM
I EEE
M en
S B
S ound
W WE
m ore
18 17
16 40
16 36
26 8
40 2
40 4
ãģ ¯
Re gi
Ra in
whi ch
7 .7
A X
G ri
b lo
i ni
n or
ng er
la ris
17 75
25 4
ter s
46 5
Me di
85 %
Di e
Ti k
Fran cis
Com mu
3 23
7 .0
A th
C ir
H P
O P
k Äģo
17 50
30 9
oo m
op le
Jo y
fi c
3 29
6 70
6 .1
8 .1
D ol
E nd
P lus
b on
p ur
sh ing
gu Äģi
18 16
pi n
la i
17 .
for e
ãĥ ģ
ãĤ £
45 00
Ch annel
ca st
ing s
CO N
per i
TO P
Cu be
Lou is
. -
7 10
9 10
9 50
D I
I mp
L it
M K
T ro
o me
de a
pi tal
16 %
la m
ar r
24 1
23 00
Re search
IS BN
fi eld
Po li
Fil m
tv N
3 26
A sia
B ou
C am
C lo
P T
T 2
i ce
r ch
t ry
à ½
15 92
45 %
34 7
75 8
St and
mo del
6 1.
A ra
B on
D T
L is
10 .5
12 .5
16 28
17 88
25 2
24 2
26 9
ãĥ ĭ
and y
Le on
Vi ctor
La w
ff er
fe a
tur al
3 18
3 36
5 3.
9 .5
9 78
A do
C B
D L
D en
F esti
J en
M al
M US
N 2
O 3
T an
T re
á ĥ
ch ar
bi Äĵ
16 27
17 83
17 91
al th
28 9
ro s
40 6
ce d
35 4
IN N
Co mm
St an
ap p
Vi sta
gi c
Pi xel
Dis ney
âĸ ¡
7 3.
9 0.
A cade
C our
E L
F 4
I B
L AN
L TE
O F
i ch
p Äģ
t re
16 .
17 97
ï¼ »
ï¼ ½
65 %
Ma ch
55 6
Be at
ak er
Sof tware
A nge
D MS
T H
h is
n Çİn
17 79
17 96
te st
60 7
ãģ ¤
ãģ ł
35 2
Mar y
180 8
ER T
km 2
Ni co
NC T
Ali ce
âĭ ¯
3 21
3 37
4 .3
A 4
A mi
S or
T 3
c s
g is
u ng
hu Ãłng
tu de
18 29
17 78
17 94
28 3
27 3
ãĥ £
ãĥ Ĳ
ãĤ ¨
ck y
Vi sual
ine se
YouTu ber
AS C
Wor ks
Ele ct
Bat tle
3 13
5 10
8 40
8 60
F oot
M net
P ho
l lo
p at
v et
v ance
Ã ±
Î ¸
shu Çİi
ni ca
ni ght
17 98
for mation
22 %
ãģ ¦
45 6
37 2
Jo han
EC T
sy stem
Spe cial
Award s
. 00
4 48
8 70
B lu
M F
P ay
i o
r or
s ca
18 %
15 80
16 12
16 34
17 87
28 1
26 7
ãĥ ĩ
ma d
ãģ £
ãĤ ¦
nu s
lo st
mm y
we b
Pre mi
Roy al
Glo bal
6 2.
9 11
D G
F ro
M is
O li
S et
T N
W O
d or
e v
f la
â ĩ
sh Çİi
hu s
mi na
15 67
16 48
al le
27 1
te ch
lt ra
Ar ts
ff e
BO X
Envi ro
4 2.
5 2.
7 2.
A H
E 3
L am
M M
M ur
Y ork
s or
19 .
chu Åį
26 2
ta i
36 7
ve st
pe dia
OS HI
Pro f
con st
AC E
EN T
AG A
Gre at
Tik Tok
- &
3 22
4 3.
A h
M ON
N ot
O TT
S po
V B
bi an
15 50
15 68
on t
16 15
16 30
14 %
28 6
ãĥ ĸ
Ma gazine
ver n
CH 3
Comp u
Muse um
Dani el
Festi val
B rown
C ru
C AS
D ark
F BI
L G
S au
S IG
U SA
s tu
12 .7
pi Äĵ
16 45
16 46
28 %
re ad
zhÃ¡ o
ãĤ Ń
33 3
.9 5
CO LL
AR D
Se cre
ste in
En core
ture s
wor ld
On line
Cl oud
MUS IC
9 .8
9 .7
H un
L ar
L et
c as
o ver
t an
Ø ±
16 26
st al
26 1
29 7
35 5
Ch inese
49 %
ste a
Ki m
3 28
8 20
G or
H as
P RO
S 2
T ou
g al
o li
s ÇĴu
s co
qu es
16 37
24 00
70 5
90 1
36 4
38 4
37 8
ve y
33 %
44 2
ha i
con o
Po int
VID IA
Gener al
6 18
7 0.
7 1.
A U
C BC
H B
N VIDIA
T 48
a le
t r
Ð ¡
Ñ ĭ
16 10
16 42
25 7
28 2
th ing
26 00
Ma d
Sta dium
160 9
ali ty
ster n
Ex p
Go d
Red mi
Ye ar
Ado be
5 .4
7 60
7 67
C AN
G ol
I l
O 4
O me
U 17
V C
b as
b ps
j or
s k
s che
Ñ Į
de on
ni or
15 85
15 83
13 .5
hÃ¨ ng
ãĤ Ħ
58 3
ct ory
180 7
AR M
Te X
wi ki
ther n
Sy stems
por ation
9 30
D el
F IFA
J U
K E
O D
T own
T hun
W ho
c to
d ou
11 %
16 23
ge l
27 4
si ze
.0 4
An to
Wi ki
ï¹ ĳ
H2 O
tro l
Tai wan
E OS
F IN
I ma
I EC
K in
K id
T ar
W on
a h
c at
e sta
k et
ti na
11 .5
15 71
17 %
17 84
26 3
50 9
29 3
35 1
os aurus
99 9
De ep
mo d
va lue
Ar chi
Ca st
. 10
2 200
4 28
5 .2
A J
G UN
T ay
x x
16 20
17 23
17 86
in te
st re
50 4
lt on
ãĥ ¥
35 3
39 5
be th
43 %
So laris
Po st
pri vate
Met ro
cl ol
Mana ge
Dot A
4 19
4 32
A 3
F N
F ly
G L
H ap
R on
b b
c ci
c ard
c tive
p ra
ì ķ
14 50
cu ri
ãģ Ļ
Ch an
ver s
Mi ke
our ce
Ke y
LO VE
Mark et
Studi os
Lit tle
4 27
4 .1
B and
C ine
F E
H IV
K 6
L ine
R ou
V PN
z Ã¨
Ä į
li ke
zi lla
15 77
16 18
16 43
ro p
se y
38 7
39 9
.8 2
.8 3
ct s
ell ow
oun tain
Fle et
Techn ology
3 17
3 31
3 45
5 12
5 65
H 1
M Y
R 2
S 1
U 18
U SS
U ltra
b es
g g
l Å«
Ñ ı
15 86
la u
17 77
14 53
in to
21 %
st y
st an
si t
80 6
ba se
CD MA
Sta ge
Ra deon
ak i
Uni on
AL L
Val ve
Child ren
Secre t
3 27
4 11
4 90
4 45
4 46
5 35
A lt
A ven
F I
F ound
L and
M id
M 87
U 23
W ill
W OR
o la
r stea
y er
Ã ª
ch t
en do
15 21
17 65
17 74
si ble
ce l
se cond
39 8
47 %
49 9
oo k
Par a
Wi th
Ju nior
Ad am
BM W
mon d
Fri ed
Cent re
wh ere
Phi lip
Acade my
4 16
C rea
E MI
H TC
K B
S che
S oft
T W
b at
r ent
mi a
16 16
26 %
cu l
70 7
il y
ter i
36 9
39 7
Ma u
ver se
Jo e
Sta tes
Mu lti
Wi re
Ni ko
GP U
bili ty
Ome ga
6 13
6 .4
A ri
C ou
N R
P ort
W I
Z A
h au
h ouse
p es
Î ·
Î Ķ
Ð Ĳ
li ve
15 64
17 85
22 .
36 8
lo t
.0 8
67 %
TV BS
Me m
Ne xt
He a
so me
Fi re
My SQL
vo id
Ori gin
Ama zon
3 C
8 10
B T
H on
J r
R un
S ti
h l
m 3
Ð Ķ
16 62
26 6
29 1
si st
el le
he ad
58 8
os a
Di stri
Su b
rou gh
Ba se
MO D
vo lution
chi e
Cor poration
M1 A1
fer ence
mis sion
velop ment
GUN DAM
3 16
5 37
6 21
7 42
C I
E 48
E ric
F o
F al
S in
T I
W el
Ã «
Ù Ĩ
an na
15 40
15 74
17 72
24 .
st d
28 7
te e
60 5
45 4
38 8
34 3
.8 6
op en
88 8
Su nd
po int
0.0 2
Dra w
Chu rch
Alex ander
Cro ss
Manage ment
4 25
4 75
9 .9
9 .6
L ady
N D
O ther
S W
S ar
c ted
k Ã¡ng
k an
v at
w ere
ji a
19 %
12 50
ni co
16 19
16 29
16 83
27 %
29 %
29 2
36 3
37 6
ST S
55 2
68 6
ig n
De mo
Ar c
Au gu
Cy clol
Lon don
Sco tt
6 27
B ad
B RT
D er
D un
F L
I r
K ir
M X
O ra
S to
S ara
T ony
h ard
t ru
Ð ±
ti sh
14 .5
24 %
al ly
ï¼ Ĥ
31 %
ma tic
48 8
.8 4
.8 8
99 %
id a
De sign
ph en
Sp ot
Sp ring
And rew
ðĲ Ń
4 49
5 A
6 25
7 38
8 1.
8 3.
F ron
H ER
O f
P B
R ound
V ER
i re
u nd
Ð ļ
sh ared
15 90
15 79
16 33
ãĥ Ĭ
ãĤ °
32 %
150 7
Be ta
La ke
Si mon
CH 2
Cu l
Sy n
Ani max
Ear th
4 12
8 .7
F ort
L F
L M
S ol
S ca
S ON
V 8
c oun
h Äģng
t to
Ð ¿
í ķ
mi r
mi x
16 31
16 80
17 73
21 .
29 4
40 7
ma te
ãĤ Į
bo dy
39 6
33 00
42 %
mp le
Se a
160 4
An der
Par ty
Ha mi
Fa mily
PG A
Ang el
Dri ve
Jour nal
4 1.
7 .1
8 2.
8 .6
9 80
A p
A re
C 4
F old
G C
L R
P ol
c en
n an
Ä ĩ
É Ļ
ni cal
15 75
16 97
17 55
14 92
si ve
cu m
80 5
36 00
as a
46 7
47 1
De f
Ne o
mic s
ï¹ Ĳ
SK E48
Dy na
Sum mer
Thun der
0 x
3 19
E pic
H al
J 2
K el
N ar
S we
X C
f b
h oo
p an
z en
ch y
li on
or ig
15 61
15 89
15 95
17 81
14 65
al an
50 8
ãĥ Ĩ
ãģ ²
34 4
.8 5
44 %
.9 9
58 9
op h
160 3
160 6
160 7
CN BLUE
Ru by
Coun cil
Chris tian
pr int
4 15
8 55
9 40
9 70
C re
C lar
K at
M ed
M iss
k es
p os
u age
x 86
Ã ¸
Ã ħ
Ã Ł
à ®
li na
ni o
15 22
15 26
15 56
16 13
16 60
50 2
50 6
ãĥ Ģ
ter a
37 7
to s
47 8
55 4
.0 7
amp le
Mar i
Al li
sp ort
mer cial
TO UR
William s
cation s
Hy per
ìĿ ´
âĺ Ĩ
Ange la
Foot ball
4 17
5 25
7 .4
9 20
9 25
A fter
H it
L U
U K
U RI
i te
l le
u d
Ù ħ
su re
15 25
15 91
16 67
in du
chÃ¨ ng
ro nic
.5 5
40 8
48 5
46 %
64 %
64 3
ad o
ba by
op hi
AM O
Ba ck
Fi esta
Ste ve
Qu a
Ru e
pu t
Ad vance
DO HC
Ameri ca
3 24
4 22
5 15
5 38
5 34
K it
P ap
Q S
S 4
V T
V el
W ater
h en
m RNA
w ho
z zo
â Ĥ
li sh
ti ne
15 10
16 38
17 30
me dia
ãĥ ĳ
et te
34 2
39 3
47 9
.0 2
.0 6
mp h
St ory
150 8
Vi ta
Mo zilla
La st
HK T48
las sic
Ber n
Wal ter
Sou l
Sur face
7.6 2
Found ation
. 25
3 200
5 31
5 46
7 .2
E G
G Hz
I TV
J er
J ane
M es
M BA
N I
S en
S on
T G
V S
b les
i PS
k W
p al
202 8
15 43
14 57
.5 2
co me
36 6
38 1
39 2
In du
.7 8
Ar ti
Bu il
Hist ory
. 12
1 st
4 13
4 26
6 .3
A i
E du
F 3
G PS
L Z
L ight
M os
U 20
W nt
c la
d own
m ol
y l
z Çİn
z ar
Ù Ĭ
15 65
15 59
15 87
15 97
âĢ ł
16 35
16 88
17 33
17 82
al so
st ry
te x
.5 3
60 6
ol low
ãģ ĳ
37 3
Al bert
Ti mes
len t
John son
Fin al
. 11
5 24
6 12
6 .2
8 90
A sh
B y
F S
J im
T ol
U D
b s
e st
o v
s core
Â £
Ð Ł
Ñ ĩ
15 88
15 98
50 7
ce ll
am o
the w
34 %
64 1
49 5
68 %
68 2
Re p
.9 7
.6 9
66 6
Ro d
Ro se
Vi o
0.0 5
Po d
Au stra
Mon t
Bri an
CL A
Pla ce
Tele gram
tran s
Pier re
3 32
4 A
4 K
4 35
5 75
7 90
A le
B et
F l
M us
T MA
a te
p lan
s ky
ti Ã¨
ti al
en ts
15 23
15 35
16 49
16 61
17 70
14 99
23 %
th en
0. 25
ãĤ ¬
ãĤ ı
36 1
nu mber
46 6
39 1
.. ..
55 1
vi ces
.0 1
Mo der
160 1
Sh o
gi o
PC I
Ti m
Ho tel
TO K
Ac Fun
Fla sh
pla ce
cra ft
Won der
5 28
5 500
9 90
B ang
B ell
H ard
H TT
S ma
S mo
T han
e y
f is
g ni
shu Ãłn
mi ne
12 .8
15 11
17 60
17 69
ri t
35 8
co s
36 %
37 1
46 9
it z
68 4
58 7
Vi ew
94 .
pp m
Bu t
SM AP
Ge o
0.0 3
Ed ge
tri bu
Exp lor
Gol den
5 48
A W
B il
L or
M ir
M AC
S han
a ir
e ven
p ara
v or
ti Çİn
200 00
10 80
15 000
15 76
15 94
16 89
36 2
38 3
TC P
34 1
41 %
NA SL
98 %
Pro gram
Be y
So me
Si ri
Qu i
Bri dge
ac tive
Europe an
vern ment
8 0.
9 21
D ance
G un
L 1
M R
M ind
M MC
N EX
R B
T F
U FO
V F
V ar
b ow
k ins
r Ã¡ng
u ts
ð ª
hÃ ²ng
hu o
ch ÄĽng
20 .
le ft
ti ca
mi d
18 11
15 17
15 14
15 78
15 52
âĢ ķ
16 39
16 84
.5 1
60 8
ma ster
38 %
34 9
Ma i
64 4
55 7
vi e
.0 5
.7 6
.7 9
.9 2
ir d
58 5
59 7
De velopment
Mo d
Te st
Se ven
Ra w
We ek
Fi ref
Ju st
ko v
Mat thew
temp late
Eli za
Comm on
sco pe
Tay lor
curi ty
3 48
4 36
5 49
8 .2
A ST
B ai
B rand
D NS
F red
J am
K on
M itch
P res
R N
R et
b um
e a
e xt
o van
p l
ti o
er ing
17 63
13 50
in ess
ï¼ ĭ
si e
40 3
ce pt
cu Ã³
se ll
ma ni
90 8
es sion
65 00
ca se
150 5
ard o
tou r
77 7
Mar ie
ang er
fi ed
fi cation
Pa ck
wor th
San ta
MG 42
Christ op
Vil la
5 47
5 67
6 68
C 5
F AN
M ountain
N K
R ol
T 4
Y OSHI
b la
s Ãło
Â ³
Ñ ĸ
10 50
16 14
17 20
27 .
1. 25
37 4
49 4
Co V
.0 3
.7 3
ID E
IP S
PS P
ther s
Wor k
UN IX
Pe ople
Com mit
âħ ł
Kar l
Fra me
IPv 4
Explor er
4 .4
5 14
5 22
5 45
5 68
5 .3
6 19
6 75
B au
C SS
D 1
E BU
K T
K w
O h
S hu
Z a
n Ã©
s pi
s al
y Ã³ng
le te
15 16
15 13
15 34
15 47
15 69
16 V
14 60
st one
26 .
cu la
ãģ §
35 9
75 7
64 2
.8 9
.9 3
58 1
au x
150 2
ction s
51 %
ga ni
ali s
Ge Force
à¸ £
SO HC
Jack son
Art hur
Que en
COLL AR
Sund ay
orig in
4 18
4 14
4 24
4 33
5 44
B os
C J
D TS
F 2
J O
J us
M MO
P EN
S and
T el
X IV
b Å«
c z
f lo
h ol
i th
p per
s ki
z ed
Ð Ĵ
17 31
17 68
17 71
14 90
me l
40 9
lt er
ãĥ ı
60 4
80 2
ãĤ ±
ãĤ ĩ
ãĤ į
38 9
75 00
39 4
47 6
be en
.8 7
49 3
vi o
.7 4
.6 6
Vi sion
ER O
Bo x
Ri ft
AG E
Pri me
FO X
whi le
Tru e
JT BC
âĩ Ķ
Cine ma
Aven ue
4 31
5 39
7 45
A BS
B it
C lassic
E O
G in
G amer
K er
L ord
M it
S k
S olo
V 6
b n
b our
j q
z za
Ä ±
sh op
sh ed
ch ange
bi Ãło
ti l
ti ce
ti fy
15 93
17 24
17 52
14 69
14 98
13 70
si li
se a
ãģ Ī
il le
48 %
38 2
75 5
46 4
44 4
ci d
57 1
150 1
Ne ver
Ga ga
no va
PS 3
pro te
Ex press
Bri tish
td own
AGA SA
Kid s
Fried rich
6 46
6 67
C IA
D 2
E ver
G am
I RT
K an
M 6
P ass
T am
X F
Z J
a mi
h igh
p to
s ay
t ch
de x
li us
di es
15 20
15 60
15 53
16 51
17 40
14 93
23 .
60 2
90 4
49 6
49 8
44 3
na ment
.7 2
.9 6
.6 2
Ra il
MA N
Bo ys
Ba by
Ha w
pro du
UN G
Fa mi
AG UE
LE AGUE
Gu ard
wor ks
mon t
Je ff
Don ald
Intel li
à¥ į
Commu ni
Ath lon
Mem ori
Firef ox
6 11
6 45
9 45
A gain
B as
C 1
C en
C BA
D EC
G W
H ay
O ld
Q U
T AM
U 2
v ol
Ã ¥
á º
ch an
di c
15 96
on o
16 32
16 79
17 18
17 35
17 45
17 58
25 G
ï¼ Ŀ
te c
ra m
ãĥ ¡
cu lus
ma de
90 7
ãĤ ģ
ãĤ Ĩ
58 4
150 6
De ar
ss on
tw o
ment al
160 5
Sa mu
gi a
An th
Si de
He alth
Fi sh
Na me
RE AM
Wil d
Cent ral
Dou g
Stand ard
Vio let
Christop her
YOSHI KI
0 50
4 39
5 33
7 31
7 32
7 41
7 62
9 62
A stro
C ree
E ye
F lor
H 3
I CD
K ra
N U
N um
O ff
R CP
T L
T hi
U CLA
W ood
a th
k it
n p
p he
v ari
w en
Ï ħ
á ¸
â Ļ
bi a
di na
12 60
15 66
16 .5
la w
la de
17 25
17 48
ãĥ Ħ
0. 10
70 6
ãĤ Ī
ãĤ Ĵ
45 7
ter y
37 9
as o
75 6
55 3
ci o
67 3
57 4
57 6
mp son
Li st
Al an
98 5
97 3
An na
Ca pital
Gre g
Alpha Fold
Oper ation
Fleet line
Angela baby
5 16
6 17
6 39
7 22
7 35
D U
E cono
H MS
K ha
P 2
T ower
b ble
n ers
s Ã²u
20 50
qu id
15 28
15 72
on al
16 52
17 27
17 61
13 68
.5 9
ãĥ ¯
ãĥ İ
35 6
70 4
48 2
37 %
65 5
55 .
br ary
.9 8
au lt
AR E
ga te
Ga on
end s
BL E
lin k
Col or
tel li
Har ry
Eng lish
Gar den
Tw o
Jon es
Ander son
Eliza beth
Commit tee
4 47
8 63
9 26
9 61
A na
A pa
B ow
D in
E a
E pi
L X
R ATP
T ha
V P
W W
e u
h al
p et
p as
de fea
sh an
li m
bi rd
en o
ni n
er gy
15 31
15 38
16 47
16 81
st or
ra t
80 3
70 8
ãĤ ĥ
45 2
45 3
the y
65 1
be d
Co ok
vi r
.0 9
58 6
57 2
St ro
150 4
Ne u
ED G
AP G
IC A
do or
Con ne
Ba sic
170 1
Ste phen
Car l
Col span
wor d
ess or
HO ME
igh ts
App li
cc ff
cc ccff
Pre ss
Dis co
Twit ch
pri se
Pat rick
fra me
Wo men
FIN AL
Bey ond
3 M
4 38
5 11
9 33
B un
H ero
H ans
I LE
J es
R ad
S ay
S NC
a w
b and
d ÄĽi
g na
v ity
w er
Î ©
Ð ·
Ø ª
ì ļ
xu s
hÃł ng
mi e
15 30
15 37
la ti
17 36
ï¼ Ĩ
60 3
80 8
46 1
46 8
68 1
us er
ON G
sta te
170 9
Ke vin
Game Spot
Ab du
Sou thern
new s
Java Script
Prin ce
Direct X
Sil ver
fun ction
Moder n
3 G
5 41
6 29
6 48
7 25
A k
C AR
D or
E LE
L ow
N N
N an
N PC
P 4
U RE
V is
c ter
c ity
g as
g ent
v ent
Ñ ħ
su ch
su per
di re
zi ng
15 19
15 29
15 55
16 87
la st
17 28
ar di
in k
te am
.5 6
ãĥ Ŀ
cu ÇĲ
90 5
es a
48 4
65 3
Ma ker
In fo
be fore
55 %
55 9
49 1
.9 4
67 9
.6 3
pe d
79 6
OS S
fi sh
Sa f
MA D
Par is
Con cer
Th at
Fa ir
mar k
cket t
UR L
AO A
Ya hoo
spe ci
cture s
Plan et
ASC II
Spo tify
Omega T
Mitch ell
4 23
5 36
6 32
7 15
8 25
8 33
A la
B 3
C AL
D 9
F low
G y
G RO
H au
I ta
K 2
M oney
M bps
R DS
Z o
e b
e i
i de
s an
s ci
w art
hu Åį
20 35
11 20
17 67
50 .
.5 7
ck ing
Ch rome
Ma in
47 3
49 .
49 2
ca p
nd a
.6 1
au to
66 1
56 2
Li ber
Ro bin
De ad
De bian
Me ga
Vi a
ga me
Se e
bu cket
An ne
ho st
PS 2
Fe de
Ed die
TR A
Coun tdown
Zi co
sig ned
TOK YO
Violet ta
3 39
4 29
5 32
6 65
7 75
7 69
A x
A rea
D 5
E ri
F ox
H and
J I
P ur
R 1
R F
S NS
l ler
Õ ¡
mi Äĵ
12 20
15 45
16 64
16 59
17 19
ar tic
14 95
14 96
13 88
re do
.5 8
ce p
70 2
70 3
Ch ap
Ch art
Ma h
ST ATION
68 9
Re a
.9 1
69 2
os p
Ro man
Mi x
79 8
hi m
sp lay
ot t
74 %
ment ary
ER S
Ja co
AN D
SM .81
gra phy
Ju an
gin s
Ste ven
Ph y
IF F
Bi o
Dra gon
Ani me
Hen ri
Frame work
0 10
4 34
6 36
7 29
7 61
8 78
A us
A ction
E 1
E 231
G EN
J ay
L 2
P AGASA
R K
T oo
Z ERO
d as
e g
h at
i ra
Ð ĳ
Ð ľ
Ñ Ĩ
ì Ĺ
ti er
15 46
15 49
15 62
16 70
16 90
16 54
16 53
16 94
17 59
ar o
14 66
th or
si o
ãĥ ¢
80 7
70 9
45 8
46 3
lo g
55 5
59 6
66 2
St ri
un der
Li ke
Mi chel
con stru
ent al
gi e
po si
Bu ild
shi on
Inter active
Wil son
John ny
del la
Vo ice
FA ST
Ken ne
Cour t
Hap py
HTT P
Samu el
. 39
1 2000
5 27
6 38
6 69
7 12
7 11
9 .4
B P
D al
D REAM
H os
I MAX
J os
K 11
L V
L ind
M 5
N am
N CC
R SA
S r
d an
e f
f lu
s ka
w y
Î ¬
sh ell
xi s
qi Åįng
le m
su ng
tu ra
ni Å«
15 58
15 81
17 38
14 74
13 75
cu lar
el li
ne u
ve ment
ST AT
47 7
lo ve
68 000
Co s
AT E
59 5
59 8
59 9
57 8
160 8
Ja c
He in
den ce
EP A
pro gram
we en
0.5 %
gen e
sy n
fli ght
EX ILE
Per son
GP L
Star s
star s
Gal ant
imp ort
NM B48
5 21
6 28
6 22
7 21
8 67
8 77
8 .3
9 65
A er
B Y
C are
F 5
J et
M ount
N er
O ST
R X
S us
S UP
S ource
V EN
W P
Z Z
c li
c in
f re
g li
u i
w ill
y d
gu Ãłng
yu n
li fe
bi o
12 80
âĢ ³
16 65
la t
17 32
17 44
17 56
14 89
14 87
13 40
ou l
me t
29 .
000 rpm
ãĥ ĵ
90 6
ãĤ º
45 1
Ch ill
.7 1
99 7
St ru
id ae
Se curity
Da ve
Sh ar
wi ck
Play er
Fe li
gh ts
Fore ver
SHO W
Bus iness
2 nd
5 19
5 17
6 24
6 23
8 35
8 76
9 38
9 54
9 51
A bu
B 9
C AP
D 3
F w
F lo
G DDR
H il
H op
I MD
K ur
L CD
N IC
P on
Q t
S el
Y F
e ng
f an
m ou
m os
u de
v as
w ould
x a
Ð ĺ
ð ¤
su m
qu a
chu Ãłi
15 24
15 32
15 84
16 58
16 57
16 99
la d
17 62
13 37
mu m
ï¼ ŀ
ra i
.5 4
se ed
47 2
47 4
64 9
49 7
68 7
68 8
69 8
57 9
88 %
78 4
Ro ber
Pro to
72 %
ht ml
140 6
Car los
DS P
à¤ ¾
Bi ke
ye ar
SH IN
Hol ly
Christ mas
âĺ ħ
Publi c
sca pe
MON STA
Compu ter
Tou ch
Sma ck
Smo sh
Apa che
0 54
6 16
7 19
8 65
9 46
9 88
B ran
D H
D ur
E sp
G 1
G au
H 4
H 10
H at
J ona
M ore
S 3
S b
S ense
W it
W HO
X G
j an
k ra
u sed
Ã ¦
Ï Ĩ
du s
ti e
lu Åį
en ne
mi cro
11 .2
pi a
16 68
17 39
17 64
for mat
28 .
ma il
300 00
78 7
Li brary
So cket
An n
so ck
PS V
Con trol
170 2
Th ere
Ta ke
Hu man
LL VM
row span
way s
bre ak
Fan ta
Ry an
Smack Down
0 52
4 21
4 37
6 14
6 26
6 37
8 15
8 16
9 75
C ard
E cho
G F
I f
I ce
J P
R h
W ing
W olf
Y A
Z O
a fter
c ine
f ree
h p
k ha
w on
w ri
Ð ł
ë °
de pen
di g
00 00
12 75
11 .3
15 36
16 75
14 64
ra d
ma y
ma jor
45 5
IN D
64 .
lo ck
.7 7
67 1
67 8
op s
mo st
AR P
Te x
97 %
Sh er
An ti
170 5
Lin er
Fa shion
TO WN
eri al
Gi ovan
She et
lea se
KK BOX
Champion ship
Lang uage
Alf redo
aly sis
Prof essor
5 42
6 34
8 21
9 12
C IT
C fb
D X
H PV
M OS
M IT
N XT
O l
P r
S Y
S ter
S IM
T ig
W H
W er
W ell
W ong
c ount
d f
d le
d one
g lo
i ma
m me
n st
o is
p on
w ind
Ï ĩ
â ģ
ã ħ
ì Ħ
ch es
li b
le u
le in
mi Äģo
15 63
16 17
16 63
16 85
17 .5
17 53
14 77
13 80
mu lti
st ance
50 3
ra s
se e
80 9
ãģ İ
ãĤ ½
at an
48 3
48 6
as y
75 4
65 6
Ma te
be at
be ca
The at
67 6
AT X
66 %
99 .
SA N
78 5
56 1
NA S
Me i
61 %
AR K
Se cond
AC H
ok ia
84 %
AN G
IP TV
We stern
Bo ard
Fi le
Fi eld
ther e
à¸ ²
UN ES
gen cy
Fran ces
Mor ning
Bra d
RC A
Colle ction
Space X
Mel on
Cir cle
Mis sion
Crea tive
TW ICE
Clar k
Indu stri
SUP ER
2 DS
5 18
5 26
5 66
7 16
7 14
7 65
7 64
7 44
7 .3
8 26
8 47
9 18
9 36
A fri
B NO
E U
E ve
E very
G I
H ere
I a
M RI
P ere
R P
R ight
R ank
S UN
V in
V IP
W ri
W are
W TT
c am
c ta
g roup
h Äģi
p ho
t own
Å Ĥ
Ù Ī
â Ĭ
ë ¦
ð ¬
ng th
sh ow
ch in
ch ed
li ty
chu s
10 24
16 69
16 56
16 72
16 92
17 54
14 20
14 80
te en
31 .
0. 15
il o
the ir
75 1
65 .
65 8
Ch ang
Ma ki
In te
59 4
St one
79 1
AM C
AM P
Mo ore
Sh ine
IT A
Bu g
170 4
170 8
Ni ck
Pi e
ari o
AG P
ML B
Man u
Vo gue
Fu ture
DM R
Fron t
Rep Rap
2 B
7 13
7 27
7 48
7 68
8 75
8 .8
9 15
9 29
9 47
A ce
B IG
C r
C YP
D am
E mp
E BS
F ai
F rom
I SA
N ICO
O ME
R 3
R ing
U F
V IS
X III
k on
x c
z Äģn
Ð ¢
Ø ³
le v
bi e
bi s
10 75
12 77
12 79
12 76
11 11
an te
14 40
14 88
14 72
13 71
al lo
st ory
ri an
ri ce
ro ad
ãĥ §
90 2
48 9
vi er
69 9
op hy
99 2
88 1
98 6
Le w
con tribu
AP M
160 2
do m
com mercial
Inter play
cro ss
AI M
RE AS
Wil hel
Au dio
CR H5
Gen e
Wal ker
Ver sion
Fil ms
Ji mmy
Distri ct
Swe et
Buil ding
0 30
6 33
7 78
8 12
9 55
9 57
9 .3
A zu
A sian
C 3
C 14
E Y
I m
I an
I so
J alan
L NG
L IF
M IC
N Y
N int
P OS
R and
R SS
S AT
S id
S top
T s
T NT
Y i
Y an
b ÇĴ
c Ãº
c Äĵn
d 4
i ro
r s
u te
Ã ½
Ø ¨
Ø ¯
le dge
su l
tu ry
ku Çİi
10 .6
00 2
00 4
12 30
pi s
15 27
15 .5
16 11
ar ray
re la
ri x
ri sh
ol s
el y
ãģ Ľ
48 7
ne st
bo v
46 .
Ch ro
In formation
55 8
68 5
vi ch
os au
57 7
78 1
79 2
79 4
Al bum
98 1
Le i
CO 2
AR C
Di ck
Sh op
gi on
po li
Si x
En ergy
Wi MAX
shi re
Ge mini
Ste wart
112 2
RE S
Ta c
ori es
ES PN
Tri ckett
min al
Wa ve
Tho mpson
Wh ere
Por table
ele ct
ìķ Ħ
Thunder bird
Vel vet
Jona than
ð¬ ĵ
Nint endo
0 70
5 43
6 15
7 17
8 28
8 39
9 39
B in
E 2
E di
F D
G 2
G G
G r
L en
L un
M ED
N 1
R Y
S 7
T D
U FC
V 1
V 2
a la
i c
k ai
n ar
p oly
t ar
w el
z zi
ã İ
ê °
le e
ti nu
ti ful
qu ali
di ne
ni g
15 12
15 41
16 66
la k
17 21
17 26
17 37
17 47
17 43
17 41
ar chi
14 30
30 .
25 000
for mer
te au
si te
0. 1%
48 1
is m
bo y
47 .
na tion
ad ox
ba sed
67 4
ca te
69 7
88 9
Li quid
De uts
77 %
Al len
98 2
98 9
ap u
per t
74 .
fi ni
96 %
po st
81 %
Pa ge
Sp ort
PC R
0.0 4
à¸ Ļ
AV E
NH S
Gra ce
hy th
Mat ch
bur y
Enter prise
Sur f
Production s
ab out
Bru ce
Doug las
2 TV
5 13
8 46
8 66
8 57
B 12
B all
G ary
H Y
J 1
J XG
K ill
O culus
P enti
W M
Z en
a gain
e ver
k Hz
p ower
w at
x e
z Ã¡n
de ra
gu s
zhu Çİ
mi um
12 17
12 74
15 15
15 42
17 12
17 11
17 15
14 35
14 56
13 28
13 85
for man
ro om
se le
el o
ãģ ¶
1. 05
48 .
48 00
IN T
is on
34 00
ba ch
pe i
St or
150 9
Ro ger
Wind ow
Mo tor
da le
Sta ff
IS C
97 1
Lo ck
AS H
fe ct
Net scape
IG HT
gen er
GP 40
hy dro
bri d
bri dge
face book
Prin cess
Pin k
Ten nis
SHIN ee
Penti um
0 55
6 47
7 28
7 26
8 11
8 .4
9 13
C Z
C CD
C OS
I ng
K S
M g
S now
T AI
Z ero
f it
f ig
f ts
i la
s w
t ta
u k
v ad
y an
Î ¯
Î ¶
sh ark
li k
ti t
chu Çİi
10 .1
ni k
11 50
or bit
15 44
17 57
14 24
14 70
14 54
st r
th al
th rough
ri l
ri er
29 00
am ba
se ts
90 9
45 9
38 .
37 00
is er
34 .
75 9
ST ER
II T
Co ng
ci sion
67 2
58 2
AT S
69 .
59 1
99 3
SA P
56 .
Mar s
Di vision
Lo st
93 %
Bu zz
DS L
pro ject
tt en
Fran ce
Univer sal
ham mad
Che e
âħ ¢
IM F
Dra ma
stru ct
Eng land
CG TN
Lou ise
Mer cu
add r
Anto nio
Archi te
CDMA 2000
WOR LD
Alli ance
Holly wood
8 23
8 29
8 .9
9 27
9 35
9 .2
A 5
E mi
F 7
F our
G IS
H art
J C
J ason
K N
K now
L MS
L PL
O ly
S ang
T B
U SE
W D
Z u
c ca
f eld
m pic
o le
o va
p pe
gu n
tu p
mi cal
12 35
12 64
or der
15 54
17 22
17 34
17 66
14 71
13 30
13 90
in er
ra nge
ãĥ į
ce i
60 .
60 9
the m
and o
65 2
65 9
Ma xi
Ma ke
Re mix
69 5
57 3
ly n
78 3
ss a
ber ry
77 1
ke e
Ga te
Ar ena
Sh ot
82 %
mer al
92 %
Uni t
ster s
Par adox
âĪ Ī
Ad ven
Hu gh
Pe ace
tt le
AA A
DO CO
Red dit
Ac tive
ens or
Ben ja
Spi n
Bro ok
Bro thers
Alpha Go
lli on
uni que
part ment
Engine ering
Oper a
sm all
ECT ION
Kel ly
tour nament
Cree k
defea ted
Concer t
Maki yo
Surf shark
1 180
3 100
5 29
7 24
7 36
8 32
9 32
9 67
9 76
A y
A ve
B EST
D N
D rop
E y
F 6
F G
F lu
F all
G on
H M
H Q
K A
K y
K or
L os
N 3
N ON
O L
P ia
P RE
R AD
S RAM
U 16
V CD
W ol
X Y
a ct
f ollow
g ran
g ood
h d
m ary
n ch
n el
r ence
t ent
w o
Â ½
Ã £
Ï Į
Ð ŀ
× Ļ
ð ¡
de ri
12 .6
15 57
15 51
16 55
16 78
16 96
la v
17 46
17 49
14 75
14 41
14 84
13 99
25 .
st ring
ri son
te o
et er
il ler
and ra
bo ot
75 2
be ing
68 3
Re v
St r
Ro b
Mar sh
va tion
87 %
87 4
AC S
86 %
sta tic
140 2
à¸ ¡
we i
CR H
Hu lu
net t
BM T
Dis c
All stars
Hol dings
Bro ad
Val ley
GM MTV
VO CAL
Mil ler
Pala zzo
ologi cal
IPv 6
Rain bow
Elect ronic
Premi er
PEN OME
Mercu ry
DOCO MO
PENOME CO
6 35
8 64
9 31
9 37
9 56
9 72
E dition
F ren
F IR
G it
H ad
M ou
M ol
M ill
N L
N AT
P RI
T ed
T ang
W id
c rea
e xi
f low
g os
k n
p rin
s ort
x on
Ã ĸ
Å ĭ
Ñ Ī
ð °
bi g
ti g
di stri
10 20
10 10
12 66
12 61
pi d
16 41
17 51
ar ma
13 46
mu r
th ree
re st
se u
0. 12
0. 65
ãģ Ń
ck en
38 .5
bo t
TC H
be ta
vi rus
99 5
88 4
88 5
88 6
De an
De lta
Mi ra
54 .
You Bike
mo tion
89 %
Se le
Ar m
IS P
IS S
Da vis
Da ily
Di am
po em
83 %
ki e
Pa ci
Si e
He ad
so cket
Wor d
AG M
cri p
Hi p
M1 A2
Pri ze
Nor d
CL OS
Ac cess
CS I
Coun ty
par ti
YO U
Sam sung
mat ch
Ros s
Bir d
Tw ins
long i
Beau tiful
Origin al
Augu st
user name
Theat re
Wilhel m
Benja min
0 60
5 64
6 64
8 17
8 31
8 53
9 19
9 58
9 42
9 59
9 79
A cc
C ali
F K
F NC
G as
G UI
H g
I ATA
J B
K ore
N el
P U
P X
P it
P ha
P DF
Q R
S chu
U CC
W inter
c amp
c ry
f ran
g b
h ÇĴng
h or
h on
i st
l f
r Åįng
Î £
Ð Ŀ
de t
li er
ti um
di ffer
12 84
202 9
16 73
17 13
ar ia
14 25
14 68
13 82
me mber
lt y
ãĥ ľ
se o
0. 20
80 4
80 2.
