#version: 0.2
n g
h Ã
Ã ł
Ä ģ
Ã ¬
Ã ¡
Ä «
Ã ¨
Ç İ
Ġ Ġ
Ã ©
Ã Ń
s hÃ
Ã ¹
Ã¡ n
z h
Ç Ĳ
Å į
j i
d e
Ãł n
Ä ĵ
z hÃ
s h
Ä Ľ
Ã ³
Ç Ķ
x i
Ã ²
Ã º
Äģ n
ĠĠ Ġ
Ãł i
Å «
Åį ng
Ç Ĵ
ã Ģ
shÃ ¬
h u
Ã¨ i
g u
i Ã¡n
hÃ ©
Ãł o
Äģ ng
ÃŃ ng
y u
Çİ n
c h
n iÃ¡n
y Ä«
Çİ ng
Ã© n
ÇĴ u
Ã¬ ng
w Ã¨i
Çİ o
z Ãłi
ãĢ ģ
j Ä«
Äĵ ng
zh Åįng
x Ä«
b Ã¹
j Ã¬
Ãł ng
l i
zhÃ ¨
shÃ Ń
d Ã¬
gu Ã³
y Ãº
r Ã©n
Ã² ng
c hÃ
Äģ o
d u
c hÃ©
y ÇĲ
l Ã¬
Ã¡ ng
y Ã¬
u Ã²
Ã¡ i
zhÃ ¬
chÃ© ng
Ã© i
x u
g Åįng
j ÃŃ
² u
ÄĽ i
i Ãłn
Äĵ n
Ã³ ng
yu Ã¨
y ÇĴu
yu Ã¡n
d Ãł
q i
Åį u
l ÇĲ
2 0
Ã³ u
Äģ i
xi Ãłn
ji Äģ
s Ä«
Å« n
x ÃŃng
y ÇĶ
Ã¨ n
ÇĴ ng
ÃŃ n
t Äģ
r Ã¬
zh Ä«
hÃ ²u
Çİ i
g Ã¨
zhÃ ł
Ã© ng
l e
w Ã©i
hu Ã¬
d Ãło
1 9
b i
shÃ ł
q Ä«
q ÃŃ
shÃ ¨
s u
zhÃ¨ ng
m ÃŃng
ji Ãłn
xu Ã©
ch Å«
y Ã¹
ÄĽ ng
z uÃ²
sh Äĵng
du Ã¬
y Ã³u
q Å«
shÃł ng
ÄĽ n
d Ã©
l Ã¹
b Ã¨i
chÃ ¡
t i
sh ÇĲ
zhÃł n
zh ÇĶ
Äĵ i
q u
j Ã¹
xÄ« n
j Å«n
zh u
ÄĽ r
Ã¡ o
shÃ ¹
u Ã¬
r Ã¨n
f Äģ
w Ã¹
b Ã¬ng
k Ã¨
Ã© r
d Ãłi
y ÃŃ
jÃ¬ n
z Ã¬
yÄ« n
f Ã¹
f Äģng
jÄ« ng
n Ã¡n
hu Ãł
x Ã¬
zh Åįu
p ÃŃng
Ã² u
xi Ãł
l Ã¡i
y Ã²ng
sh u
gu Äģn
t Ã³ng
ãĢ ĭ
ãĢ Ĭ
f Çİ
zhÃ ¹
m ÄĽi
hÃ ¡
Â ·
ji Äģn
j ÇĲ
hu Ã²
d Ã¹
c hu
b ÄĽn
xi Äģng
zhÃ Ń
d Ã²ng
xi Ãłng
m ÃŃn
ji Äģng
f Äĵn
sh ÇĴu
qu Ã¡n
w Ã©n
y Ã¡n
hÃ ł
su ÇĴ
ji Ãło
q iÃ¡n
d iÃłn
t Ã¨
d i
du Åį
Ãº n
z uÃ¬
k Äģi
t u
ji Ã©
l iÃ¡n
zh ÇĲ
k ÄĽ
d Ãłn
m Ã¹
y Ã¨
f Ãº
m Çİ
y ÄĽ
d Åįng
qi Ãº
b ÄĽi
ãĢ Į
ãĢ į
g Äģo
y Ãł
q ÇĲ
ji Äĵ
m iÃłn
h Çİi
zh Çİng
sh Ä«
jÄ« n
c ÇĲ
l u
n Ã¨i
t ÇĲ
s Ãłi
s Äģn
t Ã¡i
g Ã©
x Ã¬ng
gu Ã²
r Ã¹
20 1
d ÄĽng
y Ãło
j u
ch Äĵ
c Ã¬
w ÇĶ
g Äģi
d Ã¬ng
chÃ¡ ng
bi Çİo
l Äģ
g Ã²ng
ji Ã¨
shÃ ²u
d Çİo
sh Äģn
ch Çİng
s Ã¬
b ÇĲ
z Ã©
t ÃŃ
k Äĵ
d Äģng
n Ã©ng
Ã¨ r
w Ãłi
d Äģn
x Ã¹
z i
k ÇĴu
xi Çİo
z ÇĶ
b Äģ
ju Ã©
l ÃŃn
li Ãº
sh ÄĽng
yÄ« ng
k u
l Ã¡n
lu Ã³
t Åįng
20 0
Ä« ng
² ng
m ÇĲ
zhÃ ²ng
e n
zh ÄĽ
sh ÇĶ
ti Äģn
zhÃ¨ n
Ç ļ
q Ã¬
zh ÇĴng
li Ã¨
ch Äĵng
sh Å«
yu Ãłn
b Çİo
t Ãłi
f ÇĶ
f Äĵng
g ÇĶ
qÄ« ng
sh Äĵn
w Ã¡ng
yÃ¹ n
gu Çİn
f Äĵi
ji Ã¹
li Çİng
c Ã©ng
m Ã©i
1 0
f Ã¨n
hÃł o
³ ng
y Çİn
w ÄĽi
z ÇĴng
xu Çİn
xi Ãło
d Ã¡
n Ãł
li Ãłng
b Åį
z Ãº
j Ã¬ng
b Ãło
n ÃŃ
w Ãº
t ÇĴng
hu Ã¡
ji Äģo
yu Äĵ
yÇĲ ng
b iÃłn
xÄ« ng
s Ã¹
shu ÇĲ
y Ã¡ng
hÃ ¹
m en
b Äģo
g Äĵ
b Ã³
c Äģn
c Ã³ng
di Çİn
b Ã¬
r Ãº
b Ãłn
bi Äģn
w Çİng
q ÇĶ
m i
ch Çİn
s Ã¨
z Ä«
chu Ã¡n
0 0
shÃ¨ ng
r Ã¡n
t Ãº
zh Äģng
p ÇĶ
g Çİi
g Çİng
n Çļ
l Ã¬ng
l uÃ²
y Ã²u
t Ã³u
c Ã¨
l Ç
chÃ Ń
de Ġ
Ġ deĠ
shÃ¬ Ġ
Ġ shÃ¬Ġ
Ġ niÃ¡n
n Ġ
ĠniÃ¡n Ġ
wÃ¨i Ġ
zÃłi Ġ
Ġ wÃ¨iĠ
Ġ zÃłiĠ
Ġ l
Äģn Ġ
hÃ© Ġ
zhÅįng Ġ
Ġ m
Ġ hÃ©Ġ
bÃ¹ Ġ
dÃ¬ Ġ
Çİn Ġ
Ãłn Ġ
shÃŃ Ġ
guÃ³ Ġ
Ġ p
rÃ©n Ġ
yÃº Ġ
Ġ xi
lÃ¬ Ġ
Ġ zhÅįngĠ
yÄ« Ġ
Å« Ġ
gÅįng Ġ
zhÃ¬ Ġ
Ġ d
Ġ b
Ġ bÃ¹Ġ
Ġ yuÃ¨
Ġ yÃ¬
Ġ t
Ġ shÃŃĠ
Ġ w
chÃ©ng Ġ
jÃŃ Ġ
ĠyuÃ¨ Ġ
Ġ dÃ¬Ġ
Ġ yÇĴu
Ġ f
Ġ rÃ©nĠ
Ġ yÇĲ
Ġ yÃºĠ
Ġ g
Ġ k
Ġ lÃ¬Ġ
Ġ zhÃ¬Ġ
Ġ gÅįngĠ
Ġ guÃ³Ġ
yuÃ¡n Ġ
Ġ ji
jÃ¬ Ġ
Ġ y
Ġ jÃŃĠ
Ġ dÃł
ÇĶ Ġ
Ġ xiÃłn
Ġ rÃ¬
Ġ chÃ©ngĠ
Ġ z
Ġ hu
Ġ gÃ¨
ÃŃ Ġ
Ġ tÄģ
Ġ yÄ«Ġ
Ġ c
Ġ yÇĶ
ng Ġ
Ġ lÇĲ
Ġ xÃŃng
ĠyÃ¬ Ġ
Ġ zh
ĠyÇĴu Ġ
Äģng Ġ
Ġ dÃło
Ġ jÄ«
Ġ zhÄ«
jiÄģ Ġ
hÃ²u Ġ
Ġ sÄ«
ĠrÃ¬ Ġ
Ġ s
Ġ qÃŃ
Ġ yuÃ¡nĠ
Ġ mÃŃng
Ġ huÃ¬
Çİng Ġ
Ġ chÅ«
Ġ xuÃ©
wÃ©i Ġ
Ã¡ng Ġ
Ãłng Ġ
Ġ xÄ«
Ġ le
Ġ gu
Ġ jÃ¬Ġ
Ġ dÃ©
Ġ zhÃ¨ng
Ġ qi
Ġ 1
Ġ jiÃłn
Ãło Ġ
ĠyÇĲ Ġ
Ġ ÄĽr
Ġ yÃ³u
Ġ zhÃłn
Ġ shÄĵng
Ġ lÃ¹
Ġ duÃ¬
Ġ n
Ġ Ã©r
Ġ r
Ġ sh
Ġ shÃłng
Ġ bÃ¬ng
Ġ bÃ¨i
qÅ« Ġ
Ġ hÃ²uĠ
zuÃ² Ġ
Ġ jÃ¹
Ġ zhÇĶ
Ġ shÇĲ
Ġ shÃ¨
Ġ rÃ¨n
Ġ chÃ
ĠyÇĶ Ġ
Ġ zhu
Ġ x
ĠxiÃłn Ġ
Ġ jÅ«n
Ġ xÃ¬
Ġ yÄ«n
Ġ jiÄģĠ
Ġ kÃ¨
Ġ jÃ¬n
Ġ wÃ¹
Ġ pÃŃng
Ġ dÃ²ng
Ġ zÃ¬
ÃŃng Ġ
Ġ zhÅįu
Ġ shÃ¹
Ġ 19
Ġ fÄģ
Ġ h
Ġ fÃ¹
Ġ yÃ²ng
Ġ hÃ¡
Ġ fÄģng
Ġ jÄ«ng
Ġ yÃ¹
Ġ dÃłn
ĠsÄ« Ġ
Ġ jÇĲ
ĠxÃŃng Ġ
ĠtÄģ Ġ
Ã¡n Ġ
ĠdÃło Ġ
Äģo Ġ
Ġ ch
Ġ huÃł
Äģ Ġ
Çİo Ġ
ĠmÃŃng Ġ
ĠzhÄ« Ġ
Ġ zhÃ¨
xiÄģng Ġ
Ġ nÃ¡n
Ġ huÃ²
Ġ xÄ«n
Ġ dÃłi
Ġ jiÄģng
Ġ wÃ©iĠ
Ġ xiÃłng
Ġ qÄ«
ĠjÄ« Ġ
Ġ jiÃło
Çİ Ġ
Ãłi Ġ
Ġ lÃ¡i
ĠdÃł Ġ
ĠzhÃ¨ng Ġ
Ġ xiÃł
Ġ fÄĵn
Ġ q
Ġ tÃ³ng
Ä« Ġ
Ġ shÇĴu
Ġ miÃłn
yÃŃ ĠgÃ¨
Ġ mÃ¹
Ġ zhÃ¹
Ġ fÇİ
Ġ j
Ġ dÃ¹
ÇĲ Ġ
Ġ wÃ©n
Ġ tÃ¨
Ġ cÇĲ
Ġ zhÃŃ
Ġ mÇİ
Ġ kÄĽ
Ġ guÄģn
Ġ yÄĽ
Ġ mÄĽi
ĠxÄ« Ġ
Ġ qiÃ¡n
Ġ yÃ¡n
Ġ sÃłi
Ġ su
Ġ suÇĴ
Ġ zuÃ¬
Ġ gÃ©
Ġ zhÇĲ
Ġ biÇİo
Ġ yÃło
Ġ jiÄĵ
ĠxuÃ© Ġ
Ġ gÄģo
Ġ li
Ġ tÇĲ
Ġ jiÄģn
Ġ jiÃ©
Ġ dÄĽng
Ġ qÅ«Ġ
Ġ yÃ¨
Ġ hÇİi
Ġ zhÇİng
Ġ bÄĽi
Ġ fÃº
Ġ quÃ¡n
Ġ dÃ¬ng
Ġ 2
Ġ liÃ¡n
Ġ hÃ
Ġ gÄģi
Ġ chÃ¡ng
Ġ xÃ¬ng
Ġ lÃ¡n
Ġ zÃ©
Ġ duÅį
Ġ chÄĵ
Ġ dÅįng
Ġ luÃ³
Ġ rÃ¹
Ġ cÃ¬
Ġ tu
Ġ tÃŃ
Ġ diÃłn
Ġ qiÃº
Ġ zuÃ²Ġ
Ġ dÇİo
Ġ shÄĽng
Ġ guÃ²
Ġ shÄ«
Ġ jÄ«n
Ġ bÄĽn
Ġ kÄģi
Ġ shÃ²u
Ġ zi
ĠlÇĲ Ġ
Ġ bÇĲ
Ġ tÅįng
Ġ wÃłi
ĠwÃ¹ Ġ
Ġ dÄģng
Ġ tÃ¡i
Ġ liÃ¨
Ġ shÅ«
Ġ chÃ¡
Ġ lÄģ
Ġ nÃ©ng
Ġ zÇĶ
Ġ tÇĴng
Ġ bi
Ġ shÄģn
Ġ nÃ¨i
Ġ liÃº
Ġ 3
Ġ ti
Ġ wÇĶ
Ġ mÇĲ
Ġ xiÄģngĠ
Ġ chÇİng
Ġ mÃŃn
Ġ juÃ©
lÇ ľ
1 ĠniÃ¡nĠ
shÃ ©
0 ĠniÃ¡nĠ
Ġ chÄĵng
Ġ shu
Ġ qÇĲ
5 ĠniÃ¡nĠ
Ġ shÇĶ
Ġ hÃło
Ġ yÄ«ng
Ġ kÄĵ
2 ĠniÃ¡nĠ
Ġ yÃł
Ġ zhÃ²ng
Ġ lÃŃn
4 ĠniÃ¡nĠ
Ġ du
Ġ mÃ©i
Ġ xiÇİo
8 ĠniÃ¡nĠ
Ġ shÄĵn
Ġ dÄģn
Ġ fÄĵng
ĠyuÃ¨Ġ 1
Ġ tiÄģn
Ġ gÃ²ng
Ġ qÃ¬
Ġ xÃ¹
Ġxi Äĵ
Ġ sÃ¬
3 ĠniÃ¡nĠ
Ġ chu
Ġ cÃ©ng
Ġk uÃ²
Ġ yÇĲng
Ġl Ã¨i
Ġ yÇİn
Ġ sÄģn
6 ĠniÃ¡nĠ
Ġ bÄģo
ĠyuÃ¨Ġ 2
20 2
Ġ zÇĴng
Ġ jiÃ¹
Ġ fÄĵi
Ġp ÇĲ
Ġ sÃ¨
Ġl Ã³ng
Ġ yÃ¹n
Ġ gÇĶ
Ġ yÃŃ
Ġ bÇİo
shÃ© nĠ
7 ĠniÃ¡nĠ
Ġg Ã²u
Ġ xuÇİn
Ġ tÃłi
Ġ bÄģ
Ġ chÇİn
Ġ jiÄģ
Ġ zhÇĴng
Ġ liÇİng
Ġ yÃ¡ng
Ġ guÇİn
Ġ dÃ¡
Ġzh Äĵng
lÇĲ Ġ
Ġ wÇİng
Ġ nÃŃ
Ġ hÃ¹
Ġd Åįu
Ġ ÄģnĠ
Ġ wÃº
Ġ qÇĶ
Ġm Ã©n
Ġ wÄĽi
Ġ zhÃł
Ġ liÃłng
Ġ zhÄĽ
ĠzhÅįngĠ guÃ³Ġ
Ġ ku
chÃ© nĠ
Ġ nÃł
Ġ hÃ²u
Ġ yuÃłn
Ġ cÃ³ng
Ġ jiÄģo
Ġ wÃ©i
Ġ xu
Ġ jiÃ¨
Ġ qÄ«ng
Ġ biÃłn
Ġ shuÇĲ
ĠwÃ¨iĠ yÃºĠ
Ġ diÇİn
Ġ yuÃ¡n
o r
Ġ biÄģn
Ġ 4
hÃł nĠ
Ġqi ÄģnĠ
Ġ bÃ¬
Ġ lÃ¬ng
Ġ zhÄģng
Ġ bÃ³
Ġm Ã³
e r
Ġ 5
Ġxi ÄģnĠ
Ġ 201
ĠĠĠ 19
Ġl Ãºn
Ġ bÃło
Ġ wÃ¡ng
Ġb ÄģnĠ
Ġ 200
Ġw ÄģnĠ
Ġ yÃ²u
Ġ zuÃ²
Ġl ÃŃĠ
Ġr Ã³ng
Ġ bÅį
Ġ xiÃło
Ġ qÅ«
Ġ jÃ¬ng
9 ĠniÃ¡nĠ
Ġf Å«Ġ
Ġ fÇĶ
Ġm Ã©ng
ĠpÇĲ nĠ
Ġf ÇİnĠ
Ġm Ã²
Ġ rÃ¡n
Ġm Ã¬
Ġ bÃ¹
Ġ zÄ«
Ġ rÃº
Ġ zÃº
Ġ ÃłnĠ
ĠhÃ¡ i
Ġb ÇİnĠ
qu Ã¨
Ġ cÄģn
Ġxi Ã©
Ġ luÃ²
Ġw Äĵi
Ġ shÃ¨ng
Ġ xÄ«ng
Ġ gÄĵ
Ġm Ã¬ng
Ġ lÇľ
Ġ yuÄĵ
Ġhu Ã³
Ġzh ÇİnĠ
Ġ chÃŃ
Ġd Ãº
Ġ yÃº
Ġ cÃ¨
e ĠĠĠ
Ġ tÃ³u
Ġw ÃłnĠ
ĠtÄģĠ men
â Ģ
ĠpÃŃng ĠfÄģng
Ġ pÇĶ
ĠgÅįngĠ sÄ«
ĠzhÃłn Ġ
Ġ chÃ©ng
Ġ gÇİi
Ġ zhÃ¨n
a n
Ġp i
Ġm ÇĶĠ
Ġk Åįng
Ġ nÇļ
Ġji Ãł
Ġc Ã¡i
Ġ jÃŃ
Ġ Ã¨r
a Ġ
Ġshu Åį
Ġ sÃ¹
Ġ bÃłn
Ġji ÄĽ
Ġp iÃłn
Ġbi Ã©
Ġg Äĵn
Ġx ÃŃĠ
Ġ mi
ĠdeĠ yÄ«Ġ
t Ġ
mÄĽi ĠguÃ³Ġ
Ġ 6
Ġji ÇİnĠ
ĠchÃ º
Ġ jÃ¬
Ġ chuÃ¡n
ĠjÇĲ nĠ
Ġ tÃº
1 2
ĠyÇĲ nĠ
Ġp Ã¡i
Ġ yÄ«
Ġj Ãº
Ġ di
Ġ huÃ¡
Ġji Å«Ġ
Ġxi ÇİngĠ
Ġf ÃłnĠ
Ġ zhÃ
Ġg Ã¹
ĠdeĠ dÃ¬Ġ
ĠrÃ©nĠ kÇĴu
ĠbÄģo ĠkuÃ²
a r
Ġ hÃłnĠ
ĠchÃ ¹
Ġzh Äĵn
Ġ zhÅįng
ĠyÇĲ ĠjÃŃĠ
ĠlÃ¹ nĠ
ĠhÃ¡ nĠ
Ġy Ã¬ng
Ġxi Å«Ġ
ĠjÇĲ ngĠ
ĠshÃ¬Ġ jiÃ¨
Ġqi ÄĽ
Ġc Å«n
Ġxi Ã¡
ĠgÅįngĠ lÇĲĠ
Ġb Ä«ng
Ġ shÃ©nĠ
Ġc ÃŃĠ
Ġ rÃ©n
ĠĠĠ 201
Ġgu ÇĴ
Ġti Ã¡o
ĠzhÃ¨ngĠ fÇĶ
ĠqÃŃ ĠzhÅįngĠ
ĠchÅ« Ġ
Ġn i
ĠchÃ¡ o
Ġzhu ÄģnĠ
Ġp Ã¨i
ĠshÇĲ ĠyÃ²ng
1 1
Ġz Åįng
Ġm ÃłnĠ
Ġt Ã¡ngĠ
ĠlÇĲ ngĠ
Ġ fÃ¨n
ĠdeĠ yÃŃĠgÃ¨
Ġj ÇĶĠ
Ġx Å«Ġ
ĠdeĠ shÃ¬Ġ
ĠĠĠ zÃłiĠ
ĠyÃºĠ 19
ĠmÇĲ Ġ
rÃ©nĠ kÇĴu
Ġ 7
Ġji ÇİngĠ
o n
Ġl Ã©i
Ġw Å«Ġ
Ġs Å«Ġ
Ġl Ã¨
ĠhÃ º
Ġd ÇİngĠ
Ġ 10
Ġq Ã¹
e Ġ
ĠshÃ¬Ġ yÄ«Ġ
Ġ Ã©
Ġf Ã¨i
ĠtÄģ ĠdeĠ
Ġ xiÄģng
Ġb Ã¡i
ĠxÃ¬ nĠ
Ġ shÃŃ
ĠdÃ²ng Ġ
Ġ 8
Ġsu Ã¬
Ġsh ÄģngĠ
ĠbÃ¹Ġ fÃ¨n
Ġb Çİi
ĠlÃ¹ Ġ
ĠchÃ ³ng
Ġ1 8
ĠrÃ¬Ġ bÄĽn
Ġsh Åįu
Ġ hÃ©
Ġt Ä«ng
s Ġ
1 8
Ġd Å«Ġ
Ġt iÃ¡n
ĠhÃ ³ng
Ġ zhÃ¬
Ġ chÃ©nĠ
Ġhu ÃŃĠ
ĠyÄ«n ĠcÇĲ
Ġdu ÃłnĠ
ĠchÃ©ngĠ wÃ©iĠ
Ġ Äģ
ĠrÃ©nĠ mÃŃn
ĠshÃ¬Ġ wÃ¨iĠ
n i
Ġc Çİi
ĠmÄĽi ĠguÃ³Ġ
Ġl Äĵi
Ġhu Ã¡ngĠ
Ġ C
Ġ lÃ¬
Ġ yÃŃĠgÃ¨
ĠhuÃ¬ Ġ
Ã¨ ngĠ
Ġ ã
Ġw Ã¨n
Ġ shÃł
zhÅįngĠ guÃ³Ġ
Ġqi Ã¡o
shÃ¬ ĠdeĠ
ĠqÄ« nĠ
ĠzhÃł o
ĠÄĽr Ġ
Ġ S
Ġgu ÇİngĠ
Ġz Äĵng
Ġ quÃ¨
Ġt ÃŃngĠ
Ġp Ã²
s ĠĠĠ
ĠhuÃ² ĠdÃ©
ĠxÃ¹ nĠ
Ġs Ãł
Ġ kÇĴu
Ġl Çļ
Ġk Ã¹
ĠhÃ©Ġ guÃ³Ġ
u ÇĴ
Ġsu ÃŃĠ
Ġ A
zhÃ¨n Ġ
Ġd Äĵng
ĠjÃ¹ Ġ
ti ÄĽ
Ġy ÇĴng
Ġ 9
ĠgÃ¨ ngĠ
ĠkÄģi ĠshÇĲ
ĠhuÃł Ġ
³ u
Ġw ÇĴ
Ġzh Å«Ġ
Ġzhu ÇİnĠ
ĠchÃ ł
Ä« nĠ
Ġhu ÇĴ
ĠzhÇĶ nĠ
Ġ guÃ³
ĠzhÇİng Ġ
Ġs Ã²ng
Ġc Ãºn
âĢ Ķ
Ġti ÄĽ
i n
ĠxÃ¬ Ġ
ĠjiÃłn Ġ
Ġg ÇİnĠ
y Ã¬ng
Ġzhu ÄģngĠ
Ġgu Ä«
ĠyuÃ¡nĠ huÃ¬
Ġd Çİng
ĠpÃŃng Ġ
u l
Ġf Ã¡ngĠ
Ġ dÃ¬
Ġl Ã³u
Ġf ÃłngĠ
Ġ19 9
ĠtÃ³ng ĠshÃŃĠ
Ġji ÇĶĠ
Ġg ÄĽi
lÃ¬Ġ shÇĲ
Ġx Ãºn
ĠsÃłi Ġ
Ġj Å«Ġ
ĠzhÇĶ ĠyÃło
Ġd ÇĲ
1 Ġ
Ġch ÇĶĠ
ĠĠĠ dÃ¬Ġ
ĠyÃ³u ĠyÃºĠ
Ġk Çİ
ĠdÃłi ĠbiÇİo
Ġsh Äģ
Ġtu Åį
n ĠdeĠ
ĠhÃ¡ ngĠ
Ġzh ÄĽng
Ġl Ãº
Ġ M
Ġ men
Ġsh ÄģĠ
a l
Ġy Ã¡
ĠyÃ¹ Ġ
ĠdÃł ĠxuÃ©
Ġl ÃŃngĠ
Ġxu ÄģnĠ
Ġt Ã¡o
Ġw Ã¡n
q ÃŃngĠ
chÃ¡ o
ĠzÃłiĠ 19
Ġ 20
ĠdeĠ m
Ġd ÃŃĠ
Ġk ÇİĠ
Ġ1 5
Ġp Ãłi
Ġhu ÃłnĠ
Ġgu ÄģngĠ
Ġy ÃŃngĠ
Ġchu ÄģnĠ
ĠzhÅįngĠ xÄ«n
ti Ã¡o
li Ã¹
ĠyÄ«n ĠwÃ¨iĠ
Ġz Ãło
Ġb Äĵi
ĠyÃ¬ nĠ
Ġle Ġ
ĠdÃ¬Ġ yÄ«Ġ
Ġz ÇĲ
ĠdeĠ shÃŃĠ
Ġk Ã²ng
or m
ĠwÃłi Ġ
xiÄģngĠ gÇİng
ĠlÃ¬Ġ yÃł
Ġs Äģi
fÇİ ĠguÃ³Ġ
kÄģi ĠshÇĲ
Ġl ÇĶĠ
ĠxiÄģngĠ gÇİng
ĠdÃ¬Ġ Ã¨r
ĠshÃ¹ Ġ
20 ĠniÃ¡nĠ
du ÃłnĠ
Ġy ÃŃng
wÃ¹ Ġ
Ġxi ÄĽ
ĠjiÄģn Ġ
Ġs Äĵn
ĠĠĠ S
ĠxÃ¬ ĠtÇĴng
2 Ġ
ĠkÃ¨ Ġ
Ġg e
ĠshÃłng Ġ
Ãłn ĠdeĠ
Ġh ÄĽn
ĠzhÅįngĠ y
ĠyÃ¹n ĠdÃ²ng
ĠniÃ¡n ĠdeĠ
ĠdÃ¬Ġ qÅ«Ġ
0 Ġ
ĠmÃ¹ Ġ
ĠpÃŃngĠfÄģng ĠgÅįngĠlÇĲĠ
ĠduÃ¬ Ġ
Ġxi ÄģoĠ
ĠyÃ¡n ĠjiÅ«Ġ
ul aĠ
Ġq Ãºn
Ġp ÃłnĠ
ĠshÃ¬Ġ jÃ¬Ġ
Ġqi Ã¡ngĠ
orm ulaĠ
Ġxi Ã¨
Ġm Ãłi
rÃ¬ ĠbÄĽn
ĠshÄĵng Ġ
Ġgu ÃłnĠ
ĠguÃ³Ġ jiÄģĠ
ĠzhÅįng ĠdeĠ
Ġxi ÇİnĠ
Ġy ÃŃn
Ġn uÃ²
ĠdÃ© Ġ
Ġb Ä«nĠ
Ġb ÄģngĠ
jiÄģn Ġ
ĠshÃ¬Ġ zÃłiĠ
ĠĠĠ 200
Ġr Ã©ng
huÃł Ġ
Ġt ÇĶĠ
t ĠĠĠ
Ġ B
ĠhÃ ¨
t h
zhÃ¨ng ĠfÇĶ
Ġb Ãº
Å«n Ġ
Ġji Çİ
ÇĶĠ duÅį
ĠkÄĽ ĠyÇĲĠ
ĠmÃ©i ĠyÇĴuĠ
Ġ1 6
ĠshÄĽng Ġ
ĠbÃ¹Ġ tÃ³ng
Ġb Ã¡
Ġz ÇĲĠ
ku ÃłngĠ
Ġ19 8
Ġ ÃłoĠ
ĠbiÇİo ĠshÃ¬Ġ
Ġd Ã²u
Ġt ÃŃng
ĠzhÃ¨ ĠxiÄĵ
ĠdÄģn ĠrÃ¨n
jÇĲ nĠ
hÃ ³ng
d ĠĠĠ
ĠdeĠ p
Ġ T
Ġgu Ä«Ġ
ĠzhÅįngĠ huÃ¡
o u
shu Åį
Ġq ÃŃngĠ
Ġtu Ã¡nĠ
3 Ġ
Ġw Çİ
Ġp Ä«
Ġ I
Ġ Ãłi
ĠĠĠ 202
Ġxi Çİng
Ġz ÃłoĠ
a m
Ġh Äģ
ĠzhÅįu Ġ
ĠgÃ²ng ĠhÃ©ĠguÃ³Ġ
yu ÇİnĠ
Ġw Ã¡nĠ
ĠzÃ¬ ĠjÇĲ
ĠkÄĽ ĠnÃ©ng
Ã ¼
zhÃł o
ĠshÃ¬Ġ jiÃłn
hÃ º
w Äĵi
Ġ 202
shÇĲ ĠyÃ²ng
ĠdÄĽng Ġ
Ġxi Ã¹
ĠjÃ¬n ĠxÃŃng
ĠyuÃ¨Ġ 3
Ġk ÃłnĠ
Ġ1 2
Ġz uÇĴ
diÃłn ĠyÇĲng
Ġd Çİ
Ġzi Ġ
Ġy Åįng
tÃ¡i ĠwÄģnĠ
Ġb Ãłi
ĠgÃ© Ġ
Ġzhu Äģng
ĠmiÃłn ĠjÄ«Ġ
ĠguÃ³Ġ jÃ¬Ġ
Ġt Çİ
Çİn ĠdeĠ
ĠxiÃł Ġ
ĠdÃ¹ nĠ
Ġd Ä«ng
zhu ÄģnĠ
Ġn Ã³ng
Ġl ÃŃng
Ã¼ Ã¨
ĠrÃ¨n ĠwÃ©iĠ
ĠshÄ« Ġ
Ġr uÃ¬
Ġy ÃłnĠ
Ġ Ãło
Ġy Åįu
ĠjiÃłn ĠzhÃ¹
ĠqiÄģnĠ mÇĲ
Ġm ÇİnĠ
ĠfÇİ Ġ
ĠhÃ¡ ng
Ġ P
g Ã¹
Ġm Ã¡o
Ġb ÇĶĠ
Ġ Åįu
Ġhu Ä«
Ġxi Äģo
ĠtÃ¡i ĠwÄģnĠ
Ġ D
ĠtÅįng ĠguÃ²
ĠzhÄ« ĠyÄ«Ġ
ĠshÃŃĠ qÄ«
ï ¼
zhÃ¨ng ĠzhÃ¬Ġ
Ġzhu ÃłngĠ
Ġh Äĵi
5 Ġ
ĠĠĠ shÄĵng
ĠlÇĲ ng
ĠjÅ«n Ġ
ĠhÃ²uĠ lÃ¡i
Ġchu ÃłngĠ
a ĠĠĠ
ĠjÃ¹ nĠ
Ġhu Ã¡ng
4 Ġ
Ġxi Ã³ng
hÃł i
Ġg ÃłoĠ
ĠmÃŃng ĠwÃ¨iĠ
ji ÇĶĠ
r i
ĠchÇİng Ġ
Ġy ÄģoĠ
bÃ¹Ġ fÃ¨n
0ĠniÃ¡nĠ dÃłi
ĠxiÃłng Ġ
Ġt ÇİnĠ
ĠdeĠ c
tu Åį
Ġ gÇİng
j ÇĶĠ
Ġhu Ã¡nĠ
Ġ1 7
qÄ« nĠ
ĠxuÃ©Ġ yuÃłn
ĠxÃ¬ng Ġ
ĠlÃ¡i Ġ
ĠdeĠ gÅįngĠ
Ġbi Äģo
ĠsÃ¨ Ġ
ĠdeĠ f
ĠtÃŃ Ġ
Çİn ĠshÃ¬Ġ
ĠxuÃ©Ġ xiÃło
5 ĠrÃ¬Ġ
Ġw Äĵn
ĠshuÅį Ġ
ĠmiÃłn Ġ
ĠdeĠ zhÇĶ
19 ĠniÃ¡nĠ
Ġw ÇİnĠ
Ġf ÄģnĠ
ĠzhÄ« ĠhÃ²uĠ
Ġli Ã¹
Ġ19 4
sh ÄģngĠ
Ġtu Ä«
Ġw ÃłngĠ
Ġt uÃ¬
ĠchÃ©ngĠ lÃ¬Ġ
tu Ã¡nĠ
8 ĠrÃ¬Ġ
ĠpÃŃngĠfÄģng ĠqiÄģnĠmÇĲ
tu Ã¡n
ĠshÃł o
gu ÇİngĠ
Ġh Å«Ġ
ĠtÄģ ĠzÃłiĠ
ĠshÇĴu Ġ
Ġw Ã²
w Å«Ġ
Ġch Åįng
Ġpi ÄģnĠ
ĠhÃło Ġ
Ġdi ÃłoĠ
ĠzhÃ º
ĠdiÃłn ĠyÇĲng
ĠĠĠ f
ĠzuÃ¬ ĠzhÅįngĠ
ĠdÃł ĠdeĠ
ĠdÄģng ĠshÃŃĠ
u ÇİnĠ
Ġ Äĵn
xÃ¬ nĠ
ĠzhÃ¨ng ĠshÃ¬Ġ
hÃ¡ nĠ
ĠgÅįngĠ zuÃ²Ġ
j Å«Ġ
s t
Ġg ÄģnĠ
ĠshÇĲ Ġ
ĠrÃ©nĠmÃŃn ĠgÃ²ngĠhÃ©ĠguÃ³Ġ
Ġg ÄģngĠ
ĠyÇĲĠ jÄ«ng
qi ÄģnĠ
ĠxiÃłn ĠdeĠ
r o
p Ã¡i
xu ÄģnĠ
Ġf Ã¡
ĠzhÃ¨ng ĠzhÃ¬Ġ
j Ãº
Ġr Ã¨
00 0
ĠdiÇİn Ġ
e l
kÃ¨ ĠlÃ¡n
ĠlÃ¬Ġ shÇĲ
g Äĵn
Ġ shÃ¬ĠdeĠ
Ġl ÃŃ
Ġt ÇİĠ
ji ÇİnĠ
lÃ¬ĠshÇĲ Ġ
1 ĠrÃ¬Ġ
chÃ ³ng
ĠyÃºĠ 201
6 ĠrÃ¬Ġ
y ĠĠĠ
zh Äĵn
Ã¨ ng
Ġ ÄģĠ
Ġli Ã¡ngĠ
Ä«Ġ rÃ¡n
ĠdÃ¬Ġ qÅ«
diÃłn ĠshÃ¬Ġ
4 ĠrÃ¬Ġ
b Ä«ng
7 ĠrÃ¬Ġ
yÃ¡n ĠjiÅ«Ġ
Ġ19 7
ĠyÃ¨ Ġ
Ġf Ã¡ng
Ġl Ã¼Ã¨
ĠÃ©r Ġ
Ġli ÃłoĠ
ĠshÇĶ ĠyÃºĠ
ĠdeĠ hu
bi Äģo
lÃ¹ Ġ
Ġz ÇĴu
ĠzhÅįngĠy ÄģngĠ
Ġxi Åįng
Ġr uÃ²
ĠrÃ¨n Ġ
li Ã¡o
ĠshÃ¬Ġ f
ĠdeĠ rÃ©nĠ
Ġb ÃłiĠ
jÅ«n Ġ
ĠĠĠshÄĵng ĠpÃŃngĠ
ĠlÃ¬Ġ rÃº
Ġ19 5
zhu ÇİnĠ
Ġpi ÃłoĠ
Ġ1 1
6 Ġ
ĠdiÃłn ĠshÃ¬Ġ
ĠchÄĵng ĠwÃ©iĠ
ĠyÃº nĠ
ĠdeĠ chÃ©ngĠ
Ġt Å«Ġ
zhÇİng Ġ
Ġji ÇİoĠ
r e
ĠfÃ¹ ĠzÃ©
ĠgÄĵn ĠjÃ¹
ĠzuÃ²Ġ wÃ©iĠ
Ġp Åį
ĠchÃ ¨
ĠdeĠ k
Ġz Çİo
chÇİng Ġ
ĠdeĠ l
ĠdeĠ xi
ĠmÃ¬ ĠdÃ¹
Ġtu Ã¡n
ĠtÃŃ ĠgÅįngĠ
Ġji ÃłngĠ
ĠĠĠ C
ĠdeĠ dÃł
ĠzhÃ¨ Ġge
ĠyÄĽ ĠshÃ¬Ġ
ĠdÃł ĠxuÃ©Ġ
c Ã¡i
Ġ1 4
Ġd ÇİĠ
Ġt Ã¡ng
Ġk ÄģngĠ
ĠdÇİo Ġ
ĠbÃ¬ng ĠqiÄĽ
Ġp Ãł
ĠshÃ¬Ġ zhÃ¨nĠ
Ġk ÇİoĠ
q Ã¹
Ġli ÃłnĠ
ĠjÃ¬n ĠxÃŃngĠ
Ġji ÇİĠ
ĠchÃ©ngĠ wÃ©i
Ġch ÄģoĠ
Ġji Çİo
Ġz ÃłnĠ
ĠfÄģ ĠshÄĵng
x Å«Ġ
sh Åįu
r Ã³ng
ĠhÃ¡ o
Ġg Äĵng
ĠchÄĵng Ġ
d Åįu
Ġp ÃłiĠ
jÇĲ ngĠ
ĠtÃ¨ Ġ
Ġs Åįng
ĠshÃ¬Ġ zhÅįngĠ
Ġ 0
Ġ E
Ġl Ã¡o
ĠjÃ¬n ĠrÃ¹
ĠshÃ¨ ĠhuÃ¬
ĠdÃło Ġle
ĠshÃ¨ Ġ
Ġl ÇİngĠ
Ġmi ÇİnĠ
z Åįng
ĠwÄĽi ĠyuÃ¡nĠhuÃ¬
ĠyÃ³u ĠxÃ¬
Ġp ÃŃn
Ġp ÃŃĠ
Ġ1 Ġ
huÃ² ĠdÃ©
ĠnÃŃ ĠyÃł
xiÃł Ġ
d Ãº
Ġgu Ã¬
ĠkÄĽ ĠyÇĲ
ĠĠĠ lÃ¬ĠshÇĲĠ
ĠjÄ« ĠwÃ¨iĠ
n uÃ²
ĠdeĠ jÄ«
ĠchÄĵ Ġ
xÃŃng Ġ
Ġ1 3
a c
ĠdeĠ guÄģn
hÃ¡ i
1 7
Ġf Ãłng
ĠĠĠ M
chu ÃłngĠ
Ġl Çİo
ĠshÃ¬Ġ yÃ³u
Ġji Ãłng
Ġp Ã©ng
Ġ qu
ĠzhÄ«Ġ jiÄģn
ĠyÄ«ng ĠguÃ³Ġ
di ÃłoĠ
s i
ĠgÅįngĠ chÃ©ngĠ
li ÃłnĠ
ĠfÄģ ĠzhÇİnĠ
Ġ19 6
ĠgÃ²u Ġ
bi ÄģoĠ
n iÃłn
ĠshÃ¨ ĠjÃ¬Ġ
o l
a t
Ġshu ÄģngĠ
ĠshÃŃĠ jiÄģn
Ġ H
ĠchÃł ngĠ
Ġji ÇĶ
zhÄĽ Ġ
ĠdeĠ y
Ġsh ÄĽn
ĠzhÇĶ ĠyÃ¬Ġ
ĠsÄ«Ġ tÃ¨
Ġ L
tu Ä«
Ġd Ä«
ĠdeĠ yÃ¬
ĠdeĠ t
9 ĠyuÃ¨Ġ
ĠtÇĲ Ġ
ĠwÃ©n Ġ
Ġ N
ĠtÃ³ng ĠniÃ¡nĠ
ĠrÃ©nĠkÇĴu ĠmÃ¬ĠdÃ¹
sh Çİo
Ġ R
ĠqÃŃ ĠtÄģ
1 5
ĠdeĠ xÃŃng
ĠzhÄĵng Ġ
Ġs ÇĲĠ
Ġ G
Ġp Ã©i
ĠshÃ¬Ġ yÃŃĠgÃ¨
ĠcÅ«n Ġ
Ġhu Äģ
bÄģo ĠkuÃ²
Ġw ÇİĠ
s Å«Ġ
yÇĲ nĠ
Ġz Ã¡
10 ĠyuÃ¨Ġ
20 20ĠniÃ¡nĠ
ĠgÅįngĠsÄ« Ġ
su ÃłnĠ
1 ĠyuÃ¨Ġ
r Ã¨
ĠdÃłn ĠshÃ¬Ġ
Ġm ÃłiĠ
ĠguÃ³Ġ jiÄģ
7 ĠyuÃ¨Ġ
3 ĠyuÃ¨Ġ
kÄĽ ĠnÃ©ng
ĠjÃ¬Ġ shÃ¹
ĠdÃ¬Ġ sÄģn
ĠzhÄĽ Ġ
ĠmÃŃn ĠguÃ³Ġ
Ġ19 3
Ġ gÅįng
ĠchÃ©ngĠ yuÃ¡nĠ
ĠcÄģn ĠjiÄģĠ
1 6
ĠguÄģn Ġ
12 ĠyuÃ¨Ġ
Ġy Ã©
ĠrÃ¨n ĠwÃ©i
ĠpÃŃngĠfÄģngĠqiÄģnĠmÇĲ Ġ
xÃ¹ nĠ
y Ã¡
rÃ©nĠ mÃŃn
ĠfÄĵn ĠbiÃ©
sÄ« Ġ
Ġ Äģi
5 ĠyuÃ¨Ġ
ĠbÃ¬ng ĠzÃłiĠ
ĠyuÃ¨Ġ1 ĠrÃ¬Ġ
8 ĠyuÃ¨Ġ
ĠxÃŃng ĠdeĠ
Ġq Ã¬ng
n ĠshÃ¬Ġ
Ġy ÃłngĠ
ĠmÃ¹ ĠqiÃ¡n
ĠcÇİi ĠyÃ²ng
ĠshÃ²u Ġ
Ġxi Ã¡nĠ
ĠshÃ¨ nĠ
ĠquÃ¡n ĠguÃ³Ġ
x ÃŃĠ
y Ġ
Ġq ÃŃn
Ġ F
ĠĠĠ A
chÃ©ng ĠshÃ¬Ġ
yÄ«ng ĠguÃ³Ġ
ĠxÄ«Ġ yÃł
Ġg tĠ
ĠshÃ¬ĠwÃ¨iĠ yÃºĠ
Ġt ÃłnĠ
y ÃłnĠ
wÄĽi ĠyuÃ¡nĠhuÃ¬
Ġy ÇİngĠ
6 ĠyuÃ¨Ġ
d Ġ
Ġbi ÄģoĠ
ĠchÃ©ng ĠshÃ¬Ġ
Ġn iÃłn
7 Ġ
ĠdÇİo ĠzhÃ¬Ġ
o nĠ
n Ã³ng
ĠhÃ© ngĠ
Äģn ĠdeĠ
ĠyÃ¬Ġ yuÃ¡nĠ
Ġk ÇĴng
guÃ³Ġ jiÄģĠ
Ġd Å«n
C Ġ
ĠqÃŃ Ġ
bi Ã©
dÃłi ĠbiÇİo
4 ĠyuÃ¨Ġ
sh Äģ
ĠshÃłng ĠdeĠ
ĠdÃ¬ng Ġ
n Ã¡
ĠluÃ³ ĠsÄ«
Ġh Çİo
Ġl tĠ
ĠyÄģoĠ qiÃº
Ġsu Ä«ĠrÃ¡n
ĠtÅįng ĠchÃ¡ng
Ġgu Çİng
ĠbÃ¹Ġ guÃ²
ĠshÃ¬Ġ shÃ¬Ġ
ĠwÃ¨iĠ le
ÇĶ nĠ
ĠshÃ¹ nĠ
Ġx ÇĶĠduÅį
ĠshÅ« Ġ
ĠyuÃłn Ġ
wÃ¡ng Ġ
ĠyÃ¬nĠ dÃ¹
chÃ ¹
Ġd ÇĲĠ
Ġm ÇĶ
ĠyÄ«n ĠyuÃ¨Ġ
ji ÄĽ
Ġl ÄĽi
Ġk ÄģnĠ
Ġg Å«Ġ
ĠyÃ¡n Ġ
8 Ġ
ĠjÇĲ ng
qi Ã¡ngĠ
huÃ¬ Ġ
ĠwÃ©n ĠhuÃł
shÃ¨ ĠhuÃ¬
ĠzhÄ«Ġ chÃŃ
ĠdÄģng ĠdÃ¬Ġ
ĠxiÃłn ĠzÃłiĠ
Ġg ÃłnĠ
Ġhu Ä«Ġ
ĠshÃ¬Ġ dÃ¬Ġ
ĠbÃ¹Ġ duÃ¬
Ġy Ã¡o
Ġhu ÄģĠ
fÄģ ĠzhÇİnĠ
ĠqÃ¬ Ġ
tÅįng ĠguÃ²
yÇĲng ĠxiÇİngĠ
xÃŃng ĠzhÃ¨ngĠ
zh Äĵng
Ġhu ÃŃ
ĠdeĠ shÃ¹
Ġhu Ã¡n
ĠshÃł nĠ
11 ĠyuÃ¨Ġ
Ġc ÃŃ
mÃŃng Ġ
ĠxuÄģnĠ bÃ¹Ġ
Ġp Äģi
q Ãºn
ĠdeĠ gu
ĠshÄĵng ĠhuÃ³
zuÃ² ĠpÇĲnĠ
ĠyÃºĠ 200
Ġy Äģ
dÃłi Ġ
ĠxuÃ© ĠjiÄģĠ
Ġ Ã¨
ĠzhÃŃ Ġ
ĠjÃ¬n Ġ
ĠshÃ¬Ġ zhÃ¨n
ĠgÄģo ĠdÃ¹
Ġy Ãłng
i Ġ
ĠzhÃ¹ Ġ
yÄ« ĠxiÄĵ
ĠxÅ«Ġ yÃło
Ġm Ã³u
ĠjÄ«ng Ġ
ĠyÃ¬Ġ shÃ¹
shÄ« Ġ
ĠchÅ« ĠdeĠ
ĠdÃł ĠlÃ¬Ġ
ĠmÃ©n Ġ
ĠxiÃ¡ Ġ
Ġt Ã¡n
Ġm Ãło
ĠyÄ«n Ġ
ĠyÃ²ng Ġ
ĠyÄ« ĠxiÄĵ
jiÃłn Ġ
5 0
ĠzÃłiĠ dÃ¬Ġ
ĠĠĠ P
Ġd Ä«Ġ
shÃłng Ġ
ĠjiÃło ĠyÃ¹
Ġqi Ã¨
xiÃłn Ġ
Ġy ÄģĠ
ĠyÇĴu ĠyÄ«Ġ
h Äĵi
Ġs ÇĲ
h ÄĽn
chÃ º
guÄģn Ġ
ĠlÃ¨i Ġ
Ġzh e
ĠdeĠ jÃ¬Ġ
su ÃŃĠ
Ġsh Äģng
3 0
Ġt Ã¬
le Ġ
yÃ¬ nĠ
ĠbÄģnĠ yÃ¡
ch Åįng
Ġg Ãłi
Ġt Ã²u
ch ÇĶĠ
ĠyÃ¬Ġ zhÃŃ
Ġk Çİi
hu ÃŃĠ
o m
Ġqi Å«Ġ
chu ÄģnĠ
ĠjÃ¬Ġ huÃł
ĠlÃ¬ ĠdeĠ
hu Ã¡ngĠ
i l
Ġx ÃŃ
Ġji Çİng
ĠguÃ³ ĠdeĠ
bÇİo ĠhÃ¹
ĠwÃ¡n ĠchÃ©ngĠ
ĠĠĠ m
zi Ġ
zhÃ º
Ġb Çİ
Ġã ĥ
ĠlÃ¡i ĠzÃ¬
ĠhÇİi ĠbÃ¡
d ÇĲ
ĠchÃ©ngĠ gÅįngĠ
ĠcÄģn ĠyÃ¹
2 ĠyuÃ¨Ġ
ĠdeĠ zuÃ¬
Ġ J
ĠfÄĵn ĠbÃ¹Ġ
Ġn ÃŃngĠ
ĠzhÅįngĠ gÃ²ng
ĠrÃ¬ ĠzÃłiĠ
Ġxi Ã¡ngĠ
ĠshÃ¬Ġ hÃ©Ġ
Ġx ÇĲ
ĠdeĠ xÄ«n
Ġch Äģo
Ġz ÇİoĠ
ĠzhÇĶ ĠjiÃło
ĠdÃ¹ Ġ
ĠdeĠ b
Ġzh Ġ
Ġmi Ã¡o
Ġdu Ã³
yÃ¹ Ġ
Ġ2 Ġ
ĠĠĠ T
ĠqÄ« ĠjiÄģn
ĠjÃ¬Ġ xÃ¹
ĠluÃ³ ĠsÄ«Ġ
ĠyÃ¬ ĠwÃ¨iĠ
zÃ¬ ĠjÇĲ
Ġd ÃŃ
Ġc Ã¹
Ġc uÃ²
dÃ¹ Ġ
ĠshÃłng ĠhÇİi
Ġz Äģo
Ġl ÇİnĠ
fÇİ Ġ
Ġr ÃłngĠ
hÃ ¨
wÃ©n ĠhuÃł
xiÃłng Ġ
Ġch ÇĶ
ĠyÇİn Ġ
Ġle ĠyÄ«Ġ
ĠfÄĵng Ġ
2 ĠrÃ¬Ġ
o f
1 4
Ġl Ãł
zÃº Ġ
ĠyÃ¬ ĠdeĠ
ĠĠĠ deĠ
ĠxÃŃng ĠzhÃ¨ngĠ
ĠĠĠ19 9
ĠtÃ¡i Ġ
yÃ¨ Ġ
ĠdÃ¬ ĠdeĠ
ĠĠĠ B
ĠpiÃłn Ġ
ĠdÃ© ĠguÃ³Ġ
ĠmÇİ ĠwÃ¨iĠ
Ġpi Ãło
ĠzhÃ¨ ĠzhÇĴng
9 ĠrÃ¬Ġ
r Ġ
Ġg Ãło
yÄ« ĠwÃ¨iĠ
dÄģn ĠrÃ¨n
Ġr Ãłng
qÃŃ ĠtÄģ
qÄ« Ġ
Ġl Ã¡ngĠ
1 3
biÇİo ĠshÃ¬Ġ
ĠzuÃ² ĠpÇĲnĠ
ĠyÃ²ng ĠyÃºĠ
ĠdÃłi Ġ
Ġhu Ã¡i
ĠgÃ¨ ng
ĠtÃ¨ ĠbiÃ©
zhÇĶ ĠyÃło
ĠguÇİn Ġ
q ÃŃng
ĠjiÄģĠ rÃ¹
ĠgÅįngĠ yuÃ¡nĠ
qi Ã¡o
z Äĵng
jÃ¹ Ġ
ĠdeĠ shÄĵng
bÃło Ġ
ĠchÃ ¬
ĠĠĠ yÃ³u
3 ĠrÃ¬Ġ
ĠjÄ«ng ĠjÃ¬Ġ
Ġd ÃłngĠ
ĠdÄģn ĠwÃ¨iĠ
Ġl ÇĶ
ĠdeĠ g
ĠĠĠ bÄĽn
ĠqiÃ¡n ĠwÇİng
Ġku ÇİnĠ
ĠshÄĵng ĠyÃºĠ
ĠnÃ¡n Ġ
zhÇĴng Ġ
Åįu ĠzhÅįu
Ġf ormulaĠ
ĠduÃ¬ ĠyÃºĠ
ï¼ į
f ÇİnĠ
ĠzhÃł ngĠ
ĠchÃ¹ Ġ
ĠĠĠ shÃ¬Ġ
Ġ 000
Ġã ģ
z Çİi
jÄ« Ġ
9 Ġ
Ġqi Ã¡ng
ĠfÄģ Ġ
ĠzÃº ĠqiÃº
ĠshÃ¨ ĠyÇĴuĠ
c ÃŃĠ
ĠĠĠdÃ¬Ġ lÇĲĠ
ĠzhÅįngĠ xuÃ©
ĠdeĠ w
rÃ©nĠ wÃ¹Ġ
ĠfÄĵn Ġ
wÃłi Ġ
ĠliÃ¨ Ġ
a ti
ĠbÇĲ ĠsÃłi
ĠtiÄĽ ĠlÃ¹
ĠfÇİ ĠguÃ³Ġ
Ġp Ãº
e t
ĠjuÃ© Ġ
ĠjiÃł Ġ
zhÃ¹ Ġ
Å« ĠshÃ¬Ġ
Ġku ÃłiĠ
ĠfÃ¹ Ġ
ĠdÃ¬Ġ fÄģng
ĠdeĠ fÃ¹
ĠjuÃ© ĠdÃ¬ng
ĠqÇĲ ngĠ
Ġxi Ã¡n
tÄģ Ġmen
yÃ²ng Ġ
z uÇĴ
x Ãºn
ĠqÃŃ ĠtÄģĠ
dÃ¹ nĠ
tiÄĽ ĠlÃ¹
li Ã¡ngĠ
lu ÃłnĠ
chÄĵng Ġ
Ġs Å«n
ĠpÃ¡i Ġ
Ġb Ãł
ĠliÇİng ĠgÃ¨
Ġt ÇĶ
ĠchÄĵ ĠzhÃłn
Ġch Å«n
Ġdu ÄģnĠ
er Ġ
ĠshÃ¬Ġ jÃ¬
ĠquÃ¡n Ġ
ĠqÄ« Ġ
ĠĠĠ p
o Ġ
ĠzhÄģng Ġ
diÇİn Ġ
ĠĠĠ l
ĠshÃ¹ ĠliÃłng
o w
Ġs ÃłnĠ
ĠqÇĶ Ġ
ĠxuÃ© ĠshÄĵng
Ġz Äģi
ĠyÃ¬ ĠbÄģnĠ
sh ÇİoĠ
ĠzÃłiĠ 201
ĠhuÃ³ ĠdÃ²ng
ĠzÃ¬ ĠyÃ³u
ĠrÃº ĠguÇĴ
ĠdeĠ hÃ©Ġ
Ġl ÇİoĠ
Ġq ÃŃng
ĠsuÇĴ Ġ
zhÃ¨ng ĠshÃ¬Ġ
ĠdeĠ shÇĴu
Ġqi ÄģngĠ
Ġzhu Ãłng
ĠwÃº ĠfÇİ
ĠdeĠ lÇĲ
zhÃ²ng ĠyÃło
ĠzhÅįngĠhuÃ¡ ĠrÃ©nĠmÃŃnĠgÃ²ngĠhÃ©ĠguÃ³Ġ
Ġh ÄģĠ
gu Ä«
19 9
20 19ĠniÃ¡nĠ
Ġ K
ĠfÇİnĠ yÃ¬ng
Ġr uÇİnĠ
ji ÇİngĠ
i c
s Ãł
ĠdeĠ fÄģng
zh e
shu ÄģngĠ
ĠjiÃłn ĠlÃ¬Ġ
bÄĽn Ġ
Ġt Ã©ng
Ġm ÃŃĠ
ĠjiÃ© Ġ
qÇĲ Ġ
ĠdÇĲ ngĠ
Ãłn ĠshÃ¬Ġ
ĠdeĠ zhÃŃ
ĠyÃ¬Ġ huÃ¬
chÄĵ ĠzhÃłn
ĠdeĠ yuÃ¡nĠ
ĠrÃ©nĠ yuÃ¡nĠ
ĠcÃºn ĠzÃłiĠ
Ġã Ĥ
ĠqiÃ¡n Ġ
yÄ«n ĠyuÃ¨Ġ
ĠzhÃ²ng ĠyÃło
dÃł ĠlÃ¹
ĠshÃŃĠ Ã¨r
Ġgu ÇĲ
ĠzhÃ¨n Ġ
ĠyÇĶĠ yÃ¡n
Ġw Ãłng
ĠĠĠ t
ĠzÇĴng ĠtÇĴng
Ġli Ã¡o
mi Ã¡o
Ġn Ã¡
ĠxÃŃngĠ xÄ«ng
ĠxÃŃng ĠchÃ©ngĠ
zhu ÄģngĠ
ĠshÄĵng ĠchÇİn
ĠguÃ³Ġ mÃŃn
ĠĠĠ yÇĶ
ĠĠĠ gÄģi
ĠrÃ©n ĠdeĠ
yÃ¹n ĠdÃ²ng
ĠfÃ¨n Ġ
m Ã²
ĠxiÃło Ġ
ĠchÃ ³u
x ÇĶĠduÅį
rÃ©nĠkÇĴu Ġ
gu ÄģngĠ
ĠshÃ¬ĠyÄ«Ġ zhÇĴng
Ġk ÄĽn
a s
ĠxiÇİo ĠshÃŃĠ
shÄĵng Ġ
shÇĶ ĠyÃºĠ
ĠmÃŃng ĠdeĠ
Ġsh Çİo
ĠzÃłiĠ zhÃ¨
Ġgu Äģng
ĠzÃło ĠchÃ©ngĠ
ĠyÃº ĠshÃ¬Ġ
on ĠĠĠ
ĠwÃ¹Ġ guÇİn
Ġp ÃłoĠ
zh Å«Ġ
ĠliÃ¡n ĠhÃ©Ġ
ĠlÇĲngĠ dÇİo
bÃ¹ĠfÃ¨n Ġ
ĠyÅįng ĠyÇĴuĠ
ĠzhÇĲ Ġ
ĠshÄģn Ġ
zhÅįngĠ huÃ¡
sh ÄģĠ
Ġ19 2
Ġch ÇĲĠ
q ÃŃn
ĠzhÄ«Ġ qiÃ¡n
liÇİng ĠgÃ¨
ĠzhÇĶ ĠxÃŃĠ
ĠjiÃ¹ ĠshÃ¬Ġ
qÇĲ ngĠ
Ġni ÇĶĠ
ĠxuÃ© ĠmÃŃngĠ
ĠgÅįngĠ zuÃ²
Ġf Çİng
ĠcÃ¨ Ġ
ĠzhÃ¨ ĠyÄ«Ġ
ĠyÇĲĠ xiÃł
Ġm Çİi
Ġ W
ĠfÄģ ĠxiÃłn
T Ġ
ĠnÃ¡n ĠbÃ¹Ġ
ĠchÇİn ĠshÄĵng
ĠhuÃ³ ĠdÃ²ngĠ
ĠzÃłiĠ 200
ĠĠĠ gÄĵn
ji Ãł
ĠqÄ« ĠjiÄģnĠ
yÃº nĠ
ĠzhÃ ¡
ĠmÃ©i ĠyÇĴu
guÃ³Ġ jÃ¬Ġ
Ġt Ã¡nĠ
gu ÃłnĠ
e s
zÃº ĠqiÃº
jÃ¬n ĠxÃŃng
ĠbÃ¨i Ġ
ĠzuÃ¬ ĠgÄģo
ji ÇĶ
Ġdu ÇİnĠ
ĠdÃº ĠlÃ¬Ġ
ĠdÃłĠ liÃłng
Ġk Çİo
ĠyÇĲng ĠxiÇİngĠ
Ġf Ã¨ngĠ
ĠbÃ¹ ĠdeĠ
k Åįng
ĠgÅįngĠ lÇĲ
ĠhÃ©Ġ zuÃ²Ġ
ĠdeĠyÃŃĠgÃ¨ ĠshÃ¬ĠzhÃ¨nĠ
ĠyÃ¬ng Ġ
ĠfÄģ ĠxiÃłnĠ
ĠĠĠ rÃ©nĠkÇĴuĠ
ĠzÃłiĠ cÃ¬
Ġqi ÇİnĠ
zhÄ« ĠchÃŃ
xÃ¬ ĠtÇĴng
ĠshÄĵn Ġ
hÃ¡ ngĠ
Ġxi ÇİnĠshÃ¬Ġ
ĠchÃº Ġle
ĠliÃłng Ġ
chÃ ł
Ġz Ã²u
ĠgÅįngĠ kÄģi
r a
ĠchÃł ng
ĠtÄ«ng Ġ
ĠĠĠ zhÃ¨
z ÃłoĠ
zhu Äģng
ĠbÃº ĠshÃ¬Ġ
h Çİo
ĠyÃºĠ 202
ĠliÃ¡n ĠmÃ©ng
ĠhÃ©Ġ p
ĠguÇİn ĠlÇĲ
ĠzÃ¬ Ġ
Ġhu ÄģnĠ
bÄĽi ĠjÄ«ng
ĠrÃ³ng Ġ
ĠzhÇĴng Ġ
ãĢ ī
ĠcÇĲ ĠwÃłiĠ
ãĢ Ī
Ġs Åįu
Ġdi Ã©
ĠshÅ« ĠjÃ¬Ġ
ĠwÃ¡ng Ġ
duÃ¬ Ġ
Ġli Ãło
sÃłi Ġ
ĠpÇĶ ĠchÃ¡
mi ÇİnĠ
ĠchÄģoĠ guÃ²
ĠĠĠ L
ĠhÇİiĠbÃ¡ ĠgÄģoĠdÃ¹
ĠshÃŃ ĠdeĠ
qÃŃngĠ kuÃłngĠ
Ġm Ã¨i
ĠwÇĴ Ġmen
dÃ© ĠguÃ³Ġ
Ġk Ãłng
ĠzhÃłn ĠzhÄĵng
ĠlÃ¨i ĠsÃ¬
ĠchÅ« ĠbÇİnĠ
ĠjÄ«ng ĠguÃ²
Ġ Ð
jÄ«ng ĠjÃ¬Ġ
shÃł nĠ
Ġ3 0
Ġ ÃłiĠ
ĠbÄĽi ĠjÄ«ng
ĠbÄģoĠkuÃ² Ġ
gu Ä«Ġ
qÃŃ ĠtÄģĠ
fÄĵn Ġ
ĠjiÃło Ġ
tÄģ ĠdeĠ
ĠhuÃ¬ ĠyÃ¬Ġ
ĠdÃ¬Ġ shÃŃĠ
ĠzÇĶ ĠzhÄ«
ĠkÃ²ng ĠzhÃ¬Ġ
w ÃłnĠ
lÃ¹ nĠ
quÃ¡n Ġ
k Ġ
Ġs ÇĶnĠ
ĠzhÃ¬ ĠdeĠ
c Ãºn
ĠlÃ³ng Ġ
ĠbÃ¬ Ġ
ĠqÇĲ Ġ
ĠrÃ¬ ĠzhÃ¬Ġ
r ÇİnĠ
zÇĴng ĠtÇĴng
r uÃ¬
ch ÄģoĠ
ĠxÃŃng ĠshÃ¬Ġ
ĠĠĠ 2
ĠchÃ©ng ĠdeĠ
Ġli Ã¡ng
ĠchÅ« Ġle
ĠguÇĴ Ġ
shÃŃ ĠdeĠ
Ġm ÇĴu
xÄ« Ġ
chÃ©ngĠ lÃ¬Ġ
ĠyÃ¹nĠdÃ²ng ĠyuÃ¡nĠ
wÅ«Ġ kÃ¨ĠlÃ¡n
ĠdÃ¬Ġ guÃ³Ġ
ĠlÇľ Ġ
Ġj ÇĶ
ĠzuÃ²Ġ wÃ©i
miÃłn ĠjÄ«ĠwÃ¨iĠ
ĠdeĠ mÃŃng
ĠliÃ¨ ĠchÄĵ
ĠgÃ© ĠlÃ¡n
ĠbÄĽi ĠbÃ¹Ġ
Ġ201 0ĠniÃ¡nĠ
ĠĠĠ D
ĠwÃ¨iĠyÃºĠ gÄģi
ĠdeĠ jiÃłn
ĠmÃŃn ĠzhÇĶ
yÄ«n ĠwÃ¨iĠ
dÄĽng Ġ
i t
Ġchu Ãłng
ĠzhÅįngĠxÄ«n Ġ
ĠĠĠ R
ĠgÃ¨ ĠrÃ©nĠ
ĠjÅ«n ĠshÃ¬Ġ
ĠdÄģng ĠzhÅįngĠ
su Ã¬
ĠzhÃ ©
gÃ²ng ĠchÇİn
Ġc u
zh ÄĽng
cÄģn ĠjiÄģĠ
shÃ¨ ĠjÃ¬Ġ
ĠyÇĴu ĠxiÃłn
shÃłng ĠhÇİi
ĠwÄĽi ĠyuÃ¡nĠ
ĠzÃ¬ ĠzhÃ¬Ġ
Ġk ÃłngĠ
kÄĽ ĠyÇĲĠ
Ġ hÃłi
Ġzh Çİo
ĠdeĠ zhÅįngĠ
ĠlÃŃĠ kÄģi
dÃł ĠxuÃ©
e c
ĠĠĠ xÃŃngĠzhÃ¨ngĠ
ĠÃ©r ĠqiÄĽ
ĠzhuÄģnĠ jÃŃĠ
d Äĵng
Ġku ÄģnĠ
ĠhÃ¡ng ĠkÅįng
ĠdeĠ bÃ¹Ġ
qÃŃ ĠzhÅįngĠ
ĠlÃŃn Ġ
ĠsÃ¹ Ġ
ĠshÇĴu ĠcÃ¬
ĠchÃ³ng ĠxÄ«n
Ġb Äģng
Äģn ĠshÃ¬Ġ
ĠfÄģng ĠmiÃłn
ĠbÃ¹ ĠzÃłiĠ
zhÃłn ĠzhÄĵng
Ġzhu ÃłnĠ
s Äģi
ĠĠĠ G
Ġxu ÄĽ
ĠzhÃ¬Ġ zuÃ²
Ġf Ã©ng
ĠdÅįu ĠshÃ¬Ġ
ĠĠĠ k
Äģ ĠÄĽr
ĠwÅ«Ġ kÃ¨ĠlÃ¡n
ĠhÃ©Ġ nÃ¡n
Ġzh Äģo
ĠshÇĶ Ġ
Ġd ÇĴng
ĠjÇĲnĠ guÇİn
ĠzhÃ¨ ĠshÃ¬Ġ
ĠzÄĵng ĠjiÄģĠ
ĠzÃłiĠ cÇĲ
ĠĠĠf ormulaĠ
Ġ yuÇİnĠ
su ÄģnĠ
A Ġ
ĠxÃ¬ ĠliÃ¨
ĠsuÇĴ ĠyÇĴuĠ
ĠbÃ¹Ġ nÃ©ng
Ġz Çİi
ĠtÄģ ĠshÃ¬Ġ
ĠxÃ¬ĠtÇĴng Ġ
ĠchÃº nĠ
ĠzÇĶ Ġ
ĠfÃ¹ ĠjÃ¬n
âĢ ĵ
4 0
Ġni Ãº
mÃ©i ĠyÇĴuĠ
ĠjÇĶĠ xÃŃng
ĠhÃ©Ġ bÃ¬ng
Ġsh uÃ¬
ĠxiÄģngĠ guÄģn
b Ã¡i
bÇĲ ĠsÃłi
ĠfÄģ ĠbiÇİo
t Ä«ng
ĠwÃ¨n ĠtÃŃĠ
Ġb ÇİĠ
m Ġ
xÃ¬ng Ġ
ĠshÃŃĠ dÃłi
ĠĠĠ19 8
ĠkÄģi ĠfÄģ
Ġ ju
ĠjÃº Ġ
hÇİi ĠjÅ«n
ĠjÃ¹ ĠyÇĴuĠ
ĠbÃło Ġ
ĠsuÃ¬ Ġ
ĠqÇĶ ĠdÃ©
ĠqiÃº Ġ
ĠguÄ« ĠmÃ³
qiÃº Ġ
ĠyÇĴu ĠdeĠ
ĠnÃ¨i Ġ
ĠshÃŃ ĠniÃ¡nĠ
f Ã¨i
ĠshÇĲĠyÃ²ng Ġ
ĠlÃ³u Ġ
b ÄģnĠ
ĠfÄģng ĠshÃ¬Ġ
ĠdeĠ jiÃ©
jÄ«n Ġ
jiÄģo ĠtÅįng
Ġ U
ĠdeĠ juÃ©
ĠxuÇİn ĠjÇĶĠ
jÃ¹ nĠ
ĠwÃ¨n ĠtÃŃ
shÃł o
Ġx ÇĶĠ
ĠrÃ¡n ĠÃ©r
ĠzhÃ¬Ġ zuÃ²Ġ
zhÅįu Ġ
yÃ³u ĠxÃ¬
ĠluÃ³ ĠmÇİ
zhu ÃłngĠ
s ÇĲĠ
Ġsu ÃłnĠ
ĠlÄģ Ġ
ĠchÄĵ ĠzhÃłnĠ
ĠyÄ«Ġ yuÃłn
p i
ĠduÅį Ġ
lÃ¡i Ġ
6 0
ĠluÃ² Ġ
ku Ãłi
ĠgÃ²ng ĠyÇĴuĠ
ĠĠĠ g
Ġm ÃłoĠ
jiÄģĠ rÃ¹
jiÃ¨ Ġ
ĠguÃłnĠ jÅ«nĠ
ĠyÇĶ nĠ
ĠshÇĶ ĠdeĠ
zhÇĶ Ġ
f ÃłnĠ
z Ãło
ĠshÃ¬Ġ yÇĲ
ĠrÃ¨n ĠhÃ©Ġ
Ġg Äģng
âĢ ¦
ĠgÅįngĠ yÃ¨
ĠzÇĶ ĠzhÄ«Ġ
tÃ³ng Ġ
ĠsÄ« ĠtÇİnĠ
ĠyÃ¡ Ġ
xÄ«n Ġ
ĠfÄģng Ġ
zhÃŃ Ġ
ĠwÃ¡nĠ quÃ¡n
th eĠĠĠ
ĠyuÃ¨Ġ3 0
zhÇĲ Ġ
Ġt Çİo
ĠĠĠ 18
zhÃ ©
ĠdeĠyÄ«Ġ bÃ¹ĠfÃ¨nĠ
jÅ«n ĠshÃ¬Ġ
lÃ¬ ĠdeĠ
Ġf Ã³
ĠzhÄ«Ġ hÃ²u
p Ġ
Ġn ÃŃng
ĠtÇĲ ngĠ
rÃ©nĠkÇĴu ĠpÇĶĠchÃ¡
ĠjiÄĵ ĠshÃ²u
ĠjiÄģo ĠtÅįng
ĠjiÃłn ĠyÃºĠ
jiÃło ĠyÃ¹
Ġzh ÄĽn
shuÅį Ġ
Ġ O
a nĠ
Ġc ÇİoĠ
Ġf ÇİngĠ
w Ã¡n
ĠzuÃ¬ ĠhÃ²uĠ
S Ġ
r Ã©ng
ĠfÄĵnĠbÃ¹Ġ yÃºĠ
ĠjÃŃĠ tuÃ¡n
x ÇĶĠ
ĠĠĠ H
zhÄ« ĠyÄ«Ġ
ĠdeĠ tÃ¨
ĠlÃ¬Ġ yÃ²ng
dÄģng ĠshÃŃĠ
ĠtÄģĠ cÃ©ng
Ġz ÃłngĠ
dÃ¬Ġ qÅ«Ġ
Ġp Ãło
Ġg ÃłiĠ
ĠyÃºĠ19 9
ĠmÃ©i ĠtÇĲ
ĠĠĠ cÇĲ
quÃ¡n ĠguÃ³Ġ
Ġku Ãłi
Ġ200 1ĠniÃ¡nĠ
jÃ¬n ĠxÃŃngĠ
ĠnÃł Ġ
ĠyÄ«Ġ mÃŃng
2 5
. .
ĠqÃŃ ĠyÃºĠ
Ġg Åįu
ĠxÄ«Ġ bÄĽi
ĠbÅį Ġ
qi Ã¨
xiÄģngĠ guÄģn
s Ã²ng
ĠyÃ³u Ġ
ĠxiÃ© ĠhuÃ¬
jÃ¬n ĠrÃ¹
ĠyÇĴuĠ guÄģn
ĠzÇĶ ĠchÃ©ngĠ
ĠsÄ«Ġ lÃ¬ng
du ÇİnĠ
ĠyÇĲĠ jÃŃ
q Ã¬ng
ĠrÃ¡n ĠÃ©rĠ
ĠĠĠ I
ĠÄģ ĠÄĽr
b ÇİnĠ
ĠĠĠ c
ĠĠĠ jÃ¹
ĠlÃ¨ ĠbÃ¹Ġ
dÃ¬ng Ġ
xuÄģnĠ bÃ¹Ġ
ĠyÄ«Ġ zhÇĴng
diÃłnĠyÇĲng Ġ
ĠhÃ¹ nĠ
hÃło Ġ
Ġm Ã¨ngĠ
ĠjiÄĵ Ġr
y ÇĴng
suÇĴ ĠyÇĴuĠ
Ġh ÇİoĠ
ĠfÄģ ĠbÃ¹Ġ
ĠsÅ«Ġ liÃ¡n
Ġf Å«
ĠqiÃº ĠduÃ¬
ĠhuÃ¡nĠ jÃ¬ng
ĠgÅįngĠ ch
ĠtiÄģn Ġ
hÃ© ngĠ
ĠtÃ²u ĠguÃ²
ĠshÃ¬Ġ shÃŃĠ
ĠguÇİn ĠxiÃ¡Ġ
hu ÇĴ
liÃ¡n ĠmÃ©ng
y ÃŃngĠ
ĠxÄ«n Ġ
19 8
ĠdÃ¬Ġ sÃ¬
ĠshÃ¨nĠ zhÃ¬Ġ
ĠshÃ¬Ġ wÃ¹
Ġc Ã¡ngĠ
ĠfÄĵi ĠchÃ¡ng
Ġz Å«n
ĠwÃ¨iĠ zhÃ¬Ġ
ĠĠĠ niÃ¡n
chÅ« Ġ
ĠĠĠ F
ĠdeĠ d
Ġxu Ã¨
zuÃ²Ġ wÃ©iĠ
Ġw ÄĽn
ĠjÄ«n Ġ
ĠjÃ¬ng Ġ
Ġ19 1
ku ÃłiĠ
ĠkÇĴu Ġ
ĠdeĠzhÇĶ ĠyÃło
ĠtÃº Ġ
shÃ º
shÃ¹ Ġ
ĠgÃ© ĠmÃ¬ng
qÃ¬ Ġ
ĠxiÃłnĠ dÃłi
sÃ¹ Ġ
Ġzhu Ä«
Ġ3 Ġ
ĠĠĠ19 4
ĠmÃŃn ĠzÃº
ĠgÄģo Ġ
ĠfÇİnĠ duÃ¬
xi ÄģnĠ
ĠjÇĶĠ bÃłn
ĠdÃłĠ duÅį
xi ÄĽ
Ġp ÃŃ
Ġsu Åį
l a
ĠjiÃłn ĠdeĠ
Ġk ÃłoĠ
gu ÇĴ
Ġxu Ã¡n
ĠbÄģo ĠhÃ¡nĠ
ĠchÅ« ĠxiÃłn
ĠxiÃłng ĠmÃ¹
ĠqÅ« ĠdeĠ
ĠjÃ¬Ġ niÃłn
Ġy ÄģnĠ
Ġl Ã¡ng
ĠÃ¨r ĠshÃŃĠ
zhÅįng ĠdeĠ
ĠfÃłnĠ wÃ©iĠ
hÃ¡ ng
chÃ¡ Ġ
D Ġ
chuÃ¡n ĠtÇĴng
Ġb ÇİngĠ
hu ÃłnĠ
zhÃłn Ġ
ĠqÃŃ ĠshÃ¬Ġ
fÄģ ĠshÄĵng
ĠzuÃ¬ ĠhÃ²u
qÅ« ĠwÃ¨iĠ
ĠĠĠ tÄģ
ni ÇĶĠ
ĠyÄ«Ġ cÃ¬
lÃŃn ĠpÇĲ
ĠyÃ¬Ġ qÇĲ
ĠmÇİ Ġ
ĠwÃ¨iĠ rÃ©nĠ
ĠchÅ« ĠxiÃłnĠ
Ġm Ã¡
Ġp Ä«Ġ
ĠlÃºn Ġ
Ġn ÇĲ
shÄĽng Ġ
ĠfÃº Ġ
Ġc uÃ¬
U T
ĠbÇİo ĠhÃ¹
cÄģn ĠyÃ¹
o o
tÃŃ ĠgÅįngĠ
ĠjiÄĽ ĠfÃłngĠ
g ÇİnĠ
ĠjÇĲnĠ biÄģoĠ
ĠdeĠ qiÃ¡n
Ġ wÃ¨i
Ġl Çİng
ĠwÃ¨iĠ dÃ¬Ġ
ĠqÃ¹ Ġ
ĠjÃŃĠ qÃŃ
ĠfÃº ĠwÃ¹
gÃ¹ ĠshÃ¬Ġ
xi Å«Ġ
ĠsuÃŃĠ hÃ²uĠ
y ÃłngĠ
chÃ ¨
ĠzhÇĲ ĠyÇĴuĠ
xu Ã¨
xuÃ© ĠyuÃłn
ĠnÃ¡n Ġzi
gÃ¨ ngĠ
ĠĠĠ z
ĠlÃ¬ng ĠshÃŃĠ
ĠdeĠ zhÃ¨ng
t ÃŃngĠ
ĠshÃ¬Ġ yÇİn
t er
ĠliÃ¡n Ġ
ĠliÃº Ġ
x ÇĲ
ĠbÃº ĠhuÃ¬
xÃ¬ ĠliÃ¨
Ġy Çİ
ĠdÅįng ĠbÄĽi
ĠzhÅįngĠhuÃ¡ ĠmÃŃnĠguÃ³Ġ
lÃŃnĠpÇĲ ĠkÃ¨
ĠdÃłn Ġ
Ġ19 0
ĠshÃ¬Ġ l
ĠĠĠ wÃ¨iĠ
Ġh Å«n
ĠjiÃ© ĠshÃ¹
ĠwÄĽi Ġ
m Ã¬
ĠyuÃ¨Ġ2 8ĠrÃ¬Ġ
ĠdÃł ĠbÃ¹ĠfÃ¨n
ĠzhÃŃ ĠjiÄĵ
Ġn Çİo
gu Ã¬
r uÃ²
jiÃ© Ġ
ĠgÅįngĠ bÃ¹Ġ
ĠjiÄģng ĠqÃŃ
k Çİ
yÃ¬ Ġ
ĠfÄĵn ĠzhÅįngĠ
ĠwÇĶ Ġ
lÇĲ ngĠ
ĠgÃ²ng ĠtÃ³ng
ĠzhÃłn ĠdÃ²u
pÃŃng ĠjÅ«n
Ġni Ã¨
tÇĲ Ġ
ĠshÃ¬ĠjiÃłn Ġ
ĠyÇĴu ĠshÃŃĠ
ĠyuÃ¡n ĠdeĠ
nÃ¨i Ġ
ĠrÃ©ng ĠrÃ¡n
Ġ V
ĠnÇļ ĠxÃ¬ng
Ġn Çİi
ĠchuÃ¡n ĠtÇĴng
ĠwÃ¨iĠ mÄĽi
wÃ©n Ġ
sh ÄĽn
c Çİi
m Ã©n
lÃ¡i ĠzÃ¬
yÃ¬nĠ dÃ¹
d ÇĲĠ
t Ã¡o
ĠshÃ¬Ġ p
Ġp Ã¬
ĠwÃ¨iĠ nÃ©ng
Ġn Ã¨
ĠzhÃ²ng Ġ
fÄģ ĠxiÃłnĠ
ĠdÃł ĠhuÃ¬
d ÃŃĠ
ĠmÃ©ng ĠgÇĶ
ĠguÃłnĠ jÅ«n
ĠyÃ¬ ĠshÃ¬Ġ
ĠjiÃ© ĠmÃ¹
ĠshÃŃĠqÄ« Ġ
ĠyuÃ¨Ġ1 5ĠrÃ¬Ġ
xi Ã©
Ġ zÃłi
i r
ĠshÃ¬Ġ yÃ¬
ĠshÃŃĠ jÃ¬Ġ
Ġl ÄĽng
Ġ201 1ĠniÃ¡nĠ
h eĠĠĠ
ĠĠĠ yÇĲ
ĠjÃ¬n ĠshÃ¬Ġ
Ġzhu Ã³
ĠfÃº ĠwÃ¹Ġ
ĠzhÇĶ ĠchÃŃ
diÃłn Ġ
hu Ã³
2 4
ĠdeĠ nÇļ
k ÇİĠ
ĠjÄ« ĠgÃ²u
a g
shÄĵng ĠhuÃ³
zÇĶ ĠzhÄ«Ġ
ĠchÃŃ ĠxÃ¹
ĠshÇĲ ĠdeĠ
ĠkÄĵ Ġ
rÃ¨n ĠwÃ©iĠ
shÃŃĠ qÄ«
Ġt Ãºn
ĠhuÃ² Ġ
Ġk Äģng
Ġ10 0
Ġr Ã²u
ĠmÇĲ nĠ
Ġf Ã¡n
ĠlÃ¡n Ġ
Ġsh ÇİoĠ
ĠdÃłn ĠzÃłiĠ
kÃ¨ Ġ
ĠdeĠ gÄģo
ĠxÄ« ĠbÄģnĠyÃ¡
Ġc Ã¡o
ĠyÃºĠ 18
ĠdÃł ĠzhÃłn
UT CĠ
y ÃŃn
ĠÃ© ĠluÃ³ĠsÄ«
Ġqu Äĵ
ĠyÃ¹nĠdÃ²ng ĠhuÃ¬
ĠhÃ¡i ĠyÇĴuĠ
ĠsÄ«Ġ kÄĵ
ĠmiÃłn ĠjÄ«
ĠwÃ¨iĠyÃºĠgÄģi ĠguÃ³Ġ
yuÄĵ Ġ
shÇĴu ĠcÃ¬
Ġdi Ãło
ĠpÃŃng ĠyÃ¡ng
ĠxuÇİn ĠzÃ©
Ġch ÄģngĠ
nÃ¡n Ġ
ĠgÅįngĠ nÃ©ng
Ġ2 5
dÄģng ĠdÃ¬Ġ
ĠxÄ«n ĠwÃ©n
ĠsuÇĴ ĠyÇĲĠ
qi Å«Ġ
ĠgÅįngĠ lÃ¹
8 0
Ġb ÃłngĠ
ĠdeĠ jÄ«ng
ĠĠĠ w
ĠshÃ¬Ġ xuÃ©
f Ã¡ng
ĠlÃ¬Ġ fÇİ
guÇİn ĠlÇĲ
shÅ« Ġ
g Ã²u
ĠĠĠ 3
ĠnÃ©ng ĠgÃ²u
ĠlÃ¡i ĠxÄ«ĠyÃł
xÅ«Ġ yÃło
ĠbÇĲ ĠsÃłiĠ
ĠdeĠ jÃ¹
chÃ©ngĠ wÃ©iĠ
Ġf Ã¡nĠ
dÃło Ġ
ĠdeĠ quÃ¡n
ĠjÄ«Ġ bÄĽn
qiÃº ĠduÃ¬
ĠtÃŃ ĠchÅ«
ĠĠĠ E
10 ĠrÃ¬Ġ
ĠxÄ«ng Ġ
Ġ5 Ġ
ĠjÃ¬ng ĠnÃ¨i
ĠĠĠ W
qu Äĵ
bÃ¬ ĠyÃ¨
yÄ« ĠniÃ¡nĠ
ch Äģo
ĠguÄģn ĠyÃºĠ
Ġ5 0
Ġy ÇİĠ
ĠÅįu ĠzhÅįu
qi Ã¡ng
rÃ¨n ĠhÃ©Ġ
ĠxÄ« ĠnÃ¡n
Ġsu ÄģnĠ
shÇĶ Ġ
ĠcÃ¬ Ġ
ĠlÃ¬ng ĠwÃłi
ĠdeĠ xÄ«
ĠjiÄģng Ġ
ĠzhÃ¨ngĠ cÃ¨
Ġ200 9ĠniÃ¡nĠ
ĠdeĠ lÃ¬Ġ
ĠgÅįng ĠshÃ¬Ġ
ĠbÃ¹Ġ jiÇĶĠ
2 3
yÄ«n Ġ
E E
ĠjiÃłn ĠshÃ¨
ĠdeĠ xiÃłn
ĠdeĠ zuÃ²Ġ
ĠlÇĲ ĠshÃ¬Ġ
ĠjiÄĵ Ġ
ĠbiÄģo ĠzhÇĶnĠ
Ġy Çİng
ĠdeĠ hÇİi
ÄģnĠ quÃ¡n
ĠsÃłi ĠshÃ¬Ġ
sÄģn ĠniÃ¡nĠ
zÇĶ ĠzhÄ«
ĠjiÃ© ĠguÇĴ
ĠjÅ«Ġ mÃŃn
20 ĠrÃ¬Ġ
Ġgu Åį
t e
ĠyuÃ¨Ġ2 5ĠrÃ¬Ġ
ĠchÃ©ng ĠzhÅįngĠ
Ġz Å«Ġ
zÃ¬ ĠyÃ³u
ĠfÇİ ĠyuÃłn
ĠĠĠgÄĵn ĠjÃ¹
mÄĽi ĠyuÃ¡nĠ
ÃłoĠ lÃŃnĠpÇĲĠkÃ¨
ÇĲ nĠ
ĠjiÃ¨ Ġ
Ġk Å«n
ĠyuÃ¨Ġ30 ĠrÃ¬Ġ
ĠdeĠ yÃ³u
7 0
ĠkÃ¹ nĠ
y ÃŃng
Ġji Å«
ĠshÃ¬Ġ tÃº
ĠshÃ¨ ĠlÃ¬Ġ
ĠshÃ¬Ġ chÇİng
ĠhÃ©Ġ pÃŃng
t Ã¡ngĠ
ĠdeĠ tÃ³ng
ĠdeĠ xiÇİo
jÅ«Ġ mÃŃn
ĠchÃ©ngĠ qÅ«Ġ
Ġch ÇĲ
ĠdeĠ zhÃłn
Ġtu Ä«Ġ
ĠyÃŃn ĠhÃ¡ngĠ
ĠdeĠ zhÃ¬Ġ
Ġ4 Ġ
ĠyÃ¬Ġ yuÃłn
m e
ĠxuÃ© ĠxÃŃĠ
ĠqÅ«Ġ yÃ¹
o c
ĠdeĠ wÃ¨iĠ
Ġsh ÇİnĠ
Ġ shÃ©
ĠyuÄĵ Ġ
liÃ¡n ĠsÃłi
ĠrÃ¨n ĠmÃ¬ng
ĠdÃł ĠlÃ¬ĠyÃł
ĠyÃ¬ ĠdÃłĠlÃ¬Ġ
ĠbÃ¨i ĠchÄĵngĠwÃ©iĠ
ĠyÇĲnĠ qÇĲ
Ġf ÄĽn
ĠjÃ¬Ġ lÃ¹
ĠyÇİn ĠyuÃ¡nĠ
f Ã¡ngĠ
Ġ 00
ĠdeĠ mÃ¹
ĠfÄĵn ĠwÃ©iĠ
ĠĠĠ zhÃ¨ngĠzhÃ¬Ġ
ĠkÄĵ ĠxuÃ©
s Äĵn
fÄģ ĠxÃŃngĠ
ĠshÃ¬Ġf ÇĴu
nÃŃ ĠyÃł
ĠwÇİ ĠÄĽr
ĠshÃ²u ĠdÃło
ĠwÃ©iĠ ÄĽr
ĠbÃ¬ ĠxÅ«Ġ
ĠxuÇİn Ġ
yÃł ĠzhÅįu
ĠhÃ¡nĠ guÃ³Ġ
ĠshÃ¬Ġ zhÇĲ
ĠzuÃ¬ ĠchÅ«
t iÃ¡n
ĠĠĠ N
Ġ2 4
h Äģ
juÃ© ĠdÃ¬ng
ĠliÃ¡n ĠsÃłi
ĠzÃłiĠ yÄ«Ġ
liÃłng Ġ
ĠwÃ¹Ġ bÇİoĠhÃ¹
ĠyuÄĵ ĠhÃłnĠ
ĠgÃ¨ ĠyuÃ¨Ġ
2 2
zhÇĶ nĠ
guÃ³Ġ mÃŃn
ĠzhÃ¨ngĠzhÃ¬Ġ rÃ©nĠwÃ¹Ġ
ĠĠĠ yÃºĠ
mÄĽiĠguÃ³Ġ rÃ©nĠkÇĴuĠpÇĶĠchÃ¡
ĠxiÃłn ĠshÃŃĠ
Ġzh ÄģoĠ
ji Çİ
ÄģĠ lÄģ
ĠjÄ«Ġ chÇİng
o s
shÃŃĠ jiÄģn
ĠjiÄģ ĠpÅį
shÄģn Ġ
xiÃł ĠjÃ¬Ġ
ĠzÃ¬ ĠrÃ¡n
ĠrÃ©n ĠshÃ¬Ġ
mÃŃn ĠzhÇĶ
ĠjiÄĽ Ġ
ĠxÃŃng ĠdÃ²ng
y ÇİngĠ
biÄģo ĠzhÇĶnĠ
N S
ĠĠĠ jiÃ©
Ġf ÇĴu
ĠgÅįngĠ gÃ²ng
zhÄ« ĠhÃ²uĠ
ĠcÃ©ng ĠjÄ«ng
li Ã¡ng
o p
kÄģi ĠfÄģ
ĠbiÃłn Ġ
ĠshÃ¬ĠwÃ¨iĠyÃºĠ mÄĽiĠguÃ³Ġ
ĠguÇİn ĠlÇĲĠ
ĠrÃ©nĠ men
ĠrÃ¹ Ġ
hÃ¹ nĠ
ĠbÄĵi Ġ
ĠbÃ¬ng ĠbÃ¹Ġ
Ġc Çİo
ĠdÃ¡ Ġ
ĠshÃŃĠ sÃ¬
ĠyuÃ¨Ġ2 6ĠrÃ¬Ġ
z ÃłnĠ
ĠshÃ¬Ġ fÇİĠguÃ³Ġ
Ġd Äģ
Ġcu Ä«
tÃ³ng ĠniÃ¡nĠ
w Ã¡nĠ
mi Ã¨
Ġx Ãº
ĠyuÃ¨Ġ2 4ĠrÃ¬Ġ
u r
hu Ã¡ng
ĠyuÃ¨Ġ1 8ĠrÃ¬Ġ
ĠlÇĲ ĠlÃ¹nĠ
ĠyÇĴu ĠrÃ©nĠ
ĠmÃŃngĠ chÃ¡o
ĠlÃ¡i ĠdeĠ
gÃ© ĠmÃ¬ng
ĠzhÃº ĠjiÃłn
ĠmiÃłn ĠjÄ«ĠwÃ¨iĠ
ĠpÃŃng ĠjÅ«n
Ġhu ÇĲĠ
liÃ¨ ĠchÄĵ
ĠyÃ¡ng Ġ
Ġl Ãłi
ĠdiÃłn Ġ
ĠmÄĽi ĠzhÅįu
ĠĠĠ19 7
qÇĶ ĠdÃ©
Ġm iÃ¡n
ĠzÇĴng ĠrÃ©nĠkÇĴu
zhÄ« Ġ
ĠxiÃłn ĠzhÃ¬Ġ
dÃł ĠxuÃ©Ġ
ĠtÄģĠ yÄĽ
ĠtÇĲ ĠyÃ¹
du ÄģnĠ
hu Ä«Ġ
ĠdeĠ xuÃ©
Ġch Äģi
ĠhÃ²u ĠdeĠ
chu Ãłng
Ġ201 6ĠniÃ¡nĠ
liÃ¡n ĠhÃ©Ġ
ĠdÃ¬Ġ lÃ¬Ġ
ĠzhÃŃ ĠdÃło
ĠfÄģ ĠdÃ²ng
Ġku ÃłngĠ
u n
m ÇĶĠ
hu Ã¡nĠ
ĠjÃ¹ ĠlÃ¨ĠbÃ¹Ġ
guÃ³ ĠdeĠ
kÄĽ ĠyÇĲ
ĠyÄ«ng ĠchÇĲĠ
ĠĠĠ19 5
luÃ³ ĠmÇİ
ĠqÃŃngĠ kuÃłngĠ
i s
Ġc ÄģoĠ
ĠchÇİn Ġ
ĠdÅįng ĠnÃ¡n
ĠjÅ«n ĠduÃ¬
chÃ ¬
tÃ¡i ĠbÄĽi
Ġxu Ã¡nĠ
ĠgÃ¨ Ġ
ĠwÃ¨iĠ yÄ«Ġ
Ġmi ÃłoĠ
ĠxuÃ©ĠyuÃłn Ġ
Ġsu ÃŃ
ĠxuÃ©ĠxiÃło Ġ
hÃ¡nĠ guÃ³Ġ
ĠyÃŃng ĠdÃ©
ĠdÃ¬Ġ tiÄĽ
d ÇİngĠ
ĠbiÇİo Ġ
ĠcÃ¬ ĠshÃ¬ĠjiÃ¨
gÃ¨ ĠrÃ©nĠ
Ġp ÄģnĠ
ĠhÇİi ĠjÅ«n
ĠcÃ©ng ĠrÃ¨n
Ġ200 8ĠniÃ¡nĠ
ĠgÄĵ Ġ
ĠbÃ¹ĠtÃ³ng Ġ
ĠyuÃ¨Ġ1 6ĠrÃ¬Ġ
ĠzhÅįngĠy Äģng
ĠdÃłĠ yuÄĵ
ĠzhÃŃ ĠyÃ¨
zuÃ¬ ĠgÄģo
ĠluÃ³ Ġ
ĠĠĠ jiÄģĠ
liÃº Ġ
ĠlÃ¬ng Ġ
ĠdeĠdÃ¬Ġ yÄ«Ġ
rÃ©nĠkÇĴu ĠshÃ¹ĠliÃłng
10 0
tÃ¡i Ġ
qÄ« ĠjiÄģn
Ġzh ÄģnĠ
ĠyÃŃ ĠbÃ¹Ġ
suÇĴ Ġ
ĠbÇİo Ġ
ĠĠĠ dÃł
Ġz u
ĠyuÃ¨Ġ1 7ĠrÃ¬Ġ
b Çİi
nÃ¨i ĠdeĠ
ĠzÃłiĠ19 9
ĠrÃ¬Ġ jÅ«n
ĠshÃŃĠ wÇĶ
ĠkÃ¨ ĠsÄ«Ġ
ĠjÄ«ng ĠchÃ¡ng
ĠwÃ¨iĠ zhÅįngĠ
ĠyÄĽ ĠyÇĴuĠ
ĠhÃ ³u
qiÃ¡n ĠwÇİng
xÃ¹ Ġ
ĠyuÃ¨Ġ1 2ĠrÃ¬Ġ
Ġb rĠ
ĠyuÃ¨Ġ2 7ĠrÃ¬Ġ
a p
ĠmÃ³ ĠshÃ¬Ġ
ĠqiÃ¡o Ġ
zÃ© Ġ
ĠxiÄģngĠ dÄģng
P Ġ
o ĠĠĠ
jÃ¬ng Ġ
ĠzhÅįngĠ bÃ¹Ġ
ĠĠĠyÃ³u ĠyÃºĠ
t ÇĶĠ
shÇĴu Ġ
ch Å«n
fÃ¹ ĠzÃ©
di Ãło
Ġk ÇİnĠ
ĠbÇİnĠ bÄĽn
gu Çİng
bÄĽi ĠbÃ¹Ġ
ĠyuÃ¨Ġ2 1ĠrÃ¬Ġ
i g
19 7
ĠtÃłi Ġ
ĠjuÃ© ĠsÃ¨
w Ã¨n
Ġh Äĵng
ĠgÃ¹ ĠshÃ¬Ġ
ĠdeĠm Ã³
ĠdeĠ diÃłn
sh Äģng
Ġ20 19ĠniÃ¡nĠ
ĠshÃŃĠ liÃ¹
sÃ¬ Ġ
ĠshÃ¬Ġ lÃ¬Ġ
yÃŃ Ġ
ĠbÃ¬ ĠyÃ¨
ĠgÃ¨ ĠzhÇĴng
ĠhuÄ« ĠfÃ¹
ĠrÃ©n ĠlÃ¨i
Ġh Åįng
19 ĠrÃ¬Ġ
ĠmÃŃngĠ chÄĵng
ĠguÇİngĠ dÅįng
ĠgÅįngĠch ÇĲĠ
Ġm e
d Çİ
chÃ©ng ĠdeĠ
nÃł Ġ
ĠyuÃ¨Ġ1 1ĠrÃ¬Ġ
s ÇĲ
ĠfÄģ ĠxÃŃngĠ
ĠjiÇİnĠ chÄĵng
ĠgÅįngĠ jÄ«
ĠjÃ¬Ġ suÃłnĠ
ĠshÄĽng ĠdeĠyÃŃĠgÃ¨ĠshÃ¬ĠzhÃ¨nĠ
jÇĶĠ xÃŃng
h ÇİoĠ
yÃ²ng ĠyÃºĠ
ĠdeĠshÃ¬Ġ zhÃ¨nĠ
lÃ¹ ĠdÃ¬Ġ
ĠjÃ¬Ġ huÃłĠ
Ġ201 8ĠniÃ¡nĠ
ĠdeĠshÃ¹ ĠjÃ¹Ġ
ĠbÃ¬ng ĠwÃ¨iĠ
ĠyuÃ¨Ġ2 2ĠrÃ¬Ġ
Ġf Ã¨ng
ĠĠĠ19 6
4 8
Ġc ÄģngĠ
ĠyuÃ¨Ġ3 ĠrÃ¬Ġ
ĠsÃłi ĠjÃ¬Ġ
ĠqÅ« ĠwÃ¨iĠ
ĠshÃ¬Ġ zhÅįngĠguÃ³Ġ
ĠhuÃŃĠ dÃło
2 1
ĠdeĠ qÃŃngĠkuÃłngĠ
ĠyuÃ¨Ġ2 9ĠrÃ¬Ġ
o v
ĠyuÃ¨Ġ1 4ĠrÃ¬Ġ
ĠdeĠ zhÃ¹
ĠyÃ¬ ĠzhÃ¬Ġ
ĠwÃłnĠ rÃ©nĠ
ĠchÇĶ ĠyÃºĠ
ĠĠĠ xiÃłn
ĠyuÃ¨Ġ2 3ĠrÃ¬Ġ
ĠduÅį ĠcÃ¬
ĠyuÃ¨Ġ2 ĠrÃ¬Ġ
an dĠĠĠ
ĠpÄģi ĠshÃ¨
ĠzÃº Ġ
ĠshÄĵng ĠwÃ¹
ĠyÇĴu ĠrÃ©nĠkÇĴu
Ġch Äģ
Ġ201 3ĠniÃ¡nĠ
ĠchÃº Ġ
Ġt ÄģnĠ
Ġ4 0
ĠxÄ«Ġ yÃ¡ng
lÃŃn Ġ
Ġ2 3
ĠshÃłng ĠwÃ¨iĠ
y ÄģngĠ
ĠhÃ©Ġ dÃ¬Ġ
ĠdeĠ pÃŃng
ji ÇİoĠ
ĠbÃ³ ĠwÃ¹ĠguÇİn
ĠyuÃ¨Ġ3 1ĠrÃ¬Ġ
qiÃ¡n Ġ
Ġ201 2ĠniÃ¡nĠ
wÃłi ĠjiÄģo
ĠcÃ©ng Ġ
Ã© ĠluÃ³ĠsÄ«
ĠjÃŃĠ tuÃ¡nĠ
ĠbÄĽn Ġ
Ġsh Äģo
ĠdiÃłnĠyÇĲng Ġ
ĠbÃ¬ng ĠyÃºĠ
Ġ201 4ĠniÃ¡nĠ
hu Ä«
ĠdÃ²ng ĠwÃ¹
rÃ©n ĠlÃ¨i
Ġs ÄģngĠ
ĠjÃ¹ ĠlÃŃĠ
juÃ© Ġ
ĠlÄĵi Ġ
g ÄģngĠ
Ġ201 5ĠniÃ¡nĠ
ĠyÃºĠ19 8
Ġn ÃłnĠ
ĠguÇİngĠ bÅį
ĠshÃ¬Ġ xÄ«
ĠxÄ«n ĠdeĠ
ĠgÃ¨ngĠ duÅį
tÃº Ġ
f Å«Ġ
h Å«n
yÇĶ Ġ
ĠÃ©r ĠzÃłiĠ
ĠwÃ¹ĠbÇİoĠhÃ¹ ĠdÄģnĠwÃ¨iĠ
ĠmÃ¬ng ĠmÃŃngĠ
ĠshÃ¬ĠxuÃ© ĠwÃ¨iĠ
Ġgu ÇĲĠ
ĠshÃ¨ ĠjÃ¬
gÅįngĠ sÄ«
ĠdÃło ĠdeĠ
ĠbÄ«ng Ġ
ĠyuÃ¡nĠ bÄĽn
ĠÃ©r ĠgÄģi
Ġ20 20ĠniÃ¡nĠ
fÄģng Ġ
Ġk Äĵng
Ġzhu Ä«Ġ
shÃ¹ nĠ
ĠnÇļ Ġ
ĠtÃ¡i ĠbÄĽi
ĠhuÃ² ĠzhÄĽ
ĠyuÃ¨Ġ1 3ĠrÃ¬Ġ
du Ã³
ĠzÃ¡ ĠzhÃ¬Ġ
ĠyÃł Ġ
hu ÃŃ
xuÃ© ĠxiÃło
tÃłi Ġ
ĠxÃ¬ ĠbÄģo
ĠhuÃ¬ ĠzÃłiĠ
xuÇİn ĠzÃ©
ĠzhÃ¨ ĠjiÄģng
xÄ«ng Ġ
ĠzhÇĶ ĠrÃ¨nĠ
ĠzhÃ¨ngĠ biÄģn
ĠkÄĽ ĠdÃ¡
shÄĽng ĠjÃŃĠ
ĠhÃ©Ġ xÄ«n
a v
dÄģn ĠwÃ¨iĠ
Ġc ÃłiĠ
di ÄģnĠ
tÇĲ ĠyÃ¹
ĠshÃ¨ ĠzhÃ¬Ġ
yÃ¡n Ġ
Ġc Ãłi
ĠdeĠ nÃ¡n
ĠshuÇĲ Ġ
ĠliÇİng ĠrÃ©nĠ
y Åįu
Ġn ÇĲĠ
ĠhÃ©Ġ lÃ¡n
kÇĴu Ġ
ĠdÃ¬Ġ xiÃł
ĠĠĠ yÄ«Ġ
ĠshÃŃĠ bÄģ
ĠmÃ² Ġ
ĠxÄ« ĠlÃł
rÃ©n ĠshÃ¬Ġ
ĠxiÃłn ĠdeĠyÃŃĠgÃ¨
ĠyÄ«Ġ sÄ«
ĠdeĠ shÄĵn
ĠdeĠ fÄĵn
ĠtÃ³u Ġ
ĠbÇĲ Ġ
ĠyÇĲnĠ fÄģ
ĠbÃ¨i ĠÄĽr
su Åį
ĠchÃ©ngĠ le
ĠbiÄģn Ġ
ĠdeĠf ÇİnĠ
ÃłoĠ yÃ¹n
ĠĠĠ19 3
ĠmÃ©i Ġ
9 0
Ġx ÇĲĠ
ĠlÃ¬ĠrÃº Ġ
Ġc Ã¡ng
Ġh an
ĠshÃ¨ng Ġ
ĠzÄ« ĠliÃłoĠ
ĠguÄģn ĠfÄģng
ĠfÃ¨n ĠwÃ¨iĠ
ĠzÃłiĠ m
jiÄĵ ĠshÃ²u
dÄģn Ġ
ĠniÃ¡nĠ qÄ«ng
ĠsÃ¬ Ġ
ĠĠĠ chÄĵĠzhÃłn
k Ã¹
Ġh ÇĶĠ
ĠcÃ¡i Ġ
ĠxÄ«Ġ gÄĵ
ĠchÅ« ĠrÃ¨n
ĠzhÇĶ ĠyÃ¬
ĠfÇĶ Ġ
ĠdeĠ yÃ¡n
ĠbÇĲ ngĠ
ĠwÃ¨iĠyÃºĠ fÇİĠguÃ³Ġ
ĠfÃ¹ ĠqÄ«nĠ
ĠjÃ¬Ġ zÇİi
ĠkÃ¨ ĠsÄ«
ĠsuÇĴ ĠyÇĲ
ĠbÄģ ĠshÃ¬Ġ
zhÃ¨ ĠxiÄĵ
ĠhÃ©Ġ zuÃ²
ĠĠĠ202 1ĠniÃ¡nĠ
Çİn ĠlÇİnĠ
ĠhÃ©Ġ bÄĽi
ĠdeĠ wÃ©n
chÄģoĠ guÃ²
Ġp Ã¡ngĠ
ĠgÄĵ ĠqÇĶ
s Åįng
ĠguÃ³Ġ wÃ¡ng
ĠbÄģngĠ zhÃ¹
ĠjiÄģĠ nÃ¡
ĠjiÄĽĠfÃłngĠ jÅ«n
hÃ ³u
ni Ãº
ĠĠĠ K
ĠnÃ¨i ĠrÃ³ng
ĠxiÃ© ĠzhÃ¹
Ġ200 7ĠniÃ¡nĠ
g ÄģnĠ
ĠzhÇĲ ĠshÃ¬Ġ
ĠchÇĶĠ lÇĲ
Ġzh Äģ
ĠpÃ² Ġhu
ĠpÃº ĠtÃ¡o
Ġz Ã²ng
ĠzÃłiĠ l
Ġsh uÃ²
I Ġ
ĠĠĠ 2019ĠniÃ¡nĠ
hÃ¡ng ĠkÅįng
ĠjiÃ¹ ĠshÃ¬ĠzhÃ¨nĠ
ĠbÇİo ĠchÃŃ
zÃ¬ ĠrÃ¡n
ĠzhÇİnĠ kÄģi
Ġs Ãº
ĠzÅįng ĠjiÃło
ĠguÄģn ĠxÃ¬
ĠjÄ« ĠhÅ«Ġ
zh ÇİnĠ
ĠdÇĴng ĠshÃ¬Ġ
2 8
t uÃ¬
ĠwÃ¹Ġ zhÇĴng
ĠyÃ²u ĠchÄĵng
ĠyÃ³u ĠxÃ¬Ġ
ĠbÇĲ ĠlÃ¬Ġ
ĠchÃ¡o ĠxiÄģnĠ
Ġn ÇİoĠ
g ÄĽi
ku Ãł
a b
ĠdÅįng ĠbÃ¹Ġ
ĠÃ© ĠluÃ³ĠsÄ«Ġ
Ġ201 7ĠniÃ¡nĠ
ĠrÃ©nĠkÇĴuĠmÃ¬ĠdÃ¹ ĠwÃ¨iĠmÄĽi
chÄĵ Ġ
Ġshu Ãłi
ĠyÄ« ĠwÃ¨iĠ
Ġp Ã¡n
ĠyÇĲĠ shÃłng
ĠĠĠ 2020ĠniÃ¡nĠ
Ġx Å«
ĠcÇĲ Ġ
ĠsÄģn ĠniÃ¡nĠ
ĠdeĠ zÄ«
ĠcÇĲ ĠhÃ²uĠ
ĠdeĠ gÄĵ
ĠlÃ¬Ġ shÇĶĠyÃºĠ
ĠdeĠ z
ĠyÄ«nĠcÇĲ Ġ
w Ġ
ĠdÃ¬Ġ wÇĶ
Ġ200 5ĠniÃ¡nĠ
ĠfÄģng ĠxiÃłng
ĠgÇİi ĠwÃ©iĠ
ĠcÃ¬ĠshÃ¬ĠjiÃ¨ ĠdÃłĠzhÃłn
zhÅįngĠhuÃ¡ ĠrÃ©nĠmÃŃnĠgÃ²ngĠhÃ©ĠguÃ³Ġ
ĠzhÇĶ Ġ
ĠshÃ¬Ġ hÃ²uĠ
Ġb Çİng
ĠxÃŃng ĠzhÃ¨ng
Ġ202 1ĠniÃ¡nĠ
E Ġ
Ġsh ÄĽ
ĠjiÃ© ĠgÃ²u
Ġt Ã²ng
Ġh Å«nĠ
3 5
n ÇĲ
ji ÃłngĠ
ĠjiÃło ĠshÃ²uĠ
chÅ« ĠbÇİnĠ
dÃ¬Ġ yÄ«Ġ
rÃ©nĠkÇĴuĠshÃ¹ĠliÃłng ĠwÃ¨iĠrÃ©nĠ
ĠbÃ¹ĠfÃ¨n Ġ
ĠĠĠ suÇĴ
ĠdeĠ wÇĶ
ĠI NS
ĠyÄ«Ġ yÃłngĠ
ĠshÄģn ĠdÅįng
ĠhÃ©Ġ yÄ«Ġ
ĠjiÄĵ ĠduÃłnĠ
ĠdeĠ yÃŃ
ĠyÇĴu ĠxiÄĵ
ĠmÄĽi ĠniÃ¡nĠ
zhÃŃ ĠyÃ¨
ĠĠĠ theĠĠĠ
ĠshÃŃĠ rÃ¨n
ĠdÄĽng ĠrÃ©nĠ
ĠdiÃłn Ġzi
2 7
Ġhu ÇĲ
ĠtÄģ ĠhÃ¡i
ĠINS EE
ĠgÄģi ĠshÄĽng
Ġni Çİo
ĠgÇİnĠ rÇİnĠ
ĠniÃłn Ġ
ku ÇİnĠ
jiÃłn ĠzhÃ¹
ĠwÃ¨iĠ fÃº
ĠzhÅįngĠguÃ³Ġ gÃ²ngĠchÇİn
ĠshÄģngĠ yÃ¨
ĠdeĠ yÇĲngĠxiÇİngĠ
ĠyÇĲĠ lÃ¡i
ĠzhÃŃ ĠwÃ¹Ġ
ĠzhÃ¨ngĠbiÄģn ĠmÇİĠwÃ¨iĠ
ĠhÃ¡o ĠmÇĲĠ
ĠshÃ¹ ĠjÃ¹
ĠtÃ³u ĠzÄ«
2 6
ĠĠĠ bÃ¨i
ĠĠĠ201 8ĠniÃ¡nĠ
Ġp Ã¡nĠ
ĠchÃ©ngĠ jÃ¬Ġ
ĠÄģnĠ quÃ¡n
ĠĠĠ gÅįngĠ
tÅįng ĠchÃ¡ng
ĠdÃłĠ chÃ©nĠ
ĠsÄĵn Ġ
fÇİ ĠlÇľ
fÃº Ġ
ĠdÃ© ĠdÃło
ĠgÇĶ Ġ
ĠlÃºn ĠdÅ«n
ĠzÇİoĠ qÄ«
zhÄ« ĠjiÄģn
ĠdeĠ yÇİn
Ġw Åį
qÄ« ĠjiÄģnĠ
ĠshÃŃĠ fÄĵn
ĠdeĠ duÃ¬
ĠdÃ¬Ġ qiÃº
ĠcÃ³ng ĠÃ©r
ĠduÅį ĠshÃ¹
ĠxuÃ©Ġ jiÄģ
ĠgÅįngĠ fÄĵnĠ
ĠwÃ©iĠ yÃł
zhuÄģnĠ jÃŃĠ
ĠdeĠ fÄĵng
ĠzÃłiĠ qÃŃ
nÃ©ng ĠlÃ¬Ġ
rÃ¨ ĠdÃłi
ÃłoĠlÃŃnĠpÇĲĠkÃ¨ ĠyÃ¹nĠdÃ²ngĠhuÃ¬
r uÇİnĠ
guÃ³Ġ jiÄģ
c Å«n
ĠĠĠ zhÃ¬Ġ
zhÃ¨ng Ġ
ĠzÃłiĠ yÃ¬
ĠsuÃŃĠ zhÃ¹
sÄģn ĠgÃ¨
Ġl ÃłiĠ
ĠshÃ¬Ġ bÃ¹Ġ
ĠĠĠ b
ĠtÄģ ĠbÃ¨i
19 6
dÃ¬Ġ Ã¨r
shÃ¨ Ġ
ĠkÅįng ĠjiÄģn
ĠnÃŃ Ġ
ĠyÄ«n ĠÃ©r
ĠchÃ¡o Ġ
Ġd Ãłng
ĠshÃŃĠ zÃ¬
ĠzhÃ¬Ġ 202
diÃłoĠ chÃ¡
shÃ¨ nĠ
ĠzÃłiĠ zhÅįngĠ
Ġshu Äģng
ĠjiÃłnĠzhÃ¹ Ġ
shÄģngĠ yÃ¨
4 5
ĠxiÃł ĠlÃ¬ngĠshÃŃĠ
ĠbÃ¹Ġ zhÇİng
ĠdÃº Ġ
ĠdÃ²ng ĠhuÃł
ĠzhÅįngĠguÃ³Ġ dÃłĠlÃ¹
ĠÄĽr ĠdÃ©
dÃº ĠlÃ¬Ġ
ĠjiÄĵĠr Çİng
ji ÇİĠ
ĠbiÄģn ĠmÇİĠwÃ¨iĠ
jÅ«n ĠduÃ¬
gÃ²ng ĠyÇĴuĠrÃ©nĠkÇĴu
ĠlÃ¹ ĠjÅ«n
ĠshÃ²u ĠdÃłoĠ
tÃłi ĠyÃ¡ng
quÃ¡n ĠqiÃº
ĠĠĠ 1
kÄĵ ĠxuÃ©
ĠqÄ« ĠxÄ«
ĠrÃ©nĠkÇĴuĠmÃ¬ĠdÃ¹ ĠmÄĽi
Ġ200 6ĠniÃ¡nĠ
a d
ĠpÄ« ĠpÃŃng
ĠwÃ¨iĠ shÃŃĠ
qÅ«Ġ yÃ¹
ĠliÃ¡n ĠjiÄĵ
19 4
ĠqÃŃ ĠhÃ²uĠ
qi ÄģngĠ
liÃ¡n ĠbÄģngĠ
ĠshÃ¬ĠzhÃ¨n ĠbiÄģnĠmÇİĠwÃ¨iĠ
ĠINSEE ĠshÃ¬ĠzhÃ¨nĠbiÄģnĠmÇİĠwÃ¨iĠ
zhÄģng Ġ
ĠdiÃłoĠ chÃ¡
ĠfÄģ ĠshÃ¨
ãĢ İ
ĠshÃŃĠ xiÃłn
ĠzhÃ¨ng ĠzÃłiĠ
Ġ18 9
dÅįng ĠbÄĽi
ĠdÄĽng ĠdÃ¬Ġ
Ġ6 Ġ
Ġf ÄĽi
ĠpÃŃng ĠlÃ¹nĠ
ãĢ ı
ĠĠĠ qÃŃ
Ġz ÄģoĠ
gÃ²ng ĠtÃ³ng
ĠĠĠ O
shÃŃĠdeĠ rÃ©nĠkÇĴuĠshÃ¹ĠliÃłngĠwÃ¨iĠrÃ©nĠ
e m
ĠfÃ¨i Ġ
ĠguÄģn ĠxÃ¬Ġ
mÄĽiĠguÃ³ĠrÃ©nĠkÇĴuĠpÇĶĠchÃ¡ ĠdeĠshÃ¹ĠjÃ¹Ġ
ĠrÃ©nĠkÇĴuĠmÃ¬ĠdÃ¹ĠwÃ¨iĠmÄĽi ĠpÃŃngĠfÄģngĠqiÄģnĠmÇĲ
ĠÃ©r ĠrÃ©nĠkÇĴuĠmÃ¬ĠdÃ¹ĠwÃ¨iĠmÄĽiĠpÃŃngĠfÄģngĠqiÄģnĠmÇĲ
ĠĠĠ201 7ĠniÃ¡nĠ
ĠdÄģngĠdÃ¬Ġ gÃ²ngĠyÇĴuĠrÃ©nĠkÇĴu
chÃ ³u
xuÇİn ĠqÅ«ĠwÃ¨iĠ
Ġ Î
ĠÄĽr ĠsÄ«Ġ
ĠhuÃ² ĠjiÃ¹ĠshÃ¬ĠzhÃ¨nĠ
ĠxiÃł ĠdeĠ
fÄĵn ĠbiÃ©
ĠwÃ¨iĠ shÄĵng
tÇĴng ĠzhÃ¬Ġ
ĠdÅįng ĠjÄ«ng
ĠshÇĶĠdeĠ shÄĽngĠjÃŃĠ
ĠshÇĶĠdeĠshÄĽngĠjÃŃĠ xuÇİnĠqÅ«ĠwÃ¨iĠ
ĠhÃ¹ Ġ
ĠjiÄģĠ shÃłng
ĠshÃ¬Ġ yÇĶ
qu ÄģnĠ
Ġm ÄĽng
ĠzhÃ¬Ġ zÃłoĠ
Ġz Ãłng
ĠyÄ« ĠniÃ¡nĠ
ĠmÃ©ng Ġ
ĠfÃ¨nĠwÃ¨iĠ fÇİĠguÃ³Ġ
ĠgÄģiĠshÄĽng ĠfÃ¨nĠwÃ¨iĠfÇİĠguÃ³Ġ
t ÃŃng
ĠzhÃ¬Ġ liÃ¡o
ĠjÃ¹ ĠjuÃ©
ĠzhÃŃ ĠzhÃ¬Ġ
ĠmiÃ¡o ĠshÃ¹
Ġqi Ã³ng
niÇĶĠ yuÄĵ
ĠtÄģĠmen ĠdeĠ
jÇĲ ng
kÄģiĠshÇĲ Ġ
ĠwÃłi ĠjiÄģo
ĠzÃłiĠ xÄ«
ĠdÃ¬ĠyÄ«Ġ cÃ¬
fÄģ ĠxiÃłn
mÇĲ nĠ
l Ġ
zhÃ¨ Ġge
ĠshÃ¬Ġ yÇĴu
p ÇĲnĠ
ĠĠĠ J
Ġn Ã¬
ĠshÃ¬ĠyÄ«Ġ mÃŃng
2 9
Ġp Ã¹
ĠfÄģng ĠmiÃłnĠ
u b
ĠzÃłiĠ dÃł
Ġm Ã¡ngĠ
ĠlÃ¬Ġ sÄ«
ĠquÃ¡n ĠqiÃº
ĠhÇİi Ġ
a k
ĠyÇĴuĠ xiÃło
ĠzÃłiĠ zhÅįngĠguÃ³Ġ
ĠjiÃłn ĠzhÃ¬Ġ
ĠdÇĲ ng
ĠzhÄĽng ĠgÃ¨
ĠchuÃ¡n Ġ
Ġch ÄģĠ
Ġmi Ã¨
ĠyuÃ¡n ĠyÃºĠ
ĠxÄ«n ĠzÄĵng
Ġ5 00
ĠzÃłiĠ dÃ¹
ĠzhÃŃ ĠwÃ¹
ĠwÃ¡n ĠjiÄģĠ
jiÄģĠ nÃ¡
ĠĠĠ201 6ĠniÃ¡nĠ
Ãłn ĠhÃ©Ġ
ĠchÇİn ĠpÇĲnĠ
jiÃłn ĠlÃ¬Ġ
ĠĠĠ yÇĴu
ĠbÇĲ ĠyÃł
ĠrÃ©nĠ shÃ¹
ĠxÃ¬ng ĠdeĠ
ĠpÄ« ĠzhÇĶnĠ
ĠjÇĶĠ xÃŃngĠ
Ġju ÇİnĠ
zÇĶ ĠchÃ©ngĠ
jÃ¬Ġ huÃł
ĠxiÃ© ĠyÃ¬Ġ
ĠĠĠ202 2ĠniÃ¡nĠ
e dĠĠĠ
ĠlÇĲ ĠsÄ«Ġ
ĠdÃ© ĠdÃłoĠ
ĠhuÃ¡ Ġ
mÃ¹ ĠqiÃ¡n
ĠshuÇĲ ĠyÃ¹
ÇİoĠ qÄ«
ĠÄģĠ lÄģ
cÃ¬ Ġ
ĠyÃ¡n ĠzhÃ²ng
ĠrÃº Ġ
ĠdÃłĠduÅį ĠshÃ¹
i ng
lÇĲ ng
xiÃł ĠxiÃ¡
ĠniÃ¡nĠ dÃ¹
ĠzhÅįngĠguÃ³Ġ rÃ©nĠmÃŃn
ĠshÃŃĠ shÄ«
ĠzhÄĵn ĠduÃ¬
ĠzhÅįngĠxuÃ© Ġ
Ġb Ä«
u Ã³
ĠĠĠ xÄ«
ĠbÃłn Ġ
ĠjÇĲngĠ chÃ¡
ĠzhuÄģnĠ yÃ¨
o t
u m
ĠsÄģi ĠÄĽr
ĠshuÄģngĠ fÄģng
ĠjÃ¬nĠxÃŃng Ġle
gÃ© ĠlÃ¡n
ĠtuÃ¡nĠ tÇĲ
ĠlÃ¬Ġ yÃºĠ
Ġku Ãł
Ã© ĠluÃ³ĠsÄ«Ġ
ĠdeĠshÃŃĠ hÃ²uĠ
ĠshÃ¬Ġ m
chÇİn ĠshÄĵng
ĠdÅ«Ġ jiÃło
ĠshÃ¬Ġ nÃ¡n
ĠĠĠ zh
shu Äģng
biÃłn Ġ
ĠwÃ¨iĠ lÃ¡i
shÇĲĠyÃ²ng Ġ
ĠxiÃ¹ Ġ
ĠdeĠ dÃ²ng
ĠzhÅįngĠ wÃ©n
guÇİngĠ dÅįng
ĠĠĠ yÃ¬
ĠzhÄ«Ġ jiÄģnĠ
Ġgu Ãł
ĠxuÃ©Ġ zhÄĽ
ĠĠĠ jiÇİnĠ
ĠÄĽr ĠsÄ«
ĠwÃ¨n Ġ
ĠfÇİ ĠlÇľ
jÇĶĠ bÃłn
ĠdÃ¬Ġ miÃłn
w Äĵn
ĠjÄ«Ġ jÄ«n
ĠdÃ¬ng ĠwÃ¨iĠ
ĠzÇĶ ĠfÃ¹
xiÇİo ĠxÃŃngĠxÄ«ng
ĠzÃłiĠ mÄĽiĠguÃ³Ġ
ĠxiÃ© Ġ
ĠjÃŃ ĠdeĠ
y Åįng
Çİn ĠhÃ©Ġ
Ġ202 2ĠniÃ¡nĠ
xi Ã¨
jiÄĵ Ġ
ĠbÃ¹Ġ dÃ©
ĠrÃ©nĠ gÅįngĠ
ĠxÄ« ĠwÃłngĠ
Ġn ÇĶĠ
ĠĠĠ zÃ¬
ĠguÃ³Ġ huÃ¬
s Å«n
ji Ãłng
7 5
ĠhÃ²uĠ zhÄĽ
xi ÇİngĠ
2 ĠrÃ©nĠ
g Ãłi
ĠqÄ«ng ĠchÃ¡o
yÃ¹n Ġ
ĠmÃŃn Ġ
ĠqÇĲ ĠyÃ¨
Ġx Å«n
ĠdeĠ yÃ¡nĠjiÅ«Ġ
ĠbÃ¹Ġ kÄĽ
wÃ©i ĠyÄ«Ġ
tÃ³ng ĠshÃŃĠ
ĠjÄ« ĠyÃºĠ
ĠzÃłiĠ p
ĠsÃ¬ ĠchuÄģnĠ
ĠjiÃło ĠshÃ²u
ĠzhÄ«ĠjiÄģn ĠdeĠ
ĠdÅįng Ġ
ÄĽr ĠqÃŃ
fÄĵng Ġ
Ãłn ĠwÃ¨iĠ
ĠxiÇİo Ġ
e sĠ
bÇİo Ġ
ĠjiÄģng ĠjÅ«n
ĠbÃ¹ ĠmÃ©n
zhÃ ²u
b ÇĶĠ
ĠgÄģo ĠsÃ¹
Ġp Ã¡ng
h ÄģĠ
ĠtÅįng Ġ
ĠgÃ²ng ĠhÃ©Ġ
xi Åįng
ĠÃ©r ĠshÃ¬Ġ
i nĠ
ĠĠĠ bÃ¹Ġ
ku Ãłng
g Äģng
dÃ¬ ĠwÃ¨iĠ
19 5
ĠxuÇİn ĠwÃ¨iĠ
d Ä«ng
ĠshÃ¬Ġ mÄĽiĠguÃ³Ġ
Ġt Å«
ĠjÃ¬Ġ lÃ¹Ġ
ĠdeĠ nÃ¨i
d Çİng
chÄĵ ĠzhÃłnĠ
ĠmÃłnĠ huÃł
e sĠĠĠ
xuÃ© Ġ
ĠdÄģn Ġ
ĠyuÃ¡nĠ yÄ«n
nÃ¡n Ġzi
ĠtÇĶ ĠdÃ¬Ġ
ĠjÇĲnĠbiÄģoĠ sÃłi
ĠdeĠ fÄĵi
ĠdeĠ qÃŃĠzhÅįngĠ
ĠshÃŃĠ xÃŃng
ĠfÄģ ĠxÃŃng
ĠyuÃ¡n ĠniÃ¡nĠ
ĠjiÄĵĠrÇİng ĠdeĠshÃ¬ĠzhÃ¨nĠ
zhÃŃ ĠjiÄĵ
jÃ¬Ġ niÃłn
ĠzhÃ¡ i
0ĠniÃ¡nĠdÃłi Ġ
ĠchÅ« ĠshÄĵngĠyÃºĠ
ĠĠĠ lÃ¬Ġ
shÃ¨ ĠyÇĴuĠ
ĠzhÇĶnĠ bÃ¨i
ĠĠĠ 4
ÄĽr Ġ
ĠhÃ© ng
Ġ2 8
ĠhÃ©Ġ m
ĠzhÃ¬Ġ yÃºĠ
ĠĠĠ201 4ĠniÃ¡nĠ
ĠhuÃ²ĠdÃ© Ġle
ĠxÃ¹nĠ liÃłnĠ
ĠshÃŃĠ yÄ«Ġ
ĠjÄ« ĠgÃ²uĠ
nÃ¡n ĠbÃ¹Ġ
ĠĠĠ201 5ĠniÃ¡nĠ
ĠhÃ©Ġ liÃº
ĠkÃ¹ Ġ
qÃ¹ ĠshÃ¬Ġ
xuÃ© ĠshÄĵng
ĠjiÄģĠ zÃº
ĠrÃ¨nĠwÃ©i ĠshÃ¬Ġ
ĠÃ©r ĠtÃ³ng
R Ġ
r ÃłngĠ
ĠyÃºĠ hÇİi
ĠbÃ¬ng ĠjiÄģng
w ÇĴ
ĠliÃ¡n ĠbÄģngĠ
ĠxÃŃngĠ wÃ©iĠ
j ÇĶ
z ÇĲ
ĠtiÄģn ĠjÄ«n
T A
qiÃº ĠyuÃ¡nĠ
ĠdeĠ fÃº
ĠyÃºĠ19 7
g Äĵng
ĠlÃ¬Ġ shÄģn
fÇĶ Ġ
ĠchÃ¡ng Ġ
Ġxu Äĵ
ĠĠĠ fÄĵn
ĠdeĠ zhÇĲ
ĠxÄ« ĠbÃ¹Ġ
ĠyÃł ĠzhÅįu
ĠfÄĵi Ġ
a u
ĠzÃ© ĠshÃ¬Ġ
ĠzÃłiĠ gÄģi
ĠzhÃŃ ĠdÃłoĠ
ĠqÄ«ng ĠniÃ¡nĠ
ĠxiÄģnĠ hÃ²uĠ
ĠdeĠdÃ¬Ġ Ã¨r
ĠwÃ©iĠ chÃŃ
ĠjiÃ© ĠmÃ¹Ġ
3 8
ĠzuÃ¬ ĠjiÄģĠ
fÄģ ĠbÃ¹Ġ
ĠhÃ©Ġ xÄ«
yÃło Ġ
Ġt Äģi
ĠchÃ©ngĠ yuÃ¡n
ĠhÃº Ġ
wÃº ĠfÇİ
qÅ«Ġ huÃłĠ
tÃ¨ Ġ
ĠĠĠ201 3ĠniÃ¡nĠ
Ġ6 0
dÇİo Ġ
ĠĠĠ xÄ«n
ĠdÃ¬ng ĠdeĠ
ĠmÇĶĠ qÄ«nĠ
ĠdÃłiĠbiÇİo Ġ
chÃ³ng ĠxÄ«n
dÅįng ĠjÄ«ng
Ġt ÄģngĠ
Ġt ÃłoĠ
ĠlÇĲĠ yÃł
ĠfÄģng ĠÃłnĠ
ĠguÇİngĠ zhÅįu
ĠyÇĴuĠxiÃłn ĠgÅįngĠsÄ«
ĠzuÇĴ ĠyÃ²u
Ġ2 6
su Ä«ĠrÃ¡n
ĠwÃ©n ĠxuÃ©
ĠqÃ¹ ĠshÃ¬Ġ
Ġqi Äģng
ĠmÄĽi ĠgÃ¨
ĠbÃło ĠfÄģ
Ġr ÇĶĠ
ĠxiÃłng ĠmÃ¹Ġ
Ġ2 1
rÃ©n ĠdeĠ
ĠzhÅįngĠ yÇĴu
ĠjiÃłn ĠduÃ¬
ĠquÃ¡n ĠbÃ¹Ġ
ĠjÇĲngĠ fÄģng
ĠyÃ³u ĠqÃŃ
ĠsÄģn ĠgÃ¨
ĠhÄĽn ĠduÅį
ĠzÃ¬ĠjÇĲ ĠdeĠ
duÅį Ġ
f ormulaĠ
ĠbÃ¹Ġ duÃłnĠ
yuÃłn Ġ
ĠshÃ¬Ġ wÄĵi
ĠzhÄĵn Ġ
sÅ«Ġ liÃ¡n
ĠchÃ©ngĠwÃ©iĠ le
ĠxiÅįng ĠdÃ¬Ġ
fÄĵi ĠchÃ¡ng
Ġc Äģng
wÃ¹ ĠyuÃłn
ĠmÃ¬ ĠshÅ«
ĠdeĠfÄģng ĠshÃ¬Ġ
shÃ¨ ĠlÃ¬Ġ
di Ã©
ĠfÃº ĠjiÃłn
ĠdÃłoĠ dÃ¡
ĠĠĠ 5
ĠguÃ³Ġ lÃ¬Ġ
ĠchÃ©ngĠ rÃ¨n
ĠmÃ¬ng Ġ
ĠtÇĴng ĠzhÃ¬Ġ
ĠcÃ¹ nĠ
ĠhuÃł ĠxuÃ©
ĠdeĠyÄ«Ġ zhÇĴng
4 6
mÃŃn ĠzÃº
ĠjiÇİnĠ chÃ¡
in d
gu ÇĲ
ĠzhÄ«Ġ wÃłiĠ
ĠyÃ¹n ĠshÅ«
ĠlÃ¬ng ĠwÃłiĠ
ĠyuÃ¡nĠ zhÃ¹
xuÇİn ĠrÃ©nĠ
ĠdÇĲĠ dÃ¡
3 3
ĠchÃ¡ng ĠqÄ«
ĠshÃ¬Ġ gÃ¹
ĠkÄģi ĠfÃłngĠ
ĠgÇİnĠ dÃło
ĠhÃło ĠxiÃłnĠ
ku ÄģnĠ
ĠĠĠ duÃ¬
ĠrÃ¡n ĠhÃ²uĠ
qÄ«ng ĠniÃ¡nĠ
ĠshÃ¬Ġ yuÃ¨
4 ĠrÃ©nĠ
ĠyuÃ¨Ġ tÃ¡i
ĠliÃ¡n ĠxÃ¹
ĠchÃ©ngĠ dÃ¹
ĠrÃ©n ĠzÃłiĠ
ĠqÃºn Ġ
qÇĲ ĠyÃ¨
ĠtÇĲ ĠzhÇİng
sÃ¨ Ġ
ĠlÇļ ĠyÃ³u
ĠĠĠ202 3ĠniÃ¡nĠ
ĠniÇĶĠ yuÄĵ
e v
Â °
ĠdeĠ gÇĶ
ĠshÃ¬Ġ rÃ¬ĠbÄĽn
yÇĲ ĠjÃŃĠ
ĠshÃ¬Ġ zhÃ¨ng
t Ã²u
V Ġ
bÄģ ĠshÃ¬Ġ
f ÄģnĠ
jiÃ© ĠshÃ¹
ĠzÃłiĠ yÃºĠ
Ġm Ã¨ng
ĠzhÃ ³u
ĠjÃ¬Ġ zhÄĽ
ĠsuÃŃĠ zhe
ĠrÃ¨ ĠdÃłi
ĠcÇĲ ĠshÃŃĠ
ï ½
t ÃłnĠ
ĠnÇļ ĠzÇĲĠ
ĠkÃłnĠ dÃło
ĠshÃ¬Ġ mÃŃn
ĠĠĠ hÃ©Ġ
jiÃ© ĠmÃ¹
ĠjÄ«ng ĠjÃ¬
ĠsuÃŃĠ hÃ²u
ĠshÄĵng ĠyÃ¡
ĠgÄĵn ĠjÃ¹Ġ
Ġ3 5
ĠshÃ¬Ġ bÄ«ng
ĠtÇİo ĠlÃ¹nĠ
M Ġ
Ġh ÇİnĠ
ĠyÇİn ĠchÃłngĠ
Ġk Ã²u
ĠguÄ«Ġ dÃ¬ng
1 ĠrÃ©nĠ
ĠdeĠ lÃ¹
Ġni ÇİoĠ
ĠtÃ³ngĠshÃŃĠ yÄĽ
ĠguÇİng ĠfÃłnĠ
ĠyÄ« ĠshÃ¬Ġ
chÃł ngĠ
ĠpÃŃng ĠtÃ¡i
zuÃ¬ ĠzhÅįngĠ
gÅįngĠ zuÃ²Ġ
ĠdeĠ jiÃło
ĠyuÃ¨Ġ nÃ¡n
ĠjiÄĵ ĠdÃłoĠ
Ġtu Ã³
gÅįngĠ yuÃ¡nĠ
ĠÄĽr ĠlÃ¡n
B Ġ
zuÃ²Ġ wÃ©i
sÃłi ĠshÃ¬Ġ
ĠdeĠ bÃło
ĠzÇĴng ĠmiÃłnĠjÄ«Ġ
ĠlÇľ ĠbÄ«nĠ
3 6
ĠzhÄ« ĠxiÃłnĠ
ĠpÃŃng ĠmiÃłn
ĠchÄĵng ĠwÃ©i
ĠÄĵn Ġ
7 ĠrÃ©nĠ
ĠzhÅįu ĠshÃ¬Ġ
Ġmi Ãło
ĠhuÃ¡ng ĠdÃ¬Ġ
ĠdÃłĠ qÅ«Ġ
ĠchÃ©ngĠ xiÃłn
ni Ã¨
s Åįu
Ġd Å«nĠ
ĠdeĠc Å«n
ĠbÃ¹Ġ lÄģ
ĠshÃŃĠ yÃłnĠ
ĠjÃ¬Ġ chÃ©ngĠ
ĠnÃ¡n ĠjÄ«ng
lÇľ Ġ
ĠdeĠ biÇİo
ĠjÄ« ĠdÃ¬Ġ
ĠqÃºn ĠdÇİo
ĠlÃ¹ ĠxiÃłnĠ
ĠyÃº ĠlÃ¨
ĠyÃ¬ng ĠyÃ²ng
ĠdeĠ huÃł
ĠT heĠĠĠ
zhÃº ĠjiÃłn
ĠdeĠ shÃ¨
ĠdeĠ xÃ¬ng
ĠdeĠ yÇĶ
Ġm ÃŃ
ĠjÃŃ ĠwÃ¨iĠ
Ġ18 8
ĠxiÄĽ Ġ
jÄ«ng ĠguÃ²
ĠjÃ¬n ĠgÅįngĠ
am pĠ
Ġn Ãłi
chuÃ¡n Ġ
ĠlÃ¬ng ĠyÄ«Ġ
ĠduÅį ĠgÃ¨
ĠyÃºĠ19 4
ĠdeĠw Ã¨n
ch Äģ
hÃ¡ o
ĠhuÃ² ĠshÃ¬Ġ
ĠzÅįng Ġ
ĠchuÃłngĠ zuÃ²
Y ou
b Äĵi
ĠfÄģng ĠfÇİ
ĠguÄ« ĠhuÃł
ku ÃŃĠ
ĠlÇĲngĠ yÃ¹
ĠhÄģ ĠÄĽr
juÃ© ĠsÃłi
fÄģng ĠmiÃłn
mÃ©i ĠtÇĲ
ĠzÃłiĠ 18
d ÇİĠ
ĠtÃŃngĠ zhÇĲ
ou n
ĠyÃło Ġ
ĠxiÃłn ĠrÃ©nĠ
ĠĠĠ zhÅįngĠ
ĠbÃ¹Ġ luÃ²
k ÄģnĠ
00 ĠwÃłnĠ
ĠdeĠ zhÃ²ngĠyÃło
ĠzÇĴu Ġ
Ġti Äĵ
ĠhÃło ĠxiÃłn
ĠhuÇĴ Ġ
ĠzÃłiĠ19 8
Ġl ÃłngĠ
Ġb ÇİnĠdeĠ
ĠyÇĴuĠ yÃŃĠgÃ¨
ĠwÃ¹ ĠlÇĲ
c uÃ²
k Ã²ng
ĠshÄĵng ĠyÃ¡Ġ
xu ÄĽ
bÄĽi ĠmÄĽi
ĠĠĠ shÃŃĠ
ĠnÃ³ng ĠyÃ¨
ĠshÃło ĠniÃ¡nĠ
ĠyÄ«ng ĠyÇĶĠ
biÄģo ĠwÃ¨iĠ
hu Äģ
ĠguÃ³Ġ jÃ¬
jiÄģ ĠtÃŃngĠ
ĠyÇĲĠ sÃ¨
k ÇİoĠ
Ġp Å«Ġ
ĠĠĠ 10
xÄ«n ĠwÃ©n
mÇĲ Ġ
ĠdeĠ sÄģn
ĠyÇĴuĠxiÃłn ĠgÅįngĠsÄ«Ġ
nÃ¡n ĠxÃ¬ng
t ÇİnĠ
ĠzhÇĶ ĠjuÃ©
xÃ¹nĠ liÃłnĠ
n ÃŃng
ĠshÃ¬Ġ dÃł
ĠzÃłiĠ tÄģ
ĠlÄģ ĠsÄ«Ġ
9 ĠrÃ©nĠ
r Ãłng
ĠĠĠ jÄ«
xuÇİn ĠjÇĶĠ
fÃ¹ Ġ
ju ÇİnĠ
yuÄĵ ĠhÃłnĠ
00 ĠniÃ¡nĠ
ĠdeĠ zÃ¬
ĠsÃł ĠkÃ¨
ĠpÇĲnĠ pÃ¡i
Ġt uÃ²
ĠshÃ¨ ĠqÅ«Ġ
ĠjiÄĽ ĠjuÃ©
bÃ³ ĠwÃ¹ĠguÇİn
k ÇĴng
ĠdÃ¬ ĠwÃ¨iĠ
b Ä«nĠ
ĠdeĠ liÇİng
ĠchÃ¡ Ġ
ĠzhÃł ng
wÄĽi ĠyuÃ¡nĠ
ĠyÃŃ Ġ
lÃ¹ĠdÃ¬Ġ miÃłnĠjÄ«ĠwÃ¨iĠ
ĠĠĠ s
ĠzhÃ¬Ġ jÄ«n
chÃ¡o ĠxiÄģnĠ
ĠshuÇĲĠyÃ¹ ĠmiÃłnĠjÄ«ĠwÃ¨iĠ
ĠÃ©r ĠbÃ¨i
ĠyÃ¡n ĠjiÅ«
ĠzuÃ¬ ĠdÃłĠdeĠ
ĠgÇİi ĠbiÄģn
k uÃ²
y ÄģoĠ
Ġ200 4ĠniÃ¡nĠ
guÇİngĠ bÅį
jÃ¬Ġ shÃ¹
Äģn ĠwÃ¨iĠ
ĠzhÄ«ĠqiÃ¡n Ġ
ĠjuÃ© ĠsÃłi
Ġzh ÇİoĠ
uÃ³ ĠwÄĵi
jÃ¬ng ĠnÃ¨i
o g
ch ÇĶ
ĠyÇİngĠ huÃł
p Ã¨i
ĠsuÇĴ ĠyÇĴu
zÇĶ Ġ
ĠdeĠ shuÇĲ
bÃ¹Ġ tÃ³ng
Ġsh ÇİngĠ
ĠzÅįng ĠhÃ©Ġ
ĠĠĠ mÃŃng
ĠnÃ©ng ĠlÃ¬Ġ
ĠxiÇİo ĠxÃŃngĠxÄ«ng
n ÃŃngĠ
ĠniÃ¡nĠ l
ĠqÃŃ ĠxiÃł
ĠniÃ¡n ĠshÃ¬ĠjiÃ¨
Ġq iÃłn
ï½ ŀ
Ġ2 7
ĠfÇİ ĠlÃ¡n
dÅįng ĠbÃ¹Ġ
ĠcÄģn ĠjiÄģ
ĠdeĠ zuÃ²ĠpÇĲnĠ
ĠshÄĵng ĠzhÇİng
ĠpÇĲ nĠdeĠ
ĠyÄ«Ġ tÃ³ng
w ÇİnĠ
ĠpÃ¬ nĠ
Ġ ampĠ
ĠhuÃł ĠhÃ©Ġ
ĠdÃ¡ ĠdÃłoĠ
d Å«Ġ
Äĵn Ġ
gÄĵ Ġ
hÃ²uĠ lÃ¡i
ĠzÄ« Ġ
ĠĠĠ V
ĠyÇĴuĠ suÇĴ
ĠzÃ¬ ĠdÃ²ng
ĠdÄģngĠzhÅįngĠ lÃ¹ĠdÃ¬ĠmiÃłnĠjÄ«ĠwÃ¨iĠ
a y
ĠÃ©r ĠshuÇĲĠyÃ¹ĠmiÃłnĠjÄ«ĠwÃ¨iĠ
i m
ĠshÃ¬Ġ jÃŃĠ
ĠjÄ« ĠbÃłi
ĠĠĠ201 2ĠniÃ¡nĠ
ĠqÇĲ ng
yÄ«ng ĠgÃ©ĠlÃ¡n
Ġku ÃŃĠ
ĠÃ¨r ĠniÃ¡nĠ
ĠlÃº ĠwÇİĠÄĽr
ĠdeĠ Ã©r
ĠshÃŃĠ sÄģn
ĠshÄĽng ĠhÃ©Ġ
ĠzhÃ ²u
ĠgÃ¨ ĠdÃ¬Ġ
zhÃ¨ngĠzhÃ¬Ġ rÃ©nĠwÃ¹Ġ
ĠqÃŃ ĠhÃ²u
ĠdÃ© ĠlÇĲ
ĠxiÄģoĠ shÃ²u
3 ĠrÃ©nĠ
6 5
ĠzhÃło Ġ
bÇĲ ĠlÃ¬Ġ
ĠshÃ¬Ġ yÄ«ĠwÃ¨iĠ
ĠlÃ¬ ĠhÃ©Ġ
dÅįng ĠnÃ¡n
ĠdeĠ wÃłi
Ġf Ã©i
g ÃłoĠ
xi ÇİnĠ
ju ÄģnĠ
ĠlÃ¬ĠyÃł Ġ
ĠquÃ¡n ĠlÃ¬Ġ
ĠbÃ¬ng ĠfÄĵi
ĠwÇİng ĠzhÃłn
ĠchÃŃ Ġ
mÃ¹ Ġ
Ġf Ã©n
ĠdÃło ĠlÃ¹
Ġd Ã¨ngĠ
yÇĲ ĠjÄ«ng
ĠtÃ³ng Ġ
ĠwÄĵi ĠÄĽr
fÄģ ĠbiÇİo
ĠzhÇĲ ĠnÃ©ng
qÄ«ng Ġ
ĠbÃ¹ ĠhÃ©Ġ
ĠchÃłng ĠpiÃłn
ĠxÃŃng ĠdÃ²ngĠ
ĠfÅ«Ġ sÄ«
xu Ã¡n
ĠchÃ©ngĠlÃ¬Ġ yÃºĠ
ĠĠĠ cÃ³ng
ĠxÄ«ng ĠqÄ«
Ġb ÇĶ
ĠzhÅįu ĠdeĠ
ĠpÃ¡i ĠmÃŃng
ĠdÄģn ĠqÅ«Ġ
ĠmÇİ ĠlÃ¬Ġ
ĠĠĠxÃŃngĠzhÃ¨ngĠ qÅ«ĠhuÃłĠ
Ġd ÇĶĠ
ĠdeĠshÃŃĠ jiÄģn
ĠĠĠ mÇİ
ĠdeĠ tÃ³u
ĠwÃ¨iĠ gÄģo
tÃ¨ ĠbiÃ©
ĠwÃ¨iĠfÃº ĠqÃŃĠyÃºĠ
bÇĲ ĠsÃłiĠ
ĠyÃºĠ19 6
ĠhÅįng ĠzhÃł
ĠĠĠ lÃ¬ng
ĠyÃ²ng ĠlÃ¡i
ĠwÃ¨iĠ yÇĴu
ĠyÇĲng ĠxiÇİng
ĠbÇİo ĠliÃº
ĠwÄĽiĠyuÃ¡nĠhuÃ¬ Ġ
bÃ¨i Ġ
ji Çİo
xi ÄģoĠ
Ġ2 9
ĠxiÄģng ĠduÃ¬
u s
ĠjÃŃĠ shÇĲ
ĠwÇİng ĠluÃ²
ĠchÄģo ĠjÃŃĠ
ĠshÃ¬Ġ zhÃ¨ngĠfÇĶ
ĠĠĠz Çİo
guÇİn ĠlÇĲĠ
ĠdeĠ jÃ¬n
ĠgÄĵng ĠmÃŃngĠwÃ¨iĠ
X Ġ
mÄĽi ĠguÃ³
ĠchÅ« ĠshÄĵng
ĠtÇĲĠzhÇİng ĠkÄĽĠdÃ¡
Ġl Ãłng
ĠzÃ© Ġ
ĠdeĠ sÄ«
hu ÄģĠ
Ġl Ã²u
ĠyÃºĠ19 5
ĠzhÄ« ĠshÃŃĠ
Ġ202 3ĠniÃ¡nĠ
ĠyÅįng ĠyÇĴu
p h
F Ġ
ĠdÃłn ĠbÃ¡i
ĠbÇİnĠ bÄĽnĠ
ĠdeĠdÃ¬Ġ qÅ«Ġ
ĠlÃ¬Ġ jÃŃĠ
ĠzhÇĲ ĠzÃłiĠ
hu Ã¡i
ĠquÃ¡n ĠzhÇİng
a li
zuÃ¬ ĠjiÄģĠ
ĠdÃł ĠlÃ¹
ĠqÄ«ng Ġ
guÄģn ĠyÃºĠ
tiÄģn Ġ
ĠdiÃłnĠshÃ¬Ġ tÃ¡i
ĠjÄ« ĠchÇĶĠ
ĠjÄ«Ġ chÄĵ
ĠmÃ¬ng ĠmÃŃngĠwÃ¨iĠ
ĠdeĠ chÅ«
zhÇĶ ĠyÃ¬Ġ
ĠjÃ¬n ĠyÃŃĠbÃ¹Ġ
ĠbÃło ĠgÃłoĠ
Ġ2 1Ġ
ĠĠĠ yuÃ¡nĠ
guÄģn ĠxÃ¬
guÃ² ĠchÃ©ngĠ
Ġbi ÇİnĠ
ĠwÃ¨iĠ hÃ©Ġ
n e
ĠzhÃłn ĠlÇĲngĠ
ĠnÃ¨i ĠbÃ¹Ġ
ĠgÅįngĠ huÃ¬
ĠshÄĽng ĠfÃ¨nĠ
ĠkÅįng ĠjÅ«n
ĠxÃŃĠ jÄ«
hÃłi Ġ
ĠbÇĲ ĠjiÃło
ĠzhÅįngĠ shÄģn
lÃ¹ ĠjÅ«n
Ġw Å«
ĠyÄ«Ġ shÄĵng
ĠbÄĽi ĠqÇĲ
wÃ¨i ĠshÃ¬Ġ
fÄģng ĠmiÃłnĠ
ĠshÅįu ĠlÃ¹
ĠĠĠ 6
li ÃłoĠ
ĠrÃ©nĠmÃŃn ĠzhÃ¨ngĠfÇĶ
fÃº ĠwÃ¹
Ġd Å«
o b
3 7
ĠbÃ¹Ġ zhÇİngĠ
Ġ2 2
ĠĠĠ202 4ĠniÃ¡nĠ
ĠchÃ¨ nĠ
ĠsÃ¬ ĠniÃ¡nĠ
ĠC h
de r
ĠxiÃłn ĠwÃ¨iĠ
ĠjiÃ© ĠgÃ²uĠ
ĠzuÃ² ĠchÅ«
fÃ¹ ĠjÃ¬n
ĠyÃ³u ĠtÃłi
Ġshu Äģi
Ġt Ä«
ĠhÃ©Ġp ÃłnĠ
ĠdeĠ shÄģn
Ġ200 0ĠniÃ¡nĠ
O Ġ
liÃ¡n Ġ
ĠmÃ² ĠxÄ«ĠgÄĵ
ĠdÃ¬Ġ liÃ¹
Ġc Ã¡n
ĠkÃ¨ ĠlÄģ
e b
w Ã²
liÃ¡n ĠxÃ¹
ĠyÇĴuĠ zhÃ¹
Ġdi ÄģoĠ
ĠshÃ¨ng ĠdÃ¹nĠ
ĠguÄģn ĠyuÃ¡nĠ
zÅįng ĠjiÃło
shÄĵng ĠchÇİn
ĠjÅ«Ġ zhÃ¹
xÄ« ĠbÃ¹Ġ
ĠguÃ³Ġ nÃ¨i
ĠcÇĲ ĠwÃłi
ĠhÃ©Ġ zhÅįngĠ
bÄģo ĠhÃ¡nĠ
ĠwÃ¨iĠ l
ĠzÃłiĠ xÄ«n
ĠdeĠshÃŃĠ qÅ«ĠwÃ¨iĠ
ind ow
fÃº ĠwÃ¹Ġ
Ġzh ÇİnĠshÃ¬Ġ
ĠguÃ² ĠqÃ¹
bÇĲ Ġ
ĠjÄ« ĠhÃ©Ġ
dÃ²ng ĠhuÃł
ĠzhÇĲ ĠchÅ«Ġ
ĠdÇİo ĠyÇİn
q iÃłn
8 ĠrÃ©nĠ
xÃ¬ ĠbÄģo
ĠdeĠ yÇĴu
Ġg ÇĴng
Ġxi Ã¡ng
ĠzhÇĲ ĠhuÄ«Ġ
ĠfÇİnĠ huÃŃĠ
ĠrÃ©nĠ wÃ¹
k ÃłnĠ
ĠzhÅįngĠ yÃºĠ
Ġt wĠ
ĠjiÃł ĠzhÃŃ
Ġhan sĠ
ĠyÃ¹n ĠdÃ²ngĠ
ĠĠĠ U
ĠzÃłiĠ 202
ĠjiÄĵ ĠwÃ¨iĠ
ĠlÇļ ĠkÃ¨
s ÇĶnĠ
ĠjÄ«n ĠshÇĶ
e g
ĠqÃ¬ ĠchÄĵ
ĠfÃ³ ĠjiÃło
ĠxiÃłn ĠlÃ¹
chÃº nĠ
h Å«Ġ
yÃ³u ĠzhÃ¨ngĠbiÄģnĠmÇİĠwÃ¨iĠ
ĠgÃ¹ Ġ
ĠmÃŃng ĠzhÃ¬Ġ
ĠtiÃ¡o ĠzhÄĽng
a i
ĠshÃ¬Ġ nÃ¨i
ĠsuÃ¬ ĠshÃŃĠ
ĠdeĠ wÃ¹
ĠqiÃº ĠyuÃ¡nĠ
ĠtÃłi ĠyÃ¡ng
ĠkÇİoĠ lÇľ
ĠtÃłi ĠpÃŃngĠyÃ¡ng
wÃ¡n ĠchÃ©ngĠ
ĠdeĠ fÄģ
ĠĠĠdeĠ shÃŃĠ
ĠĠĠ pÃŃng
ĠjiÄĽ ĠshÃ¬Ġ
ĠcÇİi ĠqÇĶ
6 ĠrÃ©nĠ
ĠdÅįng ĠlÃŃn
ĠjiÃ© ĠhÃ©Ġ
a ng
ĠzuÃ¬ ĠduÅį
zhÃł ngĠ
tiÄģn ĠzhÇĶĠjiÃło
ĠgÅįngĠ lÃ¹Ġ
ĠcÃ³ng ĠshÃ¬Ġ
cÃºn ĠzÃłiĠ
ĠyÇĲĠsÃ¨ ĠliÃ¨
Ġg ÇĴu
ĠxÄ«Ġ shÄĽng
ĠjiÄģng ĠsÅ«Ġ
ĠtiÃ¡o Ġ
ĠrÃ¬ĠbÄĽn Ġ
ĠdÃł ĠlÃ³u
ĠdÄģng ĠxuÇİn
shÄĵngĠhuÃ³ Ġ
juÃ© ĠsÃ¨
ĠdÃ¬Ġ yÃŃĠgÃ¨
mi ÃłoĠ
ĠhÃ©Ġ gÅįngĠ
Ġ200 2ĠniÃ¡nĠ
x ÇĲĠ
cÃ¨ Ġ
ĠyÃ¬ ĠshÃŃĠ
sh uÃ¬
ĠmÃło ĠyÃ¬Ġ
ï¼ ı
ĠbÃ¹Ġ mÃŃngĠ
ĠyÄ«Ġ xuÃ©
ĠzhÃłn ĠyÃ¬Ġ
ĠchuÃłngĠ zuÃ²Ġ
jÄ«ng ĠlÃ¬Ġ
N Ġ
ĠjÃ¬n ĠzhÇĲ
ĠdÄĵng Ġ
ĠjÃ¹ ĠyÇĴu
ĠjiÃ© ĠzhÃ¬Ġ
Ġb Ãłng
ĠzhÃłn ĠshÃ¬Ġ
ĠshÃŃĠÃ¨r ĠniÃ¡nĠ
Ġt Ä«Ġ
ĠliÃ¨ ĠwÃ¨iĠ
i v
ĠxiÃłn ĠrÃ¨n
gu Äģng
ÇĶ ĠlÃ¬Ġ
ĠĠĠ dÄģng
Ġn Ã¹
ĠsÄ«Ġ lÄģ
Ġmi ÇİoĠ
r an
Ġ Ñ
ĠĠĠ yuÃ¨
ĠdeĠ xÃ¬nĠ
ĠjÃŃĠ dÃł
ĠpÃŃn ĠdÃłoĠ
ĠĠĠdeĠ yÃ³uĠzhÃ¨ngĠbiÄģnĠmÇİĠwÃ¨iĠ
ĠĠĠyÇĶ ĠjiÄĵĠrÇİngĠdeĠshÃ¬ĠzhÃ¨nĠ
ĠĠĠyÃºĠ shÃŃĠdeĠrÃ©nĠkÇĴuĠshÃ¹ĠliÃłngĠwÃ¨iĠrÃ©nĠ
ĠĠĠsuÇĴ ĠshÇĶĠdeĠshÄĽngĠjÃŃĠxuÇİnĠqÅ«ĠwÃ¨iĠ
ĠĠĠdeĠshÃŃĠ qÅ«ĠwÃ¨iĠ
ĠdÃł ĠguÄ«ĠmÃ³
ĠmÇİ ĠlÃ¡iĠxÄ«ĠyÃł
ĠtuÄ« ĠchÅ«
ĠdÃ²ng ĠwÃ¹Ġ
Ġ18 7
ĠmÃłi ĠkÃ¨
ĠdeĠ zhÄ«ĠchÃŃ
Ġb o
ĠjiÃło ĠliÃłnĠ
ĠĠĠ19 2
3 2
ĠzhÃ¬Ġ dÃ¹
ĠzhÃ¨ ĠyÃłng
ĠshÄĵn ĠfÃ¨n
d Ã²u
ĠgÃ²u ĠmÇİi
ĠfÇİng ĠwÃ¨n
tÃŃ ĠchÅ«
chÃ©ngĠ gÅįngĠ
ĠxuÇİn ĠjÇĶ
ĠpÃŃngĠfÄģng ĠgÅįngĠlÇĲ
ĠyÃ¡ ĠlÃ¬Ġ
chÃł ng
Ġle ĠyÃŃĠgÃ¨
ĠdeĠ biÄģn
Ġzh ÄģĠ
gÃ¨ ĠzhÇĴng
zhÃ²ng ĠdiÇİn
ĠshÃ¨ng ĠlÃ¬Ġ
ĠshÃ¬Ġ qÅ«Ġ
N A
p iÃłn
ĠjiÄģng ĠshÄĽng
ĠtiÄģn ĠzhÇĶĠjiÃło
ĠzÄģo ĠdÃło
ĠkÃ¨ ĠlÇĲ
ĠyÇĲĠ hÃ²uĠ
ĠzhÄĵng ĠyÃ¬Ġ
Ġn Ãº
ĠgÇİi ĠgÃ©
ĠshÃŃĠ jiÄģnĠ
Ġzh Å«
ĠrÃ©nĠ yuÃ¡n
Ġ200 3ĠniÃ¡nĠ
ĠshÃ¨ ĠbÃ¨i
ĠshÃ¬ĠwÃ¨iĠ le
ĠdeĠ dÃło
ĠgÃ²ng ĠchÇİn
s Ãº
ji Çİng
19 3
ĠwÄĽi ĠhuÃ¬
b Ãº
ã ĥ
en t
zhu Ä«
xi Äģo
yÃŃ ĠdÃ¬ng
ĠzÇĶ ĠhÃ©Ġ
yÃ¡n ĠzhÃ²ng
ĠchÅ« ĠxiÃłnĠzÃłiĠ
ĠwÃ¨iĠ xÄ«ng
ĠhÃ¡i ĠshÃ¬Ġ
al Ġ
ĠdeĠqÃŃĠzhÅįngĠ yÄ«Ġ
ĠrÃ©n ĠhÃ©Ġ
Ġ18 6
kÄĵ Ġ
Ġh kĠ
qÃŃ Ġ
shu Ãłi
ĠdeĠ chÃ¡ng
ĠxÄ« ĠyÇĲnĠ
5 ĠrÃ¬
d Ä«
nÇļ ĠxÃ¬ng
ĠdeĠ zÇĴng
ĠzÃłiĠ wÃ¨iĠ
ĠmÃ¡o ĠqiÃº
jÇĶĠ xÃŃngĠ
k Çİi
bÅį ĠlÃ¡n
Ġp Çİo
ĠgÅįngĠ mÃŃn
Ġm Ã¡ng
lu ÇİnĠ
ĠlÃ¬Ġ shÇĶ
ĠĠĠ201 1ĠniÃ¡nĠ
chÄĵng ĠwÃ©iĠ
ĠshÃ¬Ġ chÃ¹
jÃ¬Ġ xÃ¹
ĠjÄ« ĠxiÃ¨
ĠhÃ©Ġ gÇĶ
ĠÄĽr ĠshÄĽngĠ
ĠjÄ«Ġ guÄģn
qu ÃłnĠ
ĠtiÄģn ĠwÃ©n
fÃ¨n Ġ
ĠwÇĶ ĠniÃ¡nĠ
20 ĠshÃ¬ĠjÃ¬Ġ
ĠjÅ«n ĠzÃłiĠ
biÃ© Ġ
ĠlÃ¼Ã¨ Ġ
ĠtÄģĠcÃ©ng ĠdÃłiĠbiÇİo
w Çİ
3 4
Ġch Äģng
ĠbiÄģn ĠhÃło
ĠyuÃ¡n ĠhÃ©Ġ
ĠzhÅįng ĠshÃ¬Ġ
dÇĲ ngĠ
ĠdÃ¬Ġ 1
yÇĲng ĠxiÇİng
ĠwÃ¨iĠ jÄ«
ĠÃło ĠmÃ©n
tu Ä«Ġ
ĠwÃ©iĠ zhÇĶĠ
ĠyÃ¹n Ġ
shÃ²u ĠdÃło
ĠzÃłiĠ nÃł
ĠdeĠ shÃ¨ng
ĠjiÃło ĠhuÃ¬
ĠwÃº ĠxiÃłnĠ
ĠdeĠ qÄ«ng
ĠzÃłiĠ rÃ¬ĠbÄĽn
ĠyÃ¡nĠjiÅ«Ġ suÇĴ
ĠfÃ¹ĠzÃ© ĠguÇİnĠxiÃ¡Ġ
8 ĠrÃ¬
guÄģn ĠxÃ¬Ġ
nÃŃ Ġ
ĠgÄĵ ĠqÇĶĠ
ĠguÇİngĠ chÇİng
ĠjiÃłnĠzhÃ¬Ġ dÃ¬ĠqÅ«Ġ
ĠjiÃłn ĠyÃ¬Ġ
ĠyÇĲĠ bÃ¨i
ĠbÃ¬ng ĠlÃ¬Ġ
ĠyÃŃ ĠdÃ¹
guÄģn ĠfÄģng
ĠÃłoĠ yÃ¹n
ĠsÇĲĠ wÃ¡ng
ĠzhÃ¨ ĠcÃ¬
ĠdiÃłn ĠtÃ¡i
ĠĠĠ bÄģ
xiÄģng ĠduÃ¬
ĠyÇĶ ĠqÃŃ
ĠqÄ«ĠxÄ« ĠzÃłiĠ
Ã¡ Ġ
ĠyÄ«ng ĠgÄģi
yuÃ¡n ĠniÃ¡nĠ
xiÇİo ĠshuÅį
yÇİn ĠchÃłngĠ
ĠdÃłĠ qÅ«
ĠmÃ³ Ġ
ĠbÃło ĠdÃłoĠ
ĠĠĠ201 0ĠniÃ¡nĠ
ĠshÃŃĠjÃ¬Ġ shÃłng
jiÃ© ĠmÃ¹Ġ
mÃ©i ĠyÇĴu
B C
c ÃŃ
ĠĠĠ zhÅįngĠguÃ³Ġ
ĠmÃ¬ Ġ
ĠxiÅ«Ġ gÇİi
zhÃłn ĠdÃ²u
fÃ¹ ĠqÄ«nĠ
qÇĶ Ġ
ĠÄģnĠ pÃ¡i
ĠyÄ«Ġ bÃ¹Ġ
ĠdeĠc Ã¡i
ĠdÃł ĠzhÃ¬Ġ
w ÄĽn
en Ġ
zhu Ã³
tiÄģn ĠwÃ©n
ĠzhÅįngĠ bÃ¨i
r u
jiÃ© ĠgÃ²u
ĠjÄ« ĠbÃłiĠ
Ġxi ÇİnĠdeĠ
ĠjiÃ© ĠkÃ¨
ĠĠĠyÇĲ ĠxiÃł
ĠbÃ¹Ġ shÇİo
xiÄģngĠ dÄģng
e w
ĠyuÃ¨ ĠdeĠ
Ġ8 0
tiÄģn ĠjÄ«n
ĠyÇĴuĠ jÄ«
ĠĠĠ chÅ«
zuÃ¬ ĠhÃ²u
ĠgÅįngĠ zhÃ²ng
5 5
yu ÄģnĠ
ĠbÃ¹Ġ jÇĲnĠ
ĠĠĠ chÃº
ĠxÃŃngĠ chÄĵ
c eĠ
wÄĽi Ġ
ĠshÄ« ĠqÃ¹
t Ã¡ng
bÇĲ ngĠ
ĠgÅįngĠ rÃ©nĠ
ĠyÄ«ng ĠgÃ©ĠlÃ¡n
z Äģo
ĠĠĠ jiÃłn
20 Ġ
ĠgÄĵ ĠshÇĴu
ĠjÄ« ĠdeĠ
ĠĠĠ 8
ĠzhÅįngĠgÃ²ng ĠzhÅįngĠyÄģngĠ
guÇİn Ġ
sÃ¹ ĠdÃ¹
ĠzhÇĲ ĠchÅ«
ĠbÅį ĠlÃ¡n
a sĠĠĠ
ĠhÃ©Ġ chÃ©ngĠ
ĠdÃ¬ĠqÅ« ĠdeĠ
ĠshÃ¬Ġ gÅįngĠ
ĠdÃ¬Ġ yÃł
ĠgÇĶ nĠ
L Ġ
Ġn ÃłiĠ
ĠzhÇĶ ĠtÃŃ
or Ġ
b ÄģngĠ
ĠzuÃ¬ ĠzÇİo
ĠshÅ« ĠguÇİn
pi ÄģnĠ
z Å«n
huÃ¬ ĠyÃ¬Ġ
ĠyÄ«Ġ jÃŃĠ
ĠguÃ² ĠchÃ©ngĠ
ĠĠĠzh Ġ
10 ĠniÃ¡nĠ
ĠyÃ¬ ĠrÃ©nĠ
ĠbÅį ĠchÅ«Ġ
ĠfÄģnĠ yÃ¬
Ġp Äĵn
ĠzÃłiĠ19 7
shÄĵn ĠfÃ¨n
Ġg ÇİoĠ
Ġk uÃ¬
ĠlÇĲ ĠdeĠ
ĠjÄ« ĠjÃŃĠ
ĠzhÃŃ ĠxÃŃngĠ
ĠshÃ¹ ĠwÃ¨iĠ
ĠzhÄ« ĠzhÅįngĠ
ĠpÃºĠtÃ¡o ĠyÃ¡
xu Ã¡nĠ
diÃłn Ġzi
ĠkÄģiĠshÇĲ Ġ
wÇİng ĠluÃ²
ĠwÃº ĠrÃ©nĠ
ĠĠĠgÄĵn ĠjÃ¹Ġ
ĠzhÃł i
ĠqiÃ¡o ĠzhÃ¬Ġ
ĠshÇİnĠ xÄ«
xiÃł ĠwÇĶ
gÄģo Ġ
ĠÃło ĠdÃłĠlÃ¬ĠyÃł
ĠdeĠ biÃłn
Ġw Äĵng
ĠyÇĴuĠ liÇİng
ĠjiÃłn ĠzÃło
p ÃŃn
y Ã©
ĠyÃ¬ ĠyÃ¬Ġ
ĠfÄĵng ĠgÃ©
ati on
k Äĵng
ĠkÄĽĠnÃ©ng ĠhuÃ¬
ĠdeĠchÃ©ngĠ yuÃ¡nĠ
ĠshÃ¨ ĠshÄ«Ġ
ĠdeĠ dÄģn
ĠdeĠ mÇİ
ĠmÄĽi ĠnÃŃĠyÃł
ĠzhÇĲ ĠhuÄ«
ĠlÃ¬Ġ fÃº
ĠrÃ¡n ĠhÃ²u
ĠdÃ¬Ġ qÄ«
ĠzhÃ¬Ġ zÃło
ĠcÃ©ng ĠzÃłiĠ
ĠbÃ¹Ġ bÄ«ng
ĠyÄ«Ġ xiÇİo
Çİo ĠzhÃłn
ĠqÇĶ ĠdÃłi
ĠfÃłngĠ qÃ¬
xÃ¬ĠtÇĴng Ġ
zhu Ä«Ġ
dÃ© Ġ
nÃ©ng ĠgÃ²u
bÃło ĠgÃłoĠ
ĠyuÃ¡nĠ zÃ¬
ĠlÃŃn ĠshÃŃĠ
dÃ¬Ġ qÅ«
ĠwÃ¨iĠ yÃº
ĠchÄĵ ĠliÃłng
ĠfÇİnĠyÃ¬ng Ġ
ĠĠĠ zhÃ¹
ĠzuÃ¬ Ġ
ĠyÇĶnĠ xÇĶĠ
ĠĠĠjiÄģĠ zÃºĠ
shÃŃĠ qÄ«Ġ
ĠÄĽr ĠtÃ¨
Ġ3 00
Ġdi ÄģnĠ
6 4
qi ÇİnĠ
ĠyÄĽ ĠbÃ¨i
ĠC Ġ
ĠdeĠk Åįng
c u
ĠrÃ©nĠ wÃ¹Ġ
ĠĠĠ 7
ĠĠĠ cÄģn
ĠwÃ©n ĠmÃŃngĠ
nÇļ ĠzÇĲĠ
ĠdeĠ jiÄģo
ĠzhÃ¬Ġ lÃ¬Ġ
ĠyÃ²u ĠmÃŃngĠ
tÃ³ng ĠyÄ«Ġ
h i
ĠwÃ¨iĠ xÄ«n
ĠzhÇĶ ĠrÃ¨n
ĠqÃŃĠzhÅįngĠ bÄģoĠkuÃ²
ĠshÃ¬ĠyÄ«Ġ kÄĵ
S t
Ãło ĠdÃłĠlÃ¬ĠyÃł
bÃ¬ng Ġ
g Ãło
jÄ« ĠchÇİng
ĠbÃ³ Ġ
ĠshÃ¬Ġ duÃ¬
ĠjiÃłn ĠchÃ©ngĠ
ĠjÄ«ng ĠshÃ©nĠ
tÇĴng ĠjÃ¬Ġ
ĠxiÃł ĠxiÃ¡
Ġ202 4ĠniÃ¡nĠ
ĠwÃ¨iĠ 2
ĠjÄ«ng ĠlÃ¬Ġ
ac k
ĠzhÅįu ĠniÃ¡nĠ
2020ĠniÃ¡nĠ mÄĽiĠguÃ³ĠrÃ©nĠkÇĴuĠpÇĶĠchÃ¡ĠdeĠshÃ¹ĠjÃ¹Ġ
xi Ã¹
an d
ĠbÃ¡i Ġ
ĠdeĠ kÃ¨
ĠzhÄ« ĠyuÃ¡nĠ
tuÃ¡nĠ tÇĲ
xiÃłn ĠdÃłi
y Ã¡o
Ġs Äģ
ĠyÄ«ĠyuÃłn Ġ
chÃŃ ĠxÃ¹
jÃº Ġ
ĠdeĠ shÄ«
ĠhÃº ĠnÃ¡n
- -
Ãło ĠmÃ©n
ĠhÃ©Ġ dÃł
Ġ4 5
ĠdÃ¬Ġ yÄ«
ĠkÄĵ ĠjÃ¬Ġ
O S
le ĠyÄ«Ġ
chÃ¡ i
fÄģng ĠshÃ¬Ġ
ĠnÇļ ĠzÇĲ
yÃ¬ng Ġ
duÅį ĠgÃ¨
ĠdÃł ĠxÄ«ĠyÃ¡ng
ĠsÄ« ĠdÃ¬Ġ
1 ĠrÃ¬
mÃŃn ĠguÃ³Ġ
ĠbiÇİo ĠyÇİn
Ġr ÇİnĠ
Ġchu ÄģngĠ
ĠgÅįngĠ chÇİng
e d
ĠdeĠ chuÃ¡n
ĠdeĠ fÄģĠzhÇİnĠ
ĠtÃ³u ĠrÃ¹
ĠlÃ¬ĠshÇĲ ĠshÃłng
i d
ĠdeĠ guÃ³Ġ
ĠxiÇİo ĠshuÅį
ĠzÄ« ĠyuÃ¡nĠ
ĠlÃ¡o ĠdÃ²ng
hu Ã¡n
ĠdeĠ wÄĵi
ĠbÃ¬ng ĠrÃ¹
ĠdÃłn ĠyÃ³uĠyÃºĠ
ĠĠĠzÇİo ĠniÃ¡nĠ
ĠguÄģn ĠzhÃ²ng
ĠshÃ¬Ġ zuÃ¬
ĠyÃ¬ ĠzhÅįngĠ
ĠpÃ²Ġhu ÃłiĠ
ĠyÄģoĠ qÇĲngĠ
zhÄĽng ĠgÃ¨
ĠchÃ¡ nĠ
ĠrÃ¨n ĠwÃ¹
ĠxÄ«ng ĠjiÃłn
ĠmÃŃngĠchÃ¡o ĠzhÃ¨ngĠzhÃ¬ĠrÃ©nĠwÃ¹Ġ
dÅįng Ġ
yÇİn ĠyuÃ¡nĠ
cÄģn ĠjiÄģ
zhÅįngĠ yÄģngĠ
ĠdeĠ jÃŃĠ
ĠshÃ¬Ġ zhÇİng
Ġk ÇĶĠ
Ġzh Äģi
ĠjÅ«n ĠwÃ¨iĠ
ĠxÄ«n ĠjiÄģĠpÅį
ĠchuÃłngĠ bÃłn
x Ãº
ĠgÇİi ĠbiÃłn
Ġ7 0
rÃ¨n ĠwÃ©i
ĠdeĠ hÃ²uĠ
ĠdeĠ gÃ¹ĠshÃ¬Ġ
ĠchÅ« ĠqÄ«
x ÃŃ
nÃ³ng ĠyÃ¨
p er
zhu ÃłnĠ
ĠshÃ¬Ġ rÃ©nĠ
ĠbÃ¹Ġ lÇĲ
ĠgÄģo ĠzhÅįngĠ
ĠkÄģi Ġ
zhÅįngĠhuÃ¡ ĠmÃŃnĠguÃ³Ġ
ĠyuÃ¡nĠ mÃŃng
Ġqi Ãł
ĠcÃ¡i ĠzhÃ¨ng
ĠÄģnĠ dÃ©
ĠwÃ¡ng ĠguÃ³Ġ
Ġs ÇİnĠ
ĠyÃŃn ĠhÃ¡ng
ĠdÃ¬Ġ 2
ĠlÃ¬Ġ bÃ¹Ġ
ĠsÄ«Ġ lÃŃn
ĠnÃ¡n ĠzhÃ¬Ġ
ĠbiÇİo ĠdÃ¡
xiÃłĠjÃ¬Ġ ÃłoĠlÃŃnĠpÇĲĠkÃ¨ĠyÃ¹nĠdÃ²ngĠhuÃ¬
ĠrÃ¨n ĠwÃ¹Ġ
ĠzuÃ²Ġ yÃ²ngĠ
Ġsh ÄģoĠ
ĠshÇĲ ĠjiÃłnĠyÃºĠ
ĠbÃ³ ĠtÃ¨Ġ
chÇİn ĠpÇĲnĠ
ĠlÃ¹ ĠyÃ¬Ġ
ĠcÃ¡i ĠnÃ©ng
ĠfÄĵng ĠbÃło
xuÃ© ĠyuÃłnĠ
ĠjiÄģo Ġ
3 9
ĠshÃ¬Ġ yÃºĠ
ĠkuÃłiĠ sÃ¹
ĠdeĠ zhÄ«
ĠpÇĶ Ġ
g ÃłnĠ
ĠwÃ¨iĠ dÃł
Ġk Ã©
ĠdÃłi ĠlÃ¡i
ĠmÇĶĠ sÄ«
wÃ©iĠ ÄĽr
nÇļ Ġ
ĠxÄ« ĠfÄģng
gÃ© Ġ
ĠzhÃ¨ngĠfÇĶ Ġ
ĠxÃºn ĠhuÃŃĠ
6 ĠrÃ¬
ĠshÃ¬Ġ gÃ¨
Ġ3 6
ĠjÃŃ ĠzhÅįngĠ
el l
gÇİi ĠwÃ©iĠ
ĠhÃ©Ġ mÇİ
ĠwÃ¹Ġ zhÇĴngĠ
ĠpÇĶ ĠtÅįng
Ġqu ÃłnĠ
A S
ĠjÃ¬ĠshÃ¹ Ġ
ĠjÃŃĠ zhÅįu
ĠliÃ¨ ĠchÄĵĠ
ĠwÃ¡ng ĠchÃ¡o
ĠyÄ«ĠsÄ« ĠlÃ¡n
ĠhÃ©Ġ shÃŃĠ
ĠyÄ«Ġ tiÃ¡o
ĠĠĠ200 8ĠniÃ¡nĠ
bÃ¬ĠyÃ¨ ĠyÃºĠ
ĠĠĠ zhÃłn
ĠdÅįu ĠhuÃ¬
ĠwÃ¡n ĠzhÄĽng
ĠjiÄģng ĠhuÃ¬
ĠzuÃ²Ġ jiÄģĠ
ĠwÃ©i ĠyÄ«Ġ
ĠsÃ²ng Ġ
7 ĠrÃ¬
z ÇĲĠ
ĠhÃ©Ġ hÃ©Ġ
ĠyÃºĠ19 3
4 4
zhÃ¨ ĠzhÇĴng
ĠjiÃło ĠtÃ¡ngĠ
ĠqiÃ¡n ĠlÃ³ng
ĠxÃ¬nĠ xÄ«
ĠdeĠ rÃ¨n
ĠlÃºn ĠbÇĲĠyÃł
ĠzhÃłn ĠzhÄĵngĠ
ĠjiÄģng ĠjÅ«nĠ
jiÃ¹ ĠshÃ¬Ġ
ĠdeĠ dÅįng
ĠyÄ«ng Ġ
ĠbÃ¹ĠduÃ¬ Ġ
jÃ¹ ĠyÇĴuĠ
ĠzÃłiĠ nÃ¡n
ĠyÇĲĠ lÃ¡iĠ
ĠjiÃło ĠqÅ«Ġ
ĠcÄģn ĠmÃ³u
Ġ199 9ĠniÃ¡nĠ
ĠxiÃ³ng Ġ
sÇĲĠ wÃ¡ngĠ
ĠfÇİ ĠÃłnĠ
ĠwÃ¨iĠ zhÇĶ
quÃ¡n ĠlÃ¬Ġ
suÇĴ ĠyÇĴu
ĠdeĠ jiÄģĠ
n Ã¬
dÃ¬ng ĠyÃ¬Ġ
s p
Çİo ĠjiÄĽ
guÃ² ĠqÃ¹
ĠdeĠ qÃŃ
Ġt Åįu
ti c
ĠdeĠ sÃ¬
Ġp Ã³
hÄĽn ĠduÅį
fÄģ ĠxÃŃng
qÇĲ ng
dÄĽng ĠrÃ©nĠ
ĠhÇİi ĠÃłnĠ
y Çİng
ĠĠĠS t
diÃłnĠshÃ¬Ġ tÃ¡i
o h
chÅ« ĠxiÃłnĠ
ĠlÃ¬Ġ rÃ¨n
ĠjiÃ¨ ĠquÃ¡nĠguÃ³Ġ
ĠtuÃ¬ Ġ
Ġqu ÄģnĠ
ĠdeĠyÄ«Ġ zuÃ²Ġ
zuÇĴ ĠyÃ²u
Ġ2001ĠniÃ¡nĠ rÃ©nĠkÇĴu
ĠchÃ©ngĠ xÃ¹
ĠpÃ¡i ĠmÃŃngĠ
yÃ¹nĠdÃ²ng ĠyuÃ¡nĠ
ÇĶ ĠdÃ¬Ġ
ĠĠĠ of
ĠwÃ¨iĠ qÃŃ
ĠchÇİn ĠyÃ¨
ĠwÇİng Ġ
ĠpÇĶ ĠbiÃłn
ĠyÃ¬Ġ yuÃ¡n
ĠÃ© Ġ
sh ÇİnĠ
gÅįngĠ chÃ©ngĠ
ĠdeĠhu Ã³
ĠA Ġ
Ġ199 8ĠniÃ¡nĠ
ĠchÅįng ĠtÅ«Ġ
4 ĠrÃ¬
ĠzÃłiĠ xiÄģngĠgÇİng
ĠzhÅįngĠ guÃ³
ĠyÄ«Ġ liÃ¡o
ĠguÇĲ ĠdÃłoĠ
ĠjÃ¹ ĠjÃŃĠ
ĠjiÄĵ ĠjÃ¬n
ĠchÃ¡ i
ĠpÃ¨i Ġ
ĠyÃºnĠ nÃ¡n
ĠguÄģn ĠchÃ¡
v er
Ġy Äģo
1 ĠyuÃ¨Ġ1ĠrÃ¬Ġ
ĠshÃ¬Ġ yÄ«nĠwÃ¨iĠ
ĠmÇĲ ĠÄĽr
ĠzÄĵng ĠjiÄģ
ĠĠĠ qiÃ¡n
ĠĠĠ shÃ¨ng
ĠdÃł ĠxÃŃng
ĠbiÇİo ĠxiÃłn
shÄģn ĠdÅįng
ĠzÃłiĠ bÄģ
ĠbÃ¹Ġ zÃº
Ã¨r ĠniÃ¡nĠ
ĠbÃłn ĠdÇİo
Ġ à
Ġchu ÃłnĠ
guÇİngĠ zhÅįu
ĠzhÃ¬Ġ dÃ¬ng
8 5
ĠdÃłĠ fÃº
ĠmÇĴu ĠxiÄĵ
ĠwÃ©n ĠwÃ¹ĠbÇİoĠhÃ¹ĠdÄģnĠwÃ¨iĠ
Ġ10 Ġ
ĠlÇļ Ġ
9 5
zhÃ²ng Ġ
ĠdÄĵng ĠlÃ¹
ĠdÅįu ĠyÇĴuĠ
ĠzhÅįngĠguÃ³ĠrÃ©nĠmÃŃn ĠjiÄĽĠfÃłngĠjÅ«n
c Å«nĠ
ĠjiÇİnĠ shÇİoĠ
ĠdeĠf ÃłnĠ
shÃ²u Ġ
ĠchÃ©ngĠ kÃ¨
ĠtÄģ ĠyÇĶĠ
ĠpÃŃngĠfÄģng ĠmÇĲĠ
ĠzÃłiĠ19 6
ĠdeĠdÃ¬Ġ fÄģng
ĠshÄĵngĠhuÃ³ Ġ
ĠdeĠ rÃ¬
ĠshÃ¬Ġ yÃłnĠ
ĠtÃ³ng ĠyÃ¬Ġ
ĠyuÃ¡n ĠshÃ¬Ġ
ĠdeĠguÄģn ĠxÃ¬Ġ
k ÄģngĠ
ĠtÇĲ ĠxÃ¬
ĠwÃłnĠ lÃ¬Ġ
ĠĠĠ202 5ĠniÃ¡nĠ
ĠzhÃŃ ĠmÃŃn
chuÃłngĠ zuÃ²Ġ
f f
ĠzhÃłn ĠhÃ²uĠ
ĠbÃ¬ng ĠmÃ©iĠyÇĴuĠ
chÇĶĠ lÇĲ
ĠĠĠ zhÃ¨ng
201 6ĠniÃ¡nĠ
ĠjuÃ© ĠsÃ¨Ġ
4 7
ĠĠĠ tÃ¨
ĠzhÅįu ĠbiÄģn
wÄĽiĠyuÃ¡nĠhuÃ¬ Ġ
gÄģo ĠsÃ¹
ĠxÄ«Ġ jiÄĵ
jÇĲngĠ chÃ¡
yÄ«ng ĠwÃ©n
ĠjiÇİngĠ shÃ¹
Ġ9 0
ĠĠĠ200 9ĠniÃ¡nĠ
t Å«Ġ
liÃ¨ Ġ
ĠĠĠ xiÃł
ĠdeĠ mÄĽi
zuÃ¬ ĠhÃ²uĠ
Ġz Ã¨ngĠ
ĠdeĠ shÃ©nĠ
ĠyÄ«Ġ chÃ¡ng
ĠjiÄĵĠr ÇİngĠ
tÃłi ĠpÃŃngĠyÃ¡ng
wÄĽi ĠshÅ«ĠjÃ¬Ġ
gÄĵ ĠqÇĶ
ĠjÃŃĠ lÃ¬Ġ
Ġs Äĵng
ĠfÄģ ĠqÇĲ
ĠtÃ¨ ĠshÅ«
ĠxÃ¹ Ġ
n Çİi
ĠdeĠ liÃ¡n
ĠzÃłiĠ19 4
ĠÃ©rĠshuÇĲĠyÃ¹ĠmiÃłnĠjÄ«ĠwÃ¨iĠ 0
ãĥ »
Ã Ĺ
ĠyÄ«Ġ zhÄ«
ĠzhÃ¬ ĠwÃ¨iĠ
ĠĠĠ yÄ«n
ĠĠĠ qÄ«ng
tuÄ« ĠchÅ«
f Ã¨ngĠ
t Ã¡n
ĠĠĠ Ã©r
Ġr Ã³u
ĠkÃ¨ ĠlÃ¡i
ĠxÄ« ĠwÃłng
ĠdÄģng ĠjÃº
ĠdeĠwÃ¨iĠ zhÃ¬Ġ
wÃ¡nĠ quÃ¡n
cÇĲ Ġ
ĠdeĠ shÅ«
ĠyuÃ¡nĠ lÃ¡i
ĠliÃ¡n ĠhÃ©ĠguÃ³Ġ
Ġchu ÃŃĠ
ĠdÄ«ng Ġ
fÄĵn ĠbÃ¹Ġ
dÃ¡ Ġ
ĠĠĠ zÄĵng
yÃŃ ĠzhÃ¬Ġ
zhÃŃ ĠxÃŃngĠ
ĠmÃ³ ĠxÃŃngĠ
ĠĠĠ fÃº
ĠnÃ©ng Ġ
Ġw ÄģĠ
ĠzhuÄģnĠ mÃ©n
xi Ã¡
yÃł Ġ
sÃ¬ ĠniÃ¡nĠ
xiÇİo ĠshuÅįĠ
ĠxuÃ© ĠhuÃ¬
ĠyÃ²ng ĠhÃ¹
ĠtÇĴng ĠyÄ«Ġ
ĠĠĠdÃ¬Ġ Ã¨r
y ÃłnĠshÃ¬Ġ
ĠshÃ¬Ġ yÃ¨
ĠÃ©rĠgÄģi ĠdÃ¬Ġ
Äģn ĠzÃłiĠ
ĠwÄĵi ĠliÃ¡n
ĠjiÇİnĠ shÇİo
ĠxuÄģnĠ chuÃ¡n
ĠdeĠlÇĲ ngĠ
t Çİ
zhÃ ¡
ĠbÃ¹Ġ zhÄ«
chÃ©ngĠ wÃ©i
ĠzÃ¬ ĠmÇĶĠ
y Ãłng
ĠyÃ¬ ĠyÇĴuĠ
Ġ15 0
ĠbÃ¹ĠtÃ³ng ĠdeĠ
ĠtÃ¨ĠbiÃ© ĠshÃ¬Ġ
B A
ĠyÄĽ ĠhuÃ¬
ĠĠĠ 12
nÃ©ng Ġ
ĠgÄģo ĠdÄĽng
ĠzhuÄģnĠ jÃŃ
yÃ³u Ġ
pÇĶ ĠtÅįng
ĠzÄ« ĠgÃ©Ġ
gÄģi ĠdÃ¬Ġ
gÇİi ĠgÃ©
ĠzhÄĽng ĠtÇĲ
b Çİ
ĠĠĠ yÃ¡n
ĠĠĠ xiÄģngĠgÇİng
ĠdeĠ zhÃ²ng
ĠquÃ¡n ĠmiÃłn
ĠdeĠ lÃ¬ĠshÇĲ
ĠbÃ¹Ġ lÃ¡i
ĠmÃ² ĠsÄ«ĠkÄĵ
ĠÃłnĠ jiÃłn
ĠpÃ¨i ĠhÃ©Ġ
ĠrÃ¨nĠmÃ¬ng ĠwÃ¨iĠ
ĠcÄģn ĠsÃłi
ar i
ĠdeĠshÃ¬Ġ jiÃ¨
ĠhÃ¡o ĠmÇĲ
ĠzhÅįngĠ zuÃ¬
ĠdÄĽng ĠwÃ¨iĠ
ĠdeĠ fÇİ
dÃ¬Ġ ÄģnĠ
ĠyÄ«Ġ dÃłi
ĠzuÃ²Ġ yÃ²ng
ĠxiÃłnĠ chÇİng
ĠxiÇİo ĠzÇĶ
ĠxÃ¹nĠ sÃ¹
g Ġ
lÃŃn ĠshÃŃĠ
d ÃŃ
ĠsÄ« ĠkÇİĠ
ĠsÄ«Ġ mÇİ
e a
jÄ«ng ĠjÃ¬
ĠdeĠ jÄ«n
ĠshÃ¨ ĠjÃŃĠ
ĠtiÃ¡n Ġ
ĠdeĠqÃŃĠzhÅįngĠyÄ«Ġ zhÇĴngĠ
B S
Ġ194 9ĠniÃ¡nĠ
guÃ² ĠchÃ©ngĠzhÅįngĠ
ĠÃłnĠ zhÃło
xuÄģnĠ chuÃ¡n
d ÃłngĠ
nÃ¨i ĠlÃ¹
wÃº ĠxiÃłnĠ
ĠdÃł ĠwÃ¨iĠ
ĠxiÃ© ĠhuÃ¬Ġ
ĠÃ©r ĠfÄĵi
ĠbÄĽn ĠshÄĵn
ĠshÅįu ĠrÃ¹
r ÃłoĠ
ĠÃ¨r ĠshÃ¬Ġ
gÃ²ng ĠyÇĴuĠ
ĠwÃ¨iĠ duÃ¬
ĠbÃłn ĠgÅįngĠshÃ¬Ġ
Ġy Äĵ
â Ķ
ĠshÃŃĠ dÃłiĠ
ĠwÄĵi Ġ
ĠzhÃ¬Ġ shÇİo
ĠjiÃło ĠyÃ¹Ġ
shÇĲ Ġ
ĠyÇĶ ĠzhÅįngĠ
ĠkÃ¨ ĠchÃ©ngĠ
ĠrÃ©nĠkÇĴuĠmÃ¬ĠdÃ¹ĠmÄĽi ĠpÃŃngĠfÄģngĠgÅįngĠlÇĲ
e x
s ÄģngĠ
zhu Ãłng
ĠcÃ¬ ĠniÃ¡nĠ
ĠjiÃ¨ ĠshÃło
Ġ199 7ĠniÃ¡nĠ
Ġd Å«ĠshÃ¬Ġ
ĠbÃ¨i ĠpÃ²
ĠlÃ¨ Ġ
ĠguÄ«Ġ dÃ¬ngĠ
ĠkÄģngĠ xÄ«
lÄģ Ġ
ĠnÃ¡n ĠbÄĽi
ĠtÃ³u ĠpiÃłoĠ
ĠbÇĲ ĠrÃº
ĠdeĠ qÇĲ
ĠshÃ¬ĠjiÃ¨ Ġ
ĠxÃŃĠ xÃ¬ng
ĠgÄĽi Ġle
ĠmÇİnĠ zÃº
ĠjÃ¬ĠzÇİi Ġ
ĠtÅ« ĠpÃ²
ĠĠĠ 9
Ġhu ÄģngĠ
U Ġ
ĠshÄĵng ĠchÄĵng
jÇĶ ĠrÃ©nĠ
c i
xi Ã¡ngĠ
su ÃŃ
ĠyÃ¬ ĠhÃ©Ġ
ĠtÃ³ng ĠyÃłng
ĠkÇİ ĠÄĽr
yÇĲng ĠpiÃłn
ĠyÇĲnĠ rÃ¹
ĠcÇĲ ĠcÃ¬
k ÄĽn
Ġp ÇĲĠ
ĠjiÄģ ĠtÃŃngĠ
y Äģ
bÃ¹ ĠzÃłiĠ
ĠdeĠwÃ¨n ĠtÃŃĠ
lÃ¡n Ġ
ĠcÃ¨ ĠshÃ¬Ġ
ĠpÅį Ġ
zhÃ¨n ĠqÅ«Ġ
ĠdeĠ zhÄĵn
rÃ©nĠ dÃł
ĠhuÃ¡ngĠ jiÄģĠ
ĠshÃ¨ ĠshÄ«
ĠxiÅ«Ġ jiÃłn
ï¼ ħ
ĠdeĠ niÃ¡n
ĠhÃ²uĠ bÃ¨i
ĠlÃ¬ĠshÇĲ Ġ
ati onĠ
Ġc Åįng
Ġc Äģo
ĠzhÃ¨ng ĠzhuÃłng
xiÃłng ĠmÃ¹
ĠzhÇĶ ĠzhÄģng
zh Äģo
ĠbÃ¹Ġ bÃ¹Ġ
ĠsÃ¹ ĠdÃ¹
ĠbÃ¹ĠguÃ² Ġ
mÃŃn ĠzhÃ²ng
cÃ©ng ĠjÄ«ng
ĠcÃºn Ġ
ĠdÃ¬ ĠshÃ¬Ġ
ĠzhÃŃ ĠxÃŃng
ĠguÃ² Ġ
ĠgÄĵn Ġ
ĠdeĠgÅįngĠ zuÃ²Ġ
ĠfÄģĠxiÃłn Ġle
ĠhÃ©Ġ fÇİ
ĠzhÃ¬Ġ liÃłng
ĠjÄ« ĠdÅ«ĠjiÃło
zhuÄģnĠ yÃ¨
ĠshÃ¬ĠzhÅįngĠ huÃ¡
yÃ¡ng Ġ
ĠshÃ¬Ġ xiÄģngĠgÇİng
Ġd Äģo
Ġgu Ãłi
ĠshÃŃ ĠzÃłiĠ
âĶ Ģ
ĠdeĠ yÄ«n
ĠdeĠ xuÇİn
ĠwÃ¨iĠ m
ĠkÃ¨ ĠluÃ³
ĠzhÅįngĠguÃ³ĠgÃ²ngĠchÇİn ĠdÇİngĠ
yÄ« ĠshÃ¬Ġ
gÄĵ ĠqÇĶĠ
mi Ãło
ĠdeĠ xiÃło
ĠzhÅįngĠ jiÄģn
ĠshÃ¨ ĠyÇĴu
ĠfÄģ ĠdiÃłn
Ġ3 8
ĠbiÃłn ĠhuÃł
ĠsÄ«ĠtÃ¨ Ġ
ĠchÃ³ng ĠqÃ¬ng
ĠchÅ« ĠrÃ¹
ĠfÃ¡ Ġ
S TĠ
t Ã¡nĠ
ĠchÅ«Ġ kÇĴu
Ġ199 4ĠniÃ¡nĠ
ĠĠĠ suÃŃĠ
shÃ²u ĠshÄģngĠ
ĠdeĠ shÃłng
ĠmÃ¹ ĠdÃ¬Ġ
ĠyÃ¹n ĠyÃŃngĠ
ĠÄģĠlÄģ ĠbÃ³
201 2ĠniÃ¡nĠ
gÃ²ng ĠhÃ©ĠguÃ³Ġ
shÃ²u ĠdÃłoĠ
sÃ¬ ĠchuÄģnĠ
ĠfÄĵn ĠzhÄ«Ġ
ĠbiÃłn ĠdÃ©
ĠtÅ«Ġ rÃ¡n
ĠdeĠ yÃ¹
K Ġ
ĠyÇĴu ĠxiÃłnĠ
ĠÃ©r Ġzi
ĠrÃ¹ ĠqÄ«nĠ
ĠliÇİng ĠniÃ¡nĠ
bÃ¬ng ĠdÃº
ĠdÃ¬Ġ zhÃ¨n
ĠsÄ«Ġ tuÅį
ĠdÃłĠ xiÇİo
ĠzhÃ¨n ĠqÅ«Ġ
Ġ18 5
ĠdeĠhu ÇĴ
ĠtuÃ¡n ĠduÃ¬
ĠlÃ¬Ġ kÃ¨
Ġp ÇĴ
Ġr ÃłoĠ
ĠwÃ¨iĠ zÃłiĠ
ĠyuÃ¡nĠ sÃ¹
ĠwÃ¹ ĠzhÃ¬Ġ
ĠhÃ³ng Ġ
ĠshÄĵngĠhuÃ³ ĠxÃŃĠxÃ¬ng
9 9
ĠshÃ¬Ġ bÄģ
ĠdÃ¬Ġ 3
Ġqi Çİng
ĠmÄĽi ĠyuÃ¡nĠ
ĠdeĠxÃŃng ĠshÃ¬Ġ
ĠĠĠ n
dÇİo ĠzhÃ¬Ġ
ĠÃ©r ĠchÃ©ngĠ
e p
ĠbÃ¹Ġ ÄĽr
ĠzÃłiĠ jiÄģĠ
ĠshÃŃĠ duÃłnĠ
ĠguÃ³Ġ wÃ¹ĠyuÃłn
ĠzÇĴng ĠlÇĲ
ĠyÃ¡n ĠshÄĵn
I n
ĠdÃłiĠbiÇİo ĠdÃłĠhuÃ¬
ĠshÃ¬Ġ xÄ«n
ĠlÇĲ ĠkÃ¨
ĠliÃ¨ ĠrÃ¹
ĠdeĠm Ã¬
ĠcÃ¹ ĠjÃ¬n
ĠdeĠ kÄģi
Ġk Ãło
t Ã©ng
shÇĴu ĠdÅ«Ġ
ĠyÃ¬Ġ mÄĽiĠyuÃ¡nĠ
ĠshÄĵngĠhuÃ³ĠxÃŃĠxÃ¬ng ĠbÃ¹ĠmÃŃngĠ
x Å«n
ĠdeĠ qÃ¬
Ġxi Å«
ĠdÃ¬ng ĠyÃ¬Ġ
o d
di ÄģoĠ
ĠpÃłi ĠqiÇİnĠ
200 8ĠniÃ¡nĠ
ĠdÃł ĠdÃłoĠ
ĠyÃ³u ĠqÃŃĠshÃ¬Ġ
ĠgÄģo ĠjÃŃĠ
ĠbÃ³ ĠshÃ¬Ġ
ĠĠĠ lÇĲ
ĠĠĠ chÃ©ngĠ
ti onĠĠĠ
ĠzÃłiĠ shÃŃĠ
ĠjiÇİnĠ dÄģn
al l
huÃ³ ĠdÃ²ng
T V
ĠdeĠ duÅį
ĠĠĠ19 1
ĠfÃłnĠ zuÃ¬
zhÇĲ ĠchÅ«Ġ
mÇİ ĠlÃ¡iĠxÄ«ĠyÃł
fÄĵi ĠzhÅįu
Ġt Ãło
ĠsÄ« ĠjÄ«
ĠyÇĲĠ biÃłn
jiÇĶ ĠniÃ¡nĠ
a in
ĠdeĠ qÄ«
ĠyuÃ¨ ĠzÃłiĠ
ĠbiÇİo ĠmiÃłn
ĠĠĠ 17
ĠdeĠ shuÅį
Ġ5 5
ĠĠĠ suÄ«ĠrÃ¡n
ĠbÃ¬ng ĠyÇĲĠ
ĠwÃłnĠ yuÃ¡nĠ
miÃ¡o ĠshÃ¹
ĠĠĠ mÄĽiĠguÃ³Ġ
ĠshÃ¬Ġ wÅ«ĠkÃ¨ĠlÃ¡n
Ġli ÇĶĠ
z ÇĴu
ĠzhÃ¨ng ĠshÃŃĠ
ĠgÃ²u ĠchÃ©ngĠ
00 Ġ
ĠdÃ¬Ġ bÄģ
ĠzhÃ¨ngĠ chÃ¡ng
ĠyÃŃ ĠchÇİn
ĠyuÃ¡nĠ xÃŃng
ĠmiÃłn ĠduÃ¬
Ġ Ã
ĠyÇĴuĠ guÄģnĠ
ĠsÄ« ĠkÃ¨
ĠĠĠ200 7ĠniÃ¡nĠ
ĠlÃ¬ĠfÃº ĠnÃŃĠyÃł
Çİn ĠwÃ¨iĠ
ĠsÄ«Ġ fÇİ
hÃº nĠ
chuÃłngĠ zuÃ²
ĠdeĠ bÃ¨i
ĠdÃłĠ shÃł
ĠyÄĽ ĠjiÃ¹ĠshÃ¬Ġ
ĠbiÄģo ĠzhÃ¬Ġ
ĠguÃ² ĠchÃ©ngĠzhÅįngĠ
ĠfÃłnĠ wÃ©i
Ġ7 Ġ
ĠguÃ³ ĠhÃ©Ġ
ÄģĠlÄģ ĠbÃ³
10 Ġ
ĠfÄģ ĠchÅ«
nÃ¨i ĠrÃ³ng
ĠyÄ«Ġ duÃłnĠ
Ġch Åįu
ĠbÃ¬ ĠmiÇİnĠ
ĠlÃ¹ ĠxÃ¹
jÃ¬Ġ lÃ¹
ĠtÃŃ ĠshÄĵng
ĠtuÅį Ġ
pÇĶ Ġ
luÃ² Ġ
hÃ¹ Ġ
ĠshÄ« ĠfÃłnĠ
ĠwÃ©i ĠqÃŃ
ĠquÃ¨ ĠdÃ¬ng
ĠfÄĵnĠbiÃ© ĠwÃ¨iĠ
ĠyÃ¬ ĠzÃłiĠ
ĠtÇĲ ng
ĠxiÃ¨ Ġ
ĠĠĠ dÃłn
fÄģ ĠdÃ²ng
ĠshÃ¬Ġ jÄ«
ĠguÄģngĠ xÃ¹
quÃ¡n ĠbÃ¹Ġ
wÇĶ Ġ
ĠdeĠ dÃłi
ĠĠĠ nÃ¡n
ĠmÃ¬ng ĠlÃ¬ng
Ġw Ãłn
ĠduÃ¬ ĠshÇĴu
ĠbÃ¬ng ĠyÃ³u
Ġx ÇĶ
6 8
wÇĶ ĠniÃ¡nĠ
ĠdÃ¬ĠÃ¨r ĠcÃ¬
ĠdeĠcÅ«n ĠzhuÄģngĠ
ĠniÃ¡nĠ dÃłi
Ġ199 2ĠniÃ¡nĠ
ĠzhÃ¨ngĠcÃ¨ Ġ
r ÇĶĠ
wÃ©n ĠwÃ¹ĠbÇİoĠhÃ¹ĠdÄģnĠwÃ¨iĠ
ĠsÄ« ĠtÇİ
ĠdÃ²ng ĠlÃ¬Ġ
ĠtÇĶĠ ÄĽrĠqÃŃ
ĠjiÇĶ ĠlÃ³ng
ĠzhÃ¹ ĠmÃŃngĠdeĠ
ĠxiÄģnĠ hÃ²u
ĠgÅ«Ġ jÃ¬Ġ
ĠĠĠ zhÃŃ
ch ÇĲ
li Ãło
lÄģ ĠkÃ¨
ĠzÃłiĠ yÇĶ
ĠbÃ¬ng Ġ
ĠyuÃ¨Ġ1 ĠrÃ¬
ĠdeĠy Åįu
k Ãłng
ĠdeĠ gÃ¨
Ġl ÃłnĠ
ĠmÃŃng ĠzÃ¬
ĠxÃ¬ng ĠbiÃ©
ĠyÇİn ĠchÅ«
ĠdeĠ liÃº
b er
ĠĠĠ dÃło
ĠgÃ¨ ĠzÃ¬
ĠxiÄģngĠ tÃ³ngĠ
ĠfÄĵi ĠjÄ«
f Ã³
ĠyÇİn ĠchÅ«Ġ
ĠyÃŃ ĠshÃ¬Ġ
ĠyuÃ¡n ĠwÃ¨iĠ
ĠbiÄģn ĠjÃŃĠ
ĠdeĠzhÃŃ ĠwÃ¹Ġ
ĠdÃ¬Ġ 5
ĠgÄģi ĠcÅ«n
ĠdeĠshÄĵng ĠhuÃ³
ĠyÇĶĠyÃ¡n Ġ
ĠqÃ¬ ĠhÃ²uĠ
ĠqÃŃĠzhÅįngĠ nÃ¡nĠxÃ¬ng
t Çİo
ĠniÃ¡nĠ jiÄģnĠ
ĠlÇĲĠ dÃ¡
ĠdÄģng ĠshÃŃĠdeĠ
ni Çİo
dÄģn ĠqÅ«Ġ
Ġt ou
Ġf ÃłnĠdeĠ
ĠzhÄ« ĠwÃ¨iĠ
ĠbÃ¬ng ĠbÃ¨i
ĠzuÃ¬ ĠdÃł
ĠzuÃ² ĠzhÃłn
ĠjÃŃ ĠhÃ©Ġ
ĠĠĠdÃ¬Ġ fÄģng
z Çİo
zhÃł ng
zÇĶ ĠhÃ©Ġ
ĠshÃ¬Ġ chÅ«
ĠjiÄģĠnÃ¡ ĠdÃł
ĠzÄģo ĠdÃłoĠ
Ġhu ÇİnĠ
ĠxuÃ© ĠshÃ¹
ĠtiÃ¡o ĠjiÃłn
ĠbÇĲ ĠdÃ©
ĠtÇĴng ĠjÃ¬Ġ
ĠnÃŃ ĠsÄ«Ġ
n Ãłi
r Ã²u
ĠduÃ¬ ĠcÇĲ
ĠjiÃ©ĠshÃ¹ ĠhÃ²uĠ
a h
ĠwÃ©n ĠhuÃłĠ
ĠwÃ¨iĠfÃºĠqÃŃĠyÃºĠ gÄģng
ĠdÃł ĠshÇĲ
ĠbiÃłn ĠchÃ©ngĠ
ĠĠĠ xÃŃng
ĠĠĠ jÃ¬n
x Ġ
chÃ¡ nĠ
ĠtÄģ ĠwÃ¨iĠ
ĠhÃº ĠbÄĽi
201 8ĠniÃ¡nĠ
ĠzÃłiĠ hÃ©Ġ
ĠhÃ©Ġ dÃło
ĠzÇĴng ĠbÃ¹Ġ
ĠcÄģnĠjiÄģĠ le
ĠyÄ«ĠxiÇİo ĠshÃŃĠ
ĠzhÄ« ĠmÃŃngĠ
ĠfÅ«Ġ rÃ©nĠ
ĠruÃ¬ ĠdiÇİn
xi Ã³ng
liÃ¡n ĠjiÄĵ
bÃłn Ġ
Ġch ÇĴu
ĠshÄĵn ĠtÇĲ
ĠshÃŃĠ yÄ«ĠniÃ¡nĠ
ĠbÃ¨i ĠrÃ¨nĠwÃ©iĠshÃ¬Ġ
ĠyÄĽ Ġ
dÃłiĠbiÇİo Ġ
ĠshÃŃĠsÃ¬ ĠniÃ¡nĠ
ĠkÄĵ ĠxuÃ©Ġ
ĠbÃ¹ ĠlÇĶĠ
ĠrÃº ĠxiÃłĠ
I N
Ġ Z
zÄ« ĠliÃłoĠ
ĠjiÃ¹ ĠdÃº
ĠtÃ¡n ĠpÃłnĠ
ch Äģi
xuÃ© ĠxiÃłoĠ
ti Äĵ
jiÄĵ ĠduÃłnĠ
ĠshÃ¬Ġ bÃ¨i
Ġ3 7
ĠyÇĴng Ġ
yÃ¹n ĠdÃ²ngĠ
201 0ĠniÃ¡nĠ
ĠlÃ©i Ġ
zhÅįngĠguÃ³Ġ dÃłĠlÃ¹
ri c
ĠdeĠxi Ã©
fÃº ĠjiÃłn
ĠĠĠ in
tÇĴng ĠyÄ«Ġ
Ġp Äĵng
ĠyÇĶ ĠmÃ¡oĠqiÃº
ĠdeĠy ÄģoĠ
ĠÃ©r ĠbÃºĠshÃ¬Ġ
ĠjÄ«ng ĠyÃŃngĠ
shuÇĲ Ġ
Ġzh ÇİnĠdeĠ
jiÄģoĠtÅįng Ġ
yÃ¬ ĠshÃ¹
Ġ199 3ĠniÃ¡nĠ
Ġ199 6ĠniÃ¡nĠ
zhÄĵng ĠyÃ¬Ġ
ĠshÇİo ĠshÃ¹
ĠwÄĽn ĠdÃ¬ng
zuÃ¬ ĠchÅ«
201 4ĠniÃ¡nĠ
jiÃ¹ Ġ
ĠshÃ¬Ġ tÄģ
ĠsÄ« ĠhÃ©Ġ
ĠyÃ¹n ĠxÃŃngĠ
ĠkÇİĠ luÃ³
ĠpÃłi ĠchÅ«
zÄĵng ĠjiÄģĠ
ĠzhÅįngĠhuÃ¡ĠrÃ©nĠmÃŃnĠgÃ²ngĠhÃ©ĠguÃ³Ġ zhÃ¨ngĠzhÃ¬ĠrÃ©nĠwÃ¹Ġ
ĠdeĠ jÅ«n
ĠchÄĵng ĠwÃ¨iĠ
ar Ġ
ĠzhÃ¬Ġ dÃ¹Ġ
ĠlÃ¹ nĠdeĠ
dÄģng ĠxuÇİn
tÃ³u ĠrÃ¹
ĠtÄģ ĠhÃ©Ġ
ĠtÃ³ng ĠyÃłngĠ
z Ã¡
ĠĠĠ fÃ¹
ĠgÅįngĠ zhÇĶ
ĠyÄ«Ġ lÃ¬Ġ
ĠjiÃłn ĠzÃłoĠ
ĠtÃŃ ĠgÄģo
ĠdeĠjÄ« ĠchÇĶĠ
rÃ©nĠ yuÃ¡nĠ
Ġgu ÄģĠ
ĠĠĠg ÃłiĠ
ĠbÃ¨i ĠjÇĲngĠ
xiÃło Ġ
Ġl ÇĴng
dÃ¬Ġ guÃ³Ġ
ĠzhÇĶ ĠyÇİn
ĠxiÃłnĠ jÄ«n
ĠsÄ« ĠrÃ©nĠ
ĠzhuÃłngĠ kuÃłngĠ
Ġm Ã¡i
ĠdÄĵng ĠshÃłng
Ġ194 5ĠniÃ¡nĠ
ĠĠĠI n
guÇĴ Ġ
ĠĠĠ jÄ«n
gÅįngĠ gÃ²ng
ĠÄĽr ĠduÅį
ĠliÇİng ĠzhÇĴng
diÃłnĠshÃ¬Ġ jÃ¹Ġ
bÃ¬ ĠxÅ«Ġ
ĠhÄĵng ĠlÃ¬Ġ
ĠshÃ¬Ġ cÃ³ng
ĠwÃ¨iĠ 1
ĠduÅį ĠniÃ¡nĠ
ĠshÃ©nĠ jÄ«ng
i k
Ã¡o Ġ
gÄģo ĠdÄĽng
Ġd ÄģoĠ
ĠbÃło ĠzhÃł
Ġp ÇİoĠ
ati onĠĠĠ
ĠshÄĵn ĠqÇĲngĠ
zhÃŃ ĠwÃ¹Ġ
202 2ĠniÃ¡nĠ
G Ġ
dÄĽng ĠdÃ¬Ġ
ĠmÃŃngĠ dÄģnĠ
ĠxiÇİo ĠxuÃ©Ġ
shÇİo ĠshÃ¹
yÄĽ ĠshÃ¬Ġ
Ġf Ãł
ĠduÃ¬ ĠwÇĶ
ĠwÇİng ĠwÇİng
ĠhÃ¡i Ġ
Ġ7 5
la y
ĠrÃ¹ nĠ
ĠzÃłiĠ xiÃłn
Ġp Ã©n
Ġchu Ã¡ngĠ
shÃ©nĠ me
ĠdeĠ tÃº
zhÃ¬Ġ zuÃ²
ĠrÃ¹ ĠxuÇİn
bÇĲĠsÃłi ĠzhÅįngĠ
ĠzhÃ¨ngĠzhuÃłng ĠgÇİnĠrÇİnĠ
4 9
xi Ã¡nĠ
ĠmÃŃn ĠzhÃ²ng
bÅį Ġ
ĠguÃ³Ġ fÃ¡ng
ĠmÃ¡o ĠzÃ©
wÇİng ĠlÃ¹
ĠdeĠ guÃ³ĠjiÄģĠ
ĠchÅ« ĠzhÃłn
ĠbÃ¨i ĠshÃ¬ĠwÃ¨iĠ
Ġch Ä«
ĠxiÇİng ĠniÃ¡nĠ
ĠdeĠ yuÃ¨
ĠyÄĽ ĠzÃłiĠ
ĠyÃ¨ ĠwÃ¹Ġ
ĠhÃ¨ Ġ
n ÇĲĠ
w ÇİĠ
ĠlÇĲ ĠxuÃ©
ĠjÄ«Ġ chÇİngĠ
ĠxiÄģngĠ tÃ³ng
gÅįng ĠshÃ¬Ġ
jiÄģng Ġ
ĠĠĠ mÄĽi
Ġp Ä«nĠ
ĠfÄĵn ĠlÃ¨i
quÃ¨ ĠdÃ¬ng
ĠzhÄĽn ĠbÃ¬ngĠlÃ¬Ġ
e f
ĠbÃ¹Ġ lÃ¬Ġ
ĠxÇĲ ĠhuÄģnĠ
4 2
ĠĠĠ wÃłi
Ġk Å«Ġ
ĠmÃŃng ĠxiÇİnĠ
ĠshÃŃ ĠshÃ¬Ġ
gu Åį
wÃ©iĠ Äģi
ĠjÄ«Ġ qÃ¬
pÃŃng Ġ
ju ÃłnĠ
ĠdeĠ chÃ©ngĠshÃ¬Ġ
ĠmÃ¹ ĠbiÄģoĠ
ĠpÃ¡i ĠhÃ¡ng
00 ĠmÇĲ
ĠchÃ¡ng ĠshÃ¬Ġ
yÇĶ ĠyÃ¡n
zhÇĲ ĠyÇĴuĠ
gÄĵn ĠjÃ¹
ĠpÃŃn ĠdÃło
rÃ¬ Ġ
ĠzÃłiĠ bÄĽi
ĠyÇĲĠ wÃłi
ĠjÇĲnĠ yÇĴu
p Ãłi
ĠkÃłoĠ jÃ¬n
zhÃ ³u
ĠgÃ¨ ĠlÃ¨i
ĠdeĠg Ãłi
cÇİi ĠyÃ²ng
ĠxÃ¬ ĠliÃ¨Ġ
Ġk ÄģĠ
ĠshÃ¬Ġf ÃłngĠ
chÃ¡ng ĠqÄ«
ĠxiÃłn ĠhÃ©Ġ
ĠyÄ«Ġ rÃ¡n
ĠmÃ¬ ĠmÃ¬
ĠzhuÄģng ĠzhÃ¬Ġ
a tĠĠĠ
ĠshÃ¬Ġ nÃŃ
Ġw ÄģnĠdeĠ
ĠjÄ« ĠzhÃ¬Ġ
ĠdÃ© ĠyÇĲĠ
ĠbÄĽn ĠtÇĶĠ
Ġ199 5ĠniÃ¡nĠ
H Ġ
h Äĵng
yÃ¬ ĠdÃłĠlÃ¬Ġ
dÃ¬Ġ sÄģn
ĠgÅįngĠnÃ©ng Ġ
6 7
ĠshÃ¬ĠzhÅįngĠ xÄ«n
ĠdeĠ tiÄģn
rÃ©ng ĠrÃ¡n
ĠxÃŃng ĠrÃ³ng
ĠdeĠdÃ¬Ġ fÄģngĠ
ĠzhÃło ĠkÄģi
ig h
yÇĲ Ġ
ĠjÃ¹ ĠtÇĲ
3 1
ĠliÃº ĠxiÃł
ĠdeĠhÇİi ĠbÃ¡
jiÄģ ĠtÃŃng
ĠdÃ¬Ġ lÇĲ
ĠzÃ¬ĠzhÃ¬Ġ qÅ«Ġ
kuÃłiĠ sÃ¹
ĠqÃŃĠzhÅįngĠ yÄ«Ġ
ĠĠĠC h
ĠyÇĲ ĠyÇĴuĠ
ĠjiÇİnĠ chÄĵngĠ
ĠtÃ³ngĠshÃŃĠ gÄģiĠdÃ¬Ġ
qi ÄĽ
ĠshÃ¬Ġp ÃŃn
ĠwÃ©n ĠjiÃłn
ĠgÅįngĠ bÃ¹
A M
E R
ĠlÃ¬Ġ liÃłng
ĠkÅįng Ġ
ĠniÃ¡nĠ jiÄģn
ĠfÃ¹ ĠzÃ¡
ĠwÃ¨iĠyÃºĠ zhÅįngĠguÃ³Ġ
ĠgÅįngĠ jÄ«Ġ
ĠduÃ¬ ĠyÃ¬ng
Ġn Ä«Ġ
ĠjiÄĽ ĠsÃłnĠ
rÃ¹ ĠqÄ«nĠ
ĠjÃŃĠ rÃ©nĠ
ĠshÇĲ ĠqÃŃ
ĠzuÃ¬ ĠdÃłĠ
ĠgÃ¨ngĠ jiÄģĠ
nÃ¨iĠlÃ¹ ĠshÄĽngĠfÃ¨nĠ
A R
jÃ¬Ġ suÃłnĠ
ĠliÃº ĠyÃ¹
Ġ199 1ĠniÃ¡nĠ
ĠquÄĵ ĠfÃ¡
zhÇĶ ĠxÃŃĠ
dÇİo ĠyÇİn
ĠzÃłiĠ nÃ¨iĠdeĠ
ĠdÃł ĠjiÇİngĠ
Ġs Äģng
Ġti ÃłoĠ
ĠĠĠcÇĲ ĠwÃłiĠ
ĠĠĠ liÃº
ĠdÇİo ĠdeĠ
ĠjiÄĵ ĠchÃ¹
ĠjÃ¹ ĠlÃŃ
ĠfÄĵn ĠxÄ«
ĠzhÇĲ ĠkÃ²ng
ĠyÇĲng ĠpiÃłn
ĠtiÄĽ ĠdÃłoĠ
ĠxÃŃngĠzhÃ¨ngĠ qÅ«Ġ
201 7ĠniÃ¡nĠ
guÃ³Ġ huÃ¬
ĠshÃłng ĠshÃ¬Ġ
Ġzhu Åį
ĠbÃ¹ ĠmÇİnĠ
Ġ Y
shu Äģi
ĠlÃ¡i ĠyuÃ¡nĠ
ĠchuÃłng ĠlÃ¬Ġ
ĠshÃ¹ ĠzÃ¬
mÃŃng ĠwÃ¨iĠ
ĠdeĠ bÄģ
ĠzuÃ¬ ĠjÃ¬n
ĠmÃ¡o Ġ
ĠtÄģ ĠduÃ¬
ĠxiÃłnĠ fÇİ
ĠmÄĽi Ġ
ĠshÃ¬ĠyÄ«Ġ bÃ¹Ġ
yÃºnĠ nÃ¡n
gÇĶ Ġ
ĠbÃ¹Ġ shÃłng
ĠyuÃ¨Ġ duÃ¬
ĠkÄģi ĠshÃ¨
ĠshÄĵn ĠwÃ¨iĠ
ĠgÃłoĠ sÃ¹
ĠtuÄ« ĠdÃ²ng
ĠdeĠl Çļ
ĠshÃŃĠ sÄģnĠniÃ¡nĠ
ĠyÄ«Ġ mÃ©i
ĠwÃłnĠ mÄĽiĠyuÃ¡nĠ
ĠzÃłiĠ19 5
xÄ« ĠbÄģnĠyÃ¡
ĠyÇĶĠ zhÃ²u
ĠyÄ«n ĠyuÃ¨
ĠxÃŃngĠ mÃ¹
Ġ199 0ĠniÃ¡nĠ
ĠwÇİnĠ shÃłng
ĠĠĠbÃ¨i ĠjÇĲngĠ
ĠgÅįngĠ yuÃ¡n
ĠzhÃ¨ng ĠmÃŃng
ĠxÄ«Ġ ÄģnĠ
u t
shÄĵn Ġ
ĠkÃłng ĠyÃ¬Ġ
I C
gÅįngĠ zuÃ²
ĠyÇĲĠ qiÃ¡n
ĠyÃ³u ĠcÇĲ
suÇĴ ĠcÇİiĠyÃ²ng
ĠxÄ« ĠÄĽr
ĠbÄĽn ĠzhÃłn
ĠjÃŃ ĠshÃŃĠ
ĠĠĠ200 6ĠniÃ¡nĠ
Ġb Äĵng
ĠshÄĵng ĠmÃ¬ng
ĠxuÇİn ĠqÅ«Ġ
ĠzÇİi Ġ
ĠdeĠc ÃŃĠ
p ÃłnĠ
201 5ĠniÃ¡nĠ
gÄĵ ĠshÇĴu
Ġ4 8
ĠjiÇĶĠ diÃłn
4 3
tÃ³u ĠzÄ«
Ġ00 Ġ
i sĠĠĠ
m Ã³
ĠĠĠdÃ¬ĠfÄģng ĠzÄ«ĠliÃłoĠ
f ÃłngĠ
dÃ²ng Ġ
mÇİ Ġ
ĠdeĠ miÃłnĠjÄ«ĠwÃ¨iĠ
shÃłng ĠwÇĶ
ĠlÃ¨i ĠxÃŃngĠ
Ġ202 5ĠniÃ¡nĠ
mÃŃn Ġ
fÄĵn ĠwÃ©iĠ
ĠzÃłiĠ jÄ«n
ĠlÃ¬ĠshÄģn ĠdÃłĠ
hÃ²u ĠdeĠ
201 3ĠniÃ¡nĠ
ĠĠĠjiÇİnĠ jiÃ¨Ġ
ĠyÇĴuĠ duÅį
ĠzhÃ¨ng ĠmÃŃngĠ
ĠhÃ¡nĠ shÃ¹
chÅ« ĠxiÃłn
ĠdÃłn ĠyÄ«n
Ġ3 2
gÃ¨ ng
xiÃł ĠlÃ¬ngĠshÃŃĠ
ĠsÄ« ĠjÄ«Ġ
ĠbiÃłn ĠhuÃłĠ
ĠdeĠdÃ¬Ġ sÄģn
gÃ²ng ĠhÃ©Ġ
ĠwÃ©iĠ zhÇĶ
ĠdÃ²u Ġ
Ġg Çİo
ĠshÃłng ĠshÃ¹
Ġsu Ä«
ĠdÇİng ĠyuÃ¡nĠ
zh ÄģnĠ
ĠĠĠ gÇĶ
ch ÄģngĠ
ĠshÃ¬Ġ jiÄģng
ĠchÃ©ngĠ rÃ©nĠ
ĠjÄ«n ĠrÃ³ng
lÇĲngĠ dÇİo
ĠsÄ«ĠlÄģ ĠfÅ«Ġ
ĠĠĠ rÃ¡n
ĠliÃ¡nĠmÃ©ng Ġ
ĠjiÄģĠnÃ¡ ĠdÃłĠ
yÇĴu Ġ
ĠdeĠ xiÃł
ĠbÃ¹Ġ shÇİoĠ
c eĠĠĠ
ĠnÃ¡n ĠxÃ¬ng
ĠzÇĶ ĠjiÃłn
ĠwÇĶ ĠqÃ¬
ĠjiÄģ ĠtÃŃng
ĠI n
ĠwÃ¡nĠ jiÄģ
Ġ 0Ġ
ĠsÄ«Ġ dÃ¹nĠ
ĠliÇİng ĠzhÄĽ
ĠgÇİng Ġ
jiÃło ĠyÃ¹Ġ
ĠshÃ¬Ġ jiÄģĠ
Ġqi Äĵ
ĠqiÃ¡ngĠ diÃłoĠ
ĠxÃŃ ĠwÃ¨iĠ
ĠcÄģoĠ zuÃ²Ġ
xiÃłĠlÃ¬ngĠshÃŃĠ jiÄģnĠ
hÃ© ng
ĠdeĠ bÃłn
ĠyÃŃ ĠdÃ¬ng
ĠbÃ¡i ĠsÃ¨
ch ÄģĠ
ĠsuÇĴ ĠshÇĶ
ĠshÃŃĠqÄ« ĠniÃ¡nĠ
ĠgÅįngĠ yÃ¬
ĠjÄ« ĠyÄ«n
ĠhuÃł ĠdeĠ
ĠgÃ²u ĠzÃłoĠ
ĠtÄģĠmen ĠzÃłiĠ
bÇİo ĠchÃŃ
ĠyÄ«nĠwÃ¨iĠ tÄģ
Ġ198 5ĠniÃ¡nĠ
z ÇİoĠqÄ«
ĠĠĠ sÄ«
ĠhÃ©Ġ bÃ¹Ġ
ĠzÇĴng ĠdÅ«Ġ
Ġju ÄģnĠ
jiÄģĠnÃ¡ ĠdÃł
D TĠ
o ng
bÃ¬ Ġ
Ġl Ã©ng
ĠxiÃłn ĠshÃłng
ĠshÃ¨ ĠyÇĲng
Ġzhu Ã¬
ĠqÃ¬ ĠxiÃłng
ĠlÃŃngĠ chÃ©nĠ
hÇİi Ġ
ĠshÇĴu ĠdÅ«Ġ
ĠjiÄģo ĠyÃ¬Ġ
jÅ«Ġ zhÃ¹
ĠdeĠchÃ©ngĠ jÃ¬Ġ
ĠĠĠ jÇĲnĠ
g ÃłiĠ
gu ÇĲĠ
tu r
qÃ¬ ĠhÃ²uĠ
ĠdeĠ jÃ¬ng
ĠbÃ¹Ġ sÄ«
ĠyÄ«Ġ qiÃ¨
ĠnuÃ² Ġ
ĠdeĠ yÄ«nĠyuÃ¨Ġ
ĠshÃ¬Ġ qÃŃ
Ġn uÃ³ĠwÄĵi
ĠxÃºn ĠyÃ¡ng
ĠtÃŃĠgÅįngĠ le
chu ÃŃĠ
Åįu ĠyuÃ¡nĠ
sÄ« ĠlÃ¡n
tÃ³u Ġ
ĠlÇĲ ĠgÅįngĠ
shÃŃĠ dÃłi
ĠnÃ¨i ĠgÃ©
ĠgÃłi ĠniÃłn
xiÃłĠxiÃ¡ ĠdeĠyÃŃĠgÃ¨
rÃ¨n Ġ
Ġs Å«
201 1ĠniÃ¡nĠ
ĠlÄģ ĠdÄ«ng
b o
ĠkÃ¨ ĠyÃ¹n
Ġ3 3
Ġ18 4
ĠdiÃ© Ġ
cÃ¨ ĠshÃ¬Ġ
ĠwÃ¨iĠ UTCĠ
ĠzÃłiĠ mÄĽi
ĠgÅįngĠ yÃ¬ng
ĠjÃŃĠ jiÄģng
ĠyÄ«n ĠsÃ¹
ĠdÃłĠ zhÃ²ng
fÇİ ĠyuÃłn
ĠchÅ« ĠyÇİn
ĠfÄĵn ĠpÃ¨i
ĠpÃ©i Ġ
tÃ¡i ĠnÃ¡n
ĠzhÃ¬Ġ chÃ©ngĠ
ĠtÄģĠ jiÄģng
ĠsÇĲĠ wÃ¡ngĠ
dÃ²ng ĠwÃ¹
wÃ©n ĠhuÃłĠ
miÃłn ĠjÄ«Ġ
ĠzhÃ¬Ġ jÄ«nĠ
ĠwÃłi ĠguÃ³Ġ
ĠfÃ¡ngĠ yÃ¹
ĠdiÃłoĠ kuÃłi
ĠhuÃ¬ ĠbÃ¨i
ĠmÄĽi ĠshÃ¹
Ġ3 9
ĠqÇĶ ĠxiÄģoĠ
Ġ10 ĠyuÃ¨Ġ
ĠyÄģ ĠlÃ¬Ġ
ĠjiÃłnĠlÃ¬Ġ le
jiÃ© ĠguÇĴ
ĠhÃ©Ġ lÇĲ
ĠbÃ¹Ġ fÃ¹
Ġc nĠ
mÇĶĠ sÄ«Ġ
8 8
ÇĴu ĠxiÄĵ
zhÅįngĠ xÄ«n
ar k
ĠzhuÄģngĠ bÃ¨i
ĠhuÃłnĠ zhÄĽ
A T
ĠzÃłiĠ bÃ¹Ġ
zhÃ¬Ġ zuÃ²Ġ
Ġd ÇİnĠ
ĠmÃŃngĠ chÄĵngĠ
ĠjÃŃ ĠshÃ¬Ġ
ĠtÅįngĠguÃ² Ġ
ĠzhÃŃ ĠlÃ¬Ġ
ou r
ĠdeĠhu Ã¡nĠ
ĠjiÄģĠ jÃ¬ng
Ġku Ãłng
ĠtiÄĽ ĠdÃło
ĠĠĠzÄĵng ĠzÇĶ
ĠdiÃłoĠkuÃłi ĠyÄ«ĠxiÇİoĠshÃŃĠ
ĠĠĠ andĠĠĠ
tÃŃ Ġ
ĠjÄ«ng ĠyÃŃng
ĠzhÃ¨ ĠyÃłngĠ
huÃ²ĠdÃ© Ġle
ĠjÃŃĠ yÇĲ
ĠjÃŃĠ UTCĠ
shÃ¨ĠyÇĴuĠ xiÃłĠlÃ¬ngĠshÃŃĠjiÄģnĠ
ĠdeĠshÃŃĠqÅ«ĠwÃ¨iĠ UTCĠ
ĠÃ©rĠgÄģiĠdÃ¬Ġ suÇĴĠcÇİiĠyÃ²ng
ĠtÃ³ngĠshÃŃĠgÄģiĠdÃ¬Ġ shÃ¨ĠyÇĴuĠxiÃłĠlÃ¬ngĠshÃŃĠjiÄģnĠ
ĠÃ©rĠgÄģiĠdÃ¬ĠsuÇĴĠcÇİiĠyÃ²ng ĠdeĠshÃŃĠqÅ«ĠwÃ¨iĠUTCĠ
jÃ¬Ġ chÃ©ngĠ
ĠyÇĴuĠ xÇĶĠduÅį
ĠxuÇİn ĠshÇĴu
yÃ¬ng ĠyÃ²ng
Ġ198 8ĠniÃ¡nĠ
g Å«Ġ
chÄĵ ĠliÃłng
ĠshÃŃĠ jiÇĶĠ
Ġw Ã¡
ĠlÃ¬Ġ fÄģng
ĠyÇĲĠ bÄĽi
ĠzhÃłn ĠzhÅįngĠ
ĠzhÇĶ ĠyÇİnĠ
wÃ©iĠ chÃŃ
ĠzhÅįu ĠfÇĶ
ĠfÃ¹ ĠshÅ«ĠjÃ¬Ġ
ĠjiÃ© ĠhÅ«nĠ
ĠhuÄģnĠ yÃŃngĠ
zÇĴng ĠdÅ«Ġ
ĠdeĠ bÃ¹ĠfÃ¨n
ĠzhÃ¨ ĠbÃ¹Ġ
ĠhÃ¡i Ġzi
ĠĠĠ gÃ¨
ĠwÃ¨iĠ bÃ¨i
Ġt Ãł
ĠhÃ¹nĠ hÃ©Ġ
ĠyÃºĠhÇİi ĠpÃŃngĠmiÃłn
Ãło ĠdÃ¬ĠlÃ¬Ġ
ĠjÃŃĠ bÄĽiĠmÄĽi
ĠdÃł ĠxÃŃngĠ
ĠchuÃłngĠ jiÃłn
ÃłoĠyÃ¹n ĠhuÃ¬
I S
ĠlÃ¬Ġ yÃ¬
ĠlÄģ ĠsÄ«
Ġ3 0Ġ
ĠqiÄģnĠ shÇĶ
ĠjiÇĶ ĠniÃ¡nĠ
ĠzhÄ«ĠchÃŃ Ġ
C h
ĠĠĠ 11
jiÃłn ĠshÃ¨
kÄĵ ĠjÃ¬Ġ
ĠchÃ¹ ĠdeĠhÇİiĠbÃ¡
Ġ8 Ġ
Ãłn ĠzÃłiĠ
ĠĠĠ kÃ¨
Ġq Ãº
ĠtÃ³ng ĠyÄ«Ġ
liÃ¡nĠmÃ©ng Ġ
ĠchÃ¹ĠdeĠhÇİiĠbÃ¡ ĠwÃ¨iĠgÄģo
x ÇĶ
ĠĠĠ hÃ²uĠ
ĠĠĠ19 0
ĠkÄĽĠnÃ©ng ĠshÃ¬Ġ
yÃº ĠlÃ¨
ĠhuÃł ĠshÃŃĠ
ĠlÃŃĠ mÇĲĠ
zhu Åį
Ġb Äĵn
ĠyÃ¹ ĠjÃ¬Ġ
ĠyÃŃ ĠzhÃ¬Ġ
ĠB Ġ
zÇİi Ġ
ĠchÃ¹ĠdeĠhÇİiĠbÃ¡ĠwÃ¨iĠgÄģo ĠyÃºĠhÇİiĠpÃŃngĠmiÃłn
ĠshÃ¬Ġ chÇİngĠ
ĠguÃ³Ġ jÅ«n
ĠzÃ¬ ĠshÄĵn
ĠshÃŃĠliÃ¹ ĠniÃ¡nĠ
w ÄģnĠ
ĠshÄĵng ĠtÃłi
k ÃłngĠ
ĠshÃ¬ĠjiÃ¨ ĠbÄĵi
ĠqiÃ¡ngĠ liÃ¨
Ġ198 9ĠniÃ¡nĠ
kÃ²ng ĠzhÃ¬Ġ
Ġ X
zh Çİo
ĠĠĠ zhÇĶĠyÃło
ĠwÃ©i ĠqÃŃĠ
.. .
g h
pÃŃng ĠfÄģng
ĠdÃł ĠqiÃ¡o
ĠlÇĲ ĠlÃ¡n
ĠdeĠc Ãºn
ĠdeĠxÃŃng ĠwÃ©iĠ
ĠzhuÃłnĠ xiÄĽ
7 8
i ch
zhÃ¨ ĠyÄ«Ġ
ĠchÃ©ngĠ gÅįng
ĠdÃłn ĠtÄģ
ĠhÇİi ĠyÃ¡ng
ĠyuÃłn ĠzhÇİngĠ
ĠgÃ¹ ĠdÃ¬ng
Ġ18 0
ĠxÃ¬nĠ hÃło
ĠdeĠp Ã¨i
ĠliÃ¹ ĠniÃ¡nĠ
ĠshÃŃĠwÇĶ ĠniÃ¡nĠ
p Ä«
ĠtuÃ¬ ĠyÃ¬Ġ
sÃ¬ ĠgÃ¨
shÃŃĠ qÅ«Ġ
ĠyÇĶ ĠhÃ©Ġ
6 6
d Ä«Ġ
ĠyuÃ¨ ĠzhÅįngĠ
t ÇİĠ
ĠyÇĴuĠ kÄĽĠnÃ©ng
ĠfÄģng ĠfÇİĠ
ĠfÄĵn ĠxÄ«Ġ
ĠqÅ«ĠdeĠ miÃłnĠjÄ«ĠwÃ¨iĠ
Ġc Ã¡nĠ
Ġs Å«nĠ
ĠxiÃłnĠ rÃ¹
ĠgÇİi ĠshÃłnĠ
ĠhÃ© ĠdeĠ
ĠjÃŃĠ lÃŃn
ĠlÃ¬ng ĠyÇĴuĠ
ĠguÇİngĠ xÄ«
qÃŃngĠ bÃło
ĠrÃ¬Ġ bÃłoĠ
ĠmÃŃngĠ quÃ¨
ĠzhÃ¨ ĠshÇĴu
ĠfÄĵi ĠjÄ«Ġ
ĠlÇĲng ĠxiÃ¹
ĠzhÅįngĠguÃ³ĠgÃ²ngĠchÇİn ĠdÇİng
a w
ĠyÄ«Ġ jÃ¹
ĠyuÄĵ ĠwÃ¨iĠ
ĠhÃ© ĠshÃ¬Ġ
bÅį ĠchÅ«Ġ
ĠduÅį ĠzhÇĴng
ĠjÄ«n ĠpÃ¡iĠ
ĠyÃŃ ĠdÃ²ng
ĠchÃ³ng ĠjiÃłn
ĠquÃ¨ ĠrÃ¨n
ĠxiÇİnĠ zhÃ¹
ĠdeĠ jiÄĽ
ĠzÃłiĠ jÄ«
ĠyÃ¬ ĠniÃ¡nĠ
ĠÄĽr ĠfÅ«Ġ
ĠdÃ¡ ĠdÃło
ĠwÄĵi ĠliÃ¡nĠ
ĠtiÄĽ ĠlÃ¹Ġ
ĠyÃ¬ Ġb
ĠxiÃłnĠ zÃłi
ĠzhÃŃ ĠwÃ¨iĠ
ĠdÄģng ĠniÃ¡nĠ
il l
zhÄ« ĠqiÃ¡n
dÅįng ĠjÃ¬Ġ
Ġzh ÇİnĠlÇİnĠ
bÇĲ ĠjiÃło
ĠhÃ²uĠ xuÇİnĠrÃ©nĠ
Ġdu ÃłnĠdeĠ
y Äģng
ĠyÃ¬Ġ fÄģngĠmiÃłnĠ
Ġh Å«
xiÄģngĠ tÃ³ng
ĠbÅį ĠchÅ«
ĠtÇİnĠ kÃ¨
ĠzhÄģo ĠhÃ©Ġ
O N
ĠdeĠ tÅįng
ĠxiÄģnĠ shÄĵng
ĠwÄĵn ĠdÃ¹
ĠsuÃŃ ĠjÃŃĠ
zhÃ¬Ġ 200
ĠyuÃ¨Ġ lÃ¡i
ĠzhÄ«Ġ xiÃłĠ
ĠzhÇĲ ĠyÇĴu
ĠtÃłi ĠguÃ³Ġ
ĠshÃŃ ĠwÃ¨iĠ
Ġ8 ĠyuÃ¨Ġ
ĠtuÃ¬ ĠxiÅ«Ġ
ĠlÇĲngĠdÇİo ĠrÃ©nĠ
ĠdeĠ shÃ¨ĠjÃ¬Ġ
ĠbÃ¹Ġ jÃŃĠ
ĠshÃŃĠ wÃ¹
ĠlÃ¡n ĠqiÃº
ĠfÄĵi ĠlÇľĠbÄ«nĠ
Ġ ÇĴu
dÃ© ĠdÃło
ĠchÅ« ĠshÄĵn
ĠnÃ¡n ĠfÄģng
ĠshÅ« ĠrÃ¹
Ãº ĠtÃ¡o
ĠdeĠ tÃłi
ĠsÃ¬ ĠgÃ¨
ĠĠĠ jÃŃĠ
ĠĠĠ 1Ġ
ĠĠĠ rÃ¬ĠbÄĽn
ĠhÃ©Ġ qÃŃĠtÄģ
ĠxÃŃngĠ wÃ©i
ĠpÄģi ĠshÃ¨Ġ
I I
T ub
miÃłn Ġ
ĠyÄ«Ġ zhÅįu
ĠduÃ¬ ĠqÃŃ
ĠrÃº ĠhÃ©Ġ
ĠdeĠgu Ä«Ġ
ĠÄĽr ĠmÃłnĠ
Ġsh Çİng
ĠshÃłng ĠyÇĴuĠ
yÄģoĠ qiÃº
jiÃ© ĠshÃ¹Ġ
xuÇİn Ġ
ĠdÅįng ĠfÄģng
Ġ195 0ĠniÃ¡nĠ
5 ĠrÃ©nĠ
ĠliÃ¡n ĠwÇİng
ĠpÃ²Ġhu Ãłi
ĠĠĠ d
Ã©r ĠtÃ³ng
wÃ©n ĠxuÃ©
pÃŃng ĠlÃ¹nĠ
cÄģn ĠsÃłi
Ġn Ä«
ĠbÃ¬ng ĠdÃº
ĠchÇİng ĠbÇĲĠsÃłi
ĠzhuÄģnĠ jiÄģĠ
A C
qÇĲ ĠyÃ²ngĠ
ĠdeĠ zhuÄģnĠ
ĠyÇĶĠ cÇĲ
ĠyÄĽ ĠyÇĴu
ĠchÃ¡ng ĠdÃ¹
ĠyÃŃ ĠmÃŃn
ĠyÃºĠ19 2
ĠruÃ¬ ĠshÃ¬Ġ
Ġw Äģ
ĠxiÃłng ĠshÃ¬Ġ
ĠjuÃ© ĠsÃłiĠ
ĠĠĠ huÃ²
lÃ¬ng ĠyÄ«Ġ
ĠmÃ¹ ĠbiÄģo
ĠtÄģĠmen Ġ
7 6
shÄĵng ĠyÃ¡Ġ
jÄ«ng ĠshÃ©nĠ
ĠyÃ¬ ĠyÃºĠ
ĠxiÃłn ĠlÃ¹Ġ
ĠduÃ¬ ĠfÄģng
ĠfÃ¡ngĠ zhÇĲ
ĠdeĠlÇĲ ng
ĠĠĠ lÃ¬ĠshÇĲ
ĠgÅįngĠ ÄģnĠ
ĠjiÄģn ĠrÃ¨n
Ġdu ÇĴ
ĠkuÃ² ĠzhÇİnĠ
ĠjiÃł ĠshÇĲ
huÄ«Ġ shÄĽng
v i
ĠshÇĲ ĠshÃłng
a mi
ĠdeĠ yÄ«ng
ĠyuÃ¡nĠ shÇĲ
ĠzÄĵng ĠzhÇİng
ĠdÇİ ĠpÃ²
ĠbÃ¬ĠyÃ¨ ĠyÃºĠ
e ar
y Çİ
ĠdÃ¬Ġ diÇİn
ĠbÄĽn ĠpiÃłn
ĠmÃ©ng ĠtÃ¨
ĠzÄ« ĠxÃ¹nĠ
p Ã²
r am
ĠjiÄģĠ gÄĵ
ĠĠĠ200 5ĠniÃ¡nĠ
Ġ198 4ĠniÃ¡nĠ
jiÄģ ĠrÃ©nĠ
ĠshÃ¬Ġ dÃ©ĠguÃ³Ġ
ĠjÃŃĠ dÃ¬Ġ
ĠbÄģ Ġ
ĠhuÄģ ĠyuÃ¡nĠ
ĠdeĠ zhÃ¨ngĠzhÃ¬Ġ
Ġqi ÇİngĠ
Ġr ÄĽn
Ġj Å«
W indow
Ġn Ã¨n
ĠjÇĲ ĠgÃ¨
ĠzhÃ¹ ĠmÃŃng
ĠxÃºn Ġ
ĠdeĠxi Äģo
ĠĠĠ h
mÇĲ ĠyÃł
ĠpÃ¨i ĠbÃ¨i
ĠhuÃ¡ngĠ jÄ«n
ĠsÄĵn ĠlÃŃn
ĠdÇİĠ suÃłnĠ
guÃ³Ġ nÃ¨i
ĠzhÅįu ĠcÃ¬
ĠhÇİi ĠyÃ¹Ġ
19 2
ĠshÄĵng ĠwÃ¨iĠ
ĠÃ¨r ĠrÃ©nĠ
ĠdeĠxi ÄģnĠ
f Ã©i
ĠĠĠ Ã¨r
ĠfÃ¹ ĠzhÇĶĠxÃŃĠ
ĠzuÃ²Ġ zhÄĽ
ĠbÃ¹ ĠwÃ¨iĠ
tiÄĽ ĠlÃ¹Ġ
tuÃ¡n ĠduÃ¬
chÅ« ĠrÃ¨n
mÃŃn ĠjiÄģn
Ãºn ĠdÅ«n
yÃ¹n ĠshÅ«
ĠguÃ³ĠmÃŃn ĠzhÃ¨ngĠfÇĶ
zÃ© ĠshÃ¬Ġ
1 2ĠniÃ¡nĠ
t o
ĠgÅįngĠ juÃ©
ĠzhÃ¨ngĠzhuÃłngĠgÇİnĠrÇİnĠ zhÄĽ
ĠĠĠ quÃ¡n
ĠĠĠ sÄģn
ĠĠĠ rÃº
dÅįng ĠnÃ¡nĠbÃ¹Ġ
ĠqÃŃ ĠwÃ¨iĠ
ĠzhÃ¨ngĠ quÃ¡n
ĠyÃºĠ19 0
ĠÃłi ĠÄĽrĠlÃ¡n
ĠfÃ¡ng ĠwÅ«Ġ
Ġk Äģ
yuÃ¡nĠ zhÃ¹
ĠluÃ³ ĠlÇĲĠdÃ¡
ĠhÃ²u ĠzÃłiĠ
ĠfÃ¨i ĠyÃ¡n
guÄģn ĠzhÃ²ng
ĠqÃŃ ĠshÃŃĠ
ĠfÄĵn ĠbÃ¹ĠzÃłiĠ
ĠdeĠyÄ«Ġ tiÃ¡o
ÄģnĠ pÃ¡i
Ġ3 4
ĠlÃ¨i ĠxÃŃng
ĠjiÄģo ĠliÃº
ĠdeĠf Ã¡ngĠ
chÅįng ĠtÅ«Ġ
jiÄģng ĠqÃŃ
ĠdeĠ zhÅįngĠguÃ³Ġ
Ġt Ã¹
nuÃ² Ġ
ĠnÃŃ ĠxÄ«ĠyÃł
Ġ6 5
Ġ198 3ĠniÃ¡nĠ
ĠrÃ©nĠkÇĴuĠmÃ¬ĠdÃ¹ĠmÄĽi ĠpÃŃngĠfÄģngĠgÅįngĠlÇĲĠ
Ġw ÄģngĠ
ĠyuÃ¨Ġ tuÃ¡nĠ
ĠyÄ«ng ĠwÃ©n
ĠjiÃ¹ ĠhuÃ¬
s ÃłnĠ
ĠfÄĵi ĠxÃŃng
ĠshÃ¬ĠshÃ¬Ġ jiÃ¨
b Ãłi
ĠrÃ©nĠ dÃł
ĠlÃŃn ĠjÃ¬n
tiÃ¡o ĠzhÄĽng
jÄ«ng Ġ
mÃ¹ ĠbiÄģoĠ
nÇļ ĠzÇĲ
ĠmÇİ ĠÄĽr
ĠxÃ¹ ĠlÃ¬ĠyÃł
ĠbÄģnĠ fÄģ
ĠyÃºĠ201 6ĠniÃ¡nĠ
p p
huÃ¡nĠ jÃ¬ng
You Tub
ĠĠĠ gÄģo
wÃ¨i ĠdeĠ
ĠyÇĲĠ cÇĲ
ĠxiÄģng ĠxÃ¬nĠ
xÃŃng ĠshÃ¬Ġ
ĠjiÃłn ĠkÄģngĠ
ĠyÇĲĠ nÃ¡n
ĠfÃº ĠhÃ©Ġ
ĠcÃ©ng ĠwÃ¨iĠ
e st
ĠnÃł Ġme
ĠshÃ¬ĠyÃŃĠgÃ¨ ĠwÃ¨iĠyÃºĠ
ĠdeĠquÃ¡n ĠlÃ¬Ġ
gÇĶ ĠdÃłi
ĠdÃº ĠtÃ¨
Ġm ÄģĠ
ĠhÃ©ĠnÃ¡n ĠshÄĽng
d Ãłng
ĠdÃł ĠdÃło
ĠxiÃł ĠlÃ¬ng
ĠhuÇĴ ĠjiÃłn
ĠzÃłiĠ19 3
zhÃ¨ngĠfÇĶ Ġ
ĠxiÄģo ĠfÃ¨i
ĠlÇĲng ĠshÃ¬Ġ
9 8
zuÃ²Ġ jiÄģĠ
ĠshÇĲ ĠmÃ¬
ĠgÃ© ĠwÃ¨iĠ
ĠnÃł ĠxiÄĵ
ĠyÅįu ĠxiÃ¹
ĠqÃŃn Ġ
chÅ« ĠshÄĵngĠyÃºĠ
ĠyuÃ¨Ġ tuÃ¡n
ĠtÃ¨ ĠlÄģ
202 1ĠniÃ¡nĠ
ĠchÃ³ng Ġ
ĠdeĠzuÃ¬ ĠgÄģo
ĠdeĠzuÃ²Ġ biÄģoĠwÃ¨iĠ
n d
ĠĠĠ wÇĶ
ĠfÄĵi ĠjiÃłnĠzhÃ¬ĠdÃ¬ĠqÅ«Ġ
ĠbÇİo ĠcÃºn
Ġ15 Ġ
ĠhÅ«Ġ yÃ¹
ĠpÃ©i ĠxÃ¹nĠ
jiÄģo ĠyÃ¬Ġ
Ġhu ÃłiĠ
ĠhuÃ¬ ĠhÃ©Ġ
Ġ4 7
ĠcÃ¡i ĠliÃłoĠ
liÃ¹ ĠniÃ¡nĠ
ĠĠĠ tiÄģn
lÃ¡i ĠyuÃ¡nĠ
ĠshÃ¬Ġ tÃ¡iĠwÄģnĠ
ĠxiÃ© ĠtiÃ¡o
quÄĵ ĠfÃ¡
A N
ĠchÃ©ngĠ bÄĽn
ÃłoĠ zhÅįu
ĠxiÅįng ĠyÃ¡ĠlÃ¬Ġ
ĠbÃ³ĠwÃ¹ĠguÇİn Ġ
ĠĠĠ tÃ¡iĠwÄģnĠ
wÃ¡ng ĠguÃ³Ġ
ĠdeĠ qiÃº
ĠyÄ«Ġ zuÃ²Ġ
ĠbÄĽi Ġ
ĠkÅįng ĠjiÄģnĠ
c Ġ
ĠchÅ« ĠxÃŃĠ
ĠzhÃ¬ ĠhÃ©Ġ
ĠpÃ©ng ĠyÇĴuĠ
gÅįngĠ kÄģi
ĠdÃłi ĠbÇĶĠ
ĠzhuÇİnĠ xiÃłng
ĠchÇĶĠ lÇĲĠ
ĠchÃ¨ ĠxiÄģoĠ
ĠyÃºĠ202 1ĠniÃ¡nĠ
ĠzÃ¬ĠzhÃ¬Ġ qÅ«
ĠmÃ¡oĠzÃ© ĠdÅįng
ĠfÄĵi ĠzhÅįu
ĠyÅįu Ġ
ĠtÃŃĠ gÅįng
ĠyÃºĠ201 5ĠniÃ¡nĠ
ĠyÃºĠ201 8ĠniÃ¡nĠ
c Ã¹
ĠĠĠ 16
ĠĠĠ gÃ¨ĠrÃ©nĠ
bÃ¹ ĠmÃ©n
yÃ³u ĠtÃłi
zÃ¬ ĠzhÃ¬Ġ
ĠdeĠ wÃº
ĠjÃŃĠ bÃ¬ng
Ġc Å«Ġ
ĠmÃ¬ ĠqiÃ¨
cÃ¡i Ġ
ĠdeĠg ÇİnĠ
sÇĲĠ wÃ¡ng
ĠjÇĲnĠbiÄģoĠ sÃłiĠ
zuÃ² ĠchÅ«
ĠdeĠgu ÃłnĠ
guÇİngĠdÅįng ĠshÄĽng
jiÄĵ Ġr
ĠzhÅįngĠ zhÇĲ
Ġf Ãłn
ĠyÄ«Ġ cÃŃĠ
ĠshuÇĲ ĠyÃ¹Ġ
ĠdeĠjiÃłn ĠzhÃ¹
1 8ĠniÃ¡nĠ
zhÃł i
ĠdeĠm ÇĶĠ
ĠI S
ĠdeĠfÃ¹ ĠqÄ«nĠ
jiÃ© ĠhÃ©Ġ
ĠmÄĽi ĠjÅ«n
ĠlÃ¡n ĠkÃ¨
ĠshÃ¬Ġl Ã¡ngĠ
p Ãł
u sĠ
chÅ« ĠshÄĵnĠ
ĠdeĠk Ã²ng
ĠĠĠ zhÇĶ
ĠdeĠ tÃŃ
ĠshÃ¬Ġ yÃ²ng
ĠsÃłi ĠjÃ¬
ĠqÅ«Ġ yÃ¹Ġ
Ġ5 8
ĠdiÃłoĠ chÃ¡Ġ
ĠshÅįu Ġ
ĠqÇĲngĠ qiÃº
ĠjiÃ© ĠshÃ¹Ġ
ĠshÄĵn ĠzhÃ¨n
Ġ198 6ĠniÃ¡nĠ
nÃ¨i ĠbÃ¹Ġ
ĠzhÅįngĠ duÃ¬
ĠshÇĴu ĠxiÄģnĠ
ĠdeĠ mÄĽiĠguÃ³Ġ
ĠshÃ¬Ġ yÃ¬ng
ĠyÃ¬Ġ si
ĠqÄ« ĠniÃ¡nĠ
ĠbÃ³ ĠtÃ¨
ĠmÃ¨i Ġ
2 ĠrÃ¬
ĠduÃ¬ ĠwÃłi
ĠguÃ³ĠjiÄģĠ duÃ¬
qÅ«Ġ yÃ¹Ġ
ĠxiÅ«Ġ zhÃ¨ng
hÃº ĠnÃ¡n
ĠzÃ²u Ġ
a le
Ġ Q
bÅį ĠluÃ³
ĠjiÃ¹ Ġ
chÃ¡o Ġ
ĠyÃºĠ201 2ĠniÃ¡nĠ
qiÃ¡o ĠzhÃ¬Ġ
tÅįng ĠchÄĵĠ
ĠqÃŃ ĠbÄ«ng
ĠdÃ© ĠyÇĶĠ
ĠbÃº ĠyÃło
ĠdeĠyÃ¬ nĠ
ĠsÄ«ĠlÃ¬ng ĠbÃ¹Ġ
4 1
ĠĠĠ de
lÇĲ ĠlÃ¹nĠ
duÅį ĠlÃ¬ĠyÃł
ĠdÃ¬Ġ yÃ¬
ĠyuÃ¡nĠ yÄ«nĠ
Ġgu Äģ
yÇĶ nĠ
jiÄģng ĠjÅ«n
ĠshÃ¬Ġ wÃ¹Ġ
jiÄģĠ lÄģ
ĠzhÇĲ ĠdÃ¬ng
ĠĠĠ Äģ
shÃłng ĠdeĠ
chu ÄģngĠ
ĠzhÄ« ĠfÃ¹
guÄģn ĠyuÃ¡nĠ
zuÃ¬ Ġ
xÄ«ng ĠjiÃłn
ĠĠĠniÃ¡n Ġ
zhÃ¨ng ĠcÃ¨
ĠshÃŃĠ yÃ³u
chÃ©ngĠ yuÃ¡nĠ
jÃ¬Ġ huÃłĠ
ĠmÃŃn ĠjiÄģn
ĠlÃ¬ng ĠyÃŃĠgÃ¨
ĠlÃ¬ ĠwÃ¨iĠ
ĠdeĠb ÇİnĠ
ĠÄĽr ĠdÃ¹nĠ
ĠbÃ¨i ĠqÃŃ
ĠgÇĶ ĠfÃ¨n
ĠbÃłn ĠyÇİn
ĠdeĠm Ã¬ng
ĠyÃ¬nĠ nÃŃ
p Ã©ng
y p
ĠĠĠ 20
ĠĠĠ mÃ¹
zhÃ¨ng ĠxiÃ©
xuÃ© ĠshÃ¹
gÇİi ĠbiÄģn
ĠfÃº ĠlÇİngĠ
ĠzhÄĵn ĠzhÃ¨ng
ĠbÇİi ĠkÄĵ
Ġ11 ĠyuÃ¨Ġ
ĠzÅ«Ġ jiÃ¨
A P
ĠdeĠ xiÃłng
ĠshÃ¬Ġ zhÄ«
ĠdÃ© ĠdÃłoĠle
ĠdÃłĠ sÃłi
ĠyÃºĠ201 4ĠniÃ¡nĠ
Ġqu ÇİnĠ
huÃ³ ĠdÃ²ngĠ
c Ã¡ngĠ
chÃ¡ng Ġ
ĠdeĠ zÇĶ
ĠxiÃłng ĠzhÄĵng
Ġ4 6
ĠlÃ¬ng ĠrÃ©nĠ
ĠĠĠ bÄĽi
ĠzhÅįngĠ yÇĲ
7 7
ĠĠĠ jiÄģoĠtÅįngĠ
shÄĵng ĠwÃ¹
ĠdeĠ n
ĠwÃ¨iĠ wÃ¨iĠ
Ġm ÄģoĠ
ĠhÃ³ng ĠsÃ¨
l Ã³ng
ĠwÇĶ ĠzhuÄģngĠ
9 6
ĠshÃ¬Ġ qÅ«
ĠbÃ¹Ġ zhÇĶ
ĠyÃ¬Ġ bÃ¨i
ĠbÅį ĠfÃłngĠ
ĠgÇİi ĠwÃ©i
ĠzhuÇİnĠ yÃŃ
ĠxiÄģngĠgÇİng Ġ
ĠÃłoĠ ÄĽr
ĠlÃ¡ng ĠzhÅįngĠ
e tĠĠĠ
tÄģ Ġ
ĠxiÃł ĠjiÃłngĠ
ĠpÃ¨i ĠyÄ«n
ĠyÃºĠ201 7ĠniÃ¡nĠ
ĠfÄĵnĠbiÃ© ĠshÃ¬Ġ
f Ãłng
jiÄģo Ġ
ĠzhÃ¨ ĠxiÃłng
ĠfÃ¹ĠzÃ© Ġ
xÃŃng ĠdÃ²ng
zhÃŃ ĠmÃŃn
ĠyÃ³u ĠyÇĴng
ĠA l
xi Çİng
chÅ« ĠshÄĵng
ĠdeĠ bÇİo
gÅįngĠ yÃ¨
ĠchÅ« ĠlÃ¡iĠ
ĠbiÇİo ĠxiÃłnĠ
u Ġ
w ÃłngĠ
ĠtÃ¨ ĠlÇİngĠ
ĠshÃ¬ĠdÃ¬Ġ Ã¨r
h Åįng
yuÃ¨ Ġ
yÃ¡n ĠhÇİi
zuÃ¬ ĠzÇİo
ĠdeĠ rÃ¬ĠbÄĽn
ĠshÃŃĠ yÃłnĠshÃ¬Ġ
ĠdÃ© ĠmÃŃngĠ
ĠsÅįng Ġ
3 ĠgÃ¨
e le
ĠĠĠ 0
fÄģ ĠdiÃłn
ĠjÃŃĠ xÃŃngĠzhÃ¨ngĠ
ĠrÃ¨n ĠqÄ«
ĠliÇİng ĠguÃ³Ġ
ĠÄģnĠ nÃł
ĠruÃ² Ġ
ĠmÃŃnĠzhÇĶ ĠdÇİngĠ
fÃ¹ĠzÃ© ĠguÇİnĠxiÃ¡Ġ
xuÃ© ĠzhÄĽ
ĠsÄ« ĠxiÇİngĠ
ĠyÄ«ng ĠlÇĲĠ
ĠS Ġ
ĠsÃł Ġ
chuÃłng ĠlÃ¬Ġ
3 ĠrÃ¬
zh ÄģoĠ
rÃ¬ ĠzhÃ¬Ġ
wÃ¡ng ĠchÃ¡o
huÃ¡ Ġ
ĠdÃłn ĠshuÇĲ
ĠtÃ¨ ĠdÃ¬ng
ĠdeĠ yÃ¨
ĠyÄĽ ĠbÃ¹Ġ
ĠlÇľ ĠwÃ¨iĠ
ruÃ¬ ĠshÃ¬Ġ
ĠĠĠ shÃ¨
dÃł Ġ
ĠdÃ¬Ġ tÃº
Ġc ÇİnĠ
ĠzÇĶ ĠchÃ©ngĠdeĠ
Ġ9 ĠyuÃ¨Ġ
ĠjÄ«ĠjÄ«n ĠhuÃ¬
9 ĠrÃ¬
yÃ³u ĠxÃ¬Ġ
yÄ«ng ĠgÄģi
Ġle ĠtÄģĠdeĠ
ĠxiÄģoĠ liÃłng
lÃ¹ ĠxiÃłnĠ
ĠÃ©r ĠbÃ¹Ġ
ĠmÇİ ĠkÃ¨
ĠÃłi ĠdÃ©
ĠyÃ³u ĠyÃº
ĠtÃ³ng ĠpÃ¡iĠ
ĠzÃ© ĠwÃ¨iĠ
ĠxÇĲ ngĠ
z Ġ
zuÃ¬ ĠdÃłĠdeĠ
Ġ7 ĠyuÃ¨Ġ
ĠdÃł ĠlÃ³uĠ
ĠxiÃłnĠ xiÃłng
ĠbÃłn ĠgÅįngĠ
ĠdeĠhu Ã¡ngĠ
ĠmÃŃng ĠrÃ©nĠ
ĠyÇĲng Ġ
ĠzhuÃłngĠ tÃłiĠ
ĠzÃłiĠdÃ¬Ġ Ã¨r
guÄ« ĠhuÃł
ĠĠĠ hÃ³ng
ĠzÃłiĠ bÃ¨i
19 Ġ
ĠpÃŃng ĠwÃ¨iĠ
ĠxiÄģngĠ hÃ¹
ĠÃło ĠdÃ¬ĠlÃ¬Ġ
ĠtuÃ¬ ĠchÅ«
yÃŃ ĠmÃŃn
ĠyÃºĠ 2019ĠniÃ¡nĠ
ĠjÃº ĠzhÇİngĠ
ĠhuÃ¡ ĠshÃ¨ngĠdÃ¹nĠ
ĠcÇİi Ġ
jiÃłn ĠchÃ©ngĠ
fÇİ ĠguÃ³
yÄĽ Ġ
luÃ² ĠshÄģn
ĠdeĠ jiÃł
ĠjÃ¬n ĠjÃŃĠ
ĠyÇĲnĠ qÃŃngĠ
Ġ198 7ĠniÃ¡nĠ
ĠjiÄģĠ zhÅįu
ĠyÃ¡n ĠrÃ©nĠ
ĠgÄģo ĠxiÃ³ng
ĠtÇİĠ nÃŃ
kÅįng ĠjÅ«n
tÄ«ng Ġ
n ĠĠĠ
mÄĽi ĠzhÅįu
zhÃŃ ĠwÃ¹
ĠbÃ¬ ĠyÃ¨Ġ
xi Ã¡n
yÇĲ ĠlÃ¡i
nÃ¡n ĠjÄ«ng
ĠdeĠ jiÄĵ
ĠshÃłng ĠxiÃł
ĠwÇİng ĠqiÃº
zhÃło ĠpiÄģnĠ
a st
ĠyÇĴu ĠyÃ¬Ġ
ĠchÄĵng ĠzuÃ²Ġ
ĠnÃ¡ ĠxiÃł
Ġ ì
xuÃ© ĠxÃŃĠ
ĠshÃŃĠ hÃ²uĠ
ĠfÃ¹ ĠshÇĶ
ĠyÃ¨ ĠwÃ¹
ĠsÃ¨ ĠfÅ«Ġ
ĠcÃ³ng ĠcÇĲ
ĠmÇİnĠ zhÅįu
ĠyÃºĠ202 2ĠniÃ¡nĠ
lÄģ ĠdÄ«ng
gÇİng Ġ
ĠyÃºĠ 2020ĠniÃ¡nĠ
ĠlÃ¬Ġ zi
om p
ĠgÅįngĠch ÇĲ
ĠdeĠ M
sh uÃ²
yÃ²ng ĠhÃ¹
ĠyÃ¡o Ġ
yÅįng ĠyÇĴuĠ
ĠĠĠchÃº Ġle
zhÃ¬ ĠzÃłiĠ
dÅįng ĠbÄĽiĠbÃ¹Ġ
hÇİi ĠwÃłi
wÇĶ ĠqÃ¬
jiÃ¹ ĠdÃº
yÄ«Ġ zhÇĴng
zhÃ¬Ġ 199
ĠzhÃ¨ng ĠdÇİngĠ
ĠzhÃ¨ngĠ miÃłn
ĠjÄ«n ĠshÄģn
ĠkÄģi ĠfÃłng
ĠlÄĽi ĠjÃ¬Ġ
zhÇİnĠ kÄģi
Ġd ÇĴu
ĠguÄģn ĠzhÃ¹
ĠhÄĵi ĠlÃ³ng
liÃ¡n ĠbÄģng
ÄģnĠ dÃ©
ĠhÃ©Ġ wÃ¹
ĠjiÄģn ĠdÅ«Ġ
ĠdÄĽng ĠdÄĽngĠ
5 8
9 2
jiÄģng ĠsÅ«Ġ
bÇĲ ĠyÃł
ĠhÃ©Ġ jÄ«
ĠqiÃº ĠhuÃ¬
ĠgÇİi ĠmÃŃngĠwÃ¨iĠ
ĠyÃºĠ201 3ĠniÃ¡nĠ
ĠÃ©rĠgÄģi ĠdÃ¬ĠdeĠ
ĠshÃ¬Ġ wÄĽi
shÃŃĠ jiÄģnĠ
ĠsÄ« ĠmÃłnĠ
ĠmÃŃngĠ xÄ«ng
ĠguÄģn ĠcÃ¨
ĠqÅ«Ġ zhÃº
ĠhuÇĴ ĠshÄģn
ĠĠĠ shÇĲĠyÃ²ng
ĠyÇĶ ĠdeĠ
ĠzuÃ¬ ĠzhÅįng
ĠyÃŃ ĠzhÇĲ
zÅįng ĠhÃ©Ġ
guÃłnĠ jÅ«nĠ
biÇİo ĠyÇİn
bÃ³ Ġ
ĠsÅ«Ġ gÃ©ĠlÃ¡n
qiÃ¡ngĠ liÃ¨
hÃ¹nĠ hÃ©Ġ
i f
ĠlÃ¬Ġ shÃŃĠ
Ġ19 20ĠniÃ¡nĠ
ĠjiÄģ ĠmÃ©ng
ĠmiÇİnĠ diÄģnĠ
kÄĵ ĠdeĠqÃŃĠzhÅįngĠyÄ«ĠzhÇĴngĠ
ĠyÃ¬ ĠjÃŃĠ
ĠjÃ¬n ĠniÃ¡nĠ
ĠbÄĽi ĠfÄģng
ĠliÇİng ĠcÃ¬
ĠzhÃ¬ ĠshÃ¬Ġ
Ġ12 ĠyuÃ¨Ġ
1 5ĠniÃ¡nĠ
ĠĠĠ gÃ¹ĠshÃ¬Ġ
dÃ¡ ĠdÃłoĠ
ĠsÄ«Ġ zhÃŃ
ĠzhÇĲ ĠyÃło
ĠkÄĽĠyÇĲ ĠzÃłiĠ
7 2
k ÃłoĠ
ĠjiÄĵ ĠjÃŃĠ
ĠbÇİi ĠwÃłnĠ
ĠĠĠ chÃ©nĠ
ĠwÄĵi ĠxiÃ©
ĠkÇİoĠ gÇĶ
rÃ©nĠmÃŃn ĠdÃłiĠbiÇİoĠdÃłĠhuÃ¬
o di
s onĠ
ĠĠĠ xiÇİo
biÇİo ĠxiÃłn
bÄģ ĠlÃŃĠ
ĠdÃ¬Ġ zhÃ¬Ġ
ĠtÃŃ ĠchÅ«Ġ
ĠxiÄģngĠ sÃ¬Ġ
Ġ198 2ĠniÃ¡nĠ
ĠdeĠb Ã¡i
shÃłng ĠyÃ¬ngĠ
mÇİ ĠlÄģ
ĠsÄ« ĠdeĠ
ĠmÃŃngĠ dÄģn
ĠÄģnĠ zhuÄģngĠ
bÃ¹ ĠlÇĶĠ
tu Ã³
ĠhÃ©Ġ yuÄĵ
ĠshÃ¨ ĠyÃºĠ
o li
Ġ1 1Ġ
ĠlÃŃĠ zi
ĠqÄ«nĠ zÃ¬
Ġ195 8ĠniÃ¡nĠ
jÃŃ ĠzhÅįngĠ
zhÇĲ ĠhuÄ«
ĠyÄ«n ĠqÃŃ
ĠhÃ¡i ĠyÇĴu
ĠtÃ³u ĠxiÃ¡ngĠ
Ġmi Çİo
ĠxiÇİngĠ yÃło
chÃ³ng ĠqÃ¬ng
ĠjiÃłng ĠdÄ«
ĠĠĠ dÅįng
Çİn ĠzÃłiĠ
ĠshÃŃĠ zhÃ¬Ġ
ĠgÃ¨ ĠguÃ³Ġ
ĠmÃ² ĠÄĽr
ec tionĠĠĠ
ĠĠĠgÃłiĠ yÃłoĠ
ĠyÇĴuĠ sÄģn
ĠzhÇİng ĠdÃ¡
ĠnÃ³ng ĠcÅ«n
ĠdeĠguÄģn ĠxÃ¬
4 ĠgÃ¨
bÃłn ĠdÇİo
yÄ«Ġ cÃ¬
ĠshÃŃĠ pÇĲnĠ
ĠtÃ³ng ĠxÃ¬ng
ĠkÄĵ ĠfÅ«Ġ
shÃ¹ ĠjÃ¹
ĠsÄ« ĠlÃ¬Ġ
Ġ1 20
ĠxÄ«Ġ lÃ¡n
ĠfÃ©ng Ġ
ĠmiÃłn ĠlÃŃn
ĠtÃ¨ ĠzhÄĵngĠ
c ÇİoĠ
n ÇĶĠ
qu ÇİnĠ
ĠyÄĽ ĠkÄĽĠyÇĲĠ
ĠsÃł ĠÄĽr
ĠyuÃ¨ĠlÃ¡i ĠyuÃ¨Ġ
Ġ Ï
ĠxÄ«n ĠjiÄģng
ĠguÄģn ĠzhÃ¬Ġ
ĠbÇĲ ng
ĠnÃ¨i ĠrÃ³ngĠ
ĠÃ¨r Ġ
Ġ197 9ĠniÃ¡nĠ
zhÇĴng ĠzÃº
ĠdÃł ĠdÃ¬Ġ
ĠfÃłnĠwÃ©iĠ nÃ¨i
rÃ©n ĠzÃłiĠ
ĠtÄģ ĠyÇĶ
ĠgÄģi ĠgÅįngĠsÄ«
ĠdeĠp Ä«
ĠzhÄģng ĠzhuÄģnĠjÃŃĠ
ĠhÃº nĠ
l y
jÄ«ng ĠchÃ¡ng
mÄĽi ĠniÃ¡nĠ
ĠdeĠ dÃłn
ĠshÃ¬Ġ juÃ©
ĠjÃŃĠ jÃ¹
ĠyuÃ¡nĠ zi
Ġ198 0ĠniÃ¡nĠ
ĠxiÄģo ĠxÄ«Ġ
ĠguÃ¬ ĠzÃº
ĠyÃºĠ202 3ĠniÃ¡nĠ
ĠchuÃłng ĠzÃło
n eĠ
Ã©r Ġzi
diÃłn ĠlÃ¬Ġ
jiÃ© ĠgÃ²uĠ
fÃ¨n ĠzÇĲ
gÇİi ĠbiÃłn
Ġt Å«n
ĠyuÃłn ĠshÃ¬Ġ
Ġdi Äģo
tiÃ¡o ĠjiÃłn
diÃłoĠ chÃ¡Ġ
ĠhÃ²uĠ qÄ«
Ġ18 3
Ġ194 6ĠniÃ¡nĠ
9 3
k Å«n
guÃ³Ġ wÃ¡ng
ĠmÇİ ĠsÄ«Ġ
ĠwÃ¡n ĠgÅįngĠ
ĠchÃ³u Ġ
ĠjÃ¬ĠsuÃłnĠ jÄ«
jiÄģĠnÃ¡ ĠdÃłĠ
y ÄģnĠ
yÇĲ ĠlÃ¡iĠ
guÃ² Ġ
ĠfÃ¹ ĠjÃ¬nĠ
ĠgÄģi ĠpiÃłn
Ġ4 00
Ġ197 8ĠniÃ¡nĠ
ĠzÃłnĠ shÃŃĠ
duÃ¬ ĠyÃºĠ
ĠshÃłng ĠshÅ«
mÃ² Ġ
ĠyÃ¹ ĠshÇĲĠ
ĠbÃło ĠfÄģĠ
ĠyÃŃngĠ yÃ¹n
ĠdeĠ chÄĵ
ĠzhÃłn ĠtÃ¡i
ĠhÃ©ĠbÃ¬ng Ġ
shÃ¨ ĠzhÃ¬Ġ
duÅį ĠcÃ¬
ĠtÃ¨ ĠzhÄĵng
ĠdeĠp Ã¡i
tu ÇĴ
ĠxiÃłn ĠchÃ©ngĠ
ĠpÄ« ĠpÃŃngĠ
shÃ¨ ĠshÄ«
ĠzhÇĶ ĠbÃłn
ĠhÃ²uĠlÃ¡i Ġ
ĠshÃ¬ĠyÃ³u ĠyÃºĠ
ĠÄģĠÄĽr ĠbÄĵi
f Ã¡
p Äģi
gÃ²ng ĠxiÃłnĠ
200 9ĠniÃ¡nĠ
ĠgÄĵ ĠshÇĴuĠ
th Ġ
kÄĵ ĠxuÃ©ĠyuÃłn
ĠxiÃłn ĠshÃ¬Ġ
Ġzh Çİi
ĠtÃŃ ĠmÃŃngĠ
ĠjiÇİngĠ xiÃłngĠ
ĠyÃºĠ201 0ĠniÃ¡nĠ
6 3
ĠlÃ¹ ĠzhÃłn
ĠjÄ«ng ĠyÃłnĠ
ĠzhÅįng ĠshÃ¬ĠyÇİn
Ġ194 8ĠniÃ¡nĠ
8 7
ĠzÃłiĠ shÃłng
ĠrÃ¨n ĠzhÃŃ
Ġch Ä«Ġ
ĠliÃ¡n ĠsÃłiĠ
ĠzÇĶ ĠzhÇĲ
ĠwÇĶ ĠhÃłnĠ
ĠdÅįu ĠbÃ¨i
ĠĠĠf ÇİnĠ
qÃºn Ġ
ĠsÇĲ ĠhÃ²uĠ
jÃ¬n Ġ
jÇĲ ĠgÃ¨
ĠzÄģi Ġ
jÃ¬nĠxÃŃng Ġle
huÃ¡ng ĠdÃ¬Ġ
jiÃ¨ ĠshÃło
qÃ¬ ĠchÄĵ
guÃ³Ġ lÃ¬Ġ
ĠxiÃł ĠlÃ¡i
Ġli ÇİnĠ
nÃ¨i ĠrÃ³ngĠ
ĠbÃ¹Ġ dÃŃĠ
ĠjÄ«ng ĠlÇĲĠ
ĠcuÃ² ĠshÄ«Ġ
ĠdÃłngĠ tiÄģn
ĠĠĠ rÃ©nĠ
zÄ« Ġ
ĠdeĠ dÃº
ĠdÃ© ĠjÅ«n
Ġ1 2Ġ
ĠjiÄģ ĠrÃ©nĠ
shÄĵn ĠzhÃ¨n
chÇİn ĠyÃ¨
ĠhÃ©Ġ dÅįng
Ġ16 0
ĠĠĠjÇĲnĠ guÇİn
kÄģi ĠfÃłngĠ
fÄĵng ĠgÃ©
ĠzÃłiĠ tÃ¡iĠwÄģnĠ
ĠzhÅįngĠ yÄĽ
ĠxÃ¬ ĠjÃ¹
Ġh Çİn
shÃ¨ ĠjÃ¬
ĠwÃ¨iĠ zhÄ«
ĠjiÄģn ĠchÃŃ
ĠzÄ« ĠgÃ©
ĠS t
ĠdeĠ zhÇİng
ĠjÄ« ĠduÃ¬
ĠqiÄģnĠ dÃ¬ng
ĠwÃ¨iĠ yuÃ¡nĠ
ĠshÄĵng ĠwÃ¹Ġ
ĠfÃ¹ ĠqÄ«
ĠdÃłi ĠyÇĴuĠ
ĠnÃŃ ĠhÄĵi
zhuÃłngĠ tÃłiĠ
s e
ĠdeĠ dÃ©
ĠyÇĲĠ shÃłngĠ
f Çİng
h Å«nĠ
ĠdeĠ jiÄģn
ĠqÇĲ ĠyÃ¬Ġ
ĠtiÃ¡n ĠjÃ¬ng
ĠzhuÃłngĠ tÃłi
ĠfÃ¡ ĠlÃ¬ĠyÃł
huÃ¡ngĠ jiÄģĠ
ĠĠĠ shÃłng
ĠĠĠ lÃŃn
qÇĲ ĠlÃ¡i
Ġs ÃłngĠ
Ġh ÇĶ
ĠgÄģo ĠdÃ¡
ĠshÃ²u ĠyÇĶĠ
rÃ©nĠkÇĴu ĠwÃ¨iĠ
ĠdeĠmÃŃng ĠzÃ¬
xiÇİoĠxÃŃngĠxÄ«ng Ġ
b ÇİĠ
du ÇĴ
ĠÄĽr ĠhÃ©Ġ
ĠchÃ¡ng ĠwÄĽiĠ
ĠhÃ¡nĠ yÇĴu
Ã© Ġ
cÃ¬ ĠyÃºĠ
fÄĵi ĠlÇľĠbÄ«nĠ
ĠwÃ¨iĠ tÄģ
ĠdeĠyÄ«Ġ zhÇĴngĠ
ĠlÇĲngĠ yÃ¹Ġ
ĠdÄ«Ġ qÃ¬
ĠzuÇĴĠyÃ²u Ġ
u sĠĠĠ
ĠxÄ« ĠlÇĲ
ĠhuÃ³ ĠyuÃ¨Ġ
t ÃłoĠ
ĠĠĠ tÃ³ng
xu Äĵ
hÇİi ĠbÃ¡
qÇĶ ĠdÃłi
ĠdeĠ shÃ¨ĠhuÃ¬
Ġs ectionĠĠĠ
ĠxiÃło ĠzhÇİng
ĠrÃº ĠcÇĲĠ
ĠJ R
chÄģ ĠyÃ¬Ġ
ĠĠĠ jiÄģĠtÃŃngĠ
ti onĠ
yÇİn ĠchÅ«Ġ
ĠgÅįngĠ zhÃłn
ĠgÅįngĠ jÃ¹
ĠdÃło ĠlÃ¹Ġ
Ġ6 ĠyuÃ¨Ġ
ĠtÃº ĠzhÅįngĠ
xÃ¬ Ġ
ĠyÄ«n ĠshÃ¬Ġ
ĠmÃ©ng ĠjÅ«n
ĠsuÃ¬ ĠdÃłoĠ
ĠdeĠp i
ĠdeĠgu ÇĲ
cÃ©ng Ġ
ĠhuÃ¬ ĠzhÇİngĠ
ĠpÃŃng ĠjiÃ¨
ĠjÇĲnĠ jÃŃĠ
ar d
ĠqÃºn ĠdÇİoĠ
5 6
bÃłn ĠshÃ¬ĠchÃ¹
shÃ¨ng Ġ
ĠzÃłiĠ qiÃ¡n
ĠzÃłiĠ bÄĽiĠjÄ«ng
ĠkÃ¨ ĠsÃł
Ġ3 1
rÃ¹ nĠ
ĠzÃłiĠ dÄģng
ĠxuÃ© ĠshÄĵngĠ
ĠzÇĴng ĠlÇĲĠ
tÃ¨ ĠdÃ¬ng
ĠdeĠ jiÃ¹
ĠshÃ¬Ġ rÃ©nĠmÃŃn
ĠshÅįu ĠgÃ²u
ĠhuÄģnĠ yÃŃng
fÃº ĠhÃ©Ġ
200 0ĠniÃ¡nĠ
ĠbÃ¹Ġ zhÃ¨ng
ĠgÅįngĠ chÃ©ng
ĠjÃŃĠ ÄĽr
ĠÃ©r ĠyÃ¡nĠ
ĠwÅ«Ġ rÇİnĠ
ĠdeĠxi Å«Ġ
ĠshÃ¬ĠzhÅįngĠhuÃ¡ ĠrÃ©nĠmÃŃnĠgÃ²ngĠhÃ©ĠguÃ³Ġ
7 3
ĠĠĠ 15
kÄĽ Ġ
ĠdeĠ yÃ¹n
ĠshÃ¬Ġ xÄ«ng
ĠdÃłn ĠqÃŃ
Ġch Å«nĠ
ĠqÇĶ ĠdÃłiĠ
ĠzÄģi ĠpÃ©iĠ
oc k
ĠĠĠgÄĵnĠjÃ¹Ġ 2020ĠniÃ¡nĠmÄĽiĠguÃ³ĠrÃ©nĠkÇĴuĠpÇĶĠchÃ¡ĠdeĠshÃ¹ĠjÃ¹Ġ
jiÃło Ġ
ĠtÅįng ĠxÃ¹nĠ
ĠtÃłi ĠkÅįng
biÄģo ĠzhÃ¬Ġ
â Ĩ
Ãłi ĠÄĽrĠlÃ¡n
ĠdÃ¬Ġ 4
ĠzÇİo ĠniÃ¡nĠ
ĠshÃ¬Ġ zhÇİngĠ
ĠgÅįngĠ jiÄģo
ĠguÇİng ĠgÃłoĠ
ĠzÄģoĠ shÃ²u
ĠhÃ©Ġ suÄģnĠ
202 3ĠniÃ¡nĠ
ĠkÇİ ĠsÄ«
gÄģo ĠxiÃ³ng
200 7ĠniÃ¡nĠ
ĠchÃ©ngĠ zhÃ¨n
ĠyÃ¬Ġ qÃŃngĠ
ĠfÄĵn ĠlÃ¡n
ĠfÃº ĠlÃ©i
Ġ9 Ġ
ĠruÃ¬ Ġ
ro s
5 ĠmÇĲĠ
7 4
y ÄģĠ
bÃ¬ng ĠbÃ¹Ġ
shÄĽng ĠdeĠyÃŃĠgÃ¨ĠshÃ¬ĠzhÃ¨nĠ
rÃº ĠhÃ©Ġ
ĠyuÃ¨Ġ shÄĵng
ĠzhÇĶ ĠyÃ¬ĠdeĠ
ĠlÃ¡i ĠnÃł
gÇİi ĠshÃłnĠ
ĠwÃ¨iĠ cÇĲ
ĠnÃ¡n ĠjÃŃĠ
ĠkÄģi ĠzhÇİnĠ
ĠpÃ¨i ĠzhÃ¬Ġ
guÃłnĠ jÅ«n
7 9
O M
m a
zhÃ¬ ĠshÃ¬Ġ
jiÃ© ĠkÃ¨
wÇİng ĠqiÃº
ĠdeĠ guÃ³ĠjÃ¬Ġ
ĠhuÃ¬ ĠyÃ¬
ĠzhÃ¨ ĠchÇİng
ĠhÇİi ĠxiÃ¡
tiÃ¡o ĠyuÄĵ
ĠfÃ¡ ĠkÃ¨
ĠĠĠyÃ³u ĠxÃ¬
1 4ĠniÃ¡nĠ
E C
dÃł ĠbÃ¹ĠfÃ¨n
jÃ¬n ĠyÃŃĠbÃ¹Ġ
ĠzhÃ¬Ġ shÇİoĠ
ĠdÃ© ĠÄĽr
ĠshÄĵng ĠrÃ¨n
ĠhÃło ĠwÃ¨iĠ
ĠfÄĵi ĠxÃŃngĠ
ĠwÄĵi ĠjÄ«Ġ
ĠdÇİ ĠjÄ«Ġ
oo k
ĠĠĠ luÃ³
ĠyÄ«Ġ zhÃ¬Ġ
ĠyÄ«Ġ xÃ¬ĠliÃ¨
ĠzhÇĶ nĠdeĠ
ĠxÃŃngĠ chÃ©ng
ĠzhuÃłngĠ bÃ¬ngĠdÃº
c Çİo
z Ãłng
rÃº Ġ
ĠwÇİng ĠlÃ¹
ĠsuÃ¬ ĠdeĠ
miÃ¡o ĠshÃ¹Ġ
Ġzu ÇĲ
zhÇĲ ĠhuÄ«Ġ
shÄ« ĠqÃ¹
ĠhÇİi ĠdÃłoĠ
ĠlÇĲĠ ÃłoĠ
202 4ĠniÃ¡nĠ
ĠdeĠdÃ¬Ġ yÃŃĠgÃ¨
ĠguÇİngĠ chÇİngĠ
ĠdiÃłnĠshÃ¬Ġ jÃ¹Ġ
ĠshÃ¬ĠxÄ« ĠbÄģnĠyÃ¡
jiÄĵ ĠjÃ¬n
ĠsÄ« ĠzhÅįu
ĠzhÃ¹ ĠmÃŃngĠ
Ġ20 Ġ
Ġ000 ĠrÃ©nĠ
ĠyÃºĠ202 4ĠniÃ¡nĠ
shÃło ĠniÃ¡nĠ
n ÃłiĠ
fÄĵi Ġ
ĠdÃ¬Ġ chÇİn
ĠjÃ¹ ĠyuÃłn
ĠzhÇĶ ĠxÃŃ
ĠshÇĴu ĠgÃ¨
ĠxÄ«Ġ bÃ¹
ĠbÄ«nĠ hÇİi
ĠxuÃ© ĠxÃŃ
ĠshÄĽng ĠwÄĽi
ĠyuÃ¡n ĠgÅįngĠ
ĠzuÃ² ĠwÃ¨iĠ
Ġ6 4
ĠtiÃ¡o ĠyuÄĵĠ
ĠkÃ²ng Ġ
ruÃ¬ ĠdiÇİn
ĠlÃ¬ĠfÇİ ĠhuÃ¬
yÃŃ ĠcÃ¬ĠshÃ¬ĠjiÃ¨ĠdÃłĠzhÃłn
ĠdeĠ hÃ³ng
ĠzhÅįngĠ shÅ«
ĠjiÄĵ ĠdÃło
Ġhan tĠ
Çİo ĠzhÃłnĠ
ĠchÅ« ĠdÃłoĠ
ĠdeĠmÃ³ ĠshÃ¬Ġ
f or
bÃ¹ ĠmÇİnĠ
Ġ20 ĠshÃ¬ĠjÃ¬Ġ
Ġ16 2
ĠzhÃ¬Ġ yÃŃ
ĠshÄĵng ĠmÃŃngĠ
ĠxiÃł ĠlÃ¡iĠ
ĠshÄģn ĠmÃłi
Ġ4 9
ĠhÃ©Ġ jÄ«n
ĠfÄĵng ĠgÃ©Ġ
ĠhuÃłnĠ chÃ©ngĠ
re s
ĠdeĠt ÇĶĠdÃ¬Ġ
qÃ¬ ĠxiÃłng
Ġhu Ãłi
ĠwÃ©iĠ rÃłoĠ
ĠxiÃł ĠwÇĶ
ĠdeĠm Ã²
ĠĠĠ200 4ĠniÃ¡nĠ
ĠpÃ©ng Ġ
ĠbÃł Ġ
8 6
qi Äģng
xuÇİn ĠshÇĴu
ĠshÃ¬Ġ gÄģi
ĠzhÅįngĠ qÄ«
ĠdÃłn ĠrÃ©ng
ĠzhÄĵng ĠqÇĶ
ĠshÃ¬ĠjiÃ¨ ĠshÃłng
ĠkÇİĠ lÄģ
ĠgÃ²ngĠhÃ©Ġ guÃ³
bÃ³ ĠshÃ¬Ġ
ĠzÃłiĠ jÃ¹
ĠzÃłiĠ yÄ«ngĠguÃ³Ġ
ĠrÃ©nĠ zhÄ«
ĠzhÄ« ĠyÃ¬Ġ
ĠjÄ«ng ĠdiÇİn
ĠdÄģng ĠshÃŃ
ĠliÃłng ĠdeĠ
ĠyÃºĠ201 1ĠniÃ¡nĠ
n Ãº
ĠĠĠ lÄģ
lu ÇĴ
Ġm Äģ
ĠjiÃ© ĠguÇĴĠ
ĠfÇİnĠ Ã©r
ĠxiÃ© ĠdÃłi
ĠdeĠchÃ©ngĠ zhÃ¨nĠ
ĠgÅįngĠ wÃ¹
ĠrÃ¬Ġ zhÃłnĠzhÄĵng
ĠfÃ¹ ĠnÇļ
ĠsÄ«Ġ luÃ²
ĠlÄĽi Ġ
a yĠ
rÃ©n ĠhÃ©Ġ
huÃ² Ġ
Ġtu ÇĴ
ĠdÄ« ĠyÃºĠ
ĠyÃ© Ġ
xÃŃĠ jÄ«
zÄ« ĠgÃ©
Ġm Äģo
Ġgu ÃłiĠ
ĠbÃło ĠdÇİo
ĠdÃł ĠbÃ¹Ġ
ĠyÄ«Ġ jiÄģĠ
ĠshÅ« ĠguÇİnĠ
ĠxiÃło ĠzhÇİngĠ
ĠchÅ«ĠxiÃłn Ġle
ĠbÃłngĠ qiÃº
zhÇĲ ĠshÃ¬Ġ
Ġz Ã©i
ĠqÇĶ ĠxiÄģo
ĠsÄ«ĠlÃ¬ng Ġ
ĠĠĠjÃ¹ ĠqÃŃngĠ
ĠfÇİĠlÃ¡n ĠxÄ«
l an
mÃ¹ ĠdÃ¬Ġ
xÃ¹ ĠlÃ¬ĠyÃł
ĠdeĠ bÅį
ĠyÃ¬Ġ wÃłi
ĠdÃłĠ shÄ«
ĠshuÇĲ ĠpÃŃng
ĠshÃ¹nĠ lÃ¬Ġ
5 2
ĠyÇĴuĠ mÃŃng
wÃ©iĠ zhÇĶĠ
ĠguÄģn ĠfÃ¨iĠyÃ¡n
bÃ³ĠwÃ¹ĠguÇİn Ġ
s ÃłngĠ
ĠzhÃ¬Ġ dÃ¬Ġ
ĠyÃ¡n ĠchÃ¡ng
shÅįu ĠrÃ¹
wÃ¨n ĠtÃŃĠ
shÄĵn ĠtÇĲ
ĠxÃŃng ĠshÇĲ
ĠhuÃ¬ ĠyuÃ¡nĠ
ĠhÇİi ĠdÃło
ĠhÇİi ĠwÃłi
Ġ5 ĠyuÃ¨Ġ
ĠlÇļ ĠxÃŃngĠ
ĠshÃ¬Ġf ÃłnĠ
qÃ¹ Ġ
ĠniÃ¡n ĠniÃ¡nĠ
ĠzhÇĶ ĠlÃ¬Ġ
Ġ15 8
hÃº ĠbÄĽi
ĠlÃºĠwÇİĠÄĽr ĠshÄĽngĠ
5 3
b Ãł
m er
bÃ¬ ĠyÃ¨Ġ
ĠdÃ© ĠyÇĲ
xiÄģngĠ tÃ³ngĠ
ĠjiÄģo ĠgÄĽi
ĠchuÃ¡n ĠbÅį
ĠshÃ¨ĠhuÃ¬ ĠzhÇĶĠyÃ¬Ġ
sÅ«Ġ gÃ©ĠlÃ¡n
ch Åįu
liÃ¡n ĠsÃłiĠ
ĠmÄĽi ĠtiÄģn
ĠgÃ© ĠlÄģ
ĠyÇĲĠxiÃł ĠdÃ¬ĠqÅ«Ġ
jiÇĶ ĠlÃ³ng
sÄĵn ĠlÃŃn
chÃ¡i ĠyÃ³u
ĠshÃŃĠ yÃ²ng
ĠmÃ³ ĠxÃŃng
ĠluÃ² ĠkÃ¨
ĠbÇİi ĠniÃ¡nĠ
ĠdeĠyÃ¬ Ġs
ĠbÄ« nĠshÃ¬Ġ
ĠzhÃ¨ngĠ zhÃ¬
ĠzhÇİnĠ xiÃłn
Ġni ÇĶ
ĠlÃº Ġ
ĠyÅįu ĠshÃ¬Ġ
a ch
lÃ¹ ĠyÇĲng
ĠdeĠ hÄĵi
ĠshÃ¨ ĠbÃ¨iĠ
ĠhÄĽn ĠkuÃłiĠ
ĠnÃ³ng ĠmÃŃn
hÇİi ĠÃłnĠ
tÃłi ĠguÃ³Ġ
yÇİn ĠchÅ«
ĠdeĠ bÇĲ
ĠzÃłiĠ nÃ¨i
ĠhÃ©Ġ qÃŃĠtÄģĠ
ĠyÄ«Ġ dÃłiĠ
ĠyÇĶ ĠqÃŃĠtÄģ
ĠmÇİ ĠÄĵn
ĠbÄģ ĠÄĽr
ĠgÄĵn ĠsuÃŃĠ
biÇİo ĠxiÃłnĠ
bÄģ ĠniÃ¡nĠ
zÄ« ĠxÃ¹nĠ
ĠpÃŃng ĠmÃŃn
6 2
jiÄģ ĠlÃ¬ĠfÃºĠnÃŃĠyÃł
ĠlÇľ ĠshÄ«
ĠyÇĲnĠ yÃ²ng
ĠjÃº ĠzhÇİng
guÇİngĠ chÇİng
tuÄ« ĠdÃ²ng
ĠguÃ³ĠmÃŃn ĠdÇİngĠ
ĠshÃŃĠbÄģ ĠniÃ¡nĠ
liÃ¡n ĠhÃ©ĠguÃ³Ġ
rÃ¹ ĠxuÇİn
ĠpÃŃng ĠgÅ«Ġ
ĠhÃłi Ġ
ĠbÃ¨i ĠpÃłnĠ
ĠshÃ²u ĠyÇĶ
ĠnÃŃ ĠkÃ¨
or t
ÃłnĠdeĠ xiÇİoĠxÃŃngĠxÄ«ngĠ
ĠguÇĲ ĠdÃło
1 7ĠniÃ¡nĠ
ĠyÄ«Ġ rÃ©nĠ
ĠtÃ¡i ĠnÃ¡n
ĠyÃł ĠmÄĽiĠnÃŃĠyÃł
xiÄģngĠgÇİng Ġ
ĠsÇĶnĠ shÄ«
jiÄģ ĠzhÅįngĠ
fÄģ ĠshÃ¨
Ġxi Äģn
Ġ1 ĠlÃ¬Ġ
ĠxÄ«Ġ bÃ³
ĠqÇĲ ĠlÃ¡iĠ
ĠfÄĵng ĠwÃ¨iĠ
tÃ¡o ĠwÇİnĠ
ĠyuÃ¡nĠzhÃ¹ ĠmÃŃn
kÃ¨ ĠchÃ©ngĠ
200 6ĠniÃ¡nĠ
ĠbÃ¹Ġ shÇĶ
ĠzhÃ¬Ġ shÃŃĠ
ĠkÄĽ Ġ
ĠliÃº ĠxÃŃngĠ
ĠnÇļ ĠÃ©r
ĠpÃ² ĠshÇĲ
ĠxÃŃngĠzhÃ¨ngĠ yuÃłn
tÃ¡i ĠfÄĵng
ĠdÃł ĠbÇİnĠ
ĠzhÄ« ĠshÃ¬Ġ
ĠyÃło ĠwÃ¹
ĠzhÅįngĠguÃ³Ġ guÃ³ĠmÃŃn
ĠbÃło ĠgÃło
wÃ¨n ĠtÃŃ
ĠdeĠshÄĵn ĠfÃ¨n
guÇĲ ĠdÃłoĠ
ĠdeĠshuÅį ĠfÇİĠ
Ġzh Äĵ
ĠtÃ¬ Ġ
yÇĴu ĠguÄģn
bÃ¬ ĠyÃło
ĠdeĠ suÇĴĠyÇĴuĠ
ĠzhÅįu ĠqÄ«
ĠcÃ¡i ĠpÃłnĠ
guÄģngĠ xÃ¹
ĠzÄĵngĠjiÄģĠ le
ĠdeĠqÃŃngĠkuÃłngĠ xiÃł
yÃ³u ĠyÃºĠ
ĠdeĠ kÄĽ
ĠdeĠ qÄ«nĠ
ĠshÃ¬Ġ yuÃ¡nĠ
Ġb ÃŃĠ
Ġli ÇİoĠjiÄĽ
Ġku Ã¡ngĠ
ĠrÃ³ng ĠyÃ¹
ĠrÃº ĠcÇĲ
ĠkÅįng ĠqÃ¬
ĠshÄģ ĠsÇĲ
7 ĠyuÃ¨Ġ1ĠrÃ¬Ġ
ĠxuÃ©Ġ kÄĵ
ĠxiÇİo ĠxuÃ©
ĠzuÃ² ĠzhÃłnĠ
ĠzÄ« ĠchÇİn
ĠhuÃ¡nĠjÃ¬ng Ġ
a di
