{"!":0,"\"":1,"#":2,"$":3,"%":4,"&":5,"'":6,"(":7,")":8,"*":9,"+":10,",":11,"-":12,".":13,"/":14,"0":15,"1":16,"2":17,"3":18,"4":19,"5":20,"6":21,"7":22,"8":23,"9":24,":":25,";":26,"=":27,"?":28,"@":29,"A":30,"B":31,"C":32,"D":33,"E":34,"F":35,"G":36,"H":37,"I":38,"J":39,"K":40,"L":41,"M":42,"N":43,"O":44,"P":45,"Q":46,"R":47,"S":48,"T":49,"U":50,"V":51,"W":52,"X":53,"Y":54,"Z":55,"[":56,"\\":57,"]":58,"^":59,"_":60,"`":61,"a":62,"b":63,"c":64,"d":65,"e":66,"f":67,"g":68,"h":69,"i":70,"j":71,"k":72,"l":73,"m":74,"n":75,"o":76,"p":77,"q":78,"r":79,"s":80,"t":81,"u":82,"v":83,"w":84,"x":85,"y":86,"z":87,"|":88,"~":89,"¡":90,"¢":91,"£":92,"¤":93,"¥":94,"¦":95,"§":96,"¨":97,"©":98,"ª":99,"«":100,"¬":101,"®":102,"¯":103,"°":104,"±":105,"²":106,"³":107,"´":108,"µ":109,"¶":110,"·":111,"¸":112,"¹":113,"º":114,"»":115,"¼":116,"½":117,"¾":118,"¿":119,"Â":120,"Ã":121,"Ä":122,"Å":123,"Æ":124,"Ç":125,"È":126,"É":127,"Ê":128,"Ë":129,"Ì":130,"Í":131,"Î":132,"Ï":133,"Ð":134,"Ñ":135,"Ò":136,"Ó":137,"Ô":138,"Õ":139,"Ö":140,"×":141,"Ø":142,"Ù":143,"Ú":144,"Û":145,"Ü":146,"Þ":147,"ß":148,"à":149,"á":150,"â":151,"ã":152,"ä":153,"ê":154,"ë":155,"ì":156,"í":157,"î":158,"ï":159,"ð":160,"ñ":161,"Ċ":162,"Ġ":163,"ġ":164,"Ģ":165,"ģ":166,"Ĥ":167,"ĥ":168,"Ħ":169,"ħ":170,"Ĩ":171,"ĩ":172,"Ī":173,"ī":174,"Ĭ":175,"ĭ":176,"Į":177,"į":178,"İ":179,"ı":180,"Ĳ":181,"ĳ":182,"Ĵ":183,"ĵ":184,"Ķ":185,"ķ":186,"ĸ":187,"Ĺ":188,"ĺ":189,"Ļ":190,"ļ":191,"Ľ":192,"ľ":193,"Ŀ":194,"ŀ":195,"Ł":196,"ł":197,"Ń":198,"ng":199,"hÃ":200,"Ãł":201,"Äģ":202,"Ã¬":203,"Ã¡":204,"Ä«":205,"Ã¨":206,"Çİ":207,"ĠĠ":208,"Ã©":209,"ÃŃ":210,"shÃ":211,"Ã¹":212,"Ã¡n":213,"zh":214,"ÇĲ":215,"Åį":216,"ji":217,"de":218,"Ãłn":219,"Äĵ":220,"zhÃ":221,"sh":222,"ÄĽ":223,"Ã³":224,"ÇĶ":225,"xi":226,"Ã²":227,"Ãº":228,"Äģn":229,"ĠĠĠ":230,"Ãłi":231,"Å«":232,"Åįng":233,"ÇĴ":234,"ãĢ":235,"shÃ¬":236,"hu":237,"Ã¨i":238,"gu":239,"iÃ¡n":240,"hÃ©":241,"Ãło":242,"Äģng":243,"ÃŃng":244,"yu":245,"Çİn":246,"ch":247,"niÃ¡n":248,"yÄ«":249,"Çİng":250,"Ã©n":251,"ÇĴu":252,"Ã¬ng":253,"wÃ¨i":254,"Çİo":255,"zÃłi":256,"ãĢģ":257,"jÄ«":258,"Äĵng":259,"zhÅįng":260,"xÄ«":261,"bÃ¹":262,"jÃ¬":263,"Ãłng":264,"li":265,"zhÃ¨":266,"shÃŃ":267,"dÃ¬":268,"guÃ³":269,"yÃº":270,"rÃ©n":271,"Ã²ng":272,"chÃ":273,"Äģo":274,"du":275,"chÃ©":276,"yÇĲ":277,"lÃ¬":278,"Ã¡ng":279,"yÃ¬":280,"uÃ²":281,"Ã¡i":282,"zhÃ¬":283,"chÃ©ng":284,"Ã©i":285,"xu":286,"gÅįng":287,"jÃŃ":288,"²u":289,"ÄĽi":290,"iÃłn":291,"Äĵn":292,"Ã³ng":293,"yuÃ¨":294,"yÇĴu":295,"yuÃ¡n":296,"dÃł":297,"qi":298,"Åįu":299,"lÇĲ":300,"20":301,"Ã³u":302,"Äģi":303,"xiÃłn":304,"jiÄģ":305,"sÄ«":306,"Å«n":307,"xÃŃng":308,"yÇĶ":309,"Ã¨n":310,"ÇĴng":311,"ÃŃn":312,"tÄģ":313,"rÃ¬":314,"zhÄ«":315,"hÃ²u":316,"Çİi":317,"gÃ¨":318,"zhÃł":319,"Ã©ng":320,"le":321,"wÃ©i":322,"huÃ¬":323,"dÃło":324,"19":325,"bi":326,"shÃł":327,"qÄ«":328,"qÃŃ":329,"shÃ¨":330,"su":331,"zhÃ¨ng":332,"mÃŃng":333,"jiÃłn":334,"xuÃ©":335,"chÅ«":336,"yÃ¹":337,"ÄĽng":338,"zuÃ²":339,"shÄĵng":340,"duÃ¬":341,"yÃ³u":342,"qÅ«":343,"shÃłng":344,"ÄĽn":345,"dÃ©":346,"lÃ¹":347,"bÃ¨i":348,"chÃ¡":349,"ti":350,"shÇĲ":351,"zhÃłn":352,"zhÇĶ":353,"Äĵi":354,"qu":355,"jÃ¹":356,"xÄ«n":357,"jÅ«n":358,"zhu":359,"ÄĽr":360,"Ã¡o":361,"shÃ¹":362,"uÃ¬":363,"rÃ¨n":364,"fÄģ":365,"wÃ¹":366,"bÃ¬ng":367,"kÃ¨":368,"Ã©r":369,"dÃłi":370,"yÃŃ":371,"jÃ¬n":372,"zÃ¬":373,"yÄ«n":374,"fÃ¹":375,"fÄģng":376,"jÄ«ng":377,"nÃ¡n":378,"huÃł":379,"xÃ¬":380,"zhÅįu":381,"pÃŃng":382,"Ã²u":383,"xiÃł":384,"lÃ¡i":385,"yÃ²ng":386,"shu":387,"guÄģn":388,"tÃ³ng":389,"ãĢĭ":390,"ãĢĬ":391,"fÇİ":392,"zhÃ¹":393,"mÄĽi":394,"hÃ¡":395,"Â·":396,"jiÄģn":397,"jÇĲ":398,"huÃ²":399,"dÃ¹":400,"chu":401,"bÄĽn":402,"xiÄģng":403,"zhÃŃ":404,"dÃ²ng":405,"xiÃłng":406,"mÃŃn":407,"jiÄģng":408,"fÄĵn":409,"shÇĴu":410,"quÃ¡n":411,"wÃ©n":412,"yÃ¡n":413,"hÃł":414,"suÇĴ":415,"jiÃło":416,"qiÃ¡n":417,"diÃłn":418,"tÃ¨":419,"di":420,"duÅį":421,"Ãºn":422,"zuÃ¬":423,"kÄģi":424,"tu":425,"jiÃ©":426,"liÃ¡n":427,"zhÇĲ":428,"kÄĽ":429,"dÃłn":430,"mÃ¹":431,"yÃ¨":432,"fÃº":433,"mÇİ":434,"yÄĽ":435,"dÅįng":436,"qiÃº":437,"bÄĽi":438,"ãĢĮ":439,"ãĢį":440,"gÄģo":441,"yÃł":442,"qÇĲ":443,"jiÄĵ":444,"miÃłn":445,"hÇİi":446,"zhÇİng":447,"shÄ«":448,"jÄ«n":449,"cÇĲ":450,"lu":451,"nÃ¨i":452,"tÇĲ":453,"sÃłi":454,"sÄģn":455,"tÃ¡i":456,"gÃ©":457,"xÃ¬ng":458,"guÃ²":459,"rÃ¹":460,"201":461,"dÄĽng":462,"yÃło":463,"ju":464,"chÄĵ":465,"cÃ¬":466,"wÇĶ":467,"gÄģi":468,"dÃ¬ng":469,"chÃ¡ng":470,"biÇİo":471,"lÄģ":472,"gÃ²ng":473,"jiÃ¨":474,"shÃ²u":475,"dÇİo":476,"shÄģn":477,"chÇİng":478,"sÃ¬":479,"bÇĲ":480,"zÃ©":481,"tÃŃ":482,"kÄĵ":483,"dÄģng":484,"nÃ©ng":485,"Ã¨r":486,"wÃłi":487,"dÄģn":488,"xÃ¹":489,"zi":490,"kÇĴu":491,"xiÇİo":492,"zÇĶ":493,"bÄģ":494,"juÃ©":495,"lÃŃn":496,"liÃº":497,"shÄĽng":498,"yÄ«ng":499,"ku":500,"lÃ¡n":501,"luÃ³":502,"tÅįng":503,"200":504,"Ä«ng":505,"²ng":506,"mÇĲ":507,"zhÃ²ng":508,"en":509,"zhÄĽ":510,"shÇĶ":511,"tiÄģn":512,"zhÃ¨n":513,"Çļ":514,"qÃ¬":515,"zhÇĴng":516,"liÃ¨":517,"chÄĵng":518,"shÅ«":519,"yuÃłn":520,"bÇİo":521,"tÃłi":522,"fÇĶ":523,"fÄĵng":524,"gÇĶ":525,"qÄ«ng":526,"shÄĵn":527,"wÃ¡ng":528,"yÃ¹n":529,"guÇİn":530,"fÄĵi":531,"jiÃ¹":532,"liÇİng":533,"cÃ©ng":534,"mÃ©i":535,"10":536,"fÃ¨n":537,"hÃło":538,"³ng":539,"yÇİn":540,"wÄĽi":541,"zÇĴng":542,"xuÇİn":543,"xiÃło":544,"dÃ¡":545,"nÃł":546,"liÃłng":547,"bÅį":548,"zÃº":549,"jÃ¬ng":550,"bÃło":551,"nÃŃ":552,"wÃº":553,"tÇĴng":554,"huÃ¡":555,"jiÄģo":556,"yuÄĵ":557,"yÇĲng":558,"biÃłn":559,"xÄ«ng":560,"sÃ¹":561,"shuÇĲ":562,"yÃ¡ng":563,"hÃ¹":564,"men":565,"bÄģo":566,"gÄĵ":567,"bÃ³":568,"cÄģn":569,"cÃ³ng":570,"diÇİn":571,"bÃ¬":572,"rÃº":573,"bÃłn":574,"biÄģn":575,"wÇİng":576,"qÇĶ":577,"mi":578,"chÇİn":579,"sÃ¨":580,"zÄ«":581,"chuÃ¡n":582,"00":583,"shÃ¨ng":584,"rÃ¡n":585,"tÃº":586,"zhÄģng":587,"pÇĶ":588,"gÇİi":589,"gÇİng":590,"nÇļ":591,"lÃ¬ng":592,"luÃ²":593,"yÃ²u":594,"tÃ³u":595,"cÃ¨":596,"lÇ":597,"chÃŃ":598,"deĠ":599,"ĠdeĠ":600,"shÃ¬Ġ":601,"ĠshÃ¬Ġ":602,"ĠniÃ¡n":603,"nĠ":604,"ĠniÃ¡nĠ":605,"wÃ¨iĠ":606,"zÃłiĠ":607,"ĠwÃ¨iĠ":608,"ĠzÃłiĠ":609,"Ġl":610,"ÄģnĠ":611,"hÃ©Ġ":612,"zhÅįngĠ":613,"Ġm":614,"ĠhÃ©Ġ":615,"bÃ¹Ġ":616,"dÃ¬Ġ":617,"ÇİnĠ":618,"ÃłnĠ":619,"shÃŃĠ":620,"guÃ³Ġ":621,"Ġp":622,"rÃ©nĠ":623,"yÃºĠ":624,"Ġxi":625,"lÃ¬Ġ":626,"ĠzhÅįngĠ":627,"yÄ«Ġ":628,"Å«Ġ":629,"gÅįngĠ":630,"zhÃ¬Ġ":631,"Ġd":632,"Ġb":633,"ĠbÃ¹Ġ":634,"ĠyuÃ¨":635,"ĠyÃ¬":636,"Ġt":637,"ĠshÃŃĠ":638,"Ġw":639,"chÃ©ngĠ":640,"jÃŃĠ":641,"ĠyuÃ¨Ġ":642,"ĠdÃ¬Ġ":643,"ĠyÇĴu":644,"Ġf":645,"ĠrÃ©nĠ":646,"ĠyÇĲ":647,"ĠyÃºĠ":648,"Ġg":649,"Ġk":650,"ĠlÃ¬Ġ":651,"ĠzhÃ¬Ġ":652,"ĠgÅįngĠ":653,"ĠguÃ³Ġ":654,"yuÃ¡nĠ":655,"Ġji":656,"jÃ¬Ġ":657,"Ġy":658,"ĠjÃŃĠ":659,"ĠdÃł":660,"ÇĶĠ":661,"ĠxiÃłn":662,"ĠrÃ¬":663,"ĠchÃ©ngĠ":664,"Ġz":665,"Ġhu":666,"ĠgÃ¨":667,"ÃŃĠ":668,"ĠtÄģ":669,"ĠyÄ«Ġ":670,"Ġc":671,"ĠyÇĶ":672,"ngĠ":673,"ĠlÇĲ":674,"ĠxÃŃng":675,"ĠyÃ¬Ġ":676,"Ġzh":677,"ĠyÇĴuĠ":678,"ÄģngĠ":679,"ĠdÃło":680,"ĠjÄ«":681,"ĠzhÄ«":682,"jiÄģĠ":683,"hÃ²uĠ":684,"ĠsÄ«":685,"ĠrÃ¬Ġ":686,"Ġs":687,"ĠqÃŃ":688,"ĠyuÃ¡nĠ":689,"ĠmÃŃng":690,"ĠhuÃ¬":691,"ÇİngĠ":692,"ĠchÅ«":693,"ĠxuÃ©":694,"wÃ©iĠ":695,"Ã¡ngĠ":696,"ÃłngĠ":697,"ĠxÄ«":698,"Ġle":699,"Ġgu":700,"ĠjÃ¬Ġ":701,"ĠdÃ©":702,"ĠzhÃ¨ng":703,"Ġqi":704,"Ġ1":705,"ĠjiÃłn":706,"ÃłoĠ":707,"ĠyÇĲĠ":708,"ĠÄĽr":709,"ĠyÃ³u":710,"ĠzhÃłn":711,"ĠshÄĵng":712,"ĠlÃ¹":713,"ĠduÃ¬":714,"Ġn":715,"ĠÃ©r":716,"Ġr":717,"Ġsh":718,"ĠshÃłng":719,"ĠbÃ¬ng":720,"ĠbÃ¨i":721,"qÅ«Ġ":722,"ĠhÃ²uĠ":723,"zuÃ²Ġ":724,"ĠjÃ¹":725,"ĠzhÇĶ":726,"ĠshÇĲ":727,"ĠshÃ¨":728,"ĠrÃ¨n":729,"ĠchÃ":730,"ĠyÇĶĠ":731,"Ġzhu":732,"Ġx":733,"ĠxiÃłnĠ":734,"ĠjÅ«n":735,"ĠxÃ¬":736,"ĠyÄ«n":737,"ĠjiÄģĠ":738,"ĠkÃ¨":739,"ĠjÃ¬n":740,"ĠwÃ¹":741,"ĠpÃŃng":742,"ĠdÃ²ng":743,"ĠzÃ¬":744,"ÃŃngĠ":745,"ĠzhÅįu":746,"ĠshÃ¹":747,"Ġ19":748,"ĠfÄģ":749,"Ġh":750,"ĠfÃ¹":751,"ĠyÃ²ng":752,"ĠhÃ¡":753,"ĠfÄģng":754,"ĠjÄ«ng":755,"ĠyÃ¹":756,"ĠdÃłn":757,"ĠsÄ«Ġ":758,"ĠjÇĲ":759,"ĠxÃŃngĠ":760,"ĠtÄģĠ":761,"Ã¡nĠ":762,"ĠdÃłoĠ":763,"ÄģoĠ":764,"Ġch":765,"ĠhuÃł":766,"ÄģĠ":767,"ÇİoĠ":768,"ĠmÃŃngĠ":769,"ĠzhÄ«Ġ":770,"ĠzhÃ¨":771,"xiÄģngĠ":772,"ĠnÃ¡n":773,"ĠhuÃ²":774,"ĠxÄ«n":775,"ĠdÃłi":776,"ĠjiÄģng":777,"ĠwÃ©iĠ":778,"ĠxiÃłng":779,"ĠqÄ«":780,"ĠjÄ«Ġ":781,"ĠjiÃło":782,"ÇİĠ":783,"ÃłiĠ":784,"ĠlÃ¡i":785,"ĠdÃłĠ":786,"ĠzhÃ¨ngĠ":787,"ĠxiÃł":788,"ĠfÄĵn":789,"Ġq":790,"ĠtÃ³ng":791,"Ä«Ġ":792,"ĠshÇĴu":793,"ĠmiÃłn":794,"yÃŃĠgÃ¨":795,"ĠmÃ¹":796,"ĠzhÃ¹":797,"ĠfÇİ":798,"Ġj":799,"ĠdÃ¹":800,"ÇĲĠ":801,"ĠwÃ©n":802,"ĠtÃ¨":803,"ĠcÇĲ":804,"ĠzhÃŃ":805,"ĠmÇİ":806,"ĠkÄĽ":807,"ĠguÄģn":808,"ĠyÄĽ":809,"ĠmÄĽi":810,"ĠxÄ«Ġ":811,"ĠqiÃ¡n":812,"ĠyÃ¡n":813,"ĠsÃłi":814,"Ġsu":815,"ĠsuÇĴ":816,"ĠzuÃ¬":817,"ĠgÃ©":818,"ĠzhÇĲ":819,"ĠbiÇİo":820,"ĠyÃło":821,"ĠjiÄĵ":822,"ĠxuÃ©Ġ":823,"ĠgÄģo":824,"Ġli":825,"ĠtÇĲ":826,"ĠjiÄģn":827,"ĠjiÃ©":828,"ĠdÄĽng":829,"ĠqÅ«Ġ":830,"ĠyÃ¨":831,"ĠhÇİi":832,"ĠzhÇİng":833,"ĠbÄĽi":834,"ĠfÃº":835,"ĠquÃ¡n":836,"ĠdÃ¬ng":837,"Ġ2":838,"ĠliÃ¡n":839,"ĠhÃ":840,"ĠgÄģi":841,"ĠchÃ¡ng":842,"ĠxÃ¬ng":843,"ĠlÃ¡n":844,"ĠzÃ©":845,"ĠduÅį":846,"ĠchÄĵ":847,"ĠdÅįng":848,"ĠluÃ³":849,"ĠrÃ¹":850,"ĠcÃ¬":851,"Ġtu":852,"ĠtÃŃ":853,"ĠdiÃłn":854,"ĠqiÃº":855,"ĠzuÃ²Ġ":856,"ĠdÇİo":857,"ĠshÄĽng":858,"ĠguÃ²":859,"ĠshÄ«":860,"ĠjÄ«n":861,"ĠbÄĽn":862,"ĠkÄģi":863,"ĠshÃ²u":864,"Ġzi":865,"ĠlÇĲĠ":866,"ĠbÇĲ":867,"ĠtÅįng":868,"ĠwÃłi":869,"ĠwÃ¹Ġ":870,"ĠdÄģng":871,"ĠtÃ¡i":872,"ĠliÃ¨":873,"ĠshÅ«":874,"ĠchÃ¡":875,"ĠlÄģ":876,"ĠnÃ©ng":877,"ĠzÇĶ":878,"ĠtÇĴng":879,"Ġbi":880,"ĠshÄģn":881,"ĠnÃ¨i":882,"ĠliÃº":883,"Ġ3":884,"Ġti":885,"ĠwÇĶ":886,"ĠmÇĲ":887,"ĠxiÄģngĠ":888,"ĠchÇİng":889,"ĠmÃŃn":890,"ĠjuÃ©":891,"lÇľ":892,"1ĠniÃ¡nĠ":893,"shÃ©":894,"0ĠniÃ¡nĠ":895,"ĠchÄĵng":896,"Ġshu":897,"ĠqÇĲ":898,"5ĠniÃ¡nĠ":899,"ĠshÇĶ":900,"ĠhÃło":901,"ĠyÄ«ng":902,"ĠkÄĵ":903,"2ĠniÃ¡nĠ":904,"ĠyÃł":905,"ĠzhÃ²ng":906,"ĠlÃŃn":907,"4ĠniÃ¡nĠ":908,"Ġdu":909,"ĠmÃ©i":910,"ĠxiÇİo":911,"8ĠniÃ¡nĠ":912,"ĠshÄĵn":913,"ĠdÄģn":914,"ĠfÄĵng":915,"ĠyuÃ¨Ġ1":916,"ĠtiÄģn":917,"ĠgÃ²ng":918,"ĠqÃ¬":919,"ĠxÃ¹":920,"ĠxiÄĵ":921,"ĠsÃ¬":922,"3ĠniÃ¡nĠ":923,"Ġchu":924,"ĠcÃ©ng":925,"ĠkuÃ²":926,"ĠyÇĲng":927,"ĠlÃ¨i":928,"ĠyÇİn":929,"ĠsÄģn":930,"6ĠniÃ¡nĠ":931,"ĠbÄģo":932,"ĠyuÃ¨Ġ2":933,"202":934,"ĠzÇĴng":935,"ĠjiÃ¹":936,"ĠfÄĵi":937,"ĠpÇĲ":938,"ĠsÃ¨":939,"ĠlÃ³ng":940,"ĠyÃ¹n":941,"ĠgÇĶ":942,"ĠyÃŃ":943,"ĠbÇİo":944,"shÃ©nĠ":945,"7ĠniÃ¡nĠ":946,"ĠgÃ²u":947,"ĠxuÇİn":948,"ĠtÃłi":949,"ĠbÄģ":950,"ĠchÇİn":951,"ĠjiÄģ":952,"ĠzhÇĴng":953,"ĠliÇİng":954,"ĠyÃ¡ng":955,"ĠguÇİn":956,"ĠdÃ¡":957,"ĠzhÄĵng":958,"lÇĲĠ":959,"ĠwÇİng":960,"ĠnÃŃ":961,"ĠhÃ¹":962,"ĠdÅįu":963,"ĠÄģnĠ":964,"ĠwÃº":965,"ĠqÇĶ":966,"ĠmÃ©n":967,"ĠwÄĽi":968,"ĠzhÃł":969,"ĠliÃłng":970,"ĠzhÄĽ":971,"ĠzhÅįngĠguÃ³Ġ":972,"Ġku":973,"chÃ©nĠ":974,"ĠnÃł":975,"ĠhÃ²u":976,"ĠyuÃłn":977,"ĠcÃ³ng":978,"ĠjiÄģo":979,"ĠwÃ©i":980,"Ġxu":981,"ĠjiÃ¨":982,"ĠqÄ«ng":983,"ĠbiÃłn":984,"ĠshuÇĲ":985,"ĠwÃ¨iĠyÃºĠ":986,"ĠdiÇİn":987,"ĠyuÃ¡n":988,"or":989,"ĠbiÄģn":990,"Ġ4":991,"hÃłnĠ":992,"ĠqiÄģnĠ":993,"ĠbÃ¬":994,"ĠlÃ¬ng":995,"ĠzhÄģng":996,"ĠbÃ³":997,"ĠmÃ³":998,"er":999,"Ġ5":1000,"ĠxiÄģnĠ":1001,"Ġ201":1002,"ĠĠĠ19":1003,"ĠlÃºn":1004,"ĠbÃło":1005,"ĠwÃ¡ng":1006,"ĠbÄģnĠ":1007,"Ġ200":1008,"ĠwÄģnĠ":1009,"ĠyÃ²u":1010,"ĠzuÃ²":1011,"ĠlÃŃĠ":1012,"ĠrÃ³ng":1013,"ĠbÅį":1014,"ĠxiÃło":1015,"ĠqÅ«":1016,"ĠjÃ¬ng":1017,"9ĠniÃ¡nĠ":1018,"ĠfÅ«Ġ":1019,"ĠfÇĶ":1020,"ĠmÃ©ng":1021,"ĠpÇĲnĠ":1022,"ĠfÇİnĠ":1023,"ĠmÃ²":1024,"ĠrÃ¡n":1025,"ĠmÃ¬":1026,"ĠbÃ¹":1027,"ĠzÄ«":1028,"ĠrÃº":1029,"ĠzÃº":1030,"ĠÃłnĠ":1031,"ĠhÃ¡i":1032,"ĠbÇİnĠ":1033,"quÃ¨":1034,"ĠcÄģn":1035,"ĠxiÃ©":1036,"ĠluÃ²":1037,"ĠwÄĵi":1038,"ĠshÃ¨ng":1039,"ĠxÄ«ng":1040,"ĠgÄĵ":1041,"ĠmÃ¬ng":1042,"ĠlÇľ":1043,"ĠyuÄĵ":1044,"ĠhuÃ³":1045,"ĠzhÇİnĠ":1046,"ĠchÃŃ":1047,"ĠdÃº":1048,"ĠyÃº":1049,"ĠcÃ¨":1050,"eĠĠĠ":1051,"ĠtÃ³u":1052,"ĠwÃłnĠ":1053,"ĠtÄģĠmen":1054,"âĢ":1055,"ĠpÃŃngĠfÄģng":1056,"ĠpÇĶ":1057,"ĠgÅįngĠsÄ«":1058,"ĠzhÃłnĠ":1059,"ĠchÃ©ng":1060,"ĠgÇİi":1061,"ĠzhÃ¨n":1062,"an":1063,"Ġpi":1064,"ĠmÇĶĠ":1065,"ĠkÅįng":1066,"ĠnÇļ":1067,"ĠjiÃł":1068,"ĠcÃ¡i":1069,"ĠjÃŃ":1070,"ĠÃ¨r":1071,"aĠ":1072,"ĠshuÅį":1073,"ĠsÃ¹":1074,"ĠbÃłn":1075,"ĠjiÄĽ":1076,"ĠpiÃłn":1077,"ĠbiÃ©":1078,"ĠgÄĵn":1079,"ĠxÃŃĠ":1080,"Ġmi":1081,"ĠdeĠyÄ«Ġ":1082,"tĠ":1083,"mÄĽiĠguÃ³Ġ":1084,"Ġ6":1085,"ĠjiÇİnĠ":1086,"ĠchÃº":1087,"ĠjÃ¬":1088,"ĠchuÃ¡n":1089,"ĠjÇĲnĠ":1090,"ĠtÃº":1091,"12":1092,"ĠyÇĲnĠ":1093,"ĠpÃ¡i":1094,"ĠyÄ«":1095,"ĠjÃº":1096,"Ġdi":1097,"ĠhuÃ¡":1098,"ĠjiÅ«Ġ":1099,"ĠxiÇİngĠ":1100,"ĠfÃłnĠ":1101,"ĠzhÃ":1102,"ĠgÃ¹":1103,"ĠdeĠdÃ¬Ġ":1104,"ĠrÃ©nĠkÇĴu":1105,"ĠbÄģoĠkuÃ²":1106,"ar":1107,"ĠhÃłnĠ":1108,"ĠchÃ¹":1109,"ĠzhÄĵn":1110,"ĠzhÅįng":1111,"ĠyÇĲĠjÃŃĠ":1112,"ĠlÃ¹nĠ":1113,"ĠhÃ¡nĠ":1114,"ĠyÃ¬ng":1115,"ĠxiÅ«Ġ":1116,"ĠjÇĲngĠ":1117,"ĠshÃ¬ĠjiÃ¨":1118,"ĠqiÄĽ":1119,"ĠcÅ«n":1120,"ĠxiÃ¡":1121,"ĠgÅįngĠlÇĲĠ":1122,"ĠbÄ«ng":1123,"ĠshÃ©nĠ":1124,"ĠcÃŃĠ":1125,"ĠrÃ©n":1126,"ĠĠĠ201":1127,"ĠguÇĴ":1128,"ĠtiÃ¡o":1129,"ĠzhÃ¨ngĠfÇĶ":1130,"ĠqÃŃĠzhÅįngĠ":1131,"ĠchÅ«Ġ":1132,"Ġni":1133,"ĠchÃ¡o":1134,"ĠzhuÄģnĠ":1135,"ĠpÃ¨i":1136,"ĠshÇĲĠyÃ²ng":1137,"11":1138,"ĠzÅįng":1139,"ĠmÃłnĠ":1140,"ĠtÃ¡ngĠ":1141,"ĠlÇĲngĠ":1142,"ĠfÃ¨n":1143,"ĠdeĠyÃŃĠgÃ¨":1144,"ĠjÇĶĠ":1145,"ĠxÅ«Ġ":1146,"ĠdeĠshÃ¬Ġ":1147,"ĠĠĠzÃłiĠ":1148,"ĠyÃºĠ19":1149,"ĠmÇĲĠ":1150,"rÃ©nĠkÇĴu":1151,"Ġ7":1152,"ĠjiÇİngĠ":1153,"on":1154,"ĠlÃ©i":1155,"ĠwÅ«Ġ":1156,"ĠsÅ«Ġ":1157,"ĠlÃ¨":1158,"ĠhÃº":1159,"ĠdÇİngĠ":1160,"Ġ10":1161,"ĠqÃ¹":1162,"eĠ":1163,"ĠshÃ¬ĠyÄ«Ġ":1164,"ĠÃ©":1165,"ĠfÃ¨i":1166,"ĠtÄģĠdeĠ":1167,"ĠxiÄģng":1168,"ĠbÃ¡i":1169,"ĠxÃ¬nĠ":1170,"ĠshÃŃ":1171,"ĠdÃ²ngĠ":1172,"Ġ8":1173,"ĠsuÃ¬":1174,"ĠshÄģngĠ":1175,"ĠbÃ¹ĠfÃ¨n":1176,"ĠbÇİi":1177,"ĠlÃ¹Ġ":1178,"ĠchÃ³ng":1179,"Ġ18":1180,"ĠrÃ¬ĠbÄĽn":1181,"ĠshÅįu":1182,"ĠhÃ©":1183,"ĠtÄ«ng":1184,"sĠ":1185,"18":1186,"ĠdÅ«Ġ":1187,"ĠtiÃ¡n":1188,"ĠhÃ³ng":1189,"ĠzhÃ¬":1190,"ĠchÃ©nĠ":1191,"ĠhuÃŃĠ":1192,"ĠyÄ«nĠcÇĲ":1193,"ĠduÃłnĠ":1194,"ĠchÃ©ngĠwÃ©iĠ":1195,"ĠÄģ":1196,"ĠrÃ©nĠmÃŃn":1197,"ĠshÃ¬ĠwÃ¨iĠ":1198,"ni":1199,"ĠcÇİi":1200,"ĠmÄĽiĠguÃ³Ġ":1201,"ĠlÄĵi":1202,"ĠhuÃ¡ngĠ":1203,"ĠC":1204,"ĠlÃ¬":1205,"ĠyÃŃĠgÃ¨":1206,"ĠhuÃ¬Ġ":1207,"Ã¨ngĠ":1208,"Ġã":1209,"ĠwÃ¨n":1210,"ĠshÃł":1211,"zhÅįngĠguÃ³Ġ":1212,"ĠqiÃ¡o":1213,"shÃ¬ĠdeĠ":1214,"ĠqÄ«nĠ":1215,"ĠzhÃło":1216,"ĠÄĽrĠ":1217,"ĠS":1218,"ĠguÇİngĠ":1219,"ĠzÄĵng":1220,"ĠquÃ¨":1221,"ĠtÃŃngĠ":1222,"ĠpÃ²":1223,"sĠĠĠ":1224,"ĠhuÃ²ĠdÃ©":1225,"ĠxÃ¹nĠ":1226,"ĠsÃł":1227,"ĠkÇĴu":1228,"ĠlÇļ":1229,"ĠkÃ¹":1230,"ĠhÃ©ĠguÃ³Ġ":1231,"uÇĴ":1232,"ĠsuÃŃĠ":1233,"ĠA":1234,"zhÃ¨nĠ":1235,"ĠdÄĵng":1236,"ĠjÃ¹Ġ":1237,"tiÄĽ":1238,"ĠyÇĴng":1239,"Ġ9":1240,"ĠgÃ¨ngĠ":1241,"ĠkÄģiĠshÇĲ":1242,"ĠhuÃłĠ":1243,"³u":1244,"ĠwÇĴ":1245,"ĠzhÅ«Ġ":1246,"ĠzhuÇİnĠ":1247,"ĠchÃł":1248,"Ä«nĠ":1249,"ĠhuÇĴ":1250,"ĠzhÇĶnĠ":1251,"ĠguÃ³":1252,"ĠzhÇİngĠ":1253,"ĠsÃ²ng":1254,"ĠcÃºn":1255,"âĢĶ":1256,"ĠtiÄĽ":1257,"in":1258,"ĠxÃ¬Ġ":1259,"ĠjiÃłnĠ":1260,"ĠgÇİnĠ":1261,"yÃ¬ng":1262,"ĠzhuÄģngĠ":1263,"ĠguÄ«":1264,"ĠyuÃ¡nĠhuÃ¬":1265,"ĠdÇİng":1266,"ĠpÃŃngĠ":1267,"ul":1268,"ĠfÃ¡ngĠ":1269,"ĠdÃ¬":1270,"ĠlÃ³u":1271,"ĠfÃłngĠ":1272,"Ġ199":1273,"ĠtÃ³ngĠshÃŃĠ":1274,"ĠjiÇĶĠ":1275,"ĠgÄĽi":1276,"lÃ¬ĠshÇĲ":1277,"ĠxÃºn":1278,"ĠsÃłiĠ":1279,"ĠjÅ«Ġ":1280,"ĠzhÇĶĠyÃło":1281,"ĠdÇĲ":1282,"1Ġ":1283,"ĠchÇĶĠ":1284,"ĠĠĠdÃ¬Ġ":1285,"ĠyÃ³uĠyÃºĠ":1286,"ĠkÇİ":1287,"ĠdÃłiĠbiÇİo":1288,"ĠshÄģ":1289,"ĠtuÅį":1290,"nĠdeĠ":1291,"ĠhÃ¡ngĠ":1292,"ĠzhÄĽng":1293,"ĠlÃº":1294,"ĠM":1295,"Ġmen":1296,"ĠshÄģĠ":1297,"al":1298,"ĠyÃ¡":1299,"ĠyÃ¹Ġ":1300,"ĠdÃłĠxuÃ©":1301,"ĠlÃŃngĠ":1302,"ĠxuÄģnĠ":1303,"ĠtÃ¡o":1304,"ĠwÃ¡n":1305,"qÃŃngĠ":1306,"chÃ¡o":1307,"ĠzÃłiĠ19":1308,"Ġ20":1309,"ĠdeĠm":1310,"ĠdÃŃĠ":1311,"ĠkÇİĠ":1312,"Ġ15":1313,"ĠpÃłi":1314,"ĠhuÃłnĠ":1315,"ĠguÄģngĠ":1316,"ĠyÃŃngĠ":1317,"ĠchuÄģnĠ":1318,"ĠzhÅįngĠxÄ«n":1319,"tiÃ¡o":1320,"liÃ¹":1321,"ĠyÄ«nĠwÃ¨iĠ":1322,"ĠzÃło":1323,"ĠbÄĵi":1324,"ĠyÃ¬nĠ":1325,"ĠleĠ":1326,"ĠdÃ¬ĠyÄ«Ġ":1327,"ĠzÇĲ":1328,"ĠdeĠshÃŃĠ":1329,"ĠkÃ²ng":1330,"orm":1331,"ĠwÃłiĠ":1332,"xiÄģngĠgÇİng":1333,"ĠlÃ¬ĠyÃł":1334,"ĠsÄģi":1335,"fÇİĠguÃ³Ġ":1336,"kÄģiĠshÇĲ":1337,"ĠlÇĶĠ":1338,"ĠxiÄģngĠgÇİng":1339,"ĠdÃ¬ĠÃ¨r":1340,"ĠshÃ¹Ġ":1341,"20ĠniÃ¡nĠ":1342,"duÃłnĠ":1343,"ĠyÃŃng":1344,"wÃ¹Ġ":1345,"ĠxiÄĽ":1346,"ĠjiÄģnĠ":1347,"ĠsÄĵn":1348,"ĠĠĠS":1349,"ĠxÃ¬ĠtÇĴng":1350,"2Ġ":1351,"ĠkÃ¨Ġ":1352,"Ġge":1353,"ĠshÃłngĠ":1354,"ÃłnĠdeĠ":1355,"ĠhÄĽn":1356,"ĠzhÅįngĠy":1357,"ĠyÃ¹nĠdÃ²ng":1358,"ĠniÃ¡nĠdeĠ":1359,"ĠdÃ¬ĠqÅ«Ġ":1360,"0Ġ":1361,"ĠmÃ¹Ġ":1362,"ĠpÃŃngĠfÄģngĠgÅįngĠlÇĲĠ":1363,"ĠduÃ¬Ġ":1364,"ĠxiÄģoĠ":1365,"ĠyÃ¡nĠjiÅ«Ġ":1366,"ulaĠ":1367,"ĠqÃºn":1368,"ĠpÃłnĠ":1369,"ĠshÃ¬ĠjÃ¬Ġ":1370,"ĠqiÃ¡ngĠ":1371,"ormulaĠ":1372,"ĠxiÃ¨":1373,"ĠmÃłi":1374,"rÃ¬ĠbÄĽn":1375,"ĠshÄĵngĠ":1376,"ĠguÃłnĠ":1377,"ĠguÃ³ĠjiÄģĠ":1378,"ĠzhÅįngĠdeĠ":1379,"ĠxiÇİnĠ":1380,"ĠyÃŃn":1381,"ĠnuÃ²":1382,"ĠdÃ©Ġ":1383,"ĠbÄ«nĠ":1384,"ĠbÄģngĠ":1385,"jiÄģnĠ":1386,"ĠshÃ¬ĠzÃłiĠ":1387,"ĠĠĠ200":1388,"ĠrÃ©ng":1389,"huÃłĠ":1390,"ĠtÇĶĠ":1391,"tĠĠĠ":1392,"ĠB":1393,"ĠhÃ¨":1394,"th":1395,"zhÃ¨ngĠfÇĶ":1396,"ĠbÃº":1397,"Å«nĠ":1398,"ĠjiÇİ":1399,"ÇĶĠduÅį":1400,"ĠkÄĽĠyÇĲĠ":1401,"ĠmÃ©iĠyÇĴuĠ":1402,"Ġ16":1403,"ĠshÄĽngĠ":1404,"ĠbÃ¹ĠtÃ³ng":1405,"ĠbÃ¡":1406,"ĠzÇĲĠ":1407,"kuÃłngĠ":1408,"Ġ198":1409,"ĠÃłoĠ":1410,"ĠbiÇİoĠshÃ¬Ġ":1411,"ĠdÃ²u":1412,"ĠtÃŃng":1413,"ĠzhÃ¨ĠxiÄĵ":1414,"ĠdÄģnĠrÃ¨n":1415,"jÇĲnĠ":1416,"hÃ³ng":1417,"dĠĠĠ":1418,"ĠdeĠp":1419,"ĠT":1420,"ĠguÄ«Ġ":1421,"ĠzhÅįngĠhuÃ¡":1422,"ou":1423,"shuÅį":1424,"ĠqÃŃngĠ":1425,"ĠtuÃ¡nĠ":1426,"3Ġ":1427,"ĠwÇİ":1428,"ĠpÄ«":1429,"ĠI":1430,"ĠÃłi":1431,"ĠĠĠ202":1432,"ĠxiÇİng":1433,"ĠzÃłoĠ":1434,"am":1435,"ĠhÄģ":1436,"ĠzhÅįuĠ":1437,"ĠgÃ²ngĠhÃ©ĠguÃ³Ġ":1438,"yuÇİnĠ":1439,"ĠwÃ¡nĠ":1440,"ĠzÃ¬ĠjÇĲ":1441,"ĠkÄĽĠnÃ©ng":1442,"Ã¼":1443,"zhÃło":1444,"ĠshÃ¬ĠjiÃłn":1445,"hÃº":1446,"wÄĵi":1447,"Ġ202":1448,"shÇĲĠyÃ²ng":1449,"ĠdÄĽngĠ":1450,"ĠxiÃ¹":1451,"ĠjÃ¬nĠxÃŃng":1452,"ĠyuÃ¨Ġ3":1453,"ĠkÃłnĠ":1454,"Ġ12":1455,"ĠzuÇĴ":1456,"diÃłnĠyÇĲng":1457,"ĠdÇİ":1458,"ĠziĠ":1459,"ĠyÅįng":1460,"tÃ¡iĠwÄģnĠ":1461,"ĠbÃłi":1462,"ĠgÃ©Ġ":1463,"ĠzhuÄģng":1464,"ĠmiÃłnĠjÄ«Ġ":1465,"ĠguÃ³ĠjÃ¬Ġ":1466,"ĠtÇİ":1467,"ÇİnĠdeĠ":1468,"ĠxiÃłĠ":1469,"ĠdÃ¹nĠ":1470,"ĠdÄ«ng":1471,"zhuÄģnĠ":1472,"ĠnÃ³ng":1473,"ĠlÃŃng":1474,"Ã¼Ã¨":1475,"ĠrÃ¨nĠwÃ©iĠ":1476,"ĠshÄ«Ġ":1477,"ĠruÃ¬":1478,"ĠyÃłnĠ":1479,"ĠÃło":1480,"ĠyÅįu":1481,"ĠjiÃłnĠzhÃ¹":1482,"ĠqiÄģnĠmÇĲ":1483,"ĠmÇİnĠ":1484,"ĠfÇİĠ":1485,"ĠhÃ¡ng":1486,"ĠP":1487,"gÃ¹":1488,"ĠmÃ¡o":1489,"ĠbÇĶĠ":1490,"ĠÅįu":1491,"ĠhuÄ«":1492,"ĠxiÄģo":1493,"ĠtÃ¡iĠwÄģnĠ":1494,"ĠD":1495,"ĠtÅįngĠguÃ²":1496,"ĠzhÄ«ĠyÄ«Ġ":1497,"ĠshÃŃĠqÄ«":1498,"ï¼":1499,"zhÃ¨ngĠzhÃ¬Ġ":1500,"ĠzhuÃłngĠ":1501,"ĠhÄĵi":1502,"5Ġ":1503,"ĠĠĠshÄĵng":1504,"ĠlÇĲng":1505,"ĠjÅ«nĠ":1506,"ĠhÃ²uĠlÃ¡i":1507,"ĠchuÃłngĠ":1508,"aĠĠĠ":1509,"ĠjÃ¹nĠ":1510,"ĠhuÃ¡ng":1511,"4Ġ":1512,"ĠxiÃ³ng":1513,"hÃłi":1514,"ĠgÃłoĠ":1515,"ĠmÃŃngĠwÃ¨iĠ":1516,"jiÇĶĠ":1517,"ri":1518,"ĠchÇİngĠ":1519,"ĠyÄģoĠ":1520,"bÃ¹ĠfÃ¨n":1521,"0ĠniÃ¡nĠdÃłi":1522,"ĠxiÃłngĠ":1523,"ĠtÇİnĠ":1524,"ĠdeĠc":1525,"tuÅį":1526,"ĠgÇİng":1527,"jÇĶĠ":1528,"ĠhuÃ¡nĠ":1529,"Ġ17":1530,"qÄ«nĠ":1531,"ĠxuÃ©ĠyuÃłn":1532,"ĠxÃ¬ngĠ":1533,"ĠlÃ¡iĠ":1534,"ĠdeĠgÅįngĠ":1535,"ĠbiÄģo":1536,"ĠsÃ¨Ġ":1537,"ĠdeĠf":1538,"ĠtÃŃĠ":1539,"ÇİnĠshÃ¬Ġ":1540,"ĠxuÃ©ĠxiÃło":1541,"5ĠrÃ¬Ġ":1542,"ĠwÄĵn":1543,"ĠshuÅįĠ":1544,"ĠmiÃłnĠ":1545,"ĠdeĠzhÇĶ":1546,"19ĠniÃ¡nĠ":1547,"ĠwÇİnĠ":1548,"ĠfÄģnĠ":1549,"ĠzhÄ«ĠhÃ²uĠ":1550,"ĠliÃ¹":1551,"Ġ194":1552,"shÄģngĠ":1553,"ĠtuÄ«":1554,"ĠwÃłngĠ":1555,"ĠtuÃ¬":1556,"ĠchÃ©ngĠlÃ¬Ġ":1557,"tuÃ¡nĠ":1558,"8ĠrÃ¬Ġ":1559,"ĠpÃŃngĠfÄģngĠqiÄģnĠmÇĲ":1560,"tuÃ¡n":1561,"ĠshÃło":1562,"guÇİngĠ":1563,"ĠhÅ«Ġ":1564,"ĠtÄģĠzÃłiĠ":1565,"ĠshÇĴuĠ":1566,"ĠwÃ²":1567,"wÅ«Ġ":1568,"ĠchÅįng":1569,"ĠpiÄģnĠ":1570,"ĠhÃłoĠ":1571,"ĠdiÃłoĠ":1572,"ĠzhÃº":1573,"ĠdiÃłnĠyÇĲng":1574,"ĠĠĠf":1575,"ĠzuÃ¬ĠzhÅįngĠ":1576,"ĠdÃłĠdeĠ":1577,"ĠdÄģngĠshÃŃĠ":1578,"uÇİnĠ":1579,"ĠÄĵn":1580,"xÃ¬nĠ":1581,"ĠzhÃ¨ngĠshÃ¬Ġ":1582,"hÃ¡nĠ":1583,"ĠgÅįngĠzuÃ²Ġ":1584,"jÅ«Ġ":1585,"st":1586,"ĠgÄģnĠ":1587,"ĠshÇĲĠ":1588,"ĠrÃ©nĠmÃŃnĠgÃ²ngĠhÃ©ĠguÃ³Ġ":1589,"ĠgÄģngĠ":1590,"ĠyÇĲĠjÄ«ng":1591,"qiÄģnĠ":1592,"ĠxiÃłnĠdeĠ":1593,"ro":1594,"pÃ¡i":1595,"xuÄģnĠ":1596,"ĠfÃ¡":1597,"ĠzhÃ¨ngĠzhÃ¬Ġ":1598,"jÃº":1599,"ĠrÃ¨":1600,"000":1601,"ĠdiÇİnĠ":1602,"el":1603,"kÃ¨ĠlÃ¡n":1604,"ĠlÃ¬ĠshÇĲ":1605,"gÄĵn":1606,"ĠshÃ¬ĠdeĠ":1607,"ĠlÃŃ":1608,"ĠtÇİĠ":1609,"jiÇİnĠ":1610,"lÃ¬ĠshÇĲĠ":1611,"1ĠrÃ¬Ġ":1612,"chÃ³ng":1613,"ĠyÃºĠ201":1614,"6ĠrÃ¬Ġ":1615,"yĠĠĠ":1616,"zhÄĵn":1617,"Ã¨ng":1618,"ĠÄģĠ":1619,"ĠliÃ¡ngĠ":1620,"Ä«ĠrÃ¡n":1621,"ĠdÃ¬ĠqÅ«":1622,"diÃłnĠshÃ¬Ġ":1623,"4ĠrÃ¬Ġ":1624,"bÄ«ng":1625,"7ĠrÃ¬Ġ":1626,"yÃ¡nĠjiÅ«Ġ":1627,"Ġ197":1628,"ĠyÃ¨Ġ":1629,"ĠfÃ¡ng":1630,"ĠlÃ¼Ã¨":1631,"ĠÃ©rĠ":1632,"ĠliÃłoĠ":1633,"ĠshÇĶĠyÃºĠ":1634,"ĠdeĠhu":1635,"biÄģo":1636,"lÃ¹Ġ":1637,"ĠzÇĴu":1638,"ĠzhÅįngĠyÄģngĠ":1639,"ĠxiÅįng":1640,"ĠruÃ²":1641,"ĠrÃ¨nĠ":1642,"liÃ¡o":1643,"ĠshÃ¬Ġf":1644,"ĠdeĠrÃ©nĠ":1645,"ĠbÃłiĠ":1646,"jÅ«nĠ":1647,"ĠĠĠshÄĵngĠpÃŃngĠ":1648,"ĠlÃ¬ĠrÃº":1649,"Ġ195":1650,"zhuÇİnĠ":1651,"ĠpiÃłoĠ":1652,"Ġ11":1653,"6Ġ":1654,"ĠdiÃłnĠshÃ¬Ġ":1655,"ĠchÄĵngĠwÃ©iĠ":1656,"ĠyÃºnĠ":1657,"ĠdeĠchÃ©ngĠ":1658,"ĠtÅ«Ġ":1659,"zhÇİngĠ":1660,"ĠjiÇİoĠ":1661,"re":1662,"ĠfÃ¹ĠzÃ©":1663,"ĠgÄĵnĠjÃ¹":1664,"ĠzuÃ²ĠwÃ©iĠ":1665,"ĠpÅį":1666,"ĠchÃ¨":1667,"ĠdeĠk":1668,"ĠzÇİo":1669,"chÇİngĠ":1670,"ĠdeĠl":1671,"ĠdeĠxi":1672,"ĠmÃ¬ĠdÃ¹":1673,"ĠtuÃ¡n":1674,"ĠtÃŃĠgÅįngĠ":1675,"ĠjiÃłngĠ":1676,"ĠĠĠC":1677,"ĠdeĠdÃł":1678,"ĠzhÃ¨Ġge":1679,"ĠyÄĽĠshÃ¬Ġ":1680,"ĠdÃłĠxuÃ©Ġ":1681,"cÃ¡i":1682,"Ġ14":1683,"ĠdÇİĠ":1684,"ĠtÃ¡ng":1685,"ĠkÄģngĠ":1686,"ĠdÇİoĠ":1687,"ĠbÃ¬ngĠqiÄĽ":1688,"ĠpÃł":1689,"ĠshÃ¬ĠzhÃ¨nĠ":1690,"ĠkÇİoĠ":1691,"qÃ¹":1692,"ĠliÃłnĠ":1693,"ĠjÃ¬nĠxÃŃngĠ":1694,"ĠjiÇİĠ":1695,"ĠchÃ©ngĠwÃ©i":1696,"ĠchÄģoĠ":1697,"ĠjiÇİo":1698,"ĠzÃłnĠ":1699,"ĠfÄģĠshÄĵng":1700,"xÅ«Ġ":1701,"shÅįu":1702,"rÃ³ng":1703,"ĠhÃ¡o":1704,"ĠgÄĵng":1705,"ĠchÄĵngĠ":1706,"dÅįu":1707,"ĠpÃłiĠ":1708,"jÇĲngĠ":1709,"ĠtÃ¨Ġ":1710,"ĠsÅįng":1711,"ĠshÃ¬ĠzhÅįngĠ":1712,"Ġ0":1713,"ĠE":1714,"ĠlÃ¡o":1715,"ĠjÃ¬nĠrÃ¹":1716,"ĠshÃ¨ĠhuÃ¬":1717,"ĠdÃłoĠle":1718,"ĠshÃ¨Ġ":1719,"ĠlÇİngĠ":1720,"ĠmiÇİnĠ":1721,"zÅįng":1722,"ĠwÄĽiĠyuÃ¡nĠhuÃ¬":1723,"ĠyÃ³uĠxÃ¬":1724,"ĠpÃŃn":1725,"ĠpÃŃĠ":1726,"Ġ1Ġ":1727,"huÃ²ĠdÃ©":1728,"ĠnÃŃĠyÃł":1729,"xiÃłĠ":1730,"dÃº":1731,"ĠguÃ¬":1732,"ĠkÄĽĠyÇĲ":1733,"ĠĠĠlÃ¬ĠshÇĲĠ":1734,"ĠjÄ«ĠwÃ¨iĠ":1735,"nuÃ²":1736,"ĠdeĠjÄ«":1737,"ĠchÄĵĠ":1738,"xÃŃngĠ":1739,"Ġ13":1740,"ac":1741,"ĠdeĠguÄģn":1742,"hÃ¡i":1743,"17":1744,"ĠfÃłng":1745,"ĠĠĠM":1746,"chuÃłngĠ":1747,"ĠlÇİo":1748,"ĠshÃ¬ĠyÃ³u":1749,"ĠjiÃłng":1750,"ĠpÃ©ng":1751,"Ġqu":1752,"ĠzhÄ«ĠjiÄģn":1753,"ĠyÄ«ngĠguÃ³Ġ":1754,"diÃłoĠ":1755,"si":1756,"ĠgÅįngĠchÃ©ngĠ":1757,"liÃłnĠ":1758,"ĠfÄģĠzhÇİnĠ":1759,"Ġ196":1760,"ĠgÃ²uĠ":1761,"biÄģoĠ":1762,"niÃłn":1763,"ĠshÃ¨ĠjÃ¬Ġ":1764,"ol":1765,"at":1766,"ĠshuÄģngĠ":1767,"ĠshÃŃĠjiÄģn":1768,"ĠH":1769,"ĠchÃłngĠ":1770,"ĠjiÇĶ":1771,"zhÄĽĠ":1772,"ĠdeĠy":1773,"ĠshÄĽn":1774,"ĠzhÇĶĠyÃ¬Ġ":1775,"ĠsÄ«ĠtÃ¨":1776,"ĠL":1777,"tuÄ«":1778,"ĠdÄ«":1779,"ĠdeĠyÃ¬":1780,"ĠdeĠt":1781,"9ĠyuÃ¨Ġ":1782,"ĠtÇĲĠ":1783,"ĠwÃ©nĠ":1784,"ĠN":1785,"ĠtÃ³ngĠniÃ¡nĠ":1786,"ĠrÃ©nĠkÇĴuĠmÃ¬ĠdÃ¹":1787,"shÇİo":1788,"ĠR":1789,"ĠqÃŃĠtÄģ":1790,"15":1791,"ĠdeĠxÃŃng":1792,"ĠzhÄĵngĠ":1793,"ĠsÇĲĠ":1794,"ĠG":1795,"ĠpÃ©i":1796,"ĠshÃ¬ĠyÃŃĠgÃ¨":1797,"ĠcÅ«nĠ":1798,"ĠhuÄģ":1799,"bÄģoĠkuÃ²":1800,"ĠwÇİĠ":1801,"sÅ«Ġ":1802,"yÇĲnĠ":1803,"ĠzÃ¡":1804,"10ĠyuÃ¨Ġ":1805,"2020ĠniÃ¡nĠ":1806,"ĠgÅįngĠsÄ«Ġ":1807,"suÃłnĠ":1808,"1ĠyuÃ¨Ġ":1809,"rÃ¨":1810,"ĠdÃłnĠshÃ¬Ġ":1811,"ĠmÃłiĠ":1812,"ĠguÃ³ĠjiÄģ":1813,"7ĠyuÃ¨Ġ":1814,"3ĠyuÃ¨Ġ":1815,"kÄĽĠnÃ©ng":1816,"ĠjÃ¬ĠshÃ¹":1817,"ĠdÃ¬ĠsÄģn":1818,"ĠzhÄĽĠ":1819,"ĠmÃŃnĠguÃ³Ġ":1820,"Ġ193":1821,"ĠgÅįng":1822,"ĠchÃ©ngĠyuÃ¡nĠ":1823,"ĠcÄģnĠjiÄģĠ":1824,"16":1825,"ĠguÄģnĠ":1826,"12ĠyuÃ¨Ġ":1827,"ĠyÃ©":1828,"ĠrÃ¨nĠwÃ©i":1829,"ĠpÃŃngĠfÄģngĠqiÄģnĠmÇĲĠ":1830,"xÃ¹nĠ":1831,"yÃ¡":1832,"rÃ©nĠmÃŃn":1833,"ĠfÄĵnĠbiÃ©":1834,"sÄ«Ġ":1835,"ĠÄģi":1836,"5ĠyuÃ¨Ġ":1837,"ĠbÃ¬ngĠzÃłiĠ":1838,"ĠyuÃ¨Ġ1ĠrÃ¬Ġ":1839,"8ĠyuÃ¨Ġ":1840,"ĠxÃŃngĠdeĠ":1841,"ĠqÃ¬ng":1842,"nĠshÃ¬Ġ":1843,"ĠyÃłngĠ":1844,"ĠmÃ¹ĠqiÃ¡n":1845,"ĠcÇİiĠyÃ²ng":1846,"ĠshÃ²uĠ":1847,"ĠxiÃ¡nĠ":1848,"ĠshÃ¨nĠ":1849,"ĠquÃ¡nĠguÃ³Ġ":1850,"xÃŃĠ":1851,"yĠ":1852,"ĠqÃŃn":1853,"ĠF":1854,"ĠĠĠA":1855,"chÃ©ngĠshÃ¬Ġ":1856,"yÄ«ngĠguÃ³Ġ":1857,"ĠxÄ«ĠyÃł":1858,"ĠgtĠ":1859,"ĠshÃ¬ĠwÃ¨iĠyÃºĠ":1860,"ĠtÃłnĠ":1861,"yÃłnĠ":1862,"wÄĽiĠyuÃ¡nĠhuÃ¬":1863,"ĠyÇİngĠ":1864,"6ĠyuÃ¨Ġ":1865,"dĠ":1866,"ĠbiÄģoĠ":1867,"ĠchÃ©ngĠshÃ¬Ġ":1868,"ĠniÃłn":1869,"7Ġ":1870,"ĠdÇİoĠzhÃ¬Ġ":1871,"onĠ":1872,"nÃ³ng":1873,"ĠhÃ©ngĠ":1874,"ÄģnĠdeĠ":1875,"ĠyÃ¬ĠyuÃ¡nĠ":1876,"ĠkÇĴng":1877,"guÃ³ĠjiÄģĠ":1878,"ĠdÅ«n":1879,"CĠ":1880,"ĠqÃŃĠ":1881,"biÃ©":1882,"dÃłiĠbiÇİo":1883,"4ĠyuÃ¨Ġ":1884,"shÄģ":1885,"ĠshÃłngĠdeĠ":1886,"ĠdÃ¬ngĠ":1887,"nÃ¡":1888,"ĠluÃ³ĠsÄ«":1889,"ĠhÇİo":1890,"ĠltĠ":1891,"ĠyÄģoĠqiÃº":1892,"ĠsuÄ«ĠrÃ¡n":1893,"ĠtÅįngĠchÃ¡ng":1894,"ĠguÇİng":1895,"ĠbÃ¹ĠguÃ²":1896,"ĠshÃ¬ĠshÃ¬Ġ":1897,"ĠwÃ¨iĠle":1898,"ÇĶnĠ":1899,"ĠshÃ¹nĠ":1900,"ĠxÇĶĠduÅį":1901,"ĠshÅ«Ġ":1902,"ĠyuÃłnĠ":1903,"wÃ¡ngĠ":1904,"ĠyÃ¬nĠdÃ¹":1905,"chÃ¹":1906,"ĠdÇĲĠ":1907,"ĠmÇĶ":1908,"ĠyÄ«nĠyuÃ¨Ġ":1909,"jiÄĽ":1910,"ĠlÄĽi":1911,"ĠkÄģnĠ":1912,"ĠgÅ«Ġ":1913,"ĠyÃ¡nĠ":1914,"8Ġ":1915,"ĠjÇĲng":1916,"qiÃ¡ngĠ":1917,"huÃ¬Ġ":1918,"ĠwÃ©nĠhuÃł":1919,"shÃ¨ĠhuÃ¬":1920,"ĠzhÄ«ĠchÃŃ":1921,"ĠdÄģngĠdÃ¬Ġ":1922,"ĠxiÃłnĠzÃłiĠ":1923,"ĠgÃłnĠ":1924,"ĠhuÄ«Ġ":1925,"ĠshÃ¬ĠdÃ¬Ġ":1926,"ĠbÃ¹ĠduÃ¬":1927,"ĠyÃ¡o":1928,"ĠhuÄģĠ":1929,"fÄģĠzhÇİnĠ":1930,"ĠqÃ¬Ġ":1931,"tÅįngĠguÃ²":1932,"yÇĲngĠxiÇİngĠ":1933,"xÃŃngĠzhÃ¨ngĠ":1934,"zhÄĵng":1935,"ĠhuÃŃ":1936,"ĠdeĠshÃ¹":1937,"ĠhuÃ¡n":1938,"ĠshÃłnĠ":1939,"11ĠyuÃ¨Ġ":1940,"ĠcÃŃ":1941,"mÃŃngĠ":1942,"ĠxuÄģnĠbÃ¹Ġ":1943,"ĠpÄģi":1944,"qÃºn":1945,"ĠdeĠgu":1946,"ĠshÄĵngĠhuÃ³":1947,"zuÃ²ĠpÇĲnĠ":1948,"ĠyÃºĠ200":1949,"ĠyÄģ":1950,"dÃłiĠ":1951,"ĠxuÃ©ĠjiÄģĠ":1952,"ĠÃ¨":1953,"ĠzhÃŃĠ":1954,"ĠjÃ¬nĠ":1955,"ĠshÃ¬ĠzhÃ¨n":1956,"ĠgÄģoĠdÃ¹":1957,"ĠyÃłng":1958,"iĠ":1959,"ĠzhÃ¹Ġ":1960,"yÄ«ĠxiÄĵ":1961,"ĠxÅ«ĠyÃło":1962,"ĠmÃ³u":1963,"ĠjÄ«ngĠ":1964,"ĠyÃ¬ĠshÃ¹":1965,"shÄ«Ġ":1966,"ĠchÅ«ĠdeĠ":1967,"ĠdÃłĠlÃ¬Ġ":1968,"ĠmÃ©nĠ":1969,"ĠxiÃ¡Ġ":1970,"ĠtÃ¡n":1971,"ĠmÃło":1972,"ĠyÄ«nĠ":1973,"ĠyÃ²ngĠ":1974,"ĠyÄ«ĠxiÄĵ":1975,"jiÃłnĠ":1976,"50":1977,"ĠzÃłiĠdÃ¬Ġ":1978,"ĠĠĠP":1979,"ĠdÄ«Ġ":1980,"shÃłngĠ":1981,"ĠjiÃłoĠyÃ¹":1982,"ĠqiÃ¨":1983,"xiÃłnĠ":1984,"ĠyÄģĠ":1985,"ĠyÇĴuĠyÄ«Ġ":1986,"hÄĵi":1987,"ĠsÇĲ":1988,"hÄĽn":1989,"chÃº":1990,"guÄģnĠ":1991,"ĠlÃ¨iĠ":1992,"Ġzhe":1993,"ĠdeĠjÃ¬Ġ":1994,"suÃŃĠ":1995,"ĠshÄģng":1996,"30":1997,"ĠtÃ¬":1998,"leĠ":1999,"yÃ¬nĠ":2000,"ĠbÄģnĠyÃ¡":2001,"chÅįng":2002,"ĠgÃłi":2003,"ĠtÃ²u":2004,"chÇĶĠ":2005,"ĠyÃ¬ĠzhÃŃ":2006,"ĠkÇİi":2007,"huÃŃĠ":2008,"om":2009,"ĠqiÅ«Ġ":2010,"chuÄģnĠ":2011,"ĠjÃ¬ĠhuÃł":2012,"ĠlÃ¬ĠdeĠ":2013,"huÃ¡ngĠ":2014,"il":2015,"ĠxÃŃ":2016,"ĠjiÇİng":2017,"ĠguÃ³ĠdeĠ":2018,"bÇİoĠhÃ¹":2019,"ĠwÃ¡nĠchÃ©ngĠ":2020,"ĠĠĠm":2021,"ziĠ":2022,"zhÃº":2023,"ĠbÇİ":2024,"Ġãĥ":2025,"ĠlÃ¡iĠzÃ¬":2026,"ĠhÇİiĠbÃ¡":2027,"dÇĲ":2028,"ĠchÃ©ngĠgÅįngĠ":2029,"ĠcÄģnĠyÃ¹":2030,"2ĠyuÃ¨Ġ":2031,"ĠdeĠzuÃ¬":2032,"ĠJ":2033,"ĠfÄĵnĠbÃ¹Ġ":2034,"ĠnÃŃngĠ":2035,"ĠzhÅįngĠgÃ²ng":2036,"ĠrÃ¬ĠzÃłiĠ":2037,"ĠxiÃ¡ngĠ":2038,"ĠshÃ¬ĠhÃ©Ġ":2039,"ĠxÇĲ":2040,"ĠdeĠxÄ«n":2041,"ĠchÄģo":2042,"ĠzÇİoĠ":2043,"ĠzhÇĶĠjiÃło":2044,"ĠdÃ¹Ġ":2045,"ĠdeĠb":2046,"ĠzhĠ":2047,"ĠmiÃ¡o":2048,"ĠduÃ³":2049,"yÃ¹Ġ":2050,"Ġ2Ġ":2051,"ĠĠĠT":2052,"ĠqÄ«ĠjiÄģn":2053,"ĠjÃ¬ĠxÃ¹":2054,"ĠluÃ³ĠsÄ«Ġ":2055,"ĠyÃ¬ĠwÃ¨iĠ":2056,"zÃ¬ĠjÇĲ":2057,"ĠdÃŃ":2058,"ĠcÃ¹":2059,"ĠcuÃ²":2060,"dÃ¹Ġ":2061,"ĠshÃłngĠhÇİi":2062,"ĠzÄģo":2063,"ĠlÇİnĠ":2064,"fÇİĠ":2065,"ĠrÃłngĠ":2066,"hÃ¨":2067,"wÃ©nĠhuÃł":2068,"xiÃłngĠ":2069,"ĠchÇĶ":2070,"ĠyÇİnĠ":2071,"ĠleĠyÄ«Ġ":2072,"ĠfÄĵngĠ":2073,"2ĠrÃ¬Ġ":2074,"of":2075,"14":2076,"ĠlÃł":2077,"zÃºĠ":2078,"ĠyÃ¬ĠdeĠ":2079,"ĠĠĠdeĠ":2080,"ĠxÃŃngĠzhÃ¨ngĠ":2081,"ĠĠĠ199":2082,"ĠtÃ¡iĠ":2083,"yÃ¨Ġ":2084,"ĠdÃ¬ĠdeĠ":2085,"ĠĠĠB":2086,"ĠpiÃłnĠ":2087,"ĠdÃ©ĠguÃ³Ġ":2088,"ĠmÇİĠwÃ¨iĠ":2089,"ĠpiÃło":2090,"ĠzhÃ¨ĠzhÇĴng":2091,"9ĠrÃ¬Ġ":2092,"rĠ":2093,"ĠgÃło":2094,"yÄ«ĠwÃ¨iĠ":2095,"dÄģnĠrÃ¨n":2096,"ĠrÃłng":2097,"qÃŃĠtÄģ":2098,"qÄ«Ġ":2099,"ĠlÃ¡ngĠ":2100,"13":2101,"biÇİoĠshÃ¬Ġ":2102,"ĠzuÃ²ĠpÇĲnĠ":2103,"ĠyÃ²ngĠyÃºĠ":2104,"ĠdÃłiĠ":2105,"ĠhuÃ¡i":2106,"ĠgÃ¨ng":2107,"ĠtÃ¨ĠbiÃ©":2108,"zhÇĶĠyÃło":2109,"ĠguÇİnĠ":2110,"qÃŃng":2111,"ĠjiÄģĠrÃ¹":2112,"ĠgÅįngĠyuÃ¡nĠ":2113,"qiÃ¡o":2114,"zÄĵng":2115,"jÃ¹Ġ":2116,"ĠdeĠshÄĵng":2117,"bÃłoĠ":2118,"ĠchÃ¬":2119,"ĠĠĠyÃ³u":2120,"3ĠrÃ¬Ġ":2121,"ĠjÄ«ngĠjÃ¬Ġ":2122,"ĠdÃłngĠ":2123,"ĠdÄģnĠwÃ¨iĠ":2124,"ĠlÇĶ":2125,"ĠdeĠg":2126,"ĠĠĠbÄĽn":2127,"ĠqiÃ¡nĠwÇİng":2128,"ĠkuÇİnĠ":2129,"ĠshÄĵngĠyÃºĠ":2130,"ĠnÃ¡nĠ":2131,"zhÇĴngĠ":2132,"ÅįuĠzhÅįu":2133,"ĠformulaĠ":2134,"ĠduÃ¬ĠyÃºĠ":2135,"ï¼į":2136,"fÇİnĠ":2137,"ĠzhÃłngĠ":2138,"ĠchÃ¹Ġ":2139,"ĠĠĠshÃ¬Ġ":2140,"Ġ000":2141,"Ġãģ":2142,"zÇİi":2143,"jÄ«Ġ":2144,"9Ġ":2145,"ĠqiÃ¡ng":2146,"ĠfÄģĠ":2147,"ĠzÃºĠqiÃº":2148,"ĠshÃ¨ĠyÇĴuĠ":2149,"cÃŃĠ":2150,"ĠĠĠdÃ¬ĠlÇĲĠ":2151,"ĠzhÅįngĠxuÃ©":2152,"ĠdeĠw":2153,"rÃ©nĠwÃ¹Ġ":2154,"ĠfÄĵnĠ":2155,"wÃłiĠ":2156,"ĠliÃ¨Ġ":2157,"ati":2158,"ĠbÇĲĠsÃłi":2159,"ĠtiÄĽĠlÃ¹":2160,"ĠfÇİĠguÃ³Ġ":2161,"ĠpÃº":2162,"et":2163,"ĠjuÃ©Ġ":2164,"ĠjiÃłĠ":2165,"zhÃ¹Ġ":2166,"Å«ĠshÃ¬Ġ":2167,"ĠkuÃłiĠ":2168,"ĠfÃ¹Ġ":2169,"ĠdÃ¬ĠfÄģng":2170,"ĠdeĠfÃ¹":2171,"ĠjuÃ©ĠdÃ¬ng":2172,"ĠqÇĲngĠ":2173,"ĠxiÃ¡n":2174,"tÄģĠmen":2175,"yÃ²ngĠ":2176,"zuÇĴ":2177,"xÃºn":2178,"ĠqÃŃĠtÄģĠ":2179,"dÃ¹nĠ":2180,"tiÄĽĠlÃ¹":2181,"liÃ¡ngĠ":2182,"luÃłnĠ":2183,"chÄĵngĠ":2184,"ĠsÅ«n":2185,"ĠpÃ¡iĠ":2186,"ĠbÃł":2187,"ĠliÇİngĠgÃ¨":2188,"ĠtÇĶ":2189,"ĠchÄĵĠzhÃłn":2190,"ĠchÅ«n":2191,"ĠduÄģnĠ":2192,"erĠ":2193,"ĠshÃ¬ĠjÃ¬":2194,"ĠquÃ¡nĠ":2195,"ĠqÄ«Ġ":2196,"ĠĠĠp":2197,"oĠ":2198,"ĠzhÄģngĠ":2199,"diÇİnĠ":2200,"ĠĠĠl":2201,"ĠshÃ¹ĠliÃłng":2202,"ow":2203,"ĠsÃłnĠ":2204,"ĠqÇĶĠ":2205,"ĠxuÃ©ĠshÄĵng":2206,"ĠzÄģi":2207,"ĠyÃ¬ĠbÄģnĠ":2208,"shÇİoĠ":2209,"ĠzÃłiĠ201":2210,"ĠhuÃ³ĠdÃ²ng":2211,"ĠzÃ¬ĠyÃ³u":2212,"ĠrÃºĠguÇĴ":2213,"ĠdeĠhÃ©Ġ":2214,"ĠlÇİoĠ":2215,"ĠqÃŃng":2216,"ĠsuÇĴĠ":2217,"zhÃ¨ngĠshÃ¬Ġ":2218,"ĠdeĠshÇĴu":2219,"ĠqiÄģngĠ":2220,"ĠzhuÃłng":2221,"ĠwÃºĠfÇİ":2222,"ĠdeĠlÇĲ":2223,"zhÃ²ngĠyÃło":2224,"ĠzhÅįngĠhuÃ¡ĠrÃ©nĠmÃŃnĠgÃ²ngĠhÃ©ĠguÃ³Ġ":2225,"ĠhÄģĠ":2226,"guÄ«":2227,"199":2228,"2019ĠniÃ¡nĠ":2229,"ĠK":2230,"ĠfÇİnĠyÃ¬ng":2231,"ĠruÇİnĠ":2232,"jiÇİngĠ":2233,"ic":2234,"sÃł":2235,"ĠdeĠfÄģng":2236,"zhe":2237,"shuÄģngĠ":2238,"ĠjiÃłnĠlÃ¬Ġ":2239,"bÄĽnĠ":2240,"ĠtÃ©ng":2241,"ĠmÃŃĠ":2242,"ĠjiÃ©Ġ":2243,"qÇĲĠ":2244,"ĠdÇĲngĠ":2245,"ÃłnĠshÃ¬Ġ":2246,"ĠdeĠzhÃŃ":2247,"ĠyÃ¬ĠhuÃ¬":2248,"chÄĵĠzhÃłn":2249,"ĠdeĠyuÃ¡nĠ":2250,"ĠrÃ©nĠyuÃ¡nĠ":2251,"ĠcÃºnĠzÃłiĠ":2252,"ĠãĤ":2253,"ĠqiÃ¡nĠ":2254,"yÄ«nĠyuÃ¨Ġ":2255,"ĠzhÃ²ngĠyÃło":2256,"dÃłĠlÃ¹":2257,"ĠshÃŃĠÃ¨r":2258,"ĠguÇĲ":2259,"ĠzhÃ¨nĠ":2260,"ĠyÇĶĠyÃ¡n":2261,"ĠwÃłng":2262,"ĠĠĠt":2263,"ĠzÇĴngĠtÇĴng":2264,"ĠliÃ¡o":2265,"miÃ¡o":2266,"ĠnÃ¡":2267,"ĠxÃŃngĠxÄ«ng":2268,"ĠxÃŃngĠchÃ©ngĠ":2269,"zhuÄģngĠ":2270,"ĠshÄĵngĠchÇİn":2271,"ĠguÃ³ĠmÃŃn":2272,"ĠĠĠyÇĶ":2273,"ĠĠĠgÄģi":2274,"ĠrÃ©nĠdeĠ":2275,"yÃ¹nĠdÃ²ng":2276,"ĠfÃ¨nĠ":2277,"mÃ²":2278,"ĠxiÃłoĠ":2279,"ĠchÃ³u":2280,"xÇĶĠduÅį":2281,"rÃ©nĠkÇĴuĠ":2282,"guÄģngĠ":2283,"ĠshÃ¬ĠyÄ«ĠzhÇĴng":2284,"ĠkÄĽn":2285,"as":2286,"ĠxiÇİoĠshÃŃĠ":2287,"shÄĵngĠ":2288,"shÇĶĠyÃºĠ":2289,"ĠmÃŃngĠdeĠ":2290,"ĠshÇİo":2291,"ĠzÃłiĠzhÃ¨":2292,"ĠguÄģng":2293,"ĠzÃłoĠchÃ©ngĠ":2294,"ĠyÃºĠshÃ¬Ġ":2295,"onĠĠĠ":2296,"ĠwÃ¹ĠguÇİn":2297,"ĠpÃłoĠ":2298,"zhÅ«Ġ":2299,"ĠliÃ¡nĠhÃ©Ġ":2300,"ĠlÇĲngĠdÇİo":2301,"bÃ¹ĠfÃ¨nĠ":2302,"ĠyÅįngĠyÇĴuĠ":2303,"ĠzhÇĲĠ":2304,"ĠshÄģnĠ":2305,"zhÅįngĠhuÃ¡":2306,"shÄģĠ":2307,"Ġ192":2308,"ĠchÇĲĠ":2309,"qÃŃn":2310,"ĠzhÄ«ĠqiÃ¡n":2311,"liÇİngĠgÃ¨":2312,"ĠzhÇĶĠxÃŃĠ":2313,"ĠjiÃ¹ĠshÃ¬Ġ":2314,"qÇĲngĠ":2315,"ĠniÇĶĠ":2316,"ĠxuÃ©ĠmÃŃngĠ":2317,"ĠgÅįngĠzuÃ²":2318,"ĠfÇİng":2319,"ĠcÃ¨Ġ":2320,"ĠzhÃ¨ĠyÄ«Ġ":2321,"ĠyÇĲĠxiÃł":2322,"ĠmÇİi":2323,"ĠW":2324,"ĠfÄģĠxiÃłn":2325,"TĠ":2326,"ĠnÃ¡nĠbÃ¹Ġ":2327,"ĠchÇİnĠshÄĵng":2328,"ĠhuÃ³ĠdÃ²ngĠ":2329,"ĠzÃłiĠ200":2330,"ĠĠĠgÄĵn":2331,"jiÃł":2332,"ĠqÄ«ĠjiÄģnĠ":2333,"yÃºnĠ":2334,"ĠzhÃ¡":2335,"ĠmÃ©iĠyÇĴu":2336,"guÃ³ĠjÃ¬Ġ":2337,"ĠtÃ¡nĠ":2338,"guÃłnĠ":2339,"es":2340,"zÃºĠqiÃº":2341,"jÃ¬nĠxÃŃng":2342,"ĠbÃ¨iĠ":2343,"ĠzuÃ¬ĠgÄģo":2344,"jiÇĶ":2345,"ĠduÇİnĠ":2346,"ĠdÃºĠlÃ¬Ġ":2347,"ĠdÃłĠliÃłng":2348,"ĠkÇİo":2349,"ĠyÇĲngĠxiÇİngĠ":2350,"ĠfÃ¨ngĠ":2351,"ĠbÃ¹ĠdeĠ":2352,"kÅįng":2353,"ĠgÅįngĠlÇĲ":2354,"ĠhÃ©ĠzuÃ²Ġ":2355,"ĠdeĠyÃŃĠgÃ¨ĠshÃ¬ĠzhÃ¨nĠ":2356,"ĠyÃ¬ngĠ":2357,"ĠfÄģĠxiÃłnĠ":2358,"ĠĠĠrÃ©nĠkÇĴuĠ":2359,"ĠzÃłiĠcÃ¬":2360,"ĠqiÇİnĠ":2361,"zhÄ«ĠchÃŃ":2362,"xÃ¬ĠtÇĴng":2363,"ĠshÄĵnĠ":2364,"hÃ¡ngĠ":2365,"ĠxiÇİnĠshÃ¬Ġ":2366,"ĠchÃºĠle":2367,"ĠliÃłngĠ":2368,"chÃł":2369,"ĠzÃ²u":2370,"ĠgÅįngĠkÄģi":2371,"ra":2372,"ĠchÃłng":2373,"ĠtÄ«ngĠ":2374,"ĠĠĠzhÃ¨":2375,"zÃłoĠ":2376,"zhuÄģng":2377,"ĠbÃºĠshÃ¬Ġ":2378,"hÇİo":2379,"ĠyÃºĠ202":2380,"ĠliÃ¡nĠmÃ©ng":2381,"ĠhÃ©Ġp":2382,"ĠguÇİnĠlÇĲ":2383,"ĠzÃ¬Ġ":2384,"ĠhuÄģnĠ":2385,"bÄĽiĠjÄ«ng":2386,"ĠrÃ³ngĠ":2387,"ĠzhÇĴngĠ":2388,"ãĢī":2389,"ĠcÇĲĠwÃłiĠ":2390,"ãĢĪ":2391,"ĠsÅįu":2392,"ĠdiÃ©":2393,"ĠshÅ«ĠjÃ¬Ġ":2394,"ĠwÃ¡ngĠ":2395,"duÃ¬Ġ":2396,"ĠliÃło":2397,"sÃłiĠ":2398,"ĠpÇĶĠchÃ¡":2399,"miÇİnĠ":2400,"ĠchÄģoĠguÃ²":2401,"ĠĠĠL":2402,"ĠhÇİiĠbÃ¡ĠgÄģoĠdÃ¹":2403,"ĠshÃŃĠdeĠ":2404,"qÃŃngĠkuÃłngĠ":2405,"ĠmÃ¨i":2406,"ĠwÇĴĠmen":2407,"dÃ©ĠguÃ³Ġ":2408,"ĠkÃłng":2409,"ĠzhÃłnĠzhÄĵng":2410,"ĠlÃ¨iĠsÃ¬":2411,"ĠchÅ«ĠbÇİnĠ":2412,"ĠjÄ«ngĠguÃ²":2413,"ĠÐ":2414,"jÄ«ngĠjÃ¬Ġ":2415,"shÃłnĠ":2416,"Ġ30":2417,"ĠÃłiĠ":2418,"ĠbÄĽiĠjÄ«ng":2419,"ĠbÄģoĠkuÃ²Ġ":2420,"guÄ«Ġ":2421,"qÃŃĠtÄģĠ":2422,"fÄĵnĠ":2423,"ĠjiÃłoĠ":2424,"tÄģĠdeĠ":2425,"ĠhuÃ¬ĠyÃ¬Ġ":2426,"ĠdÃ¬ĠshÃŃĠ":2427,"ĠzÇĶĠzhÄ«":2428,"ĠkÃ²ngĠzhÃ¬Ġ":2429,"wÃłnĠ":2430,"lÃ¹nĠ":2431,"quÃ¡nĠ":2432,"kĠ":2433,"ĠsÇĶnĠ":2434,"ĠzhÃ¬ĠdeĠ":2435,"cÃºn":2436,"ĠlÃ³ngĠ":2437,"ĠbÃ¬Ġ":2438,"ĠqÇĲĠ":2439,"ĠrÃ¬ĠzhÃ¬Ġ":2440,"rÇİnĠ":2441,"zÇĴngĠtÇĴng":2442,"ruÃ¬":2443,"chÄģoĠ":2444,"ĠxÃŃngĠshÃ¬Ġ":2445,"ĠĠĠ2":2446,"ĠchÃ©ngĠdeĠ":2447,"ĠliÃ¡ng":2448,"ĠchÅ«Ġle":2449,"ĠguÇĴĠ":2450,"shÃŃĠdeĠ":2451,"ĠmÇĴu":2452,"xÄ«Ġ":2453,"chÃ©ngĠlÃ¬Ġ":2454,"ĠyÃ¹nĠdÃ²ngĠyuÃ¡nĠ":2455,"wÅ«ĠkÃ¨ĠlÃ¡n":2456,"ĠdÃ¬ĠguÃ³Ġ":2457,"ĠlÇľĠ":2458,"ĠjÇĶ":2459,"ĠzuÃ²ĠwÃ©i":2460,"miÃłnĠjÄ«ĠwÃ¨iĠ":2461,"ĠdeĠmÃŃng":2462,"ĠliÃ¨ĠchÄĵ":2463,"ĠgÃ©ĠlÃ¡n":2464,"ĠbÄĽiĠbÃ¹Ġ":2465,"Ġ2010ĠniÃ¡nĠ":2466,"ĠĠĠD":2467,"ĠwÃ¨iĠyÃºĠgÄģi":2468,"ĠdeĠjiÃłn":2469,"ĠmÃŃnĠzhÇĶ":2470,"yÄ«nĠwÃ¨iĠ":2471,"dÄĽngĠ":2472,"it":2473,"ĠchuÃłng":2474,"ĠzhÅįngĠxÄ«nĠ":2475,"ĠĠĠR":2476,"ĠgÃ¨ĠrÃ©nĠ":2477,"ĠjÅ«nĠshÃ¬Ġ":2478,"ĠdÄģngĠzhÅįngĠ":2479,"suÃ¬":2480,"ĠzhÃ©":2481,"gÃ²ngĠchÇİn":2482,"Ġcu":2483,"zhÄĽng":2484,"cÄģnĠjiÄģĠ":2485,"shÃ¨ĠjÃ¬Ġ":2486,"ĠyÇĴuĠxiÃłn":2487,"shÃłngĠhÇİi":2488,"ĠwÄĽiĠyuÃ¡nĠ":2489,"ĠzÃ¬ĠzhÃ¬Ġ":2490,"ĠkÃłngĠ":2491,"kÄĽĠyÇĲĠ":2492,"ĠhÃłi":2493,"ĠzhÇİo":2494,"ĠdeĠzhÅįngĠ":2495,"ĠlÃŃĠkÄģi":2496,"dÃłĠxuÃ©":2497,"ec":2498,"ĠĠĠxÃŃngĠzhÃ¨ngĠ":2499,"ĠÃ©rĠqiÄĽ":2500,"ĠzhuÄģnĠjÃŃĠ":2501,"dÄĵng":2502,"ĠkuÄģnĠ":2503,"ĠhÃ¡ngĠkÅįng":2504,"ĠdeĠbÃ¹Ġ":2505,"qÃŃĠzhÅįngĠ":2506,"ĠlÃŃnĠ":2507,"ĠsÃ¹Ġ":2508,"ĠshÇĴuĠcÃ¬":2509,"ĠchÃ³ngĠxÄ«n":2510,"ĠbÄģng":2511,"ÄģnĠshÃ¬Ġ":2512,"ĠfÄģngĠmiÃłn":2513,"ĠbÃ¹ĠzÃłiĠ":2514,"zhÃłnĠzhÄĵng":2515,"ĠzhuÃłnĠ":2516,"sÄģi":2517,"ĠĠĠG":2518,"ĠxuÄĽ":2519,"ĠzhÃ¬ĠzuÃ²":2520,"ĠfÃ©ng":2521,"ĠdÅįuĠshÃ¬Ġ":2522,"ĠĠĠk":2523,"ÄģĠÄĽr":2524,"ĠwÅ«ĠkÃ¨ĠlÃ¡n":2525,"ĠhÃ©ĠnÃ¡n":2526,"ĠzhÄģo":2527,"ĠshÇĶĠ":2528,"ĠdÇĴng":2529,"ĠjÇĲnĠguÇİn":2530,"ĠzhÃ¨ĠshÃ¬Ġ":2531,"ĠzÄĵngĠjiÄģĠ":2532,"ĠzÃłiĠcÇĲ":2533,"ĠĠĠformulaĠ":2534,"ĠyuÇİnĠ":2535,"suÄģnĠ":2536,"AĠ":2537,"ĠxÃ¬ĠliÃ¨":2538,"ĠsuÇĴĠyÇĴuĠ":2539,"ĠbÃ¹ĠnÃ©ng":2540,"ĠzÇİi":2541,"ĠtÄģĠshÃ¬Ġ":2542,"ĠxÃ¬ĠtÇĴngĠ":2543,"ĠchÃºnĠ":2544,"ĠzÇĶĠ":2545,"ĠfÃ¹ĠjÃ¬n":2546,"âĢĵ":2547,"40":2548,"ĠniÃº":2549,"mÃ©iĠyÇĴuĠ":2550,"ĠjÇĶĠxÃŃng":2551,"ĠhÃ©ĠbÃ¬ng":2552,"ĠshuÃ¬":2553,"ĠxiÄģngĠguÄģn":2554,"bÃ¡i":2555,"bÇĲĠsÃłi":2556,"ĠfÄģĠbiÇİo":2557,"tÄ«ng":2558,"ĠwÃ¨nĠtÃŃĠ":2559,"ĠbÇİĠ":2560,"mĠ":2561,"xÃ¬ngĠ":2562,"ĠshÃŃĠdÃłi":2563,"ĠĠĠ198":2564,"ĠkÄģiĠfÄģ":2565,"Ġju":2566,"ĠjÃºĠ":2567,"hÇİiĠjÅ«n":2568,"ĠjÃ¹ĠyÇĴuĠ":2569,"ĠbÃłoĠ":2570,"ĠsuÃ¬Ġ":2571,"ĠqÇĶĠdÃ©":2572,"ĠqiÃºĠ":2573,"ĠguÄ«ĠmÃ³":2574,"qiÃºĠ":2575,"ĠyÇĴuĠdeĠ":2576,"ĠnÃ¨iĠ":2577,"ĠshÃŃĠniÃ¡nĠ":2578,"fÃ¨i":2579,"ĠshÇĲĠyÃ²ngĠ":2580,"ĠlÃ³uĠ":2581,"bÄģnĠ":2582,"ĠfÄģngĠshÃ¬Ġ":2583,"ĠdeĠjiÃ©":2584,"jÄ«nĠ":2585,"jiÄģoĠtÅįng":2586,"ĠU":2587,"ĠdeĠjuÃ©":2588,"ĠxuÇİnĠjÇĶĠ":2589,"jÃ¹nĠ":2590,"ĠwÃ¨nĠtÃŃ":2591,"shÃło":2592,"ĠxÇĶĠ":2593,"ĠrÃ¡nĠÃ©r":2594,"ĠzhÃ¬ĠzuÃ²Ġ":2595,"zhÅįuĠ":2596,"yÃ³uĠxÃ¬":2597,"ĠluÃ³ĠmÇİ":2598,"zhuÃłngĠ":2599,"sÇĲĠ":2600,"ĠsuÃłnĠ":2601,"ĠlÄģĠ":2602,"ĠchÄĵĠzhÃłnĠ":2603,"ĠyÄ«ĠyuÃłn":2604,"pi":2605,"ĠduÅįĠ":2606,"lÃ¡iĠ":2607,"60":2608,"ĠluÃ²Ġ":2609,"kuÃłi":2610,"ĠgÃ²ngĠyÇĴuĠ":2611,"ĠĠĠg":2612,"ĠmÃłoĠ":2613,"jiÄģĠrÃ¹":2614,"jiÃ¨Ġ":2615,"ĠguÃłnĠjÅ«nĠ":2616,"ĠyÇĶnĠ":2617,"ĠshÇĶĠdeĠ":2618,"zhÇĶĠ":2619,"fÃłnĠ":2620,"zÃło":2621,"ĠshÃ¬ĠyÇĲ":2622,"ĠrÃ¨nĠhÃ©Ġ":2623,"ĠgÄģng":2624,"âĢ¦":2625,"ĠgÅįngĠyÃ¨":2626,"ĠzÇĶĠzhÄ«Ġ":2627,"tÃ³ngĠ":2628,"ĠsÄ«ĠtÇİnĠ":2629,"ĠyÃ¡Ġ":2630,"xÄ«nĠ":2631,"ĠfÄģngĠ":2632,"zhÃŃĠ":2633,"ĠwÃ¡nĠquÃ¡n":2634,"theĠĠĠ":2635,"ĠyuÃ¨Ġ30":2636,"zhÇĲĠ":2637,"ĠtÇİo":2638,"ĠĠĠ18":2639,"zhÃ©":2640,"ĠdeĠyÄ«ĠbÃ¹ĠfÃ¨nĠ":2641,"jÅ«nĠshÃ¬Ġ":2642,"lÃ¬ĠdeĠ":2643,"ĠfÃ³":2644,"ĠzhÄ«ĠhÃ²u":2645,"pĠ":2646,"ĠnÃŃng":2647,"ĠtÇĲngĠ":2648,"rÃ©nĠkÇĴuĠpÇĶĠchÃ¡":2649,"ĠjiÄĵĠshÃ²u":2650,"ĠjiÄģoĠtÅįng":2651,"ĠjiÃłnĠyÃºĠ":2652,"jiÃłoĠyÃ¹":2653,"ĠzhÄĽn":2654,"shuÅįĠ":2655,"ĠO":2656,"anĠ":2657,"ĠcÇİoĠ":2658,"ĠfÇİngĠ":2659,"wÃ¡n":2660,"ĠzuÃ¬ĠhÃ²uĠ":2661,"SĠ":2662,"rÃ©ng":2663,"ĠfÄĵnĠbÃ¹ĠyÃºĠ":2664,"ĠjÃŃĠtuÃ¡n":2665,"xÇĶĠ":2666,"ĠĠĠH":2667,"zhÄ«ĠyÄ«Ġ":2668,"ĠdeĠtÃ¨":2669,"ĠlÃ¬ĠyÃ²ng":2670,"dÄģngĠshÃŃĠ":2671,"ĠtÄģĠcÃ©ng":2672,"ĠzÃłngĠ":2673,"dÃ¬ĠqÅ«Ġ":2674,"ĠpÃło":2675,"ĠgÃłiĠ":2676,"ĠyÃºĠ199":2677,"ĠmÃ©iĠtÇĲ":2678,"ĠĠĠcÇĲ":2679,"quÃ¡nĠguÃ³Ġ":2680,"ĠkuÃłi":2681,"Ġ2001ĠniÃ¡nĠ":2682,"jÃ¬nĠxÃŃngĠ":2683,"ĠnÃłĠ":2684,"ĠyÄ«ĠmÃŃng":2685,"25":2686,"..":2687,"ĠqÃŃĠyÃºĠ":2688,"ĠgÅįu":2689,"ĠxÄ«ĠbÄĽi":2690,"ĠbÅįĠ":2691,"qiÃ¨":2692,"xiÄģngĠguÄģn":2693,"sÃ²ng":2694,"ĠyÃ³uĠ":2695,"ĠxiÃ©ĠhuÃ¬":2696,"jÃ¬nĠrÃ¹":2697,"ĠyÇĴuĠguÄģn":2698,"ĠzÇĶĠchÃ©ngĠ":2699,"ĠsÄ«ĠlÃ¬ng":2700,"duÇİnĠ":2701,"ĠyÇĲĠjÃŃ":2702,"qÃ¬ng":2703,"ĠrÃ¡nĠÃ©rĠ":2704,"ĠĠĠI":2705,"ĠÄģĠÄĽr":2706,"bÇİnĠ":2707,"ĠĠĠc":2708,"ĠĠĠjÃ¹":2709,"ĠlÃ¨ĠbÃ¹Ġ":2710,"dÃ¬ngĠ":2711,"xuÄģnĠbÃ¹Ġ":2712,"ĠyÄ«ĠzhÇĴng":2713,"diÃłnĠyÇĲngĠ":2714,"ĠhÃ¹nĠ":2715,"hÃłoĠ":2716,"ĠmÃ¨ngĠ":2717,"ĠjiÄĵĠr":2718,"yÇĴng":2719,"suÇĴĠyÇĴuĠ":2720,"ĠhÇİoĠ":2721,"ĠfÄģĠbÃ¹Ġ":2722,"ĠsÅ«ĠliÃ¡n":2723,"ĠfÅ«":2724,"ĠqiÃºĠduÃ¬":2725,"ĠhuÃ¡nĠjÃ¬ng":2726,"ĠgÅįngĠch":2727,"ĠtiÄģnĠ":2728,"hÃ©ngĠ":2729,"ĠtÃ²uĠguÃ²":2730,"ĠshÃ¬ĠshÃŃĠ":2731,"ĠguÇİnĠxiÃ¡Ġ":2732,"huÇĴ":2733,"liÃ¡nĠmÃ©ng":2734,"yÃŃngĠ":2735,"ĠxÄ«nĠ":2736,"198":2737,"ĠdÃ¬ĠsÃ¬":2738,"ĠshÃ¨nĠzhÃ¬Ġ":2739,"ĠshÃ¬ĠwÃ¹":2740,"ĠcÃ¡ngĠ":2741,"ĠfÄĵiĠchÃ¡ng":2742,"ĠzÅ«n":2743,"ĠwÃ¨iĠzhÃ¬Ġ":2744,"ĠĠĠniÃ¡n":2745,"chÅ«Ġ":2746,"ĠĠĠF":2747,"ĠdeĠd":2748,"ĠxuÃ¨":2749,"zuÃ²ĠwÃ©iĠ":2750,"ĠwÄĽn":2751,"ĠjÄ«nĠ":2752,"ĠjÃ¬ngĠ":2753,"Ġ191":2754,"kuÃłiĠ":2755,"ĠkÇĴuĠ":2756,"ĠdeĠzhÇĶĠyÃło":2757,"ĠtÃºĠ":2758,"shÃº":2759,"shÃ¹Ġ":2760,"ĠgÃ©ĠmÃ¬ng":2761,"qÃ¬Ġ":2762,"ĠxiÃłnĠdÃłi":2763,"sÃ¹Ġ":2764,"ĠzhuÄ«":2765,"Ġ3Ġ":2766,"ĠĠĠ194":2767,"ĠmÃŃnĠzÃº":2768,"ĠgÄģoĠ":2769,"ĠfÇİnĠduÃ¬":2770,"xiÄģnĠ":2771,"ĠjÇĶĠbÃłn":2772,"ĠdÃłĠduÅį":2773,"xiÄĽ":2774,"ĠpÃŃ":2775,"ĠsuÅį":2776,"la":2777,"ĠjiÃłnĠdeĠ":2778,"ĠkÃłoĠ":2779,"guÇĴ":2780,"ĠxuÃ¡n":2781,"ĠbÄģoĠhÃ¡nĠ":2782,"ĠchÅ«ĠxiÃłn":2783,"ĠxiÃłngĠmÃ¹":2784,"ĠqÅ«ĠdeĠ":2785,"ĠjÃ¬ĠniÃłn":2786,"ĠyÄģnĠ":2787,"ĠlÃ¡ng":2788,"ĠÃ¨rĠshÃŃĠ":2789,"zhÅįngĠdeĠ":2790,"ĠfÃłnĠwÃ©iĠ":2791,"hÃ¡ng":2792,"chÃ¡Ġ":2793,"DĠ":2794,"chuÃ¡nĠtÇĴng":2795,"ĠbÇİngĠ":2796,"huÃłnĠ":2797,"zhÃłnĠ":2798,"ĠqÃŃĠshÃ¬Ġ":2799,"fÄģĠshÄĵng":2800,"ĠzuÃ¬ĠhÃ²u":2801,"qÅ«ĠwÃ¨iĠ":2802,"ĠĠĠtÄģ":2803,"niÇĶĠ":2804,"ĠyÄ«ĠcÃ¬":2805,"lÃŃnĠpÇĲ":2806,"ĠyÃ¬ĠqÇĲ":2807,"ĠmÇİĠ":2808,"ĠwÃ¨iĠrÃ©nĠ":2809,"ĠchÅ«ĠxiÃłnĠ":2810,"ĠmÃ¡":2811,"ĠpÄ«Ġ":2812,"ĠlÃºnĠ":2813,"ĠnÇĲ":2814,"shÄĽngĠ":2815,"ĠfÃºĠ":2816,"ĠcuÃ¬":2817,"UT":2818,"ĠbÇİoĠhÃ¹":2819,"cÄģnĠyÃ¹":2820,"oo":2821,"tÃŃĠgÅįngĠ":2822,"ĠjiÄĽĠfÃłngĠ":2823,"gÇİnĠ":2824,"ĠjÇĲnĠbiÄģoĠ":2825,"ĠdeĠqiÃ¡n":2826,"ĠwÃ¨i":2827,"ĠlÇİng":2828,"ĠwÃ¨iĠdÃ¬Ġ":2829,"ĠqÃ¹Ġ":2830,"ĠjÃŃĠqÃŃ":2831,"ĠfÃºĠwÃ¹":2832,"gÃ¹ĠshÃ¬Ġ":2833,"xiÅ«Ġ":2834,"ĠsuÃŃĠhÃ²uĠ":2835,"yÃłngĠ":2836,"chÃ¨":2837,"ĠzhÇĲĠyÇĴuĠ":2838,"xuÃ¨":2839,"xuÃ©ĠyuÃłn":2840,"ĠnÃ¡nĠzi":2841,"gÃ¨ngĠ":2842,"ĠĠĠz":2843,"ĠlÃ¬ngĠshÃŃĠ":2844,"ĠdeĠzhÃ¨ng":2845,"tÃŃngĠ":2846,"ĠshÃ¬ĠyÇİn":2847,"ter":2848,"ĠliÃ¡nĠ":2849,"ĠliÃºĠ":2850,"xÇĲ":2851,"ĠbÃºĠhuÃ¬":2852,"xÃ¬ĠliÃ¨":2853,"ĠyÇİ":2854,"ĠdÅįngĠbÄĽi":2855,"ĠzhÅįngĠhuÃ¡ĠmÃŃnĠguÃ³Ġ":2856,"lÃŃnĠpÇĲĠkÃ¨":2857,"ĠdÃłnĠ":2858,"Ġ190":2859,"ĠshÃ¬Ġl":2860,"ĠĠĠwÃ¨iĠ":2861,"ĠhÅ«n":2862,"ĠjiÃ©ĠshÃ¹":2863,"ĠwÄĽiĠ":2864,"mÃ¬":2865,"ĠyuÃ¨Ġ28ĠrÃ¬Ġ":2866,"ĠdÃłĠbÃ¹ĠfÃ¨n":2867,"ĠzhÃŃĠjiÄĵ":2868,"ĠnÇİo":2869,"guÃ¬":2870,"ruÃ²":2871,"jiÃ©Ġ":2872,"ĠgÅįngĠbÃ¹Ġ":2873,"ĠjiÄģngĠqÃŃ":2874,"kÇİ":2875,"yÃ¬Ġ":2876,"ĠfÄĵnĠzhÅįngĠ":2877,"ĠwÇĶĠ":2878,"lÇĲngĠ":2879,"ĠgÃ²ngĠtÃ³ng":2880,"ĠzhÃłnĠdÃ²u":2881,"pÃŃngĠjÅ«n":2882,"ĠniÃ¨":2883,"tÇĲĠ":2884,"ĠshÃ¬ĠjiÃłnĠ":2885,"ĠyÇĴuĠshÃŃĠ":2886,"ĠyuÃ¡nĠdeĠ":2887,"nÃ¨iĠ":2888,"ĠrÃ©ngĠrÃ¡n":2889,"ĠV":2890,"ĠnÇļĠxÃ¬ng":2891,"ĠnÇİi":2892,"ĠchuÃ¡nĠtÇĴng":2893,"ĠwÃ¨iĠmÄĽi":2894,"wÃ©nĠ":2895,"shÄĽn":2896,"cÇİi":2897,"mÃ©n":2898,"lÃ¡iĠzÃ¬":2899,"yÃ¬nĠdÃ¹":2900,"dÇĲĠ":2901,"tÃ¡o":2902,"ĠshÃ¬Ġp":2903,"ĠpÃ¬":2904,"ĠwÃ¨iĠnÃ©ng":2905,"ĠnÃ¨":2906,"ĠzhÃ²ngĠ":2907,"fÄģĠxiÃłnĠ":2908,"ĠdÃłĠhuÃ¬":2909,"dÃŃĠ":2910,"ĠmÃ©ngĠgÇĶ":2911,"ĠguÃłnĠjÅ«n":2912,"ĠyÃ¬ĠshÃ¬Ġ":2913,"ĠjiÃ©ĠmÃ¹":2914,"ĠshÃŃĠqÄ«Ġ":2915,"ĠyuÃ¨Ġ15ĠrÃ¬Ġ":2916,"xiÃ©":2917,"ĠzÃłi":2918,"ir":2919,"ĠshÃ¬ĠyÃ¬":2920,"ĠshÃŃĠjÃ¬Ġ":2921,"ĠlÄĽng":2922,"Ġ2011ĠniÃ¡nĠ":2923,"heĠĠĠ":2924,"ĠĠĠyÇĲ":2925,"ĠjÃ¬nĠshÃ¬Ġ":2926,"ĠzhuÃ³":2927,"ĠfÃºĠwÃ¹Ġ":2928,"ĠzhÇĶĠchÃŃ":2929,"diÃłnĠ":2930,"huÃ³":2931,"24":2932,"ĠdeĠnÇļ":2933,"kÇİĠ":2934,"ĠjÄ«ĠgÃ²u":2935,"ag":2936,"shÄĵngĠhuÃ³":2937,"zÇĶĠzhÄ«Ġ":2938,"ĠchÃŃĠxÃ¹":2939,"ĠshÇĲĠdeĠ":2940,"ĠkÄĵĠ":2941,"rÃ¨nĠwÃ©iĠ":2942,"shÃŃĠqÄ«":2943,"ĠtÃºn":2944,"ĠhuÃ²Ġ":2945,"ĠkÄģng":2946,"Ġ100":2947,"ĠrÃ²u":2948,"ĠmÇĲnĠ":2949,"ĠfÃ¡n":2950,"ĠlÃ¡nĠ":2951,"ĠshÇİoĠ":2952,"ĠdÃłnĠzÃłiĠ":2953,"kÃ¨Ġ":2954,"ĠdeĠgÄģo":2955,"ĠxÄ«ĠbÄģnĠyÃ¡":2956,"ĠcÃ¡o":2957,"ĠyÃºĠ18":2958,"ĠdÃłĠzhÃłn":2959,"UTCĠ":2960,"yÃŃn":2961,"ĠÃ©ĠluÃ³ĠsÄ«":2962,"ĠquÄĵ":2963,"ĠyÃ¹nĠdÃ²ngĠhuÃ¬":2964,"ĠhÃ¡iĠyÇĴuĠ":2965,"ĠsÄ«ĠkÄĵ":2966,"ĠmiÃłnĠjÄ«":2967,"ĠwÃ¨iĠyÃºĠgÄģiĠguÃ³Ġ":2968,"yuÄĵĠ":2969,"shÇĴuĠcÃ¬":2970,"ĠdiÃło":2971,"ĠpÃŃngĠyÃ¡ng":2972,"ĠxuÇİnĠzÃ©":2973,"ĠchÄģngĠ":2974,"nÃ¡nĠ":2975,"ĠgÅįngĠnÃ©ng":2976,"Ġ25":2977,"dÄģngĠdÃ¬Ġ":2978,"ĠxÄ«nĠwÃ©n":2979,"ĠsuÇĴĠyÇĲĠ":2980,"qiÅ«Ġ":2981,"ĠgÅįngĠlÃ¹":2982,"80":2983,"ĠbÃłngĠ":2984,"ĠdeĠjÄ«ng":2985,"ĠĠĠw":2986,"ĠshÃ¬ĠxuÃ©":2987,"fÃ¡ng":2988,"ĠlÃ¬ĠfÇİ":2989,"guÇİnĠlÇĲ":2990,"shÅ«Ġ":2991,"gÃ²u":2992,"ĠĠĠ3":2993,"ĠnÃ©ngĠgÃ²u":2994,"ĠlÃ¡iĠxÄ«ĠyÃł":2995,"xÅ«ĠyÃło":2996,"ĠbÇĲĠsÃłiĠ":2997,"ĠdeĠjÃ¹":2998,"chÃ©ngĠwÃ©iĠ":2999,"ĠfÃ¡nĠ":3000,"dÃłoĠ":3001,"ĠdeĠquÃ¡n":3002,"ĠjÄ«ĠbÄĽn":3003,"qiÃºĠduÃ¬":3004,"ĠtÃŃĠchÅ«":3005,"ĠĠĠE":3006,"10ĠrÃ¬Ġ":3007,"ĠxÄ«ngĠ":3008,"Ġ5Ġ":3009,"ĠjÃ¬ngĠnÃ¨i":3010,"ĠĠĠW":3011,"quÄĵ":3012,"bÃ¬ĠyÃ¨":3013,"yÄ«ĠniÃ¡nĠ":3014,"chÄģo":3015,"ĠguÄģnĠyÃºĠ":3016,"Ġ50":3017,"ĠyÇİĠ":3018,"ĠÅįuĠzhÅįu":3019,"qiÃ¡ng":3020,"rÃ¨nĠhÃ©Ġ":3021,"ĠxÄ«ĠnÃ¡n":3022,"ĠsuÄģnĠ":3023,"shÇĶĠ":3024,"ĠcÃ¬Ġ":3025,"ĠlÃ¬ngĠwÃłi":3026,"ĠdeĠxÄ«":3027,"ĠjiÄģngĠ":3028,"ĠzhÃ¨ngĠcÃ¨":3029,"Ġ2009ĠniÃ¡nĠ":3030,"ĠdeĠlÃ¬Ġ":3031,"ĠgÅįngĠshÃ¬Ġ":3032,"ĠbÃ¹ĠjiÇĶĠ":3033,"23":3034,"yÄ«nĠ":3035,"EE":3036,"ĠjiÃłnĠshÃ¨":3037,"ĠdeĠxiÃłn":3038,"ĠdeĠzuÃ²Ġ":3039,"ĠlÇĲĠshÃ¬Ġ":3040,"ĠjiÄĵĠ":3041,"ĠbiÄģoĠzhÇĶnĠ":3042,"ĠyÇİng":3043,"ĠdeĠhÇİi":3044,"ÄģnĠquÃ¡n":3045,"ĠsÃłiĠshÃ¬Ġ":3046,"sÄģnĠniÃ¡nĠ":3047,"zÇĶĠzhÄ«":3048,"ĠjiÃ©ĠguÇĴ":3049,"ĠjÅ«ĠmÃŃn":3050,"20ĠrÃ¬Ġ":3051,"ĠguÅį":3052,"te":3053,"ĠyuÃ¨Ġ25ĠrÃ¬Ġ":3054,"ĠchÃ©ngĠzhÅįngĠ":3055,"ĠzÅ«Ġ":3056,"zÃ¬ĠyÃ³u":3057,"ĠfÇİĠyuÃłn":3058,"ĠĠĠgÄĵnĠjÃ¹":3059,"mÄĽiĠyuÃ¡nĠ":3060,"ÃłoĠlÃŃnĠpÇĲĠkÃ¨":3061,"ÇĲnĠ":3062,"ĠjiÃ¨Ġ":3063,"ĠkÅ«n":3064,"ĠyuÃ¨Ġ30ĠrÃ¬Ġ":3065,"ĠdeĠyÃ³u":3066,"70":3067,"ĠkÃ¹nĠ":3068,"yÃŃng":3069,"ĠjiÅ«":3070,"ĠshÃ¬ĠtÃº":3071,"ĠshÃ¨ĠlÃ¬Ġ":3072,"ĠshÃ¬ĠchÇİng":3073,"ĠhÃ©ĠpÃŃng":3074,"tÃ¡ngĠ":3075,"ĠdeĠtÃ³ng":3076,"ĠdeĠxiÇİo":3077,"jÅ«ĠmÃŃn":3078,"ĠchÃ©ngĠqÅ«Ġ":3079,"ĠchÇĲ":3080,"ĠdeĠzhÃłn":3081,"ĠtuÄ«Ġ":3082,"ĠyÃŃnĠhÃ¡ngĠ":3083,"ĠdeĠzhÃ¬Ġ":3084,"Ġ4Ġ":3085,"ĠyÃ¬ĠyuÃłn":3086,"me":3087,"ĠxuÃ©ĠxÃŃĠ":3088,"ĠqÅ«ĠyÃ¹":3089,"oc":3090,"ĠdeĠwÃ¨iĠ":3091,"ĠshÇİnĠ":3092,"ĠshÃ©":3093,"ĠyuÄĵĠ":3094,"liÃ¡nĠsÃłi":3095,"ĠrÃ¨nĠmÃ¬ng":3096,"ĠdÃłĠlÃ¬ĠyÃł":3097,"ĠyÃ¬ĠdÃłĠlÃ¬Ġ":3098,"ĠbÃ¨iĠchÄĵngĠwÃ©iĠ":3099,"ĠyÇĲnĠqÇĲ":3100,"ĠfÄĽn":3101,"ĠjÃ¬ĠlÃ¹":3102,"ĠyÇİnĠyuÃ¡nĠ":3103,"fÃ¡ngĠ":3104,"Ġ00":3105,"ĠdeĠmÃ¹":3106,"ĠfÄĵnĠwÃ©iĠ":3107,"ĠĠĠzhÃ¨ngĠzhÃ¬Ġ":3108,"ĠkÄĵĠxuÃ©":3109,"sÄĵn":3110,"fÄģĠxÃŃngĠ":3111,"ĠshÃ¬ĠfÇĴu":3112,"nÃŃĠyÃł":3113,"ĠwÇİĠÄĽr":3114,"ĠshÃ²uĠdÃło":3115,"ĠwÃ©iĠÄĽr":3116,"ĠbÃ¬ĠxÅ«Ġ":3117,"ĠxuÇİnĠ":3118,"yÃłĠzhÅįu":3119,"ĠhÃ¡nĠguÃ³Ġ":3120,"ĠshÃ¬ĠzhÇĲ":3121,"ĠzuÃ¬ĠchÅ«":3122,"tiÃ¡n":3123,"ĠĠĠN":3124,"Ġ24":3125,"hÄģ":3126,"juÃ©ĠdÃ¬ng":3127,"ĠliÃ¡nĠsÃłi":3128,"ĠzÃłiĠyÄ«Ġ":3129,"liÃłngĠ":3130,"ĠwÃ¹ĠbÇİoĠhÃ¹":3131,"ĠyuÄĵĠhÃłnĠ":3132,"ĠgÃ¨ĠyuÃ¨Ġ":3133,"22":3134,"zhÇĶnĠ":3135,"guÃ³ĠmÃŃn":3136,"ĠzhÃ¨ngĠzhÃ¬ĠrÃ©nĠwÃ¹Ġ":3137,"ĠĠĠyÃºĠ":3138,"mÄĽiĠguÃ³ĠrÃ©nĠkÇĴuĠpÇĶĠchÃ¡":3139,"ĠxiÃłnĠshÃŃĠ":3140,"ĠzhÄģoĠ":3141,"jiÇİ":3142,"ÄģĠlÄģ":3143,"ĠjÄ«ĠchÇİng":3144,"os":3145,"shÃŃĠjiÄģn":3146,"ĠjiÄģĠpÅį":3147,"shÄģnĠ":3148,"xiÃłĠjÃ¬Ġ":3149,"ĠzÃ¬ĠrÃ¡n":3150,"ĠrÃ©nĠshÃ¬Ġ":3151,"mÃŃnĠzhÇĶ":3152,"ĠjiÄĽĠ":3153,"ĠxÃŃngĠdÃ²ng":3154,"yÇİngĠ":3155,"biÄģoĠzhÇĶnĠ":3156,"NS":3157,"ĠĠĠjiÃ©":3158,"ĠfÇĴu":3159,"ĠgÅįngĠgÃ²ng":3160,"zhÄ«ĠhÃ²uĠ":3161,"ĠcÃ©ngĠjÄ«ng":3162,"liÃ¡ng":3163,"op":3164,"kÄģiĠfÄģ":3165,"ĠbiÃłnĠ":3166,"ĠshÃ¬ĠwÃ¨iĠyÃºĠmÄĽiĠguÃ³Ġ":3167,"ĠguÇİnĠlÇĲĠ":3168,"ĠrÃ©nĠmen":3169,"ĠrÃ¹Ġ":3170,"hÃ¹nĠ":3171,"ĠbÄĵiĠ":3172,"ĠbÃ¬ngĠbÃ¹Ġ":3173,"ĠcÇİo":3174,"ĠdÃ¡Ġ":3175,"ĠshÃŃĠsÃ¬":3176,"ĠyuÃ¨Ġ26ĠrÃ¬Ġ":3177,"zÃłnĠ":3178,"ĠshÃ¬ĠfÇİĠguÃ³Ġ":3179,"ĠdÄģ":3180,"ĠcuÄ«":3181,"tÃ³ngĠniÃ¡nĠ":3182,"wÃ¡nĠ":3183,"miÃ¨":3184,"ĠxÃº":3185,"ĠyuÃ¨Ġ24ĠrÃ¬Ġ":3186,"ur":3187,"huÃ¡ng":3188,"ĠyuÃ¨Ġ18ĠrÃ¬Ġ":3189,"ĠlÇĲĠlÃ¹nĠ":3190,"ĠyÇĴuĠrÃ©nĠ":3191,"ĠmÃŃngĠchÃ¡o":3192,"ĠlÃ¡iĠdeĠ":3193,"gÃ©ĠmÃ¬ng":3194,"ĠzhÃºĠjiÃłn":3195,"ĠmiÃłnĠjÄ«ĠwÃ¨iĠ":3196,"ĠpÃŃngĠjÅ«n":3197,"ĠhuÇĲĠ":3198,"liÃ¨ĠchÄĵ":3199,"ĠyÃ¡ngĠ":3200,"ĠlÃłi":3201,"ĠdiÃłnĠ":3202,"ĠmÄĽiĠzhÅįu":3203,"ĠĠĠ197":3204,"qÇĶĠdÃ©":3205,"ĠmiÃ¡n":3206,"ĠzÇĴngĠrÃ©nĠkÇĴu":3207,"zhÄ«Ġ":3208,"ĠxiÃłnĠzhÃ¬Ġ":3209,"dÃłĠxuÃ©Ġ":3210,"ĠtÄģĠyÄĽ":3211,"ĠtÇĲĠyÃ¹":3212,"duÄģnĠ":3213,"huÄ«Ġ":3214,"ĠdeĠxuÃ©":3215,"ĠchÄģi":3216,"ĠhÃ²uĠdeĠ":3217,"chuÃłng":3218,"Ġ2016ĠniÃ¡nĠ":3219,"liÃ¡nĠhÃ©Ġ":3220,"ĠdÃ¬ĠlÃ¬Ġ":3221,"ĠzhÃŃĠdÃło":3222,"ĠfÄģĠdÃ²ng":3223,"ĠkuÃłngĠ":3224,"un":3225,"mÇĶĠ":3226,"huÃ¡nĠ":3227,"ĠjÃ¹ĠlÃ¨ĠbÃ¹Ġ":3228,"guÃ³ĠdeĠ":3229,"kÄĽĠyÇĲ":3230,"ĠyÄ«ngĠchÇĲĠ":3231,"ĠĠĠ195":3232,"luÃ³ĠmÇİ":3233,"ĠqÃŃngĠkuÃłngĠ":3234,"is":3235,"ĠcÄģoĠ":3236,"ĠchÇİnĠ":3237,"ĠdÅįngĠnÃ¡n":3238,"ĠjÅ«nĠduÃ¬":3239,"chÃ¬":3240,"tÃ¡iĠbÄĽi":3241,"ĠxuÃ¡nĠ":3242,"ĠgÃ¨Ġ":3243,"ĠwÃ¨iĠyÄ«Ġ":3244,"ĠmiÃłoĠ":3245,"ĠxuÃ©ĠyuÃłnĠ":3246,"ĠsuÃŃ":3247,"ĠxuÃ©ĠxiÃłoĠ":3248,"hÃ¡nĠguÃ³Ġ":3249,"ĠyÃŃngĠdÃ©":3250,"ĠdÃ¬ĠtiÄĽ":3251,"dÇİngĠ":3252,"ĠbiÇİoĠ":3253,"ĠcÃ¬ĠshÃ¬ĠjiÃ¨":3254,"gÃ¨ĠrÃ©nĠ":3255,"ĠpÄģnĠ":3256,"ĠhÇİiĠjÅ«n":3257,"ĠcÃ©ngĠrÃ¨n":3258,"Ġ2008ĠniÃ¡nĠ":3259,"ĠgÄĵĠ":3260,"ĠbÃ¹ĠtÃ³ngĠ":3261,"ĠyuÃ¨Ġ16ĠrÃ¬Ġ":3262,"ĠzhÅįngĠyÄģng":3263,"ĠdÃłĠyuÄĵ":3264,"ĠzhÃŃĠyÃ¨":3265,"zuÃ¬ĠgÄģo":3266,"ĠluÃ³Ġ":3267,"ĠĠĠjiÄģĠ":3268,"liÃºĠ":3269,"ĠlÃ¬ngĠ":3270,"ĠdeĠdÃ¬ĠyÄ«Ġ":3271,"rÃ©nĠkÇĴuĠshÃ¹ĠliÃłng":3272,"100":3273,"tÃ¡iĠ":3274,"qÄ«ĠjiÄģn":3275,"ĠzhÄģnĠ":3276,"ĠyÃŃĠbÃ¹Ġ":3277,"suÇĴĠ":3278,"ĠbÇİoĠ":3279,"ĠĠĠdÃł":3280,"Ġzu":3281,"ĠyuÃ¨Ġ17ĠrÃ¬Ġ":3282,"bÇİi":3283,"nÃ¨iĠdeĠ":3284,"ĠzÃłiĠ199":3285,"ĠrÃ¬ĠjÅ«n":3286,"ĠshÃŃĠwÇĶ":3287,"ĠkÃ¨ĠsÄ«Ġ":3288,"ĠjÄ«ngĠchÃ¡ng":3289,"ĠwÃ¨iĠzhÅįngĠ":3290,"ĠyÄĽĠyÇĴuĠ":3291,"ĠhÃ³u":3292,"qiÃ¡nĠwÇİng":3293,"xÃ¹Ġ":3294,"ĠyuÃ¨Ġ12ĠrÃ¬Ġ":3295,"ĠbrĠ":3296,"ĠyuÃ¨Ġ27ĠrÃ¬Ġ":3297,"ap":3298,"ĠmÃ³ĠshÃ¬Ġ":3299,"ĠqiÃ¡oĠ":3300,"zÃ©Ġ":3301,"ĠxiÄģngĠdÄģng":3302,"PĠ":3303,"oĠĠĠ":3304,"jÃ¬ngĠ":3305,"ĠzhÅįngĠbÃ¹Ġ":3306,"ĠĠĠyÃ³uĠyÃºĠ":3307,"tÇĶĠ":3308,"shÇĴuĠ":3309,"chÅ«n":3310,"fÃ¹ĠzÃ©":3311,"diÃło":3312,"ĠkÇİnĠ":3313,"ĠbÇİnĠbÄĽn":3314,"guÇİng":3315,"bÄĽiĠbÃ¹Ġ":3316,"ĠyuÃ¨Ġ21ĠrÃ¬Ġ":3317,"ig":3318,"197":3319,"ĠtÃłiĠ":3320,"ĠjuÃ©ĠsÃ¨":3321,"wÃ¨n":3322,"ĠhÄĵng":3323,"ĠgÃ¹ĠshÃ¬Ġ":3324,"ĠdeĠmÃ³":3325,"ĠdeĠdiÃłn":3326,"shÄģng":3327,"Ġ2019ĠniÃ¡nĠ":3328,"ĠshÃŃĠliÃ¹":3329,"sÃ¬Ġ":3330,"ĠshÃ¬ĠlÃ¬Ġ":3331,"yÃŃĠ":3332,"ĠbÃ¬ĠyÃ¨":3333,"ĠgÃ¨ĠzhÇĴng":3334,"ĠhuÄ«ĠfÃ¹":3335,"ĠrÃ©nĠlÃ¨i":3336,"ĠhÅįng":3337,"19ĠrÃ¬Ġ":3338,"ĠmÃŃngĠchÄĵng":3339,"ĠguÇİngĠdÅįng":3340,"ĠgÅįngĠchÇĲĠ":3341,"Ġme":3342,"dÇİ":3343,"chÃ©ngĠdeĠ":3344,"nÃłĠ":3345,"ĠyuÃ¨Ġ11ĠrÃ¬Ġ":3346,"sÇĲ":3347,"ĠfÄģĠxÃŃngĠ":3348,"ĠjiÇİnĠchÄĵng":3349,"ĠgÅįngĠjÄ«":3350,"ĠjÃ¬ĠsuÃłnĠ":3351,"ĠshÄĽngĠdeĠyÃŃĠgÃ¨ĠshÃ¬ĠzhÃ¨nĠ":3352,"jÇĶĠxÃŃng":3353,"hÇİoĠ":3354,"yÃ²ngĠyÃºĠ":3355,"ĠdeĠshÃ¬ĠzhÃ¨nĠ":3356,"lÃ¹ĠdÃ¬Ġ":3357,"ĠjÃ¬ĠhuÃłĠ":3358,"Ġ2018ĠniÃ¡nĠ":3359,"ĠdeĠshÃ¹ĠjÃ¹Ġ":3360,"ĠbÃ¬ngĠwÃ¨iĠ":3361,"ĠyuÃ¨Ġ22ĠrÃ¬Ġ":3362,"ĠfÃ¨ng":3363,"ĠĠĠ196":3364,"48":3365,"ĠcÄģngĠ":3366,"ĠyuÃ¨Ġ3ĠrÃ¬Ġ":3367,"ĠsÃłiĠjÃ¬Ġ":3368,"ĠqÅ«ĠwÃ¨iĠ":3369,"ĠshÃ¬ĠzhÅįngĠguÃ³Ġ":3370,"ĠhuÃŃĠdÃło":3371,"21":3372,"ĠdeĠqÃŃngĠkuÃłngĠ":3373,"ĠyuÃ¨Ġ29ĠrÃ¬Ġ":3374,"ov":3375,"ĠyuÃ¨Ġ14ĠrÃ¬Ġ":3376,"ĠdeĠzhÃ¹":3377,"ĠyÃ¬ĠzhÃ¬Ġ":3378,"ĠwÃłnĠrÃ©nĠ":3379,"ĠchÇĶĠyÃºĠ":3380,"ĠĠĠxiÃłn":3381,"ĠyuÃ¨Ġ23ĠrÃ¬Ġ":3382,"ĠduÅįĠcÃ¬":3383,"ĠyuÃ¨Ġ2ĠrÃ¬Ġ":3384,"andĠĠĠ":3385,"ĠpÄģiĠshÃ¨":3386,"ĠzÃºĠ":3387,"ĠshÄĵngĠwÃ¹":3388,"ĠyÇĴuĠrÃ©nĠkÇĴu":3389,"ĠchÄģ":3390,"Ġ2013ĠniÃ¡nĠ":3391,"ĠchÃºĠ":3392,"ĠtÄģnĠ":3393,"Ġ40":3394,"ĠxÄ«ĠyÃ¡ng":3395,"lÃŃnĠ":3396,"Ġ23":3397,"ĠshÃłngĠwÃ¨iĠ":3398,"yÄģngĠ":3399,"ĠhÃ©ĠdÃ¬Ġ":3400,"ĠdeĠpÃŃng":3401,"jiÇİoĠ":3402,"ĠbÃ³ĠwÃ¹ĠguÇİn":3403,"ĠyuÃ¨Ġ31ĠrÃ¬Ġ":3404,"qiÃ¡nĠ":3405,"Ġ2012ĠniÃ¡nĠ":3406,"wÃłiĠjiÄģo":3407,"ĠcÃ©ngĠ":3408,"Ã©ĠluÃ³ĠsÄ«":3409,"ĠjÃŃĠtuÃ¡nĠ":3410,"ĠbÄĽnĠ":3411,"ĠshÄģo":3412,"ĠdiÃłnĠyÇĲngĠ":3413,"ĠbÃ¬ngĠyÃºĠ":3414,"Ġ2014ĠniÃ¡nĠ":3415,"huÄ«":3416,"ĠdÃ²ngĠwÃ¹":3417,"rÃ©nĠlÃ¨i":3418,"ĠsÄģngĠ":3419,"ĠjÃ¹ĠlÃŃĠ":3420,"juÃ©Ġ":3421,"ĠlÄĵiĠ":3422,"gÄģngĠ":3423,"Ġ2015ĠniÃ¡nĠ":3424,"ĠyÃºĠ198":3425,"ĠnÃłnĠ":3426,"ĠguÇİngĠbÅį":3427,"ĠshÃ¬ĠxÄ«":3428,"ĠxÄ«nĠdeĠ":3429,"ĠgÃ¨ngĠduÅį":3430,"tÃºĠ":3431,"fÅ«Ġ":3432,"hÅ«n":3433,"yÇĶĠ":3434,"ĠÃ©rĠzÃłiĠ":3435,"ĠwÃ¹ĠbÇİoĠhÃ¹ĠdÄģnĠwÃ¨iĠ":3436,"ĠmÃ¬ngĠmÃŃngĠ":3437,"ĠshÃ¬ĠxuÃ©ĠwÃ¨iĠ":3438,"ĠguÇĲĠ":3439,"ĠshÃ¨ĠjÃ¬":3440,"gÅįngĠsÄ«":3441,"ĠdÃłoĠdeĠ":3442,"ĠbÄ«ngĠ":3443,"ĠyuÃ¡nĠbÄĽn":3444,"ĠÃ©rĠgÄģi":3445,"Ġ2020ĠniÃ¡nĠ":3446,"fÄģngĠ":3447,"ĠkÄĵng":3448,"ĠzhuÄ«Ġ":3449,"shÃ¹nĠ":3450,"ĠnÇļĠ":3451,"ĠtÃ¡iĠbÄĽi":3452,"ĠhuÃ²ĠzhÄĽ":3453,"ĠyuÃ¨Ġ13ĠrÃ¬Ġ":3454,"duÃ³":3455,"ĠzÃ¡ĠzhÃ¬Ġ":3456,"ĠyÃłĠ":3457,"huÃŃ":3458,"xuÃ©ĠxiÃło":3459,"tÃłiĠ":3460,"ĠxÃ¬ĠbÄģo":3461,"ĠhuÃ¬ĠzÃłiĠ":3462,"xuÇİnĠzÃ©":3463,"ĠzhÃ¨ĠjiÄģng":3464,"xÄ«ngĠ":3465,"ĠzhÇĶĠrÃ¨nĠ":3466,"ĠzhÃ¨ngĠbiÄģn":3467,"ĠkÄĽĠdÃ¡":3468,"shÄĽngĠjÃŃĠ":3469,"ĠhÃ©ĠxÄ«n":3470,"av":3471,"dÄģnĠwÃ¨iĠ":3472,"ĠcÃłiĠ":3473,"diÄģnĠ":3474,"tÇĲĠyÃ¹":3475,"ĠshÃ¨ĠzhÃ¬Ġ":3476,"yÃ¡nĠ":3477,"ĠcÃłi":3478,"ĠdeĠnÃ¡n":3479,"ĠshuÇĲĠ":3480,"ĠliÇİngĠrÃ©nĠ":3481,"yÅįu":3482,"ĠnÇĲĠ":3483,"ĠhÃ©ĠlÃ¡n":3484,"kÇĴuĠ":3485,"ĠdÃ¬ĠxiÃł":3486,"ĠĠĠyÄ«Ġ":3487,"ĠshÃŃĠbÄģ":3488,"ĠmÃ²Ġ":3489,"ĠxÄ«ĠlÃł":3490,"rÃ©nĠshÃ¬Ġ":3491,"ĠxiÃłnĠdeĠyÃŃĠgÃ¨":3492,"ĠyÄ«ĠsÄ«":3493,"ĠdeĠshÄĵn":3494,"ĠdeĠfÄĵn":3495,"ĠtÃ³uĠ":3496,"ĠbÇĲĠ":3497,"ĠyÇĲnĠfÄģ":3498,"ĠbÃ¨iĠÄĽr":3499,"suÅį":3500,"ĠchÃ©ngĠle":3501,"ĠbiÄģnĠ":3502,"ĠdeĠfÇİnĠ":3503,"ÃłoĠyÃ¹n":3504,"ĠĠĠ193":3505,"ĠmÃ©iĠ":3506,"90":3507,"ĠxÇĲĠ":3508,"ĠlÃ¬ĠrÃºĠ":3509,"ĠcÃ¡ng":3510,"Ġhan":3511,"ĠshÃ¨ngĠ":3512,"ĠzÄ«ĠliÃłoĠ":3513,"ĠguÄģnĠfÄģng":3514,"ĠfÃ¨nĠwÃ¨iĠ":3515,"ĠzÃłiĠm":3516,"jiÄĵĠshÃ²u":3517,"dÄģnĠ":3518,"ĠniÃ¡nĠqÄ«ng":3519,"ĠsÃ¬Ġ":3520,"ĠĠĠchÄĵĠzhÃłn":3521,"kÃ¹":3522,"ĠhÇĶĠ":3523,"ĠcÃ¡iĠ":3524,"ĠxÄ«ĠgÄĵ":3525,"ĠchÅ«ĠrÃ¨n":3526,"ĠzhÇĶĠyÃ¬":3527,"ĠfÇĶĠ":3528,"ĠdeĠyÃ¡n":3529,"ĠbÇĲngĠ":3530,"ĠwÃ¨iĠyÃºĠfÇİĠguÃ³Ġ":3531,"ĠfÃ¹ĠqÄ«nĠ":3532,"ĠjÃ¬ĠzÇİi":3533,"ĠkÃ¨ĠsÄ«":3534,"ĠsuÇĴĠyÇĲ":3535,"ĠbÄģĠshÃ¬Ġ":3536,"zhÃ¨ĠxiÄĵ":3537,"ĠhÃ©ĠzuÃ²":3538,"ĠĠĠ2021ĠniÃ¡nĠ":3539,"ÇİnĠlÇİnĠ":3540,"ĠhÃ©ĠbÄĽi":3541,"ĠdeĠwÃ©n":3542,"chÄģoĠguÃ²":3543,"ĠpÃ¡ngĠ":3544,"ĠgÄĵĠqÇĶ":3545,"sÅįng":3546,"ĠguÃ³ĠwÃ¡ng":3547,"ĠbÄģngĠzhÃ¹":3548,"ĠjiÄģĠnÃ¡":3549,"ĠjiÄĽĠfÃłngĠjÅ«n":3550,"hÃ³u":3551,"niÃº":3552,"ĠĠĠK":3553,"ĠnÃ¨iĠrÃ³ng":3554,"ĠxiÃ©ĠzhÃ¹":3555,"Ġ2007ĠniÃ¡nĠ":3556,"gÄģnĠ":3557,"ĠzhÇĲĠshÃ¬Ġ":3558,"ĠchÇĶĠlÇĲ":3559,"ĠzhÄģ":3560,"ĠpÃ²Ġhu":3561,"ĠpÃºĠtÃ¡o":3562,"ĠzÃ²ng":3563,"ĠzÃłiĠl":3564,"ĠshuÃ²":3565,"IĠ":3566,"ĠĠĠ2019ĠniÃ¡nĠ":3567,"hÃ¡ngĠkÅįng":3568,"ĠjiÃ¹ĠshÃ¬ĠzhÃ¨nĠ":3569,"ĠbÇİoĠchÃŃ":3570,"zÃ¬ĠrÃ¡n":3571,"ĠzhÇİnĠkÄģi":3572,"ĠsÃº":3573,"ĠzÅįngĠjiÃło":3574,"ĠguÄģnĠxÃ¬":3575,"ĠjÄ«ĠhÅ«Ġ":3576,"zhÇİnĠ":3577,"ĠdÇĴngĠshÃ¬Ġ":3578,"28":3579,"tuÃ¬":3580,"ĠwÃ¹ĠzhÇĴng":3581,"ĠyÃ²uĠchÄĵng":3582,"ĠyÃ³uĠxÃ¬Ġ":3583,"ĠbÇĲĠlÃ¬Ġ":3584,"ĠchÃ¡oĠxiÄģnĠ":3585,"ĠnÇİoĠ":3586,"gÄĽi":3587,"kuÃł":3588,"ab":3589,"ĠdÅįngĠbÃ¹Ġ":3590,"ĠÃ©ĠluÃ³ĠsÄ«Ġ":3591,"Ġ2017ĠniÃ¡nĠ":3592,"ĠrÃ©nĠkÇĴuĠmÃ¬ĠdÃ¹ĠwÃ¨iĠmÄĽi":3593,"chÄĵĠ":3594,"ĠshuÃłi":3595,"ĠyÄ«ĠwÃ¨iĠ":3596,"ĠpÃ¡n":3597,"ĠyÇĲĠshÃłng":3598,"ĠĠĠ2020ĠniÃ¡nĠ":3599,"ĠxÅ«":3600,"ĠcÇĲĠ":3601,"ĠsÄģnĠniÃ¡nĠ":3602,"ĠdeĠzÄ«":3603,"ĠcÇĲĠhÃ²uĠ":3604,"ĠdeĠgÄĵ":3605,"ĠlÃ¬ĠshÇĶĠyÃºĠ":3606,"ĠdeĠz":3607,"ĠyÄ«nĠcÇĲĠ":3608,"wĠ":3609,"ĠdÃ¬ĠwÇĶ":3610,"Ġ2005ĠniÃ¡nĠ":3611,"ĠfÄģngĠxiÃłng":3612,"ĠgÇİiĠwÃ©iĠ":3613,"ĠcÃ¬ĠshÃ¬ĠjiÃ¨ĠdÃłĠzhÃłn":3614,"zhÅįngĠhuÃ¡ĠrÃ©nĠmÃŃnĠgÃ²ngĠhÃ©ĠguÃ³Ġ":3615,"ĠzhÇĶĠ":3616,"ĠshÃ¬ĠhÃ²uĠ":3617,"ĠbÇİng":3618,"ĠxÃŃngĠzhÃ¨ng":3619,"Ġ2021ĠniÃ¡nĠ":3620,"EĠ":3621,"ĠshÄĽ":3622,"ĠjiÃ©ĠgÃ²u":3623,"ĠtÃ²ng":3624,"ĠhÅ«nĠ":3625,"35":3626,"nÇĲ":3627,"jiÃłngĠ":3628,"ĠjiÃłoĠshÃ²uĠ":3629,"chÅ«ĠbÇİnĠ":3630,"dÃ¬ĠyÄ«Ġ":3631,"rÃ©nĠkÇĴuĠshÃ¹ĠliÃłngĠwÃ¨iĠrÃ©nĠ":3632,"ĠbÃ¹ĠfÃ¨nĠ":3633,"ĠĠĠsuÇĴ":3634,"ĠdeĠwÇĶ":3635,"ĠINS":3636,"ĠyÄ«ĠyÃłngĠ":3637,"ĠshÄģnĠdÅįng":3638,"ĠhÃ©ĠyÄ«Ġ":3639,"ĠjiÄĵĠduÃłnĠ":3640,"ĠdeĠyÃŃ":3641,"ĠyÇĴuĠxiÄĵ":3642,"ĠmÄĽiĠniÃ¡nĠ":3643,"zhÃŃĠyÃ¨":3644,"ĠĠĠtheĠĠĠ":3645,"ĠshÃŃĠrÃ¨n":3646,"ĠdÄĽngĠrÃ©nĠ":3647,"ĠdiÃłnĠzi":3648,"27":3649,"ĠhuÇĲ":3650,"ĠtÄģĠhÃ¡i":3651,"ĠINSEE":3652,"ĠgÄģiĠshÄĽng":3653,"ĠniÇİo":3654,"ĠgÇİnĠrÇİnĠ":3655,"ĠniÃłnĠ":3656,"kuÇİnĠ":3657,"jiÃłnĠzhÃ¹":3658,"ĠwÃ¨iĠfÃº":3659,"ĠzhÅįngĠguÃ³ĠgÃ²ngĠchÇİn":3660,"ĠshÄģngĠyÃ¨":3661,"ĠdeĠyÇĲngĠxiÇİngĠ":3662,"ĠyÇĲĠlÃ¡i":3663,"ĠzhÃŃĠwÃ¹Ġ":3664,"ĠzhÃ¨ngĠbiÄģnĠmÇİĠwÃ¨iĠ":3665,"ĠhÃ¡oĠmÇĲĠ":3666,"ĠshÃ¹ĠjÃ¹":3667,"ĠtÃ³uĠzÄ«":3668,"26":3669,"ĠĠĠbÃ¨i":3670,"ĠĠĠ2018ĠniÃ¡nĠ":3671,"ĠpÃ¡nĠ":3672,"ĠchÃ©ngĠjÃ¬Ġ":3673,"ĠÄģnĠquÃ¡n":3674,"ĠĠĠgÅįngĠ":3675,"tÅįngĠchÃ¡ng":3676,"ĠdÃłĠchÃ©nĠ":3677,"ĠsÄĵnĠ":3678,"fÇİĠlÇľ":3679,"fÃºĠ":3680,"ĠdÃ©ĠdÃło":3681,"ĠgÇĶĠ":3682,"ĠlÃºnĠdÅ«n":3683,"ĠzÇİoĠqÄ«":3684,"zhÄ«ĠjiÄģn":3685,"ĠdeĠyÇİn":3686,"ĠwÅį":3687,"qÄ«ĠjiÄģnĠ":3688,"ĠshÃŃĠfÄĵn":3689,"ĠdeĠduÃ¬":3690,"ĠdÃ¬ĠqiÃº":3691,"ĠcÃ³ngĠÃ©r":3692,"ĠduÅįĠshÃ¹":3693,"ĠxuÃ©ĠjiÄģ":3694,"ĠgÅįngĠfÄĵnĠ":3695,"ĠwÃ©iĠyÃł":3696,"zhuÄģnĠjÃŃĠ":3697,"ĠdeĠfÄĵng":3698,"ĠzÃłiĠqÃŃ":3699,"nÃ©ngĠlÃ¬Ġ":3700,"rÃ¨ĠdÃłi":3701,"ÃłoĠlÃŃnĠpÇĲĠkÃ¨ĠyÃ¹nĠdÃ²ngĠhuÃ¬":3702,"ruÇİnĠ":3703,"guÃ³ĠjiÄģ":3704,"cÅ«n":3705,"ĠĠĠzhÃ¬Ġ":3706,"zhÃ¨ngĠ":3707,"ĠzÃłiĠyÃ¬":3708,"ĠsuÃŃĠzhÃ¹":3709,"sÄģnĠgÃ¨":3710,"ĠlÃłiĠ":3711,"ĠshÃ¬ĠbÃ¹Ġ":3712,"ĠĠĠb":3713,"ĠtÄģĠbÃ¨i":3714,"196":3715,"dÃ¬ĠÃ¨r":3716,"shÃ¨Ġ":3717,"ĠkÅįngĠjiÄģn":3718,"ĠnÃŃĠ":3719,"ĠyÄ«nĠÃ©r":3720,"ĠchÃ¡oĠ":3721,"ĠdÃłng":3722,"ĠshÃŃĠzÃ¬":3723,"ĠzhÃ¬Ġ202":3724,"diÃłoĠchÃ¡":3725,"shÃ¨nĠ":3726,"ĠzÃłiĠzhÅįngĠ":3727,"ĠshuÄģng":3728,"ĠjiÃłnĠzhÃ¹Ġ":3729,"shÄģngĠyÃ¨":3730,"45":3731,"ĠxiÃłĠlÃ¬ngĠshÃŃĠ":3732,"ĠbÃ¹ĠzhÇİng":3733,"ĠdÃºĠ":3734,"ĠdÃ²ngĠhuÃł":3735,"ĠzhÅįngĠguÃ³ĠdÃłĠlÃ¹":3736,"ĠÄĽrĠdÃ©":3737,"dÃºĠlÃ¬Ġ":3738,"ĠjiÄĵĠrÇİng":3739,"jiÇİĠ":3740,"ĠbiÄģnĠmÇİĠwÃ¨iĠ":3741,"jÅ«nĠduÃ¬":3742,"gÃ²ngĠyÇĴuĠrÃ©nĠkÇĴu":3743,"ĠlÃ¹ĠjÅ«n":3744,"ĠshÃ²uĠdÃłoĠ":3745,"tÃłiĠyÃ¡ng":3746,"quÃ¡nĠqiÃº":3747,"ĠĠĠ1":3748,"kÄĵĠxuÃ©":3749,"ĠqÄ«ĠxÄ«":3750,"ĠrÃ©nĠkÇĴuĠmÃ¬ĠdÃ¹ĠmÄĽi":3751,"Ġ2006ĠniÃ¡nĠ":3752,"ad":3753,"ĠpÄ«ĠpÃŃng":3754,"ĠwÃ¨iĠshÃŃĠ":3755,"qÅ«ĠyÃ¹":3756,"ĠliÃ¡nĠjiÄĵ":3757,"194":3758,"ĠqÃŃĠhÃ²uĠ":3759,"qiÄģngĠ":3760,"liÃ¡nĠbÄģngĠ":3761,"ĠshÃ¬ĠzhÃ¨nĠbiÄģnĠmÇİĠwÃ¨iĠ":3762,"ĠINSEEĠshÃ¬ĠzhÃ¨nĠbiÄģnĠmÇİĠwÃ¨iĠ":3763,"zhÄģngĠ":3764,"ĠdiÃłoĠchÃ¡":3765,"ĠfÄģĠshÃ¨":3766,"ãĢİ":3767,"ĠshÃŃĠxiÃłn":3768,"ĠzhÃ¨ngĠzÃłiĠ":3769,"Ġ189":3770,"dÅįngĠbÄĽi":3771,"ĠdÄĽngĠdÃ¬Ġ":3772,"Ġ6Ġ":3773,"ĠfÄĽi":3774,"ĠpÃŃngĠlÃ¹nĠ":3775,"ãĢı":3776,"ĠĠĠqÃŃ":3777,"ĠzÄģoĠ":3778,"gÃ²ngĠtÃ³ng":3779,"ĠĠĠO":3780,"shÃŃĠdeĠrÃ©nĠkÇĴuĠshÃ¹ĠliÃłngĠwÃ¨iĠrÃ©nĠ":3781,"em":3782,"ĠfÃ¨iĠ":3783,"ĠguÄģnĠxÃ¬Ġ":3784,"mÄĽiĠguÃ³ĠrÃ©nĠkÇĴuĠpÇĶĠchÃ¡ĠdeĠshÃ¹ĠjÃ¹Ġ":3785,"ĠrÃ©nĠkÇĴuĠmÃ¬ĠdÃ¹ĠwÃ¨iĠmÄĽiĠpÃŃngĠfÄģngĠqiÄģnĠmÇĲ":3786,"ĠÃ©rĠrÃ©nĠkÇĴuĠmÃ¬ĠdÃ¹ĠwÃ¨iĠmÄĽiĠpÃŃngĠfÄģngĠqiÄģnĠmÇĲ":3787,"ĠĠĠ2017ĠniÃ¡nĠ":3788,"ĠdÄģngĠdÃ¬ĠgÃ²ngĠyÇĴuĠrÃ©nĠkÇĴu":3789,"chÃ³u":3790,"xuÇİnĠqÅ«ĠwÃ¨iĠ":3791,"ĠÎ":3792,"ĠÄĽrĠsÄ«Ġ":3793,"ĠhuÃ²ĠjiÃ¹ĠshÃ¬ĠzhÃ¨nĠ":3794,"ĠxiÃłĠdeĠ":3795,"fÄĵnĠbiÃ©":3796,"ĠwÃ¨iĠshÄĵng":3797,"tÇĴngĠzhÃ¬Ġ":3798,"ĠdÅįngĠjÄ«ng":3799,"ĠshÇĶĠdeĠshÄĽngĠjÃŃĠ":3800,"ĠshÇĶĠdeĠshÄĽngĠjÃŃĠxuÇİnĠqÅ«ĠwÃ¨iĠ":3801,"ĠhÃ¹Ġ":3802,"ĠjiÄģĠshÃłng":3803,"ĠshÃ¬ĠyÇĶ":3804,"quÄģnĠ":3805,"ĠmÄĽng":3806,"ĠzhÃ¬ĠzÃłoĠ":3807,"ĠzÃłng":3808,"ĠyÄ«ĠniÃ¡nĠ":3809,"ĠmÃ©ngĠ":3810,"ĠfÃ¨nĠwÃ¨iĠfÇİĠguÃ³Ġ":3811,"ĠgÄģiĠshÄĽngĠfÃ¨nĠwÃ¨iĠfÇİĠguÃ³Ġ":3812,"tÃŃng":3813,"ĠzhÃ¬ĠliÃ¡o":3814,"ĠjÃ¹ĠjuÃ©":3815,"ĠzhÃŃĠzhÃ¬Ġ":3816,"ĠmiÃ¡oĠshÃ¹":3817,"ĠqiÃ³ng":3818,"niÇĶĠyuÄĵ":3819,"ĠtÄģĠmenĠdeĠ":3820,"jÇĲng":3821,"kÄģiĠshÇĲĠ":3822,"ĠwÃłiĠjiÄģo":3823,"ĠzÃłiĠxÄ«":3824,"ĠdÃ¬ĠyÄ«ĠcÃ¬":3825,"fÄģĠxiÃłn":3826,"mÇĲnĠ":3827,"lĠ":3828,"zhÃ¨Ġge":3829,"ĠshÃ¬ĠyÇĴu":3830,"pÇĲnĠ":3831,"ĠĠĠJ":3832,"ĠnÃ¬":3833,"ĠshÃ¬ĠyÄ«ĠmÃŃng":3834,"29":3835,"ĠpÃ¹":3836,"ĠfÄģngĠmiÃłnĠ":3837,"ub":3838,"ĠzÃłiĠdÃł":3839,"ĠmÃ¡ngĠ":3840,"ĠlÃ¬ĠsÄ«":3841,"ĠquÃ¡nĠqiÃº":3842,"ĠhÇİiĠ":3843,"ak":3844,"ĠyÇĴuĠxiÃło":3845,"ĠzÃłiĠzhÅįngĠguÃ³Ġ":3846,"ĠjiÃłnĠzhÃ¬Ġ":3847,"ĠdÇĲng":3848,"ĠzhÄĽngĠgÃ¨":3849,"ĠchuÃ¡nĠ":3850,"ĠchÄģĠ":3851,"ĠmiÃ¨":3852,"ĠyuÃ¡nĠyÃºĠ":3853,"ĠxÄ«nĠzÄĵng":3854,"Ġ500":3855,"ĠzÃłiĠdÃ¹":3856,"ĠzhÃŃĠwÃ¹":3857,"ĠwÃ¡nĠjiÄģĠ":3858,"jiÄģĠnÃ¡":3859,"ĠĠĠ2016ĠniÃ¡nĠ":3860,"ÃłnĠhÃ©Ġ":3861,"ĠchÇİnĠpÇĲnĠ":3862,"jiÃłnĠlÃ¬Ġ":3863,"ĠĠĠyÇĴu":3864,"ĠbÇĲĠyÃł":3865,"ĠrÃ©nĠshÃ¹":3866,"ĠxÃ¬ngĠdeĠ":3867,"ĠpÄ«ĠzhÇĶnĠ":3868,"ĠjÇĶĠxÃŃngĠ":3869,"ĠjuÇİnĠ":3870,"zÇĶĠchÃ©ngĠ":3871,"jÃ¬ĠhuÃł":3872,"ĠxiÃ©ĠyÃ¬Ġ":3873,"ĠĠĠ2022ĠniÃ¡nĠ":3874,"edĠĠĠ":3875,"ĠlÇĲĠsÄ«Ġ":3876,"ĠdÃ©ĠdÃłoĠ":3877,"ĠhuÃ¡Ġ":3878,"mÃ¹ĠqiÃ¡n":3879,"ĠshuÇĲĠyÃ¹":3880,"ÇİoĠqÄ«":3881,"ĠÄģĠlÄģ":3882,"cÃ¬Ġ":3883,"ĠyÃ¡nĠzhÃ²ng":3884,"ĠrÃºĠ":3885,"ĠdÃłĠduÅįĠshÃ¹":3886,"ing":3887,"lÇĲng":3888,"xiÃłĠxiÃ¡":3889,"ĠniÃ¡nĠdÃ¹":3890,"ĠzhÅįngĠguÃ³ĠrÃ©nĠmÃŃn":3891,"ĠshÃŃĠshÄ«":3892,"ĠzhÄĵnĠduÃ¬":3893,"ĠzhÅįngĠxuÃ©Ġ":3894,"ĠbÄ«":3895,"uÃ³":3896,"ĠĠĠxÄ«":3897,"ĠbÃłnĠ":3898,"ĠjÇĲngĠchÃ¡":3899,"ĠzhuÄģnĠyÃ¨":3900,"ot":3901,"um":3902,"ĠsÄģiĠÄĽr":3903,"ĠshuÄģngĠfÄģng":3904,"ĠjÃ¬nĠxÃŃngĠle":3905,"gÃ©ĠlÃ¡n":3906,"ĠtuÃ¡nĠtÇĲ":3907,"ĠlÃ¬ĠyÃºĠ":3908,"ĠkuÃł":3909,"Ã©ĠluÃ³ĠsÄ«Ġ":3910,"ĠdeĠshÃŃĠhÃ²uĠ":3911,"ĠshÃ¬Ġm":3912,"chÇİnĠshÄĵng":3913,"ĠdÅ«ĠjiÃło":3914,"ĠshÃ¬ĠnÃ¡n":3915,"ĠĠĠzh":3916,"shuÄģng":3917,"biÃłnĠ":3918,"ĠwÃ¨iĠlÃ¡i":3919,"shÇĲĠyÃ²ngĠ":3920,"ĠxiÃ¹Ġ":3921,"ĠdeĠdÃ²ng":3922,"ĠzhÅįngĠwÃ©n":3923,"guÇİngĠdÅįng":3924,"ĠĠĠyÃ¬":3925,"ĠzhÄ«ĠjiÄģnĠ":3926,"ĠguÃł":3927,"ĠxuÃ©ĠzhÄĽ":3928,"ĠĠĠjiÇİnĠ":3929,"ĠÄĽrĠsÄ«":3930,"ĠwÃ¨nĠ":3931,"ĠfÇİĠlÇľ":3932,"jÇĶĠbÃłn":3933,"ĠdÃ¬ĠmiÃłn":3934,"wÄĵn":3935,"ĠjÄ«ĠjÄ«n":3936,"ĠdÃ¬ngĠwÃ¨iĠ":3937,"ĠzÇĶĠfÃ¹":3938,"xiÇİoĠxÃŃngĠxÄ«ng":3939,"ĠzÃłiĠmÄĽiĠguÃ³Ġ":3940,"ĠxiÃ©Ġ":3941,"ĠjÃŃĠdeĠ":3942,"yÅįng":3943,"ÇİnĠhÃ©Ġ":3944,"Ġ2022ĠniÃ¡nĠ":3945,"xiÃ¨":3946,"jiÄĵĠ":3947,"ĠbÃ¹ĠdÃ©":3948,"ĠrÃ©nĠgÅįngĠ":3949,"ĠxÄ«ĠwÃłngĠ":3950,"ĠnÇĶĠ":3951,"ĠĠĠzÃ¬":3952,"ĠguÃ³ĠhuÃ¬":3953,"sÅ«n":3954,"jiÃłng":3955,"75":3956,"ĠhÃ²uĠzhÄĽ":3957,"xiÇİngĠ":3958,"2ĠrÃ©nĠ":3959,"gÃłi":3960,"ĠqÄ«ngĠchÃ¡o":3961,"yÃ¹nĠ":3962,"ĠmÃŃnĠ":3963,"ĠqÇĲĠyÃ¨":3964,"ĠxÅ«n":3965,"ĠdeĠyÃ¡nĠjiÅ«Ġ":3966,"ĠbÃ¹ĠkÄĽ":3967,"wÃ©iĠyÄ«Ġ":3968,"tÃ³ngĠshÃŃĠ":3969,"ĠjÄ«ĠyÃºĠ":3970,"ĠzÃłiĠp":3971,"ĠsÃ¬ĠchuÄģnĠ":3972,"ĠjiÃłoĠshÃ²u":3973,"ĠzhÄ«ĠjiÄģnĠdeĠ":3974,"ĠdÅįngĠ":3975,"ÄĽrĠqÃŃ":3976,"fÄĵngĠ":3977,"ÃłnĠwÃ¨iĠ":3978,"ĠxiÇİoĠ":3979,"esĠ":3980,"bÇİoĠ":3981,"ĠjiÄģngĠjÅ«n":3982,"ĠbÃ¹ĠmÃ©n":3983,"zhÃ²u":3984,"bÇĶĠ":3985,"ĠgÄģoĠsÃ¹":3986,"ĠpÃ¡ng":3987,"hÄģĠ":3988,"ĠtÅįngĠ":3989,"ĠgÃ²ngĠhÃ©Ġ":3990,"xiÅįng":3991,"ĠÃ©rĠshÃ¬Ġ":3992,"inĠ":3993,"ĠĠĠbÃ¹Ġ":3994,"kuÃłng":3995,"gÄģng":3996,"dÃ¬ĠwÃ¨iĠ":3997,"195":3998,"ĠxuÇİnĠwÃ¨iĠ":3999,"dÄ«ng":4000,"ĠshÃ¬ĠmÄĽiĠguÃ³Ġ":4001,"ĠtÅ«":4002,"ĠjÃ¬ĠlÃ¹Ġ":4003,"ĠdeĠnÃ¨i":4004,"dÇİng":4005,"chÄĵĠzhÃłnĠ":4006,"ĠmÃłnĠhuÃł":4007,"esĠĠĠ":4008,"xuÃ©Ġ":4009,"ĠdÄģnĠ":4010,"ĠyuÃ¡nĠyÄ«n":4011,"nÃ¡nĠzi":4012,"ĠtÇĶĠdÃ¬Ġ":4013,"ĠjÇĲnĠbiÄģoĠsÃłi":4014,"ĠdeĠfÄĵi":4015,"ĠdeĠqÃŃĠzhÅįngĠ":4016,"ĠshÃŃĠxÃŃng":4017,"ĠfÄģĠxÃŃng":4018,"ĠyuÃ¡nĠniÃ¡nĠ":4019,"ĠjiÄĵĠrÇİngĠdeĠshÃ¬ĠzhÃ¨nĠ":4020,"zhÃŃĠjiÄĵ":4021,"jÃ¬ĠniÃłn":4022,"ĠzhÃ¡i":4023,"0ĠniÃ¡nĠdÃłiĠ":4024,"ĠchÅ«ĠshÄĵngĠyÃºĠ":4025,"ĠĠĠlÃ¬Ġ":4026,"shÃ¨ĠyÇĴuĠ":4027,"ĠzhÇĶnĠbÃ¨i":4028,"ĠĠĠ4":4029,"ÄĽrĠ":4030,"ĠhÃ©ng":4031,"Ġ28":4032,"ĠhÃ©Ġm":4033,"ĠzhÃ¬ĠyÃºĠ":4034,"ĠĠĠ2014ĠniÃ¡nĠ":4035,"ĠhuÃ²ĠdÃ©Ġle":4036,"ĠxÃ¹nĠliÃłnĠ":4037,"ĠshÃŃĠyÄ«Ġ":4038,"ĠjÄ«ĠgÃ²uĠ":4039,"nÃ¡nĠbÃ¹Ġ":4040,"ĠĠĠ2015ĠniÃ¡nĠ":4041,"ĠhÃ©ĠliÃº":4042,"ĠkÃ¹Ġ":4043,"qÃ¹ĠshÃ¬Ġ":4044,"xuÃ©ĠshÄĵng":4045,"ĠjiÄģĠzÃº":4046,"ĠrÃ¨nĠwÃ©iĠshÃ¬Ġ":4047,"ĠÃ©rĠtÃ³ng":4048,"RĠ":4049,"rÃłngĠ":4050,"ĠyÃºĠhÇİi":4051,"ĠbÃ¬ngĠjiÄģng":4052,"wÇĴ":4053,"ĠliÃ¡nĠbÄģngĠ":4054,"ĠxÃŃngĠwÃ©iĠ":4055,"jÇĶ":4056,"zÇĲ":4057,"ĠtiÄģnĠjÄ«n":4058,"TA":4059,"qiÃºĠyuÃ¡nĠ":4060,"ĠdeĠfÃº":4061,"ĠyÃºĠ197":4062,"gÄĵng":4063,"ĠlÃ¬ĠshÄģn":4064,"fÇĶĠ":4065,"ĠchÃ¡ngĠ":4066,"ĠxuÄĵ":4067,"ĠĠĠfÄĵn":4068,"ĠdeĠzhÇĲ":4069,"ĠxÄ«ĠbÃ¹Ġ":4070,"ĠyÃłĠzhÅįu":4071,"ĠfÄĵiĠ":4072,"au":4073,"ĠzÃ©ĠshÃ¬Ġ":4074,"ĠzÃłiĠgÄģi":4075,"ĠzhÃŃĠdÃłoĠ":4076,"ĠqÄ«ngĠniÃ¡nĠ":4077,"ĠxiÄģnĠhÃ²uĠ":4078,"ĠdeĠdÃ¬ĠÃ¨r":4079,"ĠwÃ©iĠchÃŃ":4080,"ĠjiÃ©ĠmÃ¹Ġ":4081,"38":4082,"ĠzuÃ¬ĠjiÄģĠ":4083,"fÄģĠbÃ¹Ġ":4084,"ĠhÃ©ĠxÄ«":4085,"yÃłoĠ":4086,"ĠtÄģi":4087,"ĠchÃ©ngĠyuÃ¡n":4088,"ĠhÃºĠ":4089,"wÃºĠfÇİ":4090,"qÅ«ĠhuÃłĠ":4091,"tÃ¨Ġ":4092,"ĠĠĠ2013ĠniÃ¡nĠ":4093,"Ġ60":4094,"dÇİoĠ":4095,"ĠĠĠxÄ«n":4096,"ĠdÃ¬ngĠdeĠ":4097,"ĠmÇĶĠqÄ«nĠ":4098,"ĠdÃłiĠbiÇİoĠ":4099,"chÃ³ngĠxÄ«n":4100,"dÅįngĠjÄ«ng":4101,"ĠtÄģngĠ":4102,"ĠtÃłoĠ":4103,"ĠlÇĲĠyÃł":4104,"ĠfÄģngĠÃłnĠ":4105,"ĠguÇİngĠzhÅįu":4106,"ĠyÇĴuĠxiÃłnĠgÅįngĠsÄ«":4107,"ĠzuÇĴĠyÃ²u":4108,"Ġ26":4109,"suÄ«ĠrÃ¡n":4110,"ĠwÃ©nĠxuÃ©":4111,"ĠqÃ¹ĠshÃ¬Ġ":4112,"ĠqiÄģng":4113,"ĠmÄĽiĠgÃ¨":4114,"ĠbÃłoĠfÄģ":4115,"ĠrÇĶĠ":4116,"ĠxiÃłngĠmÃ¹Ġ":4117,"Ġ21":4118,"rÃ©nĠdeĠ":4119,"ĠzhÅįngĠyÇĴu":4120,"ĠjiÃłnĠduÃ¬":4121,"ĠquÃ¡nĠbÃ¹Ġ":4122,"ĠjÇĲngĠfÄģng":4123,"ĠyÃ³uĠqÃŃ":4124,"ĠsÄģnĠgÃ¨":4125,"ĠhÄĽnĠduÅį":4126,"ĠzÃ¬ĠjÇĲĠdeĠ":4127,"duÅįĠ":4128,"formulaĠ":4129,"ĠbÃ¹ĠduÃłnĠ":4130,"yuÃłnĠ":4131,"ĠshÃ¬ĠwÄĵi":4132,"ĠzhÄĵnĠ":4133,"sÅ«ĠliÃ¡n":4134,"ĠchÃ©ngĠwÃ©iĠle":4135,"ĠxiÅįngĠdÃ¬Ġ":4136,"fÄĵiĠchÃ¡ng":4137,"ĠcÄģng":4138,"wÃ¹ĠyuÃłn":4139,"ĠmÃ¬ĠshÅ«":4140,"ĠdeĠfÄģngĠshÃ¬Ġ":4141,"shÃ¨ĠlÃ¬Ġ":4142,"diÃ©":4143,"ĠfÃºĠjiÃłn":4144,"ĠdÃłoĠdÃ¡":4145,"ĠĠĠ5":4146,"ĠguÃ³ĠlÃ¬Ġ":4147,"ĠchÃ©ngĠrÃ¨n":4148,"ĠmÃ¬ngĠ":4149,"ĠtÇĴngĠzhÃ¬Ġ":4150,"ĠcÃ¹nĠ":4151,"ĠhuÃłĠxuÃ©":4152,"ĠdeĠyÄ«ĠzhÇĴng":4153,"46":4154,"mÃŃnĠzÃº":4155,"ĠjiÇİnĠchÃ¡":4156,"ind":4157,"guÇĲ":4158,"ĠzhÄ«ĠwÃłiĠ":4159,"ĠyÃ¹nĠshÅ«":4160,"ĠlÃ¬ngĠwÃłiĠ":4161,"ĠyuÃ¡nĠzhÃ¹":4162,"xuÇİnĠrÃ©nĠ":4163,"ĠdÇĲĠdÃ¡":4164,"33":4165,"ĠchÃ¡ngĠqÄ«":4166,"ĠshÃ¬ĠgÃ¹":4167,"ĠkÄģiĠfÃłngĠ":4168,"ĠgÇİnĠdÃło":4169,"ĠhÃłoĠxiÃłnĠ":4170,"kuÄģnĠ":4171,"ĠĠĠduÃ¬":4172,"ĠrÃ¡nĠhÃ²uĠ":4173,"qÄ«ngĠniÃ¡nĠ":4174,"ĠshÃ¬ĠyuÃ¨":4175,"4ĠrÃ©nĠ":4176,"ĠyuÃ¨ĠtÃ¡i":4177,"ĠliÃ¡nĠxÃ¹":4178,"ĠchÃ©ngĠdÃ¹":4179,"ĠrÃ©nĠzÃłiĠ":4180,"ĠqÃºnĠ":4181,"qÇĲĠyÃ¨":4182,"ĠtÇĲĠzhÇİng":4183,"sÃ¨Ġ":4184,"ĠlÇļĠyÃ³u":4185,"ĠĠĠ2023ĠniÃ¡nĠ":4186,"ĠniÇĶĠyuÄĵ":4187,"ev":4188,"Â°":4189,"ĠdeĠgÇĶ":4190,"ĠshÃ¬ĠrÃ¬ĠbÄĽn":4191,"yÇĲĠjÃŃĠ":4192,"ĠshÃ¬ĠzhÃ¨ng":4193,"tÃ²u":4194,"VĠ":4195,"bÄģĠshÃ¬Ġ":4196,"fÄģnĠ":4197,"jiÃ©ĠshÃ¹":4198,"ĠzÃłiĠyÃºĠ":4199,"ĠmÃ¨ng":4200,"ĠzhÃ³u":4201,"ĠjÃ¬ĠzhÄĽ":4202,"ĠsuÃŃĠzhe":4203,"ĠrÃ¨ĠdÃłi":4204,"ĠcÇĲĠshÃŃĠ":4205,"ï½":4206,"tÃłnĠ":4207,"ĠnÇļĠzÇĲĠ":4208,"ĠkÃłnĠdÃło":4209,"ĠshÃ¬ĠmÃŃn":4210,"ĠĠĠhÃ©Ġ":4211,"jiÃ©ĠmÃ¹":4212,"ĠjÄ«ngĠjÃ¬":4213,"ĠsuÃŃĠhÃ²u":4214,"ĠshÄĵngĠyÃ¡":4215,"ĠgÄĵnĠjÃ¹Ġ":4216,"Ġ35":4217,"ĠshÃ¬ĠbÄ«ng":4218,"ĠtÇİoĠlÃ¹nĠ":4219,"MĠ":4220,"ĠhÇİnĠ":4221,"ĠyÇİnĠchÃłngĠ":4222,"ĠkÃ²u":4223,"ĠguÄ«ĠdÃ¬ng":4224,"1ĠrÃ©nĠ":4225,"ĠdeĠlÃ¹":4226,"ĠniÇİoĠ":4227,"ĠtÃ³ngĠshÃŃĠyÄĽ":4228,"ĠguÇİngĠfÃłnĠ":4229,"ĠyÄ«ĠshÃ¬Ġ":4230,"chÃłngĠ":4231,"ĠpÃŃngĠtÃ¡i":4232,"zuÃ¬ĠzhÅįngĠ":4233,"gÅįngĠzuÃ²Ġ":4234,"ĠdeĠjiÃło":4235,"ĠyuÃ¨ĠnÃ¡n":4236,"ĠjiÄĵĠdÃłoĠ":4237,"ĠtuÃ³":4238,"gÅįngĠyuÃ¡nĠ":4239,"ĠÄĽrĠlÃ¡n":4240,"BĠ":4241,"zuÃ²ĠwÃ©i":4242,"sÃłiĠshÃ¬Ġ":4243,"ĠdeĠbÃło":4244,"ĠzÇĴngĠmiÃłnĠjÄ«Ġ":4245,"ĠlÇľĠbÄ«nĠ":4246,"36":4247,"ĠzhÄ«ĠxiÃłnĠ":4248,"ĠpÃŃngĠmiÃłn":4249,"ĠchÄĵngĠwÃ©i":4250,"ĠÄĵnĠ":4251,"7ĠrÃ©nĠ":4252,"ĠzhÅįuĠshÃ¬Ġ":4253,"ĠmiÃło":4254,"ĠhuÃ¡ngĠdÃ¬Ġ":4255,"ĠdÃłĠqÅ«Ġ":4256,"ĠchÃ©ngĠxiÃłn":4257,"niÃ¨":4258,"sÅįu":4259,"ĠdÅ«nĠ":4260,"ĠdeĠcÅ«n":4261,"ĠbÃ¹ĠlÄģ":4262,"ĠshÃŃĠyÃłnĠ":4263,"ĠjÃ¬ĠchÃ©ngĠ":4264,"ĠnÃ¡nĠjÄ«ng":4265,"lÇľĠ":4266,"ĠdeĠbiÇİo":4267,"ĠjÄ«ĠdÃ¬Ġ":4268,"ĠqÃºnĠdÇİo":4269,"ĠlÃ¹ĠxiÃłnĠ":4270,"ĠyÃºĠlÃ¨":4271,"ĠyÃ¬ngĠyÃ²ng":4272,"ĠdeĠhuÃł":4273,"ĠTheĠĠĠ":4274,"zhÃºĠjiÃłn":4275,"ĠdeĠshÃ¨":4276,"ĠdeĠxÃ¬ng":4277,"ĠdeĠyÇĶ":4278,"ĠmÃŃ":4279,"ĠjÃŃĠwÃ¨iĠ":4280,"Ġ188":4281,"ĠxiÄĽĠ":4282,"jÄ«ngĠguÃ²":4283,"ĠjÃ¬nĠgÅįngĠ":4284,"ampĠ":4285,"ĠnÃłi":4286,"chuÃ¡nĠ":4287,"ĠlÃ¬ngĠyÄ«Ġ":4288,"ĠduÅįĠgÃ¨":4289,"ĠyÃºĠ194":4290,"ĠdeĠwÃ¨n":4291,"chÄģ":4292,"hÃ¡o":4293,"ĠhuÃ²ĠshÃ¬Ġ":4294,"ĠzÅįngĠ":4295,"ĠchuÃłngĠzuÃ²":4296,"You":4297,"bÄĵi":4298,"ĠfÄģngĠfÇİ":4299,"ĠguÄ«ĠhuÃł":4300,"kuÃŃĠ":4301,"ĠlÇĲngĠyÃ¹":4302,"ĠhÄģĠÄĽr":4303,"juÃ©ĠsÃłi":4304,"fÄģngĠmiÃłn":4305,"mÃ©iĠtÇĲ":4306,"ĠzÃłiĠ18":4307,"dÇİĠ":4308,"ĠtÃŃngĠzhÇĲ":4309,"oun":4310,"ĠyÃłoĠ":4311,"ĠxiÃłnĠrÃ©nĠ":4312,"ĠĠĠzhÅįngĠ":4313,"ĠbÃ¹ĠluÃ²":4314,"kÄģnĠ":4315,"00ĠwÃłnĠ":4316,"ĠdeĠzhÃ²ngĠyÃło":4317,"ĠzÇĴuĠ":4318,"ĠtiÄĵ":4319,"ĠhÃłoĠxiÃłn":4320,"ĠhuÇĴĠ":4321,"ĠzÃłiĠ198":4322,"ĠlÃłngĠ":4323,"ĠbÇİnĠdeĠ":4324,"ĠyÇĴuĠyÃŃĠgÃ¨":4325,"ĠwÃ¹ĠlÇĲ":4326,"cuÃ²":4327,"kÃ²ng":4328,"ĠshÄĵngĠyÃ¡Ġ":4329,"xuÄĽ":4330,"bÄĽiĠmÄĽi":4331,"ĠĠĠshÃŃĠ":4332,"ĠnÃ³ngĠyÃ¨":4333,"ĠshÃłoĠniÃ¡nĠ":4334,"ĠyÄ«ngĠyÇĶĠ":4335,"biÄģoĠwÃ¨iĠ":4336,"huÄģ":4337,"ĠguÃ³ĠjÃ¬":4338,"jiÄģĠtÃŃngĠ":4339,"ĠyÇĲĠsÃ¨":4340,"kÇİoĠ":4341,"ĠpÅ«Ġ":4342,"ĠĠĠ10":4343,"xÄ«nĠwÃ©n":4344,"mÇĲĠ":4345,"ĠdeĠsÄģn":4346,"ĠyÇĴuĠxiÃłnĠgÅįngĠsÄ«Ġ":4347,"nÃ¡nĠxÃ¬ng":4348,"tÇİnĠ":4349,"ĠzhÇĶĠjuÃ©":4350,"xÃ¹nĠliÃłnĠ":4351,"nÃŃng":4352,"ĠshÃ¬ĠdÃł":4353,"ĠzÃłiĠtÄģ":4354,"ĠlÄģĠsÄ«Ġ":4355,"9ĠrÃ©nĠ":4356,"rÃłng":4357,"ĠĠĠjÄ«":4358,"xuÇİnĠjÇĶĠ":4359,"fÃ¹Ġ":4360,"juÇİnĠ":4361,"yuÄĵĠhÃłnĠ":4362,"00ĠniÃ¡nĠ":4363,"ĠdeĠzÃ¬":4364,"ĠsÃłĠkÃ¨":4365,"ĠpÇĲnĠpÃ¡i":4366,"ĠtuÃ²":4367,"ĠshÃ¨ĠqÅ«Ġ":4368,"ĠjiÄĽĠjuÃ©":4369,"bÃ³ĠwÃ¹ĠguÇİn":4370,"kÇĴng":4371,"ĠdÃ¬ĠwÃ¨iĠ":4372,"bÄ«nĠ":4373,"ĠdeĠliÇİng":4374,"ĠchÃ¡Ġ":4375,"ĠzhÃłng":4376,"wÄĽiĠyuÃ¡nĠ":4377,"ĠyÃŃĠ":4378,"lÃ¹ĠdÃ¬ĠmiÃłnĠjÄ«ĠwÃ¨iĠ":4379,"ĠĠĠs":4380,"ĠzhÃ¬ĠjÄ«n":4381,"chÃ¡oĠxiÄģnĠ":4382,"ĠshuÇĲĠyÃ¹ĠmiÃłnĠjÄ«ĠwÃ¨iĠ":4383,"ĠÃ©rĠbÃ¨i":4384,"ĠyÃ¡nĠjiÅ«":4385,"ĠzuÃ¬ĠdÃłĠdeĠ":4386,"ĠgÇİiĠbiÄģn":4387,"kuÃ²":4388,"yÄģoĠ":4389,"Ġ2004ĠniÃ¡nĠ":4390,"guÇİngĠbÅį":4391,"jÃ¬ĠshÃ¹":4392,"ÄģnĠwÃ¨iĠ":4393,"ĠzhÄ«ĠqiÃ¡nĠ":4394,"ĠjuÃ©ĠsÃłi":4395,"ĠzhÇİoĠ":4396,"uÃ³ĠwÄĵi":4397,"jÃ¬ngĠnÃ¨i":4398,"og":4399,"chÇĶ":4400,"ĠyÇİngĠhuÃł":4401,"pÃ¨i":4402,"ĠsuÇĴĠyÇĴu":4403,"zÇĶĠ":4404,"ĠdeĠshuÇĲ":4405,"bÃ¹ĠtÃ³ng":4406,"ĠshÇİngĠ":4407,"ĠzÅįngĠhÃ©Ġ":4408,"ĠĠĠmÃŃng":4409,"ĠnÃ©ngĠlÃ¬Ġ":4410,"ĠxiÇİoĠxÃŃngĠxÄ«ng":4411,"nÃŃngĠ":4412,"ĠniÃ¡nĠl":4413,"ĠqÃŃĠxiÃł":4414,"ĠniÃ¡nĠshÃ¬ĠjiÃ¨":4415,"ĠqiÃłn":4416,"ï½ŀ":4417,"Ġ27":4418,"ĠfÇİĠlÃ¡n":4419,"dÅįngĠbÃ¹Ġ":4420,"ĠcÄģnĠjiÄģ":4421,"ĠdeĠzuÃ²ĠpÇĲnĠ":4422,"ĠshÄĵngĠzhÇİng":4423,"ĠpÇĲnĠdeĠ":4424,"ĠyÄ«ĠtÃ³ng":4425,"wÇİnĠ":4426,"ĠpÃ¬nĠ":4427,"ĠampĠ":4428,"ĠhuÃłĠhÃ©Ġ":4429,"ĠdÃ¡ĠdÃłoĠ":4430,"dÅ«Ġ":4431,"ÄĵnĠ":4432,"gÄĵĠ":4433,"hÃ²uĠlÃ¡i":4434,"ĠzÄ«Ġ":4435,"ĠĠĠV":4436,"ĠyÇĴuĠsuÇĴ":4437,"ĠzÃ¬ĠdÃ²ng":4438,"ĠdÄģngĠzhÅįngĠlÃ¹ĠdÃ¬ĠmiÃłnĠjÄ«ĠwÃ¨iĠ":4439,"ay":4440,"ĠÃ©rĠshuÇĲĠyÃ¹ĠmiÃłnĠjÄ«ĠwÃ¨iĠ":4441,"im":4442,"ĠshÃ¬ĠjÃŃĠ":4443,"ĠjÄ«ĠbÃłi":4444,"ĠĠĠ2012ĠniÃ¡nĠ":4445,"ĠqÇĲng":4446,"yÄ«ngĠgÃ©ĠlÃ¡n":4447,"ĠkuÃŃĠ":4448,"ĠÃ¨rĠniÃ¡nĠ":4449,"ĠlÃºĠwÇİĠÄĽr":4450,"ĠdeĠÃ©r":4451,"ĠshÃŃĠsÄģn":4452,"ĠshÄĽngĠhÃ©Ġ":4453,"ĠzhÃ²u":4454,"ĠgÃ¨ĠdÃ¬Ġ":4455,"zhÃ¨ngĠzhÃ¬ĠrÃ©nĠwÃ¹Ġ":4456,"ĠqÃŃĠhÃ²u":4457,"ĠdÃ©ĠlÇĲ":4458,"ĠxiÄģoĠshÃ²u":4459,"3ĠrÃ©nĠ":4460,"65":4461,"ĠzhÃłoĠ":4462,"bÇĲĠlÃ¬Ġ":4463,"ĠshÃ¬ĠyÄ«ĠwÃ¨iĠ":4464,"ĠlÃ¬ĠhÃ©Ġ":4465,"dÅįngĠnÃ¡n":4466,"ĠdeĠwÃłi":4467,"ĠfÃ©i":4468,"gÃłoĠ":4469,"xiÇİnĠ":4470,"juÄģnĠ":4471,"ĠlÃ¬ĠyÃłĠ":4472,"ĠquÃ¡nĠlÃ¬Ġ":4473,"ĠbÃ¬ngĠfÄĵi":4474,"ĠwÇİngĠzhÃłn":4475,"ĠchÃŃĠ":4476,"mÃ¹Ġ":4477,"ĠfÃ©n":4478,"ĠdÃłoĠlÃ¹":4479,"ĠdÃ¨ngĠ":4480,"yÇĲĠjÄ«ng":4481,"ĠtÃ³ngĠ":4482,"ĠwÄĵiĠÄĽr":4483,"fÄģĠbiÇİo":4484,"ĠzhÇĲĠnÃ©ng":4485,"qÄ«ngĠ":4486,"ĠbÃ¹ĠhÃ©Ġ":4487,"ĠchÃłngĠpiÃłn":4488,"ĠxÃŃngĠdÃ²ngĠ":4489,"ĠfÅ«ĠsÄ«":4490,"xuÃ¡n":4491,"ĠchÃ©ngĠlÃ¬ĠyÃºĠ":4492,"ĠĠĠcÃ³ng":4493,"ĠxÄ«ngĠqÄ«":4494,"ĠbÇĶ":4495,"ĠzhÅįuĠdeĠ":4496,"ĠpÃ¡iĠmÃŃng":4497,"ĠdÄģnĠqÅ«Ġ":4498,"ĠmÇİĠlÃ¬Ġ":4499,"ĠĠĠxÃŃngĠzhÃ¨ngĠqÅ«ĠhuÃłĠ":4500,"ĠdÇĶĠ":4501,"ĠdeĠshÃŃĠjiÄģn":4502,"ĠĠĠmÇİ":4503,"ĠdeĠtÃ³u":4504,"ĠwÃ¨iĠgÄģo":4505,"tÃ¨ĠbiÃ©":4506,"ĠwÃ¨iĠfÃºĠqÃŃĠyÃºĠ":4507,"bÇĲĠsÃłiĠ":4508,"ĠyÃºĠ196":4509,"ĠhÅįngĠzhÃł":4510,"ĠĠĠlÃ¬ng":4511,"ĠyÃ²ngĠlÃ¡i":4512,"ĠwÃ¨iĠyÇĴu":4513,"ĠyÇĲngĠxiÇİng":4514,"ĠbÇİoĠliÃº":4515,"ĠwÄĽiĠyuÃ¡nĠhuÃ¬Ġ":4516,"bÃ¨iĠ":4517,"jiÇİo":4518,"xiÄģoĠ":4519,"Ġ29":4520,"ĠxiÄģngĠduÃ¬":4521,"us":4522,"ĠjÃŃĠshÇĲ":4523,"ĠwÇİngĠluÃ²":4524,"ĠchÄģoĠjÃŃĠ":4525,"ĠshÃ¬ĠzhÃ¨ngĠfÇĶ":4526,"ĠĠĠzÇİo":4527,"guÇİnĠlÇĲĠ":4528,"ĠdeĠjÃ¬n":4529,"ĠgÄĵngĠmÃŃngĠwÃ¨iĠ":4530,"XĠ":4531,"mÄĽiĠguÃ³":4532,"ĠchÅ«ĠshÄĵng":4533,"ĠtÇĲĠzhÇİngĠkÄĽĠdÃ¡":4534,"ĠlÃłng":4535,"ĠzÃ©Ġ":4536,"ĠdeĠsÄ«":4537,"huÄģĠ":4538,"ĠlÃ²u":4539,"ĠyÃºĠ195":4540,"ĠzhÄ«ĠshÃŃĠ":4541,"Ġ2023ĠniÃ¡nĠ":4542,"ĠyÅįngĠyÇĴu":4543,"ph":4544,"FĠ":4545,"ĠdÃłnĠbÃ¡i":4546,"ĠbÇİnĠbÄĽnĠ":4547,"ĠdeĠdÃ¬ĠqÅ«Ġ":4548,"ĠlÃ¬ĠjÃŃĠ":4549,"ĠzhÇĲĠzÃłiĠ":4550,"huÃ¡i":4551,"ĠquÃ¡nĠzhÇİng":4552,"ali":4553,"zuÃ¬ĠjiÄģĠ":4554,"ĠdÃłĠlÃ¹":4555,"ĠqÄ«ngĠ":4556,"guÄģnĠyÃºĠ":4557,"tiÄģnĠ":4558,"ĠdiÃłnĠshÃ¬ĠtÃ¡i":4559,"ĠjÄ«ĠchÇĶĠ":4560,"ĠjÄ«ĠchÄĵ":4561,"ĠmÃ¬ngĠmÃŃngĠwÃ¨iĠ":4562,"ĠdeĠchÅ«":4563,"zhÇĶĠyÃ¬Ġ":4564,"ĠjÃ¬nĠyÃŃĠbÃ¹Ġ":4565,"ĠbÃłoĠgÃłoĠ":4566,"Ġ21Ġ":4567,"ĠĠĠyuÃ¡nĠ":4568,"guÄģnĠxÃ¬":4569,"guÃ²ĠchÃ©ngĠ":4570,"ĠbiÇİnĠ":4571,"ĠwÃ¨iĠhÃ©Ġ":4572,"ne":4573,"ĠzhÃłnĠlÇĲngĠ":4574,"ĠnÃ¨iĠbÃ¹Ġ":4575,"ĠgÅįngĠhuÃ¬":4576,"ĠshÄĽngĠfÃ¨nĠ":4577,"ĠkÅįngĠjÅ«n":4578,"ĠxÃŃĠjÄ«":4579,"hÃłiĠ":4580,"ĠbÇĲĠjiÃło":4581,"ĠzhÅįngĠshÄģn":4582,"lÃ¹ĠjÅ«n":4583,"ĠwÅ«":4584,"ĠyÄ«ĠshÄĵng":4585,"ĠbÄĽiĠqÇĲ":4586,"wÃ¨iĠshÃ¬Ġ":4587,"fÄģngĠmiÃłnĠ":4588,"ĠshÅįuĠlÃ¹":4589,"ĠĠĠ6":4590,"liÃłoĠ":4591,"ĠrÃ©nĠmÃŃnĠzhÃ¨ngĠfÇĶ":4592,"fÃºĠwÃ¹":4593,"ĠdÅ«":4594,"ob":4595,"37":4596,"ĠbÃ¹ĠzhÇİngĠ":4597,"Ġ22":4598,"ĠĠĠ2024ĠniÃ¡nĠ":4599,"ĠchÃ¨nĠ":4600,"ĠsÃ¬ĠniÃ¡nĠ":4601,"ĠCh":4602,"der":4603,"ĠxiÃłnĠwÃ¨iĠ":4604,"ĠjiÃ©ĠgÃ²uĠ":4605,"ĠzuÃ²ĠchÅ«":4606,"fÃ¹ĠjÃ¬n":4607,"ĠyÃ³uĠtÃłi":4608,"ĠshuÄģi":4609,"ĠtÄ«":4610,"ĠhÃ©ĠpÃłnĠ":4611,"ĠdeĠshÄģn":4612,"Ġ2000ĠniÃ¡nĠ":4613,"OĠ":4614,"liÃ¡nĠ":4615,"ĠmÃ²ĠxÄ«ĠgÄĵ":4616,"ĠdÃ¬ĠliÃ¹":4617,"ĠcÃ¡n":4618,"ĠkÃ¨ĠlÄģ":4619,"eb":4620,"wÃ²":4621,"liÃ¡nĠxÃ¹":4622,"ĠyÇĴuĠzhÃ¹":4623,"ĠdiÄģoĠ":4624,"ĠshÃ¨ngĠdÃ¹nĠ":4625,"ĠguÄģnĠyuÃ¡nĠ":4626,"zÅįngĠjiÃło":4627,"shÄĵngĠchÇİn":4628,"ĠjÅ«ĠzhÃ¹":4629,"xÄ«ĠbÃ¹Ġ":4630,"ĠguÃ³ĠnÃ¨i":4631,"ĠcÇĲĠwÃłi":4632,"ĠhÃ©ĠzhÅįngĠ":4633,"bÄģoĠhÃ¡nĠ":4634,"ĠwÃ¨iĠl":4635,"ĠzÃłiĠxÄ«n":4636,"ĠdeĠshÃŃĠqÅ«ĠwÃ¨iĠ":4637,"indow":4638,"fÃºĠwÃ¹Ġ":4639,"ĠzhÇİnĠshÃ¬Ġ":4640,"ĠguÃ²ĠqÃ¹":4641,"bÇĲĠ":4642,"ĠjÄ«ĠhÃ©Ġ":4643,"dÃ²ngĠhuÃł":4644,"ĠzhÇĲĠchÅ«Ġ":4645,"ĠdÇİoĠyÇİn":4646,"qiÃłn":4647,"8ĠrÃ©nĠ":4648,"xÃ¬ĠbÄģo":4649,"ĠdeĠyÇĴu":4650,"ĠgÇĴng":4651,"ĠxiÃ¡ng":4652,"ĠzhÇĲĠhuÄ«Ġ":4653,"ĠfÇİnĠhuÃŃĠ":4654,"ĠrÃ©nĠwÃ¹":4655,"kÃłnĠ":4656,"ĠzhÅįngĠyÃºĠ":4657,"ĠtwĠ":4658,"ĠjiÃłĠzhÃŃ":4659,"ĠhansĠ":4660,"ĠyÃ¹nĠdÃ²ngĠ":4661,"ĠĠĠU":4662,"ĠzÃłiĠ202":4663,"ĠjiÄĵĠwÃ¨iĠ":4664,"ĠlÇļĠkÃ¨":4665,"sÇĶnĠ":4666,"ĠjÄ«nĠshÇĶ":4667,"eg":4668,"ĠqÃ¬ĠchÄĵ":4669,"ĠfÃ³ĠjiÃło":4670,"ĠxiÃłnĠlÃ¹":4671,"chÃºnĠ":4672,"hÅ«Ġ":4673,"yÃ³uĠzhÃ¨ngĠbiÄģnĠmÇİĠwÃ¨iĠ":4674,"ĠgÃ¹Ġ":4675,"ĠmÃŃngĠzhÃ¬Ġ":4676,"ĠtiÃ¡oĠzhÄĽng":4677,"ai":4678,"ĠshÃ¬ĠnÃ¨i":4679,"ĠsuÃ¬ĠshÃŃĠ":4680,"ĠdeĠwÃ¹":4681,"ĠqiÃºĠyuÃ¡nĠ":4682,"ĠtÃłiĠyÃ¡ng":4683,"ĠkÇİoĠlÇľ":4684,"ĠtÃłiĠpÃŃngĠyÃ¡ng":4685,"wÃ¡nĠchÃ©ngĠ":4686,"ĠdeĠfÄģ":4687,"ĠĠĠdeĠshÃŃĠ":4688,"ĠĠĠpÃŃng":4689,"ĠjiÄĽĠshÃ¬Ġ":4690,"ĠcÇİiĠqÇĶ":4691,"6ĠrÃ©nĠ":4692,"ĠdÅįngĠlÃŃn":4693,"ĠjiÃ©ĠhÃ©Ġ":4694,"ang":4695,"ĠzuÃ¬ĠduÅį":4696,"zhÃłngĠ":4697,"tiÄģnĠzhÇĶĠjiÃło":4698,"ĠgÅįngĠlÃ¹Ġ":4699,"ĠcÃ³ngĠshÃ¬Ġ":4700,"cÃºnĠzÃłiĠ":4701,"ĠyÇĲĠsÃ¨ĠliÃ¨":4702,"ĠgÇĴu":4703,"ĠxÄ«ĠshÄĽng":4704,"ĠjiÄģngĠsÅ«Ġ":4705,"ĠtiÃ¡oĠ":4706,"ĠrÃ¬ĠbÄĽnĠ":4707,"ĠdÃłĠlÃ³u":4708,"ĠdÄģngĠxuÇİn":4709,"shÄĵngĠhuÃ³Ġ":4710,"juÃ©ĠsÃ¨":4711,"ĠdÃ¬ĠyÃŃĠgÃ¨":4712,"miÃłoĠ":4713,"ĠhÃ©ĠgÅįngĠ":4714,"Ġ2002ĠniÃ¡nĠ":4715,"xÇĲĠ":4716,"cÃ¨Ġ":4717,"ĠyÃ¬ĠshÃŃĠ":4718,"shuÃ¬":4719,"ĠmÃłoĠyÃ¬Ġ":4720,"ï¼ı":4721,"ĠbÃ¹ĠmÃŃngĠ":4722,"ĠyÄ«ĠxuÃ©":4723,"ĠzhÃłnĠyÃ¬Ġ":4724,"ĠchuÃłngĠzuÃ²Ġ":4725,"jÄ«ngĠlÃ¬Ġ":4726,"NĠ":4727,"ĠjÃ¬nĠzhÇĲ":4728,"ĠdÄĵngĠ":4729,"ĠjÃ¹ĠyÇĴu":4730,"ĠjiÃ©ĠzhÃ¬Ġ":4731,"ĠbÃłng":4732,"ĠzhÃłnĠshÃ¬Ġ":4733,"ĠshÃŃĠÃ¨rĠniÃ¡nĠ":4734,"ĠtÄ«Ġ":4735,"ĠliÃ¨ĠwÃ¨iĠ":4736,"iv":4737,"ĠxiÃłnĠrÃ¨n":4738,"guÄģng":4739,"ÇĶĠlÃ¬Ġ":4740,"ĠĠĠdÄģng":4741,"ĠnÃ¹":4742,"ĠsÄ«ĠlÄģ":4743,"ĠmiÇİoĠ":4744,"ran":4745,"ĠÑ":4746,"ĠĠĠyuÃ¨":4747,"ĠdeĠxÃ¬nĠ":4748,"ĠjÃŃĠdÃł":4749,"ĠpÃŃnĠdÃłoĠ":4750,"ĠĠĠdeĠyÃ³uĠzhÃ¨ngĠbiÄģnĠmÇİĠwÃ¨iĠ":4751,"ĠĠĠyÇĶĠjiÄĵĠrÇİngĠdeĠshÃ¬ĠzhÃ¨nĠ":4752,"ĠĠĠyÃºĠshÃŃĠdeĠrÃ©nĠkÇĴuĠshÃ¹ĠliÃłngĠwÃ¨iĠrÃ©nĠ":4753,"ĠĠĠsuÇĴĠshÇĶĠdeĠshÄĽngĠjÃŃĠxuÇİnĠqÅ«ĠwÃ¨iĠ":4754,"ĠĠĠdeĠshÃŃĠqÅ«ĠwÃ¨iĠ":4755,"ĠdÃłĠguÄ«ĠmÃ³":4756,"ĠmÇİĠlÃ¡iĠxÄ«ĠyÃł":4757,"ĠtuÄ«ĠchÅ«":4758,"ĠdÃ²ngĠwÃ¹Ġ":4759,"Ġ187":4760,"ĠmÃłiĠkÃ¨":4761,"ĠdeĠzhÄ«ĠchÃŃ":4762,"Ġbo":4763,"ĠjiÃłoĠliÃłnĠ":4764,"ĠĠĠ192":4765,"32":4766,"ĠzhÃ¬ĠdÃ¹":4767,"ĠzhÃ¨ĠyÃłng":4768,"ĠshÄĵnĠfÃ¨n":4769,"dÃ²u":4770,"ĠgÃ²uĠmÇİi":4771,"ĠfÇİngĠwÃ¨n":4772,"tÃŃĠchÅ«":4773,"chÃ©ngĠgÅįngĠ":4774,"ĠxuÇİnĠjÇĶ":4775,"ĠpÃŃngĠfÄģngĠgÅįngĠlÇĲ":4776,"ĠyÃ¡ĠlÃ¬Ġ":4777,"chÃłng":4778,"ĠleĠyÃŃĠgÃ¨":4779,"ĠdeĠbiÄģn":4780,"ĠzhÄģĠ":4781,"gÃ¨ĠzhÇĴng":4782,"zhÃ²ngĠdiÇİn":4783,"ĠshÃ¨ngĠlÃ¬Ġ":4784,"ĠshÃ¬ĠqÅ«Ġ":4785,"NA":4786,"piÃłn":4787,"ĠjiÄģngĠshÄĽng":4788,"ĠtiÄģnĠzhÇĶĠjiÃło":4789,"ĠzÄģoĠdÃło":4790,"ĠkÃ¨ĠlÇĲ":4791,"ĠyÇĲĠhÃ²uĠ":4792,"ĠzhÄĵngĠyÃ¬Ġ":4793,"ĠnÃº":4794,"ĠgÇİiĠgÃ©":4795,"ĠshÃŃĠjiÄģnĠ":4796,"ĠzhÅ«":4797,"ĠrÃ©nĠyuÃ¡n":4798,"Ġ2003ĠniÃ¡nĠ":4799,"ĠshÃ¨ĠbÃ¨i":4800,"ĠshÃ¬ĠwÃ¨iĠle":4801,"ĠdeĠdÃło":4802,"ĠgÃ²ngĠchÇİn":4803,"sÃº":4804,"jiÇİng":4805,"193":4806,"ĠwÄĽiĠhuÃ¬":4807,"bÃº":4808,"ãĥ":4809,"ent":4810,"zhuÄ«":4811,"xiÄģo":4812,"yÃŃĠdÃ¬ng":4813,"ĠzÇĶĠhÃ©Ġ":4814,"yÃ¡nĠzhÃ²ng":4815,"ĠchÅ«ĠxiÃłnĠzÃłiĠ":4816,"ĠwÃ¨iĠxÄ«ng":4817,"ĠhÃ¡iĠshÃ¬Ġ":4818,"alĠ":4819,"ĠdeĠqÃŃĠzhÅįngĠyÄ«Ġ":4820,"ĠrÃ©nĠhÃ©Ġ":4821,"Ġ186":4822,"kÄĵĠ":4823,"ĠhkĠ":4824,"qÃŃĠ":4825,"shuÃłi":4826,"ĠdeĠchÃ¡ng":4827,"ĠxÄ«ĠyÇĲnĠ":4828,"5ĠrÃ¬":4829,"dÄ«":4830,"nÇļĠxÃ¬ng":4831,"ĠdeĠzÇĴng":4832,"ĠzÃłiĠwÃ¨iĠ":4833,"ĠmÃ¡oĠqiÃº":4834,"jÇĶĠxÃŃngĠ":4835,"kÇİi":4836,"bÅįĠlÃ¡n":4837,"ĠpÇİo":4838,"ĠgÅįngĠmÃŃn":4839,"ĠmÃ¡ng":4840,"luÇİnĠ":4841,"ĠlÃ¬ĠshÇĶ":4842,"ĠĠĠ2011ĠniÃ¡nĠ":4843,"chÄĵngĠwÃ©iĠ":4844,"ĠshÃ¬ĠchÃ¹":4845,"jÃ¬ĠxÃ¹":4846,"ĠjÄ«ĠxiÃ¨":4847,"ĠhÃ©ĠgÇĶ":4848,"ĠÄĽrĠshÄĽngĠ":4849,"ĠjÄ«ĠguÄģn":4850,"quÃłnĠ":4851,"ĠtiÄģnĠwÃ©n":4852,"fÃ¨nĠ":4853,"ĠwÇĶĠniÃ¡nĠ":4854,"20ĠshÃ¬ĠjÃ¬Ġ":4855,"ĠjÅ«nĠzÃłiĠ":4856,"biÃ©Ġ":4857,"ĠlÃ¼Ã¨Ġ":4858,"ĠtÄģĠcÃ©ngĠdÃłiĠbiÇİo":4859,"wÇİ":4860,"34":4861,"ĠchÄģng":4862,"ĠbiÄģnĠhÃło":4863,"ĠyuÃ¡nĠhÃ©Ġ":4864,"ĠzhÅįngĠshÃ¬Ġ":4865,"dÇĲngĠ":4866,"ĠdÃ¬Ġ1":4867,"yÇĲngĠxiÇİng":4868,"ĠwÃ¨iĠjÄ«":4869,"ĠÃłoĠmÃ©n":4870,"tuÄ«Ġ":4871,"ĠwÃ©iĠzhÇĶĠ":4872,"ĠyÃ¹nĠ":4873,"shÃ²uĠdÃło":4874,"ĠzÃłiĠnÃł":4875,"ĠdeĠshÃ¨ng":4876,"ĠjiÃłoĠhuÃ¬":4877,"ĠwÃºĠxiÃłnĠ":4878,"ĠdeĠqÄ«ng":4879,"ĠzÃłiĠrÃ¬ĠbÄĽn":4880,"ĠyÃ¡nĠjiÅ«ĠsuÇĴ":4881,"ĠfÃ¹ĠzÃ©ĠguÇİnĠxiÃ¡Ġ":4882,"8ĠrÃ¬":4883,"guÄģnĠxÃ¬Ġ":4884,"nÃŃĠ":4885,"ĠgÄĵĠqÇĶĠ":4886,"ĠguÇİngĠchÇİng":4887,"ĠjiÃłnĠzhÃ¬ĠdÃ¬ĠqÅ«Ġ":4888,"ĠjiÃłnĠyÃ¬Ġ":4889,"ĠyÇĲĠbÃ¨i":4890,"ĠbÃ¬ngĠlÃ¬Ġ":4891,"ĠyÃŃĠdÃ¹":4892,"guÄģnĠfÄģng":4893,"ĠÃłoĠyÃ¹n":4894,"ĠsÇĲĠwÃ¡ng":4895,"ĠzhÃ¨ĠcÃ¬":4896,"ĠdiÃłnĠtÃ¡i":4897,"ĠĠĠbÄģ":4898,"xiÄģngĠduÃ¬":4899,"ĠyÇĶĠqÃŃ":4900,"ĠqÄ«ĠxÄ«ĠzÃłiĠ":4901,"Ã¡Ġ":4902,"ĠyÄ«ngĠgÄģi":4903,"yuÃ¡nĠniÃ¡nĠ":4904,"xiÇİoĠshuÅį":4905,"yÇİnĠchÃłngĠ":4906,"ĠdÃłĠqÅ«":4907,"ĠmÃ³Ġ":4908,"ĠbÃłoĠdÃłoĠ":4909,"ĠĠĠ2010ĠniÃ¡nĠ":4910,"ĠshÃŃĠjÃ¬ĠshÃłng":4911,"jiÃ©ĠmÃ¹Ġ":4912,"mÃ©iĠyÇĴu":4913,"BC":4914,"cÃŃ":4915,"ĠĠĠzhÅįngĠguÃ³Ġ":4916,"ĠmÃ¬Ġ":4917,"ĠxiÅ«ĠgÇİi":4918,"zhÃłnĠdÃ²u":4919,"fÃ¹ĠqÄ«nĠ":4920,"qÇĶĠ":4921,"ĠÄģnĠpÃ¡i":4922,"ĠyÄ«ĠbÃ¹Ġ":4923,"ĠdeĠcÃ¡i":4924,"ĠdÃłĠzhÃ¬Ġ":4925,"wÄĽn":4926,"enĠ":4927,"zhuÃ³":4928,"tiÄģnĠwÃ©n":4929,"ĠzhÅįngĠbÃ¨i":4930,"ru":4931,"jiÃ©ĠgÃ²u":4932,"ĠjÄ«ĠbÃłiĠ":4933,"ĠxiÇİnĠdeĠ":4934,"ĠjiÃ©ĠkÃ¨":4935,"ĠĠĠyÇĲĠxiÃł":4936,"ĠbÃ¹ĠshÇİo":4937,"xiÄģngĠdÄģng":4938,"ew":4939,"ĠyuÃ¨ĠdeĠ":4940,"Ġ80":4941,"tiÄģnĠjÄ«n":4942,"ĠyÇĴuĠjÄ«":4943,"ĠĠĠchÅ«":4944,"zuÃ¬ĠhÃ²u":4945,"ĠgÅįngĠzhÃ²ng":4946,"55":4947,"yuÄģnĠ":4948,"ĠbÃ¹ĠjÇĲnĠ":4949,"ĠĠĠchÃº":4950,"ĠxÃŃngĠchÄĵ":4951,"ceĠ":4952,"wÄĽiĠ":4953,"ĠshÄ«ĠqÃ¹":4954,"tÃ¡ng":4955,"bÇĲngĠ":4956,"ĠgÅįngĠrÃ©nĠ":4957,"ĠyÄ«ngĠgÃ©ĠlÃ¡n":4958,"zÄģo":4959,"ĠĠĠjiÃłn":4960,"20Ġ":4961,"ĠgÄĵĠshÇĴu":4962,"ĠjÄ«ĠdeĠ":4963,"ĠĠĠ8":4964,"ĠzhÅįngĠgÃ²ngĠzhÅįngĠyÄģngĠ":4965,"guÇİnĠ":4966,"sÃ¹ĠdÃ¹":4967,"ĠzhÇĲĠchÅ«":4968,"ĠbÅįĠlÃ¡n":4969,"asĠĠĠ":4970,"ĠhÃ©ĠchÃ©ngĠ":4971,"ĠdÃ¬ĠqÅ«ĠdeĠ":4972,"ĠshÃ¬ĠgÅįngĠ":4973,"ĠdÃ¬ĠyÃł":4974,"ĠgÇĶnĠ":4975,"LĠ":4976,"ĠnÃłiĠ":4977,"ĠzhÇĶĠtÃŃ":4978,"orĠ":4979,"bÄģngĠ":4980,"ĠzuÃ¬ĠzÇİo":4981,"ĠshÅ«ĠguÇİn":4982,"piÄģnĠ":4983,"zÅ«n":4984,"huÃ¬ĠyÃ¬Ġ":4985,"ĠyÄ«ĠjÃŃĠ":4986,"ĠguÃ²ĠchÃ©ngĠ":4987,"ĠĠĠzhĠ":4988,"10ĠniÃ¡nĠ":4989,"ĠyÃ¬ĠrÃ©nĠ":4990,"ĠbÅįĠchÅ«Ġ":4991,"ĠfÄģnĠyÃ¬":4992,"ĠpÄĵn":4993,"ĠzÃłiĠ197":4994,"shÄĵnĠfÃ¨n":4995,"ĠgÇİoĠ":4996,"ĠkuÃ¬":4997,"ĠlÇĲĠdeĠ":4998,"ĠjÄ«ĠjÃŃĠ":4999,"ĠzhÃŃĠxÃŃngĠ":5000,"ĠshÃ¹ĠwÃ¨iĠ":5001,"ĠzhÄ«ĠzhÅįngĠ":5002,"ĠpÃºĠtÃ¡oĠyÃ¡":5003,"xuÃ¡nĠ":5004,"diÃłnĠzi":5005,"ĠkÄģiĠshÇĲĠ":5006,"wÇİngĠluÃ²":5007,"ĠwÃºĠrÃ©nĠ":5008,"ĠĠĠgÄĵnĠjÃ¹Ġ":5009,"ĠzhÃłi":5010,"ĠqiÃ¡oĠzhÃ¬Ġ":5011,"ĠshÇİnĠxÄ«":5012,"xiÃłĠwÇĶ":5013,"gÄģoĠ":5014,"ĠÃłoĠdÃłĠlÃ¬ĠyÃł":5015,"ĠdeĠbiÃłn":5016,"ĠwÄĵng":5017,"ĠyÇĴuĠliÇİng":5018,"ĠjiÃłnĠzÃło":5019,"pÃŃn":5020,"yÃ©":5021,"ĠyÃ¬ĠyÃ¬Ġ":5022,"ĠfÄĵngĠgÃ©":5023,"ation":5024,"kÄĵng":5025,"ĠkÄĽĠnÃ©ngĠhuÃ¬":5026,"ĠdeĠchÃ©ngĠyuÃ¡nĠ":5027,"ĠshÃ¨ĠshÄ«Ġ":5028,"ĠdeĠdÄģn":5029,"ĠdeĠmÇİ":5030,"ĠmÄĽiĠnÃŃĠyÃł":5031,"ĠzhÇĲĠhuÄ«":5032,"ĠlÃ¬ĠfÃº":5033,"ĠrÃ¡nĠhÃ²u":5034,"ĠdÃ¬ĠqÄ«":5035,"ĠzhÃ¬ĠzÃło":5036,"ĠcÃ©ngĠzÃłiĠ":5037,"ĠbÃ¹ĠbÄ«ng":5038,"ĠyÄ«ĠxiÇİo":5039,"ÇİoĠzhÃłn":5040,"ĠqÇĶĠdÃłi":5041,"ĠfÃłngĠqÃ¬":5042,"xÃ¬ĠtÇĴngĠ":5043,"zhuÄ«Ġ":5044,"dÃ©Ġ":5045,"nÃ©ngĠgÃ²u":5046,"bÃłoĠgÃłoĠ":5047,"ĠyuÃ¡nĠzÃ¬":5048,"ĠlÃŃnĠshÃŃĠ":5049,"dÃ¬ĠqÅ«":5050,"ĠwÃ¨iĠyÃº":5051,"ĠchÄĵĠliÃłng":5052,"ĠfÇİnĠyÃ¬ngĠ":5053,"ĠĠĠzhÃ¹":5054,"ĠzuÃ¬Ġ":5055,"ĠyÇĶnĠxÇĶĠ":5056,"ĠĠĠjiÄģĠzÃºĠ":5057,"shÃŃĠqÄ«Ġ":5058,"ĠÄĽrĠtÃ¨":5059,"Ġ300":5060,"ĠdiÄģnĠ":5061,"64":5062,"qiÇİnĠ":5063,"ĠyÄĽĠbÃ¨i":5064,"ĠCĠ":5065,"ĠdeĠkÅįng":5066,"cu":5067,"ĠrÃ©nĠwÃ¹Ġ":5068,"ĠĠĠ7":5069,"ĠĠĠcÄģn":5070,"ĠwÃ©nĠmÃŃngĠ":5071,"nÇļĠzÇĲĠ":5072,"ĠdeĠjiÄģo":5073,"ĠzhÃ¬ĠlÃ¬Ġ":5074,"ĠyÃ²uĠmÃŃngĠ":5075,"tÃ³ngĠyÄ«Ġ":5076,"hi":5077,"ĠwÃ¨iĠxÄ«n":5078,"ĠzhÇĶĠrÃ¨n":5079,"ĠqÃŃĠzhÅįngĠbÄģoĠkuÃ²":5080,"ĠshÃ¬ĠyÄ«ĠkÄĵ":5081,"St":5082,"ÃłoĠdÃłĠlÃ¬ĠyÃł":5083,"bÃ¬ngĠ":5084,"gÃło":5085,"jÄ«ĠchÇİng":5086,"ĠbÃ³Ġ":5087,"ĠshÃ¬ĠduÃ¬":5088,"ĠjiÃłnĠchÃ©ngĠ":5089,"ĠjÄ«ngĠshÃ©nĠ":5090,"tÇĴngĠjÃ¬Ġ":5091,"ĠxiÃłĠxiÃ¡":5092,"Ġ2024ĠniÃ¡nĠ":5093,"ĠwÃ¨iĠ2":5094,"ĠjÄ«ngĠlÃ¬Ġ":5095,"ack":5096,"ĠzhÅįuĠniÃ¡nĠ":5097,"2020ĠniÃ¡nĠmÄĽiĠguÃ³ĠrÃ©nĠkÇĴuĠpÇĶĠchÃ¡ĠdeĠshÃ¹ĠjÃ¹Ġ":5098,"xiÃ¹":5099,"and":5100,"ĠbÃ¡iĠ":5101,"ĠdeĠkÃ¨":5102,"ĠzhÄ«ĠyuÃ¡nĠ":5103,"tuÃ¡nĠtÇĲ":5104,"xiÃłnĠdÃłi":5105,"yÃ¡o":5106,"ĠsÄģ":5107,"ĠyÄ«ĠyuÃłnĠ":5108,"chÃŃĠxÃ¹":5109,"jÃºĠ":5110,"ĠdeĠshÄ«":5111,"ĠhÃºĠnÃ¡n":5112,"--":5113,"ÃłoĠmÃ©n":5114,"ĠhÃ©ĠdÃł":5115,"Ġ45":5116,"ĠdÃ¬ĠyÄ«":5117,"ĠkÄĵĠjÃ¬Ġ":5118,"OS":5119,"leĠyÄ«Ġ":5120,"chÃ¡i":5121,"fÄģngĠshÃ¬Ġ":5122,"ĠnÇļĠzÇĲ":5123,"yÃ¬ngĠ":5124,"duÅįĠgÃ¨":5125,"ĠdÃłĠxÄ«ĠyÃ¡ng":5126,"ĠsÄ«ĠdÃ¬Ġ":5127,"1ĠrÃ¬":5128,"mÃŃnĠguÃ³Ġ":5129,"ĠbiÇİoĠyÇİn":5130,"ĠrÇİnĠ":5131,"ĠchuÄģngĠ":5132,"ĠgÅįngĠchÇİng":5133,"ed":5134,"ĠdeĠchuÃ¡n":5135,"ĠdeĠfÄģĠzhÇİnĠ":5136,"ĠtÃ³uĠrÃ¹":5137,"ĠlÃ¬ĠshÇĲĠshÃłng":5138,"id":5139,"ĠdeĠguÃ³Ġ":5140,"ĠxiÇİoĠshuÅį":5141,"ĠzÄ«ĠyuÃ¡nĠ":5142,"ĠlÃ¡oĠdÃ²ng":5143,"huÃ¡n":5144,"ĠdeĠwÄĵi":5145,"ĠbÃ¬ngĠrÃ¹":5146,"ĠdÃłnĠyÃ³uĠyÃºĠ":5147,"ĠĠĠzÇİoĠniÃ¡nĠ":5148,"ĠguÄģnĠzhÃ²ng":5149,"ĠshÃ¬ĠzuÃ¬":5150,"ĠyÃ¬ĠzhÅįngĠ":5151,"ĠpÃ²ĠhuÃłiĠ":5152,"ĠyÄģoĠqÇĲngĠ":5153,"zhÄĽngĠgÃ¨":5154,"ĠchÃ¡nĠ":5155,"ĠrÃ¨nĠwÃ¹":5156,"ĠxÄ«ngĠjiÃłn":5157,"ĠmÃŃngĠchÃ¡oĠzhÃ¨ngĠzhÃ¬ĠrÃ©nĠwÃ¹Ġ":5158,"dÅįngĠ":5159,"yÇİnĠyuÃ¡nĠ":5160,"cÄģnĠjiÄģ":5161,"zhÅįngĠyÄģngĠ":5162,"ĠdeĠjÃŃĠ":5163,"ĠshÃ¬ĠzhÇİng":5164,"ĠkÇĶĠ":5165,"ĠzhÄģi":5166,"ĠjÅ«nĠwÃ¨iĠ":5167,"ĠxÄ«nĠjiÄģĠpÅį":5168,"ĠchuÃłngĠbÃłn":5169,"xÃº":5170,"ĠgÇİiĠbiÃłn":5171,"Ġ70":5172,"rÃ¨nĠwÃ©i":5173,"ĠdeĠhÃ²uĠ":5174,"ĠdeĠgÃ¹ĠshÃ¬Ġ":5175,"ĠchÅ«ĠqÄ«":5176,"xÃŃ":5177,"nÃ³ngĠyÃ¨":5178,"per":5179,"zhuÃłnĠ":5180,"ĠshÃ¬ĠrÃ©nĠ":5181,"ĠbÃ¹ĠlÇĲ":5182,"ĠgÄģoĠzhÅįngĠ":5183,"ĠkÄģiĠ":5184,"zhÅįngĠhuÃ¡ĠmÃŃnĠguÃ³Ġ":5185,"ĠyuÃ¡nĠmÃŃng":5186,"ĠqiÃł":5187,"ĠcÃ¡iĠzhÃ¨ng":5188,"ĠÄģnĠdÃ©":5189,"ĠwÃ¡ngĠguÃ³Ġ":5190,"ĠsÇİnĠ":5191,"ĠyÃŃnĠhÃ¡ng":5192,"ĠdÃ¬Ġ2":5193,"ĠlÃ¬ĠbÃ¹Ġ":5194,"ĠsÄ«ĠlÃŃn":5195,"ĠnÃ¡nĠzhÃ¬Ġ":5196,"ĠbiÇİoĠdÃ¡":5197,"xiÃłĠjÃ¬ĠÃłoĠlÃŃnĠpÇĲĠkÃ¨ĠyÃ¹nĠdÃ²ngĠhuÃ¬":5198,"ĠrÃ¨nĠwÃ¹Ġ":5199,"ĠzuÃ²ĠyÃ²ngĠ":5200,"ĠshÄģoĠ":5201,"ĠshÇĲĠjiÃłnĠyÃºĠ":5202,"ĠbÃ³ĠtÃ¨Ġ":5203,"chÇİnĠpÇĲnĠ":5204,"ĠlÃ¹ĠyÃ¬Ġ":5205,"ĠcÃ¡iĠnÃ©ng":5206,"ĠfÄĵngĠbÃło":5207,"xuÃ©ĠyuÃłnĠ":5208,"ĠjiÄģoĠ":5209,"39":5210,"ĠshÃ¬ĠyÃºĠ":5211,"ĠkuÃłiĠsÃ¹":5212,"ĠdeĠzhÄ«":5213,"ĠpÇĶĠ":5214,"gÃłnĠ":5215,"ĠwÃ¨iĠdÃł":5216,"ĠkÃ©":5217,"ĠdÃłiĠlÃ¡i":5218,"ĠmÇĶĠsÄ«":5219,"wÃ©iĠÄĽr":5220,"nÇļĠ":5221,"ĠxÄ«ĠfÄģng":5222,"gÃ©Ġ":5223,"ĠzhÃ¨ngĠfÇĶĠ":5224,"ĠxÃºnĠhuÃŃĠ":5225,"6ĠrÃ¬":5226,"ĠshÃ¬ĠgÃ¨":5227,"Ġ36":5228,"ĠjÃŃĠzhÅįngĠ":5229,"ell":5230,"gÇİiĠwÃ©iĠ":5231,"ĠhÃ©ĠmÇİ":5232,"ĠwÃ¹ĠzhÇĴngĠ":5233,"ĠpÇĶĠtÅįng":5234,"ĠquÃłnĠ":5235,"AS":5236,"ĠjÃ¬ĠshÃ¹Ġ":5237,"ĠjÃŃĠzhÅįu":5238,"ĠliÃ¨ĠchÄĵĠ":5239,"ĠwÃ¡ngĠchÃ¡o":5240,"ĠyÄ«ĠsÄ«ĠlÃ¡n":5241,"ĠhÃ©ĠshÃŃĠ":5242,"ĠyÄ«ĠtiÃ¡o":5243,"ĠĠĠ2008ĠniÃ¡nĠ":5244,"bÃ¬ĠyÃ¨ĠyÃºĠ":5245,"ĠĠĠzhÃłn":5246,"ĠdÅįuĠhuÃ¬":5247,"ĠwÃ¡nĠzhÄĽng":5248,"ĠjiÄģngĠhuÃ¬":5249,"ĠzuÃ²ĠjiÄģĠ":5250,"ĠwÃ©iĠyÄ«Ġ":5251,"ĠsÃ²ngĠ":5252,"7ĠrÃ¬":5253,"zÇĲĠ":5254,"ĠhÃ©ĠhÃ©Ġ":5255,"ĠyÃºĠ193":5256,"44":5257,"zhÃ¨ĠzhÇĴng":5258,"ĠjiÃłoĠtÃ¡ngĠ":5259,"ĠqiÃ¡nĠlÃ³ng":5260,"ĠxÃ¬nĠxÄ«":5261,"ĠdeĠrÃ¨n":5262,"ĠlÃºnĠbÇĲĠyÃł":5263,"ĠzhÃłnĠzhÄĵngĠ":5264,"ĠjiÄģngĠjÅ«nĠ":5265,"jiÃ¹ĠshÃ¬Ġ":5266,"ĠdeĠdÅįng":5267,"ĠyÄ«ngĠ":5268,"ĠbÃ¹ĠduÃ¬Ġ":5269,"jÃ¹ĠyÇĴuĠ":5270,"ĠzÃłiĠnÃ¡n":5271,"ĠyÇĲĠlÃ¡iĠ":5272,"ĠjiÃłoĠqÅ«Ġ":5273,"ĠcÄģnĠmÃ³u":5274,"Ġ1999ĠniÃ¡nĠ":5275,"ĠxiÃ³ngĠ":5276,"sÇĲĠwÃ¡ngĠ":5277,"ĠfÇİĠÃłnĠ":5278,"ĠwÃ¨iĠzhÇĶ":5279,"quÃ¡nĠlÃ¬Ġ":5280,"suÇĴĠyÇĴu":5281,"ĠdeĠjiÄģĠ":5282,"nÃ¬":5283,"dÃ¬ngĠyÃ¬Ġ":5284,"sp":5285,"ÇİoĠjiÄĽ":5286,"guÃ²ĠqÃ¹":5287,"ĠdeĠqÃŃ":5288,"ĠtÅįu":5289,"tic":5290,"ĠdeĠsÃ¬":5291,"ĠpÃ³":5292,"hÄĽnĠduÅį":5293,"fÄģĠxÃŃng":5294,"qÇĲng":5295,"dÄĽngĠrÃ©nĠ":5296,"ĠhÇİiĠÃłnĠ":5297,"yÇİng":5298,"ĠĠĠSt":5299,"diÃłnĠshÃ¬ĠtÃ¡i":5300,"oh":5301,"chÅ«ĠxiÃłnĠ":5302,"ĠlÃ¬ĠrÃ¨n":5303,"ĠjiÃ¨ĠquÃ¡nĠguÃ³Ġ":5304,"ĠtuÃ¬Ġ":5305,"ĠquÄģnĠ":5306,"ĠdeĠyÄ«ĠzuÃ²Ġ":5307,"zuÇĴĠyÃ²u":5308,"Ġ2001ĠniÃ¡nĠrÃ©nĠkÇĴu":5309,"ĠchÃ©ngĠxÃ¹":5310,"ĠpÃ¡iĠmÃŃngĠ":5311,"yÃ¹nĠdÃ²ngĠyuÃ¡nĠ":5312,"ÇĶĠdÃ¬Ġ":5313,"ĠĠĠof":5314,"ĠwÃ¨iĠqÃŃ":5315,"ĠchÇİnĠyÃ¨":5316,"ĠwÇİngĠ":5317,"ĠpÇĶĠbiÃłn":5318,"ĠyÃ¬ĠyuÃ¡n":5319,"ĠÃ©Ġ":5320,"shÇİnĠ":5321,"gÅįngĠchÃ©ngĠ":5322,"ĠdeĠhuÃ³":5323,"ĠAĠ":5324,"Ġ1998ĠniÃ¡nĠ":5325,"ĠchÅįngĠtÅ«Ġ":5326,"4ĠrÃ¬":5327,"ĠzÃłiĠxiÄģngĠgÇİng":5328,"ĠzhÅįngĠguÃ³":5329,"ĠyÄ«ĠliÃ¡o":5330,"ĠguÇĲĠdÃłoĠ":5331,"ĠjÃ¹ĠjÃŃĠ":5332,"ĠjiÄĵĠjÃ¬n":5333,"ĠchÃ¡i":5334,"ĠpÃ¨iĠ":5335,"ĠyÃºnĠnÃ¡n":5336,"ĠguÄģnĠchÃ¡":5337,"ver":5338,"ĠyÄģo":5339,"1ĠyuÃ¨Ġ1ĠrÃ¬Ġ":5340,"ĠshÃ¬ĠyÄ«nĠwÃ¨iĠ":5341,"ĠmÇĲĠÄĽr":5342,"ĠzÄĵngĠjiÄģ":5343,"ĠĠĠqiÃ¡n":5344,"ĠĠĠshÃ¨ng":5345,"ĠdÃłĠxÃŃng":5346,"ĠbiÇİoĠxiÃłn":5347,"shÄģnĠdÅįng":5348,"ĠzÃłiĠbÄģ":5349,"ĠbÃ¹ĠzÃº":5350,"Ã¨rĠniÃ¡nĠ":5351,"ĠbÃłnĠdÇİo":5352,"Ġà":5353,"ĠchuÃłnĠ":5354,"guÇİngĠzhÅįu":5355,"ĠzhÃ¬ĠdÃ¬ng":5356,"85":5357,"ĠdÃłĠfÃº":5358,"ĠmÇĴuĠxiÄĵ":5359,"ĠwÃ©nĠwÃ¹ĠbÇİoĠhÃ¹ĠdÄģnĠwÃ¨iĠ":5360,"Ġ10Ġ":5361,"ĠlÇļĠ":5362,"95":5363,"zhÃ²ngĠ":5364,"ĠdÄĵngĠlÃ¹":5365,"ĠdÅįuĠyÇĴuĠ":5366,"ĠzhÅįngĠguÃ³ĠrÃ©nĠmÃŃnĠjiÄĽĠfÃłngĠjÅ«n":5367,"cÅ«nĠ":5368,"ĠjiÇİnĠshÇİoĠ":5369,"ĠdeĠfÃłnĠ":5370,"shÃ²uĠ":5371,"ĠchÃ©ngĠkÃ¨":5372,"ĠtÄģĠyÇĶĠ":5373,"ĠpÃŃngĠfÄģngĠmÇĲĠ":5374,"ĠzÃłiĠ196":5375,"ĠdeĠdÃ¬ĠfÄģng":5376,"ĠshÄĵngĠhuÃ³Ġ":5377,"ĠdeĠrÃ¬":5378,"ĠshÃ¬ĠyÃłnĠ":5379,"ĠtÃ³ngĠyÃ¬Ġ":5380,"ĠyuÃ¡nĠshÃ¬Ġ":5381,"ĠdeĠguÄģnĠxÃ¬Ġ":5382,"kÄģngĠ":5383,"ĠtÇĲĠxÃ¬":5384,"ĠwÃłnĠlÃ¬Ġ":5385,"ĠĠĠ2025ĠniÃ¡nĠ":5386,"ĠzhÃŃĠmÃŃn":5387,"chuÃłngĠzuÃ²Ġ":5388,"ff":5389,"ĠzhÃłnĠhÃ²uĠ":5390,"ĠbÃ¬ngĠmÃ©iĠyÇĴuĠ":5391,"chÇĶĠlÇĲ":5392,"ĠĠĠzhÃ¨ng":5393,"2016ĠniÃ¡nĠ":5394,"ĠjuÃ©ĠsÃ¨Ġ":5395,"47":5396,"ĠĠĠtÃ¨":5397,"ĠzhÅįuĠbiÄģn":5398,"wÄĽiĠyuÃ¡nĠhuÃ¬Ġ":5399,"gÄģoĠsÃ¹":5400,"ĠxÄ«ĠjiÄĵ":5401,"jÇĲngĠchÃ¡":5402,"yÄ«ngĠwÃ©n":5403,"ĠjiÇİngĠshÃ¹":5404,"Ġ90":5405,"ĠĠĠ2009ĠniÃ¡nĠ":5406,"tÅ«Ġ":5407,"liÃ¨Ġ":5408,"ĠĠĠxiÃł":5409,"ĠdeĠmÄĽi":5410,"zuÃ¬ĠhÃ²uĠ":5411,"ĠzÃ¨ngĠ":5412,"ĠdeĠshÃ©nĠ":5413,"ĠyÄ«ĠchÃ¡ng":5414,"ĠjiÄĵĠrÇİngĠ":5415,"tÃłiĠpÃŃngĠyÃ¡ng":5416,"wÄĽiĠshÅ«ĠjÃ¬Ġ":5417,"gÄĵĠqÇĶ":5418,"ĠjÃŃĠlÃ¬Ġ":5419,"ĠsÄĵng":5420,"ĠfÄģĠqÇĲ":5421,"ĠtÃ¨ĠshÅ«":5422,"ĠxÃ¹Ġ":5423,"nÇİi":5424,"ĠdeĠliÃ¡n":5425,"ĠzÃłiĠ194":5426,"ĠÃ©rĠshuÇĲĠyÃ¹ĠmiÃłnĠjÄ«ĠwÃ¨iĠ0":5427,"ãĥ»":5428,"ÃĹ":5429,"ĠyÄ«ĠzhÄ«":5430,"ĠzhÃ¬ĠwÃ¨iĠ":5431,"ĠĠĠyÄ«n":5432,"ĠĠĠqÄ«ng":5433,"tuÄ«ĠchÅ«":5434,"fÃ¨ngĠ":5435,"tÃ¡n":5436,"ĠĠĠÃ©r":5437,"ĠrÃ³u":5438,"ĠkÃ¨ĠlÃ¡i":5439,"ĠxÄ«ĠwÃłng":5440,"ĠdÄģngĠjÃº":5441,"ĠdeĠwÃ¨iĠzhÃ¬Ġ":5442,"wÃ¡nĠquÃ¡n":5443,"cÇĲĠ":5444,"ĠdeĠshÅ«":5445,"ĠyuÃ¡nĠlÃ¡i":5446,"ĠliÃ¡nĠhÃ©ĠguÃ³Ġ":5447,"ĠchuÃŃĠ":5448,"ĠdÄ«ngĠ":5449,"fÄĵnĠbÃ¹Ġ":5450,"dÃ¡Ġ":5451,"ĠĠĠzÄĵng":5452,"yÃŃĠzhÃ¬Ġ":5453,"zhÃŃĠxÃŃngĠ":5454,"ĠmÃ³ĠxÃŃngĠ":5455,"ĠĠĠfÃº":5456,"ĠnÃ©ngĠ":5457,"ĠwÄģĠ":5458,"ĠzhuÄģnĠmÃ©n":5459,"xiÃ¡":5460,"yÃłĠ":5461,"sÃ¬ĠniÃ¡nĠ":5462,"xiÇİoĠshuÅįĠ":5463,"ĠxuÃ©ĠhuÃ¬":5464,"ĠyÃ²ngĠhÃ¹":5465,"ĠtÇĴngĠyÄ«Ġ":5466,"ĠĠĠdÃ¬ĠÃ¨r":5467,"yÃłnĠshÃ¬Ġ":5468,"ĠshÃ¬ĠyÃ¨":5469,"ĠÃ©rĠgÄģiĠdÃ¬Ġ":5470,"ÄģnĠzÃłiĠ":5471,"ĠwÄĵiĠliÃ¡n":5472,"ĠjiÇİnĠshÇİo":5473,"ĠxuÄģnĠchuÃ¡n":5474,"ĠdeĠlÇĲngĠ":5475,"tÇİ":5476,"zhÃ¡":5477,"ĠbÃ¹ĠzhÄ«":5478,"chÃ©ngĠwÃ©i":5479,"ĠzÃ¬ĠmÇĶĠ":5480,"yÃłng":5481,"ĠyÃ¬ĠyÇĴuĠ":5482,"Ġ150":5483,"ĠbÃ¹ĠtÃ³ngĠdeĠ":5484,"ĠtÃ¨ĠbiÃ©ĠshÃ¬Ġ":5485,"BA":5486,"ĠyÄĽĠhuÃ¬":5487,"ĠĠĠ12":5488,"nÃ©ngĠ":5489,"ĠgÄģoĠdÄĽng":5490,"ĠzhuÄģnĠjÃŃ":5491,"yÃ³uĠ":5492,"pÇĶĠtÅįng":5493,"ĠzÄ«ĠgÃ©Ġ":5494,"gÄģiĠdÃ¬Ġ":5495,"gÇİiĠgÃ©":5496,"ĠzhÄĽngĠtÇĲ":5497,"bÇİ":5498,"ĠĠĠyÃ¡n":5499,"ĠĠĠxiÄģngĠgÇİng":5500,"ĠdeĠzhÃ²ng":5501,"ĠquÃ¡nĠmiÃłn":5502,"ĠdeĠlÃ¬ĠshÇĲ":5503,"ĠbÃ¹ĠlÃ¡i":5504,"ĠmÃ²ĠsÄ«ĠkÄĵ":5505,"ĠÃłnĠjiÃłn":5506,"ĠpÃ¨iĠhÃ©Ġ":5507,"ĠrÃ¨nĠmÃ¬ngĠwÃ¨iĠ":5508,"ĠcÄģnĠsÃłi":5509,"ari":5510,"ĠdeĠshÃ¬ĠjiÃ¨":5511,"ĠhÃ¡oĠmÇĲ":5512,"ĠzhÅįngĠzuÃ¬":5513,"ĠdÄĽngĠwÃ¨iĠ":5514,"ĠdeĠfÇİ":5515,"dÃ¬ĠÄģnĠ":5516,"ĠyÄ«ĠdÃłi":5517,"ĠzuÃ²ĠyÃ²ng":5518,"ĠxiÃłnĠchÇİng":5519,"ĠxiÇİoĠzÇĶ":5520,"ĠxÃ¹nĠsÃ¹":5521,"gĠ":5522,"lÃŃnĠshÃŃĠ":5523,"dÃŃ":5524,"ĠsÄ«ĠkÇİĠ":5525,"ĠsÄ«ĠmÇİ":5526,"ea":5527,"jÄ«ngĠjÃ¬":5528,"ĠdeĠjÄ«n":5529,"ĠshÃ¨ĠjÃŃĠ":5530,"ĠtiÃ¡nĠ":5531,"ĠdeĠqÃŃĠzhÅįngĠyÄ«ĠzhÇĴngĠ":5532,"BS":5533,"Ġ1949ĠniÃ¡nĠ":5534,"guÃ²ĠchÃ©ngĠzhÅįngĠ":5535,"ĠÃłnĠzhÃło":5536,"xuÄģnĠchuÃ¡n":5537,"dÃłngĠ":5538,"nÃ¨iĠlÃ¹":5539,"wÃºĠxiÃłnĠ":5540,"ĠdÃłĠwÃ¨iĠ":5541,"ĠxiÃ©ĠhuÃ¬Ġ":5542,"ĠÃ©rĠfÄĵi":5543,"ĠbÄĽnĠshÄĵn":5544,"ĠshÅįuĠrÃ¹":5545,"rÃłoĠ":5546,"ĠÃ¨rĠshÃ¬Ġ":5547,"gÃ²ngĠyÇĴuĠ":5548,"ĠwÃ¨iĠduÃ¬":5549,"ĠbÃłnĠgÅįngĠshÃ¬Ġ":5550,"ĠyÄĵ":5551,"âĶ":5552,"ĠshÃŃĠdÃłiĠ":5553,"ĠwÄĵiĠ":5554,"ĠzhÃ¬ĠshÇİo":5555,"ĠjiÃłoĠyÃ¹Ġ":5556,"shÇĲĠ":5557,"ĠyÇĶĠzhÅįngĠ":5558,"ĠkÃ¨ĠchÃ©ngĠ":5559,"ĠrÃ©nĠkÇĴuĠmÃ¬ĠdÃ¹ĠmÄĽiĠpÃŃngĠfÄģngĠgÅįngĠlÇĲ":5560,"ex":5561,"sÄģngĠ":5562,"zhuÃłng":5563,"ĠcÃ¬ĠniÃ¡nĠ":5564,"ĠjiÃ¨ĠshÃło":5565,"Ġ1997ĠniÃ¡nĠ":5566,"ĠdÅ«ĠshÃ¬Ġ":5567,"ĠbÃ¨iĠpÃ²":5568,"ĠlÃ¨Ġ":5569,"ĠguÄ«ĠdÃ¬ngĠ":5570,"ĠkÄģngĠxÄ«":5571,"lÄģĠ":5572,"ĠnÃ¡nĠbÄĽi":5573,"ĠtÃ³uĠpiÃłoĠ":5574,"ĠbÇĲĠrÃº":5575,"ĠdeĠqÇĲ":5576,"ĠshÃ¬ĠjiÃ¨Ġ":5577,"ĠxÃŃĠxÃ¬ng":5578,"ĠgÄĽiĠle":5579,"ĠmÇİnĠzÃº":5580,"ĠjÃ¬ĠzÇİiĠ":5581,"ĠtÅ«ĠpÃ²":5582,"ĠĠĠ9":5583,"ĠhuÄģngĠ":5584,"UĠ":5585,"ĠshÄĵngĠchÄĵng":5586,"jÇĶĠrÃ©nĠ":5587,"ci":5588,"xiÃ¡ngĠ":5589,"suÃŃ":5590,"ĠyÃ¬ĠhÃ©Ġ":5591,"ĠtÃ³ngĠyÃłng":5592,"ĠkÇİĠÄĽr":5593,"yÇĲngĠpiÃłn":5594,"ĠyÇĲnĠrÃ¹":5595,"ĠcÇĲĠcÃ¬":5596,"kÄĽn":5597,"ĠpÇĲĠ":5598,"ĠjiÄģĠtÃŃngĠ":5599,"yÄģ":5600,"bÃ¹ĠzÃłiĠ":5601,"ĠdeĠwÃ¨nĠtÃŃĠ":5602,"lÃ¡nĠ":5603,"ĠcÃ¨ĠshÃ¬Ġ":5604,"ĠpÅįĠ":5605,"zhÃ¨nĠqÅ«Ġ":5606,"ĠdeĠzhÄĵn":5607,"rÃ©nĠdÃł":5608,"ĠhuÃ¡ngĠjiÄģĠ":5609,"ĠshÃ¨ĠshÄ«":5610,"ĠxiÅ«ĠjiÃłn":5611,"ï¼ħ":5612,"ĠdeĠniÃ¡n":5613,"ĠhÃ²uĠbÃ¨i":5614,"ĠlÃ¬ĠshÇĲĠ":5615,"ationĠ":5616,"ĠcÅįng":5617,"ĠcÄģo":5618,"ĠzhÃ¨ngĠzhuÃłng":5619,"xiÃłngĠmÃ¹":5620,"ĠzhÇĶĠzhÄģng":5621,"zhÄģo":5622,"ĠbÃ¹ĠbÃ¹Ġ":5623,"ĠsÃ¹ĠdÃ¹":5624,"ĠbÃ¹ĠguÃ²Ġ":5625,"mÃŃnĠzhÃ²ng":5626,"cÃ©ngĠjÄ«ng":5627,"ĠcÃºnĠ":5628,"ĠdÃ¬ĠshÃ¬Ġ":5629,"ĠzhÃŃĠxÃŃng":5630,"ĠguÃ²Ġ":5631,"ĠgÄĵnĠ":5632,"ĠdeĠgÅįngĠzuÃ²Ġ":5633,"ĠfÄģĠxiÃłnĠle":5634,"ĠhÃ©ĠfÇİ":5635,"ĠzhÃ¬ĠliÃłng":5636,"ĠjÄ«ĠdÅ«ĠjiÃło":5637,"zhuÄģnĠyÃ¨":5638,"ĠshÃ¬ĠzhÅįngĠhuÃ¡":5639,"yÃ¡ngĠ":5640,"ĠshÃ¬ĠxiÄģngĠgÇİng":5641,"ĠdÄģo":5642,"ĠguÃłi":5643,"ĠshÃŃĠzÃłiĠ":5644,"âĶĢ":5645,"ĠdeĠyÄ«n":5646,"ĠdeĠxuÇİn":5647,"ĠwÃ¨iĠm":5648,"ĠkÃ¨ĠluÃ³":5649,"ĠzhÅįngĠguÃ³ĠgÃ²ngĠchÇİnĠdÇİngĠ":5650,"yÄ«ĠshÃ¬Ġ":5651,"gÄĵĠqÇĶĠ":5652,"miÃło":5653,"ĠdeĠxiÃło":5654,"ĠzhÅįngĠjiÄģn":5655,"ĠshÃ¨ĠyÇĴu":5656,"ĠfÄģĠdiÃłn":5657,"Ġ38":5658,"ĠbiÃłnĠhuÃł":5659,"ĠsÄ«ĠtÃ¨Ġ":5660,"ĠchÃ³ngĠqÃ¬ng":5661,"ĠchÅ«ĠrÃ¹":5662,"ĠfÃ¡Ġ":5663,"STĠ":5664,"tÃ¡nĠ":5665,"ĠchÅ«ĠkÇĴu":5666,"Ġ1994ĠniÃ¡nĠ":5667,"ĠĠĠsuÃŃĠ":5668,"shÃ²uĠshÄģngĠ":5669,"ĠdeĠshÃłng":5670,"ĠmÃ¹ĠdÃ¬Ġ":5671,"ĠyÃ¹nĠyÃŃngĠ":5672,"ĠÄģĠlÄģĠbÃ³":5673,"2012ĠniÃ¡nĠ":5674,"gÃ²ngĠhÃ©ĠguÃ³Ġ":5675,"shÃ²uĠdÃłoĠ":5676,"sÃ¬ĠchuÄģnĠ":5677,"ĠfÄĵnĠzhÄ«Ġ":5678,"ĠbiÃłnĠdÃ©":5679,"ĠtÅ«ĠrÃ¡n":5680,"ĠdeĠyÃ¹":5681,"KĠ":5682,"ĠyÇĴuĠxiÃłnĠ":5683,"ĠÃ©rĠzi":5684,"ĠrÃ¹ĠqÄ«nĠ":5685,"ĠliÇİngĠniÃ¡nĠ":5686,"bÃ¬ngĠdÃº":5687,"ĠdÃ¬ĠzhÃ¨n":5688,"ĠsÄ«ĠtuÅį":5689,"ĠdÃłĠxiÇİo":5690,"ĠzhÃ¨nĠqÅ«Ġ":5691,"Ġ185":5692,"ĠdeĠhuÇĴ":5693,"ĠtuÃ¡nĠduÃ¬":5694,"ĠlÃ¬ĠkÃ¨":5695,"ĠpÇĴ":5696,"ĠrÃłoĠ":5697,"ĠwÃ¨iĠzÃłiĠ":5698,"ĠyuÃ¡nĠsÃ¹":5699,"ĠwÃ¹ĠzhÃ¬Ġ":5700,"ĠhÃ³ngĠ":5701,"ĠshÄĵngĠhuÃ³ĠxÃŃĠxÃ¬ng":5702,"99":5703,"ĠshÃ¬ĠbÄģ":5704,"ĠdÃ¬Ġ3":5705,"ĠqiÇİng":5706,"ĠmÄĽiĠyuÃ¡nĠ":5707,"ĠdeĠxÃŃngĠshÃ¬Ġ":5708,"ĠĠĠn":5709,"dÇİoĠzhÃ¬Ġ":5710,"ĠÃ©rĠchÃ©ngĠ":5711,"ep":5712,"ĠbÃ¹ĠÄĽr":5713,"ĠzÃłiĠjiÄģĠ":5714,"ĠshÃŃĠduÃłnĠ":5715,"ĠguÃ³ĠwÃ¹ĠyuÃłn":5716,"ĠzÇĴngĠlÇĲ":5717,"ĠyÃ¡nĠshÄĵn":5718,"In":5719,"ĠdÃłiĠbiÇİoĠdÃłĠhuÃ¬":5720,"ĠshÃ¬ĠxÄ«n":5721,"ĠlÇĲĠkÃ¨":5722,"ĠliÃ¨ĠrÃ¹":5723,"ĠdeĠmÃ¬":5724,"ĠcÃ¹ĠjÃ¬n":5725,"ĠdeĠkÄģi":5726,"ĠkÃło":5727,"tÃ©ng":5728,"shÇĴuĠdÅ«Ġ":5729,"ĠyÃ¬ĠmÄĽiĠyuÃ¡nĠ":5730,"ĠshÄĵngĠhuÃ³ĠxÃŃĠxÃ¬ngĠbÃ¹ĠmÃŃngĠ":5731,"xÅ«n":5732,"ĠdeĠqÃ¬":5733,"ĠxiÅ«":5734,"ĠdÃ¬ngĠyÃ¬Ġ":5735,"od":5736,"diÄģoĠ":5737,"ĠpÃłiĠqiÇİnĠ":5738,"2008ĠniÃ¡nĠ":5739,"ĠdÃłĠdÃłoĠ":5740,"ĠyÃ³uĠqÃŃĠshÃ¬Ġ":5741,"ĠgÄģoĠjÃŃĠ":5742,"ĠbÃ³ĠshÃ¬Ġ":5743,"ĠĠĠlÇĲ":5744,"ĠĠĠchÃ©ngĠ":5745,"tionĠĠĠ":5746,"ĠzÃłiĠshÃŃĠ":5747,"ĠjiÇİnĠdÄģn":5748,"all":5749,"huÃ³ĠdÃ²ng":5750,"TV":5751,"ĠdeĠduÅį":5752,"ĠĠĠ191":5753,"ĠfÃłnĠzuÃ¬":5754,"zhÇĲĠchÅ«Ġ":5755,"mÇİĠlÃ¡iĠxÄ«ĠyÃł":5756,"fÄĵiĠzhÅįu":5757,"ĠtÃło":5758,"ĠsÄ«ĠjÄ«":5759,"ĠyÇĲĠbiÃłn":5760,"jiÇĶĠniÃ¡nĠ":5761,"ain":5762,"ĠdeĠqÄ«":5763,"ĠyuÃ¨ĠzÃłiĠ":5764,"ĠbiÇİoĠmiÃłn":5765,"ĠĠĠ17":5766,"ĠdeĠshuÅį":5767,"Ġ55":5768,"ĠĠĠsuÄ«ĠrÃ¡n":5769,"ĠbÃ¬ngĠyÇĲĠ":5770,"ĠwÃłnĠyuÃ¡nĠ":5771,"miÃ¡oĠshÃ¹":5772,"ĠĠĠmÄĽiĠguÃ³Ġ":5773,"ĠshÃ¬ĠwÅ«ĠkÃ¨ĠlÃ¡n":5774,"ĠliÇĶĠ":5775,"zÇĴu":5776,"ĠzhÃ¨ngĠshÃŃĠ":5777,"ĠgÃ²uĠchÃ©ngĠ":5778,"00Ġ":5779,"ĠdÃ¬ĠbÄģ":5780,"ĠzhÃ¨ngĠchÃ¡ng":5781,"ĠyÃŃĠchÇİn":5782,"ĠyuÃ¡nĠxÃŃng":5783,"ĠmiÃłnĠduÃ¬":5784,"ĠÃ":5785,"ĠyÇĴuĠguÄģnĠ":5786,"ĠsÄ«ĠkÃ¨":5787,"ĠĠĠ2007ĠniÃ¡nĠ":5788,"ĠlÃ¬ĠfÃºĠnÃŃĠyÃł":5789,"ÇİnĠwÃ¨iĠ":5790,"ĠsÄ«ĠfÇİ":5791,"hÃºnĠ":5792,"chuÃłngĠzuÃ²":5793,"ĠdeĠbÃ¨i":5794,"ĠdÃłĠshÃł":5795,"ĠyÄĽĠjiÃ¹ĠshÃ¬Ġ":5796,"ĠbiÄģoĠzhÃ¬Ġ":5797,"ĠguÃ²ĠchÃ©ngĠzhÅįngĠ":5798,"ĠfÃłnĠwÃ©i":5799,"Ġ7Ġ":5800,"ĠguÃ³ĠhÃ©Ġ":5801,"ÄģĠlÄģĠbÃ³":5802,"10Ġ":5803,"ĠfÄģĠchÅ«":5804,"nÃ¨iĠrÃ³ng":5805,"ĠyÄ«ĠduÃłnĠ":5806,"ĠchÅįu":5807,"ĠbÃ¬ĠmiÇİnĠ":5808,"ĠlÃ¹ĠxÃ¹":5809,"jÃ¬ĠlÃ¹":5810,"ĠtÃŃĠshÄĵng":5811,"ĠtuÅįĠ":5812,"pÇĶĠ":5813,"luÃ²Ġ":5814,"hÃ¹Ġ":5815,"ĠshÄ«ĠfÃłnĠ":5816,"ĠwÃ©iĠqÃŃ":5817,"ĠquÃ¨ĠdÃ¬ng":5818,"ĠfÄĵnĠbiÃ©ĠwÃ¨iĠ":5819,"ĠyÃ¬ĠzÃłiĠ":5820,"ĠtÇĲng":5821,"ĠxiÃ¨Ġ":5822,"ĠĠĠdÃłn":5823,"fÄģĠdÃ²ng":5824,"ĠshÃ¬ĠjÄ«":5825,"ĠguÄģngĠxÃ¹":5826,"quÃ¡nĠbÃ¹Ġ":5827,"wÇĶĠ":5828,"ĠdeĠdÃłi":5829,"ĠĠĠnÃ¡n":5830,"ĠmÃ¬ngĠlÃ¬ng":5831,"ĠwÃłn":5832,"ĠduÃ¬ĠshÇĴu":5833,"ĠbÃ¬ngĠyÃ³u":5834,"ĠxÇĶ":5835,"68":5836,"wÇĶĠniÃ¡nĠ":5837,"ĠdÃ¬ĠÃ¨rĠcÃ¬":5838,"ĠdeĠcÅ«nĠzhuÄģngĠ":5839,"ĠniÃ¡nĠdÃłi":5840,"Ġ1992ĠniÃ¡nĠ":5841,"ĠzhÃ¨ngĠcÃ¨Ġ":5842,"rÇĶĠ":5843,"wÃ©nĠwÃ¹ĠbÇİoĠhÃ¹ĠdÄģnĠwÃ¨iĠ":5844,"ĠsÄ«ĠtÇİ":5845,"ĠdÃ²ngĠlÃ¬Ġ":5846,"ĠtÇĶĠÄĽrĠqÃŃ":5847,"ĠjiÇĶĠlÃ³ng":5848,"ĠzhÃ¹ĠmÃŃngĠdeĠ":5849,"ĠxiÄģnĠhÃ²u":5850,"ĠgÅ«ĠjÃ¬Ġ":5851,"ĠĠĠzhÃŃ":5852,"chÇĲ":5853,"liÃło":5854,"lÄģĠkÃ¨":5855,"ĠzÃłiĠyÇĶ":5856,"ĠbÃ¬ngĠ":5857,"ĠyuÃ¨Ġ1ĠrÃ¬":5858,"ĠdeĠyÅįu":5859,"kÃłng":5860,"ĠdeĠgÃ¨":5861,"ĠlÃłnĠ":5862,"ĠmÃŃngĠzÃ¬":5863,"ĠxÃ¬ngĠbiÃ©":5864,"ĠyÇİnĠchÅ«":5865,"ĠdeĠliÃº":5866,"ber":5867,"ĠĠĠdÃło":5868,"ĠgÃ¨ĠzÃ¬":5869,"ĠxiÄģngĠtÃ³ngĠ":5870,"ĠfÄĵiĠjÄ«":5871,"fÃ³":5872,"ĠyÇİnĠchÅ«Ġ":5873,"ĠyÃŃĠshÃ¬Ġ":5874,"ĠyuÃ¡nĠwÃ¨iĠ":5875,"ĠbiÄģnĠjÃŃĠ":5876,"ĠdeĠzhÃŃĠwÃ¹Ġ":5877,"ĠdÃ¬Ġ5":5878,"ĠgÄģiĠcÅ«n":5879,"ĠdeĠshÄĵngĠhuÃ³":5880,"ĠyÇĶĠyÃ¡nĠ":5881,"ĠqÃ¬ĠhÃ²uĠ":5882,"ĠqÃŃĠzhÅįngĠnÃ¡nĠxÃ¬ng":5883,"tÇİo":5884,"ĠniÃ¡nĠjiÄģnĠ":5885,"ĠlÇĲĠdÃ¡":5886,"ĠdÄģngĠshÃŃĠdeĠ":5887,"niÇİo":5888,"dÄģnĠqÅ«Ġ":5889,"Ġtou":5890,"ĠfÃłnĠdeĠ":5891,"ĠzhÄ«ĠwÃ¨iĠ":5892,"ĠbÃ¬ngĠbÃ¨i":5893,"ĠzuÃ¬ĠdÃł":5894,"ĠzuÃ²ĠzhÃłn":5895,"ĠjÃŃĠhÃ©Ġ":5896,"ĠĠĠdÃ¬ĠfÄģng":5897,"zÇİo":5898,"zhÃłng":5899,"zÇĶĠhÃ©Ġ":5900,"ĠshÃ¬ĠchÅ«":5901,"ĠjiÄģĠnÃ¡ĠdÃł":5902,"ĠzÄģoĠdÃłoĠ":5903,"ĠhuÇİnĠ":5904,"ĠxuÃ©ĠshÃ¹":5905,"ĠtiÃ¡oĠjiÃłn":5906,"ĠbÇĲĠdÃ©":5907,"ĠtÇĴngĠjÃ¬Ġ":5908,"ĠnÃŃĠsÄ«Ġ":5909,"nÃłi":5910,"rÃ²u":5911,"ĠduÃ¬ĠcÇĲ":5912,"ĠjiÃ©ĠshÃ¹ĠhÃ²uĠ":5913,"ah":5914,"ĠwÃ©nĠhuÃłĠ":5915,"ĠwÃ¨iĠfÃºĠqÃŃĠyÃºĠgÄģng":5916,"ĠdÃłĠshÇĲ":5917,"ĠbiÃłnĠchÃ©ngĠ":5918,"ĠĠĠxÃŃng":5919,"ĠĠĠjÃ¬n":5920,"xĠ":5921,"chÃ¡nĠ":5922,"ĠtÄģĠwÃ¨iĠ":5923,"ĠhÃºĠbÄĽi":5924,"2018ĠniÃ¡nĠ":5925,"ĠzÃłiĠhÃ©Ġ":5926,"ĠhÃ©ĠdÃło":5927,"ĠzÇĴngĠbÃ¹Ġ":5928,"ĠcÄģnĠjiÄģĠle":5929,"ĠyÄ«ĠxiÇİoĠshÃŃĠ":5930,"ĠzhÄ«ĠmÃŃngĠ":5931,"ĠfÅ«ĠrÃ©nĠ":5932,"ĠruÃ¬ĠdiÇİn":5933,"xiÃ³ng":5934,"liÃ¡nĠjiÄĵ":5935,"bÃłnĠ":5936,"ĠchÇĴu":5937,"ĠshÄĵnĠtÇĲ":5938,"ĠshÃŃĠyÄ«ĠniÃ¡nĠ":5939,"ĠbÃ¨iĠrÃ¨nĠwÃ©iĠshÃ¬Ġ":5940,"ĠyÄĽĠ":5941,"dÃłiĠbiÇİoĠ":5942,"ĠshÃŃĠsÃ¬ĠniÃ¡nĠ":5943,"ĠkÄĵĠxuÃ©Ġ":5944,"ĠbÃ¹ĠlÇĶĠ":5945,"ĠrÃºĠxiÃłĠ":5946,"IN":5947,"ĠZ":5948,"zÄ«ĠliÃłoĠ":5949,"ĠjiÃ¹ĠdÃº":5950,"ĠtÃ¡nĠpÃłnĠ":5951,"chÄģi":5952,"xuÃ©ĠxiÃłoĠ":5953,"tiÄĵ":5954,"jiÄĵĠduÃłnĠ":5955,"ĠshÃ¬ĠbÃ¨i":5956,"Ġ37":5957,"ĠyÇĴngĠ":5958,"yÃ¹nĠdÃ²ngĠ":5959,"2010ĠniÃ¡nĠ":5960,"ĠlÃ©iĠ":5961,"zhÅįngĠguÃ³ĠdÃłĠlÃ¹":5962,"ric":5963,"ĠdeĠxiÃ©":5964,"fÃºĠjiÃłn":5965,"ĠĠĠin":5966,"tÇĴngĠyÄ«Ġ":5967,"ĠpÄĵng":5968,"ĠyÇĶĠmÃ¡oĠqiÃº":5969,"ĠdeĠyÄģoĠ":5970,"ĠÃ©rĠbÃºĠshÃ¬Ġ":5971,"ĠjÄ«ngĠyÃŃngĠ":5972,"shuÇĲĠ":5973,"ĠzhÇİnĠdeĠ":5974,"jiÄģoĠtÅįngĠ":5975,"yÃ¬ĠshÃ¹":5976,"Ġ1993ĠniÃ¡nĠ":5977,"Ġ1996ĠniÃ¡nĠ":5978,"zhÄĵngĠyÃ¬Ġ":5979,"ĠshÇİoĠshÃ¹":5980,"ĠwÄĽnĠdÃ¬ng":5981,"zuÃ¬ĠchÅ«":5982,"2014ĠniÃ¡nĠ":5983,"jiÃ¹Ġ":5984,"ĠshÃ¬ĠtÄģ":5985,"ĠsÄ«ĠhÃ©Ġ":5986,"ĠyÃ¹nĠxÃŃngĠ":5987,"ĠkÇİĠluÃ³":5988,"ĠpÃłiĠchÅ«":5989,"zÄĵngĠjiÄģĠ":5990,"ĠzhÅįngĠhuÃ¡ĠrÃ©nĠmÃŃnĠgÃ²ngĠhÃ©ĠguÃ³ĠzhÃ¨ngĠzhÃ¬ĠrÃ©nĠwÃ¹Ġ":5991,"ĠdeĠjÅ«n":5992,"ĠchÄĵngĠwÃ¨iĠ":5993,"arĠ":5994,"ĠzhÃ¬ĠdÃ¹Ġ":5995,"ĠlÃ¹nĠdeĠ":5996,"dÄģngĠxuÇİn":5997,"tÃ³uĠrÃ¹":5998,"ĠtÄģĠhÃ©Ġ":5999,"ĠtÃ³ngĠyÃłngĠ":6000,"zÃ¡":6001,"ĠĠĠfÃ¹":6002,"ĠgÅįngĠzhÇĶ":6003,"ĠyÄ«ĠlÃ¬Ġ":6004,"ĠjiÃłnĠzÃłoĠ":6005,"ĠtÃŃĠgÄģo":6006,"ĠdeĠjÄ«ĠchÇĶĠ":6007,"rÃ©nĠyuÃ¡nĠ":6008,"ĠguÄģĠ":6009,"ĠĠĠgÃłiĠ":6010,"ĠbÃ¨iĠjÇĲngĠ":6011,"xiÃłoĠ":6012,"ĠlÇĴng":6013,"dÃ¬ĠguÃ³Ġ":6014,"ĠzhÇĶĠyÇİn":6015,"ĠxiÃłnĠjÄ«n":6016,"ĠsÄ«ĠrÃ©nĠ":6017,"ĠzhuÃłngĠkuÃłngĠ":6018,"ĠmÃ¡i":6019,"ĠdÄĵngĠshÃłng":6020,"Ġ1945ĠniÃ¡nĠ":6021,"ĠĠĠIn":6022,"guÇĴĠ":6023,"ĠĠĠjÄ«n":6024,"gÅįngĠgÃ²ng":6025,"ĠÄĽrĠduÅį":6026,"ĠliÇİngĠzhÇĴng":6027,"diÃłnĠshÃ¬ĠjÃ¹Ġ":6028,"bÃ¬ĠxÅ«Ġ":6029,"ĠhÄĵngĠlÃ¬Ġ":6030,"ĠshÃ¬ĠcÃ³ng":6031,"ĠwÃ¨iĠ1":6032,"ĠduÅįĠniÃ¡nĠ":6033,"ĠshÃ©nĠjÄ«ng":6034,"ik":6035,"Ã¡oĠ":6036,"gÄģoĠdÄĽng":6037,"ĠdÄģoĠ":6038,"ĠbÃłoĠzhÃł":6039,"ĠpÇİoĠ":6040,"ationĠĠĠ":6041,"ĠshÄĵnĠqÇĲngĠ":6042,"zhÃŃĠwÃ¹Ġ":6043,"2022ĠniÃ¡nĠ":6044,"GĠ":6045,"dÄĽngĠdÃ¬Ġ":6046,"ĠmÃŃngĠdÄģnĠ":6047,"ĠxiÇİoĠxuÃ©Ġ":6048,"shÇİoĠshÃ¹":6049,"yÄĽĠshÃ¬Ġ":6050,"ĠfÃł":6051,"ĠduÃ¬ĠwÇĶ":6052,"ĠwÇİngĠwÇİng":6053,"ĠhÃ¡iĠ":6054,"Ġ75":6055,"lay":6056,"ĠrÃ¹nĠ":6057,"ĠzÃłiĠxiÃłn":6058,"ĠpÃ©n":6059,"ĠchuÃ¡ngĠ":6060,"shÃ©nĠme":6061,"ĠdeĠtÃº":6062,"zhÃ¬ĠzuÃ²":6063,"ĠrÃ¹ĠxuÇİn":6064,"bÇĲĠsÃłiĠzhÅįngĠ":6065,"ĠzhÃ¨ngĠzhuÃłngĠgÇİnĠrÇİnĠ":6066,"49":6067,"xiÃ¡nĠ":6068,"ĠmÃŃnĠzhÃ²ng":6069,"bÅįĠ":6070,"ĠguÃ³ĠfÃ¡ng":6071,"ĠmÃ¡oĠzÃ©":6072,"wÇİngĠlÃ¹":6073,"ĠdeĠguÃ³ĠjiÄģĠ":6074,"ĠchÅ«ĠzhÃłn":6075,"ĠbÃ¨iĠshÃ¬ĠwÃ¨iĠ":6076,"ĠchÄ«":6077,"ĠxiÇİngĠniÃ¡nĠ":6078,"ĠdeĠyuÃ¨":6079,"ĠyÄĽĠzÃłiĠ":6080,"ĠyÃ¨ĠwÃ¹Ġ":6081,"ĠhÃ¨Ġ":6082,"nÇĲĠ":6083,"wÇİĠ":6084,"ĠlÇĲĠxuÃ©":6085,"ĠjÄ«ĠchÇİngĠ":6086,"ĠxiÄģngĠtÃ³ng":6087,"gÅįngĠshÃ¬Ġ":6088,"jiÄģngĠ":6089,"ĠĠĠmÄĽi":6090,"ĠpÄ«nĠ":6091,"ĠfÄĵnĠlÃ¨i":6092,"quÃ¨ĠdÃ¬ng":6093,"ĠzhÄĽnĠbÃ¬ngĠlÃ¬Ġ":6094,"ef":6095,"ĠbÃ¹ĠlÃ¬Ġ":6096,"ĠxÇĲĠhuÄģnĠ":6097,"42":6098,"ĠĠĠwÃłi":6099,"ĠkÅ«Ġ":6100,"ĠmÃŃngĠxiÇİnĠ":6101,"ĠshÃŃĠshÃ¬Ġ":6102,"guÅį":6103,"wÃ©iĠÄģi":6104,"ĠjÄ«ĠqÃ¬":6105,"pÃŃngĠ":6106,"juÃłnĠ":6107,"ĠdeĠchÃ©ngĠshÃ¬Ġ":6108,"ĠmÃ¹ĠbiÄģoĠ":6109,"ĠpÃ¡iĠhÃ¡ng":6110,"00ĠmÇĲ":6111,"ĠchÃ¡ngĠshÃ¬Ġ":6112,"yÇĶĠyÃ¡n":6113,"zhÇĲĠyÇĴuĠ":6114,"gÄĵnĠjÃ¹":6115,"ĠpÃŃnĠdÃło":6116,"rÃ¬Ġ":6117,"ĠzÃłiĠbÄĽi":6118,"ĠyÇĲĠwÃłi":6119,"ĠjÇĲnĠyÇĴu":6120,"pÃłi":6121,"ĠkÃłoĠjÃ¬n":6122,"zhÃ³u":6123,"ĠgÃ¨ĠlÃ¨i":6124,"ĠdeĠgÃłi":6125,"cÇİiĠyÃ²ng":6126,"ĠxÃ¬ĠliÃ¨Ġ":6127,"ĠkÄģĠ":6128,"ĠshÃ¬ĠfÃłngĠ":6129,"chÃ¡ngĠqÄ«":6130,"ĠxiÃłnĠhÃ©Ġ":6131,"ĠyÄ«ĠrÃ¡n":6132,"ĠmÃ¬ĠmÃ¬":6133,"ĠzhuÄģngĠzhÃ¬Ġ":6134,"atĠĠĠ":6135,"ĠshÃ¬ĠnÃŃ":6136,"ĠwÄģnĠdeĠ":6137,"ĠjÄ«ĠzhÃ¬Ġ":6138,"ĠdÃ©ĠyÇĲĠ":6139,"ĠbÄĽnĠtÇĶĠ":6140,"Ġ1995ĠniÃ¡nĠ":6141,"HĠ":6142,"hÄĵng":6143,"yÃ¬ĠdÃłĠlÃ¬Ġ":6144,"dÃ¬ĠsÄģn":6145,"ĠgÅįngĠnÃ©ngĠ":6146,"67":6147,"ĠshÃ¬ĠzhÅįngĠxÄ«n":6148,"ĠdeĠtiÄģn":6149,"rÃ©ngĠrÃ¡n":6150,"ĠxÃŃngĠrÃ³ng":6151,"ĠdeĠdÃ¬ĠfÄģngĠ":6152,"ĠzhÃłoĠkÄģi":6153,"igh":6154,"yÇĲĠ":6155,"ĠjÃ¹ĠtÇĲ":6156,"31":6157,"ĠliÃºĠxiÃł":6158,"ĠdeĠhÇİiĠbÃ¡":6159,"jiÄģĠtÃŃng":6160,"ĠdÃ¬ĠlÇĲ":6161,"ĠzÃ¬ĠzhÃ¬ĠqÅ«Ġ":6162,"kuÃłiĠsÃ¹":6163,"ĠqÃŃĠzhÅįngĠyÄ«Ġ":6164,"ĠĠĠCh":6165,"ĠyÇĲĠyÇĴuĠ":6166,"ĠjiÇİnĠchÄĵngĠ":6167,"ĠtÃ³ngĠshÃŃĠgÄģiĠdÃ¬Ġ":6168,"qiÄĽ":6169,"ĠshÃ¬ĠpÃŃn":6170,"ĠwÃ©nĠjiÃłn":6171,"ĠgÅįngĠbÃ¹":6172,"AM":6173,"ER":6174,"ĠlÃ¬ĠliÃłng":6175,"ĠkÅįngĠ":6176,"ĠniÃ¡nĠjiÄģn":6177,"ĠfÃ¹ĠzÃ¡":6178,"ĠwÃ¨iĠyÃºĠzhÅįngĠguÃ³Ġ":6179,"ĠgÅįngĠjÄ«Ġ":6180,"ĠduÃ¬ĠyÃ¬ng":6181,"ĠnÄ«Ġ":6182,"ĠjiÄĽĠsÃłnĠ":6183,"rÃ¹ĠqÄ«nĠ":6184,"ĠjÃŃĠrÃ©nĠ":6185,"ĠshÇĲĠqÃŃ":6186,"ĠzuÃ¬ĠdÃłĠ":6187,"ĠgÃ¨ngĠjiÄģĠ":6188,"nÃ¨iĠlÃ¹ĠshÄĽngĠfÃ¨nĠ":6189,"AR":6190,"jÃ¬ĠsuÃłnĠ":6191,"ĠliÃºĠyÃ¹":6192,"Ġ1991ĠniÃ¡nĠ":6193,"ĠquÄĵĠfÃ¡":6194,"zhÇĶĠxÃŃĠ":6195,"dÇİoĠyÇİn":6196,"ĠzÃłiĠnÃ¨iĠdeĠ":6197,"ĠdÃłĠjiÇİngĠ":6198,"ĠsÄģng":6199,"ĠtiÃłoĠ":6200,"ĠĠĠcÇĲĠwÃłiĠ":6201,"ĠĠĠliÃº":6202,"ĠdÇİoĠdeĠ":6203,"ĠjiÄĵĠchÃ¹":6204,"ĠjÃ¹ĠlÃŃ":6205,"ĠfÄĵnĠxÄ«":6206,"ĠzhÇĲĠkÃ²ng":6207,"ĠyÇĲngĠpiÃłn":6208,"ĠtiÄĽĠdÃłoĠ":6209,"ĠxÃŃngĠzhÃ¨ngĠqÅ«Ġ":6210,"2017ĠniÃ¡nĠ":6211,"guÃ³ĠhuÃ¬":6212,"ĠshÃłngĠshÃ¬Ġ":6213,"ĠzhuÅį":6214,"ĠbÃ¹ĠmÇİnĠ":6215,"ĠY":6216,"shuÄģi":6217,"ĠlÃ¡iĠyuÃ¡nĠ":6218,"ĠchuÃłngĠlÃ¬Ġ":6219,"ĠshÃ¹ĠzÃ¬":6220,"mÃŃngĠwÃ¨iĠ":6221,"ĠdeĠbÄģ":6222,"ĠzuÃ¬ĠjÃ¬n":6223,"ĠmÃ¡oĠ":6224,"ĠtÄģĠduÃ¬":6225,"ĠxiÃłnĠfÇİ":6226,"ĠmÄĽiĠ":6227,"ĠshÃ¬ĠyÄ«ĠbÃ¹Ġ":6228,"yÃºnĠnÃ¡n":6229,"gÇĶĠ":6230,"ĠbÃ¹ĠshÃłng":6231,"ĠyuÃ¨ĠduÃ¬":6232,"ĠkÄģiĠshÃ¨":6233,"ĠshÄĵnĠwÃ¨iĠ":6234,"ĠgÃłoĠsÃ¹":6235,"ĠtuÄ«ĠdÃ²ng":6236,"ĠdeĠlÇļ":6237,"ĠshÃŃĠsÄģnĠniÃ¡nĠ":6238,"ĠyÄ«ĠmÃ©i":6239,"ĠwÃłnĠmÄĽiĠyuÃ¡nĠ":6240,"ĠzÃłiĠ195":6241,"xÄ«ĠbÄģnĠyÃ¡":6242,"ĠyÇĶĠzhÃ²u":6243,"ĠyÄ«nĠyuÃ¨":6244,"ĠxÃŃngĠmÃ¹":6245,"Ġ1990ĠniÃ¡nĠ":6246,"ĠwÇİnĠshÃłng":6247,"ĠĠĠbÃ¨iĠjÇĲngĠ":6248,"ĠgÅįngĠyuÃ¡n":6249,"ĠzhÃ¨ngĠmÃŃng":6250,"ĠxÄ«ĠÄģnĠ":6251,"ut":6252,"shÄĵnĠ":6253,"ĠkÃłngĠyÃ¬Ġ":6254,"IC":6255,"gÅįngĠzuÃ²":6256,"ĠyÇĲĠqiÃ¡n":6257,"ĠyÃ³uĠcÇĲ":6258,"suÇĴĠcÇİiĠyÃ²ng":6259,"ĠxÄ«ĠÄĽr":6260,"ĠbÄĽnĠzhÃłn":6261,"ĠjÃŃĠshÃŃĠ":6262,"ĠĠĠ2006ĠniÃ¡nĠ":6263,"ĠbÄĵng":6264,"ĠshÄĵngĠmÃ¬ng":6265,"ĠxuÇİnĠqÅ«Ġ":6266,"ĠzÇİiĠ":6267,"ĠdeĠcÃŃĠ":6268,"pÃłnĠ":6269,"2015ĠniÃ¡nĠ":6270,"gÄĵĠshÇĴu":6271,"Ġ48":6272,"ĠjiÇĶĠdiÃłn":6273,"43":6274,"tÃ³uĠzÄ«":6275,"Ġ00Ġ":6276,"isĠĠĠ":6277,"mÃ³":6278,"ĠĠĠdÃ¬ĠfÄģngĠzÄ«ĠliÃłoĠ":6279,"fÃłngĠ":6280,"dÃ²ngĠ":6281,"mÇİĠ":6282,"ĠdeĠmiÃłnĠjÄ«ĠwÃ¨iĠ":6283,"shÃłngĠwÇĶ":6284,"ĠlÃ¨iĠxÃŃngĠ":6285,"Ġ2025ĠniÃ¡nĠ":6286,"mÃŃnĠ":6287,"fÄĵnĠwÃ©iĠ":6288,"ĠzÃłiĠjÄ«n":6289,"ĠlÃ¬ĠshÄģnĠdÃłĠ":6290,"hÃ²uĠdeĠ":6291,"2013ĠniÃ¡nĠ":6292,"ĠĠĠjiÇİnĠjiÃ¨Ġ":6293,"ĠyÇĴuĠduÅį":6294,"ĠzhÃ¨ngĠmÃŃngĠ":6295,"ĠhÃ¡nĠshÃ¹":6296,"chÅ«ĠxiÃłn":6297,"ĠdÃłnĠyÄ«n":6298,"Ġ32":6299,"gÃ¨ng":6300,"xiÃłĠlÃ¬ngĠshÃŃĠ":6301,"ĠsÄ«ĠjÄ«Ġ":6302,"ĠbiÃłnĠhuÃłĠ":6303,"ĠdeĠdÃ¬ĠsÄģn":6304,"gÃ²ngĠhÃ©Ġ":6305,"ĠwÃ©iĠzhÇĶ":6306,"ĠdÃ²uĠ":6307,"ĠgÇİo":6308,"ĠshÃłngĠshÃ¹":6309,"ĠsuÄ«":6310,"ĠdÇİngĠyuÃ¡nĠ":6311,"zhÄģnĠ":6312,"ĠĠĠgÇĶ":6313,"chÄģngĠ":6314,"ĠshÃ¬ĠjiÄģng":6315,"ĠchÃ©ngĠrÃ©nĠ":6316,"ĠjÄ«nĠrÃ³ng":6317,"lÇĲngĠdÇİo":6318,"ĠsÄ«ĠlÄģĠfÅ«Ġ":6319,"ĠĠĠrÃ¡n":6320,"ĠliÃ¡nĠmÃ©ngĠ":6321,"ĠjiÄģĠnÃ¡ĠdÃłĠ":6322,"yÇĴuĠ":6323,"ĠdeĠxiÃł":6324,"ĠbÃ¹ĠshÇİoĠ":6325,"ceĠĠĠ":6326,"ĠnÃ¡nĠxÃ¬ng":6327,"ĠzÇĶĠjiÃłn":6328,"ĠwÇĶĠqÃ¬":6329,"ĠjiÄģĠtÃŃng":6330,"ĠIn":6331,"ĠwÃ¡nĠjiÄģ":6332,"Ġ0Ġ":6333,"ĠsÄ«ĠdÃ¹nĠ":6334,"ĠliÇİngĠzhÄĽ":6335,"ĠgÇİngĠ":6336,"jiÃłoĠyÃ¹Ġ":6337,"ĠshÃ¬ĠjiÄģĠ":6338,"ĠqiÄĵ":6339,"ĠqiÃ¡ngĠdiÃłoĠ":6340,"ĠxÃŃĠwÃ¨iĠ":6341,"ĠcÄģoĠzuÃ²Ġ":6342,"xiÃłĠlÃ¬ngĠshÃŃĠjiÄģnĠ":6343,"hÃ©ng":6344,"ĠdeĠbÃłn":6345,"ĠyÃŃĠdÃ¬ng":6346,"ĠbÃ¡iĠsÃ¨":6347,"chÄģĠ":6348,"ĠsuÇĴĠshÇĶ":6349,"ĠshÃŃĠqÄ«ĠniÃ¡nĠ":6350,"ĠgÅįngĠyÃ¬":6351,"ĠjÄ«ĠyÄ«n":6352,"ĠhuÃłĠdeĠ":6353,"ĠgÃ²uĠzÃłoĠ":6354,"ĠtÄģĠmenĠzÃłiĠ":6355,"bÇİoĠchÃŃ":6356,"ĠyÄ«nĠwÃ¨iĠtÄģ":6357,"Ġ1985ĠniÃ¡nĠ":6358,"zÇİoĠqÄ«":6359,"ĠĠĠsÄ«":6360,"ĠhÃ©ĠbÃ¹Ġ":6361,"ĠzÇĴngĠdÅ«Ġ":6362,"ĠjuÄģnĠ":6363,"jiÄģĠnÃ¡ĠdÃł":6364,"DTĠ":6365,"ong":6366,"bÃ¬Ġ":6367,"ĠlÃ©ng":6368,"ĠxiÃłnĠshÃłng":6369,"ĠshÃ¨ĠyÇĲng":6370,"ĠzhuÃ¬":6371,"ĠqÃ¬ĠxiÃłng":6372,"ĠlÃŃngĠchÃ©nĠ":6373,"hÇİiĠ":6374,"ĠshÇĴuĠdÅ«Ġ":6375,"ĠjiÄģoĠyÃ¬Ġ":6376,"jÅ«ĠzhÃ¹":6377,"ĠdeĠchÃ©ngĠjÃ¬Ġ":6378,"ĠĠĠjÇĲnĠ":6379,"gÃłiĠ":6380,"guÇĲĠ":6381,"tur":6382,"qÃ¬ĠhÃ²uĠ":6383,"ĠdeĠjÃ¬ng":6384,"ĠbÃ¹ĠsÄ«":6385,"ĠyÄ«ĠqiÃ¨":6386,"ĠnuÃ²Ġ":6387,"ĠdeĠyÄ«nĠyuÃ¨Ġ":6388,"ĠshÃ¬ĠqÃŃ":6389,"ĠnuÃ³ĠwÄĵi":6390,"ĠxÃºnĠyÃ¡ng":6391,"ĠtÃŃĠgÅįngĠle":6392,"chuÃŃĠ":6393,"ÅįuĠyuÃ¡nĠ":6394,"sÄ«ĠlÃ¡n":6395,"tÃ³uĠ":6396,"ĠlÇĲĠgÅįngĠ":6397,"shÃŃĠdÃłi":6398,"ĠnÃ¨iĠgÃ©":6399,"ĠgÃłiĠniÃłn":6400,"xiÃłĠxiÃ¡ĠdeĠyÃŃĠgÃ¨":6401,"rÃ¨nĠ":6402,"ĠsÅ«":6403,"2011ĠniÃ¡nĠ":6404,"ĠlÄģĠdÄ«ng":6405,"bo":6406,"ĠkÃ¨ĠyÃ¹n":6407,"Ġ33":6408,"Ġ184":6409,"ĠdiÃ©Ġ":6410,"cÃ¨ĠshÃ¬Ġ":6411,"ĠwÃ¨iĠUTCĠ":6412,"ĠzÃłiĠmÄĽi":6413,"ĠgÅįngĠyÃ¬ng":6414,"ĠjÃŃĠjiÄģng":6415,"ĠyÄ«nĠsÃ¹":6416,"ĠdÃłĠzhÃ²ng":6417,"fÇİĠyuÃłn":6418,"ĠchÅ«ĠyÇİn":6419,"ĠfÄĵnĠpÃ¨i":6420,"ĠpÃ©iĠ":6421,"tÃ¡iĠnÃ¡n":6422,"ĠzhÃ¬ĠchÃ©ngĠ":6423,"ĠtÄģĠjiÄģng":6424,"ĠsÇĲĠwÃ¡ngĠ":6425,"dÃ²ngĠwÃ¹":6426,"wÃ©nĠhuÃłĠ":6427,"miÃłnĠjÄ«Ġ":6428,"ĠzhÃ¬ĠjÄ«nĠ":6429,"ĠwÃłiĠguÃ³Ġ":6430,"ĠfÃ¡ngĠyÃ¹":6431,"ĠdiÃłoĠkuÃłi":6432,"ĠhuÃ¬ĠbÃ¨i":6433,"ĠmÄĽiĠshÃ¹":6434,"Ġ39":6435,"ĠqÇĶĠxiÄģoĠ":6436,"Ġ10ĠyuÃ¨Ġ":6437,"ĠyÄģĠlÃ¬Ġ":6438,"ĠjiÃłnĠlÃ¬Ġle":6439,"jiÃ©ĠguÇĴ":6440,"ĠhÃ©ĠlÇĲ":6441,"ĠbÃ¹ĠfÃ¹":6442,"ĠcnĠ":6443,"mÇĶĠsÄ«Ġ":6444,"88":6445,"ÇĴuĠxiÄĵ":6446,"zhÅįngĠxÄ«n":6447,"ark":6448,"ĠzhuÄģngĠbÃ¨i":6449,"ĠhuÃłnĠzhÄĽ":6450,"AT":6451,"ĠzÃłiĠbÃ¹Ġ":6452,"zhÃ¬ĠzuÃ²Ġ":6453,"ĠdÇİnĠ":6454,"ĠmÃŃngĠchÄĵngĠ":6455,"ĠjÃŃĠshÃ¬Ġ":6456,"ĠtÅįngĠguÃ²Ġ":6457,"ĠzhÃŃĠlÃ¬Ġ":6458,"our":6459,"ĠdeĠhuÃ¡nĠ":6460,"ĠjiÄģĠjÃ¬ng":6461,"ĠkuÃłng":6462,"ĠtiÄĽĠdÃło":6463,"ĠĠĠzÄĵngĠzÇĶ":6464,"ĠdiÃłoĠkuÃłiĠyÄ«ĠxiÇİoĠshÃŃĠ":6465,"ĠĠĠandĠĠĠ":6466,"tÃŃĠ":6467,"ĠjÄ«ngĠyÃŃng":6468,"ĠzhÃ¨ĠyÃłngĠ":6469,"huÃ²ĠdÃ©Ġle":6470,"ĠjÃŃĠyÇĲ":6471,"ĠjÃŃĠUTCĠ":6472,"shÃ¨ĠyÇĴuĠxiÃłĠlÃ¬ngĠshÃŃĠjiÄģnĠ":6473,"ĠdeĠshÃŃĠqÅ«ĠwÃ¨iĠUTCĠ":6474,"ĠÃ©rĠgÄģiĠdÃ¬ĠsuÇĴĠcÇİiĠyÃ²ng":6475,"ĠtÃ³ngĠshÃŃĠgÄģiĠdÃ¬ĠshÃ¨ĠyÇĴuĠxiÃłĠlÃ¬ngĠshÃŃĠjiÄģnĠ":6476,"ĠÃ©rĠgÄģiĠdÃ¬ĠsuÇĴĠcÇİiĠyÃ²ngĠdeĠshÃŃĠqÅ«ĠwÃ¨iĠUTCĠ":6477,"jÃ¬ĠchÃ©ngĠ":6478,"ĠyÇĴuĠxÇĶĠduÅį":6479,"ĠxuÇİnĠshÇĴu":6480,"yÃ¬ngĠyÃ²ng":6481,"Ġ1988ĠniÃ¡nĠ":6482,"gÅ«Ġ":6483,"chÄĵĠliÃłng":6484,"ĠshÃŃĠjiÇĶĠ":6485,"ĠwÃ¡":6486,"ĠlÃ¬ĠfÄģng":6487,"ĠyÇĲĠbÄĽi":6488,"ĠzhÃłnĠzhÅįngĠ":6489,"ĠzhÇĶĠyÇİnĠ":6490,"wÃ©iĠchÃŃ":6491,"ĠzhÅįuĠfÇĶ":6492,"ĠfÃ¹ĠshÅ«ĠjÃ¬Ġ":6493,"ĠjiÃ©ĠhÅ«nĠ":6494,"ĠhuÄģnĠyÃŃngĠ":6495,"zÇĴngĠdÅ«Ġ":6496,"ĠdeĠbÃ¹ĠfÃ¨n":6497,"ĠzhÃ¨ĠbÃ¹Ġ":6498,"ĠhÃ¡iĠzi":6499,"ĠĠĠgÃ¨":6500,"ĠwÃ¨iĠbÃ¨i":6501,"ĠtÃł":6502,"ĠhÃ¹nĠhÃ©Ġ":6503,"ĠyÃºĠhÇİiĠpÃŃngĠmiÃłn":6504,"ÃłoĠdÃ¬ĠlÃ¬Ġ":6505,"ĠjÃŃĠbÄĽiĠmÄĽi":6506,"ĠdÃłĠxÃŃngĠ":6507,"ĠchuÃłngĠjiÃłn":6508,"ÃłoĠyÃ¹nĠhuÃ¬":6509,"IS":6510,"ĠlÃ¬ĠyÃ¬":6511,"ĠlÄģĠsÄ«":6512,"Ġ30Ġ":6513,"ĠqiÄģnĠshÇĶ":6514,"ĠjiÇĶĠniÃ¡nĠ":6515,"ĠzhÄ«ĠchÃŃĠ":6516,"Ch":6517,"ĠĠĠ11":6518,"jiÃłnĠshÃ¨":6519,"kÄĵĠjÃ¬Ġ":6520,"ĠchÃ¹ĠdeĠhÇİiĠbÃ¡":6521,"Ġ8Ġ":6522,"ÃłnĠzÃłiĠ":6523,"ĠĠĠkÃ¨":6524,"ĠqÃº":6525,"ĠtÃ³ngĠyÄ«Ġ":6526,"liÃ¡nĠmÃ©ngĠ":6527,"ĠchÃ¹ĠdeĠhÇİiĠbÃ¡ĠwÃ¨iĠgÄģo":6528,"xÇĶ":6529,"ĠĠĠhÃ²uĠ":6530,"ĠĠĠ190":6531,"ĠkÄĽĠnÃ©ngĠshÃ¬Ġ":6532,"yÃºĠlÃ¨":6533,"ĠhuÃłĠshÃŃĠ":6534,"ĠlÃŃĠmÇĲĠ":6535,"zhuÅį":6536,"ĠbÄĵn":6537,"ĠyÃ¹ĠjÃ¬Ġ":6538,"ĠyÃŃĠzhÃ¬Ġ":6539,"ĠBĠ":6540,"zÇİiĠ":6541,"ĠchÃ¹ĠdeĠhÇİiĠbÃ¡ĠwÃ¨iĠgÄģoĠyÃºĠhÇİiĠpÃŃngĠmiÃłn":6542,"ĠshÃ¬ĠchÇİngĠ":6543,"ĠguÃ³ĠjÅ«n":6544,"ĠzÃ¬ĠshÄĵn":6545,"ĠshÃŃĠliÃ¹ĠniÃ¡nĠ":6546,"wÄģnĠ":6547,"ĠshÄĵngĠtÃłi":6548,"kÃłngĠ":6549,"ĠshÃ¬ĠjiÃ¨ĠbÄĵi":6550,"ĠqiÃ¡ngĠliÃ¨":6551,"Ġ1989ĠniÃ¡nĠ":6552,"kÃ²ngĠzhÃ¬Ġ":6553,"ĠX":6554,"zhÇİo":6555,"ĠĠĠzhÇĶĠyÃło":6556,"ĠwÃ©iĠqÃŃĠ":6557,"...":6558,"gh":6559,"pÃŃngĠfÄģng":6560,"ĠdÃłĠqiÃ¡o":6561,"ĠlÇĲĠlÃ¡n":6562,"ĠdeĠcÃºn":6563,"ĠdeĠxÃŃngĠwÃ©iĠ":6564,"ĠzhuÃłnĠxiÄĽ":6565,"78":6566,"ich":6567,"zhÃ¨ĠyÄ«Ġ":6568,"ĠchÃ©ngĠgÅįng":6569,"ĠdÃłnĠtÄģ":6570,"ĠhÇİiĠyÃ¡ng":6571,"ĠyuÃłnĠzhÇİngĠ":6572,"ĠgÃ¹ĠdÃ¬ng":6573,"Ġ180":6574,"ĠxÃ¬nĠhÃło":6575,"ĠdeĠpÃ¨i":6576,"ĠliÃ¹ĠniÃ¡nĠ":6577,"ĠshÃŃĠwÇĶĠniÃ¡nĠ":6578,"pÄ«":6579,"ĠtuÃ¬ĠyÃ¬Ġ":6580,"sÃ¬ĠgÃ¨":6581,"shÃŃĠqÅ«Ġ":6582,"ĠyÇĶĠhÃ©Ġ":6583,"66":6584,"dÄ«Ġ":6585,"ĠyuÃ¨ĠzhÅįngĠ":6586,"tÇİĠ":6587,"ĠyÇĴuĠkÄĽĠnÃ©ng":6588,"ĠfÄģngĠfÇİĠ":6589,"ĠfÄĵnĠxÄ«Ġ":6590,"ĠqÅ«ĠdeĠmiÃłnĠjÄ«ĠwÃ¨iĠ":6591,"ĠcÃ¡nĠ":6592,"ĠsÅ«nĠ":6593,"ĠxiÃłnĠrÃ¹":6594,"ĠgÇİiĠshÃłnĠ":6595,"ĠhÃ©ĠdeĠ":6596,"ĠjÃŃĠlÃŃn":6597,"ĠlÃ¬ngĠyÇĴuĠ":6598,"ĠguÇİngĠxÄ«":6599,"qÃŃngĠbÃło":6600,"ĠrÃ¬ĠbÃłoĠ":6601,"ĠmÃŃngĠquÃ¨":6602,"ĠzhÃ¨ĠshÇĴu":6603,"ĠfÄĵiĠjÄ«Ġ":6604,"ĠlÇĲngĠxiÃ¹":6605,"ĠzhÅįngĠguÃ³ĠgÃ²ngĠchÇİnĠdÇİng":6606,"aw":6607,"ĠyÄ«ĠjÃ¹":6608,"ĠyuÄĵĠwÃ¨iĠ":6609,"ĠhÃ©ĠshÃ¬Ġ":6610,"bÅįĠchÅ«Ġ":6611,"ĠduÅįĠzhÇĴng":6612,"ĠjÄ«nĠpÃ¡iĠ":6613,"ĠyÃŃĠdÃ²ng":6614,"ĠchÃ³ngĠjiÃłn":6615,"ĠquÃ¨ĠrÃ¨n":6616,"ĠxiÇİnĠzhÃ¹":6617,"ĠdeĠjiÄĽ":6618,"ĠzÃłiĠjÄ«":6619,"ĠyÃ¬ĠniÃ¡nĠ":6620,"ĠÄĽrĠfÅ«Ġ":6621,"ĠdÃ¡ĠdÃło":6622,"ĠwÄĵiĠliÃ¡nĠ":6623,"ĠtiÄĽĠlÃ¹Ġ":6624,"ĠyÃ¬Ġb":6625,"ĠxiÃłnĠzÃłi":6626,"ĠzhÃŃĠwÃ¨iĠ":6627,"ĠdÄģngĠniÃ¡nĠ":6628,"ill":6629,"zhÄ«ĠqiÃ¡n":6630,"dÅįngĠjÃ¬Ġ":6631,"ĠzhÇİnĠlÇİnĠ":6632,"bÇĲĠjiÃło":6633,"ĠhÃ²uĠxuÇİnĠrÃ©nĠ":6634,"ĠduÃłnĠdeĠ":6635,"yÄģng":6636,"ĠyÃ¬ĠfÄģngĠmiÃłnĠ":6637,"ĠhÅ«":6638,"xiÄģngĠtÃ³ng":6639,"ĠbÅįĠchÅ«":6640,"ĠtÇİnĠkÃ¨":6641,"ĠzhÄģoĠhÃ©Ġ":6642,"ON":6643,"ĠdeĠtÅįng":6644,"ĠxiÄģnĠshÄĵng":6645,"ĠwÄĵnĠdÃ¹":6646,"ĠsuÃŃĠjÃŃĠ":6647,"zhÃ¬Ġ200":6648,"ĠyuÃ¨ĠlÃ¡i":6649,"ĠzhÄ«ĠxiÃłĠ":6650,"ĠzhÇĲĠyÇĴu":6651,"ĠtÃłiĠguÃ³Ġ":6652,"ĠshÃŃĠwÃ¨iĠ":6653,"Ġ8ĠyuÃ¨Ġ":6654,"ĠtuÃ¬ĠxiÅ«Ġ":6655,"ĠlÇĲngĠdÇİoĠrÃ©nĠ":6656,"ĠdeĠshÃ¨ĠjÃ¬Ġ":6657,"ĠbÃ¹ĠjÃŃĠ":6658,"ĠshÃŃĠwÃ¹":6659,"ĠlÃ¡nĠqiÃº":6660,"ĠfÄĵiĠlÇľĠbÄ«nĠ":6661,"ĠÇĴu":6662,"dÃ©ĠdÃło":6663,"ĠchÅ«ĠshÄĵn":6664,"ĠnÃ¡nĠfÄģng":6665,"ĠshÅ«ĠrÃ¹":6666,"ÃºĠtÃ¡o":6667,"ĠdeĠtÃłi":6668,"ĠsÃ¬ĠgÃ¨":6669,"ĠĠĠjÃŃĠ":6670,"ĠĠĠ1Ġ":6671,"ĠĠĠrÃ¬ĠbÄĽn":6672,"ĠhÃ©ĠqÃŃĠtÄģ":6673,"ĠxÃŃngĠwÃ©i":6674,"ĠpÄģiĠshÃ¨Ġ":6675,"II":6676,"Tub":6677,"miÃłnĠ":6678,"ĠyÄ«ĠzhÅįu":6679,"ĠduÃ¬ĠqÃŃ":6680,"ĠrÃºĠhÃ©Ġ":6681,"ĠdeĠguÄ«Ġ":6682,"ĠÄĽrĠmÃłnĠ":6683,"ĠshÇİng":6684,"ĠshÃłngĠyÇĴuĠ":6685,"yÄģoĠqiÃº":6686,"jiÃ©ĠshÃ¹Ġ":6687,"xuÇİnĠ":6688,"ĠdÅįngĠfÄģng":6689,"Ġ1950ĠniÃ¡nĠ":6690,"5ĠrÃ©nĠ":6691,"ĠliÃ¡nĠwÇİng":6692,"ĠpÃ²ĠhuÃłi":6693,"ĠĠĠd":6694,"Ã©rĠtÃ³ng":6695,"wÃ©nĠxuÃ©":6696,"pÃŃngĠlÃ¹nĠ":6697,"cÄģnĠsÃłi":6698,"ĠnÄ«":6699,"ĠbÃ¬ngĠdÃº":6700,"ĠchÇİngĠbÇĲĠsÃłi":6701,"ĠzhuÄģnĠjiÄģĠ":6702,"AC":6703,"qÇĲĠyÃ²ngĠ":6704,"ĠdeĠzhuÄģnĠ":6705,"ĠyÇĶĠcÇĲ":6706,"ĠyÄĽĠyÇĴu":6707,"ĠchÃ¡ngĠdÃ¹":6708,"ĠyÃŃĠmÃŃn":6709,"ĠyÃºĠ192":6710,"ĠruÃ¬ĠshÃ¬Ġ":6711,"ĠwÄģ":6712,"ĠxiÃłngĠshÃ¬Ġ":6713,"ĠjuÃ©ĠsÃłiĠ":6714,"ĠĠĠhuÃ²":6715,"lÃ¬ngĠyÄ«Ġ":6716,"ĠmÃ¹ĠbiÄģo":6717,"ĠtÄģĠmenĠ":6718,"76":6719,"shÄĵngĠyÃ¡Ġ":6720,"jÄ«ngĠshÃ©nĠ":6721,"ĠyÃ¬ĠyÃºĠ":6722,"ĠxiÃłnĠlÃ¹Ġ":6723,"ĠduÃ¬ĠfÄģng":6724,"ĠfÃ¡ngĠzhÇĲ":6725,"ĠdeĠlÇĲng":6726,"ĠĠĠlÃ¬ĠshÇĲ":6727,"ĠgÅįngĠÄģnĠ":6728,"ĠjiÄģnĠrÃ¨n":6729,"ĠduÇĴ":6730,"ĠkuÃ²ĠzhÇİnĠ":6731,"ĠjiÃłĠshÇĲ":6732,"huÄ«ĠshÄĽng":6733,"vi":6734,"ĠshÇĲĠshÃłng":6735,"ami":6736,"ĠdeĠyÄ«ng":6737,"ĠyuÃ¡nĠshÇĲ":6738,"ĠzÄĵngĠzhÇİng":6739,"ĠdÇİĠpÃ²":6740,"ĠbÃ¬ĠyÃ¨ĠyÃºĠ":6741,"ear":6742,"yÇİ":6743,"ĠdÃ¬ĠdiÇİn":6744,"ĠbÄĽnĠpiÃłn":6745,"ĠmÃ©ngĠtÃ¨":6746,"ĠzÄ«ĠxÃ¹nĠ":6747,"pÃ²":6748,"ram":6749,"ĠjiÄģĠgÄĵ":6750,"ĠĠĠ2005ĠniÃ¡nĠ":6751,"Ġ1984ĠniÃ¡nĠ":6752,"jiÄģĠrÃ©nĠ":6753,"ĠshÃ¬ĠdÃ©ĠguÃ³Ġ":6754,"ĠjÃŃĠdÃ¬Ġ":6755,"ĠbÄģĠ":6756,"ĠhuÄģĠyuÃ¡nĠ":6757,"ĠdeĠzhÃ¨ngĠzhÃ¬Ġ":6758,"ĠqiÇİngĠ":6759,"ĠrÄĽn":6760,"ĠjÅ«":6761,"Window":6762,"ĠnÃ¨n":6763,"ĠjÇĲĠgÃ¨":6764,"ĠzhÃ¹ĠmÃŃng":6765,"ĠxÃºnĠ":6766,"ĠdeĠxiÄģo":6767,"ĠĠĠh":6768,"mÇĲĠyÃł":6769,"ĠpÃ¨iĠbÃ¨i":6770,"ĠhuÃ¡ngĠjÄ«n":6771,"ĠsÄĵnĠlÃŃn":6772,"ĠdÇİĠsuÃłnĠ":6773,"guÃ³ĠnÃ¨i":6774,"ĠzhÅįuĠcÃ¬":6775,"ĠhÇİiĠyÃ¹Ġ":6776,"192":6777,"ĠshÄĵngĠwÃ¨iĠ":6778,"ĠÃ¨rĠrÃ©nĠ":6779,"ĠdeĠxiÄģnĠ":6780,"fÃ©i":6781,"ĠĠĠÃ¨r":6782,"ĠfÃ¹ĠzhÇĶĠxÃŃĠ":6783,"ĠzuÃ²ĠzhÄĽ":6784,"ĠbÃ¹ĠwÃ¨iĠ":6785,"tiÄĽĠlÃ¹Ġ":6786,"tuÃ¡nĠduÃ¬":6787,"chÅ«ĠrÃ¨n":6788,"mÃŃnĠjiÄģn":6789,"ÃºnĠdÅ«n":6790,"yÃ¹nĠshÅ«":6791,"ĠguÃ³ĠmÃŃnĠzhÃ¨ngĠfÇĶ":6792,"zÃ©ĠshÃ¬Ġ":6793,"12ĠniÃ¡nĠ":6794,"to":6795,"ĠgÅįngĠjuÃ©":6796,"ĠzhÃ¨ngĠzhuÃłngĠgÇİnĠrÇİnĠzhÄĽ":6797,"ĠĠĠquÃ¡n":6798,"ĠĠĠsÄģn":6799,"ĠĠĠrÃº":6800,"dÅįngĠnÃ¡nĠbÃ¹Ġ":6801,"ĠqÃŃĠwÃ¨iĠ":6802,"ĠzhÃ¨ngĠquÃ¡n":6803,"ĠyÃºĠ190":6804,"ĠÃłiĠÄĽrĠlÃ¡n":6805,"ĠfÃ¡ngĠwÅ«Ġ":6806,"ĠkÄģ":6807,"yuÃ¡nĠzhÃ¹":6808,"ĠluÃ³ĠlÇĲĠdÃ¡":6809,"ĠhÃ²uĠzÃłiĠ":6810,"ĠfÃ¨iĠyÃ¡n":6811,"guÄģnĠzhÃ²ng":6812,"ĠqÃŃĠshÃŃĠ":6813,"ĠfÄĵnĠbÃ¹ĠzÃłiĠ":6814,"ĠdeĠyÄ«ĠtiÃ¡o":6815,"ÄģnĠpÃ¡i":6816,"Ġ34":6817,"ĠlÃ¨iĠxÃŃng":6818,"ĠjiÄģoĠliÃº":6819,"ĠdeĠfÃ¡ngĠ":6820,"chÅįngĠtÅ«Ġ":6821,"jiÄģngĠqÃŃ":6822,"ĠdeĠzhÅįngĠguÃ³Ġ":6823,"ĠtÃ¹":6824,"nuÃ²Ġ":6825,"ĠnÃŃĠxÄ«ĠyÃł":6826,"Ġ65":6827,"Ġ1983ĠniÃ¡nĠ":6828,"ĠrÃ©nĠkÇĴuĠmÃ¬ĠdÃ¹ĠmÄĽiĠpÃŃngĠfÄģngĠgÅįngĠlÇĲĠ":6829,"ĠwÄģngĠ":6830,"ĠyuÃ¨ĠtuÃ¡nĠ":6831,"ĠyÄ«ngĠwÃ©n":6832,"ĠjiÃ¹ĠhuÃ¬":6833,"sÃłnĠ":6834,"ĠfÄĵiĠxÃŃng":6835,"ĠshÃ¬ĠshÃ¬ĠjiÃ¨":6836,"bÃłi":6837,"ĠrÃ©nĠdÃł":6838,"ĠlÃŃnĠjÃ¬n":6839,"tiÃ¡oĠzhÄĽng":6840,"jÄ«ngĠ":6841,"mÃ¹ĠbiÄģoĠ":6842,"nÇļĠzÇĲ":6843,"ĠmÇİĠÄĽr":6844,"ĠxÃ¹ĠlÃ¬ĠyÃł":6845,"ĠbÄģnĠfÄģ":6846,"ĠyÃºĠ2016ĠniÃ¡nĠ":6847,"pp":6848,"huÃ¡nĠjÃ¬ng":6849,"YouTub":6850,"ĠĠĠgÄģo":6851,"wÃ¨iĠdeĠ":6852,"ĠyÇĲĠcÇĲ":6853,"ĠxiÄģngĠxÃ¬nĠ":6854,"xÃŃngĠshÃ¬Ġ":6855,"ĠjiÃłnĠkÄģngĠ":6856,"ĠyÇĲĠnÃ¡n":6857,"ĠfÃºĠhÃ©Ġ":6858,"ĠcÃ©ngĠwÃ¨iĠ":6859,"est":6860,"ĠnÃłĠme":6861,"ĠshÃ¬ĠyÃŃĠgÃ¨ĠwÃ¨iĠyÃºĠ":6862,"ĠdeĠquÃ¡nĠlÃ¬Ġ":6863,"gÇĶĠdÃłi":6864,"ĠdÃºĠtÃ¨":6865,"ĠmÄģĠ":6866,"ĠhÃ©ĠnÃ¡nĠshÄĽng":6867,"dÃłng":6868,"ĠdÃłĠdÃło":6869,"ĠxiÃłĠlÃ¬ng":6870,"ĠhuÇĴĠjiÃłn":6871,"ĠzÃłiĠ193":6872,"zhÃ¨ngĠfÇĶĠ":6873,"ĠxiÄģoĠfÃ¨i":6874,"ĠlÇĲngĠshÃ¬Ġ":6875,"98":6876,"zuÃ²ĠjiÄģĠ":6877,"ĠshÇĲĠmÃ¬":6878,"ĠgÃ©ĠwÃ¨iĠ":6879,"ĠnÃłĠxiÄĵ":6880,"ĠyÅįuĠxiÃ¹":6881,"ĠqÃŃnĠ":6882,"chÅ«ĠshÄĵngĠyÃºĠ":6883,"ĠyuÃ¨ĠtuÃ¡n":6884,"ĠtÃ¨ĠlÄģ":6885,"2021ĠniÃ¡nĠ":6886,"ĠchÃ³ngĠ":6887,"ĠdeĠzuÃ¬ĠgÄģo":6888,"ĠdeĠzuÃ²ĠbiÄģoĠwÃ¨iĠ":6889,"nd":6890,"ĠĠĠwÇĶ":6891,"ĠfÄĵiĠjiÃłnĠzhÃ¬ĠdÃ¬ĠqÅ«Ġ":6892,"ĠbÇİoĠcÃºn":6893,"Ġ15Ġ":6894,"ĠhÅ«ĠyÃ¹":6895,"ĠpÃ©iĠxÃ¹nĠ":6896,"jiÄģoĠyÃ¬Ġ":6897,"ĠhuÃłiĠ":6898,"ĠhuÃ¬ĠhÃ©Ġ":6899,"Ġ47":6900,"ĠcÃ¡iĠliÃłoĠ":6901,"liÃ¹ĠniÃ¡nĠ":6902,"ĠĠĠtiÄģn":6903,"lÃ¡iĠyuÃ¡nĠ":6904,"ĠshÃ¬ĠtÃ¡iĠwÄģnĠ":6905,"ĠxiÃ©ĠtiÃ¡o":6906,"quÄĵĠfÃ¡":6907,"AN":6908,"ĠchÃ©ngĠbÄĽn":6909,"ÃłoĠzhÅįu":6910,"ĠxiÅįngĠyÃ¡ĠlÃ¬Ġ":6911,"ĠbÃ³ĠwÃ¹ĠguÇİnĠ":6912,"ĠĠĠtÃ¡iĠwÄģnĠ":6913,"wÃ¡ngĠguÃ³Ġ":6914,"ĠdeĠqiÃº":6915,"ĠyÄ«ĠzuÃ²Ġ":6916,"ĠbÄĽiĠ":6917,"ĠkÅįngĠjiÄģnĠ":6918,"cĠ":6919,"ĠchÅ«ĠxÃŃĠ":6920,"ĠzhÃ¬ĠhÃ©Ġ":6921,"ĠpÃ©ngĠyÇĴuĠ":6922,"gÅįngĠkÄģi":6923,"ĠdÃłiĠbÇĶĠ":6924,"ĠzhuÇİnĠxiÃłng":6925,"ĠchÇĶĠlÇĲĠ":6926,"ĠchÃ¨ĠxiÄģoĠ":6927,"ĠyÃºĠ2021ĠniÃ¡nĠ":6928,"ĠzÃ¬ĠzhÃ¬ĠqÅ«":6929,"ĠmÃ¡oĠzÃ©ĠdÅįng":6930,"ĠfÄĵiĠzhÅįu":6931,"ĠyÅįuĠ":6932,"ĠtÃŃĠgÅįng":6933,"ĠyÃºĠ2015ĠniÃ¡nĠ":6934,"ĠyÃºĠ2018ĠniÃ¡nĠ":6935,"cÃ¹":6936,"ĠĠĠ16":6937,"ĠĠĠgÃ¨ĠrÃ©nĠ":6938,"bÃ¹ĠmÃ©n":6939,"yÃ³uĠtÃłi":6940,"zÃ¬ĠzhÃ¬Ġ":6941,"ĠdeĠwÃº":6942,"ĠjÃŃĠbÃ¬ng":6943,"ĠcÅ«Ġ":6944,"ĠmÃ¬ĠqiÃ¨":6945,"cÃ¡iĠ":6946,"ĠdeĠgÇİnĠ":6947,"sÇĲĠwÃ¡ng":6948,"ĠjÇĲnĠbiÄģoĠsÃłiĠ":6949,"zuÃ²ĠchÅ«":6950,"ĠdeĠguÃłnĠ":6951,"guÇİngĠdÅįngĠshÄĽng":6952,"jiÄĵĠr":6953,"ĠzhÅįngĠzhÇĲ":6954,"ĠfÃłn":6955,"ĠyÄ«ĠcÃŃĠ":6956,"ĠshuÇĲĠyÃ¹Ġ":6957,"ĠdeĠjiÃłnĠzhÃ¹":6958,"18ĠniÃ¡nĠ":6959,"zhÃłi":6960,"ĠdeĠmÇĶĠ":6961,"ĠIS":6962,"ĠdeĠfÃ¹ĠqÄ«nĠ":6963,"jiÃ©ĠhÃ©Ġ":6964,"ĠmÄĽiĠjÅ«n":6965,"ĠlÃ¡nĠkÃ¨":6966,"ĠshÃ¬ĠlÃ¡ngĠ":6967,"pÃł":6968,"usĠ":6969,"chÅ«ĠshÄĵnĠ":6970,"ĠdeĠkÃ²ng":6971,"ĠĠĠzhÇĶ":6972,"ĠdeĠtÃŃ":6973,"ĠshÃ¬ĠyÃ²ng":6974,"ĠsÃłiĠjÃ¬":6975,"ĠqÅ«ĠyÃ¹Ġ":6976,"Ġ58":6977,"ĠdiÃłoĠchÃ¡Ġ":6978,"ĠshÅįuĠ":6979,"ĠqÇĲngĠqiÃº":6980,"ĠjiÃ©ĠshÃ¹Ġ":6981,"ĠshÄĵnĠzhÃ¨n":6982,"Ġ1986ĠniÃ¡nĠ":6983,"nÃ¨iĠbÃ¹Ġ":6984,"ĠzhÅįngĠduÃ¬":6985,"ĠshÇĴuĠxiÄģnĠ":6986,"ĠdeĠmÄĽiĠguÃ³Ġ":6987,"ĠshÃ¬ĠyÃ¬ng":6988,"ĠyÃ¬Ġsi":6989,"ĠqÄ«ĠniÃ¡nĠ":6990,"ĠbÃ³ĠtÃ¨":6991,"ĠmÃ¨iĠ":6992,"2ĠrÃ¬":6993,"ĠduÃ¬ĠwÃłi":6994,"ĠguÃ³ĠjiÄģĠduÃ¬":6995,"qÅ«ĠyÃ¹Ġ":6996,"ĠxiÅ«ĠzhÃ¨ng":6997,"hÃºĠnÃ¡n":6998,"ĠzÃ²uĠ":6999,"ale":7000,"ĠQ":7001,"bÅįĠluÃ³":7002,"ĠjiÃ¹Ġ":7003,"chÃ¡oĠ":7004,"ĠyÃºĠ2012ĠniÃ¡nĠ":7005,"qiÃ¡oĠzhÃ¬Ġ":7006,"tÅįngĠchÄĵĠ":7007,"ĠqÃŃĠbÄ«ng":7008,"ĠdÃ©ĠyÇĶĠ":7009,"ĠbÃºĠyÃło":7010,"ĠdeĠyÃ¬nĠ":7011,"ĠsÄ«ĠlÃ¬ngĠbÃ¹Ġ":7012,"41":7013,"ĠĠĠde":7014,"lÇĲĠlÃ¹nĠ":7015,"duÅįĠlÃ¬ĠyÃł":7016,"ĠdÃ¬ĠyÃ¬":7017,"ĠyuÃ¡nĠyÄ«nĠ":7018,"ĠguÄģ":7019,"yÇĶnĠ":7020,"jiÄģngĠjÅ«n":7021,"ĠshÃ¬ĠwÃ¹Ġ":7022,"jiÄģĠlÄģ":7023,"ĠzhÇĲĠdÃ¬ng":7024,"ĠĠĠÄģ":7025,"shÃłngĠdeĠ":7026,"chuÄģngĠ":7027,"ĠzhÄ«ĠfÃ¹":7028,"guÄģnĠyuÃ¡nĠ":7029,"zuÃ¬Ġ":7030,"xÄ«ngĠjiÃłn":7031,"ĠĠĠniÃ¡nĠ":7032,"zhÃ¨ngĠcÃ¨":7033,"ĠshÃŃĠyÃ³u":7034,"chÃ©ngĠyuÃ¡nĠ":7035,"jÃ¬ĠhuÃłĠ":7036,"ĠmÃŃnĠjiÄģn":7037,"ĠlÃ¬ngĠyÃŃĠgÃ¨":7038,"ĠlÃ¬ĠwÃ¨iĠ":7039,"ĠdeĠbÇİnĠ":7040,"ĠÄĽrĠdÃ¹nĠ":7041,"ĠbÃ¨iĠqÃŃ":7042,"ĠgÇĶĠfÃ¨n":7043,"ĠbÃłnĠyÇİn":7044,"ĠdeĠmÃ¬ng":7045,"ĠyÃ¬nĠnÃŃ":7046,"pÃ©ng":7047,"yp":7048,"ĠĠĠ20":7049,"ĠĠĠmÃ¹":7050,"zhÃ¨ngĠxiÃ©":7051,"xuÃ©ĠshÃ¹":7052,"gÇİiĠbiÄģn":7053,"ĠfÃºĠlÇİngĠ":7054,"ĠzhÄĵnĠzhÃ¨ng":7055,"ĠbÇİiĠkÄĵ":7056,"Ġ11ĠyuÃ¨Ġ":7057,"ĠzÅ«ĠjiÃ¨":7058,"AP":7059,"ĠdeĠxiÃłng":7060,"ĠshÃ¬ĠzhÄ«":7061,"ĠdÃ©ĠdÃłoĠle":7062,"ĠdÃłĠsÃłi":7063,"ĠyÃºĠ2014ĠniÃ¡nĠ":7064,"ĠquÇİnĠ":7065,"huÃ³ĠdÃ²ngĠ":7066,"cÃ¡ngĠ":7067,"chÃ¡ngĠ":7068,"ĠdeĠzÇĶ":7069,"ĠxiÃłngĠzhÄĵng":7070,"Ġ46":7071,"ĠlÃ¬ngĠrÃ©nĠ":7072,"ĠĠĠbÄĽi":7073,"ĠzhÅįngĠyÇĲ":7074,"77":7075,"ĠĠĠjiÄģoĠtÅįngĠ":7076,"shÄĵngĠwÃ¹":7077,"ĠdeĠn":7078,"ĠwÃ¨iĠwÃ¨iĠ":7079,"ĠmÄģoĠ":7080,"ĠhÃ³ngĠsÃ¨":7081,"lÃ³ng":7082,"ĠwÇĶĠzhuÄģngĠ":7083,"96":7084,"ĠshÃ¬ĠqÅ«":7085,"ĠbÃ¹ĠzhÇĶ":7086,"ĠyÃ¬ĠbÃ¨i":7087,"ĠbÅįĠfÃłngĠ":7088,"ĠgÇİiĠwÃ©i":7089,"ĠzhuÇİnĠyÃŃ":7090,"ĠxiÄģngĠgÇİngĠ":7091,"ĠÃłoĠÄĽr":7092,"ĠlÃ¡ngĠzhÅįngĠ":7093,"etĠĠĠ":7094,"tÄģĠ":7095,"ĠxiÃłĠjiÃłngĠ":7096,"ĠpÃ¨iĠyÄ«n":7097,"ĠyÃºĠ2017ĠniÃ¡nĠ":7098,"ĠfÄĵnĠbiÃ©ĠshÃ¬Ġ":7099,"fÃłng":7100,"jiÄģoĠ":7101,"ĠzhÃ¨ĠxiÃłng":7102,"ĠfÃ¹ĠzÃ©Ġ":7103,"xÃŃngĠdÃ²ng":7104,"zhÃŃĠmÃŃn":7105,"ĠyÃ³uĠyÇĴng":7106,"ĠAl":7107,"xiÇİng":7108,"chÅ«ĠshÄĵng":7109,"ĠdeĠbÇİo":7110,"gÅįngĠyÃ¨":7111,"ĠchÅ«ĠlÃ¡iĠ":7112,"ĠbiÇİoĠxiÃłnĠ":7113,"uĠ":7114,"wÃłngĠ":7115,"ĠtÃ¨ĠlÇİngĠ":7116,"ĠshÃ¬ĠdÃ¬ĠÃ¨r":7117,"hÅįng":7118,"yuÃ¨Ġ":7119,"yÃ¡nĠhÇİi":7120,"zuÃ¬ĠzÇİo":7121,"ĠdeĠrÃ¬ĠbÄĽn":7122,"ĠshÃŃĠyÃłnĠshÃ¬Ġ":7123,"ĠdÃ©ĠmÃŃngĠ":7124,"ĠsÅįngĠ":7125,"3ĠgÃ¨":7126,"ele":7127,"ĠĠĠ0":7128,"fÄģĠdiÃłn":7129,"ĠjÃŃĠxÃŃngĠzhÃ¨ngĠ":7130,"ĠrÃ¨nĠqÄ«":7131,"ĠliÇİngĠguÃ³Ġ":7132,"ĠÄģnĠnÃł":7133,"ĠruÃ²Ġ":7134,"ĠmÃŃnĠzhÇĶĠdÇİngĠ":7135,"fÃ¹ĠzÃ©ĠguÇİnĠxiÃ¡Ġ":7136,"xuÃ©ĠzhÄĽ":7137,"ĠsÄ«ĠxiÇİngĠ":7138,"ĠyÄ«ngĠlÇĲĠ":7139,"ĠSĠ":7140,"ĠsÃłĠ":7141,"chuÃłngĠlÃ¬Ġ":7142,"3ĠrÃ¬":7143,"zhÄģoĠ":7144,"rÃ¬ĠzhÃ¬Ġ":7145,"wÃ¡ngĠchÃ¡o":7146,"huÃ¡Ġ":7147,"ĠdÃłnĠshuÇĲ":7148,"ĠtÃ¨ĠdÃ¬ng":7149,"ĠdeĠyÃ¨":7150,"ĠyÄĽĠbÃ¹Ġ":7151,"ĠlÇľĠwÃ¨iĠ":7152,"ruÃ¬ĠshÃ¬Ġ":7153,"ĠĠĠshÃ¨":7154,"dÃłĠ":7155,"ĠdÃ¬ĠtÃº":7156,"ĠcÇİnĠ":7157,"ĠzÇĶĠchÃ©ngĠdeĠ":7158,"Ġ9ĠyuÃ¨Ġ":7159,"ĠjÄ«ĠjÄ«nĠhuÃ¬":7160,"9ĠrÃ¬":7161,"yÃ³uĠxÃ¬Ġ":7162,"yÄ«ngĠgÄģi":7163,"ĠleĠtÄģĠdeĠ":7164,"ĠxiÄģoĠliÃłng":7165,"lÃ¹ĠxiÃłnĠ":7166,"ĠÃ©rĠbÃ¹Ġ":7167,"ĠmÇİĠkÃ¨":7168,"ĠÃłiĠdÃ©":7169,"ĠyÃ³uĠyÃº":7170,"ĠtÃ³ngĠpÃ¡iĠ":7171,"ĠzÃ©ĠwÃ¨iĠ":7172,"ĠxÇĲngĠ":7173,"zĠ":7174,"zuÃ¬ĠdÃłĠdeĠ":7175,"Ġ7ĠyuÃ¨Ġ":7176,"ĠdÃłĠlÃ³uĠ":7177,"ĠxiÃłnĠxiÃłng":7178,"ĠbÃłnĠgÅįngĠ":7179,"ĠdeĠhuÃ¡ngĠ":7180,"ĠmÃŃngĠrÃ©nĠ":7181,"ĠyÇĲngĠ":7182,"ĠzhuÃłngĠtÃłiĠ":7183,"ĠzÃłiĠdÃ¬ĠÃ¨r":7184,"guÄ«ĠhuÃł":7185,"ĠĠĠhÃ³ng":7186,"ĠzÃłiĠbÃ¨i":7187,"19Ġ":7188,"ĠpÃŃngĠwÃ¨iĠ":7189,"ĠxiÄģngĠhÃ¹":7190,"ĠÃłoĠdÃ¬ĠlÃ¬Ġ":7191,"ĠtuÃ¬ĠchÅ«":7192,"yÃŃĠmÃŃn":7193,"ĠyÃºĠ2019ĠniÃ¡nĠ":7194,"ĠjÃºĠzhÇİngĠ":7195,"ĠhuÃ¡ĠshÃ¨ngĠdÃ¹nĠ":7196,"ĠcÇİiĠ":7197,"jiÃłnĠchÃ©ngĠ":7198,"fÇİĠguÃ³":7199,"yÄĽĠ":7200,"luÃ²ĠshÄģn":7201,"ĠdeĠjiÃł":7202,"ĠjÃ¬nĠjÃŃĠ":7203,"ĠyÇĲnĠqÃŃngĠ":7204,"Ġ1987ĠniÃ¡nĠ":7205,"ĠjiÄģĠzhÅįu":7206,"ĠyÃ¡nĠrÃ©nĠ":7207,"ĠgÄģoĠxiÃ³ng":7208,"ĠtÇİĠnÃŃ":7209,"kÅįngĠjÅ«n":7210,"tÄ«ngĠ":7211,"nĠĠĠ":7212,"mÄĽiĠzhÅįu":7213,"zhÃŃĠwÃ¹":7214,"ĠbÃ¬ĠyÃ¨Ġ":7215,"xiÃ¡n":7216,"yÇĲĠlÃ¡i":7217,"nÃ¡nĠjÄ«ng":7218,"ĠdeĠjiÄĵ":7219,"ĠshÃłngĠxiÃł":7220,"ĠwÇİngĠqiÃº":7221,"zhÃłoĠpiÄģnĠ":7222,"ast":7223,"ĠyÇĴuĠyÃ¬Ġ":7224,"ĠchÄĵngĠzuÃ²Ġ":7225,"ĠnÃ¡ĠxiÃł":7226,"Ġì":7227,"xuÃ©ĠxÃŃĠ":7228,"ĠshÃŃĠhÃ²uĠ":7229,"ĠfÃ¹ĠshÇĶ":7230,"ĠyÃ¨ĠwÃ¹":7231,"ĠsÃ¨ĠfÅ«Ġ":7232,"ĠcÃ³ngĠcÇĲ":7233,"ĠmÇİnĠzhÅįu":7234,"ĠyÃºĠ2022ĠniÃ¡nĠ":7235,"lÄģĠdÄ«ng":7236,"gÇİngĠ":7237,"ĠyÃºĠ2020ĠniÃ¡nĠ":7238,"ĠlÃ¬Ġzi":7239,"omp":7240,"ĠgÅįngĠchÇĲ":7241,"ĠdeĠM":7242,"shuÃ²":7243,"yÃ²ngĠhÃ¹":7244,"ĠyÃ¡oĠ":7245,"yÅįngĠyÇĴuĠ":7246,"ĠĠĠchÃºĠle":7247,"zhÃ¬ĠzÃłiĠ":7248,"dÅįngĠbÄĽiĠbÃ¹Ġ":7249,"hÇİiĠwÃłi":7250,"wÇĶĠqÃ¬":7251,"jiÃ¹ĠdÃº":7252,"yÄ«ĠzhÇĴng":7253,"zhÃ¬Ġ199":7254,"ĠzhÃ¨ngĠdÇİngĠ":7255,"ĠzhÃ¨ngĠmiÃłn":7256,"ĠjÄ«nĠshÄģn":7257,"ĠkÄģiĠfÃłng":7258,"ĠlÄĽiĠjÃ¬Ġ":7259,"zhÇİnĠkÄģi":7260,"ĠdÇĴu":7261,"ĠguÄģnĠzhÃ¹":7262,"ĠhÄĵiĠlÃ³ng":7263,"liÃ¡nĠbÄģng":7264,"ÄģnĠdÃ©":7265,"ĠhÃ©ĠwÃ¹":7266,"ĠjiÄģnĠdÅ«Ġ":7267,"ĠdÄĽngĠdÄĽngĠ":7268,"58":7269,"92":7270,"jiÄģngĠsÅ«Ġ":7271,"bÇĲĠyÃł":7272,"ĠhÃ©ĠjÄ«":7273,"ĠqiÃºĠhuÃ¬":7274,"ĠgÇİiĠmÃŃngĠwÃ¨iĠ":7275,"ĠyÃºĠ2013ĠniÃ¡nĠ":7276,"ĠÃ©rĠgÄģiĠdÃ¬ĠdeĠ":7277,"ĠshÃ¬ĠwÄĽi":7278,"shÃŃĠjiÄģnĠ":7279,"ĠsÄ«ĠmÃłnĠ":7280,"ĠmÃŃngĠxÄ«ng":7281,"ĠguÄģnĠcÃ¨":7282,"ĠqÅ«ĠzhÃº":7283,"ĠhuÇĴĠshÄģn":7284,"ĠĠĠshÇĲĠyÃ²ng":7285,"ĠyÇĶĠdeĠ":7286,"ĠzuÃ¬ĠzhÅįng":7287,"ĠyÃŃĠzhÇĲ":7288,"zÅįngĠhÃ©Ġ":7289,"guÃłnĠjÅ«nĠ":7290,"biÇİoĠyÇİn":7291,"bÃ³Ġ":7292,"ĠsÅ«ĠgÃ©ĠlÃ¡n":7293,"qiÃ¡ngĠliÃ¨":7294,"hÃ¹nĠhÃ©Ġ":7295,"if":7296,"ĠlÃ¬ĠshÃŃĠ":7297,"Ġ1920ĠniÃ¡nĠ":7298,"ĠjiÄģĠmÃ©ng":7299,"ĠmiÇİnĠdiÄģnĠ":7300,"kÄĵĠdeĠqÃŃĠzhÅįngĠyÄ«ĠzhÇĴngĠ":7301,"ĠyÃ¬ĠjÃŃĠ":7302,"ĠjÃ¬nĠniÃ¡nĠ":7303,"ĠbÄĽiĠfÄģng":7304,"ĠliÇİngĠcÃ¬":7305,"ĠzhÃ¬ĠshÃ¬Ġ":7306,"Ġ12ĠyuÃ¨Ġ":7307,"15ĠniÃ¡nĠ":7308,"ĠĠĠgÃ¹ĠshÃ¬Ġ":7309,"dÃ¡ĠdÃłoĠ":7310,"ĠsÄ«ĠzhÃŃ":7311,"ĠzhÇĲĠyÃło":7312,"ĠkÄĽĠyÇĲĠzÃłiĠ":7313,"72":7314,"kÃłoĠ":7315,"ĠjiÄĵĠjÃŃĠ":7316,"ĠbÇİiĠwÃłnĠ":7317,"ĠĠĠchÃ©nĠ":7318,"ĠwÄĵiĠxiÃ©":7319,"ĠkÇİoĠgÇĶ":7320,"rÃ©nĠmÃŃnĠdÃłiĠbiÇİoĠdÃłĠhuÃ¬":7321,"odi":7322,"sonĠ":7323,"ĠĠĠxiÇİo":7324,"biÇİoĠxiÃłn":7325,"bÄģĠlÃŃĠ":7326,"ĠdÃ¬ĠzhÃ¬Ġ":7327,"ĠtÃŃĠchÅ«Ġ":7328,"ĠxiÄģngĠsÃ¬Ġ":7329,"Ġ1982ĠniÃ¡nĠ":7330,"ĠdeĠbÃ¡i":7331,"shÃłngĠyÃ¬ngĠ":7332,"mÇİĠlÄģ":7333,"ĠsÄ«ĠdeĠ":7334,"ĠmÃŃngĠdÄģn":7335,"ĠÄģnĠzhuÄģngĠ":7336,"bÃ¹ĠlÇĶĠ":7337,"tuÃ³":7338,"ĠhÃ©ĠyuÄĵ":7339,"ĠshÃ¨ĠyÃºĠ":7340,"oli":7341,"Ġ11Ġ":7342,"ĠlÃŃĠzi":7343,"ĠqÄ«nĠzÃ¬":7344,"Ġ1958ĠniÃ¡nĠ":7345,"jÃŃĠzhÅįngĠ":7346,"zhÇĲĠhuÄ«":7347,"ĠyÄ«nĠqÃŃ":7348,"ĠhÃ¡iĠyÇĴu":7349,"ĠtÃ³uĠxiÃ¡ngĠ":7350,"ĠmiÇİo":7351,"ĠxiÇİngĠyÃło":7352,"chÃ³ngĠqÃ¬ng":7353,"ĠjiÃłngĠdÄ«":7354,"ĠĠĠdÅįng":7355,"ÇİnĠzÃłiĠ":7356,"ĠshÃŃĠzhÃ¬Ġ":7357,"ĠgÃ¨ĠguÃ³Ġ":7358,"ĠmÃ²ĠÄĽr":7359,"ectionĠĠĠ":7360,"ĠĠĠgÃłiĠyÃłoĠ":7361,"ĠyÇĴuĠsÄģn":7362,"ĠzhÇİngĠdÃ¡":7363,"ĠnÃ³ngĠcÅ«n":7364,"ĠdeĠguÄģnĠxÃ¬":7365,"4ĠgÃ¨":7366,"bÃłnĠdÇİo":7367,"yÄ«ĠcÃ¬":7368,"ĠshÃŃĠpÇĲnĠ":7369,"ĠtÃ³ngĠxÃ¬ng":7370,"ĠkÄĵĠfÅ«Ġ":7371,"shÃ¹ĠjÃ¹":7372,"ĠsÄ«ĠlÃ¬Ġ":7373,"Ġ120":7374,"ĠxÄ«ĠlÃ¡n":7375,"ĠfÃ©ngĠ":7376,"ĠmiÃłnĠlÃŃn":7377,"ĠtÃ¨ĠzhÄĵngĠ":7378,"cÇİoĠ":7379,"nÇĶĠ":7380,"quÇİnĠ":7381,"ĠyÄĽĠkÄĽĠyÇĲĠ":7382,"ĠsÃłĠÄĽr":7383,"ĠyuÃ¨ĠlÃ¡iĠyuÃ¨Ġ":7384,"ĠÏ":7385,"ĠxÄ«nĠjiÄģng":7386,"ĠguÄģnĠzhÃ¬Ġ":7387,"ĠbÇĲng":7388,"ĠnÃ¨iĠrÃ³ngĠ":7389,"ĠÃ¨rĠ":7390,"Ġ1979ĠniÃ¡nĠ":7391,"zhÇĴngĠzÃº":7392,"ĠdÃłĠdÃ¬Ġ":7393,"ĠfÃłnĠwÃ©iĠnÃ¨i":7394,"rÃ©nĠzÃłiĠ":7395,"ĠtÄģĠyÇĶ":7396,"ĠgÄģiĠgÅįngĠsÄ«":7397,"ĠdeĠpÄ«":7398,"ĠzhÄģngĠzhuÄģnĠjÃŃĠ":7399,"ĠhÃºnĠ":7400,"ly":7401,"jÄ«ngĠchÃ¡ng":7402,"mÄĽiĠniÃ¡nĠ":7403,"ĠdeĠdÃłn":7404,"ĠshÃ¬ĠjuÃ©":7405,"ĠjÃŃĠjÃ¹":7406,"ĠyuÃ¡nĠzi":7407,"Ġ1980ĠniÃ¡nĠ":7408,"ĠxiÄģoĠxÄ«Ġ":7409,"ĠguÃ¬ĠzÃº":7410,"ĠyÃºĠ2023ĠniÃ¡nĠ":7411,"ĠchuÃłngĠzÃło":7412,"neĠ":7413,"Ã©rĠzi":7414,"diÃłnĠlÃ¬Ġ":7415,"jiÃ©ĠgÃ²uĠ":7416,"fÃ¨nĠzÇĲ":7417,"gÇİiĠbiÃłn":7418,"ĠtÅ«n":7419,"ĠyuÃłnĠshÃ¬Ġ":7420,"ĠdiÄģo":7421,"tiÃ¡oĠjiÃłn":7422,"diÃłoĠchÃ¡Ġ":7423,"ĠhÃ²uĠqÄ«":7424,"Ġ183":7425,"Ġ1946ĠniÃ¡nĠ":7426,"93":7427,"kÅ«n":7428,"guÃ³ĠwÃ¡ng":7429,"ĠmÇİĠsÄ«Ġ":7430,"ĠwÃ¡nĠgÅįngĠ":7431,"ĠchÃ³uĠ":7432,"ĠjÃ¬ĠsuÃłnĠjÄ«":7433,"jiÄģĠnÃ¡ĠdÃłĠ":7434,"yÄģnĠ":7435,"yÇĲĠlÃ¡iĠ":7436,"guÃ²Ġ":7437,"ĠfÃ¹ĠjÃ¬nĠ":7438,"ĠgÄģiĠpiÃłn":7439,"Ġ400":7440,"Ġ1978ĠniÃ¡nĠ":7441,"ĠzÃłnĠshÃŃĠ":7442,"duÃ¬ĠyÃºĠ":7443,"ĠshÃłngĠshÅ«":7444,"mÃ²Ġ":7445,"ĠyÃ¹ĠshÇĲĠ":7446,"ĠbÃłoĠfÄģĠ":7447,"ĠyÃŃngĠyÃ¹n":7448,"ĠdeĠchÄĵ":7449,"ĠzhÃłnĠtÃ¡i":7450,"ĠhÃ©ĠbÃ¬ngĠ":7451,"shÃ¨ĠzhÃ¬Ġ":7452,"duÅįĠcÃ¬":7453,"ĠtÃ¨ĠzhÄĵng":7454,"ĠdeĠpÃ¡i":7455,"tuÇĴ":7456,"ĠxiÃłnĠchÃ©ngĠ":7457,"ĠpÄ«ĠpÃŃngĠ":7458,"shÃ¨ĠshÄ«":7459,"ĠzhÇĶĠbÃłn":7460,"ĠhÃ²uĠlÃ¡iĠ":7461,"ĠshÃ¬ĠyÃ³uĠyÃºĠ":7462,"ĠÄģĠÄĽrĠbÄĵi":7463,"fÃ¡":7464,"pÄģi":7465,"gÃ²ngĠxiÃłnĠ":7466,"2009ĠniÃ¡nĠ":7467,"ĠgÄĵĠshÇĴuĠ":7468,"thĠ":7469,"kÄĵĠxuÃ©ĠyuÃłn":7470,"ĠxiÃłnĠshÃ¬Ġ":7471,"ĠzhÇİi":7472,"ĠtÃŃĠmÃŃngĠ":7473,"ĠjiÇİngĠxiÃłngĠ":7474,"ĠyÃºĠ2010ĠniÃ¡nĠ":7475,"63":7476,"ĠlÃ¹ĠzhÃłn":7477,"ĠjÄ«ngĠyÃłnĠ":7478,"ĠzhÅįngĠshÃ¬ĠyÇİn":7479,"Ġ1948ĠniÃ¡nĠ":7480,"87":7481,"ĠzÃłiĠshÃłng":7482,"ĠrÃ¨nĠzhÃŃ":7483,"ĠchÄ«Ġ":7484,"ĠliÃ¡nĠsÃłiĠ":7485,"ĠzÇĶĠzhÇĲ":7486,"ĠwÇĶĠhÃłnĠ":7487,"ĠdÅįuĠbÃ¨i":7488,"ĠĠĠfÇİnĠ":7489,"qÃºnĠ":7490,"ĠsÇĲĠhÃ²uĠ":7491,"jÃ¬nĠ":7492,"jÇĲĠgÃ¨":7493,"ĠzÄģiĠ":7494,"jÃ¬nĠxÃŃngĠle":7495,"huÃ¡ngĠdÃ¬Ġ":7496,"jiÃ¨ĠshÃło":7497,"qÃ¬ĠchÄĵ":7498,"guÃ³ĠlÃ¬Ġ":7499,"ĠxiÃłĠlÃ¡i":7500,"ĠliÇİnĠ":7501,"nÃ¨iĠrÃ³ngĠ":7502,"ĠbÃ¹ĠdÃŃĠ":7503,"ĠjÄ«ngĠlÇĲĠ":7504,"ĠcuÃ²ĠshÄ«Ġ":7505,"ĠdÃłngĠtiÄģn":7506,"ĠĠĠrÃ©nĠ":7507,"zÄ«Ġ":7508,"ĠdeĠdÃº":7509,"ĠdÃ©ĠjÅ«n":7510,"Ġ12Ġ":7511,"ĠjiÄģĠrÃ©nĠ":7512,"shÄĵnĠzhÃ¨n":7513,"chÇİnĠyÃ¨":7514,"ĠhÃ©ĠdÅįng":7515,"Ġ160":7516,"ĠĠĠjÇĲnĠguÇİn":7517,"kÄģiĠfÃłngĠ":7518,"fÄĵngĠgÃ©":7519,"ĠzÃłiĠtÃ¡iĠwÄģnĠ":7520,"ĠzhÅįngĠyÄĽ":7521,"ĠxÃ¬ĠjÃ¹":7522,"ĠhÇİn":7523,"shÃ¨ĠjÃ¬":7524,"ĠwÃ¨iĠzhÄ«":7525,"ĠjiÄģnĠchÃŃ":7526,"ĠzÄ«ĠgÃ©":7527,"ĠSt":7528,"ĠdeĠzhÇİng":7529,"ĠjÄ«ĠduÃ¬":7530,"ĠqiÄģnĠdÃ¬ng":7531,"ĠwÃ¨iĠyuÃ¡nĠ":7532,"ĠshÄĵngĠwÃ¹Ġ":7533,"ĠfÃ¹ĠqÄ«":7534,"ĠdÃłiĠyÇĴuĠ":7535,"ĠnÃŃĠhÄĵi":7536,"zhuÃłngĠtÃłiĠ":7537,"se":7538,"ĠdeĠdÃ©":7539,"ĠyÇĲĠshÃłngĠ":7540,"fÇİng":7541,"hÅ«nĠ":7542,"ĠdeĠjiÄģn":7543,"ĠqÇĲĠyÃ¬Ġ":7544,"ĠtiÃ¡nĠjÃ¬ng":7545,"ĠzhuÃłngĠtÃłi":7546,"ĠfÃ¡ĠlÃ¬ĠyÃł":7547,"huÃ¡ngĠjiÄģĠ":7548,"ĠĠĠshÃłng":7549,"ĠĠĠlÃŃn":7550,"qÇĲĠlÃ¡i":7551,"ĠsÃłngĠ":7552,"ĠhÇĶ":7553,"ĠgÄģoĠdÃ¡":7554,"ĠshÃ²uĠyÇĶĠ":7555,"rÃ©nĠkÇĴuĠwÃ¨iĠ":7556,"ĠdeĠmÃŃngĠzÃ¬":7557,"xiÇİoĠxÃŃngĠxÄ«ngĠ":7558,"bÇİĠ":7559,"duÇĴ":7560,"ĠÄĽrĠhÃ©Ġ":7561,"ĠchÃ¡ngĠwÄĽiĠ":7562,"ĠhÃ¡nĠyÇĴu":7563,"Ã©Ġ":7564,"cÃ¬ĠyÃºĠ":7565,"fÄĵiĠlÇľĠbÄ«nĠ":7566,"ĠwÃ¨iĠtÄģ":7567,"ĠdeĠyÄ«ĠzhÇĴngĠ":7568,"ĠlÇĲngĠyÃ¹Ġ":7569,"ĠdÄ«ĠqÃ¬":7570,"ĠzuÇĴĠyÃ²uĠ":7571,"usĠĠĠ":7572,"ĠxÄ«ĠlÇĲ":7573,"ĠhuÃ³ĠyuÃ¨Ġ":7574,"tÃłoĠ":7575,"ĠĠĠtÃ³ng":7576,"xuÄĵ":7577,"hÇİiĠbÃ¡":7578,"qÇĶĠdÃłi":7579,"ĠdeĠshÃ¨ĠhuÃ¬":7580,"ĠsectionĠĠĠ":7581,"ĠxiÃłoĠzhÇİng":7582,"ĠrÃºĠcÇĲĠ":7583,"ĠJR":7584,"chÄģĠyÃ¬Ġ":7585,"ĠĠĠjiÄģĠtÃŃngĠ":7586,"tionĠ":7587,"yÇİnĠchÅ«Ġ":7588,"ĠgÅįngĠzhÃłn":7589,"ĠgÅįngĠjÃ¹":7590,"ĠdÃłoĠlÃ¹Ġ":7591,"Ġ6ĠyuÃ¨Ġ":7592,"ĠtÃºĠzhÅįngĠ":7593,"xÃ¬Ġ":7594,"ĠyÄ«nĠshÃ¬Ġ":7595,"ĠmÃ©ngĠjÅ«n":7596,"ĠsuÃ¬ĠdÃłoĠ":7597,"ĠdeĠpi":7598,"ĠdeĠguÇĲ":7599,"cÃ©ngĠ":7600,"ĠhuÃ¬ĠzhÇİngĠ":7601,"ĠpÃŃngĠjiÃ¨":7602,"ĠjÇĲnĠjÃŃĠ":7603,"ard":7604,"ĠqÃºnĠdÇİoĠ":7605,"56":7606,"bÃłnĠshÃ¬ĠchÃ¹":7607,"shÃ¨ngĠ":7608,"ĠzÃłiĠqiÃ¡n":7609,"ĠzÃłiĠbÄĽiĠjÄ«ng":7610,"ĠkÃ¨ĠsÃł":7611,"Ġ31":7612,"rÃ¹nĠ":7613,"ĠzÃłiĠdÄģng":7614,"ĠxuÃ©ĠshÄĵngĠ":7615,"ĠzÇĴngĠlÇĲĠ":7616,"tÃ¨ĠdÃ¬ng":7617,"ĠdeĠjiÃ¹":7618,"ĠshÃ¬ĠrÃ©nĠmÃŃn":7619,"ĠshÅįuĠgÃ²u":7620,"ĠhuÄģnĠyÃŃng":7621,"fÃºĠhÃ©Ġ":7622,"2000ĠniÃ¡nĠ":7623,"ĠbÃ¹ĠzhÃ¨ng":7624,"ĠgÅįngĠchÃ©ng":7625,"ĠjÃŃĠÄĽr":7626,"ĠÃ©rĠyÃ¡nĠ":7627,"ĠwÅ«ĠrÇİnĠ":7628,"ĠdeĠxiÅ«Ġ":7629,"ĠshÃ¬ĠzhÅįngĠhuÃ¡ĠrÃ©nĠmÃŃnĠgÃ²ngĠhÃ©ĠguÃ³Ġ":7630,"73":7631,"ĠĠĠ15":7632,"kÄĽĠ":7633,"ĠdeĠyÃ¹n":7634,"ĠshÃ¬ĠxÄ«ng":7635,"ĠdÃłnĠqÃŃ":7636,"ĠchÅ«nĠ":7637,"ĠqÇĶĠdÃłiĠ":7638,"ĠzÄģiĠpÃ©iĠ":7639,"ock":7640,"ĠĠĠgÄĵnĠjÃ¹Ġ2020ĠniÃ¡nĠmÄĽiĠguÃ³ĠrÃ©nĠkÇĴuĠpÇĶĠchÃ¡ĠdeĠshÃ¹ĠjÃ¹Ġ":7641,"jiÃłoĠ":7642,"ĠtÅįngĠxÃ¹nĠ":7643,"ĠtÃłiĠkÅįng":7644,"biÄģoĠzhÃ¬Ġ":7645,"âĨ":7646,"ÃłiĠÄĽrĠlÃ¡n":7647,"ĠdÃ¬Ġ4":7648,"ĠzÇİoĠniÃ¡nĠ":7649,"ĠshÃ¬ĠzhÇİngĠ":7650,"ĠgÅįngĠjiÄģo":7651,"ĠguÇİngĠgÃłoĠ":7652,"ĠzÄģoĠshÃ²u":7653,"ĠhÃ©ĠsuÄģnĠ":7654,"2023ĠniÃ¡nĠ":7655,"ĠkÇİĠsÄ«":7656,"gÄģoĠxiÃ³ng":7657,"2007ĠniÃ¡nĠ":7658,"ĠchÃ©ngĠzhÃ¨n":7659,"ĠyÃ¬ĠqÃŃngĠ":7660,"ĠfÄĵnĠlÃ¡n":7661,"ĠfÃºĠlÃ©i":7662,"Ġ9Ġ":7663,"ĠruÃ¬Ġ":7664,"ros":7665,"5ĠmÇĲĠ":7666,"74":7667,"yÄģĠ":7668,"bÃ¬ngĠbÃ¹Ġ":7669,"shÄĽngĠdeĠyÃŃĠgÃ¨ĠshÃ¬ĠzhÃ¨nĠ":7670,"rÃºĠhÃ©Ġ":7671,"ĠyuÃ¨ĠshÄĵng":7672,"ĠzhÇĶĠyÃ¬ĠdeĠ":7673,"ĠlÃ¡iĠnÃł":7674,"gÇİiĠshÃłnĠ":7675,"ĠwÃ¨iĠcÇĲ":7676,"ĠnÃ¡nĠjÃŃĠ":7677,"ĠkÄģiĠzhÇİnĠ":7678,"ĠpÃ¨iĠzhÃ¬Ġ":7679,"guÃłnĠjÅ«n":7680,"79":7681,"OM":7682,"ma":7683,"zhÃ¬ĠshÃ¬Ġ":7684,"jiÃ©ĠkÃ¨":7685,"wÇİngĠqiÃº":7686,"ĠdeĠguÃ³ĠjÃ¬Ġ":7687,"ĠhuÃ¬ĠyÃ¬":7688,"ĠzhÃ¨ĠchÇİng":7689,"ĠhÇİiĠxiÃ¡":7690,"tiÃ¡oĠyuÄĵ":7691,"ĠfÃ¡ĠkÃ¨":7692,"ĠĠĠyÃ³uĠxÃ¬":7693,"14ĠniÃ¡nĠ":7694,"EC":7695,"dÃłĠbÃ¹ĠfÃ¨n":7696,"jÃ¬nĠyÃŃĠbÃ¹Ġ":7697,"ĠzhÃ¬ĠshÇİoĠ":7698,"ĠdÃ©ĠÄĽr":7699,"ĠshÄĵngĠrÃ¨n":7700,"ĠhÃłoĠwÃ¨iĠ":7701,"ĠfÄĵiĠxÃŃngĠ":7702,"ĠwÄĵiĠjÄ«Ġ":7703,"ĠdÇİĠjÄ«Ġ":7704,"ook":7705,"ĠĠĠluÃ³":7706,"ĠyÄ«ĠzhÃ¬Ġ":7707,"ĠyÄ«ĠxÃ¬ĠliÃ¨":7708,"ĠzhÇĶnĠdeĠ":7709,"ĠxÃŃngĠchÃ©ng":7710,"ĠzhuÃłngĠbÃ¬ngĠdÃº":7711,"cÇİo":7712,"zÃłng":7713,"rÃºĠ":7714,"ĠwÇİngĠlÃ¹":7715,"ĠsuÃ¬ĠdeĠ":7716,"miÃ¡oĠshÃ¹Ġ":7717,"ĠzuÇĲ":7718,"zhÇĲĠhuÄ«Ġ":7719,"shÄ«ĠqÃ¹":7720,"ĠhÇİiĠdÃłoĠ":7721,"ĠlÇĲĠÃłoĠ":7722,"2024ĠniÃ¡nĠ":7723,"ĠdeĠdÃ¬ĠyÃŃĠgÃ¨":7724,"ĠguÇİngĠchÇİngĠ":7725,"ĠdiÃłnĠshÃ¬ĠjÃ¹Ġ":7726,"ĠshÃ¬ĠxÄ«ĠbÄģnĠyÃ¡":7727,"jiÄĵĠjÃ¬n":7728,"ĠsÄ«ĠzhÅįu":7729,"ĠzhÃ¹ĠmÃŃngĠ":7730,"Ġ20Ġ":7731,"Ġ000ĠrÃ©nĠ":7732,"ĠyÃºĠ2024ĠniÃ¡nĠ":7733,"shÃłoĠniÃ¡nĠ":7734,"nÃłiĠ":7735,"fÄĵiĠ":7736,"ĠdÃ¬ĠchÇİn":7737,"ĠjÃ¹ĠyuÃłn":7738,"ĠzhÇĶĠxÃŃ":7739,"ĠshÇĴuĠgÃ¨":7740,"ĠxÄ«ĠbÃ¹":7741,"ĠbÄ«nĠhÇİi":7742,"ĠxuÃ©ĠxÃŃ":7743,"ĠshÄĽngĠwÄĽi":7744,"ĠyuÃ¡nĠgÅįngĠ":7745,"ĠzuÃ²ĠwÃ¨iĠ":7746,"Ġ64":7747,"ĠtiÃ¡oĠyuÄĵĠ":7748,"ĠkÃ²ngĠ":7749,"ruÃ¬ĠdiÇİn":7750,"ĠlÃ¬ĠfÇİĠhuÃ¬":7751,"yÃŃĠcÃ¬ĠshÃ¬ĠjiÃ¨ĠdÃłĠzhÃłn":7752,"ĠdeĠhÃ³ng":7753,"ĠzhÅįngĠshÅ«":7754,"ĠjiÄĵĠdÃło":7755,"ĠhantĠ":7756,"ÇİoĠzhÃłnĠ":7757,"ĠchÅ«ĠdÃłoĠ":7758,"ĠdeĠmÃ³ĠshÃ¬Ġ":7759,"for":7760,"bÃ¹ĠmÇİnĠ":7761,"Ġ20ĠshÃ¬ĠjÃ¬Ġ":7762,"Ġ162":7763,"ĠzhÃ¬ĠyÃŃ":7764,"ĠshÄĵngĠmÃŃngĠ":7765,"ĠxiÃłĠlÃ¡iĠ":7766,"ĠshÄģnĠmÃłi":7767,"Ġ49":7768,"ĠhÃ©ĠjÄ«n":7769,"ĠfÄĵngĠgÃ©Ġ":7770,"ĠhuÃłnĠchÃ©ngĠ":7771,"res":7772,"ĠdeĠtÇĶĠdÃ¬Ġ":7773,"qÃ¬ĠxiÃłng":7774,"ĠhuÃłi":7775,"ĠwÃ©iĠrÃłoĠ":7776,"ĠxiÃłĠwÇĶ":7777,"ĠdeĠmÃ²":7778,"ĠĠĠ2004ĠniÃ¡nĠ":7779,"ĠpÃ©ngĠ":7780,"ĠbÃłĠ":7781,"86":7782,"qiÄģng":7783,"xuÇİnĠshÇĴu":7784,"ĠshÃ¬ĠgÄģi":7785,"ĠzhÅįngĠqÄ«":7786,"ĠdÃłnĠrÃ©ng":7787,"ĠzhÄĵngĠqÇĶ":7788,"ĠshÃ¬ĠjiÃ¨ĠshÃłng":7789,"ĠkÇİĠlÄģ":7790,"ĠgÃ²ngĠhÃ©ĠguÃ³":7791,"bÃ³ĠshÃ¬Ġ":7792,"ĠzÃłiĠjÃ¹":7793,"ĠzÃłiĠyÄ«ngĠguÃ³Ġ":7794,"ĠrÃ©nĠzhÄ«":7795,"ĠzhÄ«ĠyÃ¬Ġ":7796,"ĠjÄ«ngĠdiÇİn":7797,"ĠdÄģngĠshÃŃ":7798,"ĠliÃłngĠdeĠ":7799,"ĠyÃºĠ2011ĠniÃ¡nĠ":7800,"nÃº":7801,"ĠĠĠlÄģ":7802,"luÇĴ":7803,"ĠmÄģ":7804,"ĠjiÃ©ĠguÇĴĠ":7805,"ĠfÇİnĠÃ©r":7806,"ĠxiÃ©ĠdÃłi":7807,"ĠdeĠchÃ©ngĠzhÃ¨nĠ":7808,"ĠgÅįngĠwÃ¹":7809,"ĠrÃ¬ĠzhÃłnĠzhÄĵng":7810,"ĠfÃ¹ĠnÇļ":7811,"ĠsÄ«ĠluÃ²":7812,"ĠlÄĽiĠ":7813,"ayĠ":7814,"rÃ©nĠhÃ©Ġ":7815,"huÃ²Ġ":7816,"ĠtuÇĴ":7817,"ĠdÄ«ĠyÃºĠ":7818,"ĠyÃ©Ġ":7819,"xÃŃĠjÄ«":7820,"zÄ«ĠgÃ©":7821,"ĠmÄģo":7822,"ĠguÃłiĠ":7823,"ĠbÃłoĠdÇİo":7824,"ĠdÃłĠbÃ¹Ġ":7825,"ĠyÄ«ĠjiÄģĠ":7826,"ĠshÅ«ĠguÇİnĠ":7827,"ĠxiÃłoĠzhÇİngĠ":7828,"ĠchÅ«ĠxiÃłnĠle":7829,"ĠbÃłngĠqiÃº":7830,"zhÇĲĠshÃ¬Ġ":7831,"ĠzÃ©i":7832,"ĠqÇĶĠxiÄģo":7833,"ĠsÄ«ĠlÃ¬ngĠ":7834,"ĠĠĠjÃ¹ĠqÃŃngĠ":7835,"ĠfÇİĠlÃ¡nĠxÄ«":7836,"lan":7837,"mÃ¹ĠdÃ¬Ġ":7838,"xÃ¹ĠlÃ¬ĠyÃł":7839,"ĠdeĠbÅį":7840,"ĠyÃ¬ĠwÃłi":7841,"ĠdÃłĠshÄ«":7842,"ĠshuÇĲĠpÃŃng":7843,"ĠshÃ¹nĠlÃ¬Ġ":7844,"52":7845,"ĠyÇĴuĠmÃŃng":7846,"wÃ©iĠzhÇĶĠ":7847,"ĠguÄģnĠfÃ¨iĠyÃ¡n":7848,"bÃ³ĠwÃ¹ĠguÇİnĠ":7849,"sÃłngĠ":7850,"ĠzhÃ¬ĠdÃ¬Ġ":7851,"ĠyÃ¡nĠchÃ¡ng":7852,"shÅįuĠrÃ¹":7853,"wÃ¨nĠtÃŃĠ":7854,"shÄĵnĠtÇĲ":7855,"ĠxÃŃngĠshÇĲ":7856,"ĠhuÃ¬ĠyuÃ¡nĠ":7857,"ĠhÇİiĠdÃło":7858,"ĠhÇİiĠwÃłi":7859,"Ġ5ĠyuÃ¨Ġ":7860,"ĠlÇļĠxÃŃngĠ":7861,"ĠshÃ¬ĠfÃłnĠ":7862,"qÃ¹Ġ":7863,"ĠniÃ¡nĠniÃ¡nĠ":7864,"ĠzhÇĶĠlÃ¬Ġ":7865,"Ġ158":7866,"hÃºĠbÄĽi":7867,"ĠlÃºĠwÇİĠÄĽrĠshÄĽngĠ":7868,"53":7869,"bÃł":7870,"mer":7871,"bÃ¬ĠyÃ¨Ġ":7872,"ĠdÃ©ĠyÇĲ":7873,"xiÄģngĠtÃ³ngĠ":7874,"ĠjiÄģoĠgÄĽi":7875,"ĠchuÃ¡nĠbÅį":7876,"ĠshÃ¨ĠhuÃ¬ĠzhÇĶĠyÃ¬Ġ":7877,"sÅ«ĠgÃ©ĠlÃ¡n":7878,"chÅįu":7879,"liÃ¡nĠsÃłiĠ":7880,"ĠmÄĽiĠtiÄģn":7881,"ĠgÃ©ĠlÄģ":7882,"ĠyÇĲĠxiÃłĠdÃ¬ĠqÅ«Ġ":7883,"jiÇĶĠlÃ³ng":7884,"sÄĵnĠlÃŃn":7885,"chÃ¡iĠyÃ³u":7886,"ĠshÃŃĠyÃ²ng":7887,"ĠmÃ³ĠxÃŃng":7888,"ĠluÃ²ĠkÃ¨":7889,"ĠbÇİiĠniÃ¡nĠ":7890,"ĠdeĠyÃ¬Ġs":7891,"ĠbÄ«nĠshÃ¬Ġ":7892,"ĠzhÃ¨ngĠzhÃ¬":7893,"ĠzhÇİnĠxiÃłn":7894,"ĠniÇĶ":7895,"ĠlÃºĠ":7896,"ĠyÅįuĠshÃ¬Ġ":7897,"ach":7898,"lÃ¹ĠyÇĲng":7899,"ĠdeĠhÄĵi":7900,"ĠshÃ¨ĠbÃ¨iĠ":7901,"ĠhÄĽnĠkuÃłiĠ":7902,"ĠnÃ³ngĠmÃŃn":7903,"hÇİiĠÃłnĠ":7904,"tÃłiĠguÃ³Ġ":7905,"yÇİnĠchÅ«":7906,"ĠdeĠbÇĲ":7907,"ĠzÃłiĠnÃ¨i":7908,"ĠhÃ©ĠqÃŃĠtÄģĠ":7909,"ĠyÄ«ĠdÃłiĠ":7910,"ĠyÇĶĠqÃŃĠtÄģ":7911,"ĠmÇİĠÄĵn":7912,"ĠbÄģĠÄĽr":7913,"ĠgÄĵnĠsuÃŃĠ":7914,"biÇİoĠxiÃłnĠ":7915,"bÄģĠniÃ¡nĠ":7916,"zÄ«ĠxÃ¹nĠ":7917,"ĠpÃŃngĠmÃŃn":7918,"62":7919,"jiÄģĠlÃ¬ĠfÃºĠnÃŃĠyÃł":7920,"ĠlÇľĠshÄ«":7921,"ĠyÇĲnĠyÃ²ng":7922,"ĠjÃºĠzhÇİng":7923,"guÇİngĠchÇİng":7924,"tuÄ«ĠdÃ²ng":7925,"ĠguÃ³ĠmÃŃnĠdÇİngĠ":7926,"ĠshÃŃĠbÄģĠniÃ¡nĠ":7927,"liÃ¡nĠhÃ©ĠguÃ³Ġ":7928,"rÃ¹ĠxuÇİn":7929,"ĠpÃŃngĠgÅ«Ġ":7930,"ĠhÃłiĠ":7931,"ĠbÃ¨iĠpÃłnĠ":7932,"ĠshÃ²uĠyÇĶ":7933,"ĠnÃŃĠkÃ¨":7934,"ort":7935,"ÃłnĠdeĠxiÇİoĠxÃŃngĠxÄ«ngĠ":7936,"ĠguÇĲĠdÃło":7937,"17ĠniÃ¡nĠ":7938,"ĠyÄ«ĠrÃ©nĠ":7939,"ĠtÃ¡iĠnÃ¡n":7940,"ĠyÃłĠmÄĽiĠnÃŃĠyÃł":7941,"xiÄģngĠgÇİngĠ":7942,"ĠsÇĶnĠshÄ«":7943,"jiÄģĠzhÅįngĠ":7944,"fÄģĠshÃ¨":7945,"ĠxiÄģn":7946,"Ġ1ĠlÃ¬Ġ":7947,"ĠxÄ«ĠbÃ³":7948,"ĠqÇĲĠlÃ¡iĠ":7949,"ĠfÄĵngĠwÃ¨iĠ":7950,"tÃ¡oĠwÇİnĠ":7951,"ĠyuÃ¡nĠzhÃ¹ĠmÃŃn":7952,"kÃ¨ĠchÃ©ngĠ":7953,"2006ĠniÃ¡nĠ":7954,"ĠbÃ¹ĠshÇĶ":7955,"ĠzhÃ¬ĠshÃŃĠ":7956,"ĠkÄĽĠ":7957,"ĠliÃºĠxÃŃngĠ":7958,"ĠnÇļĠÃ©r":7959,"ĠpÃ²ĠshÇĲ":7960,"ĠxÃŃngĠzhÃ¨ngĠyuÃłn":7961,"tÃ¡iĠfÄĵng":7962,"ĠdÃłĠbÇİnĠ":7963,"ĠzhÄ«ĠshÃ¬Ġ":7964,"ĠyÃłoĠwÃ¹":7965,"ĠzhÅįngĠguÃ³ĠguÃ³ĠmÃŃn":7966,"ĠbÃłoĠgÃło":7967,"wÃ¨nĠtÃŃ":7968,"ĠdeĠshÄĵnĠfÃ¨n":7969,"guÇĲĠdÃłoĠ":7970,"ĠdeĠshuÅįĠfÇİĠ":7971,"ĠzhÄĵ":7972,"ĠtÃ¬Ġ":7973,"yÇĴuĠguÄģn":7974,"bÃ¬ĠyÃło":7975,"ĠdeĠsuÇĴĠyÇĴuĠ":7976,"ĠzhÅįuĠqÄ«":7977,"ĠcÃ¡iĠpÃłnĠ":7978,"guÄģngĠxÃ¹":7979,"ĠzÄĵngĠjiÄģĠle":7980,"ĠdeĠqÃŃngĠkuÃłngĠxiÃł":7981,"yÃ³uĠyÃºĠ":7982,"ĠdeĠkÄĽ":7983,"ĠdeĠqÄ«nĠ":7984,"ĠshÃ¬ĠyuÃ¡nĠ":7985,"ĠbÃŃĠ":7986,"ĠliÇİoĠjiÄĽ":7987,"ĠkuÃ¡ngĠ":7988,"ĠrÃ³ngĠyÃ¹":7989,"ĠrÃºĠcÇĲ":7990,"ĠkÅįngĠqÃ¬":7991,"ĠshÄģĠsÇĲ":7992,"7ĠyuÃ¨Ġ1ĠrÃ¬Ġ":7993,"ĠxuÃ©ĠkÄĵ":7994,"ĠxiÇİoĠxuÃ©":7995,"ĠzuÃ²ĠzhÃłnĠ":7996,"ĠzÄ«ĠchÇİn":7997,"ĠhuÃ¡nĠjÃ¬ngĠ":7998,"adi":7999}