#version: 0.2
ä ¸
ä º
ç ļ
çļ Ħ
å ħ
å ı
æ ľ
ã Ģ
å ¹
ä »
å ¤
å ľ
å Ĳ
å Ī
å Ľ
å ®
å¹ ´
ä ½
æ Ĺ
ç Ķ
å į
æ ĸ
è ¿
å °
æ ĺ
ä ¹
ç »
ãĢ ģ
åľ ¨
ä¸ º
å Ĭ
æ Ī
ä ¼
ä¸ Ģ
å Ń
å Į
å ¸
è ¯
è ®
ä¸ Ń
å Ĩ
åĽ ½
äº º
æĺ ¯
å º
æ Ŀ
å ¼
å ·
äº İ
å ¾
é ĩ
ç ī
ç §
è ¡
ç º
å¤ §
æ ī
é Ģ
æľ ī
å ±
æ Ķ
å ĩ
å Ĵ
åĴ Į
2 0
æ Ń
é ĥ
è µ
è Ģ
æ ķ
å ½
å İ
æľ Ī
å ¯
æ °
é Ļ
æ ĭ
æĹ ¥
ç Ľ
è ĩ
æ ³
å ¥
æ ł
ç İ
1 9
é ĺ
ä» ¥
åĲ İ
æĹ ¶
â Ģ
å ĳ
äº Ĩ
åľ °
æ ²
ç «
æ µ
ä¼ ļ
åŃ ¦
è §
æ Ģ
è ¾
è ´
æĪ Ĳ
é Ĺ
è ½
é Ŀ
å Ł
ä¸ ª
ç Ĳ
ä¸ Ĭ
éĥ ¨
å ī
æĸ ¯
é ķ
ä¸ İ
è¡ Į
ä» ĸ
åĩ º
ä¸ į
æ ¯
åĮ º
æ ´
æ ŀ
æ Ĭ
æ İ
åħ ¬
ç ¬
åħ ¶
åı ĳ
æ ¸
ç ½
ä½ ľ
çĶ Ł
æ Ľ
å° Ķ
åĲ į
ä ¿
ä¸ »
åĪ Ĩ
è ¢
ç Ń
è ĥ
ä¹ ĭ
é ģ
æĸ ¹
ç¬ ¬
çĶ ¨
å® ¶
å §
ãĢ ĭ
ãĢ Ĭ
è ¥
å¹ ¶
ç ¾
è¥ ¿
æ³ ķ
åĪ °
å ¿
èĢ Į
Â ·
æ ¬
é ¢
åĨ Ľ
å »
åı Ĭ
è¢ «
ä ¾
æĶ ¿
ä½ į
ç ±
çĶ ±
æ Į
æľ ¬
ç ľ
æ ±
æ° ĳ
è ·
é Ľ
é ¦
ä¸ ĭ
å¸ Ĥ
å ĵ
å¯ ¹
åĲ Į
è ģ
è ĭ
åħ ĭ
åĬ ¨
æĿ ¥
çī ¹
éķ ¿
è¿ Ļ
å¤ ļ
ä» »
èĩ ª
å¼ Ģ
éĩ Į
åĳ ĺ
åį Ĺ
é ©
åŃ Ĳ
åı ¯
æĸ °
å¹ ³
è ī
å Ŀ
è İ
åĬ ł
å¾ ·
åĮ Ĺ
ãĢ Į
ãĢ į
æľ Ģ
æĸ ĩ
å £
åĪ ©
æ Ļ
ç¾ İ
é «
åī į
ä¸ ľ
ä» £
é« ĺ
äº ļ
éĿ ¢
æµ ·
æī Ģ
¦ ģ
å¾ Ĺ
èĩ ³
ç ¤
å» º
è Ī
éĹ ´
æŃ ¤
åĨ ħ
åĽ ł
äº ĭ
âĢ ľ
ä¸ ī
âĢ Ŀ
çİ °
è¿ Ľ
çĶ µ
) ,
ä¹ Ł
çī ©
è¿ ĩ
èµ Ľ
20 1
çŃ ī
åı °
åº ¦
è½ ¦
åħ ¥
è¯ ¥
ç» ı
å½ ĵ
éģ ĵ
ç ¥
è ¦ģ
ç« ĭ
æĪ ĺ
å° Ĩ
çĲ Ĩ
ç ©
è¡ ¨
ä½ ĵ
ç Ł
ç ķ
æĭ ī
é ¡
å ¦
è °
å ²
æľ º
æķ Ļ
æľ Ł
ä¸ ĸ
è Ĳ
é ļ
æ ı
å· ¥
åĪ ¶
ç ®
èĥ ½
äº Į
å¤ ĸ
åĲ Ī
æ į
è· ¯
å® ļ
åı £
çľ ģ
å¸ ĥ
æ¬ ¡
æ Ħ
é© ¬
è® ¾
åħ ±
æĢ §
éĺ Ł
åľ º
éĢ ļ
ä¸ ļ
å± ±
å° ı
20 0
çĲ ĥ
ä½ Ĩ
è Ĭ
ä½ ¿
é ĵ
è ¶
åį ģ
ä¸Ģ ä¸ª
èĢ ħ
å· ŀ
åĮ ĸ
åħ ¨
æ ĥ
ç ³
æķ °
ç§ į
é £
ç§ °
å¤ ©
è Ĥ
ç½ Ĺ
ç§ ĳ
ç ł
æ Ł
çº ¿
ç Ļ
å¼ ı
ç± ³
ç« Ļ
éĩ į
å® ī
é Ł
èģ Ķ
æ ģ
ç Ĥ
ä¸ ¤
é Ĥ
ç³ »
æ¯ Ķ
æ ¼
ç ¼
1 0
ç Ī
æ ¡
ç ¦
ç ¨
å ¢
æĢ »
éĢ ī
è¿ Ĳ
åĬ Ľ
åİ ¿
åħ °
å£ «
çĽ ¸
éĻ ¢
æ ¹
åŁ º
åħ ³
ä¸Ń åĽ½
éĥ ½
æ² »
åİ Ł
è¾ ¾
åŁ İ
ç» Ł
å ģ
æł ¼
èµ ·
ç» Ħ
æŃ £
æĺ İ
é »
çº ¦
åı ·
èĭ ±
æ° ´
å½ ±
å° ¼
æĪ ĸ
å± ŀ
åº ľ
å ¡
æİ ¥
åı ¸
è® ¡
éĩ ĳ
çĽ ®
é¦ ĸ
çİ ĭ
è® ®
æı Ĳ
åį İ
ç Ħ
ä» ¬
éĺ ¿
åĽ Ľ
ä» İ
åĪ Ĺ
åħ ĥ
ç ģ
æ¼ Ķ
å· ´
ç¾İ åĽ½
è ĳ
0 0
å¦ Ĥ
äº §
è¯ Ń
å Ģ
é ħ
åı Ĥ
åı ²
éĩ ı
å ŀ
æĶ ¹
å¸ ¸
å¥ ³
æ ®
æ ¶
éķ ĩ
åĲ ĳ
è £
è į
åĬ ¡
æŀ Ĺ
1 8
åĮ ħ
æ¸ ¯
å ¨
) .
æĽ ¾
æĹ ł
èİ ·
äºº åı£
çĦ ¶
äº ¤
å Ķ
å® ŀ
å¿ ĥ
é Ķ
åı Ĺ
é ľ
1 2
ä½į äºİ
ç» ´
æĦ ı
åİ Ĩ
ç» ĵ
èī ²
çķ Į
çº §
ä¹ Ĳ
æī ĭ
å§ ĭ
ä¿ Ŀ
å§ Ķ
åĪ Ļ
ä¹ ī
æ Ĵ
å¤ Ħ
åħ ļ
è§ Ĩ
ä¹ ¦
ç ´
åĽ ¢
0 å¹´
ç® ¡
å½ ¢
ç¨ ĭ
æ £
å¯ ¼
å ĭ
1 å¹´
è® ¤
æį ®
ç± »
æ² ³
å° ±
åį ¡
éĹ ¨
æ ·
æĮ ĩ
æľĪ 2
çĽ ´
20 2
5 å¹´
åį ķ
é Ĵ
ç ĥ
è¯ ´
éŁ ³
äº Ľ
å¹ ¿
åŀ ĭ
å· ²
åº Ķ
4 å¹´
æĺ Ł
éĽ Ĩ
ç¤ º
å¥ ¥
æµ ģ
é¢ Ĩ
ç¤ ¾
å ł
ä¼ ł
æ º
æĮ ģ
é ²
åĵ ģ
çĤ ¹
è º
æł ¡
æĽ ´
2 å¹´
å± ķ
å¤ «
3 å¹´
e r
ç ĭ
åĽ ŀ
è Į
ä¸ ¾
æĻ ®
1 1
æ¸ ¸
ä¸ ĩ
ç§ ¯
8 å¹´
èº «
6 å¹´
æ ¢
ç© º
åı į
é ª
èµ Ħ
æĶ¿ åºľ
æĥ ħ
å® ĺ
ç ¡
çº ª
äº Ķ
æ´ »
è¿ ĺ
é ¾
åĩ »
a n
æĶ ¯
é¦ Ļ
æł ĩ
æĬ ¥
æ »
o r
å¸ Ī
åĲ Ħ
æ¹ ¾
éĵ ģ
åĪ «
7 å¹´
è Ĵ
éĢ ł
å¤§ åŃ¦
çº ³
è Ļ
åı ĸ
ä½¿ çĶ¨
ç Ĭ
åı ¤
å² Ľ
ç ĸ
æĪĲ ä¸º
å¤ ª
æĹ¥ æľ¬
i n
åī §
å± Ģ
åħ¬ åı¸
åı ĺ
æĭ ¬
ç ı
æľ ¯
åŃ Ĺ
å ķ
å¥ ¹
ç Ŀ
æĹ ı
ä¸ ĵ
åĳ ½
åĮħ æĭ¬
åľ° åĮº
éĿ ŀ
å¸ ¦
èĳ Ĺ
åĽ½ å®¶
å¼ ł
è® º
è¿ ĳ
åį ³
å¼Ģ å§ĭ
çł Ķ
æľ Ŀ
æ± Ł
åĨ ³
ä¿ ¡
è§ £
æ´ ²
æĽ ²
èĬ Ĥ
ç Ĺ
ç¥ ŀ
é£ İ
o n
çī ĩ
å° ĳ
èģ Į
ä» ¶
ç ²
è¿Ľ è¡Į
ä¼ Ĭ
åĽ ¾
è Ħ
æľ ª
ç ĵ
è® °
åı ª
ç ¿
å¹³ æĸ¹
å® ĥ
æľĪ 1
æł ¹
æĿ ĥ
æ² ¡
çŁ ³
éĻ ħ
ç¬¬ ä¸Ģ
èĭ ı
æ¯ ı
ç¼ ĸ
è§ Ĵ
è½ ¬
åı¯ ä»¥
æĶ ¾
æ³ ¢
æ ¨
äº ¬
ä¾ ĭ
19 9
æĶ ¶
æĿ ¡
çļĦ ä¸Ģ
åĪ Ĵ
è° ĥ
é¾ Ļ
åħ¬ éĩĮ
é¦Ļ æ¸¯
åĳ ¨
åħ ī
åķ Ĩ
åĪ Ľ
æ¸ ħ
è¿ ŀ
åĪ Ŀ
9 å¹´
æ° Ķ
æŃ Į
ç¦ »
æĿ ĳ
å ĸ
æ ĳ
çī Ī
éĻ Ĩ
éĥ¨ åĪĨ
ç© ¶
å Ļ
å¾ Ģ
äºº æ°ĳ
å¤ ´
èİ· å¾Ĺ
è ±
åŃ £
çŁ ¥
ä¸ĸ çķĮ
åı Ī
éĿ¢ ç§¯
åħ Ī
çłĶ ç©¶
åİ »
å¯ Ĩ
æŀ Ħ
åŁ Ł
æ´ ¾
ä» ¤
æī ĵ
ç» Ń
æŀ ľ
åĬ ŀ
å¼ º
éļ ı
æŁ ¥
å¨ ģ
ä¸» è¦ģ
çĻ ½
åĨ į
åħ µ
äº ī
åº §
æŃ ¦
ä»ĸ ä»¬
ç¦ ı
å¤ į
è§ Ĥ
èĤ ²
è£ ħ
åİĨ åı²
å® Į
åħ Ń
l a
åĻ ¨
è®¤ ä¸º
å¼ ķ
é¡ ¹
æ® µ
æ ļ
é¢ ĺ
è¶ ³
åı° æ¹¾
åĵ Ī
æ²¡ æľī
ä¸ Ķ
æĿ İ
ç ĳ
å¡ Ķ
æľ į
éĻ ¤
å± ħ
å® £
æ¬ §
1 5
æĪ ı
ç½ ĳ
æĴ Ń
ç» Ī
è§ Ħ
æĭ ħ
åį ı
èĲ ¥
äº ¦
è® ¸
æİ ¨
è ı
çĵ ¦
åľ £
ä» ½
å§Ķ åĳĺ
å¥ ĸ
åľ Ł
æ¡ Ī
ç½ ®
å½ ķ
ä¿ ®
è´ ¨
è ¨
äº ²
èĲ ¨
è¨ Ģ
çĶ ·
å Ħ
a r
æº Ĳ
ç¬¬ äºĮ
åŃ ĺ
å¸ Ŀ
ä»£ è¡¨
éĹ ®
åĭ Ĵ
ä» Ĭ
è¯ Ħ
åĽ Ń
æ ¥
e n
åħ ·
ç» Ļ
æĬ ¤
ä¾ Ľ
éĽ ·
è¿Ĳ åĬ¨
é¦ Ĩ
æŃ »
æĬ ķ
åħ «
çĪ ±
æĶ¿ æ²»
çĶ± äºİ
æ³ķ åĽ½
éĢ Ł
åħ¶ ä»ĸ
åį ĥ
åĩ Ĩ
å® Ĺ
åį °
å¢ ŀ
è¾ ĥ
è¶ ħ
ä¼ ¯
å¢ ĥ
æ´ Ľ
å¸ Į
æ± Ĥ
åĬ Ł
è§ ģ
çĶµ å½±
çĶ »
çļĦ ä¸Ģä¸ª
æ± ī
1 6
èĩ ´
( ),
åĿ ĩ
åį ĩ
å¤ ĩ
åı ¦
è¯ º
åĬ ©
åį «
å·¥ ä½ľ
åį ļ
ç Į
çİ ĩ
èİ ±
éĺ ³
åĦ ¿
è¾ ¹
ä¼ Ĺ
å¥ ½
è Ĺ
é ¥
å ĥ
å® ¢
å® ¹
èĪ ª
ä¼ ¦
åĳ Ĭ
19 8
æĹ ©
æ¨ ¡
ç ª
ä¹ Į
åĲ ī
è¯ ķ
ä¿ Ħ
ä½ľ ä¸º
ä»¥ åıĬ
æİ Ĵ
åī ¯
èī º
æł ·
æµ İ
å¾ Ī
çģ «
çİ ¯
æķ ħ
å¡ ŀ
æĪ ĳ
æĶ »
åĽ½ éĻħ
é» Ħ
çĶ °
ç¾ ¤
å· ±
èĬ ±
åı¯ èĥ½
æ¯ į
ä¹ Ŀ
çĪ ¶
æĸ ½
åĵ į
çı Ń
è ħ
åĽ ´
ä¸Ń å¿ĥ
è¡¨ ç¤º
1 7
æĬ Ģ
æķ ´
é² ģ
æ² Ļ
ç» §
åĮ »
æĭħ ä»»
3 0
å¤ ±
å¸Ĥ éķĩ
çŃ ĳ
èĲ ½
çĹ ħ
ä¸Ń åįİ
åħ ´
è¯ ģ
ç» ĩ
) ãĢģ
ç³» ç»Ł
æ ¦
è´ £
ä¹ ¡
å¿ Ĺ
å¸ Ń
éĩ ĩ
éĺ ²
èĪ °
å® ¤
è Ń
å± Ĥ
æī ĺ
ä¸Ń çļĦ
éĿ Ĵ
çĽ Ł
ä¸ ĥ
æĦ Ł
èŃ ¦
éľ Ģ
çĻ »
åĨ ł
æĹ¶ éĹ´
çĭ ¬
èĭ± åĽ½
è´ Ł
åį Ĭ
é º
æ¹ ĸ
æ¸¸ æĪı
éĢļ è¿ĩ
å£ °
çĶµ è§Ĩ
å§ Ĩ
éĤ £
çĻ ¾
éħ į
ç ¢
èĩª å·±
åı Į
è½¦ ç«Ļ
éĻ Ī
æł¹ æį®
a l
åł Ĥ
é» ĳ
åıĳ çİ°
æĺ ĵ
çĥ Ń
çļ ĩ
åĨ Ļ
å½ĵ æĹ¶
è¡Į æĶ¿
( ,
ç¡ ®
çº ¢
çĬ ¶
é£ ŀ
åıĳ å±ķ
æĪĲ ç«ĭ
æģ ©
ä½ ķ
å¤ ı
æľŁ éĹ´
æ· ±
ä» į
èĢ ĥ
æŀ ģ
ä½ ı
åį ł
ç ħ
é ±
åħ± åĴĮ
æ£ ®
è¡ Ĺ
1 4
è¶ Ĭ
éĻ Ĳ
å¤ ®
å° Ħ
é ¸
é± ¼
çĶ ²
åĲĮ æĹ¶
æŃ ¥
a t
è®¾ è®¡
ç¤¾ ä¼ļ
âĢ Ķ
é£ Ł
è® ©
å»º çŃĳ
äºİ 19
åĥ ı
åŁ ĥ
è± ¡
ä¹ĭ ä¸Ģ
æĽ ¼
æĿ Ģ
å¯ Ł
è´ ¹
èĮ ĥ
å± Ĭ
æİ §
æī ¹
ç¥ ¨
ä» ħ
æ ½
è´ Ŀ
æĻ ¯
ç»Ħ ç»ĩ
æĸ Ļ
æ Ĥ
åŃ¦ éĻ¢
å¥ ĩ
e s
ä¸į åĲĮ
æ´ ĭ
å² ģ
åıĤ åĬł
æµ ĭ
çķ Ļ
èĢ ģ
ä¸Ń å¤®
å§Ķåĳĺ ä¼ļ
è¿ ª
åĨ ľ
æ¥ ¼
æĸĩ åĮĸ
ä½ İ
æŃ ¢
ä¸ĸ çºª
å· Ŀ
å½± åĵį
æ¯Ķ èµĽ
èĥ ľ
éĿ ©
è¯ į
åĵ ¥
ç§° ä¸º
å¾ ĭ
çī Į
é¡ ¿
æĥ ³
å±ŀ äºİ
æİ Ī
f or
æķ Ī
1 3
å ĺ
æ³ °
è¾ ĸ
ä¾ ¿
å¹³æĸ¹ åħ¬éĩĮ
æ ¤
æľ ¨
éĻ į
åĩ ł
ç§ »
è¿ °
çľ Ł
i c
æ ħ
åģ ľ
æī į
æ° ı
éĵ ¶
æ¡ ¥
( )
èĴ Ļ
æĪ ¿
å¿ µ
æĺ ¾
éŁ³ ä¹Ĳ
æī ¿
æĢ ģ
çĿ Ģ
è´ ¥
âĢĿ .
å ©
ç´ ¢
æ ¾
åħ±åĴĮ åĽ½
åº ķ
åº ·
åº ĵ
é¢ Ħ
ä¸» ä¹ī
é Ń
m u
åŃ¦ æł¡
å¾ ģ
ç´ ł
æ´» åĬ¨
çī Ļ
è¾ ĳ
çľ ĭ
å¼ ¹
åĶ ±
åħ ¸
ä½ľ åĵģ
æŃ£ å¼ı
æ¶ Ī
æıĲ ä¾Ľ
åĪ© äºļ
ç® Ģ
è®¡ åĪĴ
åĩº çİ°
ç½Ĺ æĸ¯
è½ ½
ä¹ ł
ä»ĸ çļĦ
æīĢ æľī
æģ ¯
ä» ·
å ³
ä¹ĭ éĹ´
éĻ Ħ
ç»ı æµİ
ç®¡ çĲĨ
åıĳ çĶŁ
æľĢ ç»Ī
éĵģ è·¯
çł ģ
ãĢį .
çĳ ŀ
æī §
æĹ¶ æľŁ
è¿ ľ
i s
åĿ ¦
æĪ ·
ä¸Ģ ç§į
å¹ ²
åı ĭ
åŁİ å¸Ĥ
åĨ µ
ç® Ĺ
ä¾ §
æķĻ èĤ²
ç¥ ĸ
éĢ Ģ
éŁ ©
å® Ī
æ» ¡
åĲİ æĿ¥
äº ĳ
æ³ ¨
èĪ ¹
mu la
å½ĵ åľ°
è¯ ·
è¯ Ŀ
æ¸ ©
éĤ ¦
for mula
åĢ Ļ
ä½ Ļ
ä½ Ľ
æ Ĳ
æĬ Ĭ
ç« ł
ä¸ ģ
ç² ¾
i t
æĬ Ĺ
å® ģ
çĽ ĳ
19 7
åĪ¶ ä½ľ
åł ¡
19 4
20 å¹´
æľ Ľ
a m
æĹ §
è´Ł è´£
å¾· åĽ½
å· ¦
æĪĲ åĳĺ
ä¸Ĭ çļĦ
æĭ ¿
éĹ® é¢ĺ
æľ Ĺ
éª Į
h e
åĬ ¿
è¿Ľ åħ¥
æĢ Ŀ
ä¸ ´
è®¸ å¤ļ
åĪ ĺ
å ´
çª ģ
é ¹
çł ´
å¿ «
å® «
æĹ ħ
ä¾ Ŀ
åİ ĭ
åº Ħ
ç¬¬ ä¸ī
åĲį ä¸º
èİ «
æľĢ åĲİ
ä¼ ¼
æĪĺ äºī
å¯ Į
ä¸Ģ äºĽ
æ¢ ħ
çĿ £
åĢ ¼
åģ ļ
åħ¨ åĽ½
æĶ¯ æĮģ
å° ģ
èĹ ı
æ° ¸
åĲ «
å» ¶
æĸ Ĺ
èĴ Ĥ
5 0
æĭ Ķ
çĶŁ æ´»
åĽł ä¸º
åİ ħ
ä¹ĭ åĲİ
åį ¢
äºº çļĦ
çħ §
äº ¡
æľį åĬ¡
å¼ Ĺ
éļ ¾
l e
åİ Ĥ
ç» Ĩ
æ¾ ³
åĪ ¤
æ ĵ
æł ¸
æŀ ¶
ä¸ ¹
å¤§ çļĦ
éģ Ĺ
ä¼ ¤
å°¼ äºļ
å®£ å¸ĥ
çļ ®
èĻ ½
å½ Ĵ
åį° åº¦
åı ³
ä¿Ħ ç½Ĺæĸ¯
å·² ç»ı
è¯ Ĩ
åº Ĩ
åıĤ ä¸İ
åľ° æĸ¹
ä¸¾ è¡Į
æĸ Ń
åħ³ ç³»
åıĳ è¡Į
éĹ »
19 6
ç Ĩ
è½ ®
é ½
åı ¶
ä¸ ½
æĿ °
åº Ĺ
æĸ¹ éĿ¢
ç¤ ¼
åĶ Ĳ
åĨ³ å®ļ
å·¥ ç¨ĭ
ï ¼
éĩį è¦ģ
è Ľ
è¶³ çĲĥ
r o
åĮĹ äº¬
åĪ ĩ
ä¸¤ ä¸ª
ä¼ ĺ
çŃ ĸ
ä¸ ¥
ä¸Ĭ æµ·
åº Ń
èµ °
ãĢį ,
å¿ ħ
è¯ »
æĭ ¥
ç» Ŀ
éģ Ń
0å¹´ ä»£
å° ļ
èģĶ åĲĪ
äºº çī©
å¼ Ĥ
r e
åĺ ī
éĥ ¡
äºĭ ä»¶
ç» ĥ
æį ¢
åĮĹ éĥ¨
åĨł åĨĽ
é© »
å½ ¹
èµ «
åŃ¦ å®¶
èĬĤ çĽ®
æ¤ į
å² ¸
éº ¦
éĩ İ
åŃ¦ çĶŁ
å¼ Ł
ä¼ļ è®®
19 5
æ² ¹
äººæ°ĳ åħ±åĴĮåĽ½
æĬĢ æľ¯
éĢ Ĳ
åĶ ®
èĥ Į
æ¯ ķ
æĿ ¾
åĪ° äºĨ
åĬł åħ¥
é ³
å¯ º
00 0
èī ¾
è ĵ
åį ´
ä¿Ŀ æĬ¤
e l
åĪĹ è½¦
ä¹ ħ
æĢ» ç»Ł
æ¬§ æ´²
ç½ ²
20 19
èı ²
éļ Ĩ
è®¾ æľī
æĻ ļ
é ¼
å¹³æĸ¹ åįĥ
èĪ ¬
s t
å ª
åĪĨ åĪ«
æĿ¥ èĩª
ç« ¯
20 20å¹´
çĽ® åīį
ç ¯
æĺ ¥
çŁ Ń
éĢ ģ
åħ ¹
åĪĨ å¸ĥ
åħĭ åħ°
éľĢ è¦ģ
ç³» åĪĹ
ä¹ ĺ
ä½ ³
å° ½
æĿ Ł
å® Ŀ
å®Į æĪĲ
ä¸Ńåįİ äººæ°ĳåħ±åĴĮåĽ½
éĢļ å¸¸
é¡ º
æ°ĳ åĽ½
ä» Ģ
åĲĮ å¹´
æ² ¿
æľ «
æĹ Ĺ
å»º ç«ĭ
åĲ ¯
èį ī
åįĹ éĥ¨
åº ı
åŃĺ åľ¨
éĺ ¶
éĺ µ
èį ¯
å¯¼ èĩ´
èĢ ¶
éĽ Ħ
éħ Ĵ
æļ ´
æĸ¯ çī¹
æ¯ Ľ
æĪĲ åĬŁ
i on
æ³ ½
åħ ¼
é¢ ĳ
äºİ 201
åħ± æľī
åĨ ²
è½ »
è¦ģ æ±Ĥ
æĳ Ħ
çĭ¬ ç«ĭ
è· Ŀ
çĦ¶ èĢĮ
2 5
ç»Ħ æĪĲ
ä¾ĭ å¦Ĥ
æĳ ©
è¿Ļ äºĽ
æľĢ é«ĺ
éĶ Ģ
æ¬ ¾
è¿Ļ ä¸ª
è¾ ĵ
åįķ ä½į
èĻ½ çĦ¶
æµ· æĭĶ
12 æľĪ
å¼Ģ åıĳ
æĭ¥ æľī
å¸ ķ
èĩª çĶ±
ãĢĭ (
ãĢĭ ãĢģ
çģ µ
åŃ Ļ
ä¸ĵ è¾ĳ
æĺ¯ åľ¨
çŃ ¾
åª Ĵ
çĽ¸ åħ³
ä¹Į åħĭåħ°
ç± į
å© ļ
çİ Ľ
æĥħ åĨµ
çĶ¨ äºİ
ç½ ª
19 3
é¡ »
èīº æľ¯
æĺ¯ ä¸Ģ
æĿ Ĥ
äºº åĳĺ
çº ½
é¥ °
æ£ Ģ
éĽ ħ
e t
é¡ ¶
çĲĥ éĺŁ
âĢĿ ,
éĢī ä¸¾
å¯Ĩ åº¦
æĿ ¨
èģĶ çĽŁ
éĩĩ çĶ¨
æŀ ª
i l
å Ĥ
æıĲ åĩº
2 4
ä» ĭ
äºĨ ä¸Ģ
åīį å¾Ģ
åĬ ³
ç§ Ģ
åħ į
o u
7 æľĪ
çķ ¥
åıĹ åĪ°
æ² ĥ
å· ®
æĭ į
éĢ ı
è¿ ½
å® ³
äº ¿
æ ¿
ãĢĭ ,
å· ¡
o l
æĸ¹ å¼ı
9 æľĪ
çĽ ĸ
åĩ ı
èĭ ¥
è§Ĵ èī²
è´ ¢
ä¸º äºĨ
10 æľĪ
éĴ Ł
è¢ Ń
8 æľĪ
è¿ ģ
éĩ Ĭ
åĽ½ æ°ĳ
äºĮ åįģ
æĿ ¿
èī ¯
a c
å° ¾
åĲ ´
å¤§ éĻĨ
è® Ń
è ŀ
åħ· æľī
èį £
æĿ ¯
åĲĪ ä½ľ
3 æľĪ
è° ·
çĪ Ĩ
éħ ¸
äº¤ éĢļ
æķ £
æı ´
æł ĳ
æŃĮ æĽ²
åĩº çīĪ
éĽĨ åĽ¢
èģĶ èµĽ
äº§ çĶŁ
ç £
æĺ ł
çļĦ å¤§
é¦ĸ æ¬¡
å® ĭ
ä¼ ģ
è¯ ĳ
è´ Ń
äº Ī
æķ° æį®
åĸ Ħ
± ä¹Ĳ
å¾ ®
é» İ
æ´ ¥
åħ¶ ä¸Ń
èĤ ¡
å° º
è¡ ¥
çī¹ åĪ«
æ¯ķ ä¸ļ
è® ¿
å± ĭ
ç»§ ç»Ń
å® ¡
è´ µ
äº Ĵ
è¡ Ģ
é«ĺ åº¦
é¡¹ çĽ®
ç»ĵ æĿŁ
6 æľĪ
æĻ ĭ
è½ ¨
çĶŁ äº§
çĥ Ī
åģ ĩ
åĽł æŃ¤
è® ¯
éŁ ¦
ã ĥ
ãĢĭãĢģ ãĢĬ
åħ »
éĻ ©
ç»ĵ æŀĦ
èĩ £
5 æľĪ
å¸Ŀ åĽ½
é¢ Ŀ
æı ı
æī ©
2 3
éĥ¨ éĺŁ
è¥¿ äºļ
ä¸ª äºº
è¯Ń è¨Ģ
æķ ĳ
äººåı£ å¯Ĩåº¦
æ¯ Ĵ
æİ§ åĪ¶
é² ľ
å¯¹ äºİ
åĸ ľ
ç§ĳ åŃ¦
æİ¥ åıĹ
å½¢ æĪĲ
ç« ŀ
1 æľĪ
åıĸ å¾Ĺ
ä»» ä½ķ
æĹ¶ ä»£
æµ· åĨĽ
è¡Į åĬ¨
ä¸» å¸Ń
åĮº åŁŁ
æĮ ¥
å³ °
éĿ¢ç§¯ ä¸º
æķħ äºĭ
å¤ º
æĿ ľ
æ°ĳ ä¸»
èĪ ŀ
æ¦ Ĥ
éĶ ¦
è¯ Ĺ
åĩº çĶŁ
æĹł æ³ķ
è® ²
4 æľĪ
éĢ Ĥ
11 æľĪ
éĢ Ķ
çļĦ æĺ¯
ä¹Ł æĺ¯
æĭ ľ
ä¸ °
æľº æŀĦ
çİ ©
çĶ ļ
å¢ŀ åĬł
åĮº çļĦ
éĢł æĪĲ
4 0
2019 å¹´
æľ ±
å¸ ģ
çĸ Ĺ
é½ Ĳ
æ¢ ģ
èį ·
è¾ Ĩ
éĻĦ è¿ĳ
ä¸» æķĻ
è¶ħ è¿ĩ
çļĦ äºº
ç§ ĺ
å» ·
é¢Ĩ å¯¼
æĮ ī
ä¼ł ç»Ł
ç»ĵ æŀľ
ç½Ĺ é©¬
å¾ Ħ
ä»¥ ä¸ĭ
ç ĩ
å® ¾
éļ ¶
202 1å¹´
ç ¦ģ
æĴ ¤
ä¸Ń åħ±
åĿ Ģ
æĿ Ĳ
åį Ī
in g
è´ §
åĩ ¯
åĬ¨ çī©
æ¸ Ĳ
çĬ ¯
èĥ ¡
202 2å¹´
a s
åĨĽ äºĭ
2 1
ç« ¥
æķ ¦
èĪª ç©º
åľ Ĩ
ä½ ©
çĽ Ĭ
çļĦ æĹ¶
ä» ª
å¤ Ł
æłĩ åĩĨ
o m
åıĳ å¸ĥ
5 æĹ¥
èģ ļ
è° ¢
10 0
æĸ° éĹ»
6 0
éª ¨
æ· ·
çĮ ®
çĽ Ľ
åĨħ çļĦ
è¿ Ķ
åıª æľī
ãĢĭ .
ä» ģ
éĥ İ
çī Ľ
çļ Ĩ
æķ° éĩı
æŁ Ĳ
è® ¨
å°± æĺ¯
ç¿ °
åĪ ĳ
ç© Ĩ
çĤ ¸
æį ķ
éĺ¿ å°Ķ
å¨ ľ
éĿ© åĳ½
èĮĥ åĽ´
äºİ 200
c h
å¤§ åĪ©
å¸ ®
åªĴ ä½ĵ
e d
éĻ¤ äºĨ
å® ½
å¾Ĺ åĪ°
æľº åľº
å¥³ æĢ§
èĮ ¨
å®ī åħ¨
è°ĥ æŁ¥
è¿ĩ ç¨ĭ
è§ ī
æİ ¢
ä¹ĭ åīį
æł¼ åħ°
ç»ı è¿ĩ
çĤ ®
æĻ º
åº Ļ
åĨħ å®¹
åħ¬ åĽŃ
çĪ¶ äº²
å¹ ķ
æĪ ª
åĲ ¦
éģ ĩ
å¤ ľ
: âĢľ
(, ),
éŁ© åĽ½
çĶ· åŃĲ
ä¹ Ķ
åįģ äºĮ
éľ į
èµ ŀ
åħ ħ
è Ķ
æĭ ©
2 2
è½ ¯
éĩį æĸ°
å¥³ åŃĲ
å¹³æĸ¹åįĥ ç±³
åĪ »
æīĢ ä»¥
éľ ²
èµĽ äºĭ
æĽ ¿
7 æĹ¥
ä¼ ĳ
å° ¤
ç§ ģ
åĪ º
ä½į ç½®
å¹³ åĿĩ
è ĸ
å «
èĩªå·± çļĦ
çİ ī
è¿ĲåĬ¨ åĳĺ
æŁ ĵ
çºª å¿µ
å±ħ æ°ĳ
6 æĹ¥
201 0å¹´
ä¸Ģ èĪ¬
é¸ Ł
åĪĽ ä½ľ
åıĳ è¡¨
åº Ł
ä¸Ģ åĲį
ç¼ º
éĿ ł
u s
ä¸ Ŀ
ã ģ
éĴ Ī
æķ Į
åĢ Ł
æĺ Į
çİ° ä»£
è®¾ ç«ĭ
ç» ©
è¯ ī
æº ª
æĬ µ
éĤ ®
æľī éĻĲ
èģĶ éĤ¦
åĲ Ľ
å· ¨
è ľ
åĲ ¸
å® ĩ
è¥¿ çıŃ
è· Ł
çĪ µ
ä¹ ±
å±ŀ çļĦ
èĵ Ŀ
è¥¿çıŃ çīĻ
éª ĳ
å¾ ¡
2 8
å® ª
æĹ¶ çļĦ
3 1
çľ ¼
è®® ä¼ļ
åıį å¯¹
æ¼Ķ åĳĺ
æ¤į çī©
ä¸Ģ çĽ´
åĿ ¡
æ® ¿
åħ± äº§
æķĻ æİĪ
æį Ł
å¾ Ĵ
éĽ ª
æĿ¥ çļĦ
å·¥ ä¸ļ
åĽ º
æ°ĳ æĹı
è¯ ¸
ä¾ µ
åĪ Ĭ
çīĪ æľ¬
åĮ ¹
æľī åħ³
ç¬¬ åĽĽ
éĢ ĥ
åħ¬ è·¯
çĽ´ æİ¥
çİ° åľ¨
éļ Ķ
202 3å¹´
è ª
å»º è®¾
4 æĹ¥
èģĮ ä¸ļ
æī ¾
çİ¯ å¢ĥ
è° ĭ
ä¸¾ åĬŀ
èĦ ĳ
æ¶ ¯
éļı åĲİ
ä¸Ń åŃ¦
3 æĹ¥
ä¹ İ
éĢī æĭ©
åĨĽ éĺŁ
çĹ ĩ
è¿ĺ æľī
éĿŀ å¸¸
ç¿ »
æ¬ ¢
èĭı èģĶ
åıį åºĶ
ç¼ĸ çłģ
ä½ ł
çĶ ³
åħ¬ å¼Ģ
d e
ä½ĵ èĤ²
å£ ¤
éĥ ĳ
å² ©
éĵ¶ è¡Į
æ¦ ľ
è£ ģ
èµĦ æĸĻ
åħ± åĲĮ
æ± ĩ
å½¢ å¼ı
åĨ³ èµĽ
ç© ¿
æĪĺ æĸĹ
è¡Į æĺŁ
åħ Ħ
åı ¬
éĥ½ æĺ¯
åĨ °
æĺ¾ ç¤º
éĤ »
æ¼ «
åįı ä¼ļ
2 æľĪ
æĢ ¥
æ¿ Ģ
åĲį ç§°
. âĢĿ
è·Ŀ ç¦»
2 7
o f
å¥ ī
æĸ¹ æ³ķ
ç» ľ
éķ ľ
æĪ Ī
åŁ ¹
u n
åĶ ¯
æİ¨ åĩº
åĲį çļĦ
è¯ ¾
å°ı è¯´
ç¬ ¦
èĥ ŀ
åĪ© çĶ¨
å¤ļ æķ°
åĲ ¬
çĶŁ æ¶¯
æ¯ ģ
è®® åĳĺ
èĬ ¬
è¿ «
ç¾İ åħĥ
çĽ´ åĪ°
æĸ¯ åĿ¦
ä¹¦ è®°
ä¼ģ ä¸ļ
è® ¢
è° Ī
åĳ ¼
é» ĺ
åĮħ åĲ«
èĩª æ²»
å¾ ħ
æ³ķ å¾ĭ
éĽ ¨
é Ĩ
ä¸Ģ èµ·
ç®¡ è¾ĸ
æĮĩ æĮ¥
åĳ Ī
èĤ ¯
S t
è¿Ļ ä¸Ģ
åģ ¥
å®Į åħ¨
ä¸» ä»»
æĢ Ģ
èĢ ³
åı° åĮĹ
ä¸Ńåįİ æ°ĳåĽ½
çĶŁ çī©
æĸ° çļĦ
ï¼ į
çĸ ĳ
æ³ Ľ
å®¶ åºŃ
èµ µ
åĿ ļ
ä¸ľ åĮĹ
ä¸į æĺ¯
2 6
æ³ķ éĻ¢
äºº ç±»
èİ ī
éĻ µ
æĦ ¿
en t
âĢĶ âĢĶ
ã Ĥ
an d
æĵ į
æĹ ĭ
æĪĳ ä»¬
å®¶ æĹı
èĩª çĦ¶
å§ ĵ
åı¦ ä¸Ģ
æľī ä¸Ģ
åŃ¦ ä¹ł
åľ° çļĦ
åĨį æ¬¡
r i
202 4å¹´
æ¶ ī
çĶµ åŃĲ
å¤§ éĩı
æŀ ļ
æĮĩ åĩº
é¢ Ĺ
æĶ¿ çŃĸ
åħ³ äºİ
æĪ ´
æ¯ «
åŃ ©
èĦ ±
æī§ è¡Į
åĬ¨ çĶ»
çĶļ èĩ³
åĪĨ ä¸º
201 6å¹´
çĲĨ è®º
3 5
è¡¨ çİ°
èŀ į
: ãĢĮ
æľĪ1 æĹ¥
åĲİ çļĦ
å¿ħ é¡»
åĮ» éĻ¢
2 9
æļ Ĥ
åŁº ç¡
åį ±
ç» ¿
ä»¥ æĿ¥
è¡Į ä¸º
å°Ĩ åĨĽ
å¦ »
ç§ ĭ
ä¸ľ éĥ¨
çĽ ĺ
æľĢ ä½³
æģ Ĵ
å¢ĥ åĨħ
å°½ ç®¡
201 1å¹´
èĪ į
o w
æī İ
æĢ§ çļĦ
æľĢ åĪĿ
åĿ Ĳ
è Ŀ
é¡ ¾
æĸĩ åŃ¦
åŁºç¡ Ģ
æĶ¹ ä¸º
åį ·
æ¨ ª
201 8å¹´
ç¾ ½
æŁ ı
ä¸ŃåĽ½ å¤§éĻĨ
ä¹ Ī
åĬ ª
å®ĺ æĸ¹
ç¿ ¼
ç´ §
åįļ çī©
èī ĩ
åķĨ ä¸ļ
ç¯ ĩ
çľģ ä»½
è¾ Ľ
æĶ» åĩ»
æ» ¨
æĦı å¤§åĪ©
è´ ¡
åħ¬ åħ±
å¥ ı
ä¹ °
çī© ç§į
æŃ» äº¡
æĴŃ åĩº
u r
æ¡ ĳ
éĴ ±
æĬ¥ åĳĬ
ç±» ä¼¼
åĿ ı
æĻ® æŁ¥
éŃ Ķ
ç¼ ©
æľĿ é²ľ
æĶ¿æ²» äººçī©
æ´ ª
å¸Ĥ åľº
201 4å¹´
æĹ© æľŁ
èĥ½ åĬĽ
¤ Ĳ
æ½ ľ
å®ŀ éĻħ
äºļ æ´²
è Ĩ
æıı è¿°
å¢ ĵ
a d
è¯ ¯
æ¼Ķ åĩº
è§Ħ æ¨¡
8 0
çº¦ ç¿°
åĽ¢ ä½ĵ
åĬł æĭ¿
éģ ¿
å¿ ł
åħ¨ çĲĥ
ç» į
æ® ĸ
åİ» ä¸ĸ
æĭį æĳĦ
å¤Ħ çĲĨ
æĺ¯ ä¸Ģä¸ª
æł ĸ
æµ·æĭĶ é«ĺåº¦
çģ Ń
ä¹ĭéĹ´ çļĦ
è¥¿ éĥ¨
å¤ĸ äº¤
å¹¿ ä¸ľ
ä¸ĭ çļĦ
éľ ĩ
æµ Ļ
201 7å¹´
201 2å¹´
åĪ¶ éĢł
éĵ ľ
201 5å¹´
èĥ½ å¤Ł
ä¸¥ éĩį
å¤§ ä¼ļ
å» ī
ç¦» å¼Ģ
ç« ¹
çļĦ åľ°
çĸ «
åŁº æľ¬
ãĢį (
å®Ĺ æķĻ
æģ ¶
æ± ½
å® ľ
è¿ ·
i g
ä¼ į
çºª å½ķ
é³ į
ä¸º ä¸»
ä½ľ çĶ¨
è¿ ¹
è¿Ļ ç§į
éĹ Ń
å¥ Ĺ
200 1å¹´
æĮģ ç»Ń
åĿ Ĺ
åģ ı
å°ı æĹ¶
ä» ĺ
è®¡ ç®Ĺ
201 3å¹´
è·¯ çº¿
200 9å¹´
18 9
t h
æī ¬
åħ±äº§ åħļ
äºĭ åĬ¡
åŃ Ķ
è¯¥ åĽ½
ç©º éĹ´
çļĦä¸Ģä¸ª å¸Ĥéķĩ
èµ ĸ
è¡ £
8 æĹ¥
è¿ İ
7 0
å°Ķ æĸ¯
æ³ ī
åĪ ļ
è¾ ħ
t he
å¸Į æľĽ
ä»» åĬ¡
çĽ® æłĩ
æŀ Ĳ
èĦ ī
ä¸ī ä¸ª
å¥¹ çļĦ
æ± ł
ç»Ł æ²»
æİ¥ å£¤
èª ī
ä¼ °
åı¦ å¤ĸ
æĸ¹ åĲĳ
æ¸ ¡
æģ Ĳ
ç¼ ĺ
æĸĩ çī©
ç¬¬ åįģ
ä¸ľ åįĹ
åĬŁ èĥ½
èĳ £
éļ ľ
å¼ ĥ
å¹´ çļĦ
åįķ æĽ²
éĺ¿ æĭī
ãĢ ī
ãĢ Ī
åĬłæĭ¿ å¤§
çº½ çº¦
å¢ ¨
éĶ¦ æłĩ
æĭ Ľ
äº «
è· ¨
è®¾ æĸ½
æľĪ åı°
èµ ¤
å¯ »
19 2
èµĽ åŃ£
èħ Ĭ
æĺ¯ çĶ±
åī ĳ
éĢı è¿ĩ
çĶ ĺ
äº ķ
ä¿ ±ä¹Ĳ
è§Ħ å®ļ
ä¸» æĮģ
éĶ ¡
éŃ ı
çĲĥ åĳĺ
éĢ Ĭ
ä¿±ä¹Ĳ éĥ¨
éĺ »
åĪĨå¸ĥ äºİ
ä»į çĦ¶
åįļçī© é¦Ĩ
éĢī åĮº
åıĺ åĮĸ
æĥ ł
åĲĪ å¹¶
è´ ¸
è§£ æĶ¾
åĽ½ çİĭ
çĳ Ł
ä¸Ģ æ¬¡
é¢ ģ
åħ¬ å¸ĥ
å·´ å£«
å¼Ģ æĶ¾
å¹¿ æĴŃ
åĨ ¬
åħĭ æĸ¯
ç» ĺ
å¦Ĥ æŀľ
åħĭ éĩĮ
äº ®
200 8å¹´
ä»ĸ åľ¨
èĤ ī
è¾¾ åĪ°
å®ŀ éªĮ
èµ ¢
ä¹Ł æľī
åĶ¯ ä¸Ģ
åİŁ åĽł
è ¸
å½ĵ ä¸Ń
éĢĲ æ¸Ĳ
æį ·
èı Į
åıĳ åĬ¨
éĥ¨ éķ¿
äººåı£ æĻ®æŁ¥
çĥŃ å¸¦
çº ²
åĦ¿ åŃĲ
ç» ¼
é©¬ æĿ¥
åĵ ²
çŁ ¿
è¿ŀ æİ¥
å½ĵ éĢī
4 5
æ¨¡ å¼ı
å¾ Ĳ
ç ¹
å¤§ åĮº
è¾ ŀ
ç¬¬ä¸Ģ æ¬¡
ä¸ľ äº¬
åı· çº¿
çģ ¾
èĴĻ åı¤
è¿ĲåĬ¨ ä¼ļ
å®ļ ä¹ī
i d
æľīéĻĲ åħ¬åı¸
o s
çĽ¸ å½ĵ
éĺ ´
èĽ ĭ
åĲĦ ç§į
è®Ń ç»ĥ
æ´ ŀ
ç¨ ³
ç»Ĩ èĥŀ
æ½ ®
çĽ¸ åĲĮ
r a
åĩ» è´¥
å¦ ĩ
åı Ļ
æ¼Ķ åĶ±
é£İ æł¼
å¤ª å¹³
çĬ ¹
å¤ª éĺ³
å¦ ¹
19 0
èĢħ çļĦ
ç¹ ģ
I N
æ° §
éģĵ è·¯
ä½ Ĳ
c t
æĪĲ ç»©
4 8
æļ Ĺ
æŃĮ æīĭ
æİ Į
T C
æĭ Ĵ
å¥¥ è¿Ĳ
æ» ĳ
åı¸ ä»¤
æģ ¢
çİ© å®¶
ä¸ĵ ä¸ļ
å¹¶ ä¸į
éĺ¶ æ®µ
äºº å£«
t er
éĴ ¢
è¥¿ åįĹ
åĢ Ĵ
202 5å¹´
åĨ ·
åĨ Į
æī¹ è¯Ħ
. ãĢį
è¥¿ åĮĹ
èĻ İ
çĲ ´
ä¸įåĲĮ çļĦ
ç§ Ł
å»º éĢł
ä¸Ģ æł·
è®¾ ç½®
äº§ åĵģ
ä¼ Ĳ
âĢ ĵ
åĬŀ åħ¬
è½¨ éģĵ
æĺ Ĥ
ç¨ İ
é© ±
ä¿ Ĺ
å¾ ½
äºİ 199
ä¸į è¿ĩ
è¡ĮæĶ¿ åĮº
çı ł
è¢« ç§°ä¸º
éº »
èī ĺ
å¥ Ī
éĶ Ļ
ç¡ ¬
åĿ ĳ
èĥĮ æĻ¯
åľ Ī
å®ļ çļĦ
å¹ ¼
åĳ ³
çĶ º
çĪĨ åıĳ
å½ ¼
æµĻ æ±Ł
åĪĨ éĴŁ
å°ı è¡ĮæĺŁ
æĤ £
çļĦä¸Ģ éĥ¨åĪĨ
éĺ ģ
èĳ ¡
å¢ Ļ
å½ ©
ä¼¦ æķ¦
ä¹ Ļ
9 0
åŃ¦ èĢħ
å¤§ æĪĺ
æµ ¦
æģ¢ å¤į
åºĶ çĶ¨
å¸Į èħĬ
ä¸ī åįģ
æĶ¹ éĿ©
çļĦ ä¸»
åį ĸ
æ¯į äº²
è§ ¦
9 æĹ¥
èº« ä»½
çº ¸
å¯ ¿
u m
3 6
éĥ¨ éĹ¨
èŃ¦ å¯Ł
æİĴ åĲį
ç¬ Ķ
å±± ä¸ľ
è± ª
åĽ °
æ® ĭ
é£ŀ æľº
i m
åĪ¶ åº¦
åī Ĥ
ä¸Ģ ä½į
éĿĴ å¹´
ä¸į èĥ½
èİ İ
è ķ
ä¿ ĥ
ä¸ĭ è¾ĸ
è¯Ħ è®º
è¿Ľ å£«
ç² ī
æĽ¾ ç»ı
æľĢ å¤§
âĢ ¦
æĬķ èµĦ
èĦ ļ
éĢ Ŀ
é«ĺ éĢŁ
ç½ĳ ç»ľ
i r
å¤ı åŃ£
o t
è£ Ĥ
è®° è½½
æ¡ £
æ¥ ļ
æµ ª
èµ ı
æ¢ ¦
å°Ĩ åħ¶
å¯¼ æ¼Ķ
3 8
åĮĸ åŃ¦
æ² ī
èµĦ æł¼
éĽ ¶
å¤© æ´¥
o d
å¹¿ å·ŀ
æĺ Ń
äº ¨
ãĢį ãĢģ
æŁ ±
æĭ Ł
å¾Ī å¤ļ
åģ ¶
åĨ Ī
å° Ĭ
çĶµè§Ĩ åı°
å¸® åĬ©
åįļ å£«
éĤ Ģ
çļĦ æĸ°
çĽ Ĳ
200 7å¹´
å¼ ±
è® ·
çĸ Ĩ
åı «
ç¬¬ äºĶ
éĻ ·
åħ¨ éĥ¨
åĪĨ åŃĲ
å´ ĩ
æģ ĭ
ä» Ļ
æ¶ ħ
çĭ ±
ç Ĵ
è¯ Ĭ
at ion
3 7
ç¾¤ å²Ľ
äºİ 18
éĿ Ļ
å¥¥ æŀĹ
ä»» åĳ½
éĻĨ åĨĽ
åĨľ ä¸ļ
æĿĤ å¿Ĺ
æ± Ĺ
ç» ķ
åŁº çĿ£
é ¤Ĳ
I n
çļĦ çī¹
ä¸į ä¼ļ
åħ¬ å°º
æķ´ ä¸ª
åĲį åŃĹ
è£ Ķ
v e
åĲ ķ
ç®Ģ ç§°
çĶ· æĢ§
ç«ĭ æ³ķ
æ¶ ²
è ļ
å¤ļ æ¬¡
ç¥ Ń
é¢Ĩ åŁŁ
èµ¢ å¾Ĺ
å»º è®®
åıĬ åħ¶
è´Ŀ å°Ķ
ä½ľ å®¶
é¼ ĵ
ç¬¬äºĮ æ¬¡
ä¾ ¯
æ ©
è¿ŀ ç»Ń
åĪĨ æŀĲ
è¡¨ æ¼Ķ
çĸ ¾
ä¼ ´
ä¼ Ł
åįĹ äº¬
i a
ä»ĸä»¬ çļĦ
éĶ¦æłĩ èµĽ
åĲĮ æł·
èĻ ĳ
å¹¿ åľº
å¥¥æŀĹ åĮ¹
æĢ» äººåı£
ç»ı å¸¸
åĩº çļĦ
åĪĻ æĺ¯
ä¸ ĺ
åĽĽ å·Ŀ
åĮº ä¸º
åħĪ åĲİ
åıĳ å°Ħ
ä¸Ń éĥ¨
äºī è®®
5 00
åĩ ¤
å¹ ħ
åľ° ä¸ĭ
é¢ ľ
éĥ Ń
åľ° çĲĥ
æĭ Ĩ
çī §
çŃī äºº
éĢŁ åº¦
æĪª èĩ³
è®° å½ķ
è®¾ å¤ĩ
é© ¶
ç¦ı å»º
äºº ä»¬
ç»´ å°Ķ
æĲ Ń
åĩº ä»»
ä¿Ŀ æĮģ
åľ°åĮº çļĦ
æĿ¡ ä»¶
å¼ķ èµ·
æ°´ åŁŁ
200 6å¹´
ç» ª
æĭī æĸ¯
çľģ çļĦä¸Ģä¸ªå¸Ĥéķĩ
è§Ħ åĪĴ
æĹ¥ åĨĽ
ä¼Ĭ æĸ¯
æŁ ¯
æ²³ åįĹ
åıĤ èµĽ
ä¿¡ æģ¯
éģŃ åĪ°
å¹³ åı°
å±ħ ä½ı
å¤ı ä»¤
å¤ļ çļĦ
è¯¥ åľ°
é£ŀ è¡Į
U TC
åĤ ¨
ç»Ł è®¡
è¢Ń åĩ»
åĨħ éĥ¨
çĽ¸ å¯¹
å¹¿ æ³Ľ
èĻ «
çī© çĲĨ
è¿ĩ åİ»
æķĻ åłĤ
å®ĺ åĳĺ
è¶Ĭ åįĹ
S T
èĩ³ ä»Ĭ
ä¸Ģ æŃ¥
æĪĺ å½¹
200 5å¹´
æĭĴ ç»Ŀ
èĶ ¡
æĸ¯ ç§ĳ
å¤ļ ä¸ª
æ£ Ĵ
èĭ± æĸĩ
è´¸ æĺĵ
åħ ģ
è§ Ī
æłĸ æģ¯
çĵ¦ å°Ķ
å¥¥æŀĹåĮ¹ åħĭ
åŁİ åĮº
èĲ Ħ
æ¯Ķ äºļ
èĳ¡ èĲĦ
å¹ ¸
æĺİ æľĿ
ç³ ĸ
åĦ¿ ç«¥
a g
æµģ è¡Į
æľĢ æĹ©
åĩ ½
å¡ŀ å°Ķ
ç§ ¦
æ· ¡
åıĸ ä»£
æľĪ2 1
æĹ ģ
é¢ĳ éģĵ
æ¼« çĶ»
é¥° æ¼Ķ
éĻ ¶
è¿ Ŀ
ç¾İ æ´²
æľª èĥ½
æ³¢ åħ°
ç»ı åİĨ
è¡Ĺ éģĵ
æ± ¤
ç¢ ĳ
çļĦ ä¸»è¦ģ
æľĪ2 2
åĩł ä¹İ
æĮ ĳ
å·´ é»İ
æ¦Ĥ å¿µ
èĻ ļ
é ŀ
å®ŀ çİ°
æĮ ¯
âĢĿ (
ç½ĳ ç«Ļ
å¤Ħ äºİ
æľĢ å¤§çļĦ
å·¦ åı³
é¾ Ħ
çĦ¶ åĲİ
è®° èĢħ
å®ŀ æĸ½
åįı åĬ©
å® ¿
åĩı å°ĳ
æĶ¹ åıĺ
èİ·å¾Ĺ äºĨ
è§Ĩ ä¸º
è· ĳ
ä¾ į
è¿ Ī
æ® Ĭ
è½¦ è¾Ĩ
èĳ ¬
åľ° éĵģ
ä¼ ¸
éķ¿ æľŁ
å±ķ å¼Ģ
çĨ Ļ
åĪĨ ç±»
çļĩ å¸Ŀ
è¿Ĳ è¾ĵ
æĺ Ĩ
ç§ĳ æĬĢ
å¤§ éĥ¨åĪĨ
èĭ± æł¼åħ°
åĩºçĶŁ äºİ
éķ¿ çļĦ
å½± çīĩ
ç±» åŀĭ
o p
ä¼ļ åľ¨
ä¹ ĥ
èĮ ¶
çĬ¶ æĢģ
çļĦæĹ¶ åĮºä¸º
æ¯Ķ è¾ĥ
éģ į
ç¬¬ ä¸Ģä¸ª
ç»ı èĲ¥
åįł é¢Ĩ
åİ¿ çļĦ
åī§ æĥħ
æ¾³ éĹ¨
çº¿ çļĦ
æĬķ ç¥¨
ç»§ æī¿
å® ħ
ä½ľ æĪĺ
çĥ §
åĽ½ çļĦ
æ²» çĸĹ
æŃ¦ åĻ¨
éĻĲ åĪ¶
3 4
åįģ ä¸Ģ
b r
ä¸ļ åĬ¡
åŁº äºİ
èį· åħ°
çŃ ¹
è§£ åĨ³
çº ¯
å¤© ä¸»æķĻ
çĩ ĥ
èĪ° éĺŁ
å¨ģ å»ī
è½ °
åĴĮ å¹³
å¦ ®
éĶ ®
å®£ ä¼ł
l i
çº¿ è·¯
åĭ ĭ
çı į
S E
çģ ¯
åľŁ åľ°
åİ ¦
åĩĨ å¤ĩ
u b
ç´ ¯
éĽ ķ
å² Ń
åĿ Ľ
èµĦ æºĲ
T he
è¾ ½
éļ Ĳ
æĬ ĺ
çļĦ æķ°æį®
åĭ ĩ
3 9
åĩº äºĨ
è¡ ¡
s e
ä½ĵ çļĦ
a y
æĸ¹ æ¡Ī
èı ľ
æĿ¥ æºĲ
ç»Ł ä¸Ģ
è¯Ħ ä»·
çĤ İ
è¯ķ åĽ¾
é½ ¿
æ¸ħ æľĿ
çĶµè§Ĩ åī§
å³ ¡
æ±½ è½¦
åİŁ æľ¬
I I
æ¾³ å¤§
å¤§ çº¦
å®ĥ ä»¬
æĸ¯ çļĦ
åħ´ å»º
åŃ Ł
åħĦ å¼Ł
çļĦ æĥħåĨµ
éĵģ éģĵ
éĢī æīĭ
äºº åľ¨
çł´ åĿı
ãĢįãĢģ ãĢĮ
éģ £
é©¬æĿ¥ è¥¿äºļ
åįı è®®
ç£ ģ
æīĢ åľ¨
èĲ §
éĤ® æĶ¿
7 5
çĲ ³
åĽŀ åĪ°
C h
è½ ´
æķ ¬
éļı èĳĹ
åĶ± çīĩ
ä¸º æ¯ı
è¿Ľ ä¸ĢæŃ¥
å£ ģ
åĪĿ æľŁ
çļĦ å½±åĵį
è¿Ĳ è¡Į
. .
4 6
é¥ ®
ä¸» è§Ĵ
æĽ ¹
è ¦
æĶ¹ ç¼ĸ
çĬ¹ å¤ª
æħ Ī
ç® Ń
è¿Ľ æĶ»
èĩª åĬ¨
å¹ »
è¡ Ķ
å¨ ±ä¹Ĳ
è¿ĺ æĺ¯
ç²¾ ç¥ŀ
æķ ı
å°ı åŃ¦
èµ ł
ç»´ æĮģ
éĴĪ å¯¹
ä¸Ń æĸĩ
è§Ĥ ä¼Ĺ
æ¢ °
åŁº éĩĳ
e m
è´ ¤
æ² Ī
åı Ľ
è¿Ľè¡Į äºĨ
åŁİ éķĩ
æľº è½¦
18 8
å¤§ æ¥¼
çĶŁ äºİ
ç»Ħ åĲĪ
ä» Ķ
æĢ» éĿ¢ç§¯
è¿Ĳ èĲ¥
è´ ¾
ä¸» é¢ĺ
äººåı£ æķ°éĩı
åľ¨ æŃ¤
è¾ Ĳ
ä¸į ä¹ħ
éĶ ĭ
ç¯ ®
çī¹ å¾ģ
çľģ çº§
å§ Ĳ
æŃ£ åľ¨
çº ¹
å¤ªå¹³ æ´ĭ
. ãĢĬ
éĥ¨ ä»½
åĬł ä¸Ĭ
å·ŀ çļĦ
èĹ ¤
è¢« è®¤ä¸º
çģ °
äº¤ æĺĵ
o c
v er
éĿ¢ çļĦ
ç©º åĨĽ
ç»¼ åĲĪ
åĨ ¯
å¤§ åŀĭ
è´Łè´£ ç®¡è¾ĸ
åıĮ æĸ¹
éĤ ĵ
ç¡® å®ļ
éĻ ķ
æ¾³å¤§ åĪ©äºļ
èµ ´
æķĻ ä¼ļ
% .
çŃ Ķ
æľī çļĦ
è§£ éĩĬ
ç¾İåĽ½ äººåı£æĻ®æŁ¥
è¯ģ æĺİ
åĽ¾ ä¹¦
ä»· åĢ¼
è¿Ķ åĽŀ
èĳ£ äºĭ
è¦ Ĩ
åĲį åįķ
åİ ļ
æīĢ å±ŀçļĦ
å¾· éĩĮ
æĦŁ æŁĵ
åĪ Ģ
ç¨ĭ åº¦
äºĳ åįĹ
ä» °
3 2
æ³ ³
è° ±
æ¹ĸ åįĹ
æ³ķ åħ°
ä¸» æ¼Ķ
çļĩ å®¶
æ²³ æµģ
çĥ Ł
åĢ į
å°ı ç»Ħ
çİĭ æľĿ
çļĦ åīį
åħĥ ç´ł
å¼ķ åıĳ
å°Ķ å¾·
å¥³ åĦ¿
åĩ Ń
ä¿Ŀ çķĻ
çº µ
a p
æĹħ æ¸¸
æľ ĭ
æ¨¡ åŀĭ
é¦ĸ éĥ½
åħ¬ åħĥ
å¸¸ è§ģ
è¶ħ çº§
é ¬
æĺ¯ ä¸Ģç§į
è´¢ æĶ¿
èĴ ĭ
æ² Ł
ä¸´ æĹ¶
äººåı£æķ°éĩı ä¸º
åĩº èº«
çķ ª
åĬł åĿ¡
u t
å¤© æĸĩ
æī¹ åĩĨ
é«ĺ çº§
åĨ² çªģ
åĽ½ éĺ²
ç½ ķ
è®¨ è®º
å° ĸ
åĬĽ éĩı
æĺ¯ åĲ¦
ç¬¬ åħŃ
20 ä¸ĸçºª
ä½Ľ æķĻ
åĽ½ ä¼ļ
çĳŀ å£«
åĲĮ æĦı
åĽ½æ°ĳ åħļ
åĽ½ åĨħ
æ¯ı å¹´
éĩįè¦ģ çļĦ
äºĨ ä¸Ģä¸ª
çłĶç©¶ æīĢ
åı ¥
éĿ ĸ
æľº åħ³
3 00
è¶ £
é© ¾
å¹´ è½»
å¤§ èĩ£
æ¡ ĥ
è®® éĻ¢
200 4å¹´
ç»ĵ åĲĪ
çļĦä¸Ģ ç§į
åĩ ¡
äº§ ä¸ļ
å·ŀ å¸Ĥ
è¾ ī
äºĮ ä¸ĸ
è· ³
æĸĩçī© ä¿ĿæĬ¤
åĬĽ çļĦ
æĸ° åĬłåĿ¡
æŁ ´
è¿ ħ
æĽ¾ åľ¨
å¤ĸ çļĦ
åİ¿ çļĦä¸Ģä¸ª
æŃ¦ è£ħ
æĹ º
åĽ½ ç«ĭ
æĻ® éĢļ
ä¸Ĭ æĺł
200 0å¹´
ç¼ ĵ
çĨ Ł
ä¸ª æľĪ
éĽĨ ä¸Ń
ç§ĺ ä¹¦
å»º æĪĲ
ä¸Ģ å¹´
åŁ Ķ
æ°Ķ åĢĻ
åįģ ä¸ī
æİ ª
æĸ¯ åŁº
è§£æĶ¾ åĨĽ
å¤§ ä½¿
ç¥ ¥
éģ Ĥ
æĺŁ æľŁ
å¥½ çļĦ
æ §
æĶ¶ åħ¥
åıĸ æ¶Ī
ç¼ĸ åı·
äºº æķ°
åľ¨ ç¾İåĽ½
æ½ ĺ
å°Ķ çļĦ
ä¸ĸçķĮ å¤§æĪĺ
æĸĩ ä»¶
æĬķ åħ¥
å¿« éĢŁ
æī¿ è®¤
an s
è¥¿ æ´ĭ
åı¯ è¾¾
èŃ¦ æĸ¹
an t
éĿŀ æ´²
( "
æĢ» éĥ¨
å·´ è¥¿
ç»´ äºļ
ãĢģ ãĢģ
èĩ³ å°ĳ
æł¸ å¿ĥ
é¹ ¿
å¿ Ĩ
å¤§ å¤ļæķ°
éļı çĿĢ
æĸĩçī©ä¿ĿæĬ¤ åįķä½į
è ©
6 5
ä» ĵ
æĿ¡ çº¦
4 7
åĭ ¤
é£İ æļ´
åĽ½ åĬ¡
ä¹ ı
èĭ Ĺ
ä¸į æĸŃ
èĥľ åĪ©
è¿Ļ æł·
ä¸į å°ĳ
èī² åĪĹ
æĢ» çĲĨ
èĭ± è¯Ń
æĸ¯ åħĭ
èĳĹ ä½ľ
c e
åŃ Ŀ
åİ Ħ
19 1
ç¼ ħ
åĪĽ ç«ĭ
æ³ Ĭ
åŃĲ çļĦ
éĩį å»º
9 æľĪ2
10 æľĪ2
è© ¹
æĹ¶ ä»»
ç§ Ĵ
ä»İ äºĭ
å¥¥æŀĹåĮ¹åħĭ è¿ĲåĬ¨ä¼ļ
æľª æĿ¥
æľī æķĪ
å¥¥ æĸ¯
è®¿ éĹ®
åĽ¢ éĺŁ
o g
è´ ¯
çĮ İ
çĹħ æ¯Ĵ
åħ¬ æ°ĳ
è¥¿ çľģ
æ°ĳ ä¼Ĺ
åįĬ å²Ľ
æ±Ł èĭı
ä¸Ģ åº§
çļĦ å¸Ĥéķĩ
èİ ²
ä¸ŃåĽ½ äººæ°ĳ
æĶ¶ å½ķ
æħ ķ
åħģ è®¸
é©¬ åħĭ
å¹´ åº¦
æĴ Ĵ
èĳĹ åĲį
3 3
ç ŀ
æµĭ è¯ķ
èĳ Ľ
è°ĥ æķ´
åĮĸ çļĦ
æĻ ¨
ä¼ ı
ç¨ĭ åºı
çĵ ľ
éĥ½ ä¼ļ
å°ĳ å¹´
ä¹Ĳ åĽ¢
åĢ ¾
18 7
ä¸Ģ ä¸ĸ
æµ· å²¸
çİĭ åĽ½
èĽĭ çĻ½
ç»ĵ å©ļ
éļ¶ å±ŀäºİ
æĻ ¶
éĥ½ æľī
u l
ç¬¬ ä¸ĥ
çĶµ èĦĳ
åģľ æŃ¢
çĶ¨ æĿ¥
æ¢ ¯
é«ĺ çŃī
ä»¥ ä¸Ĭ
æħ ¢
åĵĪ å°Ķ
çļĦ çłĶç©¶
am p
éĺ¿æĭī ä¼¯
èĥ ģ
æİ¥ è¿ĳ
ä¸ĭ åįĪ
èĢĥ èĻĳ
è¡ĮæĶ¿åĮº åĪĴ
å±± èĦī
äºİ 198
è´ º
å°¤ åħ¶
æ®ĸ æ°ĳ
åĩ Į
æĢĿ æĥ³
çĶµ åı°
ä¸ŃåĽ½ åħ±äº§åħļ
çĽ´ èĩ³
èĹ ©
åĳ¨ è¾¹
æĸ° å¢ŀ
ä¸Ģ å¸¦
éĤĢ è¯·
æµ ®
å§Ķ ä¼ļ
åĮ» çĸĹ
ä¸į åı¯
èµ· æĿ¥
åħ³ æ³¨
ä½¿çĶ¨ çļĦ
ç´ «
åįģ åħŃ
ç¡ ķ
é¬ ¼
6 4
å¦Ĥ ä¸ĭ
çĶ³ è¯·
æĥ Ĭ
èħ ¹
in d
è§Ĥ å¯Ł
åĿ İ
åįģ äºĶ
æĺİ æĺ¾
åĨį åº¦
ç¥ĸ çĪ¶
æĶ¿ åħļ
5 5
åįģ åĪĨ
çĽ¸ ä¼¼
è¯¾ ç¨ĭ
å¡ ĳ
èĬ Ŀ
ä¹Ķ æ²»
åĮ Ī
æĢ ª
ä¿ Ĭ
åĲĪ çī©
å®ª æ³ķ
è¡¨ è¾¾
åħ±æľī äººåı£
åħ¥ ä¾µ
å£« åħµ
ä» ²
å®ī æİĴ
æĴ °
åĲ ¨
èĭ ¦
æ¯ķä¸ļ äºİ
a k
åĬ ±
ç½ ļ
åĪ° è¾¾
äººæ°ĳ æĶ¿åºľ
A T
å¨ģ å°Ķ
å¥ ´
æĶ¯ æı´
ç§» åĬ¨
åŃ¦ æľ¯
æ³ ¥
æĴ ŀ
ä¸į åĨį
18 6
3 æľĪ2
éĶĢ åĶ®
å± ¿
åĢĻ éĢī
æĿ ī
è·¯ æĺĵ
çĽ Ĺ
% ,
æĭī åħĭ
ç¦ Ħ
éĩį çĤ¹
çĶ¨ çļĦ
æĹł çº¿
è¯ ¦
ä¸ §
ä¼Ĭæĸ¯ åħ°
å Ĺ
12 æľĪ2
åºĶ è¯¥
çĨ Ĭ
âĢĿ ãĢģ
, ãĢĬ
æĹ ¨
è¥¿ åĵ¥
çī¹ çļĦ
8 æľĪ2
ä»¥ èī²åĪĹ
ç¢ į
çļĦæĹ¶ åĢĻ
çİ° è±¡
å¦» åŃĲ
éģĹ åĿĢ
çĹ Ľ
ä¸º æ³ķåĽ½
çĶ¨ æĪ·
åıĺ æĪĲ
ç² Ĵ
åľ° åĪ©
èī² çļĦ
çĮ ª
å°± è¯»
åı¯èĥ½ æĺ¯
éĩĳ å±ŀ
æĹ§ å¸Ĥéķĩ
6 æľĪ2
æĬµ è¾¾
åįģ åĽĽ
æĿĲ æĸĻ
æĹ© å¹´
é ī
éĤ®æĶ¿ ç¼ĸçłģ
ä¹ ³
æĢ» çĿ£
è´¨ éĩı
éĺ ħ
æıĲ åįĩ
ä¸į æĺİ
çĦ ¦
4 9
æŀĦ æĪĲ
å°ĳ æķ°
åįģ åħ«
åīį çļĦ
èģĮ åĬ¡
a b
åº Ĭ
è· ĥ
çĩ ķ
å®ī è£ħ
æŁ ³
ç¨³ å®ļ
åį« æĺŁ
å½ Ń
20 æĹ¥
æ± ¡
äººåı£å¯Ĩåº¦ ä¸ºæ¯ı
é«ĺ çļĦ
éĢĿ ä¸ĸ
å·¥ åİĤ
ar d
æŁĲ äºĽ
æ¯Ķ åĪ©
30 æĹ¥
å± ı
å¹´ ä»£
æ¡ Ĥ
é Ħ
èĪ Ĵ
ä½ĵ ç³»
æģĴ æĺŁ
æĬ ļ
çī© è´¨
åĴ ¸
é¡ µ
å¡ ĺ
å»º äºİ
å¤± åİ»
ä»ª å¼ı
åĿ Ĭ
SE E
å¥¥ åľ°åĪ©
éī ´
200 3å¹´
éĻĨ åľ°
äºİ19 7
åĩ½ æķ°
åĩº åı£
ç¤¾ åĮº
çĶ ¸
ç§ĳ çļĦ
åĪĽ åĬŀ
ãĢģ (
æİ ī
éĶ ģ
éĺŁ çļĦ
å¢¨ è¥¿åĵ¥
æĸ¹ çļĦ
å»º åĪ¶
ä½¿ å¾Ĺ
åĲ ĥ
æľĭ åıĭ
è° ĵ
æĲ ľ
æĵį ä½ľ
æİ¥å£¤ çļĦå¸Ĥéķĩ
è¯ ļ
æĸ ĳ
æĸĩ ç«ł
èĲ¨ åħĭ
IN SEE
äºĭ ä¸ļ
æĦı è¯Ĩ
æĻ® éģį
æ°§ åĮĸ
, âĢľ
çº ¬
ç ĺ
çļĦ å°ı
ç§» æ°ĳ
æ¯ı å¹³æĸ¹åħ¬éĩĮ
ç¿» è¯ĳ
4 æľĪ2
å¨ģ èĥģ
æ¯ı ä¸ª
å¾Ĺ ä»¥
èĤ ĥ
å°ļ æľª
åĬŀåħ¬ å®¤
æľĪ1 5æĹ¥
å¹¿ åĳĬ
7 æľĪ2
åħ¥ åı£
æĹł äºº
æ¡Ī ä»¶
è¯ ŀ
åŀ Ĵ
æĹ ¢
æĮ Ĥ
æľº æ¢°
t o
èĥ ¶
éļ §
å¹³ éĿ¢
æĪĸ èĢħ
( ;
çĬ¶ åĨµ
æ¶Ī æģ¯
å¦Ĥ æŃ¤
ä¼ļ çļĦ
éģĹ äº§
åı¬ å¼Ģ
4 4
ä¸¤ äºº
äº¤ æµģ
å¾ ª
è¡¨ æĺİ
æĦı ä¹ī
æ°ĳä¸» åħļ
æĮĳ æĪĺ
200 2å¹´
10 æĹ¥
å¯¹ æīĭ
æıĲ é«ĺ
å¼ ĺ
èģĶåĲĪ åĽ½
çľĭ åĪ°
åĭ ĥ
è¯´ æ³ķ
æķ° åŃĹ
èģĶ ç³»
çķ Ķ
åĽ¾ä¹¦ é¦Ĩ
æħ §
ç¦ģ æŃ¢
åħ¥ éĢī
åĮĹ ç¾İ
ä¸į è¶³
èº« ä½ĵ
æłĩ å¿Ĺ
ç¬¬ 1
å¤Ħ çļĦ
çĲĥ åľº
åģ¥ åº·
æĭ ĵ
å² ³
å¸ĥ æĭī
åĪĽ éĢł
å± ¯
èĳ¡èĲĦ çīĻ
ç¥ Ŀ
ç±³ å°Ķ
è¢ ĸ
åıĳ çĶµ
åľŁ èĢ³
ä¹ ¾
çº ·
ä¸¤ ç§į
æ£® æŀĹ
æĪ Ĵ
äººåı£å¯Ĩåº¦ æ¯ıå¹³æĸ¹åħ¬éĩĮ
åľŁèĢ³ åħ¶
n e
åŃĹ æ¯į
æį Ĳ
æ° ¢
i e
ç® ±
èĩªæ²» åĮº
å¤± è´¥
å¸Ĥéķĩ ç¼ĸçłģ
ãĢ İ
çī¹ æ®Ĭ
åĮ» åŃ¦
ãĢ ı
åħ ½
çĳŀ åħ¸
çļĦ é¦ĸ
åį ĳ
äºİ æĹ¶çļĦ
ç±³ çļĦ
åĪĹ ä¸º
æ£ ĭ
ä¸Ģ åĲĮ
äººåı£å¯Ĩåº¦ä¸ºæ¯ı å¹³æĸ¹åįĥç±³
åĲĮ ä¸Ģ
æĻ ĵ
å½ĵåľ° åħ±æľīäººåı£
çĶŁ åĳ½
æ²³ åĮĹ
äºº å¤§
åľ ³
èĩª è¡Į
åį ¿
æµ ħ
ä¸ľ è¥¿
é«ĺ ä¸Ń
å»¶ ä¼¸
å¼º è°ĥ
éħĴ åºĹ
çľģçº§ éĢīåĮº
æīĢå±ŀçļĦ çľģçº§éĢīåĮº
å¸ĥ é²ģ
åį« çĶŁ
å¹¶ æ²¡æľī
çľģ åĴĮ
åĬ¨ åĬĽ
åĲĦ åľ°
ç¼ĸ è¾ĳ
å¥ĸ é¡¹
ä¸Ń å±±
11 æľĪ2
çĽ® çļĦ
éľĢ æ±Ĥ
åĳ½ ä»¤
éģ¿ åħį
6 8
æĬ¥ å¯¼
åıĹ ä¼¤
èĲ¥ è¿Ĳ
ä¼° è®¡
è½° çĤ¸
åıĪ ç§°
ç¼º ä¹ı
æľ¬ åľŁ
è¿ħ éĢŁ
æĹ ¦
åıĳ èµ·
ä¸Ģ å®¶
æµ· åŁŁ
R e
æī °
18 æĹ¥
æĲ ¬
æ³¨ æĦı
æ¬¢ è¿İ
æĶ¿ æĿĥ
éĩĮ çļĦ
ä¸» å¼ł
åİĨåı² ä¸Ĭ
å¹¶ æľª
éĥ Ĭ
åī ©
äºİ19 4
è¾¾ æĪĲ
æĸ¯ å¡Ķ
åĲ¸ å¼ķ
çĹĩ çĬ¶
ä¿¡ åı·
æı Ĵ
é² į
åĸ Ģ
å¤ĸ åĽ½
çŁ¥ éģĵ
è§Ħ åĪĻ
åĽĽ ä¸ª
ä»ĭ ç»į
S A
äºº åĴĮ
å®ī å¾·
ä¹ĺ å®¢
éĩĳ èŀį
æķĻ ç»ĥ
å¿ĥ çĲĨ
æĿ Ĩ
æĴ¤ éĶĢ
çİ »
ä¾ ¦
éľ ¸
ä¸ ²
is t
å°¼ æĸ¯
è´ ŀ
åı¯èĥ½ ä¼ļ
æķ° åŃ¦
éĥ¨ èĲ½
å´ İ
å¸Ĥ çļĦ
ä¹Ł åľ¨
æĽ´ åĲįä¸º
31 æĹ¥
T V
an g
ç¬¬ 2
5 æľĪ2
éĵ ¾
æĦŁ åĪ°
åħ¬ ä¼Ĺ
æ¬ ²
å½¼ å¾Ĺ
èĥ İ
æķĪ åĬĽ
A n
äºĭ å®ŀ
4 00
çĶŁ éķ¿
å°Ķ åħ°
æķĻ å¸Ī
ä» ¿
éĩĩ åıĸ
æİ¨ åĬ¨
æķĻ åŃ¦
es t
æµ ĵ
è ¹
åįĹ åĮĹ
èĳĹ åĲįçļĦ
å¤§ è¥¿æ´ĭ
èµĦ è®¯
è´Ń ä¹°
ä¿¡ ä»°
æī§ å¯¼
æŀ ¢
é¼ ł
ä¸Ńåħ± ä¸Ńå¤®
æĸ¯ èĴĤ
çļĦä¸Ģ åº§
è¯ ¢
çļĦ æĸ¹å¼ı
ä¼ Ļ
ç¥ŀ ç»ı
åľ¨ 199
å½ »
èĽ ĩ
åį ĵ
æĶ¾ å¼ĥ
åŁº åľ°
çİ° åľº
æĬ¥ éģĵ
12 æĹ¥
æĴŃ æĶ¾
19 æĹ¥
éĩį åºĨ
åĵģ çīĮ
çļĦ åĲĮ
2 æľĪ2
åįģ åŃĹ
âĢĿãĢģ âĢľ
å¤§ éģĵ
æ³ķ æ¡Ī
ç¨ĭ å¼ı
åıĤ èĢĥ
çļĦ ç¬¬ä¸Ģ
è´¡ çĮ®
æĭ ³
ç½ĳ è·¯
åĩº æĪĺ
æīĵ åĩ»
åĳ½ åĲį
å£ ®
èĭ± éĽĦ
å®¹ æĺĵ
) ;
11 æĹ¥
ç¬ ĳ
åİ ĺ
åĨĽ çļĦ
æ³° åĽ½
åįĹ æŀģ
ç§¯ æŀģ
æĵ İ
æĬĹ è®®
åĸľ æ¬¢
åĽ½åĬ¡ éĻ¢
ä¸Ģ åº¦
æı Ń
åī ²
äºĭ æķħ
ä¸Ģ æĿ¡
ä¹Ŀ é¾Ļ
å¤º å¾Ĺ
çī ł
è¯ģ æį®
äºİ19 6
æĢ§ è´¨
æİ¥ è§¦
äº Ń
éĺŁ ä¼į
N A
æ´ Ĺ
åį ľ
è£ħ çĶ²
æī ®
å° Ŀ
èµ Ĳ
å¤ļ ç§į
çŁ¥ è¯Ĩ
å±Ĭ åħ¨åĽ½
åį¡ å°Ķ
èĤ º
äºİ19 5
çĶŁ æĢģ
å¼º çĥĪ
æ¹ĸ åĮĹ
çª Ĺ
èĬ ³
æĮ ª
å®ī å¾½
å±ķ ç¤º
çĸ ı
å¤į æĿĤ
èĢĮ è¢«
æ¶ī åıĬ
æĽ´ å¤ļ
æľ¬ èº«
ä¸ĸçķĮ æĿ¯
çł ²
å®Į æķ´
èı² å¾ĭ
æĿĥ åĬĽ
çļĦ åİŁ
éĩĮ äºļ
èı²å¾ĭ å®¾
äºº å·¥
æĿ Ń
è¥¿ æĸ¹
å¸Ĥ åĮº
ç»´ å¥ĩ
ç¾½ æ¯Ľ
çİ Ħ
ä¸ĩ ç¾İåħĥ
åħ¬ ä¸»
çĪ± å°Ķåħ°
è´ «
èį¯ çī©
æĬ ¢
åħ¶ å®ĥ
ç¾İ æľ¯
åħī ç»ª
ä¸į å¾Ĺ
èĢĮ æĪĲ
æĸĩ çĮ®
æĿĳ åºĦ
æĦı è§ģ
è± Ĩ
éĢ Ĵ
ä¸ī å¹´
éĵ º
5 8
ä»Ģ ä¹Ī
1 æľĪ2
æ¸ Ķ
å¸Ĥ æ°ĳ
å¼ķ æĵİ
éĢ Ĩ
åĨħ éĺģ
in e
åŁĥ åıĬ
å£ ³
æĿĥ åĪ©
æĹħ å®¢
å« Į
è´ ´
é«ĺ éĽĦ
çļĦ éĩįè¦ģ
åŃ¦ ä½į
æ¹ ¿
t e
æĬ ½
é¢Ĩ åľŁ
çĬ ¬
å®¢ è¿Ĳ
çĪ¶ æ¯į
ç®Ģ åįķ
çļĦ æµ·
å¾ĭ å¸Ī
æº ¶
æİĪ äºĪ
æİª æĸ½
è¡¨ éĿ¢
æĭī ä¸ģ
éĽ ĩ
æľº ä¼ļ
çĮ «
æľĢåĲİ ä¸Ģ
ç®Ģ ä»ĭ
æ°ĳ éĹ´
å¦ ĥ
ä¹¾ éļĨ
åĴĮ åħ¶ä»ĸ
éķ¿ åº¦
èŀ º
èĤ¡ ä»½
æķĪ æŀľ
çŃ¾ ç½²
èģ ĺ
è±¡ å¾ģ
å¯ Ħ
ç² ®
åıĳ åĶ®
èį£ èªī
æĸ¯ æĭī
åľ° éľĩ
ä¼ł è¯´
å° ī
éĻį ä½İ
å£° ç§°
o b
é£ ĵ
æ·± åľ³
æĤ ¬
å½¢ è±¡
åħĭ ç½Ĺ
l y
äºļ åİĨ
ç¡® è®¤
ç¡® è¯Ĭ
4 2
ä¹Ł è¢«
å¦Ĥ ä½ķ
å· §
åĽł ç´ł
æĿ¥ åĪ°
åħ¨ éĿ¢
æ°´ å¹³
ç¢ ³
æĮī çħ§
çĬ¯ ç½ª
é£ĵ é£İ
çĽ ¾
åıĳ åĩº
çĪĨ çĤ¸
åı Ķ
è¿ Ł
æľĪ1 6æĹ¥
å°ı çļĦ
é¢Ĩ è¢ĸ
åĮ» çĶŁ
ç«ŀ äºī
è¢ ģ
çħ ¤
t w
æľī æīĢ
åĩºçİ° åľ¨
å·® å¼Ĥ
åŃ¦ ä¼ļ
ä¼ł æĴŃ
ç¨ ¿
å® ı
æ´ ģ
ä¸ĵ éĹ¨
æľĪ1 7æĹ¥
6 7
ä¸ Ī
æĸ ľ
æĸĩ åŃĹ
ä¼Ĭ æľĹ
åıĻ åĪ©äºļ
ç¾ Ĭ
åı¤ ä»£
æ°Ķ è±¡
ä¸ Ļ
å·¥ åħ·
ä¹¡ è¯ķ
åŁºçĿ£ æķĻ
O S
åĲİ æľŁ
æ¯« ç±³
èµĦ éĩĳ
Â °
åı° åįĹ
éļ§ éģĵ
= "
æĪı åī§
çī µ
èĨ ľ
èħ ¾
å½ĵæĹ¶ çļĦ
é«ĺ äºİ
èµ· æºĲ
æĬ ¼
å° ¸
åıª æĺ¯
å°ļ ä¹¦
æ²³ çķĶ
æįŁ å¤±
æľĪ22 æĹ¥
ï ½
çļĦ åľ°æĸ¹
åĨ Ĵ
å¡ «
ç»Ļ äºĪ
åıª èĥ½
è¾¹ çķĮ
åı°åĮĹ å¸Ĥ
é³į é±¼
å¸Ī èĮĥ
çĸ¾ çĹħ
è¾ ©
ä¸º ä¸Ģ
çĽ¸ æ¯Ķ
åĿ¦ åħĭ
ä¸į æ»¡
ç»ı éªĮ
å°Ķ çī¹
éĿ¢ å¯¹
çĲĨ äºĭ
è¡ į
å¹¶ éĿŀ
18 5
o k
å¥ ĳ
è£ ķ
éĴ ¦
B C
a v
ä½ľ æĽ²
äº¨ åĪ©
ä» ĳ
è¡ °
å§ »
ä¸ľ åĮĹéĥ¨
åĩº å¸Ń
æ° Ł
ç½ ¢
æľ¬ ç«Ļ
è¸ ª
åĪĹ è¡¨
éĢĢ å½¹
å·¡ åĽŀ
æľĪ1 4æĹ¥
å²ģ çļĦ
åĪĽ å»º
é¸ ¡
æĺİ æ²»
çĻ» éĻĨ
æĢ§ åĪ«
æĪĲä¸º äºĨ
èĮ Ĥ
ä½ı å®ħ
9 9
è ²
çĲ ī
åľ° éĿ¢
åŃ© åŃĲ
åĪĹ åħ¥
åĽŀ åºĶ
åħĭ èİ±
æľĪ21 æĹ¥
å® Ļ
ç«Ļ åı°
åı¸ æ³ķ
çİĩ é¢Ĩ
è´µ æĹı
èĪŀ åı°
åĩł ä¸ª
è½¬ ç§»
ç¤¾ä¼ļ ä¸»ä¹ī
å¦ Ī
å®ŀ è¡Į
å£° æĺİ
åĨ¬ åŃ£
åŁº åĽł
ä¸¾è¡Į çļĦ
ç² ¹
æĪĺ åĲİ
èĭ± å°º
çĶµ è½¦
ç§į æĹı
æ¾³ æ´²
æµ· æ´ĭ
èĤ ¥
çļĦ é«ĺ
äºİ æĺ¯
å°ı åŀĭ
çº¦ ä¸º
åıĤ è°ĭ
åĸ ·
åħ³ éĹŃ
æĽ´ åĬł
ç¬¬ åħ«
åĳ½ åĲįä¸º
èį Ĵ
æµģ åŁŁ
åĥ §
3 ä¸ª
ä¸ľ æĸ¹
æĪĲ æľ¬
Y ou
åįģ ä¸ĥ
7 8
è£ħ ç½®
ä¿® æĶ¹
è¾ĥ ä¸º
æ ĩ
éģ µ
çĭ Ħ
ç¤º å¨ģ
åį¢ çĵ¦å°Ķ
A l
ä¸Ģ å®ļ
å½¢ æĢģ
çĸ« æĥħ
éĹ´ çļĦ
æµ ©
ar t
æīį èĥ½
åıĺ å¾Ĺ
ç¡ķ å£«
å½ĵ å±Ģ
åıĤåĬł äºĨ
èĬ¬ åħ°
é¸ ¿
å´ Ķ
çİĽ ä¸½
ç¬¦ åĲĪ
é©± éĢĲ
æĦı æĢĿ
æľĪ1 3æĹ¥
é«ĺéĢŁ åħ¬è·¯
æľº åĻ¨
æµĭ éĩı
h a
é³įé±¼ çº²
æŃ£ å¸¸
å¸ ħ
éĢļ è½¦
æĮĩ å®ļ
èİ« æĸ¯ç§ĳ
æĸ° çĸĨ
çļĦ ä¸ī
å² Ĺ
çļĦ åĽ½å®¶
åı¦ ä¸Ģä¸ª
é¥ Ń
é¡¾ éĹ®
å¼Ģ è®¾
æĥħ æĬ¥
6 6
èĭı æł¼åħ°
å¼ ¥
åįģ ä¹Ŀ
ä¸Ń æľī
éħį åĲĪ
é£Ł çī©
æ·· åĲĪ
æĢ Ĵ
æĶ¹ éĢł
æ¶ µ
å§Ķ ä¹¦è®°
æĶ¶ è´Ń
åĵ² åŃ¦
ä¿ ĺ
å¾Ī å¿«
åħ¬åı¸ çļĦ
è¾Ĳ é³įé±¼çº²
èĢ Ĺ
çģ« ç®Ń
éĻĨåľ° éĿ¢ç§¯ä¸º
9 5
åĪĨ éħį
æ°´åŁŁ éĿ¢ç§¯ä¸º
æ¬ £
æ¶ ¦
u p
è¯´ æĺİ
åŃ ¤
ä¹Ł ä¼ļ
éħį éŁ³
èĢ Ģ
h t
å¼Ģ éĢļ
åĮĪ çīĻ
æŃ ĩ
éķĩ åĮº
è¥¿ èĹı
åıĳçİ° äºĨ
ä½ľ èĢħ
çŁ ¶
çĭ Ĥ
æķ´ ä½ĵ
æ³ķ å®ĺ
éĻĦè¿ĳ çļĦ
èµ ¶
å¯¼ å¼¹
æĮª å¨ģ
åĮĪçīĻ åĪ©
es s
8 8
éķ¿ åı¯è¾¾
15 0
åĤ ħ
èĢĮ è¨Ģ
å¯¹ è±¡
ç¥ Ģ
æĥ ¯
è£ħ å¤ĩ
çĭ ®
éĻ Ģ
åº· çĨĻ
å¯ ¸
ç¿ Į
ï½ ŀ
æµ· å¤ĸ
åħĭ æĭī
è¯· æ±Ĥ
æıĲ åĪ°
æĶ¹ åĸĦ
æģĲ æĢ
i k
å¯¹ æŃ¤
çĶ¨ ä½ľ
åĬ¨ ä½ľ
æµ· å³¡
åŀ Ĥ
æĪĺ çķ¥
ç¥¨ æĪ¿
å½ĵä¸Ń éĻĨåľ°éĿ¢ç§¯ä¸º
åľ¨ åħ¶
ä¸Ģ éĥ¨
ç§ĺ å¯Ĩ
ä¸ĭ éĻį
çĶµ åĬĽ
çĹħ ä¾ĭ
ç½Ĺ ä¼¯
èĦ Ĥ
er s
å¤ ·
åİ ¢
æŁ Ķ
ç² ¤
äºļåİĨ å±±
åĬ³ åĬ¨
åľ° çĲĨ
ä¸ľ åįĹéĥ¨
æłĩ ä¸º
æŃ¦ æ±ī
æĤ ī
ç¼ħ çĶ¸
åįİ çĽĽ
çĭ Ĺ
éĤ£ éĩĮ
éĢĢ ä¼ĳ
i p
åľ° ä½į
å®¶ çļĦ
å¸Ĥ éķ¿
äº¦ æľī
å¹¿ä¸ľ çľģ
å¸ĥ å°Ķ
åĩº æ¼Ķ
å§ ļ
èµ· ä¹ī
åĽŀ å½Ĵ
æ» ļ
æŃ¥ åħµ
è¦Ĩ çĽĸ
ç¼ĸ åī§
ç¢ İ
éĢ ¢
è§Ĥ æµĭ
ç§ģ äºº
æľĢ è¿ĳ
å°Ĩ ä¼ļ
çĮ Ľ
æī¾ åĪ°
åľ¨ æĹ¥æľ¬
æ¯Ķ ä¾ĭ
u e
åľ° åĽ¾
B A
çĲĥ ä¼ļ
æ·± åº¦
åľº æ¯ĶèµĽ
çģ Į
æİ¨ è¿Ľ
åįİçĽĽ é¡¿
é¢Ħ è®¡
å½ °
ä»» èģĮ
èĬ Ĵ
åĲĪ çº¦
åħ´ è¶£
æĳ ĩ
å®ŀéĻħ ä¸Ĭ
åĪ ¸
æľī ä¸Ģä¸ª
ä¸ĩ äºº
çľŁ æŃ£
ç»ı åħ¸
éĥ¨ çļĦ
ç¬¬ 5
å¹¿ è¥¿
è¯ķ éªĮ
åº ŀ
ç»Ħ å»º
åĳ¨ åĽ´
éĩį å¤§
é£İ éĻ©
æºĲ èĩª
å°Ŀ è¯ķ
ä¿Ŀ åŃĺ
å®ĥ çļĦ
åĬł çĽŁ
å¼ķ åħ¥
æĬķ éĻį
éĺ² å¾¡
å¾¡ åı²
æłĸæģ¯ åľ¨
ow s
å¹¶ åħ¥
æ» ©
èĬ± åĽŃ
æĿĢ æŃ»
i f
ç¬ ¼
å¹¶ ä¸Ķ
å» Ĭ
, ãĢĮ
ä¼ ª
åĳ İ
çĶŁ çļĦ
ç¬¬ 3
ç¾İ åĨĽ
åģ ·
å²Ľ å±¿
åĪ¶ çļĦ
åĮĹäº¬ å¸Ĥ
âĢ¦ âĢ¦
éĺ ª
å¸¦ æĿ¥
æľī æĹ¶
èį Ĳ
éļı åį³
å¹´ éĹ´
æľĢ å¤ļ
ä¸Ĭ åįĪ
å¥ İ
åĬŀ äºĭ
è´£ ä»»
è©¹ å§Ĩ
ä»£è¡¨ å¤§ä¼ļ
éĢ »
èĤ ĸ
å£° éŁ³
ä¸º æŃ¢
éħ ¶
å¹´ é¾Ħ
è®º æĸĩ
çĶ¨ éĢĶ
éĩĮ æĸ¯
åİĭ åĬĽ
çı Ĭ
ä¾ ł
è¿Ļ æĺ¯
æ¸© åº¦
è®² è¿°
åĲ ¾
äº¿ ç¾İåħĥ
çħ§ çīĩ
çļĦ ä¸Ń
çļĦ æĹ¶éĹ´
æľī äºº
æŀ Ŀ
è¿Ĳ ä½ľ
ä¿ĥ è¿Ľ
ä»£ çłģ
åľ¨ è¿Ļ
ä¼ĺ åĬ¿
W ind
å¤§ è§Ħæ¨¡
å¾Ĺ çŁ¥
æĮĩ å¯¼
è½¯ ä»¶
è§£ æķ£
è¢«è®¤ä¸º æĺ¯
åĲĮ çĽŁ
æ¹ ĺ
ç¿ ģ
è°Ī åĪ¤
çĴ ĥ
èµ ĭ
éļľ ç¢į
åĲį ä¹ī
; -
18 0
å¨ ĥ
åĵ¥ ä¼¦
å¤ıåŃ£ å¥¥æŀĹåĮ¹åħĭè¿ĲåĬ¨ä¼ļ
å¤ļ å¹´
ä¸ŃåĽ½äººæ°ĳ è§£æĶ¾åĨĽ
æŀĦ éĢł
éĺ Ķ
èĥ ¸
çº¢ èī²
éļ¾ ä»¥
4 3
å¼ ¦
æģĲæĢ ĸ
çļĦ ä¸¤
æĮĩ æİ§
éŃ Ĥ
åį µ
æľī äºĽ
æł ı
äºĨ è§£
A R
ä¸ĩ åİĨ
A M
ä» ĩ
ic e
çŁ¥ åĲį
9 8
ä¸Ĭæµ· å¸Ĥ
el l
åİĨ ä»»
åĲ Ĳ
B S
æ±Ł è¥¿
I C
g e
æľ ´
é©¾ é©¶
éĤ£ äºĽ
åĲ ı
ä¸ī è§Ĵ
è¯Ń çļĦ
éĩı çļĦ
åı ł
æ· ĺ
ç½ĳ çĲĥ
æĹĹ ä¸ĭ
( ).
7 6
éĤ ¨
æ³¨ åĨĮ
å©ļ å§»
ä¸Ģ é¢Ĺ
æĪĸ æĺ¯
å®ĩ å®Ļ
æī® æ¼Ķ
åı° ä¸Ń
å± ł
åĮĸ çŁ³
åĬł å¼º
æĳĦ å½±
ç¡ «
é©¬ æĭī
èħ Ĳ
éĶĻ è¯¯
é©¬ å°Ķ
æĲ º
æ¼ĶåĶ± ä¼ļ
èĪ ±
åı° é£İ
æķĻ åĮº
æ·¡ æ°´
s p
å½ ¦
å¤ª ç©º
ç³»ç»Ł çļĦ
è¥¿ åįĹéĥ¨
æŁı æŀĹ
b o
åħĭ çļĦ
èĦ Ĭ
æľį å½¹
åĲĪ æĪĲ
éĻĨ ç»Ń
éĢ ®
è² Į
æī© å¤§
æĺ¯ æĮĩ
åĺ ´
18 4
é¹ °
åĬł åĪ©
è§Ĥ çĤ¹
çļĦ å±±
æĶ¿ åįı
éļ¶ å±ŀ
u d
æŃ §
ä½ľ åĩº
" )
æĽ¾ ä»»
å¸¦ æľī
æĹ ¬
ç¨ į
åı ī
çĻ½ èī²
çĲĥ åŃ£
äººåı£ ä¸º
ä»· æł¼
éĩĬ æĶ¾
æĶ¿åºľ çļĦ
åľ¨ ä¸ŃåĽ½
ï¼ ı
åĳĪ çİ°
å®ļ å±ħ
çĽ¸ ä¿¡
æīĢ å±ŀ
é¦ĸ åħĪ
å¨ ĺ
ä¿Ŀ ç½Ĺ
åĪ ·
ç¿ ł
åħ¼ ä»»
åĽº å®ļ
æİĴ è¡Į
éĹ ½
æģ °
éĺ¶ çº§
è¥¿ åĮĹéĥ¨
æł¡ éķ¿
èĿ ¶
ct ion
ç¯® çĲĥ
çļĦ åİĨåı²
æ¸¸ æ³³
æı ¡
çĽ¸ äºĴ
åħ³ éĶ®
è¥¿ å®ī
ç«ĭ åį³
åŀĭ çļĦ
4 ä¸ª
7 7
éĢļ è®¯
åįģ å¹´
è®¾ å®ļ
èĸ Ħ
éªĳ å£«
åĿ ª
ä½ı æ°ĳ
å¯¹ å¤ĸ
æ¯Ķ å¦Ĥ
æ· »
éªĳ åħµ
å© Ĩ
æĸ¯ æŀĹ
éĽ Ģ
çİ° æĹ¶
å¸¦ é¢Ĩ
éĵ Ń
æĸ¹ è¨Ģ
ä¸Ģ èĩ´
10 00
ä¿® å»º
ä¸° å¯Į
å¿ §
è¶ ĭ
ä¼ĺ ç§Ģ
éĨ Ĵ
ç¬¬äºĮæ¬¡ ä¸ĸçķĮå¤§æĪĺ
2 ä¸ª
6 00
å· «
æ· ®
å±ķ è§Ī
al l
åľ° çĤ¹
åĪ¶ å®ļ
åĨħ éĻĨ
ä¾Ľ åºĶ
çľŁ å®ŀ
è¯ ı
éĿŀ å»ºåĪ¶
ç¾½æ¯Ľ çĲĥ
ä¼Ĺ å¤ļ
æĺ¯ ä»¥
æĦı å¿Ĺ
å¤ª åŃĲ
é¸ £
åĬ¿ åĬĽ
è¾ĵ åħ¥
Wind ows
ä»»åĳ½ ä¸º
ä¸¤ æ¬¡
æĬĹ æĹ¥
çļĦ å¤ĸ
æİ ĺ
en d
åħ· ä½ĵ
åį° å°¼
èĩª èº«
å·ŀ åºľ
æľĿ å»·
éĺ ®
å·¥ äºº
å·² è¢«
æ´¾ éģ£
å µ
å¤ļ å°Ķ
å±± è¥¿
æĹ¶æľŁ çļĦ
å¾Ģ å¾Ģ
æ£Ģ æµĭ
å§ ¬
å¯» æī¾
ä¸İ åħ¶ä»ĸ
å¯¹ åºĶ
P ro
äºİ19 3
æľº çļĦ
é»Ħ éĩĳ
ä»£è¡¨ åĽ¢
çªģ çł´
é¼ »
æĿ° åħĭ
ç»ĦæĪĲ çļĦ
åľ¨ è¯¥
ä¹Ĳ éĺŁ
ä¹ĭ æĪĺ
ãĢĬ ãĢĭ
çģ« å±±
çĽĳ çĿ£
åĹ £
å¼Ģ å±ķ
æĦ Ī
æĿī çŁ¶
S p
éĩĳ çīĮ
æ´Ľ æĿīçŁ¶
çĽ¸åħ³ çļĦ
æ° ¯
çĶµ è¯Ŀ
è¿ĩç¨ĭ ä¸Ń
æĸ ¤
è¢« è¿«
æıĲ åĲį
æ³¢ æĸ¯
åĦ Ĵ
çĻ» ä¸Ĭ
åħ Ĩ
èĭ ĳ
çªģ çĦ¶
åĮĹ æµ·
çİ° ä»»
ä¸¹ éº¦
å®ŀéªĮ å®¤
æĺ¯ ä¸ŃåĽ½
èĮ µ
åĽ½å®¶ çļĦ
ä¾Ŀ æį®
åħ¶ åĲİ
éĢĢ åĩº
i o
çī¹ å®ļ
åģ ¿
åįĹ æĸ¹
ä¸Ģ çº§
ä¸Ģ æ®µ
åħ¬ çĪµ
æĳ Ĩ
åį Ĵ
æ± ª
ä¸ī ä¸ĸ
il l
åĳĺ å·¥
æĻļ ä¸Ĭ
åĲĽ ä¸»
å¯ ¨
åĨĽ å®ĺ
åľº çļĦ
å°ĳ å¥³
ac e
r y
å¦ĩ å¥³
æĺİ ç¡®
æ²¿ æµ·
åĳ¨ å¹´
å¤§ æ¡¥
æĪ¿ å±ĭ
éĢ® æįķ
åĨĽ åĮº
è½¬ åĲĳ
å¥¥è¿Ĳ ä¼ļ
æī© å±ķ
å¤ ķ
ä¾ ¨
éĥ½ å¸Ĥ
èµĦ äº§
7 9
èĦ ı
éĻ ¨
4 1
ä»£ çĲĨ
è¯ģ å®ŀ
ç»Ŀ å¯¹
æ¬§ åħĥ
S h
åľ¨ é¦Ļæ¸¯
åĬ Ŀ
åĩ Ģ
å¯¹ æĬĹ
å¤§ åİ¦
la y
8 5
ä¸ Ľ
è¾ °
æ£Ģ æŁ¥
on g
äºļ ç¾İ
è§Ĩ é¢ĳ
åĽ½å®¶ éĺŁ
a in
åĮĸ åĲĪçī©
ç² Ĺ
åĲ¯ åĬ¨
çī¹åĪ« æĺ¯
Ã ©
æ³ķåħ° è¥¿
åĪĨ ç¦»
U n
éĵ ¸
åİŁ åĪĻ
å¤§ èµĽ
åī§ æľ¬
ç´§ æĢ¥
è¯Ħ ä¼°
ä¸ĵ å®¶
åĮĹ æĸ¹
ä¸¤ å¹´
åĨľ æ°ĳ
åĵ¥ä¼¦ æ¯Ķäºļ
6 9
éĻķ è¥¿
åĬł æĭī
æ¶ Ĥ
åĿĩ ä¸º
ä¸ ĳ
çŃī ä¸º
è®¡ç®Ĺ æľº
æĽ´ ä¸º
b e
ç§ĳ å¤«
A C
ä¿Ŀ å®Ī
åī§ éĻ¢
åºŁ éĻ¤
åĬ «
ä¸Ń è¢«
ç»ı çĲĨ
L e
çŁ ©
åĢ ¡
çķĻ ä¸ĭ
I S
æī «
è´ ©
æ± °
è´¨ çĸĳ
çŃ¾ è®¢
åı² ä¸Ĭ
é¦ĸ ä¸ª
åħĪ çĶŁ
æ± Ģ
1 ä¸ª
åĨĽ åĽ¢
å½¢ å®¹
ä¸ĭ ä»¤
ä¸Ĭ è¿°
èĲ¨ æĸ¯
éĦ Ĥ
1 20
æĹ¶ æ®µ
å¼ ¯
ç±³ äºļ
ç»´ æĬ¤
O N
çīł ä»¬
åŃ¦ å£«
ä¸į ä»ħ
èĥ½ éĩı
éĢī ä¸º
æĭ ĺ
éĽ Į
ä¸»è¦ģ çļĦ
åįĩ çº§
çİĩ ä¸º
åĲ¯ çĶ¨
é© ³
åİŁ åŃĲ
æ½ Ń
a st
åħļ çļĦ
é¾ Ł
éĺ» æŃ¢
åŁİ åł¡
å½ĵ å¹´
å¤© çļĦ
ä¿Ŀ éļľ
åĭĭ ç«ł
æłĩ æľ¬
ç©Ĩ æĸ¯æŀĹ
åĽ° éļ¾
çŃī åľ°
ç§ĳ åŃ¦éĻ¢
æ¶ Į
äºļç¾İ å°¼äºļ
åľ¨ å¤§
or t
åħ¨ éķ¿
åł ª
ç£ ¨
æıĲä¾Ľ äºĨ
åı· çļĦ
çł ĸ
ç»Ļ äºĨ
èĵ ¬
éĨ ĩ
å¯ Ĵ
åĪ© çĽĬ
æ»¡ è¶³
åĢĻéĢī äºº
åĺī éĿĸ
å¥¥ å°Ķ
p h
å¿ ½
æĿ¥ è¯´
é©¬ éĩĮ
æĥ Ł
åĢ º
å¤§åŃ¦ çļĦ
åįĹ éĿŀ
æ¸¸ è¡Į
åıĤ éĢī
æķ ¢
åľ¨ äºİ
ä¸ĸçķĮ ä¸Ĭ
æĶ¶ è§Ĩ
åĪº åı²
å° ¹
20 20
å¼Ĺ æľĹ
åħ¬ å®ī
åĳ¨ æľŁ
æ¶Ī è´¹
å¥ Ķ
åĭ Ł
æ°Ķ æĹĭ
éº¦ åħĭ
æĬ ĳ
- -
çļĦ æķħäºĭ
æº ¯
å¤į åħ´
éĹ ª
çº³ ç²¹
æĸ¯ é¡¿
æ´» è·ĥ
ä¿® æŃ£
éĤ» è¿ĳ
å¤« äºº
ç©º æ°Ķ
åıį æĺł
é¢ ĩ
å½¢ çĽ®
é¤Ĳ åİħ
6 2
199 8å¹´
æī ¶
199 9å¹´
åĳĬ è¯ī
ç¢ Ł
å°¼äºļ å·ŀ
æł¼ æĭī
æĻĭ çº§
çļĦ æ°´
ä¸Ń æľŁ
ä¸Ĭ æľī
æĽ´ æĸ°
ac k
åįı è°ĥ
åħ¶ä¸Ń ä¸Ģç§į
çİ» çĴĥ
çļĦ ä½ľåĵģ
19 ä¸ĸçºª
å½ķ éŁ³
æĤ ²
å¢ŀ éķ¿
è Ł
ä¼ł åªĴ
ç¿ ħ
çĽĳ çĭ±
å®¶ äºº
æĭ ¼
æĭ ĸ
åĩº åıĳ
ä¹¦ éĻ¢
åı¦ æľī
200 0
æİ¥ æĶ¶
æ¸ħ åįİ
èĲ¨ å°Ķ
åħ¸ ç¤¼
èķ ¾
æ·ĺ æ±°
æĹ¥ æľŁ
çĶŁ æĪĲ
æľ¬ åľ°
éĢ ¼
194 5å¹´
åįĩ ä»»
å¤© çļĩ
é£Ł åĵģ
æĸ Ĳ
å¯ ĵ
åıĳ æĺİ
è¢« è§Ĩä¸º
C D
ç«ĭ æĸ¹
å¤§ å¥ĸ
å¸ĥ èİ±
æĹ¥ æ²»
å·² æľī
æĳ §
å· ¢
ä¹Ł åı¯ä»¥
åħį è´¹
é¢ľ èī²
åĬł å·ŀ
ç§° ä½ľ
ä¸¤ åĲį
ç¨ »
é±¼ ç±»
çļĦ åĲİ
æİ¨ å¹¿
æı´ åĬ©
çİ° å®ŀ
åľ¨ åĨħçļĦ
ç»´ åŁĥ
äº² çİĭ
äºļåİĨå±± å¤§
æĸ¯ æīĺ
èĢĥ åı¤
ä¸» åĬŀ
åº¦ çļĦ
åī¯ ä¸»ä»»
åĿ Ŀ
ç¥ ł
çĻ Į
ç«ŀ éĢī
å¹³ åİŁ
æīĢ è°ĵ
åī¯ ä¸»å¸Ń
æĺ¾ èĳĹ
å½ĵåľ° çļĦ
è¿Ļ æ¬¡
åı¸ é©¬
it y
ç» ³
è¥¿ åħ°
åŁºéĩĳ ä¼ļ
çĲ ¼
å¿ į
äºĮ æĪĺ
åħ¬åħĥ åīį
çĲĨ è§£
ä¾Ŀ çĦ¶
M A
ä¸Ģ è¯į
æł ĭ
è£ħ é¥°
åĨľ æĿĳ
æĺŃ åĴĮ
åĨħ æĪĺ
8 00
è½¬ æį¢
é¾Ļ æ±Ł
åį± éĻ©
ç»Ī äºİ
D e
åľ Ń
ä¸į åĪ°
éĤ£ ä¹Ī
éĿł è¿ĳ
å¿ Ļ
é¹ ¤
å¾· çļĦ
å®Į å·¥
è´§ å¸ģ
E n
ä¿® å¤į
éļĶ ç¦»
åĩ Ŀ
åľ° å¸¦
ä¸Ī å¤«
æł¡ åĽŃ
ç¡® ä¿Ŀ
è¿Ľ æŃ¥
èĥ½ æºĲ
éĩĩ è®¿
æļ´ åĬĽ
æīĵ ç®Ĺ
æ½ľ èīĩ
å¾· åįİ
åİŁ å§ĭ
çĿ ¡
å¢ŀ å¼º
æīĢæľī çļĦ
ä¸¤ åĽ½
i ve
çŁ Ľ
èĴ ¸
èº« ä¸º
åİŁ ä½ıæ°ĳ
A r
æ°´ åºĵ
åį¡ ç½Ĺ
çłģ å¤´
æĹħ è¡Į
ä¹ī å¤§åĪ©
é² ¤
æ´¾ åĩº
æĴ° åĨĻ
å¤§ å¹ħ
èĻ ¹
194 9å¹´
éĢļ ä¿¡
åĬª åĬĽ
æł ½
æī§ æĶ¿
éĢĤ åĲĪ
2001å¹´ äººåı£
æĭĨ éĻ¤
å§ Ĭ
çļĦ æ¯ĶèµĽ
åĬ© çĲĨ
ä¸İ åħ¶
åĩº éģĵ
åĲ ģ
E R
o v
èµĦ æľ¬
çŁ³ æ²¹
5 9
èĢ Ĳ
æ³¢ ç½Ĺ
å²ģ æĹ¶
åľ¨ 198
ä¹¦ ç±į
æĮĩ ç¤º
çķĻ åľ¨
åĽ´ ç»ķ
åī Ĭ
å¸Ĥ ä¸Ńå¿ĥ
ç¿ Ķ
ä½Ľ ç½Ĺ
çļĦ è®¾è®¡
è®¤ è¯Ĩ
æ³ ¡
æ³ķ åºŃ
å¤© çĦ¶
çļĦ åıĳå±ķ
æľī æľº
åĩº åħ¥åı£
ä¸ĩ åħĥ
å¤§ å¤ļ
èĸ Ľ
s h
é¦ĸ çĽ¸
ç®¡çĲĨ å±Ģ
è¿ĳ å¹´
é»ĳ èī²
åľĨ å½¢
c om
å¤§ ä¼Ĺ
äº ¥
åł Ĩ
è¾¹ å¢ĥ
æĿĢ å®³
æĭ¿ ä¸ĭ
æ¯ĶåĪ© æĹ¶
N e
åįİ äºº
æīĭ æľº
éĶĢ éĩı
å¤« åį¡
å¤§ éĢī
æĶ¶ éĽĨ
ãĥ »
I D
Ã Ĺ
éĹ ¸
æĦı åĳ³
çĽ Ĩ
æĺİ æĺŁ
or e
åĲĦ èĩª
è¾½ å®ģ
ä¸Ģ åľº
åĪĨ æĶ¯
ä»¤ äºº
ç¡®è¯Ĭ çĹħä¾ĭ
" ,
æľĢ ä½İ
è®° å¿Ĩ
un d
b er
ç©º ä¸Ń
åĿļ æĮģ
åĲī æŀĹ
ä¸Ģ æŀļ
åĪĨ è£Ĥ
ç»´ æĸ¯
12 å¹´
èĴĻ çī¹
å°± ä¼ļ
å±±ä¸ľ çľģ
æĸ ĭ
èĩª æĿĢ
èŃ¦ åĳĬ
çļĩ åĲİ
çļĦ æĶ¯æĮģ
ä¹ł æĢ§
åĽ½æ°ĳ æĶ¿åºľ
åī§ éĽĨ
ä¸ĭè¾ĸ çļĦä¸Ģä¸ª
ä»¥ åįĹ
æĬ ĵ
æ± Ŀ
199 7å¹´
å»ºç«ĭ äºĨ
7 2
æĪĲ å¹´
èĥ º
å¹³ æ°ĳ
èĮĥåĽ´ åĨħ
æŁ´ æ²¹
åĲĦ ç±»
æĹ¨ åľ¨
èĪ Ł
ç§ĳ åŃ¦å®¶
å¼ı çļĦ
å¼Ł å¼Ł
7 4
ä¸ ŀ
çŃī çº§
6 3
o h
æł ª
å± Ī
D T
åĲĮ æĢ§
å¾· å°Ķ
æĶ¯ æµģ
åħĭ æŀĹ
i an
âĢ Ļ
äº² èĩª
æ¯Ľ æ³½
ç¤ ģ
èİ± èĮµ
äº§çĶŁ çļĦ
æ»¨ æµ·
æĬ ±
äº¤ æį¢
C O
æĭ ¨
æĸ¯ æ´Ľ
éĴ »
è§Ħ èĮĥ
m an
ä¸Ĭ ä¸ĭ
å´ ©
i v
æĹ¶ åĢĻ
å¹ ½
æ¶Ī å¤±
å® °
ç¬¬ ä¹Ŀ
é»ĳ é¾Ļæ±Ł
æ³ķ çļĦ
çł Ĥ
è¿Ŀ åıį
åĳ¼ åĲģ
æµĻæ±Ł çľģ
æĳ§ æ¯ģ
åĪ© æĸ¯
äºĮ äºº
çº§ åĪ«
å¸¸è§ģ çļĦ
ä»¥ åīį
ç§į æ¤į
â Ķ
çĭ ¼
æĶ¶ èĹı
çŃ¾ çº¦
T e
è¿ ¦
å¯¹ æĸ¹
è¾¾ å°Ķ
æ¬§ çĽŁ
æºĲ äºİ
at e
å»¶ éķ¿
r ic
æ ª
çī¹ æĭī
è¡Į çļĦ
å°¼ è¥¿äºļ
æİĪ æĿĥ
éĻ ª
è½¦ åİ¢
è¿Ĳ çĶ¨
å© ´
å¿ħ è¦ģ
ä»» æľŁ
æ¸¯ åı£
æ¦ Ħ
å¦ Ļ
199 6å¹´
åįł åľ°
æ¯Ľæ³½ ä¸ľ
æŃĮ è¯į
é¦ĸ å¸Ń
èĦ ¸
å¾ª çİ¯
åį ¸
åŃ¦ çļĦ
å°Ħ åĩ»
é¦ĸ åºľ
åį± æľº
æĤ£ èĢħ
èĪª å¤©
å¾Ĺ åĪ°äºĨ
æĶ¹ åĲįä¸º
æĬ «
åı¤ åħ¸
åĬŀ çĲĨ
èµ° åĲĳ
éĢļ éģĵ
æİ¥ æĽ¿
æ¼Ķ å¥ı
æĶ¹ åĪ¶
åįĩ ä¸º
am e
åľº æīĢ
ä¼ ½
æĢ§ èĥ½
çĭ Ń
199 2å¹´
ï¼ ħ
é¡º åĪ©
åĴ ĸ
åĪĻ ä¸º
å·¥ä½ľ å®¤
å®¡ æŁ¥
éĺ² æŃ¢
åĮº è®®ä¼ļ
ç¦ ħ
åĽ ļ
å¯ ®
è¢ ĭ
å·ŀ åĪºåı²
åĽĽ å¹´
ç¥ŀ è¯Ŀ
å« ģ
éķ¿ å®ĺ
æ³¢ å°Ķ
ä» ķ
éĺ¿ æł¹
ç´¯ è®¡
âĶ Ģ
æĭ ±
é¦ĸ æĴŃ
åķĨ åĵģ
è·Ł éļı
å® Ľ
éĽ į
å¾Ĺ ä¸»
èģĶåĲĪ ä¼ļ
å¤ĸäº¤ éĥ¨
ä»¥ åĮĹ
åŁĥ å°Ķ
ou n
åŁ¹ è®Ń
æıĲ åıĬ
äºĶ å¹´
å¸Ĥ æĶ¿åºľ
(, ;
ç¼© åĨĻ
å¸ĥ éĩĮ
çĤ ī
åıĹ æ¬¢è¿İ
åį¡ æĭī
éĺ¿æł¹ å»·
A P
s s
å°¼ åħĭ
çĶŁæ´» ä¹łæĢ§
18 å¹´
èĤ Į
ä¸ŃåĽ½ çļĦ
åģľ éĿł
q u
åĲ ¹
åĩº æĿ¥
æķ° ä½į
èĭ± åĨĽ
199 4å¹´
æ¸¸æĪı çļĦ
1 åı·
ä¸Ĭ åįĩ
éĿ¢ ä¸´
G o
éĻ· åħ¥
çĶŁæ´»ä¹łæĢ§ ä¸įæĺİ
è¾ Ł
æĮģ æľī
é¼ İ
C om
18 3
æ´¾ çļĦ
å¤§ èĩ´
è¾ ¨
éŁ µ
çĤ¹ çļĦ
åĩºçīĪ ç¤¾
åĸľ åī§
èĢ ķ
æľĪ çĲĥ
æ£ ĺ
åĲĦ åĽ½
ç½Ĺé©¬ å°¼äºļ
çİ° ä»Ĭ
æĥ ¨
c on
å°Ĩ åľ¨
ä½ĵèĤ² åľº
åŁ ĭ
èĭ ¯
ç¾İåĽ½ çļĦ
çĶĺ èĤĥ
)ãĢģ ãĢĬ
éĩĮ è¾¾
åľº æĻ¯
åı¸ä»¤ éĥ¨
çĶ «
å®ļ ä¸º
æķ° çļĦ
M ar
ç °
éģĵ å¾·
çļĦä¸Ģ äºĽ
æĸ¯æĭī å¤«
ä¸Ģ é¡¹
è¢« æįķ
æī¿ è¯º
ä¼¼ ä¹İ
çĤ¸ å¼¹
éģ ¥
éĽ ¾
çłĶ åıĳ
åĲĦ ä¸ª
é¦ĸ æŃĮ
å·´ å°Ķ
æĿĳ èĲ½
åħ¬ æĸ¤
çĶŁ åŃĺ
åĲī å°Ķ
å¸ Ĳ
ä»Ĭ æĹ¥
èĢĥ è¯ķ
éĥ½ åľ¨
éħį å¤ĩ
8 7
è¾¹ ç¼ĺ
åĬłåĪ© ç¦ı
å±Ģ éķ¿
ub e
è¹ Ī
éķ¿ æ±Ł
éħ ·
çĪ± æĥħ
åľ° è´¨
æľ¬ çīĩ
æ¡ Ĩ
å¸¸ åĬ¡
æĶ¯ ä»ĺ
äººæ°ĳ å¸ģ
èı Ĭ
æ²¿ éĿ©
æĬµ æĬĹ
çļĦ åĦ¿åŃĲ
æĸĩ æĺİ
åĮħ åĽ´
çĽĳ å¯Ł
å¤ ¹
å°Ĩ é¢Ĩ
å¹³ è¡¡
æĢĢ çĸĳ
çļĦ ç¬¬
äºī åıĸ
å¼Ģ å¹ķ
è¨Ģ è®º
17 9
èĥ Ĩ
ä¸ŃåĽ½å¤§éĻĨ çļĦ
èµ« å°Ķ
æ±Łèĭı çľģ
åĿ Ĥ
èĤ ł
åı¯ä»¥ åľ¨
è ¤
è®¾ äºİ
å¼ı æľĪåı°
ou r
å·¡ æ´ĭ
åŃ ķ
æīĭ æľ¯
ä¼¯ çĪµ
åºĨ ç¥Ŀ
çĲī çĲĥ
åĲ« æľī
æī £
éķ¿ è¾¾
æ±¡ æŁĵ
åıĳ æĮ¥
å¯¹ åħ¶
æľĢ ä¸º
æīĢ éĩĩçĶ¨
å¥ ĭ
æĬ¥ çº¸
æ² ª
æ£Ģ å¯Ł
è ¤Ĳ
æī ģ
åıĳ è¨Ģ
åĻ¨ çļĦ
çŃĸ çķ¥
åĤ ¬
é¼ĵ åĬ±
å¤§ èģĶçĽŁ
çŁŃ æļĤ
éļ ĭ
çı Ģ
è¶³ å¤Ł
é¡ ·
æıĲ è®®
æİ¨ èįĲ
çĪ± å¾·åįİ
åĲ §
I P
T h
è¥ Ħ
æĪĳ çļĦ
å¾· åĨĽ
è° Ń
é¢ģ åıĳ
åĩĮ æĻ¨
è¯ ±
19 00
æľª æľī
éĹ ²
åĩº åĶ®
æĸ¹éĿ¢ çļĦ
é¢ĳ çİĩ
éĻ¢ éķ¿
å§ĭ å»ºäºİ
åįķ çĭ¬
æĮ ĸ
çº ¤
åıĪ åĲį
éĢı éľ²
çļĦ ä½įç½®
åĩ ī
çº¦ æľī
åĶĲ æľĿ
æĪĲ å°±
æµ· å¹³éĿ¢
æĪĺ å£«
æ²³ çļĦ
æĿ¡ ä¾ĭ
éĻĦ å±ŀ
å·¥ç¨ĭ å¸Ī
æĪĲç«ĭ çļĦ
éĢĤ åºĶ
èµŀ åĬ©
å¢ĥåĨħ åħ±æľī
ä½į çļĦ
äºļ çĽ®
äºĭ æĥħ
åĨĻ ä½ľ
åıĳåĬ¨ æľº
6 1
åĮº åĨħ
çĽ´ å¾Ħ
è¿½ æº¯
åĩŃ åĢŁ
5 2
éĿĴ å²Ľ
A N
é¢ Ī
ä¸ĭ æĿ¥
åĪ¶ çīĩ
æīĢ å¤ĦçļĦ
åı² å¯Ĩ
é¢Ĩå¯¼ äºº
æĽ¿ ä»£
8 9
èģĶ ç»ľ
èĸ ª
é¹ ħ
æ° ¨
åħ¬ äº¤
f f
åĢ¾ åĲĳ
åĲ ŀ
æĪĲ äºº
æĻ® é²ģ
199 1å¹´
èħ Ķ
æ£ ķ
ç«Ļ çļĦ
æĹł çĹĩçĬ¶
æµ·æĭĶ ä¸º
åħ¬å¼Ģ èµĽ
æĽ °
æĹ¥æľ¬ çļĦ
en s
éĽĨ åĲĪ
æ¸¸ åĩ»
è¶³ åįı
æĸ ¥
å¥ ¶
ä»¥ åĲİ
æŃ£ ç¡®
åĬ ²
å¿ ĺ
é¦ĸ ä½į
æĦı å¤ĸ
å·¡æ´ĭ èĪ°
èĭ± éĩĮ
é¢Ħ ç®Ĺ
åĲ¸ æĶ¶
æĽ¾ ç¥ĸ
åıĳçĶŁ åľ¨
æī© å¼ł
çļĦ éĥ¨åĪĨ
åĨ ķ
S e
å¤§ å°ı
æĸĩ èīº
åı¤ èĢģ
éº Ł
æ²ĥ å°Ķ
é¢ģ å¥ĸ
å»ºçŃĳ çī©
æĦŁæŁĵ èĢħ
ç§ĳçļĦ åħ¶ä¸Ńä¸Ģç§į
åĽ Ĭ
5 3
çļĦ éĹ®é¢ĺ
åŁ¹ åħ»
çĲ ª
åħ¬ åĳĬ
éĿŀ æ³ķ
æ°Ķ åİĭ
åĲ »
å·² çŁ¥
èĪŀ è¹Ī
å½ĵéĢī ä¸º
éĴ ĵ
åĨ³ è®®
èľ ľ
ç¢ §
it h
æĺŁ çŃīä¸º
ä¿Ħ åĽ½
è± «
ç¢ ±
éŃ ģ
ä¸¥ æł¼
éģŃ éģĩ
åĲİ ç»Ń
å¾· æĭī
æķĪ åºĶ
å® ´
ä¸Ń éĹ´
ç§ĳ å°Ķ
èĪ¹ åıª
äºĴ çĽ¸
å®ī ä¸ľ
æł¼ ä¸º
ç»Ħç»ĩ çļĦ
çĶµ æ°Ķ
ä¸»è¦ģ æĺ¯
åĩºçİ° äºĨ
äº« å¹´
æĸ¯ åį¡
éĢĲ æŃ¥
é¸Ł ç±»
æĪĲ äºĨ
åī ª
å¤ĸ éĥ¨
æ¬¡ å¹´
åĪĽ å§ĭ
çļĦ ç¬¬äºĮ
æĪĲ éĥ½
æİ ł
æ¼ ı
199 5å¹´
L E
ä¹ĭ å¤ĸ
è¶ħ è¶Ĭ
çļĦ å¥³
å§ ľ
åĬł éĢŁ
å§ĭ å»º
è§Ĩ è§ī
ä¸Ģ åĪĩ
ä¹ĭ åŃĲ
å¸Ĥ æĶ¿
è¶³çĲĥ ä¿±ä¹Ĳéĥ¨
åģ¶ åĥı
ç© ·
p e
åĪĻ åľ¨
å½¢ çĬ¶
å®¡ åĪ¤
å¡Ķ å°Ķ
å½ķ å½±
åıĮ æīĵ
æ£ ī
æļ ¨
é¢Ħ æµĭ
æıı ç»ĺ
æł½ åŁ¹
æĿ¥ è¶Ĭ
éķ¿ æ²Ļ
çĽ´ éļ¶
åıĺ ä¸º
è´µ å·ŀ
è°¢ å°Ķ
åĴ ¨
ç¦» åŃĲ
å¼º åº¦
å¾Ī å¤§
è¿Ļæł· çļĦ
åĪĽ æĸ°
æķĳ æı´
åħħ æ»¡
åĵĪå°Ķ æ»¨
åĪ ł
ä¸Ģ ç³»åĪĹ
å¤§ åį«
éĶ Ĳ
æ¸¸ å®¢
å¼Ģå§ĭ åľ¨
æļ ĸ
éĥ¨ çĶµå½±
èĭı ä¸¹
è· µ
æŃ£ éĿ¢
æº ĥ
æĵ ħ
åģĩ è®¾
æ²³åįĹ çľģ
å¤ıä»¤ æĹ¶éĹ´
çĲĨ å·¥
æģ Ń
éĤ ª
on e
å¯» æ±Ĥ
éĥ¨ ç½²
ä¸» åľº
åİ¿ çŁ¥
æĶ¶ åĪ°
æ¨¡ æĭŁ
è¶Ĭ æĿ¥è¶Ĭ
ä¸»ä¹ī çļĦ
æĸĹ äºī
æĸ ©
åľ¨ ä¸Ģèµ·
æ¯ ħ
æļĤ åģľ
5 6
å½± åĥı
èĮ ħ
æĹı ç¾¤
èģĶ ç½ĳ
æĺ¯ä¸Ģ åĲį
è¿ģ èĩ³
éĺ¿å°Ķ åįĳ
å¸ ½
ç¬¬ 4
é«ĺ è¾¾
çĲĨ æĥ³
åĲĪ æ³ķ
çĻ¾ ä¸ĩ
éħį ç½®
æĢģ åº¦
å·¥ èīº
ç¨ Ģ
åĽ½éĻħ æľºåľº
æļĤ æĹ¶
ç§ ©
æĹ¶ åĮº
å¸¸ å§Ķ
é¢Ĩ äºĭ
åĽ¾ åĥı
å·´ æĭī
ç¦ı å·ŀ
c k
è¡Į ä¸ļ
æīĭ æ®µ
èª ĵ
7 00
åĩ ¶
å» ĸ
å±ł æĿĢ
ç§° åĳ¼
çĽ´ æĴŃ
ä¼Ĭ åĪ©
ä¾Ŀ èµĸ
èģļ éĽĨ
åľ¨ 197
éĺ¿å°Ķåįĳ æĸ¯
åĪ¶ æĪĲ
åħ±åĴĮ åħļ
ä½İ äºİ
æĢ ķ
äºİ19 0
m a
ç¼ ´
ç¹ģ æ®ĸ
èĤº çĤİ
çļĦ æĸ¹æ³ķ
åĽ½ åĨĽ
éĽ· æĸ¯
ç« Ł
åĬł å°Ķ
æķĻ å®Ĺ
èĤ ¤
å¸ ĸ
æľ¬ ä½ľ
æľº åĪ¶
äºĶ ä¸ª
1 10
ä¼ļ æľī
ä¾ £
202 6å¹´
å±± åĮº
èĲ½ æĪĲ
åĲĮæĹ¶ è¯¥åľ°
ç»´ å¤ļ
éŀ ĭ
ä¸»ä¹ī èĢħ
åŃ¦ ç§ĳ
æ¼ ł
ä¿Ŀ éĻ©
èĴ ²
çĶ° å¾Ħ
åĪĨå¸ĥ åľ¨
H D
éĺŁ éķ¿
ç¦ıå»º çľģ
ä¸º åħ¶
åī§ åľº
åį³ ä½¿
å¯Ĩ åĪĩ
198 8å¹´
æ£Ĵ çĲĥ
å° ¿
è®¤ åı¯
æ¶Ī éĺ²
åĽĽå·Ŀ çľģ
åĬŀäºĭ å¤Ħ
å¤© åłĤ
éĺ² ç©º
è¾ħ åĬ©
çļĦ è§Ĵèī²
è½ ©
10 å¹´
èĭ± åĳİ
äº¤ ç»Ļ
çłĶç©¶ éĻ¢
è§Ĥ çľĭ
éĤ ±
æīĵ çł´
æ¡¥ æ¢ģ
| |
ç¨ £
è®¤ è¯ģ
è·¯ æ®µ
åĨĴ éĻ©
çĲĨ çĶ±
å§Ķ æīĺ
åķĨ åºĹ
å« ©
å¤© æ°Ķ
ç«ŀ èµĽ
19 å¹´
âĢ ĺ
èĢ¶ ç¨£
æľĢé«ĺ çļĦ
å¡ŀå°Ķ ç»´äºļ
å¥ ł
è¥¿ ä¾§
æĭī çī¹
5 4
éĩı åŃĲ
åī¯ ä¹¦è®°
èģļ èĲ½
çļĦ å·¥ä½ľ
çļĦ åİŁåĽł
èµĦ åĬ©
åĬłåħ¥ äºĨ
ä¼ļ è¯ķ
å¼Ĺ éĽ·
æĴ¤ éĢĢ
å¤©æĸĩ åı°
ä¼ļ åĳĺ
åĬł åĵ¥
äºº ä¸º
åįĹ èĩ³
æī© å»º
I T
æł Ĺ
èĬĿ åĬłåĵ¥
6 ä¸ª
çļĦ æĢ»
ä»¥ ä¸º
ç© ´
5 ä¸ª
å®¶ ä¸Ń
çĤ ¼
è´§ è¿Ĳ
å½± è§Ĩ
å®¤ åĨħ
çļĦ éŁ³ä¹Ĳ
ä»¥ ä¸ĬçļĦ
è¢« ä»»åĳ½ä¸º
äººæ°ĳ ä»£è¡¨å¤§ä¼ļ
æ¤ İ
ä¸ĭ å±ŀ
èĭ ¹
èĩª æĪĳ
å±ķ çİ°
çļĦ ç¾İåĽ½
ç§¯ åĪĨ
çº³ åħ¥
æ¯ı æĹ¥
è®¸ åı¯
ç» ¥
çľ ł
åº§ æłĩä¸º
åģľ è½¦
äºº æĿĥ
é¸ Ń
çļĦ è¯Ŀ
ä¼Ĺ è®®éĻ¢
èħ ¿
å¼Ĺ éĩĮ
æ¶µ çĽĸ
åİŁ åĲį
in t
è§Ĵ åº¦
èĢģ å¸Ī
åģļ åĩº
ç»¿ èī²
å¤§ å¸Ī
éľ ŀ
èĬĤ åº¦
çļĦ éķ¿
çº¦ çĳŁ
æĥ³ è¦ģ
çļĨ ä¸º
çļĦ æĿĳåºĦ
ä¹Ł ä¸į
çļĦ æĹ¥
ä¹ĭ ä¸ĭ
è¿Ľ åħļ
æŃ» åĪĳ
p er
ä¸į æķĮ
è´¢ äº§
åľ¨ èĭ±åĽ½
ä¸¤ ä½į
ä¸¤ ä¾§
éª ļ
ä¸¹ å°¼
5 7
å· ·
æĸ¹ ä¾¿
ãĢĭ ãĢĬ
åıĽ ä¹±
åĨħ èĴĻåı¤
ç«ŀ æĬĢ
M V
m ent
å¥¹ åľ¨
ä¸ ¸
å¤§ å¤«
çī¹ æľĹ
å¨ ħ
èħ º
è½¦ éĺŁ
æľį è£ħ
éģŃ åıĹ
èħ ĵ
çĭ¬ç«ĭ çļĦ
æľ¬ äºº
çº¿ ä¸Ĭ
a i
è¥¿ éĩĮ
éĩį éĩı
æ¶ Ľ
199 3å¹´
å·¦ ç¿¼
åĽŀ å¿Ĩ
çļĦ å½¢å¼ı
èį ¡
äºĨ ä»ĸ
è° Ĭ
çĽ´ åįĩ
è£ģ åĪ¤
é©¬ æģ©
å¨ ¶
ç¤¾ ç¾¤
oc k
è°ĥ å¿«
ä»ħ æľī
æ²³ è°·
æ¶ī å«Į
æŁ¥ çĲĨ
å®£ ç§°
èĲ¥ ä¸ļ
é±¼ éĽ·
è® ¼
å¼ł ä¸ĵè¾ĳ
åįı å®ļ
çĽ¸åĲĮ çļĦ
äºº æ¬¡
æł¼ éĽ·
æĶ¹ è¿Ľ
ç©º è¢Ń
æĸ° åĨł
è¾Ĳ å°Ħ
çļĦ æľĢ
åľ¨ åı°æ¹¾
ä¸Ĭ éĺµ
éĵ ĥ
åł ¤
æĥħ ç»ª
å¾ģ æľį
å¤§ä½¿ é¦Ĩ
æ³ķ ä»¤
åĺī ä¹ī
æ³½ å°Ķ
èŀį åĲĪ
8 6
æ¯ Ĺ
æĬ Ħ
æİ ©
è¿ŀ è½½
åĻ ¶
åıĤ è®®éĻ¢
ä¾ĭ åŃĲ
ä»¥ ä¸ľ
æĪĺ æľ¯
ä¼ļ è¢«
é¢Ĩ åħĪ
éĩį è§Ĩ
æ´Ľ åħĭ
çļĦ åĲįåŃĹ
åľ¨ 196
ç£ ·
è§ī å¾Ĺ
éĢļ çŁ¥
èº« åĪĨ
è½¬ çļĦ
16 0
æĪĲ çĨŁ
èĪ Į
å½ĵ ä»£
æħ °
èĵĿ èī²
ç Ģ
éĥ ģ
åı¯ è§ģ
æ¿ Ĵ
ä¾į éĥİ
çĬ¹å¤ª äºº
èĩ Ĥ
å¸ĥ æľĹ
ç¤¾ äº¤
è®¾æľī å¤ıä»¤æĹ¶éĹ´
è¯¥åľ° æīĢéĩĩçĶ¨
åĲĮæĹ¶è¯¥åľ° è®¾æľīå¤ıä»¤æĹ¶éĹ´
è¯¥åľ°æīĢéĩĩçĶ¨ çļĦæĹ¶åĮºä¸º
æ¼Ķ è®²
å·¨ å¤§
éķĩ åĮºçļĦ
äº¤ æ±ĩ
æ»¡ æ´²
å»¶ ç»Ń
ä¸ĭ ä¸Ģ
éĢļ å¾Ģ
çĥ ¯
çĪµ å£«
ä¸ľ ä¾§
åįķ ä¸Ģ
è´ ·
æĦŁ è§ī
ç²ī ä¸Ŀ
é«ĺäºİ æµ·å¹³éĿ¢
u re
199 0å¹´
çļĦ åħ³ç³»
æĢ» çĽĳ
ä¼ł æķĻ
æį· åħĭ
çĽ¸å½ĵ äºİ
a h
æĮ ¡
åŃĲ å¥³
æİĴè¡Į æ¦ľ
èīº äºº
è´§ çī©
æīĢå¤ĦçļĦ æµ·æĭĶä¸º
æīĢå¤ĦçļĦæµ·æĭĶä¸º é«ĺäºİæµ·å¹³éĿ¢
è¾ĵ åĩº
è¡¥ åħħ
c ol
ä¸Ń æľĢ
åº ¶
çİ ²
åľ° å½¢
æ¼Ķ åĮĸ
éª Ĺ
è®¾è®¡ çļĦ
ç¬¦ åı·
ç§į åŃĲ
å¸ Ĩ
ç»ĺ çĶ»
C o
u g
åľ¨ ä¸Ń
å¤§ éĿ©åĳ½
èģ ª
æĦ ¤
ä¿Ŀ è¯ģ
æĻ® ç½Ĺ
æĹłçĹĩçĬ¶ æĦŁæŁĵèĢħ
å¼ ĵ
è¡ĮæĶ¿ éĻ¢
æ°¸ ä¹ħ
åĲĪ åĲĮ
é² ¸
è¯¦ ç»Ĩ
ç»´å¤ļ åĪ©äºļ
èį Ĩ
åĪ¶ä½ľ çļĦ
æıĲåĩº äºĨ
èĦ± ç¦»
çī¹ å°Ķ
æĪĺ éĺŁ
åŁİ çļĦ
äº¬ éĥ½
åħ· å¤ĩ
å¾Ī å°ĳ
äºĴ åĬ¨
r an
å¤§ éĺª
ä½Ĩ æĺ¯
å°¼ åı¤
or d
çĵ ¶
çĻ» è®°
7 3
æ¡ Į
ç¥ ¯
è·¯ åı£
) :
æł¼ å°Ķ
æĥħ èĬĤ
ar e
æ¾ Ħ
æ© Ħ
a w
åľ° äºļ
åĮº éĹ´
éĺ¿ éĩĮ
éħ ®
èİ· èĥľ
æķĻèĤ² éĥ¨
åºı åĪĹ
äºİ201 6å¹´
èĤ¡ä»½ æľīéĻĲåħ¬åı¸
S S
o y
æ¸ ł
æİ¢ éĻ©
éķĩåĮºçļĦ éĿ¢ç§¯ä¸º
äº ©
çī¹ éĩĮ
ä½ľ ä¸ļ
æł¼ éĩĮ
æĸ½ å·¥
ä¸º æĸ°
åº ĩ
æŃ¤ æ¬¡
æµģ ä¼ł
ä½įäºİ ç¾İåĽ½
çº¢ åĨĽ
èļ Ģ
ä¼Ĭæĸ¯åħ° æķĻ
ä¼ ŀ
å§ ¿
å¤ļ åĲį
åĽĽ ä¸ĸ
8 2
å§ ĳ
å¾· æĦıå¿Ĺ
éĤ ĳ
è¯º å¤«
è½°çĤ¸ æľº
éĿĴ å°ĳå¹´
æķĪåĬĽ äºİ
æ Ĩ
åħ¬ é¡·
ä¸» å¯¼
èĬ Ń
ç±» çļĦ
ä¼łç»Ł çļĦ
æ©Ħ æ¦Ħ
ç» ĳ
æĶ¾ åľ¨
å²Ľ çļĦ
èĩ´ åĬĽ
çģŃ ç»Ŀ
ä¼ļ ä¸Ĭ
è¿Ļ éĩĮ
ç»´ åŁº
ä½Ľç½Ĺ éĩĮè¾¾
ä» Ĩ
åº ļ
æ³ Ħ
æ» ķ
çİ°åľ¨ çļĦ
åįĹæŀģ æ´²
å¤ļ æł·
äºĮ çº§
æĢ» è£ģ
äºİ19 2
æ¤ ħ
äºĴ èģĶç½ĳ
å®¹ çº³
äº¿ åħĥ
æ®ĸæ°ĳ åľ°
æľ¬ ç§ĳ
æµ· ä¸Ĭ
å·´ åĭĴ
åİĨåı² åŃ¦å®¶
17 8
ãĢĭ( "
ä¸ľåįĹ äºļ
æ²Ī éĺ³
ä¸ľ äºļ
æ±ī åŃĹ
ç¥ Ī
çĽ¸ åıį
çıŃ æ¬¡
çĪ ·
å°ĳ å°Ĩ
æĪĺæĸĹ æľº
k m
çļĦ æĶ¿æ²»
æĶ¿ åıĺ
çļĦ ä¸į
éĥ¨ å°ļä¹¦
æ²¿ å²¸
éĽĨ ä½ĵ
åį³ å°Ĩ
åį« éĺŁ
çĸ« èĭĹ
éĩĳ å±±
ç¾¤ ä¼Ĺ
åľ¨ åĮĹäº¬
åŃ¦ ç³»
ç½ ©
çī¹ èī²
æ¼Ķ èīº
å®īå¾½ çľģ
è¿ĳ ä»£
è¿ŀ ä»»
ç¾¤ ä½ĵ
åĪĨ åĮº
å¸ĥ éĽ·
åį« è§Ĩ
èĭ¹ æŀľ
åĪĨ æł¡
éĢļ çĶ¨
æĢ» ä¼ļ
åķ ¡
åĬ £
ä½¿çĶ¨ äºĨ
æĭħ å¿ĥ
æĶ» åįł
çļĦæĥħåĨµ ä¸ĭ
çº§ èģĶèµĽ
198 9å¹´
æħ İ
P lay
ä»į æľī
åıĤä¸İ äºĨ
m e
éĢ ¸
è¿ŀ ç»ĵ
å¹² éĥ¨
æ°ĳ è¿Ľåħļ
å·¥ ä¼ļ
çļĦ çĶµ
ä»¥ è¥¿
ä»ĸ æĺ¯
æĥ §
æ¸ħ æ¥ļ
é¹ ı
æİ¢ ç´¢
2 50
éķĩ åİĭ
æĻ®é²ģ å£«
ð «
éķ ĳ
çľģ çļĦ
æł¸ éħ¸
æŀ¶ æŀĦ
è´ ª
å½ĵ å¤©
çŁ ®
éĥ½ è¢«
åįķ æīĵ
çĥ ·
åĢ¼ å¾Ĺ
åĪ¤ åĨ³
éķ¿ çº¦
èľ Ĥ
çļĦ åıį
ä»İ æľª
é³ ŀ
å¥³ çİĭ
å¤« å¦ĩ
, ),
çļĦ ç»ĵæŀľ
ç¬¬ä¸Ģ ä½į
æī ĳ
å±± è¥¿çľģ
æ¨ ±
çļĦä¸Ģ æĿ¡
æ¸ħ ä»£
éĴ¢ çĲ´
è´ ¼
æł¼ æŀĹ
å®ŀ è·µ
æĽ´ å¤ļçļĦ
èīºæľ¯ å®¶
åĲİ èĢħ
æŃ¤ ç«Ļ
è° ´
è¸ ı
i re
æĸ¯ åľ¨
åĨĽ åľ¨
éĢ ¾
å®ļ æľŁ
æĺŁ ç³»
åĮĹæµ· éģĵ
ä»ĸ ä¸İ
è¯¥ åľ°çļĦ
éĩį è¿Ķ
ä¿® è®¢
åĪĩ å°Ķ
å½» åºķ
9 6
åĬ³ å·¥
u st
åħ¶ å®ŀ
å¥¹ ä»¬
æ±Ł æĪ·
æĪĲ éķ¿
åĵ ª
æµ· åįĹ
è¿ª å£«
æĦ¿ æĦı
ig ht
çŃ Ĵ
åıĳè¡Į çļĦ
ä¼ļè®® åĳĺ
æ¡ĥ åĽŃ
You T
S c
ä¸Ń å°Ĩ
è¡Į èµ°
çª Ħ
èµ Ķ
äºĨ ä»ĸçļĦ
æł¼ é²ģ
æĺ¯ä¸Ģ ä½į
è½¯ ä½ĵ
éŃĶ æ³ķ
P S
éĻ¨ çŁ³
å¤´ è¡Ķ
æķ´ åĲĪ
2 åı·
D V
çļĦ ç¥ŀ
æķ ²
ä¸ľ æµ·
èĤ ¢
ç»´ ä¿®
å¼ķ è¿Ľ
å¥½ è¯Ħ
ä»į åľ¨
åİŁ åħĪ
åıĹ å®³
å±Ĥ çļĦ
s on
çº ł
æĬ Ľ
èĹ »
ä¼¤ å®³
çĲĨ æŁ¥
è¯ģ åĪ¸
i z
åĵĪ èĲ¨åħĭ
è¿ªå£« å°¼
åĲİ åľ¨
çļĦ åŁºç¡Ģ
åĲİ è¢«
è¾ĥ ä½İ
åĲ Ĭ
19 20å¹´
è° ¥
ä¸Ģ æĶ¯
åĨ Ģ
198 4å¹´
æĸ¯ åł¡
èµ· è¯ī
è®® å¸Ń
åĿ Ł
å®ĺ èĩ³
ä¼Ĭ æĭīåħĭ
ä¼¯ çī¹
c l
åĩ ¸
åĮº åĪ«
éģ ®
åįł æį®
p t
çļĦ æľº
æĥ ©
åĨħ åľ°
é»Ħ èī²
ç»´ åħĭ
i b
ä¸º äºº
ä¸» åĬ¨
çī¹ åĮº
åĪ© çļĦ
çĽ® çļĦæĺ¯
åĸ ĩ
ä¹¡ éķĩ
åľ¨ æĸ°
è¢« åĳĬ
ä¿® éģĵ
äº§çĶŁ äºĨ
æĴŀ åĩ»
ç½Ĺ å¾·
äºİ201 5å¹´
æŃ ī
è¯º æĽ¼
æľĽ è¿ľ
æĪĺ åĪĹ
èµ· åĪĿ
è®¤ åĲĮ
èĥĮ é³į
äºİ201 4å¹´
ç¬¬ä¸Ģæ¬¡ ä¸ĸçķĮå¤§æĪĺ
çĩĥ æĸĻ
çļĦ ä¸Ĭ
é£Ł çĶ¨
æĹłçº¿ çĶµè§Ĩ
çĶ ľ
åĽ½ éģĵ
èµ £
çİĭ åŃĲ
æŃ¦ å¸Ŀ
å¸Į å°Ķ
i al
æľ µ
å§Ķ ä»»
éĻ¤ æŃ¤
æĶ» æīĵ
äºİ201 8å¹´
çļĦ çĶµå½±
çļĦ æīĢæľī
å± ¥
åľ° åĲį
æłĩ è®°
çĶ· å¥³
å¤ļ é¡¹
æĲº å¸¦
P C
åħ¬ åĬ¡
é¢ ł
æĶ¹ å»º
èĭı ç»´åŁĥ
æ¡£ æ¡Ī
åĽ½éĺ² éĥ¨
è®® é¢ĺ
åĪĹ åĩº
æ¨¡ çī¹
æĤ ł
éĢĶ ä¸Ń
ç» µ
åŁİ å¢Ļ
äº¤ çķĮ
ç»Ī çĤ¹
è´¹ çĶ¨
äºİ201 7å¹´
èĽĭçĻ½ è´¨
B e
çļĦ æŃĮæĽ²
åİ ¥
äºĨ è®¸å¤ļ
äº¤ åıī
å¡ŀ çº³
æ³ķåħ° åħĭ
è°´ è´£
9 7
çļĦ æĪĲåĳĺ
æ¸ Ĭ
åį° ç¬¬
èı² åĪ©
æĸ¯ åĴĮ
èĬ Ļ
æ¢ ¨
å»ºçŃĳ å¸Ī
åħĪ è¿Ľ
æ¹ĸ æ³Ĭ
ä¸ĭè¾ĸ ä»¥ä¸ĭ
çŁĽ çĽ¾
" .
åį §
æĺ¯ åĽłä¸º
çī© åĵģ
è¿ĺ åľ¨
ä»Ĭ å¤©
çī¹æľĹ æĻ®
éĤ µ
æ²³ éģĵ
æĻº æħ§
å²© çŁ³
åľ° ä¸Ń
åĲį è¯į
ä¹Ł æĽ¾
åĽ¢ ç»ĵ
åºĶ å¯¹
è°ĭ æĿĢ
åĲİ æĸ¹
åı¯ åľ¨
çĶŁéķ¿ äºİ
ä¼Ļ ä¼´
å¼Ģ å·¥
åĿ ł
çĤ Ń
ä¸¾åĬŀ çļĦ
åī ¥
ä»£ æĽ¿
éģĵ åħī
å®ŀ ä½ĵ
æ²Ļ çĶ°
æĶ¶ è´¹
è¶³çĲĥ éĺŁ
åĶ¯ä¸Ģ çļĦ
8 4
äºİ 2020å¹´
æľ¬ çº¿
ç½Ĺ å¤«
æıĲ äº¤
èģĮ ä½į
è¿Ľè¡Į çļĦ
å¦¹ å¦¹
æľĽè¿ľ éķľ
i es
m er
äºİ æŃ¤
ä»» æķĻ
A S
å¥ ¸
çĲĨ å¿µ
çķ ħ
åľº åľ°
éģĩ åĪ°
æ²³åĮĹ çľģ
æĢ§ åĴĮ
çº³ å·ŀ
æĤ ¦
å·¨ å¤§çļĦ
9 3
å¼Ģ åĬŀ
å®ī å¨ľ
éļ¾ æ°ĳ
é¢ģ å¸ĥ
æŀ¢ çº½
éĢ» è¾ĳ
åį°ç¬¬ å®ī
ç¦ı å¾·
éĻį éĽ¨
æĹ ±
ãĢģ ãĢĬ
æ±Ł åįĹ
ic h
äºİ201 2å¹´
l d
è¯Ń éŁ³
ä¸ĵ çĶ¨
æĶ¿ åĬ¡
æīĢ éľĢ
å¤ĸ è§Ĥ
1 æľĪ1æĹ¥
æĹ¥ å¸¸
èµĽ çļĦ
çĪ± åĽ½
æ© ¡
æľŁ çļĦ
è¡Į é©¶
éĥ½ çĿ£
å²Ľ ä¸Ĭ
å¼º åĪ¶
å¼ķ çĶ¨
æİĴ åĪĹ
æµİ åįĹ
æľĢæĹ© çļĦ
èĤ ©
ä½ı åľ¨
ä¹¦ åĨĻ
åįı åķĨ
ä¹ł æĥ¯
å´ ĸ
æĹłäºº æľº
ç»ı çĶ±
è° ģ
éĢī åĩº
éĢī ç§Ģ
æł¹æį® 2010å¹´
14 0
è¿· ä½ł
D S
å° ĺ
æľī èĳĹ
æ³ķ è¯Ń
æĥ ľ
æł¼ åĭĴ
é¦ĸ æŃĮæĽ²
åĽĽ å¤§
ç½Ĺé©¬ å¸ĿåĽ½
èĸ ĩ
åĲĪ åĶ±
çº¿ æĢ§
æİ¥ èĳĹ
åį¡ æĸ¯
é¢Ĩ åľ°
æł¹ æľ¬
å¥ĸ éĩĳ
åį° åĪ·
æĹ¶ä»£ çļĦ
åĴ¨ è¯¢
ä¸Ĭ äºĨ
ä¸ĭ äºĨ
ç«ĭ éĻ¶
èĥľ åĩº
åĪĳ äºĭ
çī ²
æģ ¨
åľ£ ç»ı
è¯Ħ ä¸º
æ¢ µ
198 0å¹´
198 6å¹´
è° į
ä¿Ħ åĨĽ
èħ °
çĻ¾ å¹´
äºİ 2019å¹´
ä¸į è¦ģ
çĪ ª
å¡Ķ å°¼
ä¼Ĳ åĪ©äºļ
æĿŃ å·ŀ
5 1
åĲĮ åĲį
è° Ĳ
åĩĨ ç¡®
åĨł çĬ¶
R E
åĵ Ģ
è¿ĩ çļĦ
ç§° ä¹ĭ
é¦ĸ åº¦
é¢ĺ æĿĲ
ä½ı æĪ¿
çĽ Ī
ç«Ļ æĪ¿
æ°Ķ ä½ĵ
ç»¼ èīº
æĢ ¡
ä»ĸ è¢«
è§Ĥ åħī
å¢ŀåĬł äºĨ
ç¼ĸåı· ä¸º
èī² å½©
è½¬ ä¸º
å¼¹ èį¯
äºİ201 3å¹´
æĻº èĥ½
éķľ å¤´
çĥŃå¸¦ é£İæļ´
åŃŁ åĬłæĭī
çļĦ ä¸ŃåĽ½
å¯¹ è¯Ŀ
éĵ İ
èĻ ı
æ¯ı åĳ¨
åıĭ å¥½
æİ¢ æµĭ
å½ķå½± å¸¦
èĩ Ģ
åħ¥ åĽ´
è° ¦
ä¸¤ èĢħ
è¿« ä½¿
é©¬åħĭ æĢĿ
çĽ¸ åºĶ
çĻ¾ ç§ĳ
åĪĨåĪ« ä¸º
å±ħä½ı åľ¨
ç« £
é«ĺ åİŁ
ç»´ ä¹Ł
ç«ĭéĻ¶ å®Ľ
çļĦ æĹ¥æľ¬
æľī è®¸å¤ļ
æĪĲ æŀľ
åĮº åĪĨ
ç«ĭ åľº
æ¯ı å¤©
1 30
l o
çĿ Ľ
èĩªè¡Į è½¦
å¼ Ħ
åįģ æľĪ
ç§ĳ ä¼ļè¯ķ
è¯Ĩ åĪ«
çºªå½ķ çīĩ
æĳĩ æ»ļ
åĬ¨ è½¦
æĸ° å»º
æĥħ å½¢
çĳ ľ
ç¢ °
æİĮ æı¡
åĴĸ åķ¡
M e
N BA
æ· ĳ
éĿĴ æĺ¥
æŃ¥ æŀª
çŃ¹ å¤ĩ
æ² ¼
èĤ Ŀ
çŁ¥ åºľ
æĻ¯ è§Ĥ
ç¼ Ŀ
198 5å¹´
æľ Ń
ä¸» æĿĥ
æĭī å°Ķ
æ¬¡ äºİ
ç±³ åħ°
è®¤ä¸º æĺ¯
åıĳçĶŁ äºĨ
ç«ĭæ³ķ ä¼ļ
èļ ģ
å¤ ¸
åı²å¯Ĩ æĸ¯
åľ¨ ä¸Ģ
åľ° äº§
å¹³ çŃī
èĪ Ĩ
ar k
çĽŁ åĨĽ
åĪ¤ å¤Ħ
è´ ¬
çī¹ åħ°
å®¹ éĩı
åĲ¦ è®¤
ä¸º åŁºç¡Ģ
åĬł åĪ©äºļ
åīį è¿Ľ
é©±éĢĲ èĪ°
çĽ´åįĩ æľº
å¯¹ ç§°
åīį èº«
åĨħ æĶ¿
çĽ¸ ç»§
æİ¥ ç®¡
èĪª çıŃ
åĵ¥ åĵ¥
çŁ© éĺµ
åħĥ æľĿ
æĽ´ æį¢
èĿ ł
å¥¥æĸ¯ åį¡
è¡į çĶŁ
å¯¹ éĺµ
ä¸ī äºº
æł¡ åĮº
åħµ åĽ¢
æ³° åĭĴ
é¢Ħ å¤ĩ
P h
å® ł
å¼Ģ åĲ¯
æĪĺ èĥľ
æĳ Ķ
æµ Ĩ
ç¥ Ĳ
åįķ åħĥ
è½¬ ä¼ļ
å¸Ń ä½į
194 8å¹´
c o
æĸ° åĮĹ
ä½ĵ éªĮ
èĩ³ äºİ
æĮĩ æķ°
åŀĭ åı·
ä½¿çĶ¨ èĢħ
çģ« è½¦
çģ« çģ¾
çİ° åŃĺ
äºĮ å¹´
å°ģ ä¸º
æĿ¥èĩª äºİ
æīĺ é©¬
à ¸
ä¹ĭ éĻħ
æŃ¤ æĹ¶
æ¼ Ĩ
æł¡ èĪį
æİ¨ ç¿»
å¿Ĺ æĦ¿
çĻ¾ å§ĵ
é¢ ĸ
èĭ± éķĳ
å®¢ æĪ·
æĹ§ åĿĢ
J R
èµĽ è½¦
çĮ ľ
åŀĤ çĽ´
ä¸Ń ä¸ĸçºª
çĶµ æ±ł
åĭ ĺ
æĥħ æĦŁ
æ²³æµģ åŁŁ
åħ Ķ
å·´ ä¼ĲåĪ©äºļ
æĽ¾ æĺ¯
é¾Ļ çļĦ
æĹ© ä¸Ĭ
ä¼ģ åĽ¾
ç¥Ń ç¥Ģ
æ¹ĸåįĹ çľģ
å¿ Į
éĿ¢ åĲĳ
åħ¨ ä½ĵ
éĢī æ°ĳ
ä¼Ĳ åħĭ
è· Į
æķ° åįģ
ä¿Ŀ å®ī
åįĩ æł¼ä¸º
ä¸» æµģ
éĩį å¤į
èĽ Ľ
è¿ģ ç§»
è¾ Ī
åıĺ æį¢
ç¬¬åįģ ä¸ī
ç§© åºı
åįĹ ä¾§
C on
å¹¶ åľ¨
ç¾İåĽ½ æĢ»ç»Ł
éĺħ è¯»
æ° ®
ä¸» åĬĽ
å°º å¯¸
I V
çī© çļĦ
åľ£ æ¯į
é©± åĬ¨
8 3
æĺ¯ ä¸ª
ä¸ī åĽ½
äºĶ æľĪ
å½ķ åĪ¶
M S
a la
ä¸Ĭ è¯ī
çľģ éģĵ
194 4å¹´
èģĮä¸ļ çĶŁæ¶¯
se ction
9 2
åıĳ æİĺ
å¤§ è¡Ĺ
æ¹ĸåĮĹ çľģ
YouT ube
åİ ī
c he
å¤§ éĺŁ
åĿ ŀ
éģĹ ä¼ł
éĻķ è¥¿çľģ
æħķ å°¼
ä½ ĳ
åĮ ł
ä¸» ç®¡
å¸ĥ åħ°
åĮĹ ä¾§
èĤ ĩ
æĶ¹ è£ħ
çľ¼ çĿĽ
ä¸¥éĩį çļĦ
çĺ ¤
éĿ¢ ä½ĵ
å·´ èµ«
åĵģ è´¨
çĹħ éĢĿ
ä¼¤ äº¡
æŃ§ è§Ĩ
æ¡ Ĳ
æµģ éĩı
198 2å¹´
èľ Ģ
8 ä¸ª
æµ ¸
æĮ º
å±± çļĦ
ç©¿ è¿ĩ
äºĭåĬ¡ æīĢ
ä¸ľäº¬ éĥ½
ä»¥ å¤ĸ
å¥³ ä¸»è§Ĵ
åķĨ åĬ¡
çĻ» åľº
åĨĻ éģĵ
èµ Į
è¡Į äºº
é© ¹
åĩĨ åĨ³èµĽ
198 7å¹´
17 7
194 1å¹´
åĲį äºº
å·ŀ éķ¿
ä¸¤ å²¸
åı¤ å·´
éĵ¶ çīĮ
äºİ 2021å¹´
åİ¦ éĹ¨
æħķå°¼ é»ĳ
9 4
æĪ Ĭ
å®¶ ä¹¡
åĲĮ æŃ¥
æıĲ åīį
çĵ ·
åĩł ä½ķ
éĽķ å¡ĳ
åĨłçĬ¶ çĹħæ¯Ĵ
æľ¬ ä¹¦
ä¾Ŀ çħ§
ç±»ä¼¼ çļĦ
çīµ å¼ķ
ç»´ä¹Ł çº³
M P
a u
æĺ¯ ä¸į
å¤§ åħ¬
é©¬ ä¸ģ
æĹ© åľ¨
æĮĩæĮ¥ å®ĺ
å¢ŀ è®¾
ç«£ å·¥
èŃ¦ æĬ¥
äºİ201 0å¹´
DV D
ä¸Ĭ å¸Ŀ
æ» ¤
æ» ĭ
åĪĴ å½Ĵ
å¹ķ åºľ
æŁ Ħ
æĿĳ æ°ĳ
" ),
p p
èĮ Ħ
åĮ» åŃ¦éĻ¢
æ·» åĬł
èģĮ åĳĺ
æ±ī è¯Ń
çĶ² åŁº
ç»ĥ ä¹ł
èĬ ¦
å¥³ åŃ©
çĸ ¯
è¾¹ çļĦ
at h
å¾·åĽ½ çļĦ
ç»Ĩ èıĮ
èı² å°Ķå¾·
æ¯ķä¸ļ åĲİ
U S
æī Ń
ä¸ī ç§į
éħ ¯
18 2
åķĨ åľº
å®ĮæĪĲ äºĨ
æĺ¯ ä¸ºäºĨ
ä¸ª ä½ĵ
æ¿Ģ çĥĪ
ä¿®éģĵ éĻ¢
ä¿Ŀ åĬłåĪ©äºļ
åĽŀ åĲĪ
an n
èĢĥ å¯Ł
äºİ201 1å¹´
éĢĶ ç»ı
èĻļ æĭŁ
r am
èĢĮ ä¸į
æĪĺ åľº
k e
ä¸ĭ åįĬ
åĨħ æľī
äºĮ æľĪ
äºī å¤º
â Ĩ
äºİ 2022å¹´
æ´Ľ å¤«
æĶ» åĬ¿
æī¿ æĭħ
çļ® èĤ¤
èµ¢å¾Ĺ äºĨ
T A
å°Ķ é¡¿
æ£ į
ç´¢ æģ©
è¶ ģ
æ£ ±
ç»ıæµİ åŃ¦
æľ« æľŁ
åħ¶ä¸Ń ä¸Ģä¸ª
å¤§éĩı çļĦ
åĪĨ ä¹ĭä¸Ģ
ç§į ç±»
èİ· åıĸ
è´Ŀ åħĭ
é¡º åºı
è¸ ¢
E N
æĻ ´
åħĥ éŁ³
çķĮ çļĦ
åıĳçĶŁ çļĦ
In ter
å¸ ľ
æĹ¥ åĲİ
ä¸Ĭ å¸Ĥ
ä½įäºİ ä¸ŃåĽ½
æ» ¥
å¹¶ æĹł
ç»ı çºª
åıĹ æįŁ
åĳ¨ åĪĬ
è± ¹
æĸ°åĨł èĤºçĤİ
åľ°ä¸Ń æµ·
åĿ ¤
å£« é¡¿
åı¸ èģĮ
æĬĹæĹ¥ æĪĺäºī
ç¥ ¸
æĬĳ åĪ¶
8 1
çļĦ åĽ½éĻħ
çĽ´ è·¯
er t
äº¦ æĺ¯
é¥ ¶
å®ģ æ³¢
æİĴåĲį ç¬¬
W e
å¸¸ å¸¸
åĪĻ æľī
åħļ åĳĺ
ç¥ĸ åħĪ
æĲ ŀ
åĶĲ çº³
ç¬¬åįģ ä¸Ģ
éĺ´ è°ĭ
åĪ° çļĦ
çĮ ´
æ¯ĶèµĽ ä¸Ń
å©´ åĦ¿
çĶ· åŃ©
éĽ· è¾¾
194 6å¹´
æ·· ä¹±
æ§ ½
è¥¿ æĸ¯
å·´ åŁº
çİ° æľī
å¦ ¥
å¤© ä¸ĭ
ä¿¡ å¾Ĵ
æĿ¡ æ¬¾
æŃ» äºİ
ä¸Ńå¿ĥ çļĦ
ä½ĵèĤ² é¦Ĩ
äº® çĽ¸
å¯ ĩ
ä¸ī æľĪ
è®¤ å®ļ
åħ¬ ä¼ļ
å½ĵ æĹ¥
èĲ Ŀ
ä¹¦ ä¸Ń
ç¬¬ä¸Ģ å±Ĭ
æİ¨ æµĭ
æ¤ Ń
ç»Ĩ èĬĤ
193 7å¹´
é¢Ĩå¯¼ çļĦ
äºİ åĲĮå¹´
åīį åĲİ
åıĸ èĩª
åĽ½å®¶ åħ¬åĽŃ
æł· çļĦ
å·´åĭĴ æĸ¯åĿ¦
C l
ä¸¤ æĿ¡
è®º åĿĽ
æ¡Ĩ æŀ¶
çĽ¸ è¿ŀ
å¤´ éĥ¨
éĢģ åĪ°
è¯ī è®¼
åĳ¼ åĲ¸
æµ·æĭĶé«ĺåº¦ ä¸º
é¥® é£Ł
i x
å¾ Ļ
çĤ ³
éĢĶ å¾Ħ
å· ©
0 5
é¥ ¼
ç»§ ä»»
éĻĦ åĬł
å¯Į æ±Ĺ
æĺ¯ ä»İ
æ¬ ł
æĳ© å°Ķ
çļĦ çĪ¶äº²
å¤ĸ åĽ´
å¦Ĥ ä»Ĭ
æŃĮ åĶ±
å¼ķ ç§į
ç§» å±ħ
æĭ¿ çł´
è¿½ æ±Ĥ
å±ĭ é¡¶
ä¸»é¢ĺ æĽ²
è® ½
åĽł èĢĮ
çĽ¸ éĤ»
æ°´ éĩı
çłĶç©¶ çĶŁ
éŁ¦ å°Ķ
æĿ°åħĭ éĢĬ
èĩ´åĬĽ äºİ
çļĦ éĺ¿
çļĦ åŁİéķĩ
çī© ä½ĵ
è¯Ĭ æĸŃ
(; ),
æĭ¿çł´ ä»ĳ
E P
äºĨ è¯¥
åĩº èĩª
åĩº åľº
ä¸ŃåĽ½ åĽ½æ°ĳåħļ
çİ¯ å½¢
å§Ĩ æĸ¯
æī¹ åĪ¤
æĥħåĨµ ä¸ĭ
ac h
a z
äºº ä¸İ
æ£ ļ
æµģ åĬ¨
æĻ® æĭī
è¾ĸ åĮº
æ»ĳ éĽª
çļĦ åŃ¦çĶŁ
åĪĨ è§£
çī© èµĦ
å¦ ĸ
ç»Ī æŃ¢
æħĪ åĸĦ
çļĦ éĿ¢ç§¯ä¸º
æī ĩ
è° £
å±± åİ¿
å±± é¡¶
æ¡ ĵ
å´ĩ ç¥¯
ç¿Į å¹´
åĨ »
èĳ µ
å§ĭ ç»Ī
æłĩ é¢ĺ
g in
çļĦ åŁİå¸Ĥ
è¿ĩ æ¸¡
ç¦ §
éĴ ©
äºĶ åįģ
è¿ĲåĬ¨ çļĦ
çĶ» éĿ¢
m m
ä¸ī å¤§
æĢ» å±Ģ
åºķ å±Ĥ
ä¹ĭåĲİ çļĦ
å½¼ æŃ¤
ä¸º æŃ¤
åįĹ æµ·
çĪ ¬
è£ ´
ç§ĺ é²ģ
äºİ200 9å¹´
æĸ Į
æŁ ľ
åħĥ å¸ħ
å§Ķ åī¯ä¹¦è®°
æ²³ åı£
é³ Ħ
r is
åħ¥ å¢ĥ
èĤ ¿
æ¼ Ĥ
å¤§ æ°Ķ
å·¥ åķĨ
æĴ ĳ
åħ¬éĩĮ çļĦ
çĶ» å®¶
æ·± åħ¥
ç¬¬ä¸ī æ¬¡
ä¸įå¾Ĺ ä¸į
é»ĳé¾Ļæ±Ł çľģ
åħ¬ å¯ĵ
ä¸» æīĵ
æľĢ å¤ļçļĦ
çĲĥ è¿·
åĽĽ æľĪ
æĶ¹ ç§°
æĹł è®º
å± ¡
è¾ ±
å¾· åħĭ
éĨ ī
ç§ĺä¹¦ éķ¿
ä¸Ń å¼ı
åİ Į
çĦ ļ
æİ¨ è¡Į
åħ« æľĪ
çĶŁæ´» åľ¨
èĵ Ħ
äºĨ å¯¹
å¤ļ äºº
çīĩ æ®µ
ç¦ı éŁ³
éĺ³ å¸Ĥ
çª ĥ
æĵ ¦
æĸ° ç«¹
æł¼ å¼ı
èĭı éĩĮ
çªģ åİ¥
ä¼ĺ åħĪ
åħ±äº§ ä¸»ä¹ī
èģ Ĥ
çŃī å¾ħ
æĽ² çĽ®
åŃ£ åĲİ
ç¬¬äºĮ ä¸ª
åį° è±¡
çİ¯ çĲĥ
åį°åº¦ æķĻ
æ© Ļ
è½¬çļĦ å°ıè¡ĮæĺŁ
ä¹ĭ ä¸Ń
è¶³çĲĥ èģĶèµĽ
çĶ± äººå·¥
å·¥ä½ľ çļĦ
æĪĲç«ĭ äºĨ
é¢Ħ åĳĬ
æĹ Ń
åıĳ éŁ³
åıĬ åħ¶ä»ĸ
æİ¥ ä»»
èģĮ æ£Ĵ
ç¦ı åĪ©
198 3å¹´
åĥı æĺ¯
ä½İ æ°Ķåİĭ
æıĲåĩº çļĦ
ç¿° æŀĹ
åĢŁ çĶ±
è¾ŀ èģĮ
äºĳåįĹ çľģ
äºİ 2023å¹´
ä¼ļ éķ¿
åĲį èªī
ç³ ķ
å¾® è½¯
çĥŃå¸¦ æ°ĶæĹĭ
e ct
ä¸» ä½ĵ
åįĹ ç¾İæ´²
æľº æŀª
çĪ± çļĦ
ç¬¼ èįī
åĪĨ æĪĲ
æľ¬ åľ°åĮº
è¿ĩ äºİ
è¯º ä¼Ĭ
ol d
åĪº æ¿Ģ
èĳ£äºĭ éķ¿
çĮª ç¬¼èįī
åİ Ŀ
è´ ¿
çĶµ åĬ¨
åı² èĴĤ
æĪ¿ éĹ´
åµ Į
å±± å¸Ĥ
ç¾İåĽ½ åĽ½å®¶
æĹ©æľŁ çļĦ
çº º
å¥³ æ¼Ķåĳĺ
ä¹¡ æĿĳ
éĢĤ çĶ¨äºİ
åħĭç½Ĺ åľ°äºļ
ç¼ Ķ
åĭ ¾
èº ²
ä¸ģ åł¡
ç½ķ é»ĺ
A L
äºĨ è¿Ļ
åįĹ æĸ¯æĭīå¤«
ç«Ļ ä½įäºİ
å¥½ åıĭ
é¥ ¥
B L
åĬł åĭĴ
ç§° èµŀ
åıĤ è§Ĥ
å¹³åĿĩ æµ·æĭĶé«ĺåº¦ä¸º
åħ¨ çº¿
é² Ī
åıĳçİ° çļĦ
é£ŀ å¼¹
St ation
æİ§ èĤ¡
åĨľ åľº
å¼Ĺ æĭī
ãĥ ¼
å·´åŁº æĸ¯åĿ¦
ä¸ĭ è½½
åı° å¸ģ
æķ° çĻ¾
ä¸ĥ æľĪ
å¼Ĥ å¸¸
è´¢ åĬ¡
æĺ ı
æĸ¹ ç¨ĭ
åĮĹ éŁ©
åºĵ å°Ķ
x t
éģĹ è¿¹
N et
r it
ä¸Ģ çĻ¾
åĮº åĴĮ
åĪĨ çļĦ
éķ¿ åŃĲ
åı¸ æľº
è£ ¸
çģ« æĺŁ
ä¹ĺ åĿĲ
è£Ķ ç¾İåĽ½
R O
Î ±
äºĨ ä¸ĢäºĽ
æĸ¯ éĩĮ
æĿ¥ å¾Ģ
ä»£ çļĦ
éģĵ çļĦ
ç¾İåĽ½ æµ·åĨĽ
ç¥ŀ åľ£
åĸ ī
å®£ åĳĬ
ä¿Ħ äº¥
ä¿Ħäº¥ ä¿Ħ
p ro
åĬł ä»¥
ç§ĳ å¹»
åģļ ä¸º
çħ§ é¡¾
çĶ±äººå·¥ å¼ķç§į
7 ä¸ª
åį¡ æ´Ľ
åī§ ä¸Ń
æĿĥ çļĦ
è½¬ ä»»
d u
ä¸ĭ æĸ¹
åŃĲ å¼¹
çº¿ åĴĮ
è¿Ĳ æ²³
å±Ģ çļĦ
ç¼ĸ åĨĻ
èĲ¨ æĭī
åİĦ å°Ķ
å¥´ éļ¶
å»º æľī
å¸¸ å§Ķä¼ļ
æīĭ æŀª
å®£ è¨Ģ
åĬłåĪ©ç¦ı å°¼äºļå·ŀ
åĮĸ ä¸º
è¯Ń åĴĮ
èİ± æĸ¯
åĩºçİ° çļĦ
St e
åŁº è¾ħ
çĶµè§Ĩ åĬ¨çĶ»
å¤©æ´¥ å¸Ĥ
E C
å·´ å¡ŀå°Ķ
èį ĥ
èĻ Ĳ
ar y
å¤ľ éĹ´
éĵľ çīĮ
ç¤ºå¨ģ èĢħ
åİ ¨
é«ĺ æŀ¶
æ¶ ¡
çºªå¿µ ç¢ĳ
èĤ¯ å®ļ
i de
çļĦ èĥ½åĬĽ
æĸĩ æľ¬
ç¥ŀ ç§ĺ
æĭ ¦
çķ ľ
åİŁ åĪĽ
æµģ ç»ı
è°ĥ èĬĤ
7 1
åħŃ ä¸ª
åĿĲ æłĩ
æĶ¹ç¼ĸ èĩª
M ic
æĶ¹ åĲį
U N
åı£ å¾Ħ
éĩį ç»Ħ
çº§ çļĦ
åĽŀ çŃĶ
å®¢ å®¶
éľį å°Ķ
å°±è¯» äºİ
æľ¬ å±Ĭ
å±± åľ°
åŁº éļĨ
éĺµ å®¹
æ®ĭ çĸ¾
å¹¸ åŃĺ
å¥¥æĸ¯ æĽ¼
M E
éķ¿ å®ī
12 5
æŀģ ç«¯
çĽ ²
èĢĮ å¾Ĺ
å¤ļ åħĥ
ç»´ åĲ¾
ä¾Ľ å¥ī
é»ĳ äºº
æĮī å¯Ł
ç©Ĩ ç½ķé»ĺ
åĽ½ æľī
åĩº äºİ
æĮ ¤
ä¸ī æ¬¡
åħ³ èģĶ
åĪ¤ æĸŃ
ç´§ å¼ł
H K
â Ī
æĶ Ģ
äºļ åĨĽ
åĸ »
la t
åĵĪ æĭī
åıĸå¾Ĺ äºĨ
ä¸º å¤§
ä¸į åıĺ
å² Ĳ
åĪĻ çĶ±
çĹ ķ
æ°Ķ æ¸©
åĵĪ éĩĮ
åĪ¶ä½ľ äºº
èĢ¶ å¤«
æķĮ äºº
ç©¿ è¶Ĭ
åī© ä½Ļ
ç»´åĲ¾ å°Ķ
ä»¥ å¤ĸçļĦ
å¤ĸ çķĮ
æį ī
é» Ľ
éħ ĭ
çļĦå¤§ åŀĭ
çļĦå¤§ éĥ¨åĪĨ
çļĦ ä¸ĸçķĮ
åĴĮ ä»ĸçļĦ
æĢ» é¢Ŀ
å¿ĥ èĦı
åħļ ç»Ħ
éª ı
ç¼ĸ ç»Ħ
æľĹ å¾·
ç²® é£Ł
åĲĮæĢ§ æģĭ
H e
æ¬ º
éħ ¿
åĵĪ åĪ©
è¯į æ±ĩ
ä¹Įåħĭåħ° çļĦ
çĩĥ çĥ§
M y
c od
çĶŁ æķĪ
æĸ° çķĮ
æĮĩ è´£
åı¯ä»¥ éĢļè¿ĩ
å®¿ èĪį
è·¯æĺĵ æĸ¯
åŁ ł
é¦ĸ é¢Ĩ
å·´ å¸ĥ
æį¢ ä¹ĺ
oh n
åĴĮ å¤§
é¢ Ĥ
è¿Ľ åı£
çªģ åĩ»
åĨ² åĩ»
çĲĨäºĭ ä¼ļ
å°Ķ å¤«
ç«Ļ åİħ
æĺİ å°¼
çİĭ å®¤
å·´ åħĭ
ç½ĳ ä¸Ĭ
æģĲ é¾Ļ
çļĦ è¡Įä¸º
ä¸ī çĶ²
197 2å¹´
ä¸´ åºĬ
195 0å¹´
ç³ Ĭ
å°± åľ¨
å¥¥ åħĭ
çī©ç§į çļĦ
S ch
å¾Ĺ ç¥¨
éħ ī
å¸¸ è§Ħ
æĹł éĻĲ
æĦı åĽ¾
éĹ®é¢ĺ çļĦ
æĹĹ å¸ľ
çļĦå±± å³°
çĶµ æµģ
å¡ Į
å¤ª éĥİ
èĬĤ å¥ı
åŃĺ åĤ¨
çĭ¬ çī¹çļĦ
å¤º åıĸ
äºİ200 8å¹´
è¯¥ æł¡
å®Ī æĬ¤
çĶŁäº§ çļĦ
æĹĭ è½¬
åįģ å¤§
è¾ĥ å°ĳ
çĶµå½± èĬĤ
æ°¸ è¿ľ
çĶŁéķ¿äºİ æµ·æĭĶ
3 000
A K
çļĦ å¥³åĦ¿
äºº æīį
æ³ ª
ç¬¬ 6
å½¢ çļĦ
194 2å¹´
ä¸Ĭ æĸ¹
ä»» å¤©åłĤ
è° ¨
ä¼ł å¥ĩ
èĻ ¾
å§Ķåĳĺä¼ļ ä¸»å¸Ń
åĿĲ èĲ½
æĺ Ķ
åŀ ¦
åħŃ æľĪ
è¶³ èģĶ
çļĨ æľª
ä¸Ģ å¤©
åĬł å·¥
åĲİæĿ¥ çļĦ
ç±»åŀĭ çļĦ
.. .
â Ħ
æĹ¶ éĴĪ
è½¦ çļĦ
ç¡® å®ŀ
197 9å¹´
âĨ Ĵ
A I
y n
ä¸Ģ æīĢ
åħ¬ çº¦
åħī è°±
æıı åĨĻ
èĪªç©º åħ¬åı¸
ä¸º çĶ±
æĪ Į
åĮĹ å¹³
æķĻ ç§ĳ
æĢ§ æł¼
äº§ éĩı
ä¿Ŀ åį«
æ¶Ī çģŃ
èĻļ æŀĦ
ä¸ĭ æĿ¥çļĦ
åĽł åħ¶
æŃ£ ä¹ī
çĳ Ļ
äºº ç¾¤
åĿĩ æľī
æĬĢ èĥ½
æ¸© å¸¦
åĺī åºĨ
åİŁ æĿ¥
é¦ĸ ä»»
éĻĲ äºİ
åį¢ çĵ¦
åį°åº¦ å°¼è¥¿äºļ
ç±»ä¼¼ äºİ
åıĳçĶµ åİĤ
L o
éĥ¨ éĥ¨éķ¿
å¤© ä½¿
éĩĳ åĪļ
ç®Ĺ æ³ķ
éĩĩçĶ¨ äºĨ
éĴ¢ éĵģ
1 ä¾ĭ
æĢ ¨
çº¤ ç»´
C P
D NA
çļĦ åľ£
åĽ½ è¯Ń
äºİ 2024å¹´
ä»¥ å¾Ģ
åĲį å½ķ
è· ĭ
çī¹ åĭĴ
åħ± è®¡
çº³ å°Ķ
çª Ŀ
çģµ éŃĤ
éĢı æĺİ
æĶ¹åĪ¶ ä¸º
çļĦ çĶŁæ´»
åĵģ ç§į
æĻļ æľŁ
r u
åĽ½ æĹĹ
åįİ åĮĹ
éļı ä¹ĭ
æĤ ¼
è§£ éĻ¤
èı ±
ç¡® ç«ĭ
197 6å¹´
b y
åĴĮ äººåı£
åħĭ é²ģ
æ¸¯ éĵģ
åĸ Ŀ
å¾Ģ è¿Ķ
F C
æŃ¤ å¤ĸ
éĢī ç¥¨
åĲĳ åĮĹ
éĶ ħ
è®¤ çŁ¥
æľ¯ è¯Ń
æ²¡æľī ä»»ä½ķ
éĢłæĪĲ çļĦ
äºİ200 7å¹´
åħĭéĩĮ ç±³äºļ
æ²Ł éĢļ
ä¸Ń æŃ£
éĹ ¹
æĺİ ä»£
åĶ ¤
er n
17 0
æķĪ çİĩ
èī¯ å¥½
æĲŃ è½½
9 00
éĺ ľ
åİŁ ä¸º
é»ĳ æļĹ
é¸ ¦
åŃĺåľ¨ çļĦ
åİ¿çļĦä¸Ģä¸ª è¡ĮæĶ¿
åĽ½ å®ī
åľ° å¤Ħ
å»º åĽ½
äºĭ åıĺ
çĽ¸ è¾ĥ
æŃ£ æľĪ
å®ŀ åĬĽ
or k
å¼º åĮĸ
å¸ĿåĽ½ çļĦ
çĽ Ĵ
æīĵ å¼Ģ
âĢ §
ç¥ŀ ç¤¾
åħŃ å¹´
è¾ŀ åİ»
å° §
ä¸Ģ éĥ¨åĪĨ
ä¸ĭ çļĦä¸Ģä¸ª
å£« åĿ¦
æĶ¾ éĢģ
198 0å¹´ä»£
åĵį åºĶ
æĬĹ æĪĺ
193 9å¹´
ig n
åľ¨ è¥¿
åĮ ª
å¾· ç½Ĺ
ä½ĵ åĪ¶
æµģ æµª
å¢ĥ å¤ĸ
éĽĨåĽ¢ åĨĽ
ç§ģ ç«ĭ
ä¸Ģ ä»½
å·¥ åħļ
ç§Ł çķĮ
L in
åĽł åºĶ
å¹² çº¿
ä¿Ħç½Ĺæĸ¯ çļĦ
ç²Ĵ åŃĲ
æįĲ èµł
i ver
è®¾ åľ¨
èģĶ åĨĽ
æ¯į èĪ°
å·¡ éĢ»
éĹ´ è°į
äºĮ æ¬¡
çĥ Ĥ
åħĪ åīį
åıĳå±ķ çļĦ
ä¸»æķĻ ç»ĥ
èķ ĥ
å°Ĭ éĩį
çŃī çļĦ
éĺŁ åĳĺ
ç»ĵæĿŁ åĲİ
é¦ĸ æī¹
åı°æ¹¾ çļĦ
æĥ³ æ³ķ
æĺĨ æĺİ
æ§ Ł
æĢ İ
ç¼ Ģ
æ® ·
èĮ İ
ç²¾ çģµ
å¸ķ å°Ķ
åĤ¨ åŃĺ
å»¶ä¼¸ èĩ³
éĺŁ åľ¨
åĬĽ åŃ¦
è½¬ åıĺ
å¼º å¤§çļĦ
ä¼¯ æł¼
è¿ª äºļ
èĽ Ļ
3 åı·
åĬ ¾
ä¸Ń æĸŃ
æ°ĳ æĶ¿
ãĢį ;
è¿ĩ åº¦
æ³¢ çī¹
æĺ¥ ç§ĭ
12æľĪ 31æĹ¥
çº· çº·
/ /
è¯ Ī
åħ¬ ç¤¾
ä¸ĭ åĪĹ
åĬ¨ æĢģ
èĥ½ åľ¨
éĺ² å®Ī
E T
æľī çĿĢ
åıĳ è¾¾
ç®¡ æİ§
åĲĽ å£«åĿ¦
çļĦ é©¬
åľ° ä¸Ĭ
ä»ĸ ä¸º
è¢« åıĳçİ°
éķ¿ æĺ¥
éĴ ł
åķĨ äºº
èı ©
å°ģ éĹŃ
ç¬¬ 10
èĢĮ åľ¨
æĽ´ æĺ¯
å¼º çļĦ
å¥ĸ æľĢä½³
åı¦ ä¸Ģç§į
å¾® åįļ
ation al
çļĦ åĨħå®¹
æľī åı¯èĥ½
éĹ ¯
æ¬¡ æķ°
å¢ĥ åĨħçļĦ
èĽ ®
M O
åħĭ éĽ·
åıĤ è®®åĳĺ
åĲĳ éĩı
åħµ åĬĽ
å°ģ éĶģ
0 9
ä½ £
ä¸º æľŁ
ä¸Ĭ æ¸¸
åħ¬ å¼ı
æ³¨ åħ¥
è¡¨çİ° åĩº
å¸ĥ æĶ¿
é¦ĸ å°Ķ
æĺŁ çļĦ
æ³¢ å£«é¡¿
ä¹Ŀ æľĪ
çľĭ è§ģ
194 3å¹´
ä»¥ æŃ¤
æł¼ æĭīæĸ¯
åŀ £
åıĹ åĪ°äºĨ
ä¸ĵ ç§ĳ
ä¸ĵ æ³¨
æľŁ åĪĬ
ç¦ ¾
çĦ °
åıĤ æ¼Ķ
çĤ¹ æĺ¯
in a
ic k
éĩİ çĶŁ
èī ®
åħ¨ ä¸ĸçķĮ
ä¿ĥ ä½¿
å°¼ æ³Ĭ
è°ĥ ä»»
åİĭ ç¼©
æĺ¯ä¸Ģ åº§
å·¡ æĬļ
éŀ į
éĿŀå»ºåĪ¶ åľ°åĮº
éĺ Ģ
å¤ª åĲİ
éļı æľº
éĤ£ æł·
è®¾è®¡ å¸Ī
æıĲä¾Ľ çļĦ
åŁİå¸Ĥ çļĦ
ç²¾ ç¡®
åı³ ç¿¼
èĭ į
å¼Ģ æĴŃ
ç½Ĺ è®·
è¯º æĸ¯
æŀģ ä¸º
éĽħ åħ¸
èĤ¡ ä¸ľ
å®ľ åħ°
æľī ä¸¤ä¸ª
çŃī äºİ
æ¶ ¨
åĮ» å¸Ī
is h
æĹ¶ åĪ»
è·¯ å¾Ħ
åİ¿ åŁİ
ç»ĵ è®º
åı¤ å¸ĮèħĬ
å·¥ä½ľ äººåĳĺ
åħį çĸ«
è¶ĭ åĬ¿
æĺ¯ ç¾İåĽ½
ä»ĸ äºº
ä½ĵ æĵį
çķ ı
åĪĿ æŃ¥
æ´ª æ°´
åıĻ è¿°
å¤©æĸĩ åŃ¦å®¶
è¿Ļ é¡¹
äºĭ åĲİ
æ´»åĬ¨ çļĦ
åĬłåħ¥ ä¸ŃåĽ½åħ±äº§åħļ
èį£ èİ·
ä¸Ń ä»¥
å¤§ çĲĨ
åīį éĶĭ
é«ĺ æł¡
å®ļ çĲĨ
æ¬¡ åĪĹè½¦
æĦŁ æĥħ
æīĢåľ¨ åľ°
å§Ĭ å¦¹
åľ¨ ä¸Ģä¸ª
ä¸į ä½³
åıĳ èĤ²
åĬ¨ åĳĺ
æľĢ éĩįè¦ģçļĦ
å¤© åĲİ
ç¼ Ĩ
å±Ģ åĬ¿
æĬĢ å·§
çĭ¬ çī¹
èĢĥ åħ¥
è®¨ ä¼Ĳ
æĪª æŃ¢
ag e
l es
èĥ Ģ
å°ı å§Ĳ
éĢī æĭĶ
åĸ Ļ
å§Ķåĳĺä¼ļ çļĦ
å½Ĵ ç±»
ac t
æĭľ åįł
å±¯ éĹ¨
ä¼ļ ç¤¾
èĩª ä¸»
å¤© åºľ
èĭı å·ŀ
ç¦» å©ļ
åĶ® ç¥¨
æĹ¥ æĬ¥
åĩº åľŁ
åħ¬ ç«ĭ
ãĢĭ ()
å¹¶ ä¸įæĺ¯
åĨĽ æĸ¹
ä¸ļ ä½Ļ
éĤ ¹
å¤Ħ åĨ³
çİĩ åĨĽ
çħ Į
å½¢æĪĲ çļĦ
èµĭ äºĪ
åĴ ı
ä¸ľ åĮº
éĺ¿ å¯Įæ±Ĺ
åº§ åłĤ
æĪ· éĥ¨
äººå¤§ å¸¸å§Ķä¼ļ
èŀº æĹĭ
éĻ¨çŁ³ åĿĳ
âĦ ĥ
r on
åľ¨ ä¸Ĭæµ·
ç¼ ¸
åĨ³ çŃĸ
ä»ĸä»¬ åľ¨
am es
as s
C N
åİŁ æľī
çľŁæŃ£ çļĦ
t on
ç»ı è´¹
æĢ» ç»ıçĲĨ
æ°´ æ·±
æĶ¹ èī¯
12 7
å¤ª å®Ī
è§Ħ æł¼
å¼Ģåıĳ çļĦ
åĲ¦ åĪĻ
T O
åŃ ļ
åİŁ çĲĨ
é¦Ļæ¸¯ çļĦ
è§Ĥ éŁ³
å¤± è¸ª
èĭ±åĽ½ çļĦ
æ£® åł¡
çĨ Ķ
åĺī å®¾
195 8å¹´
éĤ® å±Ģ
0 1
æĪĺ ç»©
èİİ çĻ½
åĩº èµĽ
èĢĮ éĿŀ
åĳĺ å¤ĸ
åı¯ éĿł
éĺ¿ åŁº
å·´ å«©
èİ· å¥ĸ
er e
æ½ľ åľ¨
éĽķ åĥı
" ).
ä¹Ĳ åĽŃ
éĽĨ çļĦ
åĽ¾ æ¡Ī
çļĦ éģĵè·¯
è¢ ľ
ç¬¬ åįģäºĮ
åĨĽ äºº
å¤ļ ä¼¦
åĬł æĸ¯
ç±» åĪ«
éĴ §
ç¦ı å°Ķ
é¹ ¦
196 8å¹´
æľĢé«ĺ æ³ķéĻ¢
é¢Ŀ å¤ĸ
èŁ ¹
æĹ¥ çļĦ
èĢĮ éĹ»
é«ĺ å±Ĥ
å¨ģ å°¼æĸ¯
og le
æ°Ł åĮĸ
Play Station
çļĦ æĪĲç»©
æĭ ¯
ä»» æĦı
å¾· æĸ¯
æĽ¾ è¢«
éĽĨ ç»ĵ
ä¼ł éĢĴ
åıĺ æĽ´
199 0å¹´ä»£
èĪª ç«Ļ
ä¾¦ å¯Ł
èı²åĪ© æĻ®
é¢ Į
å½ĵ ä½ľ
å®ī å¦®
18 1
194 7å¹´
é»İ å·´å«©
äºİ200 6å¹´
ä¸Ń åİŁ
éĥ½ ä¸į
åı¤ è¿¹
æŃ» åĲİ
æĲľ ç´¢
æĪĺ åĽ½
æķ° ä¸º
å¤ª åİŁ
éĿ¢ç§¯ åĴĮäººåı£
è§Ĥ èµı
æ¸© æ³ī
çªģ åĩº
æĴ¤ ç¦»
åĵ º
åı¯ åīįå¾Ģ
10 5
å¦Ĥ åĲĮ
ç¡ ħ
ç½® äºİ
ç¡¬ å¸ģ
å¤§ å®¶
å£ ¬
éĺŁ åıĭ
äº¤ åĵį
è§Ĥ å¿µ
éº ĵ
æĲŃ éħį
i um
p en
åľ¨ ä»ĸ
æĪ İ
ä¸ī åĲį
åĽĽ åįģ
ä¿¡ ä»»
æİĴ éĻ¤
è´Ń çī©
åº ¸
ç¥ ·
ç«Ļ èĩ³
ä¸¤ åº§
äºº è¢«
è¿Ļ é¢Ĺ
å¹³ æĪĲ
åıª è¦ģ
è¾ĥ å¤§çļĦ
æĶ¯æĮģ èĢħ
An d
éĴĵ é±¼
ð ¬
æŃ ¼
åĨħ äºļ
æķĻ å¾Ĵ
ä¼ł è¾ĵ
æĳ ĺ
éĺ² åį«
èĿ Ļ
è¯´ æľį
17 5
æĹ¶éĹ´ çļĦ
åĲĪå¹¶ ä¸º
æĭľåįł åºŃ
ä¸ ¢
ä¸º è¯¥
åľ° åľ¨
åĪĨ ä¹ĭ
åĲĳ ä¸ľ
æĸĩåĮĸ çļĦ
æĸĩåĮĸ å¤§éĿ©åĳ½
ä¾Ŀ éĿł
åģļ æ³ķ
é¡º æĹ¶éĴĪ
æĦıè¯Ĩ åĪ°
åĨ ¢
åĪĴ åħ¥
198 1å¹´
çŃĸ åĪĴ
æĹłçº¿ çĶµ
èĿĻ èĿł
æĺ¯ æĹ¥æľ¬
æĹ¥ çĽĬ
è´ ¦
åĲį åı«
åĪĨ äº«
è¢« åĪĹä¸º
ç¾İ ä¸½
è° ķ
çº¦ åħĭ
åĲĳ åįĹ
å°± æľī
ç¬¬ä¸Ģ çĻ¾
çļĦä¸Ģ æ¬¡
ç½ĳ åıĭ
æ¨¡ ä»¿
ä¹Ŀ å·ŀ
å©ļ ç¤¼
ç´¯ ç§¯
å¸ĪèĮĥ å¤§åŃ¦
A d
è¿Ļ åľº
å¤© æĸĩåŃ¦
è®© ä»ĸ
1 12
æ° Ľ
ä¹ĭ å¤Ħ
å¥³ ç¥ŀ
æ» ŀ
å¡ŀ æĭľ
çĥŃ éĹ¨
è¯» èĢħ
èĲ¨æĸ¯ å·ŀ
ç§ ī
åħ¶ ä½Ļ
æĸ¹ ç¨ĭå¼ı
è¿ĺ åĮħæĭ¬
åħ¶ä»ĸ çļĦ
éĺ³ åİ¿
åĥ ļ
å®Įæķ´ çļĦ
é» ı
åıĤ è§ģ
æ²Ļ æ¼ł
å¤ı å¨ģ
å¯º éĻ¢
è®¯ æģ¯
å¹¿æ³Ľ çļĦ
Go ogle
ä¸Ģ åı·
æ± ¶
éĵ Ŀ
æķ° åįĥ
åİŁ åŀĭ
é¦ĸ å¼ł
åĶ ĩ
æĸĩåĮĸ éģĹäº§
å¼Ĺ åħ°
è¡Ģ æ¶²
9 1
åħ° å·ŀ
åĿĩ åľ¨
éħį ä¹Ĳ
æ²¿ çĶ¨
ä¼ĳ æģ¯
æ¯« æĹł
æµģåŁŁ éĿ¢ç§¯
. âĢľ
åľ¨ ä½į
äºº æĸĩ
éķ ¶
åı° ä¸ľ
åĲĳ è¥¿
åį³ ä½į
æĿĥ å¨ģ
æĿ° åĩº
åł µ
çłĶç©¶ ä¸Ńå¿ĥ
M I
ä¿ ±
åĬ¨ å·¥
ä¹Ł æ²¡æľī
å±± åı£
è¿Ĳ ç®Ĺ
æĿ¡ çĽ®
è§ģ åĪ°
åĬ© äºİ
çİ¯ ä¿Ŀ
è¡ĮæĶ¿ ä¸Ńå¿ĥ
194 0å¹´
åı¬ éĽĨ
åĨ° å·Ŀ
çļĦä¸» é¢ĺ
å¹» æĥ³
åľ° åŁŁ
æĿ¥ çľĭ
èĩª ç§°
èĭ± è¶ħ
æ°´ ä¸Ĭ
å½± è¯Ħ
ä¹ī åĬ¡
æİ¢ è®¨
of t
æĺİæĺ¾ çļĦ
èĬĤåº¦ ä½¿
åĵ Ń
åħ° åį¡
åī¯ æĢ»ç»Ł
æ¾ İ
ro und
å°¸ ä½ĵ
D A
çļĦ æīĭ
åľ° åĿĢ
å¤ļ ä¸º
åıĤ æķ°
ä¸ĵ åĪ©
éĿĴ æµ·
äºİ19 1
è´¹ å°Ķ
æ¢ħ å°Ķ
çī©çĲĨ åŃ¦
0 8
ç¬¬ 8
åĽŀ åĽ½
åĽ½å®¶ å®īåħ¨
çīĻ é½¿
197 8å¹´
äºĪ ä»¥
åŁºçĿ£ å¾Ĵ
åĲį é¢Ŀ
ç¬¬ 7
éĢł åŀĭ
ç»Ī èº«
ä¸ĥ å¹´
å®£å¸ĥ å°Ĩ
çģµ æĦŁ
( )ãĢģ
t y
åĵ ©
åĲĮ åŃ¦
ä¸ī çº§
ä½ĵ ç§¯
åĪ¶ è£ģ
æĮĩ ä»¤
æ±ī åł¡
ro s
åħħ åĪĨ
ä¾µ çĬ¯
" (
G B
M us
åĲ ĵ
éĵ ħ
æĢ» åı¸ä»¤
æīĵ éĢł
è´Ŀ æł¼
åĩł å¹´
åıĭ è°Ĭ
å¯º åºĻ
åĪł éĻ¤
èĥ ĥ
æĸ° äºº
æĹı çļĦ
çĪ± å¥½
æ¦ ´
II I
ç½ķ è§ģ
ä¸Ń ä¹¦
åŃĲ åħ¬åı¸
ä¹¦ æ³ķ
196 0å¹´
un g
0 6
C ol
ç¬¬ 11
å¤© ä½ĵ
çĭ Ĳ
ä¹ł è¿ĳ
èĢ¶ å°Ķ
193 8å¹´
ä¼į å¾·
æĦıåĳ³ çĿĢ
ä¸º é¦ĸ
çī º
æ³ķ åŃ¦
åĨĽ å§Ķ
æĽ´ æĶ¹
ä¹Ŀ å¹´
æĪĲåĬŁ çļĦ
äºİ18 8
æ¸ħåįİ å¤§åŃ¦
B o
m y
ä¸Ĭ åįĬ
æĸ° è¥¿åħ°
å¹³ å®ī
çº§ è¡ĮæĶ¿
æ¢ Ń
åĵĪ å¾·
åľŁ å£¤
é¡º æ²»
èĪªç«Ļ æ¥¼
å¤ıå¨ģ å¤·
æĪ ļ
çĻ ¸
ç±³ èĩ³
B O
åīį çº¿
èĤ ¾
éŁ³ èĬĤ
åľ£ è¯ŀ
éĺµ èĲ¥
å´ĩ æĭľ
å¤§ è¿ŀ
æķ° ä¸ª
éĺ¿ å§Ĩ
èģĮ è´£
çĶµè§Ĩ èĬĤçĽ®
æĽ¼ èģĶ
196 4å¹´
æ²¿ çº¿
æŁĲ ç§į
èĩĢ é³į
å¤§ æī¹
åĨĽ èĪ°
éĩĮ æĺĤ
éĢł èĪ¹
çĳ ļ
14 5
åŃĺåľ¨ äºİ
åħ¬åħ± äº¤éĢļ
è·¨ è¶Ĭ
æ¢¦ æĥ³
æľī çº¿
æĸ¯ åĽ¾
ä»» åĨħ
éĶ ¥
åıį æĬĹ
on d
ç¼ĸ åħ¥
è½¬ ä¹ĺ
ä¸ĸçķĮ éģĹäº§
çļĦ å¼Ģ
ç«Ļ æĺ¯
åįİ ä¸º
çĶ· ä¸»è§Ĵ
çª ĳ
195 2å¹´
èĭ¥ å¹²
æĪĪ å°Ķ
é£ŀè¡Į åĳĺ
çļĦ ç¤¾ä¼ļ
ä¸ĭ æ¸¸
çŃī çŃī
æ¸¯ åħĥ
ç®¡ åĪ¶
çłĶ åĪ¶
ä¼¯ åĪ©äºļ
æĹĹ ä¸ĭçļĦ
å·¡ æ¼Ķ
è¡¥ ç»Ļ
éŀ Ń
7 æľĪ1æĹ¥
ç«ĭ å§Ķ
è¯Ħ å®¡
é¢ĳ ç¹ģ
åı« åģļ
çļĦ åı¯èĥ½
å®ļ ä½į
èĭ± å¯¸
åħ¸ åŀĭ
çīº çī²
A V
çļĦ åħ¨
åį ¯
è¡Į è½¦
è¿Ļ åº§
æĻ® åıĬ
æĬķ æīĭ
13 6
æĺĨ èĻ«
ä¹łè¿ĳ å¹³
C C
i le
ä¸º é£Ł
å¹³ å®ļ
é«ĺ å±±
é£İ æĻ¯
å®Į ç¾İ
èĲ¥ åħ»
åŁºæľ¬ ä¸Ĭ
åīį æĿ¥
å¾Ĺ åĪĨ
æĹı èĩªæ²»
åŃ£ èĬĤ
æ¹ĸ å¹¿
æį· è¿Ĳ
åŃ¦ åłĤ
ä¸Ĭ å°Ĩ
æĥ ĳ
äº¤ ä»ĺ
en ce
æ´Ľ çī¹
æ´Ľ éĺ³
ent er
ãĢī ãĢģ
è¾½å®ģ çľģ
åı¤èĢģ çļĦ
çķ ´
åĲĪ çĲĨ
ä¹Ĳ åĻ¨
æľºåĻ¨ äºº
i er
p s
åĴĮ ç¤¾ä¼ļ
åħ¶ åľ¨
æ¸ Ĺ
å®¶ å±ŀ
çĶ± æŃ¤
æŃ¤ åĲİ
ç¦ ¹
å½± å±ķ
æıĲ çĲ´
è§ģ äºİ
æķ´ çĲĨ
ä¸ĸçºª çļĦ
is s
éĢĥ ç¦»
æĵħ éķ¿
å°¼æ³Ĭ å°Ķ
S O
éĻ¢ æł¡
åĽ¢ çļĦ
15 00
æĹ¶éĹ´ ä¸º
197 0å¹´
197 5å¹´
è¡¥ åĬ©
æĻĭ åįĩ
åıĳå¸ĥ äºĨ
åĲ¬ åĪ°
èµ¤ çº¬
ç»´åŁº çĻ¾ç§ĳ
M o
ä¸Ģ äºº
è¯¥ çīĩ
é¾Ļ ç§ĳ
ç½ĳ æ°ĳ
è¡ĮæĶ¿ éķ¿å®ĺ
äº¤æĺĵ æīĢ
å±ı ä¸ľ
æĹ¥ è¯Ń
éĺ Ĳ
åĳ¨ æľ«
ä¹Į é²ģ
çİ¯ ç»ķ
æł¼åħ° çī¹
ST AT
I G
l and
åĪ© å¥¥
éģĵ æŃī
å·´ æĸ¯
åĨľ åİĨ
æĻº åĪ©
äºĭå®ŀ ä¸Ĭ
å·¡åĽŀ èµĽ
ç²¤ è¯Ń
å½° åĮĸ
é¢ģå¥ĸ åħ¸ç¤¼
çļĦ ç¬¬ä¸ī
éĺ¿å°Ķ å·´
ä¿ĺ èĻı
Ne w
æ¯Ĺ éĤ»
u de
çļĦ æ¦Ĥå¿µ
ä¸Ń èİ·å¾Ĺ
æĸ¯ å¤§
åİ¿ æ²»
æ¹ Ľ
éĩĳ éĹ¨
æ· Ģ
å¯Ĩ èĭıéĩĮ
è¯º è´Ŀå°Ķ
æĶ» åħ¥
èŃ¦ åĳĺ
éĽ¶ åĶ®
éĽį æŃ£
æĻ® æŀĹ
or ld
åĽ¾ å½¢
çīĪ çļĦ
çģ« çĤ®
è¿½æº¯ åĪ°
0 7
T r
w it
ä¸Ģ èĩ³
äºº ç§°
äºº æ°Ķ
çī ¢
å¯¹ æ¯Ķ
äºļ ç§ĳ
çŁ¥ åİ¿
æīĵ è´¥
æĭħ å½ĵ
èī °
é¥ ²
195 6å¹´
å¹¿å·ŀ å¸Ĥ
å±Ĭåħ¨åĽ½ æĶ¿åįı
æ¨¡çī¹ åĦ¿
0 2
çļĦ è¥¿
åĮ ¿
æĺ¯ å¯¹
å¤§ åĲĮ
æľī å¤ļ
åĩ °
ä»» ä¸Ńåħ±
æ±Ł è¥¿çľģ
ä¿¡ çĶ¨
åįļå£« åŃ¦ä½į
ä½ľæĽ² å®¶
èĴ¸ æ±½
å¤§ å¸Ŀ
è¯¥ åħļ
ä½ĵ éĩį
èİ± æĺĤ
ä»ħ ä»ħ
èµĶ åģ¿
F or
ä¸Ģ éĹ´
ä¸Ń æĹ¬
æİ ·
çī¹ éĽ·
æĸ° åı°å¸ģ
è¿Ľ å±ķ
éħ ¬
éª ¸
å¤į åĪ¶
é£Ł æĢ§
å®« å»·
åĿĲ æłĩä¸º
è¯¢ éĹ®
æĪĺåĪĹ èĪ°
åħ± è¯Ĩ
éĩį ä¿®
çĽ´ è¾ĸ
é¢Ħ å®ļ
èĪªç©º æ¯įèĪ°
åħ¬å¸ĥ ä¸º
è¾ £
å°Ĩ ä»ĸ
åİŁ å®ļ
éª ¤
å±Ģ éĥ¨
çĵ¦ åħ¹
è£ģ å®ļ
ç§ĭ åŃ£
A G
T E
æĪĲ åĪĨ
å¯¹ ä»ĸ
æĽ´ å¤§çļĦ
çĵ £
17 6
å·¦ æ´¾
æĻļ éĹ´
æľīåħ³ çļĦ
æĭĽ åĭŁ
C H
çļĦ èº«ä»½
ä»¥ 2
ä¸į çŁ¥
çľ ī
æ± ķ
æĭī çļĦ
æĢ» ä¹¦è®°
éľ ĸ
å¸¦ æĿ¥çļĦ
è´Ł éĿ¢
å±Ĭåħ¨åĽ½ äººæ°ĳä»£è¡¨å¤§ä¼ļ
æľĢè¿ĳ çļĦ
M a
Ð °
è¿ Ħ
çº Ĥ
æľī ä¸¤
åī ¿
éĩĮ åħĭ
ç«ĭ ä½ĵ
éĢļ è¡Į
ç³» çļĦ
æĶ¯ çĲĥéĺŁ
åĨ³ äºİ
çļĦä¸Ģ é¡¹
å¤į æ´»
çľŁ äºº
193 6å¹´
ä¹ĭåīį çļĦ
åįģäºĮ æľĪ
è¯¸ å¤ļ
æľĢåĪĿ çļĦ
ä¸»æĮģ äºº
åĲīæŀĹ çľģ
æľ¬ è´¨
æŃ£ ç»Ł
åĲī ä»ĸ
çģ« è½¦ç«Ļ
æĪĺäºī çļĦ
æĽ¿ æį¢
ow n
w e
çĶµ è·¯
è¯¥ åħ¬åı¸
æŁ ¬
åŁİ åİ¿
å¨ ¥
äº¤ çĶ±
æĻ® äº¬
å»ºçŃĳ éĿ¢ç§¯
çº½çº¦ å·ŀ
5 000
çī Ł
ä¾ Ħ
æĢ» ç«Ļ
æ²Ļ çī¹
çĶ² æĿ¿
ä¹ł ä¿Ĺ
æĪĺäºī ä¸Ń
éĢļå¸¸ æĺ¯
å¯ ¡
åĲĦ åľ°çļĦ
åĪĿ çº§
åĪĨåĪ« æĺ¯
è½¯ æĿ¡
å¹´è½» çļĦ
E x
W h
n et
çļĦ æľĢé«ĺ
åĲĮ å¿Ĺ
åį³ åı¯
ic al
æģĲ æĥ§
å¹¿æĴŃ åħ¬åı¸
çģ¾ éļ¾
åĽ½ åħ±
å¸¸ ä½ı
ç¦ı çī¹
ç¬¬äºĮ è½®
é¢Ħ éĺ²
æĹ§ éĩĳå±±
åħ¨åĽ½ éĩįçĤ¹
24 å°ıæĹ¶
åĸľ çĪ±
æĭ¯ æķĳ
3 D
B BC
å¼Ģ ä¸ļ
é© °
ä¹Ł åĽłæŃ¤
æ²» å®ī
æŃ£ è§Ħ
å½± ä¸ļ
æŃ¢ äºİ
çļĦ åĽĽ
èµ ¦
ä¸į è¯¦
åħĭ åĬ³
åĩ» ä¸Ń
å·Ŀ åİ¿
çĽĳ ç®¡
é¹ ī
æĹ¶ å¸¸
é² ¶
çĭ ©
åĢĻ è½¦
åĽ½æ°ĳ éĿ©åĳ½
è¡Ģ ç»Ł
è¯Ħè®º å®¶
çļĦ ç»Ŀå¯¹
äºĨ ä¸¤
æ³ķ åĨĽ
æľŁ æľĽ
åĪĹ å®ģ
èº« ä¸Ĭ
æ¸ħ çľŁ
196 6å¹´
å·® è·Ŀ
åĬłåĭĴ æ¯Ķ
çļĦ ç»ıæµİ
å¾· å·Ŀ
å®ī ç½®
å¹³æĸ¹ ç±³
it e
åĪĨ ç»Ħ
åħĭ å°Ķ
éħ °
åıį å°Ħ
çĶµå½± çļĦ
ç¼ĵ æħ¢
åĵº ä¹³
åľ¨ åĮĹ
æ± ģ
åīį æĸ¹
æĪĺ è½¦
åħī åŃ¦
å¾Ī éļ¾
æ·± åĪ»
å¹² é¢Ħ
é©» æīİ
195 4å¹´
è¿ģ å¾Ģ
æ½ľ æ°´
äº« æľī
æĺ¯ æľī
èĥ °
ä»£ åı·
äºļ å½ĵ
ä¹Ł åı¯
è½¦ äººæ¬¡
10 ä¸ª
æ· ³
æł¡ åıĭ
or y
èĭı è¾¾
çĭ¬ èĩª
å£° ä¼ĺ
è¡Ĺ å¤´
æĿĢ äºº
è¿ľ ä¸ľ
æĸ¯éĩĮ åħ°åį¡
S er
äºº çĶŁ
åĬł é¾Ļ
æĮĩ çļĦæĺ¯
æ» ´
æ³ķ å®ļ
æµ· åħ³
åİ¿ æĶ¿åºľ
å¹¿ ä¹ī
äººæ°ĳ æ³ķéĻ¢
å¤į åĲĪ
çİĩ åħĪ
çīĪæľ¬ çļĦ
åīĳ æ¡¥
èħĵ çī¹
% ;
çļĦ å¤ļ
ä¸Ģ èģĮ
ä¸Ń çŃī
åĴĮ ç¾İåĽ½
æĭī å¤ļ
æĢ» ä½ĵ
æĽ¾ ä¸º
ä¸ĩ å¹´
å¨ģ å°Ķæĸ¯
æľĢåĲİ çļĦ
åŃĻ ä¸Ńå±±
æ£Ģ éªĮ
çº½çº¦ å¸Ĥ
p r
åĲ Ĺ
åĨħ çĳŀ
çĶµ ä¿¡
å¢ ħ
æ°´ åĪ©
å°± è¢«
è½¬ æĴŃ
æīĵ è¿Ľ
æĤ Ł
å¹² æī°
æ°ĳæĹı ä¸»ä¹ī
èĳ¬ äºİ
ç½¢ å·¥
è½¬ç§» åĪ°
1 åı·çº¿
å®ļ å¾ĭ
å·´ é©¬
æĹı äºº
ä¼Ĭ å°Ķ
æĶ¾ ç½®
åı°æ¹¾ çľģ
æ¤ Ĵ
è¿ľ å¾ģ
å¤º åĨł
å¹¿æĴŃ çĶµåı°
èµ·æºĲ äºİ
èħĵçī¹ çĥĪ
a f
ä»¥ åħ¶
æĪĲ åĮĸ
æľ¬ å±ŀ
åħĭ åĪ©
æŃ¤ åīį
èµĽ èīĩ
æķ° åĢ¼
éĩį çļĦ
å§Ķ åĨħçĳŀ
åŃ¦æł¡ çļĦ
æľĢåĲİ ä¸Ģæ¬¡
åĳĺå¤ĸ éĥİ
o st
åĲİ åį«
æµ· æ°´
æīĢ å¾Ĺ
ä¸ī ä½į
ä½ĵ åŀĭ
éĤ ¸
è¯´ æĺ¯
ç¥ŀ çĪ¶
èĬ± èİ²
æ¸¸æĪı ä¸Ń
åħ¸ åŀĭçļĦ
ä»ĭ çŁ³
åĭĥ èī®
ä¸Ģ æĸ¹
åĩº æĿ¥çļĦ
æŀ «
ä½ľ è¯į
éĩĮ ç¨ĭ
å§Ķ å¸¸å§Ķ
ç¬¬ä¸Ģ æī¹
æ¸ħ æ°´
çŁŃ çīĩ
çĩ ¥
åĶ±çīĩ åħ¬åı¸
æĭĺ æįķ
çļĦ åħ¶ä»ĸ
å°± ä»»
çģ« åĬĽ
å¯Į å£«
å°ģ éĿ¢
åİĤ åķĨ
åħ¬åĬ¡ åĳĺ
I A
ä¸ĭ æĹ¬
åįĹ å®ĭ
æĶ¿æ²» å±Ģ
ç»ĩ çĶ°
ç¹ģ å¿Ļ
é¹¦ é¹ī
C ar
ä¹ Ĵ
æĪĲ çļĦ
ç½ Ĳ
éĥ½ åı¯ä»¥
éħ ±
éħ µ
è¾ĥ å¤§
ç²¾ èĭ±
ä¾µ çķ¥
å§Ĳ å¦¹
è¯ŀ çĶŁ
åĽļ çĬ¯
è¢« éĢīä¸º
åĮĹ çº¦
æŃ£ æĺ¯
å¾Ī å¤§çļĦ
ç§» æ¤į
èįī åİŁ
å« ¡
ç®Ģåįķ çļĦ
B l
Ã ¡
çļĦ è¯´æ³ķ
ç» ħ
å°¼ æĹ¥
åĲĦ é¡¹
åıĸ åĨ³äºİ
å¥ĸ åĬ±
å§ĵ æ°ı
çī§ å¸Ī
çıĬ çĳļ
æĦ¤ æĢĴ
0 4
åĬ¨ è¯į
æľĢ æľī
è½¦ èº«
ç«ĭ æ³ķéĻ¢
ä¸ĸ çļĦ
èĲ ¤
æ¬¡ æĹ¥
åľº åĲĪ
è¾¾ å°¼
é¦ĸ æĺł
ç¬¬äºĮ åŃ£
è¯Ĺ æŃĮ
åĪĬ çĻ»
åĩ¤ åĩ°
åĢº åĬ¡
ä¸Ĭ ä¸Ģ
çİĭ ä½į
æĽ¾ æĭħä»»
åĪĴ åĪĨ
åĸ Ĭ
é¥ ±
çĽĳ ç¦ģ
åĶĲ ä»£
è¡Ģ ç®¡
å°¼åı¤ æĭī
äºĭ å®ľ
é©¬ åĬĽ
åħ± äº«
æĮĩ æłĩ
ç»Ī ç»ĵ
æĺ¯ä¸Ģ éĥ¨
åĪ¶éĢł åķĨ
çļĦçī¹ å¾ģ
ç¨ĭåº¦ ä¸Ĭ
èĴĭ ä»ĭçŁ³
SA O
è´« åĽ°
åıĳè¨Ģ äºº
çļĦ æľī
æĶ¿ å§Ķ
å¤ļ å¤«
æĶ¹ ç»Ħ
çŃ¾ è¯ģ
a e
o ol
åľ¨ æ³ķåĽ½
æĸ° ä¸Ģ
é«ĺ å³°
æľº åĬ¨
éĻįéĽ¨ éĩı
0 3
C R
S M
çļĦ æłĩåĩĨ
äºĨ åħ¶
äº§ çī©
å·² åľ¨
æĬ¤ çħ§
åĬŁ çİĩ
åįĬ å¾Ħ
æĳ© æīĺ
æįŁ å®³
æµª æ¼«
å¤įæĿĤ çļĦ
c c
è¿Ļ æ®µ
æĢ» æĺ¯
åįİ ä¸ľ
åĭ ī
å®ĥ æĺ¯
å¼¹ åĬ¾
197 3å¹´
åĲ¯ åıĳ
æ¸Ĳ æ¸Ĳ
æĪĳä»¬ çļĦ
ç¾İæľ¯ é¦Ĩ
é«ĺéĽĦ å¸Ĥ
çļĦ è¡¨çİ°
æ³ Į
ä¸į åıĹ
è¶³ ä»¥
æł· æľ¬
åĩł åĨħäºļ
èĪĨ è®º
æĹ¶ è¢«
æ°ĳ åħļ
ä»£ è°¢
åħĥ å¹´
å¥¥ å¾·
å¸¦ èĳĹ
åĭĴ æĸ¯
ä¼Ĺ äºº
il li
çīĽ æ´¥
ä»ĺ è´¹
ç¹ģ èį£
å¼ĺ æ²»
äºº ä½ĵ
åĲİ æīį
éĩĮ éĿ¢
åŁİ éĻħ
è½¬ åŀĭ
åĬŀ æ³ķ
å¡Ķ åŁº
çħ ®
ä¿Ħç½Ĺæĸ¯ èģĶéĤ¦
sp an
è¤ Ĵ
ç¬ ĥ
çº³ æĸ¯
æ¦ľ åįķ
åı¦ä¸Ģ æĸ¹éĿ¢
åĮĸåŃ¦ å¼ı
Î ²
çļĦ åľ°åĮº
å¤§ æŃ£
éĹ µ
ä¸į èī¯
èī² æĥħ
æľĢé«ĺ çĤ¹
äººç±» çļĦ
æĲŃ æ¡£
é¡ºæĹ¶éĴĪ ä¸İ
s c
åĮĹ å®ĭ
å®ī æīĵ
éĥ½ æ²¡æľī
åĩ» éĢĢ
195 5å¹´
éª¨ éª
æŁĲ ä¸ª
äºİ200 5å¹´
åİŁåĽł æĺ¯
çļĦ éĿŀ
å² ĳ
çł į
å¥¥ åı¤
æĶ¯ æĴĳ
æĵ ¢
çļĦåīį èº«
åĴ Ĵ
æĹ¶ ä¼ļ
åĪ¶ å¤ĩ
æĽ¾ ä»£è¡¨
ä¹Į æĸ¯
æī§ æ³ķ
å®« æ®¿
è¶ħçº§ èģĶèµĽ
æ³ķ å°Ķ
æ³ķ è§Ħ
èį «
çĽ´ å±ŀ
åºĶ å½ĵ
çĳ ¶
ä¾¿ æĺ¯
è¯Ĺ äºº
æĸ¹åĲĳ çļĦ
æļĹ ç¤º
åĭĥèī® ç¬¬
u x
çļĦ åıĮ
ä½ľ çī©
çĶµ åİĭ
ç§ĳ çłĶ
çŁ³ åĻ¨
åľ£ æ®¿
æ´ĭ åŁº
ä¸ģ çĽ®
å¾Ĵ åĪĳ
ä¿Ħäº¥ä¿Ħ å·ŀ
9 ä¸ª
B 1900
ä¸ľ é£İ
æµ· çĽĹ
æ¯Ķ 2
æĶ¿åºľ åľ¨
åĲĦ å¤§
å¼ķ å¯¼
éĵ¶ çº¬
çĶµåŃĲ æ¸¸æĪı
çļĦçī¹ æľī
æĸ°å¢ŀ æľ¬åľŁ
G e
çŃ ĭ
åı¤ å±ĭ
æĶ¾ å°Ħ
åĩı å¼±
ä¼ĬåĪ© è¯ºä¼Ĭ
éª¨éª ¼
æĭī å§Ĩ
ç½Ĺ å§Ĩ
åĳ¨ æģ©
éŃ ħ
éĢģ å¾Ģ
åĭĩ å£«
ä¹ ŀ
å¥ ķ
çĶŁ çĲĨ
ãĢĭ (),
åĬł çĥŃ
æŃ¤ ç±»
å¢ ©
åŀ ĥ
18 ä¸ĸçºª
é² ·
å±Ĥ ä¸º
2019 åĨłçĬ¶çĹħæ¯Ĵ
S H
ä¸Ģ åįĬ
äºİ 189
ä¿ ŀ
çī¹ å®ļçļĦ
å¾· åĪ©
çĪ ¸
æıĲ æ¡Ī
åĪĻ è¢«
æ´Ľ ä¼Ĭ
ï¼ İ
å°ĳæķ° æ°ĳæĹı
bo ok
èĤĮ èĤī
æĸ°åĮĹ å¸Ĥ
L a
ç§° åħ¶
ç§° åı·
12 ä¸ª
ä¿¡ å¥ī
å¯Ĩ è¥¿
ç®Ģ åĮĸ
ãĥ ³
æ²ī ç§¯
åİĺ ç±³
æĩ ¿
éĴ» çŁ³
çļĦ éĩĳ
çŁ ¢
193 5å¹´
éħ¸ çĽĲ
åĩºçĶŁ åľ¨
åĲ¦ åĨ³
å¸ĥæĭī æł¼
åįĹæŀģ æĿ¡çº¦
éĢ¢ æĺŁæľŁ
åĮºè®®ä¼ļ éĢīä¸¾
çļĦ åĪĨ
éĥ¨ åī¯
é«ĺ éĵģ
èµ· çĤ¹
la r
al e
æ³½ è¥¿
åĪĳ éĥ¨
èĳ£äºĭ ä¼ļ
åıĤè°ĭ éķ¿
æĺİå°¼ èĭıè¾¾
å¤ļä¼¦ å¤ļ
çļĦ ä¼łç»Ł
å¤§ å°ĨåĨĽ
æĻ ·
åįİ åįĹ
è´Łè´£ äºº
ç»Łæ²» èĢħ
æĻ¶ ä½ĵ
è´· æ¬¾
Q u
çļĦ æ¸¸æĪı
å¤§ åİħ
åĴĮ ä¸Ń
å½ ¬
åħ¬ ç½²
æīĢ è¾ĸ
æľ¨ åĦ¿
è´¢ å¯Į
ä¸ºä¸» é¢ĺ
å¦Ī ç¥ĸ
ç« ĸ
ä¸Ĭ æł¡
ä¸ĸ ä»£
å¸ĥ åĪĹ
ãģ ®
åĲı éĥ¨
ä½Ľç½ĹéĩĮè¾¾ å·ŀ
l l
åľ ¾
å½ Ĺ
ä¸» ç¼ĸ
ä½ĵ çİ°
æĶ¯ çº¿
ç¬¬ä¸Ģ éĥ¨
èİ± åĿŀ
ç©¿ èĳĹ
ãĢīãĢģ ãĢĪ
åŀĥ åľ¾
æ¯ı æ¬¡
èĪ° èīĩ
ä¸Ńå¤® å§Ķåĳĺä¼ļ
ro m
åĨ² ç»³
ç£ ħ
åºĻ å®ĩ
im e
é¥Ń åºĹ
æĸ¯æ´Ľ ä¼Ĳåħĭ
çļĦ ä»£è¡¨
çļĦ å»ºçŃĳ
å¾· åħ°
10 8
éĺ¿ åĪĹ
æµģ äº¡
å¼º è¿«
ä¹Į æĭī
æŀģ éĻĲ
é¢Ħ æľŁ
èľ ¥
åı°åįĹ å¸Ĥ
å®° çĽ¸
åıĹå®³ èĢħ
ä¹¡éķĩ çº§è¡ĮæĶ¿
å¡ŀæĭľ çĸĨ
ä½ľ çļĦ
åħ³ ä¸ľ
éĺ¿ å¸ĥ
åĳ½ åĲįçļĦ
åħ« å¹´
æ³° å°Ķ
ä¾Ŀ æĹ§
éħĴ ç²¾
å§Ĳ å§Ĳ
çĭ® åŃĲ
åĤ¬ åĮĸ
D R
çļĦ åĨħ
ç¬¬ 9
é¢Ĩ è¡Ķ
å¤ª å®Ĺ
æĿĥ çĽĬ
ç¼ĸ åĪ¶
æ³¢ éŁ³
åįļ å°Ķ
å°Ħ åħ¥
æİ¥åıĹ äºĨ
å½ķéŁ³ å®¤
å¤©çĦ¶ æ°Ķ
çī© æµ¦
èµĽ ä¸Ń
æİĴ çĲĥ
éĤ£ ä¸ª
æ¶Ī éĻ¤
æĺ¥ åŃ£
æļ´ åĬ¨
æ·· åĩĿ
æ´ª æŃ¦
å¹³ è¡Į
æĺİ çļĦ
åĪĹ æĸ¯
åĲĦ çº§
196 7å¹´
ä¸»æķĻ åº§åłĤ
ç¨³ å®ļçļĦ
æķı æĦŁ
ç» °
åĽ´ æĶ»
èĩªçĶ± åħļ
as e
æľ Ķ
ä¸º ä¸ŃåĽ½
æ² ¦
çĻ½ ä¿Ħç½Ĺæĸ¯
æİ¨ çĲĨ
çŁŃ ç¯ĩ
èĮ¨ åŁº
çŀ Ħ
åº µ
æ° °
çĶµ å®¹
å¤Ħ éķ¿
å°± ä¸ļ
é²ģ æĸ¯
âĢĿ, âĢľ
åıĳè¡¨ äºĨ
éļĶ å¹´
åĩ»è´¥ äºĨ
2 ä¸ĩ
C A
çļĦ è½¨éģĵ
ç» £
ä¸Ģ åıª
äºº è®¤ä¸º
çº ±
å¤ļ æĸ¯
åįĹ ç«¯
åĪ© çī©æµ¦
ä½¿ åħ¶
æ¼ ³
ä¸ĸçķĮ çļĦ
èİ« å°Ķ
æ¿ ĳ
æ© ĺ
å¼ķèµ· äºĨ
æĿ¥æºĲ äºİ
åŁĶ å¯¨
å¤±åİ» äºĨ
èĦĤ é²¤
B M
åŃ ¢
åħ¬ å¹³
çĶµ æ¢¯
ä¸¤ å¤§
æĽ¾ æľī
å½¢æĪĲ äºĨ
æ²ī æ²¡
çºº ç»ĩ
å¤§ äºİ
æľī äºĨ
å¯ Ŀ
éĺ İ
è¿Ļ ä¸¤ä¸ª
æĸ° åŁİ
æľĢ å¥½çļĦ
çĥ ¦
è¿ŀ åĲĮ
åħĪ åıĳ
è¯» ä¹¦
éĺµ äº¡
éĽħ åĲĦ
åĵ² åŃ¦å®¶
æŁ¬ åŁĶå¯¨
S P
è¿Ļ ç±»
éĹ´ æİ¥
å¤© ç©º
åİ¿ çº§
åł ķ
é² ¨
çīĪ æĿĥ
è¶ħ äºº
æķħ éļľ
æļ´ éľ²
èįĥ æ¹¾
åįĹæŀģæĿ¡çº¦ ä½ĵç³»
çļĦ è¦ģæ±Ĥ
ä½į åĪĹ
è·¯ åĨĽ
å°¼ å¥¥
12 8
ç©º è°ĥ
åı¯ä»¥ çĶ¨
èĪª è¡Į
èĪ¹ åĳĺ
éĽĨä¸Ń åľ¨
ç¿°æŀĹ éĻ¢
ä¸Ģ èīĺ
åİ ķ
åĪĨ å¼Ģ
è¥¿ æ¯Ķ
å°ı å¹³
èĬ ¯
æ²» çĲĨ
èµ· é£ŀ
åĪĻ ä»¥
æĶ¿æ²» éĥ¨
æķħ æĦı
èĬ± è´¹
197 7å¹´
è¿ģ å¾Ļ
ç´§ å¯Ĩ
çļĦ å¯¹
æµ ı
ä¸į åıĬ
åĪĽ ä¸ĭ
åŃ¦éĻ¢ çļĦ
åģľ çķĻ
éĩİ æĪĺ
åĮħåĲ« äºĨ
æ··åĩĿ åľŁ
å® ¦
åįĹ æĺĮ
è¿Ľ åĨĽ
èĬ ½
æķ° çĽ®
åį³ æĹ¶
æľª æĿ¥çļĦ
æ¯ı å°ıæĹ¶
æŀģ å¤§
èĮĥ çķ´
åĪĽå§ĭ äºº
ç»´ èİ±
åĽŀ å¤į
or n
ä¸ĵ æ¡Ī
æľª ç»ı
16 8
at t
ç´¢ å°¼
ä½ľåĵģ çļĦ
ä¼ļ å¯¼èĩ´
å¾· çĶ²
è½¦ æīĭ
èĢħ åľ¨
æº ´
ç©º éĻį
åĩ» èĲ½
ä¼ĺ æĥł
äºĭä»¶ çļĦ
1 ä¸ĩ
é¢ ħ
å¸Ĥ åĨħ
é©¬ å¾·éĩĮ
ç«Ļ åľ¨
ç»Ħ çļĦ
ç¤º èĮĥ
èĻ ŀ
é»Ħ æ²³
éªĮ è¯ģ
èī¯ å¥½çļĦ
èĤ¡ ç¥¨
Ð ¾
å® µ
åĽ½ å¤ĸ
åĲį åı¤å±ĭ
æľ¬ æĿ¥
æ¼Ķ ä¹ł
197 4å¹´
le y
è¯¸ å¦Ĥ
ä¸§ å¤±
è¾© è®º
èħĲ è´¥
2019åĨłçĬ¶çĹħæ¯Ĵ çĹħ
çļĦ åĨĽäºĭ
ä½ ¥
åŃ ľ
åī Į
ä¸İ å¤§
ä»£ æķ°
è¿Ĳ éĢģ
åİŁ æĿ¥çļĦ
æĶ¯ éĺŁ
çļĦä¸Ģ å®¶
æŃ¦ æľ¯
çĪ± æ²Ļ
èĢģ æĿ¿
ä½ł ä»¬
æģĭ çĪ±
æŃĩ å°Ķ
ä»£çłģ ä¸º
åº¦ è¿ĩ
ç«ĭ åĪ»
åĪĽ æĦı
ç¦ı åĨĪ
æ°¸ ä¹Ĳ
ç»į åħ´
æłª å¼ı
çĪ±æ²Ļ å°¼äºļ
D O
ç¾ Į
å·´ éĩĮ
åī§ åĽ¢
17 ä¸ĸçºª
å¹¸ ç¦ı
å§ĶåĨħçĳŀ æĭī
æłªå¼ı ä¼ļç¤¾
çļĦ çİ¯å¢ĥ
æµ ĳ
æľĢ å°ı
ä¸ľ æĹ¥æľ¬
è° ľ
10 6
åı² æĸĻ
çº³ è¥¿
åĻ ª
åĽŃ åĮº
è¾ĥ å°ı
éĩĬ åĩº
éĢĤ å½ĵ
åĪĽä½ľ çļĦ
ç»ĺ åĪ¶
C E
ä¸Ĭ ä»»
åī ĸ
éļ Ļ
èĤ Ĩ
ç¼ ł
æŃ£ å¾·
éĶ ¯
åıį åĩ»
æĹı èĩªæ²»åĮº
åĽ½å®¶ çº§
åĮĹäº¬ å¤§åŃ¦
193 1å¹´
æ¿Ģ è¿Ľ
ä¸ĺ éĻµ
æĢ»éĥ¨ ä½įäºİ
æħķ å®¹
å°¤åħ¶ æĺ¯
éĩįåºĨ å¸Ĥ
ä¸Ģ å¯¹
201 0
æĪĸ åħ¶ä»ĸ
å¿ĥ çļĦ
åĮħæĭ¬ ä»¥ä¸ĭ
æŃ¥ è¡Į
197 1å¹´
ä»ĭ åħ¥
èĨ ¨
åħĭéĩĮ æĸ¯èĴĤ
ä¼´ ä¾£
å¤§å¥ĸ èµĽ
å¸ĸ æľ¨åĦ¿
åľ¨ åĨħ
æ² §
ç¬¬ 12
å¾Ĺ åĲį
èµ· äºĨ
ç¡ Ŀ
å®¢ ä¸²
æİĴ æĶ¾
å¹² çĩ¥
197 0å¹´ä»£
M et
O pen
åĽ½ åľŁ
åĩ ¹
æĸ¹ éĴĪ
çĶ¨ ä»¥
10 4
å§ĭ äºİ
ä¿Ŀ èĤ²
æ· ¹
ä¸ĵ åĳĺ
è¾ĥ é«ĺ
å®¢ è½¦
ä»ħ æ¬¡äºİ
åĵĪå°Ķæ»¨ å¸Ĥ
S m
éĿ¢ ä¸Ĭ
è¯¥ åī§
æĭī å¾·
å¦ ĵ
å¤į ä»ĩ
æ¥ ł
åĳĬ ç¤º
éĵ¶ æ²³
æĦıè¯Ĩ å½¢æĢģ
çļĦ æ¶Īæģ¯
ç» Ĵ
åº Ĳ
ä¹ĭ ä¹±
è¯¥ åľ°åĮº
äºĮ çĶ²
ç¨ ļ
è¯Ń ä¸Ń
æĽ¾ ä¸İ
å¯¿ åĳ½
çĶĺèĤĥ çľģ
M ac
çĶ± åħ¶
åĮĹ éŃı
åİ¿ éķ¿
æīĭ ä¸Ń
éĴ ¥
å®Į åĸĦ
çĽĳ è§Ĩ
çĴ ĭ
åįģä¸Ģ æľĪ
åħ¬ åĪĨ
èµĽ é©¬
å¥ĸ çīĮ
éĻĲ å®ļ
ä¹ħ çļĦ
åįĹéĥ¨ çļĦ
èĨ Ģ
æĹ¥ è®°
éĿ¢ åĮħ
åħĥ é¦ĸ
çīĩ ä¸Ń
çļĦä¸Ģ ä½į
éĥ¨åĪĨ çļĦ
è¿½ åĩ»
é¡¹çĽ® çļĦ
çī©çĲĨ åŃ¦å®¶
è·ĳ éģĵ
åĵĪå°Ķ ç§ĳå¤«
èĲ¨åħĭ æ£®
e v
s k
åħĭ æĭīåħĭ
ãĢĮ ãĢį
ç±³ çī¹
æ· «
è§ģ è¯ģ
èĪ° åıª
åıĳè¡Į äºĨ
è´Ń åħ¥
åĢŁ æŃ¤
çıį çıł
P r
åľ¨ æ¬§æ´²
ä¸º æĹ¥æľ¬
æľī åĪ©
æĮ Ŀ
äºĭ è¿¹
ä¹Ł å°±æĺ¯
è½¦ åŀĭ
æ¬¡ çļĦ
çĽ¸ å¯¹äºİ
èģĮ äººåĳĺ
åĽ¾ æĽ¼
ic o
èģĺ è¯·
æ®ĭçĸ¾ äºº
3 50
ä¸Ģ å¼ł
åĪĨ æķ£
ç¬¬ 13
æĻ °
å¦ Ĩ
åħŃ ä¸ĸ
èĵ ī
æİ¨åĩº äºĨ
é¢ĨåŁŁ çļĦ
èı© èĲ¨
i i
å¼ §
åĴĮ æĸ°
ä¸Ĭ ç©º
è¿Ļ é¦ĸæŃĮ
åħ¨ åı°
æĹł åħ³
åİĨ ç»ı
11 5
æĴŃ æĺł
å¥ĸ ç«ł
èĪª çº¿
ä¸¾è¡Į äºĨ
çĥĪ å£«
21 ä¸ĸçºª
å®ĩ æĸĩ
æĪ´ ç»´æĸ¯
èĦĬ æ¤İ
æµ ´
ä¸į åľ¨
ç© Ĺ
ä¸Ģä¸ª æľĪ
æĢ» åħ±
åŀ «
æĻ® å°Ķ
åıĪ åľ¨
åĮĹéĥ¨ çļĦ
èĢ³ æĽ¼
åĬŀåħ¬ åİħ
äºİ18 7
å®ĥä»¬ çļĦ
æĸ°åĨłèĤºçĤİ ç¡®è¯ĬçĹħä¾ĭ
æ¸ħçľŁ å¯º
3 åĲį
ä¸º ä»ĸ
çī¹ æĢ§
10 ä¸ĩ
åĪĹ é¢ł
æµģ éĢļ
æ´» æĢ§
æ¨ Ł
èĶ ½
ç¼© çŁŃ
å¨ģå°Ķ å£«
ä¹ ĵ
åľ° åĬ¿
åĲį åĪĹ
åĪĨ æŃ§
âĢĿ ;
æľº ç»Ħ
10 9
ç¬¬ä¸Ģ è½®
åį¢ æ£®åł¡
æİ¨åĩº çļĦ
å®īå¾· çĥĪ
æº¶ æ¶²
åı°ä¸Ń å¸Ĥ
. (
D P
æĹ¶ å°ļ
ä¸Ĭ èİ·å¾Ĺ
ä¸İ ç¾İåĽ½
çĵ¦ æĭī
åį° åľ°
åĳĬ çŁ¥
éĻį èĲ½
re t
æĳ© æł¹
æłĳ æľ¨
æ©¡ èĥ¶
? âĢĿ
R o
äºº æīĢ
å» ¿
è¿Ļ éĥ¨
ç§ĳ åĮ»çĶŁ
å¥¥ å¤ļ
åĳ½ è¿Ĳ
çĳ °
è´¹ åŁİ
å§Ķåĳĺä¼ļ å§Ķåĳĺ
å¤ªéĺ³ åħ¬
çĹĽ èĭ¦
âĪ Ĵ
äºº éĥ½
è¥¿ èĴĻ
å¤© æ¡¥
ç¤¾ åĽ¢
å°ĳ éĩı
åĻ¨ å®ĺ
æİ¨ è¿Ł
å© ·
ro w
å½¢å¼ı çļĦ
è½¨éģĵ äº¤éĢļ
å¹¼ åĦ¿
éģµ å¾ª
æŃ¤ äºĭ
éĩĳ æĽ²
åħļ ç±į
æĬ¥ å¤į
çķĻ åŃ¦
éŁ³ä¹Ĳ å½ķå½±å¸¦
è¯Ĩ åŃĹ
il d
çģ¾ å®³
éļĲ èĹı
å°Ĩ äºİ
å¯¼ å¸Ī
åį¡ çī¹
è´¨ çļĦ
16 5
è®¯ åı·
éĢĥ äº¡
ä¿Ĺ ç§°
æĹ¥æ²» æĹ¶æľŁ
é¢Ĩäºĭ é¦Ĩ
ä¸Ģ å¤Ħ
19 18å¹´
åĮĹ æŀģ
åħ¥ çĲĥ
äº¤ å¾Ģ
è¿ĳ ä¼¼
195 7å¹´
195 9å¹´
åį¸ ä»»
è¿Ļé¢Ĺ å°ıè¡ĮæĺŁ
y le
ä¸Ģ åįĥ
æĹ¶ ç©º
æĸ° åŀĭ
æŀĹ èĤ¯
æĽ¾ äºİ
ä¹¦ åºĹ
åķ ¤
èĢģ æĮĿ
äºĨä¸Ģ ç³»åĪĹ
192 8å¹´
æµĵ åº¦
æ²³éģĵ åħ¨éķ¿
è®½ åĪº
A pp
æĭ ¾
ä¸į éľĢè¦ģ
åı¯ çĶ¨
åĽł åŃĲ
201 8
èĢħ åĴĮ
åİĨ ä»£
åĽ¢ éķ¿
å¤§åŃ¦ çĶŁ
åł¡ åŀĴ
193 3å¹´
åºŁ å¼ĥ
è¿Ħ ä»Ĭ
B E
y st
æĪĺ èĪ°
å·¥ éĥ¨
13 8
ä¸ľéĥ¨ æĹ¶åĮº
çģŃ äº¡
AT P
N G
ä¸» äºº
èī ³
å¾· åĭĴ
æĸĩ éĿ©
äºĮ æ°§åĮĸ
åĽĽ äºº
çª Ł
çīĽ æĸ¯
æ¨ª æ»¨
æĩ Ĥ
çļĦ ä¿¡
æµ· åºķ
æ¡ ¨
æĹł éĶ¡
äºĶ ä¸ĸ
åıĪ è¯ĳ
æĺł å°Ħ
ä»¥ 1
åħ¬ æĬķ
æĶ¶ å¤į
16 4
æĤ Ķ
çĨŁ æĤī
éĦĤ åĽ¾æĽ¼
æĭĺ çķĻ
å¤« çī¹
ä¼¦ çĲĨ
åĺ Ľ
æ¨ª è·¨
å¯ ħ
çİ «
çĶŁ åīį
æĢ» ç»ĵ
ç² ĺ
193 0å¹´
äºİ200 4å¹´
éģµ å®Ī
ä¸°å¯Į çļĦ
çļĦ çĽ®æłĩ
åĲİ ä»£
âĢĿ )
äºĮ åı·
ç½Ĺ éĹ¨
å°± åı¯ä»¥
èĲ½ å®ŀ
çĿ¡ çľł
å¹ ¢
ä¸ª åĪ«
æıĲ åĢ¡
00 å¹´
åį¡ æĸ¯èĴĤ
æłĩ ç¤º
çĻ½ äºº
çľŁ çļĦ
ä¼ģ åĪĴ
In st
ä»ĵ åºĵ
çº³ç²¹ å¾·åĽ½
u k
à ¤
åľ¨ ä»ĸçļĦ
æĬ ¬
æĽ Ŀ
ä¸» åĶ±
çŃ Ľ
éĿ¢ 2
æł¼ èİ±
åĢ ª
æĺŁ éĻħ
çľĭ èµ·æĿ¥
å®Ī å¤ĩ
ä¹Ĵ ä¹ĵ
3 0å¹´
ä¸į åı¯èĥ½
å°± å·²ç»ı
è¿ĺ åİŁ
è§Ĵ éĢĲ
åįĩ éĻį
çº¢ åįģåŃĹ
å½±åĵį åĬĽ
è¯Ńè¨Ģ çļĦ
èĮ¨ åħĭ
æĮĩæĮ¥ éĥ¨
åĽ´ç»ķ å¤ªéĺ³åħ¬
ä¸Ģ è·¯
æķ° çłģ
ç§ĳ ç½Ĺ
åħĥ æľĹ
éª Ĥ
æļ ĳ
ç»Ļ ä»ĸ
ç»Ļ äºĭ
åį« åĨķ
çĻ» å½ķ
éģĹ ä½ĵ
é©» å®Ī
æĹĭ å¾ĭ
è¡£ æľį
é«ĺçŃī æķĻèĤ²
æĢ»çĿ£ åºľ
åĽ´ç»ķå¤ªéĺ³åħ¬ è½¬çļĦå°ıè¡ĮæĺŁ
F ace
e ar
è° ı
å·´ çī¹
åıĪ è¢«
ar a
åįļ è§Ī
193 2å¹´
å·® åĪ«
æ¯ĶåĪ© çīĽæĸ¯
éĹ½ åįĹ
åĽ½æ°ĳéĿ©åĳ½ åĨĽ
çļĦç»Ŀå¯¹ æĺŁçŃīä¸º
çļĦ çĥŃ
æĿ ı
æķ ·
æĹ¥ åľ¨
åıĬ åĪ©äºļ
èŃ¦ åĬ¡
åĨĻ æĪĲ
æ°¸ åº·
çŁŃ æľŁ
æ¯ģ çģŃ
ä¸Ģ å¼Ģå§ĭ
ä¸Ń ç«ĭ
äºº æĺ¯
æ°ĳ çĶ¨
åħ¨ æķ°
16 6
13 5
æ¶Ī èĢĹ
M an
i el
t a
ä¸Ń æ¯Ĵ
æľī æĦı
è¥¿ åħĥ
æĻ ¤
çİĭ çļĦ
12 6
èģĮ èĥ½
çŁ³ å¤´
æĬ¤ åį«
æľĢåĲİ ä¸Ģä¸ª
è®¾ç«ĭ çļĦ
äºİ18 6
è¿Ļé¢Ĺå°ıè¡ĮæĺŁ çļĦç»Ŀå¯¹æĺŁçŃīä¸º
2 åı·çº¿
èĢĮ ä¸Ķ
è¢« åĪĹåħ¥
å¯¹ è¯¥
æĸĩ å¸Ŀ
è¦ģ å¡ŀ
å·´ å¡ŀ
åĪ« å¢ħ
å±Ģ å±Ģéķ¿
åķĨ æłĩ
æ¸ħ æĻ°
çľŁ çĽ¸
æ³¨ å°Ħ
196 0å¹´ä»£
æ¯Ĵ åĵģ
æļĹ æĿĢ
çĥ§ æ¯ģ
éĽķ åĪ»
w h
çļĦ å®ĺæĸ¹
åľ¨ åīį
ä¸Ń ä¸ľ
èģĶ éĺŁ
çĥ ¹
å¤« åĭĴ
å¾Ģ æĿ¥
en g
é³ ĥ
å¥ī åĳ½
è¿Ī åħĭ
åĳ¨æģ© æĿ¥
ç» İ
åĴĮ ä¸Ģä¸ª
ä»¥ æĿ¥çļĦ
èĪ ħ
çĶµ ç£ģ
è·¯ ä¸İ
å¸ĥ ç½Ĺ
é©¬ åľº
æĻ® éĩĮ
å¯Ĩ çłģ
äºī è®º
åĲī äºļ
ç¢ ĺ
åĲ« ä¹ī
ç¿» æĸ°
æľī ä¸ī
èĢħ ä¸º
è¿Ĳ è½½
æİ¥ ä¸ĭæĿ¥çļĦ
éĺ¿ å¯Ĩ
äº¤ æĪĺ
ç½ĳ é¡µ
å»¶ è¿Ł
æĵ Ĵ
æĻĭ åįĩä¸º
ä»ª åĻ¨
å£ģ çĶ»
ä¼ļ å°Ĩ
åįİ ä¾¨
æ® ī
å®ŀ ä¸ļ
å¼Ģå§ĭ äºĨ
éĺ³ åħī
æĹ¶éĹ´ åĨħ
ç§» äº¤
196 5å¹´
èįī æ¡Ī
ç«ĭæ³ķ å§Ķåĳĺ
1 18
p l
ä¸Ģ åĳ¨
åĲİ è£Ķ
ä¸İ ä¸ŃåĽ½
è¥¿ ä¼¯åĪ©äºļ
å·² æĪĲä¸º
çīĩ çļĦ
æĶ¾ æĺł
15 8
æ±ī æĹı
å© ī
è®¡åĪĴ çļĦ
195 1å¹´
çİ°ä»£ åĮĸ
é£İæł¼ çļĦ
å¸Ĩ èĪ¹
e c
åĨ ¶
æľī ä¸ĢäºĽ
æĮ «
åħ¥ çĭ±
æ°´ åĩĨ
12 9
èº« é«ĺ
å±ħ äºİ
äºĮåįģ ä¸ĸçºª
ç¼º éĻ·
å¢ĵ èĳ¬
åĪļ æŀľ
å·© åĽº
3 ä¸ĩ
åĮ £
åĽ½ ç±į
å¤§ åŁĶ
ä»ĸ å¯¹
åĮĹ ç¾İæ´²
çº¿ æĺ¯
ç¼ ª
åĢ Ń
16 ä¸ĸçºª
ä¸įåĲĮ äºİ
çľŁ èıĮ
éĢīä¸¾ ä¸Ń
æī© æķ£
æ¾İ æ¹ĸ
æĸ¯å¤§ æŀĹ
ä¸Ģ ç¾¤
è¡ ·
åĵ ĩ
æĸ° çĶŁ
å£ ¶
é©¬ è¾¾
éĢļ æĬ¥
åħļ åĨħ
å¼ł åįķæĽ²
ç¥ŀ çļĦ
æ¸ħ å»·
èµ° å»Ĭ
æľ« ç«¯
è¯¸ èĳĽ
æĤ£ æľī
åĴ¸ ä¸°
æĢ»é¢Ŀ ä¸º
ä¸Ģ è¾Ĩ
åĽ½ åħ¬
æĺ¯ ä¸º
ä¸į ä¸Ģ
å¼Ģ æĻ®
æĪĺ è´¥
æ°´ çļĦ
å·´ æĭ¿
éĩĩ çº³
ç¤¾ä¼ļ çļĦ
å´ Ľ
196 9å¹´
æģ¶ åĬ£
èĢĥèĻĳ åĪ°
æĹħå®¢ éĵģéģĵ
I F
è ł
å¤§ åŃĹ
å¸ĥ å±Ģ
é¦ĸ å±Ĭ
å¤§åŃ¦ æķĻæİĪ
éĻĨ æĪĺéĺŁ
15 5
en n
æīĺ å°Ķ
ä»į æĺ¯
äºİ200 0å¹´
èŀį åħ¥
æ³ī å·ŀ
çĽ¸è¾ĥ äºİ
åħ ĳ
ä¸į åĪ©
ç½ ¹
æĸ¹ å½¢
åı¯ çĶ±
åĪ© çī¹
åĵĪ ä½Ľ
è¿ľ ç¦»
æľįåĬ¡ çļĦ
åħ³ç³» çļĦ
èĤ¯ å¡ĶåŁº
éĺ¿åŁº åĿ¦
) (
e x
ç« Ń
éķ¿ å¤§
å¥³ æŃĮæīĭ
è¿ĺ è¦ģ
åħŃ åįģ
å¥½ èİ±åĿŀ
æ·± åıĹ
çĥŃå¸¦ ä½İæ°Ķåİĭ
O ne
çļ ĸ
å¸ĥ ç½®
å®ŀ ä¹ł
195 3å¹´
å²Ń åįĹ
çºµ éĺŁ
Com p
åĽ½ ä¼ļè®®åĳĺ
å¼Ģ è¾Ł
é« ĵ
æĢ§ è¡Įä¸º
åŁİ åĨħ
å°¼ åŁº
æµģ æĶ¾
èµĦ æ·±
ç¥ŀ åºĻ
ä¹Į å°Ķ
ç¢ Ĺ
åŁĥ å¡ŀ
13 7
ç¥ĸ ç±į
çĽĳ åĪ¶
re e
åģ¶ å°Ķ
æĶ¶è§Ĩ çİĩ
ä¸ĵæ³¨ äºİ
éĥ¨ åĴĮ
éķ °
è¿Ľ çĲĥ
çł Į
ä»İ æŃ¤
ä¼Ĭ ä¸½
éĵģè·¯ å±Ģ
éĵģè·¯ åħ¬åı¸
è§Ĵèī² çļĦ
ä¼łæķĻ å£«
å¡Ķå°¼ å¤§åĮº
O R
ä¸Ģ çĶŁ
æĹ¥ èĢ³æĽ¼
åıĳ çļĦ
æľ¬ æ¬¡
æľĢ åħ·
åīį å¤ķ
çĽ¸ è¿ĳ
èĭ± å±ŀ
åºĶ çĶ¨äºİ
ä¼ł æī¿
è¾ĥ é«ĺçļĦ
å¤± ä¸ļ
æ¦ Ĩ
ç§» éĻ¤
éĵģè·¯ è½¦ç«Ļ
ç¤¼ æĭľ
èĶ ĵ
åīĬ å¼±
æĭ¨ æ¬¾
æł¸éħ¸ æ£Ģæµĭ
B 48
çļĦ éĩį
çļĦ ä¸¤ä¸ª
çļĦ æķ°éĩı
ä¸Ģ è§Ĵ
èĢĮ ä¸įæĺ¯
çĦ ķ
å¤Ħ ç½ļ
al d
æģ© æĸ¯
13 9
å¯¼èĩ´ äºĨ
om e
éģĩ éļ¾
æįŁ åĿı
éĤĵ å°ıå¹³
æ²¼ æ³½
çļĦ ä½¿çĶ¨
å· ¾
å¯ Ĥ
çĶ± ç¾İåĽ½
æµ· æ¹¾
ä¹Ł æĪĲä¸º
ç¥ ĩ
åĪ¶ åĵģ
å¥¹ ä¸İ
èĪª æµ·
éĽĨåĽ¢ æľīéĻĲåħ¬åı¸
æĲ¬ åĪ°
è¯ºæĽ¼ åºķ
äºº äºĭ
åŃ¦ åĳĺ
åħ¶ é¡¿
æ°ĳ åħµ
ä¸ī éĥ¨
201 6
éĤ ¢
è£ ¤
å»¶ å®ī
æİ§åĪ¶ çļĦ
ç¡¬ æ£ĺ
è¿Ī éĺ¿å¯Ĩ
è´© åįĸ
å¥ł å®ļ
æĸĩ çļĦ
é«ĺ åľ°
å½ĵ åīį
æľŁ å¾ĴåĪĳ
æĦ ļ
å¤« çļĦ
æ¢ ĵ
åĩ» æ²ī
æľª è¢«
æŃ» èĢħ
æ¥¼ æ¢¯
æī§ æķĻ
çº½ è¥¿åħ°
æĿ¿ åĿĹ
ä¸Ńéĥ¨ æĹ¶åĮº
1 æĹ¥
äº ı
æĸ¯ å¨ģ
ä¸İ æĹ¥æľ¬
åı¯ åĪĨä¸º
å¾Ĺ åĩº
æĶ¹ çĶ±
è¿ĺ ä¼ļ
åį³ ä¸º
å¼Ł åŃĲ
äºĮåįģ ä¸Ģ
åĮ ¾
åĴĮ 1
åĲĪ èĤ¥
ç¡ Ĵ
an ce
on t
çļĩå®¶ æµ·åĨĽ
ä¾¦ æİ¢
çļĦ å®¶
è¿ Ń
äºİ 2025å¹´
ä¸į åĪĹé¢ł
ä¸ľ æ±ī
éŁ ¶
æİ¥ å¾ħ
æĹł æķĪ
åħļ æ´¾
çĽ´ éĢļ
çĥ ¤
å¸¦ åĪ°
çłĶç©¶ äººåĳĺ
åģļ äºĨ
195 0å¹´ä»£
å®½ åº¦
çĤ® åħµ
å« Ķ
äºİ é¦Ļæ¸¯
å¤§ éĥ¨ä»½
å·ŀ åĴĮ
é¦ĸ éĥ¨
æĿ¡ çº¹
å¿« ä¹Ĳ
çī¹åĪ« è¡ĮæĶ¿åĮº
åıįå¯¹ æ´¾
ä¸Ńåįİæ°ĳåĽ½ æĶ¿åºľ
ä½į åľ¨
è¿ĩ å¾Ģ
æķĻ å¯¼
èĮ ¹
åģļ çļĦ
èĸ ¯
ul t
è´µå·ŀ çľģ
w ith
åı ¹
ä¸Ń ä¹Ł
å» ĵ
å°Ĩ è¯¥
æľį é¥°
åŁĥ å¾·
æī¹ å¤į
å¸ķ æĭī
çŃ¾ ä¸ĭ
è¿ģ åħ¥
åī© ä¸ĭ
çĸ¯ çĭĤ
éĺ¿å°Ķå·´ å°¼äºļ
å½ Ŀ
ä¸İ ä»ĸ
ä½į å±ħ
é©¬ åĪ©
ç¼ ī
å°¼ å°Ķ
åŃĹ ç¬¦
æ¨¡ ç³Ĭ
å»ºç«ĭ çļĦ
åį¡æĸ¯èĴĤ åĪ©äºļ
I s
T H
çļĦ åħī
è¥¿ å¾·
é«ĺ ä¸½
å®ŀ è´¨
èĭı åĨĽ
åħµ éĥ¨
äºİ200 3å¹´
è¿« å®³
éĨ Ľ
æĭ³ åĩ»
ç½¢ åħį
æ¶Īè´¹ èĢħ
3 60
B r
a de
å¼ ¼
ä¸İ åīį
åıĬ æĹ¶
åĮĹ æ´ĭ
åĲĪ éĢĤ
æ¬¡ åŃĲ
åıį å¤į
é£İ éĢŁ
åºĦ åĽŃ
çıł æµ·
å¼ķåıĳ äºĨ
å¯Ħ çĶŁ
åģľè½¦ åľº
å¢ĥå¤ĸ è¾ĵåħ¥
çŀĦ åĩĨ
9 0å¹´ä»£
o od
åĨ ¥
æĹ¶ éĢŁ
ä½¿ èĢħ
è¾¾ åĪ°äºĨ
åįİ çº³
æĶ¹ ä»»
åĲĦ çķĮ
æ¸ħ åĨĽ
çļĩ å®¤
å®ģ å¤ı
å·¡ èĪª
192 4å¹´
ä¿Ŀå®Ī åħļ
æŁ´æ²¹ æľºè½¦
ç»ĳ æŀ¶
éĽ ģ
è¿Ľ é©»
å¤ĸ ç±į
çĽ¸ ä¼ł
éĻ¢ å£«
æ£ ł
åī§ ç»Ħ
æ¯ı ä¸Ģä¸ª
æīĵ åħ¥
å¼Ĺ åĲī
åĩı è½»
å¿ĥçĲĨ åŃ¦
! âĢĿ
. ãĢĮ
åĴĮ å°ı
æľĪ åĪĬ
ç¬¬ 15
è¿Ľ ç¨ĭ
è¡¨ å½°
æİ¥ é©³
ä¿Ŀ åģ¥
å¹¿ å²Ľ
åıĮ åĲĳ
æ³° åĽł
è®¡åĪĴ åľ¨
ä¾µ èļĢ
äºİ18 5
æ¸Ķ ä¸ļ
Lo ve
åħ¬ æŃ£
æ¸ ´
è¢« åĪ¤
éĩĮ å¥ĩ
å¸ĥ æĸ¯
10 1
or g
åĮħæĭ¬ äºĨ
è± ļ
è¾ĥ å°ıçļĦ
çĽŁ åıĭ
çĶŁæ´» çļĦ
æ®¿ è¯ķ
å®¶æĹı çļĦ
åĽ½ç«ĭ åı°æ¹¾
oun d
çľģéģĵ åı°
E X
çļĦ å¥³æĢ§
éĩĮ å¥¥
åĮĹ ä¼Ĳ
201 7
éĶ £
æĺŁ äºĳ
ä¼ł è®°
æ» ĩ
åĵĪ é©¬
ä¼¦ æĸ¯
éĺ² æĬ¤
çļ® å°Ķ
è¤Ĳ èī²
æĥ© ç½ļ
å½Ĺ æĺŁ
M C
o o
çļĦ æĹł
åĽ½ å°ı
åĮĹ åį¡ç½Ĺ
æľĢ æĸ°
çī© ä¸ļ
åŁº å°Ķ
éĽĨ ä¼ļ
åĽ½å®¶ åĴĮ
åĪĽ ä¸ļ
åĽ½éĻħ èµĽ
éĿĴ éĵľ
196 1å¹´
re f
è®² è¯Ŀ
åĲĽå£«åĿ¦ ä¸ģåł¡
I L
W orld
y l
æķ ķ
èĥ ļ
åħĭ ä¼¦
äºļ çĥŃå¸¦
èĪ ¶
å½¢ åĬ¿
åĪĿ å§ĭ
æĬķ å½±
ä¼ļè®® ä¸Ĭ
æĻļ å¹´
ä¼ĳ éĹ²
åĲĮ ä¸º
å°ı é¡¹
ç«Ļ åĨħ
çĬ ģ
é¥ ¿
èĲ½ åĲİ
åĬ¨è½¦ ç»Ħ
åŃ£åĲİ èµĽ
w ard
çļĦ åįķ
çļĦ å¤´
äºº åĿĩ
èµ İ
è¡Į ä½¿
åıĳ éĢģ
æľĢ èĳĹåĲįçļĦ
æł¼ æĸ¯
æİ¥ åĬĽ
çİ¯ èĬĤ
åı³ ä¾§
ç»Ŀ å¤§å¤ļæķ°
193 4å¹´
èľ ¡
å¤ĦçĲĨ åĻ¨
æĻ®ç½Ĺ æĹº
ä¸Ń éĺŁ
äºº å¯¹
æĺ¯ ä½įäºİ
æĪĺ ä¸Ń
åı£ å²¸
éĺ¿ å¡ŀæĭľçĸĨ
11 4
ä¸ĥ ä¸ª
æĺ¾ å¾Ĺ
è¿½ éļı
æĤ¬ æĮĤ
åĸĩ åĺĽ
çİ« çĳ°
çļĦ æ¯įäº²
ä¸Ģ æ¬¾
èµ ļ
ä¼ļ ä»¥
åĲĮ æĹ¥
å±± åĿ¡
æĻ® æ£®
la ss
éħį è§Ĵ
æĢĿ èĢĥ
åºŁ æŃ¢
r ist
ä¸º ä¸Ģä¸ª
ä¸Ģ çŃī
æľ¬ åī§
å¾· è¯Ń
é¦Ļæ¸¯ æĶ¿åºľ
å®£ èªĵ
æĸ½ è¡Į
åįł æ¯Ķ
è½¨ çĶµè½¦
çĻĮ çĹĩ
çļĦ æĬĢæľ¯
éģĵ æķĻ
äºĮ çĻ¾
åİŁ æĸĻ
å¸¸ çĶ¨
åĽŀ æĶ¶
æĪĲä¸º ä¸Ģä¸ª
å¸¦ çĿĢ
é¾Ļ ç±»
åħī æĺİ
å·¦ ä¾§
éĺµ çº¿
èĤ¯ å°¼
æĢĢ åŃķ
çģĮ æľ¨
æ±ŁæĪ· æĹ¶ä»£
b ack
t r
Ä ģ
çļĦ åĲįç§°
åĮ Ģ
19 12å¹´
è¿Ľ ä¿®
æĪĺ æĹ¶
ç¨ ½
éĩĳ åĥı
å¸Ī åĽ¢
çļĦä¸Ģ åĲį
æŃĮ åī§
æİĴ åºı
ç¤¼ éĥ¨
æ³½ è¿ŀ
åĢ¾ æĸľ
èĤĸ åĥı
åįłåľ° éĿ¢ç§¯
åºĩ æĬ¤
æ°ĳ èĪª
éķ¿ èĢģ
å¼Ģ éĻ¤
ç«ĭ å¤§åŃ¦
éĵ Ģ
æ· ĭ
an k
åĽ¾ å°Ķ
çłĶç©¶ çļĦ
è¶³ æĢ»
è¿½ è¸ª
æłĳ æŀĹ
ç½Ĺé©¬ å¤©ä¸»æķĻ
æ¨¡å¼ı äº§
åŀĴ æīĵ
åĳĬç¤º çīĮ
ä» Ĺ
ä¼ļ è®¡
åĩº èµĦ
å¤ļ ä½į
å®ī åİ¿
ä¸¤ é¡¹
è£ Ļ
ä¼ł åħ¥
11 3
è¾¹ å½¢
çĻ¾ è´§
åıĳå¸ĥ çļĦ
æ¿Ģ ç´ł
äº« åıĹ
çŀ ¬
éī´ äºİ
éĻ¨ åĿĳ
be gin
çĽĨ åľ°
åī¥ å¤º
çļĦ éĢŁåº¦
è¯ ł
åĲİ åĭ¤
ç¾ Ł
çī¹ åĴĮ
æ°´ éĿ¢
å°¼ çļĦ
æ¬§ éĺ³
14 8
ç¥¨ ä»·
åı¦ä¸Ģ ä½į
ig h
ä¹Ķæ²» äºļ
è¿ĳå¹´ æĿ¥
ä¼ĬåĪ©è¯ºä¼Ĭ å·ŀ
åĲ ¡
ä¸Ģ åħ±
ä¸Ĭ éĿ¢
ä¹ĭ çĪ¶
æı ½
åĪ¶ æľį
éĩĳ é¢Ŀ
çİĭ åĽ½çļĦ
åĮħ è£ħ
æīĭ çļĦ
é¦Ļæ¸¯ çĶµå½±
æĬ¤ å£«
è¾¹ çĸĨ
17 3
åį°åº¦ æ´ĭ
çº¦ç¿° éĢĬ
æ³ķåħ°è¥¿ å¤§åĮº
å´© æºĥ
âĶĢ âĶĢ
äºĨ åľ¨
ä¹Ł å°Ĩ
åı£ åı·
åħ¨ å¹´
æ¯Ķ å°Ķ
å¸¸ è¢«
å¤ª ç¥ĸ
15 6
è¯Ħ éĢī
éĻį çº§
ç´¢ å§Ĩ
196 2å¹´
åĬ¨çī© çļĦ
çĶŁçī© åŃ¦
é¢Ĺ ç²Ĵ
æ³ķåħ°åħĭ ç¦ı
çĭ© çĮİ
G P
äºİ ç¾İåĽ½
åĴĮ ä¸ŃåĽ½
æĹ¶ 30
ä¸Ĭ å±Ĥ
ç¬ Ľ
æľ¬ åĲį
éĥ½ èĥ½
è£ ¹
ç¿ ¡
æĭħ å¿§
å¸Į çī¹åĭĴ
èĢģ èĻİ
ä¸ĢçĽ´ åľ¨
D C
E d
O n
S N
åĴ Ģ
åħ¬ æ¼Ķ
å·¥ èµĦ
æķ° åŃ¦å®¶
æ²³ åĨħ
åıĺ éĩı
ç¼ĸ æĽ²
åħĪ éĶĭ
å¼ķ åĬĽ
as h
ros oft
ä¼Ĭä¸½ èİİçĻ½
U R
èĩ Ń
åĪĨ åī²
ä¹Ł ç§°
æķĻ ä¹ī
ç»´ æĭī
æ¯ı ä¸Ģ
å¢ŀ èĩ³
å®¾ å¤ķ
å®ª åħµ
åĵĪèĲ¨åħĭ æĸ¯åĿ¦
4 æľĪ1æĹ¥
çļĦ åŁºæľ¬
ä¸Ń æīĢ
åĴĮ é«ĺ
åĳ ¢
å¼Ģ è¡Į
å°ı äºİ
æĢ» ç®¡
èµ· çļĦ
202 2
ä¼ł ä½ĽæķĻ
æĶ¶ èİ·
ä¼Ĺ è®®åĳĺ
for m
ç®Ģ æĺĵ
æĴ¤ åĽŀ
æµģè¡Į éŁ³ä¹Ĳ
å³¡ è°·
æĴĴ åĨ·
æĮĸ æİĺ
çĢ ĳ
å¯ĨèĭıéĩĮ å·ŀ
E E
åĮº è®®åĳĺ
æ¼Ķ åıĺ
æĶ¹ çĶ¨
12 4
å®ĺ åħµ
èĩ´ åĳ½
æŃ¦è£ħ éĥ¨éĺŁ
èĨ¨ èĥĢ
y s
çļĦ èĩª
æĺ¯ æľĢ
åİŁ æľīçļĦ
åŁİ éĹ¨
an a
æĿĳ çļĦ
æĦŁ è°¢
èĢ¶ è·¯
Face book
ä¸Ń æĹ¥
âĢ ĭ
æ² Ľ
åı¯ æ±Ĺ
èĲ Į
åħ³ æĬ¼
æĻ® éĽ·
11 7
ç¦» å¿ĥ
éħį å¥Ĺ
çł´ äº§
éħĴ åĲ§
è¶³å¤Ł çļĦ
æ³½è¿ŀ æĸ¯åŁº
M L
éĿ¢ åīį
èĪ ·
é©¬ åĮ¹
10 æľĪ1æĹ¥
åħļ å§Ķ
èĹ ī
å½±åĵį çļĦ
èģĶçĽŁ çļĦ
è£ģ åĨ³
os e
å±Ĭåħ¨åĽ½ äººå¤§
æĦıåĳ³ èĳĹ
oun t
O V
æĹ¥ æĸĩ
äºĨ è¿Ļä¸Ģ
ä¸İ ä¹ĭ
ä¸į å¦Ĥ
å¢ Ł
åİ¿ éģĵ
å·´ å·´
ç»ĵ è¯Ĩ
å°± èĥ½
in cl
è¯º åħĭ
èµŀ æī¬
è®¾ç«ĭ äºĨ
æıŃ éľ²
. )
o x
èµĽ é©¹
åı° çļĦ
è·¯ å¾·
é¢Ĩ éĺŁ
åĽŀ å®¶
ä¸ĩ å¼ł
æ®µ çļĦ
at a
è®© äºº
ä¸Ńå¤® åĨĽå§Ķ
çªģ è¢Ń
196 3å¹´
æ±Ĺ åĽ½
å½ ª
åħĭ æ´Ľ
å¼Ģ å°ģ
âĢĿ âĢľ
è¿Ľ åĮĸ
è¯¥ å¸Ĥ
çĤ Ĵ
è®® éķ¿
èº« äº¡
ä¸ĵ æłı
å¤´ çļĦ
16 3
éĺ² çº¿
å¤ı å¤©
æ¯ĶèµĽ çļĦ
å¹² æ¶ī
å®ĭ æľĿ
ä»¥ä¸ĭ ä¸º
äºİ200 2å¹´
éĺ¿æĭī æĸ¯
çİĭæľĿ çļĦ
æ³¨æĦı åĪ°
ä¸īè§Ĵ å½¢
æ¸¸åĩ» éĺŁ
åķ¤ éħĴ
åĲ ĭ
ä¸Ĭ æ³ķåħ°è¥¿å¤§åĮº
ä»ĸ è¿ĺ
æ¯ Ļ
å¤ļ å®¶
éŁ §
åıį èĢĮ
çĸ ²
åĲī ç¥¥
ä¸Ńå¤® çĶµè§Ĩåı°
ç®¡çĲĨ çļĦ
èĥĮ éĿ¢
å®ĺæĸ¹ ç½ĳç«Ļ
192 5å¹´
192 9å¹´
æīĢåľ¨ çļĦ
èĢ¶è·¯ æĴĴåĨ·
d er
æĶ¿åºľ åĨĽ
çĻ» è¿Ľå£«
éĺ¶ å±Ĥ
é»İ æĺİ
èĶ ¬
ç§Ł åĢŁ
æĶ¹ç¼ĸ ä¸º
åĬłåĪ©ç¦ı å°¼äºļ
æµı è§Ī
åĴĮ çļĦ
äºĭ çī©
è½¦ ä½ĵ
åħ° å¾·
äº¦ åľ¨
èŃ¦ åį«
ä¸ľéĥ¨ å¤§åĮº
ç¬¬åįģ åĽĽ
äºİ199 8å¹´
åĢ¡ è®®
ä¸º ä½ķ
åĴĮ è¥¿
ä¸į ä½Ĩ
æĭī èĲ¨
æ¹¾ ä»Ķ
æ¸ħ çĲĨ
æĳ Ĭ
éĩĩ è´Ń
éĤ£ å·ŀ
è¡ĮæĶ¿ åĮºåŁŁ
è¶³çĲĥ è¿ĲåĬ¨åĳĺ
åĤ ²
äºİ200 1å¹´
çĪ¶äº² çļĦ
è¯¯ å·®
è¾ħ éŁ³
æĻ®ç½ĹæĹº æĸ¯
1 èĩ³
T T
m o
çļĦ æ³ķå¾ĭ
èģ Ĭ
çī¹ ç§į
åı° å¤§
ç»ĵ çĽŁ
åħļ å§Ķä¹¦è®°
çºª å¾ĭ
é¾ ļ
åĽ½å®¶ è¶³çĲĥéĺŁ
15 9
ä¸ĢçĽ´ æĺ¯
ä¸ºä¸» çļĦ
æĸ ¼
ä¸Ń åľº
åħ¬ çĽĬ
æľ¬ éĥ¨
éĹ´ éļĶ
æĪĺ çļĦ
æĪĺ ä¿ĺ
æĢ» è®¡
ä¹Ĳ åĿĽ
éĴ ¾
æ³° ç±³å°Ķ
åľ°æĸ¹ æĶ¿åºľ
è¿İ æİ¥
æ¡Ĥ æŀĹ
æ°Ķè±¡ å±Ģ
çİ¯å½¢ å±±
æ¦´ å¼¹
éĩ ľ
æĻ ĸ
ä¸ľ è·¯
çķ ¿
å°± åĥı
çļĦä¸Ģ æīĢ
çĻ½ å®«
åľŁ èĳĹ
å·¥ä½ľ èĢħ
æľŁéĹ´ çļĦ
è¿Ľåħ¥ äºĨ
è¯¸ ä¾¯
oc i
ç¡ķå£« åŃ¦ä½į
ç¿¡ ç¿ł
çļĦ ä¸ĭ
åľ¨ å¾·åĽ½
äºİ æĹ¥æľ¬
19 19å¹´
ä¹ĭ å¥³
èĪ ĸ
åľº ä¸Ĭ
æ¯Ķ 0
åħ³ èĬĤ
æİ¥ ä¸ĭæĿ¥
å±ķ åĩº
çĭ ¸
ç¬¬ä¸Ģ åŃ£
å¼º å¤§
çļĩ å¤ª
å½ĵåľ° å±ħæ°ĳ
å¯Į æľī
ou t
å¾ħ éģĩ
ow er
ä¼Ł å¤§çļĦ
å®īå¾· é²ģ
bo x
åľ¨ çº¿
10 7
ä¼ł éĢģ
æĽ´ é«ĺ
æ´¾ å¾Ģ
ç»Ļ åĩº
æĦŁ åıĹ
å¾ģ åı¬
æĵį çºµ
li x
æĸ°çĸĨ ç»´åĲ¾å°Ķ
å®¾å¤ķ æ³ķ
2 åĲį
éĻ ĩ
å¹¶ è¢«
åĲĮ ä¸Ģä¸ª
201 4
é©¬ åħ¶é¡¿
éĢļ åĭ¤
10 3
éĩĳ é©¬
ç³»åĪĹ èµĽ
çİĽ æł¼
åħĦ éķ¿
8 0å¹´ä»£
çļĦ æł¸å¿ĥ
æľī å¾Īå¤ļ
æ³ µ
ä¼ļ è°Ī
åĵ ¨
åı· çłģ
æ´¾ ç³»
çĻ½ éĵ¶
å¡Ķ æĭī
åıĮ éĩį
æľ¨ æĿĲ
å»ºéĢł çļĦ
ç£ģ åľº
æĺ¯ ä»ĸ
å¤§ å¤§
åĴĮ éĺ¿
ä¸į å¹¸
äºĶ çĻ¾
å¤ĩ åıĹ
è¾¹ ä¸º
çĶ² çº§èģĶèµĽ
ä¾¿ åĪ©
ç§ĳåŃ¦ æĬĢæľ¯
æĭľ ä»ģ
å¹ķ åĲİ
æľĿé²ľ åįĬå²Ľ
çļĦåľ° éĵģ
ç¿Į æĹ¥
æ¶¡ è½®
Mic rosoft
4 000
æĢ» åĢ¼
éĩĳ æĸ¯
èİ· é¢ģ
å¥¥ åĪ©
çłĶç©¶ åĳĺ
èĲ¥ éĢł
ä»¥åıĬ ä¸ŃåĽ½å¤§éĻĨçļĦ
è´Ł æĭħ
åĺ İ
æĺ¾ çĦ¶
é¢Ħ èŃ¦
æ¸© åĵ¥
èµŀ æĪĲ
çŃĶ åºĶ
çĭŃ çªĦ
yst em
å¤§ åĨĽ
çĶŁ å¹³
è¥¿ æĹ¥æľ¬
èĢĮ æĿ¥
æľ¬ é±¼
åĪĻ è®¤ä¸º
è¯´ è¯Ŀ
çĸ ¼
è½¬ åħ¥
æ¸ħ æĻ¨
çĶ² ç»Ħ
çĽĳ æµĭ
ç½ª åĲį
é¡¶ çĤ¹
äºĨä¸Ģ åľº
è°ĥæŁ¥ å±Ģ
èĶ ļ
æķ² åĩº
é²Ī å½¢çĽ®
çļĦ éľĢæ±Ĥ
åľ¨ åľ°
æĹ¶ ä¸º
ä¸į æĦ¿
éķ¿ å¾ģ
äºļ çļĦ
èĢħ æĺ¯
åİŁ åĿĢ
åįİ è¯Ń
è®º è¿°
çŁ¥ çļĦ
åĲī æĸ¯
éĩĩ éĽĨ
æ»¡ è´¯
èħ¹ éĥ¨
æĭ¦ æĪª
æ¸©åĵ¥ åįİ
M ed
O r
çļĦ åľŁåľ°
åľ¨ ä¸İ
åŃ¦ æ´¾
è¡Į ç¨ĭ
ä¸į å¤ª
å¯¹ ç«ĭ
å¹³ åĿ¦
201 2
è½¦ éģĵ
æĪĺ åĮº
å±± è°·
èº« è¾¹
ç¦ı åħĭ
æ¡Ī çļĦ
åįĬ çĲĥ
åĲĮæĹ¶ ä¹Ł
å·²ç»ı è¢«
24 0
å®¡ è®®
æĴŃåĩº çļĦ
äºİ199 9å¹´
æĲŃ ä¹ĺ
æĿĨ èıĮ
è¿½æº¯ èĩ³
c m
u al
æķ ĸ
æ² ģ
ç«Ļ åĴĮ
çĽ® å½ķ
çİĭ æľ±
å¥ĸ çļĦ
13 4
æ»¡ æĦı
è¯Ŀ é¢ĺ
ä¾Ŀ æ³ķ
èĶ¡ èĭ±æĸĩ
åİļ çļĦ
çħ¤ çŁ¿
B D
E S
åľ¨ åįĹ
äºļ åĪ©
201 5
å°ı éķĩ
ä»¬ çļĦ
åıĤ è®®
ä¸ĩ åĲ¨
åıª åľ¨
å¯Ĩ æŃĩ
åĲ« éĩı
å±ŀçļĦ æ¤įçī©
å®ļä¹ī ä¸º
çĶµåĬĽ æľºè½¦
! ãĢį
P P
çļĦ ä¸ľ
éĿ¢ æĺ¯
å°ı åŃ©
åĵĪ ä¼Ĭ
æŁĵ èī²
ä¸ĩç¾İåħĥ çļĦ
åµ ©
çĲĨå·¥ å¤§åŃ¦
æĽĿ åħī
1 200
A m
çļĦ èĭ±åĽ½
çļĦ è®¡åĪĴ
åĩº ç§Ł
åıĳ æĶ¾
æµ· æ»©
åĽł çĹħ
ç¼ ®
æīĭ æ³ķ
å²Ľ å¼ı
åıĺ å½¢
åķ ¦
åķ ¸
æ³¢ åĪ©
æŃ¦ åĬŁ
åĵĪ å¸ĥ
å¥ĩ å¹»
èĴĻ å¾·
äºĳ æŀĹ
æĳ© æ³½å°Ķ
äºĨä¸Ģ ä»½
é¤Ĳ é¥®
éħī ç§ĳ
å¯ĨæŃĩ æł¹
çļĦ åįĹ
ä¸º ä¸»è¦ģ
å¤§ çģ«
åŃ¦ çķĮ
çĶŁ æĹ¥
åĲĮ äºĭ
ä¹Ł å¼Ģå§ĭ
è¦ģ ç´ł
åı· ä¸º
å±ŀ çļĦä¸Ģç§į
æ¸¯ åĮº
å¸Ī éķ¿
åĪ« åħĭ
çĬ Ģ
æĶ¶ åĽŀ
æ·± å¤ľ
14 6
åģľ çģ«
ä¸¥ åİī
æłĸæģ¯ æ·±åº¦
åıĸä»£ äºĨ
æĭĵ è·ĭ
éĵ¸ éĢł
çĽĳå¯Ł å¾¡åı²
æ°¨ éħ¸
ç£· éħ¸
è¡ Ļ
åŃ¦ éĩĳ
è¿Ļ ä½į
ç¾İ èģĶ
æ²³ ä¸ľ
ä¼Ĭ ä¸ĩ
åº§ ä½į
äº¦ è¢«
åĮ» èį¯
æııè¿° äºĨ
åĴĮ æŃĮ
åħ³ ç¨İ
ç»´ æĸ°
æ· Ĩ
åĲĦ æľī
æŀĦ å»º
å¾Ī æľī
çº¢ æĹĹ
æĸ¯çī¹ æĭī
ç£ º
åĨ° çĲĥ
åħĭéĩĮ æĸ¯
é¥® æĸĻ
æ°¯ åĮĸ
çļĦ äº²
äºĨ èĩªå·±çļĦ
åĬ¨ çļĦ
æµ· å§Ĩ
çİ° éĩĳ
ä¹Ł èĥ½
åĲĪ éĩĳ
åĮĸ å·¥
èģĶ æĴŃ
an c
ç¬¬ä¸Ģ ä»»
æ´¾ äºº
æĬ¤ çĲĨ
è´Ŀ æĭī
ç´¢ å°Ķ
å¼¹ éģĵ
le t
éĺ» ç¢į
çŁ¿ çī©
AK B48
åľ¨ å½ĵåľ°
ä¸į å¤ļ
å¼Ģ åĪĽ
åīį ä»»
ä½ĵ åĨħ
æĦı ä¸º
äº¦ åı¯
17 4
æ³¨ éĩį
192 7å¹´
åĨ· åį´
ä¿ĿçķĻ äºĨ
æįĲ æ¬¾
æ³¢ç½Ĺ çļĦæµ·
A D
ä¼ļ ä¸İ
ä¸Ĭ æĺ¯
åĩº åħµ
çľ ·
åħ¨ ç¾İ
éĩį æĴŃ
å®ī çŁ³
è¯´ çļĦ
æķ´ æķ°
å³ »
æį¢ åıĸ
é³ ļ
è´¢ ç»ı
æ·· æ·Ĩ
éªļ æī°
u c
å¼ Ĭ
ä¼ļ è§ģ
éĥ¨ ä»¶
åŃĲ åĴĮ
èİ ŀ
éĩį åĬĽ
å®ŀ çĶ¨
ä¼ł æŁĵ
åĽ¾ çīĩ
ç¬¬ä¸Ģ ä»£
å®Į ç»ĵ
æĶ» åħĭ
ic a
å¯Į åħ°
ol og
è¯ĳ ä¸º
åŁºç¡Ģ è®¾æĸ½
éĵ¾ æİ¥
ä¸Ģ å¥Ĺ
åĲİ ä¾¿
è¶ ¾
ä¼ł è¾¾
ä¸ĩ åĲį
æŀľ å®ŀ
å®Ŀ çŁ³
éĢĤ çĶ¨
çºªå¿µ é¦Ĩ
åįķæĽ² æ¦ľ
å¥Ī å°Ķ
å¼ºçĥĪ çļĦ
é©¬åħĭæĢĿ ä¸»ä¹ī
M 1
åĽ½ ä¸Ń
æľĢ å°ĳ
200 8
ç½Ĺ æĿ°
æ® ´
11 ä¸ª
åĬ© æĶ»
17 2
é£ŀ èĪ¹
éŁ³ä¹Ĳ ä¼ļ
æĬĢæľ¯ çļĦ
æłĩåĩĨ çļĦ
åį± å®³
æĸ°å¢ŀ å¢ĥå¤ĸè¾ĵåħ¥
åĨ¬åŃ£ å¥¥æŀĹåĮ¹åħĭè¿ĲåĬ¨ä¼ļ
è´© åĶ®
æ©Ħæ¦Ħ çĲĥ
iver s
ä¹Įé²ģ æľ¨
L ive
o la
åĴĮ è§£
å®¶ åºĦ
è¢« æĿĢ
å°Ĩ æŃ¤
æ¡ ¶
éĹ¨ çļĦ
æµģ åħ¥
åıĳå±ķ åĩº
ä¹ĭä¸Ģ çļĦ
æĿĢ æīĭ
åħ¨åĽ½ äººå¤§
éģĩ åĪ°äºĨ
èģĶéĤ¦ æĶ¿åºľ
åŁ¹ èĤ²
çļĦåľ° ä½į
åľ¨è¿Ļ éĩĮ
éĵ¸ å¸ģ
è´ª æ±¡
1 5å¹´
èĢ »
è° İ
è·¯ çļĦ
èģĮ å·¥
åĵĪ çī¹
æĬ¤ èĪª
çĮ ©
å²ģ ä»¥ä¸ĭ
æīį ä¼ļ
èĪ¹ èĪ¶
çĤ® å¡Ķ
æģ¶ éŃĶ
ak e
çºł çº·
ä¹Ĵä¹ĵ çĲĥ
w w
å¤§ åĬĽ
æ°ĳ æĦı
å¼Ģ éĩĩ
çĶµ æľº
è·¯ è½¨
åĩł ç§į
é¢Ŀ å¤ĸçļĦ
åįģäºĮ å¹´
ri d
èĨ Ľ
æİĮ ç®¡
ä¸º éĤ»
åĽ½ éĵģ
çĶ¨ äºĨ
éĩĮ çº¦
å¸ĥ ä¼¦
å°ı æĹ¶çļĦ
æķ° æ¬¡
éľ ľ
11 6
an e
æĹ¥æľ¬ æĶ¿åºľ
æľĿ éĺ³
çŁ¥ åĲįçļĦ
å¨ģ æĸ¯
ç¾¤ çļĦ
æĹĹ èĪ°
191 4å¹´
æĭīä¸ģ ç¾İæ´²
çħ¤ çĤŃ
ç½ĳçĲĥ åħ¬å¼ĢèµĽ
4 åĲį
I R
m in
çļĦ è¡ĮåĬ¨
å¤§ èĦĳ
åĴĮ æĶ¿æ²»
æĹ¶ æľī
ä¸» æĴŃ
è¥¿ å²¸
åĬ¨ èĦī
å½ĵ æĻļ
ä»İ èĢĮ
å¥³ å£«
12 3
on ly
è§Ĥ å¡ĺ
åħ« ä¸ª
le x
åħ¶ä¸Ń ä¸Ģ
èĤ¡ æĿĥ
æ¼« å¨ģ
191 7å¹´
ç½ļ æ¬¾
æĢİ ä¹Ī
å¯Įåħ° åħĭæŀĹ
çļĦ å¤©
åħ¬ åĽ½
æĸ° åįİ
ä¸ī éĩį
åħ¨ å¢ĥ
æ¸¯ æ¾³
è½¬ æĬķ
ä¹Į åħ¹
æ°ĳä¸» æ´¾
åıĳè¡¨ çļĦ
å®ĩ èĪª
ç¥Ī ç¥·
ä¹Įé²ģæľ¨ é½Ĳ
T R
çļĦ å¿ĥ
ä¸Ń çİ¯
æĺ¯ ä¸Ńåįİäººæ°ĳåħ±åĴĮåĽ½
è¢« æİĪäºĪ
è¢« è¯Ħä¸º
èĩª ä»İ
è¿ĩ ä¸ĸ
éĥ½ å¾¡åı²
åĲī éļĨ
æĻ¯ çĤ¹
æ²ĥ å¤«
å¤º åĽŀ
æ¬£ èµı
èĲ¨å°Ķ çĵ¦
èµĦæľ¬ ä¸»ä¹ī
èĤ¿ çĺ¤
Lin ux
N O
çļĦ åĮºåŁŁ
åĲİ åıĪ
è¿Ļ ä¸¤
åĬł æ²¹
åĨħ åĬ¡
äºĭ åıĳ
çĽ¸ æľº
éķĩ å®Ī
ç¼ĸ ç¨ĭ
ä¸»è¦ģ çĶ±
æ¡Ī ä¾ĭ
ç³»åĪĹ çļĦ
åĤ į
è¯¸ å¡ŀ
è¾© æĬ¤
G r
Ã ¼
çļĦ åŃĺåľ¨
åľ¨ ä¼¦æķ¦
ä¹ĭ åľ°
èĩª æĦ¿
åı¯ æĮģç»Ń
åħ¥ åŃ¦
ä¿Ŀ å®ļ
åĲĦ çľģ
çļĦä¸Ģ åľº
å¼Ĺ èİ±
åĲĪä½ľ çļĦ
åĩºçīĪ çļĦ
è¡¥ åģ¿
ä»¥ä¸ĭ æĺ¯
æª Ĳ
Mus ic
j ect
åĩ ĳ
å¾· åł¡
é«ĺ æ¸©
æŃ¤ ä¸Ģ
çº¦ è®·
åĥ µ
æŃ¥ éª¤
éĵģè·¯ çļĦ
éĥ¡ çļĦ
ä»ĭ äºİ
ur n
è¿Ŀ æ³ķ
é¥² åħ»
å¯Ĩè¥¿ è¥¿æ¯Ķ
ä¼ º
æĹ¥ åĨħ
åįĹ ä¸ĭ
æĸ° åħ´
çĪ ½
åŀĭ æĢģ
åħĪ é©±
èĪª è¿Ĳ
æ¤į è¢«
èī¾ å°Ķ
åįĪ ç§ĳ
èķ ´
æ¶² ä½ĵ
å«ģ ç»Ļ
æīĢéľĢ çļĦ
å·´æĭ¿ é©¬
å¹´ åºķ
ä¸º 2
ä¸ĸ å®Ĺ
åħ¨ æĸ°
è¯Ń æ³ķ
æŃ¦ å£«
æŃ» åİ»
å¸Ĥéķĩ èĮĥåĽ´åĨħ
å½±åĵį äºĨ
å±ĭ èĭĳ
å·¨ æĺŁ
è¯ł éĩĬ
åĪĨ æķ°
ç¾ ŀ
åĨĽ çĶ¨
æĮ ½
è¿Ļ ä¹Ī
æį ŀ
èĤ ª
æł¼ ç½Ĺ
äº¤ äºĴ
æ¢ §
å¸Ī ä»İ
èĩ´ ä½¿
æĪ¿ åľ°äº§
æĪĺäºī æľŁéĹ´
ç¤¼ ä»ª
é¡¶ éĥ¨
åĪ¶éĢł çļĦ
æĹģ è¾¹
èĦĤ èĤª
éĺ¿å§Ĩ æĸ¯çī¹
4 åı·
G ro
I STAT
R ed
f lix
åĽ½ åŃĲ
å¤§ çº²
æ¸ Ŀ
åĲĪ åħ±
åħ¨ æ°ĳ
æ²» æĦĪ
12 2
è¿ĺ åı¯ä»¥
é£İ åĬĽ
åĨ° å²Ľ
è¿ŀç»Ń åī§
éī´ å®ļ
æ·±åľ³ å¸Ĥ
å¼¯ æĽ²
å§¿ æĢģ
èĻĲ å¾ħ
çļĦ æ´»åĬ¨
çļĦ åĨ³å®ļ
åľ¨ å½ĵæĹ¶
ä»¥ 3
çĲ ¦
ä¸Ĭ åľº
åĲĮ æ²»
ä¸ī åįĥ
é©¬ å°¼
å±± å¯º
åħ³ åį¡
ç»ĵ å±Ģ
åħļ éĥ¨
æ¸ħ æľ«
æŃĮ èĪŀ
çĶ· æ¼Ķåĳĺ
éĽ· è¯º
å¢ŀ æı´
åĢĻ è¡¥
çİ© åħ·
éĤ® ä»¶
ir l
çĦ¦ èĻĳ
æĭĵ å±ķ
éĽĩ ä½£
æĤī å°¼
åĨħèĴĻåı¤ èĩªæ²»åĮº
éĺ¿åŁºåĿ¦ å¤§åĮº
çĢĳ å¸ĥ
ISTAT ä»£çłģä¸º
S C
åŃĲ åŃĻ
éĵģ è¾¾å°¼
ç¥ŀ åŃ¦
æ¸ħ æ´ģ
æĹ© å·²
(, )
æľºæŀĦ çļĦ
çĸĳ ä¼¼
th er
æĽ¹ æĵį
åĢ¡ å¯¼
æĸĩèīº å¤įåħ´
Net flix
éħĭ éķ¿
illi am
è½ ¶
ä¸Ĭ æ¼Ķ
ä¹ĭ åĲį
ä¸ĭ å±ŀçļĦ
æĸ° åĮº
ãĢį ()
åįģ ä½Ļ
éĩį åıł
è¾¾ ç§ĳ
æŃ£ å½ĵ
ä¹¦ çļĦ
å¤« æĸ¯åŁº
æ²¡ æĶ¶
æŀĦ æĥ³
èĲ¨ æĳ©
ar i
æĥ³ åĪ°
å®³ æĢķ
ç¿» åĶ±
æ»ĳ åĨ°
çī¹æ®Ĭ çļĦ
åĨħæĶ¿ éĥ¨
: ãĢĬ
H a
è¯ µ
åĴĮ æ°´
æĸ¯ å¾·
çĶŁ æĦı
åĲį ç§°ä¸º
ä¿ ©
è¥¿ è·¯
æ³ķ å¸Ī
äºĮ çŃī
èĤ ½
åħĥ èĢģ
éĴ ŀ
å®Ĺ åº§
èĢĥ éĩı
æ¾ ľ
æĲ ģ
åĪĹè½¦ çļĦ
è¿ģ åĪ°
çīĽ é¡¿
èĿ ´
1æĹ¥ å¹³åĿĩ
L i
Ð ½
æľī åĬ©äºİ
éĽ ı
åĬł ç´¢
æľĢ éķ¿çļĦ
æ¡ ¦
é» Ķ
çº¦ æĿŁ
åħĥ çļĦ
åıį æĶ»
åĨ³ å¿ĥ
èĦ Ĩ
çĻ½ éĩĳ
äº¦ ä¸º
åŁĥ çº³
ç«¯ çļĦ
ä¸»æ¼Ķ çļĦ
æİ© æĬ¤
çķħ éĶĢ
èĿ´ èĿ¶
V ID
ä¸º 5
ä¸Ń åįĪ
å¤§ æ³ķå®ĺ
æ³ ¼
è¥¿ åĮº
å¯¹ å¾ħ
ç¾İ é£Ł
çİ° ä¸º
åħ¨ æĹ¥
åı· åľ¨
äººåı£ çļĦ
æĽ´ å¥½
åıĺ å¼Ĥ
èµ« é²ģ
æ¯ķä¸ļ çĶŁ
æįŁ ä¼¤
192 2å¹´
ç§ĳæĬĢ å¤§åŃ¦
å¦Ī å¦Ī
up er
æĳĨ èĦ±
æ³ķ æĭī
äºļ é©¬
ä¸ī çĻ¾
11 æľĪ1æĹ¥
æ±Ł å¸Ĥ
èİ± çī¹
å¤ı æľĹå¾·
çļĦå¤§ å°ı
è®² åº§
çĶŁçī© åŃ¦å®¶
æĪ´ ç»´
æ´ŀ ç©´
191 1å¹´
æª Ģ
incl ude
G u
J ohn
å ļ
åľ¨ ä¸ŃåĽ½å¤§éĻĨ
åĨ ¤
çī ¡
æľī åĽĽ
æ± ¾
ç±³ åĭĴ
éĴ ī
æĪĲåĳĺ åĽ½
æĳ© æ´Ľ
æŀª ç®¡
äºĨä¸Ģ é¡¹
éĺ¿å°Ķ åıĬåĪ©äºļ
6 å²ģ
çļĦ åĨĽéĺŁ
æĺ¯ è¢«
æĹ¶ æĬ¥
äºĨ å¤§éĩı
è¡Į æĿİ
å¤ļ è¾¾
èİ º
åĨħ å¤ĸ
å°Ĩ è¢«
åħ¨ å¸Ĥ
ç³ Ł
10 2
å°± æŃ¤
æĶ¯ éĥ¨
åı¤ åŁİ
å¾Ī å®¹æĺĵ
åĺ ²
æĪ¿ åŃĲ
å¸ķ åħĭ
æĺ¯ä¸Ģ æ¬¾
ou s
è±ª åįİ
ç»ıåİĨ äºĨ
P ar
p ort
çļĦ æĪĺæĸĹ
æĬ ¹
è¥¿ å°Ķ
èĪ ľ
åı° éĵģ
æīĭ æĮģ
æµģ ç¨ĭ
èĲ¨ è¯¸å¡ŀ
16 7
äºĨä¸Ģ åº§
ç¨İ åĬ¡
åįıåķĨ ä¼ļè®®
e e
åľ¨ 2008å¹´
æŀ ķ
åĪĨ æ³Į
å¤© çİĭ
ä¸ŃåĽ½ ç§ĳåŃ¦éĻ¢
æ¸¯ åı°
å²Ľ å¼ıæľĪåı°
æ¤ °
äºĮåįģ åĽĽ
çļĨ æľī
èľ ĺ
åĪĬ çī©
èĿ ĩ
åıĻ äºĭ
è®¾ç½® çļĦ
å«Į çĸĳ
èĥ° å²Ľ
E D
å¹´ ä»½
æĿ ĸ
å¤§ å±łæĿĢ
åĪĨ çº§
é¦ Ī
åĬł åī§
ä¸ī æĺŁ
æĪĺ ç¥ŀ
å¤ĸ æĺŁ
éĩį åŀĭ
æİ¥ çº³
ä¾ĭ å¤ĸ
æ¬§ ç¾İ
16 9
çĹħ äºº
çľĭ æ³ķ
æķ°æį® åºĵ
æĪĺå½¹ ä¸Ń
åįłé¢Ĩ äºĨ
æľīæķĪ çļĦ
æ´»è·ĥ äºİ
Ã Ń
ä¸º 6
ä¸º ç¾İåĽ½
å¤§ ä¸ľéĥ¨å¤§åĮº
ä»ĸ åĴĮ
ä»ĸ æĪĲä¸º
ä¸į æ¸ħæ¥ļ
åŃĲ ç§ĳ
åĪ© æ¶¦
çŃī åĲĮ
çľģ ä¼ļ
ç§į åĬł
åİŁ å£°
æİ¥ åĪ°
é¦ĸ è½®
å·´ è¾¾
ä¿® çŃĳ
æ´Ľ æĸ¯
åı¯èĥ½ çļĦ
æ½ Ł
éŁ³ä¹Ĳ èĬĤ
æĺ¥ èĬĤ
ç½ª è¡Į
æ°ĳä¸» ä¸»ä¹ī
åĲ¦ å®ļ
éĥĳ å·ŀ
é£ĵé£İ ä¸Ńå¿ĥ
èħ¾ è®¯
ä¸Ģ æľŁ
è¯ Ľ
åĩ ¿
èĢ ¿
çĶ¨ åľ¨
éķ¿ å´İ
ä»£ è¨Ģ
åº¦ åģĩ
åİ¿ åĴĮ
æĶ¹ æĪĲ
èį Ķ
ä¸ĩ ä½Ļ
äºĶ å¤§
åı¤ ç½Ĺé©¬
çļĦä¸Ģ ç³»åĪĹ
ä¼¯ æģ©
æĽ¼ åĵĪ
å³ Ļ
è¿ľ çļĦ
æ²¿ èĳĹ
çģµ é¡¿
æī© åħħ
St ud
192 1å¹´
äºİ199 7å¹´
ç»´åŁĥ çº³
2 30
çļĦ å£°éŁ³
åĪ ĥ
ä¸Ģ æĹ¦
æĺ¯ å°Ĩ
ä¸į åĲĪ
åħ¬ è½¦
åı¯ çĶ¨äºİ
äºļ ç§į
åħ¨ åŀĴæīĵ
æ°´ åĬĽ
è§Ĩ è§Ĵ
çº³ å¾·
èĬĤ çĤ¹
æ¥ ·
åī¯ åı¸ä»¤
14 9
å°ļ æľī
æĽ¿ è¡¥
æĶ¶å½ķ äºĨ
1 äº¿
L L
çļĦ èĢģ
åħ¶ ä¸º
ä¹ĭ æīĢä»¥
åĨĽ æĶ¿
ç¾İ æĭī
èĬ ľ
åŀ Ħ
æĽ´ é«ĺçļĦ
ä¸ĵ å±ŀ
ç¼ĸ æĪĲ
ä¾Ľ çĶµ
éĢŁ çİĩ
åįĬ åĨ³èµĽ
çº¢ å¤ĸ
éĢļå¸¸ ä¼ļ
äºĮåįģ äºĶ
æķĮ å¯¹
èµĦæł¼ èµĽ
å±ı å¹ķ
éķĩåĮºçļĦéĿ¢ç§¯ä¸º 9
æ¤Ń åľĨå½¢
V i
Ð ¸
åľ¨ 2020å¹´
ä¸Ģ åĿĹ
é«ĺ å°Ķå¤«
éĢī ä¸Ń
ç»Ħ ä»¶
å¥¥ å§Ķä¼ļ
æĶ¯ åĩº
è¿ŀ ä¸²
éĿĴ å±±
çĻ» åł¡
éĢłæĪĲ äºĨ
ãģ Ħ
å§ĵ åĲį
192 6å¹´
å½© èĻ¹
çļĦçī¹ æ®Ĭ
èİ² èĬ±
é«ĺçŃī æ³ķéĻ¢
P G
P l
ä¸º 7
èĢ Ĩ
æĭī èĦ±
æĥ ¹
å°¼ ç§ĳ
æĶ¾ å¤§
ä¹¡ éģĵ
é³ Ĺ
ä½© æĸ¯
èµŀ èµı
éĥĬ åĮº
å±¥ è¡Į
åĬłåĭĴæ¯Ķ æµ·
èľĺ èĽĽ
g round
çļĦ å®īåħ¨
çļĦ ç»Łæ²»
æĹ¶ åľ¨
ç«Ļ ä¸º
çĽ® åĩ»
æıĲ éĨĴ
ç»´ çī¹
åıĸ åĲĳ
è½¬ èĢĮ
åħī çļĦ
æ´¾ å¯¹
re d
èı² å°Ķ
éĶ¦ èµĽ
èĨ Ŀ
éĽĮ æĢ§
ä¸ŀ çĽ¸
C L
ä¸Ģ æŀ¶
ä»¥ 0
ä¹ĭ è·¯
ä¹Ł åı¯èĥ½
æĻ® é¡¿
åħ¬åı¸ åľ¨
ä¿¡ æīĺ
é¥ ·
æŀģ åħ¶
ä¸½ ä¸Ŀ
æļ´ éĽ¨
åĨ² éĶĭ
op h
av id
æ¿Ĵ åį±
åĽ½åħ± åĨħæĪĺ
H O
åĲİ å¤ĩ
è§ ħ
ç¬¬ 14
åı¯ å®¹çº³
èµ· èįī
åı· åĴĮ
åĪĻ ä¼ļ
æŃ¦ åĬĽ
æŃ¦ çĶ°
å®Į æ¯ķ
åĽŃ æŀĹ
åįł æľī
åģľ åĬŀ
å¹² æĹ±
éĽĦ æĢ§
ãĤ ¹
ri g
é«ĺéĢŁ éĵģè·¯
çĶµæ°Ķ åĮĸ
æĴŀåĩ» åĿĳ
1 åĲį
n g
çļĦ æĿĥåĪ©
åŃ µ
åĮ ¡
äºº åĬĽ
ä¸į çŁ¥éģĵ
èĭ ·
æĪĺ äºĭ
åĲĳ åīį
ä¸ĵ åĮº
æ¨ Ĭ
ä¸ĸçķĮ åĲĦåľ°
æŃ¦ æĺĮ
åħ· åºĨ
é¡¿ æ¶ħ
is e
åĪĩ æĸŃ
è¥¿éĥ¨ çļĦ
Al l
èĿĻèĿł ä¾ł
æĸ°çĸĨç»´åĲ¾å°Ķ èĩªæ²»åĮº
çļĦ é¦Ļæ¸¯
ä¸Ģ é¦ĸ
äºº éģĵ
è¡Į çľģ
åĪĨ è¾¨
åįİ æ²Ļ
çĿ ¿
åį³ æĺ¯
çłĶç©¶ èĢħ
ç¬¬äºĮ ä»£
èİ± åħĭ
æĶ» éĻ·
å°Ħ çº¿
è¿ª åįĹ
è´¥ ç»Ļ
æĸŃ å±Ĥ
åĨ³å®ļ å°Ĩ
æ¬§æ´² åĽ½å®¶
st yle
ãĤ ĵ
çĶŁéķ¿ åľ¨
çĽ¸äºĴ ä½ľçĶ¨
æ¸Ĺ éĢı
æĳ©æ´Ľ åĵ¥
R NA
çļĦ é¢Ĩå¯¼
åľ¨ éĺ¿
äºº ä¹ĭ
æ² «
ä¿ ¯
ä¸ĭ æ°´
åĬ¨ æľº
é© ¿
èİ ¹
åĮĹ æ¬§
æŃ¤ ä¸¾
è¿ĩ äºĨ
åħ¨ ç¨ĭ
ç½Ĺ å®¾
åŀ ©
å¨ Ħ
åħ´ èµ·
åıĤä¸İ èĢħ
æĸ¹éĿ¢ åĨĽ
èĤ¯ èī²
æĭįæĳĦ çļĦ
åıĺæĪĲ äºĨ
æĹ¢ æľī
å¥¥åħĭ è¥¿
ä¸ª æĢ§
ä¸Ĭ çº¿
ä»ĸ ä¹Ł
æ°ĳ äºĭ
æĸ° æĿĳ
é«ĺ å®Ĺ
äºļ è¿Ĳ
æĢ» ç½²
èİ· åĩĨ
å¥¥ å¸ĥ
å¤« å¦»
å¥ĸ åŃ¦éĩĳ
å¤® è§Ĩ
æħ Į
åį¢ æ¯Ķ
æľįåĬ¡ åĻ¨
et h
èģļ å±ħ
å¤ĸäº¤ å®ĺ
èĴĭ ä¸ŃæŃ£
å·¡åĽŀ æ¼ĶåĶ±ä¼ļ
å¹¿è¥¿ å£®
æĺİå°¼èĭıè¾¾ å·ŀ
æĭīèĦ± ç»´äºļ
n ational
å ¬
çļĦ æİ§åĪ¶
å¥ ¢
æĹ¶ è£ħ
æ² ¾
æµ Ĭ
ä¼ļ å¯¹
è½ ¿
çĶµ æºĲ
æ¯Ķ åĪĨ
åĽŀ æĿ¥
åĪĿ ä¸Ń
å¼º è¡Į
å®Į é¢ľ
éĺ³ æĢ§
åģĩ æĹ¥
éĢĥ èĦ±
çķª èĮĦ
åĪĽéĢł äºĨ
çİ» åĪ©
ç¢İ çīĩ
åį°åľ° å®ī
æĽ¼åĵĪ é¡¿
? ãĢį
b it
Ð µ
ä¸İ æĸ°
å¸Ĥ çº§
æľĢ å¿«
è½¦ åİĤ
ä½¿ åı¸
åıĹ ä½ĵ
åħī å¤į
è¶³ åĪ©
æķħ å±ħ
æ·± æ°´
èį· é©¬
è®¢ è´Ń
èĨ ı
è¿ĩåİ» çļĦ
èĹ¤ åİŁ
åħīç»ª äºĮåįģ
å¹½ é»ĺ
ç° §
éĤª æģ¶
å·´æĭī åľŃ
æķĻç§ĳ æĸĩ
B ar
G ame
l in
ä¸Ģ ç»Ħ
è¡ ŀ
æī ³
åĴ ¬
åĴĮ æĹ¥æľ¬
éĥ¨ ä½į
è¥¿ éĹ¨
éķ¿ æĹ¶éĹ´
åĬł å¯Ĩ
æŃ¤ åľ°
çľģ éķ¿
å¸ĥ è¾¾
æĢ» æķ°
éľ ī
çĭ Ļ
æłĩ çŃ¾
è£ħ æľī
åĵĪ å¯Ĩ
è¾ĥ å¤ļ
è¡Ĺ åºĦ
æī¿ åıĹ
åħħ å½ĵ
æī¾ åĪ°äºĨ
éģ¿ éļ¾
åıĤèµĽ èĢħ
d i
å¤§ çķ¥
éĥ¨ ä½ľåĵģ
åĩº åĵģ
éĩĳ éĴ±
è¯Ń ç³»
åįķ è½¦
äºĶ ä»£
åĪĽ åĪĬ
è½» åŀĭ
æįķ èİ·
æłĸæģ¯ åľ°
å®īè£ħ åľ¨
åĲĲ èķĥ
åı°é£İ èŃ¦æĬ¥
ç§°ä¹ĭ ä¸º
H z
v el
åĲİ åĨį
ä½ľ å®¢
æ³ķ äºº
åĪ© å®ī
æ¼Ķ ç»İ
åĭ ¿
äºĶ åįĥ
ä¿¡ éķ¿
16 2
çª ¦
çħ ½
åŁĥ æĸ¯
æŃĮæĽ² çļĦ
å®ĭ ä»£
çĽ¸ä¼¼ çļĦ
åĪĽåĬŀ äºº
Te am
ç¢° æĴŀ
ç»ıçºª åħ¬åı¸
ä¸Ģ çĤ¹
æĹ¶ æīĢ
è¥¿ æ±ī
åĪ© æ¯Ķäºļ
çŃī ä»·
çŃī äººçļĦ
å®ī è¾¾
èĭ± èģĶéĤ¦
çĽ´ æµģ
æº ¢
çĭ¬ è£ģ
æĸĻ çĲĨ
åŃ¦çĶŁ ä¼ļ
æĢĢ çī¹
ãĤ ¤
C T
åħ ĸ
åľ¨ 2015å¹´
åĲİ ä¸ĸ
åĩº å¢ĥ
åĮº çļĦä¸Ģä¸ª
æ´ ¼
åĪĨ å±Ģ
åĪ° è®¿
éĩį ä¼¤
æ°´ æ³¥
å±ŀ æĢ§
äº§ éĺ¶çº§
éĴ Ļ
èĮ ľ
å®ĺ èģĮ
åĲĦ æĸ¹
èİ·å¾Ĺ çļĦ
å¡ŀ æĸ¯
åŁĥ éĩĮ
å±Ĭ èµĽäºĭ
æ³° ç½Ĺ
æł¸ ç³ĸ
æĪĴ ä¸¥
åįĵ è¶Ĭ
åĽ½å®¶éĺŁ åıĤåĬł
åįĹæŀģæ´² çļĦ
åĲīéļĨ åĿ¡
S L
r es
æ¸ ¤
åı¯ ä¾Ľ
ç»ĵ æĻ¶
ç®¡ éģĵ
æ°Ķ çĲĥ
åį°åº¦ çļĦ
ä¼ĺ å¼Ĥ
ä¹ĺ è½¦
éŁ¦ ä¼¯
åºĶçĶ¨ ç¨ĭå¼ı
çĽ¸å¯¹ è®º
æĬĺ åıł
çĦ¦ çĤ¹
åįľ æĿľ
æĮīå¯Ł åı¸
çĶ Ħ
çİ º
çĶŁ ç´ł
å¤ļ çĵ¦
æķ° å¹´
æİ¥ çĿĢ
çİĭ åĲİ
æĹł éľĢ
æĦı æĦ¿
åĪĴ åĪĨä¸º
15 7
æĪĲåĳĺ çļĦ
ç§Ģ åĲī
æĴ¤ åĩº
ç¨İ æĶ¶
ir st
åı¥ è¯Ŀ
ç° ¿
ç¦ıå°Ķ æĳ©
èĥ°å²Ľ ç´ł
T wit
çļ Ĥ
æĺ¯ åħ¶
æł Ī
ä¸į å¤Ł
çĶŁ èĤ²
åı¯ è¡Į
é©¬ ä¸Ĭ
ç«Ļ åīį
åİŁ ä½ľ
æĶ¹ è®¾
ç»ĵ å°¾
åİ» äºĨ
å¨ģ çī¹
æĶ¿æ²» åįıåķĨä¼ļè®®
æ³ķåĽ½ çļĦ
æ´Ľ æŀĹ
al k
è¡Ĺ åĮº
æ°ı çļĦ
å·¨ äºº
åıĹæ¬¢è¿İ çļĦ
çİĽæł¼ ä¸½
a x
l ic
ä¸º 3
ä¸Ń åıĳçİ°
è¾ ľ
åĳĺ çļĦ
ç¥ ģ
ä¸ĩ èĭ±éķĳ
åı¯ä»¥ è¢«
çĶ» ä½ľ
å½Ĵ è¿ĺ
éº¦ éĩĳ
il la
çĪ¶äº² æĺ¯
æ²¿æµ· çľģä»½
ç§ĳç½Ĺ æĭīå¤ļ
åĵĪå¸ĥ æĸ¯åł¡
B u
åľ¨ 2013å¹´
ä¼ļ éĿ¢
å¸Ĥ äººæ°ĳæĶ¿åºľ
å¥³ äºº
æº ī
æĽ´ åĲį
è¿ĺ æ²¡æľī
è®¤ä¸º è¿Ļ
è¯ĳ ä½ľ
çĽ®æłĩ æĺ¯
å·´å£« è·¯çº¿
é«ĺçŃī åŃ¦æł¡
åĢ¾åĲĳ äºİ
çĲĨå·¥ åŃ¦éĻ¢
ä¹Įåħ¹ åĪ«åħĭ
çļĦ è¿ĩç¨ĭ
çļĦ ä½ľçĶ¨
çļĦ æľĢå¤§
åľ¨ åĽ½éĻħ
ä¼ļ åĲĪ
æ¸ £
ä¸ī åı·
202 3
æĻ® åĪ©
æ¸¸ çİ©
èĩ´ æķ¬
æ¸© æļĸ
çĽĳ æİ§
è½» æĿ¾
ç¬¬åĽĽ æ¬¡
éĢĥ å¾Ģ
åįļçī© éĻ¢
å¹¿æĴŃ çĶµè§Ĩ
æĭ¼ éŁ³
b le
g a
åľ¨ 2017å¹´
åıĳ æĸĩ
æĸ° æķĻ
ç§į ç§į
åºľ çŁ¥åºľ
æ¶ ©
åİĨ æĹ¶
éĽĨ æĪĲ
å¥¥ å¼Ĺ
æł¡ æĸ¹
æ¢ Ĺ
è¿ĳ æľŁ
æ¸ħ éĻ¤
çĮ ¿
å¹² äºĭ
éļ¾ åº¦
åŃĶ åŃĲ
åĩ¡ å°Ķ
ç¥ŀåľ£ ç½Ĺé©¬å¸ĿåĽ½
èĶ¬ èıľ
a ur
çļĦ å»ºè®®
ä¸Ń éĢĶ
åľ° è¡¨
ä¹ĭ æĹħ
ä¸ľ æŃ£
äºĮ å±Ĥ
æĢ» åĨ³èµĽ
æ¸¯ å²Ľ
ç±» æ¡Īä»¶
åįķ çº¯
åı¤ å°Ķ
è§£ æŀĲ
æīĵ åĩº
ç»Ń çº¦
ä»£è¡¨ éĺŁ
æīĺ åĭĴ
çĬ¶ çļĦ
re am
åĨłåĨĽ èģĶèµĽ
çģ° èī²
è¹ Ħ
å¸¦æĿ¥ äºĨ
è°¥ åı·
! !
ã Ħ
åĴĮ ä¸ī
æ³ķ è¥¿æĸ¯
ãĢį )
è½¦ è·¯
çľģ çļĦä¸Ģä¸ª
æ¯Ķ 1
æĮĩ åįĹ
202 1
ç¤¾ éķ¿
ä¿® ç¼®
ä¸Ńå¤® æĶ¿åºľ
å© ¿
ä½© å°Ķ
æŁĲ ä¸Ģ
ä¸īä¸ª æľĪ
ab le
æ¹¿ åľ°
èĤ¯å¡ĶåŁº å·ŀ
p o
t s
æĺ¯ é¦Ļæ¸¯
å¤§ å°Ĩ
å½ĵ åĪĿ
ç¦ ½
å¼º å¥¸
è§Ħ å¾ĭ
ä¿Ħ æ¯Ķäºļ
å¾Ī åı¯èĥ½
å¾ģ æĶ¶
éŁ© æ°ĳåĽ½
å®¡ çĲĨ
ç«¥ å¹´
ç¨ĭåº¦ çļĦ
è´¢æĶ¿ éĥ¨
æĬ¢ åĬ«
åŁĥå¡ŀ ä¿Ħæ¯Ķäºļ
4 50
åĲİ ä¸įä¹ħ
èĩª æŃ¤
å¼Ģ æĭĵ
åįĹ æľĿ
äºļ ä¼¯
æīĢ èĳĹ
ä¸ļ èĢħ
å·´ æ¯Ķ
å¸¦ åĽŀ
è½¬ è¿Ĳ
è¿ŀ éĶģ
åıĪ æľī
åħĪ è¡Į
æĦŁ åħ´è¶£
åİĭ åĪ¶
è½» è½¨
è°Ī è¯Ŀ
E l
q ue
çļĦ ä¸įåĲĮ
çļĦ ç¬¬ä¸Ģä¸ª
æ³ Ĺ
ä¸į å½ĵ
å®¶ åĴĮ
ä½į ç´ł
çī¹ çĤ¹
ç¾İ çļĦ
æį į
ä¸Ģä¸ª äºº
éĩĳ éĴŁ
æĽ´ å¥½çļĦ
è¿ĳ åį«
å¹³æĸ¹ èĭ±éĩĮ
æ¦ ķ
é»ĳ æ´ŀ
è¶³çĲĥ åįıä¼ļ
193 0å¹´ä»£
æºª æµģ
è§Ĥå¯Ł åĪ°
å¾·åħĭ èĲ¨æĸ¯å·ŀ
äºļåĪ© æ¡ĳ
å¥¥åħĭè¥¿ å¡Ķå°¼å¤§åĮº
âĢ »
ä¸ĭ è®®éĻ¢
å¤ļ å¹´çļĦ
åħ¥ è¯»
é¡ ½
èĭ± ä¹Ŀ
éĺ¿ èĲ¨
å¤± è¯¯
åĨĻ çļĦ
æ³° å±±
èĪ¬ çļĦ
æļĤ æĹł
åŃĶ æ³°
è·¨ æĢ§åĪ«
èµ¤ éģĵ
äºİ199 5å¹´
ç¡¬ ä»¶
åĽ° å¢ĥ
å¡ĳ éĢł
ä¿®æŃ£ æ¡Ī
æ£Ģå¯Ł å®ĺ
æ°¨ åŁº
éĹ¯ åħ¥
A s
ä¸º ä¸Ń
éĥ Ŀ
ä¼ļ åĴĮ
åŃ¦ åĴĮ
åĪĨ éĺŁ
ç¾ ģ
ä¸ĭ è¡Į
æĸĩ ä¸Ń
æĽ´ æľī
çĻ½ åŀ©
å¸Į ä¼¯
çģ« çĦ°
åº· å¥Īå°Ķ
èĴĤ äºļ
æŀ¶ é£ŀæľº
æľ« å¹´
et er
æŀª åĩ»
é¦ĸæ¬¡ åľ¨
çĶŁäº§ æĢ»åĢ¼
åĽ° æī°
æłĩå¿Ĺ çĿĢ
å½» æĸ¯çī¹
æĬ½ è±¡
æĬ« éľ²
åĴĮ åįĹ
è¢« æĮĩ
éĩĮ å£«
èµĽ ä¼ļ
é¦ĸ åĳ¨
éĩı äº§
æīĭ ä¸ĭ
on y
æĳ ¸
ç¦ı åħĭæĸ¯
æĶ» è¯»
ä»į æľª
è¿ª å°Ķ
é¢Ħ è¨Ģ
åĲİæĿ¥ è¢«
æķ°éĩı çļĦ
å¿½ çķ¥
åį¯ ç§ĳ
åľ¨ 2012å¹´
20 ä¸ª
æĹ¥ åľĨ
çĶŁ æ®ĸ
æĸ° éĺ¿åŁºåĿ¦å¤§åĮº
ç³» æķ°
åºĶ æĢ¥
èĻ Ķ
äº¦ ä¼ļ
åľ£ å½¼å¾Ĺ
åľŁ æľ¨
ä½ľä¸º ä¸Ģä¸ª
å¼Ĥ æĢ§
æĳĦ æĶ¿
ä¸ĢèĪ¬ çļĦ
ä¸ĳ éĹ»
3 åı·çº¿
åľ¨ 2018å¹´
ä¸Ń åı¶
åŃ¦ çłĶç©¶
å¼Ģ åĽ½
é«ĺ åİĭ
èĲ į
ç§ĳ å¤ļå°Ķ
åı² éĥ½
åı¯ä»¥ ä½¿çĶ¨
åĨį çĶŁ
åİĨåı² å»ºçŃĳ
å¤± åĪ©
ç²¾ éĢī
åºĶçĶ¨ ç¨ĭåºı
åİŁæľ¬ çļĦ
ç»¼åĲĪ æĢ§
åŃ¤ ç«ĭ
åĨľæĿĳ å±ħæ°ĳ
å¼Ĺæĭī åŁº
P er
çļĦ åĴĮ
çļĦ æŃ£
çļĦ ä»·æł¼
åŃ¦ ä¸ļ
æŀ ¯
æ¸ Ń
çĶ¨ åľ°
èĢĮ å·²
åıĬ åĲİ
å¼Ģ å¾Ģ
ä¸¤ èīĺ
åĮħ è£¹
ç¼ĸ è¯ĳ
ä»£è¡¨ æĢ§
å¤± æľĽ
13 3
çĳŀ åħĭ
it ed
èİ« éĩĮ
é©» åľ°
èįī åľ°
åıĳè¡¨ å£°æĺİ
ä»įçĦ¶ æĺ¯
äºİ18 4
æĭīä¸ģ è¯Ń
æł¼é²ģ åĲīäºļ
è£Ķç¾İåĽ½ äºº
å¥¥æĸ¯æĽ¼ å¸ĿåĽ½
çļĦ ä¸ªäºº
çļĦ å®ļä¹ī
åį ¤
åľ¨ 2010å¹´
äºº æŃ»äº¡
çī¹ ç½Ĺ
å¹³ æĹ¥
æķĻ åıĭ
çģ ¶
å¼ł å®¶
å®¢ åľº
æĤ ¨
çķĻ å®Ī
æĢ»ç»Ł éĢīä¸¾
æ£Ģ è®¨
ç¼º å¸Ń
å¾Ĺç¥¨ çİĩ
åĮĸåŃ¦å¼ı ä¸º
èģ ĭ
åįĹ è·¯
åĬł çļĦ
åīį èĢħ
201 3
è¯¥ å¹´
åİ¿ å¸Ĥ
éĶ Į
å¯¼ ä½ĵ
å°± å¼Ģå§ĭ
ic s
æ²¹ çĶ»
è§Ĵèī² æī®æ¼Ķ
St ar
éĵľ éĶ£
æ°ĶåĢĻ åıĺåĮĸ
èĭĹ æłĹ
åħļç»Ħ ä¹¦è®°
çļĦ é£İéĻ©
åľ¨ ä¸ľ
ä»ĸ å·ŀ
å¤ļ éĥ¨
ä¸ī å±Ĥ
æ¸¸ ä¹Ĳ
å¸Ī çĶŁ
æĶ¶ çĽĬ
åº§ æ¤ħ
æĪı éĻ¢
æİ¨ ä¸¾
æĬķ è¯ī
çĻ¾ å¼º
è´¹ åĪ©
æ²¿ éĢĶ
å·¡ è§Ĩ
ç¼ĵ è§£
çĲ¼ æĸ¯
ð« ļ
äº¤åıī åı£
Sch ool
çļĦ åĮĹ
åľ¨ 2019å¹´
ç¬¬ 16
æ³ķ åħ¸
å°ı æıĲçĲ´
å¤© åĲ¯
ç§ĳ ç»´å¥ĩ
åħ³ å¿ĥ
è§Ĩ éĩİ
åįķ è¡Į
æĶ¯ éħį
in i
æĽ² çº¿
åĽ´ æ£ĭ
åħ´ å¥ĭ
å½Ĵ åħ¥
ro id
æ¦ľ é¦ĸ
åįĹåĮĹ æľĿ
Un ivers
çļĦæ¯ĶèµĽ ä¸Ń
ç¾ ļ
æ°ĳ çĶŁ
ä¸ĭ è¯ı
çĲĥ è¡£
éĤ ¯
ä¸ŃåĽ½ æĶ¿åºľ
æ¼Ķ æĬĢ
åıĸ æĻ¯
å¯Ĩ éĽĨ
è¿ª æĸ¯
åİļ åº¦
æº¶ äºİ
å¤§è§Ħæ¨¡ çļĦ
éŃģ åĮĹ
æĨ ¾
D is
I M
d es
f e
w ork
æĦ ī
éĥ½ è¦ģ
æİ¥ æīĭ
ç² Ł
èŃ¦ å¤ĩ
ä¾Ŀ æ¬¡
åĪº æĿĢ
çıį å¦®
éĢĨ è½¬
col or
n a
« çĹ
çļĦ äººåı£
åľ° ä¸»
åľ° çĭ±
ä¹ĭ åĨħ
å¯¹ æĪĺ
å¾· å·ŀ
æĪĺ æľº
è·¯ ä¸Ĭ
éĥ½ ç»Ł
éĶ ¤
èı ĩ
it ion
äºĨä¸Ģ æ®µ
èģļ åĲĪçī©
ç©Ĩ å°Ķ
ç¼º å°ĳ
äºİ199 6å¹´
è®°èĢħ ä¼ļ
éĺħ åħµ
å¤ĸåĽ´ èµĽ
åħ Ģ
åľ¨ 2014å¹´
ä¸į åĬ¨
å¸Ĥ è®®ä¼ļ
æĸĩ ä¹¦
æĸĩ åĩŃ
æĻ ĥ
æīĢ ç¤º
ä¸ĸ ä¿Ĺ
åĬŀ åŃ¦
åŃĺ æ´»
ä¼¯ æĺİ
14 7
èĥĮ åıĽ
æĬµ å¾¡
èĳ¬ ç¤¼
ç²¾ç¥ŀ çĹħ
å¹¿è¥¿å£® æĹıèĩªæ²»åĮº
çĭĻ åĩ»
åľ¨ ä¸Ĭ
ä¸º 4
ä¸Ģ è¾¹
åħ¶ çĪ¶
çĶŁ æ¯į
éģĵ åħ·
å®ī å®ļ
æ²» æīĢåľ¨
ç¾İåĽ½ éĻĨåĨĽ
è§£ åīĸ
å®ĥ åľ¨
æ³¢ å¾·
åįĥ åı¶
æ±ī äºº
æ¢ħ åĪ©
éĥ¨éĺŁ çļĦ
( ãĢģ
çļĦ æĢ§
ä¸Ģ å®ļçļĦ
ä¸Ń çļĦä¸Ģä¸ª
é£ ĺ
çİĭ å®īçŁ³
æŀĹ ä¸ļ
å¤Ħ åľ¨
è¿ĺ å°Ĩ
ä¸ĸçķĮ å¤§èµĽ
åĢŁ çĶ¨
åĨĮ å°ģ
æłĸæģ¯ äºİ
æĮĳ éĢī
ç¯® æĿ¿
ä»·åĢ¼ çļĦ
é©¬åħĭ è¥¿
ik e
çģĮ æºī
åįĴ äºİ
ç¤¾äº¤ åªĴä½ĵ
å°¼æĹ¥ åĪ©äºļ
çĶ± èĭ±åĽ½
å¯¹ æµģ
å¤ļ å°ĳ
ä»£ ä»·
åĨħ æĸ¯
è¡¨ åĨ³
å¦ ¾
åħ¨ ä¹¦
æ£ µ
å°± å·²
è§ģ éĿ¢
çĪ¶ åŃĲ
é¢Ħ çķĻ
äº¤éĢļ éĥ¨
å¾® åĪĨ
28 0
äºİ199 4å¹´
ä¸īåįģ åħŃ
çĴ §
åĤ¨ å¤ĩ
è´« ç©·
çİĩé¢Ĩ çļĦ
éĻª åĲĮ
å¥ł åŁº
æ¤Ń åľĨ
çĪ±å¥½ èĢħ
Ã ³
çļĦ ç¾İ
çļĦ ä¸Ńå¿ĥ
åľ¨ 2009å¹´
å¹¶ åĪĹ
è¢« ä¿ĺ
åįĹ åĮº
æĸ° ä¼ļ
èĪ µ
ä¸ī æĿ¡
æĢ§ ä¸İ
å¤© åľ°
ä¸¤ åº¦
åŁİ å·´
ä»İ å°ı
æĽ¾ å¤ļæ¬¡
ä½įäºİ åı°æ¹¾
åį¡ æĻ®
æ°Ķ æ°Ľ
æŁ¥ å°Ķæĸ¯
ç¤¾ä¼ļ ç§ĳåŃ¦
åºĨ åħ¸
å¥ī å¤©
åĪļ åĪļ
è¥¿åĮĹ æİ¥
ç»§æī¿ äºĨ
æĬ½ çŃ¾
ç¡« éħ¸
åĴĮ åħ¶
åĴĮ é©¬
åħ¬ æīĢ
åĪĨ éļĶ
åĬł éĩĮ
åįİ è£Ķ
éĹ¨ å¤ĸ
202 4
æĹ¥æľ¬ äºº
è§£ ä½ĵ
çīĩ å°¾
å½ķ åıĸ
çĭ¬ å®¶
14 ä¸ª
ä¸½ çļĦ
åĺī åħ´
ot t
èģĶåĲĪåĽ½ æķĻç§ĳæĸĩ
v i
çļĦ çĽ¸åħ³
åľ¨ åħ¨çĲĥ
ä¸Ģ æī¹
æľº èº«
æ¯Ķ åĪ©äºļ
è¿Ĳ è½¬
èĤ² æľī
16 ä¸ª
å¡ŀ çī¹
å»ºçŃĳ ç¾¤
æīį æĺ¯
å¯Į è£ķ
åŃĻ æĿĥ
è´µ çļĦ
é©¬æĿ¥ äºļ
æŀ¢ å¯Ĩ
éªĳå£« åĽ¢
åĽļ ç¦ģ
back ground
äºļé©¬ éĢĬ
8 æľĪ1æĹ¥
B R
çļĦ å¦»åŃĲ
ä¸º é¦Ļæ¸¯
æĺ¯ éĢļè¿ĩ
çĲ µ
å®¶ éķ¿
éķ¿ è½´
åĮĹ åĮº
åīį åİ»
ç«ĭ å®ª
ç»Ł çŃ¹
æ¸¯ åºľ
åĳ½ ä¸Ń
èĬĤ æĹ¥
ç»§ ä½į
14 3
at or
13 ä¸ª
çľĭ ä½ľ
ou se
å°¾ å·´
çªĹ åı£
èĪŀåı° åī§
è®²è¿° äºĨ
æĺĶ æĹ¥
I t
çļĦ è¯Ńè¨Ģ
åŃ¦ åİĨ
åĩº åħ¥
ä¸į æķ¢
è· ¤
ä¸ī é¡¹
è° ħ
è®¾ æ³ķ
ä¸ŃåĽ½ åĽ½å®¶
çº¦ æĹ¦
åı¸ å¾Ĵ
éĺ¿ æĸ¯
å¸¸ çĶ¨çļĦ
åķ ¶
en e
è¾ĥ æĹ©
å®¹ è®¸
çĻ» å±±
æĺ¯ä¸Ģ å®¶
çĲĥéĺŁ çļĦ
100 ç±³
éģĩ ä¸Ĭ
æĬµ åĪ¶
å°Ķæĸ¯ åħĭ
åĪĨç±» æ³ķ
å®īå¾· å°Ķ
çĸı æķ£
çĮĽ çĥĪ
e p
å¤§ éĥ½ä¼ļ
ä¸į åºĶ
ä¸» æľº
å¼Ģ æŀª
æĸĩ æ¡£
ä¸ľ åį°åº¦
å² ļ
ä¸ļ ä¸»
æİ¥ ç§į
éĴ ®
ä¼ł åĩº
å¸Ī çļĦ
æĹ¥æľ¬ å¸ĿåĽ½
ä¸ĵ é¢ĺ
çĶµå½± éĻ¢
éĿĴ åĽ¢
æ°ı æĹı
å®ģ åİ¿
ä¸´ è¿ĳ
äºĮåįģ åħ«
æľºåľº çļĦ
å®ĩ å¤ļ
èĭıèģĶ çļĦ
åĲ¬ ä¼Ĺ
æīĵåĩ» çİĩ
ä¸Ģæ®µ æĹ¶éĹ´
çĸ¼ çĹĽ
l ine
åľ¨ 2011å¹´
ä¸º ä»Ģä¹Ī
ä¸Ģ çīĩ
ä¿ ¸
èĭ Ķ
çī¹ åĬ¡
åĬł è£ħ
å£ ¹
ä¸ī çŃī
æķĻ æĿĲ
å·¥ åĨľ
ç±³ å°¼
éħ ļ
éķĩ çļĦ
æº ¥
å²Ľ åĴĮ
è§£ éĽĩ
å®Ĺ æĹ¨
åĿĩ åĮĢ
éĢļè¿ĩ äºĨ
ç§» èĩ³
è½» å¾®
éľį å¤«
1 19
6 æľĪ1æĹ¥
9 æľĪ1æĹ¥
F ran
P a
W TA
k a
çļĦ åıĺåĮĸ
åľ¨ æ°´
åĴ ½
åĴĮ åĽ½å®¶
åĴĮ æĹłçĹĩçĬ¶æĦŁæŁĵèĢħ
å¥ ļ
æ°ĳ ä¿Ĺ
åĵ ī
200 0å¹´ä»£
åĬĽ åĴĮ
ä¸ŃåĽ½ ä¼łç»Ł
åºĶ ä»ĺ
an y
ç¬¬äºĮ å¤§
ä¾Ľ æ°´
åįĬ å¹´
èĩªå·± æĺ¯
åºķ éĥ¨
åŃ¦çĶŁ çļĦ
å¡ĳ æĸĻ
æĢª çī©
h am
ï ¹
ä¸Ń åįĹéĥ¨
æ² Ĥ
çĽ¸ éģĩ
èµ· æĭħä»»
åı¸ éĵİ
éĩĳ çļĦ
åĽĽ ä½į
å·´ é¡¿
ä¸¾ éĩį
æłĩ è¯Ĩ
å°ĳ æŀĹ
åı¯ä»¥ è¿½æº¯åĪ°
çļĦä¸Ģ éĥ¨
çļĦä¸Ģ ä»½
åĪĿ æ¬¡
å¯Ĩ çļĦ
å¡Ķ æģ©
15 ä¸ª
åľŁ åı¸
çĶ° çº³è¥¿
ç¥ĸ æ¯į
åŃĻ åŃĲ
æķĳ æĬ¤
èŃ¦å¯Ł å±Ģ
ä¸ªæľĪ çļĦ
ç«ŀäºī å¯¹æīĭ
å¸ĪèĮĥ åŃ¦æł¡
å¦¥ åįı
æįį åį«
çļĦ åī¯
éĿ ¶
ç¬ ł
èĢĮ åıĹåĪ°
å¤ļ æĿ¡
âĢĿ ),
çŃī èģĮ
éĺ¿ èĤ¯èī²
åıĹ éĤĢ
å°± èģĮ
äººæ°ĳ åħļ
ic t
6æľĪ 30æĹ¥
åĿļ åĨ³
æİĮ æİ§
ç³ĸ å°¿
ä»·åĢ¼ è§Ĥ
å¤ļå¹´ æĿ¥
åĨħéĻĨ çľģä»½
M c
çļĦ çĶŁäº§
çļĦ æĦıæĢĿ
ä¸Ģ çº¿
éĥ¨ ä¸ĭ
æīĢ ä½¿çĶ¨çļĦ
äºĭ é¡¹
çŁ £
æł¼ çº³
ä¹¦ éĿ¢
æĮĩ åĲĳ
å¹¿ å¤§
ä¾ĭ è¡Į
æĽ¼ è°·
ä¾§ å¼ıæľĪåı°
ä¸¤ä¸ª æľĪ
æĢ»ç»Ł åºľ
é¡¶ çº§
ç¦»å¼Ģ äºĨ
ä»² è£ģ
å®īä¸ľ å°¼
M ag
Ã ¶
Ñ Ģ
åľ¨ 20ä¸ĸçºª
ä¸º åı°æ¹¾
ä¸Ń æŃ¢
æľī æĿĥ
æľī æľŁå¾ĴåĪĳ
éķ į
åĮĹ è·¯
æµ· åĽł
åįİ å·ŀ
åħĥ ä»¶
ç¦ı æĸ¯
è§ģ çļĦ
åıĳçİ° äºİ
ro p
èµ° äºĨ
èĬĤçĽ® ä¸Ń
è½¨ è¿¹
æ¦Ĥ çİĩ
éĢĥ åĪ°
èģĮä¸ļ è¶³çĲĥ
åį· åħ¥
å¹¼ ç¨ļ
å¼ķèµ· çļĦ
åīĬ åĩı
ç«ŀæĬĢ åľº
è¯ģåĪ¸ äº¤æĺĵæīĢ
æľīçº¿ çĶµè§Ĩ
( âĢľ
5 åı·
åľ¨ 2022å¹´
åľ¨ 2016å¹´
ä¸Ń åħ´
çĽ Ķ
ä¸İ åĲĮ
åħ¬ åŃĲ
åħ¬ å¢ĵ
å¾Ĺ å¥ĸ
è½¦ æ¬¡
åĲĪ è®¡
çģ ¿
å¥³ åıĭ
é¢Ĩ ä¸»
åł Ģ
åıª ä¼ļ
åħī ç¦Ħ
è¶Ĭ è¿ĩ
å°Ħ ç¨ĭ
åº· å¤į
è½½ å®¢
æĸŃ è£Ĥ
èģĶèµĽ åĨłåĨĽ
æķĮ åĨĽ
é¡¾ å®¢
æııè¿° ä¸º
æĮģç»Ń åĪ°
ãĢģãĢģ ãĢģãĢģ
å¹´ä»£ ä¸º
å±ķç¤º äºĨ
è½¬ç§» èĩ³
é©¬æĭī æĿ¾
å¯¹åºĶ çļĦ
åıįæĺł äºĨ
éĵĥ æľ¨
( ãĢĬ
G O
è¡ ¬
èµ ģ
æĿ¥ äºĨ
å¤ļ åªĴä½ĵ
åĲĪ èµĦ
200 9
éĢī é¡¹
åŁº éĥ¨
åŁº åĩĨ
æĻ® æľĹ
å¤ª ä¿Ŀ
ç»ĦæĪĲ éĥ¨åĪĨ
ç»ĵæŀĦ çļĦ
çĤ® å¼¹
åĩºèº« äºİ
æħ¢ æħ¢
te xt
ä¼ĺç§Ģ çļĦ
åĲŀ å¹¶
æ»¡æ´² åĽ½
æİ¢éĻ© éĺŁ
èģĤ ä¼¯
åİķ æīĢ
è¯ĨåŃĹ çİĩ
äºĮæ°§åĮĸ ç¢³
A g
B la
çĶŁ ä¸ĭ
åĪĨ åºĹ
çĶµ èį·
å°Ĩ è¿ĳ
ä»İ ä¸Ń
æĴ ķ
æ£ º
æį® çĤ¹
ç¼ĸ çºĤ
çİĩ åħµ
éĤ¦ èģĶ
æĿ¾ æ±Ł
ç¾½ çĲĥ
æģ¶ åĮĸ
æ¥ļ åĽ½
æ¼«çĶ» å®¶
Sh ow
S D
X box
çļĦ éĵģè·¯
åľ¨ æľ¬
åĴĮ æĸĩåĮĸ
çĲ ħ
çİ° å½¹
ä½¿ é¦Ĩ
åĮĸ çī©
åħ¨ æĸ°çļĦ
åįĩ èĩ³
é¸ ł
å®Ī åĨĽ
äºĭä»¶ åıĳçĶŁ
è¿ģ å±ħ
çļĦåľ° ä¸ĭ
åįģä¸Ģ å¹´
æĲľ å¯»
è¡° éĢĢ
åŃ¦å£« åŃ¦ä½į
éªļ ä¹±
æĳĶ è·¤
s er
çļĦ é»ĳ
åĴĮ è°Ĳ
å¼Ģ æĶ¯
æĭī åĽ¾
æľŁ å¾ħ
èİ· éĩĬ
æ±ī åı£
æĶ» ä¸ĭ
èĲ½ è´¥
éĻĪ åĪĹ
åĵ¥ çī¹
ç¥ĸ åĽ½
éĢģ ç»Ļ
å¡« è¯į
å¥ĳ çº¦
æĶ¹å»º ä¸º
çĹķ è¿¹
éŃģåĮĹ åħĭ
åĩº èī²çļĦ
å®¶ èĩ£
åĲĮ çŁ¥
âĢĿ ).
ç¥ Ĥ
åħ³ è¥¿
åı· åı¬
åĪĻ æĺ¯åľ¨
åħļ éŃģ
å¡Ķ æĸ¯
å¡Ķ åħĭ
ç¬¬äºĮ å±Ĭ
çİĩ éĥ¨
ä½İ åľ°
çĿĢ éĻĨ
å»¶ èĩ³
ä¼ĺ åĮĸ
è´µ å¦ĥ
åľĨ æŁ±
è¯ī æ±Ĥ
èĥ½å¤Ł åľ¨
æ±½ æ²¹
å¾Īå¿« å°±
èĬŃ èķ¾
2 20
F i
t ain
çļĦ èµĦæĸĻ
æ¯ ĵ
éĩĮ å°Ķ
æĢ» éķ¿
æıĲ åıĸ
åįİ ä¸Ń
è½¬ åıĺä¸º
èĩªå·± åľ¨
åıĮ è¾¹
æĿĢ äºĨ
ä¾§ éĿ¢
ç¬¬ä¸ī ä¸ª
éĢļå¸¸ åľ¨
æĭį åįĸ
èİī ä¸Ŀ
å¿ł è¯ļ
åĢĴ å¡Į
è©¹å§Ĩ æĸ¯
æĬ ¨
ä¸» äºĭ
è¥¿ è´¡
ç«ĭ ä¸º
è·¯ éĿ¢
å¡ ¾
æİ¥ åı£
åı¸ éķ¿
äº¤ ä¼ļ
äºĶ äºº
æĬ¥ åĲį
åįı åĲĮ
çĶµå½± ä¸Ń
èĩ´ ä»ķ
æīĺ å¤«
å½±åĵį åĬĽçļĦ
åħ¼ å®¹
ä¸ľéĥ¨ çļĦ
æį· åħĭæĸ¯
çŃ¹ å»º
ut e
å¸¸åĬ¡ å§Ķåĳĺä¼ļ
éļĭ æľĿ
éĩİçĶŁ åĬ¨çī©
i y
é Ĭ
çļĦ æĸĩåĮĸ
å¤§ éĹ¨
éĢ Ĺ
éĹ °
åĨĽ éķ¿
éķ¿ éĢĶ
æµ· é»ĺ
é©¬ è·¯
ä¸¤ å®¶
æĽ´ å¤§
åĲĦ å¼ı
é£İ äºĳ
æ¯ı æľĪ
è½¬ åĮĸä¸º
æ³¢ å¸Į
åĵĪ å§Ĩ
åľ£ ä¿Ŀç½Ĺ
èĲ¨ çĵ¦
åģľ æ³Ĭ
ä¸Ńåįİäººæ°ĳåħ±åĴĮåĽ½ é©»
é¡º ä½į
èĩªçĶ± å¼ı
ç£ ¡
å¢ŀåĬł åĪ°
æįķ æįī
ç©¿ çĿĢ
192 3å¹´
èĩªåĬ¨ åĮĸ
æıĴ åħ¥
åĪĩå°Ķ å°¼
æ¸´ æľĽ
K P
T P
æĺ Ĭ
ä¸Ń å±Ĥ
æ¸ ¥
éĽ ¯
æĸ° æ³½è¥¿
åīį æľŁ
è¦ģ åľ¨
å² ±
å±± ä¸Ĭ
æĢ» åıĤè°ĭ
æīĭ åĨĮ
in s
çłĶ è®¨
15 2
èĲ½ åľ¨
ä»ħ åľ¨
èĢģ å¹´
åĺ ±
çł´ è£Ĥ
æ°¸ æģĴ
åį¢ åį¡
ä¿ĿæĬ¤ åĮº
æ²¿ çĿĢ
æ·· è¡Ģ
åģ¥ èº«
åŁºç¡Ģ ä¸Ĭ
ä¸īåįģ åĽĽ
æĢ»äººåı£ çļĦ
ä¹ĥ èĩ³
çĺ ¦
çĪª åĵĩ
çĽ¸åºĶ çļĦ
éĢłèĪ¹ åİĤ
2019åĨłçĬ¶çĹħæ¯ĴçĹħ çĸ«æĥħ
åı²éĥ½ åįİ
æį·åħĭæĸ¯ æ´Ľ
+ +
I ON
çļ ĵ
ä¸Ģ åı°
æĸĩ æĸ¯
å°Ĩ æĿ¥
å¤ĸ ä¾§
å®ī èĳ¬
æİ¥ è¿ŀ
åıĹ è®¿
é¦Ļæ¸¯ å¤§åŃ¦
ç³»ç»Ł ä¸Ń
åİĭ è¿«
è¶³çĲĥ éĶ¦æłĩèµĽ
éĺµ åľ°
åĲ¸ è¡Ģ
å¹¼ å¹´
191 6å¹´
C or
K i
ä¸º è¾Ĳé³įé±¼çº²
âĢ ¢
è¢« çĶ¨äºİ
éª Ĩ
åĵĪ æł¹
è¯Ħ åĪĨ
åħ« åįģ
çĻ¾ ä½Ļ
ç¡® åĪĩ
éŁ³ä¹Ĳ å®¶
è¯· æĦ¿
æĵį æİ§
æī¬ å·ŀ
å¢¨ å°Ķ
æµ¦ è·¯
å¹´è½» äºº
è´¯ ç©¿
åŀĦ æĸŃ
æĬ¨ åĩ»
H ar
çļĦ ä»»åĬ¡
åĪ ¹
ä¸Ń è¶ħ
ä»¥ ä¾¿
ä¸ĭ åİ»
å¯¹ ä¸ŃåĽ½
æľĢ å¥½
é«ĺ åĬłç´¢
å¤ĸ æĿ¥
å¤© é¹ħ
ç§ĳ çī¹
å¸¸ æķ°
åħļ æł¡
åį¡ éĢļ
æĽ´ å®¹æĺĵ
çĿ ¦
æ±Ł åİ¿
æĶ¶ ç¼©
15 4
æİ¨ æĸŃ
åįĥ ç±³
åĽ½éĻħ è¶³èģĶ
åĲĮæĹ¶ ä¹Łæĺ¯
æī¹ åħ¨åĽ½éĩįçĤ¹
çľŁ çĲĨ
åºĦ ä¸ºéĤ»
å¿ħ çĦ¶
èģĶåĲĪ åı°é£İèŃ¦æĬ¥
éĢĥ è·ĳ
è¾Ľ åŁº
å¯» å¸¸
æĩ ĭ
é©³ åĽŀ
åĻ¶ å°Ķ
ä¸ĵç§ĳ åŃ¦æł¡
èĦĬæ¤İ åĬ¨çī©
æĸ¯å¨ģ å¤«çī¹
è¶³æĢ» æĿ¯
çļĦ çŁ³
çļĦ å¹³åĿĩ
ä¸Ń æĸ¹
æł ħ
æĸ¹ ç´¢
çİ° å·²
çĽ´ çº¿
ç¼ĸ ä¸º
åķĨ ä¼ļ
åĪĿ å¹´
åĻ¨ åĴĮ
å°Ħ æīĭ
åĩºçİ° äºİ
èģļ åĲĪ
ä¼ĳ åħ»
åĽº ä½ĵ
è¾½ ä¸ľ
åĽ½éĺ² åĨĽ
æĢª åħ½
éĵº è®¾
N HK
çļĦ M
çļĦ æľºä¼ļ
ç¬¬ 20
çī¹ å·¥
äºļ å¤ª
èĤ ļ
æ¼Ķ è¯´
å¤§åŃ¦ åĴĮ
å¼Ģå§ĭ è¿Ľè¡Į
ç¥ŀ ç¥ĩ
åĪĿ éĢī
ä¸»è¦ģ ä¸º
çĶ· äºº
åĲī åĪ©
æķħ å®«
èĲ½ åħ¥
ä½İ æ¸©
åºķ çĽĺ
ing s
ä»ģ å®Ĺ
ä½ł çļĦ
ç¼ĺ æķħ
ä¾¦ æŁ¥
çļĦåĲĮ åĲį
è¥¿èĹı èĩªæ²»åĮº
æĭ¼ åĨĻ
æ±Ŀ æĭī
èģĶåĲĪåı°é£İèŃ¦æĬ¥ ä¸Ńå¿ĥ
7 0å¹´ä»£
e k
çļĦ åĬŁèĥ½
æĸ §
åĽ½ èĲ¥
çī¹ é²ģ
èĩª åį«
ä¹Ł ä¸İ
å½ĵ äºĭ
æĢ» æķĻç»ĥ
çĽ¸ å®¹
éĺ¿ åħĭ
éĴ Ŀ
åıį æ´¾
å¼ł åŃ¦
åķĨ èĪ¹
åİĨåı² ä¸ĬçļĦ
åľŁ åºĵ
çīĻ ä¹°
æĿ¾ å±±
å¤ĸäº¤ éĥ¨éķ¿
å½© èī²
ä¿ĥ æĪĲ
ä¸»æīĵ æŃĮ
è¡ĮæĶ¿ä¸Ńå¿ĥ ä¸º
çŁ³åĻ¨ æĹ¶ä»£
è¿Ĳè½½ çģ«ç®Ń
ç³ĸå°¿ çĹħ
G re
n er
åľ¨ ä¹Įåħĭåħ°
ä¸ª äººçļĦ
æĶ¿ æ³ķ
æµ· æĪĺ
ç«ĭ éĿ¢
å¸ĥ æŀĹ
æ¬¡ åħ¨åĽ½
åħ¨ èº«
å¤© æ°´
çľŁ ç©º
ç®¡çĲĨ å§Ķåĳĺä¼ļ
el la
èį¯ åĵģ
il ver
100 ä¸ĩ
éªĳ å¸Ī
åĨĽéĺŁ çļĦ
æĪĺæĸĹ ä¸Ń
åıĤèµĽ èµĦæł¼
æ¶Ĥ è£ħ
æĳ©æīĺ è½¦
éĵģè¾¾å°¼ åı·
çļĦ äºĮ
çļĦ å¼Łå¼Ł
åľ¨ è¿Ļä¸ª
åľ¨ 2007å¹´
ä¸Ģ åĽ½
ä¸Ń åĴĮ
ä¸Ń è¥¿éĥ¨
äºº åıĹä¼¤
æĽ Ļ
åħĭ åĴĮ
åįĹ æ´ĭ
ç¥ º
ä¹Ŀ å·´
é©» åįİ
çļĦäºº ç±»
ä¼łç»Ł ä¸Ĭ
ä½© éĩĮ
çĮ® ç»Ļ
è¾ħ å¯¼
æĶ¹éĿ© å¼ĢæĶ¾
è±ª æ£®
åºŀ å¤§çļĦ
åĳ¨å¹´ çºªå¿µ
ç½Ĺå§Ĩ å°¼
v en
æĹ¥ æĻ·
äºĨ è¿Ļä¸ª
åıĳ éħµ
èĥ ¤
è¢« ç§°ä½ľ
æľĢ åı¤èĢģçļĦ
è° ¬
èĤ ĭ
å®ī çļĦ
ç»Ł é¢Ĩ
åĲĳ åħ¬ä¼Ĺ
çĽ´ è¾¾
ä¿® æĸ¯
ä»Ĭ å¤©çļĦ
èīº åĲį
é»Ħ åŁĶ
çĻ» åŁº
14 2
é¢Ħ èµĽ
is ion
åĮºåŁŁ çļĦ
çļĦäºº å£«
èķ ī
éĻ¶ çĵ·
åħĭç½Ĺ åŁĥ
åŁºåĽł ç»Ħ
èµ¶ åĪ°
Mar k
å½Ĵç±» ä¸º
. "
w as
æľī äººåı£
åĴĮ èĭ±åĽ½
éĺ ī
ä¸Ĭ è¡Į
åĬł åĨķ
æľĢ éķ¿
ä»£ å°Ķ
ä¸ļ çķĮ
200 7
åĽĽ åĲį
çķĮ éĿ¢
éĹ¨ ç¥¨
çº³ çļĦ
æľĿ æĹ¥
åħŃ çĶ²
åĦ¿ å²Ľ
éĤ£ æĹ¶
ç´¢ çĵ¦
æ¸© åĴĮ
ç¬¬ä¸ī åŃ£
åģļ åĩºäºĨ
å°½ å¿«
å¼Ģåıĳ èĢħ
In d
åĨħéĥ¨ çļĦ
è§£åĨ³ æĸ¹æ¡Ī
äº¤æµģ éģĵ
IS O
å¿½ è§Ĩ
åħĭç½ĹåŁĥ è¥¿äºļ
M on
R es
m on
â ħ
è® ³
å¤§ èµı
æľī è¿ĩ
éĥ ¸
é© ¼
æĸ° æĺŁ
å½ĵ çĦ¶
ä½ĵ åŃĹ
é©¬ å£«
ç»´ åĲī
æīĭ ç¨¿
æį® è¯´
æ²³ å·Ŀ
å²Ľ ä¸ĬçļĦ
å±Ģ éĽĨåĽ¢
äº¬ å¸Ī
æĪı æĽ²
ä¼¯ åĪ©
æķħ ä¹¡
æĸ½ æĶ¿
åįĬ éķ¿è½´
é±¼ äºļçĽ®
ç¤¾ä¼ļ åħļ
åħ±åĴĮåĽ½ çļĦ
ç«ł èĬĤ
æĳ© æĵ¦
äº® çļĦ
çŁ¿ ä¸ļ
äºİ199 2å¹´
éĽ¶ ä»¶
æĹº è§Ĵ
å¼ĹæľĹ è¥¿
å°¼åħĭ æĿ¾
ä¸Ģ äºĭ
ä¸į çĶ¨
ä¸į æĥ³
ä¹ĭ åĪĿ
ç¬¬ èģĤä¼¯
èĢĮ æľī
çĶµ æĬ¥
ä¹Ł ç§°ä¸º
å¦ Ħ
åħ± çĶ¨
æ¯Ķ çī¹
æĺŁ çĲĥ
æ±ī æľĿ
æŀģ å¤§çļĦ
æ¥¼ çļĦ
å·¦ å²¸
èĴĤ æĸ¯
åĩ¯ æĹĭ
å¹³åĿĩ éĻįéĽ¨éĩı
äºļæ´² è¿ĲåĬ¨ä¼ļ
é¡µ å²©
èµ«å°Ķ è¾ĽåŁº
æŃ£ç¡® çļĦ
åº¶ åĲī
Inter national
å®ĩå¤ļ çĶ°
A c
M od
N o
r en
åľ¨ å¯¹
åĽ½ èģĶ
ä¸į éĶĻ
æ´ ½
åĪĨ éĥ¨
ä¹ĭ ä¸Ĭ
åĬł çī¹
é«ĺ æ¸ħ
èµĽ åĲİ
ä¸¤ å±Ĥ
åŁº äºļ
æ°´ çĶµ
åĽĽ åĳ¨
åħĥ åĴĮ
éħ ª
åŃĹ ä½ĵ
å°ĳ åį¿
èĲ¥ åĪ©
åıĳçĶŁ äºİ
25 00
æĲľ éĽĨ
åĬ¨åĬĽ åŃ¦
S k
çļĦ åĪ¶ä½ľ
å¹´ å¹¼
åľ¨ åį°åº¦
å¤§ åľ°éľĩ
åĴĮ çº¦
ä¼ļ äº§çĶŁ
ä¸ĭ è¡¨
å¹³ æģ¯
éģĵ å¤«
åįķ äºº
ä¼ł éĹ»
çĿ ¹
åŃĺ æĶ¾
æĬķ èº«
çĻ¾ èĢģ
åĩºçīĪ äºĨ
åħ» æ®ĸ
èĥ¡ åĲĮ
äºļæ´² çĶµè§Ĩ
2001å¹´ æĢ»äººåı£
åħ¬å®ī å±Ģ
æŁ´æ²¹ æľº
F e
P e
ãĢ ķ
äºİ åħ¶
éĻ ¡
ä¸İ æĿİ
åıĳ æºĲäºİ
å»º äº¤
çľģ æĶ¿åºľ
çº¿ ç´¢
ç±³ æĭī
å±ŀ ä¸ĭçļĦä¸Ģä¸ª
æ²³ æ°´
åįķ è¯į
ç² ª
å®¢ è§Ĥ
éĺ² çĸ«
çļĩ å®«
æ·± æµ·
è¿ª åħĭ
æĪ· å¤ĸ
éĢĢ ä¼į
ç¬¬ä¸ī çĶ²
è¶³çĲĥ çĶ²çº§èģĶèµĽ
ç»ĵæĿŁ äºĨ
èģļ ä¼ļ
åĲĮæł· çļĦ
æ±¤ çİĽ
çŀ »
åĹ ľ
ht t
æĪĲäºº æ¸¸æĪı
åħ¬åĳĬ çīĮ
æ»¥ çĶ¨
And roid
çħ½ åĬ¨
èģĶåĲĪåĽ½æķĻç§ĳæĸĩ ç»Ħç»ĩ
æ³¢å¸Į ç±³äºļ
çĻ¾èĢģ æ±ĩ
% ãĢģ
c enter
çļĦ çļĦ
åľ¨ æł¡
åľ¨ åľ£
ä¸Ģ ä»£
ä¸Ģ éģĵ
å¤§ æķĻåłĤ
åĩº èī²
å¯¹ ä»ĺ
âĢľ âĢĿ
äºĮ æľŁ
ä¸¤ åľ°
åŁº å±Ĥ
çº¦ 5
åĢ ļ
çłĶç©¶ å®¤
16 00
ä½ı æīĢ
åĩł ä¸ªæľĪ
å®Ī åį«
åĪ» æĦı
ç¼© å°ı
éĺ´ å½±
ä¼´ éļı
èĳ¡èĲĦ éħĴ
è¿Ŀ èĥĮ
åĩłä¹İ æ²¡æľī
çĺ Ł
çĮĽ èĻİ
éĤ»è¿ĳ çļĦ
æ£ī èĬ±
rit ic
P ol
m i
çļĦ ç»Ħç»ĩ
çļĦ çĲĨè®º
ãĢ Ķ
åĲ Ł
å®¶ åº·
è¥¿ å°¼
èģ Ĩ
æĸ° ä»»
çī© ä»¶
è¿ĩ å¤ļ
æĪĺ çº¿
å¸ĥ ä»Ģ
å®ī å¤§çķ¥
è§Ĩ ä½ľ
å¯¼ èĪª
çļĦä¸Ģ æ®µ
åħī ç¢Ł
å¼ķ è¿°
åħ« è¾¾
åħ« å¼º
çĪ± åĽł
çĶ° ä¸Ń
ç½ª çĬ¯
éģĩ è§ģ
éĤ® è½®
ä¸¾åĬŀ äºĨ
ç»¿ åħļ
è¯¥åľ° 2001å¹´æĢ»äººåı£
åĸ· å°Ħ
6å²ģ äººåı£
å¸Įä¼¯ æĿ¥
G irl
ä¸Ń åħ¨
æĺ¯ çĶ¨
åĪĨ åĮĸ
ç¬¬ 22
è¥¿ è¥¿éĩĮ
å¹³ å£¤
åĲĪ ä¼Ļ
åĮĸ å¦Ĩ
æģ ¼
æŀĹ æĸ¯
æīĭ æĮĩ
ç¥ŀ å¥Ī
çĳ Ľ
åĭĴ å§Ĩ
åĨĻ ä¿¡
ä¾¿ ä¼ļ
åĩł ä½į
it al
æķ£ å¸ĥ
æĭľ è®¿
éľĩ æĥĬ
æµ¦ ä¸ľ
éĽĨä¸Ń èĲ¥
æıŃ ç¤º
ä¼ª éĢł
ä¹Įæĭī åľŃ
æĹ¶30 åĪĨ
Twit ter
C S
R ob
y pe
çļĦ é£İ
ä¸İ éĺ¿
å°Ķ åĴĮ
æ± Ĳ
ä¸ĭ è®¾
ä¸ľ æ¬§
è¿Ľ äºĨ
ç© ¹
ä¸ĸ åĩ¯
çľģ å§Ķ
é©¬ åĭĴ
é©¬ èĭ±ä¹Ŀ
çº¿ ä¸İ
éĩį åĪĽ
in k
å£° èªī
è½¦ç«Ļ åĳ¨è¾¹
åĨĻ çľŁ
æķ£ æĸĩ
è¾Ľ äº¥
çº¸ å¸ģ
åĪĽç«ĭ äºĨ
æĭĵ æīĳ
æıŃ å¹ķ
ç©Ĩç½ķé»ĺ å¾·
çļĦ è½¦
è¯ ¬
æİ Ģ
é¦ ¨
åħĭ åĭĴ
ä¸ľ å²¸
ä¸ĸ è¢Ń
ç¼ ļ
æĢ» éĺŁ
é¦ĸ æĶ¯
å·´ æŀĹ
å¥¥ åĮĪ
in ter
æ²¡ èĥ½
çļĦä¸Ģ å¤Ħ
è¯º äºļ
æĦŁ åºĶ
14 4
å»ºçŃĳ çļĦ
å§Ķåĳĺä¼ļ åī¯ä¸»ä»»
13 2
æĶ¯æĮģ çļĦ
è®¿ è°Ī
ç¯ĩ æĸĩç«ł
æĭĽ æĶ¶
ç±»åŀĭ ä¸º
åĥ§ ä¾£
åľ£å½¼å¾Ĺ åł¡
çĪ±åĽł æĸ¯åĿ¦
çļĦ çĲĥéĺŁ
çļĦ åĬĽéĩı
ç» ¸
ä¸İ ç¤¾ä¼ļ
æĸ¹ æµİ
å¹¶ å°Ĩ
è¥¿ æ¬§
åįĹ éŁ©
äºļ çī¹åħ°
ä¸ī èı±
ä¸ĸ éĶ¦èµĽ
é©¬ åĵĪ
åł °
ç¥ŀ æĪ·
èģĮ æĿĥ
è½¬ è®©
å¨ģ åĬĽ
ç¦ı å·ŀå¸Ĥ
çĥŃ å°Ķ
at ed
æ¥¼ é«ĺ
çģµ æ´»
æľīä¸Ģ å®ļ
è§Ħæ¨¡ æľĢå¤§çļĦ
è¿¹ è±¡
åĨ· æĪĺ
éģį å¸ĥ
å°ıç»Ħ èµĽ
æ£Ģå¯Ł éĻ¢
A b
O P
æĪ į
ä¸Ń ä½¿çĶ¨
å¤§ èĭ±
æķ Ľ
åĩº åĬ¨
è¢ į
èĥ ĸ
ç¬¬ 17
è¢« å¹¿æ³Ľ
å¤ļ å¤Ħ
æµ· åľ°
çĲĨ åŃ¦
ç»Ł å¸ħ
æ°´ æĻ¶
æĥħ æĻ¯
çº³ ç±³
çº³ ç¨İ
è§£ è¯»
äº² å±ŀ
ç¬¬äºĮ çĻ¾
æ³ķåĽ½ åĽ½å®¶
çİĩ çļĦ
éº ¾
åıĮ å±Ĥ
æĽ¼ æģ©
çľĭ åı°
æĲ ı
é¡º å¤©åºľ
ãĥ Ī
ç§Ł èµģ
ç¾¤å²Ľ çļĦ
å¹³åı° ä¸Ĭ
åĽ½éĺ² éĥ¨éķ¿
è´¯ éĢļ
æĿĢæŃ» äºĨ
æ·® åįĹ
å»¶éķ¿ èĩ³
éĥ¨åī¯ éĥ¨éķ¿
æ¸¤ æµ·
R I
m at
ç į
çļĦ åıĺ
åĽ½ æŃĮ
ä¸į åŃĺåľ¨
çī¹ æľī
åĮĹ ä¸Ĭ
çİ° è¡Į
çŃī æĸ¹éĿ¢
é©¬ èµĽ
åħ¨ åĬĽ
éĥ½ å¾Ī
æŃ£ åĢ¼
åı² è¯Ĺ
åį¡ è½¦
çļĦä¸Ģ åĪĩ
èĪ° è½½
ä½ı éĻ¢
es e
åĩł æ¬¡
he l
è´¢ åĽ¢
åħĭéĩĮ å¤«
éĵģéģĵ åħµ
191 5å¹´
1900 å¹´
èĲ¤ å¹ķ
æ®ĭçĸ¾äºº å¥¥æŀĹåĮ¹åħĭè¿ĲåĬ¨ä¼ļ
: //
é ĳ
åĴĮ ä»ĸ
åĴĮ ç»ıæµİ
åĩº åİ»
æ¯ ¯
çĶ¨ åĵģ
201 1
æķĻ æ´¾
å±± å³°
å¤© åĨħ
æģ ¤
æģ ª
æ¯Ķ èµ·
ç¾İåĽ½ æĶ¿åºľ
12 1
è®º çļĦ
é¦Ļæ¸¯ çĶµåı°
åŃ£ é£İ
æļ ±
åĳĬ ç»Ī
å¯Ł éĻ¢
æīį è¢«
åĪĨåĪ« åľ¨
æļ´ é£İ
ä½© æĪ´
æ®ĭ çķĻ
çĲ³ å¨ľ
ç«ĭæĸ¹ ç±³
F L
G N
æĺ¯ è¯¥
æľī åĬŁ
æľī è¶£
çĽ İ
ä¸į äºĨ
ä¹ĭ å®¶
ä¹ĭ å¤ĸçļĦ
æ°ĳ èĲ¥
æĸ° æĪĲç«ĭçļĦ
åľº é¦Ĩ
é¦ĸ èĦĳ
æ²³ åĴĮ
å¥¥ æľ¬
åĩ» åĩº
éĥ¨åĪĨ åľ°åĮº
ç»Ń éĽĨ
æİ¨ ç§»
åĿĩ çĶ±
ä½İ åİĭ
è¿ľ ç¨ĭ
éļĨ åºĨ
åĩ¯ å°Ķçī¹
åªĴä½ĵ çļĦ
un t
å°ıè¡ĮæĺŁ å¸¦
åģ¶ çĦ¶
çģ¯ å¡Ķ
ç½Ĺä¼¯ éĢĬ
ä¸ºé¦ĸ çļĦ
éĤ¯ éĥ¸
6 0å¹´ä»£
U E
d a
w ay
ä¹ į
ä¸į è¢«
åħĭ æľį
è¿Ļ æĿ¡
åĮĹ ç«¯
æľŁ éĻĲ
ä½¿ ä»ĸ
åħ¨ æ¸¯
æł¼ è¾¾
åı² ä»¥æĿ¥
çļĦä¸Ģ éĥ¨ä»½
æ¸ħ æ²»
çĵ¦ è¥¿
å½ķ å¾Ĺ
æŃ» çļĦ
åĩĨ åĪĻ
çº¢ è¢ľ
è¶Ĭ éĩİ
çħ§ æĺİ
çĨ ¹
å®¡ è®¯
åĬª å°Ķ
èĤī é£Ł
æ½® æ¹¿
å¼¯ éģĵ
æ¾Ħ æ¸ħ
æĤł ä¹ħ
åĲĪåĶ± åĽ¢
æĻ¤ å£«
M at
s u
çļĦ å½¢è±¡
å¹ Į
æ³ »
ä¸Ĭ ä¸İ
å¤ļ éĿ¢ä½ĵ
åŃĲ åĹ£
å»º çļĦ
çĶµ åİĤ
åĽĽ ç§į
åŀĭ æŁ´æ²¹æľºè½¦
åĪ« äºº
çĶ· åıĭ
åĨĻ ä¸ĭ
èĹı ä¹¦
èĥĮ åĲİ
å¼Ģåıĳ åĮº
æĺŁæľŁ åħŃ
åħĭæŀĹ é¡¿
çĮľ æµĭ
éĺĲ è¿°
æĶ¾å°Ħ æĢ§
éĩİæĪĺ åĨĽ
æīĺåĭĴ å¯Ĩ
c ord
åľ¨ åħ¨åĽ½
20 3
åŁ ķ
ä¸Ĭ åı°
ä¸į ç¡®å®ļ
å¹¶ äºİ
åı° è¯Ń
çĽ¸ éļĶ
æľį ä»İ
ä»¥åıĬ åħ¶ä»ĸ
åĽ½éĻħ è¶³åįı
åı¯èĥ½ åľ¨
çĻ¾ åĲĪ
åĥı ç´ł
ç¥¨ éĢī
è´Ŀ éĩĮ
æ³° æĻ¤å£«
éĻį èĩ³
å¯Į è±ª
äºĮåįģ äºĮ
å¸ĥé²ģ åħĭæŀĹ
åĳ¨åĽ´ çļĦ
éĺ® ç¦ı
Gro up
g o
s o
çļĦ èĬ±
åľ¨ 2005å¹´
æľī è½¨çĶµè½¦
åĴ ª
åľ° æłĩ
åĨĽ éĺĢ
âĢĿ ()
æĹł åĬĽ
çĥ Ľ
çĪ± ä¸ģåł¡
åħ¶ä»ĸ äºº
è¶³çĲĥ è¶ħçº§èģĶèµĽ
åª Ľ
å°¾ é³į
èµĽäºĭ ä¸Ń
åĮ¹ éħį
éĢīæĭ© äºĨ
èĽĭçĻ½ éħ¶
åĮĪ å¥´
ä¸īéĥ¨ æĽ²
æĹ¥åĨħ çĵ¦
æį·åħĭæĸ¯æ´Ľ ä¼Ĳåħĭ
" -
V al
çļĦ çīĪæľ¬
ä¸Ń äºļ
æĺ¯ ä¸İ
æĸ° åĩłåĨħäºļ
å¸ĥ åĲķ
200 ç±³
èĬ ¸
æ¯Ķ æĸ¯
æł¼ æĸĹ
æıĲ ç¤º
æĦı æĮĩ
or ge
çĹ ´
èĭ±åĽ½ æĶ¿åºľ
æ·± è¿ľ
çķĻ ä¸ĭçļĦ
ä¾¿ å®ľ
ç½Ĺæĸ¯ ç¦ı
æĬĬ ä»ĸ
éģĹ æĨ¾
çŁŃ ç¼º
å·¡ æĮī
èĪŀ æĽ²
æ°§ æ°Ķ
æĶ¹ç¼ĸ æĪĲ
ap p
èĪĴ éĢĤ
åĸĢ å°Ķ
å§Ķä»» ä¸º
å²Ľå¼ı ç«Ļåı°
éĬ ®
6 000
T S
äºĨ ä¸ŃåĽ½
åĲį å£«åħµ
åĨĽ è¡Ķ
è¿Ļ éĥ¨çĶµå½±
é«ĺ åħ´
åĽł åľ¨
ä¸¤ éĥ¨
åĽĽ åĨĽ
æ· ¤
é£İ æ³¢
æľª çŁ¥
èĭı å°Ķ
éĻ¤ å¤ĸ
åľ£ é©¬
åĲī æĭī
çĶµè§Ĩ ç½ĳ
è½¦ç«Ļ å¤§æ¥¼
éĢģ èĩ³
çķ¥ æľī
åģĩ è¯´
åĽº å®ļçļĦ
çº¯ ç²¹
çªĹ æĪ·
é¢ħ éª¨
çº¢åįģåŃĹ ä¼ļ
çīĻä¹° åĬł
4 åı·çº¿
çļĦ éĤ®å±Ģ
åį ¦
æĺ¯ æĿ¥èĩª
åĲį åŃ¦çĶŁ
è¥¿ å¤ªå¹³æ´ĭ
ç«Ļ åĲį
æĹł æĦı
æīĭ çĲĥ
å¥¥ æģ©
åİ» éĻ¤
çĻ½ å¤©
åİĨåı² çļĦ
æĿİ åħĭ
æĥ³ åĥı
æķĪ çĽĬ
å·²ç»ı æľī
åıįå¯¹ åħļ
æ±ĩ åħ¥
èŀį èµĦ
åħ¬å¸ĥ çļĦ
éĺ´ æĢ§
é«ĺçº§ ä¸ŃåŃ¦
åįģäºĶ å¹´
è¢ģ ä¸ĸåĩ¯
å¸ĥåĪĹ å¡Ķå°¼
n o
Ã ¨
åľ¨ 2006å¹´
ä¸º ä¸Ńå¿ĥ
æľī æľºä¼ļ
èĢĮ æĿ¥çļĦ
çī¹ æĢ¥
åīį èº«ä¸º
æµ· æĬ¥
åįģ ä¸ª
ç§ĳ å¨ģçī¹
è§Ĩ å¯Ł
11 1
æĬ¥ åĪĬ
ä¿¡ ä¹ī
ç¬¬ä¸Ģ åº§
æ³¢ å¤ļ
åįĥ å¹´
æŃ£å¼ı çļĦ
æĪĺäºī çĪĨåıĳ
æ°¸ å®ī
å½Ĵ å±ŀ
et t
åĲĪä½ľ ä¼Ļä¼´
åĬ¨çī© åĽŃ
åĿļ å®Ī
2011å¹´ äººåı£
åĿĲ åľ¨
In t
åŃ¤ åĦ¿
En ter
æ°Ľ åĽ´
æľĢé«ĺçĤ¹ ä¸º
åĪĹæĸ¯ èģĶ
å®¦ å®ĺ
çī¡ ä¸¹
r al
çļĦ åı¤
çļĦ ç»ĵæŀĦ
çļĦ åıįåºĶ
å¹´ ä»ħ
åľ¨ éŁ©åĽ½
æ³ ¸
ä¸Ĭ ä¼ł
åħ¶ ä¸ŃçļĦ
ä¿ Ń
åĮĹ çĪ±å°Ķåħ°
æīĢ è¿°
è¯¥ ç»Ħç»ĩ
èĬ ®
éĥ½ ä»¥
åĲĳ ä»ĸ
åħļ åĽ¢
åį¡ æĸ¯çī¹
å¥¥ æīĺ
é¦Ļæ¸¯ å²Ľ
èı ģ
çĪ± èį·
å±Ĥ æ¬¡
æīĺ ç®¡
éħį åģ¶
çħ ŀ
éŁ³ä¹Ĳ åī§
åºķ æłĸ
ä½ľåĵģ ä¸Ń
å»¶ æľŁ
ç¤¼ åłĤ
æĭ¥ æĬ¤
æ°ĳä¸» è¿ĽæŃ¥
å°ĨåĨĽ æ¾³
çĥŁ éĽ¾
æ±¡ æ°´
æİ¢æµĭ åĻ¨
é¸¦ çīĩ
G ames
n ame
çļ ĭ
ä¸º 8
é¢ ļ
çī¹ åľ¨
æŃ¤ å¤Ħ
ç½Ĺ éĤ£
çł ¾
èĭ± çļĩ
èİ· éĢī
å¸Ŀ çİĭ
ä»£è¡¨ çļĦ
æķ´ ä¿®
åį´ æĺ¯
ãĥ «
è®¢ åįķ
å¤ªéĺ³ èĥ½
ä¾ĽåºĶ åķĨ
å¤ļå°Ķ å¤ļ
f t
u ck
æľ¬ åŃ£
åŃĲ å¼Ł
äºļ å°Ķ
å·¥ åŃ¦éĻ¢
ç§ĳ æĻ®
çº¦ 10
å¿ĥ çģµ
ä¼ł åĬ¨
å®¢ æľº
æł· å¼ı
éº Ĵ
éĥ¡ å¤ªå®Ī
ãĥ ©
æĢ¥ æĢ§
åĲ¬ è¯´
åħ¬å¸ĥ äºĨ
åĨ¬ å¤©
æ²ī é»ĺ
æĬļ åħ»
å½±è¯Ħ äºº
2 ä¾ĭ
z e
çļĦ äºĶ
çļĦ å¸®åĬ©
å¤§ ä¸º
æĹ¶ æĽ¾
ä»ĸ ä»¥
ä»ĸ æĭħä»»
éĩĮ å¤«
ãĢį (),
çİ° æľīçļĦ
çĶµ è®¯
åħ± éĿĴåĽ¢
200 6
é» ľ
äº¤ éħį
éĶ Ī
å¯¼ åĲĳ
åĽŀ é¡¾
çı Ĥ
åķ Ĭ
éļı æĹ¶
å¡Ķ åĪ©
éĽ· å¾·
åįĥ çĵ¦
åĳĬ åĪ«
è±¡ æ£ĭ
åıĤåĬł è¿ĩ
éĻį æ°´éĩı
æ»¡ åĪĨ
èĹı ä¼łä½ĽæķĻ
èĽ ¤
il le
åĸĦ äºİ
åģĩ æľŁ
çİ°ä»£ çļĦ
os h
æĭĨ åį¸
191 3å¹´
ä¹¾éļĨ å¸Ŀ
åŁĭ èĳ¬
åĩ¶ æīĭ
éħ¿ éħĴ
3 æľĪ1æĹ¥
H C
a ve
çļĦ æĪĲ
çļĦ æĹ§
çļĦ åħ³éĶ®
ä¸Ģ å±Ĥ
æ³ ¾
åĪĨ ä¼ļ
ä¹ĭ å£°
å¹¶ ä¸İ
çī¹ å¾ĭ
èµĽ éģĵ
æĢ§ åľ°
åħ¨ çľģ
æĢ» åħµ
æŀĹ éĥĳ
åĽŀ åĪ°äºĨ
in c
å°ĳ æł¡
è± ģ
en c
å»ºç«ĭ ä¸Ģä¸ª
äºĨä¸Ģ æ¬¡
æĻ®æŁ¥ è§Ħå®ļ
æ®ĭ éª¸
ç»ķ å¤ªéĺ³
åįĹäº¬ å¸Ĥ
éĶ® çĽĺ
çĬ¹å¤ª æķĻ
æ¬º éªĹ
å´Ľ èµ·
åįķè¡Į æľ¬
D ay
m od
çļĦ åı¯
çļĦ çĭ¬ç«ĭ
çļĦ èĩªçĶ±
ä¸º çķĮ
ä¸Ń çº§
ä¸Ń åŀĭ
äºº éĢī
äºº éĢł
æĿ ł
ä¸į åĲ«
ä¹ĭ æĺŁ
åĨħ è®¾æľī
âĢĿ (),
éĺŁ åı²
å·ŀ è®®ä¼ļ
ç»Ħ è£ħ
æ°´ æºĲ
æıĲ çĿ£
åı² åŃ¦å®¶
çĸ ¹
çŁ³ çģ°
å¤į åĩº
ç»Ī æŀģ
ä»£è¡¨ ä½ľ
æĸĩåĮĸ åĴĮ
åºķ çī¹å¾ĭ
åĶ± æŃĮ
æ¸© å·ŀ
å·²ç»ı åľ¨
èĥĮ éĥ¨
æ¬§æ´² çļĦ
ä»Ģ ç»´åħĭ
ç§ĳåŃ¦ ä¸İ
éľį åįİ
æľīä¸Ģ æĿ¡
æĭĽ å¾ħ
çĥŃå¸¦ æ·¡æ°´
æĵįä½ľ ç³»ç»Ł
æĮĩå®ļ ä¸º
èĢķ åľ°
æĬĽ å¼ĥ
ä¼º æľį
u la
çļĦ çĬ¶æĢģ
äºº é©¬
è¢« äºº
åĲĮ æľŁ
åı¯ è¿½æº¯èĩ³
èĲ ĥ
éĢļ ç§°
éĩį åĲ¯
æŃ£ å¦Ĥ
è®¤ å®ļä¸º
ä¸ĵ çº¿
ç¬¬ä¸Ģ å®¶
äºī æī§
æľį çĶ¨
15 3
åħ« è·¯åĨĽ
çİ¯ çĬ¶
å±Ĥ éĿ¢
çĶ² çĥ·
åį¢ çĶĺ
çļĦå¤§ éĩı
çļĦäºº ä»¬
éĿ©åĳ½ åħļ
äºİ199 1å¹´
é¹¿ åĦ¿å²Ľ
å¹´åº¦ æľĢä½³
åįģåŃĹ åĨĽ
æī« æıı
æĤ² åī§
å¸ĤæĶ¿ åİħ
èº² éģ¿
A A
çļĦ çİĭ
å¹´ åĪĿ
ä¸Ģ ä¸ĩ
åĮ Ļ
ç« ¿
çĶµ ç¦»
ç»ı è´¸
é¦ĸ éķ¿
åħĥ ä»£
éľ Ĩ
ä¿Ŀ å¯Ĩ
å¥¥ åħ°
è®° è¿°
ç¬¬ä¸Ģ åĲį
æ¥ ŀ
åĬ© æīĭ
é»ĳ å¸®
50 ä¸ĩ
ç§ģ èĲ¥
åĨĪ å±±
æĮ¯ åħ´
æĻ®éĢļ è¯Ŀ
èĩ³å°ĳ æľī
ä¼ı å°Ķ
å»¶ä¼¸ åĪ°
éĢ¼ è¿ĳ
èĤ¯å°¼ è¿ª
æĸ°å¢ŀå¢ĥå¤ĸè¾ĵåħ¥ æĢ§
s ch
ä»¥ 4
åĨĽ ä¸Ń
åĮĹ å²¸
è¿ĩ æĿ¥
çĲĨ ä¼ļ
æģ ķ
ç®¡ å¼¦
ä»¶ äºĭ
å®£ ç»Ł
è¶ħ å¸Ĥ
çļĦä¸Ģä¸ª åĮº
åı¯èĥ½ æľī
æŀģ åº¦
å²ģ åıĬ
ä¸Ńå¤® éĵ¶è¡Į
èĥľ è´Ł
æīį å¼Ģå§ĭ
åĪ¤ å®ļ
è¿½ åĬł
èĻļ åģĩ
åīª è¾ĳ
çº¦çĳŁ å¤«
æ±ķ å¤´
æ²Ļçī¹ éĺ¿æĭīä¼¯
çıĬçĳļ ç¤ģ
S uper
çļĦ æ³ķåĽ½
çļĦ èĩªçĦ¶
æĹ¥ æĪĲ
åŃ¦ è¯´
å¹¶ æŃ¢äºİ
è¥¿ æ¹ĸ
å¤ļ äºİ
çī© æµģ
æľº åŀĭ
åĽ¾ ç¤º
åıª å¥½
çļĦä¸Ģ æĶ¯
äº¦ æĽ¾
é¢Ħ åħĪ
æľĢç»Ī åľ¨
å¼Ĺ æ´Ľ
éģŃ åĪ°äºĨ
é»ĺ åħ¹
éĺ» æĮ¡
åħĭéĩĮ æĸ¯æīĺ
ç¬Ķ è®°
ä¼´ å¥ı
åı¥ ä¸½
åĲ¸å¼ķ äºĨ
éľ¸ çİĭ
æīĢè°ĵ çļĦ
åĲĮæĢ§ å©ļå§»
éĻª å®¡
åĢ¼å¾Ĺ æ³¨æĦı
åį¢çĶĺ æĸ¯åħĭ
A t
P ri
g er
åħ ľ
çĶ± ä¸ŃåĽ½
çĶ± åİŁ
çī¹ è®¸
å¼Ģ çģ«
å¹³ åİ¿
é©¬ æŀĹ
ç§į ç¾¤
ä¸¤ åĳ¨
è¾¾ èµĸ
é¦ĸ åľº
å·² æķħ
æľª æĪĲå¹´
æĶ¶ åıĸ
åĻ ¬
å¤į æķ°
åľ£ åľ°
é£ŀ å¾Ģ
å¥ĩ æĢª
åĺ »
åºĵ å°Ķå¾·
æĭ¿ åĪ°
è½® èĥİ
st e
å°½ éĩı
æĿĤ äº¤
æĿĲ è´¨
éľ² å¤©
åı¬ åĽŀ
ãĢį( ).
æµģè¡Į çļĦ
é¥® éħĴ
åıĸæ¶Ī äºĨ
åį¡å°Ķ çĵ¦
ä¸ĬåįĪ 9
æĬĵ ä½ı
é¥¥ é¥¿
éŀį å±±
åĮĹåį¡ç½Ĺ èİ±
éº¦éĩĳ èİ±
å¤ļå°Ķå¤ļ æ¶ħ
A F
Y P
f rom
çļĦ éĥ¨éĺŁ
çļĦ æĢģåº¦
æĺ¯ å¤§
è¡ «
ç¬ ¨
åĪĨ åıĳ
ç¬¬ 21
ä¾ ®
çİ° åĿĢ
èģĶ ä¼ļ
æ°´ æŀľ
åĽĽ åĽ½
çĥ ĥ
ç§¯ ç´¯
çºª å§Ķ
æ¸ħ åįķ
åı°æ¹¾ æĢ»çĿ£åºľ
ä¼¯ éĩĮ
é¸ ¾
è´Ŀ åĭĴ
é¹ Ń
æķĳ æµİ
çĪµ ä½į
æ¿Ģ æ´»
éŃĶ æľ¯
èĥ½åĬĽ çļĦ
å¢ĵ åľ°
190 8å¹´
ç¬Ķ åĲį
éŀ ĳ
æ§ Ľ
åįĳ è¯Ĺ
åĪ¶çīĩ äºº
æ»¤ æ³¢
; "
D E
ä¸Ģ ä½ĵ
æµ ļ
ä¼ļ åĩºçİ°
çĲ ¶
ä¸Ĭ éĻĲ
åĪĨ èĪ°éĺŁ
åıĬ é¦Ļæ¸¯
åĬ¨ èį¡
åĪ© å°Ķ
æµ· æ»¨
å°ı çĶ°
åĮĸ åĴĮ
åħ¨ èĥ½
æĪĸ ç§°
åıĤ çħ§
åĲĳ å¤ĸ
æĹł éļľç¢į
ç±» åĬ¨çī©
éŁ³ è¯ĳ
é¦Ļæ¸¯ æĹ¶éĹ´
ä¾Ľ ç»Ļ
ä¼¦ çī¹
ä¼¦ å·´
æĸ½ åĬł
ç»§ èĢĮ
çĥŃ æĥħ
å³ Ń
çĳŀ å®ī
it t
è¿½ èµł
æĿ¿ æ¡¥
åĨ³èµĽ ä¸Ń
æĢ¥ è¡Į
27 0
of f
th at
å¤ıåŃ£ å¥¥è¿Ĳä¼ļ
å¸ĥé²ģ å¡ŀå°Ķ
åī© ä¸ĭçļĦ
åŃ©åŃĲ ä»¬
ç¤¾ä¼ļä¸»ä¹ī åħ±åĴĮåĽ½
å¼ĹåĲī å°¼äºļ
æ³°ç½Ĺ å°¼äºļ
A åŀĭ
l er
u ro
Ã ¤
çļĦ è·Ŀç¦»
åľ¨ å·´é»İ
ä¸Ģ æĹ¥
ä¸ª åĽ½å®¶
ä¹ĭ ä¹ħ
ç¬¬ 24
å¾· åĴĮ
ä½¿ åĳ½
è¾¾ çļĦ
åıĤ æĪĺ
å¨ Ł
ä¿Ŀ éĩĬ
èº ¯
in o
å¸¦ åĬ¨
æ´Ľ å°¼
æ¶Ī åĮĸ
æĹħ é¦Ĩ
ç¬¬ä¸ī ä»£
ãĢį, ãĢĮ
éŁ¦ æĸ¯
åįĪ å¤ľ
çīĽ èĤī
åħħ çĶµ
å¥³åŃĲ åĽ¢ä½ĵ
äºİ199 3å¹´
è¡° èĲ½
æ¸¸æ³³ æ±ł
éĩĩè®¿ æĹ¶
æ£ķ èī²
è®¸åı¯ è¯ģ
å·´å¸ĥ äºļ
çļĦè½¨éģĵ åįĬéķ¿è½´
A O
çļĦ çº¢
çļĦ è¯ģæį®
å· ħ
åħ¬ åİĺ
åıĳ åĩºçļĦ
ä½ľ çĶ»
ä¹ĭ å¤ľ
å¯¹ å³Ļ
èĩª ä¼ł
ä¸ľ èİŀ
çĶµ éĵģ
è¯¥ åĮº
å½ĵ å¹´çļĦ
å¦ ¨
ä¸¤ ç«¯
æĺİ æ¸ħ
å·´ çĻ»
æĽ² æ£į
ç¥ŀ å®Ĺ
åı¯ä»¥ æĺ¯
æŃĮ è¿·
åľ£ åħ¬ä¼ļ
å¡ŀ æµ¦è·¯
æ¦ Ī
æ¥¼ å®ĩ
è¯į åħ¸
åı³ æ´¾
çŁŃ éĢĶ
åħħ è¶³
å¹¸ è¿Ĳ
å¸ĪèĮĥ åŃ¦éĻ¢
æ¹ĺ æ¶Ľ
æīĢè¾ĸ çļĦä¸Ģä¸ª
D on
çļĦ çĲĥåĳĺ
ä¸º ä¸ī
æĺ¯ åı°æ¹¾
ä¸Ĭ é©¬æģ©
ä¸» çļĦ
åĪ© åŁĥ
æĻ ķ
æīĢ ä½ľ
ä¸ĸ ç¥ĸ
å¸ĥ éĩĮæĸ¯
ç§į çļĦ
ç½Ĺ æĽ¼
å®ī æĬļ
çĤ «
ä»İ æĿ¥
åĬ¡ å±Ģ
æ³¢ åĬ¨
çļĦä¸Ģ é¢Ĺ
æ³ķåĽ½ å¤§éĿ©åĳ½
åī¯ æĢ»çĲĨ
å§Ĩ çļĦ
è´Ŀ æĸ¯
æķĪ å¿ł
ç»ıæµİ åıĳå±ķ
è¿Ľåħ¥ çĽ´è·¯
å°ģ å»º
ç¯ ·
è®² å¸Ī
æīİ å°Ķ
ä¹° åįĸ
èĩ³ä»Ĭ ä»į
æĶ¹åıĺ äºĨ
åĭĩ æķ¢
å¸ĥé²ģ åħĭ
èŁ ¾
æ¼ı æ´ŀ
çİ»åĪ© ç»´äºļ
çļĦ å±ħæ°ĳ
äºº æł¼
æĺ¯ èĭ±åĽ½
å± ĳ
æ² Į
æ³ķ åŃ¦éĻ¢
æĶ¿ åĿĽ
ä¸ĭ éĿ¢
åħ¥ ä¼į
éļ ħ
åģ ķ
åĽĽ å¼º
åĲĳ ä¸Ĭ
éĹ¨ åı£
å¨ģ æĸ¯çī¹
ä»Ĭ å¹´
è¯Ħ çº§
ä¼¯ å°Ķ
æ¨¡ æłĩæľ¬
ä¿Ħ è¯Ń
åįĬ å¯¼ä½ĵ
æ£® çļĦ
ä»ħ åŃĺ
èĢģ äºº
æľĢç»Ī å¹»æĥ³
ç«ł ç¨ĭ
åľ°æĸ¹ æ³ķéĻ¢
éĥ¡ çİĭ
é©» åĨĽ
èĢ¶ å¾ĭ
æİ§åĪ¶ äºĨ
åĪĽä½ľ äºĨ
æľīä¸Ģ åº§
å¿ħé¡» åľ¨
ç»° åı·
èµ«é²ģ æĻĵ
ä¸ľæŃ£ æķĻ
éĺ¿èĤ¯èī² å·ŀ
) ãĢį
2 60
çļĦ æĿ¡ä»¶
çļĦ æĦıè§ģ
ä¸º åĽĽ
ä¸Ń åŃ¦æł¡
ä¸Ń åĮĹéĥ¨
åĲİ äºİ
æĢ ľ
ãĢĭ ;
åĪ© æ²ĥå¤«
æķĻ å£«
ç§ĳ çĽ®
èµ· äºİ
æ°´ æīĭ
æº ľ
å¼ł å½ķéŁ³å®¤
ä¼Ĭ çī¹
æ¸ħ æ´Ĺ
en er
å¢ŀ åİĭ
åºķ è´¨
æĭ¥æľī çļĦ
éĽħ åĽ¾
è·Ł è¸ª
å®ĹæķĻ ä¿¡ä»°
æ¸¡ è½®
å¢Ļ å£ģ
åīĤ éĩı
åİĦ çĵľ
æĮĳæĪĺ èµĽ
æŀ¢ æľº
MA X
com p
æ£ķ æ¦Ī
æ¡ĥåĽŃ å¸Ĥ
åĵºä¹³ åĬ¨çī©
5 æľĪ1æĹ¥
8 æĹ¶
çļ Ī
çļĦ æľĢåĲİ
çļĦ åĪĹè½¦
å¤§ åľ°
åĴĮ é»ĳ
åĲİ åįĬ
ä¼ļ ä½¿çĶ¨
åĬ¨ æ¼«
éĩĮ å°¼
æĸ° é²ľ
åĬł æ³°ç½Ĺå°¼äºļ
å¾· æĽ¼
ä»£ çī§
200 5
ç§į å§ĵ
è¿Ĳ è½¬çļĦå°ıè¡ĮæĺŁ
éĥ½ å¯ŁéĻ¢
å·´ å°ĶçļĦ
åį¡ å¡Ķå°Ķ
æĮĩ å¼ķ
çŁ³ ç¢ĳ
åŃ£ åĨĽ
çĳ ¾
çĪ± ä¸½ä¸Ŀ
å®Ĺ å®¤
èĪª åİ¦
çĥŃ åĪº
åĨĻ äºĨ
è´¹ å°Ķå¾·
æĤ ļ
åĵ¥ æĭī
åı³ å²¸
è´§ è½¦
2010å¹´ äººåı£
ä¹ĭéĹ´çļĦ åħ³ç³»
os s
éĽĩ åĳĺ
èĮħ æĸ¯
è¶ģ æľº
NG C
éĵľéĶ£ æ¹¾
ç»ķå¤ªéĺ³ è¿Ĳè½¬çļĦå°ıè¡ĮæĺŁ
a il
åľ¨ çº½çº¦
ä¸Ń è·¯
å¤§ éĥ½
æľĪ å¨¥
åĲİ éĿ¢
ä¸» å§Ķ
åĪĨ æīĵ
åįĹ åįİ
èĩ³ æŃ¤
æį §
åİŁ å±ŀ
æ°´ éģĵ
çĦ ī
å®ĺ ç½ĳ
åıĺ éĿ©
ç¼ĸ ä¿®
ä»½ åŃĲ
èĪª éĢŁ
æī§ çħ§
æī§ æĶ¿åħļ
èĢ¶ é²ģ
çĽĽ è¡Į
æ¿Ģ åıĳ
ãĤ ¢
èĿ ī
åĬłæĭ¿ å¤§çļĦ
æļĹ ä¸Ń
å¾·éĩĮ å¸Į
çĽĹ çªĥ
æĿŃ å·ŀå¸Ĥ
åįļè§Ī ä¼ļ
ä¸Ģ éĥİ
åĽ½ åĨħçļĦ
åĲİ æĪĲä¸º
æ² ¥
è¡Į éĶĢ
ä¹ĭ å½¹
å¸Ĥ å§Ķä¹¦è®°
åĨħ å°Ķ
å¤ĸ åĢŁ
ä¸ļ çļĦ
èµ· åħµ
çº¦ 20
å·´ æ´Ľåħĭ
å§ĭ åıĳ
å¤§åŃ¦ æł¡
å¤ĩ å¿ĺ
ä¸Ńå¤® äººæ°ĳæĶ¿åºľ
éŁ³ä¹Ĳ åŃ¦éĻ¢
å¼¹ æĢ§
èĪ¹ éķ¿
ç¤¼ çī©
æ´¥ è´´
å°º åº¦
189 8å¹´
190 5å¹´
ä¸´æĹ¶ æĶ¿åºľ
ä¿Ŀå®Ī æ´¾
éº¦åħĭ åĶĲçº³
En g
CO VID
åĺīä¹ī åİ¿
çĢ Ľ
éĿĴæµ· çľģ
Ð¾ Ð
éĩĳåĥı å¥ĸ
è½¦è·¯ å£«
åĺ» åĵĪ
: "
D L
D o
S ystem
U P
åľ¨ æİ¥åıĹ
æ² ½
éķ ģ
ä¸į è¶ħè¿ĩ
å®¶ éĩĮ
æĸ° å¹²çº¿
æľĢ åħĪ
åĲĪ ä¸Ģ
åı£ ç½©
æ¬¡ éĥİ
ä¸¤ åľº
ç¨ ł
æŃ£ æķĻä¼ļ
äººåı£ æľī
äº¤ æ¶ī
å½ķ åĥı
åı¯èĥ½ å¯¼èĩ´
æħ ¨
æķĻèĤ² å±Ģ
æł¸ æŃ¦åĻ¨
éº¦ è¿ª
æİ§åĪ¶ åĻ¨
çļĦåľ° éĿ¢
åģı ç¦»
éĦ ŀ
å¯Ĵ åĨ·
å¾·æĦıå¿Ĺ å¸ĿåĽ½
è´¹å°Ķ åįĹ
1 6å¹´
ä¸Ń åįĹ
å¤§ è´¥
æĭ Ĳ
ä¸į ç¨³å®ļ
ç¬¬ 23
ä¾ ı
çī¹ çº³
çī¹ èī²çļĦ
åİŁ èĳĹ
å®ŀ åľ¨
è®¤ çľŁ
å·² å©ļ
or th
åĲĦ å·ŀ
ç¥ŀ çģµ
åºĵ åħĭ
æĹħ ç¨ĭ
èįī æľ¬
è½» æĺĵ
æĳ© å¤©
é¦ĸæ¬¡ äº®çĽ¸
ä¼ģ é¹ħ
å®¡ è®¡
ç§ģ æľī
çıł å®Ŀ
åĽ½åĬ¡ åį¿
èĢĹ èµĦ
éĹª çĶµ
åħ¬æĸ¤ çº§
We b
Cl ub
èģĮæ£Ĵ å¤§èģĶçĽŁ
6 æĹ¶
l ow
å¤§ åĲį
å¤§ æ»¡è´¯
ä¼ļ å½±åĵį
è¡Į åĪĹ
å°Ķ æĽ¼
åĪĨ è¡Į
åĨĽ æĶ¿åºľ
æľ¬ åĵĪæł¹
ä¸¤ æłĸ
åıĤ æĶ¿
éĶ ļ
æĻ® æ³ķå°Ķ
åıį æģĲ
æĥħ äºº
åĩ» åīĳ
ç¥ŀ å¥ĩ
é£İ ä¿Ĺ
ä¼¯ åħĭ
é¥ ª
èĪª æ¯į
è¯ģ ä¹¦
å®Ī éĹ¨
åħ¼ èģĮ
ac ritic
å¥³æĢ§ çļĦ
çĶ·åŃĲ åĽ¢ä½ĵ
æķĮ æĸ¹
æĦ¿ æľĽ
ra y
éĺ¶æ®µ çļĦ
è¿Ŀ è§Ħ
è·³ èĪŀ
éĽĨä¸Ń éļĶç¦»
èĩªèº« çļĦ
æ³¢ç½Ĺ çĥŃ
è¥¿éĩĮ è¥¿äºļ
å¿ĥèĦı çĹħ
åĿĲèĲ½ äºİ
çļĦåı¯èĥ½ æĢ§
çĥ¹ é¥ª
åį¡å°Ķçĵ¦ å¤ļæĸ¯
M G
m b
ç µ
çļĦ èĮĥåĽ´
çļĦ æĸĩç«ł
ä¸Ģ å°ı
å¤§ ä¸ĵ
æľī ä¸įå°ĳ
æł ĵ
èĢĮ åĩº
éĽ ³
ä¸ĭ ä¸Ģä¸ª
é© ¯
æµ· åı£
è¯¥ ç«Ļ
ç® ķ
åĮĸ åŃ¦å®¶
åİ¿ åĲį
å°¼ åħĭæĸ¯
åİĨ å¹´
æ´² éĻħ
åħ« ä¸Ģ
å¸Ĥéķĩ éĿ¢ç§¯ä¸º
éħį æľī
ä½İ éŁ³
å¹³åĿĩ æ°´å¹³
è§Ħæ¨¡ çļĦ
ç¬¬åįģ äºĶ
èļ Į
åįģä¸ī å¹´
æµ·å²¸ çº¿
æŀĦæĪĲ çļĦ
åıĳçĶµ æľº
çļĦåİŁ å§ĭ
ric on
å¤ļæł· æĢ§
æ°ĳä¸»ä¸»ä¹ī äººæ°ĳåħ±åĴĮåĽ½
é¡¿æ¶ħ èĮ¨åħĭ
1 1å¹´
A ss
m p
ãĢģ "
ä¸Ģ å¹´çļĦ
æľī ä¸ª
æĹ¥ éĹ´
ä»ĸ å°Ĩ
ç¬¬ 18
åĪ° æĿ¥
å¸Ĥ åĴĮ
æµ· è±ļ
è®¾ çļĦ
å·ŀ éĻħ
ç§ĳ éļĨ
å¤ª å¤ļ
æĶ¿æ²» å®¶
åĲī æĢĿ
æİĴ æ°´éĩı
å¡ŀ æĭī
åĽ½éĻħ çĶµå½±èĬĤ
åıĮ äºº
(, ,
å¥ĩ è¿¹
å°½ åı¯èĥ½
æŀª æ¢°
9æľĪ èĩ³
éĽĨåĽ¢ çļĦ
åħ» èĢģ
çĤ® åı°
éģĩ å®³
æľĿé²ľ æ°ĳä¸»ä¸»ä¹īäººæ°ĳåħ±åĴĮåĽ½
åĨ¬ å¥¥
IN K
æ¹ĸåįĹ åį«è§Ĩ
ç¿ħ èĨĢ
è·¯æĺĵæĸ¯ å®ī
æĪĮ ç§ĳ
èĶĵ å»¶
æĻ®æ³ķå°Ķ èĮ¨
z z
æĺ¯ çĶ±äºİ
å¤§ èĥľ
åĴĮ å¯¹
åľ° é©¬æĭī
ç« º
ä¸į ç¬¦åĲĪ
èĢĮ æĪĲä¸º
åįĹ ç«Ļ
èĩ³ åħ³
è¿Ľ åĩº
éĩĳ åįİ
å¤Ħ ä»¥
éĹ¨ æ§Ľ
æµģ æ´¾
æĶ¯ éĤ£
èİ·å¾Ĺ ä¸Ģæŀļ
ä¸»è¦ģ ä»¥
èĬ± å²Ĺ
æĺ¥ æĻļ
æ¿Ģ åħī
åģı è¥¿
ä¸ŃåĽ½äººæ°ĳ æĶ¿æ²»åįıåķĨä¼ļè®®
12æľĪ2 8æĹ¥
æ¹¿ æ¶¦
æ»¨æµ· å¡ŀçº³
æł¼æĭīæĸ¯ åĵ¥
å¢¨å°Ķ æľ¬
çļĪ ä¾Ŀ
O ricon
b ur
çļĦ å¯¹è±¡
ä¸º çºªå¿µ
åĴĮ åīį
ä¸į å®ī
æ°ĳ å»º
åĿ ľ
æĸĩ åºĵ
ç«ĭ äº¤
å¤© åĽ½
éĺ¿ åĭĴ
åĽĽ æ¬¡
åĬ¡ æ®µ
æĽ¾ ç¥ĸçĪ¶
æĹł ç©·
å¯¼ æķ°
æ· ŀ
åĽŀ æĬ¥
å±Ģ éĿ¢
ç¦» èģĮ
åĽŃ èīº
æĭħä»» è¿ĩ
å£° æı´
é£ŀ ç¢Ł
ä»ħ ä¸º
ç²¾ åº¦
åİħ éķ¿
èĥŀ èĥİ
ç¾½ èģĶ
ä¹° ä¸ĭ
ç¼© åĩı
ãĢī .
å»ºéĢł äºĨ
åŃ¦èĢħ è®¤ä¸º
åĩºèº« çļĦ
æĲľ æŁ¥
çļĦå°ı åŀĭ
å®īå¾· æ£®
è¥Ħ éĺ³
1920å¹´ ä»£
ç»¼èīº èĬĤçĽ®
Col le
Met acritic
ç½¹ æĤ£
éķ° ä»ĵ
A ct
g u
å¹´ çºª
åľ¨ è¿ĩåİ»
ä¸Ģ å¹¶
ä¸Ģ æľ¬
å¤§ åĴĮ
ä¸Ĭ å¥ı
ä¸Ĭ å°ī
åĲĮ ä½įç´ł
å¤ļ çĳĻ
åĬł å¾·
ä»£ ä»Ģ
è½¦ éĹ¨
æĭī æł¼
å¤© èĬ±
è¾¾ åħĭ
å°¼ ç½Ĺ
åĢ ©
12 æľĪ1æĹ¥
åį¡ å¡Ķ
è¯´ ä»ĸ
er o
èº« ç©¿
èĬĤ çľģ
æ¸ħ æĶ¿åºľ
æŃ¦ å¾·
æĬ¤ éĢģ
åįĥ ä¸ĩ
æīĺ ç±³å°Ķ
è´Ł äºİ
çĻ¾ åĪĨ
æĻ¯ æ³°
åĨ³å®ļ åľ¨
ä¸Ńåįİäººæ°ĳåħ±åĴĮåĽ½ æĶ¿åºľ
ä¸ĵè¾ĳ çļĦ
å¸Ĥåľº çļĦ
å¼± çļĦ
éŀ ĺ
æº¶ åīĤ
å·§ åħĭ
é©¬æĭī éĽħ
åľ£è¯ŀ èĬĤ
B N
èµ Ĥ
åĲİ å°Ĩ
ä¸Ĭ ä»¥
ä¸į éĢĤ
å¼Ģ åħĥ
æĸ° å¹´
åĮĹ éĿ¢
ä¹Ł å¾Ī
èģĶ æīĭ
çĽ¸ æİ¥
èĭ± å®Ĺ
æĪĸ è®¸
æŀĹ çļĦ
éľ ¹
0å¹´ èĩ³
æ¸¸ çī§
æĿĥ éĻĲ
çŁ³ åĭĴ
èĭı é»İ
ä¸ĸçķĮ æİĴåĲį
ç¬¬äºĮ æī¹
åı¦ ä¸ĢåĲį
è¯º å¨ģ
æĬĢ èīº
éĻĪ è¿°
åıĳå±ķ æĪĲ
ä¸ĸçºª æľ«
åĵ¥ èĲ¨åħĭ
ä¸»ä¹ī åĴĮ
è®¸å¤ļ äºº
ä¿Ħç½Ĺæĸ¯ æĢ»ç»Ł
åģĩ å¦Ĥ
æ°ĳä¸» åħ±åĴĮåĽ½
ä¸° èĩ£
ãģ Ĩ
ä¸ĢçĽ´ åĪ°
æīİ æ³¢ç½ĹçĥŃ
åķĨä¸ļ éĵ¶è¡Į
è·¨ åĽ½
ç«ĭæ³ķ ä¼ļè®®åĳĺ
ç»ıå¸¸ è¢«
æ°¢ æ°Ķ
çŁ¥è¯Ĩ åĪĨåŃĲ
ha el
å¥¥å°Ķ èī¯
è¯± å¯¼
LE D
åĽŀå¿Ĩ å½ķ
åĵĪä½Ľ å¤§åŃ¦
æ®´ æīĵ
% )ãĢģ
7 åı·
åľ¨ å¤ĸ
ä¸Ģ éĿ¢
äºº åıĬ
æľī ä¸¤ç§į
ä»¥ åīįçļĦ
ä¸į è®º
ä¸į è§ĦåĪĻ
ç¬¬ 25
æ³ķ çİĭ
åĪ° åºķ
å¯¹ åĨ³
æľĢ å°ıçļĦ
çī© è¯Ń
çĽ¸ æľĽ
æ°´ æīģ
çĽ® çļĦåľ°
æıĲ æĹ©
éĺ¿ æ³¢ç½Ĺ
202 5
æ¯ı ç§Ĵ
èĲ¥ åľ°
éĽ· åħ¹
è®¾è®¡ äºĨ
åĵ¥ æľ¬åĵĪæł¹
åĪ¶ä½ľ äºĨ
ä¹Įåħĭåħ° æĢ»ç»Ł
éĤ» å±ħ
åĲ¬ è§ī
æĶ¿çŃĸ çļĦ
æĭĽ çĶŁ
è¾ŀ åħ¸
190 9å¹´
è§¦ åıĳ
ag ram
èĮ¶ åı¶
è¿Ľä¸ĢæŃ¥ çļĦ
åĽ½åĨħ å¤ĸ
åı°åĮĹå¸Ĥ æĶ¿åºľ
ç¿¡ç¿ł åı°
3 20
H y
a j
m ar
ä¸ ķ
æĺ¯ åŁºäºİ
ä¸į æĺĵ
ä¸ĭ æĶ¾
å¸Ĥ åĮºçļĦ
å¯¹ ä»ĸçļĦ
åĪ© æĸĩ
æĻ Ĵ
ä¸ī åº§
æĪĺ åĬŁ
æķĻ å®¤
é©¬ èĢ¶
çĤ ¬
èµ· éĻį
å¸¸ é©»
åıĹ è´¿
åĩ» æºĥ
è¿ĳ æµ·
æ´¾ åħµ
æŁ¥ è¯¢
ä¿® è¡Į
ä¿® è¯»
æ¨¡ ç»Ħ
å¥ĩ å¼Ĥ
èĢģ é¼ł
20å¹´ ä»£
èİ« æĸ¯
éº¦ åį¡
è¿Ļä¸ª è¯į
è¾ĵ ç»Ļ
ãĥ ĥ
è¶ħè¿ĩ äºĨ
åĩ¯ æĴĴ
çĤ® åĩ»
èĤī é£ŁæĢ§
è¯Ħè®º åĳĺ
è¯¥åľ° æľĢé«ĺçĤ¹ä¸º
éĵģéģĵ éĥ¨
åıĽ åĨĽ
ä¸įè¶³ ä»¥
ne y
äº¤æ±ĩ å¤Ħ
åį°ç¬¬å®ī çº³
æĬ¤åį« èĪ°
å·´å¡ŀ ç½ĹéĤ£
éº¦è¿ª éĢĬ
C y
N ot
çļĦ æ²³æµģ
åľ¨ é«ĺ
åĪ° åľº
éķ¿ ä¸º
æĻ ı
è½¦ ç¥¸
å¤ĸ ç§ĳ
æķ° æľĪ
ä¸¤ æĶ¯
éĥ½ å°ī
æł¼ éĻµ
æĺİ çĻ½
éŁ³ éĢŁ
åı¤ åĿŁ
çŁ³ åĪ»
æ¨¡ èĮĥ
èĬ± äºĨ
å³ ¨
æĬĹ äºī
èī¾ ä¼¦
æĻļ ä¼ļ
æ·· åıĮ
190 6å¹´
è®¾ç½® äºĨ
çıį å®Ŀ
ä¸Ńå±± å¤§åŃ¦
å¡« æµ·
æ·ĺæ±° èµĽ
åĬłå·ŀ å¤§åŃ¦
æĬĦ è¢Ń
äº¿åħĥ äººæ°ĳå¸ģ
æĳĶ è§Ĵ
éĻĦåĬł èµĽ
åŃļ æĹ¥
ç³Ł ç³ķ
éľ¹ éĽ³
A 1
b ut
éĿ ¼
æĬ Ĵ
æ°ĳ æĿĥ
ç¾İ å®¹
å»º æŀĦ
ä¹Ł ä»¥
çŃī åĽłç´ł
çķ ¸
å¤© æŃ£
éĩį çĶ³
æĹł æĶ¿åºľ
æŀĦ æĢĿ
è£ħ ä¿®
åħ« å¤§
èĢĥ è¯ģ
åĨľ çĶ°
çĿ£ å¯Ł
åĢ¼ çļĦ
éĴŁ æ¥¼
ä½įç½® æĺ¯
ç¥Ń åı¸
ä¸ľè¥¿ åĲĳ
åıĶ çĪ¶
7 37
A ir
H T
æľī åı²ä»¥æĿ¥
è¡Į è¿Ľ
åĩº ä½¿
åĩº åĩ»
ä¹ĭ åıĺ
ä¹ĭ å¼Ł
çĶ¨ æ°´
æ³ķ åĪĻ
å¹³ åıį
å¾· æ£®
æĸĩ åºĻ
è¿ĩ æ»¤
ç§ĳ ä¸ĭçļĦä¸Ģä¸ª
æİ¥ åħ¥
å¸¸ ä¾į
æĻ® åħ°
åıĺ éĢŁ
è½¬ åĪ°
éĻĨ ä¸Ĭ
ä¸ĸçķĮ åĨłåĨĽ
éĿ¢ç§¯ çº¦
éĿĴ è¡£
14 00
çĶ² å£³
æĢĿ ç»´
å¯¼èĩ´ çļĦ
çİĽ åĪ©äºļ
åħį äºİ
èį£ èĢĢ
ä¸° çĶ°
æķ¦ ä¿ĥ
èģļ çĦ¦
åĬª æĸ¯
ä¼° ç®Ĺ
ä½Ĳ æ²»
çº¹ ç«ł
å¸¸è§ģ äºİ
å¨ģå°Ķ éĢĬ
æĦıæĢĿ æĺ¯
å¤§å¸Ī èµĽ
åŃŁåĬłæĭī åĽ½
åĪĨç»Ħ èµĽ
å¹¼åĦ¿ åĽŃ
å¤ĩå¿ĺ å½ķ
æł¼éĻµ åħ°
P V
çļĦ èīºæľ¯
çļĦ æĶ»åĩ»
æķ ŀ
éĺ Ļ
ä¸» çº¿
å¸Ĥ å§Ķ
åįĹ å¼Ģ
åįĹ å®ģ
åı¯ æĺ¯
å¾· èİ±
ç¾İ å°ĳå¥³
éĻ¢ çļĦ
åŁİ ä¸Ń
çİĭ åºľ
éĺ¿ æł¼
æĶ¹ æŃ£
æº º
äººæ°ĳ çļĦ
åįĩ ä¸Ĭ
el f
æ²ĥ çī¹
è¿½ æįķ
3æľĪ 31æĹ¥
åıªæľī ä¸Ģä¸ª
éĨ ļ
åħĪåĲİ åľ¨
åįģåĽĽ å¹´
å¤ĸåĽ½ äºº
æ¡ĵ åħ¬
æĢ»åıĤè°ĭ éĥ¨
éŀĳ éĿ¼
5 åĲį
A B
o e
åıĳ æĢ§
èĢĮ èİ·å¾Ĺ
é«ĺ æ½®
äºļ è¶³èģĶ
å°Ĩ çĶ±
çĲĨ æĢ§
è¡¨ æĢģ
æľº å¯Ĩ
è®¾ æĥ³
ç±³ é«ĺ
æĢ» ç¼ĸè¾ĳ
äº§ äºİ
å¹¿ çĶµ
å¤ª å¸¸
åıĺ è¿ģ
æ³¢ åĪ©æĸ¯
åħī èį£
å¤´ è§Ĵ
åħµ å½¹
åĵĪ ç»´
æ³¨ éĩĬ
èĪ¹ åİĤ
çªģ åıĺ
ä¸¥ èĤĥ
èµŀ èªī
è·Ł èĳĹ
éĹŃ çİ¯
éĺ¿æĭī è´¡
ra g
æ®ĭ ä½Ļ
éļĲ å±ħ
çİĦ å®Ĺ
æ¸Ķ æ°ĳ
æº¶ è§£
æŁĶ ä½Ľ
èĢĮéĹ» åĲį
æł¸ç³ĸ æł¸éħ¸
ä¼¯æĺİ ç¿°
Ñ ģ
çļĦ éģĹ
çļĦ å®¶åºŃ
ãĢ ĩ
ä¸Ģ ä¸Ģ
å¤§ æ´ĭ
å¤§ ä»Ļ
ä¼ļ æĪĺ
ä¼ļ é¦Ĩ
éķ¿ ç¯ĩ
18 00
åıį é©³
åħī çº¿
æ¬§ äºļ
æ¯į è¯Ń
ä½ı å®¿
åºķ ä¸Ńå±Ĥ
è¾ĵ éĢģ
éľį æĻ®
éļıåĲİ çļĦ
æ¨¡å¼ı ç§į
ä¹Ļ çĥ¯
éĿĴå¹´ åĽ¢
èķ Ĭ
å®ŀçİ° äºĨ
åįģåħŃ å¹´
åħĭæĭī èį·é©¬
ä¼ª è£ħ
æ§Ł åŁİ
2 O
2 10
C he
S he
f er
p lay
çļĦ å®ī
åľ¨ åħ¶ä»ĸ
æĪ ®
åĲİ åĽł
åŃ¦ åĽŃ
ä¸Ĭ è¯¾
ä¸İ åĮĹ
æŀ £
æľ¬ ç§į
åı¯ éĢļè¿ĩ
ä¸ľ æĻĭ
ä¸ī åı¸
ä¸ī ç»´
éģĵ å¥ĩ
äº¤ æĽ¿
é² ī
in al
æ±Ł æ¹ĸ
è¾ĥ çŁŃ
æ¨¡ åĿĹ
ä¹Ŀ ä¸ª
é²ģ è¿ħ
)ãĢģ (
éĹ» åĲį
æ¯Ľ åĪ©
é¡¶ å°ĸ
é²ľ èĬ±
ä½© å¾·ç½Ĺ
çľ¼ éķľ
åģı å¥½
189 5å¹´
ä»Ļ å¥³
ä¸Ńæĸĩ å¤§åŃ¦
ç¿»è¯ĳ æĪĲ
çŁ¥åĲį åº¦
æīŃ æĽ²
äº¤åĵį ä¹ĲåĽ¢
å¥łå®ļ äºĨ
åĤį æĻļ
çļĦ éŁ³
åľ¨ æµ·
ä¸Ģ ç±»
ä¸İ ä»ĸçļĦ
ä¹Ł åĽł
èİ· éĢīä¸º
éĶ »
ä¼Ĭ åĬ¿
åĳ¨ åħŃ
åķĨ è®®
åķĨ è®¨
æļ ¹
ä¹¡ æ°ĳ
åħį åıĹ
çİ© æ³ķ
å¤ľ æĻļ
çĲĨè®º çļĦ
ç»ĺ åħ¥
ç»Ĩèĥŀ çļĦ
å°Ĩåħ¶ åįĩæł¼ä¸º
çĩĥ æ²¹
çºµ åĲĳ
ä¸Ģå¸¦ çļĦ
å®īè£ħ äºĨ
æİī äºĨ
çĺ ¾
æĲ¬ è¿ģ
ang e
éħįéŁ³ åĳĺ
åĪ· æĸ°
åı²ä¸Ĭ æľĢ
èĦ¸ ä¹¦
èµ¦ åħį
çŀ¬ éĹ´
å·´å°ĶçļĦ æĳ©
M TV
P ark
R S
W ar
h y
æĺ¯ åĶ¯ä¸Ģ
åĲİ å°±
åŃ¦ éĥ¨
çĲ Ľ
å§ ¨
ä½į åħĥ
æĮ £
è· ª
æĸ° å¨ĺ
åĬł æĿ¥
ç¾İ æµĵ
åĪ¶ åĬ¨
åĲĪ æł¼
å°ı å·´
çĽ¸ äº¤
ç»Ħ åĪ«
å¤Ħ å¥³
æ²³ å¸Ĥ
åį¡ çļĦ
æł¡ åĨħ
ä¸¾ åĬ¨
å®ĺ åĲı
åŃĹ å¹ķ
è¿ĳ äº²
èĬĤ è½¦åİ¢
æľª å©ļ
çĵ¦ åĭĴ
è¯º å°Ķ
æ²Ļ å°Ķ
ä¸ĥ ä¸ĸ
è¡Ĺ çļĦ
åģľ æĪĺ
ç²¾ éĢļ
åİĭ åĢĴ
åı³ ä¾įéĥİ
å¿ħ éľĢ
äºĮåįģ åħŃ
å·¨ åŀĭ
åı¬ åĶ¤
éĥ¨éĹ¨ çļĦ
æµª è´¹
éĿĻ èĦī
TV B
æĬ¢ æķĳ
äº¿ç¾İåħĥ çļĦ
æ²ĥå°Ķ å¤«
å®ł çī©
IV E
3 æ¬¡
9 åı·
i OS
â Ĺ
çļĦ ä¸ľè¥¿
å¹´ å¹³åĿĩ
åľ¨ åĲĮå¹´
ä¸º 1
åĽ½ ä¼ļè®®
äºİ ä¸Ń
çº ¶
åĴĮ åľ¨
åĴĮ åĽ½éĻħ
åĴĮ å¾·åĽ½
æĹ¥ æ¸Ĳ
è´ ®
åĲį å£°
ä¸» çĤ®
ç¬¬ 19
åĨĽ æł¡
æĸ° ç§Ģ
çİ° èº«
å½ĵ åľº
æĭī æ¯Ķ
æ°´ ä¸Ń
åĽĽ åįģäºĮ
å·´ æĸ¯åħĭ
ä¼Ĭ å¤«
è¿ŀ éĢļ
åį° æ¬§
èĬ± åºı
èŃ¦ ç½²
çĥŃ çĥĪ
é¢Ħ éĢī
æŃ£å¼ı å®£å¸ĥ
åģļ å¥½
åĨ² åĪº
çĽĸ å°Ķ
éľ² åĩº
èĦ± æ°§
187 1å¹´
åī² è®©
åĸ· æ³ī
ast er
åİ¿çŁ¥ åİ¿
æ¨± èĬ±
åīĳæ¡¥ å¤§åŃ¦
å¯ĨæŃĩæł¹ å·ŀ
çĲµ çĲ¶
" |
K e
k i
çļĦ æľĢåĲİä¸Ģ
çļĦ è±¡å¾ģ
æĺ ¼
å¤§ éŁ©æ°ĳåĽ½
ä¸Ĭ ç´¢æģ©
éķ Ģ
åıĳ æºĲèĩª
åĲĮ æĥħ
åĲĮ èĥŀ
å½ĵ ä»Ĭ
åĪ¶ è®¢
åħ¨ åĨĽ
æĢ» æķĻåĮº
åįİ æĸĩ
çĦ Ĭ
åıĹ åĳ½
åį¡ è¿ª
å¹¿ éĺĶ
åºĶ åıĺ
æĺŁ åº§
å¤ª çĽĳ
çĶ· çĪµ
ç¬¬äºĮ å¤©
å®¹ åĻ¨
ç¬¬ä¸ī è½®
åĲ¯ ç¤º
è¡¥ è´´
æĬµ æĬ¼
éŃĶ é¬¼
å°Ĭ ä¸¥
æĭĴç»Ŀ äºĨ
ç»ıèĲ¥ çļĦ
éĽĩ ä¸»
åĲĦèĩª çļĦ
åĿĤ 46
äº¤åĵį æĽ²
çĻ½åŀ© çºª
è¾Ľäº¥ éĿ©åĳ½
% ).
3 èĩ³
J e
x y
åľ¨ è¢«
ä¸Ģ æıĲ
âĢ ²
çĶ± æĹ¥æľ¬
æľĢ å¸¸è§ģçļĦ
åħ¥ åľº
å½ĵ æĪĲ
äºĮ åįĥ
çĤ ¯
èµ· åľ¨
èĳ ±
éĹ¨ ä¸ĭ
æµģ çļĦ
è¿ŀ çİ¯
å¾Ģ åĲİ
ç»ıæµİ åŃ¦å®¶
å½ĵåľ° äºº
ä¿Ħç½Ĺæĸ¯ å¸ĿåĽ½
äºĭä»¶ ä¸Ń
æĺ¥ å¤©
æĳĦ åıĸ
å¼Ģåıĳ åķĨ
å®ª ç«ł
éĢĥ éģ¿
åıįåºĶ çĤī
æ±ĩ æĬ¥
æŃ»äº¡ çļĦ
åĬŁèĥ½ çļĦ
190 4å¹´
èķ ¨
äºİ198 5å¹´
éĢĴ äº¤
åĸ· åıĳ
å·« å¸Ī
è¾° ç§ĳ
é¢ĩ ä¸º
çº§åĪ« çļĦ
çļĦåŁºç¡Ģ ä¸Ĭ
èĥĮé³į è½¯æĿ¡
è°¨ æħİ
éĩľ å±±
6 åĲį
C ap
I E
åĴĮ å¼¦
ä¸į è®¾
ä¾ ¬
è° Ł
æľº åĴĮ
æł¼ ä¼¦
çĽ® çĿ¹
æµģ æĺŁ
ä¼ł æİĪ
è½¬ åĮĸ
åĪĴ ä¸º
è´Ŀ èĴĤ
åº· æĸ¯åĿ¦
æŃ£å¼ı æĪĲç«ĭ
æķĻèĤ² çļĦ
ç»§ç»Ń åľ¨
äºĴ éĢļ
æĢ¥ åī§
è¡Įä¸º çļĦ
çļĦåľ° çĲĨ
å°ıæĹ¶ åĨħ
èªī ä¸º
å¼ĢæĶ¾ å¼ı
äº® åº¦
äºİ18 3
æĺĨ ä»ĳ
ä¾¦ æµĭ
æ°Ķè±¡ åİħ
ä¸¥æł¼ çļĦ
åį¡æ´Ľ æĸ¯
çļĦè½¨éģĵåįĬéķ¿è½´ ä¸º
g ram
ç» ŀ
æĪĲ åĥı
ä¹ĭ ç¥ŀ
è¢« çĶ¨ä½ľ
å®ī éĹ¨
èĭ± åĨł
18 ä¸ª
æ²³ å²¸
å¥¥ æĭī
11 æĹ¶
æĬ¥ ç¤¾
åħ¬éĩĮ å¤Ħ
åĳ¨ æĹ¥
æĿİ ç»´
æĹ© æĻ¨
éĺ² æļ´
æīĺ æĸ¯
ä½ķ å¡ŀ
è®¾è®¡ åĴĮ
åĩł å¤©
å¼¹ åĮ£
èī¾ èİī
èĭ¥ æľĽ
åĽ½æ°ĳ å¤§ä¼ļ
ç§ģ ä¸ĭ
ä¼ģä¸ļ å®¶
èĩªçĦ¶ ç§ĳåŃ¦
æģĲ æħĮ
å¤ªéĺ³ çļĦ
ä¸īåįģ å¹´
èĳ¡èĲĦ ç³ĸ
çİĦ æŃ¦
å¿ħè¦ģ çļĦ
æ©Ļ èī²
è¾¾ç§ĳ ä»ĸå·ŀ
èĲ¨è¯¸å¡ŀ å·ŀ
ä¾® è¾±
W E
çļĦ åı°æ¹¾
çļĦ çĪ±
åľ¨ åı°
æľī ä¸īä¸ª
åĴĮ ä¸ľ
åĳ Ĩ
åĬł å¿«
ç¾İ å¼ı
åįģ ä¸ĩ
æıĲ äºļ
18 å²ģ
éĴ Ĭ
æĽ´ å¿«
èĮ ±
çļĦä¸Ģ å±ŀ
åĿĩ è¢«
å¡ŀ åĨħ
æ²Ļ çļĩ
æ²Ļ æ»©
éĩĩ æł·
åģľ æĴŃ
æŃ£å¼ı å¼Ģ
åĲİæĿ¥ æĪĲä¸º
åı¶ çīĩ
èĩªçĶ± æĦıå¿Ĺ
9æľĪ 30æĹ¥
æ¯Ĵ æĢ§
çĸĹ æ³ķ
åĩ¯ çī¹
æ·· æ²Į
èĮĥåĽ´ åĨħçļĦ
èľ Ĺ
éĻµ å¢ĵ
ç¿¼ é¾Ļ
å¥Ī èī¯
å°Ĭ æķ¬
èļ ķ
å®ŀéĻħä¸Ĭ æĺ¯
è¶³åįı æĿ¯
èµ«é²ģæĻĵ å¤«
2 èĩ³
3 80
L P
p ha
åı ±
å¤§ åĮºçļĦ
ä¸į ä¾¿
ä¹ĭ æŃĮ
åĲĮ å±ŀ
å¾· èĲ¨
è¿Ľ èĢĮ
ç±³ åĵĪä¼Ĭ
å®ī å¹³
æĺİ å¸Ŀ
æĽ¾ ä¸Ģåº¦
ä¹Ĳ æĽ²
çļĦä¸Ģ åįĬ
è¿ŀ çº¿
å¤´ éª¨
æ´¾ é©»
çıŃ æľº
æľ¨ æĺŁ
mu n
åģļ åĪ°
çĲĥéĺŁ åľ¨
ç¬¬åįģ åħŃ
éĺ¿æĭī å·´é©¬
éĿĻ æĢģ
æĹģ çļĦ
å¤©ä¸»æķĻ å¾Ĵ
çķª åı°
å°ĸ æ²Ļ
å¸ĥå°Ķ ä»Ģç»´åħĭ
å¼ķåħ¥ äºĨ
æī©å±ķ åĪ°
åµĮ åħ¥
åĪĨä¹ĭ äºĮ
èĩĢé³į è½¯æĿ¡
æĹıèĩªæ²» å·ŀ
å¾ĹåĲį äºİ
æ·¹ æ²¡
Inst agram
é©¬å°¼ æĭī
å¥¥æľ¬ æµ·é»ĺ
ç»ĺåħ¥ åľ°åĽ¾
Y O
t ra
çļĦ æĹ©æľŁ
ç» «
ä¸İ å°ı
åĩº çĭ±
åıĳ åħī
ä½ľ åĩºäºĨ
è¥¿ åŁŁ
å¾· æ¯Ķ
åĪ© ç»´
é«ĺ åĩº
è¿Ľ åº¦
ä¹Ł å¯¹
èµĽ åĨłåĨĽ
çŁ ½
åĮĸ èº«
æıĲ æĭĶ
æīĭ è¯Ń
å¤Ħ æŃ»
èĭı èı²
è°ĥ è§£
åĳ¨ äºĶ
la s
éĺ² æİ§
æīĺ åħĭ
ç»Ŀ å¤§éĥ¨åĪĨ
ç±į è´¯
æ·· éŁ³
ãģ Ĺ
189 6å¹´
äºİ199 0å¹´
æĬĺ è¿Ķ
ç¼ĵ åĨ²
æıĴ çĶ»
åıĶ åıĶ
ain t
å¸ĥèİ± åħĭ
BL AC
éĿ¢2 çº¿çļĦ
F M
l or
çļĦ ä¹¡
çļĦ åĶ¯ä¸Ģ
ä¸Ń éĥ½
äºº èº«
19 10å¹´
ä¸İ èĭ±åĽ½
ä¸į è§ģ
åĪĨ æ²»
æĸ° æĬĢæľ¯
å¹³ æĹ¶
å°Ĩ è¿ĻäºĽ
åĪ¶ å¾Ĺ
é©¬ çļĦ
éĹ¨ åºĹ
æĶ¶ åħ»
å¤´ çĽ®
åĽŃ å¯º
å¸Į æĭī
åĬŁ å¤«
å¿Ĺ æĺİ
è¯į æĽ²
è¿ľ æ´ĭ
èĪ¹ ä¸Ĭ
åĶ® åĩº
æī¾ åĩº
åįıä¼ļ çļĦ
å°ıæĹ¶ åĢĻ
çī§ åľº
ç»§æī¿ äºº
20ä¸ĸçºª åĪĿ
ä¹Ŀé¾Ļ å·´å£«
å¼Ģè®¾ äºĨ
åĪĨéħį åĪ°
P art
S ou
T o
i us
æľ ½
æī Ķ
åĩº å±Ģ
å¹¶ èİ·å¾Ĺ
é¢ Ĳ
çī¹ åĪ©
å£ ķ
æĭī æĭī
æĺİ æľ«
çģ ¸
éĹ¨ å°Ĩ
æĮĩ æ´¾
åŀĭ çĶµåĬĽæľºè½¦
åıį åħ±
ä¸ĵ åĪ¶
ä¾ĭ åĴĮæĹłçĹĩçĬ¶æĦŁæŁĵèĢħ
åħ¶ä»ĸ åĽ½å®¶
èİ± æ¯Ķ
é»ĳ æµ·
æĿĢ éĿĴ
re et
åĽ½æ°ĳ è®®ä¼ļ
äº¤éĢļ å¤§åŃ¦
ç£ Ĳ
æĻĭ èº«
æµ·åĨĽ éĻĨæĪĺéĺŁ
åĨĽäºĭ å§Ķåĳĺä¼ļ
æįķ é£Ł
æĽ¾ç»ı æĺ¯
åĩıå°ĳ äºĨ
å¡« è¡¥
å¾Īå¤§ ç¨ĭåº¦ä¸Ĭ
æ³Ħ éľ²
çĽ¸éĤ» çļĦ
TH E
è·¯å¾· ç»´
éĺ¿å§Ĩæĸ¯çī¹ ä¸¹
D M
S Q
S i
çļĦ ç³»ç»Ł
æĸ¯ è¾¾
ä¸İ åı°æ¹¾
åĪĨ éĻ¢
åħĭ æĭīæĸ¯
åĬ¨ æ¤įçī©
åĮĹ éĿŀ
æīĢ çŁ¥
å±± åŁİ
åİŁ çīĪ
åİŁ è®¡åĪĴ
åĽĽ å¤Ħ
ä¿¡ ä»¶
15 ä¸ĸçºª
å¾Ī å¥½
è¡¨ç¤º èĩªå·±
å¤± æķĪ
é¢Ĩå¯¼ å°ıç»Ħ
å¸® å¿Ļ
ãĤ ¯
æ½® å·ŀ
2007å¹´ äººåı£
é¤Ĳ é¦Ĩ
äºİ198 9å¹´
æĮĤ çīĮ
åĬ³åĬ¨ åħļ
åıĳæĺİ äºĨ
è¾¨ è¯Ĩ
Ph one
ç¾Ł åŁº
åĮĹåį¡ç½Ĺèİ± çº³å·ŀ
1 4å¹´
6 åı·
6 50
v al
ï ¸
çļĦ å¼Ģåıĳ
çļĦ æĶ¿çŃĸ
å¹ ¡
ç» ¶
åľ¨ ä¸ľäº¬
ä¸Ń åŃĲ
äºº å¿ĥ
åĴĮ åľ£
éĺ ±
å¹¶ åıĳ
ç¾İ é¾Ħ
æīĢ çļĦ
ç»ı åĽ½
éŁ ¬
æ¡ ©
éĥ½ æĺ¯åľ¨
èĭ± ç¾İ
å¤Ħ ç½®
æ¢ ³
éª Ħ
å¼Ģå§ĭ å¯¹
ç¬¬ä¸Ģ æľŁ
èĭı æĭī
è½¬ å½ķ
åħī æ»ĳ
å¤´ åıĳ
ä¸»è¦ģ åľ¨
æ±ī è¯ºå¨ģ
èĪª èĪ°
é»Ħ æĺı
èħ ¥
èĴĻ åĵ¥
æī¿ åĬŀ
le ct
ç»ĥ é©¬
éĽĦ é±¼
äºĨä¸Ģ åĲį
ä»¥ä¸ĭ çļĦ
çĤ¸ èį¯
å¥ī çĮ®
æ¯ģ åĿı
åĢĴ éĹŃ
åľ°çĲĥ çļĦ
9æľĪ2 8æĹ¥
æĶ¶å½ķ äºİ
çļĦé¦ĸ å¸Ń
æµħ äºķ
è´ŀ è§Ĥ
æĬĹè®® æ´»åĬ¨
å¥ĳ ä¸¹
Pro du
åħ«è¾¾ éĢļ
1 3å¹´
R ad
æĺ ķ
æĺ¯ æ³ķåĽ½
ä¸İ é¦Ļæ¸¯
å¼Ģ åħ³
æµ· åķ¸
ä¸ī åĪĨ
ä¹Ł è¢«ç§°ä¸º
èµĽ åīį
è½¦ ç¥¨
å°Ĩ æĪĲä¸º
å² Ķ
å·¥ äºĭ
æģ º
ä¸¤ åı°
æĢ» é¢Ĩäºĭé¦Ĩ
éĢī å®ļ
æŃ£ å¥½
å±ŀ ä¸ĭ
ç¿ Ł
åķĨ åŃ¦éĻ¢
äºī éľ¸
æĿİ æ°ı
è¾¹ åĮº
ä¸ĥ åįģ
é»ĳ æ£®
çīĮ çħ§
ç²¾ åį«
åĲ¯ èĴĻ
ç»ĦæĪĲ äºĨ
åĤ Ģ
ch n
ä¸Ŀ ç»¸
ç¬¬åĽĽ åŃ£
éŃĶ å¥³
çº² é¢Ĩ
åįĸ ç»Ļ
æ®ĭ éħ·
æ¯ıå¹´ å¹³åĿĩéĻįéĽ¨éĩı
æĳ§æ¯ģ äºĨ
ç¨Ģ å°ĳ
èħĵ åĬĽ
ç«Ļä½įäºİ ä¸Ńåįİäººæ°ĳåħ±åĴĮåĽ½
é¥¥ èįĴ
èĲ¨å°Ķçĵ¦ å¤ļ
é¦Ļæ¸¯æĹ¶éĹ´ éĢ¢æĺŁæľŁ
H ol
çļĦ çĻ½
åľ¨ æŁĲäºĽ
æĺ¯ éĿŀ
åĴĮ åįİ
ä¸Ĭ ä¹¦
ä¿ ¾
èĥ ±
å®¶ åĽŃ
æĿ¥ è¿Ľè¡Į
å¤ļ åįĬ
èİ ½
æīĢ éķ¿
çŃī åĪ°
å¤ĸ åį¡
ç§ĳ ç´¢
10 æĹ¶
éĥ½ åŁİ
éĩĳ æŃ£
åİĨ å±Ĭ
å§ĭ ç¥ĸ
åĽ¢ åĳĺ
æłĩ æ³¨
å¤§åŃ¦ åŃ¦ä¹ł
åı¯ä»¥ ä»İ
å¼ķ çĪĨ
åĦ ¡
åĮ» ç§ĳ
éĻĪ æ°´æīģ
ç¤¾ä¼ļ ç§ĳåŃ¦éĻ¢
éŁ³ä¹Ĳ çļĦ
éĤ¦ çļĦ
çĶŁæ´» äºİ
è½® å»ĵ
èĬĤçĽ® çļĦ
éĢģ åĽŀ
å¾ĹåĪ° çļĦ
190 7å¹´
å¸ĮèħĬ è¯Ń
çļĦä¸» åĬĽ
åŃ¦æľ¯ çķĮ
æıŃ åıĳ
ä¸īè§Ĵ æ´²
æĳĦå½± å¸Ī
Ste am
å¥¥åı¤ æĸ¯
éĦĤåĽ¾æĽ¼ å¸ĿåĽ½
æĽ²æ£į çĲĥ
å ¶
åľ¨ å°ı
ä¸Ń å°ī
åĴ İ
20 5
ä¸İ ç»ıæµİ
åĮº åıĬ
æĶ¿ åı¸
æ°ĳ å±ħ
èĩ³ åħĥ
è¯¥ ä¹¦
è·¯ ç«Ļ
è®¾ ä¸º
æıĲ èµ·
å¨ ĩ
å¤Ħ å¤Ħ
æ´» å¡ŀ
éĿ¢ç§¯ çº¦ä¸º
æ´¾ åĩºçļĦ
æ²¡æľī è¢«
en a
æ±ī å¯Ĩ
èĭ±åĽ½ ä¼¦æķ¦
æ³° åĿ¦
é¢Ħ æĬ¥
èĹı äºİ
ç¯ ¡
åªĴ ä»ĭ
éŁ¦ æģ©
ãĥ ª
æĸ°éĹ» åıĳå¸ĥ
um p
è¡Ĺéģĵ åĬŀäºĭå¤Ħ
éģ£ ä½¿
éĺĶ åı¶
å¢ĥåĨħåħ±æľī åĲĦç±»
æİł å¤º
å±¡ æ¬¡
A ward
R T
S ur
m ac
çļĦ äºĭæĥħ
æĺ¯ èĩª
æĺ¯ æł¹æį®
æĺ¯ ä¸ĸçķĮä¸Ĭ
æĸ¹ ä½į
è° ¤
å¸ĥ éĩĮäºļ
åħ¨ å®¶
éĤ º
æ¯Ķ åħĭ
éĺ¿ æĸ¹ç´¢
åħĥ çĴĭ
äº§ æĿĥ
ä¹Ĳ ç«ł
äºĶ ä½į
å¼Ģå§ĭ çļĦ
åı¯ä»¥ å°Ĩ
åĳ¨ æ°¸åº·
è®© å¥¹
éĿ© æĸ°
å¾ģ è®¨
çľĭ å®Ī
ä»ĸçļĦ åĦ¿åŃĲ
am b
åħ¨åĽ½ æĶ¿åįı
åľ°æĸ¹ çļĦ
åĨłåĨĽ èµĽ
ç«¯ çĤ¹
æ¬¾ é¡¹
ç«¥ åĨĽ
èĪªç©º éĺŁ
æĽ¾ç»ı åľ¨
æĬķèµĦ èĢħ
2005å¹´ äººåı£
å¡ĳ èĥ¶
äºİ194 5å¹´
èĥİ åĦ¿
é¦ĸå¸Ń æī§è¡Į
å¹¸åŃĺ èĢħ
å®ĩèĪª åĳĺ
åĤĢ åĦ¡
6 åı·çº¿
B oy
n ot
r ing
åľ° å±Ĥ
æ² ®
åħ¬ è®¤
èĢĮ æĹłæ³ķ
å¤ļ æľī
åįĹ è¶Ĭ
åŃĲ å®«
éĿ¢ 1
è¯¥ å¤Ħ
ç½Ĺ ç´ł
èģĶ åĲĮ
åİ¿ ç«ĭ
åİ¿ å§Ķ
æĽ¾ åıĤä¸İ
åŀĭ æľºè½¦
æĽ´ åħ·
ä¼Ĭ åĬª
æ¸ħ åĪĿ
è´¨ åŃĲ
è¾¹ éĺ²
åĲī å®ī
æŀģ åħ·
å¯Ł è§ī
å±Ĭ ä¸Ńå¤®
æĥ³ è±¡
13 00
èīºæľ¯ åŃ¦éĻ¢
è°· åı·
æķ£ éªĳ
æ¿Ģ åĬ±
IN E
å¤§çº¦ åľ¨
æĥĬ æĤļ
è§Ĥæµĭ åĪ°
æ±ª ç²¾åį«
ber g
çĭŃ ä¹ī
ire ct
éĶħ çĤī
8 åı·
I U
N T
è ĺ
åľ¨ ä¸ĸçķĮ
ä¼ ¶
ä¸Ģ å¤§
å¤§ åħ´
åħ¬ ä½¿
ä¹ĭ çİĭ
æ± ²
ä¸ĭ å±Ĥ
éķ¿ éĩİ
ä¸ī éĿ¢
å¤ĸ è¯Ń
ç§ĳ ä¸¾
ä½įäºİ æĹ¥æľ¬
er g
æ´» ä½Ľ
è§Ĵ çļĦ
æĶ¾ åħ¥
æ³¢ ç¾İæĭī
åħī çĶµ
éĻ¤ éĿŀ
çĵ¦ æĸ¯
æĬķ æİ·
é»ĳ çĻ½
çº¢ ç£¡
æ·± çļĦ
è´¥ äºİ
åı³ æīĭ
æĸŃ ç»Ŀ
åĶ® ä»·
é³ ħ
åį´ è¢«
éľĢè¦ģ çļĦ
é¡º å¤©
æľ« æĹ¥
å¾Ĳ å·ŀ
éĴ¢ çŃĭ
è±ª æĸ¯
çļĦçī¹ æĢ§
em p
èħ¾ åł¡
å·²çŁ¥ çļĦ
ç½Ĺå¤« æĸ¯åħĭ
æķĻç§ĳ ä¹¦
é¢Ĩè¡Ķ ä¸»æ¼Ķ
åĲ¸è¡Ģ é¬¼
æŀĹéĥĳ æľĪå¨¥
åĲīæĢĿ æ±Ĺ
å°ĸæ²Ļ åĴĢ
M B
O ff
çļĦ åĽ½
åľ¨ 2021å¹´
å¤§ åłĤ
åĴĮ ä¸ĢäºĽ
æĹ¶ å°±
å®¶ åħ·
æ³ķ åĪ¶
åı¯ ä½¿çĶ¨
ä»£ ä¹ĭ
é«ĺ åı¥ä¸½
åĨħ åŃĺ
åĨħ ä¾§
éĵ ²
å®ī åĵ¥æĭī
æł¼ åĪ©
éĩĳ å¸ģ
é¦ĸ æ¼Ķ
æµģ å¤±
éĿŀ çī©è´¨
ä¼Ĭ æĸ¯åĿ¦
çŁ³ å®¶åºĦ
å¤į æĹ¦
å¡Ķ çī¹
ç¬¬äºĮ ä»»
é±¼ çĽ®
æ½ ¼
ç´¢ èı²
èı² æĸ¯
ãĢĭ( ).
åŃĻ æĿ¨
æłĩåĩĨ åĮĸ
çİī çİ¯
åģı åĲĳ
Ch ar
æĶ¾å¼ĥ äºĨ
èĢĮæĪĲ çļĦ
av a
åĵ¥ä¼¦æ¯Ķäºļ å¤§åŃ¦
èĻ¹ æ¡¥
æīĵçł´ äºĨ
æ¶µçĽĸ äºĨ
å¿ĹæĦ¿ åĨĽ
iel d
Univers ity
d o
çļĦ æķĻèĤ²
æľī è¶ħè¿ĩ
å¯ °
éĻ ĭ
ä¼ļ ä½¿
åŃ¦ å¹´åº¦
åħ¶ åŃĲ
ä¸ĭ è¾¾
å¾· åľ¨
å¾· éĽ·
äºĭ åħĪ
çŃī åľ°çļĦ
è¯¥ èĪ°
å®ī æģ¯
åĪĹ ä¸¾
ç¾İåĽ½ ç©ºåĨĽ
å¥³ çļĩ
äº¤ åĩº
æīĭ åĬ¨
æ²³ ä¸Ń
æ²³ æĺ¯
ä¸¾ æĬ¥
æĶ¯ æŁ±
éļı æĦı
æ±ī åĨĽ
å®¹ ç§¯
æİĴ æĸ¥
å¡ŀ åħĭæĸ¯
çĥŃ çļĦ
ä»į ä¸º
æľ¨ åĪ¶
è¿ľ è¿ľ
å¿« è½¦
å¸ķ çī¹
åĩºçīĪ çī©
è¡ĮåĬ¨ çļĦ
è¥¿çıŃçīĻ è¯Ń
ä¾µ åħ¥
æ¨ª åĲĳ
ç©ºéĹ´ çļĦ
æĤ£ èĢħçļĦ
åħ¥ä¾µ ä¹Įåħĭåħ°
å¨ĥ å¨ĥ
è½¬åĲĳ æŀ¶
Ar t
æĸ© é¦ĸ
5 åı·çº¿
B ro
L O
ç§ ĥ
éĻ Ľ
åĪĨ æĭĨ
å¿ Ĵ
èĭ ŀ
åįĹ æĬķ
åĮĹ æľĿ
æīĢ ç½ĹéĹ¨
æĪĺ åīį
è¡¨ è¿°
å² ¬
å¸ĥ å®ľ
å°ı ç±³
éĥ½ å°Ĩ
é¦ĸ åıĳ
éĺ¿ åįľæĿľ
ä¿Ŀ æľī
1å¹´ èĩ³
åıĸ äºĨ
å°Ħ ç®Ń
åİħ æĶ¹è®¾
åĪĩ æį¢
æĪĲåĬŁ åľ°
ou g
8æľĪ 31æĹ¥
è¯ĳ æľ¬
éŁ¦ åħĭ
å·¥ä¸ļ å¤§åŃ¦
éĴ± å¸ģ
èĨ ³
é©¾ å´©
é¡µ éĿ¢
ne w
å¤ĸåĽ½ è¯Ń
æŃ¦æ±ī å¸Ĥ
åºŀ å¤§
æ³¡ æ²«
éĺ´è°ĭ è®º
è¶³åĪ© ä¹ī
7 æĹ¶
8 åĲį
k g
çļĦ éĤ£
çļĦ ç²¾ç¥ŀ
åĲ µ
åľ¨ éĤ£éĩĮ
äºº éĺŁ
äºº è´¨
æĹ¶ å·²
åŁ ¼
çī¹ æľīçļĦ
èİ Ĵ
æīĢ èĩ´
èĩ³ 2
éĩį äºİ
éĥ½ çĶ±
æŃ£ æ¨¡æłĩæľ¬
çº¦ 4
çº¦ 30
å¥³ çĶŁ
æĹł ç¼ĺ
åı¤ æĭī
èĲ¥ æķĳ
åĿĩ ä»¥
è¾ĸ å¢ĥ
åģľ åĪĬ
çľĭ ä¼¼
ç®Ĺ æĺ¯
çªģ åĽ´
èµ° ç§ģ
éº¦ éļĨ
é¡¶ ç«¯
è¿½ éĢĲ
å®¡ æł¸
æ¸¡ è¿ĩ
æĭĽ æłĩ
çıł æ±Ł
æģ¢å¤į äºĨ
æµª æ½®
ç¥Ń åħ¸
æĪªèĩ³ 2024å¹´
å¨ģå»ī å§Ĩæĸ¯
åĦĴ å®¶
ä¾¨ æ°ĳ
äºļå½ĵ æĸ¯
ç»´èİ± è®·
App le
å¨ģæĸ¯ åº·
æĸ°å¢ŀå¢ĥå¤ĸè¾ĵåħ¥æĢ§ æĸ°åĨłèĤºçĤİç¡®è¯ĬçĹħä¾ĭ
S K
Ð º
çļĦ ä¸Ńå¤®
äºº ä»¥
äºº ç§į
è¾ Ĺ
æİ ¸
è¢« çĶ¨æĿ¥
æĮ ł
å¼Ģ äºĨ
è¡¨ æī¬
æ¡ ħ
æł¡ åĿĢ
å®ĺ åĥļ
åı¤ æĸ¯å¡Ķ
ä¼Ĭ èİī
åıª å¾Ĺ
æĶ¶ åĪ°äºĨ
åĪĴ èīĩ
çłĶç©¶ åĴĮ
åº§ çļĦ
çĥŃ çĪ±
è¡ĮæĶ¿ ç®¡çĲĨ
ä¸ģ å¿§
èµĽäºĭ çļĦ
åĿļ åĽº
åĪĨä¸º ä¸¤
åĪĨéĴŁ åĨħ
å¤§çº¦ æľī
è¯ģæĺİ äºĨ
ul l
æĸĳ çĤ¹
æŁĶ éģĵ
çī¹åĮº æĶ¿åºľ
U p
c ur
v o
çļĦ è§ĤçĤ¹
åľ¨ 2000å¹´
ç¬¬ 27
éĢļ é£İ
åĲĳ è¥¿åĮĹ
æĹł æľº
éĶ Ĥ
å¹¿ ä¸º
å¹¿ åŁŁ
æĺŁ åħī
åī§ çĥĪ
ç¬¬ä¸Ģ ä¹¦è®°
çĵ¦ éĩĮ
èĲ¨ å°Ķçī¹
ç³»ç»Ł åĴĮ
éĺ² æ²»
æĦŁ çŁ¥
èŃ¦ æĪĴ
åĨł åĲį
å·Ŀ æĻ®
åĵ¥ å°Ķ
éĻĦ æľī
çļ® äºļ
ä¼ļè®® çļĦ
è¿Ļä¸ª åĲįåŃĹ
ä¸ĵè¾ĳ æ¦ľ
è¯ĳ åĲį
ç«ŀ éĢĲ
ä¼ĳ æĸ¯
é¸Ł çļĦ
çİ¯å¢ĥ ä¿ĿæĬ¤
å¤ĸäº¤ åħ³ç³»
åĢĴ æķ°
å¹¼ èĻ«
åĪĨéĴŁ çļĦ
åĭĩ æ°Ķ
éĽĨä¸Ń äºİ
çĮİ äºº
ie w
ä»ĩ æģ¨
å©Ĩ ç½Ĺ
åłª èĲ¨æĸ¯å·ŀ
åĪ¶çīĩ åİĤ
èµĮ åįļ
æŃ¼ çģŃ
æ²¦ éĻ·
äºļåĪ©æ¡ĳ éĤ£å·ŀ
2 çļĦ
m s
t d
çĶ ¥
ä¸Ģ çıŃ
ä¸Ģ ä¾§
è¯ ħ
ä¸Ń è¥¿
ä¸Ń ç¾İ
æĹ¶ éļĶ
ä¸Ĭ çº§
ä¸į åĥı
åĨĽ èĲ¥
ä¸ĭ æ»ĳ
å¸Ĥ ç«ĭ
éķ¿ èĢħ
æĸ° å¸Ĥéķĩ
å¾· åİ¿
åĮĹ ç«Ļ
çĶµ ç¼Ĩ
ä¹Ł éļıä¹ĭ
å±± åºĦ
åĬĽ å£«
éĩĳ æĹ¥æĪĲ
éĺ¿ çº³
åĽĽ åĪĨä¹ĭä¸Ģ
ä½įäºİ ä¸Ńåįİäººæ°ĳåħ±åĴĮåĽ½
éĽĨ èµĦ
ç¤¾ åĮºçļĦ
ç©º éļ¾
åı¤ åŁĥåıĬ
å°ĳ äºİ
äººæ°ĳ æ£Ģå¯ŁéĻ¢
å¤į åİŁ
åįĩ æł¼
èĲ½ çļĦ
çĹħ æĥħ
æĪĲç«ĭ äºİ
æ´ĭ è¡Į
æī¿ å»º
ç¬¬ä¸ī å±Ĭ
ä¸Ńåįİäººæ°ĳåħ±åĴĮåĽ½ æĪĲç«ĭ
æĳĦ æ°ı
æ¿ ł
èģĶèµĽ çļĦ
åĸľ é©¬æĭīéĽħ
è§ī éĨĴ
æ¯ģ äºİ
èĦī åĨ²
èĽĭ ç³ķ
é¼ĵ æ¥¼
å¤©ä¸»æķĻ ä¼ļ
é½¿ è½®
çº¬ åº¦
æĦıä¹ī çļĦ
çļĦé¦ĸ ä¸ª
å¼¥ è¡¥
æŃ¥åħµ å¸Ī
é¢ģå¥ĸ ç¤¼
çĦļ çĥ§
è¯Ī éªĹ
è¿Ħä»Ĭ ä¸ºæŃ¢
åĽ½ç«ĭåı°æ¹¾ å¤§åŃ¦
èĭıé»İ ä¸ĸ
7 000
E M
G DP
d el
çļĦ å¥½
çļĦ çĶµåŃĲ
åľ¨ é©¬
åľ¨ æ¸¸æĪı
ä¸Ģ ç¯ĩ
åĽ½ å¤§
åĴ ¤
åĴĮ æĿİ
åĪ° åıĳ
åĮĹ å¤§
åĮĹ éĹ¨
åīį æīĢ
åĨħ å¿ĥ
å°Ĩ ä¹ĭ
å°ı éĺŁ
ç§ĳ ç»Ļäºĭ
éĺ¿ ç¾İ
çº³ åħĭ
åıĸ ç¼Ķ
ç¥ŀ æĺİ
çŁ³ çļĦ
åįı çº¦
ä¿® å¥³
æĶ» çł´
åıĳå±ķ ä¸º
ç§» äº¤ç»Ļ
æīį æľī
æ¡¥ å¤´
us h
æľīéĻĲ è´£ä»»
ç»Łä¸Ģ çļĦ
æµ® éĽķ
éĩĮæĸ¯ æľ¬
æķĻåĮº ä¸»æķĻ
ç¨į å¾®
ä¸Ģçº§ æĸ¹ç¨ĭå¼ı
åĿŁ å¢ĵ
éķ¶ åµĮ
æī¹å¤į åĲĮæĦı
éĳ «
å¸ĥå®ľ è¯ºæĸ¯
D D
åľ¨ ä¸įåĲĮ
è¯ ĥ
å¤§ æ¦Ĥ
éĻ Į
ä¼ļ æĺ¯
åħ¬ é¦Ĩ
ä¸ľ ç«Ļ
å¦ Ĭ
æľº ä¸Ĭ
é©¬ æľ¯
å°ı å¿ĥ
ç½Ĺ å°Ķ
éĩį åĽŀ
èµ· å¼Ģå§ĭ
éĺ¿ çĻ»
è¯Ń æĶ¯
å¤Ħ å¤Ħéķ¿
æµģ ä½ĵ
å¹³æĸ¹ åĳİ
åħµ åĻ¨
å®£ æī¬
æĸ½ çĵ¦
çıŃ çº§
çĻ» è¾ī
13 ä¸ĸçºª
éļĨ å¤´
åĩ¯ å°Ķ
åģı è§ģ
éĩĮäºļ çº³
æĿ°åħĭ æ£®
ä¸ĳ ç§ĳä¼ļè¯ķ
éģ¥ æİ§
çĶŁåŃĺ äºİ
éĺ¿æĭīæĸ¯ åĬł
æ°ĳä¸»è¿ĽæŃ¥ åħļ
å¸ĥå®ľè¯ºæĸ¯ èī¾
C an
C ent
H S
a ir
çļĦ è°ĥæŁ¥
çļĦ åı¦ä¸Ģ
ä¸º æŃ£
åĴĮ æ³ķåĽ½
ä¼ļ çĶ¨
è¢« æīĵ
å¼Ģ çļĩ
åīį åĪĹ
ä¸ľ å¾ģ
ä¸ī å¤©
ä¹Ł è®¸
éģĵ æł¼æĭīæĸ¯
æĢ§ äº¤
çĲĥ èıĮ
æĢ» éĿ¢ç§¯ä¸º
ä¸ŃåĽ½ é©»
å°¼ å¯Ł
å°¼ æĺĤ
èį Ģ
éľ Ħ
åĩ» æ¯Ļ
å¼ł åĽ½
ä¼Ĭ æ¯ĶåĪ©äºļ
åķĨ éĵº
æŃ¦ å®Ĺ
å¼ķ æ¸¡
ä¼¯ åĭĴ
åįĩ çıŃ
åįļ æł¼
å¼¹ ç°§
åħ¸ èĮĥ
it s
èĵ Ł
èĩªçĶ± æ³³
å°¾ éĥ¨
å¾® çĶŁçī©
åĲ¬ ä»İ
åĲ¬ éĹ»
æģ¶ æĦı
çŁ¿ äº§
ä¹Ļ éħ¸
æµ¦ æ±Ł
ä»Ļ å¥´
ä¹ĥ æľ¨
æħĪ ä¾į
è¡Ķ æİ¥
æĹħå®¢ åĪĹè½¦
å¹¼ç¨ļ åĽŃ
å·ħ å³°
èİ±æ¯Ķ éĶ¡
B I
F il
n ow
v an
çļĦ æ¬§æ´²
çļĦ æĿĥåĬĽ
åľ¨ ä»Ĭ
æĹ¥ çħ§
çİ ®
çĶŁ åľ¨
ç¬¬ æĪİ
çī¹ æĸ¯
æĸ° æ¸¯
æĸĩ æ£®
æĸĩ å°¼äºļ
ç¾İ åŃ¦
å·¥ å§Ķ
å¸ĥ æĭīæĸ¯
ç±³ å¾·
çĽ¸ ä½į
åįİ å°Ķ
ç»´ èĮ¨
åį¡ èĲ¨
å¸¦ èµ°
å¡Ķ éĩĮ
åį« æĸ¯
åĲī ä¼¦çī¹
åĵ¥ ç½Ĺå¾·
æī¿ åĮħ
éĻĦ è®¾
éº¦ èĤ¯
ä»Ģ åı¶
åĬ³ ä¼¦æĸ¯
äºĮåįģ ä¸ī
4æľĪ 30æĹ¥
om as
è°Ī è®º
æŁı æĭīåĽ¾
äºļæ´² æĿ¯
å¤ĸäº¤ æĶ¿çŃĸ
éº» çĥ¦
æ¯įäº² çļĦ
åĸĢ ä»Ģ
åľ°åĽ¾ ä¸Ĭ
åįĩçº§ ä¸º
æĸ¯æ´Ľ æĸĩå°¼äºļ
åĵĪéĩĮ åıĳ
åĪ©å¥¥ æ³¢å¾·
è¯ºæĽ¼åºķ å¤§åĮº
å®¾å¤ķæ³ķ å°¼äºļå·ŀ
0 åĩ»è´¥
3 30
H igh
X X
s he
åľ¨ ç¬¬äºĮæ¬¡ä¸ĸçķĮå¤§æĪĺ
ä¸Ģ æĹ¶
ä¸Ń æĭħä»»
æ² ¸
ä¸İ æ³ķåĽ½
ä¸į ä¿Ĺ
ä¸į ä¸Ģå®ļ
ä¸į åłª
åĲį å°Ĩ
çĶ± æĿ¥
æµ· çļĦ
è¿Ľ åĪ¶
è¿ĩ åĲİ
æľŁ ä¸º
åı£ å¤´
å±± å½¢
æķ° ä»¥
çł ¸
æ¼ ķ
ä¸ŃåĽ½ éĵģè·¯
è¾¾ æĸ¯
èĭ± æ³ķ
éĩĳ æĺŁ
è®® ä¼ļè®®
æīĭ èĩĤ
èº« æĿĲ
7å¹´ èĩ³
åıĺ åĬ¨
å¥¹ æĺ¯
çĿ ¢
èĭı æ¢ħ
é¦Ļæ¸¯ çī¹åĪ«è¡ĮæĶ¿åĮº
ç¦» æķ£
æ´¾ åĳĺ
è¶ħ åĩº
æİĴ æ°´
åı¯èĥ½ ä¸İ
å§Ķåĳĺä¼ļ ä¸»ä»»
èĴĻ å¤§
çļ® è´¨
re g
éĩĬ è¿¦
äºĮåįģ ä¹Ŀ
å°¤ ä¸º
äººç±» åŃ¦
äºĭåĬ¡ çĶ±åħ¶
æĺĤ è´µ
éº» éĨī
èµı è¯Ĩ
ä¾į åį«
å¤§éĥ¨åĪĨ çļĦ
188 9å¹´
äºİ198 8å¹´
èµĦäº§ éĺ¶çº§
çļĦåĲİ è£Ķ
æĸ¯æīĺ åħĭ
èĢĲ åħĭ
çĥĤ çķªèĮĦ
åĨľæĿĳå±ħæ°ĳ çĤ¹
æĻ®æľĹ åħĭ
P o
a ut
Î ¼
ç ¸
çļĦ èĬĤçĽ®
è¯ °
è® ¶
åľ° ä¸º
æĸ¯ æĹº
æĸ¯ å·´è¾¾
åĮº åĨħçļĦ
åħ¬ ä¿¡
å¹¶ ä»¥
åĲĮ è¡Į
æĿ¥ çº³å·ŀ
èĩª æ°ĳåħļ
å¼Ģ æĭį
åīį ä¸¤
åı° å±±
å¸ĥ æ´Ľ
é©¬ æĸ¯
çĲĥ çļĦ
åħ³ æĢĢ
åıĤ èµŀ
åı² è¿¹
æĹł ç½ª
åĪĻ ä¸İ
åĵģ çļĦ
åħ¬åı¸ åĴĮ
on s
æĿ¡ æĸĩ
äº² æĪļ
é¦Ĩ èĹı
ç»§ æ¯į
çĹħ çļĦ
at es
å²ģ ä»¥ä¸Ĭ
ä½Ľ åĥı
åĢŁ åĬ©
éĥ½æĺ¯ çĶ±
å¥ī è¡Į
è¯¾ é¢ĺ
è®¢ éĺħ
å¤§ä¼ļ åłĤ
å®ļä¹ī çļĦ
éĻ· éĺ±
åİŁæľ¬ æĺ¯
èĲ§ æĿ¡
çĥŁ èįī
æ°ĳä¼Ĺ åħļ
æĲ¬ è¿ģèĩ³
æ¬² æľĽ
åįģåŃĹ æŀ¶
èī° éļ¾
çĽ´è¾ĸ å¸Ĥ
èĬŃèķ¾ èĪŀ
2 äºº
G T
çļĦ æĿİ
åľ¨ éĩİ
äºº éĹ´
æŃ Ļ
æĹ¥ é£Ł
åŁ Ĺ
åħ¬ åŃĻ
èĭ Ľ
éķ¿ ä¹ħ
å¤ļ å¾·
å¼Ģ åŀ¦
èµĽ åĴĮ
è¯¥ å°ıè¡ĮæĺŁ
é©¬ ä»Ģ
200 4
å¼ı å»ºçŃĳ
å®ī æıĲ
äººåı£ åıĺåĮĸ
å®ŀ æĹ¶
äºĽ æĹ¶åĢĻ
ç¤¾ çļĦ
æĬ¥ ç«ł
åĽ¾ çļĦ
åĻ¨ æĿĲ
çĵ¦ ä¼¦
åĬŁ èĩ£
çĶµå½± åĴĮ
è¯ķ éķľ
èīº åĳĺ
çĻ¾ å¤§
ä½ı æ°ĳæĹı
14 ä¸ĸçºª
èĴĻ å½¼
ç´¢ é©¬éĩĮ
æĪ· ç±į
ä½Ļ äºº
ä½Ľ éĻĢ
æ°¸ åĴĮ
ä¸¹ ä½Ľ
èĩªçĶ± çļĦ
7æľĪ 20æĹ¥
éľį æģ©
èĶ Ĺ
è¿ĺæľī ä¸Ģä¸ª
ä¼ģä¸ļ çļĦ
æī§è¡Į å§Ķåĳĺä¼ļ
ãĢĪ ãĢī
äº§åĵģ çļĦ
èļ Ĭ
åľ°ä¸ĭ éĵģ
åľ°çĲĥ ä¸Ĭ
çŃĶ æ¡Ī
äºİ198 2å¹´
äºİ197 9å¹´
çĺ «çĹ
åĭĥ åħ°
ä¸Ńåħ±ä¸Ńå¤® æĢ»ä¹¦è®°
æľ¬èº« çļĦ
åĬĿ è¯´
æ³ķåħ°è¥¿ å²Ľ
ç¨» çĶ°
æĺİæĺŁ èµĽ
çŁ® æĺŁ
åĬłæĸ¯ åĬł
Med ia
tain ment
å¥¥åĮĪ å¸ĿåĽ½
çĺ«çĹ ª
çļĦ çİ°è±¡
è¯ «
æĭ ¢
åĲİ æŀľ
æ² Ĳ
è¢« åĬ¨
æ°´ æ±ł
åĶ ĳ
çĤ¹ çĩĥ
ä¼Ĭ æ³½å°Ķ
è£ħ è½½
èĲ¥ éĶĢ
èĪ° ä¸Ĭ
æŀģ åĬĽ
æ¯ĶèµĽ å¼Ģå§ĭ
æī¿ è¢Ń
å®« å´İ
çİĽ èİī
çĶ·åŃĲ ç¯®çĲĥ
å·¥ä¸ļ éĥ¨
å°ĨåĨĽ è¡Ķ
åĪ¶åº¦ çļĦ
è¿ĲèĲ¥ åķĨ
æħ¢ æĢ§
æ°§åĮĸ çī©
å¼ĹæľĹ ç´¢çĵ¦
æĤ² ä¼¤
æĭĸ å»¶
ber t
èĥĮé³į ç¡¬æ£ĺ
å¼¹éģĵ å¯¼å¼¹
æĸ¯å¾· åĵ¥å°Ķ
æĲģ ç½®
èĬľ æ¹ĸ
æĸ¯å¾·åĵ¥å°Ķ æĳ©
D F
M in
v a
åľ¨ åĬłæĭ¿å¤§
åĲİ ä¼ļ
åľ° æĿ¿
ä¸į è¿ľ
æ´ Ĵ
è¥¿ å±±
é¢ ¤
è¢« åĽ½éĻħ
åĨħ æł¸
çº¿ æĿ¡
å®ī åºĨ
èģĶ æĺŁ
çĽ¸ å·®
åŁİ ä¹¡
æŃ£ éĢī
æ¸¯ çļĦ
ä¹Ĳ éĺŁçļĦ
ä¿Ŀ ç¦Ħ
å·² çģŃç»Ŀ
çĿ Ĳ
ç¼ĸ å¹´
ç¼ĸ æİĴ
æ°Ķ æµģ
æŃĮ åī§éĻ¢
è§Ĥ çļĦ
åħ¶ä»ĸ åľ°åĮº
æ±ī æĸĩ
éĺ³ æĺİ
åĽ´ å¢Ļ
éĿĴ çĿĲ
éħį å¯¹
ç»Ħç»ĩ åĴĮ
æ¢ħ åħĭä¼¦
çŃĸ éªĳ
é¡¶ å³°
äº¤éĢļ è¿Ĳè¾ĵ
æµ·åĨĽ çļĦ
èľ ¿
æŀļ éĩĳçīĮ
æ¯« ä¸į
è¾Ľ æĻ®æ£®
åħĭéĩĮ åħĭ
åįļå£« çĶŁ
æĹħæ¸¸ ä¸ļ
æıĲåįĩ èĩ³
éĥĬ éĩİ
çĲĨäºĭ éķ¿
å½¢å®¹ è¯į
å¼Ģå¹ķ å¼ı
å¢ĥåĨħåħ±æľī 1
æĹ¥å¸¸ çĶŁæ´»
é©»æīİ åľ¨
Enter tainment
åĬłæĿ¥ æµ·å³¡
èĴĻå½¼ åĪ©åŁĥ
K BS
U I
i j
ä½ ¬
åľ¨ 2004å¹´
åľ¨ 2003å¹´
åĽ½ åºĨ
ä¹ĭ äºĭ
çĶ¨ æ³ķ
åıĬ å¤§
å¼Ģ åľº
å¾· é²ģ
æµ· äºĭ
ä¹Ł ä¸º
æľº ç¿¼
åħ± æĮ¯
æĢ§ åıĸåĲĳ
å±± åįĹ
ä¸¤ åĪ¶
æĢ» ä¸»æķĻ
åİŁ çĶŁ
è¾¾ åĪ©çī¹
æ°´ ä½į
å¸¸ è®¾
ç»ĵ ä¸º
ä¹¦ ä¿¡
ç¬¬ä¸Ģ æĿ¡
é¾Ļ åį·
åŃ£ çļĦ
ç¬¬äºĮ éĺ¶æ®µ
é²ģ çī¹
æ°ı ä¸º
åĪĩ éĻ¤
ä¸¥ è°¨
åĨłåĨĽ çļĦ
10æľĪ èĩ³
ç»ĵæĿŁ æĹ¶
çļĦäºº æķ°
éľ² èĲ¥
å±ħä½ı çļĦ
åħĥç´ł çļĦ
è¶ħçº§ èĭ±éĽĦ
éĺ¿æĭīä¼¯ è¯Ń
æĢ§è´¨ çļĦ
æĥħæĬ¥ å±Ģ
èĬĴ ä»Ģ
æºĲèĩª äºİ
ä¾Ŀèµĸ äºİ
æĲŀ ç¬ĳ
é¢ĦåĳĬ çīĩ
5 0å¹´ä»£
A BC
B ig
h er
åľ¨ ä¿Ħç½Ĺæĸ¯
åĲİ çĶ±
åĩº äº§
æ°ĳ éĢī
åĲĮ ä¼´
å¤ļ å§Ĩ
èĩª åį«éĺŁ
æĸ° ä¸ĸ
èİ ĵ
ç¾İ å¥ĸ
èĩ³ 9æľĪ
åľº éĿ¢
å±± ç«Ļ
å·ŀ åĮº
éĩį åĪ¶
è¾¾ å§Ĩ
èµ· åĪ°
æ°´ åĴĮ
å½± éĽĨ
è¯Ń ä¹ī
åį¡ å¤«åį¡
ä¼Ĭ è¾¾
èĭı çĽĬ
æ³¢ çļĦ
è¿ŀ èĥľ
åİ» å¹´
æļ ®
æİ¨ çī¹
ç¬¬äºĮ ä½į
æĬķ éĿł
åĩĨ è®¸
è¯º ç»´å¥ĩ
æİĪ è¯¾
çľĭ åĩº
åıĭ äºº
åĪ» æľī
èĸ °
æ¤įçī© çļĦ
èĴĻåı¤ åĽ½
ub lic
Ch rist
æĺŁæľŁ æĹ¥
ä¸Ńåħ±ä¸Ńå¤® æĶ¿æ²»å±Ģ
åĲīå°Ķ åĲīæĸ¯
éĿĴå²Ľ å¸Ĥ
éĻ¤æŃ¤ ä¹ĭå¤ĸ
æĤł ä¹ħçļĦ
YouTube é¢ĳéģĵ
æĺı è¿·
çĪ¸ çĪ¸
ç¡Ŀ éħ¸
çļĩå¤ª æŀģ
æĸ°æ³½è¥¿ å·ŀ
å¡ŀæµ¦è·¯ æĸ¯
2 æ¬¡
2 æľĪ1æĹ¥
7 åĲį
g r
äº µ
æľī ä¸įåĲĮçļĦ
æľĪ äº®
äºĨ å¥¹
è¡Į åĨĽ
ä»ĸ åıĪ
æĽ ľ
ãĢĬ ãĢĭ(
æ³ķ ä¾ĭ
åĨĽ æ°ĳ
è¢« æİ§
é«ĺ èĢĥ
æĪĺ æŃ»
æĭī å¤«
å¸ĥ åį¢
å°ı åŃ¦æł¡
çº¿ åľ¨
éĩı ä¸º
ä¹ī åĭĩ
åį¡ éĩĮ
æĶ¿åºľ åĴĮ
åıĸ èĥľ
å¤ª åĴĮ
å¤ª ä»Ĩ
ç¥ŀ èģĮäººåĳĺ
èĭı åĮº
è½¬ èĩ³
è½¬ æĪĺ
æŃĮ å£°
åħĪ å¤©
åİĨåı² æĸĩåĮĸ
åĵĪ æģ©
èĲ¨ éĩĮ
å¢ŀ å»º
is m
åĲİæĿ¥ åľ¨
åħ¨åĽ½ æĢ§
æĿ° æĺİ
éľĢè¦ģ åľ¨
æŀª æĶ¯
æ²ĥ æĸ¯
10æľĪ 10æĹ¥
åįģäºĮ çłģ
åĨĽéĺŁ åľ¨
ä¹Ļ çº§èģĶèµĽ
é©¶ åħ¥
æĸ¯ç§ĳ çī¹
æĬĺ å°Ħ
ç¨³å®ļ æĢ§
ä¸² æµģ
ç¡« åĮĸ
å·« æľ¯
èıĬ èĬ±
åıĳæĮ¥ äºĨ
è°¢å°Ķ çĽĸ
åĢ¼å¾Ĺ ä¸ĢæıĲ
è´¿ èµĤ
æĪĮ ç§ĳä¼ļè¯ķ
çīĽæ´¥ å¤§åŃ¦
æµıè§Ī åĻ¨
å·´æ¯Ķ ä¼¦
ä¼¦å·´ ç¬¬
5 æĹ¶
L if
O K
T ype
çļĦ æĸ¹åĲĳ
æĹ ·
å¸ Ľ
ä¸Ń ç¾İæ´²
åĴĮ æ¬§æ´²
æ³ ·
ä¼ļ è®©
ä¸Ĭ èİ±èĮµ
åĩº å®¶
éģ ı
æ³ķ ç½Ĺ
è¯¥ éģĵè·¯
æį Ĩ
é©¬ åħŃçĶ²
å±± æľ¬
éĩį çĶŁ
çİĭ å®¶
è¯Ń æĸĩ
æĶ¹ ä»¥
å®ŀ åľ°
æĴ ¼
æį® ç§°
5å¹´ èĩ³
å¹¿ åıĹ
ä¸ĵ è®¿
ç¦ı æ²»
å®Į å¤ĩ
åĵĪ è¿Ī
å¡Ķ çļĦ
ç»Ļ åĩºäºĨ
åįĥ äºº
åĽ´ åī¿
çĶµè§Ĩ å¹¿æĴŃ
éĻį ä¸º
çľŁ ä¸»
åŃĻ æĸĩ
7æľĪ 7æĹ¥
äºĮåįģ å¹´
å±ĭ éĤ¨
é²ľ æĺİ
æķ¦ çħĮ
åĿļ å®ļ
å¢ĵ ç¢ĳ
ad d
ç¬¬åįģ ä¹Ŀ
éĶ¡ å®ī
è®Ńç»ĥ çıŃ
ra ph
ç§Ł éĩĳ
æ¶ħ å¤«åĭĴ
è¯Ĭ æīĢ
åįĹåĮĹ åĲĳ
æĸ¯èĴĤ èĬ¬
æĶ¶è´Ń äºĨ
our n
èµŀåĬ© åķĨ
åİ¨ æĪ¿
åįĩéĻį æľº
æķĸ å¾·èĲ¨
å¸ĥè¾¾ ä½©æĸ¯
çĮĽèĻİ ç»Ħç»ĩ
é©¬èĢ¶ è®·
äºĭåĬ¡çĶ±åħ¶ æīĢå±ŀçļĦ
èľ¿ èľ
èĭıçĽĬ æł¼
R ock
çļĦ è¶ħ
çļĦ åĬ¨ä½ľ
çļĦ æĥħå½¢
ä¸Ģ ä»¶
è¡ ¢
æ³ £
åľ° è²Į
ä¸į é¡¾
å¤ļ åħĭ
ä¸ľ åįİ
æīĢ äº§çĶŁçļĦ
èĩ³ 8æľĪ
çĶµ è½¦ç«Ļ
çŃī åĽ½
åı° è¯į
è¯¥ é¡¹çĽ®
å½ĵ ä¸ŃçļĦ
æķĻ çļĩ
èĲ ±
é©¬ èµ«
å£« æŀĹ
ä¹¦ çĶ»
æĮĩ å®ļçļĦ
é¢Ĩ åĨĽ
æ¹¾ åĮº
åĽ½å®¶ åħĥé¦ĸ
æľĿ åĲĳ
æľª æĽ¾
åıª åī©ä¸ĭ
æ¯ı å¹´çļĦ
åħĪ çŁ¥
æķ´ ç¼ĸ
éĤ£ ä¸į
æĽ¼ å½»æĸ¯çī¹
åį´ åľ¨
å©ļ åĲİ
äºĮåįģ ä¸ĥ
éĿ©åĳ½ å§Ķåĳĺä¼ļ
æģĲ åĲĵ
å¤ªéĺ³ ç³»
ç¢³ éħ¸
èĥ¸ é³į
ru ct
åĮ¿ åĲį
é²¶ å½¢çĽ®
ä¸»äºº åħ¬
å¼ĢæĻ® åĭĴ
ä»¥0 æ¯Ķ2
èĦ±æ°§ æł¸ç³ĸæł¸éħ¸
1 éĿ¢1
; ),
i or
çļĦ åĳ½ä»¤
çļĦ åĲįä¹ī
ä¸Ń æł¡
åĴĮ å¤ļ
éĹ ¾
åĮº åĿĹ
è¢« æĮĩæİ§
åįĹ äºļ
åīį æĢ»ç»Ł
ä¹Ł éĥ½
æĭī æĽ¼
è·¯ çĶ±
åľº æ¬¡
ç³ Ļ
ä¸¤ äººçļĦ
å£« æ°Ķ
æıĲ åĪ°äºĨ
å¥³ ä¼ĺ
äººåı£ çº¦
å¯¼ åħ¥
æ²³ è¥¿
æ²³ åľ°åĮº
æ¸¸ è¯´
é¾ Ľ
ç¿ Ĭ
åħµ é©¬
æ²Ļ ä¸ĺ
èŃ¦ åį«éĺŁ
æĸĩåĮĸ éĥ¨
ç®Ģ ç§°ä¸º
ä¾§ æīģ
æĹħ é¡º
å»¶ è¯¯
åĪĩ åī²
æĬĢæľ¯ åŃ¦éĻ¢
å®ĮæĪĲ çļĦ
åĲ¯ å¾·
å¸ķ çī¹éĩĮ
äº¿ æ¸¯åħĥ
çļĦå¤§ è§Ħæ¨¡
é»İ åĬł
éĥ¨éĺŁ åľ¨
åĩºçĶŁ çļĦ
éĿł èĳĹ
èĿ İ
æĸĩåŃ¦ å¥ĸ
éĹŃ å¹ķ
åģı åįĹ
èº«ä»½ è¯ģ
é¼ĵ æīĭ
æĿ¡ä»¶ ä¸ĭ
åįģä¸ĥ å¹´
ç«Ł çĦ¶
æ¿Ĵ ä¸´
æ·ĭ å·´
èĴĻå¤§ æĭ¿
1 7å¹´
L im
R A
R C
çļĦ æ¯Ķ
æľī çĤ¹
æĹ¶ æīį
æĸ¯ æ³°
ä¸İ è¥¿
ä½į å¤Ħ
è· Ĩ
æľĢ ä¸»è¦ģçļĦ
èĩ³ 2021å¹´
æĭī æĸĲ
æĢ» é¢Ĩäºĭ
åİ¿ åĨħ
å½± éŁ³
å·´ å¾·
ç¾İåĽ½ åĽ½ä¼ļ
åı² åīį
å¥³ å·«
æĹł çķı
ä¸ĩ éĩĮ
éĵģ çŁ¿
åį³ ä¾¿
çļĦä¸Ģ æ¬¾
è°ĥ åĪ°
åħŃ åĽĽ
åħ· ä½ĵçļĦ
30 5
åįĬ æķ°
at ive
çķĻ åŃ¦çĶŁ
æł¸ åĩĨ
ç½² éķ¿
åŃĶ éĽĢ
è¿İ æĿ¥
ä¸Ģæł· çļĦ
çļĦä¸» å¼ł
è´Ŀå°Ķ ç¦ı
ä¼Ł å¤§
ç½ĳç«Ļ ä¸Ĭ
èµł éĢģ
è·³ è·ĥ
çīłä»¬ çļĦ
ä½Ľç½Ĺ ä¼¦
å¹½ çģµ
äºĮæ¬¡ å¤§æĪĺ
ä¸Ģèĩ³ äºĶ
å¯¡ å¦ĩ
äºı æįŁ
è¯ħ åĴĴ
åį«æĸ¯ çĲĨ
èľ¿èľ Ĵ
D J
U T
p ar
çļĦ åķĨä¸ļ
åľ¨ ä¸ĢäºĽ
ä¸Ń å¯¹
ä¸Ń å¤ĸ
æĺ¯ å½ĵåľ°
ä¸İ é«ĺ
å®¶ åįıä¼ļ
ä¸ĭ è·Į
åı¯ åı¯
ä¸ī å®¶
äºĮ åħ«
åħ¨ èģĮ
ç½Ĺ çĲ³
èµ· æŃ¥
çº¦ å®ļ
ç»´ å°¼
åį¡ çº³
ç¥ŀ åĥı
çīĩ å¤´
ä¼Ĭ çİĽ
åĪĽ ä¼¤
ä¸ĸçķĮ çºªå½ķ
åıĪ ä»¥
å¨ģ åĪ©
èĲ¨ åĪ©
æ´Ľ ä¼¦
at er
å¼¹ å¤´
æŃ£å¼ı æĪĲä¸º
æĬĬ å®ĥ
å½Ĵ åĽ½
å·²ç»ı æĪĲä¸º
ä¼ĺ èī¯
åĶ® åįĸ
å¢ŀåĬł èĩ³
æľ± åħĥçĴĭ
åľĨ éĶ¥
éª¨ å¤´
çĶ·åŃĲ åįķæīĵ
åºŁ å¢Ł
ri pt
å»ī ä»·
190 2å¹´
è®°å½ķ äºĨ
æĹģ éģ®
è¡¡ éĩı
åĪĽç«ĭ çļĦ
10æľĪ2 5æĹ¥
èģĺ ä¸º
æĸĲ è¿ªåįĹ
å¸½ åŃĲ
ä»Ĩ å°Ħ
æĪĺåĪĹ å·¡æ´ĭèĪ°
é¥± åĴĮ
Vi u
äºļçī¹åħ° å¤§
æ°ĳå»º èģĶ
äººåı£åıĺåĮĸ åĽ¾ç¤º
æĹģéģ® æĻ®
2 æĿ¡
Ø §
çļĦ æľ¬
åľ¨ 19ä¸ĸçºª
ä¸Ń ä¸º
æĪĲ åĲīæĢĿæ±Ĺ
åħ¬ åĲ¨
åĲį èĥľ
çī¹ æķĪ
çī¹ å¿«
ãĢį ).
æĸĩ äºº
ç¾İ äºº
åĪ¶ èį¯
å¤ĸ å¢Ļ
å±± ä¸ĭ
å±± æ°´
æŁ ł
æ¡ ¢
ç»Ħ éķ¿
åĽĽ æĸ¹
æĹł æķ°
åİĨ æĿ¥
å¤§åŃ¦ å£«
å¸¦ çļĦ
åĸ ±
çĻ½ äºĳ
å±ħ çķĻ
å±ħ å§Ķä¼ļ
äº¦ äºİ
ç»Ļ å®ļ
åĬŁ ç»©
çİ¯ æµģ
èŃ ¬
æł¹æį® åľ°
ic an
ä»ĸçļĦ åĲįåŃĹ
éĵģè·¯ çº¿
å´ ģ
çł´ ç¢İ
èĹı åĵģ
å¼Ĥ è®®
çĽ®åīį çļĦ
çŃ¾ åĲį
æĺ¯ä¸Ģ æĿ¡
ãĢĭ, ãĢĬ
å®ĭ ç¾İé¾Ħ
çī¹åĪ« çļĦ
åģĩ éĿ¢
æľīéĻĲ çļĦ
çĸĳ éĹ®
åŃ© åŃĲçļĦ
åŁºæľ¬ çļĦ
em ent
ap an
åĽ½ç«ĭ å¤§åŃ¦
äºİ198 7å¹´
èĹ© ä¸»
æĥĬ è®¶
ç½ĳè·¯ ä¸Ĭ
åĪ¶å®ļ äºĨ
ä¸Ľ æŀĹ
çĮľ æĥ³
çĶµåĬ¨ æľº
çķľ çī§
çŁ³åĭĴ èĭıçĽĬæł¼
ï¸ °
è¯¥å°ıè¡ĮæĺŁ ä»¥
F O
y e
Î ³
çļĦ å¾·åĽ½
åľ¨ æ²¡æľī
åľ¨ 2023å¹´
ä¸Ģ éĹ¨
äºİ åı°æ¹¾
æī ¯
åĴĮ å°ļ
ä¸İ ä¸ľ
è¢« éĢī
åĮĹ çº¬
æľĢ æĸ°çļĦ
ä¸ī åı°
èµĽ ç¨ĭ
å±± ä¸ĺ
æŁ ĳ
èģĶ è½¦
å±ŀ åĲį
éĩĳ çĲĥ
åı² è®°
äº¤ è°Ī
å®ŀ çļĦ
éŁ³ é¢ĳ
æĻ® èİ±
åıĺ ä½ĵ
ä¿¡ å¿ĥ
ä¿¡ å¿µ
äº¬ åŁİ
äººæ°ĳ è§£æĶ¾åĨĽ
åī¯ æĢ»è£ģ
çİ¯ ç¤ģ
åĽ½éĻħ å¥¥å§Ķä¼ļ
17 ä¸ª
è´Ŀ åĪ©
å®« çļĦ
æĹħ éķ¿
å°ļ ä¸įæ¸ħæ¥ļ
äººåĳĺ çļĦ
éĢīä¸¾ äº§çĶŁ
æ²ĥ æĢĿ
5æľĪ 20æĹ¥
æķĳ åĩº
åĨĽäºĭ è¡ĮåĬ¨
ç¬¬åĽĽ å±Ĭ
è¾Ľ æł¼
éĺ´ éĺ³
åı¸ä»¤ åĳĺ
çļĦçī¹ èī²
äºīè®® çļĦ
ç§¦ åĽ½
ä¸ĭåįĪ 2
6æľĪ2 8æĹ¥
æıĲé«ĺ äºĨ
é²į å°Ķ
éĻĢ ç½Ĺ
éĺ²å¾¡ çİĩ
åħ¬å®ī éĥ¨
åłĨ ç§¯
æŁĵèī² ä½ĵ
éĺī åī²
éĿŀçī©è´¨ æĸĩåĮĸéģĹäº§
M k
P re
R AM
S F
l ight
Ñ Ĥ
å¤§ çİĭ
ä¸Ĭ æĹ¬
ä¸į çŃī
ç¬¬ 30
å¹¶ è¡Į
æ± ŀ
ãĢį ãĢĮ
åīį éĿ¢
å»º å®ī
ä¸ī åĪĨä¹ĭä¸Ģ
å®ī çº³
ä¸¤ é¢Ĺ
çº¦ åľ¨
å°¼ èĮ¨åŁº
æ¶ §
æĹł åı¯
å°± è¦ģ
æĺŁ åĽ¢
æľª ç§ĳä¼ļè¯ķ
è§Ĵ é¾Ļ
æĶ¶ å®¹
é¾Ļ éĹ¨
åĵĪ èµ¤
16 å²ģ
å®¢ åº§
å¯Ł åĲĪ
è¯į è¯Ń
ç²¾ å½©
ä¼ĺ èĥľ
éĺµ åĪĹ
çīĽ å¥¶
è°ĭ åıį
æĺ¾ç¤º åĩº
æ½ľ åħ¥
å¥Ĺ ä»¶
äººä»¬ å¯¹
å±ķå¼Ģ äºĨ
çŀ Ĵ
ç´« èī²
åĩ½æķ° çļĦ
Re cord
ä¸ĩäºº æ¬¡
sp ace
å¸Ĳ æĪ·
æĨ ©
é¢ł è¦Ĩ
å¥¥æĸ¯åį¡ æľĢä½³
æĸ°å¢ŀæľ¬åľŁ æĸ°åĨłèĤºçĤİç¡®è¯ĬçĹħä¾ĭ
åĻª éŁ³
æķħå®« åįļçī©éĻ¢
ç¬¬èģĤä¼¯ ç½Ĺ
D ream
H ot
I X
b all
p art
Î ¿
ãĢ ľ
ä¸Ń æİĴåĲįç¬¬
æľī 1
20 ä¸ĩ
èµ Ī
åĲİ äºº
åŃ¦ çĶ²
ä¸İ ä¿Ħç½Ĺæĸ¯
æľ¬ èĲ¥
æĸĩ åĵ²
äºļ æĸ¯
ä¹Ł ä»İ
åı° è§Ĩ
åĪ¶ å®ļçļĦ
å¤© ä¸»
åıĸ æĿĲ
æ³¢ åıĬ
æĶ¶ çľĭ
ä¸ĸçķĮ ç¾½èģĶ
çłĶç©¶ ä¼ļ
åŁŁ åĲį
æ´¾ åĪ«
å¼º ç¡¬
çĻ½ æ²Ļ
äº² ç¼ĺ
åı¯èĥ½ æĢ§
æ²Ļ æĭī
åłĤ åĮº
èĢģ åŁİ
åº· ä¹Ĳ
è½½ äºº
it a
çĽĳ æĬ¤
åĪ¶ä½ľ åħ¬åı¸
åł¡ çļĦ
åºĨ éķ¿
æ¯Ľ éĩĮ
il y
5æľĪ 31æĹ¥
æķĳ çĶŁ
èį· å°Ķæĸ¯
éª¨ å¹²
ç¬¦ èħ¾åł¡
åģı åĮĹ
å¤ıåŃ£ æ®ĭçĸ¾äººå¥¥æŀĹåĮ¹åħĭè¿ĲåĬ¨ä¼ļ
éļĲ ç§ģ
äºİ194 4å¹´
åĲĮçĽŁ ä¼ļ
IC E
æ³Ħ æ¼ı
èĥļ èĥİ
æĳ©å¤© å¤§æ¥¼
7 æľĪ16æĹ¥
H I
P ower
f irst
i os
Ð »
çļĦ çħ§çīĩ
ä½ ļ
åĲİ åį³
åŃ¦ æľŁ
è´ »
ä¸Ĭ çıŃ
ä¸Ĭ å±Ĭ
åĩº éĿ¢
æ°ĳ è°ĥ
èĩª å¹¼
åįĹ éĺ³
åĮĹ æĿ¡
èĩ³ 10
åĽł ä¸İ
çī© ä½ĵçļĦ
éĢļ è´§
å±± è·¯
èĬ ·
å£« å®ĺ
åħ³ å²Ľ
èĭ± åĲīåĪ©
éĴ µ
åıį æ½ľ
åıį åıĽ
in n
è®º è¯ģ
ä¼Ĭ èĲ¨
åĽ¾ æĭī
æŁ¥ çľĭ
å¼ķ äºº
æ¡Ī åıĳ
åŃĺ æľī
ä»£è¡¨ æĢ§çļĦ
æ±ī ä¸Ń
åĽ´ åĽ°
é²ģ èĥ½
å¸Ĥéķĩ çļĦ
åħ´ çĽĽ
éĿĴ è®Ń
çĶµè§Ĩ é¢ĳéģĵ
åıĮ èĥŀèĥİ
ä½ı æĪ·
é¸ ½
è®© ä»ĸä»¬
å·Ŀ å´İ
æī¿ è½½
le d
å·¥ç¨ĭ åŃ¦éĻ¢
åĺī å®ļ
çİĽ éĽħ
æ£Ģ æł¡
éĢı éķľ
æķĳ åĬ©
ãģ ĭ
æĪĪ å¤«
åı°åĮĹ åİ¿
æŃ»äº¡ äººæķ°
ir d
æģĭ ç«¥
çıį è´µ
åŃŁ ä¹°
èĩªåĬ¨ åĶ®ç¥¨
æĺ¯åĲ¦ æľī
æŁ´ æ¹¾
éģµ ä¹ī
åįģä¹Ŀ ä¸ĸçºª
æĥ¯ ä¾ĭ
èĥ¸ éĥ¨
ç¾½æ¯ĽçĲĥ éĶ¦æłĩèµĽ
çķĻä¸ĭ äºĨ
å¸ĥèİ± æģ©
åĪ¶æĪĲ çļĦ
éĴ¥ åĮĻ
éĵ¸å¸ģ å±Ģ
ç§ĳç´¢ æ²ĥ
è·Ĩ æĭ³
èį·å°Ķæĸ¯ æ³°åĽł
s g
çļĦ å®ĹæķĻ
å¹´ åĿĩ
ä¸º èĥĮæĻ¯
æĪĲ ä»½
æ¯ ĭ
ç¬¬ 38
çī¹ è´¨
æĸ° æ½Ł
çĶµ åĻ¨
æľº çİĩ
çľģ è´Łè´£ç®¡è¾ĸ
åħ¨ åľº
çĤ ½
è¾¾ æĭīæĸ¯
æ²³ ä¸İ
å¹¿ æ·±
æµģ æĦŁ
éĿŀ èĲ¥åĪ©
åıª éľĢ
æºĲ å¤´
åī¯ ä½ľçĶ¨
å¾Ī å°ı
å¡ŀ çĲī
æķ´ é¡¿
çĥŃ æ½®
ä½ı äºĨ
æ²ĥ åħĭ
ç¦ģ ä»¤
å¢ĵ å¿Ĺ
åħĭéĩĮ å¥¥å°Ķ
åıĳåĬ¨ äºĨ
ç¬¬äºĶ æ¬¡
çº¿è·¯ åı£
ä¸ĭåįĪ 3
äºİ197 5å¹´
çĭĦ æĽ´
èĲ¥ä¸ļ é¢Ŀ
åİĮ æģ¶
åłķ èĥİ
ä¹Ķæ²»äºļ å·ŀ
æŀ¢å¯Ĩ éĻ¢
Bla ck
D es
w an
çļĦ æ¯Ķä¾ĭ
åľ¨ è®¸å¤ļ
åľ¨ æĦıå¤§åĪ©
ä¸Ģ åħ«
è¯ ½
åĨ ī
äºº å¯¿
è¡Į ç»ı
æ¸ İ
è¢« åĪ¤å¤Ħ
æľ¬ åĽ½
éķ¿ åŁİ
èĩª å®¶
å¹³ äº¤
çĶµ éĺ»
å±± åĴĮ
å·ŀ çŁ¥
åħ¨ åİ¿
å¤© æīį
ç»Ł æĪĺ
çİĭ æĿİ
ç»´ åĪ©
ç®¡ æ²»
éŁ³ æºĲ
æł¡ å°ī
äºĶ åĲį
ä¼Ĭ èİİ
æ¯ı ä¸ªäºº
åĸ Ĥ
åħµ å¤ĩ
åĵĪ éĩĮæĸ¯
ç»Ī ç«¯
æĭħ ä¿Ŀ
ä¿® çĲĨ
èĹ Ķ
æİĴ åľ¨
å¾Ī é«ĺçļĦ
æĦŁ åıĹåĪ°
æĺ¾ å¾®
è½® æµģ
ä»ģ å·Ŀ
éĵ¶è¡Į çļĦ
æĬ¥åĳĬ ä¸Ń
å¾½ ç«ł
ä¸īåįģ ä¸ĥ
çŃ¹ éĽĨ
æķĻä¼ļ çļĦ
æ§ Ĳ
åºĶè¯¥ æĺ¯
åĳĪçİ° åĩº
æĺ¾èĳĹ çļĦ
è¾¾å°Ķ æĸĩ
çİ°ä»Ĭ çļĦ
èģª æĺİ
åħ¶å®ŀ æĺ¯
å·¥åķĨ ç®¡çĲĨ
åĲīä»ĸ æīĭ
ä¾Ħ åŃĲ
çŃĽ æŁ¥
è¯¸èĳĽ äº®
è±ģ åħį
8 000
C BS
c a
çļĦ é»Ħ
çļĦ è·¯çº¿
åĪ ®
ãĢģ ãĢĮ
åľ¨ åĲĮä¸Ģ
æĿ ŀ
å¼ Ī
å¼ ĭ
æľī å¤§
åĴĮ ä¸Ģæŀļ
ä¸ĭ èİ±èĮµ
åīį ä½ľ
é«ĺ ç¥ĸ
åĽł äºİ
çŃī å¤ļ
å°Ĩ ä»¥
è¡¨ æł¼
èģĶ éħĭ
è¿Ĳ å¾Ģ
åĪĻ è¡¨ç¤º
è¯´ åĩº
å¹¿ ä¸ºäºº
å¥¥ å·´é©¬
ä¸¾ ä¾ĭ
æĻ® çī¹
æ¸¸ è§Ī
ç¡ ¼
ä¿¡ çļĦ
æľª èİ·
æĿĥ åĬĽçļĦ
çŁ³ éĹ¨
ä¸»è¦ģ çĶ¨äºİ
çĵ¦ è§£
ç¬¬äºĮ åĲį
æŃ» ä¼¤
æ¦ ¨
æµĭ å®ļ
å¾ģ æĪĺ
çīĻ åĮ»
ä¾§ çº¿
å½ĵåľ° æĹ¶éĹ´
am i
æ·· åĲĪçī©
çĶ·åŃĲ åıĮæīĵ
çİī å±±
èģĶéĤ¦ ä¼Ĺè®®åĳĺ
29 0
è¿İ æĪĺ
ä»»åĬ¡ çļĦ
å¸ĮèħĬ ç¥ŀè¯Ŀ
çĽĲ æ°´
éĿĻ åĨĪ
çļĩå®¶ ç©ºåĨĽ
èħĲ èļĢ
Pro ject
è½¬æį¢ ä¸º
é¥¶ èĪĮ
åĨ» ç»ĵ
çŁŃç¯ĩ å°ıè¯´
æľīåĪ© äºİ
8 åı·çº¿
J ava
c lass
o ot
å¥ Ħ
åŃ¦ å¹´
éķ ĸ
çĶŁ åĮĸ
è¢« éĩįæĸ°
çĶ± é¦Ļæ¸¯
å¯¹ ä¹Įåħĭåħ°
æĿ¥ åı°
ãĢį ),
ä¸ľ éĿ¢
ä¹Ł åĽłä¸º
æĭī ç½ķ
åı£ çļĦ
éĩį å¿ĥ
æł¼ å±Ģ
å·´ åĪ©
åĲĳ ä¸ĭ
åĲĳ ä¸ľåĮĹ
æ· ĩ
åºĶ å¤©åºľ
åıį éĿ©åĳ½
éĿŀ æŃ£å¼ı
å¼Ģå§ĭ äºİ
ç¥ŀ æ®¿
è½¬ å¾Ģ
æĹ© åīį
æ²Ļ å·´
ä¹¡ çļĦ
æīĺ æ´Ľ
åįĬ éĥ¨
è¶Ĭ åħ±
å²ģ æľĪ
åģľ æ»ŀ
æĺ¾ çİ°
ä½Ļ ä¸ĭ
èĴĤ å°Ķ
å¿ħ å®ļ
å¼Ĥ æŀĦ
åĮĹéĥ¨ åĴĮ
é³ ī
æĺ¯ä¸Ģ é¦ĸ
è¯Ńè¨Ģ åŃ¦å®¶
è¶ħè¿ĩ 100
åĩ¯ çĳŁ
çİ¯å¢ĥ çļĦ
è¾Ľ è¾Ľ
å¸Ĥåľº ä¸Ĭ
ç¬¬åįģ åħ«
è¸ ©
äººåı£æĻ®æŁ¥ æĮĩå®ļ
æŁ± åĽ½
è¾ī çħĮ
äºİ198 4å¹´
åĿİ è´Ŀå°Ķ
çģĮ ä¸Ľ
ä¸ĳ ç§ĳ
èµ«å°Ķ æĿ¾
å§¿ åĬ¿
åħĪè¿Ľ çļĦ
æĬĳåĪ¶ åīĤ
æŃĮåĶ± å¤§èµĽ
æ·Ģ ç²ī
èµĽé©¬ ä¼ļ
åįİçº³ åħĦå¼Ł
olog y
8 æľĪ15æĹ¥
i P
çļĦ æĶ¿åºľ
çļĦ è®¸å¤ļ
åľ¨ å¹¿å·ŀ
å¸ §
éĩ ī
å¤§ ä¹ĺ
æľī å¤§éĩı
ä¸İ çİĭ
ä¸į åĪĨ
åıĳ æºĲ
çĶŁ è¿ĺ
ä¹ĭ åŁİ
ä¹ĭ å¿ĥ
è¥¿ çļĦ
æ³ķ å±ŀ
åĵ ĳ
èĭ Ł
çī¹ æĿĥ
åĬł æĹ¶
åīį ä¸Ģ
åĨħ åľ¨
å¤© èµĭ
éĢī åĿĢ
èµ· å§ĭ
åŀ ®
å¥³ åıĮ
å¥³ å©¿
å¤Ħ åĪĨ
èĳĹ æīĭ
åĽ¾ åį¢
ç¬¬ä¸Ģ éĺ¶æ®µ
äº¬ åħĨ
åĪĽ è®¾
æŃ» åĽł
èİ± å°Ķ
å£° è°ĥ
å£° æľĽ
èĢĥ éªĮ
è½® æ¤ħ
èĽ ¾
èīºæľ¯ åĵģ
è¿ģ éĥ½
éĴĪ çģ¸
æĹ¶çļĦ äººåı£ä¸º
ç»¿ åĮĸ
åĪĨåŃĲ çļĦ
æ±¤ å§Ĩ
åĩłä¹İ æīĢæľī
å®¿ ä¸»
åıĽ åıĺ
èĪĴ æĽ¼
äºİ197 2å¹´
äºİ194 1å¹´
ä¸Ģçº§ èµĽ
æ²¦ ä¸º
ç¦ıå°Ķæĳ© æĸ¯
å¼łåŃ¦ èī¯
å¸ĥå®ľè¯ºæĸ¯èī¾ åĪ©æĸ¯
åľ¨ æķ´ä¸ª
ä»ĸ æĽ¾
ä¸į èµ·
åħ¬ çĲĨ
åħ¬ èģĮ
åĪĨ åĩº
å¼Ģ æºĲ
åįĹ éĿ¢
æĭī å°¼
å·¥ åĮł
éĵ ¨
ç½Ĺ æ±ī
åİŁ ä½ıæ°ĳæĹı
èµ· ä¼ı
çº¦ 3
çİĭ åĪĺ
æıĲ æĸ¯
å¸¸ ç»¿
åĲĳ ä¸ľåįĹ
åĪĻ äºİ
åħļ æĶ¿
æĮĩ ä»£
æĺŁ çŃī
çĤ¹ çĲĥ
6å¹´ èĩ³
å¤ª å¤ª
éĿŀ æĶ¿åºľ
å¼Ģå§ĭ ä½¿çĶ¨
ä¸ĸçķĮ åĲĦåľ°çļĦ
å¡Ķ å°¼äºļ
ä»£è¡¨ äºĨ
æŃ» ç¥ŀ
åįĥ ä»£
åī¯ çľģ
ä¹Ŀ åįģ
å®¤ å¤ĸ
çĥŃ åĨħ
å¥ĩ çļĦ
ä¸įåĲĮ æĦı
æŃ¢ æŃ¥
å³ ĩ
é¹ «
èİ« éĽ·
æ¢ħ åħĭ
ä¼ĺ è´¨
åĤ »
è¡Ģ åİĭ
æ¯Ĵ ç´ł
çĩ ®
ç¼º çĤ¹
æįŁ æ¯ģ
éĽ¨ éĩı
åĲĪå¹¶ èĢĮæĪĲ
ç²ī çº¢
ST AR
op e
è°ĥæķ´ ä¸º
æĬĹè®® èĢħ
å¼ºçĥĪ åıįå¯¹
åĪĽå»º äºĨ
éĵŃ æĸĩ
æ»¨æµ· å¤ıæľĹå¾·
å°ĺ åŁĥ
éĿ¢2 çº¿
G A
S an
éĥ¨ æĹı
ä¸İ è¥¿çıŃçīĻ
åħ¶ æīĢ
ä½ľ ä¹ī
æĽ ¦
ä¹ĭ æĦı
è¥¿ éĽħåĽ¾
åıĬ çĽ¸åħ³
è¢« åĪĴåħ¥
å¾Ĺ å¤ļ
åħ¥ æľĿ
è¡¨ éĿ¢çļĦ
é©¬ ä½į
éĢļ ç¼ī
200 3
å®ī å¸Ĥ
æ¹ Ħ
åįİ ä¸½
æŀĹ æł¹
åį¡ åĪ©
ä¼ł è¨Ģ
åıĺ èº«
åĪĿ åĽŀ
åıĪ ç§°ä¸º
èŃ¦ å®ĺ
åłĤ çļĦ
çº¢ çĻ½
åıĳçĶŁ è¿ĩ
å½Ĵ äºİ
èµ° åĪ°
åĬ³ åĬ¨åĬĽ
11æľĪ 30æĹ¥
ç«¥ è¯Ŀ
éĺ¿å°Ķ ä»£ä»Ģ
us e
åĽº éĨĩ
å°ıè¯´ å®¶
å¥ı è¯·
èĴĭ ç»ıåĽ½
åĸĢ éº¦éļĨ
Sp ace
çĽĪ åĪ©
ide o
åĲĽå£«åĿ¦ ä¸ģ
çĪ±èį· åįİå·ŀ
BLAC KP
V ol
W illiam
çļĦ äºĭ
çļĦ é¢ľèī²
ä¸Ģ è´¯
ä¸Ģ è¿ŀä¸²
æľī å¤ļç§į
åĴĮ ä¸į
æĸ¯ éĢļ
ä¸į å±ŀäºİ
çĶŁ æŃ»
å¯¹ éĿ¢
çī¹ æĬĢ
éķ¿ å¯¿
å¤ĸ åĬ¡
è¶ Ł
åħ¨ æĿĥ
ç«Ļ ä¸İ
éĢī åĮºçļĦ
çĽ¸ ç»ĵåĲĪ
çº¦ åįł
èĭ± äº©
äº§ åĢ¼
åı² åŃ¦
åı² é¦Ĩ
æĶ¹ å±ŀ
ä½įäºİ æ³ķåĽ½
ç±» æ¯Ķ
åįķ ä¸ª
æĥħ å¢ĥ
ç¥ŀ åŃ¦éĻ¢
ä¼Ĭ èĹ¤
åı¯ä»¥ çĶ±
ç¦ı å¸ĥæĸ¯
å¼ķ èĩ´
æĴŃ éŁ³
äº¦ æĶ¹åĪ¶ä¸º
äº² å¯Ĩ
ar l
ç¬¬äºĮ åįģ
åħ« æĹĹ
æĸ½ åİĭ
åĽ´ åŁİ
å®¤ çļĦ
ä»ĸçļĦ çĪ¶äº²
æĿ° åĩºçļĦ
çĭ¬ç«ĭ äºİ
åģĩ åĲį
çĸĹ åħ»
åħ¬åĽŃ çļĦ
ãģ ª
St reet
çļĦåľ° çĤ¹
ç¬¬äºĮæ¬¡ åĽ½åħ±åĨħæĪĺ
çļĩå¸Ŀ çļĦ
if ic
æīĢå±ŀ è¡ĮæĶ¿åĮºåŁŁ
çļĦåİĨåı² å¹´ä»£ä¸º
çļĦåĲİ ä»£
å¥ĭ æĸĹ
æĬĦ æľ¬
æ·±æ°´ åŁĹ
åľŁåºĵ æĽ¼
ä¼Ĭèİī èİİçĻ½
BLACKP INK
M er
M art
u ri
çļĦ åħ¬åı¸
çļĦ åĬ¨çĶ»
æĪĲ éĥ½å¸Ĥ
ä¸Ĭ åıĳè¡¨
æ¯ ĺ
æĮ Ł
éĽ ī
åĬ¨ çĶ¨
éķ¿ åı²
åįĹ ç¾İ
åĮĹ åĳ¨
ä¹Ł å°±
è¦ģ ä¹Ī
æķĻ å»·
å®ļ åĲĳ
æĦ ģ
éĢī çĶ¨
æİ¥ èİ·
é¦ĸ åįķæĽ²
åı² åħĭ
å¤Ħ å¢ĥ
åŀĭ è½¦
or s
äººæ°ĳ å§Ķåĳĺä¼ļ
è®¤ä¸º è¿Ļæĺ¯
å±ħ å®¶
çĶµå½± åħ¬åı¸
çĶ» åĥı
åī¯ æķĻæİĪ
å¾Ī å¥½çļĦ
èĬ± æł·
èŃ¦ éĺŁ
åıĮ æīĭ
éº¦ åħĭæĸ¯
å¥³åŃĲ åįķæīĵ
çĶ³ æĬ¥
ç»¿ åľ°
æ¨ª çĲ´
çĮİ çī©
12æľĪ2 5æĹ¥
æľºæ¢° åĮĸ
æĲ¬ åĪ°äºĨ
çŃ¾ç½² äºĨ
çĲī çĴĥ
æĬ± æĢ¨
æµ·åįĹ çľģ
ãĥ¼ ãĥ
æĸ¼ ä¼¦æķ¦
ä½Ľç½Ĺä¼¦ èĲ¨
è¯½ è°¤
H er
åŃ º
æľī ä»¥ä¸ĭ
åĴĮ é¦Ļæ¸¯
åĲİ å¼Ģå§ĭ
æĪĲ ä¸Ģ
æĪĲ æķĪ
åĩº å¾ģ
ä¹ĭ äºī
æ± ´
åĬł å¤§
çŃī åĢĻ
äºĮ èĢħ
èģĶ è§ī
åı¸ åı¸éķ¿
éĩĳ èī²
é¦ĸ ç§Ģ
éĺ¿ åħ¹
å¥³ çľŁ
æĽ¾ åŃĻ
ç©º ç¼º
å¤ª æŀģ
åıª åĪĹåĩº
ç¦ı å²Ľ
å¡Ķ åĲī
ä¼Ĺ å¤ļçļĦ
åĲī å¸ĥ
èħ ķ
çĹħ æĤ£
å±Ĥ çº§
ä¸ĥ æĺŁ
for d
æ¿ ®
å®¾ é¦Ĩ
åĨħå®¹ çļĦ
ãģ Ł
éªĳ é©¬
å·¥ä¸ļ åĮº
æ½ľ åĬĽ
æ¸¡ è¾¹
åīĳ èĭ±
èĻİ å°¾
æħĪ ç¦§
çļĦåİŁ åĪĻ
åº·çĨĻ å¸Ŀ
é©¬éĩĮ åħ°å·ŀ
æ³¢å°Ķ å¤ļ
åıĭå¥½ åŁİå¸Ĥ
åī©ä½Ļ çļĦ
Stud io
æķ£éªĳ å¸¸ä¾į
% )
C ity
S U
g et
çļĦ éĻĪ
çļĦ ä»»ä½ķ
çļĦ è´¨éĩı
æĸ ¡
è½ ¼
æĸ¯ è¯º
åĪĨ çķĮ
æĸ¹ èĪŁ
åĬ¨ è®®
å¼Ģ åĩº
å¹³ éĺ³
å¹³ ç«ł
èĩ³ å¤§
çŃī éĹ®é¢ĺ
éģĵ åĴĮ
å¤ĸ åĩº
é©¬ æł¼
éĢļ åħ³
éĩį æķ´
å®ī åįĹ
ä¸¤ å±Ĭ
æĢ» åĬ¡
åĽĽ åŃ£
æĻ® æĸ¯
èº« å¿ĥ
åı¤ è£ħ
ç¦» ä»»
æīĵ åį°
èĤ² æľīä¸Ģ
å®Ĺ çļĦ
ä¼¯ å¡Ķ
åįĩ é«ĺ
éĺ² èĪ°
èĪ° èĪ¹
é£ŀ èīĩ
æĻ¯ åĮº
åģľ è¿Ĳ
æ´»åĬ¨ ä¸Ń
å³ ª
è¯» éŁ³
åħ¹ åł¡
å¼Ģåıĳ äºĨ
11æľĪ 8æĹ¥
ç¼º å¤±
éģ¿ å¼Ģ
æ½® æµģ
è½´ å¿ĥ
æĴĴ åĵĪæĭī
åºĬ ä½į
æī° åĬ¨
é¼ł çĸ«
åľ¨199 9å¹´
åŃ¤ çĭ¬
åĵĢ æĤ¼
éŃħ åĬĽ
çĺŁ çĸ«
åĬªå°Ķ åĵĪèµ¤
ä¼ıå°Ķ åĬł
5 æľĪ15æĹ¥
P op
T ra
v on
çļĦ é£İæł¼
ä¸Ń æĢ§
åº ł
å· ³
åĴĮ ä¿Ħç½Ĺæĸ¯
æĹ¥ æīĺç±³å°Ķ
åĮº éģĵ
åĪĨ åħ¬åı¸
åĪĨ æ®µ
å¤ļ ä»¥
å¼Ģ å¤´
æĸ° å®¿
å¹³ åĩ¡
åĬł çº³
åĮĹ ä¸İ
è¯¥ å·ŀ
æĪĺ ä¹±
ä½ĵ ä¸Ńæĸĩ
å¦ Ĵ
å¤ĸ è¡¨
ç§° è°ĵ
æĺİ çıł
èĭ± åĭĩ
æ°´ ä¸ĭ
å°¼ åĬłæĭī
æİ¥ è§ģ
å·´ çº¦è®·
çĽ´ ç«ĭ
çĤ¹ åĩ»
æľĿ åľ£
ä¿¡ ä¸Ń
ç¬¬ä¸Ģ å¼ł
èĭı åħ±
æĿ¡ è§Ħå®ļ
ä¸ĸçķĮ åį«çĶŁ
æŃ¦ å°Ĩ
æķ´ å¹¶
å¤± æİ§
èĪ° éķ¿
çļĩ å¤ªåĲİ
åıĳå±ķ æĪĲä¸º
at ch
ç¤¾ä¼ļ åŃ¦
ä¸Ńå¤® çłĶç©¶éĻ¢
éĻį æ°´
åĶĲ å±±
æĸ¯çī¹ çļĦ
æĳĦ åĥı
æĿĤ è´§
7æľĪ 18æĹ¥
ç¦ģ å¿Į
ä¹Ķ æľ¨
un ch
åģı ä¸ľ
éº» çľģ
èĦļ ç±»
çĴ ĩ
çºµ çģ«
ç¼ħ åĽł
ä¸Ģä¸ĸ çļĦ
ç»Ħå»º äºĨ
éĺª ç¥ŀ
å¿½ å¿ħ
ç»¥ è¿ľ
çĪ±åĽ½ ä¸»ä¹ī
å²Ĳ éĺľ
èŀºæĹĭ æ¡¨
ç¿°æŀĹéĻ¢ åº¶åĲī
å®¾å¤ķæ³ķ å°¼äºļ
åį°åľ°å®ī çº³å·ŀ
åĩ¡å°Ķ èµĽ
åŁ¼ çİī
7 50
I BM
V O
çļĦ åŁº
çļĦ æ¼Ķåĩº
çļĦ ä¿¡æģ¯
ç» Ľ
åľ¨ 2024å¹´
å¸ ĺ
ä¸Ń åĮº
ä¸Ĭ ä¹Ł
ä¹ĭ åŃĻ
è¥¿ åĽŃå¯º
é¢ į
åĨĽ åĪĨåĮº
è¢« æ´¾å¾Ģ
åĲĮ ç±»
æĿ¥ æ¢ħ
è¿Ļ ä»½
åįĹ å²¸
æľĢ å¼º
äºļ æĭī
äºļ éĩĮå£«
æŃ¤ ç§į
è¿Ľ é£Ł
çŃī å¤Ħ
éģĵ åıĬ
çŁ «
äºĮ åħĥ
å¤ĸ å½¢
200 ä¸ĩ
å·ŀ æĶ¿åºľ
ç§° ä»ĸ
ä¸¤ å¤©
ä¸¤ è¾¹
çº¦ 2
è£ ĺ
æĹł äº§éĺ¶çº§
äºĶ è§Ĵ
æ±Ł å±±
è°ĥ å¾Ģ
è°ĥ æİ§
ç¦» ä¸ĸ
æİ¨ è®º
éĽ· æģ©
30 ä¸ĩ
è¡ĮæĶ¿ æľºåħ³
çľĭ åĪ°äºĨ
ä¸´ æµ·
åįķä½į çļĦ
ç§ĳåŃ¦ çłĶç©¶
å¸® æ´¾
ç§ģ å®¶
çİī ç±³
éĽ¨ æŀĹ
2009å¹´ æĹ¶çļĦäººåı£ä¸º
åĲĪå¹¶ ä¸ºæĸ°
ä¾¯ çĪµ
æľīæķĪ åľ°
æĸĳ é©¬
èĢĥåı¤ åŃ¦å®¶
é²¤ é±¼
ç½Ĺé©¬å°¼äºļ çļĦä¹¡
éħįå¤ĩ äºĨ
å¤¸ åħĭ
GB T
è§Ĵèī²æī®æ¼Ķ æ¸¸æĪı
ä¸Ńçº§ äººæ°ĳæ³ķéĻ¢
å·§åħĭ åĬĽ
G M
L S
åľ¨ æĹ¥
åľ¨ å®¶
äºº æĪĸ
ãĢĭ (,
èĢĮ å¯¼èĩ´
åĨĽ æľº
å¯¹ æĸ¹çļĦ
åĲĮ çĲĨ
èĭ ĩ
çī¹ æ´Ľä¼Ĭ
åĮĹ è§Ĵ
äºļ è¿°
ç»ı æĸĩ
éĵ Ĥ
ç«Ļ åıĬ
éĥ½ ä¸İ
éĩĳ æľĿ
éĺ¿ æĽ¼
çķĮ éĻĲ
æīĭ å·¥
çºª åħĥ
åĳ½ é¢ĺ
ä¼Ĭ çĬģ
åı¯ä»¥ çľĭåĪ°
å®£ å¾·
åĿĩ åı¯
è¯º çĵ¦
åī¯ ä½¿
ä¸Ńåįİ åı°åĮĹ
æ¹ĸ åĮº
åıĮ æºª
æŀģ å°ĳ
æĤ ĸ
åĨľ ä½ľçī©
åŁİå¸Ĥ è§ĦåĪĴ
èĪ¹ éĺŁ
å®£å¸ĥ ä¸İ
éĢĲ åĩº
é¼ ¬
ä¹ĺ è½¦äººæ¬¡
é¡» è´º
æĺ¯ä¸Ģ é¢Ĺ
çĶŁäº§ äºĨ
è¯Ńè¨Ģ åŃ¦
é½Ĳ åĽ½
æĮī éĴ®
æ¬¢ ä¹Ĳ
ç»Łæ²» çļĦ
äººå£« çļĦ
èļ Ĥ
å±ħä½ı äºİ
æĬĺ ç£¨
è´¾ æĸ¯
æĬķåħ¥ ä½¿çĶ¨
9æľĪ2 9æĹ¥
äºİ194 2å¹´
è¾¹çķĮ åľ°å¸¦
è¡į çĶŁçī©
åĤħ ä½ľä¹ī
ric k
å¤§éĺª åºľ
å¸¸ä½ı äººåı£
å°¼åı¤æĭī èĢ¶å¤«
å¿½å¿ħ çĥĪ
L A
M or
f ace
çļĦ æľĢä½³
çļĦ ç©ºéĹ´
ä¸Ģ è¡Į
å¤§ éĽ¨
æĭ ·
åŁ ¤
ä¸Ĭ è¢«
åıĳ ä½ľ
çĶ¨ è¯Ń
å¯¹ ç¾İåĽ½
çī¹ èķ¾
åĪ© äºİ
ä¸ī çľģ
åº¦ éĩı
äºĮ ä¸ª
èĬ ¹
æ¯Ķ å®ī
éĺ¿ éŁ¦
äº¤ æīĢ
å®ŀ æķ°
ä¼ł æĦŁ
è¿ĺ èĥ½
åįı åĴĮ
åľŁ åľ°çļĦ
ä¿® é¥°
)ãĢģ ãĢĮ
æĤ Ħ
è¾ĸ ä¸ĭ
æł¸ èĥ½
re w
å¯º åį¿
st er
è¡Ģ ç³ĸ
åĲ¬ è¯ģ
äºİ198 3å¹´
äºİ198 6å¹´
äºİ197 8å¹´
äºİ197 6å¹´
æĸĳ çº¹
é²į åĭĥ
çļĦéĩįè¦ģ æĢ§
çĸ¾çĹħ çļĦ
åıĺå¾Ĺ æĽ´åĬł
èĢĹ å°½
ä»»èģĮ äºİ
ell o
é¢ĩ æľī
å¿į èĢħ
å§Ĭ å§Ĭ
åĭ¾ ç»ĵ
åĵĪéĩĮ æ£®
CP U
æĹıèĩªæ²» åİ¿
ç¹ģå¿Ļ æĹ¶éĹ´
æĶ¹ç»Ħ ä¸º
æĸ°å¢ŀæľ¬åľŁ æĹłçĹĩçĬ¶æĦŁæŁĵèĢħ
æļĳ åģĩ
2 æĪĲ
F A
G l
åľ¨ ä¸Ģæ¬¡
äºº å°Ĩ
æĺ¯ æ¬¡
è¡ ħ
æī Ī
åĴĮ å®ĹæķĻ
åŃ¦ ç¤¾
éĿ ¡
éĥ¨ å°Ĩ
ä¸İ éĻĪ
ä»ĸ æīĢ
ç¬ ĭ
åĲĮ æºĲ
åĬ¨ éĩı
éĢļ åķĨ
æĢ» åı¸ä»¤éĥ¨
æıĲ éĹ®
æĹł æīĢ
åıĹ è¿ĩ
å¥¥ åħĭåħ°
er a
æĻ® çĵ¦
æ´» æ³¼
ç¬¬ä¸Ģ åľº
æ³¢ æµª
çļĦä¸Ģ èĪ¬
äº¦ ç§°
åıĳçİ° èĩªå·±
äº¤éĢļ äºĭæķħ
äº¤éĢļ æŀ¢çº½
æķĳ çģ¾
èĮĥåĽ´ åĮħæĭ¬
us s
è£ģ æĴ¤
èĦļ æľ¬
åħ¬å°º çļĦ
æŁ¯ æľ¬
çºµ è´¯
9æľĪ2 5æĹ¥
æĴ° æĸĩ
3æľĪ2 6æĹ¥
çĨĬ çĮ«
äºİ197 3å¹´
ç§įæĹı éļĶç¦»
ä¿ĺ èİ·
åĲĮçĽŁ åĽ½
é²¤ å½¢çĽ®
con d
å§ĳ å¨ĺ
é¹¦é¹ī åĺ´
é©¬åĬĽ è¯º
æĸ¹æµİ åĲĦ
çµ ®
èĭ±åĲīåĪ© æµ·å³¡
å°¼åĬłæĭī çĵľ
A mer
G old
S BS
y th
çļĦ åįĬ
çļĦ åĲĦç§į
çļĦ è¯Ħä»·
ç» ®
åľ¨ å¤©
ä¸Ń æĺ¯
ä¸Ń åĩºçİ°
å¤§ éº»
ä¸İ ä¸Ń
æĬ ĸ
è¥¿ å¤ı
å»º æł¡
è½¦ èĩ£
è¯¥ å±Ĭ
æľº èĥ½
æķĻ çļĦ
çľģ æİ¥å£¤
åŁİ æ±ł
éĹ¨ æĪ·
ç½ĳ éĻħ
ä½ľä¸º ä¸Ģç§į
çĹħ åİŁ
çĻ» é¡¶
ä¹ĭä¸Ģ æĺ¯
æĸĩåĮĸ ä¸Ńå¿ĥ
å¹² éģĵ
åį¢ è¥¿å®ī
å¯º çļĦ
12æľĪ 8æĹ¥
èģĶèµĽ æĿ¯
é»İ åĲĦ
æĿľ å°Ķ
åĨ³èµĽ åĳ¨
éĨ ĭ
èĤ¯ å°¼äºļ
æ»¨ æĿ¾
æ¯įäº² æĺ¯
çĵ¦å°Ķ å¾·
æ´Ĺ æīĭ
æĬĳ éĥģ
éĻª ä¼´
çĶ°å¾Ħ éĶ¦æłĩèµĽ
ç»ĪçĤ¹ ç«Ļ
æĳ©å°Ķ å¤ļçĵ¦
ä¸ĩå¹´ åīį
æ»¤æ³¢ åĻ¨
å·ŀéĻħ åħ¬è·¯
ç»ĥé©¬ å¸Ī
åĭĥåħ° çĻ»åł¡
å¯ŁåĲĪ åı°
åĽ¾åį¢ åħ¹
6 èĩ³
8 èĩ³
u li
äºº ä¹Ł
äºĨ å¾Īå¤ļ
ä¼ļ éĢłæĪĲ
ä¸Ĭ çĸı
ä¸İ é©¬
ä¸į æĹ¶
çī¹ ä¼¦
åı¯ æĢķ
éĿ¢ åħ·
åĨħ ç½®
åı° çĭ¬
ç«ĭ æ¡Ī
èĲ İ
åĪ¶ å®ª
åı£ æľį
å¤© åŃĲ
å®ī åĮº
ç¦ º
å£« çļĦ
è¾¾ æĭī
èµ· çģ«
åįİ çļĦ
æ¸¯ çĿ£
åİĨ ç¨ĭ
åį¡ çĵ¦
çŁ³ çªŁ
æ³¢ éķ¿
ä¸ĸçķĮ ç¬¬ä¸Ģ
åİĨåı² åįļçī©é¦Ĩ
è´¨ ç´ł
è¨Ģ è¯Ń
ç¬¬äºĮ éĥ¨
æĬķ å¥Ķ
çĪ± çŁ¥åİ¿
åıĮ åŃĲ
çħ İ
çĶ² åįĪ
ä»ħ éĻĲäºİ
éĻį è§£
å¼Ĺ ç½Ĺ
çļ® åħĭ
ç½² çĲĨ
st ar
èĪªç©º èĪªå¤©
éĶ¡ åħĭ
çİ©å®¶ çļĦ
çŃ¹ æ¬¾
å¤§åŀĭ çļĦ
è¾¾æĪĲ åįıè®®
åľ¨199 8å¹´
åĽ½åĬ¡éĻ¢ æĢ»çĲĨ
éĽĩ çĶ¨
æª ¬
ens is
åīįèº« æĺ¯
che m
èģĭ äºº
æµ·åĽł éĩĮ
æ³¢å¤ļ é»İåĲĦ
ä»Ģåı¶ æ´¾
çļĦ è¾¹çķĮ
å¤ Ń
å¹´ æľ«
ä¸º åīį
ä¸Ń ä¸İ
å¤§ åĽ½
å¤§ æĪĲ
20 4
åŃ¦ å¾Ĵ
æĪĲ ä¸Ģä¸ª
ä¸İ å¼ł
è¢« åıĸæ¶Ī
ä¸ĭ çº§
å¤ļ éĩį
èĩª åĪ¶
å¼Ģ èĬ±
ä¸ľ è¾¹
å°Ĩ æĺ¯
çľģ çľģéģĵ
éĥ½ å¿ħé¡»
è¾¾ å¾·
éĺ¿ ä¼ĬåĬª
éĴ °
æĺŁ çº§
é¢Ĩ åıĸ
æĽ´ æĹ©
åĽŀ éģ¿
åĲĦ æł·çļĦ
åĪ« äºİ
é£İ çĲ´
ä¼Ĭ åĩ¡
æŃ¦ ä¾ł
åħ« åį¦
å®¢ æµģ
çĶ² çĬ¶
ç¥¨ æķ°
æķĪ èĥ½
çĿĢ æīĭ
ç´ł æĿĲ
å¹² è¾¾
éĢģ åħ¥
è·Ŀ ä»Ĭ
äºĨä¸Ģ ä½į
7æľĪ 31æĹ¥
10æľĪ 31æĹ¥
è¡Ģ èħ¥
7æĹ¥ åľ¨
è¥¿çıŃçīĻ çļĦ
å®ª æĶ¿
éĢĥ çĬ¯
è®¢ å©ļ
190 1å¹´
æľĢå¤§ æ°´æ·±
æŁ¯ æĸĩåĵ²
äºİ195 8å¹´
çīµ è¿ŀ
å¿§ éĥģ
ug h
æİ¢éĻ© å®¶
ä¸¢ å¤±
wit ch
è¤Ĵ è´¬
æĭľä»ģ æħķå°¼é»ĳ
è§ħ é£Ł
èĻĶ è¯ļ
SQ L
ç¦ıæ²» è°·åı·
è¾Ľè¾Ľ éĤ£
9 æľĪ15æĹ¥
K ing
P M
v ice
Â ²
çļĦ ä½İ
åĲ ł
åį ī
ä¸Ń ä½į
å¤§ ç¢Ł
åĳ ķ
åĩº ä¸º
ä¸į åĩº
åĨĽ åĴĮ
åĲĮ æŀĦ
åįĹ éģĵ
ç¾İ åĪ©
ç¥ ļ
å°Ĩ è¿Ļ
äºĮ æ¥¼
å±± ä¹¡
å¤© çº¿
åŁº åľ°çļĦ
è®¡ ç¨ĭ
åįİ çī¹
æĹł æķĮ
12 æĹ¶
åįķ äºİ
æĺŁ ç©º
å®ĺ åºľ
æĶ¯ éĺŁä¼į
æłĩ è¯Ń
æ°Ķ è´¨
ç©¶ ç«Ł
ç½ĳ çļĦ
åħ« åı·
åĬŁ åĬ³
åĥ ĸ
æĹ© äºİ
çģ« çł²
çģ« çĤ¬
ä¸ĥ äºº
æ·± éĢł
ä»ħ åī©
åĩł åįģ
è½½ åħ·
éĵģè·¯ åĴĮ
å¼Ĥ æ¯į
éĢļå¸¸ çĶ±
12æľĪ 20æĹ¥
éľ² è¥¿
éĽª å±±
åĨįæ¬¡ è¢«
ä¹Ļ éĨĩ
æ°Ķè±¡ ç«Ļ
æ³¢æĸ¯ å°¼äºļ
åĴĸ åĸ±
è¤ ¶
çŁŃæļĤ çļĦ
å±ķçİ° åĩº
æľŃ å¹Į
æīĺé©¬ æĸ¯
å¿ĹæĦ¿ èĢħ
å¾·åħĭ èĲ¨æĸ¯
ty pe
æ²īç§¯ çī©
F 1
M i
P E
S al
T ri
p or
z a
çļĦ æŃ£å¼ı
çļĦ ä¿ĿæĬ¤
æĪ Ł
ä¸Ģ éĺŁ
ä¸Ģ åĵ©
å¤§ ä½ĵ
å¤§ æ®¿
ä»¥ 5
äºĨ ä»ĸä»¬
ä¸į å¤§
ä¹ĭ çĶ¨
çī¹ èģĺ
èİ Ĩ
æľĢ åıĹæ¬¢è¿İ
çĶµ è§£
è¯¥ å»ºçŃĳ
ä½ĵ éķ¿åı¯è¾¾
å±± éķĩ
å°ı å±ĭ
è¿Ĳ ä¼ļ
éĩĳ éĻµ
é¦ĸ åº§
å¸¸ å¹´
æĦı åį³
æĮĩ ç§°
æĪĲä¸º ä¸ĢåĲį
çŁ³ å·Ŀ
åķĨ ä¸ĺ
æİ¨ å¯¼
èĲ¨ å§Ĩ
è¿ĲåĬ¨ åľº
ä¼¦ åł¡
ä¸Ńåįİ èģĮæ£Ĵ
ä¸Ńå¤® æĶ¿æ²»å±Ģ
åĨľ æŀĹ
çľĭ æĿ¥
åĪĺ å¤ĩ
é©» æ¸¯
æĿŁ ç¼ļ
äºĨä¸Ģ æĿ¡
è´¢ çī©
8æľĪ 5æĹ¥
çļĦå¤§ å¤ļæķ°
çĶŁäº§ åķĨ
åĪ» çĶ»
ãģ ¾
æ³Ľ æ»¥
çĲĨè®º ä¸Ĭ
ad a
ç»į å°Ķ
éĵľ åĥı
189 9å¹´
ç¬¬åįģ ä¸ĥ
IN G
çİ©å®¶ åı¯ä»¥
è´Ŀå°Ķ çº³
åľ°éĵģ ç«Ļ
åĭĭ çĪµ
çĬ¹å¤ª äººçļĦ
å¼ķåıĳ çļĦ
ut ion
äºİ197 0å¹´
éĶģ å®ļ
äºİ194 9å¹´
éķ¿åº¦ ä¸º
bo ard
åī§åľº çīĪ
JR ä¸ľæĹ¥æľ¬
lat ion
å¸ĥæĶ¿ åı¸
èĩĢé³į ç¡¬æ£ĺ
å±ıä¸ľ åİ¿
æĻ®æŀĹ æĸ¯é¡¿
Tr ans
åİŁå£° å¸¦
çĽİ æł¼é²ģ
1 åº§
B ill
M 2
n y
çļĦ çĬ¶åĨµ
å½ ¤
æĹ¶ ä¹Ł
éĿ ´
å¾· å¡ŀ
æĸĩ å®Ĺ
è¿ĩ å¢ĥ
è·¯ éļľ
çĤ Ķ
è®® äºĭ
æ¼Ķ åıĺæĪĲ
è¯Ń æĹı
ç»´ èĢ¶
ä¹Ĳ è¯Ħ
éĹ¨ åīį
æĮĩ çļĦ
èº ģ
æĬ¥ èŃ¦
éĢł ä»·
å¤ª å°ī
å¥¹ åĴĮ
èĳĹ ç§°
æ±Ł éĹ¨
è½¬ åĨĻ
ç¦ı çĶ°
å¸Į çī¹
çĶ° éĩİ
å½±åĵį åĪ°
æľ¨ åħ°
æīį å¾Ĺä»¥
ç®¡çĲĨ å¤Ħ
å·¥ç¨ĭ éĻ¢
12æľĪ 30æĹ¥
æĺ¯ä¸Ģ åľº
åĬ³ ä¼¦
é½Ĳ å¥¥
as on
åıªæľī åľ¨
å·¨ é¢Ŀ
æĢ¥ æķĳ
éĻµ åĽŃ
ä¹Ļ ç»Ħ
æĺĨ å£«
è¿Ļæł· åģļ
10æľĪ2 6æĹ¥
çĽĹ è´¼
æ³¨æĦı åĬĽ
ç¾İæľ¯ åŃ¦éĻ¢
é©¾é©¶ åĳĺ
ç¨į åĲİ
æīĢå±ŀ çļĦä¸Ģä¸ª
å¯¹å¤ĸ å¼ĢæĶ¾
æĺİç¡® çļĦ
è¿¦ å¤ª
å¿ĺ è®°
åĲįäºº åłĤ
âĢĭ âĢĭ
äºĳæŀĹ åİ¿
çŃīåĲĮ äºİ
4 èĩ³
7 åı·çº¿
7 æľĪ15æĹ¥
A çļĦ
C K
J apan
K h
L td
çļĦ æ³ķ
ä¸Ģ æĸ¹éĿ¢
æĺ¯ ä½¿çĶ¨
æľī 3
æľī æ¯Ĵ
ä¼ļ äºİ
è§ Ĳ
ä¸ª æ¡Ī
ä¸Ĭ æ¶¨
ä½ľ äºĨ
è¥¿ æ¹¾
åı¯ è¢«
èİ ª
å®ī æīĺ
éĥ½ æĭīæĸ¯
åı¸ ç©º
éĩĳ æ£®
çİĭ æĺŁ
çİĭ èı²
å·´ å°¼
éĩı çº§
æ® ¡
æĻ® åĭĴ
åŃĹ å½¢
è¿ĳ çİ°ä»£
æľª ç§ĳ
æŃĮ è°£
è®¤ä¸º åħ¶
è®¤ä¸º è¯¥
å®£ å®Ĺ
èĲ¥ çļĦ
ä»½ é¢Ŀ
äº² è¿ĳ
èĩ´ çĶµ
åī¯ éĥ¨éķ¿
ç¡® å®ļçļĦ
è¯į çļĦ
è¾ĸ ä¸ĭçļĦ
ç´ł é£Ł
è½® æ¸¡
èģĶåĲĪ å£°æĺİ
èĻ½çĦ¶ åľ¨
å¼Ģåıĳ åĽ¢éĺŁ
æĺ¯ä¸Ģ é¡¹
æ²ĥ å¾·
1æľĪ 31æĹ¥
æķħäºĭ çļĦ
æĭľ çĻ»
èį· å±ŀ
è½¯ éª¨
èģĮä¸ļ ç¯®çĲĥ
çĹĩ çļĦ
æĺ¾ç¤º åĻ¨
å®¶åºŃ æĭ¥æľī
ãĤ Ĭ
ç´§ éĤ»
çĪĨåıĳ äºĨ
å¼± åĬ¿
è´Ŀå°Ķ æł¼èİ±
åĩ¤ å±±
å¨ģå°Ķ ç¬¬
å»ºåĪ¶ æ´¾
æ¶¦ æ»ĳ
åĢº åĪ¸
ä¸Ĭä¸ĭ è½¦äººæ¬¡
ä½ľä¸ļ ç³»ç»Ł
åī¥ åīĬ
çİĭä½į ç»§æī¿
é¾Ļåį· é£İ
æŁł æª¬
4 æ¬¡
H ouse
N S
d is
v ent
çļĦ ç§ĺå¯Ĩ
åľ¨ ä¸ī
åľ¨ åı°åĮĹ
åĽ½ äº§
äºº åĲį
å¤§ ä¸»æķĻ
æľī éĥ¨åĪĨ
äºĨ è¿ĻäºĽ
è¾ į
æĪĲ ç¥ĸ
æİ ³
è¥¿ æĭī
è¥¿ ç«Ļ
å¯¹ å¥¹
åħĭ éļĨ
å¾· éŁ¦
ä¸ľ å¾·
ä¸ľ èĩ³
æĭī èĴĻ
å¤ĸ åŀĭ
å®ļ ä»·
å¤© å±±
çĽ¸ è¯Ĩ
éĩı æµĭ
åĪĻ å°Ĩ
è°ĥ åĬ¨
åĪĿ æ®µ
è£ħ ç®±
åİĨåı² ç³»
åħŃ åĲį
æ®µ æĹ¶éĹ´
æŃ» äºĨ
å¸Į å¤«
é»Ħ çŁ³
æĸ½ å¯Ĩ
å£° ä¹Ĳ
æ·± èī²
ç¤¾ä¼ļ æ°ĳä¸»åħļ
åģľ äº§
æıĲä¾Ľ ç»Ļ
ç®¡çĲĨ åĳĺ
ç²¾ åĩĨ
å·¦ æīĭ
æŀ¶ ç©º
åı¶ åŃĲ
æĭ¥ ç«ĭ
åħ» åŃĲ
5æľĪ 5æĹ¥
åį± åľ°é©¬æĭī
189 3å¹´
å¸ĮæľĽ èĥ½
ä½Ĳ èĹ¤
çĶµè§Ĩåı° çļĦ
ç¥Ń åĿĽ
æ¹ĸåįĹ æ¹ĺæ¶Ľ
æ¨¡åŀĭ çļĦ
ä¸Ĭæĺł çļĦ
çŀ ³
ak er
NA SA
è±Ĩ èħĲ
çİĽä¸½ äºļ
å¥¥è¿Ĳä¼ļ èİ·å¾Ĺä¸Ģæŀļ
sh ip
é¦ĸåºľ è®¾äºİ
èĢ¶ç¨£ ä¼ļ
æĤ¼ å¿µ
åŃ¢ åŃĲ
åĮ¾ é¢Ŀ
åĽ½åŃĲ çĽĳ
rig ht
éľī ç´ł
åı¯è¡Į æĢ§
äºļä¼¯ æĭīç½ķ
å®īå¤§çķ¥ çľģ
åı± åĴ¤
è¿¦å¤ª åŁº
F la
æĸ Ľ
ä¸Ń çļĦä¸Ģ
å¤§ å°ıçļĦ
å¤§ æĢĴ
åĩº æ²¡
ä¹ĭ ä½Ļ
å®¶ çĿ£
ä¸ī éĥİ
éļ ĺ
æı Ĩ
åħ± åıĳçĶŁ
æĢ§ æĦŁ
å±± èĦļ
æĢ» åħ±æľī
åĪĹ åĩºäºĨ
å¸¸ åľ¨
12 æľĪ15æĹ¥
ç»ĵ ä¸ļ
éŁ³ ç¬¦
åħµ åºĵ
è®¤ä¸º ä»ĸ
å¼ķ æĿ¥
åĵĪ åº·
åī¯ éĻ¢éķ¿
çİ¯ çº¿
ä¸Ńåįİ åħ¨åĽ½
éĩĩ çŁ¿
è½¦ç«Ļ çļĦ
é¸ ¥
éĻį æł¼ä¸º
æī§ ä¸ļ
è¯· è¾ŀ
éĹ®é¢ĺ ä¸Ĭ
èµ« çī¹
èī¾ ç±³
çĽ®åīį ä¸ºæŃ¢
åºı æķ°
éĽĨåĽ¢ åħ¬åı¸
åģĩ å®ļ
åģĩ è£ħ
1æľĪ èĩ³
åĪĳ æ³ķ
æ¤įçī© åĽŃ
çĹĩ åĢĻ
ç©¿ ä¸Ĭ
æľīä¸Ģ å®ļçļĦ
è¯¯ è§£
è§Ħå®ļ çļĦ
åĶ¯ä¸Ģ ä¸Ģä¸ª
ç¡¬ ä½ĵ
åĳ³ éģĵ
500 ä¸ĩ
æĪªèĩ³ 2023å¹´
éĻ¶ åĻ¨
å¨ģå»ī æĸ¯
çģ¯ åħī
æĶ¶åħ¥ æĢ»é¢Ŀä¸º
8æľĪ2 8æĹ¥
åįģåħ« å¹´
4æľĪ2 8æĹ¥
ä»ĭç»į äºĨ
å¡« åħħ
éĶĻè¯¯ çļĦ
çī² çķľ
ç¬¬åįģä¸ī å±Ĭåħ¨åĽ½äººæ°ĳä»£è¡¨å¤§ä¼ļ
ð¬ ¶
è´¦ åı·
æļ¹ ç½Ĺ
çļ ±
çļĦ 3
åľ° åĴĮ
æµ £
éĹ ·
éķ Ĳ
ä¸İ åĽ½éĻħ
å¾· ç±³
åīį ä¸ī
æ¬¡ è¦ģ
é©¬ éŀįå±±
ä¸Ģä¸ª æĸ°çļĦ
éĩį å¤§çļĦ
åŁİ åįĹ
æ°´ å¸Ī
éĩĳ åŃĹ
åĽĽ æµ·
çĽ´ åĪĹ
å·² è¾¾
éª ĩ
æĹ¥æľ¬ æµ·åĨĽ
æ³¢ èĮ¨
è°ĥ åº¦
å¯Ĩ éĴ¥
æŃ¦ èŃ¦
å®£ åĪ¤
åŃĺ æ¬¾
æ´Ľ é©¬
é»Ħ å¤§ä»Ļ
æŃ¥ éģĵ
èĹı æĸĩ
åħ³ç³» å¯ĨåĪĩ
ä¼ĺ çĤ¹
è¯» åıĸ
éĢīä¸¾ å§Ķåĳĺä¼ļ
9æľĪ 20æĹ¥
çĶļ å°ĳ
ãģ ¨
éĢĥ èµ°
å°ıè¯´ çļĦ
åĳ¼ åºĶ
ub er
äºĮä¸ĸ çļĦ
åİ¿çļĦä¸Ģä¸ª äººåı£æĻ®æŁ¥æĮĩå®ļ
æĺŁæľŁ äºĶ
10æľĪ2 3æĹ¥
çŀ ©
3æľĪ2 8æĹ¥
åħĭèİ± å°Ķ
äºĮæĪĺ æľŁéĹ´
NBA éĢīç§Ģ
èĤĿ èĦı
å½°åĮĸ åİ¿
éĩĮç¨ĭ ç¢ĳ
éĶ¯ é½¿
å½ĵäºĭ äºº
å¤©æ°´ åĽ´
åİĦçĵľ å¤ļå°Ķ
çĶ²çĬ¶ èħº
) "
N H
V er
c an
Î º
çļĦ åŃĲ
çļĦ èĥ½éĩı
å¹´ åīį
ä¸º åįķ
ä¸º çĽ®æłĩ
ä¸Ń æ®µ
æĺ¯ å½ĵæĹ¶
æľī åħ¶
åĴĮ æĬĢæľ¯
ä»¥ åĲİçļĦ
æľ¬ ä½ĵ
åīį è¿°
æīĢ è¯´
è¿ĩ æķı
æĪĺ åľ°
å°Ĩ ä»ĸä»¬
éļ ¼
å¤ĸ è¡ĮæĺŁ
åĮĸ å¸Ĥ
ç§° å¸Ŀ
éĩį çİ°
æĶ¹ åĬ¨
åĲĳ åĲİ
äº¤ éĶĻ
çĥ ĺ
åħĪ åľ¨
èĲ¨ åĵĪ
åĭĴ åĨĪ
çĶ» å»Ĭ
åį« åĨĽ
çĮ ¬
å°Ħ çĤ®
é£Ł æĿĲ
å»ºçŃĳ é£İæł¼
åŁĥ æĿ¾
æĬĹ åİŁ
é¹ ĥ
ä¸ĢäºĽ äºº
åģļ è¿ĩ
åħ¨åĽ½ äººæ°ĳä»£è¡¨å¤§ä¼ļ
ç»Ĩ å·Ŀ
åºĹ éĵº
åĨ² ç§¯
èĩªçĶ± ä¸»ä¹ī
éŁ¦ æĸ¯çī¹
è¡ĮåĬ¨ åħļ
èĮĥåĽ´ å¤§èĩ´
å¥³åŃĲ åıĮæīĵ
æ±ĩ çİĩ
èĩªçĦ¶ ä¿ĿæĬ¤
ç´§ åĩĳ
ç¯ĩ è®ºæĸĩ
ç»ĵåĲĪ äºĨ
æŀĦæĪĲ äºĨ
åĲ¸å¼ķ åĬĽ
è¡° ç«Ń
ich ard
å®ģæ³¢ å¸Ĥ
å¤§çĲĨ çŁ³
Ro ad
çİĽæł¼ä¸½ çī¹
é©¬å£« éĿ©
åį¢è¥¿å®ī è¯º
) -
S o
T ime
çļĦ æľįåĬ¡
çļĦ è¡¨æ¼Ķ
è¯ ¡
ä¸Ń è§Ĩ
äºİ ä¸Ģ
åĴĮ æµ·
ç¬¬ 26
åıĬ æĸĩåĮĸ
å¸Ĥ æľīäººåı£
åįĹ åį¡ç½Ĺ
å¹³ éĿĻ
ç¾İ å°Ķ
å»º æ¨¡
éĹ´ è·Ŀ
ä¹Ł è¦ģ
è° ļ
åı£ åĳ³
é©¬ åı¯
å·ŀ ä¸º
ç§ĳ éĽ·åħ¹
åįİ è¾¾
ç»´ äº¬
è¯´ åĶ±
çĤ¹ æķ°
åŃĹ çļĦ
æ±Ł éĻµ
ç¥ŀ è®º
äº¬ åī§
åħī æ³½
åķĨ çĶ¨
åħµ éĥ¨å°ļä¹¦
la ce
æ¬§ æĭī
çĵ¦ çī¹
ä¿® è¾ŀ
é¦Ĩ éķ¿
æĺĵ äºİ
åĵ¥ æĸ¯è¾¾
æĥ³ èµ·
ä¹ĭéĹ´ æľī
çªģ åıĳ
æ¢ħ èĬ±
æ²¹ ç®±
èī¾ æ£®
éħ¸ æĢ§
çĶļ ä¹Ī
æĪª çĦ¶
ä¾µ è¢Ń
éĿĻ æŃ¢
ç´« èįĨ
èµĲ äºĪ
åĥ§ äºº
èĵ¬ åĭĥ
çĨĶ å²©
ç½¹ éļ¾
çĮ© çĮ©
çľģçļĦä¸Ģä¸ª æĹ§å¸Ĥéķĩ
ç¾ģ æĬ¼
è¾Ĺ è½¬
è¾Ľè¾ĽéĤ£ æıĲ
) )
H E
L IVE
c ar
çļĦ åĲĮæĹ¶
å¹ Ĥ
åľ¨ ä»»
ä¸Ń åĿľ
äºº è¡Į
æĺ¯ æĹł
æĹ¥ åŃĲ
ä¸į åħģè®¸
æ¸ ²
ç¬¬ 29
è¢« ç¾İåĽ½
æĮ ļ
è¿Ļ å¼łä¸ĵè¾ĳ
éĿ¢ ç²ī
éĿ¢ éĺĶ
èĩ³ 2018å¹´
åĨħ çĩĥ
ä¸ī éĹ´
åħ¥ ä½ı
å¸ĥ èµĸ
éĢļ åĳĬ
å¤© åı°
çº¦ 1
éĺ¿ åį¡
å±Ģ åī¯
ä¿¡ ä¼Ĺ
æ°Ķ åĳ³
çĻ½ èī²çļĦ
å¤į èĭı
åľ£ è®©
å§Ķåĳĺ éķ¿
éĽ· çī¹
å¢ŀ æ·»
è¯ķ åīĤ
ä¿Ħ ä¹Į
å¡ŀ å¥¥å¤ļ
é»Ħ æĹĹ
æķ´ æ²»
å¸Ń æ¬¡
éĿĴ æ£®
çĬ¶ åħĥ
èĢĥ åıĸ
éĻĲ éĩı
ä½İ çļĦ
è¯į æł¹
å±ŀäºİ æ¸©å¸¦
åĪ¶ä½ľ åĽ¢éĺŁ
å®« åĨħ
éģĹ éª¸
çļ® åĪĴèīĩ
èµ« åĭĴ
èµ« æ¢ħåĪ©
9æľĪ 18æĹ¥
è¡¥ éĢī
å¤º ä¸ĭ
èĮ¨ åł¡
å»ºè®¾ çļĦ
å°Ķæĸ¯ åŁº
è¾ħ ä½Ĳ
æ±ł çĶ°
æİĴåĲį ç¬¬ä¸Ģ
æ®ĭ å¥¥
ç»ķ è¿ĩ
æ®Ĭ èį£
10æľĪ2 8æĹ¥
æµ® æ¸¸
ä¸§ çĶŁ
å¿ĥçĲĨ åŃ¦å®¶
Al pha
ç¥Ī æ±Ĥ
äº¤çķĮ å¤Ħ
äººå¤§å¸¸å§Ķä¼ļ åī¯ä¸»ä»»
åºķæłĸ æĢ§
2 5å¹´
W ork
c es
n um
Ï ĥ
åľ¨ åľº
ä¸º 10
è¡ ®
å¤§ åŁİå¸Ĥ
ä¼ļ æīĢ
ä¸į è¾¾
ä¸į å·²
å®¶ çĶ¨
æ³ķ åĴĮ
åĪ° ç¾İåĽ½
åĪ° å¤Ħ
åıĬ åĳ¨è¾¹
è¢« å®³
åįĹ è¥¿
åĮĹ æĬķ
éĿ¢ è²Į
çŃī å¤ļä¸ª
å°ı å²Ľ
æķ° åĲį
ç§į åĲį
çº¿ ä¸ĬçļĦ
åı² æıĲ
å¥¥ çī¹
æĥħ çļĦ
æ´» åĬĽ
åĪ« åĲį
å¤ª è¿ĩ
åŃĹ åħ¸
æİ¨ å´ĩ
çĵ¦ çº³
çĪ± æ»ĭ
åįĥ ç¦§
å®¢ äºº
é»Ħ å¸Ŀ
è´Ł è½½
éĵ¶ å¸ģ
æīĢæľī æĿĥ
æ¢ħ ç«¹
æĢ»ç»Ł çļĦ
æľ« ä»£
åĸĦ èī¯
5æľĪ 8æĹ¥
æ³Ľ æĮĩ
å¿ł è´¤
åĪļ å¥½
éĢĬ å°¼
è¿ŀæİ¥ åĪ°
âĢĿ( ).
æŃ¦è£ħ åĬĽéĩı
åĪĽåĬŀ äºĨ
7æľĪ2 8æĹ¥
æĬ¥éģĵ ç§°
èĦĬ é«ĵ
å©Ĩ ç½ĹéĹ¨
ric h
Go od
éĩĮçº¦ çĥŃåĨħ
èľĹ çīĽ
1 äºº
2 æľĪ14æĹ¥
N E
l u
t ime
çļĦ è½¦ç«Ļ
åľ¨ èĭ±æł¼åħ°
ä¸Ń èİ·å¾ĹäºĨ
åĩº è¡Ģ
è¢« çº³åħ¥
åı¯ çĪ±
åĿ į
åĬł æ²Ļ
æĸĩ æķĻ
åĽł æ¶īå«Į
ç½Ĺ èĲ¨
å®ī ä¹Ĳ
æ¯Ķ åĸ»
æĢ» åħ¬åı¸
ä¸ŃåĽ½ äºº
æ°´ è´¨
è®® æ¡Ī
è®® ä¼ļè®®åĳĺ
å·´ æł¼è¾¾
äººåı£ åįł
æĦı çĶ²
åĽŀ åİ»
æĶ¿åºľ éĥ¨éĹ¨
åĽ½å®¶ é£ĵé£İä¸Ńå¿ĥ
ç¼ĸ éĺŁ
æĿİ çĻ»è¾ī
éĽ· å°Ħ
åĬ© æķĻ
å¾Ī é«ĺ
æĸ½ çī¹æĭī
é±¼ çļĦ
ä»ħ èĥ½
ä»ħ æľīçļĦ
é¡¿ çļĦ
åŃ¦æł¡ åĴĮ
å½Ĵ éĻĦ
æ³½ æ°ĳ
èīºæľ¯ ä¸İ
7æľĪ 10æĹ¥
éĥİ ä¸Ń
å®īåħ¨ çļĦ
å®ª å®Ĺ
çĶ³ ç§ĳ
éĤ» åĽ½
èĨ º
189 7å¹´
190 3å¹´
9æĹ¥ èĩ³
ç½ĳç«Ļ çļĦ
çļĦåīį æıĲ
æģĴæĺŁ çļĦ
åı¬å¼Ģ çļĦ
400 ç±³
åģ· åģ·
æľīæĹ¶ ä¼ļ
è®°å¿Ĩ ä½ĵ
é¢ģåıĳ çļĦ
pr ess
åħĳ æį¢
æİĢ èµ·
éĻĽ ä¸ĭ
æľīéĻĲè´£ä»» åħ¬åı¸
A 2
v ol
w ood
çļĦ æĦŁè§ī
å® ¸
åĴĮ S
æŃ ª
è½ Ń
ä¸į å¥½
ä¸į éĢĤåĲĪ
åĲį å¹³æ°ĳ
çĶ¨ åĪ°
å¸Ĥ éĥĬ
è¿Ļ ä¸¤ç§į
æľĢ çŁŃ
æĸĩ æĺĮ
ä¸ī åįģäºĮ
ä½ĵ éķ¿
ä½¿ å¾Ĵ
æģ ³
ä¸¤ ç»Ħ
éĢī ä¾¯
å£« æ¯Ķäºļ
éĥ½ æĽ¾
è®¡ éĩı
åıĤ åĨĽ
äº¤ ä»£
å®ŀ è¯ģ
æīĭ ç»Ń
åįķ å¼ıæľĪåı°
éĽĨ è£ħç®±
å²Ľ æĺ¯
é¢ĺ çĽ®
ç½ĳ çĲĥåľº
åľ£ ä¹Ķæ²»
åįĬ åľº
éĹ®é¢ĺ èĢĮ
è¿Ľåħ¥ åĩĨåĨ³èµĽ
ç¬¬ä¸ī åĲį
èİ« éĩĮæĸ¯
st r
4æľĪ 6æĹ¥
11æľĪ 11æĹ¥
éª¨ æĬĺ
å®½ éĺĶ
4æĹ¥ èĩ³
çİ¯å¢ĥ ä¸Ń
èµĽåŃ£ çļĦ
é£ŀæľº çļĦ
åĤ¨ éĩı
è§£åĨ³ äºĨ
åĪĿæľŁ çļĦ
ä¼Ĭæĸ¯åħ° åĽ½
äºİ197 7å¹´
æĭĵ å®½
äºİ194 7å¹´
ç§¯æŀģ åıĤä¸İ
æĭīä¸ģ åŃĹæ¯į
é¸¿ ç«ł
èĬĴ æŀľ
ä¸ĩåİĨ åĽĽ
åĲı éĥ¨å°ļä¹¦
Te le
åī§ä¸Ń é¥°æ¼Ķ
åŁİéĻħ éĵģè·¯
è¡Ļ éĹ¨
ç§ĳç½Ĺæĭīå¤ļ å·ŀ
æ¶© è°·
ä¼ºæľį åĻ¨
æ¸² æŁĵ
H all
L GBT
T im
çļĦ åĨĽ
çļĦ æĪĺäºī
çļĦ çĶŁçī©
å¹´ å°ĳ
ä¸Ń èĭ±
ä¸Ń æ²¡æľī
äºĨ ç¾İåĽ½
åĩº æµ·
è¥¿ å¥¥
ä¸ĭ åı°
éķ¿ ä¹Ĳ
ç¾İ æĸ¹
æīĢ çĶ¨çļĦ
éģĵ å°Ķ
æĪĺ çģ«
è° Ĵ
åħ± è®¾
æĢ§ æ¬²
ç§ĳ æĸ¯
ç«Ļ çĤ¹
åŁİ éĤ¦
åįİ å±±
èĳ «
æ¸¯ å¸ģ
äº¤ æİ¥
èĮ ī
æĶ¿åºľ å¯¹
æĶ¿åºľ å®ĺåĳĺ
å®ĺ éĤ¸
åĨį ä¹Ł
åº§ çļĦä¸Ģé¢Ĺ
æ±Ĥ åŃ¦
çĶµå½± åŃ¦éĻ¢
è¯º æ£®
å¯Ł åĵĪå°Ķ
ç¥¨ çļĦ
ç´¢ å¤«
æ¸© å®¤
æĬĹ çĶŁç´ł
am a
çªģ åĩºçļĦ
æľĢåĲİ ä¸Ģä½į
åĢ¼ ä¸º
èĥĮ åĲİçļĦ
çŁŃ çŁŃ
èīºæľ¯ åįļçī©é¦Ĩ
æĺ¯ä¸Ģ æīĢ
8æľĪ 8æĹ¥
æĻĭ åĽ½
5æľĪ 10æĹ¥
åĮºåŁŁ æĢ§çļĦ
çĬ¯ ä¸ĭ
çİī ç¥¥
åĪĬ è½½
æľĢåĪĿ çĶ±
ç§Ł çĶ¨
èİİ å£«æ¯Ķäºļ
æĪªèĩ³ 2025å¹´
ç£ģ éĵģ
ä¸² èģĶ
äºİ195 0å¹´
ers on
åİ¨ å¸Ī
IG N
å¸¸ä½ı äººåı£ä¸º
å¾·å·Ŀ å®¶åº·
æ®¿è¯ķ çĻ»è¿Ľå£«
GN U
å²ģåıĬ ä»¥ä¸Ĭ
Produ ction
4 ä¸ĩ
A çº§
D el
F F
O M
T er
c is
i la
m it
å¹´ åı·
ä¸º ä¹ĭ
ä¸Ń æŀ¢
åĴĮ çİĭ
äºĨ ä¸İ
äºĨ çº¦
ä¸Ĭ ä¸ĩ
ä¸į åģľ
ä¹ĭ å¦»
è¥¿ æĻĭ
æ³ķ ä¼¦
å¤ļ ç½Ĺ
èĩª ç«ĭ
åįĹ å®ī
ä¸ī æĮ¯
èµĽ åĪ¶
å°Ĩ èĩªå·±
çľģ çķ¥
ç±³ æł¼
åİ¿ å§Ķä¹¦è®°
éĥ½ æĮĩæĮ¥
éĺ¿ çī¹
åĽĽ æĿ¡
äº§ åįµ
æĶ¹ éļ¶
æŀĹ åľ°
æĬ¥ ä»ĩ
éĢł è®¿
åľ°åĮº åĴĮ
ç¿ ĺ
ç¬¬ä¸Ģ ç§į
å¯Ĩ å°Ķ
å¼º åĬĽ
åħŃ è§Ĵ
å®Ĺ ç¥ł
åįĩ åħ¥
ä¹Į æĸ¯å¡Ķ
ä½ľä¸º åħ¶
åıĮ è¯Ń
çº¢ èī²çļĦ
æī¹ åıĳ
æµĭ å¾Ĺ
ç²¾ ç»Ĩ
ä¸½ åħ¹
ä¹ĺ éĻį
æĸ¯çī¹ éĩĮ
12æľĪ 18æĹ¥
å¸ķ æĸ¯
24 ä¸ª
10æľĪ 30æĹ¥
100 åħ¬å°º
åºŁ é»ľ
èģĮä¸ļ èģĶèµĽ
èĤ¯ çī¹
æľĿé²ľ çİĭæľĿ
èµı èµĲ
In f
çķª ç¦º
ä¸ĭåįĪ 4
6æľĪ2 5æĹ¥
5æľĪ2 5æĹ¥
çĶŁæĢģ ç³»ç»Ł
äºİ193 9å¹´
Sp ort
åĲŀ åĲĲ
å®´ ä¼ļ
åľ°äºļ åĵ¥
çºł æŃ£
å½Ĵç±» äºİ
24å°ıæĹ¶ åĨħ
å®ĩå¤ļçĶ° åħī
ç¥ŀå¥Ī å·Ŀåİ¿
Lif e
åı²åħĭ å¨ģå°Ķ
3 æľĪ15æĹ¥
P at
â ĸ
çļĦ è½¬
çļĦ çĶ·åŃĲ
çļĦ æī¹è¯Ħ
çļĦ æľĭåıĭ
åı ¡
åľ¨ å¥¹
åľ¨ èģĮ
åľ¨ è¿ĻäºĽ
åıĳ å£°
èĥ ¥
æĿ¥ è¡¨ç¤º
éķ¿ å¥³
åı¯ æĥľ
äºļ ç»Ĩ
èĥ½ åĲ¦
åħ± é¸£
å¤© å®Ŀ
èģĶ æį·
çĤ Ģ
å½± éĻ¢
åĢ ¦
å¨ ´
æĹł æĿ¡ä»¶
éĶ °
çķĮ åĪ«
æ· Ħ
æł¡ è®Ń
çĭ ł
æĶ¯ å®īæīĵ
ä¸ĵ é¡¹
åĸ ĥ
éĻĨ çĶŁ
æŃ¦ å¨ģ
åĵĪ æ¡ĳ
çĶ· åįķ
åį« åħµ
çª ľ
èħ »
èĭ±åĽ½ äºº
å£° æ¯į
æ·± å±Ĥ
ä»į æĹ§
ä½ı æĮģ
æİ§ æĸ¹
æµĭ éªĮ
æķĻèĤ² åĴĮ
æķĻèĤ² åŃ¦éĻ¢
éŁ© è¯Ń
ç²¾ èĩ´
he d
ç¤¼ éĥ¨å°ļä¹¦
éĢļå¸¸ ä¸º
et y
äºĨä¸Ģ éĥ¨
å·® çļĦ
3æľĪ 11æĹ¥
ç½Ĺé©¬ äºº
è¯¯ å¯¼
è¿· å®«
ç»Łæ²» æĹ¶æľŁ
æľĪåı° å¹ķ
ç¬¬äºĶ å±Ĭ
ä»Ļ åı°
çī§ é¦ĸ
æĹģ çĻ½
å°ĸ éĶĲ
æŃ¦è£ħ åĪĨåŃĲ
2æľĪ2 8æĹ¥
äººå·¥ æĻºèĥ½
åįİçĽĽé¡¿ å·ŀ
å¸Ĥä¸Ńå¿ĥ çļĦ
èĪŁ å±±
ä¸Ĭä¸ĭ è¡Į
èĤł éģĵ
å§ĭå»º äºİ19
ä¸ĭå±ŀ çļĦä¸Ģåº§
æ¡Į éĿ¢
æ¢µ èĴĤ
åĿĲèĲ½ åľ¨
è´¦ æĪ·
èł ¢
æ¦Ĩ æŀĹ
æ³ķåħ°è¥¿å²Ľ å¤§åĮº
3 äºº
U b
Ï Ģ
ä¸Ģ æĪĺ
ä¸Ģ å¾ĭ
ä¸Ń æıĲåĪ°
æĺ¯ ä»ĸçļĦ
åĴĮ M
æĭ Ļ
ä¸į ä¸Ĭ
åĮº ä½įäºİ
èĢĮ å¼Ĥ
åĲĮ æľĪ
åĬ¨ ä¹±
ä¸ľ éģĵ
æŃ¤ åī§
å°ı æŀĹ
æ¯Ķ åħ¶ä»ĸ
æł¼ å°¼
æł¼ æ´Ľ
å½± åŃĲ
è®® ç¨ĭ
éķĩ æ±Ł
å¨ ±
æĽ¾ èİ·
åį¡ è¥¿
an i
è¿Ľè¡Į è¿ĩ
èĭı è½¼
æĶ¾ å®½
åĪĿ ä»£
en se
ä¿Ħ åįł
æĶ» åĿļ
æ²Ļ æīĺ
30 ä¸ª
éĺ² èĮĥ
èĪ° ä½ĵ
åįĬ èĩªåĬ¨
åįł çĶ¨
æİ§ åĳĬ
æĻ¯ è±¡
åĨľ äº§åĵģ
ä¾¿ å¼Ģå§ĭ
æľĢç»Ī ä»¥
èĪ¹ ä½ĵ
æľįåĬ¡ äºİ
çļ® çī¹
èµ« éĩĮ
æ²¹ çĶ°
æĢ»ç»Ł å¤§éĢī
25 6
3æľĪ 10æĹ¥
3æľĪ 18æĹ¥
é¦ĸæ¬¡ ä»£è¡¨
è¡¥ ä¹ł
åĸľ å¥½
åĩ¯ æģ©
21 ä¸ª
å¹ķ åĥļ
èĢ³ æľµ
æľĢåĪĿ æĺ¯
ä»ĺ æ¬¾
å¹¶ä¸į èĥ½
æµĻæ±Ł ä¹¡è¯ķ
ä¸īåįģ äºĶ
188 5å¹´
æ³³ ä¸ī
12æľĪ2 6æĹ¥
äºİ194 3å¹´
äºİ194 6å¹´
An im
äºİ195 2å¹´
æ··åĲĪ åıĮæīĵ
çļĦæĶ¯æĮģ èĢħ
é¼İ çĽĽ
å·´å°Ķ å¹²
åĩºåĶ® ç»Ļ
ç¨Ģ æľī
ä¾ĭåŃĲ æĺ¯
çĳľ ä¼½
çľŁäºº ç§Ģ
Sm ith
row n
å¡ŀçĲī åı¤
è¤Ĵè´¬ ä¸įä¸Ģ
5 0å¹´
D irect
ð ª
çļĦ åĲį
ãĢģ âĢľ
åŃ Ģ
æĹ¶ ä¸İ
æĪĲ åĲį
çĲ Ĳ
æĸ¯ åłª
åħ¬ æĬ¥
è¥¿ è¾¹
èĢĮ ä»£ä¹ĭ
è· »
è· ĸ
çī¹ éģ£
èĩª å¼º
åįĹ å±±
æĸ° è®¾
ç¾İ éĩĳ
ä¹Ł éĹ¨
å°Ĩ ä¸İ
æĭī ç±³
æķĻ è®Ń
èĲ ¼
æ¬¡ ä¼ļè®®
æĦ §
é©¬ è½¦
åİŁ æĸĩ
èµ· çĶ¨
æŃ£ éĿ¢çļĦ
é¦ĸ é£ŀ
ä»¬ åľ¨
åıĤ æĭľ
ç»´ çº³
è¿ĺ è®¾æľī
an o
é¦Ļ å±±
åĽ¾ æĸ¯
åı¯ä»¥ çĶ¨æĿ¥
æ´¾ åı°
å¼º åĬ²
åĿĩ æľª
åįĩ ç©º
èİ± å§Ĩ
æİĴ ä½į
ç¾¤ ä½ĵçļĦ
è®¾è®¡ ä¸İ
ä¸įåĲĮ çļĦæĺ¯
æ¥¼ éĿ¢
å© º
ç²¾ å¿ĥ
åį°åº¦ æĶ¿åºľ
ä¼ĺ éĽħ
ä¹Įåħĭåħ° æŃ¦è£ħéĥ¨éĺŁ
å¾® ç¬ĳ
1æľĪ 20æĹ¥
4æľĪ èĩ³
4æľĪ 18æĹ¥
ed ia
7æĹ¥ èĩ³
åĢŁ éī´
4æĹ¥ åľ¨
èµµ åĽ½
åĩ¤ ç¿Ķ
9æľĪ2 3æĹ¥
éĥ½ä¼ļ åĮº
3æľĪ2 5æĹ¥
äºİ197 1å¹´
ç±³çļĦ åľ°åĮº
æıĴ åĽ¾
å¤§è¥¿æ´ĭ åį¢çĵ¦å°Ķ
äºİ196 6å¹´
åħīç»ª ä¸īåįģ
æĤ¬ å´ĸ
çĸ«æĥħ éĺ²æİ§
æ¶Į åħ¥
ç¼´ èİ·
è½¬ä¼ļ èĩ³
åĤ¬åĮĸ åīĤ
æ°ĳçĶ¨ èĪªç©º
Comp any
åĲĪéĢĤ çļĦ
Ass oci
æ³¢ç¾İæĭī å°¼äºļ
ç¾İåĪ© åĿļ
éĩĮçº¦çĥŃåĨħ åį¢
B 2
V ideo
çļĦ æĮĩæĮ¥
çļĦ è´¢æĶ¿
ä¸º æł¸å¿ĥ
åĽ½ åĲĽ
æĺ¯ éĿŀå¸¸
äºİ ä¸ŃåĽ½
æľī 4
åĴĮ å¤ĸ
æĹ¥ èµ·
æĹ¶ è®¾ç½®çļĦ
åľ° å§Ķ
ä¼ļ æĬĬ
æĪĲ ä¹¦
ä¸Ĭ è¡¨
ä¸į ç¬¦
åħ¬ åºĻ
åĨĽ åĮ»
å¯¹ ä¸Ĭ
å¯¹ è¿ĻäºĽ
èĩª åıĳ
é«ĺ éĺ¶
å»º çī©
å¸ĥ åĭĴ
å¤© é¡º
10 æľĪ15æĹ¥
æ²» ä»Ĭ
è¾¾ èį·
çº¦ 15
æıĲ å°Ķ
éĺ¿ ä»Ļå¥´
åĪĻ åı¯
éĴ ¼
åºĶ åĬĽ
å±ķ åİħ
è¿ĺ æľª
çº³ è¾¾
æ±Ł åĮĹ
åħī åº¦
å¾Ģ åįĹ
æīĵ åĲ¡
æŀľ æķ¢
åĨį åĬłä¸Ĭ
çĶ· æŃĮæīĭ
ç¬¬äºĮ æľŁ
æĶ¿æ²» åŃ¦
åĩĨ åĻ¶å°Ķ
è§ģ è§£
å·¥ä½ľ ç»Ħ
çģ« çĥ§
æĦŁ åĬ¨
éħį å±ŀ
åıĳå±ķ åĴĮ
åįł æĢ»äººåı£
è´Ŀ çī¹
ä¾¿ äºİ
éģĹ å¿ĺ
éĩİ å¤ĸ
é³ Ĳ
æ¬§æ´² åĨłåĨĽèģĶèµĽ
èīºæľ¯ çļĦ
ä»ĭ è´¨
ol o
å¾® åŀĭ
è´§ æŁľ
è®¨ åİĮ
å±ħæ°ĳ çļĦ
åĨ° åİŁ
æĹĭ åį³
åıĺåĮĸ çļĦ
çĬ¹ è±«
è£Ĥ åıĺ
åĲķ å®ĭ
op er
ap e
çĨĬ æľ¬
çº· äºī
æĪĴ å¤ĩ
å¸ĥé²ģ æĸ¯
An g
å¤ļå¹´ çĶŁ
çŃ¾è®¢ äºĨ
)ãĢģãĢĬ ãĢĭ(
æ²³çļĦ åı³
åĬ² çĪĨ
ç¼Ĩ è½¦
Ma x
å¯Ĩè¥¿è¥¿æ¯Ķ å·ŀ
åŃµ åĮĸ
å¤įæĹ¦ å¤§åŃ¦
æ¢µèĴĤ åĨĪ
) ãĢĭ
4 æľĪ15æĹ¥
5 50
S w
åľ¨ æīĢæľī
ä¸Ń çĶ²
æľī å®³
åĲİ éĩĳ
è¾ Ļ
ä¸Ĭ æĿī
æ°ĳ è°£
æľĢ åĸľæ¬¢
æĸĩ æŃ¦
ä¸ī åĪĨä¹ĭäºĮ
æĭī èµ«
æ¬¡ æĺ¯
éĢļ åĪ¤
10 åĲį
å¥³ æĿĥ
ç»´ åĭĴ
ç»ĵ æł¸
èº º
çĻ½ çŁ³
çĻ½ æĹĹ
åħŃ ä¸ªæľĪ
åĵĪ è¾¾
çĵ¦ åĪ©
çĪ± ä¸Ĭ
ä¹Į åĨĽ
é»Ħ èľĤ
èĲ½ åľ°
èĲ½ éĢī
ä½İ è°ĥ
åĵ¥ åĲīæĭī
ç²¾ éĶĲ
ä¾Ŀ éĻĦ
çĶ¨äºİ æ²»çĸĹ
7æľĪ 11æĹ¥
æ²ĥ ä¼¦
è¿½ å°ģ
10æľĪ 20æĹ¥
èģĶèµĽ ä¸Ń
æ·· æĪĲ
æĮĩæĮ¥ çļĦ
ä¿±ä¹Ĳéĥ¨ çļĦ
çĬ¹ ä»ĸ
ç¾İæ´² åİŁä½ıæ°ĳ
æĽ¹ éŃı
ç´« å¤ĸ
è¥¿æĸ¹ åĽ½å®¶
æľ¬ç«Ļ ä¸º
åį¢çĵ¦å°Ķ æ²³åľ°åĮº
åĲįä¹ī ä¸Ĭ
184 8å¹´
å®ļå±ħ çĤ¹
çľŁå®ŀ çļĦ
çļĦå¤ĸ è§Ĥ
ç° ĩ
æĵħ èĩª
çĢ ļ
åħ¨ä½ĵ ä¼ļè®®
åį¢çĵ¦ éĽ·
æĸ°ä¸Ģ ä»£
ç«ĸ ç«ĭ
èŃ¦åĬ¡ å¤Ħ
ä¼łæŁĵ çĹħ
åħĥèĢģ éĻ¢
æĺ¾å¾® éķľ
èĳ« èĬ¦
N a
çļĦ æĪĺç»©
åľ¨ ç¬¬
ä¸Ń åı¤
äºº æľī
äºİ 2026å¹´
èĩ ¼
ä¸į æĦ¿æĦı
åĪĨ ä¸ī
å¯¹ å²¸
å¤ļ ç±³
ä»» ä¸º
æĸ° åĽĽåĨĽ
æĻ ¦
ä¸ľ éĹ¨
åĨħ å¸ĥæĭīæĸ¯
ä¹Ł åıĹåĪ°
æĭī è¶Ĭ
åı£ è¢ĭ
çľģ ç«ĭ
éĺŁ åıĤåĬł
éĵ ¬
åħ¨ èµĦ
æĢ» å·¥ä¼ļ
èµ· æĿ¥çļĦ
çİĭ å»º
å¥³ æİĴ
è°ĥ èĩ³
æīĵ åİĭ
åº§ æłĩ
é¥ µ
çª ¥
çº¢ æĺŁ
ä»į ä»¥
æĿĢ æĪ®
åºĵ æĸ¯
mu s
æ°¸ æĺĮ
çĶŁæ´» åĴĮ
çĨ ı
åĩı ä½İ
åĽ½æ°ĳ å°ıåŃ¦
æĿ¯ çļĦ
ç»§ç»Ń æĭħä»»
æ¿Ģ æĪĺ
è°Ī åĪ°
ur es
ä¿Ĺ åĲį
ation s
åľ°çĲĥ çī©çĲĨ
æĬķåħ¥ æľįåĬ¡
äºİ198 0å¹´
5æľĪ2 8æĹ¥
è´Ńä¹° äºĨ
ç¥ŀç»ı ç³»ç»Ł
2æľĪ2 5æĹ¥
æĺİæ²» ç»´æĸ°
åĵ¥ä¼¦ å¸ĥ
éĢļè®¯ ç¤¾
ä¿®å»º äºĨ
åİŁåŃĲ å¼¹
åħ¬äº¤ çº¿è·¯
åħ¨æĹ¥ åĪ¶
èįĶ æŀĿ
å®ĪéĹ¨ åĳĺ
èµ«æ¢ħåĪ© å°¼èĮ¨åŁº
9 æľĪ22æĹ¥
T w
çļĦ å£«
çļĦ éĻĲåĪ¶
åľ¨ åĮĹç¾İ
ä¸Ń å²Ľ
åĽ½ æ³°
å¤§ ä¸Ń
åĴĮ å£°
èĩ »
ä¼ļ çĶ±
ä¸į ç®¡
åĪĨ ç«Ļ
ç¾ ²
èĩª åı¤
å¾· æ¸©
201 0å¹´ä»£
çŃī æĸ¹å¼ı
éģĵ çĽĳå¯Łå¾¡åı²
æľº çĶµ
å¤ĸ äºĭ
å®ļ ç½ª
å¤© çĶŁ
çº¿ åıĬ
å®ī æħ°
æ°´ æµģ
çİĭ åĨł
ç¾İåĽ½ äºº
12 åĲį
ç»´ åº¦
çĽ´ èĲ½
éª ł
å®ĺ çļĦ
é¦Ļ æ§Ł
æĶ¶ æķĽ
æ°Ķ çļĦ
åĸ ĺ
åľ£ é©¬åĬĽè¯º
ä¿® ä¾ĭ
æ±ī åŁİ
åįļ å®¢
ä¹Į åħ°
éĿĴ é¾Ļ
14 å²ģ
çķĻ è¨Ģ
æľ¨ è´¨
ç»ıæµİ çļĦ
è¿ľ ç«¯
èĪ¹ åĿŀ
ro ss
ä¼ĺ è¶Ĭ
èĩªçĶ± è´¸æĺĵ
èĩªçĶ± æ°ĳä¸»åħļ
éĽħ åĬł
7æľĪ 12æĹ¥
èĤ¡ ä»·
èĥ¡ å¿Ĺæĺİ
åľĨ çİ¯
ãģ į
åĲ¸ åħ¥
åĮ¹ åħ¹åł¡
è®¢ ç«ĭ
è¿Ļä¸Ģ çĤ¹
åģı è¿ľ
å¹¿æĴŃ çĶµè§Ĩåı°
od y
ç¬¬åħŃ å±Ĭ
ç¼ĵ åĴĮ
éĺ¿æĭīä¼¯ äºº
å±ı éļľ
äºİ197 4å¹´
æĻ®éģį è®¤ä¸º
11æľĪ2 8æĹ¥
äºİ195 5å¹´
æ»ļ çŁ³
ä¿ĥè¿Ľ äºĨ
ç¬¬äºĮæ¬¡ä¸ĸçķĮå¤§æĪĺ æľŁéĹ´
19ä¸ĸçºª æľ«
è®¤è¯Ĩ åĪ°
ä¼½ ç½Ĺ
çļĦåĽ½éĻħ èµĽäºĭ
å¯Įå£« çĶµè§Ĩåı°
å¼ĹåĲī å°¼äºļå·ŀ
è¿½éļı èĢħ
ä¸ĢåĽ½ ä¸¤åĪ¶
Colle ge
æİ¸ éĤ¦
ä¹ĥæľ¨ åĿĤ46
Viu TV
å¾·å¡ŀ å¤«åĭĴ
2 15
O W
S witch
u a
y a
çļĦ åĪĽä½ľ
çļĦ åħĥç´ł
çļĦ å¦¹å¦¹
åľ¨ ä¸į
çĽ ¼
ä»¥ èĩ³
è¡Į äºĭ
ä»ĸ ä»İ
ä¸į åĸľæ¬¢
åĮº æ®µ
çĶŁ åŃĲ
å¤ļ ç¦Ħ
åĬł æ·±
æľĢ å¹´è½»çļĦ
ä¸ľ å±±
èĩ³ 2013å¹´
ä¸ī ä¸Ģ
çĶµ ç«Ļ
çŃī åħ¶ä»ĸ
è½¦ æ¬¾
è¯¥ éķĩ
éļ į
åºľ åİ¿
é¦ĸ è¦ģ
æ¼Ķ åıĺä¸º
å·´ ä¼¦
åıĹ çĽĬ
ä¿Ŀ éĢģ
éĴ Ľ
å·² æĺ¯
æĺŁ æĺŁ
å¥¹ è¿ĺ
è®º çĤ¹
è¿ĳ è·Ŀç¦»
è¿ĳ éĥĬ
é£İ è²Į
é¦Ļæ¸¯ ä¸Ńæĸĩå¤§åŃ¦
äºī ç«¯
ä¿® å£«
çĶ±äºİ åħ¶
å®¢ éĩı
èĲ½ äºİ
åįł äºĨ
æľĢç»Ī è¢«
é¹ ĺ
æ°¸ å®ļ
æ¬¾ æ¸¸æĪı
çģµ éķ¿
9æľĪ 9æĹ¥
å½¢æĪĲ ä¸Ģä¸ª
éĶ¦ æ¶Ľ
ä½© éĽ·
ä½ĵèĤ² ä¸Ńå¿ĥ
åħ¬åħ± è¿Ĳè¾ĵ
è¿İ å¨¶
çĶº æĿĳ
çº¸ å¼ł
èŃ¦å¯Ł éĥ¨éĺŁ
äºİ194 0å¹´
äºİ196 2å¹´
åıĳåĶ® çļĦ
çīµ æ¶ī
ä»£è¡¨åĽ¢ æĺ¯
ç²Ĺ ç³Ļ
åĬ« æĮģ
çłĤ æĭīè¶Ĭ
èŀįåĲĪ äºĨ
pt r
ä¸ĭåįĬ åľº
åĵĪåĪ© æ³¢çī¹
åĽ½å®ī æ³ķ
åį¢çĵ¦å°Ķæ²³åľ°åĮº å¤§åĮº
3 10
5 èĩ³
X å°Ħçº¿
çļĦ è¿ĲåĬ¨
å® ķ
å¹´ èĢģ
ä¸º çİĭ
ä¸º éħįåĲĪ
ä¸Ģ çĲĥ
ä¸Ģ æĬĬ
ä¸Ģ å¤ľ
åĴĮ 2
åĴĮ äºĮ
æĹ¶ å¹´
æĹ¶ äºĭ
åľ° è¢«
ä¸Ĭ è¡Ĺ
èĢĮ äº§çĶŁ
çī¹ é¦ĸ
æĸ° åºĦ
åĪ© å¥ĩ
åīį ç«¯
é©¬ ä¸»
èĤ ´
ç§ĳ æ´Ľ
å®ī èĮ¹
æĢ» éĩı
åİ¿ å¢ĥåĨħ
åŁº åº§
æ°´ çĶŁ
çİĭ åħ¬
æıĲ éĢŁ
åħĥ å®µ
ç»ĵ æĪĲ
ä¼Ĭ è¿ª
ç¼ĸ æĴ°
åĸ Ĩ
å¤´ çŃī
å¤´ åı·
åħĪ ç¥ĸ
çłĶç©¶ åıĳçİ°
åĨį è½¬
æ¬§ åĨł
å¥ĸ å¾Ĺä¸»
å·¥ä½ľ å§Ķåĳĺä¼ļ
è¯ķ æĴŃ
æ¯į åħ¬åı¸
è¿ª çº³
å´ Ń
åĪĹè½¦ åľ¨
éĺ¶ æ¢¯
8æľĪ 19æĹ¥
6æľĪ 20æĹ¥
6æľĪ 10æĹ¥
6æľĪ 12æĹ¥
ä½© åĭĴ
çĤ¸ æ¯ģ
ä¹Ķ çº³
ä¸Ńåįİæ°ĳåĽ½ æĢ»ç»Ł
èĩªçĦ¶ èµĦæºĲ
æĮģç»Ń äºĨ
èķ Ļ
ç¥Ń æĭľ
äººä»¬ çļĦ
ag ue
çŃ¹ åĬŀ
é¹¿ æ¸¯
æ®ĸæ°ĳ åľ°çļĦ
æµħ æ°´
åľ¨199 7å¹´
åĸ· æ°Ķ
åľ°çĲĨ ä½įç½®
èĤĸ æĪĺ
å·« ç»Ł
å·ŀåºľ çŁ¥åºľ
åĬ« æİł
Le e
ä¸ĩåħĥ äººæ°ĳå¸ģ
ð« Ľ
èµ£ è¯Ń
æµİåįĹ å¸Ĥ
ä¹Įåħ¹åĪ«åħĭ æĸ¯åĿ¦
åħīç¦Ħ å¤§å¤«
å¤ļå§Ĩ å±±
çĤĢ å¸Ŀ
" :
1 çļĦ
G ala
S oci
V is
c le
çļĦ èµ·æºĲ
å¤ Ķ
åĽ ±
åľ¨ æĶ¿æ²»
åľ¨ 2001å¹´
ä¸º æķ°
ç§ ½
æĹ¥ åħĥ
åĲİ ç¼Ģ
åľ° çĽĺ
åŃ¦ åĲį
ä¸Ĭ è¿Ľè¡Į
ä¸İ éĩĳ
ä¸İ åĲ¦
ä¸İ åħ¶å®ĥ
åĩº ç¤º
ä¹ĭ äºº
ç¬¬ 28
æĶ¿ å±Ģ
æĶ¿ å®¢
åĲĮ äºº
åŃĲ åľ¨
åīį åį«
é«ĺ æ£ī
æµ· ä¼¦
æµ· å¾·éĩĮå¸Į
èĩ³ 2023å¹´
èĩ³ 2012å¹´
è¯¥ å²Ľ
ä¸ĸ å®¶
æĢ§ æ°ĶåĢĻ
å¤© åħĶ
èģĶ è£ħ
ä¸¤ å¹¿
10 æľĪ16æĹ¥
åİ¿ å¤§
åİ¿ äººæ°ĳæĶ¿åºľ
çĽ¸ è·Ŀ
æł¼ ç½Ĺå¤«
åĽĽ çĻ¾
éķĩ æµ·
åı¤ å¢ĵ
å²Ľ æ´¥
å¼Ģå§ĭ ä¸İ
ä¾ĭ ç¡®è¯ĬçĹħä¾ĭ
åħĪ å¤´
æ³ķåĽ½ å·´é»İ
åĲī çĶ°
å£° åĲį
çĻ¾ åĪĨä¹ĭ
åŁĥ åħĭ
æĸĩåĮĸ èµĦäº§
åºĵ å®¹
ç´ł è´¨
ä¸´ ç»Ī
ç¬¬ä¸ī æĸ¹
èİ« åĵĪ
å¯Į å°Ķ
ion al
9æľĪ 19æĹ¥
11æľĪ 5æĹ¥
11æľĪ 3æĹ¥
çĬ¯ äºº
åĽ¢ä½ĵ çļĦ
è¿· å¤±
éĢĲæ¸Ĳ è¢«
çĲ´ ç§ĳ
åıĳå°Ħ ç®¡
è®¾å¤ĩ çļĦ
è¯ŀ è¾°
Re g
æĭīä¸ģ æĸĩ
åģ¿ è¿ĺ
éĢ¼ è¿«
1åı· æľĪåı°
con t
æĸ© æĿĢ
æ¸ł éģĵ
è¿ģç§» åĪ°
è¿ģç§» èĩ³
æĢİ æł·
èŃ¬ å¦Ĥ
å¡ĶåĲī åħĭ
æ³¢èĮ¨ åĿ¦
! ãĢĭ
5 ä¸ĩ
9 æľĪ17æĹ¥
D OS
I O
I m
J ack
T un
v is
y r
ð ©
åľ¨ èĭıèģĶ
æĺ¯ è¦ģ
å¤§ æµ·
éĿ ³
éĥ¨ ä¸º
åī ĥ
ä¸į èĤ¯
å¯¹ æİ¥
çī¹ åħĭ
é© ¸
å»º äºİ19
å»º æĿĲ
çİ° çĬ¶
å¤ĸ è²Į
å±± çĶ°
å°ı èģĶçĽŁ
å¤© å®«
å®ī åĢį
10 æľĪ21æĹ¥
èį ¥
çĽ´ éĢī
æĮģ æľīçļĦ
åĽŀ æĹĭ
11 æľĪ15æĹ¥
åĩ» çł´
åĲĦ åĽ½çļĦ
å¤ª åĤħ
åĨ³ æĸĹ
é¾Ļ ä¸İ
äººæ°ĳ åħ¬ç¤¾
ä¸ĸçķĮ éĶ¦æłĩèµĽ
åĲī åįľ
çģ« èį¯
at ic
æ¥¼ å±Ĥ
åºĵ åŃĺ
éĢĢ åĮĸ
æĹ§ çļĦ
åĪĺ æĺĵ
è¶³çĲĥ ä¼ļ
ro l
éº¦ å½ĵ
æĬĢæľ¯ åĴĮ
å¯º å°ĳåį¿
èī¾ å°¼åħĭæĸ¯
é¡¶ çº§èģĶèµĽ
ou d
æķ£ å°Ħ
ç£ Ĭ
ä»»ä½ķ äºº
æµ·åĨĽ ä¸Ĭå°Ĩ
4æľĪ 10æĹ¥
éĢĤ éĢ¢
èµĦæĸĻ åºĵ
çĸĳ èĻĳ
èİī èİī
ent s
å¥ı æĽ²
æ½ľ èĪ°
åı¸ä»¤ å®ĺ
ä¸īåįģ åħ«
ç¬¬ä¸ĥ æ¬¡
æĸ°å¢ŀ ç¡®è¯Ĭ
ç¥Ŀ ç¦ı
äºİ196 7å¹´
åı°åįĹ åİ¿
åģ· è¢Ń
ç²Ĺ ä½ĵåŃĹ
æĬĵ èİ·
åįķçĭ¬ çļĦ
æħ° éĹ®
æĪĺåĽ½ æĹ¶ä»£
åĪĹå®ģ æł¼åĭĴ
éĢĤå½ĵ çļĦ
é©¬è¾¾ åĬłæĸ¯åĬł
ç»´åĲī å°¼äºļ
Girl s
èĢ¶é²ģ å¤§åŃ¦
é¦ĸå¸Ńæī§è¡Į å®ĺ
IU CN
V II
i ra
z h
Â ±
çļĦ äºĭä»¶
çļĦ äº§åĵģ
çļĦ ç¨ĭåº¦
åľ¨ éĥ¨åĪĨ
åľ¨ è¥¿çıŃçīĻ
åľ¨ åįĹäº¬
åĴĮ åħ¶å®ĥ
èĢ ¦
æĭ Į
åĲİ ä»¥
ä¼ļ æĻ¤
ä¸Ĭ åīį
ä¸į æī¿è®¤
ä¹ĭ ä¸º
ä¹ĭ æĹ¶
åĬł åĽº
å¾· é¾Ļ
åĮĹ è¾¹
ä¸ľ åĲ´
æīĢ èĥ½
è½¦ ä¸Ĭ
è½¦ åĨħ
ä¸ĸ åįļ
èĥ½ è®©
å¤ĸ ä¼ł
ä½Ĩ åľ¨
éĵ µ
æŁ ļ
éĩį å·¥ä¸ļ
å®ī éĿĻ
èµ· å±ħ
çº¦ 40
åĽĽ éĿ¢
12 ç±³
æ²³ åºĬ
å·² äºİ
æĮģ èĤ¡
èº« ä½ĵçļĦ
éª ģ
å®ĺ è¯Ŀ
ä½¿çĶ¨ è¯¥
å±Ģ éĻĲ
æľª éģĤ
ç¬¬ä¸Ģ å¤§
å¨ģ æµ·
æ®µ èĲ½
çĳ ķ
å¡Ķ çº³
å¡Ķ æ¥¼
çĶ· æĢ§çļĦ
åī¯ æł¡éķ¿
åĽ½éĻħ è´¸æĺĵ
çŃĳ å·¢
è¯ģ ä»¶
æ¹ĸ çļĦ
åĲĮæĹ¶ æľŁ
é£Ł éĤĳ
åĩł åįģå¹´
æĪ· å®¶åºŃ
ç®Ĺ æľ¯
æĲ ħ
å¾·åĽ½ äºº
èİ« æĭī
åĪĩ æĸ¯çī¹
åĬłåħ¥ ä¸ŃåĽ½
el le
åĪĨåĪ« çĶ±
å®Ŀ è´Ŀ
7æľĪ 19æĹ¥
æłĳ çļĦ
éª¨ æŀ¶
è®®ä¼ļ çļĦ
éĽ¨ æ°´
St r
å¢ĥåĨħ æļĤæĹł
éľĩ æĴ¼
189 0å¹´
189 4å¹´
çļĦçī¹ çĤ¹
ä½ľå®¶ åįıä¼ļ
æŁ¯ ç«ĭ
çļĦå½±åĵį åĬĽ
è´¢æĶ¿ éĥ¨éķ¿
6æľĪ2 9æĹ¥
ç§ĳçļĦ åħ¶ä¸Ńä¸Ģä¸ª
åľ¨199 0å¹´ä»£
if t
ç¾½æ¯ĽçĲĥ åĽ½éĻħèµĽ
è¨Ģè®º èĩªçĶ±
éļĭ åĶĲ
æ²³çļĦ å·¦
éĺ¿éĩĮ å·´å·´
å¾Ģè¿Ķ äºİ
é²¨ é±¼
çļĦåľ°éĵģ è½¦ç«Ļ
æ°¨åŁº éħ¸
è·¯æĺĵæĸ¯å®ī éĤ£å·ŀ
åħ¬ä¿¡ æ¦ľ
Lim ited
C lass
G am
çļĦ åĦ¿ç«¥
çļĦ çľŁå®ŀ
ä¸º å¦»
ä¸Ń ä¸ŀ
åĴĮ C
æľĪ éĿ¢
éĺ ¡
ä¸Ĭ åĬłé¾Ļ
ä½ľ æ³ķ
æĸ¹ ä¸º
è¥ Ł
æĸ° åįĹ
æĸ° è¡Ĺ
å¾· æĸĩ
åĨħ çī¹
è¡¨ æĥħ
æķĻ è°ķ
åĪ¶ æŃ¢
å®ļ åĪ¶
éĢļ ä¿Ĺ
çĻ ĸ
ç«Ļ èĪį
çĦ ĺ
åį¡ è¯º
æ» ¦
çĸ Ł
æĪĲä¸º è¯¥
è¿ĳ ä¹İ
å¼Ģå§ĭ åĩºçİ°
æľª å¿ħ
å¹³æĸ¹ ç±³çļĦ
é¾Ļ åįİ
åĳ¨ çļĦ
äººæ°ĳ åĨĽ
ä¸ĸçķĮ æĸĩåĮĸéģĹäº§
å¼º é£İ
åĨį ä¸Ģæ¬¡
æ²¡æľī äºº
éĻ¤ åİ»
çĶ· çĶŁ
çĭ¬ åĶ±
éħį åĲĪçī©
æ·± æĦŁ
é¸ ¢
ç»Ħç»ĩ äºĨ
çīĮ åĿĬ
æīį åįİ
åºĵ æĭī
è®¡åĪĴ å°Ĩ
ä¼¤ åı£
åĶĲ äºº
æĿ¥èĩª ç¾İåĽ½
éĢģ åĩº
12æľĪ 12æĹ¥
é¢Ŀ å®ļ
åľĨ é¡¶
ä»ª åĲĮ
ç©Ĩ æĭī
éģĩ åĪº
èĶ ĳ
ä¼ĳ æĨ©
ç©¿ æ¢Ń
å¥ī ç¥Ģ
æ¨ª é¡»è´º
äºĭåĬ¡ çļĦ
è·¨ å¢ĥ
åľĪ çļĦ
ä¹Ļ éħ°
æ±¤ åĬł
ä¸įä¹ħ åĲİ
ver y
çĥŁ åĽ±
äºİ194 8å¹´
äºİ195 4å¹´
é£ĵé£İ åŃ£
å²Ĺ ä½į
è¾Ĳé³įé±¼çº² é²¤å½¢çĽ®
ç½Ĺä¼¯ çī¹
æ¬§åħĥ çļĦ
man n
æ²Īéĺ³ å¸Ĥ
è¸ı åħ¥
å¦ĸ æĢª
åºķå±Ĥ æ°´åŁŁ
æ¼Ĥ æµģ
åĪĿçº§ ä¸ŃåŃ¦
åĵĪå°Ķç§ĳå¤« å·ŀ
ç»ĵè¯Ĩ äºĨ
é²Īå½¢çĽ® éļĨå¤´
1 æ¬¡
7 èĩ³
D ig
W al
i ence
l ing
v in
çļĦ é£Łçī©
çļĦ ç§ģäºº
çļĦ è¿ĩç¨ĭä¸Ń
ä¸Ń ä¿¡
æĶ ¸
æĹ¶ å°Ĩ
ä¼ļ åıĳçĶŁ
åī Ķ
ä¸į ä½ı
è¢« æĭĨ
ä¾ Ī
æľ¬ åĪĹè¡¨
æ± Ľ
åĲĮ ä¹¡
éķ¿ å¹´
æĸ° åħļ
èī ı
åĬł è¥¿äºļ
æľĢ ä¼Łå¤§çļĦ
é«ĺ æĺĤ
æīĢ åĨĻ
åĲĪ ä¼Ĺ
å·ŀ ç«ĭ
ç½Ĺ åħĭ
ç±³ å¥ĩ
ç«Ļ ä¹ĭéĹ´
æ¯Ķ çİĩ
åŁº åºķ
éĺ¿ éĥ½
å®ŀ åĨµ
æĮģ ä¹ħ
æĥħ ä¾£
äºĶ åı·
å¸Ī èµĦ
èĬĤ çļĦ
çļĦä¸Ģ åĳĺ
åĳ¨ æ¦ľ
åħī èĬĴ
ä¸ĸçķĮ æĹ¶
å¨ģ åħĭ
åĨį è§ģ
åľ£ çº¦ç¿°
åĭĴ ç´¢
è¶ħ æĸ°æĺŁ
è¯ģ äºº
æīĺ åĪ©äºļ
çļĩ åĨł
é±¼ ç§ĳ
åŁĥ ç±³å°Ķ
å¥ĩ å¦Ļ
åģľ çĶµ
èµ° åĩº
ç¯ Ĩ
åĲ¯ ç¨ĭ
ed er
çĤ® çģ«
èĵĿ çĶ°
éĽª åħ°
åĽº æľī
æ±ĩ åĲĪ
ç§ĭ çĶ°
äº« å¯¿
ra w
åĿĳ å£ģ
ç»ıå¸¸ åľ¨
æĪªèĩ³ 2021å¹´
é¥® çĶ¨
ä¼ı åĩ»
ç¬¬ä¸ĥ å±Ĭ
8æľĪ2 9æĹ¥
äºİ196 0å¹´
äºİ196 4å¹´
æ¸Ķ èĪ¹
å·§ å¦Ļ
æµģåŁŁ ä¸º
æµ© çī¹
æģ° å¥½
é¢Ī éĥ¨
æİ© çĽĸ
é³ŀ çīĩ
åįłæį® äºĨ
ç»ĩçĶ° ä¿¡éķ¿
ico de
Inst it
å¡ŀåĨħ åĬłå°Ķ
è·Ĩæĭ³ éģĵ
é²Īå½¢çĽ®éļĨå¤´ é±¼äºļçĽ®
1 æľĪ15æĹ¥
5 äºº
S qu
V P
d ay
w id
çļĦ å®ŀéĻħ
åľ¨ è¿Ļä¸Ģ
ä¸Ģ äºĮ
ä¸Ń ç§ĭ
å¤§ èĥĨ
åĴĮ éĩĳ
ä¸į æ¸ħ
åħ¶ å¯¹
çŃ ł
å¤ļ ä¸ĩ
æĸ° å¼ı
åĪ© é©¬
æīĢ ç»ĦæĪĲ
å°Ĩ å£«
å² Ĥ
äºĮ æĪĺåĲİ
å±± éĺ³
å°ı éº¦
éĤ Ŀ
æ°´ éĽ·
é¦ĸ æĪĺ
æĹł åĲį
å¿ĥ ä¸Ń
ä¹Ĳ è§Ĥ
æ£ £
ä¸¾ äºº
æ¸¸ éªĳåħµ
äºĶ æ¬¡
æ´» åĮĸ
å¯Ĩ è°ĭ
æŀľ çĦ¶
ä¸»è¦ģ æľī
åº§ è°Ī
åĵĪ ç½Ĺ
å¢ŀ å¤§
åĿĩ è¡¡
è¯ķ é£ŀ
é»Ħ æ³¥
é»ĳ å®¢
é»ĳ èī²çļĦ
åĨĻ ä¸º
èĢĥ æł¸
ç§» åĪ°
é¢Ħ ç§ĳ
å¾ģ ä¼Ĳ
åĬ¿ åĬĽçļĦ
èĹı æĹı
åį¢ åį¡æĸ¯
åľ°æĸ¹ èĩªæ²»
è½® èĪ¹
éĩįè¦ģ æĢ§
çĽ®åīį å·²
é¡º å¾·
æ£Ģ ç½²
éĽħ åħĭ
9æľĪ 11æĹ¥
10æľĪ 5æĹ¥
å¤§éĻĨ çļĦ
5æľĪ 12æĹ¥
é½Ĳ é½Ĳ
100 åĲį
ç¬¬åĽĽ ä»£
èĩªçĦ¶ éģĹäº§
å®ľ æĺĮ
çļĦä¸» åľº
äº¨ çī¹
ä¾¯ èµĽ
å¹ħ åº¦
å¹ħ çĶ»
è¢Ńåĩ» äºĨ
å¥¥æŀĹåĮ¹åħĭ å§Ķåĳĺä¼ļ
éķ¿æľŁ ä»¥æĿ¥
ç£ģ çĽĺ
ä»Ķ ç»Ĩ
åĨ¯ çİīç¥¥
çĥŁ åı°
æĻ®éĢļ çļĦ
ç¥ŀç»ı åħĥ
åĽ½åĬ¡éĻ¢ æī¹åĩĨ
è£ħçĶ² å¸Ī
åĬłåĪ© è¥¿äºļ
Un icode
ä¸»åĬŀ çļĦ
æĸĭ èĹ¤
è¾ĥä½İ çļĦ
æİ§èĤ¡ æľīéĻĲåħ¬åı¸
Int el
éĴ¢çŃĭ æ··åĩĿåľŁ
éĥĬéĩİ åħ¬åĽŃ
åıªåĪĹåĩº æĽ¾
åĲĪå¹¶ä¸ºæĸ° å¸Ĥéķĩ
ä¹Įæĸ¯å¡Ķ æ²Ļ
æŁ¯ç«ĭ èĬĿ
( ãĢĮ
1 æľĪ16æĹ¥
3 0å¹´ä»£
9 æľĪ16æĹ¥
B 1
L T
W il
p ri
çļĦ 4
åĪ ģ
æĺ¯ çļĦ
ç§ §
æ° ¦
ä¸Ĭ åŃ¦
ä¸Ĭ åİ»
ä¸Ĭ çĽĸ
éģ ´
æ³ķ æ²»
æĿ¥ çº³
æĸĩ åı²
é«ĺ æ¡¥
èĩ³ 2015å¹´
çŃī å¤ļç§į
è¯¥ åłĤ
å°Ĩ ä»İ
æľº ä½ĵ
è·¯ ç½ĳ
200 1
ç§į ç±»çļĦ
èĤ Ľ
ç±³ åĪ©
ä¸¤ åħļ
æĺİ äº®
éĺ¿ ä»Ģ
ç¾İåĽ½ èģĶéĤ¦
åĲĳ åħ¶
æĽ¾ ä»¥
å¯¼ å¼ķ
æµģ æ°´
ä¼ł ç»Ļ
èº« å¤Ħ
æĬ¥ éħ¬
å¸Ī åĤħ
çĿ ¾
ç¬¬ä¸Ģ æīĢ
èĭı ä¿Ħ
çļĦä¸Ģ å¤§
è°ĥ åĳ³
æ±ī éĺ³
æ¹ĸ æ°´
å§Ĩ æŀĹ
æĤ į
ä¾¿ åľ¨
éŁ³ä¹Ĳ åİħ
ç´¢ ä¸įè¾¾
çľĭ è¿ĩ
æ¸© å¸ĥ
æĬĹ è¡¡
åħ¨åĽ½ äººå¤§å¸¸å§Ķä¼ļ
éģĹ åĺ±
èµ° çº¢
7æľĪ 8æĹ¥
è¿½ ç©¶
9æľĪ 8æĹ¥
æı´ åĨĽ
5æľĪ 3æĹ¥
ä¸»å¸Ń åĽ¢
è®®ä¼ļ éĢīä¸¾
å·¥ä¸ļ éĿ©åĳ½
åŃ© ç«¥
åľ°ä¸ĭ ä¸Ģ
æĲŃ å»º
è¿Ī å°Ķ
ç©ºåĨĽ åŁºåľ°
å¥¥æĸ¯ æ±Ģ
amp ion
12æľĪ2 9æĹ¥
äºİ196 3å¹´
è¯ı ä¹¦
çļĦå¥³ åŃ©
æııç»ĺ äºĨ
æ¼ĶåĮĸ æĶ¯
ç¾İåĽ½åĽ½å®¶ é£ĵé£İä¸Ńå¿ĥ
å®ľåħ° åİ¿
è¾¹çĸĨ åĮº
èĦĨ å¼±
æ±¡æ°´ å¤ĦçĲĨ
éºĴ éºŁ
èįīæľ¬ æ¤įçī©
ä¼ĬçİĽ çĽ®
ä¸ĸçķĮåį«çĶŁ ç»Ħç»ĩ
æŁ¯æľ¬ æ°ĶåĢĻ
6 æľĪ15æĹ¥
9 åĲį
E F
J o
S um
çļĦ æĬ¥åĳĬ
åľ¨ ä¸ĸ
ä¸º ä¸Ńå¿ĥçļĦ
åĴĮ éĿŀ
åĴĮ å¥¹çļĦ
æĹ¥ åĴĮ
åĲİ è½¬
æµ ľ
çĲ °
å®¶ å±ħ
è¥¿ æµ·å²¸
åĨĽ åĬ¡
è¢« åĳ½åĲįä¸º
ä¾ ĥ
èĭ »
çī¹ äºº
äºļ éĢŁ
çĶµ æŀģ
åħ¥ äºĨ
å·¥ åħµ
å®ī æĿ¡
ç³» ä¸»ä»»
æ¯Ķ å¥ĩ
æŃ£ äº¤
æĺİ å¾·
çº¦ 50
æ°´ åİ¿
æ°´ çģ¾
å·´ æĸ¯èĴĤ
æĹł èī²
ç»´ çĶŁç´ł
æ²³ ä¸Ĭæ¸¸
éŁ³ åĵį
æĺŁ å½¢
æµģ ç¦»
åĽŀ é¹ĺ
æĻ® éĢī
é¦Ļ æĸĻ
åĽ½å®¶ æ£®æŀĹ
çļĦä¸Ģ çº§
è°ĥ çĶ¨
çĵ¦ å¤«
è¯Ħ æ¯Ķ
æĬķ å°Ħ
å¢ŀ çĽĬ
æ±Ĥ åĬ©
èĩ´ æŃ»
å¾Ī éķ¿
ä¹Ŀ æ±Ł
ä¸ĥ åı·
ä»ħ æĺ¯
çķĻ æĦı
è¿ª èĢ¶
13 1
æħ ·
ä¹ĭéĹ´ åŃĺåľ¨
éĻĦ å½ķ
å®ģ æŃ¦
æ°¸ ç¦Ħ
åį¢ è¥¿äºļ
çļ® åŁĥå°Ķ
ä¿Ħç½Ĺæĸ¯ åħ¥ä¾µä¹Įåħĭåħ°
äººçī© çļĦ
2020å¹´ å¤ıåŃ£å¥¥æŀĹåĮ¹åħĭè¿ĲåĬ¨ä¼ļ
25 æĹ¥
24 æĹ¥
7æľĪ 6æĹ¥
3æľĪ 12æĹ¥
è¯Ĺ éĽĨ
4æľĪ 19æĹ¥
åĩ¯ åĪ©
ãģ ı
éĢĥ åĩº
æī¾ ä¸įåĪ°
éĥĳ å·ŀå¸Ĥ
ç©¿ éĢı
å¤§ä¼ļ ä¸Ĭ
èµ¤ æŁ±
éŃı å¿łè´¤
é¢ģ æİĪ
çŁ¿ å·¥
æĺŃ å®Ĺ
æĴ° ç¨¿
åĪĽåĬŀ çļĦ
äºİ195 9å¹´
çĭĤ çĥŃ
æĹ¶æ®µ æĴŃåĩº
con st
æĸ¥ èµĦ
è¶ĬæĿ¥è¶Ĭ å¤ļçļĦ
éĥ½çĿ£ åºľ
èĳµ æ¶Į
æ½ľåľ¨ çļĦ
éĴĵé±¼ å²Ľ
åĢĻè½¦ å®¤
åį«åĨķ åĨłåĨĽ
åĺ² ç¬ĳ
åº·å¥Īå°Ķ å¤§åŃ¦
æĮ£ æīİ
æ±īå¯Ĩ å°Ķé¡¿
çĹĩåĢĻ ç¾¤
ç´¢ä¸įè¾¾ ç±³äºļ
B er
D B
D avid
S u
V R
Ð ²
çļĦ åĬ¨çī©
çļĦ èĥľåĪ©
ä¸Ń å°ı
ä¸» å¸ħ
åĨĽ éĥ¨
æĿ¥ ä¸´
åı¯ ä¸İ
æĸ° æŃĮ
åĮĹ è¾¾ç§ĳä»ĸå·ŀ
åīį åįģ
æµ· è¿Ĳ
è¯¥ å¸Ī
è¦ģ åĪ°
åĪ¶ å¼ı
è·¯ åĴĮ
å±± éļ§éģĵ
èĢħ ä¸İ
å¤© é¾Ļ
ç§ĳ è¥¿
ç±³ åĵĪ
ä¸ŃåĽ½ åĨħåľ°
æ°´ çīĽ
ç¾İåĽ½ èģĮæ£Ĵå¤§èģĶçĽŁ
åĮħ å¤´
æĹł è§Ĩ
12 æľĪ17æĹ¥
æĦı æĸĻ
åİĨ å®ĺ
å°± æĺ¯åľ¨
éĹ¨ çŃĶ
åĽŀ æĹı
èĴ ľ
æĹ¥æľ¬ æ°Ķè±¡åİħ
çı ª
åĽ½å®¶ è¶³çĲĥ
è¿ĳ æ±Ł
åĨ³ æĪĺ
æĽ² é£İ
å¥ĸ æĿ¯
å¸Ŀ æ±¶
æĬķ ç¨¿
åį° æľī
æł· åĵģ
åĽ½éĻħ ç¤¾ä¼ļ
ç¾¤ ç»Ħ
é²ģ çķª
èĲ½ åı¶
èĲ½ å·®
æ¦ Ķ
å®¤ çĶº
ç»Ħç»ĩ éĥ¨
çīĻ åĵ¥
æ¢ħ éĩĮ
åİĤ çļĦ
åİĤ æĪ¿
éģĹ çķĻ
åĮĹäº¬ åľ°éĵģ
åŃ¦çĶŁ åľ¨
ä¹ħ ä¿Ŀ
7æľĪ 30æĹ¥
å·® çĤ¹
9æľĪ 5æĹ¥
8æľĪ 30æĹ¥
æĿ¯ åĨłåĨĽ
æłĳ ç«ĭ
ç§ĳåŃ¦ çļĦ
11æľĪ 9æĹ¥
èĮĥåĽ´ ä¸º
ç¬¬åĽĽ æī¹
å¦» åŃĲçļĦ
åħ¬åħ± åį«çĶŁ
è¯¯ ä»¥ä¸º
ä»»åĬ¡ æĺ¯
åħ¬å¸ĥ æĹ¶éĹ´ä¸º
ä¼¦æķ¦ çļĦ
æĭŁ å®ļ
çĽ¸å¯¹ åºĶ
è§Ĥä¼Ĺ çļĦ
ç¡®å®ļ äºĨ
9æľĪ2 7æĹ¥
çĵľ åĪĨ
186 8å¹´
çĮª èĤī
4æľĪ2 9æĹ¥
èĴĻçī¹ åĪ©å°Ķ
å«ģ ç»ĻäºĨ
èĸª èµĦ
ä¸¹å°¼ å£«
æĪĲçĨŁ çļĦ
æľĢé«ĺçĤ¹ æµ·æĭĶé«ĺåº¦
æ¬¡åħ¨åĽ½ äººåı£æĻ®æŁ¥
èĴĻåĵ¥ é©¬åĪ©
éĻĮ çĶŁ
éĤ£ä¸į åĭĴæĸ¯
éĹ¨çŃĶ èħĬ
3 A
3 çļĦ
çļĦ å£«åħµ
çļĦ èº«ä½ĵ
åľ¨ åİŁ
ä¸Ń æ¬§
åĽ½ å¾½
æľī åĲįçļĦ
åĴĮ åıĳå±ķ
19 ä¸ª
ä»¥ å¤§
æ´ ®
åĪ° æľŁ
æ°ĳ çĽŁ
é¦ ħ
æĿ¥ åĽŀ
åįĹ æĸ¹çļĦ
æĻ Ł
æīĢ éĥ¨
ä¸ī æ²³
åľº åĴĮ
èĬ ¥
èĬ ĭ
ä¸¤ æŀ¶
æĺİ æĻº
æ°´ å¡ĺ
åºľ åŁİ
åįİ è§Ĩ
åĽĽ åº§
æ¶ ¤
å·² å®ĮæĪĲ
éĢł åĥı
åı¤ ç±į
åŃĹ éĿ¢
å®ĥ è¢«
ç¼ĸ å¯¼
æ´¾ åĪ°
æīĵ å·¥
æ¬§ èģĶ
çĶ· åıĮ
ç¬¬äºĮ å¼ł
æ²Ļ å¤«
çļĩ å¤ªåŃĲ
(, ,),
çº¢ éĽĢ
at ure
é¢Ħ æĸĻ
åħ¸ ç±į
åĽłä¸º åľ¨
éĩįè¦ģ çļĦæĺ¯
èī¾ åĵĪè¿Ī
èį¯ æĪ¿
5æľĪ 9æĹ¥
ç«ŀ é©¬åľº
æ¢ģ å±±
ç½Ĺé©¬ çļĩå¸Ŀ
éĺ¿å°Ķ èĲ¨æĸ¯
ãģ ķ
æ³Ľ ç¾İ
ri e
å¿ħé¡» è¦ģ
æ¡ĳ å¾·
ä»ĺ åĩº
th is
å¹¿æĴŃ åī§
æĤ£ çĹħ
åįļå£« åĲİ
æ¶ħ å¤«
åľ°ä¸ĭ æ°´
ä¿ĿæĮģ çĿĢ
188 7å¹´
64 å²ģ
8æľĪ2 4æĹ¥
æłĩå¿Ĺ èĳĹ
åįĹåĮĹ èµ°åĲĳ
åĦĴ åŃ¦
åĩĿ èģļ
åĵª éĩĮ
2åı· æľĪåı°
ä¸ľæµ· éģĵ
åĿł æ¯ģ
åį°ç¬¬å®ī äºº
Ph il
ç»§ä»» èĢħ
çĵ¦åħ¹ æ²³è°·
èĬ¯ çīĩ
å¦ĵ å¥³
æ³ķæĭī åĪ©
éĻ¡ å³Ń
éľįåįİ å¾·
åįİå°Ķ è¡Ĺ
åĵ¥æĸ¯è¾¾ é»İåĬł
9 æĹ¶
9 æľĪ21æĹ¥
E r
N BC
N FL
T ok
T our
g en
çļĦ çĶµè§Ĩ
å¹´ ç»Ī
ä½ ĥ
åľ¨ åĲİ
ä¸º èĵĿ
ä¸Ģ åĲĳ
ä¸Ģ åħ±æľī
åĮ Ŀ
åĴĮ æĦıå¤§åĪ©
æĹ¶ åĽł
ä¸į çĽ¸
å°Ķ æł¹
ãĢĭ )
åĨĽ çģ«
åĮĹ éģĵ
å¦ į
ç§ĳ æĭī
ä¸¤ éĺŁ
æ¯Ķ çļĦ
æĢ» æĮĩæĮ¥
åŁº çļĦ
åŁİ å¤ĸ
æł¼ çļĦ
çº¦ 6
èĭ± åĲĭ
é¦ĸ å®¶
æĹł è¾ľ
åĭ Ĳ
åį¡ çīĩ
åįķ ä½ĵ
åįķ æĿĨ
è¯´ è¿ĩ
éŁ³ çļĦ
éŁ³ æķĪ
åıį é¦Ī
éĢł çº¸
é£İ æ½®
äº¬ å¹¿
åĳ¨ éģŃ
æīĵ äºĨ
ä¸»è¦ģ åĪĨå¸ĥäºİ
åħµ è´¥
èĲ¨ åĭĴ
æ±ī ä»£
æĸ½ æ³°åĽł
çĹħ çĲĨ
åħ´ åĽ½
æ¸¸æĪı æľº
éĢļè¿ĩ çļĦ
çļĩ æĹı
æ·± åĮĸ
å±Ĭ æ»¡
çľŁ å®Ĺ
ç´¢ å¼ķ
åį¢ æĸ¯
åıĤä¸İ çļĦ
10æľĪ 19æĹ¥
3æľĪ 30æĹ¥
5æľĪ 11æĹ¥
4æľĪ 3æĹ¥
èĥ¡ å®ī
è¯¸ åĨĽäºĭ
èİī èĲ¨
æī§è¡Į èĳ£äºĭ
éŃĶ æĪĴ
ä¸Ńéĥ¨ çļĦ
è·ĳ èİ·
èĪ°éĺŁ çļĦ
ay a
è·³ æ°´
å¿«éĢŁ åĪĹè½¦
7æľĪ2 3æĹ¥
æĪĴ æĮĩ
èĭ±éĽĦ èģĶçĽŁ
çł² å¡Ķ
è¡¨éĿ¢ ä¸Ĭ
æ¸¸æ³³ éĶ¦æłĩèµĽ
ç¾½æ¯ĽçĲĥ åħ¬å¼ĢèµĽ
è¾° ç§ĳä¼ļè¯ķ
èĴ¸ åıĳ
èµ«å°Ķ æĽ¼
æ¶Īéĺ² åĳĺ
åĻ¶ çİĽ
åĴĸåķ¡ é¦Ĩ
èĤĩ åºĨ
æ¿ĢçĥĪ çļĦ
å¤§èĭ± å¸ĿåĽ½
éº¾ ä¸ĭ
éĽªåħ° èİª
" ãĢģ"
8 æľĪ17æĹ¥
F un
N ational
S un
o ch
çĶ ¬
æĺ §
åľ¨ ç¬¬ä¸Ģ
ä¸Ń é£İ
äºİ è¯¥
åĴĮ åĮĹ
æĹ¥ åĩº
åŃ¦ éĹ®
ä¸Ĭ éĥ½
ä¸į å¿ħ
è¥¿ éĿŀ
èĩª å°½
å¼Ģ ä¼ļ
æĸĩ çĲĨ
ä¸ľ ç«¯
é«ĺ åĪĨåŃĲ
äºĭ çļĦ
å¸ĥ éļĨ
å±± éºĵ
å®ī å®ģ
éĺ¿ å·´
æĽ¾ çĶ¨
12 ä¸ĸçºª
åį¡ å§Ĩ
å¥¥ åħĭæĭīèį·é©¬
åıį åĿ¦åħĭ
äºĶ é¡¹
or a
è®° å¾Ĺ
æĿĥ åĴĮ
åĪĽ ä¸ĸ
æīĵ æįŀ
çĻ½ çİī
å¥ĸ åĴĮ
æ¥ Ķ
æ±Ĥ å©ļ
æīĺ å°¼
æĹ¶éĹ´ è¡¨
åŁĥ ç½Ĺ
æĽ¼ å°¼
æ¡¥ çļĦ
æķĻèĤ² åİħ
ç²¾ å¯Ĩ
çªģ å°¼æĸ¯
æ°¸ ç¦ı
æĿ° å¿Ĺ
æ²¹ èĦĤ
è¾ĵ ç»ĻäºĨ
12æľĪ 10æĹ¥
åŃĻ å¥³
äººåĳĺ åĴĮ
et a
9æľĪ 3æĹ¥
æłĳ çļ®
11æľĪ 19æĹ¥
çĬ¯ è§Ħ
æįķ é±¼
æİ¢ æľĽ
ç»ıè¿ĩ æľ¬åľ°åĮº
èµŀ åĲĮ
å±ŀçļĦ åħ¶ä¸Ńä¸Ģç§į
æ±ĩ éĽĨ
æĪĪ çĻ»
èİī äºļ
å¿ł äºİ
æĮģç»Ń æĹ¶éĹ´
45 åĪĨ
å½© ç»ĺ
äºİ18 0
æ±¤ æĻ®æ£®
è¿Ĳè¡Į çļĦ
188 8å¹´
188 6å¹´
è´¯ å½»
æ°¢ åĮĸ
ç¬¬åħ« å±Ĭ
ik i
Te chn
ç¦ħ å¸Ī
å¸Ĳ åı·
æ¸¥ å¤ª
æĽĻ åħī
éĺ¿æł¼ çº½
éĽħåĬł è¾¾
1 æĿ¡
7 æľĪ17æĹ¥
L D
P H
P ort
s et
çļĦ æŀĹ
çļĦ çº³
çļĦ åĩºçİ°
çļĦ äººçī©
çļĦ çĽ®çļĦ
æĺ µ
åľ¨ æ¸¯
ä¸Ģ æľĪ
èĢ į
åĲİ ä¸İ
åľ° å°Ĩ
æĪĲ å¯¹
è¥¿ ä¹Ŀé¾Ļ
è¢« æĭĨéĻ¤
è¢« éĢģå¾Ģ
å¯¹ çħ§
å¤ļ éĹ´
å¼Ģ ç½Ĺ
åĮĹ è¶Ĭ
æĸĩ åŃ¦éĻ¢
æµ· å°Ķ
éĹ´ éļĻ
åĽł æŀľ
çŃī ç¦»åŃĲ
åº¦ åĴĮ
åħ¥ éĹ¨
æĭī å¡ŀ
æķĻ åĮºçļĦ
è·¯ äº¤åıīåı£
å°ı é¾Ļ
éĻ¢ ç³»
æŃ£ æ®¿
åĪĹ å¤«
å¸¸ æľī
è£ ³
ä¿Ŀ åħ¨
éĹ¨ ç½Ĺ
å¥¥ éĩĮ
ä¸¾ æİª
æĥħ åĬ¿
æĪĲä¸º ç¾İåĽ½
å¤ª å¤§
åľ°åĮº ä¸ºä¸Ģ
è§£ æķĳ
åĽ¾ çģµ
è½¬ åĬ¨
å¤´ çĽĶ
éĽ· å°Ķ
åįĥ éĩĮ
å¥½ å¤Ħ
æİĴ æ¹¾
æĸ½ å¡Ķçī¹
åįĬ ä¸ª
æŀģ é«ĺçļĦ
å»ºçŃĳ è®¾è®¡
es ter
æ¶Ī æŀģ
ç»ıæµİ éĥ¨
ç®¡çĲĨ å±Ĥ
ä¾§ çļĦ
æĪĲåĳĺ åĮħæĭ¬
å°ģ åį°
åı¶ åīĳèĭ±
é³ ķ
çº½ æĸ¯
il i
ä»ĭ ä¹İ
è¿½ æĿĢ
8æľĪ 10æĹ¥
æĿ¿ ä¸Ĭ
è´µ éĺ³
é¢Ŀ å°Ķ
æĿľ æĭľ
æ°ĳä¸» åĲĮçĽŁ
22 9
æĺĮ å¹³
ç¬¬åĽĽ ä¸ª
ä¹¦è®° å¤Ħ
ad y
éĶ¡ éĩĳ
éĺ´ éģĵ
èĭ±æĸĩ åĲįç§°
æħĪ æµİ
9æľĪ2 6æĹ¥
3æľĪ2 7æĹ¥
8æľĪ2 6æĹ¥
åį«æĺŁ åĿĳ
7æľĪ2 5æĹ¥
å½¼å¾Ĺ ç½Ĺå¤«æĸ¯åħĭ
äºİ196 9å¹´
æĥ¯ æĢ§
çĶµåĬĽ åħ¬åı¸
åłª èĲ¨æĸ¯
å¯ĵ æĦı
å¤ļé¡¹ å¼ı
Con t
çĪ¬ è¡ĮåĬ¨
åı°ä¸ľ åİ¿
æĶ¿æ²»éĥ¨ ä¸»ä»»
æ¬§æ´²åĽ½å®¶ æĿ¯
å¼łå®¶ åı£
âĹ ĭ
2 åº§
A f
A p
B est
E m
çļĦ æľĪ
çļĦ æııè¿°
çļĦ æĿ¥æºĲ
çļĦ çĪ¶æ¯į
ä¸Ń åŃĺåľ¨
åĴĮ éĻĪ
æµ ĩ
ä¸Ĭ åı¤
æĸ¯ è¯ºåħĭ
åĩº ä¸Ģä¸ª
ç¾ ¡
ä½į ç§»
æľ¬ å²Ľ
ä¸ĭ äºİ
èĩª æĿ¥
èĩª æĹĭ
åı¯ ä¹Ĳ
æµ· å¾·
æīĢ å¸¦æĿ¥çļĦ
åĨħ åįİè¾¾
åı° çĶµ
è½¦ å¤´
è¯¥ ç³»åĪĹ
å°Ĩ è¦ģ
æĭī å¼Ģ
æķĻ åĬ¡
å¤ĸ æı´
åľº åĿĩ
çĤ ľ
10 æľĪ17æĹ¥
ä¸ŃåĽ½ åı¤ä»£
åĲĳ è¥¿åįĹ
éĶ ĳ
ç©º çĻ½
èĭı å·ŀå¸Ĥ
åı¯ä»¥ è®©
é¾Ļ éª¨
åĪĽ æł¡
ä¸»è¦ģ æĿ¥èĩª
å®£ æħ°
èı Ī
åŃĺ çļĦ
æĶ¿æ²» å§Ķåĳĺ
åįļ ä¼Ĭ
åĥ »
æĪĳ æĺ¯
17 00
ä¸ĥ å¤§
ç´¢ ä¼¦
å½Ĵ çº³
èµ° ä¸Ĭ
èģĶåĲĪ æĶ¿åºľ
å°½ åĬĽ
éĢļå¸¸ è¢«
æĸ¯çī¹ æĭīæĸ¯
9æľĪ 10æĹ¥
10æľĪ 7æĹ¥
3æľĪ èĩ³
çī¹åĪ« æĺ¯åľ¨
åĸľ çĪ±çļĦ
ä»»ä½ķ ä¸Ģä¸ª
çĽĽ åħ¸
ä»ģ çĪ±
åĪĳ ç½ļ
å®½ çļĦ
å°¤ åĪ©
åħ±åĲĮ ä½ĵ
èİī å¨ħ
ãĤ ·
æ½ľ ä¼ı
å¥Ĺ è£ħ
å¼ĢæĶ¾ çļĦ
ç»ĺ åĽ¾
è¿ĲèĲ¥ çļĦ
300 ä¸ĩ
æĹº ä»£
ç²Ĵ åŃĲçļĦ
åľ¨199 4å¹´
åľ¨199 6å¹´
äºİ196 8å¹´
äºİ195 3å¹´
çĽ¾ çīĮ
ä¸Ģå®ļ ç¨ĭåº¦ä¸Ĭ
æī©å±ķ èĩ³
èİ±èĮµ æ²³
ä»¥åĮĹ çļĦ
è¶ĬæĿ¥è¶Ĭ å¤ļ
èĬĻ èĵī
ä¸ĭåįĬ å¹´
æ¼Ĥ æµ®
è¾£ æ¤Ĵ
èł ķ
åįĹå¼Ģ å¤§åŃ¦
è·» èº«
5 æľĪ17æĹ¥
8 æľĪ21æĹ¥
S ing
S im
T op
å¹´ éķ¿
æĺ Ļ
åľ¨ äºĨ
æľī èī²
åĴĮ åĬłæĭ¿å¤§
èĢ ¸
åĳ Ģ
ä¼ļ å±ķ
ä¸Ĭ éĥ¨
åĩº åĽ½
åħ¬ å¼Ģåıĳ
ä½ľ éľĸ
æĶ¿ äºĭ
æĶ¿ çķĮ
çĶ± æ³ķåĽ½
å¯¹ èĩªå·±
å¯¹ çŃĸ
åħĭ æľĹ
ä¸ľ æ¶Į
æīĢ åģļçļĦ
åı£ è¯Ń
200 2
éĵ ī
å¤© ç«º
ç½Ĺ åħ°
éĻ¢ åĨħ
éĥ½ æŁıæŀĹ
èµ· åĽł
æ°´ åĿĿ
çİĭ å¦ĥ
12 æľĪ16æĹ¥
éĴ ı
æ±Ł æ³½æ°ĳ
åĽ¾ çĵ¦
ç¬¬ä¸Ģ æ¬¾
éĻĨ è·¯
æĿİ åĽ½
æľį åĪĳ
ä¿Ħ åĭĴåĨĪ
èħ Ń
åįĬ è¡°
åıĳå±ķ ä¸ŃåĽ½
æģ© çļĦ
åĵ¥ å¾·
éĵ¶ å¹ķ
æ¡¥ æ®µ
åĪ¤ åĪĳ
èµ« æĸ¯çī¹
éĢĲ å¹´
æĻļ äºĽæĹ¶åĢĻ
ä¹ĺ æĲŃ
å»ºç«ĭ èµ·
è¿Ļä¸ª è§Ĵèī²
ç½ª æģ¶
å·® ä¸įå¤ļ
æı´ å¼ķ
äºĴ åĬ©
11æľĪ 20æĹ¥
å¹³åĿĩ æ¯ı
å« ī
èĵĿ åħī
éĽª åĦ¿
de f
æĢ¥ éĢŁ
åĿļ ç¡¬
and er
æ¨ª æī«
æııè¿° çļĦ
åĪ¶éĢł ä¸ļ
æģ¶ æĢ§
æĭĽ åķĨ
éĺ» å¡ŀ
å·´å£« æĢ»ç«Ļ
éĺ´ èĮİ
æ½® æ±Ĳ
å¤ıåŃ£ å¥¥è¿Ĳ
åı« å£°
æĭīæĸ¯ ç»´
20ä¸ĸçºª 80å¹´ä»£
éĽĨä¸Ń å¼ı
è¯¦ è§ģ
å±ı èĶ½
4æľĪ2 6æĹ¥
éĩĩåıĸ äºĨ
äºİ196 1å¹´
å¾ĭå¸Ī äºĭåĬ¡æīĢ
éĻįä½İ äºĨ
æ¨± æ¡ĥ
å®¢æĪ· ç«¯
é¥± åıĹ
éĺ¿åĪĹ æĹ¥
åĢŃ å¯ĩ
å®ģå¤ı åĽŀ
èĭ±èģĶéĤ¦ è¿ĲåĬ¨ä¼ļ
aur us
åĳķ åĲĲ
å¡ŀå¥¥å¤ļ åĪ©
2 25
7 æľĪ21æĹ¥
E V
G ar
R ap
b a
h ar
çļĦ C
çļĦ åħŃ
çļĦ çĽ´æİ¥
çļĦ éĢīæīĭ
æĺ ±
åĮ Ĩ
ä¸Ń åĶ¯ä¸Ģ
å¤§ åī§éĻ¢
å¤§ æĹ¥æľ¬å¸ĿåĽ½
èĩ §
æĹ¶ åħī
æĸ¯ ç»´å°Ķ
åĩº è¡Į
åĪĨ æīĭ
å§ ª
å¹¶ å¼Ģå§ĭ
èĢĮ æ²¡æľī
åıĬ æĸ°
è¢« å¹¶åħ¥
è¿Ļ æľ¬ä¹¦
åı¯ ä»İ
åı¯ çŁ¥
æŃ¤ é¡¹
æĭī è¾¾
äºĮ èĩ³
é©¬ çī¹
ç½Ĺ æĭī
éĩį èĩ£
æĽ¾ èİ·å¾Ĺ
æĽ´ æİ¥è¿ĳ
éĵģ äºº
éĵģ çĶ²
åĪĴ åĩº
æĿİ æĸĩ
æİ¨ éĶĢ
åįĥ å²ģ
å¢ŀ éķ¿çļĦ
åįļ ç½Ĺ
èĪª ç¨ĭ
è¯ķ çĤ¹
æİĴ æ°Ķ
å¡ŀ ç»´
éĺ² çģ«
çĥŃ è¡·
åģľ ç«Ļ
éŃ Ħ
æī§ æİĮ
is ter
é³ Į
12æľĪ 11æĹ¥
åĩı èĩ³
åĲ´ åĽ½
æĺł åĥı
è®¿ å®¢
åħ» æĪĲ
23 ä¸ª
ä¸ªäºº çĶµèĦĳ
4æľĪ 8æĹ¥
11æľĪ 18æĹ¥
æ°ĳæĹı çļĦ
åĳ¼ åĴĮ
äººç±» åŃ¦å®¶
åĮ»éĻ¢ çļĦ
èīĺ èĪ¹
è¢Ńåĩ» äºĭä»¶
åİ¿çļĦ åİ¿æ²»
èµ´ ç¾İ
æ³³ æ±ł
20ä¸ĸçºª 90å¹´ä»£
åĳ¨è¾¹ çļĦ
3æľĪ2 3æĹ¥
8æľĪ2 5æĹ¥
è±Ĩ çĵ£
äºİ193 7å¹´
(,; ),
ä¸Ģç³»åĪĹ çļĦ
èĭıç»´åŁĥ ç¤¾ä¼ļä¸»ä¹īåħ±åĴĮåĽ½
å¼ĢåĲ¯ äºĨ
åĭĺ æİ¢
æĸ°ç«¹ åİ¿
He art
èĴ¸æ±½ æľºè½¦
For ce
è¾ĥæĹ© çļĦ
Pa ul
åĪĩå°Ķå°¼ æĪĪå¤«
unt u
èĬ±å²Ĺ å²©
ç¬¬èģĤä¼¯ç½Ĺ å½¼å¾Ĺç½Ĺå¤«æĸ¯åħĭ
8 æľĪ16æĹ¥
B ank
D a
M U
M BC
N C
N P
t v
w ell
Ï ģ
á Ģ
ì Ŀ
çļĦ ä»ĸ
çļĦ åħ¬
çļĦ åĲĪä½ľ
åľ¨ ä½¿çĶ¨
ä¸º å¥¹
ä¸Ģ åĨį
ä¸Ń èį¯
äºº ä¼ļ
å¤§ æ¸ħ
æľī åĲį
ä»¥ åĨħ
ä¸Ĭ æĸ¹çļĦ
åĩº çº¿
ä¸į å®ļ
ä¸į åħ·
èĥ Ħ
åĬ¨ èĥ½
ä»» ä¸ŃåĽ½
ä»» æĢ»ç»Ł
åŃĲ ç¾¤
å¹³ åĴĮ
å¹³ æ»ĳ
åĽł ä¼¤
ä¸ī ä»£
è¿Ľ äº¬
è¿Ľ åĩºåı£
å°Ĩ ä»ĸçļĦ
éĢļ èĪª
ç±³ èĢ¶
10 æľĪ14æĹ¥
çĽ¸ å¤Ħ
æ°´ æĹı
æİ¥ ç»Ń
èį §
æŀĹ å®¶
èİ· æī¹
å®ŀ åĬ¡
12 æľĪ22æĹ¥
åĪĻ æĺ¯çĶ±
åįķ å±Ĥ
å±ķ åĵģ
åĽŀ ä¹¡
æ¹¾ çļĦ
åıĺ ç§į
ä¸ĵ é¡µ
èĬĤ ç¼ĸç»Ħ
é¾Ļ æĺ¯
è£ħ å¡«
åĵĪ æĸ¯
çĵ¦ åħĭ
åľŁ ä½Ĳ
åŃĺ åıĸ
ä»£è¡¨ å¤Ħ
åĿĩ å·²
è¡¨ç¤º ä¸º
ç³»ç»Ł åľ¨
çļĩ çĶ«
è¡Ĺ æľº
æĸĩåĮĸ å±Ģ
æľĹ æĸ¯
ä¸´ çķĮ
ä¹ĭåĲİ åľ¨
ä¼ĺ ç¾İ
çĭ¬ç«ĭ æĪĺäºī
æ²ĥ ç½Ĺ
9æľĪ 12æĹ¥
çĶŁäº§ å»ºè®¾
1æľĪ 8æĹ¥
å®¾ å®¢
om p
ãģ ¡
æķĮ äººçļĦ
åĢŁ åı£
åĽº æĢģ
éļıåĲİ åľ¨
St ore
åĿļ å°¼
æĿĤå¿Ĺ çļĦ
æŁ¯ åįĹ
æķĻåłĤ çļĦ
å·´é»İ åľ°éĵģ
æĶ¶å½ķ åľ¨
3æľĪ2 9æĹ¥
éĶĢåĶ® éĩı
æĻ®éģį çļĦ
æłĩå¿Ĺ æĢ§
ç¥Ŀ è´º
é²į äºļ
æĤ¬ æµ®
è¡° åıĺ
æŃ£å¸¸ çļĦ
æŃ¥åħµ åĽ¢
æī¶ æ¢¯
æĬĵ æįķ
éĩįéĩı çº§
é±¼éĽ· èīĩ
åįĹæŀģæ´² çļĦæµ·
è½¬ä¼ļ è´¹
åŁºéļĨ å¸Ĥ
æĶĢ çĻ»
é¢Į éª¨
åłµ å¡ŀ
èī° èĭ¦
æĸ°åįİ ç¤¾
å®Ĺåº§ ä»£çī§
èĭ· éħ¸
éĶĪ éĴ¢
é¢ĦéĢī èµĽ
ç¼ĸå¹´ åı²
æĸ½å¯Ĩ çī¹
) âĢĿ
2 åĪĨ
3 æľĪ17æĹ¥
6 ä¸ªæľĪ
7 æľĪ14æĹ¥
B U
åľ ĥ
å· ½
åĴĮ åį¡
åĴĮ åĨĽäºĭ
20 7
æ°ĳ æŃĮ
åħĭ èİīä¸Ŀ
èĩª æĪĲ
å¼Ģ å¿ĥ
åı¯ ä¿¡
åĬł éĢŁåº¦
æĸĩ åįİ
åīį èĭıèģĶ
é«ĺ éŁ³
ä¹Ł åĮħæĭ¬
çŃī é¢ĨåŁŁ
åħ¥ ä¸»
äºĮ ç»´
ä¸¤ æŀļ
æĢ» éĩıçļĦ
æĢ» åĬ¨åĳĺ
æŃ£ çº¿
æ°´ è§£
åı² ä¹¦
å¥¥ åĭĴ
é² ĳ
ä¸ĩ åĽ½
åıį åĵį
åĲĦ ç«Ļ
åĲĦ å¤Ħ
åı¤ æĸ¯
åıĺ æĽ´ä¸º
æľĿ è´¡
åı¯ä»¥ éĢıè¿ĩ
å¾Ģ åĮĹ
å¡Ķ çĵ¦
èı ħ
çĪ± ä½ł
çĶ° åĽŃ
çĻ¾ æħķ
çķĻ æł¡
èĢģ å¤§
å·Ŀ å¸Ĥ
æī¿ æİ¥
ç®¡çĲĨ åĴĮ
åıĳçĶŁ åĨ²çªģ
ä½Ľ çĳŀ
æŀ¶ è®¾
æľĢé«ĺ å³°
äºĨä¸Ģ å®¶
åħį éĻ¤
åĩı éĢŁ
3æľĪ 19æĹ¥
åĩºçīĪ åķĨ
6æľĪ 18æĹ¥
6æľĪ 19æĹ¥
ãĥ Ń
ç»ĵæŀĦ åĴĮ
5æľĪ 18æĹ¥
æŁĲ æŁĲ
èµŀ æ¯Ķäºļ
æĬµ æĮ¡
èľ ´
å·¥ä¸ļ åĮĸ
å®Įåħ¨ æ²¡æľī
çĶµåŃĲ éĤ®ä»¶
å®ŀéĻħ çļĦ
è¾ħ ä»ģ
æİĮ æĿĥ
ç²ī æľ«
åľ°ä¸ĭ äºĮå±Ĥ
è·ĳ é©¬
åĩºçĶŁäºİ ç¾İåĽ½
ä½ľæĪĺ çļĦ
ç¯® çĲĥéĺŁ
çĳŀå£« èģĶéĤ¦
10æľĪ2 7æĹ¥
äºİ198 1å¹´
4æľĪ2 5æĹ¥
é«ĺä¸Ń çĶŁ
ä½ıå®ħ åĮº
æľīæĹ¶ åĢĻ
ä¸Ľ ä¹¦
åĳĬè¯ī ä»ĸ
åį°ç¬¬å®ī çº³å·ŀ
ç»ıçºª äºº
åĭī å¼º
åħ³ä¸ľ åĨĽ
çĸ² åĬ³
æ¤° åŃĲ
äºļè¿Ĳ ä¼ļ
çĶ°çº³è¥¿ å·ŀ
ä¸Ńåħ¨ ä¼ļ
æīĢå±ŀè¡ĮæĶ¿åĮºåŁŁ åĪĴå½Ĵ
0 èĩ³
7 æľĪ22æĹ¥
F T
s a
åľ¨ èİ«æĸ¯ç§ĳ
ä¸Ģ æł¹
åĮ ®
åŃ¦ ç«¥
ä¸Ĭ éĩİ
ä¸İ å¦»åŃĲ
ä¸į åĮħæĭ¬
åĲį æ¬¡
ä¸» è§Ĥ
å¹¶ æĪĲä¸º
åıĬ åĽ½éĻħ
åĲĮ çŃī
å¼Ģ æĪĺ
åįĹ éĹ¨
æµ· éĺ²
æīĢ å°ıåŃ¦
ä¸ī æ®µ
è½¦ åĴĮ
è½¦ éĺŁçļĦ
å·¥ åľº
èĥ½ ä¸İ
é©¬ äºļ
åįģ åĩł
å·ŀ æīĢè¾ĸçļĦä¸Ģä¸ª
æķ° åįģå¹´
ä¸¤ éĻ¢
ä¸¤ åįĥ
ä¸¤ äººåľ¨
10 åı·
å°¼ èĮ¨
æ® Ĩ
å®ŀ çī©
åħļ ä¸»å¸Ń
ç±» èį¯çī©
åįķ èº«
ä¸ĩ æĪ·
ä¸ĵ ä¸º
è½¬ éĢŁ
åı¯ä»¥ éĢīæĭ©
æ³¢ æĹģ
ä¸ĸçķĮ è§Ĥ
åħĪ åīįçļĦ
åįı ä½ľ
åľŁ çĶŁ
ar ch
åħ¶ä»ĸ åľ°æĸ¹
åįļ çī¹
æ¯į çĮª
çº¢ çīĽ
è®¾è®¡ ä¸º
åºķ ä¸ĭ
çľĭ å¾ħ
ãĢį. ãĢĬ
éŁ© å»º
æĻļ æ¸ħ
èįī åĿª
çĭ¬ç«ĭ è¿ĲåĬ¨
12æľĪ 5æĹ¥
æŀª æīĭ
è¿½ æĤ¼
10æľĪ 18æĹ¥
8æľĪ 6æĹ¥
6æľĪ 9æĹ¥
æķĳ ä¸ĸ
æ¦Ĥ æĭ¬
éª¨ çģ°
éĺ¿å°Ķ çĵ¦
ch o
æ¿Ģ åĬ¨
é»ĺ è®¤
35 00
èĪį å°Ķ
å®ĺæĸ¹ å®£å¸ĥ
éĴ± åºĦ
æ¼Ķåĩº çļĦ
çº¦ç¿° åĨħ
è·¯çº¿ çļĦ
åĽ½çİĭ çļĦ
æ¢¦ å¹»
äºİ18 2
é¼ĵ èĪŀ
ä¿ĿæĮģ åľ¨
ç¢ĳ æĸĩ
å·¦åı³ çļĦ
å¤ªå¹³æ´ĭ æĪĺäºī
æĻ¶ çīĩ
æ®ĸæ°ĳ èĢħ
éĶĢåĶ® é¢Ŀ
7æľĪ2 6æĹ¥
11æľĪ2 5æĹ¥
å¤§è¥¿æ´ĭ æ¯ĶåĪ©çīĽæĸ¯
èŀº ç§ĳ
æģĲæĢĸ ä¸»ä¹ī
AM D
è¥¿å®ī å¸Ĥ
æ´¾åĩº æīĢ
èĴĻçī¹ å¨ģå°Ķç¬¬
ä»¥åįĹ çļĦ
éħ· åĪĳ
æİł é£Ł
Sc ript
èĤĿ çĤİ
ç¼Ķ ç»ĵ
ç¡®ç«ĭ äºĨ
ç»ĩçĶ° ä¿¡
è¿Ń ä»£
çŀĦåĩĨ éķľ
åĥµ å°¸
htt p
èļĮ åŁł
bur g
iP ad
éĢĬå°¼ æ´¾
1 æľĪ13æĹ¥
2 23
6 æľĪ22æĹ¥
C U
E p
W S
W in
b u
c y
ä¸Ń ä¹ĭ
ä¸Ń å·´
åĨ Ĺ
åĴĮ åıį
åĴĮ æĶ¿åºľ
åĴĮ åį°åº¦
ä¸į æĿ¥æ¢ħ
åĪ° é¦Ļæ¸¯
èĢĮ æŃ»
é¢ Ĭ
çī¹ æĦı
åı¯ è¿½æº¯åĪ°
æľĢ æİ¥è¿ĳ
ç¾İ å¥³
é«ĺ æīĭ
é«ĺ åį¢
äºļ éĤ£
æīĢ åŃ¦æł¡
æīĢ ç»ĦæĪĲçļĦ
èµĽ åĮº
å°Ĩ å¥¹
æľŁ æ»¡
äºĮ çĶ²åŁº
é©¬ åĪ©äºļ
éĢļ å·ŀ
åĮĸ åĲį
å¤© ç¥ŀ
ä¸¤ éĥ¨åĪĨ
10 æľĪ22æĹ¥
éĥ½ å·²
åı· å¿Ĺ
äº¤ æīĭ
åıĹ çģ¾
ä¿Ŀ ç®¡
é² Ģ
æĽ´ æĶ¹ä¸º
ä¸ĩ çī©
or m
å¸Ī å¸Īéķ¿
éĵģ çº¿
æĭ¬ åı·
åį³ åħ´
é¾Ļ èĪŁ
çĵ¦ èİ±
æĬķ åĩº
éĢŁ æ»ĳ
æ²Ļ å§Ĩ
éĿĴ èĽĻ
çĻ» æľº
æ¸¸æĪı ä¸ŃçļĦ
al ign
æĿĢ ä¼¤
ç¬¬ä¸ī å¤§
æ°¸ å®ģ
çĶŁæ´» æĸ¹å¼ı
çļ® åħĭæĸ¯
é©» éĺ²
çŁŃ éģĵ
ä½³ ç»©
æĸ¯çī¹ åĩ¡
åħ¼ å¹¶
äº¿ äººæ°ĳå¸ģ
è®Ń å¯¼
3æľĪ 4æĹ¥
3æľĪ 3æĹ¥
èĮĥåĽ´ çļĦ
22 ä¸ª
ä¼ĳ åģĩ
2æľĪ 11æĹ¥
æ¡ĳ å°¼äºļ
åĪ¶éĢł äºĨ
åŁºæľ¬ æ³ķ
ä½Ĳ å¤«
å¾½ å®Ĺ
å¸®åĬ© çĲĥéĺŁ
ä¸Ńæĸĩ ç³»
9æľĪ2 æĹ¥
æĪĸèĢħ æĺ¯
åįľ åĭĴ
åĩºå¸Ń äºĨ
å®ĩå®Ļ çļĦ
æĲº æīĭ
æĸĲ æµİ
åı¤åħ¸ ä¸»ä¹ī
å¥¶ æ²¹
å±ķçİ° äºĨ
åĵª äºĽ
æ¬ł ç¼º
æĹłè®º æĺ¯
åİŁåŀĭ æľº
åĵĪå¾· éĢĬ
åĵĪé©¬ æĸ¯
åħĸ å·ŀ
å¦¨ ç¢į
å¨ģæĸ¯çī¹ æ³ķä¼¦
æĬĴ æĥħ
Record s
4 æľĪ13æĹ¥
5 æ¬¡
B B
D i
T a
X P
Ï Ħ
çļĦ é«ĺåº¦
ä¸º åįģäºĮ
ä¸Ģ ä¸¾
åĽ½ äºº
æĺ¯ ä¸ĸçķĮ
å¤§ æ²³
æľī ä¸º
åĴĮ åĲİ
20 9
æ° ĵ
åĲİ ä¸º
æĹ¶ ä»¥
äºĨ å¤§
æĸ¯ çļ®
æİ £
åħ¬ åŃ¦æł¡
åħ¬ æĺł
æĸ¹ å®ī
ä¸ĭ æĸ¹çļĦ
å¤ļ çĶ¨éĢĶ
èĩª åĬ©
æĸ° å¢¨è¥¿åĵ¥
ç¾İ ç´¢ä¸įè¾¾ç±³äºļ
ä¸ľ éĿŀ
å¾Ĺ çĽĬ
çĶµ ç½ĳ
å¤ĸ ç¥ĸçĪ¶
ç±³ å°Ķæĸ¯
èµ· ä¸º
çģ ı
äº§ åľ°
åı² èĢĥ
æĶ¹ éļ¶å±ŀäºİ
å¸¸ çĶ¨äºİ
é² ½
11 æľĪ21æĹ¥
æĬ¥ èĢĥ
åı¤ çĶŁçī©åŃ¦å®¶
çĵ ¯
ç¬¬ä¸Ģ é¦ĸ
æ¯ı ä½į
è½¬ åıĺæĪĲ
åķĨ è´¸
çĻ½ è¡Ģ
ç¦ı æ¸ħ
åľ£ åľ°äºļåĵ¥
èĲ¨ åħĭæĸ¯
åįĥ æĪ·
ä¼¯ å¾·
åı¦ ç±»
èİ± ç´¢
èİ± æĸ¯çī¹
å¾Ī ä¹ħ
åĽ½éĻħ è±¡æ£ĭ
åĮ» æĬ¤
çĭ¬ å¥ı
åĨĻ åĩº
äºİ19 18å¹´
è¿ª å¥¥
ä¾¿ åı¯
ç®¡çĲĨ åŃ¦éĻ¢
å¯Į ç¿ģ
å»ºç«ĭ åľ¨
æļ´ é¥®
7æľĪ 3æĹ¥
9æľĪ 7æĹ¥
äº¤éĢļ å±Ģ
æİ¥åıĹ çļĦ
æ¢ģ æĮ¯
ä½įç½® çļĦ
å±ŀçļĦ åĬ¨çī©
éļıåĲİ è¢«
è¿ĺæľī ä¸ĢäºĽ
åĲ¬ åıĸ
æľīä¸Ģ ä½į
æľĿé²ľ åĬ³åĬ¨åħļ
çļĦåľ° åĽ¾
åįļçī©é¦Ĩ çļĦ
ä¸ĵä¸ļ çļĦ
å¤§çº¦ æĺ¯
188 4å¹´
èĩ³å°ĳ éĢłæĪĲ
èħ¹ è¶³
æĲľ æķĳ
è¾¾æĪĲ åħ±è¯Ĩ
åľ¨199 0å¹´
äºİ196 5å¹´
åħĭèİ± èĴĻ
å¼¥ æĴĴ
ç¥¨æĪ¿ æĶ¶åħ¥
è¶ĭ äºİ
ä¸įä»ħ æĺ¯
ç£¨ æįŁ
ä¼Ĺè®®éĻ¢ è®®åĳĺ
å¼ĵ ç®Ń
çĲĨæŁ¥ æ£®
ä¸Ĭå¸Ĥ åħ¬åı¸
åħļç»Ħ æĪĲåĳĺ
è´Ńçī© ä¸Ńå¿ĥ
ç½ķè§ģ çļĦ
è¥¿åħĥ åīį
åĮĹæ´ĭ æĶ¿åºľ
çĻ¾å¼º åįķæĽ²æ¦ľ
å·¥åĨľ çº¢åĨĽ
æĸ½æĶ¿ æĬ¥åĳĬ
åįĳè¯Ĺ çľģ
3 æľĪ21æĹ¥
4 äºº
Q Q
S a
i Phone
çļĦ åħ±åĲĮ
åľ¨ çİ°ä»£
åľ¨ 2002å¹´
ä¸º éŁ©åĽ½
ä¸º éĽ¶
è¯ £
ä¸Ń å°ıåŀĭ
æľī ä¸ĢåĲį
20 8
ä¼ļ åłĤ
æİ ĸ
ä¹ĭ å·®
å®¶ åħ¬åı¸
ç¾ °
åħĭ ä»Ģ
è¿Ļ é¦ĸæŃĮæĽ²
å¤ļ æĺİ
æĸĩ æ³ķ
æĸĩ å°¼å¯Ł
ç¾İ ç±į
é«ĺ æĸ°æĬĢæľ¯
æµ· éĿ¢
æīĢ ä¸º
è½¦ ç¨ĭ
åĲĪ åĬĽ
åħ± è½Ń
å±± ä½ĵ
åĮĸ è§£
åħ¨ æĹ¥æľ¬
ç§° çļĦ
èģĶ çļĦ
10 åı·çº¿
æĢ» åĮ»éĻ¢
åħ³ ç¾½
éĥ½ çģµ
åŁİ ä¸»
è®¡ æĹ¶
å¸¸ æĢģ
å¥³ éĥİ
èį ļ
æĽ¾ åĲĳ
å®ŀ å¢ĥ
ä¹ī åĴĮ
æ¸¸ è®°
éª ¥
å¼ł ä¼¯
æīĵ åĢĴ
è´¨ è¯¢
èĲ¨ å¾·
çĻ» åľºçļĦ
è¡ĮæĶ¿ æĿĳ
è®© æĪĳ
åģľ é©¶
æīĢæľī äºº
ä½Ļ ä¸ĭçļĦ
194 0å¹´ä»£
åħ¨åĽ½ åĲĦåľ°
éģĹ å¤±
å½Ĵ æĿ¥
èµ« å¾·
æĭį çħ§
8æľĪ 4æĹ¥
8æľĪ 20æĹ¥
6æľĪ 11æĹ¥
æķĳ åĽ½
é¢Ĩå¯¼ å±Ĥ
çļĦæĹ¶ åĪ»
åªĴä½ĵ æĬ¥å¯¼
ä¹Ķ ä¸¹
åĲĽ åŃĲ
å·¨ èĽĭ
éĢĥ èĩ³
ç¿» ä¿®
çĶ³ è¯ī
éĻµ å¯Ŀ
ãĤ ī
åĪĨä¸º ä¸¤ä¸ª
çļĦåľ° éľĩ
è¿Ļç§į æĥħåĨµ
æģĭ çī©
ä¾į ä»İ
10æľĪ2 9æĹ¥
è®¿éĹ® æĹ¶
åįĬå²Ľ çļĦ
è¡¨è¾¾ äºĨ
åī² æį®
æĸľ åĿ¡
åıªèĥ½ åľ¨
åįģä¹Ŀ å¹´
éĺ²å¾¡ å·¥äºĭ
åĲĲ é²ģçķª
ç¨» åŁķ
åĬ² æŃĮ
ç¼´ çº³
ä¸ĭä¸Ģ ä»£
è¶ħäºº åĬĽ
å¤įä»ĩ èĢħ
å¯ĦçĶŁ èĻ«
åĪĨè¾¨ çİĩ
å¼ĤæĢ§ æģĭ
ç½ĳéĻħ ç½ĳè·¯
çĶŁäº§å»ºè®¾ åħµåĽ¢
3 æĿ¡
3 æľĪ14æĹ¥
D DR
F ar
c u
e le
â ĺ
çļĦ ä¹¦
çļĦ æĪĲåĬŁ
çļĦ åħ·ä½ĵ
ä¸Ģ å±Ĭ
å¤§ åħ¸
å¤§ å¾ĭå¸Ī
æľī äºĶ
åĴĮ ä¸¤ä¸ª
çİ Ł
äºĨ æĸ°
ä¸İ åįĹ
ä¸İ ä¸ī
ä»ĸ è®¤ä¸º
åĮº æīĢå±ŀçļĦä¸Ģä¸ª
è¥¿ ç«¯
è¢« æ¯ģ
æĿ¥ åĪ°äºĨ
åįĹ å¾·
å¹³ ç¨³
æľĢ åıĹ
æīĢ å»º
éĹ´ æĸŃ
æŃ¤ ä¹¦
ä¹Ł æĹłæ³ķ
çī© ä»·
å·ŀ äºĮ
Ġ åľ¨
Ġ çĶŁå¹³
Ġ åİĨåı²
g t
l t
Ġ åľ°çĲĨ
Ġ C
Ġ äººåı£
Ġ B
Ġ S
Ġ M
Ġ F
Ġ formula
Ġ of
Ġ the
Ġ P
Ġ ä¸İ
Ġ æł¹æį®
Ġ R
a Ġ
Ġ H
Ġ L
æĺ¯ ä½įäºİç¾İåĽ½
Ġ D
s Ġ
Ġthe Ġ
Ġ çļĦ
ä½įäºİ è¯¥åĽ½
: )
Ġ T
Ġ K
Ġ G
Ġ æĶ¿æ²»
Ġ å¹´
Ġ A
Ġ çĶ±äºİ
Ġ è¯¥
Ġ 2021å¹´
Ġ 2019å¹´
Ġof Ġ
Ġ 2020å¹´
Ġ W
Ġ 2018å¹´
Ġ 2
: .
Ġ è¡ĮæĶ¿
äººåı£æķ°éĩıä¸º äºº
Ġ 2017å¹´
éĤ®æĶ¿ç¼ĸçłģ ä¸º
Ġ 1
Ġ 2016å¹´
å¤ıä»¤ æĹ¶
INSEE å¸Ĥéķĩç¼ĸçłģ
INSEEå¸Ĥéķĩç¼ĸçłģ ä¸º
Ġ è½¦ç«Ļ
Ġ J
äºİæĹ¶çļĦ äººåı£æķ°éĩıä¸ºäºº
ç¾İåĽ½äººåı£æĻ®æŁ¥ çļĦæķ°æį®
èĢĮ äººåı£å¯Ĩåº¦ä¸ºæ¯ıå¹³æĸ¹åįĥç±³
æĪĸ æĹ§å¸Ĥéķĩ
è¯¥ çľģä»½
æīĢå±ŀçļĦçľģçº§éĢīåĮº ä¸º
Ġ V
Ġ 2022å¹´
è¯¥çľģä»½ ä¸ºæ³ķåĽ½
Ġ N
Ġ 2014å¹´
Ġ 2015å¹´
Ġ 2013å¹´
ing Ġ
Ġ E
Ġ 3
Ġ and
Ġ 2023å¹´
Ġ in
Ġ 2012å¹´
Ġ 4
èĢĮ æ°´åŁŁéĿ¢ç§¯ä¸º
y Ġ
èĢĮ æĺ¯
Ġ è¡ĮæĶ¿åĮºåĪĴ
The Ġ
Ġ 2024å¹´
ed Ġ
åĮĹ èµ·
Ġ ä»İ
åİ¿ äºº
Ġ s
Ġ 2011å¹´
h ans
Ġ æ¦Ĥ
Ġ 2010å¹´
Ġ çļĦæĹ¶åĮºä¸º
Ġ äºİæĹ¶çļĦäººåı£æķ°éĩıä¸ºäºº
Ġ æīĢå±ŀçļĦçľģçº§éĢīåĮºä¸º
Ġä¸İ æİ¥å£¤çļĦå¸Ĥéķĩ
ĠçļĦ éĤ®æĶ¿ç¼ĸçłģä¸º
h k
Ġ O
Ġ å®¶æĹı
: ),
o Ġ
Ġ åĴĮ
ä½Ĩ çĶ±äºİ
Ġ zh
Ġ èĩª
Ġ 6
Ġ 2008å¹´
Ġ æľ¬
2020å¹´ ç¾İåĽ½äººåı£æĻ®æŁ¥çļĦæķ°æį®
Ġ æĹ©å¹´
æĺİæľĿ æĶ¿æ²»äººçī©
Ġ 5
ä¸ľ ä¸´
Ġ 2009å¹´
Ġ d
åħ¶ä¸Ń åĮħæĭ¬
Ġ 2025å¹´
èĢĮæ°´åŁŁéĿ¢ç§¯ä¸º 0
Ġ c
Ġ de
Ġ f
Ġ åī§æĥħ
Ġ 2007å¹´
Ġ æŃ¤å¤ĸ
Ġand Ġ
Ġ Ch
Ġ åħ¶ä»ĸ
Ġ b
Ġ èĥĮæĻ¯
Ġ ä»ĸ
Ġ æŃ¤
è¯¥ æĿĳ
Ġ p
Ġ m
ä¸Ģ å°ıæĹ¶
åħ¶ä¸Ń çĶ·æĢ§
on Ġ
i Ġ
Ġ èĻ½çĦ¶
an Ġ
è¥¿ æİ¥
ä¸Ńåįİäººæ°ĳåħ±åĴĮåĽ½ æĶ¿æ²»äººçī©
Ġ åľ°æĸ¹
Ġ 2006å¹´
ä½Ĩ ä»ĸ
al Ġ
å¹¶ çĶ±
Ġ U
ä»ĸ æĽ¾ä»£è¡¨
2 Ġ
Ġ to
Ġ 7
1 Ġ
Ġ å¤§
Ġ å½ĵ
Ġ ç®Ģä»ĭ
is Ġ
Ġ æĽ¾ç¥ĸ
Ġåľ°æĸ¹ èµĦæĸĻ
Ġ æį®
c n
Ġ ç¾İåĽ½
ä¸º UTC
Ġ äº¤éĢļ
è°ĥå¿« ä¸Ģå°ıæĹ¶
èĢĮ è¯¥åľ°æīĢéĩĩçĶ¨çļĦæĹ¶åĮºä¸º
åį³ UTC
èĢĮè¯¥åľ°æīĢéĩĩçĶ¨çļĦæĹ¶åĮºä¸º UTC
Ġ 2005å¹´
Ġ I
en Ġ
åį³ åĮĹç¾İ
Ġ æĺ¯
ä½Ĩ åĽł
Ġ St
æĺ¯ å¾·åĽ½
Ġ 8
Ġ ä¸ªäºº
Ġ ä¸ŃåĽ½
Ġ åı°æ¹¾
Ġ è¿Ļ
es Ġ
Ġ 10
Ġ ä¸º
Ġ å®¶åºŃ
Ġ èĢĮ
/ &
Ġ 0
Ġ éĻ¤äºĨ
er Ġ
Ġ çĦ¶èĢĮ
ä¸İ æŃ¤
Ġ éĺ¿
Ġ æķħäºĭ
Ġ æľī
Ġ ä½¿çĶ¨
Ġ åħ¶
e Ġ
Ġ ä¸»è¦ģ
7 äºº
Ġ æĹ¥æľ¬
Ġ æĸ°
Ġ çĽ®åīį
; /
ä½įäºİ è¯¥
Ġ çĶ±
èĢĮ è¯¥åľ°çļĦ
6 äºº
Ġæ¦Ĥ è¦ģ
(,; )
Ġ å¯¹
Ġ é¦Ļæ¸¯
Ġ æĿİ
Ġ å°½ç®¡
Ġ åı¦å¤ĸ
Ġ 2004å¹´
Ġ X
(; )
Ġ åľ£
Ġ ä»¥ä¸ĭ
åİ¿çļĦä¸Ģä¸ª éĿŀå»ºåĪ¶åľ°åĮº
section Ġ
Ġ In
5 ç±³
000 äºº
Ġæł¹æį® 2020å¹´ç¾İåĽ½äººåı£æĻ®æŁ¥çļĦæķ°æį®
Ġ 9
Ġ for
8 äºº
Ġ åħ¶ä¸Ń
Ġ è¯Ħä»·
Ġ éĻĪ
h ant
æĺ¯ ä¹Įåħĭåħ°
è¿Ļ ä¹Łæĺ¯
Ġ t
Ġ æ¸¸æĪı
9 äºº
æĺ¯ æĦıå¤§åĪ©
Ġ æľĪ
ä½Ĩ åħ¶
è¿Ľå£« åĩºèº«
Ġ 2003å¹´
ic Ġ
èĢĮè¯¥åľ°çļĦ å¹³åĿĩæµ·æĭĶé«ĺåº¦ä¸º
åį¢çĵ¦å°Ķ çľģ
æł¹æį®2010å¹´ ç¾İåĽ½äººåı£æĻ®æŁ¥çļĦæķ°æį®
ä¸İæŃ¤ åĲĮæĹ¶
åĲį è¿Ľå£«
çĶ±äººå·¥å¼ķç§į æł½åŁ¹
æĺ¯ è¥¿çıŃçīĻ
ä¸ĭè¾ĸä»¥ä¸ĭ åľ°åĮº
, )
ä½įäºİè¯¥ çľģ
çĽ®åīį å°ļæľª
åĲį ä¸¾äºº
éĿ¢ç§¯ 0
Ġ ç»ıæµİ
Ġ åīį
Ġin Ġ
Ġ å¯¹äºİ
èĳĹ æľī
Ġ ä¸ºäºĨ
åİ¿çļĦä¸Ģä¸ªè¡ĮæĶ¿ éķĩåĮº
; &
Ġ ç®Ģ
Ġ 2002å¹´
Ġ åĪ¶ä½ľ
Ġ ä»¥
us Ġ
4 Ġ
çĽ®åīįå°ļæľª çĶ±äººå·¥å¼ķç§įæł½åŁ¹
Ġ 1949å¹´
Ġä¸ªäºº çĶŁæ´»
3 Ġ
æĺ¯ ä¸ĭè¾ĸçļĦä¸Ģä¸ª
cod ice
Ġof ĠtheĠ
Ġ æĪªèĩ³
Ġ åıĤèĢĥ
æĺ¯ä¸Ģä¸ª ä½įäºİç¾İåĽ½
Ġ 2001å¹´
è¯¥åľ°çļĦ éĿ¢ç§¯åĴĮäººåı£
çļĨæľª çŁ¥
è¯¥åľ°çļĦéĿ¢ç§¯åĴĮäººåı£ çļĨæľªçŁ¥
å¹¶ è¡¨ç¤º
è¿Ļ æĹ¶
è¯¥ åºĦ
éĿ¢ç§¯ 1
Ġ é©¬
Ġ ä½ľä¸º
Ġ 2000å¹´
Ġ h
Ġ çİĭ
H R
Ġè½¦ç«Ļ ç»ĵæŀĦ
æ¸ħæľĿ æĶ¿æ²»äººçī©
Ġ æĹ©æľŁ
Ġ Re
åİ»ä¸ĸ åĲİ
Ġ 11
Ġ aĠ
. &
å·ŀ è´Łè´£ç®¡è¾ĸ
æĺ¯ä½įäºİ ä¹Įåħĭåħ°
Ġ å»ºçŃĳ
Ġ æł¹æį®2010å¹´ç¾İåĽ½äººåı£æĻ®æŁ¥çļĦæķ°æį®
Ġ Y
ia Ġ
ãĢĬ ãĢĭ,
Ġ æ²¿éĿ©
è§Ĩ æĺŁçŃīä¸º
æł¹æį® 2020å¹´ç¾İåĽ½äººåı£æĻ®æŁ¥çļĦæķ°æį®
Ġ Z
Ġ Pro
Ġto Ġ
Ġ g
èµ¤ ç»ı
å·ŀ çļĦä¸Ģä¸ªå¸Ĥéķĩ
Ġ æĹ¥
Ġ æľ¬ç«Ļ
Ġ 12
in Ġ
le Ġ
å¹¶ ä¸º
Ġ éĩĳ
ä½Ĩ æĺ¯åľ¨
Ġ å®ĥ
ä½įäºİè¯¥åĽ½ è¥¿éĥ¨
Ġ ä¸Ń
Ġ äºīè®®
ä½Ĩ ä»į
ä½Ĩ æľĢç»Ī
Ġ åĪĨå¸ĥ
åİ¿çļĦ éĿŀå»ºåĪ¶åľ°åĮº
å¹¶ä¸Ķ åľ¨
Ġ 18
5 åħ¬éĩĮ
ä¸Ń é¥°æ¼Ķ
ä½įäºİ éĵ¶
çİ°æĹ¶ çĶ±
Ġç®Ģ åİĨ
Ġè½¦ç«Ļ æŀĦéĢł
0 åĿĲæłĩä¸º
åħ¶ B1900
000 åĲį
ä½įäºİéĵ¶ ç»ı
0åĿĲæłĩä¸º èµ¤ç»ı
, "
åĽłæŃ¤ åľ¨
Ġ å¼ł
Ġ 1999å¹´
Windows Ġ
Ġ ä½Ĩ
Ġ ç»ıåİĨ
Ġ é»Ħ
ä¹¡éķĩçº§è¡ĮæĶ¿ åįķä½į
Ġ çĽ¸åħ³
ä½Ĩ æ²¡æľī
èĢĮå¾Ĺ åĲį
Ġ 19
Ġ è¥¿
Ġ æĭī
E ST
å±±èĦī çļĦä¸Ģéĥ¨åĪĨ
æĺ¯ ä¿Ħç½Ĺæĸ¯
2 ç±³
A Ġ
Ġ åĪĨç±»
å±ħæ°ĳ çĤ¹
Ġ ç¬¬
ä»ĸ è¯´
Ġ èģĮä¸ļçĶŁæ¶¯
3 ç±³
5 Ġ
åįĹæŀģæĿ¡çº¦ä½ĵç³» ç®¡çĲĨ
Ġ å¤ĸéĥ¨
or Ġ
æĺ¯ åį°åº¦
åľ¨æŃ¤ æľŁéĹ´
Ġ l
Ġ çĶµå½±
HD Ġ
Ġ å°ı
Ġ æĸĩåĮĸ
èĢĮ åĲİ
Ġ Th
Ġ è¿ĻäºĽ
å¹¶ æľī
Ġ æ°ĳåĽ½
çİ°æĹ¶çĶ± åįĹæŀģæĿ¡çº¦ä½ĵç³»ç®¡çĲĨ
Ġ 1945å¹´
ä¸¹å°¼ å°Ķ
Ġ ç¤¾ä¼ļ
Ġ De
å¹¶ åĲĳ
Ġ TheĠ
Ġ Le
å¹¶ å°Ĩåħ¶
E DT
Ġ è¿Ļä¸ª
Ġ 1998å¹´
æĺ¯ä¸ĭè¾ĸçļĦä¸Ģä¸ª ä¹¡éķĩçº§è¡ĮæĶ¿åįķä½į
6 ç±³
Ġ 199
Ġ æķĻèĤ²
Ġ åħ³äºİ
Ġ é«ĺ
è¿Ī åħĭå°Ķ
å±Ĭåħ¨åĽ½æĶ¿åįı å§Ķåĳĺ
Ġ v
as Ġ
Ġ 16
Ġ æ¯ĶèµĽ
å¹¶ å¯¹
5 è°ĥå¿«ä¸Ģå°ıæĹ¶
Ġ 1997å¹´
æĺ¯ä¸Ģé¢Ĺ åĽ´ç»ķå¤ªéĺ³åħ¬è½¬çļĦå°ıè¡ĮæĺŁ
åį³åĮĹç¾İ ä¸ľéĥ¨æĹ¶åĮº
Ġ èĭ±åĽ½
Ġ å¦Ĥæŀľ
Ġ è¿Ļé¢Ĺå°ıè¡ĮæĺŁçļĦç»Ŀå¯¹æĺŁçŃīä¸º
ä½Ĩ è¿Ļ
Ġ ä¸ī
æŃ¤ å¤©ä½ĵ
Ġ æ³ķåĽ½
Ġ 15
Ġ åĪĺ
ä½Ĩ åį´
Ġ ä¸ĢäºĽ
Ġ 1994å¹´
è¿Ļ ä½¿å¾Ĺ
8 ç±³
Ġ å½±åĵį
Ġ éŁ³ä¹Ĳ
Ġ åĽłä¸º
å¹¶ ç§°
00 å¹³æĸ¹åįĥç±³
Ġ å¤©
Ġ æĪĺåĲİ
Ġ w
Ġ 1991å¹´
Ġ 20
ä¸Ģ è¯´
çĪĨåıĳ åĲİ
Ġ åĽ½éĻħ
Ġ åįĹ
C ST
Ġ n
6 è°ĥå¿«ä¸Ģå°ıæĹ¶
CD T
åį³åĮĹç¾İ ä¸Ńéĥ¨æĹ¶åĮº
Ġ åħ¶åĲİ
èĳ¡èĲĦçīĻ è¯Ń
Ġ é¥°
Ġ çī¹å¾ģ
et Ġ
åĮºçļĦ è´Łè´£ç®¡è¾ĸ
Ġ II
1 ç±³
çļĦ åº§æłĩä¸º
Ġ 1995å¹´
ä¸º åĲį
at Ġ
åĮº è´Łè´£ç®¡è¾ĸ
Ġ åĽł
ãĢĬ ãĢĭ.
åĮĹèµ· é¡ºæĹ¶éĴĪä¸İ
Ġ åıĳå±ķ
Ġ 1996å¹´
æķħ æŃ¤
Ġ st
Ġ æľ¬å±ŀ
Ġ åıĳè¡Į
col span
Ġ åĪ°
è§Ĥ æĶ¿
Ġ æŀĹ
æĺ¯ éŁ©åĽ½
åıĳçİ°äºĨ æŃ¤å¤©ä½ĵ
Ġ 17
Ġ Se
è¯¥ çī©ç§įçļĦ
ä½Ĩ è¢«
Ġ ä½įäºİ
Ġ 1993å¹´
ä½Ĩ ä¹Ł
Ġ ç¬¬äºĮ
Ġ åĲİæĿ¥
ä½Ĩ åĽłä¸º
æ°ĳ ç±į
åħ¶ä¸Ń æľī
Ġ äºİ
è¿·ä½ł ä¸ĵè¾ĳ
. ,
åı² ç§°
æĪĲç«ĭ åĲİ
Ġde Ġ
Ġ åĲĮå¹´
Ġ e
Ġ èĳĹä½ľ
å¥¹ æĽ¾ä»£è¡¨
ä¸Ģ ä¹¦
å¹¶ æĭħä»»
7 ç±³
Ġ ç¬¬ä¸Ģ
Ġ 1992å¹´
Ġ Al
ä»ĸ äºİ
ä½Ĩ åĲİæĿ¥
Ġ ä¸ĢèĪ¬
Ġ Ð
Ġ k
è¿Ļ ä¹Ł
Ġ è®¾è®¡
Ġæ¦Ĥ è¿°
4 ç±³
ä»¥åıĬ åľ¨
çĲĨæŁ¥ å¾·
sectionĠ begin
åİ¿çļĦ åŁİå¸Ĥ
çº½çº¦ æĹ¶æĬ¥
Ġ ç¬¬ä¸ī
Ġ æľ¬é±¼
6 Ġ
Ġ Co
Ġ è®¸å¤ļ
sectionĠ end
ä¸º Ġ
çļĨä¸º éĻĨåľ°
ation Ġ
Ġ ä¸ľ
Ġ 14
Ġ Sh
ä¸Ńåįİäººæ°ĳåħ±åĴĮåĽ½æĪĲç«ĭ åĲİ
Ġ åį¡
Ġ 1988å¹´
âĢľ "
ĠåİĨåı² æ²¿éĿ©
Ġ èĭ¥
çļĦçī¹æľī æ¤įçī©
Ġfor Ġ
Ġ æĪĸ
Ġ æ°´
Ġ ä¹Įåħĭåħ°
æĺ¯ä¸Ģé¢Ĺ æģĴæĺŁ
Ġ re
Ġ éļıèĳĹ
Ġ 13
Ġ åŃ¦æł¡
Ġ æŃ¤ç«Ļ
Ġ åĲįç§°
Ġ éļıçĿĢ
é©¬æģ© çľģ
Ġ å¥¹
ãĢī ,
åħ¶ éĹ´
ä»Ĭ å±ŀ
è¯¥çľģä»½ä¸ºæ³ķåĽ½ åĮĹéĥ¨
Ġ å®ī
ä½Ĩ ä¸į
åĽłä¸º å®ĥ
Ġ ä¸Ĭ
Ġ 1990å¹´
Ġ 1989å¹´
2æľĪ2 4æĹ¥
ç®¡æİ§ ä¸Ńåıĳçİ°
, ,
Ġ ç½Ĺ
Ġ Ar
éĿ¢ç§¯ 2
Ġ æ°ĶåĢĻ
å¾·éĩĮ åħĭ
ä¹ĭ ç§°
Ġ åĮĹ
è¢« èªīä¸º
äºĮåįģ äºĮå¹´
ä¸Ģå¹´ åĲİ
Ġ åĺīéĿĸ
æĺ¯ å·´è¥¿
åħ·åºĨ ä¸ĭ
å·ŀ äºº
æł¹æį®2010å¹´ ç¾İåĽ½äººåı£æĻ®æŁ¥
ĠåĴĮ Ġ
è¯¥çī©ç§įçļĦ æ¨¡å¼ıäº§
Ġ Me
å¹¶ éĢļè¿ĩ
ä¸ľåįĹ æİ¥
Ġ æĺİ
å¹¶ ä»İ
Ġ çİ°ä»£
Ġ æııè¿°
çļĦ éĤ®æĶ¿ç¼ĸçłģä¸º
el Ġ
Ġ ä¸Ģä¸ª
å¼ĹéĽ· å¾·
Ġ èĩ³
Ġ 1937å¹´
m Ġ
äºİ Ġ
å¹¶ è¦ģæ±Ĥ
å±ŀ èĤīé£ŁæĢ§
ä½¥ äºĭ
Ġ åı¤
Ġ ä¹ĭåĲİ
Ġ You
8 Ġ
9 ç±³
æµ·æĭĶé«ĺåº¦ 2
çİĩä¸º 0
æĺ¯ å¥¥åľ°åĪ©
ç§įåĬł è¯į
åĲĮå¹´ 10æľĪ
ç§°åħ¶ ä¸º
Ġ An
Ġ be
, (
å¥³æĢ§ ä¸º
æľ¬å±Ĭ èµĽäºĭ
åı²èĴĤ èĬ¬
Ġ åħ¨
ä½Ĩ ä¹Łæľī
ĠæĹ©å¹´ çĶŁæ´»
0 Ġ
x Ġ
å®ĮæĪĲ åĲİ
7 Ġ
ä½Ĩ ä»ĸä»¬
åıĪåĲį BD
Ġ å½ĵæĹ¶
ä½įäºİè¯¥åĽ½ åĮĹéĥ¨
3 ä¾ĭ
8 åħ¬éĩĮ
Ġ çĻ½
ä¸¤å¹´ åĲİ
Ġ æĿ¨
Ġ The
Ġ åĶĲ
å¸ĥæĶ¿ ä½¿
Ġ ä½ľåĵģ
æĺİæ²» ä¸īåįģ
æĺ¯ ä¹Įåħĭåħ°çļĦ
å¼ĹæľĹ ä»Ģ
Ġ å¤ļ
Ġ 1984å¹´
åºĦ æĿĳ
ä½įäºİè¯¥åĽ½ ä¸ľåįĹéĥ¨
- ,
Ġ 187
Ġin ĠtheĠ
3 åħ¬éĩĮ
I Ġ
Ġ éĻ¤
Ġ 100
Ġ style
t Ġ
ä¸įè¿ĩ åľ¨
Ġ åĲİ
Ġ ä»¥ä¸ĭä¸º
Ġ åĲİç»Ń
æ¦Ĥ è¦ģ
ä»¥ èĩ´
å±Ĭåħ¨åĽ½äººå¤§ ä»£è¡¨
Ġ æľ¬ä½ľ
è¯¥ å¸Ĥéķĩ
Ġ ç»ıè¿ĩ
Ġ è¿Ļç§į
Ġ ä¸ĩåİĨ
Ġ Ser
Ġ colspan
åĲĮå¹´ 12æľĪ
å¥¥å¼Ĺ æ¶ħ
Ġ çłĶç©¶
åī¯ å¸Ĥéķ¿
æĺ¯ä½įäºİç¾İåĽ½ å¯ĨèĭıéĩĮå·ŀ
ä¼Ĭ åĭĴ
Ġ ä¸Ģ
Ġ 186
Ġ 1982å¹´
å¹¶ çĶ¨
ä½Ĩ è¯¥
åĽłä¸º ä»ĸ
7 åħ¬éĩĮ
Ġ 1986å¹´
èĢĮ åħ¶
åĮĹ èĩ³
åŃĶæ³° å¤§åĮº
Ġ åĽłæŃ¤
" âĢĿ
Ġ åķĨä¸ļ
Ġ è½¨éģĵ
Ġ Be
åĪĨå¸ĥäºİ åįĹç¾İæ´²
Ġ ä¸ĭå±ŀ
Ġ 1950å¹´
åľ¨ Ġ
é±¼ ç§ĳçļĦåħ¶ä¸Ńä¸Ģç§į
äºĮåįģ ä¸īå¹´
ä¹Łå°±æĺ¯ è¯´
HR Ġ
Ġ ä¸įè¿ĩ
Ġ ä»¥ä¸ĭæĺ¯
éĤ® æĬ¥
Ġ ä»ĸçļĦ
Ġ èī¾
Ġ èį£èªī
äºĮåįģ ä¸Ģå¹´
Ġ Mar
éĺ¿å°Ķåįĳæĸ¯ å¤§åĮº
Ġ å·´
Ġ åľ°åĲį
å¹¶ äºİåĲĮå¹´
ä¸ĩ å¹³æĸ¹ç±³
å°½ç®¡ å¦ĤæŃ¤
ä½įäºİè¯¥åĽ½ ä¸Ńéĥ¨
Ġ æīĢæľī
Ġ ä¾ĭå¦Ĥ
Ġ Sp
Ġ 1987å¹´
çļĦ è®°è½½
è¿Ļ å¯¹
Ġ 1946å¹´
Ġ 1983å¹´
E Ġ
Ġ åĲ´
Ġ çĶŁæĢģ
Ġ 1985å¹´
è¿Ļ å°±æĺ¯
1 å®¶
æĺ¯ åįĹæŀģæ´²çļĦ
only include
2011å¹´ 12æľĪ31æĹ¥
ä¸º 0
è¿Ļæĺ¯ åĽłä¸º
åĮħæĭ¬ä»¥ä¸ĭ çī©ç§į
ä½įäºİè¯¥åĽ½ åįĹéĥ¨
Ġ ä¸Ńåįİæ°ĳåĽ½
ä»ĸä»¬ è®¤ä¸º
åħ¶ä¸Ń çĶ·
æī¹åħ¨åĽ½éĩįçĤ¹ æĸĩçī©ä¿ĿæĬ¤åįķä½į
Ġ äººçī©
Ġ äºĭä»¶
å¹¶ æĬĬ
ç§ĳ éķ¿
Ġ æľ¬çīĩ
Ġ Ex
ä½Ĩ æľª
æľīæīĢ ä¸įåĲĮ
éĢĢå½¹ åĲİ
6 åħ¬éĩĮ
å¼ĹæĭīåŁº ç±³å°Ķ
Ġ1 Ġ
Ġ åĲĦ
Ġ æ¸ħ
åĲİ ä»»
éº¦ åı¯
åĩ¯ æĸĩ
Ġ 25
åħī å¹´
Ġ En
ä»¥ çºªå¿µ
åİ¿çļĦä¸Ģä¸ª åŁİéķĩ
Ġ åħīç»ª
æĮīå¯Ł ä½¿
åħĭéĩĮæĸ¯èĴĤ å®ī
Ġæľ¬å±ŀ åĮħæĭ¬ä»¥ä¸ĭçī©ç§į
æĺ¯ ç§ĺé²ģ
åľ°éĿ¢ è½¦ç«Ļ
Ġ ä¼Ĭ
Ġ æ²Ļ
åı¯ä»¥ å¾ĹåĪ°
1 åħ¬éĩĮ
Ġ ä»ĸåľ¨
ä½Ĩ å¥¹
åĲī ç±³
Ġ al
åħ¶ä¸ŃçĶ·æĢ§ ä¸º
Ġ åĨħå®¹
Ġ åİŁ
Ġ åĭĴ
Ġ çº¢
Ġ è¯¥åľ°2001å¹´æĢ»äººåı£
; )
Ġ çİ°æĹ¶
åŃĹ æł·
Ġ Con
Ġ 1979å¹´
è¥¿ ä¸´
çļĦä¸Ģä¸ª åİ¿
åī¯ ä¼ļéķ¿
2 åħ¬éĩĮ
è¿Ļ æĺ¯ä¸Ģä¸ª
ä½Ĩ å®ĥ
Ġ ä½Ĩæĺ¯
Ġ 1948å¹´
å°ıæĹ¶ åĲİ
ä½įäºİæ³ķåĽ½ å¤§ä¸ľéĥ¨å¤§åĮº
Ġå¤ĸéĥ¨ è¿ŀç»ĵ
Ġ å°ıè¡ĮæĺŁ
åĲĮ è¿Ľå£«åĩºèº«
Ġ pro
ä»¥ ç¡®ä¿Ŀ
åı¯ ä½ľä¸º
è¯¥çī©ç§įçļĦæ¨¡å¼ıäº§ åľ°åľ¨
G Ġ
Ġ åĲĮæĹ¶
å¹¶ è®¤ä¸º
æĺ¯ çĳŀå£«
Ġ å¾·åĽ½
ä»ĸ è¡¨ç¤º
Ġ æĽ¾
Ġ ä¿Ħç½Ĺæĸ¯
ä¸º ä¾ĭ
æŀĹ ä¸Ń
æľīæľº åĮĸåĲĪçī©
è¿Ľåħ¥çĽ´è·¯ åĲİ
Ġ æĪĲç«ĭ
åľ¨ è¿Ļç§į
ç»Ń ä½ľ
åŁĥ éĩĮåħĭ
Rob ert
Ġ äºĮ
Ġ åį°åº¦
Ġ å¼Ģåıĳ
Ġ èµĽäºĭ
1æľĪ 10æĹ¥
çļĦ Ġ
çļĦ è§Ħå®ļ
åĲĮæĹ¶ åľ¨
åĲĮå¹´ 11æľĪ
6æľĪ 6æĹ¥
åľ¨æŃ¤ ä¹ĭåīį
å°¤åħ¶ æĺ¯åľ¨
èĢĮäººåı£å¯Ĩåº¦ä¸ºæ¯ıå¹³æĸ¹åįĥç±³ äºº
Ġ Com
ä½įäºİè¯¥åĽ½ ä¸ľåĮĹéĥ¨
Ġ æµ·
Ġ çİ°
èĢĮ è¿Ļ
6æľĪ2 4æĹ¥
Ġ åĽĽ
Ġ 24
ä»ĸ å¼Ģå§ĭ
3æľĪ 20æĹ¥
é©¬ åħĭæĸ¯
çº¿ è½¦ç«Ļ
12 äºº
10æľĪ2 4æĹ¥
8æľĪ2 3æĹ¥
ä¸º formula
1æľĪ 12æĹ¥
æµ·æĭĶé«ĺåº¦ 1
è¥¿åįĹ æİ¥
ä½įäºİè¯¥åĽ½ è¥¿åįĹéĥ¨
4 åħ¬éĩĮ
Ġ å°Ĩ
Ġ æ¬§æ´²
Ġ 1981å¹´
äºĮåįģ äºĶå¹´
9æľĪ2 4æĹ¥
æĻ®æŁ¥è§Ħå®ļ å±ħæ°ĳçĤ¹
, -
n Ġ
Ġ ä¸ĸçķĮ
Ġ 30
Ġ 1941å¹´
åıĳçĶŁ åĲİ
Ġ ä¸Ńåįİäººæ°ĳåħ±åĴĮåĽ½
Ġ åĽ½å®¶éĺŁ
ä»¥ èĩ³äºİ
æĹ¶ è¡¨ç¤º
and Ġ
Ġ 20ä¸ĸçºª
æī§å¯¼ çļĦ
è¯¥æĿĳ å§ĭå»ºäºİ
Ġ 1980å¹´
ä¸º çĥŃå¸¦æ·¡æ°´
12æľĪ 7æĹ¥
ly Ġ
ä¸Ń è¡¨ç¤º
ä¸ľ ä¸İ
çİ° åĲį
8æľĪ 9æĹ¥
ç¬¬åĽĽ åĲį
ãĢģãĢģ ãĢģ
Ġ r
Ġ ä¸ĭ
åħ¶ ä¸»è¦ģ
åı· ç§°
ç¦»å¿ĥ çİĩä¸º0
åħ¨åĽ½äººå¤§ ä»£è¡¨
Ġ 1978å¹´
å¹¶ è®¾æľī
è¯¥ å±ŀ
Ġä¸ĭå±ŀ çī©ç§į
Ġ ä¸»
Ġ å¥¥
æĺ¯ åįĹæŀģæ´²
ä»ĸ ä¹Łæĺ¯
äºĮåįģ åİħ
è§ĨæĺŁçŃīä¸º 6
å®ĥ ä¸İ
åİ¿çļĦä¸Ģä¸ª éķĩåĮº
Ġ æ³¨
Ġ 1958å¹´
èĢĮ ä¸İ
3æľĪ 9æĹ¥
ä¹¡è¯ķ ä¸¾äºº
[...]
