{
  "version": "1.0",
  "truncation": null,
  "padding": null,
  "added_tokens": [],
  "normalizer": null,
  "pre_tokenizer": {
    "type": "Sequence",
    "pretokenizers": [
      {
        "type": "Split",
        "pattern": {
          "Regex": "[^\\p{L}\\p{N}\\s]+|[\\r\\n]+"
        },
        "behavior": "Isolated",
        "invert": false
      },
      {
        "type": "ByteLevel",
        "add_prefix_space": false,
        "trim_offsets": true,
        "use_regex": false
      }
    ]
  },
  "post_processor": null,
  "decoder": null,
  "model": {
    "type": "BPE",
    "dropout": null,
    "unk_token": null,
    "continuing_subword_prefix": null,
    "end_of_word_suffix": null,
    "fuse_unk": false,
    "byte_fallback": false,
    "ignore_merges": false,
    "vocab": {
      "!": 0,
      "\"": 1,
      "#": 2,
      "$": 3,
      "%": 4,
      "&": 5,
      "'": 6,
      "(": 7,
      ")": 8,
      "*": 9,
      "+": 10,
      ",": 11,
      "-": 12,
      ".": 13,
      "/": 14,
      "0": 15,
      "1": 16,
      "2": 17,
      "3": 18,
      "4": 19,
      "5": 20,
      "6": 21,
      "7": 22,
      "8": 23,
      "9": 24,
      ":": 25,
      ";": 26,
      "=": 27,
      "?": 28,
      "@": 29,
      "A": 30,
      "B": 31,
      "C": 32,
      "D": 33,
      "E": 34,
      "F": 35,
      "G": 36,
      "H": 37,
      "I": 38,
      "J": 39,
      "K": 40,
      "L": 41,
      "M": 42,
      "N": 43,
      "O": 44,
      "P": 45,
      "Q": 46,
      "R": 47,
      "S": 48,
      "T": 49,
      "U": 50,
      "V": 51,
      "W": 52,
      "X": 53,
      "Y": 54,
      "Z": 55,
      "[": 56,
      "\\": 57,
      "]": 58,
      "^": 59,
      "_": 60,
      "`": 61,
      "a": 62,
      "b": 63,
      "c": 64,
      "d": 65,
      "e": 66,
      "f": 67,
      "g": 68,
      "h": 69,
      "i": 70,
      "j": 71,
      "k": 72,
      "l": 73,
      "m": 74,
      "n": 75,
      "o": 76,
      "p": 77,
      "q": 78,
      "r": 79,
      "s": 80,
      "t": 81,
      "u": 82,
      "v": 83,
      "w": 84,
      "x": 85,
      "y": 86,
      "z": 87,
      "|": 88,
      "~": 89,
      "¡": 90,
      "¢": 91,
      "£": 92,
      "¤": 93,
      "¥": 94,
      "¦": 95,
      "§": 96,
      "¨": 97,
      "©": 98,
      "ª": 99,
      "«": 100,
      "¬": 101,
      "®": 102,
      "¯": 103,
      "°": 104,
      "±": 105,
      "²": 106,
      "³": 107,
      "´": 108,
      "µ": 109,
      "¶": 110,
      "·": 111,
      "¸": 112,
      "¹": 113,
      "º": 114,
      "»": 115,
      "¼": 116,
      "½": 117,
      "¾": 118,
      "¿": 119,
      "Â": 120,
      "Ã": 121,
      "Ä": 122,
      "Å": 123,
      "Æ": 124,
      "Ç": 125,
      "È": 126,
      "É": 127,
      "Ê": 128,
      "Ë": 129,
      "Ì": 130,
      "Í": 131,
      "Î": 132,
      "Ï": 133,
      "Ð": 134,
      "Ñ": 135,
      "Ò": 136,
      "Ó": 137,
      "Ô": 138,
      "Õ": 139,
      "Ö": 140,
      "×": 141,
      "Ø": 142,
      "Ù": 143,
      "Ú": 144,
      "Û": 145,
      "Ü": 146,
      "Þ": 147,
      "ß": 148,
      "à": 149,
      "á": 150,
      "â": 151,
      "ã": 152,
      "ä": 153,
      "å": 154,
      "æ": 155,
      "ç": 156,
      "è": 157,
      "é": 158,
      "ê": 159,
      "ë": 160,
      "ì": 161,
      "í": 162,
      "î": 163,
      "ï": 164,
      "ð": 165,
      "ñ": 166,
      "Ċ": 167,
      "Ġ": 168,
      "ġ": 169,
      "Ģ": 170,
      "ģ": 171,
      "Ĥ": 172,
      "ĥ": 173,
      "Ħ": 174,
      "ħ": 175,
      "Ĩ": 176,
      "ĩ": 177,
      "Ī": 178,
      "ī": 179,
      "Ĭ": 180,
      "ĭ": 181,
      "Į": 182,
      "į": 183,
      "İ": 184,
      "ı": 185,
      "Ĳ": 186,
      "ĳ": 187,
      "Ĵ": 188,
      "ĵ": 189,
      "Ķ": 190,
      "ķ": 191,
      "ĸ": 192,
      "Ĺ": 193,
      "ĺ": 194,
      "Ļ": 195,
      "ļ": 196,
      "Ľ": 197,
      "ľ": 198,
      "Ŀ": 199,
      "ŀ": 200,
      "Ł": 201,
      "ł": 202,
      "Ń": 203,
      "ä¸": 204,
      "äº": 205,
      "çļ": 206,
      "çļĦ": 207,
      "åħ": 208,
      "åı": 209,
      "æľ": 210,
      "ãĢ": 211,
      "å¹": 212,
      "ä»": 213,
      "å¤": 214,
      "åľ": 215,
      "åĲ": 216,
      "åĪ": 217,
      "åĽ": 218,
      "å®": 219,
      "å¹´": 220,
      "ä½": 221,
      "æĹ": 222,
      "çĶ": 223,
      "åį": 224,
      "æĸ": 225,
      "è¿": 226,
      "å°": 227,
      "æĺ": 228,
      "ä¹": 229,
      "ç»": 230,
      "ãĢģ": 231,
      "åľ¨": 232,
      "ä¸º": 233,
      "åĬ": 234,
      "æĪ": 235,
      "ä¼": 236,
      "ä¸Ģ": 237,
      "åŃ": 238,
      "åĮ": 239,
      "å¸": 240,
      "è¯": 241,
      "è®": 242,
      "ä¸Ń": 243,
      "åĨ": 244,
      "åĽ½": 245,
      "äºº": 246,
      "æĺ¯": 247,
      "åº": 248,
      "æĿ": 249,
      "å¼": 250,
      "å·": 251,
      "äºİ": 252,
      "å¾": 253,
      "éĩ": 254,
      "çī": 255,
      "ç§": 256,
      "è¡": 257,
      "çº": 258,
      "å¤§": 259,
      "æī": 260,
      "éĢ": 261,
      "æľī": 262,
      "å±": 263,
      "æĶ": 264,
      "åĩ": 265,
      "åĴ": 266,
      "åĴĮ": 267,
      "20": 268,
      "æŃ": 269,
      "éĥ": 270,
      "èµ": 271,
      "èĢ": 272,
      "æķ": 273,
      "å½": 274,
      "åİ": 275,
      "æľĪ": 276,
      "å¯": 277,
      "æ°": 278,
      "éĻ": 279,
      "æĭ": 280,
      "æĹ¥": 281,
      "çĽ": 282,
      "èĩ": 283,
      "æ³": 284,
      "å¥": 285,
      "æł": 286,
      "çİ": 287,
      "19": 288,
      "éĺ": 289,
      "ä»¥": 290,
      "åĲİ": 291,
      "æĹ¶": 292,
      "âĢ": 293,
      "åĳ": 294,
      "äºĨ": 295,
      "åľ°": 296,
      "æ²": 297,
      "ç«": 298,
      "æµ": 299,
      "ä¼ļ": 300,
      "åŃ¦": 301,
      "è§": 302,
      "æĢ": 303,
      "è¾": 304,
      "è´": 305,
      "æĪĲ": 306,
      "éĹ": 307,
      "è½": 308,
      "éĿ": 309,
      "åŁ": 310,
      "ä¸ª": 311,
      "çĲ": 312,
      "ä¸Ĭ": 313,
      "éĥ¨": 314,
      "åī": 315,
      "æĸ¯": 316,
      "éķ": 317,
      "ä¸İ": 318,
      "è¡Į": 319,
      "ä»ĸ": 320,
      "åĩº": 321,
      "ä¸į": 322,
      "æ¯": 323,
      "åĮº": 324,
      "æ´": 325,
      "æŀ": 326,
      "æĬ": 327,
      "æİ": 328,
      "åħ¬": 329,
      "ç¬": 330,
      "åħ¶": 331,
      "åıĳ": 332,
      "æ¸": 333,
      "ç½": 334,
      "ä½ľ": 335,
      "çĶŁ": 336,
      "æĽ": 337,
      "å°Ķ": 338,
      "åĲį": 339,
      "ä¿": 340,
      "ä¸»": 341,
      "åĪĨ": 342,
      "è¢": 343,
      "çŃ": 344,
      "èĥ": 345,
      "ä¹ĭ": 346,
      "éģ": 347,
      "æĸ¹": 348,
      "ç¬¬": 349,
      "çĶ¨": 350,
      "å®¶": 351,
      "å§": 352,
      "ãĢĭ": 353,
      "ãĢĬ": 354,
      "è¥": 355,
      "å¹¶": 356,
      "ç¾": 357,
      "è¥¿": 358,
      "æ³ķ": 359,
      "åĪ°": 360,
      "å¿": 361,
      "èĢĮ": 362,
      "Â·": 363,
      "æ¬": 364,
      "é¢": 365,
      "åĨĽ": 366,
      "å»": 367,
      "åıĬ": 368,
      "è¢«": 369,
      "ä¾": 370,
      "æĶ¿": 371,
      "ä½į": 372,
      "ç±": 373,
      "çĶ±": 374,
      "æĮ": 375,
      "æľ¬": 376,
      "çľ": 377,
      "æ±": 378,
      "æ°ĳ": 379,
      "è·": 380,
      "éĽ": 381,
      "é¦": 382,
      "ä¸ĭ": 383,
      "å¸Ĥ": 384,
      "åĵ": 385,
      "å¯¹": 386,
      "åĲĮ": 387,
      "èģ": 388,
      "èĭ": 389,
      "åħĭ": 390,
      "åĬ¨": 391,
      "æĿ¥": 392,
      "çī¹": 393,
      "éķ¿": 394,
      "è¿Ļ": 395,
      "å¤ļ": 396,
      "ä»»": 397,
      "èĩª": 398,
      "å¼Ģ": 399,
      "éĩĮ": 400,
      "åĳĺ": 401,
      "åįĹ": 402,
      "é©": 403,
      "åŃĲ": 404,
      "åı¯": 405,
      "æĸ°": 406,
      "å¹³": 407,
      "èī": 408,
      "åĿ": 409,
      "èİ": 410,
      "åĬł": 411,
      "å¾·": 412,
      "åĮĹ": 413,
      "ãĢĮ": 414,
      "ãĢį": 415,
      "æľĢ": 416,
      "æĸĩ": 417,
      "å£": 418,
      "åĪ©": 419,
      "æĻ": 420,
      "ç¾İ": 421,
      "é«": 422,
      "åīį": 423,
      "ä¸ľ": 424,
      "ä»£": 425,
      "é«ĺ": 426,
      "äºļ": 427,
      "éĿ¢": 428,
      "æµ·": 429,
      "æīĢ": 430,
      "¦ģ": 431,
      "å¾Ĺ": 432,
      "èĩ³": 433,
      "ç¤": 434,
      "å»º": 435,
      "èĪ": 436,
      "éĹ´": 437,
      "æŃ¤": 438,
      "åĨħ": 439,
      "åĽł": 440,
      "äºĭ": 441,
      "âĢľ": 442,
      "ä¸ī": 443,
      "âĢĿ": 444,
      "çİ°": 445,
      "è¿Ľ": 446,
      "çĶµ": 447,
      "),": 448,
      "ä¹Ł": 449,
      "çī©": 450,
      "è¿ĩ": 451,
      "èµĽ": 452,
      "201": 453,
      "çŃī": 454,
      "åı°": 455,
      "åº¦": 456,
      "è½¦": 457,
      "åħ¥": 458,
      "è¯¥": 459,
      "ç»ı": 460,
      "å½ĵ": 461,
      "éģĵ": 462,
      "ç¥": 463,
      "è¦ģ": 464,
      "ç«ĭ": 465,
      "æĪĺ": 466,
      "å°Ĩ": 467,
      "çĲĨ": 468,
      "ç©": 469,
      "è¡¨": 470,
      "ä½ĵ": 471,
      "çŁ": 472,
      "çķ": 473,
      "æĭī": 474,
      "é¡": 475,
      "å¦": 476,
      "è°": 477,
      "å²": 478,
      "æľº": 479,
      "æķĻ": 480,
      "æľŁ": 481,
      "ä¸ĸ": 482,
      "èĲ": 483,
      "éļ": 484,
      "æı": 485,
      "å·¥": 486,
      "åĪ¶": 487,
      "ç®": 488,
      "èĥ½": 489,
      "äºĮ": 490,
      "å¤ĸ": 491,
      "åĲĪ": 492,
      "æį": 493,
      "è·¯": 494,
      "å®ļ": 495,
      "åı£": 496,
      "çľģ": 497,
      "å¸ĥ": 498,
      "æ¬¡": 499,
      "æĦ": 500,
      "é©¬": 501,
      "è®¾": 502,
      "åħ±": 503,
      "æĢ§": 504,
      "éĺŁ": 505,
      "åľº": 506,
      "éĢļ": 507,
      "ä¸ļ": 508,
      "å±±": 509,
      "å°ı": 510,
      "200": 511,
      "çĲĥ": 512,
      "ä½Ĩ": 513,
      "èĬ": 514,
      "ä½¿": 515,
      "éĵ": 516,
      "è¶": 517,
      "åįģ": 518,
      "ä¸Ģä¸ª": 519,
      "èĢħ": 520,
      "å·ŀ": 521,
      "åĮĸ": 522,
      "åħ¨": 523,
      "æĥ": 524,
      "ç³": 525,
      "æķ°": 526,
      "ç§į": 527,
      "é£": 528,
      "ç§°": 529,
      "å¤©": 530,
      "èĤ": 531,
      "ç½Ĺ": 532,
      "ç§ĳ": 533,
      "çł": 534,
      "æŁ": 535,
      "çº¿": 536,
      "çĻ": 537,
      "å¼ı": 538,
      "ç±³": 539,
      "ç«Ļ": 540,
      "éĩį": 541,
      "å®ī": 542,
      "éŁ": 543,
      "èģĶ": 544,
      "æģ": 545,
      "çĤ": 546,
      "ä¸¤": 547,
      "éĤ": 548,
      "ç³»": 549,
      "æ¯Ķ": 550,
      "æ¼": 551,
      "ç¼": 552,
      "10": 553,
      "çĪ": 554,
      "æ¡": 555,
      "ç¦": 556,
      "ç¨": 557,
      "å¢": 558,
      "æĢ»": 559,
      "éĢī": 560,
      "è¿Ĳ": 561,
      "åĬĽ": 562,
      "åİ¿": 563,
      "åħ°": 564,
      "å£«": 565,
      "çĽ¸": 566,
      "éĻ¢": 567,
      "æ¹": 568,
      "åŁº": 569,
      "åħ³": 570,
      "ä¸ŃåĽ½": 571,
      "éĥ½": 572,
      "æ²»": 573,
      "åİŁ": 574,
      "è¾¾": 575,
      "åŁİ": 576,
      "ç»Ł": 577,
      "åģ": 578,
      "æł¼": 579,
      "èµ·": 580,
      "ç»Ħ": 581,
      "æŃ£": 582,
      "æĺİ": 583,
      "é»": 584,
      "çº¦": 585,
      "åı·": 586,
      "èĭ±": 587,
      "æ°´": 588,
      "å½±": 589,
      "å°¼": 590,
      "æĪĸ": 591,
      "å±ŀ": 592,
      "åºľ": 593,
      "å¡": 594,
      "æİ¥": 595,
      "åı¸": 596,
      "è®¡": 597,
      "éĩĳ": 598,
      "çĽ®": 599,
      "é¦ĸ": 600,
      "çİĭ": 601,
      "è®®": 602,
      "æıĲ": 603,
      "åįİ": 604,
      "çĦ": 605,
      "ä»¬": 606,
      "éĺ¿": 607,
      "åĽĽ": 608,
      "ä»İ": 609,
      "åĪĹ": 610,
      "åħĥ": 611,
      "çģ": 612,
      "æ¼Ķ": 613,
      "å·´": 614,
      "ç¾İåĽ½": 615,
      "èĳ": 616,
      "00": 617,
      "å¦Ĥ": 618,
      "äº§": 619,
      "è¯Ń": 620,
      "åĢ": 621,
      "éħ": 622,
      "åıĤ": 623,
      "åı²": 624,
      "éĩı": 625,
      "åŀ": 626,
      "æĶ¹": 627,
      "å¸¸": 628,
      "å¥³": 629,
      "æ®": 630,
      "æ¶": 631,
      "éķĩ": 632,
      "åĲĳ": 633,
      "è£": 634,
      "èį": 635,
      "åĬ¡": 636,
      "æŀĹ": 637,
      "18": 638,
      "åĮħ": 639,
      "æ¸¯": 640,
      "å¨": 641,
      ").": 642,
      "æĽ¾": 643,
      "æĹł": 644,
      "èİ·": 645,
      "äººåı£": 646,
      "çĦ¶": 647,
      "äº¤": 648,
      "åĶ": 649,
      "å®ŀ": 650,
      "å¿ĥ": 651,
      "éĶ": 652,
      "åıĹ": 653,
      "éľ": 654,
      "12": 655,
      "ä½įäºİ": 656,
      "ç»´": 657,
      "æĦı": 658,
      "åİĨ": 659,
      "ç»ĵ": 660,
      "èī²": 661,
      "çķĮ": 662,
      "çº§": 663,
      "ä¹Ĳ": 664,
      "æīĭ": 665,
      "å§ĭ": 666,
      "ä¿Ŀ": 667,
      "å§Ķ": 668,
      "åĪĻ": 669,
      "ä¹ī": 670,
      "æĴ": 671,
      "å¤Ħ": 672,
      "åħļ": 673,
      "è§Ĩ": 674,
      "ä¹¦": 675,
      "ç´": 676,
      "åĽ¢": 677,
      "0å¹´": 678,
      "ç®¡": 679,
      "å½¢": 680,
      "ç¨ĭ": 681,
      "æ£": 682,
      "å¯¼": 683,
      "åĭ": 684,
      "1å¹´": 685,
      "è®¤": 686,
      "æį®": 687,
      "ç±»": 688,
      "æ²³": 689,
      "å°±": 690,
      "åį¡": 691,
      "éĹ¨": 692,
      "æ·": 693,
      "æĮĩ": 694,
      "æľĪ2": 695,
      "çĽ´": 696,
      "202": 697,
      "5å¹´": 698,
      "åįķ": 699,
      "éĴ": 700,
      "çĥ": 701,
      "è¯´": 702,
      "éŁ³": 703,
      "äºĽ": 704,
      "å¹¿": 705,
      "åŀĭ": 706,
      "å·²": 707,
      "åºĶ": 708,
      "4å¹´": 709,
      "æĺŁ": 710,
      "éĽĨ": 711,
      "ç¤º": 712,
      "å¥¥": 713,
      "æµģ": 714,
      "é¢Ĩ": 715,
      "ç¤¾": 716,
      "åł": 717,
      "ä¼ł": 718,
      "æº": 719,
      "æĮģ": 720,
      "é²": 721,
      "åĵģ": 722,
      "çĤ¹": 723,
      "èº": 724,
      "æł¡": 725,
      "æĽ´": 726,
      "2å¹´": 727,
      "å±ķ": 728,
      "å¤«": 729,
      "3å¹´": 730,
      "er": 731,
      "çĭ": 732,
      "åĽŀ": 733,
      "èĮ": 734,
      "ä¸¾": 735,
      "æĻ®": 736,
      "11": 737,
      "æ¸¸": 738,
      "ä¸ĩ": 739,
      "ç§¯": 740,
      "8å¹´": 741,
      "èº«": 742,
      "6å¹´": 743,
      "æ¢": 744,
      "ç©º": 745,
      "åıį": 746,
      "éª": 747,
      "èµĦ": 748,
      "æĶ¿åºľ": 749,
      "æĥħ": 750,
      "å®ĺ": 751,
      "ç¡": 752,
      "çºª": 753,
      "äºĶ": 754,
      "æ´»": 755,
      "è¿ĺ": 756,
      "é¾": 757,
      "åĩ»": 758,
      "an": 759,
      "æĶ¯": 760,
      "é¦Ļ": 761,
      "æłĩ": 762,
      "æĬ¥": 763,
      "æ»": 764,
      "or": 765,
      "å¸Ī": 766,
      "åĲĦ": 767,
      "æ¹¾": 768,
      "éĵģ": 769,
      "åĪ«": 770,
      "7å¹´": 771,
      "èĴ": 772,
      "éĢł": 773,
      "å¤§åŃ¦": 774,
      "çº³": 775,
      "èĻ": 776,
      "åıĸ": 777,
      "ä½¿çĶ¨": 778,
      "çĬ": 779,
      "åı¤": 780,
      "å²Ľ": 781,
      "çĸ": 782,
      "æĪĲä¸º": 783,
      "å¤ª": 784,
      "æĹ¥æľ¬": 785,
      "in": 786,
      "åī§": 787,
      "å±Ģ": 788,
      "åħ¬åı¸": 789,
      "åıĺ": 790,
      "æĭ¬": 791,
      "çı": 792,
      "æľ¯": 793,
      "åŃĹ": 794,
      "åķ": 795,
      "å¥¹": 796,
      "çĿ": 797,
      "æĹı": 798,
      "ä¸ĵ": 799,
      "åĳ½": 800,
      "åĮħæĭ¬": 801,
      "åľ°åĮº": 802,
      "éĿŀ": 803,
      "å¸¦": 804,
      "èĳĹ": 805,
      "åĽ½å®¶": 806,
      "å¼ł": 807,
      "è®º": 808,
      "è¿ĳ": 809,
      "åį³": 810,
      "å¼Ģå§ĭ": 811,
      "çłĶ": 812,
      "æľĿ": 813,
      "æ±Ł": 814,
      "åĨ³": 815,
      "ä¿¡": 816,
      "è§£": 817,
      "æ´²": 818,
      "æĽ²": 819,
      "èĬĤ": 820,
      "çĹ": 821,
      "ç¥ŀ": 822,
      "é£İ": 823,
      "on": 824,
      "çīĩ": 825,
      "å°ĳ": 826,
      "èģĮ": 827,
      "ä»¶": 828,
      "ç²": 829,
      "è¿Ľè¡Į": 830,
      "ä¼Ĭ": 831,
      "åĽ¾": 832,
      "èĦ": 833,
      "æľª": 834,
      "çĵ": 835,
      "è®°": 836,
      "åıª": 837,
      "ç¿": 838,
      "å¹³æĸ¹": 839,
      "å®ĥ": 840,
      "æľĪ1": 841,
      "æł¹": 842,
      "æĿĥ": 843,
      "æ²¡": 844,
      "çŁ³": 845,
      "éĻħ": 846,
      "ç¬¬ä¸Ģ": 847,
      "èĭı": 848,
      "æ¯ı": 849,
      "ç¼ĸ": 850,
      "è§Ĵ": 851,
      "è½¬": 852,
      "åı¯ä»¥": 853,
      "æĶ¾": 854,
      "æ³¢": 855,
      "æ¨": 856,
      "äº¬": 857,
      "ä¾ĭ": 858,
      "199": 859,
      "æĶ¶": 860,
      "æĿ¡": 861,
      "çļĦä¸Ģ": 862,
      "åĪĴ": 863,
      "è°ĥ": 864,
      "é¾Ļ": 865,
      "åħ¬éĩĮ": 866,
      "é¦Ļæ¸¯": 867,
      "åĳ¨": 868,
      "åħī": 869,
      "åķĨ": 870,
      "åĪĽ": 871,
      "æ¸ħ": 872,
      "è¿ŀ": 873,
      "åĪĿ": 874,
      "9å¹´": 875,
      "æ°Ķ": 876,
      "æŃĮ": 877,
      "ç¦»": 878,
      "æĿĳ": 879,
      "åĸ": 880,
      "æĳ": 881,
      "çīĪ": 882,
      "éĻĨ": 883,
      "éĥ¨åĪĨ": 884,
      "ç©¶": 885,
      "åĻ": 886,
      "å¾Ģ": 887,
      "äººæ°ĳ": 888,
      "å¤´": 889,
      "èİ·å¾Ĺ": 890,
      "è±": 891,
      "åŃ£": 892,
      "çŁ¥": 893,
      "ä¸ĸçķĮ": 894,
      "åıĪ": 895,
      "éĿ¢ç§¯": 896,
      "åħĪ": 897,
      "çłĶç©¶": 898,
      "åİ»": 899,
      "å¯Ĩ": 900,
      "æŀĦ": 901,
      "åŁŁ": 902,
      "æ´¾": 903,
      "ä»¤": 904,
      "æīĵ": 905,
      "ç»Ń": 906,
      "æŀľ": 907,
      "åĬŀ": 908,
      "å¼º": 909,
      "éļı": 910,
      "æŁ¥": 911,
      "å¨ģ": 912,
      "ä¸»è¦ģ": 913,
      "çĻ½": 914,
      "åĨį": 915,
      "åħµ": 916,
      "äºī": 917,
      "åº§": 918,
      "æŃ¦": 919,
      "ä»ĸä»¬": 920,
      "ç¦ı": 921,
      "å¤į": 922,
      "è§Ĥ": 923,
      "èĤ²": 924,
      "è£ħ": 925,
      "åİĨåı²": 926,
      "å®Į": 927,
      "åħŃ": 928,
      "la": 929,
      "åĻ¨": 930,
      "è®¤ä¸º": 931,
      "å¼ķ": 932,
      "é¡¹": 933,
      "æ®µ": 934,
      "æļ": 935,
      "é¢ĺ": 936,
      "è¶³": 937,
      "åı°æ¹¾": 938,
      "åĵĪ": 939,
      "æ²¡æľī": 940,
      "ä¸Ķ": 941,
      "æĿİ": 942,
      "çĳ": 943,
      "å¡Ķ": 944,
      "æľį": 945,
      "éĻ¤": 946,
      "å±ħ": 947,
      "å®£": 948,
      "æ¬§": 949,
      "15": 950,
      "æĪı": 951,
      "ç½ĳ": 952,
      "æĴŃ": 953,
      "ç»Ī": 954,
      "è§Ħ": 955,
      "æĭħ": 956,
      "åįı": 957,
      "èĲ¥": 958,
      "äº¦": 959,
      "è®¸": 960,
      "æİ¨": 961,
      "èı": 962,
      "çĵ¦": 963,
      "åľ£": 964,
      "ä»½": 965,
      "å§Ķåĳĺ": 966,
      "å¥ĸ": 967,
      "åľŁ": 968,
      "æ¡Ī": 969,
      "ç½®": 970,
      "å½ķ": 971,
      "ä¿®": 972,
      "è´¨": 973,
      "è¨": 974,
      "äº²": 975,
      "èĲ¨": 976,
      "è¨Ģ": 977,
      "çĶ·": 978,
      "åĦ": 979,
      "ar": 980,
      "æºĲ": 981,
      "ç¬¬äºĮ": 982,
      "åŃĺ": 983,
      "å¸Ŀ": 984,
      "ä»£è¡¨": 985,
      "éĹ®": 986,
      "åĭĴ": 987,
      "ä»Ĭ": 988,
      "è¯Ħ": 989,
      "åĽŃ": 990,
      "æ¥": 991,
      "en": 992,
      "åħ·": 993,
      "ç»Ļ": 994,
      "æĬ¤": 995,
      "ä¾Ľ": 996,
      "éĽ·": 997,
      "è¿ĲåĬ¨": 998,
      "é¦Ĩ": 999,
      "æŃ»": 1000,
      "æĬķ": 1001,
      "åħ«": 1002,
      "çĪ±": 1003,
      "æĶ¿æ²»": 1004,
      "çĶ±äºİ": 1005,
      "æ³ķåĽ½": 1006,
      "éĢŁ": 1007,
      "åħ¶ä»ĸ": 1008,
      "åįĥ": 1009,
      "åĩĨ": 1010,
      "å®Ĺ": 1011,
      "åį°": 1012,
      "å¢ŀ": 1013,
      "è¾ĥ": 1014,
      "è¶ħ": 1015,
      "ä¼¯": 1016,
      "å¢ĥ": 1017,
      "æ´Ľ": 1018,
      "å¸Į": 1019,
      "æ±Ĥ": 1020,
      "åĬŁ": 1021,
      "è§ģ": 1022,
      "çĶµå½±": 1023,
      "çĶ»": 1024,
      "çļĦä¸Ģä¸ª": 1025,
      "æ±ī": 1026,
      "16": 1027,
      "èĩ´": 1028,
      "(),": 1029,
      "åĿĩ": 1030,
      "åįĩ": 1031,
      "å¤ĩ": 1032,
      "åı¦": 1033,
      "è¯º": 1034,
      "åĬ©": 1035,
      "åį«": 1036,
      "å·¥ä½ľ": 1037,
      "åįļ": 1038,
      "çĮ": 1039,
      "çİĩ": 1040,
      "èİ±": 1041,
      "éĺ³": 1042,
      "åĦ¿": 1043,
      "è¾¹": 1044,
      "ä¼Ĺ": 1045,
      "å¥½": 1046,
      "èĹ": 1047,
      "é¥": 1048,
      "åĥ": 1049,
      "å®¢": 1050,
      "å®¹": 1051,
      "èĪª": 1052,
      "ä¼¦": 1053,
      "åĳĬ": 1054,
      "198": 1055,
      "æĹ©": 1056,
      "æ¨¡": 1057,
      "çª": 1058,
      "ä¹Į": 1059,
      "åĲī": 1060,
      "è¯ķ": 1061,
      "ä¿Ħ": 1062,
      "ä½ľä¸º": 1063,
      "ä»¥åıĬ": 1064,
      "æİĴ": 1065,
      "åī¯": 1066,
      "èīº": 1067,
      "æł·": 1068,
      "æµİ": 1069,
      "å¾Ī": 1070,
      "çģ«": 1071,
      "çİ¯": 1072,
      "æķħ": 1073,
      "å¡ŀ": 1074,
      "æĪĳ": 1075,
      "æĶ»": 1076,
      "åĽ½éĻħ": 1077,
      "é»Ħ": 1078,
      "çĶ°": 1079,
      "ç¾¤": 1080,
      "å·±": 1081,
      "èĬ±": 1082,
      "åı¯èĥ½": 1083,
      "æ¯į": 1084,
      "ä¹Ŀ": 1085,
      "çĪ¶": 1086,
      "æĸ½": 1087,
      "åĵį": 1088,
      "çıŃ": 1089,
      "èħ": 1090,
      "åĽ´": 1091,
      "ä¸Ńå¿ĥ": 1092,
      "è¡¨ç¤º": 1093,
      "17": 1094,
      "æĬĢ": 1095,
      "æķ´": 1096,
      "é²ģ": 1097,
      "æ²Ļ": 1098,
      "ç»§": 1099,
      "åĮ»": 1100,
      "æĭħä»»": 1101,
      "30": 1102,
      "å¤±": 1103,
      "å¸Ĥéķĩ": 1104,
      "çŃĳ": 1105,
      "èĲ½": 1106,
      "çĹħ": 1107,
      "ä¸Ńåįİ": 1108,
      "åħ´": 1109,
      "è¯ģ": 1110,
      "ç»ĩ": 1111,
      ")ãĢģ": 1112,
      "ç³»ç»Ł": 1113,
      "æ¦": 1114,
      "è´£": 1115,
      "ä¹¡": 1116,
      "å¿Ĺ": 1117,
      "å¸Ń": 1118,
      "éĩĩ": 1119,
      "éĺ²": 1120,
      "èĪ°": 1121,
      "å®¤": 1122,
      "èŃ": 1123,
      "å±Ĥ": 1124,
      "æīĺ": 1125,
      "ä¸ŃçļĦ": 1126,
      "éĿĴ": 1127,
      "çĽŁ": 1128,
      "ä¸ĥ": 1129,
      "æĦŁ": 1130,
      "èŃ¦": 1131,
      "éľĢ": 1132,
      "çĻ»": 1133,
      "åĨł": 1134,
      "æĹ¶éĹ´": 1135,
      "çĭ¬": 1136,
      "èĭ±åĽ½": 1137,
      "è´Ł": 1138,
      "åįĬ": 1139,
      "éº": 1140,
      "æ¹ĸ": 1141,
      "æ¸¸æĪı": 1142,
      "éĢļè¿ĩ": 1143,
      "å£°": 1144,
      "çĶµè§Ĩ": 1145,
      "å§Ĩ": 1146,
      "éĤ£": 1147,
      "çĻ¾": 1148,
      "éħį": 1149,
      "ç¢": 1150,
      "èĩªå·±": 1151,
      "åıĮ": 1152,
      "è½¦ç«Ļ": 1153,
      "éĻĪ": 1154,
      "æł¹æį®": 1155,
      "al": 1156,
      "åłĤ": 1157,
      "é»ĳ": 1158,
      "åıĳçİ°": 1159,
      "æĺĵ": 1160,
      "çĥŃ": 1161,
      "çļĩ": 1162,
      "åĨĻ": 1163,
      "å½ĵæĹ¶": 1164,
      "è¡ĮæĶ¿": 1165,
      "(,": 1166,
      "ç¡®": 1167,
      "çº¢": 1168,
      "çĬ¶": 1169,
      "é£ŀ": 1170,
      "åıĳå±ķ": 1171,
      "æĪĲç«ĭ": 1172,
      "æģ©": 1173,
      "ä½ķ": 1174,
      "å¤ı": 1175,
      "æľŁéĹ´": 1176,
      "æ·±": 1177,
      "ä»į": 1178,
      "èĢĥ": 1179,
      "æŀģ": 1180,
      "ä½ı": 1181,
      "åįł": 1182,
      "çħ": 1183,
      "é±": 1184,
      "åħ±åĴĮ": 1185,
      "æ£®": 1186,
      "è¡Ĺ": 1187,
      "14": 1188,
      "è¶Ĭ": 1189,
      "éĻĲ": 1190,
      "å¤®": 1191,
      "å°Ħ": 1192,
      "é¸": 1193,
      "é±¼": 1194,
      "çĶ²": 1195,
      "åĲĮæĹ¶": 1196,
      "æŃ¥": 1197,
      "at": 1198,
      "è®¾è®¡": 1199,
      "ç¤¾ä¼ļ": 1200,
      "âĢĶ": 1201,
      "é£Ł": 1202,
      "è®©": 1203,
      "å»ºçŃĳ": 1204,
      "äºİ19": 1205,
      "åĥı": 1206,
      "åŁĥ": 1207,
      "è±¡": 1208,
      "ä¹ĭä¸Ģ": 1209,
      "æĽ¼": 1210,
      "æĿĢ": 1211,
      "å¯Ł": 1212,
      "è´¹": 1213,
      "èĮĥ": 1214,
      "å±Ĭ": 1215,
      "æİ§": 1216,
      "æī¹": 1217,
      "ç¥¨": 1218,
      "ä»ħ": 1219,
      "æ½": 1220,
      "è´Ŀ": 1221,
      "æĻ¯": 1222,
      "ç»Ħç»ĩ": 1223,
      "æĸĻ": 1224,
      "æĤ": 1225,
      "åŃ¦éĻ¢": 1226,
      "å¥ĩ": 1227,
      "es": 1228,
      "ä¸įåĲĮ": 1229,
      "æ´ĭ": 1230,
      "å²ģ": 1231,
      "åıĤåĬł": 1232,
      "æµĭ": 1233,
      "çķĻ": 1234,
      "èĢģ": 1235,
      "ä¸Ńå¤®": 1236,
      "å§Ķåĳĺä¼ļ": 1237,
      "è¿ª": 1238,
      "åĨľ": 1239,
      "æ¥¼": 1240,
      "æĸĩåĮĸ": 1241,
      "ä½İ": 1242,
      "æŃ¢": 1243,
      "ä¸ĸçºª": 1244,
      "å·Ŀ": 1245,
      "å½±åĵį": 1246,
      "æ¯ĶèµĽ": 1247,
      "èĥľ": 1248,
      "éĿ©": 1249,
      "è¯į": 1250,
      "åĵ¥": 1251,
      "ç§°ä¸º": 1252,
      "å¾ĭ": 1253,
      "çīĮ": 1254,
      "é¡¿": 1255,
      "æĥ³": 1256,
      "å±ŀäºİ": 1257,
      "æİĪ": 1258,
      "for": 1259,
      "æķĪ": 1260,
      "13": 1261,
      "åĺ": 1262,
      "æ³°": 1263,
      "è¾ĸ": 1264,
      "ä¾¿": 1265,
      "å¹³æĸ¹åħ¬éĩĮ": 1266,
      "æ¤": 1267,
      "æľ¨": 1268,
      "éĻį": 1269,
      "åĩł": 1270,
      "ç§»": 1271,
      "è¿°": 1272,
      "çľŁ": 1273,
      "ic": 1274,
      "æħ": 1275,
      "åģľ": 1276,
      "æīį": 1277,
      "æ°ı": 1278,
      "éĵ¶": 1279,
      "æ¡¥": 1280,
      "()": 1281,
      "èĴĻ": 1282,
      "æĪ¿": 1283,
      "å¿µ": 1284,
      "æĺ¾": 1285,
      "éŁ³ä¹Ĳ": 1286,
      "æī¿": 1287,
      "æĢģ": 1288,
      "çĿĢ": 1289,
      "è´¥": 1290,
      "âĢĿ.": 1291,
      "å©": 1292,
      "ç´¢": 1293,
      "æ¾": 1294,
      "åħ±åĴĮåĽ½": 1295,
      "åºķ": 1296,
      "åº·": 1297,
      "åºĵ": 1298,
      "é¢Ħ": 1299,
      "ä¸»ä¹ī": 1300,
      "éŃ": 1301,
      "mu": 1302,
      "åŃ¦æł¡": 1303,
      "å¾ģ": 1304,
      "ç´ł": 1305,
      "æ´»åĬ¨": 1306,
      "çīĻ": 1307,
      "è¾ĳ": 1308,
      "çľĭ": 1309,
      "å¼¹": 1310,
      "åĶ±": 1311,
      "åħ¸": 1312,
      "ä½ľåĵģ": 1313,
      "æŃ£å¼ı": 1314,
      "æ¶Ī": 1315,
      "æıĲä¾Ľ": 1316,
      "åĪ©äºļ": 1317,
      "ç®Ģ": 1318,
      "è®¡åĪĴ": 1319,
      "åĩºçİ°": 1320,
      "ç½Ĺæĸ¯": 1321,
      "è½½": 1322,
      "ä¹ł": 1323,
      "ä»ĸçļĦ": 1324,
      "æīĢæľī": 1325,
      "æģ¯": 1326,
      "ä»·": 1327,
      "å³": 1328,
      "ä¹ĭéĹ´": 1329,
      "éĻĦ": 1330,
      "ç»ıæµİ": 1331,
      "ç®¡çĲĨ": 1332,
      "åıĳçĶŁ": 1333,
      "æľĢç»Ī": 1334,
      "éĵģè·¯": 1335,
      "çłģ": 1336,
      "ãĢį.": 1337,
      "çĳŀ": 1338,
      "æī§": 1339,
      "æĹ¶æľŁ": 1340,
      "è¿ľ": 1341,
      "is": 1342,
      "åĿ¦": 1343,
      "æĪ·": 1344,
      "ä¸Ģç§į": 1345,
      "å¹²": 1346,
      "åıĭ": 1347,
      "åŁİå¸Ĥ": 1348,
      "åĨµ": 1349,
      "ç®Ĺ": 1350,
      "ä¾§": 1351,
      "æķĻèĤ²": 1352,
      "ç¥ĸ": 1353,
      "éĢĢ": 1354,
      "éŁ©": 1355,
      "å®Ī": 1356,
      "æ»¡": 1357,
      "åĲİæĿ¥": 1358,
      "äºĳ": 1359,
      "æ³¨": 1360,
      "èĪ¹": 1361,
      "mula": 1362,
      "å½ĵåľ°": 1363,
      "è¯·": 1364,
      "è¯Ŀ": 1365,
      "æ¸©": 1366,
      "éĤ¦": 1367,
      "formula": 1368,
      "åĢĻ": 1369,
      "ä½Ļ": 1370,
      "ä½Ľ": 1371,
      "æĲ": 1372,
      "æĬĬ": 1373,
      "ç«ł": 1374,
      "ä¸ģ": 1375,
      "ç²¾": 1376,
      "it": 1377,
      "æĬĹ": 1378,
      "å®ģ": 1379,
      "çĽĳ": 1380,
      "197": 1381,
      "åĪ¶ä½ľ": 1382,
      "åł¡": 1383,
      "194": 1384,
      "20å¹´": 1385,
      "æľĽ": 1386,
      "am": 1387,
      "æĹ§": 1388,
      "è´Łè´£": 1389,
      "å¾·åĽ½": 1390,
      "å·¦": 1391,
      "æĪĲåĳĺ": 1392,
      "ä¸ĬçļĦ": 1393,
      "æĭ¿": 1394,
      "éĹ®é¢ĺ": 1395,
      "æľĹ": 1396,
      "éªĮ": 1397,
      "he": 1398,
      "åĬ¿": 1399,
      "è¿Ľåħ¥": 1400,
      "æĢĿ": 1401,
      "ä¸´": 1402,
      "è®¸å¤ļ": 1403,
      "åĪĺ": 1404,
      "å´": 1405,
      "çªģ": 1406,
      "é¹": 1407,
      "çł´": 1408,
      "å¿«": 1409,
      "å®«": 1410,
      "æĹħ": 1411,
      "ä¾Ŀ": 1412,
      "åİĭ": 1413,
      "åºĦ": 1414,
      "ç¬¬ä¸ī": 1415,
      "åĲįä¸º": 1416,
      "èİ«": 1417,
      "æľĢåĲİ": 1418,
      "ä¼¼": 1419,
      "æĪĺäºī": 1420,
      "å¯Į": 1421,
      "ä¸ĢäºĽ": 1422,
      "æ¢ħ": 1423,
      "çĿ£": 1424,
      "åĢ¼": 1425,
      "åģļ": 1426,
      "åħ¨åĽ½": 1427,
      "æĶ¯æĮģ": 1428,
      "å°ģ": 1429,
      "èĹı": 1430,
      "æ°¸": 1431,
      "åĲ«": 1432,
      "å»¶": 1433,
      "æĸĹ": 1434,
      "èĴĤ": 1435,
      "50": 1436,
      "æĭĶ": 1437,
      "çĶŁæ´»": 1438,
      "åĽłä¸º": 1439,
      "åİħ": 1440,
      "ä¹ĭåĲİ": 1441,
      "åį¢": 1442,
      "äººçļĦ": 1443,
      "çħ§": 1444,
      "äº¡": 1445,
      "æľįåĬ¡": 1446,
      "å¼Ĺ": 1447,
      "éļ¾": 1448,
      "le": 1449,
      "åİĤ": 1450,
      "ç»Ĩ": 1451,
      "æ¾³": 1452,
      "åĪ¤": 1453,
      "æĵ": 1454,
      "æł¸": 1455,
      "æŀ¶": 1456,
      "ä¸¹": 1457,
      "å¤§çļĦ": 1458,
      "éģĹ": 1459,
      "ä¼¤": 1460,
      "å°¼äºļ": 1461,
      "å®£å¸ĥ": 1462,
      "çļ®": 1463,
      "èĻ½": 1464,
      "å½Ĵ": 1465,
      "åį°åº¦": 1466,
      "åı³": 1467,
      "ä¿Ħç½Ĺæĸ¯": 1468,
      "å·²ç»ı": 1469,
      "è¯Ĩ": 1470,
      "åºĨ": 1471,
      "åıĤä¸İ": 1472,
      "åľ°æĸ¹": 1473,
      "ä¸¾è¡Į": 1474,
      "æĸŃ": 1475,
      "åħ³ç³»": 1476,
      "åıĳè¡Į": 1477,
      "éĹ»": 1478,
      "196": 1479,
      "çĨ": 1480,
      "è½®": 1481,
      "é½": 1482,
      "åı¶": 1483,
      "ä¸½": 1484,
      "æĿ°": 1485,
      "åºĹ": 1486,
      "æĸ¹éĿ¢": 1487,
      "ç¤¼": 1488,
      "åĶĲ": 1489,
      "åĨ³å®ļ": 1490,
      "å·¥ç¨ĭ": 1491,
      "ï¼": 1492,
      "éĩįè¦ģ": 1493,
      "èĽ": 1494,
      "è¶³çĲĥ": 1495,
      "ro": 1496,
      "åĮĹäº¬": 1497,
      "åĪĩ": 1498,
      "ä¸¤ä¸ª": 1499,
      "ä¼ĺ": 1500,
      "çŃĸ": 1501,
      "ä¸¥": 1502,
      "ä¸Ĭæµ·": 1503,
      "åºŃ": 1504,
      "èµ°": 1505,
      "ãĢį,": 1506,
      "å¿ħ": 1507,
      "è¯»": 1508,
      "æĭ¥": 1509,
      "ç»Ŀ": 1510,
      "éģŃ": 1511,
      "0å¹´ä»£": 1512,
      "å°ļ": 1513,
      "èģĶåĲĪ": 1514,
      "äººçī©": 1515,
      "å¼Ĥ": 1516,
      "re": 1517,
      "åĺī": 1518,
      "éĥ¡": 1519,
      "äºĭä»¶": 1520,
      "ç»ĥ": 1521,
      "æį¢": 1522,
      "åĮĹéĥ¨": 1523,
      "åĨłåĨĽ": 1524,
      "é©»": 1525,
      "å½¹": 1526,
      "èµ«": 1527,
      "åŃ¦å®¶": 1528,
      "èĬĤçĽ®": 1529,
      "æ¤į": 1530,
      "å²¸": 1531,
      "éº¦": 1532,
      "éĩİ": 1533,
      "åŃ¦çĶŁ": 1534,
      "å¼Ł": 1535,
      "ä¼ļè®®": 1536,
      "195": 1537,
      "æ²¹": 1538,
      "äººæ°ĳåħ±åĴĮåĽ½": 1539,
      "æĬĢæľ¯": 1540,
      "éĢĲ": 1541,
      "åĶ®": 1542,
      "èĥĮ": 1543,
      "æ¯ķ": 1544,
      "æĿ¾": 1545,
      "åĪ°äºĨ": 1546,
      "åĬłåħ¥": 1547,
      "é³": 1548,
      "å¯º": 1549,
      "000": 1550,
      "èī¾": 1551,
      "èĵ": 1552,
      "åį´": 1553,
      "ä¿ĿæĬ¤": 1554,
      "el": 1555,
      "åĪĹè½¦": 1556,
      "ä¹ħ": 1557,
      "æĢ»ç»Ł": 1558,
      "æ¬§æ´²": 1559,
      "ç½²": 1560,
      "2019": 1561,
      "èı²": 1562,
      "éļĨ": 1563,
      "è®¾æľī": 1564,
      "æĻļ": 1565,
      "é¼": 1566,
      "å¹³æĸ¹åįĥ": 1567,
      "èĪ¬": 1568,
      "st": 1569,
      "åª": 1570,
      "åĪĨåĪ«": 1571,
      "æĿ¥èĩª": 1572,
      "ç«¯": 1573,
      "2020å¹´": 1574,
      "çĽ®åīį": 1575,
      "ç¯": 1576,
      "æĺ¥": 1577,
      "çŁŃ": 1578,
      "éĢģ": 1579,
      "åħ¹": 1580,
      "åĪĨå¸ĥ": 1581,
      "åħĭåħ°": 1582,
      "éľĢè¦ģ": 1583,
      "ç³»åĪĹ": 1584,
      "ä¹ĺ": 1585,
      "ä½³": 1586,
      "å°½": 1587,
      "æĿŁ": 1588,
      "å®Ŀ": 1589,
      "å®ĮæĪĲ": 1590,
      "ä¸Ńåįİäººæ°ĳåħ±åĴĮåĽ½": 1591,
      "éĢļå¸¸": 1592,
      "é¡º": 1593,
      "æ°ĳåĽ½": 1594,
      "ä»Ģ": 1595,
      "åĲĮå¹´": 1596,
      "æ²¿": 1597,
      "æľ«": 1598,
      "æĹĹ": 1599,
      "å»ºç«ĭ": 1600,
      "åĲ¯": 1601,
      "èįī": 1602,
      "åįĹéĥ¨": 1603,
      "åºı": 1604,
      "åŃĺåľ¨": 1605,
      "éĺ¶": 1606,
      "éĺµ": 1607,
      "èį¯": 1608,
      "å¯¼èĩ´": 1609,
      "èĢ¶": 1610,
      "éĽĦ": 1611,
      "éħĴ": 1612,
      "æļ´": 1613,
      "æĸ¯çī¹": 1614,
      "æ¯Ľ": 1615,
      "æĪĲåĬŁ": 1616,
      "ion": 1617,
      "æ³½": 1618,
      "åħ¼": 1619,
      "é¢ĳ": 1620,
      "äºİ201": 1621,
      "åħ±æľī": 1622,
      "åĨ²": 1623,
      "è½»": 1624,
      "è¦ģæ±Ĥ": 1625,
      "æĳĦ": 1626,
      "çĭ¬ç«ĭ": 1627,
      "è·Ŀ": 1628,
      "çĦ¶èĢĮ": 1629,
      "25": 1630,
      "ç»ĦæĪĲ": 1631,
      "ä¾ĭå¦Ĥ": 1632,
      "æĳ©": 1633,
      "è¿ĻäºĽ": 1634,
      "æľĢé«ĺ": 1635,
      "éĶĢ": 1636,
      "æ¬¾": 1637,
      "è¿Ļä¸ª": 1638,
      "è¾ĵ": 1639,
      "åįķä½į": 1640,
      "èĻ½çĦ¶": 1641,
      "æµ·æĭĶ": 1642,
      "12æľĪ": 1643,
      "å¼Ģåıĳ": 1644,
      "æĭ¥æľī": 1645,
      "å¸ķ": 1646,
      "èĩªçĶ±": 1647,
      "ãĢĭ(": 1648,
      "ãĢĭãĢģ": 1649,
      "çģµ": 1650,
      "åŃĻ": 1651,
      "ä¸ĵè¾ĳ": 1652,
      "æĺ¯åľ¨": 1653,
      "çŃ¾": 1654,
      "åªĴ": 1655,
      "çĽ¸åħ³": 1656,
      "ä¹Įåħĭåħ°": 1657,
      "ç±į": 1658,
      "å©ļ": 1659,
      "çİĽ": 1660,
      "æĥħåĨµ": 1661,
      "çĶ¨äºİ": 1662,
      "ç½ª": 1663,
      "193": 1664,
      "é¡»": 1665,
      "èīºæľ¯": 1666,
      "æĺ¯ä¸Ģ": 1667,
      "æĿĤ": 1668,
      "äººåĳĺ": 1669,
      "çº½": 1670,
      "é¥°": 1671,
      "æ£Ģ": 1672,
      "éĽħ": 1673,
      "et": 1674,
      "é¡¶": 1675,
      "çĲĥéĺŁ": 1676,
      "âĢĿ,": 1677,
      "éĢīä¸¾": 1678,
      "å¯Ĩåº¦": 1679,
      "æĿ¨": 1680,
      "èģĶçĽŁ": 1681,
      "éĩĩçĶ¨": 1682,
      "æŀª": 1683,
      "il": 1684,
      "åĤ": 1685,
      "æıĲåĩº": 1686,
      "24": 1687,
      "ä»ĭ": 1688,
      "äºĨä¸Ģ": 1689,
      "åīįå¾Ģ": 1690,
      "åĬ³": 1691,
      "ç§Ģ": 1692,
      "åħį": 1693,
      "ou": 1694,
      "7æľĪ": 1695,
      "çķ¥": 1696,
      "åıĹåĪ°": 1697,
      "æ²ĥ": 1698,
      "å·®": 1699,
      "æĭį": 1700,
      "éĢı": 1701,
      "è¿½": 1702,
      "å®³": 1703,
      "äº¿": 1704,
      "æ¿": 1705,
      "ãĢĭ,": 1706,
      "å·¡": 1707,
      "ol": 1708,
      "æĸ¹å¼ı": 1709,
      "9æľĪ": 1710,
      "çĽĸ": 1711,
      "åĩı": 1712,
      "èĭ¥": 1713,
      "è§Ĵèī²": 1714,
      "è´¢": 1715,
      "ä¸ºäºĨ": 1716,
      "10æľĪ": 1717,
      "éĴŁ": 1718,
      "è¢Ń": 1719,
      "8æľĪ": 1720,
      "è¿ģ": 1721,
      "éĩĬ": 1722,
      "åĽ½æ°ĳ": 1723,
      "äºĮåįģ": 1724,
      "æĿ¿": 1725,
      "èī¯": 1726,
      "ac": 1727,
      "å°¾": 1728,
      "åĲ´": 1729,
      "å¤§éĻĨ": 1730,
      "è®Ń": 1731,
      "èŀ": 1732,
      "åħ·æľī": 1733,
      "èį£": 1734,
      "æĿ¯": 1735,
      "åĲĪä½ľ": 1736,
      "3æľĪ": 1737,
      "è°·": 1738,
      "çĪĨ": 1739,
      "éħ¸": 1740,
      "äº¤éĢļ": 1741,
      "æķ£": 1742,
      "æı´": 1743,
      "æłĳ": 1744,
      "æŃĮæĽ²": 1745,
      "åĩºçīĪ": 1746,
      "éĽĨåĽ¢": 1747,
      "èģĶèµĽ": 1748,
      "äº§çĶŁ": 1749,
      "ç£": 1750,
      "æĺł": 1751,
      "çļĦå¤§": 1752,
      "é¦ĸæ¬¡": 1753,
      "å®ĭ": 1754,
      "ä¼ģ": 1755,
      "è¯ĳ": 1756,
      "è´Ń": 1757,
      "äºĪ": 1758,
      "æķ°æį®": 1759,
      "åĸĦ": 1760,
      "±ä¹Ĳ": 1761,
      "å¾®": 1762,
      "é»İ": 1763,
      "æ´¥": 1764,
      "åħ¶ä¸Ń": 1765,
      "èĤ¡": 1766,
      "å°º": 1767,
      "è¡¥": 1768,
      "çī¹åĪ«": 1769,
      "æ¯ķä¸ļ": 1770,
      "è®¿": 1771,
      "å±ĭ": 1772,
      "ç»§ç»Ń": 1773,
      "å®¡": 1774,
      "è´µ": 1775,
      "äºĴ": 1776,
      "è¡Ģ": 1777,
      "é«ĺåº¦": 1778,
      "é¡¹çĽ®": 1779,
      "ç»ĵæĿŁ": 1780,
      "6æľĪ": 1781,
      "æĻĭ": 1782,
      "è½¨": 1783,
      "çĶŁäº§": 1784,
      "çĥĪ": 1785,
      "åģĩ": 1786,
      "åĽłæŃ¤": 1787,
      "è®¯": 1788,
      "éŁ¦": 1789,
      "ãĥ": 1790,
      "ãĢĭãĢģãĢĬ": 1791,
      "åħ»": 1792,
      "éĻ©": 1793,
      "ç»ĵæŀĦ": 1794,
      "èĩ£": 1795,
      "5æľĪ": 1796,
      "å¸ĿåĽ½": 1797,
      "é¢Ŀ": 1798,
      "æıı": 1799,
      "æī©": 1800,
      "23": 1801,
      "éĥ¨éĺŁ": 1802,
      "è¥¿äºļ": 1803,
      "ä¸ªäºº": 1804,
      "è¯Ńè¨Ģ": 1805,
      "æķĳ": 1806,
      "äººåı£å¯Ĩåº¦": 1807,
      "æ¯Ĵ": 1808,
      "æİ§åĪ¶": 1809,
      "é²ľ": 1810,
      "å¯¹äºİ": 1811,
      "åĸľ": 1812,
      "ç§ĳåŃ¦": 1813,
      "æİ¥åıĹ": 1814,
      "å½¢æĪĲ": 1815,
      "ç«ŀ": 1816,
      "1æľĪ": 1817,
      "åıĸå¾Ĺ": 1818,
      "ä»»ä½ķ": 1819,
      "æĹ¶ä»£": 1820,
      "æµ·åĨĽ": 1821,
      "è¡ĮåĬ¨": 1822,
      "ä¸»å¸Ń": 1823,
      "åĮºåŁŁ": 1824,
      "æĮ¥": 1825,
      "å³°": 1826,
      "éĿ¢ç§¯ä¸º": 1827,
      "æķħäºĭ": 1828,
      "å¤º": 1829,
      "æĿľ": 1830,
      "æ°ĳä¸»": 1831,
      "èĪŀ": 1832,
      "æ¦Ĥ": 1833,
      "éĶ¦": 1834,
      "è¯Ĺ": 1835,
      "åĩºçĶŁ": 1836,
      "æĹłæ³ķ": 1837,
      "è®²": 1838,
      "4æľĪ": 1839,
      "éĢĤ": 1840,
      "11æľĪ": 1841,
      "éĢĶ": 1842,
      "çļĦæĺ¯": 1843,
      "ä¹Łæĺ¯": 1844,
      "æĭľ": 1845,
      "ä¸°": 1846,
      "æľºæŀĦ": 1847,
      "çİ©": 1848,
      "çĶļ": 1849,
      "å¢ŀåĬł": 1850,
      "åĮºçļĦ": 1851,
      "éĢłæĪĲ": 1852,
      "40": 1853,
      "2019å¹´": 1854,
      "æľ±": 1855,
      "å¸ģ": 1856,
      "çĸĹ": 1857,
      "é½Ĳ": 1858,
      "æ¢ģ": 1859,
      "èį·": 1860,
      "è¾Ĩ": 1861,
      "éĻĦè¿ĳ": 1862,
      "ä¸»æķĻ": 1863,
      "è¶ħè¿ĩ": 1864,
      "çļĦäºº": 1865,
      "ç§ĺ": 1866,
      "å»·": 1867,
      "é¢Ĩå¯¼": 1868,
      "æĮī": 1869,
      "ä¼łç»Ł": 1870,
      "ç»ĵæŀľ": 1871,
      "ç½Ĺé©¬": 1872,
      "å¾Ħ": 1873,
      "ä»¥ä¸ĭ": 1874,
      "çĩ": 1875,
      "å®¾": 1876,
      "éļ¶": 1877,
      "2021å¹´": 1878,
      "ç¦ģ": 1879,
      "æĴ¤": 1880,
      "ä¸Ńåħ±": 1881,
      "åĿĢ": 1882,
      "æĿĲ": 1883,
      "åįĪ": 1884,
      "ing": 1885,
      "è´§": 1886,
      "åĩ¯": 1887,
      "åĬ¨çī©": 1888,
      "æ¸Ĳ": 1889,
      "çĬ¯": 1890,
      "èĥ¡": 1891,
      "2022å¹´": 1892,
      "as": 1893,
      "åĨĽäºĭ": 1894,
      "21": 1895,
      "ç«¥": 1896,
      "æķ¦": 1897,
      "èĪªç©º": 1898,
      "åľĨ": 1899,
      "ä½©": 1900,
      "çĽĬ": 1901,
      "çļĦæĹ¶": 1902,
      "ä»ª": 1903,
      "å¤Ł": 1904,
      "æłĩåĩĨ": 1905,
      "om": 1906,
      "åıĳå¸ĥ": 1907,
      "5æĹ¥": 1908,
      "èģļ": 1909,
      "è°¢": 1910,
      "100": 1911,
      "æĸ°éĹ»": 1912,
      "60": 1913,
      "éª¨": 1914,
      "æ··": 1915,
      "çĮ®": 1916,
      "çĽĽ": 1917,
      "åĨħçļĦ": 1918,
      "è¿Ķ": 1919,
      "åıªæľī": 1920,
      "ãĢĭ.": 1921,
      "ä»ģ": 1922,
      "éĥİ": 1923,
      "çīĽ": 1924,
      "çļĨ": 1925,
      "æķ°éĩı": 1926,
      "æŁĲ": 1927,
      "è®¨": 1928,
      "å°±æĺ¯": 1929,
      "ç¿°": 1930,
      "åĪĳ": 1931,
      "ç©Ĩ": 1932,
      "çĤ¸": 1933,
      "æįķ": 1934,
      "éĺ¿å°Ķ": 1935,
      "å¨ľ": 1936,
      "éĿ©åĳ½": 1937,
      "èĮĥåĽ´": 1938,
      "äºİ200": 1939,
      "ch": 1940,
      "å¤§åĪ©": 1941,
      "å¸®": 1942,
      "åªĴä½ĵ": 1943,
      "ed": 1944,
      "éĻ¤äºĨ": 1945,
      "å®½": 1946,
      "å¾ĹåĪ°": 1947,
      "æľºåľº": 1948,
      "å¥³æĢ§": 1949,
      "èĮ¨": 1950,
      "å®īåħ¨": 1951,
      "è°ĥæŁ¥": 1952,
      "è¿ĩç¨ĭ": 1953,
      "è§ī": 1954,
      "æİ¢": 1955,
      "ä¹ĭåīį": 1956,
      "æł¼åħ°": 1957,
      "ç»ıè¿ĩ": 1958,
      "çĤ®": 1959,
      "æĻº": 1960,
      "åºĻ": 1961,
      "åĨħå®¹": 1962,
      "åħ¬åĽŃ": 1963,
      "çĪ¶äº²": 1964,
      "å¹ķ": 1965,
      "æĪª": 1966,
      "åĲ¦": 1967,
      "éģĩ": 1968,
      "å¤ľ": 1969,
      ":âĢľ": 1970,
      "(,),": 1971,
      "éŁ©åĽ½": 1972,
      "çĶ·åŃĲ": 1973,
      "ä¹Ķ": 1974,
      "åįģäºĮ": 1975,
      "éľį": 1976,
      "èµŀ": 1977,
      "åħħ": 1978,
      "èĶ": 1979,
      "æĭ©": 1980,
      "22": 1981,
      "è½¯": 1982,
      "éĩįæĸ°": 1983,
      "å¥³åŃĲ": 1984,
      "å¹³æĸ¹åįĥç±³": 1985,
      "åĪ»": 1986,
      "æīĢä»¥": 1987,
      "éľ²": 1988,
      "èµĽäºĭ": 1989,
      "æĽ¿": 1990,
      "7æĹ¥": 1991,
      "ä¼ĳ": 1992,
      "å°¤": 1993,
      "ç§ģ": 1994,
      "åĪº": 1995,
      "ä½įç½®": 1996,
      "å¹³åĿĩ": 1997,
      "èĸ": 1998,
      "å«": 1999,
      "èĩªå·±çļĦ": 2000,
      "çİī": 2001,
      "è¿ĲåĬ¨åĳĺ": 2002,
      "æŁĵ": 2003,
      "çºªå¿µ": 2004,
      "å±ħæ°ĳ": 2005,
      "6æĹ¥": 2006,
      "2010å¹´": 2007,
      "ä¸ĢèĪ¬": 2008,
      "é¸Ł": 2009,
      "åĪĽä½ľ": 2010,
      "åıĳè¡¨": 2011,
      "åºŁ": 2012,
      "ä¸ĢåĲį": 2013,
      "ç¼º": 2014,
      "éĿł": 2015,
      "us": 2016,
      "ä¸Ŀ": 2017,
      "ãģ": 2018,
      "éĴĪ": 2019,
      "æķĮ": 2020,
      "åĢŁ": 2021,
      "æĺĮ": 2022,
      "çİ°ä»£": 2023,
      "è®¾ç«ĭ": 2024,
      "ç»©": 2025,
      "è¯ī": 2026,
      "æºª": 2027,
      "æĬµ": 2028,
      "éĤ®": 2029,
      "æľīéĻĲ": 2030,
      "èģĶéĤ¦": 2031,
      "åĲĽ": 2032,
      "å·¨": 2033,
      "èľ": 2034,
      "åĲ¸": 2035,
      "å®ĩ": 2036,
      "è¥¿çıŃ": 2037,
      "è·Ł": 2038,
      "çĪµ": 2039,
      "ä¹±": 2040,
      "å±ŀçļĦ": 2041,
      "èĵĿ": 2042,
      "è¥¿çıŃçīĻ": 2043,
      "éªĳ": 2044,
      "å¾¡": 2045,
      "28": 2046,
      "å®ª": 2047,
      "æĹ¶çļĦ": 2048,
      "31": 2049,
      "çľ¼": 2050,
      "è®®ä¼ļ": 2051,
      "åıįå¯¹": 2052,
      "æ¼Ķåĳĺ": 2053,
      "æ¤įçī©": 2054,
      "ä¸ĢçĽ´": 2055,
      "åĿ¡": 2056,
      "æ®¿": 2057,
      "åħ±äº§": 2058,
      "æķĻæİĪ": 2059,
      "æįŁ": 2060,
      "å¾Ĵ": 2061,
      "éĽª": 2062,
      "æĿ¥çļĦ": 2063,
      "å·¥ä¸ļ": 2064,
      "åĽº": 2065,
      "æ°ĳæĹı": 2066,
      "è¯¸": 2067,
      "ä¾µ": 2068,
      "åĪĬ": 2069,
      "çīĪæľ¬": 2070,
      "åĮ¹": 2071,
      "æľīåħ³": 2072,
      "ç¬¬åĽĽ": 2073,
      "éĢĥ": 2074,
      "åħ¬è·¯": 2075,
      "çĽ´æİ¥": 2076,
      "çİ°åľ¨": 2077,
      "éļĶ": 2078,
      "2023å¹´": 2079,
      "èª": 2080,
      "å»ºè®¾": 2081,
      "4æĹ¥": 2082,
      "èģĮä¸ļ": 2083,
      "æī¾": 2084,
      "çİ¯å¢ĥ": 2085,
      "è°ĭ": 2086,
      "ä¸¾åĬŀ": 2087,
      "èĦĳ": 2088,
      "æ¶¯": 2089,
      "éļıåĲİ": 2090,
      "ä¸ŃåŃ¦": 2091,
      "3æĹ¥": 2092,
      "ä¹İ": 2093,
      "éĢīæĭ©": 2094,
      "åĨĽéĺŁ": 2095,
      "çĹĩ": 2096,
      "è¿ĺæľī": 2097,
      "éĿŀå¸¸": 2098,
      "ç¿»": 2099,
      "æ¬¢": 2100,
      "èĭıèģĶ": 2101,
      "åıįåºĶ": 2102,
      "ç¼ĸçłģ": 2103,
      "ä½ł": 2104,
      "çĶ³": 2105,
      "åħ¬å¼Ģ": 2106,
      "de": 2107,
      "ä½ĵèĤ²": 2108,
      "å£¤": 2109,
      "éĥĳ": 2110,
      "å²©": 2111,
      "éĵ¶è¡Į": 2112,
      "æ¦ľ": 2113,
      "è£ģ": 2114,
      "èµĦæĸĻ": 2115,
      "åħ±åĲĮ": 2116,
      "æ±ĩ": 2117,
      "å½¢å¼ı": 2118,
      "åĨ³èµĽ": 2119,
      "ç©¿": 2120,
      "æĪĺæĸĹ": 2121,
      "è¡ĮæĺŁ": 2122,
      "åħĦ": 2123,
      "åı¬": 2124,
      "éĥ½æĺ¯": 2125,
      "åĨ°": 2126,
      "æĺ¾ç¤º": 2127,
      "éĤ»": 2128,
      "æ¼«": 2129,
      "åįıä¼ļ": 2130,
      "2æľĪ": 2131,
      "æĢ¥": 2132,
      "æ¿Ģ": 2133,
      "åĲįç§°": 2134,
      ".âĢĿ": 2135,
      "è·Ŀç¦»": 2136,
      "27": 2137,
      "of": 2138,
      "å¥ī": 2139,
      "æĸ¹æ³ķ": 2140,
      "ç»ľ": 2141,
      "éķľ": 2142,
      "æĪĪ": 2143,
      "åŁ¹": 2144,
      "un": 2145,
      "åĶ¯": 2146,
      "æİ¨åĩº": 2147,
      "åĲįçļĦ": 2148,
      "è¯¾": 2149,
      "å°ıè¯´": 2150,
      "ç¬¦": 2151,
      "èĥŀ": 2152,
      "åĪ©çĶ¨": 2153,
      "å¤ļæķ°": 2154,
      "åĲ¬": 2155,
      "çĶŁæ¶¯": 2156,
      "æ¯ģ": 2157,
      "è®®åĳĺ": 2158,
      "èĬ¬": 2159,
      "è¿«": 2160,
      "ç¾İåħĥ": 2161,
      "çĽ´åĪ°": 2162,
      "æĸ¯åĿ¦": 2163,
      "ä¹¦è®°": 2164,
      "ä¼ģä¸ļ": 2165,
      "è®¢": 2166,
      "è°Ī": 2167,
      "åĳ¼": 2168,
      "é»ĺ": 2169,
      "åĮħåĲ«": 2170,
      "èĩªæ²»": 2171,
      "å¾ħ": 2172,
      "æ³ķå¾ĭ": 2173,
      "éĽ¨": 2174,
      "éĨ": 2175,
      "ä¸Ģèµ·": 2176,
      "ç®¡è¾ĸ": 2177,
      "æĮĩæĮ¥": 2178,
      "åĳĪ": 2179,
      "èĤ¯": 2180,
      "St": 2181,
      "è¿Ļä¸Ģ": 2182,
      "åģ¥": 2183,
      "å®Įåħ¨": 2184,
      "ä¸»ä»»": 2185,
      "æĢĢ": 2186,
      "èĢ³": 2187,
      "åı°åĮĹ": 2188,
      "ä¸Ńåįİæ°ĳåĽ½": 2189,
      "çĶŁçī©": 2190,
      "æĸ°çļĦ": 2191,
      "ï¼į": 2192,
      "çĸĳ": 2193,
      "æ³Ľ": 2194,
      "å®¶åºŃ": 2195,
      "èµµ": 2196,
      "åĿļ": 2197,
      "ä¸ľåĮĹ": 2198,
      "ä¸įæĺ¯": 2199,
      "26": 2200,
      "æ³ķéĻ¢": 2201,
      "äººç±»": 2202,
      "èİī": 2203,
      "éĻµ": 2204,
      "æĦ¿": 2205,
      "ent": 2206,
      "âĢĶâĢĶ": 2207,
      "ãĤ": 2208,
      "and": 2209,
      "æĵį": 2210,
      "æĹĭ": 2211,
      "æĪĳä»¬": 2212,
      "å®¶æĹı": 2213,
      "èĩªçĦ¶": 2214,
      "å§ĵ": 2215,
      "åı¦ä¸Ģ": 2216,
      "æľīä¸Ģ": 2217,
      "åŃ¦ä¹ł": 2218,
      "åľ°çļĦ": 2219,
      "åĨįæ¬¡": 2220,
      "ri": 2221,
      "2024å¹´": 2222,
      "æ¶ī": 2223,
      "çĶµåŃĲ": 2224,
      "å¤§éĩı": 2225,
      "æŀļ": 2226,
      "æĮĩåĩº": 2227,
      "é¢Ĺ": 2228,
      "æĶ¿çŃĸ": 2229,
      "åħ³äºİ": 2230,
      "æĪ´": 2231,
      "æ¯«": 2232,
      "åŃ©": 2233,
      "èĦ±": 2234,
      "æī§è¡Į": 2235,
      "åĬ¨çĶ»": 2236,
      "çĶļèĩ³": 2237,
      "åĪĨä¸º": 2238,
      "2016å¹´": 2239,
      "çĲĨè®º": 2240,
      "35": 2241,
      "è¡¨çİ°": 2242,
      "èŀį": 2243,
      ":ãĢĮ": 2244,
      "æľĪ1æĹ¥": 2245,
      "åĲİçļĦ": 2246,
      "å¿ħé¡»": 2247,
      "åĮ»éĻ¢": 2248,
      "29": 2249,
      "æļĤ": 2250,
      "åŁºç¡": 2251,
      "åį±": 2252,
      "ç»¿": 2253,
      "ä»¥æĿ¥": 2254,
      "è¡Įä¸º": 2255,
      "å°ĨåĨĽ": 2256,
      "å¦»": 2257,
      "ç§ĭ": 2258,
      "ä¸ľéĥ¨": 2259,
      "çĽĺ": 2260,
      "æľĢä½³": 2261,
      "æģĴ": 2262,
      "å¢ĥåĨħ": 2263,
      "å°½ç®¡": 2264,
      "2011å¹´": 2265,
      "èĪį": 2266,
      "ow": 2267,
      "æīİ": 2268,
      "æĢ§çļĦ": 2269,
      "æľĢåĪĿ": 2270,
      "åĿĲ": 2271,
      "èĿ": 2272,
      "é¡¾": 2273,
      "æĸĩåŃ¦": 2274,
      "åŁºç¡Ģ": 2275,
      "æĶ¹ä¸º": 2276,
      "åį·": 2277,
      "æ¨ª": 2278,
      "2018å¹´": 2279,
      "ç¾½": 2280,
      "æŁı": 2281,
      "ä¸ŃåĽ½å¤§éĻĨ": 2282,
      "ä¹Ī": 2283,
      "åĬª": 2284,
      "å®ĺæĸ¹": 2285,
      "ç¿¼": 2286,
      "ç´§": 2287,
      "åįļçī©": 2288,
      "èīĩ": 2289,
      "åķĨä¸ļ": 2290,
      "ç¯ĩ": 2291,
      "çľģä»½": 2292,
      "è¾Ľ": 2293,
      "æĶ»åĩ»": 2294,
      "æ»¨": 2295,
      "æĦıå¤§åĪ©": 2296,
      "è´¡": 2297,
      "åħ¬åħ±": 2298,
      "å¥ı": 2299,
      "ä¹°": 2300,
      "çī©ç§į": 2301,
      "æŃ»äº¡": 2302,
      "æĴŃåĩº": 2303,
      "ur": 2304,
      "æ¡ĳ": 2305,
      "éĴ±": 2306,
      "æĬ¥åĳĬ": 2307,
      "ç±»ä¼¼": 2308,
      "åĿı": 2309,
      "æĻ®æŁ¥": 2310,
      "éŃĶ": 2311,
      "ç¼©": 2312,
      "æľĿé²ľ": 2313,
      "æĶ¿æ²»äººçī©": 2314,
      "æ´ª": 2315,
      "å¸Ĥåľº": 2316,
      "2014å¹´": 2317,
      "æĹ©æľŁ": 2318,
      "èĥ½åĬĽ": 2319,
      "¤Ĳ": 2320,
      "æ½ľ": 2321,
      "å®ŀéĻħ": 2322,
      "äºļæ´²": 2323,
      "èĨ": 2324,
      "æııè¿°": 2325,
      "å¢ĵ": 2326,
      "ad": 2327,
      "è¯¯": 2328,
      "æ¼Ķåĩº": 2329,
      "è§Ħæ¨¡": 2330,
      "80": 2331,
      "çº¦ç¿°": 2332,
      "åĽ¢ä½ĵ": 2333,
      "åĬłæĭ¿": 2334,
      "éģ¿": 2335,
      "å¿ł": 2336,
      "åħ¨çĲĥ": 2337,
      "ç»į": 2338,
      "æ®ĸ": 2339,
      "åİ»ä¸ĸ": 2340,
      "æĭįæĳĦ": 2341,
      "å¤ĦçĲĨ": 2342,
      "æĺ¯ä¸Ģä¸ª": 2343,
      "æłĸ": 2344,
      "æµ·æĭĶé«ĺåº¦": 2345,
      "çģŃ": 2346,
      "ä¹ĭéĹ´çļĦ": 2347,
      "è¥¿éĥ¨": 2348,
      "å¤ĸäº¤": 2349,
      "å¹¿ä¸ľ": 2350,
      "ä¸ĭçļĦ": 2351,
      "éľĩ": 2352,
      "æµĻ": 2353,
      "2017å¹´": 2354,
      "2012å¹´": 2355,
      "åĪ¶éĢł": 2356,
      "éĵľ": 2357,
      "2015å¹´": 2358,
      "èĥ½å¤Ł": 2359,
      "ä¸¥éĩį": 2360,
      "å¤§ä¼ļ": 2361,
      "å»ī": 2362,
      "ç¦»å¼Ģ": 2363,
      "ç«¹": 2364,
      "çļĦåľ°": 2365,
      "çĸ«": 2366,
      "åŁºæľ¬": 2367,
      "ãĢį(": 2368,
      "å®ĹæķĻ": 2369,
      "æģ¶": 2370,
      "æ±½": 2371,
      "å®ľ": 2372,
      "è¿·": 2373,
      "ig": 2374,
      "ä¼į": 2375,
      "çºªå½ķ": 2376,
      "é³į": 2377,
      "ä¸ºä¸»": 2378,
      "ä½ľçĶ¨": 2379,
      "è¿¹": 2380,
      "è¿Ļç§į": 2381,
      "éĹŃ": 2382,
      "å¥Ĺ": 2383,
      "2001å¹´": 2384,
      "æĮģç»Ń": 2385,
      "åĿĹ": 2386,
      "åģı": 2387,
      "å°ıæĹ¶": 2388,
      "ä»ĺ": 2389,
      "è®¡ç®Ĺ": 2390,
      "2013å¹´": 2391,
      "è·¯çº¿": 2392,
      "2009å¹´": 2393,
      "189": 2394,
      "th": 2395,
      "æī¬": 2396,
      "åħ±äº§åħļ": 2397,
      "äºĭåĬ¡": 2398,
      "åŃĶ": 2399,
      "è¯¥åĽ½": 2400,
      "ç©ºéĹ´": 2401,
      "çļĦä¸Ģä¸ªå¸Ĥéķĩ": 2402,
      "èµĸ": 2403,
      "è¡£": 2404,
      "8æĹ¥": 2405,
      "è¿İ": 2406,
      "70": 2407,
      "å°Ķæĸ¯": 2408,
      "æ³ī": 2409,
      "åĪļ": 2410,
      "è¾ħ": 2411,
      "the": 2412,
      "å¸ĮæľĽ": 2413,
      "ä»»åĬ¡": 2414,
      "çĽ®æłĩ": 2415,
      "æŀĲ": 2416,
      "èĦī": 2417,
      "ä¸īä¸ª": 2418,
      "å¥¹çļĦ": 2419,
      "æ±ł": 2420,
      "ç»Łæ²»": 2421,
      "æİ¥å£¤": 2422,
      "èªī": 2423,
      "ä¼°": 2424,
      "åı¦å¤ĸ": 2425,
      "æĸ¹åĲĳ": 2426,
      "æ¸¡": 2427,
      "æģĲ": 2428,
      "ç¼ĺ": 2429,
      "æĸĩçī©": 2430,
      "ç¬¬åįģ": 2431,
      "ä¸ľåįĹ": 2432,
      "åĬŁèĥ½": 2433,
      "èĳ£": 2434,
      "éļľ": 2435,
      "å¼ĥ": 2436,
      "å¹´çļĦ": 2437,
      "åįķæĽ²": 2438,
      "éĺ¿æĭī": 2439,
      "ãĢī": 2440,
      "ãĢĪ": 2441,
      "åĬłæĭ¿å¤§": 2442,
      "çº½çº¦": 2443,
      "å¢¨": 2444,
      "éĶ¦æłĩ": 2445,
      "æĭĽ": 2446,
      "äº«": 2447,
      "è·¨": 2448,
      "è®¾æĸ½": 2449,
      "æľĪåı°": 2450,
      "èµ¤": 2451,
      "å¯»": 2452,
      "192": 2453,
      "èµĽåŃ£": 2454,
      "èħĬ": 2455,
      "æĺ¯çĶ±": 2456,
      "åīĳ": 2457,
      "éĢıè¿ĩ": 2458,
      "çĶĺ": 2459,
      "äºķ": 2460,
      "ä¿±ä¹Ĳ": 2461,
      "è§Ħå®ļ": 2462,
      "ä¸»æĮģ": 2463,
      "éĶ¡": 2464,
      "éŃı": 2465,
      "çĲĥåĳĺ": 2466,
      "éĢĬ": 2467,
      "ä¿±ä¹Ĳéĥ¨": 2468,
      "éĺ»": 2469,
      "åĪĨå¸ĥäºİ": 2470,
      "ä»įçĦ¶": 2471,
      "åįļçī©é¦Ĩ": 2472,
      "éĢīåĮº": 2473,
      "åıĺåĮĸ": 2474,
      "æĥł": 2475,
      "åĲĪå¹¶": 2476,
      "è´¸": 2477,
      "è§£æĶ¾": 2478,
      "åĽ½çİĭ": 2479,
      "çĳŁ": 2480,
      "ä¸Ģæ¬¡": 2481,
      "é¢ģ": 2482,
      "åħ¬å¸ĥ": 2483,
      "å·´å£«": 2484,
      "å¼ĢæĶ¾": 2485,
      "å¹¿æĴŃ": 2486,
      "åĨ¬": 2487,
      "åħĭæĸ¯": 2488,
      "ç»ĺ": 2489,
      "å¦Ĥæŀľ": 2490,
      "åħĭéĩĮ": 2491,
      "äº®": 2492,
      "2008å¹´": 2493,
      "ä»ĸåľ¨": 2494,
      "èĤī": 2495,
      "è¾¾åĪ°": 2496,
      "å®ŀéªĮ": 2497,
      "èµ¢": 2498,
      "ä¹Łæľī": 2499,
      "åĶ¯ä¸Ģ": 2500,
      "åİŁåĽł": 2501,
      "è¸": 2502,
      "å½ĵä¸Ń": 2503,
      "éĢĲæ¸Ĳ": 2504,
      "æį·": 2505,
      "èıĮ": 2506,
      "åıĳåĬ¨": 2507,
      "éĥ¨éķ¿": 2508,
      "äººåı£æĻ®æŁ¥": 2509,
      "çĥŃå¸¦": 2510,
      "çº²": 2511,
      "åĦ¿åŃĲ": 2512,
      "ç»¼": 2513,
      "é©¬æĿ¥": 2514,
      "åĵ²": 2515,
      "çŁ¿": 2516,
      "è¿ŀæİ¥": 2517,
      "å½ĵéĢī": 2518,
      "45": 2519,
      "æ¨¡å¼ı": 2520,
      "å¾Ĳ": 2521,
      "ç¹": 2522,
      "å¤§åĮº": 2523,
      "è¾ŀ": 2524,
      "ç¬¬ä¸Ģæ¬¡": 2525,
      "ä¸ľäº¬": 2526,
      "åı·çº¿": 2527,
      "çģ¾": 2528,
      "èĴĻåı¤": 2529,
      "è¿ĲåĬ¨ä¼ļ": 2530,
      "å®ļä¹ī": 2531,
      "id": 2532,
      "æľīéĻĲåħ¬åı¸": 2533,
      "os": 2534,
      "çĽ¸å½ĵ": 2535,
      "éĺ´": 2536,
      "èĽĭ": 2537,
      "åĲĦç§į": 2538,
      "è®Ńç»ĥ": 2539,
      "æ´ŀ": 2540,
      "ç¨³": 2541,
      "ç»Ĩèĥŀ": 2542,
      "æ½®": 2543,
      "çĽ¸åĲĮ": 2544,
      "ra": 2545,
      "åĩ»è´¥": 2546,
      "å¦ĩ": 2547,
      "åıĻ": 2548,
      "æ¼ĶåĶ±": 2549,
      "é£İæł¼": 2550,
      "å¤ªå¹³": 2551,
      "çĬ¹": 2552,
      "å¤ªéĺ³": 2553,
      "å¦¹": 2554,
      "190": 2555,
      "èĢħçļĦ": 2556,
      "ç¹ģ": 2557,
      "IN": 2558,
      "æ°§": 2559,
      "éģĵè·¯": 2560,
      "ä½Ĳ": 2561,
      "ct": 2562,
      "æĪĲç»©": 2563,
      "48": 2564,
      "æļĹ": 2565,
      "æŃĮæīĭ": 2566,
      "æİĮ": 2567,
      "TC": 2568,
      "æĭĴ": 2569,
      "å¥¥è¿Ĳ": 2570,
      "æ»ĳ": 2571,
      "åı¸ä»¤": 2572,
      "æģ¢": 2573,
      "çİ©å®¶": 2574,
      "ä¸ĵä¸ļ": 2575,
      "å¹¶ä¸į": 2576,
      "éĺ¶æ®µ": 2577,
      "äººå£«": 2578,
      "ter": 2579,
      "éĴ¢": 2580,
      "è¥¿åįĹ": 2581,
      "åĢĴ": 2582,
      "2025å¹´": 2583,
      "åĨ·": 2584,
      "åĨĮ": 2585,
      "æī¹è¯Ħ": 2586,
      ".ãĢį": 2587,
      "è¥¿åĮĹ": 2588,
      "èĻİ": 2589,
      "çĲ´": 2590,
      "ä¸įåĲĮçļĦ": 2591,
      "ç§Ł": 2592,
      "å»ºéĢł": 2593,
      "ä¸Ģæł·": 2594,
      "è®¾ç½®": 2595,
      "äº§åĵģ": 2596,
      "ä¼Ĳ": 2597,
      "âĢĵ": 2598,
      "åĬŀåħ¬": 2599,
      "è½¨éģĵ": 2600,
      "æĺĤ": 2601,
      "ç¨İ": 2602,
      "é©±": 2603,
      "ä¿Ĺ": 2604,
      "å¾½": 2605,
      "äºİ199": 2606,
      "ä¸įè¿ĩ": 2607,
      "è¡ĮæĶ¿åĮº": 2608,
      "çıł": 2609,
      "è¢«ç§°ä¸º": 2610,
      "éº»": 2611,
      "èīĺ": 2612,
      "å¥Ī": 2613,
      "éĶĻ": 2614,
      "ç¡¬": 2615,
      "åĿĳ": 2616,
      "èĥĮæĻ¯": 2617,
      "åľĪ": 2618,
      "å®ļçļĦ": 2619,
      "å¹¼": 2620,
      "åĳ³": 2621,
      "çĶº": 2622,
      "çĪĨåıĳ": 2623,
      "å½¼": 2624,
      "æµĻæ±Ł": 2625,
      "åĪĨéĴŁ": 2626,
      "å°ıè¡ĮæĺŁ": 2627,
      "æĤ£": 2628,
      "çļĦä¸Ģéĥ¨åĪĨ": 2629,
      "éĺģ": 2630,
      "èĳ¡": 2631,
      "å¢Ļ": 2632,
      "å½©": 2633,
      "ä¼¦æķ¦": 2634,
      "ä¹Ļ": 2635,
      "90": 2636,
      "åŃ¦èĢħ": 2637,
      "å¤§æĪĺ": 2638,
      "æµ¦": 2639,
      "æģ¢å¤į": 2640,
      "åºĶçĶ¨": 2641,
      "å¸ĮèħĬ": 2642,
      "ä¸īåįģ": 2643,
      "æĶ¹éĿ©": 2644,
      "çļĦä¸»": 2645,
      "åįĸ": 2646,
      "æ¯įäº²": 2647,
      "è§¦": 2648,
      "9æĹ¥": 2649,
      "èº«ä»½": 2650,
      "çº¸": 2651,
      "å¯¿": 2652,
      "um": 2653,
      "36": 2654,
      "éĥ¨éĹ¨": 2655,
      "èŃ¦å¯Ł": 2656,
      "æİĴåĲį": 2657,
      "ç¬Ķ": 2658,
      "å±±ä¸ľ": 2659,
      "è±ª": 2660,
      "åĽ°": 2661,
      "æ®ĭ": 2662,
      "é£ŀæľº": 2663,
      "im": 2664,
      "åĪ¶åº¦": 2665,
      "åīĤ": 2666,
      "ä¸Ģä½į": 2667,
      "éĿĴå¹´": 2668,
      "ä¸įèĥ½": 2669,
      "èİİ": 2670,
      "èķ": 2671,
      "ä¿ĥ": 2672,
      "ä¸ĭè¾ĸ": 2673,
      "è¯Ħè®º": 2674,
      "è¿Ľå£«": 2675,
      "ç²ī": 2676,
      "æĽ¾ç»ı": 2677,
      "æľĢå¤§": 2678,
      "âĢ¦": 2679,
      "æĬķèµĦ": 2680,
      "èĦļ": 2681,
      "éĢĿ": 2682,
      "é«ĺéĢŁ": 2683,
      "ç½ĳç»ľ": 2684,
      "ir": 2685,
      "å¤ıåŃ£": 2686,
      "ot": 2687,
      "è£Ĥ": 2688,
      "è®°è½½": 2689,
      "æ¡£": 2690,
      "æ¥ļ": 2691,
      "æµª": 2692,
      "èµı": 2693,
      "æ¢¦": 2694,
      "å°Ĩåħ¶": 2695,
      "å¯¼æ¼Ķ": 2696,
      "38": 2697,
      "åĮĸåŃ¦": 2698,
      "æ²ī": 2699,
      "èµĦæł¼": 2700,
      "éĽ¶": 2701,
      "å¤©æ´¥": 2702,
      "od": 2703,
      "å¹¿å·ŀ": 2704,
      "æĺŃ": 2705,
      "äº¨": 2706,
      "ãĢįãĢģ": 2707,
      "æŁ±": 2708,
      "æĭŁ": 2709,
      "å¾Īå¤ļ": 2710,
      "åģ¶": 2711,
      "åĨĪ": 2712,
      "å°Ĭ": 2713,
      "çĶµè§Ĩåı°": 2714,
      "å¸®åĬ©": 2715,
      "åįļå£«": 2716,
      "éĤĢ": 2717,
      "çļĦæĸ°": 2718,
      "çĽĲ": 2719,
      "2007å¹´": 2720,
      "å¼±": 2721,
      "è®·": 2722,
      "çĸĨ": 2723,
      "åı«": 2724,
      "ç¬¬äºĶ": 2725,
      "éĻ·": 2726,
      "åħ¨éĥ¨": 2727,
      "åĪĨåŃĲ": 2728,
      "å´ĩ": 2729,
      "æģĭ": 2730,
      "ä»Ļ": 2731,
      "æ¶ħ": 2732,
      "çĭ±": 2733,
      "çĴ": 2734,
      "è¯Ĭ": 2735,
      "ation": 2736,
      "37": 2737,
      "ç¾¤å²Ľ": 2738,
      "äºİ18": 2739,
      "éĿĻ": 2740,
      "å¥¥æŀĹ": 2741,
      "ä»»åĳ½": 2742,
      "éĻĨåĨĽ": 2743,
      "åĨľä¸ļ": 2744,
      "æĿĤå¿Ĺ": 2745,
      "æ±Ĺ": 2746,
      "ç»ķ": 2747,
      "åŁºçĿ£": 2748,
      "é¤Ĳ": 2749,
      "In": 2750,
      "çļĦçī¹": 2751,
      "ä¸įä¼ļ": 2752,
      "åħ¬å°º": 2753,
      "æķ´ä¸ª": 2754,
      "åĲįåŃĹ": 2755,
      "è£Ķ": 2756,
      "ve": 2757,
      "åĲķ": 2758,
      "ç®Ģç§°": 2759,
      "çĶ·æĢ§": 2760,
      "ç«ĭæ³ķ": 2761,
      "æ¶²": 2762,
      "èļ": 2763,
      "å¤ļæ¬¡": 2764,
      "ç¥Ń": 2765,
      "é¢ĨåŁŁ": 2766,
      "èµ¢å¾Ĺ": 2767,
      "å»ºè®®": 2768,
      "åıĬåħ¶": 2769,
      "è´Ŀå°Ķ": 2770,
      "ä½ľå®¶": 2771,
      "é¼ĵ": 2772,
      "ç¬¬äºĮæ¬¡": 2773,
      "ä¾¯": 2774,
      "æ©": 2775,
      "è¿ŀç»Ń": 2776,
      "åĪĨæŀĲ": 2777,
      "è¡¨æ¼Ķ": 2778,
      "çĸ¾": 2779,
      "ä¼´": 2780,
      "ä¼Ł": 2781,
      "åįĹäº¬": 2782,
      "ia": 2783,
      "ä»ĸä»¬çļĦ": 2784,
      "éĶ¦æłĩèµĽ": 2785,
      "åĲĮæł·": 2786,
      "èĻĳ": 2787,
      "å¹¿åľº": 2788,
      "å¥¥æŀĹåĮ¹": 2789,
      "æĢ»äººåı£": 2790,
      "ç»ıå¸¸": 2791,
      "åĩºçļĦ": 2792,
      "åĪĻæĺ¯": 2793,
      "ä¸ĺ": 2794,
      "åĽĽå·Ŀ": 2795,
      "åĮºä¸º": 2796,
      "åħĪåĲİ": 2797,
      "åıĳå°Ħ": 2798,
      "ä¸Ńéĥ¨": 2799,
      "äºīè®®": 2800,
      "500": 2801,
      "åĩ¤": 2802,
      "å¹ħ": 2803,
      "åľ°ä¸ĭ": 2804,
      "é¢ľ": 2805,
      "éĥŃ": 2806,
      "åľ°çĲĥ": 2807,
      "æĭĨ": 2808,
      "çī§": 2809,
      "çŃīäºº": 2810,
      "éĢŁåº¦": 2811,
      "æĪªèĩ³": 2812,
      "è®°å½ķ": 2813,
      "è®¾å¤ĩ": 2814,
      "é©¶": 2815,
      "ç¦ıå»º": 2816,
      "äººä»¬": 2817,
      "ç»´å°Ķ": 2818,
      "æĲŃ": 2819,
      "åĩºä»»": 2820,
      "ä¿ĿæĮģ": 2821,
      "åľ°åĮºçļĦ": 2822,
      "æĿ¡ä»¶": 2823,
      "å¼ķèµ·": 2824,
      "æ°´åŁŁ": 2825,
      "2006å¹´": 2826,
      "ç»ª": 2827,
      "æĭīæĸ¯": 2828,
      "çľģçļĦä¸Ģä¸ªå¸Ĥéķĩ": 2829,
      "è§ĦåĪĴ": 2830,
      "æĹ¥åĨĽ": 2831,
      "ä¼Ĭæĸ¯": 2832,
      "æŁ¯": 2833,
      "æ²³åįĹ": 2834,
      "åıĤèµĽ": 2835,
      "ä¿¡æģ¯": 2836,
      "éģŃåĪ°": 2837,
      "å¹³åı°": 2838,
      "å±ħä½ı": 2839,
      "å¤ıä»¤": 2840,
      "å¤ļçļĦ": 2841,
      "è¯¥åľ°": 2842,
      "é£ŀè¡Į": 2843,
      "UTC": 2844,
      "åĤ¨": 2845,
      "ç»Łè®¡": 2846,
      "è¢Ńåĩ»": 2847,
      "åĨħéĥ¨": 2848,
      "çĽ¸å¯¹": 2849,
      "å¹¿æ³Ľ": 2850,
      "èĻ«": 2851,
      "çī©çĲĨ": 2852,
      "è¿ĩåİ»": 2853,
      "æķĻåłĤ": 2854,
      "å®ĺåĳĺ": 2855,
      "è¶ĬåįĹ": 2856,
      "ST": 2857,
      "èĩ³ä»Ĭ": 2858,
      "ä¸ĢæŃ¥": 2859,
      "æĪĺå½¹": 2860,
      "2005å¹´": 2861,
      "æĭĴç»Ŀ": 2862,
      "èĶ¡": 2863,
      "æĸ¯ç§ĳ": 2864,
      "å¤ļä¸ª": 2865,
      "æ£Ĵ": 2866,
      "èĭ±æĸĩ": 2867,
      "è´¸æĺĵ": 2868,
      "åħģ": 2869,
      "è§Ī": 2870,
      "æłĸæģ¯": 2871,
      "çĵ¦å°Ķ": 2872,
      "å¥¥æŀĹåĮ¹åħĭ": 2873,
      "åŁİåĮº": 2874,
      "èĲĦ": 2875,
      "æ¯Ķäºļ": 2876,
      "èĳ¡èĲĦ": 2877,
      "å¹¸": 2878,
      "æĺİæľĿ": 2879,
      "ç³ĸ": 2880,
      "åĦ¿ç«¥": 2881,
      "ag": 2882,
      "æµģè¡Į": 2883,
      "æľĢæĹ©": 2884,
      "åĩ½": 2885,
      "å¡ŀå°Ķ": 2886,
      "ç§¦": 2887,
      "æ·¡": 2888,
      "åıĸä»£": 2889,
      "æľĪ21": 2890,
      "æĹģ": 2891,
      "é¢ĳéģĵ": 2892,
      "æ¼«çĶ»": 2893,
      "é¥°æ¼Ķ": 2894,
      "éĻ¶": 2895,
      "è¿Ŀ": 2896,
      "ç¾İæ´²": 2897,
      "æľªèĥ½": 2898,
      "æ³¢åħ°": 2899,
      "ç»ıåİĨ": 2900,
      "è¡Ĺéģĵ": 2901,
      "æ±¤": 2902,
      "ç¢ĳ": 2903,
      "çļĦä¸»è¦ģ": 2904,
      "æľĪ22": 2905,
      "åĩłä¹İ": 2906,
      "æĮĳ": 2907,
      "å·´é»İ": 2908,
      "æ¦Ĥå¿µ": 2909,
      "èĻļ": 2910,
      "éŀ": 2911,
      "å®ŀçİ°": 2912,
      "æĮ¯": 2913,
      "âĢĿ(": 2914,
      "ç½ĳç«Ļ": 2915,
      "å¤Ħäºİ": 2916,
      "æľĢå¤§çļĦ": 2917,
      "å·¦åı³": 2918,
      "é¾Ħ": 2919,
      "çĦ¶åĲİ": 2920,
      "è®°èĢħ": 2921,
      "å®ŀæĸ½": 2922,
      "åįıåĬ©": 2923,
      "å®¿": 2924,
      "åĩıå°ĳ": 2925,
      "æĶ¹åıĺ": 2926,
      "èİ·å¾ĹäºĨ": 2927,
      "è§Ĩä¸º": 2928,
      "è·ĳ": 2929,
      "ä¾į": 2930,
      "è¿Ī": 2931,
      "æ®Ĭ": 2932,
      "è½¦è¾Ĩ": 2933,
      "èĳ¬": 2934,
      "åľ°éĵģ": 2935,
      "ä¼¸": 2936,
      "éķ¿æľŁ": 2937,
      "å±ķå¼Ģ": 2938,
      "çĨĻ": 2939,
      "åĪĨç±»": 2940,
      "çļĩå¸Ŀ": 2941,
      "è¿Ĳè¾ĵ": 2942,
      "æĺĨ": 2943,
      "ç§ĳæĬĢ": 2944,
      "å¤§éĥ¨åĪĨ": 2945,
      "èĭ±æł¼åħ°": 2946,
      "åĩºçĶŁäºİ": 2947,
      "éķ¿çļĦ": 2948,
      "å½±çīĩ": 2949,
      "ç±»åŀĭ": 2950,
      "op": 2951,
      "ä¼ļåľ¨": 2952,
      "ä¹ĥ": 2953,
      "èĮ¶": 2954,
      "çĬ¶æĢģ": 2955,
      "çļĦæĹ¶åĮºä¸º": 2956,
      "æ¯Ķè¾ĥ": 2957,
      "éģį": 2958,
      "ç¬¬ä¸Ģä¸ª": 2959,
      "ç»ıèĲ¥": 2960,
      "åįłé¢Ĩ": 2961,
      "åİ¿çļĦ": 2962,
      "åī§æĥħ": 2963,
      "æ¾³éĹ¨": 2964,
      "çº¿çļĦ": 2965,
      "æĬķç¥¨": 2966,
      "ç»§æī¿": 2967,
      "å®ħ": 2968,
      "ä½ľæĪĺ": 2969,
      "çĥ§": 2970,
      "åĽ½çļĦ": 2971,
      "æ²»çĸĹ": 2972,
      "æŃ¦åĻ¨": 2973,
      "éĻĲåĪ¶": 2974,
      "34": 2975,
      "åįģä¸Ģ": 2976,
      "br": 2977,
      "ä¸ļåĬ¡": 2978,
      "åŁºäºİ": 2979,
      "èį·åħ°": 2980,
      "çŃ¹": 2981,
      "è§£åĨ³": 2982,
      "çº¯": 2983,
      "å¤©ä¸»æķĻ": 2984,
      "çĩĥ": 2985,
      "èĪ°éĺŁ": 2986,
      "å¨ģå»ī": 2987,
      "è½°": 2988,
      "åĴĮå¹³": 2989,
      "å¦®": 2990,
      "éĶ®": 2991,
      "å®£ä¼ł": 2992,
      "li": 2993,
      "çº¿è·¯": 2994,
      "åĭĭ": 2995,
      "çıį": 2996,
      "SE": 2997,
      "çģ¯": 2998,
      "åľŁåľ°": 2999,
      "åİ¦": 3000,
      "åĩĨå¤ĩ": 3001,
      "ub": 3002,
      "ç´¯": 3003,
      "éĽķ": 3004,
      "å²Ń": 3005,
      "åĿĽ": 3006,
      "èµĦæºĲ": 3007,
      "The": 3008,
      "è¾½": 3009,
      "éļĲ": 3010,
      "æĬĺ": 3011,
      "çļĦæķ°æį®": 3012,
      "åĭĩ": 3013,
      "39": 3014,
      "åĩºäºĨ": 3015,
      "è¡¡": 3016,
      "se": 3017,
      "ä½ĵçļĦ": 3018,
      "ay": 3019,
      "æĸ¹æ¡Ī": 3020,
      "èıľ": 3021,
      "æĿ¥æºĲ": 3022,
      "ç»Łä¸Ģ": 3023,
      "è¯Ħä»·": 3024,
      "çĤİ": 3025,
      "è¯ķåĽ¾": 3026,
      "é½¿": 3027,
      "æ¸ħæľĿ": 3028,
      "çĶµè§Ĩåī§": 3029,
      "å³¡": 3030,
      "æ±½è½¦": 3031,
      "åİŁæľ¬": 3032,
      "II": 3033,
      "æ¾³å¤§": 3034,
      "å¤§çº¦": 3035,
      "å®ĥä»¬": 3036,
      "æĸ¯çļĦ": 3037,
      "åħ´å»º": 3038,
      "åŃŁ": 3039,
      "åħĦå¼Ł": 3040,
      "çļĦæĥħåĨµ": 3041,
      "éĵģéģĵ": 3042,
      "éĢīæīĭ": 3043,
      "äººåľ¨": 3044,
      "çł´åĿı": 3045,
      "ãĢįãĢģãĢĮ": 3046,
      "éģ£": 3047,
      "é©¬æĿ¥è¥¿äºļ": 3048,
      "åįıè®®": 3049,
      "ç£ģ": 3050,
      "æīĢåľ¨": 3051,
      "èĲ§": 3052,
      "éĤ®æĶ¿": 3053,
      "75": 3054,
      "çĲ³": 3055,
      "åĽŀåĪ°": 3056,
      "Ch": 3057,
      "è½´": 3058,
      "æķ¬": 3059,
      "éļıèĳĹ": 3060,
      "åĶ±çīĩ": 3061,
      "ä¸ºæ¯ı": 3062,
      "è¿Ľä¸ĢæŃ¥": 3063,
      "å£ģ": 3064,
      "åĪĿæľŁ": 3065,
      "çļĦå½±åĵį": 3066,
      "è¿Ĳè¡Į": 3067,
      "..": 3068,
      "46": 3069,
      "é¥®": 3070,
      "ä¸»è§Ĵ": 3071,
      "æĽ¹": 3072,
      "è¦": 3073,
      "æĶ¹ç¼ĸ": 3074,
      "çĬ¹å¤ª": 3075,
      "æħĪ": 3076,
      "ç®Ń": 3077,
      "è¿ĽæĶ»": 3078,
      "èĩªåĬ¨": 3079,
      "å¹»": 3080,
      "è¡Ķ": 3081,
      "å¨±ä¹Ĳ": 3082,
      "è¿ĺæĺ¯": 3083,
      "ç²¾ç¥ŀ": 3084,
      "æķı": 3085,
      "å°ıåŃ¦": 3086,
      "èµł": 3087,
      "ç»´æĮģ": 3088,
      "éĴĪå¯¹": 3089,
      "ä¸Ńæĸĩ": 3090,
      "è§Ĥä¼Ĺ": 3091,
      "æ¢°": 3092,
      "åŁºéĩĳ": 3093,
      "em": 3094,
      "è´¤": 3095,
      "æ²Ī": 3096,
      "åıĽ": 3097,
      "è¿Ľè¡ĮäºĨ": 3098,
      "åŁİéķĩ": 3099,
      "æľºè½¦": 3100,
      "188": 3101,
      "å¤§æ¥¼": 3102,
      "çĶŁäºİ": 3103,
      "ç»ĦåĲĪ": 3104,
      "ä»Ķ": 3105,
      "æĢ»éĿ¢ç§¯": 3106,
      "è¿ĲèĲ¥": 3107,
      "è´¾": 3108,
      "ä¸»é¢ĺ": 3109,
      "äººåı£æķ°éĩı": 3110,
      "åľ¨æŃ¤": 3111,
      "è¾Ĳ": 3112,
      "ä¸įä¹ħ": 3113,
      "éĶĭ": 3114,
      "ç¯®": 3115,
      "çī¹å¾ģ": 3116,
      "çľģçº§": 3117,
      "å§Ĳ": 3118,
      "æŃ£åľ¨": 3119,
      "çº¹": 3120,
      "å¤ªå¹³æ´ĭ": 3121,
      ".ãĢĬ": 3122,
      "éĥ¨ä»½": 3123,
      "åĬłä¸Ĭ": 3124,
      "å·ŀçļĦ": 3125,
      "èĹ¤": 3126,
      "è¢«è®¤ä¸º": 3127,
      "çģ°": 3128,
      "äº¤æĺĵ": 3129,
      "oc": 3130,
      "ver": 3131,
      "éĿ¢çļĦ": 3132,
      "ç©ºåĨĽ": 3133,
      "ç»¼åĲĪ": 3134,
      "åĨ¯": 3135,
      "å¤§åŀĭ": 3136,
      "è´Łè´£ç®¡è¾ĸ": 3137,
      "åıĮæĸ¹": 3138,
      "éĤĵ": 3139,
      "ç¡®å®ļ": 3140,
      "éĻķ": 3141,
      "æ¾³å¤§åĪ©äºļ": 3142,
      "èµ´": 3143,
      "æķĻä¼ļ": 3144,
      "%.": 3145,
      "çŃĶ": 3146,
      "æľīçļĦ": 3147,
      "è§£éĩĬ": 3148,
      "ç¾İåĽ½äººåı£æĻ®æŁ¥": 3149,
      "è¯ģæĺİ": 3150,
      "åĽ¾ä¹¦": 3151,
      "ä»·åĢ¼": 3152,
      "è¿ĶåĽŀ": 3153,
      "èĳ£äºĭ": 3154,
      "è¦Ĩ": 3155,
      "åĲįåįķ": 3156,
      "åİļ": 3157,
      "æīĢå±ŀçļĦ": 3158,
      "å¾·éĩĮ": 3159,
      "æĦŁæŁĵ": 3160,
      "åĪĢ": 3161,
      "ç¨ĭåº¦": 3162,
      "Ġåľ¨": 3163,
      "eĠ": 3164,
      "ĠS": 3165,
      "ĠM": 3166,
      "ĠC": 3167,
      "ĠA": 3168,
      "ĠçĶŁ": 3169,
      "ĠåİĨåı²": 3170,
      "ĠçĶŁå¹³": 3171,
      "ĠP": 3172,
      "å¹¶ä¸Ķ": 3173,
      "ĠB": 3174,
      "æŃ¤å¤ĸ": 3175,
      "lt": 3176,
      "ä½Ĩæĺ¯": 3177,
      "å¹¶åľ¨": 3178,
      "zh": 3179,
      "åľ°çĲĨ": 3180,
      "sĠ": 3181,
      "gt": 3182,
      "æĺ¯ä½įäºİ": 3183,
      "yĠ": 3184,
      "aĠ": 3185,
      "ĠT": 3186,
      "ĠL": 3187,
      "è¿Ļæĺ¯": 3188,
      "Ġ199": 3189,
      "ĠR": 3190,
      "Ġåľ°çĲĨ": 3191,
      "ä¸īå¹´": 3192,
      "ĠD": 3193,
      "Ġæľ¬": 3194,
      "ĠG": 3195,
      "ĠH": 3196,
      "åŃ¦åĲį": 3197,
      ",ãĢĬ": 3198,
      "Ġäººåı£": 3199,
      "åħ¶åĲİ": 3200,
      "äºİæĺ¯": 3201,
      "ĠF": 3202,
      "ç¼ĸçłģä¸º": 3203,
      "Ġæł¹æį®": 3204,
      "æĺ¯ä¸Ģç§į": 3205,
      "Ġ200": 3206,
      "Ġè¯¥": 3207,
      "èĢĮä¸Ķ": 3208,
      "191": 3209,
      "åĽĽå¹´": 3210,
      "ĠW": 3211,
      "Ġä¸İ": 3212,
      "æľĪ28æĹ¥": 3213,
      "(,)": 3214,
      "ä½¿å¾Ĺ": 3215,
      "æľĪ15æĹ¥": 3216,
      "Ġformula": 3217,
      "20æĹ¥": 3218,
      "10æĹ¥": 3219,
      "ĠE": 3220,
      "30æĹ¥": 3221,
      "Ġ198": 3222,
      "ä¸ºäºº": 3223,
      "ĠçļĦ": 3224,
      "%,": 3225,
      "æľĪ25æĹ¥": 3226,
      "åĳ½åĲį": 3227,
      "oĠ": 3228,
      "è¿Ļæł·": 3229,
      "ä½Ĩåľ¨": 3230,
      "18æĹ¥": 3231,
      "äºĶå¹´": 3232,
      "æ¯«ç±³": 3233,
      "ä¸Ģå¹´": 3234,
      "èĭ±è¯Ń": 3235,
      "12æĹ¥": 3236,
      ",âĢľ": 3237,
      "Ġ194": 3238,
      "æŃ¤åĲİ": 3239,
      "åħĥå¹´": 3240,
      "11æĹ¥": 3241,
      "19æĹ¥": 3242,
      "æľĪ24æĹ¥": 3243,
      "æľĪ26æĹ¥": 3244,
      "ĠN": 3245,
      "ç¤¾åĮº": 3246,
      "ä¸¤äºº": 3247,
      "æľĪ16æĹ¥": 3248,
      "Ġthe": 3249,
      "Ġå¹´": 3250,
      "æľĪ17æĹ¥": 3251,
      "æĺ¯ä½įäºİç¾İåĽ½": 3252,
      "çŃīåľ°": 3253,
      "æ¯ıå¹´": 3254,
      "æĺ¯æ³ķåĽ½": 3255,
      "åŃ¦ä½į": 3256,
      "han": 3257,
      "æľĪ27æĹ¥": 3258,
      "æľĪ21æĹ¥": 3259,
      "31æĹ¥": 3260,
      "ä»¥ä¸Ĭ": 3261,
      "äºĮå¹´": 3262,
      "æľĪ2æĹ¥": 3263,
      "æĪĸèĢħ": 3264,
      "æľĪ22æĹ¥": 3265,
      "\")": 3266,
      "æľĪ23æĹ¥": 3267,
      "32": 3268,
      "æĽ¾ä»»": 3269,
      "æľĪ14æĹ¥": 3270,
      "å¹¶äºİ": 3271,
      "æľĪ29æĹ¥": 3272,
      "æĽ¾åľ¨": 3273,
      "æľĪ13æĹ¥": 3274,
      "Ġc": 3275,
      "ä¸ªæľĪ": 3276,
      "ä½įäºİè¯¥åĽ½": 3277,
      "èĢĮåľ¨": 3278,
      "åįģå¹´": 3279,
      ":)": 3280,
      "ä¹ĭå¤ĸ": 3281,
      "33": 3282,
      "åıĪç§°": 3283,
      "55": 3284,
      "å°Ķå¾·": 3285,
      "å¤§å¤ļæķ°": 3286,
      "2004å¹´": 3287,
      "åħŃå¹´": 3288,
      "2000å¹´": 3289,
      "çļĦåīį": 3290,
      "æĬ¥éģĵ": 3291,
      "éĽĨä¸Ń": 3292,
      "ä¸įå°ĳ": 3293,
      "tĠ": 3294,
      "æ¯ıä¸ª": 3295,
      "ĠæĶ¿æ²»": 3296,
      "ä¸ĩäºº": 3297,
      "æĺ¯åĲ¦": 3298,
      "ĠçĶ±äºİ": 3299,
      "æĺ¯ä¸ŃåĽ½": 3300,
      "åľ¨ç¾İåĽ½": 3301,
      "47": 3302,
      "éĻĨåľ°": 3303,
      "éĩįè¦ģçļĦ": 3304,
      "äºĳåįĹ": 3305,
      "ä»°": 3306,
      "ä»İäºĭ": 3307,
      ",ãĢĮ": 3308,
      "æ³³": 3309,
      "è°±": 3310,
      "æ¹ĸåįĹ": 3311,
      "åĽ½ä¼ļ": 3312,
      "æ³ķåħ°": 3313,
      "æľīæĹ¶": 3314,
      "çļĩå®¶": 3315,
      "æ²³æµģ": 3316,
      "å®ĥçļĦ": 3317,
      "çĥŁ": 3318,
      "åĢį": 3319,
      "å°ıç»Ħ": 3320,
      "çİĭæľĿ": 3321,
      "ä¸»æ¼Ķ": 3322,
      "åħĥç´ł": 3323,
      "é©¬åħĭ": 3324,
      "å¼ķåıĳ": 3325,
      "å¥³åĦ¿": 3326,
      "åĩŃ": 3327,
      "ä¿ĿçķĻ": 3328,
      "çºµ": 3329,
      "ä¸´æĹ¶": 3330,
      "ap": 3331,
      "æĢ»çĲĨ": 3332,
      "æľºä¼ļ": 3333,
      "æĹħæ¸¸": 3334,
      "éķĩåĮº": 3335,
      "æľĭ": 3336,
      "æ¨¡åŀĭ": 3337,
      "é¦ĸéĥ½": 3338,
      "å¸¸è§ģ": 3339,
      "è¶ħçº§": 3340,
      "é¬": 3341,
      "äºİ198": 3342,
      "è´¢æĶ¿": 3343,
      "èĴĭ": 3344,
      "æ²Ł": 3345,
      "åħ¬åħĥ": 3346,
      "åĩºèº«": 3347,
      "çķª": 3348,
      "å¤§èĩ£": 3349,
      "åĬłåĿ¡": 3350,
      "å¤©æĸĩ": 3351,
      "åŁºåľ°": 3352,
      "æī¹åĩĨ": 3353,
      "é«ĺçº§": 3354,
      "ç±³å°Ķ": 3355,
      "åĨ²çªģ": 3356,
      "åĽ½éĺ²": 3357,
      "Ġ197": 3358,
      "ç½ķ": 3359,
      "ĠK": 3360,
      "è®¨è®º": 3361,
      "å°ĸ": 3362,
      "åĬĽéĩı": 3363,
      "20ä¸ĸçºª": 3364,
      "ä¸įåĨį": 3365,
      "å¦»åŃĲ": 3366,
      "åĲĮæĦı": 3367,
      "ä½ĽæķĻ": 3368,
      "çĳŀå£«": 3369,
      "ç¬¬åħŃ": 3370,
      "ãĢĬãĢĭ": 3371,
      "åĽ½æ°ĳåħļ": 3372,
      "åĽ½åĨħ": 3373,
      "åı¥": 3374,
      "äºĨä¸Ģä¸ª": 3375,
      "éĿĸ": 3376,
      "çłĶç©¶æīĢ": 3377,
      "æľºåħ³": 3378,
      "è¶£": 3379,
      "åį¡å°Ķ": 3380,
      "é©¾": 3381,
      "æľīæķĪ": 3382,
      "ä¸įæĸŃ": 3383,
      "åĬĽçļĦ": 3384,
      "æ¡ĥ": 3385,
      "è®®éĻ¢": 3386,
      "ç»ĵåĲĪ": 3387,
      "çļĦä¸Ģç§į": 3388,
      "å¥½çļĦ": 3389,
      "åĩ¡": 3390,
      "äº§ä¸ļ": 3391,
      "å·ŀå¸Ĥ": 3392,
      "æľīäºĽ": 3393,
      "è¾ī": 3394,
      "äºĮä¸ĸ": 3395,
      "è·³": 3396,
      "æĸĩçī©ä¿ĿæĬ¤": 3397,
      "65": 3398,
      "æŁ´": 3399,
      "è¿ħ": 3400,
      "æĸ°åĬłåĿ¡": 3401,
      "Ġ195": 3402,
      "åİ¿çļĦä¸Ģä¸ª": 3403,
      "æŃ¦è£ħ": 3404,
      "æĹº": 3405,
      "åĽ½ç«ĭ": 3406,
      "å¹´è½»": 3407,
      "æĻ®éĢļ": 3408,
      "ä¸Ĭæĺł": 3409,
      "ç¼ĵ": 3410,
      "çĨŁ": 3411,
      "å¤§ä½¿": 3412,
      "æĺ¯æĮĩ": 3413,
      "ç§ĺä¹¦": 3414,
      "å»ºæĪĲ": 3415,
      "åŁĶ": 3416,
      "æ°ĶåĢĻ": 3417,
      "ãĢģãĢģ": 3418,
      "æİª": 3419,
      "æĸ¯åŁº": 3420,
      "è§£æĶ¾åĨĽ": 3421,
      "ç¥¥": 3422,
      "ä¸įåı¯": 3423,
      "éģĤ": 3424,
      "æĺŁæľŁ": 3425,
      "300": 3426,
      "æ§": 3427,
      "æĶ¶åħ¥": 3428,
      "åıĸæ¶Ī": 3429,
      "ç¼ĸåı·": 3430,
      "Ġ1": 3431,
      "äººæķ°": 3432,
      "æ½ĺ": 3433,
      "64": 3434,
      "ä¸ĸçķĮå¤§æĪĺ": 3435,
      "æĸĩä»¶": 3436,
      "åı¯è¾¾": 3437,
      "å¨ģå°Ķ": 3438,
      "æĬķåħ¥": 3439,
      "å¿«éĢŁ": 3440,
      "æī¿è®¤": 3441,
      "è¥¿æ´ĭ": 3442,
      "ä¸ŃåĽ½äººæ°ĳ": 3443,
      "è¥¿çľģ": 3444,
      "èĳĹåĲį": 3445,
      "ä¸ŃåĽ½åħ±äº§åħļ": 3446,
      "èŃ¦æĸ¹": 3447,
      "ĠO": 3448,
      "éĿŀæ´²": 3449,
      "æĢ»éĥ¨": 3450,
      "å·´è¥¿": 3451,
      "ç»´äºļ": 3452,
      "å°ĳå¹´": 3453,
      "æł¸å¿ĥ": 3454,
      "(\"": 3455,
      "èĩ³å°ĳ": 3456,
      "é¹¿": 3457,
      "Ġb": 3458,
      "å¿Ĩ": 3459,
      "éļıçĿĢ": 3460,
      "æĸĩçī©ä¿ĿæĬ¤åįķä½į": 3461,
      "è©": 3462,
      "ä»ĵ": 3463,
      "ä½¿çĶ¨çļĦ": 3464,
      "æĿ¡çº¦": 3465,
      "ä»¥èī²": 3466,
      "åĭ¤": 3467,
      "é£İæļ´": 3468,
      "åĽ½åĬ¡": 3469,
      "ä¹ı": 3470,
      "èĭĹ": 3471,
      "èĥľåĪ©": 3472,
      "æĸ¯åħĭ": 3473,
      "å¥¥æĸ¯": 3474,
      "å¦Ĥä¸ĭ": 3475,
      "èĳĹä½ľ": 3476,
      "åŃĿ": 3477,
      "åİĦ": 3478,
      "ç¼ħ": 3479,
      "ä¸ĥå¹´": 3480,
      "åĮĸçļĦ": 3481,
      "åĪĽç«ĭ": 3482,
      "ä»¥èī²åĪĹ": 3483,
      "Ġ196": 3484,
      "æ³Ĭ": 3485,
      "ut": 3486,
      "éĩįå»º": 3487,
      "ä»¥åĲİ": 3488,
      "è©¹": 3489,
      "49": 3490,
      "ç§Ĵ": 3491,
      "å¥¥æŀĹåĮ¹åħĭè¿ĲåĬ¨ä¼ļ": 3492,
      "Ġ2": 3493,
      "è®¿éĹ®": 3494,
      "åĵĪå°Ķ": 3495,
      "æĹ¶ä»»": 3496,
      "åĽ¢éĺŁ": 3497,
      "æľªæĿ¥": 3498,
      "è´¯": 3499,
      "çĮİ": 3500,
      "çĹħæ¯Ĵ": 3501,
      "åħ¬æ°ĳ": 3502,
      "æ°ĳä¼Ĺ": 3503,
      "çļĦå¸Ĥéķĩ": 3504,
      "åįĬå²Ľ": 3505,
      "Ġ18": 3506,
      "çļĦçłĶç©¶": 3507,
      "éĥ½ä¼ļ": 3508,
      "æ±Łèĭı": 3509,
      "og": 3510,
      "èİ²": 3511,
      "æĶ¶å½ķ": 3512,
      "æħķ": 3513,
      "åħģè®¸": 3514,
      "æĴĴ": 3515,
      "Ġs": 3516,
      "å®ªæ³ķ": 3517,
      "è¯´æ³ķ": 3518,
      "çŀ": 3519,
      "æµĭè¯ķ": 3520,
      "èĳĽ": 3521,
      "è°ĥæķ´": 3522,
      "æĻ¨": 3523,
      "å§Ķä¼ļ": 3524,
      "ä¼ı": 3525,
      "ç¨ĭåºı": 3526,
      "çĵľ": 3527,
      "æĭīåħĭ": 3528,
      "ä¹ĲåĽ¢": 3529,
      "åĢ¾": 3530,
      "2003å¹´": 3531,
      "ä¸Ģä¸ĸ": 3532,
      "æµ·å²¸": 3533,
      "èĽĭçĻ½": 3534,
      "çİĭåĽ½": 3535,
      "ç»ĵå©ļ": 3536,
      "éļ¶å±ŀäºİ": 3537,
      "æĻ¶": 3538,
      "çĶµèĦĳ": 3539,
      "åģľæŃ¢": 3540,
      "éĥ½æľī": 3541,
      "åħ¬åĪĨ": 3542,
      "ç¬¬ä¸ĥ": 3543,
      "ä½įäºİæ³ķåĽ½": 3544,
      "é«ĺçŃī": 3545,
      "æ¢¯": 3546,
      "çĶ¨æĿ¥": 3547,
      "ĠJ": 3548,
      "å°ĶçļĦ": 3549,
      "æħ¢": 3550,
      "amp": 3551,
      "éĺ¿æĭīä¼¯": 3552,
      "èĥģ": 3553,
      "çĶ¨çļĦ": 3554,
      "èī²çļĦ": 3555,
      "æİ¥è¿ĳ": 3556,
      "èĢĥèĻĳ": 3557,
      "è¡ĮæĶ¿åĮºåĪĴ": 3558,
      "ä¸ĭåįĪ": 3559,
      "å±±èĦī": 3560,
      "çĲĥåľº": 3561,
      "è´º": 3562,
      "æ®ĸæ°ĳ": 3563,
      "åĩĮ": 3564,
      "å°±è¯»": 3565,
      "æĢĿæĥ³": 3566,
      "è¿ĩç¨ĭä¸Ń": 3567,
      "çĶµåı°": 3568,
      "å°¤åħ¶": 3569,
      "èĹ©": 3570,
      "æĪĺåĲİ": 3571,
      "åĳ¨è¾¹": 3572,
      "åľ¨è¿Ļ": 3573,
      "æĸ°å¢ŀ": 3574,
      "åľ°ä½į": 3575,
      "éĤĢè¯·": 3576,
      "æµ®": 3577,
      "åĮ»çĸĹ": 3578,
      "çĽ´èĩ³": 3579,
      "å¹´åº¦": 3580,
      "åħ³æ³¨": 3581,
      "Ġ3": 3582,
      "ç´«": 3583,
      "çİ°æĹ¶": 3584,
      "2002å¹´": 3585,
      "ç¡ķ": 3586,
      "é¬¼": 3587,
      "çĶ³è¯·": 3588,
      "ä¸Ģå¸¦": 3589,
      "æĥĬ": 3590,
      "èħ¹": 3591,
      "ind": 3592,
      "ä¸įæĺİ": 3593,
      "ä¼¯çī¹": 3594,
      "è§Ĥå¯Ł": 3595,
      "åĿİ": 3596,
      "éĩįçĤ¹": 3597,
      "èµ·æĿ¥": 3598,
      "ç¥ĸçĪ¶": 3599,
      "æĶ¿åħļ": 3600,
      "åĨįåº¦": 3601,
      "Ġ2021å¹´": 3602,
      "åįģåĪĨ": 3603,
      "çĽ¸ä¼¼": 3604,
      "è¯¾ç¨ĭ": 3605,
      "å¡ĳ": 3606,
      "åŃ©åŃĲ": 3607,
      "èĬĿ": 3608,
      "åĲĦåľ°": 3609,
      "ä¹Ķæ²»": 3610,
      "åĮĪ": 3611,
      "Ġ2019å¹´": 3612,
      "æĢª": 3613,
      "ä¿Ĭ": 3614,
      "åĲĪçī©": 3615,
      "è¡¨è¾¾": 3616,
      "é«ĺä¸Ń": 3617,
      "åħ±æľīäººåı£": 3618,
      "44": 3619,
      "Ġè½¦ç«Ļ": 3620,
      "åħ¥ä¾µ": 3621,
      "çĽ®çļĦ": 3622,
      "å£«åħµ": 3623,
      "ä»²": 3624,
      "å®īæİĴ": 3625,
      "æĴ°": 3626,
      "åĲ¨": 3627,
      "æĿ¥è¯´": 3628,
      "èĭ¦": 3629,
      "æ¯ķä¸ļäºİ": 3630,
      "ak": 3631,
      "åĬ±": 3632,
      "ç½ļ": 3633,
      "åĪ°è¾¾": 3634,
      "åŃ¦æľ¯": 3635,
      "äººæ°ĳæĶ¿åºľ": 3636,
      "å¹¶æ²¡æľī": 3637,
      "å¥´": 3638,
      "åĽłèĢĮ": 3639,
      "æĶ¯æı´": 3640,
      "ç§»åĬ¨": 3641,
      "çļĦæĹ¶åĢĻ": 3642,
      "æĺ¯ç¾İåĽ½": 3643,
      "æ³¥": 3644,
      "æĴŀ": 3645,
      "çļĦå°ı": 3646,
      "AT": 3647,
      "Ġ193": 3648,
      "éĶĢåĶ®": 3649,
      "å±¿": 3650,
      "åĢĻéĢī": 3651,
      "å¤ĸçļĦ": 3652,
      "Ġt": 3653,
      "æĿī": 3654,
      "è·¯æĺĵ": 3655,
      "çĽĹ": 3656,
      "Ġè¿Ļ": 3657,
      "Ġof": 3658,
      "ç¦Ħ": 3659,
      "æĹłçº¿": 3660,
      "ä¸ºæ³ķåĽ½": 3661,
      "è¯¦": 3662,
      "ä¸§": 3663,
      "ä¼Ĭæĸ¯åħ°": 3664,
      "åĹ": 3665,
      "è¥¿åĵ¥": 3666,
      "åºĶè¯¥": 3667,
      "âĢĿãĢģ": 3668,
      "çĨĬ": 3669,
      "æĹ©å¹´": 3670,
      "Ġè¡ĮæĶ¿": 3671,
      "åīįçļĦ": 3672,
      "æĹ¨": 3673,
      "çī¹çļĦ": 3674,
      "å¸Ĥéķ¿": 3675,
      "çİ°è±¡": 3676,
      "ç¢į": 3677,
      "æŃ¤æĹ¶": 3678,
      "åıªæĺ¯": 3679,
      "å¦ĤæŃ¤": 3680,
      "Ġ2020å¹´": 3681,
      "èĲ¨åħĭ": 3682,
      "éģĹåĿĢ": 3683,
      "çĹĽ": 3684,
      "ä»ĸæĽ¾": 3685,
      "å¹¶æľª": 3686,
      "58": 3687,
      "çĶ¨æĪ·": 3688,
      "åıĺæĪĲ": 3689,
      "ç²Ĵ": 3690,
      "å¹´éĹ´": 3691,
      "åľ°åĪ©": 3692,
      "çĮª": 3693,
      "éĩĳå±ŀ": 3694,
      "æĹ§å¸Ĥéķĩ": 3695,
      "æĬµè¾¾": 3696,
      "å¸ĤåĮº": 3697,
      "ä»İèĢĮ": 3698,
      "æĿĲæĸĻ": 3699,
      "éī": 3700,
      "æĪĸæĺ¯": 3701,
      "æĺİæĺ¾": 3702,
      "ä¹³": 3703,
      "æĢ»çĿ£": 3704,
      "èĩªæ²»åĮº": 3705,
      "Ġ2018å¹´": 3706,
      "çļĦé¦ĸ": 3707,
      "è´¨éĩı": 3708,
      "éĺħ": 3709,
      "æıĲåįĩ": 3710,
      "é«ĺçļĦ": 3711,
      "å°¼æĸ¯": 3712,
      "çĦ¦": 3713,
      "æŀĦæĪĲ": 3714,
      "å°ĳæķ°": 3715,
      "åįģåħ«": 3716,
      "èģĮåĬ¡": 3717,
      "ab": 3718,
      "åºĬ": 3719,
      "ĠV": 3720,
      "è·ĥ": 3721,
      "çĩķ": 3722,
      "å®īè£ħ": 3723,
      "äºİ197": 3724,
      "æŁ³": 3725,
      "åį«æĺŁ": 3726,
      "å½Ń": 3727,
      "æĸ¹çļĦ": 3728,
      "ä¿¡åı·": 3729,
      "68": 3730,
      "åı¯èĥ½æĺ¯": 3731,
      "æ±¡": 3732,
      "äººåı£å¯Ĩåº¦ä¸ºæ¯ı": 3733,
      "éĢĿä¸ĸ": 3734,
      "å·¥åİĤ": 3735,
      "ard": 3736,
      "æŁĲäºĽ": 3737,
      "åĪĹä¸º": 3738,
      "æ¯ĶåĪ©": 3739,
      "å±ı": 3740,
      "æ¡Ĥ": 3741,
      "éĦ": 3742,
      "ãĢģ(": 3743,
      "èĪĴ": 3744,
      "ä½ĵç³»": 3745,
      "æģĴæĺŁ": 3746,
      "ç¨³å®ļ": 3747,
      "æĬļ": 3748,
      "çī©è´¨": 3749,
      "åĴ¸": 3750,
      "å¯¹æīĭ": 3751,
      "èĢĮæĺ¯": 3752,
      "é¡µ": 3753,
      "å¡ĺ": 3754,
      "å¤±åİ»": 3755,
      "å»ºäºİ": 3756,
      ":.": 3757,
      "SEE": 3758,
      "ä»ªå¼ı": 3759,
      "åĿĬ": 3760,
      "å¥¥åľ°åĪ©": 3761,
      "éī´": 3762,
      "ç§ĳçļĦ": 3763,
      "åĩ½æķ°": 3764,
      "åĩºåı£": 3765,
      "çĶ¸": 3766,
      "åĪĽåĬŀ": 3767,
      "æİī": 3768,
      "éĶģ": 3769,
      "å¢¨è¥¿åĵ¥": 3770,
      "äººåı£æķ°éĩıä¸ºäºº": 3771,
      "ä¸ľè¥¿": 3772,
      "å»ºåĪ¶": 3773,
      "åĲĥ": 3774,
      "åĲĮä¸Ģ": 3775,
      "çĶŁéķ¿": 3776,
      "æľĭåıĭ": 3777,
      "è°ĵ": 3778,
      "æĲľ": 3779,
      "ä¸įè¶³": 3780,
      "æĵįä½ľ": 3781,
      "æİ¥å£¤çļĦå¸Ĥéķĩ": 3782,
      "è¯ļ": 3783,
      "æĸĩç«ł": 3784,
      "æĸĳ": 3785,
      "ç¬¬1": 3786,
      "INSEE": 3787,
      "äºĭä¸ļ": 3788,
      "ä¸įå¾Ĺ": 3789,
      "æĦıè¯Ĩ": 3790,
      "æĻ®éģį": 3791,
      "æ¯ıå¹³æĸ¹åħ¬éĩĮ": 3792,
      "æ°§åĮĸ": 3793,
      "çº¬": 3794,
      "çĺ": 3795,
      "ç§»æ°ĳ": 3796,
      "åľ¨199": 3797,
      "ç¿»è¯ĳ": 3798,
      "æĹłäºº": 3799,
      "ä¸Ģåº¦": 3800,
      "å¨ģèĥģ": 3801,
      "åĬ¨åĬĽ": 3802,
      "åıªèĥ½": 3803,
      "éĺŁçļĦ": 3804,
      "èĤĥ": 3805,
      "å°ļæľª": 3806,
      "éĤ®æĶ¿ç¼ĸçłģä¸º": 3807,
      "åĬŀåħ¬å®¤": 3808,
      "æł¡éķ¿": 3809,
      "Ġp": 3810,
      "ä¸ĢåĲĮ": 3811,
      "çİ°åľº": 3812,
      "å¹¿åĳĬ": 3813,
      "èº«ä½ĵ": 3814,
      "åħ¥åı£": 3815,
      "(;": 3816,
      "æ¡Īä»¶": 3817,
      "è¯ŀ": 3818,
      "åŀĴ": 3819,
      "æĹ¢": 3820,
      "æĮĤ": 3821,
      "æľºæ¢°": 3822,
      "Ġ2017å¹´": 3823,
      "èĥ¶": 3824,
      "åĮĹç¾İ": 3825,
      "éļ§": 3826,
      "å¹³éĿ¢": 3827,
      "ä¸¤ç§į": 3828,
      "çĬ¶åĨµ": 3829,
      "æ¶Īæģ¯": 3830,
      "ä¹Łåľ¨": 3831,
      "éģĹäº§": 3832,
      "åı¬å¼Ģ": 3833,
      "è§ĤçĤ¹": 3834,
      "å¾Ĺä»¥": 3835,
      "å¤ĦçļĦ": 3836,
      "äº¤æµģ": 3837,
      "å¾ª": 3838,
      "è¡¨æĺİ": 3839,
      "æĦıä¹ī": 3840,
      "æĿĥåĬĽ": 3841,
      "æ°ĳä¸»åħļ": 3842,
      "èĩªè¡Į": 3843,
      "ä¸ºä¸Ģ": 3844,
      "æĽ´åĲįä¸º": 3845,
      "åįĹåĮĹ": 3846,
      "å¼ĺ": 3847,
      "çľĭåĪ°": 3848,
      "åİ¿äºº": 3849,
      "åĭĥ": 3850,
      "çŁ¥éģĵ": 3851,
      "æĮĳæĪĺ": 3852,
      "æķ°åŃĹ": 3853,
      "èģĶç³»": 3854,
      "èģĶåĲĪåĽ½": 3855,
      "çķĶ": 3856,
      "åĽ¾ä¹¦é¦Ĩ": 3857,
      "ä¼ļçļĦ": 3858,
      "æħ§": 3859,
      "ç¦ģæŃ¢": 3860,
      "æıĲé«ĺ": 3861,
      "åħ¥éĢī": 3862,
      "ä»ĸæĺ¯": 3863,
      "å§Ĩæĸ¯": 3864,
      "åĵģçīĮ": 3865,
      "æłĩå¿Ĺ": 3866,
      "åģ¥åº·": 3867,
      "æĭĵ": 3868,
      "å²³": 3869,
      "åĪĽéĢł": 3870,
      "æ¬§åħĥ": 3871,
      "éĩĮçļĦ": 3872,
      "å±¯": 3873,
      "èĳ¡èĲĦçīĻ": 3874,
      "ç¥Ŀ": 3875,
      "42": 3876,
      "Ġ2016å¹´": 3877,
      "è¢ĸ": 3878,
      "å¸ĥæĭī": 3879,
      "åıĳçĶµ": 3880,
      "å¤ıä»¤æĹ¶": 3881,
      "åľŁèĢ³": 3882,
      "ä¹¾": 3883,
      "çº·": 3884,
      "å¤§éģĵ": 3885,
      "æ£®æŀĹ": 3886,
      "æľīäºº": 3887,
      "æķĪåĬĽ": 3888,
      "æĪĴ": 3889,
      "åŃĲçļĦ": 3890,
      "ä¹Ŀå¹´": 3891,
      "åıĳèµ·": 3892,
      "äººåı£å¯Ĩåº¦æ¯ıå¹³æĸ¹åħ¬éĩĮ": 3893,
      "åŃĹæ¯į": 3894,
      "æįĲ": 3895,
      "åľŁèĢ³åħ¶": 3896,
      "æ°¢": 3897,
      "ç®±": 3898,
      "æ°´å¹³": 3899,
      "å¤±è´¥": 3900,
      "å½ĵæĹ¶çļĦ": 3901,
      "å¸Ĥéķĩç¼ĸçłģä¸º": 3902,
      "INSEEå¸Ĥéķĩç¼ĸçłģä¸º": 3903,
      "ãĢİ": 3904,
      "å¹³æĸ¹ç±³": 3905,
      "åİĨåı²ä¸Ĭ": 3906,
      "ãĢı": 3907,
      "å¹¶éĿŀ": 3908,
      "åħ½": 3909,
      "çĳŀåħ¸": 3910,
      "åįĳ": 3911,
      "äºİæĹ¶çļĦ": 3912,
      "åĮ»åŃ¦": 3913,
      "äºİæĹ¶çļĦäººåı£æķ°éĩıä¸ºäºº": 3914,
      "æ£ĭ": 3915,
      "éĢīåĮºä¸º": 3916,
      "ç¾İåĽ½äººåı£æĻ®æŁ¥çļĦæķ°æį®": 3917,
      "äººåı£å¯Ĩåº¦ä¸ºæ¯ıå¹³æĸ¹åįĥç±³": 3918,
      "æĻĵ": 3919,
      "èĢĮäººåı£å¯Ĩåº¦ä¸ºæ¯ıå¹³æĸ¹åįĥç±³": 3920,
      "å½ĵåľ°åħ±æľīäººåı£": 3921,
      "æ²³åĮĹ": 3922,
      "åľ³": 3923,
      "åį¿": 3924,
      "æµħ": 3925,
      "è¯¥çľģä»½": 3926,
      "æĪĸæĹ§å¸Ĥéķĩ": 3927,
      "å»¶ä¼¸": 3928,
      "çī¹æ®Ĭ": 3929,
      "å¼ºè°ĥ": 3930,
      "éħĴåºĹ": 3931,
      "çļĦæĸ¹å¼ı": 3932,
      "çľģçº§éĢīåĮºä¸º": 3933,
      "æīĢå±ŀçļĦçľģçº§éĢīåĮºä¸º": 3934,
      "å¸ĥé²ģ": 3935,
      "åį«çĶŁ": 3936,
      "ãĢĭ()": 3937,
      "Ġ2022å¹´": 3938,
      "çľģåĴĮ": 3939,
      "çļĦåİŁ": 3940,
      "æľ¬åľŁ": 3941,
      "ç¼ĸè¾ĳ": 3942,
      "æĺ¯ä¸ĢåĲį": 3943,
      "è¯¥çľģä»½ä¸ºæ³ķåĽ½": 3944,
      "åĲİèĢħ": 3945,
      "ç¬¬2": 3946,
      "å¥ĸé¡¹": 3947,
      "ä¸Ńå±±": 3948,
      "187": 3949,
      "å°Ķçī¹": 3950,
      "æķĻåĮº": 3951,
      "åĳ½ä»¤": 3952,
      "éľĢæ±Ĥ": 3953,
      "äººå¤§": 3954,
      "éģ¿åħį": 3955,
      "æĬ¥å¯¼": 3956,
      "åıĹä¼¤": 3957,
      "èĲ¥è¿Ĳ": 3958,
      "ä¼°è®¡": 3959,
      "è½°çĤ¸": 3960,
      "ç¼ºä¹ı": 3961,
      "è¿ħéĢŁ": 3962,
      "æĹ¦": 3963,
      "æıĲåĲį": 3964,
      "Ġm": 3965,
      "åħ¶ä½Ļ": 3966,
      "æµ·åŁŁ": 3967,
      "äºİ194": 3968,
      "æī°": 3969,
      "å¸ĤçļĦ": 3970,
      "åĽĽä¸ª": 3971,
      "èĳĹåĲįçļĦ": 3972,
      "æĲ¬": 3973,
      "æ³¨æĦı": 3974,
      "æ¬¢è¿İ": 3975,
      "çĶŁåĳ½": 3976,
      "å¿ĥçĲĨ": 3977,
      "éļ§éģĵ": 3978,
      "æĶ¿æĿĥ": 3979,
      "éĥĬ": 3980,
      "åī©": 3981,
      "è¾¾æĪĲ": 3982,
      "åĲ¸å¼ķ": 3983,
      "çĹĩçĬ¶": 3984,
      "å®īå¾·": 3985,
      "æıĴ": 3986,
      "é²į": 3987,
      "åĸĢ": 3988,
      "éĩĳçīĮ": 3989,
      "Ġ4": 3990,
      "è§ĦåĪĻ": 3991,
      "ä»ĭç»į": 3992,
      "ä¹ĺå®¢": 3993,
      "å¤§è¥¿æ´ĭ": 3994,
      "æĸ¯å¡Ķ": 3995,
      "å¤ĸåĽ½": 3996,
      "éĩĳèŀį": 3997,
      "æķĻç»ĥ": 3998,
      "æĿĨ": 3999,
      "æĴ¤éĶĢ": 4000,
      "çİ»": 4001,
      "ä¾¦": 4002,
      "æĪĲä¸ºäºĨ": 4003,
      "çļĦç¬¬ä¸Ģ": 4004,
      "éľ¸": 4005,
      "ä¸²": 4006,
      "äººåĴĮ": 4007,
      "ä¸»å¼ł": 4008,
      "è´ŀ": 4009,
      "åı¯èĥ½ä¼ļ": 4010,
      "Ġ2014å¹´": 4011,
      "éĥ¨èĲ½": 4012,
      "å´İ": 4013,
      "æķ°åŃ¦": 4014,
      "SA": 4015,
      "å¹¶å°Ĩ": 4016,
      "èĢĮè¢«": 4017,
      "éĵ¾": 4018,
      "æĦŁåĪ°": 4019,
      "67": 4020,
      "åħ¬ä¼Ĺ": 4021,
      "æ¬²": 4022,
      "å½¼å¾Ĺ": 4023,
      "èĥİ": 4024,
      "ä¹Łè¢«": 4025,
      "äºĭå®ŀ": 4026,
      "å°Ķåħ°": 4027,
      "æķĻå¸Ī": 4028,
      "ä»¿": 4029,
      "éĩĩåıĸ": 4030,
      "ä½ĵéķ¿": 4031,
      "åħ¨éķ¿": 4032,
      "Ġ2015å¹´": 4033,
      "æµĵ": 4034,
      "æİ¨åĬ¨": 4035,
      "è¹": 4036,
      "ä¹ĭä¸ĭ": 4037,
      "ä¼łè¯´": 4038,
      "èµĦè®¯": 4039,
      "è´Ńä¹°": 4040,
      "åľ¨åħ¶": 4041,
      "çĲĨäºĭ": 4042,
      "ä¿¡ä»°": 4043,
      "150": 4044,
      "æī§å¯¼": 4045,
      "æŀ¢": 4046,
      "é¼ł": 4047,
      "ä¸Ńåħ±ä¸Ńå¤®": 4048,
      "æľ¬èº«": 4049,
      "çļĦä¸Ģåº§": 4050,
      "è¯¢": 4051,
      "ä¼Ļ": 4052,
      "ç¥ŀç»ı": 4053,
      "å½»": 4054,
      "èĽĩ": 4055,
      "åįĵ": 4056,
      "æĸ¯èĴĤ": 4057,
      "æĶ¾å¼ĥ": 4058,
      "99": 4059,
      "åıĪåĲį": 4060,
      "æķĻåŃ¦": 4061,
      "æľĢåĲİä¸Ģ": 4062,
      "äº¦æľī": 4063,
      "\",": 4064,
      "åĨĽçļĦ": 4065,
      "æĴŃæĶ¾": 4066,
      "éĩįåºĨ": 4067,
      "åįģåŃĹ": 4068,
      "âĢĿãĢģâĢľ": 4069,
      "æ³ķæ¡Ī": 4070,
      "æĽ´å¤ļ": 4071,
      "ç¨ĭå¼ı": 4072,
      "åıĤèĢĥ": 4073,
      "Ġ2013å¹´": 4074,
      "è¥¿æĸ¹": 4075,
      "è´¡çĮ®": 4076,
      "æĭ³": 4077,
      "ç½ĳè·¯": 4078,
      "åįĹæŀģ": 4079,
      "æīĵåĩ»": 4080,
      "åĩºæĪĺ": 4081,
      "äºİ196": 4082,
      "å£®": 4083,
      "èĭ±éĽĦ": 4084,
      "186": 4085,
      "å®¹æĺĵ": 4086,
      "ul": 4087,
      "ĠI": 4088,
      "ç¬ĳ": 4089,
      "åİĺ": 4090,
      "æ³°åĽ½": 4091,
      "ç§¯æŀģ": 4092,
      "ist": 4093,
      "æĵİ": 4094,
      "å½ĵå±Ģ": 4095,
      "æĬĹè®®": 4096,
      "æĺ¯ä¸Ģä½į": 4097,
      "åĸľæ¬¢": 4098,
      "åĽ½åĬ¡éĻ¢": 4099,
      "æıŃ": 4100,
      "400": 4101,
      "æĺ¯æĹ¥æľ¬": 4102,
      "åī²": 4103,
      "çİ°ä»»": 4104,
      "äºĭæķħ": 4105,
      "ä¸¾è¡ĮçļĦ": 4106,
      "ä¹Ŀé¾Ļ": 4107,
      "å¤ºå¾Ĺ": 4108,
      "ĠæŃ¤": 4109,
      "çīł": 4110,
      "Ġd": 4111,
      "åħ¨éĿ¢": 4112,
      "äºİ195": 4113,
      "è¯ģæį®": 4114,
      "æĢ§è´¨": 4115,
      "æİ¥è§¦": 4116,
      "åĲ¯çĶ¨": 4117,
      "äºŃ": 4118,
      "éĺŁä¼į": 4119,
      "æ´Ĺ": 4120,
      "åįľ": 4121,
      "è£ħçĶ²": 4122,
      "æī®": 4123,
      "åħ¶å®ĥ": 4124,
      "å°Ŀ": 4125,
      "ç»ĵæĿŁåĲİ": 4126,
      "èµĲ": 4127,
      "çŁ¥è¯Ĩ": 4128,
      "å±Ĭåħ¨åĽ½": 4129,
      "çļĦéĩįè¦ģ": 4130,
      "ä¹Łä¼ļ": 4131,
      "èĤº": 4132,
      "åĲİæľŁ": 4133,
      "å¼ºçĥĪ": 4134,
      "æ¹ĸåĮĹ": 4135,
      "å¤ļç§į": 4136,
      "çªĹ": 4137,
      "èĬ³": 4138,
      "æĮª": 4139,
      "å®īå¾½": 4140,
      "å¦Ĥä½ķ": 4141,
      "å±ķç¤º": 4142,
      "ang": 4143,
      ");": 4144,
      "èĢĮæĪĲ": 4145,
      "çĸı": 4146,
      "å¤įæĿĤ": 4147,
      "æ¶īåıĬ": 4148,
      "åŃ¦ä¼ļ": 4149,
      "ä¸ĸçķĮæĿ¯": 4150,
      "çł²": 4151,
      "ä¸ĩåħĥ": 4152,
      "çŁ¥åİ¿": 4153,
      "å®Įæķ´": 4154,
      "æ¼ĶåĶ±ä¼ļ": 4155,
      "çļĦæµ·": 4156,
      "èı²å¾ĭ": 4157,
      "åĴĮåħ¶ä»ĸ": 4158,
      "éĩĮäºļ": 4159,
      "èı²å¾ĭå®¾": 4160,
      "æĿŃ": 4161,
      "çĻ½èī²": 4162,
      "ç»´å¥ĩ": 4163,
      "ç¾½æ¯Ľ": 4164,
      "çİĦ": 4165,
      "ä¸ĩç¾İåħĥ": 4166,
      "åħ¬ä¸»": 4167,
      "çĪ±å°Ķåħ°": 4168,
      "è´«": 4169,
      "åĩºçİ°åľ¨": 4170,
      "èį¯çī©": 4171,
      "æĬ¢": 4172,
      "ç¾İæľ¯": 4173,
      "åħīç»ª": 4174,
      "éĩĮæĸ¯": 4175,
      "59": 4176,
      "78": 4177,
      "æĸĩçĮ®": 4178,
      "æĿĳåºĦ": 4179,
      "æĦıè§ģ": 4180,
      "è±Ĩ": 4181,
      "éĢĴ": 4182,
      "éĵº": 4183,
      "æ°ĳéĹ´": 4184,
      "ä»Ģä¹Ī": 4185,
      "Ġ6": 4186,
      "æ¸Ķ": 4187,
      "çļĦåľ°æĸ¹": 4188,
      "å¼ķæĵİ": 4189,
      "éĢĨ": 4190,
      "åĨħéĺģ": 4191,
      "è¿Ļæ¬¡": 4192,
      "åŁĥåıĬ": 4193,
      "å¸Ĥæ°ĳ": 4194,
      "å£³": 4195,
      "æĿĥåĪ©": 4196,
      "æĹħå®¢": 4197,
      "å«Į": 4198,
      "ĠU": 4199,
      "åĢĻéĢīäºº": 4200,
      "è´´": 4201,
      "é«ĺéĽĦ": 4202,
      "56": 4203,
      "æ¹¿": 4204,
      "æĬ½": 4205,
      "é¢ĨåľŁ": 4206,
      "çĬ¬": 4207,
      "å®¢è¿Ĳ": 4208,
      "çĪ¶æ¯į": 4209,
      "ç®Ģåįķ": 4210,
      "3äºº": 4211,
      "ob": 4212,
      "å¾ĭå¸Ī": 4213,
      "å°Ķçľģ": 4214,
      "å°ıçļĦ": 4215,
      "äººå·¥": 4216,
      "æº¶": 4217,
      "çº¢èī²": 4218,
      "æĿ°åħĭ": 4219,
      "æİĪäºĪ": 4220,
      "æİªæĸ½": 4221,
      "æĭīä¸ģ": 4222,
      "Ġå¤§": 4223,
      "éĽĩ": 4224,
      "è¡¨éĿ¢": 4225,
      "çĮ«": 4226,
      "Ġ2023å¹´": 4227,
      "å®ļä¸º": 4228,
      "éĻ¢éķ¿": 4229,
      "ç®Ģä»ĭ": 4230,
      "å¦ĥ": 4231,
      "ä¹¾éļĨ": 4232,
      "èŀº": 4233,
      "èĤ¡ä»½": 4234,
      "2äºº": 4235,
      "æķĪæŀľ": 4236,
      "çŃ¾ç½²": 4237,
      "åĩºéģĵ": 4238,
      "èģĺ": 4239,
      "è±¡å¾ģ": 4240,
      "å¯Ħ": 4241,
      "ç²®": 4242,
      "åıĳåĶ®": 4243,
      "èį£èªī": 4244,
      "NA": 4245,
      "æĦıä¸º": 4246,
      "æĭīå¤«": 4247,
      "å°ī": 4248,
      "éĻįä½İ": 4249,
      "å£°ç§°": 4250,
      "é£ĵ": 4251,
      "æ·±åľ³": 4252,
      "æĤ¬": 4253,
      "å½¢è±¡": 4254,
      "åľ°éľĩ": 4255,
      "åħĭç½Ĺ": 4256,
      "äºļåİĨ": 4257,
      "ç¡®è®¤": 4258,
      "ç¡®è¯Ĭ": 4259,
      "åĽłç´ł": 4260,
      "ä¸ľåĮĹéĥ¨": 4261,
      "å·§": 4262,
      "æĿ¥åĪ°": 4263,
      "ç¢³": 4264,
      "æĮīçħ§": 4265,
      "çĬ¯ç½ª": 4266,
      "é£ĵé£İ": 4267,
      "çĽ¾": 4268,
      "1äºº": 4269,
      "12å¹´": 4270,
      "çĪĨçĤ¸": 4271,
      "åıĶ": 4272,
      "è¿Ł": 4273,
      "éķ¿åº¦": 4274,
      "ä¹Łåı¯ä»¥": 4275,
      "åĮ»çĶŁ": 4276,
      "é¢Ĩè¢ĸ": 4277,
      "ç«ŀäºī": 4278,
      "åľ°çĤ¹": 4279,
      "çļĦé«ĺ": 4280,
      "è¢ģ": 4281,
      "çħ¤": 4282,
      "ä½ľèĢħ": 4283,
      "ok": 4284,
      "å°Ĩä¼ļ": 4285,
      "est": 4286,
      "å·®å¼Ĥ": 4287,
      "è¢«è®¤ä¸ºæĺ¯": 4288,
      "ä¼łæĴŃ": 4289,
      "ç¨¿": 4290,
      "å®ı": 4291,
      "æ´ģ": 4292,
      "æĽ´åĬł": 4293,
      "ä¸ĵéĹ¨": 4294,
      "ä¸Ī": 4295,
      "æĸľ": 4296,
      "æĸĩåŃĹ": 4297,
      "ä¼ĬæľĹ": 4298,
      "åıĳåĩº": 4299,
      "åıĻåĪ©äºļ": 4300,
      "ä¸įæ»¡": 4301,
      "å®ŀéĻħä¸Ĭ": 4302,
      "ä¸ĵå®¶": 4303,
      "ç¾Ĭ": 4304,
      "åİĭåĬĽ": 4305,
      "åı¤ä»£": 4306,
      "æ°Ķè±¡": 4307,
      "ä¸Ļ": 4308,
      "å¯¹æŃ¤": 4309,
      "å·¥åħ·": 4310,
      "ä¹¡è¯ķ": 4311,
      "èµĦéĩĳ": 4312,
      "Â°": 4313,
      "Ġin": 4314,
      "åı°åįĹ": 4315,
      "åŁºçĿ£æķĻ": 4316,
      "æĪıåī§": 4317,
      "çīµ": 4318,
      "æ¯ĶèµĽä¸Ń": 4319,
      "èĨľ": 4320,
      "èħ¾": 4321,
      "57": 4322,
      "èµ·æºĲ": 4323,
      "=\"": 4324,
      "TV": 4325,
      "æĬ¼": 4326,
      "å°¸": 4327,
      "88": 4328,
      "é«ĺäºİ": 4329,
      "å°ļä¹¦": 4330,
      "çļĦä½ľåĵģ": 4331,
      "æ²³çķĶ": 4332,
      "æįŁå¤±": 4333,
      ":\"": 4334,
      "ï½": 4335,
      "åĨĴ": 4336,
      "å¡«": 4337,
      "ç»ĻäºĪ": 4338,
      "eg": 4339,
      "å¤ļå¹´": 4340,
      "æľīä¸Ģä¸ª": 4341,
      "è¾¹çķĮ": 4342,
      "é³įé±¼": 4343,
      "ä¸ľæĸ¹": 4344,
      "å¸ĪèĮĥ": 4345,
      "çĸ¾çĹħ": 4346,
      "è¾©": 4347,
      "çĽ¸æ¯Ķ": 4348,
      "åĿ¦åħĭ": 4349,
      "ç»ıéªĮ": 4350,
      "ä¸Ģå®ļ": 4351,
      "è¡į": 4352,
      "çĹħä¾ĭ": 4353,
      "å¥ĳ": 4354,
      "è£ķ": 4355,
      "éĴ¦": 4356,
      "æľīæīĢ": 4357,
      "av": 4358,
      "ä½ľæĽ²": 4359,
      "çĲĥä¼ļ": 4360,
      "ä¸¾äºº": 4361,
      "äº¨åĪ©": 4362,
      "ä»ĳ": 4363,
      "åľ¨æĹ¥æľ¬": 4364,
      "è¡°": 4365,
      "å§»": 4366,
      "æłĩä¸º": 4367,
      "1998å¹´": 4368,
      "çļĦä¸ī": 4369,
      "åĩºå¸Ń": 4370,
      "æ°Ł": 4371,
      "ç½¢": 4372,
      "æĺ¯ä»¥": 4373,
      "åĪĹè¡¨": 4374,
      "è¸ª": 4375,
      "éĢĢå½¹": 4376,
      "éĿ¢å¯¹": 4377,
      "å·¡åĽŀ": 4378,
      "tw": 4379,
      "ä¸įä»ħ": 4380,
      "å½ĵå¹´": 4381,
      "å²ģçļĦ": 4382,
      "åĪĽå»º": 4383,
      "é¸¡": 4384,
      "æĺİæ²»": 4385,
      "æĶ¹åĸĦ": 4386,
      "æĢ§åĪ«": 4387,
      "çĻ»éĻĨ": 4388,
      "è¥¿èĹı": 4389,
      "èĮĤ": 4390,
      "ä½ıå®ħ": 4391,
      "è²": 4392,
      "çĲī": 4393,
      "ä¹ĭä¸Ń": 4394,
      "æĶ¹éĢł": 4395,
      "çº¦ä¸º": 4396,
      "ä¸¤å¹´": 4397,
      "åı¸æ³ķ": 4398,
      "å¹¶åħ¥": 4399,
      "åĪĹåħ¥": 4400,
      "åĽŀåºĶ": 4401,
      "åħĭèİ±": 4402,
      "åĪ¶çļĦ": 4403,
      "ç«Ļåı°": 4404,
      "å®Ļ": 4405,
      "çİĩé¢Ĩ": 4406,
      "éĤ£éĩĮ": 4407,
      "è´µæĹı": 4408,
      "66": 4409,
      "èĪŀåı°": 4410,
      "è½¬ç§»": 4411,
      "1999å¹´": 4412,
      "ç±³çļĦ": 4413,
      "åľ°éĿ¢": 4414,
      "ç¤¾ä¼ļä¸»ä¹ī": 4415,
      "å¦Ī": 4416,
      "å®ŀè¡Į": 4417,
      "å£°æĺİ": 4418,
      "åĨ¬åŃ£": 4419,
      "ç²¹": 4420,
      "ç§įæĹı": 4421,
      "èĭ±å°º": 4422,
      "ec": 4423,
      "ä¸Ģå®¶": 4424,
      "çĶµè½¦": 4425,
      "æ¾³æ´²": 4426,
      "BC": 4427,
      "èĤ¥": 4428,
      "åŁºåĽł": 4429,
      "nd": 4430,
      "åıĤè°ĭ": 4431,
      "åĸ·": 4432,
      "åħ³éĹŃ": 4433,
      "ç¬¬åħ«": 4434,
      "åĳ½åĲįä¸º": 4435,
      "æµ·æ´ĭ": 4436,
      "èįĴ": 4437,
      "æµģåŁŁ": 4438,
      "åĥ§": 4439,
      "ĠSt": 4440,
      "æĪĲæľ¬": 4441,
      "You": 4442,
      "åıĤåĬłäºĨ": 4443,
      "è£ħç½®": 4444,
      "å¥¹åľ¨": 4445,
      "æĩ": 4446,
      "Ġ2012å¹´": 4447,
      "éģµ": 4448,
      "çĭĦ": 4449,
      "54": 4450,
      "ä¸Ģåº§": 4451,
      "å°ıåŀĭ": 4452,
      "ç¤ºå¨ģ": 4453,
      "åį¢çĵ¦å°Ķ": 4454,
      "è¯ŃçļĦ": 4455,
      "å½¢æĢģ": 4456,
      "çĸ«æĥħ": 4457,
      "æµ©": 4458,
      "åħ¬åı¸çļĦ": 4459,
      "æīįèĥ½": 4460,
      "åıĺå¾Ĺ": 4461,
      "å²ģæĹ¶": 4462,
      "ç¡ķå£«": 4463,
      "èĬ¬åħ°": 4464,
      "åľ¨ä¸ŃåĽ½": 4465,
      "é¸¿": 4466,
      "å´Ķ": 4467,
      "çİĽä¸½": 4468,
      "ç¬¦åĲĪ": 4469,
      "é©±éĢĲ": 4470,
      "ä¸ĢæĿ¡": 4471,
      "æĦıæĢĿ": 4472,
      "åĳ¨å¹´": 4473,
      "çļĦåĽ½å®¶": 4474,
      "æµ·å¤ĸ": 4475,
      "åį³ä½¿": 4476,
      "é«ĺéĢŁåħ¬è·¯": 4477,
      "æľºåĻ¨": 4478,
      "æµĭéĩı": 4479,
      "é³įé±¼çº²": 4480,
      "æŃ£å¸¸": 4481,
      "å¸ħ": 4482,
      "éĢļè½¦": 4483,
      "è¾ĥä¸º": 4484,
      "èİ«æĸ¯ç§ĳ": 4485,
      "æĸ°çĸĨ": 4486,
      "å±Ģéķ¿": 4487,
      "å²Ĺ": 4488,
      "æĥħæĬ¥": 4489,
      "åı¦ä¸Ģä¸ª": 4490,
      "é¥Ń": 4491,
      "éĻĦè¿ĳçļĦ": 4492,
      "é¡¾éĹ®": 4493,
      "å¯¹è±¡": 4494,
      "å¼Ģè®¾": 4495,
      "çĶµåĬĽ": 4496,
      "èĭıæł¼åħ°": 4497,
      "å¼¥": 4498,
      "éħįåĲĪ": 4499,
      "é£Łçī©": 4500,
      "æ··åĲĪ": 4501,
      "æĢĴ": 4502,
      "åĩºæĿ¥": 4503,
      "ä¿®æĶ¹": 4504,
      "CD": 4505,
      "æ¶µ": 4506,
      "å§Ķä¹¦è®°": 4507,
      "æĶ¶è´Ń": 4508,
      "æĻļä¸Ĭ": 4509,
      "Ġèĩª": 4510,
      "åı°åĮĹå¸Ĥ": 4511,
      "åĵ²åŃ¦": 4512,
      "ä¿ĺ": 4513,
      "å¾Īå¿«": 4514,
      "æķ´ä½ĵ": 4515,
      "è¾Ĳé³įé±¼çº²": 4516,
      "èĢĹ": 4517,
      "çģ«ç®Ń": 4518,
      "å¹¶ä»¥": 4519,
      "åĩłä¸ª": 4520,
      "éĻĨåľ°éĿ¢ç§¯ä¸º": 4521,
      "çŁ¥åĲį": 4522,
      "åĪĨéħį": 4523,
      "æ°´åŁŁéĿ¢ç§¯ä¸º": 4524,
      "3ä¸ª": 4525,
      "æ¬£": 4526,
      "10å¹´": 4527,
      "æ¶¦": 4528,
      "åıĳçİ°äºĨ": 4529,
      "æī©å¤§": 4530,
      "up": 4531,
      "åŁĥå°Ķ": 4532,
      "åŃ¤": 4533,
      "éħįéŁ³": 4534,
      "èĢĢ": 4535,
      "52": 4536,
      "å¼ĢéĢļ": 4537,
      "å·¥äºº": 4538,
      "åĮĪçīĻ": 4539,
      "æŃĩ": 4540,
      "æ¯Ķä¾ĭ": 4541,
      "çŁ¶": 4542,
      "çĭĤ": 4543,
      "æ³ķå®ĺ": 4544,
      "ä¸ľåįĹéĥ¨": 4545,
      "all": 4546,
      "äº¿åħĥ": 4547,
      "èµ¶": 4548,
      "å¯¼å¼¹": 4549,
      "æĮªå¨ģ": 4550,
      "åĮĪçīĻåĪ©": 4551,
      "åľ¨è¯¥": 4552,
      "ä¹ĭåŃĲ": 4553,
      "èĢĮè¨Ģ": 4554,
      "åĤħ": 4555,
      "çļĦåİĨåı²": 4556,
      "çļĦä¸Ń": 4557,
      "å¢ŀéķ¿": 4558,
      "Ġ19": 4559,
      "ç¥Ģ": 4560,
      "æĥ¯": 4561,
      "è£ħå¤ĩ": 4562,
      "çĭ®": 4563,
      "å¹¿ä¸ľçľģ": 4564,
      "éĻĢ": 4565,
      "åº·çĨĻ": 4566,
      "å¯¸": 4567,
      "ç¿Į": 4568,
      "ï½ŀ": 4569,
      "ä»»èģĮ": 4570,
      "è¯·æ±Ĥ": 4571,
      "åĲĮçĽŁ": 4572,
      "æıĲåĪ°": 4573,
      "æµ·å³¡": 4574,
      "æģĲæĢ": 4575,
      "ik": 4576,
      "çĶ¨ä½ľ": 4577,
      "åĬ¨ä½ľ": 4578,
      "åŀĤ": 4579,
      "æĪĺçķ¥": 4580,
      "ç¥¨æĪ¿": 4581,
      "å½ĵä¸ŃéĻĨåľ°éĿ¢ç§¯ä¸º": 4582,
      "èĢĮæ°´åŁŁéĿ¢ç§¯ä¸º": 4583,
      "ç§ĺå¯Ĩ": 4584,
      "éĥ¨çļĦ": 4585,
      "å¤ªåŃĲ": 4586,
      "èĦĤ": 4587,
      "å¤·": 4588,
      "åİ¢": 4589,
      "çĶŁçļĦ": 4590,
      "ä¸ĭéĻį": 4591,
      "æŁĶ": 4592,
      "ç§ģäºº": 4593,
      "ä¸ĭæĿ¥": 4594,
      "ç²¤": 4595,
      "äºļåİĨå±±": 4596,
      "éĹ´çļĦ": 4597,
      "18å¹´": 4598,
      "æŃ¦æ±ī": 4599,
      "æĤī": 4600,
      "å¸ĥå°Ķ": 4601,
      "ç¼ħçĶ¸": 4602,
      "åįİçĽĽ": 4603,
      "çĭĹ": 4604,
      "éĢĢä¼ĳ": 4605,
      "ip": 4606,
      "eb": 4607,
      "åĩºæ¼Ķ": 4608,
      "å§ļ": 4609,
      "èµ·ä¹ī": 4610,
      "åĽŀå½Ĵ": 4611,
      "æ»ļ": 4612,
      "æŃ¥åħµ": 4613,
      "è¦ĨçĽĸ": 4614,
      ";-": 4615,
      "Ġè¡ĮæĶ¿åĮºåĪĴ": 4616,
      "98": 4617,
      "ew": 4618,
      "ä¸ĬåįĪ": 4619,
      "è¯´æĺİ": 4620,
      "ç¼ĸåī§": 4621,
      "ç¢İ": 4622,
      "76": 4623,
      "éĢ¢": 4624,
      "è§Ĥæµĭ": 4625,
      "åħ«å¹´": 4626,
      "ä¸ŃåĽ½äººæ°ĳè§£æĶ¾åĨĽ": 4627,
      "æľĢè¿ĳ": 4628,
      "éĩįå¤§": 4629,
      "çĮĽ": 4630,
      "åĬ³åĬ¨": 4631,
      "æī¾åĪ°": 4632,
      "ä¸ºè¾Ĳé³įé±¼çº²": 4633,
      "OS": 4634,
      "ç¬¬3": 4635,
      "ä½ĵéķ¿åı¯è¾¾": 4636,
      "53": 4637,
      "æ·±åº¦": 4638,
      "çģĮ": 4639,
      "æİ¨è¿Ľ": 4640,
      "åįİçĽĽé¡¿": 4641,
      "è¢«è¿«": 4642,
      "é¢Ħè®¡": 4643,
      "å½°": 4644,
      "èĬĴ": 4645,
      "åĲĪçº¦": 4646,
      "åĬŀäºĭ": 4647,
      "åħ´è¶£": 4648,
      "çļĦéĹ®é¢ĺ": 4649,
      "æĳĩ": 4650,
      "å¥¥è¿Ĳä¼ļ": 4651,
      "åĪ¸": 4652,
      "çľŁæŃ£": 4653,
      "ç»ıåħ¸": 4654,
      "åįģä¸ī": 4655,
      "é©¬å°Ķ": 4656,
      "è¯ķéªĮ": 4657,
      "åºŀ": 4658,
      "ç»Ħå»º": 4659,
      "åĳ¨åĽ´": 4660,
      "ell": 4661,
      "é£İéĻ©": 4662,
      "æºĲèĩª": 4663,
      "å°Ŀè¯ķ": 4664,
      "ç¾İåĨĽ": 4665,
      "ä¿ĿåŃĺ": 4666,
      "ä¸ºæŃ¢": 4667,
      "åĬłçĽŁ": 4668,
      "å¼ķåħ¥": 4669,
      "æĬķéĻį": 4670,
      "éĺ²å¾¡": 4671,
      "å¾¡åı²": 4672,
      "åľ°åĽ¾": 4673,
      "æłĸæģ¯åľ¨": 4674,
      "å¹¿è¥¿": 4675,
      "æ»©": 4676,
      "èĬ±åĽŃ": 4677,
      "æĿĢæŃ»": 4678,
      "if": 4679,
      "ä¸Ńæľī": 4680,
      "ç¬¼": 4681,
      "å»Ĭ": 4682,
      "åĮĹèµ·": 4683,
      "Ġ2024å¹´": 4684,
      "ä¼ª": 4685,
      "åĳİ": 4686,
      "åģ·": 4687,
      "å²Ľå±¿": 4688,
      "åĬ¿åĬĽ": 4689,
      "âĢ¦âĢ¦": 4690,
      "éĺª": 4691,
      "åĮĹäº¬å¸Ĥ": 4692,
      "ĠæĽ¾": 4693,
      "çļĦæĹ¶éĹ´": 4694,
      "æľ¬ç«Ļ": 4695,
      "èįĲ": 4696,
      "éļıåį³": 4697,
      "å¥İ": 4698,
      "è´£ä»»": 4699,
      "Ġä»İ": 4700,
      "ä»£è¡¨å¤§ä¼ļ": 4701,
      "å¤§è§Ħæ¨¡": 4702,
      "éĢ»": 4703,
      "ä¸İåħ¶ä»ĸ": 4704,
      "èĤĸ": 4705,
      "1997å¹´": 4706,
      "å£°éŁ³": 4707,
      "().": 4708,
      "Ġw": 4709,
      "ä»¥åīį": 4710,
      "éħ¶": 4711,
      "æĹĹä¸ĭ": 4712,
      "å¸¦æĿ¥": 4713,
      "è®ºæĸĩ": 4714,
      "çļĦæĥħåĨµä¸ĭ": 4715,
      "çĶ¨éĢĶ": 4716,
      "1996å¹´": 4717,
      "çĶŁæĢģ": 4718,
      "1992å¹´": 4719,
      "åĽ½å®¶éĺŁ": 4720,
      "çıĬ": 4721,
      "art": 4722,
      "ä¾ł": 4723,
      "ç»ĦæĪĲçļĦ": 4724,
      "Ġ5": 4725,
      "43": 4726,
      "å¯¹å¤ĸ": 4727,
      "æ¸©åº¦": 4728,
      "è®²è¿°": 4729,
      "åĲ¾": 4730,
      "äº¿ç¾İåħĥ": 4731,
      "çħ§çīĩ": 4732,
      "BA": 4733,
      "ep": 4734,
      "çļĦæĶ¯æĮģ": 4735,
      "æŀĿ": 4736,
      "è¿Ĳä½ľ": 4737,
      "ä¿ĥè¿Ľ": 4738,
      "ä»£çłģ": 4739,
      "77": 4740,
      "å¯¹åºĶ": 4741,
      "ä¼ĺåĬ¿": 4742,
      "è½¯ä»¶": 4743,
      "å¾ĹçŁ¥": 4744,
      "è§£æķ£": 4745,
      "æľĢå¤ļ": 4746,
      "æ¹ĺ": 4747,
      "ç¿ģ": 4748,
      "ä¸¤æ¬¡": 4749,
      "æĮĩå¯¼": 4750,
      "è°ĪåĪ¤": 4751,
      "çĴĥ": 4752,
      "ant": 4753,
      "èµĭ": 4754,
      "åįģåħŃ": 4755,
      "å¤«äºº": 4756,
      "éļľç¢į": 4757,
      "å¨ĥ": 4758,
      "åĵ¥ä¼¦": 4759,
      "å¤ıåŃ£å¥¥æŀĹåĮ¹åħĭè¿ĲåĬ¨ä¼ļ": 4760,
      "å¹´é¾Ħ": 4761,
      "åĲįä¹ī": 4762,
      "æŀĦéĢł": 4763,
      "éĺĶ": 4764,
      "ç»ıçĲĨ": 4765,
      "çļĦå¤ĸ": 4766,
      "èĥ¸": 4767,
      "çļĦå·¥ä½ľ": 4768,
      "å¼¦": 4769,
      "åı°ä¸Ń": 4770,
      "æģĲæĢĸ": 4771,
      "éŃĤ": 4772,
      "éļ¾ä»¥": 4773,
      "åįµ": 4774,
      "æłı": 4775,
      "æĮĩæİ§": 4776,
      "ä¸ĩåİĨ": 4777,
      "ä»ĩ": 4778,
      "åľ¨å¤§": 4779,
      "äºĨè§£": 4780,
      "ha": 4781,
      "Ġæ¦Ĥ": 4782,
      "åİĨä»»": 4783,
      "åĲĲ": 4784,
      "è¢«è§Ĩä¸º": 4785,
      "ä¸Ĭæµ·å¸Ĥ": 4786,
      "çļĦå±±": 4787,
      "æľ´": 4788,
      "è¥¿åįĹéĥ¨": 4789,
      "é©¬æĭī": 4790,
      "æ¯ķä¸ļåĲİ": 4791,
      "é©¾é©¶": 4792,
      "ä»ĸè¿ĺ": 4793,
      "éĤ£äºĽ": 4794,
      "åĲı": 4795,
      "ä¸īè§Ĵ": 4796,
      "åıł": 4797,
      "æ·ĺ": 4798,
      "1945å¹´": 4799,
      "åħĭæĭī": 4800,
      "éĤ¨": 4801,
      "hans": 4802,
      "çļĦåıĳå±ķ": 4803,
      "æ³¨åĨĮ": 4804,
      "å©ļå§»": 4805,
      "Ġ2011å¹´": 4806,
      "å®ĩå®Ļ": 4807,
      "indow": 4808,
      "æī®æ¼Ķ": 4809,
      "è¥¿å®ī": 4810,
      "çŃīçŃī": 4811,
      "ç½ĳçĲĥ": 4812,
      "hk": 4813,
      "Ġf": 4814,
      "41": 4815,
      "å±ł": 4816,
      "åĮĸçŁ³": 4817,
      "æĳĦå½±": 4818,
      "19å¹´": 4819,
      "ç¡«": 4820,
      "éĩıçļĦ": 4821,
      "åĬłå¼º": 4822,
      "æ¬¡å¹´": 4823,
      "1988å¹´": 4824,
      "èħĲ": 4825,
      "éĶĻè¯¯": 4826,
      "å¹´ä»£": 4827,
      "æĲº": 4828,
      "åĨĽåĮº": 4829,
      "èĪ±": 4830,
      "åı°é£İ": 4831,
      "æ·¡æ°´": 4832,
      "è¯¥åľ°çļĦ": 4833,
      "å½¦": 4834,
      "å¤ªç©º": 4835,
      "Ġ10": 4836,
      "å®¶äºº": 4837,
      "æŁıæŀĹ": 4838,
      "é¢ľèī²": 4839,
      "åįģäºĶ": 4840,
      "èĦĬ": 4841,
      "æľįå½¹": 4842,
      "åľ¨é¦Ļæ¸¯": 4843,
      "å®¶çļĦ": 4844,
      "åĲĪæĪĲ": 4845,
      "éĻĨç»Ń": 4846,
      "éĢ®": 4847,
      "è²Į": 4848,
      "1994å¹´": 4849,
      "åĺ´": 4850,
      "AR": 4851,
      "åİŁä½ı": 4852,
      "é¹°": 4853,
      "ä»ĸè¢«": 4854,
      "éĢĢåĩº": 4855,
      "79": 4856,
      "åįĹéĿŀ": 4857,
      "BS": 4858,
      "åĬłåĪ©": 4859,
      "éĢļéģĵ": 4860,
      "Ġ2010å¹´": 4861,
      "æĶ¿åįı": 4862,
      "åŀĭçļĦ": 4863,
      "ud": 4864,
      "æŃ§": 4865,
      "åįĹæĸ¹": 4866,
      "éļ¶å±ŀ": 4867,
      "äºİ193": 4868,
      "åħĭçļĦ": 4869,
      "æĹ¬": 4870,
      "è¥¿åĮĹéĥ¨": 4871,
      "ç³»ç»ŁçļĦ": 4872,
      "ill": 4873,
      "æĶ¿åºľçļĦ": 4874,
      "å¸¦æľī": 4875,
      "ç¨į": 4876,
      "æ±Łè¥¿": 4877,
      "åıī": 4878,
      "ä¸º1": 4879,
      "1949å¹´": 4880,
      "çĲĥåŃ£": 4881,
      "ä»·æł¼": 4882,
      "éĩĬæĶ¾": 4883,
      "ï¼ı": 4884,
      "å®ļå±ħ": 4885,
      "69": 4886,
      "ä¹ĲéĺŁ": 4887,
      "AM": 4888,
      "çļĦæķħäºĭ": 4889,
      "å¤§èµĽ": 4890,
      "åĳĪçİ°": 4891,
      "ä¸Ģèĩ´": 4892,
      "ä½ľåĩº": 4893,
      "çĽ¸ä¿¡": 4894,
      "é¦ĸåħĪ": 4895,
      "å¨ĺ": 4896,
      "ä¿Ŀç½Ĺ": 4897,
      "qu": 4898,
      "åĪ·": 4899,
      "ç¿ł": 4900,
      "åħ¼ä»»": 4901,
      "éĹ½": 4902,
      "æģ°": 4903,
      "æİĴè¡Į": 4904,
      "ĠçļĦæĹ¶åĮºä¸º": 4905,
      "ĠäºİæĹ¶çļĦäººåı£æķ°éĩıä¸ºäºº": 4906,
      "ĠæīĢå±ŀçļĦçľģçº§éĢīåĮºä¸º": 4907,
      "æīĢå±ŀ": 4908,
      "éº¦åħĭ": 4909,
      "éĺ¶çº§": 4910,
      "Ġä¸İæİ¥å£¤çļĦå¸Ĥéķĩ": 4911,
      "ĠçļĦéĤ®æĶ¿ç¼ĸçłģä¸º": 4912,
      "ä¸¤åĲį": 4913,
      "èĿ¶": 4914,
      "ction": 4915,
      "æ¸¸æ³³": 4916,
      "ä»»åĳ½ä¸º": 4917,
      "æĬĹæĹ¥": 4918,
      "æı¡": 4919,
      "çĽ¸äºĴ": 4920,
      "åħ³éĶ®": 4921,
      "ç«ĭåį³": 4922,
      "éĢļè®¯": 4923,
      "ç¯®çĲĥ": 4924,
      "èĸĦ": 4925,
      "åĮĹæµ·": 4926,
      "éªĳå£«": 4927,
      "èĩªèº«": 4928,
      "åĿª": 4929,
      "æ¯Ķå¦Ĥ": 4930,
      "æ·»": 4931,
      "éªĳåħµ": 4932,
      "åį±æľº": 4933,
      "å©Ĩ": 4934,
      "æĸ¯æŀĹ": 4935,
      "éĽĢ": 4936,
      "å¸¦é¢Ĩ": 4937,
      "éĵŃ": 4938,
      "æĹ¶æľŁçļĦ": 4939,
      "Ġ192": 4940,
      "åİŁåŃĲ": 4941,
      "ä¿®å»º": 4942,
      "ä¸°å¯Į": 4943,
      "1æľĪ1æĹ¥": 4944,
      "Ġ201": 4945,
      "å¿§": 4946,
      "è¶ĭ": 4947,
      "ä¼ĺç§Ģ": 4948,
      "éĨĴ": 4949,
      "ç¬¬äºĮæ¬¡ä¸ĸçķĮå¤§æĪĺ": 4950,
      "å·«": 4951,
      "å¤§èĩ´": 4952,
      "æ·®": 4953,
      "å±ķè§Ī": 4954,
      "æĸ¹è¨Ģ": 4955,
      "å¯¹æĬĹ": 4956,
      "éĢīä¸º": 4957,
      "4äºº": 4958,
      "è®¡ç®Ĺæľº": 4959,
      "åĨħéĻĨ": 4960,
      "ä¾ĽåºĶ": 4961,
      "çľŁå®ŀ": 4962,
      "è¯ı": 4963,
      "éĿŀå»ºåĪ¶": 4964,
      "æĦıå¿Ĺ": 4965,
      "é¸£": 4966,
      "ç¾½æ¯ĽçĲĥ": 4967,
      "é»ĳèī²": 4968,
      "è¾ĵåħ¥": 4969,
      "ä¼Ĺå¤ļ": 4970,
      "éĺŁéķ¿": 4971,
      "èīºäºº": 4972,
      "ä»ĸä¸İ": 4973,
      "åĮĹæĸ¹": 4974,
      "ä¸Ģçº§": 4975,
      "ä¸Ĭè¿°": 4976,
      "åĽºå®ļ": 4977,
      "åħ·ä½ĵ": 4978,
      "æİĺ": 4979,
      "end": 4980,
      "åĪĨåĪ«ä¸º": 4981,
      "Ġ8": 4982,
      "åį°å°¼": 4983,
      "ä»£çĲĨ": 4984,
      "å·ŀåºľ": 4985,
      "æľĿå»·": 4986,
      "éĺ®": 4987,
      "åħĪçĶŁ": 4988,
      "æ´¾éģ£": 4989,
      "åµ": 4990,
      "1989å¹´": 4991,
      "å¾Ģå¾Ģ": 4992,
      "æ£Ģæµĭ": 4993,
      "å§¬": 4994,
      "éĥ½å¸Ĥ": 4995,
      "å¯»æī¾": 4996,
      "CO": 4997,
      "ain": 4998,
      "é»Ħéĩĳ": 4999,
      "éĿŀå»ºåĪ¶åľ°åĮº": 5000,
      "Ġand": 5001,
      "185": 5002,
      "ä»£è¡¨åĽ¢": 5003,
      "çªģçł´": 5004,
      "é¼»": 5005,
      "95": 5006,
      "Ġä»¥ä¸ĭ": 5007,
      "é¢Ĩå¯¼äºº": 5008,
      "ä½ĨçĶ±äºİ": 5009,
      "çģ«å±±": 5010,
      "ĠåĴĮ": 5011,
      "çī¹èī²": 5012,
      "åįĹèĩ³": 5013,
      "çĽĳçĿ£": 5014,
      "åĹ£": 5015,
      "62": 5016,
      "å¼Ģå±ķ": 5017,
      "æĦĪ": 5018,
      "æĿīçŁ¶": 5019,
      "å·²è¢«": 5020,
      "æ³¢æĸ¯": 5021,
      "ä¾ĭåŃĲ": 5022,
      "æ´ĽæĿīçŁ¶": 5023,
      "æ°¯": 5024,
      "ä¸¤åĽ½": 5025,
      "æĽ´ä¸º": 5026,
      "çĻ»ä¸Ĭ": 5027,
      "çĶµè¯Ŀ": 5028,
      "å½ĵå¤©": 5029,
      "æĸ¤": 5030,
      "æĹ¥æĬ¥": 5031,
      "å±±è¥¿": 5032,
      "åĦĴ": 5033,
      "åħĨ": 5034,
      "èĭĳ": 5035,
      "åľºçļĦ": 5036,
      "1000": 5037,
      "çªģçĦ¶": 5038,
      "å®ŀéªĮå®¤": 5039,
      "èĮµ": 5040,
      "ä¾Ŀæį®": 5041,
      "çļĦçĶµå½±": 5042,
      "è¡ĮçļĦ": 5043,
      "åģ¿": 5044,
      "Ġå®¶æĹı": 5045,
      "ä¸º2": 5046,
      "åħ¬çĪµ": 5047,
      "æĳĨ": 5048,
      "ä¸¹éº¦": 5049,
      "å°¼äºļå·ŀ": 5050,
      "åįĴ": 5051,
      "æ±ª": 5052,
      "ä¸īä¸ĸ": 5053,
      "åĽ½å®¶çļĦ": 5054,
      "1993å¹´": 5055,
      "çĽ¸åħ³çļĦ": 5056,
      "åĲĽä¸»": 5057,
      "å¯¨": 5058,
      "åĨĽå®ĺ": 5059,
      "åĳĺå·¥": 5060,
      ":),": 5061,
      "å¤§å¤ļ": 5062,
      "1995å¹´": 5063,
      "çī¹å®ļ": 5064,
      "å°ĳå¥³": 5065,
      "å¦ĩå¥³": 5066,
      "æ²¿æµ·": 5067,
      "ht": 5068,
      "çļĦåĲĮ": 5069,
      "æĺİç¡®": 5070,
      "å°±ä¼ļ": 5071,
      "600": 5072,
      "æĪ¿å±ĭ": 5073,
      "éĢ®æįķ": 5074,
      "åı²ä¸Ĭ": 5075,
      "1991å¹´": 5076,
      "ong": 5077,
      "è½¬åĲĳ": 5078,
      "ä¸»è¦ģçļĦ": 5079,
      "æī©å±ķ": 5080,
      "4ä¸ª": 5081,
      "å¤ķ": 5082,
      "å¤§æ¡¥": 5083,
      "ä¾¨": 5084,
      "å°¼åħĭ": 5085,
      "èµĦäº§": 5086,
      "èĦı": 5087,
      "ä¸Ģæ®µ": 5088,
      "éĻ¨": 5089,
      "å®ĥæĺ¯": 5090,
      "Ġéĺ¿": 5091,
      "æľºåĪ¶": 5092,
      "éĵľçīĮ": 5093,
      "è¯ģå®ŀ": 5094,
      "ä¸İåħ¶": 5095,
      "åĪ¶å®ļ": 5096,
      "ç»Ŀå¯¹": 5097,
      "ex": 5098,
      "åĬĿ": 5099,
      "å¤§å¥ĸ": 5100,
      "åĩĢ": 5101,
      "ä¸Ľ": 5102,
      "è¾°": 5103,
      "180": 5104,
      "æ£ĢæŁ¥": 5105,
      "å¤§åİ¦": 5106,
      "ç§ĳå¤«": 5107,
      "äºļç¾İ": 5108,
      "51": 5109,
      "åĮĸåĲĪçī©": 5110,
      "ĠIn": 5111,
      "ç²Ĺ": 5112,
      "åĲ¯åĬ¨": 5113,
      "Ã©": 5114,
      "æŃ¤æ¬¡": 5115,
      "æ³ķåħ°è¥¿": 5116,
      "åĪĨç¦»": 5117,
      "è§Ĩé¢ĳ": 5118,
      "éĵ¸": 5119,
      "çī¹åĪ«æĺ¯": 5120,
      "Ġ7": 5121,
      "åľ¨äºİ": 5122,
      "åī§æľ¬": 5123,
      "ç´§æĢ¥": 5124,
      "è¯Ħä¼°": 5125,
      "åĿĩä¸º": 5126,
      "Ġzh": 5127,
      "åĨľæ°ĳ": 5128,
      "åĵ¥ä¼¦æ¯Ķäºļ": 5129,
      "åĬłæĭī": 5130,
      "æ¶Ĥ": 5131,
      "ä¸ĳ": 5132,
      "ä¸»è¦ģæĺ¯": 5133,
      "ä¸Ĭæľī": 5134,
      "ä¿Ŀå®Ī": 5135,
      "ä¹łæĢ§": 5136,
      "èĲ¨æĸ¯": 5137,
      "åī§éĻ¢": 5138,
      "åºŁéĻ¤": 5139,
      "åĬ«": 5140,
      "1985å¹´": 5141,
      "1990å¹´": 5142,
      "åŁºéĩĳä¼ļ": 5143,
      "çŁ©": 5144,
      "åľºæ¯ĶèµĽ": 5145,
      "åĢ¡": 5146,
      "ä¹ĭæĪĺ": 5147,
      "æī«": 5148,
      "è´©": 5149,
      "èĢĮéĿŀ": 5150,
      "æ±°": 5151,
      "åįģåĽĽ": 5152,
      "è´¨çĸĳ": 5153,
      "çŃ¾è®¢": 5154,
      "ä¸Ńè¢«": 5155,
      "çİ°ä»Ĭ": 5156,
      "æ±Ģ": 5157,
      "åĨĽåĽ¢": 5158,
      "åİŁåĪĻ": 5159,
      "å½¢å®¹": 5160,
      "éĻķè¥¿": 5161,
      "ä¸ĭä»¤": 5162,
      "éĦĤ": 5163,
      "åı·çļĦ": 5164,
      "å¼¯": 5165,
      "åŃ¦å£«": 5166,
      "ç±³äºļ": 5167,
      "åĬªåĬĽ": 5168,
      "2ä¸ª": 5169,
      "åĲİç»Ń": 5170,
      "åħ¶ä¸ŃåĮħæĭ¬": 5171,
      "ç»ĻäºĨ": 5172,
      "ä¼ļéķ¿": 5173,
      "ç»´æĬ¤": 5174,
      "å¸Ńä½į": 5175,
      "çīłä»¬": 5176,
      "ast": 5177,
      "æĭĺ": 5178,
      "éĽĮ": 5179,
      "çŃīä¸º": 5180,
      "åįĩçº§": 5181,
      "é©³": 5182,
      "æĮĩå®ļ": 5183,
      "æ½Ń": 5184,
      "é¾Ł": 5185,
      "æıĲä¾ĽäºĨ": 5186,
      "éĺ»æŃ¢": 5187,
      "èĥ½éĩı": 5188,
      "åŁİåł¡": 5189,
      "èģĮä¸ļçĶŁæ¶¯": 5190,
      "åįİäºº": 5191,
      "ä¿Ŀéļľ": 5192,
      "ers": 5193,
      "æĥħåĨµä¸ĭ": 5194,
      "åĭĭç«ł": 5195,
      "çļĦç¬¬": 5196,
      "æłĩæľ¬": 5197,
      "ç©Ĩæĸ¯æŀĹ": 5198,
      "åĽ°éļ¾": 5199,
      "æŃ»åĲİ": 5200,
      "1984å¹´": 5201,
      "çļĩåĲİ": 5202,
      "è¿Ļæł·çļĦ": 5203,
      "ç§ĳåŃ¦éĻ¢": 5204,
      "æ¶Į": 5205,
      "äºļç¾İå°¼äºļ": 5206,
      "Ġ2008å¹´": 5207,
      "æĹ¶æ®µ": 5208,
      "æĺ¯ä¸Ģé¢Ĺ": 5209,
      "åħ¶ä¸Ńä¸Ģç§į": 5210,
      "é¦ĸä¸ª": 5211,
      "åłª": 5212,
      "ç£¨": 5213,
      "å¥¥å°Ķ": 5214,
      "ç§įåŃĲ": 5215,
      "çłĸ": 5216,
      "èĲ¨å°Ķ": 5217,
      "èĵ¬": 5218,
      "éĨĩ": 5219,
      "å¯Ĵ": 5220,
      "åĪ©çĽĬ": 5221,
      "é©¬éĩĮ": 5222,
      "çķĻä¸ĭ": 5223,
      "äºĮäºº": 5224,
      "äº¦æĺ¯": 5225,
      "æ»¡è¶³": 5226,
      "2020å¹´ç¾İåĽ½äººåı£æĻ®æŁ¥çļĦæķ°æį®": 5227,
      "å¤§åŃ¦çļĦ": 5228,
      "åĺīéĿĸ": 5229,
      "å¿½": 5230,
      "æĥŁ": 5231,
      "åĢº": 5232,
      "ess": 5233,
      "ov": 5234,
      "æīĭæľº": 5235,
      "åĬ©çĲĨ": 5236,
      "å»¶éķ¿": 5237,
      "ä¸»åĬŀ": 5238,
      "å¾·çļĦ": 5239,
      "åıĤéĢī": 5240,
      "æķ¢": 5241,
      "ĠæĹ©å¹´": 5242,
      "åĬłå·ŀ": 5243,
      "çļĦä¸¤": 5244,
      "æĶ¶è§Ĩ": 5245,
      "åĪºåı²": 5246,
      "å°¹": 5247,
      "å¼ĹæľĹ": 5248,
      "åħ¬å®ī": 5249,
      "ä¹Łä¸į": 5250,
      "åĳ¨æľŁ": 5251,
      "èĮĥåĽ´åĨħ": 5252,
      "åı¦æľī": 5253,
      "æ¶Īè´¹": 5254,
      "ä¸ŃéĹ´": 5255,
      "å¥Ķ": 5256,
      "æľ¬åľ°": 5257,
      "çļĦåħ³ç³»": 5258,
      "ä»¥å¤ĸ": 5259,
      "åĭŁ": 5260,
      "æ°ĶæĹĭ": 5261,
      "ä¸ŃæľŁ": 5262,
      "æĬĳ": 5263,
      "è®¾å®ļ": 5264,
      "ç»´æĸ¯": 5265,
      "æº¯": 5266,
      "æĽ´æĸ°": 5267,
      "ä¸ĸçķĮä¸Ĭ": 5268,
      "åľ¨åĨħçļĦ": 5269,
      "å¤§å¹ħ": 5270,
      "å¤įåħ´": 5271,
      "éĹª": 5272,
      "å¹¶ä¸İ": 5273,
      "ä»¤äºº": 5274,
      "åĬŀäºĭå¤Ħ": 5275,
      "èº«ä¸º": 5276,
      "çº³ç²¹": 5277,
      "æ´»è·ĥ": 5278,
      "ä¿®æŃ£": 5279,
      "éĤ»è¿ĳ": 5280,
      "æĺİæľĿæĶ¿æ²»äººçī©": 5281,
      "ne": 5282,
      "ä¸ľä¸´": 5283,
      "ç©ºæ°Ķ": 5284,
      "åıįæĺł": 5285,
      "çļĦæ°´": 5286,
      "é¢ĩ": 5287,
      "åİŁåĲį": 5288,
      "é¤Ĳåİħ": 5289,
      "èĩ³äºİ": 5290,
      "å½¢çĽ®": 5291,
      "æī¶": 5292,
      "ä¸Ĭä¸ĭ": 5293,
      "åĳĬè¯ī": 5294,
      "1986å¹´": 5295,
      "ç¢Ł": 5296,
      "æļ´åĬĽ": 5297,
      "--": 5298,
      "sp": 5299,
      "æĻĭçº§": 5300,
      "1ä¸ª": 5301,
      "AC": 5302,
      "lay": 5303,
      "ack": 5304,
      "Ġ2009å¹´": 5305,
      "åįıè°ĥ": 5306,
      "çİ»çĴĥ": 5307,
      "å½ķéŁ³": 5308,
      "æĤ²": 5309,
      "ä¸įåĪ°": 5310,
      "åħļçļĦ": 5311,
      "ran": 5312,
      "èŁ": 5313,
      "å¾·å°Ķ": 5314,
      "çİ°å®ŀ": 5315,
      "ä¼łåªĴ": 5316,
      "ç¿ħ": 5317,
      "çĽĳçĭ±": 5318,
      "00å¹´": 5319,
      "æĭ¼": 5320,
      "æĭĸ": 5321,
      "åĩºåıĳ": 5322,
      "åĪ©æĸ¯": 5323,
      "ä¼ļä¸Ĭ": 5324,
      "æİ¥æĶ¶": 5325,
      "ä¹¦éĻ¢": 5326,
      "åħ¸ç¤¼": 5327,
      "èķ¾": 5328,
      "æ·ĺæ±°": 5329,
      "æĹ¥æľŁ": 5330,
      "ä»Ĭå¤©": 5331,
      "éĢ¼": 5332,
      "åİŁå§ĭ": 5333,
      "æ¸ħåįİ": 5334,
      "åįģäºĮå¹´": 5335,
      "åİŁä½ıæ°ĳ": 5336,
      "åįĩä»»": 5337,
      "éĵ¶çīĮ": 5338,
      "é£Łåĵģ": 5339,
      "19ä¸ĸçºª": 5340,
      "æĸ¯é¡¿": 5341,
      "èģĮä½į": 5342,
      "æĸĲ": 5343,
      "å¯ĵ": 5344,
      "åıĳæĺİ": 5345,
      "85": 5346,
      "ç«ĭæĸ¹": 5347,
      "ä»ĸä¹Ł": 5348,
      "å¸ĥèİ±": 5349,
      "æĹ¥æ²»": 5350,
      "æĳ§": 5351,
      "æĤ£èĢħ": 5352,
      "å·¢": 5353,
      "å·²æľī": 5354,
      "ç¡®è¯ĬçĹħä¾ĭ": 5355,
      "åħįè´¹": 5356,
      "ç¨»": 5357,
      "ort": 5358,
      "é±¼ç±»": 5359,
      "äºļåİĨå±±å¤§": 5360,
      "åľ¨ä¸Ģ": 5361,
      "æİ¨å¹¿": 5362,
      "å½ĵåľ°çļĦ": 5363,
      "æı´åĬ©": 5364,
      "ian": 5365,
      "ev": 5366,
      "è¿ĳå¹´": 5367,
      "åĨľæĿĳ": 5368,
      "çļĦè®¾è®¡": 5369,
      "äº²çİĭ": 5370,
      "ED": 5371,
      "åº¦çļĦ": 5372,
      "è¥¿åħ°": 5373,
      "ç»´åŁĥ": 5374,
      "èĢĥåı¤": 5375,
      "Ġå½ĵ": 5376,
      "èĢĮä¸įæĺ¯": 5377,
      "åī¯ä¸»ä»»": 5378,
      "äº§çĶŁçļĦ": 5379,
      "æľīæľº": 5380,
      "å¼łä¸ĵè¾ĳ": 5381,
      "åĿĿ": 5382,
      "ç¥ł": 5383,
      "çĻĮ": 5384,
      "1980å¹´": 5385,
      "ç«ŀéĢī": 5386,
      "63": 5387,
      "åī¯ä¸»å¸Ń": 5388,
      "æĺ¾èĳĹ": 5389,
      "åľ¨ä¸Ń": 5390,
      "çĶŁæĪĲ": 5391,
      "çĶ±æŃ¤": 5392,
      "åı¸é©¬": 5393,
      "ç»³": 5394,
      "æīĢè°ĵ": 5395,
      "çĲ¼": 5396,
      "å¿į": 5397,
      "å¹³åİŁ": 5398,
      "å¤©çļĩ": 5399,
      "æĶ¹åĲįä¸º": 5400,
      "åħ¬åħĥåīį": 5401,
      "ä¾ĿçĦ¶": 5402,
      "åĸľåī§": 5403,
      "æłĭ": 5404,
      "è£ħé¥°": 5405,
      "æĺŃåĴĮ": 5406,
      "çĲĨè§£": 5407,
      "åıĳåĬ¨æľº": 5408,
      "ç§°ä½ľ": 5409,
      "è½¬æį¢": 5410,
      "é¾Ļæ±Ł": 5411,
      "179": 5412,
      "åį±éĻ©": 5413,
      "æĺ¯å¾·åĽ½": 5414,
      "ç»Īäºİ": 5415,
      "åľŃ": 5416,
      "ä¸Ģè¯į": 5417,
      "å±±åĮº": 5418,
      "éĤ£ä¹Ī": 5419,
      "Ġ2025å¹´": 5420,
      "æ¸¸è¡Į": 5421,
      "éĿłè¿ĳ": 5422,
      "å¿Ļ": 5423,
      "ç©ºä¸Ń": 5424,
      "é¹¤": 5425,
      "120": 5426,
      "çļĦæĪĲåĳĺ": 5427,
      "å®Įå·¥": 5428,
      "è´§å¸ģ": 5429,
      "ä¿®å¤į": 5430,
      "éļĶç¦»": 5431,
      "åĩĿ": 5432,
      "72": 5433,
      "åľ°å¸¦": 5434,
      "ä¸Īå¤«": 5435,
      "Al": 5436,
      "æł¡åĽŃ": 5437,
      "ç¡®ä¿Ŀ": 5438,
      "ä½ĵèĤ²åľº": 5439,
      "2001å¹´äººåı£": 5440,
      "è¿ĽæŃ¥": 5441,
      "èĥ½æºĲ": 5442,
      "éĩĩè®¿": 5443,
      "è¿ĲçĶ¨": 5444,
      "æīĢæľīçļĦ": 5445,
      "å¤ļå°Ķ": 5446,
      "äºĶæľĪ": 5447,
      "æīĵç®Ĺ": 5448,
      "1983å¹´": 5449,
      "æ½ľèīĩ": 5450,
      "çĿ¡": 5451,
      "å¢ŀå¼º": 5452,
      "æľ¬çīĩ": 5453,
      "å¾·åįİ": 5454,
      "ive": 5455,
      "çŁĽ": 5456,
      "èĴ¸": 5457,
      "184": 5458,
      "æ°´åºĵ": 5459,
      "åĽĽåįģ": 5460,
      "æ¯ĶåĪ©æĹ¶": 5461,
      "ä¼ļåĳĺ": 5462,
      "åį¡ç½Ĺ": 5463,
      "çłģå¤´": 5464,
      "ä¹īå¤§åĪ©": 5465,
      "é²¤": 5466,
      "æĴ°åĨĻ": 5467,
      "èĻ¹": 5468,
      "å¯¹æĸ¹": 5469,
      "å¾ĹåĲį": 5470,
      "éĢļä¿¡": 5471,
      "æĭ¿ä¸ĭ": 5472,
      "æł½": 5473,
      "æ³ķçļĦ": 5474,
      "æĸ¯æĭīå¤«": 5475,
      "æī§æĶ¿": 5476,
      "éĢĤåĲĪ": 5477,
      "æĭĨéĻ¤": 5478,
      "å§Ĭ": 5479,
      "æĸ¯æīĺ": 5480,
      "ä¹Łå°±æĺ¯": 5481,
      "å»ºç«ĭäºĨ": 5482,
      "è©¹å§Ĩæĸ¯": 5483,
      "èĴĻçī¹": 5484,
      "åĲģ": 5485,
      "æ´¾åĩº": 5486,
      "Ġç¾İåĽ½": 5487,
      "èµĦæľ¬": 5488,
      "çŁ³æ²¹": 5489,
      "å±±ä¸ľçľģ": 5490,
      "å¤§ä¼Ĺ": 5491,
      "èĢĲ": 5492,
      "æ³¢ç½Ĺ": 5493,
      "1987å¹´": 5494,
      "åĨħæĪĺ": 5495,
      "ä¹¦ç±į": 5496,
      "åĬŀçĲĨ": 5497,
      "åĪĻä¸º": 5498,
      "æĮĩç¤º": 5499,
      "ER": 5500,
      "åĽ´ç»ķ": 5501,
      "IS": 5502,
      "Ġç¬¬": 5503,
      "åīĬ": 5504,
      "å¸Ĥä¸Ńå¿ĥ": 5505,
      "å¼ıçļĦ": 5506,
      "ç¿Ķ": 5507,
      "87": 5508,
      "Ġæĸ°": 5509,
      "ä½Ľç½Ĺ": 5510,
      "è´µå·ŀ": 5511,
      "IC": 5512,
      "è®¤è¯Ĩ": 5513,
      "å»ºçŃĳçī©": 5514,
      "çķĻåľ¨": 5515,
      "æ³¡": 5516,
      "æĪĲå¹´": 5517,
      "æ³ķåºŃ": 5518,
      "å¤©çĦ¶": 5519,
      "åİĺç±³": 5520,
      "åĩºåħ¥åı£": 5521,
      "61": 5522,
      "ric": 5523,
      "æĺ¯ä¸Ģåº§": 5524,
      "èĸĽ": 5525,
      "æİĪæĿĥ": 5526,
      "åľĨå½¢": 5527,
      "é¦ĸçĽ¸": 5528,
      "æĶ¹åĪ¶": 5529,
      "ç®¡çĲĨå±Ģ": 5530,
      "Ġåħ¶ä»ĸ": 5531,
      "äº¥": 5532,
      "ä¸Ģæŀļ": 5533,
      "åłĨ": 5534,
      "è¾¹å¢ĥ": 5535,
      "æĿĢå®³": 5536,
      "ç»¿èī²": 5537,
      "èĩªæĿĢ": 5538,
      "å°Ĩåľ¨": 5539,
      "éĶĢéĩı": 5540,
      "å¸¸è§ģçļĦ": 5541,
      "ĠCh": 5542,
      "AP": 5543,
      "2000": 5544,
      "æĶ¶éĽĨ": 5545,
      "ãĥ»": 5546,
      "èĢĮæ°´åŁŁéĿ¢ç§¯ä¸º0": 5547,
      "ÃĹ": 5548,
      "éĹ¸": 5549,
      "æĦıåĳ³": 5550,
      "çĽĨ": 5551,
      "æĺİæĺŁ": 5552,
      "åĲĦèĩª": 5553,
      "è¾½å®ģ": 5554,
      "Ġ9": 5555,
      "ä»¥åįĹ": 5556,
      "åĪĨæĶ¯": 5557,
      "æĢģåº¦": 5558,
      "æľĢä½İ": 5559,
      "160": 5560,
      "å¤§éĢī": 5561,
      "ä¸ŃåĽ½çļĦ": 5562,
      "è®°å¿Ĩ": 5563,
      "und": 5564,
      "åĿļæĮģ": 5565,
      "åĲīæŀĹ": 5566,
      "åĪĨè£Ĥ": 5567,
      "åĲĮæĢ§": 5568,
      "æł¼æĭī": 5569,
      "éķ¿å®ĺ": 5570,
      "å¤«åį¡": 5571,
      "çĬ¹å¤ªäºº": 5572,
      "89": 5573,
      "æĸĭ": 5574,
      "èŃ¦åĳĬ": 5575,
      "6äºº": 5576,
      "è¾¾å°Ķ": 5577,
      "ä»ĬæĹ¥": 5578,
      "ä¸ĭè¾ĸçļĦä¸Ģä¸ª": 5579,
      "æĬĵ": 5580,
      "æ±Ŀ": 5581,
      "åĽ½æ°ĳæĶ¿åºľ": 5582,
      "1ä¾ĭ": 5583,
      "èģĶåĲĪä¼ļ": 5584,
      "èĥº": 5585,
      "å®¶ä¸Ń": 5586,
      "å¹³æ°ĳ": 5587,
      "æŁ´æ²¹": 5588,
      "åĲĦç±»": 5589,
      "æĹ¨åľ¨": 5590,
      "èĪŁ": 5591,
      "ç§ĳåŃ¦å®¶": 5592,
      "Ġn": 5593,
      "èĢĮè¯¥åľ°": 5594,
      "è¿ŀä»»": 5595,
      "æµĻæ±Łçľģ": 5596,
      "çļĦåĲİ": 5597,
      "çİĩä¸º": 5598,
      "å¼Łå¼Ł": 5599,
      "å¹¶è¢«": 5600,
      "å¿ħè¦ģ": 5601,
      "åĪĨåĪ«æĺ¯": 5602,
      "ä¸ŀ": 5603,
      "çŃīçº§": 5604,
      "æłª": 5605,
      "åı¯ä»¥åľ¨": 5606,
      "å±Ī": 5607,
      "ä»¥ä¸º": 5608,
      "å¥¹ä»¬": 5609,
      "çļĦäºĭ": 5610,
      "æĶ¯æµģ": 5611,
      "Ġé¦Ļæ¸¯": 5612,
      "åī§éĽĨ": 5613,
      "æĹħè¡Į": 5614,
      "âĢĻ": 5615,
      "åħĭæŀĹ": 5616,
      "è¿Ļé¦ĸ": 5617,
      "äº²èĩª": 5618,
      "1982å¹´": 5619,
      "æĪĲç«ĭçļĦ": 5620,
      "æ¯Ľæ³½": 5621,
      "ç¤ģ": 5622,
      "èİ±èĮµ": 5623,
      "æ»¨æµ·": 5624,
      "æĺ¯é¦Ļæ¸¯": 5625,
      "æĬ±": 5626,
      "äº¤æį¢": 5627,
      "æĭ¨": 5628,
      "é»Ħèī²": 5629,
      "éĴ»": 5630,
      "è§ĦèĮĥ": 5631,
      "5äºº": 5632,
      "æĸ¯æ´Ľ": 5633,
      "å´©": 5634,
      "iv": 5635,
      "Ġä»ĸ": 5636,
      "ĠæĪªèĩ³": 5637,
      "å¹½": 5638,
      "æ¶Īå¤±": 5639,
      "å®°": 5640,
      "é»ĳé¾Ļæ±Ł": 5641,
      "çłĤ": 5642,
      "å°¤åħ¶æĺ¯": 5643,
      "èĪªå¤©": 5644,
      "åįłåľ°": 5645,
      "ä¸ºæŃ¤": 5646,
      "å·¥ç¨ĭå¸Ī": 5647,
      "è¿Ŀåıį": 5648,
      "åĳ¼åĲģ": 5649,
      "æĳ§æ¯ģ": 5650,
      "ä¸Ĭå¸Ĥ": 5651,
      "çº§åĪ«": 5652,
      "æĦŁæŁĵèĢħ": 5653,
      "1920å¹´": 5654,
      "æĦıå¤ĸ": 5655,
      "800": 5656,
      "ç§įæ¤į": 5657,
      "âĶ": 5658,
      "çĭ¼": 5659,
      "æĶ¶èĹı": 5660,
      "çŃ¾çº¦": 5661,
      "è¿¦": 5662,
      "åľ¨197": 5663,
      "æ¬§çĽŁ": 5664,
      "æºĲäºİ": 5665,
      "Ġåī§æĥħ": 5666,
      "åı¸ä»¤éĥ¨": 5667,
      "åŃ¦çļĦ": 5668,
      "éķ¿åŃĲ": 5669,
      "Ġ2007å¹´": 5670,
      "åįĩä¸º": 5671,
      "æĺ¯ä¸Ģéĥ¨": 5672,
      "ce": 5673,
      "æª": 5674,
      "èĭ±åĨĽ": 5675,
      "åį¡æĭī": 5676,
      "åĲīå°Ķ": 5677,
      "å°¼è¥¿äºļ": 5678,
      "man": 5679,
      "éĻª": 5680,
      "å¾·æĭī": 5681,
      "è½¦åİ¢": 5682,
      "è¯¥æĿĳ": 5683,
      "æł¡åĮº": 5684,
      "æ³¢å°Ķ": 5685,
      "å©´": 5686,
      "ä»¥åĮĹ": 5687,
      "çī¹éĩĮ": 5688,
      "æ¸¯åı£": 5689,
      "æ¦Ħ": 5690,
      "ä»»æľŁ": 5691,
      "å¦Ļ": 5692,
      "å®īå¨ľ": 5693,
      "å¾Īå¤§": 5694,
      "1950å¹´": 5695,
      "æ¯Ľæ³½ä¸ľ": 5696,
      "åħ¶å®ŀ": 5697,
      "æŃĮè¯į": 5698,
      "èĦ¸": 5699,
      "å¾ªçİ¯": 5700,
      "åį¸": 5701,
      "ine": 5702,
      "å°Ħåĩ»": 5703,
      "å¯¹åħ¶": 5704,
      "è¿ĻéĩĮ": 5705,
      "å¾ĹåĪ°äºĨ": 5706,
      "ç§ĺä¹¦éķ¿": 5707,
      "ĠæŃ¤å¤ĸ": 5708,
      "æĬ«": 5709,
      "åı¤åħ¸": 5710,
      "èµ°åĲĳ": 5711,
      "äºļåĨĽ": 5712,
      "æİ¥æĽ¿": 5713,
      "é¦ĸåºľ": 5714,
      "æ¼Ķå¥ı": 5715,
      "èĳ£äºĭéķ¿": 5716,
      "JR": 5717,
      "ber": 5718,
      "çļĦåĦ¿åŃĲ": 5719,
      "ä¼½": 5720,
      "æĢ§èĥ½": 5721,
      "é©¬æĸ¯": 5722,
      "åľºæīĢ": 5723,
      "çĭŃ": 5724,
      "ï¼ħ": 5725,
      "é¡ºåĪ©": 5726,
      "ID": 5727,
      "åĴĸ": 5728,
      "å®¡æŁ¥": 5729,
      "å¤§å°ı": 5730,
      "éĺ²æŃ¢": 5731,
      "çĶŁæ´»ä¹łæĢ§": 5732,
      "åĮºè®®ä¼ļ": 5733,
      "ç¦ħ": 5734,
      "å¼ºåº¦": 5735,
      "åĽļ": 5736,
      "é¦ĸä½į": 5737,
      "å¯®": 5738,
      "æĪĲéķ¿": 5739,
      "è¢ĭ": 5740,
      "å·ŀåĪºåı²": 5741,
      "ç¥ŀè¯Ŀ": 5742,
      "ä¸»ä¹īèĢħ": 5743,
      "å«ģ": 5744,
      "å¤§åį«": 5745,
      "ç«ĭåľº": 5746,
      "74": 5747,
      "äºĮæĪĺ": 5748,
      "ä»ķ": 5749,
      "éĥ¨çĶµå½±": 5750,
      "ç´¯è®¡": 5751,
      "âĶĢ": 5752,
      "çļĦéŁ³ä¹Ĳ": 5753,
      "æĭ±": 5754,
      "å¸ĤæĶ¿åºľ": 5755,
      "çī¹æĭī": 5756,
      "éĢĶä¸Ń": 5757,
      "è·Łéļı": 5758,
      "å®Ľ": 5759,
      "éĽį": 5760,
      "å¾Ĺä¸»": 5761,
      "é¢Ĩäºĭ": 5762,
      "åķĨåĵģ": 5763,
      "åįģä¹Ŀ": 5764,
      "åŁ¹è®Ń": 5765,
      "ä¸»åľº": 5766,
      "é¦ĸå¸Ń": 5767,
      "æıĲåıĬ": 5768,
      "AN": 5769,
      "æķ°ä½į": 5770,
      "åĲĦåĽ½": 5771,
      "(,;": 5772,
      "ç¼©åĨĻ": 5773,
      "çĤī": 5774,
      "åıĹæ¬¢è¿İ": 5775,
      "æł¹å»·": 5776,
      "ON": 5777,
      "çļĦéĥ¨åĪĨ": 5778,
      "çļĦç¬¬äºĮ": 5779,
      "ä¸¤èĢħ": 5780,
      "é¦ĸæĴŃ": 5781,
      "ä½Ĩä»ĸ": 5782,
      "å¸ĥéĩĮ": 5783,
      "æ±Łèĭıçľģ": 5784,
      "æĪĲäºº": 5785,
      "èĤĮ": 5786,
      "åģľéĿł": 5787,
      "7äºº": 5788,
      "çļĦå¥³": 5789,
      "åĲ¹": 5790,
      "å°¼å°Ķ": 5791,
      "ä½¿åħ¶": 5792,
      "1Ġ": 5793,
      "ä¸ºåħ¶": 5794,
      "çĤ¹çļĦ": 5795,
      "éĿ¢ä¸´": 5796,
      "éķ¿æ±Ł": 5797,
      "éĻ·åħ¥": 5798,
      "çĶŁæ´»ä¹łæĢ§ä¸įæĺİ": 5799,
      "è¾Ł": 5800,
      "å¾·è¯Ń": 5801,
      "é¼İ": 5802,
      "æ´¾çļĦ": 5803,
      "ä¸Ģåľº": 5804,
      "è¾¨": 5805,
      "éŁµ": 5806,
      "åĩºçīĪç¤¾": 5807,
      "èĢķ": 5808,
      "æľĪçĲĥ": 5809,
      "å°Ĩé¢Ĩ": 5810,
      "ç¦»åŃĲ": 5811,
      "ä¸Ĭåįĩ": 5812,
      "å¾·åĨĽ": 5813,
      "æ£ĺ": 5814,
      "ç½Ĺé©¬å°¼äºļ": 5815,
      "æĥ¨": 5816,
      "èµ«å°Ķ": 5817,
      "åŁĭ": 5818,
      "éķ¿è¾¾": 5819,
      "è¢«æįķ": 5820,
      "èĭ¯": 5821,
      "çĶĺèĤĥ": 5822,
      "çļĦè§Ĵèī²": 5823,
      "èĢĮä¸į": 5824,
      "ä»ħæľī": 5825,
      "çĶ«": 5826,
      "åľºæĻ¯": 5827,
      "ç°": 5828,
      "å·´å°Ķ": 5829,
      "çļĦä¸ĢäºĽ": 5830,
      "æī¿è¯º": 5831,
      "ä¼¼ä¹İ": 5832,
      "çĤ¸å¼¹": 5833,
      "éģ¥": 5834,
      ")ãĢģãĢĬ": 5835,
      "éĽ¾": 5836,
      "å¤©ä½ĵ": 5837,
      "åħļåĳĺ": 5838,
      "çłĶåıĳ": 5839,
      "éĽ·æĸ¯": 5840,
      "ĠèĻ½çĦ¶": 5841,
      "åĲĦä¸ª": 5842,
      "\".": 5843,
      "æ¯ıæĹ¥": 5844,
      "æĿ¡ä¾ĭ": 5845,
      "2Ġ": 5846,
      "io": 5847,
      "æĺ¯ä¹Įåħĭåħ°": 5848,
      "åħ¬æĸ¤": 5849,
      "åīįåĲİ": 5850,
      "æķ°çļĦ": 5851,
      "å¸Ĳ": 5852,
      "èĢĥè¯ķ": 5853,
      "å¤ĸäº¤éĥ¨": 5854,
      "éħįå¤ĩ": 5855,
      "åľ¨åı°æ¹¾": 5856,
      "è¾¹ç¼ĺ": 5857,
      "åĬłåĪ©ç¦ı": 5858,
      "éģĵå¾·": 5859,
      "è¹Ī": 5860,
      "éħ·": 5861,
      "çĪ±æĥħ": 5862,
      "ä¼ļè®®åĳĺ": 5863,
      "ä¸¤ä¾§": 5864,
      "æ¡Ĩ": 5865,
      "å¸¸åĬ¡": 5866,
      "æĶ¯ä»ĺ": 5867,
      "äººæ°ĳå¸ģ": 5868,
      "èıĬ": 5869,
      "ark": 5870,
      "æ¸¸æĪıçļĦ": 5871,
      "æ²¿éĿ©": 5872,
      "æĬµæĬĹ": 5873,
      "åľ°è´¨": 5874,
      "å¹¶çĶ±": 5875,
      "æĸĩæĺİ": 5876,
      "ç§¯åĪĨ": 5877,
      "åĩºçİ°äºĨ": 5878,
      "ĠèĥĮæĻ¯": 5879,
      "ä¸ĢåĪĩ": 5880,
      "åįģæľĪ": 5881,
      "åĮħåĽ´": 5882,
      "çĽĳå¯Ł": 5883,
      "åħ¬å¼ĢèµĽ": 5884,
      "å¤¹": 5885,
      "ä¸Ģå°ıæĹ¶": 5886,
      "æĪĲäºĨ": 5887,
      "æľ¬äºº": 5888,
      "åı¦ä¸Ģæĸ¹éĿ¢": 5889,
      "è¥¿ä¾§": 5890,
      "å¹³è¡¡": 5891,
      "äºİ192": 5892,
      "æĢĢçĸĳ": 5893,
      "ä¸ŃåĽ½å¤§éĻĨçļĦ": 5894,
      "åĮºåĨħ": 5895,
      "å¤ļäºº": 5896,
      "äºīåıĸ": 5897,
      "ç¦ıå·ŀ": 5898,
      "è¾ŀèģĮ": 5899,
      "çļĦä½įç½®": 5900,
      "çĶŁåŃĺ": 5901,
      "å¼Ģå¹ķ": 5902,
      "è¨Ģè®º": 5903,
      "èĥĨ": 5904,
      "éĥ½åľ¨": 5905,
      "é¢Ĩåľ°": 5906,
      "Ġ12": 5907,
      "åı¯è§ģ": 5908,
      "åĿĤ": 5909,
      "èĤł": 5910,
      "ä¼¯çĪµ": 5911,
      "è¤": 5912,
      "Ġä¸ŃåĽ½": 5913,
      "åľ¨èĭ±åĽ½": 5914,
      "è®¾äºİ": 5915,
      "å¼ıæľĪåı°": 5916,
      "æĮģæľī": 5917,
      "å·¡æ´ĭ": 5918,
      "åŃķ": 5919,
      "åľ°åĲį": 5920,
      "æīĭæľ¯": 5921,
      "åºĨç¥Ŀ": 5922,
      "our": 5923,
      "çĲīçĲĥ": 5924,
      "1åı·": 5925,
      "å·¥ä½ľå®¤": 5926,
      "æī£": 5927,
      "åĲ«æľī": 5928,
      "æ±¡æŁĵ": 5929,
      "åıĳæĮ¥": 5930,
      "æīĢéĩĩçĶ¨": 5931,
      "èĭ±éĩĮ": 5932,
      "å¥ĭ": 5933,
      "éĺ¿æł¹å»·": 5934,
      "æĬ¥çº¸": 5935,
      "æ²ª": 5936,
      "æ£Ģå¯Ł": 5937,
      "è¤Ĳ": 5938,
      "æīģ": 5939,
      "åıĳè¨Ģ": 5940,
      "éĺ¿éĩĮ": 5941,
      "çŃĸçķ¥": 5942,
      "åĤ¬": 5943,
      "é¼ĵåĬ±": 5944,
      "178": 5945,
      "èĥľåĩº": 5946,
      "çŁŃæļĤ": 5947,
      "éļĭ": 5948,
      "çıĢ": 5949,
      "åħ¶ä¸Ńä¸Ģ": 5950,
      "çº¿ä¸Ĭ": 5951,
      "è¶³å¤Ł": 5952,
      "é¢ĳçİĩ": 5953,
      "é¡·": 5954,
      "æıĲè®®": 5955,
      "æİ¨èįĲ": 5956,
      "çĪ±å¾·åįİ": 5957,
      "èīºæľ¯å®¶": 5958,
      "åĲ§": 5959,
      "ç«ĻçļĦ": 5960,
      "ice": 5961,
      "Ġæį®": 5962,
      "è¥Ħ": 5963,
      "åĪĻåľ¨": 5964,
      "åıĺä¸º": 5965,
      "è°Ń": 5966,
      "é¢ģåıĳ": 5967,
      "åĩĮæĻ¨": 5968,
      "è¯±": 5969,
      "ç¬¦åı·": 5970,
      "éĹ²": 5971,
      "åĩºåĶ®": 5972,
      "ä¸ľä¾§": 5973,
      "è¾¾å·ŀ": 5974,
      "å¤§èģĶçĽŁ": 5975,
      "åħĭå°Ķ": 5976,
      "å§ĭå»ºäºİ": 5977,
      "åįķçĭ¬": 5978,
      "èĵĿèī²": 5979,
      "Ġæľī": 5980,
      "æĮĸ": 5981,
      "çĻ»åľº": 5982,
      "åħ¶ä¸ŃçĶ·æĢ§": 5983,
      "Ġåľ°æĸ¹": 5984,
      "çº¤": 5985,
      "æĪĲå°±": 5986,
      "ä¸īæľĪ": 5987,
      "éĢıéľ²": 5988,
      "åĩī": 5989,
      "åĶĲæľĿ": 5990,
      "oh": 5991,
      "æĪĺå£«": 5992,
      "åľºåľ°": 5993,
      "æµ·å¹³éĿ¢": 5994,
      "ä¿ĦåĽ½": 5995,
      "ä½įäºİä¸ŃåĽ½": 5996,
      "åĻ¨çļĦ": 5997,
      "éĻĦå±ŀ": 5998,
      "éĢĤåºĶ": 5999,
      "å¢ĥåĨħåħ±æľī": 6000,
      "åľ¨196": 6001,
      "äºļçĽ®": 6002,
      "è½¦éĺŁ": 6003,
      "åĨĻä½ľ": 6004,
      "èµŀåĬ©": 6005,
      "ç¬¬ä¹Ŀ": 6006,
      "çĽ´å¾Ħ": 6007,
      "å¼ĹéĩĮ": 6008,
      "è¿½æº¯": 6009,
      "é¢ģå¥ĸ": 6010,
      "åĩŃåĢŁ": 6011,
      "éĿĴå²Ľ": 6012,
      "å°Ķå¤«": 6013,
      "è¥¿æİ¥": 6014,
      "é¢Ī": 6015,
      "åĪ¶çīĩ": 6016,
      "æ®ĸæ°ĳåľ°": 6017,
      "æīĢå¤ĦçļĦ": 6018,
      "æł¼ä¸º": 6019,
      "åı²å¯Ĩ": 6020,
      "æ²³çļĦ": 6021,
      "1958å¹´": 6022,
      "æĽ¿ä»£": 6023,
      "èģĶç»ľ": 6024,
      "èº«åĪĨ": 6025,
      "èĸª": 6026,
      "Window": 6027,
      "äººåı£ä¸º": 6028,
      "é¹ħ": 6029,
      "äºİ2016å¹´": 6030,
      "Ġ0": 6031,
      "çļĦå½¢å¼ı": 6032,
      "æ°¨": 6033,
      "åħ¬äº¤": 6034,
      "ä»ĸä»¬åľ¨": 6035,
      "æŃ£éĿ¢": 6036,
      "åĽĽæľĪ": 6037,
      "åĢ¾åĲĳ": 6038,
      "åĲŀ": 6039,
      "æĿĳèĲ½": 6040,
      "ff": 6041,
      "ä¸¤ä½į": 6042,
      "æĻ®é²ģ": 6043,
      "èħĶ": 6044,
      "æ£ķ": 6045,
      "æľªæľī": 6046,
      "ä¸Ńåįİäººæ°ĳåħ±åĴĮåĽ½æĶ¿æ²»äººçī©": 6047,
      "æĹłçĹĩçĬ¶": 6048,
      "1948å¹´": 6049,
      "åįļå£«åŃ¦ä½į": 6050,
      "sh": 6051,
      "çļĦæĸ¹æ³ķ": 6052,
      "æĽ°": 6053,
      "æ±īæĹı": 6054,
      "æ²³åįĹçľģ": 6055,
      "éĽĨåĲĪ": 6056,
      "æ¸¸åĩ»": 6057,
      "è¶³åįı": 6058,
      "å®£ç§°": 6059,
      "çļĦæĢ»": 6060,
      "æĸ¥": 6061,
      "å¥¶": 6062,
      "å½ĵæĹ¥": 6063,
      "æŃ£ç¡®": 6064,
      "\"),": 6065,
      "93": 6066,
      "åĬ²": 6067,
      "å¿ĺ": 6068,
      "ç§ĳå°Ķ": 6069,
      "86": 6070,
      "92": 6071,
      "å·¡æ´ĭèĪ°": 6072,
      "An": 6073,
      "åľ¨ä»ĸ": 6074,
      "é«ĺè¾¾": 6075,
      "å¤©åĲİ": 6076,
      "é¢Ħç®Ĺ": 6077,
      "åĲ¸æĶ¶": 6078,
      "éķ¿æ²Ļ": 6079,
      "æī©å¼ł": 6080,
      "ç«ŀèµĽ": 6081,
      "å½ĵéĢīä¸º": 6082,
      "Ġ2006å¹´": 6083,
      "åľ¨æĸ°": 6084,
      "åĨķ": 6085,
      "åĽ½åĨĽ": 6086,
      "åı¤èĢģ": 6087,
      "éºŁ": 6088,
      "73": 6089,
      "æĺ¯åĽłä¸º": 6090,
      "æµ·æĭĶä¸º": 6091,
      "ç§ĳçļĦåħ¶ä¸Ńä¸Ģç§į": 6092,
      "åĽĬ": 6093,
      "æĹ¶åĢĻ": 6094,
      "æ³ķè¯Ń": 6095,
      "æĪĳçļĦ": 6096,
      "è¶³çĲĥéĺŁ": 6097,
      "ly": 6098,
      "æĸĩèīº": 6099,
      "åī§åľº": 6100,
      "æ¯ıå¤©": 6101,
      "000äºº": 6102,
      "åŁ¹åħ»": 6103,
      "çĲª": 6104,
      "åħ¬åĳĬ": 6105,
      "è¥¿éĩĮ": 6106,
      "Ġåľ£": 6107,
      "åĲ»": 6108,
      "èĪŀè¹Ī": 6109,
      "æľºçļĦ": 6110,
      "éĴĵ": 6111,
      "å·²çŁ¥": 6112,
      "åĨ³è®®": 6113,
      "å¹²éĥ¨": 6114,
      "ith": 6115,
      "èľľ": 6116,
      "æ°Ķåİĭ": 6117,
      "ç¢§": 6118,
      "ç¾İåĽ½çļĦ": 6119,
      "æģ©çľģ": 6120,
      "åĪ¶ä½ľçļĦ": 6121,
      "éĿŀæ³ķ": 6122,
      "è±«": 6123,
      "ç¢±": 6124,
      "éŃģ": 6125,
      "ä¸¥æł¼": 6126,
      "éģŃéģĩ": 6127,
      "æķĪåºĶ": 6128,
      "å®´": 6129,
      "èĪ¹åıª": 6130,
      "äºĴçĽ¸": 6131,
      "ry": 6132,
      "è¿Ļé¡¹": 6133,
      "å®īä¸ľ": 6134,
      "çĶµæ°Ķ": 6135,
      "æĹłè®º": 6136,
      "äº«å¹´": 6137,
      "è¶³çĲĥè¿ĲåĬ¨åĳĺ": 6138,
      "éĢĲæŃ¥": 6139,
      "é¸Łç±»": 6140,
      "åīª": 6141,
      "åĪĽå§ĭ": 6142,
      "Ġä¸Ń": 6143,
      "æİł": 6144,
      "æ¼ı": 6145,
      "è®¾è®¡çļĦ": 6146,
      "å¸ĤæĶ¿": 6147,
      "åĲĮæĹ¥": 6148,
      "åĲĪæ³ķ": 6149,
      "è¶ħè¶Ĭ": 6150,
      "åĪĨåĮº": 6151,
      "å§ľ": 6152,
      "å§ĭå»º": 6153,
      "è§Ĩè§ī": 6154,
      "å¤§å¸Ī": 6155,
      "èĢģå¸Ī": 6156,
      "è¶³çĲĥä¿±ä¹Ĳéĥ¨": 6157,
      "åģ¶åĥı": 6158,
      "ç©·": 6159,
      "å¤ĸéĥ¨": 6160,
      "Ġæĺ¯": 6161,
      "æĪĲéĥ½": 6162,
      "åĬłéĢŁ": 6163,
      "å½¢çĬ¶": 6164,
      "åıĳçĶŁåľ¨": 6165,
      "å®¡åĪ¤": 6166,
      "å½ķå½±": 6167,
      "åıĮæīĵ": 6168,
      "uc": 6169,
      "å¤§éĺª": 6170,
      "åĽłåħ¶": 6171,
      "æ£ī": 6172,
      "æļ¨": 6173,
      "é¢Ħæµĭ": 6174,
      "æııç»ĺ": 6175,
      "æł½åŁ¹": 6176,
      "æĿ¥è¶Ĭ": 6177,
      "çĽ´éļ¶": 6178,
      "åĴ¨": 6179,
      "äºİ2015å¹´": 6180,
      "1946å¹´": 6181,
      "çº¦æľī": 6182,
      "ä»İæŃ¤": 6183,
      "ç¾¤ä½ĵ": 6184,
      "ä¸»ä¹īçļĦ": 6185,
      "æıĲåĩºäºĨ": 6186,
      "æķĳæı´": 6187,
      "åħħæ»¡": 6188,
      "åĵĪå°Ķæ»¨": 6189,
      "åĪł": 6190,
      "æĹ¶åĮº": 6191,
      "éĶĲ": 6192,
      "2026å¹´": 6193,
      "æ¸¸å®¢": 6194,
      "åĪĽæĸ°": 6195,
      "æļĸ": 6196,
      "èĭıä¸¹": 6197,
      "ä»ĸæĽ¾ä»£è¡¨": 6198,
      "è·µ": 6199,
      "æİ¥ä»»": 6200,
      "æºĥ": 6201,
      "1981å¹´": 6202,
      "æĵħ": 6203,
      "åģĩè®¾": 6204,
      "å¤ıä»¤æĹ¶éĹ´": 6205,
      "çĲĨå·¥": 6206,
      "æģŃ": 6207,
      "éĤª": 6208,
      "å¯»æ±Ĥ": 6209,
      "çļĦç¾İåĽ½": 6210,
      "éĥ¨ç½²": 6211,
      "æĶ¶åĪ°": 6212,
      "æ¨¡æĭŁ": 6213,
      "è¶ĬæĿ¥è¶Ĭ": 6214,
      "æĸĹäºī": 6215,
      "æĸ©": 6216,
      "æ¯ħ": 6217,
      "ä¸īäºº": 6218,
      "æļĤåģľ": 6219,
      "ç¦ıå»ºçľģ": 6220,
      "å½±åĥı": 6221,
      "èĮħ": 6222,
      "åĽĽå·Ŀçľģ": 6223,
      "âĢĿ)": 6224,
      "èģĶç½ĳ": 6225,
      "åĬłåħ¥äºĨ": 6226,
      "æĺ¯ä¸º": 6227,
      "ç§°åĳ¼": 6228,
      "éĺ¿å°Ķåįĳ": 6229,
      "ä¸¾åĬŀçļĦ": 6230,
      "Ġä¸ĭ": 6231,
      "å¸½": 6232,
      "çĲĨæĥ³": 6233,
      "ont": 6234,
      "éħįç½®": 6235,
      "è¿ģèĩ³": 6236,
      "å¼Ģå§ĭåľ¨": 6237,
      "ç¨Ģ": 6238,
      "è§Ĵåº¦": 6239,
      "åĽ½éĻħæľºåľº": 6240,
      "1979å¹´": 6241,
      "çļĦåĲįåŃĹ": 6242,
      "ç§©": 6243,
      "æĹıç¾¤": 6244,
      "åĽ¾åĥı": 6245,
      "ube": 6246,
      "ä»¥ä¾¿": 6247,
      "183": 6248,
      "è¾ĵåĩº": 6249,
      "çļĦåİŁåĽł": 6250,
      "åľ¨ä¸Ģèµ·": 6251,
      "è¡Įä¸ļ": 6252,
      "å·¥èīº": 6253,
      "æīĭæ®µ": 6254,
      "èªĵ": 6255,
      "æļĤæĹ¶": 6256,
      "åĩ¶": 6257,
      "å»ĸ": 6258,
      "å±łæĿĢ": 6259,
      "ä¸ľæµ·": 6260,
      "çĽ´æĴŃ": 6261,
      "æĺŁçŃīä¸º": 6262,
      "ä¼ĬåĪ©": 6263,
      "ç»Ħç»ĩçļĦ": 6264,
      "ä¾Ŀèµĸ": 6265,
      "äºİ2014å¹´": 6266,
      "èģļéĽĨ": 6267,
      "åĲİè¢«": 6268,
      "åģľè½¦": 6269,
      "æĹłçĹĩçĬ¶æĦŁæŁĵèĢħ": 6270,
      "éĺ¿å°Ķåįĳæĸ¯": 6271,
      "å¸¸å§Ķ": 6272,
      "ä½İäºİ": 6273,
      "æĢķ": 6274,
      "äºİ190": 6275,
      "æīĢåľ¨åľ°": 6276,
      "ç¼´": 6277,
      "ç¹ģæ®ĸ": 6278,
      "èĤºçĤİ": 6279,
      "ens": 6280,
      "è·¯æĺĵæĸ¯": 6281,
      "82": 6282,
      "ä¼ļæľī": 6283,
      "æĸ¯åį¡": 6284,
      "åĪ¶ä½ľäºº": 6285,
      "éĹ»åĲį": 6286,
      "ç«Ł": 6287,
      "æķĻå®Ĺ": 6288,
      "äºĮæľĪ": 6289,
      "èĤ¤": 6290,
      "åħ±åĴĮåħļ": 6291,
      "å¸ĸ": 6292,
      "ç½Ĺä¼¯çī¹": 6293,
      "IP": 6294,
      "ä¸ŃæľĢ": 6295,
      "åĲĮæĹ¶è¯¥åľ°": 6296,
      "5ç±³": 6297,
      "ãĢĭãĢĬ": 6298,
      "ä¾£": 6299,
      "å·¨å¤§": 6300,
      "åĪ¶æĪĲ": 6301,
      "5ä¸ª": 6302,
      "ç»´å¤ļ": 6303,
      "èĲ½æĪĲ": 6304,
      "åıĳè¡ĮçļĦ": 6305,
      "éŀĭ": 6306,
      "åľ¨åĮĹäº¬": 6307,
      "äºİ2012å¹´": 6308,
      "çļĦè¯Ŀ": 6309,
      "åŃ¦ç§ĳ": 6310,
      "å®¤åĨħ": 6311,
      "åĨħéĻĨçľģä»½": 6312,
      "æ¼ł": 6313,
      "äºİ2018å¹´": 6314,
      "ä¿ĿéĻ©": 6315,
      "èĴ²": 6316,
      "çĶ°å¾Ħ": 6317,
      "çº¢åĨĽ": 6318,
      "Ġä¸º": 6319,
      "æľªçŁ¥": 6320,
      "çļĦæĥħ": 6321,
      "å¯ĨåĪĩ": 6322,
      "è´¹çĶ¨": 6323,
      "å°¿": 6324,
      "ç¬¬4": 6325,
      "è®¤åı¯": 6326,
      "æ¶Īéĺ²": 6327,
      "ni": 6328,
      "å¤©åłĤ": 6329,
      "éĺ²ç©º": 6330,
      "è¾ħåĬ©": 6331,
      "è½©": 6332,
      "ä¸»äºĭ": 6333,
      "èĭ±åĳİ": 6334,
      "äº¤ç»Ļ": 6335,
      "çłĶç©¶éĻ¢": 6336,
      "è§Ĥçľĭ": 6337,
      "1978å¹´": 6338,
      "éĤ±": 6339,
      "æīĵçł´": 6340,
      "æ¡¥æ¢ģ": 6341,
      "ä¸»æĮģäºº": 6342,
      "||": 6343,
      "çļĦæĹ¥": 6344,
      "ä¸ĢèģĮ": 6345,
      "ç½Ĺå¾·": 6346,
      "ç¨£": 6347,
      "è®¤è¯ģ": 6348,
      "æľĢé«ĺçļĦ": 6349,
      "èĩªæĪĳ": 6350,
      "è·¯æ®µ": 6351,
      "åĨĴéĻ©": 6352,
      "éĥ¨éĥ¨éķ¿": 6353,
      "çĲĨçĶ±": 6354,
      "å§Ķæīĺ": 6355,
      "äºĶä¸ª": 6356,
      "åķĨåºĹ": 6357,
      "çĶ»å®¶": 6358,
      "çĭ¬ç«ĭçļĦ": 6359,
      "å«©": 6360,
      "ä¼ļè¯ķ": 6361,
      "çī¹åĮº": 6362,
      "äºİ2017å¹´": 6363,
      "æ£ĴçĲĥ": 6364,
      "96": 6365,
      "ai": 6366,
      "âĢĺ": 6367,
      "æĪĺéĺŁ": 6368,
      "èĢ¶ç¨£": 6369,
      "å¡ŀå°Ķç»´äºļ": 6370,
      "8äºº": 6371,
      "äººæĿĥ": 6372,
      "å¥ł": 6373,
      "å·´æĭī": 6374,
      "éĩıåŃĲ": 6375,
      "åī¯ä¹¦è®°": 6376,
      "èģļèĲ½": 6377,
      "å¤©æ°Ķ": 6378,
      "æ¼ĶåĮĸ": 6379,
      "èµĦåĬ©": 6380,
      "èĬĤåº¦": 6381,
      "æŃ¤ç«Ļ": 6382,
      "æĶ¹è¿Ľ": 6383,
      "å¼ĹéĽ·": 6384,
      "Ġç®Ģä»ĭ": 6385,
      "ä»¥ä¸ĬçļĦ": 6386,
      "æĶ¹ç§°": 6387,
      "è¯Ħä¸º": 6388,
      "é£ŁçĶ¨": 6389,
      "æĴ¤éĢĢ": 6390,
      "å¤©æĸĩåı°": 6391,
      "æľ¬ä½ľ": 6392,
      "åĬłåĵ¥": 6393,
      "çĻ¾ä¸ĩ": 6394,
      "ä¸ĭä¸Ģ": 6395,
      "å½±è§Ĩ": 6396,
      "æī©å»º": 6397,
      "æłĹ": 6398,
      "åħ¶ä¸Ńä¸Ģä¸ª": 6399,
      "çļĨä¸º": 6400,
      "çĽ¸åĲĮçļĦ": 6401,
      "èĬĿåĬłåĵ¥": 6402,
      "ç©´": 6403,
      "éĢļçŁ¥": 6404,
      "åİŁåħĪ": 6405,
      "é©¬ä¸ģ": 6406,
      "çĤ¼": 6407,
      "åº§æłĩä¸º": 6408,
      "æ´Ľåħĭ": 6409,
      "è´§è¿Ĳ": 6410,
      "ĠæĽ¾ç¥ĸ": 6411,
      "AS": 6412,
      "ä¸įæķĮ": 6413,
      "ä½įäºİè¯¥": 6414,
      "è½°çĤ¸æľº": 6415,
      "Ġåľ°æĸ¹èµĦæĸĻ": 6416,
      "äººæ°ĳä»£è¡¨å¤§ä¼ļ": 6417,
      "æ¤İ": 6418,
      "æĸ¹éĿ¢çļĦ": 6419,
      "äºİ2013å¹´": 6420,
      "çļĦæĿĳåºĦ": 6421,
      "å¤§å¤«": 6422,
      "èĭ¹": 6423,
      "å±ķçİ°": 6424,
      "çº³åħ¥": 6425,
      "è®¸åı¯": 6426,
      "ç»¥": 6427,
      "çľł": 6428,
      "çī¹æľĹ": 6429,
      "è´§çī©": 6430,
      "çİĭåŃĲ": 6431,
      "åıªè¦ģ": 6432,
      "é¸Ń": 6433,
      "ä¸ºæĸ°": 6434,
      "æĹ¶æĬ¥": 6435,
      "è¿Ļåº§": 6436,
      "ä¼Ĺè®®éĻ¢": 6437,
      "èħ¿": 6438,
      "æ¶µçĽĸ": 6439,
      "Ġäº¤éĢļ": 6440,
      "ç¬¬ä¸Ģä½į": 6441,
      "æĪĺæĸĹæľº": 6442,
      "æł¼å°Ķ": 6443,
      "éľŀ": 6444,
      "çº¦çĳŁ": 6445,
      "åį³å°Ĩ": 6446,
      "åħ«æľĪ": 6447,
      "æĥ³è¦ģ": 6448,
      "æŃ»åĪĳ": 6449,
      "äºİ2019å¹´": 6450,
      "è´¢äº§": 6451,
      "éªļ": 6452,
      "å··": 6453,
      "æľīè®¸å¤ļ": 6454,
      "ä¸įè¦ģ": 6455,
      "ä¸ĥæľĪ": 6456,
      "åģļåĩº": 6457,
      "åıĽä¹±": 6458,
      "ä¸Ĭéĺµ": 6459,
      "æľ¬çº¿": 6460,
      "åĨħèĴĻåı¤": 6461,
      "ç«ŀæĬĢ": 6462,
      "ment": 6463,
      "ug": 6464,
      "ç§°åı·": 6465,
      "1941å¹´": 6466,
      "cn": 6467,
      "ä¸¸": 6468,
      "äºİ2020å¹´": 6469,
      "æĸ¹ä¾¿": 6470,
      "åįģä¸ĥ": 6471,
      "å¨ħ": 6472,
      "èħº": 6473,
      "è½¯ä½ĵ": 6474,
      "åįģä¸Ģå¹´": 6475,
      "å¤ļåĲį": 6476,
      "è¿Ľè¡ĮçļĦ": 6477,
      "æľįè£ħ": 6478,
      "éģŃåıĹ": 6479,
      "è¿Ľåħļ": 6480,
      "ä¹¦ä¸Ń": 6481,
      "åįķåħĥ": 6482,
      "èħĵ": 6483,
      "åĲĮæĹ¶ä¹Ł": 6484,
      "åĮºéĹ´": 6485,
      ",),": 6486,
      "æ¶Ľ": 6487,
      "æŁ¥çĲĨ": 6488,
      "å·¦ç¿¼": 6489,
      "å¤§ä½¿é¦Ĩ": 6490,
      "éĩįéĩı": 6491,
      "åĽŀå¿Ĩ": 6492,
      "çī¹å°Ķ": 6493,
      "èį¡": 6494,
      "ock": 6495,
      "ä¸ľäºļ": 6496,
      "è°Ĭ": 6497,
      "éĩĳå±±": 6498,
      "è£ģåĪ¤": 6499,
      "åĮºåĪĨ": 6500,
      "èµ·åĪĿ": 6501,
      "å¨¶": 6502,
      "çĽ´åįĩ": 6503,
      "ç¤¾ç¾¤": 6504,
      "åĮĹæµ·éģĵ": 6505,
      "com": 6506,
      "çļĦæĶ¿æ²»": 6507,
      "ä»¥æŃ¤": 6508,
      "è°ĥå¿«": 6509,
      "1944å¹´": 6510,
      "æ²³è°·": 6511,
      "åĨĻéģĵ": 6512,
      "æ¶īå«Į": 6513,
      "ä¹ĭä¸º": 6514,
      "èĲ¥ä¸ļ": 6515,
      "é±¼éĽ·": 6516,
      "åĪĨå¸ĥåľ¨": 6517,
      "Ġåħ¶": 6518,
      "è®¼": 6519,
      "è¯¥çīĩ": 6520,
      "åį«éĺŁ": 6521,
      "éĺ³å¸Ĥ": 6522,
      "æķĮäºº": 6523,
      "æĭīçī¹": 6524,
      "ç©ºè¢Ń": 6525,
      "åįıå®ļ": 6526,
      "162": 6527,
      "ä¸ºUTC": 6528,
      "è¾Ĳå°Ħ": 6529,
      "æĺ¯åı°æ¹¾": 6530,
      "ä»¥ä¸ľ": 6531,
      "éĵĥ": 6532,
      "åł¤": 6533,
      "å¾ģæľį": 6534,
      "ä¼łç»ŁçļĦ": 6535,
      "æ³ķä»¤": 6536,
      "ä½ĨåĽł": 6537,
      "æł¼éĽ·": 6538,
      "åĺīä¹ī": 6539,
      "èŀįåĲĪ": 6540,
      "æ¯Ĺ": 6541,
      "æĬĦ": 6542,
      "ceĠ": 6543,
      "ph": 6544,
      "æİ©": 6545,
      "åıĤæķ°": 6546,
      "è¿ŀè½½": 6547,
      "åĻ¶": 6548,
      "éĿĴå°ĳå¹´": 6549,
      "åıĤè®®éĻ¢": 6550,
      "æ¯ıåĳ¨": 6551,
      "æĪĺæľ¯": 6552,
      "è½¬çļĦ": 6553,
      "éĩįè§Ĩ": 6554,
      "):": 6555,
      "è¥¿æĸ¯": 6556,
      "é¢ĨåħĪ": 6557,
      "ç»ĪçĤ¹": 6558,
      "ç£·": 6559,
      "è§īå¾Ĺ": 6560,
      "97": 6561,
      "9äºº": 6562,
      "æ³ķåħ°åħĭ": 6563,
      "ä»£çļĦ": 6564,
      "èĪĮ": 6565,
      "å¦Ĥä»Ĭ": 6566,
      "æħ°": 6567,
      "è°ĥå¿«ä¸Ģå°ıæĹ¶": 6568,
      "çĢ": 6569,
      "éĥģ": 6570,
      "åı¯åľ¨": 6571,
      "177": 6572,
      "å§Ķåĳĺä¼ļå§Ķåĳĺ": 6573,
      "æ¿Ĵ": 6574,
      "ä¾įéĥİ": 6575,
      "èĩĤ": 6576,
      "æĪĲçĨŁ": 6577,
      "å¸ĥæľĹ": 6578,
      "ç¤¾äº¤": 6579,
      "åį³UTC": 6580,
      "å¡Ķå°Ķ": 6581,
      "è®¾æľīå¤ıä»¤æĹ¶éĹ´": 6582,
      "çļĦæĹ¶åĮºä¸ºUTC": 6583,
      "èĢĮè¯¥åľ°æīĢéĩĩçĶ¨": 6584,
      "åĲĮæĹ¶è¯¥åľ°è®¾æľīå¤ıä»¤æĹ¶éĹ´": 6585,
      "èĢĮè¯¥åľ°æīĢéĩĩçĶ¨çļĦæĹ¶åĮºä¸ºUTC": 6586,
      "ä¸Ģç³»åĪĹ": 6587,
      "è¿Ļåľº": 6588,
      "æ¼Ķè®²": 6589,
      "åį¡æĸ¯": 6590,
      "çļĦæľĢ": 6591,
      "éķĩåĮºçļĦ": 6592,
      "äº¤æ±ĩ": 6593,
      "åįķä¸Ģ": 6594,
      "ä½¿çĶ¨äºĨ": 6595,
      "æ»¡æ´²": 6596,
      "å»¶ç»Ń": 6597,
      "Ġ2005å¹´": 6598,
      "éĢļå¾Ģ": 6599,
      "åŁİçļĦ": 6600,
      "çĥ¯": 6601,
      "çĪµå£«": 6602,
      "ä»İæľª": 6603,
      "åŀĭåı·": 6604,
      "ah": 6605,
      "è´·": 6606,
      "å·¥ä¼ļ": 6607,
      "æĦŁè§ī": 6608,
      "1972å¹´": 6609,
      "ç²īä¸Ŀ": 6610,
      "é«ĺäºİæµ·å¹³éĿ¢": 6611,
      "MV": 6612,
      "son": 6613,
      "ure": 6614,
      "æĢ»çĽĳ": 6615,
      "æį·åħĭ": 6616,
      "110": 6617,
      "15å¹´": 6618,
      "7æľĪ1æĹ¥": 6619,
      "æĮ¡": 6620,
      "è¯¥åħ¬åı¸": 6621,
      "ä½Ļäºº": 6622,
      "æİĴè¡Įæ¦ľ": 6623,
      "ä¼ļè¢«": 6624,
      "åİ¿çŁ¥åİ¿": 6625,
      "çĽ¸å½ĵäºİ": 6626,
      "æīĢå¤ĦçļĦæµ·æĭĶä¸º": 6627,
      "æīĢå¤ĦçļĦæµ·æĭĶä¸ºé«ĺäºİæµ·å¹³éĿ¢": 6628,
      "84": 6629,
      "ä¹ĭå¤Ħ": 6630,
      "éĥ½è¢«": 6631,
      "æŃ£æľĪ": 6632,
      "è¡¥åħħ": 6633,
      "Ġ190": 6634,
      "åº¶": 6635,
      "æľīèĳĹ": 6636,
      "çİ²": 6637,
      "åŃĲå¥³": 6638,
      "ä¸»å¯¼": 6639,
      "éªĹ": 6640,
      "æķĻèĤ²éĥ¨": 6641,
      "ä¼¤äº¡": 6642,
      "å®īå¾½çľģ": 6643,
      "æĸ°åĨł": 6644,
      "å¸Ĩ": 6645,
      "å¤§éĿ©åĳ½": 6646,
      "èģª": 6647,
      "æĦ¤": 6648,
      "ä¿Ŀè¯ģ": 6649,
      "æĻ®ç½Ĺ": 6650,
      "åıĤä¸İäºĨ": 6651,
      "æĹłäººæľº": 6652,
      "ox": 6653,
      "Ġåı°æ¹¾": 6654,
      "å¼ĵ": 6655,
      "åľ°å½¢": 6656,
      "çİ°åŃĺ": 6657,
      "æ°¸ä¹ħ": 6658,
      "700": 6659,
      "æµ·ä¸Ĭ": 6660,
      "æĪĺåľº": 6661,
      "åĲĪåĲĮ": 6662,
      "æł¼éĩĮ": 6663,
      "é²¸": 6664,
      "æĹ©ä¸Ĭ": 6665,
      "1976å¹´": 6666,
      "è¯¦ç»Ĩ": 6667,
      "ç»´å¤ļåĪ©äºļ": 6668,
      "aw": 6669,
      "èįĨ": 6670,
      "åķĨäºº": 6671,
      "äºİ2010å¹´": 6672,
      "çİ°åľ¨çļĦ": 6673,
      "èĦ±ç¦»": 6674,
      "ç»ĺçĶ»": 6675,
      "å²ĽçļĦ": 6676,
      "åħ·å¤ĩ": 6677,
      "å¾Īå°ĳ": 6678,
      "äºĴåĬ¨": 6679,
      "å·ŀéķ¿": 6680,
      "å°¼åı¤": 6681,
      "ord": 6682,
      "å²Ľä¸Ĭ": 6683,
      "çĵ¶": 6684,
      "çĻ»è®°": 6685,
      "1956å¹´": 6686,
      "éĿ¢ä½ĵ": 6687,
      "æ¡Į": 6688,
      "ä¼łæķĻ": 6689,
      "åį³åĮĹç¾İ": 6690,
      "æĮĩæĮ¥å®ĺ": 6691,
      "æĺ¯ä¿Ħç½Ĺæĸ¯": 6692,
      "äºİ2021å¹´": 6693,
      "ç¥¯": 6694,
      "è·¯åı£": 6695,
      "äº¬éĥ½": 6696,
      "è¯ºå¤«": 6697,
      "çļĦæŃĮæĽ²": 6698,
      "æ¾Ħ": 6699,
      "æ©Ħ": 6700,
      "éħ®": 6701,
      "èİ·èĥľ": 6702,
      "åºıåĪĹ": 6703,
      "èĤ¡ä»½æľīéĻĲåħ¬åı¸": 6704,
      "çļĦä¸į": 6705,
      "åľ°äºļ": 6706,
      "éĽĨä½ĵ": 6707,
      "158": 6708,
      "æ¸ł": 6709,
      "æ²³éģĵ": 6710,
      "æİ¢éĻ©": 6711,
      "éķĩåĮºçļĦéĿ¢ç§¯ä¸º": 6712,
      "äº©": 6713,
      "åį³ä½į": 6714,
      ".âĢľ": 6715,
      "ä½ľä¸ļ": 6716,
      "æĽ´å¤ļçļĦ": 6717,
      "æĸ½å·¥": 6718,
      "140": 6719,
      "IT": 6720,
      "åºĩ": 6721,
      "ä»¥è¥¿": 6722,
      "åĲİåľ¨": 6723,
      "åĪĨä¹ĭä¸Ģ": 6724,
      "æµģä¼ł": 6725,
      "ç¿Įå¹´": 6726,
      "94": 6727,
      "äºĨä»ĸ": 6728,
      "æĢ»è£ģ": 6729,
      "éĢīåĩº": 6730,
      "åĪĩå°Ķ": 6731,
      "èļĢ": 6732,
      "ä¼Ĭæĸ¯åħ°æķĻ": 6733,
      "çļĦåıį": 6734,
      "çļĦè¡Įä¸º": 6735,
      "ä¼ŀ": 6736,
      "å§¿": 6737,
      "èĩªç§°": 6738,
      "åĬłå°Ķ": 6739,
      "åĽĽä¸ĸ": 6740,
      "è¾ĸåĮº": 6741,
      "1937å¹´": 6742,
      "æķĪåĬĽäºİ": 6743,
      ".(": 6744,
      "çļĦç¥ŀ": 6745,
      "å§ĳ": 6746,
      "å¤ļæł·": 6747,
      "å¾·æĦıå¿Ĺ": 6748,
      "éĤĳ": 6749,
      "å¤Ħéķ¿": 6750,
      "164": 6751,
      "åįĹæŀģæ´²": 6752,
      "81": 6753,
      "oy": 6754,
      "æĨ": 6755,
      "åĽ½éģĵ": 6756,
      "åħ¬é¡·": 6757,
      "ä¸»åĬ¨": 6758,
      "èĬŃ": 6759,
      "ç§įç±»": 6760,
      "æ©Ħæ¦Ħ": 6761,
      "6ä¸ª": 6762,
      "Go": 6763,
      "çļĦåŁºç¡Ģ": 6764,
      "ç»ĳ": 6765,
      "è¡Įäºº": 6766,
      "èĩ´åĬĽ": 6767,
      "çģŃç»Ŀ": 6768,
      "ä½Ľç½ĹéĩĮ": 6769,
      "ĠæĹ¥æľ¬": 6770,
      "ç»´åŁº": 6771,
      "MA": 6772,
      "ä»Ĩ": 6773,
      "åºļ": 6774,
      "æ³Ħ": 6775,
      "ä»ĸä¸º": 6776,
      "æ»ķ": 6777,
      "éŃĶæ³ķ": 6778,
      "æĿŃå·ŀ": 6779,
      "åĨħåľ°": 6780,
      "äºĮçº§": 6781,
      "æ¤ħ": 6782,
      "äºĴèģĶç½ĳ": 6783,
      "ä¹Łæ²¡æľī": 6784,
      "æľĢä¸º": 6785,
      "å®¹çº³": 6786,
      "ç»ıçĶ±": 6787,
      "å·´åĭĴ": 6788,
      "1952å¹´": 6789,
      "ä¸ľåįĹäºļ": 6790,
      "åľ¨ä½į": 6791,
      "æ±īåŃĹ": 6792,
      "ç¥Ī": 6793,
      "éĢļçĶ¨": 6794,
      "çĽ¸åıį": 6795,
      "çıŃæ¬¡": 6796,
      "çĪ·": 6797,
      "å°ĳå°Ĩ": 6798,
      "km": 6799,
      "æĶ¿åıĺ": 6800,
      "æ°Ķä½ĵ": 6801,
      "1938å¹´": 6802,
      "éĥ¨å°ļä¹¦": 6803,
      "åĩºåľº": 6804,
      "è¢«åĳĬ": 6805,
      "æĶ¹å»º": 6806,
      "æ²¿å²¸": 6807,
      "ä¸İæŃ¤": 6808,
      "1947å¹´": 6809,
      "çĸ«èĭĹ": 6810,
      "å±±è¥¿çľģ": 6811,
      "åħŃæľĪ": 6812,
      "ç¾¤ä¼Ĺ": 6813,
      "Ġv": 6814,
      "åŃ¦ç³»": 6815,
      "ç½©": 6816,
      "åķĨåľº": 6817,
      "157": 6818,
      "ram": 6819,
      "ĠçĶ±": 6820,
      "çļĦç»ĵæŀľ": 6821,
      "ä»¥1": 6822,
      "åį«è§Ĩ": 6823,
      "æ¡£æ¡Ī": 6824,
      "æ¼Ķèīº": 6825,
      "1955å¹´": 6826,
      "ign": 6827,
      "èĭ¹æŀľ": 6828,
      "ook": 6829,
      "çļĦæīĢæľī": 6830,
      "å¹¶æĹł": 6831,
      "æ¸¯åħĥ": 6832,
      "åķ¡": 6833,
      "83": 6834,
      "ie": 6835,
      "çļĦçĶµ": 6836,
      "åĬ£": 6837,
      "æĺ¯ä¸ª": 6838,
      "æĭħå¿ĥ": 6839,
      "æĶ»åįł": 6840,
      "çº§èģĶèµĽ": 6841,
      "æħİ": 6842,
      "Ġä¸ªäºº": 6843,
      "ãĢĭ(\"": 6844,
      "éĢ¸": 6845,
      "å¸ĥéĽ·": 6846,
      "å®ŀä½ĵ": 6847,
      "è¿ŀç»ĵ": 6848,
      "äºİ2011å¹´": 6849,
      "ç¬¬5": 6850,
      "å±±åİ¿": 6851,
      "æĥ§": 6852,
      "æ¸ħæ¥ļ": 6853,
      "é¹ı": 6854,
      "æİ¢ç´¢": 6855,
      "ss": 6856,
      "éķĩåİĭ": 6857,
      "æĻ®é²ģå£«": 6858,
      "ð«": 6859,
      "éķĳ": 6860,
      "éķ¿çº¦": 6861,
      "1980å¹´ä»£": 6862,
      "æł¸éħ¸": 6863,
      "æŀ¶æŀĦ": 6864,
      "è´ª": 6865,
      "çŁ®": 6866,
      "åįķæīĵ": 6867,
      "çĥ·": 6868,
      "å¼ķçĶ¨": 6869,
      "163": 6870,
      "åĢ¼å¾Ĺ": 6871,
      "åĪ¤åĨ³": 6872,
      "æ°ĳè¿Ľåħļ": 6873,
      "èľĤ": 6874,
      "æĺ¯ä¸Ģä¸ªä½įäºİ": 6875,
      "æľŁçļĦ": 6876,
      "é³ŀ": 6877,
      "Ġde": 6878,
      "ä¸Ńå°Ĩ": 6879,
      "çİ°ä¸º": 6880,
      "å¹³çŃī": 6881,
      "å¤©çļĦ": 6882,
      "ç»´åħĭ": 6883,
      "æīĳ": 6884,
      "åĨĽäºº": 6885,
      "å¥³çİĭ": 6886,
      "æ¨±": 6887,
      "çļĦä¸ĢæĿ¡": 6888,
      "è¡ĮæĶ¿éĻ¢": 6889,
      "æĪĲç«ĭäºĨ": 6890,
      "æıĲåĩºçļĦ": 6891,
      "éĴ¢çĲ´": 6892,
      "...": 6893,
      "Ġä¸»è¦ģ": 6894,
      "è´¼": 6895,
      "åħ±è®¡": 6896,
      "æł¼æŀĹ": 6897,
      "æĶ¾åľ¨": 6898,
      "PS": 6899,
      "ib": 6900,
      "åĲįäºº": 6901,
      "è°´": 6902,
      "æĢ»ä¼ļ": 6903,
      "çº³å·ŀ": 6904,
      "ç¦ıå¾·": 6905,
      "lat": 6906,
      "è¸ı": 6907,
      "å½»åºķ": 6908,
      "HD": 6909,
      "per": 6910,
      "äºİ2022å¹´": 6911,
      "åĮĹä¾§": 6912,
      "åĪ©çļĦ": 6913,
      "å®ŀè·µ": 6914,
      "å±ĤçļĦ": 6915,
      "å»ºçŃĳå¸Ī": 6916,
      "åı²å¯Ĩæĸ¯": 6917,
      "éĢ¾": 6918,
      "åİŁä¸º": 6919,
      "æĺŁç³»": 6920,
      "ä¿®éģĵ": 6921,
      "ä¿ĦåĨĽ": 6922,
      "ä¹¡éķĩ": 6923,
      "1968å¹´": 6924,
      "ire": 6925,
      "éĩįè¿Ķ": 6926,
      "äºĶåįģ": 6927,
      "ä¿®è®¢": 6928,
      "å¸Įå°Ķ": 6929,
      "Ġå¯¹": 6930,
      "ä¸ĭäºĨ": 6931,
      "å¤«å¦ĩ": 6932,
      "ä¹ĿæľĪ": 6933,
      "æ²³åĮĹçľģ": 6934,
      "ust": 6935,
      "åĪĨæł¡": 6936,
      "æ±ŁæĪ·": 6937,
      "åĬ³å·¥": 6938,
      "ä¸»åĬĽ": 6939,
      "åĵª": 6940,
      "è¿ªå£«": 6941,
      "åħ¶ä¸º": 6942,
      "çŃĴ": 6943,
      "æĸ°å»º": 6944,
      "åĪĹåĩº": 6945,
      "æ¡ĥåĽŃ": 6946,
      "YouT": 6947,
      "åį¢çĵ¦å°Ķçľģ": 6948,
      "Ġè¥¿": 6949,
      "Ġé©¬": 6950,
      "ä¸Ģéĥ¨": 6951,
      "è¡Įèµ°": 6952,
      "æµ·åįĹ": 6953,
      "ç»´ä¿®": 6954,
      "çªĦ": 6955,
      "èµĶ": 6956,
      "åľ°ä¸Ń": 6957,
      "åįĹä¾§": 6958,
      "è¯¥åħļ": 6959,
      "æł¼é²ģ": 6960,
      "1939å¹´": 6961,
      "çļĦåŁİå¸Ĥ": 6962,
      "çĶ»éĿ¢": 6963,
      "éĻ¨çŁ³": 6964,
      "å¤´è¡Ķ": 6965,
      "æķ´åĲĪ": 6966,
      "äº§çĶŁäºĨ": 6967,
      "äºĭå®ŀä¸Ĭ": 6968,
      "ĠçĽ®åīį": 6969,
      "æķ²": 6970,
      "ä¸»æĿĥ": 6971,
      "èĤ¢": 6972,
      "å¼ķè¿Ľ": 6973,
      "Ġå®¶åºŃ": 6974,
      "åıĹå®³": 6975,
      "å½ķåĪ¶": 6976,
      "å¥½è¯Ħ": 6977,
      "1940å¹´": 6978,
      "çºł": 6979,
      "æĬĽ": 6980,
      "å½ĵä»£": 6981,
      "èĹ»": 6982,
      "ä¼¤å®³": 6983,
      "çĲĨæŁ¥": 6984,
      "å§Ķä»»": 6985,
      "è¯ģåĪ¸": 6986,
      "2åı·": 6987,
      "åĵĪèĲ¨åħĭ": 6988,
      "è¿ªå£«å°¼": 6989,
      "/&": 6990,
      "ä¸ĬäºĨ": 6991,
      "è¾ĥä½İ": 6992,
      "ä»įåľ¨": 6993,
      "åĲĬ": 6994,
      "è°¥": 6995,
      "å¤©ä¸ĭ": 6996,
      "1960å¹´": 6997,
      "1954å¹´": 6998,
      "åĨĢ": 6999,
      "äºİ2023å¹´": 7000,
      "çļĦæĹ¥æľ¬": 7001,
      "èµ·è¯ī": 7002,
      "è®®å¸Ń": 7003,
      "1942å¹´": 7004,
      "èĩªè¡Įè½¦": 7005,
      "ä¸Ģé¡¹": 7006,
      "åĿŁ": 7007,
      "æŃ¤åīį": 7008,
      "ä¼Ĭæĭīåħĭ": 7009,
      "çĽŁåĨĽ": 7010,
      "åĩ¸": 7011,
      "åĮºåĪ«": 7012,
      "éģ®": 7013,
      "ä½¿çĶ¨èĢħ": 7014,
      "çĻ¾å¹´": 7015,
      "åįłæį®": 7016,
      "çļĦè¯´æ³ķ": 7017,
      "æĥ©": 7018,
      "å®ĺèĩ³": 7019,
      "ost": 7020,
      "ĠéĻ¤äºĨ": 7021,
      "ãĢģãĢĬ": 7022,
      "Ġst": 7023,
      "åľ¨åĮĹ": 7024,
      "å¤ļé¡¹": 7025,
      "ä»»æķĻ": 7026,
      "åĶ¯ä¸ĢçļĦ": 7027,
      "åĪ°çļĦ": 7028,
      "ä¹ŁæĽ¾": 7029,
      "çĽ®çļĦæĺ¯": 7030,
      "åĸĩ": 7031,
      "åİĨåı²åŃ¦å®¶": 7032,
      "71": 7033,
      "æĹ¥åĲİ": 7034,
      "èµĽçļĦ": 7035,
      "æĴŀåĩ»": 7036,
      "Sh": 7037,
      "ĠæĿİ": 7038,
      "åĲİæĸ¹": 7039,
      "å°ģä¸º": 7040,
      "è¯Ĺäºº": 7041,
      "æŃī": 7042,
      "è¯ºæĽ¼": 7043,
      "æĥ³æ³ķ": 7044,
      "æľĽè¿ľ": 7045,
      "Ġåīį": 7046,
      "ĠçĦ¶èĢĮ": 7047,
      "Ġæķħäºĭ": 7048,
      "æĪĺåĪĹ": 7049,
      "è®¤åĲĮ": 7050,
      "èĥĮé³į": 7051,
      "ç¬¬ä¸Ģæ¬¡ä¸ĸçķĮå¤§æĪĺ": 7052,
      "çĩĥæĸĻ": 7053,
      "è¢«ä»»åĳ½ä¸º": 7054,
      "æĹłçº¿çĶµè§Ĩ": 7055,
      "çĶľ": 7056,
      "èµ£": 7057,
      "åĪĻæľī": 7058,
      "æŃ¦å¸Ŀ": 7059,
      "1943å¹´": 7060,
      "ĠèĢĮ": 7061,
      "æľµ": 7062,
      "æĶ»æīĵ": 7063,
      "1975å¹´": 7064,
      "å±¥": 7065,
      "æłĩè®°": 7066,
      "çĶ·å¥³": 7067,
      "å®ĮæĪĲäºĨ": 7068,
      "æ¬¡äºİ": 7069,
      "æĥħç»ª": 7070,
      "é£ŁæĢ§": 7071,
      "1970å¹´": 7072,
      "æĲºå¸¦": 7073,
      "åħ¬åĬ¡": 7074,
      "é¢ł": 7075,
      "èĭıç»´åŁĥ": 7076,
      "SS": 7077,
      "è®®é¢ĺ": 7078,
      "æĤł": 7079,
      "å¢ŀåĬłäºĨ": 7080,
      "äºİ2009å¹´": 7081,
      "ç»µ": 7082,
      "åŁİå¢Ļ": 7083,
      "äº¤çķĮ": 7084,
      "èĽĭçĻ½è´¨": 7085,
      "åİ¥": 7086,
      "ä¸Ĭè¯ī": 7087,
      "æĸ¯åł¡": 7088,
      "åĲĮåĲį": 7089,
      "äº¤åıī": 7090,
      "æ¨¡çī¹": 7091,
      "å¡ŀçº³": 7092,
      "è°´è´£": 7093,
      "åľ¨æ³ķåĽ½": 7094,
      "æ¸Ĭ": 7095,
      "éĻ¤æŃ¤": 7096,
      "åį°ç¬¬": 7097,
      "æĦ¿æĦı": 7098,
      "å®ļæľŁ": 7099,
      "èĬĻ": 7100,
      "æ¢¨": 7101,
      "è¿ĺåľ¨": 7102,
      "ç»ıæµİåŃ¦": 7103,
      "ä¹ĭåĲİçļĦ": 7104,
      "åħĪè¿Ľ": 7105,
      "156": 7106,
      "159": 7107,
      "æ¹ĸæ³Ĭ": 7108,
      "ä¸ĭè¾ĸä»¥ä¸ĭ": 7109,
      "çŁĽçĽ¾": 7110,
      "åį§": 7111,
      "çī©åĵģ": 7112,
      "è¯¥æł¡": 7113,
      "çī¹æľĹæĻ®": 7114,
      "æĺ¯ä¸Ńåįİäººæ°ĳåħ±åĴĮåĽ½": 7115,
      "éĤµ": 7116,
      "éĵģè·¯è½¦ç«Ļ": 7117,
      "æĻºæħ§": 7118,
      "å²©çŁ³": 7119,
      "è¿ĩçļĦ": 7120,
      "ç½Ĺå¤«": 7121,
      "åĽ¢ç»ĵ": 7122,
      "åºĶå¯¹": 7123,
      "éĺ³åİ¿": 7124,
      "è°ĭæĿĢ": 7125,
      "ä¸ŃåĽ½åĽ½æ°ĳåħļ": 7126,
      "12æľĪ31æĹ¥": 7127,
      "ä¼Ļä¼´": 7128,
      "çĽ´åįĩæľº": 7129,
      "ge": 7130,
      "å¼Ģå·¥": 7131,
      "åĿł": 7132,
      "çĤŃ": 7133,
      "è¿ĳä»£": 7134,
      "Ar": 7135,
      "Ġä½¿çĶ¨": 7136,
      "äººæ¬¡": 7137,
      "åī¥": 7138,
      "ä»£æĽ¿": 7139,
      "éģĵåħī": 7140,
      "æ²ĻçĶ°": 7141,
      "æľĢæĹ©çļĦ": 7142,
      "çĶŁéķ¿äºİ": 7143,
      "çľģçļĦ": 7144,
      "ond": 7145,
      "æĶ¶è´¹": 7146,
      "ç«ĭæ³ķä¼ļ": 7147,
      "æĹ¥æľ¬çļĦ": 7148,
      "æĶ¹åĪ¶ä¸º": 7149,
      "éĥ½çĿ£": 7150,
      "æıĲäº¤": 7151,
      "å¸¸å¸¸": 7152,
      "æ¸ħä»£": 7153,
      "ä»įæľī": 7154,
      "éĢīä¸¾ä¸Ń": 7155,
      "å¦¹å¦¹": 7156,
      "æľĽè¿ľéķľ": 7157,
      "çº¿æĢ§": 7158,
      "åĽĽå¤§": 7159,
      "ä¸º0": 7160,
      "å¥¸": 7161,
      "çĲĨå¿µ": 7162,
      "çķħ": 7163,
      "æĽ´æį¢": 7164,
      "æĤ¦": 7165,
      "åıĳçĶŁäºĨ": 7166,
      "èı²åĪ©": 7167,
      "å·¨å¤§çļĦ": 7168,
      "ies": 7169,
      "å¼ĢåĬŀ": 7170,
      "éĩĮåħĭ": 7171,
      "çº³å¾·": 7172,
      "ä¸ĵçĶ¨": 7173,
      "åĵĪåĪ©": 7174,
      "éļ¾æ°ĳ": 7175,
      "é¢ģå¸ĥ": 7176,
      "æŀ¢çº½": 7177,
      "éĢ»è¾ĳ": 7178,
      "åį°ç¬¬å®ī": 7179,
      "Sp": 7180,
      "æĮĩæķ°": 7181,
      "æĹ¶ä»£çļĦ": 7182,
      "ä¸ªä½ĵ": 7183,
      "æĶ¹åĲį": 7184,
      "éĻįéĽ¨": 7185,
      "æĹ±": 7186,
      "æ±ŁåįĹ": 7187,
      "az": 7188,
      "ä¸»ç®¡": 7189,
      "çļĦåľ°åĮº": 7190,
      "æĶ¿åĬ¡": 7191,
      "å¯¹éĺµ": 7192,
      "æīĢéľĢ": 7193,
      "çĪ±åĽ½": 7194,
      "æ´Ľæĸ¯": 7195,
      "SM": 7196,
      "lu": 7197,
      "èµĽä¸Ń": 7198,
      "åħ¨ä½ĵ": 7199,
      "è¯ŃéŁ³": 7200,
      "èģĮåĳĺ": 7201,
      "å¼ºåĪ¶": 7202,
      "æ©¡": 7203,
      "ä»¥2": 7204,
      "VD": 7205,
      "iz": 7206,
      "ld": 7207,
      "å¤§éĺŁ": 7208,
      "è¡Įé©¶": 7209,
      "æİĴåĪĹ": 7210,
      "æµİåįĹ": 7211,
      "åıĳçİ°çļĦ": 7212,
      "(;),": 7213,
      "èĤ©": 7214,
      "ä¸ºåŁºç¡Ģ": 7215,
      "ä¸Ģäºº": 7216,
      "åįıåķĨ": 7217,
      "ä¹łæĥ¯": 7218,
      "å´ĸ": 7219,
      "åıĤè°ĭéķ¿": 7220,
      "å¯¹ç§°": 7221,
      "çİ°æľī": 7222,
      "è°ģ": 7223,
      "éĢīç§Ģ": 7224,
      "è½¬ä¸º": 7225,
      "1964å¹´": 7226,
      "è¿·ä½ł": 7227,
      "çļĦåĨħå®¹": 7228,
      "å°ĺ": 7229,
      "æĹ¥å¸¸": 7230,
      "ä¸īåĽ½": 7231,
      "æĥľ": 7232,
      "æł¼åĭĴ": 7233,
      "ä¹¦åĨĻ": 7234,
      "ç½Ĺé©¬å¸ĿåĽ½": 7235,
      "åĪĳäºĭ": 7236,
      "èĸĩ": 7237,
      "ä¸įå¾Ĺä¸į": 7238,
      "åĲĪåĶ±": 7239,
      "æĢ§åĴĮ": 7240,
      "æİ¥èĳĹ": 7241,
      "æł¹æľ¬": 7242,
      "å¤´éĥ¨": 7243,
      "å¥ĸéĩĳ": 7244,
      "åį°åĪ·": 7245,
      "è¥¿çıŃçīĻè¯Ń": 7246,
      "åĴ¨è¯¢": 7247,
      "mer": 7248,
      "æĺ¯ä¸ºäºĨ": 7249,
      "ç«ĭéĻ¶": 7250,
      "çī²": 7251,
      "ä½įçļĦ": 7252,
      "æģ¨": 7253,
      ";/": 7254,
      "ect": 7255,
      "äºĨä»ĸçļĦ": 7256,
      "ãĢĮãĢį": 7257,
      "èµĽè½¦": 7258,
      "æ¢µ": 7259,
      "è½¬ä¼ļ": 7260,
      "è§Ĥåħī": 7261,
      "å¡Ķå°¼": 7262,
      "ich": 7263,
      "èĬĤåº¦ä½¿": 7264,
      "ial": 7265,
      "å¯¹è¯Ŀ": 7266,
      "è°į": 7267,
      "èħ°": 7268,
      "ĠPro": 7269,
      "ä¸¤å²¸": 7270,
      "çĪª": 7271,
      "åĽ¾æ¡Ī": 7272,
      "ä¼ĲåĪ©äºļ": 7273,
      "åĲįè¯į": 7274,
      "è°Ĳ": 7275,
      "åĩĨç¡®": 7276,
      "åĨłçĬ¶": 7277,
      "è®©ä»ĸ": 7278,
      "ä¸Ģå¤©": 7279,
      "åĵĢ": 7280,
      "èĩªæŃ¤": 7281,
      "æŃ¤äºĭ": 7282,
      "é¦ĸåº¦": 7283,
      "é¢ĺæĿĲ": 7284,
      "ä½ıæĪ¿": 7285,
      "130": 7286,
      "çĽĪ": 7287,
      "çĶ¨ä»¥": 7288,
      "ç«ĻæĪ¿": 7289,
      "ç»¼èīº": 7290,
      "Ġ11": 7291,
      "æĢ¡": 7292,
      "çģ«è½¦": 7293,
      "åľ¨è¥¿": 7294,
      "ä»ĸè®¤ä¸º": 7295,
      "å¼¹èį¯": 7296,
      "æĻºèĥ½": 7297,
      "éķľå¤´": 7298,
      "çĥŃå¸¦é£İæļ´": 7299,
      "åŃŁåĬłæĭī": 7300,
      "æ¹ĸåįĹçľģ": 7301,
      "é«ĺåİŁ": 7302,
      "å¤ĸè§Ĥ": 7303,
      "éĵİ": 7304,
      "èĻı": 7305,
      "æĪĲç«ĭåĲİ": 7306,
      "æİ¢æµĭ": 7307,
      "å½ķå½±å¸¦": 7308,
      "èĩĢ": 7309,
      "äºĨè®¸å¤ļ": 7310,
      "ä¸Ĭå¸Ŀ": 7311,
      "åĬ¨è½¦": 7312,
      "è°¦": 7313,
      "èī²å½©": 7314,
      "é¾ĻçļĦ": 7315,
      "äºİ2008å¹´": 7316,
      "é©¬åħĭæĢĿ": 7317,
      "çĽ¸åºĶ": 7318,
      "ç«£": 7319,
      "ç»´ä¹Ł": 7320,
      "ç»§ä»»": 7321,
      "åıĭå¥½": 7322,
      "ç«ĭéĻ¶å®Ľ": 7323,
      "æĪĲæŀľ": 7324,
      "ä½ĵåĪ¶": 7325,
      "ä½ĵéªĮ": 7326,
      "çĿĽ": 7327,
      "çĻ¾ç§ĳ": 7328,
      "è¡įçĶŁ": 7329,
      "250": 7330,
      "å¼Ħ": 7331,
      "ç§ĳä¼ļè¯ķ": 7332,
      "170": 7333,
      "åĲĮæĹ¶ä¹Łæĺ¯": 7334,
      "åĨľåľº": 7335,
      "è¯ĨåĪ«": 7336,
      "çºªå½ķçīĩ": 7337,
      "æĳĩæ»ļ": 7338,
      "èĢĮè¯¥åľ°çļĦ": 7339,
      "çĳľ": 7340,
      "åįĩæł¼ä¸º": 7341,
      "ç¢°": 7342,
      "è´Łè´£äºº": 7343,
      "1936å¹´": 7344,
      "æİĮæı¡": 7345,
      "åĴĸåķ¡": 7346,
      "au": 7347,
      "ä¸ĢæĶ¯": 7348,
      "åīįè¿Ľ": 7349,
      "åİŁæĿ¥": 7350,
      "æĽ¾æĺ¯": 7351,
      "æ·ĳ": 7352,
      "æ±īè¯Ń": 7353,
      "éĿĴæĺ¥": 7354,
      "æŃ¥æŀª": 7355,
      "çŃ¹å¤ĩ": 7356,
      "Ġå¤©": 7357,
      "æ²¼": 7358,
      "ä¸»æīĵ": 7359,
      "èĤĿ": 7360,
      "çŁ¥åºľ": 7361,
      "åįĥç±³": 7362,
      "æĻ¯è§Ĥ": 7363,
      "çº¦çĳŁå¤«": 7364,
      "ç¼Ŀ": 7365,
      "ear": 7366,
      "Ġg": 7367,
      "Ġç¬¬ä¸Ģ": 7368,
      "æľŃ": 7369,
      "ç±³åħ°": 7370,
      "åĪ¤å¤Ħ": 7371,
      "èļģ": 7372,
      "æ¹ĸåĮĹçľģ": 7373,
      "her": 7374,
      "å¤¸": 7375,
      "çłĶç©¶çĶŁ": 7376,
      "ç¼ĸåı·ä¸º": 7377,
      "ä¸»æµģ": 7378,
      "èĪĨ": 7379,
      "Ġæ¦Ĥè¦ģ": 7380,
      "çļĦåľ£": 7381,
      "åľ°äº§": 7382,
      "è´¬": 7383,
      "åħ¨çº¿": 7384,
      "è°¢å°Ķ": 7385,
      "åĲ¦è®¤": 7386,
      "æĺ¯ä¸į": 7387,
      "åľ°ä¸Ĭ": 7388,
      "çī¹åħ°": 7389,
      "åĬłåĪ©äºļ": 7390,
      "é©±éĢĲèĪ°": 7391,
      "(,;)": 7392,
      "åĨħæĶ¿": 7393,
      "è¯¥å¸Ĥ": 7394,
      "æİ¥ç®¡": 7395,
      "182": 7396,
      "å®¹éĩı": 7397,
      "èĪªçıŃ": 7398,
      "åįĬå¹´": 7399,
      "åĵ¥åĵ¥": 7400,
      "1966å¹´": 7401,
      "åĽ½éĺ²éĥ¨": 7402,
      "çŁ©éĺµ": 7403,
      ",)": 7404,
      "åľ¨éĤ£éĩĮ": 7405,
      "çľģéģĵ": 7406,
      "åħĥæľĿ": 7407,
      "èĿł": 7408,
      "å¥¥æĸ¯åį¡": 7409,
      "æľ¬å±Ĭ": 7410,
      "çĽ¸ç»§": 7411,
      "åħµåĽ¢": 7412,
      "æ³°åĭĴ": 7413,
      "é¢Ħå¤ĩ": 7414,
      "ç®Ĺæ³ķ": 7415,
      "å®ł": 7416,
      "å¼ĢåĲ¯": 7417,
      "ä¸ºä¸ŃåĽ½": 7418,
      "æĪĺèĥľ": 7419,
      "æĳĶ": 7420,
      "ity": 7421,
      "æµĨ": 7422,
      "che": 7423,
      "ç¥Ĳ": 7424,
      "æĶ¹è£ħ": 7425,
      "ĠX": 7426,
      "Ġç¬¬äºĮ": 7427,
      "éĻķè¥¿çľģ": 7428,
      "Ġå°½ç®¡": 7429,
      "çļĦæ¦Ĥå¿µ": 7430,
      "ä¹ĭéĻħ": 7431,
      "çģ«çģ¾": 7432,
      "æĪ¿éĹ´": 7433,
      "å±ħä½ıåľ¨": 7434,
      "åĲįè¿Ľå£«": 7435,
      "çī©ä½ĵ": 7436,
      "à¸": 7437,
      "ä¸īç§į": 7438,
      "æ¼Ĩ": 7439,
      "æİ¨ç¿»": 7440,
      "å¿ĹæĦ¿": 7441,
      "çĻ¾å§ĵ": 7442,
      "æĪĲåĪĨ": 7443,
      "é¢ĸ": 7444,
      "è¿Ļç±»": 7445,
      "èĭ±éķĳ": 7446,
      "åĽŀåĽ½": 7447,
      "å®¢æĪ·": 7448,
      "æĹ§åĿĢ": 7449,
      "äºİ2007å¹´": 7450,
      "çļĦä¸ŃåĽ½": 7451,
      "çĮľ": 7452,
      "åŀĤçĽ´": 7453,
      "ĠThe": 7454,
      "åįĹæµ·": 7455,
      "åĽłåºĶ": 7456,
      "åĭĺ": 7457,
      "æ²³æµģåŁŁ": 7458,
      "PC": 7459,
      "Ġåı¦å¤ĸ": 7460,
      "åħĶ": 7461,
      "æĺ¯ä»İ": 7462,
      "æĸ°åĮĹ": 7463,
      "æĸ°ç«¹": 7464,
      "åħ¥åĽ´": 7465,
      "å·´ä¼ĲåĪ©äºļ": 7466,
      "æł¡èĪį": 7467,
      "åģļæ³ķ": 7468,
      "ä¼ģåĽ¾": 7469,
      "ç¥Ńç¥Ģ": 7470,
      "äºİæŃ¤": 7471,
      "å¿Į": 7472,
      "éĿ¢åĲĳ": 7473,
      "çĶµæ±ł": 7474,
      "éĢīæ°ĳ": 7475,
      "äºİåĲĮå¹´": 7476,
      "è·Į": 7477,
      "ç§°ä¹ĭä¸º": 7478,
      "ä¿Ŀå®ī": 7479,
      "éĢłæĪĲçļĦ": 7480,
      "æľ¬ç§ĳ": 7481,
      "éĩįå¤į": 7482,
      "ä¹Įæĸ¯": 7483,
      "èĽĽ": 7484,
      "1959å¹´": 7485,
      "è¿ģç§»": 7486,
      "ä¼Ĳåħĭ": 7487,
      "è¾Ī": 7488,
      "åıĺæį¢": 7489,
      "Ġ2004å¹´": 7490,
      "ç§©åºı": 7491,
      "åĲĮæŃ¥": 7492,
      "Ġæ¸¸æĪı": 7493,
      "è¿«ä½¿": 7494,
      "ç¬¬åįģä¸ī": 7495,
      "éĺħè¯»": 7496,
      "æ°®": 7497,
      "æĹ©åľ¨": 7498,
      "å°ºå¯¸": 7499,
      "å¤§éĩıçļĦ": 7500,
      "ä¸ºè¾Ĳé³įé±¼çº²é²": 7501,
      "å¤§è¡Ĺ": 7502,
      "å±±çļĦ": 7503,
      "ä¸Ńé¥°æ¼Ķ": 7504,
      "åĲįä¸¾äºº": 7505,
      "çī©çļĦ": 7506,
      "(;)": 7507,
      "ala": 7508,
      "çªģåĩº": 7509,
      "èı²å°Ķå¾·": 7510,
      "section": 7511,
      "ET": 7512,
      "ä»ĸåĴĮ": 7513,
      "åıĳæİĺ": 7514,
      "èĢĮæĿ¥": 7515,
      "å±±å¸Ĥ": 7516,
      "åĵĪéĩĮ": 7517,
      "ä½ıåľ¨": 7518,
      "éĥİä¸Ń": 7519,
      "åİ¦éĹ¨": 7520,
      "EC": 7521,
      "çī¹æĢ§": 7522,
      "åĮĸä¸º": 7523,
      "ç¼ĸç»Ħ": 7524,
      "çļĦåŃ¦çĶŁ": 7525,
      "äººä¸º": 7526,
      "åİī": 7527,
      "åħ¬ä¼ļ": 7528,
      "ä»ĸå¯¹": 7529,
      "åĿŀ": 7530,
      "æŁ¥å°Ķæĸ¯": 7531,
      "æħķå°¼": 7532,
      "ä½ĳ": 7533,
      "ä¸ºæľŁ": 7534,
      "åĮł": 7535,
      "ä¸»ä½ĵ": 7536,
      "å¸ĥåħ°": 7537,
      "æĽ´æĺ¯": 7538,
      "å¹²çº¿": 7539,
      "éģĹä¼ł": 7540,
      "é©±åĬ¨": 7541,
      "èµ¢å¾ĹäºĨ": 7542,
      "ĠtoĠ": 7543,
      "çļĦéķ¿": 7544,
      "äºİ2024å¹´": 7545,
      "å¤§åħ¬": 7546,
      "èĤĩ": 7547,
      "çľ¼çĿĽ": 7548,
      "çĺ¤": 7549,
      "æĬĳåĪ¶": 7550,
      "å·´èµ«": 7551,
      "åĵģè´¨": 7552,
      "çĹħéĢĿ": 7553,
      "æĪĺäºīæľŁéĹ´": 7554,
      "hant": 7555,
      "æŃ§è§Ĩ": 7556,
      "\"(": 7557,
      "å¤§å®¶": 7558,
      "æ¡Ĳ": 7559,
      "æıĲåīį": 7560,
      "æµģéĩı": 7561,
      "èľĢ": 7562,
      "Ġ16": 7563,
      "çļĦéĺ¿": 7564,
      "æµ¸": 7565,
      "æĮº": 7566,
      "åįĹæĸ¯æĭīå¤«": 7567,
      "ä¸¤æĿ¡": 7568,
      "èŃ¦æĬ¥": 7569,
      "äºĭåĬ¡æīĢ": 7570,
      "ä¸ľäº¬éĥ½": 7571,
      "çľģæİ¥å£¤": 7572,
      "åķĨåĬ¡": 7573,
      "ç©¿è¿ĩ": 7574,
      "91": 7575,
      "èµĮ": 7576,
      "ä»»åĨħ": 7577,
      "é©¹": 7578,
      "åĩĨåĨ³èµĽ": 7579,
      "åİŁçĲĨ": 7580,
      "æĥħèĬĤ": 7581,
      "åı¤å·´": 7582,
      "ĠéĻĪ": 7583,
      "æĹ¥è¯Ń": 7584,
      "ä¹Łåı¯": 7585,
      "å®ŀåĬĽ": 7586,
      "çķĮçļĦ": 7587,
      "æĪĺäºīä¸Ń": 7588,
      "åİ¿çļĦä¸Ģä¸ªéĿŀå»ºåĪ¶åľ°åĮº": 7589,
      "è¤Ĳèī²": 7590,
      "æħķå°¼é»ĳ": 7591,
      "æĪĬ": 7592,
      "å®¶ä¹¡": 7593,
      "çĵ·": 7594,
      "èİ±æĸ¯": 7595,
      "åĩłä½ķ": 7596,
      "éĽķå¡ĳ": 7597,
      "åĨłçĬ¶çĹħæ¯Ĵ": 7598,
      "æľ¬ä¹¦": 7599,
      "çī¹çĤ¹": 7600,
      "æ´Ľå¤«": 7601,
      "1974å¹´": 7602,
      "ä¾Ŀçħ§": 7603,
      "æĿ¥èĩªäºİ": 7604,
      "ç±»ä¼¼çļĦ": 7605,
      "çīµå¼ķ": 7606,
      "ç»´ä¹Łçº³": 7607,
      "ng": 7608,
      "Ġ191": 7609,
      "èº«ä¸Ĭ": 7610,
      "åĲİæĿ¥çļĦ": 7611,
      ".)": 7612,
      "åįĹç¾İæ´²": 7613,
      "äºĭåĲİ": 7614,
      "å¢ŀè®¾": 7615,
      "ä»ħæ¬¡äºİ": 7616,
      "ç«£å·¥": 7617,
      "nt": 7618,
      "åıĬåħ¶ä»ĸ": 7619,
      "ç»ıçºª": 7620,
      "éĻ¢å£«": 7621,
      "1953å¹´": 7622,
      "ĠåĮĹ": 7623,
      "æķĪçİĩ": 7624,
      "ä¿Ĺç§°": 7625,
      "yp": 7626,
      "æ»¤": 7627,
      "æ»ĭ": 7628,
      "åĪĴå½Ĵ": 7629,
      "å¹ķåºľ": 7630,
      "ä¸¥éĩįçļĦ": 7631,
      "ä¸ºçĶ±": 7632,
      "åĨħæľī": 7633,
      "æŁĦ": 7634,
      "èģĶåĨĽ": 7635,
      "æľ¯è¯Ń": 7636,
      "ä½įäºİä¸Ńåįİäººæ°ĳåħ±åĴĮåĽ½": 7637,
      "èĮĦ": 7638,
      "æĿĳæ°ĳ": 7639,
      "åĮ»åŃ¦éĻ¢": 7640,
      "æ·»åĬł": 7641,
      "çļĦåĽ½éĻħ": 7642,
      "å¤§çĲĨ": 7643,
      "è¾¹çļĦ": 7644,
      "çĶ²åŁº": 7645,
      "ç»ĥä¹ł": 7646,
      "IV": 7647,
      "èĬ¦": 7648,
      "çº¦1": 7649,
      "çĸ¯": 7650,
      "åľ£ç»ı": 7651,
      "è¾ĥå¤§": 7652,
      "ç»ĨèıĮ": 7653,
      "ll": 7654,
      "æīŃ": 7655,
      "ä¸Ĭæĸ¹": 7656,
      "åīįèº«": 7657,
      "éħ¯": 7658,
      "ä¿®éģĵéĻ¢": 7659,
      "æ¿ĢçĥĪ": 7660,
      "å¤§æ°Ķ": 7661,
      "ç§°èµŀ": 7662,
      "åŁİåİ¿": 7663,
      "å¦ĤåĲĮ": 7664,
      "ä¿ĿåĬłåĪ©äºļ": 7665,
      "æĮĩè´£": 7666,
      "åĽŀåĲĪ": 7667,
      "èĢĥå¯Ł": 7668,
      "éĢĶç»ı": 7669,
      "èĻļæĭŁ": 7670,
      "çļĦçĪ¶äº²": 7671,
      "é¢Ĩå¯¼çļĦ": 7672,
      "éģĩåĪ°": 7673,
      "Ġæł¹æį®2020å¹´ç¾İåĽ½äººåı£æĻ®æŁ¥çļĦæķ°æį®": 7674,
      "çļĦæĪĲç»©": 7675,
      "èİ·å¥ĸ": 7676,
      "äºīå¤º": 7677,
      "åįģäºĮæľĪ": 7678,
      "âĨ": 7679,
      "çļĦçĶŁæ´»": 7680,
      "æĶ»åĬ¿": 7681,
      "æī¿æĭħ": 7682,
      "çļ®èĤ¤": 7683,
      "å¤ļåħĥ": 7684,
      "ç¾İåĽ½äºº": 7685,
      "æ£į": 7686,
      "åŃ£åĲİ": 7687,
      "ä½ľæĽ²å®¶": 7688,
      "MS": 7689,
      "åĪĨæĪĲ": 7690,
      "æĸ¹ç¨ĭ": 7691,
      "ä½Ĩåħ¶": 7692,
      "è¶ģ": 7693,
      "åĽ¢éķ¿": 7694,
      "æ£±": 7695,
      "å°±åľ¨": 7696,
      "æľ«æľŁ": 7697,
      "éĺŁåĳĺ": 7698,
      "åĲĳåĮĹ": 7699,
      "èİ·åıĸ": 7700,
      "çĽ´è·¯": 7701,
      "ä¹¡æĿĳ": 7702,
      "1973å¹´": 7703,
      "é¡ºåºı": 7704,
      "è¸¢": 7705,
      "14å¹´": 7706,
      "8ä¸ª": 7707,
      "æĻ´": 7708,
      "åħĥéŁ³": 7709,
      "Ġè¯Ħä»·": 7710,
      "ore": 7711,
      "1935å¹´": 7712,
      "åħ¬åħ±äº¤éĢļ": 7713,
      "å¸ľ": 7714,
      "åı¸èģĮ": 7715,
      "æ»¥": 7716,
      "åľ°ä¸Ńæµ·": 7717,
      "AL": 7718,
      "åıĹæįŁ": 7719,
      "è±¹": 7720,
      "é»ĳäºº": 7721,
      "è¡ĮæĶ¿ä¸Ńå¿ĥ": 7722,
      "1957å¹´": 7723,
      "NBA": 7724,
      "åĿ¤": 7725,
      "æĢ»ç«Ļ": 7726,
      "å£«é¡¿": 7727,
      "å¥³åŃ©": 7728,
      "å±Ģå±Ģéķ¿": 7729,
      "åĳ¨åĪĬ": 7730,
      "èĲ¨æĭī": 7731,
      "åĩºçİ°çļĦ": 7732,
      "ä¸Ńåıĳçİ°": 7733,
      "ç¥¸": 7734,
      "1977å¹´": 7735,
      "ĠaĠ": 7736,
      "åĩºèµĽ": 7737,
      "å¥³ä¸»è§Ĵ": 7738,
      "155": 7739,
      "é¥¶": 7740,
      "åĩłå¹´": 7741,
      "å®ģæ³¢": 7742,
      "æĺ¯æĦıå¤§åĪ©": 7743,
      "åĵģç§į": 7744,
      "ç¥ĸåħĪ": 7745,
      "æĲŀ": 7746,
      "éĺ´è°ĭ": 7747,
      "äºĳåįĹçľģ": 7748,
      "å¤ªåĲİ": 7749,
      "æĿ¡æ¬¾": 7750,
      "152": 7751,
      "çĮ´": 7752,
      "è´Ŀåħĭ": 7753,
      "å©´åĦ¿": 7754,
      "Ġåħ¶ä¸Ń": 7755,
      "è¿Ļä¹Łæĺ¯": 7756,
      "æ··ä¹±": 7757,
      "å±ŀçļĦæ¤įçī©": 7758,
      "æ§½": 7759,
      "å·´åŁº": 7760,
      "åĵĪæĭī": 7761,
      "éĽ·è¾¾": 7762,
      "å¦¥": 7763,
      "ä¿¡å¾Ĵ": 7764,
      "æŃ»äºİ": 7765,
      "ä½ĵèĤ²é¦Ĩ": 7766,
      "äº®çĽ¸": 7767,
      "åĬłåĪ©ç¦ıå°¼äºļå·ŀ": 7768,
      "å¯ĩ": 7769,
      "æľĢå¤ļçļĦ": 7770,
      "çĶ·åŃ©": 7771,
      "çļĦæ¸¸æĪı": 7772,
      "èĲĿ": 7773,
      "æİ¨æµĭ": 7774,
      "æ¤Ń": 7775,
      "ç»ĨèĬĤ": 7776,
      "omp": 7777,
      "åľ¨ä¸Ĭæµ·": 7778,
      "åĬłä»¥": 7779,
      "éĩįç»Ħ": 7780,
      "åĽ½å®¶åħ¬åĽŃ": 7781,
      "æİ¨è¡Į": 7782,
      "äºİ2006å¹´": 7783,
      "å·´åĭĴæĸ¯åĿ¦": 7784,
      "EN": 7785,
      "æķ°åįģ": 7786,
      "åıĸèĩª": 7787,
      "è®ºåĿĽ": 7788,
      "æĳ©å°Ķ": 7789,
      "çļĦä¸»é¢ĺ": 7790,
      "è¿Ļé¦ĸæŃĮ": 7791,
      "æ¡Ĩæŀ¶": 7792,
      "ä¸ľåĮº": 7793,
      "å±±åľ°": 7794,
      "çĽ¸è¿ŀ": 7795,
      "æĻ®æĭī": 7796,
      "è¯īè®¼": 7797,
      "åĳ¼åĲ¸": 7798,
      "é¥®é£Ł": 7799,
      "ç¤ºå¨ģèĢħ": 7800,
      "é»ĳé¾Ļæ±Łçľģ": 7801,
      "çļĦéĿ¢ç§¯ä¸º": 7802,
      "å¾Ļ": 7803,
      "è¢«åıĳçİ°": 7804,
      "çĤ³": 7805,
      "éĢģåĪ°": 7806,
      "éĢĶå¾Ħ": 7807,
      "å¤ľéĹ´": 7808,
      "å·©": 7809,
      "åĪĨè§£": 7810,
      "æ°´éĩı": 7811,
      "åı¯ä»¥éĢļè¿ĩ": 7812,
      "å¼ķç§į": 7813,
      "é¥¼": 7814,
      "éĻĦåĬł": 7815,
      "å¯Įæ±Ĺ": 7816,
      "YouTube": 7817,
      "çļĦåŁİéķĩ": 7818,
      "æ¬ł": 7819,
      "1971å¹´": 7820,
      "æĸ°åĨłèĤºçĤİ": 7821,
      "int": 7822,
      "æŃĮåĶ±": 7823,
      "ç§»å±ħ": 7824,
      "æĭ¿çł´": 7825,
      "è¿½æ±Ĥ": 7826,
      "å±ĭé¡¶": 7827,
      "å°±è¯»äºİ": 7828,
      "èĩ´åĬĽäºİ": 7829,
      "Ġä¸Ģ": 7830,
      "çļĦä¸ĸçķĮ": 7831,
      "è®½": 7832,
      "æĺ¯è¥¿çıŃçīĻ": 7833,
      "æľºæŀª": 7834,
      "çĽ¸éĤ»": 7835,
      "æĿ°åħĭéĢĬ": 7836,
      "æľīçĿĢ": 7837,
      "ä»ĸäºº": 7838,
      "ç¾İåĽ½æĢ»ç»Ł": 7839,
      "è¯ĬæĸŃ": 7840,
      "ç«ĭæĸ¹ç±³": 7841,
      "æĭ¿çł´ä»ĳ": 7842,
      ".ãĢĮ": 7843,
      "Ġl": 7844,
      "é«ĺæŀ¶": 7845,
      "çİ¯å½¢": 7846,
      "æī¹åĪ¤": 7847,
      "1951å¹´": 7848,
      "èĪªç©ºåħ¬åı¸": 7849,
      "ç¬¬åįģä¸Ģ": 7850,
      "HK": 7851,
      "æĺ¯èĭ±åĽ½": 7852,
      "å¾·åħĭ": 7853,
      "æ£ļ": 7854,
      "æµģåĬ¨": 7855,
      "æ»ĳéĽª": 7856,
      "ru": 7857,
      "çī©èµĦ": 7858,
      "å¦ĸ": 7859,
      "å¤ĸåĽ´": 7860,
      "æ¯Ķå°Ķ": 7861,
      "æĢ»ç»ıçĲĨ": 7862,
      "åĬĽåŃ¦": 7863,
      "ç»ĪæŃ¢": 7864,
      "æħĪåĸĦ": 7865,
      "æīĩ": 7866,
      "ä¸īå¤§": 7867,
      "ä¸īçĶ²": 7868,
      "è°£": 7869,
      "æ¡ĵ": 7870,
      "åı¸æľº": 7871,
      "åħ¬éĩĮçļĦ": 7872,
      "åºķå±Ĥ": 7873,
      "éĽĨåĽ¢åĨĽ": 7874,
      "å´ĩç¥¯": 7875,
      "åĨ»": 7876,
      "èĳµ": 7877,
      "å§ĭç»Ī": 7878,
      "æłĩé¢ĺ": 7879,
      "åħµåĬĽ": 7880,
      "æ²Īéĺ³": 7881,
      "13å¹´": 7882,
      "ä¸Ńå¼ı": 7883,
      "åĩºèĩª": 7884,
      "åħ¶åľ¨": 7885,
      "è¿ĩæ¸¡": 7886,
      "ç¦§": 7887,
      "åĪĻçĶ±": 7888,
      "éĴ©": 7889,
      "ee": 7890,
      "å®ļçĲĨ": 7891,
      "å±±é¡¶": 7892,
      "è¿ĲåĬ¨çļĦ": 7893,
      "å·¥ä½ľçļĦ": 7894,
      "4æľĪ1æĹ¥": 7895,
      "ä¸ĭæĸ¹": 7896,
      "çĪ¬": 7897,
      "è£´": 7898,
      "åľ£æ¯į": 7899,
      "ä¸Ńå¿ĥçļĦ": 7900,
      "éŁ¦å°Ķ": 7901,
      "ç§ĺé²ģ": 7902,
      "å±ħæ°ĳçĤ¹": 7903,
      "ç²ĴåŃĲ": 7904,
      "æĸĮ": 7905,
      "æŁľ": 7906,
      "åħĥå¸ħ": 7907,
      "å§Ķåī¯ä¹¦è®°": 7908,
      "æ²³åı£": 7909,
      "çģ«è½¦ç«Ļ": 7910,
      "é³Ħ": 7911,
      "å½¼æŃ¤": 7912,
      "åħ¥å¢ĥ": 7913,
      "èĤ¿": 7914,
      "æ¼Ĥ": 7915,
      "175": 7916,
      "old": 7917,
      "ĠæľĪ": 7918,
      "ä¸Ńä¸ĸçºª": 7919,
      "å·¥åķĨ": 7920,
      "æĴĳ": 7921,
      "å±ĢçļĦ": 7922,
      "æ·±åħ¥": 7923,
      "ç¬¬ä¸īæ¬¡": 7924,
      "000åĲį": 7925,
      "åħ¬å¯ĵ": 7926,
      "çĲĥè¿·": 7927,
      "ç»ĵè®º": 7928,
      "å½¢çļĦ": 7929,
      "åĥıæĺ¯": 7930,
      "ç¡ķå£«åŃ¦ä½į": 7931,
      "å±¡": 7932,
      "è¾±": 7933,
      "æ¬¡æĹ¥": 7934,
      "æīĭä¸Ń": 7935,
      "éĨī": 7936,
      "åİĮ": 7937,
      "äºĨå¯¹": 7938,
      "çĦļ": 7939,
      "çİ¯çĲĥ": 7940,
      "èĵĦ": 7941,
      "è¯ĳä¸º": 7942,
      "è¯¥åī§": 7943,
      "èĭıéĩĮ": 7944,
      "ç¦ıéŁ³": 7945,
      "çªĥ": 7946,
      "æĵ¦": 7947,
      "å®ĥä»¬çļĦ": 7948,
      "Mar": 7949,
      "åľ¨ä»ĸçļĦ": 7950,
      "çŃīå¾ħ": 7951,
      "æł¼å¼ı": 7952,
      "1990å¹´ä»£": 7953,
      "çªģåİ¥": 7954,
      "å¼Ĺæĭī": 7955,
      "ä¼ĺåħĪ": 7956,
      "å¤©æ´¥å¸Ĥ": 7957,
      "ris": 7958,
      "å°Ķé¡¿": 7959,
      "èģĤ": 7960,
      "åĮĹéŁ©": 7961,
      "çİĭä½į": 7962,
      "åį°è±¡": 7963,
      "åį°åº¦æķĻ": 7964,
      "æ©Ļ": 7965,
      "è½¬çļĦå°ıè¡ĮæĺŁ": 7966,
      "çĶ±äººå·¥": 7967,
      "çīĪçļĦ": 7968,
      "è¶³çĲĥèģĶèµĽ": 7969,
      "çļĦå¥³åĦ¿": 7970,
      "ä¸ºé¦ĸ": 7971,
      "æĽ²çĽ®": 7972,
      "é¢ĦåĳĬ": 7973,
      "çļĦèĥ½åĬĽ": 7974,
      "æĹŃ": 7975,
      "ä¸º3": 7976,
      "æĺ¯åįĹæŀģæ´²": 7977,
      "åıĳéŁ³": 7978,
      "åĬłåĭĴ": 7979,
      "ä¸īæ¬¡": 7980,
      "èģĮæ£Ĵ": 7981,
      "ç¦ıåĪ©": 7982,
      "ä½İæ°Ķåİĭ": 7983,
      "ç¿°æŀĹ": 7984,
      "æĹ©æľŁçļĦ": 7985,
      "è¿ĩäºİ": 7986,
      "ç³ķ": 7987,
      "çº§çļĦ": 7988,
      "èĳĹæľī": 7989,
      "å¾®è½¯": 7990,
      "å¹³åĿĩæµ·æĭĶé«ĺåº¦": 7991,
      "çĥŃå¸¦æ°ĶæĹĭ": 7992,
      "çĲĨäºĭä¼ļ": 7993,
      "BL": 7994,
      "ç¬¼èįī": 7995,
      "ey": 7996,
      "æł¼æĭīæĸ¯": 7997,
      "è¯ºä¼Ĭ": 7998,
      "åĪºæ¿Ģ": 7999,
      "çĮªç¬¼èįī": 8000,
      "åİĿ": 8001,
      "è´¿": 8002,
      "å¾·æĸ¯": 8003,
      "åı²èĴĤ": 8004,
      "åī¯ä½¿": 8005,
      "åıĳçĶŁçļĦ": 8006,
      "åµĮ": 8007,
      "Pro": 8008,
      "å¹¶ä¸įæĺ¯": 8009,
      "åįģä¸īå¹´": 8010,
      "åıĸå¾ĹäºĨ": 8011,
      "åħħåĪĨ": 8012,
      "éĻ¤æŃ¤ä¹ĭå¤ĸ": 8013,
      "pp": 8014,
      "çºº": 8015,
      "æľīåı¯èĥ½": 8016,
      "1900": 8017,
      "åİ¿åŁİ": 8018,
      "çīĩæ®µ": 8019,
      "å¼ºåĮĸ": 8020,
      "éĢĤçĶ¨äºİ": 8021,
      "åħ±äº§ä¸»ä¹ī": 8022,
      "åľ¨ä¸Ģä¸ª": 8023,
      "ä¸ĢçĻ¾": 8024,
      "è¯¥åľ°åĮº": 8025,
      "ç¼Ķ": 8026,
      "åĭ¾": 8027,
      "èº²": 8028,
      "çĪ±çļĦ": 8029,
      "ä¸ģåł¡": 8030,
      "ç½ķé»ĺ": 8031,
      "åħĭç½Ĺåľ°äºļ": 8032,
      "å°¸ä½ĵ": 8033,
      "åĴĮå¤§": 8034,
      "åĲįèªī": 8035,
      "ä¸ĭè½½": 8036,
      "è¿Ļä¸¤ä¸ª": 8037,
      "çĶµåĬ¨": 8038,
      "å¥½åıĭ": 8039,
      "é¥¥": 8040,
      "rit": 8041,
      "å»ºåĽ½": 8042,
      "åıĤè§Ĥ": 8043,
      "æ¯ıæ¬¡": 8044,
      "åĲİåıĪ": 8045,
      "çİĭå®¤": 8046,
      "é£ŀå¼¹": 8047,
      "å½¢æĪĲçļĦ": 8048,
      "æİ§èĤ¡": 8049,
      "åģļä¸º": 8050,
      "åħ¹çľģ": 8051,
      "ãĥ¼": 8052,
      "åıĻè¿°": 8053,
      "Ġ2003å¹´": 8054,
      "èĢĮè¯¥åľ°çļĦå¹³åĿĩæµ·æĭĶé«ĺåº¦": 8055,
      "å·´åŁºæĸ¯åĿ¦": 8056,
      "å¼ķç§įæł½åŁ¹": 8057,
      "05": 8058,
      "åı°å¸ģ": 8059,
      "å¸¸å§Ķä¼ļ": 8060,
      "å¥³æ¼Ķåĳĺ": 8061,
      "èº«äº¡": 8062,
      "è®¾è®¡å¸Ī": 8063,
      "1967å¹´": 8064,
      "å¼Ĥå¸¸": 8065,
      "è´¢åĬ¡": 8066,
      "EP": 8067,
      "Ġç»ıæµİ": 8068,
      "æĺı": 8069,
      "è¿Ľåı£": 8070,
      "ert": 8071,
      "éĿ¢ç§¯1": 8072,
      "2010å¹´ç¾İåĽ½äººåı£æĻ®æŁ¥çļĦæķ°æį®": 8073,
      "åĢŁçĶ±": 8074,
      "ä¸İæŃ¤åĲĮæĹ¶": 8075,
      "éķ¿å®ī": 8076,
      "ä»»å¤©åłĤ": 8077,
      "æĽ¾ä¸º": 8078,
      "éģĹè¿¹": 8079,
      "è¿Ļæ®µ": 8080,
      "éģĵçļĦ": 8081,
      "è£¸": 8082,
      "æĿĥçļĦ": 8083,
      "èĪªçº¿": 8084,
      "çģ«æĺŁ": 8085,
      "ä¹ĺåĿĲ": 8086,
      "çĶŁäº§çļĦ": 8087,
      "è¿Ľå£«åĩºèº«": 8088,
      "Î±": 8089,
      "ãĢį;": 8090,
      "åĸī": 8091,
      "å®£åĳĬ": 8092,
      "ä¿Ħäº¥": 8093,
      "1965å¹´": 8094,
      "ä¿Ħäº¥ä¿Ħ": 8095,
      "å»ºæľī": 8096,
      "ç§ĳå¹»": 8097,
      "çº³å°Ķ": 8098,
      "ç¥ŀåľ£": 8099,
      "ç¬¬ä¸Ģå±Ĭ": 8100,
      "çħ§é¡¾": 8101,
      "æĸ¯éĩĮ": 8102,
      "åĲĮåŃ¦": 8103,
      "å¤©ä½¿": 8104,
      "10æľĪ1æĹ¥": 8105,
      "è½¬ä»»": 8106,
      "åĪĿå¹´": 8107,
      "çĶ±äººå·¥å¼ķç§įæł½åŁ¹": 8108,
      "ç¼ĸåĨĻ": 8109,
      "çĭ¬çī¹çļĦ": 8110,
      "éĤ£æł·": 8111,
      "å¥´éļ¶": 8112,
      "æķ°çĻ¾": 8113,
      "è¿Ĳæ²³": 8114,
      "æīĭæŀª": 8115,
      "å®£è¨Ģ": 8116,
      "16å¹´": 8117,
      "Play": 8118,
      "åľ¨åĨħ": 8119,
      "ä¸Ĭæ¸¸": 8120,
      "åŃĲå¼¹": 8121,
      "åŁºè¾ħ": 8122,
      "çĶµè§ĨåĬ¨çĶ»": 8123,
      "çļĦå¤§åŀĭ": 8124,
      "ä¸ĭè¾ĸä»¥ä¸ĭåľ°åĮº": 8125,
      "äººç§°": 8126,
      "å·´å¡ŀå°Ķ": 8127,
      "èįĥ": 8128,
      "èĻĲ": 8129,
      "åįģä¸ĢæľĪ": 8130,
      "\").": 8131,
      "åİ¨": 8132,
      "åīįçº¿": 8133,
      "æ¶¡": 8134,
      "åĪĴåĪĨ": 8135,
      "åĮ»å¸Ī": 8136,
      "çºªå¿µç¢ĳ": 8137,
      "eam": 8138,
      "Ġä»¥": 8139,
      "ä¸Ģéĥ¨åĪĨ": 8140,
      "ä¸Ńä¹¦": 8141,
      "ä¹ĭåĲį": 8142,
      "æĹłéĻĲ": 8143,
      "ç½ĳä¸Ĭ": 8144,
      "ide": 8145,
      "æĭ¦": 8146,
      "æĸ°äºº": 8147,
      "çķľ": 8148,
      "åı·ä¸º": 8149,
      "æµģç»ı": 8150,
      "è°ĥèĬĤ": 8151,
      "é²ģæĸ¯": 8152,
      "1969å¹´": 8153,
      "æĿ¥å¾Ģ": 8154,
      "å°¼å¥¥": 8155,
      "éĩĳåĪļ": 8156,
      "å½¢æĪĲäºĨ": 8157,
      "èĤ¯å®ļ": 8158,
      "è¿Ļéĥ¨": 8159,
      "æĸĩæľ¬": 8160,
      "æĢ»é¢Ŀ": 8161,
      "ä¼Ĭå°Ķ": 8162,
      "è¯ºæĸ¯": 8163,
      "åı£å¾Ħ": 8164,
      "å¸¸è§Ħ": 8165,
      "åĽŀçŃĶ": 8166,
      "èİ·å¾Ĺä¸Ģæŀļ": 8167,
      "æĶ¹ç¼ĸèĩª": 8168,
      "Ġæĭī": 8169,
      "ä»¥å¤ĸçļĦ": 8170,
      "åĮºåĴĮ": 8171,
      "åŁºéļĨ": 8172,
      "å°±æľī": 8173,
      "åŃĺåľ¨çļĦ": 8174,
      "éĺµå®¹": 8175,
      "æ®ĭçĸ¾": 8176,
      "å¹¸åŃĺ": 8177,
      "å¥¥æĸ¯æĽ¼": 8178,
      "Mic": 8179,
      "åĽ½è¯Ń": 8180,
      "åİŁåĪĽ": 8181,
      "éĺ¿å¯Įæ±Ĺ": 8182,
      "è®¤å®ļ": 8183,
      "æŀģç«¯": 8184,
      "è¯ŀçĶŁ": 8185,
      "åĲĮæĢ§æģĭ": 8186,
      "çĽ²": 8187,
      "ä¸įåıĺ": 8188,
      "éķ¿å¤§": 8189,
      "ç»´åĲ¾": 8190,
      "èĭıå·ŀ": 8191,
      "éĿ¢ç§¯0": 8192,
      "ä¾Ľå¥ī": 8193,
      "èĢ¶å¤«": 8194,
      "1933å¹´": 8195,
      "éĩĩçĶ¨äºĨ": 8196,
      "æĮīå¯Ł": 8197,
      "ç©Ĩç½ķé»ĺ": 8198,
      "æĮ¤": 8199,
      "åħ³èģĶ": 8200,
      "åĲĳåįĹ": 8201,
      "ç®¡åĪ¶": 8202,
      "è®¤çŁ¥": 8203,
      "è¿ĺåĮħæĭ¬": 8204,
      "åĬŀæ³ķ": 8205,
      "168": 8206,
      "åī¯éĥ¨éķ¿": 8207,
      "åĪ¤æĸŃ": 8208,
      "ç´§å¼ł": 8209,
      "ä½įäºİè¯¥çľģ": 8210,
      "11å¹´": 8211,
      "âĪ": 8212,
      "Ġfor": 8213,
      "æĶĢ": 8214,
      "åĴĮä»ĸçļĦ": 8215,
      "å¾ĹåĪĨ": 8216,
      "ä¹ŁåĽłæŃ¤": 8217,
      "åĸ»": 8218,
      "è¯įæ±ĩ": 8219,
      "çĽ®åīįå°ļæľª": 8220,
      "TA": 8221,
      "å²Ĳ": 8222,
      "çĹķ": 8223,
      "æ°Ķæ¸©": 8224,
      "æ²ĥå°Ķ": 8225,
      "ç©¿è¶Ĭ": 8226,
      "ç»´åĲ¾å°Ķ": 8227,
      "17å¹´": 8228,
      "äºĨä¸ĢäºĽ": 8229,
      "æįī": 8230,
      "é»Ľ": 8231,
      "ç¾İåĽ½åĽ½å®¶": 8232,
      "éħĭ": 8233,
      "åħļç»Ħ": 8234,
      "åī©ä½Ļ": 8235,
      "å¤ĸçķĮ": 8236,
      "å¿ĥèĦı": 8237,
      "éªı": 8238,
      "176": 8239,
      "ç²®é£Ł": 8240,
      "æ¬º": 8241,
      "å·´å¸ĥ": 8242,
      "éħ¿": 8243,
      "inc": 8244,
      "æĬķæīĭ": 8245,
      "çĶµè§ĨèĬĤçĽ®": 8246,
      "éĹ®é¢ĺçļĦ": 8247,
      "æľĹå¾·": 8248,
      "çĩĥçĥ§": 8249,
      "DS": 8250,
      "ä¸ĭæĿ¥çļĦ": 8251,
      "çĶµæµģ": 8252,
      "1930å¹´": 8253,
      "ach": 8254,
      "å®¿èĪį": 8255,
      "DVD": 8256,
      "åŁł": 8257,
      "åĬłå·¥": 8258,
      "æ¬¡æķ°": 8259,
      "åİŁæľī": 8260,
      "æį¢ä¹ĺ": 8261,
      "éľįå°Ķ": 8262,
      "7ä¸ª": 8263,
      "OR": 8264,
      "ç¬¬6": 8265,
      "é¢Ĥ": 8266,
      "åĵĪå¾·": 8267,
      "çªģåĩ»": 8268,
      "åĨ²åĩ»": 8269,
      "MP": 8270,
      "åĩºäºİ": 8271,
      "çĶŁæķĪ": 8272,
      "åŃĲåħ¬åı¸": 8273,
      "æĪĺè½¦": 8274,
      "ç«Ļåİħ": 8275,
      "ç¾İåĽ½æµ·åĨĽ": 8276,
      "çĶŁæ´»åľ¨": 8277,
      "çļĦå¤§éĥ¨åĪĨ": 8278,
      "åħĭéĩĮæĸ¯": 8279,
      "æľºåĻ¨äºº": 8280,
      "ohn": 8281,
      "Ġé«ĺ": 8282,
      "åı¯åīįå¾Ģ": 8283,
      "æ²¡æľīä»»ä½ķ": 8284,
      "è¾ĥé«ĺ": 8285,
      "æĬĹæĪĺ": 8286,
      "ä¸´åºĬ": 8287,
      "çī©ç§įçļĦ": 8288,
      "æģĲé¾Ļ": 8289,
      "åĪĽå§ĭäºº": 8290,
      "ĠY": 8291,
      "ä¸īåĲį": 8292,
      "ç³Ĭ": 8293,
      "æĹıäºº": 8294,
      "ç¥ŀç§ĺ": 8295,
      "æĸ°çķĮ": 8296,
      "å¾Ĺç¥¨": 8297,
      "éĢļè¡Į": 8298,
      "åħ°å·ŀ": 8299,
      "éħī": 8300,
      "ç±»çļĦ": 8301,
      "åıįèĢĮ": 8302,
      "å¥ĸçīĮ": 8303,
      "æĹĹå¸ľ": 8304,
      "ight": 8305,
      "çļĦå±±å³°": 8306,
      "åĨĽåľ¨": 8307,
      "å¡Į": 8308,
      "åıĹåĪ°äºĨ": 8309,
      "æĦıåĽ¾": 8310,
      "èĬĤå¥ı": 8311,
      "åŃĺåĤ¨": 8312,
      "1931å¹´": 8313,
      "å¤ºåıĸ": 8314,
      "æĪĪå°Ķ": 8315,
      "ç±»ä¼¼äºİ": 8316,
      "å¹¶ä¸Ķåľ¨": 8317,
      "30å¹´": 8318,
      "å¼Ģä¸ļ": 8319,
      "æĺİå°¼": 8320,
      "å¤ªéĥİ": 8321,
      "å®ĥåľ¨": 8322,
      "å®ĪæĬ¤": 8323,
      "åĽ½æľī": 8324,
      "å¹¶ä¸º": 8325,
      "è¢«åĪĹä¸º": 8326,
      "è¾ĥå°ĳ": 8327,
      "çĶµå½±èĬĤ": 8328,
      "æ°¸è¿ľ": 8329,
      "çĶŁéķ¿äºİæµ·æĭĶ": 8330,
      "æ³ª": 8331,
      "æŃ¤ä¸¾": 8332,
      "éĢļå¸¸æĺ¯": 8333,
      "è°¨": 8334,
      "åįģå¤§": 8335,
      "æŃ£ä¹ī": 8336,
      "ä¼łå¥ĩ": 8337,
      "èĻ¾": 8338,
      "åıĳå±ķçļĦ": 8339,
      "å§Ķåĳĺä¼ļä¸»å¸Ń": 8340,
      "è¿ªäºļ": 8341,
      "æĹĭè½¬": 8342,
      "åĿĲèĲ½": 8343,
      "çī©çĲĨåŃ¦": 8344,
      "æĺĶ": 8345,
      "æľīä¸¤ä¸ª": 8346,
      "åĬ¨åĳĺ": 8347,
      "åŀ¦": 8348,
      "å¥¹æĽ¾": 8349,
      "è¶³èģĶ": 8350,
      "æīĺé©¬æĸ¯": 8351,
      "åĩºçīĪçļĦ": 8352,
      "åĲĪå¹¶ä¸º": 8353,
      "ĠåįĹ": 8354,
      "ĠåĪ¶ä½ľ": 8355,
      "ä¸ŃæĸŃ": 8356,
      "âĦ": 8357,
      "æĹ¶éĴĪ": 8358,
      "è¿ĽèĢĮ": 8359,
      "ç¬¬äºĮä¸ª": 8360,
      "ç¡®å®ŀ": 8361,
      "âĨĴ": 8362,
      "åħ¬çº¦": 8363,
      "åħ¥çĲĥ": 8364,
      "åħ¨ä¸ĸçķĮ": 8365,
      "åħīè°±": 8366,
      "æııåĨĻ": 8367,
      "ç±³çļĦåľ°åĮº": 8368,
      "Ġçİĭ": 8369,
      "æĪĮ": 8370,
      "æķĻç§ĳ": 8371,
      "å·´åħĭ": 8372,
      "ä¿Ŀåį«": 8373,
      "åĩ»ä¸Ń": 8374,
      "166": 8375,
      "éĻĲäºİ": 8376,
      "æ¶ĪçģŃ": 8377,
      "èĻļæŀĦ": 8378,
      "les": 8379,
      "Ġ13": 8380,
      "ãĢĭ(),": 8381,
      "æĸ°è¥¿åħ°": 8382,
      "æĢ§æł¼": 8383,
      "é¦ĸé¢Ĩ": 8384,
      "äº§éĩı": 8385,
      "çĳĻ": 8386,
      "åĿĩæľī": 8387,
      "rom": 8388,
      "åĿĲæłĩä¸º": 8389,
      "Ġå¯¹äºİ": 8390,
      "ä¸ĭå±ŀ": 8391,
      "ä¹ĲåĻ¨": 8392,
      "å¢ĥå¤ĸ": 8393,
      "æĬĢèĥ½": 8394,
      "æ¸©å¸¦": 8395,
      "åĺīåºĨ": 8396,
      "ä¼įå¾·": 8397,
      "ĠSp": 8398,
      "01": 8399,
      "å¤§æī¹": 8400,
      "ä¿¡ä»»": 8401,
      "165": 8402,
      "145": 8403,
      "åį¢çĵ¦": 8404,
      "åį°åº¦å°¼è¥¿äºļ": 8405,
      "å¸ķå°Ķ": 8406,
      "åıĳçĶµåİĤ": 8407,
      "3åı·": 8408,
      "ĠæĹ¥": 8409,
      "éĢīä¸Ń": 8410,
      "åĲĳä¸ľ": 8411,
      "1962å¹´": 8412,
      "éĴ¢éĵģ": 8413,
      "Th": 8414,
      "çļĦé©¬": 8415,
      "æĢ¨": 8416,
      "åīįèĢħ": 8417,
      "çº¿åĴĮ": 8418,
      "èµ·çĤ¹": 8419,
      "å®¢å®¶": 8420,
      "åı¯èĥ½æĢ§": 8421,
      "æĶ¯æĮģèĢħ": 8422,
      "çº¤ç»´": 8423,
      "Ġç®Ģ": 8424,
      "ä»¥å¾Ģ": 8425,
      "è·ĭ": 8426,
      "çī¹åĭĴ": 8427,
      "å¤ļä¸º": 8428,
      "è¿ĩåº¦": 8429,
      "æĢ»å±Ģ": 8430,
      "çªĿ": 8431,
      "çģµéŃĤ": 8432,
      "éĢıæĺİ": 8433,
      "å¸ĿåĽ½çļĦ": 8434,
      "Station": 8435,
      "å¤§è¿ŀ": 8436,
      "åĴĮäººåı£": 8437,
      "éķ¿æĺ¥": 8438,
      "åįİåĮĹ": 8439,
      "org": 8440,
      "ä»¥åħ¶": 8441,
      "äºĮæ¬¡": 8442,
      "ork": 8443,
      "æĤ¼": 8444,
      "Ġéĩĳ": 8445,
      "åĽ½æĹĹ": 8446,
      "ä»ĸå°Ĩ": 8447,
      "åĲįå½ķ": 8448,
      "è¿Ļä¸¤": 8449,
      "å¥¥åħĭ": 8450,
      "çº³æĸ¯": 8451,
      "è§£éĻ¤": 8452,
      "èı±": 8453,
      "è¡ĮæĶ¿éķĩåĮº": 8454,
      "ç¡®ç«ĭ": 8455,
      "æĻļæľŁ": 8456,
      "çļĦåľ°ä½į": 8457,
      "ä¸ŃæŃ£": 8458,
      "æ¸¯éĵģ": 8459,
      "åĸĿ": 8460,
      "å¾Ģè¿Ķ": 8461,
      "åħŃä¸ª": 8462,
      "éĢīç¥¨": 8463,
      "éĶħ": 8464,
      "åħĭéĩĮç±³äºļ": 8465,
      "æ²ŁéĢļ": 8466,
      "éĹ¹": 8467,
      "ä½Ĩä¸į": 8468,
      "åĶ¤": 8469,
      "éļıä¹ĭ": 8470,
      "è¾ŀåİ»": 8471,
      "æĲŃè½½": 8472,
      "é£ŀè¡Įåĳĺ": 8473,
      "ç±»åŀĭçļĦ": 8474,
      "CP": 8475,
      "Ġä¸ºäºĨ": 8476,
      "éĺľ": 8477,
      "å·¥åħļ": 8478,
      "é»ĳæļĹ": 8479,
      "é¸¦": 8480,
      "æıĲä¾ĽçļĦ": 8481,
      "Ġ20": 8482,
      "çļĦéģĵè·¯": 8483,
      "åĽ½å®ī": 8484,
      "å®ļä½į": 8485,
      "åįģäºĶå¹´": 8486,
      "æ¸¸æĪıä¸Ń": 8487,
      "æ¢ħå°Ķ": 8488,
      "åİ¿çļĦä¸Ģä¸ªè¡ĮæĶ¿éķĩåĮº": 8489,
      "æĺ¯å¯¹": 8490,
      "æľīä¸¤": 8491,
      "çĽĴ": 8492,
      "ä¹ĭåľ°": 8493,
      "å¸ĥæĶ¿": 8494,
      "çĽ¸è¾ĥ": 8495,
      "æ³¢çī¹": 8496,
      "æīĵå¼Ģ": 8497,
      "ä¹Įæĭī": 8498,
      ";&": 8499,
      "âĢ§": 8500,
      "ç«ĭå¤§åŃ¦": 8501,
      "Ġæľ¬ç«Ļ": 8502,
      "4Ġ": 8503,
      "AK": 8504,
      "UN": 8505,
      "å°§": 8506,
      "ä¸ĭçļĦä¸Ģä¸ª": 8507,
      "å£«åĿ¦": 8508,
      "äº§çī©": 8509,
      "åĲĳéĩı": 8510,
      "æĶ¾éĢģ": 8511,
      "åĵįåºĶ": 8512,
      "1932å¹´": 8513,
      "èī¯å¥½": 8514,
      "HR": 8515,
      "OM": 8516,
      "åĮª": 8517,
      "åıĬåĲİ": 8518,
      "äºĭæĥħ": 8519,
      "äºĭåıĺ": 8520,
      "æµģæµª": 8521,
      "åħĪåīį": 8522,
      "ame": 8523,
      "èĲ¨æĸ¯å·ŀ": 8524,
      "åľ°å¤Ħ": 8525,
      "æĺİä»£": 8526,
      "ç¥ŀç¤¾": 8527,
      "1928å¹´": 8528,
      "ç§ŁçķĮ": 8529,
      "çļĦå¼Ģ": 8530,
      "åĪ©å¥¥": 8531,
      "äº§åľ°": 8532,
      "ä¹¦æ³ķ": 8533,
      "åıĳå¸ĥäºĨ": 8534,
      "æįĲèµł": 8535,
      "äººå¤§ä»£è¡¨": 8536,
      "å¸ĪèĮĥå¤§åŃ¦": 8537,
      "125": 8538,
      "åį³åı¯": 8539,
      "æ¯įèĪ°": 8540,
      "è¯»ä¹¦": 8541,
      "ä¼ļè®®ä¸Ĭ": 8542,
      "å·¡éĢ»": 8543,
      "Ġh": 8544,
      "åĮĹå¹³": 8545,
      "éĹ´è°į": 8546,
      "çĥĤ": 8547,
      "åºĵå°Ķ": 8548,
      "ä¸»æķĻç»ĥ": 8549,
      "èķĥ": 8550,
      "å°Ĭéĩį": 8551,
      "Ġ2002å¹´": 8552,
      "æ°ĳæĶ¿": 8553,
      "æľĢéĩįè¦ģçļĦ": 8554,
      "åĲĳè¥¿": 8555,
      "1961å¹´": 8556,
      "å¼ĢåıĳçļĦ": 8557,
      "æĺ¯ä¸Ģå®¶": 8558,
      "çļĦæ¯ĶèµĽ": 8559,
      "çļĦåº§æłĩä¸º": 8560,
      "äººæīį": 8561,
      "çłĶç©¶åĳĺ": 8562,
      "çłĶç©¶ä¸Ńå¿ĥ": 8563,
      "ick": 8564,
      "æĺĨæĺİ": 8565,
      "æ§Ł": 8566,
      "Ġä¸ī": 8567,
      "Ġä½ľä¸º": 8568,
      "çļĦè®¡åĪĴ": 8569,
      "å¤§åĲĮ": 8570,
      "æĢİ": 8571,
      "ç¼Ģ": 8572,
      "åİŁå®ļ": 8573,
      "åİŁåŀĭ": 8574,
      "æĪĸç§°": 8575,
      "æ®·": 8576,
      "èĮİ": 8577,
      "å¼ºçļĦ": 8578,
      "å¼ºå¤§çļĦ": 8579,
      "ç²¾çģµ": 8580,
      "åĤ¨åŃĺ": 8581,
      "å»¶ä¼¸èĩ³": 8582,
      "å¤§åŃĹ": 8583,
      "çŃīèģĮ": 8584,
      "ä¼¯æł¼": 8585,
      "èĽĻ": 8586,
      "å°¼åı¤æĭī": 8587,
      "çļĦä»£è¡¨": 8588,
      "åĬ¾": 8589,
      "ä¸ĬéĿ¢": 8590,
      "ä»ĸè¯´": 8591,
      "æ³ķåŃ¦": 8592,
      "æŃ¤ç±»": 8593,
      "çŃīäºİ": 8594,
      "æĺ¥ç§ĭ": 8595,
      "çº·çº·": 8596,
      "US": 8597,
      "ax": 8598,
      "è¯Ī": 8599,
      "åħ¬ç¤¾": 8600,
      "åĬ¨æĢģ": 8601,
      "ä¹Ŀå·ŀ": 8602,
      "éĺ²å®Ī": 8603,
      "å·Ŀåİ¿": 8604,
      "åģľè¿Ĳ": 8605,
      "å§ĵæ°ı": 8606,
      "FC": 8607,
      "åıĳè¾¾": 8608,
      "éĥ½ä¸į": 8609,
      "æĽ¾è¢«": 8610,
      "ç®¡æİ§": 8611,
      "å¼łåįķæĽ²": 8612,
      "äºİ2005å¹´": 8613,
      "åĲĽå£«åĿ¦": 8614,
      "çļĦåĲįç§°": 8615,
      "äººç¾¤": 8616,
      "éĴł": 8617,
      "èı©": 8618,
      "å°ģéĹŃ": 8619,
      "çŃīçļĦ": 8620,
      "æĮĩçļĦæĺ¯": 8621,
      "å¥ĸæľĢä½³": 8622,
      "å¢ĥåĨħçļĦ": 8623,
      "åı¦ä¸Ģç§į": 8624,
      "æĪ·éĥ¨": 8625,
      "å¾®åįļ": 8626,
      "éĹ¯": 8627,
      "è¿ĻæĹ¶": 8628,
      "çĲĨåŃ¦": 8629,
      "è½¬åıĺ": 8630,
      "èĽ®": 8631,
      "ove": 8632,
      "åĳĺå¤ĸ": 8633,
      "åıĤè®®åĳĺ": 8634,
      "æĺŁçļĦ": 8635,
      "æĿĢäºº": 8636,
      "æĻ¯çĤ¹": 8637,
      "å°ģéĶģ": 8638,
      "ros": 8639,
      "ä½£": 8640,
      "åħ¬å¼ı": 8641,
      "åħĭéĽ·": 8642,
      "åĬłæĸ¯": 8643,
      "éĢłåŀĭ": 8644,
      "åħ¶ä»ĸçļĦ": 8645,
      "æ´»åĬ¨çļĦ": 8646,
      "æ³¨åħ¥": 8647,
      "ational": 8648,
      "AI": 8649,
      "è¿ĽçĲĥ": 8650,
      "éĺŁåľ¨": 8651,
      "æ³¢å£«é¡¿": 8652,
      "çľĭè§ģ": 8653,
      "ä¸»é¢ĺæĽ²": 8654,
      "æŃĩå°Ķ": 8655,
      "//": 8656,
      "åŀ£": 8657,
      "æĶ¹èī¯": 8658,
      "ä¸ĵç§ĳ": 8659,
      "ä¸ĵæ³¨": 8660,
      "éĩİçĶŁ": 8661,
      "å±¯éĹ¨": 8662,
      "åįģåĽĽå¹´": 8663,
      "ç¦¾": 8664,
      "çĦ°": 8665,
      "åıĤæ¼Ķ": 8666,
      "è°ĥä»»": 8667,
      "æŀģä¸º": 8668,
      "çĽ®åīįå°ļæľªçĶ±äººå·¥å¼ķç§įæł½åŁ¹": 8669,
      "Ġå»ºçŃĳ": 8670,
      "åĪĨäº«": 8671,
      "ä»»æĦı": 8672,
      "èī®": 8673,
      "æľŁåĪĬ": 8674,
      "ç½Ĺè®·": 8675,
      "éĺ¿åŁº": 8676,
      "å¯¼å¸Ī": 8677,
      "çľŁæŃ£çļĦ": 8678,
      "Ġ189": 8679,
      "åīįæĿ¥": 8680,
      "é«ĺå±Ĥ": 8681,
      "ç»ıè´¹": 8682,
      "åįģåħŃå¹´": 8683,
      "å°¼æ³Ĭ": 8684,
      "éĺ¿å§Ĩ": 8685,
      "åİĭç¼©": 8686,
      "å·¡æĬļ": 8687,
      "éŀį": 8688,
      "åıĳè¨Ģäºº": 8689,
      ")(": 8690,
      "éĺĢ": 8691,
      "é«ĺæł¡": 8692,
      "ä½ĵæĵį": 8693,
      "ç²¾ç¡®": 8694,
      "åı³ç¿¼": 8695,
      "éĺµäº¡": 8696,
      "tern": 8697,
      "èĭį": 8698,
      "ern": 8699,
      "éļıæľº": 8700,
      "çķĻåŃ¦": 8701,
      "è¯»èĢħ": 8702,
      "éĽħåħ¸": 8703,
      "å®ľåħ°": 8704,
      "äºİ188": 8705,
      "Ġ1949å¹´": 8706,
      "Ġä¸ªäººçĶŁæ´»": 8707,
      "CN": 8708,
      "è®¾åľ¨": 8709,
      "æ¶¨": 8710,
      "èĤ¡ä¸ľ": 8711,
      "åīįéĶĭ": 8712,
      "å°Ĩä»ĸ": 8713,
      "è·¯å¾Ħ": 8714,
      "é¦ĸå°Ķ": 8715,
      "åı¤å¸ĮèħĬ": 8716,
      "çİĩåĨĽ": 8717,
      "1963å¹´": 8718,
      "åħįçĸ«": 8719,
      "è¶ĭåĬ¿": 8720,
      "ç©Ĩç½ķé»ĺå¾·": 8721,
      "ä¸ŃåİŁ": 8722,
      "çķı": 8723,
      "åĪĿæŃ¥": 8724,
      "è´Ńçī©": 8725,
      "æ´ªæ°´": 8726,
      "ç»Łæ²»èĢħ": 8727,
      "å¤©æĸĩåŃ¦å®¶": 8728,
      "çļĦæľī": 8729,
      "çº¦åħĭ": 8730,
      "æıĲæ¡Ī": 8731,
      "åĬłåħ¥ä¸ŃåĽ½åħ±äº§åħļ": 8732,
      "ES": 8733,
      "äººä¸İ": 8734,
      "äººæĸĩ": 8735,
      "æĺ¯ä¸ĭè¾ĸçļĦä¸Ģä¸ª": 8736,
      "æĹ¶åĪ»": 8737,
      "å°ıå§Ĳ": 8738,
      "æĦŁæĥħ": 8739,
      "èĭ±åĽ½çļĦ": 8740,
      "æ²¿çĶ¨": 8741,
      "åĽłæŃ¤åľ¨": 8742,
      "éĤ®å±Ģ": 8743,
      "å§Ĭå¦¹": 8744,
      "ä¸Ģå¼Ģå§ĭ": 8745,
      "åıĳèĤ²": 8746,
      "ãĢĬãĢĭ(": 8747,
      "æľ¬æ¬¡": 8748,
      "åı¯éĿł": 8749,
      "ç¼Ĩ": 8750,
      "æ°´ä¸Ĭ": 8751,
      "æ°´æ·±": 8752,
      "å·´æĸ¯": 8753,
      "æĥħæĦŁ": 8754,
      "å±ĢåĬ¿": 8755,
      "æĬĢå·§": 8756,
      "èĢĥåħ¥": 8757,
      "èį£èİ·": 8758,
      "è®¨ä¼Ĳ": 8759,
      "æĪªæŃ¢": 8760,
      "è¡¨çİ°åĩº": 8761,
      "Qu": 8762,
      "mm": 8763,
      "èĥĢ": 8764,
      "å½ĵä½ľ": 8765,
      "éĢīæĭĶ": 8766,
      "åĸĻ": 8767,
      "è®¤ä¸ºæĺ¯": 8768,
      "ä»ħä»ħ": 8769,
      "å½Ĵç±»": 8770,
      "æĻļéĹ´": 8771,
      "æĭľåįł": 8772,
      "ä¸Ģåı·": 8773,
      "ä¼ļç¤¾": 8774,
      "å¹¶è¡¨ç¤º": 8775,
      "éĿ¢ä¸Ĭ": 8776,
      "é¦ĸæī¹": 8777,
      "ç¦»å©ļ": 8778,
      "åĶ®ç¥¨": 8779,
      "odice": 8780,
      "çļĦç¤¾ä¼ļ": 8781,
      "ä¸ļä½Ļ": 8782,
      "éĤ¹": 8783,
      "äº¤æĪĺ": 8784,
      "å¤ĦåĨ³": 8785,
      "çļĦä¸Ģæ¬¡": 8786,
      "çħĮ": 8787,
      "æľĢç»Īåľ¨": 8788,
      "èµĭäºĪ": 8789,
      "çļĦèº«ä»½": 8790,
      "åĴı": 8791,
      "å®īå¦®": 8792,
      "åº§åłĤ": 8793,
      "å®¢è½¦": 8794,
      "èŀºæĹĭ": 8795,
      "æĶ¿åįıå§Ķåĳĺ": 8796,
      "éĻ¨çŁ³åĿĳ": 8797,
      "âĦĥ": 8798,
      "åĩºåľŁ": 8799,
      "ä¹ĭä¸Ĭ": 8800,
      "å¤ļä¼¦": 8801,
      "ä½ĵéĩį": 8802,
      "ç¼¸": 8803,
      "åİ¿éķ¿": 8804,
      "åĨ³çŃĸ": 8805,
      "åĽŃåĮº": 8806,
      "å½±åĵįåĬĽ": 8807,
      "ames": 8808,
      "åİ»ä¸ĸåĲİ": 8809,
      "ä¸įçŁ¥": 8810,
      "ä¸įä½³": 8811,
      "åĨĽæĸ¹": 8812,
      "å¤©åºľ": 8813,
      "154": 8814,
      "å¹¶æľī": 8815,
      "æ¬¡åĪĹè½¦": 8816,
      "éĽĨçļĦ": 8817,
      "å¤ªå®Ī": 8818,
      "1934å¹´": 8819,
      "çī§å¸Ī": 8820,
      "éĽķåĥı": 8821,
      "æĦıæĢĿæĺ¯": 8822,
      "EST": 8823,
      "çļĦä¸Ĭ": 8824,
      "åŃļ": 8825,
      "åĲİåĽł": 8826,
      "è§ĤéŁ³": 8827,
      "ä¼¦æĸ¯": 8828,
      "å¤±è¸ª": 8829,
      "æ£®åł¡": 8830,
      "çĨĶ": 8831,
      "åĺīå®¾": 8832,
      "åĲ¦åĪĻ": 8833,
      "åıĳè¡¨äºĨ": 8834,
      "çļĦç»ıæµİ": 8835,
      "æĪĺç»©": 8836,
      "éĩĬåĩº": 8837,
      "1929å¹´": 8838,
      "èİİçĻ½": 8839,
      "3Ġ": 8840,
      "åľ¨å½ĵæĹ¶": 8841,
      "äºĨè¯¥": 8842,
      "çĶµè·¯": 8843,
      "å·´å«©": 8844,
      "ç¦ıå°Ķ": 8845,
      "å·¥ä½ľäººåĳĺ": 8846,
      "æ½ľåľ¨": 8847,
      "ä¿ĥä½¿": 8848,
      "æ°ŁåĮĸ": 8849,
      "åľ¨ä¸İ": 8850,
      "è§Ħæł¼": 8851,
      "è§ģäºİ": 8852,
      "çĥŃéĹ¨": 8853,
      "æĬĹæĹ¥æĪĺäºī": 8854,
      "çļĦåħ¨": 8855,
      "ä»¥3": 8856,
      "è¢ľ": 8857,
      "ä¹ĲåĽŃ": 8858,
      "éĴ§": 8859,
      "æĶ¯çº¿": 8860,
      "é¹¦": 8861,
      "æľĢé«ĺæ³ķéĻ¢": 8862,
      "èŁ¹": 8863,
      "Ġæ³ķåĽ½": 8864,
      "çļĦæ´»åĬ¨": 8865,
      "çļĦç¬¬ä¸ī": 8866,
      "ä¸ºåı°æ¹¾": 8867,
      "149": 8868,
      "æľĢé«ĺçĤ¹": 8869,
      "ogle": 8870,
      "ĠåıĤèĢĥ": 8871,
      "åľ¨æ¬§æ´²": 8872,
      "æĭ¯": 8873,
      "èĩªä¸»": 8874,
      "éĽĨç»ĵ": 8875,
      "ä¼łéĢĴ": 8876,
      "å¨ģå°¼æĸ¯": 8877,
      "èĪªç«Ļ": 8878,
      "ä¾¦å¯Ł": 8879,
      "èı²åĪ©æĻ®": 8880,
      "5åħ¬éĩĮ": 8881,
      "çļĦä¼łç»Ł": 8882,
      "é¢Į": 8883,
      "ä½ĵç§¯": 8884,
      "é¦ĸæŃĮæĽ²": 8885,
      "é»İå·´å«©": 8886,
      "æ¸ħåįİå¤§åŃ¦": 8887,
      "3ç±³": 8888,
      "ç¬¬10": 8889,
      "åı¤è¿¹": 8890,
      "ç½®äºİ": 8891,
      "èŃ¦åĳĺ": 8892,
      "æĲľç´¢": 8893,
      "äººå¤§å¸¸å§Ķä¼ļ": 8894,
      "åı¯æĺ¯": 8895,
      "æĪĺåĽ½": 8896,
      "æį®è¯´": 8897,
      "å¤ªåİŁ": 8898,
      "éĿ¢ç§¯åĴĮäººåı£": 8899,
      "è§Ĥèµı": 8900,
      "æ¸©æ³ī": 8901,
      "äºĮåįģå¹´": 8902,
      "é¢Ŀå¤ĸ": 8903,
      "æĴ¤ç¦»": 8904,
      "å®Įæķ´çļĦ": 8905,
      "ç²¤è¯Ń": 8906,
      "res": 8907,
      "åĵº": 8908,
      "ä½Ĩä»į": 8909,
      "ç±»åĪ«": 8910,
      "ç¡ħ": 8911,
      "çłĶåĪ¶": 8912,
      "igh": 8913,
      "ç¡¬å¸ģ": 8914,
      "çļĦåĪĨ": 8915,
      "å£¬": 8916,
      "éĺŁåıĭ": 8917,
      "äº¤åĵį": 8918,
      "éĽĨä¼ļ": 8919,
      "è§Ĥå¿µ": 8920,
      "éºĵ": 8921,
      "æ²¿çº¿": 8922,
      "1927å¹´": 8923,
      "æĲŃéħį": 8924,
      "ix": 8925,
      "æĪİ": 8926,
      "èĩ³2": 8927,
      "è¯¥åºĦ": 8928,
      "é©¬åĬĽ": 8929,
      "æİĴéĻ¤": 8930,
      "æĪĲåĬŁçļĦ": 8931,
      "æĺ¯ä¸Ģä¸ªä½įäºİç¾İåĽ½": 8932,
      "DNA": 8933,
      "åº¸": 8934,
      "å¹³æĪĲ": 8935,
      "ç¥·": 8936,
      "é¦ĸä»»": 8937,
      "æĹĹä¸ĭçļĦ": 8938,
      "1924å¹´": 8939,
      "èĢĮè¯¥åľ°çļĦå¹³åĿĩæµ·æĭĶé«ĺåº¦ä¸º": 8940,
      "ool": 8941,
      "Ġ2001å¹´": 8942,
      "1912å¹´": 8943,
      "æĢ»åħ±": 8944,
      "æĽ¾æĭħä»»": 8945,
      "å°±åı¯ä»¥": 8946,
      "ä¸ĩå¹´": 8947,
      "è¾ĥå¤§çļĦ": 8948,
      "éĴĵé±¼": 8949,
      "ð¬": 8950,
      "æŃ¼": 8951,
      "åĨħäºļ": 8952,
      "æķĻå¾Ĵ": 8953,
      "ä¼łè¾ĵ": 8954,
      "æĳĺ": 8955,
      "çļĨæľªçŁ¥": 8956,
      "èĿĻ": 8957,
      "æııè¿°ä¸º": 8958,
      "å·¡åĽŀèµĽ": 8959,
      "è¯¥åľ°çļĦéĿ¢ç§¯åĴĮäººåı£": 8960,
      "è¯¥åľ°çļĦéĿ¢ç§¯åĴĮäººåı£çļĨæľªçŁ¥": 8961,
      "æľ¬åľ°åĮº": 8962,
      "ä¹Łç§°": 8963,
      "æ´Ľçī¹": 8964,
      "æĿ°åĩº": 8965,
      "æĭľåįłåºŃ": 8966,
      "Ġre": 8967,
      "ä¸¢": 8968,
      "å°±ä»»": 8969,
      "ann": 8970,
      "åĭĴæĸ¯": 8971,
      "æĶ¿æ²»å®¶": 8972,
      "æĸĩåĮĸå¤§éĿ©åĳ½": 8973,
      "ä¾ĿéĿł": 8974,
      "é¡ºæĹ¶éĴĪ": 8975,
      "act": 8976,
      "æĦıè¯ĨåĪ°": 8977,
      "2ç±³": 8978,
      "åĨ¢": 8979,
      "èĩ³æŃ¤": 8980,
      "åĳ½åĲįçļĦ": 8981,
      "åĪĴåħ¥": 8982,
      "çŃĸåĪĴ": 8983,
      "enter": 8984,
      "èĿĻèĿł": 8985,
      "ier": 8986,
      "çļĦæ²³æµģ": 8987,
      "è´¦": 8988,
      "åĩºæĿ¥çļĦ": 8989,
      "å¼ĢæĴŃ": 8990,
      "ç¾İä¸½": 8991,
      "è¿ĽåĨĽ": 8992,
      "è°ķ": 8993,
      "åĪ¶åĵģ": 8994,
      "å±±åı£": 8995,
      "ç«Ļèĩ³": 8996,
      "ç½ĳåıĭ": 8997,
      "æ¨¡ä»¿": 8998,
      "éĺ²åį«": 8999,
      "å©ļç¤¼": 9000,
      "ç´¯ç§¯": 9001,
      "æĹłçº¿çĶµ": 9002,
      "æľ¬æĿ¥": 9003,
      "åĲĪçĲĨ": 9004,
      "è¯Ħè®ºå®¶": 9005,
      "è¾½å®ģçľģ": 9006,
      "()ãĢģ": 9007,
      "æ°Ľ": 9008,
      "æĹ¥çĽĬ": 9009,
      "é«ĺå±±": 9010,
      "æ»ŀ": 9011,
      "å¡ŀæĭľ": 9012,
      "Ġ17": 9013,
      "ç§ī": 9014,
      "æĸ¹ç¨ĭå¼ı": 9015,
      "ç½Ĺä¼¯": 9016,
      "åĥļ": 9017,
      "Ġ2000å¹´": 9018,
      "åħ¬åĬ¡åĳĺ": 9019,
      "æĪĲçļĦ": 9020,
      "åĪĨä¹ĭ": 9021,
      "æŃ£æĺ¯": 9022,
      "é»ı": 9023,
      "åıĤè§ģ": 9024,
      "æ²Ļæ¼ł": 9025,
      "å¤ıå¨ģ": 9026,
      "å¯ºéĻ¢": 9027,
      "è®¯æģ¯": 9028,
      "ton": 9029,
      "Ġåħ¨": 9030,
      "ä¸Ģä»½": 9031,
      "æ±¶": 9032,
      "æĪĺä¸Ń": 9033,
      "éĵĿ": 9034,
      "åĶĩ": 9035,
      "åıįæĬĹ": 9036,
      "æĸĩåĮĸéģĹäº§": 9037,
      "å¼Ĺåħ°": 9038,
      "èĢ¶å°Ķ": 9039,
      "è¡Ģæ¶²": 9040,
      "åŁºæľ¬ä¸Ĭ": 9041,
      "CC": 9042,
      "Ġä¸ľ": 9043,
      "çļĦåħ¶ä»ĸ": 9044,
      "å¾·ç½Ĺ": 9045,
      "ãĢį)": 9046,
      "ä½ĵåŀĭ": 9047,
      "åĽĽäºº": 9048,
      "æĮĩä»¤": 9049,
      "çĻ½ä¿Ħç½Ĺæĸ¯": 9050,
      "éħįä¹Ĳ": 9051,
      "ä¼ĳæģ¯": 9052,
      "æ¯«æĹł": 9053,
      "ĠAr": 9054,
      "çļĦåĲĮæĹ¶": 9055,
      "éķ¶": 9056,
      "åĲįåı«": 9057,
      "åįİä¸º": 9058,
      "æĿĥå¨ģ": 9059,
      "é¦Ļæ¸¯çļĦ": 9060,
      "åħ´èµ·": 9061,
      "çľŁäºº": 9062,
      "åĮħåĲ«äºĨ": 9063,
      "äº¤æĺĵæīĢ": 9064,
      "900": 9065,
      "è¡Įè½¦": 9066,
      "ä¹ĭæĹ¶": 9067,
      "å¹¶èİ·å¾Ĺ": 9068,
      "è¯Ńä¸Ń": 9069,
      "åłµ": 9070,
      "ç¬¬ä¸ĢçĻ¾": 9071,
      "ç¼ĸåĪ¶": 9072,
      "äºĪä»¥": 9073,
      "çº½çº¦å¸Ĥ": 9074,
      "ä¸įåıĹ": 9075,
      "ä¿±": 9076,
      "åĬ¨å·¥": 9077,
      "è¿Ĳç®Ĺ": 9078,
      "ä¹īåĬ¡": 9079,
      "åĬ©äºİ": 9080,
      "çİ¯ä¿Ŀ": 9081,
      "æĹ¶éĹ´çļĦ": 9082,
      "åŁİå¸ĤçļĦ": 9083,
      "åı¬éĽĨ": 9084,
      "çģŃäº¡": 9085,
      "å¹»æĥ³": 9086,
      "Ġè½¦ç«Ļç»ĵæŀĦ": 9087,
      "çļĦçĽ®æłĩ": 9088,
      "åĴĮç¾İåĽ½": 9089,
      "ç¬¬åįģäºĮ": 9090,
      "åı°ä¸ľ": 9091,
      "èĥ½åľ¨": 9092,
      "æķ°åįĥ": 9093,
      "æĢ»æĺ¯": 9094,
      "èĭ±è¶ħ": 9095,
      "å½±è¯Ħ": 9096,
      "å¥³ç¥ŀ": 9097,
      "æĿ¡çĽ®": 9098,
      "æİ¢è®¨": 9099,
      "éļĶå¹´": 9100,
      "AD": 9101,
      "ium": 9102,
      "çļĦå¯¹": 9103,
      "çļĦæīĭ": 9104,
      "åĵŃ": 9105,
      "æŃ¤åľ°": 9106,
      "åħ°åį¡": 9107,
      "è¯´æľį": 9108,
      "åĳ¨æľ«": 9109,
      "åī¯æĢ»ç»Ł": 9110,
      "å§Ķåĳĺä¼ļçļĦ": 9111,
      "æ¾İ": 9112,
      "round": 9113,
      "çīĪæľ¬çļĦ": 9114,
      "åİĦå°Ķ": 9115,
      "åıĹå®³èĢħ": 9116,
      "AV": 9117,
      "ç¬¬8": 9118,
      "çİ°å·²": 9119,
      "ä½ĵçİ°": 9120,
      "æĭīå¾·": 9121,
      "å¸ĥå±Ģ": 9122,
      "è¯ŃåĴĮ": 9123,
      "åĽ½å®¶å®īåħ¨": 9124,
      "æķ´çĲĨ": 9125,
      "éĿĴæµ·": 9126,
      "è´¹å°Ķ": 9127,
      "æł¼åħ°çī¹": 9128,
      "åĪĽä½ľçļĦ": 9129,
      "è·ĳéģĵ": 9130,
      "ĠæĹ©æľŁ": 9131,
      "åľ°åĿĢ": 9132,
      "çĶ±æĿ¥": 9133,
      "ä¸ĭæ¸¸": 9134,
      "éĩĮéĿ¢": 9135,
      "ä¸ĵåĪ©": 9136,
      "æīĵè´¥": 9137,
      "è§ģåĪ°": 9138,
      "çīĻé½¿": 9139,
      "åĨ°å·Ŀ": 9140,
      "åŁºçĿ£å¾Ĵ": 9141,
      "æ¸ħæľĿæĶ¿æ²»äººçī©": 9142,
      "åįģåħ«å¹´": 9143,
      "ä¸ºè¯¥": 9144,
      "ç¬¬7": 9145,
      "æľºåĬ¨": 9146,
      "å¸Īéķ¿": 9147,
      "ç»Īèº«": 9148,
      "çģµæĦŁ": 9149,
      "ç¾İæľ¯é¦Ĩ": 9150,
      "PlayStation": 9151,
      "Ph": 9152,
      "çļĦè¥¿": 9153,
      "çļĦå»ºçŃĳ": 9154,
      "åĵ©": 9155,
      "æĿ¥çľĭ": 9156,
      "åĪ¶è£ģ": 9157,
      "è¿ĳå¹³": 9158,
      "æ±īåł¡": 9159,
      "çľĭæ³ķ": 9160,
      "éĿ©åĳ½åĨĽ": 9161,
      "ä¾µçĬ¯": 9162,
      "åĲĵ": 9163,
      "å¹¶æĪĲä¸º": 9164,
      "éĵħ": 9165,
      "åıĺæĽ´": 9166,
      "æīĵéĢł": 9167,
      "åĿĩåľ¨": 9168,
      "è´Ŀæł¼": 9169,
      "åıĭè°Ĭ": 9170,
      "å¯ºåºĻ": 9171,
      "æİ¨åĩºçļĦ": 9172,
      "åĪłéĻ¤": 9173,
      "çļĦæľºä¼ļ": 9174,
      "ä¸ºå¤§": 9175,
      "ä»ĸä»¥": 9176,
      "èĥĥ": 9177,
      "ä¸īçº§": 9178,
      "å¤©æĸĩåŃ¦": 9179,
      "çĪ±å¥½": 9180,
      "æ¦´": 9181,
      "ung": 9182,
      "III": 9183,
      "Ġé»Ħ": 9184,
      "åľ°åŁŁ": 9185,
      "åĲįé¢Ŀ": 9186,
      "æ¬¡åŃĲ": 9187,
      "æŃĮåī§": 9188,
      "å®£å¸ĥå°Ĩ": 9189,
      "èĭ¥å¹²": 9190,
      "112": 9191,
      "Ġå°ı": 9192,
      "èĢĮéĹ»åĲį": 9193,
      "çĭĲ": 9194,
      "çŁŃçīĩ": 9195,
      "åĿĲæłĩ": 9196,
      "å®ļä¹īä¸º": 9197,
      "æĦıåĳ³çĿĢ": 9198,
      "åģľè½¦åľº": 9199,
      "ĠæŃ£": 9200,
      "Ġåį¡": 9201,
      "çīº": 9202,
      "åĨĽå§Ķ": 9203,
      "æĢ»åı¸ä»¤": 9204,
      "åĪĻä»¥": 9205,
      "è¡ĮæĶ¿åįķä½į": 9206,
      "åĨ³èµĽä¸Ń": 9207,
      "ä¸ºé£Ł": 9208,
      "ä¸ĢæĹ¦": 9209,
      "å¹³å®ī": 9210,
      "æ¢Ń": 9211,
      "å¼Ģå§ĭäºĨ": 9212,
      "åľŁå£¤": 9213,
      "ish": 9214,
      "é¡ºæ²»": 9215,
      "æį·è¿Ĳ": 9216,
      "èĪªç«Ļæ¥¼": 9217,
      "å¤ıå¨ģå¤·": 9218,
      "çļĦå¤ļ": 9219,
      "åľ¨åīį": 9220,
      "æĪļ": 9221,
      "çĻ¸": 9222,
      "å°±åĥı": 9223,
      "éŁ³èĬĤ": 9224,
      "æ´»æĢ§": 9225,
      "ä¸ĵåĳĺ": 9226,
      "ãĢīãĢģ": 9227,
      "ç½ķè§ģ": 9228,
      "åĲīæŀĹçľģ": 9229,
      "Ġth": 9230,
      "èĤ¾": 9231,
      "ä¾¿æĺ¯": 9232,
      "éĺµèĲ¥": 9233,
      "æŁĲç§į": 9234,
      "å´ĩæĭľ": 9235,
      "ç¿ĮæĹ¥": 9236,
      "æ±Łè¥¿çľģ": 9237,
      "æĽ¼èģĶ": 9238,
      "ä¹łè¿ĳå¹³": 9239,
      "æĻļå¹´": 9240,
      "åŃĺåľ¨äºİ": 9241,
      "èĩĢé³į": 9242,
      ".&": 9243,
      "06": 9244,
      "åĨĽèĪ°": 9245,
      "éĩĮæĺĤ": 9246,
      "å·ŀè´Łè´£ç®¡è¾ĸ": 9247,
      "éĢłèĪ¹": 9248,
      "çĳļ": 9249,
      "èĲ½åĲİ": 9250,
      "åħ¸åŀĭ": 9251,
      "çº½çº¦å·ŀ": 9252,
      "è·¨è¶Ĭ": 9253,
      "æ¢¦æĥ³": 9254,
      "æĺ¯ä½įäºİä¹Įåħĭåħ°": 9255,
      "åĲįç§°ä¸º": 9256,
      "éĥ½åı¯ä»¥": 9257,
      "éĶ¥": 9258,
      "åĽ¾å½¢": 9259,
      "ç¼ĸåħ¥": 9260,
      "è½¬ä¹ĺ": 9261,
      "èĲ½è´¥": 9262,
      "æĻ¶ä½ĵ": 9263,
      "éĩįçĤ¹æĸĩçī©ä¿ĿæĬ¤åįķä½į": 9264,
      "éĩĳéĹ¨": 9265,
      "ä¸ĸçķĮéģĹäº§": 9266,
      "çĶ·ä¸»è§Ĵ": 9267,
      "çªĳ": 9268,
      "çģ«åĬĽ": 9269,
      "äº«æľī": 9270,
      "çļĦéĿŀ": 9271,
      "åĳ¨æģ©": 9272,
      "åı°æ¹¾çļĦ": 9273,
      "ä¼¯åĪ©äºļ": 9274,
      "èĪªè¡Į": 9275,
      "å·¡æ¼Ķ": 9276,
      "è¡¥ç»Ļ": 9277,
      "éŀŃ": 9278,
      "Ġæł¹æį®2010å¹´ç¾İåĽ½äººåı£æĻ®æŁ¥çļĦæķ°æį®": 9279,
      "IST": 9280,
      "åĴĮç¤¾ä¼ļ": 9281,
      "æľ¬è´¨": 9282,
      "ç«ĭå§Ķ": 9283,
      "ä½ĨæľĢç»Ī": 9284,
      "è¯Ħå®¡": 9285,
      "é¢ĳç¹ģ": 9286,
      "åı«åģļ": 9287,
      "09": 9288,
      "te": 9289,
      "ãĢĬãĢĭ,": 9290,
      "èĭ±å¯¸": 9291,
      "çīºçī²": 9292,
      "åį¯": 9293,
      "æ°´åĪ©": 9294,
      "è¡ĮæĶ¿éķ¿å®ĺ": 9295,
      "å¹¿å·ŀå¸Ĥ": 9296,
      "æĺĨèĻ«": 9297,
      "6ç±³": 9298,
      "pen": 9299,
      "ä¸ŃçŃī": 9300,
      "æ³ķåĨĽ": 9301,
      "å¹³å®ļ": 9302,
      "å®Įç¾İ": 9303,
      "èĲ¥åħ»": 9304,
      "Sc": 9305,
      "Ġ202": 9306,
      "Ġ14": 9307,
      "åŃ¦åłĤ": 9308,
      "æķ°ä¸ª": 9309,
      "æĶ¹ç»Ħ": 9310,
      "åŃ£èĬĤ": 9311,
      "æ¹ĸå¹¿": 9312,
      "24å°ıæĹ¶": 9313,
      "åľ¨è¿ĻéĩĮ": 9314,
      "ile": 9315,
      "1918å¹´": 9316,
      "æĸ¯åľ¨": 9317,
      "è¢«æĿĢ": 9318,
      "æĥĳ": 9319,
      "äº¤ä»ĺ": 9320,
      "å¹¿æ³ĽçļĦ": 9321,
      "å½°åĮĸ": 9322,
      "çļĦè¡¨çİ°": 9323,
      "ä¸Ģè·¯": 9324,
      "ä¸įä½Ĩ": 9325,
      "æľ¬åĲį": 9326,
      "ç«ĭä½ĵ": 9327,
      "çķ´": 9328,
      "åį³ä¸º": 9329,
      "èģĮè´£": 9330,
      "å¾ĢæĿ¥": 9331,
      "1970å¹´ä»£": 9332,
      "å°¼æ³Ĭå°Ķ": 9333,
      "æ¸Ĺ": 9334,
      "å®¶å±ŀ": 9335,
      "æĪĺè´¥": 9336,
      "ç¦¹": 9337,
      "å½±å±ķ": 9338,
      "æıĲçĲ´": 9339,
      "é£İæĻ¯": 9340,
      "åħīåŃ¦": 9341,
      "åıĪåľ¨": 9342,
      "æĹ§éĩĳå±±": 9343,
      "éĢĥç¦»": 9344,
      "åĲ¬åĪ°": 9345,
      "çĪĨåıĳåĲİ": 9346,
      "æĶ¶è§Ĩçİĩ": 9347,
      "ä¸»äºº": 9348,
      "ä¸īä½į": 9349,
      "é©¬æģ©çľģ": 9350,
      "çĲĥè¿ĲåĬ¨åĳĺ": 9351,
      "éĻ¢æł¡": 9352,
      "é¾Ļç§ĳ": 9353,
      "è¡¥åĬ©": 9354,
      "ass": 9355,
      "èµ¤çº¬": 9356,
      "ä¸Ģåħ±": 9357,
      "ç¬¬11": 9358,
      "127": 9359,
      "ineĠ": 9360,
      "å¥¹ä¸İ": 9361,
      "å¸¦æĿ¥çļĦ": 9362,
      "ç½ĳæ°ĳ": 9363,
      "ä¸ĸçºªçļĦ": 9364,
      "æľĢåĲİä¸Ģæ¬¡": 9365,
      "å±ıä¸ľ": 9366,
      "çļĦåľŁåľ°": 9367,
      "ä¸Ģèĩ³": 9368,
      "æľīçº¿": 9369,
      "éĺĲ": 9370,
      "è¿Ļä½į": 9371,
      "ä¸Ģä¸ªæľĪ": 9372,
      "æĢ»ä½ĵ": 9373,
      "å°±è¢«": 9374,
      "äº¦ä¸º": 9375,
      "çİ¯ç»ķ": 9376,
      "æĸĩåĮĸçļĦ": 9377,
      "ä¹ĭåīįçļĦ": 9378,
      "æĵħéķ¿": 9379,
      "sk": 9380,
      "æĸ¯åĴĮ": 9381,
      "å¹¶åĲĳ": 9382,
      "å¤ıå¤©": 9383,
      "åĨľåİĨ": 9384,
      "ç´¢æģ©": 9385,
      "ç³»åĪĹçļĦ": 9386,
      "é¢ģå¥ĸåħ¸ç¤¼": 9387,
      "ç»´åŁºçĻ¾ç§ĳ": 9388,
      "çļĦåĨĽäºĭ": 9389,
      "ä»»ä¸Ńåħ±": 9390,
      "è¿Ľå±ķ": 9391,
      "è½¬åŀĭ": 9392,
      "å¯ĨèĭıéĩĮ": 9393,
      "çĻ½äºº": 9394,
      "è¯ºè´Ŀå°Ķ": 9395,
      "éĺ¿å°Ķå·´": 9396,
      "ä¿ĺèĻı": 9397,
      "æ¯ĹéĤ»": 9398,
      "3åĲį": 9399,
      "ood": 9400,
      "ä¸Ĭå°Ĩ": 9401,
      "åħ¶åŃĲ": 9402,
      "æĸ°åı°å¸ģ": 9403,
      "æ¹Ľ": 9404,
      "è®®éķ¿": 9405,
      "æ·Ģ": 9406,
      "æĶ»åħ¥": 9407,
      "æĻºåĪ©": 9408,
      "éĽ¶åĶ®": 9409,
      "èĳ£äºĭä¼ļ": 9410,
      "éĽįæŃ£": 9411,
      "Ġæ²¿éĿ©": 9412,
      "å¤§å¸Ŀ": 9413,
      "åĴĮ1": 9414,
      "éĩĮå¥¥": 9415,
      "å·ŀçļĦä¸Ģä¸ªå¸Ĥéķĩ": 9416,
      "åİ¿æ²»": 9417,
      "å¸¸ä½ı": 9418,
      "æĻ®æŀĹ": 9419,
      "orld": 9420,
      "åĲĦåľ°çļĦ": 9421,
      "æ¯ıä¸Ģ": 9422,
      "çģ«çĤ®": 9423,
      "è´ŁéĿ¢": 9424,
      "åĢĻè½¦": 9425,
      "æīĢè°ĵçļĦ": 9426,
      "è¿½æº¯åĪ°": 9427,
      "æĺ¯æľī": 9428,
      "çī¢": 9429,
      "åħ¶ä¸ŃçļĦ": 9430,
      "åĲĮå¿Ĺ": 9431,
      "äºļç§ĳ": 9432,
      "æĽ´æĶ¹": 9433,
      "æĽ´å¤§çļĦ": 9434,
      "ä¿¡çĶ¨": 9435,
      "ç¦ıçī¹": 9436,
      "æĭħå½ĵ": 9437,
      "æī§æ³ķ": 9438,
      "ä¹ĺè½¦": 9439,
      "çĭ®åŃĲ": 9440,
      "GB": 9441,
      "èī°": 9442,
      "æĢ»ä¹¦è®°": 9443,
      "è§ĨæĺŁçŃīä¸º": 9444,
[...]
