{
  "version": "1.0",
  "truncation": null,
  "padding": null,
  "added_tokens": [],
  "normalizer": null,
  "pre_tokenizer": {
    "type": "Sequence",
    "pretokenizers": [
      {
        "type": "Split",
        "pattern": {
          "Regex": "[^\\p{L}\\p{N}\\s]+|[\\r\\n]+"
        },
        "behavior": "Isolated",
        "invert": false
      },
      {
        "type": "ByteLevel",
        "add_prefix_space": false,
        "trim_offsets": true,
        "use_regex": false
      }
    ]
  },
  "post_processor": null,
  "decoder": null,
  "model": {
    "type": "BPE",
    "dropout": null,
    "unk_token": null,
    "continuing_subword_prefix": null,
    "end_of_word_suffix": null,
    "fuse_unk": false,
    "byte_fallback": false,
    "ignore_merges": false,
    "vocab": {
      "!": 0,
      "\"": 1,
      "#": 2,
      "$": 3,
      "%": 4,
      "&": 5,
      "'": 6,
      "(": 7,
      ")": 8,
      "*": 9,
      "+": 10,
      ",": 11,
      "-": 12,
      ".": 13,
      "/": 14,
      "0": 15,
      "1": 16,
      "2": 17,
      "3": 18,
      "4": 19,
      "5": 20,
      "6": 21,
      "7": 22,
      "8": 23,
      "9": 24,
      ":": 25,
      ";": 26,
      "=": 27,
      "?": 28,
      "@": 29,
      "A": 30,
      "B": 31,
      "C": 32,
      "D": 33,
      "E": 34,
      "F": 35,
      "G": 36,
      "H": 37,
      "I": 38,
      "J": 39,
      "K": 40,
      "L": 41,
      "M": 42,
      "N": 43,
      "O": 44,
      "P": 45,
      "Q": 46,
      "R": 47,
      "S": 48,
      "T": 49,
      "U": 50,
      "V": 51,
      "W": 52,
      "X": 53,
      "Y": 54,
      "Z": 55,
      "[": 56,
      "\\": 57,
      "]": 58,
      "^": 59,
      "_": 60,
      "`": 61,
      "a": 62,
      "b": 63,
      "c": 64,
      "d": 65,
      "e": 66,
      "f": 67,
      "g": 68,
      "h": 69,
      "i": 70,
      "j": 71,
      "k": 72,
      "l": 73,
      "m": 74,
      "n": 75,
      "o": 76,
      "p": 77,
      "q": 78,
      "r": 79,
      "s": 80,
      "t": 81,
      "u": 82,
      "v": 83,
      "w": 84,
      "x": 85,
      "y": 86,
      "z": 87,
      "|": 88,
      "~": 89,
      "¡": 90,
      "¢": 91,
      "£": 92,
      "¤": 93,
      "¥": 94,
      "¦": 95,
      "§": 96,
      "¨": 97,
      "©": 98,
      "ª": 99,
      "«": 100,
      "¬": 101,
      "®": 102,
      "¯": 103,
      "°": 104,
      "±": 105,
      "²": 106,
      "³": 107,
      "´": 108,
      "µ": 109,
      "¶": 110,
      "·": 111,
      "¸": 112,
      "¹": 113,
      "º": 114,
      "»": 115,
      "¼": 116,
      "½": 117,
      "¾": 118,
      "¿": 119,
      "Â": 120,
      "Ã": 121,
      "Ä": 122,
      "Å": 123,
      "Æ": 124,
      "Ç": 125,
      "È": 126,
      "É": 127,
      "Ê": 128,
      "Ë": 129,
      "Ì": 130,
      "Í": 131,
      "Î": 132,
      "Ï": 133,
      "Ð": 134,
      "Ñ": 135,
      "Ò": 136,
      "Ó": 137,
      "Ô": 138,
      "Õ": 139,
      "Ö": 140,
      "×": 141,
      "Ø": 142,
      "Ù": 143,
      "Ú": 144,
      "Û": 145,
      "Ü": 146,
      "Þ": 147,
      "ß": 148,
      "à": 149,
      "á": 150,
      "â": 151,
      "ã": 152,
      "ä": 153,
      "å": 154,
      "æ": 155,
      "ç": 156,
      "è": 157,
      "é": 158,
      "ê": 159,
      "ë": 160,
      "ì": 161,
      "í": 162,
      "î": 163,
      "ï": 164,
      "ð": 165,
      "ñ": 166,
      "Ċ": 167,
      "Ġ": 168,
      "ġ": 169,
      "Ģ": 170,
      "ģ": 171,
      "Ĥ": 172,
      "ĥ": 173,
      "Ħ": 174,
      "ħ": 175,
      "Ĩ": 176,
      "ĩ": 177,
      "Ī": 178,
      "ī": 179,
      "Ĭ": 180,
      "ĭ": 181,
      "Į": 182,
      "į": 183,
      "İ": 184,
      "ı": 185,
      "Ĳ": 186,
      "ĳ": 187,
      "Ĵ": 188,
      "ĵ": 189,
      "Ķ": 190,
      "ķ": 191,
      "ĸ": 192,
      "Ĺ": 193,
      "ĺ": 194,
      "Ļ": 195,
      "ļ": 196,
      "Ľ": 197,
      "ľ": 198,
      "Ŀ": 199,
      "ŀ": 200,
      "Ł": 201,
      "ł": 202,
      "Ń": 203,
      "ä¸": 204,
      "äº": 205,
      "çļ": 206,
      "çļĦ": 207,
      "åħ": 208,
      "åı": 209,
      "æľ": 210,
      "ãĢ": 211,
      "å¹": 212,
      "ä»": 213,
      "å¤": 214,
      "åľ": 215,
      "åĲ": 216,
      "åĪ": 217,
      "åĽ": 218,
      "å®": 219,
      "å¹´": 220,
      "ä½": 221,
      "æĹ": 222,
      "çĶ": 223,
      "åį": 224,
      "æĸ": 225,
      "è¿": 226,
      "å°": 227,
      "æĺ": 228,
      "ä¹": 229,
      "ç»": 230,
      "ãĢģ": 231,
      "åľ¨": 232,
      "ä¸º": 233,
      "åĬ": 234,
      "æĪ": 235,
      "ä¼": 236,
      "ä¸Ģ": 237,
      "åŃ": 238,
      "åĮ": 239,
      "å¸": 240,
      "è¯": 241,
      "è®": 242,
      "ä¸Ń": 243,
      "åĨ": 244,
      "åĽ½": 245,
      "äºº": 246,
      "æĺ¯": 247,
      "åº": 248,
      "æĿ": 249,
      "å¼": 250,
      "å·": 251,
      "äºİ": 252,
      "å¾": 253,
      "éĩ": 254,
      "çī": 255,
      "ç§": 256,
      "è¡": 257,
      "çº": 258,
      "å¤§": 259,
      "æī": 260,
      "éĢ": 261,
      "æľī": 262,
      "å±": 263,
      "æĶ": 264,
      "åĩ": 265,
      "åĴ": 266,
      "åĴĮ": 267,
      "20": 268,
      "æŃ": 269,
      "éĥ": 270,
      "èµ": 271,
      "èĢ": 272,
      "æķ": 273,
      "å½": 274,
      "åİ": 275,
      "æľĪ": 276,
      "å¯": 277,
      "æ°": 278,
      "éĻ": 279,
      "æĭ": 280,
      "æĹ¥": 281,
      "çĽ": 282,
      "èĩ": 283,
      "æ³": 284,
      "å¥": 285,
      "æł": 286,
      "çİ": 287,
      "19": 288,
      "éĺ": 289,
      "ä»¥": 290,
      "åĲİ": 291,
      "æĹ¶": 292,
      "âĢ": 293,
      "åĳ": 294,
      "äºĨ": 295,
      "åľ°": 296,
      "æ²": 297,
      "ç«": 298,
      "æµ": 299,
      "ä¼ļ": 300,
      "åŃ¦": 301,
      "è§": 302,
      "æĢ": 303,
      "è¾": 304,
      "è´": 305,
      "æĪĲ": 306,
      "éĹ": 307,
      "è½": 308,
      "éĿ": 309,
      "åŁ": 310,
      "ä¸ª": 311,
      "çĲ": 312,
      "ä¸Ĭ": 313,
      "éĥ¨": 314,
      "åī": 315,
      "æĸ¯": 316,
      "éķ": 317,
      "ä¸İ": 318,
      "è¡Į": 319,
      "ä»ĸ": 320,
      "åĩº": 321,
      "ä¸į": 322,
      "æ¯": 323,
      "åĮº": 324,
      "æ´": 325,
      "æŀ": 326,
      "æĬ": 327,
      "æİ": 328,
      "åħ¬": 329,
      "ç¬": 330,
      "åħ¶": 331,
      "åıĳ": 332,
      "æ¸": 333,
      "ç½": 334,
      "ä½ľ": 335,
      "çĶŁ": 336,
      "æĽ": 337,
      "å°Ķ": 338,
      "åĲį": 339,
      "ä¿": 340,
      "ä¸»": 341,
      "åĪĨ": 342,
      "è¢": 343,
      "çŃ": 344,
      "èĥ": 345,
      "ä¹ĭ": 346,
      "éģ": 347,
      "æĸ¹": 348,
      "ç¬¬": 349,
      "çĶ¨": 350,
      "å®¶": 351,
      "å§": 352,
      "ãĢĭ": 353,
      "ãĢĬ": 354,
      "è¥": 355,
      "å¹¶": 356,
      "ç¾": 357,
      "è¥¿": 358,
      "æ³ķ": 359,
      "åĪ°": 360,
      "å¿": 361,
      "èĢĮ": 362,
      "Â·": 363,
      "æ¬": 364,
      "é¢": 365,
      "åĨĽ": 366,
      "å»": 367,
      "åıĬ": 368,
      "è¢«": 369,
      "ä¾": 370,
      "æĶ¿": 371,
      "ä½į": 372,
      "ç±": 373,
      "çĶ±": 374,
      "æĮ": 375,
      "æľ¬": 376,
      "çľ": 377,
      "æ±": 378,
      "æ°ĳ": 379,
      "è·": 380,
      "éĽ": 381,
      "é¦": 382,
      "ä¸ĭ": 383,
      "å¸Ĥ": 384,
      "åĵ": 385,
      "å¯¹": 386,
      "åĲĮ": 387,
      "èģ": 388,
      "èĭ": 389,
      "åħĭ": 390,
      "åĬ¨": 391,
      "æĿ¥": 392,
      "çī¹": 393,
      "éķ¿": 394,
      "è¿Ļ": 395,
      "å¤ļ": 396,
      "ä»»": 397,
      "èĩª": 398,
      "å¼Ģ": 399,
      "éĩĮ": 400,
      "åĳĺ": 401,
      "åįĹ": 402,
      "é©": 403,
      "åŃĲ": 404,
      "åı¯": 405,
      "æĸ°": 406,
      "å¹³": 407,
      "èī": 408,
      "åĿ": 409,
      "èİ": 410,
      "åĬł": 411,
      "å¾·": 412,
      "åĮĹ": 413,
      "ãĢĮ": 414,
      "ãĢį": 415,
      "æľĢ": 416,
      "æĸĩ": 417,
      "å£": 418,
      "åĪ©": 419,
      "æĻ": 420,
      "ç¾İ": 421,
      "é«": 422,
      "åīį": 423,
      "ä¸ľ": 424,
      "ä»£": 425,
      "é«ĺ": 426,
      "äºļ": 427,
      "éĿ¢": 428,
      "æµ·": 429,
      "æīĢ": 430,
      "¦ģ": 431,
      "å¾Ĺ": 432,
      "èĩ³": 433,
      "ç¤": 434,
      "å»º": 435,
      "èĪ": 436,
      "éĹ´": 437,
      "æŃ¤": 438,
      "åĨħ": 439,
      "åĽł": 440,
      "äºĭ": 441,
      "âĢľ": 442,
      "ä¸ī": 443,
      "âĢĿ": 444,
      "çİ°": 445,
      "è¿Ľ": 446,
      "çĶµ": 447,
      "),": 448,
      "ä¹Ł": 449,
      "çī©": 450,
      "è¿ĩ": 451,
      "èµĽ": 452,
      "201": 453,
      "çŃī": 454,
      "åı°": 455,
      "åº¦": 456,
      "è½¦": 457,
      "åħ¥": 458,
      "è¯¥": 459,
      "ç»ı": 460,
      "å½ĵ": 461,
      "éģĵ": 462,
      "ç¥": 463,
      "è¦ģ": 464,
      "ç«ĭ": 465,
      "æĪĺ": 466,
      "å°Ĩ": 467,
      "çĲĨ": 468,
      "ç©": 469,
      "è¡¨": 470,
      "ä½ĵ": 471,
      "çŁ": 472,
      "çķ": 473,
      "æĭī": 474,
      "é¡": 475,
      "å¦": 476,
      "è°": 477,
      "å²": 478,
      "æľº": 479,
      "æķĻ": 480,
      "æľŁ": 481,
      "ä¸ĸ": 482,
      "èĲ": 483,
      "éļ": 484,
      "æı": 485,
      "å·¥": 486,
      "åĪ¶": 487,
      "ç®": 488,
      "èĥ½": 489,
      "äºĮ": 490,
      "å¤ĸ": 491,
      "åĲĪ": 492,
      "æį": 493,
      "è·¯": 494,
      "å®ļ": 495,
      "åı£": 496,
      "çľģ": 497,
      "å¸ĥ": 498,
      "æ¬¡": 499,
      "æĦ": 500,
      "é©¬": 501,
      "è®¾": 502,
      "åħ±": 503,
      "æĢ§": 504,
      "éĺŁ": 505,
      "åľº": 506,
      "éĢļ": 507,
      "ä¸ļ": 508,
      "å±±": 509,
      "å°ı": 510,
      "200": 511,
      "çĲĥ": 512,
      "ä½Ĩ": 513,
      "èĬ": 514,
      "ä½¿": 515,
      "éĵ": 516,
      "è¶": 517,
      "åįģ": 518,
      "ä¸Ģä¸ª": 519,
      "èĢħ": 520,
      "å·ŀ": 521,
      "åĮĸ": 522,
      "åħ¨": 523,
      "æĥ": 524,
      "ç³": 525,
      "æķ°": 526,
      "ç§į": 527,
      "é£": 528,
      "ç§°": 529,
      "å¤©": 530,
      "èĤ": 531,
      "ç½Ĺ": 532,
      "ç§ĳ": 533,
      "çł": 534,
      "æŁ": 535,
      "çº¿": 536,
      "çĻ": 537,
      "å¼ı": 538,
      "ç±³": 539,
      "ç«Ļ": 540,
      "éĩį": 541,
      "å®ī": 542,
      "éŁ": 543,
      "èģĶ": 544,
      "æģ": 545,
      "çĤ": 546,
      "ä¸¤": 547,
      "éĤ": 548,
      "ç³»": 549,
      "æ¯Ķ": 550,
      "æ¼": 551,
      "ç¼": 552,
      "10": 553,
      "çĪ": 554,
      "æ¡": 555,
      "ç¦": 556,
      "ç¨": 557,
      "å¢": 558,
      "æĢ»": 559,
      "éĢī": 560,
      "è¿Ĳ": 561,
      "åĬĽ": 562,
      "åİ¿": 563,
      "åħ°": 564,
      "å£«": 565,
      "çĽ¸": 566,
      "éĻ¢": 567,
      "æ¹": 568,
      "åŁº": 569,
      "åħ³": 570,
      "ä¸ŃåĽ½": 571,
      "éĥ½": 572,
      "æ²»": 573,
      "åİŁ": 574,
      "è¾¾": 575,
      "åŁİ": 576,
      "ç»Ł": 577,
      "åģ": 578,
      "æł¼": 579,
      "èµ·": 580,
      "ç»Ħ": 581,
      "æŃ£": 582,
      "æĺİ": 583,
      "é»": 584,
      "çº¦": 585,
      "åı·": 586,
      "èĭ±": 587,
      "æ°´": 588,
      "å½±": 589,
      "å°¼": 590,
      "æĪĸ": 591,
      "å±ŀ": 592,
      "åºľ": 593,
      "å¡": 594,
      "æİ¥": 595,
      "åı¸": 596,
      "è®¡": 597,
      "éĩĳ": 598,
      "çĽ®": 599,
      "é¦ĸ": 600,
      "çİĭ": 601,
      "è®®": 602,
      "æıĲ": 603,
      "åįİ": 604,
      "çĦ": 605,
      "ä»¬": 606,
      "éĺ¿": 607,
      "åĽĽ": 608,
      "ä»İ": 609,
      "åĪĹ": 610,
      "åħĥ": 611,
      "çģ": 612,
      "æ¼Ķ": 613,
      "å·´": 614,
      "ç¾İåĽ½": 615,
      "èĳ": 616,
      "00": 617,
      "å¦Ĥ": 618,
      "äº§": 619,
      "è¯Ń": 620,
      "åĢ": 621,
      "éħ": 622,
      "åıĤ": 623,
      "åı²": 624,
      "éĩı": 625,
      "åŀ": 626,
      "æĶ¹": 627,
      "å¸¸": 628,
      "å¥³": 629,
      "æ®": 630,
      "æ¶": 631,
      "éķĩ": 632,
      "åĲĳ": 633,
      "è£": 634,
      "èį": 635,
      "åĬ¡": 636,
      "æŀĹ": 637,
      "18": 638,
      "åĮħ": 639,
      "æ¸¯": 640,
      "å¨": 641,
      ").": 642,
      "æĽ¾": 643,
      "æĹł": 644,
      "èİ·": 645,
      "äººåı£": 646,
      "çĦ¶": 647,
      "äº¤": 648,
      "åĶ": 649,
      "å®ŀ": 650,
      "å¿ĥ": 651,
      "éĶ": 652,
      "åıĹ": 653,
      "éľ": 654,
      "12": 655,
      "ä½įäºİ": 656,
      "ç»´": 657,
      "æĦı": 658,
      "åİĨ": 659,
      "ç»ĵ": 660,
      "èī²": 661,
      "çķĮ": 662,
      "çº§": 663,
      "ä¹Ĳ": 664,
      "æīĭ": 665,
      "å§ĭ": 666,
      "ä¿Ŀ": 667,
      "å§Ķ": 668,
      "åĪĻ": 669,
      "ä¹ī": 670,
      "æĴ": 671,
      "å¤Ħ": 672,
      "åħļ": 673,
      "è§Ĩ": 674,
      "ä¹¦": 675,
      "ç´": 676,
      "åĽ¢": 677,
      "0å¹´": 678,
      "ç®¡": 679,
      "å½¢": 680,
      "ç¨ĭ": 681,
      "æ£": 682,
      "å¯¼": 683,
      "åĭ": 684,
      "1å¹´": 685,
      "è®¤": 686,
      "æį®": 687,
      "ç±»": 688,
      "æ²³": 689,
      "å°±": 690,
      "åį¡": 691,
      "éĹ¨": 692,
      "æ·": 693,
      "æĮĩ": 694,
      "æľĪ2": 695,
      "çĽ´": 696,
      "202": 697,
      "5å¹´": 698,
      "åįķ": 699,
      "éĴ": 700,
      "çĥ": 701,
      "è¯´": 702,
      "éŁ³": 703,
      "äºĽ": 704,
      "å¹¿": 705,
      "åŀĭ": 706,
      "å·²": 707,
      "åºĶ": 708,
      "4å¹´": 709,
      "æĺŁ": 710,
      "éĽĨ": 711,
      "ç¤º": 712,
      "å¥¥": 713,
      "æµģ": 714,
      "é¢Ĩ": 715,
      "ç¤¾": 716,
      "åł": 717,
      "ä¼ł": 718,
      "æº": 719,
      "æĮģ": 720,
      "é²": 721,
      "åĵģ": 722,
      "çĤ¹": 723,
      "èº": 724,
      "æł¡": 725,
      "æĽ´": 726,
      "2å¹´": 727,
      "å±ķ": 728,
      "å¤«": 729,
      "3å¹´": 730,
      "er": 731,
      "çĭ": 732,
      "åĽŀ": 733,
      "èĮ": 734,
      "ä¸¾": 735,
      "æĻ®": 736,
      "11": 737,
      "æ¸¸": 738,
      "ä¸ĩ": 739,
      "ç§¯": 740,
      "8å¹´": 741,
      "èº«": 742,
      "6å¹´": 743,
      "æ¢": 744,
      "ç©º": 745,
      "åıį": 746,
      "éª": 747,
      "èµĦ": 748,
      "æĶ¿åºľ": 749,
      "æĥħ": 750,
      "å®ĺ": 751,
      "ç¡": 752,
      "çºª": 753,
      "äºĶ": 754,
      "æ´»": 755,
      "è¿ĺ": 756,
      "é¾": 757,
      "åĩ»": 758,
      "an": 759,
      "æĶ¯": 760,
      "é¦Ļ": 761,
      "æłĩ": 762,
      "æĬ¥": 763,
      "æ»": 764,
      "or": 765,
      "å¸Ī": 766,
      "åĲĦ": 767,
      "æ¹¾": 768,
      "éĵģ": 769,
      "åĪ«": 770,
      "7å¹´": 771,
      "èĴ": 772,
      "éĢł": 773,
      "å¤§åŃ¦": 774,
      "çº³": 775,
      "èĻ": 776,
      "åıĸ": 777,
      "ä½¿çĶ¨": 778,
      "çĬ": 779,
      "åı¤": 780,
      "å²Ľ": 781,
      "çĸ": 782,
      "æĪĲä¸º": 783,
      "å¤ª": 784,
      "æĹ¥æľ¬": 785,
      "in": 786,
      "åī§": 787,
      "å±Ģ": 788,
      "åħ¬åı¸": 789,
      "åıĺ": 790,
      "æĭ¬": 791,
      "çı": 792,
      "æľ¯": 793,
      "åŃĹ": 794,
      "åķ": 795,
      "å¥¹": 796,
      "çĿ": 797,
      "æĹı": 798,
      "ä¸ĵ": 799,
      "åĳ½": 800,
      "åĮħæĭ¬": 801,
      "åľ°åĮº": 802,
      "éĿŀ": 803,
      "å¸¦": 804,
      "èĳĹ": 805,
      "åĽ½å®¶": 806,
      "å¼ł": 807,
      "è®º": 808,
      "è¿ĳ": 809,
      "åį³": 810,
      "å¼Ģå§ĭ": 811,
      "çłĶ": 812,
      "æľĿ": 813,
      "æ±Ł": 814,
      "åĨ³": 815,
      "ä¿¡": 816,
      "è§£": 817,
      "æ´²": 818,
      "æĽ²": 819,
      "èĬĤ": 820,
      "çĹ": 821,
      "ç¥ŀ": 822,
      "é£İ": 823,
      "on": 824,
      "çīĩ": 825,
      "å°ĳ": 826,
      "èģĮ": 827,
      "ä»¶": 828,
      "ç²": 829,
      "è¿Ľè¡Į": 830,
      "ä¼Ĭ": 831,
      "åĽ¾": 832,
      "èĦ": 833,
      "æľª": 834,
      "çĵ": 835,
      "è®°": 836,
      "åıª": 837,
      "ç¿": 838,
      "å¹³æĸ¹": 839,
      "å®ĥ": 840,
      "æľĪ1": 841,
      "æł¹": 842,
      "æĿĥ": 843,
      "æ²¡": 844,
      "çŁ³": 845,
      "éĻħ": 846,
      "ç¬¬ä¸Ģ": 847,
      "èĭı": 848,
      "æ¯ı": 849,
      "ç¼ĸ": 850,
      "è§Ĵ": 851,
      "è½¬": 852,
      "åı¯ä»¥": 853,
      "æĶ¾": 854,
      "æ³¢": 855,
      "æ¨": 856,
      "äº¬": 857,
      "ä¾ĭ": 858,
      "199": 859,
      "æĶ¶": 860,
      "æĿ¡": 861,
      "çļĦä¸Ģ": 862,
      "åĪĴ": 863,
      "è°ĥ": 864,
      "é¾Ļ": 865,
      "åħ¬éĩĮ": 866,
      "é¦Ļæ¸¯": 867,
      "åĳ¨": 868,
      "åħī": 869,
      "åķĨ": 870,
      "åĪĽ": 871,
      "æ¸ħ": 872,
      "è¿ŀ": 873,
      "åĪĿ": 874,
      "9å¹´": 875,
      "æ°Ķ": 876,
      "æŃĮ": 877,
      "ç¦»": 878,
      "æĿĳ": 879,
      "åĸ": 880,
      "æĳ": 881,
      "çīĪ": 882,
      "éĻĨ": 883,
      "éĥ¨åĪĨ": 884,
      "ç©¶": 885,
      "åĻ": 886,
      "å¾Ģ": 887,
      "äººæ°ĳ": 888,
      "å¤´": 889,
      "èİ·å¾Ĺ": 890,
      "è±": 891,
      "åŃ£": 892,
      "çŁ¥": 893,
      "ä¸ĸçķĮ": 894,
      "åıĪ": 895,
      "éĿ¢ç§¯": 896,
      "åħĪ": 897,
      "çłĶç©¶": 898,
      "åİ»": 899,
      "å¯Ĩ": 900,
      "æŀĦ": 901,
      "åŁŁ": 902,
      "æ´¾": 903,
      "ä»¤": 904,
      "æīĵ": 905,
      "ç»Ń": 906,
      "æŀľ": 907,
      "åĬŀ": 908,
      "å¼º": 909,
      "éļı": 910,
      "æŁ¥": 911,
      "å¨ģ": 912,
      "ä¸»è¦ģ": 913,
      "çĻ½": 914,
      "åĨį": 915,
      "åħµ": 916,
      "äºī": 917,
      "åº§": 918,
      "æŃ¦": 919,
      "ä»ĸä»¬": 920,
      "ç¦ı": 921,
      "å¤į": 922,
      "è§Ĥ": 923,
      "èĤ²": 924,
      "è£ħ": 925,
      "åİĨåı²": 926,
      "å®Į": 927,
      "åħŃ": 928,
      "la": 929,
      "åĻ¨": 930,
      "è®¤ä¸º": 931,
      "å¼ķ": 932,
      "é¡¹": 933,
      "æ®µ": 934,
      "æļ": 935,
      "é¢ĺ": 936,
      "è¶³": 937,
      "åı°æ¹¾": 938,
      "åĵĪ": 939,
      "æ²¡æľī": 940,
      "ä¸Ķ": 941,
      "æĿİ": 942,
      "çĳ": 943,
      "å¡Ķ": 944,
      "æľį": 945,
      "éĻ¤": 946,
      "å±ħ": 947,
      "å®£": 948,
      "æ¬§": 949,
      "15": 950,
      "æĪı": 951,
      "ç½ĳ": 952,
      "æĴŃ": 953,
      "ç»Ī": 954,
      "è§Ħ": 955,
      "æĭħ": 956,
      "åįı": 957,
      "èĲ¥": 958,
      "äº¦": 959,
      "è®¸": 960,
      "æİ¨": 961,
      "èı": 962,
      "çĵ¦": 963,
      "åľ£": 964,
      "ä»½": 965,
      "å§Ķåĳĺ": 966,
      "å¥ĸ": 967,
      "åľŁ": 968,
      "æ¡Ī": 969,
      "ç½®": 970,
      "å½ķ": 971,
      "ä¿®": 972,
      "è´¨": 973,
      "è¨": 974,
      "äº²": 975,
      "èĲ¨": 976,
      "è¨Ģ": 977,
      "çĶ·": 978,
      "åĦ": 979,
      "ar": 980,
      "æºĲ": 981,
      "ç¬¬äºĮ": 982,
      "åŃĺ": 983,
      "å¸Ŀ": 984,
      "ä»£è¡¨": 985,
      "éĹ®": 986,
      "åĭĴ": 987,
      "ä»Ĭ": 988,
      "è¯Ħ": 989,
      "åĽŃ": 990,
      "æ¥": 991,
      "en": 992,
      "åħ·": 993,
      "ç»Ļ": 994,
      "æĬ¤": 995,
      "ä¾Ľ": 996,
      "éĽ·": 997,
      "è¿ĲåĬ¨": 998,
      "é¦Ĩ": 999,
      "æŃ»": 1000,
      "æĬķ": 1001,
      "åħ«": 1002,
      "çĪ±": 1003,
      "æĶ¿æ²»": 1004,
      "çĶ±äºİ": 1005,
      "æ³ķåĽ½": 1006,
      "éĢŁ": 1007,
      "åħ¶ä»ĸ": 1008,
      "åįĥ": 1009,
      "åĩĨ": 1010,
      "å®Ĺ": 1011,
      "åį°": 1012,
      "å¢ŀ": 1013,
      "è¾ĥ": 1014,
      "è¶ħ": 1015,
      "ä¼¯": 1016,
      "å¢ĥ": 1017,
      "æ´Ľ": 1018,
      "å¸Į": 1019,
      "æ±Ĥ": 1020,
      "åĬŁ": 1021,
      "è§ģ": 1022,
      "çĶµå½±": 1023,
      "çĶ»": 1024,
      "çļĦä¸Ģä¸ª": 1025,
      "æ±ī": 1026,
      "16": 1027,
      "èĩ´": 1028,
      "(),": 1029,
      "åĿĩ": 1030,
      "åįĩ": 1031,
      "å¤ĩ": 1032,
      "åı¦": 1033,
      "è¯º": 1034,
      "åĬ©": 1035,
      "åį«": 1036,
      "å·¥ä½ľ": 1037,
      "åįļ": 1038,
      "çĮ": 1039,
      "çİĩ": 1040,
      "èİ±": 1041,
      "éĺ³": 1042,
      "åĦ¿": 1043,
      "è¾¹": 1044,
      "ä¼Ĺ": 1045,
      "å¥½": 1046,
      "èĹ": 1047,
      "é¥": 1048,
      "åĥ": 1049,
      "å®¢": 1050,
      "å®¹": 1051,
      "èĪª": 1052,
      "ä¼¦": 1053,
      "åĳĬ": 1054,
      "198": 1055,
      "æĹ©": 1056,
      "æ¨¡": 1057,
      "çª": 1058,
      "ä¹Į": 1059,
      "åĲī": 1060,
      "è¯ķ": 1061,
      "ä¿Ħ": 1062,
      "ä½ľä¸º": 1063,
      "ä»¥åıĬ": 1064,
      "æİĴ": 1065,
      "åī¯": 1066,
      "èīº": 1067,
      "æł·": 1068,
      "æµİ": 1069,
      "å¾Ī": 1070,
      "çģ«": 1071,
      "çİ¯": 1072,
      "æķħ": 1073,
      "å¡ŀ": 1074,
      "æĪĳ": 1075,
      "æĶ»": 1076,
      "åĽ½éĻħ": 1077,
      "é»Ħ": 1078,
      "çĶ°": 1079,
      "ç¾¤": 1080,
      "å·±": 1081,
      "èĬ±": 1082,
      "åı¯èĥ½": 1083,
      "æ¯į": 1084,
      "ä¹Ŀ": 1085,
      "çĪ¶": 1086,
      "æĸ½": 1087,
      "åĵį": 1088,
      "çıŃ": 1089,
      "èħ": 1090,
      "åĽ´": 1091,
      "ä¸Ńå¿ĥ": 1092,
      "è¡¨ç¤º": 1093,
      "17": 1094,
      "æĬĢ": 1095,
      "æķ´": 1096,
      "é²ģ": 1097,
      "æ²Ļ": 1098,
      "ç»§": 1099,
      "åĮ»": 1100,
      "æĭħä»»": 1101,
      "30": 1102,
      "å¤±": 1103,
      "å¸Ĥéķĩ": 1104,
      "çŃĳ": 1105,
      "èĲ½": 1106,
      "çĹħ": 1107,
      "ä¸Ńåįİ": 1108,
      "åħ´": 1109,
      "è¯ģ": 1110,
      "ç»ĩ": 1111,
      ")ãĢģ": 1112,
      "ç³»ç»Ł": 1113,
      "æ¦": 1114,
      "è´£": 1115,
      "ä¹¡": 1116,
      "å¿Ĺ": 1117,
      "å¸Ń": 1118,
      "éĩĩ": 1119,
      "éĺ²": 1120,
      "èĪ°": 1121,
      "å®¤": 1122,
      "èŃ": 1123,
      "å±Ĥ": 1124,
      "æīĺ": 1125,
      "ä¸ŃçļĦ": 1126,
      "éĿĴ": 1127,
      "çĽŁ": 1128,
      "ä¸ĥ": 1129,
      "æĦŁ": 1130,
      "èŃ¦": 1131,
      "éľĢ": 1132,
      "çĻ»": 1133,
      "åĨł": 1134,
      "æĹ¶éĹ´": 1135,
      "çĭ¬": 1136,
      "èĭ±åĽ½": 1137,
      "è´Ł": 1138,
      "åįĬ": 1139,
      "éº": 1140,
      "æ¹ĸ": 1141,
      "æ¸¸æĪı": 1142,
      "éĢļè¿ĩ": 1143,
      "å£°": 1144,
      "çĶµè§Ĩ": 1145,
      "å§Ĩ": 1146,
      "éĤ£": 1147,
      "çĻ¾": 1148,
      "éħį": 1149,
      "ç¢": 1150,
      "èĩªå·±": 1151,
      "åıĮ": 1152,
      "è½¦ç«Ļ": 1153,
      "éĻĪ": 1154,
      "æł¹æį®": 1155,
      "al": 1156,
      "åłĤ": 1157,
      "é»ĳ": 1158,
      "åıĳçİ°": 1159,
      "æĺĵ": 1160,
      "çĥŃ": 1161,
      "çļĩ": 1162,
      "åĨĻ": 1163,
      "å½ĵæĹ¶": 1164,
      "è¡ĮæĶ¿": 1165,
      "(,": 1166,
      "ç¡®": 1167,
      "çº¢": 1168,
      "çĬ¶": 1169,
      "é£ŀ": 1170,
      "åıĳå±ķ": 1171,
      "æĪĲç«ĭ": 1172,
      "æģ©": 1173,
      "ä½ķ": 1174,
      "å¤ı": 1175,
      "æľŁéĹ´": 1176,
      "æ·±": 1177,
      "ä»į": 1178,
      "èĢĥ": 1179,
      "æŀģ": 1180,
      "ä½ı": 1181,
      "åįł": 1182,
      "çħ": 1183,
      "é±": 1184,
      "åħ±åĴĮ": 1185,
      "æ£®": 1186,
      "è¡Ĺ": 1187,
      "14": 1188,
      "è¶Ĭ": 1189,
      "éĻĲ": 1190,
      "å¤®": 1191,
      "å°Ħ": 1192,
      "é¸": 1193,
      "é±¼": 1194,
      "çĶ²": 1195,
      "åĲĮæĹ¶": 1196,
      "æŃ¥": 1197,
      "at": 1198,
      "è®¾è®¡": 1199,
      "ç¤¾ä¼ļ": 1200,
      "âĢĶ": 1201,
      "é£Ł": 1202,
      "è®©": 1203,
      "å»ºçŃĳ": 1204,
      "äºİ19": 1205,
      "åĥı": 1206,
      "åŁĥ": 1207,
      "è±¡": 1208,
      "ä¹ĭä¸Ģ": 1209,
      "æĽ¼": 1210,
      "æĿĢ": 1211,
      "å¯Ł": 1212,
      "è´¹": 1213,
      "èĮĥ": 1214,
      "å±Ĭ": 1215,
      "æİ§": 1216,
      "æī¹": 1217,
      "ç¥¨": 1218,
      "ä»ħ": 1219,
      "æ½": 1220,
      "è´Ŀ": 1221,
      "æĻ¯": 1222,
      "ç»Ħç»ĩ": 1223,
      "æĸĻ": 1224,
      "æĤ": 1225,
      "åŃ¦éĻ¢": 1226,
      "å¥ĩ": 1227,
      "es": 1228,
      "ä¸įåĲĮ": 1229,
      "æ´ĭ": 1230,
      "å²ģ": 1231,
      "åıĤåĬł": 1232,
      "æµĭ": 1233,
      "çķĻ": 1234,
      "èĢģ": 1235,
      "ä¸Ńå¤®": 1236,
      "å§Ķåĳĺä¼ļ": 1237,
      "è¿ª": 1238,
      "åĨľ": 1239,
      "æ¥¼": 1240,
      "æĸĩåĮĸ": 1241,
      "ä½İ": 1242,
      "æŃ¢": 1243,
      "ä¸ĸçºª": 1244,
      "å·Ŀ": 1245,
      "å½±åĵį": 1246,
      "æ¯ĶèµĽ": 1247,
      "èĥľ": 1248,
      "éĿ©": 1249,
      "è¯į": 1250,
      "åĵ¥": 1251,
      "ç§°ä¸º": 1252,
      "å¾ĭ": 1253,
      "çīĮ": 1254,
      "é¡¿": 1255,
      "æĥ³": 1256,
      "å±ŀäºİ": 1257,
      "æİĪ": 1258,
      "for": 1259,
      "æķĪ": 1260,
      "13": 1261,
      "åĺ": 1262,
      "æ³°": 1263,
      "è¾ĸ": 1264,
      "ä¾¿": 1265,
      "å¹³æĸ¹åħ¬éĩĮ": 1266,
      "æ¤": 1267,
      "æľ¨": 1268,
      "éĻį": 1269,
      "åĩł": 1270,
      "ç§»": 1271,
      "è¿°": 1272,
      "çľŁ": 1273,
      "ic": 1274,
      "æħ": 1275,
      "åģľ": 1276,
      "æīį": 1277,
      "æ°ı": 1278,
      "éĵ¶": 1279,
      "æ¡¥": 1280,
      "()": 1281,
      "èĴĻ": 1282,
      "æĪ¿": 1283,
      "å¿µ": 1284,
      "æĺ¾": 1285,
      "éŁ³ä¹Ĳ": 1286,
      "æī¿": 1287,
      "æĢģ": 1288,
      "çĿĢ": 1289,
      "è´¥": 1290,
      "âĢĿ.": 1291,
      "å©": 1292,
      "ç´¢": 1293,
      "æ¾": 1294,
      "åħ±åĴĮåĽ½": 1295,
      "åºķ": 1296,
      "åº·": 1297,
      "åºĵ": 1298,
      "é¢Ħ": 1299,
      "ä¸»ä¹ī": 1300,
      "éŃ": 1301,
      "mu": 1302,
      "åŃ¦æł¡": 1303,
      "å¾ģ": 1304,
      "ç´ł": 1305,
      "æ´»åĬ¨": 1306,
      "çīĻ": 1307,
      "è¾ĳ": 1308,
      "çľĭ": 1309,
      "å¼¹": 1310,
      "åĶ±": 1311,
      "åħ¸": 1312,
      "ä½ľåĵģ": 1313,
      "æŃ£å¼ı": 1314,
      "æ¶Ī": 1315,
      "æıĲä¾Ľ": 1316,
      "åĪ©äºļ": 1317,
      "ç®Ģ": 1318,
      "è®¡åĪĴ": 1319,
      "åĩºçİ°": 1320,
      "ç½Ĺæĸ¯": 1321,
      "è½½": 1322,
      "ä¹ł": 1323,
      "ä»ĸçļĦ": 1324,
      "æīĢæľī": 1325,
      "æģ¯": 1326,
      "ä»·": 1327,
      "å³": 1328,
      "ä¹ĭéĹ´": 1329,
      "éĻĦ": 1330,
      "ç»ıæµİ": 1331,
      "ç®¡çĲĨ": 1332,
      "åıĳçĶŁ": 1333,
      "æľĢç»Ī": 1334,
      "éĵģè·¯": 1335,
      "çłģ": 1336,
      "ãĢį.": 1337,
      "çĳŀ": 1338,
      "æī§": 1339,
      "æĹ¶æľŁ": 1340,
      "è¿ľ": 1341,
      "is": 1342,
      "åĿ¦": 1343,
      "æĪ·": 1344,
      "ä¸Ģç§į": 1345,
      "å¹²": 1346,
      "åıĭ": 1347,
      "åŁİå¸Ĥ": 1348,
      "åĨµ": 1349,
      "ç®Ĺ": 1350,
      "ä¾§": 1351,
      "æķĻèĤ²": 1352,
      "ç¥ĸ": 1353,
      "éĢĢ": 1354,
      "éŁ©": 1355,
      "å®Ī": 1356,
      "æ»¡": 1357,
      "åĲİæĿ¥": 1358,
      "äºĳ": 1359,
      "æ³¨": 1360,
      "èĪ¹": 1361,
      "mula": 1362,
      "å½ĵåľ°": 1363,
      "è¯·": 1364,
      "è¯Ŀ": 1365,
      "æ¸©": 1366,
      "éĤ¦": 1367,
      "formula": 1368,
      "åĢĻ": 1369,
      "ä½Ļ": 1370,
      "ä½Ľ": 1371,
      "æĲ": 1372,
      "æĬĬ": 1373,
      "ç«ł": 1374,
      "ä¸ģ": 1375,
      "ç²¾": 1376,
      "it": 1377,
      "æĬĹ": 1378,
      "å®ģ": 1379,
      "çĽĳ": 1380,
      "197": 1381,
      "åĪ¶ä½ľ": 1382,
      "åł¡": 1383,
      "194": 1384,
      "20å¹´": 1385,
      "æľĽ": 1386,
      "am": 1387,
      "æĹ§": 1388,
      "è´Łè´£": 1389,
      "å¾·åĽ½": 1390,
      "å·¦": 1391,
      "æĪĲåĳĺ": 1392,
      "ä¸ĬçļĦ": 1393,
      "æĭ¿": 1394,
      "éĹ®é¢ĺ": 1395,
      "æľĹ": 1396,
      "éªĮ": 1397,
      "he": 1398,
      "åĬ¿": 1399,
      "è¿Ľåħ¥": 1400,
      "æĢĿ": 1401,
      "ä¸´": 1402,
      "è®¸å¤ļ": 1403,
      "åĪĺ": 1404,
      "å´": 1405,
      "çªģ": 1406,
      "é¹": 1407,
      "çł´": 1408,
      "å¿«": 1409,
      "å®«": 1410,
      "æĹħ": 1411,
      "ä¾Ŀ": 1412,
      "åİĭ": 1413,
      "åºĦ": 1414,
      "ç¬¬ä¸ī": 1415,
      "åĲįä¸º": 1416,
      "èİ«": 1417,
      "æľĢåĲİ": 1418,
      "ä¼¼": 1419,
      "æĪĺäºī": 1420,
      "å¯Į": 1421,
      "ä¸ĢäºĽ": 1422,
      "æ¢ħ": 1423,
      "çĿ£": 1424,
      "åĢ¼": 1425,
      "åģļ": 1426,
      "åħ¨åĽ½": 1427,
      "æĶ¯æĮģ": 1428,
      "å°ģ": 1429,
      "èĹı": 1430,
      "æ°¸": 1431,
      "åĲ«": 1432,
      "å»¶": 1433,
      "æĸĹ": 1434,
      "èĴĤ": 1435,
      "50": 1436,
      "æĭĶ": 1437,
      "çĶŁæ´»": 1438,
      "åĽłä¸º": 1439,
      "åİħ": 1440,
      "ä¹ĭåĲİ": 1441,
      "åį¢": 1442,
      "äººçļĦ": 1443,
      "çħ§": 1444,
      "äº¡": 1445,
      "æľįåĬ¡": 1446,
      "å¼Ĺ": 1447,
      "éļ¾": 1448,
      "le": 1449,
      "åİĤ": 1450,
      "ç»Ĩ": 1451,
      "æ¾³": 1452,
      "åĪ¤": 1453,
      "æĵ": 1454,
      "æł¸": 1455,
      "æŀ¶": 1456,
      "ä¸¹": 1457,
      "å¤§çļĦ": 1458,
      "éģĹ": 1459,
      "ä¼¤": 1460,
      "å°¼äºļ": 1461,
      "å®£å¸ĥ": 1462,
      "çļ®": 1463,
      "èĻ½": 1464,
      "å½Ĵ": 1465,
      "åį°åº¦": 1466,
      "åı³": 1467,
      "ä¿Ħç½Ĺæĸ¯": 1468,
      "å·²ç»ı": 1469,
      "è¯Ĩ": 1470,
      "åºĨ": 1471,
      "åıĤä¸İ": 1472,
      "åľ°æĸ¹": 1473,
      "ä¸¾è¡Į": 1474,
      "æĸŃ": 1475,
      "åħ³ç³»": 1476,
      "åıĳè¡Į": 1477,
      "éĹ»": 1478,
      "196": 1479,
      "çĨ": 1480,
      "è½®": 1481,
      "é½": 1482,
      "åı¶": 1483,
      "ä¸½": 1484,
      "æĿ°": 1485,
      "åºĹ": 1486,
      "æĸ¹éĿ¢": 1487,
      "ç¤¼": 1488,
      "åĶĲ": 1489,
      "åĨ³å®ļ": 1490,
      "å·¥ç¨ĭ": 1491,
      "ï¼": 1492,
      "éĩįè¦ģ": 1493,
      "èĽ": 1494,
      "è¶³çĲĥ": 1495,
      "ro": 1496,
      "åĮĹäº¬": 1497,
      "åĪĩ": 1498,
      "ä¸¤ä¸ª": 1499,
      "ä¼ĺ": 1500,
      "çŃĸ": 1501,
      "ä¸¥": 1502,
      "ä¸Ĭæµ·": 1503,
      "åºŃ": 1504,
      "èµ°": 1505,
      "ãĢį,": 1506,
      "å¿ħ": 1507,
      "è¯»": 1508,
      "æĭ¥": 1509,
      "ç»Ŀ": 1510,
      "éģŃ": 1511,
      "0å¹´ä»£": 1512,
      "å°ļ": 1513,
      "èģĶåĲĪ": 1514,
      "äººçī©": 1515,
      "å¼Ĥ": 1516,
      "re": 1517,
      "åĺī": 1518,
      "éĥ¡": 1519,
      "äºĭä»¶": 1520,
      "ç»ĥ": 1521,
      "æį¢": 1522,
      "åĮĹéĥ¨": 1523,
      "åĨłåĨĽ": 1524,
      "é©»": 1525,
      "å½¹": 1526,
      "èµ«": 1527,
      "åŃ¦å®¶": 1528,
      "èĬĤçĽ®": 1529,
      "æ¤į": 1530,
      "å²¸": 1531,
      "éº¦": 1532,
      "éĩİ": 1533,
      "åŃ¦çĶŁ": 1534,
      "å¼Ł": 1535,
      "ä¼ļè®®": 1536,
      "195": 1537,
      "æ²¹": 1538,
      "äººæ°ĳåħ±åĴĮåĽ½": 1539,
      "æĬĢæľ¯": 1540,
      "éĢĲ": 1541,
      "åĶ®": 1542,
      "èĥĮ": 1543,
      "æ¯ķ": 1544,
      "æĿ¾": 1545,
      "åĪ°äºĨ": 1546,
      "åĬłåħ¥": 1547,
      "é³": 1548,
      "å¯º": 1549,
      "000": 1550,
      "èī¾": 1551,
      "èĵ": 1552,
      "åį´": 1553,
      "ä¿ĿæĬ¤": 1554,
      "el": 1555,
      "åĪĹè½¦": 1556,
      "ä¹ħ": 1557,
      "æĢ»ç»Ł": 1558,
      "æ¬§æ´²": 1559,
      "ç½²": 1560,
      "2019": 1561,
      "èı²": 1562,
      "éļĨ": 1563,
      "è®¾æľī": 1564,
      "æĻļ": 1565,
      "é¼": 1566,
      "å¹³æĸ¹åįĥ": 1567,
      "èĪ¬": 1568,
      "st": 1569,
      "åª": 1570,
      "åĪĨåĪ«": 1571,
      "æĿ¥èĩª": 1572,
      "ç«¯": 1573,
      "2020å¹´": 1574,
      "çĽ®åīį": 1575,
      "ç¯": 1576,
      "æĺ¥": 1577,
      "çŁŃ": 1578,
      "éĢģ": 1579,
      "åħ¹": 1580,
      "åĪĨå¸ĥ": 1581,
      "åħĭåħ°": 1582,
      "éľĢè¦ģ": 1583,
      "ç³»åĪĹ": 1584,
      "ä¹ĺ": 1585,
      "ä½³": 1586,
      "å°½": 1587,
      "æĿŁ": 1588,
      "å®Ŀ": 1589,
      "å®ĮæĪĲ": 1590,
      "ä¸Ńåįİäººæ°ĳåħ±åĴĮåĽ½": 1591,
      "éĢļå¸¸": 1592,
      "é¡º": 1593,
      "æ°ĳåĽ½": 1594,
      "ä»Ģ": 1595,
      "åĲĮå¹´": 1596,
      "æ²¿": 1597,
      "æľ«": 1598,
      "æĹĹ": 1599,
      "å»ºç«ĭ": 1600,
      "åĲ¯": 1601,
      "èįī": 1602,
      "åįĹéĥ¨": 1603,
      "åºı": 1604,
      "åŃĺåľ¨": 1605,
      "éĺ¶": 1606,
      "éĺµ": 1607,
      "èį¯": 1608,
      "å¯¼èĩ´": 1609,
      "èĢ¶": 1610,
      "éĽĦ": 1611,
      "éħĴ": 1612,
      "æļ´": 1613,
      "æĸ¯çī¹": 1614,
      "æ¯Ľ": 1615,
      "æĪĲåĬŁ": 1616,
      "ion": 1617,
      "æ³½": 1618,
      "åħ¼": 1619,
      "é¢ĳ": 1620,
      "äºİ201": 1621,
      "åħ±æľī": 1622,
      "åĨ²": 1623,
      "è½»": 1624,
      "è¦ģæ±Ĥ": 1625,
      "æĳĦ": 1626,
      "çĭ¬ç«ĭ": 1627,
      "è·Ŀ": 1628,
      "çĦ¶èĢĮ": 1629,
      "25": 1630,
      "ç»ĦæĪĲ": 1631,
      "ä¾ĭå¦Ĥ": 1632,
      "æĳ©": 1633,
      "è¿ĻäºĽ": 1634,
      "æľĢé«ĺ": 1635,
      "éĶĢ": 1636,
      "æ¬¾": 1637,
      "è¿Ļä¸ª": 1638,
      "è¾ĵ": 1639,
      "åįķä½į": 1640,
      "èĻ½çĦ¶": 1641,
      "æµ·æĭĶ": 1642,
      "12æľĪ": 1643,
      "å¼Ģåıĳ": 1644,
      "æĭ¥æľī": 1645,
      "å¸ķ": 1646,
      "èĩªçĶ±": 1647,
      "ãĢĭ(": 1648,
      "ãĢĭãĢģ": 1649,
      "çģµ": 1650,
      "åŃĻ": 1651,
      "ä¸ĵè¾ĳ": 1652,
      "æĺ¯åľ¨": 1653,
      "çŃ¾": 1654,
      "åªĴ": 1655,
      "çĽ¸åħ³": 1656,
      "ä¹Įåħĭåħ°": 1657,
      "ç±į": 1658,
      "å©ļ": 1659,
      "çİĽ": 1660,
      "æĥħåĨµ": 1661,
      "çĶ¨äºİ": 1662,
      "ç½ª": 1663,
      "193": 1664,
      "é¡»": 1665,
      "èīºæľ¯": 1666,
      "æĺ¯ä¸Ģ": 1667,
      "æĿĤ": 1668,
      "äººåĳĺ": 1669,
      "çº½": 1670,
      "é¥°": 1671,
      "æ£Ģ": 1672,
      "éĽħ": 1673,
      "et": 1674,
      "é¡¶": 1675,
      "çĲĥéĺŁ": 1676,
      "âĢĿ,": 1677,
      "éĢīä¸¾": 1678,
      "å¯Ĩåº¦": 1679,
      "æĿ¨": 1680,
      "èģĶçĽŁ": 1681,
      "éĩĩçĶ¨": 1682,
      "æŀª": 1683,
      "il": 1684,
      "åĤ": 1685,
      "æıĲåĩº": 1686,
      "24": 1687,
      "ä»ĭ": 1688,
      "äºĨä¸Ģ": 1689,
      "åīįå¾Ģ": 1690,
      "åĬ³": 1691,
      "ç§Ģ": 1692,
      "åħį": 1693,
      "ou": 1694,
      "7æľĪ": 1695,
      "çķ¥": 1696,
      "åıĹåĪ°": 1697,
      "æ²ĥ": 1698,
      "å·®": 1699,
      "æĭį": 1700,
      "éĢı": 1701,
      "è¿½": 1702,
      "å®³": 1703,
      "äº¿": 1704,
      "æ¿": 1705,
      "ãĢĭ,": 1706,
      "å·¡": 1707,
      "ol": 1708,
      "æĸ¹å¼ı": 1709,
      "9æľĪ": 1710,
      "çĽĸ": 1711,
      "åĩı": 1712,
      "èĭ¥": 1713,
      "è§Ĵèī²": 1714,
      "è´¢": 1715,
      "ä¸ºäºĨ": 1716,
      "10æľĪ": 1717,
      "éĴŁ": 1718,
      "è¢Ń": 1719,
      "8æľĪ": 1720,
      "è¿ģ": 1721,
      "éĩĬ": 1722,
      "åĽ½æ°ĳ": 1723,
      "äºĮåįģ": 1724,
      "æĿ¿": 1725,
      "èī¯": 1726,
      "ac": 1727,
      "å°¾": 1728,
      "åĲ´": 1729,
      "å¤§éĻĨ": 1730,
      "è®Ń": 1731,
      "èŀ": 1732,
      "åħ·æľī": 1733,
      "èį£": 1734,
      "æĿ¯": 1735,
      "åĲĪä½ľ": 1736,
      "3æľĪ": 1737,
      "è°·": 1738,
      "çĪĨ": 1739,
      "éħ¸": 1740,
      "äº¤éĢļ": 1741,
      "æķ£": 1742,
      "æı´": 1743,
      "æłĳ": 1744,
      "æŃĮæĽ²": 1745,
      "åĩºçīĪ": 1746,
      "éĽĨåĽ¢": 1747,
      "èģĶèµĽ": 1748,
      "äº§çĶŁ": 1749,
      "ç£": 1750,
      "æĺł": 1751,
      "çļĦå¤§": 1752,
      "é¦ĸæ¬¡": 1753,
      "å®ĭ": 1754,
      "ä¼ģ": 1755,
      "è¯ĳ": 1756,
      "è´Ń": 1757,
      "äºĪ": 1758,
      "æķ°æį®": 1759,
      "åĸĦ": 1760,
      "±ä¹Ĳ": 1761,
      "å¾®": 1762,
      "é»İ": 1763,
      "æ´¥": 1764,
      "åħ¶ä¸Ń": 1765,
      "èĤ¡": 1766,
      "å°º": 1767,
      "è¡¥": 1768,
      "çī¹åĪ«": 1769,
      "æ¯ķä¸ļ": 1770,
      "è®¿": 1771,
      "å±ĭ": 1772,
      "ç»§ç»Ń": 1773,
      "å®¡": 1774,
      "è´µ": 1775,
      "äºĴ": 1776,
      "è¡Ģ": 1777,
      "é«ĺåº¦": 1778,
      "é¡¹çĽ®": 1779,
      "ç»ĵæĿŁ": 1780,
      "6æľĪ": 1781,
      "æĻĭ": 1782,
      "è½¨": 1783,
      "çĶŁäº§": 1784,
      "çĥĪ": 1785,
      "åģĩ": 1786,
      "åĽłæŃ¤": 1787,
      "è®¯": 1788,
      "éŁ¦": 1789,
      "ãĥ": 1790,
      "ãĢĭãĢģãĢĬ": 1791,
      "åħ»": 1792,
      "éĻ©": 1793,
      "ç»ĵæŀĦ": 1794,
      "èĩ£": 1795,
      "5æľĪ": 1796,
      "å¸ĿåĽ½": 1797,
      "é¢Ŀ": 1798,
      "æıı": 1799,
      "æī©": 1800,
      "23": 1801,
      "éĥ¨éĺŁ": 1802,
      "è¥¿äºļ": 1803,
      "ä¸ªäºº": 1804,
      "è¯Ńè¨Ģ": 1805,
      "æķĳ": 1806,
      "äººåı£å¯Ĩåº¦": 1807,
      "æ¯Ĵ": 1808,
      "æİ§åĪ¶": 1809,
      "é²ľ": 1810,
      "å¯¹äºİ": 1811,
      "åĸľ": 1812,
      "ç§ĳåŃ¦": 1813,
      "æİ¥åıĹ": 1814,
      "å½¢æĪĲ": 1815,
      "ç«ŀ": 1816,
      "1æľĪ": 1817,
      "åıĸå¾Ĺ": 1818,
      "ä»»ä½ķ": 1819,
      "æĹ¶ä»£": 1820,
      "æµ·åĨĽ": 1821,
      "è¡ĮåĬ¨": 1822,
      "ä¸»å¸Ń": 1823,
      "åĮºåŁŁ": 1824,
      "æĮ¥": 1825,
      "å³°": 1826,
      "éĿ¢ç§¯ä¸º": 1827,
      "æķħäºĭ": 1828,
      "å¤º": 1829,
      "æĿľ": 1830,
      "æ°ĳä¸»": 1831,
      "èĪŀ": 1832,
      "æ¦Ĥ": 1833,
      "éĶ¦": 1834,
      "è¯Ĺ": 1835,
      "åĩºçĶŁ": 1836,
      "æĹłæ³ķ": 1837,
      "è®²": 1838,
      "4æľĪ": 1839,
      "éĢĤ": 1840,
      "11æľĪ": 1841,
      "éĢĶ": 1842,
      "çļĦæĺ¯": 1843,
      "ä¹Łæĺ¯": 1844,
      "æĭľ": 1845,
      "ä¸°": 1846,
      "æľºæŀĦ": 1847,
      "çİ©": 1848,
      "çĶļ": 1849,
      "å¢ŀåĬł": 1850,
      "åĮºçļĦ": 1851,
      "éĢłæĪĲ": 1852,
      "40": 1853,
      "2019å¹´": 1854,
      "æľ±": 1855,
      "å¸ģ": 1856,
      "çĸĹ": 1857,
      "é½Ĳ": 1858,
      "æ¢ģ": 1859,
      "èį·": 1860,
      "è¾Ĩ": 1861,
      "éĻĦè¿ĳ": 1862,
      "ä¸»æķĻ": 1863,
      "è¶ħè¿ĩ": 1864,
      "çļĦäºº": 1865,
      "ç§ĺ": 1866,
      "å»·": 1867,
      "é¢Ĩå¯¼": 1868,
      "æĮī": 1869,
      "ä¼łç»Ł": 1870,
      "ç»ĵæŀľ": 1871,
      "ç½Ĺé©¬": 1872,
      "å¾Ħ": 1873,
      "ä»¥ä¸ĭ": 1874,
      "çĩ": 1875,
      "å®¾": 1876,
      "éļ¶": 1877,
      "2021å¹´": 1878,
      "ç¦ģ": 1879,
      "æĴ¤": 1880,
      "ä¸Ńåħ±": 1881,
      "åĿĢ": 1882,
      "æĿĲ": 1883,
      "åįĪ": 1884,
      "ing": 1885,
      "è´§": 1886,
      "åĩ¯": 1887,
      "åĬ¨çī©": 1888,
      "æ¸Ĳ": 1889,
      "çĬ¯": 1890,
      "èĥ¡": 1891,
      "2022å¹´": 1892,
      "as": 1893,
      "åĨĽäºĭ": 1894,
      "21": 1895,
      "ç«¥": 1896,
      "æķ¦": 1897,
      "èĪªç©º": 1898,
      "åľĨ": 1899,
      "ä½©": 1900,
      "çĽĬ": 1901,
      "çļĦæĹ¶": 1902,
      "ä»ª": 1903,
      "å¤Ł": 1904,
      "æłĩåĩĨ": 1905,
      "om": 1906,
      "åıĳå¸ĥ": 1907,
      "5æĹ¥": 1908,
      "èģļ": 1909,
      "è°¢": 1910,
      "100": 1911,
      "æĸ°éĹ»": 1912,
      "60": 1913,
      "éª¨": 1914,
      "æ··": 1915,
      "çĮ®": 1916,
      "çĽĽ": 1917,
      "åĨħçļĦ": 1918,
      "è¿Ķ": 1919,
      "åıªæľī": 1920,
      "ãĢĭ.": 1921,
      "ä»ģ": 1922,
      "éĥİ": 1923,
      "çīĽ": 1924,
      "çļĨ": 1925,
      "æķ°éĩı": 1926,
      "æŁĲ": 1927,
      "è®¨": 1928,
      "å°±æĺ¯": 1929,
      "ç¿°": 1930,
      "åĪĳ": 1931,
      "ç©Ĩ": 1932,
      "çĤ¸": 1933,
      "æįķ": 1934,
      "éĺ¿å°Ķ": 1935,
      "å¨ľ": 1936,
      "éĿ©åĳ½": 1937,
      "èĮĥåĽ´": 1938,
      "äºİ200": 1939,
      "ch": 1940,
      "å¤§åĪ©": 1941,
      "å¸®": 1942,
      "åªĴä½ĵ": 1943,
      "ed": 1944,
      "éĻ¤äºĨ": 1945,
      "å®½": 1946,
      "å¾ĹåĪ°": 1947,
      "æľºåľº": 1948,
      "å¥³æĢ§": 1949,
      "èĮ¨": 1950,
      "å®īåħ¨": 1951,
      "è°ĥæŁ¥": 1952,
      "è¿ĩç¨ĭ": 1953,
      "è§ī": 1954,
      "æİ¢": 1955,
      "ä¹ĭåīį": 1956,
      "æł¼åħ°": 1957,
      "ç»ıè¿ĩ": 1958,
      "çĤ®": 1959,
      "æĻº": 1960,
      "åºĻ": 1961,
      "åĨħå®¹": 1962,
      "åħ¬åĽŃ": 1963,
      "çĪ¶äº²": 1964,
      "å¹ķ": 1965,
      "æĪª": 1966,
      "åĲ¦": 1967,
      "éģĩ": 1968,
      "å¤ľ": 1969,
      ":âĢľ": 1970,
      "(,),": 1971,
      "éŁ©åĽ½": 1972,
      "çĶ·åŃĲ": 1973,
      "ä¹Ķ": 1974,
      "åįģäºĮ": 1975,
      "éľį": 1976,
      "èµŀ": 1977,
      "åħħ": 1978,
      "èĶ": 1979,
      "æĭ©": 1980,
      "22": 1981,
      "è½¯": 1982,
      "éĩįæĸ°": 1983,
      "å¥³åŃĲ": 1984,
      "å¹³æĸ¹åįĥç±³": 1985,
      "åĪ»": 1986,
      "æīĢä»¥": 1987,
      "éľ²": 1988,
      "èµĽäºĭ": 1989,
      "æĽ¿": 1990,
      "7æĹ¥": 1991,
      "ä¼ĳ": 1992,
      "å°¤": 1993,
      "ç§ģ": 1994,
      "åĪº": 1995,
      "ä½įç½®": 1996,
      "å¹³åĿĩ": 1997,
      "èĸ": 1998,
      "å«": 1999,
      "èĩªå·±çļĦ": 2000,
      "çİī": 2001,
      "è¿ĲåĬ¨åĳĺ": 2002,
      "æŁĵ": 2003,
      "çºªå¿µ": 2004,
      "å±ħæ°ĳ": 2005,
      "6æĹ¥": 2006,
      "2010å¹´": 2007,
      "ä¸ĢèĪ¬": 2008,
      "é¸Ł": 2009,
      "åĪĽä½ľ": 2010,
      "åıĳè¡¨": 2011,
      "åºŁ": 2012,
      "ä¸ĢåĲį": 2013,
      "ç¼º": 2014,
      "éĿł": 2015,
      "us": 2016,
      "ä¸Ŀ": 2017,
      "ãģ": 2018,
      "éĴĪ": 2019,
      "æķĮ": 2020,
      "åĢŁ": 2021,
      "æĺĮ": 2022,
      "çİ°ä»£": 2023,
      "è®¾ç«ĭ": 2024,
      "ç»©": 2025,
      "è¯ī": 2026,
      "æºª": 2027,
      "æĬµ": 2028,
      "éĤ®": 2029,
      "æľīéĻĲ": 2030,
      "èģĶéĤ¦": 2031,
      "åĲĽ": 2032,
      "å·¨": 2033,
      "èľ": 2034,
      "åĲ¸": 2035,
      "å®ĩ": 2036,
      "è¥¿çıŃ": 2037,
      "è·Ł": 2038,
      "çĪµ": 2039,
      "ä¹±": 2040,
      "å±ŀçļĦ": 2041,
      "èĵĿ": 2042,
      "è¥¿çıŃçīĻ": 2043,
      "éªĳ": 2044,
      "å¾¡": 2045,
      "28": 2046,
      "å®ª": 2047,
      "æĹ¶çļĦ": 2048,
      "31": 2049,
      "çľ¼": 2050,
      "è®®ä¼ļ": 2051,
      "åıįå¯¹": 2052,
      "æ¼Ķåĳĺ": 2053,
      "æ¤įçī©": 2054,
      "ä¸ĢçĽ´": 2055,
      "åĿ¡": 2056,
      "æ®¿": 2057,
      "åħ±äº§": 2058,
      "æķĻæİĪ": 2059,
      "æįŁ": 2060,
      "å¾Ĵ": 2061,
      "éĽª": 2062,
      "æĿ¥çļĦ": 2063,
      "å·¥ä¸ļ": 2064,
      "åĽº": 2065,
      "æ°ĳæĹı": 2066,
      "è¯¸": 2067,
      "ä¾µ": 2068,
      "åĪĬ": 2069,
      "çīĪæľ¬": 2070,
      "åĮ¹": 2071,
      "æľīåħ³": 2072,
      "ç¬¬åĽĽ": 2073,
      "éĢĥ": 2074,
      "åħ¬è·¯": 2075,
      "çĽ´æİ¥": 2076,
      "çİ°åľ¨": 2077,
      "éļĶ": 2078,
      "2023å¹´": 2079,
      "èª": 2080,
      "å»ºè®¾": 2081,
      "4æĹ¥": 2082,
      "èģĮä¸ļ": 2083,
      "æī¾": 2084,
      "çİ¯å¢ĥ": 2085,
      "è°ĭ": 2086,
      "ä¸¾åĬŀ": 2087,
      "èĦĳ": 2088,
      "æ¶¯": 2089,
      "éļıåĲİ": 2090,
      "ä¸ŃåŃ¦": 2091,
      "3æĹ¥": 2092,
      "ä¹İ": 2093,
      "éĢīæĭ©": 2094,
      "åĨĽéĺŁ": 2095,
      "çĹĩ": 2096,
      "è¿ĺæľī": 2097,
      "éĿŀå¸¸": 2098,
      "ç¿»": 2099,
      "æ¬¢": 2100,
      "èĭıèģĶ": 2101,
      "åıįåºĶ": 2102,
      "ç¼ĸçłģ": 2103,
      "ä½ł": 2104,
      "çĶ³": 2105,
      "åħ¬å¼Ģ": 2106,
      "de": 2107,
      "ä½ĵèĤ²": 2108,
      "å£¤": 2109,
      "éĥĳ": 2110,
      "å²©": 2111,
      "éĵ¶è¡Į": 2112,
      "æ¦ľ": 2113,
      "è£ģ": 2114,
      "èµĦæĸĻ": 2115,
      "åħ±åĲĮ": 2116,
      "æ±ĩ": 2117,
      "å½¢å¼ı": 2118,
      "åĨ³èµĽ": 2119,
      "ç©¿": 2120,
      "æĪĺæĸĹ": 2121,
      "è¡ĮæĺŁ": 2122,
      "åħĦ": 2123,
      "åı¬": 2124,
      "éĥ½æĺ¯": 2125,
      "åĨ°": 2126,
      "æĺ¾ç¤º": 2127,
      "éĤ»": 2128,
      "æ¼«": 2129,
      "åįıä¼ļ": 2130,
      "2æľĪ": 2131,
      "æĢ¥": 2132,
      "æ¿Ģ": 2133,
      "åĲįç§°": 2134,
      ".âĢĿ": 2135,
      "è·Ŀç¦»": 2136,
      "27": 2137,
      "of": 2138,
      "å¥ī": 2139,
      "æĸ¹æ³ķ": 2140,
      "ç»ľ": 2141,
      "éķľ": 2142,
      "æĪĪ": 2143,
      "åŁ¹": 2144,
      "un": 2145,
      "åĶ¯": 2146,
      "æİ¨åĩº": 2147,
      "åĲįçļĦ": 2148,
      "è¯¾": 2149,
      "å°ıè¯´": 2150,
      "ç¬¦": 2151,
      "èĥŀ": 2152,
      "åĪ©çĶ¨": 2153,
      "å¤ļæķ°": 2154,
      "åĲ¬": 2155,
      "çĶŁæ¶¯": 2156,
      "æ¯ģ": 2157,
      "è®®åĳĺ": 2158,
      "èĬ¬": 2159,
      "è¿«": 2160,
      "ç¾İåħĥ": 2161,
      "çĽ´åĪ°": 2162,
      "æĸ¯åĿ¦": 2163,
      "ä¹¦è®°": 2164,
      "ä¼ģä¸ļ": 2165,
      "è®¢": 2166,
      "è°Ī": 2167,
      "åĳ¼": 2168,
      "é»ĺ": 2169,
      "åĮħåĲ«": 2170,
      "èĩªæ²»": 2171,
      "å¾ħ": 2172,
      "æ³ķå¾ĭ": 2173,
      "éĽ¨": 2174,
      "éĨ": 2175,
      "ä¸Ģèµ·": 2176,
      "ç®¡è¾ĸ": 2177,
      "æĮĩæĮ¥": 2178,
      "åĳĪ": 2179,
      "èĤ¯": 2180,
      "St": 2181,
      "è¿Ļä¸Ģ": 2182,
      "åģ¥": 2183,
      "å®Įåħ¨": 2184,
      "ä¸»ä»»": 2185,
      "æĢĢ": 2186,
      "èĢ³": 2187,
      "åı°åĮĹ": 2188,
      "ä¸Ńåįİæ°ĳåĽ½": 2189,
      "çĶŁçī©": 2190,
      "æĸ°çļĦ": 2191,
      "ï¼į": 2192,
      "çĸĳ": 2193,
      "æ³Ľ": 2194,
      "å®¶åºŃ": 2195,
      "èµµ": 2196,
      "åĿļ": 2197,
      "ä¸ľåĮĹ": 2198,
      "ä¸įæĺ¯": 2199,
      "26": 2200,
      "æ³ķéĻ¢": 2201,
      "äººç±»": 2202,
      "èİī": 2203,
      "éĻµ": 2204,
      "æĦ¿": 2205,
      "ent": 2206,
      "âĢĶâĢĶ": 2207,
      "ãĤ": 2208,
      "and": 2209,
      "æĵį": 2210,
      "æĹĭ": 2211,
      "æĪĳä»¬": 2212,
      "å®¶æĹı": 2213,
      "èĩªçĦ¶": 2214,
      "å§ĵ": 2215,
      "åı¦ä¸Ģ": 2216,
      "æľīä¸Ģ": 2217,
      "åŃ¦ä¹ł": 2218,
      "åľ°çļĦ": 2219,
      "åĨįæ¬¡": 2220,
      "ri": 2221,
      "2024å¹´": 2222,
      "æ¶ī": 2223,
      "çĶµåŃĲ": 2224,
      "å¤§éĩı": 2225,
      "æŀļ": 2226,
      "æĮĩåĩº": 2227,
      "é¢Ĺ": 2228,
      "æĶ¿çŃĸ": 2229,
      "åħ³äºİ": 2230,
      "æĪ´": 2231,
      "æ¯«": 2232,
      "åŃ©": 2233,
      "èĦ±": 2234,
      "æī§è¡Į": 2235,
      "åĬ¨çĶ»": 2236,
      "çĶļèĩ³": 2237,
      "åĪĨä¸º": 2238,
      "2016å¹´": 2239,
      "çĲĨè®º": 2240,
      "35": 2241,
      "è¡¨çİ°": 2242,
      "èŀį": 2243,
      ":ãĢĮ": 2244,
      "æľĪ1æĹ¥": 2245,
      "åĲİçļĦ": 2246,
      "å¿ħé¡»": 2247,
      "åĮ»éĻ¢": 2248,
      "29": 2249,
      "æļĤ": 2250,
      "åŁºç¡": 2251,
      "åį±": 2252,
      "ç»¿": 2253,
      "ä»¥æĿ¥": 2254,
      "è¡Įä¸º": 2255,
      "å°ĨåĨĽ": 2256,
      "å¦»": 2257,
      "ç§ĭ": 2258,
      "ä¸ľéĥ¨": 2259,
      "çĽĺ": 2260,
      "æľĢä½³": 2261,
      "æģĴ": 2262,
      "å¢ĥåĨħ": 2263,
      "å°½ç®¡": 2264,
      "2011å¹´": 2265,
      "èĪį": 2266,
      "ow": 2267,
      "æīİ": 2268,
      "æĢ§çļĦ": 2269,
      "æľĢåĪĿ": 2270,
      "åĿĲ": 2271,
      "èĿ": 2272,
      "é¡¾": 2273,
      "æĸĩåŃ¦": 2274,
      "åŁºç¡Ģ": 2275,
      "æĶ¹ä¸º": 2276,
      "åį·": 2277,
      "æ¨ª": 2278,
      "2018å¹´": 2279,
      "ç¾½": 2280,
      "æŁı": 2281,
      "ä¸ŃåĽ½å¤§éĻĨ": 2282,
      "ä¹Ī": 2283,
      "åĬª": 2284,
      "å®ĺæĸ¹": 2285,
      "ç¿¼": 2286,
      "ç´§": 2287,
      "åįļçī©": 2288,
      "èīĩ": 2289,
      "åķĨä¸ļ": 2290,
      "ç¯ĩ": 2291,
      "çľģä»½": 2292,
      "è¾Ľ": 2293,
      "æĶ»åĩ»": 2294,
      "æ»¨": 2295,
      "æĦıå¤§åĪ©": 2296,
      "è´¡": 2297,
      "åħ¬åħ±": 2298,
      "å¥ı": 2299,
      "ä¹°": 2300,
      "çī©ç§į": 2301,
      "æŃ»äº¡": 2302,
      "æĴŃåĩº": 2303,
      "ur": 2304,
      "æ¡ĳ": 2305,
      "éĴ±": 2306,
      "æĬ¥åĳĬ": 2307,
      "ç±»ä¼¼": 2308,
      "åĿı": 2309,
      "æĻ®æŁ¥": 2310,
      "éŃĶ": 2311,
      "ç¼©": 2312,
      "æľĿé²ľ": 2313,
      "æĶ¿æ²»äººçī©": 2314,
      "æ´ª": 2315,
      "å¸Ĥåľº": 2316,
      "2014å¹´": 2317,
      "æĹ©æľŁ": 2318,
      "èĥ½åĬĽ": 2319,
      "¤Ĳ": 2320,
      "æ½ľ": 2321,
      "å®ŀéĻħ": 2322,
      "äºļæ´²": 2323,
      "èĨ": 2324,
      "æııè¿°": 2325,
      "å¢ĵ": 2326,
      "ad": 2327,
      "è¯¯": 2328,
      "æ¼Ķåĩº": 2329,
      "è§Ħæ¨¡": 2330,
      "80": 2331,
      "çº¦ç¿°": 2332,
      "åĽ¢ä½ĵ": 2333,
      "åĬłæĭ¿": 2334,
      "éģ¿": 2335,
      "å¿ł": 2336,
      "åħ¨çĲĥ": 2337,
      "ç»į": 2338,
      "æ®ĸ": 2339,
      "åİ»ä¸ĸ": 2340,
      "æĭįæĳĦ": 2341,
      "å¤ĦçĲĨ": 2342,
      "æĺ¯ä¸Ģä¸ª": 2343,
      "æłĸ": 2344,
      "æµ·æĭĶé«ĺåº¦": 2345,
      "çģŃ": 2346,
      "ä¹ĭéĹ´çļĦ": 2347,
      "è¥¿éĥ¨": 2348,
      "å¤ĸäº¤": 2349,
      "å¹¿ä¸ľ": 2350,
      "ä¸ĭçļĦ": 2351,
      "éľĩ": 2352,
      "æµĻ": 2353,
      "2017å¹´": 2354,
      "2012å¹´": 2355,
      "åĪ¶éĢł": 2356,
      "éĵľ": 2357,
      "2015å¹´": 2358,
      "èĥ½å¤Ł": 2359,
      "ä¸¥éĩį": 2360,
      "å¤§ä¼ļ": 2361,
      "å»ī": 2362,
      "ç¦»å¼Ģ": 2363,
      "ç«¹": 2364,
      "çļĦåľ°": 2365,
      "çĸ«": 2366,
      "åŁºæľ¬": 2367,
      "ãĢį(": 2368,
      "å®ĹæķĻ": 2369,
      "æģ¶": 2370,
      "æ±½": 2371,
      "å®ľ": 2372,
      "è¿·": 2373,
      "ig": 2374,
      "ä¼į": 2375,
      "çºªå½ķ": 2376,
      "é³į": 2377,
      "ä¸ºä¸»": 2378,
      "ä½ľçĶ¨": 2379,
      "è¿¹": 2380,
      "è¿Ļç§į": 2381,
      "éĹŃ": 2382,
      "å¥Ĺ": 2383,
      "2001å¹´": 2384,
      "æĮģç»Ń": 2385,
      "åĿĹ": 2386,
      "åģı": 2387,
      "å°ıæĹ¶": 2388,
      "ä»ĺ": 2389,
      "è®¡ç®Ĺ": 2390,
      "2013å¹´": 2391,
      "è·¯çº¿": 2392,
      "2009å¹´": 2393,
      "189": 2394,
      "th": 2395,
      "æī¬": 2396,
      "åħ±äº§åħļ": 2397,
      "äºĭåĬ¡": 2398,
      "åŃĶ": 2399,
      "è¯¥åĽ½": 2400,
      "ç©ºéĹ´": 2401,
      "çļĦä¸Ģä¸ªå¸Ĥéķĩ": 2402,
      "èµĸ": 2403,
      "è¡£": 2404,
      "8æĹ¥": 2405,
      "è¿İ": 2406,
      "70": 2407,
      "å°Ķæĸ¯": 2408,
      "æ³ī": 2409,
      "åĪļ": 2410,
      "è¾ħ": 2411,
      "the": 2412,
      "å¸ĮæľĽ": 2413,
      "ä»»åĬ¡": 2414,
      "çĽ®æłĩ": 2415,
      "æŀĲ": 2416,
      "èĦī": 2417,
      "ä¸īä¸ª": 2418,
      "å¥¹çļĦ": 2419,
      "æ±ł": 2420,
      "ç»Łæ²»": 2421,
      "æİ¥å£¤": 2422,
      "èªī": 2423,
      "ä¼°": 2424,
      "åı¦å¤ĸ": 2425,
      "æĸ¹åĲĳ": 2426,
      "æ¸¡": 2427,
      "æģĲ": 2428,
      "ç¼ĺ": 2429,
      "æĸĩçī©": 2430,
      "ç¬¬åįģ": 2431,
      "ä¸ľåįĹ": 2432,
      "åĬŁèĥ½": 2433,
      "èĳ£": 2434,
      "éļľ": 2435,
      "å¼ĥ": 2436,
      "å¹´çļĦ": 2437,
      "åįķæĽ²": 2438,
      "éĺ¿æĭī": 2439,
      "ãĢī": 2440,
      "ãĢĪ": 2441,
      "åĬłæĭ¿å¤§": 2442,
      "çº½çº¦": 2443,
      "å¢¨": 2444,
      "éĶ¦æłĩ": 2445,
      "æĭĽ": 2446,
      "äº«": 2447,
      "è·¨": 2448,
      "è®¾æĸ½": 2449,
      "æľĪåı°": 2450,
      "èµ¤": 2451,
      "å¯»": 2452,
      "192": 2453,
      "èµĽåŃ£": 2454,
      "èħĬ": 2455,
      "æĺ¯çĶ±": 2456,
      "åīĳ": 2457,
      "éĢıè¿ĩ": 2458,
      "çĶĺ": 2459,
      "äºķ": 2460,
      "ä¿±ä¹Ĳ": 2461,
      "è§Ħå®ļ": 2462,
      "ä¸»æĮģ": 2463,
      "éĶ¡": 2464,
      "éŃı": 2465,
      "çĲĥåĳĺ": 2466,
      "éĢĬ": 2467,
      "ä¿±ä¹Ĳéĥ¨": 2468,
      "éĺ»": 2469,
      "åĪĨå¸ĥäºİ": 2470,
      "ä»įçĦ¶": 2471,
      "åįļçī©é¦Ĩ": 2472,
      "éĢīåĮº": 2473,
      "åıĺåĮĸ": 2474,
      "æĥł": 2475,
      "åĲĪå¹¶": 2476,
      "è´¸": 2477,
      "è§£æĶ¾": 2478,
      "åĽ½çİĭ": 2479,
      "çĳŁ": 2480,
      "ä¸Ģæ¬¡": 2481,
      "é¢ģ": 2482,
      "åħ¬å¸ĥ": 2483,
      "å·´å£«": 2484,
      "å¼ĢæĶ¾": 2485,
      "å¹¿æĴŃ": 2486,
      "åĨ¬": 2487,
      "åħĭæĸ¯": 2488,
      "ç»ĺ": 2489,
      "å¦Ĥæŀľ": 2490,
      "åħĭéĩĮ": 2491,
      "äº®": 2492,
      "2008å¹´": 2493,
      "ä»ĸåľ¨": 2494,
      "èĤī": 2495,
      "è¾¾åĪ°": 2496,
      "å®ŀéªĮ": 2497,
      "èµ¢": 2498,
      "ä¹Łæľī": 2499,
      "åĶ¯ä¸Ģ": 2500,
      "åİŁåĽł": 2501,
      "è¸": 2502,
      "å½ĵä¸Ń": 2503,
      "éĢĲæ¸Ĳ": 2504,
      "æį·": 2505,
      "èıĮ": 2506,
      "åıĳåĬ¨": 2507,
      "éĥ¨éķ¿": 2508,
      "äººåı£æĻ®æŁ¥": 2509,
      "çĥŃå¸¦": 2510,
      "çº²": 2511,
      "åĦ¿åŃĲ": 2512,
      "ç»¼": 2513,
      "é©¬æĿ¥": 2514,
      "åĵ²": 2515,
      "çŁ¿": 2516,
      "è¿ŀæİ¥": 2517,
      "å½ĵéĢī": 2518,
      "45": 2519,
      "æ¨¡å¼ı": 2520,
      "å¾Ĳ": 2521,
      "ç¹": 2522,
      "å¤§åĮº": 2523,
      "è¾ŀ": 2524,
      "ç¬¬ä¸Ģæ¬¡": 2525,
      "ä¸ľäº¬": 2526,
      "åı·çº¿": 2527,
      "çģ¾": 2528,
      "èĴĻåı¤": 2529,
      "è¿ĲåĬ¨ä¼ļ": 2530,
      "å®ļä¹ī": 2531,
      "id": 2532,
      "æľīéĻĲåħ¬åı¸": 2533,
      "os": 2534,
      "çĽ¸å½ĵ": 2535,
      "éĺ´": 2536,
      "èĽĭ": 2537,
      "åĲĦç§į": 2538,
      "è®Ńç»ĥ": 2539,
      "æ´ŀ": 2540,
      "ç¨³": 2541,
      "ç»Ĩèĥŀ": 2542,
      "æ½®": 2543,
      "çĽ¸åĲĮ": 2544,
      "ra": 2545,
      "åĩ»è´¥": 2546,
      "å¦ĩ": 2547,
      "åıĻ": 2548,
      "æ¼ĶåĶ±": 2549,
      "é£İæł¼": 2550,
      "å¤ªå¹³": 2551,
      "çĬ¹": 2552,
      "å¤ªéĺ³": 2553,
      "å¦¹": 2554,
      "190": 2555,
      "èĢħçļĦ": 2556,
      "ç¹ģ": 2557,
      "IN": 2558,
      "æ°§": 2559,
      "éģĵè·¯": 2560,
      "ä½Ĳ": 2561,
      "ct": 2562,
      "æĪĲç»©": 2563,
      "48": 2564,
      "æļĹ": 2565,
      "æŃĮæīĭ": 2566,
      "æİĮ": 2567,
      "TC": 2568,
      "æĭĴ": 2569,
      "å¥¥è¿Ĳ": 2570,
      "æ»ĳ": 2571,
      "åı¸ä»¤": 2572,
      "æģ¢": 2573,
      "çİ©å®¶": 2574,
      "ä¸ĵä¸ļ": 2575,
      "å¹¶ä¸į": 2576,
      "éĺ¶æ®µ": 2577,
      "äººå£«": 2578,
      "ter": 2579,
      "éĴ¢": 2580,
      "è¥¿åįĹ": 2581,
      "åĢĴ": 2582,
      "2025å¹´": 2583,
      "åĨ·": 2584,
      "åĨĮ": 2585,
      "æī¹è¯Ħ": 2586,
      ".ãĢį": 2587,
      "è¥¿åĮĹ": 2588,
      "èĻİ": 2589,
      "çĲ´": 2590,
      "ä¸įåĲĮçļĦ": 2591,
      "ç§Ł": 2592,
      "å»ºéĢł": 2593,
      "ä¸Ģæł·": 2594,
      "è®¾ç½®": 2595,
      "äº§åĵģ": 2596,
      "ä¼Ĳ": 2597,
      "âĢĵ": 2598,
      "åĬŀåħ¬": 2599,
      "è½¨éģĵ": 2600,
      "æĺĤ": 2601,
      "ç¨İ": 2602,
      "é©±": 2603,
      "ä¿Ĺ": 2604,
      "å¾½": 2605,
      "äºİ199": 2606,
      "ä¸įè¿ĩ": 2607,
      "è¡ĮæĶ¿åĮº": 2608,
      "çıł": 2609,
      "è¢«ç§°ä¸º": 2610,
      "éº»": 2611,
      "èīĺ": 2612,
      "å¥Ī": 2613,
      "éĶĻ": 2614,
      "ç¡¬": 2615,
      "åĿĳ": 2616,
      "èĥĮæĻ¯": 2617,
      "åľĪ": 2618,
      "å®ļçļĦ": 2619,
      "å¹¼": 2620,
      "åĳ³": 2621,
      "çĶº": 2622,
      "çĪĨåıĳ": 2623,
      "å½¼": 2624,
      "æµĻæ±Ł": 2625,
      "åĪĨéĴŁ": 2626,
      "å°ıè¡ĮæĺŁ": 2627,
      "æĤ£": 2628,
      "çļĦä¸Ģéĥ¨åĪĨ": 2629,
      "éĺģ": 2630,
      "èĳ¡": 2631,
      "å¢Ļ": 2632,
      "å½©": 2633,
      "ä¼¦æķ¦": 2634,
      "ä¹Ļ": 2635,
      "90": 2636,
      "åŃ¦èĢħ": 2637,
      "å¤§æĪĺ": 2638,
      "æµ¦": 2639,
      "æģ¢å¤į": 2640,
      "åºĶçĶ¨": 2641,
      "å¸ĮèħĬ": 2642,
      "ä¸īåįģ": 2643,
      "æĶ¹éĿ©": 2644,
      "çļĦä¸»": 2645,
      "åįĸ": 2646,
      "æ¯įäº²": 2647,
      "è§¦": 2648,
      "9æĹ¥": 2649,
      "èº«ä»½": 2650,
      "çº¸": 2651,
      "å¯¿": 2652,
      "um": 2653,
      "36": 2654,
      "éĥ¨éĹ¨": 2655,
      "èŃ¦å¯Ł": 2656,
      "æİĴåĲį": 2657,
      "ç¬Ķ": 2658,
      "å±±ä¸ľ": 2659,
      "è±ª": 2660,
      "åĽ°": 2661,
      "æ®ĭ": 2662,
      "é£ŀæľº": 2663,
      "im": 2664,
      "åĪ¶åº¦": 2665,
      "åīĤ": 2666,
      "ä¸Ģä½į": 2667,
      "éĿĴå¹´": 2668,
      "ä¸įèĥ½": 2669,
      "èİİ": 2670,
      "èķ": 2671,
      "ä¿ĥ": 2672,
      "ä¸ĭè¾ĸ": 2673,
      "è¯Ħè®º": 2674,
      "è¿Ľå£«": 2675,
      "ç²ī": 2676,
      "æĽ¾ç»ı": 2677,
      "æľĢå¤§": 2678,
      "âĢ¦": 2679,
      "æĬķèµĦ": 2680,
      "èĦļ": 2681,
      "éĢĿ": 2682,
      "é«ĺéĢŁ": 2683,
      "ç½ĳç»ľ": 2684,
      "ir": 2685,
      "å¤ıåŃ£": 2686,
      "ot": 2687,
      "è£Ĥ": 2688,
      "è®°è½½": 2689,
      "æ¡£": 2690,
      "æ¥ļ": 2691,
      "æµª": 2692,
      "èµı": 2693,
      "æ¢¦": 2694,
      "å°Ĩåħ¶": 2695,
      "å¯¼æ¼Ķ": 2696,
      "38": 2697,
      "åĮĸåŃ¦": 2698,
      "æ²ī": 2699,
      "èµĦæł¼": 2700,
      "éĽ¶": 2701,
      "å¤©æ´¥": 2702,
      "od": 2703,
      "å¹¿å·ŀ": 2704,
      "æĺŃ": 2705,
      "äº¨": 2706,
      "ãĢįãĢģ": 2707,
      "æŁ±": 2708,
      "æĭŁ": 2709,
      "å¾Īå¤ļ": 2710,
      "åģ¶": 2711,
      "åĨĪ": 2712,
      "å°Ĭ": 2713,
      "çĶµè§Ĩåı°": 2714,
      "å¸®åĬ©": 2715,
      "åįļå£«": 2716,
      "éĤĢ": 2717,
      "çļĦæĸ°": 2718,
      "çĽĲ": 2719,
      "2007å¹´": 2720,
      "å¼±": 2721,
      "è®·": 2722,
      "çĸĨ": 2723,
      "åı«": 2724,
      "ç¬¬äºĶ": 2725,
      "éĻ·": 2726,
      "åħ¨éĥ¨": 2727,
      "åĪĨåŃĲ": 2728,
      "å´ĩ": 2729,
      "æģĭ": 2730,
      "ä»Ļ": 2731,
      "æ¶ħ": 2732,
      "çĭ±": 2733,
      "çĴ": 2734,
      "è¯Ĭ": 2735,
      "ation": 2736,
      "37": 2737,
      "ç¾¤å²Ľ": 2738,
      "äºİ18": 2739,
      "éĿĻ": 2740,
      "å¥¥æŀĹ": 2741,
      "ä»»åĳ½": 2742,
      "éĻĨåĨĽ": 2743,
      "åĨľä¸ļ": 2744,
      "æĿĤå¿Ĺ": 2745,
      "æ±Ĺ": 2746,
      "ç»ķ": 2747,
      "åŁºçĿ£": 2748,
      "é¤Ĳ": 2749,
      "In": 2750,
      "çļĦçī¹": 2751,
      "ä¸įä¼ļ": 2752,
      "åħ¬å°º": 2753,
      "æķ´ä¸ª": 2754,
      "åĲįåŃĹ": 2755,
      "è£Ķ": 2756,
      "ve": 2757,
      "åĲķ": 2758,
      "ç®Ģç§°": 2759,
      "çĶ·æĢ§": 2760,
      "ç«ĭæ³ķ": 2761,
      "æ¶²": 2762,
      "èļ": 2763,
      "å¤ļæ¬¡": 2764,
      "ç¥Ń": 2765,
      "é¢ĨåŁŁ": 2766,
      "èµ¢å¾Ĺ": 2767,
      "å»ºè®®": 2768,
      "åıĬåħ¶": 2769,
      "è´Ŀå°Ķ": 2770,
      "ä½ľå®¶": 2771,
      "é¼ĵ": 2772,
      "ç¬¬äºĮæ¬¡": 2773,
      "ä¾¯": 2774,
      "æ©": 2775,
      "è¿ŀç»Ń": 2776,
      "åĪĨæŀĲ": 2777,
      "è¡¨æ¼Ķ": 2778,
      "çĸ¾": 2779,
      "ä¼´": 2780,
      "ä¼Ł": 2781,
      "åįĹäº¬": 2782,
      "ia": 2783,
      "ä»ĸä»¬çļĦ": 2784,
      "éĶ¦æłĩèµĽ": 2785,
      "åĲĮæł·": 2786,
      "èĻĳ": 2787,
      "å¹¿åľº": 2788,
      "å¥¥æŀĹåĮ¹": 2789,
      "æĢ»äººåı£": 2790,
      "ç»ıå¸¸": 2791,
      "åĩºçļĦ": 2792,
      "åĪĻæĺ¯": 2793,
      "ä¸ĺ": 2794,
      "åĽĽå·Ŀ": 2795,
      "åĮºä¸º": 2796,
      "åħĪåĲİ": 2797,
      "åıĳå°Ħ": 2798,
      "ä¸Ńéĥ¨": 2799,
      "äºīè®®": 2800,
      "500": 2801,
      "åĩ¤": 2802,
      "å¹ħ": 2803,
      "åľ°ä¸ĭ": 2804,
      "é¢ľ": 2805,
      "éĥŃ": 2806,
      "åľ°çĲĥ": 2807,
      "æĭĨ": 2808,
      "çī§": 2809,
      "çŃīäºº": 2810,
      "éĢŁåº¦": 2811,
      "æĪªèĩ³": 2812,
      "è®°å½ķ": 2813,
      "è®¾å¤ĩ": 2814,
      "é©¶": 2815,
      "ç¦ıå»º": 2816,
      "äººä»¬": 2817,
      "ç»´å°Ķ": 2818,
      "æĲŃ": 2819,
      "åĩºä»»": 2820,
      "ä¿ĿæĮģ": 2821,
      "åľ°åĮºçļĦ": 2822,
      "æĿ¡ä»¶": 2823,
      "å¼ķèµ·": 2824,
      "æ°´åŁŁ": 2825,
      "2006å¹´": 2826,
      "ç»ª": 2827,
      "æĭīæĸ¯": 2828,
      "çľģçļĦä¸Ģä¸ªå¸Ĥéķĩ": 2829,
      "è§ĦåĪĴ": 2830,
      "æĹ¥åĨĽ": 2831,
      "ä¼Ĭæĸ¯": 2832,
      "æŁ¯": 2833,
      "æ²³åįĹ": 2834,
      "åıĤèµĽ": 2835,
      "ä¿¡æģ¯": 2836,
      "éģŃåĪ°": 2837,
      "å¹³åı°": 2838,
      "å±ħä½ı": 2839,
      "å¤ıä»¤": 2840,
      "å¤ļçļĦ": 2841,
      "è¯¥åľ°": 2842,
      "é£ŀè¡Į": 2843,
      "UTC": 2844,
      "åĤ¨": 2845,
      "ç»Łè®¡": 2846,
      "è¢Ńåĩ»": 2847,
      "åĨħéĥ¨": 2848,
      "çĽ¸å¯¹": 2849,
      "å¹¿æ³Ľ": 2850,
      "èĻ«": 2851,
      "çī©çĲĨ": 2852,
      "è¿ĩåİ»": 2853,
      "æķĻåłĤ": 2854,
      "å®ĺåĳĺ": 2855,
      "è¶ĬåįĹ": 2856,
      "ST": 2857,
      "èĩ³ä»Ĭ": 2858,
      "ä¸ĢæŃ¥": 2859,
      "æĪĺå½¹": 2860,
      "2005å¹´": 2861,
      "æĭĴç»Ŀ": 2862,
      "èĶ¡": 2863,
      "æĸ¯ç§ĳ": 2864,
      "å¤ļä¸ª": 2865,
      "æ£Ĵ": 2866,
      "èĭ±æĸĩ": 2867,
      "è´¸æĺĵ": 2868,
      "åħģ": 2869,
      "è§Ī": 2870,
      "æłĸæģ¯": 2871,
      "çĵ¦å°Ķ": 2872,
      "å¥¥æŀĹåĮ¹åħĭ": 2873,
      "åŁİåĮº": 2874,
      "èĲĦ": 2875,
      "æ¯Ķäºļ": 2876,
      "èĳ¡èĲĦ": 2877,
      "å¹¸": 2878,
      "æĺİæľĿ": 2879,
      "ç³ĸ": 2880,
      "åĦ¿ç«¥": 2881,
      "ag": 2882,
      "æµģè¡Į": 2883,
      "æľĢæĹ©": 2884,
      "åĩ½": 2885,
      "å¡ŀå°Ķ": 2886,
      "ç§¦": 2887,
      "æ·¡": 2888,
      "åıĸä»£": 2889,
      "æľĪ21": 2890,
      "æĹģ": 2891,
      "é¢ĳéģĵ": 2892,
      "æ¼«çĶ»": 2893,
      "é¥°æ¼Ķ": 2894,
      "éĻ¶": 2895,
      "è¿Ŀ": 2896,
      "ç¾İæ´²": 2897,
      "æľªèĥ½": 2898,
      "æ³¢åħ°": 2899,
      "ç»ıåİĨ": 2900,
      "è¡Ĺéģĵ": 2901,
      "æ±¤": 2902,
      "ç¢ĳ": 2903,
      "çļĦä¸»è¦ģ": 2904,
      "æľĪ22": 2905,
      "åĩłä¹İ": 2906,
      "æĮĳ": 2907,
      "å·´é»İ": 2908,
      "æ¦Ĥå¿µ": 2909,
      "èĻļ": 2910,
      "éŀ": 2911,
      "å®ŀçİ°": 2912,
      "æĮ¯": 2913,
      "âĢĿ(": 2914,
      "ç½ĳç«Ļ": 2915,
      "å¤Ħäºİ": 2916,
      "æľĢå¤§çļĦ": 2917,
      "å·¦åı³": 2918,
      "é¾Ħ": 2919,
      "çĦ¶åĲİ": 2920,
      "è®°èĢħ": 2921,
      "å®ŀæĸ½": 2922,
      "åįıåĬ©": 2923,
      "å®¿": 2924,
      "åĩıå°ĳ": 2925,
      "æĶ¹åıĺ": 2926,
      "èİ·å¾ĹäºĨ": 2927,
      "è§Ĩä¸º": 2928,
      "è·ĳ": 2929,
      "ä¾į": 2930,
      "è¿Ī": 2931,
      "æ®Ĭ": 2932,
      "è½¦è¾Ĩ": 2933,
      "èĳ¬": 2934,
      "åľ°éĵģ": 2935,
      "ä¼¸": 2936,
      "éķ¿æľŁ": 2937,
      "å±ķå¼Ģ": 2938,
      "çĨĻ": 2939,
      "åĪĨç±»": 2940,
      "çļĩå¸Ŀ": 2941,
      "è¿Ĳè¾ĵ": 2942,
      "æĺĨ": 2943,
      "ç§ĳæĬĢ": 2944,
      "å¤§éĥ¨åĪĨ": 2945,
      "èĭ±æł¼åħ°": 2946,
      "åĩºçĶŁäºİ": 2947,
      "éķ¿çļĦ": 2948,
      "å½±çīĩ": 2949,
      "ç±»åŀĭ": 2950,
      "op": 2951,
      "ä¼ļåľ¨": 2952,
      "ä¹ĥ": 2953,
      "èĮ¶": 2954,
      "çĬ¶æĢģ": 2955,
      "çļĦæĹ¶åĮºä¸º": 2956,
      "æ¯Ķè¾ĥ": 2957,
      "éģį": 2958,
      "ç¬¬ä¸Ģä¸ª": 2959,
      "ç»ıèĲ¥": 2960,
      "åįłé¢Ĩ": 2961,
      "åİ¿çļĦ": 2962,
      "åī§æĥħ": 2963,
      "æ¾³éĹ¨": 2964,
      "çº¿çļĦ": 2965,
      "æĬķç¥¨": 2966,
      "ç»§æī¿": 2967,
      "å®ħ": 2968,
      "ä½ľæĪĺ": 2969,
      "çĥ§": 2970,
      "åĽ½çļĦ": 2971,
      "æ²»çĸĹ": 2972,
      "æŃ¦åĻ¨": 2973,
      "éĻĲåĪ¶": 2974,
      "34": 2975,
      "åįģä¸Ģ": 2976,
      "br": 2977,
      "ä¸ļåĬ¡": 2978,
      "åŁºäºİ": 2979,
      "èį·åħ°": 2980,
      "çŃ¹": 2981,
      "è§£åĨ³": 2982,
      "çº¯": 2983,
      "å¤©ä¸»æķĻ": 2984,
      "çĩĥ": 2985,
      "èĪ°éĺŁ": 2986,
      "å¨ģå»ī": 2987,
      "è½°": 2988,
      "åĴĮå¹³": 2989,
      "å¦®": 2990,
      "éĶ®": 2991,
      "å®£ä¼ł": 2992,
      "li": 2993,
      "çº¿è·¯": 2994,
      "åĭĭ": 2995,
      "çıį": 2996,
      "SE": 2997,
      "çģ¯": 2998,
      "åľŁåľ°": 2999,
      "åİ¦": 3000,
      "åĩĨå¤ĩ": 3001,
      "ub": 3002,
      "ç´¯": 3003,
      "éĽķ": 3004,
      "å²Ń": 3005,
      "åĿĽ": 3006,
      "èµĦæºĲ": 3007,
      "The": 3008,
      "è¾½": 3009,
      "éļĲ": 3010,
      "æĬĺ": 3011,
      "çļĦæķ°æį®": 3012,
      "åĭĩ": 3013,
      "39": 3014,
      "åĩºäºĨ": 3015,
      "è¡¡": 3016,
      "se": 3017,
      "ä½ĵçļĦ": 3018,
      "ay": 3019,
      "æĸ¹æ¡Ī": 3020,
      "èıľ": 3021,
      "æĿ¥æºĲ": 3022,
      "ç»Łä¸Ģ": 3023,
      "è¯Ħä»·": 3024,
      "çĤİ": 3025,
      "è¯ķåĽ¾": 3026,
      "é½¿": 3027,
      "æ¸ħæľĿ": 3028,
      "çĶµè§Ĩåī§": 3029,
      "å³¡": 3030,
      "æ±½è½¦": 3031,
      "åİŁæľ¬": 3032,
      "II": 3033,
      "æ¾³å¤§": 3034,
      "å¤§çº¦": 3035,
      "å®ĥä»¬": 3036,
      "æĸ¯çļĦ": 3037,
      "åħ´å»º": 3038,
      "åŃŁ": 3039,
      "åħĦå¼Ł": 3040,
      "çļĦæĥħåĨµ": 3041,
      "éĵģéģĵ": 3042,
      "éĢīæīĭ": 3043,
      "äººåľ¨": 3044,
      "çł´åĿı": 3045,
      "ãĢįãĢģãĢĮ": 3046,
      "éģ£": 3047,
      "é©¬æĿ¥è¥¿äºļ": 3048,
      "åįıè®®": 3049,
      "ç£ģ": 3050,
      "æīĢåľ¨": 3051,
      "èĲ§": 3052,
      "éĤ®æĶ¿": 3053,
      "75": 3054,
      "çĲ³": 3055,
      "åĽŀåĪ°": 3056,
      "Ch": 3057,
      "è½´": 3058,
      "æķ¬": 3059,
      "éļıèĳĹ": 3060,
      "åĶ±çīĩ": 3061,
      "ä¸ºæ¯ı": 3062,
      "è¿Ľä¸ĢæŃ¥": 3063,
      "å£ģ": 3064,
      "åĪĿæľŁ": 3065,
      "çļĦå½±åĵį": 3066,
      "è¿Ĳè¡Į": 3067,
      "..": 3068,
      "46": 3069,
      "é¥®": 3070,
      "ä¸»è§Ĵ": 3071,
      "æĽ¹": 3072,
      "è¦": 3073,
      "æĶ¹ç¼ĸ": 3074,
      "çĬ¹å¤ª": 3075,
      "æħĪ": 3076,
      "ç®Ń": 3077,
      "è¿ĽæĶ»": 3078,
      "èĩªåĬ¨": 3079,
      "å¹»": 3080,
      "è¡Ķ": 3081,
      "å¨±ä¹Ĳ": 3082,
      "è¿ĺæĺ¯": 3083,
      "ç²¾ç¥ŀ": 3084,
      "æķı": 3085,
      "å°ıåŃ¦": 3086,
      "èµł": 3087,
      "ç»´æĮģ": 3088,
      "éĴĪå¯¹": 3089,
      "ä¸Ńæĸĩ": 3090,
      "è§Ĥä¼Ĺ": 3091,
      "æ¢°": 3092,
      "åŁºéĩĳ": 3093,
      "em": 3094,
      "è´¤": 3095,
      "æ²Ī": 3096,
      "åıĽ": 3097,
      "è¿Ľè¡ĮäºĨ": 3098,
      "åŁİéķĩ": 3099,
      "æľºè½¦": 3100,
      "188": 3101,
      "å¤§æ¥¼": 3102,
      "çĶŁäºİ": 3103,
      "ç»ĦåĲĪ": 3104,
      "ä»Ķ": 3105,
      "æĢ»éĿ¢ç§¯": 3106,
      "è¿ĲèĲ¥": 3107,
      "è´¾": 3108,
      "ä¸»é¢ĺ": 3109,
      "äººåı£æķ°éĩı": 3110,
      "åľ¨æŃ¤": 3111,
      "è¾Ĳ": 3112,
      "ä¸įä¹ħ": 3113,
      "éĶĭ": 3114,
      "ç¯®": 3115,
      "çī¹å¾ģ": 3116,
      "çľģçº§": 3117,
      "å§Ĳ": 3118,
      "æŃ£åľ¨": 3119,
      "çº¹": 3120,
      "å¤ªå¹³æ´ĭ": 3121,
      ".ãĢĬ": 3122,
      "éĥ¨ä»½": 3123,
      "åĬłä¸Ĭ": 3124,
      "å·ŀçļĦ": 3125,
      "èĹ¤": 3126,
      "è¢«è®¤ä¸º": 3127,
      "çģ°": 3128,
      "äº¤æĺĵ": 3129,
      "oc": 3130,
      "ver": 3131,
      "éĿ¢çļĦ": 3132,
      "ç©ºåĨĽ": 3133,
      "ç»¼åĲĪ": 3134,
      "åĨ¯": 3135,
      "å¤§åŀĭ": 3136,
      "è´Łè´£ç®¡è¾ĸ": 3137,
      "åıĮæĸ¹": 3138,
      "éĤĵ": 3139,
      "ç¡®å®ļ": 3140,
      "éĻķ": 3141,
      "æ¾³å¤§åĪ©äºļ": 3142,
      "èµ´": 3143,
      "æķĻä¼ļ": 3144,
      "%.": 3145,
      "çŃĶ": 3146,
      "æľīçļĦ": 3147,
      "è§£éĩĬ": 3148,
      "ç¾İåĽ½äººåı£æĻ®æŁ¥": 3149,
      "è¯ģæĺİ": 3150,
      "åĽ¾ä¹¦": 3151,
      "ä»·åĢ¼": 3152,
      "è¿ĶåĽŀ": 3153,
      "èĳ£äºĭ": 3154,
      "è¦Ĩ": 3155,
      "åĲįåįķ": 3156,
      "åİļ": 3157,
      "æīĢå±ŀçļĦ": 3158,
      "å¾·éĩĮ": 3159,
      "æĦŁæŁĵ": 3160,
      "åĪĢ": 3161,
      "ç¨ĭåº¦": 3162,
      "äºĳåįĹ": 3163,
      "ä»°": 3164,
      "32": 3165,
      "æ³³": 3166,
      "è°±": 3167,
      "æ¹ĸåįĹ": 3168,
      "æ³ķåħ°": 3169,
      "ä¸»æ¼Ķ": 3170,
      "çļĩå®¶": 3171,
      "æ²³æµģ": 3172,
      "çĥŁ": 3173,
      "åĢį": 3174,
      "å°ıç»Ħ": 3175,
      "çİĭæľĿ": 3176,
      "çļĦåīį": 3177,
      "åħĥç´ł": 3178,
      "å¼ķåıĳ": 3179,
      "å°Ķå¾·": 3180,
      "å¥³åĦ¿": 3181,
      "åĩŃ": 3182,
      "ä¿ĿçķĻ": 3183,
      "çºµ": 3184,
      "ap": 3185,
      "æĹħæ¸¸": 3186,
      "æľĭ": 3187,
      "æ¨¡åŀĭ": 3188,
      "é¦ĸéĥ½": 3189,
      "åħ¬åħĥ": 3190,
      "å¸¸è§ģ": 3191,
      "è¶ħçº§": 3192,
      "é¬": 3193,
      "æĺ¯ä¸Ģç§į": 3194,
      "è´¢æĶ¿": 3195,
      "èĴĭ": 3196,
      "æ²Ł": 3197,
      "ä¸´æĹ¶": 3198,
      "äººåı£æķ°éĩıä¸º": 3199,
      "åĩºèº«": 3200,
      "çķª": 3201,
      "åĬłåĿ¡": 3202,
      "ut": 3203,
      "å¤©æĸĩ": 3204,
      "æī¹åĩĨ": 3205,
      "é«ĺçº§": 3206,
      "åĨ²çªģ": 3207,
      "åĽ½éĺ²": 3208,
      "ç½ķ": 3209,
      "è®¨è®º": 3210,
      "å°ĸ": 3211,
      "åĬĽéĩı": 3212,
      "æĺ¯åĲ¦": 3213,
      "ç¬¬åħŃ": 3214,
      "20ä¸ĸçºª": 3215,
      "ä½ĽæķĻ": 3216,
      "åĽ½ä¼ļ": 3217,
      "çĳŀå£«": 3218,
      "åĲĮæĦı": 3219,
      "åĽ½æ°ĳåħļ": 3220,
      "åĽ½åĨħ": 3221,
      "æ¯ıå¹´": 3222,
      "éĩįè¦ģçļĦ": 3223,
      "äºĨä¸Ģä¸ª": 3224,
      "çłĶç©¶æīĢ": 3225,
      "åı¥": 3226,
      "éĿĸ": 3227,
      "æľºåħ³": 3228,
      "300": 3229,
      "è¶£": 3230,
      "é©¾": 3231,
      "å¹´è½»": 3232,
      "å¤§èĩ£": 3233,
      "æ¡ĥ": 3234,
      "è®®éĻ¢": 3235,
      "2004å¹´": 3236,
      "ç»ĵåĲĪ": 3237,
      "çļĦä¸Ģç§į": 3238,
      "åĩ¡": 3239,
      "äº§ä¸ļ": 3240,
      "å·ŀå¸Ĥ": 3241,
      "è¾ī": 3242,
      "äºĮä¸ĸ": 3243,
      "è·³": 3244,
      "æĸĩçī©ä¿ĿæĬ¤": 3245,
      "åĬĽçļĦ": 3246,
      "æĸ°åĬłåĿ¡": 3247,
      "æŁ´": 3248,
      "è¿ħ": 3249,
      "æĽ¾åľ¨": 3250,
      "å¤ĸçļĦ": 3251,
      "åİ¿çļĦä¸Ģä¸ª": 3252,
      "æŃ¦è£ħ": 3253,
      "æĹº": 3254,
      "åĽ½ç«ĭ": 3255,
      "æĻ®éĢļ": 3256,
      "ä¸Ĭæĺł": 3257,
      "2000å¹´": 3258,
      "ç¼ĵ": 3259,
      "çĨŁ": 3260,
      "ä¸ªæľĪ": 3261,
      "éĽĨä¸Ń": 3262,
      "ç§ĺä¹¦": 3263,
      "å»ºæĪĲ": 3264,
      "ä¸Ģå¹´": 3265,
      "åŁĶ": 3266,
      "æ°ĶåĢĻ": 3267,
      "åįģä¸ī": 3268,
      "æİª": 3269,
      "æĸ¯åŁº": 3270,
      "è§£æĶ¾åĨĽ": 3271,
      "å¤§ä½¿": 3272,
      "ç¥¥": 3273,
      "éģĤ": 3274,
      "æĺŁæľŁ": 3275,
      "å¥½çļĦ": 3276,
      "æ§": 3277,
      "æĶ¶åħ¥": 3278,
      "åıĸæ¶Ī": 3279,
      "ç¼ĸåı·": 3280,
      "äººæķ°": 3281,
      "åľ¨ç¾İåĽ½": 3282,
      "æ½ĺ": 3283,
      "å°ĶçļĦ": 3284,
      "ä¸ĸçķĮå¤§æĪĺ": 3285,
      "æĸĩä»¶": 3286,
      "æĬķåħ¥": 3287,
      "å¿«éĢŁ": 3288,
      "æī¿è®¤": 3289,
      "ans": 3290,
      "è¥¿æ´ĭ": 3291,
      "åı¯è¾¾": 3292,
      "èŃ¦æĸ¹": 3293,
      "ant": 3294,
      "éĿŀæ´²": 3295,
      "(\"": 3296,
      "æĢ»éĥ¨": 3297,
      "å·´è¥¿": 3298,
      "ç»´äºļ": 3299,
      "ãĢģãĢģ": 3300,
      "èĩ³å°ĳ": 3301,
      "æł¸å¿ĥ": 3302,
      "é¹¿": 3303,
      "å¿Ĩ": 3304,
      "å¤§å¤ļæķ°": 3305,
      "éļıçĿĢ": 3306,
      "æĸĩçī©ä¿ĿæĬ¤åįķä½į": 3307,
      "è©": 3308,
      "65": 3309,
      "ä»ĵ": 3310,
      "æĿ¡çº¦": 3311,
      "47": 3312,
      "åĭ¤": 3313,
      "é£İæļ´": 3314,
      "åĽ½åĬ¡": 3315,
      "ä¹ı": 3316,
      "èĭĹ": 3317,
      "ä¸įæĸŃ": 3318,
      "èĥľåĪ©": 3319,
      "è¿Ļæł·": 3320,
      "ä¸įå°ĳ": 3321,
      "èī²åĪĹ": 3322,
      "æĢ»çĲĨ": 3323,
      "èĭ±è¯Ń": 3324,
      "æĸ¯åħĭ": 3325,
      "èĳĹä½ľ": 3326,
      "ce": 3327,
      "åŃĿ": 3328,
      "åİĦ": 3329,
      "191": 3330,
      "ç¼ħ": 3331,
      "åĪĽç«ĭ": 3332,
      "æ³Ĭ": 3333,
      "åŃĲçļĦ": 3334,
      "éĩįå»º": 3335,
      "9æľĪ2": 3336,
      "10æľĪ2": 3337,
      "è©¹": 3338,
      "æĹ¶ä»»": 3339,
      "ç§Ĵ": 3340,
      "ä»İäºĭ": 3341,
      "å¥¥æŀĹåĮ¹åħĭè¿ĲåĬ¨ä¼ļ": 3342,
      "æľªæĿ¥": 3343,
      "æľīæķĪ": 3344,
      "å¥¥æĸ¯": 3345,
      "è®¿éĹ®": 3346,
      "åĽ¢éĺŁ": 3347,
      "og": 3348,
      "è´¯": 3349,
      "çĮİ": 3350,
      "çĹħæ¯Ĵ": 3351,
      "åħ¬æ°ĳ": 3352,
      "è¥¿çľģ": 3353,
      "æ°ĳä¼Ĺ": 3354,
      "åįĬå²Ľ": 3355,
      "æ±Łèĭı": 3356,
      "ä¸Ģåº§": 3357,
      "çļĦå¸Ĥéķĩ": 3358,
      "èİ²": 3359,
      "ä¸ŃåĽ½äººæ°ĳ": 3360,
      "æĶ¶å½ķ": 3361,
      "æħķ": 3362,
      "åħģè®¸": 3363,
      "é©¬åħĭ": 3364,
      "å¹´åº¦": 3365,
      "æĴĴ": 3366,
      "èĳĹåĲį": 3367,
      "33": 3368,
      "çŀ": 3369,
      "æµĭè¯ķ": 3370,
      "èĳĽ": 3371,
      "è°ĥæķ´": 3372,
      "åĮĸçļĦ": 3373,
      "æĻ¨": 3374,
      "ä¼ı": 3375,
      "ç¨ĭåºı": 3376,
      "çĵľ": 3377,
      "éĥ½ä¼ļ": 3378,
      "å°ĳå¹´": 3379,
      "ä¹ĲåĽ¢": 3380,
      "åĢ¾": 3381,
      "187": 3382,
      "ä¸Ģä¸ĸ": 3383,
      "æµ·å²¸": 3384,
      "çİĭåĽ½": 3385,
      "èĽĭçĻ½": 3386,
      "ç»ĵå©ļ": 3387,
      "éļ¶å±ŀäºİ": 3388,
      "æĻ¶": 3389,
      "éĥ½æľī": 3390,
      "ul": 3391,
      "ç¬¬ä¸ĥ": 3392,
      "çĶµèĦĳ": 3393,
      "åģľæŃ¢": 3394,
      "çĶ¨æĿ¥": 3395,
      "æ¢¯": 3396,
      "é«ĺçŃī": 3397,
      "ä»¥ä¸Ĭ": 3398,
      "æħ¢": 3399,
      "åĵĪå°Ķ": 3400,
      "çļĦçłĶç©¶": 3401,
      "amp": 3402,
      "éĺ¿æĭīä¼¯": 3403,
      "èĥģ": 3404,
      "æİ¥è¿ĳ": 3405,
      "ä¸ĭåįĪ": 3406,
      "èĢĥèĻĳ": 3407,
      "è¡ĮæĶ¿åĮºåĪĴ": 3408,
      "å±±èĦī": 3409,
      "äºİ198": 3410,
      "è´º": 3411,
      "å°¤åħ¶": 3412,
      "æ®ĸæ°ĳ": 3413,
      "åĩĮ": 3414,
      "æĢĿæĥ³": 3415,
      "çĶµåı°": 3416,
      "ä¸ŃåĽ½åħ±äº§åħļ": 3417,
      "çĽ´èĩ³": 3418,
      "èĹ©": 3419,
      "åĳ¨è¾¹": 3420,
      "æĸ°å¢ŀ": 3421,
      "ä¸Ģå¸¦": 3422,
      "éĤĢè¯·": 3423,
      "æµ®": 3424,
      "å§Ķä¼ļ": 3425,
      "åĮ»çĸĹ": 3426,
      "ä¸įåı¯": 3427,
      "èµ·æĿ¥": 3428,
      "åħ³æ³¨": 3429,
      "ä½¿çĶ¨çļĦ": 3430,
      "ç´«": 3431,
      "åįģåħŃ": 3432,
      "ç¡ķ": 3433,
      "é¬¼": 3434,
      "64": 3435,
      "å¦Ĥä¸ĭ": 3436,
      "çĶ³è¯·": 3437,
      "æĥĬ": 3438,
      "èħ¹": 3439,
      "ind": 3440,
      "è§Ĥå¯Ł": 3441,
      "åĿİ": 3442,
      "åįģäºĶ": 3443,
      "æĺİæĺ¾": 3444,
      "åĨįåº¦": 3445,
      "ç¥ĸçĪ¶": 3446,
      "æĶ¿åħļ": 3447,
      "55": 3448,
      "åįģåĪĨ": 3449,
      "çĽ¸ä¼¼": 3450,
      "è¯¾ç¨ĭ": 3451,
      "å¡ĳ": 3452,
      "èĬĿ": 3453,
      "ä¹Ķæ²»": 3454,
      "åĮĪ": 3455,
      "æĢª": 3456,
      "ä¿Ĭ": 3457,
      "åĲĪçī©": 3458,
      "å®ªæ³ķ": 3459,
      "è¡¨è¾¾": 3460,
      "åħ±æľīäººåı£": 3461,
      "åħ¥ä¾µ": 3462,
      "å£«åħµ": 3463,
      "ä»²": 3464,
      "å®īæİĴ": 3465,
      "æĴ°": 3466,
      "åĲ¨": 3467,
      "èĭ¦": 3468,
      "æ¯ķä¸ļäºİ": 3469,
      "ak": 3470,
      "åĬ±": 3471,
      "ç½ļ": 3472,
      "åĪ°è¾¾": 3473,
      "äººæ°ĳæĶ¿åºľ": 3474,
      "AT": 3475,
      "å¨ģå°Ķ": 3476,
      "å¥´": 3477,
      "æĶ¯æı´": 3478,
      "ç§»åĬ¨": 3479,
      "åŃ¦æľ¯": 3480,
      "æ³¥": 3481,
      "æĴŀ": 3482,
      "ä¸įåĨį": 3483,
      "186": 3484,
      "3æľĪ2": 3485,
      "éĶĢåĶ®": 3486,
      "å±¿": 3487,
      "åĢĻéĢī": 3488,
      "æĿī": 3489,
      "è·¯æĺĵ": 3490,
      "çĽĹ": 3491,
      "%,": 3492,
      "æĭīåħĭ": 3493,
      "ç¦Ħ": 3494,
      "éĩįçĤ¹": 3495,
      "çĶ¨çļĦ": 3496,
      "æĹłçº¿": 3497,
      "è¯¦": 3498,
      "ä¸§": 3499,
      "ä¼Ĭæĸ¯åħ°": 3500,
      "åĹ": 3501,
      "12æľĪ2": 3502,
      "åºĶè¯¥": 3503,
      "çĨĬ": 3504,
      "âĢĿãĢģ": 3505,
      ",ãĢĬ": 3506,
      "æĹ¨": 3507,
      "è¥¿åĵ¥": 3508,
      "çī¹çļĦ": 3509,
      "8æľĪ2": 3510,
      "ä»¥èī²åĪĹ": 3511,
      "ç¢į": 3512,
      "çļĦæĹ¶åĢĻ": 3513,
      "çİ°è±¡": 3514,
      "å¦»åŃĲ": 3515,
      "éģĹåĿĢ": 3516,
      "çĹĽ": 3517,
      "ä¸ºæ³ķåĽ½": 3518,
      "çĶ¨æĪ·": 3519,
      "åıĺæĪĲ": 3520,
      "ç²Ĵ": 3521,
      "åľ°åĪ©": 3522,
      "èī²çļĦ": 3523,
      "çĮª": 3524,
      "å°±è¯»": 3525,
      "åı¯èĥ½æĺ¯": 3526,
      "éĩĳå±ŀ": 3527,
      "æĹ§å¸Ĥéķĩ": 3528,
      "6æľĪ2": 3529,
      "æĬµè¾¾": 3530,
      "åįģåĽĽ": 3531,
      "æĿĲæĸĻ": 3532,
      "æĹ©å¹´": 3533,
      "éī": 3534,
      "éĤ®æĶ¿ç¼ĸçłģ": 3535,
      "ä¹³": 3536,
      "æĢ»çĿ£": 3537,
      "è´¨éĩı": 3538,
      "éĺħ": 3539,
      "æıĲåįĩ": 3540,
      "ä¸įæĺİ": 3541,
      "çĦ¦": 3542,
      "49": 3543,
      "æŀĦæĪĲ": 3544,
      "å°ĳæķ°": 3545,
      "åįģåħ«": 3546,
      "åīįçļĦ": 3547,
      "èģĮåĬ¡": 3548,
      "ab": 3549,
      "åºĬ": 3550,
      "è·ĥ": 3551,
      "çĩķ": 3552,
      "å®īè£ħ": 3553,
      "æŁ³": 3554,
      "ç¨³å®ļ": 3555,
      "åį«æĺŁ": 3556,
      "å½Ń": 3557,
      "20æĹ¥": 3558,
      "æ±¡": 3559,
      "äººåı£å¯Ĩåº¦ä¸ºæ¯ı": 3560,
      "é«ĺçļĦ": 3561,
      "éĢĿä¸ĸ": 3562,
      "å·¥åİĤ": 3563,
      "ard": 3564,
      "æŁĲäºĽ": 3565,
      "æ¯ĶåĪ©": 3566,
      "30æĹ¥": 3567,
      "å±ı": 3568,
      "å¹´ä»£": 3569,
      "æ¡Ĥ": 3570,
      "éĦ": 3571,
      "èĪĴ": 3572,
      "ä½ĵç³»": 3573,
      "æģĴæĺŁ": 3574,
      "æĬļ": 3575,
      "çī©è´¨": 3576,
      "åĴ¸": 3577,
      "é¡µ": 3578,
      "å¡ĺ": 3579,
      "å»ºäºİ": 3580,
      "å¤±åİ»": 3581,
      "ä»ªå¼ı": 3582,
      "åĿĬ": 3583,
      "SEE": 3584,
      "å¥¥åľ°åĪ©": 3585,
      "éī´": 3586,
      "2003å¹´": 3587,
      "éĻĨåľ°": 3588,
      "äºİ197": 3589,
      "åĩ½æķ°": 3590,
      "åĩºåı£": 3591,
      "ç¤¾åĮº": 3592,
      "çĶ¸": 3593,
      "ç§ĳçļĦ": 3594,
      "åĪĽåĬŀ": 3595,
      "ãĢģ(": 3596,
      "æİī": 3597,
      "éĶģ": 3598,
      "éĺŁçļĦ": 3599,
      "å¢¨è¥¿åĵ¥": 3600,
      "æĸ¹çļĦ": 3601,
      "å»ºåĪ¶": 3602,
      "ä½¿å¾Ĺ": 3603,
      "åĲĥ": 3604,
      "æľĭåıĭ": 3605,
      "è°ĵ": 3606,
      "æĲľ": 3607,
      "æĵįä½ľ": 3608,
      "æİ¥å£¤çļĦå¸Ĥéķĩ": 3609,
      "è¯ļ": 3610,
      "æĸĳ": 3611,
      "æĸĩç«ł": 3612,
      "èĲ¨åħĭ": 3613,
      "INSEE": 3614,
      "äºĭä¸ļ": 3615,
      "æĦıè¯Ĩ": 3616,
      "æĻ®éģį": 3617,
      "æ°§åĮĸ": 3618,
      ",âĢľ": 3619,
      "çº¬": 3620,
      "çĺ": 3621,
      "çļĦå°ı": 3622,
      "ç§»æ°ĳ": 3623,
      "æ¯ıå¹³æĸ¹åħ¬éĩĮ": 3624,
      "ç¿»è¯ĳ": 3625,
      "4æľĪ2": 3626,
      "å¨ģèĥģ": 3627,
      "æ¯ıä¸ª": 3628,
      "å¾Ĺä»¥": 3629,
      "èĤĥ": 3630,
      "å°ļæľª": 3631,
      "åĬŀåħ¬å®¤": 3632,
      "æľĪ15æĹ¥": 3633,
      "å¹¿åĳĬ": 3634,
      "7æľĪ2": 3635,
      "åħ¥åı£": 3636,
      "æĹłäºº": 3637,
      "æ¡Īä»¶": 3638,
      "è¯ŀ": 3639,
      "åŀĴ": 3640,
      "æĹ¢": 3641,
      "æĮĤ": 3642,
      "æľºæ¢°": 3643,
      "to": 3644,
      "èĥ¶": 3645,
      "éļ§": 3646,
      "å¹³éĿ¢": 3647,
      "æĪĸèĢħ": 3648,
      "(;": 3649,
      "çĬ¶åĨµ": 3650,
      "æ¶Īæģ¯": 3651,
      "å¦ĤæŃ¤": 3652,
      "ä¼ļçļĦ": 3653,
      "éģĹäº§": 3654,
      "åı¬å¼Ģ": 3655,
      "44": 3656,
      "ä¸¤äºº": 3657,
      "äº¤æµģ": 3658,
      "å¾ª": 3659,
      "è¡¨æĺİ": 3660,
      "æĦıä¹ī": 3661,
      "æ°ĳä¸»åħļ": 3662,
      "æĮĳæĪĺ": 3663,
      "2002å¹´": 3664,
      "10æĹ¥": 3665,
      "å¯¹æīĭ": 3666,
      "æıĲé«ĺ": 3667,
      "å¼ĺ": 3668,
      "èģĶåĲĪåĽ½": 3669,
      "çľĭåĪ°": 3670,
      "åĭĥ": 3671,
      "è¯´æ³ķ": 3672,
      "æķ°åŃĹ": 3673,
      "èģĶç³»": 3674,
      "çķĶ": 3675,
      "åĽ¾ä¹¦é¦Ĩ": 3676,
      "æħ§": 3677,
      "ç¦ģæŃ¢": 3678,
      "åħ¥éĢī": 3679,
      "åĮĹç¾İ": 3680,
      "ä¸įè¶³": 3681,
      "èº«ä½ĵ": 3682,
      "æłĩå¿Ĺ": 3683,
      "ç¬¬1": 3684,
      "å¤ĦçļĦ": 3685,
      "çĲĥåľº": 3686,
      "åģ¥åº·": 3687,
      "æĭĵ": 3688,
      "å²³": 3689,
      "å¸ĥæĭī": 3690,
      "åĪĽéĢł": 3691,
      "å±¯": 3692,
      "èĳ¡èĲĦçīĻ": 3693,
      "ç¥Ŀ": 3694,
      "ç±³å°Ķ": 3695,
      "è¢ĸ": 3696,
      "åıĳçĶµ": 3697,
      "åľŁèĢ³": 3698,
      "ä¹¾": 3699,
      "çº·": 3700,
      "ä¸¤ç§į": 3701,
      "æ£®æŀĹ": 3702,
      "æĪĴ": 3703,
      "äººåı£å¯Ĩåº¦æ¯ıå¹³æĸ¹åħ¬éĩĮ": 3704,
      "åľŁèĢ³åħ¶": 3705,
      "ne": 3706,
      "åŃĹæ¯į": 3707,
      "æįĲ": 3708,
      "æ°¢": 3709,
      "ie": 3710,
      "ç®±": 3711,
      "èĩªæ²»åĮº": 3712,
      "å¤±è´¥": 3713,
      "å¸Ĥéķĩç¼ĸçłģ": 3714,
      "ãĢİ": 3715,
      "çī¹æ®Ĭ": 3716,
      "åĮ»åŃ¦": 3717,
      "ãĢı": 3718,
      "åħ½": 3719,
      "çĳŀåħ¸": 3720,
      "çļĦé¦ĸ": 3721,
      "åįĳ": 3722,
      "äºİæĹ¶çļĦ": 3723,
      "ç±³çļĦ": 3724,
      "åĪĹä¸º": 3725,
      "æ£ĭ": 3726,
      "ä¸ĢåĲĮ": 3727,
      "äººåı£å¯Ĩåº¦ä¸ºæ¯ıå¹³æĸ¹åįĥç±³": 3728,
      "åĲĮä¸Ģ": 3729,
      "æĻĵ": 3730,
      "å½ĵåľ°åħ±æľīäººåı£": 3731,
      "çĶŁåĳ½": 3732,
      "æ²³åĮĹ": 3733,
      "äººå¤§": 3734,
      "åľ³": 3735,
      "èĩªè¡Į": 3736,
      "åį¿": 3737,
      "æµħ": 3738,
      "ä¸ľè¥¿": 3739,
      "é«ĺä¸Ń": 3740,
      "å»¶ä¼¸": 3741,
      "å¼ºè°ĥ": 3742,
      "éħĴåºĹ": 3743,
      "çľģçº§éĢīåĮº": 3744,
      "æīĢå±ŀçļĦçľģçº§éĢīåĮº": 3745,
      "å¸ĥé²ģ": 3746,
      "åį«çĶŁ": 3747,
      "å¹¶æ²¡æľī": 3748,
      "çľģåĴĮ": 3749,
      "åĬ¨åĬĽ": 3750,
      "åĲĦåľ°": 3751,
      "ç¼ĸè¾ĳ": 3752,
      "å¥ĸé¡¹": 3753,
      "ä¸Ńå±±": 3754,
      "11æľĪ2": 3755,
      "çĽ®çļĦ": 3756,
      "éľĢæ±Ĥ": 3757,
      "åĳ½ä»¤": 3758,
      "éģ¿åħį": 3759,
      "68": 3760,
      "æĬ¥å¯¼": 3761,
      "åıĹä¼¤": 3762,
      "èĲ¥è¿Ĳ": 3763,
      "ä¼°è®¡": 3764,
      "è½°çĤ¸": 3765,
      "åıĪç§°": 3766,
      "ç¼ºä¹ı": 3767,
      "æľ¬åľŁ": 3768,
      "è¿ħéĢŁ": 3769,
      "æĹ¦": 3770,
      "åıĳèµ·": 3771,
      "ä¸Ģå®¶": 3772,
      "æµ·åŁŁ": 3773,
      "Re": 3774,
      "æī°": 3775,
      "18æĹ¥": 3776,
      "æĲ¬": 3777,
      "æ³¨æĦı": 3778,
      "æ¬¢è¿İ": 3779,
      "æĶ¿æĿĥ": 3780,
      "éĩĮçļĦ": 3781,
      "ä¸»å¼ł": 3782,
      "åİĨåı²ä¸Ĭ": 3783,
      "å¹¶æľª": 3784,
      "éĥĬ": 3785,
      "åī©": 3786,
      "äºİ194": 3787,
      "è¾¾æĪĲ": 3788,
      "æĸ¯å¡Ķ": 3789,
      "åĲ¸å¼ķ": 3790,
      "çĹĩçĬ¶": 3791,
      "ä¿¡åı·": 3792,
      "æıĴ": 3793,
      "é²į": 3794,
      "åĸĢ": 3795,
      "å¤ĸåĽ½": 3796,
      "çŁ¥éģĵ": 3797,
      "è§ĦåĪĻ": 3798,
      "åĽĽä¸ª": 3799,
      "ä»ĭç»į": 3800,
      "SA": 3801,
      "äººåĴĮ": 3802,
      "å®īå¾·": 3803,
      "ä¹ĺå®¢": 3804,
      "éĩĳèŀį": 3805,
      "æķĻç»ĥ": 3806,
      "å¿ĥçĲĨ": 3807,
      "æĿĨ": 3808,
      "æĴ¤éĶĢ": 3809,
      "çİ»": 3810,
      "ä¾¦": 3811,
      "éľ¸": 3812,
      "ä¸²": 3813,
      "ist": 3814,
      "å°¼æĸ¯": 3815,
      "è´ŀ": 3816,
      "åı¯èĥ½ä¼ļ": 3817,
      "æķ°åŃ¦": 3818,
      "éĥ¨èĲ½": 3819,
      "å´İ": 3820,
      "å¸ĤçļĦ": 3821,
      "ä¹Łåľ¨": 3822,
      "æĽ´åĲįä¸º": 3823,
      "31æĹ¥": 3824,
      "TV": 3825,
      "ang": 3826,
      "ç¬¬2": 3827,
      "5æľĪ2": 3828,
      "éĵ¾": 3829,
      "æĦŁåĪ°": 3830,
      "åħ¬ä¼Ĺ": 3831,
      "æ¬²": 3832,
      "å½¼å¾Ĺ": 3833,
      "èĥİ": 3834,
      "æķĪåĬĽ": 3835,
      "An": 3836,
      "äºĭå®ŀ": 3837,
      "400": 3838,
      "çĶŁéķ¿": 3839,
      "å°Ķåħ°": 3840,
      "æķĻå¸Ī": 3841,
      "ä»¿": 3842,
      "éĩĩåıĸ": 3843,
      "æİ¨åĬ¨": 3844,
      "æķĻåŃ¦": 3845,
      "est": 3846,
      "æµĵ": 3847,
      "è¹": 3848,
      "åįĹåĮĹ": 3849,
      "èĳĹåĲįçļĦ": 3850,
      "å¤§è¥¿æ´ĭ": 3851,
      "èµĦè®¯": 3852,
      "è´Ńä¹°": 3853,
      "ä¿¡ä»°": 3854,
      "æī§å¯¼": 3855,
      "æŀ¢": 3856,
      "é¼ł": 3857,
      "ä¸Ńåħ±ä¸Ńå¤®": 3858,
      "æĸ¯èĴĤ": 3859,
      "çļĦä¸Ģåº§": 3860,
      "è¯¢": 3861,
      "çļĦæĸ¹å¼ı": 3862,
      "ä¼Ļ": 3863,
      "ç¥ŀç»ı": 3864,
      "åľ¨199": 3865,
      "å½»": 3866,
      "èĽĩ": 3867,
      "åįĵ": 3868,
      "æĶ¾å¼ĥ": 3869,
      "åŁºåľ°": 3870,
      "çİ°åľº": 3871,
      "æĬ¥éģĵ": 3872,
      "12æĹ¥": 3873,
      "æĴŃæĶ¾": 3874,
      "19æĹ¥": 3875,
      "éĩįåºĨ": 3876,
      "åĵģçīĮ": 3877,
      "çļĦåĲĮ": 3878,
      "2æľĪ2": 3879,
      "åįģåŃĹ": 3880,
      "âĢĿãĢģâĢľ": 3881,
      "å¤§éģĵ": 3882,
      "æ³ķæ¡Ī": 3883,
      "ç¨ĭå¼ı": 3884,
      "åıĤèĢĥ": 3885,
      "çļĦç¬¬ä¸Ģ": 3886,
      "è´¡çĮ®": 3887,
      "æĭ³": 3888,
      "ç½ĳè·¯": 3889,
      "åĩºæĪĺ": 3890,
      "æīĵåĩ»": 3891,
      "åĳ½åĲį": 3892,
      "å£®": 3893,
      "èĭ±éĽĦ": 3894,
      "å®¹æĺĵ": 3895,
      ");": 3896,
      "11æĹ¥": 3897,
      "ç¬ĳ": 3898,
      "åİĺ": 3899,
      "åĨĽçļĦ": 3900,
      "æ³°åĽ½": 3901,
      "åįĹæŀģ": 3902,
      "ç§¯æŀģ": 3903,
      "æĵİ": 3904,
      "æĬĹè®®": 3905,
      "åĸľæ¬¢": 3906,
      "åĽ½åĬ¡éĻ¢": 3907,
      "ä¸Ģåº¦": 3908,
      "æıŃ": 3909,
      "åī²": 3910,
      "äºĭæķħ": 3911,
      "ä¸ĢæĿ¡": 3912,
      "ä¹Ŀé¾Ļ": 3913,
      "å¤ºå¾Ĺ": 3914,
      "çīł": 3915,
      "è¯ģæį®": 3916,
      "äºİ196": 3917,
      "æĢ§è´¨": 3918,
      "æİ¥è§¦": 3919,
      "äºŃ": 3920,
      "éĺŁä¼į": 3921,
      "NA": 3922,
      "æ´Ĺ": 3923,
      "åįľ": 3924,
      "è£ħçĶ²": 3925,
      "æī®": 3926,
      "å°Ŀ": 3927,
      "èµĲ": 3928,
      "å¤ļç§į": 3929,
      "çŁ¥è¯Ĩ": 3930,
      "å±Ĭåħ¨åĽ½": 3931,
      "åį¡å°Ķ": 3932,
      "èĤº": 3933,
      "äºİ195": 3934,
      "çĶŁæĢģ": 3935,
      "å¼ºçĥĪ": 3936,
      "æ¹ĸåĮĹ": 3937,
      "çªĹ": 3938,
      "èĬ³": 3939,
      "æĮª": 3940,
      "å®īå¾½": 3941,
      "å±ķç¤º": 3942,
      "çĸı": 3943,
      "å¤įæĿĤ": 3944,
      "èĢĮè¢«": 3945,
      "æ¶īåıĬ": 3946,
      "æĽ´å¤ļ": 3947,
      "æľ¬èº«": 3948,
      "ä¸ĸçķĮæĿ¯": 3949,
      "çł²": 3950,
      "å®Įæķ´": 3951,
      "èı²å¾ĭ": 3952,
      "æĿĥåĬĽ": 3953,
      "çļĦåİŁ": 3954,
      "éĩĮäºļ": 3955,
      "èı²å¾ĭå®¾": 3956,
      "äººå·¥": 3957,
      "æĿŃ": 3958,
      "è¥¿æĸ¹": 3959,
      "å¸ĤåĮº": 3960,
      "ç»´å¥ĩ": 3961,
      "ç¾½æ¯Ľ": 3962,
      "çİĦ": 3963,
      "ä¸ĩç¾İåħĥ": 3964,
      "åħ¬ä¸»": 3965,
      "çĪ±å°Ķåħ°": 3966,
      "è´«": 3967,
      "èį¯çī©": 3968,
      "æĬ¢": 3969,
      "åħ¶å®ĥ": 3970,
      "ç¾İæľ¯": 3971,
      "åħīç»ª": 3972,
      "ä¸įå¾Ĺ": 3973,
      "èĢĮæĪĲ": 3974,
      "æĸĩçĮ®": 3975,
      "æĿĳåºĦ": 3976,
      "æĦıè§ģ": 3977,
      "è±Ĩ": 3978,
      "éĢĴ": 3979,
      "ä¸īå¹´": 3980,
      "éĵº": 3981,
      "58": 3982,
      "ä»Ģä¹Ī": 3983,
      "1æľĪ2": 3984,
      "æ¸Ķ": 3985,
      "å¸Ĥæ°ĳ": 3986,
      "å¼ķæĵİ": 3987,
      "éĢĨ": 3988,
      "åĨħéĺģ": 3989,
      "ine": 3990,
      "åŁĥåıĬ": 3991,
      "å£³": 3992,
      "æĿĥåĪ©": 3993,
      "æĹħå®¢": 3994,
      "å«Į": 3995,
      "è´´": 3996,
      "é«ĺéĽĦ": 3997,
      "çļĦéĩįè¦ģ": 3998,
      "åŃ¦ä½į": 3999,
      "æ¹¿": 4000,
      "te": 4001,
      "æĬ½": 4002,
      "é¢ĨåľŁ": 4003,
      "çĬ¬": 4004,
      "å®¢è¿Ĳ": 4005,
      "çĪ¶æ¯į": 4006,
      "ç®Ģåįķ": 4007,
      "çļĦæµ·": 4008,
      "å¾ĭå¸Ī": 4009,
      "æº¶": 4010,
      "æİĪäºĪ": 4011,
      "æİªæĸ½": 4012,
      "è¡¨éĿ¢": 4013,
      "æĭīä¸ģ": 4014,
      "éĽĩ": 4015,
      "æľºä¼ļ": 4016,
      "çĮ«": 4017,
      "æľĢåĲİä¸Ģ": 4018,
      "ç®Ģä»ĭ": 4019,
      "æ°ĳéĹ´": 4020,
      "å¦ĥ": 4021,
      "ä¹¾éļĨ": 4022,
      "åĴĮåħ¶ä»ĸ": 4023,
      "éķ¿åº¦": 4024,
      "èŀº": 4025,
      "èĤ¡ä»½": 4026,
      "æķĪæŀľ": 4027,
      "çŃ¾ç½²": 4028,
      "èģĺ": 4029,
      "è±¡å¾ģ": 4030,
      "å¯Ħ": 4031,
      "ç²®": 4032,
      "åıĳåĶ®": 4033,
      "èį£èªī": 4034,
      "æĸ¯æĭī": 4035,
      "åľ°éľĩ": 4036,
      "ä¼łè¯´": 4037,
      "å°ī": 4038,
      "éĻįä½İ": 4039,
      "å£°ç§°": 4040,
      "ob": 4041,
      "é£ĵ": 4042,
      "æ·±åľ³": 4043,
      "æĤ¬": 4044,
      "å½¢è±¡": 4045,
      "åħĭç½Ĺ": 4046,
      "ly": 4047,
      "äºļåİĨ": 4048,
      "ç¡®è®¤": 4049,
      "ç¡®è¯Ĭ": 4050,
      "42": 4051,
      "ä¹Łè¢«": 4052,
      "å¦Ĥä½ķ": 4053,
      "å·§": 4054,
      "åĽłç´ł": 4055,
      "æĿ¥åĪ°": 4056,
      "åħ¨éĿ¢": 4057,
      "æ°´å¹³": 4058,
      "ç¢³": 4059,
      "æĮīçħ§": 4060,
      "çĬ¯ç½ª": 4061,
      "é£ĵé£İ": 4062,
      "çĽ¾": 4063,
      "åıĳåĩº": 4064,
      "çĪĨçĤ¸": 4065,
      "åıĶ": 4066,
      "è¿Ł": 4067,
      "æľĪ16æĹ¥": 4068,
      "å°ıçļĦ": 4069,
      "é¢Ĩè¢ĸ": 4070,
      "åĮ»çĶŁ": 4071,
      "ç«ŀäºī": 4072,
      "è¢ģ": 4073,
      "çħ¤": 4074,
      "tw": 4075,
      "æľīæīĢ": 4076,
      "åĩºçİ°åľ¨": 4077,
      "å·®å¼Ĥ": 4078,
      "åŃ¦ä¼ļ": 4079,
      "ä¼łæĴŃ": 4080,
      "ç¨¿": 4081,
      "å®ı": 4082,
      "æ´ģ": 4083,
      "ä¸ĵéĹ¨": 4084,
      "æľĪ17æĹ¥": 4085,
      "67": 4086,
      "ä¸Ī": 4087,
      "æĸľ": 4088,
      "æĸĩåŃĹ": 4089,
      "ä¼ĬæľĹ": 4090,
      "åıĻåĪ©äºļ": 4091,
      "ç¾Ĭ": 4092,
      "åı¤ä»£": 4093,
      "æ°Ķè±¡": 4094,
      "ä¸Ļ": 4095,
      "å·¥åħ·": 4096,
      "ä¹¡è¯ķ": 4097,
      "åŁºçĿ£æķĻ": 4098,
      "OS": 4099,
      "åĲİæľŁ": 4100,
      "æ¯«ç±³": 4101,
      "èµĦéĩĳ": 4102,
      "Â°": 4103,
      "åı°åįĹ": 4104,
      "éļ§éģĵ": 4105,
      "=\"": 4106,
      "æĪıåī§": 4107,
      "çīµ": 4108,
      "èĨľ": 4109,
      "èħ¾": 4110,
      "å½ĵæĹ¶çļĦ": 4111,
      "é«ĺäºİ": 4112,
      "èµ·æºĲ": 4113,
      "æĬ¼": 4114,
      "å°¸": 4115,
      "åıªæĺ¯": 4116,
      "å°ļä¹¦": 4117,
      "æ²³çķĶ": 4118,
      "æįŁå¤±": 4119,
      "æľĪ22æĹ¥": 4120,
      "ï½": 4121,
      "çļĦåľ°æĸ¹": 4122,
      "åĨĴ": 4123,
      "å¡«": 4124,
      "ç»ĻäºĪ": 4125,
      "åıªèĥ½": 4126,
      "è¾¹çķĮ": 4127,
      "åı°åĮĹå¸Ĥ": 4128,
      "é³įé±¼": 4129,
      "å¸ĪèĮĥ": 4130,
      "çĸ¾çĹħ": 4131,
      "è¾©": 4132,
      "ä¸ºä¸Ģ": 4133,
      "çĽ¸æ¯Ķ": 4134,
      "åĿ¦åħĭ": 4135,
      "ä¸įæ»¡": 4136,
      "ç»ıéªĮ": 4137,
      "å°Ķçī¹": 4138,
      "éĿ¢å¯¹": 4139,
      "çĲĨäºĭ": 4140,
      "è¡į": 4141,
      "å¹¶éĿŀ": 4142,
      "185": 4143,
      "ok": 4144,
      "å¥ĳ": 4145,
      "è£ķ": 4146,
      "éĴ¦": 4147,
      "BC": 4148,
      "av": 4149,
      "ä½ľæĽ²": 4150,
      "äº¨åĪ©": 4151,
      "ä»ĳ": 4152,
      "è¡°": 4153,
      "å§»": 4154,
      "ä¸ľåĮĹéĥ¨": 4155,
      "åĩºå¸Ń": 4156,
      "æ°Ł": 4157,
      "ç½¢": 4158,
      "æľ¬ç«Ļ": 4159,
      "è¸ª": 4160,
      "åĪĹè¡¨": 4161,
      "éĢĢå½¹": 4162,
      "å·¡åĽŀ": 4163,
      "æľĪ14æĹ¥": 4164,
      "å²ģçļĦ": 4165,
      "åĪĽå»º": 4166,
      "é¸¡": 4167,
      "æĺİæ²»": 4168,
      "çĻ»éĻĨ": 4169,
      "æĢ§åĪ«": 4170,
      "æĪĲä¸ºäºĨ": 4171,
      "èĮĤ": 4172,
      "ä½ıå®ħ": 4173,
      "99": 4174,
      "è²": 4175,
      "çĲī": 4176,
      "åľ°éĿ¢": 4177,
      "åŃ©åŃĲ": 4178,
      "åĪĹåħ¥": 4179,
      "åĽŀåºĶ": 4180,
      "åħĭèİ±": 4181,
      "æľĪ21æĹ¥": 4182,
      "å®Ļ": 4183,
      "ç«Ļåı°": 4184,
      "åı¸æ³ķ": 4185,
      "çİĩé¢Ĩ": 4186,
      "è´µæĹı": 4187,
      "èĪŀåı°": 4188,
      "åĩłä¸ª": 4189,
      "è½¬ç§»": 4190,
      "ç¤¾ä¼ļä¸»ä¹ī": 4191,
      "å¦Ī": 4192,
      "å®ŀè¡Į": 4193,
      "å£°æĺİ": 4194,
      "åĨ¬åŃ£": 4195,
      "åŁºåĽł": 4196,
      "ä¸¾è¡ĮçļĦ": 4197,
      "ç²¹": 4198,
      "æĪĺåĲİ": 4199,
      "èĭ±å°º": 4200,
      "çĶµè½¦": 4201,
      "ç§įæĹı": 4202,
      "æ¾³æ´²": 4203,
      "æµ·æ´ĭ": 4204,
      "èĤ¥": 4205,
      "çļĦé«ĺ": 4206,
      "äºİæĺ¯": 4207,
      "å°ıåŀĭ": 4208,
      "çº¦ä¸º": 4209,
      "åıĤè°ĭ": 4210,
      "åĸ·": 4211,
      "åħ³éĹŃ": 4212,
      "æĽ´åĬł": 4213,
      "ç¬¬åħ«": 4214,
      "åĳ½åĲįä¸º": 4215,
      "èįĴ": 4216,
      "æµģåŁŁ": 4217,
      "åĥ§": 4218,
      "3ä¸ª": 4219,
      "ä¸ľæĸ¹": 4220,
      "æĪĲæľ¬": 4221,
      "You": 4222,
      "åįģä¸ĥ": 4223,
      "78": 4224,
      "è£ħç½®": 4225,
      "ä¿®æĶ¹": 4226,
      "è¾ĥä¸º": 4227,
      "æĩ": 4228,
      "éģµ": 4229,
      "çĭĦ": 4230,
      "ç¤ºå¨ģ": 4231,
      "åį¢çĵ¦å°Ķ": 4232,
      "Al": 4233,
      "ä¸Ģå®ļ": 4234,
      "å½¢æĢģ": 4235,
      "çĸ«æĥħ": 4236,
      "éĹ´çļĦ": 4237,
      "æµ©": 4238,
      "art": 4239,
      "æīįèĥ½": 4240,
      "åıĺå¾Ĺ": 4241,
      "ç¡ķå£«": 4242,
      "å½ĵå±Ģ": 4243,
      "åıĤåĬłäºĨ": 4244,
      "èĬ¬åħ°": 4245,
      "é¸¿": 4246,
      "å´Ķ": 4247,
      "çİĽä¸½": 4248,
      "ç¬¦åĲĪ": 4249,
      "é©±éĢĲ": 4250,
      "æĦıæĢĿ": 4251,
      "æľĪ13æĹ¥": 4252,
      "é«ĺéĢŁåħ¬è·¯": 4253,
      "æľºåĻ¨": 4254,
      "æµĭéĩı": 4255,
      "ha": 4256,
      "é³įé±¼çº²": 4257,
      "æŃ£å¸¸": 4258,
      "å¸ħ": 4259,
      "éĢļè½¦": 4260,
      "æĮĩå®ļ": 4261,
      "èİ«æĸ¯ç§ĳ": 4262,
      "æĸ°çĸĨ": 4263,
      "çļĦä¸ī": 4264,
      "å²Ĺ": 4265,
      "çļĦåĽ½å®¶": 4266,
      "åı¦ä¸Ģä¸ª": 4267,
      "é¥Ń": 4268,
      "é¡¾éĹ®": 4269,
      "å¼Ģè®¾": 4270,
      "æĥħæĬ¥": 4271,
      "66": 4272,
      "èĭıæł¼åħ°": 4273,
      "å¼¥": 4274,
      "åįģä¹Ŀ": 4275,
      "ä¸Ńæľī": 4276,
      "éħįåĲĪ": 4277,
      "é£Łçī©": 4278,
      "æ··åĲĪ": 4279,
      "æĢĴ": 4280,
      "æĶ¹éĢł": 4281,
      "æ¶µ": 4282,
      "å§Ķä¹¦è®°": 4283,
      "æĶ¶è´Ń": 4284,
      "åĵ²åŃ¦": 4285,
      "ä¿ĺ": 4286,
      "å¾Īå¿«": 4287,
      "åħ¬åı¸çļĦ": 4288,
      "è¾Ĳé³įé±¼çº²": 4289,
      "èĢĹ": 4290,
      "çģ«ç®Ń": 4291,
      "éĻĨåľ°éĿ¢ç§¯ä¸º": 4292,
      "95": 4293,
      "åĪĨéħį": 4294,
      "æ°´åŁŁéĿ¢ç§¯ä¸º": 4295,
      "æ¬£": 4296,
      "æ¶¦": 4297,
      "up": 4298,
      "è¯´æĺİ": 4299,
      "åŃ¤": 4300,
      "ä¹Łä¼ļ": 4301,
      "éħįéŁ³": 4302,
      "èĢĢ": 4303,
      "ht": 4304,
      "å¼ĢéĢļ": 4305,
      "åĮĪçīĻ": 4306,
      "æŃĩ": 4307,
      "éķĩåĮº": 4308,
      "è¥¿èĹı": 4309,
      "åıĳçİ°äºĨ": 4310,
      "ä½ľèĢħ": 4311,
      "çŁ¶": 4312,
      "çĭĤ": 4313,
      "æķ´ä½ĵ": 4314,
      "æ³ķå®ĺ": 4315,
      "éĻĦè¿ĳçļĦ": 4316,
      "èµ¶": 4317,
      "å¯¼å¼¹": 4318,
      "æĮªå¨ģ": 4319,
      "åĮĪçīĻåĪ©": 4320,
      "ess": 4321,
      "88": 4322,
      "éķ¿åı¯è¾¾": 4323,
      "150": 4324,
      "åĤħ": 4325,
      "èĢĮè¨Ģ": 4326,
      "å¯¹è±¡": 4327,
      "ç¥Ģ": 4328,
      "æĥ¯": 4329,
      "è£ħå¤ĩ": 4330,
      "çĭ®": 4331,
      "éĻĢ": 4332,
      "åº·çĨĻ": 4333,
      "å¯¸": 4334,
      "ç¿Į": 4335,
      "ï½ŀ": 4336,
      "æµ·å¤ĸ": 4337,
      "åħĭæĭī": 4338,
      "è¯·æ±Ĥ": 4339,
      "æıĲåĪ°": 4340,
      "æĶ¹åĸĦ": 4341,
      "æģĲæĢ": 4342,
      "ik": 4343,
      "å¯¹æŃ¤": 4344,
      "çĶ¨ä½ľ": 4345,
      "åĬ¨ä½ľ": 4346,
      "æµ·å³¡": 4347,
      "åŀĤ": 4348,
      "æĪĺçķ¥": 4349,
      "ç¥¨æĪ¿": 4350,
      "å½ĵä¸ŃéĻĨåľ°éĿ¢ç§¯ä¸º": 4351,
      "åľ¨åħ¶": 4352,
      "ä¸Ģéĥ¨": 4353,
      "ç§ĺå¯Ĩ": 4354,
      "ä¸ĭéĻį": 4355,
      "çĶµåĬĽ": 4356,
      "çĹħä¾ĭ": 4357,
      "ç½Ĺä¼¯": 4358,
      "èĦĤ": 4359,
      "ers": 4360,
      "å¤·": 4361,
      "åİ¢": 4362,
      "æŁĶ": 4363,
      "ç²¤": 4364,
      "äºļåİĨå±±": 4365,
      "åĬ³åĬ¨": 4366,
      "åľ°çĲĨ": 4367,
      "ä¸ľåįĹéĥ¨": 4368,
      "æłĩä¸º": 4369,
      "æŃ¦æ±ī": 4370,
      "æĤī": 4371,
      "ç¼ħçĶ¸": 4372,
      "åįİçĽĽ": 4373,
      "çĭĹ": 4374,
      "éĤ£éĩĮ": 4375,
      "éĢĢä¼ĳ": 4376,
      "ip": 4377,
      "åľ°ä½į": 4378,
      "å®¶çļĦ": 4379,
      "å¸Ĥéķ¿": 4380,
      "äº¦æľī": 4381,
      "å¹¿ä¸ľçľģ": 4382,
      "å¸ĥå°Ķ": 4383,
      "åĩºæ¼Ķ": 4384,
      "å§ļ": 4385,
      "èµ·ä¹ī": 4386,
      "åĽŀå½Ĵ": 4387,
      "æ»ļ": 4388,
      "æŃ¥åħµ": 4389,
      "è¦ĨçĽĸ": 4390,
      "ç¼ĸåī§": 4391,
      "ç¢İ": 4392,
      "éĢ¢": 4393,
      "è§Ĥæµĭ": 4394,
      "ç§ģäºº": 4395,
      "æľĢè¿ĳ": 4396,
      "å°Ĩä¼ļ": 4397,
      "çĮĽ": 4398,
      "æī¾åĪ°": 4399,
      "åľ¨æĹ¥æľ¬": 4400,
      "æ¯Ķä¾ĭ": 4401,
      "ue": 4402,
      "åľ°åĽ¾": 4403,
      "BA": 4404,
      "çĲĥä¼ļ": 4405,
      "æ·±åº¦": 4406,
      "åľºæ¯ĶèµĽ": 4407,
      "çģĮ": 4408,
      "æİ¨è¿Ľ": 4409,
      "åįİçĽĽé¡¿": 4410,
      "é¢Ħè®¡": 4411,
      "å½°": 4412,
      "ä»»èģĮ": 4413,
      "èĬĴ": 4414,
      "åĲĪçº¦": 4415,
      "åħ´è¶£": 4416,
      "æĳĩ": 4417,
      "å®ŀéĻħä¸Ĭ": 4418,
      "åĪ¸": 4419,
      "æľīä¸Ģä¸ª": 4420,
      "ä¸ĩäºº": 4421,
      "çľŁæŃ£": 4422,
      "ç»ıåħ¸": 4423,
      "éĥ¨çļĦ": 4424,
      "ç¬¬5": 4425,
      "å¹¿è¥¿": 4426,
      "è¯ķéªĮ": 4427,
      "åºŀ": 4428,
      "ç»Ħå»º": 4429,
      "åĳ¨åĽ´": 4430,
      "éĩįå¤§": 4431,
      "é£İéĻ©": 4432,
      "æºĲèĩª": 4433,
      "å°Ŀè¯ķ": 4434,
      "ä¿ĿåŃĺ": 4435,
      "å®ĥçļĦ": 4436,
      "åĬłçĽŁ": 4437,
      "å¼ķåħ¥": 4438,
      "æĬķéĻį": 4439,
      "éĺ²å¾¡": 4440,
      "å¾¡åı²": 4441,
      "æłĸæģ¯åľ¨": 4442,
      "ows": 4443,
      "å¹¶åħ¥": 4444,
      "æ»©": 4445,
      "èĬ±åĽŃ": 4446,
      "æĿĢæŃ»": 4447,
      "if": 4448,
      "ç¬¼": 4449,
      "å¹¶ä¸Ķ": 4450,
      "å»Ĭ": 4451,
      ",ãĢĮ": 4452,
      "ä¼ª": 4453,
      "åĳİ": 4454,
      "çĶŁçļĦ": 4455,
      "ç¬¬3": 4456,
      "ç¾İåĨĽ": 4457,
      "åģ·": 4458,
      "å²Ľå±¿": 4459,
      "åĪ¶çļĦ": 4460,
      "åĮĹäº¬å¸Ĥ": 4461,
      "âĢ¦âĢ¦": 4462,
      "éĺª": 4463,
      "å¸¦æĿ¥": 4464,
      "æľīæĹ¶": 4465,
      "èįĲ": 4466,
      "éļıåį³": 4467,
      "å¹´éĹ´": 4468,
      "æľĢå¤ļ": 4469,
      "ä¸ĬåįĪ": 4470,
      "å¥İ": 4471,
      "åĬŀäºĭ": 4472,
      "è´£ä»»": 4473,
      "è©¹å§Ĩ": 4474,
      "ä»£è¡¨å¤§ä¼ļ": 4475,
      "éĢ»": 4476,
      "èĤĸ": 4477,
      "å£°éŁ³": 4478,
      "ä¸ºæŃ¢": 4479,
      "éħ¶": 4480,
      "å¹´é¾Ħ": 4481,
      "è®ºæĸĩ": 4482,
      "çĶ¨éĢĶ": 4483,
      "éĩĮæĸ¯": 4484,
      "åİĭåĬĽ": 4485,
      "çıĬ": 4486,
      "ä¾ł": 4487,
      "è¿Ļæĺ¯": 4488,
      "æ¸©åº¦": 4489,
      "è®²è¿°": 4490,
      "åĲ¾": 4491,
      "äº¿ç¾İåħĥ": 4492,
      "çħ§çīĩ": 4493,
      "çļĦä¸Ń": 4494,
      "çļĦæĹ¶éĹ´": 4495,
      "æľīäºº": 4496,
      "æŀĿ": 4497,
      "è¿Ĳä½ľ": 4498,
      "ä¿ĥè¿Ľ": 4499,
      "ä»£çłģ": 4500,
      "åľ¨è¿Ļ": 4501,
      "ä¼ĺåĬ¿": 4502,
      "Wind": 4503,
      "å¤§è§Ħæ¨¡": 4504,
      "å¾ĹçŁ¥": 4505,
      "æĮĩå¯¼": 4506,
      "è½¯ä»¶": 4507,
      "è§£æķ£": 4508,
      "è¢«è®¤ä¸ºæĺ¯": 4509,
      "åĲĮçĽŁ": 4510,
      "æ¹ĺ": 4511,
      "ç¿ģ": 4512,
      "è°ĪåĪ¤": 4513,
      "çĴĥ": 4514,
      "èµĭ": 4515,
      "éļľç¢į": 4516,
      "åĲįä¹ī": 4517,
      ";-": 4518,
      "180": 4519,
      "å¨ĥ": 4520,
      "åĵ¥ä¼¦": 4521,
      "å¤ıåŃ£å¥¥æŀĹåĮ¹åħĭè¿ĲåĬ¨ä¼ļ": 4522,
      "å¤ļå¹´": 4523,
      "ä¸ŃåĽ½äººæ°ĳè§£æĶ¾åĨĽ": 4524,
      "æŀĦéĢł": 4525,
      "éĺĶ": 4526,
      "èĥ¸": 4527,
      "çº¢èī²": 4528,
      "éļ¾ä»¥": 4529,
      "43": 4530,
      "å¼¦": 4531,
      "æģĲæĢĸ": 4532,
      "çļĦä¸¤": 4533,
      "æĮĩæİ§": 4534,
      "éŃĤ": 4535,
      "åįµ": 4536,
      "æľīäºĽ": 4537,
      "æłı": 4538,
      "äºĨè§£": 4539,
      "AR": 4540,
      "ä¸ĩåİĨ": 4541,
      "AM": 4542,
      "ä»ĩ": 4543,
      "ice": 4544,
      "çŁ¥åĲį": 4545,
      "98": 4546,
      "ä¸Ĭæµ·å¸Ĥ": 4547,
      "ell": 4548,
      "åİĨä»»": 4549,
      "åĲĲ": 4550,
      "BS": 4551,
      "æ±Łè¥¿": 4552,
      "IC": 4553,
      "ge": 4554,
      "æľ´": 4555,
      "é©¾é©¶": 4556,
      "éĤ£äºĽ": 4557,
      "åĲı": 4558,
      "ä¸īè§Ĵ": 4559,
      "è¯ŃçļĦ": 4560,
      "éĩıçļĦ": 4561,
      "åıł": 4562,
      "æ·ĺ": 4563,
      "ç½ĳçĲĥ": 4564,
      "æĹĹä¸ĭ": 4565,
      "().": 4566,
      "76": 4567,
      "éĤ¨": 4568,
      "æ³¨åĨĮ": 4569,
      "å©ļå§»": 4570,
      "ä¸Ģé¢Ĺ": 4571,
      "æĪĸæĺ¯": 4572,
      "å®ĩå®Ļ": 4573,
      "æī®æ¼Ķ": 4574,
      "åı°ä¸Ń": 4575,
      "å±ł": 4576,
      "åĮĸçŁ³": 4577,
      "åĬłå¼º": 4578,
      "æĳĦå½±": 4579,
      "ç¡«": 4580,
      "é©¬æĭī": 4581,
      "èħĲ": 4582,
      "éĶĻè¯¯": 4583,
      "é©¬å°Ķ": 4584,
      "æĲº": 4585,
      "æ¼ĶåĶ±ä¼ļ": 4586,
      "èĪ±": 4587,
      "åı°é£İ": 4588,
      "æķĻåĮº": 4589,
      "æ·¡æ°´": 4590,
      "sp": 4591,
      "å½¦": 4592,
      "å¤ªç©º": 4593,
      "ç³»ç»ŁçļĦ": 4594,
      "è¥¿åįĹéĥ¨": 4595,
      "æŁıæŀĹ": 4596,
      "bo": 4597,
      "åħĭçļĦ": 4598,
      "èĦĬ": 4599,
      "æľįå½¹": 4600,
      "åĲĪæĪĲ": 4601,
      "éĻĨç»Ń": 4602,
      "éĢ®": 4603,
      "è²Į": 4604,
      "æī©å¤§": 4605,
      "æĺ¯æĮĩ": 4606,
      "åĺ´": 4607,
      "184": 4608,
      "é¹°": 4609,
      "åĬłåĪ©": 4610,
      "è§ĤçĤ¹": 4611,
      "çļĦå±±": 4612,
      "æĶ¿åįı": 4613,
      "éļ¶å±ŀ": 4614,
      "ud": 4615,
      "æŃ§": 4616,
      "ä½ľåĩº": 4617,
      "\")": 4618,
      "æĽ¾ä»»": 4619,
      "å¸¦æľī": 4620,
      "æĹ¬": 4621,
      "ç¨į": 4622,
      "åıī": 4623,
      "çĻ½èī²": 4624,
      "çĲĥåŃ£": 4625,
      "äººåı£ä¸º": 4626,
      "ä»·æł¼": 4627,
      "éĩĬæĶ¾": 4628,
      "æĶ¿åºľçļĦ": 4629,
      "åľ¨ä¸ŃåĽ½": 4630,
      "ï¼ı": 4631,
      "åĳĪçİ°": 4632,
      "å®ļå±ħ": 4633,
      "çĽ¸ä¿¡": 4634,
      "æīĢå±ŀ": 4635,
      "é¦ĸåħĪ": 4636,
      "å¨ĺ": 4637,
      "ä¿Ŀç½Ĺ": 4638,
      "åĪ·": 4639,
      "ç¿ł": 4640,
      "åħ¼ä»»": 4641,
      "åĽºå®ļ": 4642,
      "æİĴè¡Į": 4643,
      "éĹ½": 4644,
      "æģ°": 4645,
      "éĺ¶çº§": 4646,
      "è¥¿åĮĹéĥ¨": 4647,
      "æł¡éķ¿": 4648,
      "èĿ¶": 4649,
      "ction": 4650,
      "ç¯®çĲĥ": 4651,
      "çļĦåİĨåı²": 4652,
      "æ¸¸æ³³": 4653,
      "æı¡": 4654,
      "çĽ¸äºĴ": 4655,
      "åħ³éĶ®": 4656,
      "è¥¿å®ī": 4657,
      "ç«ĭåį³": 4658,
      "åŀĭçļĦ": 4659,
      "4ä¸ª": 4660,
      "77": 4661,
      "éĢļè®¯": 4662,
      "åįģå¹´": 4663,
      "è®¾å®ļ": 4664,
      "èĸĦ": 4665,
      "éªĳå£«": 4666,
      "åĿª": 4667,
      "ä½ıæ°ĳ": 4668,
      "å¯¹å¤ĸ": 4669,
      "æ¯Ķå¦Ĥ": 4670,
      "æ·»": 4671,
      "éªĳåħµ": 4672,
      "å©Ĩ": 4673,
      "æĸ¯æŀĹ": 4674,
      "éĽĢ": 4675,
      "çİ°æĹ¶": 4676,
      "å¸¦é¢Ĩ": 4677,
      "éĵŃ": 4678,
      "æĸ¹è¨Ģ": 4679,
      "ä¸Ģèĩ´": 4680,
      "1000": 4681,
      "ä¿®å»º": 4682,
      "ä¸°å¯Į": 4683,
      "å¿§": 4684,
      "è¶ĭ": 4685,
      "ä¼ĺç§Ģ": 4686,
      "éĨĴ": 4687,
      "ç¬¬äºĮæ¬¡ä¸ĸçķĮå¤§æĪĺ": 4688,
      "2ä¸ª": 4689,
      "600": 4690,
      "å·«": 4691,
      "æ·®": 4692,
      "å±ķè§Ī": 4693,
      "all": 4694,
      "åľ°çĤ¹": 4695,
      "åĪ¶å®ļ": 4696,
      "åĨħéĻĨ": 4697,
      "ä¾ĽåºĶ": 4698,
      "çľŁå®ŀ": 4699,
      "è¯ı": 4700,
      "éĿŀå»ºåĪ¶": 4701,
      "ç¾½æ¯ĽçĲĥ": 4702,
      "ä¼Ĺå¤ļ": 4703,
      "æĺ¯ä»¥": 4704,
      "æĦıå¿Ĺ": 4705,
      "å¤ªåŃĲ": 4706,
      "é¸£": 4707,
      "åĬ¿åĬĽ": 4708,
      "è¾ĵåħ¥": 4709,
      "Windows": 4710,
      "ä»»åĳ½ä¸º": 4711,
      "ä¸¤æ¬¡": 4712,
      "æĬĹæĹ¥": 4713,
      "çļĦå¤ĸ": 4714,
      "æİĺ": 4715,
      "end": 4716,
      "åħ·ä½ĵ": 4717,
      "åį°å°¼": 4718,
      "èĩªèº«": 4719,
      "å·ŀåºľ": 4720,
      "æľĿå»·": 4721,
      "éĺ®": 4722,
      "å·¥äºº": 4723,
      "å·²è¢«": 4724,
      "æ´¾éģ£": 4725,
      "åµ": 4726,
      "å¤ļå°Ķ": 4727,
      "å±±è¥¿": 4728,
      "æĹ¶æľŁçļĦ": 4729,
      "å¾Ģå¾Ģ": 4730,
      "æ£Ģæµĭ": 4731,
      "å§¬": 4732,
      "å¯»æī¾": 4733,
      "ä¸İåħ¶ä»ĸ": 4734,
      "å¯¹åºĶ": 4735,
      "Pro": 4736,
      "äºİ193": 4737,
      "æľºçļĦ": 4738,
      "é»Ħéĩĳ": 4739,
      "ä»£è¡¨åĽ¢": 4740,
      "çªģçł´": 4741,
      "é¼»": 4742,
      "æĿ°åħĭ": 4743,
      "ç»ĦæĪĲçļĦ": 4744,
      "åľ¨è¯¥": 4745,
      "ä¹ĲéĺŁ": 4746,
      "ä¹ĭæĪĺ": 4747,
      "ãĢĬãĢĭ": 4748,
      "çģ«å±±": 4749,
      "çĽĳçĿ£": 4750,
      "åĹ£": 4751,
      "å¼Ģå±ķ": 4752,
      "æĦĪ": 4753,
      "æĿīçŁ¶": 4754,
      "Sp": 4755,
      "éĩĳçīĮ": 4756,
      "æ´ĽæĿīçŁ¶": 4757,
      "çĽ¸åħ³çļĦ": 4758,
      "æ°¯": 4759,
      "çĶµè¯Ŀ": 4760,
      "è¿ĩç¨ĭä¸Ń": 4761,
      "æĸ¤": 4762,
      "è¢«è¿«": 4763,
      "æıĲåĲį": 4764,
      "æ³¢æĸ¯": 4765,
      "åĦĴ": 4766,
      "çĻ»ä¸Ĭ": 4767,
      "åħĨ": 4768,
      "èĭĳ": 4769,
      "çªģçĦ¶": 4770,
      "åĮĹæµ·": 4771,
      "çİ°ä»»": 4772,
      "ä¸¹éº¦": 4773,
      "å®ŀéªĮå®¤": 4774,
      "æĺ¯ä¸ŃåĽ½": 4775,
      "èĮµ": 4776,
      "åĽ½å®¶çļĦ": 4777,
      "ä¾Ŀæį®": 4778,
      "åħ¶åĲİ": 4779,
      "éĢĢåĩº": 4780,
      "io": 4781,
      "çī¹å®ļ": 4782,
      "åģ¿": 4783,
      "åįĹæĸ¹": 4784,
      "ä¸Ģçº§": 4785,
      "ä¸Ģæ®µ": 4786,
      "åħ¬çĪµ": 4787,
      "æĳĨ": 4788,
      "åįĴ": 4789,
      "æ±ª": 4790,
      "ä¸īä¸ĸ": 4791,
      "ill": 4792,
      "åĳĺå·¥": 4793,
      "æĻļä¸Ĭ": 4794,
      "åĲĽä¸»": 4795,
      "å¯¨": 4796,
      "åĨĽå®ĺ": 4797,
      "åľºçļĦ": 4798,
      "å°ĳå¥³": 4799,
      "ace": 4800,
      "ry": 4801,
      "å¦ĩå¥³": 4802,
      "æĺİç¡®": 4803,
      "æ²¿æµ·": 4804,
      "åĳ¨å¹´": 4805,
      "å¤§æ¡¥": 4806,
      "æĪ¿å±ĭ": 4807,
      "éĢ®æįķ": 4808,
      "åĨĽåĮº": 4809,
      "è½¬åĲĳ": 4810,
      "å¥¥è¿Ĳä¼ļ": 4811,
      "æī©å±ķ": 4812,
      "å¤ķ": 4813,
      "ä¾¨": 4814,
      "éĥ½å¸Ĥ": 4815,
      "èµĦäº§": 4816,
      "79": 4817,
      "èĦı": 4818,
      "éĻ¨": 4819,
      "41": 4820,
      "ä»£çĲĨ": 4821,
      "è¯ģå®ŀ": 4822,
      "ç»Ŀå¯¹": 4823,
      "æ¬§åħĥ": 4824,
      "Sh": 4825,
      "åľ¨é¦Ļæ¸¯": 4826,
      "åĬĿ": 4827,
      "åĩĢ": 4828,
      "å¯¹æĬĹ": 4829,
      "å¤§åİ¦": 4830,
      "lay": 4831,
      "85": 4832,
      "ä¸Ľ": 4833,
      "è¾°": 4834,
      "æ£ĢæŁ¥": 4835,
      "ong": 4836,
      "äºļç¾İ": 4837,
      "è§Ĩé¢ĳ": 4838,
      "åĽ½å®¶éĺŁ": 4839,
      "ain": 4840,
      "åĮĸåĲĪçī©": 4841,
      "ç²Ĺ": 4842,
      "åĲ¯åĬ¨": 4843,
      "çī¹åĪ«æĺ¯": 4844,
      "Ã©": 4845,
      "æ³ķåħ°è¥¿": 4846,
      "åĪĨç¦»": 4847,
      "Un": 4848,
      "éĵ¸": 4849,
      "åİŁåĪĻ": 4850,
      "å¤§èµĽ": 4851,
      "åī§æľ¬": 4852,
      "ç´§æĢ¥": 4853,
      "è¯Ħä¼°": 4854,
      "ä¸ĵå®¶": 4855,
      "åĮĹæĸ¹": 4856,
      "ä¸¤å¹´": 4857,
      "åĨľæ°ĳ": 4858,
      "åĵ¥ä¼¦æ¯Ķäºļ": 4859,
      "69": 4860,
      "éĻķè¥¿": 4861,
      "åĬłæĭī": 4862,
      "æ¶Ĥ": 4863,
      "åĿĩä¸º": 4864,
      "ä¸ĳ": 4865,
      "çŃīä¸º": 4866,
      "è®¡ç®Ĺæľº": 4867,
      "æĽ´ä¸º": 4868,
      "be": 4869,
      "ç§ĳå¤«": 4870,
      "AC": 4871,
      "ä¿Ŀå®Ī": 4872,
      "åī§éĻ¢": 4873,
      "åºŁéĻ¤": 4874,
      "åĬ«": 4875,
      "ä¸Ńè¢«": 4876,
      "ç»ıçĲĨ": 4877,
      "Le": 4878,
      "çŁ©": 4879,
      "åĢ¡": 4880,
      "çķĻä¸ĭ": 4881,
      "IS": 4882,
      "æī«": 4883,
      "è´©": 4884,
      "æ±°": 4885,
      "è´¨çĸĳ": 4886,
      "çŃ¾è®¢": 4887,
      "åı²ä¸Ĭ": 4888,
      "é¦ĸä¸ª": 4889,
      "åħĪçĶŁ": 4890,
      "æ±Ģ": 4891,
      "1ä¸ª": 4892,
      "åĨĽåĽ¢": 4893,
      "å½¢å®¹": 4894,
      "ä¸ĭä»¤": 4895,
      "ä¸Ĭè¿°": 4896,
      "èĲ¨æĸ¯": 4897,
      "éĦĤ": 4898,
      "120": 4899,
      "æĹ¶æ®µ": 4900,
      "å¼¯": 4901,
      "ç±³äºļ": 4902,
      "ç»´æĬ¤": 4903,
      "ON": 4904,
      "çīłä»¬": 4905,
      "åŃ¦å£«": 4906,
      "ä¸įä»ħ": 4907,
      "èĥ½éĩı": 4908,
      "éĢīä¸º": 4909,
      "æĭĺ": 4910,
      "éĽĮ": 4911,
      "ä¸»è¦ģçļĦ": 4912,
      "åįĩçº§": 4913,
      "çİĩä¸º": 4914,
      "åĲ¯çĶ¨": 4915,
      "é©³": 4916,
      "åİŁåŃĲ": 4917,
      "æ½Ń": 4918,
      "ast": 4919,
      "åħļçļĦ": 4920,
      "é¾Ł": 4921,
      "éĺ»æŃ¢": 4922,
      "åŁİåł¡": 4923,
      "å½ĵå¹´": 4924,
      "å¤©çļĦ": 4925,
      "ä¿Ŀéļľ": 4926,
      "åĭĭç«ł": 4927,
      "æłĩæľ¬": 4928,
      "ç©Ĩæĸ¯æŀĹ": 4929,
      "åĽ°éļ¾": 4930,
      "çŃīåľ°": 4931,
      "ç§ĳåŃ¦éĻ¢": 4932,
      "æ¶Į": 4933,
      "äºļç¾İå°¼äºļ": 4934,
      "åľ¨å¤§": 4935,
      "ort": 4936,
      "åħ¨éķ¿": 4937,
      "åłª": 4938,
      "ç£¨": 4939,
      "æıĲä¾ĽäºĨ": 4940,
      "åı·çļĦ": 4941,
      "çłĸ": 4942,
      "ç»ĻäºĨ": 4943,
      "èĵ¬": 4944,
      "éĨĩ": 4945,
      "å¯Ĵ": 4946,
      "åĪ©çĽĬ": 4947,
      "æ»¡è¶³": 4948,
      "åĢĻéĢīäºº": 4949,
      "åĺīéĿĸ": 4950,
      "å¥¥å°Ķ": 4951,
      "ph": 4952,
      "å¿½": 4953,
      "æĿ¥è¯´": 4954,
      "é©¬éĩĮ": 4955,
      "æĥŁ": 4956,
      "åĢº": 4957,
      "å¤§åŃ¦çļĦ": 4958,
      "åįĹéĿŀ": 4959,
      "æ¸¸è¡Į": 4960,
      "åıĤéĢī": 4961,
      "æķ¢": 4962,
      "åľ¨äºİ": 4963,
      "ä¸ĸçķĮä¸Ĭ": 4964,
      "æĶ¶è§Ĩ": 4965,
      "åĪºåı²": 4966,
      "å°¹": 4967,
      "2020": 4968,
      "å¼ĹæľĹ": 4969,
      "åħ¬å®ī": 4970,
      "åĳ¨æľŁ": 4971,
      "æ¶Īè´¹": 4972,
      "å¥Ķ": 4973,
      "åĭŁ": 4974,
      "æ°ĶæĹĭ": 4975,
      "éº¦åħĭ": 4976,
      "æĬĳ": 4977,
      "--": 4978,
      "çļĦæķħäºĭ": 4979,
      "æº¯": 4980,
      "å¤įåħ´": 4981,
      "éĹª": 4982,
      "çº³ç²¹": 4983,
      "æĸ¯é¡¿": 4984,
      "æ´»è·ĥ": 4985,
      "ä¿®æŃ£": 4986,
      "éĤ»è¿ĳ": 4987,
      "å¤«äºº": 4988,
      "ç©ºæ°Ķ": 4989,
      "åıįæĺł": 4990,
      "é¢ĩ": 4991,
      "å½¢çĽ®": 4992,
      "é¤Ĳåİħ": 4993,
      "62": 4994,
      "1998å¹´": 4995,
      "æī¶": 4996,
      "1999å¹´": 4997,
      "åĳĬè¯ī": 4998,
      "ç¢Ł": 4999,
      "å°¼äºļå·ŀ": 5000,
      "æł¼æĭī": 5001,
      "æĻĭçº§": 5002,
      "çļĦæ°´": 5003,
      "ä¸ŃæľŁ": 5004,
      "ä¸Ĭæľī": 5005,
      "æĽ´æĸ°": 5006,
      "ack": 5007,
      "åįıè°ĥ": 5008,
      "åħ¶ä¸Ńä¸Ģç§į": 5009,
      "çİ»çĴĥ": 5010,
      "çļĦä½ľåĵģ": 5011,
      "19ä¸ĸçºª": 5012,
      "å½ķéŁ³": 5013,
      "æĤ²": 5014,
      "å¢ŀéķ¿": 5015,
      "èŁ": 5016,
      "ä¼łåªĴ": 5017,
      "ç¿ħ": 5018,
      "çĽĳçĭ±": 5019,
      "å®¶äºº": 5020,
      "æĭ¼": 5021,
      "æĭĸ": 5022,
      "åĩºåıĳ": 5023,
      "ä¹¦éĻ¢": 5024,
      "åı¦æľī": 5025,
      "2000": 5026,
      "æİ¥æĶ¶": 5027,
      "æ¸ħåįİ": 5028,
      "èĲ¨å°Ķ": 5029,
      "åħ¸ç¤¼": 5030,
      "èķ¾": 5031,
      "æ·ĺæ±°": 5032,
      "æĹ¥æľŁ": 5033,
      "çĶŁæĪĲ": 5034,
      "æľ¬åľ°": 5035,
      "éĢ¼": 5036,
      "1945å¹´": 5037,
      "åįĩä»»": 5038,
      "å¤©çļĩ": 5039,
      "é£Łåĵģ": 5040,
      "æĸĲ": 5041,
      "å¯ĵ": 5042,
      "åıĳæĺİ": 5043,
      "è¢«è§Ĩä¸º": 5044,
      "CD": 5045,
      "ç«ĭæĸ¹": 5046,
      "å¤§å¥ĸ": 5047,
      "å¸ĥèİ±": 5048,
      "æĹ¥æ²»": 5049,
      "å·²æľī": 5050,
      "æĳ§": 5051,
      "å·¢": 5052,
      "ä¹Łåı¯ä»¥": 5053,
      "åħįè´¹": 5054,
      "é¢ľèī²": 5055,
      "åĬłå·ŀ": 5056,
      "ç§°ä½ľ": 5057,
      "ä¸¤åĲį": 5058,
      "ç¨»": 5059,
      "é±¼ç±»": 5060,
      "çļĦåĲİ": 5061,
      "æİ¨å¹¿": 5062,
      "æı´åĬ©": 5063,
      "çİ°å®ŀ": 5064,
      "åľ¨åĨħçļĦ": 5065,
      "ç»´åŁĥ": 5066,
      "äº²çİĭ": 5067,
      "äºļåİĨå±±å¤§": 5068,
      "æĸ¯æīĺ": 5069,
      "èĢĥåı¤": 5070,
      "ä¸»åĬŀ": 5071,
      "åº¦çļĦ": 5072,
      "åī¯ä¸»ä»»": 5073,
      "åĿĿ": 5074,
      "ç¥ł": 5075,
      "çĻĮ": 5076,
      "ç«ŀéĢī": 5077,
      "å¹³åİŁ": 5078,
      "æīĢè°ĵ": 5079,
      "åī¯ä¸»å¸Ń": 5080,
      "æĺ¾èĳĹ": 5081,
      "å½ĵåľ°çļĦ": 5082,
      "è¿Ļæ¬¡": 5083,
      "åı¸é©¬": 5084,
      "ity": 5085,
      "ç»³": 5086,
      "è¥¿åħ°": 5087,
      "åŁºéĩĳä¼ļ": 5088,
      "çĲ¼": 5089,
      "å¿į": 5090,
      "äºĮæĪĺ": 5091,
      "åħ¬åħĥåīį": 5092,
      "çĲĨè§£": 5093,
      "ä¾ĿçĦ¶": 5094,
      "MA": 5095,
      "ä¸Ģè¯į": 5096,
      "æłĭ": 5097,
      "è£ħé¥°": 5098,
      "åĨľæĿĳ": 5099,
      "æĺŃåĴĮ": 5100,
      "åĨħæĪĺ": 5101,
      "800": 5102,
      "è½¬æį¢": 5103,
      "é¾Ļæ±Ł": 5104,
      "åį±éĻ©": 5105,
      "ç»Īäºİ": 5106,
      "De": 5107,
      "åľŃ": 5108,
      "ä¸įåĪ°": 5109,
      "éĤ£ä¹Ī": 5110,
      "éĿłè¿ĳ": 5111,
      "å¿Ļ": 5112,
      "é¹¤": 5113,
      "å¾·çļĦ": 5114,
      "å®Įå·¥": 5115,
      "è´§å¸ģ": 5116,
      "En": 5117,
      "ä¿®å¤į": 5118,
      "éļĶç¦»": 5119,
      "åĩĿ": 5120,
      "åľ°å¸¦": 5121,
      "ä¸Īå¤«": 5122,
      "æł¡åĽŃ": 5123,
      "ç¡®ä¿Ŀ": 5124,
      "è¿ĽæŃ¥": 5125,
      "èĥ½æºĲ": 5126,
      "éĩĩè®¿": 5127,
      "æļ´åĬĽ": 5128,
      "æīĵç®Ĺ": 5129,
      "æ½ľèīĩ": 5130,
      "å¾·åįİ": 5131,
      "åİŁå§ĭ": 5132,
      "çĿ¡": 5133,
      "å¢ŀå¼º": 5134,
      "æīĢæľīçļĦ": 5135,
      "ä¸¤åĽ½": 5136,
      "ive": 5137,
      "çŁĽ": 5138,
      "èĴ¸": 5139,
      "èº«ä¸º": 5140,
      "åİŁä½ıæ°ĳ": 5141,
      "Ar": 5142,
      "æ°´åºĵ": 5143,
      "åį¡ç½Ĺ": 5144,
      "çłģå¤´": 5145,
      "æĹħè¡Į": 5146,
      "ä¹īå¤§åĪ©": 5147,
      "é²¤": 5148,
      "æ´¾åĩº": 5149,
      "æĴ°åĨĻ": 5150,
      "å¤§å¹ħ": 5151,
      "èĻ¹": 5152,
      "1949å¹´": 5153,
      "éĢļä¿¡": 5154,
      "åĬªåĬĽ": 5155,
      "æł½": 5156,
      "æī§æĶ¿": 5157,
      "éĢĤåĲĪ": 5158,
      "2001å¹´äººåı£": 5159,
      "æĭĨéĻ¤": 5160,
      "å§Ĭ": 5161,
      "çļĦæ¯ĶèµĽ": 5162,
      "åĬ©çĲĨ": 5163,
      "ä¸İåħ¶": 5164,
      "åĩºéģĵ": 5165,
      "åĲģ": 5166,
      "ER": 5167,
      "ov": 5168,
      "èµĦæľ¬": 5169,
      "çŁ³æ²¹": 5170,
      "59": 5171,
      "èĢĲ": 5172,
      "æ³¢ç½Ĺ": 5173,
      "å²ģæĹ¶": 5174,
      "åľ¨198": 5175,
      "ä¹¦ç±į": 5176,
      "æĮĩç¤º": 5177,
      "çķĻåľ¨": 5178,
      "åĽ´ç»ķ": 5179,
      "åīĬ": 5180,
      "å¸Ĥä¸Ńå¿ĥ": 5181,
      "ç¿Ķ": 5182,
      "ä½Ľç½Ĺ": 5183,
      "çļĦè®¾è®¡": 5184,
      "è®¤è¯Ĩ": 5185,
      "æ³¡": 5186,
      "æ³ķåºŃ": 5187,
      "å¤©çĦ¶": 5188,
      "çļĦåıĳå±ķ": 5189,
      "æľīæľº": 5190,
      "åĩºåħ¥åı£": 5191,
      "ä¸ĩåħĥ": 5192,
      "å¤§å¤ļ": 5193,
      "èĸĽ": 5194,
      "sh": 5195,
      "é¦ĸçĽ¸": 5196,
      "ç®¡çĲĨå±Ģ": 5197,
      "è¿ĳå¹´": 5198,
      "é»ĳèī²": 5199,
      "åľĨå½¢": 5200,
      "com": 5201,
      "å¤§ä¼Ĺ": 5202,
      "äº¥": 5203,
      "åłĨ": 5204,
      "è¾¹å¢ĥ": 5205,
      "æĿĢå®³": 5206,
      "æĭ¿ä¸ĭ": 5207,
      "æ¯ĶåĪ©æĹ¶": 5208,
      "Ne": 5209,
      "åįİäºº": 5210,
      "æīĭæľº": 5211,
      "éĶĢéĩı": 5212,
      "å¤«åį¡": 5213,
      "å¤§éĢī": 5214,
      "æĶ¶éĽĨ": 5215,
      "ãĥ»": 5216,
      "ID": 5217,
      "ÃĹ": 5218,
      "éĹ¸": 5219,
      "æĦıåĳ³": 5220,
      "çĽĨ": 5221,
      "æĺİæĺŁ": 5222,
      "ore": 5223,
      "åĲĦèĩª": 5224,
      "è¾½å®ģ": 5225,
      "ä¸Ģåľº": 5226,
      "åĪĨæĶ¯": 5227,
      "ä»¤äºº": 5228,
      "ç¡®è¯ĬçĹħä¾ĭ": 5229,
      "\",": 5230,
      "æľĢä½İ": 5231,
      "è®°å¿Ĩ": 5232,
      "und": 5233,
      "ber": 5234,
      "ç©ºä¸Ń": 5235,
      "åĿļæĮģ": 5236,
      "åĲīæŀĹ": 5237,
      "ä¸Ģæŀļ": 5238,
      "åĪĨè£Ĥ": 5239,
      "ç»´æĸ¯": 5240,
      "12å¹´": 5241,
      "èĴĻçī¹": 5242,
      "å°±ä¼ļ": 5243,
      "å±±ä¸ľçľģ": 5244,
      "æĸĭ": 5245,
      "èĩªæĿĢ": 5246,
      "èŃ¦åĳĬ": 5247,
      "çļĩåĲİ": 5248,
      "çļĦæĶ¯æĮģ": 5249,
      "ä¹łæĢ§": 5250,
      "åĽ½æ°ĳæĶ¿åºľ": 5251,
      "åī§éĽĨ": 5252,
      "ä¸ĭè¾ĸçļĦä¸Ģä¸ª": 5253,
      "ä»¥åįĹ": 5254,
      "æĬĵ": 5255,
      "æ±Ŀ": 5256,
      "1997å¹´": 5257,
      "å»ºç«ĭäºĨ": 5258,
      "72": 5259,
      "æĪĲå¹´": 5260,
      "èĥº": 5261,
      "å¹³æ°ĳ": 5262,
      "èĮĥåĽ´åĨħ": 5263,
      "æŁ´æ²¹": 5264,
      "åĲĦç±»": 5265,
      "æĹ¨åľ¨": 5266,
      "èĪŁ": 5267,
      "ç§ĳåŃ¦å®¶": 5268,
      "å¼ıçļĦ": 5269,
      "å¼Łå¼Ł": 5270,
      "74": 5271,
      "ä¸ŀ": 5272,
      "çŃīçº§": 5273,
      "63": 5274,
      "oh": 5275,
      "æłª": 5276,
      "å±Ī": 5277,
      "DT": 5278,
      "åĲĮæĢ§": 5279,
      "å¾·å°Ķ": 5280,
      "æĶ¯æµģ": 5281,
      "åħĭæŀĹ": 5282,
      "ian": 5283,
      "âĢĻ": 5284,
      "äº²èĩª": 5285,
      "æ¯Ľæ³½": 5286,
      "ç¤ģ": 5287,
      "èİ±èĮµ": 5288,
      "äº§çĶŁçļĦ": 5289,
      "æ»¨æµ·": 5290,
      "æĬ±": 5291,
      "äº¤æį¢": 5292,
      "CO": 5293,
      "æĭ¨": 5294,
      "æĸ¯æ´Ľ": 5295,
      "éĴ»": 5296,
      "è§ĦèĮĥ": 5297,
      "man": 5298,
      "ä¸Ĭä¸ĭ": 5299,
      "å´©": 5300,
      "iv": 5301,
      "æĹ¶åĢĻ": 5302,
      "å¹½": 5303,
      "æ¶Īå¤±": 5304,
      "å®°": 5305,
      "ç¬¬ä¹Ŀ": 5306,
      "é»ĳé¾Ļæ±Ł": 5307,
      "æ³ķçļĦ": 5308,
      "çłĤ": 5309,
      "è¿Ŀåıį": 5310,
      "åĳ¼åĲģ": 5311,
      "æµĻæ±Łçľģ": 5312,
      "æĳ§æ¯ģ": 5313,
      "åĪ©æĸ¯": 5314,
      "äºĮäºº": 5315,
      "çº§åĪ«": 5316,
      "å¸¸è§ģçļĦ": 5317,
      "ä»¥åīį": 5318,
      "ç§įæ¤į": 5319,
      "âĶ": 5320,
      "çĭ¼": 5321,
      "æĶ¶èĹı": 5322,
      "çŃ¾çº¦": 5323,
      "Te": 5324,
      "è¿¦": 5325,
      "å¯¹æĸ¹": 5326,
      "è¾¾å°Ķ": 5327,
      "æ¬§çĽŁ": 5328,
      "æºĲäºİ": 5329,
      "ate": 5330,
      "å»¶éķ¿": 5331,
      "ric": 5332,
      "æª": 5333,
      "çī¹æĭī": 5334,
      "è¡ĮçļĦ": 5335,
      "å°¼è¥¿äºļ": 5336,
      "æİĪæĿĥ": 5337,
      "éĻª": 5338,
      "è½¦åİ¢": 5339,
      "è¿ĲçĶ¨": 5340,
      "å©´": 5341,
      "å¿ħè¦ģ": 5342,
      "ä»»æľŁ": 5343,
      "æ¸¯åı£": 5344,
      "æ¦Ħ": 5345,
      "å¦Ļ": 5346,
      "1996å¹´": 5347,
      "åįłåľ°": 5348,
      "æ¯Ľæ³½ä¸ľ": 5349,
      "æŃĮè¯į": 5350,
      "é¦ĸå¸Ń": 5351,
      "èĦ¸": 5352,
      "å¾ªçİ¯": 5353,
      "åį¸": 5354,
      "åŃ¦çļĦ": 5355,
      "å°Ħåĩ»": 5356,
      "é¦ĸåºľ": 5357,
      "åį±æľº": 5358,
      "æĤ£èĢħ": 5359,
      "èĪªå¤©": 5360,
      "å¾ĹåĪ°äºĨ": 5361,
      "æĶ¹åĲįä¸º": 5362,
      "æĬ«": 5363,
      "åı¤åħ¸": 5364,
      "åĬŀçĲĨ": 5365,
      "èµ°åĲĳ": 5366,
      "éĢļéģĵ": 5367,
      "æİ¥æĽ¿": 5368,
      "æ¼Ķå¥ı": 5369,
      "æĶ¹åĪ¶": 5370,
      "åįĩä¸º": 5371,
      "ame": 5372,
      "åľºæīĢ": 5373,
      "ä¼½": 5374,
      "æĢ§èĥ½": 5375,
      "çĭŃ": 5376,
      "1992å¹´": 5377,
      "ï¼ħ": 5378,
      "é¡ºåĪ©": 5379,
      "åĴĸ": 5380,
      "åĪĻä¸º": 5381,
      "å·¥ä½ľå®¤": 5382,
      "å®¡æŁ¥": 5383,
      "éĺ²æŃ¢": 5384,
      "åĮºè®®ä¼ļ": 5385,
      "ç¦ħ": 5386,
      "åĽļ": 5387,
      "å¯®": 5388,
      "è¢ĭ": 5389,
      "å·ŀåĪºåı²": 5390,
      "åĽĽå¹´": 5391,
      "ç¥ŀè¯Ŀ": 5392,
      "å«ģ": 5393,
      "éķ¿å®ĺ": 5394,
      "æ³¢å°Ķ": 5395,
      "ä»ķ": 5396,
      "éĺ¿æł¹": 5397,
      "ç´¯è®¡": 5398,
      "âĶĢ": 5399,
      "æĭ±": 5400,
      "é¦ĸæĴŃ": 5401,
      "åķĨåĵģ": 5402,
      "è·Łéļı": 5403,
      "å®Ľ": 5404,
      "éĽį": 5405,
      "å¾Ĺä¸»": 5406,
      "èģĶåĲĪä¼ļ": 5407,
      "å¤ĸäº¤éĥ¨": 5408,
      "ä»¥åĮĹ": 5409,
      "åŁĥå°Ķ": 5410,
      "oun": 5411,
      "åŁ¹è®Ń": 5412,
      "æıĲåıĬ": 5413,
      "äºĶå¹´": 5414,
      "å¸ĤæĶ¿åºľ": 5415,
      "(,;": 5416,
      "ç¼©åĨĻ": 5417,
      "å¸ĥéĩĮ": 5418,
      "çĤī": 5419,
      "åıĹæ¬¢è¿İ": 5420,
      "åį¡æĭī": 5421,
      "éĺ¿æł¹å»·": 5422,
      "AP": 5423,
      "ss": 5424,
      "å°¼åħĭ": 5425,
      "çĶŁæ´»ä¹łæĢ§": 5426,
      "18å¹´": 5427,
      "èĤĮ": 5428,
      "ä¸ŃåĽ½çļĦ": 5429,
      "åģľéĿł": 5430,
      "qu": 5431,
      "åĲ¹": 5432,
      "åĩºæĿ¥": 5433,
      "æķ°ä½į": 5434,
      "èĭ±åĨĽ": 5435,
      "1994å¹´": 5436,
      "æ¸¸æĪıçļĦ": 5437,
      "1åı·": 5438,
      "ä¸Ĭåįĩ": 5439,
      "éĿ¢ä¸´": 5440,
      "Go": 5441,
      "éĻ·åħ¥": 5442,
      "çĶŁæ´»ä¹łæĢ§ä¸įæĺİ": 5443,
      "è¾Ł": 5444,
      "æĮģæľī": 5445,
      "é¼İ": 5446,
      "Com": 5447,
      "183": 5448,
      "æ´¾çļĦ": 5449,
      "å¤§èĩ´": 5450,
      "è¾¨": 5451,
      "éŁµ": 5452,
      "çĤ¹çļĦ": 5453,
      "åĩºçīĪç¤¾": 5454,
      "åĸľåī§": 5455,
      "èĢķ": 5456,
      "æľĪçĲĥ": 5457,
      "æ£ĺ": 5458,
      "åĲĦåĽ½": 5459,
      "ç½Ĺé©¬å°¼äºļ": 5460,
      "çİ°ä»Ĭ": 5461,
      "æĥ¨": 5462,
      "con": 5463,
      "å°Ĩåľ¨": 5464,
      "ä½ĵèĤ²åľº": 5465,
      "åŁĭ": 5466,
      "èĭ¯": 5467,
      "ç¾İåĽ½çļĦ": 5468,
      "çĶĺèĤĥ": 5469,
      ")ãĢģãĢĬ": 5470,
      "éĩĮè¾¾": 5471,
      "åľºæĻ¯": 5472,
      "åı¸ä»¤éĥ¨": 5473,
      "çĶ«": 5474,
      "å®ļä¸º": 5475,
      "æķ°çļĦ": 5476,
      "Mar": 5477,
      "ç°": 5478,
      "éģĵå¾·": 5479,
      "çļĦä¸ĢäºĽ": 5480,
      "æĸ¯æĭīå¤«": 5481,
      "ä¸Ģé¡¹": 5482,
      "è¢«æįķ": 5483,
      "æī¿è¯º": 5484,
      "ä¼¼ä¹İ": 5485,
      "çĤ¸å¼¹": 5486,
      "éģ¥": 5487,
      "éĽ¾": 5488,
      "çłĶåıĳ": 5489,
      "åĲĦä¸ª": 5490,
      "é¦ĸæŃĮ": 5491,
      "å·´å°Ķ": 5492,
      "æĿĳèĲ½": 5493,
      "åħ¬æĸ¤": 5494,
      "çĶŁåŃĺ": 5495,
      "åĲīå°Ķ": 5496,
      "å¸Ĳ": 5497,
      "ä»ĬæĹ¥": 5498,
      "èĢĥè¯ķ": 5499,
      "éĥ½åľ¨": 5500,
      "éħįå¤ĩ": 5501,
      "87": 5502,
      "è¾¹ç¼ĺ": 5503,
      "åĬłåĪ©ç¦ı": 5504,
      "å±Ģéķ¿": 5505,
      "ube": 5506,
      "è¹Ī": 5507,
      "éķ¿æ±Ł": 5508,
      "éħ·": 5509,
      "çĪ±æĥħ": 5510,
      "åľ°è´¨": 5511,
      "æľ¬çīĩ": 5512,
      "æ¡Ĩ": 5513,
      "å¸¸åĬ¡": 5514,
      "æĶ¯ä»ĺ": 5515,
      "äººæ°ĳå¸ģ": 5516,
      "èıĬ": 5517,
      "æ²¿éĿ©": 5518,
      "æĬµæĬĹ": 5519,
      "çļĦåĦ¿åŃĲ": 5520,
      "æĸĩæĺİ": 5521,
      "åĮħåĽ´": 5522,
      "çĽĳå¯Ł": 5523,
      "å¤¹": 5524,
      "å°Ĩé¢Ĩ": 5525,
      "å¹³è¡¡": 5526,
      "æĢĢçĸĳ": 5527,
      "çļĦç¬¬": 5528,
      "äºīåıĸ": 5529,
      "å¼Ģå¹ķ": 5530,
      "è¨Ģè®º": 5531,
      "179": 5532,
      "èĥĨ": 5533,
      "ä¸ŃåĽ½å¤§éĻĨçļĦ": 5534,
      "èµ«å°Ķ": 5535,
      "æ±Łèĭıçľģ": 5536,
      "åĿĤ": 5537,
      "èĤł": 5538,
      "åı¯ä»¥åľ¨": 5539,
      "è¤": 5540,
      "è®¾äºİ": 5541,
      "å¼ıæľĪåı°": 5542,
      "our": 5543,
      "å·¡æ´ĭ": 5544,
      "åŃķ": 5545,
      "æīĭæľ¯": 5546,
      "ä¼¯çĪµ": 5547,
      "åºĨç¥Ŀ": 5548,
      "çĲīçĲĥ": 5549,
      "åĲ«æľī": 5550,
      "æī£": 5551,
      "éķ¿è¾¾": 5552,
      "æ±¡æŁĵ": 5553,
      "åıĳæĮ¥": 5554,
      "å¯¹åħ¶": 5555,
      "æľĢä¸º": 5556,
      "æīĢéĩĩçĶ¨": 5557,
      "å¥ĭ": 5558,
      "æĬ¥çº¸": 5559,
      "æ²ª": 5560,
      "æ£Ģå¯Ł": 5561,
      "è¤Ĳ": 5562,
      "æīģ": 5563,
      "åıĳè¨Ģ": 5564,
      "åĻ¨çļĦ": 5565,
      "çŃĸçķ¥": 5566,
      "åĤ¬": 5567,
      "é¼ĵåĬ±": 5568,
      "å¤§èģĶçĽŁ": 5569,
      "çŁŃæļĤ": 5570,
      "éļĭ": 5571,
      "çıĢ": 5572,
      "è¶³å¤Ł": 5573,
      "é¡·": 5574,
      "æıĲè®®": 5575,
      "æİ¨èįĲ": 5576,
      "çĪ±å¾·åįİ": 5577,
      "åĲ§": 5578,
      "IP": 5579,
      "Th": 5580,
      "è¥Ħ": 5581,
      "æĪĳçļĦ": 5582,
      "å¾·åĨĽ": 5583,
      "è°Ń": 5584,
      "é¢ģåıĳ": 5585,
      "åĩĮæĻ¨": 5586,
      "è¯±": 5587,
      "1900": 5588,
      "æľªæľī": 5589,
      "éĹ²": 5590,
      "åĩºåĶ®": 5591,
      "æĸ¹éĿ¢çļĦ": 5592,
      "é¢ĳçİĩ": 5593,
      "éĻ¢éķ¿": 5594,
      "å§ĭå»ºäºİ": 5595,
      "åįķçĭ¬": 5596,
      "æĮĸ": 5597,
      "çº¤": 5598,
      "åıĪåĲį": 5599,
      "éĢıéľ²": 5600,
      "çļĦä½įç½®": 5601,
      "åĩī": 5602,
      "çº¦æľī": 5603,
      "åĶĲæľĿ": 5604,
      "æĪĲå°±": 5605,
      "æµ·å¹³éĿ¢": 5606,
      "æĪĺå£«": 5607,
      "æ²³çļĦ": 5608,
      "æĿ¡ä¾ĭ": 5609,
      "éĻĦå±ŀ": 5610,
      "å·¥ç¨ĭå¸Ī": 5611,
      "æĪĲç«ĭçļĦ": 5612,
      "éĢĤåºĶ": 5613,
      "èµŀåĬ©": 5614,
      "å¢ĥåĨħåħ±æľī": 5615,
      "ä½įçļĦ": 5616,
      "äºļçĽ®": 5617,
      "äºĭæĥħ": 5618,
      "åĨĻä½ľ": 5619,
      "åıĳåĬ¨æľº": 5620,
      "61": 5621,
      "åĮºåĨħ": 5622,
      "çĽ´å¾Ħ": 5623,
      "è¿½æº¯": 5624,
      "åĩŃåĢŁ": 5625,
      "52": 5626,
      "éĿĴå²Ľ": 5627,
      "AN": 5628,
      "é¢Ī": 5629,
      "ä¸ĭæĿ¥": 5630,
      "åĪ¶çīĩ": 5631,
      "æīĢå¤ĦçļĦ": 5632,
      "åı²å¯Ĩ": 5633,
      "é¢Ĩå¯¼äºº": 5634,
      "æĽ¿ä»£": 5635,
      "89": 5636,
      "èģĶç»ľ": 5637,
      "èĸª": 5638,
      "é¹ħ": 5639,
      "æ°¨": 5640,
      "åħ¬äº¤": 5641,
      "ff": 5642,
      "åĢ¾åĲĳ": 5643,
      "åĲŀ": 5644,
      "æĪĲäºº": 5645,
      "æĻ®é²ģ": 5646,
      "1991å¹´": 5647,
      "èħĶ": 5648,
      "æ£ķ": 5649,
      "ç«ĻçļĦ": 5650,
      "æĹłçĹĩçĬ¶": 5651,
      "æµ·æĭĶä¸º": 5652,
      "åħ¬å¼ĢèµĽ": 5653,
      "æĽ°": 5654,
      "æĹ¥æľ¬çļĦ": 5655,
      "ens": 5656,
      "éĽĨåĲĪ": 5657,
      "æ¸¸åĩ»": 5658,
      "è¶³åįı": 5659,
      "æĸ¥": 5660,
      "å¥¶": 5661,
      "ä»¥åĲİ": 5662,
      "æŃ£ç¡®": 5663,
      "åĬ²": 5664,
      "å¿ĺ": 5665,
      "é¦ĸä½į": 5666,
      "æĦıå¤ĸ": 5667,
      "å·¡æ´ĭèĪ°": 5668,
      "èĭ±éĩĮ": 5669,
      "é¢Ħç®Ĺ": 5670,
      "åĲ¸æĶ¶": 5671,
      "æĽ¾ç¥ĸ": 5672,
      "åıĳçĶŁåľ¨": 5673,
      "æī©å¼ł": 5674,
      "çļĦéĥ¨åĪĨ": 5675,
      "åĨķ": 5676,
      "Se": 5677,
      "å¤§å°ı": 5678,
      "æĸĩèīº": 5679,
      "åı¤èĢģ": 5680,
      "éºŁ": 5681,
      "æ²ĥå°Ķ": 5682,
      "é¢ģå¥ĸ": 5683,
      "å»ºçŃĳçī©": 5684,
      "æĦŁæŁĵèĢħ": 5685,
      "ç§ĳçļĦåħ¶ä¸Ńä¸Ģç§į": 5686,
      "åĽĬ": 5687,
      "53": 5688,
      "çļĦéĹ®é¢ĺ": 5689,
      "åŁ¹åħ»": 5690,
      "çĲª": 5691,
      "åħ¬åĳĬ": 5692,
      "éĿŀæ³ķ": 5693,
      "æ°Ķåİĭ": 5694,
      "åĲ»": 5695,
      "å·²çŁ¥": 5696,
      "èĪŀè¹Ī": 5697,
      "å½ĵéĢīä¸º": 5698,
      "éĴĵ": 5699,
      "åĨ³è®®": 5700,
      "èľľ": 5701,
      "ç¢§": 5702,
      "ith": 5703,
      "æĺŁçŃīä¸º": 5704,
      "ä¿ĦåĽ½": 5705,
      "è±«": 5706,
      "ç¢±": 5707,
      "éŃģ": 5708,
      "ä¸¥æł¼": 5709,
      "éģŃéģĩ": 5710,
      "åĲİç»Ń": 5711,
      "å¾·æĭī": 5712,
      "æķĪåºĶ": 5713,
      "å®´": 5714,
      "ä¸ŃéĹ´": 5715,
      "ç§ĳå°Ķ": 5716,
      "èĪ¹åıª": 5717,
      "äºĴçĽ¸": 5718,
      "å®īä¸ľ": 5719,
      "æł¼ä¸º": 5720,
      "ç»Ħç»ĩçļĦ": 5721,
      "çĶµæ°Ķ": 5722,
      "ä¸»è¦ģæĺ¯": 5723,
      "åĩºçİ°äºĨ": 5724,
      "äº«å¹´": 5725,
      "æĸ¯åį¡": 5726,
      "éĢĲæŃ¥": 5727,
      "é¸Łç±»": 5728,
      "æĪĲäºĨ": 5729,
      "åīª": 5730,
      "å¤ĸéĥ¨": 5731,
      "æ¬¡å¹´": 5732,
      "åĪĽå§ĭ": 5733,
      "çļĦç¬¬äºĮ": 5734,
      "æĪĲéĥ½": 5735,
      "æİł": 5736,
      "æ¼ı": 5737,
      "1995å¹´": 5738,
      "LE": 5739,
      "ä¹ĭå¤ĸ": 5740,
      "è¶ħè¶Ĭ": 5741,
      "çļĦå¥³": 5742,
      "å§ľ": 5743,
      "åĬłéĢŁ": 5744,
      "å§ĭå»º": 5745,
      "è§Ĩè§ī": 5746,
      "ä¸ĢåĪĩ": 5747,
      "ä¹ĭåŃĲ": 5748,
      "å¸ĤæĶ¿": 5749,
      "è¶³çĲĥä¿±ä¹Ĳéĥ¨": 5750,
      "åģ¶åĥı": 5751,
      "ç©·": 5752,
      "pe": 5753,
      "åĪĻåľ¨": 5754,
      "å½¢çĬ¶": 5755,
      "å®¡åĪ¤": 5756,
      "å¡Ķå°Ķ": 5757,
      "å½ķå½±": 5758,
      "åıĮæīĵ": 5759,
      "æ£ī": 5760,
      "æļ¨": 5761,
      "é¢Ħæµĭ": 5762,
      "æııç»ĺ": 5763,
      "æł½åŁ¹": 5764,
      "æĿ¥è¶Ĭ": 5765,
      "éķ¿æ²Ļ": 5766,
      "çĽ´éļ¶": 5767,
      "åıĺä¸º": 5768,
      "è´µå·ŀ": 5769,
      "è°¢å°Ķ": 5770,
      "åĴ¨": 5771,
      "ç¦»åŃĲ": 5772,
      "å¼ºåº¦": 5773,
      "å¾Īå¤§": 5774,
      "è¿Ļæł·çļĦ": 5775,
      "åĪĽæĸ°": 5776,
      "æķĳæı´": 5777,
      "åħħæ»¡": 5778,
      "åĵĪå°Ķæ»¨": 5779,
      "åĪł": 5780,
      "ä¸Ģç³»åĪĹ": 5781,
      "å¤§åį«": 5782,
      "éĶĲ": 5783,
      "æ¸¸å®¢": 5784,
      "å¼Ģå§ĭåľ¨": 5785,
      "æļĸ": 5786,
      "éĥ¨çĶµå½±": 5787,
      "èĭıä¸¹": 5788,
      "è·µ": 5789,
      "æŃ£éĿ¢": 5790,
      "æºĥ": 5791,
      "æĵħ": 5792,
      "åģĩè®¾": 5793,
      "æ²³åįĹçľģ": 5794,
      "å¤ıä»¤æĹ¶éĹ´": 5795,
      "çĲĨå·¥": 5796,
      "æģŃ": 5797,
      "éĤª": 5798,
      "one": 5799,
      "å¯»æ±Ĥ": 5800,
      "éĥ¨ç½²": 5801,
      "ä¸»åľº": 5802,
      "åİ¿çŁ¥": 5803,
      "æĶ¶åĪ°": 5804,
      "æ¨¡æĭŁ": 5805,
      "è¶ĬæĿ¥è¶Ĭ": 5806,
      "ä¸»ä¹īçļĦ": 5807,
      "æĸĹäºī": 5808,
      "æĸ©": 5809,
      "åľ¨ä¸Ģèµ·": 5810,
      "æ¯ħ": 5811,
      "æļĤåģľ": 5812,
      "56": 5813,
      "å½±åĥı": 5814,
      "èĮħ": 5815,
      "æĹıç¾¤": 5816,
      "èģĶç½ĳ": 5817,
      "æĺ¯ä¸ĢåĲį": 5818,
      "è¿ģèĩ³": 5819,
      "éĺ¿å°Ķåįĳ": 5820,
      "å¸½": 5821,
      "ç¬¬4": 5822,
      "é«ĺè¾¾": 5823,
      "çĲĨæĥ³": 5824,
      "åĲĪæ³ķ": 5825,
      "çĻ¾ä¸ĩ": 5826,
      "éħįç½®": 5827,
      "æĢģåº¦": 5828,
      "å·¥èīº": 5829,
      "ç¨Ģ": 5830,
      "åĽ½éĻħæľºåľº": 5831,
      "æļĤæĹ¶": 5832,
      "ç§©": 5833,
      "æĹ¶åĮº": 5834,
      "å¸¸å§Ķ": 5835,
      "é¢Ĩäºĭ": 5836,
      "åĽ¾åĥı": 5837,
      "å·´æĭī": 5838,
      "ç¦ıå·ŀ": 5839,
      "ck": 5840,
      "è¡Įä¸ļ": 5841,
      "æīĭæ®µ": 5842,
      "èªĵ": 5843,
      "700": 5844,
      "åĩ¶": 5845,
      "å»ĸ": 5846,
      "å±łæĿĢ": 5847,
      "ç§°åĳ¼": 5848,
      "çĽ´æĴŃ": 5849,
      "ä¼ĬåĪ©": 5850,
      "ä¾Ŀèµĸ": 5851,
      "èģļéĽĨ": 5852,
      "åľ¨197": 5853,
      "éĺ¿å°Ķåįĳæĸ¯": 5854,
      "åĪ¶æĪĲ": 5855,
      "åħ±åĴĮåħļ": 5856,
      "ä½İäºİ": 5857,
      "æĢķ": 5858,
      "äºİ190": 5859,
      "ma": 5860,
      "ç¼´": 5861,
      "ç¹ģæ®ĸ": 5862,
      "èĤºçĤİ": 5863,
      "çļĦæĸ¹æ³ķ": 5864,
      "åĽ½åĨĽ": 5865,
      "éĽ·æĸ¯": 5866,
      "ç«Ł": 5867,
      "åĬłå°Ķ": 5868,
      "æķĻå®Ĺ": 5869,
      "èĤ¤": 5870,
      "å¸ĸ": 5871,
      "æľ¬ä½ľ": 5872,
      "æľºåĪ¶": 5873,
      "äºĶä¸ª": 5874,
      "110": 5875,
      "ä¼ļæľī": 5876,
      "ä¾£": 5877,
      "2026å¹´": 5878,
      "å±±åĮº": 5879,
      "èĲ½æĪĲ": 5880,
      "åĲĮæĹ¶è¯¥åľ°": 5881,
      "ç»´å¤ļ": 5882,
      "éŀĭ": 5883,
      "ä¸»ä¹īèĢħ": 5884,
      "åŃ¦ç§ĳ": 5885,
      "æ¼ł": 5886,
      "ä¿ĿéĻ©": 5887,
      "èĴ²": 5888,
      "çĶ°å¾Ħ": 5889,
      "åĪĨå¸ĥåľ¨": 5890,
      "HD": 5891,
      "éĺŁéķ¿": 5892,
      "ç¦ıå»ºçľģ": 5893,
      "ä¸ºåħ¶": 5894,
      "åī§åľº": 5895,
      "åį³ä½¿": 5896,
      "å¯ĨåĪĩ": 5897,
      "1988å¹´": 5898,
      "æ£ĴçĲĥ": 5899,
      "å°¿": 5900,
      "è®¤åı¯": 5901,
      "æ¶Īéĺ²": 5902,
      "åĽĽå·Ŀçľģ": 5903,
      "åĬŀäºĭå¤Ħ": 5904,
      "å¤©åłĤ": 5905,
      "éĺ²ç©º": 5906,
      "è¾ħåĬ©": 5907,
      "çļĦè§Ĵèī²": 5908,
      "è½©": 5909,
      "10å¹´": 5910,
      "èĭ±åĳİ": 5911,
      "äº¤ç»Ļ": 5912,
      "çłĶç©¶éĻ¢": 5913,
      "è§Ĥçľĭ": 5914,
      "éĤ±": 5915,
      "æīĵçł´": 5916,
      "æ¡¥æ¢ģ": 5917,
      "||": 5918,
      "ç¨£": 5919,
      "è®¤è¯ģ": 5920,
      "è·¯æ®µ": 5921,
      "åĨĴéĻ©": 5922,
      "çĲĨçĶ±": 5923,
      "å§Ķæīĺ": 5924,
      "åķĨåºĹ": 5925,
      "å«©": 5926,
      "å¤©æ°Ķ": 5927,
      "ç«ŀèµĽ": 5928,
      "19å¹´": 5929,
      "âĢĺ": 5930,
      "èĢ¶ç¨£": 5931,
      "æľĢé«ĺçļĦ": 5932,
      "å¡ŀå°Ķç»´äºļ": 5933,
      "å¥ł": 5934,
      "è¥¿ä¾§": 5935,
      "æĭīçī¹": 5936,
      "54": 5937,
      "éĩıåŃĲ": 5938,
      "åī¯ä¹¦è®°": 5939,
      "èģļèĲ½": 5940,
      "çļĦå·¥ä½ľ": 5941,
      "çļĦåİŁåĽł": 5942,
      "èµĦåĬ©": 5943,
      "åĬłåħ¥äºĨ": 5944,
      "ä¼ļè¯ķ": 5945,
      "å¼ĹéĽ·": 5946,
      "æĴ¤éĢĢ": 5947,
      "å¤©æĸĩåı°": 5948,
      "ä¼ļåĳĺ": 5949,
      "åĬłåĵ¥": 5950,
      "äººä¸º": 5951,
      "åįĹèĩ³": 5952,
      "æī©å»º": 5953,
      "IT": 5954,
      "æłĹ": 5955,
      "èĬĿåĬłåĵ¥": 5956,
      "6ä¸ª": 5957,
      "çļĦæĢ»": 5958,
      "ä»¥ä¸º": 5959,
      "ç©´": 5960,
      "5ä¸ª": 5961,
      "å®¶ä¸Ń": 5962,
      "çĤ¼": 5963,
      "è´§è¿Ĳ": 5964,
      "å½±è§Ĩ": 5965,
      "å®¤åĨħ": 5966,
      "çļĦéŁ³ä¹Ĳ": 5967,
      "ä»¥ä¸ĬçļĦ": 5968,
      "è¢«ä»»åĳ½ä¸º": 5969,
      "äººæ°ĳä»£è¡¨å¤§ä¼ļ": 5970,
      "æ¤İ": 5971,
      "ä¸ĭå±ŀ": 5972,
      "èĭ¹": 5973,
      "èĩªæĪĳ": 5974,
      "å±ķçİ°": 5975,
      "çļĦç¾İåĽ½": 5976,
      "ç§¯åĪĨ": 5977,
      "çº³åħ¥": 5978,
      "æ¯ıæĹ¥": 5979,
      "è®¸åı¯": 5980,
      "ç»¥": 5981,
      "çľł": 5982,
      "åº§æłĩä¸º": 5983,
      "åģľè½¦": 5984,
      "äººæĿĥ": 5985,
      "é¸Ń": 5986,
      "çļĦè¯Ŀ": 5987,
      "ä¼Ĺè®®éĻ¢": 5988,
      "èħ¿": 5989,
      "å¼ĹéĩĮ": 5990,
      "æ¶µçĽĸ": 5991,
      "åİŁåĲį": 5992,
      "int": 5993,
      "è§Ĵåº¦": 5994,
      "èĢģå¸Ī": 5995,
      "åģļåĩº": 5996,
      "ç»¿èī²": 5997,
      "å¤§å¸Ī": 5998,
      "éľŀ": 5999,
      "èĬĤåº¦": 6000,
      "çļĦéķ¿": 6001,
      "çº¦çĳŁ": 6002,
      "æĥ³è¦ģ": 6003,
      "çļĨä¸º": 6004,
      "çļĦæĿĳåºĦ": 6005,
      "ä¹Łä¸į": 6006,
      "çļĦæĹ¥": 6007,
      "ä¹ĭä¸ĭ": 6008,
      "è¿Ľåħļ": 6009,
      "æŃ»åĪĳ": 6010,
      "per": 6011,
      "ä¸įæķĮ": 6012,
      "è´¢äº§": 6013,
      "åľ¨èĭ±åĽ½": 6014,
      "ä¸¤ä½į": 6015,
      "ä¸¤ä¾§": 6016,
      "éªļ": 6017,
      "ä¸¹å°¼": 6018,
      "57": 6019,
      "å··": 6020,
      "æĸ¹ä¾¿": 6021,
      "ãĢĭãĢĬ": 6022,
      "åıĽä¹±": 6023,
      "åĨħèĴĻåı¤": 6024,
      "ç«ŀæĬĢ": 6025,
      "MV": 6026,
      "ment": 6027,
      "å¥¹åľ¨": 6028,
      "ä¸¸": 6029,
      "å¤§å¤«": 6030,
      "çī¹æľĹ": 6031,
      "å¨ħ": 6032,
      "èħº": 6033,
      "è½¦éĺŁ": 6034,
      "æľįè£ħ": 6035,
      "éģŃåıĹ": 6036,
      "èħĵ": 6037,
      "çĭ¬ç«ĭçļĦ": 6038,
      "æľ¬äºº": 6039,
      "çº¿ä¸Ĭ": 6040,
      "ai": 6041,
      "è¥¿éĩĮ": 6042,
      "éĩįéĩı": 6043,
      "æ¶Ľ": 6044,
      "1993å¹´": 6045,
      "å·¦ç¿¼": 6046,
      "åĽŀå¿Ĩ": 6047,
      "çļĦå½¢å¼ı": 6048,
      "èį¡": 6049,
      "äºĨä»ĸ": 6050,
      "è°Ĭ": 6051,
      "çĽ´åįĩ": 6052,
      "è£ģåĪ¤": 6053,
      "é©¬æģ©": 6054,
      "å¨¶": 6055,
      "ç¤¾ç¾¤": 6056,
      "ock": 6057,
      "è°ĥå¿«": 6058,
      "ä»ħæľī": 6059,
      "æ²³è°·": 6060,
      "æ¶īå«Į": 6061,
      "æŁ¥çĲĨ": 6062,
      "å®£ç§°": 6063,
      "èĲ¥ä¸ļ": 6064,
      "é±¼éĽ·": 6065,
      "è®¼": 6066,
      "å¼łä¸ĵè¾ĳ": 6067,
      "åįıå®ļ": 6068,
      "çĽ¸åĲĮçļĦ": 6069,
      "äººæ¬¡": 6070,
      "æł¼éĽ·": 6071,
      "æĶ¹è¿Ľ": 6072,
      "ç©ºè¢Ń": 6073,
      "æĸ°åĨł": 6074,
      "è¾Ĳå°Ħ": 6075,
      "çļĦæľĢ": 6076,
      "åľ¨åı°æ¹¾": 6077,
      "ä¸Ĭéĺµ": 6078,
      "éĵĥ": 6079,
      "åł¤": 6080,
      "æĥħç»ª": 6081,
      "å¾ģæľį": 6082,
      "å¤§ä½¿é¦Ĩ": 6083,
      "æ³ķä»¤": 6084,
      "åĺīä¹ī": 6085,
      "æ³½å°Ķ": 6086,
      "èŀįåĲĪ": 6087,
      "86": 6088,
      "æ¯Ĺ": 6089,
      "æĬĦ": 6090,
      "æİ©": 6091,
      "è¿ŀè½½": 6092,
      "åĻ¶": 6093,
      "åıĤè®®éĻ¢": 6094,
      "ä¾ĭåŃĲ": 6095,
      "ä»¥ä¸ľ": 6096,
      "æĪĺæľ¯": 6097,
      "ä¼ļè¢«": 6098,
      "é¢ĨåħĪ": 6099,
      "éĩįè§Ĩ": 6100,
      "æ´Ľåħĭ": 6101,
      "çļĦåĲįåŃĹ": 6102,
      "åľ¨196": 6103,
      "ç£·": 6104,
      "è§īå¾Ĺ": 6105,
      "éĢļçŁ¥": 6106,
      "èº«åĪĨ": 6107,
      "è½¬çļĦ": 6108,
      "160": 6109,
      "æĪĲçĨŁ": 6110,
      "èĪĮ": 6111,
      "å½ĵä»£": 6112,
      "æħ°": 6113,
      "èĵĿèī²": 6114,
      "çĢ": 6115,
      "éĥģ": 6116,
      "åı¯è§ģ": 6117,
      "æ¿Ĵ": 6118,
      "ä¾įéĥİ": 6119,
      "çĬ¹å¤ªäºº": 6120,
      "èĩĤ": 6121,
      "å¸ĥæľĹ": 6122,
      "ç¤¾äº¤": 6123,
      "è®¾æľīå¤ıä»¤æĹ¶éĹ´": 6124,
      "è¯¥åľ°æīĢéĩĩçĶ¨": 6125,
      "åĲĮæĹ¶è¯¥åľ°è®¾æľīå¤ıä»¤æĹ¶éĹ´": 6126,
      "è¯¥åľ°æīĢéĩĩçĶ¨çļĦæĹ¶åĮºä¸º": 6127,
      "æ¼Ķè®²": 6128,
      "å·¨å¤§": 6129,
      "éķĩåĮºçļĦ": 6130,
      "äº¤æ±ĩ": 6131,
      "æ»¡æ´²": 6132,
      "å»¶ç»Ń": 6133,
      "ä¸ĭä¸Ģ": 6134,
      "éĢļå¾Ģ": 6135,
      "çĥ¯": 6136,
      "çĪµå£«": 6137,
      "ä¸ľä¾§": 6138,
      "åįķä¸Ģ": 6139,
      "è´·": 6140,
      "æĦŁè§ī": 6141,
      "ç²īä¸Ŀ": 6142,
      "é«ĺäºİæµ·å¹³éĿ¢": 6143,
      "ure": 6144,
      "1990å¹´": 6145,
      "çļĦåħ³ç³»": 6146,
      "æĢ»çĽĳ": 6147,
      "ä¼łæķĻ": 6148,
      "æį·åħĭ": 6149,
      "çĽ¸å½ĵäºİ": 6150,
      "ah": 6151,
      "æĮ¡": 6152,
      "åŃĲå¥³": 6153,
      "æİĴè¡Įæ¦ľ": 6154,
      "èīºäºº": 6155,
      "è´§çī©": 6156,
      "æīĢå¤ĦçļĦæµ·æĭĶä¸º": 6157,
      "æīĢå¤ĦçļĦæµ·æĭĶä¸ºé«ĺäºİæµ·å¹³éĿ¢": 6158,
      "è¾ĵåĩº": 6159,
      "è¡¥åħħ": 6160,
      "col": 6161,
      "ä¸ŃæľĢ": 6162,
      "åº¶": 6163,
      "çİ²": 6164,
      "åľ°å½¢": 6165,
      "æ¼ĶåĮĸ": 6166,
      "éªĹ": 6167,
      "è®¾è®¡çļĦ": 6168,
      "ç¬¦åı·": 6169,
      "ç§įåŃĲ": 6170,
      "å¸Ĩ": 6171,
      "ç»ĺçĶ»": 6172,
      "Co": 6173,
      "ug": 6174,
      "åľ¨ä¸Ń": 6175,
      "å¤§éĿ©åĳ½": 6176,
      "èģª": 6177,
      "æĦ¤": 6178,
      "ä¿Ŀè¯ģ": 6179,
      "æĻ®ç½Ĺ": 6180,
      "æĹłçĹĩçĬ¶æĦŁæŁĵèĢħ": 6181,
      "å¼ĵ": 6182,
      "è¡ĮæĶ¿éĻ¢": 6183,
      "æ°¸ä¹ħ": 6184,
      "åĲĪåĲĮ": 6185,
      "é²¸": 6186,
      "è¯¦ç»Ĩ": 6187,
      "ç»´å¤ļåĪ©äºļ": 6188,
      "èįĨ": 6189,
      "åĪ¶ä½ľçļĦ": 6190,
      "æıĲåĩºäºĨ": 6191,
      "èĦ±ç¦»": 6192,
      "çī¹å°Ķ": 6193,
      "æĪĺéĺŁ": 6194,
      "åŁİçļĦ": 6195,
      "äº¬éĥ½": 6196,
      "åħ·å¤ĩ": 6197,
      "å¾Īå°ĳ": 6198,
      "äºĴåĬ¨": 6199,
      "ran": 6200,
      "å¤§éĺª": 6201,
      "ä½Ĩæĺ¯": 6202,
      "å°¼åı¤": 6203,
      "ord": 6204,
      "çĵ¶": 6205,
      "çĻ»è®°": 6206,
      "73": 6207,
      "æ¡Į": 6208,
      "ç¥¯": 6209,
      "è·¯åı£": 6210,
      "):": 6211,
      "æł¼å°Ķ": 6212,
      "æĥħèĬĤ": 6213,
      "are": 6214,
      "æ¾Ħ": 6215,
      "æ©Ħ": 6216,
      "aw": 6217,
      "åľ°äºļ": 6218,
      "åĮºéĹ´": 6219,
      "éĺ¿éĩĮ": 6220,
      "éħ®": 6221,
      "èİ·èĥľ": 6222,
      "æķĻèĤ²éĥ¨": 6223,
      "åºıåĪĹ": 6224,
      "äºİ2016å¹´": 6225,
      "èĤ¡ä»½æľīéĻĲåħ¬åı¸": 6226,
      "SS": 6227,
      "oy": 6228,
      "æ¸ł": 6229,
      "æİ¢éĻ©": 6230,
      "éķĩåĮºçļĦéĿ¢ç§¯ä¸º": 6231,
      "äº©": 6232,
      "çī¹éĩĮ": 6233,
      "ä½ľä¸ļ": 6234,
      "æł¼éĩĮ": 6235,
      "æĸ½å·¥": 6236,
      "ä¸ºæĸ°": 6237,
      "åºĩ": 6238,
      "æŃ¤æ¬¡": 6239,
      "æµģä¼ł": 6240,
      "ä½įäºİç¾İåĽ½": 6241,
      "çº¢åĨĽ": 6242,
      "èļĢ": 6243,
      "ä¼Ĭæĸ¯åħ°æķĻ": 6244,
      "ä¼ŀ": 6245,
      "å§¿": 6246,
      "å¤ļåĲį": 6247,
      "åĽĽä¸ĸ": 6248,
      "82": 6249,
      "å§ĳ": 6250,
      "å¾·æĦıå¿Ĺ": 6251,
      "éĤĳ": 6252,
      "è¯ºå¤«": 6253,
      "è½°çĤ¸æľº": 6254,
      "éĿĴå°ĳå¹´": 6255,
      "æķĪåĬĽäºİ": 6256,
      "æĨ": 6257,
      "åħ¬é¡·": 6258,
      "ä¸»å¯¼": 6259,
      "èĬŃ": 6260,
      "ç±»çļĦ": 6261,
      "ä¼łç»ŁçļĦ": 6262,
      "æ©Ħæ¦Ħ": 6263,
      "ç»ĳ": 6264,
      "æĶ¾åľ¨": 6265,
      "å²ĽçļĦ": 6266,
      "èĩ´åĬĽ": 6267,
      "çģŃç»Ŀ": 6268,
      "ä¼ļä¸Ĭ": 6269,
      "è¿ĻéĩĮ": 6270,
      "ç»´åŁº": 6271,
      "ä½Ľç½ĹéĩĮè¾¾": 6272,
      "ä»Ĩ": 6273,
      "åºļ": 6274,
      "æ³Ħ": 6275,
      "æ»ķ": 6276,
      "çİ°åľ¨çļĦ": 6277,
      "åįĹæŀģæ´²": 6278,
      "å¤ļæł·": 6279,
      "äºĮçº§": 6280,
      "æĢ»è£ģ": 6281,
      "äºİ192": 6282,
      "æ¤ħ": 6283,
      "äºĴèģĶç½ĳ": 6284,
      "å®¹çº³": 6285,
      "äº¿åħĥ": 6286,
      "æ®ĸæ°ĳåľ°": 6287,
      "æľ¬ç§ĳ": 6288,
      "æµ·ä¸Ĭ": 6289,
      "å·´åĭĴ": 6290,
      "åİĨåı²åŃ¦å®¶": 6291,
      "178": 6292,
      "ãĢĭ(\"": 6293,
      "ä¸ľåįĹäºļ": 6294,
      "æ²Īéĺ³": 6295,
      "ä¸ľäºļ": 6296,
      "æ±īåŃĹ": 6297,
      "ç¥Ī": 6298,
      "çĽ¸åıį": 6299,
      "çıŃæ¬¡": 6300,
      "çĪ·": 6301,
      "å°ĳå°Ĩ": 6302,
      "æĪĺæĸĹæľº": 6303,
      "km": 6304,
      "çļĦæĶ¿æ²»": 6305,
      "æĶ¿åıĺ": 6306,
      "çļĦä¸į": 6307,
      "éĥ¨å°ļä¹¦": 6308,
      "æ²¿å²¸": 6309,
      "éĽĨä½ĵ": 6310,
      "åį³å°Ĩ": 6311,
      "åį«éĺŁ": 6312,
      "çĸ«èĭĹ": 6313,
      "éĩĳå±±": 6314,
      "ç¾¤ä¼Ĺ": 6315,
      "åľ¨åĮĹäº¬": 6316,
      "åŃ¦ç³»": 6317,
      "ç½©": 6318,
      "çī¹èī²": 6319,
      "æ¼Ķèīº": 6320,
      "å®īå¾½çľģ": 6321,
      "è¿ĳä»£": 6322,
      "è¿ŀä»»": 6323,
      "ç¾¤ä½ĵ": 6324,
      "åĪĨåĮº": 6325,
      "å¸ĥéĽ·": 6326,
      "åį«è§Ĩ": 6327,
      "èĭ¹æŀľ": 6328,
      "åĪĨæł¡": 6329,
      "éĢļçĶ¨": 6330,
      "æĢ»ä¼ļ": 6331,
      "åķ¡": 6332,
      "åĬ£": 6333,
      "ä½¿çĶ¨äºĨ": 6334,
      "æĭħå¿ĥ": 6335,
      "æĶ»åįł": 6336,
      "çļĦæĥħåĨµä¸ĭ": 6337,
      "çº§èģĶèµĽ": 6338,
      "1989å¹´": 6339,
      "æħİ": 6340,
      "Play": 6341,
      "ä»įæľī": 6342,
      "åıĤä¸İäºĨ": 6343,
      "me": 6344,
      "éĢ¸": 6345,
      "è¿ŀç»ĵ": 6346,
      "å¹²éĥ¨": 6347,
      "æ°ĳè¿Ľåħļ": 6348,
      "å·¥ä¼ļ": 6349,
      "çļĦçĶµ": 6350,
      "ä»¥è¥¿": 6351,
      "ä»ĸæĺ¯": 6352,
      "æĥ§": 6353,
      "æ¸ħæ¥ļ": 6354,
      "é¹ı": 6355,
      "æİ¢ç´¢": 6356,
      "250": 6357,
      "éķĩåİĭ": 6358,
      "æĻ®é²ģå£«": 6359,
      "ð«": 6360,
      "éķĳ": 6361,
      "çľģçļĦ": 6362,
      "æł¸éħ¸": 6363,
      "æŀ¶æŀĦ": 6364,
      "è´ª": 6365,
      "å½ĵå¤©": 6366,
      "çŁ®": 6367,
      "éĥ½è¢«": 6368,
      "åįķæīĵ": 6369,
      "çĥ·": 6370,
      "åĢ¼å¾Ĺ": 6371,
      "åĪ¤åĨ³": 6372,
      "éķ¿çº¦": 6373,
      "èľĤ": 6374,
      "çļĦåıį": 6375,
      "ä»İæľª": 6376,
      "é³ŀ": 6377,
      "å¥³çİĭ": 6378,
      "å¤«å¦ĩ": 6379,
      ",),": 6380,
      "çļĦç»ĵæŀľ": 6381,
      "ç¬¬ä¸Ģä½į": 6382,
      "æīĳ": 6383,
      "å±±è¥¿çľģ": 6384,
      "æ¨±": 6385,
      "çļĦä¸ĢæĿ¡": 6386,
      "æ¸ħä»£": 6387,
      "éĴ¢çĲ´": 6388,
      "è´¼": 6389,
      "æł¼æŀĹ": 6390,
      "å®ŀè·µ": 6391,
      "æĽ´å¤ļçļĦ": 6392,
      "èīºæľ¯å®¶": 6393,
      "åĲİèĢħ": 6394,
      "æŃ¤ç«Ļ": 6395,
      "è°´": 6396,
      "è¸ı": 6397,
      "ire": 6398,
      "æĸ¯åľ¨": 6399,
      "åĨĽåľ¨": 6400,
      "éĢ¾": 6401,
      "å®ļæľŁ": 6402,
      "æĺŁç³»": 6403,
      "åĮĹæµ·éģĵ": 6404,
      "ä»ĸä¸İ": 6405,
      "è¯¥åľ°çļĦ": 6406,
      "éĩįè¿Ķ": 6407,
      "ä¿®è®¢": 6408,
      "åĪĩå°Ķ": 6409,
      "å½»åºķ": 6410,
      "96": 6411,
      "åĬ³å·¥": 6412,
      "ust": 6413,
      "åħ¶å®ŀ": 6414,
      "å¥¹ä»¬": 6415,
      "æ±ŁæĪ·": 6416,
      "æĪĲéķ¿": 6417,
      "åĵª": 6418,
      "æµ·åįĹ": 6419,
      "è¿ªå£«": 6420,
      "æĦ¿æĦı": 6421,
      "ight": 6422,
      "çŃĴ": 6423,
      "åıĳè¡ĮçļĦ": 6424,
      "ä¼ļè®®åĳĺ": 6425,
      "æ¡ĥåĽŃ": 6426,
      "YouT": 6427,
      "Sc": 6428,
      "ä¸Ńå°Ĩ": 6429,
      "è¡Įèµ°": 6430,
      "çªĦ": 6431,
      "èµĶ": 6432,
      "äºĨä»ĸçļĦ": 6433,
      "æł¼é²ģ": 6434,
      "æĺ¯ä¸Ģä½į": 6435,
      "è½¯ä½ĵ": 6436,
      "éŃĶæ³ķ": 6437,
      "PS": 6438,
      "éĻ¨çŁ³": 6439,
      "å¤´è¡Ķ": 6440,
      "æķ´åĲĪ": 6441,
      "2åı·": 6442,
      "DV": 6443,
      "çļĦç¥ŀ": 6444,
      "æķ²": 6445,
      "ä¸ľæµ·": 6446,
      "èĤ¢": 6447,
      "ç»´ä¿®": 6448,
      "å¼ķè¿Ľ": 6449,
      "å¥½è¯Ħ": 6450,
      "ä»įåľ¨": 6451,
      "åİŁåħĪ": 6452,
      "åıĹå®³": 6453,
      "å±ĤçļĦ": 6454,
      "son": 6455,
      "çºł": 6456,
      "æĬĽ": 6457,
      "èĹ»": 6458,
      "ä¼¤å®³": 6459,
      "çĲĨæŁ¥": 6460,
      "è¯ģåĪ¸": 6461,
      "iz": 6462,
      "åĵĪèĲ¨åħĭ": 6463,
      "è¿ªå£«å°¼": 6464,
      "åĲİåľ¨": 6465,
      "çļĦåŁºç¡Ģ": 6466,
      "åĲİè¢«": 6467,
      "è¾ĥä½İ": 6468,
      "åĲĬ": 6469,
      "1920å¹´": 6470,
      "è°¥": 6471,
      "ä¸ĢæĶ¯": 6472,
      "åĨĢ": 6473,
      "1984å¹´": 6474,
      "æĸ¯åł¡": 6475,
      "èµ·è¯ī": 6476,
      "è®®å¸Ń": 6477,
      "åĿŁ": 6478,
      "å®ĺèĩ³": 6479,
      "ä¼Ĭæĭīåħĭ": 6480,
      "ä¼¯çī¹": 6481,
      "cl": 6482,
      "åĩ¸": 6483,
      "åĮºåĪ«": 6484,
      "éģ®": 6485,
      "åįłæį®": 6486,
      "pt": 6487,
      "çļĦæľº": 6488,
      "æĥ©": 6489,
      "åĨħåľ°": 6490,
      "é»Ħèī²": 6491,
      "ç»´åħĭ": 6492,
      "ib": 6493,
      "ä¸ºäºº": 6494,
      "ä¸»åĬ¨": 6495,
      "çī¹åĮº": 6496,
      "åĪ©çļĦ": 6497,
      "çĽ®çļĦæĺ¯": 6498,
      "åĸĩ": 6499,
      "ä¹¡éķĩ": 6500,
      "åľ¨æĸ°": 6501,
      "è¢«åĳĬ": 6502,
      "ä¿®éģĵ": 6503,
      "äº§çĶŁäºĨ": 6504,
      "æĴŀåĩ»": 6505,
      "ç½Ĺå¾·": 6506,
      "äºİ2015å¹´": 6507,
      "æŃī": 6508,
      "è¯ºæĽ¼": 6509,
      "æľĽè¿ľ": 6510,
      "æĪĺåĪĹ": 6511,
      "èµ·åĪĿ": 6512,
      "è®¤åĲĮ": 6513,
      "èĥĮé³į": 6514,
      "äºİ2014å¹´": 6515,
      "ç¬¬ä¸Ģæ¬¡ä¸ĸçķĮå¤§æĪĺ": 6516,
      "çĩĥæĸĻ": 6517,
      "çļĦä¸Ĭ": 6518,
      "é£ŁçĶ¨": 6519,
      "æĹłçº¿çĶµè§Ĩ": 6520,
      "çĶľ": 6521,
      "åĽ½éģĵ": 6522,
      "èµ£": 6523,
      "çİĭåŃĲ": 6524,
      "æŃ¦å¸Ŀ": 6525,
      "å¸Įå°Ķ": 6526,
      "ial": 6527,
      "æľµ": 6528,
      "å§Ķä»»": 6529,
      "éĻ¤æŃ¤": 6530,
      "æĶ»æīĵ": 6531,
      "äºİ2018å¹´": 6532,
      "çļĦçĶµå½±": 6533,
      "çļĦæīĢæľī": 6534,
      "å±¥": 6535,
      "åľ°åĲį": 6536,
      "æłĩè®°": 6537,
      "çĶ·å¥³": 6538,
      "å¤ļé¡¹": 6539,
      "æĲºå¸¦": 6540,
      "PC": 6541,
      "åħ¬åĬ¡": 6542,
      "é¢ł": 6543,
      "æĶ¹å»º": 6544,
      "èĭıç»´åŁĥ": 6545,
      "æ¡£æ¡Ī": 6546,
      "åĽ½éĺ²éĥ¨": 6547,
      "è®®é¢ĺ": 6548,
      "åĪĹåĩº": 6549,
      "æ¨¡çī¹": 6550,
      "æĤł": 6551,
      "éĢĶä¸Ń": 6552,
      "ç»µ": 6553,
      "åŁİå¢Ļ": 6554,
      "äº¤çķĮ": 6555,
      "ç»ĪçĤ¹": 6556,
      "è´¹çĶ¨": 6557,
      "äºİ2017å¹´": 6558,
      "èĽĭçĻ½è´¨": 6559,
      "Be": 6560,
      "çļĦæŃĮæĽ²": 6561,
      "åİ¥": 6562,
      "äºĨè®¸å¤ļ": 6563,
      "äº¤åıī": 6564,
      "å¡ŀçº³": 6565,
      "æ³ķåħ°åħĭ": 6566,
      "è°´è´£": 6567,
      "97": 6568,
      "çļĦæĪĲåĳĺ": 6569,
      "æ¸Ĭ": 6570,
      "åį°ç¬¬": 6571,
      "èı²åĪ©": 6572,
      "æĸ¯åĴĮ": 6573,
      "èĬĻ": 6574,
      "æ¢¨": 6575,
      "å»ºçŃĳå¸Ī": 6576,
      "åħĪè¿Ľ": 6577,
      "æ¹ĸæ³Ĭ": 6578,
      "ä¸ĭè¾ĸä»¥ä¸ĭ": 6579,
      "çŁĽçĽ¾": 6580,
      "\".": 6581,
      "åį§": 6582,
      "æĺ¯åĽłä¸º": 6583,
      "çī©åĵģ": 6584,
      "è¿ĺåľ¨": 6585,
      "ä»Ĭå¤©": 6586,
      "çī¹æľĹæĻ®": 6587,
      "éĤµ": 6588,
      "æ²³éģĵ": 6589,
      "æĻºæħ§": 6590,
      "å²©çŁ³": 6591,
      "åľ°ä¸Ń": 6592,
      "åĲįè¯į": 6593,
      "ä¹ŁæĽ¾": 6594,
      "åĽ¢ç»ĵ": 6595,
      "åºĶå¯¹": 6596,
      "è°ĭæĿĢ": 6597,
      "åĲİæĸ¹": 6598,
      "åı¯åľ¨": 6599,
      "çĶŁéķ¿äºİ": 6600,
      "ä¼Ļä¼´": 6601,
      "å¼Ģå·¥": 6602,
      "åĿł": 6603,
      "çĤŃ": 6604,
      "ä¸¾åĬŀçļĦ": 6605,
      "åī¥": 6606,
      "ä»£æĽ¿": 6607,
      "éģĵåħī": 6608,
      "å®ŀä½ĵ": 6609,
      "æ²ĻçĶ°": 6610,
      "æĶ¶è´¹": 6611,
      "è¶³çĲĥéĺŁ": 6612,
      "åĶ¯ä¸ĢçļĦ": 6613,
      "84": 6614,
      "äºİ2020å¹´": 6615,
      "æľ¬çº¿": 6616,
      "ç½Ĺå¤«": 6617,
      "æıĲäº¤": 6618,
      "èģĮä½į": 6619,
      "è¿Ľè¡ĮçļĦ": 6620,
      "å¦¹å¦¹": 6621,
      "æľĽè¿ľéķľ": 6622,
      "ies": 6623,
      "mer": 6624,
      "äºİæŃ¤": 6625,
      "ä»»æķĻ": 6626,
      "AS": 6627,
      "å¥¸": 6628,
      "çĲĨå¿µ": 6629,
      "çķħ": 6630,
      "åľºåľ°": 6631,
      "éģĩåĪ°": 6632,
      "æ²³åĮĹçľģ": 6633,
      "æĢ§åĴĮ": 6634,
      "çº³å·ŀ": 6635,
      "æĤ¦": 6636,
      "å·¨å¤§çļĦ": 6637,
      "93": 6638,
      "å¼ĢåĬŀ": 6639,
      "å®īå¨ľ": 6640,
      "éļ¾æ°ĳ": 6641,
      "é¢ģå¸ĥ": 6642,
      "æŀ¢çº½": 6643,
      "éĢ»è¾ĳ": 6644,
      "åį°ç¬¬å®ī": 6645,
      "ç¦ıå¾·": 6646,
      "éĻįéĽ¨": 6647,
      "æĹ±": 6648,
      "ãĢģãĢĬ": 6649,
      "æ±ŁåįĹ": 6650,
      "ich": 6651,
      "äºİ2012å¹´": 6652,
      "ld": 6653,
      "è¯ŃéŁ³": 6654,
      "ä¸ĵçĶ¨": 6655,
      "æĶ¿åĬ¡": 6656,
      "æīĢéľĢ": 6657,
      "å¤ĸè§Ĥ": 6658,
      "1æľĪ1æĹ¥": 6659,
      "æĹ¥å¸¸": 6660,
      "èµĽçļĦ": 6661,
      "çĪ±åĽ½": 6662,
      "æ©¡": 6663,
      "æľŁçļĦ": 6664,
      "è¡Įé©¶": 6665,
      "éĥ½çĿ£": 6666,
      "å²Ľä¸Ĭ": 6667,
      "å¼ºåĪ¶": 6668,
      "å¼ķçĶ¨": 6669,
      "æİĴåĪĹ": 6670,
      "æµİåįĹ": 6671,
      "æľĢæĹ©çļĦ": 6672,
      "èĤ©": 6673,
      "ä½ıåľ¨": 6674,
      "ä¹¦åĨĻ": 6675,
      "åįıåķĨ": 6676,
      "ä¹łæĥ¯": 6677,
      "å´ĸ": 6678,
      "æĹłäººæľº": 6679,
      "ç»ıçĶ±": 6680,
      "è°ģ": 6681,
      "éĢīåĩº": 6682,
      "éĢīç§Ģ": 6683,
      "æł¹æį®2010å¹´": 6684,
      "140": 6685,
      "è¿·ä½ł": 6686,
      "DS": 6687,
      "å°ĺ": 6688,
      "æľīèĳĹ": 6689,
      "æ³ķè¯Ń": 6690,
      "æĥľ": 6691,
      "æł¼åĭĴ": 6692,
      "é¦ĸæŃĮæĽ²": 6693,
      "åĽĽå¤§": 6694,
      "ç½Ĺé©¬å¸ĿåĽ½": 6695,
      "èĸĩ": 6696,
      "åĲĪåĶ±": 6697,
      "çº¿æĢ§": 6698,
      "æİ¥èĳĹ": 6699,
      "åį¡æĸ¯": 6700,
      "é¢Ĩåľ°": 6701,
      "æł¹æľ¬": 6702,
      "å¥ĸéĩĳ": 6703,
      "åį°åĪ·": 6704,
      "æĹ¶ä»£çļĦ": 6705,
      "åĴ¨è¯¢": 6706,
      "ä¸ĬäºĨ": 6707,
      "ä¸ĭäºĨ": 6708,
      "ç«ĭéĻ¶": 6709,
      "èĥľåĩº": 6710,
      "åĪĳäºĭ": 6711,
      "çī²": 6712,
      "æģ¨": 6713,
      "åľ£ç»ı": 6714,
      "è¯Ħä¸º": 6715,
      "æ¢µ": 6716,
      "1980å¹´": 6717,
      "1986å¹´": 6718,
      "è°į": 6719,
      "ä¿ĦåĨĽ": 6720,
      "èħ°": 6721,
      "çĻ¾å¹´": 6722,
      "äºİ2019å¹´": 6723,
      "ä¸įè¦ģ": 6724,
      "çĪª": 6725,
      "å¡Ķå°¼": 6726,
      "ä¼ĲåĪ©äºļ": 6727,
      "æĿŃå·ŀ": 6728,
      "51": 6729,
      "åĲĮåĲį": 6730,
      "è°Ĳ": 6731,
      "åĩĨç¡®": 6732,
      "åĨłçĬ¶": 6733,
      "RE": 6734,
      "åĵĢ": 6735,
      "è¿ĩçļĦ": 6736,
      "ç§°ä¹ĭ": 6737,
      "é¦ĸåº¦": 6738,
      "é¢ĺæĿĲ": 6739,
      "ä½ıæĪ¿": 6740,
      "çĽĪ": 6741,
      "ç«ĻæĪ¿": 6742,
      "æ°Ķä½ĵ": 6743,
      "ç»¼èīº": 6744,
      "æĢ¡": 6745,
      "ä»ĸè¢«": 6746,
      "è§Ĥåħī": 6747,
      "å¢ŀåĬłäºĨ": 6748,
      "ç¼ĸåı·ä¸º": 6749,
      "èī²å½©": 6750,
      "è½¬ä¸º": 6751,
      "å¼¹èį¯": 6752,
      "äºİ2013å¹´": 6753,
      "æĻºèĥ½": 6754,
      "éķľå¤´": 6755,
      "çĥŃå¸¦é£İæļ´": 6756,
      "åŃŁåĬłæĭī": 6757,
      "çļĦä¸ŃåĽ½": 6758,
      "å¯¹è¯Ŀ": 6759,
      "éĵİ": 6760,
      "èĻı": 6761,
      "æ¯ıåĳ¨": 6762,
      "åıĭå¥½": 6763,
      "æİ¢æµĭ": 6764,
      "å½ķå½±å¸¦": 6765,
      "èĩĢ": 6766,
      "åħ¥åĽ´": 6767,
      "è°¦": 6768,
      "ä¸¤èĢħ": 6769,
      "è¿«ä½¿": 6770,
      "é©¬åħĭæĢĿ": 6771,
      "çĽ¸åºĶ": 6772,
      "çĻ¾ç§ĳ": 6773,
      "åĪĨåĪ«ä¸º": 6774,
      "å±ħä½ıåľ¨": 6775,
      "ç«£": 6776,
      "é«ĺåİŁ": 6777,
      "ç»´ä¹Ł": 6778,
      "ç«ĭéĻ¶å®Ľ": 6779,
      "çļĦæĹ¥æľ¬": 6780,
      "æľīè®¸å¤ļ": 6781,
      "æĪĲæŀľ": 6782,
      "åĮºåĪĨ": 6783,
      "ç«ĭåľº": 6784,
      "æ¯ıå¤©": 6785,
      "130": 6786,
      "lo": 6787,
      "çĿĽ": 6788,
      "èĩªè¡Įè½¦": 6789,
      "å¼Ħ": 6790,
      "åįģæľĪ": 6791,
      "ç§ĳä¼ļè¯ķ": 6792,
      "è¯ĨåĪ«": 6793,
      "çºªå½ķçīĩ": 6794,
      "æĳĩæ»ļ": 6795,
      "åĬ¨è½¦": 6796,
      "æĸ°å»º": 6797,
      "æĥħå½¢": 6798,
      "çĳľ": 6799,
      "ç¢°": 6800,
      "æİĮæı¡": 6801,
      "åĴĸåķ¡": 6802,
      "Me": 6803,
      "NBA": 6804,
      "æ·ĳ": 6805,
      "éĿĴæĺ¥": 6806,
      "æŃ¥æŀª": 6807,
      "çŃ¹å¤ĩ": 6808,
      "æ²¼": 6809,
      "èĤĿ": 6810,
      "çŁ¥åºľ": 6811,
      "æĻ¯è§Ĥ": 6812,
      "ç¼Ŀ": 6813,
      "1985å¹´": 6814,
      "æľŃ": 6815,
      "ä¸»æĿĥ": 6816,
      "æĭīå°Ķ": 6817,
      "æ¬¡äºİ": 6818,
      "ç±³åħ°": 6819,
      "è®¤ä¸ºæĺ¯": 6820,
      "åıĳçĶŁäºĨ": 6821,
      "ç«ĭæ³ķä¼ļ": 6822,
      "èļģ": 6823,
      "å¤¸": 6824,
      "åı²å¯Ĩæĸ¯": 6825,
      "åľ¨ä¸Ģ": 6826,
      "åľ°äº§": 6827,
      "å¹³çŃī": 6828,
      "èĪĨ": 6829,
      "ark": 6830,
      "çĽŁåĨĽ": 6831,
      "åĪ¤å¤Ħ": 6832,
      "è´¬": 6833,
      "çī¹åħ°": 6834,
      "å®¹éĩı": 6835,
      "åĲ¦è®¤": 6836,
      "ä¸ºåŁºç¡Ģ": 6837,
      "åĬłåĪ©äºļ": 6838,
      "åīįè¿Ľ": 6839,
      "é©±éĢĲèĪ°": 6840,
      "çĽ´åįĩæľº": 6841,
      "å¯¹ç§°": 6842,
      "åīįèº«": 6843,
      "åĨħæĶ¿": 6844,
      "çĽ¸ç»§": 6845,
      "æİ¥ç®¡": 6846,
      "èĪªçıŃ": 6847,
      "åĵ¥åĵ¥": 6848,
      "çŁ©éĺµ": 6849,
      "åħĥæľĿ": 6850,
      "æĽ´æį¢": 6851,
      "èĿł": 6852,
      "å¥¥æĸ¯åį¡": 6853,
      "è¡įçĶŁ": 6854,
      "å¯¹éĺµ": 6855,
      "ä¸īäºº": 6856,
      "æł¡åĮº": 6857,
      "åħµåĽ¢": 6858,
      "æ³°åĭĴ": 6859,
      "é¢Ħå¤ĩ": 6860,
      "Ph": 6861,
      "å®ł": 6862,
      "å¼ĢåĲ¯": 6863,
      "æĪĺèĥľ": 6864,
      "æĳĶ": 6865,
      "æµĨ": 6866,
      "ç¥Ĳ": 6867,
      "åįķåħĥ": 6868,
      "è½¬ä¼ļ": 6869,
      "å¸Ńä½į": 6870,
      "1948å¹´": 6871,
      "co": 6872,
      "æĸ°åĮĹ": 6873,
      "ä½ĵéªĮ": 6874,
      "èĩ³äºİ": 6875,
      "æĮĩæķ°": 6876,
      "åŀĭåı·": 6877,
      "ä½¿çĶ¨èĢħ": 6878,
      "çģ«è½¦": 6879,
      "çģ«çģ¾": 6880,
      "çİ°åŃĺ": 6881,
      "äºĮå¹´": 6882,
      "å°ģä¸º": 6883,
      "æĿ¥èĩªäºİ": 6884,
      "æīĺé©¬": 6885,
      "à¸": 6886,
      "ä¹ĭéĻħ": 6887,
      "æŃ¤æĹ¶": 6888,
      "æ¼Ĩ": 6889,
      "æł¡èĪį": 6890,
      "æİ¨ç¿»": 6891,
      "å¿ĹæĦ¿": 6892,
      "çĻ¾å§ĵ": 6893,
      "é¢ĸ": 6894,
      "èĭ±éķĳ": 6895,
      "å®¢æĪ·": 6896,
      "æĹ§åĿĢ": 6897,
      "JR": 6898,
      "èµĽè½¦": 6899,
      "çĮľ": 6900,
      "åŀĤçĽ´": 6901,
      "ä¸Ńä¸ĸçºª": 6902,
      "çĶµæ±ł": 6903,
      "åĭĺ": 6904,
      "æĥħæĦŁ": 6905,
      "æ²³æµģåŁŁ": 6906,
      "åħĶ": 6907,
      "å·´ä¼ĲåĪ©äºļ": 6908,
      "æĽ¾æĺ¯": 6909,
      "é¾ĻçļĦ": 6910,
      "æĹ©ä¸Ĭ": 6911,
      "ä¼ģåĽ¾": 6912,
      "ç¥Ńç¥Ģ": 6913,
      "æ¹ĸåįĹçľģ": 6914,
      "å¿Į": 6915,
      "éĿ¢åĲĳ": 6916,
      "åħ¨ä½ĵ": 6917,
      "éĢīæ°ĳ": 6918,
      "ä¼Ĳåħĭ": 6919,
      "è·Į": 6920,
      "æķ°åįģ": 6921,
      "ä¿Ŀå®ī": 6922,
      "åįĩæł¼ä¸º": 6923,
      "ä¸»æµģ": 6924,
      "éĩįå¤į": 6925,
      "èĽĽ": 6926,
      "è¿ģç§»": 6927,
      "è¾Ī": 6928,
      "åıĺæį¢": 6929,
      "ç¬¬åįģä¸ī": 6930,
      "ç§©åºı": 6931,
      "åįĹä¾§": 6932,
      "Con": 6933,
      "å¹¶åľ¨": 6934,
      "ç¾İåĽ½æĢ»ç»Ł": 6935,
      "éĺħè¯»": 6936,
      "æ°®": 6937,
      "ä¸»åĬĽ": 6938,
      "å°ºå¯¸": 6939,
      "IV": 6940,
      "çī©çļĦ": 6941,
      "åľ£æ¯į": 6942,
      "é©±åĬ¨": 6943,
      "83": 6944,
      "æĺ¯ä¸ª": 6945,
      "ä¸īåĽ½": 6946,
      "äºĶæľĪ": 6947,
      "å½ķåĪ¶": 6948,
      "MS": 6949,
      "ala": 6950,
      "ä¸Ĭè¯ī": 6951,
      "çľģéģĵ": 6952,
      "1944å¹´": 6953,
      "èģĮä¸ļçĶŁæ¶¯": 6954,
      "section": 6955,
      "92": 6956,
      "åıĳæİĺ": 6957,
      "å¤§è¡Ĺ": 6958,
      "æ¹ĸåĮĹçľģ": 6959,
      "YouTube": 6960,
      "åİī": 6961,
      "che": 6962,
      "å¤§éĺŁ": 6963,
      "åĿŀ": 6964,
      "éģĹä¼ł": 6965,
      "éĻķè¥¿çľģ": 6966,
      "æħķå°¼": 6967,
      "ä½ĳ": 6968,
      "åĮł": 6969,
      "ä¸»ç®¡": 6970,
      "å¸ĥåħ°": 6971,
      "åĮĹä¾§": 6972,
      "èĤĩ": 6973,
      "æĶ¹è£ħ": 6974,
      "çľ¼çĿĽ": 6975,
      "ä¸¥éĩįçļĦ": 6976,
      "çĺ¤": 6977,
      "éĿ¢ä½ĵ": 6978,
      "å·´èµ«": 6979,
      "åĵģè´¨": 6980,
      "çĹħéĢĿ": 6981,
      "ä¼¤äº¡": 6982,
      "æŃ§è§Ĩ": 6983,
      "æ¡Ĳ": 6984,
      "æµģéĩı": 6985,
      "1982å¹´": 6986,
      "èľĢ": 6987,
      "8ä¸ª": 6988,
      "æµ¸": 6989,
      "æĮº": 6990,
      "å±±çļĦ": 6991,
      "ç©¿è¿ĩ": 6992,
      "äºĭåĬ¡æīĢ": 6993,
      "ä¸ľäº¬éĥ½": 6994,
      "ä»¥å¤ĸ": 6995,
      "å¥³ä¸»è§Ĵ": 6996,
      "åķĨåĬ¡": 6997,
      "çĻ»åľº": 6998,
      "åĨĻéģĵ": 6999,
      "èµĮ": 7000,
      "è¡Įäºº": 7001,
      "é©¹": 7002,
      "åĩĨåĨ³èµĽ": 7003,
      "1987å¹´": 7004,
      "177": 7005,
      "1941å¹´": 7006,
      "åĲįäºº": 7007,
      "å·ŀéķ¿": 7008,
      "ä¸¤å²¸": 7009,
      "åı¤å·´": 7010,
      "éĵ¶çīĮ": 7011,
      "äºİ2021å¹´": 7012,
      "åİ¦éĹ¨": 7013,
      "æħķå°¼é»ĳ": 7014,
      "94": 7015,
      "æĪĬ": 7016,
      "å®¶ä¹¡": 7017,
      "åĲĮæŃ¥": 7018,
      "æıĲåīį": 7019,
      "çĵ·": 7020,
      "åĩłä½ķ": 7021,
      "éĽķå¡ĳ": 7022,
      "åĨłçĬ¶çĹħæ¯Ĵ": 7023,
      "æľ¬ä¹¦": 7024,
      "ä¾Ŀçħ§": 7025,
      "ç±»ä¼¼çļĦ": 7026,
      "çīµå¼ķ": 7027,
      "ç»´ä¹Łçº³": 7028,
      "MP": 7029,
      "au": 7030,
      "æĺ¯ä¸į": 7031,
      "å¤§åħ¬": 7032,
      "é©¬ä¸ģ": 7033,
      "æĹ©åľ¨": 7034,
      "æĮĩæĮ¥å®ĺ": 7035,
      "å¢ŀè®¾": 7036,
      "ç«£å·¥": 7037,
      "èŃ¦æĬ¥": 7038,
      "äºİ2010å¹´": 7039,
      "DVD": 7040,
      "ä¸Ĭå¸Ŀ": 7041,
      "æ»¤": 7042,
      "æ»ĭ": 7043,
      "åĪĴå½Ĵ": 7044,
      "å¹ķåºľ": 7045,
      "æŁĦ": 7046,
      "æĿĳæ°ĳ": 7047,
      "\"),": 7048,
      "pp": 7049,
      "èĮĦ": 7050,
      "åĮ»åŃ¦éĻ¢": 7051,
      "æ·»åĬł": 7052,
      "èģĮåĳĺ": 7053,
      "æ±īè¯Ń": 7054,
      "çĶ²åŁº": 7055,
      "ç»ĥä¹ł": 7056,
      "èĬ¦": 7057,
      "å¥³åŃ©": 7058,
      "çĸ¯": 7059,
      "è¾¹çļĦ": 7060,
      "ath": 7061,
      "å¾·åĽ½çļĦ": 7062,
      "ç»ĨèıĮ": 7063,
      "èı²å°Ķå¾·": 7064,
      "æ¯ķä¸ļåĲİ": 7065,
      "US": 7066,
      "æīŃ": 7067,
      "ä¸īç§į": 7068,
      "éħ¯": 7069,
      "182": 7070,
      "åķĨåľº": 7071,
      "å®ĮæĪĲäºĨ": 7072,
      "æĺ¯ä¸ºäºĨ": 7073,
      "ä¸ªä½ĵ": 7074,
      "æ¿ĢçĥĪ": 7075,
      "ä¿®éģĵéĻ¢": 7076,
      "ä¿ĿåĬłåĪ©äºļ": 7077,
      "åĽŀåĲĪ": 7078,
      "ann": 7079,
      "èĢĥå¯Ł": 7080,
      "äºİ2011å¹´": 7081,
      "éĢĶç»ı": 7082,
      "èĻļæĭŁ": 7083,
      "ram": 7084,
      "èĢĮä¸į": 7085,
      "æĪĺåľº": 7086,
      "ke": 7087,
      "ä¸ĭåįĬ": 7088,
      "åĨħæľī": 7089,
      "äºĮæľĪ": 7090,
      "äºīå¤º": 7091,
      "âĨ": 7092,
      "äºİ2022å¹´": 7093,
      "æ´Ľå¤«": 7094,
      "æĶ»åĬ¿": 7095,
      "æī¿æĭħ": 7096,
      "çļ®èĤ¤": 7097,
      "èµ¢å¾ĹäºĨ": 7098,
      "TA": 7099,
      "å°Ķé¡¿": 7100,
      "æ£į": 7101,
      "ç´¢æģ©": 7102,
      "è¶ģ": 7103,
      "æ£±": 7104,
      "ç»ıæµİåŃ¦": 7105,
      "æľ«æľŁ": 7106,
      "åħ¶ä¸Ńä¸Ģä¸ª": 7107,
      "å¤§éĩıçļĦ": 7108,
      "åĪĨä¹ĭä¸Ģ": 7109,
      "ç§įç±»": 7110,
      "èİ·åıĸ": 7111,
      "è´Ŀåħĭ": 7112,
      "é¡ºåºı": 7113,
      "è¸¢": 7114,
      "EN": 7115,
      "æĻ´": 7116,
      "åħĥéŁ³": 7117,
      "çķĮçļĦ": 7118,
      "åıĳçĶŁçļĦ": 7119,
      "Inter": 7120,
      "å¸ľ": 7121,
      "æĹ¥åĲİ": 7122,
      "ä¸Ĭå¸Ĥ": 7123,
      "ä½įäºİä¸ŃåĽ½": 7124,
      "æ»¥": 7125,
      "å¹¶æĹł": 7126,
      "ç»ıçºª": 7127,
      "åıĹæįŁ": 7128,
      "åĳ¨åĪĬ": 7129,
      "è±¹": 7130,
      "æĸ°åĨłèĤºçĤİ": 7131,
      "åľ°ä¸Ńæµ·": 7132,
      "åĿ¤": 7133,
      "å£«é¡¿": 7134,
      "åı¸èģĮ": 7135,
      "æĬĹæĹ¥æĪĺäºī": 7136,
      "ç¥¸": 7137,
      "æĬĳåĪ¶": 7138,
      "81": 7139,
      "çļĦåĽ½éĻħ": 7140,
      "çĽ´è·¯": 7141,
      "ert": 7142,
      "äº¦æĺ¯": 7143,
      "é¥¶": 7144,
      "å®ģæ³¢": 7145,
      "æİĴåĲįç¬¬": 7146,
      "We": 7147,
      "å¸¸å¸¸": 7148,
      "åĪĻæľī": 7149,
      "åħļåĳĺ": 7150,
      "ç¥ĸåħĪ": 7151,
      "æĲŀ": 7152,
      "åĶĲçº³": 7153,
      "ç¬¬åįģä¸Ģ": 7154,
      "éĺ´è°ĭ": 7155,
      "åĪ°çļĦ": 7156,
      "çĮ´": 7157,
      "æ¯ĶèµĽä¸Ń": 7158,
      "å©´åĦ¿": 7159,
      "çĶ·åŃ©": 7160,
      "éĽ·è¾¾": 7161,
      "1946å¹´": 7162,
      "æ··ä¹±": 7163,
      "æ§½": 7164,
      "è¥¿æĸ¯": 7165,
      "å·´åŁº": 7166,
      "çİ°æľī": 7167,
      "å¦¥": 7168,
      "å¤©ä¸ĭ": 7169,
      "ä¿¡å¾Ĵ": 7170,
      "æĿ¡æ¬¾": 7171,
      "æŃ»äºİ": 7172,
      "ä¸Ńå¿ĥçļĦ": 7173,
      "ä½ĵèĤ²é¦Ĩ": 7174,
      "äº®çĽ¸": 7175,
      "å¯ĩ": 7176,
      "ä¸īæľĪ": 7177,
      "è®¤å®ļ": 7178,
      "åħ¬ä¼ļ": 7179,
      "å½ĵæĹ¥": 7180,
      "èĲĿ": 7181,
      "ä¹¦ä¸Ń": 7182,
      "ç¬¬ä¸Ģå±Ĭ": 7183,
      "æİ¨æµĭ": 7184,
      "æ¤Ń": 7185,
      "ç»ĨèĬĤ": 7186,
      "1937å¹´": 7187,
      "é¢Ĩå¯¼çļĦ": 7188,
      "äºİåĲĮå¹´": 7189,
      "åīįåĲİ": 7190,
      "åıĸèĩª": 7191,
      "åĽ½å®¶åħ¬åĽŃ": 7192,
      "æł·çļĦ": 7193,
      "å·´åĭĴæĸ¯åĿ¦": 7194,
      "Cl": 7195,
      "ä¸¤æĿ¡": 7196,
      "è®ºåĿĽ": 7197,
      "æ¡Ĩæŀ¶": 7198,
      "çĽ¸è¿ŀ": 7199,
      "å¤´éĥ¨": 7200,
      "éĢģåĪ°": 7201,
      "è¯īè®¼": 7202,
      "åĳ¼åĲ¸": 7203,
      "æµ·æĭĶé«ĺåº¦ä¸º": 7204,
      "é¥®é£Ł": 7205,
      "ix": 7206,
      "å¾Ļ": 7207,
      "çĤ³": 7208,
      "éĢĶå¾Ħ": 7209,
      "å·©": 7210,
      "05": 7211,
      "é¥¼": 7212,
      "ç»§ä»»": 7213,
      "éĻĦåĬł": 7214,
      "å¯Įæ±Ĺ": 7215,
      "æĺ¯ä»İ": 7216,
      "æ¬ł": 7217,
      "æĳ©å°Ķ": 7218,
      "çļĦçĪ¶äº²": 7219,
      "å¤ĸåĽ´": 7220,
      "å¦Ĥä»Ĭ": 7221,
      "æŃĮåĶ±": 7222,
      "å¼ķç§į": 7223,
      "ç§»å±ħ": 7224,
      "æĭ¿çł´": 7225,
      "è¿½æ±Ĥ": 7226,
      "å±ĭé¡¶": 7227,
      "ä¸»é¢ĺæĽ²": 7228,
      "è®½": 7229,
      "åĽłèĢĮ": 7230,
      "çĽ¸éĤ»": 7231,
      "æ°´éĩı": 7232,
      "çłĶç©¶çĶŁ": 7233,
      "éŁ¦å°Ķ": 7234,
      "æĿ°åħĭéĢĬ": 7235,
      "èĩ´åĬĽäºİ": 7236,
      "çļĦéĺ¿": 7237,
      "çļĦåŁİéķĩ": 7238,
      "çī©ä½ĵ": 7239,
      "è¯ĬæĸŃ": 7240,
      "(;),": 7241,
      "æĭ¿çł´ä»ĳ": 7242,
      "EP": 7243,
      "äºĨè¯¥": 7244,
      "åĩºèĩª": 7245,
      "åĩºåľº": 7246,
      "ä¸ŃåĽ½åĽ½æ°ĳåħļ": 7247,
      "çİ¯å½¢": 7248,
      "å§Ĩæĸ¯": 7249,
      "æī¹åĪ¤": 7250,
      "æĥħåĨµä¸ĭ": 7251,
      "ach": 7252,
      "az": 7253,
      "äººä¸İ": 7254,
      "æ£ļ": 7255,
      "æµģåĬ¨": 7256,
      "æĻ®æĭī": 7257,
      "è¾ĸåĮº": 7258,
      "æ»ĳéĽª": 7259,
      "çļĦåŃ¦çĶŁ": 7260,
      "åĪĨè§£": 7261,
      "çī©èµĦ": 7262,
      "å¦ĸ": 7263,
      "ç»ĪæŃ¢": 7264,
      "æħĪåĸĦ": 7265,
      "çļĦéĿ¢ç§¯ä¸º": 7266,
      "æīĩ": 7267,
      "è°£": 7268,
      "å±±åİ¿": 7269,
      "å±±é¡¶": 7270,
      "æ¡ĵ": 7271,
      "å´ĩç¥¯": 7272,
      "ç¿Įå¹´": 7273,
      "åĨ»": 7274,
      "èĳµ": 7275,
      "å§ĭç»Ī": 7276,
      "æłĩé¢ĺ": 7277,
      "gin": 7278,
      "çļĦåŁİå¸Ĥ": 7279,
      "è¿ĩæ¸¡": 7280,
      "ç¦§": 7281,
      "éĴ©": 7282,
      "äºĶåįģ": 7283,
      "è¿ĲåĬ¨çļĦ": 7284,
      "çĶ»éĿ¢": 7285,
      "mm": 7286,
      "ä¸īå¤§": 7287,
      "æĢ»å±Ģ": 7288,
      "åºķå±Ĥ": 7289,
      "ä¹ĭåĲİçļĦ": 7290,
      "å½¼æŃ¤": 7291,
      "ä¸ºæŃ¤": 7292,
      "åįĹæµ·": 7293,
      "çĪ¬": 7294,
      "è£´": 7295,
      "ç§ĺé²ģ": 7296,
      "äºİ2009å¹´": 7297,
      "æĸĮ": 7298,
      "æŁľ": 7299,
      "åħĥå¸ħ": 7300,
      "å§Ķåī¯ä¹¦è®°": 7301,
      "æ²³åı£": 7302,
      "é³Ħ": 7303,
      "ris": 7304,
      "åħ¥å¢ĥ": 7305,
      "èĤ¿": 7306,
      "æ¼Ĥ": 7307,
      "å¤§æ°Ķ": 7308,
      "å·¥åķĨ": 7309,
      "æĴĳ": 7310,
      "åħ¬éĩĮçļĦ": 7311,
      "çĶ»å®¶": 7312,
      "æ·±åħ¥": 7313,
      "ç¬¬ä¸īæ¬¡": 7314,
      "ä¸įå¾Ĺä¸į": 7315,
      "é»ĳé¾Ļæ±Łçľģ": 7316,
      "åħ¬å¯ĵ": 7317,
      "ä¸»æīĵ": 7318,
      "æľĢå¤ļçļĦ": 7319,
      "çĲĥè¿·": 7320,
      "åĽĽæľĪ": 7321,
      "æĶ¹ç§°": 7322,
      "æĹłè®º": 7323,
      "å±¡": 7324,
      "è¾±": 7325,
      "å¾·åħĭ": 7326,
      "éĨī": 7327,
      "ç§ĺä¹¦éķ¿": 7328,
      "ä¸Ńå¼ı": 7329,
      "åİĮ": 7330,
      "çĦļ": 7331,
      "æİ¨è¡Į": 7332,
      "åħ«æľĪ": 7333,
      "çĶŁæ´»åľ¨": 7334,
      "èĵĦ": 7335,
      "äºĨå¯¹": 7336,
      "å¤ļäºº": 7337,
      "çīĩæ®µ": 7338,
      "ç¦ıéŁ³": 7339,
      "éĺ³å¸Ĥ": 7340,
      "çªĥ": 7341,
      "æĵ¦": 7342,
      "æĸ°ç«¹": 7343,
      "æł¼å¼ı": 7344,
      "èĭıéĩĮ": 7345,
      "çªģåİ¥": 7346,
      "ä¼ĺåħĪ": 7347,
      "åħ±äº§ä¸»ä¹ī": 7348,
      "èģĤ": 7349,
      "çŃīå¾ħ": 7350,
      "æĽ²çĽ®": 7351,
      "åŃ£åĲİ": 7352,
      "ç¬¬äºĮä¸ª": 7353,
      "åį°è±¡": 7354,
      "çİ¯çĲĥ": 7355,
      "åį°åº¦æķĻ": 7356,
      "æ©Ļ": 7357,
      "è½¬çļĦå°ıè¡ĮæĺŁ": 7358,
      "ä¹ĭä¸Ń": 7359,
      "è¶³çĲĥèģĶèµĽ": 7360,
      "çĶ±äººå·¥": 7361,
      "å·¥ä½ľçļĦ": 7362,
      "æĪĲç«ĭäºĨ": 7363,
      "é¢ĦåĳĬ": 7364,
      "æĹŃ": 7365,
      "åıĳéŁ³": 7366,
      "åıĬåħ¶ä»ĸ": 7367,
      "æİ¥ä»»": 7368,
      "èģĮæ£Ĵ": 7369,
      "ç¦ıåĪ©": 7370,
      "1983å¹´": 7371,
      "åĥıæĺ¯": 7372,
      "ä½İæ°Ķåİĭ": 7373,
      "æıĲåĩºçļĦ": 7374,
      "ç¿°æŀĹ": 7375,
      "åĢŁçĶ±": 7376,
      "è¾ŀèģĮ": 7377,
      "äºĳåįĹçľģ": 7378,
      "äºİ2023å¹´": 7379,
      "ä¼ļéķ¿": 7380,
      "åĲįèªī": 7381,
      "ç³ķ": 7382,
      "å¾®è½¯": 7383,
      "çĥŃå¸¦æ°ĶæĹĭ": 7384,
      "ect": 7385,
      "ä¸»ä½ĵ": 7386,
      "åįĹç¾İæ´²": 7387,
      "æľºæŀª": 7388,
      "çĪ±çļĦ": 7389,
      "ç¬¼èįī": 7390,
      "åĪĨæĪĲ": 7391,
      "æľ¬åľ°åĮº": 7392,
      "è¿ĩäºİ": 7393,
      "è¯ºä¼Ĭ": 7394,
      "old": 7395,
      "åĪºæ¿Ģ": 7396,
      "èĳ£äºĭéķ¿": 7397,
      "çĮªç¬¼èįī": 7398,
      "åİĿ": 7399,
      "è´¿": 7400,
      "çĶµåĬ¨": 7401,
      "åı²èĴĤ": 7402,
      "æĪ¿éĹ´": 7403,
      "åµĮ": 7404,
      "å±±å¸Ĥ": 7405,
      "ç¾İåĽ½åĽ½å®¶": 7406,
      "æĹ©æľŁçļĦ": 7407,
      "çºº": 7408,
      "å¥³æ¼Ķåĳĺ": 7409,
      "ä¹¡æĿĳ": 7410,
      "éĢĤçĶ¨äºİ": 7411,
      "åħĭç½Ĺåľ°äºļ": 7412,
      "ç¼Ķ": 7413,
      "åĭ¾": 7414,
      "èº²": 7415,
      "ä¸ģåł¡": 7416,
      "ç½ķé»ĺ": 7417,
      "AL": 7418,
      "äºĨè¿Ļ": 7419,
      "åįĹæĸ¯æĭīå¤«": 7420,
      "ç«Ļä½įäºİ": 7421,
      "å¥½åıĭ": 7422,
      "é¥¥": 7423,
      "BL": 7424,
      "åĬłåĭĴ": 7425,
      "ç§°èµŀ": 7426,
      "åıĤè§Ĥ": 7427,
      "å¹³åĿĩæµ·æĭĶé«ĺåº¦ä¸º": 7428,
      "åħ¨çº¿": 7429,
      "é²Ī": 7430,
      "åıĳçİ°çļĦ": 7431,
      "é£ŀå¼¹": 7432,
      "Station": 7433,
      "æİ§èĤ¡": 7434,
      "åĨľåľº": 7435,
      "å¼Ĺæĭī": 7436,
      "ãĥ¼": 7437,
      "å·´åŁºæĸ¯åĿ¦": 7438,
      "ä¸ĭè½½": 7439,
      "åı°å¸ģ": 7440,
      "æķ°çĻ¾": 7441,
      "ä¸ĥæľĪ": 7442,
      "å¼Ĥå¸¸": 7443,
      "è´¢åĬ¡": 7444,
      "æĺı": 7445,
      "æĸ¹ç¨ĭ": 7446,
      "åĮĹéŁ©": 7447,
      "åºĵå°Ķ": 7448,
      "xt": 7449,
      "éģĹè¿¹": 7450,
      "Net": 7451,
      "rit": 7452,
      "ä¸ĢçĻ¾": 7453,
      "åĮºåĴĮ": 7454,
      "åĪĨçļĦ": 7455,
      "éķ¿åŃĲ": 7456,
      "åı¸æľº": 7457,
      "è£¸": 7458,
      "çģ«æĺŁ": 7459,
      "ä¹ĺåĿĲ": 7460,
      "è£Ķç¾İåĽ½": 7461,
      "RO": 7462,
      "Î±": 7463,
      "äºĨä¸ĢäºĽ": 7464,
      "æĸ¯éĩĮ": 7465,
      "æĿ¥å¾Ģ": 7466,
      "ä»£çļĦ": 7467,
      "éģĵçļĦ": 7468,
      "ç¾İåĽ½æµ·åĨĽ": 7469,
      "ç¥ŀåľ£": 7470,
      "åĸī": 7471,
      "å®£åĳĬ": 7472,
      "ä¿Ħäº¥": 7473,
      "ä¿Ħäº¥ä¿Ħ": 7474,
      "pro": 7475,
      "åĬłä»¥": 7476,
      "ç§ĳå¹»": 7477,
      "åģļä¸º": 7478,
      "çħ§é¡¾": 7479,
      "çĶ±äººå·¥å¼ķç§į": 7480,
      "7ä¸ª": 7481,
      "åį¡æ´Ľ": 7482,
      "åī§ä¸Ń": 7483,
      "æĿĥçļĦ": 7484,
      "è½¬ä»»": 7485,
      "du": 7486,
      "ä¸ĭæĸ¹": 7487,
      "åŃĲå¼¹": 7488,
      "çº¿åĴĮ": 7489,
      "è¿Ĳæ²³": 7490,
      "å±ĢçļĦ": 7491,
      "ç¼ĸåĨĻ": 7492,
      "èĲ¨æĭī": 7493,
      "åİĦå°Ķ": 7494,
      "å¥´éļ¶": 7495,
      "å»ºæľī": 7496,
      "å¸¸å§Ķä¼ļ": 7497,
      "æīĭæŀª": 7498,
      "å®£è¨Ģ": 7499,
      "åĬłåĪ©ç¦ıå°¼äºļå·ŀ": 7500,
      "åĮĸä¸º": 7501,
      "è¯ŃåĴĮ": 7502,
      "èİ±æĸ¯": 7503,
      "åĩºçİ°çļĦ": 7504,
      "Ste": 7505,
      "åŁºè¾ħ": 7506,
      "çĶµè§ĨåĬ¨çĶ»": 7507,
      "å¤©æ´¥å¸Ĥ": 7508,
      "EC": 7509,
      "å·´å¡ŀå°Ķ": 7510,
      "èįĥ": 7511,
      "èĻĲ": 7512,
      "ary": 7513,
      "å¤ľéĹ´": 7514,
      "éĵľçīĮ": 7515,
      "ç¤ºå¨ģèĢħ": 7516,
      "åİ¨": 7517,
      "é«ĺæŀ¶": 7518,
      "æ¶¡": 7519,
      "çºªå¿µç¢ĳ": 7520,
      "èĤ¯å®ļ": 7521,
      "ide": 7522,
      "çļĦèĥ½åĬĽ": 7523,
      "æĸĩæľ¬": 7524,
      "ç¥ŀç§ĺ": 7525,
      "æĭ¦": 7526,
      "çķľ": 7527,
      "åİŁåĪĽ": 7528,
      "æµģç»ı": 7529,
      "è°ĥèĬĤ": 7530,
      "71": 7531,
      "åħŃä¸ª": 7532,
      "åĿĲæłĩ": 7533,
      "æĶ¹ç¼ĸèĩª": 7534,
      "Mic": 7535,
      "æĶ¹åĲį": 7536,
      "UN": 7537,
      "åı£å¾Ħ": 7538,
      "éĩįç»Ħ": 7539,
      "çº§çļĦ": 7540,
      "åĽŀçŃĶ": 7541,
      "å®¢å®¶": 7542,
      "éľįå°Ķ": 7543,
      "å°±è¯»äºİ": 7544,
      "æľ¬å±Ĭ": 7545,
      "å±±åľ°": 7546,
      "åŁºéļĨ": 7547,
      "éĺµå®¹": 7548,
      "æ®ĭçĸ¾": 7549,
      "å¹¸åŃĺ": 7550,
      "å¥¥æĸ¯æĽ¼": 7551,
      "ME": 7552,
      "éķ¿å®ī": 7553,
      "125": 7554,
      "æŀģç«¯": 7555,
      "çĽ²": 7556,
      "èĢĮå¾Ĺ": 7557,
      "å¤ļåħĥ": 7558,
      "ç»´åĲ¾": 7559,
      "ä¾Ľå¥ī": 7560,
      "é»ĳäºº": 7561,
      "æĮīå¯Ł": 7562,
      "ç©Ĩç½ķé»ĺ": 7563,
      "åĽ½æľī": 7564,
      "åĩºäºİ": 7565,
      "æĮ¤": 7566,
      "ä¸īæ¬¡": 7567,
      "åħ³èģĶ": 7568,
      "åĪ¤æĸŃ": 7569,
      "ç´§å¼ł": 7570,
      "HK": 7571,
      "âĪ": 7572,
      "æĶĢ": 7573,
      "äºļåĨĽ": 7574,
      "åĸ»": 7575,
      "lat": 7576,
      "åĵĪæĭī": 7577,
      "åıĸå¾ĹäºĨ": 7578,
      "ä¸ºå¤§": 7579,
      "ä¸įåıĺ": 7580,
      "å²Ĳ": 7581,
      "åĪĻçĶ±": 7582,
      "çĹķ": 7583,
      "æ°Ķæ¸©": 7584,
      "åĵĪéĩĮ": 7585,
      "åĪ¶ä½ľäºº": 7586,
      "èĢ¶å¤«": 7587,
      "æķĮäºº": 7588,
      "ç©¿è¶Ĭ": 7589,
      "åī©ä½Ļ": 7590,
      "ç»´åĲ¾å°Ķ": 7591,
      "ä»¥å¤ĸçļĦ": 7592,
      "å¤ĸçķĮ": 7593,
      "æįī": 7594,
      "é»Ľ": 7595,
      "éħĭ": 7596,
      "çļĦå¤§åŀĭ": 7597,
      "çļĦå¤§éĥ¨åĪĨ": 7598,
      "çļĦä¸ĸçķĮ": 7599,
      "åĴĮä»ĸçļĦ": 7600,
      "æĢ»é¢Ŀ": 7601,
      "å¿ĥèĦı": 7602,
      "åħļç»Ħ": 7603,
      "éªı": 7604,
      "ç¼ĸç»Ħ": 7605,
      "æľĹå¾·": 7606,
      "ç²®é£Ł": 7607,
      "åĲĮæĢ§æģĭ": 7608,
      "He": 7609,
      "æ¬º": 7610,
      "éħ¿": 7611,
      "åĵĪåĪ©": 7612,
      "è¯įæ±ĩ": 7613,
      "ä¹Įåħĭåħ°çļĦ": 7614,
      "çĩĥçĥ§": 7615,
      "My": 7616,
      "cod": 7617,
      "çĶŁæķĪ": 7618,
      "æĸ°çķĮ": 7619,
      "æĮĩè´£": 7620,
      "åı¯ä»¥éĢļè¿ĩ": 7621,
      "å®¿èĪį": 7622,
      "è·¯æĺĵæĸ¯": 7623,
      "åŁł": 7624,
      "é¦ĸé¢Ĩ": 7625,
      "å·´å¸ĥ": 7626,
      "æį¢ä¹ĺ": 7627,
      "ohn": 7628,
      "åĴĮå¤§": 7629,
      "é¢Ĥ": 7630,
      "è¿Ľåı£": 7631,
      "çªģåĩ»": 7632,
      "åĨ²åĩ»": 7633,
      "çĲĨäºĭä¼ļ": 7634,
      "å°Ķå¤«": 7635,
      "ç«Ļåİħ": 7636,
      "æĺİå°¼": 7637,
      "çİĭå®¤": 7638,
      "å·´åħĭ": 7639,
      "ç½ĳä¸Ĭ": 7640,
      "æģĲé¾Ļ": 7641,
      "çļĦè¡Įä¸º": 7642,
      "ä¸īçĶ²": 7643,
      "1972å¹´": 7644,
      "ä¸´åºĬ": 7645,
      "1950å¹´": 7646,
      "ç³Ĭ": 7647,
      "å°±åľ¨": 7648,
      "å¥¥åħĭ": 7649,
      "çī©ç§įçļĦ": 7650,
      "Sch": 7651,
      "å¾Ĺç¥¨": 7652,
      "éħī": 7653,
      "å¸¸è§Ħ": 7654,
      "æĹłéĻĲ": 7655,
      "æĦıåĽ¾": 7656,
      "éĹ®é¢ĺçļĦ": 7657,
      "æĹĹå¸ľ": 7658,
      "çļĦå±±å³°": 7659,
      "çĶµæµģ": 7660,
      "å¡Į": 7661,
      "å¤ªéĥİ": 7662,
      "èĬĤå¥ı": 7663,
      "åŃĺåĤ¨": 7664,
      "çĭ¬çī¹çļĦ": 7665,
      "å¤ºåıĸ": 7666,
      "äºİ2008å¹´": 7667,
      "è¯¥æł¡": 7668,
      "å®ĪæĬ¤": 7669,
      "çĶŁäº§çļĦ": 7670,
      "æĹĭè½¬": 7671,
      "åįģå¤§": 7672,
      "è¾ĥå°ĳ": 7673,
      "çĶµå½±èĬĤ": 7674,
      "æ°¸è¿ľ": 7675,
      "çĶŁéķ¿äºİæµ·æĭĶ": 7676,
      "3000": 7677,
      "AK": 7678,
      "çļĦå¥³åĦ¿": 7679,
      "äººæīį": 7680,
      "æ³ª": 7681,
      "ç¬¬6": 7682,
      "å½¢çļĦ": 7683,
      "1942å¹´": 7684,
      "ä¸Ĭæĸ¹": 7685,
      "ä»»å¤©åłĤ": 7686,
      "è°¨": 7687,
      "ä¼łå¥ĩ": 7688,
      "èĻ¾": 7689,
      "å§Ķåĳĺä¼ļä¸»å¸Ń": 7690,
      "åĿĲèĲ½": 7691,
      "æĺĶ": 7692,
      "åŀ¦": 7693,
      "åħŃæľĪ": 7694,
      "è¶³èģĶ": 7695,
      "çļĨæľª": 7696,
      "ä¸Ģå¤©": 7697,
      "åĬłå·¥": 7698,
      "åĲİæĿ¥çļĦ": 7699,
      "ç±»åŀĭçļĦ": 7700,
      "...": 7701,
      "âĦ": 7702,
      "æĹ¶éĴĪ": 7703,
      "è½¦çļĦ": 7704,
      "ç¡®å®ŀ": 7705,
      "1979å¹´": 7706,
      "âĨĴ": 7707,
      "AI": 7708,
      "yn": 7709,
      "ä¸ĢæīĢ": 7710,
      "åħ¬çº¦": 7711,
      "åħīè°±": 7712,
      "æııåĨĻ": 7713,
      "èĪªç©ºåħ¬åı¸": 7714,
      "ä¸ºçĶ±": 7715,
      "æĪĮ": 7716,
      "åĮĹå¹³": 7717,
      "æķĻç§ĳ": 7718,
      "æĢ§æł¼": 7719,
      "äº§éĩı": 7720,
      "ä¿Ŀåį«": 7721,
      "æ¶ĪçģŃ": 7722,
      "èĻļæŀĦ": 7723,
      "ä¸ĭæĿ¥çļĦ": 7724,
      "åĽłåħ¶": 7725,
      "æŃ£ä¹ī": 7726,
      "çĳĻ": 7727,
      "äººç¾¤": 7728,
      "åĿĩæľī": 7729,
      "æĬĢèĥ½": 7730,
      "æ¸©å¸¦": 7731,
      "åĺīåºĨ": 7732,
      "åİŁæĿ¥": 7733,
      "é¦ĸä»»": 7734,
      "éĻĲäºİ": 7735,
      "åį¢çĵ¦": 7736,
      "åį°åº¦å°¼è¥¿äºļ": 7737,
      "ç±»ä¼¼äºİ": 7738,
      "åıĳçĶµåİĤ": 7739,
      "Lo": 7740,
      "éĥ¨éĥ¨éķ¿": 7741,
      "å¤©ä½¿": 7742,
      "éĩĳåĪļ": 7743,
      "ç®Ĺæ³ķ": 7744,
      "éĩĩçĶ¨äºĨ": 7745,
      "éĴ¢éĵģ": 7746,
      "1ä¾ĭ": 7747,
      "æĢ¨": 7748,
      "çº¤ç»´": 7749,
      "CP": 7750,
      "DNA": 7751,
      "çļĦåľ£": 7752,
      "åĽ½è¯Ń": 7753,
      "äºİ2024å¹´": 7754,
      "ä»¥å¾Ģ": 7755,
      "åĲįå½ķ": 7756,
      "è·ĭ": 7757,
      "çī¹åĭĴ": 7758,
      "åħ±è®¡": 7759,
      "çº³å°Ķ": 7760,
      "çªĿ": 7761,
      "çģµéŃĤ": 7762,
      "éĢıæĺİ": 7763,
      "æĶ¹åĪ¶ä¸º": 7764,
      "çļĦçĶŁæ´»": 7765,
      "åĵģç§į": 7766,
      "æĻļæľŁ": 7767,
      "ru": 7768,
      "åĽ½æĹĹ": 7769,
      "åįİåĮĹ": 7770,
      "éļıä¹ĭ": 7771,
      "æĤ¼": 7772,
      "è§£éĻ¤": 7773,
      "èı±": 7774,
      "ç¡®ç«ĭ": 7775,
      "1976å¹´": 7776,
      "by": 7777,
      "åĴĮäººåı£": 7778,
      "åħĭé²ģ": 7779,
      "æ¸¯éĵģ": 7780,
      "åĸĿ": 7781,
      "å¾Ģè¿Ķ": 7782,
      "FC": 7783,
      "æŃ¤å¤ĸ": 7784,
      "éĢīç¥¨": 7785,
      "åĲĳåĮĹ": 7786,
      "éĶħ": 7787,
      "è®¤çŁ¥": 7788,
      "æľ¯è¯Ń": 7789,
      "æ²¡æľīä»»ä½ķ": 7790,
      "éĢłæĪĲçļĦ": 7791,
      "äºİ2007å¹´": 7792,
      "åħĭéĩĮç±³äºļ": 7793,
      "æ²ŁéĢļ": 7794,
      "ä¸ŃæŃ£": 7795,
      "éĹ¹": 7796,
      "æĺİä»£": 7797,
      "åĶ¤": 7798,
      "ern": 7799,
      "170": 7800,
      "æķĪçİĩ": 7801,
      "èī¯å¥½": 7802,
      "æĲŃè½½": 7803,
      "900": 7804,
      "éĺľ": 7805,
      "åİŁä¸º": 7806,
      "é»ĳæļĹ": 7807,
      "é¸¦": 7808,
      "åŃĺåľ¨çļĦ": 7809,
      "åİ¿çļĦä¸Ģä¸ªè¡ĮæĶ¿": 7810,
      "åĽ½å®ī": 7811,
      "åľ°å¤Ħ": 7812,
      "å»ºåĽ½": 7813,
      "äºĭåıĺ": 7814,
      "çĽ¸è¾ĥ": 7815,
      "æŃ£æľĪ": 7816,
      "å®ŀåĬĽ": 7817,
      "ork": 7818,
      "å¼ºåĮĸ": 7819,
      "å¸ĿåĽ½çļĦ": 7820,
      "çĽĴ": 7821,
      "æīĵå¼Ģ": 7822,
      "âĢ§": 7823,
      "ç¥ŀç¤¾": 7824,
      "åħŃå¹´": 7825,
      "è¾ŀåİ»": 7826,
      "å°§": 7827,
      "ä¸Ģéĥ¨åĪĨ": 7828,
      "ä¸ĭçļĦä¸Ģä¸ª": 7829,
      "å£«åĿ¦": 7830,
      "æĶ¾éĢģ": 7831,
      "1980å¹´ä»£": 7832,
      "åĵįåºĶ": 7833,
      "æĬĹæĪĺ": 7834,
      "1939å¹´": 7835,
      "ign": 7836,
      "åľ¨è¥¿": 7837,
      "åĮª": 7838,
      "å¾·ç½Ĺ": 7839,
      "ä½ĵåĪ¶": 7840,
      "æµģæµª": 7841,
      "å¢ĥå¤ĸ": 7842,
      "éĽĨåĽ¢åĨĽ": 7843,
      "ç§ģç«ĭ": 7844,
      "ä¸Ģä»½": 7845,
      "å·¥åħļ": 7846,
      "ç§ŁçķĮ": 7847,
      "Lin": 7848,
      "åĽłåºĶ": 7849,
      "å¹²çº¿": 7850,
      "ä¿Ħç½Ĺæĸ¯çļĦ": 7851,
      "ç²ĴåŃĲ": 7852,
      "æįĲèµł": 7853,
      "iver": 7854,
      "è®¾åľ¨": 7855,
      "èģĶåĨĽ": 7856,
      "æ¯įèĪ°": 7857,
      "å·¡éĢ»": 7858,
      "éĹ´è°į": 7859,
      "äºĮæ¬¡": 7860,
      "çĥĤ": 7861,
      "åħĪåīį": 7862,
      "åıĳå±ķçļĦ": 7863,
      "ä¸»æķĻç»ĥ": 7864,
      "èķĥ": 7865,
      "å°Ĭéĩį": 7866,
      "çŃīçļĦ": 7867,
      "éĺŁåĳĺ": 7868,
      "ç»ĵæĿŁåĲİ": 7869,
      "é¦ĸæī¹": 7870,
      "åı°æ¹¾çļĦ": 7871,
      "æĥ³æ³ķ": 7872,
      "æĺĨæĺİ": 7873,
      "æ§Ł": 7874,
      "æĢİ": 7875,
      "ç¼Ģ": 7876,
      "æ®·": 7877,
      "èĮİ": 7878,
      "ç²¾çģµ": 7879,
      "å¸ķå°Ķ": 7880,
      "åĤ¨åŃĺ": 7881,
      "å»¶ä¼¸èĩ³": 7882,
      "éĺŁåľ¨": 7883,
      "åĬĽåŃ¦": 7884,
      "è½¬åıĺ": 7885,
      "å¼ºå¤§çļĦ": 7886,
      "ä¼¯æł¼": 7887,
      "è¿ªäºļ": 7888,
      "èĽĻ": 7889,
      "3åı·": 7890,
      "åĬ¾": 7891,
      "ä¸ŃæĸŃ": 7892,
      "æ°ĳæĶ¿": 7893,
      "ãĢį;": 7894,
      "è¿ĩåº¦": 7895,
      "æ³¢çī¹": 7896,
      "æĺ¥ç§ĭ": 7897,
      "12æľĪ31æĹ¥": 7898,
      "çº·çº·": 7899,
      "//": 7900,
      "è¯Ī": 7901,
      "åħ¬ç¤¾": 7902,
      "ä¸ĭåĪĹ": 7903,
      "åĬ¨æĢģ": 7904,
      "èĥ½åľ¨": 7905,
      "éĺ²å®Ī": 7906,
      "ET": 7907,
      "æľīçĿĢ": 7908,
      "åıĳè¾¾": 7909,
      "ç®¡æİ§": 7910,
      "åĲĽå£«åĿ¦": 7911,
      "çļĦé©¬": 7912,
      "åľ°ä¸Ĭ": 7913,
      "ä»ĸä¸º": 7914,
      "è¢«åıĳçİ°": 7915,
      "éķ¿æĺ¥": 7916,
      "éĴł": 7917,
      "åķĨäºº": 7918,
      "èı©": 7919,
      "å°ģéĹŃ": 7920,
      "ç¬¬10": 7921,
      "èĢĮåľ¨": 7922,
      "æĽ´æĺ¯": 7923,
      "å¼ºçļĦ": 7924,
      "å¥ĸæľĢä½³": 7925,
      "åı¦ä¸Ģç§į": 7926,
      "å¾®åįļ": 7927,
      "ational": 7928,
      "çļĦåĨħå®¹": 7929,
      "æľīåı¯èĥ½": 7930,
      "éĹ¯": 7931,
      "æ¬¡æķ°": 7932,
      "å¢ĥåĨħçļĦ": 7933,
      "èĽ®": 7934,
      "MO": 7935,
      "åħĭéĽ·": 7936,
      "åıĤè®®åĳĺ": 7937,
      "åĲĳéĩı": 7938,
      "åħµåĬĽ": 7939,
      "å°ģéĶģ": 7940,
      "09": 7941,
      "ä½£": 7942,
      "ä¸ºæľŁ": 7943,
      "ä¸Ĭæ¸¸": 7944,
      "åħ¬å¼ı": 7945,
      "æ³¨åħ¥": 7946,
      "è¡¨çİ°åĩº": 7947,
      "å¸ĥæĶ¿": 7948,
      "é¦ĸå°Ķ": 7949,
      "æĺŁçļĦ": 7950,
      "æ³¢å£«é¡¿": 7951,
      "ä¹ĿæľĪ": 7952,
      "çľĭè§ģ": 7953,
      "1943å¹´": 7954,
      "ä»¥æŃ¤": 7955,
      "æł¼æĭīæĸ¯": 7956,
      "åŀ£": 7957,
      "åıĹåĪ°äºĨ": 7958,
      "ä¸ĵç§ĳ": 7959,
      "ä¸ĵæ³¨": 7960,
      "æľŁåĪĬ": 7961,
      "ç¦¾": 7962,
      "çĦ°": 7963,
      "åıĤæ¼Ķ": 7964,
      "çĤ¹æĺ¯": 7965,
      "ina": 7966,
      "ick": 7967,
      "éĩİçĶŁ": 7968,
      "èī®": 7969,
      "åħ¨ä¸ĸçķĮ": 7970,
      "ä¿ĥä½¿": 7971,
      "å°¼æ³Ĭ": 7972,
      "è°ĥä»»": 7973,
      "åİĭç¼©": 7974,
      "æĺ¯ä¸Ģåº§": 7975,
      "å·¡æĬļ": 7976,
      "éŀį": 7977,
      "éĿŀå»ºåĪ¶åľ°åĮº": 7978,
      "éĺĢ": 7979,
      "å¤ªåĲİ": 7980,
      "éļıæľº": 7981,
      "éĤ£æł·": 7982,
      "è®¾è®¡å¸Ī": 7983,
      "æıĲä¾ĽçļĦ": 7984,
      "åŁİå¸ĤçļĦ": 7985,
      "ç²¾ç¡®": 7986,
      "åı³ç¿¼": 7987,
      "èĭį": 7988,
      "å¼ĢæĴŃ": 7989,
      "ç½Ĺè®·": 7990,
      "è¯ºæĸ¯": 7991,
      "æŀģä¸º": 7992,
      "éĽħåħ¸": 7993,
      "èĤ¡ä¸ľ": 7994,
      "å®ľåħ°": 7995,
      "æľīä¸¤ä¸ª": 7996,
      "çŃīäºİ": 7997,
      "æ¶¨": 7998,
      "åĮ»å¸Ī": 7999,
      "ish": 8000,
      "æĹ¶åĪ»": 8001,
      "è·¯å¾Ħ": 8002,
      "åİ¿åŁİ": 8003,
      "ç»ĵè®º": 8004,
      "åı¤å¸ĮèħĬ": 8005,
      "å·¥ä½ľäººåĳĺ": 8006,
      "åħįçĸ«": 8007,
      "è¶ĭåĬ¿": 8008,
      "æĺ¯ç¾İåĽ½": 8009,
      "ä»ĸäºº": 8010,
      "ä½ĵæĵį": 8011,
      "çķı": 8012,
      "åĪĿæŃ¥": 8013,
      "æ´ªæ°´": 8014,
      "åıĻè¿°": 8015,
      "å¤©æĸĩåŃ¦å®¶": 8016,
      "è¿Ļé¡¹": 8017,
      "äºĭåĲİ": 8018,
      "æ´»åĬ¨çļĦ": 8019,
      "åĬłåħ¥ä¸ŃåĽ½åħ±äº§åħļ": 8020,
      "èį£èİ·": 8021,
      "ä¸Ńä»¥": 8022,
      "å¤§çĲĨ": 8023,
      "åīįéĶĭ": 8024,
      "é«ĺæł¡": 8025,
      "å®ļçĲĨ": 8026,
      "æ¬¡åĪĹè½¦": 8027,
      "æĦŁæĥħ": 8028,
      "æīĢåľ¨åľ°": 8029,
      "å§Ĭå¦¹": 8030,
      "åľ¨ä¸Ģä¸ª": 8031,
      "ä¸įä½³": 8032,
      "åıĳèĤ²": 8033,
      "åĬ¨åĳĺ": 8034,
      "æľĢéĩįè¦ģçļĦ": 8035,
      "å¤©åĲİ": 8036,
      "ç¼Ĩ": 8037,
      "å±ĢåĬ¿": 8038,
      "æĬĢå·§": 8039,
      "çĭ¬çī¹": 8040,
      "èĢĥåħ¥": 8041,
      "è®¨ä¼Ĳ": 8042,
      "æĪªæŃ¢": 8043,
      "age": 8044,
      "les": 8045,
      "èĥĢ": 8046,
      "å°ıå§Ĳ": 8047,
      "éĢīæĭĶ": 8048,
      "åĸĻ": 8049,
      "å§Ķåĳĺä¼ļçļĦ": 8050,
      "å½Ĵç±»": 8051,
      "act": 8052,
      "æĭľåįł": 8053,
      "å±¯éĹ¨": 8054,
      "ä¼ļç¤¾": 8055,
      "èĩªä¸»": 8056,
      "å¤©åºľ": 8057,
      "èĭıå·ŀ": 8058,
      "ç¦»å©ļ": 8059,
      "åĶ®ç¥¨": 8060,
      "æĹ¥æĬ¥": 8061,
      "åĩºåľŁ": 8062,
      "åħ¬ç«ĭ": 8063,
      "ãĢĭ()": 8064,
      "å¹¶ä¸įæĺ¯": 8065,
      "åĨĽæĸ¹": 8066,
      "ä¸ļä½Ļ": 8067,
      "éĤ¹": 8068,
      "å¤ĦåĨ³": 8069,
      "çİĩåĨĽ": 8070,
      "çħĮ": 8071,
      "å½¢æĪĲçļĦ": 8072,
      "èµĭäºĪ": 8073,
      "åĴı": 8074,
      "ä¸ľåĮº": 8075,
      "éĺ¿å¯Įæ±Ĺ": 8076,
      "åº§åłĤ": 8077,
      "æĪ·éĥ¨": 8078,
      "äººå¤§å¸¸å§Ķä¼ļ": 8079,
      "èŀºæĹĭ": 8080,
      "éĻ¨çŁ³åĿĳ": 8081,
      "âĦĥ": 8082,
      "ron": 8083,
      "åľ¨ä¸Ĭæµ·": 8084,
      "ç¼¸": 8085,
      "åĨ³çŃĸ": 8086,
      "ä»ĸä»¬åľ¨": 8087,
      "ames": 8088,
      "ass": 8089,
      "CN": 8090,
      "åİŁæľī": 8091,
      "çľŁæŃ£çļĦ": 8092,
      "ton": 8093,
      "ç»ıè´¹": 8094,
      "æĢ»ç»ıçĲĨ": 8095,
      "æ°´æ·±": 8096,
      "æĶ¹èī¯": 8097,
      "127": 8098,
      "å¤ªå®Ī": 8099,
      "è§Ħæł¼": 8100,
      "å¼ĢåıĳçļĦ": 8101,
      "åĲ¦åĪĻ": 8102,
      "TO": 8103,
      "åŃļ": 8104,
      "åİŁçĲĨ": 8105,
      "é¦Ļæ¸¯çļĦ": 8106,
      "è§ĤéŁ³": 8107,
      "å¤±è¸ª": 8108,
      "èĭ±åĽ½çļĦ": 8109,
      "æ£®åł¡": 8110,
      "çĨĶ": 8111,
      "åĺīå®¾": 8112,
      "1958å¹´": 8113,
      "éĤ®å±Ģ": 8114,
      "01": 8115,
      "æĪĺç»©": 8116,
      "èİİçĻ½": 8117,
      "åĩºèµĽ": 8118,
      "èĢĮéĿŀ": 8119,
      "åĳĺå¤ĸ": 8120,
      "åı¯éĿł": 8121,
      "éĺ¿åŁº": 8122,
      "å·´å«©": 8123,
      "èİ·å¥ĸ": 8124,
      "ere": 8125,
      "æ½ľåľ¨": 8126,
      "éĽķåĥı": 8127,
      "\").": 8128,
      "ä¹ĲåĽŃ": 8129,
      "éĽĨçļĦ": 8130,
      "åĽ¾æ¡Ī": 8131,
      "çļĦéģĵè·¯": 8132,
      "è¢ľ": 8133,
      "ç¬¬åįģäºĮ": 8134,
      "åĨĽäºº": 8135,
      "å¤ļä¼¦": 8136,
      "åĬłæĸ¯": 8137,
      "ç±»åĪ«": 8138,
      "éĴ§": 8139,
      "ç¦ıå°Ķ": 8140,
      "é¹¦": 8141,
      "1968å¹´": 8142,
      "æľĢé«ĺæ³ķéĻ¢": 8143,
      "é¢Ŀå¤ĸ": 8144,
      "èŁ¹": 8145,
      "æĹ¥çļĦ": 8146,
      "èĢĮéĹ»": 8147,
      "é«ĺå±Ĥ": 8148,
      "å¨ģå°¼æĸ¯": 8149,
      "ogle": 8150,
      "æ°ŁåĮĸ": 8151,
      "PlayStation": 8152,
      "çļĦæĪĲç»©": 8153,
      "æĭ¯": 8154,
      "ä»»æĦı": 8155,
      "å¾·æĸ¯": 8156,
      "æĽ¾è¢«": 8157,
      "éĽĨç»ĵ": 8158,
      "ä¼łéĢĴ": 8159,
      "åıĺæĽ´": 8160,
      "1990å¹´ä»£": 8161,
      "èĪªç«Ļ": 8162,
      "ä¾¦å¯Ł": 8163,
      "èı²åĪ©æĻ®": 8164,
      "é¢Į": 8165,
      "å½ĵä½ľ": 8166,
      "å®īå¦®": 8167,
      "181": 8168,
      "1947å¹´": 8169,
      "é»İå·´å«©": 8170,
      "äºİ2006å¹´": 8171,
      "ä¸ŃåİŁ": 8172,
      "éĥ½ä¸į": 8173,
      "åı¤è¿¹": 8174,
      "æŃ»åĲİ": 8175,
      "æĲľç´¢": 8176,
      "æĪĺåĽ½": 8177,
      "æķ°ä¸º": 8178,
      "å¤ªåİŁ": 8179,
      "éĿ¢ç§¯åĴĮäººåı£": 8180,
      "è§Ĥèµı": 8181,
      "æ¸©æ³ī": 8182,
      "çªģåĩº": 8183,
      "æĴ¤ç¦»": 8184,
      "åĵº": 8185,
      "åı¯åīįå¾Ģ": 8186,
      "105": 8187,
      "å¦ĤåĲĮ": 8188,
      "ç¡ħ": 8189,
      "ç½®äºİ": 8190,
      "ç¡¬å¸ģ": 8191,
      "å¤§å®¶": 8192,
      "å£¬": 8193,
      "éĺŁåıĭ": 8194,
      "äº¤åĵį": 8195,
      "è§Ĥå¿µ": 8196,
      "éºĵ": 8197,
      "æĲŃéħį": 8198,
      "ium": 8199,
      "pen": 8200,
      "åľ¨ä»ĸ": 8201,
      "æĪİ": 8202,
      "ä¸īåĲį": 8203,
      "åĽĽåįģ": 8204,
      "ä¿¡ä»»": 8205,
      "æİĴéĻ¤": 8206,
      "è´Ńçī©": 8207,
      "åº¸": 8208,
      "ç¥·": 8209,
      "ç«Ļèĩ³": 8210,
      "ä¸¤åº§": 8211,
      "äººè¢«": 8212,
      "è¿Ļé¢Ĺ": 8213,
      "å¹³æĪĲ": 8214,
      "åıªè¦ģ": 8215,
      "è¾ĥå¤§çļĦ": 8216,
      "æĶ¯æĮģèĢħ": 8217,
      "And": 8218,
      "éĴĵé±¼": 8219,
      "ð¬": 8220,
      "æŃ¼": 8221,
      "åĨħäºļ": 8222,
      "æķĻå¾Ĵ": 8223,
      "ä¼łè¾ĵ": 8224,
      "æĳĺ": 8225,
      "éĺ²åį«": 8226,
      "èĿĻ": 8227,
      "è¯´æľį": 8228,
      "175": 8229,
      "æĹ¶éĹ´çļĦ": 8230,
      "åĲĪå¹¶ä¸º": 8231,
      "æĭľåįłåºŃ": 8232,
      "ä¸¢": 8233,
      "ä¸ºè¯¥": 8234,
      "åľ°åľ¨": 8235,
      "åĪĨä¹ĭ": 8236,
      "åĲĳä¸ľ": 8237,
      "æĸĩåĮĸçļĦ": 8238,
      "æĸĩåĮĸå¤§éĿ©åĳ½": 8239,
      "ä¾ĿéĿł": 8240,
      "åģļæ³ķ": 8241,
      "é¡ºæĹ¶éĴĪ": 8242,
      "æĦıè¯ĨåĪ°": 8243,
      "åĨ¢": 8244,
      "åĪĴåħ¥": 8245,
      "1981å¹´": 8246,
      "çŃĸåĪĴ": 8247,
      "æĹłçº¿çĶµ": 8248,
      "èĿĻèĿł": 8249,
      "æĺ¯æĹ¥æľ¬": 8250,
      "æĹ¥çĽĬ": 8251,
      "è´¦": 8252,
      "åĲįåı«": 8253,
      "åĪĨäº«": 8254,
      "è¢«åĪĹä¸º": 8255,
      "ç¾İä¸½": 8256,
      "è°ķ": 8257,
      "çº¦åħĭ": 8258,
      "åĲĳåįĹ": 8259,
      "å°±æľī": 8260,
      "ç¬¬ä¸ĢçĻ¾": 8261,
      "çļĦä¸Ģæ¬¡": 8262,
      "ç½ĳåıĭ": 8263,
      "æ¨¡ä»¿": 8264,
      "ä¹Ŀå·ŀ": 8265,
      "å©ļç¤¼": 8266,
      "ç´¯ç§¯": 8267,
      "å¸ĪèĮĥå¤§åŃ¦": 8268,
      "Ad": 8269,
      "è¿Ļåľº": 8270,
      "å¤©æĸĩåŃ¦": 8271,
      "è®©ä»ĸ": 8272,
      "112": 8273,
      "æ°Ľ": 8274,
      "ä¹ĭå¤Ħ": 8275,
      "å¥³ç¥ŀ": 8276,
      "æ»ŀ": 8277,
      "å¡ŀæĭľ": 8278,
      "çĥŃéĹ¨": 8279,
      "è¯»èĢħ": 8280,
      "èĲ¨æĸ¯å·ŀ": 8281,
      "ç§ī": 8282,
      "åħ¶ä½Ļ": 8283,
      "æĸ¹ç¨ĭå¼ı": 8284,
      "è¿ĺåĮħæĭ¬": 8285,
      "åħ¶ä»ĸçļĦ": 8286,
      "éĺ³åİ¿": 8287,
      "åĥļ": 8288,
      "å®Įæķ´çļĦ": 8289,
      "é»ı": 8290,
      "åıĤè§ģ": 8291,
      "æ²Ļæ¼ł": 8292,
      "å¤ıå¨ģ": 8293,
      "å¯ºéĻ¢": 8294,
      "è®¯æģ¯": 8295,
      "å¹¿æ³ĽçļĦ": 8296,
      "Google": 8297,
      "ä¸Ģåı·": 8298,
      "æ±¶": 8299,
      "éĵĿ": 8300,
      "æķ°åįĥ": 8301,
      "åİŁåŀĭ": 8302,
      "é¦ĸå¼ł": 8303,
      "åĶĩ": 8304,
      "æĸĩåĮĸéģĹäº§": 8305,
      "å¼Ĺåħ°": 8306,
      "è¡Ģæ¶²": 8307,
      "91": 8308,
      "åħ°å·ŀ": 8309,
      "åĿĩåľ¨": 8310,
      "éħįä¹Ĳ": 8311,
      "æ²¿çĶ¨": 8312,
      "ä¼ĳæģ¯": 8313,
      "æ¯«æĹł": 8314,
      "æµģåŁŁéĿ¢ç§¯": 8315,
      ".âĢľ": 8316,
      "åľ¨ä½į": 8317,
      "äººæĸĩ": 8318,
      "éķ¶": 8319,
      "åı°ä¸ľ": 8320,
      "åĲĳè¥¿": 8321,
      "åį³ä½į": 8322,
      "æĿĥå¨ģ": 8323,
      "æĿ°åĩº": 8324,
      "åłµ": 8325,
      "çłĶç©¶ä¸Ńå¿ĥ": 8326,
      "MI": 8327,
      "ä¿±": 8328,
      "åĬ¨å·¥": 8329,
      "ä¹Łæ²¡æľī": 8330,
      "å±±åı£": 8331,
      "è¿Ĳç®Ĺ": 8332,
      "æĿ¡çĽ®": 8333,
      "è§ģåĪ°": 8334,
      "åĬ©äºİ": 8335,
      "çİ¯ä¿Ŀ": 8336,
      "è¡ĮæĶ¿ä¸Ńå¿ĥ": 8337,
      "1940å¹´": 8338,
      "åı¬éĽĨ": 8339,
      "åĨ°å·Ŀ": 8340,
      "çļĦä¸»é¢ĺ": 8341,
      "å¹»æĥ³": 8342,
      "åľ°åŁŁ": 8343,
      "æĿ¥çľĭ": 8344,
      "èĩªç§°": 8345,
      "èĭ±è¶ħ": 8346,
      "æ°´ä¸Ĭ": 8347,
      "å½±è¯Ħ": 8348,
      "ä¹īåĬ¡": 8349,
      "æİ¢è®¨": 8350,
      "oft": 8351,
      "æĺİæĺ¾çļĦ": 8352,
      "èĬĤåº¦ä½¿": 8353,
      "åĵŃ": 8354,
      "åħ°åį¡": 8355,
      "åī¯æĢ»ç»Ł": 8356,
      "æ¾İ": 8357,
      "round": 8358,
      "å°¸ä½ĵ": 8359,
      "DA": 8360,
      "çļĦæīĭ": 8361,
      "åľ°åĿĢ": 8362,
      "å¤ļä¸º": 8363,
      "åıĤæķ°": 8364,
      "ä¸ĵåĪ©": 8365,
      "éĿĴæµ·": 8366,
      "äºİ191": 8367,
      "è´¹å°Ķ": 8368,
      "æ¢ħå°Ķ": 8369,
      "çī©çĲĨåŃ¦": 8370,
      "08": 8371,
      "ç¬¬8": 8372,
      "åĽŀåĽ½": 8373,
      "åĽ½å®¶å®īåħ¨": 8374,
      "çīĻé½¿": 8375,
      "1978å¹´": 8376,
      "äºĪä»¥": 8377,
      "åŁºçĿ£å¾Ĵ": 8378,
      "åĲįé¢Ŀ": 8379,
      "ç¬¬7": 8380,
      "éĢłåŀĭ": 8381,
      "ç»Īèº«": 8382,
      "ä¸ĥå¹´": 8383,
      "å®£å¸ĥå°Ĩ": 8384,
      "çģµæĦŁ": 8385,
      "()ãĢģ": 8386,
      "ty": 8387,
      "åĵ©": 8388,
      "åĲĮåŃ¦": 8389,
      "ä¸īçº§": 8390,
      "ä½ĵç§¯": 8391,
      "åĪ¶è£ģ": 8392,
      "æĮĩä»¤": 8393,
      "æ±īåł¡": 8394,
      "ros": 8395,
      "åħħåĪĨ": 8396,
      "ä¾µçĬ¯": 8397,
      "\"(": 8398,
      "GB": 8399,
      "Mus": 8400,
      "åĲĵ": 8401,
      "éĵħ": 8402,
      "æĢ»åı¸ä»¤": 8403,
      "æīĵéĢł": 8404,
      "è´Ŀæł¼": 8405,
      "åĩłå¹´": 8406,
      "åıĭè°Ĭ": 8407,
      "å¯ºåºĻ": 8408,
      "åĪłéĻ¤": 8409,
      "èĥĥ": 8410,
      "æĸ°äºº": 8411,
      "æĹıçļĦ": 8412,
      "çĪ±å¥½": 8413,
      "æ¦´": 8414,
      "III": 8415,
      "ç½ķè§ģ": 8416,
      "ä¸Ńä¹¦": 8417,
      "åŃĲåħ¬åı¸": 8418,
      "ä¹¦æ³ķ": 8419,
      "1960å¹´": 8420,
      "ung": 8421,
      "06": 8422,
      "Col": 8423,
      "ç¬¬11": 8424,
      "å¤©ä½ĵ": 8425,
      "çĭĲ": 8426,
      "ä¹łè¿ĳ": 8427,
      "èĢ¶å°Ķ": 8428,
      "1938å¹´": 8429,
      "ä¼įå¾·": 8430,
      "æĦıåĳ³çĿĢ": 8431,
      "ä¸ºé¦ĸ": 8432,
      "çīº": 8433,
      "æ³ķåŃ¦": 8434,
      "åĨĽå§Ķ": 8435,
      "æĽ´æĶ¹": 8436,
      "ä¹Ŀå¹´": 8437,
      "æĪĲåĬŁçļĦ": 8438,
      "äºİ188": 8439,
      "æ¸ħåįİå¤§åŃ¦": 8440,
      "Bo": 8441,
      "my": 8442,
      "ä¸ĬåįĬ": 8443,
      "æĸ°è¥¿åħ°": 8444,
      "å¹³å®ī": 8445,
      "çº§è¡ĮæĶ¿": 8446,
      "æ¢Ń": 8447,
      "åĵĪå¾·": 8448,
      "åľŁå£¤": 8449,
      "é¡ºæ²»": 8450,
      "èĪªç«Ļæ¥¼": 8451,
      "å¤ıå¨ģå¤·": 8452,
      "æĪļ": 8453,
      "çĻ¸": 8454,
      "ç±³èĩ³": 8455,
      "BO": 8456,
      "åīįçº¿": 8457,
      "èĤ¾": 8458,
      "éŁ³èĬĤ": 8459,
      "åľ£è¯ŀ": 8460,
      "éĺµèĲ¥": 8461,
      "å´ĩæĭľ": 8462,
      "å¤§è¿ŀ": 8463,
      "æķ°ä¸ª": 8464,
      "éĺ¿å§Ĩ": 8465,
      "èģĮè´£": 8466,
      "çĶµè§ĨèĬĤçĽ®": 8467,
      "æĽ¼èģĶ": 8468,
      "1964å¹´": 8469,
      "æ²¿çº¿": 8470,
      "æŁĲç§į": 8471,
      "èĩĢé³į": 8472,
      "å¤§æī¹": 8473,
      "åĨĽèĪ°": 8474,
      "éĩĮæĺĤ": 8475,
      "éĢłèĪ¹": 8476,
      "çĳļ": 8477,
      "145": 8478,
      "åŃĺåľ¨äºİ": 8479,
      "åħ¬åħ±äº¤éĢļ": 8480,
      "è·¨è¶Ĭ": 8481,
      "æ¢¦æĥ³": 8482,
      "æľīçº¿": 8483,
      "æĸ¯åĽ¾": 8484,
      "ä»»åĨħ": 8485,
      "éĶ¥": 8486,
      "åıįæĬĹ": 8487,
      "ond": 8488,
      "ç¼ĸåħ¥": 8489,
      "è½¬ä¹ĺ": 8490,
      "ä¸ĸçķĮéģĹäº§": 8491,
      "çļĦå¼Ģ": 8492,
      "ç«Ļæĺ¯": 8493,
      "åįİä¸º": 8494,
      "çĶ·ä¸»è§Ĵ": 8495,
      "çªĳ": 8496,
      "1952å¹´": 8497,
      "èĭ¥å¹²": 8498,
      "æĪĪå°Ķ": 8499,
      "é£ŀè¡Įåĳĺ": 8500,
      "çļĦç¤¾ä¼ļ": 8501,
      "ä¸ĭæ¸¸": 8502,
      "çŃīçŃī": 8503,
      "æ¸¯åħĥ": 8504,
      "ç®¡åĪ¶": 8505,
      "çłĶåĪ¶": 8506,
      "ä¼¯åĪ©äºļ": 8507,
      "æĹĹä¸ĭçļĦ": 8508,
      "å·¡æ¼Ķ": 8509,
      "è¡¥ç»Ļ": 8510,
      "éŀŃ": 8511,
      "7æľĪ1æĹ¥": 8512,
      "ç«ĭå§Ķ": 8513,
      "è¯Ħå®¡": 8514,
      "é¢ĳç¹ģ": 8515,
      "åı«åģļ": 8516,
      "çļĦåı¯èĥ½": 8517,
      "å®ļä½į": 8518,
      "èĭ±å¯¸": 8519,
      "åħ¸åŀĭ": 8520,
      "çīºçī²": 8521,
      "AV": 8522,
      "çļĦåħ¨": 8523,
      "åį¯": 8524,
      "è¡Įè½¦": 8525,
      "è¿Ļåº§": 8526,
      "æĻ®åıĬ": 8527,
      "æĬķæīĭ": 8528,
      "136": 8529,
      "æĺĨèĻ«": 8530,
      "ä¹łè¿ĳå¹³": 8531,
      "CC": 8532,
      "ile": 8533,
      "ä¸ºé£Ł": 8534,
      "å¹³å®ļ": 8535,
      "é«ĺå±±": 8536,
      "é£İæĻ¯": 8537,
      "å®Įç¾İ": 8538,
      "èĲ¥åħ»": 8539,
      "åŁºæľ¬ä¸Ĭ": 8540,
      "åīįæĿ¥": 8541,
      "å¾ĹåĪĨ": 8542,
      "æĹıèĩªæ²»": 8543,
      "åŃ£èĬĤ": 8544,
      "æ¹ĸå¹¿": 8545,
      "æį·è¿Ĳ": 8546,
      "åŃ¦åłĤ": 8547,
      "ä¸Ĭå°Ĩ": 8548,
      "æĥĳ": 8549,
      "äº¤ä»ĺ": 8550,
      "ence": 8551,
      "æ´Ľçī¹": 8552,
      "æ´Ľéĺ³": 8553,
      "enter": 8554,
      "ãĢīãĢģ": 8555,
      "è¾½å®ģçľģ": 8556,
      "åı¤èĢģçļĦ": 8557,
      "çķ´": 8558,
      "åĲĪçĲĨ": 8559,
      "ä¹ĲåĻ¨": 8560,
      "æľºåĻ¨äºº": 8561,
      "ier": 8562,
      "ps": 8563,
      "åĴĮç¤¾ä¼ļ": 8564,
      "åħ¶åľ¨": 8565,
      "æ¸Ĺ": 8566,
      "å®¶å±ŀ": 8567,
      "çĶ±æŃ¤": 8568,
      "æŃ¤åĲİ": 8569,
      "ç¦¹": 8570,
      "å½±å±ķ": 8571,
      "æıĲçĲ´": 8572,
      "è§ģäºİ": 8573,
      "æķ´çĲĨ": 8574,
      "ä¸ĸçºªçļĦ": 8575,
      "iss": 8576,
      "éĢĥç¦»": 8577,
      "æĵħéķ¿": 8578,
      "å°¼æ³Ĭå°Ķ": 8579,
      "SO": 8580,
      "éĻ¢æł¡": 8581,
      "åĽ¢çļĦ": 8582,
      "1500": 8583,
      "æĹ¶éĹ´ä¸º": 8584,
      "1970å¹´": 8585,
      "1975å¹´": 8586,
      "è¡¥åĬ©": 8587,
      "æĻĭåįĩ": 8588,
      "åıĳå¸ĥäºĨ": 8589,
      "åĲ¬åĪ°": 8590,
      "èµ¤çº¬": 8591,
      "ç»´åŁºçĻ¾ç§ĳ": 8592,
      "Mo": 8593,
      "ä¸Ģäºº": 8594,
      "è¯¥çīĩ": 8595,
      "é¾Ļç§ĳ": 8596,
      "ç½ĳæ°ĳ": 8597,
      "è¡ĮæĶ¿éķ¿å®ĺ": 8598,
      "äº¤æĺĵæīĢ": 8599,
      "å±ıä¸ľ": 8600,
      "æĹ¥è¯Ń": 8601,
      "éĺĲ": 8602,
      "åĳ¨æľ«": 8603,
      "ä¹Įé²ģ": 8604,
      "çİ¯ç»ķ": 8605,
      "æł¼åħ°çī¹": 8606,
      "STAT": 8607,
      "IG": 8608,
      "land": 8609,
      "åĪ©å¥¥": 8610,
      "éģĵæŃī": 8611,
      "å·´æĸ¯": 8612,
      "åĨľåİĨ": 8613,
      "æĻºåĪ©": 8614,
      "äºĭå®ŀä¸Ĭ": 8615,
      "å·¡åĽŀèµĽ": 8616,
      "ç²¤è¯Ń": 8617,
      "å½°åĮĸ": 8618,
      "é¢ģå¥ĸåħ¸ç¤¼": 8619,
      "çļĦç¬¬ä¸ī": 8620,
      "éĺ¿å°Ķå·´": 8621,
      "ä¿ĺèĻı": 8622,
      "New": 8623,
      "æ¯ĹéĤ»": 8624,
      "ude": 8625,
      "çļĦæ¦Ĥå¿µ": 8626,
      "ä¸Ńèİ·å¾Ĺ": 8627,
      "æĸ¯å¤§": 8628,
      "åİ¿æ²»": 8629,
      "æ¹Ľ": 8630,
      "éĩĳéĹ¨": 8631,
      "æ·Ģ": 8632,
      "å¯ĨèĭıéĩĮ": 8633,
      "è¯ºè´Ŀå°Ķ": 8634,
      "æĶ»åħ¥": 8635,
      "èŃ¦åĳĺ": 8636,
      "éĽ¶åĶ®": 8637,
      "éĽįæŃ£": 8638,
      "æĻ®æŀĹ": 8639,
      "orld": 8640,
      "åĽ¾å½¢": 8641,
      "çīĪçļĦ": 8642,
      "çģ«çĤ®": 8643,
      "è¿½æº¯åĪ°": 8644,
      "07": 8645,
      "Tr": 8646,
      "wit": 8647,
      "ä¸Ģèĩ³": 8648,
      "äººç§°": 8649,
      "äººæ°Ķ": 8650,
      "çī¢": 8651,
      "å¯¹æ¯Ķ": 8652,
      "äºļç§ĳ": 8653,
      "çŁ¥åİ¿": 8654,
      "æīĵè´¥": 8655,
      "æĭħå½ĵ": 8656,
      "èī°": 8657,
      "é¥²": 8658,
      "1956å¹´": 8659,
      "å¹¿å·ŀå¸Ĥ": 8660,
      "å±Ĭåħ¨åĽ½æĶ¿åįı": 8661,
      "æ¨¡çī¹åĦ¿": 8662,
      "02": 8663,
      "çļĦè¥¿": 8664,
      "åĮ¿": 8665,
      "æĺ¯å¯¹": 8666,
      "å¤§åĲĮ": 8667,
      "æľīå¤ļ": 8668,
      "åĩ°": 8669,
      "ä»»ä¸Ńåħ±": 8670,
      "æ±Łè¥¿çľģ": 8671,
      "ä¿¡çĶ¨": 8672,
      "åįļå£«åŃ¦ä½į": 8673,
      "ä½ľæĽ²å®¶": 8674,
      "èĴ¸æ±½": 8675,
      "å¤§å¸Ŀ": 8676,
      "è¯¥åħļ": 8677,
      "ä½ĵéĩį": 8678,
      "èİ±æĺĤ": 8679,
      "ä»ħä»ħ": 8680,
      "èµĶåģ¿": 8681,
      "For": 8682,
      "ä¸ĢéĹ´": 8683,
      "ä¸ŃæĹ¬": 8684,
      "æİ·": 8685,
      "çī¹éĽ·": 8686,
      "æĸ°åı°å¸ģ": 8687,
      "è¿Ľå±ķ": 8688,
      "éħ¬": 8689,
      "éª¸": 8690,
      "å¤įåĪ¶": 8691,
      "é£ŁæĢ§": 8692,
      "å®«å»·": 8693,
      "åĿĲæłĩä¸º": 8694,
      "è¯¢éĹ®": 8695,
      "æĪĺåĪĹèĪ°": 8696,
      "åħ±è¯Ĩ": 8697,
      "éĩįä¿®": 8698,
      "çĽ´è¾ĸ": 8699,
      "é¢Ħå®ļ": 8700,
      "èĪªç©ºæ¯įèĪ°": 8701,
      "åħ¬å¸ĥä¸º": 8702,
      "è¾£": 8703,
      "å°Ĩä»ĸ": 8704,
      "åİŁå®ļ": 8705,
      "éª¤": 8706,
      "å±Ģéĥ¨": 8707,
      "çĵ¦åħ¹": 8708,
      "è£ģå®ļ": 8709,
      "ç§ĭåŃ£": 8710,
      "AG": 8711,
      "TE": 8712,
      "æĪĲåĪĨ": 8713,
      "å¯¹ä»ĸ": 8714,
      "æĽ´å¤§çļĦ": 8715,
      "çĵ£": 8716,
      "176": 8717,
      "å·¦æ´¾": 8718,
      "æĻļéĹ´": 8719,
      "æľīåħ³çļĦ": 8720,
      "æĭĽåĭŁ": 8721,
      "CH": 8722,
      "çļĦèº«ä»½": 8723,
      "ä»¥2": 8724,
      "ä¸įçŁ¥": 8725,
      "çľī": 8726,
      "æ±ķ": 8727,
      "æĭīçļĦ": 8728,
      "æĢ»ä¹¦è®°": 8729,
      "éľĸ": 8730,
      "å¸¦æĿ¥çļĦ": 8731,
      "è´ŁéĿ¢": 8732,
      "å±Ĭåħ¨åĽ½äººæ°ĳä»£è¡¨å¤§ä¼ļ": 8733,
      "æľĢè¿ĳçļĦ": 8734,
      "Ma": 8735,
      "Ð°": 8736,
      "è¿Ħ": 8737,
      "çºĤ": 8738,
      "æľīä¸¤": 8739,
      "åī¿": 8740,
      "éĩĮåħĭ": 8741,
      "ç«ĭä½ĵ": 8742,
      "éĢļè¡Į": 8743,
      "ç³»çļĦ": 8744,
      "æĶ¯çĲĥéĺŁ": 8745,
      "åĨ³äºİ": 8746,
      "çļĦä¸Ģé¡¹": 8747,
      "å¤įæ´»": 8748,
      "çľŁäºº": 8749,
      "1936å¹´": 8750,
      "ä¹ĭåīįçļĦ": 8751,
      "åįģäºĮæľĪ": 8752,
      "è¯¸å¤ļ": 8753,
      "æľĢåĪĿçļĦ": 8754,
      "ä¸»æĮģäºº": 8755,
      "åĲīæŀĹçľģ": 8756,
      "æľ¬è´¨": 8757,
      "æŃ£ç»Ł": 8758,
      "åĲīä»ĸ": 8759,
      "çģ«è½¦ç«Ļ": 8760,
      "æĪĺäºīçļĦ": 8761,
      "æĽ¿æį¢": 8762,
      "own": 8763,
      "we": 8764,
      "çĶµè·¯": 8765,
      "è¯¥åħ¬åı¸": 8766,
      "æŁ¬": 8767,
      "åŁİåİ¿": 8768,
      "å¨¥": 8769,
      "äº¤çĶ±": 8770,
      "æĻ®äº¬": 8771,
      "å»ºçŃĳéĿ¢ç§¯": 8772,
      "çº½çº¦å·ŀ": 8773,
      "5000": 8774,
      "çīŁ": 8775,
      "ä¾Ħ": 8776,
      "æĢ»ç«Ļ": 8777,
      "æ²Ļçī¹": 8778,
      "çĶ²æĿ¿": 8779,
      "ä¹łä¿Ĺ": 8780,
      "æĪĺäºīä¸Ń": 8781,
      "éĢļå¸¸æĺ¯": 8782,
      "å¯¡": 8783,
      "åĲĦåľ°çļĦ": 8784,
      "åĪĿçº§": 8785,
      "åĪĨåĪ«æĺ¯": 8786,
      "è½¯æĿ¡": 8787,
      "å¹´è½»çļĦ": 8788,
      "Ex": 8789,
      "Wh": 8790,
      "net": 8791,
      "çļĦæľĢé«ĺ": 8792,
      "åĲĮå¿Ĺ": 8793,
      "åį³åı¯": 8794,
      "ical": 8795,
      "æģĲæĥ§": 8796,
      "å¹¿æĴŃåħ¬åı¸": 8797,
      "çģ¾éļ¾": 8798,
      "åĽ½åħ±": 8799,
      "å¸¸ä½ı": 8800,
      "ç¦ıçī¹": 8801,
      "ç¬¬äºĮè½®": 8802,
      "é¢Ħéĺ²": 8803,
      "æĹ§éĩĳå±±": 8804,
      "åħ¨åĽ½éĩįçĤ¹": 8805,
      "24å°ıæĹ¶": 8806,
      "åĸľçĪ±": 8807,
      "æĭ¯æķĳ": 8808,
      "3D": 8809,
      "BBC": 8810,
      "å¼Ģä¸ļ": 8811,
      "é©°": 8812,
      "ä¹ŁåĽłæŃ¤": 8813,
      "æ²»å®ī": 8814,
      "æŃ£è§Ħ": 8815,
      "å½±ä¸ļ": 8816,
      "æŃ¢äºİ": 8817,
      "çļĦåĽĽ": 8818,
      "èµ¦": 8819,
      "ä¸įè¯¦": 8820,
      "åħĭåĬ³": 8821,
      "åĩ»ä¸Ń": 8822,
      "å·Ŀåİ¿": 8823,
      "çĽĳç®¡": 8824,
      "é¹ī": 8825,
      "æĹ¶å¸¸": 8826,
      "é²¶": 8827,
      "çĭ©": 8828,
      "åĢĻè½¦": 8829,
      "åĽ½æ°ĳéĿ©åĳ½": 8830,
      "è¡Ģç»Ł": 8831,
      "è¯Ħè®ºå®¶": 8832,
      "çļĦç»Ŀå¯¹": 8833,
      "äºĨä¸¤": 8834,
      "æ³ķåĨĽ": 8835,
      "æľŁæľĽ": 8836,
      "åĪĹå®ģ": 8837,
      "èº«ä¸Ĭ": 8838,
      "æ¸ħçľŁ": 8839,
      "1966å¹´": 8840,
      "å·®è·Ŀ": 8841,
      "åĬłåĭĴæ¯Ķ": 8842,
      "çļĦç»ıæµİ": 8843,
      "å¾·å·Ŀ": 8844,
      "å®īç½®": 8845,
      "å¹³æĸ¹ç±³": 8846,
      "ite": 8847,
      "åĪĨç»Ħ": 8848,
      "åħĭå°Ķ": 8849,
      "éħ°": 8850,
      "åıįå°Ħ": 8851,
      "çĶµå½±çļĦ": 8852,
      "ç¼ĵæħ¢": 8853,
      "åĵºä¹³": 8854,
      "åľ¨åĮĹ": 8855,
      "æ±ģ": 8856,
      "åīįæĸ¹": 8857,
      "æĪĺè½¦": 8858,
      "åħīåŃ¦": 8859,
      "å¾Īéļ¾": 8860,
      "æ·±åĪ»": 8861,
      "å¹²é¢Ħ": 8862,
      "é©»æīİ": 8863,
      "1954å¹´": 8864,
      "è¿ģå¾Ģ": 8865,
      "æ½ľæ°´": 8866,
      "äº«æľī": 8867,
      "æĺ¯æľī": 8868,
      "èĥ°": 8869,
      "ä»£åı·": 8870,
      "äºļå½ĵ": 8871,
      "ä¹Łåı¯": 8872,
      "è½¦äººæ¬¡": 8873,
      "10ä¸ª": 8874,
      "æ·³": 8875,
      "æł¡åıĭ": 8876,
      "ory": 8877,
      "èĭıè¾¾": 8878,
      "çĭ¬èĩª": 8879,
      "å£°ä¼ĺ": 8880,
      "è¡Ĺå¤´": 8881,
      "æĿĢäºº": 8882,
      "è¿ľä¸ľ": 8883,
      "æĸ¯éĩĮåħ°åį¡": 8884,
      "Ser": 8885,
      "äººçĶŁ": 8886,
      "åĬłé¾Ļ": 8887,
      "æĮĩçļĦæĺ¯": 8888,
      "æ»´": 8889,
      "æ³ķå®ļ": 8890,
      "æµ·åħ³": 8891,
      "åİ¿æĶ¿åºľ": 8892,
      "å¹¿ä¹ī": 8893,
      "äººæ°ĳæ³ķéĻ¢": 8894,
      "å¤įåĲĪ": 8895,
      "çİĩåħĪ": 8896,
      "çīĪæľ¬çļĦ": 8897,
      "åīĳæ¡¥": 8898,
      "èħĵçī¹": 8899,
      "%;": 8900,
      "çļĦå¤ļ": 8901,
      "ä¸ĢèģĮ": 8902,
      "ä¸ŃçŃī": 8903,
      "åĴĮç¾İåĽ½": 8904,
      "æĭīå¤ļ": 8905,
      "æĢ»ä½ĵ": 8906,
      "æĽ¾ä¸º": 8907,
      "ä¸ĩå¹´": 8908,
      "å¨ģå°Ķæĸ¯": 8909,
      "æľĢåĲİçļĦ": 8910,
      "åŃĻä¸Ńå±±": 8911,
      "æ£ĢéªĮ": 8912,
      "çº½çº¦å¸Ĥ": 8913,
      "pr": 8914,
      "åĲĹ": 8915,
      "åĨħçĳŀ": 8916,
      "çĶµä¿¡": 8917,
      "å¢ħ": 8918,
      "æ°´åĪ©": 8919,
      "å°±è¢«": 8920,
      "è½¬æĴŃ": 8921,
      "æīĵè¿Ľ": 8922,
      "æĤŁ": 8923,
      "å¹²æī°": 8924,
      "æ°ĳæĹıä¸»ä¹ī": 8925,
      "èĳ¬äºİ": 8926,
      "ç½¢å·¥": 8927,
      "è½¬ç§»åĪ°": 8928,
      "1åı·çº¿": 8929,
      "å®ļå¾ĭ": 8930,
      "å·´é©¬": 8931,
      "æĹıäºº": 8932,
      "ä¼Ĭå°Ķ": 8933,
      "æĶ¾ç½®": 8934,
      "åı°æ¹¾çľģ": 8935,
      "æ¤Ĵ": 8936,
      "è¿ľå¾ģ": 8937,
      "å¤ºåĨł": 8938,
      "å¹¿æĴŃçĶµåı°": 8939,
      "èµ·æºĲäºİ": 8940,
      "èħĵçī¹çĥĪ": 8941,
      "af": 8942,
      "ä»¥åħ¶": 8943,
      "æĪĲåĮĸ": 8944,
      "æľ¬å±ŀ": 8945,
      "åħĭåĪ©": 8946,
      "æŃ¤åīį": 8947,
      "èµĽèīĩ": 8948,
      "æķ°åĢ¼": 8949,
      "éĩįçļĦ": 8950,
      "å§ĶåĨħçĳŀ": 8951,
      "åŃ¦æł¡çļĦ": 8952,
      "æľĢåĲİä¸Ģæ¬¡": 8953,
      "åĳĺå¤ĸéĥİ": 8954,
      "ost": 8955,
      "åĲİåį«": 8956,
      "æµ·æ°´": 8957,
      "æīĢå¾Ĺ": 8958,
      "ä¸īä½į": 8959,
      "ä½ĵåŀĭ": 8960,
      "éĤ¸": 8961,
      "è¯´æĺ¯": 8962,
      "ç¥ŀçĪ¶": 8963,
      "èĬ±èİ²": 8964,
      "æ¸¸æĪıä¸Ń": 8965,
      "åħ¸åŀĭçļĦ": 8966,
      "ä»ĭçŁ³": 8967,
      "åĭĥèī®": 8968,
      "ä¸Ģæĸ¹": 8969,
      "åĩºæĿ¥çļĦ": 8970,
      "æŀ«": 8971,
      "ä½ľè¯į": 8972,
      "éĩĮç¨ĭ": 8973,
      "å§Ķå¸¸å§Ķ": 8974,
      "ç¬¬ä¸Ģæī¹": 8975,
      "æ¸ħæ°´": 8976,
      "çŁŃçīĩ": 8977,
      "çĩ¥": 8978,
      "åĶ±çīĩåħ¬åı¸": 8979,
      "æĭĺæįķ": 8980,
      "çļĦåħ¶ä»ĸ": 8981,
      "å°±ä»»": 8982,
      "çģ«åĬĽ": 8983,
      "å¯Įå£«": 8984,
      "å°ģéĿ¢": 8985,
      "åİĤåķĨ": 8986,
      "åħ¬åĬ¡åĳĺ": 8987,
      "IA": 8988,
      "ä¸ĭæĹ¬": 8989,
      "åįĹå®ĭ": 8990,
      "æĶ¿æ²»å±Ģ": 8991,
      "ç»ĩçĶ°": 8992,
      "ç¹ģå¿Ļ": 8993,
      "é¹¦é¹ī": 8994,
      "Car": 8995,
      "ä¹Ĵ": 8996,
      "æĪĲçļĦ": 8997,
      "ç½Ĳ": 8998,
      "éĥ½åı¯ä»¥": 8999,
      "éħ±": 9000,
      "éħµ": 9001,
      "è¾ĥå¤§": 9002,
      "ç²¾èĭ±": 9003,
      "ä¾µçķ¥": 9004,
      "å§Ĳå¦¹": 9005,
      "è¯ŀçĶŁ": 9006,
      "åĽļçĬ¯": 9007,
      "è¢«éĢīä¸º": 9008,
      "åĮĹçº¦": 9009,
      "æŃ£æĺ¯": 9010,
      "å¾Īå¤§çļĦ": 9011,
      "ç§»æ¤į": 9012,
      "èįīåİŁ": 9013,
      "å«¡": 9014,
      "ç®ĢåįķçļĦ": 9015,
      "Bl": 9016,
      "Ã¡": 9017,
      "çļĦè¯´æ³ķ": 9018,
      "ç»ħ": 9019,
      "å°¼æĹ¥": 9020,
      "åĲĦé¡¹": 9021,
      "åıĸåĨ³äºİ": 9022,
      "å¥ĸåĬ±": 9023,
      "å§ĵæ°ı": 9024,
      "çī§å¸Ī": 9025,
      "çıĬçĳļ": 9026,
      "æĦ¤æĢĴ": 9027,
      "04": 9028,
      "åĬ¨è¯į": 9029,
      "æľĢæľī": 9030,
      "è½¦èº«": 9031,
      "ç«ĭæ³ķéĻ¢": 9032,
      "ä¸ĸçļĦ": 9033,
      "èĲ¤": 9034,
      "æ¬¡æĹ¥": 9035,
      "åľºåĲĪ": 9036,
      "è¾¾å°¼": 9037,
      "é¦ĸæĺł": 9038,
      "ç¬¬äºĮåŃ£": 9039,
      "è¯ĹæŃĮ": 9040,
      "åĪĬçĻ»": 9041,
      "åĩ¤åĩ°": 9042,
      "åĢºåĬ¡": 9043,
      "ä¸Ĭä¸Ģ": 9044,
      "çİĭä½į": 9045,
      "æĽ¾æĭħä»»": 9046,
      "åĪĴåĪĨ": 9047,
      "åĸĬ": 9048,
      "é¥±": 9049,
      "çĽĳç¦ģ": 9050,
      "åĶĲä»£": 9051,
      "è¡Ģç®¡": 9052,
      "å°¼åı¤æĭī": 9053,
      "äºĭå®ľ": 9054,
      "é©¬åĬĽ": 9055,
      "åħ±äº«": 9056,
      "æĮĩæłĩ": 9057,
      "ç»Īç»ĵ": 9058,
      "æĺ¯ä¸Ģéĥ¨": 9059,
      "åĪ¶éĢłåķĨ": 9060,
      "çļĦçī¹å¾ģ": 9061,
      "ç¨ĭåº¦ä¸Ĭ": 9062,
      "èĴĭä»ĭçŁ³": 9063,
      "SAO": 9064,
      "è´«åĽ°": 9065,
      "åıĳè¨Ģäºº": 9066,
      "çļĦæľī": 9067,
      "æĶ¿å§Ķ": 9068,
      "å¤ļå¤«": 9069,
      "æĶ¹ç»Ħ": 9070,
      "çŃ¾è¯ģ": 9071,
      "ae": 9072,
      "ool": 9073,
      "åľ¨æ³ķåĽ½": 9074,
      "æĸ°ä¸Ģ": 9075,
      "é«ĺå³°": 9076,
      "æľºåĬ¨": 9077,
      "éĻįéĽ¨éĩı": 9078,
      "03": 9079,
      "CR": 9080,
      "SM": 9081,
      "çļĦæłĩåĩĨ": 9082,
      "äºĨåħ¶": 9083,
      "äº§çī©": 9084,
      "å·²åľ¨": 9085,
      "æĬ¤çħ§": 9086,
      "åĬŁçİĩ": 9087,
      "åįĬå¾Ħ": 9088,
      "æĳ©æīĺ": 9089,
      "æįŁå®³": 9090,
      "æµªæ¼«": 9091,
      "å¤įæĿĤçļĦ": 9092,
      "cc": 9093,
      "è¿Ļæ®µ": 9094,
      "æĢ»æĺ¯": 9095,
      "åįİä¸ľ": 9096,
      "åĭī": 9097,
      "å®ĥæĺ¯": 9098,
      "å¼¹åĬ¾": 9099,
      "1973å¹´": 9100,
      "åĲ¯åıĳ": 9101,
      "æ¸Ĳæ¸Ĳ": 9102,
      "æĪĳä»¬çļĦ": 9103,
      "ç¾İæľ¯é¦Ĩ": 9104,
      "é«ĺéĽĦå¸Ĥ": 9105,
      "çļĦè¡¨çİ°": 9106,
      "æ³Į": 9107,
      "ä¸įåıĹ": 9108,
      "è¶³ä»¥": 9109,
      "æł·æľ¬": 9110,
      "åĩłåĨħäºļ": 9111,
      "èĪĨè®º": 9112,
      "æĹ¶è¢«": 9113,
      "æ°ĳåħļ": 9114,
      "ä»£è°¢": 9115,
      "åħĥå¹´": 9116,
      "å¥¥å¾·": 9117,
      "å¸¦èĳĹ": 9118,
      "åĭĴæĸ¯": 9119,
      "ä¼Ĺäºº": 9120,
      "illi": 9121,
      "çīĽæ´¥": 9122,
      "ä»ĺè´¹": 9123,
      "ç¹ģèį£": 9124,
      "å¼ĺæ²»": 9125,
      "äººä½ĵ": 9126,
      "åĲİæīį": 9127,
      "éĩĮéĿ¢": 9128,
      "åŁİéĻħ": 9129,
      "è½¬åŀĭ": 9130,
      "åĬŀæ³ķ": 9131,
      "å¡ĶåŁº": 9132,
      "çħ®": 9133,
      "ä¿Ħç½Ĺæĸ¯èģĶéĤ¦": 9134,
      "span": 9135,
      "è¤Ĵ": 9136,
      "ç¬ĥ": 9137,
      "çº³æĸ¯": 9138,
      "æ¦ľåįķ": 9139,
      "åı¦ä¸Ģæĸ¹éĿ¢": 9140,
      "åĮĸåŃ¦å¼ı": 9141,
      "Î²": 9142,
      "çļĦåľ°åĮº": 9143,
      "å¤§æŃ£": 9144,
      "éĹµ": 9145,
      "ä¸įèī¯": 9146,
      "èī²æĥħ": 9147,
      "æľĢé«ĺçĤ¹": 9148,
      "äººç±»çļĦ": 9149,
      "æĲŃæ¡£": 9150,
      "é¡ºæĹ¶éĴĪä¸İ": 9151,
      "sc": 9152,
      "åĮĹå®ĭ": 9153,
      "å®īæīĵ": 9154,
      "éĥ½æ²¡æľī": 9155,
      "åĩ»éĢĢ": 9156,
      "1955å¹´": 9157,
      "éª¨éª": 9158,
      "æŁĲä¸ª": 9159,
      "äºİ2005å¹´": 9160,
      "åİŁåĽłæĺ¯": 9161,
      "çļĦéĿŀ": 9162,
      "å²ĳ": 9163,
      "çłį": 9164,
      "å¥¥åı¤": 9165,
      "æĶ¯æĴĳ": 9166,
      "æĵ¢": 9167,
      "çļĦåīįèº«": 9168,
      "åĴĴ": 9169,
      "æĹ¶ä¼ļ": 9170,
      "åĪ¶å¤ĩ": 9171,
      "æĽ¾ä»£è¡¨": 9172,
      "ä¹Įæĸ¯": 9173,
      "æī§æ³ķ": 9174,
      "å®«æ®¿": 9175,
      "è¶ħçº§èģĶèµĽ": 9176,
      "æ³ķå°Ķ": 9177,
      "æ³ķè§Ħ": 9178,
      "èį«": 9179,
      "çĽ´å±ŀ": 9180,
      "åºĶå½ĵ": 9181,
      "çĳ¶": 9182,
      "ä¾¿æĺ¯": 9183,
      "è¯Ĺäºº": 9184,
      "æĸ¹åĲĳçļĦ": 9185,
      "æļĹç¤º": 9186,
      "åĭĥèī®ç¬¬": 9187,
      "ux": 9188,
      "çļĦåıĮ": 9189,
      "ä½ľçī©": 9190,
      "çĶµåİĭ": 9191,
      "ç§ĳçłĶ": 9192,
      "çŁ³åĻ¨": 9193,
      "åľ£æ®¿": 9194,
      "æ´ĭåŁº": 9195,
      "ä¸ģçĽ®": 9196,
      "å¾ĴåĪĳ": 9197,
      "ä¿Ħäº¥ä¿Ħå·ŀ": 9198,
      "9ä¸ª": 9199,
      "B1900": 9200,
      "ä¸ľé£İ": 9201,
      "æµ·çĽĹ": 9202,
      "æ¯Ķ2": 9203,
      "æĶ¿åºľåľ¨": 9204,
      "åĲĦå¤§": 9205,
      "å¼ķå¯¼": 9206,
      "éĵ¶çº¬": 9207,
      "çĶµåŃĲæ¸¸æĪı": 9208,
      "çļĦçī¹æľī": 9209,
      "æĸ°å¢ŀæľ¬åľŁ": 9210,
      "Ge": 9211,
      "çŃĭ": 9212,
      "åı¤å±ĭ": 9213,
      "æĶ¾å°Ħ": 9214,
      "åĩıå¼±": 9215,
      "ä¼ĬåĪ©è¯ºä¼Ĭ": 9216,
      "éª¨éª¼": 9217,
      "æĭīå§Ĩ": 9218,
      "ç½Ĺå§Ĩ": 9219,
      "åĳ¨æģ©": 9220,
      "éŃħ": 9221,
      "éĢģå¾Ģ": 9222,
      "åĭĩå£«": 9223,
      "ä¹ŀ": 9224,
      "å¥ķ": 9225,
      "çĶŁçĲĨ": 9226,
      "ãĢĭ(),": 9227,
      "åĬłçĥŃ": 9228,
      "æŃ¤ç±»": 9229,
      "å¢©": 9230,
      "åŀĥ": 9231,
      "18ä¸ĸçºª": 9232,
      "é²·": 9233,
      "å±Ĥä¸º": 9234,
      "2019åĨłçĬ¶çĹħæ¯Ĵ": 9235,
      "SH": 9236,
      "ä¸ĢåįĬ": 9237,
      "äºİ189": 9238,
      "ä¿ŀ": 9239,
      "çī¹å®ļçļĦ": 9240,
      "å¾·åĪ©": 9241,
      "çĪ¸": 9242,
      "æıĲæ¡Ī": 9243,
      "åĪĻè¢«": 9244,
      "æ´Ľä¼Ĭ": 9245,
      "ï¼İ": 9246,
      "å°ĳæķ°æ°ĳæĹı": 9247,
      "book": 9248,
      "èĤĮèĤī": 9249,
      "æĸ°åĮĹå¸Ĥ": 9250,
      "La": 9251,
      "ç§°åħ¶": 9252,
      "ç§°åı·": 9253,
      "12ä¸ª": 9254,
      "ä¿¡å¥ī": 9255,
      "å¯Ĩè¥¿": 9256,
      "ç®ĢåĮĸ": 9257,
      "ãĥ³": 9258,
      "æ²īç§¯": 9259,
      "åİĺç±³": 9260,
      "æĩ¿": 9261,
      "éĴ»çŁ³": 9262,
      "çļĦéĩĳ": 9263,
      "çŁ¢": 9264,
      "1935å¹´": 9265,
      "éħ¸çĽĲ": 9266,
      "åĩºçĶŁåľ¨": 9267,
      "åĲ¦åĨ³": 9268,
      "å¸ĥæĭīæł¼": 9269,
      "åįĹæŀģæĿ¡çº¦": 9270,
      "éĢ¢æĺŁæľŁ": 9271,
      "åĮºè®®ä¼ļéĢīä¸¾": 9272,
      "çļĦåĪĨ": 9273,
      "éĥ¨åī¯": 9274,
      "é«ĺéĵģ": 9275,
      "èµ·çĤ¹": 9276,
      "lar": 9277,
      "ale": 9278,
      "æ³½è¥¿": 9279,
      "åĪĳéĥ¨": 9280,
      "èĳ£äºĭä¼ļ": 9281,
      "åıĤè°ĭéķ¿": 9282,
      "æĺİå°¼èĭıè¾¾": 9283,
      "å¤ļä¼¦å¤ļ": 9284,
      "çļĦä¼łç»Ł": 9285,
      "å¤§å°ĨåĨĽ": 9286,
      "æĻ·": 9287,
      "åįİåįĹ": 9288,
      "è´Łè´£äºº": 9289,
      "ç»Łæ²»èĢħ": 9290,
      "æĻ¶ä½ĵ": 9291,
      "è´·æ¬¾": 9292,
      "Qu": 9293,
      "çļĦæ¸¸æĪı": 9294,
      "å¤§åİħ": 9295,
      "åĴĮä¸Ń": 9296,
      "å½¬": 9297,
      "åħ¬ç½²": 9298,
      "æīĢè¾ĸ": 9299,
      "æľ¨åĦ¿": 9300,
      "è´¢å¯Į": 9301,
      "ä¸ºä¸»é¢ĺ": 9302,
      "å¦Īç¥ĸ": 9303,
      "ç«ĸ": 9304,
      "ä¸Ĭæł¡": 9305,
      "ä¸ĸä»£": 9306,
      "å¸ĥåĪĹ": 9307,
      "ãģ®": 9308,
      "åĲıéĥ¨": 9309,
      "ä½Ľç½ĹéĩĮè¾¾å·ŀ": 9310,
      "ll": 9311,
      "åľ¾": 9312,
      "å½Ĺ": 9313,
      "ä¸»ç¼ĸ": 9314,
      "ä½ĵçİ°": 9315,
      "æĶ¯çº¿": 9316,
      "ç¬¬ä¸Ģéĥ¨": 9317,
      "èİ±åĿŀ": 9318,
      "ç©¿èĳĹ": 9319,
      "ãĢīãĢģãĢĪ": 9320,
      "åŀĥåľ¾": 9321,
      "æ¯ıæ¬¡": 9322,
      "èĪ°èīĩ": 9323,
      "ä¸Ńå¤®å§Ķåĳĺä¼ļ": 9324,
      "rom": 9325,
      "åĨ²ç»³": 9326,
      "ç£ħ": 9327,
      "åºĻå®ĩ": 9328,
      "ime": 9329,
      "é¥ŃåºĹ": 9330,
      "æĸ¯æ´Ľä¼Ĳåħĭ": 9331,
      "çļĦä»£è¡¨": 9332,
      "çļĦå»ºçŃĳ": 9333,
      "å¾·åħ°": 9334,
      "108": 9335,
      "éĺ¿åĪĹ": 9336,
      "æµģäº¡": 9337,
      "å¼ºè¿«": 9338,
      "ä¹Įæĭī": 9339,
      "æŀģéĻĲ": 9340,
      "é¢ĦæľŁ": 9341,
      "èľ¥": 9342,
      "åı°åįĹå¸Ĥ": 9343,
      "å®°çĽ¸": 9344,
      "åıĹå®³èĢħ": 9345,
      "ä¹¡éķĩçº§è¡ĮæĶ¿": 9346,
      "å¡ŀæĭľçĸĨ": 9347,
      "ä½ľçļĦ": 9348,
      "åħ³ä¸ľ": 9349,
      "éĺ¿å¸ĥ": 9350,
      "åĳ½åĲįçļĦ": 9351,
      "åħ«å¹´": 9352,
      "æ³°å°Ķ": 9353,
      "ä¾ĿæĹ§": 9354,
      "éħĴç²¾": 9355,
      "å§Ĳå§Ĳ": 9356,
      "çĭ®åŃĲ": 9357,
      "åĤ¬åĮĸ": 9358,
      "DR": 9359,
      "çļĦåĨħ": 9360,
      "ç¬¬9": 9361,
      "é¢Ĩè¡Ķ": 9362,
      "å¤ªå®Ĺ": 9363,
      "æĿĥçĽĬ": 9364,
      "ç¼ĸåĪ¶": 9365,
      "æ³¢éŁ³": 9366,
      "åįļå°Ķ": 9367,
      "å°Ħåħ¥": 9368,
      "æİ¥åıĹäºĨ": 9369,
      "å½ķéŁ³å®¤": 9370,
      "å¤©çĦ¶æ°Ķ": 9371,
      "çī©æµ¦": 9372,
      "èµĽä¸Ń": 9373,
      "æİĴçĲĥ": 9374,
      "éĤ£ä¸ª": 9375,
      "æ¶ĪéĻ¤": 9376,
      "æĺ¥åŃ£": 9377,
      "æļ´åĬ¨": 9378,
      "æ··åĩĿ": 9379,
      "æ´ªæŃ¦": 9380,
      "å¹³è¡Į": 9381,
      "æĺİçļĦ": 9382,
      "åĪĹæĸ¯": 9383,
      "åĲĦçº§": 9384,
      "1967å¹´": 9385,
      "ä¸»æķĻåº§åłĤ": 9386,
      "ç¨³å®ļçļĦ": 9387,
      "æķıæĦŁ": 9388,
      "ç»°": 9389,
      "åĽ´æĶ»": 9390,
      "èĩªçĶ±åħļ": 9391,
      "ase": 9392,
      "æľĶ": 9393,
      "ä¸ºä¸ŃåĽ½": 9394,
      "æ²¦": 9395,
      "çĻ½ä¿Ħç½Ĺæĸ¯": 9396,
      "æİ¨çĲĨ": 9397,
      "çŁŃç¯ĩ": 9398,
      "èĮ¨åŁº": 9399,
      "çŀĦ": 9400,
      "åºµ": 9401,
      "æ°°": 9402,
      "çĶµå®¹": 9403,
      "å¤Ħéķ¿": 9404,
      "å°±ä¸ļ": 9405,
      "é²ģæĸ¯": 9406,
      "âĢĿ,âĢľ": 9407,
      "åıĳè¡¨äºĨ": 9408,
      "éļĶå¹´": 9409,
      "åĩ»è´¥äºĨ": 9410,
      "2ä¸ĩ": 9411,
      "CA": 9412,
      "çļĦè½¨éģĵ": 9413,
      "ç»£": 9414,
      "ä¸Ģåıª": 9415,
      "äººè®¤ä¸º": 9416,
      "çº±": 9417,
      "å¤ļæĸ¯": 9418,
      "åįĹç«¯": 9419,
      "åĪ©çī©æµ¦": 9420,
      "ä½¿åħ¶": 9421,
      "æ¼³": 9422,
      "ä¸ĸçķĮçļĦ": 9423,
      "èİ«å°Ķ": 9424,
      "æ¿ĳ": 9425,
      "æ©ĺ": 9426,
      "å¼ķèµ·äºĨ": 9427,
      "æĿ¥æºĲäºİ": 9428,
      "åŁĶå¯¨": 9429,
      "å¤±åİ»äºĨ": 9430,
      "èĦĤé²¤": 9431,
      "BM": 9432,
      "åŃ¢": 9433,
      "åħ¬å¹³": 9434,
      "çĶµæ¢¯": 9435,
      "ä¸¤å¤§": 9436,
      "æĽ¾æľī": 9437,
      "å½¢æĪĲäºĨ": 9438,
      "æ²īæ²¡": 9439,
      "çººç»ĩ": 9440,
      "å¤§äºİ": 9441,
      "æľīäºĨ": 9442,
      "å¯Ŀ": 9443,
      "éĺİ": 9444,
      "è¿Ļä¸¤ä¸ª": 9445,
      "æĸ°åŁİ": 9446,
      "æľĢå¥½çļĦ": 9447,
      "çĥ¦": 9448,
      "è¿ŀåĲĮ": 9449,
      "åħĪåıĳ": 9450,
      "è¯»ä¹¦": 9451,
      "éĺµäº¡": 9452,
      "éĽħåĲĦ": 9453,
      "åĵ²åŃ¦å®¶": 9454,
      "æŁ¬åŁĶå¯¨": 9455,
      "SP": 9456,
      "è¿Ļç±»": 9457,
      "éĹ´æİ¥": 9458,
      "å¤©ç©º": 9459,
      "åİ¿çº§": 9460,
      "åłķ": 9461,
      "é²¨": 9462,
      "çīĪæĿĥ": 9463,
      "è¶ħäºº": 9464,
      "æķħéļľ": 9465,
      "æļ´éľ²": 9466,
      "èįĥæ¹¾": 9467,
      "åįĹæŀģæĿ¡çº¦ä½ĵç³»": 9468,
      "çļĦè¦ģæ±Ĥ": 9469,
      "ä½įåĪĹ": 9470,
      "è·¯åĨĽ": 9471,
      "å°¼å¥¥": 9472,
      "128": 9473,
      "ç©ºè°ĥ": 9474,
      "åı¯ä»¥çĶ¨": 9475,
      "èĪªè¡Į": 9476,
      "èĪ¹åĳĺ": 9477,
      "éĽĨä¸Ńåľ¨": 9478,
      "ç¿°æŀĹéĻ¢": 9479,
      "ä¸Ģèīĺ": 9480,
      "åİķ": 9481,
      "åĪĨå¼Ģ": 9482,
      "è¥¿æ¯Ķ": 9483,
      "å°ıå¹³": 9484,
      "èĬ¯": 9485,
      "æ²»çĲĨ": 9486,
      "èµ·é£ŀ": 9487,
      "åĪĻä»¥": 9488,
[...]
