{
  "version": "1.0",
  "truncation": null,
  "padding": null,
  "added_tokens": [],
  "normalizer": null,
  "pre_tokenizer": {
    "type": "Sequence",
    "pretokenizers": [
      {
        "type": "Split",
        "pattern": {
          "Regex": "\\S+|\\s+"
        },
        "behavior": "Isolated",
        "invert": false
      },
      {
        "type": "ByteLevel",
        "add_prefix_space": false,
        "trim_offsets": true,
        "use_regex": false
      }
    ]
  },
  "post_processor": null,
  "decoder": null,
  "model": {
    "type": "BPE",
    "dropout": null,
    "unk_token": null,
    "continuing_subword_prefix": null,
    "end_of_word_suffix": null,
    "fuse_unk": false,
    "byte_fallback": false,
    "ignore_merges": false,
    "vocab": {
      "!": 0,
      "\"": 1,
      "#": 2,
      "$": 3,
      "%": 4,
      "&": 5,
      "'": 6,
      "(": 7,
      ")": 8,
      "*": 9,
      "+": 10,
      ",": 11,
      "-": 12,
      ".": 13,
      "/": 14,
      "0": 15,
      "1": 16,
      "2": 17,
      "3": 18,
      "4": 19,
      "5": 20,
      "6": 21,
      "7": 22,
      "8": 23,
      "9": 24,
      ":": 25,
      ";": 26,
      "=": 27,
      "?": 28,
      "@": 29,
      "A": 30,
      "B": 31,
      "C": 32,
      "D": 33,
      "E": 34,
      "F": 35,
      "G": 36,
      "H": 37,
      "I": 38,
      "J": 39,
      "K": 40,
      "L": 41,
      "M": 42,
      "N": 43,
      "O": 44,
      "P": 45,
      "Q": 46,
      "R": 47,
      "S": 48,
      "T": 49,
      "U": 50,
      "V": 51,
      "W": 52,
      "X": 53,
      "Y": 54,
      "Z": 55,
      "[": 56,
      "\\": 57,
      "]": 58,
      "^": 59,
      "_": 60,
      "`": 61,
      "a": 62,
      "b": 63,
      "c": 64,
      "d": 65,
      "e": 66,
      "f": 67,
      "g": 68,
      "h": 69,
      "i": 70,
      "j": 71,
      "k": 72,
      "l": 73,
      "m": 74,
      "n": 75,
      "o": 76,
      "p": 77,
      "q": 78,
      "r": 79,
      "s": 80,
      "t": 81,
      "u": 82,
      "v": 83,
      "w": 84,
      "x": 85,
      "y": 86,
      "z": 87,
      "|": 88,
      "~": 89,
      "¡": 90,
      "¢": 91,
      "£": 92,
      "¤": 93,
      "¥": 94,
      "¦": 95,
      "§": 96,
      "¨": 97,
      "©": 98,
      "ª": 99,
      "«": 100,
      "¬": 101,
      "®": 102,
      "¯": 103,
      "°": 104,
      "±": 105,
      "²": 106,
      "³": 107,
      "´": 108,
      "µ": 109,
      "¶": 110,
      "·": 111,
      "¸": 112,
      "¹": 113,
      "º": 114,
      "»": 115,
      "¼": 116,
      "½": 117,
      "¾": 118,
      "¿": 119,
      "Â": 120,
      "Ã": 121,
      "Ä": 122,
      "Å": 123,
      "Æ": 124,
      "Ç": 125,
      "È": 126,
      "É": 127,
      "Ê": 128,
      "Ë": 129,
      "Ì": 130,
      "Í": 131,
      "Î": 132,
      "Ï": 133,
      "Ð": 134,
      "Ñ": 135,
      "Ò": 136,
      "Ó": 137,
      "Ô": 138,
      "Õ": 139,
      "Ö": 140,
      "×": 141,
      "Ø": 142,
      "Ù": 143,
      "Ú": 144,
      "Û": 145,
      "Ü": 146,
      "Þ": 147,
      "ß": 148,
      "à": 149,
      "á": 150,
      "â": 151,
      "ã": 152,
      "ä": 153,
      "å": 154,
      "æ": 155,
      "ç": 156,
      "è": 157,
      "é": 158,
      "ê": 159,
      "ë": 160,
      "ì": 161,
      "í": 162,
      "î": 163,
      "ï": 164,
      "ð": 165,
      "ñ": 166,
      "Ċ": 167,
      "Ġ": 168,
      "ġ": 169,
      "Ģ": 170,
      "ģ": 171,
      "Ĥ": 172,
      "ĥ": 173,
      "Ħ": 174,
      "ħ": 175,
      "Ĩ": 176,
      "ĩ": 177,
      "Ī": 178,
      "ī": 179,
      "Ĭ": 180,
      "ĭ": 181,
      "Į": 182,
      "į": 183,
      "İ": 184,
      "ı": 185,
      "Ĳ": 186,
      "ĳ": 187,
      "Ĵ": 188,
      "ĵ": 189,
      "Ķ": 190,
      "ķ": 191,
      "ĸ": 192,
      "Ĺ": 193,
      "ĺ": 194,
      "Ļ": 195,
      "ļ": 196,
      "Ľ": 197,
      "ľ": 198,
      "Ŀ": 199,
      "ŀ": 200,
      "Ł": 201,
      "ł": 202,
      "Ń": 203,
      "ä¸": 204,
      "äº": 205,
      "çļ": 206,
      "çļĦ": 207,
      "åħ": 208,
      "åı": 209,
      "æľ": 210,
      "ãĢ": 211,
      "å¹": 212,
      "ä»": 213,
      "å¤": 214,
      "åľ": 215,
      "åĲ": 216,
      "åĪ": 217,
      "åĽ": 218,
      "å®": 219,
      "å¹´": 220,
      "ä½": 221,
      "æĹ": 222,
      "çĶ": 223,
      "åį": 224,
      "æĸ": 225,
      "è¿": 226,
      "å°": 227,
      "æĺ": 228,
      "ä¹": 229,
      "ç»": 230,
      "ãĢģ": 231,
      "åľ¨": 232,
      "ä¸º": 233,
      "åĬ": 234,
      "æĪ": 235,
      "ä¼": 236,
      "ä¸Ģ": 237,
      "åŃ": 238,
      "åĮ": 239,
      "å¸": 240,
      "è¯": 241,
      "è®": 242,
      "ä¸Ń": 243,
      "åĨ": 244,
      "åĽ½": 245,
      "äºº": 246,
      "æĺ¯": 247,
      "åº": 248,
      "æĿ": 249,
      "å¼": 250,
      "å·": 251,
      "äºİ": 252,
      "å¾": 253,
      "éĩ": 254,
      "çī": 255,
      "ç§": 256,
      "è¡": 257,
      "çº": 258,
      "å¤§": 259,
      "æī": 260,
      "éĢ": 261,
      "æľī": 262,
      "å±": 263,
      "æĶ": 264,
      "åĩ": 265,
      "åĴ": 266,
      "åĴĮ": 267,
      "20": 268,
      "æŃ": 269,
      "éĥ": 270,
      "èµ": 271,
      "èĢ": 272,
      "æķ": 273,
      "å½": 274,
      "åİ": 275,
      "æľĪ": 276,
      "å¯": 277,
      "æ°": 278,
      "éĻ": 279,
      "æĭ": 280,
      "æĹ¥": 281,
      "çĽ": 282,
      "èĩ": 283,
      "æ³": 284,
      "å¥": 285,
      "æł": 286,
      "çİ": 287,
      "19": 288,
      "éĺ": 289,
      "ä»¥": 290,
      "åĲİ": 291,
      "æĹ¶": 292,
      "âĢ": 293,
      "åĳ": 294,
      "äºĨ": 295,
      "åľ°": 296,
      "æ²": 297,
      "ç«": 298,
      "æµ": 299,
      "ä¼ļ": 300,
      "åŃ¦": 301,
      "è§": 302,
      "æĢ": 303,
      "è¾": 304,
      "è´": 305,
      "æĪĲ": 306,
      "éĹ": 307,
      "è½": 308,
      "éĿ": 309,
      "åŁ": 310,
      "ä¸ª": 311,
      "çĲ": 312,
      "ä¸Ĭ": 313,
      "éĥ¨": 314,
      "åī": 315,
      "æĸ¯": 316,
      "éķ": 317,
      "ä¸İ": 318,
      "è¡Į": 319,
      "ä»ĸ": 320,
      "åĩº": 321,
      "ä¸į": 322,
      "æ¯": 323,
      "åĮº": 324,
      "æ´": 325,
      "æŀ": 326,
      "æĬ": 327,
      "æİ": 328,
      "åħ¬": 329,
      "ç¬": 330,
      "åħ¶": 331,
      "åıĳ": 332,
      "æ¸": 333,
      "ç½": 334,
      "ä½ľ": 335,
      "çĶŁ": 336,
      "æĽ": 337,
      "å°Ķ": 338,
      "åĲį": 339,
      "ä¿": 340,
      "ä¸»": 341,
      "åĪĨ": 342,
      "è¢": 343,
      "çŃ": 344,
      "èĥ": 345,
      "ä¹ĭ": 346,
      "éģ": 347,
      "æĸ¹": 348,
      "ç¬¬": 349,
      "çĶ¨": 350,
      "å®¶": 351,
      "å§": 352,
      "ãĢĭ": 353,
      "ãĢĬ": 354,
      "è¥": 355,
      "å¹¶": 356,
      "ç¾": 357,
      "è¥¿": 358,
      "æ³ķ": 359,
      "åĪ°": 360,
      "å¿": 361,
      "èĢĮ": 362,
      "Â·": 363,
      "æ¬": 364,
      "é¢": 365,
      "åĨĽ": 366,
      "å»": 367,
      "åıĬ": 368,
      "è¢«": 369,
      "ä¾": 370,
      "æĶ¿": 371,
      "ä½į": 372,
      "ç±": 373,
      "çĶ±": 374,
      "æĮ": 375,
      "æľ¬": 376,
      "çľ": 377,
      "æ±": 378,
      "æ°ĳ": 379,
      "è·": 380,
      "éĽ": 381,
      "é¦": 382,
      "ä¸ĭ": 383,
      "å¸Ĥ": 384,
      "åĵ": 385,
      "å¯¹": 386,
      "åĲĮ": 387,
      "èģ": 388,
      "èĭ": 389,
      "åħĭ": 390,
      "åĬ¨": 391,
      "æĿ¥": 392,
      "çī¹": 393,
      "éķ¿": 394,
      "è¿Ļ": 395,
      "å¤ļ": 396,
      "ä»»": 397,
      "èĩª": 398,
      "å¼Ģ": 399,
      "éĩĮ": 400,
      "åĳĺ": 401,
      "åįĹ": 402,
      "é©": 403,
      "åŃĲ": 404,
      "åı¯": 405,
      "æĸ°": 406,
      "å¹³": 407,
      "èī": 408,
      "åĿ": 409,
      "èİ": 410,
      "åĬł": 411,
      "å¾·": 412,
      "åĮĹ": 413,
      "ãĢĮ": 414,
      "ãĢį": 415,
      "æľĢ": 416,
      "æĸĩ": 417,
      "å£": 418,
      "åĪ©": 419,
      "æĻ": 420,
      "ç¾İ": 421,
      "é«": 422,
      "åīį": 423,
      "ä¸ľ": 424,
      "ä»£": 425,
      "é«ĺ": 426,
      "äºļ": 427,
      "éĿ¢": 428,
      "æµ·": 429,
      "æīĢ": 430,
      "¦ģ": 431,
      "å¾Ĺ": 432,
      "èĩ³": 433,
      "ç¤": 434,
      "å»º": 435,
      "èĪ": 436,
      "éĹ´": 437,
      "æŃ¤": 438,
      "åĨħ": 439,
      "åĽł": 440,
      "äºĭ": 441,
      "âĢľ": 442,
      "ä¸ī": 443,
      "âĢĿ": 444,
      "çİ°": 445,
      "è¿Ľ": 446,
      "çĶµ": 447,
      "),": 448,
      "ä¹Ł": 449,
      "çī©": 450,
      "è¿ĩ": 451,
      "èµĽ": 452,
      "201": 453,
      "çŃī": 454,
      "åı°": 455,
      "åº¦": 456,
      "è½¦": 457,
      "åħ¥": 458,
      "è¯¥": 459,
      "ç»ı": 460,
      "å½ĵ": 461,
      "éģĵ": 462,
      "ç¥": 463,
      "è¦ģ": 464,
      "ç«ĭ": 465,
      "æĪĺ": 466,
      "å°Ĩ": 467,
      "çĲĨ": 468,
      "ç©": 469,
      "è¡¨": 470,
      "ä½ĵ": 471,
      "çŁ": 472,
      "çķ": 473,
      "æĭī": 474,
      "é¡": 475,
      "å¦": 476,
      "è°": 477,
      "å²": 478,
      "æľº": 479,
      "æķĻ": 480,
      "æľŁ": 481,
      "ä¸ĸ": 482,
      "èĲ": 483,
      "éļ": 484,
      "æı": 485,
      "å·¥": 486,
      "åĪ¶": 487,
      "ç®": 488,
      "èĥ½": 489,
      "äºĮ": 490,
      "å¤ĸ": 491,
      "åĲĪ": 492,
      "æį": 493,
      "è·¯": 494,
      "å®ļ": 495,
      "åı£": 496,
      "çľģ": 497,
      "å¸ĥ": 498,
      "æ¬¡": 499,
      "æĦ": 500,
      "é©¬": 501,
      "è®¾": 502,
      "åħ±": 503,
      "æĢ§": 504,
      "å¹´,": 505,
      "éĺŁ": 506,
      "åľº": 507,
      "éĢļ": 508,
      "ä¸ļ": 509,
      "å±±": 510,
      "å°ı": 511,
      "200": 512,
      "çĲĥ": 513,
      "ä½Ĩ": 514,
      "èĬ": 515,
      "ä½¿": 516,
      "éĵ": 517,
      "è¶": 518,
      ",å¹¶": 519,
      "åįģ": 520,
      "ä¸Ģä¸ª": 521,
      "èĢħ": 522,
      "å·ŀ": 523,
      "åĮĸ": 524,
      "åħ¨": 525,
      "æĥ": 526,
      "ç³": 527,
      "æķ°": 528,
      "ç§į": 529,
      "é£": 530,
      "ç§°": 531,
      "å¤©": 532,
      "èĤ": 533,
      "ç½Ĺ": 534,
      "ç§ĳ": 535,
      "çł": 536,
      "æŁ": 537,
      "çº¿": 538,
      "çĻ": 539,
      "å¼ı": 540,
      "ç±³": 541,
      "ç«Ļ": 542,
      "éĩį": 543,
      "å®ī": 544,
      "éŁ": 545,
      "èģĶ": 546,
      "æģ": 547,
      "çĤ": 548,
      "ä¸¤": 549,
      "éĤ": 550,
      "ç³»": 551,
      "æ¯Ķ": 552,
      "æ¼": 553,
      "ç¼": 554,
      "10": 555,
      "çĪ": 556,
      "æ¡": 557,
      "ç¦": 558,
      "ç¨": 559,
      "å¢": 560,
      "æĢ»": 561,
      "éĢī": 562,
      "è¿Ĳ": 563,
      "åĬĽ": 564,
      "æĹ¥,": 565,
      "åİ¿": 566,
      "åħ°": 567,
      "å£«": 568,
      "çĽ¸": 569,
      "éĻ¢": 570,
      "æ¹": 571,
      "åŁº": 572,
      "åħ³": 573,
      "ä¸ŃåĽ½": 574,
      "éĥ½": 575,
      "æ²»": 576,
      "åİŁ": 577,
      "è¾¾": 578,
      "åŁİ": 579,
      "ç»Ł": 580,
      "åģ": 581,
      "æł¼": 582,
      "èµ·": 583,
      "ç»Ħ": 584,
      "æŃ£": 585,
      "æĺİ": 586,
      "é»": 587,
      "çº¦": 588,
      "åı·": 589,
      "èĭ±": 590,
      "æ°´": 591,
      "å½±": 592,
      "å°¼": 593,
      "æĪĸ": 594,
      "åĲİ,": 595,
      "å±ŀ": 596,
      ",ä½Ĩ": 597,
      "åºľ": 598,
      "å¡": 599,
      "æİ¥": 600,
      "åı¸": 601,
      "è®¡": 602,
      "éĩĳ": 603,
      "çĽ®": 604,
      "é¦ĸ": 605,
      "çİĭ": 606,
      "è®®": 607,
      "æıĲ": 608,
      "åįİ": 609,
      "çĦ": 610,
      "ä»¬": 611,
      "éĺ¿": 612,
      "åĽĽ": 613,
      "ä»İ": 614,
      "åĪĹ": 615,
      "åħĥ": 616,
      "çģ": 617,
      "æ¼Ķ": 618,
      "å·´": 619,
      "ç¾İåĽ½": 620,
      "èĳ": 621,
      "00": 622,
      "å¦Ĥ": 623,
      "äº§": 624,
      "è¯Ń": 625,
      "åĢ": 626,
      "éħ": 627,
      "åıĤ": 628,
      "åı²": 629,
      "éĩı": 630,
      "åŀ": 631,
      "æĶ¹": 632,
      "å¸¸": 633,
      "å¥³": 634,
      "æ®": 635,
      "æ¶": 636,
      "éķĩ": 637,
      "åĲĳ": 638,
      "è£": 639,
      "èį": 640,
      "åĬ¡": 641,
      "æŀĹ": 642,
      "18": 643,
      "åĮħ": 644,
      "æ¸¯": 645,
      "å¨": 646,
      ").": 647,
      "æĽ¾": 648,
      "æĹł": 649,
      "èİ·": 650,
      "äººåı£": 651,
      "çĦ¶": 652,
      "äº¤": 653,
      "åĶ": 654,
      "å®ŀ": 655,
      "å¿ĥ": 656,
      "éĶ": 657,
      "åıĹ": 658,
      "éľ": 659,
      "12": 660,
      "ä½įäºİ": 661,
      "ç»´": 662,
      "æĦı": 663,
      "åİĨ": 664,
      "ç»ĵ": 665,
      "èī²": 666,
      "çķĮ": 667,
      "çº§": 668,
      "ä¹Ĳ": 669,
      "æīĭ": 670,
      "å§ĭ": 671,
      "ä¿Ŀ": 672,
      "å§Ķ": 673,
      "åĪĻ": 674,
      "ä¹ī": 675,
      "æĴ": 676,
      "å¤Ħ": 677,
      "åħļ": 678,
      "è§Ĩ": 679,
      "ä¹¦": 680,
      "ç´": 681,
      "åĽ¢": 682,
      "0å¹´": 683,
      "ç®¡": 684,
      ".19": 685,
      "å½¢": 686,
      "ç¨ĭ": 687,
      ",èĢĮ": 688,
      "æ£": 689,
      "å¯¼": 690,
      "åĭ": 691,
      "1å¹´": 692,
      "è®¤": 693,
      "æį®": 694,
      "ç±»": 695,
      "æ²³": 696,
      "å°±": 697,
      "åį¡": 698,
      "éĹ¨": 699,
      "æ·": 700,
      "æĮĩ": 701,
      "æľĪ2": 702,
      ",åľ¨": 703,
      "çĽ´": 704,
      "202": 705,
      "5å¹´": 706,
      "åįķ": 707,
      "éĴ": 708,
      "çĥ": 709,
      "è¯´": 710,
      "éŁ³": 711,
      "äºĽ": 712,
      "å¹¿": 713,
      "åŀĭ": 714,
      "å·²": 715,
      "åºĶ": 716,
      "4å¹´": 717,
      "æĺŁ": 718,
      "éĽĨ": 719,
      "ç¤º": 720,
      "å¥¥": 721,
      "æµģ": 722,
      "é¢Ĩ": 723,
      "ç¤¾": 724,
      "æľĪ,": 725,
      "åł": 726,
      "ä¼ł": 727,
      "æº": 728,
      "æĮģ": 729,
      "é²": 730,
      "åĵģ": 731,
      "çĤ¹": 732,
      ")æĺ¯": 733,
      "èº": 734,
      "æł¡": 735,
      "æĽ´": 736,
      "2å¹´": 737,
      "å±ķ": 738,
      "å¤«": 739,
      "3å¹´": 740,
      "er": 741,
      "çĭ": 742,
      "åĽŀ": 743,
      "èĮ": 744,
      ",åħ¶": 745,
      "ä¸¾": 746,
      "æĻ®": 747,
      "11": 748,
      "æ¸¸": 749,
      "ä¸ĩ": 750,
      "ç§¯": 751,
      "8å¹´": 752,
      "èº«": 753,
      "6å¹´": 754,
      "æ¢": 755,
      "ç©º": 756,
      "åıį": 757,
      "éª": 758,
      "èµĦ": 759,
      "æĶ¿åºľ": 760,
      "æĥħ": 761,
      "å®ĺ": 762,
      "ç¡": 763,
      "çºª": 764,
      "äºĶ": 765,
      "æ´»": 766,
      "è¿ĺ": 767,
      "é¾": 768,
      "åĩ»": 769,
      "an": 770,
      "æĶ¯": 771,
      "é¦Ļ": 772,
      "æłĩ": 773,
      "æĬ¥": 774,
      "æ»": 775,
      "or": 776,
      "å¸Ī": 777,
      "åĲĦ": 778,
      "æ¹¾": 779,
      "éĵģ": 780,
      "åĪ«": 781,
      "7å¹´": 782,
      "èĴ": 783,
      "éĢł": 784,
      "å¤§åŃ¦": 785,
      "çº³": 786,
      "èĻ": 787,
      "åıĸ": 788,
      "ä½¿çĶ¨": 789,
      "çĬ": 790,
      ",ä»¥": 791,
      "åı¤": 792,
      "å²Ľ": 793,
      "çĸ": 794,
      "æĪĲä¸º": 795,
      "å¤ª": 796,
      "æĹ¥æľ¬": 797,
      "in": 798,
      "åī§": 799,
      "å±Ģ": 800,
      "åħ¬åı¸": 801,
      "åıĺ": 802,
      "æĭ¬": 803,
      "çı": 804,
      "æľ¯": 805,
      "åŃĹ": 806,
      "åķ": 807,
      ".åľ¨": 808,
      "å¥¹": 809,
      "çĿ": 810,
      "æĹı": 811,
      "ä¸ĵ": 812,
      "åĳ½": 813,
      "åĮħæĭ¬": 814,
      "åľ°åĮº": 815,
      "éĿŀ": 816,
      "å¸¦": 817,
      "èĳĹ": 818,
      "åĽ½å®¶": 819,
      "å¼ł": 820,
      "è®º": 821,
      "è¿ĳ": 822,
      "åį³": 823,
      "å¼Ģå§ĭ": 824,
      "çłĶ": 825,
      "æľĿ": 826,
      "æ±Ł": 827,
      "ä¸Ń,": 828,
      "åĨ³": 829,
      "ä¿¡": 830,
      "è§£": 831,
      "æ´²": 832,
      "æĽ²": 833,
      "èĬĤ": 834,
      "çĹ": 835,
      "ç¥ŀ": 836,
      "é£İ": 837,
      "on": 838,
      "çīĩ": 839,
      "å°ĳ": 840,
      "èģĮ": 841,
      "ä»¶": 842,
      "ç²": 843,
      "è¿Ľè¡Į": 844,
      "æĹ¶,": 845,
      "ä¼Ĭ": 846,
      "åĽ¾": 847,
      "èĦ": 848,
      "æľª": 849,
      "çĵ": 850,
      "è®°": 851,
      "åıª": 852,
      "ç¿": 853,
      "å¹³æĸ¹": 854,
      "å®ĥ": 855,
      "æľĪ1": 856,
      "æł¹": 857,
      "æĿĥ": 858,
      "æ²¡": 859,
      "çŁ³": 860,
      "éĻħ": 861,
      "ç¬¬ä¸Ģ": 862,
      "èĭı": 863,
      "æ¯ı": 864,
      "ç¼ĸ": 865,
      "è§Ĵ": 866,
      "è½¬": 867,
      "åı¯ä»¥": 868,
      "æĶ¾": 869,
      "æ³¢": 870,
      "æ¨": 871,
      ",æĺ¯": 872,
      "äº¬": 873,
      "ä¾ĭ": 874,
      "199": 875,
      "æĶ¶": 876,
      "æĿ¡": 877,
      "çļĦä¸Ģ": 878,
      "åĪĴ": 879,
      "è°ĥ": 880,
      "é¾Ļ": 881,
      "åħ¬éĩĮ": 882,
      "é¦Ļæ¸¯": 883,
      "åĳ¨": 884,
      "åħī": 885,
      "åķĨ": 886,
      "åĪĽ": 887,
      "æ¸ħ": 888,
      "è¿ŀ": 889,
      "åĪĿ": 890,
      "9å¹´": 891,
      "æ°Ķ": 892,
      "æŃĮ": 893,
      "ç¦»": 894,
      "æĿĳ": 895,
      "åĸ": 896,
      "æĳ": 897,
      "çīĪ": 898,
      "éĻĨ": 899,
      "éĥ¨åĪĨ": 900,
      "ç©¶": 901,
      "åĻ": 902,
      "å¾Ģ": 903,
      "äººæ°ĳ": 904,
      "å¤´": 905,
      "èİ·å¾Ĺ": 906,
      "è±": 907,
      "åŃ£": 908,
      "çŁ¥": 909,
      "ä¸ĸçķĮ": 910,
      "åıĪ": 911,
      "éĿ¢ç§¯": 912,
      "åħĪ": 913,
      "çłĶç©¶": 914,
      "åİ»": 915,
      "å¯Ĩ": 916,
      "äºº,": 917,
      "æŀĦ": 918,
      "åŁŁ": 919,
      "æ´¾": 920,
      "ä»¤": 921,
      "æīĵ": 922,
      "ç»Ń": 923,
      "æŀľ": 924,
      "åĬŀ": 925,
      "å¼º": 926,
      "éļı": 927,
      "æŁ¥": 928,
      "å¨ģ": 929,
      "ä¸»è¦ģ": 930,
      "çĻ½": 931,
      "åĨį": 932,
      "åħµ": 933,
      "äºī": 934,
      "åº§": 935,
      "äºº.": 936,
      "æŃ¦": 937,
      "ä»ĸä»¬": 938,
      "ç¦ı": 939,
      "å¤į": 940,
      "è§Ĥ": 941,
      "èĤ²": 942,
      "è£ħ": 943,
      "åİĨåı²": 944,
      "å®Į": 945,
      "å¹´(": 946,
      "åħŃ": 947,
      "la": 948,
      "åĻ¨": 949,
      "è®¤ä¸º": 950,
      "å¼ķ": 951,
      "é¡¹": 952,
      "æ®µ": 953,
      ",åĽł": 954,
      "æļ": 955,
      "é¢ĺ": 956,
      "è¶³": 957,
      "åı°æ¹¾": 958,
      "åĵĪ": 959,
      "æ²¡æľī": 960,
      "ä¸Ķ": 961,
      "æĿİ": 962,
      "çĳ": 963,
      "å¡Ķ": 964,
      "æľį": 965,
      "éĻ¤": 966,
      "å±ħ": 967,
      "å®£": 968,
      "æ¬§": 969,
      "15": 970,
      "æĪı": 971,
      "ç½ĳ": 972,
      "æĴŃ": 973,
      "ç»Ī": 974,
      "è§Ħ": 975,
      "æĭħ": 976,
      "åįı": 977,
      "èĲ¥": 978,
      "äº¦": 979,
      "è®¸": 980,
      "æİ¨": 981,
      "èı": 982,
      "çĵ¦": 983,
      "åľ£": 984,
      "ä»½": 985,
      "å§Ķåĳĺ": 986,
      "å¥ĸ": 987,
      "åľŁ": 988,
      "æ¡Ī": 989,
      "ç½®": 990,
      "å½ķ": 991,
      "ä¿®": 992,
      "è´¨": 993,
      "è¨": 994,
      "äº²": 995,
      "èĲ¨": 996,
      "è¨Ģ": 997,
      "çĶ·": 998,
      "åĦ": 999,
      "ar": 1000,
      "æºĲ": 1001,
      "ç¬¬äºĮ": 1002,
      "åŃĺ": 1003,
      "å¸Ŀ": 1004,
      "ä»£è¡¨": 1005,
      "éĹ®": 1006,
      "åĭĴ": 1007,
      "ä»Ĭ": 1008,
      "è¯Ħ": 1009,
      "åĽŃ": 1010,
      "æ¥": 1011,
      "en": 1012,
      "åħ·": 1013,
      "ç»Ļ": 1014,
      "æĬ¤": 1015,
      "ä¾Ľ": 1016,
      ",è¿Ļ": 1017,
      "éĽ·": 1018,
      "è¿ĲåĬ¨": 1019,
      "é¦Ĩ": 1020,
      "æŃ»": 1021,
      "æĬķ": 1022,
      "åħ«": 1023,
      "çĪ±": 1024,
      "æĶ¿æ²»": 1025,
      "çĶ±äºİ": 1026,
      "æ³ķåĽ½": 1027,
      "éĢŁ": 1028,
      "åħ¶ä»ĸ": 1029,
      "åįĥ": 1030,
      "åĩĨ": 1031,
      "å®Ĺ": 1032,
      "åį°": 1033,
      "å¢ŀ": 1034,
      "è¾ĥ": 1035,
      "è¶ħ": 1036,
      "ä¼¯": 1037,
      "å¢ĥ": 1038,
      "æ´Ľ": 1039,
      "å¸Į": 1040,
      "æ±Ĥ": 1041,
      "åĬŁ": 1042,
      "è§ģ": 1043,
      "çĶµå½±": 1044,
      "çĶ»": 1045,
      "çļĦä¸Ģä¸ª": 1046,
      "æ±ī": 1047,
      "16": 1048,
      "èĩ´": 1049,
      "(),": 1050,
      "åĿĩ": 1051,
      "åįĩ": 1052,
      "å¤ĩ": 1053,
      "åı¦": 1054,
      "è¯º": 1055,
      "åĬ©": 1056,
      "åį«": 1057,
      "å·¥ä½ľ": 1058,
      "åįļ": 1059,
      "çĮ": 1060,
      "çİĩ": 1061,
      "èİ±": 1062,
      "éĺ³": 1063,
      "åĦ¿": 1064,
      "è¾¹": 1065,
      "ä¼Ĺ": 1066,
      "å¥½": 1067,
      "èĹ": 1068,
      "é¥": 1069,
      "åĥ": 1070,
      "å®¢": 1071,
      "å®¹": 1072,
      "èĪª": 1073,
      "ä¼¦": 1074,
      "åĳĬ": 1075,
      "198": 1076,
      "æĹ©": 1077,
      "æ¨¡": 1078,
      "çª": 1079,
      "ä¹Į": 1080,
      "åĲī": 1081,
      "è¯ķ": 1082,
      "ä¿Ħ": 1083,
      "ä½ľä¸º": 1084,
      "ä»¥åıĬ": 1085,
      "æİĴ": 1086,
      "åī¯": 1087,
      "èīº": 1088,
      "æł·": 1089,
      "æµİ": 1090,
      "å¾Ī": 1091,
      "çģ«": 1092,
      "çİ¯": 1093,
      "æķħ": 1094,
      "å¡ŀ": 1095,
      "æĪĳ": 1096,
      "æĶ»": 1097,
      "åĽ½éĻħ": 1098,
      "é»Ħ": 1099,
      "çĶ°": 1100,
      "ç¾¤": 1101,
      "å·±": 1102,
      "èĬ±": 1103,
      "åı¯èĥ½": 1104,
      "æ¯į": 1105,
      "ä¹Ŀ": 1106,
      "çĪ¶": 1107,
      "æĸ½": 1108,
      "åĵį": 1109,
      "çıŃ": 1110,
      ".è¿Ļ": 1111,
      "èħ": 1112,
      "åĽ´": 1113,
      "ä¸Ńå¿ĥ": 1114,
      "è¡¨ç¤º": 1115,
      "17": 1116,
      "æĬĢ": 1117,
      ".ä»ĸ": 1118,
      "æķ´": 1119,
      ",ä»ĸ": 1120,
      "é²ģ": 1121,
      "æ²Ļ": 1122,
      "ç»§": 1123,
      "åĮ»": 1124,
      "æĭħä»»": 1125,
      "30": 1126,
      "å¤±": 1127,
      "å¸Ĥéķĩ": 1128,
      "çŃĳ": 1129,
      "èĲ½": 1130,
      "çĹħ": 1131,
      "ä¸Ńåįİ": 1132,
      "åħ´": 1133,
      "è¯ģ": 1134,
      "ç»ĩ": 1135,
      ")ãĢģ": 1136,
      "ç³»ç»Ł": 1137,
      "æ¦": 1138,
      "è´£": 1139,
      "ä¹¡": 1140,
      "å¿Ĺ": 1141,
      "å¸Ń": 1142,
      "éĩĩ": 1143,
      "éĺ²": 1144,
      "èĪ°": 1145,
      "å®¤": 1146,
      "èŃ": 1147,
      "å±Ĥ": 1148,
      "æīĺ": 1149,
      "ä¸ŃçļĦ": 1150,
      "éĿĴ": 1151,
      "çĽŁ": 1152,
      "ä¸ĥ": 1153,
      ",ä¸º": 1154,
      "æĦŁ": 1155,
      "èŃ¦": 1156,
      "éľĢ": 1157,
      "çĻ»": 1158,
      "åĨł": 1159,
      "æĹ¶éĹ´": 1160,
      "çĭ¬": 1161,
      "èĭ±åĽ½": 1162,
      "è´Ł": 1163,
      "åįĬ": 1164,
      "éº": 1165,
      "æ¹ĸ": 1166,
      "æ¸¸æĪı": 1167,
      "éĢļè¿ĩ": 1168,
      "å£°": 1169,
      "çĶµè§Ĩ": 1170,
      "å§Ĩ": 1171,
      "éĤ£": 1172,
      "çĻ¾": 1173,
      "éħį": 1174,
      "ç¢": 1175,
      "èĩªå·±": 1176,
      "åıĮ": 1177,
      "è½¦ç«Ļ": 1178,
      "éĻĪ": 1179,
      "æł¹æį®": 1180,
      "al": 1181,
      "åłĤ": 1182,
      "é»ĳ": 1183,
      "åıĳçİ°": 1184,
      "æĺĵ": 1185,
      "çĥŃ": 1186,
      "çļĩ": 1187,
      "åĨĻ": 1188,
      "å½ĵæĹ¶": 1189,
      "è¡ĮæĶ¿": 1190,
      "(,": 1191,
      "ç¡®": 1192,
      "()æĺ¯": 1193,
      "çº¢": 1194,
      "çĬ¶": 1195,
      "é£ŀ": 1196,
      "åıĳå±ķ": 1197,
      "æĪĲç«ĭ": 1198,
      "æģ©": 1199,
      "ä½ķ": 1200,
      "å¤ı": 1201,
      "æľŁéĹ´": 1202,
      "æ·±": 1203,
      "ä»į": 1204,
      "èĢĥ": 1205,
      "æŀģ": 1206,
      "ä½ı": 1207,
      "åįł": 1208,
      "çħ": 1209,
      "é±": 1210,
      "åħ±åĴĮ": 1211,
      "æ£®": 1212,
      "è¡Ĺ": 1213,
      "14": 1214,
      "è¶Ĭ": 1215,
      "éĻĲ": 1216,
      "å¤®": 1217,
      "å°Ħ": 1218,
      "é¸": 1219,
      "é±¼": 1220,
      "çĶ²": 1221,
      "åĲĮæĹ¶": 1222,
      "æŃ¥": 1223,
      "at": 1224,
      "è®¾è®¡": 1225,
      "ç¤¾ä¼ļ": 1226,
      "âĢĶ": 1227,
      "é£Ł": 1228,
      "è®©": 1229,
      "å»ºçŃĳ": 1230,
      "äºİ19": 1231,
      "åĥı": 1232,
      "åŁĥ": 1233,
      "è±¡": 1234,
      "ä¹ĭä¸Ģ": 1235,
      "æĽ¼": 1236,
      "æĿĢ": 1237,
      "å¯Ł": 1238,
      "è´¹": 1239,
      "èĮĥ": 1240,
      "å±Ĭ": 1241,
      ",ä¹Ł": 1242,
      "æİ§": 1243,
      "æī¹": 1244,
      "ç¥¨": 1245,
      "ä»ħ": 1246,
      ",çĶ±": 1247,
      "æ½": 1248,
      "è´Ŀ": 1249,
      "æĻ¯": 1250,
      "ç»Ħç»ĩ": 1251,
      "æĸĻ": 1252,
      "æĤ": 1253,
      "åŃ¦éĻ¢": 1254,
      "å¥ĩ": 1255,
      "es": 1256,
      "ä¸įåĲĮ": 1257,
      "æ´ĭ": 1258,
      "å²ģ": 1259,
      "åıĤåĬł": 1260,
      "æµĭ": 1261,
      "çķĻ": 1262,
      "èĢģ": 1263,
      "ä¸Ńå¤®": 1264,
      "å§Ķåĳĺä¼ļ": 1265,
      "è¿ª": 1266,
      "åĨľ": 1267,
      "æ¥¼": 1268,
      "æĸĩåĮĸ": 1269,
      "ä½İ": 1270,
      "æŃ¢": 1271,
      "ä¸ĸçºª": 1272,
      "å·Ŀ": 1273,
      "å½±åĵį": 1274,
      "æ¯ĶèµĽ": 1275,
      "èĥľ": 1276,
      "éĿ©": 1277,
      "è¯į": 1278,
      "åĵ¥": 1279,
      "ç§°ä¸º": 1280,
      ".è¯¥": 1281,
      "å¾ĭ": 1282,
      "çīĮ": 1283,
      "é¡¿": 1284,
      "æĥ³": 1285,
      "å±ŀäºİ": 1286,
      "æİĪ": 1287,
      "for": 1288,
      "æķĪ": 1289,
      "13": 1290,
      "åĺ": 1291,
      "æ³°": 1292,
      "è¾ĸ": 1293,
      "ä¾¿": 1294,
      ",ä½įäºİ": 1295,
      "å¹³æĸ¹åħ¬éĩĮ": 1296,
      "æ¤": 1297,
      "æľ¨": 1298,
      "éĻį": 1299,
      "åĩł": 1300,
      "ç§»": 1301,
      "è¿°": 1302,
      "çľŁ": 1303,
      "ic": 1304,
      "æħ": 1305,
      "åģľ": 1306,
      "æīį": 1307,
      "æ°ı": 1308,
      "éĵ¶": 1309,
      "æ¡¥": 1310,
      "()": 1311,
      "èĴĻ": 1312,
      "æĪ¿": 1313,
      "å¿µ": 1314,
      "æĺ¾": 1315,
      "éŁ³ä¹Ĳ": 1316,
      "t;": 1317,
      "æī¿": 1318,
      "æĢģ": 1319,
      "çĿĢ": 1320,
      "è´¥": 1321,
      "âĢĿ.": 1322,
      "å©": 1323,
      ",åħ¶ä¸Ń": 1324,
      "ç´¢": 1325,
      "æ¾": 1326,
      "åħ±åĴĮåĽ½": 1327,
      "åºķ": 1328,
      "åº·": 1329,
      "åºĵ": 1330,
      "é¢Ħ": 1331,
      "ä¸»ä¹ī": 1332,
      "éŃ": 1333,
      "mu": 1334,
      "åŃ¦æł¡": 1335,
      "å¤ĸ,": 1336,
      "å¾ģ": 1337,
      "ç´ł": 1338,
      "æ´»åĬ¨": 1339,
      "ç±³,": 1340,
      "çīĻ": 1341,
      "è¾ĳ": 1342,
      "çľĭ": 1343,
      "å¼¹": 1344,
      "åĶ±": 1345,
      "åħ¸": 1346,
      "ä½ľåĵģ": 1347,
      "æŃ£å¼ı": 1348,
      "æ¶Ī": 1349,
      "æıĲä¾Ľ": 1350,
      "åĪ©äºļ": 1351,
      "ç®Ģ": 1352,
      "è®¡åĪĴ": 1353,
      "åĩºçİ°": 1354,
      "ç½Ĺæĸ¯": 1355,
      "è½½": 1356,
      "ä¹ł": 1357,
      "ä»ĸçļĦ": 1358,
      "æīĢæľī": 1359,
      "æģ¯": 1360,
      "ä»·": 1361,
      "å³": 1362,
      "ä¹ĭéĹ´": 1363,
      "éĻĦ": 1364,
      "ç»ıæµİ": 1365,
      "ç®¡çĲĨ": 1366,
      "åıĳçĶŁ": 1367,
      "æľĢç»Ī": 1368,
      "éĵģè·¯": 1369,
      "çłģ": 1370,
      "ãĢį.": 1371,
      "çĳŀ": 1372,
      ",è¯¥": 1373,
      "æī§": 1374,
      "æĹ¶æľŁ": 1375,
      "è¿ľ": 1376,
      "is": 1377,
      "åĿ¦": 1378,
      "æĪ·": 1379,
      "ä¸Ģç§į": 1380,
      "å¹²": 1381,
      "åıĭ": 1382,
      "åŁİå¸Ĥ": 1383,
      "åĨµ": 1384,
      "ç®Ĺ": 1385,
      "ä¾§": 1386,
      "æķĻèĤ²": 1387,
      "ç¥ĸ": 1388,
      "éĢĢ": 1389,
      "éŁ©": 1390,
      "å®Ī": 1391,
      "æ»¡": 1392,
      "åĲİæĿ¥": 1393,
      "äºĳ": 1394,
      "æ³¨": 1395,
      "èĪ¹": 1396,
      "mula": 1397,
      "å½ĵåľ°": 1398,
      "è¯·": 1399,
      "è¯Ŀ": 1400,
      "æ¸©": 1401,
      "éĤ¦": 1402,
      "formula": 1403,
      "formula_": 1404,
      "åĢĻ": 1405,
      "ä½Ļ": 1406,
      ",ä¸į": 1407,
      "ä½Ľ": 1408,
      "æĲ": 1409,
      "æĬĬ": 1410,
      "ç«ł": 1411,
      "ä¸ģ": 1412,
      "ç²¾": 1413,
      "it": 1414,
      ",äºİ": 1415,
      "æĬĹ": 1416,
      "å®ģ": 1417,
      "çĽĳ": 1418,
      "197": 1419,
      "åĪ¶ä½ľ": 1420,
      "åł¡": 1421,
      "194": 1422,
      "20å¹´": 1423,
      "æľĽ": 1424,
      ".201": 1425,
      "am": 1426,
      "æĹ§": 1427,
      "è´Łè´£": 1428,
      "å¾·åĽ½": 1429,
      "å·¦": 1430,
      "æĪĲåĳĺ": 1431,
      "ä¸ĬçļĦ": 1432,
      "æĭ¿": 1433,
      ")çļĦ": 1434,
      "éĹ®é¢ĺ": 1435,
      "æľĹ": 1436,
      "éªĮ": 1437,
      "he": 1438,
      "åĬ¿": 1439,
      "è¿Ľåħ¥": 1440,
      "æĢĿ": 1441,
      "ä¸´": 1442,
      ".æŃ¤": 1443,
      "è®¸å¤ļ": 1444,
      "åĪĺ": 1445,
      "å´": 1446,
      "çªģ": 1447,
      "é¹": 1448,
      "çł´": 1449,
      "å¿«": 1450,
      "å®«": 1451,
      "æĹħ": 1452,
      "ä¾Ŀ": 1453,
      "åİĭ": 1454,
      "åºĦ": 1455,
      "ç¬¬ä¸ī": 1456,
      "åĲįä¸º": 1457,
      "èİ«": 1458,
      "æľĢåĲİ": 1459,
      "ä¼¼": 1460,
      "æĪĺäºī": 1461,
      "å¯Į": 1462,
      "ä¸ĢäºĽ": 1463,
      "æ¢ħ": 1464,
      "çĿ£": 1465,
      "åĢ¼": 1466,
      "åģļ": 1467,
      "åħ¨åĽ½": 1468,
      "æĶ¯æĮģ": 1469,
      "å°ģ": 1470,
      "èĹı": 1471,
      "æ°¸": 1472,
      ",åĽłæŃ¤": 1473,
      "åĲ«": 1474,
      "å»¶": 1475,
      "æĸĹ": 1476,
      "èĴĤ": 1477,
      "50": 1478,
      "æĭĶ": 1479,
      "çĶŁæ´»": 1480,
      "åĽłä¸º": 1481,
      "åİħ": 1482,
      "ä¹ĭåĲİ": 1483,
      "åį¢": 1484,
      "äººçļĦ": 1485,
      "çħ§": 1486,
      "äº¡": 1487,
      "æľįåĬ¡": 1488,
      "å¼Ĺ": 1489,
      "éļ¾": 1490,
      "le": 1491,
      "åİĤ": 1492,
      "ç»Ĩ": 1493,
      "æ¾³": 1494,
      "åĪ¤": 1495,
      "æĵ": 1496,
      "æł¸": 1497,
      "æŀ¶": 1498,
      "ä¸¹": 1499,
      "å¤§çļĦ": 1500,
      "éģĹ": 1501,
      "ä¼¤": 1502,
      "å°¼äºļ": 1503,
      "å®£å¸ĥ": 1504,
      "çļ®": 1505,
      "èĻ½": 1506,
      "å½Ĵ": 1507,
      "åį°åº¦": 1508,
      "åı³": 1509,
      "ä¿Ħç½Ĺæĸ¯": 1510,
      "å·²ç»ı": 1511,
      "è¯Ĩ": 1512,
      "åºĨ": 1513,
      "åıĤä¸İ": 1514,
      "åľ°æĸ¹": 1515,
      "ä¸¾è¡Į": 1516,
      "æĸŃ": 1517,
      "åħ³ç³»": 1518,
      "åıĳè¡Į": 1519,
      "éĹ»": 1520,
      "196": 1521,
      ".åħ¶": 1522,
      "çĨ": 1523,
      "è½®": 1524,
      "é½": 1525,
      "åı¶": 1526,
      "ä¸½": 1527,
      "æĿ°": 1528,
      "åºĹ": 1529,
      "æĸ¹éĿ¢": 1530,
      "ç¤¼": 1531,
      "åĶĲ": 1532,
      "åĨ³å®ļ": 1533,
      "å·¥ç¨ĭ": 1534,
      "ï¼": 1535,
      "éĩįè¦ģ": 1536,
      "èĽ": 1537,
      "è¶³çĲĥ": 1538,
      "ro": 1539,
      "åĮĹäº¬": 1540,
      "åĪĩ": 1541,
      "ä¸¤ä¸ª": 1542,
      "ä¼ĺ": 1543,
      "çŃĸ": 1544,
      "ä¸¥": 1545,
      ",æľī": 1546,
      "ä¸Ĭæµ·": 1547,
      "åºŃ": 1548,
      "èµ°": 1549,
      "ãĢį,": 1550,
      "å¿ħ": 1551,
      "è¯»": 1552,
      "æĭ¥": 1553,
      "ç»Ŀ": 1554,
      "éģŃ": 1555,
      "0å¹´ä»£": 1556,
      "å°ļ": 1557,
      "èģĶåĲĪ": 1558,
      "äººçī©": 1559,
      "å¼Ĥ": 1560,
      "re": 1561,
      "åĺī": 1562,
      "éĥ¡": 1563,
      "äºĭä»¶": 1564,
      "ç»ĥ": 1565,
      "æį¢": 1566,
      "åĮĹéĥ¨": 1567,
      "åĨłåĨĽ": 1568,
      "é©»": 1569,
      "å½¹": 1570,
      "èµ«": 1571,
      "åŃ¦å®¶": 1572,
      "èĬĤçĽ®": 1573,
      "æ¤į": 1574,
      "å²¸": 1575,
      "éº¦": 1576,
      "éĩİ": 1577,
      "åŃ¦çĶŁ": 1578,
      "å¼Ł": 1579,
      "ä¼ļè®®": 1580,
      "195": 1581,
      "æ²¹": 1582,
      "äººæ°ĳåħ±åĴĮåĽ½": 1583,
      "æĬĢæľ¯": 1584,
      "éĢĲ": 1585,
      "åĶ®": 1586,
      "èĥĮ": 1587,
      ".5": 1588,
      "æ¯ķ": 1589,
      "æĿ¾": 1590,
      "åĪ°äºĨ": 1591,
      "åĬłåħ¥": 1592,
      "é³": 1593,
      "å¯º": 1594,
      "000": 1595,
      "èī¾": 1596,
      "èĵ": 1597,
      "åį´": 1598,
      "ä¿ĿæĬ¤": 1599,
      "el": 1600,
      "åĪĹè½¦": 1601,
      "ä¹ħ": 1602,
      "æĢ»ç»Ł": 1603,
      "æ¬§æ´²": 1604,
      "ç½²": 1605,
      "2019": 1606,
      "èı²": 1607,
      "éļĨ": 1608,
      "è®¾æľī": 1609,
      "æĻļ": 1610,
      "é¼": 1611,
      "å¹³æĸ¹åįĥ": 1612,
      "èĪ¬": 1613,
      "st": 1614,
      "åª": 1615,
      "åĪĨåĪ«": 1616,
      "æĿ¥èĩª": 1617,
      "ç«¯": 1618,
      "2020å¹´": 1619,
      "çĽ®åīį": 1620,
      "ç¯": 1621,
      ".200": 1622,
      "æĺ¥": 1623,
      "çŁŃ": 1624,
      "å¹³.": 1625,
      "éĢģ": 1626,
      "åħ¹": 1627,
      "åĪĨå¸ĥ": 1628,
      "åħĭåħ°": 1629,
      "éľĢè¦ģ": 1630,
      "ç³»åĪĹ": 1631,
      "ä¸ĭ,": 1632,
      "ä¹ĺ": 1633,
      ",ä»¥åıĬ": 1634,
      "ä½³": 1635,
      "å°½": 1636,
      "æĿŁ": 1637,
      "å®Ŀ": 1638,
      "å®ĮæĪĲ": 1639,
      "ä¸Ńåįİäººæ°ĳåħ±åĴĮåĽ½": 1640,
      "éĢļå¸¸": 1641,
      "é¡º": 1642,
      "æ°ĳåĽ½": 1643,
      "ä»Ģ": 1644,
      "åĲĮå¹´": 1645,
      "æ²¿": 1646,
      "æľ«": 1647,
      "æĹĹ": 1648,
      "åİĨåı².": 1649,
      "å»ºç«ĭ": 1650,
      "åĲ¯": 1651,
      "èįī": 1652,
      "åįĹéĥ¨": 1653,
      "åºı": 1654,
      "åŃĺåľ¨": 1655,
      "éĺ¶": 1656,
      "éĺµ": 1657,
      "èį¯": 1658,
      "å¯¼èĩ´": 1659,
      "èĢ¶": 1660,
      "éĽĦ": 1661,
      "éħĴ": 1662,
      "æļ´": 1663,
      "æĸ¯çī¹": 1664,
      "æ¯Ľ": 1665,
      "æĸ¯Â·": 1666,
      "æĪĲåĬŁ": 1667,
      "ion": 1668,
      "æ³½": 1669,
      "åħ¼": 1670,
      "é¢ĳ": 1671,
      "äºİ201": 1672,
      "ä¸Ĭ,": 1673,
      "åħ±æľī": 1674,
      "åĨ²": 1675,
      "è½»": 1676,
      "è¦ģæ±Ĥ": 1677,
      "æĳĦ": 1678,
      "çĭ¬ç«ĭ": 1679,
      "è·Ŀ": 1680,
      "çĦ¶èĢĮ": 1681,
      "25": 1682,
      "ç»ĦæĪĲ": 1683,
      "ä¾ĭå¦Ĥ": 1684,
      "æĳ©": 1685,
      "è¿ĻäºĽ": 1686,
      "æľĢé«ĺ": 1687,
      "éĶĢ": 1688,
      "æ¬¾": 1689,
      "è¿Ļä¸ª": 1690,
      "è¾ĵ": 1691,
      "åįķä½į": 1692,
      "ãĢĭçļĦ": 1693,
      "èĻ½çĦ¶": 1694,
      "æµ·æĭĶ": 1695,
      "12æľĪ": 1696,
      "å¼Ģåıĳ": 1697,
      "æĭ¥æľī": 1698,
      "å¸ķ": 1699,
      "èĩªçĶ±": 1700,
      "ãĢĭ(": 1701,
      "ãĢĭãĢģ": 1702,
      "çģµ": 1703,
      "åŃĻ": 1704,
      "ä¸ĵè¾ĳ": 1705,
      "æĺ¯åľ¨": 1706,
      "çŃ¾": 1707,
      "åªĴ": 1708,
      "çĽ¸åħ³": 1709,
      "ä¹Įåħĭåħ°": 1710,
      "ç±į": 1711,
      "å©ļ": 1712,
      "çİĽ": 1713,
      "æĥħåĨµ": 1714,
      "çĶ¨äºİ": 1715,
      "ç½ª": 1716,
      "193": 1717,
      "é¡»": 1718,
      "èīºæľ¯": 1719,
      "æĺ¯ä¸Ģ": 1720,
      ",åĮħæĭ¬": 1721,
      "çĶŁå¹³.": 1722,
      "æĿĤ": 1723,
      "äººåĳĺ": 1724,
      "çº½": 1725,
      "é¥°": 1726,
      "æ£Ģ": 1727,
      "éĽħ": 1728,
      "et": 1729,
      "åĲį.": 1730,
      "é¡¶": 1731,
      "çĲĥéĺŁ": 1732,
      "âĢĿ,": 1733,
      "éĢīä¸¾": 1734,
      "å¯Ĩåº¦": 1735,
      "æĿ¨": 1736,
      "èģĶçĽŁ": 1737,
      "éĩĩçĶ¨": 1738,
      "æŀª": 1739,
      "il": 1740,
      "åĤ": 1741,
      "æıĲåĩº": 1742,
      "24": 1743,
      "ä»ĭ": 1744,
      "äºĨä¸Ģ": 1745,
      "åīįå¾Ģ": 1746,
      "åĮº.": 1747,
      "åĬ³": 1748,
      "ç§Ģ": 1749,
      "åħį": 1750,
      "ou": 1751,
      "7æľĪ": 1752,
      "çķ¥": 1753,
      "åıĹåĪ°": 1754,
      "æ²ĥ": 1755,
      "å·®": 1756,
      "æĭį": 1757,
      "éĢı": 1758,
      "è¿½": 1759,
      "å®³": 1760,
      "äº¿": 1761,
      "æ¿": 1762,
      "ãĢĭ,": 1763,
      "å·¡": 1764,
      "ol": 1765,
      "æĸ¹å¼ı": 1766,
      "9æľĪ": 1767,
      "1.": 1768,
      "çĽĸ": 1769,
      "åĩı": 1770,
      "èĭ¥": 1771,
      "çļĦãĢĬ": 1772,
      "è§Ĵèī²": 1773,
      "è´¢": 1774,
      "ä¸ºäºĨ": 1775,
      "10æľĪ": 1776,
      "éĴŁ": 1777,
      "è¢Ń": 1778,
      "8æľĪ": 1779,
      "è¿ģ": 1780,
      "éĩĬ": 1781,
      ",ä¸Ģ": 1782,
      "åĽ½æ°ĳ": 1783,
      "äºĮåįģ": 1784,
      "æĿ¿": 1785,
      "èī¯": 1786,
      "ac": 1787,
      "å°¾": 1788,
      "åĲ´": 1789,
      ",ä¸İ": 1790,
      "çļĦ.": 1791,
      "å¤§éĻĨ": 1792,
      "è®Ń": 1793,
      "èŀ": 1794,
      "åħ·æľī": 1795,
      "çŃī.": 1796,
      "èį£": 1797,
      "æĿ¯": 1798,
      "åĲĪä½ľ": 1799,
      "3æľĪ": 1800,
      "è°·": 1801,
      "çĪĨ": 1802,
      ",å¦Ĥ": 1803,
      "éħ¸": 1804,
      "äº¤éĢļ": 1805,
      "æķ£": 1806,
      "æı´": 1807,
      "æłĳ": 1808,
      "æŃĮæĽ²": 1809,
      "åĩºçīĪ": 1810,
      "éĽĨåĽ¢": 1811,
      "1,": 1812,
      "å°ĶÂ·": 1813,
      "èģĶèµĽ": 1814,
      "äº§çĶŁ": 1815,
      "ç£": 1816,
      "æĺł": 1817,
      "çļĦå¤§": 1818,
      "é¦ĸæ¬¡": 1819,
      "å®ĭ": 1820,
      "ä¼ģ": 1821,
      "è¯ĳ": 1822,
      "è´Ń": 1823,
      "äºĪ": 1824,
      "æķ°æį®": 1825,
      "åĸĦ": 1826,
      "±ä¹Ĳ": 1827,
      "å¾®": 1828,
      "é»İ": 1829,
      "æ´¥": 1830,
      "åħ¶ä¸Ń": 1831,
      "èĤ¡": 1832,
      "å°º": 1833,
      "è¡¥": 1834,
      "çī¹åĪ«": 1835,
      "æ¯ķä¸ļ": 1836,
      "è®¿": 1837,
      "å±ĭ": 1838,
      "ç»§ç»Ń": 1839,
      "å®¡": 1840,
      "è´µ": 1841,
      "äºĴ": 1842,
      "è¡Ģ": 1843,
      "é«ĺåº¦": 1844,
      ".ä½Ĩ": 1845,
      "é¡¹çĽ®": 1846,
      "ç»ĵæĿŁ": 1847,
      "6æľĪ": 1848,
      "æĻĭ": 1849,
      "è½¨": 1850,
      "çĶŁäº§": 1851,
      "çĥĪ": 1852,
      "åģĩ": 1853,
      "0.": 1854,
      "åĽłæŃ¤": 1855,
      "è®¯": 1856,
      "çĲĨ.": 1857,
      "éŁ¦": 1858,
      "ãĥ": 1859,
      "ãĢĭãĢģãĢĬ": 1860,
      "åħ»": 1861,
      "éĻ©": 1862,
      "ç»ĵæŀĦ": 1863,
      "èĩ£": 1864,
      "h-": 1865,
      "5æľĪ": 1866,
      "å¸ĿåĽ½": 1867,
      "é¢Ŀ": 1868,
      "æıı": 1869,
      "æī©": 1870,
      "23": 1871,
      "éĥ¨éĺŁ": 1872,
      "è¥¿äºļ": 1873,
      "å¹³æĸ¹åħ¬éĩĮ,": 1874,
      ".èĢĮ": 1875,
      "ä¸ªäºº": 1876,
      "è¯Ńè¨Ģ": 1877,
      "æķĳ": 1878,
      "äººåı£å¯Ĩåº¦": 1879,
      "æ¯Ĵ": 1880,
      "æİ§åĪ¶": 1881,
      "é²ľ": 1882,
      "å¯¹äºİ": 1883,
      "åĸľ": 1884,
      "ç§ĳåŃ¦": 1885,
      "2.": 1886,
      "æİ¥åıĹ": 1887,
      "å½¢æĪĲ": 1888,
      "ç«ŀ": 1889,
      "1æľĪ": 1890,
      "åıĸå¾Ĺ": 1891,
      "ä»»ä½ķ": 1892,
      "æĹ¶ä»£": 1893,
      "æµ·åĨĽ": 1894,
      "è¡ĮåĬ¨": 1895,
      "ä¸»å¸Ń": 1896,
      "åĮºåŁŁ": 1897,
      "æĮ¥": 1898,
      "å³°": 1899,
      "éĿ¢ç§¯ä¸º": 1900,
      "æķħäºĭ": 1901,
      ",åĲİ": 1902,
      "å¤º": 1903,
      "æĿľ": 1904,
      "æ°ĳä¸»": 1905,
      "èĪŀ": 1906,
      "æ¦Ĥ": 1907,
      "éĶ¦": 1908,
      "è¯Ĺ": 1909,
      "åĩºçĶŁ": 1910,
      "zh-": 1911,
      "æĹłæ³ķ": 1912,
      "è®²": 1913,
      "4æľĪ": 1914,
      "éĢĤ": 1915,
      "11æľĪ": 1916,
      "éĢĶ": 1917,
      "çļĦæĺ¯": 1918,
      "ä¹Łæĺ¯": 1919,
      "æĭľ": 1920,
      "ä¸°": 1921,
      "æľºæŀĦ": 1922,
      "çİ©": 1923,
      "çĶļ": 1924,
      "å¢ŀåĬł": 1925,
      "åĮºçļĦ": 1926,
      "éĢłæĪĲ": 1927,
      "40": 1928,
      "2019å¹´": 1929,
      "æľ±": 1930,
      "å¸ģ": 1931,
      "çĸĹ": 1932,
      "é½Ĳ": 1933,
      "æ¢ģ": 1934,
      "èį·": 1935,
      "è¾Ĩ": 1936,
      "éĻĦè¿ĳ": 1937,
      "ä¸»æķĻ": 1938,
      "è¶ħè¿ĩ": 1939,
      "çļĦäºº": 1940,
      "ç§ĺ": 1941,
      "å»·": 1942,
      "é¢Ĩå¯¼": 1943,
      "æĮī": 1944,
      "ä¼łç»Ł": 1945,
      "ç»ĵæŀľ": 1946,
      "ç½Ĺé©¬": 1947,
      "å¾Ħ": 1948,
      "ä»¥ä¸ĭ": 1949,
      "çĩ": 1950,
      "å®¾": 1951,
      "éļ¶": 1952,
      "2021å¹´": 1953,
      "ç¦ģ": 1954,
      ",åį³": 1955,
      "ãĢįçļĦ": 1956,
      "æĴ¤": 1957,
      "ä¸Ńåħ±": 1958,
      "åĿĢ": 1959,
      "æĿĲ": 1960,
      "åįĪ": 1961,
      "ing": 1962,
      "è´§": 1963,
      "&g": 1964,
      "&gt;": 1965,
      "åĩ¯": 1966,
      "åĬ¨çī©": 1967,
      "æ¸Ĳ": 1968,
      "çĬ¯": 1969,
      "èĥ¡": 1970,
      "2022å¹´": 1971,
      "as": 1972,
      "åĨĽäºĭ": 1973,
      "21": 1974,
      "ç«¥": 1975,
      "æķ¦": 1976,
      "èĪªç©º": 1977,
      "åľĨ": 1978,
      "ä½©": 1979,
      "çĽĬ": 1980,
      "çļĦæĹ¶": 1981,
      "ä»ª": 1982,
      "å¤Ł": 1983,
      "æłĩåĩĨ": 1984,
      "om": 1985,
      "åıĳå¸ĥ": 1986,
      "5æĹ¥": 1987,
      "èģļ": 1988,
      "è°¢": 1989,
      "100": 1990,
      "æĸ°éĹ»": 1991,
      "60": 1992,
      "éª¨": 1993,
      "æ··": 1994,
      "çĮ®": 1995,
      "çĽĽ": 1996,
      ",ä»İ": 1997,
      "åĨħçļĦ": 1998,
      "è¿Ķ": 1999,
      "åıªæľī": 2000,
      "ãĢĭ.": 2001,
      "ä»ģ": 2002,
      "éĥİ": 2003,
      "lt;": 2004,
      "&lt;": 2005,
      ",ä½¿": 2006,
      "çīĽ": 2007,
      ",å¹¶ä¸Ķ": 2008,
      "çļĨ": 2009,
      "æķ°éĩı": 2010,
      "æŁĲ": 2011,
      "è®¨": 2012,
      "å°±æĺ¯": 2013,
      "ç¿°": 2014,
      "åĪĳ": 2015,
      "ç©Ĩ": 2016,
      "çĤ¸": 2017,
      "æįķ": 2018,
      "éĺ¿å°Ķ": 2019,
      "å¨ľ": 2020,
      "éĿ©åĳ½": 2021,
      "èĮĥåĽ´": 2022,
      "äºİ200": 2023,
      "ch": 2024,
      "å¤§åĪ©": 2025,
      "å¸®": 2026,
      "åªĴä½ĵ": 2027,
      "ed": 2028,
      ",å°Ĩ": 2029,
      "éĻ¤äºĨ": 2030,
      "å®½": 2031,
      "å¾ĹåĪ°": 2032,
      "æľºåľº": 2033,
      "å¥³æĢ§": 2034,
      "èĮ¨": 2035,
      "å®īåħ¨": 2036,
      "è°ĥæŁ¥": 2037,
      "è¿ĩç¨ĭ": 2038,
      ",å¹¶åľ¨": 2039,
      "è§ī": 2040,
      "æİ¢": 2041,
      "ä¹ĭåīį": 2042,
      "æł¼åħ°": 2043,
      "ç»ıè¿ĩ": 2044,
      "çĤ®": 2045,
      "æĻº": 2046,
      "åºĻ": 2047,
      "åĨħå®¹": 2048,
      "åħ¬åĽŃ": 2049,
      "çĪ¶äº²": 2050,
      "å¹ķ": 2051,
      "æĪª": 2052,
      "åĲ¦": 2053,
      "éģĩ": 2054,
      "å¤ľ": 2055,
      ":âĢľ": 2056,
      "(,),": 2057,
      "éŁ©åĽ½": 2058,
      "çĶ·åŃĲ": 2059,
      "ä¹Ķ": 2060,
      "åįģäºĮ": 2061,
      "éľį": 2062,
      "èµŀ": 2063,
      "åħħ": 2064,
      "èĶ": 2065,
      "æĭ©": 2066,
      "22": 2067,
      "è½¯": 2068,
      "éĩįæĸ°": 2069,
      "å¥³åŃĲ": 2070,
      "å¹³æĸ¹åįĥç±³": 2071,
      "åĪ»": 2072,
      ")åĴĮ": 2073,
      "æīĢä»¥": 2074,
      "éľ²": 2075,
      "èµĽäºĭ": 2076,
      "æĽ¿": 2077,
      "7æĹ¥": 2078,
      "ä¼ĳ": 2079,
      "å°¤": 2080,
      "ç§ģ": 2081,
      ",åĽłä¸º": 2082,
      "åĪº": 2083,
      "ä¹ĭåĲİ,": 2084,
      "ä½įç½®": 2085,
      "å¹³åĿĩ": 2086,
      "èĸ": 2087,
      ",è¢«": 2088,
      "å«": 2089,
      "èĩªå·±çļĦ": 2090,
      "çİī": 2091,
      "è¿ĲåĬ¨åĳĺ": 2092,
      "æŁĵ": 2093,
      "çºªå¿µ": 2094,
      "å±ħæ°ĳ": 2095,
      "6æĹ¥": 2096,
      "2010å¹´": 2097,
      "ä¸ĢèĪ¬": 2098,
      "é¸Ł": 2099,
      "åĪĽä½ľ": 2100,
      "çľģ,": 2101,
      "åıĳè¡¨": 2102,
      "åºŁ": 2103,
      "ä¸ĢåĲį": 2104,
      "ç¼º": 2105,
      "éĿł": 2106,
      "us": 2107,
      "ä¸Ŀ": 2108,
      "ãģ": 2109,
      "éĴĪ": 2110,
      "æķĮ": 2111,
      ",æĽ¾": 2112,
      "åĢŁ": 2113,
      "æĺĮ": 2114,
      "çİ°ä»£": 2115,
      "ä¸º.": 2116,
      "è®¾ç«ĭ": 2117,
      "ç»©": 2118,
      "çļĦãĢĮ": 2119,
      "è¯ī": 2120,
      "æºª": 2121,
      "æĬµ": 2122,
      "éĤ®": 2123,
      "æľīéĻĲ": 2124,
      "èģĶéĤ¦": 2125,
      "åľ°,": 2126,
      "åĲĽ": 2127,
      "å·¨": 2128,
      "èľ": 2129,
      "åĲ¸": 2130,
      "å®ĩ": 2131,
      "è¥¿çıŃ": 2132,
      "è·Ł": 2133,
      "çĪµ": 2134,
      "ä¹±": 2135,
      "å±ŀçļĦ": 2136,
      ".199": 2137,
      "èĵĿ": 2138,
      "è¥¿çıŃçīĻ": 2139,
      "éªĳ": 2140,
      "å¾¡": 2141,
      "28": 2142,
      "å®ª": 2143,
      "æĹ¶çļĦ": 2144,
      "31": 2145,
      "çľ¼": 2146,
      "è®®ä¼ļ": 2147,
      "åıįå¯¹": 2148,
      "æ¼Ķåĳĺ": 2149,
      "æ¤įçī©": 2150,
      "ä¸ĢçĽ´": 2151,
      "åĿ¡": 2152,
      "æ®¿": 2153,
      "åħ±äº§": 2154,
      "æķĻæİĪ": 2155,
      "æįŁ": 2156,
      "å¾Ĵ": 2157,
      "éĽª": 2158,
      "æĿ¥çļĦ": 2159,
      "å·¥ä¸ļ": 2160,
      "åĽº": 2161,
      "æ°ĳæĹı": 2162,
      "âĢĿçļĦ": 2163,
      "è¯¸": 2164,
      "ä¾µ": 2165,
      "åĪĬ": 2166,
      "çīĪæľ¬": 2167,
      "åĮ¹": 2168,
      "æľīåħ³": 2169,
      ",å¤§": 2170,
      "ç¬¬åĽĽ": 2171,
      "éĢĥ": 2172,
      "åħ¬è·¯": 2173,
      "çĽ´æİ¥": 2174,
      "çİ°åľ¨": 2175,
      "éļĶ": 2176,
      "2023å¹´": 2177,
      "èª": 2178,
      "å»ºè®¾": 2179,
      "4æĹ¥": 2180,
      "èģĮä¸ļ": 2181,
      "æī¾": 2182,
      "çİ¯å¢ĥ": 2183,
      "è°ĭ": 2184,
      "ä¸¾åĬŀ": 2185,
      "èĦĳ": 2186,
      "æ¶¯": 2187,
      "éļıåĲİ": 2188,
      "ä¸ŃåŃ¦": 2189,
      "3æĹ¥": 2190,
      "ä¹İ": 2191,
      "éĢīæĭ©": 2192,
      "åĨĽéĺŁ": 2193,
      "çĹĩ": 2194,
      "è¿ĺæľī": 2195,
      "éĿŀå¸¸": 2196,
      "ç¿»": 2197,
      "æ¬¢": 2198,
      "èĭıèģĶ": 2199,
      "åıįåºĶ": 2200,
      "ç¼ĸçłģ": 2201,
      ",æŃ¤": 2202,
      ",åĲĮæĹ¶": 2203,
      "ä½ł": 2204,
      "(ä»Ĭ": 2205,
      "çĶ³": 2206,
      "åħ¬å¼Ģ": 2207,
      "de": 2208,
      "ä½ĵèĤ²": 2209,
      "å£¤": 2210,
      "éĥĳ": 2211,
      "å²©": 2212,
      "éĵ¶è¡Į": 2213,
      "ä¸ºãĢĮ": 2214,
      "éķ¿.": 2215,
      "æ¦ľ": 2216,
      "è£ģ": 2217,
      "èµĦæĸĻ": 2218,
      "åħ±åĲĮ": 2219,
      "æ±ĩ": 2220,
      "å½¢å¼ı": 2221,
      "åĨ³èµĽ": 2222,
      "ç©¿": 2223,
      "æĪĺæĸĹ": 2224,
      "è¡ĮæĺŁ": 2225,
      "åħĦ": 2226,
      "åı¬": 2227,
      "éĥ½æĺ¯": 2228,
      "åĨ°": 2229,
      "æĺ¾ç¤º": 2230,
      "éĤ»": 2231,
      "æ¼«": 2232,
      "åįıä¼ļ": 2233,
      "2æľĪ": 2234,
      "æĢ¥": 2235,
      "æ¿Ģ": 2236,
      "åĲįç§°": 2237,
      ".âĢĿ": 2238,
      "è·Ŀç¦»": 2239,
      ".å®ĥ": 2240,
      "27": 2241,
      "of": 2242,
      "å¥ī": 2243,
      "æĸ¹æ³ķ": 2244,
      "ç»ľ": 2245,
      "éķľ": 2246,
      "æĪĪ": 2247,
      "åŁ¹": 2248,
      "un": 2249,
      "åĶ¯": 2250,
      "æİ¨åĩº": 2251,
      "åĲįçļĦ": 2252,
      "è¯¾": 2253,
      "å°ıè¯´": 2254,
      "ç¬¦": 2255,
      "èĥŀ": 2256,
      "åĪ©çĶ¨": 2257,
      ",åıĪ": 2258,
      "å¤ļæķ°": 2259,
      "åĲ¬": 2260,
      "çĶŁæ¶¯": 2261,
      "åľ°.": 2262,
      "æ¯ģ": 2263,
      "è®®åĳĺ": 2264,
      "èĬ¬": 2265,
      "è¿«": 2266,
      "ç¾İåħĥ": 2267,
      "çĽ´åĪ°": 2268,
      "æĸ¯åĿ¦": 2269,
      "ä¹¦è®°": 2270,
      "ä¼ģä¸ļ": 2271,
      "è®¢": 2272,
      "è°Ī": 2273,
      "åĳ¼": 2274,
      "é»ĺ": 2275,
      "åĮħåĲ«": 2276,
      "èĩªæ²»": 2277,
      "ä¸ºâĢľ": 2278,
      "å¾ħ": 2279,
      "æ³ķå¾ĭ": 2280,
      "éĽ¨": 2281,
      "ä¹ĭä¸Ģ.": 2282,
      "éĨ": 2283,
      "ä¸Ģèµ·": 2284,
      "ç®¡è¾ĸ": 2285,
      "æĮĩæĮ¥": 2286,
      "åĳĪ": 2287,
      "èĤ¯": 2288,
      "St": 2289,
      "è¿Ļä¸Ģ": 2290,
      "åģ¥": 2291,
      "å®Įåħ¨": 2292,
      "(C": 2293,
      "ä¸»ä»»": 2294,
      "æĢĢ": 2295,
      "èĢ³": 2296,
      "åı°åĮĹ": 2297,
      "ä¸Ńåįİæ°ĳåĽ½": 2298,
      "çĶŁçī©": 2299,
      "æĸ°çļĦ": 2300,
      "ï¼į": 2301,
      "çĸĳ": 2302,
      "æ³Ľ": 2303,
      "å®¶åºŃ": 2304,
      "éķ¿,": 2305,
      "èµµ": 2306,
      "åĿļ": 2307,
      "ä¸ľåĮĹ": 2308,
      "ä¸įæĺ¯": 2309,
      "26": 2310,
      "æ³ķéĻ¢": 2311,
      "äººç±»": 2312,
      "åľ°çĲĨ.": 2313,
      "èİī": 2314,
      "éĻµ": 2315,
      "æĦ¿": 2316,
      "ent": 2317,
      "âĢĶâĢĶ": 2318,
      "ãĤ": 2319,
      ".çĶ±äºİ": 2320,
      "and": 2321,
      "æĵį": 2322,
      "æĹĭ": 2323,
      "æĪĳä»¬": 2324,
      "å®¶æĹı": 2325,
      "èĩªçĦ¶": 2326,
      "å§ĵ": 2327,
      "åı¦ä¸Ģ": 2328,
      "æľīä¸Ģ": 2329,
      "åŃ¦ä¹ł": 2330,
      "åľ°çļĦ": 2331,
      "åĨįæ¬¡": 2332,
      "ri": 2333,
      "2024å¹´": 2334,
      "æ¶ī": 2335,
      "çĶµåŃĲ": 2336,
      "å¤§éĩı": 2337,
      ",æĪĲä¸º": 2338,
      ",å®ĥ": 2339,
      "æŀļ": 2340,
      "æĮĩåĩº": 2341,
      "é¢Ĺ": 2342,
      "æĶ¿çŃĸ": 2343,
      "åħ³äºİ": 2344,
      ",å±ŀäºİ": 2345,
      "æĪ´": 2346,
      "æ¯«": 2347,
      "åŃ©": 2348,
      "èĦ±": 2349,
      "æī§è¡Į": 2350,
      "åĬ¨çĶ»": 2351,
      "çĶļèĩ³": 2352,
      "åĪĨä¸º": 2353,
      "2016å¹´": 2354,
      "çĲĨè®º": 2355,
      "35": 2356,
      "3.": 2357,
      "åĲį:": 2358,
      "è¡¨çİ°": 2359,
      "èŀį": 2360,
      ":ãĢĮ": 2361,
      "æľĪ1æĹ¥": 2362,
      "åĲİçļĦ": 2363,
      "å¿ħé¡»": 2364,
      "åĮ»éĻ¢": 2365,
      ",000": 2366,
      "ä½į.": 2367,
      "29": 2368,
      "æļĤ": 2369,
      "åŁºç¡": 2370,
      "åį±": 2371,
      "ç»¿": 2372,
      "ä»¥æĿ¥": 2373,
      "è¡Įä¸º": 2374,
      "å°ĨåĨĽ": 2375,
      "å¦»": 2376,
      "8å¹´,": 2377,
      "ç§ĭ": 2378,
      "ä¸ľéĥ¨": 2379,
      "çĽĺ": 2380,
      "æľĢä½³": 2381,
      "æģĴ": 2382,
      "å¢ĥåĨħ": 2383,
      "å°½ç®¡": 2384,
      "2011å¹´": 2385,
      "èĪį": 2386,
      "ow": 2387,
      "æīİ": 2388,
      "æĢ§çļĦ": 2389,
      ".198": 2390,
      "æľĢåĪĿ": 2391,
      "åĿĲ": 2392,
      "èĿ": 2393,
      "é¡¾": 2394,
      "æĸĩåŃ¦": 2395,
      "åŁºç¡Ģ": 2396,
      "æĶ¹ä¸º": 2397,
      "åį·": 2398,
      "æ¨ª": 2399,
      "2018å¹´": 2400,
      "ç¾½": 2401,
      "æŁı": 2402,
      "ä¸ŃåĽ½å¤§éĻĨ": 2403,
      "ä¹Ī": 2404,
      "å¾·Â·": 2405,
      "åĬª": 2406,
      "å®ĺæĸ¹": 2407,
      "()æĺ¯ä½įäºİ": 2408,
      "ç¿¼": 2409,
      "ç´§": 2410,
      "åįļçī©": 2411,
      "èīĩ": 2412,
      "2å¹´,": 2413,
      "åķĨä¸ļ": 2414,
      "ç¯ĩ": 2415,
      "çľģä»½": 2416,
      "è¾Ľ": 2417,
      "æĶ»åĩ»": 2418,
      "3å¹´,": 2419,
      "æ»¨": 2420,
      "æĦıå¤§åĪ©": 2421,
      "è´¡": 2422,
      "5æĹ¥,": 2423,
      "åħ¬åħ±": 2424,
      "å¥ı": 2425,
      "ä¹°": 2426,
      "çī©ç§į": 2427,
      "æŃ»äº¡": 2428,
      "æĴŃåĩº": 2429,
      "ur": 2430,
      "æ¡ĳ": 2431,
      "éĴ±": 2432,
      "æĬ¥åĳĬ": 2433,
      "ç±»ä¼¼": 2434,
      "åĿı": 2435,
      "æĻ®æŁ¥": 2436,
      "æľŁéĹ´,": 2437,
      "éŃĶ": 2438,
      "ç¼©": 2439,
      "åĮº,": 2440,
      "ä¸Ń.": 2441,
      "æľĿé²ľ": 2442,
      "1å¹´,": 2443,
      "5å¹´,": 2444,
      "æĶ¿æ²»äººçī©": 2445,
      "æ´ª": 2446,
      "å¸Ĥåľº": 2447,
      "2014å¹´": 2448,
      "æĹ©æľŁ": 2449,
      "èĥ½åĬĽ": 2450,
      "¤Ĳ": 2451,
      "æ½ľ": 2452,
      "4å¹´,": 2453,
      "å®ŀéĻħ": 2454,
      "äºļæ´²": 2455,
      "èĨ": 2456,
      "æııè¿°": 2457,
      "å¢ĵ": 2458,
      "ad": 2459,
      "è¯¯": 2460,
      "æ¼Ķåĩº": 2461,
      "è§Ħæ¨¡": 2462,
      "80": 2463,
      "çº¦ç¿°": 2464,
      "åĽ¢ä½ĵ": 2465,
      "åĬłæĭ¿": 2466,
      "6å¹´,": 2467,
      "éģ¿": 2468,
      "å¿ł": 2469,
      "åħ¨çĲĥ": 2470,
      "ç»į": 2471,
      "æ®ĸ": 2472,
      "åİ»ä¸ĸ": 2473,
      "æĭįæĳĦ": 2474,
      "å¤ĦçĲĨ": 2475,
      "æĺ¯ä¸Ģä¸ª": 2476,
      "æłĸ": 2477,
      "æµ·æĭĶé«ĺåº¦": 2478,
      "çģŃ": 2479,
      "ä¹ĭéĹ´çļĦ": 2480,
      "è¥¿éĥ¨": 2481,
      "å¤ĸäº¤": 2482,
      "å¹¿ä¸ľ": 2483,
      "ä¸ĭçļĦ": 2484,
      "éľĩ": 2485,
      "æµĻ": 2486,
      "2017å¹´": 2487,
      "2012å¹´": 2488,
      "åĪ¶éĢł": 2489,
      "éĵľ": 2490,
      "èµ·,": 2491,
      "2015å¹´": 2492,
      "èĥ½å¤Ł": 2493,
      "ä¸¥éĩį": 2494,
      "å¤§ä¼ļ": 2495,
      "å»ī": 2496,
      "ç¦»å¼Ģ": 2497,
      "ç«¹": 2498,
      "çļĦåľ°": 2499,
      "äººåı£.": 2500,
      "çĸ«": 2501,
      "åŁºæľ¬": 2502,
      "ãĢį(": 2503,
      "å®ĹæķĻ": 2504,
      "æģ¶": 2505,
      "æ±½": 2506,
      "å®ľ": 2507,
      "è¿·": 2508,
      "ig": 2509,
      "ä¼į": 2510,
      "çºªå½ķ": 2511,
      "é³į": 2512,
      "ä¸ºä¸»": 2513,
      "ä½ľçĶ¨": 2514,
      "è¿¹": 2515,
      "è¿Ļç§į": 2516,
      "çļĦâĢľ": 2517,
      "éĹŃ": 2518,
      "å¥Ĺ": 2519,
      "2001å¹´": 2520,
      "æĮģç»Ń": 2521,
      "åĿĹ": 2522,
      "åģı": 2523,
      "å°ıæĹ¶": 2524,
      "ä»ĺ": 2525,
      "è®¡ç®Ĺ": 2526,
      "2013å¹´": 2527,
      "è·¯çº¿": 2528,
      "2009å¹´": 2529,
      "189": 2530,
      "th": 2531,
      "(),æĺ¯": 2532,
      "æī¬": 2533,
      ".194": 2534,
      "åħ±äº§åħļ": 2535,
      "äºĭåĬ¡": 2536,
      "åŃĶ": 2537,
      "è¯¥åĽ½": 2538,
      "ç©ºéĹ´": 2539,
      "çļĦä¸Ģä¸ªå¸Ĥéķĩ": 2540,
      "èµĸ": 2541,
      "è¡£": 2542,
      "8æĹ¥": 2543,
      "è¿İ": 2544,
      ",ä½Ĩæĺ¯": 2545,
      "70": 2546,
      "6æĹ¥,": 2547,
      "å°Ķæĸ¯": 2548,
      "æ³ī": 2549,
      "åĪļ": 2550,
      "7å¹´,": 2551,
      "è¾ħ": 2552,
      "the": 2553,
      "å¸ĮæľĽ": 2554,
      "ä»»åĬ¡": 2555,
      "4æĹ¥,": 2556,
      "çĽ®æłĩ": 2557,
      "æŀĲ": 2558,
      "èĦī": 2559,
      "ä¸īä¸ª": 2560,
      "å¥¹çļĦ": 2561,
      "æ±ł": 2562,
      "ç»Łæ²»": 2563,
      "æİ¥å£¤": 2564,
      "èªī": 2565,
      "ä¼°": 2566,
      "åı¦å¤ĸ": 2567,
      "æĸ¹åĲĳ": 2568,
      "æ¸¡": 2569,
      "æģĲ": 2570,
      "ç¼ĺ": 2571,
      "æĸĩçī©": 2572,
      "(åŃ¦": 2573,
      "ç¬¬åįģ": 2574,
      "ä¸ľåįĹ": 2575,
      "åĬŁèĥ½": 2576,
      "èĳ£": 2577,
      "éļľ": 2578,
      "7æĹ¥,": 2579,
      "å¼ĥ": 2580,
      "å¹´çļĦ": 2581,
      ",åı¯": 2582,
      "åįķæĽ²": 2583,
      "éĺ¿æĭī": 2584,
      "ãĢī": 2585,
      "ãĢĪ": 2586,
      "åĬłæĭ¿å¤§": 2587,
      "çº½çº¦": 2588,
      "å¢¨": 2589,
      "éĶ¦æłĩ": 2590,
      "æĭĽ": 2591,
      "äº«": 2592,
      "è·¨": 2593,
      "è®¾æĸ½": 2594,
      "æľĪåı°": 2595,
      "èµ¤": 2596,
      "å¯»": 2597,
      "192": 2598,
      "èµĽåŃ£": 2599,
      ".çĦ¶èĢĮ": 2600,
      "èħĬ": 2601,
      "æĺ¯çĶ±": 2602,
      "åīĳ": 2603,
      "éĢıè¿ĩ": 2604,
      "çĶĺ": 2605,
      "äºķ": 2606,
      "ä¿±ä¹Ĳ": 2607,
      "è§Ħå®ļ": 2608,
      "ä¸»æĮģ": 2609,
      "éĶ¡": 2610,
      "éŃı": 2611,
      "çĲĥåĳĺ": 2612,
      "éĢĬ": 2613,
      "ä¿±ä¹Ĳéĥ¨": 2614,
      "éĺ»": 2615,
      "åĪĨå¸ĥäºİ": 2616,
      "(åŃ¦åĲį:": 2617,
      "ä»įçĦ¶": 2618,
      "åįļçī©é¦Ĩ": 2619,
      "éĢīåĮº": 2620,
      "åıĺåĮĸ": 2621,
      "æĥł": 2622,
      "åĲĪå¹¶": 2623,
      "è´¸": 2624,
      "åĲį,": 2625,
      "è§£æĶ¾": 2626,
      "åĽ½çİĭ": 2627,
      "çĳŁ": 2628,
      "ä¸Ģæ¬¡": 2629,
      ",æīĢä»¥": 2630,
      "é¢ģ": 2631,
      "åħ¬å¸ĥ": 2632,
      "å·´å£«": 2633,
      "å¼ĢæĶ¾": 2634,
      "å¹¿æĴŃ": 2635,
      "åĨ¬": 2636,
      "åħĭæĸ¯": 2637,
      "ç»ĺ": 2638,
      "å¦Ĥæŀľ": 2639,
      ",å¯¹": 2640,
      "åħĭéĩĮ": 2641,
      "4.": 2642,
      "äº®": 2643,
      "2008å¹´": 2644,
      "3æĹ¥,": 2645,
      "ä»ĸåľ¨": 2646,
      "èĤī": 2647,
      "è¾¾åĪ°": 2648,
      "å®ŀéªĮ": 2649,
      "èµ¢": 2650,
      "ä¹Łæľī": 2651,
      ",æľĢç»Ī": 2652,
      "åĶ¯ä¸Ģ": 2653,
      "åİŁåĽł": 2654,
      ",ä»ĸä»¬": 2655,
      "è¸": 2656,
      "å½ĵä¸Ń": 2657,
      "éĢĲæ¸Ĳ": 2658,
      "æį·": 2659,
      "èıĮ": 2660,
      "åıĳåĬ¨": 2661,
      "éĥ¨éķ¿": 2662,
      "äººåı£æĻ®æŁ¥": 2663,
      "çĥŃå¸¦": 2664,
      "çº²": 2665,
      "åĦ¿åŃĲ": 2666,
      "ç»¼": 2667,
      "é©¬æĿ¥": 2668,
      "åĵ²": 2669,
      "çŁ¿": 2670,
      "è¿ŀæİ¥": 2671,
      "å½ĵéĢī": 2672,
      "45": 2673,
      "æ¨¡å¼ı": 2674,
      "å¾Ĳ": 2675,
      "ç¹": 2676,
      "å¤§åĮº": 2677,
      "è¾ŀ": 2678,
      "ç¬¬ä¸Ģæ¬¡": 2679,
      "ä¸ľäº¬": 2680,
      "åı·çº¿": 2681,
      "çģ¾": 2682,
      "èĴĻåı¤": 2683,
      "åħĭÂ·": 2684,
      "è¿ĲåĬ¨ä¼ļ": 2685,
      "å®ļä¹ī": 2686,
      "2,": 2687,
      "è¯Ń:": 2688,
      "id": 2689,
      ",æ¯ı": 2690,
      "æľīéĻĲåħ¬åı¸": 2691,
      "os": 2692,
      "çĽ¸å½ĵ": 2693,
      "éĺ´": 2694,
      "èĽĭ": 2695,
      "åĲĦç§į": 2696,
      "è®Ńç»ĥ": 2697,
      "æ´ŀ": 2698,
      "ç¨³": 2699,
      "ç»Ĩèĥŀ": 2700,
      "æ½®": 2701,
      "çĽ¸åĲĮ": 2702,
      "ra": 2703,
      "åĩ»è´¥": 2704,
      ",æĪĸ": 2705,
      "å¦ĩ": 2706,
      "åıĻ": 2707,
      "æ¼ĶåĶ±": 2708,
      "é£İæł¼": 2709,
      "å¤ªå¹³": 2710,
      "çĬ¹": 2711,
      "å¤ªéĺ³": 2712,
      "å¦¹": 2713,
      "190": 2714,
      ",ä¾ĭå¦Ĥ": 2715,
      "èĢħçļĦ": 2716,
      "ç¹ģ": 2717,
      "IN": 2718,
      "æ°§": 2719,
      "éģĵè·¯": 2720,
      "ä½Ĳ": 2721,
      "ct": 2722,
      "æĪĲç»©": 2723,
      "48": 2724,
      "æļĹ": 2725,
      "æŃĮæīĭ": 2726,
      "æİĮ": 2727,
      "TC": 2728,
      "æĭĴ": 2729,
      "å¥¥è¿Ĳ": 2730,
      "æ»ĳ": 2731,
      "åı¸ä»¤": 2732,
      "(åį³": 2733,
      "æģ¢": 2734,
      "çİ©å®¶": 2735,
      "ä¸ĵä¸ļ": 2736,
      "å¹¶ä¸į": 2737,
      "éĺ¶æ®µ": 2738,
      "äººå£«": 2739,
      ",ä¸Ķ": 2740,
      "ter": 2741,
      "éĴ¢": 2742,
      ".195": 2743,
      "è¥¿åįĹ": 2744,
      "åĢĴ": 2745,
      "2025å¹´": 2746,
      "åĨ·": 2747,
      "åĨĮ": 2748,
      "æī¹è¯Ħ": 2749,
      ".ãĢį": 2750,
      "è¥¿åĮĹ": 2751,
      "èĻİ": 2752,
      "çĲ´": 2753,
      "ä¸įåĲĮçļĦ": 2754,
      "ç§Ł": 2755,
      "å»ºéĢł": 2756,
      "ä¸Ģæł·": 2757,
      "è®¾ç½®": 2758,
      "äº§åĵģ": 2759,
      "ä¼Ĳ": 2760,
      ",åĮĹ": 2761,
      "âĢĵ": 2762,
      "zh-h": 2763,
      "åĬŀåħ¬": 2764,
      "è½¨éģĵ": 2765,
      "åĪĨ,": 2766,
      "æĺĤ": 2767,
      "ç¨İ": 2768,
      "9å¹´,": 2769,
      "é©±": 2770,
      "ä¿Ĺ": 2771,
      ".å½ĵ": 2772,
      "å¾½": 2773,
      "äºİ199": 2774,
      "ä¸įè¿ĩ": 2775,
      "è¡ĮæĶ¿åĮº": 2776,
      "çıł": 2777,
      "è¢«ç§°ä¸º": 2778,
      "éº»": 2779,
      "èīĺ": 2780,
      "å¥Ī": 2781,
      "éĶĻ": 2782,
      "ç¡¬": 2783,
      "åĿĳ": 2784,
      "èĥĮæĻ¯": 2785,
      "åľĪ": 2786,
      "å®ļçļĦ": 2787,
      "å¹¼": 2788,
      "åĳ³": 2789,
      "çĶº": 2790,
      "çĪĨåıĳ": 2791,
      "å½¼": 2792,
      "æĬ¥ãĢĭ": 2793,
      "æµĻæ±Ł": 2794,
      "åĪĨéĴŁ": 2795,
      "å°ıè¡ĮæĺŁ": 2796,
      "æĤ£": 2797,
      "çļĦä¸Ģéĥ¨åĪĨ": 2798,
      "éĺģ": 2799,
      "çī¹Â·": 2800,
      "èĳ¡": 2801,
      "å¢Ļ": 2802,
      "å½©": 2803,
      "ä¼¦æķ¦": 2804,
      "ä¹Ļ": 2805,
      "90": 2806,
      "åŃ¦èĢħ": 2807,
      "å¤§æĪĺ": 2808,
      "æµ¦": 2809,
      "æģ¢å¤į": 2810,
      "åºĶçĶ¨": 2811,
      "å¸ĮèħĬ": 2812,
      "ä¸īåįģ": 2813,
      "æĶ¹éĿ©": 2814,
      "çļĦä¸»": 2815,
      "åįĸ": 2816,
      "æ¯įäº²": 2817,
      "è§¦": 2818,
      "9æĹ¥": 2819,
      "èº«ä»½": 2820,
      "çº¸": 2821,
      "å¯¿": 2822,
      "um": 2823,
      "çļĦ,": 2824,
      "36": 2825,
      "éĥ¨éĹ¨": 2826,
      "èŃ¦å¯Ł": 2827,
      "æİĴåĲį": 2828,
      "ç¬Ķ": 2829,
      "å±±ä¸ľ": 2830,
      "è±ª": 2831,
      "åĽ°": 2832,
      "æ®ĭ": 2833,
      "é£ŀæľº": 2834,
      "im": 2835,
      "åĪ¶åº¦": 2836,
      "åīĤ": 2837,
      "ä¸Ģä½į": 2838,
      "éĿĴå¹´": 2839,
      "ä¸įèĥ½": 2840,
      "èİİ": 2841,
      "èķ": 2842,
      "è¡¨ç¤º,": 2843,
      "ä¿ĥ": 2844,
      ",äº¦": 2845,
      "çĤ¹.": 2846,
      "ä¸ĭè¾ĸ": 2847,
      "è¯Ħè®º": 2848,
      "è¿Ľå£«": 2849,
      "ç²ī": 2850,
      "æĽ¾ç»ı": 2851,
      "æľĢå¤§": 2852,
      "âĢ¦": 2853,
      "æĬķèµĦ": 2854,
      ",ä¹Łæĺ¯": 2855,
      "èĦļ": 2856,
      "éĢĿ": 2857,
      "é«ĺéĢŁ": 2858,
      "ç½ĳç»ľ": 2859,
      "ir": 2860,
      "å¤ıåŃ£": 2861,
      "ot": 2862,
      "è£Ĥ": 2863,
      "è®°è½½": 2864,
      "æ¡£": 2865,
      "æ¥ļ": 2866,
      "æµª": 2867,
      "èµı": 2868,
      "æ¢¦": 2869,
      "å°Ĩåħ¶": 2870,
      "å¯¼æ¼Ķ": 2871,
      "38": 2872,
      "åĮĸåŃ¦": 2873,
      "æ²ī": 2874,
      "èµĦæł¼": 2875,
      "éĽ¶": 2876,
      "(A": 2877,
      "å¤©æ´¥": 2878,
      "od": 2879,
      "å¹¿å·ŀ": 2880,
      "æĺŃ": 2881,
      "äº¨": 2882,
      "ãĢįãĢģ": 2883,
      "æŁ±": 2884,
      "æĭŁ": 2885,
      "å¾Īå¤ļ": 2886,
      "åģ¶": 2887,
      "åĨĪ": 2888,
      "å°Ĭ": 2889,
      "çĶµè§Ĩåı°": 2890,
      "å¸®åĬ©": 2891,
      "åįļå£«": 2892,
      "éĤĢ": 2893,
      "çļĦæĸ°": 2894,
      "çĽĲ": 2895,
      "2007å¹´": 2896,
      "å¼±": 2897,
      "éģĵ,": 2898,
      "éķ¿ãĢģ": 2899,
      "è®·": 2900,
      "çĸĨ": 2901,
      "åı«": 2902,
      "ç¬¬äºĶ": 2903,
      "éĻ·": 2904,
      ",çİ°": 2905,
      "åħ¨éĥ¨": 2906,
      "åĪĨåŃĲ": 2907,
      "å´ĩ": 2908,
      "æģĭ": 2909,
      "ä»Ļ": 2910,
      "æ¶ħ": 2911,
      "çĭ±": 2912,
      "çĴ": 2913,
      "è¯Ĭ": 2914,
      "ation": 2915,
      "37": 2916,
      "ç±³.": 2917,
      "ç¾¤å²Ľ": 2918,
      "äºİ18": 2919,
      "éĿĻ": 2920,
      "å¥¥æŀĹ": 2921,
      "ä»»åĳ½": 2922,
      ",ä¸¤": 2923,
      "éĻĨåĨĽ": 2924,
      "åĨľä¸ļ": 2925,
      "æĿĤå¿Ĺ": 2926,
      "æ±Ĺ": 2927,
      "ç»ķ": 2928,
      "åŁºçĿ£": 2929,
      "é¤Ĳ": 2930,
      "In": 2931,
      "çļĦçī¹": 2932,
      "ä¸įä¼ļ": 2933,
      "åħ¬å°º": 2934,
      ".æł¹æį®": 2935,
      "æķ´ä¸ª": 2936,
      "åĲįåŃĹ": 2937,
      "è£Ķ": 2938,
      "ve": 2939,
      "åĲķ": 2940,
      "ç®Ģç§°": 2941,
      "çĶ·æĢ§": 2942,
      "ãĢĭä¸Ń": 2943,
      "ç«ĭæ³ķ": 2944,
      "æ¶²": 2945,
      "èļ": 2946,
      "å¤ļæ¬¡": 2947,
      "ç¥Ń": 2948,
      "é¢ĨåŁŁ": 2949,
      "èµ¢å¾Ĺ": 2950,
      ".å¥¹": 2951,
      "å»ºè®®": 2952,
      "åıĬåħ¶": 2953,
      "è´Ŀå°Ķ": 2954,
      "ä½ľå®¶": 2955,
      "é¼ĵ": 2956,
      "ç¬¬äºĮæ¬¡": 2957,
      "ä¾¯": 2958,
      "(M": 2959,
      "æ©": 2960,
      "è¿ŀç»Ń": 2961,
      "æĿĳãĢģ": 2962,
      "åĪĨæŀĲ": 2963,
      "è¡¨æ¼Ķ": 2964,
      "çĸ¾": 2965,
      "ä¼´": 2966,
      "ä¼Ł": 2967,
      "åįĹäº¬": 2968,
      "ia": 2969,
      "ä»ĸä»¬çļĦ": 2970,
      "éĶ¦æłĩèµĽ": 2971,
      "åĲĮæł·": 2972,
      "èĻĳ": 2973,
      "å¹¿åľº": 2974,
      "åĮħæĭ¬:": 2975,
      "å¥¥æŀĹåĮ¹": 2976,
      "æĢ»äººåı£": 2977,
      "ç»ıå¸¸": 2978,
      "åĩºçļĦ": 2979,
      "(,)æĺ¯": 2980,
      "åħ¬éĩĮ,": 2981,
      "åĪĻæĺ¯": 2982,
      "ä¸ĺ": 2983,
      "åĽĽå·Ŀ": 2984,
      "åĮºä¸º": 2985,
      "åħĪåĲİ": 2986,
      "åıĳå°Ħ": 2987,
      "ä¸Ńéĥ¨": 2988,
      "äºīè®®": 2989,
      "500": 2990,
      "åĩ¤": 2991,
      "6.": 2992,
      "(S": 2993,
      "å¹ħ": 2994,
      "åľ°ä¸ĭ": 2995,
      "é¢ľ": 2996,
      "éĥŃ": 2997,
      "åŃĲ.": 2998,
      "åľ°çĲĥ": 2999,
      "æĭĨ": 3000,
      "çī§": 3001,
      "çŃīäºº": 3002,
      "éĢŁåº¦": 3003,
      "æĪªèĩ³": 3004,
      "è®°å½ķ": 3005,
      "è®¾å¤ĩ": 3006,
      "é©¶": 3007,
      "ç¦ıå»º": 3008,
      "äººä»¬": 3009,
      "ç»´å°Ķ": 3010,
      "æĲŃ": 3011,
      "åĩºä»»": 3012,
      "ä¿ĿæĮģ": 3013,
      "åľ°åĮºçļĦ": 3014,
      "æĿ¡ä»¶": 3015,
      "å¼ķèµ·": 3016,
      "æ°´åŁŁ": 3017,
      "5.": 3018,
      "2006å¹´": 3019,
      "ç»ª": 3020,
      "æĭīæĸ¯": 3021,
      ".197": 3022,
      "çľģçļĦä¸Ģä¸ªå¸Ĥéķĩ": 3023,
      "è§ĦåĪĴ": 3024,
      "æĹ¥åĨĽ": 3025,
      "ä¼Ĭæĸ¯": 3026,
      "æŁ¯": 3027,
      "æ²³åįĹ": 3028,
      "åıĤèµĽ": 3029,
      "ä¿¡æģ¯": 3030,
      ",ä¸»è¦ģ": 3031,
      "éģŃåĪ°": 3032,
      "å¹³åı°": 3033,
      "å±ħä½ı": 3034,
      "çľģãĢģ": 3035,
      "å¤ıä»¤": 3036,
      "å¤ļçļĦ": 3037,
      "è¯¥åľ°": 3038,
      "é£ŀè¡Į": 3039,
      "UTC": 3040,
      "åĤ¨": 3041,
      "ç»Łè®¡": 3042,
      "è¢Ńåĩ»": 3043,
      "åĨħéĥ¨": 3044,
      "çĽ¸å¯¹": 3045,
      "å¹¿æ³Ľ": 3046,
      "èĻ«": 3047,
      "çī©çĲĨ": 3048,
      "è¿ĩåİ»": 3049,
      "æķĻåłĤ": 3050,
      "å®ĺåĳĺ": 3051,
      ",å¥¹": 3052,
      "è¶ĬåįĹ": 3053,
      "(æĪĸ": 3054,
      "ST": 3055,
      "èĩ³ä»Ĭ": 3056,
      "ä¸ĢæŃ¥": 3057,
      "æĪĺå½¹": 3058,
      "2005å¹´": 3059,
      "æĭĴç»Ŀ": 3060,
      "èĶ¡": 3061,
      "æĸ¯ç§ĳ": 3062,
      "å¤ļä¸ª": 3063,
      "æ£Ĵ": 3064,
      "èĭ±æĸĩ": 3065,
      "è´¸æĺĵ": 3066,
      "åħģ": 3067,
      "è§Ī": 3068,
      "æłĸæģ¯": 3069,
      "çĵ¦å°Ķ": 3070,
      "å¥¥æŀĹåĮ¹åħĭ": 3071,
      "åŁİåĮº": 3072,
      "èĲĦ": 3073,
      "æ¯Ķäºļ": 3074,
      "èĳ¡èĲĦ": 3075,
      "åŃĲ,": 3076,
      "å¹¸": 3077,
      "æĺİæľĿ": 3078,
      "ç³ĸ": 3079,
      "åĦ¿ç«¥": 3080,
      "ag": 3081,
      "æµģè¡Į": 3082,
      "åľ¨ãĢĬ": 3083,
      "æľĢæĹ©": 3084,
      "æľĪ1æĹ¥,": 3085,
      "åĩ½": 3086,
      "å¡ŀå°Ķ": 3087,
      "ç§¦": 3088,
      "æ·¡": 3089,
      "åıĸä»£": 3090,
      "æľĪ21": 3091,
      "æĹģ": 3092,
      "é¢ĳéģĵ": 3093,
      "æ¼«çĶ»": 3094,
      "()æĺ¯ä½įäºİç¾İåĽ½": 3095,
      "é¥°æ¼Ķ": 3096,
      "éĻ¶": 3097,
      "è¿Ŀ": 3098,
      "ç¾İæ´²": 3099,
      "æľªèĥ½": 3100,
      "æ³¢åħ°": 3101,
      "ç»ıåİĨ": 3102,
      "è¡Ĺéģĵ": 3103,
      "æ±¤": 3104,
      "ç¢ĳ": 3105,
      "çļĦä¸»è¦ģ": 3106,
      "æľĪ22": 3107,
      "åĩłä¹İ": 3108,
      "æĮĳ": 3109,
      "å·´é»İ": 3110,
      "æ¦Ĥå¿µ": 3111,
      "èĻļ": 3112,
      "ãĢģå¤§": 3113,
      "éŀ": 3114,
      "å®ŀçİ°": 3115,
      "æĮ¯": 3116,
      "),æĺ¯": 3117,
      "âĢĿ(": 3118,
      "ç½ĳç«Ļ": 3119,
      "å¤Ħäºİ": 3120,
      "æľĢå¤§çļĦ": 3121,
      "å·¦åı³": 3122,
      "é¾Ħ": 3123,
      "çĦ¶åĲİ": 3124,
      "è®°èĢħ": 3125,
      "å¹´(15": 3126,
      "å®ŀæĸ½": 3127,
      "åįıåĬ©": 3128,
      "å®¿": 3129,
      "åĩıå°ĳ": 3130,
      "æĶ¹åıĺ": 3131,
      "èİ·å¾ĹäºĨ": 3132,
      "è§Ĩä¸º": 3133,
      ",èĢĮä¸Ķ": 3134,
      "è·ĳ": 3135,
      "ä¾į": 3136,
      "è¿Ī": 3137,
      "æ®Ĭ": 3138,
      ")ä¸º": 3139,
      "è½¦è¾Ĩ": 3140,
      "èĳ¬": 3141,
      "åľ°éĵģ": 3142,
      "ä¼¸": 3143,
      "éķ¿æľŁ": 3144,
      "å±ķå¼Ģ": 3145,
      "çĨĻ": 3146,
      "åĪĨç±»": 3147,
      "çļĩå¸Ŀ": 3148,
      "æĢ§.": 3149,
      "è¿Ĳè¾ĵ": 3150,
      "æĺĨ": 3151,
      "ç§ĳæĬĢ": 3152,
      "å¤§éĥ¨åĪĨ": 3153,
      "èĭ±æł¼åħ°": 3154,
      "åĩºçĶŁäºİ": 3155,
      "éķ¿çļĦ": 3156,
      "å½±çīĩ": 3157,
      "ç±»åŀĭ": 3158,
      ",æķħ": 3159,
      "op": 3160,
      "ä¼ļåľ¨": 3161,
      "ä¹ĥ": 3162,
      "èĮ¶": 3163,
      "çĬ¶æĢģ": 3164,
      "çļĦæĹ¶åĮºä¸º": 3165,
      "æ¯Ķè¾ĥ": 3166,
      "éģį": 3167,
      "ç¬¬ä¸Ģä¸ª": 3168,
      "ç»ıèĲ¥": 3169,
      "åįłé¢Ĩ": 3170,
      "åİ¿çļĦ": 3171,
      "åī§æĥħ": 3172,
      "æ¾³éĹ¨": 3173,
      "çº¿çļĦ": 3174,
      "æĬķç¥¨": 3175,
      "ç»§æī¿": 3176,
      "å®ħ": 3177,
      "ä½ľæĪĺ": 3178,
      "çĥ§": 3179,
      "åĽ½çļĦ": 3180,
      "ä¼ļ.": 3181,
      "æ²»çĸĹ": 3182,
      "æŃ¦åĻ¨": 3183,
      "éĻĲåĪ¶": 3184,
      "34": 3185,
      "7.": 3186,
      "åįģä¸Ģ": 3187,
      "br": 3188,
      "ä¸ļåĬ¡": 3189,
      "åŁºäºİ": 3190,
      "è¯´,": 3191,
      "èį·åħ°": 3192,
      "çŃ¹": 3193,
      "8æĹ¥,": 3194,
      "è§£åĨ³": 3195,
      "çº¯": 3196,
      "å¤©ä¸»æķĻ": 3197,
      "çĩĥ": 3198,
      "èĪ°éĺŁ": 3199,
      "å¨ģå»ī": 3200,
      "è½°": 3201,
      "%çļĦ": 3202,
      "åĴĮå¹³": 3203,
      "å¦®": 3204,
      "éĶ®": 3205,
      "å®£ä¼ł": 3206,
      "li": 3207,
      "çº¿è·¯": 3208,
      "åĭĭ": 3209,
      ".æŃ¤å¤ĸ,": 3210,
      "çıį": 3211,
      "SE": 3212,
      "çģ¯": 3213,
      "åľŁåľ°": 3214,
      "åİ¦": 3215,
      "åĩĨå¤ĩ": 3216,
      "ub": 3217,
      "ç´¯": 3218,
      "éĽķ": 3219,
      "å²Ń": 3220,
      "åĿĽ": 3221,
      "èµĦæºĲ": 3222,
      "The": 3223,
      "è¾½": 3224,
      "éļĲ": 3225,
      "æĬĺ": 3226,
      "çļĦæķ°æį®": 3227,
      ".193": 3228,
      "åĭĩ": 3229,
      "39": 3230,
      "åĩºäºĨ": 3231,
      "è¡¡": 3232,
      "UTC-": 3233,
      "se": 3234,
      "ä½ĵçļĦ": 3235,
      ".åĲĮ": 3236,
      "ay": 3237,
      "æĸ¹æ¡Ī": 3238,
      "èıľ": 3239,
      "æĿ¥æºĲ": 3240,
      "ç»Łä¸Ģ": 3241,
      "è¯Ħä»·": 3242,
      ",ä¸ŃåĽ½": 3243,
      "çĤİ": 3244,
      "è¯ķåĽ¾": 3245,
      "é½¿": 3246,
      "æ¸ħæľĿ": 3247,
      "äººãĢģ": 3248,
      "çĶµè§Ĩåī§": 3249,
      ",ä½įäºİè¯¥åĽ½": 3250,
      "å³¡": 3251,
      "æ±½è½¦": 3252,
      "åİŁæľ¬": 3253,
      "II": 3254,
      "æ¾³å¤§": 3255,
      "å¤§çº¦": 3256,
      "å®ĥä»¬": 3257,
      "åĮºãĢģ": 3258,
      "æĸ¯çļĦ": 3259,
      "åħ´å»º": 3260,
      "åŃŁ": 3261,
      "åħĦå¼Ł": 3262,
      "çļĦæĥħåĨµ": 3263,
      "éĵģéģĵ": 3264,
      "éĢīæīĭ": 3265,
      "äººåľ¨": 3266,
      "çł´åĿı": 3267,
      "ãĢįãĢģãĢĮ": 3268,
      "éģ£": 3269,
      ".è¿ĻäºĽ": 3270,
      "é©¬æĿ¥è¥¿äºļ": 3271,
      "åįıè®®": 3272,
      "ç£ģ": 3273,
      "æīĢåľ¨": 3274,
      "èĲ§": 3275,
      "éĤ®æĶ¿": 3276,
      "75": 3277,
      "çĲ³": 3278,
      "åĽŀåĪ°": 3279,
      "Ch": 3280,
      "è½´": 3281,
      "3,": 3282,
      "æķ¬": 3283,
      "éļıèĳĹ": 3284,
      "åĶ±çīĩ": 3285,
      "ä¸ºæ¯ı": 3286,
      "è¿Ľä¸ĢæŃ¥": 3287,
      "å£ģ": 3288,
      "åĪĿæľŁ": 3289,
      "çļĦå½±åĵį": 3290,
      "è¿Ĳè¡Į": 3291,
      "..": 3292,
      "46": 3293,
      "éĹ´,": 3294,
      "é¥®": 3295,
      "ä¸»è§Ĵ": 3296,
      "æĽ¹": 3297,
      "è¦": 3298,
      ",åıª": 3299,
      "æĶ¹ç¼ĸ": 3300,
      "çĬ¹å¤ª": 3301,
      "æħĪ": 3302,
      "ç®Ń": 3303,
      "è¿ĽæĶ»": 3304,
      "èĩªåĬ¨": 3305,
      "å¹»": 3306,
      "è¡Ķ": 3307,
      "å¨±ä¹Ĳ": 3308,
      "è¿ĺæĺ¯": 3309,
      "ç²¾ç¥ŀ": 3310,
      "æķı": 3311,
      "å°ıåŃ¦": 3312,
      "èµł": 3313,
      "ç»´æĮģ": 3314,
      "éĴĪå¯¹": 3315,
      "ä¸Ńæĸĩ": 3316,
      ",çĶ±äºİ": 3317,
      "è§Ĥä¼Ĺ": 3318,
      "æ¢°": 3319,
      "åŁºéĩĳ": 3320,
      "åľº.": 3321,
      "em": 3322,
      "è´¤": 3323,
      "æ²Ī": 3324,
      "åıĽ": 3325,
      "è¿Ľè¡ĮäºĨ": 3326,
      "åŁİéķĩ": 3327,
      "å¹³æĸ¹åįĥç±³,": 3328,
      ",å½ĵ": 3329,
      "æľºè½¦": 3330,
      "188": 3331,
      "å¤§æ¥¼": 3332,
      "ä¸Ĭ.": 3333,
      "çĶŁäºİ": 3334,
      "ç»ĦåĲĪ": 3335,
      "ä»Ķ": 3336,
      "æĢ»éĿ¢ç§¯": 3337,
      "èĢħ.": 3338,
      "è¿ĲèĲ¥": 3339,
      "è´¾": 3340,
      "ä¸»é¢ĺ": 3341,
      ".196": 3342,
      "äººåı£æķ°éĩı": 3343,
      "åľ¨æŃ¤": 3344,
      "è¾Ĳ": 3345,
      "ä¸įä¹ħ": 3346,
      "éĶĭ": 3347,
      "ç¯®": 3348,
      "çī¹å¾ģ": 3349,
      "çľģçº§": 3350,
      "å§Ĳ": 3351,
      "æŃ£åľ¨": 3352,
      ",åĪĻ": 3353,
      "çº¹": 3354,
      "å¤ªå¹³æ´ĭ": 3355,
      ".ãĢĬ": 3356,
      "éĥ¨ä»½": 3357,
      "åĬłä¸Ĭ": 3358,
      "å·ŀçļĦ": 3359,
      "èĹ¤": 3360,
      "è¢«è®¤ä¸º": 3361,
      "çģ°": 3362,
      "äº¤æĺĵ": 3363,
      "oc": 3364,
      "ver": 3365,
      "éĿ¢çļĦ": 3366,
      "ç©ºåĨĽ": 3367,
      "ç»¼åĲĪ": 3368,
      "åĨ¯": 3369,
      "å¤§åŀĭ": 3370,
      "è´Łè´£ç®¡è¾ĸ": 3371,
      "åıĮæĸ¹": 3372,
      "éĤĵ": 3373,
      "ç¡®å®ļ": 3374,
      "éĻķ": 3375,
      "æ¾³å¤§åĪ©äºļ": 3376,
      "9æĹ¥,": 3377,
      ",å°±": 3378,
      ",åįĹ": 3379,
      ",èĩª": 3380,
      "èµ´": 3381,
      "æķĻä¼ļ": 3382,
      "%.": 3383,
      "çŃĶ": 3384,
      "æľīçļĦ": 3385,
      "è§£éĩĬ": 3386,
      "ç¾İåĽ½äººåı£æĻ®æŁ¥": 3387,
      "è¯ģæĺİ": 3388,
      "åĽ¾ä¹¦": 3389,
      "ä»·åĢ¼": 3390,
      "è¿ĶåĽŀ": 3391,
      "èĳ£äºĭ": 3392,
      ",æľ¬": 3393,
      ",è¿ĻäºĽ": 3394,
      "è¦Ĩ": 3395,
      "åĲįåįķ": 3396,
      "åİļ": 3397,
      "æīĢå±ŀçļĦ": 3398,
      "ä¸º,": 3399,
      "å¾·éĩĮ": 3400,
      "æĦŁæŁĵ": 3401,
      "åĪĢ": 3402,
      "ç¨ĭåº¦": 3403,
      "äºĳåįĹ": 3404,
      "ä»°": 3405,
      "32": 3406,
      "æ³³": 3407,
      "è°±": 3408,
      "æ¹ĸåįĹ": 3409,
      "æ³ķåħ°": 3410,
      "(P": 3411,
      "ä¸»æ¼Ķ": 3412,
      "ä½į,": 3413,
      "çļĩå®¶": 3414,
      "æ²³æµģ": 3415,
      "çĥŁ": 3416,
      "åĢį": 3417,
      "å°ıç»Ħ": 3418,
      "çİĭæľĿ": 3419,
      "çļĦåīį": 3420,
      "åħĥç´ł": 3421,
      "å¼ķåıĳ": 3422,
      "å°Ķå¾·": 3423,
      "å¥³åĦ¿": 3424,
      "åĩŃ": 3425,
      "ä¿ĿçķĻ": 3426,
      "çºµ": 3427,
      "ap": 3428,
      "æĹħæ¸¸": 3429,
      "æľĭ": 3430,
      "æ¨¡åŀĭ": 3431,
      "é¦ĸéĥ½": 3432,
      "åħ¬åħĥ": 3433,
      "å¸¸è§ģ": 3434,
      "åľ°åĮº.": 3435,
      "è¶ħçº§": 3436,
      "é¬": 3437,
      "æĺ¯ä¸Ģç§į": 3438,
      "è´¢æĶ¿": 3439,
      "èĴĭ": 3440,
      "æ²Ł": 3441,
      "ä¸´æĹ¶": 3442,
      "äººåı£æķ°éĩıä¸º": 3443,
      "åĩºèº«": 3444,
      "çķª": 3445,
      "åĬłåĿ¡": 3446,
      "ut": 3447,
      "å¤©æĸĩ": 3448,
      "æī¹åĩĨ": 3449,
      ",åħ¨": 3450,
      ".åĲĮå¹´": 3451,
      "é«ĺçº§": 3452,
      "å¹´(16": 3453,
      "åĨ²çªģ": 3454,
      "åĽ½éĺ²": 3455,
      "ç½ķ": 3456,
      "è®¨è®º": 3457,
      "å°ĸ": 3458,
      "åĬĽéĩı": 3459,
      "æĺ¯åĲ¦": 3460,
      "ç¬¬åħŃ": 3461,
      "20ä¸ĸçºª": 3462,
      "ä½ĽæķĻ": 3463,
      "åĽ½ä¼ļ": 3464,
      "(E": 3465,
      "çĳŀå£«": 3466,
      "åĲĮæĦı": 3467,
      "åĽ½æ°ĳåħļ": 3468,
      "åĽ½åĨħ": 3469,
      "æ¯ıå¹´": 3470,
      "éĩįè¦ģçļĦ": 3471,
      "äºĨä¸Ģä¸ª": 3472,
      "çłĶç©¶æīĢ": 3473,
      "çĶµå½±ãĢĬ": 3474,
      "åı¥": 3475,
      "éĿĸ": 3476,
      ",ä½Ĩåľ¨": 3477,
      "æľºåħ³": 3478,
      "300": 3479,
      "è¶£": 3480,
      "é©¾": 3481,
      "å¹´è½»": 3482,
      "å¤§èĩ£": 3483,
      "æ¡ĥ": 3484,
      "è®®éĻ¢": 3485,
      "2004å¹´": 3486,
      "ç»ĵåĲĪ": 3487,
      "çļĦä¸Ģç§į": 3488,
      "åĩ¡": 3489,
      ",åĲİæĿ¥": 3490,
      "äº§ä¸ļ": 3491,
      "å·ŀå¸Ĥ": 3492,
      "è¾ī": 3493,
      "äºĮä¸ĸ": 3494,
      "è·³": 3495,
      "æĸĩçī©ä¿ĿæĬ¤": 3496,
      ",ä¸įè¿ĩ": 3497,
      "åĬĽçļĦ": 3498,
      "9.": 3499,
      "æĸ°åĬłåĿ¡": 3500,
      "æŁ´": 3501,
      "è¿ħ": 3502,
      "æĽ¾åľ¨": 3503,
      "å¤ĸçļĦ": 3504,
      ",è®©": 3505,
      "åİ¿çļĦä¸Ģä¸ª": 3506,
      "æŃ¦è£ħ": 3507,
      "æĹº": 3508,
      "åĽ½ç«ĭ": 3509,
      "æĻ®éĢļ": 3510,
      "ä¸Ĭæĺł": 3511,
      "2000å¹´": 3512,
      "ç¼ĵ": 3513,
      "çĨŁ": 3514,
      "8.": 3515,
      ",å½ĵæĹ¶": 3516,
      ",å¹¶äºİ": 3517,
      "ä¸ªæľĪ": 3518,
      "éĽĨä¸Ń": 3519,
      "ç§ĺä¹¦": 3520,
      "å»ºæĪĲ": 3521,
      "ä¸Ģå¹´": 3522,
      "åŁĶ": 3523,
      "æ°ĶåĢĻ": 3524,
      "åįģä¸ī": 3525,
      ",åİŁ": 3526,
      "æİª": 3527,
      ",äºİæĺ¯": 3528,
      "æĸ¯åŁº": 3529,
      "è§£æĶ¾åĨĽ": 3530,
      ",åı¯ä»¥": 3531,
      "å¤§ä½¿": 3532,
      "ç¥¥": 3533,
      "éģĤ": 3534,
      "æĺŁæľŁ": 3535,
      "å¥½çļĦ": 3536,
      "æ§": 3537,
      "æĶ¶åħ¥": 3538,
      "åıĸæ¶Ī": 3539,
      "ç¼ĸåı·": 3540,
      "äººæķ°": 3541,
      "åľ¨ç¾İåĽ½": 3542,
      "æ½ĺ": 3543,
      "å°ĶçļĦ": 3544,
      "ä¸ĸçķĮå¤§æĪĺ": 3545,
      "æĸĩä»¶": 3546,
      "æ³ķ.": 3547,
      "æĬķåħ¥": 3548,
      "å¿«éĢŁ": 3549,
      "æī¿è®¤": 3550,
      "ans": 3551,
      "è¥¿æ´ĭ": 3552,
      "åı¯è¾¾": 3553,
      "èŃ¦æĸ¹": 3554,
      "ant": 3555,
      "éĿŀæ´²": 3556,
      "(\"": 3557,
      "æĢ»éĥ¨": 3558,
      "å·´è¥¿": 3559,
      "ç»´äºļ": 3560,
      "br&gt;": 3561,
      "ãĢģãĢģ": 3562,
      "èĩ³å°ĳ": 3563,
      "&lt;br&gt;": 3564,
      "æł¸å¿ĥ": 3565,
      ".æľ¬": 3566,
      "é¹¿": 3567,
      "å¿Ĩ": 3568,
      "å¤§å¤ļæķ°": 3569,
      "äºĨ.": 3570,
      "éļıçĿĢ": 3571,
      "æĸĩçī©ä¿ĿæĬ¤åįķä½į": 3572,
      "è©": 3573,
      "65": 3574,
      "ä»ĵ": 3575,
      "æĿ¡çº¦": 3576,
      "47": 3577,
      "åĭ¤": 3578,
      "é£İæļ´": 3579,
      "åĽ½åĬ¡": 3580,
      "ä¹ı": 3581,
      "èĭĹ": 3582,
      "ä¸įæĸŃ": 3583,
      "èĥľåĪ©": 3584,
      "è¿Ļæł·": 3585,
      "ä¸įå°ĳ": 3586,
      "èī²åĪĹ": 3587,
      "æĢ»çĲĨ": 3588,
      "èĭ±è¯Ń": 3589,
      "æĸ¯åħĭ": 3590,
      "èĳĹä½ľ": 3591,
      "ce": 3592,
      "åŃĿ": 3593,
      "åİĦ": 3594,
      "191": 3595,
      "ç¼ħ": 3596,
      "åĪĽç«ĭ": 3597,
      "æ³Ĭ": 3598,
      "åŃĲçļĦ": 3599,
      "éĩįå»º": 3600,
      "äºº,èĢĮ": 3601,
      "9æľĪ2": 3602,
      "10æľĪ2": 3603,
      "è©¹": 3604,
      "æĹ¶ä»»": 3605,
      "ç§Ĵ": 3606,
      "ä»İäºĭ": 3607,
      "å¥¥æŀĹåĮ¹åħĭè¿ĲåĬ¨ä¼ļ": 3608,
      "æľªæĿ¥": 3609,
      "æľīæķĪ": 3610,
      "å¥¥æĸ¯": 3611,
      "è®¿éĹ®": 3612,
      "åĽ¢éĺŁ": 3613,
      "æĶ¿æ²».": 3614,
      "og": 3615,
      "è´¯": 3616,
      "çĮİ": 3617,
      "çº¦ç¿°Â·": 3618,
      "çĹħæ¯Ĵ": 3619,
      "åħ¬æ°ĳ": 3620,
      "è¥¿çľģ": 3621,
      "æ°ĳä¼Ĺ": 3622,
      "åįĬå²Ľ": 3623,
      "æ±Łèĭı": 3624,
      "ä¸Ģåº§": 3625,
      "çļĦå¸Ĥéķĩ": 3626,
      "èİ²": 3627,
      "ä¸ŃåĽ½äººæ°ĳ": 3628,
      "æĶ¶å½ķ": 3629,
      "æħķ": 3630,
      "åħģè®¸": 3631,
      "é©¬åħĭ": 3632,
      "å¹´åº¦": 3633,
      "æĴĴ": 3634,
      ",ä¹ĭåĲİ": 3635,
      "èĳĹåĲį": 3636,
      "33": 3637,
      "çŀ": 3638,
      "æµĭè¯ķ": 3639,
      "çīĮ.": 3640,
      "èĳĽ": 3641,
      "è°ĥæķ´": 3642,
      "åĮĸçļĦ": 3643,
      "æĻ¨": 3644,
      "åİ¿,": 3645,
      "ä¼ı": 3646,
      "ç¨ĭåºı": 3647,
      "çĵľ": 3648,
      "éĥ½ä¼ļ": 3649,
      "å°ĳå¹´": 3650,
      "ä¹ĲåĽ¢": 3651,
      "åĢ¾": 3652,
      "187": 3653,
      "ä¸Ģä¸ĸ": 3654,
      "æµ·å²¸": 3655,
      ",æĽ´": 3656,
      ".åħ¶ä¸Ń": 3657,
      "çİĭåĽ½": 3658,
      "èĽĭçĻ½": 3659,
      "10æľĪ,": 3660,
      "ç»ĵå©ļ": 3661,
      "éļ¶å±ŀäºİ": 3662,
      "æĻ¶": 3663,
      "éĥ½æľī": 3664,
      "ul": 3665,
      "ç¬¬ä¸ĥ": 3666,
      "çĶµèĦĳ": 3667,
      "åģľæŃ¢": 3668,
      "çĶ¨æĿ¥": 3669,
      "æ¢¯": 3670,
      "é«ĺçŃī": 3671,
      "ä»¥ä¸Ĭ": 3672,
      "æħ¢": 3673,
      "äºº(": 3674,
      "åĵĪå°Ķ": 3675,
      "çĶŁæ¶¯.": 3676,
      "çļĦçłĶç©¶": 3677,
      "èī²,": 3678,
      "amp": 3679,
      "éĺ¿æĭīä¼¯": 3680,
      "èĥģ": 3681,
      "æİ¥è¿ĳ": 3682,
      "ä¸ĭåįĪ": 3683,
      "èĢĥèĻĳ": 3684,
      "è¡ĮæĶ¿åĮºåĪĴ": 3685,
      "å±±èĦī": 3686,
      "äºİ198": 3687,
      "(J": 3688,
      "è´º": 3689,
      "åĬĽ.": 3690,
      "å°¤åħ¶": 3691,
      "æ®ĸæ°ĳ": 3692,
      "åĩĮ": 3693,
      "æĢĿæĥ³": 3694,
      "çĶµåı°": 3695,
      "ä¸ŃåĽ½åħ±äº§åħļ": 3696,
      "çĽ´èĩ³": 3697,
      "èĹ©": 3698,
      "åĳ¨è¾¹": 3699,
      "æĸ°å¢ŀ": 3700,
      "ä¸Ģå¸¦": 3701,
      "éĤĢè¯·": 3702,
      "æµ®": 3703,
      "å§Ķä¼ļ": 3704,
      "åĮ»çĸĹ": 3705,
      "ä¸įåı¯": 3706,
      "åīį,": 3707,
      "èµ·æĿ¥": 3708,
      "(),åŃĹ": 3709,
      "åħ³æ³¨": 3710,
      "æĸ¹éĿ¢,": 3711,
      "ä½¿çĶ¨çļĦ": 3712,
      "ç´«": 3713,
      "åįģåħŃ": 3714,
      "ç¡ķ": 3715,
      "é¬¼": 3716,
      "64": 3717,
      "å¦Ĥä¸ĭ": 3718,
      "çĶ³è¯·": 3719,
      ",å¯¼èĩ´": 3720,
      "æĥĬ": 3721,
      "èħ¹": 3722,
      "ind": 3723,
      "åİ¿.": 3724,
      "è§Ĥå¯Ł": 3725,
      "åĿİ": 3726,
      "åįģäºĶ": 3727,
      "æĺİæĺ¾": 3728,
      "åĨįåº¦": 3729,
      "ç¥ĸçĪ¶": 3730,
      "æĶ¿åħļ": 3731,
      "55": 3732,
      "åįģåĪĨ": 3733,
      "çĽ¸ä¼¼": 3734,
      "è¯¾ç¨ĭ": 3735,
      "å¡ĳ": 3736,
      "èĬĿ": 3737,
      "ä¹Ķæ²»": 3738,
      "åĮĪ": 3739,
      "æĢª": 3740,
      "ä¿Ĭ": 3741,
      "åĲĪçī©": 3742,
      "å®ªæ³ķ": 3743,
      "äºĭ,": 3744,
      "è¡¨è¾¾": 3745,
      "åħ±æľīäººåı£": 3746,
      "åħ¥ä¾µ": 3747,
      "å£«åħµ": 3748,
      "ä»²": 3749,
      "å®īæİĴ": 3750,
      "æĴ°": 3751,
      "åĲ¨": 3752,
      "èĭ¦": 3753,
      "æ¯ķä¸ļäºİ": 3754,
      "ak": 3755,
      "åĬ±": 3756,
      "ç½ļ": 3757,
      "åĪ°è¾¾": 3758,
      "äººæ°ĳæĶ¿åºľ": 3759,
      "AT": 3760,
      "å¨ģå°Ķ": 3761,
      "3æľĪ,": 3762,
      "å¥´": 3763,
      "æĶ¯æı´": 3764,
      "ç§»åĬ¨": 3765,
      "åŃ¦æľ¯": 3766,
      "æ³¥": 3767,
      "æĴŀ": 3768,
      ",è¥¿": 3769,
      "ä¸įåĨį": 3770,
      "186": 3771,
      "3æľĪ2": 3772,
      "éĶĢåĶ®": 3773,
      "(B": 3774,
      "å±¿": 3775,
      "åĢĻéĢī": 3776,
      "æĿī": 3777,
      "è·¯æĺĵ": 3778,
      "çĽĹ": 3779,
      "%,": 3780,
      "æĭīåħĭ": 3781,
      "å·¥ä½ľ.": 3782,
      "ç¦Ħ": 3783,
      "0å¹´,": 3784,
      "éĩįçĤ¹": 3785,
      "çĶ¨çļĦ": 3786,
      "æĹłçº¿": 3787,
      "9æľĪ,": 3788,
      "è¯¦": 3789,
      "1æľĪ,": 3790,
      "ä¸§": 3791,
      "ä¼Ĭæĸ¯åħ°": 3792,
      "åĹ": 3793,
      ".æľī": 3794,
      "12æľĪ2": 3795,
      "åºĶè¯¥": 3796,
      "çĨĬ": 3797,
      "âĢĿãĢģ": 3798,
      ",ãĢĬ": 3799,
      "ãĢĭåĴĮ": 3800,
      "æĹ¨": 3801,
      "è¥¿åĵ¥": 3802,
      "çī¹çļĦ": 3803,
      ",ä¸ľ": 3804,
      "8æľĪ2": 3805,
      "ä»¥èī²åĪĹ": 3806,
      "ç¢į": 3807,
      "çļĦæĹ¶åĢĻ": 3808,
      "çİ°è±¡": 3809,
      "å¦»åŃĲ": 3810,
      "éģĹåĿĢ": 3811,
      "çĹĽ": 3812,
      "ä¸ºæ³ķåĽ½": 3813,
      "ä¼ļ,": 3814,
      "çĶ¨æĪ·": 3815,
      "åıĺæĪĲ": 3816,
      "ç²Ĵ": 3817,
      "åľ°åĪ©": 3818,
      "èī²çļĦ": 3819,
      "çĮª": 3820,
      "å°±è¯»": 3821,
      "åı¯èĥ½æĺ¯": 3822,
      "éĩĳå±ŀ": 3823,
      "æĹ§å¸Ĥéķĩ": 3824,
      "6æľĪ2": 3825,
      "æĬµè¾¾": 3826,
      ".åĽłæŃ¤": 3827,
      "åįģåĽĽ": 3828,
      "æĿĲæĸĻ": 3829,
      "æĹ©å¹´": 3830,
      "éī": 3831,
      "12æľĪ,": 3832,
      ",è¿ĺ": 3833,
      "éĤ®æĶ¿ç¼ĸçłģ": 3834,
      "ä¹³": 3835,
      "æĢ»çĿ£": 3836,
      "è´¨éĩı": 3837,
      "éĺħ": 3838,
      "æıĲåįĩ": 3839,
      "ä¸įæĺİ": 3840,
      "çĦ¦": 3841,
      "49": 3842,
      "æŀĦæĪĲ": 3843,
      "å°ĳæķ°": 3844,
      "åįģåħ«": 3845,
      "åīįçļĦ": 3846,
      "èģĮåĬ¡": 3847,
      "ab": 3848,
      "åºĬ": 3849,
      "è·ĥ": 3850,
      "çĩķ": 3851,
      "å®īè£ħ": 3852,
      "æŁ³": 3853,
      "åı·.": 3854,
      "ç¨³å®ļ": 3855,
      "8æľĪ,": 3856,
      "åį«æĺŁ": 3857,
      "å½Ń": 3858,
      "20æĹ¥": 3859,
      "æ±¡": 3860,
      "äººåı£å¯Ĩåº¦ä¸ºæ¯ı": 3861,
      "é«ĺçļĦ": 3862,
      "éĢĿä¸ĸ": 3863,
      "å·¥åİĤ": 3864,
      "ard": 3865,
      "æŁĲäºĽ": 3866,
      "æ¯ĶåĪ©": 3867,
      "äºĭ.": 3868,
      "30æĹ¥": 3869,
      "å±ı": 3870,
      "å¹´ä»£": 3871,
      "æ¡Ĥ": 3872,
      "éĦ": 3873,
      "èĪĴ": 3874,
      "çº¿.": 3875,
      "ä½ĵç³»": 3876,
      "æģĴæĺŁ": 3877,
      "æĬļ": 3878,
      "çī©è´¨": 3879,
      "åĴ¸": 3880,
      "é¡µ": 3881,
      "å¡ĺ": 3882,
      "å»ºäºİ": 3883,
      "å¤±åİ»": 3884,
      "7æľĪ,": 3885,
      "ä»ªå¼ı": 3886,
      "åĿĬ": 3887,
      "ä½ĵ.": 3888,
      "SEE": 3889,
      "å¥¥åľ°åĪ©": 3890,
      "éī´": 3891,
      "2003å¹´": 3892,
      "éĻĨåľ°": 3893,
      "äºİ197": 3894,
      "åĩ½æķ°": 3895,
      "äºº/": 3896,
      "åĩºåı£": 3897,
      "ç¤¾åĮº": 3898,
      "çĶ¸": 3899,
      "ç§ĳçļĦ": 3900,
      "åĪĽåĬŀ": 3901,
      "ãĢģ(": 3902,
      "æİī": 3903,
      "éĶģ": 3904,
      "çĤ¹,": 3905,
      "éĺŁçļĦ": 3906,
      "å¢¨è¥¿åĵ¥": 3907,
      "æĸ¹çļĦ": 3908,
      "å»ºåĪ¶": 3909,
      "èĢħ,": 3910,
      "ä½¿å¾Ĺ": 3911,
      ",ä½įäºİæ³ķåĽ½": 3912,
      "åĲĥ": 3913,
      "æľĭåıĭ": 3914,
      "è°ĵ": 3915,
      "æĲľ": 3916,
      "æĵįä½ľ": 3917,
      "æİ¥å£¤çļĦå¸Ĥéķĩ": 3918,
      "è¯ļ": 3919,
      "æĸĳ": 3920,
      "æĸĩç«ł": 3921,
      "éģĵ.": 3922,
      "èĲ¨åħĭ": 3923,
      "INSEE": 3924,
      "äºĭä¸ļ": 3925,
      "æĦıè¯Ĩ": 3926,
      "æĻ®éģį": 3927,
      "å¤«Â·": 3928,
      "æ°§åĮĸ": 3929,
      ",âĢľ": 3930,
      "çº¬": 3931,
      "çĺ": 3932,
      "çļĦå°ı": 3933,
      "ç§»æ°ĳ": 3934,
      "6æľĪ,": 3935,
      "æ¯ıå¹³æĸ¹åħ¬éĩĮ": 3936,
      "ç¿»è¯ĳ": 3937,
      "4æľĪ2": 3938,
      "å¨ģèĥģ": 3939,
      "æ¯ıä¸ª": 3940,
      "å¾Ĺä»¥": 3941,
      "èĤĥ": 3942,
      "å°ļæľª": 3943,
      "åĬŀåħ¬å®¤": 3944,
      "4æľĪ,": 3945,
      "æľĪ15æĹ¥": 3946,
      "å¹¿åĳĬ": 3947,
      ")åľ¨": 3948,
      "7æľĪ2": 3949,
      "åħ¥åı£": 3950,
      "æĹłäºº": 3951,
      "æ¡Īä»¶": 3952,
      "è¯ŀ": 3953,
      "çĶ¨.": 3954,
      "åŀĴ": 3955,
      "æĹ¢": 3956,
      "æĮĤ": 3957,
      "æľºæ¢°": 3958,
      "to": 3959,
      "èĥ¶": 3960,
      "éļ§": 3961,
      "å¹³éĿ¢": 3962,
      "11æľĪ,": 3963,
      "æĪĸèĢħ": 3964,
      "(;": 3965,
      "ä¾ĭ,": 3966,
      "çĬ¶åĨµ": 3967,
      "æ¶Īæģ¯": 3968,
      "å¦ĤæŃ¤": 3969,
      "ä¼ļçļĦ": 3970,
      "éģĹäº§": 3971,
      "åı¬å¼Ģ": 3972,
      "44": 3973,
      "è¡ĮæĶ¿.": 3974,
      "ä¸¤äºº": 3975,
      "äº¤æµģ": 3976,
      ",çĽ´åĪ°": 3977,
      "å¾ª": 3978,
      "è¡¨æĺİ": 3979,
      "æĦıä¹ī": 3980,
      "æ°ĳä¸»åħļ": 3981,
      ",çĦ¶åĲİ": 3982,
      "æĮĳæĪĺ": 3983,
      "2002å¹´": 3984,
      "10æĹ¥": 3985,
      "äºĨãĢĬ": 3986,
      "å¯¹æīĭ": 3987,
      "æıĲé«ĺ": 3988,
      ",åĨį": 3989,
      ",æľĢåĲİ": 3990,
      "å¼ĺ": 3991,
      "èģĶåĲĪåĽ½": 3992,
      "çľĭåĪ°": 3993,
      "åĭĥ": 3994,
      "è¯´æ³ķ": 3995,
      "æķ°åŃĹ": 3996,
      "èģĶç³»": 3997,
      "çķĶ": 3998,
      "çļĦæķ°æį®,": 3999,
      "æĶ¿æ²»äººçī©.": 4000,
      "åĽ¾ä¹¦é¦Ĩ": 4001,
      "æħ§": 4002,
      "ç¦ģæŃ¢": 4003,
      "åĮħæĭ¬:.": 4004,
      "åħ¥éĢī": 4005,
      "æ´»åĬ¨.": 4006,
      "åħĥ,": 4007,
      "ãĢģæĿİ": 4008,
      "åĮĹç¾İ": 4009,
      "ä¸įè¶³": 4010,
      "èº«ä½ĵ": 4011,
      "æłĩå¿Ĺ": 4012,
      "ç¬¬1": 4013,
      "å¤ĦçļĦ": 4014,
      "çĲĥåľº": 4015,
      "å¹³æĸ¹åħ¬éĩĮ,æµ·æĭĶé«ĺåº¦": 4016,
      "åģ¥åº·": 4017,
      ",ä½ĵ": 4018,
      "æĭĵ": 4019,
      "å²³": 4020,
      "å¸ĥæĭī": 4021,
      "åĪĽéĢł": 4022,
      "å±¯": 4023,
      "èĳ¡èĲĦçīĻ": 4024,
      "å®¶ãĢģ": 4025,
      "ç¥Ŀ": 4026,
      "ç±³å°Ķ": 4027,
      "è¢ĸ": 4028,
      "åıĳçĶµ": 4029,
      "ä½¿çĶ¨.": 4030,
      "åľŁèĢ³": 4031,
      "ä¹¾": 4032,
      "çº·": 4033,
      "éĩĮ,": 4034,
      "(D": 4035,
      "ä¸¤ç§į": 4036,
      "æ£®æŀĹ": 4037,
      "æĹ¶).": 4038,
      "æĪĴ": 4039,
      "äººåı£å¯Ĩåº¦æ¯ıå¹³æĸ¹åħ¬éĩĮ": 4040,
      "åľŁèĢ³åħ¶": 4041,
      "ne": 4042,
      "åŃĹæ¯į": 4043,
      "æįĲ": 4044,
      "æ°¢": 4045,
      "ie": 4046,
      "ç®±": 4047,
      "èĩªæ²»åĮº": 4048,
      "å¤±è´¥": 4049,
      ".åĲİæĿ¥": 4050,
      ".èĻ½çĦ¶": 4051,
      "å¹´)": 4052,
      "å¸Ĥéķĩç¼ĸçłģ": 4053,
      "ä¸º,INSEE": 4054,
      "éĤ®æĶ¿ç¼ĸçłģä¸º,INSEE": 4055,
      "å¸Ĥéķĩç¼ĸçłģä¸º.": 4056,
      "éĤ®æĶ¿ç¼ĸçłģä¸º,INSEEå¸Ĥéķĩç¼ĸçłģä¸º.": 4057,
      "äººåı£æķ°éĩıä¸ºäºº.": 4058,
      "5æľĪ,": 4059,
      "ãĢİ": 4060,
      "çī¹æ®Ĭ": 4061,
      "åĮ»åŃ¦": 4062,
      "åŁİåĮº)": 4063,
      "ãĢı": 4064,
      "åħ½": 4065,
      "çĳŀåħ¸": 4066,
      "çļĦé¦ĸ": 4067,
      "åįĳ": 4068,
      "äºİæĹ¶çļĦ": 4069,
      "å®¶.": 4070,
      "()éĿ¢ç§¯": 4071,
      "äºİæĹ¶çļĦäººåı£æķ°éĩıä¸ºäºº.": 4072,
      "ç±³çļĦ": 4073,
      "åĪĹä¸º": 4074,
      "æ£ĭ": 4075,
      "ä¸ĢåĲĮ": 4076,
      ",åĪĨåĪ«": 4077,
      "å¤ıä»¤æĹ¶).": 4078,
      "çļĦæĹ¶åĮºä¸ºãĢģ(": 4079,
      "äººåı£å¯Ĩåº¦ä¸ºæ¯ıå¹³æĸ¹åįĥç±³": 4080,
      "çļĦæĹ¶åĮºä¸ºãĢģ(å¤ıä»¤æĹ¶).": 4081,
      "åĲĮä¸Ģ": 4082,
      "æĻĵ": 4083,
      "å½ĵåľ°åħ±æľīäººåı£": 4084,
      "äºº,èĢĮäººåı£å¯Ĩåº¦ä¸ºæ¯ıå¹³æĸ¹åįĥç±³": 4085,
      "çĶŁåĳ½": 4086,
      "åİ¿ãĢģ": 4087,
      "æ²³åĮĹ": 4088,
      "äººå¤§": 4089,
      "åľ³": 4090,
      "èĩªè¡Į": 4091,
      "åį¿": 4092,
      "æµħ": 4093,
      "ä¸ľè¥¿": 4094,
      "ãĢģåŁİåĮº)": 4095,
      "é«ĺä¸Ń": 4096,
      "å»¶ä¼¸": 4097,
      "(æĪĸæĹ§å¸Ĥéķĩ": 4098,
      "æİ¥å£¤çļĦå¸Ĥéķĩ(æĪĸæĹ§å¸Ĥéķĩ": 4099,
      "ãĢģåŁİåĮº)åĮħæĭ¬:.": 4100,
      "æİ¥å£¤çļĦå¸Ĥéķĩ(æĪĸæĹ§å¸ĤéķĩãĢģåŁİåĮº)åĮħæĭ¬:.": 4101,
      "å¼ºè°ĥ": 4102,
      ",è¿Ļæĺ¯": 4103,
      "éħĴåºĹ": 4104,
      "çľģ,è¯¥": 4105,
      "çľģçº§éĢīåĮº": 4106,
      "æīĢå±ŀçļĦçľģçº§éĢīåĮº": 4107,
      "çľģ,è¯¥çľģä»½": 4108,
      "å¸ĥé²ģ": 4109,
      "åį«çĶŁ": 4110,
      "å¹¶æ²¡æľī": 4111,
      "çľģåĴĮ": 4112,
      "()éĿ¢ç§¯,ä½įäºİæ³ķåĽ½": 4113,
      "åĬ¨åĬĽ": 4114,
      "åĲĦåľ°": 4115,
      "ç¼ĸè¾ĳ": 4116,
      "çľģ,è¯¥çľģä»½ä¸ºæ³ķåĽ½": 4117,
      "æīĢå±ŀçļĦçľģçº§éĢīåĮºä¸º.": 4118,
      "æĭīÂ·": 4119,
      "å¥ĸé¡¹": 4120,
      ".ä¸įè¿ĩ": 4121,
      "ä¸Ńå±±": 4122,
      "11æľĪ2": 4123,
      "çĽ®çļĦ": 4124,
      "éľĢæ±Ĥ": 4125,
      "åĳ½ä»¤": 4126,
      "éģ¿åħį": 4127,
      "68": 4128,
      "æĬ¥å¯¼": 4129,
      "åıĹä¼¤": 4130,
      "èĲ¥è¿Ĳ": 4131,
      "ä¼°è®¡": 4132,
      "è½°çĤ¸": 4133,
      "åıĪç§°": 4134,
      "ç¼ºä¹ı": 4135,
      "æľ¬åľŁ": 4136,
      "è¿ħéĢŁ": 4137,
      "æĹ¦": 4138,
      "åıĳèµ·": 4139,
      "ä¸Ģå®¶": 4140,
      "æµ·åŁŁ": 4141,
      "Re": 4142,
      "æī°": 4143,
      "18æĹ¥": 4144,
      "æĲ¬": 4145,
      "æ³¨æĦı": 4146,
      "æ¬¢è¿İ": 4147,
      "æĶ¿æĿĥ": 4148,
      "éĩĮçļĦ": 4149,
      "ä¸»å¼ł": 4150,
      "åİĨåı²ä¸Ĭ": 4151,
      "å¹¶æľª": 4152,
      "éĥĬ": 4153,
      "åī©": 4154,
      "äºİ194": 4155,
      "è¾¾æĪĲ": 4156,
      "æĸ¯å¡Ķ": 4157,
      "åĲ¸å¼ķ": 4158,
      "çĹĩçĬ¶": 4159,
      "ä¿¡åı·": 4160,
      "æıĴ": 4161,
      "é²į": 4162,
      "åĸĢ": 4163,
      "å¤ĸåĽ½": 4164,
      "çŁ¥éģĵ": 4165,
      "è§ĦåĪĻ": 4166,
      "åĽĽä¸ª": 4167,
      "ä»ĭç»į": 4168,
      "SA": 4169,
      "äººåĴĮ": 4170,
      "å®īå¾·": 4171,
      "ä¹ĺå®¢": 4172,
      "ç¾İåĽ½äººåı£æĻ®æŁ¥çļĦæķ°æį®,": 4173,
      "éĩĳèŀį": 4174,
      "æķĻç»ĥ": 4175,
      "å¿ĥçĲĨ": 4176,
      ",çĶļèĩ³": 4177,
      "æĿĨ": 4178,
      "æĴ¤éĶĢ": 4179,
      "çİ»": 4180,
      "ä¾¦": 4181,
      "éľ¸": 4182,
      "ä¸²": 4183,
      "ist": 4184,
      "å°¼æĸ¯": 4185,
      "è´ŀ": 4186,
      "åı¯èĥ½ä¼ļ": 4187,
      "æķ°åŃ¦": 4188,
      "éĥ¨èĲ½": 4189,
      "å´İ": 4190,
      "å¸ĤçļĦ": 4191,
      "ä¹Łåľ¨": 4192,
      "æĽ´åĲįä¸º": 4193,
      "31æĹ¥": 4194,
      "TV": 4195,
      "ang": 4196,
      "ç¬¬2": 4197,
      "5æľĪ2": 4198,
      "åĳĺ.": 4199,
      "éĵ¾": 4200,
      "ä½ľåĵģ.": 4201,
      "æĦŁåĪ°": 4202,
      "-1": 4203,
      "åħ¬ä¼Ĺ": 4204,
      "æ¬²": 4205,
      "å½¼å¾Ĺ": 4206,
      "èĥİ": 4207,
      "èµĽ.": 4208,
      "åħĥå¹´(": 4209,
      "æķĪåĬĽ": 4210,
      "äºº/å¹³æĸ¹åħ¬éĩĮ": 4211,
      "An": 4212,
      "äºĭå®ŀ": 4213,
      "400": 4214,
      "çĶŁéķ¿": 4215,
      "å°Ķåħ°": 4216,
      "æķĻå¸Ī": 4217,
      "ä»¿": 4218,
      "ç«Ļ.": 4219,
      "éĩĩåıĸ": 4220,
      "æİ¨åĬ¨": 4221,
      ",èĢĮæĺ¯": 4222,
      "æķĻåŃ¦": 4223,
      "est": 4224,
      "æµĵ": 4225,
      "è¹": 4226,
      "åįĹåĮĹ": 4227,
      "èĳĹåĲįçļĦ": 4228,
      "å¤§è¥¿æ´ĭ": 4229,
      "èµĦè®¯": 4230,
      "è´Ńä¹°": 4231,
      "ä¿¡ä»°": 4232,
      "æī§å¯¼": 4233,
      "æŀ¢": 4234,
      "é¼ł": 4235,
      "ä¸Ńåħ±ä¸Ńå¤®": 4236,
      "æĸ¯èĴĤ": 4237,
      "çļĦä¸Ģåº§": 4238,
      "(å¦Ĥ": 4239,
      "è¯¢": 4240,
      "çļĦæĸ¹å¼ı": 4241,
      "ä¼Ļ": 4242,
      "ç¥ŀç»ı": 4243,
      "åľ¨199": 4244,
      "å½»": 4245,
      "èĽĩ": 4246,
      "åįĵ": 4247,
      "æĶ¾å¼ĥ": 4248,
      "4,": 4249,
      "åŁºåľ°": 4250,
      "çİ°åľº": 4251,
      "çļĦéĤ®æĶ¿ç¼ĸçłģä¸º,INSEEå¸Ĥéķĩç¼ĸçłģä¸º.": 4252,
      "æĬ¥éģĵ": 4253,
      "12æĹ¥": 4254,
      "ä¹ĭä¸Ģ,": 4255,
      "æĴŃæĶ¾": 4256,
      "19æĹ¥": 4257,
      "éĩįåºĨ": 4258,
      "åĵģçīĮ": 4259,
      "åı¦å¤ĸ,": 4260,
      "çļĦåĲĮ": 4261,
      "2æľĪ2": 4262,
      "åįģåŃĹ": 4263,
      "âĢĿãĢģâĢľ": 4264,
      "å¤§éģĵ": 4265,
      "æ³ķæ¡Ī": 4266,
      ".ä¸İ": 4267,
      "æĺ¯âĢľ": 4268,
      "ç¨ĭå¼ı": 4269,
      "åıĤèĢĥ": 4270,
      "çļĦç¬¬ä¸Ģ": 4271,
      "è´¡çĮ®": 4272,
      "æĭ³": 4273,
      "ç½ĳè·¯": 4274,
      "åĩºæĪĺ": 4275,
      "æīĵåĩ»": 4276,
      "åĳ½åĲį": 4277,
      "å£®": 4278,
      "èĭ±éĽĦ": 4279,
      "å®¹æĺĵ": 4280,
      ");": 4281,
      "ç±³(åį³": 4282,
      ".åĲİ": 4283,
      "11æĹ¥": 4284,
      "ç¬ĳ": 4285,
      "åİĺ": 4286,
      "åĨĽçļĦ": 4287,
      "æ³°åĽ½": 4288,
      "åįĹæŀģ": 4289,
      "ç§¯æŀģ": 4290,
      "æĵİ": 4291,
      "æĬĹè®®": 4292,
      "åĸľæ¬¢": 4293,
      "åĽ½åĬ¡éĻ¢": 4294,
      "ä¸Ģåº¦": 4295,
      "æıŃ": 4296,
      "åī²": 4297,
      "äºĭæķħ": 4298,
      ",éĿ¢ç§¯": 4299,
      "ä¸ĢæĿ¡": 4300,
      "å¥ĸ.": 4301,
      "ä¹Ŀé¾Ļ": 4302,
      "å¤ºå¾Ĺ": 4303,
      "çīł": 4304,
      "è¯ģæį®": 4305,
      "äºİ196": 4306,
      "æĢ§è´¨": 4307,
      "æİ¥è§¦": 4308,
      "äºŃ": 4309,
      "éĺŁä¼į": 4310,
      "NA": 4311,
      "æ´Ĺ": 4312,
      "åįľ": 4313,
      "è£ħçĶ²": 4314,
      "æī®": 4315,
      "å°Ŀ": 4316,
      "èµĲ": 4317,
      ".ä»İ": 4318,
      "å¤ļç§į": 4319,
      "çŁ¥è¯Ĩ": 4320,
      "å±Ĭåħ¨åĽ½": 4321,
      "åį¡å°Ķ": 4322,
      "èĤº": 4323,
      ".æį®": 4324,
      "äºİ195": 4325,
      "çĶŁæĢģ": 4326,
      "å¼ºçĥĪ": 4327,
      "æ¹ĸåĮĹ": 4328,
      "çªĹ": 4329,
      "èĬ³": 4330,
      "æĮª": 4331,
      "å®īå¾½": 4332,
      "å±ķç¤º": 4333,
      "2æľĪ,": 4334,
      "çĸı": 4335,
      "å¤įæĿĤ": 4336,
      "èĢĮè¢«": 4337,
      "æ¶īåıĬ": 4338,
      "æĽ´å¤ļ": 4339,
      "æľ¬èº«": 4340,
      "ä¸ĸçķĮæĿ¯": 4341,
      "çł²": 4342,
      "å®Įæķ´": 4343,
      "èı²å¾ĭ": 4344,
      "æĿĥåĬĽ": 4345,
      "çļĦåİŁ": 4346,
      "éĩĮäºļ": 4347,
      "èı²å¾ĭå®¾": 4348,
      "äººå·¥": 4349,
      "æĿŃ": 4350,
      "è¥¿æĸ¹": 4351,
      "å¸ĤåĮº": 4352,
      "åĪĿ,": 4353,
      "ç§°ä¸ºãĢĮ": 4354,
      "çŃī,": 4355,
      "ç»´å¥ĩ": 4356,
      "èģĮ.": 4357,
      "ç¾½æ¯Ľ": 4358,
      "çİĦ": 4359,
      "ä¸ĩç¾İåħĥ": 4360,
      "åħ¬ä¸»": 4361,
      "çĪ±å°Ķåħ°": 4362,
      "è´«": 4363,
      "èį¯çī©": 4364,
      "æĬ¢": 4365,
      "åħ¶å®ĥ": 4366,
      "ç¾İæľ¯": 4367,
      "åħīç»ª": 4368,
      ".ä»ĸåľ¨": 4369,
      ",èİ·å¾Ĺ": 4370,
      "ä¸įå¾Ĺ": 4371,
      "èĢĮæĪĲ": 4372,
      ",ä»İèĢĮ": 4373,
      "æĺ¯ãĢĮ": 4374,
      "æĸĩçĮ®": 4375,
      "æĿĳåºĦ": 4376,
      "æĦıè§ģ": 4377,
      "è±Ĩ": 4378,
      "éĢĴ": 4379,
      "å¤©,": 4380,
      "ä¸īå¹´": 4381,
      "æĿ¥,": 4382,
      "éĵº": 4383,
      "58": 4384,
      "ä»Ģä¹Ī": 4385,
      "å²ģ.": 4386,
      "1æľĪ2": 4387,
      "æ¸Ķ": 4388,
      "å¸Ĥæ°ĳ": 4389,
      "å¼ķæĵİ": 4390,
      "éĢĨ": 4391,
      "åĨħéĺģ": 4392,
      "ine": 4393,
      "åŁĥåıĬ": 4394,
      "å½±åĵį.": 4395,
      "å£³": 4396,
      "æĿĥåĪ©": 4397,
      "æĹħå®¢": 4398,
      "å«Į": 4399,
      "è´´": 4400,
      "é«ĺéĽĦ": 4401,
      "çļĦéĩįè¦ģ": 4402,
      "åŃ¦ä½į": 4403,
      "æ¹¿": 4404,
      "te": 4405,
      "æĬ½": 4406,
      "é¢ĨåľŁ": 4407,
      "çĬ¬": 4408,
      "å®¢è¿Ĳ": 4409,
      "çĪ¶æ¯į": 4410,
      "ç®Ģåįķ": 4411,
      "çļĦæµ·": 4412,
      "å¾ĭå¸Ī": 4413,
      "æº¶": 4414,
      "æİĪäºĪ": 4415,
      "æİªæĸ½": 4416,
      "è¡¨éĿ¢": 4417,
      "æĭīä¸ģ": 4418,
      "éĽĩ": 4419,
      "æľºä¼ļ": 4420,
      "çĮ«": 4421,
      "æľĢåĲİä¸Ģ": 4422,
      "ç®Ģä»ĭ": 4423,
      "æ°ĳéĹ´": 4424,
      "å¦ĥ": 4425,
      "ä¹¾éļĨ": 4426,
      "åĴĮåħ¶ä»ĸ": 4427,
      "éķ¿åº¦": 4428,
      "èŀº": 4429,
      "èĤ¡ä»½": 4430,
      ",ä»ħ": 4431,
      "æķĪæŀľ": 4432,
      "çŃ¾ç½²": 4433,
      "èģĺ": 4434,
      "è±¡å¾ģ": 4435,
      "å¯Ħ": 4436,
      "ç²®": 4437,
      "åıĳåĶ®": 4438,
      "èį£èªī": 4439,
      "æĸ¯æĭī": 4440,
      "åľ°éľĩ": 4441,
      "ä¼łè¯´": 4442,
      "è½¦ç«Ļ.": 4443,
      "å°ī": 4444,
      "éĻįä½İ": 4445,
      ";èĢĮ": 4446,
      "å£°ç§°": 4447,
      "ob": 4448,
      "é£ĵ": 4449,
      "æ·±åľ³": 4450,
      "æĤ¬": 4451,
      "å½¢è±¡": 4452,
      "åħĭç½Ĺ": 4453,
      "ly": 4454,
      "äºļåİĨ": 4455,
      "ç¡®è®¤": 4456,
      "ç¡®è¯Ĭ": 4457,
      "42": 4458,
      "ä¹Łè¢«": 4459,
      "å¦Ĥä½ķ": 4460,
      "å·§": 4461,
      "åĽłç´ł": 4462,
      "æĿ¥åĪ°": 4463,
      "åħ¨éĿ¢": 4464,
      "æ°´å¹³": 4465,
      "ç¢³": 4466,
      "æĮīçħ§": 4467,
      "çĬ¯ç½ª": 4468,
      "åĨłåĨĽ.": 4469,
      "é£ĵé£İ": 4470,
      "çĽ¾": 4471,
      "åıĳåĩº": 4472,
      "å·ŀãĢģ": 4473,
      "çĪĨçĤ¸": 4474,
      "åıĶ": 4475,
      "è¿Ł": 4476,
      "æľĪ16æĹ¥": 4477,
      "å°ıçļĦ": 4478,
      "é¢Ĩè¢ĸ": 4479,
      "åĮ»çĶŁ": 4480,
      "ç«ŀäºī": 4481,
      "è¢ģ": 4482,
      "è¯´:âĢľ": 4483,
      "çĶŁæ´».": 4484,
      "çħ¤": 4485,
      "tw": 4486,
      "æĹ¶æľŁ,": 4487,
      "æľīæīĢ": 4488,
      "åĩºçİ°åľ¨": 4489,
      "å®¶,": 4490,
      "å·®å¼Ĥ": 4491,
      "åŃ¦ä¼ļ": 4492,
      "ä¼łæĴŃ": 4493,
      "(H": 4494,
      "è·¯ãĢģ": 4495,
      "ç¨¿": 4496,
      "åħĥ.": 4497,
      "å®ı": 4498,
      "æ´ģ": 4499,
      "ä¸ĵéĹ¨": 4500,
      "æľĪ17æĹ¥": 4501,
      "67": 4502,
      "ä¸Ī": 4503,
      "æĸľ": 4504,
      "ä¸ĭ.": 4505,
      "æĸĩåŃĹ": 4506,
      "ä¼ĬæľĹ": 4507,
      "åıĻåĪ©äºļ": 4508,
      "åĨĽ.": 4509,
      "ç¾Ĭ": 4510,
      "åı¤ä»£": 4511,
      "æ°Ķè±¡": 4512,
      "ä¸Ļ": 4513,
      "å·¥åħ·": 4514,
      "ä¹¡è¯ķ": 4515,
      "åŁºçĿ£æķĻ": 4516,
      "OS": 4517,
      "æĿ¥.": 4518,
      ":00": 4519,
      "åĲİæľŁ": 4520,
      "æ¯«ç±³": 4521,
      "èµĦéĩĳ": 4522,
      "Â°": 4523,
      "åı°åįĹ": 4524,
      "éļ§éģĵ": 4525,
      ",ä¸Ĭ": 4526,
      "=\"": 4527,
      "æĪıåī§": 4528,
      "çīµ": 4529,
      "èĨľ": 4530,
      "èħ¾": 4531,
      "å½ĵæĹ¶çļĦ": 4532,
      "é«ĺäºİ": 4533,
      "èµ·æºĲ": 4534,
      "æĬ¼": 4535,
      "å°¸": 4536,
      "åıªæĺ¯": 4537,
      "å°ļä¹¦": 4538,
      ".ä»ĸä»¬": 4539,
      "æ²³çķĶ": 4540,
      "æįŁå¤±": 4541,
      "æľĪ22æĹ¥": 4542,
      "ï½": 4543,
      "çļĦåľ°æĸ¹": 4544,
      "åĨĴ": 4545,
      "ä»¥ãĢĮ": 4546,
      "å¡«": 4547,
      "ç»ĻäºĪ": 4548,
      "åıªèĥ½": 4549,
      "è¾¹çķĮ": 4550,
      "åı°åĮĹå¸Ĥ": 4551,
      "é³įé±¼": 4552,
      ",åĪĨå¸ĥäºİ": 4553,
      "ãĢģå¼ł": 4554,
      "å¸ĪèĮĥ": 4555,
      "çĸ¾çĹħ": 4556,
      "è¾©": 4557,
      "ä¸ºä¸Ģ": 4558,
      "çĽ¸æ¯Ķ": 4559,
      "åĿ¦åħĭ": 4560,
      "ä¸įæ»¡": 4561,
      "è®¤ä¸º,": 4562,
      "éĹ®é¢ĺ.": 4563,
      "ç»ıéªĮ": 4564,
      "å°Ķçī¹": 4565,
      "éĿ¢å¯¹": 4566,
      "çĲĨäºĭ": 4567,
      "è¡į": 4568,
      "å¹¶éĿŀ": 4569,
      "185": 4570,
      "(G": 4571,
      ",æĶ¹": 4572,
      "1-": 4573,
      "ok": 4574,
      "å¥ĳ": 4575,
      "è£ķ": 4576,
      "éĴ¦": 4577,
      "BC": 4578,
      "(L": 4579,
      "av": 4580,
      "ä½ľæĽ²": 4581,
      "äº¨åĪ©": 4582,
      "ä»ĳ": 4583,
      "è¡°": 4584,
      "å§»": 4585,
      "ä¸ľåĮĹéĥ¨": 4586,
      "åĩºå¸Ń": 4587,
      ",åį´": 4588,
      "æ°Ł": 4589,
      "ç½¢": 4590,
      "æľ¬ç«Ļ": 4591,
      "è¸ª": 4592,
      "åĪĹè¡¨": 4593,
      "éĢĢå½¹": 4594,
      "å·¡åĽŀ": 4595,
      "æľĪ14æĹ¥": 4596,
      "å²ģçļĦ": 4597,
      "åĪĽå»º": 4598,
      "é¸¡": 4599,
      "æĺİæ²»": 4600,
      "çĻ»éĻĨ": 4601,
      "æĢ§åĪ«": 4602,
      "æĪĲä¸ºäºĨ": 4603,
      ",çĽ®åīį": 4604,
      "èĮĤ": 4605,
      "ä½ıå®ħ": 4606,
      "ç®Ģä»ĭ.": 4607,
      "99": 4608,
      "è²": 4609,
      "çĲī": 4610,
      "(T": 4611,
      ",199": 4612,
      "ãĢĭçŃī": 4613,
      "åľ°éĿ¢": 4614,
      "åŃ©åŃĲ": 4615,
      "åĪĹåħ¥": 4616,
      "åĽŀåºĶ": 4617,
      "åħĭèİ±": 4618,
      "æľĪ21æĹ¥": 4619,
      "åİ¿äºº,": 4620,
      "å®Ļ": 4621,
      "ç«Ļåı°": 4622,
      "åı¸æ³ķ": 4623,
      "çİĩé¢Ĩ": 4624,
      "è´µæĹı": 4625,
      "èĪŀåı°": 4626,
      "åĩłä¸ª": 4627,
      "è½¬ç§»": 4628,
      "ç¤¾ä¼ļä¸»ä¹ī": 4629,
      ",è®¤ä¸º": 4630,
      "å¦Ī": 4631,
      "å®ŀè¡Į": 4632,
      "å£°æĺİ": 4633,
      "åĨ¬åŃ£": 4634,
      "åŁºåĽł": 4635,
      "ä¸¾è¡ĮçļĦ": 4636,
      "ç²¹": 4637,
      "æĪĺåĲİ": 4638,
      "èĭ±å°º": 4639,
      "çĶµè½¦": 4640,
      "ç§įæĹı": 4641,
      "æ¾³æ´²": 4642,
      "èµĦæĸĻ.": 4643,
      "æµ·æ´ĭ": 4644,
      "èĤ¥": 4645,
      "å¨ľÂ·": 4646,
      "çļĦé«ĺ": 4647,
      "äºİæĺ¯": 4648,
      "å°ıåŀĭ": 4649,
      "çº¦ä¸º": 4650,
      "åıĤè°ĭ": 4651,
      "åĸ·": 4652,
      "åħ³éĹŃ": 4653,
      "æĽ´åĬł": 4654,
      "ç¬¬åħ«": 4655,
      "åĳ½åĲįä¸º": 4656,
      "èįĴ": 4657,
      "æµģåŁŁ": 4658,
      "åĥ§": 4659,
      ",èĩ³": 4660,
      "3ä¸ª": 4661,
      "ä¸ľæĸ¹": 4662,
      "å¤§,": 4663,
      "æĪĲæľ¬": 4664,
      "You": 4665,
      "åįģä¸ĥ": 4666,
      "78": 4667,
      "éĺŁ.": 4668,
      "è£ħç½®": 4669,
      "ä¿®æĶ¹": 4670,
      "è¾ĥä¸º": 4671,
      "ãĢģéĻĪ": 4672,
      ")ä¸İ": 4673,
      "æĩ": 4674,
      "éģµ": 4675,
      "çĭĦ": 4676,
      "ç¤ºå¨ģ": 4677,
      "åį¢çĵ¦å°Ķ": 4678,
      "Al": 4679,
      "ä¸Ģå®ļ": 4680,
      "åľ°åĮº,": 4681,
      "(R": 4682,
      "å½¢æĢģ": 4683,
      "çĸ«æĥħ": 4684,
      "éĹ´çļĦ": 4685,
      ",åīį": 4686,
      "æµ©": 4687,
      "art": 4688,
      "åıĳè¡Į.": 4689,
      "æīįèĥ½": 4690,
      "ãĢĭåĴĮãĢĬ": 4691,
      "åıĺå¾Ĺ": 4692,
      "å·ŀ,": 4693,
      "ç¡ķå£«": 4694,
      "å½ĵå±Ģ": 4695,
      "åıĤåĬłäºĨ": 4696,
      "èĬ¬åħ°": 4697,
      "é¸¿": 4698,
      "å´Ķ": 4699,
      "åħ³ç³».": 4700,
      "çİĽä¸½": 4701,
      "ç¬¦åĲĪ": 4702,
      "é©±éĢĲ": 4703,
      "æĦıæĢĿ": 4704,
      "æľĪ13æĹ¥": 4705,
      "é«ĺéĢŁåħ¬è·¯": 4706,
      "æľºåĻ¨": 4707,
      "æµĭéĩı": 4708,
      "ha": 4709,
      "é³įé±¼çº²": 4710,
      "ãĢĭæĺ¯": 4711,
      "æŃ£å¸¸": 4712,
      "ãĢģçİĭ": 4713,
      "å¸ħ": 4714,
      "éĢļè½¦": 4715,
      "æĮĩå®ļ": 4716,
      "èİ«æĸ¯ç§ĳ": 4717,
      "æĸ°çĸĨ": 4718,
      "çļĦä¸ī": 4719,
      "å²Ĺ": 4720,
      "çļĦåĽ½å®¶": 4721,
      ")åıĬ": 4722,
      "åı¦ä¸Ģä¸ª": 4723,
      "é¥Ń": 4724,
      ".æĢ»éĿ¢ç§¯": 4725,
      "é¡¾éĹ®": 4726,
      "å¼Ģè®¾": 4727,
      "æĥħæĬ¥": 4728,
      "66": 4729,
      "èĭıæł¼åħ°": 4730,
      ",åĴĮ": 4731,
      "å¼¥": 4732,
      "åįģä¹Ŀ": 4733,
      "ä¸Ńæľī": 4734,
      "éħįåĲĪ": 4735,
      "é£Łçī©": 4736,
      "æ··åĲĪ": 4737,
      "æĢĴ": 4738,
      "èī².": 4739,
      "ç§°âĢľ": 4740,
      "æĶ¹éĢł": 4741,
      "æ¶µ": 4742,
      "å§Ķä¹¦è®°": 4743,
      "æĶ¶è´Ń": 4744,
      "åĵ²åŃ¦": 4745,
      "ä¿ĺ": 4746,
      "å¾Īå¿«": 4747,
      "åħ¬åı¸çļĦ": 4748,
      "ä¸ĵè¾ĳãĢĬ": 4749,
      "è¾Ĳé³įé±¼çº²": 4750,
      "èĢĹ": 4751,
      "åľº,": 4752,
      "çģ«ç®Ń": 4753,
      "éĻĨåľ°éĿ¢ç§¯ä¸º": 4754,
      "95": 4755,
      "åĪĨéħį": 4756,
      "æ°´åŁŁéĿ¢ç§¯ä¸º": 4757,
      "æ¬£": 4758,
      "æ¶¦": 4759,
      "up": 4760,
      "),èĢĮ": 4761,
      "è¯´æĺİ": 4762,
      "åŃ¤": 4763,
      "ä¹Łä¼ļ": 4764,
      "æľº.": 4765,
      "åĲİ,ä»ĸ": 4766,
      "éħįéŁ³": 4767,
      "èĢĢ": 4768,
      "ht": 4769,
      "å¼ĢéĢļ": 4770,
      "åĮĪçīĻ": 4771,
      "æŃĩ": 4772,
      "éķĩåĮº": 4773,
      "è¥¿èĹı": 4774,
      "åıĳçİ°äºĨ": 4775,
      "ä½ľèĢħ": 4776,
      "çŁ¶": 4777,
      "çĭĤ": 4778,
      "æķ´ä½ĵ": 4779,
      "(N": 4780,
      "åĪĨ.": 4781,
      "æ³ķå®ĺ": 4782,
      "éĻĦè¿ĳçļĦ": 4783,
      "èµ¶": 4784,
      "å¯¼å¼¹": 4785,
      "è¡ĮæĶ¿åĮºåĪĴ.": 4786,
      "æĮªå¨ģ": 4787,
      "åĮĪçīĻåĪ©": 4788,
      "ess": 4789,
      "88": 4790,
      "éķ¿åı¯è¾¾": 4791,
      "150": 4792,
      "åĤħ": 4793,
      "èĢĮè¨Ģ": 4794,
      "å¯¹è±¡": 4795,
      "ç¥Ģ": 4796,
      "æĥ¯": 4797,
      "è£ħå¤ĩ": 4798,
      "çĭ®": 4799,
      "7å¹´)": 4800,
      "éĻĢ": 4801,
      "åº·çĨĻ": 4802,
      "å¯¸": 4803,
      "ç¿Į": 4804,
      "ï½ŀ": 4805,
      "æľĪ15æĹ¥,": 4806,
      "æµ·å¤ĸ": 4807,
      "åħĭæĭī": 4808,
      ",åħ±": 4809,
      "è¯·æ±Ĥ": 4810,
      "æıĲåĪ°": 4811,
      "æĶ¹åĸĦ": 4812,
      "æģĲæĢ": 4813,
      "ik": 4814,
      "å¯¹æŃ¤": 4815,
      "çĶ¨ä½ľ": 4816,
      "åĬ¨ä½ľ": 4817,
      "æµ·å³¡": 4818,
      "åŀĤ": 4819,
      "5å¹´)": 4820,
      ",åħ¶åĲİ": 4821,
      ".è¿Ļä¸ª": 4822,
      "æĪĺçķ¥": 4823,
      "ç¥¨æĪ¿": 4824,
      "amp;": 4825,
      "å½ĵä¸ŃéĻĨåľ°éĿ¢ç§¯ä¸º": 4826,
      "å¹³æĸ¹åįĥç±³,å½ĵä¸ŃéĻĨåľ°éĿ¢ç§¯ä¸º": 4827,
      "&amp;": 4828,
      "åľ¨åħ¶": 4829,
      "ä¸Ģéĥ¨": 4830,
      ",èĢĮæ°´åŁŁéĿ¢ç§¯ä¸º": 4831,
      "å¹³æĸ¹åįĥç±³,èĢĮæ°´åŁŁéĿ¢ç§¯ä¸º": 4832,
      "ç§ĺå¯Ĩ": 4833,
      "ä¸ĭéĻį": 4834,
      "çĶµåĬĽ": 4835,
      "çĹħä¾ĭ": 4836,
      "ç½Ĺä¼¯": 4837,
      "èĦĤ": 4838,
      "ers": 4839,
      "å¤·": 4840,
      "åİ¢": 4841,
      "æŁĶ": 4842,
      "ç²¤": 4843,
      "äºļåİĨå±±": 4844,
      "åĬ³åĬ¨": 4845,
      "åľ°çĲĨ": 4846,
      "ä¸ľåįĹéĥ¨": 4847,
      "æłĩä¸º": 4848,
      "æŃ¦æ±ī": 4849,
      "æĤī": 4850,
      "ç¼ħçĶ¸": 4851,
      "åįİçĽĽ": 4852,
      "çĭĹ": 4853,
      "éĤ£éĩĮ": 4854,
      "éĢĢä¼ĳ": 4855,
      "ip": 4856,
      "åľ°ä½į": 4857,
      "å®¶çļĦ": 4858,
      "å¸Ĥéķ¿": 4859,
      "äº¦æľī": 4860,
      "ãĢģåįĹ": 4861,
      "å¹¿ä¸ľçľģ": 4862,
      "äºĮå¹´(": 4863,
      "å¸ĥå°Ķ": 4864,
      "åĩºæ¼Ķ": 4865,
      "å§ļ": 4866,
      "èµ·ä¹ī": 4867,
      "åĽŀå½Ĵ": 4868,
      "æ»ļ": 4869,
      "æŃ¥åħµ": 4870,
      "è¦ĨçĽĸ": 4871,
      "å¼Ģå§ĭ,": 4872,
      "ç¼ĸåī§": 4873,
      "ç¢İ": 4874,
      "éĢ¢": 4875,
      "è§Ĥæµĭ": 4876,
      "ç§ģäºº": 4877,
      "æľĢè¿ĳ": 4878,
      "å°Ĩä¼ļ": 4879,
      "çĮĽ": 4880,
      ",ä½¿å¾Ĺ": 4881,
      "æī¾åĪ°": 4882,
      ",åı·": 4883,
      ",éļıåĲİ": 4884,
      "åľ¨æĹ¥æľ¬": 4885,
      "æ¯Ķä¾ĭ": 4886,
      "4å¹´)": 4887,
      "ue": 4888,
      "åľ°åĽ¾": 4889,
      "BA": 4890,
      "çĲĥä¼ļ": 4891,
      "æ·±åº¦": 4892,
      "åľºæ¯ĶèµĽ": 4893,
      "çģĮ": 4894,
      ".ä½Ĩæĺ¯": 4895,
      "æİ¨è¿Ľ": 4896,
      "åįİçĽĽé¡¿": 4897,
      ".ä»ĸæĽ¾": 4898,
      "é¢Ħè®¡": 4899,
      "å½°": 4900,
      "ä»»èģĮ": 4901,
      "èĬĴ": 4902,
      "åĲĪçº¦": 4903,
      "åħ´è¶£": 4904,
      "æĳĩ": 4905,
      "å®ŀéĻħä¸Ĭ": 4906,
      "åĪ¸": 4907,
      "æľīä¸Ģä¸ª": 4908,
      "ä¸ĩäºº": 4909,
      "çľŁæŃ£": 4910,
      "ç»ıåħ¸": 4911,
      "éĥ¨çļĦ": 4912,
      "ç¬¬5": 4913,
      "å¹¿è¥¿": 4914,
      "è¯ķéªĮ": 4915,
      "åºŀ": 4916,
      "ç»Ħå»º": 4917,
      "åĳ¨åĽ´": 4918,
      "åĨħ,": 4919,
      "éĩįå¤§": 4920,
      "é£İéĻ©": 4921,
      "æºĲèĩª": 4922,
      "å°Ŀè¯ķ": 4923,
      "ä¿ĿåŃĺ": 4924,
      "å®ĥçļĦ": 4925,
      "åĬłçĽŁ": 4926,
      "å¼ķåħ¥": 4927,
      "æĬķéĻį": 4928,
      "éĺ²å¾¡": 4929,
      "å¾¡åı²": 4930,
      "æłĸæģ¯åľ¨": 4931,
      "ows": 4932,
      "å¹¶åħ¥": 4933,
      "æ»©": 4934,
      "èĬ±åĽŃ": 4935,
      "æĿĢæŃ»": 4936,
      "if": 4937,
      "ç¬¼": 4938,
      "å¹¶ä¸Ķ": 4939,
      "å»Ĭ": 4940,
      ",ãĢĮ": 4941,
      "ä¼ª": 4942,
      "åĳİ": 4943,
      "çĶŁçļĦ": 4944,
      "ç¬¬3": 4945,
      "ç¾İåĨĽ": 4946,
      "åģ·": 4947,
      "å²Ľå±¿": 4948,
      "åĪ¶çļĦ": 4949,
      "åĮĹäº¬å¸Ĥ": 4950,
      "âĢ¦âĢ¦": 4951,
      "éĺª": 4952,
      "å¸¦æĿ¥": 4953,
      "æľīæĹ¶": 4954,
      ",åĲĳ": 4955,
      "10æĹ¥,": 4956,
      "èįĲ": 4957,
      "éļıåį³": 4958,
      "å¹´éĹ´": 4959,
      "æľĢå¤ļ": 4960,
      "ä¸ĬåįĪ": 4961,
      "å¥İ": 4962,
      "åĬŀäºĭ": 4963,
      "è´£ä»»": 4964,
      "è©¹å§Ĩ": 4965,
      "ä»£è¡¨å¤§ä¼ļ": 4966,
      "éĢ»": 4967,
      "èĤĸ": 4968,
      ".ä»ĸçļĦ": 4969,
      "å£°éŁ³": 4970,
      "ä¸ºæŃ¢": 4971,
      "éħ¶": 4972,
      "å¤Ħ.": 4973,
      "å¹´é¾Ħ": 4974,
      "è®ºæĸĩ": 4975,
      "çĶ¨éĢĶ": 4976,
      "éĩĮæĸ¯": 4977,
      ",å¹¶å°Ĩ": 4978,
      "åİĭåĬĽ": 4979,
      "çıĬ": 4980,
      "ä¾ł": 4981,
      "è¿Ļæĺ¯": 4982,
      "3å¹´)": 4983,
      "æ¸©åº¦": 4984,
      "è®²è¿°": 4985,
      "åĲ¾": 4986,
      "Â·éĺ¿": 4987,
      "äº¿ç¾İåħĥ": 4988,
      "çħ§çīĩ": 4989,
      "çļĦä¸Ń": 4990,
      "çļĦæĹ¶éĹ´": 4991,
      "æľīäºº": 4992,
      "æŀĿ": 4993,
      "è¿Ĳä½ľ": 4994,
      "ä¿ĥè¿Ľ": 4995,
      "ä»£çłģ": 4996,
      "åľ¨è¿Ļ": 4997,
      "ä¼ĺåĬ¿": 4998,
      "Wind": 4999,
      "å¤§è§Ħæ¨¡": 5000,
      "å¾ĹçŁ¥": 5001,
      "æĮĩå¯¼": 5002,
      "è½¯ä»¶": 5003,
      "è§£æķ£": 5004,
      "è¢«è®¤ä¸ºæĺ¯": 5005,
      "åĲĮçĽŁ": 5006,
      "æĢ§,": 5007,
      "æ¹ĺ": 5008,
      "ç¿ģ": 5009,
      "è°ĪåĪ¤": 5010,
      "çĴĥ": 5011,
      "èµĭ": 5012,
      "éļľç¢į": 5013,
      ",éķ¿": 5014,
      "åĲįä¹ī": 5015,
      ";-": 5016,
      "180": 5017,
      "å¨ĥ": 5018,
      "åĵ¥ä¼¦": 5019,
      "å¤ıåŃ£å¥¥æŀĹåĮ¹åħĭè¿ĲåĬ¨ä¼ļ": 5020,
      "å¤ļå¹´": 5021,
      "ä¸ŃåĽ½äººæ°ĳè§£æĶ¾åĨĽ": 5022,
      "æŀĦéĢł": 5023,
      "éĺĶ": 5024,
      "èĥ¸": 5025,
      "å·ŀ.": 5026,
      "çº¢èī²": 5027,
      "éļ¾ä»¥": 5028,
      "43": 5029,
      "å¼¦": 5030,
      "æģĲæĢĸ": 5031,
      "çļĦä¸¤": 5032,
      "æĮĩæİ§": 5033,
      "éŃĤ": 5034,
      "åįµ": 5035,
      "æľīäºĽ": 5036,
      "æłı": 5037,
      "äºĨè§£": 5038,
      "AR": 5039,
      "ä¸ĩåİĨ": 5040,
      "AM": 5041,
      "-zh-h": 5042,
      "ä»ĩ": 5043,
      "ice": 5044,
      ",å¦Ĥæŀľ": 5045,
      "çŁ¥åĲį": 5046,
      "98": 5047,
      "ä¸Ĭæµ·å¸Ĥ": 5048,
      "ell": 5049,
      "åİĨä»»": 5050,
      "åĲĲ": 5051,
      "ä¹ĭå¤ĸ,": 5052,
      "BS": 5053,
      "æ±Łè¥¿": 5054,
      "IC": 5055,
      "ge": 5056,
      "æľ´": 5057,
      "åıĳå±ķ.": 5058,
      "é©¾é©¶": 5059,
      "éĤ£äºĽ": 5060,
      "åĲı": 5061,
      "ä¸īè§Ĵ": 5062,
      "è¯ŃçļĦ": 5063,
      "éĩıçļĦ": 5064,
      "åıł": 5065,
      "æ·ĺ": 5066,
      "ç½ĳçĲĥ": 5067,
      "æĹĹä¸ĭ": 5068,
      "().": 5069,
      "76": 5070,
      "éĤ¨": 5071,
      "20æĹ¥,": 5072,
      "æ³¨åĨĮ": 5073,
      "å©ļå§»": 5074,
      "ä¸Ģé¢Ĺ": 5075,
      ",æĢ»": 5076,
      "æĪĸæĺ¯": 5077,
      ".è¿Ļç§į": 5078,
      "å®ĩå®Ļ": 5079,
      "æī®æ¼Ķ": 5080,
      "åħ¬åĪĨ,": 5081,
      "åı°ä¸Ń": 5082,
      "å±ł": 5083,
      "åĮĸçŁ³": 5084,
      "åĬłå¼º": 5085,
      "æĳĦå½±": 5086,
      "ç¡«": 5087,
      "é©¬æĭī": 5088,
      "ãĢģä¸Ń": 5089,
      "èħĲ": 5090,
      "éĶĻè¯¯": 5091,
      "ä¸īå¹´(": 5092,
      "é©¬å°Ķ": 5093,
      "æĲº": 5094,
      "æ¼ĶåĶ±ä¼ļ": 5095,
      "èĪ±": 5096,
      "åı°é£İ": 5097,
      "åĩº.": 5098,
      "æķĻåĮº": 5099,
      "æ·¡æ°´": 5100,
      "sp": 5101,
      "6å¹´)": 5102,
      "å½¦": 5103,
      "å¤ªç©º": 5104,
      "ç³»ç»ŁçļĦ": 5105,
      "è¥¿åįĹéĥ¨": 5106,
      "æŁıæŀĹ": 5107,
      "bo": 5108,
      "åħĭçļĦ": 5109,
      "èĦĬ": 5110,
      "æľįå½¹": 5111,
      "åĲĪæĪĲ": 5112,
      "éĻĨç»Ń": 5113,
      "éĢ®": 5114,
      "è²Į": 5115,
      "æī©å¤§": 5116,
      "æĺ¯æĮĩ": 5117,
      "åĺ´": 5118,
      "åĪ¶.": 5119,
      "184": 5120,
      "é¹°": 5121,
      "åĬłåĪ©": 5122,
      "å¹³æĸ¹åħ¬éĩĮ,æĢ»äººåı£": 5123,
      "æĿĥ.": 5124,
      "å·¥ä½ľ,": 5125,
      "è§ĤçĤ¹": 5126,
      "çļĦå±±": 5127,
      "æĶ¿åįı": 5128,
      "éļ¶å±ŀ": 5129,
      "ans:": 5130,
      "ud": 5131,
      "æŃ§": 5132,
      "ä½ľåĩº": 5133,
      "èĥĮæĻ¯.": 5134,
      "\")": 5135,
      "æĽ¾ä»»": 5136,
      "å¸¦æľī": 5137,
      "æĹ¬": 5138,
      ".èĩª": 5139,
      "å°ıæĹ¶,": 5140,
      "ç¨į": 5141,
      "åıī": 5142,
      "çĻ½èī²": 5143,
      "çĲĥåŃ£": 5144,
      "äººåı£ä¸º": 5145,
      "ä»·æł¼": 5146,
      "éĩĬæĶ¾": 5147,
      "8å¹´)": 5148,
      "æĶ¿åºľçļĦ": 5149,
      ".8": 5150,
      "åľ¨ä¸ŃåĽ½": 5151,
      "ï¼ı": 5152,
      "åĳĪçİ°": 5153,
      ",æĹł": 5154,
      "åĨĽ,": 5155,
      "å®ļå±ħ": 5156,
      ",ä»ĸçļĦ": 5157,
      "çĽ¸ä¿¡": 5158,
      "18æĹ¥,": 5159,
      "å¸Ĥ.": 5160,
      "ãĢģæĸ°": 5161,
      "30æĹ¥,": 5162,
      "æīĢå±ŀ": 5163,
      "é¦ĸåħĪ": 5164,
      "å¨ĺ": 5165,
      "ä¿Ŀç½Ĺ": 5166,
      "åĪ·": 5167,
      "ç¿ł": 5168,
      "åħ¼ä»»": 5169,
      "åĽºå®ļ": 5170,
      "(F": 5171,
      "zh-tw": 5172,
      "æİĴè¡Į": 5173,
      "éĹ½": 5174,
      "æģ°": 5175,
      "ä¸İæİ¥å£¤çļĦå¸Ĥéķĩ(æĪĸæĹ§å¸ĤéķĩãĢģåŁİåĮº)åĮħæĭ¬:.": 5176,
      "éĺ¶çº§": 5177,
      "è¥¿åĮĹéĥ¨": 5178,
      "æł¡éķ¿": 5179,
      "èĿ¶": 5180,
      "zh-tw:": 5181,
      "ction": 5182,
      "ç¯®çĲĥ": 5183,
      "çļĦåİĨåı²": 5184,
      "æ¸¸æ³³": 5185,
      "åĳĺ,": 5186,
      "æı¡": 5187,
      "çĽ¸äºĴ": 5188,
      "åħ³éĶ®": 5189,
      "è¥¿å®ī": 5190,
      "ç«ĭåį³": 5191,
      "åŀĭçļĦ": 5192,
      "4ä¸ª": 5193,
      "77": 5194,
      "éĢļè®¯": 5195,
      "åįģå¹´": 5196,
      "è®¾å®ļ": 5197,
      "èĸĦ": 5198,
      "éªĳå£«": 5199,
      "k:": 5200,
      "åĿª": 5201,
      "ä½ıæ°ĳ": 5202,
      "çĶŁ.": 5203,
      "å¯¹å¤ĸ": 5204,
      "æ¯Ķå¦Ĥ": 5205,
      "æ·»": 5206,
      "éªĳåħµ": 5207,
      "å©Ĩ": 5208,
      "æĸ¯æŀĹ": 5209,
      "éĽĢ": 5210,
      "çİ°æĹ¶": 5211,
      "å¸¦é¢Ĩ": 5212,
      "éĵŃ": 5213,
      "æĸ¹è¨Ģ": 5214,
      "ä¸Ģèĩ´": 5215,
      "1000": 5216,
      "ä¿®å»º": 5217,
      "ä¸°å¯Į": 5218,
      "å¿§": 5219,
      "è¶ĭ": 5220,
      "ä¼ĺç§Ģ": 5221,
      "éĨĴ": 5222,
      "ç¬¬äºĮæ¬¡ä¸ĸçķĮå¤§æĪĺ": 5223,
      ",çĦ¶èĢĮ": 5224,
      "2ä¸ª": 5225,
      "600": 5226,
      "å·«": 5227,
      "æ·®": 5228,
      "å±ķè§Ī": 5229,
      "all": 5230,
      ".å½ĵæĹ¶": 5231,
      "åľ°çĤ¹": 5232,
      "åĪ¶å®ļ": 5233,
      "1å¹´)": 5234,
      "åĨħéĻĨ": 5235,
      "ä¾ĽåºĶ": 5236,
      "çľŁå®ŀ": 5237,
      "åĮĸ.": 5238,
      "2-": 5239,
      "è¯ı": 5240,
      "éĿŀå»ºåĪ¶": 5241,
      "ç¾½æ¯ĽçĲĥ": 5242,
      "ä¼Ĺå¤ļ": 5243,
      "æĺ¯ä»¥": 5244,
      "æĦıå¿Ĺ": 5245,
      "å¤ªåŃĲ": 5246,
      "é¸£": 5247,
      "åĬ¿åĬĽ": 5248,
      "è¾ĵåħ¥": 5249,
      "Windows": 5250,
      "å®¶æĹı.": 5251,
      "ä»»åĳ½ä¸º": 5252,
      "ä¸¤æ¬¡": 5253,
      "æĬĹæĹ¥": 5254,
      "çļĦå¤ĸ": 5255,
      "æİĺ": 5256,
      "end": 5257,
      "åħ·ä½ĵ": 5258,
      ",åĮĹèµ·": 5259,
      "æ³ķ,": 5260,
      "åĲĮæĹ¶,": 5261,
      "åį°å°¼": 5262,
      "èĩªèº«": 5263,
      "å·ŀåºľ": 5264,
      "æľĿå»·": 5265,
      "éĺ®": 5266,
      "å·¥äºº": 5267,
      "ç§°ä¸ºâĢľ": 5268,
      "å·²è¢«": 5269,
      "æ´¾éģ£": 5270,
      "åµ": 5271,
      "å¤ļå°Ķ": 5272,
      "å±±è¥¿": 5273,
      "æĹ¶æľŁçļĦ": 5274,
      "ç»ĵæŀĦ.": 5275,
      "å¾Ģå¾Ģ": 5276,
      "æ£Ģæµĭ": 5277,
      "å§¬": 5278,
      "å¯»æī¾": 5279,
      "ä¸İåħ¶ä»ĸ": 5280,
      "å¯¹åºĶ": 5281,
      "Pro": 5282,
      "äºİ193": 5283,
      ",åĽłèĢĮ": 5284,
      "æľºçļĦ": 5285,
      "é»Ħéĩĳ": 5286,
      "ä»£è¡¨åĽ¢": 5287,
      "çªģçł´": 5288,
      "é¼»": 5289,
      "æĿ°åħĭ": 5290,
      "ç»ĦæĪĲçļĦ": 5291,
      "åľ¨è¯¥": 5292,
      "ä¹ĲéĺŁ": 5293,
      "ä¹ĭæĪĺ": 5294,
      "ãĢĬãĢĭ": 5295,
      "çģ«å±±": 5296,
      "çĽĳçĿ£": 5297,
      "åĹ£": 5298,
      "å¼Ģå±ķ": 5299,
      "æĦĪ": 5300,
      ",æĽ¾ä»»": 5301,
      "æĿīçŁ¶": 5302,
      "Sp": 5303,
      "éĩĳçīĮ": 5304,
      "æ´ĽæĿīçŁ¶": 5305,
      "çĽ¸åħ³çļĦ": 5306,
      ",ä½ĵéķ¿åı¯è¾¾": 5307,
      "æ°¯": 5308,
      "12æĹ¥,": 5309,
      "çĶµè¯Ŀ": 5310,
      "è¿ĩç¨ĭä¸Ń": 5311,
      ",äººåı£å¯Ĩåº¦æ¯ıå¹³æĸ¹åħ¬éĩĮ": 5312,
      "æĸ¤": 5313,
      "è¢«è¿«": 5314,
      "æıĲåĲį": 5315,
      "æ³¢æĸ¯": 5316,
      "åĦĴ": 5317,
      "çĻ»ä¸Ĭ": 5318,
      "ä»¥æĿ¥,": 5319,
      "åħĨ": 5320,
      "èĭĳ": 5321,
      "çªģçĦ¶": 5322,
      "åĮĹæµ·": 5323,
      "çİ°ä»»": 5324,
      "ä¸¹éº¦": 5325,
      "å®ŀéªĮå®¤": 5326,
      "æĺ¯ä¸ŃåĽ½": 5327,
      "ç§°ãĢĮ": 5328,
      "èĮµ": 5329,
      "åĽ½å®¶çļĦ": 5330,
      "ä¾Ŀæį®": 5331,
      "åħ¶åĲİ": 5332,
      "éĢĢåĩº": 5333,
      "çº¿,": 5334,
      "io": 5335,
      "çī¹å®ļ": 5336,
      "åģ¿": 5337,
      "åįĹæĸ¹": 5338,
      "ä¸Ģçº§": 5339,
      "ä¸Ģæ®µ": 5340,
      "åħ¬çĪµ": 5341,
      "æĳĨ": 5342,
      "åįĴ": 5343,
      "æ±ª": 5344,
      "ä¸īä¸ĸ": 5345,
      "ill": 5346,
      "åĳĺå·¥": 5347,
      "æĻļä¸Ĭ": 5348,
      "åĲĽä¸»": 5349,
      "å¯¨": 5350,
      "åĨĽå®ĺ": 5351,
      "æľĪ16æĹ¥,": 5352,
      "åľºçļĦ": 5353,
      "å°ĳå¥³": 5354,
      "ace": 5355,
      "ry": 5356,
      "å¦ĩå¥³": 5357,
      "æĺİç¡®": 5358,
      "æ²¿æµ·": 5359,
      "åĳ¨å¹´": 5360,
      "å¤§æ¡¥": 5361,
      "æĪ¿å±ĭ": 5362,
      "éĢ®æįķ": 5363,
      ",ä»ĸåľ¨": 5364,
      "çľģçļĦä¸Ģä¸ªå¸Ĥéķĩ,å±ŀäºİ": 5365,
      "åĨĽåĮº": 5366,
      "ç§°,": 5367,
      "è½¬åĲĳ": 5368,
      "å¥¥è¿Ĳä¼ļ": 5369,
      "æľĪ17æĹ¥,": 5370,
      "æī©å±ķ": 5371,
      "å¦Ĥä¸ĭ:": 5372,
      "å¤ķ": 5373,
      "ä¾¨": 5374,
      "éĥ½å¸Ĥ": 5375,
      "èµĦäº§": 5376,
      "79": 5377,
      "èĦı": 5378,
      "éĻ¨": 5379,
      "41": 5380,
      "éģĵãĢģ": 5381,
      "çľģ.": 5382,
      "ä»£çĲĨ": 5383,
      "è¯ģå®ŀ": 5384,
      "ç»Ŀå¯¹": 5385,
      "æ¬§åħĥ": 5386,
      "Sh": 5387,
      "åľ¨é¦Ļæ¸¯": 5388,
      "åĬĿ": 5389,
      "åĩĢ": 5390,
      "å¯¹æĬĹ": 5391,
      "å¤§åİ¦": 5392,
      "lay": 5393,
      "85": 5394,
      "ä¸Ľ": 5395,
      "è¾°": 5396,
      "æ£ĢæŁ¥": 5397,
      "ong": 5398,
      "äºĨâĢľ": 5399,
      "äºļç¾İ": 5400,
      "è§Ĩé¢ĳ": 5401,
      "åĽ½å®¶éĺŁ": 5402,
      "ain": 5403,
      "åĮĸåĲĪçī©": 5404,
      "ç²Ĺ": 5405,
      "åĲ¯åĬ¨": 5406,
      "çī¹åĪ«æĺ¯": 5407,
      "Ã©": 5408,
      "2å¹´)": 5409,
      "æ°ı.": 5410,
      ",ä¸Ń": 5411,
      "æ³ķåħ°è¥¿": 5412,
      "åĪĨç¦»": 5413,
      "Un": 5414,
      "æľīãĢĬ": 5415,
      "éĵ¸": 5416,
      "åİŁåĪĻ": 5417,
      "å¤§èµĽ": 5418,
      "åŃĲãĢģ": 5419,
      "11æĹ¥,": 5420,
      "åī§æľ¬": 5421,
      "ç´§æĢ¥": 5422,
      "è¯Ħä¼°": 5423,
      "ä¸ĵå®¶": 5424,
      "åĮĹæĸ¹": 5425,
      "ä¸¤å¹´": 5426,
      "åĨľæ°ĳ": 5427,
      "åĵ¥ä¼¦æ¯Ķäºļ": 5428,
      "69": 5429,
      "éĻķè¥¿": 5430,
      "åĬłæĭī": 5431,
      "æ¶Ĥ": 5432,
      "åĿĩä¸º": 5433,
      "ä¸ĳ": 5434,
      "çŃīä¸º": 5435,
      ",ä»¤": 5436,
      "9å¹´)": 5437,
      "æľįåĬ¡.": 5438,
      "è®¡ç®Ĺæľº": 5439,
      "æĽ´ä¸º": 5440,
      "UTC-5": 5441,
      "be": 5442,
      "ç§ĳå¤«": 5443,
      "AC": 5444,
      "ä¿Ŀå®Ī": 5445,
      "çī©.": 5446,
      "åī§éĻ¢": 5447,
      "åºŁéĻ¤": 5448,
      "åĬ«": 5449,
      "ä¸Ńè¢«": 5450,
      "ç»ıçĲĨ": 5451,
      "Le": 5452,
      "çŁ©": 5453,
      "åĢ¡": 5454,
      "çķĻä¸ĭ": 5455,
      "IS": 5456,
      ",èĻ½çĦ¶": 5457,
      "æī«": 5458,
      "è´©": 5459,
      "æ±°": 5460,
      "è´¨çĸĳ": 5461,
      "çŃ¾è®¢": 5462,
      "åı²ä¸Ĭ": 5463,
      "é¦ĸä¸ª": 5464,
      "åħĪçĶŁ": 5465,
      "æ±Ģ": 5466,
      "1ä¸ª": 5467,
      "åĨĽåĽ¢": 5468,
      "å½¢å®¹": 5469,
      "ä¸ĭä»¤": 5470,
      "ä¸Ĭè¿°": 5471,
      ".192": 5472,
      "èĲ¨æĸ¯": 5473,
      "ä¹ĭåīį,": 5474,
      "éĦĤ": 5475,
      "120": 5476,
      "æĹ¶æ®µ": 5477,
      "æľĪ21æĹ¥,": 5478,
      "å¼¯": 5479,
      "ç±³äºļ": 5480,
      ".çĶ±": 5481,
      "çĶ·,": 5482,
      ".ä¾ĭå¦Ĥ": 5483,
      "ç»´æĬ¤": 5484,
      "ON": 5485,
      "çīłä»¬": 5486,
      "åŃ¦å£«": 5487,
      "ä¸įä»ħ": 5488,
      "èĥ½éĩı": 5489,
      "éĢīä¸º": 5490,
      "æĭĺ": 5491,
      "éĽĮ": 5492,
      "ä¸»è¦ģçļĦ": 5493,
      "åįĩçº§": 5494,
      "çİĩä¸º": 5495,
      "åĲ¯çĶ¨": 5496,
      "é©³": 5497,
      "åİŁåŃĲ": 5498,
      "æ½Ń": 5499,
      "zh-hk:": 5500,
      "ast": 5501,
      "ãĢģé»Ħ": 5502,
      "åħļçļĦ": 5503,
      "é¾Ł": 5504,
      "åī§ãĢĬ": 5505,
      "éĺ»æŃ¢": 5506,
      "åŁİåł¡": 5507,
      "å½ĵå¹´": 5508,
      "å¤©çļĦ": 5509,
      "ä¿Ŀéļľ": 5510,
      ".å°½ç®¡": 5511,
      "åĭĭç«ł": 5512,
      "æłĩæľ¬": 5513,
      "ç©Ĩæĸ¯æŀĹ": 5514,
      "åĽ°éļ¾": 5515,
      "çŃīåľ°": 5516,
      "ç§ĳåŃ¦éĻ¢": 5517,
      "æ¶Į": 5518,
      "äºļç¾İå°¼äºļ": 5519,
      "åľ¨å¤§": 5520,
      "ort": 5521,
      "åħ¨éķ¿": 5522,
      "åłª": 5523,
      "äºĭä»¶.": 5524,
      "ç£¨": 5525,
      "æıĲä¾ĽäºĨ": 5526,
      "åı·çļĦ": 5527,
      ",ä¸»": 5528,
      "çłĸ": 5529,
      "ç»ĻäºĨ": 5530,
      "èĵ¬": 5531,
      "éĨĩ": 5532,
      "å¯Ĵ": 5533,
      "åĪ©çĽĬ": 5534,
      "ç³»ç»Ł.": 5535,
      "æ»¡è¶³": 5536,
      "åĢĻéĢīäºº": 5537,
      "åĺīéĿĸ": 5538,
      "å¥¥å°Ķ": 5539,
      "ph": 5540,
      "å¿½": 5541,
      "æĿ¥è¯´": 5542,
      "é©¬éĩĮ": 5543,
      "æĥŁ": 5544,
      "åĢº": 5545,
      "å¤§åŃ¦çļĦ": 5546,
      "19æĹ¥,": 5547,
      "åįĹéĿŀ": 5548,
      "æ¸¸è¡Į": 5549,
      "åıĤéĢī": 5550,
      "æķ¢": 5551,
      ",æĸ°": 5552,
      ",198": 5553,
      ".èĩ³": 5554,
      "åľ¨äºİ": 5555,
      "ä¸ĸçķĮä¸Ĭ": 5556,
      "å§ĨÂ·": 5557,
      "-zh-hans:": 5558,
      "éĥ¨ãĢģ": 5559,
      "æĶ¶è§Ĩ": 5560,
      "åĪºåı²": 5561,
      "å°¹": 5562,
      "2020": 5563,
      "å¼ĹæľĹ": 5564,
      ".0": 5565,
      "åħ¬å®ī": 5566,
      "åĳ¨æľŁ": 5567,
      "æ¶Īè´¹": 5568,
      "å¥Ķ": 5569,
      "çŃīåľ°,": 5570,
      "åĭŁ": 5571,
      "æ°ĶæĹĭ": 5572,
      "éº¦åħĭ": 5573,
      "æĬĳ": 5574,
      "--": 5575,
      "çļĦæķħäºĭ": 5576,
      "æº¯": 5577,
      "å¤įåħ´": 5578,
      "éĹª": 5579,
      "çº³ç²¹": 5580,
      "æĸ¯é¡¿": 5581,
      "æ´»è·ĥ": 5582,
      "ä¿®æŃ£": 5583,
      "éĤ»è¿ĳ": 5584,
      "ãĢģä¸ī": 5585,
      "å¤«äºº": 5586,
      "ç©ºæ°Ķ": 5587,
      "åıįæĺł": 5588,
      "åıĳçİ°.": 5589,
      "é¢ĩ": 5590,
      "å½¢çĽ®": 5591,
      "é¤Ĳåİħ": 5592,
      "(,)æĺ¯æ³ķåĽ½": 5593,
      "62": 5594,
      "1998å¹´": 5595,
      "å¹´(17": 5596,
      "æī¶": 5597,
      "1999å¹´": 5598,
      "åĳĬè¯ī": 5599,
      "2020å¹´ç¾İåĽ½äººåı£æĻ®æŁ¥çļĦæķ°æį®,": 5600,
      "æŃ¤å¤ĸ,": 5601,
      "ç¢Ł": 5602,
      "å°¼äºļå·ŀ": 5603,
      "æł¼æĭī": 5604,
      "æĻĭçº§": 5605,
      "æľĪ22æĹ¥,": 5606,
      "çļĦæ°´": 5607,
      "ä¸ŃæľŁ": 5608,
      "ä¸Ĭæľī": 5609,
      "æĽ´æĸ°": 5610,
      "ack": 5611,
      "åįıè°ĥ": 5612,
      "åħ¶ä¸Ńä¸Ģç§į": 5613,
      "çİ»çĴĥ": 5614,
      ",åĪ°": 5615,
      "çļĦä½ľåĵģ": 5616,
      "19ä¸ĸçºª": 5617,
      "å½ķéŁ³": 5618,
      "æĤ²": 5619,
      "éĿ¢.": 5620,
      "å¢ŀéķ¿": 5621,
      "èŁ": 5622,
      "ä¼łåªĴ": 5623,
      "ç¿ħ": 5624,
      "æĹ¶æľŁ.": 5625,
      "çĽĳçĭ±": 5626,
      "å®¶äºº": 5627,
      ",å¹¶ä»¥": 5628,
      "æĭ¼": 5629,
      "æĭĸ": 5630,
      "åĩºåıĳ": 5631,
      "ä¹¦éĻ¢": 5632,
      "åı¦æľī": 5633,
      "2000": 5634,
      "æİ¥æĶ¶": 5635,
      "æ¸ħåįİ": 5636,
      "èĲ¨å°Ķ": 5637,
      "åħ¸ç¤¼": 5638,
      "æĪĲåĳĺ.": 5639,
      "èķ¾": 5640,
      "æ·ĺæ±°": 5641,
      "æĹ¥æľŁ": 5642,
      "çĶŁæĪĲ": 5643,
      "æľ¬åľ°": 5644,
      "å±±ãĢģ": 5645,
      "éĢ¼": 5646,
      "1945å¹´": 5647,
      "åįĩä»»": 5648,
      "å¤©çļĩ": 5649,
      "é£Łåĵģ": 5650,
      ".çĦ¶èĢĮ,": 5651,
      "æĸĲ": 5652,
      "å¯ĵ": 5653,
      "åıĳæĺİ": 5654,
      "è¢«è§Ĩä¸º": 5655,
      "æľĪ14æĹ¥,": 5656,
      "CD": 5657,
      "åŃ¦ãĢģ": 5658,
      "ç«ĭæĸ¹": 5659,
      "å¤§å¥ĸ": 5660,
      "å¸ĥèİ±": 5661,
      "æĹ¥æ²»": 5662,
      "å·²æľī": 5663,
      "æĳ§": 5664,
      "å·¢": 5665,
      "ä¹Łåı¯ä»¥": 5666,
      "è¯ŃãĢģ": 5667,
      "æľĪ13æĹ¥,": 5668,
      ",éĢļå¸¸": 5669,
      "å°¼Â·": 5670,
      "åħįè´¹": 5671,
      "é¢ľèī²": 5672,
      "åĽ½.": 5673,
      "åĬłå·ŀ": 5674,
      "ç§°ä½ľ": 5675,
      "ä¸¤åĲį": 5676,
      "ç¨»": 5677,
      "é±¼ç±»": 5678,
      "çļĦåĲİ": 5679,
      "æİ¨å¹¿": 5680,
      "æı´åĬ©": 5681,
      "çİ°å®ŀ": 5682,
      "åľ¨åĨħçļĦ": 5683,
      "ç»´åŁĥ": 5684,
      "äº²çİĭ": 5685,
      "äºļåİĨå±±å¤§": 5686,
      "æĸ¯æīĺ": 5687,
      "æķ°.": 5688,
      "èĢĥåı¤": 5689,
      "(K": 5690,
      "ä¸»åĬŀ": 5691,
      "åº¦çļĦ": 5692,
      "åĪ¶,": 5693,
      "åī¯ä¸»ä»»": 5694,
      "åĿĿ": 5695,
      "ç¥ł": 5696,
      "çĻĮ": 5697,
      "ç«ŀéĢī": 5698,
      "å¹³åİŁ": 5699,
      "æīĢè°ĵ": 5700,
      "åī¯ä¸»å¸Ń": 5701,
      "æĺ¾èĳĹ": 5702,
      "å½ĵåľ°çļĦ": 5703,
      "è¿Ļæ¬¡": 5704,
      "åı¸é©¬": 5705,
      "ity": 5706,
      "ç»³": 5707,
      "è¥¿åħ°": 5708,
      "åŁºéĩĳä¼ļ": 5709,
      ",åĲĮå¹´": 5710,
      ",ç»ĵæŀľ": 5711,
      "çĲ¼": 5712,
      "å¿į": 5713,
      "äºĮæĪĺ": 5714,
      "åħ¬åħĥåīį": 5715,
      "çĲĨè§£": 5716,
      "ä¾ĿçĦ¶": 5717,
      ",çĶ¨": 5718,
      "MA": 5719,
      "ä¸Ģè¯į": 5720,
      "æłĭ": 5721,
      "è£ħé¥°": 5722,
      "åĨľæĿĳ": 5723,
      "æĺŃåĴĮ": 5724,
      "åĨħæĪĺ": 5725,
      "800": 5726,
      "åĳ½åĲį.": 5727,
      "è½¬æį¢": 5728,
      "é¾Ļæ±Ł": 5729,
      "åį±éĻ©": 5730,
      "ç»Īäºİ": 5731,
      "äº¤éĢļ.": 5732,
      "De": 5733,
      "åľŃ": 5734,
      "ä¸įåĪ°": 5735,
      "éĤ£ä¹Ī": 5736,
      "ä»£è¡¨.": 5737,
      "éĿłè¿ĳ": 5738,
      "å¿Ļ": 5739,
      "é¹¤": 5740,
      "å¾·çļĦ": 5741,
      "å®Įå·¥": 5742,
      "è´§å¸ģ": 5743,
      "åİ»ä¸ĸ,": 5744,
      "En": 5745,
      "ä¿®å¤į": 5746,
      "éļĶç¦»": 5747,
      "åĩĿ": 5748,
      "åľ°å¸¦": 5749,
      "ä¸Īå¤«": 5750,
      ",å°¤åħ¶": 5751,
      "æł¡åĽŃ": 5752,
      "ç¡®ä¿Ŀ": 5753,
      "éĩĮÂ·": 5754,
      "è¿ĽæŃ¥": 5755,
      "èĥ½æºĲ": 5756,
      "éĩĩè®¿": 5757,
      "æļ´åĬĽ": 5758,
      "æīĵç®Ĺ": 5759,
      "å»ºçŃĳ.": 5760,
      "æ½ľèīĩ": 5761,
      "åŃ¦.": 5762,
      "ãĢĭ()æĺ¯": 5763,
      "å¾·åįİ": 5764,
      "åİŁå§ĭ": 5765,
      "çĿ¡": 5766,
      "å¢ŀå¼º": 5767,
      "æīĢæľīçļĦ": 5768,
      "äºīè®®.": 5769,
      "ä¸¤åĽ½": 5770,
      "ive": 5771,
      "çŁĽ": 5772,
      "èĴ¸": 5773,
      "èº«ä¸º": 5774,
      "åİŁä½ıæ°ĳ": 5775,
      "åħ¬éĩĮ.": 5776,
      "èĬĤçĽ®ãĢĬ": 5777,
      "Ar": 5778,
      "æ°´åºĵ": 5779,
      "åį¡ç½Ĺ": 5780,
      "çłģå¤´": 5781,
      "ãĢģè¥¿": 5782,
      "æĹħè¡Į": 5783,
      "ä¹īå¤§åĪ©": 5784,
      "é²¤": 5785,
      "æ´¾åĩº": 5786,
      "åŁİå¸Ĥ.": 5787,
      "æĴ°åĨĻ": 5788,
      "å¤§å¹ħ": 5789,
      "èĻ¹": 5790,
      "1949å¹´": 5791,
      "éĢļä¿¡": 5792,
      "å¹³æĸ¹åįĥç±³.": 5793,
      "åĬªåĬĽ": 5794,
      "æł½": 5795,
      "æī§æĶ¿": 5796,
      "éĢĤåĲĪ": 5797,
      "2001å¹´äººåı£": 5798,
      "æĭĨéĻ¤": 5799,
      "å§Ĭ": 5800,
      ",åħ¶ä»ĸ": 5801,
      "3-": 5802,
      "çļĦæ¯ĶèµĽ": 5803,
      "åĬ©çĲĨ": 5804,
      "ä¸İåħ¶": 5805,
      "åĩºéģĵ": 5806,
      "åĲģ": 5807,
      ",é«ĺ": 5808,
      "ER": 5809,
      "ov": 5810,
      "äºº,åħ¶ä¸Ń": 5811,
      "èµĦæľ¬": 5812,
      "çŁ³æ²¹": 5813,
      "59": 5814,
      "èĢĲ": 5815,
      "æ³¢ç½Ĺ": 5816,
      "å²ģæĹ¶": 5817,
      "åľ¨198": 5818,
      "ä¹¦ç±į": 5819,
      "æĮĩç¤º": 5820,
      "çķĻåľ¨": 5821,
      "ä¸¾è¡Į.": 5822,
      "åĽ´ç»ķ": 5823,
      "åīĬ": 5824,
      "å¸Ĥä¸Ńå¿ĥ": 5825,
      "ç¿Ķ": 5826,
      "åº¦.": 5827,
      "å®ĺ.": 5828,
      "ä½Ľç½Ĺ": 5829,
      "çļĦè®¾è®¡": 5830,
      "åĩº,": 5831,
      "è®¤è¯Ĩ": 5832,
      "æ³¡": 5833,
      "æ³ķåºŃ": 5834,
      "å¤©çĦ¶": 5835,
      ",è¦ģæ±Ĥ": 5836,
      "çļĦåıĳå±ķ": 5837,
      "æľīæľº": 5838,
      "åĩºåħ¥åı£": 5839,
      "ä¸ĩåħĥ": 5840,
      "å¤§å¤ļ": 5841,
      ".190": 5842,
      "èĸĽ": 5843,
      "sh": 5844,
      ".æŃ¤å¤ĸ": 5845,
      "é¦ĸçĽ¸": 5846,
      "ç®¡çĲĨå±Ģ": 5847,
      "è¿ĳå¹´": 5848,
      "é»ĳèī²": 5849,
      "åľĨå½¢": 5850,
      "com": 5851,
      "å¤§ä¼Ĺ": 5852,
      "äº¥": 5853,
      "åłĨ": 5854,
      "è¾¹å¢ĥ": 5855,
      "æĿĢå®³": 5856,
      "æĭ¿ä¸ĭ": 5857,
      "æ¯ĶåĪ©æĹ¶": 5858,
      "Ne": 5859,
      "åįİäºº": 5860,
      "æīĭæľº": 5861,
      "éĶĢéĩı": 5862,
      "å¤«åį¡": 5863,
      ",è¿Ļä¸ª": 5864,
      "æĮĩåĩº,": 5865,
      "'s": 5866,
      "å¤§éĢī": 5867,
      "æĶ¶éĽĨ": 5868,
      "ãĥ»": 5869,
      "ID": 5870,
      "ÃĹ": 5871,
      "éĹ¸": 5872,
      "æĦıåĳ³": 5873,
      "çĽĨ": 5874,
      "æĺİæĺŁ": 5875,
      "ore": 5876,
      "åĲĦèĩª": 5877,
      "è¾½å®ģ": 5878,
      "ä¸Ģåľº": 5879,
      "åĪĨæĶ¯": 5880,
      "ä»¤äºº": 5881,
      "è½¦ç«Ļ,": 5882,
      "ç¡®è¯ĬçĹħä¾ĭ": 5883,
      "\",": 5884,
      "æľĢä½İ": 5885,
      "ä»».": 5886,
      "è®°å¿Ĩ": 5887,
      "und": 5888,
      "ber": 5889,
      "ç©ºä¸Ń": 5890,
      "åĿļæĮģ": 5891,
      "(åŃ¦åĲį:\"": 5892,
      "åĲīæŀĹ": 5893,
      "ä¸Ģæŀļ": 5894,
      "åĪĨè£Ĥ": 5895,
      "ç»´æĸ¯": 5896,
      "12å¹´": 5897,
      "èĴĻçī¹": 5898,
      "(çİ°": 5899,
      "å°±ä¼ļ": 5900,
      "æİ¥å£¤.": 5901,
      "å±±ä¸ľçľģ": 5902,
      "æĸĭ": 5903,
      "èĩªæĿĢ": 5904,
      "èŃ¦åĳĬ": 5905,
      "çļĩåĲİ": 5906,
      "çļĦæĶ¯æĮģ": 5907,
      "ä¹łæĢ§": 5908,
      "åĽ½æ°ĳæĶ¿åºľ": 5909,
      "åī§éĽĨ": 5910,
      "ä¸ĭè¾ĸçļĦä¸Ģä¸ª": 5911,
      ".ä¸º": 5912,
      "ä»¥åįĹ": 5913,
      "ä»¥åĲİ,": 5914,
      "æĬĵ": 5915,
      "æ±Ŀ": 5916,
      "1997å¹´": 5917,
      "å»ºç«ĭäºĨ": 5918,
      "å¨ģå»īÂ·": 5919,
      "72": 5920,
      "æĪĲå¹´": 5921,
      "èĥº": 5922,
      "å¹³æ°ĳ": 5923,
      "èĮĥåĽ´åĨħ": 5924,
      "æŁ´æ²¹": 5925,
      "è¦ģ.": 5926,
      "åĲĦç±»": 5927,
      "æĹ¨åľ¨": 5928,
      "æ³ķãĢĭ": 5929,
      "èĪŁ": 5930,
      "ç§ĳåŃ¦å®¶": 5931,
      "å¼ıçļĦ": 5932,
      "å¼Łå¼Ł": 5933,
      "74": 5934,
      ",ä¼ļ": 5935,
      "ä¸ŀ": 5936,
      "çŃīçº§": 5937,
      "63": 5938,
      "oh": 5939,
      "æłª": 5940,
      "å±Ī": 5941,
      "DT": 5942,
      "åĲĮæĢ§": 5943,
      "å¾·å°Ķ": 5944,
      "æĶ¯æµģ": 5945,
      "åħĭæŀĹ": 5946,
      "ian": 5947,
      "âĢĻ": 5948,
      "äº²èĩª": 5949,
      "æ¯Ľæ³½": 5950,
      ",ä½ľä¸º": 5951,
      "ç¤ģ": 5952,
      "èİ±èĮµ": 5953,
      "äº§çĶŁçļĦ": 5954,
      "æ»¨æµ·": 5955,
      ",æĿİ": 5956,
      "æĬ±": 5957,
      "äº¤æį¢": 5958,
      ",åħ¶ä½Ļ": 5959,
      "CO": 5960,
      "ãĢģåĪĺ": 5961,
      "æĭ¨": 5962,
      "æĸ¯æ´Ľ": 5963,
      "ãĢģé«ĺ": 5964,
      "éĴ»": 5965,
      "è§ĦèĮĥ": 5966,
      "man": 5967,
      "ä¸Ĭä¸ĭ": 5968,
      "å´©": 5969,
      ",ç»ı": 5970,
      "iv": 5971,
      "æĹ¶åĢĻ": 5972,
      "è¯Ħä»·.": 5973,
      "å¹½": 5974,
      "æ¶Īå¤±": 5975,
      "å®°": 5976,
      "ç¬¬ä¹Ŀ": 5977,
      "é»ĳé¾Ļæ±Ł": 5978,
      "æ³ķçļĦ": 5979,
      "çłĤ": 5980,
      "å¸Ī.": 5981,
      "è¿Ŀåıį": 5982,
      "åĳ¼åĲģ": 5983,
      "æµĻæ±Łçľģ": 5984,
      "æĳ§æ¯ģ": 5985,
      "åĪ©æĸ¯": 5986,
      "äºĮäºº": 5987,
      "çº§åĪ«": 5988,
      ",ç¾İåĽ½": 5989,
      "å¸¸è§ģçļĦ": 5990,
      "ä»¥åīį": 5991,
      "ç§įæ¤į": 5992,
      "6,": 5993,
      "âĶ": 5994,
      "ãĢģä¸ľ": 5995,
      "çĭ¼": 5996,
      "æĶ¶èĹı": 5997,
      "çŃ¾çº¦": 5998,
      ".å¤§": 5999,
      "Te": 6000,
      "è¿¦": 6001,
      "å¯¹æĸ¹": 6002,
      "è¾¾å°Ķ": 6003,
      "æ¬§çĽŁ": 6004,
      "æºĲäºİ": 6005,
      "ate": 6006,
      ",ä¾¿": 6007,
      "å»¶éķ¿": 6008,
      "çľģä»½,åĮĹèµ·": 6009,
      "ric": 6010,
      "æª": 6011,
      "çī¹æĭī": 6012,
      "è¡ĮçļĦ": 6013,
      "å°¼è¥¿äºļ": 6014,
      "æİĪæĿĥ": 6015,
      ",ç§°": 6016,
      "éĻª": 6017,
      "è½¦åİ¢": 6018,
      "è¿ĲçĶ¨": 6019,
      "å©´": 6020,
      "å¿ħè¦ģ": 6021,
      "å¹³æĸ¹åįĥç±³,èĢĮæ°´åŁŁéĿ¢ç§¯ä¸º0.": 6022,
      "ä»»æľŁ": 6023,
      "æ¸¯åı£": 6024,
      "æ¦Ħ": 6025,
      "(W": 6026,
      "å¦Ļ": 6027,
      "1996å¹´": 6028,
      "åįłåľ°": 6029,
      "æ¯Ľæ³½ä¸ľ": 6030,
      ";åľ¨": 6031,
      "n:": 6032,
      "æŃĮè¯į": 6033,
      "ç®¡çĲĨ.": 6034,
      "é¦ĸå¸Ń": 6035,
      "èĦ¸": 6036,
      "å¾ªçİ¯": 6037,
      "åį¸": 6038,
      "åŃ¦çļĦ": 6039,
      "å°Ħåĩ»": 6040,
      "é¦ĸåºľ": 6041,
      ",è¿Ļç§į": 6042,
      "åį±æľº": 6043,
      "æĤ£èĢħ": 6044,
      "èĪªå¤©": 6045,
      "å¾ĹåĪ°äºĨ": 6046,
      "æĶ¹åĲįä¸º": 6047,
      "ãĢģé©¬": 6048,
      "äºº;": 6049,
      "æĬ«": 6050,
      "åı¤åħ¸": 6051,
      "åĬŀçĲĨ": 6052,
      "èµ°åĲĳ": 6053,
      "éĢļéģĵ": 6054,
      "æİ¥æĽ¿": 6055,
      "æ¼Ķå¥ı": 6056,
      "æĶ¹åĪ¶": 6057,
      "åįĩä¸º": 6058,
      "ame": 6059,
      "åľºæīĢ": 6060,
      "ä¼½": 6061,
      "æĢ§èĥ½": 6062,
      "çĭŃ": 6063,
      "1992å¹´": 6064,
      "ï¼ħ": 6065,
      "é¡ºåĪ©": 6066,
      "åĴĸ": 6067,
      "åĪĻä¸º": 6068,
      "å·¥ä½ľå®¤": 6069,
      "å®¡æŁ¥": 6070,
      "éĺ²æŃ¢": 6071,
      "åĮºè®®ä¼ļ": 6072,
      "ç¦ħ": 6073,
      "åĽļ": 6074,
      "ç«Ļ,": 6075,
      "åŁİ,": 6076,
      "å¯®": 6077,
      "è¢ĭ": 6078,
      "å·ŀåĪºåı²": 6079,
      "åĽĽå¹´": 6080,
      "ç¥ŀè¯Ŀ": 6081,
      "çĶŁ,": 6082,
      "å«ģ": 6083,
      "éķ¿å®ĺ": 6084,
      "æ³¢å°Ķ": 6085,
      "ä»ķ": 6086,
      "éĺ¿æł¹": 6087,
      "å¤Ħ,": 6088,
      "ç´¯è®¡": 6089,
      "âĶĢ": 6090,
      "æĭ±": 6091,
      ".è¿Ļæĺ¯": 6092,
      "é¦ĸæĴŃ": 6093,
      "åķĨåĵģ": 6094,
      "è·Łéļı": 6095,
      "å®Ľ": 6096,
      "éĽį": 6097,
      "å¾Ĺä¸»": 6098,
      "èģĶåĲĪä¼ļ": 6099,
      ",ä¸ĢèĪ¬": 6100,
      "å¤ĸäº¤éĥ¨": 6101,
      "ä»¥åĮĹ": 6102,
      "åŁĥå°Ķ": 6103,
      "oun": 6104,
      "åŁ¹è®Ń": 6105,
      "æıĲåıĬ": 6106,
      "äºĶå¹´": 6107,
      "å¸ĤæĶ¿åºľ": 6108,
      "(,;": 6109,
      "ç¼©åĨĻ": 6110,
      ",æ²¡æľī": 6111,
      "å¸ĥéĩĮ": 6112,
      "çĤī": 6113,
      "åıĹæ¬¢è¿İ": 6114,
      "åį¡æĭī": 6115,
      "è¿ĲåĬ¨åĳĺ,": 6116,
      "éĺ¿æł¹å»·": 6117,
      "AP": 6118,
      "ss": 6119,
      "å°¼åħĭ": 6120,
      "çĶŁæ´»ä¹łæĢ§": 6121,
      "éĺŁ,": 6122,
      "18å¹´": 6123,
      "èĤĮ": 6124,
      "ä¸ŃåĽ½çļĦ": 6125,
      "åģľéĿł": 6126,
      "qu": 6127,
      "åĲ¹": 6128,
      "åĩºæĿ¥": 6129,
      "æķ°ä½į": 6130,
      "èĭ±åĨĽ": 6131,
      "1994å¹´": 6132,
      "æ¸¸æĪıçļĦ": 6133,
      "1åı·": 6134,
      "ç»ĵæĿŁåĲİ,": 6135,
      "ä¸Ĭåįĩ": 6136,
      "éĿ¢ä¸´": 6137,
      "Go": 6138,
      "éĻ·åħ¥": 6139,
      "çĶŁæ´»ä¹łæĢ§ä¸įæĺİ": 6140,
      "è¾Ł": 6141,
      "æĮģæľī": 6142,
      "é¼İ": 6143,
      ",å±ŀ": 6144,
      ".çĽ®åīį": 6145,
      "Com": 6146,
      "183": 6147,
      "æ´¾çļĦ": 6148,
      "(ä¾ĭå¦Ĥ": 6149,
      "å¤§èĩ´": 6150,
      "è¾¨": 6151,
      "éŁµ": 6152,
      "çĤ¹çļĦ": 6153,
      "åĩºçīĪç¤¾": 6154,
      "åĸľåī§": 6155,
      "(åĮħæĭ¬": 6156,
      "èĢķ": 6157,
      "æľĪçĲĥ": 6158,
      "æ£ĺ": 6159,
      "åĲĦåĽ½": 6160,
      "ç½Ĺé©¬å°¼äºļ": 6161,
      "çİ°ä»Ĭ": 6162,
      "æĥ¨": 6163,
      "con": 6164,
      "å°Ĩåľ¨": 6165,
      "ä½ĵèĤ²åľº": 6166,
      "äºº/å¹³æĸ¹åħ¬éĩĮ.": 6167,
      "åŁĭ": 6168,
      "èĭ¯": 6169,
      "ç¾İåĽ½çļĦ": 6170,
      "çŁ¥.": 6171,
      "çĶĺèĤĥ": 6172,
      ")ãĢģãĢĬ": 6173,
      "éĩĮè¾¾": 6174,
      "åľºæĻ¯": 6175,
      "åı¸ä»¤éĥ¨": 6176,
      "çĶ«": 6177,
      "å®ļä¸º": 6178,
      "æķ°çļĦ": 6179,
      "Mar": 6180,
      "ç°": 6181,
      "éģĵå¾·": 6182,
      "çļĦä¸ĢäºĽ": 6183,
      "æĸ¯æĭīå¤«": 6184,
      "ä¸Ģé¡¹": 6185,
      "è¢«æįķ": 6186,
      "äºº,äººåı£å¯Ĩåº¦": 6187,
      "æī¿è¯º": 6188,
      "ä¼¼ä¹İ": 6189,
      "çĤ¸å¼¹": 6190,
      "éģ¥": 6191,
      "ä½ĵ,": 6192,
      "éĽ¾": 6193,
      "çłĶåıĳ": 6194,
      "(åŃ¦åĲį:)ä¸º": 6195,
      "åĲĦä¸ª": 6196,
      "é¦ĸæŃĮ": 6197,
      "å·´å°Ķ": 6198,
      "æĿĳèĲ½": 6199,
      "åħ¬æĸ¤": 6200,
      "çĶŁåŃĺ": 6201,
      "åĲīå°Ķ": 6202,
      "å¸Ĳ": 6203,
      "ä»ĬæĹ¥": 6204,
      "èĢĥè¯ķ": 6205,
      "éĥ½åľ¨": 6206,
      "éħįå¤ĩ": 6207,
      "çľģ,ä¸ľ": 6208,
      "87": 6209,
      "è¾¹ç¼ĺ": 6210,
      "åĬłåĪ©ç¦ı": 6211,
      "æīĭ.": 6212,
      "å±Ģéķ¿": 6213,
      "ube": 6214,
      "è¹Ī": 6215,
      "éķ¿æ±Ł": 6216,
      "éħ·": 6217,
      "å§Ķåĳĺ.": 6218,
      "çĪ±æĥħ": 6219,
      "åľ°è´¨": 6220,
      "æľ¬çīĩ": 6221,
      "æ¡Ĩ": 6222,
      "å¸¸åĬ¡": 6223,
      "æĶ¯ä»ĺ": 6224,
      "äººæ°ĳå¸ģ": 6225,
      "èıĬ": 6226,
      "æ²¿éĿ©": 6227,
      "æĬµæĬĹ": 6228,
      "çļĦåĦ¿åŃĲ": 6229,
      "æĸĩæĺİ": 6230,
      ")çŃī": 6231,
      "åĮĸ,": 6232,
      "åĮħåĽ´": 6233,
      "çĽĳå¯Ł": 6234,
      "31æĹ¥,": 6235,
      ".9": 6236,
      "å¤¹": 6237,
      "å°Ĩé¢Ĩ": 6238,
      "è¿Ľå£«.": 6239,
      "å¹³è¡¡": 6240,
      "æĢĢçĸĳ": 6241,
      "çļĦç¬¬": 6242,
      "äºīåıĸ": 6243,
      "å¼Ģå¹ķ": 6244,
      "è¨Ģè®º": 6245,
      "179": 6246,
      "èĥĨ": 6247,
      "ä¸ŃåĽ½å¤§éĻĨçļĦ": 6248,
      "èµ«å°Ķ": 6249,
      "æ±Łèĭıçľģ": 6250,
      "åĿĤ": 6251,
      "èĤł": 6252,
      "çº¿ãĢģ": 6253,
      "åı¯ä»¥åľ¨": 6254,
      "è¤": 6255,
      "è®¾äºİ": 6256,
      "å¼ıæľĪåı°": 6257,
      "our": 6258,
      "å·¡æ´ĭ": 6259,
      "åŃķ": 6260,
      "åĽ½,": 6261,
      "æīĭæľ¯": 6262,
      "ä¼¯çĪµ": 6263,
      "åºĨç¥Ŀ": 6264,
      "çĲīçĲĥ": 6265,
      "åĲ«æľī": 6266,
      "æī£": 6267,
      "éķ¿è¾¾": 6268,
      "æ±¡æŁĵ": 6269,
      "åıĳæĮ¥": 6270,
      "å¯¹åħ¶": 6271,
      "æľĢä¸º": 6272,
      "æīĢéĩĩçĶ¨": 6273,
      "å¥ĭ": 6274,
      "æĬ¥çº¸": 6275,
      "6-": 6276,
      "æ²ª": 6277,
      "æ£Ģå¯Ł": 6278,
      ",ä¸ī": 6279,
      "è¤Ĳ": 6280,
      "æīģ": 6281,
      "åıĳè¨Ģ": 6282,
      "åŁİ.": 6283,
      "åĻ¨çļĦ": 6284,
      "çŃĸçķ¥": 6285,
      "åĤ¬": 6286,
      "é¼ĵåĬ±": 6287,
      ",è·Ŀç¦»": 6288,
      "å¤§èģĶçĽŁ": 6289,
      "çŁŃæļĤ": 6290,
      "éļĭ": 6291,
      "çıĢ": 6292,
      ",åıĬ": 6293,
      "è¶³å¤Ł": 6294,
      ".ä¹ĭåĲİ": 6295,
      "é¡·": 6296,
      "æıĲè®®": 6297,
      "æİ¨èįĲ": 6298,
      "çĪ±å¾·åįİ": 6299,
      "æĺİæľĿæĶ¿æ²»äººçī©.": 6300,
      "åĲ§": 6301,
      "å¹´(14": 6302,
      "IP": 6303,
      "Th": 6304,
      "è¥Ħ": 6305,
      "æĪĳçļĦ": 6306,
      "å¾·åĨĽ": 6307,
      "è°Ń": 6308,
      "é¢ģåıĳ": 6309,
      "åĩĮæĻ¨": 6310,
      "è¯±": 6311,
      "1900": 6312,
      "æľªæľī": 6313,
      "åºķ,": 6314,
      "éĹ²": 6315,
      "åĩºåĶ®": 6316,
      "æĸ¹éĿ¢çļĦ": 6317,
      "é¢ĳçİĩ": 6318,
      "éĻ¢éķ¿": 6319,
      "å§ĭå»ºäºİ": 6320,
      "åįķçĭ¬": 6321,
      ".ä¸ºäºĨ": 6322,
      "æĮĸ": 6323,
      "æĹı,": 6324,
      "çº¤": 6325,
      "åıĪåĲį": 6326,
      "éĢıéľ²": 6327,
      "çļĦä½įç½®": 6328,
      "åĩī": 6329,
      "çº¦æľī": 6330,
      "åĶĲæľĿ": 6331,
      ":30": 6332,
      "æĪĲå°±": 6333,
      "æµ·å¹³éĿ¢": 6334,
      "æĪĺå£«": 6335,
      "åĲįãĢģ": 6336,
      "æ²³çļĦ": 6337,
      "æĿ¡ä¾ĭ": 6338,
      "éĻĦå±ŀ": 6339,
      "å·¥ç¨ĭå¸Ī": 6340,
      "åĴĮâĢľ": 6341,
      "æĪĲç«ĭçļĦ": 6342,
      ",å®ĥä»¬": 6343,
      "éĢĤåºĶ": 6344,
      "èµŀåĬ©": 6345,
      "å¢ĥåĨħåħ±æľī": 6346,
      "ä½įçļĦ": 6347,
      "äºļçĽ®": 6348,
      "äºĭæĥħ": 6349,
      "åĨĻä½ľ": 6350,
      "åıĳåĬ¨æľº": 6351,
      "61": 6352,
      "åĮºåĨħ": 6353,
      "çĽ´å¾Ħ": 6354,
      "æ¦Ĥè¦ģ.": 6355,
      "4-": 6356,
      "5,": 6357,
      "ãĢģåĮĹ": 6358,
      "éĿ¢,": 6359,
      "è¿½æº¯": 6360,
      "åĩŃåĢŁ": 6361,
      "52": 6362,
      "éĿĴå²Ľ": 6363,
      "AN": 6364,
      "é¢Ī": 6365,
      "ä¸ĭæĿ¥": 6366,
      "åĪ¶çīĩ": 6367,
      "æīĢå¤ĦçļĦ": 6368,
      "åı²å¯Ĩ": 6369,
      "é¢Ĩå¯¼äºº": 6370,
      "æĽ¿ä»£": 6371,
      "89": 6372,
      "èģĶç»ľ": 6373,
      "èĸª": 6374,
      "é¹ħ": 6375,
      "æ°¨": 6376,
      "åħ¬äº¤": 6377,
      "ff": 6378,
      "åĢ¾åĲĳ": 6379,
      "åĲŀ": 6380,
      "æĪĲäºº": 6381,
      "æĻ®é²ģ": 6382,
      "1991å¹´": 6383,
      "èħĶ": 6384,
      "æ£ķ": 6385,
      "ç«ĻçļĦ": 6386,
      "æĹłçĹĩçĬ¶": 6387,
      "æµ·æĭĶä¸º": 6388,
      "åħ¬å¼ĢèµĽ": 6389,
      "æĽ°": 6390,
      "æĹ¥æľ¬çļĦ": 6391,
      "ens": 6392,
      "éĽĨåĲĪ": 6393,
      "æ¸¸åĩ»": 6394,
      "è¶³åįı": 6395,
      "æĸ¥": 6396,
      "å¥¶": 6397,
      "ä»¥åĲİ": 6398,
      "æŃ£ç¡®": 6399,
      "åĬ²": 6400,
      "å¿ĺ": 6401,
      ",ä½Ĩä»ĸ": 6402,
      "é¦ĸä½į": 6403,
      "ãĢģåĴĮ": 6404,
      "æĦıå¤ĸ": 6405,
      "å·¡æ´ĭèĪ°": 6406,
      "èĭ±éĩĮ": 6407,
      "é¢Ħç®Ĺ": 6408,
      "åĲ¸æĶ¶": 6409,
      "ä¸ºãĢĬ": 6410,
      "æĽ¾ç¥ĸ": 6411,
      ",åħ¶ä¸ŃåĮħæĭ¬": 6412,
      "åıĳçĶŁåľ¨": 6413,
      "æī©å¼ł": 6414,
      "çļĦéĥ¨åĪĨ": 6415,
      "åĨķ": 6416,
      "Se": 6417,
      "å¤§å°ı": 6418,
      "æĸĩèīº": 6419,
      "åı¤èĢģ": 6420,
      "éºŁ": 6421,
      "æ²ĥå°Ķ": 6422,
      "é¢ģå¥ĸ": 6423,
      "ãĢģä¸ŃåĽ½": 6424,
      "å»ºçŃĳçī©": 6425,
      "æĦŁæŁĵèĢħ": 6426,
      "ç§ĳçļĦåħ¶ä¸Ńä¸Ģç§į": 6427,
      "åĽĬ": 6428,
      "53": 6429,
      "çļĦéĹ®é¢ĺ": 6430,
      "åŁ¹åħ»": 6431,
      "åİ»ä¸ĸ.": 6432,
      "çĲª": 6433,
      "åħ¬åĳĬ": 6434,
      "éĿŀæ³ķ": 6435,
      "æ°Ķåİĭ": 6436,
      "åĲ»": 6437,
      "å·²çŁ¥": 6438,
      "èĪŀè¹Ī": 6439,
      "å½ĵéĢīä¸º": 6440,
      "éĴĵ": 6441,
      "åĨ³è®®": 6442,
      "èľľ": 6443,
      "ä¸º:": 6444,
      "ç¢§": 6445,
      "ith": 6446,
      "æĺŁçŃīä¸º": 6447,
      "ä¿ĦåĽ½": 6448,
      "è±«": 6449,
      "ç¢±": 6450,
      "éŃģ": 6451,
      "ä¸¥æł¼": 6452,
      "éģŃéģĩ": 6453,
      "åĲİç»Ń": 6454,
      "å¾·æĭī": 6455,
      "æķĪåºĶ": 6456,
      "å®´": 6457,
      "ä¸ŃéĹ´": 6458,
      "ç§ĳå°Ķ": 6459,
      "èĪ¹åıª": 6460,
      "äºĴçĽ¸": 6461,
      "å®īä¸ľ": 6462,
      "æł¼ä¸º": 6463,
      "ç»Ħç»ĩçļĦ": 6464,
      "çĶµæ°Ķ": 6465,
      "ä¸»è¦ģæĺ¯": 6466,
      "åĩºçİ°äºĨ": 6467,
      "äº«å¹´": 6468,
      "æĸ¯åį¡": 6469,
      "éĢĲæŃ¥": 6470,
      "é¸Łç±»": 6471,
      "æĪĲäºĨ": 6472,
      "åīª": 6473,
      "å¤ĸéĥ¨": 6474,
      "æ¬¡å¹´": 6475,
      "åĪĽå§ĭ": 6476,
      ".7": 6477,
      "çļĦç¬¬äºĮ": 6478,
      "æĪĲéĥ½": 6479,
      "æİł": 6480,
      "æ¼ı": 6481,
      "1995å¹´": 6482,
      "ç±³,2001å¹´äººåı£": 6483,
      "LE": 6484,
      "ä¹ĭå¤ĸ": 6485,
      "è¶ħè¶Ĭ": 6486,
      "ç»ıåİĨ.": 6487,
      "çļĦå¥³": 6488,
      "å§ľ": 6489,
      "åĬłéĢŁ": 6490,
      "è½¦.": 6491,
      "å§ĭå»º": 6492,
      "è§Ĩè§ī": 6493,
      "æ²¿éĿ©.": 6494,
      "ä¸ĢåĪĩ": 6495,
      "ä¹ĭåŃĲ": 6496,
      "å¸ĤæĶ¿": 6497,
      "è¶³çĲĥä¿±ä¹Ĳéĥ¨": 6498,
      "åģ¶åĥı": 6499,
      "ãĢģéĩĳ": 6500,
      "ç©·": 6501,
      "pe": 6502,
      "åĪĻåľ¨": 6503,
      "å½¢çĬ¶": 6504,
      "å®¡åĪ¤": 6505,
      "åħ¬åĪĨ,æłĸæģ¯åľ¨": 6506,
      "å¡Ķå°Ķ": 6507,
      "å½ķå½±": 6508,
      "åıĮæīĵ": 6509,
      "æ£ī": 6510,
      "æļ¨": 6511,
      "é¢Ħæµĭ": 6512,
      "æııç»ĺ": 6513,
      "å¹³æĸ¹åįĥç±³.å½ĵåľ°åħ±æľīäººåı£": 6514,
      "æł½åŁ¹": 6515,
      "æĿ¥è¶Ĭ": 6516,
      "éķ¿æ²Ļ": 6517,
      "çĽ´éļ¶": 6518,
      "åıĺä¸º": 6519,
      "ä¸Ńå¿ĥ.": 6520,
      "è´µå·ŀ": 6521,
      "è°¢å°Ķ": 6522,
      "åĴ¨": 6523,
      "ç¦»åŃĲ": 6524,
      "å¼ºåº¦": 6525,
      "å¾Īå¤§": 6526,
      "ç§į.": 6527,
      "è¿Ļæł·çļĦ": 6528,
      "åĪĽæĸ°": 6529,
      "æķĳæı´": 6530,
      "åħħæ»¡": 6531,
      "åĵĪå°Ķæ»¨": 6532,
      "åĪł": 6533,
      "ä¸Ģç³»åĪĹ": 6534,
      "å¤§åį«": 6535,
      "éĶĲ": 6536,
      "æ¸¸å®¢": 6537,
      "å¼Ģå§ĭåľ¨": 6538,
      "æļĸ": 6539,
      "éĥ¨çĶµå½±": 6540,
      "èĭıä¸¹": 6541,
      "è·µ": 6542,
      "æŃ£éĿ¢": 6543,
      "æºĥ": 6544,
      "æĵħ": 6545,
      "åģĩè®¾": 6546,
      "æ²³åįĹçľģ": 6547,
      "å¤ıä»¤æĹ¶éĹ´": 6548,
      "ä»¥âĢľ": 6549,
      "çĲĨå·¥": 6550,
      "æģŃ": 6551,
      "éĤª": 6552,
      "one": 6553,
      "å¯»æ±Ĥ": 6554,
      ",éĢłæĪĲ": 6555,
      "éĥ¨ç½²": 6556,
      "ä¸»åľº": 6557,
      "åİ¿çŁ¥": 6558,
      "æĶ¶åĪ°": 6559,
      "æ¨¡æĭŁ": 6560,
      "è¶ĬæĿ¥è¶Ĭ": 6561,
      "ä¸»ä¹īçļĦ": 6562,
      "æĸĹäºī": 6563,
      "æĸ©": 6564,
      "åľ¨ä¸Ģèµ·": 6565,
      "æ¯ħ": 6566,
      "æļĤåģľ": 6567,
      "56": 6568,
      "Â·é©¬": 6569,
      ",åŃĹ": 6570,
      "å½±åĥı": 6571,
      "èĮħ": 6572,
      "æĹıç¾¤": 6573,
      "éĥ¨,": 6574,
      "èģĶç½ĳ": 6575,
      "æĺ¯ä¸ĢåĲį": 6576,
      "è¿ģèĩ³": 6577,
      "éĺ¿å°Ķåįĳ": 6578,
      "å¸½": 6579,
      "ç¬¬4": 6580,
      "é«ĺè¾¾": 6581,
      "çĲĨæĥ³": 6582,
      "åĲĪæ³ķ": 6583,
      "çĻ¾ä¸ĩ": 6584,
      "éħįç½®": 6585,
      "æĢģåº¦": 6586,
      "å·¥èīº": 6587,
      "ç¨Ģ": 6588,
      "æ¡Ī.": 6589,
      "åĽ½éĻħæľºåľº": 6590,
      "æļĤæĹ¶": 6591,
      "ç§©": 6592,
      "æĹ¶åĮº": 6593,
      "å¸¸å§Ķ": 6594,
      "é¢Ĩäºĭ": 6595,
      "åĽ¾åĥı": 6596,
      "å·´æĭī": 6597,
      "ç¦ıå·ŀ": 6598,
      "ck": 6599,
      "è¡Įä¸ļ": 6600,
      "å¸Ĥ,": 6601,
      "åı·,": 6602,
      "æīĭæ®µ": 6603,
      "èªĵ": 6604,
      ".ä»ĸæĽ¾ä»£è¡¨": 6605,
      "700": 6606,
      "åĩ¶": 6607,
      "å»ĸ": 6608,
      "å±łæĿĢ": 6609,
      "ç§°åĳ¼": 6610,
      "0å¹´)": 6611,
      "çĽ´æĴŃ": 6612,
      "ä¼ĬåĪ©": 6613,
      "ä¾Ŀèµĸ": 6614,
      "èģļéĽĨ": 6615,
      "åľ¨197": 6616,
      "éĺ¿å°Ķåįĳæĸ¯": 6617,
      "åĪ¶æĪĲ": 6618,
      "åħ±åĴĮåħļ": 6619,
      "ä½İäºİ": 6620,
      "æĢķ": 6621,
      "äºİ190": 6622,
      "ma": 6623,
      "ç¼´": 6624,
      "ç¹ģæ®ĸ": 6625,
      "èĤºçĤİ": 6626,
      "èĭ±å°º).": 6627,
      ",æĮĩ": 6628,
      "çļĦæĸ¹æ³ķ": 6629,
      "åĽ½åĨĽ": 6630,
      "éĽ·æĸ¯": 6631,
      ",åĬłä¸Ĭ": 6632,
      "ç«Ł": 6633,
      "åĬłå°Ķ": 6634,
      "æķĻå®Ĺ": 6635,
      "èĤ¤": 6636,
      ",éĥ½": 6637,
      "å¸ĸ": 6638,
      "æľ¬ä½ľ": 6639,
      "æľºåĪ¶": 6640,
      "äºĶä¸ª": 6641,
      "110": 6642,
      "ä¼ļæľī": 6643,
      "ä¾£": 6644,
      "2026å¹´": 6645,
      "å±±åĮº": 6646,
      "ä½¿,": 6647,
      "èĲ½æĪĲ": 6648,
      "åĲĮæĹ¶è¯¥åľ°": 6649,
      "æĪĺ.": 6650,
      "ç»´å¤ļ": 6651,
      "éŀĭ": 6652,
      "ä¸»ä¹īèĢħ": 6653,
      "åİ¿(ä»Ĭ": 6654,
      "åŃ¦ç§ĳ": 6655,
      "æ¼ł": 6656,
      "ä¿ĿéĻ©": 6657,
      "èĴ²": 6658,
      "åħ¬åı¸.": 6659,
      "çĶ°å¾Ħ": 6660,
      "æģ©Â·": 6661,
      "åĪĨå¸ĥåľ¨": 6662,
      "HD": 6663,
      "éĺŁéķ¿": 6664,
      "ç¦ıå»ºçľģ": 6665,
      "ä¸ºåħ¶": 6666,
      "åī§åľº": 6667,
      "åį³ä½¿": 6668,
      "å¯ĨåĪĩ": 6669,
      "1988å¹´": 6670,
      "æ£ĴçĲĥ": 6671,
      "å°¿": 6672,
      "è®¤åı¯": 6673,
      "ä¾ĭ.": 6674,
      "æ¶Īéĺ²": 6675,
      "åĽĽå·Ŀçľģ": 6676,
      "åĬŀäºĭå¤Ħ": 6677,
      ",å¤ļ": 6678,
      "1.5": 6679,
      "å¤©åłĤ": 6680,
      "éĺ²ç©º": 6681,
      "è¾ħåĬ©": 6682,
      "çļĦè§Ĵèī²": 6683,
      "è½©": 6684,
      "10å¹´": 6685,
      "èĭ±åĳİ": 6686,
      ",ä½ĨçĶ±äºİ": 6687,
      "äº¤ç»Ļ": 6688,
      "çłĶç©¶éĻ¢": 6689,
      "è§Ĥçľĭ": 6690,
      ",æĪĳ": 6691,
      ".å¦Ĥæŀľ": 6692,
      "éĤ±": 6693,
      "æīĵçł´": 6694,
      "æ¡¥æ¢ģ": 6695,
      "||": 6696,
      "ç¨£": 6697,
      "è®¤è¯ģ": 6698,
      "çļĦä¸Ģéĥ¨åĪĨ,": 6699,
      "è·¯æ®µ": 6700,
      "åĨĴéĻ©": 6701,
      "çĲĨçĶ±": 6702,
      "éķĩ.": 6703,
      "å§Ķæīĺ": 6704,
      "åķĨåºĹ": 6705,
      "å«©": 6706,
      "å¤©æ°Ķ": 6707,
      "0å¹´ä»£,": 6708,
      "ç«ŀèµĽ": 6709,
      "19å¹´": 6710,
      "âĢĺ": 6711,
      "èĢ¶ç¨£": 6712,
      "æľĢé«ĺçļĦ": 6713,
      "å¡ŀå°Ķç»´äºļ": 6714,
      "å¥ł": 6715,
      "è¥¿ä¾§": 6716,
      "æĭīçī¹": 6717,
      "æĦıä¸ºâĢľ": 6718,
      "54": 6719,
      "éĩıåŃĲ": 6720,
      "åī¯ä¹¦è®°": 6721,
      ",ä¸ºäºĨ": 6722,
      "åĪ¶ä½ľ.": 6723,
      "èģļèĲ½": 6724,
      "çļĦå·¥ä½ľ": 6725,
      "çļĦåİŁåĽł": 6726,
      "èµĦåĬ©": 6727,
      "åĬłåħ¥äºĨ": 6728,
      "ä¼ļè¯ķ": 6729,
      "åĻ¨.": 6730,
      "å¼ĹéĽ·": 6731,
      ",åĲİèĢħ": 6732,
      "æĪĲç«ĭ,": 6733,
      "æĴ¤éĢĢ": 6734,
      "å¤©æĸĩåı°": 6735,
      "çľģ,ä¸ľä¸´": 6736,
      "ä¼ļåĳĺ": 6737,
      "åĬłåĵ¥": 6738,
      "äººä¸º": 6739,
      "åįĹèĩ³": 6740,
      "è®¾è®¡.": 6741,
      "æī©å»º": 6742,
      "IT": 6743,
      "æłĹ": 6744,
      "èĬĿåĬłåĵ¥": 6745,
      "6ä¸ª": 6746,
      "çļĦæĢ»": 6747,
      "ä»¥ä¸º": 6748,
      "ç©´": 6749,
      "5ä¸ª": 6750,
      "å®¶ä¸Ń": 6751,
      "çĤ¼": 6752,
      "è´§è¿Ĳ": 6753,
      "å½±è§Ĩ": 6754,
      "å®¤åĨħ": 6755,
      "åľ°æĸ¹èµĦæĸĻ.": 6756,
      "ç»ĦæĪĲ.": 6757,
      "çļĦéŁ³ä¹Ĳ": 6758,
      "ä»¥ä¸ĬçļĦ": 6759,
      "è¢«ä»»åĳ½ä¸º": 6760,
      "äººæ°ĳä»£è¡¨å¤§ä¼ļ": 6761,
      "æ¤İ": 6762,
      "Â·åį¡": 6763,
      "ä¸ĭå±ŀ": 6764,
      "èĭ¹": 6765,
      "èĩªæĪĳ": 6766,
      "å±ķçİ°": 6767,
      "çļĦç¾İåĽ½": 6768,
      "ç§¯åĪĨ": 6769,
      "çº³åħ¥": 6770,
      "æ¯ıæĹ¥": 6771,
      "è®¸åı¯": 6772,
      "ç»¥": 6773,
      "çľł": 6774,
      "åº§æłĩä¸º": 6775,
      "åģľè½¦": 6776,
      "äººæĿĥ": 6777,
      "é¸Ń": 6778,
      "çļĦè¯Ŀ": 6779,
      "ä¼Ĺè®®éĻ¢": 6780,
      "èħ¿": 6781,
      "å¼ĹéĩĮ": 6782,
      "æ¶µçĽĸ": 6783,
      ",å°½ç®¡": 6784,
      "åİŁåĲį": 6785,
      "int": 6786,
      "è§Ĵåº¦": 6787,
      "èĢģå¸Ī": 6788,
      "åģļåĩº": 6789,
      "ç»¿èī²": 6790,
      ")æĪĸ": 6791,
      "å¤§å¸Ī": 6792,
      "éľŀ": 6793,
      "èĬĤåº¦": 6794,
      "çľģ,è¥¿": 6795,
      "çļĦéķ¿": 6796,
      "çº¦çĳŁ": 6797,
      "æĥ³è¦ģ": 6798,
      "çļĨä¸º": 6799,
      "çļĦæĿĳåºĦ": 6800,
      "ä¹Łä¸į": 6801,
      "çļĦæĹ¥": 6802,
      "ä¹ĭä¸ĭ": 6803,
      "è¿Ľåħļ": 6804,
      "æŃ»åĪĳ": 6805,
      ",çĽ´èĩ³": 6806,
      "per": 6807,
      "ä¸įæķĮ": 6808,
      "è´¢äº§": 6809,
      "åľ¨èĭ±åĽ½": 6810,
      "éĥ¨.": 6811,
      ",å¹¶ä¸İ": 6812,
      "ä¸¤ä½į": 6813,
      "ä¸¤ä¾§": 6814,
      "éªļ": 6815,
      "ä¸¹å°¼": 6816,
      "57": 6817,
      "å··": 6818,
      "æĸ¹ä¾¿": 6819,
      "ãĢĭãĢĬ": 6820,
      "åıĽä¹±": 6821,
      "åĨħèĴĻåı¤": 6822,
      "ç«ŀæĬĢ": 6823,
      "MV": 6824,
      "ment": 6825,
      "å¥¹åľ¨": 6826,
      ".2018å¹´": 6827,
      "äº¡.": 6828,
      "æ¤įçī©.": 6829,
      "ä¸¸": 6830,
      "å¤§å¤«": 6831,
      "çī¹æľĹ": 6832,
      "å¨ħ": 6833,
      "èħº": 6834,
      "è½¦éĺŁ": 6835,
      "æľįè£ħ": 6836,
      "éģŃåıĹ": 6837,
      "ãĢģæŀĹ": 6838,
      "èħĵ": 6839,
      "çĭ¬ç«ĭçļĦ": 6840,
      "æľ¬äºº": 6841,
      "çº¿ä¸Ĭ": 6842,
      "èģĮ,": 6843,
      "ai": 6844,
      "è¡Į.": 6845,
      "è¥¿éĩĮ": 6846,
      "éĩįéĩı": 6847,
      "è¯Ń.": 6848,
      "æ¶Ľ": 6849,
      "1993å¹´": 6850,
      "å·¦ç¿¼": 6851,
      "U-": 6852,
      "ä¸Ģå°ıæĹ¶,": 6853,
      "åĽŀå¿Ĩ": 6854,
      "çĶµè§Ĩåī§ãĢĬ": 6855,
      "çļĦå½¢å¼ı": 6856,
      "èį¡": 6857,
      "äºĨä»ĸ": 6858,
      "è°Ĭ": 6859,
      "çĽ´åįĩ": 6860,
      "è£ģåĪ¤": 6861,
      "é©¬æģ©": 6862,
      "å¨¶": 6863,
      "ç¤¾ç¾¤": 6864,
      "ock": 6865,
      "è°ĥå¿«": 6866,
      "å±Ĥ,": 6867,
      "ä»ħæľī": 6868,
      "æ²³è°·": 6869,
      "æ¶īå«Į": 6870,
      "æŁ¥çĲĨ": 6871,
      "å®£ç§°": 6872,
      "èĲ¥ä¸ļ": 6873,
      "é±¼éĽ·": 6874,
      "è®¼": 6875,
      "å¼łä¸ĵè¾ĳ": 6876,
      "åįıå®ļ": 6877,
      "çĽ¸åĲĮçļĦ": 6878,
      "äººæ¬¡": 6879,
      "æł¼éĽ·": 6880,
      "æĶ¹è¿Ľ": 6881,
      "ç©ºè¢Ń": 6882,
      "ST).": 6883,
      "åº§æłĩä¸º,èĢĮ": 6884,
      "æĸ°åĨł": 6885,
      "è¾Ĳå°Ħ": 6886,
      "çļĦæľĢ": 6887,
      "åľ¨åı°æ¹¾": 6888,
      "ä¸Ĭéĺµ": 6889,
      "éĵĥ": 6890,
      ",å¹¶çĶ±": 6891,
      "åł¤": 6892,
      "æĥħç»ª": 6893,
      "å¾ģæľį": 6894,
      "è®¾æĸ½.": 6895,
      "å¤§ä½¿é¦Ĩ": 6896,
      "æ³ķä»¤": 6897,
      "åĺīä¹ī": 6898,
      "æ³½å°Ķ": 6899,
      "èŀįåĲĪ": 6900,
      "86": 6901,
      "æ¯Ĺ": 6902,
      "æĬĦ": 6903,
      "äºİãĢĬ": 6904,
      "æİ©": 6905,
      "è¿ŀè½½": 6906,
      "åĻ¶": 6907,
      "ãĢģå°ı": 6908,
      "),å¹¶": 6909,
      "åıĤè®®éĻ¢": 6910,
      "ä¾ĭåŃĲ": 6911,
      "ä½ľçĶ¨.": 6912,
      ",ä¸¤äºº": 6913,
      "ä»¥ä¸ľ": 6914,
      "æĪĺæľ¯": 6915,
      "è¯´:ãĢĮ": 6916,
      "ä¼ļè¢«": 6917,
      "é¢ĨåħĪ": 6918,
      "éĩįè§Ĩ": 6919,
      "æ´Ľåħĭ": 6920,
      "çļĦåĲįåŃĹ": 6921,
      "åľ¨196": 6922,
      "äºĨ,": 6923,
      "ç£·": 6924,
      "è§īå¾Ĺ": 6925,
      "æĸĩçī©ä¿ĿæĬ¤åįķä½į.": 6926,
      "éĢļçŁ¥": 6927,
      "èº«åĪĨ": 6928,
      "è½¬çļĦ": 6929,
      "160": 6930,
      "a\"": 6931,
      "æĪĲçĨŁ": 6932,
      "èĪĮ": 6933,
      "å½ĵä»£": 6934,
      "æħ°": 6935,
      "èĵĿèī²": 6936,
      "DT).": 6937,
      "è°ĥå¿«ä¸Ģå°ıæĹ¶,": 6938,
      "çĢ": 6939,
      "éĥģ": 6940,
      "åı¯è§ģ": 6941,
      "æ¿Ĵ": 6942,
      "ä¾įéĥİ": 6943,
      "çĬ¹å¤ªäºº": 6944,
      "èĩĤ": 6945,
      "å¸ĥæľĹ": 6946,
      "ç¤¾äº¤": 6947,
      "è®¾æľīå¤ıä»¤æĹ¶éĹ´": 6948,
      "è¯¥åľ°æīĢéĩĩçĶ¨": 6949,
      "åĲĮæĹ¶è¯¥åľ°è®¾æľīå¤ıä»¤æĹ¶éĹ´": 6950,
      "ST).åĲĮæĹ¶è¯¥åľ°è®¾æľīå¤ıä»¤æĹ¶éĹ´": 6951,
      "è°ĥå¿«ä¸Ģå°ıæĹ¶,åį³": 6952,
      "è¯¥åľ°æīĢéĩĩçĶ¨çļĦæĹ¶åĮºä¸º": 6953,
      "ST).åĲĮæĹ¶è¯¥åľ°è®¾æľīå¤ıä»¤æĹ¶éĹ´,ä¸º": 6954,
      ",ç®Ģç§°": 6955,
      "æ¼Ķè®²": 6956,
      ".2016å¹´": 6957,
      "å·¨å¤§": 6958,
      "éķĩåĮºçļĦ": 6959,
      "äº¤æ±ĩ": 6960,
      ".è¯¥æĿĳ": 6961,
      "æ»¡æ´²": 6962,
      "å»¶ç»Ń": 6963,
      "ä¸ĭä¸Ģ": 6964,
      "éĢļå¾Ģ": 6965,
      "çĥ¯": 6966,
      "çĪµå£«": 6967,
      ".åĲĮæĹ¶,": 6968,
      "ä¸ľä¾§": 6969,
      "åįķä¸Ģ": 6970,
      "åĲįä¸ºãĢĮ": 6971,
      "5-": 6972,
      "è´·": 6973,
      "æĦŁè§ī": 6974,
      "ç²īä¸Ŀ": 6975,
      "é«ĺäºİæµ·å¹³éĿ¢": 6976,
      ".2": 6977,
      "ure": 6978,
      "1990å¹´": 6979,
      "çļĦåħ³ç³»": 6980,
      "æĢ»çĽĳ": 6981,
      "ä¼łæķĻ": 6982,
      "æį·åħĭ": 6983,
      "çĽ¸å½ĵäºİ": 6984,
      "ah": 6985,
      "æĮ¡": 6986,
      "åŃĲå¥³": 6987,
      "æİĴè¡Įæ¦ľ": 6988,
      "èīºäºº": 6989,
      "è´§çī©": 6990,
      "),èĢĮè¯¥åľ°æīĢéĩĩçĶ¨çļĦæĹ¶åĮºä¸º": 6991,
      "æīĢå¤ĦçļĦæµ·æĭĶä¸º": 6992,
      "èĭ±åĳİ),èĢĮè¯¥åľ°æīĢéĩĩçĶ¨çļĦæĹ¶åĮºä¸º": 6993,
      "æīĢå¤ĦçļĦæµ·æĭĶä¸ºé«ĺäºİæµ·å¹³éĿ¢": 6994,
      "è¾ĵåĩº": 6995,
      "è¡¥åħħ": 6996,
      ",éĢļè¿ĩ": 6997,
      "col": 6998,
      "ä¸ŃæľĢ": 6999,
      "åº¶": 7000,
      "çİ²": 7001,
      "éķĩåĮº.": 7002,
      "çĶŁæ´»ä¹łæĢ§ä¸įæĺİ.": 7003,
      "åľ°å½¢": 7004,
      "æ¼ĶåĮĸ": 7005,
      "éªĹ": 7006,
      "è®¾è®¡çļĦ": 7007,
      "å½±åĵį,": 7008,
      "ç¬¦åı·": 7009,
      "çī¹å¾ģ.": 7010,
      "ç§įåŃĲ": 7011,
      "å¸Ĩ": 7012,
      "å®¶åºŃ.": 7013,
      "ç»ĺçĶ»": 7014,
      "Co": 7015,
      "ug": 7016,
      "åľ¨ä¸Ń": 7017,
      "å¤§éĿ©åĳ½": 7018,
      "èģª": 7019,
      "æĦ¤": 7020,
      "ä¿Ŀè¯ģ": 7021,
      "æĻ®ç½Ĺ": 7022,
      "æĹłçĹĩçĬ¶æĦŁæŁĵèĢħ": 7023,
      "å¼ĵ": 7024,
      "è¡ĮæĶ¿éĻ¢": 7025,
      ")æĺ¯æ³ķåĽ½": 7026,
      "æ°¸ä¹ħ": 7027,
      "å¸ĤãĢģ": 7028,
      "åĨħ.": 7029,
      "åĲĪåĲĮ": 7030,
      "é²¸": 7031,
      "è¯¦ç»Ĩ": 7032,
      "ç»´å¤ļåĪ©äºļ": 7033,
      "èįĨ": 7034,
      "åĪ¶ä½ľçļĦ": 7035,
      "æıĲåĩºäºĨ": 7036,
      "èĦ±ç¦»": 7037,
      "çī¹å°Ķ": 7038,
      "æĪĺéĺŁ": 7039,
      "åŁİçļĦ": 7040,
      "äº¬éĥ½": 7041,
      "åħ·å¤ĩ": 7042,
      "å¾Īå°ĳ": 7043,
      "äºĴåĬ¨": 7044,
      "ran": 7045,
      "å¤§éĺª": 7046,
      "ä½Ĩæĺ¯": 7047,
      "å°¼åı¤": 7048,
      "ord": 7049,
      "çĵ¶": 7050,
      "çĻ»è®°": 7051,
      "73": 7052,
      "æ¡Į": 7053,
      ",åį³åĮĹç¾İ": 7054,
      "(I": 7055,
      "ç¥¯": 7056,
      "è·¯åı£": 7057,
      "):": 7058,
      "ãĢĭä¸Ģ": 7059,
      "æł¼å°Ķ": 7060,
      "æĥħèĬĤ": 7061,
      "å±Ģ.": 7062,
      "are": 7063,
      "æ¾Ħ": 7064,
      ".2010å¹´": 7065,
      "zh-c": 7066,
      "æ©Ħ": 7067,
      "aw": 7068,
      "åľ°äºļ": 7069,
      "åĮºéĹ´": 7070,
      "èĭ±è¯Ń:": 7071,
      "éĺ¿éĩĮ": 7072,
      "éħ®": 7073,
      "èİ·èĥľ": 7074,
      "æķĻèĤ²éĥ¨": 7075,
      "åºıåĪĹ": 7076,
      "äºİ2016å¹´": 7077,
      "èĤ¡ä»½æľīéĻĲåħ¬åı¸": 7078,
      "SS": 7079,
      "oy": 7080,
      "æ¯«ç±³,": 7081,
      ".3": 7082,
      "æ¸ł": 7083,
      "æİ¢éĻ©": 7084,
      "éķĩåĮºçļĦéĿ¢ç§¯ä¸º": 7085,
      "äº©": 7086,
      "çī¹éĩĮ": 7087,
      "ä½ľä¸ļ": 7088,
      "æł¼éĩĮ": 7089,
      "æĸ½å·¥": 7090,
      "éķĩåĮº()æĺ¯ä½įäºİç¾İåĽ½": 7091,
      "ä¸ºæĸ°": 7092,
      "åºĩ": 7093,
      "ãĢĭåľ¨": 7094,
      "æŃ¤æ¬¡": 7095,
      "æµģä¼ł": 7096,
      "UTC-6": 7097,
      "ä½įäºİç¾İåĽ½": 7098,
      "çº¢åĨĽ": 7099,
      "èļĢ": 7100,
      "ä¼Ĭæĸ¯åħ°æķĻ": 7101,
      ".ä¸Ģ": 7102,
      "ä¼ŀ": 7103,
      "å§¿": 7104,
      "å¤ļåĲį": 7105,
      "åĽĽä¸ĸ": 7106,
      "ä¸¾äºº,": 7107,
      "82": 7108,
      "å§ĳ": 7109,
      "å¾·æĦıå¿Ĺ": 7110,
      "éĤĳ": 7111,
      "è¯ºå¤«": 7112,
      "è½°çĤ¸æľº": 7113,
      "éĿĴå°ĳå¹´": 7114,
      "æķĪåĬĽäºİ": 7115,
      "æĨ": 7116,
      "åħ¬é¡·": 7117,
      "åĩºèº«.": 7118,
      "ä¸»å¯¼": 7119,
      "ãĢįä¹ĭ": 7120,
      "èĬŃ": 7121,
      "ç±»çļĦ": 7122,
      ".è¿Ļä¸Ģ": 7123,
      "æ´»åĬ¨,": 7124,
      "ä¼łç»ŁçļĦ": 7125,
      "zh-cn:": 7126,
      "æ©Ħæ¦Ħ": 7127,
      "ç»ĳ": 7128,
      "æĶ¾åľ¨": 7129,
      "å²ĽçļĦ": 7130,
      "æĿĳ.": 7131,
      "èĩ´åĬĽ": 7132,
      "çģŃç»Ŀ": 7133,
      "ä¼ļä¸Ĭ": 7134,
      "è¿ĻéĩĮ": 7135,
      "ç»´åŁº": 7136,
      "ä½Ľç½ĹéĩĮè¾¾": 7137,
      "ä»Ĩ": 7138,
      "åºļ": 7139,
      "æ³Ħ": 7140,
      "æ»ķ": 7141,
      "çİ°åľ¨çļĦ": 7142,
      "åįĹæŀģæ´²": 7143,
      ".6": 7144,
      "å¤ļæł·": 7145,
      "äºĮçº§": 7146,
      "æĢ»è£ģ": 7147,
      "äºİ192": 7148,
      "æ¤ħ": 7149,
      "äºĴèģĶç½ĳ": 7150,
      "åĬĽ,": 7151,
      "å®¹çº³": 7152,
      "äº¿åħĥ": 7153,
      "æ®ĸæ°ĳåľ°": 7154,
      "æľ¬ç§ĳ": 7155,
      "æµ·ä¸Ĭ": 7156,
      "å·´åĭĴ": 7157,
      "åİĨåı²åŃ¦å®¶": 7158,
      "178": 7159,
      "ãĢĭ(\"": 7160,
      "ä¸ľåįĹäºļ": 7161,
      "æ²Īéĺ³": 7162,
      "ä¸ľäºļ": 7163,
      "æ±īåŃĹ": 7164,
      ",ä¹Łæľī": 7165,
      "7,": 7166,
      "ç¥Ī": 7167,
      "çĽ¸åıį": 7168,
      "å®ĺ,": 7169,
      "çıŃæ¬¡": 7170,
      "()æĺ¯ä¸Ģä¸ª": 7171,
      "çĪ·": 7172,
      "å°ĳå°Ĩ": 7173,
      "æĪĺæĸĹæľº": 7174,
      "km": 7175,
      "çļĦæĶ¿æ²»": 7176,
      "æĶ¿åıĺ": 7177,
      "çļĦä¸į": 7178,
      "éĥ¨å°ļä¹¦": 7179,
      "æ²¿å²¸": 7180,
      "éĽĨä½ĵ": 7181,
      "åį³å°Ĩ": 7182,
      "åį«éĺŁ": 7183,
      "çĸ«èĭĹ": 7184,
      "éĩĳå±±": 7185,
      "ç¾¤ä¼Ĺ": 7186,
      "åľ¨åĮĹäº¬": 7187,
      "åŃ¦ç³»": 7188,
      "ç½©": 7189,
      "çī¹èī²": 7190,
      "æ¼Ķèīº": 7191,
      "å®īå¾½çľģ": 7192,
      "è©¹å§Ĩæĸ¯Â·": 7193,
      "è¿ĳä»£": 7194,
      "è¿ŀä»»": 7195,
      "ç¾¤ä½ĵ": 7196,
      "åĪĨåĮº": 7197,
      "å¸ĥéĽ·": 7198,
      "å®īÂ·": 7199,
      "åį«è§Ĩ": 7200,
      "èĭ¹æŀľ": 7201,
      ",æĹ¥æľ¬": 7202,
      "åĪĨæł¡": 7203,
      "éĢļçĶ¨": 7204,
      "æĢ»ä¼ļ": 7205,
      "åķ¡": 7206,
      "åĬ£": 7207,
      "æĿ¥è¯´,": 7208,
      "ä½¿çĶ¨äºĨ": 7209,
      "æĭħå¿ĥ": 7210,
      "æĶ»åįł": 7211,
      "çļĦæĥħåĨµä¸ĭ": 7212,
      ".åĽł": 7213,
      "çº§èģĶèµĽ": 7214,
      "1989å¹´": 7215,
      "æħİ": 7216,
      "Play": 7217,
      "ä¸İãĢĬ": 7218,
      "ä»įæľī": 7219,
      "åıĤä¸İäºĨ": 7220,
      "me": 7221,
      "éĢ¸": 7222,
      "ãĢįåĴĮ": 7223,
      "è¿ŀç»ĵ": 7224,
      "å¹²éĥ¨": 7225,
      "æ°ĳè¿Ľåħļ": 7226,
      "å·¥ä¼ļ": 7227,
      "çļĦçĶµ": 7228,
      "ä»¥è¥¿": 7229,
      "ä»ĸæĺ¯": 7230,
      "æĥ§": 7231,
      "æ¸ħæ¥ļ": 7232,
      "é¹ı": 7233,
      "äººçī©.": 7234,
      "æİ¢ç´¢": 7235,
      ",åıªæľī": 7236,
      "250": 7237,
      "éķĩåİĭ": 7238,
      "æĻ®é²ģå£«": 7239,
      "ð«": 7240,
      "éķĳ": 7241,
      "çľģçļĦ": 7242,
      "å¹³æĸ¹ç±³,": 7243,
      "æŃ».": 7244,
      "æł¸éħ¸": 7245,
      "æŀ¶æŀĦ": 7246,
      "è´ª": 7247,
      "å½ĵå¤©": 7248,
      "çŁ®": 7249,
      "éĥ½è¢«": 7250,
      "åįķæīĵ": 7251,
      "çĥ·": 7252,
      "åĢ¼å¾Ĺ": 7253,
      "åĪ¤åĨ³": 7254,
      "éķ¿çº¦": 7255,
      "è¿ĩç¨ĭä¸Ń,": 7256,
      "èľĤ": 7257,
      "çļĦåıį": 7258,
      "ç»Ħ.": 7259,
      "ä»İæľª": 7260,
      "é³ŀ": 7261,
      "å¥³çİĭ": 7262,
      "å¤«å¦ĩ": 7263,
      ",),": 7264,
      ",å¸¸": 7265,
      "çļĦç»ĵæŀľ": 7266,
      "ç¬¬ä¸Ģä½į": 7267,
      "å°ıè¯´ãĢĬ": 7268,
      "æīĳ": 7269,
      "å±±è¥¿çľģ": 7270,
      "æ¨±": 7271,
      "çļĦä¸ĢæĿ¡": 7272,
      "æ¸ħä»£": 7273,
      "éĴ¢çĲ´": 7274,
      ",ä»»": 7275,
      "è´¼": 7276,
      "æł¼æŀĹ": 7277,
      "å®ŀè·µ": 7278,
      "æĽ´å¤ļçļĦ": 7279,
      "å¤§åŃ¦ãĢģ": 7280,
      "èīºæľ¯å®¶": 7281,
      "åĲİèĢħ": 7282,
      "æŃ¤ç«Ļ": 7283,
      "è°´": 7284,
      ".2015å¹´": 7285,
      "è¸ı": 7286,
      ",èĭ¥": 7287,
      "ire": 7288,
      "æĸ¯åľ¨": 7289,
      "åĨĽåľ¨": 7290,
      "æĪĺ,": 7291,
      "åĽĽå¹´(": 7292,
      "éĢ¾": 7293,
      "å®ļæľŁ": 7294,
      "æĺŁç³»": 7295,
      ",ä½įäºİè¯¥": 7296,
      "åĮĹæµ·éģĵ": 7297,
      "ä»ĸä¸İ": 7298,
      "è¯¥åľ°çļĦ": 7299,
      "éĩįè¿Ķ": 7300,
      "ä¿®è®¢": 7301,
      "åĪĩå°Ķ": 7302,
      "2019å¹´,": 7303,
      "å½»åºķ": 7304,
      "96": 7305,
      "åĬ³å·¥": 7306,
      "ust": 7307,
      "åħ¶å®ŀ": 7308,
      "å¥¹ä»¬": 7309,
      "æ±ŁæĪ·": 7310,
      "æĪĲéķ¿": 7311,
      "åĵª": 7312,
      "æµ·åįĹ": 7313,
      "è¿ªå£«": 7314,
      "æĦ¿æĦı": 7315,
      "ight": 7316,
      "(O": 7317,
      ",çİĭ": 7318,
      "çŃĴ": 7319,
      "åıĳè¡ĮçļĦ": 7320,
      "ä¼ļè®®åĳĺ": 7321,
      "åįķä½į.": 7322,
      "æ¡ĥåĽŃ": 7323,
      "YouT": 7324,
      "-21": 7325,
      "Sc": 7326,
      "ä¸Ńå°Ĩ": 7327,
      "è¡Įèµ°": 7328,
      "åĪ©Â·": 7329,
      "çªĦ": 7330,
      "èµĶ": 7331,
      "äºĨä»ĸçļĦ": 7332,
      "åŃ¦ä½į.": 7333,
      "æł¼é²ģ": 7334,
      "æĺ¯ä¸Ģä½į": 7335,
      "è½¯ä½ĵ": 7336,
      "éŃĶæ³ķ": 7337,
      "PS": 7338,
      "éĻ¨çŁ³": 7339,
      ",ä¸ĭ": 7340,
      "å¤´è¡Ķ": 7341,
      "æķ´åĲĪ": 7342,
      "2åı·": 7343,
      "DV": 7344,
      "s)": 7345,
      "çļĦç¥ŀ": 7346,
      "æķ²": 7347,
      "åŃ¦,": 7348,
      "ä¸ľæµ·": 7349,
      "èĤ¢": 7350,
      "ç»´ä¿®": 7351,
      "å¼ķè¿Ľ": 7352,
      "å¥½è¯Ħ": 7353,
      "ä»įåľ¨": 7354,
      "æĴŃåĩº.": 7355,
      "åİŁåħĪ": 7356,
      "åıĹå®³": 7357,
      "å±ĤçļĦ": 7358,
      "son": 7359,
      "çºł": 7360,
      "æĬĽ": 7361,
      "èĹ»": 7362,
      "ä¼¤å®³": 7363,
      "è¡Į,": 7364,
      "çĲĨæŁ¥": 7365,
      "è¯ģåĪ¸": 7366,
      ".4": 7367,
      "iz": 7368,
      ",èĢĮåľ¨": 7369,
      "åĵĪèĲ¨åħĭ": 7370,
      "è¢«ç§°ä¸ºâĢľ": 7371,
      "ä¹Ķæ²»Â·": 7372,
      "è¿ªå£«å°¼": 7373,
      "åĲİåľ¨": 7374,
      ",æĬĬ": 7375,
      "çļĦåŁºç¡Ģ": 7376,
      "åĲİè¢«": 7377,
      "è¾ĥä½İ": 7378,
      "æĶ¿æ²»äººçī©ãĢģ": 7379,
      "åĲĬ": 7380,
      "1920å¹´": 7381,
      "è°¥": 7382,
      "è·¯.": 7383,
      "ä½¿.": 7384,
      "3å¹´),": 7385,
      "ä¸ĢæĶ¯": 7386,
      "åĨĢ": 7387,
      "1984å¹´": 7388,
      "æĸ¯åł¡": 7389,
      "èµ·è¯ī": 7390,
      "è®®å¸Ń": 7391,
      "è®°ãĢĭ": 7392,
      "åĿŁ": 7393,
      "å®ĺèĩ³": 7394,
      "ä¼Ĭæĭīåħĭ": 7395,
      "ä¼¯çī¹": 7396,
      "cl": 7397,
      "åĩ¸": 7398,
      "åĮºåĪ«": 7399,
      "éģ®": 7400,
      "åįłæį®": 7401,
      "pt": 7402,
      "çļĦæľº": 7403,
      "æĥ©": 7404,
      "åĨħåľ°": 7405,
      "å£«.": 7406,
      "é»Ħèī²": 7407,
      ",è¿ĺæľī": 7408,
      ".åı¦å¤ĸ": 7409,
      ";zh-tw:": 7410,
      "ç»´åħĭ": 7411,
      ",å½¢æĪĲ": 7412,
      "ib": 7413,
      "ä¸ºäºº": 7414,
      "ä¸»åĬ¨": 7415,
      "çī¹åĮº": 7416,
      "åĪ©çļĦ": 7417,
      "çĽ®çļĦæĺ¯": 7418,
      "åĸĩ": 7419,
      "ä¹¡éķĩ": 7420,
      ",éĺ¿": 7421,
      ",å¼Ģå§ĭ": 7422,
      ",197": 7423,
      "åľ¨æĸ°": 7424,
      "æľī:": 7425,
      "è¢«åĳĬ": 7426,
      "ä¿®éģĵ": 7427,
      "äº§çĶŁäºĨ": 7428,
      "æĴŀåĩ»": 7429,
      "(V": 7430,
      "/&gt;": 7431,
      "ç½Ĺå¾·": 7432,
      "formula_1": 7433,
      ".2014å¹´": 7434,
      "äºİ2015å¹´": 7435,
      "æŃī": 7436,
      "è¯ºæĽ¼": 7437,
      "æľĽè¿ľ": 7438,
      ",æĪĸèĢħ": 7439,
      "æĪĺåĪĹ": 7440,
      "èµ·åĪĿ": 7441,
      "è®¤åĲĮ": 7442,
      "èĥĮé³į": 7443,
      "äºİ2014å¹´": 7444,
      "ç¬¬ä¸Ģæ¬¡ä¸ĸçķĮå¤§æĪĺ": 7445,
      "çĩĥæĸĻ": 7446,
      "çļĦä¸Ĭ": 7447,
      "é£ŁçĶ¨": 7448,
      "æĹłçº¿çĶµè§Ĩ": 7449,
      "çĶľ": 7450,
      "åĽ½éģĵ": 7451,
      "èµ£": 7452,
      "çİĭåŃĲ": 7453,
      "æŃ¦å¸Ŀ": 7454,
      "å¸Įå°Ķ": 7455,
      "ial": 7456,
      "æľµ": 7457,
      "å§Ķä»»": 7458,
      "éĻ¤æŃ¤": 7459,
      "æĶ»æīĵ": 7460,
      "äºİ2018å¹´": 7461,
      "çºªå½ķ.": 7462,
      "çļĦçĶµå½±": 7463,
      "çļĦæīĢæľī": 7464,
      "å±¥": 7465,
      "åľ°åĲį": 7466,
      "æłĩè®°": 7467,
      "çĶ·å¥³": 7468,
      ".åı¦å¤ĸ,": 7469,
      "å¤ļé¡¹": 7470,
      "æĲºå¸¦": 7471,
      "PC": 7472,
      "ãĢģæ°´": 7473,
      "åħ¬åĬ¡": 7474,
      "é¢ł": 7475,
      "æĶ¹å»º": 7476,
      "2021å¹´,": 7477,
      "èĭıç»´åŁĥ": 7478,
      ".2013å¹´": 7479,
      "æ¡£æ¡Ī": 7480,
      "åĽ½éĺ²éĥ¨": 7481,
      "è®®é¢ĺ": 7482,
      "åĪĹåĩº": 7483,
      "æ¨¡çī¹": 7484,
      "æĤł": 7485,
      "éĢĶä¸Ń": 7486,
      "ä¸Ģæł·,": 7487,
      "a)": 7488,
      "ç»µ": 7489,
      "åŁİå¢Ļ": 7490,
      "äº¤çķĮ": 7491,
      "ç»ĪçĤ¹": 7492,
      "è´¹çĶ¨": 7493,
      "äºİ2017å¹´": 7494,
      "èĽĭçĻ½è´¨": 7495,
      "Be": 7496,
      "çļĦæŃĮæĽ²": 7497,
      "åİ¥": 7498,
      "äºĨè®¸å¤ļ": 7499,
      "äº¤åıī": 7500,
      "å¡ŀçº³": 7501,
      "æ³ķåħ°åħĭ": 7502,
      "è°´è´£": 7503,
      "97": 7504,
      "çļĦæĪĲåĳĺ": 7505,
      "æ¸Ĭ": 7506,
      "åį°ç¬¬": 7507,
      "èı²åĪ©": 7508,
      "åĨħå®¹.": 7509,
      "æĸ¯åĴĮ": 7510,
      "èĬĻ": 7511,
      "æ¢¨": 7512,
      "å»ºçŃĳå¸Ī": 7513,
      "ä¹¦.": 7514,
      "åħĪè¿Ľ": 7515,
      "æ¹ĸæ³Ĭ": 7516,
      "ä¸ĭè¾ĸä»¥ä¸ĭ": 7517,
      "çŁĽçĽ¾": 7518,
      "\".": 7519,
      "åį§": 7520,
      "æĺ¯åĽłä¸º": 7521,
      "çī©åĵģ": 7522,
      "è¿ĺåľ¨": 7523,
      "ä»Ĭå¤©": 7524,
      "çī¹æľĹæĻ®": 7525,
      ".1": 7526,
      "éĤµ": 7527,
      "æ²³éģĵ": 7528,
      "æĻºæħ§": 7529,
      "å²©çŁ³": 7530,
      "æľīãĢĮ": 7531,
      "åľ°ä¸Ń": 7532,
      "åĲįè¯į": 7533,
      "ä¹ŁæĽ¾": 7534,
      "åĽ¢ç»ĵ": 7535,
      "åºĶå¯¹": 7536,
      "è°ĭæĿĢ": 7537,
      ",åĽĽ": 7538,
      "å¤§.": 7539,
      "åĲİæĸ¹": 7540,
      "åı¯åľ¨": 7541,
      "ä¼¦Â·": 7542,
      "çĶŁéķ¿äºİ": 7543,
      "ä¼Ļä¼´": 7544,
      "å¼Ģå·¥": 7545,
      "åĿł": 7546,
      "çĤŃ": 7547,
      "ä¸¾åĬŀçļĦ": 7548,
      "ãĢģä»¥åıĬ": 7549,
      "åī¥": 7550,
      "ä»£æĽ¿": 7551,
      "éģĵåħī": 7552,
      "å®ŀä½ĵ": 7553,
      "åŀĭ.": 7554,
      "æ²ĻçĶ°": 7555,
      "2å¹´),": 7556,
      ",æĺ¯ä¸ŃåĽ½": 7557,
      "æĶ¶è´¹": 7558,
      "è¶³çĲĥéĺŁ": 7559,
      "åĶ¯ä¸ĢçļĦ": 7560,
      "84": 7561,
      "äºİ2020å¹´": 7562,
      "æľ¬çº¿": 7563,
      "åİĨ.": 7564,
      "4å¹´),": 7565,
      "ç½Ĺå¤«": 7566,
      "æıĲäº¤": 7567,
      "èģĮä½į": 7568,
      "è¿Ľè¡ĮçļĦ": 7569,
      "å¦¹å¦¹": 7570,
      "æľĽè¿ľéķľ": 7571,
      ",å¼ł": 7572,
      "ies": 7573,
      "mer": 7574,
      "äºİæŃ¤": 7575,
      "ä»»æķĻ": 7576,
      "AS": 7577,
      "å¥¸": 7578,
      "çĲĨå¿µ": 7579,
      "çķħ": 7580,
      "åľºåľ°": 7581,
      "éģĩåĪ°": 7582,
      "æ²³åĮĹçľģ": 7583,
      "ãĢģåĲ´": 7584,
      "æĢ§åĴĮ": 7585,
      "çº³å·ŀ": 7586,
      "æĤ¦": 7587,
      "å·¨å¤§çļĦ": 7588,
      "93": 7589,
      "å¼ĢåĬŀ": 7590,
      "å®īå¨ľ": 7591,
      "7å¹´),": 7592,
      "éļ¾æ°ĳ": 7593,
      "é¢ģå¸ĥ": 7594,
      "æŀ¢çº½": 7595,
      "éĢ»è¾ĳ": 7596,
      "åį°ç¬¬å®ī": 7597,
      "ç¦ıå¾·": 7598,
      "éĻįéĽ¨": 7599,
      "çľģ,åįĹèĩ³": 7600,
      "æĹ±": 7601,
      "ãĢģãĢĬ": 7602,
      "æ±ŁåįĹ": 7603,
      "æł¹æį®2020å¹´ç¾İåĽ½äººåı£æĻ®æŁ¥çļĦæķ°æį®,": 7604,
      "ä¸įåĲĮ,": 7605,
      "ich": 7606,
      "äºİ2012å¹´": 7607,
      "ld": 7608,
      "è¯ŃéŁ³": 7609,
      "ä¸ĵçĶ¨": 7610,
      "çİĩ.": 7611,
      "æĶ¿åĬ¡": 7612,
      "æīĢéľĢ": 7613,
      "å¤ĸè§Ĥ": 7614,
      ".2008å¹´": 7615,
      "1æľĪ1æĹ¥": 7616,
      "æĹ¥å¸¸": 7617,
      "èµĽçļĦ": 7618,
      "çĪ±åĽ½": 7619,
      "ç±į,": 7620,
      "åįķæĽ²ãĢĬ": 7621,
      "æ©¡": 7622,
      "æľŁçļĦ": 7623,
      "è¡Įé©¶": 7624,
      "éĥ½çĿ£": 7625,
      "ä¹¦,": 7626,
      "å²Ľä¸Ĭ": 7627,
      "å¼ºåĪ¶": 7628,
      "å¼ķçĶ¨": 7629,
      "æİĴåĪĹ": 7630,
      "æµİåįĹ": 7631,
      "æľĢæĹ©çļĦ": 7632,
      "ãĢįä¸º": 7633,
      "èĤ©": 7634,
      "ä½ıåľ¨": 7635,
      "ä¹¦åĨĻ": 7636,
      "åįıåķĨ": 7637,
      "ä¹łæĥ¯": 7638,
      "å´ĸ": 7639,
      "æĹłäººæľº": 7640,
      ",è¿Ľ": 7641,
      "ç»ıçĶ±": 7642,
      "è°ģ": 7643,
      "éĢīåĩº": 7644,
      "éĢīç§Ģ": 7645,
      ",è¿Ļä¸Ģ": 7646,
      "æł¹æį®2010å¹´": 7647,
      "140": 7648,
      "è¿·ä½ł": 7649,
      "çļĦä¸Ģéĥ¨åĪĨ.": 7650,
      "DS": 7651,
      "å°ĺ": 7652,
      "æľīèĳĹ": 7653,
      "æ³ķè¯Ń": 7654,
      "æĥľ": 7655,
      "æł¼åĭĴ": 7656,
      "é¦ĸæŃĮæĽ²": 7657,
      "åĽĽå¤§": 7658,
      "(),çĶ·,": 7659,
      ".2017å¹´": 7660,
      "ç½Ĺé©¬å¸ĿåĽ½": 7661,
      "èĸĩ": 7662,
      ".æľĢç»Ī": 7663,
      "åĲĪåĶ±": 7664,
      "çº¿æĢ§": 7665,
      "æİ¥èĳĹ": 7666,
      "åį¡æĸ¯": 7667,
      "é¢Ĩåľ°": 7668,
      "æł¹æľ¬": 7669,
      "å¥ĸéĩĳ": 7670,
      "åį°åĪ·": 7671,
      "æĹ¶ä»£çļĦ": 7672,
      "åĴ¨è¯¢": 7673,
      ",æĪĲç«ĭ": 7674,
      "ä¸ĬäºĨ": 7675,
      "ä¸ĭäºĨ": 7676,
      "ç«ĭéĻ¶": 7677,
      ",ä½ĨåĽł": 7678,
      "èĥľåĩº": 7679,
      "åĪĳäºĭ": 7680,
      ".åĽłä¸º": 7681,
      "çī²": 7682,
      "æģ¨": 7683,
      "5å¹´),": 7684,
      "åľ£ç»ı": 7685,
      "è¯Ħä¸º": 7686,
      "æ¢µ": 7687,
      "1980å¹´": 7688,
      "1986å¹´": 7689,
      "è°į": 7690,
      "ä¿ĦåĨĽ": 7691,
      "èħ°": 7692,
      "çĻ¾å¹´": 7693,
      "(15": 7694,
      "-åį¢çĵ¦å°Ķ": 7695,
      "äºİ2019å¹´": 7696,
      "ä¸įè¦ģ": 7697,
      "çĪª": 7698,
      "å¡Ķå°¼": 7699,
      "ä¼ĲåĪ©äºļ": 7700,
      "æĿŃå·ŀ": 7701,
      "ç½Ĺä¼¯çī¹Â·": 7702,
      "51": 7703,
      "åĲĮåĲį": 7704,
      "è°Ĳ": 7705,
      "åĩĨç¡®": 7706,
      "åĨłçĬ¶": 7707,
      "RE": 7708,
      "åĵĢ": 7709,
      "é«ĺ,": 7710,
      "è¿ĩçļĦ": 7711,
      "ç§°ä¹ĭ": 7712,
      "é¦ĸåº¦": 7713,
      "é¢ĺæĿĲ": 7714,
      "ä½ıæĪ¿": 7715,
      ",åıĪåĲį": 7716,
      "çĽĪ": 7717,
      "ç«ĻæĪ¿": 7718,
      "æ°Ķä½ĵ": 7719,
      "ç»¼èīº": 7720,
      "æĢ¡": 7721,
      "ä»ĸè¢«": 7722,
      "è§Ĥåħī": 7723,
      "å¢ŀåĬłäºĨ": 7724,
      "ç¼ĸåı·ä¸º": 7725,
      "èī²å½©": 7726,
      "è½¬ä¸º": 7727,
      "æ¯ĶèµĽ,èİ·å¾Ĺ": 7728,
      "å¼¹èį¯": 7729,
      "äºİ2013å¹´": 7730,
      "æĻºèĥ½": 7731,
      "éķľå¤´": 7732,
      "çĥŃå¸¦é£İæļ´": 7733,
      "åŃŁåĬłæĭī": 7734,
      "çļĦä¸ŃåĽ½": 7735,
      "å¯¹è¯Ŀ": 7736,
      "éĵİ": 7737,
      "çİĭ.": 7738,
      "èĻı": 7739,
      "æ¯ıåĳ¨": 7740,
      "åıĭå¥½": 7741,
      "æİ¢æµĭ": 7742,
      "å½ķå½±å¸¦": 7743,
      "èĩĢ": 7744,
      "åħ¥åĽ´": 7745,
      "è°¦": 7746,
      "ä¸¤èĢħ": 7747,
      "6å¹´),": 7748,
      "è®¡åĪĴ.": 7749,
      "è¿«ä½¿": 7750,
      "é©¬åħĭæĢĿ": 7751,
      "çĽ¸åºĶ": 7752,
      "çĻ¾ç§ĳ": 7753,
      "åĪĨåĪ«ä¸º": 7754,
      "å±ħä½ıåľ¨": 7755,
      ",åĲĦ": 7756,
      ",éĻ¤äºĨ": 7757,
      "ç«£": 7758,
      "é«ĺåİŁ": 7759,
      "çĲĥ.": 7760,
      "ç»´ä¹Ł": 7761,
      "1å¹´),": 7762,
      "ç«ĭéĻ¶å®Ľ": 7763,
      "çļĦæĹ¥æľ¬": 7764,
      "æľīè®¸å¤ļ": 7765,
      "æĪĲæŀľ": 7766,
      "åĮºåĪĨ": 7767,
      "ç«ĭåľº": 7768,
      "æ¯ıå¤©": 7769,
      ",æŃ£": 7770,
      "130": 7771,
      "B-": 7772,
      "lo": 7773,
      "çĿĽ": 7774,
      "èĩªè¡Įè½¦": 7775,
      "å¼Ħ": 7776,
      "åįģæľĪ": 7777,
      "ç§ĳä¼ļè¯ķ": 7778,
      "è¯ĨåĪ«": 7779,
      "çºªå½ķçīĩ": 7780,
      "æĳĩæ»ļ": 7781,
      "ãĢģåı°æ¹¾": 7782,
      "åĬ¨è½¦": 7783,
      "æĸ°å»º": 7784,
      "æĥħå½¢": 7785,
      "çĳľ": 7786,
      "ç¢°": 7787,
      "æĸĩåĮĸ.": 7788,
      ".2012å¹´": 7789,
      "æİĮæı¡": 7790,
      "åĴĸåķ¡": 7791,
      ",æľĢ": 7792,
      "Me": 7793,
      "NBA": 7794,
      "äºļÂ·": 7795,
      "æ·ĳ": 7796,
      "éĿĴæĺ¥": 7797,
      "æŃ¥æŀª": 7798,
      "çŃ¹å¤ĩ": 7799,
      "æ²¼": 7800,
      "èĤĿ": 7801,
      "çŁ¥åºľ": 7802,
      "æĻ¯è§Ĥ": 7803,
      "ç¼Ŀ": 7804,
      "1985å¹´": 7805,
      ",195": 7806,
      "æľŃ": 7807,
      "ä¸»æĿĥ": 7808,
      "æĭīå°Ķ": 7809,
      "æ¬¡äºİ": 7810,
      "ç±³åħ°": 7811,
      "è®¤ä¸ºæĺ¯": 7812,
      "åıĳçĶŁäºĨ": 7813,
      "ç«ĭæ³ķä¼ļ": 7814,
      "èļģ": 7815,
      "å¤¸": 7816,
      "æĪĲç«ĭ.": 7817,
      "çī©ç§į.": 7818,
      "åı²å¯Ĩæĸ¯": 7819,
      "åľ¨ä¸Ģ": 7820,
      "åľ°äº§": 7821,
      "å¹³çŃī": 7822,
      "èĪĨ": 7823,
      "ark": 7824,
      "çĽŁåĨĽ": 7825,
      ",ä¸ºè¾Ĳé³įé±¼çº²": 7826,
      "åĪ¤å¤Ħ": 7827,
      "è´¬": 7828,
      "çī¹åħ°": 7829,
      "éĹ¨.": 7830,
      "å®¹éĩı": 7831,
      "åĲ¦è®¤": 7832,
      "ä¸ºåŁºç¡Ģ": 7833,
      "åĬłåĪ©äºļ": 7834,
      "åīįè¿Ľ": 7835,
      "&lt;/": 7836,
      "é©±éĢĲèĪ°": 7837,
      "çĽ´åįĩæľº": 7838,
      "å¯¹ç§°": 7839,
      "åīįèº«": 7840,
      "åĨħæĶ¿": 7841,
      "çĽ¸ç»§": 7842,
      "æİ¥ç®¡": 7843,
      "èĪªçıŃ": 7844,
      "åĵ¥åĵ¥": 7845,
      "äºº/å¹³æĸ¹åħ¬éĩĮ(": 7846,
      "çŁ©éĺµ": 7847,
      "âĢĿåĴĮâĢľ": 7848,
      "åħĥæľĿ": 7849,
      "æĽ´æį¢": 7850,
      "èĿł": 7851,
      "å¥¥æĸ¯åį¡": 7852,
      "è¡įçĶŁ": 7853,
      "(çº¦": 7854,
      "ãĢģæĿ¨": 7855,
      "å¯¹éĺµ": 7856,
      "ä¸īäºº": 7857,
      "æł¡åĮº": 7858,
      "åħµåĽ¢": 7859,
      "æ³°åĭĴ": 7860,
      "é¢Ħå¤ĩ": 7861,
      "æĪĲç»©.": 7862,
      "Ph": 7863,
      "å®ł": 7864,
      "å¼ĢåĲ¯": 7865,
      "æĪĺèĥľ": 7866,
      "èµĽ,": 7867,
      "æĳĶ": 7868,
      "æµĨ": 7869,
      ",å·²": 7870,
      "ç¥Ĳ": 7871,
      "åįķåħĥ": 7872,
      "è½¬ä¼ļ": 7873,
      "å¸Ńä½į": 7874,
      "1948å¹´": 7875,
      ",æŃ¤åĲİ": 7876,
      "co": 7877,
      "éĩĮ.": 7878,
      "æĸ°åĮĹ": 7879,
      "),äººåı£å¯Ĩåº¦": 7880,
      "ä½ĵéªĮ": 7881,
      "èĩ³äºİ": 7882,
      "æĮĩæķ°": 7883,
      "åŀĭåı·": 7884,
      "ä½¿çĶ¨èĢħ": 7885,
      "çģ«è½¦": 7886,
      "çģ«çģ¾": 7887,
      "çİ°åŃĺ": 7888,
      "äºĮå¹´": 7889,
      "éļıåĲİ,": 7890,
      "å°ģä¸º": 7891,
      "æĿ¥èĩªäºİ": 7892,
      "æīĺé©¬": 7893,
      ",éĥ¨åĪĨ": 7894,
      "à¸": 7895,
      "ä¹ĭéĻħ": 7896,
      "æŃ¤æĹ¶": 7897,
      "æ¼Ĩ": 7898,
      "æł¡èĪį": 7899,
      "æİ¨ç¿»": 7900,
      "å¿ĹæĦ¿": 7901,
      "çĻ¾å§ĵ": 7902,
      "æ°ı,": 7903,
      "ä¹ĭä¸ĭ,": 7904,
      "ãĢĭä¸Ń,": 7905,
      "é¢ĸ": 7906,
      "èĭ±éķĳ": 7907,
      "å®¢æĪ·": 7908,
      "æ¸¸æĪı.": 7909,
      "()çļĦ": 7910,
      "æĹ§åĿĢ": 7911,
      ";zh-hk:": 7912,
      "JR": 7913,
      "èµĽè½¦": 7914,
      "çĮľ": 7915,
      "è¿ĲåĬ¨åĳĺ.ä»ĸæĽ¾ä»£è¡¨": 7916,
      "åĪĨç±».": 7917,
      "åŀĤçĽ´": 7918,
      ",æĭħä»»": 7919,
      ",å¸ĮæľĽ": 7920,
      "ä¸Ńä¸ĸçºª": 7921,
      "çĶµæ±ł": 7922,
      "åĭĺ": 7923,
      "æĥħæĦŁ": 7924,
      "æķĻèĤ².": 7925,
      "æ²³æµģåŁŁ": 7926,
      ",åĪĨ": 7927,
      "åħĶ": 7928,
      "å·´ä¼ĲåĪ©äºļ": 7929,
      "æĽ¾æĺ¯": 7930,
      "ç¨ĭ.": 7931,
      "é¾ĻçļĦ": 7932,
      "æĹ©ä¸Ĭ": 7933,
      "åĪĨå¸ĥ.": 7934,
      "ä¼ģåĽ¾": 7935,
      "èµĦæł¼.": 7936,
      "ç¥Ńç¥Ģ": 7937,
      "æ¹ĸåįĹçľģ": 7938,
      "å¿Į": 7939,
      "éĿ¢åĲĳ": 7940,
      "å±±,": 7941,
      "åħ¨ä½ĵ": 7942,
      "éĢīæ°ĳ": 7943,
      ",èĢĮä¸įæĺ¯": 7944,
      "ä¼Ĳåħĭ": 7945,
      "è·Į": 7946,
      "æķ°åįģ": 7947,
      "ä¿Ŀå®ī": 7948,
      "åįĩæł¼ä¸º": 7949,
      "ä¸»æµģ": 7950,
      "éĩįå¤į": 7951,
      "èĽĽ": 7952,
      "è¿ģç§»": 7953,
      "è¾Ī": 7954,
      "åıĺæį¢": 7955,
      "ç¬¬åįģä¸ī": 7956,
      "ç§©åºı": 7957,
      ",åĲĮ": 7958,
      "åįĹä¾§": 7959,
      ",åĬł": 7960,
      "Con": 7961,
      "å¹¶åľ¨": 7962,
      "ç¾İåĽ½æĢ»ç»Ł": 7963,
      "éĺħè¯»": 7964,
      "æ°®": 7965,
      "ä¸»åĬĽ": 7966,
      "å°ºå¯¸": 7967,
      "ç»ĵæĿŁ.": 7968,
      "1/": 7969,
      "IV": 7970,
      "çī©çļĦ": 7971,
      "åľ£æ¯į": 7972,
      "è¿°.": 7973,
      "è§Ĵèī².": 7974,
      "é©±åĬ¨": 7975,
      "éĿŀå»ºåĪ¶åľ°åĮº.": 7976,
      "83": 7977,
      "ãĢģH": 7978,
      "æĺ¯ä¸ª": 7979,
      "ä¸īåĽ½": 7980,
      "äºĶæľĪ": 7981,
      "å½ķåĪ¶": 7982,
      "MS": 7983,
      "ala": 7984,
      "ä¸Ĭè¯ī": 7985,
      "çľģéģĵ": 7986,
      "1944å¹´": 7987,
      "èģĮä¸ļçĶŁæ¶¯": 7988,
      "section": 7989,
      "92": 7990,
      "åıĳæİĺ": 7991,
      "å¤§è¡Ĺ": 7992,
      "æ¹ĸåĮĹçľģ": 7993,
      "YouTube": 7994,
      "åİī": 7995,
      "che": 7996,
      "ãĢģéĺ¿": 7997,
      "å¤§éĺŁ": 7998,
      "åĿŀ": 7999,
      "éģĹä¼ł": 8000,
      "éĻķè¥¿çľģ": 8001,
      "æħķå°¼": 8002,
      "ä½ĳ": 8003,
      "åĮł": 8004,
      "ä¸»ç®¡": 8005,
      "å¸ĥåħ°": 8006,
      ".æĿİ": 8007,
      "åĮĹä¾§": 8008,
      "èĤĩ": 8009,
      "æĶ¹è£ħ": 8010,
      "çľ¼çĿĽ": 8011,
      "ä¸¥éĩįçļĦ": 8012,
      "çĺ¤": 8013,
      "éĿ¢ä½ĵ": 8014,
      "å·´èµ«": 8015,
      "åĵģè´¨": 8016,
      "çĹħéĢĿ": 8017,
      "ä¼¤äº¡": 8018,
      "æŃ§è§Ĩ": 8019,
      "æ¡Ĳ": 8020,
      "æµģéĩı": 8021,
      "1982å¹´": 8022,
      ".æŃ¤åĲİ": 8023,
      "èľĢ": 8024,
      ".åĽłæŃ¤,": 8025,
      "8ä¸ª": 8026,
      "æµ¸": 8027,
      "æĮº": 8028,
      "å±±çļĦ": 8029,
      "ç©¿è¿ĩ": 8030,
      "äºĭåĬ¡æīĢ": 8031,
      "ä¸ľäº¬éĥ½": 8032,
      ",è´Łè´£": 8033,
      "ãĢģçŁ³": 8034,
      "ä»¥å¤ĸ": 8035,
      "å¥³ä¸»è§Ĵ": 8036,
      "åķĨåĬ¡": 8037,
      "çĻ»åľº": 8038,
      "åĨĻéģĵ": 8039,
      "èµĮ": 8040,
      "è¡Įäºº": 8041,
      "é©¹": 8042,
      "å§ĶåĳĺãĢģ": 8043,
      "åĩĨåĨ³èµĽ": 8044,
      "1987å¹´": 8045,
      "177": 8046,
      "1941å¹´": 8047,
      "åĲįäºº": 8048,
      "å·ŀéķ¿": 8049,
      "ä¸¤å²¸": 8050,
      "å¤§åŃ¦.": 8051,
      "åı¤å·´": 8052,
      "æ¯ĶèµĽ.": 8053,
      "éĵ¶çīĮ": 8054,
      "çļĦä¸Ģä¸ªå¸Ĥéķĩ.æĢ»éĿ¢ç§¯": 8055,
      "äºİ2021å¹´": 8056,
      "åİ¦éĹ¨": 8057,
      "æħķå°¼é»ĳ": 8058,
      "94": 8059,
      "æĪĬ": 8060,
      "æĹ¥æĬ¥ãĢĭ": 8061,
      "å®¶ä¹¡": 8062,
      "åĲĮæŃ¥": 8063,
      "æıĲåīį": 8064,
      "çĵ·": 8065,
      "åĩłä½ķ": 8066,
      "æĥħåĨµ.": 8067,
      "éĽķå¡ĳ": 8068,
      "åĨłçĬ¶çĹħæ¯Ĵ": 8069,
      "æľ¬ä¹¦": 8070,
      "ä¾Ŀçħ§": 8071,
      "ç±»ä¼¼çļĦ": 8072,
      "çīµå¼ķ": 8073,
      "ç»´ä¹Łçº³": 8074,
      "MP": 8075,
      "au": 8076,
      "æĺ¯ä¸į": 8077,
      "å¤§åħ¬": 8078,
      "ãĢĭä¸ŃçļĦ": 8079,
      "é©¬ä¸ģ": 8080,
      "æĹ©åľ¨": 8081,
      "æĮĩæĮ¥å®ĺ": 8082,
      ",åıį": 8083,
      "å¢ŀè®¾": 8084,
      ",åıĪç§°": 8085,
      "ç«£å·¥": 8086,
      ",æł¹æį®": 8087,
      "èŃ¦æĬ¥": 8088,
      "äºİ2010å¹´": 8089,
      "DVD": 8090,
      ",çİ°æĹ¶": 8091,
      "-2": 8092,
      "ä¸Ĭå¸Ŀ": 8093,
      "æ»¤": 8094,
      "æ»ĭ": 8095,
      "åĪĴå½Ĵ": 8096,
      "&lt;section": 8097,
      "å¹ķåºľ": 8098,
      "æŁĦ": 8099,
      "æĿĳæ°ĳ": 8100,
      "\"),": 8101,
      ",é¦Ļæ¸¯": 8102,
      "pp": 8103,
      "èĮĦ": 8104,
      "åĮ»åŃ¦éĻ¢": 8105,
      "é¡¹çĽ®.": 8106,
      "æ·»åĬł": 8107,
      "èģĮåĳĺ": 8108,
      "æ±īè¯Ń": 8109,
      "çĶ²åŁº": 8110,
      "ç»ĥä¹ł": 8111,
      ",çº¦": 8112,
      "èĬ¦": 8113,
      "å¥³åŃ©": 8114,
      "çĸ¯": 8115,
      "è¾¹çļĦ": 8116,
      "ath": 8117,
      "å¾·åĽ½çļĦ": 8118,
      "ç»ĨèıĮ": 8119,
      "èı²å°Ķå¾·": 8120,
      "æ¯ķä¸ļåĲİ": 8121,
      "US": 8122,
      "ãĢģæĹ¥æľ¬": 8123,
      "æīŃ": 8124,
      "ä¸īç§į": 8125,
      "çº¿(": 8126,
      "éħ¯": 8127,
      "182": 8128,
      "åķĨåľº": 8129,
      "å®ĮæĪĲäºĨ": 8130,
      "æĺ¯ä¸ºäºĨ": 8131,
      "ä¸ªä½ĵ": 8132,
      "æ¿ĢçĥĪ": 8133,
      "çľģ,è¥¿æİ¥": 8134,
      "ä¿®éģĵéĻ¢": 8135,
      "è¿Ĳ.": 8136,
      "ä¿ĿåĬłåĪ©äºļ": 8137,
      "åĽŀåĲĪ": 8138,
      "ann": 8139,
      "èĢĥå¯Ł": 8140,
      "äºİ2011å¹´": 8141,
      "éĢĶç»ı": 8142,
      "èĻļæĭŁ": 8143,
      ",éģĤ": 8144,
      "ram": 8145,
      "èĢĮä¸į": 8146,
      "æĪĺåľº": 8147,
      ",è¡¨ç¤º": 8148,
      "ke": 8149,
      "ä¸ĭåįĬ": 8150,
      "åĨħæľī": 8151,
      "äºĮæľĪ": 8152,
      "å¸Ī,": 8153,
      "äºīå¤º": 8154,
      ";ä½Ĩ": 8155,
      "âĨ": 8156,
      "äºİ2022å¹´": 8157,
      "ãĢĭåıĬ": 8158,
      "æ´Ľå¤«": 8159,
      "æĶ»åĬ¿": 8160,
      "æī¿æĭħ": 8161,
      "çļ®èĤ¤": 8162,
      "èµ¢å¾ĹäºĨ": 8163,
      "TA": 8164,
      "å°Ķé¡¿": 8165,
      "æ£į": 8166,
      "äºº,å¥³æĢ§": 8167,
      "ç´¢æģ©": 8168,
      "æŃ»äº¡.": 8169,
      "è¶ģ": 8170,
      "æ£±": 8171,
      "ç»ıæµİåŃ¦": 8172,
      "æľ«æľŁ": 8173,
      "åħ¶ä¸Ńä¸Ģä¸ª": 8174,
      "å¤§éĩıçļĦ": 8175,
      "è¯Ń:)æĺ¯": 8176,
      "åĪĨä¹ĭä¸Ģ": 8177,
      "çľģæİ¥å£¤.": 8178,
      "ç§įç±»": 8179,
      "èİ·åıĸ": 8180,
      "è´Ŀåħĭ": 8181,
      "é¡ºåºı": 8182,
      "è¸¢": 8183,
      ")äºº,": 8184,
      "EN": 8185,
      "æĻ´": 8186,
      "åħĥéŁ³": 8187,
      "çķĮçļĦ": 8188,
      "åľ°åĮº:": 8189,
      ",ä¹Łå°±æĺ¯": 8190,
      "å®¤ãĢģ": 8191,
      "åıĳçĶŁçļĦ": 8192,
      ".2011å¹´": 8193,
      "Inter": 8194,
      "ãĢģçĻ½": 8195,
      "å¸ľ": 8196,
      "æĹ¥åĲİ": 8197,
      "ä¸Ĭå¸Ĥ": 8198,
      "ä½įäºİä¸ŃåĽ½": 8199,
      "æ»¥": 8200,
      ",æľīæĹ¶": 8201,
      "ä¸İãĢĮ": 8202,
      "å¹¶æĹł": 8203,
      "ç»ıçºª": 8204,
      "åıĹæįŁ": 8205,
      "åĳ¨åĪĬ": 8206,
      "è±¹": 8207,
      "éĹ®é¢ĺ,": 8208,
      "åıįåºĶ.": 8209,
      "æĸ°åĨłèĤºçĤİ": 8210,
      "åľ°ä¸Ńæµ·": 8211,
      "åĿ¤": 8212,
      "å£«é¡¿": 8213,
      "åı¸èģĮ": 8214,
      "æĬĹæĹ¥æĪĺäºī": 8215,
      "ç¥¸": 8216,
      "æķĻæİĪ.": 8217,
      "æĬĳåĪ¶": 8218,
      "81": 8219,
      "çļĦåĽ½éĻħ": 8220,
      "çĽ´è·¯": 8221,
      "ert": 8222,
      "äº¦æĺ¯": 8223,
      "é¥¶": 8224,
      "å®ģæ³¢": 8225,
      "æİĴåĲįç¬¬": 8226,
      "We": 8227,
      "å¸¸å¸¸": 8228,
      "åĪĻæľī": 8229,
      "åħļåĳĺ": 8230,
      "ç¥ĸåħĪ": 8231,
      "æĲŀ": 8232,
      "åĶĲçº³": 8233,
      "ç¬¬åįģä¸Ģ": 8234,
      "éĺ´è°ĭ": 8235,
      "åĪ°çļĦ": 8236,
      "çĮ´": 8237,
      "æ¯ĶèµĽä¸Ń": 8238,
      "å©´åĦ¿": 8239,
      ",éĻĪ": 8240,
      ",è®¸å¤ļ": 8241,
      "çĶ·åŃ©": 8242,
      "éĽ·è¾¾": 8243,
      "1946å¹´": 8244,
      "æ··ä¹±": 8245,
      "æ§½": 8246,
      "è¥¿æĸ¯": 8247,
      "å·´åŁº": 8248,
      "çİ°æľī": 8249,
      "å¦¥": 8250,
      "å¤©ä¸ĭ": 8251,
      "éĹ¨,": 8252,
      "ä¿¡å¾Ĵ": 8253,
      "æĿ¡æ¬¾": 8254,
      "æŃ»äºİ": 8255,
      "ä¸Ńå¿ĥçļĦ": 8256,
      "ä½ĵèĤ²é¦Ĩ": 8257,
      "äº®çĽ¸": 8258,
      "å¯ĩ": 8259,
      "ä¸īæľĪ": 8260,
      "è®¤å®ļ": 8261,
      ",æį®": 8262,
      "y)": 8263,
      "åħ¬ä¼ļ": 8264,
      "å½ĵæĹ¥": 8265,
      "èĲĿ": 8266,
      "ä¹¦ä¸Ń": 8267,
      "ç¬¬ä¸Ģå±Ĭ": 8268,
      "æİ¨æµĭ": 8269,
      "æ¤Ń": 8270,
      "ç»ĨèĬĤ": 8271,
      "1937å¹´": 8272,
      "é¢Ĩå¯¼çļĦ": 8273,
      "äºİåĲĮå¹´": 8274,
      "åīįåĲİ": 8275,
      "åıĸèĩª": 8276,
      "åĽ½å®¶åħ¬åĽŃ": 8277,
      "æł·çļĦ": 8278,
      "å·´åĭĴæĸ¯åĿ¦": 8279,
      "Cl": 8280,
      "ä¸¤æĿ¡": 8281,
      "è®ºåĿĽ": 8282,
      "åī§æĥħ.": 8283,
      "æ¡Ĩæŀ¶": 8284,
      "2.5": 8285,
      "çĽ¸è¿ŀ": 8286,
      "å¤´éĥ¨": 8287,
      "éĢģåĪ°": 8288,
      "è¯īè®¼": 8289,
      "åĳ¼åĲ¸": 8290,
      "æµ·æĭĶé«ĺåº¦ä¸º": 8291,
      "é¥®é£Ł": 8292,
      "ix": 8293,
      "å¾Ļ": 8294,
      "çĤ³": 8295,
      "è¡ĮåĬ¨.": 8296,
      "éĢĶå¾Ħ": 8297,
      "æł½åŁ¹.": 8298,
      "å·©": 8299,
      "\")æĺ¯": 8300,
      ",åıĹ": 8301,
      ",å½ĵä¸Ń": 8302,
      "05": 8303,
      "é¥¼": 8304,
      "ç»§ä»»": 8305,
      "éĻĦåĬł": 8306,
      "å¯Įæ±Ĺ": 8307,
      "æĺ¯ä»İ": 8308,
      "æ¬ł": 8309,
      "æĳ©å°Ķ": 8310,
      "çļĦçĪ¶äº²": 8311,
      "å¤ĸåĽ´": 8312,
      "å¦Ĥä»Ĭ": 8313,
      ".åľ¨æŃ¤": 8314,
      "æŃĮåĶ±": 8315,
      "å¼ķç§į": 8316,
      "ç§»å±ħ": 8317,
      "æĭ¿çł´": 8318,
      "è¿½æ±Ĥ": 8319,
      "å±ĭé¡¶": 8320,
      "ä¸»é¢ĺæĽ²": 8321,
      "è®½": 8322,
      "åĽłèĢĮ": 8323,
      "çĽ¸éĤ»": 8324,
      "æ°´éĩı": 8325,
      "çłĶç©¶çĶŁ": 8326,
      "éŁ¦å°Ķ": 8327,
      "æĿ°åħĭéĢĬ": 8328,
      "èĩ´åĬĽäºİ": 8329,
      "çļĦéĺ¿": 8330,
      "çļĦåŁİéķĩ": 8331,
      "çī©ä½ĵ": 8332,
      "è¯ĬæĸŃ": 8333,
      "(;),": 8334,
      "æĭ¿çł´ä»ĳ": 8335,
      "EP": 8336,
      "äºĨè¯¥": 8337,
      "åĩºèĩª": 8338,
      "åĩºåľº": 8339,
      "ä¸ŃåĽ½åĽ½æ°ĳåħļ": 8340,
      "çİ¯å½¢": 8341,
      "å§Ĩæĸ¯": 8342,
      "æī¹åĪ¤": 8343,
      "æĥħåĨµä¸ĭ": 8344,
      "ach": 8345,
      "az": 8346,
      "äººä¸İ": 8347,
      "æ£ļ": 8348,
      "æµģåĬ¨": 8349,
      "æĻ®æĭī": 8350,
      "è¾ĸåĮº": 8351,
      "æ»ĳéĽª": 8352,
      "çľģçļĦä¸Ģä¸ªå¸Ĥéķĩ.æĢ»éĿ¢ç§¯": 8353,
      "çļĦåŃ¦çĶŁ": 8354,
      "åĪĨè§£": 8355,
      "å¤ļ.": 8356,
      "çī©èµĦ": 8357,
      "å¦ĸ": 8358,
      "ç»ĪæŃ¢": 8359,
      "æħĪåĸĦ": 8360,
      ",ä¸Ģä¸ª": 8361,
      "çļĦéĿ¢ç§¯ä¸º": 8362,
      "æīĩ": 8363,
      "ãĢĭæĿĤå¿Ĺ": 8364,
      "è°£": 8365,
      "å±±åİ¿": 8366,
      "å±±é¡¶": 8367,
      "æ¡ĵ": 8368,
      "å´ĩç¥¯": 8369,
      "ç¿Įå¹´": 8370,
      "åĨ»": 8371,
      "èĳµ": 8372,
      "å§ĭç»Ī": 8373,
      "æłĩé¢ĺ": 8374,
      "æľºæŀĦ.": 8375,
      "gin": 8376,
      "çļĦåŁİå¸Ĥ": 8377,
      "è¿ĩæ¸¡": 8378,
      "ç¦§": 8379,
      "éĴ©": 8380,
      "äºĶåįģ": 8381,
      "è¿ĲåĬ¨çļĦ": 8382,
      "çĶ»éĿ¢": 8383,
      "mm": 8384,
      "ä¸īå¤§": 8385,
      "æĢ»å±Ģ": 8386,
      "åºķå±Ĥ": 8387,
      "ä¹ĭåĲİçļĦ": 8388,
      "å½¼æŃ¤": 8389,
      "ä¸ºæŃ¤": 8390,
      "åįĹæµ·": 8391,
      "çĪ¬": 8392,
      "è£´": 8393,
      "è®º.": 8394,
      "ç§ĺé²ģ": 8395,
      "äºİ2009å¹´": 8396,
      "æĸĮ": 8397,
      "è¡Įä¸º.": 8398,
      "ä½ľãĢĬ": 8399,
      "æĶ¿,": 8400,
      "æŁľ": 8401,
      "ç«ĻãĢģ": 8402,
      "åħĥå¸ħ": 8403,
      "å§Ķåī¯ä¹¦è®°": 8404,
      "æ²³åı£": 8405,
      "é³Ħ": 8406,
      "ris": 8407,
      "åħ¥å¢ĥ": 8408,
      "èĤ¿": 8409,
      "æ¼Ĥ": 8410,
      "ant:": 8411,
      ".åĲĮæĹ¶": 8412,
      "å¤§æ°Ķ": 8413,
      "å·¥åķĨ": 8414,
      "æĴĳ": 8415,
      "åħ¬éĩĮçļĦ": 8416,
      "çĶ»å®¶": 8417,
      "æ·±åħ¥": 8418,
      "ç¬¬ä¸īæ¬¡": 8419,
      "ä¸įå¾Ĺä¸į": 8420,
      "é»ĳé¾Ļæ±Łçľģ": 8421,
      ",åı¦å¤ĸ": 8422,
      "åħ¬å¯ĵ": 8423,
      "ä¸»æīĵ": 8424,
      "æľĢå¤ļçļĦ": 8425,
      "çĲĥè¿·": 8426,
      "åĽĽæľĪ": 8427,
      "æĶ¹ç§°": 8428,
      "æĹłè®º": 8429,
      ".191": 8430,
      "ãĢģåĳ¨": 8431,
      "å±¡": 8432,
      "è¾±": 8433,
      "å¾·åħĭ": 8434,
      ",å¹¶è¢«": 8435,
      "éĨī": 8436,
      "ç§ĺä¹¦éķ¿": 8437,
      "ä¸Ńå¼ı": 8438,
      "åİĮ": 8439,
      "çĦļ": 8440,
      "æİ¨è¡Į": 8441,
      "åħ«æľĪ": 8442,
      "çĶŁæ´»åľ¨": 8443,
      "èĵĦ": 8444,
      "äºĨå¯¹": 8445,
      "å¤ļäºº": 8446,
      "çīĩæ®µ": 8447,
      "ç¦ıéŁ³": 8448,
      "éĺ³å¸Ĥ": 8449,
      "çªĥ": 8450,
      "è¿ªÂ·": 8451,
      "æĵ¦": 8452,
      "æĸ°ç«¹": 8453,
      "æł¼å¼ı": 8454,
      "èĭıéĩĮ": 8455,
      "çªģåİ¥": 8456,
      "ä¼ĺåħĪ": 8457,
      "è¿ĩç¨ĭ.": 8458,
      "åħ±äº§ä¸»ä¹ī": 8459,
      "2020å¹´,": 8460,
      "èģĤ": 8461,
      "çŃīå¾ħ": 8462,
      "æĽ²çĽ®": 8463,
      "åŃ£åĲİ": 8464,
      "ç¬¬äºĮä¸ª": 8465,
      "åį°è±¡": 8466,
      "çİ¯çĲĥ": 8467,
      "ä¸įåĲĮ.": 8468,
      "åį°åº¦æķĻ": 8469,
      "æ©Ļ": 8470,
      "è½¬çļĦå°ıè¡ĮæĺŁ": 8471,
      "ä¹ĭä¸Ń": 8472,
      "è¶³çĲĥèģĶèµĽ": 8473,
      "7-": 8474,
      "F-": 8475,
      "çĶ±äººå·¥": 8476,
      "å·¥ä½ľçļĦ": 8477,
      "æĪĲç«ĭäºĨ": 8478,
      "é¢ĦåĳĬ": 8479,
      ",ä¸įä¹ħ": 8480,
      "æĹŃ": 8481,
      "åıĳéŁ³": 8482,
      "åıĬåħ¶ä»ĸ": 8483,
      "æİ¥ä»»": 8484,
      "èģĮæ£Ĵ": 8485,
      "9å¹´),": 8486,
      "ç¦ıåĪ©": 8487,
      "1983å¹´": 8488,
      "åĥıæĺ¯": 8489,
      "ä½İæ°Ķåİĭ": 8490,
      "æıĲåĩºçļĦ": 8491,
      "ç¿°æŀĹ": 8492,
      "åĢŁçĶ±": 8493,
      "è¾ŀèģĮ": 8494,
      "äºĳåįĹçľģ": 8495,
      ",éļ¶å±ŀäºİ": 8496,
      "äºİ2023å¹´": 8497,
      "ä¼ļéķ¿": 8498,
      "åĲįèªī": 8499,
      "ç³ķ": 8500,
      "éĽĨ.": 8501,
      "å¾®è½¯": 8502,
      "èµĽäºĭ.": 8503,
      "çĥŃå¸¦æ°ĶæĹĭ": 8504,
      "ect": 8505,
      "ä¸»ä½ĵ": 8506,
      "åįĹç¾İæ´²": 8507,
      "æľºæŀª": 8508,
      "ä¸ļ.": 8509,
      "çĪ±çļĦ": 8510,
      "ç¬¼èįī": 8511,
      "å¹´.": 8512,
      "åĪĨæĪĲ": 8513,
      "æľ¬åľ°åĮº": 8514,
      "è¿ĩäºİ": 8515,
      "è¯ºä¼Ĭ": 8516,
      "old": 8517,
      "åĪºæ¿Ģ": 8518,
      "èĳ£äºĭéķ¿": 8519,
      "çĮªç¬¼èįī": 8520,
      "åİĿ": 8521,
      "è´¿": 8522,
      "æĸĩãĢģ": 8523,
      "çĶµåĬ¨": 8524,
      "åı²èĴĤ": 8525,
      "æ¡Ī,": 8526,
      "æĪ¿éĹ´": 8527,
      "åµĮ": 8528,
      "å±±å¸Ĥ": 8529,
      "ç¾İåĽ½åĽ½å®¶": 8530,
      "æĹ©æľŁçļĦ": 8531,
      "åº§æłĩä¸º,èĢĮè¯¥åľ°çļĦ": 8532,
      "(èĭ±è¯Ń:": 8533,
      "ä¸ŃãĢģ": 8534,
      "çºº": 8535,
      "å¥³æ¼Ķåĳĺ": 8536,
      "å¥¥Â·": 8537,
      "ä¹¡æĿĳ": 8538,
      "éĢĤçĶ¨äºİ": 8539,
      "åħĭç½Ĺåľ°äºļ": 8540,
      "ç¼Ķ": 8541,
      "åĭ¾": 8542,
      "èº²": 8543,
      "ä¸ģåł¡": 8544,
      "ç½ķé»ĺ": 8545,
      "AL": 8546,
      "äºĨè¿Ļ": 8547,
      "åįĹæĸ¯æĭīå¤«": 8548,
      "ç«Ļä½įäºİ": 8549,
      "å¥½åıĭ": 8550,
      "é¥¥": 8551,
      "8,": 8552,
      "BL": 8553,
      "å¤ļ,": 8554,
      "åĬłåĭĴ": 8555,
      "ç§°èµŀ": 8556,
      "åıĤè§Ĥ": 8557,
      ".2007å¹´": 8558,
      "å¹³åĿĩæµ·æĭĶé«ĺåº¦ä¸º": 8559,
      ",çī¹åĪ«æĺ¯": 8560,
      "ãĢį,å¹¶": 8561,
      "åħ¨çº¿": 8562,
      "é²Ī": 8563,
      "åıĳçİ°çļĦ": 8564,
      "é£ŀå¼¹": 8565,
      "formula_2": 8566,
      "Station": 8567,
      ".éĻ¤äºĨ": 8568,
      "ãĢģæµ·": 8569,
      "er)": 8570,
      "æİ§èĤ¡": 8571,
      "åĨľåľº": 8572,
      "å¼Ĺæĭī": 8573,
      "ãĥ¼": 8574,
      "å·´åŁºæĸ¯åĿ¦": 8575,
      "åĲİ.": 8576,
      "ä¸ĭè½½": 8577,
      "åı°å¸ģ": 8578,
      "æķ°çĻ¾": 8579,
      "8å¹´),": 8580,
      "ä¸ĥæľĪ": 8581,
      "å¼Ĥå¸¸": 8582,
      "è´¢åĬ¡": 8583,
      "åº§æłĩä¸º,èĢĮè¯¥åľ°çļĦå¹³åĿĩæµ·æĭĶé«ĺåº¦ä¸º": 8584,
      "æĺı": 8585,
      "æĸ¹ç¨ĭ": 8586,
      "åĮĹéŁ©": 8587,
      "åºĵå°Ķ": 8588,
      "çīĪæľ¬.": 8589,
      "è´Łè´£ç®¡è¾ĸ,éĿ¢ç§¯": 8590,
      "xt": 8591,
      "éģĹè¿¹": 8592,
      "Net": 8593,
      "rit": 8594,
      "ä¸ĢçĻ¾": 8595,
      "åĮºåĴĮ": 8596,
      "åĪĨçļĦ": 8597,
      "éķ¿åŃĲ": 8598,
      "åı¸æľº": 8599,
      "è£¸": 8600,
      "çģ«æĺŁ": 8601,
      "ä¹ĺåĿĲ": 8602,
      ".å®ĥä»¬": 8603,
      "è£Ķç¾İåĽ½": 8604,
      "RO": 8605,
      "Î±": 8606,
      "äºĨä¸ĢäºĽ": 8607,
      "æĸ¯éĩĮ": 8608,
      "æĿ¥å¾Ģ": 8609,
      "ä»£çļĦ": 8610,
      "æŃ¤åĲĮæĹ¶,": 8611,
      "éģĵçļĦ": 8612,
      "ç¾İåĽ½æµ·åĨĽ": 8613,
      "ç¥ŀåľ£": 8614,
      "åĸī": 8615,
      "å®£åĳĬ": 8616,
      "ä¿Ħäº¥": 8617,
      "ä¿Ħäº¥ä¿Ħ": 8618,
      "pro": 8619,
      "åĬłä»¥": 8620,
      "ç§ĳå¹»": 8621,
      "åģļä¸º": 8622,
      "çħ§é¡¾": 8623,
      "çĶ±äººå·¥å¼ķç§į": 8624,
      "7ä¸ª": 8625,
      "åį¡æ´Ľ": 8626,
      "åī§ä¸Ń": 8627,
      "è¿Ľè¡Į.": 8628,
      "æĿĥçļĦ": 8629,
      "è½¬ä»»": 8630,
      "du": 8631,
      "ä¸ĭæĸ¹": 8632,
      "åŃĲå¼¹": 8633,
      "çº¿åĴĮ": 8634,
      "è¿Ĳæ²³": 8635,
      "åĲİ,åħ¶": 8636,
      ",ä»¥ä¾¿": 8637,
      "å±ĢçļĦ": 8638,
      "ç¼ĸåĨĻ": 8639,
      "èĲ¨æĭī": 8640,
      "åİĦå°Ķ": 8641,
      "å¥´éļ¶": 8642,
      "å»ºæľī": 8643,
      "å¸¸å§Ķä¼ļ": 8644,
      "æīĭæŀª": 8645,
      "å®£è¨Ģ": 8646,
      "åĬłåĪ©ç¦ıå°¼äºļå·ŀ": 8647,
      "çĶ±äººå·¥å¼ķç§įæł½åŁ¹.": 8648,
      "åĮĸä¸º": 8649,
      "è¯ŃåĴĮ": 8650,
      "èİ±æĸ¯": 8651,
      "åĩºçİ°çļĦ": 8652,
      "æĺ¾ç¤º,": 8653,
      "Ste": 8654,
      ")ä¸Ń": 8655,
      "åŁºè¾ħ": 8656,
      "çĶµè§ĨåĬ¨çĶ»": 8657,
      ".2009å¹´": 8658,
      "å¤©æ´¥å¸Ĥ": 8659,
      "EC": 8660,
      "å·´å¡ŀå°Ķ": 8661,
      "èįĥ": 8662,
      "èĻĲ": 8663,
      "ary": 8664,
      "å¤ľéĹ´": 8665,
      "éĵľçīĮ": 8666,
      "ç¤ºå¨ģèĢħ": 8667,
      "åİ¨": 8668,
      "é«ĺæŀ¶": 8669,
      "æ¶¡": 8670,
      "çºªå¿µç¢ĳ": 8671,
      "èĤ¯å®ļ": 8672,
      "ä¸ĭè¾ĸä»¥ä¸ĭåľ°åĮº:": 8673,
      "ide": 8674,
      "çļĦèĥ½åĬĽ": 8675,
      "æĸĩæľ¬": 8676,
      "ç¥ŀç§ĺ": 8677,
      "åĨħéĻĨçľģä»½,åĮĹèµ·": 8678,
      "æĭ¦": 8679,
      "é«ĺ.": 8680,
      "çķľ": 8681,
      "åİŁåĪĽ": 8682,
      "æµģç»ı": 8683,
      "è°ĥèĬĤ": 8684,
      ",196": 8685,
      "71": 8686,
      "æĺ¯:": 8687,
      "åħŃä¸ª": 8688,
      "åĿĲæłĩ": 8689,
      "æĶ¹ç¼ĸèĩª": 8690,
      "Mic": 8691,
      "æĶ¹åĲį": 8692,
      "ãĢįåĴĮãĢĮ": 8693,
      "UN": 8694,
      "åı£å¾Ħ": 8695,
      "éĩįç»Ħ": 8696,
      "çº§çļĦ": 8697,
      "åĽŀçŃĶ": 8698,
      "å®¢å®¶": 8699,
      "éľįå°Ķ": 8700,
      "å°±è¯»äºİ": 8701,
      "æľ¬å±Ĭ": 8702,
      "å±±åľ°": 8703,
      "åŁºéļĨ": 8704,
      "éĺµå®¹": 8705,
      "æ®ĭçĸ¾": 8706,
      "å¹¸åŃĺ": 8707,
      "å¥¥æĸ¯æĽ¼": 8708,
      ".éĺ¿": 8709,
      "ME": 8710,
      "éķ¿å®ī": 8711,
      "125": 8712,
      "æŀģç«¯": 8713,
      "éĵľçīĮ.": 8714,
      ",çĶŁæ´»ä¹łæĢ§ä¸įæĺİ.": 8715,
      "æĺ¯ãĢĬ": 8716,
      "çĽ²": 8717,
      "èĢĮå¾Ĺ": 8718,
      "å¤ļåħĥ": 8719,
      "åº¦,": 8720,
      "ç»´åĲ¾": 8721,
      "ä¾Ľå¥ī": 8722,
      "é»ĳäºº": 8723,
      "è®¾è®¡,": 8724,
      "æĮīå¯Ł": 8725,
      "ç©Ĩç½ķé»ĺ": 8726,
      "è´Łè´£ç®¡è¾ĸ,": 8727,
      "åĽ½æľī": 8728,
      "åĩºäºİ": 8729,
      "æĮ¤": 8730,
      "åĳĺãĢģ": 8731,
      "ä¸īæ¬¡": 8732,
      "åħ³èģĶ": 8733,
      "åĪ¤æĸŃ": 8734,
      ".èĢĮåľ¨": 8735,
      "ç´§å¼ł": 8736,
      ".åīį": 8737,
      "HK": 8738,
      "âĪ": 8739,
      "æĶĢ": 8740,
      "äºļåĨĽ": 8741,
      "åĸ»": 8742,
      "lat": 8743,
      "åĵĪæĭī": 8744,
      "åıĸå¾ĹäºĨ": 8745,
      "(Ch": 8746,
      "ä¸ºå¤§": 8747,
      "ä¸įåıĺ": 8748,
      "å²Ĳ": 8749,
      "åĪĻçĶ±": 8750,
      "çĹķ": 8751,
      "çīĩ.": 8752,
      "æ°Ķæ¸©": 8753,
      "åĵĪéĩĮ": 8754,
      "åĪ¶ä½ľäºº": 8755,
      "èĢ¶å¤«": 8756,
      "æķĮäºº": 8757,
      "ç©¿è¶Ĭ": 8758,
      "åī©ä½Ļ": 8759,
      "ç»´åĲ¾å°Ķ": 8760,
      "ä»¥å¤ĸçļĦ": 8761,
      "å¤ĸçķĮ": 8762,
      "æįī": 8763,
      "é»Ľ": 8764,
      "éħĭ": 8765,
      "å½¢,": 8766,
      "çļĦå¤§åŀĭ": 8767,
      "çļĦå¤§éĥ¨åĪĨ": 8768,
      "(æĺŃåĴĮ": 8769,
      ")ä»¥åıĬ": 8770,
      ",è¦ģ": 8771,
      "çļĦä¸ĸçķĮ": 8772,
      "åĴĮä»ĸçļĦ": 8773,
      "æĢ»é¢Ŀ": 8774,
      "å¿ĥèĦı": 8775,
      "åħļç»Ħ": 8776,
      "åĵģ.": 8777,
      "éªı": 8778,
      "ç¼ĸç»Ħ": 8779,
      "åİ».": 8780,
      "æľĹå¾·": 8781,
      "ç²®é£Ł": 8782,
      "åĲĮæĢ§æģĭ": 8783,
      ",ä½įäºİè¯¥çľģ": 8784,
      "He": 8785,
      "æ¬º": 8786,
      "éħ¿": 8787,
      "åĵĪåĪ©": 8788,
      "è¯įæ±ĩ": 8789,
      "ä¹Įåħĭåħ°çļĦ": 8790,
      "çĩĥçĥ§": 8791,
      "My": 8792,
      "cod": 8793,
      "çĶŁæķĪ": 8794,
      "æĸ°çķĮ": 8795,
      "æĮĩè´£": 8796,
      "åı¯ä»¥éĢļè¿ĩ": 8797,
      "åĲįä¸ºâĢľ": 8798,
      "å®¿èĪį": 8799,
      "è·¯æĺĵæĸ¯": 8800,
      "(,;)æĺ¯æ³ķåĽ½": 8801,
      "åŁł": 8802,
      "æľº,": 8803,
      ",ä½Ĩåħ¶": 8804,
      "é¦ĸé¢Ĩ": 8805,
      "å·´å¸ĥ": 8806,
      ",èĢĮéĿŀ": 8807,
      "æį¢ä¹ĺ": 8808,
      "æŀĦéĢł.": 8809,
      "ohn": 8810,
      "åĴĮå¤§": 8811,
      "é¢Ĥ": 8812,
      "è¿Ľåı£": 8813,
      "çªģåĩ»": 8814,
      "åĨ²åĩ»": 8815,
      "æ¼Ķåĩº.": 8816,
      "çĲĨäºĭä¼ļ": 8817,
      "å°Ķå¤«": 8818,
      "ç«Ļåİħ": 8819,
      "æĺİå°¼": 8820,
      "çİĭå®¤": 8821,
      "å·´åħĭ": 8822,
      "ç½ĳä¸Ĭ": 8823,
      "æģĲé¾Ļ": 8824,
      "çļĦè¡Įä¸º": 8825,
      "ä¸īçĶ²": 8826,
      "1972å¹´": 8827,
      "ä¸´åºĬ": 8828,
      "1950å¹´": 8829,
      "ãĢģäºĮ": 8830,
      "ç³Ĭ": 8831,
      "å°±åľ¨": 8832,
      "å¥¥åħĭ": 8833,
      "çī©ç§įçļĦ": 8834,
      "Sch": 8835,
      "å¹´éĹ´,": 8836,
      "å¾Ĺç¥¨": 8837,
      "éħī": 8838,
      "å¸¸è§Ħ": 8839,
      "æĹłéĻĲ": 8840,
      "æĦıåĽ¾": 8841,
      "éĹ®é¢ĺçļĦ": 8842,
      "æĹĹå¸ľ": 8843,
      "çļĦå±±å³°": 8844,
      "ãĢģä¸į": 8845,
      "çĶµæµģ": 8846,
      "å¡Į": 8847,
      "å¤ªéĥİ": 8848,
      "èĬĤå¥ı": 8849,
      "åŃĺåĤ¨": 8850,
      "çĭ¬çī¹çļĦ": 8851,
      "å¤ºåıĸ": 8852,
      "äºİ2008å¹´": 8853,
      "(;)æĺ¯": 8854,
      ",éĻ¤": 8855,
      "e)": 8856,
      "è¯¥æł¡": 8857,
      "éĽĨãĢĬ": 8858,
      "å®ĪæĬ¤": 8859,
      "çĶŁäº§çļĦ": 8860,
      "æĹĭè½¬": 8861,
      "ãĢįçŃī": 8862,
      "åįģå¤§": 8863,
      "è¾ĥå°ĳ": 8864,
      "çĶµå½±èĬĤ": 8865,
      "æ°¸è¿ľ": 8866,
      "çĶŁéķ¿äºİæµ·æĭĶ": 8867,
      ",ä½¿çĶ¨": 8868,
      "3000": 8869,
      "AK": 8870,
      "çļĦå¥³åĦ¿": 8871,
      "äººæīį": 8872,
      "æĹ¥(": 8873,
      "æ³ª": 8874,
      "ç¬¬6": 8875,
      "æĸĩ.": 8876,
      "å½¢çļĦ": 8877,
      "1942å¹´": 8878,
      "ä¸Ĭæĸ¹": 8879,
      "ä»»å¤©åłĤ": 8880,
      "è°¨": 8881,
      "ä¼łå¥ĩ": 8882,
      "èĻ¾": 8883,
      "å§Ķåĳĺä¼ļä¸»å¸Ń": 8884,
      "åĿĲèĲ½": 8885,
      ",å¹´": 8886,
      "æĺĶ": 8887,
      "åŀ¦": 8888,
      ").åľ¨": 8889,
      "åħŃæľĪ": 8890,
      "è¶³èģĶ": 8891,
      "çļĨæľª": 8892,
      ",è§Ĩ": 8893,
      ",åı°æ¹¾": 8894,
      "ä¸Ģå¤©": 8895,
      "åĬłå·¥": 8896,
      "åĲİ,åľ¨": 8897,
      "åĲİæĿ¥çļĦ": 8898,
      "ç±»åŀĭçļĦ": 8899,
      "...": 8900,
      "âĦ": 8901,
      "æĹ¶éĴĪ": 8902,
      "è½¦çļĦ": 8903,
      "ç¡®å®ŀ": 8904,
      "1979å¹´": 8905,
      "âĨĴ": 8906,
      ",æ¯Ķ": 8907,
      "AI": 8908,
      "yn": 8909,
      "ä¸ĢæīĢ": 8910,
      "åħ¬çº¦": 8911,
      "åħīè°±": 8912,
      "ç»Ħç»ĩ.": 8913,
      "æııåĨĻ": 8914,
      "èĪªç©ºåħ¬åı¸": 8915,
      "T-": 8916,
      "ä¸ºçĶ±": 8917,
      "æĪĮ": 8918,
      "åĮĹå¹³": 8919,
      "æķĻç§ĳ": 8920,
      "æĢ§æł¼": 8921,
      "äº§éĩı": 8922,
      "ä¿Ŀåį«": 8923,
      "æ¶ĪçģŃ": 8924,
      "è¿Ľå£«åĩºèº«.": 8925,
      "èĻļæŀĦ": 8926,
      "ä¸ĭæĿ¥çļĦ": 8927,
      "åĽłåħ¶": 8928,
      "æŃ£ä¹ī": 8929,
      "çĳĻ": 8930,
      "äººç¾¤": 8931,
      "åĿĩæľī": 8932,
      "æĬĢèĥ½": 8933,
      "æ¸©å¸¦": 8934,
      "åĺīåºĨ": 8935,
      "\"çļĦ": 8936,
      "åİŁæĿ¥": 8937,
      "é¦ĸä»»": 8938,
      "æĬ¥éģĵ,": 8939,
      "æĹ¶,ä»ĸ": 8940,
      "éĻĲäºİ": 8941,
      "åį¢çĵ¦": 8942,
      "åį°åº¦å°¼è¥¿äºļ": 8943,
      "ç±»ä¼¼äºİ": 8944,
      "åıĳçĶµåİĤ": 8945,
      "Lo": 8946,
      "ãĢģé¦Ļæ¸¯": 8947,
      "éĥ¨éĥ¨éķ¿": 8948,
      "å¤©ä½¿": 8949,
      "éĩĳåĪļ": 8950,
      "ç®Ĺæ³ķ": 8951,
      "éĩĩçĶ¨äºĨ": 8952,
      "éĴ¢éĵģ": 8953,
      "1ä¾ĭ": 8954,
      "æĢ¨": 8955,
      "çłĶç©¶.": 8956,
      "çº¤ç»´": 8957,
      "CP": 8958,
      "DNA": 8959,
      "çļĦåľ£": 8960,
      "åĽ½è¯Ń": 8961,
      "äºİ2024å¹´": 8962,
      "ä»¥å¾Ģ": 8963,
      "åĲįå½ķ": 8964,
      "è·ĭ": 8965,
      "çī¹åĭĴ": 8966,
      "åħ±è®¡": 8967,
      "çº³å°Ķ": 8968,
      "çªĿ": 8969,
      "çģµéŃĤ": 8970,
      "éĢıæĺİ": 8971,
      "æĶ¹åĪ¶ä¸º": 8972,
      "çļĦçĶŁæ´»": 8973,
      "ãĢģåĽĽ": 8974,
      "ãĢģäºĶ": 8975,
      "åĵģç§į": 8976,
      "æĻļæľŁ": 8977,
      "ä¿Ŀç½ĹÂ·": 8978,
      "(åľ¨": 8979,
      ",åĨ³å®ļ": 8980,
      "ru": 8981,
      "åĽ½æĹĹ": 8982,
      "è·¯,": 8983,
      "åįİåĮĹ": 8984,
      "éļıä¹ĭ": 8985,
      "æĤ¼": 8986,
      "ãĢģå®ī": 8987,
      "äºĶå¹´(": 8988,
      "è§£éĻ¤": 8989,
      "èı±": 8990,
      "ç¡®ç«ĭ": 8991,
      "1976å¹´": 8992,
      "by": 8993,
      "åĴĮäººåı£": 8994,
      "åħĭé²ģ": 8995,
      "æ¸¯éĵģ": 8996,
      "åĸĿ": 8997,
      "å¾Ģè¿Ķ": 8998,
      "ä¸ºä¸»,": 8999,
      "FC": 9000,
      "æŃ¤å¤ĸ": 9001,
      "éĢīç¥¨": 9002,
      "åĲĳåĮĹ": 9003,
      "éĶħ": 9004,
      "è®¤çŁ¥": 9005,
      "æľ¯è¯Ń": 9006,
      "æ²¡æľīä»»ä½ķ": 9007,
      "é¦Ĩ.": 9008,
      "éĢłæĪĲçļĦ": 9009,
      "äºİ2007å¹´": 9010,
      "åħĭéĩĮç±³äºļ": 9011,
      "æ²ŁéĢļ": 9012,
      "ä¸ŃæŃ£": 9013,
      "éĹ¹": 9014,
      "æĺİä»£": 9015,
      "åĶ¤": 9016,
      "ern": 9017,
      "170": 9018,
      "æķĪçİĩ": 9019,
      "èī¯å¥½": 9020,
      "çļĦæĺ¯,": 9021,
      "æĲŃè½½": 9022,
      "900": 9023,
      "éĺľ": 9024,
      "åİŁä¸º": 9025,
      "é»ĳæļĹ": 9026,
      "é¸¦": 9027,
      "åŃĺåľ¨çļĦ": 9028,
      "åİ¿çļĦä¸Ģä¸ªè¡ĮæĶ¿": 9029,
      ",å°¤åħ¶æĺ¯": 9030,
      ",åĪĺ": 9031,
      "åĽ½å®ī": 9032,
      "åľ°å¤Ħ": 9033,
      "å»ºåĽ½": 9034,
      "äºĭåıĺ": 9035,
      "çĽ¸è¾ĥ": 9036,
      "æŃ£æľĪ": 9037,
      "å®ŀåĬĽ": 9038,
      "ork": 9039,
      "å¼ºåĮĸ": 9040,
      "å¸ĿåĽ½çļĦ": 9041,
      ",åį³ä½¿": 9042,
      "çĽĴ": 9043,
      "ç§°.": 9044,
      "æīĵå¼Ģ": 9045,
      "âĢ§": 9046,
      "ç¥ŀç¤¾": 9047,
      ",æĺ¯ä¸Ģç§į": 9048,
      "äºº,ä¸ŃåĽ½": 9049,
      "åħŃå¹´": 9050,
      "è¾ŀåİ»": 9051,
      "è¢«ç§°ä¸ºãĢĮ": 9052,
      "(ç®Ģç§°": 9053,
      "å°§": 9054,
      "ä¸Ģéĥ¨åĪĨ": 9055,
      "äºĨãĢĮ": 9056,
      "ä¸ĭçļĦä¸Ģä¸ª": 9057,
      "å£«åĿ¦": 9058,
      "æĶ¾éĢģ": 9059,
      "1980å¹´ä»£": 9060,
      "åĵįåºĶ": 9061,
      "ä¸Ńå¿ĥ,": 9062,
      ".ä»ĸæĺ¯": 9063,
      "åŃ¦æł¡.": 9064,
      "æĬĹæĪĺ": 9065,
      "1939å¹´": 9066,
      "ign": 9067,
      ",èİ·": 9068,
      "åľ¨è¥¿": 9069,
      "åĮª": 9070,
      "å¾·ç½Ĺ": 9071,
      "ä½ĵåĪ¶": 9072,
      "æµģæµª": 9073,
      "å¢ĥå¤ĸ": 9074,
      "éĽĨåĽ¢åĨĽ": 9075,
      "ç§ģç«ĭ": 9076,
      "ä¸Ģä»½": 9077,
      "å·¥åħļ": 9078,
      ".åħ¶åĲİ": 9079,
      "ä¸ªäººçĶŁæ´».": 9080,
      "åĬŁèĥ½.": 9081,
      "ç§ŁçķĮ": 9082,
      "çŃīåľ°,çĶŁéķ¿äºİæµ·æĭĶ": 9083,
      ",é©¬": 9084,
      "Lin": 9085,
      "æīĢ.": 9086,
      "åĽłåºĶ": 9087,
      "å¹²çº¿": 9088,
      "ä¿Ħç½Ĺæĸ¯çļĦ": 9089,
      "ç²ĴåŃĲ": 9090,
      "æįĲèµł": 9091,
      "iver": 9092,
      "),ä½Ĩ": 9093,
      "è®¾åľ¨": 9094,
      "èģĶåĨĽ": 9095,
      "æ¯įèĪ°": 9096,
      "å·¡éĢ»": 9097,
      "éĹ´è°į": 9098,
      "äºĮæ¬¡": 9099,
      "çĥĤ": 9100,
      "åħĪåīį": 9101,
      "åıĳå±ķçļĦ": 9102,
      "ä¸»æķĻç»ĥ": 9103,
      "èķĥ": 9104,
      "å°Ĭéĩį": 9105,
      "Â°C": 9106,
      "çŃīçļĦ": 9107,
      "éĺŁåĳĺ": 9108,
      "æł¹æį®ãĢĬ": 9109,
      "ç»ĵæĿŁåĲİ": 9110,
      "é¦ĸæī¹": 9111,
      "äºº,ä¸Ńåįİäººæ°ĳåħ±åĴĮåĽ½": 9112,
      "åı°æ¹¾çļĦ": 9113,
      "æĥ³æ³ķ": 9114,
      "æĺĨæĺİ": 9115,
      "æ§Ł": 9116,
      "æĢİ": 9117,
      "ç¼Ģ": 9118,
      "æ®·": 9119,
      "èĮİ": 9120,
      "ç²¾çģµ": 9121,
      "å¸ķå°Ķ": 9122,
      "åĤ¨åŃĺ": 9123,
      "å»¶ä¼¸èĩ³": 9124,
      "éĺŁåľ¨": 9125,
      "åĬĽåŃ¦": 9126,
      "ç¤¾åĮºãĢģ": 9127,
      "è½¬åıĺ": 9128,
      "å¼ºå¤§çļĦ": 9129,
      "ä¼¯æł¼": 9130,
      "è¿ªäºļ": 9131,
      ".æŃ¤åĲİ,": 9132,
      "èĽĻ": 9133,
      "å®ĮæĪĲ.": 9134,
      "éĢĿä¸ĸ.": 9135,
      "3åı·": 9136,
      "åĬ¾": 9137,
      "ä¸ŃæĸŃ": 9138,
      "æ°ĳæĶ¿": 9139,
      "ãĢį;": 9140,
      "è¿ĩåº¦": 9141,
      "æ³¢çī¹": 9142,
      ",æľīäºĽ": 9143,
      "æĺ¥ç§ĭ": 9144,
      "12æľĪ31æĹ¥": 9145,
      "çº·çº·": 9146,
      "//": 9147,
      "è¯Ī": 9148,
      "åħ¬ç¤¾": 9149,
      "ä¸ĭåĪĹ": 9150,
      "åĬ¨æĢģ": 9151,
      "èĥ½åľ¨": 9152,
      "éĺ²å®Ī": 9153,
      "ET": 9154,
      "ãĢģç¾İåĽ½": 9155,
      "æľīçĿĢ": 9156,
      "åıĳè¾¾": 9157,
      "ç®¡æİ§": 9158,
      "åĲĽå£«åĿ¦": 9159,
      "çļĦé©¬": 9160,
      "åľ°ä¸Ĭ": 9161,
      "ä»ĸä¸º": 9162,
      "è¢«åıĳçİ°": 9163,
      "éķ¿æĺ¥": 9164,
      "æīĭ,": 9165,
      "éĴł": 9166,
      "åķĨäºº": 9167,
      "çīĪ.": 9168,
      "èı©": 9169,
      "å°ģéĹŃ": 9170,
      ".2006å¹´": 9171,
      ";çĪ¶": 9172,
      "æľīâĢľ": 9173,
      "ç¬¬10": 9174,
      "èĢĮåľ¨": 9175,
      "æĢ§ãĢģ": 9176,
      "æĽ´æĺ¯": 9177,
      "å¼ºçļĦ": 9178,
      "å¥ĸæľĢä½³": 9179,
      "åı¦ä¸Ģç§į": 9180,
      "å¾®åįļ": 9181,
      "ational": 9182,
      "åİ¿çļĦä¸Ģä¸ªè¡ĮæĶ¿éķĩåĮº.": 9183,
      "çļĦåĨħå®¹": 9184,
      "æľīåı¯èĥ½": 9185,
      "éĹ¯": 9186,
      "æ¬¡æķ°": 9187,
      "å¢ĥåĨħçļĦ": 9188,
      "èĽ®": 9189,
      "MO": 9190,
      "åħĭéĽ·": 9191,
      "æ¬¡.": 9192,
      "çĲĥ,": 9193,
      "åıĤè®®åĳĺ": 9194,
      "åĲĳéĩı": 9195,
      "åħµåĬĽ": 9196,
      "å°ģéĶģ": 9197,
      "-19": 9198,
      "09": 9199,
      "ä½£": 9200,
      "ä¸ºæľŁ": 9201,
      "ä¸Ĭæ¸¸": 9202,
      "åħ¬å¼ı": 9203,
      "æ³¨åħ¥": 9204,
      "è¡¨çİ°åĩº": 9205,
      "çļĦæĹ¶åĢĻ,": 9206,
      "å¸ĥæĶ¿": 9207,
      "é¦ĸå°Ķ": 9208,
      "æĺŁçļĦ": 9209,
      "æ³¢å£«é¡¿": 9210,
      "ä¹ĿæľĪ": 9211,
      "çľĭè§ģ": 9212,
      "1943å¹´": 9213,
      ".åĲĮå¹´,": 9214,
      "ä»¥æŃ¤": 9215,
      "æł¼æĭīæĸ¯": 9216,
      "åŀ£": 9217,
      "åıĹåĪ°äºĨ": 9218,
      "ä¸ĵç§ĳ": 9219,
      "ä¸ĵæ³¨": 9220,
      "é¥°)": 9221,
      ".æĸ°": 9222,
      "æľŁåĪĬ": 9223,
      "ç¦¾": 9224,
      "çĦ°": 9225,
      "åıĤæ¼Ķ": 9226,
      "çĤ¹æĺ¯": 9227,
      "ina": 9228,
      "ick": 9229,
      "éĩİçĶŁ": 9230,
      "å°ļæľªçĶ±äººå·¥å¼ķç§įæł½åŁ¹.": 9231,
      "èī®": 9232,
      "åħ¨ä¸ĸçķĮ": 9233,
      "æĥħåĨµä¸ĭ,": 9234,
      "ä¿ĥä½¿": 9235,
      "å°¼æ³Ĭ": 9236,
      "è°ĥä»»": 9237,
      "åİĭç¼©": 9238,
      "æĺ¯ä¸Ģåº§": 9239,
      "å·¡æĬļ": 9240,
      "éŀį": 9241,
      "éĿŀå»ºåĪ¶åľ°åĮº": 9242,
      "éĺĢ": 9243,
      "å¤ªåĲİ": 9244,
      "éļıæľº": 9245,
      "éĤ£æł·": 9246,
      "è®¾è®¡å¸Ī": 9247,
      "æıĲä¾ĽçļĦ": 9248,
      "åŁİå¸ĤçļĦ": 9249,
      "ç²¾ç¡®": 9250,
      "åı³ç¿¼": 9251,
      "èĭį": 9252,
      "å¼ĢæĴŃ": 9253,
      "ç½Ĺè®·": 9254,
      "è¯ºæĸ¯": 9255,
      "æŀģä¸º": 9256,
      "ä¹ĭéĹ´.": 9257,
      "éĽħåħ¸": 9258,
      "èĤ¡ä¸ľ": 9259,
      "å®ľåħ°": 9260,
      "æľīä¸¤ä¸ª": 9261,
      "Â·ç½Ĺ": 9262,
      "çŃīäºİ": 9263,
      "æ¶¨": 9264,
      "æ²³ãĢģ": 9265,
      "æĿĥ,": 9266,
      "åĮ»å¸Ī": 9267,
      "ä¹ĭéĹ´,": 9268,
      "ish": 9269,
      "æĹ¶åĪ»": 9270,
      "è·¯å¾Ħ": 9271,
      "åİ¿åŁİ": 9272,
      "ç»ĵè®º": 9273,
      "åı¤å¸ĮèħĬ": 9274,
      "å§Ķåĳĺ,": 9275,
      "å·¥ä½ľäººåĳĺ": 9276,
      "åħįçĸ«": 9277,
      "å¹³æĸ¹åħ¬éĩĮ,äººåı£": 9278,
      "è¶ĭåĬ¿": 9279,
      "æĺ¯ç¾İåĽ½": 9280,
      "ä»ĸäºº": 9281,
      "ä½ĵæĵį": 9282,
      "çķı": 9283,
      "åĪĿæŃ¥": 9284,
      "æ´ªæ°´": 9285,
      "åıĻè¿°": 9286,
      "å¤©æĸĩåŃ¦å®¶": 9287,
      "è¿Ļé¡¹": 9288,
      "äºĭåĲİ": 9289,
      "ç»ı,": 9290,
      "æ´»åĬ¨çļĦ": 9291,
      "åĬłåħ¥ä¸ŃåĽ½åħ±äº§åħļ": 9292,
      "èį£èİ·": 9293,
      ".åĪ°": 9294,
      "ä¸Ńä»¥": 9295,
      "å¤§çĲĨ": 9296,
      "ãĢĬæĸ°": 9297,
      "åīįéĶĭ": 9298,
      "é«ĺæł¡": 9299,
      "å®ļçĲĨ": 9300,
      "æ¬¡åĪĹè½¦": 9301,
      "æĦŁæĥħ": 9302,
      "æīĢåľ¨åľ°": 9303,
      "å§Ĭå¦¹": 9304,
      "åľ¨ä¸Ģä¸ª": 9305,
      "ä¸įä½³": 9306,
      "åıĳèĤ²": 9307,
      "åĬ¨åĳĺ": 9308,
      "æľĢéĩįè¦ģçļĦ": 9309,
      "å¤©åĲİ": 9310,
      "ç¼Ĩ": 9311,
      "å±ĢåĬ¿": 9312,
      "æĬĢå·§": 9313,
      "ç³»ç»Ł,": 9314,
      "çĭ¬çī¹": 9315,
      "èĢĥåħ¥": 9316,
      "è®¨ä¼Ĳ": 9317,
      "æĪªæŃ¢": 9318,
      "age": 9319,
      ".ç¾İåĽ½": 9320,
      "les": 9321,
      "èĥĢ": 9322,
      "å°ıå§Ĳ": 9323,
      "éĢīæĭĶ": 9324,
      "åĸĻ": 9325,
      "å§Ķåĳĺä¼ļçļĦ": 9326,
      "å½Ĵç±»": 9327,
      "æľ«,": 9328,
      "act": 9329,
      "æĭľåįł": 9330,
      "å±¯éĹ¨": 9331,
      "(16": 9332,
      "1æľĪ1æĹ¥,": 9333,
      "ä¼ļç¤¾": 9334,
      "èĩªä¸»": 9335,
      "å¤©åºľ": 9336,
      "0å¹´),": 9337,
      "èĭıå·ŀ": 9338,
      "ç¦»å©ļ": 9339,
      "åĶ®ç¥¨": 9340,
      "çľģçļĦä¸Ģä¸ªå¸Ĥéķĩ,ä½įäºİè¯¥çľģ": 9341,
      "ice_": 9342,
      "codice_": 9343,
      "æĹ¥æĬ¥": 9344,
      "åĩºåľŁ": 9345,
      "åħ¬ç«ĭ": 9346,
      "ãĢĭ()": 9347,
      "å¹¶ä¸įæĺ¯": 9348,
      "åĨĽæĸ¹": 9349,
      "ä¸ļä½Ļ": 9350,
      "éĤ¹": 9351,
      "å¤ĦåĨ³": 9352,
      "çİĩåĨĽ": 9353,
      "çħĮ": 9354,
      "éĥ¡.": 9355,
      "å½¢æĪĲçļĦ": 9356,
      "èµĭäºĪ": 9357,
      ".æĪªèĩ³": 9358,
      "åĴı": 9359,
      "åĲįè¿Ľå£«.": 9360,
      "ä¸ľåĮº": 9361,
      "éĺ¿å¯Įæ±Ĺ": 9362,
      "åº§åłĤ": 9363,
      "æĪ·éĥ¨": 9364,
      "äººå¤§å¸¸å§Ķä¼ļ": 9365,
      "èŀºæĹĭ": 9366,
      "éĻ¨çŁ³åĿĳ": 9367,
      "âĦĥ": 9368,
      "ron": 9369,
      "åľ¨ä¸Ĭæµ·": 9370,
      "ç¼¸": 9371,
      "åĨ³çŃĸ": 9372,
      "ä»ĸä»¬åľ¨": 9373,
      "ames": 9374,
      "ass": 9375,
      "çļĦå½±åĵį.": 9376,
      "CN": 9377,
      "åİŁæľī": 9378,
      "éķĩãĢģ": 9379,
      "çľŁæŃ£çļĦ": 9380,
      "ton": 9381,
      "ç»ıè´¹": 9382,
      "æĢ»ç»ıçĲĨ": 9383,
      "æ°´æ·±": 9384,
      "æĶ¹èī¯": 9385,
      "127": 9386,
      "å¤ªå®Ī": 9387,
      "è§Ħæł¼": 9388,
      "å¼ĢåıĳçļĦ": 9389,
      "åĲ¦åĪĻ": 9390,
      "åĨ¯Â·": 9391,
      "TO": 9392,
      "åŃļ": 9393,
      "ä¹ĭ,": 9394,
      "åİŁçĲĨ": 9395,
      "é¦Ļæ¸¯çļĦ": 9396,
      "è§ĤéŁ³": 9397,
      "å¤±è¸ª": 9398,
      "èĭ±åĽ½çļĦ": 9399,
      "æ£®åł¡": 9400,
      "çĨĶ": 9401,
      "åĺīå®¾": 9402,
      "1958å¹´": 9403,
      "éĤ®å±Ģ": 9404,
      "01": 9405,
      "æĸĩÂ·": 9406,
      "æĪĺç»©": 9407,
      "èİİçĻ½": 9408,
      "çĬ¶åĨµ.": 9409,
      "åĩºèµĽ": 9410,
      "èĢĮéĿŀ": 9411,
      "åĳĺå¤ĸ": 9412,
      "åı¯éĿł": 9413,
      "éĺ¿åŁº": 9414,
      "å·´å«©": 9415,
      "èİ·å¥ĸ": 9416,
      "ere": 9417,
      "åĲĪä½ľ,": 9418,
      "åĲįç§°.": 9419,
      "æ½ľåľ¨": 9420,
      "éĽķåĥı": 9421,
      "äºº,åħ¶ä¸ŃçĶ·æĢ§": 9422,
      "\").": 9423,
      "ä¹ĲåĽŃ": 9424,
      "åį¡å°ĶÂ·": 9425,
      "éĽĨçļĦ": 9426,
      "åĽ¾æ¡Ī": 9427,
      "ç®¡è¾ĸ.": 9428,
      "çļĦéģĵè·¯": 9429,
      "è¢ľ": 9430,
      "ç¬¬åįģäºĮ": 9431,
      "åĨĽäºº": 9432,
      "å¤ļä¼¦": 9433,
      "åĬłæĸ¯": 9434,
      "ç±»åĪ«": 9435,
      "éĴ§": 9436,
      "ç¦ıå°Ķ": 9437,
      "é¹¦": 9438,
      "1968å¹´": 9439,
      "æľĢé«ĺæ³ķéĻ¢": 9440,
      "é¢Ŀå¤ĸ": 9441,
      "èŁ¹": 9442,
      "%ä¸º": 9443,
      "æĹ¥çļĦ": 9444,
      "èĢĮéĹ»": 9445,
      "ãĢįåıĬ": 9446,
      "é«ĺå±Ĥ": 9447,
      "åı£.": 9448,
      "å¨ģå°¼æĸ¯": 9449,
      "èĩ³ä»Ĭ.": 9450,
      "ogle": 9451,
      "æ°ŁåĮĸ": 9452,
      "PlayStation": 9453,
      "çļĦæĪĲç»©": 9454,
      "æĭ¯": 9455,
      "ä»»æĦı": 9456,
      "å¾·æĸ¯": 9457,
      "æĽ¾è¢«": 9458,
      "éĽĨç»ĵ": 9459,
[...]
