{
  "version": "1.0",
  "truncation": null,
  "padding": null,
  "added_tokens": [],
  "normalizer": null,
  "pre_tokenizer": {
    "type": "Sequence",
    "pretokenizers": [
      {
        "type": "Split",
        "pattern": {
          "Regex": "[^\\p{L}\\p{N}\\s]+|[\\r\\n]+"
        },
        "behavior": "Isolated",
        "invert": false
      },
      {
        "type": "ByteLevel",
        "add_prefix_space": false,
        "trim_offsets": true,
        "use_regex": false
      }
    ]
  },
  "post_processor": null,
  "decoder": null,
  "model": {
    "type": "BPE",
    "dropout": null,
    "unk_token": null,
    "continuing_subword_prefix": null,
    "end_of_word_suffix": null,
    "fuse_unk": false,
    "byte_fallback": false,
    "ignore_merges": false,
    "vocab": {
      "!": 0,
      "\"": 1,
      "#": 2,
      "$": 3,
      "%": 4,
      "&": 5,
      "'": 6,
      "(": 7,
      ")": 8,
      "*": 9,
      "+": 10,
      ",": 11,
      "-": 12,
      ".": 13,
      "/": 14,
      "0": 15,
      "1": 16,
      "2": 17,
      "3": 18,
      "4": 19,
      "5": 20,
      "6": 21,
      "7": 22,
      "8": 23,
      "9": 24,
      ":": 25,
      ";": 26,
      "=": 27,
      "?": 28,
      "@": 29,
      "A": 30,
      "B": 31,
      "C": 32,
      "D": 33,
      "E": 34,
      "F": 35,
      "G": 36,
      "H": 37,
      "I": 38,
      "J": 39,
      "K": 40,
      "L": 41,
      "M": 42,
      "N": 43,
      "O": 44,
      "P": 45,
      "Q": 46,
      "R": 47,
      "S": 48,
      "T": 49,
      "U": 50,
      "V": 51,
      "W": 52,
      "X": 53,
      "Y": 54,
      "Z": 55,
      "[": 56,
      "\\": 57,
      "]": 58,
      "^": 59,
      "_": 60,
      "`": 61,
      "a": 62,
      "b": 63,
      "c": 64,
      "d": 65,
      "e": 66,
      "f": 67,
      "g": 68,
      "h": 69,
      "i": 70,
      "j": 71,
      "k": 72,
      "l": 73,
      "m": 74,
      "n": 75,
      "o": 76,
      "p": 77,
      "q": 78,
      "r": 79,
      "s": 80,
      "t": 81,
      "u": 82,
      "v": 83,
      "w": 84,
      "x": 85,
      "y": 86,
      "z": 87,
      "|": 88,
      "~": 89,
      "¡": 90,
      "¢": 91,
      "£": 92,
      "¤": 93,
      "¥": 94,
      "¦": 95,
      "§": 96,
      "¨": 97,
      "©": 98,
      "ª": 99,
      "«": 100,
      "¬": 101,
      "®": 102,
      "¯": 103,
      "°": 104,
      "±": 105,
      "²": 106,
      "³": 107,
      "´": 108,
      "µ": 109,
      "¶": 110,
      "·": 111,
      "¸": 112,
      "¹": 113,
      "º": 114,
      "»": 115,
      "¼": 116,
      "½": 117,
      "¾": 118,
      "¿": 119,
      "Â": 120,
      "Ã": 121,
      "Ä": 122,
      "Å": 123,
      "Æ": 124,
      "Ç": 125,
      "È": 126,
      "É": 127,
      "Ê": 128,
      "Ë": 129,
      "Ì": 130,
      "Í": 131,
      "Î": 132,
      "Ï": 133,
      "Ð": 134,
      "Ñ": 135,
      "Ò": 136,
      "Ó": 137,
      "Ô": 138,
      "Õ": 139,
      "Ö": 140,
      "×": 141,
      "Ø": 142,
      "Ù": 143,
      "Ú": 144,
      "Û": 145,
      "Ü": 146,
      "Þ": 147,
      "ß": 148,
      "à": 149,
      "á": 150,
      "â": 151,
      "ã": 152,
      "ä": 153,
      "ê": 154,
      "ë": 155,
      "ì": 156,
      "í": 157,
      "î": 158,
      "ï": 159,
      "ð": 160,
      "ñ": 161,
      "Ċ": 162,
      "Ġ": 163,
      "ġ": 164,
      "Ģ": 165,
      "ģ": 166,
      "Ĥ": 167,
      "ĥ": 168,
      "Ħ": 169,
      "ħ": 170,
      "Ĩ": 171,
      "ĩ": 172,
      "Ī": 173,
      "ī": 174,
      "Ĭ": 175,
      "ĭ": 176,
      "Į": 177,
      "į": 178,
      "İ": 179,
      "ı": 180,
      "Ĳ": 181,
      "ĳ": 182,
      "Ĵ": 183,
      "ĵ": 184,
      "Ķ": 185,
      "ķ": 186,
      "ĸ": 187,
      "Ĺ": 188,
      "ĺ": 189,
      "Ļ": 190,
      "ļ": 191,
      "Ľ": 192,
      "ľ": 193,
      "Ŀ": 194,
      "ŀ": 195,
      "Ł": 196,
      "ł": 197,
      "Ń": 198,
      "ng": 199,
      "an": 200,
      "sh": 201,
      "zh": 202,
      "ji": 203,
      "ang": 204,
      "ĠĠ": 205,
      "ong": 206,
      "xi": 207,
      "ao": 208,
      "ai": 209,
      "de": 210,
      "ei": 211,
      "shi": 212,
      "yu": 213,
      "ou": 214,
      "yi": 215,
      "en": 216,
      "ch": 217,
      "ian": 218,
      "uo": 219,
      "eng": 220,
      "li": 221,
      "ĠĠĠ": 222,
      "ãĢ": 223,
      "ing": 224,
      "ui": 225,
      "wei": 226,
      "uan": 227,
      "zhi": 228,
      "qi": 229,
      "nian": 230,
      "zhong": 231,
      "you": 232,
      "ren": 233,
      "un": 234,
      "zai": 235,
      "di": 236,
      "guo": 237,
      "ãĢģ": 238,
      "he": 239,
      "bu": 240,
      "er": 241,
      "gong": 242,
      "xing": 243,
      "cheng": 244,
      "da": 245,
      "zhu": 246,
      "hu": 247,
      "yuan": 248,
      "si": 249,
      "jian": 250,
      "yue": 251,
      "ge": 252,
      "fu": 253,
      "xian": 254,
      "ue": 255,
      "ke": 256,
      "wu": 257,
      "chu": 258,
      "shu": 259,
      "sheng": 260,
      "jie": 261,
      "jia": 262,
      "bi": 263,
      "dao": 264,
      "zi": 265,
      "bei": 266,
      "hui": 267,
      "fa": 268,
      "xiang": 269,
      "ti": 270,
      "zheng": 271,
      "mi": 272,
      "ta": 273,
      "jin": 274,
      "qu": 275,
      "20": 276,
      "tong": 277,
      "ri": 278,
      "ju": 279,
      "jing": 280,
      "ming": 281,
      "le": 282,
      "hou": 283,
      "shang": 284,
      "shou": 285,
      "dong": 286,
      "ci": 287,
      "fang": 288,
      "19": 289,
      "hua": 290,
      "yin": 291,
      "xue": 292,
      "guan": 293,
      "zhan": 294,
      "ye": 295,
      "ying": 296,
      "zuo": 297,
      "zhe": 298,
      "yan": 299,
      "mei": 300,
      "jiao": 301,
      "gu": 302,
      "chang": 303,
      "xin": 304,
      "dui": 305,
      "lu": 306,
      "bing": 307,
      "bao": 308,
      "fen": 309,
      "dan": 310,
      "huo": 311,
      "jun": 312,
      "jiang": 313,
      "du": 314,
      "xiao": 315,
      "dian": 316,
      "yong": 317,
      "qian": 318,
      "she": 319,
      "tai": 320,
      "xia": 321,
      "mu": 322,
      "wen": 323,
      "gai": 324,
      "zhang": 325,
      "liang": 326,
      "ya": 327,
      "ru": 328,
      "dai": 329,
      "hai": 330,
      "nan": 331,
      "zhou": 332,
      "zu": 333,
      "wang": 334,
      "lai": 335,
      "ban": 336,
      "jiu": 337,
      "dang": 338,
      "qing": 339,
      "ping": 340,
      "shen": 341,
      "ãĢĭ": 342,
      "ãĢĬ": 343,
      "wan": 344,
      "lian": 345,
      "ling": 346,
      "luo": 347,
      "Â·": 348,
      "min": 349,
      "quan": 350,
      "pi": 351,
      "ni": 352,
      "bo": 353,
      "duo": 354,
      "te": 355,
      "ben": 356,
      "gao": 357,
      "biao": 358,
      "suo": 359,
      "la": 360,
      "ma": 361,
      "kai": 362,
      "ba": 363,
      "xie": 364,
      "xu": 365,
      "bian": 366,
      "deng": 367,
      "yao": 368,
      "yang": 369,
      "mian": 370,
      "zhen": 371,
      "ding": 372,
      "qiu": 373,
      "zui": 374,
      "sai": 375,
      "liu": 376,
      "fan": 377,
      "xuan": 378,
      "fei": 379,
      "san": 380,
      "shan": 381,
      "che": 382,
      "zong": 383,
      "men": 384,
      "ãĢĮ": 385,
      "ãĢį": 386,
      "tu": 387,
      "tian": 388,
      "hao": 389,
      "su": 390,
      "lei": 391,
      "nei": 392,
      "yun": 393,
      "201": 394,
      "lan": 395,
      "feng": 396,
      "mo": 397,
      "na": 398,
      "ze": 399,
      "lv": 400,
      "han": 401,
      "kou": 402,
      "wai": 403,
      "neng": 404,
      "lin": 405,
      "chuan": 406,
      "chi": 407,
      "jue": 408,
      "bai": 409,
      "pai": 410,
      "200": 411,
      "ku": 412,
      "cai": 413,
      "zao": 414,
      "ting": 415,
      "zhuan": 416,
      "gang": 417,
      "lie": 418,
      "guang": 419,
      "gui": 420,
      "lun": 421,
      "sui": 422,
      "pu": 423,
      "ceng": 424,
      "kong": 425,
      "shui": 426,
      "10": 427,
      "chao": 428,
      "zhuang": 429,
      "cha": 430,
      "dou": 431,
      "can": 432,
      "tou": 433,
      "ran": 434,
      "se": 435,
      "duan": 436,
      "cun": 437,
      "huan": 438,
      "cong": 439,
      "pin": 440,
      "ce": 441,
      "chan": 442,
      "xun": 443,
      "gou": 444,
      "00": 445,
      "nv": 446,
      "zhao": 447,
      "gan": 448,
      "chong": 449,
      "sha": 450,
      "tan": 451,
      "18": 452,
      "qin": 453,
      "ka": 454,
      "meng": 455,
      "qiang": 456,
      "huang": 457,
      "xiu": 458,
      "12": 459,
      "tiao": 460,
      "man": 461,
      "shao": 462,
      "kuo": 463,
      "long": 464,
      "pian": 465,
      "shuo": 466,
      "tuan": 467,
      "tang": 468,
      "rong": 469,
      "geng": 470,
      "202": 471,
      "chen": 472,
      "tui": 473,
      "gen": 474,
      "que": 475,
      "tie": 476,
      "11": 477,
      "qie": 478,
      "wo": 479,
      "po": 480,
      "pei": 481,
      "hang": 482,
      "hong": 483,
      "199": 484,
      "bang": 485,
      "liao": 486,
      "chuang": 487,
      "bie": 488,
      "re": 489,
      "tuo": 490,
      "tao": 491,
      "song": 492,
      "wa": 493,
      "mai": 494,
      "ha": 495,
      "15": 496,
      "pan": 497,
      "dun": 498,
      "diao": 499,
      "qiao": 500,
      "sa": 501,
      "mao": 502,
      "lang": 503,
      "kan": 504,
      "kang": 505,
      "âĢ": 506,
      "or": 507,
      "lao": 508,
      "zeng": 509,
      "16": 510,
      "198": 511,
      "kao": 512,
      "xiong": 513,
      "17": 514,
      "on": 515,
      "nuo": 516,
      "miao": 517,
      "rang": 518,
      "kuang": 519,
      "hen": 520,
      "suan": 521,
      "14": 522,
      "30": 523,
      "zhun": 524,
      "13": 525,
      "194": 526,
      "cao": 527,
      "hun": 528,
      "qun": 529,
      "nong": 530,
      "197": 531,
      "heng": 532,
      "shuang": 533,
      "lou": 534,
      "gei": 535,
      "kuai": 536,
      "piao": 537,
      "zha": 538,
      "hei": 539,
      "niu": 540,
      "195": 541,
      "sen": 542,
      "bin": 543,
      "reng": 544,
      "zou": 545,
      "196": 546,
      "chun": 547,
      "kuan": 548,
      "25": 549,
      "âĢĶ": 550,
      "rui": 551,
      "sun": 552,
      "pao": 553,
      "ning": 554,
      "for": 555,
      "pa": 556,
      "cang": 557,
      "mou": 558,
      "24": 559,
      "peng": 560,
      "huai": 561,
      "21": 562,
      "193": 563,
      "23": 564,
      "mula": 565,
      "formula": 566,
      "28": 567,
      "zan": 568,
      "ruo": 569,
      "in": 570,
      "22": 571,
      "chou": 572,
      "zhui": 573,
      "ar": 574,
      "me": 575,
      "26": 576,
      "50": 577,
      "2020": 578,
      "27": 579,
      "nai": 580,
      "nu": 581,
      "ï¼": 582,
      "29": 583,
      "shun": 584,
      "2010": 585,
      "za": 586,
      "000": 587,
      "lve": 588,
      "zhai": 589,
      "2019": 590,
      "ne": 591,
      "ro": 592,
      "juan": 593,
      "st": 594,
      "ra": 595,
      "cui": 596,
      "kun": 597,
      "2016": 598,
      "luan": 599,
      "2018": 600,
      "cuo": 601,
      "2021": 602,
      "zang": 603,
      "2014": 604,
      "shuai": 605,
      "2011": 606,
      "2015": 607,
      "2017": 608,
      "2012": 609,
      "40": 610,
      "2013": 611,
      "nao": 612,
      "2022": 613,
      "die": 614,
      "ruan": 615,
      "kui": 616,
      "lt": 617,
      "rou": 618,
      "cu": 619,
      "sang": 620,
      "2009": 621,
      "2008": 622,
      "ãĥ": 623,
      "60": 624,
      "niao": 625,
      "al": 626,
      "rao": 627,
      "chai": 628,
      "100": 629,
      "zhuo": 630,
      "2023": 631,
      "gt": 632,
      "sou": 633,
      "190": 634,
      "31": 635,
      "ken": 636,
      "2007": 637,
      "2001": 638,
      "teng": 639,
      "pang": 640,
      "fou": 641,
      "co": 642,
      "fo": 643,
      "gua": 644,
      "2000": 645,
      "80": 646,
      "2006": 647,
      "2024": 648,
      "ãģ": 649,
      "2005": 650,
      "zun": 651,
      "tion": 652,
      "kua": 653,
      "the": 654,
      "35": 655,
      "70": 656,
      "nie": 657,
      "lo": 658,
      "of": 659,
      "90": 660,
      "leng": 661,
      "ï¼į": 662,
      "ãĤ": 663,
      "am": 664,
      "tun": 665,
      "ter": 666,
      "mie": 667,
      "2004": 668,
      "th": 669,
      "to": 670,
      "45": 671,
      "48": 672,
      "mang": 673,
      "2025": 674,
      "ve": 675,
      "ga": 676,
      "ãĢī": 677,
      "ãĢĪ": 678,
      "36": 679,
      "38": 680,
      "2003": 681,
      "37": 682,
      "Ma": 683,
      "chui": 684,
      "pen": 685,
      "ll": 686,
      "189": 687,
      "IN": 688,
      "2002": 689,
      "keng": 690,
      "TC": 691,
      "do": 692,
      "34": 693,
      "75": 694,
      "âĢĵ": 695,
      "Co": 696,
      "46": 697,
      "ca": 698,
      "1990": 699,
      "âĢ¦": 700,
      "ck": 701,
      "39": 702,
      "..": 703,
      "be": 704,
      "65": 705,
      "32": 706,
      "ST": 707,
      "47": 708,
      "UTC": 709,
      "1999": 710,
      "1998": 711,
      "1980": 712,
      "188": 713,
      "500": 714,
      "33": 715,
      "In": 716,
      "64": 717,
      "ss": 718,
      "The": 719,
      "vi": 720,
      "SE": 721,
      "55": 722,
      "1997": 723,
      "Re": 724,
      "hi": 725,
      "49": 726,
      "II": 727,
      "el": 728,
      "68": 729,
      "et": 730,
      "44": 731,
      "1996": 732,
      "oo": 733,
      "qiong": 734,
      "1994": 735,
      "gun": 736,
      "br": 737,
      "guai": 738,
      "1992": 739,
      "1995": 740,
      "Mi": 741,
      "67": 742,
      "and": 743,
      "sao": 744,
      "es": 745,
      "1991": 746,
      "1970": 747,
      "58": 748,
      "1950": 749,
      "300": 750,
      "1993": 751,
      "187": 752,
      "1949": 753,
      "at": 754,
      "AT": 755,
      "pe": 756,
      "1960": 757,
      "42": 758,
      "1945": 759,
      "Li": 760,
      "ver": 761,
      "qia": 762,
      "1988": 763,
      "ty": 764,
      "1989": 765,
      "69": 766,
      "Ro": 767,
      "is": 768,
      "run": 769,
      "SEE": 770,
      "niang": 771,
      "INSEE": 772,
      "ho": 773,
      "59": 774,
      "43": 775,
      "66": 776,
      "57": 777,
      "1985": 778,
      "99": 779,
      "SA": 780,
      "ãĢİ": 781,
      "ãĢı": 782,
      "ct": 783,
      "1984": 784,
      "41": 785,
      "88": 786,
      "1986": 787,
      "wi": 788,
      "ol": 789,
      "ws": 790,
      "TV": 791,
      "ry": 792,
      "150": 793,
      "Me": 794,
      "nd": 795,
      "400": 796,
      "1987": 797,
      "78": 798,
      "1982": 799,
      "56": 800,
      "beng": 801,
      "Vi": 802,
      "Pa": 803,
      "ts": 804,
      "1983": 805,
      "amp": 806,
      "NA": 807,
      "De": 808,
      "CD": 809,
      "gh": 810,
      "fi": 811,
      "weng": 812,
      "ber": 813,
      "77": 814,
      "Win": 815,
      "per": 816,
      "zuan": 817,
      "Sta": 818,
      "79": 819,
      "OS": 820,
      "Wi": 821,
      "Â°": 822,
      "ï½": 823,
      "der": 824,
      "180": 825,
      "BC": 826,
      "54": 827,
      "1979": 828,
      "61": 829,
      "1920": 830,
      "as": 831,
      "Mo": 832,
      "seng": 833,
      "98": 834,
      "52": 835,
      "You": 836,
      "1978": 837,
      "no": 838,
      "62": 839,
      "53": 840,
      "ly": 841,
      "shua": 842,
      "La": 843,
      "ï½ŀ": 844,
      "BA": 845,
      "1946": 846,
      "CO": 847,
      "51": 848,
      "1958": 849,
      "gi": 850,
      "Jo": 851,
      "1981": 852,
      "1972": 853,
      "1948": 854,
      "Le": 855,
      "tw": 856,
      "AM": 857,
      "63": 858,
      "AR": 859,
      "ction": 860,
      "1941": 861,
      "BS": 862,
      "Ga": 863,
      "1930": 864,
      "Da": 865,
      "Pro": 866,
      "Te": 867,
      "76": 868,
      "hans": 869,
      "1940": 870,
      "1937": 871,
      "1976": 872,
      "1944": 873,
      "Ja": 874,
      "89": 875,
      "us": 876,
      "Di": 877,
      "Windo": 878,
      "1975": 879,
      "ï¼ı": 880,
      "1968": 881,
      "hk": 882,
      "con": 883,
      "Fi": 884,
      "um": 885,
      "Si": 886,
      "1000": 887,
      "Windows": 888,
      "95": 889,
      "87": 890,
      "nal": 891,
      "Mar": 892,
      "1966": 893,
      "rd": 894,
      "85": 895,
      "Ne": 896,
      "Ra": 897,
      "ki": 898,
      "600": 899,
      "120": 900,
      "1947": 901,
      "Se": 902,
      "AC": 903,
      "1956": 904,
      "1964": 905,
      "Be": 906,
      "1942": 907,
      "Ã©": 908,
      "1955": 909,
      "1952": 910,
      "IS": 911,
      "ad": 912,
      "1939": 913,
      "1938": 914,
      "72": 915,
      "ur": 916,
      "74": 917,
      "Ca": 918,
      "va": 919,
      "1973": 920,
      "1974": 921,
      "1954": 922,
      "Ar": 923,
      "Al": 924,
      "ED": 925,
      "1900": 926,
      "--": 927,
      "AP": 928,
      "1943": 929,
      "To": 930,
      "1977": 931,
      "ld": 932,
      "1971": 933,
      "cen": 934,
      "lay": 935,
      "1967": 936,
      "Ba": 937,
      "IC": 938,
      "800": 939,
      "Po": 940,
      "Lo": 941,
      "ER": 942,
      "zhua": 943,
      "sta": 944,
      "86": 945,
      "1959": 946,
      "Bo": 947,
      "tt": 948,
      "1965": 949,
      "JR": 950,
      "1969": 951,
      "Fa": 952,
      "ãĥ»": 953,
      "ÃĹ": 954,
      "ID": 955,
      "Bi": 956,
      "son": 957,
      "1936": 958,
      "160": 959,
      "97": 960,
      "1953": 961,
      "Sa": 962,
      "MA": 963,
      "1962": 964,
      "1961": 965,
      "nen": 966,
      "Na": 967,
      "âĶ": 968,
      "So": 969,
      "1935": 970,
      "com": 971,
      "Ho": 972,
      "tic": 973,
      "96": 974,
      "ON": 975,
      "ï¼ħ": 976,
      "1951": 977,
      "St": 978,
      "1957": 979,
      "1963": 980,
      "Tu": 981,
      "âĶĢ": 982,
      "fe": 983,
      "so": 984,
      "ment": 985,
      "84": 986,
      "Hi": 987,
      "2026": 988,
      "82": 989,
      "Do": 990,
      "mer": 991,
      "Ri": 992,
      "73": 993,
      "nt": 994,
      "94": 995,
      "92": 996,
      "Ki": 997,
      "Ha": 998,
      "nang": 999,
      "one": 1000,
      "IP": 1001,
      "AN": 1002,
      "ls": 1003,
      "1933": 1004,
      "1931": 1005,
      "les": 1006,
      "71": 1007,
      "nuan": 1008,
      "Com": 1009,
      "83": 1010,
      "93": 1011,
      "ted": 1012,
      "Su": 1013,
      "81": 1014,
      "Ti": 1015,
      "Mu": 1016,
      "1918": 1017,
      "Ni": 1018,
      "HD": 1019,
      "Uni": 1020,
      "1928": 1021,
      "pp": 1022,
      "1932": 1023,
      "Cha": 1024,
      "We": 1025,
      "ys": 1026,
      "MV": 1027,
      "SS": 1028,
      "110": 1029,
      "IT": 1030,
      "1912": 1031,
      "No": 1032,
      "1929": 1033,
      "1927": 1034,
      "1934": 1035,
      "cn": 1036,
      "700": 1037,
      "go": 1038,
      "zei": 1039,
      "ght": 1040,
      "ster": 1041,
      "250": 1042,
      "91": 1043,
      "rt": 1044,
      "lli": 1045,
      "1924": 1046,
      "ris": 1047,
      "...": 1048,
      "1919": 1049,
      "nve": 1050,
      "130": 1051,
      "Pi": 1052,
      "1925": 1053,
      "Gi": 1054,
      "PS": 1055,
      "by": 1056,
      "ed": 1057,
      "mes": 1058,
      "An": 1059,
      "PC": 1060,
      "140": 1061,
      "AS": 1062,
      "Play": 1063,
      "1914": 1064,
      "km": 1065,
      "DV": 1066,
      "tio": 1067,
      "YouTu": 1068,
      "SM": 1069,
      "ble": 1070,
      "gra": 1071,
      "ko": 1072,
      "1911": 1073,
      "Con": 1074,
      "Ch": 1075,
      "lla": 1076,
      "1926": 1077,
      "lle": 1078,
      "Ge": 1079,
      "Par": 1080,
      "id": 1081,
      "Ta": 1082,
      "1922": 1083,
      "Lin": 1084,
      "mp": 1085,
      "1917": 1086,
      "He": 1087,
      "Ka": 1088,
      "ET": 1089,
      "NBA": 1090,
      "wn": 1091,
      "IV": 1092,
      "EN": 1093,
      "1923": 1094,
      "1921": 1095,
      "shai": 1096,
      "Goo": 1097,
      "chuo": 1098,
      "170": 1099,
      "à¸": 1100,
      "EC": 1101,
      "MS": 1102,
      "ali": 1103,
      "AL": 1104,
      "ph": 1105,
      "section": 1106,
      "YouTube": 1107,
      "EP": 1108,
      "BL": 1109,
      "1913": 1110,
      "Car": 1111,
      "Bu": 1112,
      "zen": 1113,
      "HK": 1114,
      "we": 1115,
      "hn": 1116,
      "mm": 1117,
      "ven": 1118,
      "hant": 1119,
      "âĨ": 1120,
      "1909": 1121,
      "sion": 1122,
      "Inter": 1123,
      "cro": 1124,
      "MP": 1125,
      "AI": 1126,
      "Wor": 1127,
      "Pe": 1128,
      "ds": 1129,
      "US": 1130,
      "pro": 1131,
      "DVD": 1132,
      "ok": 1133,
      "3000": 1134,
      "En": 1135,
      "1910": 1136,
      "DS": 1137,
      "RO": 1138,
      "cou": 1139,
      "Ste": 1140,
      "sis": 1141,
      "112": 1142,
      "Go": 1143,
      "rk": 1144,
      "AK": 1145,
      "RE": 1146,
      "1916": 1147,
      "Wa": 1148,
      "lia": 1149,
      "ãĥ¼": 1150,
      "Station": 1151,
      "For": 1152,
      "Net": 1153,
      "ff": 1154,
      "Î±": 1155,
      "oft": 1156,
      "ine": 1157,
      "den": 1158,
      "lor": 1159,
      "rea": 1160,
      "tional": 1161,
      "gn": 1162,
      "ture": 1163,
      "gle": 1164,
      "CP": 1165,
      "UN": 1166,
      "âĪ": 1167,
      "ard": 1168,
      "1915": 1169,
      "gin": 1170,
      "1905": 1171,
      "ps": 1172,
      "FC": 1173,
      "cal": 1174,
      "vo": 1175,
      "dia": 1176,
      "My": 1177,
      "CN": 1178,
      "âĦ": 1179,
      "âĨĴ": 1180,
      "our": 1181,
      "ers": 1182,
      "1901": 1183,
      "ent": 1184,
      "Au": 1185,
      "DNA": 1186,
      "Ex": 1187,
      "âĢ§": 1188,
      "900": 1189,
      "end": 1190,
      "HR": 1191,
      "dice": 1192,
      ".&": 1193,
      "ther": 1194,
      "tal": 1195,
      "CH": 1196,
      "TA": 1197,
      "TO": 1198,
      "1906": 1199,
      "1904": 1200,
      "AV": 1201,
      "tes": 1202,
      "MO": 1203,
      "jiong": 1204,
      "John": 1205,
      "my": 1206,
      "eri": 1207,
      "codice": 1208,
      "Man": 1209,
      "âĦĥ": 1210,
      "dy": 1211,
      "PlayStation": 1212,
      "Chi": 1213,
      "05": 1214,
      "CC": 1215,
      "tive": 1216,
      "diu": 1217,
      "And": 1218,
      "1907": 1219,
      "dio": 1220,
      "1908": 1221,
      "Google": 1222,
      "AG": 1223,
      "Ci": 1224,
      "EST": 1225,
      "MI": 1226,
      "SO": 1227,
      "LE": 1228,
      "sic": 1229,
      "ree": 1230,
      "BO": 1231,
      "int": 1232,
      "wit": 1233,
      "BBC": 1234,
      "Sch": 1235,
      "AD": 1236,
      "IG": 1237,
      "land": 1238,
      "III": 1239,
      "cri": 1240,
      "ton": 1241,
      "1500": 1242,
      "5000": 1243,
      "cy": 1244,
      "round": 1245,
      "wer": 1246,
      "IST": 1247,
      "ms": 1248,
      "ron": 1249,
      "ME": 1250,
      "CR": 1251,
      "ul": 1252,
      "3D": 1253,
      "je": 1254,
      "IA": 1255,
      "ley": 1256,
      "105": 1257,
      "au": 1258,
      "Ð°": 1259,
      "ria": 1260,
      "101": 1261,
      "1903": 1262,
      "tor": 1263,
      "GB": 1264,
      "van": 1265,
      "09": 1266,
      "TE": 1267,
      "Lu": 1268,
      "1902": 1269,
      "BD": 1270,
      "NC": 1271,
      "Pri": 1272,
      "Fe": 1273,
      "xt": 1274,
      "350": 1275,
      "pou": 1276,
      "Ã¡": 1277,
      "SAO": 1278,
      "des": 1279,
      "DC": 1280,
      "ja": 1281,
      "Î²": 1282,
      "cke": 1283,
      "B1900": 1284,
      "book": 1285,
      "hat": 1286,
      "ES": 1287,
      "all": 1288,
      "BM": 1289,
      "ï¼İ": 1290,
      "ãĥ³": 1291,
      "Ru": 1292,
      "ner": 1293,
      "1898": 1294,
      "res": 1295,
      "06": 1296,
      "118": 1297,
      "op": 1298,
      "ãģ®": 1299,
      "360": 1300,
      "DR": 1301,
      "New": 1302,
      "01": 1303,
      "DA": 1304,
      "Hu": 1305,
      "Open": 1306,
      "1895": 1307,
      "ger": 1308,
      "125": 1309,
      "Sho": 1310,
      "HO": 1311,
      "MC": 1312,
      "San": 1313,
      "ATP": 1314,
      "Micro": 1315,
      "ctor": 1316,
      "Ð¾": 1317,
      "108": 1318,
      "ft": 1319,
      "cor": 1320,
      "os": 1321,
      "NG": 1322,
      "Ke": 1323,
      "clu": 1324,
      "gy": 1325,
      "gram": 1326,
      "pri": 1327,
      "ward": 1328,
      "sty": 1329,
      "IF": 1330,
      "Cu": 1331,
      "Fran": 1332,
      "One": 1333,
      "net": 1334,
      "soft": 1335,
      "ker": 1336,
      "pt": 1337,
      "âĪĴ": 1338,
      "07": 1339,
      "08": 1340,
      "230": 1341,
      "Face": 1342,
      "104": 1343,
      "pace": 1344,
      "lspan": 1345,
      "Cor": 1346,
      "Per": 1347,
      "Bar": 1348,
      "World": 1349,
      "App": 1350,
      "EDT": 1351,
      "ISTAT": 1352,
      "cuan": 1353,
      "Love": 1354,
      "Ko": 1355,
      "à¤": 1356,
      "Har": 1357,
      "NO": 1358,
      "Stu": 1359,
      "1896": 1360,
      "LL": 1361,
      "ux": 1362,
      "109": 1363,
      "DP": 1364,
      "las": 1365,
      "AA": 1366,
      "fli": 1367,
      "RI": 1368,
      "Ju": 1369,
      "pha": 1370,
      "Ser": 1371,
      "lus": 1372,
      "line": 1373,
      "RT": 1374,
      "tri": 1375,
      "SP": 1376,
      "EX": 1377,
      "B48": 1378,
      "106": 1379,
      "1890": 1380,
      "rai": 1381,
      "sti": 1382,
      "mon": 1383,
      "CST": 1384,
      "ML": 1385,
      "od": 1386,
      "uni": 1387,
      "CDT": 1388,
      "bert": 1389,
      "Je": 1390,
      "rs": 1391,
      "rus": 1392,
      "red": 1393,
      "DO": 1394,
      "Pu": 1395,
      "ky": 1396,
      "HE": 1397,
      "Cou": 1398,
      "ation": 1399,
      "Mon": 1400,
      "04": 1401,
      "4000": 1402,
      "115": 1403,
      "1200": 1404,
      "M1": 1405,
      "Pre": 1406,
      "03": 1407,
      "ler": 1408,
      "GP": 1409,
      "del": 1410,
      "CE": 1411,
      "Äģ": 1412,
      "Live": 1413,
      "begin": 1414,
      "1889": 1415,
      "ool": 1416,
      "Davi": 1417,
      "with": 1418,
      "ara": 1419,
      "1899": 1420,
      "colspan": 1421,
      "tain": 1422,
      "back": 1423,
      "1871": 1424,
      "RS": 1425,
      "sto": 1426,
      "Facebook": 1427,
      "Ed": 1428,
      "Sha": 1429,
      "Microsoft": 1430,
      "mic": 1431,
      "tem": 1432,
      "âĢĭ": 1433,
      "240": 1434,
      "1600": 1435,
      "LO": 1436,
      "Tri": 1437,
      "ten": 1438,
      "tin": 1439,
      "BE": 1440,
      "low": 1441,
      "102": 1442,
      "box": 1443,
      "clude": 1444,
      "Ad": 1445,
      "TT": 1446,
      "1897": 1447,
      "Sou": 1448,
      "ser": 1449,
      "NH": 1450,
      "EE": 1451,
      "Du": 1452,
      "ces": 1453,
      "PP": 1454,
      "117": 1455,
      "SC": 1456,
      "val": 1457,
      "02": 1458,
      "por": 1459,
      "cm": 1460,
      "Mac": 1461,
      "style": 1462,
      "Che": 1463,
      "rst": 1464,
      "103": 1465,
      "AKB48": 1466,
      "Dan": 1467,
      "MD": 1468,
      "Nor": 1469,
      "Ph": 1470,
      "107": 1471,
      "ral": 1472,
      "Her": 1473,
      "On": 1474,
      "pre": 1475,
      "ring": 1476,
      "As": 1477,
      "are": 1478,
      "Willi": 1479,
      "tel": 1480,
      "Linux": 1481,
      "lis": 1482,
      "Ori": 1483,
      "ww": 1484,
      "Dis": 1485,
      "shuan": 1486,
      "gue": 1487,
      "mas": 1488,
      "450": 1489,
      "Ber": 1490,
      "VID": 1491,
      "127": 1492,
      "Music": 1493,
      "Is": 1494,
      "Ai": 1495,
      "Gre": 1496,
      "cer": 1497,
      "Ã¼": 1498,
      "tus": 1499,
      "Vo": 1500,
      "tra": 1501,
      "128": 1502,
      "flix": 1503,
      "CL": 1504,
      "Netflix": 1505,
      "Bro": 1506,
      "yo": 1507,
      "1894": 1508,
      "Game": 1509,
      "220": 1510,
      "Can": 1511,
      "Gra": 1512,
      "nin": 1513,
      "ref": 1514,
      "Ð½": 1515,
      "William": 1516,
      "Bri": 1517,
      "IL": 1518,
      "align": 1519,
      "SH": 1520,
      "bli": 1521,
      "ory": 1522,
      "Or": 1523,
      "Twit": 1524,
      "1880": 1525,
      "Red": 1526,
      "old": 1527,
      "ÃŃ": 1528,
      "RNA": 1529,
      "136": 1530,
      "PG": 1531,
      "Ð¸": 1532,
      "ãģĦ": 1533,
      "rom": 1534,
      "TR": 1535,
      "Team": 1536,
      "1800": 1537,
      "ãĤ¹": 1538,
      "Univer": 1539,
      "ground": 1540,
      "ia": 1541,
      "1885": 1542,
      "len": 1543,
      "114": 1544,
      "ãĤĵ": 1545,
      "Hz": 1546,
      "color": 1547,
      "Gen": 1548,
      "Ty": 1549,
      "116": 1550,
      "280": 1551,
      "UR": 1552,
      "ple": 1553,
      "Ðµ": 1554,
      "113": 1555,
      "1886": 1556,
      "ein": 1557,
      "ãĤ¤": 1558,
      "TS": 1559,
      "PO": 1560,
      "1893": 1561,
      "lar": 1562,
      "ex": 1563,
      "rn": 1564,
      "yn": 1565,
      "Mc": 1566,
      "name": 1567,
      "111": 1568,
      "SL": 1569,
      "ãĦ": 1570,
      "Super": 1571,
      "She": 1572,
      "stra": 1573,
      "All": 1574,
      "Gu": 1575,
      "cial": 1576,
      "lass": 1577,
      "âĢ»": 1578,
      "David": 1579,
      "135": 1580,
      "ject": 1581,
      "Ac": 1582,
      "260": 1583,
      "Cen": 1584,
      "Eu": 1585,
      "lf": 1586,
      "1860": 1587,
      "port": 1588,
      "ham": 1589,
      "Geor": 1590,
      "cho": 1591,
      "national": 1592,
      "Char": 1593,
      "Un": 1594,
      "WTA": 1595,
      "lver": 1596,
      "dge": 1597,
      "work": 1598,
      "HC": 1599,
      "Th": 1600,
      "tro": 1601,
      "School": 1602,
      "Ban": 1603,
      "ks": 1604,
      "sso": 1605,
      "tch": 1606,
      "tis": 1607,
      "1888": 1608,
      "Mor": 1609,
      "qui": 1610,
      "text": 1611,
      "SD": 1612,
      "Ã³": 1613,
      "-.": 1614,
      "UA": 1615,
      "roup": 1616,
      "lly": 1617,
      "cation": 1618,
      "ony": 1619,
      "background": 1620,
      "Meta": 1621,
      "roid": 1622,
      "ac": 1623,
      "meri": 1624,
      "Tra": 1625,
      "129": 1626,
      "GO": 1627,
      "Sto": 1628,
      "dis": 1629,
      "1870": 1630,
      "GN": 1631,
      "ï¹": 1632,
      "ream": 1633,
      "1887": 1634,
      "Show": 1635,
      "Qu": 1636,
      "cle": 1637,
      "1868": 1638,
      "6000": 1639,
      "Ã¶": 1640,
      "ÑĢ": 1641,
      "1883": 1642,
      "NF": 1643,
      "VA": 1644,
      "mar": 1645,
      "Ver": 1646,
      "day": 1647,
      "320": 1648,
      "Xbox": 1649,
      "CS": 1650,
      "was": 1651,
      "Ang": 1652,
      "NHK": 1653,
      "Tho": 1654,
      "AF": 1655,
      "Fo": 1656,
      "Twitter": 1657,
      "DD": 1658,
      "lyin": 1659,
      "onlyin": 1660,
      "onlyinclude": 1661,
      "++": 1662,
      "KP": 1663,
      "don": 1664,
      "1864": 1665,
      "âĢ¢": 1666,
      "Gir": 1667,
      "ION": 1668,
      "1884": 1669,
      "119": 1670,
      "Bla": 1671,
      "RC": 1672,
      "UE": 1673,
      "ain": 1674,
      "miu": 1675,
      "122": 1676,
      "Va": 1677,
      "2500": 1678,
      "1892": 1679,
      "210": 1680,
      "A1": 1681,
      "center": 1682,
      "cket": 1683,
      "155": 1684,
      "ISO": 1685,
      "âħ": 1686,
      "145": 1687,
      "stri": 1688,
      "1891": 1689,
      "650": 1690,
      "way": 1691,
      "Android": 1692,
      "NS": 1693,
      "Clu": 1694,
      "ãĢķ": 1695,
      "OR": 1696,
      "ffi": 1697,
      "htt": 1698,
      "mber": 1699,
      "ãĢĶ": 1700,
      "1850": 1701,
      "Fu": 1702,
      "Phi": 1703,
      "age": 1704,
      "mb": 1705,
      "win": 1706,
      "xy": 1707,
      "Cy": 1708,
      "Ku": 1709,
      "king": 1710,
      "International": 1711,
      "sia": 1712,
      "1867": 1713,
      "logy": 1714,
      "Ce": 1715,
      "IM": 1716,
      "ãĥĪ": 1717,
      "1879": 1718,
      "Star": 1719,
      "rie": 1720,
      "James": 1721,
      "Enter": 1722,
      "cc": 1723,
      "ller": 1724,
      "380": 1725,
      "AB": 1726,
      "UP": 1727,
      "ney": 1728,
      "Eng": 1729,
      "1876": 1730,
      "Spe": 1731,
      "War": 1732,
      "ny": 1733,
      "Studio": 1734,
      "zo": 1735,
      "George": 1736,
      "Ab": 1737,
      "Ani": 1738,
      "1875": 1739,
      "1861": 1740,
      "270": 1741,
      "Universi": 1742,
      "Games": 1743,
      "Bra": 1744,
      "IR": 1745,
      "126": 1746,
      "NT": 1747,
      "Ã¨": 1748,
      "time": 1749,
      "art": 1750,
      "Es": 1751,
      "Por": 1752,
      "NGC": 1753,
      "stru": 1754,
      "ãĥ«": 1755,
      "1873": 1756,
      "Hen": 1757,
      "MG": 1758,
      "phi": 1759,
      "ero": 1760,
      "123": 1761,
      "ãĥ©": 1762,
      "PV": 1763,
      "ns": 1764,
      "Ben": 1765,
      "Dra": 1766,
      "HT": 1767,
      "Colle": 1768,
      "Group": 1769,
      "Pan": 1770,
      "car": 1771,
      "mpi": 1772,
      "rans": 1773,
      "Sun": 1774,
      "it": 1775,
      "ut": 1776,
      "168": 1777,
      "cus": 1778,
      "COVID": 1779,
      "Blo": 1780,
      "FM": 1781,
      "MB": 1782,
      "Sys": 1783,
      "ous": 1784,
      "sed": 1785,
      "1865": 1786,
      "Club": 1787,
      "AO": 1788,
      "Ameri": 1789,
      "PL": 1790,
      "her": 1791,
      "im": 1792,
      "121": 1793,
      "DE": 1794,
      "Don": 1795,
      "that": 1796,
      "Air": 1797,
      "Center": 1798,
      "175": 1799,
      "ary": 1800,
      "ãģĨ": 1801,
      "Web": 1802,
      "H2": 1803,
      "YP": 1804,
      "from": 1805,
      "Ã¤": 1806,
      "1400": 1807,
      "MAX": 1808,
      "critic": 1809,
      "Ale": 1810,
      "tz": 1811,
      "138": 1812,
      "228": 1813,
      "Han": 1814,
      "TP": 1815,
      "1848": 1816,
      "1862": 1817,
      "330": 1818,
      "124": 1819,
      "ãĤ¢": 1820,
      "1881": 1821,
      "1882": 1822,
      "737": 1823,
      "Lea": 1824,
      "Ali": 1825,
      "UC": 1826,
      "hy": 1827,
      "1878": 1828,
      "550": 1829,
      "Ve": 1830,
      "sau": 1831,
      "bri": 1832,
      "bit": 1833,
      "1872": 1834,
      "El": 1835,
      "LC": 1836,
      "Insta": 1837,
      "Min": 1838,
      "ration": 1839,
      "INK": 1840,
      "Metacritic": 1841,
      "eld": 1842,
      "Oricon": 1843,
      "Sai": 1844,
      "Whi": 1845,
      "sco": 1846,
      "156": 1847,
      "Boo": 1848,
      "MTV": 1849,
      "sp": 1850,
      "165": 1851,
      "LED": 1852,
      "1840": 1853,
      "IVE": 1854,
      "Ya": 1855,
      "cre": 1856,
      "kin": 1857,
      "750": 1858,
      "ãĥĥ": 1859,
      "1300": 1860,
      "ãģĹ": 1861,
      "Hy": 1862,
      "137": 1863,
      "Micha": 1864,
      "Mark": 1865,
      "7000": 1866,
      "Hel": 1867,
      "era": 1868,
      "DOS": 1869,
      "SQ": 1870,
      "UB": 1871,
      "229": 1872,
      "IU": 1873,
      "GDP": 1874,
      "King": 1875,
      "OK": 1876,
      "Ñģ": 1877,
      "type": 1878,
      "Gran": 1879,
      "nic": 1880,
      "High": 1881,
      "Tai": 1882,
      "ast": 1883,
      "152": 1884,
      "TVB": 1885,
      "Chris": 1886,
      "159": 1887,
      "1877": 1888,
      "Robert": 1889,
      "Chan": 1890,
      "py": 1891,
      "sy": 1892,
      "tle": 1893,
      "âĹ": 1894,
      "cien": 1895,
      "1866": 1896,
      "Hou": 1897,
      "iOS": 1898,
      "ot": 1899,
      "Ð»": 1900,
      "Produ": 1901,
      "SK": 1902,
      "Shi": 1903,
      "silver": 1904,
      "1869": 1905,
      "âĢ²": 1906,
      "thi": 1907,
      "THE": 1908,
      "Up": 1909,
      "Day": 1910,
      "Cro": 1911,
      "DM": 1912,
      "Ele": 1913,
      "Stre": 1914,
      "Peter": 1915,
      "It": 1916,
      "NET": 1917,
      "tter": 1918,
      "Free": 1919,
      "Jan": 1920,
      "Ðº": 1921,
      "139": 1922,
      "Phone": 1923,
      "Instagram": 1924,
      "At": 1925,
      "BI": 1926,
      "Sur": 1927,
      "pla": 1928,
      "BLAC": 1929,
      "Type": 1930,
      "Ð²": 1931,
      "ora": 1932,
      "Apple": 1933,
      "DJ": 1934,
      "Sy": 1935,
      "Wal": 1936,
      "CG": 1937,
      "WE": 1938,
      "code": 1939,
      "ãĤ¯": 1940,
      "Michael": 1941,
      "DF": 1942,
      "Sh": 1943,
      "ï¸": 1944,
      "1100": 1945,
      "cia": 1946,
      "158": 1947,
      "ness": 1948,
      "Big": 1949,
      "225": 1950,
      "Pla": 1951,
      "Pat": 1952,
      "Sam": 1953,
      "Ye": 1954,
      "vin": 1955,
      "nia": 1956,
      "305": 1957,
      "133": 1958,
      "INE": 1959,
      "Paul": 1960,
      "Tech": 1961,
      "National": 1962,
      "tte": 1963,
      "oun": 1964,
      "nis": 1965,
      "ãĥª": 1966,
      "Award": 1967,
      "RA": 1968,
      "YO": 1969,
      "132": 1970,
      "Steam": 1971,
      "205": 1972,
      "1863": 1973,
      "ray": 1974,
      "IE": 1975,
      "pany": 1976,
      "Media": 1977,
      "tainment": 1978,
      "215": 1979,
      "Br": 1980,
      "University": 1981,
      "FO": 1982,
      "Lou": 1983,
      "Val": 1984,
      "ensis": 1985,
      "tions": 1986,
      "Bill": 1987,
      "phy": 1988,
      "CA": 1989,
      "F1": 1990,
      "KBS": 1991,
      "bur": 1992,
      "148": 1993,
      "131": 1994,
      "Smi": 1995,
      "kg": 1996,
      "166": 1997,
      "1874": 1998,
      "XX": 1999,
      "deo": 2000,
      "1858": 2001,
      "par": 2002,
      "EF": 2003,
      "sor": 2004,
      "rin": 2005,
      "rum": 2006,
      "Cho": 2007,
      "clo": 2008,
      "147": 2009,
      "Hol": 2010,
      "mini": 2011,
      "Fri": 2012,
      "256": 2013,
      "ãģĭ": 2014,
      "M2": 2015,
      "1830": 2016,
      "CBS": 2017,
      "UT": 2018,
      "gon": 2019,
      "lm": 2020,
      "1851": 2021,
      "Lee": 2022,
      "BN": 2023,
      "GA": 2024,
      "HI": 2025,
      "UI": 2026,
      "lip": 2027,
      "ric": 2028,
      "192": 2029,
      "Park": 2030,
      "td": 2031,
      "Î¼": 2032,
      "8000": 2033,
      "Mer": 2034,
      "now": 2035,
      "Entertainment": 2036,
      "310": 2037,
      "143": 2038,
      "his": 2039,
      "Mk": 2040,
      "1855": 2041,
      "City": 2042,
      "Black": 2043,
      "Wil": 2044,
      "Power": 2045,
      "Chu": 2046,
      "EM": 2047,
      "IX": 2048,
      "Space": 2049,
      "gar": 2050,
      "whi": 2051,
      "GM": 2052,
      "RAM": 2053,
      "ð«": 2054,
      "185": 2055,
      "1859": 2056,
      "tho": 2057,
      "STAR": 2058,
      "Jack": 2059,
      "Charles": 2060,
      "134": 2061,
      "Java": 2062,
      "Dire": 2063,
      "ABC": 2064,
      "Gar": 2065,
      "Ter": 2066,
      "spe": 2067,
      "ship": 2068,
      "1854": 2069,
      "146": 2070,
      "301": 2071,
      "1700": 2072,
      "inter": 2073,
      "Viu": 2074,
      "stitu": 2075,
      "370": 2076,
      "Fla": 2077,
      "Ken": 2078,
      "1857": 2079,
      "Alpha": 2080,
      "Lan": 2081,
      "Stan": 2082,
      "out": 2083,
      "los": 2084,
      "Dar": 2085,
      "Ø§": 2086,
      "290": 2087,
      "ãģª": 2088,
      "Life": 2089,
      "ï¸°": 2090,
      "vs": 2091,
      "Î³": 2092,
      "214": 2093,
      "420": 2094,
      "Cam": 2095,
      "ÑĤ": 2096,
      "Recor": 2097,
      "Company": 2098,
      "Fun": 2099,
      "Î¿": 2100,
      "ãĢľ": 2101,
      "1856": 2102,
      "1853": 2103,
      "Project": 2104,
      "Dream": 2105,
      "Fan": 2106,
      "Sen": 2107,
      "dium": 2108,
      "ãģŁ": 2109,
      "first": 2110,
      "Time": 2111,
      "Thomas": 2112,
      "House": 2113,
      "Pen": 2114,
      "144": 2115,
      "Saint": 2116,
      "FA": 2117,
      "OVA": 2118,
      "Py": 2119,
      "Spi": 2120,
      "Cent": 2121,
      "VO": 2122,
      "ek": 2123,
      "face": 2124,
      "A2": 2125,
      "IO": 2126,
      "dd": 2127,
      "von": 2128,
      "167": 2129,
      "Japan": 2130,
      "Street": 2131,
      "3A": 2132,
      "Cla": 2133,
      "HS": 2134,
      "SBS": 2135,
      "rence": 2136,
      "bili": 2137,
      "rist": 2138,
      "chard": 2139,
      "1841": 2140,
      "very": 2141,
      "Euro": 2142,
      "LP": 2143,
      "Plan": 2144,
      "ak": 2145,
      "ie": 2146,
      "rp": 2147,
      "bal": 2148,
      "ety": 2149,
      "Alex": 2150,
      "340": 2151,
      "PM": 2152,
      "bun": 2153,
      "if": 2154,
      "lue": 2155,
      "BLACKP": 2156,
      "Sco": 2157,
      "Tal": 2158,
      "dra": 2159,
      "cher": 2160,
      "208": 2161,
      "ses": 2162,
      "1815": 2163,
      "178": 2164,
      "Soci": 2165,
      "CPU": 2166,
      "BLACKPINK": 2167,
      "223": 2168,
      "space": 2169,
      "850": 2170,
      "LGB": 2171,
      "Sing": 2172,
      "Spo": 2173,
      "ew": 2174,
      "tta": 2175,
      "cess": 2176,
      "ood": 2177,
      "www": 2178,
      "IBM": 2179,
      "zer": 2180,
      "mis": 2181,
      "Art": 2182,
      "ports": 2183,
      "Bat": 2184,
      "Bur": 2185,
      "SF": 2186,
      "207": 2187,
      "mation": 2188,
      "wor": 2189,
      "171": 2190,
      "235": 2191,
      "ãģ¨": 2192,
      "ãģ¾": 2193,
      "LIVE": 2194,
      "SU": 2195,
      "Soft": 2196,
      "203": 2197,
      "B2": 2198,
      "Fer": 2199,
      "VE": 2200,
      "SQL": 2201,
      "tha": 2202,
      "1846": 2203,
      "164": 2204,
      "College": 2205,
      "Am": 2206,
      "cra": 2207,
      "157": 2208,
      "lter": 2209,
      "vice": 2210,
      "berg": 2211,
      "American": 2212,
      "BR": 2213,
      "LT": 2214,
      "NE": 2215,
      "Pol": 2216,
      "141": 2217,
      "ford": 2218,
      "ICE": 2219,
      "Ama": 2220,
      "B1": 2221,
      "PE": 2222,
      "nvi": 2223,
      "176": 2224,
      "ING": 2225,
      "Girls": 2226,
      "Asso": 2227,
      "Ger": 2228,
      "LS": 2229,
      "ste": 2230,
      "Â²": 2231,
      "turn": 2232,
      "publi": 2233,
      "self": 2234,
      "1812": 2235,
      "1845": 2236,
      "1844": 2237,
      "stro": 2238,
      "Road": 2239,
      "not": 2240,
      "Offi": 2241,
      "Wo": 2242,
      "dro": 2243,
      "ball": 2244,
      "231": 2245,
      "arch": 2246,
      "cture": 2247,
      "class": 2248,
      "lon": 2249,
      "esti": 2250,
      "Rock": 2251,
      "Cl": 2252,
      "HF": 2253,
      "Ltd": 2254,
      "M3": 2255,
      "play": 2256,
      "lea": 2257,
      "board": 2258,
      "ãĤĬ": 2259,
      "witch": 2260,
      "LGBT": 2261,
      "llo": 2262,
      "sg": 2263,
      "here": 2264,
      "209": 2265,
      "ãģį": 2266,
      "NASA": 2267,
      "Tele": 2268,
      "GNU": 2269,
      "LA": 2270,
      "Van": 2271,
      "gs": 2272,
      "tation": 2273,
      "Jose": 2274,
      "well": 2275,
      "Tour": 2276,
      "IUCN": 2277,
      "Smith": 2278,
      "216": 2279,
      "PN": 2280,
      "Rou": 2281,
      "Îº": 2282,
      "1849": 2283,
      "153": 2284,
      "CT": 2285,
      "NBC": 2286,
      "204": 2287,
      "238": 2288,
      "nes": 2289,
      "Good": 2290,
      "Production": 2291,
      "BB": 2292,
      "Cal": 2293,
      "GT": 2294,
      "bra": 2295,
      "ded": 2296,
      "Video": 2297,
      "O2": 2298,
      "ep": 2299,
      "fer": 2300,
      "Ïĥ": 2301,
      "mited": 2302,
      "pie": 2303,
      "row": 2304,
      "Hall": 2305,
      "PR": 2306,
      "dae": 2307,
      "206": 2308,
      "thy": 2309,
      "Pad": 2310,
      "Gala": 2311,
      "Boy": 2312,
      "eries": 2313,
      "460": 2314,
      "Af": 2315,
      "Tor": 2316,
      "set": 2317,
      "1814": 2318,
      "vel": 2319,
      "ders": 2320,
      "saurus": 2321,
      "218": 2322,
      "Eli": 2323,
      "Tur": 2324,
      "wood": 2325,
      "Jean": 2326,
      "SI": 2327,
      "Ten": 2328,
      "nel": 2329,
      "vision": 2330,
      "IGN": 2331,
      "Act": 2332,
      "LD": 2333,
      "PA": 2334,
      "fra": 2335,
      "âĸ": 2336,
      "Richard": 2337,
      "FF": 2338,
      "Kar": 2339,
      "WS": 2340,
      "om": 2341,
      "ÏĢ": 2342,
      "tar": 2343,
      "1847": 2344,
      "154": 2345,
      "ved": 2346,
      "580": 2347,
      "MBC": 2348,
      "side": 2349,
      "mac": 2350,
      "chem": 2351,
      "1843": 2352,
      "Best": 2353,
      "ptr": 2354,
      "System": 2355,
      "430": 2356,
      "Sky": 2357,
      "Zi": 2358,
      "rich": 2359,
      "cis": 2360,
      "177": 2361,
      "401": 2362,
      "lls": 2363,
      "410": 2364,
      "Fle": 2365,
      "sin": 2366,
      "mann": 2367,
      "ãĤ·": 2368,
      "NFL": 2369,
      "ViuTV": 2370,
      "Switch": 2371,
      "dar": 2372,
      "163": 2373,
      "AMD": 2374,
      "Digi": 2375,
      "API": 2376,
      "Para": 2377,
      "ICO": 2378,
      "Sma": 2379,
      "data": 2380,
      "ments": 2381,
      "1852": 2382,
      "162": 2383,
      "thon": 2384,
      "Max": 2385,
      "VII": 2386,
      "ced": 2387,
      "1820": 2388,
      "ãģı": 2389,
      "West": 2390,
      "Ag": 2391,
      "Glo": 2392,
      "Tun": 2393,
      "Vol": 2394,
      "ach": 2395,
      "zon": 2396,
      "142": 2397,
      "234": 2398,
      "star": 2399,
      "cript": 2400,
      "VR": 2401,
      "sys": 2402,
      "sign": 2403,
      "max": 2404,
      "172": 2405,
      "ãģĬ": 2406,
      "ãģķ": 2407,
      "Core": 2408,
      "Records": 2409,
      "640": 2410,
      "Met": 2411,
      "lti": 2412,
      "169": 2413,
      "3500": 2414,
      "this": 2415,
      "Limited": 2416,
      "Blue": 2417,
      "KC": 2418,
      "Ran": 2419,
      "T1": 2420,
      "cto": 2421,
      "Â±": 2422,
      "1839": 2423,
      "232": 2424,
      "Coun": 2425,
      "480": 2426,
      "CM": 2427,
      "179": 2428,
      "cade": 2429,
      "Inc": 2430,
      "Green": 2431,
      "use": 2432,
      "2030": 2433,
      "rio": 2434,
      "org": 2435,
      "149": 2436,
      "365": 2437,
      "Institu": 2438,
      "Lau": 2439,
      "lum": 2440,
      "tube": 2441,
      "1821": 2442,
      "war": 2443,
      "ãĥŃ": 2444,
      "ãģ¿": 2445,
      "Vir": 2446,
      "Unicode": 2447,
      "ROM": 2448,
      "CCTV": 2449,
      "390": 2450,
      "BU": 2451,
      "bus": 2452,
      "tia": 2453,
      "306": 2454,
      "222": 2455,
      "601": 2456,
      "ona": 2457,
      "173": 2458,
      "Bob": 2459,
      "EA": 2460,
      "Far": 2461,
      "Gui": 2462,
      "Ji": 2463,
      "PF": 2464,
      "Yu": 2465,
      "Ze": 2466,
      "kh": 2467,
      "rue": 2468,
      "bar": 2469,
      "ware": 2470,
      "247": 2471,
      "oot": 2472,
      "Hea": 2473,
      "Prin": 2474,
      "mpion": 2475,
      "Er": 2476,
      "KK": 2477,
      "Mr": 2478,
      "Ven": 2479,
      "XP": 2480,
      "gna": 2481,
      "jo": 2482,
      "1790": 2483,
      "ump": 2484,
      "211": 2485,
      "560": 2486,
      "OH": 2487,
      "SN": 2488,
      "zy": 2489,
      "ket": 2490,
      "ciation": 2491,
      "orn": 2492,
      "new": 2493,
      "ãĥ¬": 2494,
      "BF": 2495,
      "Pra": 2496,
      "VM": 2497,
      "tv": 2498,
      "off": 2499,
      "velo": 2500,
      "MU": 2501,
      "PD": 2502,
      "Ren": 2503,
      "Squ": 2504,
      "Scien": 2505,
      "183": 2506,
      "1795": 2507,
      "303": 2508,
      "Force": 2509,
      "âĹĭ": 2510,
      "PH": 2511,
      "Tan": 2512,
      "233": 2513,
      "ãģ¡": 2514,
      "1801": 2515,
      "213": 2516,
      "Trans": 2517,
      "tary": 2518,
      "ãĥŀ": 2519,
      "Heart": 2520,
      "USB": 2521,
      "Men": 2522,
      "bro": 2523,
      "174": 2524,
      "Pop": 2525,
      "ttle": 2526,
      "MVP": 2527,
      "Bel": 2528,
      "CK": 2529,
      "oper": 2530,
      "Ïģ": 2531,
      "áĢ": 2532,
      "ìĿ": 2533,
      "key": 2534,
      "186": 2535,
      "1838": 2536,
      "ors": 2537,
      "Fire": 2538,
      "Store": 2539,
      "520": 2540,
      "Cri": 2541,
      "DDR": 2542,
      "stan": 2543,
      "mily": 2544,
      "har": 2545,
      "cker": 2546,
      "Christ": 2547,
      "610": 2548,
      "Lon": 2549,
      "ab": 2550,
      "up": 2551,
      "161": 2552,
      "501": 2553,
      "ãĥī": 2554,
      "http": 2555,
      "224": 2556,
      "CF": 2557,
      "em": 2558,
      "iPad": 2559,
      "tto": 2560,
      "bile": 2561,
      "sub": 2562,
      "1813": 2563,
      "ãĤī": 2564,
      "Mag": 2565,
      "Data": 2566,
      "GE": 2567,
      "ÏĦ": 2568,
      "rity": 2569,
      "mor": 2570,
      "182": 2571,
      "1832": 2572,
      "1842": 2573,
      "255": 2574,
      "logi": 2575,
      "ason": 2576,
      "Society": 2577,
      "AE": 2578,
      "dth": 2579,
      "iPhone": 2580,
      "sur": 2581,
      "184": 2582,
      "ties": 2583,
      "ãĤ«": 2584,
      "dom": 2585,
      "Mini": 2586,
      "720": 2587,
      "KI": 2588,
      "Que": 2589,
      "Script": 2590,
      "ele": 2591,
      "gre": 2592,
      "âĺ": 2593,
      "late": 2594,
      "1836": 2595,
      "1793": 2596,
      "ãĤª": 2597,
      "Comic": 2598,
      "Intel": 2599,
      "KiHa": 2600,
      "Muse": 2601,
      "buntu": 2602,
      "221": 2603,
      "HBO": 2604,
      "MT": 2605,
      "Pin": 2606,
      "ffe": 2607,
      "mus": 2608,
      "1833": 2609,
      "1789": 2610,
      "cent": 2611,
      "Home": 2612,
      "tics": 2613,
      "River": 2614,
      "https": 2615,
      "Direct": 2616,
      "Association": 2617,
      "Galaxy": 2618,
      "Bal": 2619,
      "Dr": 2620,
      "DAM": 2621,
      "M4": 2622,
      "QQ": 2623,
      "ae": 2624,
      "search": 2625,
      "1835": 2626,
      "151": 2627,
      "ars": 2628,
      "ãĤ¿": 2629,
      "width": 2630,
      "peri": 2631,
      "tical": 2632,
      "League": 2633,
      "219": 2634,
      "217": 2635,
      "338": 2636,
      "FT": 2637,
      "JYP": 2638,
      "Qui": 2639,
      "Rai": 2640,
      "SR": 2641,
      "Ubuntu": 2642,
      "WA": 2643,
      "mg": 2644,
      "ðĲ": 2645,
      "ful": 2646,
      "âĢ°": 2647,
      "down": 2648,
      "1804": 2649,
      "ONE": 2650,
      "CEO": 2651,
      "470": 2652,
      "740": 2653,
      "830": 2654,
      "Bui": 2655,
      "fun": 2656,
      "ssi": 2657,
      "ving": 2658,
      "ned": 2659,
      "Martin": 2660,
      "Bank": 2661,
      "Henry": 2662,
      "Mai": 2663,
      "YG": 2664,
      "ÏĤ": 2665,
      "Ð´": 2666,
      "âī": 2667,
      "light": 2668,
      "bor": 2669,
      "mat": 2670,
      "Master": 2671,
      "Top": 2672,
      "Champion": 2673,
      "Dy": 2674,
      "Ear": 2675,
      "LINE": 2676,
      "MW": 2677,
      "Î½": 2678,
      "mal": 2679,
      "bel": 2680,
      "ART": 2681,
      "News": 2682,
      "China": 2683,
      "212": 2684,
      "DK": 2685,
      "Dou": 2686,
      "Em": 2687,
      "Sp": 2688,
      "Ñĥ": 2689,
      "unch": 2690,
      "1828": 2691,
      "core": 2692,
      "ãĤ³": 2693,
      "APAN": 2694,
      "Hot": 2695,
      "Part": 2696,
      "Network": 2697,
      "Gener": 2698,
      "FR": 2699,
      "Flo": 2700,
      "Long": 2701,
      "dor": 2702,
      "cil": 2703,
      "191": 2704,
      "rew": 2705,
      "302": 2706,
      "Young": 2707,
      "Billboard": 2708,
      "Office": 2709,
      "680": 2710,
      "Ada": 2711,
      "Epi": 2712,
      "Fra": 2713,
      "Gold": 2714,
      "MHz": 2715,
      "PI": 2716,
      "Song": 2717,
      "SNH": 2718,
      "nm": 2719,
      "plo": 2720,
      "Î¹": 2721,
      "table": 2722,
      "ries": 2723,
      "181": 2724,
      "1624": 2725,
      "237": 2726,
      "ãĤĭ": 2727,
      "Night": 2728,
      "Note": 2729,
      "Joseph": 2730,
      "SNH48": 2731,
      "FDA": 2732,
      "JAPAN": 2733,
      "PK": 2734,
      "à¹": 2735,
      "á¹": 2736,
      "pur": 2737,
      "1644": 2738,
      "308": 2739,
      "Code": 2740,
      "COM": 2741,
      "440": 2742,
      "Cra": 2743,
      "DB": 2744,
      "GR": 2745,
      "zz": 2746,
      "list": 2747,
      "tial": 2748,
      "led": 2749,
      "less": 2750,
      "10000": 2751,
      "1837": 2752,
      "part": 2753,
      "239": 2754,
      "ston": 2755,
      "1806": 2756,
      "Sir": 2757,
      "Radio": 2758,
      "United": 2759,
      "macOS": 2760,
      "CV": 2761,
      "U21": 2762,
      "Vis": 2763,
      "sing": 2764,
      "Ã¢": 2765,
      "Ã®": 2766,
      "Î´": 2767,
      "à¥": 2768,
      "âĳ": 2769,
      "def": 2770,
      "sus": 2771,
      "1819": 2772,
      "299": 2773,
      "346": 2774,
      "Regi": 2775,
      "HTML": 2776,
      "780": 2777,
      "East": 2778,
      "cs": 2779,
      "und": 2780,
      "1825": 2781,
      "245": 2782,
      "236": 2783,
      "505": 2784,
      "279": 2785,
      "ãģ«": 2786,
      "Mari": 2787,
      "540": 2788,
      "EV": 2789,
      "Gam": 2790,
      "H5": 2791,
      "Pal": 2792,
      "muni": 2793,
      "rpm": 2794,
      "325": 2795,
      "Yo": 2796,
      "tre": 2797,
      "right": 2798,
      "001": 2799,
      "1776": 2800,
      "ãģĺ": 2801,
      "Child": 2802,
      "NCAA": 2803,
      "Server": 2804,
      "Digital": 2805,
      "FAT": 2806,
      "Kong": 2807,
      "tea": 2808,
      "1818": 2809,
      "pon": 2810,
      "main": 2811,
      "para": 2812,
      "265": 2813,
      "ãģĵ": 2814,
      "esta": 2815,
      "Hello": 2816,
      "GS": 2817,
      "Lang": 2818,
      "air": 2819,
      "telli": 2820,
      "1824": 2821,
      "1831": 2822,
      "2027": 2823,
      "rey": 2824,
      "Down": 2825,
      "Dri": 2826,
      "Ob": 2827,
      "RPG": 2828,
      "pho": 2829,
      "spi": 2830,
      "Ã§": 2831,
      "Ã´": 2832,
      "lio": 2833,
      "sio": 2834,
      "rick": 2835,
      "lation": 2836,
      "386": 2837,
      "Mat": 2838,
      "Service": 2839,
      "âħ¡": 2840,
      "Techno": 2841,
      "Ana": 2842,
      "Ado": 2843,
      "UM": 2844,
      "non": 2845,
      "rent": 2846,
      "ges": 2847,
      "temp": 2848,
      "BSD": 2849,
      "Python": 2850,
      "1A": 2851,
      "CW": 2852,
      "Den": 2853,
      "XML": 2854,
      "Î»": 2855,
      "sho": 2856,
      "275": 2857,
      "2700": 2858,
      "Youtube": 2859,
      "Edward": 2860,
      "White": 2861,
      "312": 2862,
      "5G": 2863,
      "730": 2864,
      "Des": 2865,
      "HL": 2866,
      "OM": 2867,
      "TBS": 2868,
      "ena": 2869,
      "has": 2870,
      "med": 2871,
      "264": 2872,
      "295": 2873,
      "1802": 2874,
      "First": 2875,
      "BLUE": 2876,
      "burg": 2877,
      "public": 2878,
      "Institute": 2879,
      "630": 2880,
      "Envi": 2881,
      "Gro": 2882,
      "TM": 2883,
      "ori": 2884,
      "yer": 2885,
      "Ãº": 2886,
      "Ãł": 2887,
      "sual": 2888,
      "1822": 2889,
      "288": 2890,
      "ãĤ¸": 2891,
      "Poly": 2892,
      "JT": 2893,
      "Out": 2894,
      "Sum": 2895,
      "ÙĦ": 2896,
      "mond": 2897,
      "244": 2898,
      "ãĥķ": 2899,
      "vate": 2900,
      "Tom": 2901,
      "ITF": 2902,
      "2D": 2903,
      "OT": 2904,
      "ise": 2905,
      "var": 2906,
      "xel": 2907,
      "return": 2908,
      "249": 2909,
      "903": 2910,
      "ves": 2911,
      "Cap": 2912,
      "Square": 2913,
      "Hong": 2914,
      "PID": 2915,
      "Series": 2916,
      "This": 2917,
      "Za": 2918,
      "Ä«": 2919,
      "Å¡": 2920,
      "yal": 2921,
      "tum": 2922,
      "tual": 2923,
      "243": 2924,
      "2800": 2925,
      "Rap": 2926,
      "Cup": 2927,
      "Del": 2928,
      "FX": 2929,
      "Jen": 2930,
      "Jump": 2931,
      "NP": 2932,
      "__": 2933,
      "sch": 2934,
      "sig": 2935,
      "chuai": 2936,
      "1810": 2937,
      "1622": 2938,
      "1792": 2939,
      "307": 2940,
      "sts": 2941,
      "701": 2942,
      "SARS": 2943,
      "Frank": 2944,
      "POP": 2945,
      "Grand": 2946,
      "960": 2947,
      "Kin": 2948,
      "SHO": 2949,
      "VV": 2950,
      "sca": 2951,
      "Îµ": 2952,
      "dit": 2953,
      "tur": 2954,
      "1650": 2955,
      "801": 2956,
      "Pala": 2957,
      "Chro": 2958,
      "MIUI": 2959,
      "Count": 2960,
      "Tunes": 2961,
      "2100": 2962,
      "Cur": 2963,
      "Hor": 2964,
      "cci": 2965,
      "Ð¼": 2966,
      "1826": 2967,
      "have": 2968,
      "1573": 2969,
      "story": 2970,
      "Step": 2971,
      "Under": 2972,
      "747": 2973,
      "Jour": 2974,
      "yon": 2975,
      "but": 2976,
      "tems": 2977,
      "1834": 2978,
      "304": 2979,
      "226": 2980,
      "278": 2981,
      "ãĥŁ": 2982,
      "ãĤĤ": 2983,
      "teri": 2984,
      "375": 2985,
      "1805": 2986,
      "Die": 2987,
      "ACT": 2988,
      "APP": 2989,
      "AIR": 2990,
      "Auto": 2991,
      "North": 2992,
      "Bran": 2993,
      "HA": 2994,
      "Kan": 2995,
      "cing": 2996,
      "ice": 2997,
      "pus": 2998,
      "007": 2999,
      "296": 3000,
      "298": 3001,
      "385": 3002,
      "ATA": 3003,
      "Block": 3004,
      "335": 3005,
      "590": 3006,
      "9000": 3007,
      "Bor": 3008,
      "CU": 3009,
      "Sports": 3010,
      "WN": 3011,
      "ml": 3012,
      "rei": 3013,
      "Ïī": 3014,
      "âĭ": 3015,
      "let": 3016,
      "dings": 3017,
      "had": 3018,
      "1780": 3019,
      "227": 3020,
      "ãĥł": 3021,
      "Your": 3022,
      "IFA": 3023,
      "315": 3024,
      "Les": 3025,
      "Os": 3026,
      "Pho": 3027,
      "Rei": 3028,
      "ii": 3029,
      "iTunes": 3030,
      "pH": 3031,
      "Â»": 3032,
      "gain": 3033,
      "251": 3034,
      "277": 3035,
      "Real": 3036,
      "ghts": 3037,
      "CNN": 3038,
      "2A": 3039,
      "Op": 3040,
      "Over": 3041,
      "RFC": 3042,
      "din": 3043,
      "dition": 3044,
      "zine": 3045,
      "mad": 3046,
      "map": 3047,
      "more": 3048,
      "1582": 3049,
      "1799": 3050,
      "259": 3051,
      "246": 3052,
      "248": 3053,
      "1809": 3054,
      "Dani": 3055,
      "Engine": 3056,
      "530": 3057,
      "C2": 3058,
      "Cas": 3059,
      "DLC": 3060,
      "Ei": 3061,
      "Â«": 3062,
      "ere": 3063,
      "1823": 3064,
      "1621": 3065,
      "272": 3066,
      "405": 3067,
      "ville": 3068,
      "ATION": 3069,
      "State": 3070,
      "1803": 3071,
      "Internet": 3072,
      "EEE": 3073,
      "value": 3074,
      "press": 3075,
      "334": 3076,
      "620": 3077,
      "770": 3078,
      "Bou": 3079,
      "Clo": 3080,
      "Class": 3081,
      "Gol": 3082,
      "Hal": 3083,
      "SG": 3084,
      "Wat": 3085,
      "app": 3086,
      "bre": 3087,
      "rch": 3088,
      "1625": 3089,
      "284": 3090,
      "285": 3091,
      "ino": 3092,
      "lton": 3093,
      "ãĤµ": 3094,
      "Mit": 3095,
      "cond": 3096,
      "311": 3097,
      "880": 3098,
      "Cle": 3099,
      "Sony": 3100,
      "Ur": 3101,
      "VI": 3102,
      "vy": 3103,
      "Ãī": 3104,
      "á»": 3105,
      "258": 3106,
      "form": 3107,
      "276": 3108,
      "ãģĮ": 3109,
      "Wii": 3110,
      "Moon": 3111,
      "Mobile": 3112,
      "Bay": 3113,
      "Gri": 3114,
      "KO": 3115,
      "Oper": 3116,
      "Tru": 3117,
      "XT": 3118,
      "than": 3119,
      "à¦": 3120,
      "get": 3121,
      "ork": 3122,
      "253": 3123,
      "357": 3124,
      "ters": 3125,
      "Maria": 3126,
      "Ray": 3127,
      "Publi": 3128,
      "660": 3129,
      "Bon": 3130,
      "Cli": 3131,
      "Im": 3132,
      "NM": 3133,
      "SV": 3134,
      "UL": 3135,
      "ee": 3136,
      "ung": 3137,
      "Ð¹": 3138,
      "uel": 3139,
      "ãĥĹ": 3140,
      "STA": 3141,
      "via": 3142,
      "Alf": 3143,
      "Dot": 3144,
      "IPv": 3145,
      "Nico": 3146,
      "Unix": 3147,
      "South": 3148,
      "Ange": 3149,
      "Book": 3150,
      "Europe": 3151,
      "570": 3152,
      "Get": 3153,
      "U19": 3154,
      "WF": 3155,
      "blo": 3156,
      "hr": 3157,
      "Ð³": 3158,
      "1827": 3159,
      "1570": 3160,
      "ãģĤ": 3161,
      "gazine": 3162,
      "cks": 3163,
      "sson": 3164,
      "view": 3165,
      "Pier": 3166,
      "314": 3167,
      "3DS": 3168,
      "690": 3169,
      "BBS": 3170,
      "C6": 3171,
      "DSM": 3172,
      "IEEE": 3173,
      "Mou": 3174,
      "Mal": 3175,
      "SB": 3176,
      "WWE": 3177,
      "trans": 3178,
      "tas": 3179,
      "1817": 3180,
      "1640": 3181,
      "1636": 3182,
      "range": 3183,
      "268": 3184,
      "402": 3185,
      "404": 3186,
      "ãģ¯": 3187,
      "Sound": 3188,
      "which": 3189,
      "4G": 3190,
      "AX": 3191,
      "TW": 3192,
      "fy": 3193,
      "fri": 3194,
      "gal": 3195,
      "dei": 3196,
      "1775": 3197,
      "254": 3198,
      "465": 3199,
      "ator": 3200,
      "323": 3201,
      "Gal": 3202,
      "HP": 3203,
      "OP": 3204,
      "Tre": 3205,
      "dea": 3206,
      "tina": 3207,
      "lution": 3208,
      "1750": 3209,
      "309": 3210,
      "vis": 3211,
      "Now": 3212,
      "329": 3213,
      "670": 3214,
      "Jon": 3215,
      "Nu": 3216,
      "Plus": 3217,
      "shing": 3218,
      "tude": 3219,
      "1816": 3220,
      "kar": 3221,
      "poli": 3222,
      "zation": 3223,
      "ãĥģ": 3224,
      "ãĤ£": 3225,
      "4500": 3226,
      "field": 3227,
      "CON": 3228,
      "Beau": 3229,
      "Poli": 3230,
      "TOP": 3231,
      "print": 3232,
      "Cube": 3233,
      ".-": 3234,
      "710": 3235,
      "910": 3236,
      "950": 3237,
      "DI": 3238,
      "Ham": 3239,
      "MK": 3240,
      "ap": 3241,
      "other": 3242,
      "laris": 3243,
      "loud": 3244,
      "241": 3245,
      "2300": 3246,
      "cur": 3247,
      "Medi": 3248,
      "Film": 3249,
      "ISBN": 3250,
      "shiĠ": 3251,
      "deĠ": 3252,
      "ĠshiĠ": 3253,
      "ĠdeĠ": 3254,
      "yiĠ": 3255,
      "ĠyiĠ": 3256,
      "jiĠ": 3257,
      "weiĠ": 3258,
      "zhiĠ": 3259,
      "yuĠ": 3260,
      "ĠweiĠ": 3261,
      "ĠjiĠ": 3262,
      "Ġnian": 3263,
      "ĠzhiĠ": 3264,
      "ĠyuĠ": 3265,
      "Ġli": 3266,
      "ĠnianĠ": 3267,
      "zhongĠ": 3268,
      "ĠliĠ": 3269,
      "zaiĠ": 3270,
      "renĠ": 3271,
      "youĠ": 3272,
      "guoĠ": 3273,
      "heĠ": 3274,
      "qiĠ": 3275,
      "buĠ": 3276,
      "diĠ": 3277,
      "ĠyouĠ": 3278,
      "ĠzaiĠ": 3279,
      "ĠrenĠ": 3280,
      "Ġyue": 3281,
      "ĠzhongĠ": 3282,
      "ĠheĠ": 3283,
      "daĠ": 3284,
      "xiĠ": 3285,
      "xingĠ": 3286,
      "yuanĠ": 3287,
      "gongĠ": 3288,
      "erĠ": 3289,
      "ĠyueĠ": 3290,
      "fuĠ": 3291,
      "siĠ": 3292,
      "geĠ": 3293,
      "jianĠ": 3294,
      "ĠguoĠ": 3295,
      "wuĠ": 3296,
      "jiaĠ": 3297,
      "ĠbuĠ": 3298,
      "jieĠ": 3299,
      "keĠ": 3300,
      "chengĠ": 3301,
      "zhuĠ": 3302,
      "shengĠ": 3303,
      "xiangĠ": 3304,
      "xianĠ": 3305,
      "daoĠ": 3306,
      "beiĠ": 3307,
      "ziĠ": 3308,
      "ĠqiĠ": 3309,
      "faĠ": 3310,
      "huiĠ": 3311,
      "chuĠ": 3312,
      "jinĠ": 3313,
      "ĠdiĠ": 3314,
      "shuĠ": 3315,
      "ĠerĠ": 3316,
      "riĠ": 3317,
      "ĠxiĠ": 3318,
      "juĠ": 3319,
      "quĠ": 3320,
      "zhengĠ": 3321,
      "houĠ": 3322,
      "shouĠ": 3323,
      "mingĠ": 3324,
      "shangĠ": 3325,
      "dongĠ": 3326,
      "jingĠ": 3327,
      "taĠ": 3328,
      "leĠ": 3329,
      "xueĠ": 3330,
      "fangĠ": 3331,
      "yanĠ": 3332,
      "zhanĠ": 3333,
      "ciĠ": 3334,
      "baoĠ": 3335,
      "huaĠ": 3336,
      "yingĠ": 3337,
      "yeĠ": 3338,
      "tongĠ": 3339,
      "zuoĠ": 3340,
      "zheĠ": 3341,
      "guanĠ": 3342,
      "ĠdaĠ": 3343,
      "ĠriĠ": 3344,
      "yinĠ": 3345,
      "changĠ": 3346,
      "xinĠ": 3347,
      "jiaoĠ": 3348,
      "luĠ": 3349,
      "duiĠ": 3350,
      "wenĠ": 3351,
      "tiĠ": 3352,
      "fenĠ": 3353,
      "qianĠ": 3354,
      "taiĠ": 3355,
      "jiangĠ": 3356,
      "xiaoĠ": 3357,
      "bingĠ": 3358,
      "ĠsiĠ": 3359,
      "junĠ": 3360,
      "dianĠ": 3361,
      "zhangĠ": 3362,
      "pingĠ": 3363,
      "xiaĠ": 3364,
      "duĠ": 3365,
      "huoĠ": 3366,
      "yongĠ": 3367,
      "danĠ": 3368,
      "ĠkeĠ": 3369,
      "ĠjiaĠ": 3370,
      "haiĠ": 3371,
      "gaiĠ": 3372,
      "wangĠ": 3373,
      "daiĠ": 3374,
      "nanĠ": 3375,
      "ruĠ": 3376,
      "qingĠ": 3377,
      "muĠ": 3378,
      "biĠ": 3379,
      "banĠ": 3380,
      "liangĠ": 3381,
      "laiĠ": 3382,
      "meiĠ": 3383,
      "yaĠ": 3384,
      "shenĠ": 3385,
      "ĠfuĠ": 3386,
      "ĠxingĠ": 3387,
      "zuĠ": 3388,
      "wanĠ": 3389,
      "sheĠ": 3390,
      "lianĠ": 3391,
      "minĠ": 3392,
      "miĠ": 3393,
      "zhouĠ": 3394,
      "jiuĠ": 3395,
      "qiuĠ": 3396,
      "anĠ": 3397,
      "zhenĠ": 3398,
      "benĠ": 3399,
      "xuĠ": 3400,
      "gaoĠ": 3401,
      "ĠtaĠ": 3402,
      "boĠ": 3403,
      "xieĠ": 3404,
      "teĠ": 3405,
      "bianĠ": 3406,
      "lingĠ": 3407,
      "luoĠ": 3408,
      "yaoĠ": 3409,
      "dengĠ": 3410,
      "duoĠ": 3411,
      "yangĠ": 3412,
      "quanĠ": 3413,
      "cheĠ": 3414,
      "suoĠ": 3415,
      "zuiĠ": 3416,
      "tianĠ": 3417,
      "guĠ": 3418,
      "biaoĠ": 3419,
      "fanĠ": 3420,
      "huĠ": 3421,
      "yunĠ": 3422,
      "xuanĠ": 3423,
      "suĠ": 3424,
      "shanĠ": 3425,
      "feiĠ": 3426,
      "dingĠ": 3427,
      "liuĠ": 3428,
      "zongĠ": 3429,
      "saiĠ": 3430,
      "dangĠ": 3431,
      "maĠ": 3432,
      "kaiĠ": 3433,
      "baĠ": 3434,
      "haoĠ": 3435,
      "ĠdeĠyiĠ": 3436,
      "ĠbingĠ": 3437,
      "ĠdaoĠ": 3438,
      "fengĠ": 3439,
      "kouĠ": 3440,
      "tuĠ": 3441,
      "mianĠ": 3442,
      "menĠ": 3443,
      "neiĠ": 3444,
      "laĠ": 3445,
      "leiĠ": 3446,
      "sanĠ": 3447,
      "caiĠ": 3448,
      "waiĠ": 3449,
      "chuanĠ": 3450,
      "jueĠ": 3451,
      "paiĠ": 3452,
      "chiĠ": 3453,
      "ĠdanĠ": 3454,
      "ĠjinĠ": 3455,
      "ĠbeiĠ": 3456,
      "ĠgongĠ": 3457,
      "ĠjianĠ": 3458,
      "guangĠ": 3459,
      "ĠshiĠyiĠ": 3460,
      "lanĠ": 3461,
      "niĠ": 3462,
      "guiĠ": 3463,
      "baiĠ": 3464,
      "ĠziĠ": 3465,
      "linĠ": 3466,
      "tingĠ": 3467,
      "ĠzheĠ": 3468,
      "puĠ": 3469,
      "ĠxiangĠ": 3470,
      "gangĠ": 3471,
      "lunĠ": 3472,
      "nengĠ": 3473,
      "naĠ": 3474,
      "hanĠ": 3475,
      "lieĠ": 3476,
      "zeĠ": 3477,
      "ĠzhuĠ": 3478,
      "chengĠweiĠ": 3479,
      "moĠ": 3480,
      "ĠyinĠ": 3481,
      "ĠgeĠ": 3482,
      "ĠxianĠ": 3483,
      "ĠchuĠ": 3484,
      "ĠshiĠdeĠ": 3485,
      "meiĠguoĠ": 3486,
      "chanĠ": 3487,
      "shuiĠ": 3488,
      "ĠjuĠ": 3489,
      "ĠchengĠ": 3490,
      "ĠdeĠshiĠ": 3491,
      "ĠjieĠ": 3492,
      "ĠgaiĠ": 3493,
      "ĠwuĠ": 3494,
      "suiĠ": 3495,
      "xunĠ": 3496,
      "zhuanĠ": 3497,
      "ĠbaoĠ": 3498,
      "ĠpingĠ": 3499,
      "lvĠ": 3500,
      "Ġta": 3501,
      "aoĠ": 3502,
      "zhuangĠ": 3503,
      "liĠ": 3504,
      "touĠ": 3505,
      "duanĠ": 3506,
      "ĠyiĠjiĠ": 3507,
      "seĠ": 3508,
      "huanĠ": 3509,
      "chongĠ": 3510,
      "ĠweiĠyuĠ": 3511,
      "cengĠ": 3512,
      "eĠ": 3513,
      "pinĠ": 3514,
      "congĠ": 3515,
      "chaĠ": 3516,
      "diĠyiĠ": 3517,
      "cunĠ": 3518,
      "douĠ": 3519,
      "aĠ": 3520,
      "zaoĠ": 3521,
      "ĠhouĠ": 3522,
      "kongĠ": 3523,
      "zhaoĠ": 3524,
      "gouĠ": 3525,
      "ĠciĠ": 3526,
      "ganĠ": 3527,
      "shaĠ": 3528,
      "1Ġ": 3529,
      "qiangĠ": 3530,
      "ĠshiĠjiĠ": 3531,
      "chaoĠ": 3532,
      "mengĠ": 3533,
      "ĠyeĠ": 3534,
      "kaiĠshiĠ": 3535,
      "manĠ": 3536,
      "ĠyuanĠ": 3537,
      "ĠfaĠ": 3538,
      "ĠshengĠ": 3539,
      "Ġdan": 3540,
      "tangĠ": 3541,
      "ceĠ": 3542,
      "keĠyiĠ": 3543,
      "aiĠ": 3544,
      "kuoĠ": 3545,
      "ĠyiĠgeĠ": 3546,
      "longĠ": 3547,
      "tanĠ": 3548,
      "tuanĠ": 3549,
      "ĠmingĠ": 3550,
      "ĠshiĠweiĠ": 3551,
      "gongĠliĠ": 3552,
      "kaĠ": 3553,
      "ĠzhongĠguoĠ": 3554,
      "Ġtong": 3555,
      "qinĠ": 3556,
      "tieĠ": 3557,
      "ĠshiĠshiĠ": 3558,
      "Ġbing": 3559,
      "zhengĠfuĠ": 3560,
      "shaoĠ": 3561,
      "canĠ": 3562,
      "2Ġ": 3563,
      "pianĠ": 3564,
      "Ġyou": 3565,
      "huoĠdeĠ": 3566,
      "mianĠjiĠ": 3567,
      "hangĠ": 3568,
      "hongĠ": 3569,
      "gengĠ": 3570,
      "ĠhuoĠ": 3571,
      "jiĠdeĠ": 3572,
      "ĠshiĠyongĠ": 3573,
      "tiaoĠ": 3574,
      "xiuĠ": 3575,
      "chenĠ": 3576,
      "shuoĠ": 3577,
      "piĠ": 3578,
      "ĠdongĠ": 3579,
      "renĠweiĠ": 3580,
      "ĠshiĠjianĠ": 3581,
      "taoĠ": 3582,
      "zhiĠyiĠ": 3583,
      "zhongĠdeĠ": 3584,
      "zhengĠzhiĠ": 3585,
      "huangĠ": 3586,
      "ranĠ": 3587,
      "ĠyiĠzhiĠ": 3588,
      "ĠshiĠjieĠ": 3589,
      "zhongĠguoĠ": 3590,
      "yueĠ": 3591,
      "chuangĠ": 3592,
      "Ġri": 3593,
      "nvĠ": 3594,
      "quĠdeĠ": 3595,
      "guoĠjiĠ": 3596,
      "yiĠshiĠ": 3597,
      "ĠpingĠfangĠ": 3598,
      "woĠ": 3599,
      "renĠkouĠ": 3600,
      "xingĠdeĠ": 3601,
      "poĠ": 3602,
      "ĠshouĠ": 3603,
      "jinĠxingĠ": 3604,
      "ĠhaoĠ": 3605,
      "ĠmiĠ": 3606,
      "rongĠ": 3607,
      "ĠsuiĠ": 3608,
      "meiĠyouĠ": 3609,
      "diaoĠ": 3610,
      "liaoĠ": 3611,
      "tuoĠ": 3612,
      "songĠ": 3613,
      "ouĠ": 3614,
      "ĠliĠdeĠ": 3615,
      "ĠliĠshiĠ": 3616,
      "nianĠ": 3617,
      "Ġdang": 3618,
      "ĠweiĠyuanĠ": 3619,
      "ĠfenĠ": 3620,
      "ĠwanĠ": 3621,
      "peiĠ": 3622,
      "ĠqiĠzhongĠ": 3623,
      "zuoĠweiĠ": 3624,
      "gongĠsiĠ": 3625,
      "faĠguoĠ": 3626,
      "biaoĠshiĠ": 3627,
      "ĠĠĠzaiĠ": 3628,
      "yanĠjiuĠ": 3629,
      "Ġer": 3630,
      "ĠshangĠ": 3631,
      "zhengĠshiĠ": 3632,
      "ĠhaiĠ": 3633,
      "Ġyin": 3634,
      "ĠdeĠjiĠ": 3635,
      "panĠ": 3636,
      "ĠmeiĠ": 3637,
      "tuiĠ": 3638,
      "ĠxinĠ": 3639,
      "Ġzhe": 3640,
      "dianĠshiĠ": 3641,
      "yunĠdongĠ": 3642,
      "queĠ": 3643,
      "bangĠ": 3644,
      "qieĠ": 3645,
      "ĠtaiĠ": 3646,
      "ĠdeĠdiĠ": 3647,
      "chengĠshiĠ": 3648,
      "zhiĠshiĠ": 3649,
      "ĠjiangĠ": 3650,
      "ĠshuĠ": 3651,
      "ĠjingĠ": 3652,
      "jianĠdeĠ": 3653,
      "taĠdeĠ": 3654,
      "gongĠheĠ": 3655,
      "shuĠyuĠ": 3656,
      "sheĠjiĠ": 3657,
      "ĠqianĠ": 3658,
      "langĠ": 3659,
      "ĠrenĠminĠ": 3660,
      "dunĠ": 3661,
      "ĠrenĠkouĠ": 3662,
      "ĠyingĠ": 3663,
      "zhiĠdeĠ": 3664,
      "qiaoĠ": 3665,
      "10ĠyueĠ": 3666,
      "12ĠyueĠ": 3667,
      "ĠdeĠzhiĠ": 3668,
      "3Ġ": 3669,
      "jingĠjiĠ": 3670,
      "dianĠyingĠ": 3671,
      "7ĠyueĠ": 3672,
      "ĠxiaĠ": 3673,
      "ĠnanĠ": 3674,
      "zuĠzhiĠ": 3675,
      "ĠmuĠ": 3676,
      "9ĠyueĠ": 3677,
      "ĠzhangĠ": 3678,
      "8ĠyueĠ": 3679,
      "zhuĠyiĠ": 3680,
      "ĠzuiĠ": 3681,
      "3ĠyueĠ": 3682,
      "1ĠyueĠ": 3683,
      "maoĠ": 3684,
      "ĠshiĠqiĠ": 3685,
      "daiĠbiaoĠ": 3686,
      "waĠ": 3687,
      "riĠbenĠ": 3688,
      "yingĠguoĠ": 3689,
      "5ĠyueĠ": 3690,
      "youĠyiĠ": 3691,
      "jiĠshiĠ": 3692,
      "kaoĠ": 3693,
      "6ĠyueĠ": 3694,
      "guoĠdeĠ": 3695,
      "kanĠ": 3696,
      "4ĠyueĠ": 3697,
      "ĠhuiĠ": 3698,
      "ĠshiĠzhenĠ": 3699,
      "henĠ": 3700,
      "maiĠ": 3701,
      "xianĠdeĠ": 3702,
      "ĠbiĠ": 3703,
      "weiĠyiĠ": 3704,
      "11ĠyueĠ": 3705,
      "cheĠzhanĠ": 3706,
      "jiaoĠyuĠ": 3707,
      "ĠtongĠ": 3708,
      "genĠjuĠ": 3709,
      "buĠfenĠ": 3710,
      "yiĠdeĠ": 3711,
      "reĠ": 3712,
      "daĠxueĠ": 3713,
      "yuĠshiĠ": 3714,
      "xiangĠgangĠ": 3715,
      "mingĠweiĠ": 3716,
      "xueĠyuanĠ": 3717,
      "ĠdeĠguoĠ": 3718,
      "ĠyiĠyuanĠ": 3719,
      "liĠshiĠ": 3720,
      "ĠdengĠ": 3721,
      "ĠdeĠyiĠgeĠ": 3722,
      "ĠzhiĠhouĠ": 3723,
      "ĠruĠ": 3724,
      "ĠnianĠ1ĠyueĠ": 3725,
      "genĠ": 3726,
      "danĠrenĠ": 3727,
      "canĠjiaĠ": 3728,
      "ĠyiĠweiĠ": 3729,
      "caoĠ": 3730,
      "kangĠ": 3731,
      "sheĠhuiĠ": 3732,
      "ĠtiĠ": 3733,
      "ĠqingĠ": 3734,
      "xianĠshiĠ": 3735,
      "ĠdiĠquĠ": 3736,
      "4Ġ": 3737,
      "saĠ": 3738,
      "yingĠxiangĠ": 3739,
      "taiĠwanĠ": 3740,
      "shuĠdeĠ": 3741,
      "Ġran": 3742,
      "ĠyanĠ": 3743,
      "ĠxueĠ": 3744,
      "ĠyouĠyuĠ": 3745,
      "shangĠdeĠ": 3746,
      "xingĠshiĠ": 3747,
      "yeĠshiĠ": 3748,
      "qiĠshiĠ": 3749,
      "ĠyinĠciĠ": 3750,
      "formulaĠ": 3751,
      "bieĠ": 3752,
      "guanĠliĠ": 3753,
      "laoĠ": 3754,
      "zengĠ": 3755,
      "gongĠzuoĠ": 3756,
      "tongĠguoĠ": 3757,
      "leĠyiĠ": 3758,
      "ĠxiaoĠ": 3759,
      "ĠnianĠ12ĠyueĠ": 3760,
      "ĠlingĠ": 3761,
      "xingĠzhengĠ": 3762,
      "buĠdeĠ": 3763,
      "gongĠheĠguoĠ": 3764,
      "5Ġ": 3765,
      "weiĠshiĠ": 3766,
      "ĠliĠyaĠ": 3767,
      "ĠnianĠdeĠ": 3768,
      "erĠshiĠ": 3769,
      "renĠdeĠ": 3770,
      "zhunĠ": 3771,
      "ziĠjiĠ": 3772,
      "daĠdeĠ": 3773,
      "2ĠyueĠ": 3774,
      "xiongĠ": 3775,
      "ĠliangĠ": 3776,
      "ĠguoĠjiaĠ": 3777,
      "zuiĠzhongĠ": 3778,
      "ĠnianĠ3ĠyueĠ": 3779,
      "huiĠyiĠ": 3780,
      "kuangĠ": 3781,
      "ĠĠĠshengĠ": 3782,
      "chengĠliĠ": 3783,
      "nongĠ": 3784,
      "ĠpingĠfangĠgongĠliĠ": 3785,
      "luoĠsiĠ": 3786,
      "kuĠ": 3787,
      "ĠnianĠ7ĠyueĠ": 3788,
      "ĠjiaoĠ": 3789,
      "ĠnianĠ10ĠyueĠ": 3790,
      "ĠwangĠ": 3791,
      "chuĠdeĠ": 3792,
      "miaoĠ": 3793,
      "faĠxianĠ": 3794,
      "ĠzhanĠ": 3795,
      "haĠ": 3796,
      "qiĠdeĠ": 3797,
      "ĠtianĠ": 3798,
      "faĠzhanĠ": 3799,
      "ĠnianĠ9ĠyueĠ": 3800,
      "yuanĠdeĠ": 3801,
      "ĠshiĠyouĠ": 3802,
      "ĠbaoĠkuoĠ": 3803,
      "ĠshiĠzhiĠ": 3804,
      "qiĠtaĠ": 3805,
      "heiĠ": 3806,
      "ĠnianĠ5ĠyueĠ": 3807,
      "ĠqiĠjianĠ": 3808,
      "piaoĠ": 3809,
      "suoĠyouĠ": 3810,
      "kuaiĠ": 3811,
      "siĠdeĠ": 3812,
      "ĠboĠ": 3813,
      "ĠnianĠ4ĠyueĠ": 3814,
      "ĠnianĠ6ĠyueĠ": 3815,
      "ĠnianĠ8ĠyueĠ": 3816,
      "youĠyuĠ": 3817,
      "ĠluoĠ": 3818,
      "tieĠluĠ": 3819,
      "ĠdaĠxueĠ": 3820,
      "quanĠguoĠ": 3821,
      "ĠshiĠzaiĠ": 3822,
      "daoĠzhiĠ": 3823,
      "daoĠdeĠ": 3824,
      "tongĠdeĠ": 3825,
      "zhuĠyaoĠ": 3826,
      "chengĠdeĠ": 3827,
      "canĠyuĠ": 3828,
      "louĠ": 3829,
      "ĠmaĠ": 3830,
      "ĠzhengĠ": 3831,
      "wenĠhuaĠ": 3832,
      "ĠhuaĠ": 3833,
      "shuangĠ": 3834,
      "nuoĠ": 3835,
      "ĠduiĠ": 3836,
      "ĠluĠ": 3837,
      "diĠliĠ": 3838,
      "ĠtaĠmenĠ": 3839,
      "zhongĠyiĠ": 3840,
      "lianĠheĠ": 3841,
      "Ġsui": 3842,
      "diĠdeĠ": 3843,
      "ĠzhiĠdaoĠ": 3844,
      "ĠguĠ": 3845,
      "ĠdangĠ": 3846,
      "ĠnianĠ11ĠyueĠ": 3847,
      "ĠtongĠshiĠ": 3848,
      "ĠshenĠ": 3849,
      "buĠshiĠ": 3850,
      "ĠzhongĠxinĠ": 3851,
      "ĠĠĠshiĠ": 3852,
      "yinĠyueĠ": 3853,
      "ĠjiuĠ": 3854,
      "beiĠbuĠ": 3855,
      "shuĠjiĠ": 3856,
      "baoĠkuoĠ": 3857,
      "yongĠyuĠ": 3858,
      "senĠ": 3859,
      "ĠĠĠyiĠ": 3860,
      "ĠquanĠ": 3861,
      "tiĠgongĠ": 3862,
      "ĠzongĠ": 3863,
      "ĠzuoĠ": 3864,
      "zaiĠyiĠ": 3865,
      "xuanĠbuĠ": 3866,
      "guoĠjiaĠ": 3867,
      "ĠweiĠyuanĠhuiĠ": 3868,
      "zuĠqiuĠ": 3869,
      "wenĠtiĠ": 3870,
      "ĠnianĠzhiĠ": 3871,
      "kuanĠ": 3872,
      "ĠyinĠweiĠ": 3873,
      "xueĠxiaoĠ": 3874,
      "shengĠyuĠ": 3875,
      "ĠshiĠwuĠ": 3876,
      "jianĠyuĠ": 3877,
      "ziĠyouĠ": 3878,
      "qianĠmiĠ": 3879,
      "gongĠyouĠ": 3880,
      "guanĠxiĠ": 3881,
      "fangĠshiĠ": 3882,
      "ĠweiĠzhiĠ": 3883,
      "ĠshiĠzhongĠ": 3884,
      "6Ġ": 3885,
      "hunĠ": 3886,
      "ĠnianĠ2ĠyueĠ": 3887,
      "ĠxuĠ": 3888,
      "biĠsaiĠ": 3889,
      "huaĠrenĠminĠ": 3890,
      "yingĠdeĠ": 3891,
      "rangĠ": 3892,
      "chengĠyuanĠ": 3893,
      "jianĠzhuĠ": 3894,
      "enĠ": 3895,
      "huoĠdongĠ": 3896,
      "jianĠliĠ": 3897,
      "Ġgai": 3898,
      "hengĠ": 3899,
      "suanĠ": 3900,
      "yuĠyiĠ": 3901,
      "ĠĠĠliĠshiĠ": 3902,
      "jiĠyiĠ": 3903,
      "fenĠweiĠ": 3904,
      "ĠchangĠ": 3905,
      "ĠdeĠrenĠ": 3906,
      "sheĠyouĠ": 3907,
      "renĠshiĠ": 3908,
      "zuoĠpinĠ": 3909,
      "ĠdianĠ": 3910,
      "guanĠjunĠ": 3911,
      "tongĠshiĠ": 3912,
      "ĠbenĠ": 3913,
      "daĠliĠ": 3914,
      "ĠchengĠweiĠ": 3915,
      "geĠrenĠ": 3916,
      "Ġxian": 3917,
      "ĠĠĠshengĠpingĠ": 3918,
      "Ġjie": 3919,
      "ĠanĠ": 3920,
      "zhuanĠjiĠ": 3921,
      "yuĠdeĠ": 3922,
      "ĠdiĠerĠ": 3923,
      "beiĠjingĠ": 3924,
      "ĠjiĠhuaĠ": 3925,
      "ĠyouĠxiĠ": 3926,
      "jiuĠshiĠ": 3927,
      "xiaoĠshiĠ": 3928,
      "ĠliuĠ": 3929,
      "huaĠrenĠminĠgongĠheĠguoĠ": 3930,
      "yinĠweiĠ": 3931,
      "ĠbaĠ": 3932,
      "ĠtaĠdeĠ": 3933,
      "menĠdeĠ": 3934,
      "ĠliĠyuĠ": 3935,
      "qunĠ": 3936,
      "ĠnianĠdaiĠ": 3937,
      "geiĠ": 3938,
      "duiĠyuĠ": 3939,
      "xiĠdeĠ": 3940,
      "mingĠdeĠ": 3941,
      "ĠaĠ": 3942,
      "junĠshiĠ": 3943,
      "ĠcongĠ": 3944,
      "diĠshiĠ": 3945,
      "tongĠyiĠ": 3946,
      "diĠerĠ": 3947,
      "xinĠdeĠ": 3948,
      "quĠyuĠ": 3949,
      "ĠbuĠfenĠ": 3950,
      "xueĠjiaĠ": 3951,
      "eĠluoĠsiĠ": 3952,
      "zouĠ": 3953,
      "taĠmenĠ": 3954,
      "ĠduoĠ": 3955,
      "chunĠ": 3956,
      "weiĠdeĠ": 3957,
      "shouĠdaoĠ": 3958,
      "minĠguoĠ": 3959,
      "houĠdeĠ": 3960,
      "shengĠdeĠ": 3961,
      "erĠdeĠ": 3962,
      "laiĠdeĠ": 3963,
      "fangĠmianĠ": 3964,
      "ĠhuĠ": 3965,
      "zhengĠfu": 3966,
      "gongĠjiĠ": 3967,
      "faĠshengĠ": 3968,
      "ĠgongĠliĠ": 3969,
      "danĠweiĠ": 3970,
      "ĠfengĠ": 3971,
      "xingĠweiĠ": 3972,
      "ĠshiĠrenĠ": 3973,
      "ĠyiĠjingĠ": 3974,
      "yongĠyouĠ": 3975,
      "ĠfanĠ": 3976,
      "ĠlianĠ": 3977,
      "zhongĠshiĠ": 3978,
      "jinĠshiĠ": 3979,
      "ĠxiĠtongĠ": 3980,
      "jueĠdingĠ": 3981,
      "buĠyuĠ": 3982,
      "ĠquĠ": 3983,
      "ĠzhongĠyangĠ": 3984,
      "juĠyouĠ": 3985,
      "ĠmianĠjiĠ": 3986,
      "1ĠriĠ": 3987,
      "tongĠzhiĠ": 3988,
      "diĠquĠ": 3989,
      "niĠyaĠ": 3990,
      "liangĠgeĠ": 3991,
      "ĠguanĠ": 3992,
      "quĠweiĠ": 3993,
      "faĠxingĠ": 3994,
      "ĠriĠbenĠ": 3995,
      "ĠgaoĠ": 3996,
      "ĠfeiĠ": 3997,
      "ĠsuoĠ": 3998,
      "ĠwenĠ": 3999,
      "youĠdeĠ": 4000,
      "chuĠxianĠ": 4001,
      "ĠteĠ": 4002,
      "shengĠjiĠ": 4003,
      "zhĠ": 4004,
      "huaĠdeĠ": 4005,
      "ĠrenĠkouĠmiĠ": 4006,
      "ciĠshiĠ": 4007,
      "qiĠyuĠ": 4008,
      "ziĠzhiĠ": 4009,
      "wuĠdeĠ": 4010,
      "laiĠziĠ": 4011,
      "juĠxingĠ": 4012,
      "ĠtaĠzaiĠ": 4013,
      "lingĠyiĠ": 4014,
      "jiaĠdeĠ": 4015,
      "ĠjiĠyuĠ": 4016,
      "xianĠzhiĠ": 4017,
      "Ġsuo": 4018,
      "ĠweiĠjiĠ": 4019,
      "mianĠjiĠweiĠ": 4020,
      "ĠsuĠ": 4021,
      "huiĠdeĠ": 4022,
      "ĠsanĠ": 4023,
      "baoĠhuĠ": 4024,
      "nanĠbuĠ": 4025,
      "duĠliĠ": 4026,
      "ĠpingĠfangĠqianĠmiĠ": 4027,
      "kongĠzhiĠ": 4028,
      "ĠshiĠyuĠ": 4029,
      "shuĠjuĠ": 4030,
      "zongĠtongĠ": 4031,
      "jinĠruĠ": 4032,
      "ĠshiĠweiĠyuĠ": 4033,
      "ĠliĠruĠ": 4034,
      "renĠwuĠ": 4035,
      "quĠshiĠ": 4036,
      "keĠliĠ": 4037,
      "yaoĠqiuĠ": 4038,
      "mouĠ": 4039,
      "ĠĠĠdeĠ": 4040,
      "ĠwoĠ": 4041,
      "ĠmeiĠguoĠ": 4042,
      "gtĠ": 4043,
      "ĠgtĠ": 4044,
      "guĠshiĠ": 4045,
      "chengĠjiĠ": 4046,
      "ĠranĠerĠ": 4047,
      "ĠguangĠ": 4048,
      "ltĠ": 4049,
      "Ġwan": 4050,
      "Ġru": 4051,
      "xueĠshengĠ": 4052,
      "ĠbianĠ": 4053,
      "ĠĠĠyuĠ": 4054,
      "jinĠdeĠ": 4055,
      "ĠdanĠshiĠ": 4056,
      "ĠcaiĠ": 4057,
      "minĠzhuĠ": 4058,
      "gongĠshiĠ": 4059,
      "wanĠchengĠ": 4060,
      "ĠyiĠqiĠ": 4061,
      "lieĠcheĠ": 4062,
      "youĠjiĠ": 4063,
      "keĠnengĠ": 4064,
      "ĠltĠ": 4065,
      "ĠyiĠbuĠ": 4066,
      "shenĠzhiĠ": 4067,
      "ĠbingĠyuĠ": 4068,
      "zhaĠ": 4069,
      "renĠzhiĠ": 4070,
      "pingĠfangĠ": 4071,
      "youĠshiĠ": 4072,
      "ĠyongĠ": 4073,
      "ĠbingĠzaiĠ": 4074,
      "ĠjiĠshuĠ": 4075,
      "chaoĠguoĠ": 4076,
      "tiĠyuĠ": 4077,
      "yuanĠshiĠ": 4078,
      "cangĠ": 4079,
      "cunĠzaiĠ": 4080,
      "qianĠwangĠ": 4081,
      "Ġ15": 4082,
      "Ġceng": 4083,
      "keĠdeĠ": 4084,
      "yaĠliĠ": 4085,
      "dangĠshiĠ": 4086,
      "siĠshiĠ": 4087,
      "ĠkaiĠ": 4088,
      "xueĠxiĠ": 4089,
      "yongĠdeĠ": 4090,
      "ĠdeĠyiĠge": 4091,
      "jingĠguoĠ": 4092,
      "neiĠdeĠ": 4093,
      "faĠbuĠ": 4094,
      "ĠshanĠ": 4095,
      "zuoĠdeĠ": 4096,
      "ĠzhiĠweiĠ": 4097,
      "ĠhanĠ": 4098,
      "jianĠyiĠ": 4099,
      "guanĠyuĠ": 4100,
      "ĠĠĠdiĠ": 4101,
      "wuĠkeĠ": 4102,
      "wuĠshiĠ": 4103,
      "xiangĠgang": 4104,
      "zhuĠrenĠ": 4105,
      "ĠzhiĠjianĠ": 4106,
      "yinĠduĠ": 4107,
      "ĠpuĠ": 4108,
      "zhanĠshiĠ": 4109,
      "zhanĠzhengĠ": 4110,
      "ĠqiĠtaĠ": 4111,
      "guoĠshiĠ": 4112,
      "Ġa": 4113,
      "sunĠ": 4114,
      "paoĠ": 4115,
      "zhuĠyao": 4116,
      "zhouĠdeĠ": 4117,
      "shengĠhuoĠ": 4118,
      "xuĠduoĠ": 4119,
      "jianĠzhiĠ": 4120,
      "ĠjiĠweiĠ": 4121,
      "fanĠweiĠ": 4122,
      "binĠ": 4123,
      "ĠyiĠshuĠ": 4124,
      "ĠjiĠqiĠ": 4125,
      "ĠweiĠerĠ": 4126,
      "chengĠgongĠ": 4127,
      "hanĠguoĠ": 4128,
      "ouĠzhouĠ": 4129,
      "zhuĠxiĠ": 4130,
      "luĠdeĠ": 4131,
      "jieĠshouĠ": 4132,
      "qiuĠduiĠ": 4133,
      "ĠzhiĠyouĠ": 4134,
      "ĠshuĠyuĠ": 4135,
      "Ġzai": 4136,
      "daiĠbiao": 4137,
      "Ġjin": 4138,
      "ĠjiĠzhongĠ": 4139,
      "fuĠwuĠ": 4140,
      "zengĠjiaĠ": 4141,
      "ĠbuĠguoĠ": 4142,
      "banĠdeĠ": 4143,
      "ĠbaiĠ": 4144,
      "gongĠyuanĠ": 4145,
      "ĠyouĠxianĠ": 4146,
      "ĠmoĠ": 4147,
      "Ġ000": 4148,
      "xiaoĠxingĠ": 4149,
      "xiaĠdeĠ": 4150,
      "ĠĠĠgaiĠ": 4151,
      "ĠzheĠxieĠ": 4152,
      "ĠzhiĠchuĠ": 4153,
      "heĠyiĠ": 4154,
      "shangĠhaiĠ": 4155,
      "duoĠdeĠ": 4156,
      "ĠaoĠ": 4157,
      "houĠyiĠ": 4158,
      "ĠĠĠzhiĠ": 4159,
      "sanĠshiĠ": 4160,
      "ningĠ": 4161,
      "ĠciĠwaiĠ": 4162,
      "fuĠdeĠ": 4163,
      "juĠliĠ": 4164,
      "huaiĠ": 4165,
      "siĠjiĠ": 4166,
      "zuĠchengĠ": 4167,
      "ĠgenĠjuĠ": 4168,
      "yunĠdongĠyuanĠ": 4169,
      "ĠcengĠ": 4170,
      "jiaoĠtongĠ": 4171,
      "ĠzhiĠzuoĠ": 4172,
      "ĠzhiĠchiĠ": 4173,
      "maĠweiĠ": 4174,
      "gaoĠduĠ": 4175,
      "Ġba": 4176,
      "changĠdeĠ": 4177,
      "ĠnianĠqiĠ": 4178,
      "zhuĠjiaoĠ": 4179,
      "ĠzhĠ": 4180,
      "zheĠxieĠ": 4181,
      "niuĠ": 4182,
      "geĠzhongĠ": 4183,
      "ĠzhiĠwuĠ": 4184,
      "xuĠyaoĠ": 4185,
      "ĠzaiĠciĠ": 4186,
      "jueĠseĠ": 4187,
      "chongĠxinĠ": 4188,
      "chuĠleĠ": 4189,
      "tiĠdeĠ": 4190,
      "tuiĠchuĠ": 4191,
      "ĠliĠjiĠ": 4192,
      "zheĠgeĠ": 4193,
      "jingĠliĠ": 4194,
      "ĠzuiĠzhongĠ": 4195,
      "xiangĠdeĠ": 4196,
      "gongĠchengĠ": 4197,
      "ĠduĠ": 4198,
      "ĠdangĠshiĠ": 4199,
      "qiĠyiĠ": 4200,
      "daĠshiĠ": 4201,
      "Ġai": 4202,
      "chuĠyuĠ": 4203,
      "ĠrenĠheĠ": 4204,
      "ĠsheĠ": 4205,
      "wuĠzhongĠ": 4206,
      "duĠweiĠ": 4207,
      "renĠminĠ": 4208,
      "ziĠdeĠ": 4209,
      "xuanĠjuĠ": 4210,
      "Ġye": 4211,
      "ĠĠĠdiĠliĠ": 4212,
      "lianĠsaiĠ": 4213,
      "ziĠjiĠdeĠ": 4214,
      "ĠweiĠleĠ": 4215,
      "ĠrenĠwuĠ": 4216,
      "Ġhuo": 4217,
      "geĠquĠ": 4218,
      "ĠnianĠjianĠ": 4219,
      "dangĠdiĠ": 4220,
      "ĠlaiĠ": 4221,
      "sĠ": 4222,
      "Ġ16": 4223,
      "fuĠzeĠ": 4224,
      "kaiĠfaĠ": 4225,
      "ĠĠĠweiĠ": 4226,
      "ĠweiĠqiĠ": 4227,
      "gongĠchanĠ": 4228,
      "xianĠzaiĠ": 4229,
      "ĠzhiĠyuĠ": 4230,
      "ĠrenĠyuanĠ": 4231,
      "zheĠyiĠ": 4232,
      "liangĠweiĠ": 4233,
      "jieĠshuĠ": 4234,
      "yaĠdeĠ": 4235,
      "ĠbanĠ": 4236,
      "chuĠliĠ": 4237,
      "jieĠmuĠ": 4238,
      "ĠleiĠ": 4239,
      "guanĠdeĠ": 4240,
      "nvĠziĠ": 4241,
      "saiĠshiĠ": 4242,
      "2010ĠnianĠ": 4243,
      "ruiĠ": 4244,
      "dingĠdeĠ": 4245,
      "duiĠdeĠ": 4246,
      "riĠben": 4247,
      "ĠhouĠlaiĠ": 4248,
      "fanĠyingĠ": 4249,
      "chuĠbanĠ": 4250,
      "jieĠdeĠ": 4251,
      "chanĠshengĠ": 4252,
      "juanĠ": 4253,
      "Ġma": 4254,
      "shouĠciĠ": 4255,
      "sheĠshiĠ": 4256,
      "leiĠsiĠ": 4257,
      "ĠshiĠyiĠgeĠ": 4258,
      "ĠyangĠ": 4259,
      "dongĠwuĠ": 4260,
      "baĠshiĠ": 4261,
      "7Ġ": 4262,
      "jingĠshiĠ": 4263,
      "ĠjiĠxuĠ": 4264,
      "ĠnaĠ": 4265,
      "leĠbuĠ": 4266,
      "jieĠshiĠ": 4267,
      "ĠdaiĠ": 4268,
      "xiangĠshiĠ": 4269,
      "boĠshiĠ": 4270,
      "ruoĠ": 4271,
      "keĠneng": 4272,
      "anĠdeĠ": 4273,
      "nanĠziĠ": 4274,
      "Ġjiang": 4275,
      "duĠdeĠ": 4276,
      "guanĠxiaĠ": 4277,
      "sanĠnianĠ": 4278,
      "Ġmei": 4279,
      "zaoĠchengĠ": 4280,
      "haiĠshiĠ": 4281,
      "yangĠdeĠ": 4282,
      "dongĠshiĠ": 4283,
      "ĠaiĠ": 4284,
      "sheĠliĠ": 4285,
      "zhongĠzhiĠ": 4286,
      "yanĠjiu": 4287,
      "daoĠleĠ": 4288,
      "shanĠxiĠ": 4289,
      "ĠzhenĠ": 4290,
      "Ġ0": 4291,
      "guoĠyiĠ": 4292,
      "Ġ1Ġ": 4293,
      "ĠyaĠ": 4294,
      "ĠsuoĠyiĠ": 4295,
      "ĠjiĠzhiĠ": 4296,
      "zhongĠyuĠ": 4297,
      "fenĠbuĠ": 4298,
      "nvĠxingĠ": 4299,
      "ĠheĠzuoĠ": 4300,
      "douĠshiĠ": 4301,
      "junĠdeĠ": 4302,
      "ĠĠĠqiĠ": 4303,
      "guoĠyuĠ": 4304,
      "dongĠdeĠ": 4305,
      "daiĠdeĠ": 4306,
      "zhengĠdeĠ": 4307,
      "fangĠfaĠ": 4308,
      "ĠzhiĠzhiĠ": 4309,
      "2020ĠnianĠ": 4310,
      "lianĠmengĠ": 4311,
      "ĠyiĠsiĠ": 4312,
      "wuĠliĠ": 4313,
      "xiangĠmuĠ": 4314,
      "fangĠdeĠ": 4315,
      "jiaoĠshouĠ": 4316,
      "meiĠpingĠfangĠ": 4317,
      "zhengĠzhiĠrenĠwuĠ": 4318,
      "diĠweiĠ": 4319,
      "caiĠyongĠ": 4320,
      "ĠtuĠ": 4321,
      "Ġcong": 4322,
      "liangĠdeĠ": 4323,
      "ĠzaiĠdiĠ": 4324,
      "ĠxuanĠ": 4325,
      "ĠĠĠrenĠkouĠ": 4326,
      "chuanĠtongĠ": 4327,
      "yuanĠyuĠ": 4328,
      "zhanĠdeĠ": 4329,
      "zhuĠdeĠ": 4330,
      "ĠĠĠyouĠ": 4331,
      "baoĠkuo": 4332,
      "huaĠminĠguoĠ": 4333,
      "ĠzeĠ": 4334,
      "xiĠtongĠ": 4335,
      "chengĠrenĠ": 4336,
      "ĠriĠzaiĠ": 4337,
      "ĠguiĠ": 4338,
      "jiaĠruĠ": 4339,
      "faĠdeĠ": 4340,
      "2001ĠnianĠ": 4341,
      "geĠshiĠ": 4342,
      "8Ġ": 4343,
      "ĠnianĠyiĠ": 4344,
      "ĠranĠ": 4345,
      "xinĠwenĠ": 4346,
      "yanĠyuanĠ": 4347,
      "haoĠdeĠ": 4348,
      "ĠĠĠjiĠ": 4349,
      "ĠliĠsiĠ": 4350,
      "Ġbei": 4351,
      "ĠjiĠjiĠ": 4352,
      "fuĠshiĠ": 4353,
      "Ġ17": 4354,
      "ĠyiĠhuiĠ": 4355,
      "xiangĠguanĠ": 4356,
      "yingĠyuĠ": 4357,
      "daoĠshiĠ": 4358,
      "bianĠmaĠweiĠ": 4359,
      "taiĠwan": 4360,
      "heĠshiĠ": 4361,
      "ĠjiĠluĠ": 4362,
      "boĠwuĠ": 4363,
      "xueĠdeĠ": 4364,
      "houĠzaiĠ": 4365,
      "ĠweiĠfuĠ": 4366,
      "ĠtaĠmen": 4367,
      "lianĠjieĠ": 4368,
      "ĠdeĠyiĠgeĠshiĠzhenĠ": 4369,
      "ĠyiĠyiĠ": 4370,
      "ĠA": 4371,
      "ĠxueĠmingĠ": 4372,
      "xiĠjiĠ": 4373,
      "zuiĠjiaĠ": 4374,
      "ĠxiĠyaĠ": 4375,
      "tiĠchuĠ": 4376,
      "mingĠchengĠ": 4377,
      "muĠsiĠ": 4378,
      "ĠxieĠ": 4379,
      "lingĠshiĠ": 4380,
      "ĠzheĠshiĠ": 4381,
      "erĠnianĠ": 4382,
      "xiaoĠdeĠ": 4383,
      "haiĠyouĠ": 4384,
      "mianĠdeĠ": 4385,
      "ĠweiĠzhuĠ": 4386,
      "ĠzhouĠ": 4387,
      "Ġzong": 4388,
      "ĠrenĠkouĠmiĠduĠ": 4389,
      "ĠliĠyiĠ": 4390,
      "geĠdeĠ": 4391,
      "ĠzhiĠjieĠ": 4392,
      "ĠlaĠ": 4393,
      "zuiĠgaoĠ": 4394,
      "sĠĠĠ": 4395,
      "dongĠjiĠ": 4396,
      "ĠĠĠjiaĠ": 4397,
      "ĠyeĠshiĠ": 4398,
      "ĠshiĠyiĠzhongĠ": 4399,
      "Ġci": 4400,
      "ĠqiuĠ": 4401,
      "yanĠdeĠ": 4402,
      "xiaĠjiĠ": 4403,
      "ĠyuĠshiĠ": 4404,
      "ĠfangĠ": 4405,
      "geĠmingĠ": 4406,
      "yeĠyuĠ": 4407,
      "ĠgongĠsiĠ": 4408,
      "ĠjunĠ": 4409,
      "ĠnianĠzaiĠ": 4410,
      "yaoĠdeĠ": 4411,
      "gaiĠweiĠ": 4412,
      "ĠyiĠxieĠ": 4413,
      "zaiĠdeĠ": 4414,
      "shuĠshiĠ": 4415,
      "haiĠjunĠ": 4416,
      "Ġliang": 4417,
      "ĠkaĠ": 4418,
      "jiaĠzhiĠ": 4419,
      "zheĠzhongĠ": 4420,
      "changĠshiĠ": 4421,
      "huiĠshiĠ": 4422,
      "yanĠzhongĠ": 4423,
      "gaiĠguoĠ": 4424,
      "naĠdaĠ": 4425,
      "zhuĠshiĠ": 4426,
      "ĠzuoĠweiĠ": 4427,
      "qingĠkuang": 4428,
      "zhengĠyiĠ": 4429,
      "shengĠwuĠ": 4430,
      "bianĠdeĠ": 4431,
      "zhaiĠ": 4432,
      "keĠjiĠ": 4433,
      "huiĠfuĠ": 4434,
      "ĠzhiĠqianĠ": 4435,
      "luanĠ": 4436,
      "zaiĠyuĠ": 4437,
      "meiĠtiĠ": 4438,
      "Ġmi": 4439,
      "xinĠxiĠ": 4440,
      "ĠyiĠzhongĠ": 4441,
      "gaoĠdeĠ": 4442,
      "wenĠwuĠ": 4443,
      "jieĠguoĠ": 4444,
      "jianĠshiĠ": 4445,
      "qiĠzhiĠ": 4446,
      "ĠjiĠzaiĠ": 4447,
      "minĠzuĠ": 4448,
      "ĠC": 4449,
      "shuiĠyuĠ": 4450,
      "qianĠdeĠ": 4451,
      "heĠdeĠ": 4452,
      "yanĠchangĠ": 4453,
      "ĠniĠ": 4454,
      "zhuĠjianĠ": 4455,
      "10Ġ": 4456,
      "fanĠduiĠ": 4457,
      "nengĠliĠ": 4458,
      "ĠweiĠyouĠ": 4459,
      "ĠkeĠsiĠ": 4460,
      "ĠkeĠyiĠ": 4461,
      "ĠĠĠxingĠzhengĠ": 4462,
      "geĠliĠ": 4463,
      "gongĠkaiĠ": 4464,
      "huaĠshiĠ": 4465,
      "ĠbuĠtongĠ": 4466,
      "xingĠzhiĠ": 4467,
      "siĠyuĠ": 4468,
      "ĠchongĠ": 4469,
      "leiĠdeĠ": 4470,
      "ĠzhuĠyaoĠ": 4471,
      "chouĠ": 4472,
      "beiĠshiĠ": 4473,
      "huanĠjingĠ": 4474,
      "jieĠgouĠ": 4475,
      "Ġ2Ġ": 4476,
      "jiangĠjunĠ": 4477,
      "zhangĠdeĠ": 4478,
      "pengĠ": 4479,
      "ofĠĠĠ": 4480,
      "ĠxiangĠgangĠ": 4481,
      "chuangĠzuoĠ": 4482,
      "xianĠyuĠ": 4483,
      "shangĠyeĠ": 4484,
      "zanĠ": 4485,
      "ĠĠĠbenĠ": 4486,
      "ĠĠĠformulaĠ": 4487,
      "ĠzheĠgeĠ": 4488,
      "saiĠjiĠ": 4489,
      "moĠshiĠ": 4490,
      "gaoĠsuĠ": 4491,
      "aĠerĠ": 4492,
      "ĠdiĠyiĠ": 4493,
      "zheĠdeĠ": 4494,
      "biaoĠxianĠ": 4495,
      "ĠzhongĠhuaĠrenĠminĠgongĠheĠguoĠ": 4496,
      "ĠhongĠ": 4497,
      "tongĠjiĠ": 4498,
      "Ġling": 4499,
      "theĠĠĠ": 4500,
      "junĠduiĠ": 4501,
      "ĠliĠweiĠ": 4502,
      "daĠluĠ": 4503,
      "ĠchenĠ": 4504,
      "zhuĠliĠ": 4505,
      "geĠyueĠ": 4506,
      "ĠyunĠ": 4507,
      "shengĠyaĠ": 4508,
      "shengĠliĠ": 4509,
      "quanĠliĠ": 4510,
      "wuĠfaĠ": 4511,
      "dongĠbuĠ": 4512,
      "zhouĠshiĠ": 4513,
      "zongĠjiaoĠ": 4514,
      "geĠlanĠ": 4515,
      "ĠnianĠshiĠ": 4516,
      "diaoĠchaĠ": 4517,
      "siĠnianĠ": 4518,
      "touĠguoĠ": 4519,
      "ĠyiĠbanĠ": 4520,
      "buĠfen": 4521,
      "biaoĠzhunĠ": 4522,
      "ĠĠĠgenĠjuĠ": 4523,
      "hangĠkongĠ": 4524,
      "biĠyeĠ": 4525,
      "ĠtangĠ": 4526,
      "huiĠzaiĠ": 4527,
      "Ġ1": 4528,
      "Ġ14": 4529,
      "ĠĠĠciĠ": 4530,
      "ĠyiĠciĠ": 4531,
      "ĠdangĠdiĠ": 4532,
      "shenĠfenĠ": 4533,
      "ĠyaoĠ": 4534,
      "diĠzhiĠ": 4535,
      "ĠneiĠ": 4536,
      "gongĠluĠ": 4537,
      "ĠdeĠyiĠbuĠfenĠ": 4538,
      "faĠyuanĠ": 4539,
      "buĠyiĠ": 4540,
      "Ġming": 4541,
      "diĠyuĠ": 4542,
      "jiaĠliĠ": 4543,
      "gongĠzuo": 4544,
      "jinĠjiĠ": 4545,
      "chengĠzhongĠ": 4546,
      "bingĠbuĠ": 4547,
      "saiĠdeĠ": 4548,
      "ĠtaiĠwanĠ": 4549,
      "quanĠbuĠ": 4550,
      "baĠgaoĠduĠ": 4551,
      "ĠbingĠqie": 4552,
      "xieĠhuiĠ": 4553,
      "jiaoĠshiĠ": 4554,
      "feiĠchangĠ": 4555,
      "ĠjiĠtuanĠ": 4556,
      "dongĠhuaĠ": 4557,
      "anĠquanĠ": 4558,
      "ĠzhiĠxingĠ": 4559,
      "biĠdeĠ": 4560,
      "ĠhuangĠ": 4561,
      "ĠbaoĠkuo": 4562,
      "chaĠdeĠ": 4563,
      "ĠlinĠ": 4564,
      "ĠĠĠofĠĠĠ": 4565,
      "ziĠliaoĠ": 4566,
      "ĠzhuanĠ": 4567,
      "fuĠheĠ": 4568,
      "jingĠdeĠ": 4569,
      "tuanĠtiĠ": 4570,
      "luoĠmaĠ": 4571,
      "jieĠzhiĠ": 4572,
      "beiĠrenĠ": 4573,
      "fenĠbie": 4574,
      "shengĠchanĠ": 4575,
      "chaoĠxianĠ": 4576,
      "gaiĠdiĠ": 4577,
      "dingĠyiĠ": 4578,
      "ĠjinĠxingĠ": 4579,
      "xiaĠyiĠ": 4580,
      "jinĠbiaoĠ": 4581,
      "pingĠjunĠ": 4582,
      "Ġliu": 4583,
      "xingĠdongĠ": 4584,
      "wenĠxueĠ": 4585,
      "duĠshiĠ": 4586,
      "ĠruĠguoĠ": 4587,
      "renĠkouĠpuĠ": 4588,
      "laĠsiĠ": 4589,
      "qingĠkuangĠ": 4590,
      "jiaĠjiĠ": 4591,
      "ĠzuĠ": 4592,
      "gongĠgongĠ": 4593,
      "jieĠfangĠ": 4594,
      "ĠzhiĠyuanĠ": 4595,
      "juĠminĠ": 4596,
      "Ġgu": 4597,
      "ĠzhiĠhuiĠ": 4598,
      "ĠqiĠhouĠ": 4599,
      "dongĠbeiĠ": 4600,
      "shouĠdeĠ": 4601,
      "shangĠshiĠ": 4602,
      "Ġ9": 4603,
      "ĠjiĠdiĠ": 4604,
      "sheĠzhiĠ": 4605,
      "Ġwo": 4606,
      "yanĠchuĠ": 4607,
      "qiuĠyuanĠ": 4608,
      "yuanĠyiĠ": 4609,
      "ĠyuĠjiĠ": 4610,
      "saiĠzhongĠ": 4611,
      "keĠxueĠ": 4612,
      "Ġfen": 4613,
      "yanĠshiĠ": 4614,
      "ĠchuanĠ": 4615,
      "gongĠtongĠ": 4616,
      "lingĠdaoĠ": 4617,
      "renĠyiĠ": 4618,
      "Ġda": 4619,
      "zuoĠpin": 4620,
      "zuoĠyouĠ": 4621,
      "Ġnan": 4622,
      "ĠdeĠzhuĠ": 4623,
      "erĠjiĠ": 4624,
      "zaiĠshiĠ": 4625,
      "28ĠriĠ": 4626,
      "aoĠyunĠ": 4627,
      "kongĠjianĠ": 4628,
      "xingĠjiĠ": 4629,
      "gaiĠbianĠ": 4630,
      "yeĠyouĠ": 4631,
      "ĠdanĠrenĠ": 4632,
      "sanĠgeĠ": 4633,
      "faĠbiaoĠ": 4634,
      "wuĠzhiĠ": 4635,
      "dengĠdiĠ": 4636,
      "ĠlingĠwaiĠ": 4637,
      "ĠzhaoĠ": 4638,
      "jiaĠshiĠ": 4639,
      "ĠdiĠguoĠ": 4640,
      "Ġjiu": 4641,
      "yuanĠheĠ": 4642,
      "fangĠzhiĠ": 4643,
      "youĠxiĠ": 4644,
      "dengĠrenĠ": 4645,
      "ĠerĠshiĠ": 4646,
      "ĠcheĠ": 4647,
      "deĠĠĠ": 4648,
      "xueĠshiĠ": 4649,
      "guanĠzhongĠ": 4650,
      "lanĠdeĠ": 4651,
      "xueĠweiĠ": 4652,
      "luĠxianĠ": 4653,
      "shuĠweiĠ": 4654,
      "zeĠshiĠ": 4655,
      "juĠdeĠ": 4656,
      "baoĠdaoĠ": 4657,
      "ĠhuoĠdeĠ": 4658,
      "ĠliĠzhiĠ": 4659,
      "zhuiĠ": 4660,
      "qiĠweiĠ": 4661,
      "lveĠ": 4662,
      "heĠjiĠ": 4663,
      "chuĠrenĠ": 4664,
      "buĠtongĠ": 4665,
      "qingĠnianĠ": 4666,
      "2008ĠnianĠ": 4667,
      "guoĠliĠ": 4668,
      "zuoĠyongĠ": 4669,
      "bangĠzhuĠ": 4670,
      "aoĠlinĠ": 4671,
      "piĠkeĠ": 4672,
      "ĠS": 4673,
      "2016ĠnianĠ": 4674,
      "gongĠdeĠ": 4675,
      "zaoĠdaoĠ": 4676,
      "ĠkeĠnengĠ": 4677,
      "aiĠerĠ": 4678,
      "ĠyuĠqiĠ": 4679,
      "ĠriĠzhiĠ": 4680,
      "ĠfuĠzeĠ": 4681,
      "ĠĠĠzhongĠ": 4682,
      "zuĠdeĠ": 4683,
      "danĠquĠ": 4684,
      "ĠyuĠyanĠ": 4685,
      "jiangĠqiĠ": 4686,
      "juĠjiĠ": 4687,
      "luĠdiĠ": 4688,
      "ĠdaĠdaoĠ": 4689,
      "guiĠdaoĠ": 4690,
      "ĠyouĠguanĠ": 4691,
      "tongĠchangĠ": 4692,
      "15ĠriĠ": 4693,
      "shouĠjiĠ": 4694,
      "ĠyiĠyouĠ": 4695,
      "taĠmen": 4696,
      "feiĠjiĠ": 4697,
      "ĠyiĠyuĠ": 4698,
      "banĠbenĠ": 4699,
      "tuĠdiĠ": 4700,
      "xianĠdaiĠ": 4701,
      "yuanĠnianĠ": 4702,
      "2009ĠnianĠ": 4703,
      "Ġ12": 4704,
      "shengĠdeĠyiĠgeĠshiĠzhenĠ": 4705,
      "ĠzhiĠjianĠdeĠ": 4706,
      "ĠmuĠqianĠ": 4707,
      "maĠliĠ": 4708,
      "yaĠzhouĠ": 4709,
      "xiĠbanĠ": 4710,
      "ĠshuiĠ": 4711,
      "bianĠhuaĠ": 4712,
      "ĠĠĠjuĠ": 4713,
      "jingĠneiĠ": 4714,
      "ĠpaiĠ": 4715,
      "jieĠheĠ": 4716,
      "ĠshiĠxingĠ": 4717,
      "gongĠyeĠ": 4718,
      "huiĠheĠ": 4719,
      "jueĠsaiĠ": 4720,
      "wuĠnianĠ": 4721,
      "ĠdingĠ": 4722,
      "taiĠpingĠ": 4723,
      "jiaĠyiĠ": 4724,
      "houĠyuĠ": 4725,
      "ĠbingĠqieĠ": 4726,
      "2011ĠnianĠ": 4727,
      "ĠsiĠkeĠ": 4728,
      "2012ĠnianĠ": 4729,
      "zaoĠqiĠ": 4730,
      "neiĠrongĠ": 4731,
      "ĠweiĠzhongĠ": 4732,
      "guangĠboĠ": 4733,
      "zhanĠyiĠ": 4734,
      "Ġ2": 4735,
      "paĠ": 4736,
      "xianĠrenĠ": 4737,
      "jiaoĠyiĠ": 4738,
      "piĠpingĠ": 4739,
      "taĠzaiĠ": 4740,
      "xingĠchengĠ": 4741,
      "meiĠyuanĠ": 4742,
      "Ġmo": 4743,
      "ĠhaiĠbaĠgaoĠduĠ": 4744,
      "25ĠriĠ": 4745,
      "jiaoĠhuiĠ": 4746,
      "miaoĠshuĠ": 4747,
      "ĠbuĠduiĠ": 4748,
      "ĠzhiĠyeĠ": 4749,
      "zhengĠceĠ": 4750,
      "ĠerĠsiĠ": 4751,
      "ĠdanĠzaiĠ": 4752,
      "wanĠquanĠ": 4753,
      "xuanĠzeĠ": 4754,
      "ĠsiĠteĠ": 4755,
      "yuanĠyinĠ": 4756,
      "ĠtaĠyuĠ": 4757,
      "UTCĠ": 4758,
      "Ġha": 4759,
      "boĠliĠ": 4760,
      "zaoĠdeĠ": 4761,
      "ĠheĠwuĠ": 4762,
      "jianĠsheĠ": 4763,
      "ĠyueĠdeĠ": 4764,
      "Ġ4": 4765,
      "xieĠyiĠ": 4766,
      "chuĠshiĠ": 4767,
      "xiaoĠshuoĠ": 4768,
      "wuĠkeĠlanĠ": 4769,
      "changĠqiĠ": 4770,
      "yunĠdongĠhuiĠ": 4771,
      "beiĠchengĠweiĠ": 4772,
      "lianĠbangĠ": 4773,
      "ĠrenĠweiĠ": 4774,
      "ĠdiĠsanĠ": 4775,
      "ĠweiĠdiĠ": 4776,
      "Ġ3": 4777,
      "ĠjianĠchengĠ": 4778,
      "30ĠriĠ": 4779,
      "ĠdangĠzhongĠ": 4780,
      "10ĠriĠ": 4781,
      "ĠshiĠyanĠ": 4782,
      "ĠdeĠdaoĠ": 4783,
      "chiĠxuĠ": 4784,
      "BĠ": 4785,
      "zuiĠdaĠ": 4786,
      "Ġsi": 4787,
      "wenĠhua": 4788,
      "ĠeĠ": 4789,
      "Ġqie": 4790,
      "ĠxunĠ": 4791,
      "20ĠriĠ": 4792,
      "ĠyiĠmingĠ": 4793,
      "zuĠheĠ": 4794,
      "duoĠshuĠ": 4795,
      "yuanĠzhuĠ": 4796,
      "dianĠziĠ": 4797,
      "seĠdeĠ": 4798,
      "ĠtaĠshiĠ": 4799,
      "xingĠyuĠ": 4800,
      "mingĠmingĠ": 4801,
      "Ġ5": 4802,
      "2014ĠnianĠ": 4803,
      "houĠlaiĠ": 4804,
      "linĠshiĠ": 4805,
      "gongĠsi": 4806,
      "zhuanĠyeĠ": 4807,
      "shengĠheĠ": 4808,
      "ĠyouĠchengĠ": 4809,
      "wuĠyuanĠ": 4810,
      "buĠliĠ": 4811,
      "erĠweiĠ": 4812,
      "jieĠdaoĠ": 4813,
      "ĠmengĠ": 4814,
      "fuĠzhiĠ": 4815,
      "baĠliĠ": 4816,
      "ziĠgeĠ": 4817,
      "chuĠqiĠ": 4818,
      "2018ĠnianĠ": 4819,
      "buĠjiĠ": 4820,
      "2019ĠnianĠ": 4821,
      "Ġ8": 4822,
      "erĠziĠ": 4823,
      "dongĠnanĠ": 4824,
      "gaoĠzhongĠ": 4825,
      "Ġ5Ġ": 4826,
      "taĠmenĠdeĠ": 4827,
      "ĠjiĠgouĠ": 4828,
      "faĠlvĠ": 4829,
      "ĠmianĠ": 4830,
      "zaĠzhiĠ": 4831,
      "ĠjiĠjinĠ": 4832,
      "ĠdiĠsiĠ": 4833,
      "ĠshiĠweiĠyuĠmeiĠguoĠ": 4834,
      "daĠdaoĠ": 4835,
      "ĠjinĠguanĠ": 4836,
      "yeĠdeĠ": 4837,
      "2013ĠnianĠ": 4838,
      "ĠweiĠyuĠgaiĠguoĠ": 4839,
      "ĠguoĠminĠ": 4840,
      "aĠlaĠ": 4841,
      "kuiĠ": 4842,
      "ĠyueĠzhiĠ": 4843,
      "faĠzhan": 4844,
      "ĠliĠkeĠ": 4845,
      "tuĠerĠ": 4846,
      "shengĠweiĠ": 4847,
      "ĠshiĠjieĠdaĠ": 4848,
      "Ġsan": 4849,
      "18ĠriĠ": 4850,
      "baoĠgaoĠ": 4851,
      "zhongĠjiĠ": 4852,
      "24ĠriĠ": 4853,
      "2015ĠnianĠ": 4854,
      "ĠliĠyongĠ": 4855,
      "ĠliĠkaiĠ": 4856,
      "fangĠxiangĠ": 4857,
      "daoĠyiĠ": 4858,
      "ĠsuiĠhouĠ": 4859,
      "neiĠbuĠ": 4860,
      "ĠyuĠzhongĠ": 4861,
      "guoĠminĠ": 4862,
      "guangĠdongĠ": 4863,
      "guiĠdingĠ": 4864,
      "wangĠdeĠ": 4865,
      "Ġ6": 4866,
      "ĠgengĠ": 4867,
      "boĠwuĠguanĠ": 4868,
      "luoĠdeĠ": 4869,
      "26ĠriĠ": 4870,
      "canĠsaiĠ": 4871,
      "ĠyueĠshiĠ": 4872,
      "dieĠ": 4873,
      "ĠyingĠguoĠ": 4874,
      "ĠzheĠzhongĠ": 4875,
      "2007ĠnianĠ": 4876,
      "muĠbiaoĠ": 4877,
      "ĠweiĠsiĠ": 4878,
      "sheĠquĠ": 4879,
      "ĠyuĠzhiĠ": 4880,
      "ĠtongĠnianĠ": 4881,
      "guanĠzhiĠ": 4882,
      "dianĠliĠ": 4883,
      "2005ĠnianĠ": 4884,
      "gongĠchanĠdangĠ": 4885,
      "ĠyouĠqiĠ": 4886,
      "ĠxiĠlieĠ": 4887,
      "ĠwaiĠ": 4888,
      "xianĠyiĠ": 4889,
      "teĠbie": 4890,
      "ĠfenĠbuĠyuĠ": 4891,
      "aoĠlinĠpiĠkeĠ": 4892,
      "lianĠxiĠ": 4893,
      "Ġke": 4894,
      "bingĠweiĠ": 4895,
      "gongĠbuĠ": 4896,
      "ĠjiĠchangĠ": 4897,
      "fuĠliĠ": 4898,
      "juĠbanĠ": 4899,
      "ĠshaĠ": 4900,
      "muĠdeĠ": 4901,
      "ĠchuĠleĠ": 4902,
      "Ġ2001ĠnianĠ": 4903,
      "lieĠdeĠ": 4904,
      "ĠshiĠheĠ": 4905,
      "ĠganĠ": 4906,
      "changĠweiĠ": 4907,
      "wuĠxianĠ": 4908,
      "ĠerĠshengĠ": 4909,
      "biĠliĠ": 4910,
      "quanĠqiuĠ": 4911,
      "shenĠdeĠ": 4912,
      "touĠziĠ": 4913,
      "ĠshiĠziĠ": 4914,
      "2017ĠnianĠ": 4915,
      "muĠdiĠ": 4916,
      "Ġduo": 4917,
      "16ĠriĠ": 4918,
      "ĠjiĠheĠ": 4919,
      "yinĠhangĠ": 4920,
      "dingĠweiĠ": 4921,
      "Ġque": 4922,
      "dongĠjingĠ": 4923,
      "shangĠshuĠ": 4924,
      "fuĠyiĠ": 4925,
      "daoĠyuĠ": 4926,
      "dangĠdeĠ": 4927,
      "guanĠfangĠ": 4928,
      "Ġ13": 4929,
      "guoĠzhiĠ": 4930,
      "17ĠriĠ": 4931,
      "paiĠsheĠ": 4932,
      "ziĠyuĠ": 4933,
      "huaĠxueĠ": 4934,
      "shouĠyuĠ": 4935,
      "ĠminĠ": 4936,
      "ĠĠĠzhengĠzhiĠ": 4937,
      "ĠyouĠxianĠgongĠsiĠ": 4938,
      "kaiĠfangĠ": 4939,
      "21ĠriĠ": 4940,
      "buĠzhiĠ": 4941,
      "ĠdeĠshiĠzhenĠ": 4942,
      "gaiĠnianĠ": 4943,
      "7ĠriĠ": 4944,
      "27ĠriĠ": 4945,
      "ĠzhongĠxueĠ": 4946,
      "baoĠfaĠ": 4947,
      "zheĠshiĠ": 4948,
      "kaĠerĠ": 4949,
      "ĠĠĠA": 4950,
      "19ĠriĠ": 4951,
      "2006ĠnianĠ": 4952,
      "junĠweiĠ": 4953,
      "11ĠriĠ": 4954,
      "ĠliĠfaĠ": 4955,
      "8ĠriĠ": 4956,
      "ĠhaoĠmiĠ": 4957,
      "yingĠyongĠ": 4958,
      "12ĠriĠ": 4959,
      "23ĠriĠ": 4960,
      "shangĠyouĠ": 4961,
      "mingĠziĠ": 4962,
      "ĠfuĠwuĠ": 4963,
      "ceĠshiĠ": 4964,
      "ĠsongĠ": 4965,
      "ĠyinĠci": 4966,
      "suĠlianĠ": 4967,
      "meiĠguoĠrenĠkouĠpuĠ": 4968,
      "ĠdeĠweiĠ": 4969,
      "xianĠweiĠ": 4970,
      "feiĠxingĠ": 4971,
      "ĠzhiĠjiĠ": 4972,
      "shuĠliangĠweiĠ": 4973,
      "qiĠjianĠ": 4974,
      "ĠĠĠtheĠĠĠ": 4975,
      "tĠ": 4976,
      "juĠleĠbuĠ": 4977,
      "fuĠyuĠ": 4978,
      "yinĠshiĠ": 4979,
      "xueĠzheĠ": 4980,
      "huangĠdiĠ": 4981,
      "huiĠyuĠ": 4982,
      "qiĠjiĠ": 4983,
      "2021ĠnianĠ": 4984,
      "banĠshiĠ": 4985,
      "xiĠlieĠ": 4986,
      "boĠchuĠ": 4987,
      "ĠdeĠzhongĠ": 4988,
      "ĠqieĠ": 4989,
      "22ĠriĠ": 4990,
      "guiĠmoĠ": 4991,
      "ĠshiĠfaĠguoĠ": 4992,
      "ĠsaiĠ": 4993,
      "biĠxuĠ": 4994,
      "lingĠyuĠ": 4995,
      "9ĠriĠ": 4996,
      "shanĠdongĠ": 4997,
      "gongĠnengĠ": 4998,
      "29ĠriĠ": 4999,
      "chuĠyiĠ": 5000,
      "yinĠqiĠ": 5001,
      "guanĠyuanĠ": 5002,
      "yingĠshiĠ": 5003,
      "Ġ3Ġ": 5004,
      "zuiĠdaĠdeĠ": 5005,
      "zhengĠzaiĠ": 5006,
      "ĠlvĠ": 5007,
      "ĠyueĠhanĠ": 5008,
      "xunĠlianĠ": 5009,
      "ĠjiĠbaiĠ": 5010,
      "jingĠyingĠ": 5011,
      "fengĠgeĠ": 5012,
      "teĠdeĠ": 5013,
      "2022ĠnianĠ": 5014,
      "fuĠjinĠ": 5015,
      "tingĠzhiĠ": 5016,
      "nengĠgouĠ": 5017,
      "kunĠ": 5018,
      "suoĠshuĠdeĠ": 5019,
      "pingĠjiaĠ": 5020,
      "ĠE": 5021,
      "14ĠriĠ": 5022,
      "geĠdiĠ": 5023,
      "3ĠriĠ": 5024,
      "zhuĠzaiĠ": 5025,
      "qingĠkuangĠxiaĠ": 5026,
      "yuanĠjiĠ": 5027,
      "shouĠshiĠ": 5028,
      "tiaoĠjianĠ": 5029,
      "jiaoĠdeĠ": 5030,
      "ĠpiĠ": 5031,
      "shengĠzaiĠ": 5032,
      "quĠhuaĠ": 5033,
      "5ĠriĠ": 5034,
      "taiĠdeĠ": 5035,
      "xiĠshiĠ": 5036,
      "shengĠmingĠ": 5037,
      "Ġ7": 5038,
      "shangĠweiĠ": 5039,
      "sheĠdeĠ": 5040,
      "maiĠkeĠ": 5041,
      "ĠĠĠyouĠyuĠ": 5042,
      "yaĠyuĠ": 5043,
      "ĠkaiĠshiĠ": 5044,
      "ĠdaoĠzhiĠ": 5045,
      "shengĠchan": 5046,
      "jinĠzhiĠ": 5047,
      "31ĠriĠ": 5048,
      "TheĠĠĠ": 5049,
      "ĠbuĠjiuĠ": 5050,
      "jieĠchuĠ": 5051,
      "ĠD": 5052,
      "yuanĠzhiĠ": 5053,
      "ĠdaĠhuiĠ": 5054,
      "xiaoĠxingĠxingĠ": 5055,
      "lianĠmeng": 5056,
      "4ĠriĠ": 5057,
      "chaoĠjiĠ": 5058,
      "2ĠriĠ": 5059,
      "xiongĠdiĠ": 5060,
      "ĠrenĠzhongĠ": 5061,
      "ĠzuiĠhouĠ": 5062,
      "dianĠdeĠ": 5063,
      "6ĠriĠ": 5064,
      "zangĠ": 5065,
      "haiĠyuĠ": 5066,
      "daĠjiĠ": 5067,
      "boĠteĠ": 5068,
      "ĠgongĠchiĠ": 5069,
      "liuĠxingĠ": 5070,
      "geĠjiĠ": 5071,
      "13ĠriĠ": 5072,
      "nanĠxingĠ": 5073,
      "ĠsuiĠranĠ": 5074,
      "wenĠwuĠbaoĠhuĠ": 5075,
      "ĠnianĠdai": 5076,
      "teĠzhengĠ": 5077,
      "ĠqiangĠ": 5078,
      "ĠmanĠ": 5079,
      "renĠheĠ": 5080,
      "wuĠjiĠ": 5081,
      "geĠweiĠ": 5082,
      "renĠjiĠ": 5083,
      "lvĠyouĠ": 5084,
      "zuoĠjiaĠ": 5085,
      "ĠtongĠguoĠ": 5086,
      "keĠdaĠ": 5087,
      "siĠrenĠ": 5088,
      "geĠshouĠ": 5089,
      "21Ġ": 5090,
      "Ġxin": 5091,
      "9Ġ": 5092,
      "ĠjueĠ": 5093,
      "ĠshenĠzhiĠ": 5094,
      "yinĠciĠ": 5095,
      "huangĠjiaĠ": 5096,
      "fenĠxiĠ": 5097,
      "ouĠzhou": 5098,
      "brĠ": 5099,
      "jianĠweiĠ": 5100,
      "ĠlingĠyiĠ": 5101,
      "shengĠfenĠ": 5102,
      "zongĠheĠ": 5103,
      "xuĠduo": 5104,
      "ĠĠĠS": 5105,
      "lieĠche": 5106,
      "juĠrenĠ": 5107,
      "niuĠyueĠ": 5108,
      "ĠĠĠjinĠ": 5109,
      "ĠbrĠ": 5110,
      "banĠdaoĠ": 5111,
      "ciĠshiĠjieĠdaĠ": 5112,
      "zhuĠtiĠ": 5113,
      "zhongĠweiĠ": 5114,
      "Ġ10": 5115,
      "chengĠyiĠ": 5116,
      "zaiĠweiĠ": 5117,
      "zhuangĠtaiĠ": 5118,
      "ĠsuiĠran": 5119,
      "ĠdouĠ": 5120,
      "ĠyouĠmingĠ": 5121,
      "qiĠnianĠ": 5122,
      "ĠtaĠcengĠ": 5123,
      "benĠdeĠ": 5124,
      "bianĠweiĠ": 5125,
      "pinĠdaoĠ": 5126,
      "ĠzaiĠqiĠ": 5127,
      "youĠyiĠgeĠ": 5128,
      "juĠzhongĠ": 5129,
      "heĠliĠ": 5130,
      "maoĠyiĠ": 5131,
      "ĠT": 5132,
      "20ĠshiĠjiĠ": 5133,
      "fenĠziĠ": 5134,
      "ĠchiĠ": 5135,
      "ĠzhiĠzhongĠ": 5136,
      "Ġgeng": 5137,
      "buĠzhangĠ": 5138,
      "renĠkouĠshuĠliangĠweiĠ": 5139,
      "wangĠluoĠ": 5140,
      "huiĠyouĠ": 5141,
      "ĠĠĠziĠ": 5142,
      "qianĠyiĠ": 5143,
      "aoĠsiĠ": 5144,
      "2004ĠnianĠ": 5145,
      "shuoĠshiĠ": 5146,
      "jieĠduanĠ": 5147,
      "xuanĠshouĠ": 5148,
      "gaoĠjiĠ": 5149,
      "zhunĠbeiĠ": 5150,
      "faĠshiĠ": 5151,
      "ĠheĠnanĠ": 5152,
      "Ġzhou": 5153,
      "fangĠanĠ": 5154,
      "fangĠyuĠ": 5155,
      "miĠerĠ": 5156,
      "waiĠdeĠ": 5157,
      "daĠxingĠ": 5158,
      "duoĠciĠ": 5159,
      "Ġchen": 5160,
      "ciĠdeĠ": 5161,
      "bingĠliĠ": 5162,
      "gongĠzhongĠ": 5163,
      "ĠĠĠliĠ": 5164,
      "huiĠdaoĠ": 5165,
      "beiĠdeĠ": 5166,
      "ĠgangĠ": 5167,
      "moĠdeĠ": 5168,
      "ĠyiĠlaiĠ": 5169,
      "ĠriĠqiĠ": 5170,
      "chengĠduĠ": 5171,
      "ĠlanĠ": 5172,
      "Ġ4Ġ": 5173,
      "fenĠzhiĠ": 5174,
      "buĠweiĠ": 5175,
      "2000ĠnianĠ": 5176,
      "shuĠguanĠ": 5177,
      "ciĠzhiĠ": 5178,
      "liuĠnianĠ": 5179,
      "ĠzhongĠbuĠ": 5180,
      "wuĠqiĠ": 5181,
      "Ġfan": 5182,
      "ĠxianĠshiĠ": 5183,
      "jieĠjiĠ": 5184,
      "leĠyiĠgeĠ": 5185,
      "yuanĠweiĠ": 5186,
      "baoĠhanĠ": 5187,
      "junĠzaiĠ": 5188,
      "ĠdiĠfangĠ": 5189,
      "dianĠshiĠtaiĠ": 5190,
      "youĠzhiĠ": 5191,
      "ziĠshiĠ": 5192,
      "ĠdeĠyiĠzhongĠ": 5193,
      "Ġze": 5194,
      "xingĠheĠ": 5195,
      "ĠrenĠkou": 5196,
      "ĠrenĠkouĠmiĠduĠweiĠ": 5197,
      "juĠshiĠ": 5198,
      "ĠyiĠshiĠ": 5199,
      "dengĠjiĠ": 5200,
      "luĠjunĠ": 5201,
      "Ġhao": 5202,
      "xuanĠweiĠ": 5203,
      "xiangĠtongĠ": 5204,
      "ĠtouĠ": 5205,
      "ĠchaoĠ": 5206,
      "zheĠjiangĠ": 5207,
      "mĠ": 5208,
      "biaoĠyanĠ": 5209,
      "zuiĠhouĠ": 5210,
      "qiuĠjiĠ": 5211,
      "siĠwangĠ": 5212,
      "gaiĠgeĠ": 5213,
      "ĠzhuĠyao": 5214,
      "ĠweiĠyuĠfaĠguoĠ": 5215,
      "sheĠbeiĠ": 5216,
      "nongĠyeĠ": 5217,
      "daĠliangĠ": 5218,
      "duoĠgeĠ": 5219,
      "Ġzhao": 5220,
      "ĠzhiĠjinĠ": 5221,
      "meiĠzhouĠ": 5222,
      "dianĠshiĠjuĠ": 5223,
      "houĠyouĠ": 5224,
      "ĠshiĠdaiĠ": 5225,
      "Ġxiang": 5226,
      "ĠxiĠbanĠ": 5227,
      "guĠjiĠ": 5228,
      "Ġzu": 5229,
      "shangĠyiĠ": 5230,
      "aiĠdeĠ": 5231,
      "yangĠshiĠ": 5232,
      "zhuĠyuĠ": 5233,
      "guangĠchangĠ": 5234,
      "liuĠshiĠ": 5235,
      "zaiĠjiĠ": 5236,
      "zhanĠdouĠ": 5237,
      "ĠmeiĠyouĠ": 5238,
      "faĠyuĠ": 5239,
      "Ġfei": 5240,
      "ĠĠĠdaĠ": 5241,
      "wenĠwuĠbaoĠhuĠdanĠweiĠ": 5242,
      "Ġ11": 5243,
      "zhanĠkaiĠ": 5244,
      "ĠzhiĠliĠ": 5245,
      "jiaĠheĠ": 5246,
      "ĠjiaĠruĠ": 5247,
      "tiaoĠyueĠ": 5248,
      "fuĠjianĠ": 5249,
      "xieĠzhuĠ": 5250,
      "ĠyiĠbeiĠ": 5251,
      "ĠbuĠzaiĠ": 5252,
      "chanĠpinĠ": 5253,
      "hangĠkong": 5254,
      "bianĠchengĠ": 5255,
      "muĠqianĠ": 5256,
      "youĠzhengĠ": 5257,
      "ĠfenĠbie": 5258,
      "jiangĠyuĠ": 5259,
      "renĠyuĠ": 5260,
      "huoĠdeĠleĠ": 5261,
      "fenĠleiĠ": 5262,
      "daoĠluĠ": 5263,
      "gongĠyouĠrenĠkouĠ": 5264,
      "yingĠjiĠ": 5265,
      "duanĠdeĠ": 5266,
      "ĠzhiĠzaiĠ": 5267,
      "qunĠdaoĠ": 5268,
      "qingĠdeĠ": 5269,
      "ĠM": 5270,
      "biaoĠzhun": 5271,
      "ĠbeiĠqiĠ": 5272,
      "haiĠbaĠ": 5273,
      "zhenĠquĠ": 5274,
      "ĠzheĠyiĠ": 5275,
      "Ġzhang": 5276,
      "ĠĠĠjianĠ": 5277,
      "Ġ6Ġ": 5278,
      "biĠjiaoĠ": 5279,
      "ĠyingĠchiĠ": 5280,
      "naiĠ": 5281,
      "ĠqiĠyeĠ": 5282,
      "cuoĠ": 5283,
      "guiĠhuaĠ": 5284,
      "zhanĠzheng": 5285,
      "naoĠ": 5286,
      "ĠliĠziĠ": 5287,
      "ĠkeĠneng": 5288,
      "ĠxiĠwangĠ": 5289,
      "ĠxingĠzhengĠ": 5290,
      "suĠduĠ": 5291,
      "juĠyuĠ": 5292,
      "nvĠerĠ": 5293,
      "xiĠbuĠ": 5294,
      "ĠtiaoĠ": 5295,
      "ĠzhongĠhuaĠminĠguoĠ": 5296,
      "shouĠduĠ": 5297,
      "xiĠweiĠ": 5298,
      "nuĠ": 5299,
      "ĠbuĠhuiĠ": 5300,
      "ĠfaĠguoĠ": 5301,
      "ĠyiĠrenĠ": 5302,
      "qiaoĠzhiĠ": 5303,
      "ĠgongĠfenĠ": 5304,
      "ĠzaiĠzhongĠ": 5305,
      "meiĠpingĠfangĠgongĠliĠ": 5306,
      "miĠdeĠ": 5307,
      "rongĠyuĠ": 5308,
      "dongĠxiĠ": 5309,
      "jiuĠshiĠzhenĠ": 5310,
      "dongĠliĠ": 5311,
      "ĠyiĠyangĠ": 5312,
      "ĠdeĠshiĠjianĠ": 5313,
      "jinĠgongĠ": 5314,
      "manĠhuaĠ": 5315,
      "diĠyiĠgeĠ": 5316,
      "douĠyouĠ": 5317,
      "siĠheĠ": 5318,
      "ĠĠĠxiĠ": 5319,
      "ĠchengĠquĠ": 5320,
      "ĠnvĠ": 5321,
      "siĠweiĠ": 5322,
      "Ġtian": 5323,
      "henĠduoĠ": 5324,
      "maĠlai": 5325,
      "laĠdeĠ": 5326,
      "kenĠ": 5327,
      "ruĠxiaĠ": 5328,
      "taiĠbeiĠ": 5329,
      "zeĠrenĠ": 5330,
      "fuĠrenĠ": 5331,
      "ĠkongĠ": 5332,
      "laĠkeĠ": 5333,
      "ĠciĠhouĠ": 5334,
      "quĠdaiĠ": 5335,
      "jinĠbiaoĠsaiĠ": 5336,
      "xianĠdeĠyiĠgeĠ": 5337,
      "ĠyiĠxiaĠ": 5338,
      "shangĠwuĠ": 5339,
      "yuĠshiĠdeĠ": 5340,
      "ĠyuĠweiĠ": 5341,
      "jianĠyouĠ": 5342,
      "ĠerĠbeiĠ": 5343,
      "zongĠliĠ": 5344,
      "wangĠguoĠ": 5345,
      "ĠF": 5346,
      "xiangĠduiĠ": 5347,
      "lianĠxuĠ": 5348,
      "ĠĠĠfuĠ": 5349,
      "quĠyiĠ": 5350,
      "minĠzhongĠ": 5351,
      "jieĠrang": 5352,
      "rengĠran": 5353,
      "xiaoĠxiĠ": 5354,
      "miĠshuĠ": 5355,
      "tieĠdaoĠ": 5356,
      "zhengĠgeĠ": 5357,
      "ĠĠĠzheĠ": 5358,
      "zuiĠhouĠyiĠ": 5359,
      "ciĠjiĠ": 5360,
      "jueĠdeĠ": 5361,
      "renĠkouĠshuĠliangĠweiĠrenĠ": 5362,
      "Ġruo": 5363,
      "ĠP": 5364,
      "ĠĠĠzhuĠ": 5365,
      "ĠzhongĠxin": 5366,
      "quanĠdeĠ": 5367,
      "zhanĠlingĠ": 5368,
      "xinĠjiaĠ": 5369,
      "waiĠjiaoĠ": 5370,
      "diĠsanĠ": 5371,
      "jiaĠnaĠdaĠ": 5372,
      "ĠliĠshuĠyuĠ": 5373,
      "ĠrenĠzaiĠ": 5374,
      "tianĠzhuĠjiaoĠ": 5375,
      "zhenĠshiĠ": 5376,
      "ĠINSEE": 5377,
      "yeĠwuĠ": 5378,
      "chengĠzhenĠ": 5379,
      "Ġwu": 5380,
      "ciĠyuĠ": 5381,
      "qiĠta": 5382,
      "ĠheiĠ": 5383,
      "ĠranĠhouĠ": 5384,
      "ĠnianĠjiĠ": 5385,
      "yuanĠyouĠ": 5386,
      "daĠxue": 5387,
      "ĠyouĠyiĠ": 5388,
      "cengĠzaiĠ": 5389,
      "niaoĠ": 5390,
      "jianĠchaĠ": 5391,
      "zhengĠquanĠ": 5392,
      "shouĠgeĠ": 5393,
      "nanĠjiĠ": 5394,
      "zuoĠchuĠ": 5395,
      "ĠdeĠshiĠhouĠ": 5396,
      "shengĠchengĠ": 5397,
      "ĠheĠbeiĠ": 5398,
      "niĠsiĠ": 5399,
      "20Ġ": 5400,
      "juĠjueĠ": 5401,
      "luĠshiĠ": 5402,
      "jiaoĠweiĠ": 5403,
      "dĠ": 5404,
      "quĠxiaoĠ": 5405,
      "tiĠjiĠ": 5406,
      "ĠjieĠzhiĠ": 5407,
      "ĠdeĠyuĠ": 5408,
      "tĠĠĠ": 5409,
      "ĠzhengĠshiĠ": 5410,
      "dianĠjiĠ": 5411,
      "Ġrang": 5412,
      "shengĠzhiĠ": 5413,
      "cheĠliangĠ": 5414,
      "ĠgaiĠshengĠ": 5415,
      "heĠweiĠ": 5416,
      "Ġ00": 5417,
      "daĠliĠyaĠ": 5418,
      "zhongĠxinĠ": 5419,
      "duiĠzaiĠ": 5420,
      "xianĠfaĠ": 5421,
      "ĠduiĠyuĠ": 5422,
      "wangĠzhanĠ": 5423,
      "Ġbai": 5424,
      "heĠzhiĠ": 5425,
      "leĠjiĠ": 5426,
      "diĠfangĠ": 5427,
      "zhenĠdeĠ": 5428,
      "lanĠxiĠ": 5429,
      "ĠqiĠta": 5430,
      "ĠerĠzaiĠ": 5431,
      "ĠzongĠmianĠjiĠ": 5432,
      "yunĠyingĠ": 5433,
      "ĠK": 5434,
      "ĠdeĠliĠ": 5435,
      "jieĠjueĠ": 5436,
      "ziĠxingĠ": 5437,
      "ĠriĠben": 5438,
      "tianĠwenĠ": 5439,
      "2002ĠnianĠ": 5440,
      "2003ĠnianĠ": 5441,
      "moĠxiĠ": 5442,
      "ĠshiĠchangĠ": 5443,
      "ĠĠĠa": 5444,
      "gongĠyiĠ": 5445,
      "shuĠzhiĠ": 5446,
      "ĠdiĠqiĠ": 5447,
      "ĠjianĠzhuĠ": 5448,
      "shouĠweiĠ": 5449,
      "yeĠzaiĠ": 5450,
      "dianĠying": 5451,
      "ĠrenĠkouĠmiĠduĠmeiĠpingĠfangĠgongĠliĠ": 5452,
      "yingĠxiang": 5453,
      "xiaoĠxueĠ": 5454,
      "chaĠdeĠshuĠjuĠ": 5455,
      "youĠzhengĠbianĠmaĠweiĠ": 5456,
      "ĠI": 5457,
      "huiĠzhiĠ": 5458,
      "ganĠdaoĠ": 5459,
      "ĠxingĠchengĠ": 5460,
      "puĠtaoĠ": 5461,
      "ĠshiĠzhenĠbianĠmaĠweiĠ": 5462,
      "ĠINSEEĠshiĠzhenĠbianĠmaĠweiĠ": 5463,
      "qingĠshiĠ": 5464,
      "teĠliĠ": 5465,
      "ĠrenĠkouĠmiĠduĠweiĠmeiĠpingĠfangĠ": 5466,
      "ĠĠĠbuĠ": 5467,
      "mengĠguĠ": 5468,
      "muĠshiĠ": 5469,
      "ĠxiaĠlingĠshiĠ": 5470,
      "xiĠliĠ": 5471,
      "zhuoĠ": 5472,
      "diĠyiĠciĠ": 5473,
      "xuanĠquĠweiĠ": 5474,
      "ĠhuanĠ": 5475,
      "leiĠjiĠ": 5476,
      "gaoĠyuĠ": 5477,
      "niĠya": 5478,
      "yuĠshiĠdeĠrenĠkouĠshuĠliangĠweiĠrenĠ": 5479,
      "ĠbiaoĠshiĠ": 5480,
      "baoĠdeĠ": 5481,
      "zuoĠzhanĠ": 5482,
      "siĠzaiĠ": 5483,
      "meiĠguoĠrenĠkouĠpuĠchaĠdeĠshuĠjuĠ": 5484,
      "erĠzaiĠ": 5485,
      "zuoĠyiĠ": 5486,
      "luĠyiĠ": 5487,
      "ĠerĠrenĠkouĠmiĠduĠweiĠmeiĠpingĠfangĠ": 5488,
      "ĠdangĠdiĠgongĠyouĠrenĠkouĠ": 5489,
      "xiĠyuĠ": 5490,
      "ĠteĠbie": 5491,
      "yunĠxingĠ": 5492,
      "ĠhuoĠjiuĠshiĠzhenĠ": 5493,
      "xinĠliĠ": 5494,
      "jingĠchangĠ": 5495,
      "shengĠjiĠxuanĠquĠweiĠ": 5496,
      "jiangĠshiĠ": 5497,
      "ĠshuangĠ": 5498,
      "kuaiĠsuĠ": 5499,
      "AĠ": 5500,
      "yuanĠziĠ": 5501,
      "ĠG": 5502,
      "ĠzhongĠyang": 5503,
      "shaoĠnianĠ": 5504,
      "shengĠrenĠ": 5505,
      "bianĠjiĠ": 5506,
      "faĠdongĠ": 5507,
      "chongĠjianĠ": 5508,
      "fenĠweiĠfaĠguoĠ": 5509,
      "ĠgaiĠshengĠfenĠweiĠfaĠguoĠ": 5510,
      "ĠĠĠnianĠ": 5511,
      "faĠqiĠ": 5512,
      "gaoĠdengĠ": 5513,
      "Ġbo": 5514,
      "congĠshiĠ": 5515,
      "shuoĠfaĠ": 5516,
      "ĠnianĠchuĠ": 5517,
      "yangĠhuaĠ": 5518,
      "ĠyouĠrenĠ": 5519,
      "ĠnianĠyuĠ": 5520,
      "chengĠliĠyuĠ": 5521,
      "jiaĠzhongĠ": 5522,
      "mingĠyiĠ": 5523,
      "UĠ": 5524,
      "lianĠheĠguoĠ": 5525,
      "jinĠyiĠbuĠ": 5526,
      "ĠerĠqie": 5527,
      "yanĠjiuĠsuoĠ": 5528,
      "zhengĠmingĠ": 5529,
      "fangĠqiĠ": 5530,
      "naĠdeĠ": 5531,
      "daĠquĠ": 5532,
      "taiĠguoĠ": 5533,
      "ĠĠĠheĠ": 5534,
      "gongĠxianĠ": 5535,
      "gouĠdeĠ": 5536,
      "Ġhu": 5537,
      "lunĠdun": 5538,
      "ĠguoĠjiĠ": 5539,
      "aoĠlinĠpiĠkeĠyunĠdongĠhuiĠ": 5540,
      "fanĠhuiĠ": 5541,
      "jieĠrangĠdeĠshiĠzhenĠ": 5542,
      "ziĠweiĠ": 5543,
      "gongĠrenĠ": 5544,
      "suoĠshuĠdeĠshengĠjiĠxuanĠquĠweiĠ": 5545,
      "siĠliĠ": 5546,
      "xiangĠjiĠ": 5547,
      "yunĠshuĠ": 5548,
      "huoĠshiĠ": 5549,
      "ziĠran": 5550,
      "ĠR": 5551,
      "yuanĠliĠ": 5552,
      "2023ĠnianĠ": 5553,
      "tiĠxiĠ": 5554,
      "jianĠchengĠ": 5555,
      "biaoĠweiĠ": 5556,
      "ĠĠĠC": 5557,
      "naĠliĠ": 5558,
      "zhuĠchiĠ": 5559,
      "xingĠqiĠ": 5560,
      "Ġhuang": 5561,
      "zhongĠhuaĠrenĠminĠgongĠheĠguoĠ": 5562,
      "boĠlanĠ": 5563,
      "xiĠzaiĠ": 5564,
      "ziĠyuanĠ": 5565,
      "daoĠrenĠ": 5566,
      "reĠdaiĠ": 5567,
      "xiĠbanĠyaĠ": 5568,
      "mingĠdanĠ": 5569,
      "huaĠweiĠ": 5570,
      "ceĠdeĠ": 5571,
      "luoĠfuĠ": 5572,
      "ĠxiĠbeiĠ": 5573,
      "xiaĠwuĠ": 5574,
      "paiĠdeĠ": 5575,
      "ĠnianĠyouĠ": 5576,
      "ĠdiĠquĠdeĠ": 5577,
      "zhanĠdou": 5578,
      "fenĠdeĠ": 5579,
      "ĠhaĠ": 5580,
      "beiĠyiĠ": 5581,
      "niĠkeĠ": 5582,
      "ĠchuangĠ": 5583,
      "faĠsheĠ": 5584,
      "cuiĠ": 5585,
      "ĠheĠbingĠ": 5586,
      "wenĠmingĠ": 5587,
      "Ġ30": 5588,
      "ĠzaoĠ": 5589,
      "ĠĠĠcheĠzhanĠ": 5590,
      "ĠzhiĠchengĠ": 5591,
      "diaoĠcha": 5592,
      "chanĠyeĠ": 5593,
      "ĠnianĠhouĠ": 5594,
      "erĠheĠ": 5595,
      "ĠshiĠyiĠmingĠ": 5596,
      "wanĠjiaĠ": 5597,
      "ĠĠĠchuĠ": 5598,
      "fuĠqinĠ": 5599,
      "xiangĠdangĠ": 5600,
      "anĠshiĠ": 5601,
      "ĠyouĠshiĠ": 5602,
      "Ġkang": 5603,
      "shengĠshiĠ": 5604,
      "chaoĠzhengĠzhiĠrenĠwuĠ": 5605,
      "suĠdeĠ": 5606,
      "jinĠxingĠleĠ": 5607,
      "ĠweiĠshengĠ": 5608,
      "ĠpeiĠ": 5609,
      "ĠĠĠtaĠ": 5610,
      "meĠ": 5611,
      "jianĠjiĠ": 5612,
      "ĠbuĠnengĠ": 5613,
      "nanĠshengĠ": 5614,
      "xuanĠchuanĠ": 5615,
      "jinĠyiĠ": 5616,
      "ĠshiĠyiĠweiĠ": 5617,
      "yingĠliĠ": 5618,
      "jingĠshenĠ": 5619,
      "beiĠjiĠ": 5620,
      "lvĠshiĠ": 5621,
      "xianĠxiangĠ": 5622,
      "zaĠ": 5623,
      "shuĠzhongĠ": 5624,
      "shouĠshangĠ": 5625,
      "ziĠheĠ": 5626,
      "xiĠyangĠ": 5627,
      "mieĠ": 5628,
      "fuĠzeĠguanĠxiaĠ": 5629,
      "guanĠzhuĠ": 5630,
      "lianĠdeĠ": 5631,
      "qiĠzhongĠyiĠ": 5632,
      "lĠ": 5633,
      "jiaĠtingĠ": 5634,
      "paiĠmingĠ": 5635,
      "tongĠxingĠ": 5636,
      "lieĠweiĠ": 5637,
      "Ġbi": 5638,
      "saiĠerĠ": 5639,
      "ĠyueĠzaiĠ": 5640,
      "zhanĠhouĠ": 5641,
      "xuanĠrenĠ": 5642,
      "liuĠyuĠ": 5643,
      "shuĠliangĠ": 5644,
      "foĠjiaoĠ": 5645,
      "shuaiĠ": 5646,
      "lanĠqiuĠ": 5647,
      "keĠweiĠ": 5648,
      "xiaoĠzuĠ": 5649,
      "daoĠyanĠ": 5650,
      "zhengĠjuĠ": 5651,
      "jieĠyiĠ": 5652,
      "qiuĠdeĠ": 5653,
      "ĠxiĠnanĠ": 5654,
      "daĠweiĠ": 5655,
      "taoĠlunĠ": 5656,
      "baĠnianĠ": 5657,
      "ĠN": 5658,
      "wangĠshiĠ": 5659,
      "duĠjiaoĠ": 5660,
      "ĠĠĠand": 5661,
      "yanĠyiĠ": 5662,
      "neĠ": 5663,
      "reĠdai": 5664,
      "ĠĠĠbeiĠ": 5665,
      "ĠĠĠin": 5666,
      "ĠzhongĠgongĠ": 5667,
      "zhengĠdangĠ": 5668,
      "laiĠyuanĠ": 5669,
      "genĠju": 5670,
      "ĠshiĠxianĠ": 5671,
      "ĠtuoĠ": 5672,
      "baoĠchiĠ": 5673,
      "wenĠjianĠ": 5674,
      "ĠlongĠ": 5675,
      "ĠyiĠjianĠ": 5676,
      "houĠqiĠ": 5677,
      "ĠnianĠduĠ": 5678,
      "ĠerĠqieĠ": 5679,
      "Ġben": 5680,
      "ĠcanĠ": 5681,
      "zhongĠyangĠ": 5682,
      "ĠzhiĠxianĠ": 5683,
      "ĠdaoĠleĠ": 5684,
      "rengĠranĠ": 5685,
      "Ġ10ĠyueĠ": 5686,
      "ĠyiĠxiĠ": 5687,
      "lvĠkeĠ": 5688,
      "ruiĠshiĠ": 5689,
      "ĠjiĠsiĠ": 5690,
      "pingĠlunĠ": 5691,
      "ziĠdongĠ": 5692,
      "ĠzongĠrenĠkouĠ": 5693,
      "xiaĠdeĠyiĠgeĠ": 5694,
      "fanĠdeĠ": 5695,
      "ĠwuĠkeĠ": 5696,
      "mingĠshiĠ": 5697,
      "diĠsiĠ": 5698,
      "zaoĠnianĠ": 5699,
      "biaoĠmingĠ": 5700,
      "ĠB": 5701,
      "xuĠdeĠ": 5702,
      "luĠyuĠ": 5703,
      "ĠzhiĠmingĠ": 5704,
      "haiĠdeĠ": 5705,
      "ĠouĠ": 5706,
      "ĠjiĠhuĠ": 5707,
      "pingĠtaiĠ": 5708,
      "luoĠma": 5709,
      "keĠliĠsiĠ": 5710,
      "ĠL": 5711,
      "ĠshiĠjianĠyuĠ": 5712,
      "raoĠ": 5713,
      "xuĠyao": 5714,
      "cengĠjingĠ": 5715,
      "pengĠyouĠ": 5716,
      "ĠliĠrenĠ": 5717,
      "yinĠhang": 5718,
      "daĠyueĠ": 5719,
      "fengĠxianĠ": 5720,
      "eĠluoĠ": 5721,
      "haoĠweiĠ": 5722,
      "nanĠjingĠ": 5723,
      "ĠbeiĠjingĠ": 5724,
      "ĠciĠshiĠ": 5725,
      "ĠdeĠdiĠfangĠ": 5726,
      "shengĠyiĠ": 5727,
      "gongĠzhongĠyangĠ": 5728,
      "taiĠpingĠyangĠ": 5729,
      "yuĠĠĠ": 5730,
      "souĠ": 5731,
      "zhengĠbuĠ": 5732,
      "lianĠbang": 5733,
      "jiaoĠbuĠ": 5734,
      "xingĠbuĠ": 5735,
      "keĠzaiĠ": 5736,
      "jingĠyouĠ": 5737,
      "yanĠgeĠ": 5738,
      "xuanĠquĠ": 5739,
      "queĠdingĠ": 5740,
      "yuanĠzaiĠ": 5741,
      "ĠguoĠwangĠ": 5742,
      "daoĠdaĠ": 5743,
      "shenĠweiĠ": 5744,
      "jianĠduiĠ": 5745,
      "chongĠtuĠ": 5746,
      "ĠmiaoĠ": 5747,
      "ĠĠĠxianĠ": 5748,
      "jianĠrenĠ": 5749,
      "ĠyiĠshangĠ": 5750,
      "wuĠrenĠ": 5751,
      "moĠxingĠ": 5752,
      "biaoĠzhiĠ": 5753,
      "huaĠyuĠ": 5754,
      "ruĠheĠ": 5755,
      "Ġlin": 5756,
      "qianĠshiĠ": 5757,
      "keĠshiĠ": 5758,
      "jiaoĠtangĠ": 5759,
      "qianĠzhiĠ": 5760,
      "tuiĠyiĠ": 5761,
      "xiaoĠguoĠ": 5762,
      "zhangĠdaĠ": 5763,
      "shangĠyingĠ": 5764,
      "ĠĠĠ2021": 5765,
      "daoĠheĠ": 5766,
      "keĠsiĠ": 5767,
      "ĠgongĠyuanĠ": 5768,
      "ĠĠĠsuiĠ": 5769,
      "jingĠweiĠ": 5770,
      "leiĠxingĠ": 5771,
      "ĠyiĠliĠ": 5772,
      "ĠdaĠxue": 5773,
      "zhouĠweiĠ": 5774,
      "queĠzhenĠ": 5775,
      "xianĠjiĠ": 5776,
      "yeĠbuĠ": 5777,
      "biaoĠdaĠ": 5778,
      "fengĠbaoĠ": 5779,
      "guangĠzhouĠ": 5780,
      "xiaĠshiĠ": 5781,
      "dangĠxuanĠ": 5782,
      "xieĠdeĠ": 5783,
      "ĠtanĠ": 5784,
      "biĠyaĠ": 5785,
      "Ġdeng": 5786,
      "ĠĠĠ2020": 5787,
      "dingĠyuĠ": 5788,
      "pangĠ": 5789,
      "liangĠzhongĠ": 5790,
      "qiĠyeĠ": 5791,
      "ĠcengĠrenĠ": 5792,
      "ĠjiĠbeiĠ": 5793,
      "pingĠmianĠ": 5794,
      "Ġgao": 5795,
      "shengĠhuo": 5796,
      "jiaoĠquĠ": 5797,
      "xianĠheĠ": 5798,
      "anĠjianĠ": 5799,
      "chengĠxianĠ": 5800,
      "shenĠqingĠ": 5801,
      "luĠsiĠ": 5802,
      "xingĠyiĠ": 5803,
      "ĠzhiĠfuĠ": 5804,
      "tuanĠduiĠ": 5805,
      "ĠerĠrenĠkouĠmiĠduĠweiĠmeiĠpingĠfangĠqianĠmiĠ": 5806,
      "ĠjinĠruĠ": 5807,
      "ĠliĠdaĠ": 5808,
      "neiĠrong": 5809,
      "chaĠyiĠ": 5810,
      "ĠliĠlunĠ": 5811,
      "yingĠgeĠlanĠ": 5812,
      "puĠtongĠ": 5813,
      "yaoĠqingĠ": 5814,
      "0Ġ": 5815,
      "yuanĠzhangĠ": 5816,
      "ĠqinĠ": 5817,
      "ĠzhongĠyouĠ": 5818,
      "Ġzheng": 5819,
      "yuanĠsuĠ": 5820,
      "xingĠrenĠ": 5821,
      "jiuĠnianĠ": 5822,
      "ĠjieĠguoĠ": 5823,
      "xiĠheĠ": 5824,
      "ĠtaĠmenĠdeĠ": 5825,
      "riĠqiĠ": 5826,
      "qiuĠchangĠ": 5827,
      "ĠO": 5828,
      "rouĠ": 5829,
      "xiaoĠshouĠ": 5830,
      "zhongĠyaoĠ": 5831,
      "yanĠzhiĠ": 5832,
      "hengĠxingĠ": 5833,
      "ziĠyiĠ": 5834,
      "ruĠciĠ": 5835,
      "duiĠshouĠ": 5836,
      "laĠfuĠ": 5837,
      "fenĠbieĠ": 5838,
      "tiaoĠzhanĠ": 5839,
      "zuoĠshiĠ": 5840,
      "baoĠweiĠ": 5841,
      "chengĠyuĠ": 5842,
      "shuĠyiĠ": 5843,
      "ĠqiĠyuĠ": 5844,
      "huiĠjiĠ": 5845,
      "laiĠshuoĠ": 5846,
      "ĠyueĠyuĠ": 5847,
      "ruĠguoĠ": 5848,
      "ĠzhiĠzaoĠ": 5849,
      "xueĠshuĠ": 5850,
      "heĠyuĠ": 5851,
      "anĠnaĠ": 5852,
      "ĠzhongĠhuaĠ": 5853,
      "wangĠluĠ": 5854,
      "ĠĠĠF": 5855,
      "lunĠdeĠ": 5856,
      "nuĠliĠ": 5857,
      "niĠdeĠ": 5858,
      "ĠshiĠdiĠ": 5859,
      "shunĠ": 5860,
      "wuĠyiĠ": 5861,
      "Ġ8ĠyueĠ": 5862,
      "fuĠqin": 5863,
      "zhengĠzhuangĠ": 5864,
      "jiaĠrenĠ": 5865,
      "ĠmaiĠ": 5866,
      "caiĠyong": 5867,
      "tingĠdeĠ": 5868,
      "nengĠgou": 5869,
      "ziĠzhiĠquĠ": 5870,
      "jieĠfangĠjunĠ": 5871,
      "xiaoĠzhangĠ": 5872,
      "ĠhaoĠxianĠ": 5873,
      "teĠbieĠ": 5874,
      "dianĠtaiĠ": 5875,
      "ĠtongĠchangĠ": 5876,
      "minĠdeĠ": 5877,
      "haiĠziĠ": 5878,
      "youĠliĠ": 5879,
      "lanĠkeĠ": 5880,
      "shuĠziĠ": 5881,
      "xiangĠyuĠ": 5882,
      "quĠheĠ": 5883,
      "ĠxiaoĠshiĠ": 5884,
      "chuangĠliĠ": 5885,
      "gengĠmingĠweiĠ": 5886,
      "taĠshiĠ": 5887,
      "quanĠshiĠ": 5888,
      "2024ĠnianĠ": 5889,
      "zongĠduĠ": 5890,
      "xuĠshiĠ": 5891,
      "duoĠzhongĠ": 5892,
      "fanĠyiĠ": 5893,
      "geĠyouĠ": 5894,
      "sheĠyuĠ": 5895,
      "zhuĠyanĠ": 5896,
      "jiaĠgeĠ": 5897,
      "Ġdai": 5898,
      "chuĠshenĠ": 5899,
      "huoĠdong": 5900,
      "jiangĠxiĠ": 5901,
      "ĠH": 5902,
      "ĠzaiĠyiĠ": 5903,
      "ĠĠĠ2019": 5904,
      "xinĠshiĠ": 5905,
      "boĠdeĠ": 5906,
      "huĠshiĠ": 5907,
      "mingĠyuĠ": 5908,
      "ĠsuoĠyouĠ": 5909,
      "jiangĠxiangĠ": 5910,
      "sunĠshiĠ": 5911,
      "shouĠruĠ": 5912,
      "banĠgongĠshiĠ": 5913,
      "linĠdeĠ": 5914,
      "danĠdeĠ": 5915,
      "ĠĠĠwuĠ": 5916,
      "ĠzhongĠyaoĠ": 5917,
      "juĠxingĠdeĠ": 5918,
      "Ġpei": 5919,
      "ĠlaoĠ": 5920,
      "duiĠyiĠ": 5921,
      "jingĠchaĠ": 5922,
      "saĠkeĠ": 5923,
      "jieĠjinĠ": 5924,
      "ĠweiĠlianĠ": 5925,
      "ĠjiĠbenĠ": 5926,
      "jieĠweiĠ": 5927,
      "jieĠyuĠ": 5928,
      "kaĠsiĠ": 5929,
      "ĠĠĠxiaĠ": 5930,
      "guanĠdianĠ": 5931,
      "ĠliĠheĠ": 5932,
      "ĠdeĠyiĠzuoĠ": 5933,
      "ĠfaĠxianĠ": 5934,
      "1999ĠnianĠ": 5935,
      "jiangĠdiĠ": 5936,
      "shaoĠshuĠ": 5937,
      "ĠĠĠ2018": 5938,
      "kanĠdaoĠ": 5939,
      "wenĠzhangĠ": 5940,
      "weiĠĠĠ": 5941,
      "ĠjiĠzheĠ": 5942,
      "nĠ": 5943,
      "Ġhan": 5944,
      "lunĠdunĠ": 5945,
      "touĠxiangĠ": 5946,
      "huiĠshangĠ": 5947,
      "luĠdiĠmianĠjiĠweiĠ": 5948,
      "yĠ": 5949,
      "Ġzhuan": 5950,
      "ĠĠĠgeĠ": 5951,
      "ampĠ": 5952,
      "shuiĠyuĠmianĠjiĠweiĠ": 5953,
      "jieĠquanĠguoĠ": 5954,
      "ĠdaĠquĠ": 5955,
      "wenĠziĠ": 5956,
      "Ġ19": 5957,
      "zhanĠjiĠ": 5958,
      "xingĠjianĠ": 5959,
      "ĠdeĠdiĠquĠ": 5960,
      "sangĠ": 5961,
      "18Ġ": 5962,
      "aoĠmenĠ": 5963,
      "zaiĠzhiĠ": 5964,
      "wenĠyiĠ": 5965,
      "ĠcheĠzhanĠ": 5966,
      "ĠjiĠtuan": 5967,
      "zhangĠshiĠ": 5968,
      "kangĠyiĠ": 5969,
      "lengĠ": 5970,
      "xiĠbeiĠ": 5971,
      "haiĠanĠ": 5972,
      "waiĠguoĠ": 5973,
      "ruĠkouĠ": 5974,
      "chuĠshengĠ": 5975,
      "ĠxiongĠ": 5976,
      "ĠĠĠkeĠ": 5977,
      "wenĠdeĠ": 5978,
      "mingĠdiĠ": 5979,
      "xingĠxingĠ": 5980,
      "jiaoĠliuĠ": 5981,
      "xiĠzhiĠ": 5982,
      "zhenĠduiĠ": 5983,
      "ĠxianĠzaiĠ": 5984,
      "ĠfenĠzhongĠ": 5985,
      "xinĠrenĠ": 5986,
      "duĠyuĠ": 5987,
      "ĠampĠ": 5988,
      "cuoĠshiĠ": 5989,
      "zhangĠkeĠdaĠ": 5990,
      "tianĠjinĠ": 5991,
      "tiaoĠzhengĠ": 5992,
      "fangĠzaiĠ": 5993,
      "poĠhuaiĠ": 5994,
      "junĠdiĠ": 5995,
      "tiĠmingĠ": 5996,
      "xuanĠze": 5997,
      "ĠdangĠzhongĠluĠdiĠmianĠjiĠweiĠ": 5998,
      "ĠerĠshuiĠyuĠmianĠjiĠweiĠ": 5999,
      "Ġshou": 6000,
      "1998ĠnianĠ": 6001,
      "ĠĠĠ2022": 6002,
      "rongĠyiĠ": 6003,
      "chuĠfaĠ": 6004,
      "ĠbeiĠerĠ": 6005,
      "ĠjiĠshiĠ": 6006,
      "ĠjuĠliĠ": 6007,
      "zaoĠyuĠ": 6008,
      "jingĠdianĠ": 6009,
      "chiĠdeĠ": 6010,
      "ĠhaiĠyouĠ": 6011,
      "baĠxiĠ": 6012,
      "guangĠxiĠ": 6013,
      "luoĠdiĠ": 6014,
      "gouĠchengĠ": 6015,
      "bianĠjieĠ": 6016,
      "ouĠyuanĠ": 6017,
      "xianĠchangĠ": 6018,
      "xianĠyouĠ": 6019,
      "ĠxiangĠgang": 6020,
      "xiĠyiĠ": 6021,
      "shanĠjiĠ": 6022,
      "Ġe": 6023,
      "taiĠyangĠ": 6024,
      "fuĠjiĠ": 6025,
      "daoĠjiĠ": 6026,
      "tengĠ": 6027,
      "haĠerĠ": 6028,
      "ĠdeĠzhiĠchiĠ": 6029,
      "ĠyueĠyouĠ": 6030,
      "ĠĠĠandĠĠĠ": 6031,
      "siĠchuanĠ": 6032,
      "yueĠtaiĠ": 6033,
      "ĠĠĠxingĠzhengĠquĠhuaĠ": 6034,
      "Ġao": 6035,
      "mingĠzhiĠ": 6036,
      "ĠyuĠciĠ": 6037,
      "ĠzaiĠzheĠ": 6038,
      "duiĠwuĠ": 6039,
      "ĠjingĠguoĠ": 6040,
      "touĠruĠ": 6041,
      "cunĠzhuangĠ": 6042,
      "ĠTheĠĠĠ": 6043,
      "ĠcongĠerĠ": 6044,
      "daĠzhongĠ": 6045,
      "kengĠ": 6046,
      "ĠnianĠbeiĠ": 6047,
      "youĠweiĠ": 6048,
      "cunĠdeĠ": 6049,
      "Ġhou": 6050,
      "ĠsaĠ": 6051,
      "dengĠluĠ": 6052,
      "Ġ9ĠyueĠ": 6053,
      "daĠzhiĠ": 6054,
      "touĠpiaoĠ": 6055,
      "ĠshiĠliĠ": 6056,
      "geĠleiĠ": 6057,
      "dĠĠĠ": 6058,
      "12Ġ": 6059,
      "changĠyiĠ": 6060,
      "ĠyueĠweiĠ": 6061,
      "yuanĠhuiĠ": 6062,
      "ĠĠĠ2017": 6063,
      "ĠzhiĠxiaĠ": 6064,
      "gongĠminĠ": 6065,
      "yinĠfaĠ": 6066,
      "biĠyeĠyuĠ": 6067,
      "jianĠzhongĠ": 6068,
      "zhangĠyuĠ": 6069,
      "nuoĠweiĠ": 6070,
      "tuĠerĠqiĠ": 6071,
      "jiaĠyuĠ": 6072,
      "fangĠweiĠ": 6073,
      "tuiĠdongĠ": 6074,
      "ĠshiĠzhongĠguoĠ": 6075,
      "gongĠyuĠ": 6076,
      "zhanĠdiĠ": 6077,
      "hunĠheĠ": 6078,
      "ĠrenĠmenĠ": 6079,
      "juĠzhuĠ": 6080,
      "baoĠliuĠ": 6081,
      "Ġãĥ": 6082,
      "geĠyiĠ": 6083,
      "Ġbian": 6084,
      "qianĠshuĠ": 6085,
      "jinĠru": 6086,
      "wenĠdingĠ": 6087,
      "haiĠdaoĠ": 6088,
      "yĠĠĠ": 6089,
      "leĠsiĠ": 6090,
      "ganĠran": 6091,
      "shuĠheĠ": 6092,
      "biĠsaiĠzhongĠ": 6093,
      "ĠtiĠzhangĠkeĠdaĠ": 6094,
      "ĠformulaĠ": 6095,
      "erĠrenĠ": 6096,
      "ĠzaiĠbeiĠ": 6097,
      "ziĠranĠ": 6098,
      "xiĠzhongĠ": 6099,
      "ĠbuĠfen": 6100,
      "daĠfuĠ": 6101,
      "Ġ7ĠyueĠ": 6102,
      "wuĠyuĠ": 6103,
      "ziĠliĠ": 6104,
      "nanĠbeiĠ": 6105,
      "junĠyiĠ": 6106,
      "keĠyuĠ": 6107,
      "tuĠdeĠ": 6108,
      "piĠzhunĠ": 6109,
      "ĠbiaoĠ": 6110,
      "chuĠjiĠ": 6111,
      "qiĠziĠ": 6112,
      "ĠweiĠfuĠqiĠyuĠ": 6113,
      "yongĠhuĠ": 6114,
      "hengĠliĠ": 6115,
      "fangĠwenĠ": 6116,
      "zhuangĠjiaĠ": 6117,
      "ĠyouĠjiĠ": 6118,
      "tiĠgaoĠ": 6119,
      "ĠwoĠmenĠ": 6120,
      "diĠjiĠ": 6121,
      "maĠkeĠ": 6122,
      "11Ġ": 6123,
      "ĠshiĠquĠ": 6124,
      "ĠnianĠheĠ": 6125,
      "chengĠzuoĠ": 6126,
      "ĠĠĠ2016": 6127,
      "jianĠheĠ": 6128,
      "ĠyiĠdaĠliĠ": 6129,
      "Ġpa": 6130,
      "ziĠjinĠ": 6131,
      "ĠyinĠduĠ": 6132,
      "xunĠsuĠ": 6133,
      "Ġan": 6134,
      "benĠtuĠ": 6135,
      "houĠxuanĠrenĠ": 6136,
      "xinĠhaoĠ": 6137,
      "erĠyuĠ": 6138,
      "ĠtingĠ": 6139,
      "zhanĠzhongĠ": 6140,
      "xiaoĠliĠ": 6141,
      "moĠerĠ": 6142,
      "xianĠluĠ": 6143,
      "pinĠpaiĠ": 6144,
      "Ġhai": 6145,
      "angĠ": 6146,
      "jinĠshuĠ": 6147,
      "jieĠshuĠhouĠ": 6148,
      "ĠzhongĠdeĠ": 6149,
      "Ġ12ĠyueĠ": 6150,
      "geĠgeĠ": 6151,
      "ĠtaĠyiĠ": 6152,
      "ĠW": 6153,
      "ĠxiuĠ": 6154,
      "ciĠweiĠ": 6155,
      "xinĠyiĠ": 6156,
      "guangĠfanĠ": 6157,
      "zhuĠmingĠdeĠ": 6158,
      "rĠ": 6159,
      "zhongĠliĠ": 6160,
      "shangĠrenĠ": 6161,
      "xianĠhouĠ": 6162,
      "yingĠpianĠ": 6163,
      "yongĠyiĠ": 6164,
      "zhuĠmingĠ": 6165,
      "cengĠyuĠ": 6166,
      "zuiĠchuĠ": 6167,
      "mouĠxieĠ": 6168,
      "chengĠzhiĠ": 6169,
      "Ġ11ĠyueĠ": 6170,
      "ĠdeĠyiĠzhiĠ": 6171,
      "wuĠweiĠ": 6172,
      "jianĠzaoĠ": 6173,
      "shiĠĠĠ": 6174,
      "jianĠzaiĠ": 6175,
      "jieĠyouĠ": 6176,
      "lingĠwaiĠ": 6177,
      "Ġhong": 6178,
      "ĠdeĠshiĠquĠweiĠ": 6179,
      "chuĠzhanĠ": 6180,
      "xiaĠlaiĠ": 6181,
      "ĠĠĠdeĠshiĠ": 6182,
      "ĠzhiĠnengĠ": 6183,
      "xueĠhuiĠ": 6184,
      "buĠtongĠdeĠ": 6185,
      "ĠbingĠyiĠ": 6186,
      "Ġtw": 6187,
      "jiangĠsuĠ": 6188,
      "saĠerĠ": 6189,
      "heĠzuoĠ": 6190,
      "ĠzhongĠguoĠgongĠchanĠdangĠ": 6191,
      "XĠ": 6192,
      "buĠduiĠ": 6193,
      "ĠjiaĠshangĠ": 6194,
      "dangĠshiĠdeĠ": 6195,
      "zhuĠbuĠ": 6196,
      "shanĠdaĠ": 6197,
      "shuiĠpingĠ": 6198,
      "hansĠ": 6199,
      "Ġ21Ġ": 6200,
      "boĠerĠ": 6201,
      "ĠhansĠ": 6202,
      "keĠheĠ": 6203,
      "ĠdiĠqu": 6204,
      "meiĠnianĠ": 6205,
      "xuĠqiuĠ": 6206,
      "ĠĠĠerĠ": 6207,
      "ĠjiĠchengĠ": 6208,
      "jianĠshaoĠ": 6209,
      "teĠshuĠ": 6210,
      "ĠtwĠ": 6211,
      "shanĠdeĠ": 6212,
      "daĠchengĠ": 6213,
      "jiaĠzuĠ": 6214,
      "Ġ2011": 6215,
      "ĠzheĠxie": 6216,
      "ĠĠĠqingĠ": 6217,
      "lvĠweiĠ": 6218,
      "ĠrenĠleiĠ": 6219,
      "paiĠchuĠ": 6220,
      "xiaoĠshuo": 6221,
      "aoĠdaĠliĠyaĠ": 6222,
      "nanĠyiĠ": 6223,
      "ĠriĠyuĠ": 6224,
      "jieĠrangĠ": 6225,
      "gongĠchangĠ": 6226,
      "siĠkeĠ": 6227,
      "ĠdanĠtaĠ": 6228,
      "ĠchengĠyuanĠ": 6229,
      "changĠheĠ": 6230,
      "jieĠkeĠ": 6231,
      "ziĠxunĠ": 6232,
      "ĠJ": 6233,
      "ĠjiĠguanĠ": 6234,
      "ĠzaiĠzhongĠguoĠ": 6235,
      "jueĠding": 6236,
      "sheĠhuiĠzhuĠyiĠ": 6237,
      "ĠyuĠrenĠ": 6238,
      "ĠĠĠ2023": 6239,
      "zhuĠyouĠ": 6240,
      "zhuangĠzhiĠ": 6241,
      "ĠxiĠbaoĠ": 6242,
      "kĠ": 6243,
      "ĠmenĠ": 6244,
      "ĠĠĠ2014": 6245,
      "jingĠyanĠ": 6246,
      "faĠchuĠ": 6247,
      "Ġ2010ĠnianĠ": 6248,
      "ĠjiĠrenĠ": 6249,
      "waĠerĠ": 6250,
      "yinĠsuĠ": 6251,
      "suoĠdeĠ": 6252,
      "rengĠ": 6253,
      "ĠjieĠmuĠ": 6254,
      "ĠfaĠxingĠ": 6255,
      "tiĠshiĠ": 6256,
      "1997ĠnianĠ": 6257,
      "yingĠwenĠ": 6258,
      "ĠeĠluoĠsiĠ": 6259,
      "luĠzhiĠ": 6260,
      "ĠhouĠlai": 6261,
      "ĠĠĠyuanĠ": 6262,
      "ĠxuĠduoĠ": 6263,
      "tuĠzhongĠ": 6264,
      "kongĠzhongĠ": 6265,
      "chuĠshengĠyuĠ": 6266,
      "ĠĠĠli": 6267,
      "beiĠzhiĠ": 6268,
      "huaĠheĠ": 6269,
      "suiĠdaoĠ": 6270,
      "shaĠsiĠ": 6271,
      "ĠĠĠT": 6272,
      "fenĠzhongĠ": 6273,
      "yongĠshiĠ": 6274,
      "lingĠtuĠ": 6275,
      "ĠjingĠjiĠ": 6276,
      "meiĠgeĠ": 6277,
      "ĠĠĠyuĠshiĠdeĠrenĠkouĠshuĠliangĠweiĠrenĠ": 6278,
      "ĠĠĠsuoĠshuĠdeĠshengĠjiĠxuanĠquĠweiĠ": 6279,
      "minĠjianĠ": 6280,
      "ĠĠĠdeĠyouĠzhengĠbianĠmaĠweiĠ": 6281,
      "ĠĠĠyuĠjieĠrangĠdeĠshiĠzhenĠ": 6282,
      "ĠĠĠdeĠshiĠquĠweiĠ": 6283,
      "gengĠjiaĠ": 6284,
      "ĠguoĠchengĠ": 6285,
      "xiangĠsiĠ": 6286,
      "Ġ2019": 6287,
      "ĠĠĠ2015": 6288,
      "zengĠzhangĠ": 6289,
      "nanĠdeĠ": 6290,
      "ĠzaiĠdaĠ": 6291,
      "keĠchengĠ": 6292,
      "jiangĠdeĠ": 6293,
      "kongĠjunĠ": 6294,
      "huiĠyingĠ": 6295,
      "Ġ2009ĠnianĠ": 6296,
      "ĠshengĠhuo": 6297,
      "guĠwenĠ": 6298,
      "leĠshiĠ": 6299,
      "ĠheĠxiĠ": 6300,
      "ĠtaĠyeĠ": 6301,
      "guangĠgaoĠ": 6302,
      "Ġwang": 6303,
      "ĠshiĠmeiĠguoĠ": 6304,
      "teĠerĠ": 6305,
      "ĠyiĠjiaĠ": 6306,
      "ĠĠĠK": 6307,
      "1996ĠnianĠ": 6308,
      "Ġhk": 6309,
      "zhouĠfuĠ": 6310,
      "ĠdiĠdaĠ": 6311,
      "ĠzhiĠshiĠ": 6312,
      "ĠjiĠyouĠ": 6313,
      "jueĠse": 6314,
      "ĠzhuangĠ": 6315,
      "anĠpaiĠ": 6316,
      "xianĠxingĠ": 6317,
      "ĠbingĠjiangĠ": 6318,
      "ĠĠĠ2013": 6319,
      "chaoĠshiĠ": 6320,
      "guanĠbiĠ": 6321,
      "zongĠbuĠ": 6322,
      "feiĠjianĠzhiĠ": 6323,
      "tiĠshengĠ": 6324,
      "woĠmenĠ": 6325,
      "ĠĠĠE": 6326,
      "fangĠbuĠ": 6327,
      "daĠyuĠ": 6328,
      "xuĠkeĠ": 6329,
      "hanĠshuĠ": 6330,
      "ĠĠĠxinĠ": 6331,
      "tiĠyiĠ": 6332,
      "langĠdeĠ": 6333,
      "minĠzhuĠdangĠ": 6334,
      "Ġ6ĠyueĠ": 6335,
      "zhuangĠshiĠ": 6336,
      "ĠbingĠyouĠ": 6337,
      "zhengĠfuĠdeĠ": 6338,
      "quanĠmianĠ": 6339,
      "ĠhkĠ": 6340,
      "erĠyiĠ": 6341,
      "ciĠyiĠ": 6342,
      "banĠgongĠ": 6343,
      "ĠdeĠguoĠjiaĠ": 6344,
      "Ġfeng": 6345,
      "ĠxuanĠbuĠ": 6346,
      "junĠjiĠ": 6347,
      "xingĠtaiĠ": 6348,
      "cheĠzhan": 6349,
      "ĠerĠgaiĠ": 6350,
      "ĠheĠerĠ": 6351,
      "baoĠliĠ": 6352,
      "diĠguoĠ": 6353,
      "jieĠgou": 6354,
      "duiĠshiĠ": 6355,
      "shanĠmai": 6356,
      "juĠbuĠ": 6357,
      "lingĠdeĠ": 6358,
      "foĠ": 6359,
      "ruiĠdianĠ": 6360,
      "jiaĠru": 6361,
      "dangĠyuĠ": 6362,
      "luoĠkeĠ": 6363,
      "weiĠyiĠgeĠ": 6364,
      "junĠgongĠ": 6365,
      "dangĠzhongĠ": 6366,
      "weiĠzhiĠ": 6367,
      "tuĠshuĠguanĠ": 6368,
      "neiĠluĠ": 6369,
      "ĠtaoĠ": 6370,
      "ĠlaiĠziĠ": 6371,
      "huaĠzhongĠ": 6372,
      "zhuanĠjiaĠ": 6373,
      "ĠjiĠnianĠ": 6374,
      "ĠyueĠtaiĠ": 6375,
      "chengĠxuĠ": 6376,
      "huiĠbeiĠ": 6377,
      "seĠlieĠ": 6378,
      "shanĠshiĠ": 6379,
      "yunĠxuĠ": 6380,
      "bingĠmeiĠyouĠ": 6381,
      "tianĠdeĠ": 6382,
      "jiuĠdianĠ": 6383,
      "geĠzhiĠ": 6384,
      "ĠkeĠxueĠ": 6385,
      "ĠĠĠxiangĠ": 6386,
      "ĠqiĠzhongĠyiĠ": 6387,
      "1992ĠnianĠ": 6388,
      "siĠxiangĠ": 6389,
      "feiĠjianĠzhiĠdiĠquĠ": 6390,
      "Ġ5ĠyueĠ": 6391,
      "daiĠyouĠ": 6392,
      "ĠmaoĠ": 6393,
      "baĠweiĠ": 6394,
      "zuĠchengĠdeĠ": 6395,
      "ĠxiĠjieĠ": 6396,
      "ĠwanĠrenĠ": 6397,
      "jingĠzhengĠ": 6398,
      "ĠãĤ": 6399,
      "faĠlv": 6400,
      "dianĠnao": 6401,
      "guoĠweiĠ": 6402,
      "jinĠpaiĠ": 6403,
      "changĠyuĠ": 6404,
      "tanĠkeĠ": 6405,
      "ĠliĠbuĠ": 6406,
      "ĠyouĠqiĠshiĠ": 6407,
      "bingĠshiĠ": 6408,
      "huanĠyingĠ": 6409,
      "Ġqian": 6410,
      "Ġ2018": 6411,
      "ĠzhengĠfuĠ": 6412,
      "tongĠyuĠ": 6413,
      "maĠerĠ": 6414,
      "xiaĠjiangĠ": 6415,
      "sanĠjiaoĠ": 6416,
      "moĠxiĠgeĠ": 6417,
      "geĠlan": 6418,
      "yanĠjiuĠyuanĠ": 6419,
      "jiuĠdeĠ": 6420,
      "shuĠxueĠ": 6421,
      "neiĠgeĠ": 6422,
      "ĠshiĠjieĠbeiĠ": 6423,
      "ĠlieĠ": 6424,
      "ĠliĠya": 6425,
      "huaĠrenĠ": 6426,
      "zhuanĠyiĠ": 6427,
      "gongĠsiĠdeĠ": 6428,
      "ĠgongĠzuoĠ": 6429,
      "ĠchuĠyuĠ": 6430,
      "junĠyouĠ": 6431,
      "jiuĠzhiĠ": 6432,
      "ĠheĠdiĠ": 6433,
      "ĠchaĠ": 6434,
      "ĠĠĠjiaĠzuĠ": 6435,
      "ĠjiĠchuĠ": 6436,
      "mingĠmingĠweiĠ": 6437,
      "muĠqinĠ": 6438,
      "laiĠdaoĠ": 6439,
      "ĠdiĠxiaĠ": 6440,
      "dengĠweiĠ": 6441,
      "yingĠyunĠ": 6442,
      "beiĠrenĠweiĠshiĠ": 6443,
      "xiuĠgaiĠ": 6444,
      "shuoĠmingĠ": 6445,
      "shengĠzhangĠ": 6446,
      "huiĠzhangĠ": 6447,
      "xĠ": 6448,
      "ĠĠĠG": 6449,
      "queĠfaĠ": 6450,
      "mingĠlingĠ": 6451,
      "yongĠlaiĠ": 6452,
      "Ġna": 6453,
      "ĠĠĠM": 6454,
      "duiĠqiĠ": 6455,
      "ziĠmuĠ": 6456,
      "huĠdeĠ": 6457,
      "xunĠhuiĠ": 6458,
      "shouĠfuĠ": 6459,
      "ĠdanĠyouĠyuĠ": 6460,
      "wenĠshiĠ": 6461,
      "ĠbuĠtongĠdeĠ": 6462,
      "daiĠliĠ": 6463,
      "ĠĠĠzhĠ": 6464,
      "maoĠqiuĠ": 6465,
      "ĠminĠguoĠ": 6466,
      "ĠzaiĠmeiĠguoĠ": 6467,
      "ĠshiĠyiĠge": 6468,
      "ĠdeĠdiĠerĠ": 6469,
      "ĠrangĠ": 6470,
      "ĠweiĠweiĠ": 6471,
      "zhuĠjiĠ": 6472,
      "ĠyinĠyueĠ": 6473,
      "gongĠjuĠ": 6474,
      "Ġ4ĠyueĠ": 6475,
      "toĠĠĠ": 6476,
      "chengĠweiĠleĠ": 6477,
      "liaoĠjieĠ": 6478,
      "ĠtaĠbeiĠ": 6479,
      "yeĠbeiĠ": 6480,
      "taĠyuĠ": 6481,
      "yinĠdeĠ": 6482,
      "changĠdiĠ": 6483,
      "queĠrenĠ": 6484,
      "ruanĠ": 6485,
      "feiĠlvĠ": 6486,
      "faĠanĠ": 6487,
      "juĠzhangĠ": 6488,
      "ĠĠĠjieĠzhiĠ": 6489,
      "caiĠquĠ": 6490,
      "ĠkangĠ": 6491,
      "shenĠtiĠ": 6492,
      "beiĠerĠ": 6493,
      "ĠtaĠhaiĠ": 6494,
      "ĠshangĠhaiĠ": 6495,
      "changĠpianĠ": 6496,
      "ĠzhongĠguoĠrenĠminĠ": 6497,
      "cheĠxiaoĠ": 6498,
      "canĠjiaĠleĠ": 6499,
      "ĠsheĠjiĠ": 6500,
      "1995ĠnianĠ": 6501,
      "Ġ2016": 6502,
      "boĠfangĠ": 6503,
      "shouĠzhongĠ": 6504,
      "chanĠpin": 6505,
      "ĠkuanĠ": 6506,
      "ĠerĠfuĠ": 6507,
      "jiaoĠlianĠ": 6508,
      "xieĠrenĠ": 6509,
      "cheĠdeĠ": 6510,
      "zhuĠzuoĠ": 6511,
      "banĠfaĠ": 6512,
      "fuĠyouĠ": 6513,
      "suĠweiĠ": 6514,
      "chuanĠboĠ": 6515,
      "maĠsiĠ": 6516,
      "ĠyiĠjuĠ": 6517,
      "ĠyiĠnianĠ": 6518,
      "zheĠliĠ": 6519,
      "huaĠyuanĠ": 6520,
      "ĠĠĠzhongĠguoĠ": 6521,
      "1994ĠnianĠ": 6522,
      "ĠweiĠrenĠ": 6523,
      "CĠ": 6524,
      "ĠquanĠguoĠ": 6525,
      "ĠliĠru": 6526,
      "tieĠlu": 6527,
      "ĠdaiĠbiaoĠ": 6528,
      "dianĠqiĠ": 6529,
      "liangĠshiĠ": 6530,
      "qiuĠhuiĠ": 6531,
      "suiĠjiĠ": 6532,
      "ĠweiĠyuanĠhui": 6533,
      "ĠqueĠ": 6534,
      "ĠcaoĠ": 6535,
      "maĠdeĠ": 6536,
      "ĠqiĠlaiĠ": 6537,
      "wangĠqiuĠ": 6538,
      "zeĠyouĠ": 6539,
      "baiĠseĠ": 6540,
      "ĠshiĠyiĠnianĠ": 6541,
      "yueĠhanĠ": 6542,
      "juĠheĠ": 6543,
      "taiĠjiĠ": 6544,
      "faĠdianĠ": 6545,
      "chuĠxiĠ": 6546,
      "shenĠjingĠ": 6547,
      "guĠdeĠ": 6548,
      "zhanĠtaiĠ": 6549,
      "wanĠshangĠ": 6550,
      "jieĠhunĠ": 6551,
      "ĠdiĠtieĠ": 6552,
      "lingĠbuĠ": 6553,
      "ĠzhiĠdiĠ": 6554,
      "ĠyouĠxieĠ": 6555,
      "ĠyiĠzaiĠ": 6556,
      "ziĠzhuĠ": 6557,
      "Ġxu": 6558,
      "Ġka": 6559,
      "yeĠheĠ": 6560,
      "huaĠshengĠ": 6561,
      "ĠxingĠdongĠ": 6562,
      "chanĠshengĠdeĠ": 6563,
      "ĠrenĠminĠzhengĠfuĠ": 6564,
      "ĠweiĠnengĠ": 6565,
      "ĠyouĠxiaoĠ": 6566,
      "zhaoĠkaiĠ": 6567,
      "2020ĠnianĠmeiĠguoĠrenĠkouĠpuĠchaĠdeĠshuĠjuĠ": 6568,
      "xueĠheĠ": 6569,
      "liangĠrenĠ": 6570,
      "zuĠjianĠ": 6571,
      "lingĠxianĠ": 6572,
      "maĠlaiĠxiĠyaĠ": 6573,
      "leĠtaĠ": 6574,
      "chaoĠdeĠ": 6575,
      "ĠerĠbuĠ": 6576,
      "tongĠcheĠ": 6577,
      "yanĠchangĠhuiĠ": 6578,
      "changĠzaiĠ": 6579,
      "yaoĠwuĠ": 6580,
      "qinĠshiĠ": 6581,
      "huoĠjianĠ": 6582,
      "tiĠzhongĠ": 6583,
      "ruĠxuanĠ": 6584,
      "kuoĠdaĠ": 6585,
      "ĠzaiĠxiĠ": 6586,
      "ĠxiĠlaĠ": 6587,
      "ĠĠĠP": 6588,
      "ĠĠĠ2025": 6589,
      "guaĠ": 6590,
      "yinĠdu": 6591,
      "lieĠbiaoĠ": 6592,
      "chuĠxianĠzaiĠ": 6593,
      "ĠyingĠyuĠ": 6594,
      "ĠĠĠnian": 6595,
      "ĠliĠshuĠ": 6596,
      "geĠdaĠ": 6597,
      "geĠerĠ": 6598,
      "xueĠxiao": 6599,
      "SĠ": 6600,
      "ĠĠĠ2024": 6601,
      "xiangĠxiĠ": 6602,
      "ĠgongĠchengĠ": 6603,
      "xinĠjiĠ": 6604,
      "ĠfuĠjinĠ": 6605,
      "ĠĠĠqianĠ": 6606,
      "ĠdaĠbuĠfenĠ": 6607,
      "shanĠxiĠshengĠ": 6608,
      "xingĠzhongĠ": 6609,
      "daiĠbuĠ": 6610,
      "taiĠshiĠ": 6611,
      "siĠteĠ": 6612,
      "changĠpian": 6613,
      "kongĠbuĠ": 6614,
      "ĠshiĠdeĠyiĠ": 6615,
      "ĠzhiĠduĠ": 6616,
      "huĠbeiĠ": 6617,
      "lvĠxingĠ": 6618,
      "tuoĠliĠ": 6619,
      "Ġlu": 6620,
      "gongĠhuiĠ": 6621,
      "shenĠshiĠ": 6622,
      "chengĠliĠdeĠ": 6623,
      "daĠbuĠfenĠ": 6624,
      "ĠweiĠliĠ": 6625,
      "aoĠdiĠliĠ": 6626,
      "ĠliangĠrenĠ": 6627,
      "guiĠzeĠ": 6628,
      "daĠluĠdeĠ": 6629,
      "laoĠdongĠ": 6630,
      "shangĠhai": 6631,
      "ĠCĠ": 6632,
      "1991ĠnianĠ": 6633,
      "ĠyiĠtongĠ": 6634,
      "jingĠyuĠ": 6635,
      "zhuangĠdeĠ": 6636,
      "cuĠjinĠ": 6637,
      "zhouĠbianĠ": 6638,
      "tongĠbuĠ": 6639,
      "peiĠyinĠ": 6640,
      "ĠqiaoĠ": 6641,
      "xingĠxiangĠ": 6642,
      "fenĠliĠ": 6643,
      "zhuangĠkuangĠ": 6644,
      "ĠliĠshiĠshangĠ": 6645,
      "ciĠzaiĠ": 6646,
      "longĠdeĠ": 6647,
      "suanĠjiĠ": 6648,
      "xingĠquĠ": 6649,
      "ĠmingĠchaoĠzhengĠzhiĠrenĠwuĠ": 6650,
      "wuĠkeĠlan": 6651,
      "jinĠbuĠ": 6652,
      "baoĠshiĠ": 6653,
      "daiĠbiaoĠdaĠhuiĠ": 6654,
      "wuĠheĠ": 6655,
      "ĠzhiĠziĠ": 6656,
      "nanĠshiĠ": 6657,
      "zhuĠchangĠ": 6658,
      "peiĠheĠ": 6659,
      "ĠzheĠjiangĠ": 6660,
      "pingĠweiĠ": 6661,
      "15Ġ": 6662,
      "teĠseĠ": 6663,
      "suiĠhouĠ": 6664,
      "xiaĠjiĠaoĠlinĠpiĠkeĠyunĠdongĠhuiĠ": 6665,
      "jiaoĠxueĠ": 6666,
      "zeĠweiĠ": 6667,
      "ĠjiĠerĠ": 6668,
      "xieĠshiĠ": 6669,
      "puĠbianĠ": 6670,
      "ĠyaoĠqiuĠ": 6671,
      "daĠheĠ": 6672,
      "zheĠzaiĠ": 6673,
      "piaoĠfangĠ": 6674,
      "DĠ": 6675,
      "laĠjiĠ": 6676,
      "22Ġ": 6677,
      "ĠshiĠtuĠ": 6678,
      "Ġ3ĠyueĠ": 6679,
      "wenĠxianĠ": 6680,
      "ĠĠĠxiaoĠ": 6681,
      "wanĠrenĠ": 6682,
      "luoĠjiĠ": 6683,
      "feiĠzhouĠ": 6684,
      "lianĠrenĠ": 6685,
      "ĠxiĠjuĠ": 6686,
      "saĠsiĠ": 6687,
      "ĠweiĠheĠ": 6688,
      "anĠquan": 6689,
      "Ġnai": 6690,
      "Ġ2011ĠnianĠ": 6691,
      "daoĠzhongĠ": 6692,
      "zhuanĠxiangĠ": 6693,
      "ĠfuĠjianĠ": 6694,
      "kaoĠlvĠ": 6695,
      "sheĠjiĠdeĠ": 6696,
      "wangĠchaoĠ": 6697,
      "ĠpanĠ": 6698,
      "jieĠrenĠ": 6699,
      "ĠweiĠwuĠ": 6700,
      "ĠnianĠqianĠ": 6701,
      "mingĠxianĠ": 6702,
      "ĠĠĠB": 6703,
      "gongĠzhiĠ": 6704,
      "zhuĠzhangĠ": 6705,
      "cĠ": 6706,
      "ĠbuĠkeĠ": 6707,
      "ĠxiĠbuĠ": 6708,
      "Ġsun": 6709,
      "ĠweiĠxingĠ": 6710,
      "tongĠdaoĠ": 6711,
      "zhengĠheĠ": 6712,
      "ĠnvĠxingĠ": 6713,
      "ĠĠĠguoĠ": 6714,
      "biaoĠmianĠ": 6715,
      "kouĠweiĠ": 6716,
      "meiĠguoĠdeĠ": 6717,
      "lingĠdaoĠrenĠ": 6718,
      "ĠjiaoĠyuĠ": 6719,
      "ĠweiĠlaiĠ": 6720,
      "biĠsai": 6721,
      "qiĠzhongĠyiĠzhongĠ": 6722,
      "Ġ2021": 6723,
      "zhaoĠdaoĠ": 6724,
      "Ġmai": 6725,
      "huĠyuĠ": 6726,
      "siĠlingĠ": 6727,
      "jingĠcha": 6728,
      "fangĠwuĠ": 6729,
      "hongĠseĠ": 6730,
      "1988ĠnianĠ": 6731,
      "ĠliĠmiĠ": 6732,
      "ĠtuiĠ": 6733,
      "ĠĠĠcongĠ": 6734,
      "ĠyuĠleĠ": 6735,
      "zuiĠhou": 6736,
      "ĠshiĠweiĠleĠ": 6737,
      "ĠdeĠzhiĠwuĠ": 6738,
      "ĠsuiĠdeĠ": 6739,
      "hunĠyinĠ": 6740,
      "ĠweiĠhuiĠ": 6741,
      "yunĠdong": 6742,
      "caiĠliaoĠ": 6743,
      "ĠchengĠgongĠ": 6744,
      "ĠxiĠya": 6745,
      "ĠsĠĠĠ": 6746,
      "ĠjiĠhuiĠ": 6747,
      "Ġ2001ĠnianĠrenĠkouĠ": 6748,
      "1993ĠnianĠ": 6749,
      "dongĠnanĠbuĠ": 6750,
      "Ġzhong": 6751,
      "ĠyouĠbuĠ": 6752,
      "yuanĠgongĠ": 6753,
      "dongĠbeiĠbuĠ": 6754,
      "Ġ2015": 6755,
      "ĠĠĠ2012": 6756,
      "huaĠjiĠ": 6757,
      "fenĠbuĠyuĠ": 6758,
      "leĠĠĠ": 6759,
      "junĠyuĠ": 6760,
      "ĠtiĠgongĠ": 6761,
      "fuĠzaiĠ": 6762,
      "yingĠgaiĠ": 6763,
      "ĠxingĠqiĠ": 6764,
      "tiĠzhiĠ": 6765,
      "shouĠzhiĠ": 6766,
      "bianĠshiĠ": 6767,
      "ĠrenĠshuĠ": 6768,
      "daĠchenĠ": 6769,
      "ĠhanĠguoĠ": 6770,
      "baoĠzhiĠ": 6771,
      "siĠgeĠ": 6772,
      "feiĠchuĠ": 6773,
      "Ġ2005ĠnianĠ": 6774,
      "jinĠyouĠ": 6775,
      "dianĠhuaĠ": 6776,
      "ĠguanĠyuĠ": 6777,
      "ĠbuĠmenĠ": 6778,
      "Ġquan": 6779,
      "geĠheĠ": 6780,
      "baoĠyuĠ": 6781,
      "ĠyiĠban": 6782,
      "ruanĠjianĠ": 6783,
      "saoĠ": 6784,
      "RĠ": 6785,
      "wuĠtaiĠ": 6786,
      "ĠsaiĠjiĠ": 6787,
      "lingĠdiĠ": 6788,
      "chiĠyouĠ": 6789,
      "duiĠzhangĠ": 6790,
      "zhuĠjueĠ": 6791,
      "gengĠduoĠ": 6792,
      "ĠyinĠerĠ": 6793,
      "tuiĠjinĠ": 6794,
      "ĠnianĠdiĠ": 6795,
      "chuĠlaiĠ": 6796,
      "tiĠdaoĠ": 6797,
      "yongĠzuoĠ": 6798,
      "ĠzaiĠjiaĠ": 6799,
      "yuanĠxingĠ": 6800,
      "zhengĠchangĠ": 6801,
      "faĠxianĠleĠ": 6802,
      "jueĠshiĠ": 6803,
      "wuĠzhuangĠ": 6804,
      "guoĠjiĠjiĠ": 6805,
      "meiĠdeĠ": 6806,
      "yaĠliĠshanĠdaĠ": 6807,
      "benĠdiĠ": 6808,
      "ĠdaĠchengĠ": 6809,
      "suoĠzaiĠ": 6810,
      "guiĠdeĠ": 6811,
      "ĠerĠshuiĠyuĠmianĠjiĠweiĠ0": 6812,
      "riĠjunĠ": 6813,
      "ĠzaoĠchengĠ": 6814,
      "bianĠxingĠ": 6815,
      "yinĠdiĠ": 6816,
      "jiaoĠyouĠ": 6817,
      "boĠsiĠ": 6818,
      "douĠhuiĠ": 6819,
      "poĠhuai": 6820,
      "taiĠrenĠ": 6821,
      "xuĠzaiĠ": 6822,
      "dongĠfangĠ": 6823,
      "tongĠyangĠ": 6824,
      "Ġreng": 6825,
      "jiaoĠdaĠ": 6826,
      "ĠpingĠfangĠmiĠ": 6827,
      "ĠdaĠliangĠ": 6828,
      "huoĠzheĠ": 6829,
      "haiĠwaiĠ": 6830,
      "tuanĠdeĠ": 6831,
      "qingĠbaoĠ": 6832,
      "anĠhuiĠ": 6833,
      "Ġdou": 6834,
      "neiĠyouĠ": 6835,
      "mingĠxingĠ": 6836,
      "duiĠwaiĠ": 6837,
      "caoĠzuoĠ": 6838,
      "qianĠwang": 6839,
      "jieĠshaoĠ": 6840,
      "ĠsuiĠzheĠ": 6841,
      "Ġ2017": 6842,
      "jieĠmu": 6843,
      "ĠdianĠyingĠ": 6844,
      "xiaĠyouĠ": 6845,
      "ĠheĠpingĠ": 6846,
      "ĠerĠgaiĠdiĠ": 6847,
      "yeĠhuiĠ": 6848,
      "canĠmou": 6849,
      "Ġ2020": 6850,
      "Ġ2014": 6851,
      "ĠĠĠzaoĠnianĠ": 6852,
      "xiangĠyiĠ": 6853,
      "16Ġ": 6854,
      "yongĠtuĠ": 6855,
      "Ġ2013": 6856,
      "qiangĠdeĠ": 6857,
      "ĠyiĠduĠ": 6858,
      "ĠzhiĠdingĠ": 6859,
      "ĠyuĠheĠ": 6860,
      "chuĠkouĠ": 6861,
      "gaiĠshanĠ": 6862,
      "aoĠyunĠhuiĠ": 6863,
      "biaoĠdeĠ": 6864,
      "laĠheĠ": 6865,
      "ĠxiĠtong": 6866,
      "ĠdeĠshiĠjieĠ": 6867,
      "ĠĠĠI": 6868,
      "gaoĠjiaĠ": 6869,
      "xiĠnanĠ": 6870,
      "ĠyueĠnanĠ": 6871,
      "duiĠxiangĠ": 6872,
      "xianĠjinĠ": 6873,
      "yanĠshenĠ": 6874,
      "queĠzhenĠbingĠliĠ": 6875,
      "dunĠdeĠ": 6876,
      "ĠjiaĠnaĠdaĠ": 6877,
      "ĠbaoĠhanĠ": 6878,
      "meiĠliĠ": 6879,
      "sanĠjiĠ": 6880,
      "zuoĠquĠ": 6881,
      "ĠshiĠdaĠ": 6882,
      "Ġxiu": 6883,
      "ĠshengĠyuĠ": 6884,
      "leĠdaĠ": 6885,
      "junĠquĠ": 6886,
      "dengĠshangĠ": 6887,
      "zhengĠtiĠ": 6888,
      "xiaoĠquĠ": 6889,
      "jiaĠzaiĠ": 6890,
      "changĠyouĠ": 6891,
      "leĠtaĠdeĠ": 6892,
      "xiaĠxiaĠdeĠyiĠgeĠ": 6893,
      "longĠjiangĠ": 6894,
      "geĠlunĠ": 6895,
      "ĠyeĠyouĠ": 6896,
      "FĠ": 6897,
      "jueĠyiĠ": 6898,
      "shuĠruĠ": 6899,
      "ĠnianĠlaiĠ": 6900,
      "haiĠxiaĠ": 6901,
      "guanĠshiĠ": 6902,
      "duoĠrenĠ": 6903,
      "suiĠzhuĠ": 6904,
      "nieĠ": 6905,
      "ĠxianĠrenĠ": 6906,
      "yunĠshiĠ": 6907,
      "ĠqiĠzaiĠ": 6908,
      "yunĠzuoĠ": 6909,
      "ĠriĠdeĠ": 6910,
      "19ĠshiĠjiĠ": 6911,
      "lĠĠĠ": 6912,
      "ĠweiĠkeĠ": 6913,
      "gouĠzaoĠ": 6914,
      "juĠyiĠ": 6915,
      "banĠshiĠchuĠ": 6916,
      "zhanĠzhiĠ": 6917,
      "ĠerĠyanĠ": 6918,
      "ĠnanĠzhiĠ": 6919,
      "Ġxiao": 6920,
      "liuĠzaiĠ": 6921,
      "ĠĠĠzengĠ": 6922,
      "zuoĠrenĠ": 6923,
      "dianĠcheĠ": 6924,
      "3ĠnianĠ": 6925,
      "kangĠriĠ": 6926,
      "faĠshouĠ": 6927,
      "shuĠyuanĠ": 6928,
      "jiaĠyouĠ": 6929,
      "duĠheĠ": 6930,
      "feiĠliĠ": 6931,
      "junĠguanĠ": 6932,
      "gaoĠsuĠgongĠluĠ": 6933,
      "1990ĠnianĠ": 6934,
      "kaiĠzhanĠ": 6935,
      "ĠchengĠliĠ": 6936,
      "miĠmiĠ": 6937,
      "ĠshiĠwuĠkeĠ": 6938,
      "Ġãģ": 6939,
      "renĠdaĠ": 6940,
      "ĠzhongĠzaiĠ": 6941,
      "Ġ100": 6942,
      "ĠshaoĠ": 6943,
      "shangĠyuĠ": 6944,
      "binĠhaiĠ": 6945,
      "shenĠme": 6946,
      "ĠdongĠlinĠ": 6947,
      "Ġ2010": 6948,
      "ĠwanĠmeiĠyuanĠ": 6949,
      "xiaĠling": 6950,
      "chuangĠjianĠ": 6951,
      "jiangĠhuiĠ": 6952,
      "lingĠxiuĠ": 6953,
      "Ġniu": 6954,
      "zhuangĠbeiĠ": 6955,
      "dongĠzuoĠ": 6956,
      "liangĠciĠ": 6957,
      "chuanĠzhiĠ": 6958,
      "chaiĠchuĠ": 6959,
      "senĠlinĠ": 6960,
      "tianĠshiĠ": 6961,
      "ĠqiĠxiangĠ": 6962,
      "shouĠzhangĠ": 6963,
      "ĠtaiĠwan": 6964,
      "caiĠzhengĠ": 6965,
      "Ġqi": 6966,
      "anĠdaĠ": 6967,
      "yaĠkeĠ": 6968,
      "biĠmianĠ": 6969,
      "touĠpiao": 6970,
      "ĠĠĠW": 6971,
      "shouĠyiĠ": 6972,
      "guĠliĠ": 6973,
      "ĠqiĠziĠ": 6974,
      "TĠ": 6975,
      "25Ġ": 6976,
      "1ĠhaoĠ": 6977,
      "ĠzhengĠzhiĠ": 6978,
      "shanĠquĠ": 6979,
      "huiĠyuanĠ": 6980,
      "ĠjianĠyuĠ": 6981,
      "ĠĠĠsiĠ": 6982,
      "ĠjuĠxingĠ": 6983,
      "ĠhengĠ": 6984,
      "beiĠshiĠweiĠ": 6985,
      "tuĠxingĠ": 6986,
      "qinĠziĠ": 6987,
      "ĠerĠtongĠ": 6988,
      "juĠqingĠ": 6989,
      "kaĠluoĠ": 6990,
      "ĠnianĠ1ĠyueĠ1ĠriĠ": 6991,
      "shouĠluĠ": 6992,
      "wuĠsiĠ": 6993,
      "ĠtaiĠyangĠ": 6994,
      "23Ġ": 6995,
      "zuiĠgao": 6996,
      "Ġhuan": 6997,
      "houĠshiĠ": 6998,
      "waiĠjiaoĠbuĠ": 6999,
      "zheĠbuĠ": 7000,
      "ĠyiĠmeiĠyuanĠ": 7001,
      "liuĠdeĠ": 7002,
      "ĠsiĠlingĠ": 7003,
      "ceĠliangĠ": 7004,
      "dengĠdeĠ": 7005,
      "1989ĠnianĠ": 7006,
      "jingĠxuanĠ": 7007,
      "ĠmeiĠgeĠ": 7008,
      "huiĠzhongĠ": 7009,
      "zhangĠguanĠ": 7010,
      "fanĠzuiĠ": 7011,
      "ĠjieĠshouĠ": 7012,
      "banĠliĠ": 7013,
      "Ġpo": 7014,
      "Ġ2007ĠnianĠ": 7015,
      "ĠĠĠdangĠ": 7016,
      "siĠyiĠ": 7017,
      "fuĠweiĠ": 7018,
      "suoĠshiĠ": 7019,
      "xiangĠzhengĠ": 7020,
      "bingĠruĠ": 7021,
      "ĠyouĠkeĠ": 7022,
      "ĠerĠziĠ": 7023,
      "daiĠlaiĠ": 7024,
      "mingĠzhongĠ": 7025,
      "mengĠdeĠ": 7026,
      "gengĠweiĠ": 7027,
      "baoĠshouĠ": 7028,
      "ĠdongĠbeiĠ": 7029,
      "fanĠweiĠneiĠ": 7030,
      "ĠyongĠyouĠ": 7031,
      "shouĠxiĠ": 7032,
      "pianĠdeĠ": 7033,
      "heĠĠĠ": 7034,
      "mianĠshiĠ": 7035,
      "guoĠwangĠ": 7036,
      "ĠerĠchengĠ": 7037,
      "taiĠfengĠ": 7038,
      "riĠzhiĠ": 7039,
      "ĠyiĠhouĠ": 7040,
      "huĠnanĠ": 7041,
      "Ġ2008ĠnianĠ": 7042,
      "zunĠ": 7043,
      "ĠzaiĠduĠ": 7044,
      "ĠqiĠxiaĠ": 7045,
      "chuĠdaoĠ": 7046,
      "ĠsheĠhuiĠ": 7047,
      "ĠjieĠkeĠ": 7048,
      "ĠshengĠhuoĠxiĠ": 7049,
      "yanĠxiĠ": 7050,
      "fangĠmianĠdeĠ": 7051,
      "renĠliĠ": 7052,
      "canĠyiĠyuanĠ": 7053,
      "kaiĠtongĠ": 7054,
      "ĠsheĠyouĠ": 7055,
      "taiĠziĠ": 7056,
      "junĠzhuĠ": 7057,
      "qingĠchuĠ": 7058,
      "dingĠjuĠ": 7059,
      "gongĠzhuĠ": 7060,
      "huaĠheĠwuĠ": 7061,
      "zhanĠqiĠjianĠ": 7062,
      "Ġ2012": 7063,
      "jinĠweiĠ": 7064,
      "13Ġ": 7065,
      "1984ĠnianĠ": 7066,
      "zhouĠqiĠ": 7067,
      "zuĠfuĠ": 7068,
      "jianĠjieĠ": 7069,
      "ĠsiĠwangĠ": 7070,
      "piĠfuĠ": 7071,
      "feiĠdeĠ": 7072,
      "waiĠbuĠ": 7073,
      "xiangĠhuĠ": 7074,
      "guanĠchaĠ": 7075,
      "xingĠbuĠmingĠ": 7076,
      "ĠjuĠyouĠ": 7077,
      "duiĠyouĠ": 7078,
      "liangĠjiĠ": 7079,
      "shengĠyinĠ": 7080,
      "yingĠyeĠ": 7081,
      "zhuĠyaoĠdeĠ": 7082,
      "leiĠdaĠ": 7083,
      "Ġsha": 7084,
      "Ġlao": 7085,
      "duĠliĠdeĠ": 7086,
      "iĠ": 7087,
      "zhuanĠdeĠ": 7088,
      "ĠnianĠĠĠ": 7089,
      "lvĠdeĠ": 7090,
      "xiĠjuĠ": 7091,
      "ĠĠĠmingĠ": 7092,
      "bingĠdeĠ": 7093,
      "eĠĠĠ": 7094,
      "ĠcanĠjiaĠ": 7095,
      "erĠyueĠ": 7096,
      "changĠzhiĠ": 7097,
      "jiangĠjiĠ": 7098,
      "maĠlaĠ": 7099,
      "gouĠmaiĠ": 7100,
      "ĠshengĠhuoĠxiĠxingĠbuĠmingĠ": 7101,
      "ĠyiĠdaiĠ": 7102,
      "tianĠqiĠ": 7103,
      "queĠdeĠ": 7104,
      "tongĠpaiĠ": 7105,
      "xinĠyangĠ": 7106,
      "gĠ": 7107,
      "niĠerĠ": 7108,
      "zuoĠbiaoĠweiĠ": 7109,
      "jiangĠlingĠ": 7110,
      "anĠzhuangĠ": 7111,
      "ĠwuĠfaĠ": 7112,
      "touĠluĠ": 7113,
      "3ĠgeĠ": 7114,
      "ĠĠĠbeiĠjingĠ": 7115,
      "liangĠxiangĠ": 7116,
      "jiaĠliĠfuĠ": 7117,
      "ĠyongĠyuĠ": 7118,
      "xinĠxingĠ": 7119,
      "huoĠshanĠ": 7120,
      "zuĠzhiĠdeĠ": 7121,
      "VĠ": 7122,
      "keĠnengĠshiĠ": 7123,
      "ĠgongĠyouĠ": 7124,
      "jingĠzhongĠ": 7125,
      "ĠzhongĠshiĠ": 7126,
      "chengĠheĠ": 7127,
      "luĠjiĠ": 7128,
      "guanĠjianĠ": 7129,
      "taiĠbeiĠshiĠ": 7130,
      "Ġdong": 7131,
      "jiuĠduĠ": 7132,
      "ĠĠĠciĠwaiĠ": 7133,
      "pĠ": 7134,
      "ĠzaiĠci": 7135,
      "jieĠsanĠ": 7136,
      "kongĠqiĠ": 7137,
      "ĠyueĠzhongĠ": 7138,
      "ruĠqinĠ": 7139,
      "jiuĠlongĠ": 7140,
      "baiĠrenĠ": 7141,
      "fangĠyanĠ": 7142,
      "lunĠwenĠ": 7143,
      "Ġcha": 7144,
      "erĠzhiĠ": 7145,
      "liangĠzhiĠ": 7146,
      "zhuĠyiĠdeĠ": 7147,
      "ĠzhongĠguoĠdaĠluĠ": 7148,
      "Ġkai": 7149,
      "shangĠbuĠ": 7150,
      "ĠcanĠyuĠ": 7151,
      "zheĠxie": 7152,
      "chuanĠshuoĠ": 7153,
      "1985ĠnianĠ": 7154,
      "keĠyiĠzaiĠ": 7155,
      "kaoĠguĠ": 7156,
      "faĠxingĠdeĠ": 7157,
      "houĠbeiĠ": 7158,
      "ĠchuĠxianĠ": 7159,
      "Ġyang": 7160,
      "quĠjiĠ": 7161,
      "fuĠjinĠdeĠ": 7162,
      "Ġ2009": 7163,
      "muĠqin": 7164,
      "aiĠjiĠ": 7165,
      "chuĠbuĠ": 7166,
      "ĠyinĠqiĠ": 7167,
      "manĠdeĠ": 7168,
      "jingĠfangĠ": 7169,
      "ĠshiĠshiĠjieĠ": 7170,
      "xinĠjiaĠpoĠ": 7171,
      "ĠduanĠ": 7172,
      "tongĠnianĠ": 7173,
      "moĠsiĠkeĠ": 7174,
      "ĠĠĠjuĠqingĠ": 7175,
      "lianĠzaiĠ": 7176,
      "yuĠyanĠ": 7177,
      "ĠbiĠruĠ": 7178,
      "ĠdiĠshiĠ": 7179,
      "chengĠnianĠ": 7180,
      "kaoĠjinĠ": 7181,
      "qianĠrenĠ": 7182,
      "ĠweiĠciĠ": 7183,
      "zhanĠtingĠ": 7184,
      "zhangĠaiĠ": 7185,
      "Ġ20": 7186,
      "guiĠzuĠ": 7187,
      "bĠ": 7188,
      "mingĠrenĠ": 7189,
      "yunĠnanĠ": 7190,
      "ĠqiĠshiĠ": 7191,
      "zhongĠdianĠ": 7192,
      "guangĠdongĠshengĠ": 7193,
      "ĠshiĠriĠbenĠ": 7194,
      "zuoĠzheĠ": 7195,
      "ĠgongĠtongĠ": 7196,
      "quĠleĠ": 7197,
      "ĠsiĠchuanĠ": 7198,
      "PĠ": 7199,
      "Ġ2008": 7200,
      "ĠĠĠben": 7201,
      "zheĠweiĠ": 7202,
      "ĠguoĠchengĠzhongĠ": 7203,
      "baoĠzhangĠ": 7204,
      "taiĠduĠ": 7205,
      "jiĠĠĠ": 7206,
      "ĠchuĠshengĠyuĠ": 7207,
      "ĠteĠbieĠshiĠ": 7208,
      "Ġ1949": 7209,
      "Ġ2013ĠnianĠ": 7210,
      "gaoĠdaĠ": 7211,
      "ĠrenĠmingĠ": 7212,
      "zhouĠjiĠ": 7213,
      "ĠshiĠjiĠshangĠ": 7214,
      "zongĠshiĠ": 7215,
      "yinĠqingĠ": 7216,
      "changĠjianĠdeĠ": 7217,
      "shuangĠfangĠ": 7218,
      "quĠyiĠhuiĠ": 7219,
      "yinĠheĠ": 7220,
      "jiangĠzaiĠ": 7221,
      "ĠyouĠciĠ": 7222,
      "quanĠzhangĠ": 7223,
      "xunĠyangĠ": 7224,
      "ĠdiĠwuĠ": 7225,
      "suoĠshuĠ": 7226,
      "faĠhuiĠ": 7227,
      "yingĠxiongĠ": 7228,
      "huaĠyiĠ": 7229,
      "xiuĠzhengĠ": 7230,
      "huaĠzhiĠ": 7231,
      "ganĠbuĠ": 7232,
      "ĠshiĠdeĠguoĠ": 7233,
      "ĠzengĠ": 7234,
      "fangĠyiĠ": 7235,
      "youĠxianĠ": 7236,
      "ĠqiĠxiĠ": 7237,
      "1ĠliĠ": 7238,
      "tiaoĠliĠ": 7239,
      "chuĠzaiĠ": 7240,
      "leĠyuĠ": 7241,
      "ĠĠĠL": 7242,
      "cuoĠwuĠ": 7243,
      "ĠjiaĠtingĠ": 7244,
      "Ġcai": 7245,
      "chuĠyanĠ": 7246,
      "ĠĠĠdiĠfangĠ": 7247,
      "ĠguoĠhuiĠ": 7248,
      "ĠyiĠxiaoĠshiĠ": 7249,
      "bianĠjuĠ": 7250,
      "ĠxueĠxiaoĠ": 7251,
      "2ĠnianĠ": 7252,
      "ĠbingĠduĠ": 7253,
      "shouĠxiangĠ": 7254,
      "ĠwanĠyuanĠ": 7255,
      "wanĠgongĠ": 7256,
      "nengĠliangĠ": 7257,
      "Ġdui": 7258,
      "huĠbuĠ": 7259,
      "banĠbuĠ": 7260,
      "ĠnianĠkaiĠshiĠ": 7261,
      "faĠlanĠxiĠ": 7262,
      "ĠwuĠkeĠlanĠ": 7263,
      "ĠĠĠO": 7264,
      "laoĠdeĠ": 7265,
      "shengĠtaiĠ": 7266,
      "zhouĠciĠshiĠ": 7267,
      "taoĠtaiĠ": 7268,
      "shuĠliĠ": 7269,
      "yuanĠzeĠ": 7270,
      "xiangĠguanĠdeĠ": 7271,
      "4ĠnianĠ": 7272,
      "ĠĠĠqiĠtaĠ": 7273,
      "chuĠzhiĠ": 7274,
      "zuiĠyouĠ": 7275,
      "fengĠweiĠ": 7276,
      "ĠyueĠtuanĠ": 7277,
      "luĠkouĠ": 7278,
      "ĠĠĠ2011": 7279,
      "luĠyingĠ": 7280,
      "qingĠhuaĠ": 7281,
      "ĠpingĠjunĠ": 7282,
      "guĠfen": 7283,
      "keĠdeĠqiĠzhongĠyiĠzhongĠ": 7284,
      "ĠĠĠ2010": 7285,
      "ĠĠĠmeiĠguoĠ": 7286,
      "huiĠbuĠ": 7287,
      "ĠweiĠchiĠ": 7288,
      "zhiĠdeĠshiĠ": 7289,
      "qingĠqiuĠ": 7290,
      "dangĠdiĠdeĠ": 7291,
      "kaiĠsheĠ": 7292,
      "yaoĠqiu": 7293,
      "ĠzhongĠhuaĠrenĠminĠgongĠheĠguoĠzhengĠzhiĠrenĠwuĠ": 7294,
      "ĠĠĠdiĠerĠ": 7295,
      "siĠzhiĠ": 7296,
      "ĠjiĠnian": 7297,
      "ĠheĠxinĠ": 7298,
      "huoĠxingĠ": 7299,
      "gaiĠchengĠ": 7300,
      "huanĠchengĠ": 7301,
      "ĠshiĠyong": 7302,
      "ĠĠĠdanĠ": 7303,
      "lingĠrenĠ": 7304,
      "heĠxinĠ": 7305,
      "chengĠkeĠ": 7306,
      "Ġ2022": 7307,
      "hanĠyouĠ": 7308,
      "henĠdaĠ": 7309,
      "ĠheĠzhongĠ": 7310,
      "faĠguanĠ": 7311,
      "meiĠshuĠ": 7312,
      "daoĠbuĠ": 7313,
      "hanĠyuĠ": 7314,
      "zhuangĠjiĠ": 7315,
      "cuiĠhuiĠ": 7316,
      "luĠkeĠ": 7317,
      "ĠshiĠgeĠ": 7318,
      "ĠwanĠjiaĠ": 7319,
      "paiĠmingĠdiĠ": 7320,
      "aĠĠĠ": 7321,
      "xiaĠweiĠ": 7322,
      "qiangĠdiaoĠ": 7323,
      "Ġqing": 7324,
      "Ġ2006ĠnianĠ": 7325,
      "ĠmaiĠkeĠ": 7326,
      "enĠshengĠ": 7327,
      "ĠĠĠ1Ġ": 7328,
      "dangĠweiĠ": 7329,
      "ĠhenĠ": 7330,
      "ĠĠĠ2Ġ": 7331,
      "zhengĠweiĠ": 7332,
      "ĠyiĠzuoĠ": 7333,
      "xiĠlaĠ": 7334,
      "Ġxiong": 7335,
      "yuanĠzhongĠ": 7336,
      "beiĠweiĠ": 7337,
      "yaĠjunĠ": 7338,
      "zuiĠgaoĠdeĠ": 7339,
      "tianĠjingĠ": 7340,
      "niĠyaĠzhouĠ": 7341,
      "nengĠzaiĠ": 7342,
      "gongĠyingĠ": 7343,
      "ĠAĠ": 7344,
      "xiaĠquĠ": 7345,
      "suoĠchuĠdeĠ": 7346,
      "canĠkaoĠ": 7347,
      "yaĠyiĠ": 7348,
      "chengĠbenĠ": 7349,
      "dangĠjuĠ": 7350,
      "tiĠyuĠchangĠ": 7351,
      "xieĠerĠ": 7352,
      "shangĠhaiĠshiĠ": 7353,
      "shengĠyouĠ": 7354,
      "suoĠzhiĠ": 7355,
      "ĠjiĠbuĠ": 7356,
      "ĠyeĠjiuĠshiĠ": 7357,
      "ĠdaĠduoĠ": 7358,
      "teĠdingĠ": 7359,
      "tuĠpoĠ": 7360,
      "kunĠnanĠ": 7361,
      "renĠyuanĠ": 7362,
      "ĠdaĠxingĠ": 7363,
      "dengĠdengĠ": 7364,
      "aĠlaĠboĠ": 7365,
      "taiĠzhongĠ": 7366,
      "yinĠruĠ": 7367,
      "xiangĠyouĠ": 7368,
      "baiĠdeĠ": 7369,
      "ĠyiĠfuĠ": 7370,
      "xieĠdaoĠ": 7371,
      "Ġmeng": 7372,
      "ĠwenĠhuaĠ": 7373,
      "jingĠzhiĠ": 7374,
      "ĠjiĠduĠ": 7375,
      "keĠxueĠyuanĠ": 7376,
      "tanĠdeĠ": 7377,
      "shunĠliĠ": 7378,
      "huoĠbanĠ": 7379,
      "fenĠbuĠzaiĠ": 7380,
      "fouĠ": 7381,
      "xianĠshengĠ": 7382,
      "ĠdaĠfuĠ": 7383,
      "laĠdingĠ": 7384,
      "ĠsuiĠzhuĠ": 7385,
      "huanĠdeĠ": 7386,
      "xiuĠfuĠ": 7387,
      "xiĠbaoĠ": 7388,
      "zhanĠxianĠ": 7389,
      "ĠĠĠaĠ": 7390,
      "chengĠguoĠ": 7391,
      "junĠzhiĠ": 7392,
      "ĠxiĠbanĠyaĠ": 7393,
      "leĠqiĠ": 7394,
      "laiĠshiĠ": 7395,
      "daĠhuiĠ": 7396,
      "ĠxiangĠnianĠ": 7397,
      "xiangĠweiĠ": 7398,
      "ruĠqin": 7399,
      "wangĠyuanĠ": 7400,
      "ĠxiĠerĠ": 7401,
      "chuiĠ": 7402,
      "ĠbuĠjinĠ": 7403,
      "ĠkeĠerĠ": 7404,
      "Ġ2012ĠnianĠ": 7405,
      "keĠyouĠ": 7406,
      "suiĠshiĠ": 7407,
      "wuĠziĠ": 7408,
      "duoĠweiĠ": 7409,
      "chuanĠdeĠ": 7410,
      "haiĠyangĠ": 7411,
      "jingĠheĠ": 7412,
      "xiaoĠyuanĠ": 7413,
      "zhongĠguoĠdaĠluĠdeĠ": 7414,
      "xuĠliĠyaĠ": 7415,
      "haiĠpingĠmianĠ": 7416,
      "gaiĠshiĠ": 7417,
      "suoĠweiĠ": 7418,
      "xiuĠjianĠ": 7419,
      "qingĠxingĠ": 7420,
      "kaiĠfa": 7421,
      "ĠtaĠcengĠdaiĠbiaoĠ": 7422,
      "ganĠranĠzheĠ": 7423,
      "ĠheĠlanĠ": 7424,
      "tongĠmengĠ": 7425,
      "qiangĠlieĠ": 7426,
      "heiĠseĠ": 7427,
      "ĠriĠjunĠ": 7428,
      "ĠĠĠyinĠ": 7429,
      "xueĠyuĠ": 7430,
      "laiĠyueĠ": 7431,
      "1980ĠnianĠ": 7432,
      "ĠzuĠfuĠ": 7433,
      "Ġ00Ġ": 7434,
      "ciĠshiĠjieĠdaĠzhanĠ": 7435,
      "jiaĠweiĠ": 7436,
      "taiĠyuĠ": 7437,
      "zuiĠweiĠ": 7438,
      "zhengĠce": 7439,
      "zhaoĠpianĠ": 7440,
      "leĠzaiĠ": 7441,
      "yinĠliĠ": 7442,
      "zeĠzaiĠ": 7443,
      "shouĠgouĠ": 7444,
      "yaĠmeiĠ": 7445,
      "zhouĠzhiĠ": 7446,
      "hongĠzha": 7447,
      "zhenĠyuĠ": 7448,
      "jingĠyiĠ": 7449,
      "guĠdaiĠ": 7450,
      "geiĠleĠ": 7451,
      "liĠyuĠ": 7452,
      "zhuĠzhiĠ": 7453,
      "jiangĠzhiĠ": 7454,
      "huangĠhouĠ": 7455,
      "1986ĠnianĠ": 7456,
      "renĠleiĠ": 7457,
      "dangĠyuanĠ": 7458,
      "ĠtongĠshiĠgaiĠdiĠ": 7459,
      "beiĠyuĠ": 7460,
      "zuĠyiĠ": 7461,
      "teĠxingĠ": 7462,
      "daĠjiangĠ": 7463,
      "ĠdeĠjiĠchuĠ": 7464,
      "ĠguangĠdongĠ": 7465,
      "houĠweiĠ": 7466,
      "dingĠqiĠ": 7467,
      "ĠliaoĠ": 7468,
      "zhangĠweiĠ": 7469,
      "manĠzuĠ": 7470,
      "zuĠqiuĠyunĠdongĠyuanĠ": 7471,
      "boĠshiĠxueĠweiĠ": 7472,
      "ĠkuĠ": 7473,
      "qiangĠzhiĠ": 7474,
      "bengĠ": 7475,
      "beiĠjingĠshiĠ": 7476,
      "shangĠchangĠ": 7477,
      "nongĠminĠ": 7478,
      "neiĠluĠshengĠfenĠ": 7479,
      "xiangĠheĠ": 7480,
      "shengĠchuĠ": 7481,
      "ĠhuoĠzheĠ": 7482,
      "jiaoĠzhiĠ": 7483,
      "liangĠguoĠ": 7484,
      "chengĠbaoĠ": 7485,
      "jiuĠhuiĠ": 7486,
      "chengĠshiĠdeĠ": 7487,
      "zhenĠjiĠ": 7488,
      "keĠfuĠ": 7489,
      "benĠshenĠ": 7490,
      "ĠaĠerĠ": 7491,
      "ĠtieĠ": 7492,
      "chuĠyouĠ": 7493,
      "bangĠdeĠ": 7494,
      "ĠzhongĠziĠ": 7495,
      "xunĠzhangĠ": 7496,
      "xiaĠlingĠshiĠjianĠ": 7497,
      "ĠzhiĠyiĠ": 7498,
      "tongĠweiĠ": 7499,
      "jingĠzaiĠ": 7500,
      "duanĠshiĠ": 7501,
      "moĠsiĠ": 7502,
      "chuangĠbanĠ": 7503,
      "leĠyouĠ": 7504,
      "jiaoĠtang": 7505,
      "bianĠhaoĠ": 7506,
      "ĠmuĠqian": 7507,
      "ĠbuĠdiĠ": 7508,
      "ĠrenĠqiĠ": 7509,
      "xiangĠxinĠ": 7510,
      "kuoĠzhanĠ": 7511,
      "ĠmeiĠnianĠ": 7512,
      "keĠzhiĠ": 7513,
      "luĠxuĠ": 7514,
      "riĠdeĠ": 7515,
      "minĠdiĠ": 7516,
      "shangĠxiaĠ": 7517,
      "jiuĠyiĠ": 7518,
      "zaoĠzaiĠ": 7519,
      "diĠqiuĠ": 7520,
      "woĠdeĠ": 7521,
      "ĠbuĠluoĠ": 7522,
      "wuĠdaoĠ": 7523,
      "junĠheĠ": 7524,
      "wanĠdeĠ": 7525,
      "juĠdaĠ": 7526,
      "ĠĠĠjianĠjieĠ": 7527,
      "ĠĠĠjieĠ": 7528,
      "taĠweiĠ": 7529,
      "muĠzhiĠ": 7530,
      "ĠjiĠfuĠ": 7531,
      "renĠgongĠ": 7532,
      "ĠkanĠ": 7533,
      "gaoĠzhiĠ": 7534,
      "fanĠzhiĠ": 7535,
      "xuanĠdeĠ": 7536,
      "xiĠwangĠ": 7537,
      "geĠming": 7538,
      "tianĠtiĠ": 7539,
      "weiĠyiĠyiĠ": 7540,
      "chiĠrenĠ": 7541,
      "muĠniĠ": 7542,
      "Ġ500": 7543,
      "1945ĠnianĠ": 7544,
      "ĠqiĠcheĠ": 7545,
      "wuĠzhengĠzhuangĠ": 7546,
      "zheĠxueĠ": 7547,
      "suoĠyouĠdeĠ": 7548,
      "tanĠpanĠ": 7549,
      "ĠshiĠyiĠgeĠweiĠyuĠ": 7550,
      "5ĠnianĠ": 7551,
      "mĠĠĠ": 7552,
      "huiĠguoĠ": 7553,
      "14Ġ": 7554,
      "nanĠfangĠ": 7555,
      "liangĠmingĠ": 7556,
      "miĠyaĠ": 7557,
      "ĠxianĠhouĠ": 7558,
      "oĠ": 7559,
      "ziĠzhongĠ": 7560,
      "Ġdi": 7561,
      "Ġ1950": 7562,
      "quĠzhiĠ": 7563,
      "xiĠyaĠ": 7564,
      "jiangĠjinĠ": 7565,
      "yueĠnanĠ": 7566,
      "ĠĠĠdiĠfangĠziĠliaoĠ": 7567,
      "dianĠheĠ": 7568,
      "yaĠheĠ": 7569,
      "rongĠheĠ": 7570,
      "xiangĠbiĠ": 7571,
      "shaĠhaiĠ": 7572,
      "Ġ2014ĠnianĠ": 7573,
      "lingĠyiĠgeĠ": 7574,
      "feiĠerĠ": 7575,
      "fengĠfuĠ": 7576,
      "wenĠduĠ": 7577,
      "Ġsong": 7578,
      "ĠjiuĠshiĠ": 7579,
      "yanĠyuĠ": 7580,
      "bingĠyiĠ": 7581,
      "diĠyiĠweiĠ": 7582,
      "Ġ24": 7583,
      "ĠwaĠ": 7584,
      "duiĠciĠ": 7585,
      "ĠsuiĠshiĠ": 7586,
      "Ġni": 7587,
      "daiĠshiĠ": 7588,
      "pingĠdeĠ": 7589,
      "nuoĠfuĠ": 7590,
      "ĠguoĠquĠ": 7591,
      "ziĠzaiĠ": 7592,
      "chuĠshouĠ": 7593,
      "yinĠpaiĠ": 7594,
      "changĠjianĠ": 7595,
      "aoĠzhouĠ": 7596,
      "4ĠgeĠ": 7597,
      "hĠ": 7598,
      "fangĠjianĠ": 7599,
      "gaoĠxiong": 7600,
      "Ġ10Ġ": 7601,
      "ĠyiĠsiĠlanĠ": 7602,
      "MĠ": 7603,
      "yeĠjiĠ": 7604,
      "ĠyiĠwuĠ": 7605,
      "shenĠduĠ": 7606,
      "Ġpu": 7607,
      "ĠnianĠweiĠ": 7608,
      "paiĠhangĠ": 7609,
      "qinĠwangĠ": 7610,
      "Ġ0Ġ": 7611,
      "liangĠnianĠ": 7612,
      "sanĠjiaĠ": 7613,
      "nvĠzhuĠ": 7614,
      "ĠĠĠyingĠ": 7615,
      "zhouĠheĠ": 7616,
      "xiuĠdeĠ": 7617,
      "1987ĠnianĠ": 7618,
      "naĠcui": 7619,
      "guanĠliĠjuĠ": 7620,
      "ĠĠĠ3": 7621,
      "dingĠshiĠ": 7622,
      "daĠxiĠyangĠ": 7623,
      "haiĠbaĠweiĠ": 7624,
      "ĠĠĠdeĠĠĠ": 7625,
      "ĠruoĠ": 7626,
      "tiĠweiĠ": 7627,
      "ĠjiĠhouĠ": 7628,
      "ĠkeĠxiĠ": 7629,
      "shanĠfengĠ": 7630,
      "tongĠmingĠ": 7631,
      "ĠjiaĠzuĠ": 7632,
      "dongĠshiĠzhangĠ": 7633,
      "ĠgenĠ": 7634,
      "ĠĠĠH": 7635,
      "peiĠzhiĠ": 7636,
      "zouĠxiangĠ": 7637,
      "ĠyouĠzhongĠ": 7638,
      "xiaoĠfangĠ": 7639,
      "zaiĠliĠ": 7640,
      "zhuĠweiĠ": 7641,
      "yeĠyiĠ": 7642,
      "liangĠdaĠ": 7643,
      "ĠxiĠlie": 7644,
      "suoĠcaiĠyong": 7645,
      "ĠbingĠweiĠ": 7646,
      "jieĠzhongĠ": 7647,
      "ĠbuĠduanĠ": 7648,
      "ĠshiĠyiĠbuĠ": 7649,
      "Ġku": 7650,
      "Ġ18": 7651,
      "hanĠdeĠ": 7652,
      "huanĠzheĠ": 7653,
      "ĠbuĠerĠ": 7654,
      "ĠdaĠduoĠshuĠ": 7655,
      "gaiĠzaoĠ": 7656,
      "nengĠyuanĠ": 7657,
      "Ġge": 7658,
      "leĠzhongĠ": 7659,
      "huĠweiĠ": 7660,
      "junĠrenĠ": 7661,
      "1983ĠnianĠ": 7662,
      "zhanĠlve": 7663,
      "kaoĠlv": 7664,
      "shouĠrenĠ": 7665,
      "1982ĠnianĠ": 7666,
      "zhiĠshiĠqiĠ": 7667,
      "wenĠzhongĠ": 7668,
      "gongĠchengĠshiĠ": 7669,
      "jieĠtiĠ": 7670,
      "junĠzhongĠ": 7671,
      "zhanĠlanĠ": 7672,
      "ĠĠĠjingĠ": 7673,
      "baĠheĠ": 7674,
      "manĠdiĠ": 7675,
      "ĠshiĠyeĠ": 7676,
      "erĠtongĠ": 7677,
      "guĠdingĠ": 7678,
      "ganĠranĠ": 7679,
      "mengĠgu": 7680,
      "ĠĠĠJ": 7681,
      "ĠzaiĠyouĠ": 7682,
      "geĠjuĠ": 7683,
      "taiĠheĠ": 7684,
      "Ġcn": 7685,
      "leĠzheĠ": 7686,
      "Ġtang": 7687,
      "huanĠxingĠ": 7688,
      "ĠguoĠneiĠ": 7689,
      "ĠweiĠyuĠgaiĠ": 7690,
      "lunĠshiĠ": 7691,
      "zhengĠxie": 7692,
      "shangĠshengĠ": 7693,
      "boĠlinĠ": 7694,
      "jieĠliĠ": 7695,
      "huiĠyiĠyuanĠ": 7696,
      "jueĠduiĠ": 7697,
      "gongĠliĠdeĠ": 7698,
      "kouĠdeĠ": 7699,
      "ĠerĠfeiĠ": 7700,
      "muĠqian": 7701,
      "diaoĠkuai": 7702,
      "ĠmeiĠyuanĠ": 7703,
      "aiĠerĠlanĠ": 7704,
      "ĠĠĠ2": 7705,
      "daoĠweiĠ": 7706,
      "suĠliĠ": 7707,
      "xiaoĠfeiĠ": 7708,
      "xiaĠlingĠ": 7709,
      "ĠdeĠyiĠshuĠ": 7710,
      "mianĠduiĠ": 7711,
      "ĠdongĠnanĠ": 7712,
      "ĠweiĠUTCĠ": 7713,
      "zhuĠyiĠzheĠ": 7714,
      "lianĠheĠhuiĠ": 7715,
      "Ġluo": 7716,
      "ĠĠĠmaĠ": 7717,
      "yanĠhaiĠ": 7718,
      "xiongĠyaĠliĠ": 7719,
      "ĠcnĠ": 7720,
      "ĠĠĠzhengĠ": 7721,
      "ĠĠĠjiaoĠtongĠ": 7722,
      "zhuĠheĠ": 7723,
      "wenĠheĠ": 7724,
      "ĠerĠqiĠ": 7725,
      "Ġchi": 7726,
      "zhouĠyiĠ": 7727,
      "sanĠweiĠ": 7728,
      "sanĠdaĠ": 7729,
      "ziĠshenĠ": 7730,
      "kaiĠshiĠshiĠ": 7731,
      "diaoĠkuaiĠyiĠxiaoĠshiĠ": 7732,
      "chengĠyouĠ": 7733,
      "chongĠjiĠ": 7734,
      "mangĠ": 7735,
      "guoĠhuiĠ": 7736,
      "ĠjiĠUTCĠ": 7737,
      "liuĠxiaĠ": 7738,
      "paiĠqianĠ": 7739,
      "sheĠyouĠxiaĠlingĠshiĠjianĠ": 7740,
      "ĠwanĠliĠ": 7741,
      "ĠlingĠyouĠ": 7742,
      "ĠdeĠshiĠquĠweiĠUTCĠ": 7743,
      "ĠerĠgaiĠdiĠsuoĠcaiĠyong": 7744,
      "ĠtongĠshiĠgaiĠdiĠsheĠyouĠxiaĠlingĠshiĠjianĠ": 7745,
      "ĠerĠgaiĠdiĠsuoĠcaiĠyongĠdeĠshiĠquĠweiĠUTCĠ": 7746,
      "ĠziĠyouĠ": 7747,
      "shuĠrenĠ": 7748,
      "laoĠshiĠ": 7749,
      "shengĠdiĠ": 7750,
      "nanĠhaiĠ": 7751,
      "ĠfuĠqinĠ": 7752,
      "zhangĠyueĠ": 7753,
      "17Ġ": 7754,
      "jingĠgaoĠ": 7755,
      "jianĠliĠleĠ": 7756,
      "Ġshuang": 7757,
      "cengĠweiĠ": 7758,
      "chuangĠzaoĠ": 7759,
      "3ĠrenĠ": 7760,
      "bingĠfeiĠ": 7761,
      "ĠgeĠquĠ": 7762,
      "miĠshuĠzhangĠ": 7763,
      "guanĠheĠ": 7764,
      "haoĠshiĠ": 7765,
      "caiĠdeĠ": 7766,
      "xiangĠtongĠdeĠ": 7767,
      "biĠyeĠhouĠ": 7768,
      "gaoĠyuĠhaiĠpingĠmianĠ": 7769,
      "2ĠrenĠ": 7770,
      "dangĠjiĠ": 7771,
      "qunĠzhongĠ": 7772,
      "ĠshuoĠ": 7773,
      "geĠyuĠ": 7774,
      "ĠkouĠ": 7775,
      "ruĠdeĠ": 7776,
      "ĠqiĠfuĠ": 7777,
      "quĠdeĠmianĠjiĠweiĠ": 7778,
      "haiĠbaĠweiĠgaoĠyuĠhaiĠpingĠmianĠ": 7779,
      "ĠrongĠ": 7780,
      "zhangĠheĠ": 7781,
      "jinĠxingĠdeĠ": 7782,
      "gaiĠmingĠweiĠ": 7783,
      "faĠzhiĠ": 7784,
      "xuanĠzhongĠ": 7785,
      "jingĠduĠ": 7786,
      "changĠsuoĠ": 7787,
      "tanĠxianĠ": 7788,
      "ĠzhongĠshanĠ": 7789,
      "daĠbuĠfen": 7790,
      "guanĠcha": 7791,
      "lieĠruĠ": 7792,
      "Ġ50": 7793,
      "zhanĠyuĠ": 7794,
      "buĠshiĠquĠ": 7795,
      "fangĠjiĠ": 7796,
      "daĠlouĠ": 7797,
      "ĠĠĠyanĠ": 7798,
      "daĠyiĠ": 7799,
      "ĠyueĠyiĠ": 7800,
      "ĠshanĠxiĠ": 7801,
      "shangĠdiĠ": 7802,
      "chaoĠyueĠ": 7803,
      "huaĠjiaĠ": 7804,
      "ĠhuoĠdongĠ": 7805,
      "Ġ2025": 7806,
      "Ġ2015ĠnianĠ": 7807,
      "pingĠguĠ": 7808,
      "biaoĠbenĠ": 7809,
      "Ġsa": 7810,
      "tiaoĠjieĠ": 7811,
      "zhangĠfuĠ": 7812,
      "cunĠluoĠ": 7813,
      "shouĠxianĠ": 7814,
      "tuĠjingĠ": 7815,
      "ĠluoĠmaĠ": 7816,
      "yiĠshiĠdeĠ": 7817,
      "suoĠzaiĠdiĠ": 7818,
      "bianĠyiĠ": 7819,
      "douĠzaiĠ": 7820,
      "kaiĠshiĠzaiĠ": 7821,
      "ĠdaĠluĠ": 7822,
      "cheĠxiangĠ": 7823,
      "teĠjiĠ": 7824,
      "ĠqiĠzhongĠbaoĠkuoĠ": 7825,
      "liĠdeĠ": 7826,
      "gongĠweiĠ": 7827,
      "gongĠneng": 7828,
      "banĠben": 7829,
      "suoĠchuĠdeĠhaiĠbaĠweiĠgaoĠyuĠhaiĠpingĠmianĠ": 7830,
      "benĠrenĠ": 7831,
      "changĠjingĠ": 7832,
      "danĠbaiĠ": 7833,
      "feiĠerĠdeĠ": 7834,
      "ĠbuĠxiangĠ": 7835,
      "sheĠxianĠ": 7836,
      "ĠĠĠRe": 7837,
      "ĠĠĠanĠ": 7838,
      "duanĠshiĠjianĠ": 7839,
      "ĠshiĠbeiĠ": 7840,
      "ĠzaiĠtaĠ": 7841,
      "qianĠdingĠ": 7842,
      "ĠMa": 7843,
      "xiaoĠyuĠ": 7844,
      "laiĠsiĠ": 7845,
      "yangĠjiĠ": 7846,
      "jianĠkangĠ": 7847,
      "ĠerĠbuĠshiĠ": 7848,
      "luoĠfaĠ": 7849,
      "ĠerĠdeĠ": 7850,
      "tuiĠxiuĠ": 7851,
      "7ĠnianĠ": 7852,
      "dengĠzhiĠ": 7853,
      "sanĠrenĠ": 7854,
      "seĠfuĠ": 7855,
      "huiĠguiĠ": 7856,
      "tiĠxingĠ": 7857,
      "yongĠleĠ": 7858,
      "yinĠxiangĠ": 7859,
      "shenĠhuaĠ": 7860,
      "ĠdeĠjiĠluĠ": 7861,
      "ĠdunĠ": 7862,
      "ouĠxiangĠ": 7863,
      "yanĠrenĠ": 7864,
      "yanĠheĠ": 7865,
      "caiĠnengĠ": 7866,
      "juĠleĠ": 7867,
      "quĠzhuĠ": 7868,
      "naĠxieĠ": 7869,
      "yinĠyuĠ": 7870,
      "zuĠqiuĠduiĠ": 7871,
      "mianĠyiĠ": 7872,
      "shuaiĠlingĠ": 7873,
      "ĠqiĠxuanĠ": 7874,
      "diĠxiaĠ": 7875,
      "zuĠcheng": 7876,
      "boĠlan": 7877,
      "ĠyiĠshengĠ": 7878,
      "ĠluĠwa": 7879,
      "keĠnengĠhuiĠ": 7880,
      "ĠheĠdaoĠ": 7881,
      "canĠxuanĠ": 7882,
      "ĠlunĠ": 7883,
      "ĠĠĠdiĠyiĠ": 7884,
      "ĠĠĠtoĠĠĠ": 7885,
      "chuĠzhongĠ": 7886,
      "kongĠxiĠ": 7887,
      "Ã©Ġ": 7888,
      "ĠnianĠshiĠjieĠ": 7889,
      "lianĠluoĠ": 7890,
      "huĠxiangĠ": 7891,
      "Ġ2023": 7892,
      "ĠĠĠ2008": 7893,
      "qingĠjieĠ": 7894,
      "zhouĠliĠ": 7895,
      "ĠzhongĠgongĠzhongĠyangĠ": 7896,
      "changĠshangĠ": 7897,
      "Ġ2016ĠnianĠ": 7898,
      "ĠĠĠMa": 7899,
      "danĠshiĠ": 7900,
      "zaiĠyiĠqiĠ": 7901,
      "yanĠzhongĠdeĠ": 7902,
      "quanĠyiĠ": 7903,
      "ĠyuĠbeiĠ": 7904,
      "ĠshouĠciĠ": 7905,
      "ĠmaĠlai": 7906,
      "ĠchaoĠxianĠ": 7907,
      "ĠĠĠmeiĠ": 7908,
      "guanĠyiĠ": 7909,
      "muĠerĠ": 7910,
      "kaiĠdeĠ": 7911,
      "tuĠjiĠ": 7912,
      "Ġ2007": 7913,
      "shuĠbuĠ": 7914,
      "faĠyiĠ": 7915,
      "dingĠliĠ": 7916,
      "zhenĠquĠdeĠmianĠjiĠweiĠ": 7917,
      "ĠyuanĠmingĠ": 7918,
      "ĠshouĠdaoĠ": 7919,
      "Ġhei": 7920,
      "ĠzhiĠshuĠ": 7921,
      "ziĠchanĠ": 7922,
      "duiĠyingĠ": 7923,
      "tiĠgongĠleĠ": 7924,
      "ĠĠĠxingĠ": 7925,
      "zhongĠyiĠyuanĠ": 7926,
      "zhuĠzhongĠ": 7927,
      "daiĠweiĠ": 7928,
      "neiĠdiĠ": 7929,
      "faĠshengĠzaiĠ": 7930,
      "queĠshiĠ": 7931,
      "2ĠgeĠ": 7932,
      "1978ĠnianĠ": 7933,
      "ĠyuĠxiĠ": 7934,
      "heĠliuĠ": 7935,
      "fuĠxingĠ": 7936,
      "xianĠzhuĠ": 7937,
      "beiĠsiĠ": 7938,
      "yanĠseĠ": 7939,
      "zuĠqiuĠjuĠleĠbuĠ": 7940,
      "19Ġ": 7941,
      "qianĠxiĠ": 7942,
      "kaoĠshiĠ": 7943,
      "geĠguoĠ": 7944,
      "zhengĠbianĠ": 7945,
      "baoĠluoĠ": 7946,
      "zuiĠduoĠ": 7947,
      "suĠgeĠlanĠ": 7948,
      "tiĠheĠ": 7949,
      "shangĠjiĠ": 7950,
      "yanĠjiĠ": 7951,
      "sheĠzaiĠ": 7952,
      "diĠquĠdeĠ": 7953,
      "ziĠxun": 7954,
      "muĠsiĠlinĠ": 7955,
      "Ġlv": 7956,
      "ĠshiĠjiaĠ": 7957,
      "zhuanĠmenĠ": 7958,
      "kaĠlaĠ": 7959,
      "ĠhangĠ": 7960,
      "ĠdianĠshiĠ": 7961,
      "ruĠweiĠ": 7962,
      "daiĠlingĠ": 7963,
      "ĠĠĠran": 7964,
      "shenĠyiĠ": 7965,
      "wuĠguanĠ": 7966,
      "sheĠjiĠshiĠ": 7967,
      "Ġ2ĠyueĠ": 7968,
      "sanĠbuĠ": 7969,
      "zhongĠyao": 7970,
      "beiĠfangĠ": 7971,
      "baoĠcunĠ": 7972,
      "mianĠfeiĠ": 7973,
      "Ġkan": 7974,
      "zhongĠguoĠdaĠluĠ": 7975,
      "ĠlianĠheĠ": 7976,
      "ĠjueĠdingĠ": 7977,
      "ĠbuĠlaĠ": 7978,
      "feiĠyanĠ": 7979,
      "zaoĠshangĠ": 7980,
      "mianĠdianĠ": 7981,
      "teĠĠĠ": 7982,
      "yangĠxingĠ": 7983,
      "xueĠzhongĠ": 7984,
      "30Ġ": 7985,
      "chuĠweiĠ": 7986,
      "qianĠyueĠ": 7987,
      "pingĠguoĠ": 7988,
      "cengĠdeĠ": 7989,
      "tuiĠjianĠ": 7990,
      "liaoĠdeĠ": 7991,
      "quanĠxianĠ": 7992,
      "ĠxiangĠguanĠ": 7993,
      "bingĠyuĠ": 7994,
      "guoĠneiĠ": 7995,
      "chuanĠtongĠdeĠ": 7996,
      "ĠbeiĠchengĠweiĠ": 7997,
      "EĠ": 7998,
      "onĠ": 7999,
      "juĠfengĠ": 8000,
      "gengĠxinĠ": 8001,
      "ĠĠĠgongĠ": 8002,
      "qingĠrenĠ": 8003,
      "duoĠnianĠ": 8004,
      "langĠzhongĠ": 8005,
      "diĠwuĠ": 8006,
      "tianĠhouĠ": 8007,
      "Ġshao": 8008,
      "ĠĠĠ1": 8009,
      "shuĠzaiĠ": 8010,
      "gaoĠshiĠ": 8011,
      "pianĠzhongĠ": 8012,
      "wanĠzhengĠ": 8013,
      "6ĠnianĠ": 8014,
      "huaĠzaiĠ": 8015,
      "tongĠxunĠ": 8016,
      "bianĠjingĠ": 8017,
      "shanĠxianĠ": 8018,
      "fengĠdeĠ": 8019,
      "miaoĠhuiĠ": 8020,
      "shouĠquanĠ": 8021,
      "jiuĠyuanĠ": 8022,
      "xieĠzuoĠ": 8023,
      "nĠĠĠ": 8024,
      "zanĠzhuĠ": 8025,
      "chengĠzaiĠ": 8026,
      "guiĠmo": 8027,
      "ĠĠĠrenĠ": 8028,
      "juĠzaiĠ": 8029,
      "muĠyuĠ": 8030,
      "baĠdaĠ": 8031,
      "baĠsiĠ": 8032,
      "jueĠyuĠ": 8033,
      "geĠlaĠ": 8034,
      "luoĠshanĠjiĠ": 8035,
      "Ġ2019ĠnianĠ": 8036,
      "ĠzaĠzhiĠ": 8037,
      "ĠliĠchengĠ": 8038,
      "faĠmingĠ": 8039,
      "tuĠshuĠ": 8040,
      "xingĠmuĠ": 8041,
      "xianĠruĠ": 8042,
      "ĠdiĠqiuĠ": 8043,
      "Ġpeng": 8044,
      "liĠziĠ": 8045,
      "ĠĠĠR": 8046,
      "ĠzhiĠwaiĠ": 8047,
      "zhangĠzhuanĠjiĠ": 8048,
      "ĠzuiĠgaoĠ": 8049,
      "ĠbiĠsaiĠ": 8050,
      "tunĠ": 8051,
      "jinĠriĠ": 8052,
      "ĠzuĠzhiĠ": 8053,
      "shuangĠdaĠ": 8054,
      "quĠjianĠ": 8055,
      "leĠdeĠ": 8056,
      "guanĠceĠ": 8057,
      "xingĠzaiĠ": 8058,
      "fuĠzhuĠ": 8059,
      "cheĠchangĠ": 8060,
      "beiĠrenĠmingĠweiĠ": 8061,
      "xianĠzhongĠ": 8062,
      "zhouĠrenĠ": 8063,
      "ĠshiĠerĠ": 8064,
      "ĠshiĠtaĠ": 8065,
      "ĠyueĠheĠ": 8066,
      "ĠU": 8067,
      "Ġsang": 8068,
      "duiĠzhongĠ": 8069,
      "ĠshanĠdongĠ": 8070,
      "guoĠminĠdangĠ": 8071,
      "ĠyouĠzaiĠ": 8072,
      "pingĠlun": 8073,
      "liangĠheĠ": 8074,
      "ĠdeĠshiĠyongĠ": 8075,
      "2ĠhaoĠ": 8076,
      "8ĠnianĠ": 8077,
      "jiangĠyiĠ": 8078,
      "gaiĠzhiĠweiĠ": 8079,
      "bianĠzhiĠ": 8080,
      "suĠzhiĠ": 8081,
      "ĠshiĠchengĠ": 8082,
      "ĠliĠliangĠ": 8083,
      "chuĠzhangĠ": 8084,
      "linĠsiĠ": 8085,
      "juĠbenĠ": 8086,
      "jiaoĠduĠ": 8087,
      "tianĠzhuĠ": 8088,
      "Ġ2017ĠnianĠ": 8089,
      "luoĠliĠdaĠ": 8090,
      "ĠdiĠdiĠ": 8091,
      "xiaoĠyingĠ": 8092,
      "1958ĠnianĠ": 8093,
      "piĠzhun": 8094,
      "Ġ7Ġ": 8095,
      "ĠĠĠdongĠ": 8096,
      "shangĠxianĠ": 8097,
      "zaoĠchengĠdeĠ": 8098,
      "ĠshiĠjianĠzhuĠ": 8099,
      "banĠjiĠ": 8100,
      "shouĠboĠ": 8101,
      "zhangĠziĠ": 8102,
      "huĠlianĠ": 8103,
      "Ġ2018ĠnianĠ": 8104,
      "aoĠerĠ": 8105,
      "ĠĠĠduiĠ": 8106,
      "ĠĠĠnanĠ": 8107,
      "ĠĠĠbaĠ": 8108,
      "zhanĠmuĠsiĠ": 8109,
      "aiĠliĠ": 8110,
      "1979ĠnianĠ": 8111,
      "fuĠshuĠ": 8112,
      "ĠhuoĠshiĠ": 8113,
      "yunĠdeĠ": 8114,
      "touĠxianĠ": 8115,
      "1972ĠnianĠ": 8116,
      "luĠzhanĠ": 8117,
      "ĠhouĠzheĠ": 8118,
      "ĠĠĠgeĠrenĠ": 8119,
      "dingĠjiĠ": 8120,
      "cuĠ": 8121,
      "ĠweiĠbeiĠ": 8122,
      "yunĠyongĠ": 8123,
      "ĠpuĠtaoĠ": 8124,
      "baĠerĠ": 8125,
      "IĠ": 8126,
      "maĠshiĠ": 8127,
      "huaiĠyiĠ": 8128,
      "xiaĠzaiĠ": 8129,
      "chaiĠ": 8130,
      "ĠyiĠdongĠ": 8131,
      "ĠweiĠyuĠzhongĠguoĠ": 8132,
      "ĠnuoĠ": 8133,
      "guanĠjiĠ": 8134,
      "baoĠhu": 8135,
      "ĠyingĠwenĠ": 8136,
      "ĠyanĠjiuĠ": 8137,
      "xuĠjiĠ": 8138,
      "canĠyiĠ": 8139,
      "huoĠcheĠ": 8140,
      "qiangĠduĠ": 8141,
      "ĠciĠnianĠ": 8142,
      "ĠchunĠ": 8143,
      "ĠdiĠyaĠ": 8144,
      "ĠaiĠerĠ": 8145,
      "ĠĠĠ2009": 8146,
      "shaoĠdeĠ": 8147,
      "xinĠguanĠ": 8148,
      "huoĠbiĠ": 8149,
      "ĠxuĠyaoĠ": 8150,
      "ĠmingĠzhiĠ": 8151,
      "zhaĠdanĠ": 8152,
      "chuanĠmeiĠ": 8153,
      "ĠĠĠfor": 8154,
      "juĠbanĠdeĠ": 8155,
      "jiaoĠchaĠ": 8156,
      "minĠzu": 8157,
      "miĠniĠ": 8158,
      "leiĠsiĠdeĠ": 8159,
      "ĠgaiĠbianĠ": 8160,
      "daoĠzaiĠ": 8161,
      "luoĠshiĠ": 8162,
      "xueĠkeĠ": 8163,
      "LĠ": 8164,
      "diĠqiĠ": 8165,
      "bingĠduĠ": 8166,
      "ĠxinĠwenĠ": 8167,
      "xingĠzhengĠquĠ": 8168,
      "naĠxiaĠ": 8169,
      "ĠĠĠzengĠzuĠ": 8170,
      "lieĠshiĠ": 8171,
      "ĠzhongĠxingĠ": 8172,
      "xiĠnanĠbuĠ": 8173,
      "taiĠhouĠ": 8174,
      "zuiĠzao": 8175,
      "wuĠyueĠ": 8176,
      "zhengĠjiĠ": 8177,
      "ĠshiĠyiĠkeĠ": 8178,
      "xinĠjiaĠpo": 8179,
      "yaoĠshiĠ": 8180,
      "pinĠdeĠ": 8181,
      "ganĠyuĠ": 8182,
      "ĠrenĠweiĠshiĠ": 8183,
      "xiangĠfaĠ": 8184,
      "faĠliĠ": 8185,
      "luoĠyuĠ": 8186,
      "ĠdaĠbuĠfen": 8187,
      "tiĠchuĠdeĠ": 8188,
      "juĠban": 8189,
      "taiĠkongĠ": 8190,
      "canĠtingĠ": 8191,
      "Ġ2006": 8192,
      "xiĠyouĠ": 8193,
      "chuĠguoĠ": 8194,
      "xueĠliĠ": 8195,
      "zheĠheĠ": 8196,
      "baiĠyuĠ": 8197,
      "jueĠsai": 8198,
      "ĠshiĠshiĠyongĠ": 8199,
      "zongĠyiĠ": 8200,
      "zongĠrenĠkouĠ": 8201,
      "ĠzhiĠbuĠ": 8202,
      "leĠyuanĠ": 8203,
      "teĠquĠ": 8204,
      "ĠdeĠhuaĠ": 8205,
      "qingĠzhuĠ": 8206,
      "ĠbingĠbeiĠ": 8207,
      "zhuanĠxieĠ": 8208,
      "1ĠrenĠ": 8209,
      "ĠweiĠyiĠ": 8210,
      "ĠĠĠhouĠ": 8211,
      "ĠzhongĠdianĠ": 8212,
      "jinĠrong": 8213,
      "ĠxiĠyinĠ": 8214,
      "jiangĠliĠ": 8215,
      "zhuĠdaoĠ": 8216,
      "Ġmao": 8217,
      "xueĠjiĠ": 8218,
      "faĠxianĠdeĠ": 8219,
      "tongĠxinĠ": 8220,
      "ĠmaĠliĠ": 8221,
      "Ġ2004ĠnianĠ": 8222,
      "shangĠwangĠ": 8223,
      "aĠgenĠ": 8224,
      "jiaoĠhuanĠ": 8225,
      "suiĠran": 8226,
      "wuĠzhengĠzhuangĠganĠranĠzheĠ": 8227,
      "4ĠrenĠ": 8228,
      "Ġ2021ĠnianĠ": 8229,
      "xingĠshiĠdeĠ": 8230,
      "xianĠchengĠ": 8231,
      "meiĠjunĠ": 8232,
      "ĠZ": 8233,
      "Ġshun": 8234,
      "miĠsiĠ": 8235,
      "ĠyiĠgongĠ": 8236,
      "ĠchuĠbanĠ": 8237,
      "ĠĠĠliuĠ": 8238,
      "suiĠzheĠ": 8239,
      "ĠBĠ": 8240,
      "touĠdeĠ": 8241,
      "ĠyiĠqianĠ": 8242,
      "ĠdiĠzaiĠ": 8243,
      "xinĠjianĠ": 8244,
      "zuĠjieĠ": 8245,
      "sheĠjiaoĠ": 8246,
      "ĠdeĠyiĠyuanĠ": 8247,
      "Ġshui": 8248,
      "juĠzhiĠ": 8249,
      "duiĠjiĠ": 8250,
      "dianĠweiĠ": 8251,
      "shenĠyuĠ": 8252,
      "baĠdeĠ": 8253,
      "ĠshiĠrenĠminĠ": 8254,
      "ĠĠĠtianĠ": 8255,
      "xianĠliĠ": 8256,
      "daĠxiaoĠ": 8257,
      "geĠziĠ": 8258,
      "Ġguang": 8259,
      "cheĠdiĠ": 8260,
      "chengĠleĠ": 8261,
      "fangĠmian": 8262,
      "duanĠpianĠ": 8263,
      "chuanĠqiĠ": 8264,
      "qiĠzhongĠ": 8265,
      "guĠlaĠ": 8266,
      "huangĠseĠ": 8267,
      "xianĠzhiĠxianĠ": 8268,
      "Ġsu": 8269,
      "ĠĠĠ4": 8270,
      "ĠĠĠD": 8271,
      "minĠyiĠ": 8272,
      "ĠĠĠshiĠyongĠ": 8273,
      "yongĠzaiĠ": 8274,
      "zhengĠquĠ": 8275,
      "teĠdianĠ": 8276,
      "ĠtaĠheĠ": 8277,
      "ĠceĠ": 8278,
      "ĠzhuanĠjiĠ": 8279,
      "Ġ2020ĠnianĠ": 8280,
      "duĠguoĠ": 8281,
      "zanĠshiĠ": 8282,
      "huoĠshengĠ": 8283,
      "biĠxu": 8284,
      "zhangĠzhiĠ": 8285,
      "1960ĠnianĠ": 8286,
      "qiĠlaiĠ": 8287,
      "xiĠbeiĠbuĠ": 8288,
      "zuiĠdiĠ": 8289,
      "siĠdaĠ": 8290,
      "faĠsheng": 8291,
      "luoĠchengĠ": 8292,
      "zuiĠzaoĠ": 8293,
      "yunĠdongĠdeĠ": 8294,
      "bangĠqiuĠ": 8295,
      "buĠdeĠcunĠzhuangĠ": 8296,
      "ĠnengĠ": 8297,
      "shouĠbuĠ": 8298,
      "teĠheĠ": 8299,
      "gaoĠduĠweiĠ": 8300,
      "linĠjinĠ": 8301,
      "ĠshiĠhouĠ": 8302,
      "ĠyouĠzhuĠ": 8303,
      "laiĠyuĠ": 8304,
      "xianĠshangĠ": 8305,
      "gangĠkouĠ": 8306,
      "gongĠyuanĠqianĠ": 8307,
      "1976ĠnianĠ": 8308,
      "wuĠdiĠ": 8309,
      "xinĠjiangĠ": 8310,
      "ciĠdiĠ": 8311,
      "chengĠjiuĠ": 8312,
      "ĠcaiĠyongĠ": 8313,
      "gongĠzuoĠshiĠ": 8314,
      "ĠshuangĠfangĠ": 8315,
      "ĠÐ": 8316,
      "anĠzhiĠ": 8317,
      "ĠgongĠyeĠ": 8318,
      "ĠyiĠbianĠ": 8319,
      "lingĠchenĠ": 8320,
      "xunĠlian": 8321,
      "yongĠjiĠ": 8322,
      "1980ĠnianĠdaiĠ": 8323,
      "qiĠcheĠ": 8324,
      "ĠgeĠshouĠ": 8325,
      "Ġtao": 8326,
      "danĠdaĠ": 8327,
      "sanĠzhongĠ": 8328,
      "onĠĠĠ": 8329,
      "stĠĠĠ": 8330,
      "zhongĠhuaĠminĠguoĠ": 8331,
      "faĠtingĠ": 8332,
      "shanĠmaiĠ": 8333,
      "ĠdeĠyiĠxieĠ": 8334,
      "chuĠbanĠsheĠ": 8335,
      "jingĠneiĠgongĠyouĠ": 8336,
      "dangĠnianĠ": 8337,
      "WindowsĠĠĠ": 8338,
      "huiĠweiĠ": 8339,
      "1920ĠnianĠ": 8340,
      "jiangĠshuĠ": 8341,
      "ĠxiangĠmuĠ": 8342,
      "daoĠyouĠ": 8343,
      "xinĠjieĠ": 8344,
      "pingĠyuanĠ": 8345,
      "sanĠmingĠ": 8346,
      "houĠjiĠ": 8347,
      "xiaoĠliĠyuĠ": 8348,
      "ĠjiaĠlaĠ": 8349,
      "ĠtongĠyiĠ": 8350,
      "hanĠziĠ": 8351,
      "qiĠhouĠ": 8352,
      "daĠdiĠ": 8353,
      "ĠzhaoĠheĠ": 8354,
      "chengĠzhiĠweiĠ": 8355,
      "lieĠchuĠ": 8356,
      "ĠliangĠgeĠ": 8357,
      "ĠnongĠ": 8358,
      "xiuĠdaoĠ": 8359,
      "ĠdaĠjiaĠ": 8360,
      "ĠĠĠdaoĠ": 8361,
      "zanĠtingĠ": 8362,
      "biĠliĠshiĠ": 8363,
      "baiĠkeĠ": 8364,
      "duiĠheĠ": 8365,
      "ruanĠtiĠ": 8366,
      "jianĠduĠ": 8367,
      "yeĠfuĠ": 8368,
      "laiĠyinĠ": 8369,
      "ĠtaĠyouĠ": 8370,
      "ĠĠĠaĠĠĠ": 8371,
      "ĠerĠgaiĠdiĠdeĠ": 8372,
      "tongĠheĠ": 8373,
      "haiĠzaiĠ": 8374,
      "tanĠheĠ": 8375,
      "shengĠdaoĠ": 8376,
      "ĠdaĠjiangĠ": 8377,
      "ĠdanĠyinĠ": 8378,
      "jinĠyuĠ": 8379,
      "huoĠzaiĠ": 8380,
      "yunĠheĠ": 8381,
      "tiĠdaiĠ": 8382,
      "qianĠtingĠ": 8383,
      "ĠzuiĠchuĠ": 8384,
      "henĠkuaiĠ": 8385,
      "ĠĠĠgaiĠyaoĠ": 8386,
      "faĠjiĠ": 8387,
      "naĠheĠ": 8388,
      "ĠbuĠdaoĠ": 8389,
      "xiangĠyingĠ": 8390,
      "ĠqiĠbingĠ": 8391,
      "jingĠguanĠ": 8392,
      "bianĠyuanĠ": 8393,
      "ĠweiĠfuĠqiĠyuĠgang": 8394,
      "yaĠrenĠ": 8395,
      "1990ĠnianĠdaiĠ": 8396,
      "ĠliĠfuĠ": 8397,
      "ĠtaĠmenĠzaiĠ": 8398,
      "ĠpiaoĠ": 8399,
      "ĠouĠyuanĠ": 8400,
      "aoĠdeĠ": 8401,
      "duiĠdiĠ": 8402,
      "qianĠjinĠ": 8403,
      "wangĠwangĠ": 8404,
      "GĠ": 8405,
      "juĠyuanĠ": 8406,
      "anĠliĠ": 8407,
      "xingĠyouĠ": 8408,
      "pinĠzhongĠ": 8409,
      "queĠbaoĠ": 8410,
      "qunĠtiĠ": 8411,
      "chengĠquĠ": 8412,
      "ĠqiĠheĠ": 8413,
      "maĠtouĠ": 8414,
      "buĠmenĠ": 8415,
      "taĠyiĠ": 8416,
      "fuĠhaoĠ": 8417,
      "ĠdeĠshiĠjiĠ": 8418,
      "ĠjinĠshiĠ": 8419,
      "changĠjiĠ": 8420,
      "kuoĠjianĠ": 8421,
      "ĠyueĠduiĠ": 8422,
      "ĠtaĠrenĠweiĠ": 8423,
      "ĠĠĠshouĠ": 8424,
      "dianĠshiĠjieĠ": 8425,
      "siĠlanĠ": 8426,
      "ĠĠĠjiaĠtingĠ": 8427,
      "ĠĠĠinĠĠĠ": 8428,
      "shuĠchuĠ": 8429,
      "ĠxiĠtongĠdeĠ": 8430,
      "changĠbiĠsaiĠ": 8431,
      "eĠguoĠ": 8432,
      "Ġ2002ĠnianĠ": 8433,
      "ĠnianĠdaoĠ": 8434,
      "yeĠkeĠyiĠ": 8435,
      "fuĠza": 8436,
      "faĠdongĠjiĠ": 8437,
      "quĠfenĠ": 8438,
      "sheĠdingĠ": 8439,
      "guiĠfanĠ": 8440,
      "leĠyiĠxieĠ": 8441,
      "ĠxianĠweiĠ": 8442,
      "ĠcunĠ": 8443,
      "jiuĠzaiĠ": 8444,
      "wuĠshuĠ": 8445,
      "daĠshiĠguanĠ": 8446,
      "riĠbenĠdeĠ": 8447,
      "ĠliĠliĠ": 8448,
      "ĠnianĠqingĠ": 8449,
      "senĠlin": 8450,
      "maĠkeĠsiĠ": 8451,
      "qiuĠshiĠ": 8452,
      "reĠĠĠ": 8453,
      "jieĠduan": 8454,
      "tuiĠguangĠ": 8455,
      "ĠzhongĠguoĠrenĠminĠjieĠfangĠjunĠ": 8456,
      "xuanĠshiĠ": 8457,
      "fuĠmuĠ": 8458,
      "wuĠzhuang": 8459,
      "saiĠerĠweiĠ": 8460,
      "gengĠduoĠdeĠ": 8461,
      "ĠĠĠwangĠ": 8462,
      "danĠyiĠ": 8463,
      "tieĠluĠcheĠzhanĠ": 8464,
      "9ĠnianĠ": 8465,
      "wangĠweiĠ": 8466,
      "laĠweiĠ": 8467,
      "changĠduĠ": 8468,
      "fenĠpeiĠ": 8469,
      "yaĠmuĠ": 8470,
      "canĠshuĠ": 8471,
      "KĠ": 8472,
      "peiĠbeiĠ": 8473,
      "ĠyiĠmeiĠ": 8474,
      "ĠyouĠliangĠ": 8475,
      "ĠzhongĠjianĠ": 8476,
      "beiĠjing": 8477,
      "duoĠerĠ": 8478,
      "zhongĠbuĠ": 8479,
      "beiĠdaĠ": 8480,
      "ĠqiĠzhong": 8481,
      "qianĠshenĠ": 8482,
      "Ġ1970": 8483,
      "ĠbuĠsiĠ": 8484,
      "shangĠzhenĠ": 8485,
      "baoĠhan": 8486,
      "suiĠranĠ": 8487,
      "yeĠjianĠ": 8488,
      "yeĠshengĠyaĠ": 8489,
      "duiĠfangĠ": 8490,
      "chuangĠzuoĠdeĠ": 8491,
      "maiĠdeĠ": 8492,
      "zeĠdongĠ": 8493,
      "Ġ40": 8494,
      "zhangĠjiĠ": 8495,
      "ĠheĠliuĠ": 8496,
      "chengĠweiĠyiĠ": 8497,
      "ĠĠĠN": 8498,
      "yanĠjingĠ": 8499,
      "banĠjiangĠ": 8500,
      "buĠdeĠbuĠ": 8501,
      "ĠsunĠ": 8502,
      "douĠbeiĠ": 8503,
      "ĠzaiĠneiĠdeĠ": 8504,
      "dengĠchangĠ": 8505,
      "Ġsai": 8506,
      "shanĠdiĠ": 8507,
      "chuĠziĠ": 8508,
      "ĠgongĠqingĠ": 8509,
      "wenĠjiĠ": 8510,
      "cengĠshiĠ": 8511,
      "touĠbuĠ": 8512,
      "Ġ30Ġ": 8513,
      "1ĠgeĠ": 8514,
      "anĠjiĠ": 8515,
      "junĠbuĠ": 8516,
      "keĠyunĠ": 8517,
      "teĠlaĠ": 8518,
      "suĠlian": 8519,
      "tuĠxiangĠ": 8520,
      "vĠ": 8521,
      "huangĠjinĠ": 8522,
      "Ġ35": 8523,
      "congĠweiĠ": 8524,
      "ĠjieĠshuĠ": 8525,
      "lvĠseĠ": 8526,
      "xingĠliĠ": 8527,
      "dengĠyuĠ": 8528,
      "yeĠshengĠ": 8529,
      "banĠyanĠ": 8530,
      "kaiĠgongĠ": 8531,
      "ĠziĠyuanĠ": 8532,
      "duĠjiĠ": 8533,
      "nanĠsiĠ": 8534,
      "zheĠyangĠ": 8535,
      "ĠshiĠshiĠshangĠ": 8536,
      "aĠlaĠbo": 8537,
      "shenĠkeĠ": 8538,
      "chenĠjiĠ": 8539,
      "ĠzaiĠheĠ": 8540,
      "riĠbaoĠ": 8541,
      "dangĠtianĠ": 8542,
      "Ġtun": 8543,
      "beiĠliĠ": 8544,
      "zheĠzhiĠ": 8545,
      "cheĠshiĠ": 8546,
      "ĠxiĠanĠ": 8547,
      "xieĠshangĠ": 8548,
      "chiĠxu": 8549,
      "Ġbao": 8550,
      "leĠdiĠ": 8551,
      "stĠ": 8552,
      "xianĠdai": 8553,
      "jinĠquĠ": 8554,
      "fenĠzhiĠyiĠ": 8555,
      "ĠdeĠjiĠhuaĠ": 8556,
      "quĠyouĠ": 8557,
      "zhuĠceĠ": 8558,
      "luĠshangĠ": 8559,
      "ĠV": 8560,
      "ĠqiĠdongĠ": 8561,
      "seĠlie": 8562,
      "ĠfuĠzeĠguanĠxiaĠ": 8563,
      "Ġ60": 8564,
      "muĠheĠ": 8565,
      "waiĠweiĠ": 8566,
      "ĠshiĠshiĠjiĠ": 8567,
      "quanĠjiĠ": 8568,
      "zhuanĠweiĠ": 8569,
      "1956ĠnianĠ": 8570,
      "ĠyiĠkeĠ": 8571,
      "weiĠyuanĠ": 8572,
      "dongĠxianĠ": 8573,
      "ĠĠĠchengĠ": 8574,
      "ĠĠĠzhangĠ": 8575,
      "ĠyiĠnian": 8576,
      "ĠĠĠguĠ": 8577,
      "1964ĠnianĠ": 8578,
      "xiangĠqiĠ": 8579,
      "haoĠpingĠ": 8580,
      "dengĠshiĠ": 8581,
      "zeĠyuĠ": 8582,
      "sectionĠĠĠ": 8583,
      "fuĠerĠ": 8584,
      "xiaoĠjieĠ": 8585,
      "qingĠchaoĠ": 8586,
      "quĠzhongĠ": 8587,
      "shaĠdeĠ": 8588,
      "daĠduoĠ": 8589,
      "zongĠjianĠ": 8590,
      "duiĠzhiĠ": 8591,
      "bingĠzaiĠ": 8592,
      "ĠqiĠxiĠzaiĠ": 8593,
      "zhengĠshuĠ": 8594,
      "mianĠtiĠ": 8595,
      "Ġ28": 8596,
      "haoĠyouĠ": 8597,
      "ĠzhongĠqiĠ": 8598,
      "xiaoĠliangĠ": 8599,
      "fanĠying": 8600,
      "ĠlianĠjieĠ": 8601,
      "ĠSĠ": 8602,
      "ĠjianĠliĠ": 8603,
      "hangĠyeĠ": 8604,
      "yuanĠxianĠ": 8605,
      "teĠleiĠ": 8606,
      "xuanĠchengĠ": 8607,
      "ĠgeĠleiĠ": 8608,
      "ĠbaoĠhuĠ": 8609,
      "ĠbingĠbuĠ": 8610,
      "ĠsectionĠĠĠ": 8611,
      "biaoĠjiĠ": 8612,
      "lieĠsiĠ": 8613,
      "ĠshiĠxiĠ": 8614,
      "shouĠshuĠ": 8615,
      "laiĠnaĠ": 8616,
      "feiĠlvĠbin": 8617,
      "zhanĠweiĠyuĠ": 8618,
      "ĠgongĠkaiĠ": 8619,
      "ĠfenĠbieĠ": 8620,
      "Ġ45": 8621,
      "zongĠzhiĠ": 8622,
      "haiĠshangĠ": 8623,
      "tuĠchuĠ": 8624,
      "canĠjia": 8625,
      "ĠĠĠranĠerĠ": 8626,
      "ĠbangĠ": 8627,
      "ĠĠĠguangĠ": 8628,
      "changĠdaĠ": 8629,
      "jiangĠyouĠ": 8630,
      "baiĠzhiĠ": 8631,
      "ceĠĠĠ": 8632,
      "niaoĠleiĠ": 8633,
      "ĠshiĠbuĠ": 8634,
      "daiĠbiaoĠtuanĠ": 8635,
      "ĠzuiĠjiaĠ": 8636,
      "zhanĠyouĠ": 8637,
      "1968ĠnianĠ": 8638,
      "ĠqiĠzhongĠnanĠxingĠ": 8639,
      "ĠjiangĠsuĠ": 8640,
      "wanĠliĠ": 8641,
      "niĠxiĠyaĠ": 8642,
      "yuanĠbenĠ": 8643,
      "jinĠzhanĠ": 8644,
      "baoĠzha": 8645,
      "fenĠsiĠ": 8646,
      "ĠsiĠdaĠ": 8647,
      "Ġfou": 8648,
      "luĠheĠ": 8649,
      "xieĠweiĠ": 8650,
      "moĠniĠ": 8651,
      "zhongĠguoĠrenĠminĠ": 8652,
      "haiĠdiĠ": 8653,
      "shenĠzhenĠ": 8654,
      "puĠtaoĠyaĠ": 8655,
      "ĠpianĠ": 8656,
      "liangĠbuĠ": 8657,
      "fengĠshiĠ": 8658,
      "xingĠdong": 8659,
      "gongĠdaĠ": 8660,
      "ĠĠĠgenĠjuĠ2020ĠnianĠmeiĠguoĠrenĠkouĠpuĠchaĠdeĠshuĠjuĠ": 8661,
      "juĠweiĠ": 8662,
      "luĠyiĠsiĠ": 8663,
      "xiaĠdiĠquĠ": 8664,
      "dingĠxingĠ": 8665,
      "geĠbuĠ": 8666,
      "yanĠanĠ": 8667,
      "changĠjiangĠ": 8668,
      "ĠĠĠjingĠjiĠ": 8669,
      "zhanĠweiĠ": 8670,
      "ĠguoĠwuĠyuanĠ": 8671,
      "daoĠdanĠ": 8672,
      "laiĠziĠyuĠ": 8673,
      "feiĠyongĠ": 8674,
      "ĠliuĠyuĠ": 8675,
      "Ġ2024": 8676,
      "zaiĠyiĠgeĠ": 8677,
      "faĠheĠ": 8678,
      "houĠzhiĠ": 8679,
      "seĠĠĠ": 8680,
      "xiaoĠxiangĠ": 8681,
      "Ġ8Ġ": 8682,
      "ĠĠĠ2019ĠnianĠ": 8683,
      "gongĠyueĠ": 8684,
      "jiaoĠdiĠ": 8685,
      "tangĠdeĠ": 8686,
      "1981ĠnianĠ": 8687,
      "chuĠxianĠdeĠ": 8688,
      "biĠerĠ": 8689,
      "haĠliĠ": 8690,
      "ĠyouĠsuoĠ": 8691,
      "gongĠkaiĠsaiĠ": 8692,
      "Ġ2000ĠnianĠ": 8693,
      "ĠyiĠheĠ": 8694,
      "ĠguoĠjiaĠdeĠ": 8695,
      "ziĠbenĠ": 8696,
      "zhengĠmianĠ": 8697,
      "ĠjinĠshuĠ": 8698,
      "ĠfaĠzhanĠ": 8699,
      "kuoĠzhangĠ": 8700,
      "ĠpinĠ": 8701,
      "dangĠzaiĠ": 8702,
      "cheĠduiĠ": 8703,
      "Ġlei": 8704,
      "Ġ2005": 8705,
      "qiongĠ": 8706,
      "xueĠyeĠ": 8707,
      "Ġwa": 8708,
      "houĠbuĠ": 8709,
      "fuĠzhouĠ": 8710,
      "ĠguanĠfangĠ": 8711,
      "ĠweiĠyuanĠhuiĠweiĠyuanĠ": 8712,
      "Ġ200": 8713,
      "shuĠdeĠzhiĠwuĠ": 8714,
      "tianĠjiaĠ": 8715,
      "keĠerĠ": 8716,
      "taiĠnanĠ": 8717,
      "xuanĠjuĠzhongĠ": 8718,
      "ĠĠĠqiĠzhongĠ": 8719,
      "ĠĠĠyueĠ": 8720,
      "beiĠyueĠ": 8721,
      "huoĠliĠ": 8722,
      "wangĠjiĠ": 8723,
      "shuiĠdeĠ": 8724,
      "ganĠxianĠ": 8725,
      "juĠmin": 8726,
      "leĠduiĠ": 8727,
      "yanĠjiangĠ": 8728,
      "ĠshiĠyiĠzuoĠ": 8729,
      "yuanĠzhuĠminĠ": 8730,
      "ĠjiĠjinĠhuiĠ": 8731,
      "Ġ1946": 8732,
      "duoĠshiĠ": 8733,
      "chaĠshiĠ": 8734,
      "ĠshiĠdeĠshiĠ": 8735,
      "Ġpi": 8736,
      "ĠquĠdeĠ": 8737,
      "ĠkaoĠ": 8738,
      "ĠniuĠ": 8739,
      "zuĠrenĠ": 8740,
      "laiĠkeĠ": 8741,
      "hantĠ": 8742,
      "ĠzaiĠbuĠ": 8743,
      "zheĠyangĠdeĠ": 8744,
      "nanĠjiĠzhouĠdeĠ": 8745,
      "ĠtouĠguoĠ": 8746,
      "yangĠheĠ": 8747,
      "ganĠdeĠ": 8748,
      "woĠerĠ": 8749,
      "beiĠpoĠ": 8750,
      "guĠdianĠ": 8751,
      "ĠqianĠwangĠ": 8752,
      "chengĠliĠhouĠ": 8753,
      "guĠfenĠyouĠxianĠgongĠsiĠ": 8754,
      "1948ĠnianĠ": 8755,
      "ĠyueĠrenĠ": 8756,
      "daĠguiĠmoĠ": 8757,
      "jianĠkang": 8758,
      "ĠdiĠtuĠ": 8759,
      "meiĠguo": 8760,
      "baiĠwanĠ": 8761,
      "ĠweiĠfuĠqiĠyuĠgangĠ": 8762,
      "ĠhantĠ": 8763,
      "duoĠliĠyaĠ": 8764,
      "ĠzhongĠwenĠ": 8765,
      "gongĠanĠ": 8766,
      "ĠguoĠgongĠ": 8767,
      "huiĠdaĠ": 8768,
      "chuĠchangĠ": 8769,
      "zongĠcaiĠ": 8770,
      "shaoĠnvĠ": 8771,
      "HĠ": 8772,
      "yaĠzhongĠ": 8773,
      "ĠzhiĠjingĠ": 8774,
      "ĠheĠqiĠtaĠ": 8775,
      "keĠluoĠ": 8776,
      "zhanĠshuĠ": 8777,
      "wenĠtiĠdeĠ": 8778,
      "reĠdaiĠfengĠbaoĠ": 8779,
      "huĠxiĠ": 8780,
      "shuaiĠling": 8781,
      "ĠyuĠdiĠ": 8782,
      "ĠtaĠjiĠ": 8783,
      "canĠkao": 8784,
      "ĠĠĠzhuĠyaoĠ": 8785,
      "bieĠdeĠ": 8786,
      "xinĠtaiĠ": 8787,
      "ĠĠĠ2007": 8788,
      "ĠĠĠIn": 8789,
      "ĠĠĠfanĠ": 8790,
      "luoĠyiĠ": 8791,
      "menĠshiĠ": 8792,
      "gongĠjiaoĠ": 8793,
      "zhuĠbanĠ": 8794,
      "ĠshiĠyiĠzhiĠ": 8795,
      "zuoĠfaĠ": 8796,
      "ĠdaĠerĠ": 8797,
      "naĠshengĠ": 8798,
      "meiĠguoĠrenĠ": 8799,
      "zhuanĠyongĠ": 8800,
      "cunĠzaiĠdeĠ": 8801,
      "ĠjinĠru": 8802,
      "xianĠdeĠyiĠgeĠfeiĠjianĠzhiĠdiĠquĠ": 8803,
      "Ġ2022ĠnianĠ": 8804,
      "nuoĠyiĠ": 8805,
      "ĠshiĠfaĠ": 8806,
      "ĠzhiĠshaoĠ": 8807,
      "fangĠmiĠ": 8808,
      "hangĠtianĠ": 8809,
      "zuoĠzhiĠ": 8810,
      "dingĠzaiĠ": 8811,
      "qunĠdeĠ": 8812,
      "1Ġri": 8813,
      "youĠyiĠxieĠ": 8814,
      "ĠlingĠwai": 8815,
      "Ġyong": 8816,
      "ĠĠĠjiangĠ": 8817,
      "niangĠ": 8818,
      "luĠwa": 8819,
      "ĠxingĠjianĠ": 8820,
      "xueĠbuĠ": 8821,
      "meiĠshiĠ": 8822,
      "lanĠyuĠ": 8823,
      "ĠyiĠxueĠ": 8824,
      "raoĠtaiĠyangĠ": 8825,
      "ĠshiĠbingĠ": 8826,
      "liangĠziĠ": 8827,
      "ĠnianĠyiĠlaiĠ": 8828,
      "shangĠweiĠyouĠ": 8829,
      "baoĠheĠ": 8830,
      "duiĠkangĠ": 8831,
      "ĠfuĠqin": 8832,
      "maĠlaiĠ": 8833,
      "7ĠrenĠ": 8834,
      "Ġ2003ĠnianĠ": 8835,
      "yingĠerĠ": 8836,
      "jiuĠyouĠ": 8837,
      "1952ĠnianĠ": 8838,
      "eĠweiĠ": 8839,
      "taĠrenĠ": 8840,
      "ĠyiĠdaĠ": 8841,
      "ĠyiĠxiangĠ": 8842,
      "ciĠquĠ": 8843,
      "duĠhuiĠ": 8844,
      "ĠzheĠyangĠ": 8845,
      "eĠdeĠ": 8846,
      "banĠrenĠ": 8847,
      "chuanĠguoĠ": 8848,
      "1975ĠnianĠ": 8849,
      "1966ĠnianĠ": 8850,
      "wuĠgeĠ": 8851,
      "xieĠdingĠ": 8852,
      "sanĠciĠ": 8853,
      "ĠdanĠweiĠ": 8854,
      "ĠouĠzhouĠ": 8855,
      "shangĠheĠ": 8856,
      "zongĠhuiĠ": 8857,
      "ĠxinĠzengĠ": 8858,
      "ĠdiaoĠ": 8859,
      "ĠĠĠ3ĠyueĠ": 8860,
      "boĠjueĠ": 8861,
      "xuanĠchuĠ": 8862,
      "ĠriĠyouĠ": 8863,
      "guoĠjiaĠduiĠ": 8864,
      "ĠĠĠqiĠhouĠ": 8865,
      "ĠĠĠofĠĠĠtheĠĠĠ": 8866,
      "1947ĠnianĠ": 8867,
      "ĠnianĠlingĠ": 8868,
      "jiaoĠjieĠ": 8869,
      "haiĠbaĠgaoĠduĠweiĠ": 8870,
      "guangĠdeĠ": 8871,
      "ĠyiĠwaiĠ": 8872,
      "ĠdanĠqiĠ": 8873,
      "ĠshiĠyongĠleĠ": 8874,
      "ĠdangĠshiĠdeĠ": 8875,
      "jiaoĠyuĠbuĠ": 8876,
      "wuĠyouĠ": 8877,
      "wenĠti": 8878,
      "leiĠxingĠdeĠ": 8879,
      "zhuangĠkuang": 8880,
      "ĠziĠjiĠ": 8881,
      "wangĠyuĠ": 8882,
      "waiĠxingĠ": 8883,
      "genĠsuiĠ": 8884,
      "ĠyiĠchanĠ": 8885,
      "xingĠzheng": 8886,
      "yanĠlunĠ": 8887,
      "ĠsiĠtaĠ": 8888,
      "ĠrenĠminĠbiĠ": 8889,
      "fenĠbieĠweiĠ": 8890,
      "geĠzaiĠ": 8891,
      "jinĠzaiĠ": 8892,
      "wangĠzhiĠ": 8893,
      "gongĠjueĠ": 8894,
      "ĠdaoĠyanĠ": 8895,
      "ĠfaĠshengĠ": 8896,
      "nongĠcun": 8897,
      "ĠchengĠliĠyuĠ": 8898,
      "1937ĠnianĠ": 8899,
      "sheĠyingĠ": 8900,
      "gaoĠxiaoĠ": 8901,
      "jianĠzhuĠwuĠ": 8902,
      "ĠjiangĠqiĠ": 8903,
      "Ġchao": 8904,
      "ĠleĠ": 8905,
      "ĠĠĠfaĠ": 8906,
      "ĠĠĠpingĠjiaĠ": 8907,
      "taĠheĠ": 8908,
      "shuĠmuĠ": 8909,
      "zhanĠchangĠ": 8910,
      "lianĠsai": 8911,
      "xuanĠju": 8912,
      "ĠpingĠtaiĠ": 8913,
      "ĠdeĠjiĠhuiĠ": 8914,
      "jingĠsaiĠ": 8915,
      "qiaoĠliangĠ": 8916,
      "xunĠyangĠjianĠ": 8917,
      "ĠĠĠluoĠ": 8918,
      "ĠĠĠchuĠleĠ": 8919,
      "tuanĠjieĠ": 8920,
      "songĠdaoĠ": 8921,
      "guoĠchengĠ": 8922,
      "shouĠfaĠ": 8923,
      "fenĠjieĠ": 8924,
      "quanĠshuĠ": 8925,
      "ĠdeĠyiĠmeiĠ": 8926,
      "ĠshiĠyiĠdaĠliĠ": 8927,
      "duanĠzan": 8928,
      "ĠkeĠluoĠ": 8929,
      "zuiĠzaoĠdeĠ": 8930,
      "cengĠshuiĠyuĠ": 8931,
      "1ĠnianĠ": 8932,
      "aĠfuĠ": 8933,
      "xinĠzhongĠ": 8934,
      "zhangĠyiĠ": 8935,
      "xiaĠyiĠxiaĠdiĠquĠ": 8936,
      "yingĠxiangĠliĠ": 8937,
      "Ġhua": 8938,
      "guoĠshiĠqiĠ": 8939,
      "puĠliĠ": 8940,
      "shouĠduanĠ": 8941,
      "pingĠjieĠ": 8942,
      "ciĠzhongĠ": 8943,
      "zhuanĠdeĠxiaoĠxingĠxingĠ": 8944,
      "kĠĠĠ": 8945,
      "beiĠheĠ": 8946,
      "faĠweiĠ": 8947,
      "ruĠyuĠ": 8948,
      "ĠdiĠdianĠ": 8949,
      "jiangĠbeiĠ": 8950,
      "xunĠzhaoĠ": 8951,
      "guoĠjiĠjiĠchangĠ": 8952,
      "wangĠsiĠ": 8953,
      "ĠyiĠerĠ": 8954,
      "guoĠwuĠyuanĠ": 8955,
      "wuĠzhongĠdeĠ": 8956,
      "ĠdiĠliuĠ": 8957,
      "juĠdaĠdeĠ": 8958,
      "ĠjiĠxingĠ": 8959,
      "ĠliĠgongĠ": 8960,
      "wangĠziĠ": 8961,
      "ĠdeĠshiĠwuĠ": 8962,
      "zheĠjiangĠshengĠ": 8963,
      "ĠĠĠ5ĠyueĠ": 8964,
      "zheĠyuĠ": 8965,
      "Ġshen": 8966,
      "zhengĠqiĠ": 8967,
      "ĠzaiĠjinĠ": 8968,
      "ĠchuĠrenĠ": 8969,
      "yaĠzhiĠ": 8970,
      "ruĠyiĠ": 8971,
      "huangĠshiĠ": 8972,
      "jiaĠmengĠ": 8973,
      "zuĠxieĠ": 8974,
      "shanĠdongĠshengĠ": 8975,
      "Ġhuai": 8976,
      "ĠshiĠbaĠ": 8977,
      "wangĠshangĠ": 8978,
      "guangĠfan": 8979,
      "zhengĠshiĠqiĠ": 8980,
      "ĠsanĠshiĠ": 8981,
      "tiĠchuĠleĠ": 8982,
      "zĠ": 8983,
      "ĠkeĠliĠ": 8984,
      "songĠdeĠ": 8985,
      "mingĠjuĠrenĠ": 8986,
      "yinĠyongĠ": 8987,
      "huoĠyunĠ": 8988,
      "anĠzhuang": 8989,
      "yaoĠgun": 8990,
      "aĠliĠ": 8991,
      "ĠĠĠshenĠ": 8992,
      "shengĠbuĠ": 8993,
      "xiaoĠyouĠ": 8994,
      "laĠerĠ": 8995,
      "xianĠzhangĠ": 8996,
      "baoĠzhaĠ": 8997,
      "Ġ26": 8998,
      "guaiĠ": 8999,
      "ĠshiĠjiĠdeĠ": 9000,
      "pingĠminĠ": 9001,
      "lianĠtongĠ": 9002,
      "pingĠjunĠhaiĠbaĠgaoĠduĠweiĠ": 9003,
      "Ġchun": 9004,
      "siĠyouĠ": 9005,
      "llĠ": 9006,
      "faĠshengĠdeĠ": 9007,
      "liĠlunĠ": 9008,
      "zhanĠzaiĠ": 9009,
[...]
