{"!":0,"\"":1,"#":2,"$":3,"%":4,"&":5,"'":6,"(":7,")":8,"*":9,"+":10,",":11,"-":12,".":13,"/":14,"0":15,"1":16,"2":17,"3":18,"4":19,"5":20,"6":21,"7":22,"8":23,"9":24,":":25,";":26,"=":27,"?":28,"@":29,"A":30,"B":31,"C":32,"D":33,"E":34,"F":35,"G":36,"H":37,"I":38,"J":39,"K":40,"L":41,"M":42,"N":43,"O":44,"P":45,"Q":46,"R":47,"S":48,"T":49,"U":50,"V":51,"W":52,"X":53,"Y":54,"Z":55,"[":56,"\\":57,"]":58,"^":59,"_":60,"`":61,"a":62,"b":63,"c":64,"d":65,"e":66,"f":67,"g":68,"h":69,"i":70,"j":71,"k":72,"l":73,"m":74,"n":75,"o":76,"p":77,"q":78,"r":79,"s":80,"t":81,"u":82,"v":83,"w":84,"x":85,"y":86,"z":87,"|":88,"~":89,"¡":90,"¢":91,"£":92,"¤":93,"¥":94,"¦":95,"§":96,"¨":97,"©":98,"ª":99,"«":100,"¬":101,"®":102,"¯":103,"°":104,"±":105,"²":106,"³":107,"´":108,"µ":109,"¶":110,"·":111,"¸":112,"¹":113,"º":114,"»":115,"¼":116,"½":117,"¾":118,"¿":119,"Â":120,"Ã":121,"Ä":122,"Å":123,"Æ":124,"Ç":125,"È":126,"É":127,"Ê":128,"Ë":129,"Ì":130,"Í":131,"Î":132,"Ï":133,"Ð":134,"Ñ":135,"Ò":136,"Ó":137,"Ô":138,"Õ":139,"Ö":140,"×":141,"Ø":142,"Ù":143,"Ú":144,"Û":145,"Ü":146,"Þ":147,"ß":148,"à":149,"á":150,"â":151,"ã":152,"ä":153,"ê":154,"ë":155,"ì":156,"í":157,"î":158,"ï":159,"ð":160,"ñ":161,"Ċ":162,"Ġ":163,"ġ":164,"Ģ":165,"ģ":166,"Ĥ":167,"ĥ":168,"Ħ":169,"ħ":170,"Ĩ":171,"ĩ":172,"Ī":173,"ī":174,"Ĭ":175,"ĭ":176,"Į":177,"į":178,"İ":179,"ı":180,"Ĳ":181,"ĳ":182,"Ĵ":183,"ĵ":184,"Ķ":185,"ķ":186,"ĸ":187,"Ĺ":188,"ĺ":189,"Ļ":190,"ļ":191,"Ľ":192,"ľ":193,"Ŀ":194,"ŀ":195,"Ł":196,"ł":197,"Ń":198,"ng":199,"hÃ":200,"Ãł":201,"Äģ":202,"Ã¬":203,"Ã¡":204,"Ä«":205,"Ã¨":206,"Çİ":207,"ĠĠ":208,"Ã©":209,"ÃŃ":210,"shÃ":211,"Ã¹":212,"Ã¡n":213,"zh":214,"ÇĲ":215,"Åį":216,"ji":217,"de":218,"Ãłn":219,"Äĵ":220,"zhÃ":221,"sh":222,"ÄĽ":223,"Ã³":224,"ÇĶ":225,"xi":226,"Ã²":227,"Ãº":228,"Äģn":229,"ĠĠĠ":230,"Ãłi":231,"Å«":232,"Åįng":233,"ÇĴ":234,"ãĢ":235,"shÃ¬":236,"hu":237,"Ã¨i":238,"gu":239,"iÃ¡n":240,"hÃ©":241,"Ãło":242,"Äģng":243,"ÃŃng":244,"yu":245,"Çİn":246,"ch":247,"niÃ¡n":248,"yÄ«":249,"Çİng":250,"Ã©n":251,"ÇĴu":252,"Ã¬ng":253,"wÃ¨i":254,"Çİo":255,"zÃłi":256,"ãĢģ":257,"jÄ«":258,"Äĵng":259,"zhÅįng":260,"xÄ«":261,"bÃ¹":262,"jÃ¬":263,"Ãłng":264,"li":265,"zhÃ¨":266,"shÃŃ":267,"dÃ¬":268,"guÃ³":269,"yÃº":270,"rÃ©n":271,"Ã²ng":272,"chÃ":273,"Äģo":274,"du":275,"chÃ©":276,"yÇĲ":277,"lÃ¬":278,"Ã¡ng":279,"yÃ¬":280,"uÃ²":281,"Ã¡i":282,"zhÃ¬":283,"chÃ©ng":284,"Ã©i":285,"xu":286,"gÅįng":287,"jÃŃ":288,"²u":289,"ÄĽi":290,"iÃłn":291,"Äĵn":292,"Ã³ng":293,"yuÃ¨":294,"yÇĴu":295,"yuÃ¡n":296,"dÃł":297,"qi":298,"Åįu":299,"lÇĲ":300,"20":301,"Ã³u":302,"Äģi":303,"xiÃłn":304,"jiÄģ":305,"sÄ«":306,"Å«n":307,"xÃŃng":308,"yÇĶ":309,"Ã¨n":310,"ÇĴng":311,"ÃŃn":312,"tÄģ":313,"rÃ¬":314,"zhÄ«":315,"hÃ²u":316,"Çİi":317,"gÃ¨":318,"zhÃł":319,"Ã©ng":320,"le":321,"wÃ©i":322,"huÃ¬":323,"dÃło":324,"19":325,"bi":326,"shÃł":327,"qÄ«":328,"qÃŃ":329,"shÃ¨":330,"su":331,"zhÃ¨ng":332,"mÃŃng":333,"jiÃłn":334,"xuÃ©":335,"chÅ«":336,"yÃ¹":337,"ÄĽng":338,"zuÃ²":339,"shÄĵng":340,"duÃ¬":341,"yÃ³u":342,"qÅ«":343,"shÃłng":344,"ÄĽn":345,"dÃ©":346,"lÃ¹":347,"bÃ¨i":348,"chÃ¡":349,"ti":350,"shÇĲ":351,"zhÃłn":352,"zhÇĶ":353,"Äĵi":354,"qu":355,"jÃ¹":356,"xÄ«n":357,"jÅ«n":358,"zhu":359,"ÄĽr":360,"Ã¡o":361,"shÃ¹":362,"uÃ¬":363,"rÃ¨n":364,"fÄģ":365,"wÃ¹":366,"bÃ¬ng":367,"kÃ¨":368,"Ã©r":369,"dÃłi":370,"yÃŃ":371,"jÃ¬n":372,"zÃ¬":373,"yÄ«n":374,"fÃ¹":375,"fÄģng":376,"jÄ«ng":377,"nÃ¡n":378,"huÃł":379,"xÃ¬":380,"zhÅįu":381,"pÃŃng":382,"Ã²u":383,"xiÃł":384,"lÃ¡i":385,"yÃ²ng":386,"shu":387,"guÄģn":388,"tÃ³ng":389,"ãĢĭ":390,"ãĢĬ":391,"fÇİ":392,"zhÃ¹":393,"mÄĽi":394,"hÃ¡":395,"Â·":396,"jiÄģn":397,"jÇĲ":398,"huÃ²":399,"dÃ¹":400,"chu":401,"bÄĽn":402,"xiÄģng":403,"zhÃŃ":404,"dÃ²ng":405,"xiÃłng":406,"mÃŃn":407,"jiÄģng":408,"fÄĵn":409,"shÇĴu":410,"quÃ¡n":411,"wÃ©n":412,"yÃ¡n":413,"hÃł":414,"suÇĴ":415,"jiÃło":416,"qiÃ¡n":417,"diÃłn":418,"tÃ¨":419,"di":420,"duÅį":421,"Ãºn":422,"zuÃ¬":423,"kÄģi":424,"tu":425,"jiÃ©":426,"liÃ¡n":427,"zhÇĲ":428,"kÄĽ":429,"dÃłn":430,"mÃ¹":431,"yÃ¨":432,"fÃº":433,"mÇİ":434,"yÄĽ":435,"dÅįng":436,"qiÃº":437,"bÄĽi":438,"ãĢĮ":439,"ãĢį":440,"gÄģo":441,"yÃł":442,"qÇĲ":443,"jiÄĵ":444,"miÃłn":445,"hÇİi":446,"zhÇİng":447,"shÄ«":448,"jÄ«n":449,"cÇĲ":450,"lu":451,"nÃ¨i":452,"tÇĲ":453,"sÃłi":454,"sÄģn":455,"tÃ¡i":456,"gÃ©":457,"xÃ¬ng":458,"guÃ²":459,"rÃ¹":460,"201":461,"dÄĽng":462,"yÃło":463,"ju":464,"chÄĵ":465,"cÃ¬":466,"wÇĶ":467,"gÄģi":468,"dÃ¬ng":469,"chÃ¡ng":470,"biÇİo":471,"lÄģ":472,"gÃ²ng":473,"jiÃ¨":474,"shÃ²u":475,"dÇİo":476,"shÄģn":477,"chÇİng":478,"sÃ¬":479,"bÇĲ":480,"zÃ©":481,"tÃŃ":482,"kÄĵ":483,"dÄģng":484,"nÃ©ng":485,"Ã¨r":486,"wÃłi":487,"dÄģn":488,"xÃ¹":489,"zi":490,"kÇĴu":491,"xiÇİo":492,"zÇĶ":493,"bÄģ":494,"juÃ©":495,"lÃŃn":496,"liÃº":497,"shÄĽng":498,"yÄ«ng":499,"ku":500,"lÃ¡n":501,"luÃ³":502,"tÅįng":503,"200":504,"Ä«ng":505,"²ng":506,"mÇĲ":507,"zhÃ²ng":508,"en":509,"zhÄĽ":510,"shÇĶ":511,"tiÄģn":512,"zhÃ¨n":513,"Çļ":514,"qÃ¬":515,"zhÇĴng":516,"liÃ¨":517,"chÄĵng":518,"shÅ«":519,"yuÃłn":520,"bÇİo":521,"tÃłi":522,"fÇĶ":523,"fÄĵng":524,"gÇĶ":525,"qÄ«ng":526,"shÄĵn":527,"wÃ¡ng":528,"yÃ¹n":529,"guÇİn":530,"fÄĵi":531,"jiÃ¹":532,"liÇİng":533,"cÃ©ng":534,"mÃ©i":535,"10":536,"fÃ¨n":537,"hÃło":538,"³ng":539,"yÇİn":540,"wÄĽi":541,"zÇĴng":542,"xuÇİn":543,"xiÃło":544,"dÃ¡":545,"nÃł":546,"liÃłng":547,"bÅį":548,"zÃº":549,"jÃ¬ng":550,"bÃło":551,"nÃŃ":552,"wÃº":553,"tÇĴng":554,"huÃ¡":555,"jiÄģo":556,"yuÄĵ":557,"yÇĲng":558,"biÃłn":559,"xÄ«ng":560,"sÃ¹":561,"shuÇĲ":562,"yÃ¡ng":563,"hÃ¹":564,"men":565,"bÄģo":566,"gÄĵ":567,"bÃ³":568,"cÄģn":569,"cÃ³ng":570,"diÇİn":571,"bÃ¬":572,"rÃº":573,"bÃłn":574,"biÄģn":575,"wÇİng":576,"qÇĶ":577,"mi":578,"chÇİn":579,"sÃ¨":580,"zÄ«":581,"chuÃ¡n":582,"00":583,"shÃ¨ng":584,"rÃ¡n":585,"tÃº":586,"zhÄģng":587,"pÇĶ":588,"gÇİi":589,"gÇİng":590,"nÇļ":591,"lÃ¬ng":592,"luÃ²":593,"yÃ²u":594,"tÃ³u":595,"cÃ¨":596,"lÇ":597,"chÃŃ":598,"18":599,"lÇľ":600,"qiÄģn":601,"shÃ©":602,"lÃŃ":603,"dÅįu":604,"pÇĲ":605,"12":606,"zhÄĵng":607,"ni":608,"kuÃ²":609,"shÄģ":610,"dÇİng":611,"fÇİn":612,"gÃ²u":613,"lÃ¨i":614,"xÃŃ":615,"jÇĲng":616,"tuÃ¡n":617,"wÄĵi":618,"xiÄĵ":619,"lÇĲng":620,"lÃ³ng":621,"guÄ«":622,"xiÄģn":623,"rÃ³ng":624,"huÃ¡ng":625,"xiÇİng":626,"bÄģn":627,"jiÇĶ":628,"yÃ¬ng":629,"mÃ©n":630,"shÄģng":631,"shÃ©n":632,"202":633,"bÇİn":634,"kÇİ":635,"mÇĶ":636,"jÇĲn":637,"fÅ«":638,"jÇĶ":639,"mÃ³":640,"guÇİng":641,"cÃŃ":642,"shuÅį":643,"qÃŃng":644,"zhÇİn":645,"hÃ¡i":646,"zhuÄģng":647,"mÃ²":648,"cÃ¡i":649,"dÃº":650,"11":651,"pÇĲn":652,"tÃŃng":653,"chÃ¡o":654,"yÃŃng":655,"tiÃ¡o":656,"jiÇİn":657,"tÃ¡ng":658,"huÃŃ":659,"duÃłn":660,"chÃ©n":661,"gÄĵn":662,"mÃ¬":663,"wÃłn":664,"pÃ¡i":665,"wÄģn":666,"zÃło":667,"hÃ¡ng":668,"wÃ¡n":669,"biÄģo":670,"gÃ¹":671,"lÃºn":672,"199":673,"xiÃ©":674,"jiÇİng":675,"hÃłn":676,"jÃº":677,"fÃłn":678,"fÃ¡ng":679,"huÃ³":680,"hÃ¡n":681,"pi":682,"kÅįng":683,"or":684,"tiÄĽ":685,"mÃ©ng":686,"biÃ©":687,"wÅ«":688,"jiÄĽ":689,"zhuÄģn":690,"yÇĲn":691,"xÅ«":692,"zhÄĵn":693,"dÇĲ":694,"er":695,"chÃº":696,"hÃº":697,"jiÃł":698,"bÄ«ng":699,"mÃ¬ng":700,"lÃŃng":701,"hÃ³ng":702,"qÄ«n":703,"zÇĲ":704,"lÃ¹n":705,"xÃ¬n":706,"chÃ¹":707,"chÇĶ":708,"sÅ«":709,"an":710,"xiÅ«":711,"zÅįng":712,"15":713,"quÃ¨":714,"xiÄģo":715,"zhÃło":716,"qiÃ¡ng":717,"qÃ¹":718,"cÅ«n":719,"chÃ³ng":720,"piÃłn":721,"jiÅ«":722,"fÃłng":723,"suÃŃ":724,"shÅįu":725,"gÃ¨ng":726,"âĢ":727,"guÄģng":728,"Ã¨ng":729,"jÅ«":730,"on":731,"jiÇİ":732,"chuÃłng":733,"dÃŃ":734,"16":735,"zhuÇİn":736,"guÇĴ":737,"xÃ¹n":738,"mÃłn":739,"pÃłi":740,"fÃ¨i":741,"pÃ¨i":742,"198":743,"dÇİ":744,"tuÅį":745,"la":746,"xuÄģn":747,"bÃ¡i":748,"zhÅ«":749,"dÅ«":750,"tÇĶ":751,"diÃło":752,"xiÃ¡":753,"liÃ¹":754,"17":755,"suÃ¬":756,"huÄ«":757,"tÄ«ng":758,"qiÄĽ":759,"tÇİ":760,"qiÃ¡o":761,"hÄģ":762,"gÇİn":763,"zÄĵng":764,"xiÇİn":765,"mÃłi":766,"huÃ¡n":767,"xÇĶ":768,"wÇİ":769,"tuÄ«":770,"wÃ¨n":771,"chÄģo":772,"tiÃ¡n":773,"bÇİi":774,"cÇİi":775,"liÃ¡ng":776,"yÃ¡":777,"sÃł":778,"ar":779,"bÃłi":780,"cÃºn":781,"jiÇİo":782,"shÇİo":783,"yÃłn":784,"zhuÃłng":785,"huÇĴ":786,"lÃ©i":787,"14":788,"zu":789,"jiÃłng":790,"chuÄģn":791,"yÃ¬n":792,"zÇİo":793,"chÃł":794,"yÇĴng":795,"sÇĲ":796,"dÄĵng":797,"30":798,"zhÇĶn":799,"lÃ¨":800,"xÃºn":801,"nuÃ²":802,"kÃ¹":803,"huÃłn":804,"sÃ²ng":805,"gÃło":806,"lÇĶ":807,"13":808,"194":809,"bÄģng":810,"lÇļ":811,"pÄ«":812,"yÃłng":813,"hÄĽn":814,"qÃºn":815,"zhÄĽng":816,"guÃłn":817,"pÃ²":818,"gÄģng":819,"wÇĴ":820,"197":821,"huÄģ":822,"lÄĵi":823,"hÇİo":824,"tÃ¡o":825,"kuÃłng":826,"hÃ¨":827,"in":828,"dÃ¹n":829,"nÃ³ng":830,"gÄĽi":831,"sÄģi":832,"shuÄģng":833,"liÃłn":834,"kuÃłi":835,"dÄ«":836,"bÄ«":837,"pÃłn":838,"xiÄĽ":839,"195":840,"kÇİo":841,"gÃłi":842,"hÄĵi":843,"wÃłng":844,"liÃło":845,"rÃ¨":846,"ge":847,"zuÇĴ":848,"kÃ²ng":849,"196":850,"yÄģng":851,"chÃłng":852,"yÃŃn":853,"³u":854,"rÃ©ng":855,"sÄĵn":856,"bÄĵi":857,"lÃº":858,"piÃło":859,"yÄģ":860,"25":861,"bÄ«n":862,"âĢĶ":863,"rÃłng":864,"chÅįng":865,"lÃ³u":866,"bÇĶ":867,"lÇİo":868,"zhÃº":869,"jÃ¹n":870,"yÇİng":871,"ruÃ¬":872,"yÄģo":873,"xiÃ¡n":874,"xiÃ¨":875,"niÃłn":876,"for":877,"yÅįu":878,"tÃ¡n":879,"kÄģng":880,"pÃŃ":881,"hÃ©ng":882,"yÃºn":883,"xÇĲ":884,"kÃłn":885,"nÃŃng":886,"liÃ¡o":887,"shÃło":888,"bÃº":889,"24":890,"qÇĲng":891,"chÇĲ":892,"mu":893,"dÃ²u":894,"miÇİn":895,"yÅįng":896,"tÇİn":897,"wÇİn":898,"hÅ«":899,"fÄģn":900,"al":901,"tÅ«":902,"gÄģn":903,"suÃłn":904,"dÄ«ng":905,"yuÇİn":906,"wÄĵn":907,"tuÃ¬":908,"zhe":909,"21":910,"st":911,"xiÃ¹":912,"bÇİ":913,"mÇİn":914,"193":915,"23":916,"mula":917,"kÃłng":918,"formula":919,"28":920,"th":921,"mÃ¡o":922,"ruÃ²":923,"piÄģn":924,"chÃ¨":925,"mÃło":926,"lÇİng":927,"qÃŃn":928,"bÃ¡":929,"nÃ¡":930,"zÃłn":931,"guÇĲ":932,"guÃ¬":933,"ou":934,"pÃŃn":935,"wÃ²":936,"xiÃ³ng":937,"shÃłn":938,"re":939,"22":940,"xiÅįng":941,"me":942,"suÄ«":943,"Ã¼":944,"26":945,"shÄĽn":946,"qÃ¬ng":947,"miÃ¡o":948,"fÇİng":949,"50":950,"2020":951,"27":952,"lÃ¡ng":953,"ru":954,"qiÅ«":955,"sÅįng":956,"Ã¼Ã¨":957,"dÃłng":958,"gÄĵng":959,"qiÄģng":960,"ri":961,"fÃ¡":962,"zÄģo":963,"fÃ¨ng":964,"zhÃłng":965,"ï¼":966,"hÃ¡o":967,"dÅ«n":968,"zÇĴu":969,"hÃłi":970,"qiÃ¨":971,"29":972,"tÃłn":973,"pÃło":974,"pÃł":975,"shÃ¹n":976,"pÃ©ng":977,"xuÃ¡n":978,"2010":979,"nÇĲ":980,"000":981,"dÇĲng":982,"niÇĶ":983,"zÇİi":984,"zhÄģo":985,"zhuÄ«":986,"lÃ¼Ã¨":987,"chÅ«n":988,"2019":989,"hÅ«n":990,"kÇĴng":991,"duÄģn":992,"shÃ¨n":993,"xiÃ¡ng":994,"duÇİn":995,"gÃłn":996,"te":997,"ro":998,"kÄģn":999,"lÃ¡o":1000,"cÇİo":1001,"2016":1002,"si":1003,"gÅ«":1004,"pÃ©i":1005,"2018":1006,"kuÇİn":1007,"zÃ¡":1008,"sÅ«n":1009,"yÃ©":1010,"yÇİ":1011,"pÅį":1012,"2021":1013,"ra":1014,".5":1015,"chÃ¬":1016,"duÃ³":1017,"2014":1018,"fÃ¡n":1019,"2011":1020,"2015":1021,"cuÃ²":1022,"2017":1023,"zhÃ©":1024,"yÃ¡o":1025,"pÄģi":1026,"tÃ²u":1027,"cÃ¡ng":1028,"2012":1029,"40":1030,"kÇİi":1031,"2013":1032,"2022":1033,"mÃŃ":1034,"ruÇİn":1035,"suÄģn":1036,"chÄģ":1037,"zÃłng":1038,"miÃło":1039,"lt":1040,"2009":1041,"zhÇİo":1042,"2008":1043,"huÃ¡i":1044,"ãĥ":1045,"ce":1046,"60":1047,"am":1048,"cu":1049,"xuÃ¨":1050,"chÃ³u":1051,"se":1052,"bÇİng":1053,"mÃ¨ng":1054,"100":1055,"tÃ¬":1056,"pÃº":1057,"nÇİo":1058,"2023":1059,"zhuÃłn":1060,"gt":1061,"lÄĽi":1062,"190":1063,"31":1064,"cÃłi":1065,"cÃ¹":1066,"sÃłn":1067,"mÃ³u":1068,"tion":1069,"ta":1070,"hÃ¹n":1071,"ÇĶn":1072,"kuÄģn":1073,"2007":1074,"niÃº":1075,"mÇĴu":1076,"tÇİo":1077,"diÃ©":1078,"2001":1079,"ol":1080,"tÃ©ng":1081,"sÅįu":1082,"kÄĽn":1083,"qiÇİn":1084,"0.":1085,"chÄģng":1086,"rÇİn":1087,"quÄĵ":1088,"fÇĴu":1089,"sÇĶn":1090,"el":1091,"bÃł":1092,"2000":1093,"80":1094,"kÃło":1095,"suÅį":1096,"2006":1097,"niÇİo":1098,"chÃºn":1099,"ma":1100,"2024":1101,"lÇİn":1102,"ãģ":1103,"zÄģi":1104,"zhÃ¡":1105,"xuÄĽ":1106,"huÇĲ":1107,"luÃłn":1108,"1.":1109,"tÇĲng":1110,"2005":1111,"zÅ«n":1112,"bÃłng":1113,"lÃł":1114,"huÄģn":1115,"rÇİng":1116,"shuÃ¬":1117,"mÇĲn":1118,"35":1119,"lÃłi":1120,"cÄģng":1121,"70":1122,"fÃ³":1123,"pÃ¡n":1124,"of":1125,"nÃłi":1126,"wÄĽn":1127,"et":1128,"cÄģo":1129,"sÄģng":1130,"pÃ¡ng":1131,"90":1132,"2.":1133,"bÇĲng":1134,"ï¼į":1135,"zhÄģ":1136,"ãĤ":1137,"shuÃłi":1138,"niÃ¨":1139,"es":1140,"hÃ³u":1141,"mÃ¨i":1142,"shÄģo":1143,"nÇĶ":1144,"dÇĴng":1145,"il":1146,"at":1147,"ow":1148,"fÃ©ng":1149,"miÃ¨":1150,"yÇĶn":1151,"zÃ²u":1152,"mÇİi":1153,"huÃłi":1154,"2004":1155,"45":1156,"yÄģn":1157,"co":1158,"48":1159,"the":1160,"zhuÃ³":1161,"and":1162,"ter":1163,"he":1164,"tÃło":1165,"nÇİi":1166,"kÅ«n":1167,"2025":1168,"zhÄĽn":1169,"ck":1170,"rÇĶ":1171,"kuÃł":1172,"kuÃŃ":1173,"ãĢī":1174,"ãĢĪ":1175,"gÅįu":1176,"36":1177,"cuÄ«":1178,"38":1179,"shÇİn":1180,"rÃ²u":1181,"diÄģo":1182,"2003":1183,"hÇĶ":1184,"guÅį":1185,"37":1186,"cuÃ¬":1187,"ne":1188,"xÃº":1189,"mÃ¡ng":1190,"juÇİn":1191,"cÃ¡n":1192,"diÄģn":1193,"zhÄģn":1194,"cÃ¡o":1195,"189":1196,"IN":1197,"2002":1198,"3.":1199,"is":1200,"bo":1201,"kÄĵng":1202,"TC":1203,"ve":1204,"34":1205,"mÃ¡":1206,"lÄĽng":1207,"as":1208,"zÅ«":1209,"75":1210,"âĢĵ":1211,"sÃº":1212,"quÄģn":1213,"dÄģ":1214,"to":1215,"chÄģi":1216,"nu":1217,"lÃłng":1218,"kÃ¹n":1219,"46":1220,"tÃºn":1221,"fÄĽn":1222,"1990":1223,"âĢ¦":1224,"zhÃ²u":1225,"shÇİng":1226,"rÃło":1227,"hÄĵng":1228,"tÄ«":1229,"xÅ«n":1230,"39":1231,"nÃ¨":1232,"..":1233,"pÃ¬":1234,"nÃłn":1235,"pÄģn":1236,"65":1237,"hÅįng":1238,"shÃº":1239,"tÄģn":1240,"Ch":1241,"tÄģng":1242,"kÇİn":1243,"Ma":1244,"nÃ¬":1245,"32":1246,"In":1247,"ST":1248,"47":1249,"hÇİn":1250,"it":1251,"UTC":1252,"qiÃłn":1253,"1999":1254,"1998":1255,"1980":1256,"188":1257,"500":1258,"33":1259,"64":1260,"qiÇİng":1261,"shuÃ²":1262,"pÇİo":1263,"lo":1264,"be":1265,"kÄģ":1266,"zhÃ¡i":1267,".8":1268,"SE":1269,"55":1270,"quÃłn":1271,"nÄ«":1272,"dÃ¨ng":1273,"1997":1274,"The":1275,"miÃ¡n":1276,"49":1277,"gÇİo":1278,"II":1279,"68":1280,"Co":1281,"vi":1282,"shÄĽ":1283,"zÃ¨ng":1284,"Re":1285,"han":1286,"zhÃ³u":1287,"zhÃłi":1288,"44":1289,"1996":1290,"na":1291,"tiÄĵ":1292,"dÄģo":1293,"ad":1294,"br":1295,"1994":1296,"ver":1297,"fÃ©i":1298,"zÃ²ng":1299,"qiÃ³ng":1300,"ci":1301,"tiÃło":1302,"chuÃ¡ng":1303,".0":1304,".7":1305,"1992":1306,"ba":1307,"chuÃŃ":1308,"juÄģn":1309,"chÃ¡i":1310,"miÇİo":1311,"guÄģ":1312,"xuÄĵ":1313,"tÃ²ng":1314,"1995":1315,"fÄĽi":1316,".9":1317,"chÄ«":1318,"oo":1319,"mÄĽng":1320,"wÅį":1321,"67":1322,"ir":1323,"shuÄģi":1324,"tuÃ³":1325,"chuÄģng":1326,"huÇİn":1327,"1991":1328,"1970":1329,"58":1330,"ay":1331,"1950":1332,"ca":1333,"nd":1334,"guÃł":1335,"chÃ¡n":1336,"300":1337,"wÄģ":1338,"1993":1339,"187":1340,"1949":1341,".6":1342,"pe":1343,"sÄģ":1344,"tiÇİo":1345,"AT":1346,"1960":1347,"biÇİn":1348,"42":1349,"1945":1350,"ing":1351,"guÃłi":1352,"au":1353,"kÇĶ":1354,"nÃº":1355,"1988":1356,"dÇĶ":1357,"1989":1358,"ig":1359,"pÃ¹":1360,"69":1361,"liÇĶ":1362,"gÇĴng":1363,"SEE":1364,"tuÃ²":1365,"amp":1366,"ct":1367,"liÇİo":1368,"INSEE":1369,"59":1370,"tÄģi":1371,"43":1372,"66":1373,"chuÃłn":1374,"op":1375,"chÃ¨n":1376,"os":1377,"57":1378,"1985":1379,"huÄģng":1380,"99":1381,"SA":1382,"ãĢİ":1383,"cÃ¹n":1384,"ãĢı":1385,"1984":1386,"hÃºn":1387,"41":1388,"pÅ«":1389,"ly":1390,"us":1391,"kÃ²u":1392,"fÃ©n":1393,"88":1394,"1986":1395,"rÇİo":1396,"mp":1397,"St":1398,"id":1399,"rÃ¹n":1400,"TV":1401,"150":1402,"zhuÅį":1403,"ind":1404,"400":1405,"sÇİn":1406,"1987":1407,"78":1408,"un":1409,"ed":1410,"ha":1411,"1982":1412,"56":1413,"Li":1414,"ur":1415,"ard":1416,"nuÃ³":1417,"1983":1418,"NA":1419,"gÇĶn":1420,"Ro":1421,"De":1422,"ss":1423,"mÄģ":1424,"tou":1425,"pÃ¬n":1426,"CD":1427,"chÅįu":1428,"ber":1429,"gÇĴu":1430,"quÇİn":1431,"Mi":1432,"77":1433,"zhÄģi":1434,"Me":1435,"qiÃł":1436,"mÄģo":1437,"qiÇİo":1438,"Mar":1439,"tw":1440,"kÅ«":1441,"kuÃ¡ng":1442,"rÃ³u":1443,"der":1444,"79":1445,"lÃ²u":1446,"OS":1447,"Â°":1448,"kuÃ¬":1449,"sÃłng":1450,"ï½":1451,"Al":1452,"180":1453,"ty":1454,"BC":1455,"54":1456,"1979":1457,"61":1458,"1920":1459,".2":1460,"ang":1461,"pÄĵn":1462,"98":1463,"sÄĵng":1464,"52":1465,"You":1466,"ap":1467,"1978":1468,"nÃ¹":1469,".1":1470,"wÄĵng":1471,"62":1472,"yÄĵ":1473,"duÇĴ":1474,"Le":1475,"53":1476,"xÇĲng":1477,"juÃłn":1478,"ï½ŀ":1479,"BA":1480,"ke":1481,"1946":1482,"ts":1483,"CO":1484,"mo":1485,"ction":1486,"51":1487,"1958":1488,"1981":1489,".3":1490,"Vi":1491,"1972":1492,"1948":1493,"zhuÃ¬":1494,".4":1495,"cÅįng":1496,"tÅįu":1497,"AM":1498,"hi":1499,"63":1500,"man":1501,"ows":1502,"AR":1503,"ry":1504,"1941":1505,"Wind":1506,"BS":1507,"wÃ¡":1508,"liÇİn":1509,"1930":1510,"Mo":1511,"Pro":1512,"luÇİn":1513,"kuÄģng":1514,"qÃº":1515,"tuÇĴ":1516,"kÃ©":1517,"76":1518,"hans":1519,"va":1520,"1940":1521,"1937":1522,"con":1523,"1976":1524,"zuÇĲ":1525,"1944":1526,"Jo":1527,"89":1528,"1975":1529,"um":1530,"ï¼ı":1531,"Te":1532,"1968":1533,"niÃ¡ng":1534,"pÃ³":1535,"shuÄģ":1536,"hk":1537,"yuÄģn":1538,"tÄģo":1539,"per":1540,"wÄģng":1541,"ga":1542,"1000":1543,"ran":1544,"Windows":1545,"95":1546,"Ne":1547,"bÃŃ":1548,"sÇİo":1549,"da":1550,"87":1551,"1966":1552,"85":1553,"fÃł":1554,"pÄĵng":1555,"600":1556,"lÃłn":1557,"Se":1558,"Sta":1559,"sp":1560,"120":1561,"1947":1562,"Ga":1563,"Ar":1564,"ot":1565,"gÄģ":1566,"1956":1567,"AC":1568,"1964":1569,"dÇİn":1570,"cÅ«":1571,"1942":1572,"1955":1573,"chÇĴu":1574,"lay":1575,"1952":1576,"1939":1577,"IS":1578,"1938":1579,"72":1580,"74":1581,"ht":1582,"rÄĽn":1583,"1973":1584,"ace":1585,"fi":1586,"1974":1587,"1954":1588,"qiÄĵ":1589,"ED":1590,"1900":1591,"--":1592,"Be":1593,"AP":1594,"ore":1595,"1943":1596,"1977":1597,"Da":1598,"1971":1599,"pÄ«n":1600,"pÇĴ":1601,"mÃ¡n":1602,"1967":1603,"shÃ©ng":1604,"ment":1605,"IC":1606,"800":1607,"ER":1608,"La":1609,"86":1610,"1959":1611,"bÄĵng":1612,"son":1613,"1965":1614,"JR":1615,"1969":1616,"Ra":1617,"duÄ«":1618,"Di":1619,"ok":1620,"pÃ©n":1621,"ãĥ»":1622,"ÃĹ":1623,"qiÃło":1624,"chuÄ«":1625,"ID":1626,"qiÄģo":1627,"Su":1628,"ine":1629,"1936":1630,"160":1631,"97":1632,"bÄĵn":1633,"zhuÄģ":1634,"ent":1635,"1953":1636,"Sa":1637,"1962":1638,"MA":1639,"Tu":1640,"tic":1641,"1961":1642,"lÇĴng":1643,"ation":1644,"âĶ":1645,"1935":1646,"tÃł":1647,"mÃ¡i":1648,"Sh":1649,"96":1650,"ON":1651,"ak":1652,"ï¼ħ":1653,"1951":1654,"1957":1655,"1963":1656,"Lo":1657,"âĶĢ":1658,"one":1659,"rou":1660,"84":1661,"Ja":1662,"2026":1663,"do":1664,"cÇİn":1665,"82":1666,"gi":1667,"bu":1668,"mer":1669,"73":1670,"po":1671,"94":1672,"tÅ«n":1673,"92":1674,"So":1675,"AN":1676,"IP":1677,"An":1678,"ho":1679,"ali":1680,"1933":1681,"Mu":1682,"1931":1683,"nÃ¡ng":1684,"niÃło":1685,"les":1686,"71":1687,"bÃ¡o":1688,"nuÇİn":1689,"lÃ©ng":1690,"pÃ¡":1691,"83":1692,"93":1693,"ai":1694,"We":1695,"81":1696,"dÇĴu":1697,"1918":1698,"sta":1699,"HD":1700,"Bo":1701,"sÄģo":1702,"Uni":1703,"1928":1704,"luÃ¡n":1705,"ki":1706,"1932":1707,"wi":1708,"nÃ¨n":1709,"col":1710,"int":1711,"MV":1712,"SS":1713,"our":1714,"110":1715,"tÃ¹":1716,"IT":1717,"1912":1718,"all":1719,"1929":1720,"tuÇĲ":1721,"duÃ²":1722,"1927":1723,"cn":1724,"1934":1725,"are":1726,"Pa":1727,"700":1728,"1.5":1729,"gÃ¡":1730,"che":1731,"by":1732,"ted":1733,"ster":1734,"huÇİng":1735,"Si":1736,"250":1737,"ff":1738,"91":1739,"mm":1740,"Par":1741,"zÃ©i":1742,"Ri":1743,"1924":1744,"pp":1745,"ph":1746,"...":1747,"1919":1748,"kuÄ«":1749,"He":1750,"so":1751,"xuÃłn":1752,"130":1753,"piÄģo":1754,"no":1755,"1925":1756,"PS":1757,"Play":1758,"pÄģo":1759,"140":1760,"xiÄģ":1761,"Bu":1762,"Ca":1763,"SM":1764,"Con":1765,"Sp":1766,"PC":1767,"1914":1768,"ble":1769,"ste":1770,"zhÇİi":1771,"km":1772,"DV":1773,"zhÄĵ":1774,"En":1775,"mes":1776,"YouTu":1777,"com":1778,"Ba":1779,"hÄĵ":1780,"Fi":1781,"Ti":1782,"diÄĵ":1783,"ell":1784,"gra":1785,"lÇİ":1786,"AS":1787,"ia":1788,"1911":1789,"Wi":1790,"shi":1791,"end":1792,"ill":1793,"nÃ¼Ã¨":1794,"ana":1795,"ara":1796,"Ge":1797,"1926":1798,"den":1799,"1922":1800,"Na":1801,"nÇİ":1802,"sion":1803,"hÃ¨n":1804,"1917":1805,"ET":1806,"NBA":1807,"IV":1808,"shuÃŃ":1809,"cÄģi":1810,"rÃ¡o":1811,"EN":1812,"1923":1813,"art":1814,"1921":1815,"fe":1816,"pÃ¨ng":1817,"sa":1818,"ka":1819,"kuÄģ":1820,"Goo":1821,"ther":1822,"0.0":1823,"chÇĴng":1824,"To":1825,"170":1826,"à¸":1827,"EC":1828,"ld":1829,"mÇİo":1830,"nÃ²ng":1831,"AL":1832,"Ha":1833,"MS":1834,"section":1835,"Ni":1836,"YouTube":1837,"EP":1838,"hn":1839,"BL":1840,"1913":1841,"tiÄģo":1842,"Ju":1843,"HK":1844,"ler":1845,"2.5":1846,"âĨ":1847,"hant":1848,"gÃ¹n":1849,"1909":1850,"gin":1851,"Inter":1852,"cro":1853,"Ste":1854,"MP":1855,"AI":1856,"Ho":1857,"gÄĽng":1858,"Wor":1859,"nÃło":1860,"Po":1861,"fÄĽng":1862,"Do":1863,"luÇĴ":1864,"US":1865,"ant":1866,"go":1867,"ya":1868,"DVD":1869,"ort":1870,"zÅįu":1871,"ris":1872,"3000":1873,"Pi":1874,"cÄģ":1875,"Car":1876,"1910":1877,"RO":1878,"DS":1879,"Th":1880,"112":1881,"AK":1882,"My":1883,"pen":1884,"RE":1885,"pro":1886,"ven":1887,"1916":1888,"Station":1889,"ãĥ¼":1890,"chuÃ²":1891,"Net":1892,"Î±":1893,"Ki":1894,"Sch":1895,"olo":1896,"No":1897,"ari":1898,"ture":1899,"gn":1900,"Lin":1901,"CP":1902,"UN":1903,"gle":1904,"âĪ":1905,"ers":1906,"hÃ©n":1907,"1915":1908,"oun":1909,"niÃłng":1910,"1905":1911,"FC":1912,"my":1913,"Lu":1914,"ll":1915,"Wil":1916,"CN":1917,"âĦ":1918,"âĨĴ":1919,"1901":1920,"Fa":1921,"Au":1922,"ting":1923,"New":1924,"DNA":1925,"Ex":1926,"âĢ§":1927,"ary":1928,"900":1929,"Ph":1930,"sic":1931,"HR":1932,"dice":1933,"sis":1934,".&":1935,"CH":1936,"zÄĽn":1937,"TA":1938,"dia":1939,"Qu":1940,"TO":1941,"1906":1942,"len":1943,"1904":1944,"chuÇİng":1945,"2.0":1946,"AV":1947,"For":1948,"gÄĽn":1949,"John":1950,"we":1951,"ere":1952,"And":1953,"MO":1954,"ding":1955,"codice":1956,"chÇİo":1957,"jiÇĴng":1958,"âĦĥ":1959,"Ta":1960,"pa":1961,"ps":1962,"PlayStation":1963,"fu":1964,"ko":1965,"wÃł":1966,"bÃ¨ng":1967,"05":1968,"CC":1969,"ton":1970,"vo":1971,"eri":1972,"diÅ«":1973,"1907":1974,"1908":1975,"Google":1976,"AG":1977,"EST":1978,"0.5":1979,"MI":1980,"zuÃłn":1981,"SO":1982,"ory":1983,"tes":1984,"LE":1985,"Gu":1986,"jiÃ¡":1987,"zuÇİn":1988,"cy":1989,"lÄ«":1990,"chi":1991,"ley":1992,"BO":1993,"enter":1994,"BBC":1995,"AD":1996,"IG":1997,"cal":1998,"III":1999,"Cu":2000,"4.":2001,"cri":2002,"oft":2003,"1500":2004,"Ru":2005,"lin":2006,"5000":2007,"ori":2008,"zuÄģn":2009,"pu":2010,"Go":2011,"IST":2012,"shÄĵ":2013,"lÇĺ":2014,"Fe":2015,"Col":2016,"wor":2017,"Sy":2018,"Ka":2019,"ME":2020,"tive":2021,"CR":2022,"gen":2023,"3D":2024,"wit":2025,"round":2026,"6.":2027,"IA":2028,"guÇİ":2029,"105":2030,"je":2031,"ron":2032,"mÃł":2033,"Ð°":2034,"101":2035,"1903":2036,"GB":2037,"pÄ«ng":2038,"cha":2039,"shÃ¡":2040,"lan":2041,"09":2042,"TE":2043,"ree":2044,"Ad":2045,"Hu":2046,"cÃłn":2047,"cÃ©n":2048,"1902":2049,"BD":2050,"NC":2051,"land":2052,"can":2053,"ze":2054,"own":2055,"ess":2056,"pÄģng":2057,"xt":2058,"350":2059,"wa":2060,"ina":2061,"SAO":2062,"shÃ¡o":2063,"5.":2064,"DC":2065,"net":2066,"span":2067,"des":2068,"Î²":2069,"ght":2070,"lÃ¬n":2071,"ence":2072,"B1900":2073,"inc":2074,"B1900.0":2075,"book":2076,"del":2077,"ES":2078,"BM":2079,"ï¼İ":2080,"dy":2081,"ãĥ³":2082,"Hi":2083,"1898":2084,"06":2085,"118":2086,"Pe":2087,"ms":2088,"ãģ®":2089,"lÃ¡":2090,"pt":2091,"qÇĲn":2092,"tel":2093,"360":2094,"DR":2095,"mon":2096,"01":2097,"DA":2098,"gh":2099,"Open":2100,"1895":2101,"lÃło":2102,"yle":2103,"125":2104,"mÃº":2105,"lar":2106,"bÃ¨n":2107,"3.5":2108,"HO":2109,"Ko":2110,"1%":2111,"MC":2112,"ance":2113,"ATP":2114,"Micro":2115,"Ð¾":2116,"108":2117,"gy":2118,"2%":2119,"NG":2120,"pÅįu":2121,"igh":2122,"sy":2123,"cor":2124,"tt":2125,"dio":2126,"Ke":2127,"qiÃ©":2128,"za":2129,"App":2130,"Pu":2131,"ning":2132,"gram":2133,"IF":2134,"Fran":2135,"ft":2136,"res":2137,"Com":2138,"tin":2139,"âĪĴ":2140,"07":2141,"08":2142,"230":2143,"Face":2144,"104":2145,"Du":2146,"ref":2147,"One":2148,"World":2149,"old":2150,"Ser":2151,"soft":2152,"EDT":2153,"ISTAT":2154,"Mon":2155,"Stu":2156,"shÄģi":2157,".5%":2158,"sÇĴng":2159,"à¤":2160,"NO":2161,"ner":2162,"1896":2163,"Cor":2164,"LL":2165,"Bi":2166,"ger":2167,"lus":2168,"109":2169,"DP":2170,"yÅ«":2171,"las":2172,"AA":2173,"fli":2174,"Comp":2175,"rea":2176,"gÄĽ":2177,"RI":2178,"vel":2179,"ren":2180,"line":2181,"RT":2182,"suÇĲ":2183,"SP":2184,"xiÃ¡o":2185,"qiÇİ":2186,"EX":2187,"rÄĽ":2188,"Bar":2189,"Bri":2190,"ling":2191,"bert":2192,"B48":2193,"106":2194,"1890":2195,"ctor":2196,"CST":2197,"San":2198,"ML":2199,"CDT":2200,"Love":2201,"ity":2202,"mar":2203,"3%":2204,"zÄģng":2205,"row":2206,"DO":2207,"with":2208,"HE":2209,"fa":2210,"Per":2211,"pÄĵi":2212,"ward":2213,"Har":2214,"Man":2215,"ds":2216,"tional":2217,"tain":2218,"ja":2219,"04":2220,"4000":2221,"115":2222,"cuÃłn":2223,"1200":2224,"ky":2225,"ux":2226,"ound":2227,"ight":2228,"M1":2229,"50%":2230,"03":2231,"GP":2232,"pÃ¡o":2233,"CE":2234,"back":2235,"1889":2236,"begin":2237,"6%":2238,"Je":2239,"1899":2240,"ool":2241,"colspan":2242,"1871":2243,"ring":2244,"Ed":2245,"RS":2246,"ower":2247,"mic":2248,"Facebook":2249,"lude":2250,"Willi":2251,"Microsoft":2252,"âĢĭ":2253,"240":2254,"tur":2255,"Mac":2256,"1600":2257,"LO":2258,"Live":2259,"BE":2260,"cket":2261,"102":2262,"cc":2263,"ker":2264,"10%":2265,"box":2266,"TT":2267,"1897":2268,"Gi":2269,"NH":2270,"EE":2271,"chÃ²u":2272,"Pre":2273,"Tri":2274,"117":2275,"On":2276,"PP":2277,"qÃ¬n":2278,"4%":2279,"ks":2280,"Is":2281,"SC":2282,"02":2283,"van":2284,"5%":2285,"cm":2286,"shuÇİng":2287,"style":2288,"mb":2289,"103":2290,"AKB48":2291,"MD":2292,"yÇİo":2293,"107":2294,"Gra":2295,"bli":2296,"Music":2297,"Gre":2298,"ood":2299,"cÃ²u":2300,"0.00":2301,"Linux":2302,"include":2303,"Dis":2304,"Or":2305,"Tra":2306,"Pri":2307,"tÇİng":2308,"ww":2309,"Nor":2310,"pha":2311,"min":2312,"8%":2313,"Ori":2314,"ye":2315,"only":2316,"450":2317,"VID":2318,"tus":2319,"127":2320,"mas":2321,"tra":2322,"Davi":2323,"que":2324,"ane":2325,"128":2326,"align":2327,"4.5":2328,"lÄģo":2329,"lis":2330,"ous":2331,"1.2":2332,"Game":2333,"flix":2334,"9%":2335,"CL":2336,"ora":2337,"Netflix":2338,"El":2339,"1894":2340,"220":2341,"rin":2342,"Ber":2343,"Ð½":2344,"ser":2345,"William":2346,"IL":2347,"Vo":2348,"SH":2349,"sti":2350,"rom":2351,"Twit":2352,"1880":2353,"Red":2354,"yi":2355,"RNA":2356,"zÃ¡o":2357,"136":2358,"PG":2359,"Fu":2360,"Ð¸":2361,"ero":2362,"ãģĦ":2363,"TR":2364,"20%":2365,"stra":2366,"Team":2367,"7%":2368,"1800":2369,"Wa":2370,"ãĤ¹":2371,"Univer":2372,"ground":2373,"tor":2374,"1885":2375,"nge":2376,"liÇİ":2377,"114":2378,"ano":2379,"ãĤĵ":2380,"piÃ¡n":2381,"rus":2382,"Hz":2383,"Ty":2384,"Char":2385,"color":2386,"116":2387,"280":2388,"name":2389,"Star":2390,"Eu":2391,"Gen":2392,"UR":2393,"hy":2394,"Ðµ":2395,"113":2396,"era":2397,"lla":2398,"1886":2399,"7.":2400,"sing":2401,"ãĤ¤":2402,"TS":2403,"ten":2404,"School":2405,"PO":2406,"mÇİng":2407,"lass":2408,"1893":2409,".9%":2410,"irl":2411,"Bla":2412,"Mc":2413,"ex":2414,"1.8":2415,"nic":2416,"out":2417,"111":2418,"Mark":2419,"SL":2420,"irst":2421,"ãĦ":2422,".8%":2423,"cial":2424,"Super":2425,"Don":2426,"ac":2427,".4%":2428,"Wal":2429,".3%":2430,"ject":2431,"lex":2432,"mÇĴ":2433,"ans":2434,"âĢ»":2435,"tri":2436,"lia":2437,"ie":2438,"mÅį":2439,"135":2440,".7%":2441,"David":2442,"260":2443,"1860":2444,"90%":2445,"national":2446,"Geor":2447,"Mor":2448,"ys":2449,"nÃŃn":2450,"gue":2451,"tle":2452,"any":2453,"5.5":2454,"Pet":2455,"WTA":2456,"way":2457,".1%":2458,"roup":2459,"HC":2460,"Mat":2461,"80%":2462,"8.":2463,"nis":2464,"ces":2465,"UA":2466,"Un":2467,"was":2468,"ouse":2469,"ham":2470,"1888":2471,".2%":2472,"Ac":2473,"text":2474,".6%":2475,"SD":2476,"-.":2477,"cation":2478,"Bra":2479,"ony":2480,"roid":2481,"1.6":2482,"background":2483,"yÅ«n":2484,"dÇİi":2485,"ream":2486,"Show":2487,"129":2488,"GO":2489,"om":2490,"chÄĵn":2491,"1870":2492,"stri":2493,"GN":2494,"ï¹":2495,"30%":2496,"Che":2497,"nia":2498,"1887":2499,"bur":2500,"don":2501,"pri":2502,"shuÄģn":2503,"1868":2504,"6000":2505,"cle":2506,"Ã¶":2507,"ÑĢ":2508,"1883":2509,"Cy":2510,"NF":2511,"VA":2512,"lub":2513,"meri":2514,"Ku":2515,"ank":2516,"Meta":2517,"320":2518,"Ab":2519,"Xbox":2520,"CS":2521,"NHK":2522,"AF":2523,"DD":2524,"Twitter":2525,"KP":2526,"ny":2527,"onlyinclude":2528,"Tho":2529,"ens":2530,"piÃ¡o":2531,"++":2532,"bit":2533,"tÃłng":2534,"1864":2535,"âĢ¢":2536,"ION":2537,"1884":2538,"119":2539,"RC":2540,"UE":2541,"tis":2542,"122":2543,"Cl":2544,"2500":2545,"1892":2546,"210":2547,"6.5":2548,"A1":2549,"ong":2550,"ins":2551,"Wh":2552,"center":2553,"let":2554,"miÃ¹":2555,"155":2556,"Sou":2557,"ISO":2558,"âħ":2559,"145":2560,"1891":2561,"650":2562,"7.5":2563,"9.":2564,"pre":2565,"Android":2566,"Girl":2567,"sel":2568,"NS":2569,"car":2570,"vil":2571,"ãĢķ":2572,"sil":2573,"OR":2574,"yo":2575,"As":2576,"ãĢĶ":2577,"1850":2578,"ona":2579,"cuÅį":2580,"htt":2581,"red":2582,"low":2583,"xy":2584,"ensis":2585,"International":2586,"Day":2587,"cer":2588,"mÄ«":2589,"1867":2590,"stem":2591,"IM":2592,"pÃłng":2593,"ãĥĪ":2594,"All":2595,"Nation":2596,"sed":2597,"1879":2598,"mber":2599,"James":2600,"Enter":2601,"War":2602,"ffi":2603,"380":2604,"AB":2605,"UP":2606,"dis":2607,"40%":2608,"1876":2609,"Coun":2610,"Ver":2611,"1.4":2612,"Universi":2613,"im":2614,"vin":2615,"George":2616,"Her":2617,"1875":2618,"1861":2619,"270":2620,"Dra":2621,"td":2622,"lie":2623,"sia":2624,"eld":2625,"Air":2626,"Group":2627,"IR":2628,"cho":2629,"time":2630,"126":2631,"ama":2632,"2.4":2633,"NT":2634,"Pau":2635,"lor":2636,"inter":2637,"Ani":2638,"Spe":2639,"Games":2640,"NGC":2641,"Hy":2642,"stru":2643,"ãĥ«":2644,"1873":2645,"Hol":2646,"MG":2647,"123":2648,"ãĥ©":2649,"Eng":2650,"PV":2651,"100%":2652,"Ben":2653,"HT":2654,"val":2655,"Colle":2656,"day":2657,"MB":2658,"168":2659,"COVID":2660,"critic":2661,"Club":2662,"FM":2663,"Hen":2664,"lue":2665,"1865":2666,"ild":2667,"AO":2668,"PL":2669,"that":2670,"ass":2671,"Ameri":2672,"DE":2673,"121":2674,"Center":2675,"ut":2676,"cus":2677,"1.0":2678,"Blo":2679,"175":2680,"ãģĨ":2681,"Web":2682,"H2":2683,"YP":2684,"from":2685,"Ã¤":2686,"1400":2687,"Ali":2688,"od":2689,"MAX":2690,"work":2691,"par":2692,"138":2693,"228":2694,"TP":2695,"fer":2696,"1848":2697,"chÃłn":2698,"1.3":2699,"ast":2700,"ald":2701,"ney":2702,"liÅ«":2703,"1862":2704,"60%":2705,"330":2706,"dge":2707,"pÄĽng":2708,"124":2709,"ãĤ¢":2710,"1881":2711,"1882":2712,"737":2713,"age":2714,"Can":2715,"1878":2716,"550":2717,"Sha":2718,"guÇİi":2719,"ruÇĲ":2720,"1872":2721,"Ele":2722,"LC":2723,"bÃ¬n":2724,"70%":2725,"INK":2726,"Metacritic":2727,"Oricon":2728,"bor":2729,"nÃ¡o":2730,"156":2731,"MTV":2732,"UC":2733,"bri":2734,"165":2735,"comp":2736,"Boo":2737,"LED":2738,"fo":2739,"1840":2740,"niÇİn":2741,"IVE":2742,"High":2743,"Spi":2744,"core":2745,"dÄģi":2746,"wan":2747,"750":2748,"It":2749,"ns":2750,"tro":2751,"shÃłi":2752,"ãĥĥ":2753,"ology":2754,"ming":2755,"1300":2756,"ãģĹ":2757,"137":2758,"stagram":2759,"7000":2760,"1.1":2761,"93.":2762,"Bro":2763,"DOS":2764,"SQ":2765,"UB":2766,"229":2767,"IU":2768,"cre":2769,"zo":2770,"Chu":2771,"GDP":2772,"King":2773,"OK":2774,"Ñģ":2775,"ena":2776,"2.2":2777,"Lea":2778,"She":2779,"rand":2780,"152":2781,"als":2782,"Stre":2783,"TVB":2784,"Micha":2785,"Va":2786,"lip":2787,"159":2788,"1877":2789,"Robert":2790,"type":2791,"Sur":2792,"âĹ":2793,"kuÇĲ":2794,"1866":2795,"rist":2796,"Chi":2797,"Chris":2798,"Pat":2799,"iOS":2800,"Ð»":2801,"oly":2802,"Produ":2803,"SK":2804,"1869":2805,"âĢ²":2806,"silver":2807,"THE":2808,"Up":2809,"4.0":2810,"Ce":2811,"DM":2812,"gar":2813,"her":2814,"sen":2815,"xiÇĶ":2816,"15%":2817,"Fri":2818,"NET":2819,"Pla":2820,"2.8":2821,"Ðº":2822,"she":2823,"139":2824,"Instagram":2825,"Phone":2826,"BI":2827,"C++":2828,"star":2829,"BLAC":2830,"Type":2831,"Big":2832,"por":2833,"Ð²":2834,"DJ":2835,"rÄĵng":2836,"0.3":2837,"iss":2838,"Apple":2839,"CG":2840,"Hel":2841,"WE":2842,"ew":2843,"ray":2844,"ãĤ¯":2845,"code":2846,"Michael":2847,"At":2848,"DF":2849,"ï¸":2850,"ark":2851,"alk":2852,"1100":2853,"158":2854,"ons":2855,"ator":2856,"Tech":2857,"Paul":2858,"225":2859,"305":2860,"133":2861,"INE":2862,"cia":2863,"RA":2864,"sÇİ":2865,"ãĥª":2866,"Award":2867,"HI":2868,"YO":2869,"132":2870,"Steam":2871,"205":2872,"1863":2873,"Park":2874,"National":2875,"Bill":2876,"Ye":2877,"25%":2878,"1.7":2879,"tainment":2880,"215":2881,"Ci":2882,"bra":2883,"sto":2884,"new":2885,"University":2886,"FO":2887,"ral":2888,"3.6":2889,"Media":2890,"CA":2891,"F1":2892,"KBS":2893,"Val":2894,"148":2895,"131":2896,"Lou":2897,"Smi":2898,"166":2899,"arch":2900,"2.7":2901,"1874":2902,"sso":2903,"EF":2904,"Mer":2905,"XX":2906,"bal":2907,"kg":2908,"now":2909,"1858":2910,"Fin":2911,"Kar":2912,"Tran":2913,"gon":2914,"ves":2915,"147":2916,"2.6":2917,"space":2918,"Black":2919,"Ter":2920,"ach":2921,"gan":2922,"Peter":2923,"Gar":2924,"deo":2925,"256":2926,"ãģĭ":2927,"GA":2928,"IE":2929,"M2":2930,"kÇĶn":2931,"1830":2932,"2.3":2933,"Rich":2934,"CBS":2935,"UT":2936,"1851":2937,"Lee":2938,"BN":2939,"UI":2940,"192":2941,"zer":2942,"Î¼":2943,"ada":2944,"8000":2945,"chÄĽ":2946,"3.0":2947,"Jack":2948,"Entertainment":2949,"310":2950,"4.8":2951,"Jap":2952,"Win":2953,"lÇĲn":2954,"bin":2955,"mini":2956,"143":2957,"set":2958,"City":2959,"Mk":2960,"gÃłng":2961,"1855":2962,"rie":2963,"ater":2964,"Intel":2965,"Power":2966,"EM":2967,"IX":2968,"Sam":2969,"hÇİ":2970,"Space":2971,"RAM":2972,"ð«":2973,"185":2974,"1859":2975,"zuÃ³":2976,"STAR":2977,"ship":2978,"Charles":2979,"bel":2980,"py":2981,"134":2982,"Dire":2983,"Ang":2984,"ABC":2985,"Fla":2986,"ene":2987,"1854":2988,"146":2989,"301":2990,"enti":2991,"1700":2992,"Viu":2993,"Java":2994,"370":2995,"if":2996,"1857":2997,"Free":2998,"GM":2999,"Py":3000,"Tai":3001,"whi":3002,"stro":3003,"vs":3004,"Ø§":3005,"10.":3006,"ann":3007,"290":3008,"ãģª":3009,"Life":3010,"ï¸°":3011,"Er":3012,"Pan":3013,"Ve":3014,"Î³":3015,"214":3016,"420":3017,"Dream":3018,"Ya":3019,"ÑĤ":3020,"1.9":3021,"Recor":3022,"Alpha":3023,"Company":3024,"stitu":3025,"ek":3026,"fang":3027,"face":3028,"Î¿":3029,"ãĢľ":3030,"mis":3031,"1856":3032,"1853":3033,"Project":3034,"Am":3035,"House":3036,"Pop":3037,"first":3038,"dium":3039,"ãģŁ":3040,"ety":3041,"Time":3042,"Thomas":3043,"Cal":3044,"Min":3045,"ae":3046,"ox":3047,"von":3048,"vis":3049,"144":3050,"Saint":3051,"FA":3052,"Ken":3053,"OVA":3054,"75%":3055,"Cent":3056,"Tru":3057,"VO":3058,"bÃ²":3059,"A2":3060,"IO":3061,"167":3062,"Street":3063,"3A":3064,"HS":3065,"SBS":3066,"shÇİ":3067,"bili":3068,"kuÇİ":3069,"1841":3070,"very":3071,"Alex":3072,"Bat":3073,"LP":3074,"Lau":3075,"Tor":3076,"din":3077,"ric":3078,"340":3079,"PM":3080,"Por":3081,"Shi":3082,"chuÇİn":3083,"mat":3084,"mation":3085,"BLACKP":3086,"7.6":3087,"92.":3088,"Met":3089,"ple":3090,"zÄģ":3091,"208":3092,"1815":3093,"178":3094,"CPU":3095,"BLACKPINK":3096,"223":3097,"33.":3098,"Bur":3099,"cis":3100,"mÃ¨n":3101,"Soci":3102,"Studio":3103,"Euro":3104,"850":3105,"LGB":3106,"Sing":3107,"pla":3108,"cher":3109,"zuÅį":3110,"ses":3111,"Rock":3112,"www":3113,"IBM":3114,"spe":3115,"SF":3116,"207":3117,"die":3118,"play":3119,"sg":3120,"nie":3121,"171":3122,"235":3123,"tation":3124,"ãģ¨":3125,"ãģ¾":3126,"Dig":3127,"Fer":3128,"LIVE":3129,"Mr":3130,"PE":3131,"SU":3132,"VE":3133,"Yu":3134,"nÃ¬ng":3135,"203":3136,"B2":3137,"Whi":3138,"not":3139,"Art":3140,"SQL":3141,"Pad":3142,"1846":3143,"164":3144,"ford":3145,"oot":3146,"College":3147,"bre":3148,"cra":3149,"157":3150,"vice":3151,"berg":3152,"publi":3153,"BR":3154,"LT":3155,"NE":3156,"lit":3157,"141":3158,"ICE":3159,"4.7":3160,"4.6":3161,"8.5":3162,"B1":3163,"Cro":3164,"Cap":3165,"Sun":3166,"ond":3167,"176":3168,"thy":3169,"ING":3170,"board":3171,"Inc":3172,"Tele":3173,"American":3174,"Asso":3175,"LS":3176,"hÄģn":3177,"you":3178,"Â²":3179,"1812":3180,"1845":3181,"1844":3182,"sign":3183,"3.2":3184,"Road":3185,"Girls":3186,"self":3187,"Ze":3188,"sch":3189,"mit":3190,"231":3191,"Offi":3192,"cture":3193,"class":3194,"HF":3195,"Ltd":3196,"M3":3197,"Mil":3198,"Ros":3199,"ãĤĬ":3200,"witch":3201,"LGBT":3202,"Ag":3203,"ball":3204,"209":3205,"cess":3206,"ãģį":3207,"off":3208,"2.1":3209,"2.9":3210,"NASA":3211,"GNU":3212,"LA":3213,"wÄģi":3214,"ded":3215,"Jose":3216,"Smith":3217,"Cla":3218,"Ger":3219,"PA":3220,"Pra":3221,"ampi":3222,"IUCN":3223,"216":3224,"PN":3225,"Îº":3226,"1849":3227,"153":3228,"temp":3229,"ved":3230,"Good":3231,"CT":3232,"Fil":3233,"NBC":3234,"Tour":3235,"wh":3236,"zhÇĴu":3237,"sha":3238,"204":3239,"238":3240,"aurus":3241,"Production":3242,"BB":3243,"Cra":3244,"Gal":3245,"Hall":3246,"Sci":3247,"nal":3248,"oi":3249,"yn":3250,"vision":3251,"Video":3252,"Gala":3253,"GT":3254,"O2":3255,"lÄĵ":3256,"pm":3257,"ue":3258,"Ïĥ":3259,"mited":3260,"orts":3261,"ino":3262,"tions":3263,"Eli":3264,"PR":3265,"Sky":3266,"tal":3267,"206":3268,"lea":3269,"qui":3270,"mac":3271,"460":3272,"5.0":3273,"ab":3274,"mal":3275,"win":3276,"1814":3277,"org":3278,"218":3279,"ani":3280,"fra":3281,"eries":3282,"Richard":3283,"SI":3284,"lti":3285,"war":3286,"chÇĶn":3287,"rich":3288,"ange":3289,"IGN":3290,"5.8":3291,"Act":3292,"LD":3293,"âĸ":3294,"pic":3295,"Boy":3296,"Far":3297,"Tur":3298,"WS":3299,"ÏĢ":3300,"def":3301,"1847":3302,"154":3303,"3.4":3304,"turn":3305,"580":3306,"6.0":3307,"Ama":3308,"FF":3309,"bun":3310,"ep":3311,"fri":3312,"led":3313,"1843":3314,"mann":3315,"Best":3316,"phy":3317,"System":3318,"ptr":3319,"430":3320,"Mas":3321,"MBC":3322,"Plan":3323,"zz":3324,"177":3325,"401":3326,"chem":3327,"410":3328,"Bel":3329,"Sal":3330,"ãĤ·":3331,"NFL":3332,"ViuTV":3333,"Switch":3334,"Wo":3335,"king":3336,"163":3337,"0.2":3338,"AMD":3339,"API":3340,"West":3341,"Japan":3342,"ICO":3343,"bar":3344,"bus":3345,"up":3346,"ments":3347,"1852":3348,"162":3349,"thon":3350,"esti":3351,"Christ":3352,"cript":3353,"VII":3354,"1820":3355,"11.":3356,"orn":3357,"get":3358,"this":3359,"ãģı":3360,"Max":3361,"Fre":3362,"Prin":3363,"cil":3364,"142":3365,"234":3366,"ria":3367,"Roy":3368,"5.7":3369,"VR":3370,"172":3371,"ãģĬ":3372,"ãģķ":3373,"Records":3374,"640":3375,"Dan":3376,"Squ":3377,"Vir":3378,"wood":3379,"169":3380,"3500":3381,"Limited":3382,"Core":3383,"KC":3384,"T1":3385,"gs":3386,"phi":3387,"Â±":3388,"1839":3389,"ars":3390,"232":3391,"3.7":3392,"data":3393,"480":3394,"CM":3395,"cÄ«":3396,"179":3397,"thi":3398,"cade":3399,"ful":3400,"2030":3401,"eni":3402,"149":3403,"0.1":3404,"max":3405,"365":3406,"3.3":3407,"Institu":3408,"How":3409,"var":3410,"1821":3411,"ãĥŃ":3412,"ãģ¿":3413,"Cha":3414,"aya":3415,"Unicode":3416,"ROM":3417,"CCTV":3418,"390":3419,"BU":3420,"Res":3421,"Vol":3422,"XP":3423,"ness":3424,"tv":3425,"306":3426,"alo":3427,"222":3428,"601":3429,"0.4":3430,"unch":3431,"5.9":3432,"Fan":3433,"tube":3434,"173":3435,"itch":3436,"Bob":3437,"EA":3438,"PF":3439,"12.":3440,"247":3441,"ital":3442,"Camp":3443,"KK":3444,"lian":3445,"ping":3446,"1790":3447,"ders":3448,"211":3449,"560":3450,"Fun":3451,"OH":3452,"SN":3453,"kh":3454,"wid":3455,"ord":3456,"ãĥ¬":3457,"ciation":3458,"BF":3459,"Es":3460,"Top":3461,"VM":3462,"tran":3463,"3.8":3464,"Force":3465,"Hot":3466,"MU":3467,"PD":3468,"PH":3469,"Sir":3470,"shuÇİ":3471,"183":3472,"1795":3473,"303":3474,"rew":3475,"âĹĭ":3476,"use":3477,"lum":3478,"233":3479,"search":3480,"ãģ¡":3481,"1801":3482,"213":3483,"Tok":3484,"wÃ¨ng":3485,"ãĥŀ":3486,".0%":3487,"USB":3488,"dra":3489,"sub":3490,"174":3491,"run":3492,"3.1":3493,"Mag":3494,"MVP":3495,"CK":3496,"lli":3497,"zon":3498,"Ïģ":3499,"áĢ":3500,"ìĿ":3501,"186":3502,"1838":3503,"ors":3504,"Store":3505,"key":3506,"Heart":3507,"Direct":3508,"520":3509,"Bank":3510,"DDR":3511,"Glo":3512,"Zi":3513,"zy":3514,"mily":3515,"cker":3516,"Jean":3517,"610":3518,"Fle":3519,"iPad":3520,"rÇĴng":3521,"bile":3522,"161":3523,"501":3524,"ãĥī":3525,"Home":3526,"http":3527,"224":3528,"CF":3529,"Pen":3530,"ele":3531,"mg":3532,"sur":3533,"tia":3534,"1813":3535,"ãĤī":3536,"Phil":3537,"GE":3538,"Lon":3539,"kin":3540,"tz":3541,"ÏĦ":3542,"ense":3543,"182":3544,"1832":3545,"1842":3546,"lation":3547,"255":3548,"its":3549,"Society":3550,"AE":3551,"Gold":3552,"Han":3553,"Sco":3554,"fter":3555,"iPhone":3556,"184":3557,"0.6":3558,"ãĤ«":3559,"los":3560,"Mini":3561,"Data":3562,"720":3563,"KI":3564,"Script":3565,"dd":3566,"ise":3567,"âĺ":3568,"1836":3569,"late":3570,"1793":3571,"ãĤª":3572,"Comic":3573,"ving":3574,"Muse":3575,"KiHa":3576,"buntu":3577,"221":3578,"Cri":3579,"Dr":3580,"HBO":3581,"MT":3582,"Mel":3583,"Tun":3584,"gre":3585,"hÇĴu":3586,"tian":3587,"1833":3588,"nity":3589,"1789":3590,"tics":3591,"River":3592,"ount":3593,"https":3594,"Association":3595,"Galaxy":3596,"Bay":3597,"DAM":3598,"M4":3599,"QQ":3600,"cl":3601,"fin":3602,"nga":3603,"ties":3604,"1835":3605,"151":3606,"tho":3607,"ãĤ¿":3608,"ady":3609,"219":3610,"217":3611,"338":3612,"5.6":3613,"6.7":3614,"Cry":3615,"FT":3616,"JYP":3617,"Rap":3618,"SR":3619,"Ubuntu":3620,"WA":3621,"fy":3622,"lon":3623,"ðĲ":3624,"shang":3625,"âĢ°":3626,"tha":3627,"Martin":3628,"1804":3629,"ONE":3630,"CEO":3631,"width":3632,"470":3633,"740":3634,"830":3635,"nt":3636,"light":3637,"form":3638,"Tom":3639,"Henry":3640,"League":3641,"YG":3642,"dro":3643,"well":3644,"ÏĤ":3645,"Ð´":3646,"âī":3647,"Champi":3648,"Master":3649,".81":3650,"Gener":3651,"Ear":3652,"Fra":3653,"LINE":3654,"Phi":3655,"Vil":3656,"gÃł":3657,"uni":3658,"Î½":3659,"chel":3660,"mus":3661,"amer":3662,"top":3663,"ART":3664,"Green":3665,"ville":3666,"212":3667,"DK":3668,"cti":3669,"has":3670,"nm":3671,"Ñĥ":3672,"less":3673,"1828":3674,"0.7":3675,"ãĤ³":3676,"oper":3677,"APAN":3678,"rown":3679,"0%":3680,"Dy":3681,"Dou":3682,"FR":3683,"Mana":3684,"Night":3685,"Pin":3686,"ag":3687,"har":3688,"oni":3689,"191":3690,"dit":3691,"302":3692,"table":3693,"0.8":3694,"95%":3695,"Billboard":3696,"Office":3697,"680":3698,"Br":3699,"Bal":3700,"Jan":3701,"MHz":3702,"PI":3703,"SNH":3704,"ban":3705,"bro":3706,"kar":3707,"Î¹":3708,"181":3709,"1624":3710,"sts":3711,"237":3712,"side":3713,"main":3714,"ãĤĭ":3715,"China":3716,"Code":3717,"Young":3718,"cond":3719,"Note":3720,"Joseph":3721,"SNH48":3722,"4.9":3723,"Bir":3724,"Des":3725,"FDA":3726,"JAPAN":3727,"Ob":3728,"PK":3729,"à¹":3730,"á¹":3731,"1644":3732,"308":3733,"ston":3734,"0.9":3735,"Stra":3736,"COM":3737,"tical":3738,"Pala":3739,"440":3740,"DB":3741,"GR":3742,"Van":3743,"hun":3744,"tuÃŃ":3745,"10000":3746,"1837":3747,"239":3748,"than":3749,"rick":3750,"1806":3751,"Long":3752,"Song":3753,"United":3754,"Part":3755,"macOS":3756,"CV":3757,"East":3758,"MW":3759,"U21":3760,"Ã¢":3761,"Ã®":3762,"Î´":3763,"à¥":3764,"âĳ":3765,"1819":3766,"299":3767,"3.9":3768,"346":3769,"HTML":3770,"annel":3771,"780":3772,"Hill":3773,"Tw":3774,"Ten":3775,"Talk":3776,"jo":3777,"port":3778,"1825":3779,"245":3780,"236":3781,"505":3782,"279":3783,"ãģ«":3784,"Radio":3785,"Digital":3786,"540":3787,"7.8":3788,"Down":3789,"EV":3790,"H5":3791,"Ji":3792,"rpm":3793,"wn":3794,"lic":3795,"chÃ²ng":3796,"13.":3797,"sian":3798,"ella":3799,"News":3800,"325":3801,"7.9":3802,"Cat":3803,"Pas":3804,"001":3805,"1776":3806,"right":3807,"ãģĺ":3808,"long":3809,"but":3810,"dent":3811,"NCAA":3812,"Server":3813,"FAT":3814,"Sil":3815,"1818":3816,"14.":3817,"265":3818,"ãģĵ":3819,"ned":3820,"Que":3821,"Hello":3822,"Ban":3823,"Bru":3824,"Dri":3825,"Nu":3826,"Ven":3827,"Wat":3828,"1824":3829,"1831":3830,"2027":3831,"Cho":3832,"Hist":3833,"Kong":3834,"Em":3835,"GS":3836,"RPG":3837,"pr":3838,"Ã§":3839,"Ã´":3840,"tum":3841,"med":3842,"386":3843,"Child":3844,"Service":3845,"âħ¡":3846,"51.":3847,"UM":3848,"bet":3849,"hur":3850,"sual":3851,"rome":3852,"via":3853,"BSD":3854,"Frank":3855,"Island":3856,"Python":3857,"public":3858,"Science":3859,"1A":3860,"Blue":3861,"CW":3862,"Fore":3863,"XML":3864,"clo":3865,"Î»":3866,"275":3867,"2700":3868,"anda":3869,"Youtube":3870,"Jump":3871,"Edward":3872,"Under":3873,"White":3874,"312":3875,"5G":3876,"730":3877,"Bor":3878,"First":3879,"Grand":3880,"HL":3881,"OM":3882,"Poly":3883,"TBS":3884,"hÄģo":3885,"nes":3886,"rey":3887,"264":3888,"295":3889,"1802":3890,"BLUE":3891,"Institute":3892,"Champion":3893,"32.":3894,"630":3895,"Hor":3896,"Out":3897,"Sum":3898,"TM":3899,"ben":3900,"fun":3901,"sus":3902,"1822":3903,"niÄĵ":3904,"288":3905,"ration":3906,"ãĤ¸":3907,"aka":3908,"Envi":3909,"4.2":3910,"6.8":3911,"Cas":3912,"Lan":3913,"Les":3914,"Os":3915,"other":3916,"plo":3917,"pop":3918,"ÙĦ":3919,"list":3920,"lang":3921,"ared":3922,"244":3923,"ãĥķ":3924,"vate":3925,"ITF":3926,"2D":3927,"6.9":3928,"Gro":3929,"JT":3930,"Sof":3931,"cent":3932,"em":3933,"xel":3934,"launch":3935,"249":3936,"35%":3937,"903":3938,"North":3939,"Square":3940,"6.6":3941,"OT":3942,"PID":3943,"Series":3944,"ul":3945,"zation":3946,"Å¡":3947,"243":3948,"2800":3949,"Your":3950,"Hong":3951,"This":3952,"Cup":3953,"91.":3954,"FX":3955,"Lang":3956,"NP":3957,"__":3958,"hr":3959,"1810":3960,"15.":3961,"1622":3962,"1792":3963,"307":3964,"return":3965,"tas":3966,"701":3967,"SARS":3968,"POP":3969,"Techn":3970,"5.1":3971,"960":3972,"Cur":3973,"Ham":3974,"Ray":3975,"Sig":3976,"SHO":3977,"VV":3978,"ob":3979,"pÇİi":3980,"vy":3981,"Îµ":3982,"1650":3983,"801":3984,"view":3985,"Network":3986,"MIUI":3987,"burg":3988,"Tunes":3989,"2100":3990,"Pal":3991,"Ur":3992,"part":3993,"Ð¼":3994,"1826":3995,"anti":3996,"1573":3997,"oud":3998,"ason":3999,"cing":4000,"have":4001,"747":4002,"Cle":4003,"Jour":4004,"imp":4005,"tual":4006,"1834":4007,"304":4008,"ould":4009,"226":4010,"278":4011,"lta":4012,"ãĥŁ":4013,"ãĤĤ":4014,"375":4015,"add":4016,"1805":4017,"ACT":4018,"APP":4019,"AIR":4020,"ologi":4021,"Block":4022,"HA":4023,"Ly":4024,"Yo":4025,"hel":4026,"ii":4027,"rd":4028,"chen":4029,"007":4030,"oro":4031,"296":4032,"298":4033,"sig":4034,"385":4035,"ATA":4036,"Model":4037,"gain":4038,"Dani":4039,"Studi":4040,"335":4041,"590":4042,"9000":4043,"CU":4044,"Now":4045,"Ry":4046,"Ram":4047,"WN":4048,"ml":4049,"non":4050,"oc":4051,"Ïī":4052,"âĭ":4053,"12%":4054,"ork":4055,"1780":4056,"13%":4057,"ress":4058,"227":4059,"ãĥł":4060,"olf":4061,"map":4062,"May":4063,"Real":4064,"Sports":4065,"dings":4066,"IFA":4067,"315":4068,"63.":4069,"Gil":4070,"Jon":4071,"Op":4072,"Sc":4073,"had":4074,"iTunes":4075,"ken":4076,"Â»":4077,"251":4078,"ough":4079,"277":4080,"ato":4081,"oney":4082,"CNN":4083,"2A":4084,"Dar":4085,"Gran":4086,"Over":4087,"Ren":4088,"Rus":4089,"RFC":4090,"pH":4091,"zine":4092,"18.":4093,"1582":4094,"1799":4095,"259":4096,"246":4097,"248":4098,"1809":4099,"Internet":4100,"South":4101,"Engine":4102,"4G":4103,"530":4104,"C2":4105,"DLC":4106,"Sm":4107,"gÃ¨n":4108,"sÇİng":4109,"sin":4110,"Â«":4111,"lio":4112,"1823":4113,"ander":4114,"1621":4115,"272":4116,"rum":4117,"405":4118,"ATION":4119,"tware":4120,"1803":4121,"dae":4122,"State":4123,"stems":4124,"EEE":4125,"press":4126,"334":4127,"620":4128,"770":4129,"Class":4130,"SG":4131,"dition":4132,"lution":4133,"1625":4134,"ges":4135,"284":4136,"285":4137,"ãĤµ":4138,"Auto":4139,"Publi":4140,"311":4141,"880":4142,"Dot":4143,"Kh":4144,"Sony":4145,"VI":4146,"Ãī":4147,"á»":4148,"258":4149,"276":4150,"cur":4151,"ãģĮ":4152,"Alf":4153,"Mobile":4154,"Bus":4155,"KO":4156,"Oper":4157,"Sw":4158,"Way":4159,"XT":4160,"pres":4161,"à¦":4162,"253":4163,"aly":4164,"357":4165,"num":4166,"Maria":4167,"Moon":4168,"Wii":4169,"Pier":4170,"660":4171,"Cli":4172,"Get":4173,"NM":4174,"SV":4175,"UL":4176,"sm":4177,"Ð¹":4178,"dian":4179,"ãĥĹ":4180,"cks":4181,"STA":4182,"IPv":4183,"Unix":4184,"What":4185,"Europe":4186,"570":4187,"Cer":4188,"U19":4189,"WF":4190,"ee":4191,"mor":4192,"Ð³":4193,"tuÄģn":4194,"1827":4195,"1570":4196,"ãģĤ":4197,"gazine":4198,"Beau":4199,"0.01":4200,"Link":4201,"velop":4202,"Book":4203,"Trans":4204,"314":4205,"3DS":4206,"690":4207,"Bre":4208,"BBS":4209,"C6":4210,"DSM":4211,"IEEE":4212,"Men":4213,"SB":4214,"Sound":4215,"WWE":4216,"more":4217,"1817":4218,"1640":4219,"1636":4220,"268":4221,"402":4222,"404":4223,"ãģ¯":4224,"Regi":4225,"Rain":4226,"which":4227,"7.7":4228,"AX":4229,"Gri":4230,"blo":4231,"ini":4232,"nor":4233,"nger":4234,"laris":4235,"1775":4236,"254":4237,"ters":4238,"465":4239,"Medi":4240,"85%":4241,"Die":4242,"Tik":4243,"Francis":4244,"Commu":4245,"323":4246,"7.0":4247,"Ath":4248,"Cir":4249,"HP":4250,"OP":4251,"kÄģo":4252,"1750":4253,"309":4254,"oom":4255,"ople":4256,"Joy":4257,"fic":4258,"329":4259,"670":4260,"6.1":4261,"8.1":4262,"Dol":4263,"End":4264,"Plus":4265,"bon":4266,"pur":4267,"shing":4268,"guÄģi":4269,"1816":4270,"pin":4271,"lai":4272,"17.":4273,"fore":4274,"ãĥģ":4275,"ãĤ£":4276,"4500":4277,"Channel":4278,"cast":4279,"ings":4280,"CON":4281,"peri":4282,"TOP":4283,"Cube":4284,"Louis":4285,".-":4286,"710":4287,"910":4288,"950":4289,"DI":4290,"Imp":4291,"Lit":4292,"MK":4293,"Tro":4294,"ome":4295,"dea":4296,"pital":4297,"16%":4298,"lam":4299,"arr":4300,"241":4301,"2300":4302,"Research":4303,"ISBN":4304,"field":4305,"Poli":4306,"Film":4307,"tvN":4308,"326":4309,"Asia":4310,"Bou":4311,"Cam":4312,"Clo":4313,"PT":4314,"T2":4315,"ice":4316,"rch":4317,"try":4318,"à½":4319,"1592":4320,"45%":4321,"347":4322,"758":4323,"Stand":4324,"model":4325,"61.":4326,"Ara":4327,"Bon":4328,"DT":4329,"Lis":4330,"10.5":4331,"12.5":4332,"1628":4333,"1788":4334,"252":4335,"242":4336,"269":4337,"ãĥĭ":4338,"andy":4339,"Leon":4340,"Victor":4341,"Law":4342,"ffer":4343,"fea":4344,"tural":4345,"318":4346,"336":4347,"53.":4348,"9.5":4349,"978":4350,"Ado":4351,"CB":4352,"DL":4353,"Den":4354,"Festi":4355,"Jen":4356,"Mal":4357,"MUS":4358,"N2":4359,"O3":4360,"Tan":4361,"Tre":4362,"áĥ":4363,"char":4364,"biÄĵ":4365,"1627":4366,"1783":4367,"1791":4368,"alth":4369,"289":4370,"ros":4371,"406":4372,"ced":4373,"354":4374,"INN":4375,"Comm":4376,"Stan":4377,"app":4378,"Vista":4379,"gic":4380,"Pixel":4381,"Disney":4382,"âĸ¡":4383,"73.":4384,"90.":4385,"Acade":4386,"Cour":4387,"EL":4388,"F4":4389,"IB":4390,"LAN":4391,"LTE":4392,"OF":4393,"ich":4394,"pÄģ":4395,"tre":4396,"16.":4397,"1797":4398,"ï¼»":4399,"ï¼½":4400,"65%":4401,"Mach":4402,"556":4403,"Beat":4404,"aker":4405,"Software":4406,"Ange":4407,"DMS":4408,"TH":4409,"his":4410,"nÇİn":4411,"1779":4412,"1796":4413,"test":4414,"607":4415,"ãģ¤":4416,"ãģł":4417,"352":4418,"Mary":4419,"1808":4420,"ERT":4421,"km2":4422,"Nico":4423,"NCT":4424,"Alice":4425,"âĭ¯":4426,"321":4427,"337":4428,"4.3":4429,"A4":4430,"Ami":4431,"Sor":4432,"T3":4433,"cs":4434,"gis":4435,"ung":4436,"huÃłng":4437,"tude":4438,"1829":4439,"1778":4440,"1794":4441,"283":4442,"273":4443,"ãĥ£":4444,"ãĥĲ":4445,"ãĤ¨":4446,"cky":4447,"Visual":4448,"inese":4449,"YouTuber":4450,"ASC":4451,"Works":4452,"Elect":4453,"Battle":4454,"313":4455,"510":4456,"840":4457,"860":4458,"Foot":4459,"Mnet":4460,"Pho":4461,"llo":4462,"pat":4463,"vet":4464,"vance":4465,"Ã±":4466,"Î¸":4467,"shuÇİi":4468,"nica":4469,"night":4470,"1798":4471,"formation":4472,"22%":4473,"ãģ¦":4474,"456":4475,"372":4476,"Johan":4477,"ECT":4478,"system":4479,"Special":4480,"Awards":4481,".00":4482,"448":4483,"870":4484,"Blu":4485,"MF":4486,"Pay":4487,"io":4488,"ror":4489,"sca":4490,"18%":4491,"1580":4492,"1612":4493,"1634":4494,"1787":4495,"281":4496,"267":4497,"ãĥĩ":4498,"mad":4499,"ãģ£":4500,"ãĤ¦":4501,"nus":4502,"lost":4503,"mmy":4504,"web":4505,"Premi":4506,"Royal":4507,"Global":4508,"62.":4509,"911":4510,"DG":4511,"Fro":4512,"Mis":4513,"Oli":4514,"Set":4515,"TN":4516,"WO":4517,"dor":4518,"ev":4519,"fla":4520,"âĩ":4521,"shÇİi":4522,"hus":4523,"mina":4524,"1567":4525,"1648":4526,"alle":4527,"271":4528,"tech":4529,"ltra":4530,"Arts":4531,"ffe":4532,"BOX":4533,"Enviro":4534,"42.":4535,"52.":4536,"72.":4537,"AH":4538,"E3":4539,"Lam":4540,"MM":4541,"Mur":4542,"York":4543,"sor":4544,"19.":4545,"chuÅį":4546,"262":4547,"tai":4548,"367":4549,"vest":4550,"pedia":4551,"OSHI":4552,"Prof":4553,"const":4554,"ACE":4555,"ENT":4556,"AGA":4557,"Great":4558,"TikTok":4559,"-&":4560,"322":4561,"43.":4562,"Ah":4563,"MON":4564,"Not":4565,"OTT":4566,"Spo":4567,"VB":4568,"bian":4569,"1550":4570,"1568":4571,"ont":4572,"1615":4573,"1630":4574,"14%":4575,"286":4576,"ãĥĸ":4577,"Magazine":4578,"vern":4579,"CH3":4580,"Compu":4581,"Museum":4582,"Daniel":4583,"Festival":4584,"Brown":4585,"Cru":4586,"CAS":4587,"Dark":4588,"FBI":4589,"LG":4590,"Sau":4591,"SIG":4592,"USA":4593,"stu":4594,"12.7":4595,"piÄĵ":4596,"1645":4597,"1646":4598,"28%":4599,"read":4600,"zhÃ¡o":4601,"ãĤŃ":4602,"333":4603,".95":4604,"COLL":4605,"ARD":4606,"Secre":4607,"stein":4608,"Encore":4609,"tures":4610,"world":4611,"Online":4612,"Cloud":4613,"MUSIC":4614,"9.8":4615,"9.7":4616,"Hun":4617,"Lar":4618,"Let":4619,"cas":4620,"over":4621,"tan":4622,"Ø±":4623,"1626":4624,"stal":4625,"261":4626,"297":4627,"355":4628,"Chinese":4629,"49%":4630,"stea":4631,"Kim":4632,"328":4633,"820":4634,"Gor":4635,"Has":4636,"PRO":4637,"S2":4638,"Tou":4639,"gal":4640,"oli":4641,"sÇĴu":4642,"sco":4643,"ques":4644,"1637":4645,"2400":4646,"705":4647,"901":4648,"364":4649,"384":4650,"378":4651,"vey":4652,"33%":4653,"442":4654,"hai":4655,"cono":4656,"Point":4657,"VIDIA":4658,"General":4659,"618":4660,"70.":4661,"71.":4662,"AU":4663,"CBC":4664,"HB":4665,"NVIDIA":4666,"T48":4667,"ale":4668,"tr":4669,"Ð¡":4670,"Ñĭ":4671,"1610":4672,"1642":4673,"257":4674,"282":4675,"thing":4676,"2600":4677,"Mad":4678,"Stadium":4679,"1609":4680,"ality":4681,"stern":4682,"Exp":4683,"God":4684,"Redmi":4685,"Year":4686,"Adobe":4687,"5.4":4688,"760":4689,"767":4690,"CAN":4691,"Gol":4692,"Il":4693,"O4":4694,"Ome":4695,"U17":4696,"VC":4697,"bas":4698,"bps":4699,"jor":4700,"sk":4701,"sche":4702,"ÑĮ":4703,"deon":4704,"nior":4705,"1585":4706,"1583":4707,"13.5":4708,"hÃ¨ng":4709,"ãĤĦ":4710,"583":4711,"ctory":4712,"1807":4713,"ARM":4714,"TeX":4715,"wiki":4716,"thern":4717,"Systems":4718,"poration":4719,"930":4720,"Del":4721,"FIFA":4722,"JU":4723,"KE":4724,"OD":4725,"Town":4726,"Thun":4727,"Who":4728,"cto":4729,"dou":4730,"11%":4731,"1623":4732,"gel":4733,"274":4734,"size":4735,".04":4736,"Anto":4737,"Wiki":4738,"ï¹ĳ":4739,"H2O":4740,"trol":4741,"Taiwan":4742,"EOS":4743,"FIN":4744,"Ima":4745,"IEC":4746,"Kin":4747,"Kid":4748,"Tar":4749,"Won":4750,"ah":4751,"cat":4752,"esta":4753,"ket":4754,"tina":4755,"11.5":4756,"1571":4757,"17%":4758,"1784":4759,"263":4760,"509":4761,"293":4762,"351":4763,"osaurus":4764,"999":4765,"Deep":4766,"mod":4767,"value":4768,"Archi":4769,"Cast":4770,".10":4771,"2200":4772,"428":4773,"5.2":4774,"AJ":4775,"GUN":4776,"Tay":4777,"xx":4778,"1620":4779,"1723":4780,"1786":4781,"inte":4782,"stre":4783,"504":4784,"lton":4785,"ãĥ¥":4786,"353":4787,"395":4788,"beth":4789,"43%":4790,"Solaris":4791,"Post":4792,"private":4793,"Metro":4794,"clol":4795,"Manage":4796,"DotA":4797,"419":4798,"432":4799,"A3":4800,"FN":4801,"Fly":4802,"GL":4803,"Hap":4804,"Ron":4805,"bb":4806,"cci":4807,"card":4808,"ctive":4809,"pra":4810,"ìķ":4811,"1450":4812,"curi":4813,"ãģĻ":4814,"Chan":4815,"vers":4816,"Mike":4817,"ource":4818,"Key":4819,"LOVE":4820,"Market":4821,"Studios":4822,"Little":4823,"427":4824,"4.1":4825,"Band":4826,"Cine":4827,"FE":4828,"HIV":4829,"K6":4830,"Line":4831,"Rou":4832,"VPN":4833,"zÃ¨":4834,"Äį":4835,"like":4836,"zilla":4837,"1577":4838,"1618":4839,"1643":4840,"rop":4841,"sey":4842,"387":4843,"399":4844,".82":4845,".83":4846,"cts":4847,"ellow":4848,"ountain":4849,"Fleet":4850,"Technology":4851,"317":4852,"331":4853,"345":4854,"512":4855,"565":4856,"H1":4857,"MY":4858,"R2":4859,"S1":4860,"U18":4861,"USS":4862,"Ultra":4863,"bes":4864,"gg":4865,"lÅ«":4866,"Ñı":4867,"1586":4868,"lau":4869,"1777":4870,"1453":4871,"into":4872,"21%":4873,"sty":4874,"stan":4875,"sit":4876,"806":4877,"base":4878,"CDMA":4879,"Stage":4880,"Radeon":4881,"aki":4882,"Union":4883,"ALL":4884,"Valve":4885,"Children":4886,"Secret":4887,"327":4888,"411":4889,"490":4890,"445":4891,"446":4892,"535":4893,"Alt":4894,"Aven":4895,"FI":4896,"Found":4897,"Land":4898,"Mid":4899,"M87":4900,"U23":4901,"Will":4902,"WOR":4903,"ola":4904,"rstea":4905,"yer":4906,"Ãª":4907,"cht":4908,"endo":4909,"1521":4910,"1765":4911,"1774":4912,"sible":4913,"cel":4914,"second":4915,"398":4916,"47%":4917,"499":4918,"ook":4919,"Para":4920,"With":4921,"Junior":4922,"Adam":4923,"BMW":4924,"mond":4925,"Fried":4926,"Centre":4927,"where":4928,"Philip":4929,"Academy":4930,"416":4931,"Crea":4932,"EMI":4933,"HTC":4934,"KB":4935,"Sche":4936,"Soft":4937,"TW":4938,"bat":4939,"rent":4940,"mia":4941,"1616":4942,"26%":4943,"cul":4944,"707":4945,"ily":4946,"teri":4947,"369":4948,"397":4949,"Mau":4950,"verse":4951,"Joe":4952,"States":4953,"Multi":4954,"Wire":4955,"Niko":4956,"GPU":4957,"bility":4958,"Omega":4959,"613":4960,"6.4":4961,"Ari":4962,"Cou":4963,"NR":4964,"Port":4965,"WI":4966,"ZA":4967,"hau":4968,"house":4969,"pes":4970,"Î·":4971,"ÎĶ":4972,"ÐĲ":4973,"live":4974,"1564":4975,"1785":4976,"22.":4977,"368":4978,"lot":4979,".08":4980,"67%":4981,"TVBS":4982,"Mem":4983,"Next":4984,"Hea":4985,"some":4986,"Fire":4987,"MySQL":4988,"void":4989,"Origin":4990,"Amazon":4991,"3C":4992,"810":4993,"BT":4994,"Hon":4995,"Jr":4996,"Run":4997,"Sti":4998,"hl":4999,"m3":5000,"ÐĶ":5001,"1662":5002,"266":5003,"291":5004,"sist":5005,"elle":5006,"head":5007,"588":5008,"osa":5009,"Distri":5010,"Sub":5011,"rough":5012,"Base":5013,"MOD":5014,"volution":5015,"chie":5016,"Corporation":5017,"M1A1":5018,"ference":5019,"mission":5020,"velopment":5021,"GUNDAM":5022,"316":5023,"537":5024,"621":5025,"742":5026,"CI":5027,"E48":5028,"Eric":5029,"Fo":5030,"Fal":5031,"Sin":5032,"TI":5033,"Wel":5034,"Ã«":5035,"ÙĨ":5036,"anna":5037,"1540":5038,"1574":5039,"1772":5040,"24.":5041,"std":5042,"287":5043,"tee":5044,"605":5045,"454":5046,"388":5047,"343":5048,".86":5049,"open":5050,"888":5051,"Sund":5052,"point":5053,"0.02":5054,"Draw":5055,"Church":5056,"Alexander":5057,"Cross":5058,"Management":5059,"425":5060,"475":5061,"9.9":5062,"9.6":5063,"Lady":5064,"ND":5065,"Other":5066,"SW":5067,"Sar":5068,"cted":5069,"kÃ¡ng":5070,"kan":5071,"vat":5072,"were":5073,"jia":5074,"19%":5075,"1250":5076,"nico":5077,"1619":5078,"1629":5079,"1683":5080,"27%":5081,"29%":5082,"292":5083,"363":5084,"376":5085,"STS":5086,"552":5087,"686":5088,"ign":5089,"Demo":5090,"Arc":5091,"Augu":5092,"Cyclol":5093,"London":5094,"Scott":5095,"627":5096,"Bad":5097,"BRT":5098,"Der":5099,"Dun":5100,"FL":5101,"Ir":5102,"Kir":5103,"MX":5104,"Ora":5105,"Sto":5106,"Sara":5107,"Tony":5108,"hard":5109,"tru":5110,"Ð±":5111,"tish":5112,"14.5":5113,"24%":5114,"ally":5115,"ï¼Ĥ":5116,"31%":5117,"matic":5118,"488":5119,".84":5120,".88":5121,"99%":5122,"ida":5123,"Design":5124,"phen":5125,"Spot":5126,"Spring":5127,"Andrew":5128,"ðĲŃ":5129,"449":5130,"5A":5131,"625":5132,"738":5133,"81.":5134,"83.":5135,"Fron":5136,"HER":5137,"Of":5138,"PB":5139,"Round":5140,"VER":5141,"ire":5142,"und":5143,"Ðļ":5144,"shared":5145,"1590":5146,"1579":5147,"1633":5148,"ãĥĬ":5149,"ãĤ°":5150,"32%":5151,"1507":5152,"Beta":5153,"Lake":5154,"Simon":5155,"CH2":5156,"Cul":5157,"Syn":5158,"Animax":5159,"Earth":5160,"412":5161,"8.7":5162,"Fort":5163,"LF":5164,"LM":5165,"Sol":5166,"Sca":5167,"SON":5168,"V8":5169,"coun":5170,"hÄģng":5171,"tto":5172,"Ð¿":5173,"íķ":5174,"mir":5175,"mix":5176,"1631":5177,"1680":5178,"1773":5179,"21.":5180,"294":5181,"407":5182,"mate":5183,"ãĤĮ":5184,"body":5185,"396":5186,"3300":5187,"42%":5188,"mple":5189,"Sea":5190,"1604":5191,"Ander":5192,"Party":5193,"Hami":5194,"Family":5195,"PGA":5196,"Angel":5197,"Drive":5198,"Journal":5199,"41.":5200,"7.1":5201,"82.":5202,"8.6":5203,"980":5204,"Ap":5205,"Are":5206,"C4":5207,"Fold":5208,"GC":5209,"LR":5210,"Pol":5211,"cen":5212,"nan":5213,"Äĩ":5214,"ÉĻ":5215,"nical":5216,"1575":5217,"1697":5218,"1755":5219,"1492":5220,"sive":5221,"cum":5222,"805":5223,"3600":5224,"asa":5225,"467":5226,"471":5227,"Def":5228,"Neo":5229,"mics":5230,"ï¹Ĳ":5231,"SKE48":5232,"Dyna":5233,"Summer":5234,"Thunder":5235,"0x":5236,"319":5237,"Epic":5238,"Hal":5239,"J2":5240,"Kel":5241,"Nar":5242,"Swe":5243,"XC":5244,"fb":5245,"hoo":5246,"pan":5247,"zen":5248,"chy":5249,"lion":5250,"orig":5251,"1561":5252,"1589":5253,"1595":5254,"1781":5255,"1465":5256,"alan":5257,"508":5258,"ãĥĨ":5259,"ãģ²":5260,"344":5261,".85":5262,"44%":5263,".99":5264,"589":5265,"oph":5266,"1603":5267,"1606":5268,"1607":5269,"CNBLUE":5270,"Ruby":5271,"Council":5272,"Christian":5273,"print":5274,"415":5275,"855":5276,"940":5277,"970":5278,"Cre":5279,"Clar":5280,"Kat":5281,"Med":5282,"Miss":5283,"kes":5284,"pos":5285,"uage":5286,"x86":5287,"Ã¸":5288,"Ãħ":5289,"ÃŁ":5290,"à®":5291,"lina":5292,"nio":5293,"1522":5294,"1526":5295,"1556":5296,"1613":5297,"1660":5298,"502":5299,"506":5300,"ãĥĢ":5301,"tera":5302,"377":5303,"tos":5304,"478":5305,"554":5306,".07":5307,"ample":5308,"Mari":5309,"Alli":5310,"sport":5311,"mercial":5312,"TOUR":5313,"Williams":5314,"cations":5315,"Hyper":5316,"ìĿ´":5317,"âĺĨ":5318,"Angela":5319,"Football":5320,"417":5321,"525":5322,"7.4":5323,"920":5324,"925":5325,"After":5326,"Hit":5327,"LU":5328,"UK":5329,"URI":5330,"ite":5331,"lle":5332,"ud":5333,"Ùħ":5334,"sure":5335,"1525":5336,"1591":5337,"1667":5338,"indu":5339,"chÃ¨ng":5340,"ronic":5341,".55":5342,"408":5343,"485":5344,"46%":5345,"64%":5346,"643":5347,"ado":5348,"baby":5349,"ophi":5350,"AMO":5351,"Back":5352,"Fiesta":5353,"Steve":5354,"Qua":5355,"Rue":5356,"put":5357,"Advance":5358,"DOHC":5359,"America":5360,"324":5361,"422":5362,"515":5363,"538":5364,"534":5365,"Kit":5366,"Pap":5367,"QS":5368,"S4":5369,"VT":5370,"Vel":5371,"Water":5372,"hen":5373,"mRNA":5374,"who":5375,"zzo":5376,"âĤ":5377,"lish":5378,"tine":5379,"1510":5380,"1638":5381,"1730":5382,"media":5383,"ãĥĳ":5384,"ette":5385,"342":5386,"393":5387,"479":5388,".02":5389,".06":5390,"mph":5391,"Story":5392,"1508":5393,"Vita":5394,"Mozilla":5395,"Last":5396,"HKT48":5397,"lassic":5398,"Bern":5399,"Walter":5400,"Soul":5401,"Surface":5402,"7.62":5403,"Foundation":5404,".25":5405,"3200":5406,"531":5407,"546":5408,"7.2":5409,"EG":5410,"GHz":5411,"ITV":5412,"Jer":5413,"Jane":5414,"Mes":5415,"MBA":5416,"NI":5417,"Sen":5418,"Son":5419,"TG":5420,"VS":5421,"bles":5422,"iPS":5423,"kW":5424,"pal":5425,"2028":5426,"1543":5427,"1457":5428,".52":5429,"come":5430,"366":5431,"381":5432,"392":5433,"Indu":5434,".78":5435,"Arti":5436,"Buil":5437,"History":5438,".12":5439,"1st":5440,"413":5441,"426":5442,"6.3":5443,"Ai":5444,"Edu":5445,"F3":5446,"GPS":5447,"LZ":5448,"Light":5449,"Mos":5450,"U20":5451,"Wnt":5452,"cla":5453,"down":5454,"mol":5455,"yl":5456,"zÇİn":5457,"zar":5458,"ÙĬ":5459,"1565":5460,"1559":5461,"1587":5462,"1597":5463,"âĢł":5464,"1635":5465,"1688":5466,"1733":5467,"1782":5468,"also":5469,"stry":5470,"tex":5471,".53":5472,"606":5473,"ollow":5474,"ãģĳ":5475,"373":5476,"Albert":5477,"Times":5478,"lent":5479,"Johnson":5480,"Final":5481,".11":5482,"524":5483,"612":5484,"6.2":5485,"890":5486,"Ash":5487,"By":5488,"FS":5489,"Jim":5490,"Tol":5491,"UD":5492,"bs":5493,"est":5494,"ov":5495,"score":5496,"Â£":5497,"ÐŁ":5498,"Ñĩ":5499,"1588":5500,"1598":5501,"507":5502,"cell":5503,"amo":5504,"thew":5505,"34%":5506,"641":5507,"495":5508,"68%":5509,"682":5510,"Rep":5511,".97":5512,".69":5513,"666":5514,"Rod":5515,"Rose":5516,"Vio":5517,"0.05":5518,"Pod":5519,"Austra":5520,"Mont":5521,"Brian":5522,"CLA":5523,"Place":5524,"Telegram":5525,"trans":5526,"Pierre":5527,"332":5528,"4A":5529,"4K":5530,"435":5531,"575":5532,"790":5533,"Ale":5534,"Bet":5535,"Fl":5536,"Mus":5537,"TMA":5538,"ate":5539,"plan":5540,"sky":5541,"tiÃ¨":5542,"tial":5543,"ents":5544,"1523":5545,"1535":5546,"1649":5547,"1661":5548,"1770":5549,"1499":5550,"23%":5551,"then":5552,"0.25":5553,"ãĤ¬":5554,"ãĤı":5555,"361":5556,"number":5557,"466":5558,"391":5559,"....":5560,"551":5561,"vices":5562,".01":5563,"Moder":5564,"1601":5565,"Sho":5566,"gio":5567,"PCI":5568,"Tim":5569,"Hotel":5570,"TOK":5571,"AcFun":5572,"Flash":5573,"place":5574,"craft":5575,"Wonder":5576,"528":5577,"5500":5578,"990":5579,"Bang":5580,"Bell":5581,"Hard":5582,"HTT":5583,"Sma":5584,"Smo":5585,"Than":5586,"ey":5587,"fis":5588,"gni":5589,"shuÃłn":5590,"mine":5591,"12.8":5592,"1511":5593,"1760":5594,"1769":5595,"rit":5596,"358":5597,"cos":5598,"36%":5599,"371":5600,"469":5601,"itz":5602,"684":5603,"587":5604,"View":5605,"94.":5606,"ppm":5607,"But":5608,"SMAP":5609,"Geo":5610,"0.03":5611,"Edge":5612,"tribu":5613,"Explor":5614,"Golden":5615,"548":5616,"AW":5617,"Bil":5618,"Lor":5619,"Mir":5620,"MAC":5621,"Shan":5622,"air":5623,"even":5624,"para":5625,"vor":5626,"tiÇİn":5627,"20000":5628,"1080":5629,"15000":5630,"1576":5631,"1594":5632,"1689":5633,"362":5634,"383":5635,"TCP":5636,"341":5637,"41%":5638,"NASL":5639,"98%":5640,"Program":5641,"Bey":5642,"Some":5643,"Siri":5644,"Qui":5645,"Bridge":5646,"active":5647,"European":5648,"vernment":5649,"80.":5650,"921":5651,"Dance":5652,"Gun":5653,"L1":5654,"MR":5655,"Mind":5656,"MMC":5657,"NEX":5658,"RB":5659,"TF":5660,"UFO":5661,"VF":5662,"Var":5663,"bow":5664,"kins":5665,"rÃ¡ng":5666,"uts":5667,"ðª":5668,"hÃ²ng":5669,"huo":5670,"chÄĽng":5671,"20.":5672,"left":5673,"tica":5674,"mid":5675,"1811":5676,"1517":5677,"1514":5678,"1578":5679,"1552":5680,"âĢķ":5681,"1639":5682,"1684":5683,".51":5684,"608":5685,"master":5686,"38%":5687,"349":5688,"Mai":5689,"644":5690,"557":5691,"vie":5692,".05":5693,".76":5694,".79":5695,".92":5696,"ird":5697,"585":5698,"597":5699,"Development":5700,"Mod":5701,"Test":5702,"Seven":5703,"Raw":5704,"Week":5705,"Firef":5706,"Just":5707,"kov":5708,"Matthew":5709,"template":5710,"Eliza":5711,"Common":5712,"scope":5713,"Taylor":5714,"curity":5715,"348":5716,"436":5717,"549":5718,"8.2":5719,"AST":5720,"Bai":5721,"Brand":5722,"DNS":5723,"Fred":5724,"Jam":5725,"Kon":5726,"Mitch":5727,"Pres":5728,"RN":5729,"Ret":5730,"bum":5731,"ea":5732,"ext":5733,"ovan":5734,"pl":5735,"tio":5736,"ering":5737,"1763":5738,"1350":5739,"iness":5740,"ï¼ĭ":5741,"sie":5742,"403":5743,"cept":5744,"cuÃ³":5745,"sell":5746,"mani":5747,"908":5748,"ession":5749,"6500":5750,"case":5751,"1505":5752,"ardo":5753,"tour":5754,"777":5755,"Marie":5756,"anger":5757,"fied":5758,"fication":5759,"Pack":5760,"worth":5761,"Santa":5762,"MG42":5763,"Christop":5764,"Villa":5765,"547":5766,"567":5767,"668":5768,"C5":5769,"FAN":5770,"Mountain":5771,"NK":5772,"Rol":5773,"T4":5774,"YOSHI":5775,"bla":5776,"sÃło":5777,"Â³":5778,"Ñĸ":5779,"1050":5780,"1614":5781,"1720":5782,"27.":5783,"1.25":5784,"374":5785,"494":5786,"CoV":5787,".03":5788,".73":5789,"IDE":5790,"IPS":5791,"PSP":5792,"thers":5793,"Work":5794,"UNIX":5795,"People":5796,"Commit":5797,"âħł":5798,"Karl":5799,"Frame":5800,"IPv4":5801,"Explorer":5802,"4.4":5803,"514":5804,"522":5805,"545":5806,"568":5807,"5.3":5808,"619":5809,"675":5810,"Bau":5811,"CSS":5812,"D1":5813,"EBU":5814,"KT":5815,"Kw":5816,"Oh":5817,"Shu":5818,"Za":5819,"nÃ©":5820,"spi":5821,"sal":5822,"yÃ³ng":5823,"lete":5824,"1516":5825,"1513":5826,"1534":5827,"1547":5828,"1569":5829,"16V":5830,"1460":5831,"stone":5832,"26.":5833,"cula":5834,"ãģ§":5835,"359":5836,"757":5837,"642":5838,".89":5839,".93":5840,"581":5841,"aux":5842,"1502":5843,"ctions":5844,"51%":5845,"gani":5846,"alis":5847,"GeForce":5848,"à¸£":5849,"SOHC":5850,"Jackson":5851,"Arthur":5852,"Queen":5853,"COLLAR":5854,"Sunday":5855,"origin":5856,"418":5857,"414":5858,"424":5859,"433":5860,"544":5861,"Bos":5862,"CJ":5863,"DTS":5864,"F2":5865,"JO":5866,"Jus":5867,"MMO":5868,"PEN":5869,"Sand":5870,"Tel":5871,"XIV":5872,"bÅ«":5873,"cz":5874,"flo":5875,"hol":5876,"ith":5877,"pper":5878,"ski":5879,"zed":5880,"ÐĴ":5881,"1731":5882,"1768":5883,"1771":5884,"1490":5885,"mel":5886,"409":5887,"lter":5888,"ãĥı":5889,"604":5890,"802":5891,"ãĤ±":5892,"ãĤĩ":5893,"ãĤį":5894,"389":5895,"7500":5896,"394":5897,"476":5898,"been":5899,".87":5900,"493":5901,"vio":5902,".74":5903,".66":5904,"Vision":5905,"ERO":5906,"Box":5907,"Rift":5908,"AGE":5909,"Prime":5910,"FOX":5911,"while":5912,"True":5913,"JTBC":5914,"âĩĶ":5915,"Cinema":5916,"Avenue":5917,"431":5918,"539":5919,"745":5920,"ABS":5921,"Bit":5922,"Classic":5923,"EO":5924,"Gin":5925,"Gamer":5926,"Ker":5927,"Lord":5928,"Mit":5929,"Sk":5930,"Solo":5931,"V6":5932,"bn":5933,"bour":5934,"jq":5935,"zza":5936,"Ä±":5937,"shop":5938,"shed":5939,"change":5940,"biÃło":5941,"til":5942,"tice":5943,"tify":5944,"1593":5945,"1724":5946,"1752":5947,"1469":5948,"1498":5949,"1370":5950,"sili":5951,"sea":5952,"ãģĪ":5953,"ille":5954,"48%":5955,"382":5956,"755":5957,"464":5958,"444":5959,"cid":5960,"571":5961,"1501":5962,"Never":5963,"Gaga":5964,"nova":5965,"PS3":5966,"prote":5967,"Express":5968,"British":5969,"tdown":5970,"AGASA":5971,"Kids":5972,"Friedrich":5973,"646":5974,"667":5975,"CIA":5976,"D2":5977,"Ever":5978,"Gam":5979,"IRT":5980,"Kan":5981,"M6":5982,"Pass":5983,"Tam":5984,"XF":5985,"ZJ":5986,"ami":5987,"high":5988,"pto":5989,"say":5990,"tch":5991,"dex":5992,"lius":5993,"dies":5994,"1520":5995,"1560":5996,"1553":5997,"1651":5998,"1740":5999,"1493":6000,"23.":6001,"602":6002,"904":6003,"496":6004,"498":6005,"443":6006,"nament":6007,".72":6008,".96":6009,".62":6010,"Rail":6011,"MAN":6012,"Boys":6013,"Baby":6014,"Haw":6015,"produ":6016,"UNG":6017,"Fami":6018,"AGUE":6019,"LEAGUE":6020,"Guard":6021,"works":6022,"mont":6023,"Jeff":6024,"Donald":6025,"Intelli":6026,"à¥į":6027,"Communi":6028,"Athlon":6029,"Memori":6030,"Firefox":6031,"611":6032,"645":6033,"945":6034,"Again":6035,"Bas":6036,"C1":6037,"Cen":6038,"CBA":6039,"DEC":6040,"GW":6041,"Hay":6042,"Old":6043,"QU":6044,"TAM":6045,"U2":6046,"vol":6047,"Ã¥":6048,"áº":6049,"chan":6050,"dic":6051,"1596":6052,"ono":6053,"1632":6054,"1679":6055,"1718":6056,"1735":6057,"1745":6058,"1758":6059,"25G":6060,"ï¼Ŀ":6061,"tec":6062,"ram":6063,"ãĥ¡":6064,"culus":6065,"made":6066,"907":6067,"ãĤģ":6068,"ãĤĨ":6069,"584":6070,"1506":6071,"Dear":6072,"sson":6073,"two":6074,"mental":6075,"1605":6076,"Samu":6077,"gia":6078,"Anth":6079,"Side":6080,"Health":6081,"Fish":6082,"Name":6083,"REAM":6084,"Wild":6085,"Central":6086,"Doug":6087,"Standard":6088,"Violet":6089,"Christopher":6090,"YOSHIKI":6091,"050":6092,"439":6093,"533":6094,"731":6095,"732":6096,"741":6097,"762":6098,"962":6099,"Astro":6100,"Cree":6101,"Eye":6102,"Flor":6103,"H3":6104,"ICD":6105,"Kra":6106,"NU":6107,"Num":6108,"Off":6109,"RCP":6110,"TL":6111,"Thi":6112,"UCLA":6113,"Wood":6114,"ath":6115,"kit":6116,"np":6117,"phe":6118,"vari":6119,"wen":6120,"Ïħ":6121,"á¸":6122,"âĻ":6123,"bia":6124,"dina":6125,"1260":6126,"1566":6127,"16.5":6128,"law":6129,"lade":6130,"1725":6131,"1748":6132,"ãĥĦ":6133,"0.10":6134,"706":6135,"ãĤĪ":6136,"ãĤĴ":6137,"457":6138,"tery":6139,"379":6140,"aso":6141,"756":6142,"553":6143,"cio":6144,"673":6145,"574":6146,"576":6147,"mpson":6148,"List":6149,"Alan":6150,"985":6151,"973":6152,"Anna":6153,"Capital":6154,"Greg":6155,"AlphaFold":6156,"Operation":6157,"Fleetline":6158,"Angelababy":6159,"516":6160,"617":6161,"639":6162,"722":6163,"735":6164,"DU":6165,"Econo":6166,"HMS":6167,"Kha":6168,"P2":6169,"Tower":6170,"bble":6171,"ners":6172,"sÃ²u":6173,"2050":6174,"quid":6175,"1528":6176,"1572":6177,"onal":6178,"1652":6179,"1727":6180,"1761":6181,"1368":6182,".59":6183,"ãĥ¯":6184,"ãĥİ":6185,"356":6186,"704":6187,"482":6188,"37%":6189,"655":6190,"55.":6191,"brary":6192,".98":6193,"ault":6194,"ARE":6195,"gate":6196,"Gaon":6197,"ends":6198,"BLE":6199,"link":6200,"Color":6201,"telli":6202,"Harry":6203,"English":6204,"Garden":6205,"Two":6206,"Jones":6207,"Anderson":6208,"Elizabeth":6209,"Committee":6210,"447":6211,"863":6212,"926":6213,"961":6214,"Ana":6215,"Apa":6216,"Bow":6217,"Din":6218,"Ea":6219,"Epi":6220,"LX":6221,"RATP":6222,"Tha":6223,"VP":6224,"WW":6225,"eu":6226,"hal":6227,"pet":6228,"pas":6229,"defea":6230,"shan":6231,"lim":6232,"bird":6233,"eno":6234,"nin":6235,"ergy":6236,"1531":6237,"1538":6238,"1647":6239,"1681":6240,"stor":6241,"rat":6242,"803":6243,"708":6244,"ãĤĥ":6245,"452":6246,"453":6247,"they":6248,"651":6249,"bed":6250,"Cook":6251,"vir":6252,".09":6253,"586":6254,"572":6255,"Stro":6256,"1504":6257,"Neu":6258,"EDG":6259,"APG":6260,"ICA":6261,"door":6262,"Conne":6263,"Basic":6264,"1701":6265,"Stephen":6266,"Carl":6267,"Colspan":6268,"word":6269,"essor":6270,"HOME":6271,"ights":6272,"Appli":6273,"ccff":6274,"ccccff":6275,"Press":6276,"Disco":6277,"Twitch":6278,"prise":6279,"Patrick":6280,"frame":6281,"Women":6282,"FINAL":6283,"Beyond":6284,"3M":6285,"438":6286,"511":6287,"933":6288,"Bun":6289,"Hero":6290,"Hans":6291,"ILE":6292,"Jes":6293,"Rad":6294,"Say":6295,"SNC":6296,"aw":6297,"band":6298,"dÄĽi":6299,"gna":6300,"vity":6301,"wer":6302,"Î©":6303,"Ð·":6304,"Øª":6305,"ìļ":6306,"xus":6307,"hÃłng":6308,"mie":6309,"1530":6310,"1537":6311,"lati":6312,"1736":6313,"ï¼Ĩ":6314,"603":6315,"808":6316,"461":6317,"468":6318,"681":6319,"user":6320,"ONG":6321,"state":6322,"1709":6323,"Kevin":6324,"GameSpot":6325,"Abdu":6326,"Southern":6327,"news":6328,"JavaScript":6329,"Prince":6330,"DirectX":6331,"Silver":6332,"function":6333,"Modern":6334,"3G":6335,"541":6336,"629":6337,"648":6338,"725":6339,"Ak":6340,"CAR":6341,"Dor":6342,"ELE":6343,"Low":6344,"NN":6345,"Nan":6346,"NPC":6347,"P4":6348,"URE":6349,"Vis":6350,"cter":6351,"city":6352,"gas":6353,"gent":6354,"vent":6355,"Ñħ":6356,"such":6357,"super":6358,"dire":6359,"zing":6360,"1519":6361,"1529":6362,"1555":6363,"1687":6364,"last":6365,"1728":6366,"ardi":6367,"ink":6368,"team":6369,".56":6370,"ãĥĿ":6371,"cuÇĲ":6372,"905":6373,"esa":6374,"484":6375,"653":6376,"Maker":6377,"Info":6378,"before":6379,"55%":6380,"559":6381,"491":6382,".94":6383,"679":6384,".63":6385,"ped":6386,"796":6387,"OSS":6388,"fish":6389,"Saf":6390,"MAD":6391,"Paris":6392,"Concer":6393,"That":6394,"Fair":6395,"mark":6396,"ckett":6397,"URL":6398,"AOA":6399,"Yahoo":6400,"speci":6401,"ctures":6402,"Planet":6403,"ASCII":6404,"Spotify":6405,"OmegaT":6406,"Mitchell":6407,"423":6408,"536":6409,"632":6410,"715":6411,"825":6412,"833":6413,"Ala":6414,"B3":6415,"CAL":6416,"D9":6417,"Flow":6418,"Gy":6419,"GRO":6420,"Hau":6421,"Ita":6422,"K2":6423,"Money":6424,"Mbps":6425,"RDS":6426,"Zo":6427,"eb":6428,"ei":6429,"ide":6430,"san":6431,"sci":6432,"wart":6433,"huÅį":6434,"2035":6435,"1120":6436,"1767":6437,"50.":6438,".57":6439,"cking":6440,"Chrome":6441,"Main":6442,"473":6443,"49.":6444,"492":6445,"cap":6446,"nda":6447,".61":6448,"auto":6449,"661":6450,"562":6451,"Liber":6452,"Robin":6453,"Dead":6454,"Debian":6455,"Mega":6456,"Via":6457,"game":6458,"See":6459,"bucket":6460,"Anne":6461,"host":6462,"PS2":6463,"Fede":6464,"Eddie":6465,"TRA":6466,"Countdown":6467,"Zico":6468,"signed":6469,"TOKYO":6470,"Violetta":6471,"339":6472,"429":6473,"532":6474,"665":6475,"775":6476,"769":6477,"Ax":6478,"Area":6479,"D5":6480,"Eri":6481,"Fox":6482,"Hand":6483,"JI":6484,"Pur":6485,"R1":6486,"RF":6487,"SNS":6488,"ller":6489,"Õ¡":6490,"miÄĵ":6491,"1220":6492,"1545":6493,"1664":6494,"1659":6495,"1719":6496,"artic":6497,"1495":6498,"1496":6499,"1388":6500,"redo":6501,".58":6502,"cep":6503,"702":6504,"703":6505,"Chap":6506,"Chart":6507,"Mah":6508,"STATION":6509,"689":6510,"Rea":6511,".91":6512,"692":6513,"osp":6514,"Roman":6515,"Mix":6516,"798":6517,"him":6518,"splay":6519,"ott":6520,"74%":6521,"mentary":6522,"ERS":6523,"Jaco":6524,"AND":6525,"SM.81":6526,"graphy":6527,"Juan":6528,"gins":6529,"Steven":6530,"Phy":6531,"IFF":6532,"Bio":6533,"Dragon":6534,"Anime":6535,"Henri":6536,"Framework":6537,"010":6538,"434":6539,"636":6540,"729":6541,"761":6542,"878":6543,"Aus":6544,"Action":6545,"E1":6546,"E231":6547,"GEN":6548,"Jay":6549,"L2":6550,"PAGASA":6551,"RK":6552,"Too":6553,"ZERO":6554,"das":6555,"eg":6556,"hat":6557,"ira":6558,"Ðĳ":6559,"Ðľ":6560,"ÑĨ":6561,"ìĹ":6562,"tier":6563,"1546":6564,"1549":6565,"1562":6566,"1670":6567,"1690":6568,"1654":6569,"1653":6570,"1694":6571,"1759":6572,"aro":6573,"1466":6574,"thor":6575,"sio":6576,"ãĥ¢":6577,"807":6578,"709":6579,"458":6580,"463":6581,"log":6582,"555":6583,"596":6584,"662":6585,"Stri":6586,"under":6587,"Like":6588,"Michel":6589,"constru":6590,"ental":6591,"gie":6592,"posi":6593,"Build":6594,"shion":6595,"Interactive":6596,"Wilson":6597,"Johnny":6598,"della":6599,"Voice":6600,"FAST":6601,"Kenne":6602,"Court":6603,"Happy":6604,"HTTP":6605,"Samuel":6606,".39":6607,"12000":6608,"527":6609,"638":6610,"669":6611,"712":6612,"711":6613,"9.4":6614,"BP":6615,"Dal":6616,"DREAM":6617,"Hos":6618,"IMAX":6619,"Jos":6620,"K11":6621,"LV":6622,"Lind":6623,"M5":6624,"Nam":6625,"NCC":6626,"RSA":6627,"Sr":6628,"dan":6629,"ef":6630,"flu":6631,"ska":6632,"wy":6633,"Î¬":6634,"shell":6635,"xis":6636,"qiÅįng":6637,"lem":6638,"sung":6639,"tura":6640,"niÅ«":6641,"1558":6642,"1581":6643,"1738":6644,"1474":6645,"1375":6646,"cular":6647,"elli":6648,"neu":6649,"vement":6650,"STAT":6651,"477":6652,"love":6653,"68000":6654,"Cos":6655,"ATE":6656,"595":6657,"598":6658,"599":6659,"578":6660,"1608":6661,"Jac":6662,"Hein":6663,"dence":6664,"EPA":6665,"program":6666,"ween":6667,"0.5%":6668,"gene":6669,"syn":6670,"flight":6671,"EXILE":6672,"Person":6673,"GPL":6674,"Stars":6675,"stars":6676,"Galant":6677,"import":6678,"NMB48":6679,"521":6680,"628":6681,"622":6682,"721":6683,"867":6684,"877":6685,"8.3":6686,"965":6687,"Aer":6688,"BY":6689,"Care":6690,"F5":6691,"Jet":6692,"Mount":6693,"Ner":6694,"OST":6695,"RX":6696,"Sus":6697,"SUP":6698,"Source":6699,"VEN":6700,"WP":6701,"ZZ":6702,"cli":6703,"cin":6704,"fre":6705,"gli":6706,"ui":6707,"will":6708,"yd":6709,"guÃłng":6710,"yun":6711,"life":6712,"bio":6713,"1280":6714,"âĢ³":6715,"1665":6716,"lat":6717,"1732":6718,"1744":6719,"1756":6720,"1489":6721,"1487":6722,"1340":6723,"oul":6724,"met":6725,"29.":6726,"000rpm":6727,"ãĥĵ":6728,"906":6729,"ãĤº":6730,"451":6731,"Chill":6732,".71":6733,"997":6734,"Stru":6735,"idae":6736,"Security":6737,"Dave":6738,"Shar":6739,"wick":6740,"Player":6741,"Feli":6742,"ghts":6743,"Forever":6744,"SHOW":6745,"Business":6746,"2nd":6747,"519":6748,"517":6749,"624":6750,"623":6751,"835":6752,"876":6753,"938":6754,"954":6755,"951":6756,"Abu":6757,"B9":6758,"CAP":6759,"D3":6760,"Fw":6761,"Flo":6762,"GDDR":6763,"Hil":6764,"Hop":6765,"IMD":6766,"Kur":6767,"LCD":6768,"NIC":6769,"Pon":6770,"Qt":6771,"Sel":6772,"YF":6773,"eng":6774,"fan":6775,"mou":6776,"mos":6777,"ude":6778,"vas":6779,"would":6780,"xa":6781,"Ðĺ":6782,"ð¤":6783,"sum":6784,"qua":6785,"chuÃłi":6786,"1524":6787,"1532":6788,"1584":6789,"1658":6790,"1657":6791,"1699":6792,"lad":6793,"1762":6794,"1337":6795,"mum":6796,"ï¼ŀ":6797,"rai":6798,".54":6799,"seed":6800,"472":6801,"474":6802,"649":6803,"497":6804,"687":6805,"688":6806,"698":6807,"579":6808,"88%":6809,"784":6810,"Rober":6811,"Proto":6812,"72%":6813,"html":6814,"1406":6815,"Carlos":6816,"DSP":6817,"à¤¾":6818,"Bike":6819,"year":6820,"SHIN":6821,"Holly":6822,"Christmas":6823,"âĺħ":6824,"Public":6825,"scape":6826,"MONSTA":6827,"Computer":6828,"Touch":6829,"Smack":6830,"Smosh":6831,"Apache":6832,"054":6833,"616":6834,"719":6835,"865":6836,"946":6837,"988":6838,"Bran":6839,"DH":6840,"Dur":6841,"Esp":6842,"G1":6843,"Gau":6844,"H4":6845,"H10":6846,"Hat":6847,"Jona":6848,"More":6849,"S3":6850,"Sb":6851,"Sense":6852,"Wit":6853,"WHO":6854,"XG":6855,"jan":6856,"kra":6857,"used":6858,"Ã¦":6859,"ÏĨ":6860,"dus":6861,"tie":6862,"luÅį":6863,"enne":6864,"micro":6865,"11.2":6866,"pia":6867,"1668":6868,"1739":6869,"1764":6870,"format":6871,"28.":6872,"mail":6873,"30000":6874,"787":6875,"Library":6876,"Socket":6877,"Ann":6878,"sock":6879,"PSV":6880,"Control":6881,"1702":6882,"There":6883,"Take":6884,"Human":6885,"LLVM":6886,"rowspan":6887,"ways":6888,"break":6889,"Fanta":6890,"Ryan":6891,"SmackDown":6892,"052":6893,"421":6894,"437":6895,"614":6896,"626":6897,"637":6898,"815":6899,"816":6900,"975":6901,"Card":6902,"Echo":6903,"GF":6904,"If":6905,"Ice":6906,"JP":6907,"Rh":6908,"Wing":6909,"Wolf":6910,"YA":6911,"ZO":6912,"after":6913,"cine":6914,"free":6915,"hp":6916,"kha":6917,"won":6918,"wri":6919,"Ðł":6920,"ë°":6921,"depen":6922,"dig":6923,"0000":6924,"1275":6925,"11.3":6926,"1536":6927,"1675":6928,"1464":6929,"rad":6930,"may":6931,"major":6932,"455":6933,"IND":6934,"64.":6935,"lock":6936,".77":6937,"671":6938,"678":6939,"ops":6940,"most":6941,"ARP":6942,"Tex":6943,"97%":6944,"Sher":6945,"Anti":6946,"1705":6947,"Liner":6948,"Fashion":6949,"TOWN":6950,"erial":6951,"Giovan":6952,"Sheet":6953,"lease":6954,"KKBOX":6955,"Championship":6956,"Language":6957,"Alfredo":6958,"alysis":6959,"Professor":6960,"542":6961,"634":6962,"821":6963,"912":6964,"CIT":6965,"Cfb":6966,"DX":6967,"HPV":6968,"MOS":6969,"MIT":6970,"NXT":6971,"Ol":6972,"Pr":6973,"SY":6974,"Ster":6975,"SIM":6976,"Tig":6977,"WH":6978,"Wer":6979,"Well":6980,"Wong":6981,"count":6982,"df":6983,"dle":6984,"done":6985,"glo":6986,"ima":6987,"mme":6988,"nst":6989,"ois":6990,"pon":6991,"wind":6992,"Ïĩ":6993,"âģ":6994,"ãħ":6995,"ìĦ":6996,"ches":6997,"lib":6998,"leu":6999,"lein":7000,"miÄģo":7001,"1563":7002,"1617":7003,"1663":7004,"1685":7005,"17.5":7006,"1753":7007,"1477":7008,"1380":7009,"multi":7010,"stance":7011,"503":7012,"ras":7013,"see":7014,"809":7015,"ãģİ":7016,"ãĤ½":7017,"atan":7018,"483":7019,"486":7020,"asy":7021,"754":7022,"656":7023,"Mate":7024,"beat":7025,"beca":7026,"Theat":7027,"676":7028,"ATX":7029,"66%":7030,"99.":7031,"SAN":7032,"785":7033,"561":7034,"NAS":7035,"Mei":7036,"61%":7037,"ARK":7038,"Second":7039,"ACH":7040,"okia":7041,"84%":7042,"ANG":7043,"IPTV":7044,"Western":7045,"Board":7046,"File":7047,"Field":7048,"there":7049,"à¸²":7050,"UNES":7051,"gency":7052,"Frances":7053,"Morning":7054,"Brad":7055,"RCA":7056,"Collection":7057,"SpaceX":7058,"Melon":7059,"Circle":7060,"Mission":7061,"Creative":7062,"TWICE":7063,"Clark":7064,"Industri":7065,"SUPER":7066,"2DS":7067,"518":7068,"526":7069,"566":7070,"716":7071,"714":7072,"765":7073,"764":7074,"744":7075,"7.3":7076,"826":7077,"847":7078,"918":7079,"936":7080,"Afri":7081,"BNO":7082,"EU":7083,"Eve":7084,"Every":7085,"GI":7086,"Here":7087,"Ia":7088,"MRI":7089,"Pere":7090,"RP":7091,"Right":7092,"Rank":7093,"SUN":7094,"Vin":7095,"VIP":7096,"Wri":7097,"Ware":7098,"WTT":7099,"cam":7100,"cta":7101,"group":7102,"hÄģi":7103,"pho":7104,"town":7105,"ÅĤ":7106,"ÙĪ":7107,"âĬ":7108,"ë¦":7109,"ð¬":7110,"ngth":7111,"show":7112,"chin":7113,"ched":7114,"lity":7115,"chus":7116,"1024":7117,"1669":7118,"1656":7119,"1672":7120,"1692":7121,"1754":7122,"1420":7123,"1480":7124,"teen":7125,"31.":7126,"0.15":7127,"ilo":7128,"their":7129,"751":7130,"65.":7131,"658":7132,"Chang":7133,"Maki":7134,"Inte":7135,"594":7136,"Stone":7137,"791":7138,"AMC":7139,"AMP":7140,"Moore":7141,"Shine":7142,"ITA":7143,"Bug":7144,"1704":7145,"1708":7146,"Nick":7147,"Pie":7148,"ario":7149,"AGP":7150,"MLB":7151,"Manu":7152,"Vogue":7153,"Future":7154,"DMR":7155,"Front":7156,"RepRap":7157,"2B":7158,"713":7159,"727":7160,"748":7161,"768":7162,"875":7163,"8.8":7164,"915":7165,"929":7166,"947":7167,"Ace":7168,"BIG":7169,"Cr":7170,"CYP":7171,"Dam":7172,"Emp":7173,"EBS":7174,"Fai":7175,"From":7176,"ISA":7177,"NICO":7178,"OME":7179,"R3":7180,"Ring":7181,"UF":7182,"VIS":7183,"XIII":7184,"kon":7185,"xc":7186,"zÄģn":7187,"Ð¢":7188,"Ø³":7189,"lev":7190,"bie":7191,"bis":7192,"1075":7193,"1277":7194,"1279":7195,"1276":7196,"1111":7197,"ante":7198,"1440":7199,"1488":7200,"1472":7201,"1371":7202,"allo":7203,"story":7204,"rian":7205,"rice":7206,"road":7207,"ãĥ§":7208,"902":7209,"489":7210,"vier":7211,"699":7212,"ophy":7213,"992":7214,"881":7215,"986":7216,"Lew":7217,"contribu":7218,"APM":7219,"1602":7220,"dom":7221,"commercial":7222,"Interplay":7223,"cross":7224,"AIM":7225,"REAS":7226,"Wilhel":7227,"Audio":7228,"CRH5":7229,"Gene":7230,"Walker":7231,"Version":7232,"Films":7233,"Jimmy":7234,"District":7235,"Sweet":7236,"Building":7237,"030":7238,"633":7239,"778":7240,"812":7241,"955":7242,"957":7243,"9.3":7244,"Azu":7245,"Asian":7246,"C3":7247,"C14":7248,"EY":7249,"Im":7250,"Ian":7251,"Iso":7252,"Jalan":7253,"LNG":7254,"LIF":7255,"MIC":7256,"NY":7257,"Nint":7258,"POS":7259,"Rand":7260,"RSS":7261,"SAT":7262,"Sid":7263,"Stop":7264,"Ts":7265,"TNT":7266,"Yi":7267,"Yan":7268,"bÇĴ":7269,"cÃº":7270,"cÄĵn":7271,"d4":7272,"iro":7273,"rs":7274,"ute":7275,"Ã½":7276,"Ø¨":7277,"Ø¯":7278,"ledge":7279,"sul":7280,"tury":7281,"kuÇİi":7282,"10.6":7283,"002":7284,"004":7285,"1230":7286,"pis":7287,"1527":7288,"15.5":7289,"1611":7290,"array":7291,"rela":7292,"rix":7293,"rish":7294,"ols":7295,"ely":7296,"ãģĽ":7297,"487":7298,"nest":7299,"bov":7300,"46.":7301,"Chro":7302,"Information":7303,"558":7304,"685":7305,"vich":7306,"osau":7307,"577":7308,"781":7309,"792":7310,"794":7311,"Album":7312,"981":7313,"Lei":7314,"CO2":7315,"ARC":7316,"Dick":7317,"Shop":7318,"gion":7319,"poli":7320,"Six":7321,"Energy":7322,"WiMAX":7323,"shire":7324,"Gemini":7325,"Stewart":7326,"1122":7327,"RES":7328,"Tac":7329,"ories":7330,"ESPN":7331,"Trickett":7332,"minal":7333,"Wave":7334,"Thompson":7335,"Where":7336,"Portable":7337,"elect":7338,"ìķĦ":7339,"Thunderbird":7340,"Velvet":7341,"Jonathan":7342,"ð¬ĵ":7343,"Nintendo":7344,"070":7345,"543":7346,"615":7347,"717":7348,"828":7349,"839":7350,"939":7351,"Bin":7352,"E2":7353,"Edi":7354,"FD":7355,"G2":7356,"GG":7357,"Gr":7358,"Len":7359,"Lun":7360,"MED":7361,"N1":7362,"RY":7363,"S7":7364,"TD":7365,"UFC":7366,"V1":7367,"V2":7368,"ala":7369,"ic":7370,"kai":7371,"nar":7372,"poly":7373,"tar":7374,"wel":7375,"zzi":7376,"ãİ":7377,"ê°":7378,"lee":7379,"tinu":7380,"tiful":7381,"quali":7382,"dine":7383,"nig":7384,"1512":7385,"1541":7386,"1666":7387,"lak":7388,"1721":7389,"1726":7390,"1737":7391,"1747":7392,"1743":7393,"1741":7394,"archi":7395,"1430":7396,"30.":7397,"25000":7398,"former":7399,"teau":7400,"site":7401,"0.1%":7402,"481":7403,"ism":7404,"boy":7405,"47.":7406,"nation":7407,"adox":7408,"based":7409,"674":7410,"cate":7411,"697":7412,"889":7413,"Liquid":7414,"Deuts":7415,"77%":7416,"Allen":7417,"982":7418,"989":7419,"apu":7420,"pert":7421,"74.":7422,"fini":7423,"96%":7424,"post":7425,"81%":7426,"Page":7427,"Sport":7428,"PCR":7429,"0.04":7430,"à¸Ļ":7431,"AVE":7432,"NHS":7433,"Grace":7434,"hyth":7435,"Match":7436,"bury":7437,"Enterprise":7438,"Surf":7439,"Productions":7440,"about":7441,"Bruce":7442,"Douglas":7443,"2TV":7444,"513":7445,"846":7446,"866":7447,"857":7448,"B12":7449,"Ball":7450,"Gary":7451,"HY":7452,"J1":7453,"JXG":7454,"Kill":7455,"Oculus":7456,"Penti":7457,"WM":7458,"Zen":7459,"again":7460,"ever":7461,"kHz":7462,"power":7463,"wat":7464,"xe":7465,"zÃ¡n":7466,"dera":7467,"gus":7468,"zhuÇİ":7469,"mium":7470,"1217":7471,"1274":7472,"1515":7473,"1542":7474,"1712":7475,"1711":7476,"1715":7477,"1435":7478,"1456":7479,"1328":7480,"1385":7481,"forman":7482,"room":7483,"sele":7484,"elo":7485,"ãģ¶":7486,"1.05":7487,"48.":7488,"4800":7489,"INT":7490,"ison":7491,"3400":7492,"bach":7493,"pei":7494,"Stor":7495,"1509":7496,"Roger":7497,"Window":7498,"Motor":7499,"dale":7500,"Staff":7501,"ISC":7502,"971":7503,"Lock":7504,"ASH":7505,"fect":7506,"Netscape":7507,"IGHT":7508,"gener":7509,"GP40":7510,"hydro":7511,"brid":7512,"bridge":7513,"facebook":7514,"Princess":7515,"Pink":7516,"Tennis":7517,"SHINee":7518,"Pentium":7519,"055":7520,"647":7521,"728":7522,"726":7523,"811":7524,"8.4":7525,"913":7526,"CZ":7527,"CCD":7528,"COS":7529,"Ing":7530,"KS":7531,"Mg":7532,"Snow":7533,"TAI":7534,"Zero":7535,"fit":7536,"fig":7537,"fts":7538,"ila":7539,"sw":7540,"tta":7541,"uk":7542,"vad":7543,"yan":7544,"Î¯":7545,"Î¶":7546,"shark":7547,"lik":7548,"tit":7549,"chuÇİi":7550,"10.1":7551,"nik":7552,"1150":7553,"orbit":7554,"1544":7555,"1757":7556,"1424":7557,"1470":7558,"1454":7559,"str":7560,"thal":7561,"through":7562,"ril":7563,"rier":7564,"2900":7565,"amba":7566,"sets":7567,"909":7568,"459":7569,"38.":7570,"3700":7571,"iser":7572,"34.":7573,"759":7574,"STER":7575,"IIT":7576,"Cong":7577,"cision":7578,"672":7579,"582":7580,"ATS":7581,"69.":7582,"591":7583,"993":7584,"SAP":7585,"56.":7586,"Mars":7587,"Division":7588,"Lost":7589,"93%":7590,"Buzz":7591,"DSL":7592,"project":7593,"tten":7594,"France":7595,"Universal":7596,"hammad":7597,"Chee":7598,"âħ¢":7599,"IMF":7600,"Drama":7601,"struct":7602,"England":7603,"CGTN":7604,"Louise":7605,"Mercu":7606,"addr":7607,"Antonio":7608,"Archite":7609,"CDMA2000":7610,"WORLD":7611,"Alliance":7612,"Hollywood":7613,"823":7614,"829":7615,"8.9":7616,"927":7617,"935":7618,"9.2":7619,"A5":7620,"Emi":7621,"F7":7622,"Four":7623,"GIS":7624,"Hart":7625,"JC":7626,"Jason":7627,"KN":7628,"Know":7629,"LMS":7630,"LPL":7631,"Oly":7632,"Sang":7633,"TB":7634,"USE":7635,"WD":7636,"Zu":7637,"cca":7638,"feld":7639,"mpic":7640,"ole":7641,"ova":7642,"ppe":7643,"gun":7644,"tup":7645,"mical":7646,"1235":7647,"1264":7648,"order":7649,"1554":7650,"1722":7651,"1734":7652,"1766":7653,"1471":7654,"1330":7655,"1390":7656,"iner":7657,"range":7658,"ãĥį":7659,"cei":7660,"60.":7661,"609":7662,"them":7663,"ando":7664,"652":7665,"659":7666,"Maxi":7667,"Make":7668,"Remix":7669,"695":7670,"573":7671,"lyn":7672,"783":7673,"ssa":7674,"berry":7675,"771":7676,"kee":7677,"Gate":7678,"Arena":7679,"Shot":7680,"82%":7681,"meral":7682,"92%":7683,"Unit":7684,"sters":7685,"Paradox":7686,"âĪĪ":7687,"Adven":7688,"Hugh":7689,"Peace":7690,"ttle":7691,"AAA":7692,"DOCO":7693,"Reddit":7694,"Active":7695,"ensor":7696,"Benja":7697,"Spin":7698,"Brook":7699,"Brothers":7700,"AlphaGo":7701,"llion":7702,"unique":7703,"partment":7704,"Engineering":7705,"Opera":7706,"small":7707,"ECTION":7708,"Kelly":7709,"tournament":7710,"Creek":7711,"defeated":7712,"Concert":7713,"Makiyo":7714,"Surfshark":7715,"1180":7716,"3100":7717,"529":7718,"724":7719,"736":7720,"832":7721,"932":7722,"967":7723,"976":7724,"Ay":7725,"Ave":7726,"BEST":7727,"DN":7728,"Drop":7729,"Ey":7730,"F6":7731,"FG":7732,"Flu":7733,"Fall":7734,"Gon":7735,"HM":7736,"HQ":7737,"KA":7738,"Ky":7739,"Kor":7740,"Los":7741,"N3":7742,"NON":7743,"OL":7744,"Pia":7745,"PRE":7746,"RAD":7747,"SRAM":7748,"U16":7749,"VCD":7750,"Wol":7751,"XY":7752,"act":7753,"follow":7754,"gran":7755,"good":7756,"hd":7757,"mary":7758,"nch":7759,"nel":7760,"rence":7761,"tent":7762,"wo":7763,"Â½":7764,"Ã£":7765,"ÏĮ":7766,"Ðŀ":7767,"×Ļ":7768,"ð¡":7769,"deri":7770,"12.6":7771,"1557":7772,"1551":7773,"1655":7774,"1678":7775,"1696":7776,"lav":7777,"1746":7778,"1749":7779,"1475":7780,"1441":7781,"1484":7782,"1399":7783,"25.":7784,"string":7785,"rison":7786,"teo":7787,"eter":7788,"iller":7789,"andra":7790,"boot":7791,"752":7792,"being":7793,"683":7794,"Rev":7795,"Str":7796,"Rob":7797,"Marsh":7798,"vation":7799,"87%":7800,"874":7801,"ACS":7802,"86%":7803,"static":7804,"1402":7805,"à¸¡":7806,"wei":7807,"CRH":7808,"Hulu":7809,"nett":7810,"BMT":7811,"Disc":7812,"Allstars":7813,"Holdings":7814,"Broad":7815,"Valley":7816,"GMMTV":7817,"VOCAL":7818,"Miller":7819,"Palazzo":7820,"ological":7821,"IPv6":7822,"Rainbow":7823,"Electronic":7824,"Premier":7825,"PENOME":7826,"Mercury":7827,"DOCOMO":7828,"PENOMECO":7829,"635":7830,"864":7831,"931":7832,"937":7833,"956":7834,"972":7835,"Edition":7836,"Fren":7837,"FIR":7838,"Git":7839,"Had":7840,"Mou":7841,"Mol":7842,"Mill":7843,"NL":7844,"NAT":7845,"PRI":7846,"Ted":7847,"Tang":7848,"Wid":7849,"crea":7850,"exi":7851,"flow":7852,"gos":7853,"kn":7854,"prin":7855,"sort":7856,"xon":7857,"Ãĸ":7858,"Åĭ":7859,"ÑĪ":7860,"ð°":7861,"big":7862,"tig":7863,"distri":7864,"1020":7865,"1010":7866,"1266":7867,"1261":7868,"pid":7869,"1641":7870,"1751":7871,"arma":7872,"1346":7873,"mur":7874,"three":7875,"rest":7876,"seu":7877,"0.12":7878,"0.65":7879,"ãģŃ":7880,"cken":7881,"38.5":7882,"bot":7883,"TCH":7884,"beta":7885,"virus":7886,"995":7887,"884":7888,"885":7889,"886":7890,"Dean":7891,"Delta":7892,"Mira":7893,"54.":7894,"YouBike":7895,"motion":7896,"89%":7897,"Sele":7898,"Arm":7899,"ISP":7900,"ISS":7901,"Davis":7902,"Daily":7903,"Diam":7904,"poem":7905,"83%":7906,"kie":7907,"Paci":7908,"Sie":7909,"Head":7910,"socket":7911,"Word":7912,"AGM":7913,"crip":7914,"Hip":7915,"M1A2":7916,"Prize":7917,"Nord":7918,"CLOS":7919,"Access":7920,"CSI":7921,"County":7922,"parti":7923,"YOU":7924,"Samsung":7925,"match":7926,"Ross":7927,"Bird":7928,"Twins":7929,"longi":7930,"Beautiful":7931,"Original":7932,"August":7933,"username":7934,"Theatre":7935,"Wilhelm":7936,"Benjamin":7937,"060":7938,"564":7939,"664":7940,"817":7941,"831":7942,"853":7943,"919":7944,"958":7945,"942":7946,"959":7947,"979":7948,"Acc":7949,"Cali":7950,"FK":7951,"FNC":7952,"Gas":7953,"GUI":7954,"Hg":7955,"IATA":7956,"JB":7957,"Kore":7958,"Nel":7959,"PU":7960,"PX":7961,"Pit":7962,"Pha":7963,"PDF":7964,"QR":7965,"Schu":7966,"UCC":7967,"Winter":7968,"camp":7969,"cry":7970,"fran":7971,"gb":7972,"hÇĴng":7973,"hor":7974,"hon":7975,"ist":7976,"lf":7977,"rÅįng":7978,"Î£":7979,"ÐĿ":7980,"det":7981,"lier":7982,"tium":7983,"differ":7984,"1284":7985,"2029":7986,"1673":7987,"1713":7988,"aria":7989,"1425":7990,"1468":7991,"1382":7992,"member":7993,"lty":7994,"ãĥľ":7995,"seo":7996,"0.20":7997,"804":7998,"802.":7999}