#version: 0.2
ä ¸
ä º
ç ļ
çļ Ħ
å ħ
å ı
æ ľ
ã Ģ
å ¹
ä »
å ¤
å ľ
å Ĳ
å Ī
å Ľ
å ®
å¹ ´
ä ½
æ Ĺ
ç Ķ
å į
æ ĸ
è ¿
å °
æ ĺ
ä ¹
ç »
ãĢ ģ
åľ ¨
ä¸ º
å Ĭ
æ Ī
ä ¼
ä¸ Ģ
å Ń
å Į
å ¸
è ¯
è ®
ä¸ Ń
å Ĩ
åĽ ½
äº º
æĺ ¯
å º
æ Ŀ
å ¼
å ·
äº İ
å ¾
é ĩ
ç ī
ç §
è ¡
ç º
å¤ §
æ ī
é Ģ
æľ ī
å ±
æ Ķ
å ĩ
å Ĵ
åĴ Į
2 0
æ Ń
é ĥ
è µ
è Ģ
æ ķ
å ½
å İ
æľ Ī
å ¯
æ °
é Ļ
æ ĭ
æĹ ¥
ç Ľ
è ĩ
æ ³
å ¥
æ ł
ç İ
1 9
é ĺ
ä» ¥
åĲ İ
æĹ ¶
â Ģ
å ĳ
äº Ĩ
åľ °
æ ²
ç «
æ µ
ä¼ ļ
åŃ ¦
è §
æ Ģ
è ¾
è ´
æĪ Ĳ
é Ĺ
è ½
é Ŀ
å Ł
ä¸ ª
ç Ĳ
ä¸ Ĭ
éĥ ¨
å ī
æĸ ¯
é ķ
ä¸ İ
è¡ Į
ä» ĸ
åĩ º
ä¸ į
æ ¯
åĮ º
æ ´
æ ŀ
æ Ĭ
æ İ
åħ ¬
ç ¬
åħ ¶
åı ĳ
æ ¸
ç ½
ä½ ľ
çĶ Ł
æ Ľ
å° Ķ
åĲ į
ä ¿
ä¸ »
åĪ Ĩ
è ¢
ç Ń
è ĥ
ä¹ ĭ
é ģ
æĸ ¹
ç¬ ¬
çĶ ¨
å® ¶
å §
ãĢ ĭ
ãĢ Ĭ
è ¥
å¹ ¶
ç ¾
è¥ ¿
æ³ ķ
åĪ °
å ¿
èĢ Į
Â ·
æ ¬
é ¢
åĨ Ľ
å »
åı Ĭ
è¢ «
ä ¾
æĶ ¿
ä½ į
ç ±
çĶ ±
æ Į
æľ ¬
ç ľ
æ ±
æ° ĳ
è ·
é Ľ
é ¦
ä¸ ĭ
å¸ Ĥ
å ĵ
å¯ ¹
åĲ Į
è ģ
è ĭ
åħ ĭ
åĬ ¨
æĿ ¥
çī ¹
éķ ¿
è¿ Ļ
å¤ ļ
ä» »
èĩ ª
å¼ Ģ
éĩ Į
åĳ ĺ
åį Ĺ
é ©
åŃ Ĳ
åı ¯
æĸ °
å¹ ³
è ī
å Ŀ
è İ
åĬ ł
å¾ ·
åĮ Ĺ
ãĢ Į
ãĢ į
æľ Ģ
æĸ ĩ
å £
åĪ ©
æ Ļ
ç¾ İ
é «
åī į
ä¸ ľ
ä» £
é« ĺ
äº ļ
éĿ ¢
æµ ·
æī Ģ
¦ ģ
å¾ Ĺ
èĩ ³
ç ¤
å» º
è Ī
éĹ ´
æŃ ¤
åĨ ħ
åĽ ł
äº ĭ
âĢ ľ
ä¸ ī
âĢ Ŀ
çİ °
è¿ Ľ
çĶ µ
) ,
ä¹ Ł
çī ©
è¿ ĩ
èµ Ľ
20 1
çŃ ī
åı °
åº ¦
è½ ¦
åħ ¥
è¯ ¥
ç» ı
å½ ĵ
éģ ĵ
ç ¥
è ¦ģ
ç« ĭ
æĪ ĺ
å° Ĩ
çĲ Ĩ
ç ©
è¡ ¨
ä½ ĵ
ç Ł
ç ķ
æĭ ī
é ¡
å ¦
è °
å ²
æľ º
æķ Ļ
æľ Ł
ä¸ ĸ
è Ĳ
é ļ
æ ı
å· ¥
åĪ ¶
ç ®
èĥ ½
äº Į
å¤ ĸ
åĲ Ī
æ į
è· ¯
å® ļ
åı £
çľ ģ
å¸ ĥ
æ¬ ¡
æ Ħ
é© ¬
è® ¾
åħ ±
æĢ §
éĺ Ł
åľ º
éĢ ļ
ä¸ ļ
å± ±
å° ı
20 0
çĲ ĥ
ä½ Ĩ
è Ĭ
ä½ ¿
é ĵ
è ¶
åį ģ
ä¸Ģ ä¸ª
èĢ ħ
å· ŀ
åĮ ĸ
åħ ¨
æ ĥ
ç ³
æķ °
ç§ į
é £
ç§ °
å¤ ©
è Ĥ
ç½ Ĺ
ç§ ĳ
ç ł
æ Ł
çº ¿
ç Ļ
å¼ ı
ç± ³
ç« Ļ
éĩ į
å® ī
é Ł
èģ Ķ
æ ģ
ç Ĥ
ä¸ ¤
é Ĥ
ç³ »
æ¯ Ķ
æ ¼
ç ¼
1 0
ç Ī
æ ¡
ç ¦
ç ¨
å ¢
æĢ »
éĢ ī
è¿ Ĳ
åĬ Ľ
åİ ¿
åħ °
å£ «
çĽ ¸
éĻ ¢
æ ¹
åŁ º
åħ ³
ä¸Ń åĽ½
éĥ ½
æ² »
åİ Ł
è¾ ¾
åŁ İ
ç» Ł
å ģ
æł ¼
èµ ·
ç» Ħ
æŃ £
æĺ İ
é »
çº ¦
åı ·
èĭ ±
æ° ´
å½ ±
å° ¼
æĪ ĸ
å± ŀ
åº ľ
å ¡
æİ ¥
åı ¸
è® ¡
éĩ ĳ
çĽ ®
é¦ ĸ
çİ ĭ
è® ®
æı Ĳ
åį İ
ç Ħ
ä» ¬
éĺ ¿
åĽ Ľ
ä» İ
åĪ Ĺ
åħ ĥ
ç ģ
æ¼ Ķ
å· ´
ç¾İ åĽ½
è ĳ
0 0
å¦ Ĥ
äº §
è¯ Ń
å Ģ
é ħ
åı Ĥ
åı ²
éĩ ı
å ŀ
æĶ ¹
å¸ ¸
å¥ ³
æ ®
æ ¶
éķ ĩ
åĲ ĳ
è £
è į
åĬ ¡
æŀ Ĺ
1 8
åĮ ħ
æ¸ ¯
å ¨
) .
æĽ ¾
æĹ ł
èİ ·
äºº åı£
çĦ ¶
äº ¤
å Ķ
å® ŀ
å¿ ĥ
é Ķ
åı Ĺ
é ľ
1 2
ä½į äºİ
ç» ´
æĦ ı
åİ Ĩ
ç» ĵ
èī ²
çķ Į
çº §
ä¹ Ĳ
æī ĭ
å§ ĭ
ä¿ Ŀ
å§ Ķ
åĪ Ļ
ä¹ ī
æ Ĵ
å¤ Ħ
åħ ļ
è§ Ĩ
ä¹ ¦
ç ´
åĽ ¢
0 å¹´
ç® ¡
å½ ¢
ç¨ ĭ
æ £
å¯ ¼
å ĭ
1 å¹´
è® ¤
æį ®
ç± »
æ² ³
å° ±
åį ¡
éĹ ¨
æ ·
æĮ ĩ
æľĪ 2
çĽ ´
20 2
5 å¹´
åį ķ
é Ĵ
ç ĥ
è¯ ´
éŁ ³
äº Ľ
å¹ ¿
åŀ ĭ
å· ²
åº Ķ
4 å¹´
æĺ Ł
éĽ Ĩ
ç¤ º
å¥ ¥
æµ ģ
é¢ Ĩ
ç¤ ¾
å ł
ä¼ ł
æ º
æĮ ģ
é ²
åĵ ģ
çĤ ¹
è º
æł ¡
æĽ ´
2 å¹´
å± ķ
å¤ «
3 å¹´
e r
ç ĭ
åĽ ŀ
è Į
ä¸ ¾
æĻ ®
1 1
æ¸ ¸
ä¸ ĩ
ç§ ¯
8 å¹´
èº «
6 å¹´
æ ¢
ç© º
åı į
é ª
èµ Ħ
æĶ¿ åºľ
æĥ ħ
å® ĺ
ç ¡
çº ª
äº Ķ
æ´ »
è¿ ĺ
é ¾
åĩ »
a n
æĶ ¯
é¦ Ļ
æł ĩ
æĬ ¥
æ »
o r
å¸ Ī
åĲ Ħ
æ¹ ¾
éĵ ģ
åĪ «
7 å¹´
è Ĵ
éĢ ł
å¤§ åŃ¦
çº ³
è Ļ
åı ĸ
ä½¿ çĶ¨
ç Ĭ
åı ¤
å² Ľ
ç ĸ
æĪĲ ä¸º
å¤ ª
æĹ¥ æľ¬
i n
åī §
å± Ģ
åħ¬ åı¸
åı ĺ
æĭ ¬
ç ı
æľ ¯
åŃ Ĺ
å ķ
å¥ ¹
ç Ŀ
æĹ ı
ä¸ ĵ
åĳ ½
åĮħ æĭ¬
åľ° åĮº
éĿ ŀ
å¸ ¦
èĳ Ĺ
åĽ½ å®¶
å¼ ł
è® º
è¿ ĳ
åį ³
å¼Ģ å§ĭ
çł Ķ
æľ Ŀ
æ± Ł
åĨ ³
ä¿ ¡
è§ £
æ´ ²
æĽ ²
èĬ Ĥ
ç Ĺ
ç¥ ŀ
é£ İ
o n
çī ĩ
å° ĳ
èģ Į
ä» ¶
ç ²
è¿Ľ è¡Į
ä¼ Ĭ
åĽ ¾
è Ħ
æľ ª
ç ĵ
è® °
åı ª
ç ¿
å¹³ æĸ¹
å® ĥ
æľĪ 1
æł ¹
æĿ ĥ
æ² ¡
çŁ ³
éĻ ħ
ç¬¬ ä¸Ģ
èĭ ı
æ¯ ı
ç¼ ĸ
è§ Ĵ
è½ ¬
åı¯ ä»¥
æĶ ¾
æ³ ¢
æ ¨
äº ¬
ä¾ ĭ
19 9
æĶ ¶
æĿ ¡
çļĦ ä¸Ģ
åĪ Ĵ
è° ĥ
é¾ Ļ
åħ¬ éĩĮ
é¦Ļ æ¸¯
åĳ ¨
åħ ī
åķ Ĩ
åĪ Ľ
æ¸ ħ
è¿ ŀ
åĪ Ŀ
9 å¹´
æ° Ķ
æŃ Į
ç¦ »
æĿ ĳ
å ĸ
æ ĳ
çī Ī
éĻ Ĩ
éĥ¨ åĪĨ
ç© ¶
å Ļ
å¾ Ģ
äºº æ°ĳ
å¤ ´
èİ· å¾Ĺ
è ±
åŃ £
çŁ ¥
ä¸ĸ çķĮ
åı Ī
éĿ¢ ç§¯
åħ Ī
çłĶ ç©¶
åİ »
å¯ Ĩ
æŀ Ħ
åŁ Ł
æ´ ¾
ä» ¤
æī ĵ
ç» Ń
æŀ ľ
åĬ ŀ
å¼ º
éļ ı
æŁ ¥
å¨ ģ
ä¸» è¦ģ
çĻ ½
åĨ į
åħ µ
äº ī
åº §
æŃ ¦
ä»ĸ ä»¬
ç¦ ı
å¤ į
è§ Ĥ
èĤ ²
è£ ħ
åİĨ åı²
å® Į
åħ Ń
l a
åĻ ¨
è®¤ ä¸º
å¼ ķ
é¡ ¹
æ® µ
æ ļ
é¢ ĺ
è¶ ³
åı° æ¹¾
åĵ Ī
æ²¡ æľī
ä¸ Ķ
æĿ İ
ç ĳ
å¡ Ķ
æľ į
éĻ ¤
å± ħ
å® £
æ¬ §
1 5
æĪ ı
ç½ ĳ
æĴ Ń
ç» Ī
è§ Ħ
æĭ ħ
åį ı
èĲ ¥
äº ¦
è® ¸
æİ ¨
è ı
çĵ ¦
åľ £
ä» ½
å§Ķ åĳĺ
å¥ ĸ
åľ Ł
æ¡ Ī
ç½ ®
å½ ķ
ä¿ ®
è´ ¨
è ¨
äº ²
èĲ ¨
è¨ Ģ
çĶ ·
å Ħ
a r
æº Ĳ
ç¬¬ äºĮ
åŃ ĺ
å¸ Ŀ
ä»£ è¡¨
éĹ ®
åĭ Ĵ
ä» Ĭ
è¯ Ħ
åĽ Ń
æ ¥
e n
åħ ·
ç» Ļ
æĬ ¤
ä¾ Ľ
éĽ ·
è¿Ĳ åĬ¨
é¦ Ĩ
æŃ »
æĬ ķ
åħ «
çĪ ±
æĶ¿ æ²»
çĶ± äºİ
æ³ķ åĽ½
éĢ Ł
åħ¶ ä»ĸ
åį ĥ
åĩ Ĩ
å® Ĺ
åį °
å¢ ŀ
è¾ ĥ
è¶ ħ
ä¼ ¯
å¢ ĥ
æ´ Ľ
å¸ Į
æ± Ĥ
åĬ Ł
è§ ģ
çĶµ å½±
çĶ »
çļĦ ä¸Ģä¸ª
æ± ī
1 6
èĩ ´
( ),
åĿ ĩ
åį ĩ
å¤ ĩ
åı ¦
è¯ º
åĬ ©
åį «
å·¥ ä½ľ
åį ļ
ç Į
çİ ĩ
èİ ±
éĺ ³
åĦ ¿
è¾ ¹
ä¼ Ĺ
å¥ ½
è Ĺ
é ¥
å ĥ
å® ¢
å® ¹
èĪ ª
ä¼ ¦
åĳ Ĭ
19 8
æĹ ©
æ¨ ¡
ç ª
ä¹ Į
åĲ ī
è¯ ķ
ä¿ Ħ
ä½ľ ä¸º
ä»¥ åıĬ
æİ Ĵ
åī ¯
èī º
æł ·
æµ İ
å¾ Ī
çģ «
çİ ¯
æķ ħ
å¡ ŀ
æĪ ĳ
æĶ »
åĽ½ éĻħ
é» Ħ
çĶ °
ç¾ ¤
å· ±
èĬ ±
åı¯ èĥ½
æ¯ į
ä¹ Ŀ
çĪ ¶
æĸ ½
åĵ į
çı Ń
è ħ
åĽ ´
ä¸Ń å¿ĥ
è¡¨ ç¤º
1 7
æĬ Ģ
æķ ´
é² ģ
æ² Ļ
ç» §
åĮ »
æĭħ ä»»
3 0
å¤ ±
å¸Ĥ éķĩ
çŃ ĳ
èĲ ½
çĹ ħ
ä¸Ń åįİ
åħ ´
è¯ ģ
ç» ĩ
) ãĢģ
ç³» ç»Ł
æ ¦
è´ £
ä¹ ¡
å¿ Ĺ
å¸ Ń
éĩ ĩ
éĺ ²
èĪ °
å® ¤
è Ń
å± Ĥ
æī ĺ
ä¸Ń çļĦ
éĿ Ĵ
çĽ Ł
ä¸ ĥ
æĦ Ł
èŃ ¦
éľ Ģ
çĻ »
åĨ ł
æĹ¶ éĹ´
çĭ ¬
èĭ± åĽ½
è´ Ł
åį Ĭ
é º
æ¹ ĸ
æ¸¸ æĪı
éĢļ è¿ĩ
å£ °
çĶµ è§Ĩ
å§ Ĩ
éĤ £
çĻ ¾
éħ į
ç ¢
èĩª å·±
åı Į
è½¦ ç«Ļ
éĻ Ī
æł¹ æį®
a l
åł Ĥ
é» ĳ
åıĳ çİ°
æĺ ĵ
çĥ Ń
çļ ĩ
åĨ Ļ
å½ĵ æĹ¶
è¡Į æĶ¿
( ,
ç¡ ®
çº ¢
çĬ ¶
é£ ŀ
åıĳ å±ķ
æĪĲ ç«ĭ
æģ ©
ä½ ķ
å¤ ı
æľŁ éĹ´
æ· ±
ä» į
èĢ ĥ
æŀ ģ
ä½ ı
åį ł
ç ħ
é ±
åħ± åĴĮ
æ£ ®
è¡ Ĺ
1 4
è¶ Ĭ
éĻ Ĳ
å¤ ®
å° Ħ
é ¸
é± ¼
çĶ ²
åĲĮ æĹ¶
æŃ ¥
a t
è®¾ è®¡
ç¤¾ ä¼ļ
âĢ Ķ
é£ Ł
è® ©
å»º çŃĳ
äºİ 19
åĥ ı
åŁ ĥ
è± ¡
ä¹ĭ ä¸Ģ
æĽ ¼
æĿ Ģ
å¯ Ł
è´ ¹
èĮ ĥ
å± Ĭ
æİ §
æī ¹
ç¥ ¨
ä» ħ
æ ½
è´ Ŀ
æĻ ¯
ç»Ħ ç»ĩ
æĸ Ļ
æ Ĥ
åŃ¦ éĻ¢
å¥ ĩ
e s
ä¸į åĲĮ
æ´ ĭ
å² ģ
åıĤ åĬł
æµ ĭ
çķ Ļ
èĢ ģ
ä¸Ń å¤®
å§Ķåĳĺ ä¼ļ
è¿ ª
åĨ ľ
æ¥ ¼
æĸĩ åĮĸ
ä½ İ
æŃ ¢
ä¸ĸ çºª
å· Ŀ
å½± åĵį
æ¯Ķ èµĽ
èĥ ľ
éĿ ©
è¯ į
åĵ ¥
ç§° ä¸º
å¾ ĭ
çī Į
é¡ ¿
æĥ ³
å±ŀ äºİ
æİ Ī
f or
æķ Ī
1 3
å ĺ
æ³ °
è¾ ĸ
ä¾ ¿
å¹³æĸ¹ åħ¬éĩĮ
æ ¤
æľ ¨
éĻ į
åĩ ł
ç§ »
è¿ °
çľ Ł
i c
æ ħ
åģ ľ
æī į
æ° ı
éĵ ¶
æ¡ ¥
( )
èĴ Ļ
æĪ ¿
å¿ µ
æĺ ¾
éŁ³ ä¹Ĳ
æī ¿
æĢ ģ
çĿ Ģ
è´ ¥
âĢĿ .
å ©
ç´ ¢
æ ¾
åħ±åĴĮ åĽ½
åº ķ
åº ·
åº ĵ
é¢ Ħ
ä¸» ä¹ī
é Ń
m u
åŃ¦ æł¡
å¾ ģ
ç´ ł
æ´» åĬ¨
çī Ļ
è¾ ĳ
çľ ĭ
å¼ ¹
åĶ ±
åħ ¸
ä½ľ åĵģ
æŃ£ å¼ı
æ¶ Ī
æıĲ ä¾Ľ
åĪ© äºļ
ç® Ģ
è®¡ åĪĴ
åĩº çİ°
ç½Ĺ æĸ¯
è½ ½
ä¹ ł
ä»ĸ çļĦ
æīĢ æľī
æģ ¯
ä» ·
å ³
ä¹ĭ éĹ´
éĻ Ħ
ç»ı æµİ
ç®¡ çĲĨ
åıĳ çĶŁ
æľĢ ç»Ī
éĵģ è·¯
çł ģ
ãĢį .
çĳ ŀ
æī §
æĹ¶ æľŁ
è¿ ľ
i s
åĿ ¦
æĪ ·
ä¸Ģ ç§į
å¹ ²
åı ĭ
åŁİ å¸Ĥ
åĨ µ
ç® Ĺ
ä¾ §
æķĻ èĤ²
ç¥ ĸ
éĢ Ģ
éŁ ©
å® Ī
æ» ¡
åĲİ æĿ¥
äº ĳ
æ³ ¨
èĪ ¹
mu la
å½ĵ åľ°
è¯ ·
è¯ Ŀ
æ¸ ©
éĤ ¦
for mula
åĢ Ļ
ä½ Ļ
ä½ Ľ
æ Ĳ
æĬ Ĭ
ç« ł
ä¸ ģ
ç² ¾
i t
æĬ Ĺ
å® ģ
çĽ ĳ
19 7
åĪ¶ ä½ľ
åł ¡
19 4
20 å¹´
æľ Ľ
a m
æĹ §
è´Ł è´£
å¾· åĽ½
å· ¦
æĪĲ åĳĺ
ä¸Ĭ çļĦ
æĭ ¿
éĹ® é¢ĺ
æľ Ĺ
éª Į
h e
åĬ ¿
è¿Ľ åħ¥
æĢ Ŀ
ä¸ ´
è®¸ å¤ļ
åĪ ĺ
å ´
çª ģ
é ¹
çł ´
å¿ «
å® «
æĹ ħ
ä¾ Ŀ
åİ ĭ
åº Ħ
ç¬¬ ä¸ī
åĲį ä¸º
èİ «
æľĢ åĲİ
ä¼ ¼
æĪĺ äºī
å¯ Į
ä¸Ģ äºĽ
æ¢ ħ
çĿ £
åĢ ¼
åģ ļ
åħ¨ åĽ½
æĶ¯ æĮģ
å° ģ
èĹ ı
æ° ¸
åĲ «
å» ¶
æĸ Ĺ
èĴ Ĥ
5 0
æĭ Ķ
çĶŁ æ´»
åĽł ä¸º
åİ ħ
ä¹ĭ åĲİ
åį ¢
äºº çļĦ
çħ §
äº ¡
æľį åĬ¡
å¼ Ĺ
éļ ¾
l e
åİ Ĥ
ç» Ĩ
æ¾ ³
åĪ ¤
æ ĵ
æł ¸
æŀ ¶
ä¸ ¹
å¤§ çļĦ
éģ Ĺ
ä¼ ¤
å°¼ äºļ
å®£ å¸ĥ
çļ ®
èĻ ½
å½ Ĵ
åį° åº¦
åı ³
ä¿Ħ ç½Ĺæĸ¯
å·² ç»ı
è¯ Ĩ
åº Ĩ
åıĤ ä¸İ
åľ° æĸ¹
ä¸¾ è¡Į
æĸ Ń
åħ³ ç³»
åıĳ è¡Į
éĹ »
19 6
ç Ĩ
è½ ®
é ½
åı ¶
ä¸ ½
æĿ °
åº Ĺ
æĸ¹ éĿ¢
ç¤ ¼
åĶ Ĳ
åĨ³ å®ļ
å·¥ ç¨ĭ
ï ¼
éĩį è¦ģ
è Ľ
è¶³ çĲĥ
r o
åĮĹ äº¬
åĪ ĩ
ä¸¤ ä¸ª
ä¼ ĺ
çŃ ĸ
ä¸ ¥
ä¸Ĭ æµ·
åº Ń
èµ °
ãĢį ,
å¿ ħ
è¯ »
æĭ ¥
ç» Ŀ
éģ Ń
0å¹´ ä»£
å° ļ
èģĶ åĲĪ
äºº çī©
å¼ Ĥ
r e
åĺ ī
éĥ ¡
äºĭ ä»¶
ç» ĥ
æį ¢
åĮĹ éĥ¨
åĨł åĨĽ
é© »
å½ ¹
èµ «
åŃ¦ å®¶
èĬĤ çĽ®
æ¤ į
å² ¸
éº ¦
éĩ İ
åŃ¦ çĶŁ
å¼ Ł
ä¼ļ è®®
19 5
æ² ¹
äººæ°ĳ åħ±åĴĮåĽ½
æĬĢ æľ¯
éĢ Ĳ
åĶ ®
èĥ Į
æ¯ ķ
æĿ ¾
åĪ° äºĨ
åĬł åħ¥
é ³
å¯ º
00 0
èī ¾
è ĵ
åį ´
ä¿Ŀ æĬ¤
e l
åĪĹ è½¦
ä¹ ħ
æĢ» ç»Ł
æ¬§ æ´²
ç½ ²
20 19
èı ²
éļ Ĩ
è®¾ æľī
æĻ ļ
é ¼
å¹³æĸ¹ åįĥ
èĪ ¬
s t
å ª
åĪĨ åĪ«
æĿ¥ èĩª
ç« ¯
20 20å¹´
çĽ® åīį
ç ¯
æĺ ¥
çŁ Ń
éĢ ģ
åħ ¹
åĪĨ å¸ĥ
åħĭ åħ°
éľĢ è¦ģ
ç³» åĪĹ
ä¹ ĺ
ä½ ³
å° ½
æĿ Ł
å® Ŀ
å®Į æĪĲ
ä¸Ńåįİ äººæ°ĳåħ±åĴĮåĽ½
éĢļ å¸¸
é¡ º
æ°ĳ åĽ½
ä» Ģ
åĲĮ å¹´
æ² ¿
æľ «
æĹ Ĺ
å»º ç«ĭ
åĲ ¯
èį ī
åįĹ éĥ¨
åº ı
åŃĺ åľ¨
éĺ ¶
éĺ µ
èį ¯
å¯¼ èĩ´
èĢ ¶
éĽ Ħ
éħ Ĵ
æļ ´
æĸ¯ çī¹
æ¯ Ľ
æĪĲ åĬŁ
i on
æ³ ½
åħ ¼
é¢ ĳ
äºİ 201
åħ± æľī
åĨ ²
è½ »
è¦ģ æ±Ĥ
æĳ Ħ
çĭ¬ ç«ĭ
è· Ŀ
çĦ¶ èĢĮ
2 5
ç»Ħ æĪĲ
ä¾ĭ å¦Ĥ
æĳ ©
è¿Ļ äºĽ
æľĢ é«ĺ
éĶ Ģ
æ¬ ¾
è¿Ļ ä¸ª
è¾ ĵ
åįķ ä½į
èĻ½ çĦ¶
æµ· æĭĶ
12 æľĪ
å¼Ģ åıĳ
æĭ¥ æľī
å¸ ķ
èĩª çĶ±
ãĢĭ (
ãĢĭ ãĢģ
çģ µ
åŃ Ļ
ä¸ĵ è¾ĳ
æĺ¯ åľ¨
çŃ ¾
åª Ĵ
çĽ¸ åħ³
ä¹Į åħĭåħ°
ç± į
å© ļ
çİ Ľ
æĥħ åĨµ
çĶ¨ äºİ
ç½ ª
19 3
é¡ »
èīº æľ¯
æĺ¯ ä¸Ģ
æĿ Ĥ
äºº åĳĺ
çº ½
é¥ °
æ£ Ģ
éĽ ħ
e t
é¡ ¶
çĲĥ éĺŁ
âĢĿ ,
éĢī ä¸¾
å¯Ĩ åº¦
æĿ ¨
èģĶ çĽŁ
éĩĩ çĶ¨
æŀ ª
i l
å Ĥ
æıĲ åĩº
2 4
ä» ĭ
äºĨ ä¸Ģ
åīį å¾Ģ
åĬ ³
ç§ Ģ
åħ į
o u
7 æľĪ
çķ ¥
åıĹ åĪ°
æ² ĥ
å· ®
æĭ į
éĢ ı
è¿ ½
å® ³
äº ¿
æ ¿
ãĢĭ ,
å· ¡
o l
æĸ¹ å¼ı
9 æľĪ
çĽ ĸ
åĩ ı
èĭ ¥
è§Ĵ èī²
è´ ¢
ä¸º äºĨ
10 æľĪ
éĴ Ł
è¢ Ń
8 æľĪ
è¿ ģ
éĩ Ĭ
åĽ½ æ°ĳ
äºĮ åįģ
æĿ ¿
èī ¯
a c
å° ¾
åĲ ´
å¤§ éĻĨ
è® Ń
è ŀ
åħ· æľī
èį £
æĿ ¯
åĲĪ ä½ľ
3 æľĪ
è° ·
çĪ Ĩ
éħ ¸
äº¤ éĢļ
æķ £
æı ´
æł ĳ
æŃĮ æĽ²
åĩº çīĪ
éĽĨ åĽ¢
èģĶ èµĽ
äº§ çĶŁ
ç £
æĺ ł
çļĦ å¤§
é¦ĸ æ¬¡
å® ĭ
ä¼ ģ
è¯ ĳ
è´ Ń
äº Ī
æķ° æį®
åĸ Ħ
± ä¹Ĳ
å¾ ®
é» İ
æ´ ¥
åħ¶ ä¸Ń
èĤ ¡
å° º
è¡ ¥
çī¹ åĪ«
æ¯ķ ä¸ļ
è® ¿
å± ĭ
ç»§ ç»Ń
å® ¡
è´ µ
äº Ĵ
è¡ Ģ
é«ĺ åº¦
é¡¹ çĽ®
ç»ĵ æĿŁ
6 æľĪ
æĻ ĭ
è½ ¨
çĶŁ äº§
çĥ Ī
åģ ĩ
åĽł æŃ¤
è® ¯
éŁ ¦
ã ĥ
ãĢĭãĢģ ãĢĬ
åħ »
éĻ ©
ç»ĵ æŀĦ
èĩ £
5 æľĪ
å¸Ŀ åĽ½
é¢ Ŀ
æı ı
æī ©
2 3
éĥ¨ éĺŁ
è¥¿ äºļ
ä¸ª äºº
è¯Ń è¨Ģ
æķ ĳ
äººåı£ å¯Ĩåº¦
æ¯ Ĵ
æİ§ åĪ¶
é² ľ
å¯¹ äºİ
åĸ ľ
ç§ĳ åŃ¦
æİ¥ åıĹ
å½¢ æĪĲ
ç« ŀ
1 æľĪ
åıĸ å¾Ĺ
ä»» ä½ķ
æĹ¶ ä»£
æµ· åĨĽ
è¡Į åĬ¨
ä¸» å¸Ń
åĮº åŁŁ
æĮ ¥
å³ °
éĿ¢ç§¯ ä¸º
æķħ äºĭ
å¤ º
æĿ ľ
æ°ĳ ä¸»
èĪ ŀ
æ¦ Ĥ
éĶ ¦
è¯ Ĺ
åĩº çĶŁ
æĹł æ³ķ
è® ²
4 æľĪ
éĢ Ĥ
11 æľĪ
éĢ Ķ
çļĦ æĺ¯
ä¹Ł æĺ¯
æĭ ľ
ä¸ °
æľº æŀĦ
çİ ©
çĶ ļ
å¢ŀ åĬł
åĮº çļĦ
éĢł æĪĲ
4 0
2019 å¹´
æľ ±
å¸ ģ
çĸ Ĺ
é½ Ĳ
æ¢ ģ
èį ·
è¾ Ĩ
éĻĦ è¿ĳ
ä¸» æķĻ
è¶ħ è¿ĩ
çļĦ äºº
ç§ ĺ
å» ·
é¢Ĩ å¯¼
æĮ ī
ä¼ł ç»Ł
ç»ĵ æŀľ
ç½Ĺ é©¬
å¾ Ħ
ä»¥ ä¸ĭ
ç ĩ
å® ¾
éļ ¶
202 1å¹´
ç ¦ģ
æĴ ¤
ä¸Ń åħ±
åĿ Ģ
æĿ Ĳ
åį Ī
in g
è´ §
åĩ ¯
åĬ¨ çī©
æ¸ Ĳ
çĬ ¯
èĥ ¡
202 2å¹´
a s
åĨĽ äºĭ
2 1
ç« ¥
æķ ¦
èĪª ç©º
åľ Ĩ
ä½ ©
çĽ Ĭ
çļĦ æĹ¶
ä» ª
å¤ Ł
æłĩ åĩĨ
o m
åıĳ å¸ĥ
5 æĹ¥
èģ ļ
è° ¢
10 0
æĸ° éĹ»
6 0
éª ¨
æ· ·
çĮ ®
çĽ Ľ
åĨħ çļĦ
è¿ Ķ
åıª æľī
ãĢĭ .
ä» ģ
éĥ İ
çī Ľ
çļ Ĩ
æķ° éĩı
æŁ Ĳ
è® ¨
å°± æĺ¯
ç¿ °
åĪ ĳ
ç© Ĩ
çĤ ¸
æį ķ
éĺ¿ å°Ķ
å¨ ľ
éĿ© åĳ½
èĮĥ åĽ´
äºİ 200
c h
å¤§ åĪ©
å¸ ®
åªĴ ä½ĵ
e d
éĻ¤ äºĨ
å® ½
å¾Ĺ åĪ°
æľº åľº
å¥³ æĢ§
èĮ ¨
å®ī åħ¨
è°ĥ æŁ¥
è¿ĩ ç¨ĭ
è§ ī
æİ ¢
ä¹ĭ åīį
æł¼ åħ°
ç»ı è¿ĩ
çĤ ®
æĻ º
åº Ļ
åĨħ å®¹
åħ¬ åĽŃ
çĪ¶ äº²
å¹ ķ
æĪ ª
åĲ ¦
éģ ĩ
å¤ ľ
: âĢľ
(, ),
éŁ© åĽ½
çĶ· åŃĲ
ä¹ Ķ
åįģ äºĮ
éľ į
èµ ŀ
åħ ħ
è Ķ
æĭ ©
2 2
è½ ¯
éĩį æĸ°
å¥³ åŃĲ
å¹³æĸ¹åįĥ ç±³
åĪ »
æīĢ ä»¥
éľ ²
èµĽ äºĭ
æĽ ¿
7 æĹ¥
ä¼ ĳ
å° ¤
ç§ ģ
åĪ º
ä½į ç½®
å¹³ åĿĩ
è ĸ
å «
èĩªå·± çļĦ
çİ ī
è¿ĲåĬ¨ åĳĺ
æŁ ĵ
çºª å¿µ
å±ħ æ°ĳ
6 æĹ¥
201 0å¹´
ä¸Ģ èĪ¬
é¸ Ł
åĪĽ ä½ľ
åıĳ è¡¨
åº Ł
ä¸Ģ åĲį
ç¼ º
éĿ ł
u s
ä¸ Ŀ
ã ģ
éĴ Ī
æķ Į
åĢ Ł
æĺ Į
çİ° ä»£
è®¾ ç«ĭ
ç» ©
è¯ ī
æº ª
æĬ µ
éĤ ®
æľī éĻĲ
èģĶ éĤ¦
åĲ Ľ
å· ¨
è ľ
åĲ ¸
å® ĩ
è¥¿ çıŃ
è· Ł
çĪ µ
ä¹ ±
å±ŀ çļĦ
èĵ Ŀ
è¥¿çıŃ çīĻ
éª ĳ
å¾ ¡
2 8
å® ª
æĹ¶ çļĦ
3 1
çľ ¼
è®® ä¼ļ
åıį å¯¹
æ¼Ķ åĳĺ
æ¤į çī©
ä¸Ģ çĽ´
åĿ ¡
æ® ¿
åħ± äº§
æķĻ æİĪ
æį Ł
å¾ Ĵ
éĽ ª
æĿ¥ çļĦ
å·¥ ä¸ļ
åĽ º
æ°ĳ æĹı
è¯ ¸
ä¾ µ
åĪ Ĭ
çīĪ æľ¬
åĮ ¹
æľī åħ³
ç¬¬ åĽĽ
éĢ ĥ
åħ¬ è·¯
çĽ´ æİ¥
çİ° åľ¨
éļ Ķ
202 3å¹´
è ª
å»º è®¾
4 æĹ¥
èģĮ ä¸ļ
æī ¾
çİ¯ å¢ĥ
è° ĭ
ä¸¾ åĬŀ
èĦ ĳ
æ¶ ¯
éļı åĲİ
ä¸Ń åŃ¦
3 æĹ¥
ä¹ İ
éĢī æĭ©
åĨĽ éĺŁ
çĹ ĩ
è¿ĺ æľī
éĿŀ å¸¸
ç¿ »
æ¬ ¢
èĭı èģĶ
åıį åºĶ
ç¼ĸ çłģ
ä½ ł
çĶ ³
åħ¬ å¼Ģ
d e
ä½ĵ èĤ²
å£ ¤
éĥ ĳ
å² ©
éĵ¶ è¡Į
æ¦ ľ
è£ ģ
èµĦ æĸĻ
åħ± åĲĮ
æ± ĩ
å½¢ å¼ı
åĨ³ èµĽ
ç© ¿
æĪĺ æĸĹ
è¡Į æĺŁ
åħ Ħ
åı ¬
éĥ½ æĺ¯
åĨ °
æĺ¾ ç¤º
éĤ »
æ¼ «
åįı ä¼ļ
2 æľĪ
æĢ ¥
æ¿ Ģ
åĲį ç§°
. âĢĿ
è·Ŀ ç¦»
2 7
o f
å¥ ī
æĸ¹ æ³ķ
ç» ľ
éķ ľ
æĪ Ī
åŁ ¹
u n
åĶ ¯
æİ¨ åĩº
Ġ åľ¨
Ġ 201
e Ġ
Ġ S
Ġ 200
Ġ C
Ġ M
Ġ çĶŁ
Ġ A
æľĪ1 æĹ¥
Ġ åİĨåı²
ĠçĶŁ å¹³
å¹¶ ä¸Ķ
Ġ P
ä»ĸ åľ¨
8 æĹ¥
Ġ t
è¿Ļ ç§į
19 2
è¿Ļ ä¸Ģ
å¹¶ åľ¨
Ġ B
l t
æŃ¤ å¤ĸ
ä½Ĩ æĺ¯
åľ° çĲĨ
z h
Ġ T
9 æĹ¥
æĺ¯ ä¸Ģä¸ª
g t
ä¸į è¿ĩ
a Ġ
åı¦ å¤ĸ
æĺ¯ ä½įäºİ
s Ġ
å°ı æĹ¶
y Ġ
å¦Ĥ æŀľ
d Ġ
è¡Į ä¸º
åĮº ä¸º
åħĭ æĸ¯
åĲį çļĦ
ä¹Ł æľī
è¯¥ åľ°
t Ġ
202 4å¹´
è¿Ļ æĺ¯
ä¸ī å¹´
19 0
å¤§ éĩı
æĶ¹ ä¸º
Ġ 199
ä¸Ģ èµ·
Ġ åľ°çĲĨ
è¯ ¾
å°ı è¯´
ç¬ ¦
èĥ ŀ
åĪ© çĶ¨
å¤ļ æķ°
åĲ ¬
éĥ¨ éķ¿
æľī ä¸Ģ
æ¯ ģ
è®® åĳĺ
èĬ ¬
è¿ «
ç¾İ åħĥ
ä¹¦ è®°
ä¼ģ ä¸ļ
è® ¢
è° Ī
æĸ° çļĦ
åĳ ¼
é» ĺ
åĮħ åĲ«
èĩª æ²»
ä¸į æĺ¯
å¾ ħ
æ³ķ å¾ĭ
éĽ ¨
é Ĩ
ç®¡ è¾ĸ
æĮĩ æĮ¥
åĳ Ī
èĤ ¯
å°Ķ æĸ¯
åģ ¥
å®Į åħ¨
ä¸» ä»»
æĢ Ģ
èĢ ³
åĪĨ ä¸º
åı° åĮĹ
ä¸Ńåįİ æ°ĳåĽ½
Ġ æľ¬
ï¼ į
çĸ ĳ
æ³ Ľ
å®¶ åºŃ
èµ µ
åĿ ļ
æĺ¯ çĶ±
ä¸ľ åĮĹ
æ³ķ éĻ¢
çĽ´ åĪ°
äºº ç±»
å¤Ħ çĲĨ
èİ ī
éĻ µ
æĦ ¿
âĢĶ âĢĶ
ã Ĥ
æĵ į
æĹ ĭ
æĪĳ ä»¬
å®¶ æĹı
èĩª çĦ¶
çĶŁ æ¶¯
å§ ĵ
åı¦ ä¸Ģ
åŃ¦ ä¹ł
åĨį æ¬¡
r i
æ¶ ī
çĶµ åŃĲ
æŀ ļ
æĮĩ åĩº
é¢ Ĺ
æĶ¿ çŃĸ
åħ³ äºİ
çĶŁ çī©
æĪ ´
æ¯ «
åŃ ©
èĦ ±
åĲİ çļĦ
æĢ§ çļĦ
åĬ¨ çĶ»
æī§ è¡Į
çĶļ èĩ³
çĲĨ è®º
Ġ L
è¡¨ çİ°
èŀ į
: ãĢĮ
ä¸Ģ å¹´
å°Ĩ åĨĽ
å¿ħ é¡»
åĮ» éĻ¢
å®ĥ ä»¬
æļ Ĥ
åŁº ç¡
åį ±
ç» ¿
ä»¥ æĿ¥
å¦ »
ç§ ĭ
çĽ ĺ
ä¸ľ éĥ¨
æľĢ ä½³
æģ Ĵ
å°½ ç®¡
å¢ĥ åĨħ
èĪ į
o w
æī İ
æľĢ åĪĿ
åĿ Ĳ
è Ŀ
é¡ ¾
æĸĩ åŃ¦
åŁºç¡ Ģ
åį ·
æ¨ ª
å½ĵ ä¸Ń
ä¸º ä¸»
ç¾ ½
æŁ ı
ä¸ŃåĽ½ å¤§éĻĨ
ä¹ Ī
åĬ ª
å®ĺ æĸ¹
Ġ R
ç¿ ¼
ç´ §
åįļ çī©
èī ĩ
åķĨ ä¸ļ
ç¯ ĩ
çľģ ä»½
è¾ Ľ
æĶ» åĩ»
æ» ¨
æĦı å¤§åĪ©
è´ ¡
åħ¬ åħ±
å¥ ı
ä¹ °
çī© ç§į
æŃ» äº¡
æĴŃ åĩº
u r
3 5
æ¡ ĳ
éĴ ±
æĬ¥ åĳĬ
ç±» ä¼¼
åĿ ı
200 1å¹´
æĻ® æŁ¥
éŃ Ķ
ç¼ ©
æľĿ é²ľ
æĶ¿æ²» äººçī©
æ´ ª
ãĢį (
è¯¥ åĽ½
å¸Ĥ åľº
æĹ© æľŁ
èĥ½ åĬĽ
¤ Ĳ
æ½ ľ
å®ŀ éĻħ
8 0
2 6
äºļ æ´²
è Ĩ
æıı è¿°
å¢ ĵ
è¯ ¯
201 1å¹´
ä¸ĭ çļĦ
æ¼Ķ åĩº
è§Ħ æ¨¡
Ġ D
ä¹ĭéĹ´ çļĦ
çº¦ ç¿°
åĽ¢ ä½ĵ
åĬł æĭ¿
åħ¶ åĲİ
éģ ¿
å¿ ł
åŃ¦ åĲį
åħ¨ çĲĥ
ç» į
æ® ĸ
åİ» ä¸ĸ
æĭį æĳĦ
å¤§ ä¼ļ
æł ĸ
æµ·æĭĶ é«ĺåº¦
çģ Ń
è¥¿ éĥ¨
å¤ĸ äº¤
, ãĢĬ
Ġ äººåı£
çļĦ åľ°
å¹¿ ä¸ľ
éľ ĩ
æµ Ļ
t er
åĪ¶ éĢł
éĵ ľ
èĥ½ å¤Ł
ä¸¥ éĩį
å» ī
ç¦» å¼Ģ
ç« ¹
çĸ «
åŁº æľ¬
å®Ĺ æķĻ
æģ ¶
æ± ½
å® ľ
è¿ ·
ä¼ į
çºª å½ķ
é³ į
ä½ľ çĶ¨
è¿ ¹
i g
éĹ Ń
å¥ Ĺ
æĮģ ç»Ń
Ġ G
äºİ 18
åĿ Ĺ
åģ ı
äºİ æĺ¯
ä» ĺ
è®¡ ç®Ĺ
è·¯ çº¿
200 9å¹´
æī ¬
ç¼ĸçłģ ä¸º
åħ±äº§ åħļ
äºĭ åĬ¡
åŃ Ķ
å¹¶ ä¸į
ç©º éĹ´
çļĦä¸Ģä¸ª å¸Ĥéķĩ
èµ ĸ
çļĦ ä¸»
è¡ £
è¿ İ
201 6å¹´
å¥¹ çļĦ
æ³ ī
åĪ ļ
è¾ ħ
å¸Į æľĽ
ä»» åĬ¡
çĽ® æłĩ
æŀ Ĳ
èĦ ī
æĺ¯ ä¸Ģç§į
æ± ł
200 8å¹´
ç»Ł æ²»
Ġ æł¹æį®
ä¸ī ä¸ª
æĸ¯ åĿ¦
æİ¥ å£¤
èª ī
ä¼ °
7 0
æĸ¹ åĲĳ
æ¸ ¡
æģ Ĳ
ç¼ ĺ
æĸĩ çī©
2 9
ç¬¬ åįģ
ä¸ľ åįĹ
åĬŁ èĥ½
äºİ 199
èĳ £
éļ ľ
å¼ ĥ
åįķ æĽ²
éĺ¿ æĭī
ãĢ ī
ãĢ Ī
åĬłæĭ¿ å¤§
çº½ çº¦
å¢ ¨
éĶ¦ æłĩ
æĭ Ľ
äº «
è· ¨
è®¾ æĸ½
æľĪ åı°
èµ ¤
å¯ »
å®ļ çļĦ
èµĽ åŃ£
èħ Ĭ
åī ĳ
éĢı è¿ĩ
çĶ ĺ
è¢« ç§°ä¸º
äº ķ
ä¿ ±ä¹Ĳ
éĶ ¡
éŃ ı
çĲĥ åĳĺ
éĢ Ĭ
ä¸Ģ æ¬¡
éĺ »
ä»į çĦ¶
åįļçī© é¦Ĩ
åıĺ åĮĸ
åĪĨå¸ĥ äºİ
ä¿±ä¹Ĳ éĥ¨
æĽ¾ ç»ı
æĥ ł
è´ ¸
201 2å¹´
è§£ æĶ¾
çĳ Ł
åĽ½ çİĭ
é¢ ģ
åħ¬ å¸ĥ
å·´ å£«
åĲĪ å¹¶
å¼Ģ æĶ¾
Ġ H
a d
å¹¿ æĴŃ
åĨ ¬
ç» ĺ
Ġ è¯¥
å°Ĩ åħ¶
åħĭ éĩĮ
å¤§ åĮº
äº ®
201 8å¹´
èĤ ī
è¾¾ åĪ°
ä¸į èĥ½
èĢĮ ä¸Ķ
å®ŀ éªĮ
èµ ¢
åĶ¯ ä¸Ģ
åİŁ åĽł
æİĴ åĲį
åĽĽ å¹´
. ãĢį
è ¸
éĢĲ æ¸Ĳ
201 4å¹´
æį ·
èı Į
åıĳ åĬ¨
çĥŃ å¸¦
çº ²
åĦ¿ åŃĲ
ç» ¼
é©¬ æĿ¥
202 5å¹´
äººåı£ æĻ®æŁ¥
åĵ ²
å½ĵ éĢī
çŁ ¿
4 5
è¿ŀ æİ¥
æ¨¡ å¼ı
å¾ Ĳ
è¡ĮæĶ¿ åĮº
19 1
ç ¹
è¾ ŀ
åľ¨ æŃ¤
ç¬¬ä¸Ģ æ¬¡
ä¸ľ äº¬
åı· çº¿
çģ ¾
èĴĻ åı¤
ä¸» æĮģ
å®ļ ä¹ī
è¿ĲåĬ¨ ä¼ļ
æľīéĻĲ åħ¬åı¸
çĽ¸ å½ĵ
éĺ ´
èĽ ĭ
åĲĦ ç§į
201 5å¹´
è®Ń ç»ĥ
201 3å¹´
Ġ F
æ´ ŀ
ç¨ ³
ç»Ĩ èĥŀ
æ½ ®
èĢħ çļĦ
åĩ» è´¥
å¦ ĩ
å¤ª å¹³
çĽ¸ åĲĮ
åı Ļ
Ġ I
æ¼Ķ åĶ±
Ġ ä¸İ
é£İ æł¼
çĬ ¹
å¤ª éĺ³
å¦ ¹
ç¹ ģ
æ° §
éģĵ è·¯
4 8
ä½ Ĳ
æĪĲ ç»©
æľĪ2 8æĹ¥
æļ Ĺ
(, )
æŃĮ æīĭ
æİ Į
æĭ Ĵ
å¥¥ è¿Ĳ
è§Ħ å®ļ
ä½¿ å¾Ĺ
æ» ĳ
æľĪ1 5æĹ¥
åı¸ ä»¤
æģ ¢
çİ© å®¶
ä¸ĵ ä¸ļ
Ġ formula
éĺ¶ æ®µ
éĴ ¢
äºº å£«
T C
e c
9 0
è¥¿ åįĹ
åĢ Ĵ
ä¸įåĲĮ çļĦ
åĨ ·
i r
ä¸Ģ æł·
åĨ Į
å°Ķ çľģ
æī¹ è¯Ħ
20 æĹ¥
çŃī äºº
è¥¿ åĮĹ
èĻ İ
çĲ ´
ç§ Ł
å¹´ çļĦ
å»º éĢł
è®¾ ç½®
äº§ åĵģ
ä¼ Ĳ
âĢ ĵ
201 7å¹´
åĬŀ åħ¬
è½¨ éģĵ
æĺ Ĥ
ç¨ İ
10 æĹ¥
é© ±
ä¿ Ĺ
I N
30 æĹ¥
å¾ ½
ä¸º äºº
çı ł
ä»ĸä»¬ çļĦ
éº »
èī ĺ
å¥ Ī
éĶ Ļ
ç¡ ¬
Ġ 198
åĿ ĳ
èĥĮ æĻ¯
åľ Ī
éĿĴ å¹´
o t
å¹ ¼
åĳ ³
çĶ º
çĪĨ åıĳ
å½ ¼
o s
æµĻ æ±Ł
åĪĨ éĴŁ
å°ı è¡ĮæĺŁ
æĤ £
Ġ çļĦ
çļĦä¸Ģ éĥ¨åĪĨ
éĺ ģ
èĳ ¡
å¤§ æĪĺ
å¢ Ļ
å½ ©
ä¼¦ æķ¦
ä¹ Ļ
åŃ¦ èĢħ
æµ ¦
æģ¢ å¤į
åľŁ åľ°
åºĶ çĶ¨
å¸Į èħĬ
ä¸ī åįģ
æĶ¹ éĿ©
åį ĸ
æ¯į äº²
è§ ¦
ä¸į ä¼ļ
èº« ä»½
çº ¸
å¯ ¿
u m
h an
éĥ¨ éĹ¨
èŃ¦ å¯Ł
1 æĹ¥
ç¬ Ķ
å±± ä¸ľ
200 7å¹´
è± ª
åĽ °
æ® ĭ
é£ŀ æľº
i m
åĪ¶ åº¦
çļĦ æĸ°
3 6
% ,
åī Ĥ
èİ İ
è ķ
ä¿ ĥ
ä¸ĭ è¾ĸ
æľĪ2 5æĹ¥
åĳ½ åĲį
è¯Ħ è®º
æĭī æĸ¯
è¿Ľ å£«
ç² ī
æľĢ å¤§
âĢ ¦
æĬķ èµĦ
èĦ ļ
éĢ Ŀ
é«ĺ éĢŁ
å¤§ éĥ¨åĪĨ
Ġ 18
ç½ĳ ç»ľ
en t
Ġt he
å¤ı åŃ£
è£ Ĥ
è¿Ļ æł·
è®° è½½
æ¡ £
æ¥ ļ
æµ ª
èµ ı
æ¢ ¦
å¯¼ æ¼Ķ
ä½Ĩ åľ¨
çļĦ çī¹
æ² ī
èµĦ æł¼
18 æĹ¥
ä¸į ä¹ħ
3 8
r a
éĽ ¶
ä¸¤ äºº
å¤© æ´¥
å¹¿ å·ŀ
æĺ Ń
äº ¨
äºĶ å¹´
åĮĸ åŃ¦
ãĢį ãĢģ
æŁ ±
æĭ Ł
å¾Ī å¤ļ
åģ ¶
åĨ Ī
å° Ĭ
çĶµè§Ĩ åı°
å¸® åĬ©
åįļ å£«
è´Ŀ å°Ķ
éĤ Ģ
çĽ Ĳ
å¼ ±
è® ·
çĸ Ĩ
åı «
âĢĿ (
éĻ ·
çŃī åľ°
ç¬¬ äºĶ
i d
æ¯« ç±³
åĩº çļĦ
åħ¨ éĥ¨
åĪĨ åŃĲ
å´ ĩ
æģ ĭ
ç»´ å°Ķ
ä» Ļ
æ¶ ħ
çĭ ±
ç Ĵ
è¯ Ĭ
at ion
ç¾¤ å²Ľ
éĿ Ļ
å¥¥ æŀĹ
ä»» åĳ½
èĭ± è¯Ń
éĻĨ åĨĽ
åĨľ ä¸ļ
æĿĤ å¿Ĺ
æ± Ĺ
3 7
ç» ķ
åŁº çĿ£
é ¤Ĳ
12 æĹ¥
200 5å¹´
200 6å¹´
åħ¬ å°º
æķ´ ä¸ª
è£ Ķ
åĲį åŃĹ
åĲ ķ
i v
ç®Ģ ç§°
çĶ· æĢ§
ç«ĭ æ³ķ
æ¶ ²
è ļ
å¤ļ æ¬¡
ç¥ Ń
é¢Ĩ åŁŁ
æŃ¤ åĲİ
èµ¢ å¾Ĺ
, âĢľ
å»º è®®
Ġ 194
Ġ E
Ġ W
ä½ľ å®¶
é¼ ĵ
ç¬¬äºĮ æ¬¡
ä¾ ¯
è¡Ĺ éģĵ
. .
åħĥ å¹´
æ ©
è¿ŀ ç»Ń
åľ° ä¸ĭ
11 æĹ¥
19 æĹ¥
åĪĨ æŀĲ
è¡¨ æ¼Ķ
çĸ ¾
ä¼ ´
åŁİ åĮº
ä¼ Ł
åįĹ äº¬
éĶ¦æłĩ èµĽ
åĲĮ æł·
èĻ ĳ
å¹¿ åľº
å¥¥æŀĹ åĮ¹
5 00
æĢ» äººåı£
ç»ı å¸¸
åħĪ åĲİ
ä¸ ĺ
åĽĽ å·Ŀ
ä¸Ń éĥ¨
åıĳ å°Ħ
çĦ¶ åĲİ
äºī è®®
åĩ ¤
åľ°åĮº çļĦ
é¢ĳ éģĵ
æľĪ2 4æĹ¥
å¹ ħ
é¢ ľ
éĥ Ń
å¡ŀ å°Ķ
å¼ķ èµ·
è§Ĩ ä¸º
åĪĻ æĺ¯
å¤ļ çļĦ
åıĬ åħ¶
ä¼Ĭ æĸ¯
æľĪ2 6æĹ¥
æĭ Ĩ
åľ° çĲĥ
çī §
éĢŁ åº¦
æĪª èĩ³
ç¤¾ åĮº
è®° å½ķ
è®¾ å¤ĩ
é© ¶
æ¯ı å¹´
ç¦ı å»º
æĲ Ń
åĩº ä»»
ä¿Ŀ æĮģ
æĿ¡ ä»¶
3 4
æ°´ åŁŁ
ç» ª
æľĪ1 6æĹ¥
è§Ħ åĪĴ
æĹ¥ åĨĽ
å¤§ çº¦
æŁ ¯
% .
æ²³ åįĹ
åıĤ èµĽ
ä¿¡ æģ¯
Ġ å¹´
o d
éģŃ åĪ°
a g
å¹³ åı°
æľĪ1 7æĹ¥
å±ħ ä½ı
å¤ı ä»¤
çļĦ ä¸»è¦ģ
æĺ¯ä½įäºİ ç¾İåĽ½
äºº ä»¬
çī© çĲĨ
é£ŀ è¡Į
U TC
åĤ ¨
ç»Ł è®¡
è¢Ń åĩ»
åĨħ éĥ¨
çĽ¸ å¯¹
å¹¿ æ³Ľ
èĻ «
æķĻ åłĤ
å®ĺ åĳĺ
è¿ĩ åİ»
2 æĹ¥
ä¸Ģ æŃ¥
è¶Ĭ åįĹ
èĩ³ ä»Ĭ
æĭĴ ç»Ŀ
æĪĺ å½¹
èĶ ¡
æĸ¯ ç§ĳ
æ£ Ĵ
å¤ļ ä¸ª
èĭ± æĸĩ
è´¸ æĺĵ
åħ ģ
è§ Ī
æłĸ æģ¯
å¥¥æŀĹåĮ¹ åħĭ
èĲ Ħ
æĺ¯ æ³ķåĽ½
æ¯Ķ äºļ
èĳ¡ èĲĦ
å¹ ¸
æĺİ æľĿ
ç³ ĸ
åŃ¦ ä½į
åĦ¿ ç«¥
æµģ è¡Į
æľĢ æĹ©
åĩ ½
ç§ ¦
an d
æ· ¡
åıĸ ä»£
æĹ ģ
æ¼« çĶ»
é¥° æ¼Ķ
éĻ ¶
è¿ Ŀ
ç¾İ æ´²
æľĪ2 7æĹ¥
æľª èĥ½
æ³¢ åħ°
æ± ¤
ç»ı åİĨ
ç¢ ĳ
åĩł ä¹İ
æĮ ĳ
å·´ é»İ
æ¦Ĥ å¿µ
èĻ ļ
é ŀ
å®ŀ çİ°
æľĪ2 1æĹ¥
æĮ ¯
31 æĹ¥
ä»¥ ä¸Ĭ
ç½ĳ ç«Ļ
æľĢ å¤§çļĦ
å¤Ħ äºİ
å·¦ åı³
äºĮ å¹´
é¾ Ħ
æľĪ2 æĹ¥
æĪĸ èĢħ
æľĪ2 2æĹ¥
è®° èĢħ
å°Ķ å¾·
" )
å®ŀ æĸ½
åįı åĬ©
. ãĢĬ
å® ¿
åĴĮ å¹³
éķ¿ çļĦ
åĩı å°ĳ
æĶ¹ åıĺ
èİ·å¾Ĺ äºĨ
æľĪ2 3æĹ¥
è· ĳ
ä¾ į
3 3
è¿ Ī
æ® Ĭ
è½¦ è¾Ĩ
èĳ ¬
çļĦ ç¬¬
ä¼ ¸
æĽ¾ ä»»
Ġ N
å±ķ å¼Ģ
éķ¿ æľŁ
åľ° éĵģ
åŀĭ çļĦ
çĨ Ļ
åĪĨ ç±»
çļĩ å¸Ŀ
æľĪ1 4æĹ¥
è¿Ĳ è¾ĵ
è¢« è®¤ä¸º
æĺ Ĩ
ç§ĳ æĬĢ
æľĪ2 9æĹ¥
èĭ± æł¼åħ°
å½± çīĩ
o p
åĩºçĶŁ äºİ
ä¹ ĥ
çº¿ çļĦ
4 6
èĮ ¶
çĬ¶ æĢģ
åİ¿ çļĦ
çļĦæĹ¶ åĮºä¸º
æ¯Ķ è¾ĥ
æĽ¾ åľ¨
éģ į
æľī çļĦ
S T
åįł é¢Ĩ
7 5
ç»ı èĲ¥
åī§ æĥħ
å¹¶ äºİ
æ¾³ éĹ¨
æĬķ ç¥¨
ç»§ æī¿
å® ħ
ä½ľ æĪĺ
çĥ §
b r
æ²» çĸĹ
åĽ½ çļĦ
æŃ¦ åĻ¨
æľĪ1 3æĹ¥
éĻĲ åĪ¶
ä¸ļ åĬ¡
åŁº äºİ
èį· åħ°
e m
çŃ ¹
è§£ åĨ³
çº ¯
å¤© ä¸»æķĻ
çĩ ĥ
3 2
èĪ° éĺŁ
å¨ģ å»ī
è½ °
ä¼ļ åľ¨
å¦ ®
ä¸ª æľĪ
ä½ĵ çļĦ
éĶ ®
å®£ ä¼ł
t h
çº¿ è·¯
åĭ ĭ
çı į
çģ ¯
çļĦ æĥħåĨµ
åİ ¦
åĩĨ å¤ĩ
çļĦ æķ°æį®
u b
ç´ ¯
éĽ ķ
å² Ń
åĿ Ľ
èµĦ æºĲ
è¾ ½
éļ Ĳ
æĬ ĺ
çļĦ å½±åĵį
åĭ ĩ
åĩº äºĨ
è¡ ¡
æĸ¯ çļĦ
ä½įäºİ è¯¥åĽ½
S E
èĢĮ åľ¨
åįģ å¹´
æĸ¹ æ¡Ī
èı ľ
: )
æĿ¥ æºĲ
è¯Ħ ä»·
ç»Ł ä¸Ģ
çĤ İ
è¯ķ åĽ¾
o Ġ
é½ ¿
æ¸ħ æľĿ
åĲĦ åľ°
çĶµè§Ĩ åī§
å³ ¡
æ±½ è½¦
åİŁ æľ¬
ä¹ĭ å¤ĸ
éĵģ éģĵ
æ¾³ å¤§
åħ´ å»º
åŃ Ł
åħĦ å¼Ł
åıĪ ç§°
éĢī æīĭ
18 9
çł´ åĿı
éģ £
ãĢįãĢģ ãĢĮ
é©¬æĿ¥ è¥¿äºļ
åįı è®®
ç£ ģ
æīĢ åľ¨
èĲ §
éĤ® æĶ¿
çĲ ³
åĽŀ åĪ°
è½ ´
5 5
l i
æķ ¬
3 9
éļı èĳĹ
åĶ± çīĩ
è¿Ľ ä¸ĢæŃ¥
S t
å£ ģ
åĪĿ æľŁ
è¿Ĳ è¡Į
é¥ ®
æĽ ¹
å¤§ æ¥¼
è ¦
æĶ¹ ç¼ĸ
çĬ¹ å¤ª
æħ Ī
å¤§ å¤ļæķ°
ç® Ń
è¿Ľ æĶ»
åŁº åľ°
èĩª åĬ¨
o c
å¹ »
è¡ Ķ
æķĻ ä¼ļ
å¨ ±ä¹Ĳ
ä¸Ń æĸĩ
200 4å¹´
ç²¾ ç¥ŀ
æķ ı
å°ı åŃ¦
åħŃ å¹´
ä¸º æ¯ı
èµ ł
ç»´ æĮģ
éĴĪ å¯¹
è¿ĺ æĺ¯
è§Ĥ ä¼Ĺ
æ¢ °
åŁº éĩĳ
è´ ¤
æ² Ī
åı Ľ
éĿ¢ çļĦ
è¿Ľè¡Į äºĨ
åŁİ éķĩ
æľº è½¦
ç»Ħ åĲĪ
ä» Ķ
200 0å¹´
æĢ» éĿ¢ç§¯
çļĦ åīį
è¿Ĳ èĲ¥
ä¸» è§Ĵ
è´ ¾
äººåı£ æķ°éĩı
è¾ Ĳ
éĶ ĭ
ä¸Ģ ä½į
ç¯ ®
ä¸ĩ äºº
å·ŀ çļĦ
çľģ çº§
å§ Ĳ
æŃ£ åľ¨
åĬł ä¸Ĭ
æĬ¥ éģĵ
çī¹ å¾ģ
çº ¹
å¤ªå¹³ æ´ĭ
éĥ¨ ä»½
èĹ ¤
çģ °
äº¤ æĺĵ
éĽĨ ä¸Ń
ä¸į å°ĳ
ç©º åĨĽ
ç»¼ åĲĪ
åĨ ¯
è´Łè´£ ç®¡è¾ĸ
åıĮ æĸ¹
éĤ ĵ
éĻ ķ
æ¯ı ä¸ª
æ¾³å¤§ åĪ©äºļ
Ġ æĶ¿æ²»
èµ ´
éĻĨ åľ°
åľ¨ ç¾İåĽ½
ç¡® å®ļ
çŃ Ķ
æĺ¯ åĲ¦
è§£ éĩĬ
Ġ çĶ±äºİ
ç¾İåĽ½ äººåı£æĻ®æŁ¥
è¯ģ æĺİ
åĽ¾ ä¹¦
å¤§ åŀĭ
ä»· åĢ¼
æĺ¯ ä¸ŃåĽ½
è¿Ķ åĽŀ
èĳ£ äºĭ
æīĢ å±ŀçļĦ
4 7
è¦ Ĩ
åİ ļ
åĲį åįķ
æĦŁ æŁĵ
åĪ Ģ
ç¨ĭ åº¦
éĩįè¦ģ çļĦ
äºĳ åįĹ
ä» °
ä»İ äºĭ
, ãĢĮ
a p
çľģ çļĦä¸Ģä¸ªå¸Ĥéķĩ
æ³ ³
è° ±
æ¹ĸ åįĹ
åĽ½ ä¼ļ
æ³ķ åħ°
æľī æĹ¶
çļĩ å®¶
æ²³ æµģ
çĥ Ł
åĢ į
äºİ 198
å°ı ç»Ħ
å®ĥ çļĦ
çİĭ æľĿ
ä¸» æ¼Ķ
åħĥ ç´ł
å¾· éĩĮ
é©¬ åħĭ
å¼ķ åıĳ
å¥³ åĦ¿
åĩ Ń
ä¿Ŀ çķĻ
Ġ c
çº µ
æľº ä¼ļ
ä¸´ æĹ¶
æĢ» çĲĨ
æĹħ æ¸¸
éķĩ åĮº
æľ ĭ
é¦ĸ éĥ½
å¸¸ è§ģ
è¶ħ çº§
é ¬
è´¢ æĶ¿
èĴ ĭ
çĶŁ äºİ
æ² Ł
åħ¬ åħĥ
åĩº èº«
çķ ª
å¤§ èĩ£
åĬł åĿ¡
å¤© æĸĩ
æī¹ åĩĨ
é«ĺ çº§
åĨ² çªģ
åĽ½ éĺ²
ç½ ķ
Ġ 197
ç±³ å°Ķ
è®¨ è®º
å° ĸ
åĬĽ éĩı
20 ä¸ĸçºª
ä¸į åĨį
å¦» åŃĲ
åĲĮ æĦı
ä½Ľ æķĻ
çĳŀ å£«
ãĢĬ ãĢĭ
åĽ½æ°ĳ åħļ
åĽ½ åĨħ
ä¸» é¢ĺ
çłĶç©¶ æīĢ
åı ¥
äºĨ ä¸Ģä¸ª
éĿ ĸ
æľº åħ³
è¶ £
åį¡ å°Ķ
é© ¾
æľī æķĪ
ä¸į æĸŃ
æ¡ ĥ
è®® éĻ¢
ç»ĵ åĲĪ
çļĦä¸Ģ ç§į
åĩ ¡
åĬĽ çļĦ
å¥½ çļĦ
äº§ ä¸ļ
å·ŀ å¸Ĥ
æľī äºĽ
è¾ ī
äºĮ ä¸ĸ
è· ³
æĸĩçī© ä¿ĿæĬ¤
6 5
æŁ ´
è¿ ħ
æĸ° åĬłåĿ¡
Ġ 195
åİ¿ çļĦä¸Ģä¸ª
æŃ¦ è£ħ
æĹ º
åĽ½ ç«ĭ
æĻ® éĢļ
ä¸Ĭ æĺł
å¹´ è½»
ç¼ ĵ
çĨ Ł
å¤§ ä½¿
æĺ¯ æĮĩ
ç§ĺ ä¹¦
å»º æĪĲ
åŁ Ķ
æ°Ķ åĢĻ
ãĢģ ãĢģ
æİ ª
éĢī åĮº
è§£æĶ¾ åĨĽ
æĸ¯ åŁº
ç¥ ¥
ä¸į åı¯
éģ Ĥ
æĺŁ æľŁ
3 00
æ §
æĶ¶ åħ¥
åıĸ æ¶Ī
ç¼ĸ åı·
äºº æķ°
æ½ ĺ
6 4
ä¸ĸçķĮ å¤§æĪĺ
æĸĩ ä»¶
åı¯ è¾¾
å¨ģ å°Ķ
æĬķ åħ¥
å¿« éĢŁ
æī¿ è®¤
äºº åľ¨
è¥¿ æ´ĭ
ä¸ŃåĽ½ äººæ°ĳ
è¥¿ çľģ
èĳĹ åĲį
ä¸ŃåĽ½ åħ±äº§åħļ
èŃ¦ æĸ¹
å·´ è¥¿
éĿŀ æ´²
å°ĳ å¹´
æĢ» éĥ¨
ç»´ äºļ
æł¸ å¿ĥ
( "
èĩ³ å°ĳ
é¹ ¿
å¿ Ĩ
ä¸Ģ ä¸ĸ
Ġ K
éļı çĿĢ
æĸĩçī©ä¿ĿæĬ¤ åįķä½į
è ©
Ġ s
ä» ĵ
æĿ¡ çº¦
ä»¥ èī²
åĭ ¤
é£İ æļ´
åĽ½ åĬ¡
ä½¿çĶ¨ çļĦ
ä¹ ı
èĭ Ĺ
èĥľ åĪ©
Ġ 1
æĸ¯ åħĭ
ç¬¬ ä¸Ģä¸ª
å¥¥ æĸ¯
å¦Ĥ ä¸ĭ
èĳĹ ä½ľ
åŃ Ŀ
åİ Ħ
ç¼ ħ
ä¸ĥ å¹´
åĪĽ ç«ĭ
ä»¥èī² åĪĹ
Ġ 196
æ³ Ĭ
åĮĸ çļĦ
éĩį å»º
ä»¥ åĲİ
è© ¹
4 9
ç§ Ĵ
å¥¥æŀĹåĮ¹åħĭ è¿ĲåĬ¨ä¼ļ
è®¿ éĹ®
æĹ¶ ä»»
åĽ¢ éĺŁ
æľª æĿ¥
u t
è´ ¯
a y
ç¬¬ åħŃ
çĮ İ
o v
çĹħ æ¯Ĵ
åħ¬ æ°ĳ
æ°ĳ ä¼Ĺ
çļĦ çłĶç©¶
çļĦ å¸Ĥéķĩ
åįĬ å²Ľ
éĥ½ ä¼ļ
æ±Ł èĭı
o g
èİ ²
æĶ¶ å½ķ
æħ ķ
åħģ è®¸
æĴ Ĵ
å®ª æ³ķ
è¯´ æ³ķ
ç ŀ
æµĭ è¯ķ
èĳ Ľ
è°ĥ æķ´
æĻ ¨
å§Ķ ä¼ļ
ä¼ ı
ç¨ĭ åºı
çĵ ľ
å°Ķ çļĦ
æĭī åħĭ
ä¹Ĳ åĽ¢
åĢ ¾
200 3å¹´
æµ· å²¸
çİĭ åĽ½
èĽĭ çĻ½
ç»ĵ å©ļ
éļ¶ å±ŀäºİ
æĻ ¶
çĶµ èĦĳ
åģľ æŃ¢
éĥ½ æľī
åħ¬ åĪĨ
ä½įäºİ æ³ķåĽ½
æ¢ ¯
çĶ¨ æĿ¥
é«ĺ çŃī
åį¢ çĵ¦
æ¨¡ åŀĭ
åĵĪ å°Ķ
æħ ¢
am p
éĺ¿æĭī ä¼¯
èī² çļĦ
èĥ ģ
æİ¥ è¿ĳ
èĢĥ èĻĳ
è¡ĮæĶ¿åĮº åĪĴ
ä¸ĭ åįĪ
å±± èĦī
çĲĥ åľº
è´ º
çĶ¨ çļĦ
æ®ĸ æ°ĳ
åĩ Į
å°± è¯»
æĢĿ æĥ³
è¿ĩç¨ĭ ä¸Ń
çĶµ åı°
å°¤ åħ¶
åľ¨ è¿Ļ
èĹ ©
æĪĺ åĲİ
åĳ¨ è¾¹
æĸ° å¢ŀ
éĤĢ è¯·
æµ ®
åĮ» çĸĹ
åľ° ä½į
çĽ´ èĩ³
åħ³ æ³¨
å¹´ åº¦
ç´ «
çİ° æĹ¶
a k
200 2å¹´
ç¡ ķ
é¬ ¼
çĶ³ è¯·
I I
ä¸Ģ å¸¦
æĥ Ĭ
èħ ¹
ä¸į æĺİ
ä¼¯ çī¹
è§Ĥ å¯Ł
åĿ İ
éĩį çĤ¹
èµ· æĿ¥
ç¥ĸ çĪ¶
æĶ¿ åħļ
åĨį åº¦
Ġ 2021å¹´
åįģ åĪĨ
Ġ 2
çĽ¸ ä¼¼
è¯¾ ç¨ĭ
å¡ ĳ
åŃ© åŃĲ
èĬ Ŀ
18 8
ä¹Ķ æ²»
åĮ Ī
a v
Ġ 2019å¹´
æĢ ª
ä¿ Ĭ
åĲĪ çī©
è¡¨ è¾¾
a b
é«ĺ ä¸Ń
åħ±æľī äººåı£
4 4
Ġ 3
Ġ è½¦ç«Ļ
åħ¥ ä¾µ
å£« åħµ
ä» ²
å®ī æİĴ
æĴ °
åĲ ¨
æĿ¥ è¯´
èĭ ¦
æ¯ķä¸ļ äºİ
åĬ ±
ç½ ļ
çļĦ å°ı
åĪ° è¾¾
åŃ¦ æľ¯
äººæ°ĳ æĶ¿åºľ
å¹¶ æ²¡æľī
å¥ ´
åĽł èĢĮ
æĶ¯ æı´
ç§» åĬ¨
çļĦæĹ¶ åĢĻ
æĺ¯ ç¾İåĽ½
Ġ O
æ³ ¥
æĴ ŀ
A T
éĶĢ åĶ®
å± ¿
åĢĻ éĢī
Ġ 193
æĿ ī
è·¯ æĺĵ
çĽ Ĺ
å¤ĸ çļĦ
çĽ® çļĦ
Ġ è¿Ļ
ç¦ Ħ
æĹł çº¿
ä¸º æ³ķåĽ½
è¯ ¦
ä¸ §
ä¼Ĭæĸ¯ åħ°
å Ĺ
è¥¿ åĵ¥
åºĶ è¯¥
âĢĿ ãĢģ
çĨ Ĭ
æĹ© å¹´
Ġ è¡ĮæĶ¿
æŃ¤ æĹ¶
in d
æĹ ¨
çļĦ é¦ĸ
å¸Ĥ éķ¿
çİ° è±¡
ç¢ į
åıª æĺ¯
å¦Ĥ æŃ¤
åīį çļĦ
Ġ 2020å¹´
éģĹ åĿĢ
çī¹ çļĦ
çĹ Ľ
ä»ĸ æĽ¾
å¹¶ æľª
5 8
çĶ¨ æĪ·
åıĺ æĪĲ
ç² Ĵ
åľ° åĪ©
çĮ ª
å¹´ éĹ´
éĩĳ å±ŀ
æĹ§ å¸Ĥéķĩ
ç±» åŀĭ
æĬµ è¾¾
ä»İ èĢĮ
æĿĲ æĸĻ
å¸Ĥ åĮº
é ī
æĪĸ æĺ¯
æĺİ æĺ¾
ä¹ ³
æĢ» çĿ£
èĩªæ²» åĮº
è´¨ éĩı
Ġ201 8å¹´
éĺ ħ
æıĲ åįĩ
é«ĺ çļĦ
å°¼ æĸ¯
çĦ ¦
æŀĦ æĪĲ
å°ĳ æķ°
Ġ b
åįģ åħ«
èģĮ åĬ¡
åº Ĭ
è· ĥ
çĩ ķ
å®ī è£ħ
äºİ19 7
æŁ ³
åį« æĺŁ
Ġ J
ç¬¬ ä¸ĥ
å½ Ń
ä¿¡ åı·
6 8
åı¯èĥ½ æĺ¯
æ± ¡
äººåı£å¯Ĩåº¦ ä¸ºæ¯ı
æĸ¹ çļĦ
éĢĿ ä¸ĸ
å·¥ åİĤ
æŁĲ äºĽ
åĪĹ ä¸º
æ¯Ķ åĪ©
å± ı
çī© è´¨
æ¡ Ĥ
é Ħ
ãĢģ (
èĪ Ĵ
ä½ĵ ç³»
æģĴ æĺŁ
ç¨³ å®ļ
æĬ ļ
åĴ ¸
å¯¹ æīĭ
èĢĮ æĺ¯
é¡ µ
å¡ ĺ
å¤± åİ»
: .
ä»ª å¼ı
åĿ Ĭ
å¥¥ åľ°åĪ©
éī ´
SE E
åĩ½ æķ°
åĩº åı£
çĶ ¸
ç§ĳ çļĦ
åĪĽ åĬŀ
æİ ī
éĶ ģ
å¢¨ è¥¿åĵ¥
äººåı£æķ°éĩı ä¸ºäºº
ä¸ľ è¥¿
å»º åĪ¶
åĲ ĥ
æľĭ åıĭ
çĶŁ éķ¿
è° ĵ
æĲ ľ
ä¸į è¶³
åĲĮ ä¸Ģ
æĵį ä½ľ
æİ¥å£¤ çļĦå¸Ĥéķĩ
è¯ ļ
æĸĩ ç«ł
æĸ ĳ
äºĭ ä¸ļ
æĦı è¯Ĩ
æĻ® éģį
æ¯ı å¹³æĸ¹åħ¬éĩĮ
ä¸į å¾Ĺ
åľ¨ 199
æ°§ åĮĸ
çº ¬
ç ĺ
i a
ç§» æ°ĳ
IN SEE
ç¿» è¯ĳ
ä¸Ģ åº¦
æĹł äºº
å¨ģ èĥģ
åĬ¨ åĬĽ
åıª èĥ½
èĤ ĥ
å§ĭ å»º
å°ļ æľª
éĤ®æĶ¿ ç¼ĸçłģä¸º
åĬŀåħ¬ å®¤
æł¡ éķ¿
å°Ķ çī¹
ä¸Ģ åĲĮ
çİ° åľº
å¹¿ åĳĬ
èº« ä½ĵ
åħ¥ åı£
( ;
æ¡Ī ä»¶
è¯ ŀ
åŀ Ĵ
æĹ ¢
æĮ Ĥ
æľº æ¢°
Ġ201 7å¹´
èĥ ¶
åĮĹ ç¾İ
éļ §
å¹³ éĿ¢
ä¸¤ ç§į
çĬ¶ åĨµ
æ¶Ī æģ¯
ä¹Ł åľ¨
éĺŁ çļĦ
éģĹ äº§
åı¬ å¼Ģ
è§Ĥ çĤ¹
å¾Ĺ ä»¥
å¤Ħ çļĦ
äº¤ æµģ
å¾ ª
è¡¨ æĺİ
æĦı ä¹ī
æĿĥ åĬĽ
æ°ĳä¸» åħļ
èĩª è¡Į
ä¸º ä¸Ģ
æĽ´ åĲįä¸º
åįĹ åĮĹ
å¼ ĺ
çľĭ åĪ°
åİ¿ äºº
åĭ ĥ
çŁ¥ éģĵ
æĮĳ æĪĺ
æķ° åŃĹ
èģĶ ç³»
èģĶåĲĪ åĽ½
çķ Ķ
åĽ¾ä¹¦ é¦Ĩ
æħ §
ç¦ģ æŃ¢
æıĲ é«ĺ
åħ¥ éĢī
å§Ĩ æĸ¯
ä»ĸ æĺ¯
åĵģ çīĮ
æłĩ å¿Ĺ
åģ¥ åº·
æĭ ĵ
å² ³
åĪĽ éĢł
æ¬§ åħĥ
å± ¯
ä¼ļ çļĦ
èĳ¡èĲĦ çīĻ
ç¥ Ŀ
Ġ201 6å¹´
è¢ ĸ
4 2
å¸ĥ æĭī
åıĳ çĶµ
æķĪ åĬĽ
å¤ıä»¤ æĹ¶
åľŁ èĢ³
ä¹ ¾
çº ·
éĩĮ çļĦ
å¤§ éģĵ
æ£® æŀĹ
æľī äºº
Ġ V
æĪ Ĵ
ä¹Ŀ å¹´
åıĳ èµ·
äººåı£å¯Ĩåº¦ æ¯ıå¹³æĸ¹åħ¬éĩĮ
T he
åŃĹ æ¯į
æį Ĳ
åľŁèĢ³ åħ¶
æ° ¢
ç® ±
æ°´ å¹³
å¤± è´¥
åŃĲ çļĦ
å¸Ĥéķĩ ç¼ĸçłģä¸º
INSEE å¸Ĥéķĩç¼ĸçłģä¸º
å½ĵæĹ¶ çļĦ
ãĢ İ
å¹³æĸ¹ ç±³
åİĨåı² ä¸Ĭ
ãĢ ı
å¹¶ éĿŀ
åħ ½
çĳŀ åħ¸
åį ĳ
äºİ æĹ¶çļĦ
åĮ» åŃ¦
äºİæĹ¶çļĦ äººåı£æķ°éĩıä¸ºäºº
æ£ ĭ
éĢī åĮºä¸º
ç¾İåĽ½äººåı£æĻ®æŁ¥ çļĦæķ°æį®
äººåı£å¯Ĩåº¦ä¸ºæ¯ı å¹³æĸ¹åįĥç±³
æĻ ĵ
èĢĮ äººåı£å¯Ĩåº¦ä¸ºæ¯ıå¹³æĸ¹åįĥç±³
å½ĵåľ° åħ±æľīäººåı£
æ²³ åĮĹ
åľ ³
åį ¿
æµ ħ
è¯¥ çľģä»½
æĪĸ æĹ§å¸Ĥéķĩ
å»¶ ä¼¸
çī¹ æ®Ĭ
å¼º è°ĥ
éħĴ åºĹ
I n
çļĦ æĸ¹å¼ı
çľģçº§ éĢīåĮºä¸º
æīĢå±ŀçļĦ çľģçº§éĢīåĮºä¸º
å¸ĥ é²ģ
åį« çĶŁ
çļĦ åİŁ
ãĢĭ ()
æľ¬ åľŁ
Ġ 2022å¹´
ç¼ĸ è¾ĳ
æĺ¯ä¸Ģ åĲį
è¯¥çľģä»½ ä¸ºæ³ķåĽ½
èĢĮ è¯¥åľ°
åĲİ èĢħ
å¥ĸ é¡¹
ä¸Ń å±±
18 7
æķĻ åĮº
åĳ½ ä»¤
éľĢ æ±Ĥ
er s
äºº å¤§
éģ¿ åħį
æĬ¥ å¯¼
åıĹ ä¼¤
èĲ¥ è¿Ĳ
ä¼° è®¡
è½° çĤ¸
ç¼º ä¹ı
è¿ħ éĢŁ
æĹ ¦
æıĲ åĲį
ĠS t
åħ¶ ä½Ļ
æµ· åŁŁ
äºİ19 4
æī °
ç¬¬ 1
åĽĽ ä¸ª
èĳĹ åĲįçļĦ
æĲ ¬
å¸Ĥ çļĦ
æ³¨ æĦı
æ¬¢ è¿İ
çĶŁ åĳ½
å¿ĥ çĲĨ
éļ§ éģĵ
æĶ¿ æĿĥ
éĥ Ĭ
åī ©
è¾¾ æĪĲ
åĲ¸ å¼ķ
çĹĩ çĬ¶
å®ī å¾·
t ion
æı Ĵ
é² į
åĸ Ģ
éĩĳ çīĮ
è§Ħ åĪĻ
ä»ĭ ç»į
ä¹ĺ å®¢
å¤§ è¥¿æ´ĭ
æĸ¯ å¡Ķ
å¤ĸ åĽ½
éĩĳ èŀį
æķĻ ç»ĥ
çļĦ ç¬¬ä¸Ģ
æĿ Ĩ
æĴ¤ éĶĢ
çİ »
ä¾ ¦
æĪĲä¸º äºĨ
éľ ¸
ä¸ ²
äºº åĴĮ
åı¯èĥ½ ä¼ļ
è´ ŀ
éĥ¨ èĲ½
å´ İ
Ġ201 4å¹´
ä¸» å¼ł
æķ° åŃ¦
S A
å¹¶ å°Ĩ
èĢĮ è¢«
éĵ ¾
æĦŁ åĪ°
6 7
4 00
åħ¬ ä¼Ĺ
æ¬ ²
å½¼ å¾Ĺ
èĥ İ
ä¹Ł è¢«
äºĭ å®ŀ
å°Ķ åħ°
æķĻ å¸Ī
ä» ¿
éĩĩ åıĸ
ä½ĵ éķ¿
åħ¨ éķ¿
9 9
Ġ201 5å¹´
æµ ĵ
æİ¨ åĬ¨
è ¹
ä¹ĭ ä¸ĭ
åľ¨ åħ¶
ä¼ł è¯´
èµĦ è®¯
è´Ń ä¹°
ä¿¡ ä»°
15 0
æī§ å¯¼
æŀ ¢
çĲĨ äºĭ
é¼ ł
ä¸Ńåħ± ä¸Ńå¤®
æľ¬ èº«
çļĦä¸Ģ åº§
è¯ ¢
ä¼ Ļ
ç¥ŀ ç»ı
å½ »
èĽ ĩ
åį ĵ
æĸ¯ èĴĤ
æĶ¾ å¼ĥ
åıĪ åĲį
æķĻ åŃ¦
äº¦ æľī
" ,
æĴŃ æĶ¾
éĩį åºĨ
Ġ p
åįģ åŃĹ
âĢĿãĢģ âĢľ
æ³ķ æ¡Ī
æĽ´ å¤ļ
æľĢåĲİ ä¸Ģ
ç¨ĭ å¼ı
Ġ201 3å¹´
åıĤ èĢĥ
è¥¿ æĸ¹
è´¡ çĮ®
æĭ ³
ç½ĳ è·¯
åįĹ æŀģ
18 6
æīĵ åĩ»
åľ° çļĦ
åĩº æĪĺ
äºİ19 6
å£ ®
èĭ± éĽĦ
å®¹ æĺĵ
ç¬ ĳ
åİ ĺ
åĨĽ çļĦ
æ³° åĽ½
ç§¯ æŀģ
æĵ İ
å½ĵ å±Ģ
æĬĹ è®®
æĺ¯ä¸Ģ ä½į
åĸľ æ¬¢
åĽ½åĬ¡ éĻ¢
æı Ń
æĺ¯ æĹ¥æľ¬
åī ²
çİ° ä»»
äºĭ æķħ
ä¹Ŀ é¾Ļ
å¤º å¾Ĺ
Ġ æŃ¤
çī ł
åħ¨ éĿ¢
äºİ19 5
è¯ģ æį®
åĲ¯ çĶ¨
æĢ§ è´¨
æİ¥ è§¦
is t
äº Ń
éĺŁ ä¼į
æ´ Ĺ
Ġ 4
åį ľ
è£ħ çĶ²
æī ®
åħ¶ å®ĥ
ä¹Ł ä¼ļ
å° Ŀ
ç»ĵæĿŁ åĲİ
Ġ of
åįģ ä¸Ģ
èµ Ĳ
çŁ¥ è¯Ĩ
å±Ĭ åħ¨åĽ½
çļĦ éĩįè¦ģ
èĤ º
åĲİ æľŁ
å¼º çĥĪ
æ¹ĸ åĮĹ
å¤ļ ç§į
çª Ĺ
èĬ ³
æĮ ª
å®ī å¾½
å¦Ĥ ä½ķ
å±ķ ç¤º
) ;
èĢĮ æĪĲ
çĸ ı
u l
å¤į æĿĤ
æ¶ī åıĬ
åŃ¦ ä¼ļ
æ¼ĶåĶ± ä¼ļ
ä¸ĸçķĮ æĿ¯
çł ²
ä¸ĩ åħĥ
çŁ¥ åİ¿
å®Į æķ´
çļĦ æµ·
èı² å¾ĭ
åĴĮ åħ¶ä»ĸ
éĩĮ äºļ
èı²å¾ĭ å®¾
æĿ Ń
çĻ½ èī²
ç»´ å¥ĩ
ç¾½ æ¯Ľ
çİ Ħ
ä¸ĩ ç¾İåħĥ
åħ¬ ä¸»
çĪ± å°Ķåħ°
è´ «
ç¬¬ 2
åĩºçİ° åľ¨
èį¯ çī©
C h
æĬ ¢
éĩĮ æĸ¯
ç¾İ æľ¯
åħī ç»ª
5 9
7 8
æĸĩ çĮ®
æĿĳ åºĦ
æĦı è§ģ
e v
çļĦ åľ°æĸ¹
è± Ĩ
éĢ Ĵ
éĵ º
æ°ĳ éĹ´
ä»Ģ ä¹Ī
2 äºº
Ġ m
æ¸ Ķ
å¼ķ æĵİ
éĢ Ĩ
åĨħ éĺģ
åŁĥ åıĬ
å¸Ĥ æ°ĳ
è¿Ļ æ¬¡
å£ ³
æĿĥ åĪ©
åĪĽ å»º
æĹħ å®¢
å« Į
åĢĻéĢī äºº
è´ ´
é«ĺ éĽĦ
5 6
æ¹ ¿
3 äºº
æĬ ½
çĬ ¬
å®¢ è¿Ĳ
çĪ¶ æ¯į
é¢Ĩ åľŁ
èĲ¨ åħĭ
ç®Ģ åįķ
o b
å¾ĭ å¸Ī
äºº å·¥
å°ı çļĦ
æº ¶
çº¢ èī²
æĿ° åħĭ
Ġ å¤§
æİĪ äºĪ
æİª æĸ½
æĭī ä¸ģ
éĽ ĩ
è¡¨ éĿ¢
å®ļ ä¸º
çĮ «
Ġ 2023å¹´
éĻ¢ éķ¿
ç®Ģ ä»ĭ
å¦ ĥ
ä¹¾ éļĨ
èŀ º
èĤ¡ ä»½
æķĪ æŀľ
çŃ¾ ç½²
åĩº éģĵ
èģ ĺ
è±¡ å¾ģ
N A
å¯ Ħ
ç² ®
åıĳ åĶ®
èį£ èªī
æĦı ä¸º
æĭī å¤«
å° ī
éĻį ä½İ
å£° ç§°
Ġ 6
é£ ĵ
æ·± åľ³
æĤ ¬
å½¢ è±¡
åľ° éľĩ
åħĭ ç½Ĺ
äºļ åİĨ
ç¡® è®¤
ç¡® è¯Ĭ
åĽł ç´ł
ä¸ľ åĮĹéĥ¨
å· §
æĿ¥ åĪ°
1 äºº
ç¢ ³
æĮī çħ§
çĬ¯ ç½ª
é£ĵ é£İ
çĽ ¾
e g
12 å¹´
çĪĨ çĤ¸
åı Ķ
è¿ Ł
éķ¿ åº¦
ä¹Ł åı¯ä»¥
åĮ» çĶŁ
é¢Ĩ è¢ĸ
ç«ŀ äºī
è¢ ģ
ä½ľ èĢħ
åľ° çĤ¹
çħ ¤
o k
å°Ĩ ä¼ļ
å·® å¼Ĥ
è¢«è®¤ä¸º æĺ¯
ä¼ł æĴŃ
ç¨ ¿
å® ı
æ´ ģ
æĽ´ åĬł
an g
ä¸ĵ éĹ¨
ä¸ Ī
æĸ ľ
æĸĩ åŃĹ
ä¼Ĭ æľĹ
åıĳ åĩº
åıĻ åĪ©äºļ
ä¸į æ»¡
å®ŀéĻħ ä¸Ĭ
çļĦ é«ĺ
ä¸ĵ å®¶
ç¾ Ĭ
åİĭ åĬĽ
ä¸Ģ å®ļ
åı¤ ä»£
ä¸¾è¡Į çļĦ
æ°Ķ è±¡
ä¸ Ļ
å¯¹ æŃ¤
å·¥ åħ·
ä¹¡ è¯ķ
èµĦ éĩĳ
Â °
åı° åįĹ
åŁºçĿ£ æķĻ
æĪı åī§
çī µ
æ¯ĶèµĽ ä¸Ń
èĨ ľ
8 8
èħ ¾
5 7
èµ· æºĲ
= "
æĬ ¼
å° ¸
å°ļ ä¹¦
æ²³ çķĶ
æįŁ å¤±
: "
ï ½
åĨ Ĵ
é«ĺ äºİ
å¤ļ å¹´
å¡ «
ç»Ļ äºĪ
æľī ä¸Ģä¸ª
è¾¹ çķĮ
é³į é±¼
ä¸ľ æĸ¹
å¸Ī èĮĥ
çĸ¾ çĹħ
T V
çļĦ ä½ľåĵģ
è¾ ©
åĿ¦ åħĭ
çĽ¸ æ¯Ķ
ç»ı éªĮ
è¡ į
çĹħ ä¾ĭ
å¥ ĳ
è£ ķ
éĴ ¦
æľī æīĢ
çĲĥ ä¼ļ
ä½ľ æĽ²
ä¸¾ äºº
äº¨ åĪ©
ä» ĳ
åľ¨ æĹ¥æľ¬
è¡ °
å§ »
æłĩ ä¸º
199 8å¹´
åĩº å¸Ń
æ° Ł
ç½ ¢
æĺ¯ ä»¥
åĪĹ è¡¨
è¸ ª
t w
éĢĢ å½¹
Ġ U
éĿ¢ å¯¹
å·¡ åĽŀ
çļĦ ä¸ī
ä¸į ä»ħ
å½ĵ å¹´
é¸ ¡
æĺİ æ²»
çº¦ ä¸º
æĶ¹ åĸĦ
æĢ§ åĪ«
çĻ» éĻĨ
è¥¿ èĹı
èĮ Ĥ
ä½ı å®ħ
å²ģ çļĦ
è ²
çĲ ī
ä¹ĭ ä¸Ń
ä¸¤ å¹´
æĶ¹ éĢł
åı¸ æ³ķ
å¹¶ åħ¥
åĪĹ åħ¥
åĽŀ åºĶ
åħĭ èİ±
ç«Ļ åı°
å® Ļ
çİĩ é¢Ĩ
éĤ£ éĩĮ
è´µ æĹı
èĪŀ åı°
6 6
è½¬ ç§»
åĪ¶ çļĦ
199 9å¹´
ç±³ çļĦ
ç¤¾ä¼ļ ä¸»ä¹ī
å¦ Ī
å®ŀ è¡Į
å£° æĺİ
åĨ¬ åŃ£
åľ° éĿ¢
ä¸Ģ å®¶
ç² ¹
ç§į æĹı
èĭ± å°º
çĶµ è½¦
æ¾³ æ´²
B C
èĤ ¥
åŁº åĽł
åıĤ è°ĭ
åĸ ·
åħ³ éĹŃ
ä¸Ģ åº§
åĳ½ åĲįä¸º
èį Ĵ
æµģ åŁŁ
åĥ §
æµ· æ´ĭ
æĪĲ æľ¬
Y ou
åıĤåĬł äºĨ
è£ħ ç½®
å¥¹ åľ¨
æ ĩ
éģ µ
çĭ Ħ
Ġ201 2å¹´
5 4
ç¤º å¨ģ
è¯Ń çļĦ
å½¢ æĢģ
çĸ« æĥħ
æµ ©
ä¸Ģ æĿ¡
æīį èĥ½
åıĺ å¾Ĺ
å²ģ æĹ¶
ç¡ķ å£«
èĬ¬ åħ°
åľ¨ ä¸ŃåĽ½
é¸ ¿
å´ Ķ
çİĽ ä¸½
åħ¬åı¸ çļĦ
åĳ¨ å¹´
ç¬¦ åĲĪ
é©± éĢĲ
æĦı æĢĿ
åį³ ä½¿
é«ĺéĢŁ åħ¬è·¯
æľº åĻ¨
æµĭ éĩı
n d
æµ· å¤ĸ
é³įé±¼ çº²
çļĦ åĽ½å®¶
æŃ£ å¸¸
å¸ ħ
éĢļ è½¦
èİ« æĸ¯ç§ĳ
æĸ° çĸĨ
å±Ģ éķ¿
å² Ĺ
è¾ĥ ä¸º
C D
æĥħ æĬ¥
ar d
Ġ d
åı¦ ä¸Ģä¸ª
é¥ Ń
é¡¾ éĹ®
å¯¹ è±¡
å¼Ģ è®¾
çĶµ åĬĽ
èĭı æł¼åħ°
å¼ ¥
éħį åĲĪ
æ·· åĲĪ
é£Ł çī©
éĻĦè¿ĳ çļĦ
æĢ Ĵ
åĩº æĿ¥
ä¿® æĶ¹
æ¶ µ
å§Ķ ä¹¦è®°
æĶ¶ è´Ń
æĻļ ä¸Ĭ
åı°åĮĹ å¸Ĥ
Ġ èĩª
åĵ² åŃ¦
ä¿ ĺ
å¾Ī å¿«
æķ´ ä½ĵ
è¾Ĳ é³įé±¼çº²
èĢ Ĺ
çģ« ç®Ń
å¹¶ ä»¥
åĩł ä¸ª
éĻĨåľ° éĿ¢ç§¯ä¸º
çŁ¥ åĲį
åĪĨ éħį
æ°´åŁŁ éĿ¢ç§¯ä¸º
3 ä¸ª
æ¬ £
10 å¹´
æ¶ ¦
åıĳçİ° äºĨ
æī© å¤§
u p
åŃ ¤
éħį éŁ³
èĢ Ģ
å·¥ äºº
å¼Ģ éĢļ
åĮĪ çīĻ
5 2
æŃ ĩ
æ¯Ķ ä¾ĭ
es t
çŁ ¶
çĭ Ĥ
æ³ķ å®ĺ
ä¸ľ åįĹéĥ¨
äº¿ åħĥ
al l
èµ ¶
å¹¿ä¸ľ çľģ
åĽĽ åįģ
å¯¼ å¼¹
æĮª å¨ģ
åĮĪçīĻ åĪ©
çļĦ åİĨåı²
ä¹ĭ åŃĲ
èĢĮ è¨Ģ
åĤ ħ
u c
åľ¨ è¯¥
å¢ŀ éķ¿
ç¥ Ģ
æĥ ¯
è£ħ å¤ĩ
çĭ ®
éĻ Ģ
åº· çĨĻ
å¯ ¸
çľģ åĴĮ
ç¿ Į
ï½ ŀ
ä»» èģĮ
è¯· æ±Ĥ
åĲĮ çĽŁ
åŁĥ å°Ķ
æıĲ åĪ°
æµ· å³¡
æģĲ æĢ
i k
çĶ¨ ä½ľ
åĬ¨ ä½ľ
åŀ Ĥ
æĪĺ çķ¥
ç¥¨ æĪ¿
å½ĵä¸Ń éĻĨåľ°éĿ¢ç§¯ä¸º
çļĦ ä¸Ń
èĢĮ æ°´åŁŁéĿ¢ç§¯ä¸º
ç§ĺ å¯Ĩ
å¤ª åŃĲ
èĦ Ĥ
9 8
å¤ ·
åİ ¢
ä¸ĭ éĻį
æŁ Ķ
e w
çļĦ æĹ¶éĹ´
ç§ģ äºº
ä¸ĭ æĿ¥
ç² ¤
äºļåİĨ å±±
18 å¹´
æŃ¦ æ±ī
æĤ ī
éĥ¨ çļĦ
å¸ĥ å°Ķ
ç¼ħ çĶ¸
åįİ çĽĽ
çĭ Ĺ
éĢĢ ä¼ĳ
i p
Ġ 19
çĶŁ çļĦ
èµ· ä¹ī
åĩº æ¼Ķ
å§ ļ
åĽŀ å½Ĵ
æ» ļ
e b
éĹ´ çļĦ
æŃ¥ åħµ
è¦Ĩ çĽĸ
; -
åħ« å¹´
Ġ è¡ĮæĶ¿åĮºåĪĴ
an dĠ
ä¸Ĭ åįĪ
è¯´ æĺİ
ç¼ĸ åī§
ç¢ İ
7 6
éĢ ¢
è§Ĥ æµĭ
ä¸ŃåĽ½äººæ°ĳ è§£æĶ¾åĨĽ
æľĢ è¿ĳ
éĩį å¤§
çĮ Ľ
åĬ³ åĬ¨
æī¾ åĪ°
e p
ä¸º è¾Ĳé³įé±¼çº²
O S
ä½ĵéķ¿ åı¯è¾¾
æ·± åº¦
çģ Į
æİ¨ è¿Ľ
åįİçĽĽ é¡¿
5 3
è¢« è¿«
é¢Ħ è®¡
å½ °
èĬ Ĵ
åĲĪ çº¦
åĬŀ äºĭ
åħ´ è¶£
å¥¥è¿Ĳ ä¼ļ
h a
æĳ ĩ
åĪ ¸
ç»Ħ å»º
çľŁ æŃ£
ç»ı åħ¸
çļĦ éĹ®é¢ĺ
é©¬ å°Ķ
è¯ķ éªĮ
åº ŀ
ç¬¬ åħ«
åĳ¨ åĽ´
é£İ éĻ©
æºĲ èĩª
å°Ŀ è¯ķ
ç¾İ åĨĽ
ä¿Ŀ åŃĺ
ä¸º æŃ¢
åĬł çĽŁ
å¼ķ åħ¥
æĬķ éĻį
éĺ² å¾¡
å¾¡ åı²
el l
æłĸæģ¯ åľ¨
å¹¿ è¥¿
æ» ©
èĬ± åĽŃ
æĿĢ æŃ»
i f
ä¸Ń æľī
ç¬ ¼
å» Ĭ
åľ° åĽ¾
åĮĹ èµ·
Ġ 2024å¹´
ä¼ ª
åĳ İ
åģ ·
å²Ľ å±¿
åĬ¿ åĬĽ
âĢ¦ âĢ¦
éĺ ª
åĮĹäº¬ å¸Ĥ
æľ¬ ç«Ļ
èį Ĳ
éļı åį³
Ġ æĽ¾
å¥ İ
è´£ ä»»
Ġ ä»İ
ä»£è¡¨ å¤§ä¼ļ
å¤§ è§Ħæ¨¡
éĢ »
ä¸İ åħ¶ä»ĸ
èĤ ĸ
å£° éŁ³
çļĦæĥħåĨµ ä¸ĭ
( ).
199 7å¹´
ä»¥ åīį
éħ ¶
æĹĹ ä¸ĭ
å¸¦ æĿ¥
è®º æĸĩ
çĶ¨ éĢĶ
çĶŁ æĢģ
åĽ½å®¶ éĺŁ
199 2å¹´
199 6å¹´
Ġ in
çı Ĭ
ä¾ ł
å¯¹ å¤ĸ
æ¸© åº¦
è®² è¿°
åĲ ¾
äº¿ ç¾İåħĥ
çħ§ çīĩ
4 3
B A
æŀ Ŀ
è¿Ĳ ä½ľ
ç»ĦæĪĲ çļĦ
ä¿ĥ è¿Ľ
ä»£ çłģ
çļĦ æĶ¯æĮģ
å¯¹ åºĶ
7 7
ä¼ĺ åĬ¿
è½¯ ä»¶
æľĢ å¤ļ
å¾Ĺ çŁ¥
è§£ æķ£
æ¹ ĺ
ç¿ ģ
ä¸¤ æ¬¡
æĮĩ å¯¼
å¤« äºº
è°Ī åĪ¤
çĴ ĥ
èµ ĭ
éļľ ç¢į
å¨ ĥ
åĵ¥ ä¼¦
å¤ıåŃ£ å¥¥æŀĹåĮ¹åħĭè¿ĲåĬ¨ä¼ļ
å¹´ é¾Ħ
åĲį ä¹ī
åįģ ä¸ī
æŀĦ éĢł
ä¿® å»º
ar t
éĺ Ķ
ç»ı çĲĨ
èĥ ¸
åľ¨ å¤§
å¼ ¦
åı° ä¸Ń
æģĲæĢ ĸ
Ġ 5
éŃ Ĥ
éļ¾ ä»¥
åį µ
æł ı
å°ı åŀĭ
æĮĩ æİ§
ä¸ĩ åİĨ
çļĦ å·¥ä½ľ
ä» ĩ
äºĨ è§£
Ġ æ¦Ĥ
åİĨ ä»»
åĲ Ĳ
è¢« è§Ĩä¸º
ä¸Ĭæµ· å¸Ĥ
çļĦ å¤ĸ
æľ ´
è¥¿ åįĹéĥ¨
é©¬ æĭī
æ¯ķä¸ļ åĲİ
han s
é©¾ é©¶
çļĦ å±±
ä»ĸ è¿ĺ
éĤ£ äºĽ
åĲ ı
ä¸ī è§Ĵ
h k
åı ł
æ· ĺ
194 5å¹´
åħĭ æĭī
éĤ ¨
çļĦ åıĳå±ķ
æ³¨ åĨĮ
an t
å©ļ å§»
Ġ201 1å¹´
å®ĩ å®Ļ
ind ow
æī® æ¼Ķ
4 1
è¥¿ å®ī
çŃī çŃī
ç½ĳ çĲĥ
å± ł
åĮĸ çŁ³
æĳĦ å½±
19 å¹´
ç¡ «
åĬł å¼º
æ¬¡ å¹´
éĩı çļĦ
èħ Ĳ
éĶĻ è¯¯
æĲ º
å¹´ ä»£
åĨĽ åĮº
èĪ ±
åı° é£İ
198 8å¹´
æ·¡ æ°´
å½ ¦
å®¶ äºº
å¤ª ç©º
9 5
æŁı æŀĹ
é¢ľ èī²
åľ¨ é¦Ļæ¸¯
åįģ åħŃ
èĦ Ĭ
æľį å½¹
åĲĪ æĪĲ
éĻĨ ç»Ń
éĢ ®
è² Į
å®¶ çļĦ
åĺ ´
199 4å¹´
A R
é¹ °
ä»ĸ è¢«
éĢĢ åĩº
åįĹ éĿŀ
B S
åĬł åĪ©
éĢļ éģĵ
Ġ 2010å¹´
æĶ¿ åįı
åįĹ æĸ¹
æŃ §
éļ¶ å±ŀ
äºİ19 3
åİŁ ä½ı
Ġ 10
æĹ ¬
è¥¿ åĮĹéĥ¨
å¸¦ æľī
ç¨ į
æĶ¿åºľ çļĦ
æ±Ł è¥¿
åı ī
åħĭ çļĦ
194 9å¹´
il l
ç¬¬ 3
çĲĥ åŃ£
ç³»ç»Ł çļĦ
ä»· æł¼
éĩĬ æĶ¾
ä¹Ĳ éĺŁ
ï¼ ı
å®ļ å±ħ
A M
å¤§ èµĽ
åĳĪ çİ°
ä¸Ģ èĩ´
ä½ľ åĩº
çĽ¸ ä¿¡
q u
Ġ 192
çļĦ æķħäºĭ
é¦ĸ åħĪ
å¨ ĺ
ä¿Ŀ ç½Ĺ
åĪĨåĪ« ä¸º
åĪ ·
ç¿ ł
åħ¼ ä»»
éĹ ½
æģ °
æİĴ è¡Į
Ġ çļĦæĹ¶åĮºä¸º
Ġ äºİæĹ¶çļĦäººåı£æķ°éĩıä¸ºäºº
Ġ æīĢå±ŀçļĦçľģçº§éĢīåĮºä¸º
æīĢ å±ŀ
éº¦ åħĭ
éĺ¶ çº§
Ġä¸İ æİ¥å£¤çļĦå¸Ĥéķĩ
ĠçļĦ éĤ®æĶ¿ç¼ĸçłģä¸º
7 9
ä¸¤ åĲį
èĿ ¶
e x
æ¸¸ æ³³
ä»»åĳ½ ä¸º
æĬĹ æĹ¥
æı ¡
çĽ¸ äºĴ
åħ³ éĶ®
ç«ĭ åį³
éĢļ è®¯
ç¯® çĲĥ
u d
èĸ Ħ
åĮĹ æµ·
éªĳ å£«
èĩª èº«
åĿ ª
æ¯Ķ å¦Ĥ
æ· »
éªĳ åħµ
åį± æľº
å© Ĩ
æĸ¯ æŀĹ
éĽ Ģ
å¸¦ é¢Ĩ
éĵ Ń
åİŁ åŃĲ
ä¸° å¯Į
1 æľĪ1æĹ¥
å¿ §
è¶ ĭ
ä¼ĺ ç§Ģ
éĨ Ĵ
ç¬¬äºĮæ¬¡ ä¸ĸçķĮå¤§æĪĺ
å· «
å¤§ èĩ´
æ· ®
å±ķ è§Ī
æĹ¶æľŁ çļĦ
æĸ¹ è¨Ģ
å¯¹ æĬĹ
éĢī ä¸º
4 äºº
è®¡ç®Ĺ æľº
åĨħ éĻĨ
ä¾Ľ åºĶ
çľŁ å®ŀ
è¯ ı
éĿŀ å»ºåĪ¶
æĦı å¿Ĺ
é¸ £
ç¾½æ¯Ľ çĲĥ
èīº äºº
é»ĳ èī²
è¾ĵ åħ¥
ä¼Ĺ å¤ļ
éĺŁ éķ¿
ä»ĸ ä¸İ
åĮĹ æĸ¹
åĽº å®ļ
ä¸Ģ çº§
ä¸Ĭ è¿°
6 9
æİ ĺ
åħĪ çĶŁ
åħ· ä½ĵ
åį° å°¼
ä»£ çĲĨ
å·ŀ åºľ
æľĿ å»·
éĺ ®
C O
æ´¾ éģ£
å µ
198 9å¹´
å¾Ģ å¾Ģ
æ£Ģ æµĭ
å§ ¬
éĥ½ å¸Ĥ
å¯» æī¾
é»Ħ éĩĳ
é¢Ĩå¯¼ äºº
éĿŀå»ºåĪ¶ åľ°åĮº
18 5
ä»£è¡¨ åĽ¢
çªģ çł´
é¼ »
Ġ ä»¥ä¸ĭ
ä½Ĩ çĶ±äºİ
Ġ 8
åįģ äºĶ
çģ« å±±
çī¹ èī²
åįĹ èĩ³
çĽĳ çĿ£
åĹ £
å¼Ģ å±ķ
æĦ Ī
æ³¢ æĸ¯
æĿī çŁ¶
6 2
å·² è¢«
æĽ´ ä¸º
ä¾ĭ åŃĲ
æ´Ľ æĿīçŁ¶
es s
æ° ¯
çĻ» ä¸Ĭ
a in
çĶµ è¯Ŀ
å½ĵ å¤©
ä¸¤ åĽ½
æĸ ¤
æĹ¥ æĬ¥
10 00
å±± è¥¿
åĦ Ĵ
åħ Ĩ
èĭ ĳ
çªģ çĦ¶
å®ŀéªĮ å®¤
èĮ µ
ä¾Ŀ æį®
åģ ¿
Ġ å®¶æĹı
ä¸º 2
åľº çļĦ
å°¼äºļ å·ŀ
çĽ¸åħ³ çļĦ
åħ¬ çĪµ
åĽ½å®¶ çļĦ
æĳ Ĩ
ä¸¹ éº¦
Ġ w
åį Ĵ
è¡Į çļĦ
æ± ª
ä¸ī ä¸ĸ
çī¹ å®ļ
199 3å¹´
åĲĽ ä¸»
å¯ ¨
åĨĽ å®ĺ
åĳĺ å·¥
: ),
Ġ f
ä¸º 1
å¤§ å¤ļ
199 5å¹´
Ġ åĴĮ
å°ĳ å¥³
å¦ĩ å¥³
å°± ä¼ļ
æ²¿ æµ·
æĺİ ç¡®
ä¸»è¦ģ çļĦ
6 00
æĪ¿ å±ĭ
éĢ® æįķ
çļĦ åĲĮ
åı² ä¸Ĭ
199 1å¹´
è½¬ åĲĳ
æī© å±ķ
4 ä¸ª
å¤ ķ
å¤§ æ¡¥
ä¾ ¨
å°¼ åħĭ
èµĦ äº§
on g
çļĦ çĶµå½±
èĦ ı
ä¸Ģ æ®µ
éĻ ¨
å®ĥ æĺ¯
æľº åĪ¶
éĵľ çīĮ
Ġ éĺ¿
è¯ģ å®ŀ
ä¸İ åħ¶
æŃ¤ æ¬¡
åĪ¶ å®ļ
ç»Ŀ å¯¹
åĬ Ŀ
å¤§ å¥ĸ
åĩ Ģ
ä¸ Ľ
è¾ °
5 1
18 0
æ£Ģ æŁ¥
å¤§ åİ¦
ç§ĳ å¤«
äºļ ç¾İ
åĮĸ åĲĪçī©
ç² Ĺ
åĲ¯ åĬ¨
Ã ©
æ³ķåħ° è¥¿
åĪĨ ç¦»
è§Ĩ é¢ĳ
éĵ ¸
çī¹åĪ« æĺ¯
åľ¨ äºİ
åī§ æľ¬
ç´§ æĢ¥
è¯Ħ ä¼°
åĿĩ ä¸º
Ġ zh
åĨľ æ°ĳ
åĵ¥ä¼¦ æ¯Ķäºļ
åĬł æĭī
æ¶ Ĥ
ä¸ ĳ
ä¸»è¦ģ æĺ¯
ä¸Ĭ æľī
ä¿Ŀ å®Ī
ä¹ł æĢ§
èĲ¨ æĸ¯
åī§ éĻ¢
åºŁ éĻ¤
åĬ «
åŁºéĩĳ ä¼ļ
2 ä¸ª
199 0å¹´
198 5å¹´
çŁ ©
åľº æ¯ĶèµĽ
åĢ ¡
h t
ä¹ĭ æĪĺ
æī «
è´ ©
èĢĮ éĿŀ
æ± °
è´¨ çĸĳ
çŃ¾ è®¢
ä¸Ń è¢«
çİ° ä»Ĭ
æ± Ģ
åİŁ åĪĻ
åĨĽ åĽ¢
å½¢ å®¹
éĻķ è¥¿
ä¸ĭ ä»¤
éĦ Ĥ
å¼ ¯
åŃ¦ å£«
ç±³ äºļ
åĬª åĬĽ
åħ¶ä¸Ń åĮħæĭ¬
ç»Ļ äºĨ
ä¼ļ éķ¿
ç»´ æĬ¤
å¸Ń ä½į
çīł ä»¬
æĭ ĺ
éĽ Į
çŃī ä¸º
åįĩ çº§
a st
é© ³
æĮĩ å®ļ
æ½ Ń
Ġ 7
é¾ Ł
æıĲä¾Ľ äºĨ
éĺ» æŃ¢
åı· çļĦ
èĥ½ éĩı
åŁİ åł¡
en d
èģĮä¸ļ çĶŁæ¶¯
åįİ äºº
ä¿Ŀ éļľ
åĭĭ ç«ł
æłĩ æľ¬
ç©Ĩ æĸ¯æŀĹ
åĽ° éļ¾
è¿Ļæł· çļĦ
æŃ» åĲİ
çļĩ åĲİ
ç§ĳ åŃ¦éĻ¢
æ¶ Į
198 4å¹´
äºļç¾İ å°¼äºļ
æĹ¶ æ®µ
æĥħåĨµ ä¸ĭ
æĺ¯ä¸Ģ é¢Ĺ
Ġ200 8å¹´
åħ¶ä¸Ń ä¸Ģç§į
åĲİ ç»Ń
åł ª
ç£ ¨
é¦ĸ ä¸ª
ç§į åŃĲ
çł ĸ
èĲ¨ å°Ķ
èĵ ¬
éĨ ĩ
å¯ Ĵ
åĪ© çĽĬ
äºĮ äºº
é©¬ éĩĮ
çķĻ ä¸ĭ
s p
äº¦ æĺ¯
æ»¡ è¶³
2020å¹´ ç¾İåĽ½äººåı£æĻ®æŁ¥çļĦæķ°æį®
å¥¥ å°Ķ
åĺī éĿĸ
å¿ ½
æĥ Ł
åĢ º
å¤§åŃ¦ çļĦ
æīĭ æľº
åĬ© çĲĨ
å»¶ éķ¿
çļĦ ä¸¤
åıĤ éĢī
æķ ¢
æľ¬ åľ°
Ġ æĹ©å¹´
ä¸» åĬŀ
åĬł å·ŀ
ä¹Ł ä¸į
æĶ¶ è§Ĩ
åĪº åı²
å° ¹
å¾· çļĦ
å¼Ĺ æľĹ
ä¸Ń éĹ´
åħ¬ å®ī
åĳ¨ æľŁ
èĮĥåĽ´ åĨħ
ä»¥ å¤ĸ
åįģ åĽĽ
åı¦ æľī
æ¶Ī è´¹
å¥ Ķ
la y
çļĦ åħ³ç³»
åĭ Ł
æ°Ķ æĹĭ
ä¸Ń æľŁ
æĬ ĳ
è®¾ å®ļ
ç»´ æĸ¯
æº ¯
æĽ´ æĸ°
ä¸ĸçķĮ ä¸Ĭ
åľ¨ åĨħçļĦ
å¤§ å¹ħ
å¤į åħ´
éĹ ª
å¹¶ ä¸İ
ä»¤ äºº
åĬŀäºĭ å¤Ħ
èº« ä¸º
çº³ ç²¹
1 ä¸ª
æ´» è·ĥ
ä¿® æŃ£
éĤ» è¿ĳ
æĺİæľĿ æĶ¿æ²»äººçī©
ä¸ľ ä¸´
ç©º æ°Ķ
åıį æĺł
é¢ ĩ
åİŁ åĲį
å½¢ çĽ®
é¤Ĳ åİħ
r an
èĩ³ äºİ
æī ¶
ä¸Ĭ ä¸ĭ
åĳĬ è¯ī
ç¢ Ł
æļ´ åĬĽ
- -
çļĦ æ°´
æĻĭ çº§
A C
ac k
198 6å¹´
Ġ200 9å¹´
åįı è°ĥ
çİ» çĴĥ
å½ķ éŁ³
æĤ ²
8 5
ä¸į åĪ°
è Ł
çİ° å®ŀ
ä¼ł åªĴ
ç¿ ħ
çĽĳ çĭ±
00 å¹´
æĭ ¼
æĭ ĸ
åĩº åıĳ
åĪ© æĸ¯
åħļ çļĦ
ä¼ļ ä¸Ĭ
å¾· å°Ķ
æİ¥ æĶ¶
ä¹¦ éĻ¢
åħ¸ ç¤¼
èķ ¾
æ·ĺ æ±°
æĹ¥ æľŁ
ä»Ĭ å¤©
éĢ ¼
æ¸ħ åįİ
åİŁ å§ĭ
åįģäºĮ å¹´
åįĩ ä»»
éĵ¶ çīĮ
é£Ł åĵģ
19 ä¸ĸçºª
æĸ¯ é¡¿
èģĮ ä½į
å½ĵåľ° çļĦ
æĸ Ĳ
å¯ ĵ
åıĳ æĺİ
ĠC h
ç«ĭ æĸ¹
å¸ĥ èİ±
æĤ£ èĢħ
æĹ¥ æ²»
æĳ §
å· ¢
ç¡®è¯Ĭ çĹħä¾ĭ
i an
å·² æľī
åħį è´¹
åİŁä½ı æ°ĳ
ç¨ »
é±¼ ç±»
äºļåİĨå±± å¤§
ä»ĸ ä¹Ł
æİ¨ å¹¿
æı´ åĬ©
E D
ä¸Ģ åľº
è¿ĳ å¹´
åĨľ æĿĳ
äº² çİĭ
çļĦ è®¾è®¡
è¥¿ åħ°
åº¦ çļĦ
ç»´ åŁĥ
èĢĥ åı¤
åī¯ ä¸»ä»»
äº§çĶŁ çļĦ
Ġ å½ĵ
æľī æľº
å¼ł ä¸ĵè¾ĳ
åľ¨ ä¸Ń
åĿ Ŀ
ç¥ ł
çĻ Į
ç«ŀ éĢī
198 0å¹´
åī¯ ä¸»å¸Ń
æĺ¾ èĳĹ
çĶŁ æĪĲ
çĶ± æŃ¤
åı¸ é©¬
6 3
ç» ³
æīĢ è°ĵ
çĲ ¼
å¿ į
å¹³ åİŁ
å¤© çļĩ
æĶ¹ åĲįä¸º
åħ¬åħĥ åīį
ä¾Ŀ çĦ¶
åĸľ åī§
æł ĭ
è£ħ é¥°
æĺŃ åĴĮ
çĲĨ è§£
åıĳåĬ¨ æľº
ç§° ä½ľ
è½¬ æį¢
é¾Ļ æ±Ł
17 9
åį± éĻ©
1 20
æĺ¯ å¾·åĽ½
ç»Ī äºİ
åľ Ń
ä¸Ģ è¯į
å±± åĮº
éĤ£ ä¹Ī
Ġ 2025å¹´
æ¸¸ è¡Į
A l
çļĦ æĪĲåĳĺ
éĿł è¿ĳ
8 7
å¿ Ļ
ç©º ä¸Ń
é¹ ¤
å®Į å·¥
è´§ å¸ģ
ä¿® å¤į
éļĶ ç¦»
åĩ Ŀ
åľ° å¸¦
ä¸Ī å¤«
æł¡ åĽŃ
ç¡® ä¿Ŀ
ä½ĵèĤ² åľº
2001å¹´ äººåı£
è¿Ľ æŃ¥
èĥ½ æºĲ
éĩĩ è®¿
æīĢæľī çļĦ
è¿Ĳ çĶ¨
äºĶ æľĪ
æīĵ ç®Ĺ
æ½ľ èīĩ
çĿ ¡
å¢ŀ å¼º
æľ¬ çīĩ
å¾· åįİ
çŁ Ľ
èĴ ¸
198 3å¹´
æ°´ åºĵ
18 4
W indow
æ¯ĶåĪ© æĹ¶
ä¼ļ åĳĺ
åį¡ ç½Ĺ
çłģ å¤´
ä¹ī å¤§åĪ©
é² ¤
æĴ° åĨĻ
èĢĮ ä¸įæĺ¯
å¯¹ æĸ¹
èĻ ¹
å¾Ĺ åĲį
éĢļ ä¿¡
æĭ¿ ä¸ĭ
E R
æł ½
æĸ¯ æĭīå¤«
æī§ æĶ¿
éĢĤ åĲĪ
æĭĨ éĻ¤
å§ Ĭ
æ³ķ çļĦ
æĸ¯ æīĺ
ä¹Ł å°±æĺ¯
èĴĻ çī¹
å»ºç«ĭ äºĨ
è©¹ å§Ĩæĸ¯
åĲ ģ
æ´¾ åĩº
Ġ ç¾İåĽ½
èµĦ æľ¬
çŁ³ æ²¹
å±±ä¸ľ çľģ
å¤§ ä¼Ĺ
èĢ Ĳ
æ³¢ ç½Ĺ
åĨħ æĪĺ
åĪĻ ä¸º
ä¹¦ ç±į
åĬŀ çĲĨ
198 7å¹´
æĮĩ ç¤º
I S
åĽ´ ç»ķ
çķĻ åľ¨
åī Ĭ
å¸Ĥ ä¸Ńå¿ĥ
ç¿ Ķ
7 2
å¼ı çļĦ
ä½Ľ ç½Ĺ
è´µ å·ŀ
I C
Ġ æĸ°
è®¤ è¯Ĩ
å»ºçŃĳ çī©
åį¢çĵ¦ å°Ķçľģ
æ³ ¡
æĪĲ å¹´
æ³ķ åºŃ
å¤© çĦ¶
åİĺ ç±³
åĩº åħ¥åı£
r ic
æĺ¯ä¸Ģ åº§
èĸ Ľ
6 1
ä¸Ģ æŀļ
æİĪ æĿĥ
åľĨ å½¢
æĶ¹ åĪ¶
ç®¡çĲĨ å±Ģ
Ġ ç¬¬
Ġ åħ¶ä»ĸ
äº ¥
å°Ĩ åľ¨
é¦ĸ çĽ¸
or t
åł Ĩ
è¾¹ å¢ĥ
æĿĢ å®³
ç»¿ èī²
èĩª æĿĢ
éĶĢ éĩı
å¸¸è§ģ çļĦ
A P
æĶ¶ éĽĨ
ãĥ »
èĢĮæ°´åŁŁéĿ¢ç§¯ä¸º 0
Ã Ĺ
éĹ ¸
æĦı åĳ³
çĽ Ĩ
æĺİ æĺŁ
åĲĦ èĩª
åĲĦ ç±»
è¾½ å®ģ
ä»¥ åįĹ
åĪĨ æĶ¯
æĢģ åº¦
æľĢ ä½İ
16 0
8 9
å¤§ éĢī
è®° å¿Ĩ
åı¯ä»¥ åľ¨
ä¸ŃåĽ½ çļĦ
åĿļ æĮģ
en s
åĲī æŀĹ
åĪĨ è£Ĥ
åĲĮ æĢ§
æł¼ æĭī
çĬ¹å¤ª äºº
éķ¿ å®ĺ
å¤« åį¡
6 äºº
æĸ ĭ
èŃ¦ åĳĬ
ä»Ĭ æĹ¥
è¾¾ å°Ķ
ä¸ĭè¾ĸ çļĦä¸Ģä¸ª
h er
æĬ ĵ
æ± Ŀ
èģĶåĲĪ ä¼ļ
åĽ½æ°ĳ æĶ¿åºľ
1 ä¾ĭ
èĥ º
å®¶ ä¸Ń
å¹³ æ°ĳ
æŁ´ æ²¹
æĹ¨ åľ¨
èĪ Ł
ç§ĳ åŃ¦å®¶
è¿ŀ ä»»
çİĩ ä¸º
æµĻæ±Ł çľģ
çļĦ åĲİ
å¼Ł å¼Ł
å¹¶ è¢«
å¿ħ è¦ģ
åĪĨåĪ« æĺ¯
ä¸ ŀ
çŃī çº§
æł ª
çļĦ äºĭ
å± Ī
Ġ 9
ä»¥ ä¸º
å¥¹ ä»¬
æĶ¯ æµģ
Ġ é¦Ļæ¸¯
åī§ éĽĨ
æĹħ è¡Į
âĢ Ļ
åħĭ æŀĹ
è¿Ļ é¦ĸ
äº² èĩª
æ¯Ľ æ³½
ç¤ ģ
èİ± èĮµ
198 2å¹´
æ»¨ æµ·
æĺ¯ é¦Ļæ¸¯
æĬ ±
äº¤ æį¢
æĭ ¨
é»Ħ èī²
éĴ »
è§Ħ èĮĥ
æĸ¯ æ´Ľ
å´ ©
Ġ ä»ĸ
æĪĲç«ĭ çļĦ
Ġ æĪªèĩ³
å¹ ½
æ¶Ī å¤±
å® °
é»ĳ é¾Ļæ±Ł
çł Ĥ
å°¤åħ¶ æĺ¯
èĪª å¤©
åįł åľ°
ä¸º æŃ¤
ä¸Ĭ å¸Ĥ
å·¥ç¨ĭ å¸Ī
è¿Ŀ åıį
i o
åĳ¼ åĲģ
æĳ§ æ¯ģ
8 00
çº§ åĪ«
ĠI n
æĦŁæŁĵ èĢħ
19 20å¹´
æĦı å¤ĸ
ç§į æ¤į
â Ķ
çĭ ¼
æĶ¶ èĹı
çŃ¾ çº¦
è¿ ¦
åľ¨ 197
å¤ļ å°Ķ
æ¬§ çĽŁ
åı¸ä»¤ éĥ¨
Ġ åī§æĥħ
æºĲ äºİ
éķ¿ åŃĲ
5 äºº
åįĩ ä¸º
æĺ¯ä¸Ģ éĥ¨
Ġ200 7å¹´
m an
æ ª
åŃ¦ çļĦ
èĭ± åĨĽ
åį¡ æĭī
åĲī å°Ķ
å°¼ è¥¿äºļ
éĻ ª
è½¦ åİ¢
è¯¥ æĿĳ
æł¡ åĮº
æ³¢ å°Ķ
n e
å¾· æĭī
å© ´
ä»¥ åĮĹ
æ¸¯ åı£
å¾Ī å¤§
æ¦ Ħ
ä»» æľŁ
å¦ Ļ
å®ī å¨ľ
195 0å¹´
æ¯Ľæ³½ ä¸ľ
åħ¶ å®ŀ
æŃĮ è¯į
è¿Ļ éĩĮ
èĦ ¸
å¾ª çİ¯
åį ¸
å°Ħ åĩ»
å¯¹ åħ¶
å¾Ĺ åĪ°äºĨ
ç§ĺä¹¦ éķ¿
Ġ æŃ¤å¤ĸ
æĬ «
åı¤ åħ¸
èµ° åĲĳ
çī¹ éĩĮ
äºļ åĨĽ
æİ¥ æĽ¿
æ¼Ķ å¥ı
èĳ£äºĭ éķ¿
I D
J R
çļĦ åĦ¿åŃĲ
ä¼ ½
é©¬ æĸ¯
æĢ§ èĥ½
200 0
åľº æīĢ
çĭ Ń
ï¼ ħ
é¡º åĪ©
b er
å¤§ å°ı
åĴ ĸ
å®¡ æŁ¥
åĮº è®®ä¼ļ
éĺ² æŃ¢
çĶŁæ´» ä¹łæĢ§
ç¦ ħ
é¦ĸ åºľ
in e
å¼º åº¦
åĽ ļ
é¦ĸ ä½į
ä¸»ä¹ī èĢħ
å¯ ®
æĪĲ éķ¿
è¢ ĭ
èĢĮ ä¸į
å·ŀ åĪºåı²
ç¥ŀ è¯Ŀ
å« ģ
å¤§ åį«
ç«ĭ åľº
7 4
äºĮ æĪĺ
ä» ķ
éĥ¨ çĶµå½±
ç´¯ è®¡
âĶ Ģ
æĭ ±
å¸Ĥ æĶ¿åºľ
çī¹ æĭī
éĢĶ ä¸Ń
è·Ł éļı
å® Ľ
éĽ į
å¾Ĺ ä¸»
é¢Ĩ äºĭ
åķĨ åĵģ
çļĦ éĥ¨åĪĨ
åįģ ä¹Ŀ
åŁ¹ è®Ń
æıĲ åıĬ
A N
æķ° ä½į
ä¸¤ èĢħ
(, ;
ç¼© åĨĻ
çļĦ éŁ³ä¹Ĳ
çĤ ī
åıĹ æ¬¢è¿İ
åĲĦ åĽ½
æł¹ å»·
ä¸» åľº
ä½Ĩ ä»ĸ
é¦ĸ æĴŃ
O N
çļĦ å¥³
çļĦ ç¬¬äºĮ
é¦ĸ å¸Ń
å¸ĥ éĩĮ
æ±Łèĭı çľģ
æĪĲ äºº
èĤ Į
åģľ éĿł
7 äºº
åĲ ¹
å°¼ å°Ķ
ä½¿ åħ¶
ä¸º åħ¶
çĤ¹ çļĦ
éĿ¢ ä¸´
éĻ· åħ¥
éķ¿ æ±Ł
çĶŁæ´»ä¹łæĢ§ ä¸įæĺİ
è¾ Ł
å¾· è¯Ń
é¼ İ
å¾· åĨĽ
è¾ ¨
éŁ µ
åĩºçīĪ ç¤¾
èĢ ķ
æľĪ çĲĥ
å°Ĩ é¢Ĩ
ç¦» åŃĲ
æ´¾ çļĦ
ä¸Ĭ åįĩ
æ£ ĺ
ç½Ĺé©¬ å°¼äºļ
æĥ ¨
èµ« å°Ķ
1 Ġ
åŁ ĭ
éķ¿ è¾¾
è¢« æįķ
èĭ ¯
ä»ħ æľī
çĶĺ èĤĥ
çļĦ è§Ĵèī²
çĶ «
åľº æĻ¯
ç °
çļĦä¸Ģ äºĽ
c e
å·´ å°Ķ
æī¿ è¯º
ä¼¼ ä¹İ
çĤ¸ å¼¹
éģ ¥
)ãĢģ ãĢĬ
éĽ ¾
å¤© ä½ĵ
åħļ åĳĺ
çłĶ åıĳ
éĽ· æĸ¯
åĲĦ ä¸ª
" .
Ġ èĻ½çĦ¶
é¢Ĩ åľ°
æ¯ı æĹ¥
æĿ¡ ä¾ĭ
æĺ¯ ä¹Įåħĭåħ°
åħ¬ æĸ¤
åīį åĲİ
éĥ½ åľ¨
ä¸Ģ åĪĩ
ä¸Ģ å°ıæĹ¶
å¸ Ĳ
æķ° çļĦ
èĢĥ è¯ķ
å¤ĸäº¤ éĥ¨
éħį å¤ĩ
è¾¹ ç¼ĺ
åĬłåĪ© ç¦ı
2 Ġ
éģĵ å¾·
è¹ Ī
éħ ·
çĪ± æĥħ
ä¼ļè®® åĳĺ
ä¸¤ ä¾§
æ¡ Ĩ
å¸¸ åĬ¡
æĶ¯ ä»ĺ
äººæ°ĳ å¸ģ
èı Ĭ
ar k
æ²¿ éĿ©
æĬµ æĬĹ
å¹¶ çĶ±
æĸĩ æĺİ
ç§¯ åĪĨ
åĩºçİ° äºĨ
Ġ èĥĮæĻ¯
åľ¨ åı°æ¹¾
æľ¬ äºº
åįģ æľĪ
åĮħ åĽ´
çĽĳ å¯Ł
åħ¬å¼Ģ èµĽ
1 åı·
å¤ ¹
åľ° è´¨
æĪĲ äºĨ
å¤ļ äºº
åı¦ä¸Ģ æĸ¹éĿ¢
çļĦ å¹³åĿĩ
è¥¿ ä¾§
å¹³ è¡¡
ç¦ı å·ŀ
äºİ19 2
æĢĢ çĸĳ
ä¸ŃåĽ½å¤§éĻĨ çļĦ
åĮº åĨħ
äºī åıĸ
è¾ŀ èģĮ
çĶŁ åŃĺ
å¼Ģ å¹ķ
è¨Ģ è®º
æ¸¸æĪı çļĦ
Ġ n
çļĦ ä½įç½®
èĥ Ĩ
r y
åľ¨ èĭ±åĽ½
åı¯ è§ģ
åĿ Ĥ
èĤ ł
ä¼¯ çĪµ
ou r
è ¤
Ġ ä¸ŃåĽ½
å¼ı æľĪåı°
æĮģ æľī
å·¡ æ´ĭ
åŃ ķ
æīĭ æľ¯
åºĨ ç¥Ŀ
çĲī çĲĥ
l y
è®¾ äºİ
å·¥ä½ľ å®¤
æī £
åĲ« æľī
æ±¡ æŁĵ
åıĳ æĮ¥
æīĢ éĩĩçĶ¨
èĭ± éĩĮ
å¥ ĭ
éĺ¿ æł¹å»·
åĪĻ åľ¨
æĬ¥ çº¸
æ² ª
æ£Ģ å¯Ł
è ¤Ĳ
æī ģ
åıĳ è¨Ģ
éĺ¿ éĩĮ
çŃĸ çķ¥
åĤ ¬
é¼ĵ åĬ±
åľ° åĲį
17 8
èĥľ åĩº
çŁŃ æļĤ
Ġ 12
éļ ĭ
çı Ģ
åħ¶ä¸Ń ä¸Ģ
çº¿ ä¸Ĭ
è¶³ å¤Ł
é¢ĳ çİĩ
é¡ ·
æıĲ è®®
æİ¨ èįĲ
çĪ± å¾·åįİ
èīºæľ¯ å®¶
åĲ §
ç«Ļ çļĦ
ic e
æ®ĸæ°ĳ åľ°
Ġ æį®
è¥ Ħ
è° Ń
åıĺ ä¸º
é¢ģ åıĳ
åĩĮ æĻ¨
è¯ ±
ç¬¦ åı·
éĹ ²
åĩº åĶ®
ä¸ľ ä¾§
è¾¾ å·ŀ
å¤§ èģĶçĽŁ
åįķ çĭ¬
çĻ» åľº
èĵĿ èī²
æĮ ĸ
åħ¶ä¸Ń çĶ·æĢ§
Ġ åľ°æĸ¹
çº ¤
æĪĲ å°±
ä¸ī æľĪ
éĢı éľ²
åĩ ī
åľº åľ°
ä»ĸä»¬ åľ¨
åĶĲ æľĿ
æĪĺ å£«
æµ· å¹³éĿ¢
Ġ æľī
ä½įäºİ ä¸ŃåĽ½
ä¿Ħ åĽ½
éĻĦ å±ŀ
éĢĤ åºĶ
å¢ĥåĨħ åħ±æľī
äºļ çĽ®
è½¦ éĺŁ
åĻ¨ çļĦ
åĨĻ ä½ľ
èµŀ åĬ©
çĽ´ å¾Ħ
å¼Ĺ éĩĮ
åľ¨ 196
è¿½ æº¯
é¢ģ å¥ĸ
åĩŃ åĢŁ
å°Ķ å¤«
éĿĴ å²Ľ
è¥¿ æİ¥
é¢ Ī
åĪ¶ çīĩ
æīĢ å¤ĦçļĦ
æł¼ ä¸º
åı² å¯Ĩ
195 8å¹´
æĽ¿ ä»£
èģĶ ç»ľ
æ²³ çļĦ
èº« åĪĨ
çĵ¦ å°Ķ
èĸ ª
A n
äººåı£ ä¸º
é¹ ħ
äºİ201 6å¹´
æ° ¨
åħ¬ äº¤
ç¬¬ ä¹Ŀ
æŃ£ éĿ¢
åĽĽ æľĪ
åĢ¾ åĲĳ
9 2
9 3
åĲ ŀ
æĿĳ èĲ½
8 6
f f
çļĦ å½¢å¼ı
åľ¨ ä¸Ģ
ä¸¤ ä½į
æĻ® é²ģ
èħ Ķ
æ£ ķ
æľª æľī
ä¸Ńåįİäººæ°ĳåħ±åĴĮåĽ½ æĶ¿æ²»äººçī©
çļĦ æĸ¹æ³ķ
æĹł çĹĩçĬ¶
éĽĨ åĲĪ
194 8å¹´
åįļå£« åŃ¦ä½į
æĽ °
æ±ī æĹı
æ²³åįĹ çľģ
çļĦ æĢ»
æ¸¸ åĩ»
è¶³ åįı
å®£ ç§°
æĸ ¥
å¥ ¶
å½ĵ æĹ¥
æŃ£ ç¡®
" ),
åľ¨ ä»ĸ
åĬ ²
å¿ ĺ
ç§ĳ å°Ķ
å·¡æ´ĭ èĪ°
é«ĺ è¾¾
å¤© åĲİ
é¢Ħ ç®Ĺ
åĲ¸ æĶ¶
åľ¨ æĸ°
éķ¿ æ²Ļ
æī© å¼ł
ç«ŀ èµĽ
Ġ200 6å¹´
å½ĵéĢī ä¸º
åĨ ķ
åĽ½ åĨĽ
7 3
o h
åı¤ èĢģ
éº Ł
000 äºº
æĺ¯ åĽłä¸º
æµ·æĭĶ ä¸º
ç§ĳçļĦ åħ¶ä¸Ńä¸Ģç§į
åĽ Ĭ
æĹ¶ åĢĻ
æ³ķ è¯Ń
è¶³çĲĥ éĺŁ
Ġ 0
æĸĩ èīº
åī§ åľº
æ¯ı å¤©
åŁ¹ åħ»
çĲ ª
åħ¬ åĳĬ
è¥¿ éĩĮ
æĪĳ çļĦ
Ġ åľ£
åĲ »
èĪŀ è¹Ī
éĴ ĵ
å·² çŁ¥
åĨ³ è®®
å¹² éĥ¨
èľ ľ
æľº çļĦ
æ°Ķ åİĭ
ç¢ §
æģ© çľģ
éĿŀ æ³ķ
è± «
ç¢ ±
éŃ ģ
ä¸¥ æł¼
éģŃ éģĩ
æķĪ åºĶ
å® ´
èĪ¹ åıª
äºĴ çĽ¸
è¿Ļ é¡¹
å®ī ä¸ľ
çĶµ æ°Ķ
æĹł è®º
åĪ¶ä½ľ çļĦ
äº« å¹´
è¶³çĲĥ è¿ĲåĬ¨åĳĺ
éĢĲ æŃ¥
é¸Ł ç±»
åī ª
åĪĽ å§ĭ
s s
æİ ł
åĲĪ æ³ķ
æ¼ ı
å¸Ĥ æĶ¿
åĲĮ æĹ¥
ç¾İåĽ½ çļĦ
è¶ħ è¶Ĭ
è®¾è®¡ çļĦ
åĪĨ åĮº
å§ ľ
è§Ĩ è§ī
å¤§ å¸Ī
èĢģ å¸Ī
è¶³çĲĥ ä¿±ä¹Ĳéĥ¨
åģ¶ åĥı
å§ĭå»º äºİ
Ġ ä¸Ń
ç© ·
å¤ĸ éĥ¨
æĪĲ éĥ½
åĬł éĢŁ
å½¢ çĬ¶
åıĳçĶŁ åľ¨
å®¡ åĪ¤
å½ķ å½±
åıĮ æīĵ
å¤§ éĺª
åĽł åħ¶
æ£ ī
æļ ¨
é¢Ħ æµĭ
æıı ç»ĺ
æł½ åŁ¹
æĿ¥ è¶Ĭ
çĽ´ éļ¶
un d
åĴ ¨
äºİ201 5å¹´
s h
194 6å¹´
çº¦ æľī
ä»İ æŃ¤
ç¾¤ ä½ĵ
ä¸»ä¹ī çļĦ
æıĲåĩº äºĨ
æķĳ æı´
åħħ æ»¡
åĵĪå°Ķ æ»¨
a i
åĪ ł
æĹ¶ åĮº
éĶ Ĳ
202 6å¹´
æ¸¸ å®¢
åĪĽ æĸ°
æļ ĸ
èĭı ä¸¹
ä»ĸæĽ¾ ä»£è¡¨
Ġ æĺ¯
è· µ
ä¸ī äºº
æİ¥ ä»»
æº ĥ
æĵ ħ
åģĩ è®¾
å¤ıä»¤ æĹ¶éĹ´
çļĦ ç¾İåĽ½
çĲĨ å·¥
æģ Ń
éĤ ª
å¯» æ±Ĥ
éĥ¨ ç½²
æĶ¶ åĪ°
æ¨¡ æĭŁ
è¶Ĭ æĿ¥è¶Ĭ
æĸĹ äºī
æĸ ©
æ¯ ħ
æļĤ åģľ
ç¦ıå»º çľģ
it h
å½± åĥı
èĮ ħ
åĽĽå·Ŀ çľģ
âĢĿ )
èģĶ ç½ĳ
åĬłåħ¥ äºĨ
ç§° åĳ¼
198 1å¹´
éĺ¿å°Ķ åįĳ
Ġ ä¸ĭ
å¸ ½
æĺ¯ ä¸º
çĲĨ æĥ³
éħį ç½®
è¿ģ èĩ³
å¼Ģå§ĭ åľ¨
çļĦ åĲįåŃĹ
ç¨ Ģ
è§Ĵ åº¦
åĽ½éĻħ æľºåľº
197 9å¹´
ç§ ©
æĹı ç¾¤
åĽ¾ åĥı
ub e
ä»¥ ä¾¿
18 3
è¾ĵ åĩº
æīĢåľ¨ åľ°
8 2
çļĦ åİŁåĽł
è¡Į ä¸ļ
å·¥ èīº
æīĭ æ®µ
èª ĵ
æļĤ æĹ¶
åĩ ¶
å» ĸ
å±ł æĿĢ
ä¸ľ æµ·
çĽ´ æĴŃ
æĺŁ çŃīä¸º
ä¼Ĭ åĪ©
ä¾Ŀ èµĸ
äºİ201 4å¹´
èģļ éĽĨ
åĲİ è¢«
åģľ è½¦
æĹłçĹĩçĬ¶ æĦŁæŁĵèĢħ
éĺ¿å°Ķåįĳ æĸ¯
å¸¸ å§Ķ
ä½İ äºİ
æĢ ķ
äºİ19 0
ç»Ħç»ĩ çļĦ
I P
ç¼ ´
ä¸¾åĬŀ çļĦ
ç¹ģ æ®ĸ
è·¯æĺĵ æĸ¯
èĤº çĤİ
åľ¨ ä¸Ģèµ·
on t
ä¼ļ æľī
æĸ¯ åį¡
åĪ¶ä½ľ äºº
éĹ» åĲį
ç« Ł
æķĻ å®Ĺ
äºĮ æľĪ
èĤ ¤
åħ±åĴĮ åħļ
å¸ ĸ
ç½Ĺ ä¼¯çī¹
ä¸Ń æľĢ
åľ¨ åĮĹäº¬
åĲĮæĹ¶ è¯¥åľ°
9 6
ãĢĭ ãĢĬ
ä¾ £
å·¨ å¤§
åĪ¶ æĪĲ
çļĦ è¯Ŀ
åħĭ å°Ķ
ç»´ å¤ļ
èĲ½ æĪĲ
éŀ ĭ
äºİ201 2å¹´
5 ä¸ª
5 ç±³
åŃ¦ ç§ĳ
å®¤ åĨħ
åĨħéĻĨ çľģä»½
æ¼ ł
çº¢ åĨĽ
äºİ201 8å¹´
ä¿Ŀ éĻ©
èĴ ²
çĶ° å¾Ħ
çļĦ æĥħ
æľª çŁ¥
å¯Ĩ åĪĩ
è´¹ çĶ¨
å° ¿
è®¤ åı¯
æ¶Ī éĺ²
Ġ ä¸º
å¤© åłĤ
éĺ² ç©º
è¾ħ åĬ©
v er
è½ ©
ä¸» äºĭ
èĭ± åĳİ
äº¤ ç»Ļ
äºĶ ä¸ª
çłĶç©¶ éĻ¢
è§Ĥ çľĭ
197 8å¹´
éĤ ±
æīĵ çł´
æ¡¥ æ¢ģ
| |
çļĦ æĹ¥
ä¸Ģ èģĮ
ç½Ĺ å¾·
ç¨ £
è®¤ è¯ģ
èĩª æĪĳ
è·¯ æ®µ
çĭ¬ç«ĭ çļĦ
æľĢé«ĺ çļĦ
åĨĴ éĻ©
éĥ¨ éĥ¨éķ¿
çĲĨ çĶ±
å§Ķ æīĺ
åķĨ åºĹ
çĶ» å®¶
å« ©
ä¼ļ è¯ķ
çī¹ åĮº
äºİ201 7å¹´
æ£Ĵ çĲĥ
âĢ ĺ
æĪĺ éĺŁ
èĢ¶ ç¨£
å¡ŀå°Ķ ç»´äºļ
å¥ ł
8 äºº
c om
äºº æĿĥ
å·´ æĭī
éĩı åŃĲ
åī¯ ä¹¦è®°
èģļ èĲ½
å¤© æ°Ķ
èµĦ åĬ©
èĬĤ åº¦
ç¬¬ 4
æ¼Ķ åĮĸ
æĶ¹ è¿Ľ
å¼Ĺ éĽ·
Ġ ç®Ģä»ĭ
ä»¥ ä¸ĬçļĦ
æĶ¹ ç§°
è¯Ħ ä¸º
é£Ł çĶ¨
æĴ¤ éĢĢ
å¤©æĸĩ åı°
æľ¬ ä½ľ
åĬł åĵ¥
æī© å»º
å½± è§Ĩ
æł Ĺ
åħ¶ä¸Ń ä¸Ģä¸ª
çļĨ ä¸º
çĽ¸åĲĮ çļĦ
èĬĿ åĬłåĵ¥
ç© ´
éĢļ çŁ¥
åİŁ åħĪ
é©¬ ä¸ģ
çĤ ¼
åº§ æłĩä¸º
æ´Ľ åħĭ
çĻ¾ ä¸ĩ
åıĳè¡Į çļĦ
è´§ è¿Ĳ
è½°çĤ¸ æľº
ĠæĽ¾ ç¥ĸ
A S
ä»¥ æŃ¤
ä¸į æķĮ
ä½įäºİ è¯¥
Ġåľ°æĸ¹ èµĦæĸĻ
äººæ°ĳ ä»£è¡¨å¤§ä¼ļ
æ¤ İ
äºİ201 3å¹´
å¤§ å¤«
èĭ ¹
å±ķ çİ°
çļĦ æĿĳåºĦ
çº³ åħ¥
è®¸ åı¯
ç» ¥
çľ ł
çī¹ æľĹ
æĸ¹éĿ¢ çļĦ
è´§ çī©
çİĭ åŃĲ
åıª è¦ģ
é¸ Ń
ä¸º æĸ°
æĹ¶ æĬ¥
ä¸ĭ ä¸Ģ
è¿Ļ åº§
ä¼Ĺ è®®éĻ¢
èħ ¿
æ¶µ çĽĸ
Ġ äº¤éĢļ
æĪĺæĸĹ æľº
æł¼ å°Ķ
éľ ŀ
çº¦ çĳŁ
åį³ å°Ĩ
ç¬¬ä¸Ģ ä½į
åħ« æľĪ
æĥ³ è¦ģ
äºİ 2019å¹´
æŃ» åĪĳ
è´¢ äº§
éª ļ
å· ·
æľī è®¸å¤ļ
ä¸į è¦ģ
ä¸ĥ æľĪ
åģļ åĩº
åıĽ ä¹±
c n
ä¸Ĭ éĺµ
æľ¬ çº¿
åĨħ èĴĻåı¤
ç«ŀ æĬĢ
u g
ç§° åı·
äºĶ åįģ
194 1å¹´
ä¸ ¸
äºİ 2020å¹´
æĸ¹ ä¾¿
å¨ ħ
èħ º
è½¯ ä½ĵ
å¤ļ åĲį
æľį è£ħ
éģŃ åıĹ
9 7
è¿Ľ åħļ
ä¹¦ ä¸Ń
åįķ åħĥ
èħ ĵ
åĮº éĹ´
, ),
çļĦ æĶ¿æ²»
æ¶ Ľ
æŁ¥ çĲĨ
åĲĮæĹ¶ ä¹Ł
å·¦ ç¿¼
å¤§ä½¿ é¦Ĩ
éĩį éĩı
åĽŀ å¿Ĩ
æĭī çī¹
èį ¡
oc k
ä¸ľ äºļ
è° Ĭ
éĩĳ å±±
è£ģ åĪ¤
åĮº åĪĨ
èµ· åĪĿ
å¨ ¶
çĽ´ åįĩ
ç¤¾ ç¾¤
è¿Ľè¡Į çļĦ
åĮĹæµ· éģĵ
9 äºº
è°ĥ å¿«
194 4å¹´
æ²³ è°·
åĨĻ éģĵ
æ¶ī å«Į
ä¹ĭ ä¸º
èĲ¥ ä¸ļ
åį« éĺŁ
é±¼ éĽ·
åĪĨå¸ĥ åľ¨
Ġ åħ¶
è® ¼
è¯¥ çīĩ
éĺ³ å¸Ĥ
æķĮ äºº
æŃ¤ ç«Ļ
ç©º è¢Ń
åįı å®ļ
16 2
ä¸º UTC
ä¼łç»Ł çļĦ
è¾Ĳ å°Ħ
æĺ¯ åı°æ¹¾
ä»¥ ä¸ľ
çī¹ å°Ķ
éĵ ĥ
åł ¤
å¾ģ æľį
èŀį åĲĪ
æ³ķ ä»¤
ä½Ĩ åĽł
æł¼ éĽ·
éĿĴ å°ĳå¹´
åĺī ä¹ī
æ¯ Ĺ
æĬ Ħ
æİ ©
åıĤ æķ°
è¿ŀ è½½
åĻ ¶
åıĤ è®®éĻ¢
æ¯ı åĳ¨
æĪĺ æľ¯
çļĦ ä¸į
è½¬ çļĦ
c eĠ
ç§į ç±»
éĩį è§Ĩ
) :
è¥¿ æĸ¯
é¢Ĩ åħĪ
ç»Ī çĤ¹
ç£ ·
è§ī å¾Ĺ
åı¯ åľ¨
Ġ200 5å¹´
æ³ķåħ° åħĭ
èĪ Į
å¦Ĥ ä»Ĭ
æħ °
è°ĥå¿« ä¸Ģå°ıæĹ¶
ç Ģ
ä¸Ģ ç³»åĪĹ
éĥ ģ
17 7
å§Ķåĳĺä¼ļ å§Ķåĳĺ
æ¿ Ĵ
ä¾į éĥİ
èĩ Ĥ
æĪĲ çĨŁ
å¸ĥ æľĹ
ç¤¾ äº¤
åį³ UTC
è®¾æľī å¤ıä»¤æĹ¶éĹ´
çļĦæĹ¶åĮºä¸º UTC
èĢĮè¯¥åľ° æīĢéĩĩçĶ¨
åĲĮæĹ¶è¯¥åľ° è®¾æľīå¤ıä»¤æĹ¶éĹ´
èĢĮè¯¥åľ°æīĢéĩĩçĶ¨ çļĦæĹ¶åĮºä¸ºUTC
æ¼Ķ è®²
åį¡ æĸ¯
è¿Ļ åľº
éķĩ åĮºçļĦ
äº¤ æ±ĩ
åįķ ä¸Ģ
ä½¿çĶ¨ äºĨ
æ»¡ æ´²
å»¶ ç»Ń
ä»£ çļĦ
éĢļ å¾Ģ
åŁİ çļĦ
çĥ ¯
çĪµ å£«
çļĦ æľĢ
å·¥ ä¼ļ
ä»İ æľª
åŀĭ åı·
8 4
è´ ·
æĦŁ è§ī
197 2å¹´
ç²ī ä¸Ŀ
é«ĺäºİ æµ·å¹³éĿ¢
M V
u re
æĢ» çĽĳ
æį· åħĭ
1 10
1 5å¹´
7 æľĪ1æĹ¥
æĮ ¡
è¯¥ åħ¬åı¸
ä½Ļ äºº
æİĴè¡Į æ¦ľ
ä¼ļ è¢«
åİ¿ çŁ¥åİ¿
çĽ¸å½ĵ äºİ
æīĢå¤ĦçļĦ æµ·æĭĶä¸º
æīĢå¤ĦçļĦæµ·æĭĶä¸º é«ĺäºİæµ·å¹³éĿ¢
ä¹ĭ å¤Ħ
éĥ½ è¢«
æŃ£ æľĪ
è¡¥ åħħ
a h
Ġ 190
åº ¶
æľī èĳĹ
çİ ²
åŃĲ å¥³
æķĻèĤ² éĥ¨
éª Ĺ
ä¼¤ äº¡
å®īå¾½ çľģ
å¸ Ĩ
ä¸» å¯¼
æĸ° åĨł
å¤§ éĿ©åĳ½
èģ ª
æĦ ¤
ä¿Ŀ è¯ģ
æĻ® ç½Ĺ
åıĤä¸İ äºĨ
æĹłäºº æľº
o x
å¼ ĵ
åľ° å½¢
çİ° åŃĺ
åķĨ äºº
I T
Ġ åı°æ¹¾
æ°¸ ä¹ħ
7 00
æĪĺ åľº
åĲĪ åĲĮ
æł¼ éĩĮ
é² ¸
æĹ© ä¸Ĭ
197 6å¹´
è¯¦ ç»Ĩ
ç»´å¤ļ åĪ©äºļ
èį Ĩ
äºİ201 0å¹´
èĦ± ç¦»
ç»ĺ çĶ»
æµ· ä¸Ĭ
åħ· å¤ĩ
å¾Ī å°ĳ
äºĴ åĬ¨
çİ°åľ¨ çļĦ
å·ŀ éķ¿
å°¼ åı¤
å²Ľ ä¸Ĭ
çĵ ¶
å¡Ķ å°Ķ
çĻ» è®°
195 6å¹´
8 1
éĿ¢ ä½ĵ
æ¡ Į
ä¼ł æķĻ
åį³ åĮĹç¾İ
æĮĩæĮ¥ å®ĺ
a w
æĺ¯ ä¿Ħç½Ĺæĸ¯
äºİ 2021å¹´
ç¥ ¯
è·¯ åı£
å²Ľ çļĦ
äº¬ éĥ½
è¯º å¤«
o y
æ¾ Ħ
æ© Ħ
éħ ®
èİ· èĥľ
åºı åĪĹ
èĤ¡ä»½ æľīéĻĲåħ¬åı¸
9 4
åľ° äºļ
åįģ ä¸ĥ
éĽĨ ä½ĵ
æ¸ ł
æ²³ éģĵ
æİ¢ éĻ©
éķĩåĮºçļĦ éĿ¢ç§¯ä¸º
äº ©
åį³ ä½į
. âĢľ
çļĦ æŃĮæĽ²
ä½ľ ä¸ļ
æĽ´ å¤ļçļĦ
æĸ½ å·¥
14 0
åº ĩ
ä»¥ è¥¿
åĲİ åľ¨
åĪĨ ä¹ĭä¸Ģ
æµģ ä¼ł
ç¿Į å¹´
çļĦ ç¥ŀ
äºĨ ä»ĸ
æĢ» è£ģ
éĢī åĩº
åĪĩ å°Ķ
èļ Ģ
ä¼Ĭæĸ¯åħ° æķĻ
çļĦ åıį
ä¼ ŀ
å§ ¿
èĩª ç§°
åĽĽ ä¸ĸ
è¾ĸ åĮº
193 7å¹´
æķĪåĬĽ äºİ
. (
å§ ĳ
å¤ļ æł·
å¾· æĦıå¿Ĺ
éĤ ĳ
å¤Ħ éķ¿
16 4
15 8
åįĹæŀģ æ´²
æ Ĩ
åĽ½ éģĵ
åħ¬ é¡·
çļĦ è¡Įä¸º
ä¸» åĬ¨
èĬ Ń
æ©Ħ æ¦Ħ
6 ä¸ª
ç» ĳ
è¡Į äºº
èĩ´ åĬĽ
çģŃ ç»Ŀ
ä½Ľç½Ĺ éĩĮ
ç»´ åŁº
æĿŃ å·ŀ
M A
Ġ æĹ¥æľ¬
çļĦ åŁºç¡Ģ
ä» Ĩ
åº ļ
æ³ Ħ
ä»ĸ ä¸º
åĨħ åľ°
æ» ķ
éŃĶ æ³ķ
G o
äºĮ çº§
æ¤ ħ
äºĴ èģĶç½ĳ
ä¹Ł æ²¡æľī
æĶ¹ å»º
å®¹ çº³
ä¸»æĮģ äºº
æľĢ ä¸º
ç»ı çĶ±
å·´ åĭĴ
195 2å¹´
ä¸ľåįĹ äºļ
i e
åľ¨ ä½į
æ±ī åŃĹ
k m
ç¥ Ī
éĢļ çĶ¨
çĽ¸ åıį
çıŃ æ¬¡
çĪ ·
å°ĳ å°Ĩ
åĩº åľº
æĶ¿ åıĺ
æ°Ķ ä½ĵ
193 8å¹´
çļĦ æīĢæľī
éĥ¨ å°ļä¹¦
è¢« åĳĬ
æ²¿ å²¸
ig n
ä¸İ æŃ¤
194 7å¹´
çĸ« èĭĹ
8 3
å±± è¥¿çľģ
åħŃ æľĪ
ç¾¤ ä¼Ĺ
i b
åŃ¦ ç³»
ç½ ©
åķĨ åľº
15 7
r am
Ġ çĶ±
çļĦ éĿ¢ç§¯
ä»¥ 1
åĬł å°Ķ
åį« è§Ĩ
æ¡£ æ¡Ī
çļĦ ç»ĵæŀľ
æ¼Ķ èīº
195 5å¹´
èĭ¹ æŀľ
o ok
p h
å¹¶ æĹł
æ¸¯ åħĥ
åķ ¡
Ġ v
åĬ £
æĺ¯ ä¸ª
æĭħ å¿ĥ
æĶ» åįł
çº§ èģĶèµĽ
æħ İ
Ġ ä¸ªäºº
ãĢĭ( "
éĢ ¸
å¸ĥ éĽ·
å®ŀ ä½ĵ
è¿ŀ ç»ĵ
äºİ201 1å¹´
s on
å±± åİ¿
æĥ §
æ¸ħ æ¥ļ
é¹ ı
æİ¢ ç´¢
éķĩ åİĭ
æĻ®é²ģ å£«
ð «
çļĦ çĶµ
éķ ĳ
éķ¿ çº¦
198 0å¹´ä»£
æł¸ éħ¸
æŀ¶ æŀĦ
è´ ª
çŁ ®
åįķ æīĵ
çĥ ·
å¼ķ çĶ¨
åĢ¼ å¾Ĺ
åĪ¤ åĨ³
æ°ĳ è¿Ľåħļ
16 3
èľ Ĥ
æĺ¯ä¸Ģä¸ª ä½įäºİ
p er
ç¬¬ 5
é³ ŀ
ä¸Ń å°Ĩ
çİ° ä¸º
H D
ç»´ åħĭ
æī ĳ
åĨĽ äºº
æľŁ çļĦ
å¥³ çİĭ
æ¨ ±
çļĦä¸Ģ æĿ¡
ç¦ı å¾·
è¡ĮæĶ¿ éĻ¢
æĪĲç«ĭ äºĨ
éĴ¢ çĲ´
ec tion
.. .
Ġ ä¸»è¦ģ
è´ ¼
åħ± è®¡
æĢ» ä¼ļ
æł¼ æŀĹ
æĶ¾ åľ¨
P S
äºİ 2022å¹´
åĲį äºº
å¹³ çŃī
åĪ© çļĦ
è° ´
çº³ å·ŀ
è¸ ı
å½» åºķ
åĮĹ ä¾§
å¤© çļĦ
å®ŀ è·µ
å»ºçŃĳ å¸Ī
æıĲåĩº çļĦ
åı²å¯Ĩ æĸ¯
c t
éĢ ¾
åİŁ ä¸º
æĺŁ ç³»
ä¿® éģĵ
ä¿Ħ åĨĽ
ä¹¡ éķĩ
196 8å¹´
i re
éĩį è¿Ķ
ä¿® è®¢
å±Ĥ çļĦ
2 åı·
ä¸ĭ äºĨ
å¤« å¦ĩ
ä¹Ŀ æľĪ
æ²³åĮĹ çľģ
u st
åĪĨ æł¡
æ±Ł æĪ·
å¸Į å°Ķ
åĬ³ å·¥
Ġ å¯¹
ä¸Ģ éĥ¨
ä¸» åĬĽ
åĵ ª
è¿ª å£«
çļĦ åŁİå¸Ĥ
åħ¶ ä¸º
çŃ Ĵ
æĸ° å»º
åĪĹ åĩº
æ¡ĥ åĽŃ
You T
Ġ è¥¿
Ġ é©¬
è¡Į èµ°
æµ· åįĹ
è¯¥ åħļ
ç»´ ä¿®
çª Ħ
èµ Ķ
åľ° ä¸Ń
åįĹ ä¾§
æł¼ é²ģ
193 9å¹´
e y
çĶ» éĿ¢
æķ´ åĲĪ
éĻ¨ çŁ³
å¤´ è¡Ķ
äº§çĶŁ äºĨ
äºĭå®ŀ ä¸Ĭ
Ġ çĽ®åīį
æķ ²
èĤ ¢
å¼ķ è¿Ľ
Ġ å®¶åºŃ
åıĹ å®³
å½ķ åĪ¶
å¥½ è¯Ħ
194 0å¹´
çº ł
æĬ Ľ
å½ĵ ä»£
èĹ »
ä¼¤ å®³
çĲĨ æŁ¥
å§Ķ ä»»
è¯ģ åĪ¸
è¿ªå£« å°¼
/ &
çļĦ æĹ¥æľ¬
ä¸Ĭ äºĨ
è¾ĥ ä½İ
ä»į åľ¨
A r
åĲ Ĭ
è° ¥
å¤© ä¸ĭ
196 0å¹´
195 4å¹´
ä¸Ģ é¡¹
åĨ Ģ
äºİ 2023å¹´
èµ· è¯ī
è®® å¸Ń
194 2å¹´
èĩªè¡Į è½¦
çļĦ è¯´æ³ķ
åĿ Ł
æŃ¤ åīį
ä¼Ĭ æĭīåħĭ
çĽŁ åĨĽ
åĩ ¸
åĮº åĪ«
ä¸» æĿĥ
éģ ®
ä½¿çĶ¨ èĢħ
çĻ¾ å¹´
åįł æį®
æĥ ©
å®ĺ èĩ³
o st
Ġ éĻ¤äºĨ
ãĢģ ãĢĬ
åľ¨ åĮĹ
å¤ļ é¡¹
ä»» æķĻ
å»º äºİ
åĶ¯ä¸Ģ çļĦ
g e
ä¹Ł æĽ¾
çĽ® çļĦæĺ¯
åĸ ĩ
åİĨåı² åŃ¦å®¶
åĲİ æĸ¹
æĴŀ åĩ»
7 1
å°ģ ä¸º
è¯Ĺ äºº
Ġ æĿİ
æŃ ī
è¯º æĽ¼
æĥ³ æ³ķ
æľĽ è¿ľ
Ġ åīį
Ġ çĦ¶èĢĮ
Ġ æķħäºĭ
æĪĺ åĪĹ
è®¤ åĲĮ
èĥĮ é³į
ç¬¬ä¸Ģæ¬¡ ä¸ĸçķĮå¤§æĪĺ
çĩĥ æĸĻ
i z
è¢« ä»»åĳ½ä¸º
æĹłçº¿ çĶµè§Ĩ
çĶ ľ
èµ £
åĪĻ æľī
æŃ¦ å¸Ŀ
194 3å¹´
Ġ èĢĮ
æľ µ
åĪ° çļĦ
æĶ» æīĵ
197 5å¹´
U n
å± ¥
æłĩ è®°
çĶ· å¥³
å®ĮæĪĲ äºĨ
æ¬¡ äºİ
æĥħ ç»ª
é£Ł æĢ§
197 0å¹´
æĲº å¸¦
æĹ¥ åĲİ
åħ¬ åĬ¡
é¢ ł
èĭı ç»´åŁĥ
S S
è®® é¢ĺ
æĤ ł
å¢ŀåĬł äºĨ
äºİ200 9å¹´
ç» µ
åŁİ å¢Ļ
äº¤ çķĮ
èĽĭçĻ½ è´¨
åİ ¥
ä¸Ĭ è¯ī
æĸ¯ åł¡
åĲĮ åĲį
äº¤ åıī
æ¨¡ çī¹
å¡ŀ çº³
è°´ è´£
åľ¨ æ³ķåĽ½
æ¸ Ĭ
éĻ¤ æŃ¤
åį° ç¬¬
ĠT he
æĦ¿ æĦı
èµĽ çļĦ
å®ļ æľŁ
èĬ Ļ
æ¢ ¨
è¿ĺ åľ¨
ç»ıæµİ åŃ¦
åħĪ è¿Ľ
15 6
15 9
æ¹ĸ æ³Ĭ
ä¸ĭè¾ĸ ä»¥ä¸ĭ
çŁĽ çĽ¾
åį §
çī© åĵģ
è¯¥ æł¡
çī¹æľĹ æĻ®
æĺ¯ ä¸Ńåįİäººæ°ĳåħ±åĴĮåĽ½
éĤ µ
éĵģè·¯ è½¦ç«Ļ
æĻº æħ§
å²© çŁ³
ç½Ĺ å¤«
åĽ¢ ç»ĵ
åºĶ å¯¹
éĺ³ åİ¿
è°ĭ æĿĢ
çļĦ ä¸ŃåĽ½
12æľĪ 31æĹ¥
ä¼Ļ ä¼´
çĽ´åįĩ æľº
å¼Ģ å·¥
åĿ ł
çĤ Ń
è¿ĳ ä»£
äºº æ¬¡
åī ¥
ä»£ æĽ¿
éģĵ åħī
æ²Ļ çĶ°
çĶŁéķ¿ äºİ
S p
Ġ ä½¿çĶ¨
æĶ¶ è´¹
ç«ĭæ³ķ ä¼ļ
e ar
i es
æľĢæĹ© çļĦ
æĶ¹åĪ¶ ä¸º
è¿ĩ çļĦ
éĥ½ çĿ£
æıĲ äº¤
å¸¸ å¸¸
æ¸ħ ä»£
ä»į æľī
éĢīä¸¾ ä¸Ń
å¦¹ å¦¹
æľĽè¿ľ éķľ
å¤§ éĺŁ
çº¿ æĢ§
a z
ä¸º 0
å¥ ¸
éĩĮ åħĭ
çĲĨ å¿µ
çķ ħ
æĽ´ æį¢
æĤ ¦
åıĳçĶŁ äºĨ
èı² åĪ©
å·¨ å¤§çļĦ
å¼Ģ åĬŀ
çº³ å¾·
ä¸ĵ çĶ¨
åĵĪ åĪ©
éļ¾ æ°ĳ
é¢ģ å¸ĥ
æŀ¢ çº½
éĢ» è¾ĳ
åį°ç¬¬ å®ī
æĮĩ æķ°
it y
çļĦ åľ°åĮº
ä¸ª ä½ĵ
æĶ¹ åĲį
æ´Ľ æĸ¯
éĻį éĽ¨
æĹ ±
æ±Ł åįĹ
ä¸Ģ äºº
ä¸» ç®¡
çľģ çļĦ
åĽĽ å¤§
æĹ¥æľ¬ çļĦ
ä¹ĭåĲİ çļĦ
æĶ¿ åĬ¡
å¯¹ éĺµ
æīĢ éľĢ
çĪ± åĽ½
S M
èµĽ ä¸Ń
åħ¨ ä½ĵ
è¯Ń éŁ³
èģĮ åĳĺ
å¼º åĪ¶
æ© ¡
i al
ä»¥ 2
V D
è¡Į é©¶
æİĴ åĪĹ
æµİ åįĹ
æĹ¶ä»£ çļĦ
(; ),
l u
èĤ ©
or d
ä¸º åŁºç¡Ģ
è½¬ ä¸º
åįı åķĨ
ä¹ł æĥ¯
å´ ĸ
196 4å¹´
åıĤè°ĭ éķ¿
å¯¹ ç§°
çİ° æľī
è° ģ
å¤ĸ è§Ĥ
éĢī ç§Ģ
è¿· ä½ł
ec t
m er
å° ĺ
æĹ¥ å¸¸
ä¸ī åĽ½
æĥ ľ
æł¼ åĭĴ
ä¹¦ åĨĻ
ç½Ĺé©¬ å¸ĿåĽ½
åĪĳ äºĭ
èĸ ĩ
ä¸įå¾Ĺ ä¸į
åĲĪ åĶ±
æĢ§ åĴĮ
æİ¥ èĳĹ
æł¹ æľ¬
å¤´ éĥ¨
å¥ĸ éĩĳ
åį° åĪ·
è¥¿çıŃçīĻ è¯Ń
åĴ¨ è¯¢
S h
ä¸Ń åıĳçİ°
æĺ¯ ä¸ºäºĨ
ç«ĭ éĻ¶
ä¸º ä¸ŃåĽ½
çī ²
æģ ¨
; /
äºĨ ä»ĸçļĦ
ãĢĮ ãĢį
èµĽ è½¦
æ¢ µ
è½¬ ä¼ļ
å¡Ķ å°¼
èĬĤåº¦ ä½¿
çļĦ åĨħå®¹
ä¸Ģ å¤©
ä½į çļĦ
å¯¹ è¯Ŀ
è° į
èħ °
ä¸¤ å²¸
çĪ ª
åĽ¾ æ¡Ī
ä¼Ĳ åĪ©äºļ
Ġ andĠ
è° Ĳ
åĩĨ ç¡®
åĨł çĬ¶
è®© ä»ĸ
1 30
åĲį è¯į
åĵ Ģ
èĩª æŃ¤
æŃ¤ äºĭ
é¦ĸ åº¦
é¢ĺ æĿĲ
ä½ı æĪ¿
çĽ Ī
çĶ¨ ä»¥
ç«Ļ æĪ¿
ç»¼ èīº
æĢ ¡
è§Ĥ åħī
çģ« è½¦
åľ¨ è¥¿
ä»ĸ è®¤ä¸º
é«ĺ åİŁ
å¼¹ èį¯
æĻº èĥ½
éķľ å¤´
ĠP ro
çĥŃå¸¦ é£İæļ´
åŃŁ åĬłæĭī
æ¹ĸåįĹ çľģ
éĵ İ
èĻ ı
æĪĲç«ĭ åĲİ
æİ¢ æµĭ
å½ķå½± å¸¦
èĩ Ģ
äºĨ è®¸å¤ļ
ä¸Ĭ å¸Ŀ
åĬ¨ è½¦
è° ¦
èī² å½©
äºİ200 8å¹´
é©¬åħĭ æĢĿ
çĽ¸ åºĶ
é¾Ļ çļĦ
Ġ 11
ç« £
ä½ĵ åĪ¶
ç»´ ä¹Ł
ç»§ ä»»
åıĭ å¥½
ç«ĭéĻ¶ å®Ľ
a la
æĪĲ æŀľ
2 50
ä½ĵ éªĮ
çĿ Ľ
çĻ¾ ç§ĳ
è¡į çĶŁ
å¼ Ħ
ç§ĳ ä¼ļè¯ķ
17 0
åĲĮæĹ¶ ä¹Łæĺ¯
åĨľ åľº
è¯Ĩ åĪ«
çºªå½ķ çīĩ
æĳĩ æ»ļ
ä¸Ģ æĶ¯
çĳ ľ
åįĩ æł¼ä¸º
ç¢ °
ic h
è´Łè´£ äºº
193 6å¹´
æİĮ æı¡
åĴĸ åķ¡
a u
Ġ st
åİŁ æĿ¥
æĽ¾ æĺ¯
æ· ĳ
æ±ī è¯Ń
éĿĴ æĺ¥
æŃ¥ æŀª
çŃ¹ å¤ĩ
Ġ å¤©
æ² ¼
ä¸» æīĵ
åīį è¿Ľ
èĤ Ŀ
çŁ¥ åºľ
åįĥ ç±³
æĻ¯ è§Ĥ
çº¦çĳŁ å¤«
ç¼ Ŀ
Ġ ç¬¬ä¸Ģ
æľ Ń
è¿Ļ ç±»
ç±³ åħ°
åĪ¤ å¤Ħ
èļ ģ
æ¹ĸåĮĹ çľģ
å¤ ¸
ç¼ĸåı· ä¸º
èĪ Ĩ
Ġæ¦Ĥ è¦ģ
çļĦ åľ£
åľ° äº§
è´ ¬
åħ¨ çº¿
çłĶç©¶ çĶŁ
åĲ¦ è®¤
c he
åľ¨ éĤ£éĩĮ
æĺ¯ ä¸į
åľ° ä¸Ĭ
åĬł åĪ©äºļ
é©±éĢĲ èĪ°
(,; )
ä¸» æµģ
çī¹ åħ°
åĨħ æĶ¿
è¯¥ å¸Ĥ
æİ¥ ç®¡
18 2
å®¹ éĩı
èĪª çıŃ
åįĬ å¹´
åĵ¥ åĵ¥
196 6å¹´
åĽ½éĺ² éĥ¨
çŁ© éĺµ
, )
çľģ éģĵ
åħĥ æľĿ
èĿ ł
å¥¥æĸ¯ åį¡
i aĠ
æľ¬ å±Ĭ
çĽ¸ ç»§
åħµ åĽ¢
æ³° åĭĴ
é¢Ħ å¤ĩ
ç®Ĺ æ³ķ
å® ł
å¼Ģ åĲ¯
æĪĺ èĥľ
æĳ Ķ
æµ Ĩ
è¢« åıĳçİ°
ç¥ Ĳ
æĶ¹ è£ħ
Ġ ç¬¬äºĮ
éĻķ è¥¿çľģ
Ġ å°½ç®¡
ä¹ĭ éĻħ
çģ« çģ¾
æĪ¿ éĹ´
å±ħä½ı åľ¨
åĲį è¿Ľå£«
çī© ä½ĵ
çļĦ æ¦Ĥå¿µ
à ¸
æ¼ Ĩ
æİ¨ ç¿»
å¿Ĺ æĦ¿
çĻ¾ å§ĵ
æĪĲ åĪĨ
é¢ ĸ
èĭ± éķĳ
åĽŀ åĽ½
å®¢ æĪ·
æĹ§ åĿĢ
äºİ200 7å¹´
çĮ ľ
åŀĤ çĽ´
åįĹ æµ·
åĽł åºĶ
çĶµ æ±ł
åĭ ĺ
æ²³æµģ åŁŁ
P C
Ġ åı¦å¤ĸ
åħ Ķ
æĺ¯ ä»İ
æĸ° åĮĹ
æĸ° ç«¹
åħ¥ åĽ´
å·´ ä¼ĲåĪ©äºļ
æł¡ èĪį
åģļ æ³ķ
ä¼ģ åĽ¾
éĢłæĪĲ çļĦ
ç¥Ń ç¥Ģ
Ġ de
äºİ æŃ¤
å¿ Į
éĿ¢ åĲĳ
éĢī æ°ĳ
äºİ åĲĮå¹´
æľ¬ ç§ĳ
è· Į
ç§° ä¹ĭä¸º
ä¸ŃåĽ½ åĽ½æ°ĳåħļ
ä¿Ŀ å®ī
éĩį å¤į
è¾ĥ å¤§
ä¹Į æĸ¯
èĽ Ľ
195 9å¹´
è¿ģ ç§»
ä¼Ĳ åħĭ
è¾ Ī
åıĺ æį¢
Ġ200 4å¹´
ç§© åºı
s e
Ġ æ¸¸æĪı
åĲĮ æŃ¥
ä¸ī ç§į
E T
çļĦ éķ¿
çļĦ åŃ¦çĶŁ
ou n
è¿« ä½¿
ç¬¬åįģ ä¸ī
éĺħ è¯»
æ° ®
æĹ© åľ¨
å°º å¯¸
ä¸ºè¾Ĳé³įé±¼çº² é²
å¤§ è¡Ĺ
å±± çļĦ
å¤§éĩı çļĦ
ä¸Ń é¥°æ¼Ķ
åĲį ä¸¾äºº
(; )
E C
çī© çļĦ
çªģ åĩº
èı² å°Ķå¾·
ä»ĸ åĴĮ
åıĳ æİĺ
èĢĮ æĿ¥
çī¹ æĢ§
å±± å¸Ĥ
åĵĪ éĩĮ
ä½ı åľ¨
éĥİ ä¸Ń
han t
åİ¦ éĹ¨
åĮĸ ä¸º
ç¼ĸ ç»Ħ
äºº ä¸º
åİ ī
åħ¬ ä¼ļ
ä»ĸ å¯¹
åĿ ŀ
æŁ¥ å°Ķæĸ¯
æħķ å°¼
ä½ ĳ
åĮ ł
å¸ĥ åħ°
æĽ´ æĺ¯
å¹² çº¿
éģĹ ä¼ł
é©± åĬ¨
èµ¢å¾Ĺ äºĨ
äºİ 2024å¹´
èĤ ĩ
çľ¼ çĿĽ
çĺ ¤
æĬĳ åĪ¶
9 1
çļĦ éĺ¿
å¤§ åħ¬
ä¸» ä½ĵ
å·´ èµ«
åĵģ è´¨
çĹħ éĢĿ
æĪĺäºī æľŁéĹ´
æŃ§ è§Ĩ
" (
ä¸º æľŁ
å¤§ å®¶
æ¡ Ĳ
æıĲ åīį
æµģ éĩı
èľ Ģ
æµ ¸
æĮ º
åįĹ æĸ¯æĭīå¤«
ä¸¤ æĿ¡
èŃ¦ æĬ¥
äºĭåĬ¡ æīĢ
ä¸ľäº¬ éĥ½
s ection
åİŁ çĲĨ
åķĨ åĬ¡
ç©¿ è¿ĩ
èµ Į
ä»» åĨħ
é© ¹
åĩĨ åĨ³èµĽ
çķĮ çļĦ
er n
æĥħ èĬĤ
åı¤ å·´
ä¹Ł åı¯
å®ŀ åĬĽ
åİ¿çļĦä¸Ģä¸ª éĿŀå»ºåĪ¶åľ°åĮº
è¤Ĳ èī²
æħķå°¼ é»ĳ
Ġ éĻĪ
æĪ Ĭ
å®¶ ä¹¡
çĵ ·
èİ± æĸ¯
åĩł ä½ķ
æĪĺäºī ä¸Ń
éĽķ å¡ĳ
åĨłçĬ¶ çĹħæ¯Ĵ
Ġ X
Ġ 16
æľ¬ ä¹¦
æ´Ľ å¤«
197 4å¹´
ä¾Ŀ çħ§
æĿ¥èĩª äºİ
ç±»ä¼¼ çļĦ
çīµ å¼ķ
ç»´ä¹Ł çº³
Ġ 191
æĹ¥ è¯Ń
çī¹ çĤ¹
èº« ä¸Ĭ
åĲİæĿ¥ çļĦ
. )
åįĹ ç¾İæ´²
äºĭ åĲİ
å¢ŀ è®¾
ä»ħ æ¬¡äºİ
ç«£ å·¥
y p
åıĬ åħ¶ä»ĸ
ç»ı çºª
éĻ¢ å£«
195 3å¹´
Ġ åĮĹ
æķĪ çİĩ
çļĦä¸» é¢ĺ
ä¿Ĺ ç§°
æ» ¤
æ» ĭ
åĪĴ å½Ĵ
å¹ķ åºľ
ä¸¥éĩį çļĦ
ä¸º çĶ±
åĨħ æľī
æŁ Ħ
èģĶ åĨĽ
æľ¯ è¯Ń
çļĦ åĽ½éĻħ
ä½įäºİ ä¸Ńåįİäººæ°ĳåħ±åĴĮåĽ½
èĮ Ħ
æĿĳ æ°ĳ
åĮ» åŃ¦éĻ¢
æ·» åĬł
å¤§ çĲĨ
çľģ æİ¥å£¤
çĶ² åŁº
ç»ĥ ä¹ł
I V
å°Ķ é¡¿
èĬ ¦
çº¦ 1
çĸ ¯
åľ£ ç»ı
ç»Ĩ èıĮ
æī Ń
ä¸Ĭ æĸ¹
éħ ¯
éģĩ åĪ°
ä¿®éģĵ éĻ¢
è¾¹ çļĦ
æ¿Ģ çĥĪ
å¤§ æ°Ķ
åīį èº«
ç§° èµŀ
åŁİ åİ¿
å¦Ĥ åĲĮ
ä¿Ŀ åĬłåĪ©äºļ
æĮĩ è´£
åĽŀ åĲĪ
èĢĥ å¯Ł
éĢĶ ç»ı
èĻļ æĭŁ
çļĦ çĶŁæ´»
çļĦ çĪ¶äº²
çļĦ æĪĲç»©
Ġæł¹æį® 2020å¹´ç¾İåĽ½äººåı£æĻ®æŁ¥çļĦæķ°æį®
M S
l l
ç¾İåĽ½ äºº
èİ· å¥ĸ
å°± åľ¨
äºī å¤º
åįģäºĮ æľĪ
â Ĩ
æĶ» åĬ¿
æī¿ æĭħ
çļ® èĤ¤
å¤ļ åħĥ
æ£ į
åŃ£ åĲİ
ä½ľæĽ² å®¶
1 4å¹´
åĪĨ æĪĲ
æĸ¹ ç¨ĭ
ä½Ĩ åħ¶
è¶ ģ
åĽ¢ éķ¿
æ£ ±
æľ« æľŁ
éĺŁ åĳĺ
åĲĳ åĮĹ
èİ· åıĸ
çĽ´ è·¯
ä¹¡ æĿĳ
197 3å¹´
é¡º åºı
è¸ ¢
8 ä¸ª
æĻ ´
åħĥ éŁ³
Ġ è¯Ħä»·
193 5å¹´
é¢Ĩå¯¼ çļĦ
åħ¬åħ± äº¤éĢļ
å¸ ľ
åı¸ èģĮ
æ» ¥
é»ĳ äºº
åľ°ä¸Ń æµ·
A L
åıĹ æįŁ
è± ¹
è¡ĮæĶ¿ ä¸Ńå¿ĥ
195 7å¹´
N BA
åĿ ¤
æĢ» ç«Ļ
å£« é¡¿
å±Ģ å±Ģéķ¿
åĳ¨ åĪĬ
èĲ¨ æĭī
Ġt oĠ
ç¥ ¸
å¥³ åŃ©
197 7å¹´
åĩº èµĽ
å¥³ ä¸»è§Ĵ
15 5
é¥ ¶
åĩł å¹´
å®ģ æ³¢
E N
æĺ¯ æĦıå¤§åĪ©
åįģ ä¸Ģå¹´
åĵģ ç§į
ç¥ĸ åħĪ
æĲ ŀ
éĺ´ è°ĭ
äºĳåįĹ çľģ
å¤ª åĲİ
æĿ¡ æ¬¾
15 2
çĮ ´
è´Ŀ åħĭ
åĩºçİ° çļĦ
å©´ åĦ¿
è¿Ļ ä¹Łæĺ¯
æ·· ä¹±
å±ŀçļĦ æ¤įçī©
æ§ ½
å·´ åŁº
åĵĪ æĭī
éĽ· è¾¾
åĬłåĪ©ç¦ı å°¼äºļå·ŀ
Ġ åħ¶ä¸Ń
å¦ ¥
ä¿¡ å¾Ĵ
æŃ» äºİ
ä½ĵèĤ² é¦Ĩ
äº® çĽ¸
iv eĠ
å¯ ĩ
å±± åľ°
çĶ· åŃ©
åľ¨ ä¸Ĭæµ·
èĲ Ŀ
æİ¨ æµĭ
æ¤ Ń
ç»Ĩ èĬĤ
çļĦ éĿ¢ç§¯ä¸º
åĬł ä»¥
æľĢ å¤ļçļĦ
æķ° åįģ
éĩį ç»Ħ
åĽ½å®¶ åħ¬åĽŃ
æİ¨ è¡Į
äºİ200 6å¹´
å·´åĭĴ æĸ¯åĿ¦
åıĸ èĩª
è®º åĿĽ
æĳ© å°Ķ
è¿Ļé¦ĸ æŃĮ
æ¡Ĩ æŀ¶
ä¸ľ åĮº
çĽ¸ è¿ŀ
å¤ľ éĹ´
è¯ī è®¼
åĳ¼ åĲ¸
é¥® é£Ł
ç¤ºå¨ģ èĢħ
é»ĳé¾Ļæ±Ł çľģ
i x
å¾ Ļ
çĤ ³
æĻ® æĭī
éĢģ åĪ°
éĢĶ å¾Ħ
å· ©
åĪĨ è§£
æ°´ éĩı
åı¯ä»¥ éĢļè¿ĩ
å¼ķ ç§į
é¥ ¼
éĻĦ åĬł
å¯Į æ±Ĺ
YouT ube
çļĦ åŁİéķĩ
æ¬ ł
197 1å¹´
æĸ°åĨł èĤºçĤİ
Ġ g
çļĦ ä¸ĸçķĮ
æŃĮ åĶ±
ç§» å±ħ
æĭ¿ çł´
è¿½ æ±Ĥ
å±ĭ é¡¶
å°±è¯» äºİ
èĩ´åĬĽ äºİ
è® ½
æĺ¯ è¥¿çıŃçīĻ
ä»ĸ äºº
æľº æŀª
çĽ¸ éĤ»
æĿ°åħĭ éĢĬ
n g
æľī çĿĢ
ç¾İåĽ½ æĢ»ç»Ł
éĽĨåĽ¢ åĨĽ
è¯Ĭ æĸŃ
ç«ĭæĸ¹ ç±³
æĭ¿çł´ ä»ĳ
. ãĢĮ
é«ĺ æŀ¶
çİ¯ å½¢
æī¹ åĪ¤
195 1å¹´
èĪªç©º åħ¬åı¸
ç¬¬åįģ ä¸Ģ
H K
e e
æĺ¯ èĭ±åĽ½
æ£ ļ
æµģ åĬ¨
æ»ĳ éĽª
ä¸Ń å¼ı
çī© èµĦ
å¦ ĸ
å¤ĸ åĽ´
æĢ» ç»ıçĲĨ
åĬĽ åŃ¦
ç»Ī æŃ¢
æħĪ åĸĦ
Ġ ä¸Ģ
æī ĩ
ä¸ī å¤§
ä¸ī çĶ²
è° £
æ¡ ĵ
åºķ å±Ĥ
å´ĩ ç¥¯
åĨ »
åı¸ æľº
èĳ µ
å§ĭ ç»Ī
æłĩ é¢ĺ
åħ¬éĩĮ çļĦ
åħµ åĬĽ
æ²Ī éĺ³
1 3å¹´
çļĦ æ¸¸æĪı
åĩº èĩª
åħ¶ åľ¨
è¿ĩ æ¸¡
ç¦ §
åĪĻ çĶ±
éĴ ©
å¾· åħĭ
å®ļ çĲĨ
å±± é¡¶
4 æľĪ1æĹ¥
ä¸Ń ä¸ĸçºª
ä¸ĭ æĸ¹
çĪ ¬
è£ ´
åľ£ æ¯į
è¿ĲåĬ¨ çļĦ
ç§ĺ é²ģ
å±ħæ°ĳ çĤ¹
ç²Ĵ åŃĲ
æĸ Į
æŁ ľ
åħĥ å¸ħ
å§Ķ åī¯ä¹¦è®°
æ²³ åı£
çģ« è½¦ç«Ļ
ä¸Ńå¿ĥ çļĦ
é³ Ħ
åħ¥ å¢ĥ
èĤ ¿
æ¼ Ĥ
å·¥ä½ľ çļĦ
17 5
è°¢ å°Ķ
å½¼ æŃ¤
Ġ æľĪ
å·¥ åķĨ
æ¯Ķ å°Ķ
æĴ ĳ
æ·± åħ¥
ç¬¬ä¸ī æ¬¡
000 åĲį
éŁ¦ å°Ķ
åħ¬ å¯ĵ
çĲĥ è¿·
ç»ĵ è®º
åĥı æĺ¯
om p
ç¡ķå£« åŃ¦ä½į
å± ¡
è¾ ±
æ¬¡ æĹ¥
æīĭ ä¸Ń
å±Ģ çļĦ
éĨ ī
M ar
åİ Į
äºĨ å¯¹
çĦ ļ
çİ¯ çĲĥ
èĵ Ħ
è¯ĳ ä¸º
è¯¥ åī§
èĭı éĩĮ
ç¦ı éŁ³
çª ĥ
æĵ ¦
E P
åľ¨ ä»ĸçļĦ
çŃī å¾ħ
æł¼ å¼ı
199 0å¹´ä»£
çªģ åİ¥
å¼Ĺ æĭī
ä¼ĺ åħĪ
å®ĥä»¬ çļĦ
å¤©æ´¥ å¸Ĥ
èģ Ĥ
åĮĹ éŁ©
çİĭ ä½į
åį° è±¡
åį°åº¦ æķĻ
æ© Ļ
è½¬çļĦ å°ıè¡ĮæĺŁ
çĶ± äººå·¥
è¶³çĲĥ èģĶèµĽ
P ro
çļĦ èĥ½åĬĽ
çļĦ å¥³åĦ¿
ä¸º é¦ĸ
åįģ ä¸īå¹´
æĽ² çĽ®
çīĪ çļĦ
é¢Ħ åĳĬ
æĹ©æľŁ çļĦ
r is
æĹ Ń
æĺ¯ åįĹæŀģæ´²
åıĳ éŁ³
åĬł åĭĴ
ä¸ī æ¬¡
èģĮ æ£Ĵ
ç¦ı åĪ©
ä½İ æ°Ķåİĭ
ç¿° æŀĹ
è¿ĩ äºİ
ç³ ķ
èĳĹ æľī
å¾® è½¯
çĥŃå¸¦ æ°ĶæĹĭ
çĲĨäºĭ ä¼ļ
B L
ç¬¼ èįī
Window s
æł¼ æĭīæĸ¯
è¯º ä¼Ĭ
åĪº æ¿Ģ
çĮª ç¬¼èįī
åİ Ŀ
è´ ¿
åı² èĴĤ
åī¯ ä½¿
åıĳçĶŁ çļĦ
åµ Į
åľ¨ ä¸Ģä¸ª
ä¸Ģ éĥ¨åĪĨ
åİ¿ åŁİ
çº§ çļĦ
ç±» åŀĭçļĦ
åıĸå¾Ĺ äºĨ
åħħ åĪĨ
éĻ¤æŃ¤ ä¹ĭå¤ĸ
ä¸º 3
ä¸Ģ çĻ¾
çº º
æľī åı¯èĥ½
19 00
çīĩ æ®µ
å¼º åĮĸ
éĢĤ çĶ¨äºİ
åħ±äº§ ä¸»ä¹ī
å¾· æĸ¯
è¯¥ åľ°åĮº
ç¼ Ķ
åĭ ¾
èº ²
in c
çĪ± çļĦ
ä¸ģ åł¡
ç½ķ é»ĺ
åħĭç½Ĺ åľ°äºļ
å°¸ ä½ĵ
p p
åĴĮ å¤§
åĲį èªī
ä¸ĭ è½½
è¿Ļ ä¸¤ä¸ª
çĶµ åĬ¨
å¥½ åıĭ
é¥ ¥
r it
å»º åĽ½
åıĤ è§Ĥ
æ¯ı æ¬¡
çļĦå¹³åĿĩ æµ·æĭĶé«ĺåº¦
T A
åĲİ åıĪ
çİĭ å®¤
é£ŀ å¼¹
on d
æİ§ èĤ¡
åģļ ä¸º
åħ¹ çľģ
ãĥ ¼
Ġ200 3å¹´
åıĻ è¿°
èĢĮè¯¥åľ° çļĦå¹³åĿĩæµ·æĭĶé«ĺåº¦
å·´åŁº æĸ¯åĿ¦
å¼ķç§į æł½åŁ¹
0 5
åı° å¸ģ
å¸¸ å§Ķä¼ļ
å¥³ æ¼Ķåĳĺ
èº« äº¡
in t
è®¾è®¡ å¸Ī
196 7å¹´
å¼Ĥ å¸¸
è´¢ åĬ¡
Ġ ç»ıæµİ
æĺ ı
è¿Ľ åı£
éĿ¢ç§¯ 1
å½¢æĪĲ çļĦ
2010å¹´ ç¾İåĽ½äººåı£æĻ®æŁ¥çļĦæķ°æį®
åĢŁ çĶ±
ä¸İæŃ¤ åĲĮæĹ¶
éķ¿ å®ī
ä»» å¤©åłĤ
çĭ¬ çī¹çļĦ
éģĹ è¿¹
è¿Ļ æ®µ
è£ ¸
èĪª çº¿
çģ« æĺŁ
ä¹ĺ åĿĲ
è¿Ľå£« åĩºèº«
P lay
Î ±
ãĢį ;
æĽ¾ ä¸º
æĿĥ çļĦ
åĸ ī
å®£ åĳĬ
ä¿Ħ äº¥
196 5å¹´
ä¿Ħäº¥ ä¿Ħ
å»º æľī
ç§ĳ å¹»
çº³ å°Ķ
ç¥ŀ åľ£
çħ§ é¡¾
çĶŁäº§ çļĦ
æĸ¯ éĩĮ
åĲĮ åŃ¦
éģĵ çļĦ
å¤© ä½¿
10 æľĪ1æĹ¥
å½¢ çļĦ
ç¬¬ä¸Ģ å±Ĭ
è½¬ ä»»
åĪĿ å¹´
çĶ±äººå·¥ å¼ķç§įæł½åŁ¹
æķ° çĻ¾
ç¼ĸ åĨĻ
éĤ£ æł·
å¥´ éļ¶
åľ¨ åĨħ
è¿Ĳ æ²³
æīĭ æŀª
å®£ è¨Ģ
1 6å¹´
ä¸Ĭ æ¸¸
åŃĲ å¼¹
åŁº è¾ħ
çĶµè§Ĩ åĬ¨çĶ»
çļĦå¤§ åŀĭ
ä¸ĭè¾ĸä»¥ä¸ĭ åľ°åĮº
äºº ç§°
å·´ å¡ŀå°Ķ
èį ĥ
èĻ Ĳ
åįģä¸Ģ æľĪ
" ).
åİ ¨
æ¶ ¡
åĪĴ åĪĨ
åĮ» å¸Ī
çºªå¿µ ç¢ĳ
e am
i de
ä¸Ń ä¹¦
ä»¥ å¾Ģ
ä¹ĭ åĲį
æĸ° äºº
åīį çº¿
æĹł éĻĲ
ç½ĳ ä¸Ĭ
æĭ ¦
çķ ľ
åı· ä¸º
æµģ ç»ı
è°ĥ èĬĤ
é²ģ æĸ¯
196 9å¹´
æĿ¥ å¾Ģ
å°¼ å¥¥
éĩĳ åĪļ
å½¢æĪĲ äºĨ
èĤ¯ å®ļ
è¯ŀ çĶŁ
è¿Ļ éĥ¨
æĸĩ æľ¬
æĢ» é¢Ŀ
å¸¸ è§Ħ
or e
ä¼Ĭ å°Ķ
è¯º æĸ¯
åı£ å¾Ħ
åĽŀ çŃĶ
èİ·å¾Ĺ ä¸Ģæŀļ
äºİ18 9
æĶ¹ç¼ĸ èĩª
M ic
m ent
Ġ æĭī
åĮº åĴĮ
åŁº éļĨ
å°± æľī
éĺµ å®¹
æ®ĭ çĸ¾
å¹¸ åŃĺ
å¥¥æĸ¯ æĽ¼
åĽ½ è¯Ń
åİŁ åĪĽ
éĺ¿ å¯Įæ±Ĺ
è®¤ å®ļ
æŀģ ç«¯
åŃĺåľ¨ çļĦ
åĲĮæĢ§ æģĭ
çĽ ²
ä»¥ å¤ĸçļĦ
ä¸į åıĺ
éķ¿ å¤§
ç»´ åĲ¾
èĭı å·ŀ
éĿ¢ç§¯ 0
ä¾Ľ å¥ī
èĢ¶ å¤«
193 3å¹´
éĩĩçĶ¨ äºĨ
æĮī å¯Ł
ç©Ĩ ç½ķé»ĺ
åĴĮ ä»ĸçļĦ
æĮ ¤
åħ³ èģĶ
åĲĳ åįĹ
ç®¡ åĪ¶
è®¤ çŁ¥
è¿ĺ åĮħæĭ¬
åĬŀ æ³ķ
16 8
åī¯ éĥ¨éķ¿
åĪ¤ æĸŃ
ç´§ å¼ł
ä½įäºİè¯¥ çľģ
1 1å¹´
â Ī
æĶ Ģ
å¾Ĺ åĪĨ
ä¸ī åĲį
ä¹Ł åĽłæŃ¤
åĸ »
è¯į æ±ĩ
çĽ®åīį å°ļæľª
å² Ĳ
çĹ ķ
æ°Ķ æ¸©
æ²ĥ å°Ķ
ç©¿ è¶Ĭ
ç»´åĲ¾ å°Ķ
1 7å¹´
Ġ l
äºĨ ä¸ĢäºĽ
æį ī
é» Ľ
ç¾İåĽ½ åĽ½å®¶
éħ ĭ
åħļ ç»Ħ
åī© ä½Ļ
D VD
å¤ĸ çķĮ
å¿ĥ èĦı
éª ı
17 6
ç²® é£Ł
æ¬ º
å·´ å¸ĥ
éħ ¿
æĬķ æīĭ
çĶµè§Ĩ èĬĤçĽ®
æľĹ å¾·
çĩĥ çĥ§
D S
ä¸ĭ æĿ¥çļĦ
çĶµ æµģ
en tĠ
193 0å¹´
å®¿ èĪį
åŁ ł
åĬł å·¥
æ¬¡ æķ°
åİŁ æľī
éĹ®é¢ĺ çļĦ
æį¢ ä¹ĺ
ac h
7 ä¸ª
O R
é¢ Ĥ
åĵĪ å¾·
çªģ åĩ»
åĨ² åĩ»
oh n
M P
åĩº äºİ
çĶŁ æķĪ
åŃĲ åħ¬åı¸
æĪĺ è½¦
ç«Ļ åİħ
ç¾İåĽ½ æµ·åĨĽ
åıĳçİ° çļĦ
çĶŁæ´» åľ¨
çļĦå¤§ éĥ¨åĪĨ
åħĭéĩĮ æĸ¯
æľºåĻ¨ äºº
Ġ é«ĺ
ç¬¬ 6
åı¯ åīįå¾Ģ
æĹı äºº
æ²¡æľī ä»»ä½ķ
è¾ĥ é«ĺ
æĬĹ æĪĺ
ä¸´ åºĬ
æģĲ é¾Ļ
åĪĽå§ĭ äºº
ç³ Ĭ
ç¥ŀ ç§ĺ
å¹¶ä¸Ķ åľ¨
çī©ç§į çļĦ
æĸ° çķĮ
å¾Ĺ ç¥¨
éĢļ è¡Į
åħ° å·ŀ
éħ ī
ç±» çļĦ
åıį èĢĮ
å¥ĸ çīĮ
æĹĹ å¸ľ
çļĦå±± å³°
åĨĽ åľ¨
å¡ Į
åıĹ åĪ°äºĨ
æĦı åĽ¾
èĬĤ å¥ı
åħŃ ä¸ª
åŃĺ åĤ¨
193 1å¹´
å¤º åıĸ
ç±»ä¼¼ äºİ
3 0å¹´
å¼Ģ ä¸ļ
æĺİ å°¼
å¤ª éĥİ
å®ĥ åľ¨
å®Ī æĬ¤
æĪĪ å°Ķ
åĽ½ æľī
å¹¶ ä¸º
è¢« åĪĹä¸º
è¾ĥ å°ĳ
çĶµå½± èĬĤ
æ°¸ è¿ľ
çĶŁéķ¿äºİ æµ·æĭĶ
æ³ ª
æŃ¤ ä¸¾
éĢļå¸¸ æĺ¯
è° ¨
åįģ å¤§
æŃ£ ä¹ī
ä¼ł å¥ĩ
èĻ ¾
åıĳå±ķ çļĦ
å§Ķåĳĺä¼ļ ä¸»å¸Ń
è¿ª äºļ
æĹĭ è½¬
åĿĲ èĲ½
çī©çĲĨ åŃ¦
æĺ Ķ
æľī ä¸¤ä¸ª
åĬ¨ åĳĺ
åŀ ¦
å¥¹ æĽ¾
è¶³ èģĶ
æīĺ é©¬æĸ¯
åĲĪå¹¶ ä¸º
Ġ åįĹ
ä¸Ń æĸŃ
ç¬¬äºĮ ä¸ª
â Ħ
æĹ¶ éĴĪ
è¿Ľ èĢĮ
ç¡® å®ŀ
âĨ Ĵ
4 Ġ
C P
åħ¬ çº¦
åħ¥ çĲĥ
åħ¨ ä¸ĸçķĮ
åħī è°±
æıı åĨĻ
éľį å°Ķ
ç±³çļĦ åľ°åĮº
Ġ çİĭ
çļĦ é©¬
æĪ Į
å¹¶ ä¸įæĺ¯
æĸ° è¥¿åħ°
æķĻ ç§ĳ
å·´ åħĭ
ä¿Ŀ åį«
åĩ» ä¸Ń
la t
16 6
éĻĲ äºİ
æ¶Ī çģŃ
èĻļ æŀĦ
ãĢĭ (),
æĢ§ æł¼
äº§ éĩı
çĳ Ļ
åĿĩ æľī
ro m
åĿĲ æłĩä¸º
Ġ åĪ¶ä½ľ
ä»¥ åħ¶
ä¸ĭ å±ŀ
é¦ĸ é¢Ĩ
ä¹Ĳ åĻ¨
å¢ĥ å¤ĸ
æĬĢ èĥ½
æ¸© å¸¦
åĺī åºĨ
åĩºçīĪ çļĦ
åħĭæĸ¯ åĿ¦
çļĦåľ° ä½į
ä¼į å¾·
Ġ å¯¹äºİ
å¤§ æī¹
ä¿¡ ä»»
16 5
14 5
åį°åº¦ å°¼è¥¿äºļ
å¸ķ å°Ķ
åıĳçĶµ åİĤ
3 åı·
åīį èĢħ
éĢī ä¸Ń
åĲĳ ä¸ľ
196 2å¹´
éĴ¢ éĵģ
æĢ ¨
çº¿ åĴĮ
èµ· çĤ¹
å®¢ å®¶
åı¯èĥ½ æĢ§
ĠS p
çº¤ ç»´
Ġ ç®Ģ
è· ĭ
çī¹ åĭĴ
å¤ļ ä¸º
è¿ĩ åº¦
æĢ» å±Ģ
çª Ŀ
æĶ¯æĮģ èĢħ
çģµ éŃĤ
éĢı æĺİ
å¤§ è¿ŀ
åĴĮ äººåı£
éķ¿ æĺ¥
åįİ åĮĹ
or g
å¸ĿåĽ½ çļĦ
0 1
äºĮ æ¬¡
or k
æĤ ¼
æĻļ æľŁ
åĽ½ æĹĹ
ä»ĸ å°Ĩ
åĲį å½ķ
å¥¥ åħĭ
çº³ æĸ¯
è§£ éĻ¤
èı ±
è¡ĮæĶ¿ éķĩåĮº
ç¡® ç«ĭ
l es
ä¸Ń æŃ£
è¿Ļ ä¸¤
æ¸¯ éĵģ
åĸ Ŀ
å¾Ģ è¿Ķ
Ġ éĩĳ
éĢī ç¥¨
éĶ ħ
åħĭéĩĮ ç±³äºļ
æ²Ł éĢļ
Ġ 13
éĹ ¹
ä½Ĩ ä¸į
åĶ ¤
éļı ä¹ĭ
è¾ŀ åİ»
æĲŃ è½½
é£ŀè¡Į åĳĺ
Ġ æĹ¥
Ġ ä¸ºäºĨ
éĺ ľ
å·¥ åħļ
æ¸¸æĪı ä¸Ń
é»ĳ æļĹ
é¸ ¦
æıĲä¾Ľ çļĦ
Ġ ä»¥
çļĦ éģĵè·¯
åĽ½ å®ī
å®ļ ä½į
åįģ äºĶå¹´
æ³¢ çī¹
æ¢ħ å°Ķ
åİ¿çļĦä¸Ģä¸ª è¡ĮæĶ¿éķĩåĮº
çļĦ å¼Ģ
æĺ¯ å¯¹
çĽ Ĵ
ä¹ĭ åľ°
å¸ĥ æĶ¿
çĽ¸ è¾ĥ
æīĵ å¼Ģ
ä¹Į æĭī
; &
âĢ §
ç«ĭ å¤§åŃ¦
Ġæľ¬ ç«Ļ
A K
H R
O M
U N
Ġ 20
å° §
ä¸ĭ çļĦä¸Ģä¸ª
å£« åĿ¦
äº§ çī©
åĲĳ éĩı
æĶ¾ éĢģ
åĵį åºĶ
193 2å¹´
åĮ ª
æľī ä¸¤
åıĬ åĲİ
äºĭ åıĺ
æµģ æµª
åħĪ åīį
èĲ¨æĸ¯ å·ŀ
åľ° å¤Ħ
äºĭ æĥħ
æĺİ ä»£
ç¥ŀ ç¤¾
am e
èī¯ å¥½
192 8å¹´
ç§Ł çķĮ
U S
åĪ© å¥¥
äº§ åľ°
ä¹¦ æ³ķ
åıĳå¸ĥ äºĨ
æįĲ èµł
äººå¤§ ä»£è¡¨
å¸ĪèĮĥ å¤§åŃ¦
t on
çļĦ è®¡åĪĴ
èĩ³ 2
12 5
åį³ åı¯
æ¯į èĪ°
è¯» ä¹¦
ä¼ļè®® ä¸Ĭ
å·¡ éĢ»
åĮĹ å¹³
éĹ´ è°į
çĥ Ĥ
åºĵ å°Ķ
ä¸»æķĻ ç»ĥ
Ġ200 2å¹´
èķ ĥ
å°Ĭ éĩį
St ation
çļĦ åº§æłĩä¸º
æ°ĳ æĶ¿
æľĢ éĩįè¦ģçļĦ
åİŁ åŀĭ
åĲĳ è¥¿
çłĶç©¶ ä¸Ńå¿ĥ
196 1å¹´
æĺ¯ä¸Ģ å®¶
çļĦ æ¯ĶèµĽ
äºº æīį
ic k
å¼Ģåıĳ çļĦ
æĺĨ æĺİ
æ§ Ł
å¤§ åĲĮ
æĢ İ
ç¼ Ģ
åİŁ å®ļ
æĪĸ ç§°
æ® ·
èĮ İ
çłĶç©¶ åĳĺ
å¼º çļĦ
å¼º å¤§çļĦ
ç²¾ çģµ
åĤ¨ åŃĺ
å»¶ä¼¸ èĩ³
F C
Ġ Y
Ġ ä¸ī
å¤§ åŃĹ
çŃī èģĮ
ä¼¯ æł¼
èĽ Ļ
ig h
å°¼åı¤ æĭī
a x
Ġ ä½ľä¸º
çļĦ ä»£è¡¨
çļĦ åĲįç§°
åĬ ¾
ä¸Ĭ éĿ¢
ä»ĸ è¯´
æ³ķ åŃ¦
æŃ¤ ç±»
çŃī äºİ
éĥ½ ä¸į
æĺ¥ ç§ĭ
æ³½ å°Ķçľģ
çº· çº·
è¯ Ī
åħ¬ ç¤¾
åĬ¨ æĢģ
ä¹Ŀ å·ŀ
éĺ² å®Ī
å·Ŀ åİ¿
åģľ è¿Ĳ
å§ĵ æ°ı
åıĳ è¾¾
æĽ¾ è¢«
ç®¡ æİ§
å¼ł åįķæĽ²
äºİ200 5å¹´
åĲĽ å£«åĿ¦
ig ht
äºº ç¾¤
éĴ ł
èı ©
å°ģ éĹŃ
çŃī çļĦ
æĮĩ çļĦæĺ¯
å¥ĸ æľĢä½³
å¢ĥ åĨħçļĦ
åı¦ ä¸Ģç§į
æĪ· éĥ¨
å¾® åįļ
éĹ ¯
è¿Ļ æĹ¶
åįģ åĽĽå¹´
è½¬ åıĺ
èĽ ®
ter n
i er
u e
åĳĺ å¤ĸ
åıĤ è®®åĳĺ
æĿĢ äºº
æĻ¯ çĤ¹
å°ģ éĶģ
ä½ £
åħ¬ å¼ı
åħĭ éĽ·
åĬł æĸ¯
éĺŁ åľ¨
åħ¶ä»ĸ çļĦ
æ´»åĬ¨ çļĦ
æ³¨ åħ¥
ation al
A I
è¿Ľ çĲĥ
æ³¢ å£«é¡¿
çľĭ è§ģ
æŃĩ å°Ķ
/ /
çĲĨ åŃ¦
åŀ £
æĶ¹ èī¯
éĢł åŀĭ
ä¸ĵ ç§ĳ
ä¸ĵ æ³¨
éĩİ çĶŁ
å±¯ éĹ¨
ç¦ ¾
çĦ °
åıĤ æ¼Ķ
è°ĥ ä»»
æŀģ ä¸º
ä¸»é¢ĺ æĽ²
çĽ®åīįå°ļæľª çĶ±äººå·¥å¼ķç§įæł½åŁ¹
Ġ å»ºçŃĳ
åĪĨ äº«
ä»» æĦı
èī ®
æľŁ åĪĬ
ç½Ĺ è®·
éĺ¿ åŁº
å¯¼ å¸Ī
çľŁæŃ£ çļĦ
åīį æĿ¥
é«ĺ å±Ĥ
ç»ı è´¹
åįģ åħŃå¹´
å°¼ æ³Ĭ
åİĭ ç¼©
å·¡ æĬļ
éŀ į
åıĳè¨Ģ äºº
) (
éĺ Ģ
é«ĺ æł¡
ä½ĵ æĵį
éĺ¿ å§Ĩ
æĺŁ çļĦ
ç²¾ ç¡®
åı³ ç¿¼
éĺµ äº¡
èĭ į
éļı æľº
è¯» èĢħ
éĽħ åħ¸
å®ľ åħ°
äºİ18 8
Ġ194 9å¹´
Ġä¸ªäºº çĶŁæ´»
C N
çļĦ æľī
è®¾ åľ¨
æ¶ ¨
çķĻ åŃ¦
196 3å¹´
èĤ¡ ä¸ľ
åīį éĶĭ
å°Ĩ ä»ĸ
è·¯ å¾Ħ
é¦ĸ å°Ķ
åı¤ å¸ĮèħĬ
çİĩ åĨĽ
åħį çĸ«
è¶ĭ åĬ¿
ç©Ĩç½ķé»ĺ å¾·
ä¸Ń åİŁ
çķ ı
åĪĿ æŃ¥
è´Ń çī©
æ´ª æ°´
ç»Łæ²» èĢħ
å¤©æĸĩ åŃ¦å®¶
çº¦ åħĭ
æıĲ æ¡Ī
ro s
åĬłåħ¥ ä¸ŃåĽ½åħ±äº§åħļ
eĠ C
E S
äºº ä¸İ
äºº æĸĩ
æĺ¯ ä¸ĭè¾ĸçļĦä¸Ģä¸ª
æĹ¶ åĪ»
å°ı å§Ĳ
æĦŁ æĥħ
æ²¿ çĶ¨
åĽłæŃ¤ åľ¨
éĤ® å±Ģ
å§Ĭ å¦¹
çļĦ ç»ıæµİ
ä¸Ģ å¼Ģå§ĭ
åıĳ èĤ²
ãĢĬ ãĢĭ(
æľ¬ æ¬¡
åı¯ éĿł
ç¼ Ĩ
æ°´ ä¸Ĭ
æ°´ æ·±
å·´ æĸ¯
æĥħ æĦŁ
å±Ģ åĬ¿
æĬĢ å·§
èĢĥ åħ¥
èį£ èİ·
è®¨ ä¼Ĳ
æĪª æŃ¢
è¡¨çİ° åĩº
çļĦ ç¤¾ä¼ļ
èĥ Ģ
å½ĵ ä½ľ
éĢī æĭĶ
åĸ Ļ
è®¤ä¸º æĺ¯
ä»ħ ä»ħ
æľĢç»Ī åľ¨
å½Ĵ ç±»
æĻļ éĹ´
æĭľ åįł
ä¸Ģ åı·
ä¼ļ ç¤¾
å¹¶ è¡¨ç¤º
éĿ¢ ä¸Ĭ
ç¦» å©ļ
åĶ® ç¥¨
od ice
m m
ä¸ļ ä½Ļ
éĤ ¹
é¦ĸ æī¹
äº¤ æĪĺ
å¤Ħ åĨ³
çļĦä¸Ģ æ¬¡
çħ Į
èµĭ äºĪ
çļĦ åĪĨ
çļĦ èº«ä»½
åĴ ı
å®ī å¦®
åº§ åłĤ
å®¢ è½¦
èŀº æĹĭ
æĶ¿åįı å§Ķåĳĺ
éĻ¨çŁ³ åĿĳ
âĦ ĥ
åĩº åľŁ
ä¹ĭ ä¸Ĭ
å¤ļ ä¼¦
ä½ĵ éĩį
ç¼ ¸
åİ¿ éķ¿
åĨ³ çŃĸ
åĽŃ åĮº
am es
åİ»ä¸ĸ åĲİ
ä¸į çŁ¥
ä¸į ä½³
åĨĽ æĸ¹
å¤© åºľ
3 Ġ
å¹¶ æľī
æ¬¡ åĪĹè½¦
å¤ª å®Ī
15 4
ä¼¦ æĸ¯
èĭ±åĽ½ çļĦ
å½±åĵį åĬĽ
193 4å¹´
çī§ å¸Ī
éĽķ åĥı
æĦıæĢĿ æĺ¯
E ST
T h
çļĦ åħ¨
åŃ ļ
åĲİ åĽł
è§Ĥ éŁ³
å¤± è¸ª
æ£® åł¡
çĨ Ķ
åĺī å®¾
åĲ¦ åĪĻ
åıĳè¡¨ äºĨ
Ġ aĠ
åľ¨ å½ĵæĹ¶
æĪĺ ç»©
éĩĬ åĩº
192 9å¹´
èİİ çĻ½
çļĦ æ´»åĬ¨
äºĨ è¯¥
çĶµ è·¯
å·´ å«©
ç¦ı å°Ķ
en ter
å·¥ä½ľ äººåĳĺ
æ½ľ åľ¨
ä¿ĥ ä½¿
æ°Ł åĮĸ
çļĦ ä¸Ĭ
çļĦ ç¬¬ä¸ī
åľ¨ ä¸İ
è§Ħ æł¼
çĥŃ éĹ¨
æĬĹæĹ¥ æĪĺäºī
ä»¥ 3
è¢ ľ
ä¹Ĳ åĽŃ
éĴ §
æĶ¯ çº¿
é¹ ¦
æľĢé«ĺ æ³ķéĻ¢
èŁ ¹
Ġ æ³ķåĽ½
ä¸º åı°æ¹¾
ä¸ĸçķĮ åĲĦåľ°
å¨ģ å°¼æĸ¯
14 9
æľĢé«ĺ çĤ¹
og le
Ġ åıĤèĢĥ
çļĦ ä¼łç»Ł
åľ¨ æ¬§æ´²
æĭ ¯
èĩª ä¸»
éĽĨ ç»ĵ
ä¼ł éĢĴ
è§ģ äºİ
èĪª ç«Ļ
ä¾¦ å¯Ł
èı²åĪ© æĻ®
5 åħ¬éĩĮ
é¢ Į
ä½ĵ ç§¯
é¦ĸ æŃĮæĽ²
é»İ å·´å«©
æ¸ħåįİ å¤§åŃ¦
3 ç±³
æŃ¤ åľ°
åı¤ è¿¹
ç½® äºİ
èŃ¦ åĳĺ
æĲľ ç´¢
äººå¤§ å¸¸å§Ķä¼ļ
åı¯ æĺ¯
æĪĺ åĽ½
æį® è¯´
å¤ª åİŁ
çłĶ åĪ¶
è§Ĥ èµı
æ¸© æ³ī
äºĮåįģ å¹´
é¢Ŀ å¤ĸ
æĴ¤ ç¦»
å®Įæķ´ çļĦ
ç²¤ è¯Ń
åĵ º
ä½Ĩ ä»į
ç±» åĪ«
ç¡ ħ
ç¡¬ å¸ģ
2 ç±³
D NA
å£ ¬
éĺŁ åıĭ
äº¤ åĵį
éĽĨ ä¼ļ
è§Ĥ å¿µ
éº ĵ
192 7å¹´
æĲŃ éħį
èĢĮè¯¥åľ°çļĦå¹³åĿĩæµ·æĭĶé«ĺåº¦ ä¸º
i um
æĪ İ
è¯¥ åºĦ
é©¬ åĬĽ
æİĴ éĻ¤
æ²¿ çº¿
æĪĲåĬŁ çļĦ
æĺ¯ä¸Ģä¸ªä½įäºİ ç¾İåĽ½
åº ¸
å¹³ æĪĲ
ç¥ ·
é¦ĸ ä»»
æĹĹ ä¸ĭçļĦ
åı¬ éĽĨ
Ġ200 1å¹´
Ġt h
192 4å¹´
o ol
19 12å¹´
æĢ» åħ±
æĽ¾ æĭħä»»
å°± åı¯ä»¥
ä¸ĩ å¹´
è¾ĥ å¤§çļĦ
è¯¥åľ° çļĦéĿ¢ç§¯
éĴĵ é±¼
ð ¬
Ġ for
æŃ ¼
åĨħ äºļ
æķĻ å¾Ĵ
ä¼ł è¾ĵ
æĳ ĺ
çļĨ æľªçŁ¥
èĿ Ļ
æııè¿° ä¸º
å·¡åĽŀ èµĽ
åĴĮäººåı£ çļĨæľªçŁ¥
è¯¥åľ°çļĦéĿ¢ç§¯ åĴĮäººåı£çļĨæľªçŁ¥
æľ¬ åľ°åĮº
ä¹Ł ç§°
æ´Ľ çī¹
æĿ° åĩº
æĭľåįł åºŃ
ä¸ ¢
å°± ä»»
åĭĴ æĸ¯
æĶ¿æ²» å®¶
æĸĩåĮĸ å¤§éĿ©åĳ½
ä¾Ŀ éĿł
é¡º æĹ¶éĴĪ
æĦıè¯Ĩ åĪ°
çļĦ æ²³æµģ
åĨ ¢
ç¬¬ 10
åĳ½ åĲįçļĦ
åĪĴ åħ¥
çŃĸ åĪĴ
èĿĻ èĿł
è´ ¦
åĩº æĿ¥çļĦ
å¼Ģ æĴŃ
ç¾İ ä¸½
è¿Ľ åĨĽ
è° ķ
åĪ¶ åĵģ
å±± åı£
ç½ĳ åıĭ
æ¨¡ ä»¿
éĺ² åį«
å©ļ ç¤¼
ç´¯ ç§¯
æĹłçº¿ çĶµ
æľ¬ æĿ¥
åĲĪ çĲĨ
ç«Ļ èĩ³
è¯Ħè®º å®¶
è¾½å®ģ çľģ
( )ãĢģ
t he
çļĦ åħ¶ä»ĸ
æ° Ľ
æĹ¥ çĽĬ
æ» ŀ
å¡ŀ æĭľ
ä¸Ģ ä»½
ç§ ī
æĸ¹ ç¨ĭå¼ı
é«ĺ å±±
ç½Ĺ ä¼¯
åĥ ļ
Ġ200 0å¹´
åħ¬åĬ¡ åĳĺ
åĪĨ ä¹ĭ
æŃ£ æĺ¯
é» ı
åĽĽ äºº
åıĤ è§ģ
or l
é¦Ļæ¸¯ çļĦ
æ²Ļ æ¼ł
å¤ı å¨ģ
å¯º éĻ¢
è®¯ æģ¯
r es
Ġ åħ¨
æĪĲ çļĦ
æ± ¶
æĪĺ ä¸Ń
éĵ Ŀ
åĶ ĩ
åıį æĬĹ
æĸĩåĮĸ éģĹäº§
å¼Ĺ åħ°
èĢ¶ å°Ķ
è¡Ģ æ¶²
åŁºæľ¬ ä¸Ĭ
9 00
çļĦ åĲĮæĹ¶
å¾· ç½Ĺ
ãĢį )
ä½ĵ åŀĭ
æĮĩ ä»¤
çĻ½ ä¿Ħç½Ĺæĸ¯
éħį ä¹Ĳ
ä¼ĳ æģ¯
æ¯« æĹł
çº½çº¦ å¸Ĥ
C C
éķ ¶
åĲį åı«
åįİ ä¸º
æĿĥ å¨ģ
ç¼ĸ åĪ¶
åħ´ èµ·
çľŁ äºº
åĮħåĲ« äºĨ
äº¤æĺĵ æīĢ
Ġ ä¸ľ
Ġ 17
çļĦ çĽ®æłĩ
è¡Į è½¦
ä¹ĭ æĹ¶
å¹¶ èİ·å¾Ĺ
åł µ
ç¬¬ä¸Ģ çĻ¾
äºĪ ä»¥
ä¸į åıĹ
ä¿ ±
åĬ¨ å·¥
è¿Ĳ ç®Ĺ
è¯Ń ä¸Ń
ä¹ī åĬ¡
åĬ© äºİ
çİ¯ ä¿Ŀ
çģŃ äº¡
å¹» æĥ³
Ġè½¦ç«Ļ ç»ĵæŀĦ
y n
çļĦ å¯¹
åĴĮ ç¾İåĽ½
èĩ³ æŃ¤
åı° ä¸ľ
èĥ½ åľ¨
æķ° åįĥ
æĢ» æĺ¯
èĭ± è¶ħ
å½± è¯Ħ
å¥³ ç¥ŀ
æĿ¡ çĽ®
æİ¢ è®¨
éļĶ å¹´
çļĦ è¥¿
çļĦ å»ºçŃĳ
åĵ Ń
åħ° åį¡
è¯´ æľį
åĳ¨ æľ«
è§ģ åĪ°
åī¯ æĢ»ç»Ł
æĹ¶éĹ´ çļĦ
æ¾ İ
åħ¸ åŀĭçļĦ
åıĹå®³ èĢħ
A V
çļĦ æīĭ
çļĦ æľºä¼ļ
çİ° å·²
ä½ĵ çİ°
æĭī å¾·
å¸ĥ å±Ģ
è¯Ń åĴĮ
åĽ½å®¶ å®īåħ¨
æķ´ çĲĨ
éĿĴ æµ·
è´¹ å°Ķ
æł¼åħ° çī¹
çīĪæľ¬ çļĦ
è·ĳ éģĵ
P h
Ġ æĹ©æľŁ
åľ° åĿĢ
çĶ± æĿ¥
ä¸ĭ æ¸¸
éĩĮ éĿ¢
ä¸ĵ åĪ©
æīĵ è´¥
å§Ķåĳĺä¼ļ çļĦ
çīĻ é½¿
åĨ° å·Ŀ
å®ļä¹ī ä¸º
åŁºçĿ£ å¾Ĵ
æ¸ħæľĿ æĶ¿æ²»äººçī©
åįģåħ« å¹´
A D
æľº åĬ¨
å¸Ī éķ¿
ç»Ī èº«
çģµ æĦŁ
ç¾İæľ¯ é¦Ĩ
Play Station
çļĦ å¤ļ
ç¬¬ åįģäºĮ
åĵ ©
æĿ¥ çľĭ
åĪ¶ è£ģ
è¿ĳ å¹³
æ±ī åł¡
çľĭ æ³ķ
éĿ©åĳ½ åĨĽ
ä¾µ çĬ¯
Ġ å°ı
åĲ ĵ
åľ¨ åīį
ä¸º å¤§
å¹¶ æĪĲä¸º
éĵ ħ
éĽĨ çļĦ
æīĵ éĢł
è´Ŀ æł¼
åıĭ è°Ĭ
å¯º åºĻ
åĪł éĻ¤
ä»ĸ ä»¥
èĥ ĥ
ä¸ī çº§
å¤© æĸĩåŃ¦
åıĺ æĽ´
çĪ± å¥½
æ¦ ´
1 12
Ġ é»Ħ
ä¸º è¯¥
æ¬¡ åŃĲ
åĽ¾ å½¢
æŃĮ åī§
åŁİå¸Ĥ çļĦ
å®£å¸ĥ å°Ĩ
èĭ¥ å¹²
un g
åľ° åŁŁ
åĲį é¢Ŀ
ç¬¬ 8
èĢĮ éĹ»åĲį
çĭ Ĳ
çŁŃ çīĩ
åĿĲ æłĩ
æĦıåĳ³ çĿĢ
åģľè½¦ åľº
Ġ æŃ£
çļĦ åľŁåľ°
çī º
åĨĽ å§Ķ
æĢ» åı¸ä»¤
åĪĻ ä»¥
åĿĩ åľ¨
è¡ĮæĶ¿ åįķä½į
as s
åĪĽä½ľ çļĦ
åĨ³èµĽ ä¸Ń
ä¸º é£Ł
ä¸Ģ æĹ¦
å¹³ å®ī
æ¢ Ń
å¼Ģå§ĭ äºĨ
åľŁ å£¤
é¡º æ²»
æį· è¿Ĳ
èĪªç«Ļ æ¥¼
å¤ıå¨ģ å¤·
çļĦ éĿŀ
æĪ ļ
çĻ ¸
å°± åĥı
éŁ³ èĬĤ
æ´» æĢ§
ä¸ĵ åĳĺ
ãĢī ãĢģ
ç½ķ è§ģ
åĲīæŀĹ çľģ
Ġ åį¡
èĤ ¾
ä¾¿ æĺ¯
is h
éĺµ èĲ¥
å´ĩ æĭľ
ç¿Į æĹ¥
0 6
çļĦ åĨĽäºĭ
ç¬¬ 7
æ±Ł è¥¿çľģ
æĽ¼ èģĶ
ä¹ł è¿ĳå¹³
æĻļ å¹´
åŃĺåľ¨ äºİ
èĩĢ é³į
. &
åĨĽ èĪ°
éĩĮ æĺĤ
å·ŀ è´Łè´£ç®¡è¾ĸ
éĢł èĪ¹
çĳ ļ
èĲ½ åĲİ
æĺ¯ä½įäºİ ä¹Įåħĭåħ°
çº½çº¦ å·ŀ
è·¨ è¶Ĭ
æ¢¦ æĥ³
éĶ ¥
ç¼ĸ åħ¥
è½¬ ä¹ĺ
èĲ½ è´¥
æİ¨åĩº çļĦ
ĠA r
æĻ¶ ä½ĵ
éĩįçĤ¹ æĸĩçī©ä¿ĿæĬ¤åįķä½į
S c
éĥ½ åı¯ä»¥
éĩĳ éĹ¨
çĶ· ä¸»è§Ĵ
çª ĳ
çģ« åĬĽ
äº« æľī
0 9
åĳ¨ æģ©
ä¸ĸçķĮ éģĹäº§
ä¼¯ åĪ©äºļ
èĪª è¡Į
å·¡ æ¼Ķ
è¡¥ ç»Ļ
æŁĲ ç§į
Ġæł¹æį® 2010å¹´ç¾İåĽ½äººåı£æĻ®æŁ¥çļĦæķ°æį®
éŀ Ń
I ST
åĴĮ ç¤¾ä¼ļ
åĲį ç§°ä¸º
æľ¬ è´¨
ç«ĭ å§Ķ
ä½Ĩ æľĢç»Ī
è¯Ħ å®¡
é¢ĳ ç¹ģ
åı« åģļ
6 ç±³
ãĢĬ ãĢĭ,
èĭ± å¯¸
çīº çī²
i le
åį ¯
è¡ĮæĶ¿ éķ¿å®ĺ
å¹¿å·ŀ å¸Ĥ
iv e
æĺĨ èĻ«
ä¸Ń çŃī
æĸ¯ åľ¨
æ³ķ åĨĽ
å¹³ å®ļ
æ°´ åĪ©
å®Į ç¾İ
èĲ¥ åħ»
i eĠ
p en
åŃ¦ åłĤ
ä¸Ģä¸ª æľĪ
æķ° ä¸ª
æĶ¹ ç»Ħ
åŃ£ èĬĤ
åıĪ åľ¨
æ¹ĸ å¹¿
24 å°ıæĹ¶
åľ¨è¿Ļ éĩĮ
u k
19 18å¹´
è¢« æĿĢ
æĥ ĳ
äº¤ ä»ĺ
å½° åĮĸ
Ġ 14
çļĦ è¡¨çİ°
ä¸Ģ è·¯
ä¸į ä½Ĩ
æľ¬ åĲį
éĩĮ å¥¥
ç«ĭ ä½ĵ
çķ ´
in a
åį³ ä¸º
èģĮ è´£
å¾Ģ æĿ¥
197 0å¹´ä»£
å¹¿æ³Ľ çļĦ
å°¼æ³Ĭ å°Ķ
æ¸ Ĺ
å®¶ å±ŀ
æĪĺ è´¥
ç¦ ¹
å½± å±ķ
æıĲ çĲ´
é£İ æĻ¯
åħī åŃ¦
æĹ§ éĩĳå±±
éĢĥ ç¦»
åĲ¬ åĪ°
çĪĨåıĳ åĲİ
æĶ¶è§Ĩ çİĩ
s k
ä¸ī ä½į
é©¬ æģ©çľģ
çĲĥ è¿ĲåĬ¨åĳĺ
éĻ¢ æł¡
é¾Ļ ç§ĳ
åı°æ¹¾ çļĦ
ä¸ĸçºª çļĦ
ol d
è¡¥ åĬ©
èµ¤ çº¬
ä¸Ģ èĩ³
ä¸Ģ åħ±
12 7
å¥¹ ä¸İ
å¸¦ æĿ¥çļĦ
ç½ĳ æ°ĳ
æĸĩåĮĸ çļĦ
æľĢåĲİ ä¸Ģæ¬¡
å±ı ä¸ľ
æĵħ éķ¿
3 åĲį
N et
éĺ Ĳ
è¿Ļ ä½į
æĢ» ä½ĵ
äº¦ ä¸º
çİ¯ ç»ķ
æĸ¯ åĴĮ
å¹¶ åĲĳ
å°± è¢«
å¤ı å¤©
åĨľ åİĨ
ç´¢ æģ©
é¢ģå¥ĸ åħ¸ç¤¼
ç»´åŁº çĻ¾ç§ĳ
æľī çº¿
ä»» ä¸Ńåħ±
è¿Ľ å±ķ
å¯Ĩ èĭıéĩĮ
çĻ½ äºº
è¯º è´Ŀå°Ķ
éĺ¿å°Ķ å·´
ä¹ĭåīį çļĦ
ä¿ĺ èĻı
æ¯Ĺ éĤ»
ä¸Ĭ å°Ĩ
æĸ° åı°å¸ģ
æ¹ Ľ
è®® éķ¿
æ· Ģ
er t
an n
ç¦ı çī¹
æĶ» åħ¥
æĻº åĪ©
éĽ¶ åĶ®
èĳ£äºĭ ä¼ļ
éĽį æŃ£
Ġ 202
Ġ æ²¿éĿ©
å¤§ å¸Ŀ
åĴĮ 1
åħ¶ åŃĲ
å·ŀ çļĦä¸Ģä¸ªå¸Ĥéķĩ
åİ¿ æ²»
å¸¸ ä½ı
æĻ® æŀĹ
è½¬ åŀĭ
çģ« çĤ®
è´Ł éĿ¢
åĢĻ è½¦
æīĢè°ĵ çļĦ
è¿½æº¯ åĪ°
I A
æĺ¯ æľī
çī ¢
åħ¶ ä¸ŃçļĦ
åĲĮ å¿Ĺ
äºļ ç§ĳ
æĽ´ æĶ¹
æĽ´ å¤§çļĦ
ä¿¡ çĶ¨
æĭħ å½ĵ
æī§ æ³ķ
ä¹ĺ è½¦
çĭ® åŃĲ
G B
ä¸» äºº
æĸ° åŁİ
èī °
æĢ» ä¹¦è®°
è§Ĩ æĺŁçŃīä¸º
é¥ ²
ä¹Į é²ģ
æł¹æį® 2020å¹´ç¾İåĽ½äººåı£æĻ®æŁ¥çļĦæķ°æį®
äºİ200 4å¹´
ç«ĭæ³ķ å§Ķåĳĺ
æĺİæĺ¾ çļĦ
é«ĺéĽĦ å¸Ĥ
æ¨¡çī¹ åĦ¿
2 ä¾ĭ
C H
åĮ ¿
ä¸Ń æĹ¬
åĩ °
ç¬¬ 11
ä¸ĭ åįĬ
åħ± è¯Ĩ
æĻĭ åįĩ
èĴ¸ æ±½
% ;
10 5
æĻ® åıĬ
15 3
èİ± æĺĤ
30 åĪĨ
æľĢåĲİ çļĦ
æĪĺäºī çļĦ
191 4å¹´
åĭĩ å£«
èµĶ åģ¿
0 8
äºİ 2025å¹´
æľī äºĨ
æľī å¤ļ
æİ ·
å¾· åĪ©
è½¦ éģĵ
éħ ¬
éª ¸
å±Ģ éĥ¨
åı°æ¹¾ çľģ
å®« å»·
ç§ģ ç«ĭ
è¯¢ éĹ®
æĪĺåĪĹ èĪ°
w it
æĺ¯ æľĢ
çī¹ éĽ·
éĩį ä¿®
çīĪ æĿĥ
at h
é¢Ħ å®ļ
èĪªç©º æ¯įèĪ°
èªī ä¸º
æĹ¥æ²» æĹ¶æľŁ
çļĦ æľĢé«ĺ
çļĦ åĮºåŁŁ
äºº çĶŁ
è¾ £
éª ¤
åľ£ è¯ŀ
B BC
çļĦ åĽĽ
çļĦ æłĩåĩĨ
åĪĨ ç»Ħ
å½± ä¸ļ
çĽ´ è¾ĸ
æĶ¯ çĲĥéĺŁ
çĵ £
å·¦ æ´¾
å°ģ éĿ¢
åıĳè¡Į äºĨ
è¯¸ å¤ļ
ĠS h
æĭĽ åĭŁ
åħ¬å¸ĥ ä¸º
çļĦ éĩĳ
å¤§ å°ĨåĨĽ
æĸ¯ å¤§
çľ ī
æ± ķ
æµ· åħ³
éģĵ æŃī
éľ ĸ
ä¼Ĺ äºº
ow n
åĶ±çīĩ åħ¬åı¸
å±Ĭåħ¨åĽ½ äººæ°ĳä»£è¡¨å¤§ä¼ļ
Ð °
è¿ Ħ
ä¸Ģ æĸ¹
çº Ĥ
å¤§ åŁĶ
åī ¿
ä½ľ çī©
è¢« éĢīä¸º
çļĦä¸Ģ é¡¹
å¤į æ´»
çĽĳ åĪ¶
åī§ ä¸Ń
æ¡Ī ä¾ĭ
æĽ¿ æį¢
æģ¶ åĮĸ
Ġ18 9
è¿ĳå¹´ æĿ¥
0 2
a f
Ġ å¼ł
çļĦ è¦ģæ±Ĥ
çľģ éķ¿
æŁ ¬
å¨ ¥
äº¤ çĶ±
å·² åľ¨
æĻ® äº¬
åĨ³ äºİ
çĭ¬ çī¹
èĪ¹ åĳĺ
å¹¿æĴŃ åħ¬åı¸
åĬłåĭĴ æ¯Ķ
t e
äºº æ°Ķ
çī Ł
ä¾ Ħ
ä¸¤ åº§
çĶ² æĿ¿
ä¹ł ä¿Ĺ
çĳŀ æĭī
çļĦ åŃĺåľ¨
å¯ ¡
ä¸Ĭ ä»»
åĽł åŃĲ
ç½Ĺ å§Ĩ
åĪĿ çº§
æ²Ļ çī¹
æļ´ åĬ¨
è½¯ æĿ¡
çģ¾ éļ¾
0 7
Ġ ä¹Įåħĭåħ°
ä¸į è¯¦
æĭī å¤ļ
ä½Ĩ åį´
å±ķ åĩº
å¼Ł åŃĲ
è£ģ å®ļ
æģĲ æĥ§
ç¨ĭåº¦ ä¸Ĭ
æµģåŁŁ éĿ¢ç§¯
æľĢè¿ĳ çļĦ
å¾· å·Ŀ
é¢Ħ éĺ²
åĸľ çĪ±
åı¤èĢģ çļĦ
èĪĨ è®º
æĭ¯ æķĳ
R e
åĽ½ ä¼ļè®®åĳĺ
æ³ķ å°Ķ
é© °
æ²» å®ī
æŃ¢ äºİ
è¾© è®º
çļĦ åıĮ
èµ ¦
æĹ¥ è®°
åħĭ åĬ³
å®ī ç½®
åį¡ çī¹
åıį å°Ħ
åĲĦ é¡¹
äºī è®º
çĽĳ ç®¡
é¹ ī
o o
çļĦ ç»Ŀå¯¹
åĽ½ åħ±
éĺ¿ å¸ĥ
çĭ ©
è½¬ æĴŃ
13 6
is s
è¡Ģ ç»Ł
è®¯ åı·
æİ¨åĩº äºĨ
çĶµåŃĲ æ¸¸æĪı
i Ġ
æĹ¶ å¸¸
åĬł é¾Ļ
åīį æĸ¹
æľŁ æľĽ
åĪĹ å®ģ
æĽ¾ æľī
æ¸ħ çľŁ
åĬŁ çİĩ
å·® è·Ŀ
L in
é«ĺ å³°
æŃ£ è§Ħ
çŁ³ åĻ¨
èĮ¨ åħĭ
åįĹ å®ĭ
æµ· æ°´
éħ °
æ¯ı ä¸Ģ
ç§ĭ åŃ£
èµ¤ ç»ı
ç¼ĵ æħ¢
åĵº ä¹³
3 000
ä¹ĭ å¥³
æ± ģ
å¤ļ å¤«
è¯¥ ç»Ħç»ĩ
ç³» çļĦ
éĥ½ æ²¡æľī
åĮħæĭ¬ äºĨ
å¾Ī éļ¾
æ·± åĪ»
æŀģ å¤§
å¹² é¢Ħ
é©» æīİ
è¿ģ å¾Ģ
æİ¥åıĹ äºĨ
æ½ľ æ°´
Ġ åĽ½éĻħ
Ġ åĪĨç±»
ä½ľ çļĦ
èĥ °
å¹³ è¡Į
äºļ å½ĵ
æ· ³
æĹı èĩªæ²»
çĭ¬ èĩª
å£° ä¼ĺ
è¡Ĺ å¤´
è¿ľ ä¸ľ
çļĦçī¹ å¾ģ
å¹´è½» çļĦ
åı°åįĹ å¸Ĥ
Go ogle
æĸ¯éĩĮ åħ°åį¡
I G
æľī åĪ©
æĸ¯ åĽ¾
æĸ¹ å½¢
éĩĮ ç¨ĭ
åĮĹ çº¦
è½¦ æīĭ
è½¦ åŀĭ
ä¸ĸ çļĦ
æł¡ åıĭ
æ» ´
æ´Ľ éĺ³
é©» åľ°
æľĢåĪĿ çļĦ
åıĤèµĽ èµĦæł¼
çļĦåīį èº«
m a
o la
Ġ å®ĥ
åĴĮ ä¸Ń
åİ¿ æĶ¿åºľ
æ²» çĲĨ
å¹¿ ä¹ī
äººæ°ĳ æ³ķéĻ¢
å¨ģ å°Ķæĸ¯
å¤į åĲĪ
çİĩ åħĪ
ä»ª åĻ¨
åīĳ æ¡¥
èµ·æºĲ äºİ
èħĵ çī¹
åĲİ åį«
æ³ķ å®ļ
å®ļ å¾ĭ
æĶ¹ çĶ±
æĶ¯ éĺŁ
ä¸ĵ æ¡Ī
åĻ¨ å®ĺ
åŃĻ ä¸Ńå±±
æ£Ģ éªĮ
å¤ĦçĲĨ åĻ¨
åĲ Ĺ
æĪĲ åĮĸ
åħĭ åĪ©
çĶµ ä¿¡
åħ± äº«
å¢ ħ
åĽ¢ çļĦ
åĲĦ å¤§
æīĵ è¿Ľ
é»Ħ æ²³
æĤ Ł
é¢Ħ æľŁ
å¹² æī°
èĳ¬ äºİ
ç½¢ å·¥
è½¬ç§» åĪ°
ä¿Ħäº¥ä¿Ħ å·ŀ
å¤§ æŃ£
åįĹ æĺĮ
å·´ é©¬
å§Ķ åĨħ
å¤§åŃ¦ æķĻæİĪ
æĶ¾ ç½®
æ¤ Ĵ
è¿ľ å¾ģ
å¤º åĨł
æĪĳä»¬ çļĦ
å¹¿æĴŃ çĶµåı°
ä½Ľç½ĹéĩĮ è¾¾å·ŀ
èħĵçī¹ çĥĪ
å¤§ åİħ
æĹ¥ çļĦ
ä¸Ĭ çº¿
è¢« æĮĩ
åħĭ é²ģ
èµĽ èīĩ
æķ° åĢ¼
åĳ½ è¿Ĳ
æĹ¶éĹ´ ä¸º
åħ¸ åŀĭ
ç®Ģ åĮĸ
ç³»åĪĹ çļĦ
çĽĨ åľ°
åĳĺå¤ĸ éĥİ
å§ĶåĨħ çĳŀæĭī
ä½Ĩ æĺ¯åľ¨
ä½¿ èĢħ
åįģ ä¸ĥå¹´
å®ī åİ¿
éĤ ¸
èĬ± èİ²
å¯Į å£«
ä»ĭ çŁ³
åĭĥ èī®
å¤ļä¼¦ å¤ļ
æŀ «
ä½ľ è¯į
æīĢ å¾Ĺ
çº¦ 2
åį³ æĹ¶
æ¸ħ æ°´
çĩ ¥
æĭĺ æįķ
. "
ä¸ĭ æĹ¬
ä¸ľ è·¯
å§Ķ å¸¸å§Ķ
åİĤ åķĨ
èįī æ¡Ī
äºİ200 0å¹´
æµĵ åº¦
ä¸į èī¯
æĢ» è®¡
å°¼ æĹ¥
ç¥ŀ çĪ¶
ç»ĩ çĶ°
ç¹ģ å¿Ļ
ä½įäºİè¯¥åĽ½ è¥¿éĥ¨
é¹¦ é¹ī
I L
o de
Ġ h
ä¹ Ĵ
ç½ Ĳ
äºĮ å±Ĥ
éħ ±
éħ µ
åĽŀ å®¶
ç²¾ èĭ±
ä¾µ çķ¥
å§Ĳ å¦¹
èħĲ è´¥
åĽļ çĬ¯
Ġ äºīè®®
çļĦ åĨħ
æĸ° ä¸Ģ
è½¬ èĢĮ
åĲī ä»ĸ
å¾Ī å¤§çļĦ
ç§» æ¤į
æľ« å¹´
èįī åİŁ
å« ¡
åĪĬ çĻ»
åı¸ä»¤ åĳĺ
çİ°æĹ¶ çĶ±
æĸ°åĮĹ å¸Ĥ
0 3
Ã ¡
ç» ħ
ä¼ļ éĿ¢
åįĹ ç«¯
è½¦ çļĦ
å½ĵ æĻļ
åľº åĲĪ
å°± ä¸ļ
æĮĩ æłĩ
å¥ĸ åĬ±
ç»§ ä½į
çļĦç¬¬ ä¸Ģä¸ª
çıĬ çĳļ
æĦ¤ æĢĴ
19 19å¹´
åĬ¨ è¯į
ç«ĭ æ³ķéĻ¢
èĲ ¤
in eĠ
æķħ æĦı
ä¸ĸçºª åĪĿ
è¯Ĺ æŃĮ
äºİ200 3å¹´
åĩ¤ åĩ°
åĢº åĬ¡
éĻįéĽ¨ éĩı
è½¦ èº«
åıĸ åĨ³äºİ
åĸ Ĭ
æĶ¿æ²» å±Ģ
é¥ ±
çĽĳ ç¦ģ
è¡Ģ ç®¡
ç®Ģåįķ çļĦ
Ġ éŁ³ä¹Ĳ
Ġ åĪĨå¸ĥ
ä¸Ģ åįĬ
ä»ĸ æĪĲä¸º
åħ¬ å¹³
åıĳ çļĦ
åĮĹ éŃı
éĩį çļĦ
ç»Ī ç»ĵ
åĪ¶éĢł åķĨ
åİŁåĽł æĺ¯
èĴĭ ä»ĭçŁ³
è´« åĽ°
åĲı éĥ¨
0 4
1 åĲį
c ol
æĶ¿ å§Ķ
å¯¹ ä»ĸ
åĬł çĥŃ
ä¹Ł åı¯èĥ½
æķ° ä¸º
åİŁ æĿ¥çļĦ
ä½įäºİ éĵ¶
æ¯ı å°ıæĹ¶
çŃ¾ è¯ģ
il li
æĮĩæĮ¥ éĥ¨
C R
åı£ åı·
æĪĸ åħ¶ä»ĸ
åĪĻ è¢«
æµģ äº¡
åĶĲ ä»£
SA O
åį¸ ä»»
æ³ķ è§Ħ
æľĢ æľī
æµ· çĽĹ
æľº ç»Ħ
æĬ¤ çħ§
åįĬ å¾Ħ
at eĠ
æĳ© æīĺ
æįŁ å®³
æ°ĳæĹı ä¸»ä¹ī
æµª æ¼«
åŃ¦å£« åŃ¦ä½į
S O
äºº ä½ĵ
åŃ¦ åĳĺ
è¯¥ å¹´
é¦ĸ æĺł
åĭ ī
å¼¹ åĬ¾
æ¸Ĳ æ¸Ĳ
åĪĳ éĥ¨
å¤§å¥ĸ èµĽ
Ġ re
çļĦ æ¶Īæģ¯
ä¸º æĹ¥æľ¬
æ³ Į
æ°ĳ åħļ
å¯¹ æ¯Ķ
åħĭ æĭīåħĭ
å¤ļ æĸ¯
çº§ è¡ĮæĶ¿åįķä½į
åĩł åĨħäºļ
192 6å¹´
çļĦçī¹ æľī
åĤ¬ åĮĸ
åľ¨ å½ĵåľ°
åľ¨ ä¸ŃåĽ½å¤§éĻĨ
ä¼ļ å¯¼èĩ´
ä»£ è°¢
10 ä¸ª
è¶ħ äºº
çīĽ æ´¥
ç»ĺ åĪ¶
ç¹ģ èį£
å¼ĺ æ²»
æĽ¾ äºİ
or n
å¡Ķ åŁº
å·¥ä½ľ èĢħ
çħ ®
ic al
åŃ¦æł¡ çļĦ
åİ¿çļĦ éĿŀå»ºåĪ¶åľ°åĮº
é¢Ĩäºĭ é¦Ĩ
è¤ Ĵ
ä¸Ĭ ä¸Ģ
ä¸İ å¤§
ç¬ ĥ
ä¸ĭ åĪĹ
å®ī æīĵ
å¸¦ èĳĹ
å»ºçŃĳ éĿ¢ç§¯
æ¦ľ åįķ
192 5å¹´
ç¯ĩ å°ıè¯´
åĮĸåŃ¦ å¼ı
å¤±åİ» äºĨ
sp an
e le
Î ²
æĺ¯ åį°åº¦
éĹ µ
ä¹Ł èĥ½
åŁİ éĻħ
åįİ ä¸ľ
æł· æľ¬
åłĤ åĮº
åħ¨åĽ½ éĩįçĤ¹æĸĩçī©ä¿ĿæĬ¤åįķä½į
å¯¼èĩ´ äºĨ
ä»ĺ è´¹
æĲŃ æ¡£
ç»§æī¿ äºº
åŃ£åĲİ èµĽ
é¡ºæĹ¶éĴĪ ä¸İ
A nd
Q u
åĩ» éĢĢ
æĶ¿æ²» éĥ¨
éª¨ éª
u x
å² ĳ
åĪ¶ å¤ĩ
çł į
èī² æĥħ
å¥¥ åı¤
æĶ¯ æĴĳ
æİ¨ çĲĨ
æĵ ¢
äºİ200 2å¹´
åĴ Ĵ
ä»£ æķ°
éģĵ å¤«
åĲĦ çº§
äº¦ åı¯
å®« æ®¿
åıĳå¸ĥ çļĦ
æľīåħ³ çļĦ
190 9å¹´
è¶ħçº§ èģĶèµĽ
çĲĥ æ¯ĶèµĽ
ä½Ĩ æ²¡æľī
æŃ£ ç»Ł
èį «
åºĶ å½ĵ
æĶ¿åºľ åľ¨
çº³ çľģ
åĽ½å®¶ è¶³çĲĥéĺŁ
åı¯ä»¥ çĶ¨
çĳ ¶
çĶµå½± çļĦ
åĶĲ çº³
æŁĲ ä¸ª
æļĹ ç¤º
åĭĥèī® ç¬¬
åĽ½ å¤ĸ
èĢĮ åĲİ
ä¸ľ æĹ¥æľ¬
ç§ĳ çłĶ
éĺ¿ åĪĹ
çĽ´ å±ŀ
æĹı çļĦ
éĺ² çº¿
æ´ĭ åŁº
ä¸ģ çĽ®
æĺ¯ä¸Ģ æ¬¾
å¾Ĵ åĪĳ
äºİ18 7
ç¨³ å®ļçļĦ
æĪĺå½¹ ä¸Ń
Ġç®Ģ åİĨ
B 1900
çĶ± åħ¶
çī¹ å®ļçļĦ
âĢĿ ;
è¯¥ ç«Ļ
åĪĹ æĸ¯
å¥¹ æĺ¯
å¼ķ å¯¼
en n
17 2
éĵ¶ çº¬
192 2å¹´
æĸ°å¢ŀ æľ¬åľŁ
Ġè½¦ç«Ļ æŀĦéĢł
çŃ ĭ
é«ĺ éĵģ
è·¯ åĨĽ
åı¤ å±ĭ
ç¬¬ä¸Ģ æī¹
æĶ¾ å°Ħ
åĩı å¼±
çĶŁçī© åŃ¦
ä¼ĬåĪ© è¯ºä¼Ĭ
éª¨éª ¼
8 ç±³
Ġ ç»ıåİĨ
çļĦ ä½¿çĶ¨
åħ¬ ç«ĭ
çĶµ åİĭ
éŃ ħ
éģĹ ä½ĵ
éĢģ å¾Ģ
ĠA l
æĿ¥æºĲ äºİ
åĳ¨æģ© æĿ¥
0 åĿĲæłĩä¸º
4 ç±³
5 ä¸ĩ
ä¹ ŀ
å¥ ķ
åħ¶ B1900
è¿Ľ ç¨ĭ
æĭī å§Ĩ
å¢ ©
åŀ ĥ
å¥¥ å¾·
é² ·
æĹı èĩªæ²»åĮº
15 00
è¿ª æĸ¯
2019 åĨłçĬ¶çĹħæ¯Ĵ
ä½įäºİéĵ¶ ç»ı
0åĿĲæłĩä¸º èµ¤ç»ı
, "
E n
ä¿ ŀ
é«ĺ åľ°
çĪ ¸
å¥¥ å¤ļ
14 6
ï¼ İ
å°ĳæķ° æ°ĳæĹı
èĤĮ èĤī
I R
è¿ĩ åĲİ
æĽ´ é«ĺ
ä¿¡ å¥ī
å¯Ĩ è¥¿
ãĥ ³
æ²ī ç§¯
åįĹæŀģ æĿ¡çº¦
æĩ ¿
éĴ» çŁ³
æĺ¯ å¤§
çŁ ¢
ç»´ æĭī
é¢Ĩ éĺŁ
at e
éħ¸ çĽĲ
åĲ¦ åĨ³
éĢĥ äº¡
å¸ĥæĭī æł¼
å¤įæĿĤ çļĦ
éĢ¢ æĺŁæľŁ
å½ķéŁ³ å®¤
æĺİå°¼ èĭı
ä¸Ĭ æł¡
ç»Ń éĽĨ
éĤ£ ä¸ª
æ³½ è¥¿
çİ°ä»£ åĮĸ
ä¸įä¹ħ åĲİ
Ġ å·´
æĻ ·
åįİ åįĹ
11 æľĪ1æĹ¥
åį³ æĺ¯
èī¾ ä¼¦
Ġ199 9å¹´
åĩ»è´¥ äºĨ
è´· æ¬¾
c odice
i i
å½ ¬
åħ¬ ç½²
åı¯ çĶ¨
æīĢ è¾ĸ
è¯´ æĺ¯
on e
æľ¨ åĦ¿
è´¢ å¯Į
ac t
ä¸ºä¸» é¢ĺ
191 1å¹´
æĢ»éĥ¨ ä½įäºİ
å¦Ī ç¥ĸ
L e
T E
y st
ç« ĸ
ä¸ĸ ä»£
æľª ç»ı
æľª æĿ¥çļĦ
èĤ¡ æĿĥ
ãģ ®
çĶĺèĤĥ çľģ
N C
Ġ ä¸Ńåįİäººæ°ĳåħ±åĴĮåĽ½
çļĦ å¥³æĢ§
åľ ¾
åľ¨ å¾·åĽ½
å½ Ĺ
åħ¶ çĪ¶
åĮĹ å®ĭ
ãĢį ()
æ¯Ķ 2
æĶ¹ ä»»
èİ± åĿŀ
çĥĪ å£«
ãĢīãĢģ ãĢĪ
åŀĥ åľ¾
çļĦ ä½ľçĶ¨
ä¸Ģ çĶŁ
ä¸ľ é£İ
æĽ¾ ä¸İ
ar dĠ
èĪ° èīĩ
åĨ² ç»³
ç£ ħ
åºĻ å®ĩ
é¥Ń åºĹ
B D
Ġ æĸĩåĮĸ
åįĹ ä¸ĭ
å¾· åħ°
å¼º è¿«
æŀģ éĻĲ
èľ ¥
ç©¿ èĳĹ
éĩįåºĨ å¸Ĥ
æĸ¯æ´Ľ ä¼Ĳåħĭ
å®° çĽ¸
å¡ŀæĭľ çĸĨ
1 åı·çº¿
2 åĲį
3 D
J ohn
å¸Ĥ åĨħ
å¸ĥ åĪĹ
é©¬ è¾¾
åİ¿ çº§
ç»ĵ å±Ģ
è¿ĺ è¦ģ
æ´Ľ ä¼Ĭ
ä¾Ŀ æĹ§
ä¸¾è¡Į äºĨ
éħĴ ç²¾
192 1å¹´
å§Ĳ å§Ĳ
ä¹¡éķĩ çº§è¡ĮæĶ¿åįķä½į
åĲİ æīį
ä¹ĭ æĦı
åħ³ ä¸ľ
é¢Ĩ è¡Ķ
å¤ª å®Ĺ
æĿĥ çĽĬ
æ³¢ éŁ³
è´¹ åŁİ
èĩªçĶ± åħļ
æ³ī å·ŀ
åı°ä¸Ń å¸Ĥ
å¤©çĦ¶ æ°Ķ
1 ç±³
åĴĮ æĸ°
åı¯ åĪĨä¸º
çī© æµ¦
çļĦä¸Ģ ä½į
æ¶Ī éĻ¤
èİ« å°Ķ
æĺ¥ åŃ£
æ·· åĩĿ
è®¾ç«ĭ çļĦ
æ´ª æŃ¦
æĸ¹åĲĳ çļĦ
å¼ķèµ· äºĨ
B M
å¤§ éĥ¨ä»½
é©¬ å¾·éĩĮ
ä¸ĵ åĮº
ç¬¬äºĮ è½®
ä¸»æķĻ åº§åłĤ
æķı æĦŁ
å¿ĥçĲĨ åŃ¦
ç» °
èĢĮ å¾ĹåĲį
10 9
æł¼ æĸ¯
12 ä¸ª
åĽ´ æĶ»
çİĽä¸½ äºļ
ex t
æľ Ķ
æ² ¦
ä¸į åıĬ
å°ı å¹³
10 8
å¤§åŃ¦ çĶŁ
æ¯ı ä¸Ģä¸ª
è¾ĥ å°ı
æķħ éļľ
ç»ĦæĪĲ éĥ¨åĪĨ
èĮ¨ åŁº
çŀ Ħ
å±±èĦī çļĦä¸Ģéĥ¨åĪĨ
8 æľĪ1æĹ¥
9 æľĪ1æĹ¥
a de
c k
Ġ ç¤¾ä¼ļ
Ġ è¿Ļä¸ª
Ġ çĽ¸åħ³
çļĦ M
åľ¨ è¿Ļä¸ª
åº µ
å¤§ äºİ
å¤§ è´¥
åĴĮ ä¸Ģä¸ª
æ° °
ä¸» ç¼ĸ
åĪĨ æķ£
éĿ¢ åīį
èµ· äºĨ
åıª åľ¨
16 7
å°Ħ åħ¥
âĢĿ, âĢľ
æĴŃåĩº çļĦ
è½¨éģĵ äº¤éĢļ
çº³ç²¹ å¾·åĽ½
æĸ°åĨłèĤºçĤİ ç¡®è¯ĬçĹħä¾ĭ
Ġ çĶµå½±
ç» £
çº ±
æ¼ ³
æį® çĤ¹
æŃ¥ è¡Į
æ¿ ĳ
åĽ½æ°ĳ éĿ©åĳ½åĨĽ
æ© ĺ
è¿ŀç»Ń åī§
åŁĶ å¯¨
èĦĤ é²¤
A G
ä¸Ģ è§Ĵ
åŃ ¢
çĶµ å®¹
çĶµ æ¢¯
åĪĽ æĦı
åº§ ä½į
æ²ī æ²¡
æłĸæģ¯ åľ°
ä¼łæķĻ å£«
çºº ç»ĩ
D R
r on
å¯ Ŀ
éĺ İ
æĹ¶ ä¼ļ
åı¯ çĶ±
æľĢ å°ı
åĪ© çī©æµ¦
éĹ´ æİ¥
çĥ ¦
14 8
at t
éĽħ åĲĦ
åĵ² åŃ¦å®¶
æŁ¬ åŁĶå¯¨
4 åĲį
çļĦ è¡ĮåĬ¨
çļĦ çİ¯å¢ĥ
åĪĨ å¼Ģ
åł ķ
é² ¨
è¶³ ä»¥
17 3
æĹ¶éĹ´ åĨħ
ç´¢ å°¼
æļ´ éľ²
èī¯ å¥½çļĦ
Window sĠ
çİ¯å½¢ å±±
èįĥ æ¹¾
åįĹæŀģæĿ¡çº¦ ä½ĵç³»
ä¸İ ä¸ŃåĽ½
ä¸į å¦Ĥ
ä¹Ł æĪĲä¸º
ä¸¤ å¤§
éĩĳ æĽ²
ç©º è°ĥ
åĪĽ ä¸ĭ
è¿ŀ åĲĮ
éĩİ æĪĺ
åĲ¯ åıĳ
äºİ199 8å¹´
ç¿°æŀĹ éĻ¢
åİ ķ
ä½į åĪĹ
æľĢ å¥½çļĦ
èĬ ¯
åħ¨ åı°
åĮħæĭ¬ ä»¥ä¸ĭ
èĬ± è´¹
åģľ çķĻ
ä½ľåĵģ çļĦ
è¿ģ å¾Ļ
ĠT h
äººç±» çļĦ
ç´§ å¯Ĩ
åľ¨ åįĹ
æĹ¶ è¢«
æµ ı
ç¬¬ 9
è¾¾ å°¼
èµ· é£ŀ
æĺİ çļĦ
192 3å¹´
æ··åĩĿ åľŁ
Ġ k
å® ¦
ä¸Ģ åıª
ä¸į åľ¨
å¹¶ å¯¹
å¹¶ ç§°
äºĭ ä¸Ń
è·¯ å¾·
èĬ ½
æķ° çĽ®
åħļ ç±į
çļĦä¸Ģ å®¶
ä¸ĸçķĮ çļĦ
åľ£ æ®¿
åįł æĢ»äººåı£
èĮĥ çķ´
éŁ³ä¹Ĳ ä¼ļ
åĲİæĿ¥ è¢«
é¢Ĺ å°ıè¡ĮæĺŁ
191 3å¹´
åĵĪå°Ķæ»¨ å¸Ĥ
Ġ Z
Ġ å®ī
ä¸İ ç¾İåĽ½
ä¹ĭ è·¯
å¾· çĶ²
ç»´ èİ±
åĽŀ å¤į
ç©º éĻį
çº³ è¥¿
åŃ¦éĻ¢ çļĦ
äºİ200 1å¹´
æļĹ æĿĢ
æ±Ĺ åĽ½
ä¸Ń åľº
åĽ½ åľŁ
æº ´
åĮĹäº¬ å¤§åŃ¦
ä¼ĺ æĥł
Ġ ç¬¬ä¸ī
çļĦ èĢģ
ä¸º ä»ĸ
é¢ ħ
ç¤º èĮĥ
èĻ ŀ
éªĮ è¯ģ
èĤ¡ ç¥¨
Ð ¾
Ġ èģĮä¸ļçĶŁæ¶¯
å® µ
ä¸į éľĢè¦ģ
äºĮ æ°§åĮĸ
å¤© ç©º
è¿Ĳ éĢģ
æ¼Ķ ä¹ł
æĥħ å½¢
åĳĬ çŁ¥
è¯¸ å¦Ĥ
ä¸§ å¤±
2019åĨłçĬ¶çĹħæ¯Ĵ çĹħ
Ġ 15
ä½ ¥
åŃ ľ
åī Į
æĸĩ çļĦ
äºĭ å®ľ
äºĮ çĶ²
å§ĭ äºİ
åıį åĩ»
ç¬¬ä¸Ģ éĥ¨
æŃ¦ æľ¯
çĵ¦ æĭī
çĪ± æ²Ļ
çľŁ çļĦ
ä½ł ä»¬
åįĹæŀģæĿ¡çº¦ä½ĵç³» ç®¡çĲĨ
Ġ å¤ĸéĥ¨
âĢľ âĢĿ
ç«ĭ åĪ»
çīĩ ä¸Ń
ç¦ı åĨĪ
åįļ å°Ķ
æ°¸ ä¹Ĳ
ro und
195 0å¹´ä»£
åħ¶ä¸Ń æľī
ç»į åħ´
æģĭ çĪ±
çĦ¦ çĤ¹
æłª å¼ı
çĪ±æ²Ļ å°¼äºļ
D C
åĲį åı¤å±ĭ
ç¾ Į
çĶ± ç¾İåĽ½
æĽ´ åĲį
åĩ» èĲ½
åĩºçĶŁ åľ¨
å¹¸ ç¦ı
æłªå¼ı ä¼ļç¤¾
æµ ĳ
æĸ° çĶŁ
è° ľ
é©¬ åľº
åħ¨ æķ°
åı² æĸĻ
å°± å·²ç»ı
æĻ® å°Ķ
åĻ ª
åĵĪ èĲ¨
æĸ½ è¡Į
14 7
éĻį çº§
èĴĻ å¾·
ä¸īè§Ĵ å½¢
æ®ĭçĸ¾ äºº
U R
Ġ èĭ±åĽ½
çļĦ æ¯ĶèµĽä¸Ń
åī ĸ
éļ Ļ
èĤ Ĩ
ç¼ ł
éĶ ¯
åıĪ æľī
äºĭä»¶ çļĦ
éĢĤ å½ĵ
ä¸ĺ éĻµ
æħķ å®¹
åĮºè®®ä¼ļ éĢīä¸¾
äºº è®¤ä¸º
æĺ¯ å½ĵåľ°
éĩį ä¼¤
æĢ» ç»ĵ
åŁİ éĹ¨
å·´ éĩĮ
åĽ½å®¶ çº§
ç»Ļ ä»ĸ
ç³»ç»Ł ä¸Ń
ä»ĭ åħ¥
èĨ ¨
åħĭéĩĮ æĸ¯èĴĤ
ä¼´ ä¾£
éĽĨä¸Ń åľ¨
å¸ĸ æľ¨åĦ¿
æ² §
åĲĮ æ²»
12 8
ç¡ Ŀ
è¿ĺ ä¼ļ
åħŃ ä¸ĸ
å®¢ ä¸²
æİĴ æĶ¾
å¹² çĩ¥
ä¸¹ å°¼å°Ķ
ro p
éĺµ çº¿
ç½ª åĲį
æ¿Ģ è¿Ľ
å¨ģå°Ķ å£«
åĩ ¹
ä¸Ĭ å±Ĥ
ä½Ĩ è¿Ļ
åİŁ åĿĢ
åŁİ åĨħ
æīĭ æ³ķ
ä¿Ŀ èĤ²
æ· ¹
éĢļè¿ĩ äºĨ
éĺµ åľ°
ĠS ch
ç£ģ åľº
èĲ¨åħĭ æ£®
Ġ ç½Ĺ
Ġ æķĻèĤ²
ä¸Ģ éĹ´
æĸ¹ éĴĪ
å¦ ĵ
å¤į ä»ĩ
æ¥ ł
åįĥ äºº
åĳĬ ç¤º
æĪ´ ç»´æĸ¯
æĦıè¯Ĩ å½¢æĢģ
ç» Ĵ
åº Ĳ
ä¹ĭ ä¹±
æµ· åºķ
åħ¨ å¹´
ç¨ ļ
äºİ18 6
å¯¿ åĳ½
B O
ä¸Ģ æīĢ
å·¥ éĥ¨
æĹł éĶ¡
éĴ ¥
åħĪ åıĳ
å®Į åĸĦ
16 9
çĽĳ è§Ĩ
ing Ġ
191 7å¹´
çĴ ĭ
ä¸Ģ æĹ¥
ä¸Ĭ ç©º
ä¸į å¤ļ
åħ¨ å¢ĥ
er v
å¼º å¤§
åĨĻ çļĦ
å»ºç«ĭ çļĦ
èĨ Ģ
æĤł ä¹ħ
C l
Ġ è¿ĻäºĽ
åĮĹ ç¾İæ´²
éĿ¢ 2
èµĽ åĨłåĨĽ
åħĥ é¦ĸ
17 4
è®© äºº
åŁĥ å¾·
éĵ¶ æ²³
è¿½ åĩ»
çī©çĲĨ åŃ¦å®¶
åĵĪå°Ķ ç§ĳå¤«
Ġ æ°ĳåĽ½
çļĦ äººåı£
åĽ½ ç±į
ä¸į åĪ©
è¥¿ æ¯Ķ
äºĮ åı·
å®ļ äºĨ
æĢ§ è¡Įä¸º
æĹł åħ³
å¿ĥ çļĦ
æ· «
äºĶ ä¸ĸ
è§ģ è¯ģ
è´Ń åħ¥
6æľĪ 30æĹ¥
Ġ194 5å¹´
çıį çıł
çºµ éĺŁ
çİ°æĹ¶çĶ± åįĹæŀģæĿ¡çº¦ä½ĵç³»ç®¡çĲĨ
? âĢĿ
I M
äºİ é¦Ļæ¸¯
æĮ Ŀ
ç§ĳ è¿Ľå£«
çĽ¸ å¯¹äºİ
èģĮ äººåĳĺ
åĽ¾ æĽ¼
çŁ³ å¤´
éħį è§Ĵ
é¡¹çĽ® çļĦ
å§ĵ åĲį
èģĺ è¯·
çļĦ éĩį
æĻ °
éĿ¢ åĮħ
æĪĺ æĹ¶
å¦ Ĩ
æŃ» èĢħ
èĵ ī
åĢŁ æŃ¤
åİĦ å°Ķ
èı© èĲ¨
çļĦ è½¨éģĵ
å¼ §
ä¼ļ ä»¥
åĮĹ æŀģ
è¿ĩ äºĨ
çº¦ 3
æŀĹ èĤ¯
åİĨ ç»ı
æĴŃ æĺł
å¥ĸ ç«ł
å®ĩ æĸĩ
èĦĬ æ¤İ
D A
l o
p t
u la
ä¸Ģ è¾Ĩ
æµ ´
å¹¶ å¼Ģå§ĭ
ç© Ĺ
åŀ «
è´¨ çļĦ
ç½ª è¡Į
èĢ³ æĽ¼
åĬŀåħ¬ åİħ
æ¸ħçľŁ å¯º
6 æľĪ1æĹ¥
8 0å¹´ä»£
Ġ åı¤
ä¸Ģ åĳ¨
ä¸į åı¯èĥ½
å¼Ģ è¾Ł
æ°´ éĿ¢
åĪĹ é¢ł
æ¨ Ł
æŃ» åİ»
åĲİæĿ¥ åľ¨
åįĹéĥ¨ çļĦ
ed Ġ
èĶ ½
ç¼© çŁŃ
çģ° èī²
ä¹ ĵ
ä¸Ģ ç¾¤
æµģ éĢļ
è¾¹ å½¢
åį¢ æ£®åł¡
å®īå¾· çĥĪ
æº¶ æ¶²
Ġ æ°´
çļĦ å®ĺæĸ¹
ç¤¾ åĽ¢
åį° åľ°
ro w
æĳ© æł¹
æłĳ æľ¨
ĠA n
é¢ĨåŁŁ çļĦ
é«ĺçŃī æķĻèĤ²
æ©¡ èĥ¶
1 å®¶
çļĦ è¿ĩç¨ĭ
ä¸İ æĹ¥æľ¬
è¥¿ å¾·
å» ¿
æľ¬ åī§
ä¹Ł å°Ĩ
ç½Ĺ éĹ¨
ç§ĳ åĮ»çĶŁ
èģĶ éĺŁ
è¯´ çļĦ
å°ĳ éĩı
çĳ °
è¡ĮæĶ¿ åĮºåŁŁ
å¤ªéĺ³ åħ¬
çĹĽ èĭ¦
æ¶Īè´¹ èĢħ
âĪ Ĵ
å¹´ åºķ
åľ° åĬ¿
ä¸» åĶ±
è¯¥ ä¹¦
å¤© æ¡¥
è¿ĺ åİŁ
å¤į åĪ¶
æİ¨ è¿Ł
å© ·
æľĢåĲİ ä¸Ģä¸ª
å®½ åº¦
yĠ of
å¹¼ åĦ¿
è£Ķ ç¾İåĽ½äºº
éģµ å¾ª
ç»¼èīº èĬĤçĽ®
9 ä¸ª
æľ¬ éĥ¨
å®ĺ èģĮ
æĬ¥ å¤į
è¯Ĩ åŃĹ
åĮĹéĥ¨ çļĦ
æ¯Ĵ åĵģ
åıĳè¡¨ çļĦ
çģ¾ å®³
éļĲ èĹı
eb ook
y le
Ġ ä½Ĩ
ä¸º ç¾İåĽ½
å¤§ å¤§
åĲį åĪĹ
å¹¶ å°Ĩåħ¶
è¥¿ è·¯
åıĪ è¢«
çļĦ ä¸¤ä¸ª
ä¸Ń æīĢ
ä¸Ĭ åľº
ä¸İ ä»ĸ
åĮº è´Łè´£ç®¡è¾ĸ
åħ¬ åĽ½
åĪ© å®ī
é«ĺ ä¸½
é¦ĸ å¼ł
è¿ĳ ä¼¼
å½¢å¼ı çļĦ
æ²³éģĵ åħ¨éķ¿
I F
ä¸Ń ä¸ľ
æĸ° åŀĭ
äº¤ å¾Ģ
å°± èĥ½
æĪĲä¸º ä¸Ģä¸ª
åķ ¤
ar e
æģ© æĸ¯
éĵģè·¯ åħ¬åı¸
Ġ199 8å¹´
è®½ åĪº
1 18
9 0å¹´ä»£
Ġ al
æľī ä¸ī
æĭ ¾
åĲİ ä¸įä¹ħ
æĹ¶ å°ļ
åĪĨ æŃ§
èĩ³ 3
çľģ è´Łè´£ç®¡è¾ĸ
åİĨ ä»£
åħµ éĥ¨
ç¬¬äºĮ åŃ£
åł¡ åŀĴ
åºŁ å¼ĥ
AT P
æĺ¯ä¸ĭè¾ĸçļĦä¸Ģä¸ª ä¹¡éķĩçº§è¡ĮæĶ¿åįķä½į
è¿Ħ ä»Ĭ
çļĦ çĥŃ
ä¸Ģ å¯¹
å¤§ åĨĽ
è¥¿ èĴĻ
æĪĺ èĪ°
ä¸ĸçºª æľ«
çīĽ æĸ¯
ä¸ľéĥ¨ æĹ¶åĮº
II I
çļĦ æĹł
ä¸Ĭ èİ·å¾Ĺ
è¢« åĪĹåħ¥
èī ³
æĸĩ éĿ©
ä½Ĩ ä¹Ł
æĶ¹ çĶ¨
çª Ł
æľĢç»Ī ä»¥
çĳŀ åħĭ
åİħ éķ¿
æ¨ª æ»¨
æĩ Ĥ
åĬ¨è½¦ ç»Ħ
æľī æĦı
æľī ä¸ĢäºĽ
åĲĮ ä¸º
å¼Ģ è¡Į
å¾Ĺ åĩº
æ¡ ¨
åĪĻ è®¤ä¸º
ä¹¦ åºĹ
éĻĲ å®ļ
196 0å¹´ä»£
æĺł å°Ħ
åĪĽåĬŀ äºº
Ġ åĪĺ
Ġ åħ³äºİ
ä¸İ åīį
åħ¬ æĬķ
å¼Ģ æĻ®
èµĽ é©¬
æĶ¶ å¤į
éĻĨ æĪĺéĺŁ
æĤ Ķ
éĻį èĲ½
å·´å£« è·¯çº¿
çĨŁ æĤī
éĦĤ åĽ¾æĽ¼
5 Ġ
çĶŁ åīį
è¥¿ ä¼¯åĪ©äºļ
å½ĵ åīį
åıĪ è¯ĳ
åĺ Ľ
ac e
æ¨ª è·¨
è¿Ī åħĭå°Ķ
å±Ĭåħ¨åĽ½ æĶ¿åįıå§Ķåĳĺ
æĭĺ çķĻ
Ġ æ¯ĶèµĽ
å¯ ħ
çİ «
åĲİ ä»£
çĶ¨ åľ°
è¢« åĪ¤
åİŁ æľīçļĦ
åį¡ æĸ¯èĴĤ
ç² ĺ
ç¼ĸ æĽ²
æĪ¿ åŃĲ
çĲĨäºĭ éķ¿
éģµ å®Ī
ED T
IST AT
çļĦ åįķ
çļĦ æĦıæĢĿ
ä¼ļ å°Ĩ
ä¸ª åĪ«
å±± åĿ¡
ç¤¾ éķ¿
èĲ½ å®ŀ
çī¹åĪ« è¡ĮæĶ¿åĮº
çĿ¡ çľł
5 000
çļĦ å®ļä¹ī
å¹ ¢
ä¸Ģ å±Ĥ
æĹ¶ ç©º
æ°ĳ çĶ¨
å¸ĥ æĸ¯
æıĲ åĢ¡
åĽŀ æĿ¥
ä¸ĩ åĲį
æłĩ ç¤º
åī§ ç»Ħ
åĽ¾ å°Ķ
æ¸ħ åĨĽ
ä¼ģ åĪĴ
äºİ199 9å¹´
å»ºéĢł çļĦ
ä»ĵ åºĵ
åį¢çĵ¦ å°Ķ
æĺ¯ä¸Ģé¢Ĺ åĽ´ç»ķ
à ¤
Ġ ä¸ĢäºĽ
ä¸º 4
ä¸º ä½ķ
ä¸Ĭ åįĬ
æĬ ¬
æĽ Ŀ
çŃ Ľ
å°Ĩ äºİ
10 4
åĢ ª
æĺŁ éĻħ
åĽ¾ çīĩ
ä»¥åıĬ åľ¨
çľĭ èµ·æĿ¥
å®Ī å¤ĩ
Ġè¿Ļ é¢Ĺå°ıè¡ĮæĺŁ
åĪ¶çīĩ äºº
ä¹Ĵ ä¹ĵ
7 ç±³
çļĦ ä¿¡
ä¸Ģ å¼ł
ä¸Ń æ¯Ĵ
ä¸İ ä¹ĭ
åıĬ æĹ¶
çľģ ä¼ļ
éĢļ æĬ¥
æł¼ èİ±
å±ŀ æĢ§
on s
è§Ĵ éĢĲ
çº¢ åįģåŃĹ
è¡Ĺ åĮº
æĻĭ åįĩä¸º
5 è°ĥå¿«ä¸Ģå°ıæĹ¶
ä¸Ń èİ·å¾Ĺ
äºº äºĭ
ç¬¬ 12
æķ° å¹´
æķ° çłģ
ç§ĳ ç½Ĺ
ç«Ļ åľ¨
åħĥ æľĹ
æĻ® éĩĮ
éª Ĥ
æļ ĳ
åį« åĨķ
çĻ» å½ķ
é©» å®Ī
Ġ199 7å¹´
æĹĭ å¾ĭ
äºİ18 5
è¡£ æľį
æĢ»çĿ£ åºľ
åį³åĮĹç¾İ ä¸ľéĥ¨æĹ¶åĮº
å¤ªéĺ³åħ¬ è½¬çļĦå°ıè¡ĮæĺŁ
æĺ¯ä¸Ģé¢ĹåĽ´ç»ķ å¤ªéĺ³åħ¬è½¬çļĦå°ıè¡ĮæĺŁ
Ġ åĽłä¸º
çļĦ å®¶
çļĦ ç¾İ
ä¸Ń éĺŁ
åĴĮ éĺ¿
è° ı
é©¬ åĪ©
åįļ è§Ī
æīĺ å°Ķ
å·® åĪ«
æ¯ĶåĪ© çīĽæĸ¯
éĹ½ åįĹ
æĿ ı
æķ ·
ä¸į ä¸Ģ
çĶŁ æĹ¥
åıĬ åĪ©äºļ
è¦ģ å¡ŀ
èº« é«ĺ
ä¸»è¦ģ çĶ±
èŃ¦ åĬ¡
èĢģ æĮĿ
åģļ äºĨ
æ°¸ åº·
çŁŃ æľŁ
æ¯ģ çģŃ
Ġ å¦Ĥæŀľ
ä¸º ä¸Ńå¿ĥ
å®ŀ ä¸ļ
æ¶Ī èĢĹ
éĵģè·¯ å±Ģ
Ġè¿Ļé¢Ĺå°ıè¡ĮæĺŁ çļĦç»Ŀå¯¹
i el
æĻ ¤
éĥ½ èĥ½
åĲī äºļ
13 8
é¡¶ çĤ¹
eĠ of
æ¸Ķ ä¸ļ
æĸ¯å¤§ æŀĹ
E d
Ġ Ð
åĽ½ ä¸Ń
ä¹ĭ åĨħ
æĸĩ å¸Ŀ
æµ· æ¹¾
åĪ« å¢ħ
æ¸ħ æĻ°
çľŁ çĽ¸
æ³¨ å°Ħ
ac ebook
æ¶² ä½ĵ
çĥ§ æ¯ģ
éĽķ åĪ»
è´µå·ŀ çľģ
çļĦ åħī
å¤§ éĹ¨
äºļ ç§į
æŃ¤ å¤©ä½ĵ
ä¸ŃåĽ½ ç§ĳåŃ¦éĻ¢
å·´ çī¹
çĥ ¹
åıĺ å½¢
èĪ° åıª
13 9
é³ ĥ
å¥ī åĳ½
eg in
E E
çļĦ ä¸Ńå¿ĥ
çļĦ ä¸įåĲĮ
ç» İ
æĺ¯ è¯¥
ä»¥ æĿ¥çļĦ
äºĨ ä¸¤
åĬ¨ æľº
èĪ ħ
æİ¥ ä¸ĭæĿ¥çļĦ
å¤« åĭĴ
åıį å¤į
å¯Ĩ çłģ
åĵĪ èĲ¨åħĭ
äº¦ åľ¨
æĬ¤ åį«
ç¢ ĺ
åĲ« ä¹ī
ç¿» æĸ°
åľ¨ éĺ¿
æľī åĬ©äºİ
åĴĮ çļĦ
ä¸į åĪĹé¢ł
ä¸ľ æ±ī
å¸ĥ ç½Ĺ
è¿Ĳ è½½
çİĭ çļĦ
éĺ¿ å¯Ĩ
æľª è¢«
åķĨ æłĩ
ç½ĳ é¡µ
å¤± ä¸ļ
ä¸įåĲĮ äºİ
å»¶ è¿Ł
æĵ Ĵ
éĺ¶ å±Ĥ
å£ģ çĶ»
ä¸°å¯Į çļĦ
A d
a yĠ
l and
çļĦ æķ°éĩı
ä¸º ä¸Ń
ä¸Ģ è¾¹
ä¸Ģ èīĺ
è¡Į çľģ
åĪ© çī¹
ä¸ī å±Ĥ
åįİ ä¾¨
åıĤ æĶ¿
å¸¸ è¢«
æ® ī
è¾ĥ å¤ļ
éĺ³ åħī
ç§» äº¤
è®°èĢħ ä¼ļ
e ch
Ġ åĽł
çļĦ åŁºæľ¬
åĽ½ åħ¬
ä¸ĭ æ°´
çĽ¸ æľº
èģĮ èĥ½
æĶ¾ æĺł
å© ī
ä¸§ çĶŁ
æ¹¿ åľ°
å¸Ĩ èĪ¹
D P
Ġ çİ°
åĨ ¶
æĮ «
ä¸ī éĥ¨
è¿ĩ ä¸ĸ
åħ¥ çĭ±
10 6
ä¸ĩ å¹³æĸ¹ç±³
æŃ£å¼ı æĪĲç«ĭ
åĲĮå¹´ 12æľĪ
ç¼º éĻ·
è®¾ç«ĭ äºĨ
å¢ĵ èĳ¬
å¤ĸäº¤ å®ĺ
åĪļ æŀľ
æĤ£ æľī
è¿Ŀ æ³ķ
å·© åĽº
Ľ èµ·
åĮ £
æĹ¶ è¡¨ç¤º
æ°ĳ åħµ
æīĢ éķ¿
ç¼ ª
åĢ Ń
12 9
åıĺ éĩı
çľŁ èıĮ
æī© æķ£
Ġ199 4å¹´
è¯ºæĽ¼ åºķ
çĽ¸è¾ĥ äºİ
æ¾İ æ¹ĸ
N G
çļĦ æĬĢæľ¯
è¡ ·
åĴĮ å°ı
åĲİ è£Ķ
åĵ ĩ
å£ ¶
æĭī çļĦ
å·ŀ äºº
åħļ åĨħ
åĪĽ ä¸ļ
æ¸ħ å»·
èµ° å»Ĭ
åĲĮå¹´ 10æľĪ
æľ« ç«¯
è¯¸ èĳĽ
eĠ M
äºİ199 7å¹´
åĴ¸ ä¸°
Ġ æŀĹ
çļĦ å¤´
åĩº å±Ģ
è¿Ļ æĿ¡
åĮĹ æ´ĭ
æĸĩ ä¸Ń
æ°´ åĩĨ
åĪĻ ä¼ļ
éĩĩ çº³
æģ¶ åĬ£
æĹħå®¢ éĵģéģĵ
2 åı·çº¿
T O
è ł
Ġ å½±åĵį
ä¸Ģ çŃī
è¡Į ä½¿
è¿Ļ ä½¿å¾Ĺ
åīį èº«ä¸º
è¯¥ èĪ°
è·¯ ç«Ļ
åŁº å°Ķ
çİĭ åĲİ
00 å¹³æĸ¹åįĥç±³
æĽ´ å¤§
éĺ³ æĢ§
çĹħ äºº
çĻ» è¿Ľå£«
å°Ķæĸ¯ åħĭ
èŀį åħ¥
èĢĥèĻĳ åĪ°
ä¸ĵæ³¨ äºİ
3 æľĪ1æĹ¥
Ġ è®¾è®¡
åħ ĳ
ä¸Ģ åįĥ
åĲİ ä¸ĸ
ç½ ¹
ä»£ åı·
æŃ¤ ä¸Ģ
åĵĪ ä½Ľ
è¿ľ ç¦»
ç¥ĸ ç±į
ä¸¹ å°¼
èĤ¯ å¡ĶåŁº
èĤī é£ŁæĢ§
æ±¤ å§Ĩ
éĥĬ åĮº
9 æĹ¶
ç« Ń
å¾· åĭĴ
å¥³ äºº
å®ŀ ä¹ł
er Ġ
èĭı åĨĽ
çĶ· æ¼Ķåĳĺ
å¥½ èİ±åĿŀ
éĤ£ å·ŀ
æ·± åıĹ
çŃ¾ ä¸ĭ
çĥŃå¸¦ ä½İæ°Ķåİĭ
191 6å¹´
ä¿®æŃ£ æ¡Ī
éĺ¿åŁº åĿ¦
a e
çļ ĸ
çļĦ éĢŁåº¦
åĮº è®®åĳĺ
åĨĽ éķ¿
ä¹Ł ç§°ä¸º
å¸ĥ ç½®
é¦ĸ å±Ĭ
12 6
è¾ĥ é«ĺçļĦ
çļĩ å®¤
è®¡åĪĴ çļĦ
åľ¨æŃ¤ æľŁéĹ´
é£İæł¼ çļĦ
å²Ń åįĹ
éĤĵ å°ıå¹³
åºķå±Ĥ æ°´åŁŁ
ä¸Ń ç«ĭ
é« ĵ
çī© ä¸ļ
è½¦ ä½ĵ
æµģ æĶ¾
èµĦ æ·±
å±ħ äºİ
ç¢ Ĺ
ä»į æĺ¯
æĿĢ æīĭ
åģ¶ å°Ķ
å¡Ķå°¼ å¤§åĮº
å¸ĥæĶ¿ ä½¿
8 æĹ¶
C ST
éķ °
æĸ° æĿĳ
åĨħ æĸ¯
èĢħ åĴĮ
çł Į
å°¼ åŁº
éĩĳ é¢Ŀ
ä¼Ĭ ä¸½
ä¹Į å°Ķ
ä¸Ńå¤® å§Ķåĳĺä¼ļ
æľįåĬ¡ çļĦ
ä¿ĿæĬ¤ åĮº
åĩºçīĪ äºĨ
å·¨ äºº
å¼ķåıĳ äºĨ
Ġ æĪĺåĲİ
çļĦ æ³ķå¾ĭ
åľ¨ æł¡
åīį å¤ķ
è¿Ľ é©»
æĪĺ åĮº
çĽ¸ è¿ĳ
èĭ± å±ŀ
å·² æĪĲä¸º
åºĶ çĶ¨äºİ
ä¼ł æī¿
æĶ¯ éĥ¨
ç¥ŀ åºĻ
æ¦ Ĩ
ç§» éĻ¤
åį°åº¦ æ´ĭ
ç¤¼ æĭľ
èĶ ĵ
åħĦ éķ¿
èħ¹ éĥ¨
åīĬ å¼±
æĭ¨ æ¬¾
æł¸éħ¸ æ£Ģæµĭ
B 48
ç¬¬ 13
æľĢ åħ·
çĦ ķ
è¯Ń æ³ķ
å¤Ħ ç½ļ
éģĩ éļ¾
æįŁ åĿı
Ġ199 1å¹´
æ²¼ æ³½
i dĠ
p s
r ist
çļĦ æ¯įäº²
åľ¨ 2008å¹´
å· ¾
20 20
å¯ Ĥ
è¥¿ æĹ¥æľ¬
æĸ° åįİ
èĩ³ 1
ç¥ ĩ
å¥³ æŃĮæīĭ
éĽĨåĽ¢ æľīéĻĲåħ¬åı¸
çŁ¿ çī©
æĲ¬ åĪ°
çļĦ æł¸å¿ĥ
åħ¶ é¡¿
è¥¿ åĮº
æĭī å°Ķ
éĤ ¢
å·´ å¡ŀ
å¸¸ çĶ¨
è£ ¤
åŃĹ ç¬¦
èĪª æµ·
å¹ķ åĲİ
ç¡¬ æ£ĺ
è¿Ī éĺ¿å¯Ĩ
å·¡åĽŀ æ¼ĶåĶ±ä¼ļ
è´© åįĸ
å¼Ģ åĪĽ
è¿Ľ åĮĸ
æľŁ å¾ĴåĪĳ
æĦ ļ
æ¢ ĵ
åĩ» æ²ī
ä¼Ĺ è®®åĳĺ
åŁĥ å¡ŀ
æ¥¼ æ¢¯
æī§ æķĻ
å»¶ å®ī
çº½ è¥¿åħ°
æĿ¿ åĿĹ
çĤ® åħµ
ä¸īåįģ å¹´
ä¸Ńéĥ¨ æĹ¶åĮº
E M
äº ı
æİ¥ åĬĽ
åĲĦ çķĮ
å¸ķ æĭī
æłĳ æŀĹ
èµĦæł¼ èµĽ
æ¸¸åĩ» éĺŁ
6 è°ĥå¿«ä¸Ģå°ıæĹ¶
çļĦ è§ĤçĤ¹
åĮ ¾
éĩĮ å¥ĩ
æľĢ æĸ°
åĲĪ èĤ¥
ä¸ĩ å¼ł
ç¡ Ĵ
æĬ¤ å£«
è¯Ńè¨Ģ çļĦ
åıįå¯¹ æ´¾
çļĩå®¶ æµ·åĨĽ
ä¾¦ æİ¢
CD T
æ²¿æµ· çľģä»½
åį³åĮĹç¾İ ä¸Ńéĥ¨æĹ¶åĮº
A A
e at
Ġ åħ¶åĲİ
è¿ Ń
ä¸Ģ è¯´
å¯¹ è¯¥
è¿Ļ ä¹Ł
å°Ĩ è¯¥
ä½ĵ åĨħ
éŁ ¶
æİ¥ å¾ħ
åı¸ éķ¿
çĽ´ éĢļ
çĥ ¤
åĲĦ çľģ
å¸¦ åĪ°
é¦Ļæ¸¯ çĶµå½±
çłĶç©¶ äººåĳĺ
en g
æ³° å°Ķ
å´ Ľèµ·
ç¤¼ éĥ¨
èī¾ å°Ķ
ç³»åĪĹ èµĽ
å« Ķ
åľ¨ 2010å¹´
å¤ļ ä½į
æľĢ èĳĹåĲįçļĦ
æĿ¡ çº¹
å¿« ä¹Ĳ
æ¯ķä¸ļ çĶŁ
ä¿Ŀå®Ī åħļ
ä¼ĬåĪ©è¯ºä¼Ĭ å·ŀ
åĴĮ è§£
åĮĹ åį¡ç½Ĺ
è¿ĩ å¾Ģ
ä¼ł è®°
èĮ ¹
ä»ĸçļĦ çĪ¶äº²
èįī åľ°
åŃĻ åŃĲ
èĸ ¯
ri g
å¯Ħ çĶŁ
S P
åı ¹
ä¸º åĲį
å» ĵ
å¤ļ å®¶
åĮĹ ä¼Ĳ
æķĻ å¯¼
å¤ĸ ç±į
å°ı éķĩ
å·´ æĭ¿
ç¬¬ä¸Ģ è½®
æľį é¥°
ç»Ļ äºĭä¸Ń
æī¹ å¤į
æ»¡ æĦı
è¿ģ åħ¥
éĢłæĪĲ äºĨ
åĪĬ çī©
ä¸Ńåįİæ°ĳåĽ½ æĶ¿åºľ
Ġthe Ġ
èĳ¡èĲĦçīĻ è¯Ń
çĸ¯ çĭĤ
éĺ¿å°Ķå·´ å°¼äºļ
G e
Ġ çī¹å¾ģ
ä¸º ä¸Ģä¸ª
å½ Ŀ
ä½į å±ħ
æĸ° åĮº
ç¼ ī
ç®¡ éģĵ
æĽ´ æľī
å¤« çī¹
æ¨¡ ç³Ĭ
åĨĻ æĪĲ
le y
M et
æĸ¯ å¨ģ
åīį ä»»
åı° çļĦ
è¾¾ åĪ°äºĨ
æŃ£ å¾·
åħļ æ´¾
11 5
è§ģ éĿ¢
åįĩ éĻį
ç¤¾ä¼ļ çļĦ
å®ģ åİ¿
çļ® å°Ķ
éĨ Ľ
åī© ä¸ĭ
æĭ³ åĩ»
ç½¢ åħį
3 50
ä¸Ģ çĤ¹
å¼ ¼
æĹ¥ èĢ³æĽ¼
å¼Ģ éĻ¤
åĲĪ éĢĤ
æĹł æķĪ
11 7
é£İ éĢŁ
åįł æ¯Ķ
ä¹ĭä¸Ģ çļĦ
åħ³ç³» çļĦ
çıł æµ·
å¢ĥå¤ĸ è¾ĵåħ¥
çŀĦ åĩĨ
t o
åĨ ¥
åĴĮ ä¸ŃåĽ½
ç«Ļ åĨħ
å°¼ çļĦ
åįİ çº³
ä½ľåĵģ ä¸Ń
å®ģ å¤ı
å·¡ èĪª
åģĩ æĹ¥
åĮºçļĦ è´Łè´£ç®¡è¾ĸ
è¿« å®³
åıĤèµĽ èĢħ
çĲ³ å¨ľ
æĸĳ çĤ¹
æŁ´æ²¹ æľºè½¦
çĶµæ°Ķ åĮĸ
ç»ĳ æŀ¶
! âĢĿ
ä¸Ģ å¤Ħ
åĴĮ é«ĺ
éĽ ģ
äºĮ çĻ¾
çĽ¸ ä¼ł
ç»Ħ çļĦ
æ£ ł
å¹¿ å²Ľ
åĨ³ å¿ĥ
æīĵ åħ¥
åĲī æĸ¯
å¼Ĺ åĲī
åĩı è½»
æĪĺæĸĹ ä¸Ń
çĲĨå·¥ å¤§åŃ¦
: ãĢĬ
M L
Ġ é¥°
æĹ¶ éĢŁ
äºĨ åħ¶
åı¯ å®¹çº³
è¡¨ å½°
ä¸Ģä¸ª äºº
æİ¥ é©³
æ¸¯ åĮº
å®ŀ è´¨
ä¿Ŀ åģ¥
èĬĤ æĹ¥
åħī æĺİ
è¾ĥ å°ıçļĦ
åıĮ åĲĳ
13 7
æ³° åĽł
100 ç±³
ä¾µ èļĢ
ĠE n
éī´ äºİ
Ġ ä¸Ĭ
Ġ åİŁ
Ġ åıĳå±ķ
åľ¨ ä»Ĭ
åĩº èµĦ
åħ¬ æŃ£
æ¸ ´
æ¬¡ çļĦ
10 1
æĻ® æ£®
è§£ ä½ĵ
ä¾ĭ å¤ĸ
è± ļ
çĽŁ åıĭ
ä¸ĥ ä¸ª
å¹² äºĭ
2010å¹´ ç¾İåĽ½äººåı£æĻ®æŁ¥
æ®¿ è¯ķ
åĽ½ç«ĭ åı°æ¹¾
çľģéģĵ åı°
å¯ĨèĭıéĩĮ å·ŀ
åľ¨ ä¼¦æķ¦
æĺ¯ å°Ĩ
æĺ¯ éŁ©åĽ½
æľĪ åĪĬ
ä¹ĭ åĪĿ
åħĭ ä¼¦
éĩĳ æĸ¯
éĶ £
æ²³ åĨħ
æĺŁ äºĳ
ä¸ĩ åĲ¨
æ» ĩ
éĺ² æĬ¤
Ġ199 5å¹´
æĥ© ç½ļ
å½Ĺ æĺŁ
åį¡æĸ¯èĴĤ åĪ©äºļ
Ġè¿Ļé¢Ĺå°ıè¡ĮæĺŁçļĦç»Ŀå¯¹ æĺŁçŃīä¸º
5 æľĪ1æĹ¥
y l
çļĦ å¿ĥ
æĺ¯ ä»ĸ
éķ¿ èĢģ
åħ¥ åŃ¦
å¥¥ æīĺ
è¿ĺ åı¯ä»¥
åĽ½å®¶ åĴĮ
è®º è¿°
æ´¾ ç³»
ç»Ļ åĩº
éĿĴ éĵľ
è®² è¯Ŀ
çºªå¿µ é¦Ĩ
iv ers
åĲĽå£«åĿ¦ ä¸ģåł¡
c c
åĽ½ å°ı
åĴĮ è¥¿
æķ ķ
ä¼ļ è®¡
è¡Į ç¨ĭ
åĩº åħµ
èĥ ļ
äºļ çĥŃå¸¦
èĪ ¶
åľº ä¸Ĭ
å°ı é¡¹
åħ° å¾·
çİĭ å®ī
å±Ģ éĿ¢
ç¥ŀ åŃ¦
å¼ķ åĬĽ
æĬķ å½±
èĢģ æĿ¿
åºĦ åĽŃ
ä¼ĳ éĹ²
å¾·éĩĮ å¸Į
M C
e an
åľ¨ ä¸ľ
19 10å¹´
æİ¥ ä¸ĭæĿ¥
çĬ ģ
æ¸ħ çĲĨ
é¥ ¿
éĢĤ çĶ¨
æĶ¹ç¼ĸ ä¸º
å¤§ ä¸ľéĥ¨
æľī å¾Īå¤ļ
èµ İ
åıĳ éĢģ
è·¯ ä¸Ĭ
å½¢ åĬ¿
åĪ« åĲį
åİĨåı² å»ºçŃĳ
çİ¯ èĬĤ
åı³ ä¾§
ç»Ŀ å¤§å¤ļæķ°
èľ ¡
æįŁ ä¼¤
æĻ®ç½Ĺ æĹº
çļĦ ä¸ĭ
ä¸į è®º
ä¸į æĦ¿
è¢« è¯Ħä¸º
åĲĮ äºĭ
æīĢ çŁ¥
åı£ å²¸
æĢ» ç®¡
æµģ ç¨ĭ
åī§ åĽ¢
æķħ æŃ¤
æĺ¾ å¾Ĺ
èĥĮ éĿ¢
è¿½ éļı
çİ© æ³ķ
æĤ¬ æĮĤ
åĸĩ åĺĽ
çİ« çĳ°
O V
T S
èµ ļ
éĥ¨ ä½į
éĥ¨ åī¯éĥ¨éķ¿
ãĢĬ ãĢĭ.
åı¯ ä¾Ľ
æĢ» æķĻåĮº
ç¥ŀ çļĦ
çļĦä¸Ģ åĲį
åĪĿ å§ĭ
ar i
æĢĿ èĢĥ
åºŁ æŃ¢
åĮĹèµ· é¡ºæĹ¶éĴĪä¸İ
) ãĢį
Ġ è¯¥åľ°
è¿Ľ ä¿®
éģĵ æķĻ
11 3
å®ĺ åħµ
é¾Ļ ç±»
é¦Ļæ¸¯ æĶ¿åºľ
å®£ èªĵ
é¡¶ éĥ¨
è½¨ çĶµè½¦
æİ§åĪ¶ çļĦ
ä¹Ķæ²» äºļ
çĻĮ çĹĩ
çļĦ åĪ¶ä½ľ
äºİ ç¾İåĽ½
åĲİ åĭ¤
ä¹ĭ ç§°
è¥¿ åħĥ
åĲĮ çŁ¥
200 ç±³
ä½Ĩ è¢«
åĽŀ æĶ¶
å¸¦ çĿĢ
ar y
å·¦ ä¾§
è¿Ľåħ¥ äºĨ
å®ª åħµ
eĠ B
Ġ199 6å¹´
æĢĢ åŃķ
åı¦ä¸Ģ ä½į
çģĮ æľ¨
æ±ŁæĪ· æĹ¶ä»£
Ä ģ
åĮ Ģ
ç«Ļ ä½įäºİ
ç¨ ½
æĶ¿åºľ åĨĽ
éĥ¨åĪĨ çļĦ
åĨį åĬłä¸Ĭ
è¶³ æĢ»
æİĴ åºı
ç´¢ å§Ĩ
åıĤä¸İ èĢħ
æ³½ è¿ŀ
äº« åıĹ
åĢ¾ æĸľ
ç¢İ çīĩ
èĤĸ åĥı
åºĩ æĬ¤
åĳĬç¤º çīĮ
e k
çĶ¨ äºĨ
æ°ĳ èĪª
éĵ Ģ
æĢ» éķ¿
éĩĳ åĥı
æ· ĭ
å½ĵåľ° å±ħæ°ĳ
è¿½ è¸ª
3æľĪ 31æĹ¥
ç½Ĺé©¬ å¤©ä¸»æķĻ
191 5å¹´
åŀĴ æīĵ
Ġ åĪ°
ä» Ĺ
åĪĨ åī²
ä¹ĭ çĪ¶
çĶµ æľº
é©¬ åĮ¹
é©¬ åħ¶é¡¿
è£ Ļ
ä¼ł åħ¥
11 4
èĬĤ çĤ¹
åŃ£ åĨĽ
è§Ĥ æĶ¿
çĻ¾ è´§
éĢļå¸¸ ä¼ļ
æ¿Ģ ç´ł
åŁºç¡Ģ è®¾æĸ½
æııè¿° äºĨ
æ¨¡å¼ı äº§åľ°
çŀ ¬
éĻ¨ åĿĳ
çļĦäºĭ æĥħ
åī¥ å¤º
çļĦ åĬŁèĥ½
è¯ ł
ä»ĸ äºİ
ä»ĸ åıĪ
ç¾ Ł
åįĹ è·¯
äºĮ çŃī
ç«Ļ æĺ¯
åı· åĴĮ
åĮħ è£ħ
èİ· é¢ģ
æ¬§ éĺ³
ç¥¨ ä»·
è®¡åĪĴ åľ¨
åĲ« éĩı
çĶŁæ´» çļĦ
24 0
Ġæľ¬ å±ŀ
F or
a ur
Ġ åıĳè¡Į
Ġ åħīç»ª
åĲ ¡
åľ¨ é«ĺ
éĥ¨ ä»¶
éķ¿ å¾ģ
æı ½
åĪ¶ æľį
åħļ éĥ¨
ç¦» å¿ĥ
åħĪ éĶĭ
è¾¹ çĸĨ
åįĬ çĲĥ
è§Ĵèī² çļĦ
çº¦ç¿° éĢĬ
æ³ķåħ°è¥¿ å¤§åĮº
å´© æºĥ
âĶĢ âĶĢ
Ġ ä½įäºİ
ä¸Ģ ä¹¦
ä¸Ń æĹ¥
äºº éĥ½
ä¸Ĭ æ³ķåħ°è¥¿å¤§åĮº
è¥¿ å°Ķ
å¼Ģ å°ģ
çĶµ ç£ģ
åİ¿ éģĵ
åİŁ æĸĻ
å¤ª ç¥ĸ
æĹ¥æľ¬ æĶ¿åºľ
æł· çļĦ
Ġt o
æĢĢ çī¹
é¢Ĺ ç²Ĵ
æ³ķåħ°åħĭ ç¦ı
çĭ© çĮİ
A m
ç¬ Ľ
åı¯ æ±Ĺ
èĢħ ä¸º
è£ ¹
ç¿ ¡
æĭħ å¿§
å¸Į çī¹åĭĴ
et t
190 5å¹´
é«ĺçŃī åŃ¦æł¡
çļĦ ä¸ľ
çļĦ èĭ±åĽ½
åĴ Ģ
ä¸ª æĢ§
åħ¬ æ¼Ķ
åĲĮ æľĪ
åı¯ çĶ¨äºİ
å½ĵ åĪĿ
æĪĺ æŃ»
å·¥ èµĦ
å°ı äºİ
æķ° åŃ¦å®¶
çİĭ åĽ½çļĦ
åĵĪ çī¹
æŁĵ èī²
è¶³å¤Ł çļĦ
ros of
ä¼Ĭä¸½ èİİçĻ½
T T
èĩ Ń
19 00å¹´
è¥¿ éĹ¨
æķĻ ä¹ī
çĤ¹ æĺ¯
æķ´ æķ°
13 5
æīį ä¼ļ
æĪĲåĳĺ åĽ½
å®¾ å¤ķ
æīĵåĩ» çİĩ
l in
Ġ äºĮ
çļĦ åĨ³å®ļ
åľ¨ çº¿
ä¸º é¦Ļæ¸¯
åĳ ¢
ä¸į çŃī
å½ĵ çĦ¶
å±± è°·
è¿Ĳ ä¼ļ
ä¼ł ä½ĽæķĻ
åĲĦ æľī
æĶ¶ èİ·
çĻ½ éĵ¶
ä¸½ ä¸Ŀ
é»İ æĺİ
å³¡ è°·
æĴĴ åĨ·
åıĳçİ°äºĨ æŃ¤å¤©ä½ĵ
æĮĸ æİĺ
çĢ ĳ
åĵĪèĲ¨ åħĭæĸ¯åĿ¦
L E
Ġ end
ä¸Ń ä¹Ł
äºİ æĹ¥æľ¬
åħ¬ è½¦
åı· åľ¨
ç¬¬äºĮ å¤©
èĩ´ åĳ½
èĢ¶ è·¯
ä¸ºä¸» çļĦ
æµģè¡Į éŁ³ä¹Ĳ
æŃ¦è£ħ éĥ¨éĺŁ
æ¡Ĥ æŀĹ
éĺ¿å§Ĩ æĸ¯çī¹
èĨ¨ èĥĢ
Ġ æĺİ
Ġ ä¼Ĭ
ä¸į å¹¸
çĶŁ æĦı
10 7
å¤´ çļĦ
æĦŁ è°¢
èģĶèµĽ åĨłåĨĽ
ç§ĳæĬĢ å¤§åŃ¦
c o
å¤§ åĬĽ
âĢ ĭ
æ² Ľ
è¯¥ çī©ç§įçļĦ
èĲ Į
åı² ç§°
12 æľĪ1æĹ¥
æĻ® éĽ·
éħį å¥Ĺ
çĶ² ç»Ħ
è´Ŀ æĭī
çł´ äº§
éħĴ åĲ§
æĴ¤ åĽŀ
ä¸ĢçĽ´ åľ¨
äºİ199 5å¹´
æĻ®ç½ĹæĹº æĸ¯
æ³½è¿ŀ æĸ¯åŁº
H E
i en
Ġ æ¸ħ
Ġ ä¸ĢèĪ¬
çļĦ äº²
ä¼ļ è§ģ
ä»ĸ æĭħä»»
èĪ ·
å½ĵ å¹´çļĦ
ä½Ĩ åĽłä¸º
åħ³ æĬ¼
å¸Ī åĽ¢
èĹ ī
åı¯èĥ½ çļĦ
å®¡ çĲĨ
åĬ¨çī© çļĦ
èģĶéĤ¦ æĶ¿åºľ
çĪµ ä½į
è£ģ åĨ³
Ġ199 3å¹´
orl d
O n
åľ¨ 2013å¹´
è¿Ļ éĥ¨çĶµå½±
åįĹ åĮº
å¢ Ł
ç»ĵ è¯Ĩ
çĻ½ å®«
14 4
ç®Ģ æĺĵ
èµŀ æī¬
ä¼ģä¸ļ å®¶
æıŃ éľ²
è¿·ä½ł ä¸ĵè¾ĳ
Ġ æµ·
çļĦ éľĢæ±Ĥ
å¤§ çģ«
ä¸į å¤ª
åĪĨ æķ°
æ³ķ å¸Ī
èµĽ é©¹
åħļ å§Ķ
äºĶ çĻ¾
è½¬ åħ¥
æ®µ çļĦ
ä¸Ńå¤® åĨĽå§Ķ
çªģ è¢Ń
åıĸä»£ äºĨ
æ³¨æĦı åĪ°
Ġ and
åľ¨ ä¸Ĭ
åľ¨ ç¬¬
å½ ª
éĥ¨ ä½ľåĵģ
å·ŀ åĴĮ
çĤ Ĵ
éĺ¿ å¡ŀæĭľçĸĨ
ä¸ĵ æłı
å¥ĸ çļĦ
å¹² æ¶ī
å®ĭ æľĿ
éĺ¿æĭī æĸ¯
äº¤æµģ éģĵ
æ°Ķè±¡ å±Ģ
åķ¤ éħĴ
çļĦ èĩª
åĲ ĭ
ä¸º ä¸»è¦ģ
æĹ¥ æĸĩ
æ¯ Ļ
æĪĺ äºĭ
ä½¿ ä»ĸ
éŁ §
æ°´ ä¸Ń
ä»İ å°ı
an k
çĸ ²
äº¬ å¸Ī
è¯º åħĭ
åĲī ç¥¥
ä¸Ńå¤® çĶµè§Ĩåı°
åľ°æĸ¹ æĶ¿åºľ
as h
190 4å¹´
èĢ¶è·¯ æĴĴåĨ·
è¿Ļ ä¹Ī
æľĢ å°ĳ
åı° å¤§
æ¯Ķ 0
çĶ· äºº
ä»¥åıĬ åħ¶ä»ĸ
è°ĥæŁ¥ å±Ģ
èĶ ¬
ç§Ł åĢŁ
æĬķåħ¥ ä½¿çĶ¨
æĦıåĳ³ èĳĹ
æµı è§Ī
çļĦ å®¶åºŃ
çļĦ å¦»åŃĲ
åľ¨ åĽ½éĻħ
æ°ĳ ç±į
åĮĹ éĿ¢
ä¹Ł å¼Ģå§ĭ
é©¬ å°¼
æĢ» åĢ¼
çĽ® çļĦåľ°
æ¼Ķ è¯´
æĹ¥æľ¬ äºº
æ´¾ äºº
èĢģ èĻİ
8æľĪ 31æĹ¥
ä¸ĢçĽ´ æĺ¯
ç¬¬åįģ åĽĽ
æ¼«çĶ» å®¶
Ġb egin
åĢ¡ è®®
! ãĢį
åħ¨ å¸Ĥ
æ¹¾ ä»Ķ
æĳ Ĭ
çłĶç©¶ çļĦ
éĩĩ è´Ń
æ³° ç±³å°Ķ
å¯Į æľī
åĤ ²
åĲĪä½ľ çļĦ
ow er
è¯¯ å·®
è¾ħ éŁ³
ĠI I
æĶ¶å½ķ äºĨ
. ,
Ġ äºİ
ä¸Ģ æĸ¹éĿ¢
å¹¶ æĭħä»»
æ³ķ äºº
èģ Ĭ
ä¹Ł è¢«ç§°ä¸º
æķ° æ¬¡
ç»ĵ çĽŁ
åħļ å§Ķä¹¦è®°
çºª å¾ĭ
é¾ ļ
æĶ¯ åĩº
æĽ² çº¿
çļĦä¸Ģ æīĢ
èīº åĲį
ä¾¿ åĪ©
ç®¡çĲĨ çļĦ
ä¿ĿçķĻ äºĨ
s c
æĸ ¼
æĺ¯ åħ¶
åħ¬ çĽĬ
èĢĮ æŃ»
è¢« æİĪäºĪ
æĸĩ ä¹¦
åĽł çĹħ
æĪĺ ä¿ĺ
10 3
æ¼Ķ åıĺ
ä¹Ĳ åĿĽ
éĴ ¾
éĿ¢ç§¯ 2
å®¶æĹı çļĦ
å®ĺæĸ¹ ç½ĳç«Ļ
è¿İ æİ¥
å®īä¸ľ å°¼
æ¦´ å¼¹
e f
Ġ å¥¥
éĩ ľ
åĴĮ æ°´
åĩº ç§Ł
çī¹ ç§į
åĮĹ è·¯
æĻ ĸ
çķ ¿
åı· çłģ
å½±åĵį çļĦ
äºĳ æŀĹ
èı² å°Ķ
äºĨä¸Ģ åľº
è¯¸ ä¾¯
çļĦåľ° éĵģ
oc i
çĲĨæŁ¥ å¾·
oun t
ç¿¡ ç¿ł
D av
Ġ åĲİæĿ¥
æľī 1
ä¸ĭ åİ»
æĸ° åħ´
èĪ ĸ
éĹ´ éļĶ
åĮĸ çī©
éĩĳ é©¬
çĭ ¸
èº« è¾¹
åľŁ èĳĹ
éĩĩ éĽĨ
re f
è®² å¸Ī
eĠ S
å¾ħ éģĩ
æµ·æĭĶé«ĺåº¦ 2
ä¼Ł å¤§çļĦ
o od
Ī å½¢çĽ®
åľ¨ åį°åº¦
äºº åĿĩ
åĴĮ æŃĮ
ä¼ļ è°Ī
å¤© çİĭ
ç½Ĺ æĿ°
åħ³ èĬĤ
å¥³ å£«
ä¼ł éĢģ
æ´¾ å¾Ģ
æĦŁ åıĹ
å¾ģ åı¬
å¸ķ åħĭ
æĵį çºµ
ag e
li x
çİĭæľĿ çļĦ
æĸ°çĸĨ ç»´åĲ¾å°Ķ
äº¤åıī åı£
å®¾å¤ķ æ³ķ
r en
u lt
åľ¨ åľ°
åľ¨ 2020å¹´
ä¸Ń ä»¥
éĻ ĩ
éķ¿ æĹ¶éĹ´
éĢļ åĭ¤
åħ¨ ä¹¦
åįİ è¯Ń
æĹł éľĢ
ç´¢ å°Ķ
ç¬¬äºĮæ¬¡ä¸ĸçķĮå¤§æĪĺ æľŁéĹ´
Ġ åĲİ
çļĦ èµĦæĸĻ
åľ¨ å¯¹
æ³ µ
ä¹ĭ çĶ¨
åĵ ¨
åĮĹ ä¸Ĭ
çĶ» ä½ľ
èİ± çī¹
ä»¥åıĬ ä¸ŃåĽ½å¤§éĻĨçļĦ
æľ¨ æĿĲ
çİĽ æł¼
äºĨä¸Ģ ç³»åĪĹ
ĠM us
éħĭ éķ¿
E X
Ġ èĳĹä½ľ
çļĦ åĲįä¹ī
ä¸Ģ æŀ¶
åŃ¦ æ´¾
ä¹ĭ äºĭ
åĲĮ æľŁ
ä¸¤ é¡¹
åı¤ åŁİ
åĪĿ ä¸Ń
å¡Ķ æĭī
äº¦ è¢«
å¤ĩ åıĹ
èĢĥ éĩı
çĶ² çº§èģĶèµĽ
æĸĻ çĲĨ
ç§ĳåŃ¦ æĬĢæľ¯
æĭľ ä»ģ
ä½© æĸ¯
æľĿé²ľ åįĬå²Ľ
å®īå¾· é²ģ
æķ² åĩº
åĨħæĶ¿ éĥ¨
æ¶¡ è½®
å¥¹æĽ¾ ä»£è¡¨
C E
T R
l ic
çļĦ å£°éŁ³
åľ¨ 2009å¹´
äºº æĺ¯
åħ¨ ç¨ĭ
äº¤ ä¼ļ
èĲ¥ éĢł
è´Ł æĭħ
åĺ İ
æĺ¾ çĦ¶
é¢Ħ èŃ¦
æ¸© åĵ¥
åĨ° å²Ľ
è¿Ļä¸Ģ çĤ¹
åĪ¶éĢł çļĦ
çŃĶ åºĶ
çĭŃ çªĦ
yst em
6 Ġ
Ġ å¤ļ
çļĦ åıĺåĮĸ
ä»¥ 0
æµ· æ»©
ä½Ĩ åĲİæĿ¥
å°± æŃ¤
or y
çĸ ¼
å¤ª æŀģ
ç¬¬ä¸Ģ åĲį
çĽĳ æµĭ
æĸ¯çī¹ æĭī
èµŀ æĪĲ
èĶ ļ
éĥĳ å·ŀ
ç½ĳçĲĥ åħ¬å¼ĢèµĽ
P P
çļĦ å»ºè®®
çļĦ æĿĥåĪ©
åħĭ æ´Ľ
âĢĿ ()
æĪĺ çļĦ
ç½Ĺ å®¾
18 ä¸ĸçºª
å°± èģĮ
è½¬ æĬķ
èĲ¥ åľ°
éĢŁ çİĩ
èĪª è¿Ĳ
éĤ£ æĹ¶
æ»¡ è´¯
Ġ199 2å¹´
åŁºç¡Ģ ä¸Ĭ
Ġ18 8
èĶ¡ èĭ±æĸĩ
å¼¯ æĽ²
ç»ıçºª åħ¬åı¸
æĭ¦ æĪª
æ¸©åĵ¥ åįİ
çļĦ æľº
åľ¨ 2012å¹´
æµ· å§Ĩ
å·´ å·´
å®ŀ çĶ¨
éĻ¤ éĿŀ
ä¾Ŀ æ³ķ
å®¡ è®®
äºİ199 6å¹´
æĲŃ ä¹ĺ
æĿĨ èıĮ
4 åı·
C ar
N ew
Ġ åĵĪ
çļĦ éĤ®æĶ¿ç¼ĸçłģä¸º
æķ ĸ
æ² ģ
çĶ± èĭ±åĽ½
çĽ® å½ķ
çİĭ æľ±
åħ¶ä»ĸ äºº
èŃ¦ åį«
çº¢ æĹĹ
å°Ħ çº¿
il d
ol og
è´¢ ç»ı
ç»ĵæĿŁ æĹ¶
æĭįæĳĦ çļĦ
ãĢī ,
å¥Ī å°Ķ
çħ¤ çŁ¿
çĽ¸äºĴ ä½ľçĶ¨
I U
çļĦ åı¯
ä¸į åĬ¨
åĬł åī§
ä¸ŃåĽ½ åĽ½å®¶
å¯Ĩ æŃĩ
æĬ¤ çĲĨ
åıĮ éĩį
åĨ³å®ļ å°Ĩ
æĳĦ æĶ¿
ç«¥ å¹´
sĠ of
190 6å¹´
ab le
çĶµåĬĽ æľºè½¦
è¿½æº¯ èĩ³
lu de
b ack
Ġ èĩ³
åıĳ æĶ¾
å¹³ åĿ¦
201 8
æĭī èĲ¨
éĩį åĬĽ
å®ī è¾¾
æ¯Ķ åĪĨ
æ°´ çļĦ
åį¡ æ´Ľæĸ¯
ç¦ı åħĭ
ur n
ä¸īä¸ª æľĪ
åİļ çļĦ
åµ ©
æĽĿ åħī
W h
Ġ 5æľĪ
çļĦ åįĹ
åľ¨ 2018å¹´
ä¸Ģ äºĭ
ä¸Ĭ æ¼Ķ
èĩª æĦ¿
çİ° éĩĳ
è¦ģ ç´ł
ç¼ ®
10 æľĪ25æĹ¥
å¤Ħ æŃ»
å²Ľ å¼ı
åķ ¦
åķ ¸
æŃ¦ åĬŁ
å¾Ī æľī
å¥ĩ å¹»
äºĨä¸Ģ ä»½
æİĴåĲį ç¬¬
é¤Ĳ é¥®
æĭīä¸ģ è¯Ń
Ġæ¦Ĥ è¿°
æ£ķ èī²
å¯ĨæŃĩ æł¹
C om
F acebook
P a
v e
çļĦ ç»ĵæŀĦ
çļĦ å®īåħ¨
åĴĮ é©¬
åŃ¦ åİĨ
ä¸į æķ¢
åĲĮ ä¸Ģä¸ª
çī¹ ç½Ĺ
åĨħ å¤ĸ
åįģ ä¹Ŀå¹´
æĢ» æķ°
å±ŀ çļĦä¸Ģç§į
å¥¥ åĪ©
åıį åĵį
çĬ Ģ
åģľ çģ«
éļ¾ åº¦
å·²ç»ı è¢«
ä¸¥ åİī
æ²ĥ å¤«
çº½çº¦ æĹ¶æĬ¥
æłĸæģ¯ æ·±åº¦
åıĺæĪĲ äºĨ
æĭĵ è·ĭ
ä¸ĩç¾İåħĥ çļĦ
éĵ¸ éĢł
çĽĳå¯Ł å¾¡åı²
æ°¨ éħ¸
ç£· éħ¸
b ox
åľ¨ 2014å¹´
è¡ Ļ
å¤§ æ³ķå®ĺ
åŃ¦ éĩĳ
åĪĨ çº§
æ±Ł å¸Ĥ
åĮ» èį¯
æ·± å¤ľ
åĩł ç§į
å¼¹ éģĵ
æľįåĬ¡ åĻ¨
äº¤æ±ĩ å¤Ħ
å¤§ä¸ľéĥ¨ å¤§åĮº
3 60
åľ¨ 2011å¹´
ä¸İ æĸ°
æ°ĳ æĦı
å¯¹ ç«ĭ
ä¸ī éĩį
âĢĿ âĢľ
èģĶ æĴŃ
åħ³ ç¨İ
é¦ĸ éĥ¨
æ· Ĩ
ç¼ĸ ç¨ĭ
æ¸ħ æĻ¨
æŀĦ å»º
ä»£è¡¨ ä½ľ
åıĳçĶŁ åĲİ
ç£ º
çĪ¶äº² çļĦ
é¥® æĸĻ
éħī ç§ĳ
N H
Ġ è®¸å¤ļ
çļĦ å¤©
åľ¨ 2015å¹´
ä¸º 5
ä½į åľ¨
åĬł éĩĮ
åĲĪ éĩĳ
èİ· åĩĨ
æĶ¶ åĽŀ
çŁ¥ åĲįçļĦ
ä»ħ åľ¨
å²ģ ä»¥ä¸ĭ
éĤ® ä»¶
é¢Ĺ æģĴæĺŁ
éĺ» ç¢į
èĪŀåı° åī§
ĠæĹ©å¹´ çĶŁæ´»
V i
d uc
Ġ ç±³
æĺ¯ è¢«
éķ¿ å´İ
æŃ¤ å¤Ħ
âĢĿ ),
ç«Ļ åĴĮ
åıĤ è®®
åĬŀ åŃ¦
æŃ¦ å£«
äº¦ ä¼ļ
æ³¨ éĩį
è¯Ŀ é¢ĺ
ä¼łç»Ł ä¸Ĭ
æĴ¤ åĩº
ĠM ar
åĨ· åį´
æĿ¡ä»¶ ä¸ĭ
æľīæķĪ çļĦ
æįĲ æ¬¾
ä»£çłģ ä¸º0
æ³¢ç½Ĺ çļĦæµ·
section Ġbegin
Ġ æ²Ļ
çļĦ åĨĽéĺŁ
çļĦ è¿ĩç¨ĭä¸Ń
ãĢĭ )
çľ ·
åĮĸ å·¥
ç»Ħ éķ¿
ç»´ æĸ°
è§Ĩ è§Ĵ
ç¬¬ä¸Ģ ä»»
å³ »
æį¢ åıĸ
é³ ļ
é¢Ŀ å¤ĸçļĦ
æ·· æ·Ĩ
ä¸Ģå¹´ åĲİ
åıĻ äºĭ
åİ¿çļĦ åŁİå¸Ĥ
éªļ æī°
ä¸Ģ æľŁ
å¼ Ĭ
è¥¿ å²¸
å¼Ģ éĩĩ
èİ ŀ
èµĽ åĲİ
ä¸ļ èĢħ
å°ı æĹ¶çļĦ
ç»Ħ ä»¶
åĽĽ åĲį
è¯´ è¯Ŀ
ä¼ł æŁĵ
11 6
å®Į ç»ĵ
å¢ŀ èĩ³
æĶ» åħĭ
éŁ³ä¹Ĳ å®¶
åİĭ åĪ¶
å¯Į åħ°
æĸŃ å±Ĥ
éĵ¾ æİ¥
åĨħèĴĻåı¤ èĩªæ²»åĮº
çļĦ ç»Ħç»ĩ
åŃ¦ çķĮ
201 6
è¶ ¾
éĩį æĴŃ
ä¼ł è¾¾
ä¿¡ éķ¿
æŀľ å®ŀ
ä»£è¡¨ éĺŁ
éĥ¡ çļĦ
äºĮåįģ ä¸ĸçºª
äºİ199 4å¹´
åįķæĽ² æ¦ľ
è§£åĨ³ æĸ¹æ¡Ī
1 çļĦ
çļĦ çĲĥåĳĺ
åĽ½ åŃĲ
çī¹ åĴĮ
è¯¥ å¸Ĥéķĩ
å¤© åĲ¯
æ® ´
12 æľĪ28æĹ¥
æ²³ ä¸ľ
å¨ģ æĸ¯
è¯Ħ åĪĨ
åĬ© æĶ»
é£ŀ èĪ¹
å®Ŀ çŁ³
il la
9æľĪ 30æĹ¥
åį± å®³
æĸ°å¢ŀ å¢ĥå¤ĸè¾ĵåħ¥
åĨ¬åŃ£ å¥¥æŀĹåĮ¹åħĭè¿ĲåĬ¨ä¼ļ
è´© åĶ®
ä¹Įé²ģ æľ¨
Ġ çĻ½
ä¸Ń çİ¯
æĹ¶ æľī
éĥ¨ ä¸ĭ
ä¸į åºĶ
åĪĨ å±Ģ
å®¶ åºĦ
åĬł æ²¹
æ¡ ¶
æµģ åħ¥
äºĶ äºº
in i
é£İ åĬĽ
æ³¢ åĪ©
14 3
å½±åĵį äºĨ
åģļ çļĦ
ä¿Ħç½Ĺæĸ¯ çļĦ
éģĩ åĪ°äºĨ
åŁ¹ èĤ²
èĤ¯ å°¼
ĠU n
éħįéŁ³ åĳĺ
éĵ¸ å¸ģ
è´ª æ±¡
ä¸Ń éĢĶ
å¤§ èĦĳ
èĢ »
è° İ
åıĹ ä½ĵ
12 2
12 4
ä¼Ĭ ä¸ĩ
çļĦä¸Ģ åľº
æĬ¤ èĪª
çĮ ©
ä¼¦ çĲĨ
èĪ¹ èĪ¶
çĤ® å¡Ķ
190 8å¹´
æģ¶ éŃĶ
åįłé¢Ĩ äºĨ
åĬ¨åĬĽ åŃ¦
åĪĽéĢł äºĨ
çļĦåŁºç¡Ģ ä¸Ĭ
çºł çº·
çļĦ è¯Ńè¨Ģ
ç¾İ èģĶ
è·¯ è½¨
or eĠ
èµ° äºĨ
ä¸įè¿ĩ åľ¨
Ġæľ¬ é±¼
èĨ Ľ
æİĮ ç®¡
åįłåľ° éĿ¢ç§¯
çĲĨå·¥ åŃ¦éĻ¢
m y
çļĦ æİ§åĪ¶
çļĦ ä»»åĬ¡
åľ¨ åħ¨çĲĥ
ä¸º éĤ»
åĽ½ éĵģ
å¤ļ è¾¾
åĨħ åĬ¡
éĥ½ å¾¡åı²
æİ¥ æīĭ
éľ ľ
åĵĪ å¸ĥ
æ±ī äºº
è¾¹ ä¸º
50 ç±³
æĹĹ èĪ°
æĭīä¸ģ ç¾İæ´²
çħ¤ çĤŃ
æĤī å°¼
3 ä¾ĭ
r u
éĥ¨ åĴĮ
å¸ĥ ä¼¦
å°ı åŃ©
èģĮ å·¥
ä¸»è¦ģ ä¸º
æŃ¦ åĬĽ
è§Ĥ å¡ĺ
193 0å¹´ä»£
ä»ĭ äºİ
æ¼« å¨ģ
è¡Ĺéģĵ åĬŀäºĭå¤Ħ
ç½ļ æ¬¾
çī¹æ®Ĭ çļĦ
é©¬åħĭæĢĿ ä¸»ä¹ī
æĢİ ä¹Ī
å¯Įåħ° åħĭæŀĹ
9 ç±³
ä¸º ä»Ģä¹Ī
ä¸» æĴŃ
åĬ¨ èĦī
éĩĮ çº¦
å°Ĩ è¢«
é©¬ æģ©
ä¸ŃåĽ½ æĶ¿åºľ
åĲĳ åīį
æ¸¯ æ¾³
åıª å¥½
çłĶç©¶ èĢħ
ä¹Į åħ¹
le x
åŃ¦çĶŁ ä¼ļ
æ°ĳä¸» æ´¾
èģļ ä¼ļ
å®ĩ èĪª
èµĦæľ¬ ä¸»ä¹ī
ç¥Ī ç¥·
section Ġend
ä¹Įé²ģæľ¨ é½Ĳ
çļĦ çĲĥéĺŁ
çļĦ ä¸ªäºº
å¹¶ ä»İ
é©¬ ä¸Ĭ
10 2
éĺ¿ æĸ¯
11 ä¸ª
an c
åĲī éļĨ
éĥ¡ çİĭ
å¼Ģåıĳ åĮº
æ¬£ èµı
éĽĮ æĢ§
èĲ¨å°Ķ çĵ¦
çļĨä¸º éĻĨåľ°
èĤ¿ çĺ¤
Ġ èĭ¥
çļĦ åı¯èĥ½æĢ§
æĹ¶ ä¸º
çĶŁ å¹³
åĪĨ åĮĸ
ä¸ĭ è¡Į
å¯¹ å¾ħ
æľĢ éķ¿çļĦ
æĶ¹ æĪĲ
éķĩ å®Ī
æľĿ éĺ³
æŃ¥ éª¤
ä¹ĭåĲİ åľ¨
åĲĮå¹´ 11æľĪ
åĤ į
æłĩåĩĨ çļĦ
çĪ¶äº² æĺ¯
è¯¸ å¡ŀ
è¾© æĬ¤
æĥ¯ ä¾ĭ
a j
p ro
Ã ¼
Ġ çİ°ä»£
çļĦ æŃ£
ä¸ī æĺŁ
ä¸¤ åľ°
ä¿Ŀ å®ļ
åŀĭ æĢģ
æ°Ķ çĲĥ
åħĪ é©±
å¸Ĥéķĩ èĮĥåĽ´åĨħ
for m
è¡¥ åģ¿
å¤º åĽŀ
ä¸»æ¼Ķ çļĦ
Ġc ol
Ġof Ġthe
æª Ĳ
åĩ ĳ
åĨĽ çĶ¨
è¢« èªīä¸º
åĮĹ ç«¯
çº¦ è®·
202 1
æĽ´ å¥½
åıĺ åĬ¨
è¶ħ å¸Ĥ
åĥ µ
é«ĺéĢŁ éĵģè·¯
æ·±åľ³ å¸Ĥ
é¥² åħ»
å¯Ĩè¥¿ è¥¿æ¯Ķ
, ,
ä¼ º
ä¸Ģ é¦ĸ
åĩº åĵģ
èĢĮ æľī
å¾· åł¡
äºļ çļĦ
äºļ åĪ©
çĪ ½
çº¦ æĿŁ
æĶ¹ è®¾
åıį æĶ»
åħ« ä¸ª
åıĳå±ķ åĩº
æ¤į è¢«
èķ ´
çļĦçī¹ æ®Ĭ
æīĢåľ¨ çļĦ
å¹´è½» äºº
å¤§ çº²
ä¸ī çĻ¾
æĪĺ æľº
ä¸ĸ å®Ĺ
11 æĹ¶
çº¢ å¤ĸ
å°ļ æľī
å±ĭ èĭĳ
åįĪ ç§ĳ
è¯ł éĩĬ
c on
çļĦ çĽ¸åħ³
åľ¨ åħ¨åĽ½
åıĳ æĸĩ
å¹¶ æŃ¢äºİ
ç¾ ŀ
æĮ ½
âĢľ "
æį ŀ
é©¬ è·¯
åħ¨ ç¾İ
èĤ ª
äº¤ äºĴ
æ¢ §
å¸Ī ä»İ
æĶ¾ å¤§
çĻ½ éĩĳ
æĪ¿ åľ°äº§
éŁ³ä¹Ĳ å½ķå½±å¸¦
ç¤¼ ä»ª
éĢļå¸¸ åľ¨
å·¨ æĺŁ
äºİ199 2å¹´
å¸®åĬ© ä¸ĭ
èĦĤ èĤª
f lix
Ġ æ°ĶåĢĻ
ä»ĸ ä»İ
æ¸ Ŀ
æľĢ éķ¿
äºĭ åıĳ
åĲĪ åħ±
æ²» æĦĪ
æį® ç§°
èİ·å¾Ĺ çļĦ
ä¸¤ä¸ª æľĪ
ĠåİĨåı² æ²¿éĿ©
Ġ198 8å¹´
å§¿ æĢģ
èĻĲ å¾ħ
éĺ¿åŁºåĿ¦ å¤§åĮº
çļĦ æĸĩç«ł
çĲ ¦
ä¸ĭ è¯ı
æīĢ ä½¿çĶ¨çļĦ
å±± å¯º
åħ³ åį¡
ar eĠ
å¢ŀ æı´
åĢĻ è¡¥
èĬĤçĽ® ä¸Ń
åĲĮå¹´ 9æľĪ
äºĮåįģ äºĮå¹´
çļĦå¤§ å°ı
çİ© åħ·
è®¾ç½® çļĦ
ç»ıåİĨ äºĨ
éĺħ åħµ
çĦ¦ èĻĳ
æĭĵ å±ķ
éĽĩ ä½£
illi am
çļĦçī¹æľī æ¤įçī©
åĮĸåŃ¦å¼ı ä¸º
çĢĳ å¸ĥ
æĸ°çĸĨç»´åĲ¾å°Ķ èĩªæ²»åĮº
A pp
Ġ 20ä¸ĸçºª
ä¸Ģ æĹ¶
ä¸Ń åįĪ
äºļ æĸ¯
è¿ĩ å¤ļ
201 7
ç±³ åĵĪ
éĩį åıł
æł¼ ç½Ĺ
äºĶ ä»£
éĵģ è¾¾å°¼
åıª ä¼ļ
æŃĮ èĪŀ
è¯Ħ éĢī
çĸĳ ä¼¼
æ¥ļ åĽ½
æĹģ è¾¹
æĽ¹ æĵį
å¤ļå¹´ æĿ¥
å¸ĪèĮĥ åŃ¦æł¡
åĢ¡ å¯¼
æĸĩèīº å¤įåħ´
åįıåķĨ ä¼ļè®®
w w
Ġ ä¸ĩåİĨ
åľ¨ 20ä¸ĸçºª
è½ ¶
åĨĽ æĶ¿
ä¸ī çŃī
åįķ è½¦
æ²¡ æĶ¶
éĥ¨åĪĨ åľ°åĮº
æŀĦ æĥ³
èĲ¨ æĳ©
17 ä¸ĸçºª
éĽĦ æĢ§
å®³ æĢķ
ç¿» åĶ±
æ»ĳ åĨ°
å¼ķèµ· çļĦ
çĪ±å¥½ èĢħ
æĺİå°¼èĭı è¾¾å·ŀ
åİķ æīĢ
6 å²ģ
E x
b o
u al
è¯ µ
ä»¥ 4
åĲİ éĿ¢
ä¸į åĲ«
åħ¶ éĹ´
ä¿ ©
åĪĨ æ³Į
åĮĹ åĮº
çĶµ ç«Ļ
å¤© åľ°
èĤ ½
çº¦ 4
åħĥ èĢģ
éĴ ŀ
æ±Ł åİ¿
å®Ĺ åº§
æĹ© å·²
æ¾ ľ
æĲ ģ
æĺ¯ä¸Ģ æĿ¡
è¿ģ åĪ°
çīĽ é¡¿
çļĨ æľī
190 7å¹´
èĿ ´
1æĹ¥ å¹³åĿĩ
éī´ å®ļ
6 æĹ¶
B E
G P
Ġ 10æľĪ
çļĦ é¦Ļæ¸¯
æĹ¥ åĨħ
ä¸į çŁ¥éģĵ
éĽ ı
åįĹ éĿ¢
åĬł ç´¢
201 2
åħ¨ æĹ¥
æ¡ ¦
è¾¾ ç§ĳ
é» Ķ
æīĭ çļĦ
èģĮ æĿĥ
èĦ Ĩ
å¯Ĩ éĽĨ
èĩ´ ä½¿
èĢģ äºº
æĥ³ åĪ°
è¯ĳ ä½ľ
æĺ¯ä¸Ģé¢Ĺ æģĴæĺŁ
æİ© æĬ¤
ä½Ľç½ĹéĩĮ è¾¾
çķħ éĶĢ
ä¸ĵç§ĳ åŃ¦æł¡
èĿ´ èĿ¶
S C
Ġ éļıèĳĹ
æ³ ¼
åŃ¦ ä¸ļ
æ³ķ æĭī
æĸ° éĺ¿åŁºåĿ¦å¤§åĮº
åĮĹ æ¬§
å±± ä¸Ĭ
ä¸¤ å±Ĥ
æĢ» åĨ³èµĽ
åıĺ å¼Ĥ
ä¼ĺ åĮĸ
èµĽäºĭ ä¸Ń
ä¸ĢçĽ´ åĪ°
å¢ĵ åľ°
ç¦»å¼Ģ äºĨ
åįģå¹´ ä»£
å¦Ī å¦Ī
æĳĨ èĦ±
? ãĢį
Ġ åĲĦ
Ġ å¥¹
Ġ åŃ¦æł¡
åľ¨ è¿ĻäºĽ
åĴĮ æĹ¥æľ¬
é«ĺ å°Ķå¤«
è¯Ń ç³»
èĳĹ çļĦ
æ¯ı æľĪ
åı¯ä»¥ ä½¿çĶ¨
å®Ĺ å®¤
éĿĴ å±±
al d
å¤ı æľĹå¾·
ic a
å¾·åĽ½ çļĦ
èµ« é²ģ
æĬĢæľ¯ çļĦ
è®² åº§
æ´ŀ ç©´
æª Ģ
å«ģ ç»Ļ
å±¥ è¡Į
æīĢéľĢ çļĦ
å ļ
çļĦ é¢Ĩå¯¼
åĨ ¤
äºº éģĵ
çī ¡
åĲİ å¤ĩ
æ± ¾
äºĭ è¿¹
åº¦ è¿ĩ
éĺ¿ èĲ¨
æ¸¯ åı°
éĴ ī
æĽ´ é«ĺçļĦ
éĽ· è¯º
èİ± åħĭ
åĽ½éĻħ èµĽ
åĽłä¸º å®ĥ
æĳ© æ´Ľ
æŀª ç®¡
äºĨä¸Ģ é¡¹
éĺ¿å°Ķ åıĬåĪ©äºļ
å¾·åħĭ èĲ¨æĸ¯å·ŀ
å·´æĭ¿ é©¬
L L
R O
Ġ åĲįç§°
Ġ éļıçĿĢ
çļĦ çĬ¶æĢģ
å¯¹ æĪĺ
èİ º
é«ĺ å®Ĺ
äºļ é©¬
è½¦ äººæ¬¡
ç³ Ł
åıĪ ç§°ä¸º
åİ» äºĨ
å¾Ī å®¹æĺĵ
è¯ģ ä¹¦
ä¹¡ éģĵ
åĺ ²
æķĮ åĨĽ
åĽº ä½ĵ
åŃĶ åŃĲ
è±ª åįİ
Ġ a
è¡Į æĿİ
æĬ ¹
èĩª ä»İ
èĪ ľ
åı° éĵģ
åħ¨ æ°ĳ
çº¿ æĺ¯
ç³» æķ°
åħĥ çļĦ
æīĭ æĮģ
èĲ¨ è¯¸å¡ŀ
äºĨä¸Ģ åº§
çĶŁçī© åŃ¦å®¶
ç¨İ åĬ¡
è´¢æĶ¿ éĥ¨
5 æĹ¶
M O
çļĦ åī¯
çļĦ çīĪæľ¬
çļĦ çĲĨè®º
æŀ ķ
ä¹ĭ æīĢä»¥
æĸ° ä¼ļ
æľĢ å¿«
è¿ĩ æĿ¥
æ°´ åĬĽ
å²Ľ å¼ıæľĪåı°
åĳ½ ä¸Ń
ä»Ĭ å±ŀ
æ³° å±±
æ¤ °
èģĶçĽŁ çļĦ
èľ ĺ
èĿ ĩ
çªĹ åı£
å«Į çĸĳ
èĥ° å²Ľ
Ð ½
çļĦ é»ĳ
çļĦ çİ°è±¡
æĿ ĸ
ä¸Ĭ æĺ¯
åĩº èī²
åĪĨ è¾¨
é¦ Ī
åŃĲ ç§ĳ
æĪĺ ç¥ŀ
å¤ĸ æĺŁ
éĩį åŀĭ
å®ī å®ļ
æİ¥ çº³
æŀĹ ä¸ļ
å¤Ħ åĪĨ
ç¬¬ä¸Ģ åŃ£
æ¸ħ æ´ģ
æ¬§ ç¾İ
çĪ¶ åŃĲ
å»ºçŃĳ ç¾¤
åģĩ è¯´
ri d
è¯¥çľģä»½ä¸ºæ³ķåĽ½ åĮĹéĥ¨
up er
æ´»è·ĥ äºİ
åĬłåĪ©ç¦ı å°¼äºļ
inc lude
åĬłåĭĴæ¯Ķ æµ·
Ã Ń
åľ¨ åľ£
åľ¨ 2005å¹´
åĲİ äºİ
åĪ° æĿ¥
åĪ© æ¶¦
ä»£ è¨Ģ
èĩ³ 4
çĶµ æºĲ
åº¦ åģĩ
æİ¥ åı£
éĩĳ éĴ±
å¼ł åŃ¦
ä¿® çŃĳ
ä¼¯ æģ©
æ½ Ł
æ¯ĶèµĽ çļĦ
è¿ľ çļĦ
æĺ¥ èĬĤ
æķ°æį® åºĵ
åįĹåĮĹ æľĿ
é£ĵé£İ ä¸Ńå¿ĥ
èħ¾ è®¯
è¯ Ľ
åĩ ¿
èĢ ¿
çŃī äººçļĦ
ç§į åĬł
å·´ è¾¾
å·´ åĵĪ
èį Ķ
åİĨ ç¨ĭ
è¿ĺ æ²¡æľī
çļĦä¸Ģ ç³»åĪĹ
æĿİ æ°ı
ä¾Ľ æ°´
13 4
å³ Ļ
åĲĮå¹´ 8æľĪ
çģµ é¡¿
æī© åħħ
æ°ĳä¸» ä¸»ä¹ī
åįļçī© éĻ¢
å¤ĸäº¤ åħ³ç³»
çĽ¸å¯¹ è®º
ä¹ĥ èĩ³
å¼ºçĥĪ çļĦ
AK B48
çİĭå®ī çŁ³
åĪ ĥ
åľ¨ 2016å¹´
å¤§ å±łæĿĢ
ä¸į åĲĪ
åŃĲ åĴĮ
åı¯ æĮģç»Ń
ç¾İ æĭī
æİ¥ åĪ°
é¦ĸ è½®
äººåı£ çļĦ
å¤Ħ å¤Ħéķ¿
ä¸ĵ å±ŀ
å¤į åĩº
åĽŃ æŀĹ
æ¥ ·
å¾Ī é«ĺ
å¡ŀ æĸ¯
éŁ³ä¹Ĳ èĬĤ
åºķ éĥ¨
it t
æ²¿ èĳĹ
æĽ¿ è¡¥
æºª æµģ
Ġ199 0å¹´
æĪ´ ç»´
ç¡¬ ä»¶
Ġ198 9å¹´
æ£Ģå¯Ł å®ĺ
ä¸ºè¾Ĳé³įé±¼çº²é² Īå½¢çĽ®
ç®¡æİ§ ä¸Ńåıĳçİ°
7 0å¹´ä»£
8 æľĪ15æĹ¥
B r
åľ¨ æľ¬
ä¸º çĥŃå¸¦
æĺ¯ å·´è¥¿
åĴĮ åľ£
ä¸» æľº
åĪĨ éĺŁ
èĬ ľ
ç§ĳ å¤ļ
åĽĽ ä½į
åŀ Ħ
ç»´ çī¹
å¥¥ å§Ķä¼ļ
ä½ı æīĢ
æĽ¼ åĵĪ
åĩł ä¸ªæľĪ
å®ĮæĪĲ åĲİ
æķĮ å¯¹
å¾·éĩĮ åħĭ
æ¤Ń åľĨå½¢
) )
åľ¨ ä¹Įåħĭåħ°
ä¸Ģ å¥Ĺ
äºĨ èĩªå·±çļĦ
çĶŁ çĲĨ
å¼ł å®¶
åĪĴ åĪĨä¸º
è¿ŀ ä¸²
ä¾Ľ çĶµ
æ´Ľ æŀĹ
çĻ» åł¡
è¿ª å°Ķ
æ¸© åĴĮ
æ¬§æ´² åĽ½å®¶
ãģ Ħ
å½© èĻ¹
èİ² èĬ±
é«ĺçŃī æ³ķéĻ¢
æĹ¢ æľī
å¤ļæł· æĢ§
å¤ĸåĽ´ èµĽ
Net flix
å½ķéŁ³å®¤ ä¸ĵè¾ĳ
çļĦ æĶ¿çŃĸ
çļĦ æľĢå¤§
èĢ Ĩ
ä¸į æ¸ħæ¥ļ
æ°ĳ äºĭ
201 0
æĥ ¹
10 æĹ¶
å¤« æĸ¯åŁº
äºĶ å¤§
æĬ¥ åĲį
æĿĳ çļĦ
æ¡Ī çļĦ
ar a
ä¿Ħ è¯Ń
åºĨ ä¸ĭ
é³ Ĺ
äºĮåįģ ä¸Ģå¹´
æŃĮæĽ² çļĦ
èµŀ èµı
190 3å¹´
å±ı å¹ķ
ä¸Ģæ®µ æĹ¶éĹ´
èľĺ èĽĽ
5 åı·
H O
äºº å¯¹
ä¹ĭ å®¶
çĶ¨ åľ¨
çŃī åĲĮ
å°Ĩ æĿ¥
çĽ® åĩ»
æıĲ éĨĴ
åıĸ åĲĳ
åħĪ è¡Į
æ´¾ å¯¹
è¿ª åħĭ
éĵģè·¯ çļĦ
ou nd
èĨ Ŀ
ä¹ĭéĹ´çļĦ åħ³ç³»
ir l
ä¸ŀ çĽ¸
å¼ĹéĽ· å¾·
Ġ 3æľĪ
çļĦ ç»Łæ²»
ä¸Ģ çº¿
ä¸Ģ çīĩ
äºº æŃ»äº¡
è¢« ä¿ĺ
åħ¨ æĸ°
202 2
æĻ® é¡¿
in s
çĶµå½± éĻ¢
é¥ ·
æŀģ åħ¶
at a
åĪĹè½¦ çļĦ
æļ´ éĽ¨
åĨ² éĶĭ
ĠC ol
æ¿Ĵ åį±
% )
åľ¨ 2007å¹´
äºº åĬĽ
æĺ¯ çĳŀå£«
è§ ħ
ä¸į å¤Ł
è·¯ ä¸İ
ç«Ļ åīį
10 ä¸ĩ
èµ· èįī
æ°´ æ³¥
ä»¬ çļĦ
on eĠ
æŃ¦ çĶ°
è£ħ æľī
å®Į æ¯ķ
14 2
åģľ åĬŀ
å¹² æĹ±
ãĤ ¹
äºİ18 4
çº¿è·¯ åı£
ä¸¤å¹´ åĲİ
æĴŀåĩ» åĿĳ
Ġ æĪĸ
Ġ åĺīéĿĸ
åľ¨ éŁ©åĽ½
ä¸Ģ åĿĹ
åŃ µ
åĮ ¡
èĭ ·
ä¹Ł ä¸İ
åħ¨ åŀĴæīĵ
æĢ» åħµ
åİ¿ å¸Ĥ
å°¼ ç§ĳ
ä¿¡ æīĺ
æ¨ Ĭ
åĨį çĶŁ
æŃ¦ æĺĮ
åħ· åºĨä¸ĭ
é¡¿ æ¶ħ
ro up
åĪĩ æĸŃ
ä½© å°Ķ
èĤ¯ èī²
æĢª çī©
å¸¦æĿ¥ äºĨ
èĿĻèĿł ä¾ł
2 æľĪ24æĹ¥
åľ¨ 2017å¹´
åĪ° è®¿
çĶ± ä¸ŃåĽ½
å¤ļ ç±³
å¹³ åİ¿
åĬł å¯Ĩ
éĢļ ç§°
åįİ æ²Ļ
æīĭ ä¸ĭ
éĹ¨ å¤ĸ
åŃĹ ä½ĵ
çĿ ¿
æĶ» éĻ·
åįĬ åĨ³èµĽ
åį´ è¢«
ĠC om
ãĤ ĵ
èĩªåĬ¨ åĮĸ
æ°¯ åĮĸ
æ¸Ĺ éĢı
ä¹Įåħ¹ åĪ«
æĳ©æ´Ľ åĵ¥
R S
y s
Ġ ä¿Ħç½Ĺæĸ¯
Ġ åĶĲ
æ² «
åĩº å¢ĥ
ä¿ ¯
é© ¿
èİ ¹
å¸ĥ è¾¾
æĢ» ç½²
éĥ½ è¦ģ
éĺ¿ åįľ
åŀ ©
å¨ Ħ
å¯¼ ä½ĵ
é² ¶
åı¯ä»¥ è¢«
åħ« å¼º
åį¢ æ¯Ķ
äºĭä»¶ ä¸Ń
ou s
21 ä¸ĸçºª
åĬª æĸ¯
ãĢī .
å¸ĥé²ģ æĸ¯
å¥¥åħĭ è¥¿
è¯¥çī©ç§įçļĦ æ¨¡å¼ıäº§åľ°
R ob
çļĦ å±ħæ°ĳ
å¹´ ä»½
æĺ¯ éĢļè¿ĩ
åĴĮ åħ¶
å¹¶ éĢļè¿ĩ
æ¯Ķ 1
åı· åı¬
åĽĽ åĳ¨
åįķ è¯į
å¤« å¦»
è¿ĳ æľŁ
è½¬ è¿Ĳ
åħī çļĦ
å¥ĸ åŃ¦éĩĳ
åĨĻ äºĨ
åįł æľī
å¤® è§Ĩ
åŁĥ æĸ¯
ä¾¿ ä¼ļ
æħ Į
å¼Ĺ èİ±
èģļ å±ħ
åĪĽä½ľ äºĨ
æĬµ åĪ¶
èĦ± ç»´äºļ
èĴĭ ä¸ŃæŃ£
å¹¿è¥¿ å£®
æķĻç§ĳ æĸĩ
èĤ¯å¡ĶåŁº å·ŀ
M ac
r ess
å ¬
Ġ ä¸Ģä¸ª
çļĦ å¼Ģåıĳ
åľ¨ 2019å¹´
ä¸Ń ä½¿çĶ¨
å¥ ¢
æĹ¶ è£ħ
æ² ¾
æµ Ĭ
è½ ¿
åĪĨ ä¼ļ
åŃĲ åŃĻ
åįģ ä½Ļ
èĢħ åľ¨
ç±³ åĭĴ
è¿ĺ å°Ĩ
ä¸ĸçķĮ å¤§èµĽ
å¼º è¡Į
å®Į é¢ľ
æİĴ çĲĥ
åī¯ éĻ¢éķ¿
æ¯Ĵ æĢ§
éĢĥ èĦ±
ä¸ľåįĹ æİ¥
çķª èĮĦ
çİ» åĪ©
åį°åľ° å®ī
æĽ¼åĵĪ é¡¿
T wit
l an
çļĦ åıįåºĶ
ä¸Ģ ç»Ħ
ä¸ĭ å±ŀçļĦ
å¸Ĥ çº§
éĩĮ å°Ķ
201 4
è½¦ åİĤ
åħ³ å¿ĥ
çĽ´ æµģ
èĳĹ ç§°
æ³¢ å¾·
è¶³ åĪ©
æķħ å±ħ
æ·± æ°´
å°Ħ æīĭ
ä¸Ńå¤® æĶ¿åºľ
å¼Ĥ æĢ§
èį· é©¬
è®¢ è´Ń
èĨ ı
æī¬ å·ŀ
ä¸ĩäºº æ¬¡
èĹ¤ åİŁ
å¹½ é»ĺ
ç° §
å·´æĭī åľŃ
Ð ¸
Ġ èī¾
è¡ ŀ
å¤§ çķ¥
æī ³
åĴ ¬
ä»ĸ å·ŀ
åĽł åľ¨
æĪĺ çº¿
æŃ£ å½ĵ
éľ ī
12 3
çĭ Ļ
æłĩ çŃ¾
å¼Ģå§ĭ åĲİ
çīĩ çļĦ
åħī å¤į
æĶ¿æ²» åįıåķĨä¼ļè®®
è¡Ĺ åºĦ
æī¿ åıĹ
åħħ å½ĵ
æī¾ åĪ°äºĨ
éģ¿ éļ¾
çĲ¼ æĸ¯
éĤª æģ¶
9 æľĪ28æĹ¥
Ġ æııè¿°
çļĦ çºªå½ķ
åľ¨ æŁĲäºĽ
åĴĮ æĶ¿æ²»
ç¾İåĽ½ éĻĨåĨĽ
ç¼ĸ æĪĲ
åĪĽ åĪĬ
ä»£è¡¨ æĢ§
å¾® åĪĨ
5æľĪ 20æĹ¥
æįķ èİ·
å¤ĸäº¤ éĥ¨éķ¿
ç¼ĵ è§£
åĲĲ èķĥ
åı°é£İ èŃ¦æĬ¥
8 åħ¬éĩĮ
o on
Ġ åħĥ
ä¼ļ åĲĪ
ä½ľ å®¢
åĪĨ éĥ¨
ç¬¬ 15
å¤ļ éĿ¢ä½ĵ
çŃī ä»·
è·¯ éĿ¢
æ¼Ķ ç»İ
å¸¸ æķ°
åĭ ¿
ç¬¬ä¸Ģ ä»£
å¨ģ çī¹
çª ¦
çħ ½
è¿ª åįĹ
è½» åŀĭ
4æľĪ 30æĹ¥
çļĦäºº å£«
æĶ¶å½ķ äºİ
ç¢° æĴŀ
çļĦ åĴĮ
å¤§ å°Ĩ
äºĨ åľ¨
å¤ļ æĿ¡
åĪ© æ¯Ķäºļ
ä¸ī åı·
å°Ĩ æŃ¤
åľº é¦Ĩ
èĭ± èģĶéĤ¦
åıĤ æĪĺ
çķĮ éĿ¢
æº ¢
å¸Ī çĶŁ
æĿİ åħĭ
è¯Ħ çº§
çĭ¬ è£ģ
åıĳçİ° äºİ
åĪĨåĪ« åľ¨
ac eĠ
åĪº æĿĢ
ãĤ ¤
åıĭå¥½ åŁİå¸Ĥ
Mic rosof
Ð µ
çļĦ é£İéĻ©
åħ ĸ
ä¸Ģ æī¹
åĴĮ æĹłçĹĩçĬ¶æĦŁæŁĵèĢħ
ä¼ļ ä¸İ
ä¸į çĶ¨
æ´ ¼
åħ¬ æīĢ
æ°ĳ çĶŁ
å¤ļ çĵ¦
å¼Ģ æĭĵ
åı¯ æĥľ
è¯¥ å¤Ħ
äº§ éĺ¶çº§
éĹ¨ çļĦ
éĴ Ļ
èĮ ľ
çļĦä¸Ģ åĳĺ
ä½ľä¸º ä¸Ģä¸ª
æķħ ä¹¡
æ³° ç½Ĺ
æł¸ ç³ĸ
æĳ© æ³½å°Ķçľģ
æĪĴ ä¸¥
åįĵ è¶Ĭ
åĽ½å®¶éĺŁ åıĤåĬł
æŁ´æ²¹ æľº
åĲīéļĨ åĿ¡
Ġ éķ¿
æĺ¯ å¥¥åľ°åĪ©
åľ° è¡¨
æ¸ ¤
æ³ķ è¥¿æĸ¯
æĿ¥ äºĨ
å°ı æıĲçĲ´
ä½Ĩ æľª
ç§į ç§į
éĩĳ éĴŁ
å¤« çļĦ
çļĦä¸Ģä¸ª åĮº
al k
ä¼ĺ å¼Ĥ
et h
10æľĪ 10æĹ¥
éŁ¦ ä¼¯
ä¸¾åĬŀ äºĨ
åºĶçĶ¨ ç¨ĭå¼ı
è¿ĩåİ» çļĦ
æĬĺ åıł
Ġ193 7å¹´
çĶŁéķ¿ åľ¨
è°¥ åı·
æĮīå¯Ł åı¸
çŁ³åĻ¨ æĹ¶ä»£
( ãĢģ
2 æľĪ1æĹ¥
D O
çĶ Ħ
äºº æīĢ
çİ º
çĶŁ ç´ł
å¹¶ è¦ģæ±Ĥ
å¾· å·ŀ
æ¯Ķ èµ·
ç»ĵ æĻ¶
äº¦ æĽ¾
å®Ī åĨĽ
ç§Ģ åĲī
å®ĭ ä»£
æľºæŀĦ çļĦ
èµ¤ éģĵ
ir st
ç¨İ æĶ¶
Ġ18 7
åİļ åº¦
åı¥ è¯Ŀ
æĸ¯èĴĤ èĬ¬
ç° ¿
ç¦ıå°Ķ æĳ©
ç§ĳç½Ĺ æĭīå¤ļ
èĥ°å²Ľ ç´ł
çļ Ĥ
çļĦ ä»·æł¼
æł Ī
ä¸į å½ĵ
åīį æľŁ
åİŁ ä½ľ
å±ŀ çī©ç§į
æİ¥ çĿĢ
åħĥ ä»¶
æ¸¯ å²Ľ
ç»ĵ å°¾
ç¬¬åĽĽ æ¬¡
ç¬Ķ åĲį
å¤ıåŃ£ å¥¥è¿Ĳä¼ļ
çĽ¸ä¼¼ çļĦ
ä½¥ äºĭ
çİĽæł¼ ä¸½
N O
V ID
è¾ ľ
ä¸ī æĿ¡
201 5
è¯¥ å»ºçŃĳ
ç¥ ģ
ä¸¤ èīĺ
åİ¿ åĴĮ
å±ŀ èĤīé£ŁæĢ§
åĽĽ ç§į
åıĤ åĨĽ
æĦı æĦ¿
16 ä¸ĸçºª
çĻ» å±±
çĬ¶ çļĦ
è´¥ ç»Ļ
å½Ĵ è¿ĺ
éº¦ éĩĳ
èİī ä¸Ŀ
å®īè£ħ åľ¨
6 0å¹´ä»£
g round
o tĠ
å¹´ ä»ħ
ä¸Ģ å®ļçļĦ
åŃ¦ è¯´
åĩº åħ¥
å¤ļ å¹´çļĦ
åīį åİ»
ä½Ĩ ä¹Łæľī
åİĨ æĹ¶
æĮĩ åįĹ
æº ī
æĻ® åĪ©
æĪı éĻ¢
es Ġ
ç¤¼ åłĤ
å¸ĥèİ± æģ©
Ġ å¤ĸ
ä¸º çķĮ
ä¸Ń çļĦä¸Ģä¸ª
æ¸ £
è½¦ è·¯
è¯¥ é¡¹çĽ®
åħ¨ èº«
æ¸¸ çİ©
å¹³æĸ¹ èĭ±éĩĮ
ä¸»è¦ģ ä»¥
èĩ´ æķ¬
æ¸© æļĸ
çĽĳ æİ§
è½» æĿ¾
7æľĪ 7æĹ¥
éĢĥ å¾Ģ
è¡° èĲ½
æĭ¼ éŁ³
ens is
åĢ¾åĲĳ äºİ
æŃ£ç¡® çļĦ
, (
P G
Ġ 25
çļĦ æĸĩåĮĸ
ä¹ĭ æĹħ
å¹¶ æĬĬ
èĢĮ å·²
ç¾İ é£Ł
åºľ çŁ¥åºľ
éĺ¿ åĭĴ
ä»İ ä¸Ń
æ¶ ©
æ¢ Ĺ
æīĵ åĩº
åįĥ å¹´
çĮ ¿
é¢Ħ èµĽ
çļ® åŁĥå°Ķ
å¥³æĢ§ ä¸º
å¹¿æĴŃ çĶµè§Ĩ
ä¸īåįģ åĽĽå¹´
åĩ¡ å°Ķ
çİĩä¸º 0
ç¥ŀåľ£ ç½Ĺé©¬å¸ĿåĽ½
å½Ĵç±» ä¸º
èĶ¬ èıľ
l er
çļĦ æĢģåº¦
æĺ¯ ä¸ĸçķĮä¸Ĭ
çĶŁ èĤ²
ä¹ĭ äºº
è¥¿ æ±ī
èĢĮ åĩº
é¦ĸ éķ¿
åįķ çº¯
éĽĨ æĪĲ
å¥¥ å¼Ĺ
è§£ æŀĲ
ç¦» èģĮ
çłĶç©¶ å®¤
ç¦ı åħĭæĸ¯
ä¿® æĸ¯
å®¢ åľº
å¾Ī åı¯èĥ½
ç¾¤ çļĦ
æīĺ åĭĴ
æ°ı çļĦ
å»¶ æľŁ
re am
et er
è¯ĳ åĲį
çĽ®æłĩ æĺ¯
è¹ Ħ
å¤§è§Ħæ¨¡ çļĦ
ç§įåĬł è¯į
3 åħ¬éĩĮ
m e
r at
ã Ħ
Ġ ä¹ĭåĲİ
ä¸Ń æĸ¹
éĩĮ å¸Į
æĸĩ æĸ¯
ç±» æ¡Īä»¶
ä»¶ äºĭ
åı¯ä»¥ è¿½æº¯åĪ°
æ¸ħ éĻ¤
è¿ŀ éĶģ
ä¿® ç¼®
çļĦä¸Ģä¸ª åİ¿
å© ¿
æĺ¯ä¸Ģ æīĢ
ç»ĵæĿŁ äºĨ
11æľĪ 11æĹ¥
ç©Ĩ å°Ķ
ä¸ºäºº çŁ¥
ç«ŀæĬĢ åľº
å¾Ĺç¥¨ çİĩ
! !
Ġ éĻ¤
äºº è¢«
å¤§ éĥ½ä¼ļ
åĴĮ æĸĩåĮĸ
ä¸Ĭ è¡Į
å®¶ éķ¿
ä¸ĭ è®®éĻ¢
å¸Ĥ äººæ°ĳæĶ¿åºľ
èµĽ ä¼ļ
ç¦ ½
åĽĽ å¼º
åı² éĥ½
æĽ´ å¥½çļĦ
ä¸ĩ èĭ±éķĳ
ç»Ń çº¦
å¼º å¥¸
è§Ħ å¾ĭ
çĶµå½± ä¸Ń
ä¿Ħ æ¯Ķäºļ
å¾ģ æĶ¶
éŁ© æ°ĳåĽ½
çī¹åĪ« æĺ¯åľ¨
å¥ī å¤©
äºİ199 1å¹´
åħ¬å¸ĥ çļĦ
æĬ¢ åĬ«
åıĹæ¬¢è¿İ çļĦ
åĽ½åħ± åĨħæĪĺ
æĳ©æīĺ è½¦
åŁĥå¡ŀ ä¿Ħæ¯Ķäºļ
% ãĢģ
çļĦ æ¼Ķåĩº
åĩº åİ»
åĪĨ åıĳ
ä¸ĭ è®¾
åĬ¨ çļĦ
å¼Ģ å¾Ģ
å¹³ æĹ¥
äºļ ä¼¯
ä¸¤ å®¶
åºĶ æĢ¥
in al
åıĺ ä½ĵ
çĻ½ åŀ©
æĦŁ åħ´è¶£
æľŁéĹ´ çļĦ
åº· å¥Īå°Ķ
åºĦ æĿĳ
è½» è½¨
äºĮåįģ ä¸īå¹´
28 0
è°Ī è¯Ŀ
ç»§æī¿ äºĨ
Lin ux
å¥¥åħĭè¥¿ å¡Ķå°¼å¤§åĮº
F ran
Ġ èĭı
æ³ Ĺ
ä¸İ åĲĮ
å¯¹ æµģ
éĩĮ å£«
åĬł è£ħ
æį į
ç±³ æĭī
è¿ĳ åį«
ä»ĸä»¬ è®¤ä¸º
è§ģ çļĦ
æ¦ ķ
éŁ³ä¹Ĳ åī§
ç²¾ éĢī
è¶³çĲĥ åįıä¼ļ
ç»¼åĲĪ æĢ§
åı²èĴĤ èĬ¬
äºļåĪ© æ¡ĳ
å¹¿è¥¿å£® æĹıèĩªæ²»åĮº
E l
R NA
t t
çļĦ æĢ§
çļĦ çŁ³
çļĦ è®°è½½
åĲİ åĨį
âĢ »
ä½į ç´ł
æĸ° æķĻ
æľĢ å¥½
é«ĺ åİĭ
å¾Ĺ å¥ĸ
æĭī èĦ±ç»´äºļ
é¡ ½
èĭ± ä¹Ŀ
éĺ¿ åħĭ
æŀĹ ä¸Ń
çĽ´ çº¿
åķĨ ä¼ļ
å¤± è¯¯
æĻ¯ åĮº
ç¤¼ çī©
æķ£ æĸĩ
ä¸ĢèĪ¬ çļĦ
æļĤ æĹł
åŃĶ æ³°
è·¨ æĢ§åĪ«
åĽ° å¢ĥ
ap p
è§Ĥå¯Ł åĪ°
å¡ĳ éĢł
æ°¨ åŁº
éĹ¯ åħ¥
é¡¿æ¶ħ èĮ¨åħĭ
3 åı·çº¿
5 åĲį
éĥ Ŀ
åħ¬ åŃĲ
ç¾ ģ
åįİ å·ŀ
å¸¸ çĶ¨çļĦ
an s
çģ« çĦ°
ä½İ åľ°
æĢ»ç»Ł éĢīä¸¾
çĶŁäº§ æĢ»åĢ¼
æĭĽ çĶŁ
åĽ° æī°
çļĦçī¹ æĢ§
æĮĳ éĢī
æłĩå¿Ĺ çĿĢ
å½» æĸ¯çī¹
æĬ½ è±¡
æĬ« éľ²
2 30
æĺ¯ ä¸İ
è½¦ æ¬¡
ä¸¤ åº¦
å½± éĽĨ
éĩı äº§
12 æľĪ25æĹ¥
å¥¥ å¸ĥ
æł¡ æĸ¹
åĪ« äºº
æĳ ¸
æ®µ æĹ¶éĹ´
å¸Į ä¼¯
åī¯ æķĻæİĪ
æĶ» è¯»
ä»į æľª
é¢Ħ è¨Ģ
ç¥ĸ åĽ½
ç¥ĸ æ¯į
el la
é¦ĸæ¬¡ åľ¨
éªĳ å¸Ī
èŃ¦å¯Ł å±Ģ
åĪĽç«ĭ äºĨ
è©¹ å§Ĩ
åıĪåĲį BD
å¿½ çķ¥
ä¸»æīĵ æŃĮ
æĺĶ æĹ¥
M 1
O pen
çļĦ é£İ
ä¸į åŃĺåľ¨
ç¾İ çļĦ
ä¸ľ æŃ£
ä½¿ é¦Ĩ
ç§ĳ ç»´å¥ĩ
åįİ ä¸Ń
è§Ĩ éĩİ
æĥħ äºº
èĻ Ķ
æ¸ħ æľ«
åľŁ æľ¨
åŃĻ æĿĥ
åĩ¯ çī¹
åĲĪå¹¶ èĢĮæĪĲ
æĭĴç»Ŀ äºĨ
ä½įäºİè¯¥åĽ½ åĮĹéĥ¨
å¡« è¯į
éªĳå£« åĽ¢
åĵĪå¸ĥ æĸ¯åł¡
6 æľĪ28æĹ¥
Ġ å½ĵæĹ¶
åľ¨ å¤ĸ
ä¸º formula
æľī æĿĥ
ä¸ľ åį°åº¦
èĲ į
åŁº éĥ¨
çº¦ æĹ¦
æĪĸ è®¸
èĴĤ æĸ¯
æŀ¶ é£ŀæľº
æĿ¯ åĨłåĨĽ
åºĶçĶ¨ ç¨ĭåºı
åŃ¤ ç«ĭ
ä¸ĳ éĹ»
å¼Ĺæĭī åŁº
2 æĹ¶
C S
Ġ æ±ī
Ġ ä»ĸçļĦ
ä¸Ń åı¶
å¤§ åĲį
20 ä¸ª
æŀ ¯
æ¸ Ń
å¼Ģ æŀª
äºĭ çī©
æİ¥ ç§į
åĮħ è£¹
åı¤ ç½Ĺé©¬
ç¼ĸ è¯ĳ
å¤± åĪ©
å¤± æľĽ
æ°ı æĹı
åıĳè¡¨ å£°æĺİ
éļıåĲİ åľ¨
è¿Ļæĺ¯ åĽłä¸º
ot t
çī§ åľº
æł¼é²ģ åĲīäºļ
èĦĬæ¤İ åĬ¨çī©
- ,
Ġ ç§ĳ
Ġ çłĶç©¶
Ġ æĿ¨
åį ¤
åĴĮ åįĹ
åĴĮ ä¸ī
åĬł çļĦ
æķĻ åıĭ
çģ ¶
åįķ è¡Į
ä»½ åŃĲ
èĩªå·± æĺ¯
éĻĪ åĪĹ
æĤ ¨
æ£Ģ è®¨
éĶ¦ èµĽ
è¥¿éĥ¨ çļĦ
åĨ¬ å¤©
ot h
åİŁæľ¬ çļĦ
å½¼å¾Ĺ åł¡
å¯¹åºĶ çļĦ
Ġä»¥ä¸ĭ ä¸º
å¥¥æĸ¯æĽ¼ å¸ĿåĽ½
åį¯ ç§ĳ
7 åħ¬éĩĮ
æĹ¥ åľĨ
ãĢĭ ;
èģ ĭ
è¿Ļ ä»½
å¾Ĺ å¤ļ
åħ¥ è¯»
ç«ĭ éĿ¢
éĶ Į
å°± å¼Ģå§ĭ
ä¼ł åĩº
æĶ¿æ²» å§Ķåĳĺ
æīį æĺ¯
æĪĲåĳĺ çļĦ
çĽĽ è¡Į
ç¼º å¸Ń
ĠP h
éĵľ éĶ£
èĭĹ æłĹ
æĶ¹å»º ä¸º
åħļç»Ħ ä¹¦è®°
B R
n et
Ġ äºĭä»¶
ä¸º Ġ
ä¸į å¤§
è¿Ļ å¯¹
é«ĺ æ¸©
æµ· æĪĺ
å°Ĩ è¿ĳ
å±± ç«Ļ
å¼ı å»ºçŃĳ
éĥ½ ç»Ł
é¦ĸ åĳ¨
æĽ¾ å¤ļæ¬¡
æ¸¸ ä¹Ĳ
æĶ¶ çĽĬ
åº§ æ¤ħ
æĬķ è¯ī
æ³ķåĽ½ çļĦ
åĬ© æīĭ
å¡ŀ çī¹
çĻ¾ å¼º
ç¤¾ä¼ļ ç§ĳåŃ¦
çķĻ å®Ī
it ion
å·¡ è§Ĩ
ð« ļ
ç§ĳå¤ļ å°Ķçľģ
5 æľĪ15æĹ¥
Ġ ä½ľåĵģ
æ³ķ åħ¸
èĢĮ åħ¶
èĢĮ åıĹåĪ°
è¢« ç§°ä½ľ
å¤ļ åªĴä½ĵ
æĸĩ åĩŃ
ä¸¤ ç«¯
å°± å·²
åį¡ æ´Ľ
æĶ¯ éħį
ä¸»è¦ģ æľī
åĽ´ æ£ĭ
åħ´ å¥ĭ
è´¹ åĪ©
çľĭ åı°
it e
å½Ĵ åħ¥
éĴŁ æ¥¼
çļĦåľ° ä¸ĭ
äºİ199 3å¹´
Ġ198 4å¹´
çªĹ æĪ·
ç¯®çĲĥ è¿ĲåĬ¨åĳĺ
å¼ĹæľĹ ä»Ģ
åĬłé¾Ļ çľģ
éĺ¿åįľ æĿľ
çļĦ éĥ¨éĺŁ
ä¸Ń æŃ¢
å¤§ åľ°
åĪĨ éļĶ
ç¾ ļ
å¼Ģ åĽ½
æīĢ ç¤º
201 1
çĲĥ è¡£
ä½Ĩ ä»ĸä»¬
éĤ ¯
å±ŀ åĲį
æ¼Ķ æĬĢ
åĲĳ åħ¬ä¼Ĺ
åıĹ éĤĢ
å¹¿ å¤§
åıĸ æĻ¯
ä¸ĵ çº¿
èĤ² æľī
æİ¨ ä¸¾
ä¼¯ æĺİ
ä¾§ éĿ¢
æĸ¹éĿ¢ åĨĽ
èĪ¬ çļĦ
æ²¿ éĢĶ
æĵįä½ľ ç³»ç»Ł
å±ķç¤º äºĨ
éĢĨ è½¬
æº¶ äºİ
éŃģ åĮĹ
ç¤¾äº¤ åªĴä½ĵ
æĨ ¾
1 åħ¬éĩĮ
C o
æĺ¯ èĩª
æĸ¯ å¾·
æ³ķ åŃ¦éĻ¢
å¸Ĥ è®®ä¼ļ
æĦ ī
åħ¨ åĬĽ
åİ¿ åĲį
çº¦ 5
ç² Ł
ç¬¬äºĮ åĲį
æĶ» ä¸ĭ
å±Ĥ éĿ¢
èŃ¦ å¤ĩ
it al
ä¾Ŀ æ¬¡
è§Ĵèī² æī®æ¼Ķ
ĠC omp
çıį å¦®
ä½įäºİè¯¥åĽ½ ä¸ľåįĹéĥ¨
ç¨ĭåº¦ çļĦ
æ°ĶåĢĻ åıĺåĮĸ
è®²è¿° äºĨ
åıįæĺł äºĨ
æİ¢éĻ© éĺŁ
Ġst yle
æĮīå¯Ł ä½¿
2 ä¸ĩ
n er
« çĹ
ä¸Ģ åı°
ä¸Ģ é¢Ĺ
æĺ¯ çĶ¨
åĴĮ åĽ½å®¶
å¹¶ åĪĹ
åĨħ å°Ķ
æķĻ å®¤
è·¯ æĸ¯
éĶ ¤
å¼Ģå§ĭ è¿Ľè¡Į
on ly
è½¬ åıĺä¸º
å¡Ķ åħĭ
èı ĩ
å±Ĥ æ¬¡
æĿĢ äºĨ
ç®¡çĲĨ å§Ķåĳĺä¼ļ
åĲİæĿ¥ æĪĲä¸º
æ³½ å°Ķ
æŀª åĩ»
äº¤éĢļ éĥ¨
èģļ åĲĪçī©
ç¼º å°ĳ
éĺ´ æĢ§
åĽ½å®ī æ³ķ
; "
y c
åħ Ģ
åľ¨ æµ·
åľ¨ åľº
åľ¨ ä¸ĢäºĽ
ä¸Ń åįĹéĥ¨
äºĨ å¤§éĩı
å¯¹ ä¸ŃåĽ½
æĻ ĥ
çī© ä»¶
ä¸ĸ ä¿Ĺ
å¤ĸ ä¾§
åįİ è£Ķ
å·´ æ¯Ķ
æĹł åĬĽ
åĵĪ å¯Ĩ
å¡Ķ æĸ¯
ar m
åŃĺ æ´»
åĩºçİ° äºİ
ä¸½ çļĦ
èĥĮ åıĽ
7æľĪ 20æĹ¥
è´µ çļĦ
æĬµ å¾¡
èĳ¬ ç¤¼
çŁ¥åĲį åº¦
çĭĻ åĩ»
Ġ ä¸ĸçķĮ
Ġ la
Ġ è¿Ļç§į
çļĦ è§Ħå®ļ
åĩº åĬ¨
ä¸ľ éĿ¢
éģĵ åħ·
10 äºº
æ°´ æŀľ
åĪĻ æĺ¯åľ¨
åį¡ è½¦
å¸¦ åĽŀ
è§£ åīĸ
åħŃ åįģ
åįĥ åı¶
æ¢ħ åĪ©
æĻļ ä¼ļ
æ¦Ĥ è¦ģ
ĠE x
å¹³åı° ä¸Ĭ
åįĴ äºİ
æİ¢æµĭ åĻ¨
G N
k e
çļĦ çĶŁäº§
ä¸Ń åħ´
è¡Į æĢ§
çĶŁ æ¯į
çĶŁ æ®ĸ
å¹¶ è®¤ä¸º
åħ± çĶ¨
é£ ĺ
ç½Ĺ æĽ¼
åºĶ ä»ĺ
äº¦ ç§°
æł¹æį® åľ°
å±ŀçļĦ åĬ¨çī©
æłĸæģ¯ äºİ
ç²¾ç¥ŀ çĹħ
ç¯® æĿ¿
é©¬åħĭ è¥¿
æĬķåħ¥ æľįåĬ¡
å±Ĭåħ¨åĽ½ äººå¤§ä»£è¡¨
çģĮ æºī
å¥ł åŁº
æ»¡æ´² åĽ½
éĩİçĶŁ åĬ¨çī©
å°¼æĹ¥ åĪ©äºļ
) ãĢĭ
8 Ġ
H e
J o
a il
çļĦ è½¦ç«Ļ
çļĦ è¯Ħä»·
åľ¨ 2006å¹´
ä»¥ èĩ´
æĹ¶ æīĢ
ä»£ ä»·
å¦ ¾
å¤© æ°´
æ¯Ķ åĪ©äºļ
æ£ µ
åį¡ æĻ®
éĹ¨ ç¥¨
)ãĢģ (
é¢Ħ çķĻ
é¡º ä½į
åħ¼ èģĮ
æķ°éĩı çļĦ
éģĩ ä¸Ĭ
çĴ §
åĤ¨ å¤ĩ
è´« ç©·
éĻª åĲĮ
è¯ģåĪ¸ äº¤æĺĵæīĢ
æ¤Ń åľĨ
ä¸ºé¦ĸ çļĦ
H z
S L
Ã ³
Ġ åĲİç»Ń
çļĦ è°ĥæŁ¥
çļĦ æĿĳèĲ½
æĺ¯ å½ĵæĹ¶
åĴĮ è°Ĳ
ä¼ļ å¯¹
éķ¿ è½´
æĸĩ æ¡£
èĪ µ
åı° åĲİ
è¡¨ åĨ³
åŁİ å·´
æĮĩ åĲĳ
æ°Ķ æ°Ľ
åºĨ åħ¸
æ²¹ çĶ»
7æľĪ 31æĹ¥
åĪļ åĪļ
è¥¿åĮĹ æİ¥
ç¨³å®ļ æĢ§
æĬ½ çŃ¾
éĽĩ åĳĺ
è¥¿èĹı èĩªæ²»åĮº
ç¡« éħ¸
" ãĢģ
C L
ä¸ª åĽ½å®¶
å¤ļ éĥ¨
åįĹ ç«Ļ
åĮĹ èĩ³
ä½Ĩ è¯¥
æ²» æīĢåľ¨
åĲĦ æĸ¹
çīĩ å°¾
ç¼ĸ ä¸º
å¨ģ åĬĽ
å½ķ åıĸ
çĭ¬ å®¶
è®© ä»ĸä»¬
åĺī åħ´
åį´ åľ¨
æĢ»ç»Ł åºľ
æ¦Ĥ çİĩ
as e
åĨĮ å°ģ
èģĶåĲĪåĽ½ æķĻç§ĳæĸĩ
éĢĢå½¹ åĲİ
äºĮæ°§åĮĸ ç¢³
Ġ å¸ĥ
ä¸Ń å±Ĥ
åĴĮ èĭ±åĽ½
åľ° çĭ±
å½ĵ äºĭ
ç§° åħ¶ä¸º
é¦ĸ æŃĮ
æ¸¯ åºľ
ç¦ı æĸ¯
æ±ī åı£
çĶ° çº³è¥¿
çľŁ çĲĨ
å¯Į è£ķ
åĽłä¸º ä»ĸ
åĬ³ ä¼¦æĸ¯
ç¼º çĤ¹
é©¬æĿ¥ äºļ
Ġ18 6
ä»·åĢ¼ çļĦ
æŀ¢ å¯Ĩ
çļĦéĩįè¦ģ æĢ§
åĽļ ç¦ģ
äºļé©¬ éĢĬ
l or
v i
Ġ ç»ıè¿ĩ
åĲİ ä¾¿
çĲ µ
å¤ļ å°ĳ
åįĹ æľĿ
åħ¨ æĸ°çļĦ
è¿Ĳ è½¬
ç»Ł çŃ¹
éĩĳ çļĦ
éĺ¿ èĤ¯èī²
åį³ ä¾¿
ç¬¬äºĮ ä»£
å®¢ æľº
æīĺ å¤«
èĢĥ è¯ģ
æ´»åĬ¨ ä¸Ń
çľĭ ä½ľ
å°¾ å·´
ç¼© å°ı
åĪĨç±» æ³ķ
uc k
çļĦåĲĮ åĲį
å¥¥å¼Ĺ æ¶ħ
Ġ åį°åº¦
çļĦ å½¢è±¡
è· ¤
æĸ° æĺŁ
ä¸ī é¡¹
çŃī éĹ®é¢ĺ
ç«ĭ å®ª
è° ħ
é©¬ åĵĪ
æ°´ éģĵ
åı¸ å¾Ĵ
æĹł ç¼ĺ
æĽ´ å®¹æĺĵ
an a
åķ ¶
å°ĳ æŀĹ
å®¹ è®¸
åī¯ å¸Ĥéķ¿
éĿĴ åĽ¢
åĢŁ çĶ¨
190 2å¹´
ä»įçĦ¶ æĺ¯
åŃ¦èĢħ è®¤ä¸º
æĺ¯ä½įäºİç¾İåĽ½ å¯ĨèĭıéĩĮå·ŀ
189 8å¹´
åĽ½éĺ² éĥ¨éķ¿
In st
çĸı æķ£
çĮĽ çĥĪ
åĩ¶ æīĭ
åĵºä¹³ åĬ¨çī©
å®¦ å®ĺ
å¹¼åĦ¿ åĽŃ
Ġ æ³¨
çļĦ åħ¬åı¸
çļĦ èĬĤçĽ®
ä¸Ģ åĽ½
ä¸į æĥ³
çŃī æĸ¹éĿ¢
å² ļ
é©¬ åĭĴ
ä¸ļ ä¸»
ç«Ļ åĲį
ç¾İåĽ½ æĶ¿åºľ
éĴ ®
er g
ä¸ĵ é¢ĺ
la s
ç¬¬äºĮ å¤§
è¾ĥ æĹ©
åĿĩ åĮĢ
é»ĳ æ´ŀ
éĵģè·¯ çº¿
ä½© éĩĮ
éľį å¤«
å®ĩ å¤ļ
åĲ¬ ä¼Ĺ
ãĢģãĢģ ãĢģãĢģ
æ³¨æĦı çļĦæĺ¯
çĸ¼ çĹĽ
Ġcol span
( ãĢĬ
2 5å¹´
9 æľĪ15æĹ¥
K i
t s
Ġ æīĢæľī
åħ¶ æ¬¡
ä¿ ¸
å¹¶ çĶ¨
åĨĽ ä¸Ń
èĭ Ķ
å£ ¹
ä¸ī èı±
æķĻ æĿĲ
å·¥ åĨľ
è®¾ æ³ķ
éħ ļ
æº ¥
åı¤ å°Ķ
è§£ éĽĩ
è½¬ åĮĸä¸º
çļĦä¸Ģ éĥ¨
å®Ĺ æĹ¨
13 3
it ed
ä¸´ è¿ĳ
è½» å¾®
åħ¬å¸ĥ äºĨ
Ġ198 2å¹´
çİĩé¢Ĩ çļĦ
æ·ĺæ±° èµĽ
æĪĲäºº æ¸¸æĪı
6 åĲį
Ġ åĽĽ
Ġ 9æľĪ
åľ¨ è¢«
åĴ ½
å¥ ļ
ä¸İ æĿİ
åĩº èī²çļĦ
åĵ ī
çī¹ åĬ¡
å¤ļ å¤Ħ
ç«Ļ ä¸º
æ°´ æºĲ
è®¤ å®ļä¸º
æĺŁ çĲĥ
åĪĴ ä¸º
å°Ħ ç¨ĭ
6æľĪ 10æĹ¥
æľºåľº çļĦ
Ġ198 6å¹´
å¡ĳ æĸĻ
åºŀ å¤§
èĢķ åľ°
éĻĦåĬł èµĽ
back ground
åŃĶæ³° å¤§åĮº
ï ¹
ä¸Ģ éĿ¢
æľī æľŁå¾ĴåĪĳ
æ² Ĥ
æ°ĳ ä¿Ĺ
åĬĽ åĴĮ
çĽ¸ éģĩ
åı¸ éĵİ
ä¸¾ éĩį
æłĩ è¯Ĩ
åĪĿ æ¬¡
äººæ°ĳ åħļ
æķħ å®«
14 ä¸ª
æĹħ é¦Ĩ
æķĳ æĬ¤
ĠC l
åĪĨå¸ĥäºİ åįĹç¾İæ´²
ç«ŀäºī å¯¹æīĭ
å¦¥ åįı
éĵģè¾¾å°¼ åı·
æįį åį«
éŃģåĮĹ åħĭ
" âĢĿ
6 åħ¬éĩĮ
Ġ èµĽ
Ġ ç»´
Ġ åĽłæŃ¤
Ġ è½¨éģĵ
ä¸Ģ éģĵ
éĿ ¶
ç¬ ł
åįĹ éŁ©
é©¬ èĭ±ä¹Ŀ
èĢħ æĺ¯
èµ· æĭħä»»
åıį æ´¾
é¦Ļæ¸¯ å¤§åŃ¦
åľŁ åı¸
çĶ±äºİ åħ¶
is Ġ
åħ¼ å®¹
åĿļ åĨ³
åħĭéĩĮ å¤«
æİĮ æİ§
å¸ĮèħĬ è¯Ń
ç³ĸ å°¿
ä»·åĢ¼ è§Ĥ
ä¹Łå°±æĺ¯ è¯´
åįļè§Ī ä¼ļ
9 æľĪ29æĹ¥
c m
Ġ çº¢
Ġ 4æľĪ
Ġ åķĨä¸ļ
çļĦ éŁ³
åľ¨ 2022å¹´
ä¸Ń æĭħä»»
çŁ £
10 ç±³
éķĩ çļĦ
èİ· éĩĬ
ä½įäºİ åı°æ¹¾
ä¹¦ éĿ¢
æĹ¥æľ¬ å¸ĿåĽ½
ä¾§ å¼ıæľĪåı°
é¡¶ çº§
èĭıèģĶ çļĦ
ĠS c
éĽ¶ ä»¶
åĩłä¹İ æ²¡æľī
é«ĺçº§ ä¸ŃåŃ¦
Ġ195 0å¹´
ä»² è£ģ
1 19
1 200
t or
w ard
Ã ¶
Ñ Ģ
Ġ åĲ´
åľ¨ ä¸Ģæ¬¡
éķ į
è¿Ļ å°±æĺ¯
æĸ° ä»»
âĢĿ ).
çĶµ èį·
ç«ĭ ä¸º
å®ī èĳ¬
åıĹ è®¿
é±¼ ç§ĳçļĦåħ¶ä¸Ńä¸Ģç§į
èĹı ä¹¦
çħ§ æĺİ
è½¨ è¿¹
çĸĹ æ³ķ
éĢĥ åĪ°
åį· åħ¥
å¹¼ ç¨ļ
åıĸæ¶Ī äºĨ
åıĤè°ĭ éĥ¨
åīĬ åĩı
çĽ¸åºĶ çļĦ
çļĦ æĶ»åĩ»
çļĦ å¼Łå¼Ł
äºº éĢī
å¤§ åĴĮ
çĽ Ķ
æĸ° åĩłåĨħäºļ
ä¸ī åįĥ
æľº èº«
åĲĪ è®¡
çģ ¿
æŀĹ æĸ¯
åł Ģ
é² Ī
åħī ç¦Ħ
çĵ¦ åħ¹
æł· å¼ı
çĶ° ä¸Ń
æĽ¼ è°·
13 ä¸ª
è½½ å®¢
æĹħ éķ¿
æĸŃ è£Ĥ
èĥĮ åĲİ
èį¯ åĵģ
è¿Ļä¸ª è¯į
æİ§åĪ¶ åĻ¨
11æľĪ 30æĹ¥
éĤ® æĬ¥
æ¦ľ é¦ĸ
é¡¾ å®¢
æĮģç»Ń åĪ°
å°ıç»Ħ èµĽ
åĩºèº« äºİ
å¤ĸåĽ½ äºº
å¸ĪèĮĥ åŃ¦éĻ¢
é©¬æĭī æĿ¾
æ·¡æ°´ é±¼
éĵĥ æľ¨
æ»¥ çĶ¨
è¯ĨåŃĹ çİĩ
ä¹Ĵä¹ĵ çĲĥ
( âĢľ
Ġ èį£èªī
çļĦ åĪĹè½¦
æĺ¯ ä¸Ń
è¡ ¬
èµ ģ
åŃ¦ çłĶç©¶
åħ¬ å¢ĵ
åĪĨ è¡Į
åĪĨ åºĹ
è¢« çĶ¨äºİ
è¯¥ åĮº
å·¥ åŃ¦éĻ¢
åĲĪ èµĦ
éĢī é¡¹
åŁº åĩĨ
éĥ½ ä»¥
åİŁ å±ŀ
é¢Ĩ ä¸»
æĻ® æľĹ
å¤ª ä¿Ŀ
15 ä¸ª
åĲĮæĹ¶ åľ¨
ç§» èĩ³
è®¸å¤ļ äºº
åĨłåĨĽ èģĶèµĽ
æĿ¾ å±±
çĤ® å¼¹
190 1å¹´
åĽ½éĺ² åĨĽ
ov e
æħ¢ æħ¢
æŀ¢ æľº
å¹´ä»£ ä¸º
èģĤ ä¼¯
æĺ¯åįĹæŀģæ´² çļĦ
S H
l yĠ
çļĦ äºĮ
çļĦ çĭ¬ç«ĭ
ä»ĸ è¡¨ç¤º
çĶ¨ åĵģ
è¿Ļ æĺ¯ä¸Ģä¸ª
å¤© é¹ħ
æŀĹ åĮº
æĴ ķ
æ£ º
ä¸ĩ æ¸¯åħĥ
ä¼Ĭ åĭĴ
ç¼ĸ çºĤ
çİĩ åħµ
åī¯ å±Ģéķ¿
åĲĮå¹´ 7æľĪ
äº¿ æ¸¯åħĥ
è¿ģ å±ħ
åģĩ æľŁ
çļĦäºº ç±»
å¹¼ å¹´
éĺ¿å°Ķåįĳæĸ¯ å¤§åĮº
ç»° åı·
Ġ ä¸Ńåįİæ°ĳåĽ½
Ġ åľ°åĲį
çĲ ħ
è¥¿ è´¡
åįĹ æ´ĭ
èĩ³ åħĥ
la ss
é¸ ł
ä¸Ńå¤® å§Ķåĳĺ
éĤ¦ èģĶ
æĺ¥ å¤©
12æľĪ 8æĹ¥
èĪŀ æĽ²
å°½ç®¡ å¦ĤæŃ¤
ä½įäºİè¯¥åĽ½ ä¸Ńéĥ¨
æĲľ å¯»
è¡° éĢĢ
éªļ ä¹±
æĳĶ è·¤
çº¢åįģåŃĹ ä¼ļ
H C
O r
Ġ ä¸įè¿ĩ
çļĦ äºĶ
çļĦ æĹ§
çļĦ æĪĺæĸĹ
åľ¨ æİ¥åıĹ
ä¸º çºªå¿µ
çĶŁ ä¸ĭ
èĢĮ æĪĲä¸º
å¤ĸ æĿ¥
å¤© åĨħ
æł¼ çº³
æŃ£ åĢ¼
éĺ¿ æł¼
å¯¼ æķ°
å²Ľ åĴĮ
å¯Ĩ çļĦ
ic s
åº· å¤į
æĹħ ç¨ĭ
ĠçĶŁ æĢģ
å¥ĳ çº¦
åŁºåĽł ç»Ħ
çĹķ è¿¹
åı²éĥ½ åįİ
K P
R ed
W TA
h am
Ġ ä¾ĭå¦Ĥ
ä¸Ģ ä½ĵ
äºº åıĹä¼¤
èĢĮ æĿ¥çļĦ
å¼Ģ æĶ¯
ä¸ľ æ¬§
ä»£ å°Ķ
é«ĺ æ¸ħ
ç¥ Ĥ
æľŁ å¾ħ
è·¯ çļĦ
ç§ĳ çī¹
åħ³ è¥¿
å¤Ħ åľ¨
åħļ éŃģ
16 ä¸ª
åĿĩ çĶ±
çİĩ éĥ¨
å¾Ī å¥½
çĿĢ éĻĨ
èĪ¹ éķ¿
è¿Ľåħ¥ çĽ´è·¯
èĴĤ äºļ
12æľĪ 30æĹ¥
8æľĪ 4æĹ¥
è´µ å¦ĥ
åľĨ æŁ±
è¯ī æ±Ĥ
æ±½ æ²¹
Ġ198 3å¹´
Ġ198 7å¹´
Ġ194 6å¹´
å¾Īå¿« å°±
èĬŃ èķ¾
5 0å¹´
7 æľĪ15æĹ¥
Ġ x
Ġ çī¹
çļĦ 1
æĺ¯ æĿ¥èĩª
æľī è¶£
æ¯ ĵ
ä¹Ł ä¸º
è¦ģ åľ¨
åİŁ å£°
æıĲ åıĸ
åĪĻ è¡¨ç¤º
åĲī å£«
å½±åĵį åĬĽçļĦ
ç»ıæµİ åıĳå±ķ
è¯· æĦ¿
æĪĺäºī çĪĨåıĳ
åŃ¦çĶŁ çļĦ
éĢģ ç»Ļ
æĭį åįĸ
å°ıè¯´ å®¶
å¿ł è¯ļ
åĢĴ å¡Į
Ġ198 5å¹´
æĸ¯ç§ĳ çī¹
åĲŀ å¹¶
è¡ĮæĶ¿ä¸Ńå¿ĥ ä¸º
tern ational
col or
r al
çļĦ åĬĽéĩı
å¹´ å¹¼
æĬ ¨
åĪ° åľº
ä¸ĭ éĿ¢
æµ· é»ĺ
å»º çļĦ
è¿Ľ åº¦
201 3
æĢ» éĺŁ
å¡ ¾
æ³¢ åĬ¨
å¡Ķ åĪ©
èĲ¨ çĵ¦
èĩ´ ä»ķ
è¯º äºļ
é©» åĨĽ
æĿ¾ æ±Ł
å®ĮæĪĲ çļĦ
5æľĪ 31æĹ¥
æįķ æįī
èİī äºļ
ä¸ľéĥ¨ çļĦ
æį· åħĭæĸ¯
è½¬ç§» èĩ³
éļĭ æľĿ
é Ĭ
ä¸Ń è¶ħ
ä¸Ń åŃ¦æł¡
éĢ Ĺ
åĴĮ ä»ĸ
éĹ °
æĸ¯ æĭī
çĶ¨ æ³ķ
å®¶ èĩ£
æľ¬ é±¼
å½ĵ åľº
é©¬ å£«
èµ· çļĦ
æ³¢ å¸Į
ä¾ĭ è¡Į
éĻ¤ å¤ĸ
äº² å±ŀ
è¶Ĭ è¿ĩ
ä»ħ åŃĺ
ic eĠ
åģľ æ³Ĭ
ç£ ¡
1æľĪ 31æĹ¥
æŁĲ ä¸Ģ
åĪ» æľī
ç©¿ çĿĢ
æıĴ åħ¥
åĪĩå°Ķ å°¼
æľīçº¿ çĶµè§Ĩ
é¢Ĩè¡Ķ ä¸»æ¼Ķ
æ¸´ æľĽ
only include
2 åħ¬éĩĮ
4 æľĪ28æĹ¥
O P
Ġ ä¸į
æĺ Ĭ
åľ¨ å·´é»İ
ä¸Ń åįĹ
æ¸ ¥
éĽ ¯
åĬł åĨķ
å² ±
å¥³ åıĭ
12 æľĪ15æĹ¥
åĲĦ å¼ı
çłĶ è®¨
åįı åĲĮ
æĸ½ æĶ¿
çļĩ å®«
at or
å§Ķåĳĺä¼ļ ä¸»ä»»
åĺ ±
å¼¹ æĢ§
çł´ è£Ĥ
æ°¸ æģĴ
æ²¿ çĿĢ
èĩªçĶ± å¼ı
å¢ŀåĬł åĪ°
åĬ¨çī© åĽŃ
æ·· è¡Ģ
åģ¥ èº«
æĶ¹éĿ© å¼ĢæĶ¾
æĬ¥éģĵ ç§°
æĹħæ¸¸ ä¸ļ
çĺ ¦
è®¸åı¯ è¯ģ
çĪª åĵĩ
éĢłèĪ¹ åİĤ
2019åĨłçĬ¶çĹħæ¯ĴçĹħ çĸ«æĥħ
èĶĵ å»¶
æį·åħĭæĸ¯ æ´Ľ
+ +
7 æĹ¶
S D
çļ ĵ
çļĦ æĿĥåĬĽ
æľī ä¸įå°ĳ
æĹ¥ æĻ·
åĲİ ä»»
åľ° ä¸»
ä¹ĭ åŃĻ
æĸ° æĪĲç«ĭçļĦ
åīį ä½ľ
äºĮ æľŁ
é©¬ èµĽ
éĩį åĪĽ
æİ¥ è¿ŀ
æīĭ åĨĮ
åį¡ æĸ¯çī¹
åįĬ éĥ¨
åıĮ è¾¹
æł¹æį® 2010å¹´ç¾İåĽ½äººåı£æĻ®æŁ¥
åĵ¥ çī¹
åİĭ è¿«
è¶³çĲĥ éĶ¦æłĩèµĽ
åĲ¸ è¡Ģ
2011å¹´ 12æľĪ31æĹ¥
åĻ¶ å°Ķ
yp e
I ON
c tion
ä¸Ń è¡¨ç¤º
âĢ ¢
æĶ¿ äºĭ
æĸ° æ³½è¥¿
è¿Ľ åĩº
ç§ĳ éķ¿
æ¯Ķ çī¹
æ°´ æĻ¶
éª Ĩ
é£İ äºĳ
åıª å¾Ĺ
åĵĪ æł¹
åĭĴ å§Ĩ
åĨĻ ä¿¡
ç¡® åĪĩ
åħ¶ä¸Ń çĶ·
éĢīæĭ© äºĨ
å°ıæĹ¶ åĲİ
æĵį æİ§
åĬª å°Ķ
å¢¨ å°Ķ
ä½įäºİè¯¥åĽ½ åįĹéĥ¨
è´¯ ç©¿
éĺ¿æĭīä¼¯ è¯Ń
JR ä¸ľæĹ¥æľ¬
çļĦæĥħ å½¢
ç½Ĺå§Ĩ å°¼
åĮħæĭ¬ä»¥ä¸ĭ çī©ç§į
åŀĦ æĸŃ
æĬ¨ åĩ»
7 Ġ
7 æľĪ16æĹ¥
D D
çļĦ èĮĥåĽ´
åĪ ¹
è¥¿ æ¬§
æīĢ ä½ľ
çĲĨ ä¼ļ
æĢ» æķĻç»ĥ
èµ· åħµ
çº¦ åįł
åħļ æł¡
202 3
çĿ ¦
æĶ¶ ç¼©
ä¸»è¦ģ çĶ¨äºİ
ä¸»è¦ģ åĪĨå¸ĥäºİ
åħŃ çĶ²
æĪı æĽ²
æİ¨ æĸŃ
è¯º ç»´å¥ĩ
æī¹ åħ¨åĽ½éĩįçĤ¹æĸĩçī©ä¿ĿæĬ¤åįķä½į
åºĦ ä¸ºéĤ»
å¿ħ çĦ¶
èģĶåĲĪ åı°é£İèŃ¦æĬ¥
ou l
åĲ¦ å®ļ
éĢĥ è·ĳ
è¾Ľ åŁº
å¯» å¸¸
å½© èī²
æĩ ĭ
é©³ åĽŀ
æĸ¯å¨ģ å¤«çī¹
èģĶåĲĪåı°é£İèŃ¦æĬ¥ ä¸Ńå¿ĥ
1 ä¸ĩ
C ol
X box
Ġ äººçī©
çļĦ æľĢåĲİ
åľ¨ åħ¶ä»ĸ
åľ¨ çº½çº¦
å¤§ èĭ±
æł ħ
åŃ¦ åĴĮ
ä»ĸ å¼Ģå§ĭ
ä¸į æĺĵ
æĸ¹ ç´¢
åıĬ é¦Ļæ¸¯
åĬł çī¹
é©¬ åı¯
in k
åľ£ åľ°
èĩªå·± åľ¨
è®© å¥¹
éº¦ åı¯
éĽħ åħĭ
çĽĸ å°Ķ
èģļ åĲĪ
ä¼ĳ åħ»
è¿Ļä¸Ģ æĹ¶æľŁ
è¾½ ä¸ľ
äººåı£æķ°éĩı ä¸º
æĢª åħ½
éĵº è®¾
çļĦ åĽ½
ä¸Ń è¥¿éĥ¨
ä¸İ ç¤¾ä¼ļ
äºļ å¤ª
æľº åŀĭ
èĤ ļ
ä¸¤ éĥ¨
åŁº å±Ĥ
åĪĿ éĢī
èĲ½ åħ¥
è½¦ç«Ļ å¤§æ¥¼
åºķ çĽĺ
éĥ¨éĺŁ çļĦ
ä»ģ å®Ĺ
ç¼ĺ æķħ
çŁ¿ ä¸ļ
æĹº è§Ĵ
ä¾¦ æŁ¥
æ±Ŀ æĭī
çħ½ åĬ¨
I s
Ġ æĪĲç«ĭ
Ġ èİ«
çļĦ ä¾ĭåŃĲ
æĸ §
åľ¨ ä¸ľäº¬
åĮĹ ä¸İ
æķĻ æ´¾
å¸ĥ æŀĹ
ä¸ļ çķĮ
çĽ¸ å®¹
åĽĽ åĨĽ
éĴ Ŀ
çŁ³ çģ°
åķĨ èĪ¹
åľŁ åºĵ
ä¼¯ åĪ©
èĢģ å¹´
çīĻ ä¹°
æ»¡ åĪĨ
ç¿¼ é¾Ļ
èĥ½å¤Ł åľ¨
æĸ¯å¡Ķ å¤«
è¿Ĳè½½ çģ«ç®Ń
å¼ĹæĭīåŁº ç±³å°Ķ
ç³ĸå°¿ çĹħ
N HK
i y
Ġ åĲĮå¹´
çļĦ åı¤
çļĦ ç³»ç»Ł
ä¸Ģ ä¸ĩ
æľī è¿ĩ
ä»¥ çºªå¿µ
ä¹ĭ å£°
é«ĺ åĬłç´¢
äºļ å°Ķ
æµ· åĽł
å±± åŁİ
æĹł æĦı
åĲī åĪ©
åıĳçĶŁ äºİ
ä¿Ħç½Ĺæĸ¯ èģĶéĤ¦
il ver
åĩ¯ æĸĩ
äºİ199 0å¹´
äº® çļĦ
æĲľ éĽĨ
æ¶Ĥ è£ħ
2 çļĦ
çļĦ æĦıè§ģ
åľ¨ è¿Ļç§į
æľī äººåı£
åĲİ äºº
ä¸ª äººçļĦ
ä¸į è¢«
æĽ Ļ
åı¯ ä½ľä¸º
æĸ° å¹²çº¿
ä¸ľ èİŀ
åı° è¯Ń
ç¥ º
æĭī åĽ¾
éĥ½ åŁİ
å·´ é¡¿
åįķ äºº
æľĿ æĹ¥
ç¥ŀ ç¥ĩ
åħī å¹´
ç¬¬äºĮ å±Ĭ
åĦ¿ å²Ľ
ä¹Ŀ å·´
èĲ½ åľ¨
åĨł åĲį
ç¤¾ä¼ļ åħļ
ä½İ æ¸©
é©» åįİ
èĥ¡ å®ī
è¾ħ å¯¼
è±ª æ£®
åĳ¨å¹´ çºªå¿µ
åºŀ å¤§çļĦ
9 æľĪ25æĹ¥
Ġ åĳ¨
Ġ è´Ŀ
ä¸Ń äºļ
å¤§ æķĻåłĤ
ä¸Ĭ ä¹¦
ä¸į äºĨ
åıĳ éħµ
èĥ ¤
å¯¹ ä»ĺ
çī¹ å·¥
åĮĹ ç«Ļ
è° ¬
æ¬¡ åħ¨åĽ½
èĤ ĭ
ç»Ł é¢Ĩ
åį¡ éĢļ
éĹ¨ ä¸ĭ
çĽ´ è¾¾
åī¯ æł¡éķ¿
çĻ» åŁº
ä½ı éĻ¢
ç´¢ çĵ¦
is ion
éŁ¦ æĸ¯
5æľĪ 10æĹ¥
è´§ è½¦
èķ ī
éĻ¶ çĵ·
åħĭç½Ĺ åŁĥ
æľīæīĢ ä¸įåĲĮ
æĭ¼ åĨĻ
å¸¸åĬ¡ å§Ķåĳĺä¼ļ
åĺīä¹ī åİ¿
åħĭéĩĮæĸ¯èĴĤ å®ī
åįķè¡Į æľ¬
Ġ èĲ¨
çļĦ è½¦
çļĦ åĨłåĨĽ
ä¸Ń åĴĮ
æĺ¯ æł¹æį®
æĺ¯ ç§ĺé²ģ
åĴĮ çº¦
éĺ ī
åĩº å®¶
ä¸į è®¾
è¥¿ è¥¿éĩĮ
âĢĿ (),
çİ° å½¹
è¦ģ ä¹Ī
åĲĳ ä¸Ĭ
æĽ¾ åıĤä¸İ
ä¸»è¦ģ åľ¨
æĪ· å¤ĸ
åģļ åĩºäºĨ
å°½ å¿«
äºĮåįģ åĽĽå¹´
å¹³åĿĩ éĻįéĽ¨éĩı
éļıåĲİ çļĦ
ç¬Ķ è®°
åİ¿çļĦä¸Ģä¸ª åŁİéķĩ
ep h
å¿½ è§Ĩ
æĺİæĺŁ èµĽ
æ±ķ å¤´
Twit ter
åħĭç½ĹåŁĥ è¥¿äºļ
" -
F re
T P
â ħ
Ġ åĨħ
çļĦ çĪ±
çļĦ èĩªçĶ±
è® ³
å¤§ èµı
éĥ ¸
äºĨ è¿Ļä¸Ģ
ä¼ļ æĪĺ
çĶ¨ æ°´
é© ¼
é©¬ åħĭæĸ¯
ä½Ĩ å¥¹
åħ¨ çľģ
10 æľĪ15æĹ¥
åĽĽ åĽ½
æ²³ å·Ŀ
å²Ľ ä¸ĬçļĦ
å±Ģ éĽĨåĽ¢
åįĬ éķ¿è½´
é±¼ äºļçĽ®
åĩł æ¬¡
çľĭ æĿ¥
ç«ł èĬĤ
è¶³çĲĥ çĶ²çº§èģĶèµĽ
æĳ© æĵ¦
8æľĪ 10æĹ¥
ç»ĵæŀĦ çļĦ
çĮ® ç»Ļ
æ±ĩ æĬ¥
2001å¹´ æĢ»äººåı£
æµ·æĭĶé«ĺåº¦ 1
çļĦåľ° çĤ¹
åĨ· æĪĺ
åįĹäº¬ å¸Ĥ
åĲĮæł· çļĦ
å¸ĥé²ģ åħĭ
èµ¶ åĪ°
æĳĦå½± å¸Ī
å°¼åħĭ æĿ¾
å¼¯ éģĵ
éĺĲ è¿°
Ġæľ¬å±ŀ åĮħæĭ¬ä»¥ä¸ĭçī©ç§į
Ġ 24
æĺ¯ åŁºäºİ
ä¸į å®ī
è¢« äºº
ä¸ľ å²¸
å¦ Ħ
æ¯Ķ æĸ¯
10 æľĪ28æĹ¥
çº³ ç±³
åı¯ä»¥ å¾ĹåĪ°
èĲ¥ åĪ©
åħ« è¾¾
æŀģ å¤§çļĦ
æĸĩåĮĸ åĴĮ
å·¦ å²¸
å¯¼èĩ´ çļĦ
æĺ¯ä¸Ģ é¡¹
3æľĪ 18æĹ¥
åĩ¯ æĹĭ
ed ia
å·¥ä¸ļ åĮº
ĠC on
äºļæ´² è¿ĲåĬ¨ä¼ļ
åħĪåĲİ åľ¨
é¡µ å²©
æī§å¯¼ çļĦ
ä½ıå®ħ åĮº
åľ°éĿ¢ è½¦ç«Ļ
Ġä»¥ä¸ĭ æĺ¯
åħ¬å®ī å±Ģ
èµ«å°Ķ è¾ĽåŁº
åº¶ åĲīå£«
åĲĪåĶ± åĽ¢
å®ĩå¤ļ çĶ°
4 åħ¬éĩĮ
m p
t ain
æľī æľºä¼ļ
åĲİ çĶ±
åĲİ æĪĲä¸º
ä¸į éĶĻ
æ´ ½
è¢« å¹¿æ³Ľ
åħĭ åĭĴ
åĪ© å°Ķ
è¯¥ éķĩ
ä½ĵ åŃĹ
å¤ĸ ç§ĳ
é©¬ æŀĹ
éħ ª
å°ĳ åį¿
åįĩ èĩ³
6æľĪ 20æĹ¥
è°¢ å°Ķçľģ
åıĳçĶµ æľº
æĬĹè®® æ´»åĬ¨
rit ic
é¸¦ çīĩ
æĶ¾å°Ħ æĢ§
ISTAT ä»£çłģä¸º0
1 åº§
3 æľĪ15æĹ¥
M D
d i
r yĠ
Ġ å¼Ģåıĳ
Ġ ä»ĸåľ¨
å¤§ æ¦Ĥ
æľī åĬŁ
ä¼ļ äº§çĶŁ
ç¬¬ 14
å¹³ æģ¯
åħ± éĿĴåĽ¢
åħ¨ æ¸¯
è§Ĩ ä½ľ
ä¼ł åĬ¨
ä¼ł éĹ»
çĿ ¹
ä¼Ĭ çī¹
è½¬ è®©
æĬķ èº«
åĲī æĭī
åĲī ç±³
çĻ¾ èĢģ
es tĠ
çľŁ ç©º
æīį å¼Ģå§ĭ
çĲĥéĺŁ çļĦ
åħ» æ®ĸ
27 0
çŃ¹ å»º
äºİ198 5å¹´
åİĦ å°Ķçľģ
åħ¬åĳĬ çīĮ
çİĽæł¼ä¸½ çī¹
F L
F i
M y
U E
b le
Ġ ä¸»
çļĦ çļĦ
ãĢ ķ
å¤§ åľ°éľĩ
éĻ ¡
ä¼ļ é¦Ĩ
åıĳ æºĲäºİ
ä¹ĭ æĺŁ
è¿Ļ å¼łä¸ĵè¾ĳ
å»º äº¤
çĶµ æĬ¥
çº¿ ç´¢
å®ī å¤§çķ¥
æł¼ ä¼¦
æ°´ æīĭ
å±ŀ ä¸ĭçļĦä¸Ģä¸ª
ç² ª
åı¯ä»¥ å°Ĩ
å¼ķ è¿°
åŃĺ æĶ¾
é»Ħ åŁĶ
éĺ² çĸ«
æ·± æµ·
åĩł ä½į
éŁ³ä¹Ĳ åŃ¦éĻ¢
çĳŀ å®ī
éĢĢ ä¼į
ç¬¬ä¸ī çĶ²
èĥ¡ åĲĮ
æī§è¡Į å®ĺ
æ±¤ çİĽ
op h
189 5å¹´
çŀ »
åĹ ľ
ç±»åŀĭ ä¸º
ä¹¡è¯ķ ä¸¾äºº
æĿĢæŃ» äºĨ
åħ¶ä¸ŃçĶ·æĢ§ ä¸º
éĩİæĪĺ åĨĽ
æ³¢å¸Į ç±³äºļ
çĻ¾èĢģ æ±ĩ
3 ä¸ĩ
Ġ åĨħå®¹
çļĦ èĬ±
çļĦ æĥ³æ³ķ
çļĦ éĤ®å±Ģ
åľ¨ å®¶
æľī è½¨çĶµè½¦
åĲİ ä¸º
ç¬¬ 16
æĸ° é²ľ
ãĢį (),
200 9
200 0å¹´ä»£
çº¦ 6
åįİ å¾·
åĢ ļ
æĹł ç½ª
å¤§åŃ¦ åĴĮ
åŃĹ æł·
å®ĥ ä¸İ
ä¿® è¡Į
å®¢ è§Ĥ
å½Ĵ å±ŀ
çŃ¾ åĲį
åĪ» æĦı
åĨĽéĺŁ çļĦ
un t
éĺ´ å½±
ä¼´ éļı
èĳ¡èĲĦ éħĴ
è¿Ŀ èĥĮ
ov er
çĺ Ł
çĮĽ èĻİ
ht t
å¿ħè¦ģ çļĦ
æ£Ģå¯Ł éĻ¢
æ£ī èĬ±
3 æ¬¡
4 åı·çº¿
C A
çļĦ åħ³éĶ®
ãĢ Ķ
åĲ Ł
ä¸Ń è·¯
è¥¿ å°¼
èģ Ĩ
åĮĹ å²¸
æµ· åľ°
ç±³ çī¹éĩĮ
éĩį çĶ³
èģĶ ä¼ļ
å¯¼ èĪª
æ²³ æ°´
çļĦä¸Ģ å¤Ħ
å®Ī åį«
åį´ æĺ¯
12æľĪ 18æĹ¥
7æľĪ 18æĹ¥
éĤ® è½®
æľīä¸Ģ æĿ¡
ç»¿ åħļ
ä¿ĥ æĪĲ
Ġ197 9å¹´
åĸ· å°Ħ
ä¸īéĥ¨ æĽ²
Ġè¯¥åľ° 2001å¹´æĢ»äººåı£
å¸Įä¼¯ æĿ¥
; )
N S
Ġ åĭĴ
åľ¨ 2003å¹´
åŃ¦ éĥ¨
ä¸į ç¡®å®ļ
è¥¿ ä¸´
èĩª åį«
æĸ° å¹´
å¹³ å£¤
åĽł æĸ¯åĿ¦
éģĵ æł¼æĭīæĸ¯
å·¥ äºĭ
åĲĪ ä¼Ļ
æĢ§ ä¸İ
åĮĸ å¦Ĩ
æķ° æľĪ
ç§į ç¾¤
æģ ¼
ä¸¤ éĥ¨åĪĨ
æŃ£ å¦Ĥ
åĽĽ æ¬¡
ç»´ å¸Į
æīĭ æĮĩ
æīĭ ç¨¿
åı¯ä»¥ æĺ¯
åħī ç¢Ł
çĳ Ľ
åĽ½éĻħ è¶³èģĶ
åĨĻ çľŁ
æ¶Ī åĮĸ
it yĠ
ç¬¬ä¸ī ä¸ª
èĥĮ éĥ¨
ç½ª çĬ¯
è´¢ åĽ¢
äºĮåįģ äºĶå¹´
æķ£ å¸ĥ
6æľĪ 12æĹ¥
æĭľ è®¿
100 ä¸ĩ
çĤ® åı°
éģĩ è§ģ
éľĩ æĥĬ
éĵģéģĵ åħµ
éĽĨä¸Ń èĲ¥
æµ·å²¸ çº¿
æıŃ ç¤º
ä¼ª éĢł
éĤ»è¿ĳ çļĦ
ä¹Įæĭī åľŃ
çĽ´è¾ĸ å¸Ĥ
6å²ģ äººåı£
èģĶåĲĪåĽ½æķĻç§ĳæĸĩ ç»Ħç»ĩ
8 æľĪ24æĹ¥
b y
c enter
Ġ çİ°æĹ¶
çļĦ è¯ģæį®
åľ¨ ä¸ī
åĽ½ èģĶ
ä»¥ èĩ³
æ± Ĳ
ä¸ľ èĩ³
è¿Ľ äºĨ
èµĽ éģĵ
ç© ¹
å¸ĥ ä»Ģ
ç±³ çī¹
éĩĳ æĹ¥
çİĭ åºľ
éĹ¨ åı£
ç¥ŀ æĪ·
çĪ± ä¸½ä¸Ŀ
åī¯ ä¼ļéķ¿
åı¯èĥ½ æľī
å£° èªī
æīį è¢«
åĪ¶ä½ľ äºĨ
ç¬¬ä¸ī åĲį
8æľĪ 8æĹ¥
æīİ å°Ķ
ç¯ĩ æĸĩç«ł
è¾Ľ äº¥
çº¸ å¸ģ
æ®ĭ çķĻ
è¯Ħè®º åĳĺ
ä¸ªæľĪ çļĦ
æĭĵ æīĳ
æıŃ å¹ķ
ev er
æ©Ħæ¦Ħ çĲĥ
2 20
G u
Ġ ä½Ĩæĺ¯
çļĦ æľįåĬ¡
çļĦ äºĭä»¶
çļĦ æĬ¥åĳĬ
çļĦ æī¹è¯Ħ
ä¸Ģ ä»£
è¯ ¬
äºº å¿ĥ
æİ Ģ
çĶ± åİŁ
é¦ ¨
èĩ³ 5
ä¸ĸ åĩ¯
çľģ æĶ¿åºľ
ä¸¤ åľº
ç¼ ļ
æł¼ å±Ģ
çİĭ æ°ı
åı² è¯Ĺ
ç¥ŀ å¥Ī
è®° è¿°
æ²¡ èĥ½
åī¯ æĢ»çĲĨ
æĦŁ åºĶ
å§Ķåĳĺä¼ļ åī¯ä¸»ä»»
ç®Ģ ç§°ä¸º
10æľĪ 31æĹ¥
8æľĪ 5æĹ¥
è®¿ è°Ī
æĸĩåŃ¦ å¥ĸ
äºļæ´² çĶµè§Ĩ
æĭĽ æĶ¶
æµ¦ ä¸ľ
åĥ§ ä¾£
åĤį æĻļ
1 æľĪ15æĹ¥
4 000
j ect
Ġ è¢«
çļĦ æķĻèĤ²
ç» ¸
åľ¨ ä»»
åľ¨ è¿ĩåİ»
åĽ½ èĲ¥
ä¸İ ä¸Ĭ
æĸ¹ æµİ
éĩĮ å°¼
äºļ çī¹åħ°
å±± å³°
ç§ĳ çĽ®
æĢ» åĨłåĨĽ
é¦ĸ æĶ¯
æµģ æ´¾
åł °
åĩ» åĩº
ç¦ı å·ŀå¸Ĥ
åĻ¨ åĴĮ
åħ« è·¯åĨĽ
æĽ¼ æģ©
50 ä¸ĩ
å¼Ģåıĳ èĢħ
1æľĪ 20æĹ¥
åĽº å®ļçļĦ
éĢĥ èµ°
è§Ħæ¨¡ æľĢå¤§çļĦ
è¿¹ è±¡
Ġ194 8å¹´
æĶ¹åıĺ äºĨ
éģį å¸ĥ
åıĽ åĨĽ
ä½įäºİæ³ķåĽ½ å¤§ä¸ľéĥ¨å¤§åĮº
æ±¡ æ°´
çŃ¾ç½² äºĨ
Ġå¤ĸéĥ¨ è¿ŀç»ĵ
è½¦è·¯ å£«
è¿Ľåħ¥çĽ´è·¯ åĲİ
3 æľĪ26æĹ¥
W illiam
Ġ å¾·åĽ½
Ġ å°ıè¡ĮæĺŁ
çļĦ é£İæł¼
æĪ į
è¢ į
èĥ ĸ
ä¹ĭ ä¹ħ
åĲĮ è¿Ľå£«åĩºèº«
åı¯ è¿½æº¯èĩ³
ä¸ľ ä¸İ
äºĭ é¡¹
ä¹Ł ä»¥
æķĻ å£«
ä¸ĸ è¢Ń
çľģ å§Ķ
200 7
åŁİ ä¸Ń
ç»Ł å¸ħ
çº³ ç¨İ
è§£ è¯»
ç¬¬äºĮ çĻ¾
éĽ· å¾·
éº ¾
éĻĪ è¿°
æĲ ı
é¡º å¤©åºľ
12æľĪ 20æĹ¥
7æľĪ 10æĹ¥
ãĥ Ī
èģĮä¸ļ è¶³çĲĥ
ç§Ł èµģ
é¤Ĳ é¦Ĩ
ç¤¾ä¼ļä¸»ä¹ī åħ±åĴĮåĽ½
æĪĲå¹´ äºº
ç»ĪçĤ¹ ç«Ļ
åĲįäºº åłĤ
åŃŁåĬłæĭī åĽ½
æ¸¤ æµ·
7 æľĪ28æĹ¥
H ar
S m
ç į
åľ¨ 2004å¹´
ä¸Ń åħ¨
äºİ åħ¶
æķ Ľ
ä»¥ ç¡®ä¿Ŀ
å®¶ åº·
èĢĮ ä¸İ
ä¸ĭ å±Ĥ
æīĢ è¿°
è½¦ éĹ¨
åħ¥ åľº
åı¸ åı¸éķ¿
å·´ æŀĹ
åı² ä»¥æĿ¥
å¤ª å¤ļ
çļĦä¸Ģ åĪĩ
ä¸ĸçķĮ åĨłåĨĽ
ä»£è¡¨ çļĦ
èĪ° è½½
åıĮ å±Ĥ
å¯Ł éĻ¢
æ¥¼ é«ĺ
æĶ¯æĮģ çļĦ
åį¢ åį¡
ç½² éķ¿
11æľĪ 8æĹ¥
ĠC ar
ĠL e
ä¹° ä¸ĭ
åįģåŃĹ åĨĽ
èĲ¤ å¹ķ
æ®ĭçĸ¾äºº å¥¥æŀĹåĮ¹åħĭè¿ĲåĬ¨ä¼ļ
: //
C Ġ
R o
é ĳ
Ġ åĲĮæĹ¶
å¹´ åĪĿ
ä¸º ä¾ĭ
æ¯ ¯
å¹¶ èİ·
éķ¿ éĢĶ
æµ· åı£
çĶµ åİĤ
ä½Ĩ æľī
çº¿ è½¦ç«Ļ
æģ ¤
æģ ª
ä¸¤ åĳ¨
å§ĭ åıĳ
åħļ åĽ¢
åŃ£ é£İ
çĻ½ å¤©
æļ ±
ä¼¯ éĩĮ
åĳĬ ç»Ī
åı¯èĥ½ åľ¨
æļ´ é£İ
8æľĪ 6æĹ¥
åĩ¯ å°Ķ
ä½© æĪ´
ä½ł çļĦ
åĲ¬ è¯´
å°ıè¡ĮæĺŁ å¸¦
im e
ä¾į ä¸ĭ
æ·® åįĹ
8 åĲį
9 åı·
r ing
Ġ æł¡
Ġ åŁĥ
20 3
çĽ İ
åħĭ åĴĮ
åįĹ åįİ
ä¸ľ ç«Ļ
åĨħ è®¾æľī
ä¸ī éĹ´
çİ° æľīçļĦ
æľŁ éĻĲ
åŁº äºļ
é¦ĸ èĦĳ
ç±» åĬ¨çī©
ä¸¾ åĬ¨
æİ¨ ç§»
çķĻ ä¸ĭçļĦ
ä½İ åİĭ
æĥ³ åĥı
è¿ľ ç¨ĭ
å¹² éģĵ
il le
4æľĪ 18æĹ¥
åĩ¯ å°Ķçī¹
ãĢį( ).
åģ¶ çĦ¶
çģ¯ å¡Ķ
è¾¾æĪĲ åįıè®®
å§Ķä»» ä¸º
ç½Ĺä¼¯ éĢĬ
å½±è¯Ħ äºº
éĤ¯ éĥ¸
4 æľĪ15æĹ¥
8 æľĪ28æĹ¥
Ġ èµĽäºĭ
ä¹ į
åĮº çļĦä¸Ģä¸ª
è¥¿ å¤ªå¹³æ´ĭ
æ°ĳ èĲ¥
åħĭ æľį
10 æľĪ26æĹ¥
çº¦ 10
çļĦä¸Ģ ä»½
çļĦä¸Ģ éĥ¨ä»½
æľį çĶ¨
å½ķ å¾Ĺ
çĪ± åĽłæĸ¯åĿ¦
åĩĨ åĪĻ
ä¼¦ çī¹
è¶Ĭ éĩİ
ä»ĸçļĦ åĦ¿åŃĲ
æ¸© å·ŀ
çĨ ¹
éļĨ åºĨ
å®¡ è®¯
åĨħéĥ¨ çļĦ
è´¯ éĢļ
ä¼ĺç§Ģ çļĦ
æĤ² åī§
æ¾Ħ æ¸ħ
æĻ¤ å£«
5 æľĪ25æĹ¥
D is
çļĦ æ¹ĸæ³Ĭ
å¹ Į
åľ¨ åĲĮä¸Ģ
æ³ »
ä¸Ĭ ä¸İ
éĩĮ å¤«
ä¸¤ äººçļĦ
éĺ¿ å¾·
åŀĭ æŁ´æ²¹æľºè½¦
èĭı æ¢ħ
çĶ· åıĭ
en Ġ
al ign
çº¢ è¢ľ
å»ºç«ĭ ä¸Ģä¸ª
12æľĪ 7æĹ¥
eĠ P
ĠA d
em p
æĺŁæľŁ åħŃ
ä¸įè¶³ ä»¥
æľīæľº åĮĸåĲĪçī©
åħĭæŀĹ é¡¿
çĮľ æµĭ
7 åı·
9 æľĪ23æĹ¥
r uc
å¤§ ä¸º
åŁ ķ
ä¸Ĭ ä¼ł
åĨĽ ç±į
æĶ¿ æ³ķ
æĢ§ åľ°
ä½Ĩ å®ĥ
çĽ¸ éļĶ
éĥ½ å¯ŁéĻ¢
åı² åŃ¦å®¶
è§Ĩ å¯Ł
ç»Ń ä½ľ
é¦Ĩ éķ¿
å®¹ åĻ¨
çĻ¾ åĲĪ
åĥı ç´ł
æ³° æĻ¤å£«
ä¾¿ å®ľ
ç²¾ åº¦
å¯Į è±ª
25 00
12æľĪ 12æĹ¥
us Ġ
å¸ĮæľĽ èĥ½
å¾Ĳ å·ŀ
æİī äºĨ
æĮĳæĪĺ èµĽ
å¸ĥé²ģ åħĭæŀĹ
éĺ® ç¦ı
éĺ´è°ĭ è®º
é¢ĦåĳĬ çīĩ
b it
çļĦ èĩªçĦ¶
åĴ ª
èĢĮ è¿Ļ
åĨĽ éĺĢ
çĶ± è¯¥
åįĹ å¼Ģ
åĮĹ çĪ±å°Ķåħ°
æľĢ åı¤èĢģçļĦ
çĶµ è½¦ç«Ļ
10 æľĪ17æĹ¥
202 4
çĥ Ľ
11 æľĪ15æĹ¥
æ³¢ å¤ļ
æľį ä»İ
ç«ł Ġ
è¶³çĲĥ è¶ħçº§èģĶèµĽ
åª Ľ
ä¸Ńåįİäººæ°ĳåħ±åĴĮåĽ½ é©»
å°¾ é³į
åĮ¹ éħį
æĢ¥ æĢ§
æ½ľ åĬĽ
èĽĭçĻ½ éħ¶
åĮĪ å¥´
åĸĢ å°Ķ
èİ·å¾Ĺä¸Ģæŀļ éĩĳçīĮ
æķĻç§ĳ ä¹¦
æľĢé«ĺçĤ¹ ä¸º
å¸ĥåĪĹ å¡Ķå°¼
2 æľĪ14æĹ¥
A åŀĭ
m o
çļĦ æĪĺäºī
çļĦ ç²¾ç¥ŀ
åħ¶ ä¸»è¦ģ
çİ° åĿĢ
ä¹Ł å¯¹
èĬ ¸
æł¼ æĸĹ
æıĲ ç¤º
æĶ¹ ä»¥
æĦı æĮĩ
å·² æķħ
äºĶ åįĥ
åıĸ èĥľ
åıĺ ç§į
çĹ ´
æ²Ļ å°Ķ
åĩł å¤©
ç½Ĺæĸ¯ ç¦ı
èĪ¹ ä¸Ĭ
éģĹ æĨ¾
çŁŃ ç¼º
å·¡ æĮī
1æľĪ 10æĹ¥
Ġæľ¬ çīĩ
å°ĨåĨĽ æ¾³
åŁºæľ¬ æ³ķ
èĪĴ éĢĤ
æľ¬å±Ĭ èµĽäºĭ
å²Ľå¼ı ç«Ļåı°
æīĺåĭĴ å¯Ĩ
éĬ ®
æį·åħĭæĸ¯æ´Ľ ä¼Ĳåħĭ
çīĻä¹° åĬł
L a
Ġ æ¬§æ´²
çļĦ èīºæľ¯
çļĦ çĽ®çļĦ
ä¸Ń æİĴåĲį
æľī ä¸ª
æĪĲ åĲį
ä¸Ĭ éĻĲ
åĪ° åºķ
åĨĽ è¡Ķ
åı² è®°
åĲĳ å¤ĸ
åĬ¡ å±Ģ
ç»´ åĲī
ç»ĵ ä¸ļ
æ²³ åĴĮ
æ· ¤
æīĵ çĤ¹
å§Ķåĳĺ éķ¿
å¸Ŀ çİĭ
åĽ½éĻħ è¶³åįı
çĶµè§Ĩ ç½ĳ
al e
æ¥¼ çļĦ
äºĨä¸Ģ æ¬¡
6æľĪ 6æĹ¥
5æľĪ 8æĹ¥
åĮºåŁŁ çļĦ
åıįå¯¹ åħļ
ĠM an
