{
  "version": "1.0",
  "truncation": null,
  "padding": null,
  "added_tokens": [],
  "normalizer": null,
  "pre_tokenizer": {
    "type": "Sequence",
    "pretokenizers": [
      {
        "type": "Split",
        "pattern": {
          "Regex": "[^\\p{L}\\p{N}\\s]+|[\\r\\n]+"
        },
        "behavior": "Isolated",
        "invert": false
      },
      {
        "type": "ByteLevel",
        "add_prefix_space": false,
        "trim_offsets": true,
        "use_regex": false
      }
    ]
  },
  "post_processor": null,
  "decoder": null,
  "model": {
    "type": "BPE",
    "dropout": null,
    "unk_token": null,
    "continuing_subword_prefix": null,
    "end_of_word_suffix": null,
    "fuse_unk": false,
    "byte_fallback": false,
    "ignore_merges": false,
    "vocab": {
      "!": 0,
      "\"": 1,
      "#": 2,
      "$": 3,
      "%": 4,
      "&": 5,
      "'": 6,
      "(": 7,
      ")": 8,
      "*": 9,
      "+": 10,
      ",": 11,
      "-": 12,
      ".": 13,
      "/": 14,
      "0": 15,
      "1": 16,
      "2": 17,
      "3": 18,
      "4": 19,
      "5": 20,
      "6": 21,
      "7": 22,
      "8": 23,
      "9": 24,
      ":": 25,
      ";": 26,
      "=": 27,
      "?": 28,
      "@": 29,
      "A": 30,
      "B": 31,
      "C": 32,
      "D": 33,
      "E": 34,
      "F": 35,
      "G": 36,
      "H": 37,
      "I": 38,
      "J": 39,
      "K": 40,
      "L": 41,
      "M": 42,
      "N": 43,
      "O": 44,
      "P": 45,
      "Q": 46,
      "R": 47,
      "S": 48,
      "T": 49,
      "U": 50,
      "V": 51,
      "W": 52,
      "X": 53,
      "Y": 54,
      "Z": 55,
      "[": 56,
      "\\": 57,
      "]": 58,
      "^": 59,
      "_": 60,
      "`": 61,
      "a": 62,
      "b": 63,
      "c": 64,
      "d": 65,
      "e": 66,
      "f": 67,
      "g": 68,
      "h": 69,
      "i": 70,
      "j": 71,
      "k": 72,
      "l": 73,
      "m": 74,
      "n": 75,
      "o": 76,
      "p": 77,
      "q": 78,
      "r": 79,
      "s": 80,
      "t": 81,
      "u": 82,
      "v": 83,
      "w": 84,
      "x": 85,
      "y": 86,
      "z": 87,
      "|": 88,
      "~": 89,
      "¡": 90,
      "¢": 91,
      "£": 92,
      "¤": 93,
      "¥": 94,
      "¦": 95,
      "§": 96,
      "¨": 97,
      "©": 98,
      "ª": 99,
      "«": 100,
      "¬": 101,
      "®": 102,
      "¯": 103,
      "°": 104,
      "±": 105,
      "²": 106,
      "³": 107,
      "´": 108,
      "µ": 109,
      "¶": 110,
      "·": 111,
      "¸": 112,
      "¹": 113,
      "º": 114,
      "»": 115,
      "¼": 116,
      "½": 117,
      "¾": 118,
      "¿": 119,
      "Â": 120,
      "Ã": 121,
      "Ä": 122,
      "Å": 123,
      "Æ": 124,
      "Ç": 125,
      "È": 126,
      "É": 127,
      "Ê": 128,
      "Ë": 129,
      "Ì": 130,
      "Í": 131,
      "Î": 132,
      "Ï": 133,
      "Ð": 134,
      "Ñ": 135,
      "Ò": 136,
      "Ó": 137,
      "Ô": 138,
      "Õ": 139,
      "Ö": 140,
      "×": 141,
      "Ø": 142,
      "Ù": 143,
      "Ú": 144,
      "Û": 145,
      "Ü": 146,
      "Þ": 147,
      "ß": 148,
      "à": 149,
      "á": 150,
      "â": 151,
      "ã": 152,
      "ä": 153,
      "å": 154,
      "æ": 155,
      "ç": 156,
      "è": 157,
      "é": 158,
      "ê": 159,
      "ë": 160,
      "ì": 161,
      "í": 162,
      "î": 163,
      "ï": 164,
      "ð": 165,
      "ñ": 166,
      "Ċ": 167,
      "Ġ": 168,
      "ġ": 169,
      "Ģ": 170,
      "ģ": 171,
      "Ĥ": 172,
      "ĥ": 173,
      "Ħ": 174,
      "ħ": 175,
      "Ĩ": 176,
      "ĩ": 177,
      "Ī": 178,
      "ī": 179,
      "Ĭ": 180,
      "ĭ": 181,
      "Į": 182,
      "į": 183,
      "İ": 184,
      "ı": 185,
      "Ĳ": 186,
      "ĳ": 187,
      "Ĵ": 188,
      "ĵ": 189,
      "Ķ": 190,
      "ķ": 191,
      "ĸ": 192,
      "Ĺ": 193,
      "ĺ": 194,
      "Ļ": 195,
      "ļ": 196,
      "Ľ": 197,
      "ľ": 198,
      "Ŀ": 199,
      "ŀ": 200,
      "Ł": 201,
      "ł": 202,
      "Ń": 203,
      "ä¸": 204,
      "äº": 205,
      "çļ": 206,
      "çļĦ": 207,
      "åħ": 208,
      "åı": 209,
      "æľ": 210,
      "ãĢ": 211,
      "å¹": 212,
      "ä»": 213,
      "å¤": 214,
      "åľ": 215,
      "åĲ": 216,
      "åĪ": 217,
      "åĽ": 218,
      "å®": 219,
      "å¹´": 220,
      "ä½": 221,
      "æĹ": 222,
      "çĶ": 223,
      "åį": 224,
      "æĸ": 225,
      "è¿": 226,
      "å°": 227,
      "æĺ": 228,
      "ä¹": 229,
      "ç»": 230,
      "ãĢģ": 231,
      "åľ¨": 232,
      "ä¸º": 233,
      "åĬ": 234,
      "æĪ": 235,
      "ä¼": 236,
      "ä¸Ģ": 237,
      "åŃ": 238,
      "åĮ": 239,
      "å¸": 240,
      "è¯": 241,
      "è®": 242,
      "ä¸Ń": 243,
      "åĨ": 244,
      "åĽ½": 245,
      "äºº": 246,
      "æĺ¯": 247,
      "åº": 248,
      "æĿ": 249,
      "å¼": 250,
      "å·": 251,
      "äºİ": 252,
      "å¾": 253,
      "éĩ": 254,
      "çī": 255,
      "ç§": 256,
      "è¡": 257,
      "çº": 258,
      "å¤§": 259,
      "æī": 260,
      "éĢ": 261,
      "æľī": 262,
      "å±": 263,
      "æĶ": 264,
      "åĩ": 265,
      "åĴ": 266,
      "åĴĮ": 267,
      "20": 268,
      "æŃ": 269,
      "éĥ": 270,
      "èµ": 271,
      "èĢ": 272,
      "æķ": 273,
      "å½": 274,
      "åİ": 275,
      "æľĪ": 276,
      "å¯": 277,
      "æ°": 278,
      "éĻ": 279,
      "æĭ": 280,
      "æĹ¥": 281,
      "çĽ": 282,
      "èĩ": 283,
      "æ³": 284,
      "å¥": 285,
      "æł": 286,
      "çİ": 287,
      "19": 288,
      "éĺ": 289,
      "ä»¥": 290,
      "åĲİ": 291,
      "æĹ¶": 292,
      "âĢ": 293,
      "åĳ": 294,
      "äºĨ": 295,
      "åľ°": 296,
      "æ²": 297,
      "ç«": 298,
      "æµ": 299,
      "ä¼ļ": 300,
      "åŃ¦": 301,
      "è§": 302,
      "æĢ": 303,
      "è¾": 304,
      "è´": 305,
      "æĪĲ": 306,
      "éĹ": 307,
      "è½": 308,
      "éĿ": 309,
      "åŁ": 310,
      "ä¸ª": 311,
      "çĲ": 312,
      "ä¸Ĭ": 313,
      "éĥ¨": 314,
      "åī": 315,
      "æĸ¯": 316,
      "éķ": 317,
      "ä¸İ": 318,
      "è¡Į": 319,
      "ä»ĸ": 320,
      "åĩº": 321,
      "ä¸į": 322,
      "æ¯": 323,
      "åĮº": 324,
      "æ´": 325,
      "æŀ": 326,
      "æĬ": 327,
      "æİ": 328,
      "åħ¬": 329,
      "ç¬": 330,
      "åħ¶": 331,
      "åıĳ": 332,
      "æ¸": 333,
      "ç½": 334,
      "ä½ľ": 335,
      "çĶŁ": 336,
      "æĽ": 337,
      "å°Ķ": 338,
      "åĲį": 339,
      "ä¿": 340,
      "ä¸»": 341,
      "åĪĨ": 342,
      "è¢": 343,
      "çŃ": 344,
      "èĥ": 345,
      "ä¹ĭ": 346,
      "éģ": 347,
      "æĸ¹": 348,
      "ç¬¬": 349,
      "çĶ¨": 350,
      "å®¶": 351,
      "å§": 352,
      "ãĢĭ": 353,
      "ãĢĬ": 354,
      "è¥": 355,
      "å¹¶": 356,
      "ç¾": 357,
      "è¥¿": 358,
      "æ³ķ": 359,
      "åĪ°": 360,
      "å¿": 361,
      "èĢĮ": 362,
      "Â·": 363,
      "æ¬": 364,
      "é¢": 365,
      "åĨĽ": 366,
      "å»": 367,
      "åıĬ": 368,
      "è¢«": 369,
      "ä¾": 370,
      "æĶ¿": 371,
      "ä½į": 372,
      "ç±": 373,
      "çĶ±": 374,
      "æĮ": 375,
      "æľ¬": 376,
      "çľ": 377,
      "æ±": 378,
      "æ°ĳ": 379,
      "è·": 380,
      "éĽ": 381,
      "é¦": 382,
      "ä¸ĭ": 383,
      "å¸Ĥ": 384,
      "åĵ": 385,
      "å¯¹": 386,
      "åĲĮ": 387,
      "èģ": 388,
      "èĭ": 389,
      "åħĭ": 390,
      "åĬ¨": 391,
      "æĿ¥": 392,
      "çī¹": 393,
      "éķ¿": 394,
      "è¿Ļ": 395,
      "å¤ļ": 396,
      "ä»»": 397,
      "èĩª": 398,
      "å¼Ģ": 399,
      "éĩĮ": 400,
      "åĳĺ": 401,
      "åįĹ": 402,
      "é©": 403,
      "åŃĲ": 404,
      "åı¯": 405,
      "æĸ°": 406,
      "å¹³": 407,
      "èī": 408,
      "åĿ": 409,
      "èİ": 410,
      "åĬł": 411,
      "å¾·": 412,
      "åĮĹ": 413,
      "ãĢĮ": 414,
      "ãĢį": 415,
      "æľĢ": 416,
      "æĸĩ": 417,
      "å£": 418,
      "åĪ©": 419,
      "æĻ": 420,
      "ç¾İ": 421,
      "é«": 422,
      "åīį": 423,
      "ä¸ľ": 424,
      "ä»£": 425,
      "é«ĺ": 426,
      "äºļ": 427,
      "éĿ¢": 428,
      "æµ·": 429,
      "æīĢ": 430,
      "¦ģ": 431,
      "å¾Ĺ": 432,
      "èĩ³": 433,
      "ç¤": 434,
      "å»º": 435,
      "èĪ": 436,
      "éĹ´": 437,
      "æŃ¤": 438,
      "åĨħ": 439,
      "åĽł": 440,
      "äºĭ": 441,
      "âĢľ": 442,
      "ä¸ī": 443,
      "âĢĿ": 444,
      "çİ°": 445,
      "è¿Ľ": 446,
      "çĶµ": 447,
      "),": 448,
      "ä¹Ł": 449,
      "çī©": 450,
      "è¿ĩ": 451,
      "èµĽ": 452,
      "201": 453,
      "çŃī": 454,
      "åı°": 455,
      "åº¦": 456,
      "è½¦": 457,
      "åħ¥": 458,
      "è¯¥": 459,
      "ç»ı": 460,
      "å½ĵ": 461,
      "éģĵ": 462,
      "ç¥": 463,
      "è¦ģ": 464,
      "ç«ĭ": 465,
      "æĪĺ": 466,
      "å°Ĩ": 467,
      "çĲĨ": 468,
      "ç©": 469,
      "è¡¨": 470,
      "ä½ĵ": 471,
      "çŁ": 472,
      "çķ": 473,
      "æĭī": 474,
      "é¡": 475,
      "å¦": 476,
      "è°": 477,
      "å²": 478,
      "æľº": 479,
      "æķĻ": 480,
      "æľŁ": 481,
      "ä¸ĸ": 482,
      "èĲ": 483,
      "éļ": 484,
      "æı": 485,
      "å·¥": 486,
      "åĪ¶": 487,
      "ç®": 488,
      "èĥ½": 489,
      "äºĮ": 490,
      "å¤ĸ": 491,
      "åĲĪ": 492,
      "æį": 493,
      "è·¯": 494,
      "å®ļ": 495,
      "åı£": 496,
      "çľģ": 497,
      "å¸ĥ": 498,
      "æ¬¡": 499,
      "æĦ": 500,
      "é©¬": 501,
      "è®¾": 502,
      "åħ±": 503,
      "æĢ§": 504,
      "éĺŁ": 505,
      "åľº": 506,
      "éĢļ": 507,
      "ä¸ļ": 508,
      "å±±": 509,
      "å°ı": 510,
      "200": 511,
      "çĲĥ": 512,
      "ä½Ĩ": 513,
      "èĬ": 514,
      "ä½¿": 515,
      "éĵ": 516,
      "è¶": 517,
      "åįģ": 518,
      "ä¸Ģä¸ª": 519,
      "èĢħ": 520,
      "å·ŀ": 521,
      "åĮĸ": 522,
      "åħ¨": 523,
      "æĥ": 524,
      "ç³": 525,
      "æķ°": 526,
      "ç§į": 527,
      "é£": 528,
      "ç§°": 529,
      "å¤©": 530,
      "èĤ": 531,
      "ç½Ĺ": 532,
      "ç§ĳ": 533,
      "çł": 534,
      "æŁ": 535,
      "çº¿": 536,
      "çĻ": 537,
      "å¼ı": 538,
      "ç±³": 539,
      "ç«Ļ": 540,
      "éĩį": 541,
      "å®ī": 542,
      "éŁ": 543,
      "èģĶ": 544,
      "æģ": 545,
      "çĤ": 546,
      "ä¸¤": 547,
      "éĤ": 548,
      "ç³»": 549,
      "æ¯Ķ": 550,
      "æ¼": 551,
      "ç¼": 552,
      "10": 553,
      "çĪ": 554,
      "æ¡": 555,
      "ç¦": 556,
      "ç¨": 557,
      "å¢": 558,
      "æĢ»": 559,
      "éĢī": 560,
      "è¿Ĳ": 561,
      "åĬĽ": 562,
      "åİ¿": 563,
      "åħ°": 564,
      "å£«": 565,
      "çĽ¸": 566,
      "éĻ¢": 567,
      "æ¹": 568,
      "åŁº": 569,
      "åħ³": 570,
      "ä¸ŃåĽ½": 571,
      "éĥ½": 572,
      "æ²»": 573,
      "åİŁ": 574,
      "è¾¾": 575,
      "åŁİ": 576,
      "ç»Ł": 577,
      "åģ": 578,
      "æł¼": 579,
      "èµ·": 580,
      "ç»Ħ": 581,
      "æŃ£": 582,
      "æĺİ": 583,
      "é»": 584,
      "çº¦": 585,
      "åı·": 586,
      "èĭ±": 587,
      "æ°´": 588,
      "å½±": 589,
      "å°¼": 590,
      "æĪĸ": 591,
      "å±ŀ": 592,
      "åºľ": 593,
      "å¡": 594,
      "æİ¥": 595,
      "åı¸": 596,
      "è®¡": 597,
      "éĩĳ": 598,
      "çĽ®": 599,
      "é¦ĸ": 600,
      "çİĭ": 601,
      "è®®": 602,
      "æıĲ": 603,
      "åįİ": 604,
      "çĦ": 605,
      "ä»¬": 606,
      "éĺ¿": 607,
      "åĽĽ": 608,
      "ä»İ": 609,
      "åĪĹ": 610,
      "åħĥ": 611,
      "çģ": 612,
      "æ¼Ķ": 613,
      "å·´": 614,
      "ç¾İåĽ½": 615,
      "èĳ": 616,
      "00": 617,
      "å¦Ĥ": 618,
      "äº§": 619,
      "è¯Ń": 620,
      "åĢ": 621,
      "éħ": 622,
      "åıĤ": 623,
      "åı²": 624,
      "éĩı": 625,
      "åŀ": 626,
      "æĶ¹": 627,
      "å¸¸": 628,
      "å¥³": 629,
      "æ®": 630,
      "æ¶": 631,
      "éķĩ": 632,
      "åĲĳ": 633,
      "è£": 634,
      "èį": 635,
      "åĬ¡": 636,
      "æŀĹ": 637,
      "18": 638,
      "åĮħ": 639,
      "æ¸¯": 640,
      "å¨": 641,
      ").": 642,
      "æĽ¾": 643,
      "æĹł": 644,
      "èİ·": 645,
      "äººåı£": 646,
      "çĦ¶": 647,
      "äº¤": 648,
      "åĶ": 649,
      "å®ŀ": 650,
      "å¿ĥ": 651,
      "éĶ": 652,
      "åıĹ": 653,
      "éľ": 654,
      "12": 655,
      "ä½įäºİ": 656,
      "ç»´": 657,
      "æĦı": 658,
      "åİĨ": 659,
      "ç»ĵ": 660,
      "èī²": 661,
      "çķĮ": 662,
      "çº§": 663,
      "ä¹Ĳ": 664,
      "æīĭ": 665,
      "å§ĭ": 666,
      "ä¿Ŀ": 667,
      "å§Ķ": 668,
      "åĪĻ": 669,
      "ä¹ī": 670,
      "æĴ": 671,
      "å¤Ħ": 672,
      "åħļ": 673,
      "è§Ĩ": 674,
      "ä¹¦": 675,
      "ç´": 676,
      "åĽ¢": 677,
      "0å¹´": 678,
      "ç®¡": 679,
      "å½¢": 680,
      "ç¨ĭ": 681,
      "æ£": 682,
      "å¯¼": 683,
      "åĭ": 684,
      "1å¹´": 685,
      "è®¤": 686,
      "æį®": 687,
      "ç±»": 688,
      "æ²³": 689,
      "å°±": 690,
      "åį¡": 691,
      "éĹ¨": 692,
      "æ·": 693,
      "æĮĩ": 694,
      "æľĪ2": 695,
      "çĽ´": 696,
      "202": 697,
      "5å¹´": 698,
      "åįķ": 699,
      "éĴ": 700,
      "çĥ": 701,
      "è¯´": 702,
      "éŁ³": 703,
      "äºĽ": 704,
      "å¹¿": 705,
      "åŀĭ": 706,
      "å·²": 707,
      "åºĶ": 708,
      "4å¹´": 709,
      "æĺŁ": 710,
      "éĽĨ": 711,
      "ç¤º": 712,
      "å¥¥": 713,
      "æµģ": 714,
      "é¢Ĩ": 715,
      "ç¤¾": 716,
      "åł": 717,
      "ä¼ł": 718,
      "æº": 719,
      "æĮģ": 720,
      "é²": 721,
      "åĵģ": 722,
      "çĤ¹": 723,
      "èº": 724,
      "æł¡": 725,
      "æĽ´": 726,
      "2å¹´": 727,
      "å±ķ": 728,
      "å¤«": 729,
      "3å¹´": 730,
      "er": 731,
      "çĭ": 732,
      "åĽŀ": 733,
      "èĮ": 734,
      "ä¸¾": 735,
      "æĻ®": 736,
      "11": 737,
      "æ¸¸": 738,
      "ä¸ĩ": 739,
      "ç§¯": 740,
      "8å¹´": 741,
      "èº«": 742,
      "6å¹´": 743,
      "æ¢": 744,
      "ç©º": 745,
      "åıį": 746,
      "éª": 747,
      "èµĦ": 748,
      "æĶ¿åºľ": 749,
      "æĥħ": 750,
      "å®ĺ": 751,
      "ç¡": 752,
      "çºª": 753,
      "äºĶ": 754,
      "æ´»": 755,
      "è¿ĺ": 756,
      "é¾": 757,
      "åĩ»": 758,
      "an": 759,
      "æĶ¯": 760,
      "é¦Ļ": 761,
      "æłĩ": 762,
      "æĬ¥": 763,
      "æ»": 764,
      "or": 765,
      "å¸Ī": 766,
      "åĲĦ": 767,
      "æ¹¾": 768,
      "éĵģ": 769,
      "åĪ«": 770,
      "7å¹´": 771,
      "èĴ": 772,
      "éĢł": 773,
      "å¤§åŃ¦": 774,
      "çº³": 775,
      "èĻ": 776,
      "åıĸ": 777,
      "ä½¿çĶ¨": 778,
      "çĬ": 779,
      "åı¤": 780,
      "å²Ľ": 781,
      "çĸ": 782,
      "æĪĲä¸º": 783,
      "å¤ª": 784,
      "æĹ¥æľ¬": 785,
      "in": 786,
      "åī§": 787,
      "å±Ģ": 788,
      "åħ¬åı¸": 789,
      "åıĺ": 790,
      "æĭ¬": 791,
      "çı": 792,
      "æľ¯": 793,
      "åŃĹ": 794,
      "åķ": 795,
      "å¥¹": 796,
      "çĿ": 797,
      "æĹı": 798,
      "ä¸ĵ": 799,
      "åĳ½": 800,
      "åĮħæĭ¬": 801,
      "åľ°åĮº": 802,
      "éĿŀ": 803,
      "å¸¦": 804,
      "èĳĹ": 805,
      "åĽ½å®¶": 806,
      "å¼ł": 807,
      "è®º": 808,
      "è¿ĳ": 809,
      "åį³": 810,
      "å¼Ģå§ĭ": 811,
      "çłĶ": 812,
      "æľĿ": 813,
      "æ±Ł": 814,
      "åĨ³": 815,
      "ä¿¡": 816,
      "è§£": 817,
      "æ´²": 818,
      "æĽ²": 819,
      "èĬĤ": 820,
      "çĹ": 821,
      "ç¥ŀ": 822,
      "é£İ": 823,
      "on": 824,
      "çīĩ": 825,
      "å°ĳ": 826,
      "èģĮ": 827,
      "ä»¶": 828,
      "ç²": 829,
      "è¿Ľè¡Į": 830,
      "ä¼Ĭ": 831,
      "åĽ¾": 832,
      "èĦ": 833,
      "æľª": 834,
      "çĵ": 835,
      "è®°": 836,
      "åıª": 837,
      "ç¿": 838,
      "å¹³æĸ¹": 839,
      "å®ĥ": 840,
      "æľĪ1": 841,
      "æł¹": 842,
      "æĿĥ": 843,
      "æ²¡": 844,
      "çŁ³": 845,
      "éĻħ": 846,
      "ç¬¬ä¸Ģ": 847,
      "èĭı": 848,
      "æ¯ı": 849,
      "ç¼ĸ": 850,
      "è§Ĵ": 851,
      "è½¬": 852,
      "åı¯ä»¥": 853,
      "æĶ¾": 854,
      "æ³¢": 855,
      "æ¨": 856,
      "äº¬": 857,
      "ä¾ĭ": 858,
      "199": 859,
      "æĶ¶": 860,
      "æĿ¡": 861,
      "çļĦä¸Ģ": 862,
      "åĪĴ": 863,
      "è°ĥ": 864,
      "é¾Ļ": 865,
      "åħ¬éĩĮ": 866,
      "é¦Ļæ¸¯": 867,
      "åĳ¨": 868,
      "åħī": 869,
      "åķĨ": 870,
      "åĪĽ": 871,
      "æ¸ħ": 872,
      "è¿ŀ": 873,
      "åĪĿ": 874,
      "9å¹´": 875,
      "æ°Ķ": 876,
      "æŃĮ": 877,
      "ç¦»": 878,
      "æĿĳ": 879,
      "åĸ": 880,
      "æĳ": 881,
      "çīĪ": 882,
      "éĻĨ": 883,
      "éĥ¨åĪĨ": 884,
      "ç©¶": 885,
      "åĻ": 886,
      "å¾Ģ": 887,
      "äººæ°ĳ": 888,
      "å¤´": 889,
      "èİ·å¾Ĺ": 890,
      "è±": 891,
      "åŃ£": 892,
      "çŁ¥": 893,
      "ä¸ĸçķĮ": 894,
      "åıĪ": 895,
      "éĿ¢ç§¯": 896,
      "åħĪ": 897,
      "çłĶç©¶": 898,
      "åİ»": 899,
      "å¯Ĩ": 900,
      "æŀĦ": 901,
      "åŁŁ": 902,
      "æ´¾": 903,
      "ä»¤": 904,
      "æīĵ": 905,
      "ç»Ń": 906,
      "æŀľ": 907,
      "åĬŀ": 908,
      "å¼º": 909,
      "éļı": 910,
      "æŁ¥": 911,
      "å¨ģ": 912,
      "ä¸»è¦ģ": 913,
      "çĻ½": 914,
      "åĨį": 915,
      "åħµ": 916,
      "äºī": 917,
      "åº§": 918,
      "æŃ¦": 919,
      "ä»ĸä»¬": 920,
      "ç¦ı": 921,
      "å¤į": 922,
      "è§Ĥ": 923,
      "èĤ²": 924,
      "è£ħ": 925,
      "åİĨåı²": 926,
      "å®Į": 927,
      "åħŃ": 928,
      "la": 929,
      "åĻ¨": 930,
      "è®¤ä¸º": 931,
      "å¼ķ": 932,
      "é¡¹": 933,
      "æ®µ": 934,
      "æļ": 935,
      "é¢ĺ": 936,
      "è¶³": 937,
      "åı°æ¹¾": 938,
      "åĵĪ": 939,
      "æ²¡æľī": 940,
      "ä¸Ķ": 941,
      "æĿİ": 942,
      "çĳ": 943,
      "å¡Ķ": 944,
      "æľį": 945,
      "éĻ¤": 946,
      "å±ħ": 947,
      "å®£": 948,
      "æ¬§": 949,
      "15": 950,
      "æĪı": 951,
      "ç½ĳ": 952,
      "æĴŃ": 953,
      "ç»Ī": 954,
      "è§Ħ": 955,
      "æĭħ": 956,
      "åįı": 957,
      "èĲ¥": 958,
      "äº¦": 959,
      "è®¸": 960,
      "æİ¨": 961,
      "èı": 962,
      "çĵ¦": 963,
      "åľ£": 964,
      "ä»½": 965,
      "å§Ķåĳĺ": 966,
      "å¥ĸ": 967,
      "åľŁ": 968,
      "æ¡Ī": 969,
      "ç½®": 970,
      "å½ķ": 971,
      "ä¿®": 972,
      "è´¨": 973,
      "è¨": 974,
      "äº²": 975,
      "èĲ¨": 976,
      "è¨Ģ": 977,
      "çĶ·": 978,
      "åĦ": 979,
      "ar": 980,
      "æºĲ": 981,
      "ç¬¬äºĮ": 982,
      "åŃĺ": 983,
      "å¸Ŀ": 984,
      "ä»£è¡¨": 985,
      "éĹ®": 986,
      "åĭĴ": 987,
      "ä»Ĭ": 988,
      "è¯Ħ": 989,
      "åĽŃ": 990,
      "æ¥": 991,
      "en": 992,
      "åħ·": 993,
      "ç»Ļ": 994,
      "æĬ¤": 995,
      "ä¾Ľ": 996,
      "éĽ·": 997,
      "è¿ĲåĬ¨": 998,
      "é¦Ĩ": 999,
      "æŃ»": 1000,
      "æĬķ": 1001,
      "åħ«": 1002,
      "çĪ±": 1003,
      "æĶ¿æ²»": 1004,
      "çĶ±äºİ": 1005,
      "æ³ķåĽ½": 1006,
      "éĢŁ": 1007,
      "åħ¶ä»ĸ": 1008,
      "åįĥ": 1009,
      "åĩĨ": 1010,
      "å®Ĺ": 1011,
      "åį°": 1012,
      "å¢ŀ": 1013,
      "è¾ĥ": 1014,
      "è¶ħ": 1015,
      "ä¼¯": 1016,
      "å¢ĥ": 1017,
      "æ´Ľ": 1018,
      "å¸Į": 1019,
      "æ±Ĥ": 1020,
      "åĬŁ": 1021,
      "è§ģ": 1022,
      "çĶµå½±": 1023,
      "çĶ»": 1024,
      "çļĦä¸Ģä¸ª": 1025,
      "æ±ī": 1026,
      "16": 1027,
      "èĩ´": 1028,
      "(),": 1029,
      "åĿĩ": 1030,
      "åįĩ": 1031,
      "å¤ĩ": 1032,
      "åı¦": 1033,
      "è¯º": 1034,
      "åĬ©": 1035,
      "åį«": 1036,
      "å·¥ä½ľ": 1037,
      "åįļ": 1038,
      "çĮ": 1039,
      "çİĩ": 1040,
      "èİ±": 1041,
      "éĺ³": 1042,
      "åĦ¿": 1043,
      "è¾¹": 1044,
      "ä¼Ĺ": 1045,
      "å¥½": 1046,
      "èĹ": 1047,
      "é¥": 1048,
      "åĥ": 1049,
      "å®¢": 1050,
      "å®¹": 1051,
      "èĪª": 1052,
      "ä¼¦": 1053,
      "åĳĬ": 1054,
      "198": 1055,
      "æĹ©": 1056,
      "æ¨¡": 1057,
      "çª": 1058,
      "ä¹Į": 1059,
      "åĲī": 1060,
      "è¯ķ": 1061,
      "ä¿Ħ": 1062,
      "ä½ľä¸º": 1063,
      "ä»¥åıĬ": 1064,
      "æİĴ": 1065,
      "åī¯": 1066,
      "èīº": 1067,
      "æł·": 1068,
      "æµİ": 1069,
      "å¾Ī": 1070,
      "çģ«": 1071,
      "çİ¯": 1072,
      "æķħ": 1073,
      "å¡ŀ": 1074,
      "æĪĳ": 1075,
      "æĶ»": 1076,
      "åĽ½éĻħ": 1077,
      "é»Ħ": 1078,
      "çĶ°": 1079,
      "ç¾¤": 1080,
      "å·±": 1081,
      "èĬ±": 1082,
      "åı¯èĥ½": 1083,
      "æ¯į": 1084,
      "ä¹Ŀ": 1085,
      "çĪ¶": 1086,
      "æĸ½": 1087,
      "åĵį": 1088,
      "çıŃ": 1089,
      "èħ": 1090,
      "åĽ´": 1091,
      "ä¸Ńå¿ĥ": 1092,
      "è¡¨ç¤º": 1093,
      "17": 1094,
      "æĬĢ": 1095,
      "æķ´": 1096,
      "é²ģ": 1097,
      "æ²Ļ": 1098,
      "ç»§": 1099,
      "åĮ»": 1100,
      "æĭħä»»": 1101,
      "30": 1102,
      "å¤±": 1103,
      "å¸Ĥéķĩ": 1104,
      "çŃĳ": 1105,
      "èĲ½": 1106,
      "çĹħ": 1107,
      "ä¸Ńåįİ": 1108,
      "åħ´": 1109,
      "è¯ģ": 1110,
      "ç»ĩ": 1111,
      ")ãĢģ": 1112,
      "ç³»ç»Ł": 1113,
      "æ¦": 1114,
      "è´£": 1115,
      "ä¹¡": 1116,
      "å¿Ĺ": 1117,
      "å¸Ń": 1118,
      "éĩĩ": 1119,
      "éĺ²": 1120,
      "èĪ°": 1121,
      "å®¤": 1122,
      "èŃ": 1123,
      "å±Ĥ": 1124,
      "æīĺ": 1125,
      "ä¸ŃçļĦ": 1126,
      "éĿĴ": 1127,
      "çĽŁ": 1128,
      "ä¸ĥ": 1129,
      "æĦŁ": 1130,
      "èŃ¦": 1131,
      "éľĢ": 1132,
      "çĻ»": 1133,
      "åĨł": 1134,
      "æĹ¶éĹ´": 1135,
      "çĭ¬": 1136,
      "èĭ±åĽ½": 1137,
      "è´Ł": 1138,
      "åįĬ": 1139,
      "éº": 1140,
      "æ¹ĸ": 1141,
      "æ¸¸æĪı": 1142,
      "éĢļè¿ĩ": 1143,
      "å£°": 1144,
      "çĶµè§Ĩ": 1145,
      "å§Ĩ": 1146,
      "éĤ£": 1147,
      "çĻ¾": 1148,
      "éħį": 1149,
      "ç¢": 1150,
      "èĩªå·±": 1151,
      "åıĮ": 1152,
      "è½¦ç«Ļ": 1153,
      "éĻĪ": 1154,
      "æł¹æį®": 1155,
      "al": 1156,
      "åłĤ": 1157,
      "é»ĳ": 1158,
      "åıĳçİ°": 1159,
      "æĺĵ": 1160,
      "çĥŃ": 1161,
      "çļĩ": 1162,
      "åĨĻ": 1163,
      "å½ĵæĹ¶": 1164,
      "è¡ĮæĶ¿": 1165,
      "(,": 1166,
      "ç¡®": 1167,
      "çº¢": 1168,
      "çĬ¶": 1169,
      "é£ŀ": 1170,
      "åıĳå±ķ": 1171,
      "æĪĲç«ĭ": 1172,
      "æģ©": 1173,
      "ä½ķ": 1174,
      "å¤ı": 1175,
      "æľŁéĹ´": 1176,
      "æ·±": 1177,
      "ä»į": 1178,
      "èĢĥ": 1179,
      "æŀģ": 1180,
      "ä½ı": 1181,
      "åįł": 1182,
      "çħ": 1183,
      "é±": 1184,
      "åħ±åĴĮ": 1185,
      "æ£®": 1186,
      "è¡Ĺ": 1187,
      "14": 1188,
      "è¶Ĭ": 1189,
      "éĻĲ": 1190,
      "å¤®": 1191,
      "å°Ħ": 1192,
      "é¸": 1193,
      "é±¼": 1194,
      "çĶ²": 1195,
      "åĲĮæĹ¶": 1196,
      "æŃ¥": 1197,
      "at": 1198,
      "è®¾è®¡": 1199,
      "ç¤¾ä¼ļ": 1200,
      "âĢĶ": 1201,
      "é£Ł": 1202,
      "è®©": 1203,
      "å»ºçŃĳ": 1204,
      "äºİ19": 1205,
      "åĥı": 1206,
      "åŁĥ": 1207,
      "è±¡": 1208,
      "ä¹ĭä¸Ģ": 1209,
      "æĽ¼": 1210,
      "æĿĢ": 1211,
      "å¯Ł": 1212,
      "è´¹": 1213,
      "èĮĥ": 1214,
      "å±Ĭ": 1215,
      "æİ§": 1216,
      "æī¹": 1217,
      "ç¥¨": 1218,
      "ä»ħ": 1219,
      "æ½": 1220,
      "è´Ŀ": 1221,
      "æĻ¯": 1222,
      "ç»Ħç»ĩ": 1223,
      "æĸĻ": 1224,
      "æĤ": 1225,
      "åŃ¦éĻ¢": 1226,
      "å¥ĩ": 1227,
      "es": 1228,
      "ä¸įåĲĮ": 1229,
      "æ´ĭ": 1230,
      "å²ģ": 1231,
      "åıĤåĬł": 1232,
      "æµĭ": 1233,
      "çķĻ": 1234,
      "èĢģ": 1235,
      "ä¸Ńå¤®": 1236,
      "å§Ķåĳĺä¼ļ": 1237,
      "è¿ª": 1238,
      "åĨľ": 1239,
      "æ¥¼": 1240,
      "æĸĩåĮĸ": 1241,
      "ä½İ": 1242,
      "æŃ¢": 1243,
      "ä¸ĸçºª": 1244,
      "å·Ŀ": 1245,
      "å½±åĵį": 1246,
      "æ¯ĶèµĽ": 1247,
      "èĥľ": 1248,
      "éĿ©": 1249,
      "è¯į": 1250,
      "åĵ¥": 1251,
      "ç§°ä¸º": 1252,
      "å¾ĭ": 1253,
      "çīĮ": 1254,
      "é¡¿": 1255,
      "æĥ³": 1256,
      "å±ŀäºİ": 1257,
      "æİĪ": 1258,
      "for": 1259,
      "æķĪ": 1260,
      "13": 1261,
      "åĺ": 1262,
      "æ³°": 1263,
      "è¾ĸ": 1264,
      "ä¾¿": 1265,
      "å¹³æĸ¹åħ¬éĩĮ": 1266,
      "æ¤": 1267,
      "æľ¨": 1268,
      "éĻį": 1269,
      "åĩł": 1270,
      "ç§»": 1271,
      "è¿°": 1272,
      "çľŁ": 1273,
      "ic": 1274,
      "æħ": 1275,
      "åģľ": 1276,
      "æīį": 1277,
      "æ°ı": 1278,
      "éĵ¶": 1279,
      "æ¡¥": 1280,
      "()": 1281,
      "èĴĻ": 1282,
      "æĪ¿": 1283,
      "å¿µ": 1284,
      "æĺ¾": 1285,
      "éŁ³ä¹Ĳ": 1286,
      "æī¿": 1287,
      "æĢģ": 1288,
      "çĿĢ": 1289,
      "è´¥": 1290,
      "âĢĿ.": 1291,
      "å©": 1292,
      "ç´¢": 1293,
      "æ¾": 1294,
      "åħ±åĴĮåĽ½": 1295,
      "åºķ": 1296,
      "åº·": 1297,
      "åºĵ": 1298,
      "é¢Ħ": 1299,
      "ä¸»ä¹ī": 1300,
      "éŃ": 1301,
      "mu": 1302,
      "åŃ¦æł¡": 1303,
      "å¾ģ": 1304,
      "ç´ł": 1305,
      "æ´»åĬ¨": 1306,
      "çīĻ": 1307,
      "è¾ĳ": 1308,
      "çľĭ": 1309,
      "å¼¹": 1310,
      "åĶ±": 1311,
      "åħ¸": 1312,
      "ä½ľåĵģ": 1313,
      "æŃ£å¼ı": 1314,
      "æ¶Ī": 1315,
      "æıĲä¾Ľ": 1316,
      "åĪ©äºļ": 1317,
      "ç®Ģ": 1318,
      "è®¡åĪĴ": 1319,
      "åĩºçİ°": 1320,
      "ç½Ĺæĸ¯": 1321,
      "è½½": 1322,
      "ä¹ł": 1323,
      "ä»ĸçļĦ": 1324,
      "æīĢæľī": 1325,
      "æģ¯": 1326,
      "ä»·": 1327,
      "å³": 1328,
      "ä¹ĭéĹ´": 1329,
      "éĻĦ": 1330,
      "ç»ıæµİ": 1331,
      "ç®¡çĲĨ": 1332,
      "åıĳçĶŁ": 1333,
      "æľĢç»Ī": 1334,
      "éĵģè·¯": 1335,
      "çłģ": 1336,
      "ãĢį.": 1337,
      "çĳŀ": 1338,
      "æī§": 1339,
      "æĹ¶æľŁ": 1340,
      "è¿ľ": 1341,
      "is": 1342,
      "åĿ¦": 1343,
      "æĪ·": 1344,
      "ä¸Ģç§į": 1345,
      "å¹²": 1346,
      "åıĭ": 1347,
      "åŁİå¸Ĥ": 1348,
      "åĨµ": 1349,
      "ç®Ĺ": 1350,
      "ä¾§": 1351,
      "æķĻèĤ²": 1352,
      "ç¥ĸ": 1353,
      "éĢĢ": 1354,
      "éŁ©": 1355,
      "å®Ī": 1356,
      "æ»¡": 1357,
      "åĲİæĿ¥": 1358,
      "äºĳ": 1359,
      "æ³¨": 1360,
      "èĪ¹": 1361,
      "mula": 1362,
      "å½ĵåľ°": 1363,
      "è¯·": 1364,
      "è¯Ŀ": 1365,
      "æ¸©": 1366,
      "éĤ¦": 1367,
      "formula": 1368,
      "åĢĻ": 1369,
      "ä½Ļ": 1370,
      "ä½Ľ": 1371,
      "æĲ": 1372,
      "æĬĬ": 1373,
      "ç«ł": 1374,
      "ä¸ģ": 1375,
      "ç²¾": 1376,
      "it": 1377,
      "æĬĹ": 1378,
      "å®ģ": 1379,
      "çĽĳ": 1380,
      "197": 1381,
      "åĪ¶ä½ľ": 1382,
      "åł¡": 1383,
      "194": 1384,
      "20å¹´": 1385,
      "æľĽ": 1386,
      "am": 1387,
      "æĹ§": 1388,
      "è´Łè´£": 1389,
      "å¾·åĽ½": 1390,
      "å·¦": 1391,
      "æĪĲåĳĺ": 1392,
      "ä¸ĬçļĦ": 1393,
      "æĭ¿": 1394,
      "éĹ®é¢ĺ": 1395,
      "æľĹ": 1396,
      "éªĮ": 1397,
      "he": 1398,
      "åĬ¿": 1399,
      "è¿Ľåħ¥": 1400,
      "æĢĿ": 1401,
      "ä¸´": 1402,
      "è®¸å¤ļ": 1403,
      "åĪĺ": 1404,
      "å´": 1405,
      "çªģ": 1406,
      "é¹": 1407,
      "çł´": 1408,
      "å¿«": 1409,
      "å®«": 1410,
      "æĹħ": 1411,
      "ä¾Ŀ": 1412,
      "åİĭ": 1413,
      "åºĦ": 1414,
      "ç¬¬ä¸ī": 1415,
      "åĲįä¸º": 1416,
      "èİ«": 1417,
      "æľĢåĲİ": 1418,
      "ä¼¼": 1419,
      "æĪĺäºī": 1420,
      "å¯Į": 1421,
      "ä¸ĢäºĽ": 1422,
      "æ¢ħ": 1423,
      "çĿ£": 1424,
      "åĢ¼": 1425,
      "åģļ": 1426,
      "åħ¨åĽ½": 1427,
      "æĶ¯æĮģ": 1428,
      "å°ģ": 1429,
      "èĹı": 1430,
      "æ°¸": 1431,
      "åĲ«": 1432,
      "å»¶": 1433,
      "æĸĹ": 1434,
      "èĴĤ": 1435,
      "50": 1436,
      "æĭĶ": 1437,
      "çĶŁæ´»": 1438,
      "åĽłä¸º": 1439,
      "åİħ": 1440,
      "ä¹ĭåĲİ": 1441,
      "åį¢": 1442,
      "äººçļĦ": 1443,
      "çħ§": 1444,
      "äº¡": 1445,
      "æľįåĬ¡": 1446,
      "å¼Ĺ": 1447,
      "éļ¾": 1448,
      "le": 1449,
      "åİĤ": 1450,
      "ç»Ĩ": 1451,
      "æ¾³": 1452,
      "åĪ¤": 1453,
      "æĵ": 1454,
      "æł¸": 1455,
      "æŀ¶": 1456,
      "ä¸¹": 1457,
      "å¤§çļĦ": 1458,
      "éģĹ": 1459,
      "ä¼¤": 1460,
      "å°¼äºļ": 1461,
      "å®£å¸ĥ": 1462,
      "çļ®": 1463,
      "èĻ½": 1464,
      "å½Ĵ": 1465,
      "åį°åº¦": 1466,
      "åı³": 1467,
      "ä¿Ħç½Ĺæĸ¯": 1468,
      "å·²ç»ı": 1469,
      "è¯Ĩ": 1470,
      "åºĨ": 1471,
      "åıĤä¸İ": 1472,
      "åľ°æĸ¹": 1473,
      "ä¸¾è¡Į": 1474,
      "æĸŃ": 1475,
      "åħ³ç³»": 1476,
      "åıĳè¡Į": 1477,
      "éĹ»": 1478,
      "196": 1479,
      "çĨ": 1480,
      "è½®": 1481,
      "é½": 1482,
      "åı¶": 1483,
      "ä¸½": 1484,
      "æĿ°": 1485,
      "åºĹ": 1486,
      "æĸ¹éĿ¢": 1487,
      "ç¤¼": 1488,
      "åĶĲ": 1489,
      "åĨ³å®ļ": 1490,
      "å·¥ç¨ĭ": 1491,
      "ï¼": 1492,
      "éĩįè¦ģ": 1493,
      "èĽ": 1494,
      "è¶³çĲĥ": 1495,
      "ro": 1496,
      "åĮĹäº¬": 1497,
      "åĪĩ": 1498,
      "ä¸¤ä¸ª": 1499,
      "ä¼ĺ": 1500,
      "çŃĸ": 1501,
      "ä¸¥": 1502,
      "ä¸Ĭæµ·": 1503,
      "åºŃ": 1504,
      "èµ°": 1505,
      "ãĢį,": 1506,
      "å¿ħ": 1507,
      "è¯»": 1508,
      "æĭ¥": 1509,
      "ç»Ŀ": 1510,
      "éģŃ": 1511,
      "0å¹´ä»£": 1512,
      "å°ļ": 1513,
      "èģĶåĲĪ": 1514,
      "äººçī©": 1515,
      "å¼Ĥ": 1516,
      "re": 1517,
      "åĺī": 1518,
      "éĥ¡": 1519,
      "äºĭä»¶": 1520,
      "ç»ĥ": 1521,
      "æį¢": 1522,
      "åĮĹéĥ¨": 1523,
      "åĨłåĨĽ": 1524,
      "é©»": 1525,
      "å½¹": 1526,
      "èµ«": 1527,
      "åŃ¦å®¶": 1528,
      "èĬĤçĽ®": 1529,
      "æ¤į": 1530,
      "å²¸": 1531,
      "éº¦": 1532,
      "éĩİ": 1533,
      "åŃ¦çĶŁ": 1534,
      "å¼Ł": 1535,
      "ä¼ļè®®": 1536,
      "195": 1537,
      "æ²¹": 1538,
      "äººæ°ĳåħ±åĴĮåĽ½": 1539,
      "æĬĢæľ¯": 1540,
      "éĢĲ": 1541,
      "åĶ®": 1542,
      "èĥĮ": 1543,
      "æ¯ķ": 1544,
      "æĿ¾": 1545,
      "åĪ°äºĨ": 1546,
      "åĬłåħ¥": 1547,
      "é³": 1548,
      "å¯º": 1549,
      "000": 1550,
      "èī¾": 1551,
      "èĵ": 1552,
      "åį´": 1553,
      "ä¿ĿæĬ¤": 1554,
      "el": 1555,
      "åĪĹè½¦": 1556,
      "ä¹ħ": 1557,
      "æĢ»ç»Ł": 1558,
      "æ¬§æ´²": 1559,
      "ç½²": 1560,
      "2019": 1561,
      "èı²": 1562,
      "éļĨ": 1563,
      "è®¾æľī": 1564,
      "æĻļ": 1565,
      "é¼": 1566,
      "å¹³æĸ¹åįĥ": 1567,
      "èĪ¬": 1568,
      "st": 1569,
      "åª": 1570,
      "åĪĨåĪ«": 1571,
      "æĿ¥èĩª": 1572,
      "ç«¯": 1573,
      "2020å¹´": 1574,
      "çĽ®åīį": 1575,
      "ç¯": 1576,
      "æĺ¥": 1577,
      "çŁŃ": 1578,
      "éĢģ": 1579,
      "åħ¹": 1580,
      "åĪĨå¸ĥ": 1581,
      "åħĭåħ°": 1582,
      "éľĢè¦ģ": 1583,
      "ç³»åĪĹ": 1584,
      "ä¹ĺ": 1585,
      "ä½³": 1586,
      "å°½": 1587,
      "æĿŁ": 1588,
      "å®Ŀ": 1589,
      "å®ĮæĪĲ": 1590,
      "ä¸Ńåįİäººæ°ĳåħ±åĴĮåĽ½": 1591,
      "éĢļå¸¸": 1592,
      "é¡º": 1593,
      "æ°ĳåĽ½": 1594,
      "ä»Ģ": 1595,
      "åĲĮå¹´": 1596,
      "æ²¿": 1597,
      "æľ«": 1598,
      "æĹĹ": 1599,
      "å»ºç«ĭ": 1600,
      "åĲ¯": 1601,
      "èįī": 1602,
      "åįĹéĥ¨": 1603,
      "åºı": 1604,
      "åŃĺåľ¨": 1605,
      "éĺ¶": 1606,
      "éĺµ": 1607,
      "èį¯": 1608,
      "å¯¼èĩ´": 1609,
      "èĢ¶": 1610,
      "éĽĦ": 1611,
      "éħĴ": 1612,
      "æļ´": 1613,
      "æĸ¯çī¹": 1614,
      "æ¯Ľ": 1615,
      "æĪĲåĬŁ": 1616,
      "ion": 1617,
      "æ³½": 1618,
      "åħ¼": 1619,
      "é¢ĳ": 1620,
      "äºİ201": 1621,
      "åħ±æľī": 1622,
      "åĨ²": 1623,
      "è½»": 1624,
      "è¦ģæ±Ĥ": 1625,
      "æĳĦ": 1626,
      "çĭ¬ç«ĭ": 1627,
      "è·Ŀ": 1628,
      "çĦ¶èĢĮ": 1629,
      "25": 1630,
      "ç»ĦæĪĲ": 1631,
      "ä¾ĭå¦Ĥ": 1632,
      "æĳ©": 1633,
      "è¿ĻäºĽ": 1634,
      "æľĢé«ĺ": 1635,
      "éĶĢ": 1636,
      "æ¬¾": 1637,
      "è¿Ļä¸ª": 1638,
      "è¾ĵ": 1639,
      "åįķä½į": 1640,
      "èĻ½çĦ¶": 1641,
      "æµ·æĭĶ": 1642,
      "12æľĪ": 1643,
      "å¼Ģåıĳ": 1644,
      "æĭ¥æľī": 1645,
      "å¸ķ": 1646,
      "èĩªçĶ±": 1647,
      "ãĢĭ(": 1648,
      "ãĢĭãĢģ": 1649,
      "çģµ": 1650,
      "åŃĻ": 1651,
      "ä¸ĵè¾ĳ": 1652,
      "æĺ¯åľ¨": 1653,
      "çŃ¾": 1654,
      "åªĴ": 1655,
      "çĽ¸åħ³": 1656,
      "ä¹Įåħĭåħ°": 1657,
      "ç±į": 1658,
      "å©ļ": 1659,
      "çİĽ": 1660,
      "æĥħåĨµ": 1661,
      "çĶ¨äºİ": 1662,
      "ç½ª": 1663,
      "193": 1664,
      "é¡»": 1665,
      "èīºæľ¯": 1666,
      "æĺ¯ä¸Ģ": 1667,
      "æĿĤ": 1668,
      "äººåĳĺ": 1669,
      "çº½": 1670,
      "é¥°": 1671,
      "æ£Ģ": 1672,
      "éĽħ": 1673,
      "et": 1674,
      "é¡¶": 1675,
      "çĲĥéĺŁ": 1676,
      "âĢĿ,": 1677,
      "éĢīä¸¾": 1678,
      "å¯Ĩåº¦": 1679,
      "æĿ¨": 1680,
      "èģĶçĽŁ": 1681,
      "éĩĩçĶ¨": 1682,
      "æŀª": 1683,
      "il": 1684,
      "åĤ": 1685,
      "æıĲåĩº": 1686,
      "24": 1687,
      "ä»ĭ": 1688,
      "äºĨä¸Ģ": 1689,
      "åīįå¾Ģ": 1690,
      "åĬ³": 1691,
      "ç§Ģ": 1692,
      "åħį": 1693,
      "ou": 1694,
      "7æľĪ": 1695,
      "çķ¥": 1696,
      "åıĹåĪ°": 1697,
      "æ²ĥ": 1698,
      "å·®": 1699,
      "æĭį": 1700,
      "éĢı": 1701,
      "è¿½": 1702,
      "å®³": 1703,
      "äº¿": 1704,
      "æ¿": 1705,
      "ãĢĭ,": 1706,
      "å·¡": 1707,
      "ol": 1708,
      "æĸ¹å¼ı": 1709,
      "9æľĪ": 1710,
      "çĽĸ": 1711,
      "åĩı": 1712,
      "èĭ¥": 1713,
      "è§Ĵèī²": 1714,
      "è´¢": 1715,
      "ä¸ºäºĨ": 1716,
      "10æľĪ": 1717,
      "éĴŁ": 1718,
      "è¢Ń": 1719,
      "8æľĪ": 1720,
      "è¿ģ": 1721,
      "éĩĬ": 1722,
      "åĽ½æ°ĳ": 1723,
      "äºĮåįģ": 1724,
      "æĿ¿": 1725,
      "èī¯": 1726,
      "ac": 1727,
      "å°¾": 1728,
      "åĲ´": 1729,
      "å¤§éĻĨ": 1730,
      "è®Ń": 1731,
      "èŀ": 1732,
      "åħ·æľī": 1733,
      "èį£": 1734,
      "æĿ¯": 1735,
      "åĲĪä½ľ": 1736,
      "3æľĪ": 1737,
      "è°·": 1738,
      "çĪĨ": 1739,
      "éħ¸": 1740,
      "äº¤éĢļ": 1741,
      "æķ£": 1742,
      "æı´": 1743,
      "æłĳ": 1744,
      "æŃĮæĽ²": 1745,
      "åĩºçīĪ": 1746,
      "éĽĨåĽ¢": 1747,
      "èģĶèµĽ": 1748,
      "äº§çĶŁ": 1749,
      "ç£": 1750,
      "æĺł": 1751,
      "çļĦå¤§": 1752,
      "é¦ĸæ¬¡": 1753,
      "å®ĭ": 1754,
      "ä¼ģ": 1755,
      "è¯ĳ": 1756,
      "è´Ń": 1757,
      "äºĪ": 1758,
      "æķ°æį®": 1759,
      "åĸĦ": 1760,
      "±ä¹Ĳ": 1761,
      "å¾®": 1762,
      "é»İ": 1763,
      "æ´¥": 1764,
      "åħ¶ä¸Ń": 1765,
      "èĤ¡": 1766,
      "å°º": 1767,
      "è¡¥": 1768,
      "çī¹åĪ«": 1769,
      "æ¯ķä¸ļ": 1770,
      "è®¿": 1771,
      "å±ĭ": 1772,
      "ç»§ç»Ń": 1773,
      "å®¡": 1774,
      "è´µ": 1775,
      "äºĴ": 1776,
      "è¡Ģ": 1777,
      "é«ĺåº¦": 1778,
      "é¡¹çĽ®": 1779,
      "ç»ĵæĿŁ": 1780,
      "6æľĪ": 1781,
      "æĻĭ": 1782,
      "è½¨": 1783,
      "çĶŁäº§": 1784,
      "çĥĪ": 1785,
      "åģĩ": 1786,
      "åĽłæŃ¤": 1787,
      "è®¯": 1788,
      "éŁ¦": 1789,
      "ãĥ": 1790,
      "ãĢĭãĢģãĢĬ": 1791,
      "åħ»": 1792,
      "éĻ©": 1793,
      "ç»ĵæŀĦ": 1794,
      "èĩ£": 1795,
      "5æľĪ": 1796,
      "å¸ĿåĽ½": 1797,
      "é¢Ŀ": 1798,
      "æıı": 1799,
      "æī©": 1800,
      "23": 1801,
      "éĥ¨éĺŁ": 1802,
      "è¥¿äºļ": 1803,
      "ä¸ªäºº": 1804,
      "è¯Ńè¨Ģ": 1805,
      "æķĳ": 1806,
      "äººåı£å¯Ĩåº¦": 1807,
      "æ¯Ĵ": 1808,
      "æİ§åĪ¶": 1809,
      "é²ľ": 1810,
      "å¯¹äºİ": 1811,
      "åĸľ": 1812,
      "ç§ĳåŃ¦": 1813,
      "æİ¥åıĹ": 1814,
      "å½¢æĪĲ": 1815,
      "ç«ŀ": 1816,
      "1æľĪ": 1817,
      "åıĸå¾Ĺ": 1818,
      "ä»»ä½ķ": 1819,
      "æĹ¶ä»£": 1820,
      "æµ·åĨĽ": 1821,
      "è¡ĮåĬ¨": 1822,
      "ä¸»å¸Ń": 1823,
      "åĮºåŁŁ": 1824,
      "æĮ¥": 1825,
      "å³°": 1826,
      "éĿ¢ç§¯ä¸º": 1827,
      "æķħäºĭ": 1828,
      "å¤º": 1829,
      "æĿľ": 1830,
      "æ°ĳä¸»": 1831,
      "èĪŀ": 1832,
      "æ¦Ĥ": 1833,
      "éĶ¦": 1834,
      "è¯Ĺ": 1835,
      "åĩºçĶŁ": 1836,
      "æĹłæ³ķ": 1837,
      "è®²": 1838,
      "4æľĪ": 1839,
      "éĢĤ": 1840,
      "11æľĪ": 1841,
      "éĢĶ": 1842,
      "çļĦæĺ¯": 1843,
      "ä¹Łæĺ¯": 1844,
      "æĭľ": 1845,
      "ä¸°": 1846,
      "æľºæŀĦ": 1847,
      "çİ©": 1848,
      "çĶļ": 1849,
      "å¢ŀåĬł": 1850,
      "åĮºçļĦ": 1851,
      "éĢłæĪĲ": 1852,
      "40": 1853,
      "2019å¹´": 1854,
      "æľ±": 1855,
      "å¸ģ": 1856,
      "çĸĹ": 1857,
      "é½Ĳ": 1858,
      "æ¢ģ": 1859,
      "èį·": 1860,
      "è¾Ĩ": 1861,
      "éĻĦè¿ĳ": 1862,
      "ä¸»æķĻ": 1863,
      "è¶ħè¿ĩ": 1864,
      "çļĦäºº": 1865,
      "ç§ĺ": 1866,
      "å»·": 1867,
      "é¢Ĩå¯¼": 1868,
      "æĮī": 1869,
      "ä¼łç»Ł": 1870,
      "ç»ĵæŀľ": 1871,
      "ç½Ĺé©¬": 1872,
      "å¾Ħ": 1873,
      "ä»¥ä¸ĭ": 1874,
      "çĩ": 1875,
      "å®¾": 1876,
      "éļ¶": 1877,
      "2021å¹´": 1878,
      "ç¦ģ": 1879,
      "æĴ¤": 1880,
      "ä¸Ńåħ±": 1881,
      "åĿĢ": 1882,
      "æĿĲ": 1883,
      "åįĪ": 1884,
      "ing": 1885,
      "è´§": 1886,
      "åĩ¯": 1887,
      "åĬ¨çī©": 1888,
      "æ¸Ĳ": 1889,
      "çĬ¯": 1890,
      "èĥ¡": 1891,
      "2022å¹´": 1892,
      "as": 1893,
      "åĨĽäºĭ": 1894,
      "21": 1895,
      "ç«¥": 1896,
      "æķ¦": 1897,
      "èĪªç©º": 1898,
      "åľĨ": 1899,
      "ä½©": 1900,
      "çĽĬ": 1901,
      "çļĦæĹ¶": 1902,
      "ä»ª": 1903,
      "å¤Ł": 1904,
      "æłĩåĩĨ": 1905,
      "om": 1906,
      "åıĳå¸ĥ": 1907,
      "5æĹ¥": 1908,
      "èģļ": 1909,
      "è°¢": 1910,
      "100": 1911,
      "æĸ°éĹ»": 1912,
      "60": 1913,
      "éª¨": 1914,
      "æ··": 1915,
      "çĮ®": 1916,
      "çĽĽ": 1917,
      "åĨħçļĦ": 1918,
      "è¿Ķ": 1919,
      "åıªæľī": 1920,
      "ãĢĭ.": 1921,
      "ä»ģ": 1922,
      "éĥİ": 1923,
      "çīĽ": 1924,
      "çļĨ": 1925,
      "æķ°éĩı": 1926,
      "æŁĲ": 1927,
      "è®¨": 1928,
      "å°±æĺ¯": 1929,
      "ç¿°": 1930,
      "åĪĳ": 1931,
      "ç©Ĩ": 1932,
      "çĤ¸": 1933,
      "æįķ": 1934,
      "éĺ¿å°Ķ": 1935,
      "å¨ľ": 1936,
      "éĿ©åĳ½": 1937,
      "èĮĥåĽ´": 1938,
      "äºİ200": 1939,
      "ch": 1940,
      "å¤§åĪ©": 1941,
      "å¸®": 1942,
      "åªĴä½ĵ": 1943,
      "ed": 1944,
      "éĻ¤äºĨ": 1945,
      "å®½": 1946,
      "å¾ĹåĪ°": 1947,
      "æľºåľº": 1948,
      "å¥³æĢ§": 1949,
      "èĮ¨": 1950,
      "å®īåħ¨": 1951,
      "è°ĥæŁ¥": 1952,
      "è¿ĩç¨ĭ": 1953,
      "è§ī": 1954,
      "æİ¢": 1955,
      "ä¹ĭåīį": 1956,
      "æł¼åħ°": 1957,
      "ç»ıè¿ĩ": 1958,
      "çĤ®": 1959,
      "æĻº": 1960,
      "åºĻ": 1961,
      "åĨħå®¹": 1962,
      "åħ¬åĽŃ": 1963,
      "çĪ¶äº²": 1964,
      "å¹ķ": 1965,
      "æĪª": 1966,
      "åĲ¦": 1967,
      "éģĩ": 1968,
      "å¤ľ": 1969,
      ":âĢľ": 1970,
      "(,),": 1971,
      "éŁ©åĽ½": 1972,
      "çĶ·åŃĲ": 1973,
      "ä¹Ķ": 1974,
      "åįģäºĮ": 1975,
      "éľį": 1976,
      "èµŀ": 1977,
      "åħħ": 1978,
      "èĶ": 1979,
      "æĭ©": 1980,
      "22": 1981,
      "è½¯": 1982,
      "éĩįæĸ°": 1983,
      "å¥³åŃĲ": 1984,
      "å¹³æĸ¹åįĥç±³": 1985,
      "åĪ»": 1986,
      "æīĢä»¥": 1987,
      "éľ²": 1988,
      "èµĽäºĭ": 1989,
      "æĽ¿": 1990,
      "7æĹ¥": 1991,
      "ä¼ĳ": 1992,
      "å°¤": 1993,
      "ç§ģ": 1994,
      "åĪº": 1995,
      "ä½įç½®": 1996,
      "å¹³åĿĩ": 1997,
      "èĸ": 1998,
      "å«": 1999,
      "èĩªå·±çļĦ": 2000,
      "çİī": 2001,
      "è¿ĲåĬ¨åĳĺ": 2002,
      "æŁĵ": 2003,
      "çºªå¿µ": 2004,
      "å±ħæ°ĳ": 2005,
      "6æĹ¥": 2006,
      "2010å¹´": 2007,
      "ä¸ĢèĪ¬": 2008,
      "é¸Ł": 2009,
      "åĪĽä½ľ": 2010,
      "åıĳè¡¨": 2011,
      "åºŁ": 2012,
      "ä¸ĢåĲį": 2013,
      "ç¼º": 2014,
      "éĿł": 2015,
      "us": 2016,
      "ä¸Ŀ": 2017,
      "ãģ": 2018,
      "éĴĪ": 2019,
      "æķĮ": 2020,
      "åĢŁ": 2021,
      "æĺĮ": 2022,
      "çİ°ä»£": 2023,
      "è®¾ç«ĭ": 2024,
      "ç»©": 2025,
      "è¯ī": 2026,
      "æºª": 2027,
      "æĬµ": 2028,
      "éĤ®": 2029,
      "æľīéĻĲ": 2030,
      "èģĶéĤ¦": 2031,
      "åĲĽ": 2032,
      "å·¨": 2033,
      "èľ": 2034,
      "åĲ¸": 2035,
      "å®ĩ": 2036,
      "è¥¿çıŃ": 2037,
      "è·Ł": 2038,
      "çĪµ": 2039,
      "ä¹±": 2040,
      "å±ŀçļĦ": 2041,
      "èĵĿ": 2042,
      "è¥¿çıŃçīĻ": 2043,
      "éªĳ": 2044,
      "å¾¡": 2045,
      "28": 2046,
      "å®ª": 2047,
      "æĹ¶çļĦ": 2048,
      "31": 2049,
      "çľ¼": 2050,
      "è®®ä¼ļ": 2051,
      "åıįå¯¹": 2052,
      "æ¼Ķåĳĺ": 2053,
      "æ¤įçī©": 2054,
      "ä¸ĢçĽ´": 2055,
      "åĿ¡": 2056,
      "æ®¿": 2057,
      "åħ±äº§": 2058,
      "æķĻæİĪ": 2059,
      "æįŁ": 2060,
      "å¾Ĵ": 2061,
      "éĽª": 2062,
      "æĿ¥çļĦ": 2063,
      "å·¥ä¸ļ": 2064,
      "åĽº": 2065,
      "æ°ĳæĹı": 2066,
      "è¯¸": 2067,
      "ä¾µ": 2068,
      "åĪĬ": 2069,
      "çīĪæľ¬": 2070,
      "åĮ¹": 2071,
      "æľīåħ³": 2072,
      "ç¬¬åĽĽ": 2073,
      "éĢĥ": 2074,
      "åħ¬è·¯": 2075,
      "çĽ´æİ¥": 2076,
      "çİ°åľ¨": 2077,
      "éļĶ": 2078,
      "2023å¹´": 2079,
      "èª": 2080,
      "å»ºè®¾": 2081,
      "4æĹ¥": 2082,
      "èģĮä¸ļ": 2083,
      "æī¾": 2084,
      "çİ¯å¢ĥ": 2085,
      "è°ĭ": 2086,
      "ä¸¾åĬŀ": 2087,
      "èĦĳ": 2088,
      "æ¶¯": 2089,
      "éļıåĲİ": 2090,
      "ä¸ŃåŃ¦": 2091,
      "3æĹ¥": 2092,
      "ä¹İ": 2093,
      "éĢīæĭ©": 2094,
      "åĨĽéĺŁ": 2095,
      "çĹĩ": 2096,
      "è¿ĺæľī": 2097,
      "éĿŀå¸¸": 2098,
      "ç¿»": 2099,
      "æ¬¢": 2100,
      "èĭıèģĶ": 2101,
      "åıįåºĶ": 2102,
      "ç¼ĸçłģ": 2103,
      "ä½ł": 2104,
      "çĶ³": 2105,
      "åħ¬å¼Ģ": 2106,
      "de": 2107,
      "ä½ĵèĤ²": 2108,
      "å£¤": 2109,
      "éĥĳ": 2110,
      "å²©": 2111,
      "éĵ¶è¡Į": 2112,
      "æ¦ľ": 2113,
      "è£ģ": 2114,
      "èµĦæĸĻ": 2115,
      "åħ±åĲĮ": 2116,
      "æ±ĩ": 2117,
      "å½¢å¼ı": 2118,
      "åĨ³èµĽ": 2119,
      "ç©¿": 2120,
      "æĪĺæĸĹ": 2121,
      "è¡ĮæĺŁ": 2122,
      "åħĦ": 2123,
      "åı¬": 2124,
      "éĥ½æĺ¯": 2125,
      "åĨ°": 2126,
      "æĺ¾ç¤º": 2127,
      "éĤ»": 2128,
      "æ¼«": 2129,
      "åįıä¼ļ": 2130,
      "2æľĪ": 2131,
      "æĢ¥": 2132,
      "æ¿Ģ": 2133,
      "åĲįç§°": 2134,
      ".âĢĿ": 2135,
      "è·Ŀç¦»": 2136,
      "27": 2137,
      "of": 2138,
      "å¥ī": 2139,
      "æĸ¹æ³ķ": 2140,
      "ç»ľ": 2141,
      "éķľ": 2142,
      "æĪĪ": 2143,
      "åŁ¹": 2144,
      "un": 2145,
      "åĶ¯": 2146,
      "æİ¨åĩº": 2147,
      "Ġåľ¨": 2148,
      "Ġ201": 2149,
      "eĠ": 2150,
      "ĠS": 2151,
      "Ġ200": 2152,
      "ĠC": 2153,
      "ĠM": 2154,
      "ĠçĶŁ": 2155,
      "ĠA": 2156,
      "æľĪ1æĹ¥": 2157,
      "ĠåİĨåı²": 2158,
      "ĠçĶŁå¹³": 2159,
      "å¹¶ä¸Ķ": 2160,
      "ĠP": 2161,
      "ä»ĸåľ¨": 2162,
      "8æĹ¥": 2163,
      "Ġt": 2164,
      "è¿Ļç§į": 2165,
      "192": 2166,
      "è¿Ļä¸Ģ": 2167,
      "å¹¶åľ¨": 2168,
      "ĠB": 2169,
      "lt": 2170,
      "æŃ¤å¤ĸ": 2171,
      "ä½Ĩæĺ¯": 2172,
      "åľ°çĲĨ": 2173,
      "zh": 2174,
      "ĠT": 2175,
      "9æĹ¥": 2176,
      "æĺ¯ä¸Ģä¸ª": 2177,
      "gt": 2178,
      "ä¸įè¿ĩ": 2179,
      "aĠ": 2180,
      "åı¦å¤ĸ": 2181,
      "æĺ¯ä½įäºİ": 2182,
      "sĠ": 2183,
      "å°ıæĹ¶": 2184,
      "yĠ": 2185,
      "å¦Ĥæŀľ": 2186,
      "dĠ": 2187,
      "è¡Įä¸º": 2188,
      "åĮºä¸º": 2189,
      "åħĭæĸ¯": 2190,
      "åĲįçļĦ": 2191,
      "ä¹Łæľī": 2192,
      "è¯¥åľ°": 2193,
      "tĠ": 2194,
      "2024å¹´": 2195,
      "è¿Ļæĺ¯": 2196,
      "ä¸īå¹´": 2197,
      "190": 2198,
      "å¤§éĩı": 2199,
      "æĶ¹ä¸º": 2200,
      "Ġ199": 2201,
      "ä¸Ģèµ·": 2202,
      "Ġåľ°çĲĨ": 2203,
      "è¯¾": 2204,
      "å°ıè¯´": 2205,
      "ç¬¦": 2206,
      "èĥŀ": 2207,
      "åĪ©çĶ¨": 2208,
      "å¤ļæķ°": 2209,
      "åĲ¬": 2210,
      "éĥ¨éķ¿": 2211,
      "æľīä¸Ģ": 2212,
      "æ¯ģ": 2213,
      "è®®åĳĺ": 2214,
      "èĬ¬": 2215,
      "è¿«": 2216,
      "ç¾İåħĥ": 2217,
      "ä¹¦è®°": 2218,
      "ä¼ģä¸ļ": 2219,
      "è®¢": 2220,
      "è°Ī": 2221,
      "æĸ°çļĦ": 2222,
      "åĳ¼": 2223,
      "é»ĺ": 2224,
      "åĮħåĲ«": 2225,
      "èĩªæ²»": 2226,
      "ä¸įæĺ¯": 2227,
      "å¾ħ": 2228,
      "æ³ķå¾ĭ": 2229,
      "éĽ¨": 2230,
      "éĨ": 2231,
      "ç®¡è¾ĸ": 2232,
      "æĮĩæĮ¥": 2233,
      "åĳĪ": 2234,
      "èĤ¯": 2235,
      "å°Ķæĸ¯": 2236,
      "åģ¥": 2237,
      "å®Įåħ¨": 2238,
      "ä¸»ä»»": 2239,
      "æĢĢ": 2240,
      "èĢ³": 2241,
      "åĪĨä¸º": 2242,
      "åı°åĮĹ": 2243,
      "ä¸Ńåįİæ°ĳåĽ½": 2244,
      "Ġæľ¬": 2245,
      "ï¼į": 2246,
      "çĸĳ": 2247,
      "æ³Ľ": 2248,
      "å®¶åºŃ": 2249,
      "èµµ": 2250,
      "åĿļ": 2251,
      "æĺ¯çĶ±": 2252,
      "ä¸ľåĮĹ": 2253,
      "æ³ķéĻ¢": 2254,
      "çĽ´åĪ°": 2255,
      "äººç±»": 2256,
      "å¤ĦçĲĨ": 2257,
      "èİī": 2258,
      "éĻµ": 2259,
      "æĦ¿": 2260,
      "âĢĶâĢĶ": 2261,
      "ãĤ": 2262,
      "æĵį": 2263,
      "æĹĭ": 2264,
      "æĪĳä»¬": 2265,
      "å®¶æĹı": 2266,
      "èĩªçĦ¶": 2267,
      "çĶŁæ¶¯": 2268,
      "å§ĵ": 2269,
      "åı¦ä¸Ģ": 2270,
      "åŃ¦ä¹ł": 2271,
      "åĨįæ¬¡": 2272,
      "ri": 2273,
      "æ¶ī": 2274,
      "çĶµåŃĲ": 2275,
      "æŀļ": 2276,
      "æĮĩåĩº": 2277,
      "é¢Ĺ": 2278,
      "æĶ¿çŃĸ": 2279,
      "åħ³äºİ": 2280,
      "çĶŁçī©": 2281,
      "æĪ´": 2282,
      "æ¯«": 2283,
      "åŃ©": 2284,
      "èĦ±": 2285,
      "åĲİçļĦ": 2286,
      "æĢ§çļĦ": 2287,
      "åĬ¨çĶ»": 2288,
      "æī§è¡Į": 2289,
      "çĶļèĩ³": 2290,
      "çĲĨè®º": 2291,
      "ĠL": 2292,
      "è¡¨çİ°": 2293,
      "èŀį": 2294,
      ":ãĢĮ": 2295,
      "ä¸Ģå¹´": 2296,
      "å°ĨåĨĽ": 2297,
      "å¿ħé¡»": 2298,
      "åĮ»éĻ¢": 2299,
      "å®ĥä»¬": 2300,
      "æļĤ": 2301,
      "åŁºç¡": 2302,
      "åį±": 2303,
      "ç»¿": 2304,
      "ä»¥æĿ¥": 2305,
      "å¦»": 2306,
      "ç§ĭ": 2307,
      "çĽĺ": 2308,
      "ä¸ľéĥ¨": 2309,
      "æľĢä½³": 2310,
      "æģĴ": 2311,
      "å°½ç®¡": 2312,
      "å¢ĥåĨħ": 2313,
      "èĪį": 2314,
      "ow": 2315,
      "æīİ": 2316,
      "æľĢåĪĿ": 2317,
      "åĿĲ": 2318,
      "èĿ": 2319,
      "é¡¾": 2320,
      "æĸĩåŃ¦": 2321,
      "åŁºç¡Ģ": 2322,
      "åį·": 2323,
      "æ¨ª": 2324,
      "å½ĵä¸Ń": 2325,
      "ä¸ºä¸»": 2326,
      "ç¾½": 2327,
      "æŁı": 2328,
      "ä¸ŃåĽ½å¤§éĻĨ": 2329,
      "ä¹Ī": 2330,
      "åĬª": 2331,
      "å®ĺæĸ¹": 2332,
      "ĠR": 2333,
      "ç¿¼": 2334,
      "ç´§": 2335,
      "åįļçī©": 2336,
      "èīĩ": 2337,
      "åķĨä¸ļ": 2338,
      "ç¯ĩ": 2339,
      "çľģä»½": 2340,
      "è¾Ľ": 2341,
      "æĶ»åĩ»": 2342,
      "æ»¨": 2343,
      "æĦıå¤§åĪ©": 2344,
      "è´¡": 2345,
      "åħ¬åħ±": 2346,
      "å¥ı": 2347,
      "ä¹°": 2348,
      "çī©ç§į": 2349,
      "æŃ»äº¡": 2350,
      "æĴŃåĩº": 2351,
      "ur": 2352,
      "35": 2353,
      "æ¡ĳ": 2354,
      "éĴ±": 2355,
      "æĬ¥åĳĬ": 2356,
      "ç±»ä¼¼": 2357,
      "åĿı": 2358,
      "2001å¹´": 2359,
      "æĻ®æŁ¥": 2360,
      "éŃĶ": 2361,
      "ç¼©": 2362,
      "æľĿé²ľ": 2363,
      "æĶ¿æ²»äººçī©": 2364,
      "æ´ª": 2365,
      "ãĢį(": 2366,
      "è¯¥åĽ½": 2367,
      "å¸Ĥåľº": 2368,
      "æĹ©æľŁ": 2369,
      "èĥ½åĬĽ": 2370,
      "¤Ĳ": 2371,
      "æ½ľ": 2372,
      "å®ŀéĻħ": 2373,
      "80": 2374,
      "26": 2375,
      "äºļæ´²": 2376,
      "èĨ": 2377,
      "æııè¿°": 2378,
      "å¢ĵ": 2379,
      "è¯¯": 2380,
      "2011å¹´": 2381,
      "ä¸ĭçļĦ": 2382,
      "æ¼Ķåĩº": 2383,
      "è§Ħæ¨¡": 2384,
      "ĠD": 2385,
      "ä¹ĭéĹ´çļĦ": 2386,
      "çº¦ç¿°": 2387,
      "åĽ¢ä½ĵ": 2388,
      "åĬłæĭ¿": 2389,
      "åħ¶åĲİ": 2390,
      "éģ¿": 2391,
      "å¿ł": 2392,
      "åŃ¦åĲį": 2393,
      "åħ¨çĲĥ": 2394,
      "ç»į": 2395,
      "æ®ĸ": 2396,
      "åİ»ä¸ĸ": 2397,
      "æĭįæĳĦ": 2398,
      "å¤§ä¼ļ": 2399,
      "æłĸ": 2400,
      "æµ·æĭĶé«ĺåº¦": 2401,
      "çģŃ": 2402,
      "è¥¿éĥ¨": 2403,
      "å¤ĸäº¤": 2404,
      ",ãĢĬ": 2405,
      "Ġäººåı£": 2406,
      "çļĦåľ°": 2407,
      "å¹¿ä¸ľ": 2408,
      "éľĩ": 2409,
      "æµĻ": 2410,
      "ter": 2411,
      "åĪ¶éĢł": 2412,
      "éĵľ": 2413,
      "èĥ½å¤Ł": 2414,
      "ä¸¥éĩį": 2415,
      "å»ī": 2416,
      "ç¦»å¼Ģ": 2417,
      "ç«¹": 2418,
      "çĸ«": 2419,
      "åŁºæľ¬": 2420,
      "å®ĹæķĻ": 2421,
      "æģ¶": 2422,
      "æ±½": 2423,
      "å®ľ": 2424,
      "è¿·": 2425,
      "ä¼į": 2426,
      "çºªå½ķ": 2427,
      "é³į": 2428,
      "ä½ľçĶ¨": 2429,
      "è¿¹": 2430,
      "ig": 2431,
      "éĹŃ": 2432,
      "å¥Ĺ": 2433,
      "æĮģç»Ń": 2434,
      "ĠG": 2435,
      "äºİ18": 2436,
      "åĿĹ": 2437,
      "åģı": 2438,
      "äºİæĺ¯": 2439,
      "ä»ĺ": 2440,
      "è®¡ç®Ĺ": 2441,
      "è·¯çº¿": 2442,
      "2009å¹´": 2443,
      "æī¬": 2444,
      "ç¼ĸçłģä¸º": 2445,
      "åħ±äº§åħļ": 2446,
      "äºĭåĬ¡": 2447,
      "åŃĶ": 2448,
      "å¹¶ä¸į": 2449,
      "ç©ºéĹ´": 2450,
      "çļĦä¸Ģä¸ªå¸Ĥéķĩ": 2451,
      "èµĸ": 2452,
      "çļĦä¸»": 2453,
      "è¡£": 2454,
      "è¿İ": 2455,
      "2016å¹´": 2456,
      "å¥¹çļĦ": 2457,
      "æ³ī": 2458,
      "åĪļ": 2459,
      "è¾ħ": 2460,
      "å¸ĮæľĽ": 2461,
      "ä»»åĬ¡": 2462,
      "çĽ®æłĩ": 2463,
      "æŀĲ": 2464,
      "èĦī": 2465,
      "æĺ¯ä¸Ģç§į": 2466,
      "æ±ł": 2467,
      "2008å¹´": 2468,
      "ç»Łæ²»": 2469,
      "Ġæł¹æį®": 2470,
      "ä¸īä¸ª": 2471,
      "æĸ¯åĿ¦": 2472,
      "æİ¥å£¤": 2473,
      "èªī": 2474,
      "ä¼°": 2475,
      "70": 2476,
      "æĸ¹åĲĳ": 2477,
      "æ¸¡": 2478,
      "æģĲ": 2479,
      "ç¼ĺ": 2480,
      "æĸĩçī©": 2481,
      "29": 2482,
      "ç¬¬åįģ": 2483,
      "ä¸ľåįĹ": 2484,
      "åĬŁèĥ½": 2485,
      "äºİ199": 2486,
      "èĳ£": 2487,
      "éļľ": 2488,
      "å¼ĥ": 2489,
      "åįķæĽ²": 2490,
      "éĺ¿æĭī": 2491,
      "ãĢī": 2492,
      "ãĢĪ": 2493,
      "åĬłæĭ¿å¤§": 2494,
      "çº½çº¦": 2495,
      "å¢¨": 2496,
      "éĶ¦æłĩ": 2497,
      "æĭĽ": 2498,
      "äº«": 2499,
      "è·¨": 2500,
      "è®¾æĸ½": 2501,
      "æľĪåı°": 2502,
      "èµ¤": 2503,
      "å¯»": 2504,
      "å®ļçļĦ": 2505,
      "èµĽåŃ£": 2506,
      "èħĬ": 2507,
      "åīĳ": 2508,
      "éĢıè¿ĩ": 2509,
      "çĶĺ": 2510,
      "è¢«ç§°ä¸º": 2511,
      "äºķ": 2512,
      "ä¿±ä¹Ĳ": 2513,
      "éĶ¡": 2514,
      "éŃı": 2515,
      "çĲĥåĳĺ": 2516,
      "éĢĬ": 2517,
      "ä¸Ģæ¬¡": 2518,
      "éĺ»": 2519,
      "ä»įçĦ¶": 2520,
      "åįļçī©é¦Ĩ": 2521,
      "åıĺåĮĸ": 2522,
      "åĪĨå¸ĥäºİ": 2523,
      "ä¿±ä¹Ĳéĥ¨": 2524,
      "æĽ¾ç»ı": 2525,
      "æĥł": 2526,
      "è´¸": 2527,
      "2012å¹´": 2528,
      "è§£æĶ¾": 2529,
      "çĳŁ": 2530,
      "åĽ½çİĭ": 2531,
      "é¢ģ": 2532,
      "åħ¬å¸ĥ": 2533,
      "å·´å£«": 2534,
      "åĲĪå¹¶": 2535,
      "å¼ĢæĶ¾": 2536,
      "ĠH": 2537,
      "ad": 2538,
      "å¹¿æĴŃ": 2539,
      "åĨ¬": 2540,
      "ç»ĺ": 2541,
      "Ġè¯¥": 2542,
      "å°Ĩåħ¶": 2543,
      "åħĭéĩĮ": 2544,
      "å¤§åĮº": 2545,
      "äº®": 2546,
      "2018å¹´": 2547,
      "èĤī": 2548,
      "è¾¾åĪ°": 2549,
      "ä¸įèĥ½": 2550,
      "èĢĮä¸Ķ": 2551,
      "å®ŀéªĮ": 2552,
      "èµ¢": 2553,
      "åĶ¯ä¸Ģ": 2554,
      "åİŁåĽł": 2555,
      "æİĴåĲį": 2556,
      "åĽĽå¹´": 2557,
      ".ãĢį": 2558,
      "è¸": 2559,
      "éĢĲæ¸Ĳ": 2560,
      "2014å¹´": 2561,
      "æį·": 2562,
      "èıĮ": 2563,
      "åıĳåĬ¨": 2564,
      "çĥŃå¸¦": 2565,
      "çº²": 2566,
      "åĦ¿åŃĲ": 2567,
      "ç»¼": 2568,
      "é©¬æĿ¥": 2569,
      "2025å¹´": 2570,
      "äººåı£æĻ®æŁ¥": 2571,
      "åĵ²": 2572,
      "å½ĵéĢī": 2573,
      "çŁ¿": 2574,
      "45": 2575,
      "è¿ŀæİ¥": 2576,
      "æ¨¡å¼ı": 2577,
      "å¾Ĳ": 2578,
      "è¡ĮæĶ¿åĮº": 2579,
      "191": 2580,
      "ç¹": 2581,
      "è¾ŀ": 2582,
      "åľ¨æŃ¤": 2583,
      "ç¬¬ä¸Ģæ¬¡": 2584,
      "ä¸ľäº¬": 2585,
      "åı·çº¿": 2586,
      "çģ¾": 2587,
      "èĴĻåı¤": 2588,
      "ä¸»æĮģ": 2589,
      "å®ļä¹ī": 2590,
      "è¿ĲåĬ¨ä¼ļ": 2591,
      "æľīéĻĲåħ¬åı¸": 2592,
      "çĽ¸å½ĵ": 2593,
      "éĺ´": 2594,
      "èĽĭ": 2595,
      "åĲĦç§į": 2596,
      "2015å¹´": 2597,
      "è®Ńç»ĥ": 2598,
      "2013å¹´": 2599,
      "ĠF": 2600,
      "æ´ŀ": 2601,
      "ç¨³": 2602,
      "ç»Ĩèĥŀ": 2603,
      "æ½®": 2604,
      "èĢħçļĦ": 2605,
      "åĩ»è´¥": 2606,
      "å¦ĩ": 2607,
      "å¤ªå¹³": 2608,
      "çĽ¸åĲĮ": 2609,
      "åıĻ": 2610,
      "ĠI": 2611,
      "æ¼ĶåĶ±": 2612,
      "Ġä¸İ": 2613,
      "é£İæł¼": 2614,
      "çĬ¹": 2615,
      "å¤ªéĺ³": 2616,
      "å¦¹": 2617,
      "ç¹ģ": 2618,
      "æ°§": 2619,
      "éģĵè·¯": 2620,
      "48": 2621,
      "ä½Ĳ": 2622,
      "æĪĲç»©": 2623,
      "æľĪ28æĹ¥": 2624,
      "æļĹ": 2625,
      "(,)": 2626,
      "æŃĮæīĭ": 2627,
      "æİĮ": 2628,
      "æĭĴ": 2629,
      "å¥¥è¿Ĳ": 2630,
      "è§Ħå®ļ": 2631,
      "ä½¿å¾Ĺ": 2632,
      "æ»ĳ": 2633,
      "æľĪ15æĹ¥": 2634,
      "åı¸ä»¤": 2635,
      "æģ¢": 2636,
      "çİ©å®¶": 2637,
      "ä¸ĵä¸ļ": 2638,
      "Ġformula": 2639,
      "éĺ¶æ®µ": 2640,
      "éĴ¢": 2641,
      "äººå£«": 2642,
      "TC": 2643,
      "ec": 2644,
      "90": 2645,
      "è¥¿åįĹ": 2646,
      "åĢĴ": 2647,
      "ä¸įåĲĮçļĦ": 2648,
      "åĨ·": 2649,
      "ir": 2650,
      "ä¸Ģæł·": 2651,
      "åĨĮ": 2652,
      "å°Ķçľģ": 2653,
      "æī¹è¯Ħ": 2654,
      "20æĹ¥": 2655,
      "çŃīäºº": 2656,
      "è¥¿åĮĹ": 2657,
      "èĻİ": 2658,
      "çĲ´": 2659,
      "ç§Ł": 2660,
      "å¹´çļĦ": 2661,
      "å»ºéĢł": 2662,
      "è®¾ç½®": 2663,
      "äº§åĵģ": 2664,
      "ä¼Ĳ": 2665,
      "âĢĵ": 2666,
      "2017å¹´": 2667,
      "åĬŀåħ¬": 2668,
      "è½¨éģĵ": 2669,
      "æĺĤ": 2670,
      "ç¨İ": 2671,
      "10æĹ¥": 2672,
      "é©±": 2673,
      "ä¿Ĺ": 2674,
      "IN": 2675,
      "30æĹ¥": 2676,
      "å¾½": 2677,
      "ä¸ºäºº": 2678,
      "çıł": 2679,
      "ä»ĸä»¬çļĦ": 2680,
      "éº»": 2681,
      "èīĺ": 2682,
      "å¥Ī": 2683,
      "éĶĻ": 2684,
      "ç¡¬": 2685,
      "Ġ198": 2686,
      "åĿĳ": 2687,
      "èĥĮæĻ¯": 2688,
      "åľĪ": 2689,
      "éĿĴå¹´": 2690,
      "ot": 2691,
      "å¹¼": 2692,
      "åĳ³": 2693,
      "çĶº": 2694,
      "çĪĨåıĳ": 2695,
      "å½¼": 2696,
      "os": 2697,
      "æµĻæ±Ł": 2698,
      "åĪĨéĴŁ": 2699,
      "å°ıè¡ĮæĺŁ": 2700,
      "æĤ£": 2701,
      "ĠçļĦ": 2702,
      "çļĦä¸Ģéĥ¨åĪĨ": 2703,
      "éĺģ": 2704,
      "èĳ¡": 2705,
      "å¤§æĪĺ": 2706,
      "å¢Ļ": 2707,
      "å½©": 2708,
      "ä¼¦æķ¦": 2709,
      "ä¹Ļ": 2710,
      "åŃ¦èĢħ": 2711,
      "æµ¦": 2712,
      "æģ¢å¤į": 2713,
      "åľŁåľ°": 2714,
      "åºĶçĶ¨": 2715,
      "å¸ĮèħĬ": 2716,
      "ä¸īåįģ": 2717,
      "æĶ¹éĿ©": 2718,
      "åįĸ": 2719,
      "æ¯įäº²": 2720,
      "è§¦": 2721,
      "ä¸įä¼ļ": 2722,
      "èº«ä»½": 2723,
      "çº¸": 2724,
      "å¯¿": 2725,
      "um": 2726,
      "han": 2727,
      "éĥ¨éĹ¨": 2728,
      "èŃ¦å¯Ł": 2729,
      "1æĹ¥": 2730,
      "ç¬Ķ": 2731,
      "å±±ä¸ľ": 2732,
      "2007å¹´": 2733,
      "è±ª": 2734,
      "åĽ°": 2735,
      "æ®ĭ": 2736,
      "é£ŀæľº": 2737,
      "im": 2738,
      "åĪ¶åº¦": 2739,
      "çļĦæĸ°": 2740,
      "36": 2741,
      "%,": 2742,
      "åīĤ": 2743,
      "èİİ": 2744,
      "èķ": 2745,
      "ä¿ĥ": 2746,
      "ä¸ĭè¾ĸ": 2747,
      "æľĪ25æĹ¥": 2748,
      "åĳ½åĲį": 2749,
      "è¯Ħè®º": 2750,
      "æĭīæĸ¯": 2751,
      "è¿Ľå£«": 2752,
      "ç²ī": 2753,
      "æľĢå¤§": 2754,
      "âĢ¦": 2755,
      "æĬķèµĦ": 2756,
      "èĦļ": 2757,
      "éĢĿ": 2758,
      "é«ĺéĢŁ": 2759,
      "å¤§éĥ¨åĪĨ": 2760,
      "Ġ18": 2761,
      "ç½ĳç»ľ": 2762,
      "ent": 2763,
      "Ġthe": 2764,
      "å¤ıåŃ£": 2765,
      "è£Ĥ": 2766,
      "è¿Ļæł·": 2767,
      "è®°è½½": 2768,
      "æ¡£": 2769,
      "æ¥ļ": 2770,
      "æµª": 2771,
      "èµı": 2772,
      "æ¢¦": 2773,
      "å¯¼æ¼Ķ": 2774,
      "ä½Ĩåľ¨": 2775,
      "çļĦçī¹": 2776,
      "æ²ī": 2777,
      "èµĦæł¼": 2778,
      "18æĹ¥": 2779,
      "ä¸įä¹ħ": 2780,
      "38": 2781,
      "ra": 2782,
      "éĽ¶": 2783,
      "ä¸¤äºº": 2784,
      "å¤©æ´¥": 2785,
      "å¹¿å·ŀ": 2786,
      "æĺŃ": 2787,
      "äº¨": 2788,
      "äºĶå¹´": 2789,
      "åĮĸåŃ¦": 2790,
      "ãĢįãĢģ": 2791,
      "æŁ±": 2792,
      "æĭŁ": 2793,
      "å¾Īå¤ļ": 2794,
      "åģ¶": 2795,
      "åĨĪ": 2796,
      "å°Ĭ": 2797,
      "çĶµè§Ĩåı°": 2798,
      "å¸®åĬ©": 2799,
      "åįļå£«": 2800,
      "è´Ŀå°Ķ": 2801,
      "éĤĢ": 2802,
      "çĽĲ": 2803,
      "å¼±": 2804,
      "è®·": 2805,
      "çĸĨ": 2806,
      "åı«": 2807,
      "âĢĿ(": 2808,
      "éĻ·": 2809,
      "çŃīåľ°": 2810,
      "ç¬¬äºĶ": 2811,
      "id": 2812,
      "æ¯«ç±³": 2813,
      "åĩºçļĦ": 2814,
      "åħ¨éĥ¨": 2815,
      "åĪĨåŃĲ": 2816,
      "å´ĩ": 2817,
      "æģĭ": 2818,
      "ç»´å°Ķ": 2819,
      "ä»Ļ": 2820,
      "æ¶ħ": 2821,
      "çĭ±": 2822,
      "çĴ": 2823,
      "è¯Ĭ": 2824,
      "ation": 2825,
      "ç¾¤å²Ľ": 2826,
      "éĿĻ": 2827,
      "å¥¥æŀĹ": 2828,
      "ä»»åĳ½": 2829,
      "èĭ±è¯Ń": 2830,
      "éĻĨåĨĽ": 2831,
      "åĨľä¸ļ": 2832,
      "æĿĤå¿Ĺ": 2833,
      "æ±Ĺ": 2834,
      "37": 2835,
      "ç»ķ": 2836,
      "åŁºçĿ£": 2837,
      "é¤Ĳ": 2838,
      "12æĹ¥": 2839,
      "2005å¹´": 2840,
      "2006å¹´": 2841,
      "åħ¬å°º": 2842,
      "æķ´ä¸ª": 2843,
      "è£Ķ": 2844,
      "åĲįåŃĹ": 2845,
      "åĲķ": 2846,
      "iv": 2847,
      "ç®Ģç§°": 2848,
      "çĶ·æĢ§": 2849,
      "ç«ĭæ³ķ": 2850,
      "æ¶²": 2851,
      "èļ": 2852,
      "å¤ļæ¬¡": 2853,
      "ç¥Ń": 2854,
      "é¢ĨåŁŁ": 2855,
      "æŃ¤åĲİ": 2856,
      "èµ¢å¾Ĺ": 2857,
      ",âĢľ": 2858,
      "å»ºè®®": 2859,
      "Ġ194": 2860,
      "ĠE": 2861,
      "ĠW": 2862,
      "ä½ľå®¶": 2863,
      "é¼ĵ": 2864,
      "ç¬¬äºĮæ¬¡": 2865,
      "ä¾¯": 2866,
      "è¡Ĺéģĵ": 2867,
      "..": 2868,
      "åħĥå¹´": 2869,
      "æ©": 2870,
      "è¿ŀç»Ń": 2871,
      "åľ°ä¸ĭ": 2872,
      "11æĹ¥": 2873,
      "19æĹ¥": 2874,
      "åĪĨæŀĲ": 2875,
      "è¡¨æ¼Ķ": 2876,
      "çĸ¾": 2877,
      "ä¼´": 2878,
      "åŁİåĮº": 2879,
      "ä¼Ł": 2880,
      "åįĹäº¬": 2881,
      "éĶ¦æłĩèµĽ": 2882,
      "åĲĮæł·": 2883,
      "èĻĳ": 2884,
      "å¹¿åľº": 2885,
      "å¥¥æŀĹåĮ¹": 2886,
      "500": 2887,
      "æĢ»äººåı£": 2888,
      "ç»ıå¸¸": 2889,
      "åħĪåĲİ": 2890,
      "ä¸ĺ": 2891,
      "åĽĽå·Ŀ": 2892,
      "ä¸Ńéĥ¨": 2893,
      "åıĳå°Ħ": 2894,
      "çĦ¶åĲİ": 2895,
      "äºīè®®": 2896,
      "åĩ¤": 2897,
      "åľ°åĮºçļĦ": 2898,
      "é¢ĳéģĵ": 2899,
      "æľĪ24æĹ¥": 2900,
      "å¹ħ": 2901,
      "é¢ľ": 2902,
      "éĥŃ": 2903,
      "å¡ŀå°Ķ": 2904,
      "å¼ķèµ·": 2905,
      "è§Ĩä¸º": 2906,
      "åĪĻæĺ¯": 2907,
      "å¤ļçļĦ": 2908,
      "åıĬåħ¶": 2909,
      "ä¼Ĭæĸ¯": 2910,
      "æľĪ26æĹ¥": 2911,
      "æĭĨ": 2912,
      "åľ°çĲĥ": 2913,
      "çī§": 2914,
      "éĢŁåº¦": 2915,
      "æĪªèĩ³": 2916,
      "ç¤¾åĮº": 2917,
      "è®°å½ķ": 2918,
      "è®¾å¤ĩ": 2919,
      "é©¶": 2920,
      "æ¯ıå¹´": 2921,
      "ç¦ıå»º": 2922,
      "æĲŃ": 2923,
      "åĩºä»»": 2924,
      "ä¿ĿæĮģ": 2925,
      "æĿ¡ä»¶": 2926,
      "34": 2927,
      "æ°´åŁŁ": 2928,
      "ç»ª": 2929,
      "æľĪ16æĹ¥": 2930,
      "è§ĦåĪĴ": 2931,
      "æĹ¥åĨĽ": 2932,
      "å¤§çº¦": 2933,
      "æŁ¯": 2934,
      "%.": 2935,
      "æ²³åįĹ": 2936,
      "åıĤèµĽ": 2937,
      "ä¿¡æģ¯": 2938,
      "Ġå¹´": 2939,
      "od": 2940,
      "éģŃåĪ°": 2941,
      "ag": 2942,
      "å¹³åı°": 2943,
      "æľĪ17æĹ¥": 2944,
      "å±ħä½ı": 2945,
      "å¤ıä»¤": 2946,
      "çļĦä¸»è¦ģ": 2947,
      "æĺ¯ä½įäºİç¾İåĽ½": 2948,
      "äººä»¬": 2949,
      "çī©çĲĨ": 2950,
      "é£ŀè¡Į": 2951,
      "UTC": 2952,
      "åĤ¨": 2953,
      "ç»Łè®¡": 2954,
      "è¢Ńåĩ»": 2955,
      "åĨħéĥ¨": 2956,
      "çĽ¸å¯¹": 2957,
      "å¹¿æ³Ľ": 2958,
      "èĻ«": 2959,
      "æķĻåłĤ": 2960,
      "å®ĺåĳĺ": 2961,
      "è¿ĩåİ»": 2962,
      "2æĹ¥": 2963,
      "ä¸ĢæŃ¥": 2964,
      "è¶ĬåįĹ": 2965,
      "èĩ³ä»Ĭ": 2966,
      "æĭĴç»Ŀ": 2967,
      "æĪĺå½¹": 2968,
      "èĶ¡": 2969,
      "æĸ¯ç§ĳ": 2970,
      "æ£Ĵ": 2971,
      "å¤ļä¸ª": 2972,
      "èĭ±æĸĩ": 2973,
      "è´¸æĺĵ": 2974,
      "åħģ": 2975,
      "è§Ī": 2976,
      "æłĸæģ¯": 2977,
      "å¥¥æŀĹåĮ¹åħĭ": 2978,
      "èĲĦ": 2979,
      "æĺ¯æ³ķåĽ½": 2980,
      "æ¯Ķäºļ": 2981,
      "èĳ¡èĲĦ": 2982,
      "å¹¸": 2983,
      "æĺİæľĿ": 2984,
      "ç³ĸ": 2985,
      "åŃ¦ä½į": 2986,
      "åĦ¿ç«¥": 2987,
      "æµģè¡Į": 2988,
      "æľĢæĹ©": 2989,
      "åĩ½": 2990,
      "ç§¦": 2991,
      "and": 2992,
      "æ·¡": 2993,
      "åıĸä»£": 2994,
      "æĹģ": 2995,
      "æ¼«çĶ»": 2996,
      "é¥°æ¼Ķ": 2997,
      "éĻ¶": 2998,
      "è¿Ŀ": 2999,
      "ç¾İæ´²": 3000,
      "æľĪ27æĹ¥": 3001,
      "æľªèĥ½": 3002,
      "æ³¢åħ°": 3003,
      "æ±¤": 3004,
      "ç»ıåİĨ": 3005,
      "ç¢ĳ": 3006,
      "åĩłä¹İ": 3007,
      "æĮĳ": 3008,
      "å·´é»İ": 3009,
      "æ¦Ĥå¿µ": 3010,
      "èĻļ": 3011,
      "éŀ": 3012,
      "å®ŀçİ°": 3013,
      "æľĪ21æĹ¥": 3014,
      "æĮ¯": 3015,
      "31æĹ¥": 3016,
      "ä»¥ä¸Ĭ": 3017,
      "ç½ĳç«Ļ": 3018,
      "æľĢå¤§çļĦ": 3019,
      "å¤Ħäºİ": 3020,
      "å·¦åı³": 3021,
      "äºĮå¹´": 3022,
      "é¾Ħ": 3023,
      "æľĪ2æĹ¥": 3024,
      "æĪĸèĢħ": 3025,
      "æľĪ22æĹ¥": 3026,
      "è®°èĢħ": 3027,
      "å°Ķå¾·": 3028,
      "\")": 3029,
      "å®ŀæĸ½": 3030,
      "åįıåĬ©": 3031,
      ".ãĢĬ": 3032,
      "å®¿": 3033,
      "åĴĮå¹³": 3034,
      "éķ¿çļĦ": 3035,
      "åĩıå°ĳ": 3036,
      "æĶ¹åıĺ": 3037,
      "èİ·å¾ĹäºĨ": 3038,
      "æľĪ23æĹ¥": 3039,
      "è·ĳ": 3040,
      "ä¾į": 3041,
      "33": 3042,
      "è¿Ī": 3043,
      "æ®Ĭ": 3044,
      "è½¦è¾Ĩ": 3045,
      "èĳ¬": 3046,
      "çļĦç¬¬": 3047,
      "ä¼¸": 3048,
      "æĽ¾ä»»": 3049,
      "ĠN": 3050,
      "å±ķå¼Ģ": 3051,
      "éķ¿æľŁ": 3052,
      "åľ°éĵģ": 3053,
      "åŀĭçļĦ": 3054,
      "çĨĻ": 3055,
      "åĪĨç±»": 3056,
      "çļĩå¸Ŀ": 3057,
      "æľĪ14æĹ¥": 3058,
      "è¿Ĳè¾ĵ": 3059,
      "è¢«è®¤ä¸º": 3060,
      "æĺĨ": 3061,
      "ç§ĳæĬĢ": 3062,
      "æľĪ29æĹ¥": 3063,
      "èĭ±æł¼åħ°": 3064,
      "å½±çīĩ": 3065,
      "op": 3066,
      "åĩºçĶŁäºİ": 3067,
      "ä¹ĥ": 3068,
      "çº¿çļĦ": 3069,
      "46": 3070,
      "èĮ¶": 3071,
      "çĬ¶æĢģ": 3072,
      "åİ¿çļĦ": 3073,
      "çļĦæĹ¶åĮºä¸º": 3074,
      "æ¯Ķè¾ĥ": 3075,
      "æĽ¾åľ¨": 3076,
      "éģį": 3077,
      "æľīçļĦ": 3078,
      "ST": 3079,
      "åįłé¢Ĩ": 3080,
      "75": 3081,
      "ç»ıèĲ¥": 3082,
      "åī§æĥħ": 3083,
      "å¹¶äºİ": 3084,
      "æ¾³éĹ¨": 3085,
      "æĬķç¥¨": 3086,
      "ç»§æī¿": 3087,
      "å®ħ": 3088,
      "ä½ľæĪĺ": 3089,
      "çĥ§": 3090,
      "br": 3091,
      "æ²»çĸĹ": 3092,
      "åĽ½çļĦ": 3093,
      "æŃ¦åĻ¨": 3094,
      "æľĪ13æĹ¥": 3095,
      "éĻĲåĪ¶": 3096,
      "ä¸ļåĬ¡": 3097,
      "åŁºäºİ": 3098,
      "èį·åħ°": 3099,
      "em": 3100,
      "çŃ¹": 3101,
      "è§£åĨ³": 3102,
      "çº¯": 3103,
      "å¤©ä¸»æķĻ": 3104,
      "çĩĥ": 3105,
      "32": 3106,
      "èĪ°éĺŁ": 3107,
      "å¨ģå»ī": 3108,
      "è½°": 3109,
      "ä¼ļåľ¨": 3110,
      "å¦®": 3111,
      "ä¸ªæľĪ": 3112,
      "ä½ĵçļĦ": 3113,
      "éĶ®": 3114,
      "å®£ä¼ł": 3115,
      "th": 3116,
      "çº¿è·¯": 3117,
      "åĭĭ": 3118,
      "çıį": 3119,
      "çģ¯": 3120,
      "çļĦæĥħåĨµ": 3121,
      "åİ¦": 3122,
      "åĩĨå¤ĩ": 3123,
      "çļĦæķ°æį®": 3124,
      "ub": 3125,
      "ç´¯": 3126,
      "éĽķ": 3127,
      "å²Ń": 3128,
      "åĿĽ": 3129,
      "èµĦæºĲ": 3130,
      "è¾½": 3131,
      "éļĲ": 3132,
      "æĬĺ": 3133,
      "çļĦå½±åĵį": 3134,
      "åĭĩ": 3135,
      "åĩºäºĨ": 3136,
      "è¡¡": 3137,
      "æĸ¯çļĦ": 3138,
      "ä½įäºİè¯¥åĽ½": 3139,
      "SE": 3140,
      "èĢĮåľ¨": 3141,
      "åįģå¹´": 3142,
      "æĸ¹æ¡Ī": 3143,
      "èıľ": 3144,
      ":)": 3145,
      "æĿ¥æºĲ": 3146,
      "è¯Ħä»·": 3147,
      "ç»Łä¸Ģ": 3148,
      "çĤİ": 3149,
      "è¯ķåĽ¾": 3150,
      "oĠ": 3151,
      "é½¿": 3152,
      "æ¸ħæľĿ": 3153,
      "åĲĦåľ°": 3154,
      "çĶµè§Ĩåī§": 3155,
      "å³¡": 3156,
      "æ±½è½¦": 3157,
      "åİŁæľ¬": 3158,
      "ä¹ĭå¤ĸ": 3159,
      "éĵģéģĵ": 3160,
      "æ¾³å¤§": 3161,
      "åħ´å»º": 3162,
      "åŃŁ": 3163,
      "åħĦå¼Ł": 3164,
      "åıĪç§°": 3165,
      "éĢīæīĭ": 3166,
      "189": 3167,
      "çł´åĿı": 3168,
      "éģ£": 3169,
      "ãĢįãĢģãĢĮ": 3170,
      "é©¬æĿ¥è¥¿äºļ": 3171,
      "åįıè®®": 3172,
      "ç£ģ": 3173,
      "æīĢåľ¨": 3174,
      "èĲ§": 3175,
      "éĤ®æĶ¿": 3176,
      "çĲ³": 3177,
      "åĽŀåĪ°": 3178,
      "è½´": 3179,
      "55": 3180,
      "li": 3181,
      "æķ¬": 3182,
      "39": 3183,
      "éļıèĳĹ": 3184,
      "åĶ±çīĩ": 3185,
      "è¿Ľä¸ĢæŃ¥": 3186,
      "St": 3187,
      "å£ģ": 3188,
      "åĪĿæľŁ": 3189,
      "è¿Ĳè¡Į": 3190,
      "é¥®": 3191,
      "æĽ¹": 3192,
      "å¤§æ¥¼": 3193,
      "è¦": 3194,
      "æĶ¹ç¼ĸ": 3195,
      "çĬ¹å¤ª": 3196,
      "æħĪ": 3197,
      "å¤§å¤ļæķ°": 3198,
      "ç®Ń": 3199,
      "è¿ĽæĶ»": 3200,
      "åŁºåľ°": 3201,
      "èĩªåĬ¨": 3202,
      "oc": 3203,
      "å¹»": 3204,
      "è¡Ķ": 3205,
      "æķĻä¼ļ": 3206,
      "å¨±ä¹Ĳ": 3207,
      "ä¸Ńæĸĩ": 3208,
      "2004å¹´": 3209,
      "ç²¾ç¥ŀ": 3210,
      "æķı": 3211,
      "å°ıåŃ¦": 3212,
      "åħŃå¹´": 3213,
      "ä¸ºæ¯ı": 3214,
      "èµł": 3215,
      "ç»´æĮģ": 3216,
      "éĴĪå¯¹": 3217,
      "è¿ĺæĺ¯": 3218,
      "è§Ĥä¼Ĺ": 3219,
      "æ¢°": 3220,
      "åŁºéĩĳ": 3221,
      "è´¤": 3222,
      "æ²Ī": 3223,
      "åıĽ": 3224,
      "éĿ¢çļĦ": 3225,
      "è¿Ľè¡ĮäºĨ": 3226,
      "åŁİéķĩ": 3227,
      "æľºè½¦": 3228,
      "ç»ĦåĲĪ": 3229,
      "ä»Ķ": 3230,
      "2000å¹´": 3231,
      "æĢ»éĿ¢ç§¯": 3232,
      "çļĦåīį": 3233,
      "è¿ĲèĲ¥": 3234,
      "ä¸»è§Ĵ": 3235,
      "è´¾": 3236,
      "äººåı£æķ°éĩı": 3237,
      "è¾Ĳ": 3238,
      "éĶĭ": 3239,
      "ä¸Ģä½į": 3240,
      "ç¯®": 3241,
      "ä¸ĩäºº": 3242,
      "å·ŀçļĦ": 3243,
      "çľģçº§": 3244,
      "å§Ĳ": 3245,
      "æŃ£åľ¨": 3246,
      "åĬłä¸Ĭ": 3247,
      "æĬ¥éģĵ": 3248,
      "çī¹å¾ģ": 3249,
      "çº¹": 3250,
      "å¤ªå¹³æ´ĭ": 3251,
      "éĥ¨ä»½": 3252,
      "èĹ¤": 3253,
      "çģ°": 3254,
      "äº¤æĺĵ": 3255,
      "éĽĨä¸Ń": 3256,
      "ä¸įå°ĳ": 3257,
      "ç©ºåĨĽ": 3258,
      "ç»¼åĲĪ": 3259,
      "åĨ¯": 3260,
      "è´Łè´£ç®¡è¾ĸ": 3261,
      "åıĮæĸ¹": 3262,
      "éĤĵ": 3263,
      "éĻķ": 3264,
      "æ¯ıä¸ª": 3265,
      "æ¾³å¤§åĪ©äºļ": 3266,
      "ĠæĶ¿æ²»": 3267,
      "èµ´": 3268,
      "éĻĨåľ°": 3269,
      "åľ¨ç¾İåĽ½": 3270,
      "ç¡®å®ļ": 3271,
      "çŃĶ": 3272,
      "æĺ¯åĲ¦": 3273,
      "è§£éĩĬ": 3274,
      "ĠçĶ±äºİ": 3275,
      "ç¾İåĽ½äººåı£æĻ®æŁ¥": 3276,
      "è¯ģæĺİ": 3277,
      "åĽ¾ä¹¦": 3278,
      "å¤§åŀĭ": 3279,
      "ä»·åĢ¼": 3280,
      "æĺ¯ä¸ŃåĽ½": 3281,
      "è¿ĶåĽŀ": 3282,
      "èĳ£äºĭ": 3283,
      "æīĢå±ŀçļĦ": 3284,
      "47": 3285,
      "è¦Ĩ": 3286,
      "åİļ": 3287,
      "åĲįåįķ": 3288,
      "æĦŁæŁĵ": 3289,
      "åĪĢ": 3290,
      "ç¨ĭåº¦": 3291,
      "éĩįè¦ģçļĦ": 3292,
      "äºĳåįĹ": 3293,
      "ä»°": 3294,
      "ä»İäºĭ": 3295,
      ",ãĢĮ": 3296,
      "ap": 3297,
      "çľģçļĦä¸Ģä¸ªå¸Ĥéķĩ": 3298,
      "æ³³": 3299,
      "è°±": 3300,
      "æ¹ĸåįĹ": 3301,
      "åĽ½ä¼ļ": 3302,
      "æ³ķåħ°": 3303,
      "æľīæĹ¶": 3304,
      "çļĩå®¶": 3305,
      "æ²³æµģ": 3306,
      "çĥŁ": 3307,
      "åĢį": 3308,
      "äºİ198": 3309,
      "å°ıç»Ħ": 3310,
      "å®ĥçļĦ": 3311,
      "çİĭæľĿ": 3312,
      "ä¸»æ¼Ķ": 3313,
      "åħĥç´ł": 3314,
      "å¾·éĩĮ": 3315,
      "é©¬åħĭ": 3316,
      "å¼ķåıĳ": 3317,
      "å¥³åĦ¿": 3318,
      "åĩŃ": 3319,
      "ä¿ĿçķĻ": 3320,
      "Ġc": 3321,
      "çºµ": 3322,
      "æľºä¼ļ": 3323,
      "ä¸´æĹ¶": 3324,
      "æĢ»çĲĨ": 3325,
      "æĹħæ¸¸": 3326,
      "éķĩåĮº": 3327,
      "æľĭ": 3328,
      "é¦ĸéĥ½": 3329,
      "å¸¸è§ģ": 3330,
      "è¶ħçº§": 3331,
      "é¬": 3332,
      "è´¢æĶ¿": 3333,
      "èĴĭ": 3334,
      "çĶŁäºİ": 3335,
      "æ²Ł": 3336,
      "åħ¬åħĥ": 3337,
      "åĩºèº«": 3338,
      "çķª": 3339,
      "å¤§èĩ£": 3340,
      "åĬłåĿ¡": 3341,
      "å¤©æĸĩ": 3342,
      "æī¹åĩĨ": 3343,
      "é«ĺçº§": 3344,
      "åĨ²çªģ": 3345,
      "åĽ½éĺ²": 3346,
      "ç½ķ": 3347,
      "Ġ197": 3348,
      "ç±³å°Ķ": 3349,
      "è®¨è®º": 3350,
      "å°ĸ": 3351,
      "åĬĽéĩı": 3352,
      "20ä¸ĸçºª": 3353,
      "ä¸įåĨį": 3354,
      "å¦»åŃĲ": 3355,
      "åĲĮæĦı": 3356,
      "ä½ĽæķĻ": 3357,
      "çĳŀå£«": 3358,
      "ãĢĬãĢĭ": 3359,
      "åĽ½æ°ĳåħļ": 3360,
      "åĽ½åĨħ": 3361,
      "ä¸»é¢ĺ": 3362,
      "çłĶç©¶æīĢ": 3363,
      "åı¥": 3364,
      "äºĨä¸Ģä¸ª": 3365,
      "éĿĸ": 3366,
      "æľºåħ³": 3367,
      "è¶£": 3368,
      "åį¡å°Ķ": 3369,
      "é©¾": 3370,
      "æľīæķĪ": 3371,
      "ä¸įæĸŃ": 3372,
      "æ¡ĥ": 3373,
      "è®®éĻ¢": 3374,
      "ç»ĵåĲĪ": 3375,
      "çļĦä¸Ģç§į": 3376,
      "åĩ¡": 3377,
      "åĬĽçļĦ": 3378,
      "å¥½çļĦ": 3379,
      "äº§ä¸ļ": 3380,
      "å·ŀå¸Ĥ": 3381,
      "æľīäºĽ": 3382,
      "è¾ī": 3383,
      "äºĮä¸ĸ": 3384,
      "è·³": 3385,
      "æĸĩçī©ä¿ĿæĬ¤": 3386,
      "65": 3387,
      "æŁ´": 3388,
      "è¿ħ": 3389,
      "æĸ°åĬłåĿ¡": 3390,
      "Ġ195": 3391,
      "åİ¿çļĦä¸Ģä¸ª": 3392,
      "æŃ¦è£ħ": 3393,
      "æĹº": 3394,
      "åĽ½ç«ĭ": 3395,
      "æĻ®éĢļ": 3396,
      "ä¸Ĭæĺł": 3397,
      "å¹´è½»": 3398,
      "ç¼ĵ": 3399,
      "çĨŁ": 3400,
      "å¤§ä½¿": 3401,
      "æĺ¯æĮĩ": 3402,
      "ç§ĺä¹¦": 3403,
      "å»ºæĪĲ": 3404,
      "åŁĶ": 3405,
      "æ°ĶåĢĻ": 3406,
      "ãĢģãĢģ": 3407,
      "æİª": 3408,
      "éĢīåĮº": 3409,
      "è§£æĶ¾åĨĽ": 3410,
      "æĸ¯åŁº": 3411,
      "ç¥¥": 3412,
      "ä¸įåı¯": 3413,
      "éģĤ": 3414,
      "æĺŁæľŁ": 3415,
      "300": 3416,
      "æ§": 3417,
      "æĶ¶åħ¥": 3418,
      "åıĸæ¶Ī": 3419,
      "ç¼ĸåı·": 3420,
      "äººæķ°": 3421,
      "æ½ĺ": 3422,
      "64": 3423,
      "ä¸ĸçķĮå¤§æĪĺ": 3424,
      "æĸĩä»¶": 3425,
      "åı¯è¾¾": 3426,
      "å¨ģå°Ķ": 3427,
      "æĬķåħ¥": 3428,
      "å¿«éĢŁ": 3429,
      "æī¿è®¤": 3430,
      "äººåľ¨": 3431,
      "è¥¿æ´ĭ": 3432,
      "ä¸ŃåĽ½äººæ°ĳ": 3433,
      "è¥¿çľģ": 3434,
      "èĳĹåĲį": 3435,
      "ä¸ŃåĽ½åħ±äº§åħļ": 3436,
      "èŃ¦æĸ¹": 3437,
      "å·´è¥¿": 3438,
      "éĿŀæ´²": 3439,
      "å°ĳå¹´": 3440,
      "æĢ»éĥ¨": 3441,
      "ç»´äºļ": 3442,
      "æł¸å¿ĥ": 3443,
      "(\"": 3444,
      "èĩ³å°ĳ": 3445,
      "é¹¿": 3446,
      "å¿Ĩ": 3447,
      "ä¸Ģä¸ĸ": 3448,
      "ĠK": 3449,
      "éļıçĿĢ": 3450,
      "æĸĩçī©ä¿ĿæĬ¤åįķä½į": 3451,
      "è©": 3452,
      "Ġs": 3453,
      "ä»ĵ": 3454,
      "æĿ¡çº¦": 3455,
      "ä»¥èī²": 3456,
      "åĭ¤": 3457,
      "é£İæļ´": 3458,
      "åĽ½åĬ¡": 3459,
      "ä½¿çĶ¨çļĦ": 3460,
      "ä¹ı": 3461,
      "èĭĹ": 3462,
      "èĥľåĪ©": 3463,
      "Ġ1": 3464,
      "æĸ¯åħĭ": 3465,
      "ç¬¬ä¸Ģä¸ª": 3466,
      "å¥¥æĸ¯": 3467,
      "å¦Ĥä¸ĭ": 3468,
      "èĳĹä½ľ": 3469,
      "åŃĿ": 3470,
      "åİĦ": 3471,
      "ç¼ħ": 3472,
      "ä¸ĥå¹´": 3473,
      "åĪĽç«ĭ": 3474,
      "ä»¥èī²åĪĹ": 3475,
      "Ġ196": 3476,
      "æ³Ĭ": 3477,
      "åĮĸçļĦ": 3478,
      "éĩįå»º": 3479,
      "ä»¥åĲİ": 3480,
      "è©¹": 3481,
      "49": 3482,
      "ç§Ĵ": 3483,
      "å¥¥æŀĹåĮ¹åħĭè¿ĲåĬ¨ä¼ļ": 3484,
      "è®¿éĹ®": 3485,
      "æĹ¶ä»»": 3486,
      "åĽ¢éĺŁ": 3487,
      "æľªæĿ¥": 3488,
      "ut": 3489,
      "è´¯": 3490,
      "ay": 3491,
      "ç¬¬åħŃ": 3492,
      "çĮİ": 3493,
      "ov": 3494,
      "çĹħæ¯Ĵ": 3495,
      "åħ¬æ°ĳ": 3496,
      "æ°ĳä¼Ĺ": 3497,
      "çļĦçłĶç©¶": 3498,
      "çļĦå¸Ĥéķĩ": 3499,
      "åįĬå²Ľ": 3500,
      "éĥ½ä¼ļ": 3501,
      "æ±Łèĭı": 3502,
      "og": 3503,
      "èİ²": 3504,
      "æĶ¶å½ķ": 3505,
      "æħķ": 3506,
      "åħģè®¸": 3507,
      "æĴĴ": 3508,
      "å®ªæ³ķ": 3509,
      "è¯´æ³ķ": 3510,
      "çŀ": 3511,
      "æµĭè¯ķ": 3512,
      "èĳĽ": 3513,
      "è°ĥæķ´": 3514,
      "æĻ¨": 3515,
      "å§Ķä¼ļ": 3516,
      "ä¼ı": 3517,
      "ç¨ĭåºı": 3518,
      "çĵľ": 3519,
      "å°ĶçļĦ": 3520,
      "æĭīåħĭ": 3521,
      "ä¹ĲåĽ¢": 3522,
      "åĢ¾": 3523,
      "2003å¹´": 3524,
      "æµ·å²¸": 3525,
      "çİĭåĽ½": 3526,
      "èĽĭçĻ½": 3527,
      "ç»ĵå©ļ": 3528,
      "éļ¶å±ŀäºİ": 3529,
      "æĻ¶": 3530,
      "çĶµèĦĳ": 3531,
      "åģľæŃ¢": 3532,
      "éĥ½æľī": 3533,
      "åħ¬åĪĨ": 3534,
      "ä½įäºİæ³ķåĽ½": 3535,
      "æ¢¯": 3536,
      "çĶ¨æĿ¥": 3537,
      "é«ĺçŃī": 3538,
      "åį¢çĵ¦": 3539,
      "æ¨¡åŀĭ": 3540,
      "åĵĪå°Ķ": 3541,
      "æħ¢": 3542,
      "amp": 3543,
      "éĺ¿æĭīä¼¯": 3544,
      "èī²çļĦ": 3545,
      "èĥģ": 3546,
      "æİ¥è¿ĳ": 3547,
      "èĢĥèĻĳ": 3548,
      "è¡ĮæĶ¿åĮºåĪĴ": 3549,
      "ä¸ĭåįĪ": 3550,
      "å±±èĦī": 3551,
      "çĲĥåľº": 3552,
      "è´º": 3553,
      "çĶ¨çļĦ": 3554,
      "æ®ĸæ°ĳ": 3555,
      "åĩĮ": 3556,
      "å°±è¯»": 3557,
      "æĢĿæĥ³": 3558,
      "è¿ĩç¨ĭä¸Ń": 3559,
      "çĶµåı°": 3560,
      "å°¤åħ¶": 3561,
      "åľ¨è¿Ļ": 3562,
      "èĹ©": 3563,
      "æĪĺåĲİ": 3564,
      "åĳ¨è¾¹": 3565,
      "æĸ°å¢ŀ": 3566,
      "éĤĢè¯·": 3567,
      "æµ®": 3568,
      "åĮ»çĸĹ": 3569,
      "åľ°ä½į": 3570,
      "çĽ´èĩ³": 3571,
      "åħ³æ³¨": 3572,
      "å¹´åº¦": 3573,
      "ç´«": 3574,
      "çİ°æĹ¶": 3575,
      "ak": 3576,
      "2002å¹´": 3577,
      "ç¡ķ": 3578,
      "é¬¼": 3579,
      "çĶ³è¯·": 3580,
      "II": 3581,
      "ä¸Ģå¸¦": 3582,
      "æĥĬ": 3583,
      "èħ¹": 3584,
      "ä¸įæĺİ": 3585,
      "ä¼¯çī¹": 3586,
      "è§Ĥå¯Ł": 3587,
      "åĿİ": 3588,
      "éĩįçĤ¹": 3589,
      "èµ·æĿ¥": 3590,
      "ç¥ĸçĪ¶": 3591,
      "æĶ¿åħļ": 3592,
      "åĨįåº¦": 3593,
      "Ġ2021å¹´": 3594,
      "åįģåĪĨ": 3595,
      "Ġ2": 3596,
      "çĽ¸ä¼¼": 3597,
      "è¯¾ç¨ĭ": 3598,
      "å¡ĳ": 3599,
      "åŃ©åŃĲ": 3600,
      "èĬĿ": 3601,
      "188": 3602,
      "ä¹Ķæ²»": 3603,
      "åĮĪ": 3604,
      "av": 3605,
      "Ġ2019å¹´": 3606,
      "æĢª": 3607,
      "ä¿Ĭ": 3608,
      "åĲĪçī©": 3609,
      "è¡¨è¾¾": 3610,
      "ab": 3611,
      "é«ĺä¸Ń": 3612,
      "åħ±æľīäººåı£": 3613,
      "44": 3614,
      "Ġ3": 3615,
      "Ġè½¦ç«Ļ": 3616,
      "åħ¥ä¾µ": 3617,
      "å£«åħµ": 3618,
      "ä»²": 3619,
      "å®īæİĴ": 3620,
      "æĴ°": 3621,
      "åĲ¨": 3622,
      "æĿ¥è¯´": 3623,
      "èĭ¦": 3624,
      "æ¯ķä¸ļäºİ": 3625,
      "åĬ±": 3626,
      "ç½ļ": 3627,
      "çļĦå°ı": 3628,
      "åĪ°è¾¾": 3629,
      "åŃ¦æľ¯": 3630,
      "äººæ°ĳæĶ¿åºľ": 3631,
      "å¹¶æ²¡æľī": 3632,
      "å¥´": 3633,
      "åĽłèĢĮ": 3634,
      "æĶ¯æı´": 3635,
      "ç§»åĬ¨": 3636,
      "çļĦæĹ¶åĢĻ": 3637,
      "æĺ¯ç¾İåĽ½": 3638,
      "ĠO": 3639,
      "æ³¥": 3640,
      "æĴŀ": 3641,
      "AT": 3642,
      "éĶĢåĶ®": 3643,
      "å±¿": 3644,
      "åĢĻéĢī": 3645,
      "Ġ193": 3646,
      "æĿī": 3647,
      "è·¯æĺĵ": 3648,
      "çĽĹ": 3649,
      "å¤ĸçļĦ": 3650,
      "çĽ®çļĦ": 3651,
      "Ġè¿Ļ": 3652,
      "ç¦Ħ": 3653,
      "æĹłçº¿": 3654,
      "ä¸ºæ³ķåĽ½": 3655,
      "è¯¦": 3656,
      "ä¸§": 3657,
      "ä¼Ĭæĸ¯åħ°": 3658,
      "åĹ": 3659,
      "è¥¿åĵ¥": 3660,
      "åºĶè¯¥": 3661,
      "âĢĿãĢģ": 3662,
      "çĨĬ": 3663,
      "æĹ©å¹´": 3664,
      "Ġè¡ĮæĶ¿": 3665,
      "æŃ¤æĹ¶": 3666,
      "ind": 3667,
      "æĹ¨": 3668,
      "çļĦé¦ĸ": 3669,
      "å¸Ĥéķ¿": 3670,
      "çİ°è±¡": 3671,
      "ç¢į": 3672,
      "åıªæĺ¯": 3673,
      "å¦ĤæŃ¤": 3674,
      "åīįçļĦ": 3675,
      "Ġ2020å¹´": 3676,
      "éģĹåĿĢ": 3677,
      "çī¹çļĦ": 3678,
      "çĹĽ": 3679,
      "ä»ĸæĽ¾": 3680,
      "å¹¶æľª": 3681,
      "58": 3682,
      "çĶ¨æĪ·": 3683,
      "åıĺæĪĲ": 3684,
      "ç²Ĵ": 3685,
      "åľ°åĪ©": 3686,
      "çĮª": 3687,
      "å¹´éĹ´": 3688,
      "éĩĳå±ŀ": 3689,
      "æĹ§å¸Ĥéķĩ": 3690,
      "ç±»åŀĭ": 3691,
      "æĬµè¾¾": 3692,
      "ä»İèĢĮ": 3693,
      "æĿĲæĸĻ": 3694,
      "å¸ĤåĮº": 3695,
      "éī": 3696,
      "æĪĸæĺ¯": 3697,
      "æĺİæĺ¾": 3698,
      "ä¹³": 3699,
      "æĢ»çĿ£": 3700,
      "èĩªæ²»åĮº": 3701,
      "è´¨éĩı": 3702,
      "Ġ2018å¹´": 3703,
      "éĺħ": 3704,
      "æıĲåįĩ": 3705,
      "é«ĺçļĦ": 3706,
      "å°¼æĸ¯": 3707,
      "çĦ¦": 3708,
      "æŀĦæĪĲ": 3709,
      "å°ĳæķ°": 3710,
      "Ġb": 3711,
      "åįģåħ«": 3712,
      "èģĮåĬ¡": 3713,
      "åºĬ": 3714,
      "è·ĥ": 3715,
      "çĩķ": 3716,
      "å®īè£ħ": 3717,
      "äºİ197": 3718,
      "æŁ³": 3719,
      "åį«æĺŁ": 3720,
      "ĠJ": 3721,
      "ç¬¬ä¸ĥ": 3722,
      "å½Ń": 3723,
      "ä¿¡åı·": 3724,
      "68": 3725,
      "åı¯èĥ½æĺ¯": 3726,
      "æ±¡": 3727,
      "äººåı£å¯Ĩåº¦ä¸ºæ¯ı": 3728,
      "æĸ¹çļĦ": 3729,
      "éĢĿä¸ĸ": 3730,
      "å·¥åİĤ": 3731,
      "æŁĲäºĽ": 3732,
      "åĪĹä¸º": 3733,
      "æ¯ĶåĪ©": 3734,
      "å±ı": 3735,
      "çī©è´¨": 3736,
      "æ¡Ĥ": 3737,
      "éĦ": 3738,
      "ãĢģ(": 3739,
      "èĪĴ": 3740,
      "ä½ĵç³»": 3741,
      "æģĴæĺŁ": 3742,
      "ç¨³å®ļ": 3743,
      "æĬļ": 3744,
      "åĴ¸": 3745,
      "å¯¹æīĭ": 3746,
      "èĢĮæĺ¯": 3747,
      "é¡µ": 3748,
      "å¡ĺ": 3749,
      "å¤±åİ»": 3750,
      ":.": 3751,
      "ä»ªå¼ı": 3752,
      "åĿĬ": 3753,
      "å¥¥åľ°åĪ©": 3754,
      "éī´": 3755,
      "SEE": 3756,
      "åĩ½æķ°": 3757,
      "åĩºåı£": 3758,
      "çĶ¸": 3759,
      "ç§ĳçļĦ": 3760,
      "åĪĽåĬŀ": 3761,
      "æİī": 3762,
      "éĶģ": 3763,
      "å¢¨è¥¿åĵ¥": 3764,
      "äººåı£æķ°éĩıä¸ºäºº": 3765,
      "ä¸ľè¥¿": 3766,
      "å»ºåĪ¶": 3767,
      "åĲĥ": 3768,
      "æľĭåıĭ": 3769,
      "çĶŁéķ¿": 3770,
      "è°ĵ": 3771,
      "æĲľ": 3772,
      "ä¸įè¶³": 3773,
      "åĲĮä¸Ģ": 3774,
      "æĵįä½ľ": 3775,
      "æİ¥å£¤çļĦå¸Ĥéķĩ": 3776,
      "è¯ļ": 3777,
      "æĸĩç«ł": 3778,
      "æĸĳ": 3779,
      "äºĭä¸ļ": 3780,
      "æĦıè¯Ĩ": 3781,
      "æĻ®éģį": 3782,
      "æ¯ıå¹³æĸ¹åħ¬éĩĮ": 3783,
      "ä¸įå¾Ĺ": 3784,
      "åľ¨199": 3785,
      "æ°§åĮĸ": 3786,
      "çº¬": 3787,
      "çĺ": 3788,
      "ia": 3789,
      "ç§»æ°ĳ": 3790,
      "INSEE": 3791,
      "ç¿»è¯ĳ": 3792,
      "ä¸Ģåº¦": 3793,
      "æĹłäºº": 3794,
      "å¨ģèĥģ": 3795,
      "åĬ¨åĬĽ": 3796,
      "åıªèĥ½": 3797,
      "èĤĥ": 3798,
      "å§ĭå»º": 3799,
      "å°ļæľª": 3800,
      "éĤ®æĶ¿ç¼ĸçłģä¸º": 3801,
      "åĬŀåħ¬å®¤": 3802,
      "æł¡éķ¿": 3803,
      "å°Ķçī¹": 3804,
      "ä¸ĢåĲĮ": 3805,
      "çİ°åľº": 3806,
      "å¹¿åĳĬ": 3807,
      "èº«ä½ĵ": 3808,
      "åħ¥åı£": 3809,
      "(;": 3810,
      "æ¡Īä»¶": 3811,
      "è¯ŀ": 3812,
      "åŀĴ": 3813,
      "æĹ¢": 3814,
      "æĮĤ": 3815,
      "æľºæ¢°": 3816,
      "Ġ2017å¹´": 3817,
      "èĥ¶": 3818,
      "åĮĹç¾İ": 3819,
      "éļ§": 3820,
      "å¹³éĿ¢": 3821,
      "ä¸¤ç§į": 3822,
      "çĬ¶åĨµ": 3823,
      "æ¶Īæģ¯": 3824,
      "ä¹Łåľ¨": 3825,
      "éĺŁçļĦ": 3826,
      "éģĹäº§": 3827,
      "åı¬å¼Ģ": 3828,
      "è§ĤçĤ¹": 3829,
      "å¾Ĺä»¥": 3830,
      "å¤ĦçļĦ": 3831,
      "äº¤æµģ": 3832,
      "å¾ª": 3833,
      "è¡¨æĺİ": 3834,
      "æĦıä¹ī": 3835,
      "æĿĥåĬĽ": 3836,
      "æ°ĳä¸»åħļ": 3837,
      "èĩªè¡Į": 3838,
      "ä¸ºä¸Ģ": 3839,
      "æĽ´åĲįä¸º": 3840,
      "åįĹåĮĹ": 3841,
      "å¼ĺ": 3842,
      "çľĭåĪ°": 3843,
      "åİ¿äºº": 3844,
      "åĭĥ": 3845,
      "çŁ¥éģĵ": 3846,
      "æĮĳæĪĺ": 3847,
      "æķ°åŃĹ": 3848,
      "èģĶç³»": 3849,
      "èģĶåĲĪåĽ½": 3850,
      "çķĶ": 3851,
      "åĽ¾ä¹¦é¦Ĩ": 3852,
      "æħ§": 3853,
      "ç¦ģæŃ¢": 3854,
      "æıĲé«ĺ": 3855,
      "åħ¥éĢī": 3856,
      "å§Ĩæĸ¯": 3857,
      "ä»ĸæĺ¯": 3858,
      "åĵģçīĮ": 3859,
      "æłĩå¿Ĺ": 3860,
      "åģ¥åº·": 3861,
      "æĭĵ": 3862,
      "å²³": 3863,
      "åĪĽéĢł": 3864,
      "æ¬§åħĥ": 3865,
      "å±¯": 3866,
      "ä¼ļçļĦ": 3867,
      "èĳ¡èĲĦçīĻ": 3868,
      "ç¥Ŀ": 3869,
      "Ġ2016å¹´": 3870,
      "è¢ĸ": 3871,
      "42": 3872,
      "å¸ĥæĭī": 3873,
      "åıĳçĶµ": 3874,
      "æķĪåĬĽ": 3875,
      "å¤ıä»¤æĹ¶": 3876,
      "åľŁèĢ³": 3877,
      "ä¹¾": 3878,
      "çº·": 3879,
      "éĩĮçļĦ": 3880,
      "å¤§éģĵ": 3881,
      "æ£®æŀĹ": 3882,
      "æľīäºº": 3883,
      "ĠV": 3884,
      "æĪĴ": 3885,
      "ä¹Ŀå¹´": 3886,
      "åıĳèµ·": 3887,
      "äººåı£å¯Ĩåº¦æ¯ıå¹³æĸ¹åħ¬éĩĮ": 3888,
      "The": 3889,
      "åŃĹæ¯į": 3890,
      "æįĲ": 3891,
      "åľŁèĢ³åħ¶": 3892,
      "æ°¢": 3893,
      "ç®±": 3894,
      "æ°´å¹³": 3895,
      "å¤±è´¥": 3896,
      "åŃĲçļĦ": 3897,
      "å¸Ĥéķĩç¼ĸçłģä¸º": 3898,
      "INSEEå¸Ĥéķĩç¼ĸçłģä¸º": 3899,
      "å½ĵæĹ¶çļĦ": 3900,
      "ãĢİ": 3901,
      "å¹³æĸ¹ç±³": 3902,
      "åİĨåı²ä¸Ĭ": 3903,
      "ãĢı": 3904,
      "å¹¶éĿŀ": 3905,
      "åħ½": 3906,
      "çĳŀåħ¸": 3907,
      "åįĳ": 3908,
      "äºİæĹ¶çļĦ": 3909,
      "åĮ»åŃ¦": 3910,
      "äºİæĹ¶çļĦäººåı£æķ°éĩıä¸ºäºº": 3911,
      "æ£ĭ": 3912,
      "éĢīåĮºä¸º": 3913,
      "ç¾İåĽ½äººåı£æĻ®æŁ¥çļĦæķ°æį®": 3914,
      "äººåı£å¯Ĩåº¦ä¸ºæ¯ıå¹³æĸ¹åįĥç±³": 3915,
      "æĻĵ": 3916,
      "èĢĮäººåı£å¯Ĩåº¦ä¸ºæ¯ıå¹³æĸ¹åįĥç±³": 3917,
      "å½ĵåľ°åħ±æľīäººåı£": 3918,
      "æ²³åĮĹ": 3919,
      "åľ³": 3920,
      "åį¿": 3921,
      "æµħ": 3922,
      "è¯¥çľģä»½": 3923,
      "æĪĸæĹ§å¸Ĥéķĩ": 3924,
      "å»¶ä¼¸": 3925,
      "çī¹æ®Ĭ": 3926,
      "å¼ºè°ĥ": 3927,
      "éħĴåºĹ": 3928,
      "In": 3929,
      "çļĦæĸ¹å¼ı": 3930,
      "çľģçº§éĢīåĮºä¸º": 3931,
      "æīĢå±ŀçļĦçľģçº§éĢīåĮºä¸º": 3932,
      "å¸ĥé²ģ": 3933,
      "åį«çĶŁ": 3934,
      "çļĦåİŁ": 3935,
      "ãĢĭ()": 3936,
      "æľ¬åľŁ": 3937,
      "Ġ2022å¹´": 3938,
      "ç¼ĸè¾ĳ": 3939,
      "æĺ¯ä¸ĢåĲį": 3940,
      "è¯¥çľģä»½ä¸ºæ³ķåĽ½": 3941,
      "èĢĮè¯¥åľ°": 3942,
      "åĲİèĢħ": 3943,
      "å¥ĸé¡¹": 3944,
      "ä¸Ńå±±": 3945,
      "187": 3946,
      "æķĻåĮº": 3947,
      "åĳ½ä»¤": 3948,
      "éľĢæ±Ĥ": 3949,
      "ers": 3950,
      "äººå¤§": 3951,
      "éģ¿åħį": 3952,
      "æĬ¥å¯¼": 3953,
      "åıĹä¼¤": 3954,
      "èĲ¥è¿Ĳ": 3955,
      "ä¼°è®¡": 3956,
      "è½°çĤ¸": 3957,
      "ç¼ºä¹ı": 3958,
      "è¿ħéĢŁ": 3959,
      "æĹ¦": 3960,
      "æıĲåĲį": 3961,
      "ĠSt": 3962,
      "åħ¶ä½Ļ": 3963,
      "æµ·åŁŁ": 3964,
      "äºİ194": 3965,
      "æī°": 3966,
      "ç¬¬1": 3967,
      "åĽĽä¸ª": 3968,
      "èĳĹåĲįçļĦ": 3969,
      "æĲ¬": 3970,
      "å¸ĤçļĦ": 3971,
      "æ³¨æĦı": 3972,
      "æ¬¢è¿İ": 3973,
      "çĶŁåĳ½": 3974,
      "å¿ĥçĲĨ": 3975,
      "éļ§éģĵ": 3976,
      "æĶ¿æĿĥ": 3977,
      "éĥĬ": 3978,
      "åī©": 3979,
      "è¾¾æĪĲ": 3980,
      "åĲ¸å¼ķ": 3981,
      "çĹĩçĬ¶": 3982,
      "å®īå¾·": 3983,
      "tion": 3984,
      "æıĴ": 3985,
      "é²į": 3986,
      "åĸĢ": 3987,
      "éĩĳçīĮ": 3988,
      "è§ĦåĪĻ": 3989,
      "ä»ĭç»į": 3990,
      "ä¹ĺå®¢": 3991,
      "å¤§è¥¿æ´ĭ": 3992,
      "æĸ¯å¡Ķ": 3993,
      "å¤ĸåĽ½": 3994,
      "éĩĳèŀį": 3995,
      "æķĻç»ĥ": 3996,
      "çļĦç¬¬ä¸Ģ": 3997,
      "æĿĨ": 3998,
      "æĴ¤éĶĢ": 3999,
      "çİ»": 4000,
      "ä¾¦": 4001,
      "æĪĲä¸ºäºĨ": 4002,
      "éľ¸": 4003,
      "ä¸²": 4004,
      "äººåĴĮ": 4005,
      "åı¯èĥ½ä¼ļ": 4006,
      "è´ŀ": 4007,
      "éĥ¨èĲ½": 4008,
      "å´İ": 4009,
      "Ġ2014å¹´": 4010,
      "ä¸»å¼ł": 4011,
      "æķ°åŃ¦": 4012,
      "SA": 4013,
      "å¹¶å°Ĩ": 4014,
      "èĢĮè¢«": 4015,
      "éĵ¾": 4016,
      "æĦŁåĪ°": 4017,
      "67": 4018,
      "400": 4019,
      "åħ¬ä¼Ĺ": 4020,
      "æ¬²": 4021,
      "å½¼å¾Ĺ": 4022,
      "èĥİ": 4023,
      "ä¹Łè¢«": 4024,
      "äºĭå®ŀ": 4025,
      "å°Ķåħ°": 4026,
      "æķĻå¸Ī": 4027,
      "ä»¿": 4028,
      "éĩĩåıĸ": 4029,
      "ä½ĵéķ¿": 4030,
      "åħ¨éķ¿": 4031,
      "99": 4032,
      "Ġ2015å¹´": 4033,
      "æµĵ": 4034,
      "æİ¨åĬ¨": 4035,
      "è¹": 4036,
      "ä¹ĭä¸ĭ": 4037,
      "åľ¨åħ¶": 4038,
      "ä¼łè¯´": 4039,
      "èµĦè®¯": 4040,
      "è´Ńä¹°": 4041,
      "ä¿¡ä»°": 4042,
      "150": 4043,
      "æī§å¯¼": 4044,
      "æŀ¢": 4045,
      "çĲĨäºĭ": 4046,
      "é¼ł": 4047,
      "ä¸Ńåħ±ä¸Ńå¤®": 4048,
      "æľ¬èº«": 4049,
      "çļĦä¸Ģåº§": 4050,
      "è¯¢": 4051,
      "ä¼Ļ": 4052,
      "ç¥ŀç»ı": 4053,
      "å½»": 4054,
      "èĽĩ": 4055,
      "åįĵ": 4056,
      "æĸ¯èĴĤ": 4057,
      "æĶ¾å¼ĥ": 4058,
      "åıĪåĲį": 4059,
      "æķĻåŃ¦": 4060,
      "äº¦æľī": 4061,
      "\",": 4062,
      "æĴŃæĶ¾": 4063,
      "éĩįåºĨ": 4064,
      "Ġp": 4065,
      "åįģåŃĹ": 4066,
      "âĢĿãĢģâĢľ": 4067,
      "æ³ķæ¡Ī": 4068,
      "æĽ´å¤ļ": 4069,
      "æľĢåĲİä¸Ģ": 4070,
      "ç¨ĭå¼ı": 4071,
      "Ġ2013å¹´": 4072,
      "åıĤèĢĥ": 4073,
      "è¥¿æĸ¹": 4074,
      "è´¡çĮ®": 4075,
      "æĭ³": 4076,
      "ç½ĳè·¯": 4077,
      "åįĹæŀģ": 4078,
      "186": 4079,
      "æīĵåĩ»": 4080,
      "åľ°çļĦ": 4081,
      "åĩºæĪĺ": 4082,
      "äºİ196": 4083,
      "å£®": 4084,
      "èĭ±éĽĦ": 4085,
      "å®¹æĺĵ": 4086,
      "ç¬ĳ": 4087,
      "åİĺ": 4088,
      "åĨĽçļĦ": 4089,
      "æ³°åĽ½": 4090,
      "ç§¯æŀģ": 4091,
      "æĵİ": 4092,
      "å½ĵå±Ģ": 4093,
      "æĬĹè®®": 4094,
      "æĺ¯ä¸Ģä½į": 4095,
      "åĸľæ¬¢": 4096,
      "åĽ½åĬ¡éĻ¢": 4097,
      "æıŃ": 4098,
      "æĺ¯æĹ¥æľ¬": 4099,
      "åī²": 4100,
      "çİ°ä»»": 4101,
      "äºĭæķħ": 4102,
      "ä¹Ŀé¾Ļ": 4103,
      "å¤ºå¾Ĺ": 4104,
      "ĠæŃ¤": 4105,
      "çīł": 4106,
      "åħ¨éĿ¢": 4107,
      "äºİ195": 4108,
      "è¯ģæį®": 4109,
      "åĲ¯çĶ¨": 4110,
      "æĢ§è´¨": 4111,
      "æİ¥è§¦": 4112,
      "ist": 4113,
      "äºŃ": 4114,
      "éĺŁä¼į": 4115,
      "æ´Ĺ": 4116,
      "Ġ4": 4117,
      "åįľ": 4118,
      "è£ħçĶ²": 4119,
      "æī®": 4120,
      "åħ¶å®ĥ": 4121,
      "ä¹Łä¼ļ": 4122,
      "å°Ŀ": 4123,
      "ç»ĵæĿŁåĲİ": 4124,
      "Ġof": 4125,
      "åįģä¸Ģ": 4126,
      "èµĲ": 4127,
      "çŁ¥è¯Ĩ": 4128,
      "å±Ĭåħ¨åĽ½": 4129,
      "çļĦéĩįè¦ģ": 4130,
      "èĤº": 4131,
      "åĲİæľŁ": 4132,
      "å¼ºçĥĪ": 4133,
      "æ¹ĸåĮĹ": 4134,
      "å¤ļç§į": 4135,
      "çªĹ": 4136,
      "èĬ³": 4137,
      "æĮª": 4138,
      "å®īå¾½": 4139,
      "å¦Ĥä½ķ": 4140,
      "å±ķç¤º": 4141,
      ");": 4142,
      "èĢĮæĪĲ": 4143,
      "çĸı": 4144,
      "ul": 4145,
      "å¤įæĿĤ": 4146,
      "æ¶īåıĬ": 4147,
      "åŃ¦ä¼ļ": 4148,
      "æ¼ĶåĶ±ä¼ļ": 4149,
      "ä¸ĸçķĮæĿ¯": 4150,
      "çł²": 4151,
      "ä¸ĩåħĥ": 4152,
      "çŁ¥åİ¿": 4153,
      "å®Įæķ´": 4154,
      "çļĦæµ·": 4155,
      "èı²å¾ĭ": 4156,
      "åĴĮåħ¶ä»ĸ": 4157,
      "éĩĮäºļ": 4158,
      "èı²å¾ĭå®¾": 4159,
      "æĿŃ": 4160,
      "çĻ½èī²": 4161,
      "ç»´å¥ĩ": 4162,
      "ç¾½æ¯Ľ": 4163,
      "çİĦ": 4164,
      "ä¸ĩç¾İåħĥ": 4165,
      "åħ¬ä¸»": 4166,
      "çĪ±å°Ķåħ°": 4167,
      "è´«": 4168,
      "ç¬¬2": 4169,
      "åĩºçİ°åľ¨": 4170,
      "èį¯çī©": 4171,
      "Ch": 4172,
      "æĬ¢": 4173,
      "éĩĮæĸ¯": 4174,
      "ç¾İæľ¯": 4175,
      "åħīç»ª": 4176,
      "59": 4177,
      "78": 4178,
      "æĸĩçĮ®": 4179,
      "æĿĳåºĦ": 4180,
      "æĦıè§ģ": 4181,
      "ev": 4182,
      "çļĦåľ°æĸ¹": 4183,
      "è±Ĩ": 4184,
      "éĢĴ": 4185,
      "éĵº": 4186,
      "æ°ĳéĹ´": 4187,
      "ä»Ģä¹Ī": 4188,
      "2äºº": 4189,
      "Ġm": 4190,
      "æ¸Ķ": 4191,
      "å¼ķæĵİ": 4192,
      "éĢĨ": 4193,
      "åĨħéĺģ": 4194,
      "åŁĥåıĬ": 4195,
      "å¸Ĥæ°ĳ": 4196,
      "è¿Ļæ¬¡": 4197,
      "å£³": 4198,
      "æĿĥåĪ©": 4199,
      "åĪĽå»º": 4200,
      "æĹħå®¢": 4201,
      "å«Į": 4202,
      "åĢĻéĢīäºº": 4203,
      "è´´": 4204,
      "é«ĺéĽĦ": 4205,
      "56": 4206,
      "æ¹¿": 4207,
      "3äºº": 4208,
      "æĬ½": 4209,
      "çĬ¬": 4210,
      "å®¢è¿Ĳ": 4211,
      "çĪ¶æ¯į": 4212,
      "é¢ĨåľŁ": 4213,
      "èĲ¨åħĭ": 4214,
      "ç®Ģåįķ": 4215,
      "ob": 4216,
      "å¾ĭå¸Ī": 4217,
      "äººå·¥": 4218,
      "å°ıçļĦ": 4219,
      "æº¶": 4220,
      "çº¢èī²": 4221,
      "æĿ°åħĭ": 4222,
      "Ġå¤§": 4223,
      "æİĪäºĪ": 4224,
      "æİªæĸ½": 4225,
      "æĭīä¸ģ": 4226,
      "éĽĩ": 4227,
      "è¡¨éĿ¢": 4228,
      "å®ļä¸º": 4229,
      "çĮ«": 4230,
      "Ġ2023å¹´": 4231,
      "éĻ¢éķ¿": 4232,
      "ç®Ģä»ĭ": 4233,
      "å¦ĥ": 4234,
      "ä¹¾éļĨ": 4235,
      "èŀº": 4236,
      "èĤ¡ä»½": 4237,
      "æķĪæŀľ": 4238,
      "çŃ¾ç½²": 4239,
      "åĩºéģĵ": 4240,
      "èģĺ": 4241,
      "è±¡å¾ģ": 4242,
      "NA": 4243,
      "å¯Ħ": 4244,
      "ç²®": 4245,
      "åıĳåĶ®": 4246,
      "èį£èªī": 4247,
      "æĦıä¸º": 4248,
      "æĭīå¤«": 4249,
      "å°ī": 4250,
      "éĻįä½İ": 4251,
      "å£°ç§°": 4252,
      "Ġ6": 4253,
      "é£ĵ": 4254,
      "æ·±åľ³": 4255,
      "æĤ¬": 4256,
      "å½¢è±¡": 4257,
      "åľ°éľĩ": 4258,
      "åħĭç½Ĺ": 4259,
      "äºļåİĨ": 4260,
      "ç¡®è®¤": 4261,
      "ç¡®è¯Ĭ": 4262,
      "åĽłç´ł": 4263,
      "ä¸ľåĮĹéĥ¨": 4264,
      "å·§": 4265,
      "æĿ¥åĪ°": 4266,
      "1äºº": 4267,
      "ç¢³": 4268,
      "æĮīçħ§": 4269,
      "çĬ¯ç½ª": 4270,
      "é£ĵé£İ": 4271,
      "çĽ¾": 4272,
      "eg": 4273,
      "12å¹´": 4274,
      "çĪĨçĤ¸": 4275,
      "åıĶ": 4276,
      "è¿Ł": 4277,
      "éķ¿åº¦": 4278,
      "ä¹Łåı¯ä»¥": 4279,
      "åĮ»çĶŁ": 4280,
      "é¢Ĩè¢ĸ": 4281,
      "ç«ŀäºī": 4282,
      "è¢ģ": 4283,
      "ä½ľèĢħ": 4284,
      "åľ°çĤ¹": 4285,
      "çħ¤": 4286,
      "ok": 4287,
      "å°Ĩä¼ļ": 4288,
      "å·®å¼Ĥ": 4289,
      "è¢«è®¤ä¸ºæĺ¯": 4290,
      "ä¼łæĴŃ": 4291,
      "ç¨¿": 4292,
      "å®ı": 4293,
      "æ´ģ": 4294,
      "æĽ´åĬł": 4295,
      "ang": 4296,
      "ä¸ĵéĹ¨": 4297,
      "ä¸Ī": 4298,
      "æĸľ": 4299,
      "æĸĩåŃĹ": 4300,
      "ä¼ĬæľĹ": 4301,
      "åıĳåĩº": 4302,
      "åıĻåĪ©äºļ": 4303,
      "ä¸įæ»¡": 4304,
      "å®ŀéĻħä¸Ĭ": 4305,
      "çļĦé«ĺ": 4306,
      "ä¸ĵå®¶": 4307,
      "ç¾Ĭ": 4308,
      "åİĭåĬĽ": 4309,
      "ä¸Ģå®ļ": 4310,
      "åı¤ä»£": 4311,
      "ä¸¾è¡ĮçļĦ": 4312,
      "æ°Ķè±¡": 4313,
      "ä¸Ļ": 4314,
      "å¯¹æŃ¤": 4315,
      "å·¥åħ·": 4316,
      "ä¹¡è¯ķ": 4317,
      "èµĦéĩĳ": 4318,
      "Â°": 4319,
      "åı°åįĹ": 4320,
      "åŁºçĿ£æķĻ": 4321,
      "æĪıåī§": 4322,
      "çīµ": 4323,
      "æ¯ĶèµĽä¸Ń": 4324,
      "èĨľ": 4325,
      "88": 4326,
      "èħ¾": 4327,
      "57": 4328,
      "èµ·æºĲ": 4329,
      "=\"": 4330,
      "æĬ¼": 4331,
      "å°¸": 4332,
      "å°ļä¹¦": 4333,
      "æ²³çķĶ": 4334,
      "æįŁå¤±": 4335,
      ":\"": 4336,
      "ï½": 4337,
      "åĨĴ": 4338,
      "é«ĺäºİ": 4339,
      "å¤ļå¹´": 4340,
      "å¡«": 4341,
      "ç»ĻäºĪ": 4342,
      "æľīä¸Ģä¸ª": 4343,
      "è¾¹çķĮ": 4344,
      "é³įé±¼": 4345,
      "ä¸ľæĸ¹": 4346,
      "å¸ĪèĮĥ": 4347,
      "çĸ¾çĹħ": 4348,
      "TV": 4349,
      "çļĦä½ľåĵģ": 4350,
      "è¾©": 4351,
      "åĿ¦åħĭ": 4352,
      "çĽ¸æ¯Ķ": 4353,
      "ç»ıéªĮ": 4354,
      "è¡į": 4355,
      "çĹħä¾ĭ": 4356,
      "å¥ĳ": 4357,
      "è£ķ": 4358,
      "éĴ¦": 4359,
      "æľīæīĢ": 4360,
      "çĲĥä¼ļ": 4361,
      "ä½ľæĽ²": 4362,
      "ä¸¾äºº": 4363,
      "äº¨åĪ©": 4364,
      "ä»ĳ": 4365,
      "åľ¨æĹ¥æľ¬": 4366,
      "è¡°": 4367,
      "å§»": 4368,
      "æłĩä¸º": 4369,
      "1998å¹´": 4370,
      "åĩºå¸Ń": 4371,
      "æ°Ł": 4372,
      "ç½¢": 4373,
      "æĺ¯ä»¥": 4374,
      "åĪĹè¡¨": 4375,
      "è¸ª": 4376,
      "tw": 4377,
      "éĢĢå½¹": 4378,
      "ĠU": 4379,
      "éĿ¢å¯¹": 4380,
      "å·¡åĽŀ": 4381,
      "çļĦä¸ī": 4382,
      "ä¸įä»ħ": 4383,
      "å½ĵå¹´": 4384,
      "é¸¡": 4385,
      "æĺİæ²»": 4386,
      "çº¦ä¸º": 4387,
      "æĶ¹åĸĦ": 4388,
      "æĢ§åĪ«": 4389,
      "çĻ»éĻĨ": 4390,
      "è¥¿èĹı": 4391,
      "èĮĤ": 4392,
      "ä½ıå®ħ": 4393,
      "å²ģçļĦ": 4394,
      "è²": 4395,
      "çĲī": 4396,
      "ä¹ĭä¸Ń": 4397,
      "ä¸¤å¹´": 4398,
      "æĶ¹éĢł": 4399,
      "åı¸æ³ķ": 4400,
      "å¹¶åħ¥": 4401,
      "åĪĹåħ¥": 4402,
      "åĽŀåºĶ": 4403,
      "åħĭèİ±": 4404,
      "ç«Ļåı°": 4405,
      "å®Ļ": 4406,
      "çİĩé¢Ĩ": 4407,
      "éĤ£éĩĮ": 4408,
      "è´µæĹı": 4409,
      "èĪŀåı°": 4410,
      "66": 4411,
      "è½¬ç§»": 4412,
      "åĪ¶çļĦ": 4413,
      "1999å¹´": 4414,
      "ç±³çļĦ": 4415,
      "ç¤¾ä¼ļä¸»ä¹ī": 4416,
      "å¦Ī": 4417,
      "å®ŀè¡Į": 4418,
      "å£°æĺİ": 4419,
      "åĨ¬åŃ£": 4420,
      "åľ°éĿ¢": 4421,
      "ä¸Ģå®¶": 4422,
      "ç²¹": 4423,
      "ç§įæĹı": 4424,
      "èĭ±å°º": 4425,
      "çĶµè½¦": 4426,
      "æ¾³æ´²": 4427,
      "BC": 4428,
      "èĤ¥": 4429,
      "åŁºåĽł": 4430,
      "åıĤè°ĭ": 4431,
      "åĸ·": 4432,
      "åħ³éĹŃ": 4433,
      "ä¸Ģåº§": 4434,
      "åĳ½åĲįä¸º": 4435,
      "èįĴ": 4436,
      "æµģåŁŁ": 4437,
      "åĥ§": 4438,
      "æµ·æ´ĭ": 4439,
      "æĪĲæľ¬": 4440,
      "You": 4441,
      "åıĤåĬłäºĨ": 4442,
      "è£ħç½®": 4443,
      "å¥¹åľ¨": 4444,
      "æĩ": 4445,
      "éģµ": 4446,
      "çĭĦ": 4447,
      "Ġ2012å¹´": 4448,
      "54": 4449,
      "ç¤ºå¨ģ": 4450,
      "è¯ŃçļĦ": 4451,
      "å½¢æĢģ": 4452,
      "çĸ«æĥħ": 4453,
      "æµ©": 4454,
      "ä¸ĢæĿ¡": 4455,
      "æīįèĥ½": 4456,
      "åıĺå¾Ĺ": 4457,
      "å²ģæĹ¶": 4458,
      "ç¡ķå£«": 4459,
      "èĬ¬åħ°": 4460,
      "åľ¨ä¸ŃåĽ½": 4461,
      "é¸¿": 4462,
      "å´Ķ": 4463,
      "çİĽä¸½": 4464,
      "åħ¬åı¸çļĦ": 4465,
      "åĳ¨å¹´": 4466,
      "ç¬¦åĲĪ": 4467,
      "é©±éĢĲ": 4468,
      "æĦıæĢĿ": 4469,
      "åį³ä½¿": 4470,
      "é«ĺéĢŁåħ¬è·¯": 4471,
      "æľºåĻ¨": 4472,
      "æµĭéĩı": 4473,
      "nd": 4474,
      "æµ·å¤ĸ": 4475,
      "é³įé±¼çº²": 4476,
      "çļĦåĽ½å®¶": 4477,
      "æŃ£å¸¸": 4478,
      "å¸ħ": 4479,
      "éĢļè½¦": 4480,
      "èİ«æĸ¯ç§ĳ": 4481,
      "æĸ°çĸĨ": 4482,
      "å±Ģéķ¿": 4483,
      "å²Ĺ": 4484,
      "è¾ĥä¸º": 4485,
      "CD": 4486,
      "æĥħæĬ¥": 4487,
      "ard": 4488,
      "Ġd": 4489,
      "åı¦ä¸Ģä¸ª": 4490,
      "é¥Ń": 4491,
      "é¡¾éĹ®": 4492,
      "å¯¹è±¡": 4493,
      "å¼Ģè®¾": 4494,
      "çĶµåĬĽ": 4495,
      "èĭıæł¼åħ°": 4496,
      "å¼¥": 4497,
      "éħįåĲĪ": 4498,
      "æ··åĲĪ": 4499,
      "é£Łçī©": 4500,
      "éĻĦè¿ĳçļĦ": 4501,
      "æĢĴ": 4502,
      "åĩºæĿ¥": 4503,
      "ä¿®æĶ¹": 4504,
      "æ¶µ": 4505,
      "å§Ķä¹¦è®°": 4506,
      "æĶ¶è´Ń": 4507,
      "æĻļä¸Ĭ": 4508,
      "åı°åĮĹå¸Ĥ": 4509,
      "Ġèĩª": 4510,
      "åĵ²åŃ¦": 4511,
      "ä¿ĺ": 4512,
      "å¾Īå¿«": 4513,
      "æķ´ä½ĵ": 4514,
      "è¾Ĳé³įé±¼çº²": 4515,
      "èĢĹ": 4516,
      "çģ«ç®Ń": 4517,
      "å¹¶ä»¥": 4518,
      "åĩłä¸ª": 4519,
      "éĻĨåľ°éĿ¢ç§¯ä¸º": 4520,
      "çŁ¥åĲį": 4521,
      "åĪĨéħį": 4522,
      "æ°´åŁŁéĿ¢ç§¯ä¸º": 4523,
      "3ä¸ª": 4524,
      "æ¬£": 4525,
      "10å¹´": 4526,
      "æ¶¦": 4527,
      "åıĳçİ°äºĨ": 4528,
      "æī©å¤§": 4529,
      "up": 4530,
      "åŃ¤": 4531,
      "éħįéŁ³": 4532,
      "èĢĢ": 4533,
      "å·¥äºº": 4534,
      "å¼ĢéĢļ": 4535,
      "åĮĪçīĻ": 4536,
      "52": 4537,
      "æŃĩ": 4538,
      "æ¯Ķä¾ĭ": 4539,
      "est": 4540,
      "çŁ¶": 4541,
      "çĭĤ": 4542,
      "æ³ķå®ĺ": 4543,
      "ä¸ľåįĹéĥ¨": 4544,
      "äº¿åħĥ": 4545,
      "all": 4546,
      "èµ¶": 4547,
      "å¹¿ä¸ľçľģ": 4548,
      "åĽĽåįģ": 4549,
      "å¯¼å¼¹": 4550,
      "æĮªå¨ģ": 4551,
      "åĮĪçīĻåĪ©": 4552,
      "çļĦåİĨåı²": 4553,
      "ä¹ĭåŃĲ": 4554,
      "èĢĮè¨Ģ": 4555,
      "åĤħ": 4556,
      "uc": 4557,
      "åľ¨è¯¥": 4558,
      "å¢ŀéķ¿": 4559,
      "ç¥Ģ": 4560,
      "æĥ¯": 4561,
      "è£ħå¤ĩ": 4562,
      "çĭ®": 4563,
      "éĻĢ": 4564,
      "åº·çĨĻ": 4565,
      "å¯¸": 4566,
      "çľģåĴĮ": 4567,
      "ç¿Į": 4568,
      "ï½ŀ": 4569,
      "ä»»èģĮ": 4570,
      "è¯·æ±Ĥ": 4571,
      "åĲĮçĽŁ": 4572,
      "åŁĥå°Ķ": 4573,
      "æıĲåĪ°": 4574,
      "æµ·å³¡": 4575,
      "æģĲæĢ": 4576,
      "ik": 4577,
      "çĶ¨ä½ľ": 4578,
      "åĬ¨ä½ľ": 4579,
      "åŀĤ": 4580,
      "æĪĺçķ¥": 4581,
      "ç¥¨æĪ¿": 4582,
      "å½ĵä¸ŃéĻĨåľ°éĿ¢ç§¯ä¸º": 4583,
      "çļĦä¸Ń": 4584,
      "èĢĮæ°´åŁŁéĿ¢ç§¯ä¸º": 4585,
      "ç§ĺå¯Ĩ": 4586,
      "å¤ªåŃĲ": 4587,
      "èĦĤ": 4588,
      "98": 4589,
      "å¤·": 4590,
      "åİ¢": 4591,
      "ä¸ĭéĻį": 4592,
      "æŁĶ": 4593,
      "ew": 4594,
      "çļĦæĹ¶éĹ´": 4595,
      "ç§ģäºº": 4596,
      "ä¸ĭæĿ¥": 4597,
      "ç²¤": 4598,
      "äºļåİĨå±±": 4599,
      "18å¹´": 4600,
      "æŃ¦æ±ī": 4601,
      "æĤī": 4602,
      "éĥ¨çļĦ": 4603,
      "å¸ĥå°Ķ": 4604,
      "ç¼ħçĶ¸": 4605,
      "åįİçĽĽ": 4606,
      "çĭĹ": 4607,
      "éĢĢä¼ĳ": 4608,
      "ip": 4609,
      "Ġ19": 4610,
      "çĶŁçļĦ": 4611,
      "èµ·ä¹ī": 4612,
      "åĩºæ¼Ķ": 4613,
      "å§ļ": 4614,
      "åĽŀå½Ĵ": 4615,
      "æ»ļ": 4616,
      "eb": 4617,
      "éĹ´çļĦ": 4618,
      "æŃ¥åħµ": 4619,
      "è¦ĨçĽĸ": 4620,
      ";-": 4621,
      "åħ«å¹´": 4622,
      "Ġè¡ĮæĶ¿åĮºåĪĴ": 4623,
      "andĠ": 4624,
      "ä¸ĬåįĪ": 4625,
      "è¯´æĺİ": 4626,
      "ç¼ĸåī§": 4627,
      "ç¢İ": 4628,
      "76": 4629,
      "éĢ¢": 4630,
      "è§Ĥæµĭ": 4631,
      "ä¸ŃåĽ½äººæ°ĳè§£æĶ¾åĨĽ": 4632,
      "æľĢè¿ĳ": 4633,
      "éĩįå¤§": 4634,
      "çĮĽ": 4635,
      "åĬ³åĬ¨": 4636,
      "æī¾åĪ°": 4637,
      "ep": 4638,
      "ä¸ºè¾Ĳé³įé±¼çº²": 4639,
      "OS": 4640,
      "ä½ĵéķ¿åı¯è¾¾": 4641,
      "æ·±åº¦": 4642,
      "çģĮ": 4643,
      "æİ¨è¿Ľ": 4644,
      "åįİçĽĽé¡¿": 4645,
      "53": 4646,
      "è¢«è¿«": 4647,
      "é¢Ħè®¡": 4648,
      "å½°": 4649,
      "èĬĴ": 4650,
      "åĲĪçº¦": 4651,
      "åĬŀäºĭ": 4652,
      "åħ´è¶£": 4653,
      "å¥¥è¿Ĳä¼ļ": 4654,
      "ha": 4655,
      "æĳĩ": 4656,
      "åĪ¸": 4657,
      "ç»Ħå»º": 4658,
      "çľŁæŃ£": 4659,
      "ç»ıåħ¸": 4660,
      "çļĦéĹ®é¢ĺ": 4661,
      "é©¬å°Ķ": 4662,
      "è¯ķéªĮ": 4663,
      "åºŀ": 4664,
      "ç¬¬åħ«": 4665,
      "åĳ¨åĽ´": 4666,
      "é£İéĻ©": 4667,
      "æºĲèĩª": 4668,
      "å°Ŀè¯ķ": 4669,
      "ç¾İåĨĽ": 4670,
      "ä¿ĿåŃĺ": 4671,
      "ä¸ºæŃ¢": 4672,
      "åĬłçĽŁ": 4673,
      "å¼ķåħ¥": 4674,
      "æĬķéĻį": 4675,
      "éĺ²å¾¡": 4676,
      "å¾¡åı²": 4677,
      "ell": 4678,
      "æłĸæģ¯åľ¨": 4679,
      "å¹¿è¥¿": 4680,
      "æ»©": 4681,
      "èĬ±åĽŃ": 4682,
      "æĿĢæŃ»": 4683,
      "if": 4684,
      "ä¸Ńæľī": 4685,
      "ç¬¼": 4686,
      "å»Ĭ": 4687,
      "åľ°åĽ¾": 4688,
      "åĮĹèµ·": 4689,
      "Ġ2024å¹´": 4690,
      "ä¼ª": 4691,
      "åĳİ": 4692,
      "åģ·": 4693,
      "å²Ľå±¿": 4694,
      "åĬ¿åĬĽ": 4695,
      "âĢ¦âĢ¦": 4696,
      "éĺª": 4697,
      "åĮĹäº¬å¸Ĥ": 4698,
      "æľ¬ç«Ļ": 4699,
      "èįĲ": 4700,
      "éļıåį³": 4701,
      "ĠæĽ¾": 4702,
      "å¥İ": 4703,
      "è´£ä»»": 4704,
      "Ġä»İ": 4705,
      "ä»£è¡¨å¤§ä¼ļ": 4706,
      "å¤§è§Ħæ¨¡": 4707,
      "éĢ»": 4708,
      "ä¸İåħ¶ä»ĸ": 4709,
      "èĤĸ": 4710,
      "å£°éŁ³": 4711,
      "çļĦæĥħåĨµä¸ĭ": 4712,
      "().": 4713,
      "1997å¹´": 4714,
      "ä»¥åīį": 4715,
      "éħ¶": 4716,
      "æĹĹä¸ĭ": 4717,
      "å¸¦æĿ¥": 4718,
      "è®ºæĸĩ": 4719,
      "çĶ¨éĢĶ": 4720,
      "çĶŁæĢģ": 4721,
      "åĽ½å®¶éĺŁ": 4722,
      "1992å¹´": 4723,
      "1996å¹´": 4724,
      "Ġin": 4725,
      "çıĬ": 4726,
      "ä¾ł": 4727,
      "å¯¹å¤ĸ": 4728,
      "æ¸©åº¦": 4729,
      "è®²è¿°": 4730,
      "åĲ¾": 4731,
      "äº¿ç¾İåħĥ": 4732,
      "çħ§çīĩ": 4733,
      "43": 4734,
      "BA": 4735,
      "æŀĿ": 4736,
      "è¿Ĳä½ľ": 4737,
      "ç»ĦæĪĲçļĦ": 4738,
      "ä¿ĥè¿Ľ": 4739,
      "ä»£çłģ": 4740,
      "çļĦæĶ¯æĮģ": 4741,
      "å¯¹åºĶ": 4742,
      "77": 4743,
      "ä¼ĺåĬ¿": 4744,
      "è½¯ä»¶": 4745,
      "æľĢå¤ļ": 4746,
      "å¾ĹçŁ¥": 4747,
      "è§£æķ£": 4748,
      "æ¹ĺ": 4749,
      "ç¿ģ": 4750,
      "ä¸¤æ¬¡": 4751,
      "æĮĩå¯¼": 4752,
      "å¤«äºº": 4753,
      "è°ĪåĪ¤": 4754,
      "çĴĥ": 4755,
      "èµĭ": 4756,
      "éļľç¢į": 4757,
      "å¨ĥ": 4758,
      "åĵ¥ä¼¦": 4759,
      "å¤ıåŃ£å¥¥æŀĹåĮ¹åħĭè¿ĲåĬ¨ä¼ļ": 4760,
      "å¹´é¾Ħ": 4761,
      "åĲįä¹ī": 4762,
      "åįģä¸ī": 4763,
      "æŀĦéĢł": 4764,
      "ä¿®å»º": 4765,
      "art": 4766,
      "éĺĶ": 4767,
      "ç»ıçĲĨ": 4768,
      "èĥ¸": 4769,
      "åľ¨å¤§": 4770,
      "å¼¦": 4771,
      "åı°ä¸Ń": 4772,
      "æģĲæĢĸ": 4773,
      "Ġ5": 4774,
      "éŃĤ": 4775,
      "éļ¾ä»¥": 4776,
      "åįµ": 4777,
      "æłı": 4778,
      "å°ıåŀĭ": 4779,
      "æĮĩæİ§": 4780,
      "ä¸ĩåİĨ": 4781,
      "çļĦå·¥ä½ľ": 4782,
      "ä»ĩ": 4783,
      "äºĨè§£": 4784,
      "Ġæ¦Ĥ": 4785,
      "åİĨä»»": 4786,
      "åĲĲ": 4787,
      "è¢«è§Ĩä¸º": 4788,
      "ä¸Ĭæµ·å¸Ĥ": 4789,
      "çļĦå¤ĸ": 4790,
      "æľ´": 4791,
      "è¥¿åįĹéĥ¨": 4792,
      "é©¬æĭī": 4793,
      "æ¯ķä¸ļåĲİ": 4794,
      "hans": 4795,
      "é©¾é©¶": 4796,
      "çļĦå±±": 4797,
      "ä»ĸè¿ĺ": 4798,
      "éĤ£äºĽ": 4799,
      "åĲı": 4800,
      "ä¸īè§Ĵ": 4801,
      "hk": 4802,
      "åıł": 4803,
      "æ·ĺ": 4804,
      "1945å¹´": 4805,
      "åħĭæĭī": 4806,
      "éĤ¨": 4807,
      "çļĦåıĳå±ķ": 4808,
      "æ³¨åĨĮ": 4809,
      "ant": 4810,
      "å©ļå§»": 4811,
      "Ġ2011å¹´": 4812,
      "å®ĩå®Ļ": 4813,
      "indow": 4814,
      "æī®æ¼Ķ": 4815,
      "41": 4816,
      "è¥¿å®ī": 4817,
      "çŃīçŃī": 4818,
      "ç½ĳçĲĥ": 4819,
      "å±ł": 4820,
      "åĮĸçŁ³": 4821,
      "æĳĦå½±": 4822,
      "19å¹´": 4823,
      "ç¡«": 4824,
      "åĬłå¼º": 4825,
      "æ¬¡å¹´": 4826,
      "éĩıçļĦ": 4827,
      "èħĲ": 4828,
      "éĶĻè¯¯": 4829,
      "æĲº": 4830,
      "å¹´ä»£": 4831,
      "åĨĽåĮº": 4832,
      "èĪ±": 4833,
      "åı°é£İ": 4834,
      "1988å¹´": 4835,
      "æ·¡æ°´": 4836,
      "å½¦": 4837,
      "å®¶äºº": 4838,
      "å¤ªç©º": 4839,
      "95": 4840,
      "æŁıæŀĹ": 4841,
      "é¢ľèī²": 4842,
      "åľ¨é¦Ļæ¸¯": 4843,
      "åįģåħŃ": 4844,
      "èĦĬ": 4845,
      "æľįå½¹": 4846,
      "åĲĪæĪĲ": 4847,
      "éĻĨç»Ń": 4848,
      "éĢ®": 4849,
      "è²Į": 4850,
      "å®¶çļĦ": 4851,
      "åĺ´": 4852,
      "1994å¹´": 4853,
      "AR": 4854,
      "é¹°": 4855,
      "ä»ĸè¢«": 4856,
      "éĢĢåĩº": 4857,
      "åįĹéĿŀ": 4858,
      "BS": 4859,
      "åĬłåĪ©": 4860,
      "éĢļéģĵ": 4861,
      "Ġ2010å¹´": 4862,
      "æĶ¿åįı": 4863,
      "åįĹæĸ¹": 4864,
      "æŃ§": 4865,
      "éļ¶å±ŀ": 4866,
      "äºİ193": 4867,
      "åİŁä½ı": 4868,
      "Ġ10": 4869,
      "æĹ¬": 4870,
      "è¥¿åĮĹéĥ¨": 4871,
      "å¸¦æľī": 4872,
      "ç¨į": 4873,
      "æĶ¿åºľçļĦ": 4874,
      "æ±Łè¥¿": 4875,
      "åıī": 4876,
      "åħĭçļĦ": 4877,
      "1949å¹´": 4878,
      "ill": 4879,
      "ç¬¬3": 4880,
      "çĲĥåŃ£": 4881,
      "ç³»ç»ŁçļĦ": 4882,
      "ä»·æł¼": 4883,
      "éĩĬæĶ¾": 4884,
      "ä¹ĲéĺŁ": 4885,
      "ï¼ı": 4886,
      "å®ļå±ħ": 4887,
      "AM": 4888,
      "å¤§èµĽ": 4889,
      "åĳĪçİ°": 4890,
      "ä¸Ģèĩ´": 4891,
      "ä½ľåĩº": 4892,
      "çĽ¸ä¿¡": 4893,
      "qu": 4894,
      "Ġ192": 4895,
      "çļĦæķħäºĭ": 4896,
      "é¦ĸåħĪ": 4897,
      "å¨ĺ": 4898,
      "ä¿Ŀç½Ĺ": 4899,
      "åĪĨåĪ«ä¸º": 4900,
      "åĪ·": 4901,
      "ç¿ł": 4902,
      "åħ¼ä»»": 4903,
      "éĹ½": 4904,
      "æģ°": 4905,
      "æİĴè¡Į": 4906,
      "ĠçļĦæĹ¶åĮºä¸º": 4907,
      "ĠäºİæĹ¶çļĦäººåı£æķ°éĩıä¸ºäºº": 4908,
      "ĠæīĢå±ŀçļĦçľģçº§éĢīåĮºä¸º": 4909,
      "æīĢå±ŀ": 4910,
      "éº¦åħĭ": 4911,
      "éĺ¶çº§": 4912,
      "Ġä¸İæİ¥å£¤çļĦå¸Ĥéķĩ": 4913,
      "ĠçļĦéĤ®æĶ¿ç¼ĸçłģä¸º": 4914,
      "79": 4915,
      "ä¸¤åĲį": 4916,
      "èĿ¶": 4917,
      "ex": 4918,
      "æ¸¸æ³³": 4919,
      "ä»»åĳ½ä¸º": 4920,
      "æĬĹæĹ¥": 4921,
      "æı¡": 4922,
      "çĽ¸äºĴ": 4923,
      "åħ³éĶ®": 4924,
      "ç«ĭåį³": 4925,
      "éĢļè®¯": 4926,
      "ç¯®çĲĥ": 4927,
      "ud": 4928,
      "èĸĦ": 4929,
      "åĮĹæµ·": 4930,
      "éªĳå£«": 4931,
      "èĩªèº«": 4932,
      "åĿª": 4933,
      "æ¯Ķå¦Ĥ": 4934,
      "æ·»": 4935,
      "éªĳåħµ": 4936,
      "åį±æľº": 4937,
      "å©Ĩ": 4938,
      "æĸ¯æŀĹ": 4939,
      "éĽĢ": 4940,
      "å¸¦é¢Ĩ": 4941,
      "éĵŃ": 4942,
      "åİŁåŃĲ": 4943,
      "ä¸°å¯Į": 4944,
      "1æľĪ1æĹ¥": 4945,
      "å¿§": 4946,
      "è¶ĭ": 4947,
      "ä¼ĺç§Ģ": 4948,
      "éĨĴ": 4949,
      "ç¬¬äºĮæ¬¡ä¸ĸçķĮå¤§æĪĺ": 4950,
      "å·«": 4951,
      "å¤§èĩ´": 4952,
      "æ·®": 4953,
      "å±ķè§Ī": 4954,
      "æĹ¶æľŁçļĦ": 4955,
      "æĸ¹è¨Ģ": 4956,
      "å¯¹æĬĹ": 4957,
      "éĢīä¸º": 4958,
      "4äºº": 4959,
      "è®¡ç®Ĺæľº": 4960,
      "åĨħéĻĨ": 4961,
      "ä¾ĽåºĶ": 4962,
      "çľŁå®ŀ": 4963,
      "è¯ı": 4964,
      "éĿŀå»ºåĪ¶": 4965,
      "æĦıå¿Ĺ": 4966,
      "é¸£": 4967,
      "ç¾½æ¯ĽçĲĥ": 4968,
      "èīºäºº": 4969,
      "é»ĳèī²": 4970,
      "è¾ĵåħ¥": 4971,
      "ä¼Ĺå¤ļ": 4972,
      "éĺŁéķ¿": 4973,
      "ä»ĸä¸İ": 4974,
      "åĮĹæĸ¹": 4975,
      "åĽºå®ļ": 4976,
      "ä¸Ģçº§": 4977,
      "ä¸Ĭè¿°": 4978,
      "69": 4979,
      "æİĺ": 4980,
      "åħĪçĶŁ": 4981,
      "åħ·ä½ĵ": 4982,
      "åį°å°¼": 4983,
      "ä»£çĲĨ": 4984,
      "å·ŀåºľ": 4985,
      "æľĿå»·": 4986,
      "éĺ®": 4987,
      "CO": 4988,
      "æ´¾éģ£": 4989,
      "åµ": 4990,
      "1989å¹´": 4991,
      "å¾Ģå¾Ģ": 4992,
      "æ£Ģæµĭ": 4993,
      "å§¬": 4994,
      "éĥ½å¸Ĥ": 4995,
      "å¯»æī¾": 4996,
      "é»Ħéĩĳ": 4997,
      "é¢Ĩå¯¼äºº": 4998,
      "éĿŀå»ºåĪ¶åľ°åĮº": 4999,
      "185": 5000,
      "ä»£è¡¨åĽ¢": 5001,
      "çªģçł´": 5002,
      "é¼»": 5003,
      "Ġä»¥ä¸ĭ": 5004,
      "ä½ĨçĶ±äºİ": 5005,
      "Ġ8": 5006,
      "åįģäºĶ": 5007,
      "çģ«å±±": 5008,
      "çī¹èī²": 5009,
      "åįĹèĩ³": 5010,
      "çĽĳçĿ£": 5011,
      "åĹ£": 5012,
      "å¼Ģå±ķ": 5013,
      "æĦĪ": 5014,
      "æ³¢æĸ¯": 5015,
      "æĿīçŁ¶": 5016,
      "62": 5017,
      "å·²è¢«": 5018,
      "æĽ´ä¸º": 5019,
      "ä¾ĭåŃĲ": 5020,
      "æ´ĽæĿīçŁ¶": 5021,
      "ess": 5022,
      "æ°¯": 5023,
      "çĻ»ä¸Ĭ": 5024,
      "ain": 5025,
      "çĶµè¯Ŀ": 5026,
      "å½ĵå¤©": 5027,
      "ä¸¤åĽ½": 5028,
      "æĸ¤": 5029,
      "æĹ¥æĬ¥": 5030,
      "1000": 5031,
      "å±±è¥¿": 5032,
      "åĦĴ": 5033,
      "åħĨ": 5034,
      "èĭĳ": 5035,
      "çªģçĦ¶": 5036,
      "å®ŀéªĮå®¤": 5037,
      "èĮµ": 5038,
      "ä¾Ŀæį®": 5039,
      "åģ¿": 5040,
      "Ġå®¶æĹı": 5041,
      "ä¸º2": 5042,
      "åľºçļĦ": 5043,
      "å°¼äºļå·ŀ": 5044,
      "çĽ¸åħ³çļĦ": 5045,
      "åħ¬çĪµ": 5046,
      "åĽ½å®¶çļĦ": 5047,
      "æĳĨ": 5048,
      "ä¸¹éº¦": 5049,
      "Ġw": 5050,
      "åįĴ": 5051,
      "è¡ĮçļĦ": 5052,
      "æ±ª": 5053,
      "ä¸īä¸ĸ": 5054,
      "çī¹å®ļ": 5055,
      "1993å¹´": 5056,
      "åĲĽä¸»": 5057,
      "å¯¨": 5058,
      "åĨĽå®ĺ": 5059,
      "åĳĺå·¥": 5060,
      ":),": 5061,
      "Ġf": 5062,
      "ä¸º1": 5063,
      "å¤§å¤ļ": 5064,
      "1995å¹´": 5065,
      "ĠåĴĮ": 5066,
      "å°ĳå¥³": 5067,
      "å¦ĩå¥³": 5068,
      "å°±ä¼ļ": 5069,
      "æ²¿æµ·": 5070,
      "æĺİç¡®": 5071,
      "ä¸»è¦ģçļĦ": 5072,
      "600": 5073,
      "æĪ¿å±ĭ": 5074,
      "éĢ®æįķ": 5075,
      "çļĦåĲĮ": 5076,
      "åı²ä¸Ĭ": 5077,
      "1991å¹´": 5078,
      "è½¬åĲĳ": 5079,
      "æī©å±ķ": 5080,
      "4ä¸ª": 5081,
      "å¤ķ": 5082,
      "å¤§æ¡¥": 5083,
      "ä¾¨": 5084,
      "å°¼åħĭ": 5085,
      "èµĦäº§": 5086,
      "ong": 5087,
      "çļĦçĶµå½±": 5088,
      "èĦı": 5089,
      "ä¸Ģæ®µ": 5090,
      "éĻ¨": 5091,
      "å®ĥæĺ¯": 5092,
      "æľºåĪ¶": 5093,
      "éĵľçīĮ": 5094,
      "Ġéĺ¿": 5095,
      "è¯ģå®ŀ": 5096,
      "ä¸İåħ¶": 5097,
      "æŃ¤æ¬¡": 5098,
      "åĪ¶å®ļ": 5099,
      "ç»Ŀå¯¹": 5100,
      "åĬĿ": 5101,
      "å¤§å¥ĸ": 5102,
      "åĩĢ": 5103,
      "ä¸Ľ": 5104,
      "è¾°": 5105,
      "51": 5106,
      "180": 5107,
      "æ£ĢæŁ¥": 5108,
      "å¤§åİ¦": 5109,
      "ç§ĳå¤«": 5110,
      "äºļç¾İ": 5111,
      "åĮĸåĲĪçī©": 5112,
      "ç²Ĺ": 5113,
      "åĲ¯åĬ¨": 5114,
      "Ã©": 5115,
      "æ³ķåħ°è¥¿": 5116,
      "åĪĨç¦»": 5117,
      "è§Ĩé¢ĳ": 5118,
      "éĵ¸": 5119,
      "çī¹åĪ«æĺ¯": 5120,
      "åľ¨äºİ": 5121,
      "åī§æľ¬": 5122,
      "ç´§æĢ¥": 5123,
      "è¯Ħä¼°": 5124,
      "åĿĩä¸º": 5125,
      "Ġzh": 5126,
      "åĨľæ°ĳ": 5127,
      "åĵ¥ä¼¦æ¯Ķäºļ": 5128,
      "åĬłæĭī": 5129,
      "æ¶Ĥ": 5130,
      "ä¸ĳ": 5131,
      "ä¸»è¦ģæĺ¯": 5132,
      "ä¸Ĭæľī": 5133,
      "ä¿Ŀå®Ī": 5134,
      "ä¹łæĢ§": 5135,
      "èĲ¨æĸ¯": 5136,
      "åī§éĻ¢": 5137,
      "åºŁéĻ¤": 5138,
      "åĬ«": 5139,
      "åŁºéĩĳä¼ļ": 5140,
      "2ä¸ª": 5141,
      "1990å¹´": 5142,
      "1985å¹´": 5143,
      "çŁ©": 5144,
      "åľºæ¯ĶèµĽ": 5145,
      "åĢ¡": 5146,
      "ht": 5147,
      "ä¹ĭæĪĺ": 5148,
      "æī«": 5149,
      "è´©": 5150,
      "èĢĮéĿŀ": 5151,
      "æ±°": 5152,
      "è´¨çĸĳ": 5153,
      "çŃ¾è®¢": 5154,
      "ä¸Ńè¢«": 5155,
      "çİ°ä»Ĭ": 5156,
      "æ±Ģ": 5157,
      "åİŁåĪĻ": 5158,
      "åĨĽåĽ¢": 5159,
      "å½¢å®¹": 5160,
      "éĻķè¥¿": 5161,
      "ä¸ĭä»¤": 5162,
      "éĦĤ": 5163,
      "å¼¯": 5164,
      "åŃ¦å£«": 5165,
      "ç±³äºļ": 5166,
      "åĬªåĬĽ": 5167,
      "åħ¶ä¸ŃåĮħæĭ¬": 5168,
      "ç»ĻäºĨ": 5169,
      "ä¼ļéķ¿": 5170,
      "ç»´æĬ¤": 5171,
      "å¸Ńä½į": 5172,
      "çīłä»¬": 5173,
      "æĭĺ": 5174,
      "éĽĮ": 5175,
      "çŃīä¸º": 5176,
      "åįĩçº§": 5177,
      "ast": 5178,
      "é©³": 5179,
      "æĮĩå®ļ": 5180,
      "æ½Ń": 5181,
      "Ġ7": 5182,
      "é¾Ł": 5183,
      "æıĲä¾ĽäºĨ": 5184,
      "éĺ»æŃ¢": 5185,
      "åı·çļĦ": 5186,
      "èĥ½éĩı": 5187,
      "åŁİåł¡": 5188,
      "end": 5189,
      "èģĮä¸ļçĶŁæ¶¯": 5190,
      "åįİäºº": 5191,
      "ä¿Ŀéļľ": 5192,
      "åĭĭç«ł": 5193,
      "æłĩæľ¬": 5194,
      "ç©Ĩæĸ¯æŀĹ": 5195,
      "åĽ°éļ¾": 5196,
      "è¿Ļæł·çļĦ": 5197,
      "æŃ»åĲİ": 5198,
      "çļĩåĲİ": 5199,
      "ç§ĳåŃ¦éĻ¢": 5200,
      "æ¶Į": 5201,
      "1984å¹´": 5202,
      "äºļç¾İå°¼äºļ": 5203,
      "æĹ¶æ®µ": 5204,
      "æĥħåĨµä¸ĭ": 5205,
      "æĺ¯ä¸Ģé¢Ĺ": 5206,
      "Ġ2008å¹´": 5207,
      "åħ¶ä¸Ńä¸Ģç§į": 5208,
      "åĲİç»Ń": 5209,
      "åłª": 5210,
      "ç£¨": 5211,
      "é¦ĸä¸ª": 5212,
      "ç§įåŃĲ": 5213,
      "çłĸ": 5214,
      "èĲ¨å°Ķ": 5215,
      "èĵ¬": 5216,
      "éĨĩ": 5217,
      "å¯Ĵ": 5218,
      "åĪ©çĽĬ": 5219,
      "äºĮäºº": 5220,
      "é©¬éĩĮ": 5221,
      "çķĻä¸ĭ": 5222,
      "sp": 5223,
      "äº¦æĺ¯": 5224,
      "æ»¡è¶³": 5225,
      "2020å¹´ç¾İåĽ½äººåı£æĻ®æŁ¥çļĦæķ°æį®": 5226,
      "å¥¥å°Ķ": 5227,
      "åĺīéĿĸ": 5228,
      "å¿½": 5229,
      "æĥŁ": 5230,
      "åĢº": 5231,
      "å¤§åŃ¦çļĦ": 5232,
      "æīĭæľº": 5233,
      "åĬ©çĲĨ": 5234,
      "å»¶éķ¿": 5235,
      "çļĦä¸¤": 5236,
      "åıĤéĢī": 5237,
      "æķ¢": 5238,
      "æľ¬åľ°": 5239,
      "ĠæĹ©å¹´": 5240,
      "ä¸»åĬŀ": 5241,
      "åĬłå·ŀ": 5242,
      "ä¹Łä¸į": 5243,
      "æĶ¶è§Ĩ": 5244,
      "åĪºåı²": 5245,
      "å°¹": 5246,
      "å¾·çļĦ": 5247,
      "å¼ĹæľĹ": 5248,
      "ä¸ŃéĹ´": 5249,
      "åħ¬å®ī": 5250,
      "åĳ¨æľŁ": 5251,
      "èĮĥåĽ´åĨħ": 5252,
      "ä»¥å¤ĸ": 5253,
      "åįģåĽĽ": 5254,
      "åı¦æľī": 5255,
      "æ¶Īè´¹": 5256,
      "å¥Ķ": 5257,
      "lay": 5258,
      "çļĦåħ³ç³»": 5259,
      "åĭŁ": 5260,
      "æ°ĶæĹĭ": 5261,
      "ä¸ŃæľŁ": 5262,
      "æĬĳ": 5263,
      "è®¾å®ļ": 5264,
      "ç»´æĸ¯": 5265,
      "æº¯": 5266,
      "æĽ´æĸ°": 5267,
      "ä¸ĸçķĮä¸Ĭ": 5268,
      "åľ¨åĨħçļĦ": 5269,
      "å¤§å¹ħ": 5270,
      "å¤įåħ´": 5271,
      "éĹª": 5272,
      "å¹¶ä¸İ": 5273,
      "ä»¤äºº": 5274,
      "åĬŀäºĭå¤Ħ": 5275,
      "èº«ä¸º": 5276,
      "çº³ç²¹": 5277,
      "1ä¸ª": 5278,
      "æ´»è·ĥ": 5279,
      "ä¿®æŃ£": 5280,
      "éĤ»è¿ĳ": 5281,
      "æĺİæľĿæĶ¿æ²»äººçī©": 5282,
      "ä¸ľä¸´": 5283,
      "ç©ºæ°Ķ": 5284,
      "åıįæĺł": 5285,
      "é¢ĩ": 5286,
      "åİŁåĲį": 5287,
      "å½¢çĽ®": 5288,
      "é¤Ĳåİħ": 5289,
      "ran": 5290,
      "èĩ³äºİ": 5291,
      "æī¶": 5292,
      "ä¸Ĭä¸ĭ": 5293,
      "åĳĬè¯ī": 5294,
      "ç¢Ł": 5295,
      "æļ´åĬĽ": 5296,
      "--": 5297,
      "çļĦæ°´": 5298,
      "æĻĭçº§": 5299,
      "AC": 5300,
      "ack": 5301,
      "1986å¹´": 5302,
      "Ġ2009å¹´": 5303,
      "åįıè°ĥ": 5304,
      "çİ»çĴĥ": 5305,
      "å½ķéŁ³": 5306,
      "æĤ²": 5307,
      "85": 5308,
      "ä¸įåĪ°": 5309,
      "èŁ": 5310,
      "çİ°å®ŀ": 5311,
      "ä¼łåªĴ": 5312,
      "ç¿ħ": 5313,
      "çĽĳçĭ±": 5314,
      "00å¹´": 5315,
      "æĭ¼": 5316,
      "æĭĸ": 5317,
      "åĩºåıĳ": 5318,
      "åĪ©æĸ¯": 5319,
      "åħļçļĦ": 5320,
      "ä¼ļä¸Ĭ": 5321,
      "å¾·å°Ķ": 5322,
      "æİ¥æĶ¶": 5323,
      "ä¹¦éĻ¢": 5324,
      "åħ¸ç¤¼": 5325,
      "èķ¾": 5326,
      "æ·ĺæ±°": 5327,
      "æĹ¥æľŁ": 5328,
      "ä»Ĭå¤©": 5329,
      "éĢ¼": 5330,
      "æ¸ħåįİ": 5331,
      "åİŁå§ĭ": 5332,
      "åįģäºĮå¹´": 5333,
      "åįĩä»»": 5334,
      "éĵ¶çīĮ": 5335,
      "é£Łåĵģ": 5336,
      "19ä¸ĸçºª": 5337,
      "æĸ¯é¡¿": 5338,
      "èģĮä½į": 5339,
      "å½ĵåľ°çļĦ": 5340,
      "æĸĲ": 5341,
      "å¯ĵ": 5342,
      "åıĳæĺİ": 5343,
      "ĠCh": 5344,
      "ç«ĭæĸ¹": 5345,
      "å¸ĥèİ±": 5346,
      "æĤ£èĢħ": 5347,
      "æĹ¥æ²»": 5348,
      "æĳ§": 5349,
      "å·¢": 5350,
      "ç¡®è¯ĬçĹħä¾ĭ": 5351,
      "ian": 5352,
      "å·²æľī": 5353,
      "åħįè´¹": 5354,
      "åİŁä½ıæ°ĳ": 5355,
      "ç¨»": 5356,
      "é±¼ç±»": 5357,
      "äºļåİĨå±±å¤§": 5358,
      "ä»ĸä¹Ł": 5359,
      "æİ¨å¹¿": 5360,
      "æı´åĬ©": 5361,
      "ED": 5362,
      "ä¸Ģåľº": 5363,
      "è¿ĳå¹´": 5364,
      "åĨľæĿĳ": 5365,
      "äº²çİĭ": 5366,
      "çļĦè®¾è®¡": 5367,
      "è¥¿åħ°": 5368,
      "åº¦çļĦ": 5369,
      "ç»´åŁĥ": 5370,
      "èĢĥåı¤": 5371,
      "åī¯ä¸»ä»»": 5372,
      "äº§çĶŁçļĦ": 5373,
      "Ġå½ĵ": 5374,
      "æľīæľº": 5375,
      "å¼łä¸ĵè¾ĳ": 5376,
      "åľ¨ä¸Ń": 5377,
      "åĿĿ": 5378,
      "ç¥ł": 5379,
      "çĻĮ": 5380,
      "ç«ŀéĢī": 5381,
      "1980å¹´": 5382,
      "åī¯ä¸»å¸Ń": 5383,
      "æĺ¾èĳĹ": 5384,
      "çĶŁæĪĲ": 5385,
      "çĶ±æŃ¤": 5386,
      "åı¸é©¬": 5387,
      "63": 5388,
      "ç»³": 5389,
      "æīĢè°ĵ": 5390,
      "çĲ¼": 5391,
      "å¿į": 5392,
      "å¹³åİŁ": 5393,
      "å¤©çļĩ": 5394,
      "æĶ¹åĲįä¸º": 5395,
      "åħ¬åħĥåīį": 5396,
      "ä¾ĿçĦ¶": 5397,
      "åĸľåī§": 5398,
      "æłĭ": 5399,
      "è£ħé¥°": 5400,
      "æĺŃåĴĮ": 5401,
      "çĲĨè§£": 5402,
      "åıĳåĬ¨æľº": 5403,
      "ç§°ä½ľ": 5404,
      "è½¬æį¢": 5405,
      "é¾Ļæ±Ł": 5406,
      "179": 5407,
      "åį±éĻ©": 5408,
      "120": 5409,
      "æĺ¯å¾·åĽ½": 5410,
      "ç»Īäºİ": 5411,
      "åľŃ": 5412,
      "ä¸Ģè¯į": 5413,
      "å±±åĮº": 5414,
      "éĤ£ä¹Ī": 5415,
      "Ġ2025å¹´": 5416,
      "æ¸¸è¡Į": 5417,
      "Al": 5418,
      "çļĦæĪĲåĳĺ": 5419,
      "éĿłè¿ĳ": 5420,
      "87": 5421,
      "å¿Ļ": 5422,
      "ç©ºä¸Ń": 5423,
      "é¹¤": 5424,
      "å®Įå·¥": 5425,
      "è´§å¸ģ": 5426,
      "ä¿®å¤į": 5427,
      "éļĶç¦»": 5428,
      "åĩĿ": 5429,
      "åľ°å¸¦": 5430,
      "ä¸Īå¤«": 5431,
      "æł¡åĽŃ": 5432,
      "ç¡®ä¿Ŀ": 5433,
      "ä½ĵèĤ²åľº": 5434,
      "2001å¹´äººåı£": 5435,
      "è¿ĽæŃ¥": 5436,
      "èĥ½æºĲ": 5437,
      "éĩĩè®¿": 5438,
      "æīĢæľīçļĦ": 5439,
      "è¿ĲçĶ¨": 5440,
      "äºĶæľĪ": 5441,
      "æīĵç®Ĺ": 5442,
      "æ½ľèīĩ": 5443,
      "çĿ¡": 5444,
      "å¢ŀå¼º": 5445,
      "æľ¬çīĩ": 5446,
      "å¾·åįİ": 5447,
      "çŁĽ": 5448,
      "èĴ¸": 5449,
      "1983å¹´": 5450,
      "æ°´åºĵ": 5451,
      "184": 5452,
      "Window": 5453,
      "æ¯ĶåĪ©æĹ¶": 5454,
      "ä¼ļåĳĺ": 5455,
      "åį¡ç½Ĺ": 5456,
      "çłģå¤´": 5457,
      "ä¹īå¤§åĪ©": 5458,
      "é²¤": 5459,
      "æĴ°åĨĻ": 5460,
      "èĢĮä¸įæĺ¯": 5461,
      "å¯¹æĸ¹": 5462,
      "èĻ¹": 5463,
      "å¾ĹåĲį": 5464,
      "éĢļä¿¡": 5465,
      "æĭ¿ä¸ĭ": 5466,
      "ER": 5467,
      "æł½": 5468,
      "æĸ¯æĭīå¤«": 5469,
      "æī§æĶ¿": 5470,
      "éĢĤåĲĪ": 5471,
      "æĭĨéĻ¤": 5472,
      "å§Ĭ": 5473,
      "æ³ķçļĦ": 5474,
      "æĸ¯æīĺ": 5475,
      "ä¹Łå°±æĺ¯": 5476,
      "èĴĻçī¹": 5477,
      "å»ºç«ĭäºĨ": 5478,
      "è©¹å§Ĩæĸ¯": 5479,
      "åĲģ": 5480,
      "æ´¾åĩº": 5481,
      "Ġç¾İåĽ½": 5482,
      "èµĦæľ¬": 5483,
      "çŁ³æ²¹": 5484,
      "å±±ä¸ľçľģ": 5485,
      "å¤§ä¼Ĺ": 5486,
      "èĢĲ": 5487,
      "æ³¢ç½Ĺ": 5488,
      "åĨħæĪĺ": 5489,
      "åĪĻä¸º": 5490,
      "ä¹¦ç±į": 5491,
      "åĬŀçĲĨ": 5492,
      "1987å¹´": 5493,
      "æĮĩç¤º": 5494,
      "IS": 5495,
      "åĽ´ç»ķ": 5496,
      "çķĻåľ¨": 5497,
      "åīĬ": 5498,
      "å¸Ĥä¸Ńå¿ĥ": 5499,
      "ç¿Ķ": 5500,
      "72": 5501,
      "å¼ıçļĦ": 5502,
      "ä½Ľç½Ĺ": 5503,
      "è´µå·ŀ": 5504,
      "IC": 5505,
      "Ġæĸ°": 5506,
      "è®¤è¯Ĩ": 5507,
      "å»ºçŃĳçī©": 5508,
      "åį¢çĵ¦å°Ķçľģ": 5509,
      "æ³¡": 5510,
      "æĪĲå¹´": 5511,
      "æ³ķåºŃ": 5512,
      "å¤©çĦ¶": 5513,
      "åİĺç±³": 5514,
      "åĩºåħ¥åı£": 5515,
      "ric": 5516,
      "æĺ¯ä¸Ģåº§": 5517,
      "èĸĽ": 5518,
      "61": 5519,
      "ä¸Ģæŀļ": 5520,
      "æİĪæĿĥ": 5521,
      "åľĨå½¢": 5522,
      "æĶ¹åĪ¶": 5523,
      "ç®¡çĲĨå±Ģ": 5524,
      "Ġç¬¬": 5525,
      "Ġåħ¶ä»ĸ": 5526,
      "äº¥": 5527,
      "å°Ĩåľ¨": 5528,
      "é¦ĸçĽ¸": 5529,
      "ort": 5530,
      "åłĨ": 5531,
      "è¾¹å¢ĥ": 5532,
      "æĿĢå®³": 5533,
      "ç»¿èī²": 5534,
      "èĩªæĿĢ": 5535,
      "éĶĢéĩı": 5536,
      "å¸¸è§ģçļĦ": 5537,
      "AP": 5538,
      "æĶ¶éĽĨ": 5539,
      "ãĥ»": 5540,
      "èĢĮæ°´åŁŁéĿ¢ç§¯ä¸º0": 5541,
      "ÃĹ": 5542,
      "éĹ¸": 5543,
      "æĦıåĳ³": 5544,
      "çĽĨ": 5545,
      "æĺİæĺŁ": 5546,
      "åĲĦèĩª": 5547,
      "åĲĦç±»": 5548,
      "è¾½å®ģ": 5549,
      "ä»¥åįĹ": 5550,
      "åĪĨæĶ¯": 5551,
      "æĢģåº¦": 5552,
      "æľĢä½İ": 5553,
      "160": 5554,
      "89": 5555,
      "å¤§éĢī": 5556,
      "è®°å¿Ĩ": 5557,
      "åı¯ä»¥åľ¨": 5558,
      "ä¸ŃåĽ½çļĦ": 5559,
      "åĿļæĮģ": 5560,
      "ens": 5561,
      "åĲīæŀĹ": 5562,
      "åĪĨè£Ĥ": 5563,
      "åĲĮæĢ§": 5564,
      "æł¼æĭī": 5565,
      "çĬ¹å¤ªäºº": 5566,
      "éķ¿å®ĺ": 5567,
      "å¤«åį¡": 5568,
      "6äºº": 5569,
      "æĸĭ": 5570,
      "èŃ¦åĳĬ": 5571,
      "ä»ĬæĹ¥": 5572,
      "è¾¾å°Ķ": 5573,
      "ä¸ĭè¾ĸçļĦä¸Ģä¸ª": 5574,
      "her": 5575,
      "æĬĵ": 5576,
      "æ±Ŀ": 5577,
      "èģĶåĲĪä¼ļ": 5578,
      "åĽ½æ°ĳæĶ¿åºľ": 5579,
      "1ä¾ĭ": 5580,
      "èĥº": 5581,
      "å®¶ä¸Ń": 5582,
      "å¹³æ°ĳ": 5583,
      "æŁ´æ²¹": 5584,
      "æĹ¨åľ¨": 5585,
      "èĪŁ": 5586,
      "ç§ĳåŃ¦å®¶": 5587,
      "è¿ŀä»»": 5588,
      "çİĩä¸º": 5589,
      "æµĻæ±Łçľģ": 5590,
      "çļĦåĲİ": 5591,
      "å¼Łå¼Ł": 5592,
      "å¹¶è¢«": 5593,
      "å¿ħè¦ģ": 5594,
      "åĪĨåĪ«æĺ¯": 5595,
      "ä¸ŀ": 5596,
      "çŃīçº§": 5597,
      "æłª": 5598,
      "çļĦäºĭ": 5599,
      "å±Ī": 5600,
      "Ġ9": 5601,
      "ä»¥ä¸º": 5602,
      "å¥¹ä»¬": 5603,
      "æĶ¯æµģ": 5604,
      "Ġé¦Ļæ¸¯": 5605,
      "åī§éĽĨ": 5606,
      "æĹħè¡Į": 5607,
      "âĢĻ": 5608,
      "åħĭæŀĹ": 5609,
      "è¿Ļé¦ĸ": 5610,
      "äº²èĩª": 5611,
      "æ¯Ľæ³½": 5612,
      "ç¤ģ": 5613,
      "èİ±èĮµ": 5614,
      "1982å¹´": 5615,
      "æ»¨æµ·": 5616,
      "æĺ¯é¦Ļæ¸¯": 5617,
      "æĬ±": 5618,
      "äº¤æį¢": 5619,
      "æĭ¨": 5620,
      "é»Ħèī²": 5621,
      "éĴ»": 5622,
      "è§ĦèĮĥ": 5623,
      "æĸ¯æ´Ľ": 5624,
      "å´©": 5625,
      "Ġä»ĸ": 5626,
      "æĪĲç«ĭçļĦ": 5627,
      "ĠæĪªèĩ³": 5628,
      "å¹½": 5629,
      "æ¶Īå¤±": 5630,
      "å®°": 5631,
      "é»ĳé¾Ļæ±Ł": 5632,
      "çłĤ": 5633,
      "å°¤åħ¶æĺ¯": 5634,
      "èĪªå¤©": 5635,
      "åįłåľ°": 5636,
      "ä¸ºæŃ¤": 5637,
      "ä¸Ĭå¸Ĥ": 5638,
      "å·¥ç¨ĭå¸Ī": 5639,
      "è¿Ŀåıį": 5640,
      "io": 5641,
      "åĳ¼åĲģ": 5642,
      "æĳ§æ¯ģ": 5643,
      "800": 5644,
      "çº§åĪ«": 5645,
      "ĠIn": 5646,
      "æĦŁæŁĵèĢħ": 5647,
      "1920å¹´": 5648,
      "æĦıå¤ĸ": 5649,
      "ç§įæ¤į": 5650,
      "âĶ": 5651,
      "çĭ¼": 5652,
      "æĶ¶èĹı": 5653,
      "çŃ¾çº¦": 5654,
      "è¿¦": 5655,
      "åľ¨197": 5656,
      "å¤ļå°Ķ": 5657,
      "æ¬§çĽŁ": 5658,
      "åı¸ä»¤éĥ¨": 5659,
      "Ġåī§æĥħ": 5660,
      "æºĲäºİ": 5661,
      "éķ¿åŃĲ": 5662,
      "5äºº": 5663,
      "åįĩä¸º": 5664,
      "æĺ¯ä¸Ģéĥ¨": 5665,
      "Ġ2007å¹´": 5666,
      "man": 5667,
      "æª": 5668,
      "åŃ¦çļĦ": 5669,
      "èĭ±åĨĽ": 5670,
      "åį¡æĭī": 5671,
      "åĲīå°Ķ": 5672,
      "å°¼è¥¿äºļ": 5673,
      "éĻª": 5674,
      "è½¦åİ¢": 5675,
      "è¯¥æĿĳ": 5676,
      "æł¡åĮº": 5677,
      "æ³¢å°Ķ": 5678,
      "ne": 5679,
      "å¾·æĭī": 5680,
      "å©´": 5681,
      "ä»¥åĮĹ": 5682,
      "æ¸¯åı£": 5683,
      "å¾Īå¤§": 5684,
      "æ¦Ħ": 5685,
      "ä»»æľŁ": 5686,
      "å¦Ļ": 5687,
      "å®īå¨ľ": 5688,
      "1950å¹´": 5689,
      "æ¯Ľæ³½ä¸ľ": 5690,
      "åħ¶å®ŀ": 5691,
      "æŃĮè¯į": 5692,
      "è¿ĻéĩĮ": 5693,
      "èĦ¸": 5694,
      "å¾ªçİ¯": 5695,
      "åį¸": 5696,
      "å°Ħåĩ»": 5697,
      "å¯¹åħ¶": 5698,
      "å¾ĹåĪ°äºĨ": 5699,
      "ç§ĺä¹¦éķ¿": 5700,
      "ĠæŃ¤å¤ĸ": 5701,
      "æĬ«": 5702,
      "åı¤åħ¸": 5703,
      "èµ°åĲĳ": 5704,
      "çī¹éĩĮ": 5705,
      "äºļåĨĽ": 5706,
      "æİ¥æĽ¿": 5707,
      "æ¼Ķå¥ı": 5708,
      "èĳ£äºĭéķ¿": 5709,
      "ID": 5710,
      "JR": 5711,
      "çļĦåĦ¿åŃĲ": 5712,
      "ä¼½": 5713,
      "é©¬æĸ¯": 5714,
      "æĢ§èĥ½": 5715,
      "2000": 5716,
      "åľºæīĢ": 5717,
      "çĭŃ": 5718,
      "ï¼ħ": 5719,
      "é¡ºåĪ©": 5720,
      "ber": 5721,
      "å¤§å°ı": 5722,
      "åĴĸ": 5723,
      "å®¡æŁ¥": 5724,
      "åĮºè®®ä¼ļ": 5725,
      "éĺ²æŃ¢": 5726,
      "çĶŁæ´»ä¹łæĢ§": 5727,
      "ç¦ħ": 5728,
      "é¦ĸåºľ": 5729,
      "ine": 5730,
      "å¼ºåº¦": 5731,
      "åĽļ": 5732,
      "é¦ĸä½į": 5733,
      "ä¸»ä¹īèĢħ": 5734,
      "å¯®": 5735,
      "æĪĲéķ¿": 5736,
      "è¢ĭ": 5737,
      "èĢĮä¸į": 5738,
      "å·ŀåĪºåı²": 5739,
      "ç¥ŀè¯Ŀ": 5740,
      "å«ģ": 5741,
      "å¤§åį«": 5742,
      "ç«ĭåľº": 5743,
      "74": 5744,
      "äºĮæĪĺ": 5745,
      "ä»ķ": 5746,
      "éĥ¨çĶµå½±": 5747,
      "ç´¯è®¡": 5748,
      "âĶĢ": 5749,
      "æĭ±": 5750,
      "å¸ĤæĶ¿åºľ": 5751,
      "çī¹æĭī": 5752,
      "éĢĶä¸Ń": 5753,
      "è·Łéļı": 5754,
      "å®Ľ": 5755,
      "éĽį": 5756,
      "å¾Ĺä¸»": 5757,
      "é¢Ĩäºĭ": 5758,
      "åķĨåĵģ": 5759,
      "çļĦéĥ¨åĪĨ": 5760,
      "åįģä¹Ŀ": 5761,
      "åŁ¹è®Ń": 5762,
      "æıĲåıĬ": 5763,
      "AN": 5764,
      "æķ°ä½į": 5765,
      "ä¸¤èĢħ": 5766,
      "(,;": 5767,
      "ç¼©åĨĻ": 5768,
      "çļĦéŁ³ä¹Ĳ": 5769,
      "çĤī": 5770,
      "åıĹæ¬¢è¿İ": 5771,
      "åĲĦåĽ½": 5772,
      "æł¹å»·": 5773,
      "ä¸»åľº": 5774,
      "ä½Ĩä»ĸ": 5775,
      "é¦ĸæĴŃ": 5776,
      "ON": 5777,
      "çļĦå¥³": 5778,
      "çļĦç¬¬äºĮ": 5779,
      "é¦ĸå¸Ń": 5780,
      "å¸ĥéĩĮ": 5781,
      "æ±Łèĭıçľģ": 5782,
      "æĪĲäºº": 5783,
      "èĤĮ": 5784,
      "åģľéĿł": 5785,
      "7äºº": 5786,
      "åĲ¹": 5787,
      "å°¼å°Ķ": 5788,
      "ä½¿åħ¶": 5789,
      "ä¸ºåħ¶": 5790,
      "çĤ¹çļĦ": 5791,
      "éĿ¢ä¸´": 5792,
      "éĻ·åħ¥": 5793,
      "éķ¿æ±Ł": 5794,
      "çĶŁæ´»ä¹łæĢ§ä¸įæĺİ": 5795,
      "è¾Ł": 5796,
      "å¾·è¯Ń": 5797,
      "é¼İ": 5798,
      "å¾·åĨĽ": 5799,
      "è¾¨": 5800,
      "éŁµ": 5801,
      "åĩºçīĪç¤¾": 5802,
      "èĢķ": 5803,
      "æľĪçĲĥ": 5804,
      "å°Ĩé¢Ĩ": 5805,
      "ç¦»åŃĲ": 5806,
      "æ´¾çļĦ": 5807,
      "ä¸Ĭåįĩ": 5808,
      "æ£ĺ": 5809,
      "ç½Ĺé©¬å°¼äºļ": 5810,
      "æĥ¨": 5811,
      "èµ«å°Ķ": 5812,
      "1Ġ": 5813,
      "åŁĭ": 5814,
      "éķ¿è¾¾": 5815,
      "è¢«æįķ": 5816,
      "èĭ¯": 5817,
      "ä»ħæľī": 5818,
      "çĶĺèĤĥ": 5819,
      "çļĦè§Ĵèī²": 5820,
      "çĶ«": 5821,
      "åľºæĻ¯": 5822,
      "ç°": 5823,
      "çļĦä¸ĢäºĽ": 5824,
      "ce": 5825,
      "å·´å°Ķ": 5826,
      "æī¿è¯º": 5827,
      "ä¼¼ä¹İ": 5828,
      "çĤ¸å¼¹": 5829,
      "éģ¥": 5830,
      ")ãĢģãĢĬ": 5831,
      "éĽ¾": 5832,
      "å¤©ä½ĵ": 5833,
      "åħļåĳĺ": 5834,
      "çłĶåıĳ": 5835,
      "éĽ·æĸ¯": 5836,
      "åĲĦä¸ª": 5837,
      "\".": 5838,
      "ĠèĻ½çĦ¶": 5839,
      "é¢Ĩåľ°": 5840,
      "æ¯ıæĹ¥": 5841,
      "æĿ¡ä¾ĭ": 5842,
      "æĺ¯ä¹Įåħĭåħ°": 5843,
      "åħ¬æĸ¤": 5844,
      "åīįåĲİ": 5845,
      "éĥ½åľ¨": 5846,
      "ä¸ĢåĪĩ": 5847,
      "ä¸Ģå°ıæĹ¶": 5848,
      "å¸Ĳ": 5849,
      "æķ°çļĦ": 5850,
      "èĢĥè¯ķ": 5851,
      "å¤ĸäº¤éĥ¨": 5852,
      "éħįå¤ĩ": 5853,
      "è¾¹ç¼ĺ": 5854,
      "åĬłåĪ©ç¦ı": 5855,
      "2Ġ": 5856,
      "éģĵå¾·": 5857,
      "è¹Ī": 5858,
      "éħ·": 5859,
      "çĪ±æĥħ": 5860,
      "ä¼ļè®®åĳĺ": 5861,
      "ä¸¤ä¾§": 5862,
      "æ¡Ĩ": 5863,
      "å¸¸åĬ¡": 5864,
      "æĶ¯ä»ĺ": 5865,
      "äººæ°ĳå¸ģ": 5866,
      "èıĬ": 5867,
      "ark": 5868,
      "æ²¿éĿ©": 5869,
      "æĬµæĬĹ": 5870,
      "å¹¶çĶ±": 5871,
      "æĸĩæĺİ": 5872,
      "ç§¯åĪĨ": 5873,
      "åĩºçİ°äºĨ": 5874,
      "ĠèĥĮæĻ¯": 5875,
      "åľ¨åı°æ¹¾": 5876,
      "æľ¬äºº": 5877,
      "åįģæľĪ": 5878,
      "åĮħåĽ´": 5879,
      "çĽĳå¯Ł": 5880,
      "åħ¬å¼ĢèµĽ": 5881,
      "1åı·": 5882,
      "å¤¹": 5883,
      "åľ°è´¨": 5884,
      "æĪĲäºĨ": 5885,
      "å¤ļäºº": 5886,
      "åı¦ä¸Ģæĸ¹éĿ¢": 5887,
      "çļĦå¹³åĿĩ": 5888,
      "è¥¿ä¾§": 5889,
      "å¹³è¡¡": 5890,
      "ç¦ıå·ŀ": 5891,
      "äºİ192": 5892,
      "æĢĢçĸĳ": 5893,
      "ä¸ŃåĽ½å¤§éĻĨçļĦ": 5894,
      "åĮºåĨħ": 5895,
      "äºīåıĸ": 5896,
      "è¾ŀèģĮ": 5897,
      "çĶŁåŃĺ": 5898,
      "å¼Ģå¹ķ": 5899,
      "è¨Ģè®º": 5900,
      "æ¸¸æĪıçļĦ": 5901,
      "Ġn": 5902,
      "çļĦä½įç½®": 5903,
      "èĥĨ": 5904,
      "ry": 5905,
      "åľ¨èĭ±åĽ½": 5906,
      "åı¯è§ģ": 5907,
      "åĿĤ": 5908,
      "èĤł": 5909,
      "ä¼¯çĪµ": 5910,
      "our": 5911,
      "è¤": 5912,
      "Ġä¸ŃåĽ½": 5913,
      "å¼ıæľĪåı°": 5914,
      "æĮģæľī": 5915,
      "å·¡æ´ĭ": 5916,
      "åŃķ": 5917,
      "æīĭæľ¯": 5918,
      "åºĨç¥Ŀ": 5919,
      "çĲīçĲĥ": 5920,
      "ly": 5921,
      "è®¾äºİ": 5922,
      "å·¥ä½ľå®¤": 5923,
      "æī£": 5924,
      "åĲ«æľī": 5925,
      "æ±¡æŁĵ": 5926,
      "åıĳæĮ¥": 5927,
      "æīĢéĩĩçĶ¨": 5928,
      "èĭ±éĩĮ": 5929,
      "å¥ĭ": 5930,
      "éĺ¿æł¹å»·": 5931,
      "åĪĻåľ¨": 5932,
      "æĬ¥çº¸": 5933,
      "æ²ª": 5934,
      "æ£Ģå¯Ł": 5935,
      "è¤Ĳ": 5936,
      "æīģ": 5937,
      "åıĳè¨Ģ": 5938,
      "éĺ¿éĩĮ": 5939,
      "çŃĸçķ¥": 5940,
      "åĤ¬": 5941,
      "é¼ĵåĬ±": 5942,
      "åľ°åĲį": 5943,
      "178": 5944,
      "èĥľåĩº": 5945,
      "çŁŃæļĤ": 5946,
      "Ġ12": 5947,
      "éļĭ": 5948,
      "çıĢ": 5949,
      "åħ¶ä¸Ńä¸Ģ": 5950,
      "çº¿ä¸Ĭ": 5951,
      "è¶³å¤Ł": 5952,
      "é¢ĳçİĩ": 5953,
      "é¡·": 5954,
      "æıĲè®®": 5955,
      "æİ¨èįĲ": 5956,
      "çĪ±å¾·åįİ": 5957,
      "èīºæľ¯å®¶": 5958,
      "åĲ§": 5959,
      "ç«ĻçļĦ": 5960,
      "ice": 5961,
      "æ®ĸæ°ĳåľ°": 5962,
      "Ġæį®": 5963,
      "è¥Ħ": 5964,
      "è°Ń": 5965,
      "åıĺä¸º": 5966,
      "é¢ģåıĳ": 5967,
      "åĩĮæĻ¨": 5968,
      "è¯±": 5969,
      "ç¬¦åı·": 5970,
      "éĹ²": 5971,
      "åĩºåĶ®": 5972,
      "ä¸ľä¾§": 5973,
      "è¾¾å·ŀ": 5974,
      "å¤§èģĶçĽŁ": 5975,
      "åįķçĭ¬": 5976,
      "çĻ»åľº": 5977,
      "èĵĿèī²": 5978,
      "æĮĸ": 5979,
      "åħ¶ä¸ŃçĶ·æĢ§": 5980,
      "Ġåľ°æĸ¹": 5981,
      "çº¤": 5982,
      "æĪĲå°±": 5983,
      "ä¸īæľĪ": 5984,
      "éĢıéľ²": 5985,
      "åĩī": 5986,
      "åľºåľ°": 5987,
      "ä»ĸä»¬åľ¨": 5988,
      "åĶĲæľĿ": 5989,
      "æĪĺå£«": 5990,
      "æµ·å¹³éĿ¢": 5991,
      "Ġæľī": 5992,
      "ä½įäºİä¸ŃåĽ½": 5993,
      "ä¿ĦåĽ½": 5994,
      "éĻĦå±ŀ": 5995,
      "éĢĤåºĶ": 5996,
      "å¢ĥåĨħåħ±æľī": 5997,
      "äºļçĽ®": 5998,
      "è½¦éĺŁ": 5999,
      "åĻ¨çļĦ": 6000,
      "åĨĻä½ľ": 6001,
      "èµŀåĬ©": 6002,
      "çĽ´å¾Ħ": 6003,
      "å¼ĹéĩĮ": 6004,
      "åľ¨196": 6005,
      "è¿½æº¯": 6006,
      "é¢ģå¥ĸ": 6007,
      "åĩŃåĢŁ": 6008,
      "å°Ķå¤«": 6009,
      "éĿĴå²Ľ": 6010,
      "è¥¿æİ¥": 6011,
      "é¢Ī": 6012,
      "åĪ¶çīĩ": 6013,
      "æīĢå¤ĦçļĦ": 6014,
      "æł¼ä¸º": 6015,
      "åı²å¯Ĩ": 6016,
      "1958å¹´": 6017,
      "æĽ¿ä»£": 6018,
      "èģĶç»ľ": 6019,
      "æ²³çļĦ": 6020,
      "èº«åĪĨ": 6021,
      "çĵ¦å°Ķ": 6022,
      "èĸª": 6023,
      "An": 6024,
      "äººåı£ä¸º": 6025,
      "é¹ħ": 6026,
      "äºİ2016å¹´": 6027,
      "æ°¨": 6028,
      "åħ¬äº¤": 6029,
      "ç¬¬ä¹Ŀ": 6030,
      "æŃ£éĿ¢": 6031,
      "åĽĽæľĪ": 6032,
      "åĢ¾åĲĳ": 6033,
      "92": 6034,
      "93": 6035,
      "åĲŀ": 6036,
      "æĿĳèĲ½": 6037,
      "86": 6038,
      "ff": 6039,
      "çļĦå½¢å¼ı": 6040,
      "åľ¨ä¸Ģ": 6041,
      "ä¸¤ä½į": 6042,
      "æĻ®é²ģ": 6043,
      "èħĶ": 6044,
      "æ£ķ": 6045,
      "æľªæľī": 6046,
      "ä¸Ńåįİäººæ°ĳåħ±åĴĮåĽ½æĶ¿æ²»äººçī©": 6047,
      "çļĦæĸ¹æ³ķ": 6048,
      "æĹłçĹĩçĬ¶": 6049,
      "éĽĨåĲĪ": 6050,
      "1948å¹´": 6051,
      "åįļå£«åŃ¦ä½į": 6052,
      "æĽ°": 6053,
      "æ±īæĹı": 6054,
      "æ²³åįĹçľģ": 6055,
      "çļĦæĢ»": 6056,
      "æ¸¸åĩ»": 6057,
      "è¶³åįı": 6058,
      "å®£ç§°": 6059,
      "æĸ¥": 6060,
      "å¥¶": 6061,
      "å½ĵæĹ¥": 6062,
      "æŃ£ç¡®": 6063,
      "\"),": 6064,
      "åľ¨ä»ĸ": 6065,
      "åĬ²": 6066,
      "å¿ĺ": 6067,
      "ç§ĳå°Ķ": 6068,
      "å·¡æ´ĭèĪ°": 6069,
      "é«ĺè¾¾": 6070,
      "å¤©åĲİ": 6071,
      "é¢Ħç®Ĺ": 6072,
      "åĲ¸æĶ¶": 6073,
      "åľ¨æĸ°": 6074,
      "éķ¿æ²Ļ": 6075,
      "æī©å¼ł": 6076,
      "ç«ŀèµĽ": 6077,
      "Ġ2006å¹´": 6078,
      "å½ĵéĢīä¸º": 6079,
      "åĨķ": 6080,
      "åĽ½åĨĽ": 6081,
      "73": 6082,
      "oh": 6083,
      "åı¤èĢģ": 6084,
      "éºŁ": 6085,
      "000äºº": 6086,
      "æĺ¯åĽłä¸º": 6087,
      "æµ·æĭĶä¸º": 6088,
      "ç§ĳçļĦåħ¶ä¸Ńä¸Ģç§į": 6089,
      "åĽĬ": 6090,
      "æĹ¶åĢĻ": 6091,
      "æ³ķè¯Ń": 6092,
      "è¶³çĲĥéĺŁ": 6093,
      "Ġ0": 6094,
      "æĸĩèīº": 6095,
      "åī§åľº": 6096,
      "æ¯ıå¤©": 6097,
      "åŁ¹åħ»": 6098,
      "çĲª": 6099,
      "åħ¬åĳĬ": 6100,
      "è¥¿éĩĮ": 6101,
      "æĪĳçļĦ": 6102,
      "Ġåľ£": 6103,
      "åĲ»": 6104,
      "èĪŀè¹Ī": 6105,
      "éĴĵ": 6106,
      "å·²çŁ¥": 6107,
      "åĨ³è®®": 6108,
      "å¹²éĥ¨": 6109,
      "èľľ": 6110,
      "æľºçļĦ": 6111,
      "æ°Ķåİĭ": 6112,
      "ç¢§": 6113,
      "æģ©çľģ": 6114,
      "éĿŀæ³ķ": 6115,
      "è±«": 6116,
      "ç¢±": 6117,
      "éŃģ": 6118,
      "ä¸¥æł¼": 6119,
      "éģŃéģĩ": 6120,
      "æķĪåºĶ": 6121,
      "å®´": 6122,
      "èĪ¹åıª": 6123,
      "äºĴçĽ¸": 6124,
      "è¿Ļé¡¹": 6125,
      "å®īä¸ľ": 6126,
      "çĶµæ°Ķ": 6127,
      "æĹłè®º": 6128,
      "åĪ¶ä½ľçļĦ": 6129,
      "äº«å¹´": 6130,
      "è¶³çĲĥè¿ĲåĬ¨åĳĺ": 6131,
      "éĢĲæŃ¥": 6132,
      "é¸Łç±»": 6133,
      "åīª": 6134,
      "åĪĽå§ĭ": 6135,
      "ss": 6136,
      "æİł": 6137,
      "åĲĪæ³ķ": 6138,
      "æ¼ı": 6139,
      "å¸ĤæĶ¿": 6140,
      "åĲĮæĹ¥": 6141,
      "ç¾İåĽ½çļĦ": 6142,
      "è¶ħè¶Ĭ": 6143,
      "è®¾è®¡çļĦ": 6144,
      "åĪĨåĮº": 6145,
      "å§ľ": 6146,
      "è§Ĩè§ī": 6147,
      "å¤§å¸Ī": 6148,
      "èĢģå¸Ī": 6149,
      "è¶³çĲĥä¿±ä¹Ĳéĥ¨": 6150,
      "åģ¶åĥı": 6151,
      "å§ĭå»ºäºİ": 6152,
      "Ġä¸Ń": 6153,
      "ç©·": 6154,
      "å¤ĸéĥ¨": 6155,
      "æĪĲéĥ½": 6156,
      "åĬłéĢŁ": 6157,
      "å½¢çĬ¶": 6158,
      "åıĳçĶŁåľ¨": 6159,
      "å®¡åĪ¤": 6160,
      "å½ķå½±": 6161,
      "åıĮæīĵ": 6162,
      "å¤§éĺª": 6163,
      "åĽłåħ¶": 6164,
      "æ£ī": 6165,
      "æļ¨": 6166,
      "é¢Ħæµĭ": 6167,
      "æııç»ĺ": 6168,
      "æł½åŁ¹": 6169,
      "æĿ¥è¶Ĭ": 6170,
      "çĽ´éļ¶": 6171,
      "und": 6172,
      "åĴ¨": 6173,
      "äºİ2015å¹´": 6174,
      "sh": 6175,
      "1946å¹´": 6176,
      "çº¦æľī": 6177,
      "ä»İæŃ¤": 6178,
      "ç¾¤ä½ĵ": 6179,
      "ä¸»ä¹īçļĦ": 6180,
      "æıĲåĩºäºĨ": 6181,
      "æķĳæı´": 6182,
      "åħħæ»¡": 6183,
      "åĵĪå°Ķæ»¨": 6184,
      "ai": 6185,
      "åĪł": 6186,
      "æĹ¶åĮº": 6187,
      "éĶĲ": 6188,
      "2026å¹´": 6189,
      "æ¸¸å®¢": 6190,
      "åĪĽæĸ°": 6191,
      "æļĸ": 6192,
      "èĭıä¸¹": 6193,
      "ä»ĸæĽ¾ä»£è¡¨": 6194,
      "Ġæĺ¯": 6195,
      "è·µ": 6196,
      "ä¸īäºº": 6197,
      "æİ¥ä»»": 6198,
      "æºĥ": 6199,
      "æĵħ": 6200,
      "åģĩè®¾": 6201,
      "å¤ıä»¤æĹ¶éĹ´": 6202,
      "çļĦç¾İåĽ½": 6203,
      "çĲĨå·¥": 6204,
      "æģŃ": 6205,
      "éĤª": 6206,
      "å¯»æ±Ĥ": 6207,
      "éĥ¨ç½²": 6208,
      "æĶ¶åĪ°": 6209,
      "æ¨¡æĭŁ": 6210,
      "è¶ĬæĿ¥è¶Ĭ": 6211,
      "æĸĹäºī": 6212,
      "æĸ©": 6213,
      "æ¯ħ": 6214,
      "æļĤåģľ": 6215,
      "ç¦ıå»ºçľģ": 6216,
      "ith": 6217,
      "å½±åĥı": 6218,
      "èĮħ": 6219,
      "åĽĽå·Ŀçľģ": 6220,
      "âĢĿ)": 6221,
      "èģĶç½ĳ": 6222,
      "åĬłåħ¥äºĨ": 6223,
      "ç§°åĳ¼": 6224,
      "1981å¹´": 6225,
      "éĺ¿å°Ķåįĳ": 6226,
      "Ġä¸ĭ": 6227,
      "å¸½": 6228,
      "æĺ¯ä¸º": 6229,
      "çĲĨæĥ³": 6230,
      "éħįç½®": 6231,
      "è¿ģèĩ³": 6232,
      "å¼Ģå§ĭåľ¨": 6233,
      "çļĦåĲįåŃĹ": 6234,
      "ç¨Ģ": 6235,
      "è§Ĵåº¦": 6236,
      "åĽ½éĻħæľºåľº": 6237,
      "1979å¹´": 6238,
      "ç§©": 6239,
      "æĹıç¾¤": 6240,
      "åĽ¾åĥı": 6241,
      "ube": 6242,
      "ä»¥ä¾¿": 6243,
      "183": 6244,
      "è¾ĵåĩº": 6245,
      "æīĢåľ¨åľ°": 6246,
      "82": 6247,
      "çļĦåİŁåĽł": 6248,
      "è¡Įä¸ļ": 6249,
      "å·¥èīº": 6250,
      "æīĭæ®µ": 6251,
      "èªĵ": 6252,
      "æļĤæĹ¶": 6253,
      "åĩ¶": 6254,
      "å»ĸ": 6255,
      "å±łæĿĢ": 6256,
      "ä¸ľæµ·": 6257,
      "çĽ´æĴŃ": 6258,
      "æĺŁçŃīä¸º": 6259,
      "ä¼ĬåĪ©": 6260,
      "ä¾Ŀèµĸ": 6261,
      "äºİ2014å¹´": 6262,
      "èģļéĽĨ": 6263,
      "åĲİè¢«": 6264,
      "åģľè½¦": 6265,
      "æĹłçĹĩçĬ¶æĦŁæŁĵèĢħ": 6266,
      "éĺ¿å°Ķåįĳæĸ¯": 6267,
      "å¸¸å§Ķ": 6268,
      "ä½İäºİ": 6269,
      "æĢķ": 6270,
      "äºİ190": 6271,
      "ç»Ħç»ĩçļĦ": 6272,
      "IP": 6273,
      "ç¼´": 6274,
      "ä¸¾åĬŀçļĦ": 6275,
      "ç¹ģæ®ĸ": 6276,
      "è·¯æĺĵæĸ¯": 6277,
      "èĤºçĤİ": 6278,
      "åľ¨ä¸Ģèµ·": 6279,
      "ont": 6280,
      "ä¼ļæľī": 6281,
      "æĸ¯åį¡": 6282,
      "åĪ¶ä½ľäºº": 6283,
      "éĹ»åĲį": 6284,
      "ç«Ł": 6285,
      "æķĻå®Ĺ": 6286,
      "äºĮæľĪ": 6287,
      "èĤ¤": 6288,
      "åħ±åĴĮåħļ": 6289,
      "å¸ĸ": 6290,
      "ç½Ĺä¼¯çī¹": 6291,
      "ä¸ŃæľĢ": 6292,
      "åľ¨åĮĹäº¬": 6293,
      "åĲĮæĹ¶è¯¥åľ°": 6294,
      "96": 6295,
      "ãĢĭãĢĬ": 6296,
      "ä¾£": 6297,
      "å·¨å¤§": 6298,
      "åĪ¶æĪĲ": 6299,
      "çļĦè¯Ŀ": 6300,
      "åħĭå°Ķ": 6301,
      "ç»´å¤ļ": 6302,
      "èĲ½æĪĲ": 6303,
      "éŀĭ": 6304,
      "äºİ2012å¹´": 6305,
      "5ä¸ª": 6306,
      "5ç±³": 6307,
      "åŃ¦ç§ĳ": 6308,
      "å®¤åĨħ": 6309,
      "åĨħéĻĨçľģä»½": 6310,
      "æ¼ł": 6311,
      "çº¢åĨĽ": 6312,
      "äºİ2018å¹´": 6313,
      "ä¿ĿéĻ©": 6314,
      "èĴ²": 6315,
      "çĶ°å¾Ħ": 6316,
      "çļĦæĥħ": 6317,
      "æľªçŁ¥": 6318,
      "å¯ĨåĪĩ": 6319,
      "è´¹çĶ¨": 6320,
      "å°¿": 6321,
      "è®¤åı¯": 6322,
      "æ¶Īéĺ²": 6323,
      "Ġä¸º": 6324,
      "å¤©åłĤ": 6325,
      "éĺ²ç©º": 6326,
      "è¾ħåĬ©": 6327,
      "ver": 6328,
      "è½©": 6329,
      "ä¸»äºĭ": 6330,
      "èĭ±åĳİ": 6331,
      "äº¤ç»Ļ": 6332,
      "äºĶä¸ª": 6333,
      "çłĶç©¶éĻ¢": 6334,
      "è§Ĥçľĭ": 6335,
      "1978å¹´": 6336,
      "éĤ±": 6337,
      "æīĵçł´": 6338,
      "æ¡¥æ¢ģ": 6339,
      "||": 6340,
      "çļĦæĹ¥": 6341,
      "ä¸ĢèģĮ": 6342,
      "ç½Ĺå¾·": 6343,
      "ç¨£": 6344,
      "è®¤è¯ģ": 6345,
      "èĩªæĪĳ": 6346,
      "è·¯æ®µ": 6347,
      "çĭ¬ç«ĭçļĦ": 6348,
      "æľĢé«ĺçļĦ": 6349,
      "åĨĴéĻ©": 6350,
      "éĥ¨éĥ¨éķ¿": 6351,
      "çĲĨçĶ±": 6352,
      "å§Ķæīĺ": 6353,
      "åķĨåºĹ": 6354,
      "çĶ»å®¶": 6355,
      "å«©": 6356,
      "ä¼ļè¯ķ": 6357,
      "çī¹åĮº": 6358,
      "äºİ2017å¹´": 6359,
      "æ£ĴçĲĥ": 6360,
      "âĢĺ": 6361,
      "æĪĺéĺŁ": 6362,
      "èĢ¶ç¨£": 6363,
      "å¡ŀå°Ķç»´äºļ": 6364,
      "å¥ł": 6365,
      "8äºº": 6366,
      "com": 6367,
      "äººæĿĥ": 6368,
      "å·´æĭī": 6369,
      "éĩıåŃĲ": 6370,
      "åī¯ä¹¦è®°": 6371,
      "èģļèĲ½": 6372,
      "å¤©æ°Ķ": 6373,
      "èµĦåĬ©": 6374,
      "èĬĤåº¦": 6375,
      "ç¬¬4": 6376,
      "æ¼ĶåĮĸ": 6377,
      "æĶ¹è¿Ľ": 6378,
      "å¼ĹéĽ·": 6379,
      "Ġç®Ģä»ĭ": 6380,
      "ä»¥ä¸ĬçļĦ": 6381,
      "æĶ¹ç§°": 6382,
      "è¯Ħä¸º": 6383,
      "é£ŁçĶ¨": 6384,
      "æĴ¤éĢĢ": 6385,
      "å¤©æĸĩåı°": 6386,
      "æľ¬ä½ľ": 6387,
      "åĬłåĵ¥": 6388,
      "æī©å»º": 6389,
      "å½±è§Ĩ": 6390,
      "æłĹ": 6391,
      "åħ¶ä¸Ńä¸Ģä¸ª": 6392,
      "çļĨä¸º": 6393,
      "çĽ¸åĲĮçļĦ": 6394,
      "èĬĿåĬłåĵ¥": 6395,
      "ç©´": 6396,
      "éĢļçŁ¥": 6397,
      "åİŁåħĪ": 6398,
      "é©¬ä¸ģ": 6399,
      "çĤ¼": 6400,
      "åº§æłĩä¸º": 6401,
      "æ´Ľåħĭ": 6402,
      "çĻ¾ä¸ĩ": 6403,
      "åıĳè¡ĮçļĦ": 6404,
      "è´§è¿Ĳ": 6405,
      "è½°çĤ¸æľº": 6406,
      "ĠæĽ¾ç¥ĸ": 6407,
      "AS": 6408,
      "ä»¥æŃ¤": 6409,
      "ä¸įæķĮ": 6410,
      "ä½įäºİè¯¥": 6411,
      "Ġåľ°æĸ¹èµĦæĸĻ": 6412,
      "äººæ°ĳä»£è¡¨å¤§ä¼ļ": 6413,
      "æ¤İ": 6414,
      "äºİ2013å¹´": 6415,
      "å¤§å¤«": 6416,
      "èĭ¹": 6417,
      "å±ķçİ°": 6418,
      "çļĦæĿĳåºĦ": 6419,
      "çº³åħ¥": 6420,
      "è®¸åı¯": 6421,
      "ç»¥": 6422,
      "çľł": 6423,
      "çī¹æľĹ": 6424,
      "æĸ¹éĿ¢çļĦ": 6425,
      "è´§çī©": 6426,
      "çİĭåŃĲ": 6427,
      "åıªè¦ģ": 6428,
      "é¸Ń": 6429,
      "ä¸ºæĸ°": 6430,
      "æĹ¶æĬ¥": 6431,
      "ä¸ĭä¸Ģ": 6432,
      "è¿Ļåº§": 6433,
      "ä¼Ĺè®®éĻ¢": 6434,
      "èħ¿": 6435,
      "æ¶µçĽĸ": 6436,
      "Ġäº¤éĢļ": 6437,
      "æĪĺæĸĹæľº": 6438,
      "æł¼å°Ķ": 6439,
      "éľŀ": 6440,
      "çº¦çĳŁ": 6441,
      "åį³å°Ĩ": 6442,
      "ç¬¬ä¸Ģä½į": 6443,
      "åħ«æľĪ": 6444,
      "æĥ³è¦ģ": 6445,
      "äºİ2019å¹´": 6446,
      "æŃ»åĪĳ": 6447,
      "è´¢äº§": 6448,
      "éªļ": 6449,
      "å··": 6450,
      "æľīè®¸å¤ļ": 6451,
      "ä¸įè¦ģ": 6452,
      "ä¸ĥæľĪ": 6453,
      "åģļåĩº": 6454,
      "åıĽä¹±": 6455,
      "cn": 6456,
      "ä¸Ĭéĺµ": 6457,
      "æľ¬çº¿": 6458,
      "åĨħèĴĻåı¤": 6459,
      "ç«ŀæĬĢ": 6460,
      "ug": 6461,
      "ç§°åı·": 6462,
      "äºĶåįģ": 6463,
      "1941å¹´": 6464,
      "ä¸¸": 6465,
      "äºİ2020å¹´": 6466,
      "æĸ¹ä¾¿": 6467,
      "å¨ħ": 6468,
      "èħº": 6469,
      "è½¯ä½ĵ": 6470,
      "å¤ļåĲį": 6471,
      "æľįè£ħ": 6472,
      "éģŃåıĹ": 6473,
      "97": 6474,
      "è¿Ľåħļ": 6475,
      "ä¹¦ä¸Ń": 6476,
      "åįķåħĥ": 6477,
      "èħĵ": 6478,
      "åĮºéĹ´": 6479,
      ",),": 6480,
      "çļĦæĶ¿æ²»": 6481,
      "æ¶Ľ": 6482,
      "æŁ¥çĲĨ": 6483,
      "åĲĮæĹ¶ä¹Ł": 6484,
      "å·¦ç¿¼": 6485,
      "å¤§ä½¿é¦Ĩ": 6486,
      "éĩįéĩı": 6487,
      "åĽŀå¿Ĩ": 6488,
      "æĭīçī¹": 6489,
      "èį¡": 6490,
      "ock": 6491,
      "ä¸ľäºļ": 6492,
      "è°Ĭ": 6493,
      "éĩĳå±±": 6494,
      "è£ģåĪ¤": 6495,
      "åĮºåĪĨ": 6496,
      "èµ·åĪĿ": 6497,
      "å¨¶": 6498,
      "çĽ´åįĩ": 6499,
      "ç¤¾ç¾¤": 6500,
      "è¿Ľè¡ĮçļĦ": 6501,
      "åĮĹæµ·éģĵ": 6502,
      "9äºº": 6503,
      "è°ĥå¿«": 6504,
      "1944å¹´": 6505,
      "æ²³è°·": 6506,
      "åĨĻéģĵ": 6507,
      "æ¶īå«Į": 6508,
      "ä¹ĭä¸º": 6509,
      "èĲ¥ä¸ļ": 6510,
      "åį«éĺŁ": 6511,
      "é±¼éĽ·": 6512,
      "åĪĨå¸ĥåľ¨": 6513,
      "Ġåħ¶": 6514,
      "è®¼": 6515,
      "è¯¥çīĩ": 6516,
      "éĺ³å¸Ĥ": 6517,
      "æķĮäºº": 6518,
      "æŃ¤ç«Ļ": 6519,
      "ç©ºè¢Ń": 6520,
      "åįıå®ļ": 6521,
      "162": 6522,
      "ä¸ºUTC": 6523,
      "ä¼łç»ŁçļĦ": 6524,
      "è¾Ĳå°Ħ": 6525,
      "æĺ¯åı°æ¹¾": 6526,
      "ä»¥ä¸ľ": 6527,
      "çī¹å°Ķ": 6528,
      "éĵĥ": 6529,
      "åł¤": 6530,
      "å¾ģæľį": 6531,
      "èŀįåĲĪ": 6532,
      "æ³ķä»¤": 6533,
      "ä½ĨåĽł": 6534,
      "æł¼éĽ·": 6535,
      "éĿĴå°ĳå¹´": 6536,
      "åĺīä¹ī": 6537,
      "æ¯Ĺ": 6538,
      "æĬĦ": 6539,
      "æİ©": 6540,
      "åıĤæķ°": 6541,
      "è¿ŀè½½": 6542,
      "åĻ¶": 6543,
      "åıĤè®®éĻ¢": 6544,
      "æ¯ıåĳ¨": 6545,
      "æĪĺæľ¯": 6546,
      "çļĦä¸į": 6547,
      "è½¬çļĦ": 6548,
      "ceĠ": 6549,
      "ç§įç±»": 6550,
      "éĩįè§Ĩ": 6551,
      "):": 6552,
      "è¥¿æĸ¯": 6553,
      "é¢ĨåħĪ": 6554,
      "ç»ĪçĤ¹": 6555,
      "ç£·": 6556,
      "è§īå¾Ĺ": 6557,
      "åı¯åľ¨": 6558,
      "Ġ2005å¹´": 6559,
      "æ³ķåħ°åħĭ": 6560,
      "èĪĮ": 6561,
      "å¦Ĥä»Ĭ": 6562,
      "æħ°": 6563,
      "è°ĥå¿«ä¸Ģå°ıæĹ¶": 6564,
      "çĢ": 6565,
      "ä¸Ģç³»åĪĹ": 6566,
      "éĥģ": 6567,
      "177": 6568,
      "å§Ķåĳĺä¼ļå§Ķåĳĺ": 6569,
      "æ¿Ĵ": 6570,
      "ä¾įéĥİ": 6571,
      "èĩĤ": 6572,
      "æĪĲçĨŁ": 6573,
      "å¸ĥæľĹ": 6574,
      "ç¤¾äº¤": 6575,
      "åį³UTC": 6576,
      "è®¾æľīå¤ıä»¤æĹ¶éĹ´": 6577,
      "çļĦæĹ¶åĮºä¸ºUTC": 6578,
      "èĢĮè¯¥åľ°æīĢéĩĩçĶ¨": 6579,
      "åĲĮæĹ¶è¯¥åľ°è®¾æľīå¤ıä»¤æĹ¶éĹ´": 6580,
      "èĢĮè¯¥åľ°æīĢéĩĩçĶ¨çļĦæĹ¶åĮºä¸ºUTC": 6581,
      "æ¼Ķè®²": 6582,
      "åį¡æĸ¯": 6583,
      "è¿Ļåľº": 6584,
      "éķĩåĮºçļĦ": 6585,
      "äº¤æ±ĩ": 6586,
      "åįķä¸Ģ": 6587,
      "ä½¿çĶ¨äºĨ": 6588,
      "æ»¡æ´²": 6589,
      "å»¶ç»Ń": 6590,
      "ä»£çļĦ": 6591,
      "éĢļå¾Ģ": 6592,
      "åŁİçļĦ": 6593,
      "çĥ¯": 6594,
      "çĪµå£«": 6595,
      "çļĦæľĢ": 6596,
      "å·¥ä¼ļ": 6597,
      "ä»İæľª": 6598,
      "åŀĭåı·": 6599,
      "84": 6600,
      "è´·": 6601,
      "æĦŁè§ī": 6602,
      "1972å¹´": 6603,
      "ç²īä¸Ŀ": 6604,
      "é«ĺäºİæµ·å¹³éĿ¢": 6605,
      "MV": 6606,
      "ure": 6607,
      "æĢ»çĽĳ": 6608,
      "æį·åħĭ": 6609,
      "110": 6610,
      "15å¹´": 6611,
      "7æľĪ1æĹ¥": 6612,
      "æĮ¡": 6613,
      "è¯¥åħ¬åı¸": 6614,
      "ä½Ļäºº": 6615,
      "æİĴè¡Įæ¦ľ": 6616,
      "ä¼ļè¢«": 6617,
      "åİ¿çŁ¥åİ¿": 6618,
      "çĽ¸å½ĵäºİ": 6619,
      "æīĢå¤ĦçļĦæµ·æĭĶä¸º": 6620,
      "æīĢå¤ĦçļĦæµ·æĭĶä¸ºé«ĺäºİæµ·å¹³éĿ¢": 6621,
      "ä¹ĭå¤Ħ": 6622,
      "éĥ½è¢«": 6623,
      "æŃ£æľĪ": 6624,
      "è¡¥åħħ": 6625,
      "ah": 6626,
      "Ġ190": 6627,
      "åº¶": 6628,
      "æľīèĳĹ": 6629,
      "çİ²": 6630,
      "åŃĲå¥³": 6631,
      "æķĻèĤ²éĥ¨": 6632,
      "éªĹ": 6633,
      "ä¼¤äº¡": 6634,
      "å®īå¾½çľģ": 6635,
      "å¸Ĩ": 6636,
      "ä¸»å¯¼": 6637,
      "æĸ°åĨł": 6638,
      "å¤§éĿ©åĳ½": 6639,
      "èģª": 6640,
      "æĦ¤": 6641,
      "ä¿Ŀè¯ģ": 6642,
      "æĻ®ç½Ĺ": 6643,
      "åıĤä¸İäºĨ": 6644,
      "æĹłäººæľº": 6645,
      "ox": 6646,
      "å¼ĵ": 6647,
      "åľ°å½¢": 6648,
      "çİ°åŃĺ": 6649,
      "åķĨäºº": 6650,
      "IT": 6651,
      "Ġåı°æ¹¾": 6652,
      "æ°¸ä¹ħ": 6653,
      "700": 6654,
      "æĪĺåľº": 6655,
      "åĲĪåĲĮ": 6656,
      "æł¼éĩĮ": 6657,
      "é²¸": 6658,
      "æĹ©ä¸Ĭ": 6659,
      "1976å¹´": 6660,
      "è¯¦ç»Ĩ": 6661,
      "ç»´å¤ļåĪ©äºļ": 6662,
      "èįĨ": 6663,
      "äºİ2010å¹´": 6664,
      "èĦ±ç¦»": 6665,
      "ç»ĺçĶ»": 6666,
      "æµ·ä¸Ĭ": 6667,
      "åħ·å¤ĩ": 6668,
      "å¾Īå°ĳ": 6669,
      "äºĴåĬ¨": 6670,
      "çİ°åľ¨çļĦ": 6671,
      "å·ŀéķ¿": 6672,
      "å°¼åı¤": 6673,
      "å²Ľä¸Ĭ": 6674,
      "çĵ¶": 6675,
      "å¡Ķå°Ķ": 6676,
      "çĻ»è®°": 6677,
      "1956å¹´": 6678,
      "81": 6679,
      "éĿ¢ä½ĵ": 6680,
      "æ¡Į": 6681,
      "ä¼łæķĻ": 6682,
      "åį³åĮĹç¾İ": 6683,
      "æĮĩæĮ¥å®ĺ": 6684,
      "aw": 6685,
      "æĺ¯ä¿Ħç½Ĺæĸ¯": 6686,
      "äºİ2021å¹´": 6687,
      "ç¥¯": 6688,
      "è·¯åı£": 6689,
      "å²ĽçļĦ": 6690,
      "äº¬éĥ½": 6691,
      "è¯ºå¤«": 6692,
      "oy": 6693,
      "æ¾Ħ": 6694,
      "æ©Ħ": 6695,
      "éħ®": 6696,
      "èİ·èĥľ": 6697,
      "åºıåĪĹ": 6698,
      "èĤ¡ä»½æľīéĻĲåħ¬åı¸": 6699,
      "94": 6700,
      "åľ°äºļ": 6701,
      "åįģä¸ĥ": 6702,
      "éĽĨä½ĵ": 6703,
      "æ¸ł": 6704,
      "æ²³éģĵ": 6705,
      "æİ¢éĻ©": 6706,
      "éķĩåĮºçļĦéĿ¢ç§¯ä¸º": 6707,
      "äº©": 6708,
      "åį³ä½į": 6709,
      ".âĢľ": 6710,
      "çļĦæŃĮæĽ²": 6711,
      "ä½ľä¸ļ": 6712,
      "æĽ´å¤ļçļĦ": 6713,
      "æĸ½å·¥": 6714,
      "140": 6715,
      "åºĩ": 6716,
      "ä»¥è¥¿": 6717,
      "åĲİåľ¨": 6718,
      "åĪĨä¹ĭä¸Ģ": 6719,
      "æµģä¼ł": 6720,
      "ç¿Įå¹´": 6721,
      "çļĦç¥ŀ": 6722,
      "äºĨä»ĸ": 6723,
      "æĢ»è£ģ": 6724,
      "éĢīåĩº": 6725,
      "åĪĩå°Ķ": 6726,
      "èļĢ": 6727,
      "ä¼Ĭæĸ¯åħ°æķĻ": 6728,
      "çļĦåıį": 6729,
      "ä¼ŀ": 6730,
      "å§¿": 6731,
      "èĩªç§°": 6732,
      "åĽĽä¸ĸ": 6733,
      "è¾ĸåĮº": 6734,
      "1937å¹´": 6735,
      "æķĪåĬĽäºİ": 6736,
      ".(": 6737,
      "å§ĳ": 6738,
      "å¤ļæł·": 6739,
      "å¾·æĦıå¿Ĺ": 6740,
      "éĤĳ": 6741,
      "å¤Ħéķ¿": 6742,
      "164": 6743,
      "158": 6744,
      "åįĹæŀģæ´²": 6745,
      "æĨ": 6746,
      "åĽ½éģĵ": 6747,
      "åħ¬é¡·": 6748,
      "çļĦè¡Įä¸º": 6749,
      "ä¸»åĬ¨": 6750,
      "èĬŃ": 6751,
      "æ©Ħæ¦Ħ": 6752,
      "6ä¸ª": 6753,
      "ç»ĳ": 6754,
      "è¡Įäºº": 6755,
      "èĩ´åĬĽ": 6756,
      "çģŃç»Ŀ": 6757,
      "ä½Ľç½ĹéĩĮ": 6758,
      "ç»´åŁº": 6759,
      "æĿŃå·ŀ": 6760,
      "MA": 6761,
      "ĠæĹ¥æľ¬": 6762,
      "çļĦåŁºç¡Ģ": 6763,
      "ä»Ĩ": 6764,
      "åºļ": 6765,
      "æ³Ħ": 6766,
      "ä»ĸä¸º": 6767,
      "åĨħåľ°": 6768,
      "æ»ķ": 6769,
      "éŃĶæ³ķ": 6770,
      "Go": 6771,
      "äºĮçº§": 6772,
      "æ¤ħ": 6773,
      "äºĴèģĶç½ĳ": 6774,
      "ä¹Łæ²¡æľī": 6775,
      "æĶ¹å»º": 6776,
      "å®¹çº³": 6777,
      "ä¸»æĮģäºº": 6778,
      "æľĢä¸º": 6779,
      "ç»ıçĶ±": 6780,
      "å·´åĭĴ": 6781,
      "1952å¹´": 6782,
      "ä¸ľåįĹäºļ": 6783,
      "ie": 6784,
      "åľ¨ä½į": 6785,
      "æ±īåŃĹ": 6786,
      "km": 6787,
      "ç¥Ī": 6788,
      "éĢļçĶ¨": 6789,
      "çĽ¸åıį": 6790,
      "çıŃæ¬¡": 6791,
      "çĪ·": 6792,
      "å°ĳå°Ĩ": 6793,
      "åĩºåľº": 6794,
      "æĶ¿åıĺ": 6795,
      "æ°Ķä½ĵ": 6796,
      "1938å¹´": 6797,
      "çļĦæīĢæľī": 6798,
      "éĥ¨å°ļä¹¦": 6799,
      "è¢«åĳĬ": 6800,
      "æ²¿å²¸": 6801,
      "ign": 6802,
      "ä¸İæŃ¤": 6803,
      "1947å¹´": 6804,
      "çĸ«èĭĹ": 6805,
      "83": 6806,
      "å±±è¥¿çľģ": 6807,
      "åħŃæľĪ": 6808,
      "ç¾¤ä¼Ĺ": 6809,
      "ib": 6810,
      "åŃ¦ç³»": 6811,
      "ç½©": 6812,
      "åķĨåľº": 6813,
      "157": 6814,
      "ram": 6815,
      "ĠçĶ±": 6816,
      "çļĦéĿ¢ç§¯": 6817,
      "ä»¥1": 6818,
      "åĬłå°Ķ": 6819,
      "åį«è§Ĩ": 6820,
      "æ¡£æ¡Ī": 6821,
      "çļĦç»ĵæŀľ": 6822,
      "æ¼Ķèīº": 6823,
      "1955å¹´": 6824,
      "èĭ¹æŀľ": 6825,
      "ook": 6826,
      "ph": 6827,
      "å¹¶æĹł": 6828,
      "æ¸¯åħĥ": 6829,
      "åķ¡": 6830,
      "Ġv": 6831,
      "åĬ£": 6832,
      "æĺ¯ä¸ª": 6833,
      "æĭħå¿ĥ": 6834,
      "æĶ»åįł": 6835,
      "çº§èģĶèµĽ": 6836,
      "æħİ": 6837,
      "Ġä¸ªäºº": 6838,
      "ãĢĭ(\"": 6839,
      "éĢ¸": 6840,
      "å¸ĥéĽ·": 6841,
      "å®ŀä½ĵ": 6842,
      "è¿ŀç»ĵ": 6843,
      "äºİ2011å¹´": 6844,
      "son": 6845,
      "å±±åİ¿": 6846,
      "æĥ§": 6847,
      "æ¸ħæ¥ļ": 6848,
      "é¹ı": 6849,
      "æİ¢ç´¢": 6850,
      "éķĩåİĭ": 6851,
      "æĻ®é²ģå£«": 6852,
      "ð«": 6853,
      "çļĦçĶµ": 6854,
      "éķĳ": 6855,
      "éķ¿çº¦": 6856,
      "1980å¹´ä»£": 6857,
      "æł¸éħ¸": 6858,
      "æŀ¶æŀĦ": 6859,
      "è´ª": 6860,
      "çŁ®": 6861,
      "åįķæīĵ": 6862,
      "çĥ·": 6863,
      "å¼ķçĶ¨": 6864,
      "åĢ¼å¾Ĺ": 6865,
      "åĪ¤åĨ³": 6866,
      "æ°ĳè¿Ľåħļ": 6867,
      "163": 6868,
      "èľĤ": 6869,
      "æĺ¯ä¸Ģä¸ªä½įäºİ": 6870,
      "per": 6871,
      "ç¬¬5": 6872,
      "é³ŀ": 6873,
      "ä¸Ńå°Ĩ": 6874,
      "çİ°ä¸º": 6875,
      "HD": 6876,
      "ç»´åħĭ": 6877,
      "æīĳ": 6878,
      "åĨĽäºº": 6879,
      "æľŁçļĦ": 6880,
      "å¥³çİĭ": 6881,
      "æ¨±": 6882,
      "çļĦä¸ĢæĿ¡": 6883,
      "ç¦ıå¾·": 6884,
      "è¡ĮæĶ¿éĻ¢": 6885,
      "æĪĲç«ĭäºĨ": 6886,
      "éĴ¢çĲ´": 6887,
      "ection": 6888,
      "...": 6889,
      "Ġä¸»è¦ģ": 6890,
      "è´¼": 6891,
      "åħ±è®¡": 6892,
      "æĢ»ä¼ļ": 6893,
      "æł¼æŀĹ": 6894,
      "æĶ¾åľ¨": 6895,
      "PS": 6896,
      "äºİ2022å¹´": 6897,
      "åĲįäºº": 6898,
      "å¹³çŃī": 6899,
      "åĪ©çļĦ": 6900,
      "è°´": 6901,
      "çº³å·ŀ": 6902,
      "è¸ı": 6903,
      "å½»åºķ": 6904,
      "åĮĹä¾§": 6905,
      "å¤©çļĦ": 6906,
      "å®ŀè·µ": 6907,
      "å»ºçŃĳå¸Ī": 6908,
      "æıĲåĩºçļĦ": 6909,
      "åı²å¯Ĩæĸ¯": 6910,
      "ct": 6911,
      "éĢ¾": 6912,
      "åİŁä¸º": 6913,
      "æĺŁç³»": 6914,
      "ä¿®éģĵ": 6915,
      "ä¿ĦåĨĽ": 6916,
      "ä¹¡éķĩ": 6917,
      "1968å¹´": 6918,
      "ire": 6919,
      "éĩįè¿Ķ": 6920,
      "ä¿®è®¢": 6921,
      "å±ĤçļĦ": 6922,
      "2åı·": 6923,
      "ä¸ĭäºĨ": 6924,
      "å¤«å¦ĩ": 6925,
      "ä¹ĿæľĪ": 6926,
      "æ²³åĮĹçľģ": 6927,
      "ust": 6928,
      "åĪĨæł¡": 6929,
      "æ±ŁæĪ·": 6930,
      "å¸Įå°Ķ": 6931,
      "åĬ³å·¥": 6932,
      "Ġå¯¹": 6933,
      "ä¸Ģéĥ¨": 6934,
      "ä¸»åĬĽ": 6935,
      "åĵª": 6936,
      "è¿ªå£«": 6937,
      "çļĦåŁİå¸Ĥ": 6938,
      "åħ¶ä¸º": 6939,
      "çŃĴ": 6940,
      "æĸ°å»º": 6941,
      "åĪĹåĩº": 6942,
      "æ¡ĥåĽŃ": 6943,
      "YouT": 6944,
      "Ġè¥¿": 6945,
      "Ġé©¬": 6946,
      "è¡Įèµ°": 6947,
      "æµ·åįĹ": 6948,
      "è¯¥åħļ": 6949,
      "ç»´ä¿®": 6950,
      "çªĦ": 6951,
      "èµĶ": 6952,
      "åľ°ä¸Ń": 6953,
      "åįĹä¾§": 6954,
      "æł¼é²ģ": 6955,
      "1939å¹´": 6956,
      "ey": 6957,
      "çĶ»éĿ¢": 6958,
      "æķ´åĲĪ": 6959,
      "éĻ¨çŁ³": 6960,
      "å¤´è¡Ķ": 6961,
      "äº§çĶŁäºĨ": 6962,
      "äºĭå®ŀä¸Ĭ": 6963,
      "ĠçĽ®åīį": 6964,
      "æķ²": 6965,
      "èĤ¢": 6966,
      "å¼ķè¿Ľ": 6967,
      "Ġå®¶åºŃ": 6968,
      "åıĹå®³": 6969,
      "å½ķåĪ¶": 6970,
      "å¥½è¯Ħ": 6971,
      "1940å¹´": 6972,
      "çºł": 6973,
      "æĬĽ": 6974,
      "å½ĵä»£": 6975,
      "èĹ»": 6976,
      "ä¼¤å®³": 6977,
      "çĲĨæŁ¥": 6978,
      "å§Ķä»»": 6979,
      "è¯ģåĪ¸": 6980,
      "è¿ªå£«å°¼": 6981,
      "/&": 6982,
      "çļĦæĹ¥æľ¬": 6983,
      "ä¸ĬäºĨ": 6984,
      "è¾ĥä½İ": 6985,
      "ä»įåľ¨": 6986,
      "Ar": 6987,
      "åĲĬ": 6988,
      "è°¥": 6989,
      "å¤©ä¸ĭ": 6990,
      "1960å¹´": 6991,
      "1954å¹´": 6992,
      "ä¸Ģé¡¹": 6993,
      "åĨĢ": 6994,
      "äºİ2023å¹´": 6995,
      "èµ·è¯ī": 6996,
      "è®®å¸Ń": 6997,
      "1942å¹´": 6998,
      "èĩªè¡Įè½¦": 6999,
      "çļĦè¯´æ³ķ": 7000,
      "åĿŁ": 7001,
      "æŃ¤åīį": 7002,
      "ä¼Ĭæĭīåħĭ": 7003,
      "çĽŁåĨĽ": 7004,
      "åĩ¸": 7005,
      "åĮºåĪ«": 7006,
      "ä¸»æĿĥ": 7007,
      "éģ®": 7008,
      "ä½¿çĶ¨èĢħ": 7009,
      "çĻ¾å¹´": 7010,
      "åįłæį®": 7011,
      "æĥ©": 7012,
      "å®ĺèĩ³": 7013,
      "ost": 7014,
      "ĠéĻ¤äºĨ": 7015,
      "ãĢģãĢĬ": 7016,
      "åľ¨åĮĹ": 7017,
      "å¤ļé¡¹": 7018,
      "ä»»æķĻ": 7019,
      "å»ºäºİ": 7020,
      "åĶ¯ä¸ĢçļĦ": 7021,
      "ge": 7022,
      "ä¹ŁæĽ¾": 7023,
      "çĽ®çļĦæĺ¯": 7024,
      "åĸĩ": 7025,
      "åİĨåı²åŃ¦å®¶": 7026,
      "åĲİæĸ¹": 7027,
      "æĴŀåĩ»": 7028,
      "71": 7029,
      "å°ģä¸º": 7030,
      "è¯Ĺäºº": 7031,
      "ĠæĿİ": 7032,
      "æŃī": 7033,
      "è¯ºæĽ¼": 7034,
      "æĥ³æ³ķ": 7035,
      "æľĽè¿ľ": 7036,
      "Ġåīį": 7037,
      "ĠçĦ¶èĢĮ": 7038,
      "Ġæķħäºĭ": 7039,
      "æĪĺåĪĹ": 7040,
      "è®¤åĲĮ": 7041,
      "èĥĮé³į": 7042,
      "ç¬¬ä¸Ģæ¬¡ä¸ĸçķĮå¤§æĪĺ": 7043,
      "çĩĥæĸĻ": 7044,
      "iz": 7045,
      "è¢«ä»»åĳ½ä¸º": 7046,
      "æĹłçº¿çĶµè§Ĩ": 7047,
      "çĶľ": 7048,
      "èµ£": 7049,
      "åĪĻæľī": 7050,
      "æŃ¦å¸Ŀ": 7051,
      "1943å¹´": 7052,
      "ĠèĢĮ": 7053,
      "æľµ": 7054,
      "åĪ°çļĦ": 7055,
      "æĶ»æīĵ": 7056,
      "1975å¹´": 7057,
      "Un": 7058,
      "å±¥": 7059,
      "æłĩè®°": 7060,
      "çĶ·å¥³": 7061,
      "å®ĮæĪĲäºĨ": 7062,
      "æ¬¡äºİ": 7063,
      "æĥħç»ª": 7064,
      "é£ŁæĢ§": 7065,
      "1970å¹´": 7066,
      "æĲºå¸¦": 7067,
      "æĹ¥åĲİ": 7068,
      "åħ¬åĬ¡": 7069,
      "é¢ł": 7070,
      "èĭıç»´åŁĥ": 7071,
      "SS": 7072,
      "è®®é¢ĺ": 7073,
      "æĤł": 7074,
      "å¢ŀåĬłäºĨ": 7075,
      "äºİ2009å¹´": 7076,
      "ç»µ": 7077,
      "åŁİå¢Ļ": 7078,
      "äº¤çķĮ": 7079,
      "èĽĭçĻ½è´¨": 7080,
      "åİ¥": 7081,
      "ä¸Ĭè¯ī": 7082,
      "æĸ¯åł¡": 7083,
      "åĲĮåĲį": 7084,
      "äº¤åıī": 7085,
      "æ¨¡çī¹": 7086,
      "å¡ŀçº³": 7087,
      "è°´è´£": 7088,
      "åľ¨æ³ķåĽ½": 7089,
      "æ¸Ĭ": 7090,
      "éĻ¤æŃ¤": 7091,
      "åį°ç¬¬": 7092,
      "ĠThe": 7093,
      "æĦ¿æĦı": 7094,
      "èµĽçļĦ": 7095,
      "å®ļæľŁ": 7096,
      "èĬĻ": 7097,
      "æ¢¨": 7098,
      "è¿ĺåľ¨": 7099,
      "ç»ıæµİåŃ¦": 7100,
      "åħĪè¿Ľ": 7101,
      "156": 7102,
      "159": 7103,
      "æ¹ĸæ³Ĭ": 7104,
      "ä¸ĭè¾ĸä»¥ä¸ĭ": 7105,
      "çŁĽçĽ¾": 7106,
      "åį§": 7107,
      "çī©åĵģ": 7108,
      "è¯¥æł¡": 7109,
      "çī¹æľĹæĻ®": 7110,
      "æĺ¯ä¸Ńåįİäººæ°ĳåħ±åĴĮåĽ½": 7111,
      "éĤµ": 7112,
      "éĵģè·¯è½¦ç«Ļ": 7113,
      "æĻºæħ§": 7114,
      "å²©çŁ³": 7115,
      "ç½Ĺå¤«": 7116,
      "åĽ¢ç»ĵ": 7117,
      "åºĶå¯¹": 7118,
      "éĺ³åİ¿": 7119,
      "è°ĭæĿĢ": 7120,
      "çļĦä¸ŃåĽ½": 7121,
      "12æľĪ31æĹ¥": 7122,
      "ä¼Ļä¼´": 7123,
      "çĽ´åįĩæľº": 7124,
      "å¼Ģå·¥": 7125,
      "åĿł": 7126,
      "çĤŃ": 7127,
      "è¿ĳä»£": 7128,
      "äººæ¬¡": 7129,
      "åī¥": 7130,
      "ä»£æĽ¿": 7131,
      "éģĵåħī": 7132,
      "æ²ĻçĶ°": 7133,
      "çĶŁéķ¿äºİ": 7134,
      "Sp": 7135,
      "Ġä½¿çĶ¨": 7136,
      "æĶ¶è´¹": 7137,
      "ç«ĭæ³ķä¼ļ": 7138,
      "ear": 7139,
      "ies": 7140,
      "æľĢæĹ©çļĦ": 7141,
      "æĶ¹åĪ¶ä¸º": 7142,
      "è¿ĩçļĦ": 7143,
      "éĥ½çĿ£": 7144,
      "æıĲäº¤": 7145,
      "å¸¸å¸¸": 7146,
      "æ¸ħä»£": 7147,
      "ä»įæľī": 7148,
      "éĢīä¸¾ä¸Ń": 7149,
      "å¦¹å¦¹": 7150,
      "æľĽè¿ľéķľ": 7151,
      "å¤§éĺŁ": 7152,
      "çº¿æĢ§": 7153,
      "az": 7154,
      "ä¸º0": 7155,
      "å¥¸": 7156,
      "éĩĮåħĭ": 7157,
      "çĲĨå¿µ": 7158,
      "çķħ": 7159,
      "æĽ´æį¢": 7160,
      "æĤ¦": 7161,
      "åıĳçĶŁäºĨ": 7162,
      "èı²åĪ©": 7163,
      "å·¨å¤§çļĦ": 7164,
      "å¼ĢåĬŀ": 7165,
      "çº³å¾·": 7166,
      "ä¸ĵçĶ¨": 7167,
      "åĵĪåĪ©": 7168,
      "éļ¾æ°ĳ": 7169,
      "é¢ģå¸ĥ": 7170,
      "æŀ¢çº½": 7171,
      "éĢ»è¾ĳ": 7172,
      "åį°ç¬¬å®ī": 7173,
      "æĮĩæķ°": 7174,
      "ity": 7175,
      "çļĦåľ°åĮº": 7176,
      "ä¸ªä½ĵ": 7177,
      "æĶ¹åĲį": 7178,
      "æ´Ľæĸ¯": 7179,
      "éĻįéĽ¨": 7180,
      "æĹ±": 7181,
      "æ±ŁåįĹ": 7182,
      "ä¸Ģäºº": 7183,
      "ä¸»ç®¡": 7184,
      "çľģçļĦ": 7185,
      "åĽĽå¤§": 7186,
      "æĹ¥æľ¬çļĦ": 7187,
      "ä¹ĭåĲİçļĦ": 7188,
      "æĶ¿åĬ¡": 7189,
      "å¯¹éĺµ": 7190,
      "æīĢéľĢ": 7191,
      "çĪ±åĽ½": 7192,
      "SM": 7193,
      "èµĽä¸Ń": 7194,
      "åħ¨ä½ĵ": 7195,
      "è¯ŃéŁ³": 7196,
      "èģĮåĳĺ": 7197,
      "å¼ºåĪ¶": 7198,
      "æ©¡": 7199,
      "ial": 7200,
      "ä»¥2": 7201,
      "VD": 7202,
      "è¡Įé©¶": 7203,
      "æİĴåĪĹ": 7204,
      "æµİåįĹ": 7205,
      "æĹ¶ä»£çļĦ": 7206,
      "(;),": 7207,
      "lu": 7208,
      "èĤ©": 7209,
      "ord": 7210,
      "ä¸ºåŁºç¡Ģ": 7211,
      "è½¬ä¸º": 7212,
      "åįıåķĨ": 7213,
      "ä¹łæĥ¯": 7214,
      "å´ĸ": 7215,
      "1964å¹´": 7216,
      "åıĤè°ĭéķ¿": 7217,
      "å¯¹ç§°": 7218,
      "çİ°æľī": 7219,
      "è°ģ": 7220,
      "å¤ĸè§Ĥ": 7221,
      "éĢīç§Ģ": 7222,
      "è¿·ä½ł": 7223,
      "ect": 7224,
      "mer": 7225,
      "å°ĺ": 7226,
      "æĹ¥å¸¸": 7227,
      "ä¸īåĽ½": 7228,
      "æĥľ": 7229,
      "æł¼åĭĴ": 7230,
      "ä¹¦åĨĻ": 7231,
      "ç½Ĺé©¬å¸ĿåĽ½": 7232,
      "åĪĳäºĭ": 7233,
      "èĸĩ": 7234,
      "ä¸įå¾Ĺä¸į": 7235,
      "åĲĪåĶ±": 7236,
      "æĢ§åĴĮ": 7237,
      "æİ¥èĳĹ": 7238,
      "æł¹æľ¬": 7239,
      "å¤´éĥ¨": 7240,
      "å¥ĸéĩĳ": 7241,
      "åį°åĪ·": 7242,
      "è¥¿çıŃçīĻè¯Ń": 7243,
      "åĴ¨è¯¢": 7244,
      "Sh": 7245,
      "ä¸Ńåıĳçİ°": 7246,
      "æĺ¯ä¸ºäºĨ": 7247,
      "ç«ĭéĻ¶": 7248,
      "ä¸ºä¸ŃåĽ½": 7249,
      "çī²": 7250,
      "æģ¨": 7251,
      ";/": 7252,
      "äºĨä»ĸçļĦ": 7253,
      "ãĢĮãĢį": 7254,
      "èµĽè½¦": 7255,
      "æ¢µ": 7256,
      "è½¬ä¼ļ": 7257,
      "å¡Ķå°¼": 7258,
      "èĬĤåº¦ä½¿": 7259,
      "çļĦåĨħå®¹": 7260,
      "ä¸Ģå¤©": 7261,
      "ä½įçļĦ": 7262,
      "å¯¹è¯Ŀ": 7263,
      "è°į": 7264,
      "èħ°": 7265,
      "ä¸¤å²¸": 7266,
      "çĪª": 7267,
      "åĽ¾æ¡Ī": 7268,
      "ä¼ĲåĪ©äºļ": 7269,
      "ĠandĠ": 7270,
      "è°Ĳ": 7271,
      "åĩĨç¡®": 7272,
      "åĨłçĬ¶": 7273,
      "è®©ä»ĸ": 7274,
      "130": 7275,
      "åĲįè¯į": 7276,
      "åĵĢ": 7277,
      "èĩªæŃ¤": 7278,
      "æŃ¤äºĭ": 7279,
      "é¦ĸåº¦": 7280,
      "é¢ĺæĿĲ": 7281,
      "ä½ıæĪ¿": 7282,
      "çĽĪ": 7283,
      "çĶ¨ä»¥": 7284,
      "ç«ĻæĪ¿": 7285,
      "ç»¼èīº": 7286,
      "æĢ¡": 7287,
      "è§Ĥåħī": 7288,
      "çģ«è½¦": 7289,
      "åľ¨è¥¿": 7290,
      "ä»ĸè®¤ä¸º": 7291,
      "é«ĺåİŁ": 7292,
      "å¼¹èį¯": 7293,
      "æĻºèĥ½": 7294,
      "éķľå¤´": 7295,
      "ĠPro": 7296,
      "çĥŃå¸¦é£İæļ´": 7297,
      "åŃŁåĬłæĭī": 7298,
      "æ¹ĸåįĹçľģ": 7299,
      "éĵİ": 7300,
      "èĻı": 7301,
      "æĪĲç«ĭåĲİ": 7302,
      "æİ¢æµĭ": 7303,
      "å½ķå½±å¸¦": 7304,
      "èĩĢ": 7305,
      "äºĨè®¸å¤ļ": 7306,
      "ä¸Ĭå¸Ŀ": 7307,
      "åĬ¨è½¦": 7308,
      "è°¦": 7309,
      "èī²å½©": 7310,
      "äºİ2008å¹´": 7311,
      "é©¬åħĭæĢĿ": 7312,
      "çĽ¸åºĶ": 7313,
      "é¾ĻçļĦ": 7314,
      "Ġ11": 7315,
      "ç«£": 7316,
      "ä½ĵåĪ¶": 7317,
      "ç»´ä¹Ł": 7318,
      "ç»§ä»»": 7319,
      "åıĭå¥½": 7320,
      "ç«ĭéĻ¶å®Ľ": 7321,
      "ala": 7322,
      "æĪĲæŀľ": 7323,
      "250": 7324,
      "ä½ĵéªĮ": 7325,
      "çĿĽ": 7326,
      "çĻ¾ç§ĳ": 7327,
      "è¡įçĶŁ": 7328,
      "å¼Ħ": 7329,
      "ç§ĳä¼ļè¯ķ": 7330,
      "170": 7331,
      "åĲĮæĹ¶ä¹Łæĺ¯": 7332,
      "åĨľåľº": 7333,
      "è¯ĨåĪ«": 7334,
      "çºªå½ķçīĩ": 7335,
      "æĳĩæ»ļ": 7336,
      "ä¸ĢæĶ¯": 7337,
      "çĳľ": 7338,
      "åįĩæł¼ä¸º": 7339,
      "ç¢°": 7340,
      "ich": 7341,
      "è´Łè´£äºº": 7342,
      "1936å¹´": 7343,
      "æİĮæı¡": 7344,
      "åĴĸåķ¡": 7345,
      "au": 7346,
      "Ġst": 7347,
      "åİŁæĿ¥": 7348,
      "æĽ¾æĺ¯": 7349,
      "æ·ĳ": 7350,
      "æ±īè¯Ń": 7351,
      "éĿĴæĺ¥": 7352,
      "æŃ¥æŀª": 7353,
      "çŃ¹å¤ĩ": 7354,
      "Ġå¤©": 7355,
      "æ²¼": 7356,
      "ä¸»æīĵ": 7357,
      "åīįè¿Ľ": 7358,
      "èĤĿ": 7359,
      "çŁ¥åºľ": 7360,
      "åįĥç±³": 7361,
      "æĻ¯è§Ĥ": 7362,
      "çº¦çĳŁå¤«": 7363,
      "ç¼Ŀ": 7364,
      "Ġç¬¬ä¸Ģ": 7365,
      "æľŃ": 7366,
      "è¿Ļç±»": 7367,
      "ç±³åħ°": 7368,
      "åĪ¤å¤Ħ": 7369,
      "èļģ": 7370,
      "æ¹ĸåĮĹçľģ": 7371,
      "å¤¸": 7372,
      "ç¼ĸåı·ä¸º": 7373,
      "èĪĨ": 7374,
      "Ġæ¦Ĥè¦ģ": 7375,
      "çļĦåľ£": 7376,
      "åľ°äº§": 7377,
      "è´¬": 7378,
      "åħ¨çº¿": 7379,
      "çłĶç©¶çĶŁ": 7380,
      "åĲ¦è®¤": 7381,
      "che": 7382,
      "åľ¨éĤ£éĩĮ": 7383,
      "æĺ¯ä¸į": 7384,
      "åľ°ä¸Ĭ": 7385,
      "åĬłåĪ©äºļ": 7386,
      "é©±éĢĲèĪ°": 7387,
      "(,;)": 7388,
      "ä¸»æµģ": 7389,
      "çī¹åħ°": 7390,
      "åĨħæĶ¿": 7391,
      "è¯¥å¸Ĥ": 7392,
      "æİ¥ç®¡": 7393,
      "182": 7394,
      "å®¹éĩı": 7395,
      "èĪªçıŃ": 7396,
      "åįĬå¹´": 7397,
      "åĵ¥åĵ¥": 7398,
      "1966å¹´": 7399,
      "åĽ½éĺ²éĥ¨": 7400,
      "çŁ©éĺµ": 7401,
      ",)": 7402,
      "çľģéģĵ": 7403,
      "åħĥæľĿ": 7404,
      "èĿł": 7405,
      "å¥¥æĸ¯åį¡": 7406,
      "iaĠ": 7407,
      "æľ¬å±Ĭ": 7408,
      "çĽ¸ç»§": 7409,
      "åħµåĽ¢": 7410,
      "æ³°åĭĴ": 7411,
      "é¢Ħå¤ĩ": 7412,
      "ç®Ĺæ³ķ": 7413,
      "å®ł": 7414,
      "å¼ĢåĲ¯": 7415,
      "æĪĺèĥľ": 7416,
      "æĳĶ": 7417,
      "æµĨ": 7418,
      "è¢«åıĳçİ°": 7419,
      "ç¥Ĳ": 7420,
      "æĶ¹è£ħ": 7421,
      "Ġç¬¬äºĮ": 7422,
      "éĻķè¥¿çľģ": 7423,
      "Ġå°½ç®¡": 7424,
      "ä¹ĭéĻħ": 7425,
      "çģ«çģ¾": 7426,
      "æĪ¿éĹ´": 7427,
      "å±ħä½ıåľ¨": 7428,
      "åĲįè¿Ľå£«": 7429,
      "çī©ä½ĵ": 7430,
      "çļĦæ¦Ĥå¿µ": 7431,
      "à¸": 7432,
      "æ¼Ĩ": 7433,
      "æİ¨ç¿»": 7434,
      "å¿ĹæĦ¿": 7435,
      "çĻ¾å§ĵ": 7436,
      "æĪĲåĪĨ": 7437,
      "é¢ĸ": 7438,
      "èĭ±éķĳ": 7439,
      "åĽŀåĽ½": 7440,
      "å®¢æĪ·": 7441,
      "æĹ§åĿĢ": 7442,
      "äºİ2007å¹´": 7443,
      "çĮľ": 7444,
      "åŀĤçĽ´": 7445,
      "åįĹæµ·": 7446,
      "åĽłåºĶ": 7447,
      "çĶµæ±ł": 7448,
      "åĭĺ": 7449,
      "æ²³æµģåŁŁ": 7450,
      "PC": 7451,
      "Ġåı¦å¤ĸ": 7452,
      "åħĶ": 7453,
      "æĺ¯ä»İ": 7454,
      "æĸ°åĮĹ": 7455,
      "æĸ°ç«¹": 7456,
      "åħ¥åĽ´": 7457,
      "å·´ä¼ĲåĪ©äºļ": 7458,
      "æł¡èĪį": 7459,
      "åģļæ³ķ": 7460,
      "ä¼ģåĽ¾": 7461,
      "éĢłæĪĲçļĦ": 7462,
      "ç¥Ńç¥Ģ": 7463,
      "Ġde": 7464,
      "äºİæŃ¤": 7465,
      "å¿Į": 7466,
      "éĿ¢åĲĳ": 7467,
      "éĢīæ°ĳ": 7468,
      "äºİåĲĮå¹´": 7469,
      "æľ¬ç§ĳ": 7470,
      "è·Į": 7471,
      "ç§°ä¹ĭä¸º": 7472,
      "ä¸ŃåĽ½åĽ½æ°ĳåħļ": 7473,
      "ä¿Ŀå®ī": 7474,
      "éĩįå¤į": 7475,
      "è¾ĥå¤§": 7476,
      "ä¹Įæĸ¯": 7477,
      "èĽĽ": 7478,
      "1959å¹´": 7479,
      "è¿ģç§»": 7480,
      "ä¼Ĳåħĭ": 7481,
      "è¾Ī": 7482,
      "åıĺæį¢": 7483,
      "Ġ2004å¹´": 7484,
      "ç§©åºı": 7485,
      "se": 7486,
      "Ġæ¸¸æĪı": 7487,
      "åĲĮæŃ¥": 7488,
      "ä¸īç§į": 7489,
      "ET": 7490,
      "çļĦéķ¿": 7491,
      "çļĦåŃ¦çĶŁ": 7492,
      "oun": 7493,
      "è¿«ä½¿": 7494,
      "ç¬¬åįģä¸ī": 7495,
      "éĺħè¯»": 7496,
      "æ°®": 7497,
      "æĹ©åľ¨": 7498,
      "å°ºå¯¸": 7499,
      "ä¸ºè¾Ĳé³įé±¼çº²é²": 7500,
      "å¤§è¡Ĺ": 7501,
      "å±±çļĦ": 7502,
      "å¤§éĩıçļĦ": 7503,
      "ä¸Ńé¥°æ¼Ķ": 7504,
      "åĲįä¸¾äºº": 7505,
      "(;)": 7506,
      "EC": 7507,
      "çī©çļĦ": 7508,
      "çªģåĩº": 7509,
      "èı²å°Ķå¾·": 7510,
      "ä»ĸåĴĮ": 7511,
      "åıĳæİĺ": 7512,
      "èĢĮæĿ¥": 7513,
      "çī¹æĢ§": 7514,
      "å±±å¸Ĥ": 7515,
      "åĵĪéĩĮ": 7516,
      "ä½ıåľ¨": 7517,
      "éĥİä¸Ń": 7518,
      "hant": 7519,
      "åİ¦éĹ¨": 7520,
      "åĮĸä¸º": 7521,
      "ç¼ĸç»Ħ": 7522,
      "äººä¸º": 7523,
      "åİī": 7524,
      "åħ¬ä¼ļ": 7525,
      "ä»ĸå¯¹": 7526,
      "åĿŀ": 7527,
      "æŁ¥å°Ķæĸ¯": 7528,
      "æħķå°¼": 7529,
      "ä½ĳ": 7530,
      "åĮł": 7531,
      "å¸ĥåħ°": 7532,
      "æĽ´æĺ¯": 7533,
      "å¹²çº¿": 7534,
      "éģĹä¼ł": 7535,
      "é©±åĬ¨": 7536,
      "èµ¢å¾ĹäºĨ": 7537,
      "äºİ2024å¹´": 7538,
      "èĤĩ": 7539,
      "çľ¼çĿĽ": 7540,
      "çĺ¤": 7541,
      "æĬĳåĪ¶": 7542,
      "91": 7543,
      "çļĦéĺ¿": 7544,
      "å¤§åħ¬": 7545,
      "ä¸»ä½ĵ": 7546,
      "å·´èµ«": 7547,
      "åĵģè´¨": 7548,
      "çĹħéĢĿ": 7549,
      "æĪĺäºīæľŁéĹ´": 7550,
      "æŃ§è§Ĩ": 7551,
      "\"(": 7552,
      "ä¸ºæľŁ": 7553,
      "å¤§å®¶": 7554,
      "æ¡Ĳ": 7555,
      "æıĲåīį": 7556,
      "æµģéĩı": 7557,
      "èľĢ": 7558,
      "æµ¸": 7559,
      "æĮº": 7560,
      "åįĹæĸ¯æĭīå¤«": 7561,
      "ä¸¤æĿ¡": 7562,
      "èŃ¦æĬ¥": 7563,
      "äºĭåĬ¡æīĢ": 7564,
      "ä¸ľäº¬éĥ½": 7565,
      "section": 7566,
      "åİŁçĲĨ": 7567,
      "åķĨåĬ¡": 7568,
      "ç©¿è¿ĩ": 7569,
      "èµĮ": 7570,
      "ä»»åĨħ": 7571,
      "é©¹": 7572,
      "åĩĨåĨ³èµĽ": 7573,
      "çķĮçļĦ": 7574,
      "ern": 7575,
      "æĥħèĬĤ": 7576,
      "åı¤å·´": 7577,
      "ä¹Łåı¯": 7578,
      "å®ŀåĬĽ": 7579,
      "åİ¿çļĦä¸Ģä¸ªéĿŀå»ºåĪ¶åľ°åĮº": 7580,
      "è¤Ĳèī²": 7581,
      "æħķå°¼é»ĳ": 7582,
      "ĠéĻĪ": 7583,
      "æĪĬ": 7584,
      "å®¶ä¹¡": 7585,
      "çĵ·": 7586,
      "èİ±æĸ¯": 7587,
      "åĩłä½ķ": 7588,
      "æĪĺäºīä¸Ń": 7589,
      "éĽķå¡ĳ": 7590,
      "åĨłçĬ¶çĹħæ¯Ĵ": 7591,
      "ĠX": 7592,
      "Ġ16": 7593,
      "æľ¬ä¹¦": 7594,
      "æ´Ľå¤«": 7595,
      "1974å¹´": 7596,
      "ä¾Ŀçħ§": 7597,
      "æĿ¥èĩªäºİ": 7598,
      "ç±»ä¼¼çļĦ": 7599,
      "çīµå¼ķ": 7600,
      "ç»´ä¹Łçº³": 7601,
      "Ġ191": 7602,
      "æĹ¥è¯Ń": 7603,
      "çī¹çĤ¹": 7604,
      "èº«ä¸Ĭ": 7605,
      "åĲİæĿ¥çļĦ": 7606,
      ".)": 7607,
      "åįĹç¾İæ´²": 7608,
      "äºĭåĲİ": 7609,
      "å¢ŀè®¾": 7610,
      "ä»ħæ¬¡äºİ": 7611,
      "ç«£å·¥": 7612,
      "yp": 7613,
      "åıĬåħ¶ä»ĸ": 7614,
      "ç»ıçºª": 7615,
      "éĻ¢å£«": 7616,
      "1953å¹´": 7617,
      "ĠåĮĹ": 7618,
      "æķĪçİĩ": 7619,
      "çļĦä¸»é¢ĺ": 7620,
      "ä¿Ĺç§°": 7621,
      "æ»¤": 7622,
      "æ»ĭ": 7623,
      "åĪĴå½Ĵ": 7624,
      "å¹ķåºľ": 7625,
      "ä¸¥éĩįçļĦ": 7626,
      "ä¸ºçĶ±": 7627,
      "åĨħæľī": 7628,
      "æŁĦ": 7629,
      "èģĶåĨĽ": 7630,
      "æľ¯è¯Ń": 7631,
      "çļĦåĽ½éĻħ": 7632,
      "ä½įäºİä¸Ńåįİäººæ°ĳåħ±åĴĮåĽ½": 7633,
      "èĮĦ": 7634,
      "æĿĳæ°ĳ": 7635,
      "åĮ»åŃ¦éĻ¢": 7636,
      "æ·»åĬł": 7637,
      "å¤§çĲĨ": 7638,
      "çľģæİ¥å£¤": 7639,
      "çĶ²åŁº": 7640,
      "ç»ĥä¹ł": 7641,
      "IV": 7642,
      "å°Ķé¡¿": 7643,
      "èĬ¦": 7644,
      "çº¦1": 7645,
      "çĸ¯": 7646,
      "åľ£ç»ı": 7647,
      "ç»ĨèıĮ": 7648,
      "æīŃ": 7649,
      "ä¸Ĭæĸ¹": 7650,
      "éħ¯": 7651,
      "éģĩåĪ°": 7652,
      "ä¿®éģĵéĻ¢": 7653,
      "è¾¹çļĦ": 7654,
      "æ¿ĢçĥĪ": 7655,
      "å¤§æ°Ķ": 7656,
      "åīįèº«": 7657,
      "ç§°èµŀ": 7658,
      "åŁİåİ¿": 7659,
      "å¦ĤåĲĮ": 7660,
      "ä¿ĿåĬłåĪ©äºļ": 7661,
      "æĮĩè´£": 7662,
      "åĽŀåĲĪ": 7663,
      "èĢĥå¯Ł": 7664,
      "éĢĶç»ı": 7665,
      "èĻļæĭŁ": 7666,
      "çļĦçĶŁæ´»": 7667,
      "çļĦçĪ¶äº²": 7668,
      "çļĦæĪĲç»©": 7669,
      "Ġæł¹æį®2020å¹´ç¾İåĽ½äººåı£æĻ®æŁ¥çļĦæķ°æį®": 7670,
      "MS": 7671,
      "ll": 7672,
      "ç¾İåĽ½äºº": 7673,
      "èİ·å¥ĸ": 7674,
      "å°±åľ¨": 7675,
      "äºīå¤º": 7676,
      "åįģäºĮæľĪ": 7677,
      "âĨ": 7678,
      "æĶ»åĬ¿": 7679,
      "æī¿æĭħ": 7680,
      "çļ®èĤ¤": 7681,
      "å¤ļåħĥ": 7682,
      "æ£į": 7683,
      "åŃ£åĲİ": 7684,
      "ä½ľæĽ²å®¶": 7685,
      "14å¹´": 7686,
      "åĪĨæĪĲ": 7687,
      "æĸ¹ç¨ĭ": 7688,
      "ä½Ĩåħ¶": 7689,
      "è¶ģ": 7690,
      "åĽ¢éķ¿": 7691,
      "æ£±": 7692,
      "æľ«æľŁ": 7693,
      "éĺŁåĳĺ": 7694,
      "åĲĳåĮĹ": 7695,
      "èİ·åıĸ": 7696,
      "çĽ´è·¯": 7697,
      "ä¹¡æĿĳ": 7698,
      "1973å¹´": 7699,
      "é¡ºåºı": 7700,
      "è¸¢": 7701,
      "8ä¸ª": 7702,
      "æĻ´": 7703,
      "åħĥéŁ³": 7704,
      "Ġè¯Ħä»·": 7705,
      "1935å¹´": 7706,
      "é¢Ĩå¯¼çļĦ": 7707,
      "åħ¬åħ±äº¤éĢļ": 7708,
      "å¸ľ": 7709,
      "åı¸èģĮ": 7710,
      "æ»¥": 7711,
      "é»ĳäºº": 7712,
      "åľ°ä¸Ńæµ·": 7713,
      "AL": 7714,
      "åıĹæįŁ": 7715,
      "è±¹": 7716,
      "è¡ĮæĶ¿ä¸Ńå¿ĥ": 7717,
      "1957å¹´": 7718,
      "NBA": 7719,
      "åĿ¤": 7720,
      "æĢ»ç«Ļ": 7721,
      "å£«é¡¿": 7722,
      "å±Ģå±Ģéķ¿": 7723,
      "åĳ¨åĪĬ": 7724,
      "èĲ¨æĭī": 7725,
      "ĠtoĠ": 7726,
      "ç¥¸": 7727,
      "å¥³åŃ©": 7728,
      "1977å¹´": 7729,
      "åĩºèµĽ": 7730,
      "å¥³ä¸»è§Ĵ": 7731,
      "155": 7732,
      "é¥¶": 7733,
      "åĩłå¹´": 7734,
      "å®ģæ³¢": 7735,
      "EN": 7736,
      "æĺ¯æĦıå¤§åĪ©": 7737,
      "åįģä¸Ģå¹´": 7738,
      "åĵģç§į": 7739,
      "ç¥ĸåħĪ": 7740,
      "æĲŀ": 7741,
      "éĺ´è°ĭ": 7742,
      "äºĳåįĹçľģ": 7743,
      "å¤ªåĲİ": 7744,
      "æĿ¡æ¬¾": 7745,
      "152": 7746,
      "çĮ´": 7747,
      "è´Ŀåħĭ": 7748,
      "åĩºçİ°çļĦ": 7749,
      "å©´åĦ¿": 7750,
      "è¿Ļä¹Łæĺ¯": 7751,
      "æ··ä¹±": 7752,
      "å±ŀçļĦæ¤įçī©": 7753,
      "æ§½": 7754,
      "å·´åŁº": 7755,
      "åĵĪæĭī": 7756,
      "éĽ·è¾¾": 7757,
      "åĬłåĪ©ç¦ıå°¼äºļå·ŀ": 7758,
      "Ġåħ¶ä¸Ń": 7759,
      "å¦¥": 7760,
      "ä¿¡å¾Ĵ": 7761,
      "æŃ»äºİ": 7762,
      "ä½ĵèĤ²é¦Ĩ": 7763,
      "äº®çĽ¸": 7764,
      "iveĠ": 7765,
      "å¯ĩ": 7766,
      "å±±åľ°": 7767,
      "çĶ·åŃ©": 7768,
      "åľ¨ä¸Ĭæµ·": 7769,
      "èĲĿ": 7770,
      "æİ¨æµĭ": 7771,
      "æ¤Ń": 7772,
      "ç»ĨèĬĤ": 7773,
      "çļĦéĿ¢ç§¯ä¸º": 7774,
      "åĬłä»¥": 7775,
      "æľĢå¤ļçļĦ": 7776,
      "æķ°åįģ": 7777,
      "éĩįç»Ħ": 7778,
      "åĽ½å®¶åħ¬åĽŃ": 7779,
      "æİ¨è¡Į": 7780,
      "äºİ2006å¹´": 7781,
      "å·´åĭĴæĸ¯åĿ¦": 7782,
      "åıĸèĩª": 7783,
      "è®ºåĿĽ": 7784,
      "æĳ©å°Ķ": 7785,
      "è¿Ļé¦ĸæŃĮ": 7786,
      "æ¡Ĩæŀ¶": 7787,
      "ä¸ľåĮº": 7788,
      "çĽ¸è¿ŀ": 7789,
      "å¤ľéĹ´": 7790,
      "è¯īè®¼": 7791,
      "åĳ¼åĲ¸": 7792,
      "é¥®é£Ł": 7793,
      "ç¤ºå¨ģèĢħ": 7794,
      "é»ĳé¾Ļæ±Łçľģ": 7795,
      "ix": 7796,
      "å¾Ļ": 7797,
      "çĤ³": 7798,
      "æĻ®æĭī": 7799,
      "éĢģåĪ°": 7800,
      "éĢĶå¾Ħ": 7801,
      "å·©": 7802,
      "åĪĨè§£": 7803,
      "æ°´éĩı": 7804,
      "åı¯ä»¥éĢļè¿ĩ": 7805,
      "å¼ķç§į": 7806,
      "é¥¼": 7807,
      "éĻĦåĬł": 7808,
      "å¯Įæ±Ĺ": 7809,
      "YouTube": 7810,
      "çļĦåŁİéķĩ": 7811,
      "æ¬ł": 7812,
      "1971å¹´": 7813,
      "æĸ°åĨłèĤºçĤİ": 7814,
      "Ġg": 7815,
      "çļĦä¸ĸçķĮ": 7816,
      "æŃĮåĶ±": 7817,
      "ç§»å±ħ": 7818,
      "æĭ¿çł´": 7819,
      "è¿½æ±Ĥ": 7820,
      "å±ĭé¡¶": 7821,
      "å°±è¯»äºİ": 7822,
      "èĩ´åĬĽäºİ": 7823,
      "è®½": 7824,
      "æĺ¯è¥¿çıŃçīĻ": 7825,
      "ä»ĸäºº": 7826,
      "æľºæŀª": 7827,
      "çĽ¸éĤ»": 7828,
      "æĿ°åħĭéĢĬ": 7829,
      "ng": 7830,
      "æľīçĿĢ": 7831,
      "ç¾İåĽ½æĢ»ç»Ł": 7832,
      "éĽĨåĽ¢åĨĽ": 7833,
      "è¯ĬæĸŃ": 7834,
      "ç«ĭæĸ¹ç±³": 7835,
      "æĭ¿çł´ä»ĳ": 7836,
      ".ãĢĮ": 7837,
      "é«ĺæŀ¶": 7838,
      "çİ¯å½¢": 7839,
      "æī¹åĪ¤": 7840,
      "1951å¹´": 7841,
      "èĪªç©ºåħ¬åı¸": 7842,
      "ç¬¬åįģä¸Ģ": 7843,
      "HK": 7844,
      "ee": 7845,
      "æĺ¯èĭ±åĽ½": 7846,
      "æ£ļ": 7847,
      "æµģåĬ¨": 7848,
      "æ»ĳéĽª": 7849,
      "ä¸Ńå¼ı": 7850,
      "çī©èµĦ": 7851,
      "å¦ĸ": 7852,
      "å¤ĸåĽ´": 7853,
      "æĢ»ç»ıçĲĨ": 7854,
      "åĬĽåŃ¦": 7855,
      "ç»ĪæŃ¢": 7856,
      "æħĪåĸĦ": 7857,
      "Ġä¸Ģ": 7858,
      "æīĩ": 7859,
      "ä¸īå¤§": 7860,
      "ä¸īçĶ²": 7861,
      "è°£": 7862,
      "æ¡ĵ": 7863,
      "åºķå±Ĥ": 7864,
      "å´ĩç¥¯": 7865,
      "åĨ»": 7866,
      "åı¸æľº": 7867,
      "èĳµ": 7868,
      "å§ĭç»Ī": 7869,
      "æłĩé¢ĺ": 7870,
      "åħ¬éĩĮçļĦ": 7871,
      "åħµåĬĽ": 7872,
      "æ²Īéĺ³": 7873,
      "13å¹´": 7874,
      "çļĦæ¸¸æĪı": 7875,
      "åĩºèĩª": 7876,
      "åħ¶åľ¨": 7877,
      "è¿ĩæ¸¡": 7878,
      "ç¦§": 7879,
      "åĪĻçĶ±": 7880,
      "éĴ©": 7881,
      "å¾·åħĭ": 7882,
      "å®ļçĲĨ": 7883,
      "å±±é¡¶": 7884,
      "4æľĪ1æĹ¥": 7885,
      "ä¸Ńä¸ĸçºª": 7886,
      "ä¸ĭæĸ¹": 7887,
      "çĪ¬": 7888,
      "è£´": 7889,
      "åľ£æ¯į": 7890,
      "è¿ĲåĬ¨çļĦ": 7891,
      "ç§ĺé²ģ": 7892,
      "å±ħæ°ĳçĤ¹": 7893,
      "ç²ĴåŃĲ": 7894,
      "æĸĮ": 7895,
      "æŁľ": 7896,
      "åħĥå¸ħ": 7897,
      "å§Ķåī¯ä¹¦è®°": 7898,
      "æ²³åı£": 7899,
      "çģ«è½¦ç«Ļ": 7900,
      "ä¸Ńå¿ĥçļĦ": 7901,
      "é³Ħ": 7902,
      "åħ¥å¢ĥ": 7903,
      "èĤ¿": 7904,
      "æ¼Ĥ": 7905,
      "å·¥ä½ľçļĦ": 7906,
      "175": 7907,
      "è°¢å°Ķ": 7908,
      "å½¼æŃ¤": 7909,
      "ĠæľĪ": 7910,
      "å·¥åķĨ": 7911,
      "æ¯Ķå°Ķ": 7912,
      "æĴĳ": 7913,
      "æ·±åħ¥": 7914,
      "ç¬¬ä¸īæ¬¡": 7915,
      "000åĲį": 7916,
      "éŁ¦å°Ķ": 7917,
      "åħ¬å¯ĵ": 7918,
      "çĲĥè¿·": 7919,
      "ç»ĵè®º": 7920,
      "åĥıæĺ¯": 7921,
      "omp": 7922,
      "ç¡ķå£«åŃ¦ä½į": 7923,
      "å±¡": 7924,
      "è¾±": 7925,
      "æ¬¡æĹ¥": 7926,
      "æīĭä¸Ń": 7927,
      "å±ĢçļĦ": 7928,
      "éĨī": 7929,
      "Mar": 7930,
      "åİĮ": 7931,
      "äºĨå¯¹": 7932,
      "çĦļ": 7933,
      "çİ¯çĲĥ": 7934,
      "èĵĦ": 7935,
      "è¯ĳä¸º": 7936,
      "è¯¥åī§": 7937,
      "èĭıéĩĮ": 7938,
      "ç¦ıéŁ³": 7939,
      "çªĥ": 7940,
      "æĵ¦": 7941,
      "EP": 7942,
      "åľ¨ä»ĸçļĦ": 7943,
      "çŃīå¾ħ": 7944,
      "æł¼å¼ı": 7945,
      "1990å¹´ä»£": 7946,
      "çªģåİ¥": 7947,
      "å¼Ĺæĭī": 7948,
      "ä¼ĺåħĪ": 7949,
      "å®ĥä»¬çļĦ": 7950,
      "å¤©æ´¥å¸Ĥ": 7951,
      "èģĤ": 7952,
      "åĮĹéŁ©": 7953,
      "çİĭä½į": 7954,
      "åį°è±¡": 7955,
      "åį°åº¦æķĻ": 7956,
      "æ©Ļ": 7957,
      "è½¬çļĦå°ıè¡ĮæĺŁ": 7958,
      "çĶ±äººå·¥": 7959,
      "è¶³çĲĥèģĶèµĽ": 7960,
      "Pro": 7961,
      "çļĦèĥ½åĬĽ": 7962,
      "çļĦå¥³åĦ¿": 7963,
      "ä¸ºé¦ĸ": 7964,
      "åįģä¸īå¹´": 7965,
      "æĽ²çĽ®": 7966,
      "çīĪçļĦ": 7967,
      "é¢ĦåĳĬ": 7968,
      "æĹ©æľŁçļĦ": 7969,
      "ris": 7970,
      "æĹŃ": 7971,
      "æĺ¯åįĹæŀģæ´²": 7972,
      "åıĳéŁ³": 7973,
      "åĬłåĭĴ": 7974,
      "ä¸īæ¬¡": 7975,
      "èģĮæ£Ĵ": 7976,
      "ç¦ıåĪ©": 7977,
      "ä½İæ°Ķåİĭ": 7978,
      "ç¿°æŀĹ": 7979,
      "è¿ĩäºİ": 7980,
      "ç³ķ": 7981,
      "èĳĹæľī": 7982,
      "å¾®è½¯": 7983,
      "çĥŃå¸¦æ°ĶæĹĭ": 7984,
      "çĲĨäºĭä¼ļ": 7985,
      "BL": 7986,
      "ç¬¼èįī": 7987,
      "Windows": 7988,
      "æł¼æĭīæĸ¯": 7989,
      "è¯ºä¼Ĭ": 7990,
      "åĪºæ¿Ģ": 7991,
      "çĮªç¬¼èįī": 7992,
      "åİĿ": 7993,
      "è´¿": 7994,
      "åı²èĴĤ": 7995,
      "åī¯ä½¿": 7996,
      "åıĳçĶŁçļĦ": 7997,
      "åµĮ": 7998,
      "åľ¨ä¸Ģä¸ª": 7999,
      "ä¸Ģéĥ¨åĪĨ": 8000,
      "åİ¿åŁİ": 8001,
      "çº§çļĦ": 8002,
      "ç±»åŀĭçļĦ": 8003,
      "åıĸå¾ĹäºĨ": 8004,
      "åħħåĪĨ": 8005,
      "éĻ¤æŃ¤ä¹ĭå¤ĸ": 8006,
      "ä¸º3": 8007,
      "ä¸ĢçĻ¾": 8008,
      "çºº": 8009,
      "æľīåı¯èĥ½": 8010,
      "1900": 8011,
      "çīĩæ®µ": 8012,
      "å¼ºåĮĸ": 8013,
      "éĢĤçĶ¨äºİ": 8014,
      "åħ±äº§ä¸»ä¹ī": 8015,
      "å¾·æĸ¯": 8016,
      "è¯¥åľ°åĮº": 8017,
      "ç¼Ķ": 8018,
      "åĭ¾": 8019,
      "èº²": 8020,
      "inc": 8021,
      "çĪ±çļĦ": 8022,
      "ä¸ģåł¡": 8023,
      "ç½ķé»ĺ": 8024,
      "åħĭç½Ĺåľ°äºļ": 8025,
      "å°¸ä½ĵ": 8026,
      "pp": 8027,
      "åĴĮå¤§": 8028,
      "åĲįèªī": 8029,
      "ä¸ĭè½½": 8030,
      "è¿Ļä¸¤ä¸ª": 8031,
      "çĶµåĬ¨": 8032,
      "å¥½åıĭ": 8033,
      "é¥¥": 8034,
      "rit": 8035,
      "å»ºåĽ½": 8036,
      "åıĤè§Ĥ": 8037,
      "æ¯ıæ¬¡": 8038,
      "çļĦå¹³åĿĩæµ·æĭĶé«ĺåº¦": 8039,
      "TA": 8040,
      "åĲİåıĪ": 8041,
      "çİĭå®¤": 8042,
      "é£ŀå¼¹": 8043,
      "ond": 8044,
      "æİ§èĤ¡": 8045,
      "åģļä¸º": 8046,
      "åħ¹çľģ": 8047,
      "ãĥ¼": 8048,
      "Ġ2003å¹´": 8049,
      "åıĻè¿°": 8050,
      "èĢĮè¯¥åľ°çļĦå¹³åĿĩæµ·æĭĶé«ĺåº¦": 8051,
      "å·´åŁºæĸ¯åĿ¦": 8052,
      "å¼ķç§įæł½åŁ¹": 8053,
      "05": 8054,
      "åı°å¸ģ": 8055,
      "å¸¸å§Ķä¼ļ": 8056,
      "å¥³æ¼Ķåĳĺ": 8057,
      "èº«äº¡": 8058,
      "int": 8059,
      "è®¾è®¡å¸Ī": 8060,
      "1967å¹´": 8061,
      "å¼Ĥå¸¸": 8062,
      "è´¢åĬ¡": 8063,
      "Ġç»ıæµİ": 8064,
      "æĺı": 8065,
      "è¿Ľåı£": 8066,
      "éĿ¢ç§¯1": 8067,
      "å½¢æĪĲçļĦ": 8068,
      "2010å¹´ç¾İåĽ½äººåı£æĻ®æŁ¥çļĦæķ°æį®": 8069,
      "åĢŁçĶ±": 8070,
      "ä¸İæŃ¤åĲĮæĹ¶": 8071,
      "éķ¿å®ī": 8072,
      "ä»»å¤©åłĤ": 8073,
      "çĭ¬çī¹çļĦ": 8074,
      "éģĹè¿¹": 8075,
      "è¿Ļæ®µ": 8076,
      "è£¸": 8077,
      "èĪªçº¿": 8078,
      "çģ«æĺŁ": 8079,
      "ä¹ĺåĿĲ": 8080,
      "è¿Ľå£«åĩºèº«": 8081,
      "Play": 8082,
      "Î±": 8083,
      "ãĢį;": 8084,
      "æĽ¾ä¸º": 8085,
      "æĿĥçļĦ": 8086,
      "åĸī": 8087,
      "å®£åĳĬ": 8088,
      "ä¿Ħäº¥": 8089,
      "1965å¹´": 8090,
      "ä¿Ħäº¥ä¿Ħ": 8091,
      "å»ºæľī": 8092,
      "ç§ĳå¹»": 8093,
      "çº³å°Ķ": 8094,
      "ç¥ŀåľ£": 8095,
      "çħ§é¡¾": 8096,
      "çĶŁäº§çļĦ": 8097,
      "æĸ¯éĩĮ": 8098,
      "åĲĮåŃ¦": 8099,
      "éģĵçļĦ": 8100,
      "å¤©ä½¿": 8101,
      "10æľĪ1æĹ¥": 8102,
      "å½¢çļĦ": 8103,
      "ç¬¬ä¸Ģå±Ĭ": 8104,
      "è½¬ä»»": 8105,
      "åĪĿå¹´": 8106,
      "çĶ±äººå·¥å¼ķç§įæł½åŁ¹": 8107,
      "æķ°çĻ¾": 8108,
      "ç¼ĸåĨĻ": 8109,
      "éĤ£æł·": 8110,
      "å¥´éļ¶": 8111,
      "åľ¨åĨħ": 8112,
      "è¿Ĳæ²³": 8113,
      "æīĭæŀª": 8114,
      "å®£è¨Ģ": 8115,
      "16å¹´": 8116,
      "ä¸Ĭæ¸¸": 8117,
      "åŃĲå¼¹": 8118,
      "åŁºè¾ħ": 8119,
      "çĶµè§ĨåĬ¨çĶ»": 8120,
      "çļĦå¤§åŀĭ": 8121,
      "ä¸ĭè¾ĸä»¥ä¸ĭåľ°åĮº": 8122,
      "äººç§°": 8123,
      "å·´å¡ŀå°Ķ": 8124,
      "èįĥ": 8125,
      "èĻĲ": 8126,
      "åįģä¸ĢæľĪ": 8127,
      "\").": 8128,
      "åİ¨": 8129,
      "æ¶¡": 8130,
      "åĪĴåĪĨ": 8131,
      "åĮ»å¸Ī": 8132,
      "çºªå¿µç¢ĳ": 8133,
      "eam": 8134,
      "ide": 8135,
      "ä¸Ńä¹¦": 8136,
      "ä»¥å¾Ģ": 8137,
      "ä¹ĭåĲį": 8138,
      "æĸ°äºº": 8139,
      "åīįçº¿": 8140,
      "æĹłéĻĲ": 8141,
      "ç½ĳä¸Ĭ": 8142,
      "æĭ¦": 8143,
      "çķľ": 8144,
      "åı·ä¸º": 8145,
      "æµģç»ı": 8146,
      "è°ĥèĬĤ": 8147,
      "é²ģæĸ¯": 8148,
      "1969å¹´": 8149,
      "æĿ¥å¾Ģ": 8150,
      "å°¼å¥¥": 8151,
      "éĩĳåĪļ": 8152,
      "å½¢æĪĲäºĨ": 8153,
      "èĤ¯å®ļ": 8154,
      "è¯ŀçĶŁ": 8155,
      "è¿Ļéĥ¨": 8156,
      "æĸĩæľ¬": 8157,
      "æĢ»é¢Ŀ": 8158,
      "å¸¸è§Ħ": 8159,
      "ore": 8160,
      "ä¼Ĭå°Ķ": 8161,
      "è¯ºæĸ¯": 8162,
      "åı£å¾Ħ": 8163,
      "åĽŀçŃĶ": 8164,
      "èİ·å¾Ĺä¸Ģæŀļ": 8165,
      "äºİ189": 8166,
      "æĶ¹ç¼ĸèĩª": 8167,
      "Mic": 8168,
      "ment": 8169,
      "Ġæĭī": 8170,
      "åĮºåĴĮ": 8171,
      "åŁºéļĨ": 8172,
      "å°±æľī": 8173,
      "éĺµå®¹": 8174,
      "æ®ĭçĸ¾": 8175,
      "å¹¸åŃĺ": 8176,
      "å¥¥æĸ¯æĽ¼": 8177,
      "åĽ½è¯Ń": 8178,
      "åİŁåĪĽ": 8179,
      "éĺ¿å¯Įæ±Ĺ": 8180,
      "è®¤å®ļ": 8181,
      "æŀģç«¯": 8182,
      "åŃĺåľ¨çļĦ": 8183,
      "åĲĮæĢ§æģĭ": 8184,
      "çĽ²": 8185,
      "ä»¥å¤ĸçļĦ": 8186,
      "ä¸įåıĺ": 8187,
      "éķ¿å¤§": 8188,
      "ç»´åĲ¾": 8189,
      "èĭıå·ŀ": 8190,
      "éĿ¢ç§¯0": 8191,
      "ä¾Ľå¥ī": 8192,
      "èĢ¶å¤«": 8193,
      "1933å¹´": 8194,
      "éĩĩçĶ¨äºĨ": 8195,
      "æĮīå¯Ł": 8196,
      "ç©Ĩç½ķé»ĺ": 8197,
      "åĴĮä»ĸçļĦ": 8198,
      "æĮ¤": 8199,
      "åħ³èģĶ": 8200,
      "åĲĳåįĹ": 8201,
      "ç®¡åĪ¶": 8202,
      "è®¤çŁ¥": 8203,
      "è¿ĺåĮħæĭ¬": 8204,
      "åĬŀæ³ķ": 8205,
      "168": 8206,
      "åī¯éĥ¨éķ¿": 8207,
      "åĪ¤æĸŃ": 8208,
      "ç´§å¼ł": 8209,
      "ä½įäºİè¯¥çľģ": 8210,
      "11å¹´": 8211,
      "âĪ": 8212,
      "æĶĢ": 8213,
      "å¾ĹåĪĨ": 8214,
      "ä¸īåĲį": 8215,
      "ä¹ŁåĽłæŃ¤": 8216,
      "åĸ»": 8217,
      "è¯įæ±ĩ": 8218,
      "çĽ®åīįå°ļæľª": 8219,
      "å²Ĳ": 8220,
      "çĹķ": 8221,
      "æ°Ķæ¸©": 8222,
      "æ²ĥå°Ķ": 8223,
      "ç©¿è¶Ĭ": 8224,
      "ç»´åĲ¾å°Ķ": 8225,
      "17å¹´": 8226,
      "Ġl": 8227,
      "äºĨä¸ĢäºĽ": 8228,
      "æįī": 8229,
      "é»Ľ": 8230,
      "ç¾İåĽ½åĽ½å®¶": 8231,
      "éħĭ": 8232,
      "åħļç»Ħ": 8233,
      "åī©ä½Ļ": 8234,
      "DVD": 8235,
      "å¤ĸçķĮ": 8236,
      "å¿ĥèĦı": 8237,
      "éªı": 8238,
      "176": 8239,
      "ç²®é£Ł": 8240,
      "æ¬º": 8241,
      "å·´å¸ĥ": 8242,
      "éħ¿": 8243,
      "æĬķæīĭ": 8244,
      "çĶµè§ĨèĬĤçĽ®": 8245,
      "æľĹå¾·": 8246,
      "çĩĥçĥ§": 8247,
      "DS": 8248,
      "ä¸ĭæĿ¥çļĦ": 8249,
      "çĶµæµģ": 8250,
      "entĠ": 8251,
      "1930å¹´": 8252,
      "å®¿èĪį": 8253,
      "åŁł": 8254,
      "åĬłå·¥": 8255,
      "æ¬¡æķ°": 8256,
      "åİŁæľī": 8257,
      "éĹ®é¢ĺçļĦ": 8258,
      "æį¢ä¹ĺ": 8259,
      "ach": 8260,
      "7ä¸ª": 8261,
      "OR": 8262,
      "é¢Ĥ": 8263,
      "åĵĪå¾·": 8264,
      "çªģåĩ»": 8265,
      "åĨ²åĩ»": 8266,
      "ohn": 8267,
      "MP": 8268,
      "åĩºäºİ": 8269,
      "çĶŁæķĪ": 8270,
      "åŃĲåħ¬åı¸": 8271,
      "æĪĺè½¦": 8272,
      "ç«Ļåİħ": 8273,
      "ç¾İåĽ½æµ·åĨĽ": 8274,
      "åıĳçİ°çļĦ": 8275,
      "çĶŁæ´»åľ¨": 8276,
      "çļĦå¤§éĥ¨åĪĨ": 8277,
      "åħĭéĩĮæĸ¯": 8278,
      "æľºåĻ¨äºº": 8279,
      "Ġé«ĺ": 8280,
      "ç¬¬6": 8281,
      "åı¯åīįå¾Ģ": 8282,
      "æĹıäºº": 8283,
      "æ²¡æľīä»»ä½ķ": 8284,
      "è¾ĥé«ĺ": 8285,
      "æĬĹæĪĺ": 8286,
      "ä¸´åºĬ": 8287,
      "æģĲé¾Ļ": 8288,
      "åĪĽå§ĭäºº": 8289,
      "ç³Ĭ": 8290,
      "ç¥ŀç§ĺ": 8291,
      "å¹¶ä¸Ķåľ¨": 8292,
      "çī©ç§įçļĦ": 8293,
      "æĸ°çķĮ": 8294,
      "å¾Ĺç¥¨": 8295,
      "éĢļè¡Į": 8296,
      "åħ°å·ŀ": 8297,
      "éħī": 8298,
      "ç±»çļĦ": 8299,
      "åıįèĢĮ": 8300,
      "å¥ĸçīĮ": 8301,
      "æĹĹå¸ľ": 8302,
      "çļĦå±±å³°": 8303,
      "åĨĽåľ¨": 8304,
      "å¡Į": 8305,
      "åıĹåĪ°äºĨ": 8306,
      "æĦıåĽ¾": 8307,
      "èĬĤå¥ı": 8308,
      "åħŃä¸ª": 8309,
      "åŃĺåĤ¨": 8310,
      "1931å¹´": 8311,
      "å¤ºåıĸ": 8312,
      "ç±»ä¼¼äºİ": 8313,
      "30å¹´": 8314,
      "å¼Ģä¸ļ": 8315,
      "æĺİå°¼": 8316,
      "å¤ªéĥİ": 8317,
      "å®ĥåľ¨": 8318,
      "å®ĪæĬ¤": 8319,
      "æĪĪå°Ķ": 8320,
      "åĽ½æľī": 8321,
      "å¹¶ä¸º": 8322,
      "è¢«åĪĹä¸º": 8323,
      "è¾ĥå°ĳ": 8324,
      "çĶµå½±èĬĤ": 8325,
      "æ°¸è¿ľ": 8326,
      "çĶŁéķ¿äºİæµ·æĭĶ": 8327,
      "æ³ª": 8328,
      "æŃ¤ä¸¾": 8329,
      "éĢļå¸¸æĺ¯": 8330,
      "è°¨": 8331,
      "åįģå¤§": 8332,
      "æŃ£ä¹ī": 8333,
      "ä¼łå¥ĩ": 8334,
      "èĻ¾": 8335,
      "åıĳå±ķçļĦ": 8336,
      "å§Ķåĳĺä¼ļä¸»å¸Ń": 8337,
      "è¿ªäºļ": 8338,
      "æĹĭè½¬": 8339,
      "åĿĲèĲ½": 8340,
      "çī©çĲĨåŃ¦": 8341,
      "æĺĶ": 8342,
      "æľīä¸¤ä¸ª": 8343,
      "åĬ¨åĳĺ": 8344,
      "åŀ¦": 8345,
      "å¥¹æĽ¾": 8346,
      "è¶³èģĶ": 8347,
      "æīĺé©¬æĸ¯": 8348,
      "åĲĪå¹¶ä¸º": 8349,
      "ĠåįĹ": 8350,
      "ä¸ŃæĸŃ": 8351,
      "ç¬¬äºĮä¸ª": 8352,
      "âĦ": 8353,
      "æĹ¶éĴĪ": 8354,
      "è¿ĽèĢĮ": 8355,
      "ç¡®å®ŀ": 8356,
      "âĨĴ": 8357,
      "4Ġ": 8358,
      "CP": 8359,
      "åħ¬çº¦": 8360,
      "åħ¥çĲĥ": 8361,
      "åħ¨ä¸ĸçķĮ": 8362,
      "åħīè°±": 8363,
      "æııåĨĻ": 8364,
      "éľįå°Ķ": 8365,
      "ç±³çļĦåľ°åĮº": 8366,
      "Ġçİĭ": 8367,
      "çļĦé©¬": 8368,
      "æĪĮ": 8369,
      "å¹¶ä¸įæĺ¯": 8370,
      "æĸ°è¥¿åħ°": 8371,
      "æķĻç§ĳ": 8372,
      "å·´åħĭ": 8373,
      "ä¿Ŀåį«": 8374,
      "åĩ»ä¸Ń": 8375,
      "lat": 8376,
      "166": 8377,
      "éĻĲäºİ": 8378,
      "æ¶ĪçģŃ": 8379,
      "èĻļæŀĦ": 8380,
      "ãĢĭ(),": 8381,
      "æĢ§æł¼": 8382,
      "äº§éĩı": 8383,
      "çĳĻ": 8384,
      "åĿĩæľī": 8385,
      "rom": 8386,
      "åĿĲæłĩä¸º": 8387,
      "ĠåĪ¶ä½ľ": 8388,
      "ä»¥åħ¶": 8389,
      "ä¸ĭå±ŀ": 8390,
      "é¦ĸé¢Ĩ": 8391,
      "ä¹ĲåĻ¨": 8392,
      "å¢ĥå¤ĸ": 8393,
      "æĬĢèĥ½": 8394,
      "æ¸©å¸¦": 8395,
      "åĺīåºĨ": 8396,
      "åĩºçīĪçļĦ": 8397,
      "åħĭæĸ¯åĿ¦": 8398,
      "çļĦåľ°ä½į": 8399,
      "ä¼įå¾·": 8400,
      "Ġå¯¹äºİ": 8401,
      "å¤§æī¹": 8402,
      "ä¿¡ä»»": 8403,
      "165": 8404,
      "145": 8405,
      "åį°åº¦å°¼è¥¿äºļ": 8406,
      "å¸ķå°Ķ": 8407,
      "åıĳçĶµåİĤ": 8408,
      "3åı·": 8409,
      "åīįèĢħ": 8410,
      "éĢīä¸Ń": 8411,
      "åĲĳä¸ľ": 8412,
      "1962å¹´": 8413,
      "éĴ¢éĵģ": 8414,
      "æĢ¨": 8415,
      "çº¿åĴĮ": 8416,
      "èµ·çĤ¹": 8417,
      "å®¢å®¶": 8418,
      "åı¯èĥ½æĢ§": 8419,
      "ĠSp": 8420,
      "çº¤ç»´": 8421,
      "Ġç®Ģ": 8422,
      "è·ĭ": 8423,
      "çī¹åĭĴ": 8424,
      "å¤ļä¸º": 8425,
      "è¿ĩåº¦": 8426,
      "æĢ»å±Ģ": 8427,
      "çªĿ": 8428,
      "æĶ¯æĮģèĢħ": 8429,
      "çģµéŃĤ": 8430,
      "éĢıæĺİ": 8431,
      "å¤§è¿ŀ": 8432,
      "åĴĮäººåı£": 8433,
      "éķ¿æĺ¥": 8434,
      "åįİåĮĹ": 8435,
      "org": 8436,
      "å¸ĿåĽ½çļĦ": 8437,
      "01": 8438,
      "äºĮæ¬¡": 8439,
      "ork": 8440,
      "æĤ¼": 8441,
      "æĻļæľŁ": 8442,
      "åĽ½æĹĹ": 8443,
      "ä»ĸå°Ĩ": 8444,
      "åĲįå½ķ": 8445,
      "å¥¥åħĭ": 8446,
      "çº³æĸ¯": 8447,
      "è§£éĻ¤": 8448,
      "èı±": 8449,
      "è¡ĮæĶ¿éķĩåĮº": 8450,
      "ç¡®ç«ĭ": 8451,
      "les": 8452,
      "ä¸ŃæŃ£": 8453,
      "è¿Ļä¸¤": 8454,
      "æ¸¯éĵģ": 8455,
      "åĸĿ": 8456,
      "å¾Ģè¿Ķ": 8457,
      "Ġéĩĳ": 8458,
      "éĢīç¥¨": 8459,
      "éĶħ": 8460,
      "åħĭéĩĮç±³äºļ": 8461,
      "æ²ŁéĢļ": 8462,
      "Ġ13": 8463,
      "éĹ¹": 8464,
      "ä½Ĩä¸į": 8465,
      "åĶ¤": 8466,
      "éļıä¹ĭ": 8467,
      "è¾ŀåİ»": 8468,
      "æĲŃè½½": 8469,
      "é£ŀè¡Įåĳĺ": 8470,
      "ĠæĹ¥": 8471,
      "Ġä¸ºäºĨ": 8472,
      "éĺľ": 8473,
      "å·¥åħļ": 8474,
      "æ¸¸æĪıä¸Ń": 8475,
      "é»ĳæļĹ": 8476,
      "é¸¦": 8477,
      "æıĲä¾ĽçļĦ": 8478,
      "Ġä»¥": 8479,
      "çļĦéģĵè·¯": 8480,
      "åĽ½å®ī": 8481,
      "å®ļä½į": 8482,
      "åįģäºĶå¹´": 8483,
      "æ³¢çī¹": 8484,
      "æ¢ħå°Ķ": 8485,
      "åİ¿çļĦä¸Ģä¸ªè¡ĮæĶ¿éķĩåĮº": 8486,
      "çļĦå¼Ģ": 8487,
      "æĺ¯å¯¹": 8488,
      "çĽĴ": 8489,
      "ä¹ĭåľ°": 8490,
      "å¸ĥæĶ¿": 8491,
      "çĽ¸è¾ĥ": 8492,
      "æīĵå¼Ģ": 8493,
      "ä¹Įæĭī": 8494,
      ";&": 8495,
      "âĢ§": 8496,
      "ç«ĭå¤§åŃ¦": 8497,
      "Ġæľ¬ç«Ļ": 8498,
      "AK": 8499,
      "HR": 8500,
      "OM": 8501,
      "UN": 8502,
      "Ġ20": 8503,
      "å°§": 8504,
      "ä¸ĭçļĦä¸Ģä¸ª": 8505,
      "å£«åĿ¦": 8506,
      "äº§çī©": 8507,
      "åĲĳéĩı": 8508,
      "æĶ¾éĢģ": 8509,
      "åĵįåºĶ": 8510,
      "1932å¹´": 8511,
      "åĮª": 8512,
      "æľīä¸¤": 8513,
      "åıĬåĲİ": 8514,
      "äºĭåıĺ": 8515,
      "æµģæµª": 8516,
      "åħĪåīį": 8517,
      "èĲ¨æĸ¯å·ŀ": 8518,
      "åľ°å¤Ħ": 8519,
      "äºĭæĥħ": 8520,
      "æĺİä»£": 8521,
      "ç¥ŀç¤¾": 8522,
      "ame": 8523,
      "èī¯å¥½": 8524,
      "1928å¹´": 8525,
      "ç§ŁçķĮ": 8526,
      "US": 8527,
      "åĪ©å¥¥": 8528,
      "äº§åľ°": 8529,
      "ä¹¦æ³ķ": 8530,
      "åıĳå¸ĥäºĨ": 8531,
      "æįĲèµł": 8532,
      "äººå¤§ä»£è¡¨": 8533,
      "å¸ĪèĮĥå¤§åŃ¦": 8534,
      "ton": 8535,
      "çļĦè®¡åĪĴ": 8536,
      "èĩ³2": 8537,
      "125": 8538,
      "åį³åı¯": 8539,
      "æ¯įèĪ°": 8540,
      "è¯»ä¹¦": 8541,
      "ä¼ļè®®ä¸Ĭ": 8542,
      "å·¡éĢ»": 8543,
      "åĮĹå¹³": 8544,
      "éĹ´è°į": 8545,
      "çĥĤ": 8546,
      "åºĵå°Ķ": 8547,
      "ä¸»æķĻç»ĥ": 8548,
      "Ġ2002å¹´": 8549,
      "èķĥ": 8550,
      "å°Ĭéĩį": 8551,
      "Station": 8552,
      "çļĦåº§æłĩä¸º": 8553,
      "æ°ĳæĶ¿": 8554,
      "æľĢéĩįè¦ģçļĦ": 8555,
      "åİŁåŀĭ": 8556,
      "åĲĳè¥¿": 8557,
      "çłĶç©¶ä¸Ńå¿ĥ": 8558,
      "1961å¹´": 8559,
      "æĺ¯ä¸Ģå®¶": 8560,
      "çļĦæ¯ĶèµĽ": 8561,
      "äººæīį": 8562,
      "ick": 8563,
      "å¼ĢåıĳçļĦ": 8564,
      "æĺĨæĺİ": 8565,
      "æ§Ł": 8566,
      "å¤§åĲĮ": 8567,
      "æĢİ": 8568,
      "ç¼Ģ": 8569,
      "åİŁå®ļ": 8570,
      "æĪĸç§°": 8571,
      "æ®·": 8572,
      "èĮİ": 8573,
      "çłĶç©¶åĳĺ": 8574,
      "å¼ºçļĦ": 8575,
      "å¼ºå¤§çļĦ": 8576,
      "ç²¾çģµ": 8577,
      "åĤ¨åŃĺ": 8578,
      "å»¶ä¼¸èĩ³": 8579,
      "FC": 8580,
      "ĠY": 8581,
      "Ġä¸ī": 8582,
      "å¤§åŃĹ": 8583,
      "çŃīèģĮ": 8584,
      "ä¼¯æł¼": 8585,
      "èĽĻ": 8586,
      "igh": 8587,
      "å°¼åı¤æĭī": 8588,
      "ax": 8589,
      "Ġä½ľä¸º": 8590,
      "çļĦä»£è¡¨": 8591,
      "çļĦåĲįç§°": 8592,
      "åĬ¾": 8593,
      "ä¸ĬéĿ¢": 8594,
      "ä»ĸè¯´": 8595,
      "æ³ķåŃ¦": 8596,
      "æŃ¤ç±»": 8597,
      "çŃīäºİ": 8598,
      "éĥ½ä¸į": 8599,
      "æĺ¥ç§ĭ": 8600,
      "æ³½å°Ķçľģ": 8601,
      "çº·çº·": 8602,
      "è¯Ī": 8603,
      "åħ¬ç¤¾": 8604,
      "åĬ¨æĢģ": 8605,
      "ä¹Ŀå·ŀ": 8606,
      "éĺ²å®Ī": 8607,
      "å·Ŀåİ¿": 8608,
      "åģľè¿Ĳ": 8609,
      "å§ĵæ°ı": 8610,
      "åıĳè¾¾": 8611,
      "æĽ¾è¢«": 8612,
      "ç®¡æİ§": 8613,
      "å¼łåįķæĽ²": 8614,
      "äºİ2005å¹´": 8615,
      "åĲĽå£«åĿ¦": 8616,
      "ight": 8617,
      "äººç¾¤": 8618,
      "éĴł": 8619,
      "èı©": 8620,
      "å°ģéĹŃ": 8621,
      "çŃīçļĦ": 8622,
      "æĮĩçļĦæĺ¯": 8623,
      "å¥ĸæľĢä½³": 8624,
      "å¢ĥåĨħçļĦ": 8625,
      "åı¦ä¸Ģç§į": 8626,
      "æĪ·éĥ¨": 8627,
      "å¾®åįļ": 8628,
      "éĹ¯": 8629,
      "è¿ĻæĹ¶": 8630,
      "åįģåĽĽå¹´": 8631,
      "è½¬åıĺ": 8632,
      "èĽ®": 8633,
      "tern": 8634,
      "ier": 8635,
      "ue": 8636,
      "åĳĺå¤ĸ": 8637,
      "åıĤè®®åĳĺ": 8638,
      "æĿĢäºº": 8639,
      "æĻ¯çĤ¹": 8640,
      "å°ģéĶģ": 8641,
      "ä½£": 8642,
      "åħ¬å¼ı": 8643,
      "åħĭéĽ·": 8644,
      "åĬłæĸ¯": 8645,
      "éĺŁåľ¨": 8646,
      "åħ¶ä»ĸçļĦ": 8647,
      "æ´»åĬ¨çļĦ": 8648,
      "æ³¨åħ¥": 8649,
      "ational": 8650,
      "AI": 8651,
      "è¿ĽçĲĥ": 8652,
      "æ³¢å£«é¡¿": 8653,
      "çľĭè§ģ": 8654,
      "æŃĩå°Ķ": 8655,
      "//": 8656,
      "çĲĨåŃ¦": 8657,
      "åŀ£": 8658,
      "æĶ¹èī¯": 8659,
      "éĢłåŀĭ": 8660,
      "ä¸ĵç§ĳ": 8661,
      "ä¸ĵæ³¨": 8662,
      "éĩİçĶŁ": 8663,
      "å±¯éĹ¨": 8664,
      "ç¦¾": 8665,
      "çĦ°": 8666,
      "åıĤæ¼Ķ": 8667,
      "è°ĥä»»": 8668,
      "æŀģä¸º": 8669,
      "ä¸»é¢ĺæĽ²": 8670,
      "çĽ®åīįå°ļæľªçĶ±äººå·¥å¼ķç§įæł½åŁ¹": 8671,
      "Ġå»ºçŃĳ": 8672,
      "åĪĨäº«": 8673,
      "ä»»æĦı": 8674,
      "èī®": 8675,
      "æľŁåĪĬ": 8676,
      "ç½Ĺè®·": 8677,
      "éĺ¿åŁº": 8678,
      "å¯¼å¸Ī": 8679,
      "çľŁæŃ£çļĦ": 8680,
      "åīįæĿ¥": 8681,
      "é«ĺå±Ĥ": 8682,
      "ç»ıè´¹": 8683,
      "åįģåħŃå¹´": 8684,
      "å°¼æ³Ĭ": 8685,
      "åİĭç¼©": 8686,
      "å·¡æĬļ": 8687,
      "éŀį": 8688,
      "åıĳè¨Ģäºº": 8689,
      ")(": 8690,
      "éĺĢ": 8691,
      "é«ĺæł¡": 8692,
      "ä½ĵæĵį": 8693,
      "éĺ¿å§Ĩ": 8694,
      "æĺŁçļĦ": 8695,
      "ç²¾ç¡®": 8696,
      "åı³ç¿¼": 8697,
      "éĺµäº¡": 8698,
      "èĭį": 8699,
      "éļıæľº": 8700,
      "è¯»èĢħ": 8701,
      "éĽħåħ¸": 8702,
      "å®ľåħ°": 8703,
      "äºİ188": 8704,
      "Ġ1949å¹´": 8705,
      "Ġä¸ªäººçĶŁæ´»": 8706,
      "CN": 8707,
      "çļĦæľī": 8708,
      "è®¾åľ¨": 8709,
      "æ¶¨": 8710,
      "çķĻåŃ¦": 8711,
      "1963å¹´": 8712,
      "èĤ¡ä¸ľ": 8713,
      "åīįéĶĭ": 8714,
      "å°Ĩä»ĸ": 8715,
      "è·¯å¾Ħ": 8716,
      "é¦ĸå°Ķ": 8717,
      "åı¤å¸ĮèħĬ": 8718,
      "çİĩåĨĽ": 8719,
      "åħįçĸ«": 8720,
      "è¶ĭåĬ¿": 8721,
      "ç©Ĩç½ķé»ĺå¾·": 8722,
      "ä¸ŃåİŁ": 8723,
      "çķı": 8724,
      "åĪĿæŃ¥": 8725,
      "è´Ńçī©": 8726,
      "æ´ªæ°´": 8727,
      "ç»Łæ²»èĢħ": 8728,
      "å¤©æĸĩåŃ¦å®¶": 8729,
      "çº¦åħĭ": 8730,
      "æıĲæ¡Ī": 8731,
      "ros": 8732,
      "åĬłåħ¥ä¸ŃåĽ½åħ±äº§åħļ": 8733,
      "eĠC": 8734,
      "ES": 8735,
      "äººä¸İ": 8736,
      "äººæĸĩ": 8737,
      "æĺ¯ä¸ĭè¾ĸçļĦä¸Ģä¸ª": 8738,
      "æĹ¶åĪ»": 8739,
      "å°ıå§Ĳ": 8740,
      "æĦŁæĥħ": 8741,
      "æ²¿çĶ¨": 8742,
      "åĽłæŃ¤åľ¨": 8743,
      "éĤ®å±Ģ": 8744,
      "å§Ĭå¦¹": 8745,
      "çļĦç»ıæµİ": 8746,
      "ä¸Ģå¼Ģå§ĭ": 8747,
      "åıĳèĤ²": 8748,
      "ãĢĬãĢĭ(": 8749,
      "æľ¬æ¬¡": 8750,
      "åı¯éĿł": 8751,
      "ç¼Ĩ": 8752,
      "æ°´ä¸Ĭ": 8753,
      "æ°´æ·±": 8754,
      "å·´æĸ¯": 8755,
      "æĥħæĦŁ": 8756,
      "å±ĢåĬ¿": 8757,
      "æĬĢå·§": 8758,
      "èĢĥåħ¥": 8759,
      "èį£èİ·": 8760,
      "è®¨ä¼Ĳ": 8761,
      "æĪªæŃ¢": 8762,
      "è¡¨çİ°åĩº": 8763,
      "çļĦç¤¾ä¼ļ": 8764,
      "èĥĢ": 8765,
      "å½ĵä½ľ": 8766,
      "éĢīæĭĶ": 8767,
      "åĸĻ": 8768,
      "è®¤ä¸ºæĺ¯": 8769,
      "ä»ħä»ħ": 8770,
      "æľĢç»Īåľ¨": 8771,
      "å½Ĵç±»": 8772,
      "æĻļéĹ´": 8773,
      "æĭľåįł": 8774,
      "ä¸Ģåı·": 8775,
      "ä¼ļç¤¾": 8776,
      "å¹¶è¡¨ç¤º": 8777,
      "éĿ¢ä¸Ĭ": 8778,
      "ç¦»å©ļ": 8779,
      "åĶ®ç¥¨": 8780,
      "odice": 8781,
      "mm": 8782,
      "ä¸ļä½Ļ": 8783,
      "éĤ¹": 8784,
      "é¦ĸæī¹": 8785,
      "äº¤æĪĺ": 8786,
      "å¤ĦåĨ³": 8787,
      "çļĦä¸Ģæ¬¡": 8788,
      "çħĮ": 8789,
      "èµĭäºĪ": 8790,
      "çļĦåĪĨ": 8791,
      "çļĦèº«ä»½": 8792,
      "åĴı": 8793,
      "å®īå¦®": 8794,
      "åº§åłĤ": 8795,
      "å®¢è½¦": 8796,
      "èŀºæĹĭ": 8797,
      "æĶ¿åįıå§Ķåĳĺ": 8798,
      "éĻ¨çŁ³åĿĳ": 8799,
      "âĦĥ": 8800,
      "åĩºåľŁ": 8801,
      "ä¹ĭä¸Ĭ": 8802,
      "å¤ļä¼¦": 8803,
      "ä½ĵéĩį": 8804,
      "ç¼¸": 8805,
      "åİ¿éķ¿": 8806,
      "åĨ³çŃĸ": 8807,
      "åĽŃåĮº": 8808,
      "ames": 8809,
      "åİ»ä¸ĸåĲİ": 8810,
      "ä¸įçŁ¥": 8811,
      "ä¸įä½³": 8812,
      "åĨĽæĸ¹": 8813,
      "å¤©åºľ": 8814,
      "3Ġ": 8815,
      "å¹¶æľī": 8816,
      "æ¬¡åĪĹè½¦": 8817,
      "å¤ªå®Ī": 8818,
      "154": 8819,
      "ä¼¦æĸ¯": 8820,
      "èĭ±åĽ½çļĦ": 8821,
      "å½±åĵįåĬĽ": 8822,
      "1934å¹´": 8823,
      "çī§å¸Ī": 8824,
      "éĽķåĥı": 8825,
      "æĦıæĢĿæĺ¯": 8826,
      "EST": 8827,
      "Th": 8828,
      "çļĦåħ¨": 8829,
      "åŃļ": 8830,
      "åĲİåĽł": 8831,
      "è§ĤéŁ³": 8832,
      "å¤±è¸ª": 8833,
      "æ£®åł¡": 8834,
      "çĨĶ": 8835,
      "åĺīå®¾": 8836,
      "åĲ¦åĪĻ": 8837,
      "åıĳè¡¨äºĨ": 8838,
      "ĠaĠ": 8839,
      "åľ¨å½ĵæĹ¶": 8840,
      "æĪĺç»©": 8841,
      "éĩĬåĩº": 8842,
      "1929å¹´": 8843,
      "èİİçĻ½": 8844,
      "çļĦæ´»åĬ¨": 8845,
      "äºĨè¯¥": 8846,
      "çĶµè·¯": 8847,
      "å·´å«©": 8848,
      "ç¦ıå°Ķ": 8849,
      "enter": 8850,
      "å·¥ä½ľäººåĳĺ": 8851,
      "æ½ľåľ¨": 8852,
      "ä¿ĥä½¿": 8853,
      "æ°ŁåĮĸ": 8854,
      "çļĦä¸Ĭ": 8855,
      "çļĦç¬¬ä¸ī": 8856,
      "åľ¨ä¸İ": 8857,
      "è§Ħæł¼": 8858,
      "çĥŃéĹ¨": 8859,
      "æĬĹæĹ¥æĪĺäºī": 8860,
      "ä»¥3": 8861,
      "è¢ľ": 8862,
      "ä¹ĲåĽŃ": 8863,
      "éĴ§": 8864,
      "æĶ¯çº¿": 8865,
      "é¹¦": 8866,
      "æľĢé«ĺæ³ķéĻ¢": 8867,
      "èŁ¹": 8868,
      "Ġæ³ķåĽ½": 8869,
      "ä¸ºåı°æ¹¾": 8870,
      "ä¸ĸçķĮåĲĦåľ°": 8871,
      "å¨ģå°¼æĸ¯": 8872,
      "149": 8873,
      "æľĢé«ĺçĤ¹": 8874,
      "ogle": 8875,
      "ĠåıĤèĢĥ": 8876,
      "çļĦä¼łç»Ł": 8877,
      "åľ¨æ¬§æ´²": 8878,
      "æĭ¯": 8879,
      "èĩªä¸»": 8880,
      "éĽĨç»ĵ": 8881,
      "ä¼łéĢĴ": 8882,
      "è§ģäºİ": 8883,
      "èĪªç«Ļ": 8884,
      "ä¾¦å¯Ł": 8885,
      "èı²åĪ©æĻ®": 8886,
      "5åħ¬éĩĮ": 8887,
      "é¢Į": 8888,
      "ä½ĵç§¯": 8889,
      "é¦ĸæŃĮæĽ²": 8890,
      "é»İå·´å«©": 8891,
      "æ¸ħåįİå¤§åŃ¦": 8892,
      "3ç±³": 8893,
      "æŃ¤åľ°": 8894,
      "åı¤è¿¹": 8895,
      "ç½®äºİ": 8896,
      "èŃ¦åĳĺ": 8897,
      "æĲľç´¢": 8898,
      "äººå¤§å¸¸å§Ķä¼ļ": 8899,
      "åı¯æĺ¯": 8900,
      "æĪĺåĽ½": 8901,
      "æį®è¯´": 8902,
      "å¤ªåİŁ": 8903,
      "çłĶåĪ¶": 8904,
      "è§Ĥèµı": 8905,
      "æ¸©æ³ī": 8906,
      "äºĮåįģå¹´": 8907,
      "é¢Ŀå¤ĸ": 8908,
      "æĴ¤ç¦»": 8909,
      "å®Įæķ´çļĦ": 8910,
      "ç²¤è¯Ń": 8911,
      "åĵº": 8912,
      "ä½Ĩä»į": 8913,
      "ç±»åĪ«": 8914,
      "ç¡ħ": 8915,
      "ç¡¬å¸ģ": 8916,
      "2ç±³": 8917,
      "DNA": 8918,
      "å£¬": 8919,
      "éĺŁåıĭ": 8920,
      "äº¤åĵį": 8921,
      "éĽĨä¼ļ": 8922,
      "è§Ĥå¿µ": 8923,
      "éºĵ": 8924,
      "1927å¹´": 8925,
      "æĲŃéħį": 8926,
      "èĢĮè¯¥åľ°çļĦå¹³åĿĩæµ·æĭĶé«ĺåº¦ä¸º": 8927,
      "ium": 8928,
      "æĪİ": 8929,
      "è¯¥åºĦ": 8930,
      "é©¬åĬĽ": 8931,
      "æİĴéĻ¤": 8932,
      "æ²¿çº¿": 8933,
      "æĪĲåĬŁçļĦ": 8934,
      "æĺ¯ä¸Ģä¸ªä½įäºİç¾İåĽ½": 8935,
      "åº¸": 8936,
      "å¹³æĪĲ": 8937,
      "ç¥·": 8938,
      "é¦ĸä»»": 8939,
      "æĹĹä¸ĭçļĦ": 8940,
      "åı¬éĽĨ": 8941,
      "Ġ2001å¹´": 8942,
      "Ġth": 8943,
      "1924å¹´": 8944,
      "ool": 8945,
      "1912å¹´": 8946,
      "æĢ»åħ±": 8947,
      "æĽ¾æĭħä»»": 8948,
      "å°±åı¯ä»¥": 8949,
      "ä¸ĩå¹´": 8950,
      "è¾ĥå¤§çļĦ": 8951,
      "è¯¥åľ°çļĦéĿ¢ç§¯": 8952,
      "éĴĵé±¼": 8953,
      "ð¬": 8954,
      "Ġfor": 8955,
      "æŃ¼": 8956,
      "åĨħäºļ": 8957,
      "æķĻå¾Ĵ": 8958,
      "ä¼łè¾ĵ": 8959,
      "æĳĺ": 8960,
      "çļĨæľªçŁ¥": 8961,
      "èĿĻ": 8962,
      "æııè¿°ä¸º": 8963,
      "å·¡åĽŀèµĽ": 8964,
      "åĴĮäººåı£çļĨæľªçŁ¥": 8965,
      "è¯¥åľ°çļĦéĿ¢ç§¯åĴĮäººåı£çļĨæľªçŁ¥": 8966,
      "æľ¬åľ°åĮº": 8967,
      "ä¹Łç§°": 8968,
      "æ´Ľçī¹": 8969,
      "æĿ°åĩº": 8970,
      "æĭľåįłåºŃ": 8971,
      "ä¸¢": 8972,
      "å°±ä»»": 8973,
      "åĭĴæĸ¯": 8974,
      "æĶ¿æ²»å®¶": 8975,
      "æĸĩåĮĸå¤§éĿ©åĳ½": 8976,
      "ä¾ĿéĿł": 8977,
      "é¡ºæĹ¶éĴĪ": 8978,
      "æĦıè¯ĨåĪ°": 8979,
      "çļĦæ²³æµģ": 8980,
      "åĨ¢": 8981,
      "ç¬¬10": 8982,
      "åĳ½åĲįçļĦ": 8983,
      "åĪĴåħ¥": 8984,
      "çŃĸåĪĴ": 8985,
      "èĿĻèĿł": 8986,
      "è´¦": 8987,
      "åĩºæĿ¥çļĦ": 8988,
      "å¼ĢæĴŃ": 8989,
      "ç¾İä¸½": 8990,
      "è¿ĽåĨĽ": 8991,
      "è°ķ": 8992,
      "åĪ¶åĵģ": 8993,
      "å±±åı£": 8994,
      "ç½ĳåıĭ": 8995,
      "æ¨¡ä»¿": 8996,
      "éĺ²åį«": 8997,
      "å©ļç¤¼": 8998,
      "ç´¯ç§¯": 8999,
      "æĹłçº¿çĶµ": 9000,
      "æľ¬æĿ¥": 9001,
      "åĲĪçĲĨ": 9002,
      "ç«Ļèĩ³": 9003,
      "è¯Ħè®ºå®¶": 9004,
      "è¾½å®ģçľģ": 9005,
      "()ãĢģ": 9006,
      "the": 9007,
      "çļĦåħ¶ä»ĸ": 9008,
      "æ°Ľ": 9009,
      "æĹ¥çĽĬ": 9010,
      "æ»ŀ": 9011,
      "å¡ŀæĭľ": 9012,
      "ä¸Ģä»½": 9013,
      "ç§ī": 9014,
      "æĸ¹ç¨ĭå¼ı": 9015,
      "é«ĺå±±": 9016,
      "ç½Ĺä¼¯": 9017,
      "åĥļ": 9018,
      "Ġ2000å¹´": 9019,
      "åħ¬åĬ¡åĳĺ": 9020,
      "åĪĨä¹ĭ": 9021,
      "æŃ£æĺ¯": 9022,
      "é»ı": 9023,
      "åĽĽäºº": 9024,
      "åıĤè§ģ": 9025,
      "orl": 9026,
      "é¦Ļæ¸¯çļĦ": 9027,
      "æ²Ļæ¼ł": 9028,
      "å¤ıå¨ģ": 9029,
      "å¯ºéĻ¢": 9030,
      "è®¯æģ¯": 9031,
      "res": 9032,
      "Ġåħ¨": 9033,
      "æĪĲçļĦ": 9034,
      "æ±¶": 9035,
      "æĪĺä¸Ń": 9036,
      "éĵĿ": 9037,
      "åĶĩ": 9038,
      "åıįæĬĹ": 9039,
      "æĸĩåĮĸéģĹäº§": 9040,
      "å¼Ĺåħ°": 9041,
      "èĢ¶å°Ķ": 9042,
      "è¡Ģæ¶²": 9043,
      "åŁºæľ¬ä¸Ĭ": 9044,
      "900": 9045,
      "çļĦåĲĮæĹ¶": 9046,
      "å¾·ç½Ĺ": 9047,
      "ãĢį)": 9048,
      "ä½ĵåŀĭ": 9049,
      "æĮĩä»¤": 9050,
      "çĻ½ä¿Ħç½Ĺæĸ¯": 9051,
      "éħįä¹Ĳ": 9052,
      "ä¼ĳæģ¯": 9053,
      "æ¯«æĹł": 9054,
      "çº½çº¦å¸Ĥ": 9055,
      "CC": 9056,
      "éķ¶": 9057,
      "åĲįåı«": 9058,
      "åįİä¸º": 9059,
      "æĿĥå¨ģ": 9060,
      "ç¼ĸåĪ¶": 9061,
      "åħ´èµ·": 9062,
      "çľŁäºº": 9063,
      "åĮħåĲ«äºĨ": 9064,
      "äº¤æĺĵæīĢ": 9065,
      "Ġä¸ľ": 9066,
      "Ġ17": 9067,
      "çļĦçĽ®æłĩ": 9068,
      "è¡Įè½¦": 9069,
      "ä¹ĭæĹ¶": 9070,
      "å¹¶èİ·å¾Ĺ": 9071,
      "åłµ": 9072,
      "ç¬¬ä¸ĢçĻ¾": 9073,
      "äºĪä»¥": 9074,
      "ä¸įåıĹ": 9075,
      "ä¿±": 9076,
      "åĬ¨å·¥": 9077,
      "è¿Ĳç®Ĺ": 9078,
      "è¯Ńä¸Ń": 9079,
      "ä¹īåĬ¡": 9080,
      "åĬ©äºİ": 9081,
      "çİ¯ä¿Ŀ": 9082,
      "çģŃäº¡": 9083,
      "å¹»æĥ³": 9084,
      "Ġè½¦ç«Ļç»ĵæŀĦ": 9085,
      "yn": 9086,
      "çļĦå¯¹": 9087,
      "åĴĮç¾İåĽ½": 9088,
      "èĩ³æŃ¤": 9089,
      "åı°ä¸ľ": 9090,
      "èĥ½åľ¨": 9091,
      "æķ°åįĥ": 9092,
      "æĢ»æĺ¯": 9093,
      "èĭ±è¶ħ": 9094,
      "å½±è¯Ħ": 9095,
      "å¥³ç¥ŀ": 9096,
      "æĿ¡çĽ®": 9097,
      "æİ¢è®¨": 9098,
      "éļĶå¹´": 9099,
      "çļĦè¥¿": 9100,
      "çļĦå»ºçŃĳ": 9101,
      "åĵŃ": 9102,
      "åħ°åį¡": 9103,
      "è¯´æľį": 9104,
      "åĳ¨æľ«": 9105,
      "è§ģåĪ°": 9106,
      "åī¯æĢ»ç»Ł": 9107,
      "æĹ¶éĹ´çļĦ": 9108,
      "æ¾İ": 9109,
      "åħ¸åŀĭçļĦ": 9110,
      "åıĹå®³èĢħ": 9111,
      "AV": 9112,
      "çļĦæīĭ": 9113,
      "çļĦæľºä¼ļ": 9114,
      "çİ°å·²": 9115,
      "ä½ĵçİ°": 9116,
      "æĭīå¾·": 9117,
      "å¸ĥå±Ģ": 9118,
      "è¯ŃåĴĮ": 9119,
      "åĽ½å®¶å®īåħ¨": 9120,
      "æķ´çĲĨ": 9121,
      "éĿĴæµ·": 9122,
      "è´¹å°Ķ": 9123,
      "æł¼åħ°çī¹": 9124,
      "çīĪæľ¬çļĦ": 9125,
      "è·ĳéģĵ": 9126,
      "Ph": 9127,
      "ĠæĹ©æľŁ": 9128,
      "åľ°åĿĢ": 9129,
      "çĶ±æĿ¥": 9130,
      "ä¸ĭæ¸¸": 9131,
      "éĩĮéĿ¢": 9132,
      "ä¸ĵåĪ©": 9133,
      "æīĵè´¥": 9134,
      "å§Ķåĳĺä¼ļçļĦ": 9135,
      "çīĻé½¿": 9136,
      "åĨ°å·Ŀ": 9137,
      "å®ļä¹īä¸º": 9138,
      "åŁºçĿ£å¾Ĵ": 9139,
      "æ¸ħæľĿæĶ¿æ²»äººçī©": 9140,
      "åįģåħ«å¹´": 9141,
      "AD": 9142,
      "æľºåĬ¨": 9143,
      "å¸Īéķ¿": 9144,
      "ç»Īèº«": 9145,
      "çģµæĦŁ": 9146,
      "ç¾İæľ¯é¦Ĩ": 9147,
      "PlayStation": 9148,
      "çļĦå¤ļ": 9149,
      "ç¬¬åįģäºĮ": 9150,
      "åĵ©": 9151,
      "æĿ¥çľĭ": 9152,
      "åĪ¶è£ģ": 9153,
      "è¿ĳå¹³": 9154,
      "æ±īåł¡": 9155,
      "çľĭæ³ķ": 9156,
      "éĿ©åĳ½åĨĽ": 9157,
      "ä¾µçĬ¯": 9158,
      "Ġå°ı": 9159,
      "åĲĵ": 9160,
      "åľ¨åīį": 9161,
      "ä¸ºå¤§": 9162,
      "å¹¶æĪĲä¸º": 9163,
      "éĵħ": 9164,
      "éĽĨçļĦ": 9165,
      "æīĵéĢł": 9166,
      "è´Ŀæł¼": 9167,
      "åıĭè°Ĭ": 9168,
      "å¯ºåºĻ": 9169,
      "åĪłéĻ¤": 9170,
      "ä»ĸä»¥": 9171,
      "èĥĥ": 9172,
      "ä¸īçº§": 9173,
      "å¤©æĸĩåŃ¦": 9174,
      "åıĺæĽ´": 9175,
      "çĪ±å¥½": 9176,
      "æ¦´": 9177,
      "112": 9178,
      "Ġé»Ħ": 9179,
      "ä¸ºè¯¥": 9180,
      "æ¬¡åŃĲ": 9181,
      "åĽ¾å½¢": 9182,
      "æŃĮåī§": 9183,
      "åŁİå¸ĤçļĦ": 9184,
      "å®£å¸ĥå°Ĩ": 9185,
      "èĭ¥å¹²": 9186,
      "ung": 9187,
      "åľ°åŁŁ": 9188,
      "åĲįé¢Ŀ": 9189,
      "ç¬¬8": 9190,
      "èĢĮéĹ»åĲį": 9191,
      "çĭĲ": 9192,
      "çŁŃçīĩ": 9193,
      "åĿĲæłĩ": 9194,
      "æĦıåĳ³çĿĢ": 9195,
      "åģľè½¦åľº": 9196,
      "ĠæŃ£": 9197,
      "çļĦåľŁåľ°": 9198,
      "çīº": 9199,
      "åĨĽå§Ķ": 9200,
      "æĢ»åı¸ä»¤": 9201,
      "åĪĻä»¥": 9202,
      "åĿĩåľ¨": 9203,
      "è¡ĮæĶ¿åįķä½į": 9204,
      "ass": 9205,
      "åĪĽä½ľçļĦ": 9206,
      "åĨ³èµĽä¸Ń": 9207,
      "ä¸ºé£Ł": 9208,
      "ä¸ĢæĹ¦": 9209,
      "å¹³å®ī": 9210,
      "æ¢Ń": 9211,
      "å¼Ģå§ĭäºĨ": 9212,
      "åľŁå£¤": 9213,
      "é¡ºæ²»": 9214,
      "æį·è¿Ĳ": 9215,
      "èĪªç«Ļæ¥¼": 9216,
      "å¤ıå¨ģå¤·": 9217,
      "çļĦéĿŀ": 9218,
      "æĪļ": 9219,
      "çĻ¸": 9220,
      "å°±åĥı": 9221,
      "éŁ³èĬĤ": 9222,
      "æ´»æĢ§": 9223,
      "ä¸ĵåĳĺ": 9224,
      "ãĢīãĢģ": 9225,
      "ç½ķè§ģ": 9226,
      "åĲīæŀĹçľģ": 9227,
      "Ġåį¡": 9228,
      "èĤ¾": 9229,
      "ä¾¿æĺ¯": 9230,
      "ish": 9231,
      "éĺµèĲ¥": 9232,
      "å´ĩæĭľ": 9233,
      "ç¿ĮæĹ¥": 9234,
      "06": 9235,
      "çļĦåĨĽäºĭ": 9236,
      "ç¬¬7": 9237,
      "æ±Łè¥¿çľģ": 9238,
      "æĽ¼èģĶ": 9239,
      "ä¹łè¿ĳå¹³": 9240,
      "æĻļå¹´": 9241,
      "åŃĺåľ¨äºİ": 9242,
      "èĩĢé³į": 9243,
      ".&": 9244,
      "åĨĽèĪ°": 9245,
      "éĩĮæĺĤ": 9246,
      "å·ŀè´Łè´£ç®¡è¾ĸ": 9247,
      "éĢłèĪ¹": 9248,
      "çĳļ": 9249,
      "èĲ½åĲİ": 9250,
      "æĺ¯ä½įäºİä¹Įåħĭåħ°": 9251,
      "çº½çº¦å·ŀ": 9252,
      "è·¨è¶Ĭ": 9253,
      "æ¢¦æĥ³": 9254,
      "éĶ¥": 9255,
      "ç¼ĸåħ¥": 9256,
      "è½¬ä¹ĺ": 9257,
      "èĲ½è´¥": 9258,
      "æİ¨åĩºçļĦ": 9259,
      "ĠAr": 9260,
      "æĻ¶ä½ĵ": 9261,
      "éĩįçĤ¹æĸĩçī©ä¿ĿæĬ¤åįķä½į": 9262,
      "Sc": 9263,
      "éĥ½åı¯ä»¥": 9264,
      "éĩĳéĹ¨": 9265,
      "çĶ·ä¸»è§Ĵ": 9266,
      "çªĳ": 9267,
      "çģ«åĬĽ": 9268,
      "äº«æľī": 9269,
      "09": 9270,
      "åĳ¨æģ©": 9271,
      "ä¸ĸçķĮéģĹäº§": 9272,
      "ä¼¯åĪ©äºļ": 9273,
      "èĪªè¡Į": 9274,
      "å·¡æ¼Ķ": 9275,
      "è¡¥ç»Ļ": 9276,
      "æŁĲç§į": 9277,
      "Ġæł¹æį®2010å¹´ç¾İåĽ½äººåı£æĻ®æŁ¥çļĦæķ°æį®": 9278,
      "éŀŃ": 9279,
      "IST": 9280,
      "åĴĮç¤¾ä¼ļ": 9281,
      "åĲįç§°ä¸º": 9282,
      "æľ¬è´¨": 9283,
      "ç«ĭå§Ķ": 9284,
      "ä½ĨæľĢç»Ī": 9285,
      "è¯Ħå®¡": 9286,
      "é¢ĳç¹ģ": 9287,
      "åı«åģļ": 9288,
      "6ç±³": 9289,
      "ãĢĬãĢĭ,": 9290,
      "èĭ±å¯¸": 9291,
      "çīºçī²": 9292,
      "ile": 9293,
      "åį¯": 9294,
      "è¡ĮæĶ¿éķ¿å®ĺ": 9295,
      "å¹¿å·ŀå¸Ĥ": 9296,
      "ive": 9297,
      "æĺĨèĻ«": 9298,
      "ä¸ŃçŃī": 9299,
      "æĸ¯åľ¨": 9300,
      "æ³ķåĨĽ": 9301,
      "å¹³å®ļ": 9302,
      "æ°´åĪ©": 9303,
      "å®Įç¾İ": 9304,
      "èĲ¥åħ»": 9305,
      "ieĠ": 9306,
      "pen": 9307,
      "åŃ¦åłĤ": 9308,
      "ä¸Ģä¸ªæľĪ": 9309,
      "æķ°ä¸ª": 9310,
      "æĶ¹ç»Ħ": 9311,
      "åŃ£èĬĤ": 9312,
      "åıĪåľ¨": 9313,
      "æ¹ĸå¹¿": 9314,
      "24å°ıæĹ¶": 9315,
      "åľ¨è¿ĻéĩĮ": 9316,
      "uk": 9317,
      "1918å¹´": 9318,
      "è¢«æĿĢ": 9319,
      "æĥĳ": 9320,
      "äº¤ä»ĺ": 9321,
      "å½°åĮĸ": 9322,
      "Ġ14": 9323,
      "çļĦè¡¨çİ°": 9324,
      "ä¸Ģè·¯": 9325,
      "ä¸įä½Ĩ": 9326,
      "æľ¬åĲį": 9327,
      "éĩĮå¥¥": 9328,
      "ç«ĭä½ĵ": 9329,
      "çķ´": 9330,
      "ina": 9331,
      "åį³ä¸º": 9332,
      "èģĮè´£": 9333,
      "å¾ĢæĿ¥": 9334,
      "1970å¹´ä»£": 9335,
      "å¹¿æ³ĽçļĦ": 9336,
      "å°¼æ³Ĭå°Ķ": 9337,
      "æ¸Ĺ": 9338,
      "å®¶å±ŀ": 9339,
      "æĪĺè´¥": 9340,
      "ç¦¹": 9341,
      "å½±å±ķ": 9342,
      "æıĲçĲ´": 9343,
      "é£İæĻ¯": 9344,
      "åħīåŃ¦": 9345,
      "æĹ§éĩĳå±±": 9346,
      "éĢĥç¦»": 9347,
      "åĲ¬åĪ°": 9348,
      "çĪĨåıĳåĲİ": 9349,
      "æĶ¶è§Ĩçİĩ": 9350,
      "sk": 9351,
      "ä¸īä½į": 9352,
      "é©¬æģ©çľģ": 9353,
      "çĲĥè¿ĲåĬ¨åĳĺ": 9354,
      "éĻ¢æł¡": 9355,
      "é¾Ļç§ĳ": 9356,
      "åı°æ¹¾çļĦ": 9357,
      "ä¸ĸçºªçļĦ": 9358,
      "old": 9359,
      "è¡¥åĬ©": 9360,
      "èµ¤çº¬": 9361,
      "ä¸Ģèĩ³": 9362,
      "ä¸Ģåħ±": 9363,
      "127": 9364,
      "å¥¹ä¸İ": 9365,
      "å¸¦æĿ¥çļĦ": 9366,
      "ç½ĳæ°ĳ": 9367,
      "æĸĩåĮĸçļĦ": 9368,
      "æľĢåĲİä¸Ģæ¬¡": 9369,
      "å±ıä¸ľ": 9370,
      "æĵħéķ¿": 9371,
      "3åĲį": 9372,
      "Net": 9373,
      "éĺĲ": 9374,
      "è¿Ļä½į": 9375,
      "æĢ»ä½ĵ": 9376,
      "äº¦ä¸º": 9377,
      "çİ¯ç»ķ": 9378,
      "æĸ¯åĴĮ": 9379,
      "å¹¶åĲĳ": 9380,
      "å°±è¢«": 9381,
      "å¤ıå¤©": 9382,
      "åĨľåİĨ": 9383,
      "ç´¢æģ©": 9384,
      "é¢ģå¥ĸåħ¸ç¤¼": 9385,
      "ç»´åŁºçĻ¾ç§ĳ": 9386,
      "æľīçº¿": 9387,
      "ä»»ä¸Ńåħ±": 9388,
      "è¿Ľå±ķ": 9389,
      "å¯ĨèĭıéĩĮ": 9390,
      "çĻ½äºº": 9391,
      "è¯ºè´Ŀå°Ķ": 9392,
      "éĺ¿å°Ķå·´": 9393,
      "ä¹ĭåīįçļĦ": 9394,
      "ä¿ĺèĻı": 9395,
      "æ¯ĹéĤ»": 9396,
      "ä¸Ĭå°Ĩ": 9397,
      "æĸ°åı°å¸ģ": 9398,
      "æ¹Ľ": 9399,
      "è®®éķ¿": 9400,
      "æ·Ģ": 9401,
      "ert": 9402,
      "ann": 9403,
      "ç¦ıçī¹": 9404,
      "æĶ»åħ¥": 9405,
      "æĻºåĪ©": 9406,
      "éĽ¶åĶ®": 9407,
      "èĳ£äºĭä¼ļ": 9408,
      "éĽįæŃ£": 9409,
      "Ġ202": 9410,
      "Ġæ²¿éĿ©": 9411,
      "å¤§å¸Ŀ": 9412,
      "åĴĮ1": 9413,
      "åħ¶åŃĲ": 9414,
      "å·ŀçļĦä¸Ģä¸ªå¸Ĥéķĩ": 9415,
      "åİ¿æ²»": 9416,
      "å¸¸ä½ı": 9417,
      "æĻ®æŀĹ": 9418,
      "è½¬åŀĭ": 9419,
      "çģ«çĤ®": 9420,
      "è´ŁéĿ¢": 9421,
      "åĢĻè½¦": 9422,
      "æīĢè°ĵçļĦ": 9423,
      "è¿½æº¯åĪ°": 9424,
      "IA": 9425,
      "æĺ¯æľī": 9426,
      "çī¢": 9427,
      "åħ¶ä¸ŃçļĦ": 9428,
      "åĲĮå¿Ĺ": 9429,
      "äºļç§ĳ": 9430,
      "æĽ´æĶ¹": 9431,
      "æĽ´å¤§çļĦ": 9432,
      "ä¿¡çĶ¨": 9433,
      "æĭħå½ĵ": 9434,
      "æī§æ³ķ": 9435,
      "ä¹ĺè½¦": 9436,
      "çĭ®åŃĲ": 9437,
      "GB": 9438,
      "ä¸»äºº": 9439,
      "æĸ°åŁİ": 9440,
      "èī°": 9441,
      "æĢ»ä¹¦è®°": 9442,
      "è§ĨæĺŁçŃīä¸º": 9443,
      "é¥²": 9444,
[...]
