#version: 0.2
n g
a n
s h
z h
j i
a ng
Ġ Ġ
o ng
x i
a o
a i
d e
e i
sh i
y u
o u
y i
e n
c h
i an
u o
e ng
l i
ĠĠ Ġ
ã Ģ
i ng
u i
w ei
u an
zh i
q i
n ian
zh ong
y ou
r en
u n
z ai
d i
g uo
ãĢ ģ
h e
b u
e r
g ong
xi ng
ch eng
d a
zh u
h u
yu an
s i
ji an
yu e
g e
f u
xi an
u e
k e
w u
ch u
sh u
sh eng
ji e
ji a
b i
d ao
z i
b ei
h ui
f a
xi ang
t i
zh eng
m i
t a
ji n
q u
2 0
t ong
r i
j u
ji ng
m ing
l e
h ou
sh ang
sh ou
d ong
c i
f ang
1 9
hu a
yi n
x ue
g uan
zh an
y e
yi ng
z uo
zh e
y an
m ei
ji ao
g u
ch ang
xi n
d ui
l u
b ing
b ao
f en
d an
h uo
j un
ji ang
d u
xi ao
d ian
y ong
q ian
sh e
t ai
xi a
m u
w en
g ai
zh ang
li ang
y a
r u
d ai
h ai
n an
zh ou
z u
w ang
l ai
b an
ji u
d ang
q ing
p ing
sh en
ãĢ ĭ
ãĢ Ĭ
w an
l ian
li ng
l uo
Â ·
mi n
q uan
p i
n i
b o
d uo
t e
b en
g ao
bi ao
s uo
l a
m a
k ai
b a
xi e
x u
b ian
de ng
y ao
y ang
m ian
zh en
d ing
qi u
z ui
s ai
li u
f an
x uan
f ei
s an
sh an
ch e
z ong
m en
ãĢ Į
ãĢ į
t u
t ian
h ao
s u
l ei
n ei
yu n
20 1
l an
f eng
m o
n a
z e
l v
h an
k ou
w ai
n eng
li n
ch uan
ch i
j ue
b ai
p ai
20 0
k u
c ai
z ao
t ing
zh uan
g ang
li e
gu ang
g ui
l un
s ui
p u
c eng
k ong
sh ui
1 0
ch ao
zhu ang
ch a
d ou
c an
t ou
r an
s e
d uan
c un
h uan
c ong
pi n
c e
ch an
x un
g ou
0 0
n v
zh ao
g an
ch ong
sh a
t an
1 8
qi n
k a
m eng
qi ang
hu ang
xi u
1 2
ti ao
m an
sh ao
k uo
l ong
p ian
sh uo
t uan
t ang
r ong
g eng
20 2
ch en
t ui
g en
q ue
ti e
1 1
qi e
w o
p o
p ei
h ang
h ong
19 9
b ang
li ao
chu ang
bi e
r e
t uo
t ao
s ong
w a
m ai
h a
1 5
p an
d un
di ao
qi ao
s a
m ao
l ang
k an
k ang
â Ģ
o r
l ao
z eng
1 6
19 8
k ao
xi ong
1 7
o n
n uo
mi ao
r ang
ku ang
h en
s uan
1 4
3 0
zh un
1 3
19 4
c ao
h un
q un
n ong
19 7
h eng
shu ang
l ou
g ei
ku ai
pi ao
zh a
h ei
ni u
19 5
s en
bi n
r eng
z ou
19 6
ch un
k uan
2 5
âĢ Ķ
r ui
s un
p ao
n ing
f or
p a
c ang
m ou
2 4
p eng
hu ai
2 1
19 3
2 3
mu la
for mula
2 8
z an
r uo
i n
2 2
ch ou
zh ui
a r
m e
2 6
5 0
20 20
2 7
n ai
n u
ï ¼
2 9
sh un
201 0
z a
00 0
lv e
zh ai
20 19
n e
r o
j uan
s t
r a
c ui
k un
201 6
l uan
201 8
c uo
202 1
z ang
201 4
shu ai
201 1
201 5
201 7
201 2
4 0
201 3
n ao
202 2
di e
r uan
k ui
l t
r ou
c u
s ang
200 9
200 8
ã ĥ
6 0
ni ao
a l
r ao
ch ai
10 0
zh uo
202 3
g t
s ou
19 0
3 1
k en
200 7
200 1
t eng
p ang
f ou
c o
f o
gu a
200 0
8 0
200 6
202 4
ã ģ
200 5
z un
ti on
ku a
t he
3 5
7 0
ni e
l o
o f
9 0
l eng
ï¼ į
ã Ĥ
a m
t un
t er
mi e
200 4
t h
t o
4 5
4 8
m ang
202 5
v e
g a
ãĢ ī
ãĢ Ī
3 6
3 8
200 3
3 7
M a
ch ui
p en
l l
18 9
I N
200 2
k eng
T C
d o
3 4
7 5
âĢ ĵ
C o
4 6
c a
199 0
âĢ ¦
c k
3 9
. .
b e
6 5
3 2
S T
4 7
U TC
199 9
199 8
198 0
18 8
5 00
3 3
I n
6 4
s s
T he
v i
S E
5 5
199 7
R e
h i
4 9
I I
e l
6 8
e t
4 4
199 6
o o
qi ong
199 4
g un
b r
gu ai
199 2
199 5
M i
6 7
an d
s ao
e s
199 1
197 0
5 8
195 0
3 00
199 3
18 7
194 9
a t
A T
p e
196 0
4 2
194 5
L i
v er
qi a
198 8
t y
198 9
6 9
R o
i s
r un
SE E
ni ang
IN SEE
h o
5 9
4 3
6 6
5 7
198 5
9 9
S A
ãĢ İ
ãĢ ı
c t
198 4
4 1
8 8
198 6
w i
o l
w s
T V
r y
15 0
M e
n d
4 00
198 7
7 8
198 2
5 6
b eng
V i
P a
t s
198 3
am p
N A
D e
C D
g h
f i
w eng
b er
7 7
W in
p er
z uan
S ta
7 9
O S
W i
Â °
ï ½
de r
18 0
B C
5 4
197 9
6 1
19 20
a s
M o
s eng
9 8
5 2
Y ou
197 8
n o
6 2
5 3
l y
shu a
L a
ï½ ŀ
B A
194 6
C O
5 1
195 8
g i
J o
198 1
197 2
194 8
L e
t w
A M
6 3
A R
c tion
194 1
B S
G a
19 30
D a
P ro
T e
7 6
han s
194 0
193 7
197 6
194 4
J a
8 9
u s
D i
Win do
197 5
ï¼ ı
196 8
h k
c on
F i
u m
S i
10 00
Windo ws
9 5
8 7
na l
M ar
196 6
r d
8 5
N e
R a
k i
6 00
1 20
194 7
S e
A C
195 6
196 4
B e
194 2
Ã ©
195 5
195 2
I S
a d
193 9
193 8
7 2
u r
7 4
C a
v a
197 3
197 4
195 4
A r
A l
E D
19 00
- -
A P
194 3
T o
197 7
l d
197 1
c en
la y
196 7
B a
I C
8 00
P o
L o
E R
zhu a
s ta
8 6
195 9
B o
t t
196 5
J R
196 9
F a
ãĥ »
Ã Ĺ
I D
B i
s on
193 6
16 0
9 7
195 3
S a
M A
196 2
196 1
n en
N a
â Ķ
S o
193 5
co m
H o
ti c
9 6
O N
ï¼ ħ
195 1
S t
195 7
196 3
T u
âĶ Ģ
f e
s o
men t
8 4
H i
202 6
8 2
D o
m er
R i
7 3
n t
9 4
9 2
K i
H a
n ang
on e
I P
A N
l s
193 3
193 1
le s
7 1
n uan
Co m
8 3
9 3
te d
S u
8 1
T i
M u
19 18
N i
H D
U ni
19 28
p p
193 2
C ha
W e
y s
M V
S S
1 10
I T
19 12
N o
19 29
19 27
193 4
c n
7 00
g o
z ei
gh t
st er
25 0
9 1
r t
l li
19 24
ri s
.. .
19 19
nv e
1 30
P i
19 25
G i
P S
b y
e d
me s
A n
P C
14 0
A S
P lay
19 14
k m
D V
ti o
You Tu
S M
b le
g ra
k o
19 11
C on
C h
l la
19 26
l le
G e
P ar
i d
T a
19 22
L in
m p
19 17
H e
K a
E T
N BA
w n
I V
E N
19 23
19 21
sh ai
G oo
ch uo
17 0
à ¸
E C
M S
a li
A L
p h
se ction
YouTu be
E P
B L
19 13
C ar
B u
z en
H K
w e
h n
m m
v en
han t
â Ĩ
190 9
si on
In ter
c ro
M P
A I
W or
P e
d s
U S
p ro
DV D
o k
3 000
E n
19 10
D S
R O
c ou
S te
si s
1 12
G o
r k
A K
R E
19 16
W a
li a
ãĥ ¼
Sta tion
F or
N et
f f
Î ±
of t
in e
de n
l or
re a
tio nal
g n
tu re
g le
C P
U N
â Ī
ar d
19 15
g in
190 5
p s
F C
c al
v o
di a
M y
C N
â Ħ
âĨ Ĵ
ou r
er s
190 1
en t
A u
D NA
E x
âĢ §
9 00
en d
H R
di ce
. &
the r
ta l
C H
T A
T O
190 6
190 4
A V
te s
M O
ji ong
Jo hn
m y
er i
co dice
M an
âĦ ĥ
d y
Play Station
C hi
0 5
C C
ti ve
di u
A nd
190 7
di o
190 8
Goo gle
A G
C i
E ST
M I
S O
L E
si c
re e
B O
in t
wi t
B BC
S ch
A D
I G
lan d
II I
c ri
t on
15 00
5 000
c y
rou nd
w er
I ST
m s
r on
M E
C R
u l
3 D
j e
I A
le y
10 5
a u
Ð °
ri a
10 1
190 3
t or
G B
v an
0 9
T E
L u
190 2
B D
N C
P ri
F e
x t
3 50
p ou
Ã ¡
SA O
de s
D C
j a
Î ²
c ke
B 1900
bo ok
ha t
E S
al l
B M
ï¼ İ
ãĥ ³
R u
n er
189 8
re s
0 6
1 18
o p
ãģ ®
3 60
D R
Ne w
0 1
D A
H u
O pen
189 5
g er
12 5
S ho
H O
M C
S an
AT P
Mi cro
ct or
Ð ¾
10 8
f t
c or
o s
N G
K e
c lu
g y
gra m
p ri
wa rd
st y
I F
C u
F ran
O ne
ne t
s oft
k er
p t
âĪ Ĵ
0 7
0 8
2 30
Fa ce
10 4
pa ce
ls pan
C or
P er
B ar
Wor ld
A pp
ED T
IST AT
c uan
Lo ve
K o
à ¤
H ar
N O
S tu
189 6
L L
u x
10 9
D P
la s
A A
f li
R I
J u
p ha
S er
lu s
lin e
R T
t ri
S P
E X
B 48
10 6
18 90
r ai
s ti
mo n
C ST
M L
o d
un i
CD T
ber t
J e
r s
ru s
re d
D O
P u
k y
H E
C ou
a tion
M on
0 4
4 000
11 5
1 200
M 1
P re
0 3
l er
G P
de l
C E
Ä ģ
Li ve
be gin
188 9
oo l
Da vi
wi th
ar a
189 9
co lspan
tai n
ba ck
187 1
R S
st o
Face book
E d
S ha
Micro soft
mi c
te m
âĢ ĭ
24 0
16 00
L O
T ri
t en
ti n
B E
lo w
10 2
bo x
clu de
A d
T T
189 7
S ou
s er
N H
E E
D u
ce s
P P
11 7
S C
v al
0 2
po r
c m
Ma c
sty le
C he
r st
10 3
AK B48
D an
M D
N or
P h
10 7
ra l
H er
O n
p re
r ing
A s
a re
Wi lli
te l
Lin ux
li s
O ri
w w
D is
sh uan
g ue
ma s
4 50
B er
V ID
12 7
Mu sic
I s
A i
G re
c er
Ã ¼
tu s
V o
t ra
12 8
fli x
C L
Net flix
B ro
y o
189 4
Ga me
2 20
C an
G ra
ni n
re f
Ð ½
Willi am
B ri
I L
ali gn
S H
b li
or y
O r
T wit
18 80
Re d
ol d
Ã Ń
R NA
13 6
P G
Ð ¸
ãģ Ħ
ro m
T R
Te am
18 00
ãĤ ¹
Uni ver
g round
i a
188 5
l en
11 4
ãĤ ĵ
H z
co lor
G en
T y
11 6
28 0
U R
p le
Ð µ
11 3
188 6
ei n
ãĤ ¤
T S
P O
189 3
la r
e x
r n
y n
M c
na me
11 1
S L
ã Ħ
Su per
S he
st ra
A ll
G u
ci al
la ss
âĢ »
Davi d
13 5
je ct
A c
26 0
C en
E u
l f
18 60
po rt
ha m
Ge or
ch o
na tional
Cha r
U n
W TA
lv er
d ge
wo rk
H C
T h
t ro
Sch ool
B an
k s
ss o
t ch
ti s
188 8
M or
q ui
te xt
S D
Ã ³
- .
U A
rou p
ll y
ca tion
on y
back ground
Me ta
ro id
a c
mer i
T ra
12 9
G O
S to
di s
18 70
G N
ï ¹
re am
188 7
Sho w
Q u
c le
18 68
6 000
Ã ¶
Ñ Ģ
188 3
N F
V A
ma r
V er
da y
3 20
X box
C S
wa s
A ng
N HK
T ho
A F
F o
Twit ter
D D
l yin
on lyin
onlyin clude
+ +
K P
d on
18 64
âĢ ¢
Gi r
I ON
188 4
1 19
B la
R C
U E
ai n
mi u
12 2
V a
25 00
189 2
2 10
A 1
cen ter
cke t
15 5
IS O
â ħ
14 5
st ri
189 1
6 50
wa y
And roid
N S
C lu
ãĢ ķ
O R
f fi
h tt
m ber
ãĢ Ķ
18 50
F u
P hi
a ge
m b
w in
x y
C y
K u
k ing
Inter national
si a
18 67
lo gy
C e
I M
ãĥ Ī
187 9
Sta r
ri e
Ja mes
En ter
c c
ll er
3 80
A B
U P
ne y
E ng
187 6
S pe
W ar
n y
Stu dio
z o
Geor ge
A b
A ni
18 75
18 61
27 0
Univer si
Ga mes
B ra
I R
12 6
N T
Ã ¨
ti me
ar t
E s
P or
NG C
st ru
ãĥ «
187 3
H en
M G
p hi
er o
12 3
ãĥ ©
P V
n s
B en
D ra
H T
Co lle
G roup
P an
c ar
m pi
ran s
S un
i t
u t
16 8
cu s
CO VID
B lo
F M
M B
S ys
ou s
se d
18 65
Clu b
A O
A meri
P L
he r
i m
12 1
D E
D on
t hat
Ai r
Cen ter
17 5
ar y
ãģ Ĩ
We b
H 2
Y P
f rom
Ã ¤
14 00
MA X
cri tic
A le
t z
13 8
2 28
H an
T P
18 48
18 62
3 30
12 4
ãĤ ¢
188 1
188 2
7 37
Le a
A li
U C
h y
187 8
5 50
V e
sa u
b ri
bi t
187 2
E l
L C
In sta
M in
ra tion
IN K
Meta critic
el d
Ori con
S ai
W hi
s co
15 6
B oo
M TV
s p
16 5
L ED
18 40
IV E
Y a
c re
k in
7 50
ãĥ ĥ
13 00
ãģ Ĺ
H y
13 7
Mi cha
Mar k
7 000
H el
er a
D OS
S Q
U B
22 9
I U
G DP
K ing
O K
Ñ ģ
ty pe
G ran
ni c
Hi gh
T ai
a st
15 2
TV B
Ch ris
15 9
187 7
Ro bert
C han
p y
s y
t le
â Ĺ
ci en
18 66
H ou
i OS
o t
Ð »
Pro du
S K
S hi
si lver
18 69
âĢ ²
th i
T HE
U p
Da y
C ro
D M
E le
St re
Pe ter
I t
N ET
t ter
F ree
J an
Ð º
13 9
Ph one
Insta gram
A t
B I
S ur
p la
BL AC
Ty pe
Ð ²
or a
App le
D J
S y
W al
C G
W E
co de
ãĤ ¯
Micha el
D F
S h
ï ¸
1 100
ci a
15 8
ne ss
Bi g
2 25
P la
P at
S am
Y e
v in
ni a
30 5
13 3
IN E
Pa ul
Te ch
Na tional
t te
ou n
ni s
ãĥ ª
A ward
R A
Y O
13 2
Ste am
20 5
18 63
ra y
I E
pan y
Me dia
tain ment
2 15
B r
Universi ty
F O
L ou
V al
en sis
tion s
Bi ll
ph y
C A
F 1
K BS
bu r
14 8
13 1
S mi
k g
16 6
187 4
X X
de o
18 58
pa r
E F
s or
ri n
ru m
C ho
c lo
14 7
H ol
min i
F ri
25 6
ãģ ĭ
M 2
18 30
C BS
U T
g on
l m
18 51
Le e
B N
G A
H I
U I
li p
ri c
19 2
Par k
t d
Î ¼
8 000
M er
no w
Enter tainment
3 10
14 3
hi s
M k
18 55
Ci ty
Bla ck
Wi l
Po wer
C hu
E M
I X
S pace
g ar
w hi
G M
R AM
ð «
18 5
18 59
th o
ST AR
Ja ck
Char les
13 4
Ja va
Di re
A BC
G ar
T er
s pe
shi p
18 54
14 6
30 1
17 00
in ter
Vi u
sti tu
3 70
F la
K en
18 57
Al pha
L an
S tan
ou t
lo s
D ar
Ø §
29 0
ãģ ª
Li fe
ï¸ °
v s
Î ³
2 14
4 20
C am
Ñ Ĥ
Re cor
Com pany
F un
Î ¿
ãĢ ľ
18 56
18 53
Pro ject
D ream
F an
S en
di um
ãģ Ł
fi rst
Ti me
Tho mas
Hou se
P en
14 4
Sai nt
F A
O VA
P y
S pi
C ent
V O
e k
fa ce
A 2
I O
d d
v on
16 7
Ja pan
Stre et
3 A
C la
H S
S BS
ren ce
bi li
ri st
cha rd
18 41
ver y
Eu ro
L P
P lan
a k
i e
r p
ba l
et y
Ale x
3 40
P M
b un
i f
l ue
BLAC KP
S co
T al
shi Ġ
de Ġ
Ġ shiĠ
Ġ deĠ
yi Ġ
Ġ yiĠ
ji Ġ
wei Ġ
zhi Ġ
yu Ġ
Ġ weiĠ
Ġ jiĠ
Ġ nian
Ġ zhiĠ
Ġ yuĠ
Ġ li
Ġnian Ġ
zhong Ġ
Ġli Ġ
zai Ġ
ren Ġ
you Ġ
guo Ġ
he Ġ
qi Ġ
bu Ġ
di Ġ
Ġ youĠ
Ġ zaiĠ
Ġ renĠ
Ġ yue
Ġ zhongĠ
Ġ heĠ
da Ġ
xi Ġ
xing Ġ
yuan Ġ
er Ġ
gong Ġ
Ġyue Ġ
fu Ġ
si Ġ
ge Ġ
jian Ġ
Ġ guoĠ
wu Ġ
jia Ġ
Ġ buĠ
jie Ġ
ke Ġ
cheng Ġ
zhu Ġ
sheng Ġ
xiang Ġ
xian Ġ
dao Ġ
bei Ġ
zi Ġ
Ġ qiĠ
fa Ġ
hui Ġ
chu Ġ
jin Ġ
Ġ diĠ
shu Ġ
Ġ erĠ
ri Ġ
Ġ xiĠ
ju Ġ
qu Ġ
zheng Ġ
hou Ġ
shou Ġ
ming Ġ
shang Ġ
dong Ġ
ta Ġ
jing Ġ
le Ġ
xue Ġ
fang Ġ
yan Ġ
zhan Ġ
ci Ġ
bao Ġ
hua Ġ
ying Ġ
ye Ġ
tong Ġ
zuo Ġ
zhe Ġ
guan Ġ
Ġ daĠ
Ġ riĠ
yin Ġ
chang Ġ
xin Ġ
jiao Ġ
lu Ġ
dui Ġ
wen Ġ
ti Ġ
fen Ġ
qian Ġ
tai Ġ
jiang Ġ
xiao Ġ
bing Ġ
Ġ siĠ
jun Ġ
dian Ġ
zhang Ġ
ping Ġ
xia Ġ
du Ġ
huo Ġ
yong Ġ
dan Ġ
Ġ keĠ
Ġ jiaĠ
hai Ġ
gai Ġ
wang Ġ
dai Ġ
nan Ġ
ru Ġ
qing Ġ
mu Ġ
bi Ġ
ban Ġ
liang Ġ
lai Ġ
mei Ġ
ya Ġ
shen Ġ
Ġ fuĠ
Ġ xingĠ
zu Ġ
wan Ġ
she Ġ
lian Ġ
min Ġ
mi Ġ
zhou Ġ
jiu Ġ
qiu Ġ
an Ġ
zhen Ġ
ben Ġ
xu Ġ
gao Ġ
Ġ taĠ
bo Ġ
xie Ġ
te Ġ
bian Ġ
ling Ġ
luo Ġ
yao Ġ
deng Ġ
duo Ġ
yang Ġ
quan Ġ
che Ġ
suo Ġ
zui Ġ
tian Ġ
gu Ġ
biao Ġ
fan Ġ
hu Ġ
yun Ġ
xuan Ġ
su Ġ
shan Ġ
fei Ġ
ding Ġ
liu Ġ
zong Ġ
sai Ġ
dang Ġ
ma Ġ
kai Ġ
ba Ġ
hao Ġ
ĠdeĠ yiĠ
Ġ bingĠ
Ġ daoĠ
feng Ġ
kou Ġ
tu Ġ
mian Ġ
men Ġ
nei Ġ
la Ġ
lei Ġ
san Ġ
cai Ġ
wai Ġ
chuan Ġ
jue Ġ
pai Ġ
chi Ġ
Ġ danĠ
Ġ jinĠ
Ġ beiĠ
Ġ gongĠ
Ġ jianĠ
guang Ġ
ĠshiĠ yiĠ
lan Ġ
ni Ġ
gui Ġ
bai Ġ
Ġ ziĠ
lin Ġ
ting Ġ
Ġ zheĠ
pu Ġ
Ġ xiangĠ
na Ġ
gang Ġ
lun Ġ
neng Ġ
han Ġ
lie Ġ
ze Ġ
Ġ zhuĠ
cheng ĠweiĠ
mo Ġ
Ġ yinĠ
Ġ geĠ
Ġ xianĠ
Ġ chuĠ
ĠshiĠ deĠ
mei ĠguoĠ
chan Ġ
shui Ġ
Ġ juĠ
Ġ chengĠ
ĠdeĠ shiĠ
Ġ jieĠ
Ġ gaiĠ
Ġ wuĠ
sui Ġ
xun Ġ
zhuan Ġ
Ġ baoĠ
Ġ pingĠ
lv Ġ
Ġ ta
ao Ġ
zhuang Ġ
li Ġ
tou Ġ
duan Ġ
ĠyiĠ jiĠ
se Ġ
huan Ġ
e Ġ
chong Ġ
ĠweiĠ yuĠ
ceng Ġ
pin Ġ
cong Ġ
cha Ġ
di ĠyiĠ
cun Ġ
1 Ġ
a Ġ
dou Ġ
zao Ġ
Ġ houĠ
kong Ġ
zhao Ġ
gou Ġ
gan Ġ
Ġ ciĠ
sha Ġ
qiang Ġ
ĠshiĠ jiĠ
chao Ġ
meng Ġ
Ġ yeĠ
kai ĠshiĠ
man Ġ
ce Ġ
tang Ġ
long Ġ
ai Ġ
Ġ dan
kuo Ġ
ke ĠyiĠ
Ġ yuanĠ
Ġ faĠ
ĠyiĠ geĠ
2 Ġ
tan Ġ
tuan Ġ
Ġ shengĠ
ĠshiĠ weiĠ
ka Ġ
gong ĠliĠ
ĠzhongĠ guoĠ
qin Ġ
Ġ tong
tie Ġ
ĠshiĠ shiĠ
Ġ bing
Ġ mingĠ
zhengĠ fuĠ
shao Ġ
can Ġ
pian Ġ
Ġ you
huo ĠdeĠ
mian ĠjiĠ
hang Ġ
hong Ġ
geng Ġ
Ġ huoĠ
ji ĠdeĠ
ĠshiĠ yongĠ
tiao Ġ
xiu Ġ
chen Ġ
shuo Ġ
pi Ġ
Ġ dongĠ
ren ĠweiĠ
ĠshiĠ jianĠ
tao Ġ
zhi ĠyiĠ
zhong ĠdeĠ
zheng ĠzhiĠ
huang Ġ
ran Ġ
ĠyiĠ zhiĠ
ĠshiĠ jieĠ
zhongĠ guoĠ
Ġ ri
yue Ġ
chuang Ġ
nv Ġ
qu ĠdeĠ
guo ĠjiĠ
yi ĠshiĠ
ĠpingĠ fangĠ
wo Ġ
renĠ kouĠ
xing ĠdeĠ
po Ġ
Ġ shouĠ
jinĠ xingĠ
rong Ġ
Ġ haoĠ
Ġ suiĠ
liao Ġ
mei ĠyouĠ
diao Ġ
tuo Ġ
song Ġ
ou Ġ
Ġ miĠ
Ġli ĠdeĠ
Ġli ĠshiĠ
nian Ġ
Ġ dang
ĠweiĠ yuanĠ
Ġ fenĠ
Ġ wanĠ
pei Ġ
ĠqiĠ zhongĠ
zuo ĠweiĠ
gongĠ siĠ
fa ĠguoĠ
biao ĠshiĠ
ĠĠĠ zaiĠ
yanĠ jiuĠ
Ġ er
Ġ shangĠ
zheng ĠshiĠ
Ġ haiĠ
Ġ yin
ĠdeĠ jiĠ
pan Ġ
tui Ġ
Ġ meiĠ
Ġ xinĠ
Ġ zhe
dian ĠshiĠ
yunĠ dongĠ
que Ġ
bang Ġ
qie Ġ
Ġ taiĠ
ĠdeĠ diĠ
cheng ĠshiĠ
zhi ĠshiĠ
Ġ shuĠ
Ġ jiangĠ
Ġ jingĠ
jian ĠdeĠ
3 Ġ
ta ĠdeĠ
gong ĠheĠ
shu ĠyuĠ
she ĠjiĠ
Ġ qianĠ
lang Ġ
ĠrenĠ minĠ
dun Ġ
ĠrenĠ kouĠ
zhi ĠdeĠ
qiao Ġ
10 ĠyueĠ
12 ĠyueĠ
ĠdeĠ zhiĠ
Ġ yingĠ
jing ĠjiĠ
dianĠ yingĠ
7 ĠyueĠ
Ġ xiaĠ
Ġ nanĠ
zu ĠzhiĠ
Ġ muĠ
9 ĠyueĠ
Ġ zhangĠ
8 ĠyueĠ
zhu ĠyiĠ
3 ĠyueĠ
Ġ zuiĠ
1 ĠyueĠ
mao Ġ
ĠshiĠ qiĠ
daiĠ biaoĠ
wa Ġ
riĠ benĠ
ying ĠguoĠ
5 ĠyueĠ
you ĠyiĠ
ji ĠshiĠ
kao Ġ
6 ĠyueĠ
guo ĠdeĠ
kan Ġ
4 ĠyueĠ
Ġ huiĠ
ĠshiĠ zhenĠ
re Ġ
hen Ġ
mai Ġ
xian ĠdeĠ
Ġ biĠ
wei ĠyiĠ
11 ĠyueĠ
cheĠ zhanĠ
jiao ĠyuĠ
Ġ tongĠ
gen ĠjuĠ
buĠ fenĠ
yi ĠdeĠ
daĠ xueĠ
yu ĠshiĠ
xiangĠ gangĠ
ming ĠweiĠ
xueĠ yuanĠ
ĠdeĠ guoĠ
ĠyiĠ yuanĠ
4 Ġ
li ĠshiĠ
ĠdeĠyiĠ geĠ
ĠzhiĠ houĠ
Ġ ruĠ
Ġ dengĠ
dan ĠrenĠ
ĠnianĠ 1ĠyueĠ
gen Ġ
can ĠjiaĠ
ĠyiĠ weiĠ
cao Ġ
kang Ġ
5 Ġ
sheĠ huiĠ
Ġ tiĠ
xian ĠshiĠ
ĠdiĠ quĠ
Ġ qingĠ
sa Ġ
yingĠ xiangĠ
taiĠ wanĠ
shu ĠdeĠ
Ġ ran
Ġ yanĠ
Ġyou ĠyuĠ
shang ĠdeĠ
xing ĠshiĠ
ye ĠshiĠ
Ġ xueĠ
qi ĠshiĠ
ĠyinĠ ciĠ
formula Ġ
bie Ġ
guan ĠliĠ
lao Ġ
zeng Ġ
gongĠ zuoĠ
tong ĠguoĠ
le ĠyiĠ
ĠnianĠ 12ĠyueĠ
Ġ xiaoĠ
Ġ lingĠ
xingĠ zhengĠ
bu ĠdeĠ
gongĠheĠ guoĠ
wei ĠshiĠ
ĠliĠ yaĠ
Ġnian ĠdeĠ
er ĠshiĠ
ren ĠdeĠ
zhun Ġ
zi ĠjiĠ
da ĠdeĠ
2 ĠyueĠ
xiong Ġ
ĠguoĠ jiaĠ
Ġ liangĠ
zui ĠzhongĠ
ĠnianĠ 3ĠyueĠ
hui ĠyiĠ
kuang Ġ
ĠĠĠ shengĠ
cheng ĠliĠ
nong Ġ
ĠpingĠfangĠ gongĠliĠ
luo ĠsiĠ
ku Ġ
ĠnianĠ 7ĠyueĠ
Ġ jiaoĠ
ĠnianĠ 10ĠyueĠ
faĠ xianĠ
Ġ wangĠ
chu ĠdeĠ
miao Ġ
Ġ zhanĠ
ha Ġ
qi ĠdeĠ
ĠbaoĠ kuoĠ
faĠ zhanĠ
ĠnianĠ 9ĠyueĠ
Ġ tianĠ
yuan ĠdeĠ
ĠshiĠ youĠ
ĠshiĠ zhiĠ
qiĠ taĠ
hei Ġ
ĠnianĠ 5ĠyueĠ
ĠqiĠ jianĠ
piao Ġ
suo ĠyouĠ
kuai Ġ
si ĠdeĠ
Ġ boĠ
ĠnianĠ 4ĠyueĠ
ĠnianĠ 6ĠyueĠ
ĠnianĠ 8ĠyueĠ
you ĠyuĠ
Ġ luoĠ
tieĠ luĠ
ĠdaĠ xueĠ
quan ĠguoĠ
ĠshiĠ zaiĠ
6 Ġ
dao ĠzhiĠ
dao ĠdeĠ
tong ĠdeĠ
zhuĠ yaoĠ
cheng ĠdeĠ
can ĠyuĠ
lou Ġ
Ġ maĠ
Ġ zhengĠ
wenĠ huaĠ
shuang Ġ
nuo Ġ
Ġ huaĠ
di ĠliĠ
Ġ duiĠ
ĠtaĠ menĠ
Ġ luĠ
zhong ĠyiĠ
lian ĠheĠ
di ĠdeĠ
ĠzhiĠ daoĠ
Ġ dangĠ
Ġ guĠ
ĠnianĠ 11ĠyueĠ
Ġtong ĠshiĠ
Ġ shenĠ
baoĠ kuoĠ
bu ĠshiĠ
ĠzhongĠ xinĠ
ĠĠĠ shiĠ
yin ĠyueĠ
bei ĠbuĠ
Ġ jiuĠ
shu ĠjiĠ
yong ĠyuĠ
sen Ġ
ĠĠĠ yiĠ
tiĠ gongĠ
Ġ quanĠ
Ġ zongĠ
zai ĠyiĠ
xuan ĠbuĠ
guoĠ jiaĠ
ĠweiĠyuanĠ huiĠ
zuĠ qiuĠ
Ġ sui
wenĠ tiĠ
Ġ zuoĠ
Ġnian ĠzhiĠ
kuan Ġ
Ġyin ĠweiĠ
xueĠ xiaoĠ
sheng ĠyuĠ
ĠshiĠ wuĠ
jian ĠyuĠ
zi ĠyouĠ
qianĠ miĠ
gong ĠyouĠ
guan ĠxiĠ
fang ĠshiĠ
ĠweiĠ zhiĠ
ĠshiĠ zhongĠ
hun Ġ
ĠnianĠ 2ĠyueĠ
Ġ xuĠ
en Ġ
biĠ saiĠ
hua ĠrenĠminĠ
ying ĠdeĠ
rang Ġ
chengĠ yuanĠ
jianĠ zhuĠ
huoĠ dongĠ
jian ĠliĠ
Ġ gai
heng Ġ
suan Ġ
yu ĠyiĠ
ĠĠĠ liĠshiĠ
ji ĠyiĠ
fen ĠweiĠ
ĠdeĠ renĠ
she ĠyouĠ
ren ĠshiĠ
zuoĠ pinĠ
Ġ changĠ
Ġ dianĠ
tong ĠshiĠ
guanĠ junĠ
Ġ benĠ
da ĠliĠ
ge ĠrenĠ
Ġ chengĠweiĠ
ĠĠĠshengĠ pingĠ
Ġ jie
Ġ xian
Ġ anĠ
zhuan ĠjiĠ
yu ĠdeĠ
ĠdiĠ erĠ
beiĠ jingĠ
ĠjiĠ huaĠ
ĠyouĠ xiĠ
jiu ĠshiĠ
xiao ĠshiĠ
Ġ liuĠ
huaĠrenĠminĠ gongĠheĠguoĠ
yin ĠweiĠ
gei Ġ
Ġta ĠdeĠ
men ĠdeĠ
Ġli ĠyuĠ
qun Ġ
ĠnianĠ daiĠ
Ġ baĠ
dui ĠyuĠ
xi ĠdeĠ
ming ĠdeĠ
Ġ aĠ
jun ĠshiĠ
Ġ congĠ
di ĠshiĠ
tong ĠyiĠ
diĠ erĠ
xin ĠdeĠ
qu ĠyuĠ
ĠbuĠ fenĠ
xueĠ jiaĠ
eĠ luoĠsiĠ
zou Ġ
taĠ menĠ
Ġ duoĠ
chun Ġ
wei ĠdeĠ
shouĠ daoĠ
min ĠguoĠ
hou ĠdeĠ
er ĠdeĠ
sheng ĠdeĠ
lai ĠdeĠ
fangĠ mianĠ
faĠ shengĠ
zhengĠ fu
gong ĠjiĠ
dan ĠweiĠ
Ġ fengĠ
Ġ huĠ
xing ĠweiĠ
ĠshiĠ renĠ
ĠyiĠ jingĠ
yong ĠyouĠ
Ġ fanĠ
zhong ĠshiĠ
jin ĠshiĠ
Ġ lianĠ
ĠxiĠ tongĠ
jueĠ dingĠ
bu ĠyuĠ
Ġ gongĠliĠ
Ġ quĠ
ĠzhongĠ yangĠ
ju ĠyouĠ
Ġ mianĠjiĠ
1 ĠriĠ
tong ĠzhiĠ
diĠ quĠ
niĠ yaĠ
liangĠ geĠ
Ġ guanĠ
faĠ xingĠ
qu ĠweiĠ
ĠriĠ benĠ
Ġ gaoĠ
Ġ feiĠ
Ġ wenĠ
you ĠdeĠ
chuĠ xianĠ
Ġ teĠ
sheng ĠjiĠ
Ġ suoĠ
zh Ġ
hua ĠdeĠ
ĠrenĠkouĠ miĠ
ci ĠshiĠ
qi ĠyuĠ
zi ĠzhiĠ
wu ĠdeĠ
laiĠ ziĠ
juĠ xingĠ
Ġta ĠzaiĠ
ling ĠyiĠ
jia ĠdeĠ
ĠjiĠ yuĠ
xian ĠzhiĠ
Ġ suo
ĠweiĠ jiĠ
mianĠjiĠ weiĠ
Ġ suĠ
hui ĠdeĠ
s Ġ
baoĠ huĠ
Ġ sanĠ
nan ĠbuĠ
du ĠliĠ
ĠpingĠfangĠ qianĠmiĠ
shuĠ juĠ
kong ĠzhiĠ
ĠshiĠ yuĠ
zongĠ tongĠ
jinĠ ruĠ
ĠshiĠweiĠ yuĠ
ĠliĠ ruĠ
renĠ wuĠ
qu ĠshiĠ
ke ĠliĠ
yaoĠ qiuĠ
mou Ġ
ĠĠĠ deĠ
Ġ 15
Ġ woĠ
Ġ meiĠguoĠ
gt Ġ
Ġ gtĠ
gu ĠshiĠ
cheng ĠjiĠ
Ġran ĠerĠ
Ġ guangĠ
lt Ġ
Ġ ru
xueĠ shengĠ
Ġ bianĠ
ĠĠĠ yuĠ
Ġ wan
jin ĠdeĠ
Ġdan ĠshiĠ
minĠ zhuĠ
Ġ caiĠ
gong ĠshiĠ
wanĠ chengĠ
ĠyiĠ qiĠ
lieĠ cheĠ
you ĠjiĠ
keĠ nengĠ
Ġ ltĠ
ĠyiĠ buĠ
shen ĠzhiĠ
Ġbing ĠyuĠ
zha Ġ
ren ĠzhiĠ
pingĠ fangĠ
you ĠshiĠ
Ġ yongĠ
Ġbing ĠzaiĠ
ĠjiĠ shuĠ
chao ĠguoĠ
ti ĠyuĠ
yuan ĠshiĠ
cang Ġ
cun ĠzaiĠ
qianĠ wangĠ
ke ĠdeĠ
ya ĠliĠ
dang ĠshiĠ
si ĠshiĠ
xue ĠxiĠ
yong ĠdeĠ
ĠdeĠyiĠ ge
jing ĠguoĠ
Ġ ceng
Ġ kaiĠ
nei ĠdeĠ
fa ĠbuĠ
Ġ shanĠ
zuo ĠdeĠ
ĠzhiĠ weiĠ
jian ĠyiĠ
Ġ hanĠ
guan ĠyuĠ
Ġ a
ĠĠĠ diĠ
wuĠ keĠ
wu ĠshiĠ
xiangĠ gang
zhu ĠrenĠ
ĠzhiĠ jianĠ
Ġ 16
yinĠ duĠ
Ġ puĠ
zhan ĠshiĠ
zhanĠ zhengĠ
ĠqiĠ taĠ
guo ĠshiĠ
sun Ġ
pao Ġ
zhuĠ yao
shengĠ huoĠ
zhou ĠdeĠ
xuĠ duoĠ
jian ĠzhiĠ
ĠjiĠ weiĠ
fan ĠweiĠ
bin Ġ
ĠyiĠ shuĠ
ĠjiĠ qiĠ
ĠweiĠ erĠ
chengĠ gongĠ
han ĠguoĠ
ouĠ zhouĠ
zhuĠ xiĠ
lu ĠdeĠ
jieĠ shouĠ
qiuĠ duiĠ
ĠzhiĠ youĠ
Ġ shuĠyuĠ
Ġ zai
daiĠ biao
ĠjiĠ zhongĠ
Ġ jin
fuĠ wuĠ
zeng ĠjiaĠ
ĠbuĠ guoĠ
ban ĠdeĠ
s ĠĠĠ
Ġ baiĠ
gongĠ yuanĠ
ĠyouĠ xianĠ
Ġ moĠ
Ġ 000
xiaoĠ xingĠ
xia ĠdeĠ
ĠĠĠ gaiĠ
ĠzheĠ xieĠ
ĠzhiĠ chuĠ
he ĠyiĠ
shangĠ haiĠ
duo ĠdeĠ
Ġ aoĠ
hou ĠyiĠ
san ĠshiĠ
ĠĠĠ zhiĠ
ning Ġ
ĠciĠ waiĠ
fu ĠdeĠ
ju ĠliĠ
huai Ġ
si ĠjiĠ
zuĠ chengĠ
Ġ genĠjuĠ
Ġ ba
yunĠdongĠ yuanĠ
jiaoĠ tongĠ
ĠzhiĠ zuoĠ
ĠzhiĠ chiĠ
ma ĠweiĠ
gaoĠ duĠ
7 Ġ
chang ĠdeĠ
ĠnianĠ qiĠ
zhuĠ jiaoĠ
Ġ zhĠ
zheĠ xieĠ
niu Ġ
ge ĠzhongĠ
Ġ cengĠ
ĠzhiĠ wuĠ
xuĠ yaoĠ
ĠzaiĠ ciĠ
jueĠ seĠ
chongĠ xinĠ
chuĠ leĠ
ti ĠdeĠ
tui ĠchuĠ
Ġli ĠjiĠ
zheĠ geĠ
jing ĠliĠ
Ġ 17
xiang ĠdeĠ
Ġ zuiĠzhongĠ
gongĠ chengĠ
Ġdang ĠshiĠ
qi ĠyiĠ
da ĠshiĠ
chu ĠyuĠ
ĠrenĠ heĠ
Ġ ai
Ġ sheĠ
wu ĠzhongĠ
du ĠweiĠ
renĠ minĠ
zi ĠdeĠ
Ġ duĠ
xuanĠ juĠ
lianĠ saiĠ
ĠĠĠ diĠliĠ
ziĠ jiĠdeĠ
Ġ ye
ĠweiĠ leĠ
ĠrenĠ wuĠ
geĠ quĠ
Ġ huo
ĠnianĠ jianĠ
dang ĠdiĠ
kaiĠ faĠ
Ġ laiĠ
fuĠ zeĠ
ĠĠĠ weiĠ
ĠweiĠ qiĠ
gongĠ chanĠ
xian ĠzaiĠ
ĠzhiĠ yuĠ
ĠrenĠ yuanĠ
Ġ ma
zhe ĠyiĠ
liang ĠweiĠ
jieĠ shuĠ
ya ĠdeĠ
chu ĠliĠ
jieĠ muĠ
Ġ leiĠ
guan ĠdeĠ
Ġ banĠ
nv ĠziĠ
sai ĠshiĠ
2010 ĠnianĠ
ding ĠdeĠ
rui Ġ
dui ĠdeĠ
riĠ ben
ĠhouĠ laiĠ
fanĠ yingĠ
chuĠ banĠ
jie ĠdeĠ
chanĠ shengĠ
juan Ġ
shouĠ ciĠ
she ĠshiĠ
lei ĠsiĠ
ĠshiĠyiĠ geĠ
Ġ yangĠ
dongĠ wuĠ
ba ĠshiĠ
Ġ C
jing ĠshiĠ
ĠjiĠ xuĠ
Ġ naĠ
le ĠbuĠ
jie ĠshiĠ
8 Ġ
xiang ĠshiĠ
ruo Ġ
bo ĠshiĠ
keĠ neng
Ġ daiĠ
an ĠdeĠ
nanĠ ziĠ
Ġ A
Ġ jiang
du ĠdeĠ
guanĠ xiaĠ
san ĠnianĠ
Ġ aiĠ
zao ĠchengĠ
Ġ mei
hai ĠshiĠ
yang ĠdeĠ
dong ĠshiĠ
she ĠliĠ
Ġ 1Ġ
zhong ĠzhiĠ
yanĠ jiu
daoĠ leĠ
shan ĠxiĠ
Ġ 0
guo ĠyiĠ
Ġ zhenĠ
Ġ yaĠ
Ġsuo ĠyiĠ
ĠjiĠ zhiĠ
zhong ĠyuĠ
fen ĠbuĠ
nv ĠxingĠ
ĠheĠ zuoĠ
dou ĠshiĠ
jun ĠdeĠ
ĠĠĠ qiĠ
guo ĠyuĠ
dong ĠdeĠ
dai ĠdeĠ
lianĠ mengĠ
zheng ĠdeĠ
fangĠ faĠ
ĠzhiĠ zhiĠ
2020 ĠnianĠ
ĠyiĠ siĠ
wu ĠliĠ
xiangĠ muĠ
jiaoĠ shouĠ
fang ĠdeĠ
meiĠ pingĠfangĠ
zhengĠzhiĠ renĠwuĠ
caiĠ yongĠ
di ĠweiĠ
Ġ tuĠ
Ġ cong
liang ĠdeĠ
ĠzaiĠ diĠ
Ġ xuanĠ
ĠĠĠ renĠkouĠ
chuanĠ tongĠ
yuan ĠyuĠ
zhan ĠdeĠ
zhu ĠdeĠ
ĠĠĠ youĠ
huaĠ minĠguoĠ
xiĠ tongĠ
cheng ĠrenĠ
Ġ zeĠ
Ġri ĠzaiĠ
Ġ guiĠ
jiaĠ ruĠ
fa ĠdeĠ
2001 ĠnianĠ
ge ĠshiĠ
Ġnian ĠyiĠ
xinĠ wenĠ
Ġ ranĠ
yanĠ yuanĠ
hao ĠdeĠ
ĠliĠ siĠ
ĠĠĠ jiĠ
ĠjiĠ jiĠ
fu ĠshiĠ
Ġ bei
ĠyiĠ huiĠ
xiangĠ guanĠ
ying ĠyuĠ
dao ĠshiĠ
bianĠ maĠweiĠ
taiĠ wan
he ĠshiĠ
ĠjiĠ luĠ
boĠ wuĠ
xue ĠdeĠ
hou ĠzaiĠ
ĠweiĠ fuĠ
ĠtaĠ men
lianĠ jieĠ
ĠdeĠyiĠge ĠshiĠzhenĠ
baoĠ kuo
ĠyiĠ yiĠ
10 Ġ
ĠxueĠ mingĠ
xi ĠjiĠ
zui ĠjiaĠ
mingĠ chengĠ
ĠxiĠ yaĠ
tiĠ chuĠ
mu ĠsiĠ
Ġ xieĠ
ling ĠshiĠ
Ġzhe ĠshiĠ
er ĠnianĠ
xiao ĠdeĠ
hai ĠyouĠ
mian ĠdeĠ
ĠweiĠ zhuĠ
ĠrenĠkouĠmiĠ duĠ
Ġ zong
Ġli ĠyiĠ
ge ĠdeĠ
ĠzhiĠ jieĠ
Ġ laĠ
zuiĠ gaoĠ
dong ĠjiĠ
Ġ zhouĠ
ĠĠĠ jiaĠ
Ġ yeĠshiĠ
ĠshiĠyiĠ zhongĠ
yan ĠdeĠ
xia ĠjiĠ
Ġ yuĠshiĠ
geĠ mingĠ
Ġ ci
ye ĠyuĠ
ĠgongĠ siĠ
Ġ fangĠ
ĠnianĠ zaiĠ
yao ĠdeĠ
Ġ qiuĠ
gai ĠweiĠ
ĠyiĠ xieĠ
zai ĠdeĠ
shu ĠshiĠ
haiĠ junĠ
Ġ junĠ
Ġ kaĠ
jia ĠzhiĠ
Ġ S
shengĠ wuĠ
zhe ĠzhongĠ
chang ĠshiĠ
Ġ liang
hui ĠshiĠ
yan ĠzhongĠ
gai ĠguoĠ
na ĠdaĠ
zhu ĠshiĠ
qingĠ kuang
zheng ĠyiĠ
zhai Ġ
bian ĠdeĠ
ke ĠjiĠ
Ġ zuoĠweiĠ
huiĠ fuĠ
ĠzhiĠ qianĠ
meiĠ tiĠ
zai ĠyuĠ
luan Ġ
xin ĠxiĠ
ĠyiĠ zhongĠ
gao ĠdeĠ
wenĠ wuĠ
jie ĠguoĠ
jian ĠshiĠ
qi ĠzhiĠ
ĠjiĠ zaiĠ
Ġ 18
minĠ zuĠ
shui ĠyuĠ
qian ĠdeĠ
he ĠdeĠ
yanĠ changĠ
Ġ niĠ
chou Ġ
zhuĠ jianĠ
fanĠ duiĠ
Ġ 2Ġ
neng ĠliĠ
ĠweiĠ youĠ
ĠkeĠ siĠ
ĠĠĠ S
ĠĠĠ xingĠzhengĠ
Ġ keĠyiĠ
ge ĠliĠ
gongĠ kaiĠ
hua ĠshiĠ
ĠbuĠ tongĠ
xing ĠzhiĠ
Ġ mi
si ĠyuĠ
lei ĠdeĠ
ĠzhuĠ yaoĠ
Ġ chongĠ
bei ĠshiĠ
huanĠ jingĠ
jieĠ gouĠ
jiangĠ junĠ
zhang ĠdeĠ
peng Ġ
ĠxiangĠ gangĠ
chuangĠ zuoĠ
xian ĠyuĠ
shangĠ yeĠ
ĠĠĠ benĠ
zan Ġ
ĠĠĠ formulaĠ
Ġ 14
gaoĠ suĠ
ĠzheĠ geĠ
sai ĠjiĠ
mo ĠshiĠ
a ĠerĠ
Ġ diĠyiĠ
zhe ĠdeĠ
biaoĠ xianĠ
ĠzhongĠ huaĠrenĠminĠgongĠheĠguoĠ
tong ĠjiĠ
Ġ hongĠ
Ġ ling
junĠ duiĠ
of ĠĠĠ
Ġli ĠweiĠ
daĠ luĠ
Ġ chenĠ
zhu ĠliĠ
shengĠ yaĠ
ge ĠyueĠ
Ġ yunĠ
sheng ĠliĠ
the ĠĠĠ
quan ĠliĠ
wuĠ faĠ
Ġ tangĠ
dong ĠbuĠ
zhou ĠshiĠ
zongĠ jiaoĠ
geĠ lanĠ
Ġnian ĠshiĠ
diaoĠ chaĠ
si ĠnianĠ
tou ĠguoĠ
ĠyiĠ banĠ
buĠ fen
biaoĠ zhunĠ
ĠĠĠ genĠjuĠ
hangĠ kongĠ
biĠ yeĠ
hui ĠzaiĠ
ĠĠĠ ciĠ
ĠyiĠ ciĠ
Ġdang ĠdiĠ
shenĠ fenĠ
Ġ yaoĠ
di ĠzhiĠ
gongĠ luĠ
faĠ yuanĠ
Ġ 1
Ġ neiĠ
ĠdeĠyiĠ buĠfenĠ
bu ĠyiĠ
di ĠyuĠ
jia ĠliĠ
gongĠ zuo
jin ĠjiĠ
cheng ĠzhongĠ
bing ĠbuĠ
sai ĠdeĠ
ĠtaiĠ wanĠ
Ġ 9
quan ĠbuĠ
baĠ gaoĠduĠ
ĠbingĠ qie
ĠjiĠ tuanĠ
Ġ ming
xieĠ huiĠ
jiao ĠshiĠ
feiĠ changĠ
dongĠ huaĠ
anĠ quanĠ
ĠzhiĠ xingĠ
bi ĠdeĠ
Ġ huangĠ
cha ĠdeĠ
Ġ linĠ
shengĠ chanĠ
ziĠ liaoĠ
fu ĠheĠ
jing ĠdeĠ
tuanĠ tiĠ
luoĠ maĠ
jie ĠzhiĠ
Ġ B
bei ĠrenĠ
fenĠ bie
chao ĠxianĠ
gai ĠdiĠ
Ġ zhuanĠ
Ġ 2
ding ĠyiĠ
xingĠ dongĠ
xia ĠyiĠ
jinĠ biaoĠ
pingĠ junĠ
Ġ liu
ĠĠĠ A
ĠjinĠ xingĠ
wenĠ xueĠ
du ĠshiĠ
Ġru ĠguoĠ
renĠkouĠ puĠ
la ĠsiĠ
qingĠ kuangĠ
jia ĠjiĠ
gongĠ gongĠ
jieĠ fangĠ
ĠzhiĠ yuanĠ
Ġ zuĠ
juĠ minĠ
ĠzhiĠ huiĠ
ĠqiĠ houĠ
Ġ gu
dongĠ beiĠ
shou ĠdeĠ
ĠbaoĠ kuo
shang ĠshiĠ
ĠjiĠ diĠ
Ġ 3
she ĠzhiĠ
ĠĠĠ ofĠĠĠ
Ġ wo
yanĠ chuĠ
qiuĠ yuanĠ
yuan ĠyiĠ
ĠyuĠ jiĠ
sai ĠzhongĠ
keĠ xueĠ
yan ĠshiĠ
Ġ fen
Ġ da
Ġ chuanĠ
gongĠ tongĠ
lingĠ daoĠ
Ġ 5
ren ĠyiĠ
Ġ 4
zuoĠ pin
zuo ĠyouĠ
Ġ nan
er ĠjiĠ
ĠdeĠ zhuĠ
faĠ biaoĠ
zai ĠshiĠ
28 ĠriĠ
aoĠ yunĠ
kong ĠjianĠ
xing ĠjiĠ
gaiĠ bianĠ
ye ĠyouĠ
sanĠ geĠ
wu ĠzhiĠ
deng ĠdiĠ
ĠlingĠ waiĠ
jia ĠshiĠ
Ġ zhaoĠ
ĠdiĠ guoĠ
youĠ xiĠ
de ĠĠĠ
Ġ jiu
yuan ĠheĠ
fang ĠzhiĠ
deng ĠrenĠ
Ġer ĠshiĠ
xue ĠshiĠ
guan ĠzhongĠ
lan ĠdeĠ
Ġ cheĠ
luĠ xianĠ
Ġdan ĠrenĠ
xue ĠweiĠ
d ĠĠĠ
shu ĠweiĠ
ze ĠshiĠ
ju ĠdeĠ
baoĠ daoĠ
Ġ huoĠdeĠ
Ġli ĠzhiĠ
qi ĠweiĠ
zhui Ġ
he ĠjiĠ
lve Ġ
chu ĠrenĠ
buĠ tongĠ
qing ĠnianĠ
2008 ĠnianĠ
guo ĠliĠ
zuoĠ yongĠ
bang ĠzhuĠ
aoĠ linĠ
pi ĠkeĠ
2016 ĠnianĠ
gong ĠdeĠ
zao ĠdaoĠ
ĠkeĠ nengĠ
ai ĠerĠ
ĠyuĠ qiĠ
Ġri ĠzhiĠ
ĠfuĠ zeĠ
ĠĠĠ zhongĠ
zu ĠdeĠ
danĠ quĠ
ĠyuĠ yanĠ
jiang ĠqiĠ
ju ĠjiĠ
lu ĠdiĠ
ĠdaĠ daoĠ
gui ĠdaoĠ
ĠyouĠ guanĠ
15 ĠriĠ
tongĠ changĠ
shou ĠjiĠ
ĠyiĠ youĠ
taĠ men
banĠ benĠ
fei ĠjiĠ
ĠyiĠ yuĠ
tu ĠdiĠ
xianĠ daiĠ
yuan ĠnianĠ
2009 ĠnianĠ
Ġ 12
sheng ĠdeĠyiĠgeĠshiĠzhenĠ
ma ĠliĠ
ĠzhiĠ jianĠdeĠ
yaĠ zhouĠ
xiĠ banĠ
ĠmuĠ qianĠ
bianĠ huaĠ
Ġ shuiĠ
ĠĠĠ juĠ
jingĠ neiĠ
jie ĠheĠ
pa Ġ
t Ġ
ĠshiĠ xingĠ
gongĠ yeĠ
hui ĠheĠ
jueĠ saiĠ
wu ĠnianĠ
taiĠ pingĠ
jia ĠyiĠ
hou ĠyuĠ
ĠbingĠ qieĠ
2011 ĠnianĠ
Ġ paiĠ
ĠsiĠ keĠ
2012 ĠnianĠ
zao ĠqiĠ
neiĠ rongĠ
zhengĠ ceĠ
ĠweiĠ zhongĠ
guangĠ boĠ
Ġ 8
zhan ĠyiĠ
Ġ dingĠ
xian ĠrenĠ
ta ĠzaiĠ
meiĠ yuanĠ
Ġ mo
jiao ĠyiĠ
pi ĠpingĠ
xingĠ chengĠ
ĠhaiĠ baĠgaoĠduĠ
25 ĠriĠ
jiaoĠ huiĠ
miao ĠshuĠ
m Ġ
ĠbuĠ duiĠ
Ġ ha
ĠzhiĠ yeĠ
ĠerĠ siĠ
wanĠ quanĠ
Ġdan ĠzaiĠ
xuanĠ zeĠ
yuanĠ yinĠ
ĠsiĠ teĠ
Ġta ĠyuĠ
UTC Ġ
Ġ si
bo ĠliĠ
zao ĠdeĠ
Ġ E
ĠheĠ wuĠ
jianĠ sheĠ
Ġyue ĠdeĠ
xie ĠyiĠ
chu ĠshiĠ
xiaoĠ shuoĠ
wuĠkeĠ lanĠ
chang ĠqiĠ
yunĠdongĠ huiĠ
Ġ D
beiĠ chengĠweiĠ
lianĠ bangĠ
ĠdiĠ sanĠ
ĠweiĠ diĠ
Ġ renĠweiĠ
ĠjianĠ chengĠ
30 ĠriĠ
Ġdang ĠzhongĠ
10 ĠriĠ
ĠshiĠ yanĠ
ĠdeĠ daoĠ
chiĠ xuĠ
zui ĠdaĠ
wenĠ hua
Ġ eĠ
Ġ qie
20 ĠriĠ
mingĠ mingĠ
Ġ xunĠ
zu ĠheĠ
yuanĠ zhuĠ
duoĠ shuĠ
dianĠ ziĠ
se ĠdeĠ
zhuanĠ yeĠ
ĠyiĠ mingĠ
Ġta ĠshiĠ
xing ĠyuĠ
2014 ĠnianĠ
houĠ laiĠ
lin ĠshiĠ
gongĠ si
Ġ T
Ġ mianĠ
sheng ĠheĠ
ĠyouĠ chengĠ
er ĠweiĠ
wuĠ yuanĠ
bu ĠliĠ
jieĠ daoĠ
Ġ mengĠ
fu ĠzhiĠ
ba ĠliĠ
ziĠ geĠ
Ġ 7
chu ĠqiĠ
2018 ĠnianĠ
bu ĠjiĠ
2019 ĠnianĠ
Ġ 6
erĠ ziĠ
Ġ 5Ġ
t ĠĠĠ
dongĠ nanĠ
gao ĠzhongĠ
faĠ lvĠ
taĠ menĠdeĠ
ĠjiĠ gouĠ
za ĠzhiĠ
ĠjiĠ jinĠ
ĠdiĠ siĠ
ĠshiĠweiĠyuĠ meiĠguoĠ
daĠ daoĠ
ĠjinĠ guanĠ
ye ĠdeĠ
2013 ĠnianĠ
ĠweiĠyuĠ gaiĠguoĠ
ĠguoĠ minĠ
faĠ zhan
aĠ laĠ
kui Ġ
Ġyue ĠzhiĠ
ĠliĠ keĠ
tu ĠerĠ
sheng ĠweiĠ
ĠshiĠjieĠ daĠ
Ġ san
baoĠ gaoĠ
zhong ĠjiĠ
24 ĠriĠ
dao ĠyiĠ
2015 ĠnianĠ
ĠliĠ yongĠ
ĠliĠ kaiĠ
fangĠ xiangĠ
ĠsuiĠ houĠ
nei ĠbuĠ
ĠyuĠ zhongĠ
guoĠ minĠ
guangĠ dongĠ
guiĠ dingĠ
wang ĠdeĠ
9 Ġ
boĠwuĠ guanĠ
Ġ ke
Ġ gengĠ
luo ĠdeĠ
26 ĠriĠ
Ġ ãĤ
canĠ saiĠ
Ġ M
Ġyue ĠshiĠ
Ġ yingĠguoĠ
Ġzhe ĠzhongĠ
2007 ĠnianĠ
muĠ biaoĠ
ĠweiĠ siĠ
sheĠ quĠ
ĠyuĠ zhiĠ
guan ĠzhiĠ
Ġtong ĠnianĠ
dian ĠliĠ
2005 ĠnianĠ
Ġ ãģ
gongĠchanĠ dangĠ
die Ġ
18 ĠriĠ
ĠyouĠ qiĠ
ĠxiĠ lieĠ
xian ĠyiĠ
Ġ waiĠ
teĠ bie
ĠfenĠ buĠyuĠ
aoĠlinĠ piĠkeĠ
lian ĠxiĠ
bing ĠweiĠ
gongĠ buĠ
ĠjiĠ changĠ
fu ĠliĠ
juĠ banĠ
Ġ shaĠ
mu ĠdeĠ
ĠchuĠ leĠ
Ġ 2001ĠnianĠ
Ġ ganĠ
lie ĠdeĠ
ĠshiĠ heĠ
chang ĠweiĠ
wuĠ xianĠ
ĠerĠ shengĠ
Ġ P
bi ĠliĠ
quanĠ qiuĠ
shen ĠdeĠ
tou ĠziĠ
ĠshiĠ ziĠ
2017 ĠnianĠ
mu ĠdiĠ
16 ĠriĠ
ĠjiĠ heĠ
yinĠ hangĠ
ding ĠweiĠ
Ġ que
Ġ duo
dongĠ jingĠ
shangĠ shuĠ
fu ĠyiĠ
dao ĠyuĠ
dang ĠdeĠ
guanĠ fangĠ
Ġ 13
guo ĠzhiĠ
17 ĠriĠ
paiĠ sheĠ
zi ĠyuĠ
huaĠ xueĠ
shou ĠyuĠ
kaiĠ fangĠ
Ġ minĠ
ĠyouĠxianĠ gongĠsiĠ
ĠĠĠ zhengĠzhiĠ
21 ĠriĠ
bu ĠzhiĠ
ĠdeĠshiĠ zhenĠ
gai ĠnianĠ
27 ĠriĠ
baoĠ faĠ
ĠzhongĠ xueĠ
zhe ĠshiĠ
ka ĠerĠ
19 ĠriĠ
2006 ĠnianĠ
8 ĠriĠ
jun ĠweiĠ
11 ĠriĠ
ĠliĠ faĠ
mingĠ ziĠ
yingĠ yongĠ
12 ĠriĠ
23 ĠriĠ
shang ĠyouĠ
ce ĠshiĠ
Ġ songĠ
ĠhaoĠ miĠ
ĠfuĠ wuĠ
ĠyinĠ ci
suĠ lianĠ
meiĠguoĠ renĠkouĠpuĠ
xian ĠweiĠ
ĠdeĠ weiĠ
fei ĠxingĠ
ĠzhiĠ jiĠ
shuĠ liangĠweiĠ
7 ĠriĠ
qiĠ jianĠ
juĠ leĠbuĠ
fu ĠyuĠ
yin ĠshiĠ
xueĠ zheĠ
huang ĠdiĠ
hui ĠyuĠ
qi ĠjiĠ
2021 ĠnianĠ
ban ĠshiĠ
xiĠ lieĠ
boĠ chuĠ
ĠdeĠ zhongĠ
Ġ qieĠ
22 ĠriĠ
guiĠ moĠ
ĠshiĠ faĠguoĠ
Ġ saiĠ
biĠ xuĠ
ling ĠyuĠ
9 ĠriĠ
Ġ 3Ġ
shanĠ dongĠ
gongĠ nengĠ
Ġ ãĥ
29 ĠriĠ
chu ĠyiĠ
Ġ G
yin ĠqiĠ
Ġ 6Ġ
guanĠ yuanĠ
ying ĠshiĠ
te ĠdeĠ
zuiĠ daĠdeĠ
zheng ĠzaiĠ
ĠyueĠ hanĠ
xunĠ lianĠ
kun Ġ
ĠjiĠ baiĠ
jingĠ yingĠ
fengĠ geĠ
Ġ F
2022 ĠnianĠ
fuĠ jinĠ
ting ĠzhiĠ
nengĠ gouĠ
suoĠ shuĠdeĠ
pingĠ jiaĠ
shengĠ mingĠ
3 ĠriĠ
14 ĠriĠ
geĠ diĠ
zhu ĠzaiĠ
qingĠkuang ĠxiaĠ
yuan ĠjiĠ
shou ĠshiĠ
tiao ĠjianĠ
jiao ĠdeĠ
21 Ġ
5 ĠriĠ
sheng ĠzaiĠ
quĠ huaĠ
ĠĠĠ C
shengĠ chan
tai ĠdeĠ
xi ĠshiĠ
shang ĠweiĠ
Ġ piĠ
she ĠdeĠ
mai ĠkeĠ
ĠĠĠ youĠyuĠ
ya ĠyuĠ
Ġ daoĠzhiĠ
jin ĠzhiĠ
31 ĠriĠ
ĠbuĠ jiuĠ
jieĠ chuĠ
Ġ kaiĠshiĠ
Ġ lvĠ
yuan ĠzhiĠ
ĠdaĠ huiĠ
lianĠ meng
xiaoĠxingĠ xingĠ
4 ĠriĠ
chao ĠjiĠ
2 ĠriĠ
xiong ĠdiĠ
da ĠjiĠ
ĠrenĠ zhongĠ
ĠzuiĠ houĠ
dian ĠdeĠ
6 ĠriĠ
A Ġ
hai ĠyuĠ
zang Ġ
ĠĠĠ theĠĠĠ
boĠ teĠ
ĠgongĠ chiĠ
liu ĠxingĠ
ge ĠjiĠ
13 ĠriĠ
nanĠ xingĠ
ĠsuiĠ ranĠ
wenĠwuĠ baoĠhuĠ
ĠnianĠ dai
teĠ zhengĠ
renĠ heĠ
wu ĠjiĠ
Ġ manĠ
ge ĠweiĠ
Ġ qiangĠ
ren ĠjiĠ
lv ĠyouĠ
zuoĠ jiaĠ
keĠ daĠ
si ĠrenĠ
Ġtong ĠguoĠ
geĠ shouĠ
Ġ xin
Ġ jueĠ
Ġ shenĠzhiĠ
yinĠ ciĠ
huang ĠjiaĠ
fen ĠxiĠ
ouĠ zhou
br Ġ
jian ĠweiĠ
shengĠ fenĠ
Ġ lingĠyiĠ
zong ĠheĠ
xuĠ duo
d Ġ
lieĠ che
r Ġ
ju ĠrenĠ
niu ĠyueĠ
Ġ brĠ
ĠĠĠ jinĠ
banĠ daoĠ
ci ĠshiĠjieĠdaĠ
zhuĠ tiĠ
zhong ĠweiĠ
Ġ 10
cheng ĠyiĠ
zai ĠweiĠ
zhuangĠ taiĠ
ĠsuiĠ ran
ĠyouĠ mingĠ
qi ĠnianĠ
ĠtaĠ cengĠ
ben ĠdeĠ
bian ĠweiĠ
Ġ douĠ
pin ĠdaoĠ
ĠzaiĠ qiĠ
you ĠyiĠgeĠ
ju ĠzhongĠ
fenĠ ziĠ
he ĠliĠ
mao ĠyiĠ
20 ĠshiĠjiĠ
ĠzhiĠ zhongĠ
The ĠĠĠ
buĠ zhangĠ
renĠkouĠ shuĠliangĠweiĠ
Ġ chiĠ
wangĠ luoĠ
hui ĠyouĠ
Ġ geng
qian ĠyiĠ
ĠĠĠ ziĠ
ao ĠsiĠ
2004 ĠnianĠ
shuo ĠshiĠ
jieĠ duanĠ
xuanĠ shouĠ
gao ĠjiĠ
zhun ĠbeiĠ
fa ĠshiĠ
ĠheĠ nanĠ
ci ĠdeĠ
fangĠ anĠ
fang ĠyuĠ
mi ĠerĠ
wai ĠdeĠ
daĠ xingĠ
duoĠ ciĠ
Ġ zhou
Ġ chen
bing ĠliĠ
gong ĠzhongĠ
ĠĠĠ liĠ
bei ĠdeĠ
huiĠ daoĠ
Ġ 4Ġ
mo ĠdeĠ
ĠyiĠ laiĠ
Ġri ĠqiĠ
chengĠ duĠ
fen ĠzhiĠ
Ġ lanĠ
ci ĠzhiĠ
Ġ gangĠ
bu ĠweiĠ
2000 ĠnianĠ
shuĠ guanĠ
liu ĠnianĠ
11 Ġ
ĠzhongĠ buĠ
wuĠ qiĠ
jie ĠjiĠ
le ĠyiĠgeĠ
yuan ĠweiĠ
baoĠ hanĠ
jun ĠzaiĠ
ĠdiĠ fangĠ
dianĠshiĠ taiĠ
Ġ fan
you ĠzhiĠ
zi ĠshiĠ
ĠdeĠyiĠ zhongĠ
xing ĠheĠ
ĠrenĠ kou
ĠrenĠkouĠmiĠ duĠweiĠ
ju ĠshiĠ
deng ĠjiĠ
Ġ yiĠshiĠ
luĠ junĠ
xuan ĠweiĠ
xiangĠ tongĠ
Ġ chaoĠ
zheĠ jiangĠ
Ġ ze
Ġ xianĠshiĠ
zuiĠ houĠ
biaoĠ yanĠ
qiu ĠjiĠ
Ġ touĠ
siĠ wangĠ
gaiĠ geĠ
ĠzhuĠ yao
ĠweiĠyuĠ faĠguoĠ
sheĠ beiĠ
nong ĠyeĠ
daĠ liangĠ
duoĠ geĠ
meiĠ zhouĠ
ĠzhiĠ jinĠ
dianĠshiĠ juĠ
hou ĠyouĠ
ĠshiĠ daiĠ
Ġ zu
Ġ zhao
ĠxiĠ banĠ
Ġ K
gu ĠjiĠ
shang ĠyiĠ
ai ĠdeĠ
yang ĠshiĠ
zhu ĠyuĠ
guangĠ changĠ
Ġ xiang
liu ĠshiĠ
zai ĠjiĠ
zhanĠ douĠ
fa ĠyuĠ
Ġ fei
wenĠwuĠbaoĠhuĠ danĠweiĠ
ĠĠĠ daĠ
zhanĠ kaiĠ
Ġ meiĠyouĠ
ĠzhiĠ liĠ
jia ĠheĠ
l Ġ
tiao ĠyueĠ
ĠjiaĠ ruĠ
fuĠ jianĠ
xieĠ zhuĠ
ĠyiĠ beiĠ
ĠbuĠ zaiĠ
chanĠ pinĠ
muĠ qianĠ
hangĠ kong
bianĠ chengĠ
jiang ĠyuĠ
youĠ zhengĠ
ĠfenĠ bie
huoĠdeĠ leĠ
ren ĠyuĠ
mi ĠdeĠ
fenĠ leiĠ
daoĠ luĠ
gongĠyouĠ renĠkouĠ
ying ĠjiĠ
duan ĠdeĠ
ĠzhiĠ zaiĠ
qun ĠdaoĠ
qing ĠdeĠ
biaoĠ zhun
zhenĠ quĠ
ĠbeiĠ qiĠ
Ġzhe ĠyiĠ
haiĠ baĠ
ĠĠĠ jianĠ
nao Ġ
biĠ jiaoĠ
nai Ġ
ĠqiĠ yeĠ
guiĠ huaĠ
zhanĠ zheng
cuo Ġ
ĠĠĠ B
ĠliĠ ziĠ
ĠkeĠ neng
20 Ġ
ĠxiĠ wangĠ
ĠxingĠ zhengĠ
suĠ duĠ
ju ĠyuĠ
nv ĠerĠ
xiĠ buĠ
ĠzhongĠ huaĠminĠguoĠ
shouĠ duĠ
xi ĠweiĠ
nu Ġ
Ġ L
ĠbuĠ huiĠ
Ġ faĠguoĠ
ĠyiĠ renĠ
qiao ĠzhiĠ
ĠgongĠ fenĠ
Ġ zhang
ĠzaiĠ zhongĠ
meiĠpingĠfangĠ gongĠliĠ
rong ĠyuĠ
dong ĠxiĠ
jiu ĠshiĠzhenĠ
dong ĠliĠ
ĠyiĠ yangĠ
manĠ huaĠ
ĠdeĠshiĠ jianĠ
jinĠ gongĠ
diĠyiĠ geĠ
dou ĠyouĠ
si ĠheĠ
Ġ R
ĠĠĠ xiĠ
ĠchengĠ quĠ
si ĠweiĠ
U Ġ
henĠ duoĠ
Ġ I
maĠ lai
la ĠdeĠ
Ġ 00
Ġ nvĠ
ken Ġ
ĠĠĠ T
ruĠ xiaĠ
taiĠ beiĠ
ze ĠrenĠ
fu ĠrenĠ
la ĠkeĠ
Ġ O
quĠ daiĠ
ĠciĠ houĠ
xian ĠdeĠyiĠgeĠ
jinĠbiaoĠ saiĠ
ĠyiĠ xiaĠ
shangĠ wuĠ
yu ĠshiĠdeĠ
Ġ 30
ĠyuĠ weiĠ
Ġ kongĠ
jian ĠyouĠ
ĠerĠ beiĠ
zong ĠliĠ
a ĠĠĠ
Ġ tian
wang ĠguoĠ
xiangĠ duiĠ
lianĠ xuĠ
ĠĠĠ fuĠ
qu ĠyiĠ
min ĠzhongĠ
jieĠ rang
reng Ġran
xiao ĠxiĠ
miĠ shuĠ
Ġ hao
tie ĠdaoĠ
zhengĠ geĠ
ĠĠĠ zheĠ
zuiĠ houĠyiĠ
ci ĠjiĠ
jue ĠdeĠ
renĠkouĠshuĠliangĠweiĠ renĠ
Ġ ruo
Ġ tiaoĠ
ĠzhongĠ xin
ĠĠĠ zhuĠ
quan ĠdeĠ
zhanĠ lingĠ
xinĠ jiaĠ
ĠĠĠ F
waiĠ jiaoĠ
diĠ sanĠ
jiaĠ naĠdaĠ
ĠliĠ shuĠyuĠ
ĠrenĠ zaiĠ
tianĠ zhuĠjiaoĠ
ĠyingĠ chiĠ
zhen ĠshiĠ
Ġ INSEE
yeĠ wuĠ
chengĠ zhenĠ
ci ĠyuĠ
qiĠ ta
Ġ heiĠ
Ġ wu
Ġnian ĠjiĠ
Ġran ĠhouĠ
yuan ĠyouĠ
Ġyou ĠyiĠ
ceng ĠzaiĠ
daĠ xue
niao Ġ
jianĠ chaĠ
zhengĠ quanĠ
shengĠ chengĠ
shouĠ geĠ
nan ĠjiĠ
zuoĠ chuĠ
ĠdeĠshiĠ houĠ
ĠheĠ beiĠ
ni ĠsiĠ
juĠ jueĠ
lu ĠshiĠ
jiao ĠweiĠ
Ġ N
quĠ xiaoĠ
ti ĠjiĠ
Ġ rang
Ġjie ĠzhiĠ
ĠdeĠ yuĠ
dian ĠjiĠ
sheng ĠzhiĠ
cheĠ liangĠ
ĠgaiĠ shengĠ
wangĠ zhanĠ
he ĠweiĠ
da ĠliĠyaĠ
zhongĠ xinĠ
dui ĠzaiĠ
n Ġ
xianĠ faĠ
le ĠjiĠ
Ġ bai
he ĠzhiĠ
diĠ fangĠ
Ġ duiĠyuĠ
ziĠ xingĠ
zhen ĠdeĠ
lan ĠxiĠ
ĠqiĠ ta
Ġer ĠzaiĠ
ĠzongĠ mianĠjiĠ
Ġ zhengĠshiĠ
yunĠ yingĠ
ĠdeĠ liĠ
jieĠ jueĠ
tianĠ wenĠ
2002 ĠnianĠ
ĠriĠ ben
2003 ĠnianĠ
mo ĠxiĠ
ĠshiĠ changĠ
gong ĠyiĠ
shu ĠzhiĠ
ye ĠzaiĠ
ĠdiĠ qiĠ
ĠjianĠ zhuĠ
shou ĠweiĠ
dianĠ ying
ĠrenĠkouĠmiĠduĠ meiĠpingĠfangĠgongĠliĠ
xiaoĠ xueĠ
yingĠ xiang
chaĠdeĠ shuĠjuĠ
youĠzhengĠ bianĠmaĠweiĠ
hui ĠzhiĠ
gan ĠdaoĠ
ĠxingĠ chengĠ
puĠ taoĠ
ĠshiĠzhenĠ bianĠmaĠweiĠ
ĠINSEE ĠshiĠzhenĠbianĠmaĠweiĠ
qing ĠshiĠ
te ĠliĠ
ĠrenĠkouĠmiĠduĠweiĠ meiĠpingĠfangĠ
mengĠ guĠ
ĠĠĠ buĠ
mu ĠshiĠ
ĠxiaĠ lingĠshiĠ
diĠyiĠ ciĠ
xi ĠliĠ
zhuo Ġ
er ĠzaiĠ
xuanĠ quĠweiĠ
lei ĠjiĠ
zuoĠ zhanĠ
si ĠzaiĠ
gao ĠyuĠ
niĠ ya
yuĠshiĠdeĠ renĠkouĠshuĠliangĠweiĠrenĠ
bao ĠdeĠ
meiĠguoĠrenĠkouĠpuĠ chaĠdeĠshuĠjuĠ
zuo ĠyiĠ
lu ĠyiĠ
Ġer ĠrenĠkouĠmiĠduĠweiĠmeiĠpingĠfangĠ
ĠdangĠdiĠ gongĠyouĠrenĠkouĠ
Ġ huanĠ
xi ĠyuĠ
ĠteĠ bie
yun ĠxingĠ
ĠhuoĠ jiuĠshiĠzhenĠ
xin ĠliĠ
jingĠ changĠ
shengĠjiĠ xuanĠquĠweiĠ
jiang ĠshiĠ
yuanĠ ziĠ
faĠ dongĠ
kuaiĠ suĠ
Ġ shuangĠ
Ġ bo
ĠzhongĠ yang
shao ĠnianĠ
sheng ĠrenĠ
bian ĠjiĠ
chong ĠjianĠ
fenĠweiĠ faĠguoĠ
ĠgaiĠshengĠ fenĠweiĠfaĠguoĠ
fa ĠqiĠ
ĠĠĠ nianĠ
gaoĠ dengĠ
Ġ biaoĠshiĠ
ming ĠyiĠ
cong ĠshiĠ
ĠĠĠ G
shuo ĠfaĠ
ĠnianĠ chuĠ
yangĠ huaĠ
ĠyouĠ renĠ
Ġnian ĠyuĠ
cheng ĠliĠyuĠ
jia ĠzhongĠ
jin ĠyiĠbuĠ
na ĠdeĠ
y Ġ
lianĠheĠ guoĠ
ĠerĠ qie
yanĠjiuĠ suoĠ
zhengĠ mingĠ
fang ĠqiĠ
daĠ quĠ
tai ĠguoĠ
gongĠ xianĠ
gou ĠdeĠ
lunĠ dun
ĠĠĠ heĠ
fanĠ huiĠ
aoĠlinĠpiĠkeĠ yunĠdongĠhuiĠ
jieĠrang ĠdeĠshiĠzhenĠ
Ġ guoĠjiĠ
zi ĠweiĠ
gong ĠrenĠ
suoĠshuĠdeĠ shengĠjiĠxuanĠquĠweiĠ
si ĠliĠ
yunĠ shuĠ
xiang ĠjiĠ
me Ġ
huo ĠshiĠ
ziĠ ran
yuan ĠliĠ
2023 ĠnianĠ
ne Ġ
ti ĠxiĠ
jianĠ chengĠ
biao ĠweiĠ
Ġ H
na ĠliĠ
zhuĠ chiĠ
xingĠ qiĠ
zhongĠ huaĠrenĠminĠgongĠheĠguoĠ
mingĠ danĠ
boĠ lanĠ
Ġ huang
xi ĠzaiĠ
ziĠ yuanĠ
dao ĠrenĠ
reĠ daiĠ
xiĠbanĠ yaĠ
ce ĠdeĠ
Ġ hu
hua ĠweiĠ
luo ĠfuĠ
fuĠ qinĠ
ĠxiĠ beiĠ
xiaĠ wuĠ
zhanĠ dou
B Ġ
er ĠheĠ
pai ĠdeĠ
ĠnianĠ youĠ
faĠ sheĠ
ĠdiĠ quĠdeĠ
bei ĠyiĠ
fen ĠdeĠ
ni ĠkeĠ
cui Ġ
Ġ haĠ
wenĠ mingĠ
ĠĠĠ cheĠzhanĠ
ĠzhiĠ chengĠ
ĠheĠ bingĠ
diaoĠ cha
chanĠ yeĠ
ĠnianĠ houĠ
ĠshiĠyiĠ mingĠ
wan ĠjiaĠ
an ĠshiĠ
xiangĠ dangĠ
ĠĠĠ chuĠ
Ġyou ĠshiĠ
sheng ĠshiĠ
Ġ kang
Ġ zaoĠ
chaoĠ zhengĠzhiĠrenĠwuĠ
su ĠdeĠ
jinĠxingĠ leĠ
ĠweiĠ shengĠ
Ġ chuangĠ
ĠĠĠ taĠ
jian ĠjiĠ
ĠbuĠ nengĠ
nanĠ shengĠ
Ġ peiĠ
jin ĠyiĠ
xuanĠ chuanĠ
ĠshiĠyiĠ weiĠ
ying ĠliĠ
jingĠ shenĠ
bei ĠjiĠ
lv ĠshiĠ
xianĠ xiangĠ
za Ġ
shu ĠzhongĠ
shouĠ shangĠ
zi ĠheĠ
xiĠ yangĠ
fuĠzeĠ guanĠxiaĠ
guanĠ zhuĠ
lian ĠdeĠ
qiĠ zhongĠyiĠ
mie Ġ
jiaĠ tingĠ
paiĠ mingĠ
tongĠ xingĠ
lie ĠweiĠ
sai ĠerĠ
Ġyue ĠzaiĠ
zhanĠ houĠ
xuan ĠrenĠ
liu ĠyuĠ
shuĠ liangĠ
xiaoĠ zuĠ
fo ĠjiaoĠ
lanĠ qiuĠ
shuai Ġ
ke ĠweiĠ
ĠĠĠ P
Ġ bi
jie ĠyiĠ
daoĠ yanĠ
zhengĠ juĠ
qiu ĠdeĠ
ĠxiĠ nanĠ
da ĠweiĠ
taoĠ lunĠ
ba ĠnianĠ
wang ĠshiĠ
duĠ jiaoĠ
yan ĠyiĠ
Ġ longĠ
reĠ dai
y ĠĠĠ
ĠĠĠ beiĠ
ĠzhongĠ gongĠ
zhengĠ dangĠ
laiĠ yuanĠ
genĠ ju
ĠshiĠ xianĠ
baoĠ chiĠ
Ġ tuoĠ
wenĠ jianĠ
ĠyiĠ jianĠ
hou ĠqiĠ
ĠnianĠ duĠ
ĠerĠ qieĠ
zhongĠ yangĠ
ĠzhiĠ xianĠ
Ġ ben
ĠdaoĠ leĠ
reng ĠranĠ
Ġ 10ĠyueĠ
ĠyiĠ xiĠ
lv ĠkeĠ
rui ĠshiĠ
Ġ canĠ
ĠjiĠ siĠ
pingĠ lunĠ
ming ĠshiĠ
ziĠ dongĠ
Ġzong ĠrenĠkouĠ
xia ĠdeĠyiĠgeĠ
fan ĠdeĠ
ĠwuĠ keĠ
diĠ siĠ
zao ĠnianĠ
biaoĠ mingĠ
xu ĠdeĠ
lu ĠyuĠ
ĠzhiĠ mingĠ
hai ĠdeĠ
ĠjiĠ huĠ
pingĠ taiĠ
luoĠ ma
keĠliĠ siĠ
ĠĠĠ E
ĠshiĠ jianĠyuĠ
hao ĠweiĠ
rao Ġ
cengĠ jingĠ
xuĠ yao
peng ĠyouĠ
ĠliĠ renĠ
da ĠyueĠ
yinĠ hang
fengĠ xianĠ
eĠ luoĠ
nanĠ jingĠ
ĠĠĠ M
ĠbeiĠ jingĠ
Ġ ciĠshiĠ
ĠdeĠdiĠ fangĠ
sheng ĠyiĠ
gong ĠzhongĠyangĠ
taiĠpingĠ yangĠ
jiaoĠ tangĠ
zheng ĠbuĠ
lianĠ bang
Ġ ouĠ
jiao ĠbuĠ
xuanĠ quĠ
xingĠ buĠ
ke ĠzaiĠ
jing ĠyouĠ
yanĠ geĠ
queĠ dingĠ
yuan ĠzaiĠ
sou Ġ
ĠguoĠ wangĠ
daoĠ daĠ
shen ĠweiĠ
jianĠ duiĠ
chongĠ tuĠ
ĠĠĠ xianĠ
wu ĠrenĠ
jian ĠrenĠ
ĠyiĠ shangĠ
mo ĠxingĠ
ĠĠĠ 2021
biao ĠzhiĠ
hua ĠyuĠ
ru ĠheĠ
Ġ lin
qian ĠshiĠ
ke ĠshiĠ
Ġ miaoĠ
qian ĠzhiĠ
tui ĠyiĠ
xiao ĠguoĠ
zhang ĠdaĠ
shangĠ yingĠ
dao ĠheĠ
keĠ siĠ
ĠgongĠ yuanĠ
jing ĠweiĠ
ĠĠĠ suiĠ
lei ĠxingĠ
ĠyiĠ liĠ
ĠdaĠ xue
zhou ĠweiĠ
xian ĠjiĠ
queĠ zhenĠ
ye ĠbuĠ
biao ĠdaĠ
fengĠ baoĠ
guangĠ zhouĠ
ĠĠĠ 2020
xia ĠshiĠ
dangĠ xuanĠ
xie ĠdeĠ
biĠ yaĠ
Ġ tanĠ
xian ĠheĠ
shengĠ huo
pang Ġ
liang ĠzhongĠ
ding ĠyuĠ
qiĠ yeĠ
Ġceng ĠrenĠ
ĠjiĠ beiĠ
jiaoĠ quĠ
pingĠ mianĠ
ĠĠĠ and
anĠ jianĠ
chengĠ xianĠ
shenĠ qingĠ
luĠ siĠ
xing ĠyiĠ
ĠzhiĠ fuĠ
tuanĠ duiĠ
ĠerĠrenĠkouĠmiĠduĠweiĠmeiĠpingĠfangĠ qianĠmiĠ
ĠjinĠ ruĠ
ĠliĠ daĠ
Ġ deng
Ġ qinĠ
cha ĠyiĠ
ĠliĠ lunĠ
yingĠ geĠlanĠ
yaoĠ qingĠ
neiĠ rong
puĠ tongĠ
Ġ J
yuanĠ zhangĠ
0 Ġ
yuanĠ suĠ
ĠzhongĠ youĠ
Ġ gao
xing ĠrenĠ
jiu ĠnianĠ
Ġjie ĠguoĠ
xi ĠheĠ
ĠtaĠ menĠdeĠ
Ġ zheng
ri ĠqiĠ
qiuĠ changĠ
xiaoĠ shouĠ
rou Ġ
zhongĠ yaoĠ
yan ĠzhiĠ
heng ĠxingĠ
zi ĠyiĠ
ruĠ ciĠ
duiĠ shouĠ
la ĠfuĠ
fenĠ bieĠ
tiaoĠ zhanĠ
zuo ĠshiĠ
bao ĠweiĠ
cheng ĠyuĠ
shu ĠyiĠ
laiĠ shuoĠ
Ġ qiĠyuĠ
hui ĠjiĠ
Ġyue ĠyuĠ
ru ĠguoĠ
ĠzhiĠ zaoĠ
xueĠ shuĠ
he ĠyuĠ
12 Ġ
anĠ naĠ
ĠzhongĠ huaĠ
wangĠ luĠ
lun ĠdeĠ
nu ĠliĠ
l ĠĠĠ
yu ĠĠĠ
ni ĠdeĠ
ĠshiĠ diĠ
wu ĠyiĠ
shun Ġ
Ġ 8ĠyueĠ
zhengĠ zhuangĠ
jia ĠrenĠ
caiĠ yong
ting ĠdeĠ
nengĠ gou
ziĠzhiĠ quĠ
Ġ 11
jieĠfangĠ junĠ
Ġ maiĠ
xiaoĠ zhangĠ
dianĠ taiĠ
teĠ bieĠ
ĠhaoĠ xianĠ
min ĠdeĠ
haiĠ ziĠ
ĠtongĠ changĠ
you ĠliĠ
ta ĠshiĠ
lan ĠkeĠ
shuĠ ziĠ
xiang ĠyuĠ
qu ĠheĠ
gengĠ mingĠweiĠ
ĠĠĠ K
chuang ĠliĠ
quan ĠshiĠ
2024 ĠnianĠ
zongĠ duĠ
xu ĠshiĠ
fan ĠyiĠ
duo ĠzhongĠ
fuĠ qin
zhuĠ yanĠ
ge ĠyouĠ
she ĠyuĠ
jiaĠ geĠ
chuĠ shenĠ
Ġ 19
ĠĠĠ in
huoĠ dong
Ġ W
jiang ĠxiĠ
ĠĠĠ 2019
xin ĠshiĠ
bo ĠdeĠ
Ġ zaiĠyiĠ
Ġ dai
hu ĠshiĠ
ming ĠyuĠ
jiangĠ xiangĠ
banĠ gongĠshiĠ
dan ĠdeĠ
sun ĠshiĠ
shouĠ ruĠ
g Ġ
lin ĠdeĠ
Ġ e
Ġ suoĠyouĠ
ĠĠĠ wuĠ
ĠzhongĠ yaoĠ
juĠ xingĠdeĠ
Ġ pei
dui ĠyiĠ
jingĠ chaĠ
sa ĠkeĠ
Ġ laoĠ
jieĠ jinĠ
ĠweiĠ lianĠ
ĠjiĠ benĠ
jie ĠweiĠ
jie ĠyuĠ
ka ĠsiĠ
ĠĠĠ xiaĠ
guanĠ dianĠ
ĠdeĠyiĠ zuoĠ
1999 ĠnianĠ
ĠliĠ heĠ
jiang ĠdiĠ
shaoĠ shuĠ
kan ĠdaoĠ
wenĠ zhangĠ
ĠjiĠ zheĠ
lunĠ dunĠ
ĠĠĠ 2018
tou ĠxiangĠ
huiĠ shangĠ
luĠdiĠ mianĠjiĠweiĠ
ĠĠĠ geĠ
Ġ han
amp Ġ
shuiĠyuĠ mianĠjiĠweiĠ
Ġ zhuan
jieĠ quanĠguoĠ
ĠdaĠ quĠ
wenĠ ziĠ
zhan ĠjiĠ
xingĠ jianĠ
ĠdeĠdiĠ quĠ
sang Ġ
aoĠ menĠ
zai ĠzhiĠ
wen ĠyiĠ
Ġ cheĠzhanĠ
zhang ĠshiĠ
kang ĠyiĠ
ĠĠĠ L
leng Ġ
xiĠ beiĠ
haiĠ anĠ
ruĠ kouĠ
wai ĠguoĠ
Ġ xiongĠ
wen ĠdeĠ
chuĠ shengĠ
jiaoĠ liuĠ
ĠĠĠ keĠ
ming ĠdiĠ
24 Ġ
ĠjiĠ tuan
xingĠ xingĠ
xi ĠzhiĠ
zhenĠ duiĠ
xin ĠrenĠ
du ĠyuĠ
p Ġ
Ġ ampĠ
cuo ĠshiĠ
zhangĠ keĠdaĠ
tianĠ jinĠ
tiaoĠ zhengĠ
Ġxian ĠzaiĠ
fang ĠzaiĠ
poĠ huaiĠ
jun ĠdiĠ
tiĠ mingĠ
Ġfen ĠzhongĠ
xuanĠ ze
ĠdangĠzhongĠ luĠdiĠmianĠjiĠweiĠ
T Ġ
ĠerĠ shuiĠyuĠmianĠjiĠweiĠ
1998 ĠnianĠ
F Ġ
rong ĠyiĠ
chuĠ faĠ
ĠĠĠ 2022
ĠbeiĠ erĠ
zao ĠyuĠ
jingĠ dianĠ
chi ĠdeĠ
Ġ juĠliĠ
ba ĠxiĠ
Ġ haiĠyouĠ
Ġ jiĠshiĠ
guang ĠxiĠ
luo ĠdiĠ
gou ĠchengĠ
bianĠ jieĠ
ou ĠyuanĠ
xian ĠyouĠ
xianĠ changĠ
ĠxiangĠ gang
k Ġ
xi ĠyiĠ
shan ĠjiĠ
ĠfaĠ xianĠ
taiĠ yangĠ
fu ĠjiĠ
dao ĠjiĠ
ha ĠerĠ
ĠdeĠzhiĠ chiĠ
Ġyue ĠyouĠ
siĠ chuanĠ
yueĠ taiĠ
ĠĠĠxingĠzhengĠ quĠhuaĠ
ming ĠzhiĠ
Ġ ao
ĠyuĠ ciĠ
ĠzaiĠ zheĠ
duiĠ wuĠ
X Ġ
teng Ġ
cunĠ zhuangĠ
Ġ shou
Ġ jingĠguoĠ
Ġcong ĠerĠ
da ĠzhongĠ
touĠ ruĠ
wei ĠĠĠ
keng Ġ
ĠnianĠ beiĠ
you ĠweiĠ
cun ĠdeĠ
Ġ hou
Ġ saĠ
dengĠ luĠ
Ġ 9ĠyueĠ
da ĠzhiĠ
touĠ piaoĠ
ĠshiĠ liĠ
geĠ leiĠ
yuanĠ huiĠ
chang ĠyiĠ
Ġyue ĠweiĠ
ĠĠĠ 2017
ĠzhiĠ xiaĠ
gongĠ minĠ
yinĠ faĠ
biĠ yeĠyuĠ
Ġ pa
jian ĠzhongĠ
zhang ĠyuĠ
nuo ĠweiĠ
ĠĠĠ R
tuĠerĠ qiĠ
jia ĠyuĠ
fang ĠweiĠ
tu ĠdeĠ
tui ĠdongĠ
ĠshiĠ zhongĠguoĠ
gong ĠyuĠ
zhan ĠdiĠ
ge ĠyiĠ
hun ĠheĠ
ĠrenĠ menĠ
juĠ zhuĠ
baoĠ liuĠ
qianĠ shuĠ
jinĠ ru
wenĠ dingĠ
haiĠ daoĠ
leĠ siĠ
ganĠ ran
shu ĠheĠ
biĠ saiĠzhongĠ
ĠtiĠ zhangĠkeĠdaĠ
Ġ formulaĠ
er ĠrenĠ
ĠzaiĠ beiĠ
ziĠ ranĠ
xi ĠzhongĠ
ĠbuĠ fen
daĠ fuĠ
Ġ 7ĠyueĠ
wu ĠyuĠ
zi ĠliĠ
nanĠ beiĠ
jun ĠyiĠ
piĠ zhunĠ
ke ĠyuĠ
chu ĠjiĠ
qiĠ ziĠ
yongĠ huĠ
ĠweiĠfuĠ qiĠyuĠ
heng ĠliĠ
fangĠ wenĠ
zhuang ĠjiaĠ
tiĠ gaoĠ
Ġyou ĠjiĠ
ĠwoĠ menĠ
di ĠjiĠ
ma ĠkeĠ
ĠshiĠ quĠ
ĠnianĠ heĠ
chengĠ zuoĠ
Ġ bian
er ĠyuĠ
jian ĠheĠ
ang Ġ
ĠĠĠ 2016
ĠyiĠ daĠliĠ
ziĠ jinĠ
ĠyinĠ duĠ
xunĠ suĠ
Ġ biaoĠ
benĠ tuĠ
houĠ xuanĠrenĠ
xinĠ haoĠ
Ġ an
zhan ĠzhongĠ
mo ĠerĠ
xiao ĠliĠ
xianĠ luĠ
pinĠ paiĠ
Ġ tingĠ
jinĠ shuĠ
jieĠshuĠ houĠ
Ġ 12ĠyueĠ
ci ĠweiĠ
geĠ geĠ
Ġta ĠyiĠ
xin ĠyiĠ
guangĠ fanĠ
zhuĠ mingĠdeĠ
zhong ĠliĠ
shang ĠrenĠ
yong ĠyiĠ
xianĠ houĠ
zuiĠ chuĠ
yingĠ pianĠ
zhuĠ mingĠ
ceng ĠyuĠ
mouĠ xieĠ
Ġ xiuĠ
cheng ĠzhiĠ
Ġ 11ĠyueĠ
ĠdeĠyiĠ zhiĠ
jianĠ zaoĠ
wu ĠweiĠ
Ġ hai
jian ĠzaiĠ
jie ĠyouĠ
lingĠ waiĠ
ĠdeĠshiĠ quĠweiĠ
chuĠ zhanĠ
xiaĠ laiĠ
ĠĠĠdeĠ shiĠ
Ġ TheĠĠĠ
ĠzhiĠ nengĠ
Ġ hong
xueĠ huiĠ
buĠ tongĠdeĠ
Ġbing ĠyiĠ
Ġ tw
heĠ zuoĠ
jiangĠ suĠ
Ġ zhongĠdeĠ
sa ĠerĠ
ĠzhongĠguoĠ gongĠchanĠdangĠ
buĠ duiĠ
ĠjiaĠ shangĠ
dang ĠshiĠdeĠ
ĠĠĠ li
zhu ĠbuĠ
shan ĠdaĠ
shuiĠ pingĠ
Ġ 21Ġ
hans Ġ
ĠĠĠ erĠ
bo ĠerĠ
Ġ hansĠ
ke ĠheĠ
ĠdiĠ qu
mei ĠnianĠ
xuĠ qiuĠ
ĠjiĠ chengĠ
jianĠ shaoĠ
teĠ shuĠ
Ġtw Ġ
daĠ chengĠ
shan ĠdeĠ
ĠĠĠ O
jiaĠ zuĠ
Ġ 2011
ĠĠĠ D
ĠzheĠ xie
lv ĠweiĠ
ĠrenĠ leiĠ
paiĠ chuĠ
S Ġ
x Ġ
ĠĠĠ qingĠ
xiaoĠ shuo
aoĠ daĠliĠyaĠ
Ġri ĠyuĠ
nan ĠyiĠ
jieĠ rangĠ
gongĠ changĠ
siĠ keĠ
ĠdanĠ taĠ
ĠchengĠ yuanĠ
chang ĠheĠ
jieĠ keĠ
ziĠ xunĠ
ĠjiĠ guanĠ
jueĠ ding
ĠzaiĠ zhongĠguoĠ
sheĠhuiĠ zhuĠyiĠ
ĠĠĠ 2023
ĠyuĠ renĠ
zhu ĠyouĠ
zhuang ĠzhiĠ
faĠ chuĠ
ĠxiĠ baoĠ
jingĠ yanĠ
Ġ 2010ĠnianĠ
C Ġ
ĠĠĠ 2014
wa ĠerĠ
ĠjiĠ renĠ
yinĠ suĠ
suo ĠdeĠ
reng Ġ
ĠjieĠ muĠ
ti ĠshiĠ
1997 ĠnianĠ
yingĠ wenĠ
fen ĠzhongĠ
lu ĠzhiĠ
ĠhouĠ lai
Ġ eĠluoĠsiĠ
ĠxuĠ duoĠ
ĠĠĠ yuanĠ
tu ĠzhongĠ
kong ĠzhongĠ
sui ĠdaoĠ
chuĠ shengĠyuĠ
bei ĠzhiĠ
hua ĠheĠ
sha ĠsiĠ
yong ĠshiĠ
lingĠ tuĠ
Ġ menĠ
Ġ jingĠjiĠ
meiĠ geĠ
ĠĠĠ yuĠshiĠdeĠrenĠkouĠshuĠliangĠweiĠrenĠ
ĠĠĠ suoĠshuĠdeĠshengĠjiĠxuanĠquĠweiĠ
minĠ jianĠ
ĠĠĠdeĠ youĠzhengĠbianĠmaĠweiĠ
ĠĠĠyuĠ jieĠrangĠdeĠshiĠzhenĠ
ĠĠĠdeĠshiĠ quĠweiĠ
geng ĠjiaĠ
ĠguoĠ chengĠ
xiangĠ siĠ
Ġ 2019
ĠĠĠ 2015
zeng ĠzhangĠ
ĠfaĠ xingĠ
nan ĠdeĠ
ĠzaiĠ daĠ
keĠ chengĠ
jiang ĠdeĠ
kongĠ junĠ
huiĠ yingĠ
Ġ 2009ĠnianĠ
er ĠyiĠ
le ĠshiĠ
guĠ wenĠ
ĠheĠ xiĠ
ĠtaĠ yeĠ
ci ĠyiĠ
guangĠ gaoĠ
P Ġ
te ĠerĠ
ĠshiĠ meiĠguoĠ
1996 ĠnianĠ
c Ġ
Ġ hk
zhou ĠfuĠ
ĠshengĠ huo
Ġ wang
ti ĠyiĠ
ĠjiĠ youĠ
ĠdiĠ daĠ
jueĠ se
anĠ paiĠ
ĠĠĠ 2013
xianĠ xingĠ
ĠbingĠ jiangĠ
chao ĠshiĠ
guanĠ biĠ
hanĠ shuĠ
zong ĠbuĠ
tiĠ shengĠ
feiĠ jianĠzhiĠ
Ġ zhiĠshiĠ
woĠ menĠ
Ġ zhuangĠ
ĠĠĠ xinĠ
fang ĠbuĠ
da ĠyuĠ
xu ĠkeĠ
lang ĠdeĠ
minĠzhuĠ dangĠ
Ġ 6ĠyueĠ
zhuang ĠshiĠ
jiaĠ ru
Ġbing ĠyouĠ
zhengĠfu ĠdeĠ
quanĠ mianĠ
Ġhk Ġ
banĠ gongĠ
ĠdeĠguoĠ jiaĠ
Ġ feng
jun ĠjiĠ
xingĠ taiĠ
cheĠ zhan
ĠerĠ gaiĠ
ĠheĠ erĠ
bao ĠliĠ
diĠ guoĠ
jieĠ gou
dui ĠshiĠ
tian ĠdeĠ
shanĠ mai
ju ĠbuĠ
ling ĠdeĠ
fo Ġ
rui ĠdianĠ
dang ĠyuĠ
luo ĠkeĠ
wei ĠyiĠgeĠ
junĠ gongĠ
dang ĠzhongĠ
weiĠ zhiĠ
tuĠ shuĠguanĠ
neiĠ luĠ
Ġ laiĠziĠ
hua ĠzhongĠ
zhuan ĠjiaĠ
ĠjiĠ nianĠ
ĠyueĠ taiĠ
chengĠ xuĠ
Ġ V
huiĠ beiĠ
seĠ lieĠ
shi ĠĠĠ
shan ĠshiĠ
yunĠ xuĠ
bingĠ meiĠyouĠ
jiuĠ dianĠ
ge ĠzhiĠ
ĠkeĠ xueĠ
ĠqiĠ zhongĠyiĠ
ĠĠĠ xiangĠ
1992 ĠnianĠ
siĠ xiangĠ
feiĠjianĠzhiĠ diĠquĠ
Ġ 5ĠyueĠ
dai ĠyouĠ
zuĠ chengĠdeĠ
ba ĠweiĠ
faĠ lv
ĠxiĠ jieĠ
Ġ maoĠ
jingĠ zhengĠ
ĠyiĠ jiaĠ
dianĠ nao
guo ĠweiĠ
jinĠ paiĠ
sanĠ jiaoĠ
chang ĠyuĠ
tan ĠkeĠ
ĠliĠ buĠ
ĠyouĠ qiĠshiĠ
muĠ qinĠ
tong ĠyuĠ
bing ĠshiĠ
huanĠ yingĠ
Ġ 2018
Ġ xuanĠbuĠ
ma ĠerĠ
xiaĠ jiangĠ
moĠxiĠ geĠ
Ġ zhengĠfuĠ
geĠ lan
yanĠjiuĠ yuanĠ
Ġwan ĠrenĠ
Ġ qian
shuĠ xueĠ
jiu ĠdeĠ
neiĠ geĠ
ĠshiĠjieĠ beiĠ
on Ġ
ĠliĠ ya
hua ĠrenĠ
zhuan ĠyiĠ
gongĠ siĠdeĠ
ĠgongĠ zuoĠ
jun ĠyouĠ
jiu ĠzhiĠ
ĠheĠ diĠ
mingĠ mingĠweiĠ
ĠĠĠjiaĠ zuĠ
to ĠĠĠ
ĠjiĠ chuĠ
shengĠ zhangĠ
laiĠ daoĠ
ĠdiĠ xiaĠ
beiĠrenĠ weiĠshiĠ
Ġ lieĠ
deng ĠweiĠ
yingĠ yunĠ
Ġ chuĠyuĠ
xiu ĠgaiĠ
mingĠ lingĠ
shuo ĠmingĠ
huiĠ zhangĠ
que ĠfaĠ
yongĠ laiĠ
Ġ na
dui ĠqiĠ
hu ĠdeĠ
ziĠ muĠ
xunĠ huiĠ
Ġ chaĠ
shouĠ fuĠ
dai ĠliĠ
ĠdanĠ youĠyuĠ
wen ĠshiĠ
ĠbuĠ tongĠdeĠ
Ġ 20
ĠĠĠ zhĠ
maoĠ qiuĠ
Ġ minĠguoĠ
ĠzaiĠ meiĠguoĠ
ĠshiĠyiĠ ge
ĠdeĠdiĠ erĠ
ĠweiĠ weiĠ
Ġ rangĠ
zhu ĠjiĠ
gongĠ juĠ
ĠĠĠand ĠĠĠ
ta ĠyuĠ
ruan Ġ
Ġyin ĠyueĠ
Ġ 4ĠyueĠ
chengĠweiĠ leĠ
liao ĠjieĠ
ĠtaĠ beiĠ
yeĠ beiĠ
yin ĠdeĠ
chang ĠdiĠ
feiĠ lvĠ
que ĠrenĠ
faĠ anĠ
juĠ zhangĠ
ĠĠĠ jieĠzhiĠ
caiĠ quĠ
shenĠ tiĠ
beiĠ erĠ
changĠ pianĠ
ĠtaĠ haiĠ
ĠshangĠ haiĠ
ĠzhongĠguoĠ renĠminĠ
Ġ kangĠ
shou ĠzhongĠ
cheĠ xiaoĠ
canĠjiaĠ leĠ
1995 ĠnianĠ
Ġ 2016
boĠ fangĠ
chanĠ pin
Ġ kuanĠ
ĠerĠ fuĠ
jiaoĠ lianĠ
xie ĠrenĠ
che ĠdeĠ
zhuĠ zuoĠ
banĠ faĠ
fu ĠyouĠ
su ĠweiĠ
chuanĠ boĠ
Ġ 23
ĠyiĠ juĠ
ĠyiĠ nianĠ
ĠĠĠ H
zhe ĠliĠ
huaĠ yuanĠ
ma ĠsiĠ
1994 ĠnianĠ
ĠweiĠ renĠ
Ġ quanĠguoĠ
ĠĠĠ zhongĠguoĠ
sui ĠjiĠ
ĠliĠ ru
tieĠ lu
dian ĠqiĠ
liang ĠshiĠ
qiuĠ huiĠ
Ġ taoĠ
ĠweiĠyuanĠ hui
ma ĠdeĠ
ĠqiĠ laiĠ
faĠ dianĠ
wangĠ qiuĠ
ze ĠyouĠ
baiĠ seĠ
ĠshiĠyiĠ nianĠ
yueĠ hanĠ
ju ĠheĠ
tai ĠjiĠ
jieĠ hunĠ
shenĠ jingĠ
gu ĠdeĠ
chuĠ xiĠ
zhanĠ taiĠ
wanĠ shangĠ
Ġ queĠ
ĠdiĠ tieĠ
ling ĠbuĠ
ĠzhiĠ diĠ
ĠyouĠ xieĠ
ĠyiĠ zaiĠ
ziĠ zhuĠ
Ġ sheĠjiĠ
ye ĠheĠ
huaĠ shengĠ
ĠxingĠ dongĠ
chanĠ shengĠdeĠ
ĠrenĠminĠ zhengĠfuĠ
ĠweiĠ nengĠ
liang ĠrenĠ
ĠyouĠ xiaoĠ
zuĠ jianĠ
lingĠ xianĠ
zhaoĠ kaiĠ
2020ĠnianĠ meiĠguoĠrenĠkouĠpuĠchaĠdeĠshuĠjuĠ
xue ĠheĠ
maĠlai ĠxiĠyaĠ
Ġ daiĠbiaoĠ
leĠ taĠ
Ġ ka
Ġ caoĠ
chao ĠdeĠ
ĠerĠ buĠ
tongĠ cheĠ
yanĠchangĠ huiĠ
xu ĠliĠyaĠ
chang ĠzaiĠ
yaoĠ wuĠ
qin ĠshiĠ
huoĠ jianĠ
ti ĠzhongĠ
ruĠ xuanĠ
kuo ĠdaĠ
ĠzaiĠ xiĠ
ĠxiĠ laĠ
chuĠ xianĠzaiĠ
yinĠ du
lieĠ biaoĠ
ĠĠĠ 2025
15 Ġ
Ġ yingĠyuĠ
ĠĠĠ nian
ĠliĠ shuĠ
geĠ daĠ
geĠ erĠ
xueĠ xiao
ĠĠĠ 2024
xiangĠ xiĠ
ĠgongĠ chengĠ
xin ĠjiĠ
ĠfuĠ jinĠ
gua Ġ
ĠĠĠ qianĠ
ĠdaĠ buĠfenĠ
shanĠxiĠ shengĠ
xing ĠzhongĠ
dai ĠbuĠ
tai ĠshiĠ
siĠ teĠ
changĠ pian
kong ĠbuĠ
ĠshiĠdeĠ yiĠ
ĠzhiĠ duĠ
huĠ beiĠ
lv ĠxingĠ
tuo ĠliĠ
gongĠ huiĠ
shen ĠshiĠ
cheng ĠliĠdeĠ
daĠ buĠfenĠ
I Ġ
te ĠĠĠ
ĠweiĠ liĠ
aoĠ diĠliĠ
guiĠ zeĠ
Ġliang ĠrenĠ
daĠ luĠdeĠ
ĠC Ġ
lao ĠdongĠ
shangĠ hai
1991 ĠnianĠ
ĠyiĠ tongĠ
jing ĠyuĠ
zhuang ĠdeĠ
cu ĠjinĠ
zhouĠ bianĠ
tong ĠbuĠ
Ġ qiaoĠ
pei ĠyinĠ
xingĠ xiangĠ
ci ĠzaiĠ
fen ĠliĠ
Ġ lu
zhuangĠ kuangĠ
ĠliĠshiĠ shangĠ
long ĠdeĠ
suan ĠjiĠ
xingĠ quĠ
D Ġ
ĠmingĠ chaoĠzhengĠzhiĠrenĠwuĠ
3 ĠnianĠ
ĠĠĠ J
wuĠkeĠ lan
jin ĠbuĠ
bao ĠshiĠ
daiĠbiao ĠdaĠhuiĠ
R Ġ
wu ĠheĠ
ĠzhiĠ ziĠ
nan ĠshiĠ
zhuĠ changĠ
pei ĠheĠ
ĠzheĠ jiangĠ
ĠĠĠ a
ping ĠweiĠ
ze ĠweiĠ
teĠ seĠ
suiĠ houĠ
xiaĠjiĠ aoĠlinĠpiĠkeĠyunĠdongĠhuiĠ
22 Ġ
jiaoĠ xueĠ
wan ĠrenĠ
ĠjiĠ erĠ
xie ĠshiĠ
puĠ bianĠ
ĠĠĠ W
da ĠheĠ
zhe ĠzaiĠ
piaoĠ fangĠ
la ĠjiĠ
ĠshiĠ tuĠ
Ġ 3ĠyueĠ
Ġ yaoĠqiuĠ
wenĠ xianĠ
luo ĠjiĠ
feiĠ zhouĠ
ĠĠĠ xiaoĠ
lian ĠrenĠ
ĠxiĠ juĠ
sa ĠsiĠ
ĠweiĠ heĠ
anĠ quan
Ġ 2011ĠnianĠ
dao ĠzhongĠ
zhuan ĠxiangĠ
ĠfuĠ jianĠ
kaoĠ lvĠ
le ĠĠĠ
sheĠ jiĠdeĠ
wangĠ chaoĠ
Ġ nai
jie ĠrenĠ
mingĠ xianĠ
16 Ġ
ĠweiĠ wuĠ
Ġ panĠ
zhuĠ zhangĠ
gong ĠzhiĠ
ĠbuĠ keĠ
ĠxiĠ buĠ
zheng ĠheĠ
tongĠ daoĠ
m ĠĠĠ
Ġ sun
ĠweiĠ xingĠ
4 ĠnianĠ
Ġ mai
xu ĠzaiĠ
biaoĠ mianĠ
Ġ nvĠxingĠ
ĠĠĠ guoĠ
Ġ Ð
kou ĠweiĠ
meiĠ guoĠdeĠ
lingĠ daoĠrenĠ
Ġ jiaoĠyuĠ
ĠweiĠ laiĠ
biĠ sai
qiĠzhongĠyiĠ zhongĠ
Ġ 2021
zhao ĠdaoĠ
hu ĠyuĠ
siĠ lingĠ
1993 ĠnianĠ
jingĠ cha
fangĠ wuĠ
hongĠ seĠ
1988 ĠnianĠ
ĠliĠ miĠ
ĠyuĠ leĠ
yuanĠ gongĠ
zuiĠ hou
ĠshiĠweiĠ leĠ
ĠdeĠzhiĠ wuĠ
ĠĠĠ congĠ
hun ĠyinĠ
yunĠ dong
caiĠ liaoĠ
ĠchengĠ gongĠ
Ġ sĠĠĠ
ĠweiĠ huiĠ
ĠxiĠ ya
ĠjiĠ huiĠ
Ġ2001ĠnianĠ renĠkouĠ
dongĠ nanĠbuĠ
ĠnianĠ qianĠ
ĠyouĠ buĠ
dongĠ beiĠbuĠ
Ġ 2015
hua ĠjiĠ
fenĠ buĠyuĠ
i Ġ
jun ĠyuĠ
shou ĠzhiĠ
Ġ tuiĠ
fu ĠzaiĠ
bian ĠshiĠ
yingĠ gaiĠ
ĠxingĠ qiĠ
ĠĠĠ 2012
ti ĠzhiĠ
ĠrenĠ shuĠ
daĠ chenĠ
bao ĠzhiĠ
Ġ hanĠguoĠ
ĠĠĠ V
siĠ geĠ
feiĠ chuĠ
ĠtiĠ gongĠ
Ġ 2005ĠnianĠ
jin ĠyouĠ
25 Ġ
dianĠ huaĠ
ge ĠheĠ
ĠbuĠ menĠ
Ġ zhong
bao ĠyuĠ
ĠyiĠ ban
Ġ Ma
ruan ĠjianĠ
sao Ġ
Ġ guanĠyuĠ
yuanĠ xingĠ
wuĠ taiĠ
M Ġ
ling ĠdiĠ
chi ĠyouĠ
duiĠ zhangĠ
tui ĠjinĠ
zhuĠ jueĠ
gengĠ duoĠ
Ġyin ĠerĠ
Ġsui ĠdeĠ
faĠxianĠ leĠ
ĠnianĠ diĠ
Ġ quan
chuĠ laiĠ
tiĠ daoĠ
yongĠ zuoĠ
suo ĠzaiĠ
zhengĠ changĠ
jue ĠshiĠ
wuĠ zhuangĠ
1Ġ haoĠ
guoĠjiĠ jiĠ
mei ĠdeĠ
yaĠliĠ shanĠdaĠ
ben ĠdiĠ
bian ĠxingĠ
E Ġ
ĠdaĠ chengĠ
gui ĠdeĠ
ĠerĠshuiĠyuĠmianĠjiĠweiĠ 0
riĠ junĠ
Ġ zaoĠchengĠ
yin ĠdiĠ
jiao ĠyouĠ
bo ĠsiĠ
douĠ huiĠ
poĠ huai
tai ĠrenĠ
dongĠ fangĠ
tongĠ yangĠ
jiao ĠdaĠ
huoĠ zheĠ
ĠpingĠfangĠ miĠ
ĠzaiĠ jiaĠ
ĠdaĠ liangĠ
haiĠ waiĠ
tuan ĠdeĠ
re ĠĠĠ
mingĠ xingĠ
qingĠ baoĠ
anĠ huiĠ
nei ĠyouĠ
duiĠ waiĠ
caoĠ zuoĠ
jieĠ shaoĠ
qianĠ wang
Ġ reng
Ġsui ĠzheĠ
Ġ 2017
jieĠ mu
yeĠ huiĠ
xia ĠyouĠ
ĠheĠ pingĠ
ĠerĠ gaiĠdiĠ
canĠ mou
Ġ 2020
Ġ 2014
Ġ dou
ĠĠĠ zaoĠnianĠ
xiang ĠyiĠ
on ĠĠĠ
yongĠ tuĠ
Ġ 2013
qiang ĠdeĠ
ĠyuĠ heĠ
chuĠ kouĠ
ĠyiĠ duĠ
ĠzhiĠ dingĠ
gaiĠ shanĠ
aoĠyunĠ huiĠ
biao ĠdeĠ
la ĠheĠ
18 Ġ
ĠxiĠ tong
ĠdeĠshiĠ jieĠ
gao ĠjiaĠ
xiĠ nanĠ
ĠyueĠ nanĠ
duiĠ xiangĠ
2 ĠnianĠ
xianĠ jinĠ
yanĠ shenĠ
queĠzhenĠ bingĠliĠ
dun ĠdeĠ
ĠjiaĠ naĠdaĠ
ĠbaoĠ hanĠ
mei ĠliĠ
san ĠjiĠ
zuoĠ quĠ
ĠshiĠ daĠ
leĠ daĠ
xiaoĠ quĠ
junĠ quĠ
dengĠ shangĠ
Ġ xiu
Ġ shengĠyuĠ
zhengĠ tiĠ
jia ĠzaiĠ
chang ĠyouĠ
leĠ taĠdeĠ
xiaĠ xiaĠdeĠyiĠgeĠ
longĠ jiangĠ
geĠ lunĠ
Ġye ĠyouĠ
duo ĠrenĠ
jue ĠyiĠ
shuĠ ruĠ
haiĠ xiaĠ
Ġ dianĠyingĠ
guan ĠshiĠ
sui ĠzhuĠ
nie Ġ
Ġxian ĠrenĠ
yun ĠshiĠ
ĠqiĠ zaiĠ
yunĠ zuoĠ
Ġri ĠdeĠ
19 ĠshiĠjiĠ
ju ĠyiĠ
13 Ġ
ĠweiĠ keĠ
gouĠ zaoĠ
banĠshiĠ chuĠ
ĠerĠ yanĠ
Ġnan ĠzhiĠ
zhan ĠzhiĠ
liu ĠzaiĠ
ĠĠĠ Ma
ĠĠĠ zengĠ
zuo ĠrenĠ
dianĠ cheĠ
Ġ saiĠjiĠ
faĠ shouĠ
gaoĠsuĠ gongĠluĠ
ĠnianĠ laiĠ
kang ĠriĠ
shuĠ yuanĠ
jia ĠyouĠ
du ĠheĠ
fei ĠliĠ
junĠ guanĠ
miĠ miĠ
1990 ĠnianĠ
kaiĠ zhanĠ
ĠshiĠwuĠ keĠ
renĠ daĠ
ĠzhongĠ zaiĠ
Ġ 100
shang ĠyuĠ
bin ĠhaiĠ
ĠdongĠ linĠ
Ġ 2010
shenĠ me
ĠwanĠ meiĠyuanĠ
Ġ shaoĠ
xiaĠ ling
tian ĠshiĠ
chuang ĠjianĠ
jiangĠ huiĠ
liangĠ ciĠ
lingĠ xiuĠ
zhuang ĠbeiĠ
dongĠ zuoĠ
Ġ niu
chuan ĠzhiĠ
chai ĠchuĠ
senĠ linĠ
Ġ chengĠliĠ
shou ĠyiĠ
ĠqiĠ xiangĠ
shouĠ zhangĠ
ĠtaiĠ wan
caiĠ zhengĠ
an ĠdaĠ
ya ĠkeĠ
biĠ mianĠ
gu ĠliĠ
ĠqiĠ ziĠ
touĠ piao
shanĠ quĠ
Ġ zhengĠzhiĠ
huiĠ yuanĠ
ĠĠĠ siĠ
ĠjuĠ xingĠ
Ġ po
Ġ jianĠyuĠ
bei ĠshiĠweiĠ
tu ĠxingĠ
qin ĠziĠ
ĠerĠ tongĠ
juĠ qingĠ
kaĠ luoĠ
Ġ qi
ĠnianĠ1ĠyueĠ 1ĠriĠ
shouĠ luĠ
Ġ hengĠ
wuĠ siĠ
ĠtaiĠ yangĠ
zuiĠ gao
hou ĠshiĠ
zhe ĠbuĠ
waiĠ jiaoĠbuĠ
ĠyiĠ meiĠyuanĠ
deng ĠdeĠ
liu ĠdeĠ
ĠsiĠ lingĠ
ceĠ liangĠ
1989 ĠnianĠ
jingĠ xuanĠ
ĠmeiĠ geĠ
hui ĠzhongĠ
zhangĠ guanĠ
fanĠ zuiĠ
ĠjieĠ shouĠ
5 ĠnianĠ
b Ġ
ban ĠliĠ
Ġ huan
Ġ 2007ĠnianĠ
ĠĠĠ dangĠ
si ĠyiĠ
fu ĠweiĠ
suo ĠshiĠ
bingĠ ruĠ
ĠyouĠ keĠ
xiangĠ zhengĠ
ĠerĠ ziĠ
shou ĠxiĠ
geng ĠweiĠ
daiĠ laiĠ
ming ĠzhongĠ
baoĠ shouĠ
ĠdongĠ beiĠ
fanĠweiĠ neiĠ
pian ĠdeĠ
3 ĠgeĠ
mian ĠshiĠ
meng ĠdeĠ
guoĠ wangĠ
taiĠ fengĠ
ri ĠzhiĠ
ĠerĠ chengĠ
huĠ nanĠ
Ġ 2008ĠnianĠ
ĠqiĠ xiaĠ
chuĠ daoĠ
zun Ġ
ĠzaiĠ duĠ
Ġ sheĠhuiĠ
ĠyiĠ houĠ
ĠjieĠ keĠ
ĠshengĠhuo ĠxiĠ
yan ĠxiĠ
fangĠ mianĠdeĠ
ren ĠliĠ
can ĠyiĠyuanĠ
kaiĠ tongĠ
Ġ yongĠyouĠ
taiĠ ziĠ
junĠ zhuĠ
qingĠ chuĠ
dingĠ juĠ
gongĠ zhuĠ
shengĠ yinĠ
Ġ sheĠyouĠ
hua ĠheĠwuĠ
zhan ĠqiĠjianĠ
Ġ 2012
jin ĠweiĠ
1984 ĠnianĠ
zhou ĠqiĠ
zu ĠfuĠ
jianĠ jieĠ
ĠsiĠ wangĠ
liang ĠjiĠ
pi ĠfuĠ
fei ĠdeĠ
wai ĠbuĠ
xiangĠ huĠ
yingĠ yeĠ
guanĠ chaĠ
xingĠbuĠ mingĠ
dui ĠyouĠ
zhuĠyao ĠdeĠ
lei ĠdaĠ
du ĠliĠdeĠ
Ġ sha
Ġ lao
Ġ juĠyouĠ
zhuan ĠdeĠ
Ġ Ã
ĠĠĠ mingĠ
lv ĠdeĠ
xiĠ juĠ
Ġ canĠjiaĠ
bing ĠdeĠ
jiang ĠjiĠ
er ĠyueĠ
chang ĠzhiĠ
maĠ laĠ
gouĠ maiĠ
ĠshengĠhuoĠxiĠ xingĠbuĠmingĠ
ĠyiĠ daiĠ
tian ĠqiĠ
e ĠĠĠ
que ĠdeĠ
tongĠ paiĠ
xinĠ yangĠ
ni ĠerĠ
Ġnian ĠĠĠ
faĠ xingĠdeĠ
zuoĠ biaoĠweiĠ
jiangĠ lingĠ
touĠ luĠ
jiuĠ longĠ
anĠ zhuangĠ
ĠwuĠ faĠ
ĠĠĠ beiĠjingĠ
liangĠ xiangĠ
jiaĠliĠ fuĠ
xinĠ xingĠ
huoĠ shanĠ
zuĠ zhiĠdeĠ
keĠneng ĠshiĠ
jing ĠzhongĠ
cheng ĠheĠ
guanĠ jianĠ
taiĠ beiĠshiĠ
Ġ dong
Ġ xiao
Ġ gongĠyouĠ
lu ĠjiĠ
jiuĠ duĠ
ĠĠĠciĠ waiĠ
Ġ yongĠyuĠ
jieĠ sanĠ
ruĠ qinĠ
Ġ zhongĠshiĠ
kong ĠqiĠ
ĠzaiĠ ci
Ġyue ĠzhongĠ
liang ĠzhiĠ
bai ĠrenĠ
fangĠ yanĠ
lunĠ wenĠ
er ĠzhiĠ
zhuĠ yiĠdeĠ
ĠzhongĠguoĠ daĠluĠ
shang ĠbuĠ
zheĠ xie
chuanĠ shuoĠ
keĠyiĠ zaiĠ
1985 ĠnianĠ
kaoĠ guĠ
houĠ beiĠ
Ġ cha
ĠchuĠ xianĠ
Ġ yang
qu ĠjiĠ
fuĠ jinĠdeĠ
Ġ 2009
zhangĠ aiĠ
Ġ kai
ai ĠjiĠ
chu ĠbuĠ
Ġyin ĠqiĠ
o Ġ
tong ĠnianĠ
man ĠdeĠ
jingĠ fangĠ
ĠshiĠshiĠ jieĠ
xinĠjiaĠ poĠ
Ġ duanĠ
mo ĠsiĠkeĠ
ĠĠĠjuĠ qingĠ
Ġ canĠyuĠ
lian ĠzaiĠ
yuĠ yanĠ
ĠbiĠ ruĠ
2 ĠrenĠ
cheng ĠnianĠ
kao ĠjinĠ
3 ĠrenĠ
Ġ diĠshiĠ
qian ĠrenĠ
ĠweiĠ ciĠ
zhanĠ tingĠ
guiĠ zuĠ
1 ĠliĠ
ming ĠrenĠ
yunĠ nanĠ
zhongĠ dianĠ
zuoĠ zheĠ
guangĠdongĠ shengĠ
ĠshiĠ riĠbenĠ
muĠ qin
Ġ qiĠshiĠ
ĠsiĠ chuanĠ
ĠgongĠ tongĠ
Ġ 2008
quĠ leĠ
zhe ĠweiĠ
ĠguoĠ chengĠzhongĠ
baoĠ zhangĠ
taiĠ duĠ
ĠchuĠ shengĠyuĠ
ĠteĠbie ĠshiĠ
Ġ 1949
Ġ 2013ĠnianĠ
zhou ĠjiĠ
gao ĠdaĠ
ĠrenĠ mingĠ
zong ĠshiĠ
ĠshiĠjiĠ shangĠ
ĠĠĠ ben
yinĠ qingĠ
changĠ jianĠdeĠ
suoĠ shuĠ
shuangĠ fangĠ
qu ĠyiĠhuiĠ
yin ĠheĠ
jiang ĠzaiĠ
ĠyouĠ ciĠ
quanĠ zhangĠ
xunĠ yangĠ
faĠ huiĠ
ĠdiĠ wuĠ
yingĠ xiongĠ
Ġ 50
hua ĠyiĠ
xiuĠ zhengĠ
hua ĠzhiĠ
gan ĠbuĠ
ĠshiĠdeĠ guoĠ
fang ĠyiĠ
youĠ xianĠ
ĠqiĠ xiĠ
le ĠyuĠ
tiao ĠliĠ
Ġ Î
chu ĠzaiĠ
Ġ zengĠ
cuo ĠwuĠ
ĠjiaĠ tingĠ
chuĠ yanĠ
ĠĠĠdiĠ fangĠ
ĠguoĠ huiĠ
bianĠ juĠ
Ġ cai
sui ĠshiĠ
ĠyiĠ xiaoĠshiĠ
ĠxueĠ xiaoĠ
shengĠ taiĠ
ĠbingĠ duĠ
shouĠ xiangĠ
wanĠ gongĠ
nengĠ liangĠ
hu ĠbuĠ
ban ĠbuĠ
yuanĠ zeĠ
faĠ lanĠxiĠ
ĠwuĠkeĠ lanĠ
Ġ su
lao ĠdeĠ
ĠyueĠ tuanĠ
zhouĠ ciĠshiĠ
taoĠ taiĠ
ĠĠĠ qiĠtaĠ
shu ĠliĠ
xiangĠ guanĠdeĠ
Ġ dui
chu ĠzhiĠ
zui ĠyouĠ
feng ĠweiĠ
luĠ kouĠ
luĠ yingĠ
qingĠ huaĠ
ĠwanĠ yuanĠ
ĠĠĠ 2010
ĠnianĠ kaiĠshiĠ
ĠpingĠ junĠ
ĠĠĠ diĠerĠ
guĠ fen
keĠdeĠ qiĠzhongĠyiĠzhongĠ
ĠĠĠ meiĠguoĠ
hui ĠbuĠ
ĠweiĠ chiĠ
qingĠ qiuĠ
zhi ĠdeĠshiĠ
faĠ guanĠ
yaoĠ qiu
dangĠ diĠdeĠ
kaiĠ sheĠ
he ĠĠĠ
huan ĠchengĠ
30 Ġ
ĠzhongĠhuaĠrenĠminĠgongĠheĠguoĠ zhengĠzhiĠrenĠwuĠ
r ĠĠĠ
si ĠzhiĠ
ĠjiĠ nian
ĠheĠ xinĠ
huoĠ xingĠ
gaiĠ chengĠ
ĠshiĠ yong
ĠĠĠ danĠ
ling ĠrenĠ
heĠ xinĠ
Ġ 2022
han ĠyouĠ
hen ĠdaĠ
ĠheĠ zhongĠ
meiĠ shuĠ
dao ĠbuĠ
han ĠyuĠ
zhuang ĠjiĠ
cui ĠhuiĠ
luĠ keĠ
ĠshiĠ geĠ
chengĠ keĠ
Ġwan ĠjiaĠ
paiĠ mingĠdiĠ
xia ĠweiĠ
ĠĠĠ 2011
qiangĠ diaoĠ
Ġ 2006ĠnianĠ
en ĠshengĠ
dang ĠweiĠ
Ġ maiĠkeĠ
zheng ĠweiĠ
xiĠ laĠ
yaĠ junĠ
Ġ xiong
yuan ĠzhongĠ
bei ĠweiĠ
ĠyiĠ zuoĠ
zuiĠ gaoĠdeĠ
tianĠ jingĠ
niĠyaĠ zhouĠ
neng ĠzaiĠ
gongĠ yingĠ
Ġ henĠ
ji ĠĠĠ
xiaĠ quĠ
suoĠ chuĠdeĠ
canĠ kaoĠ
ya ĠyiĠ
chengĠ benĠ
dangĠ juĠ
tiĠyuĠ changĠ
6 ĠnianĠ
xie ĠerĠ
shangĠ haiĠshiĠ
sheng ĠyouĠ
suo ĠzhiĠ
14 Ġ
ĠjiĠ buĠ
tuĠ poĠ
ĠyeĠ jiuĠshiĠ
ĠA Ġ
ĠdaĠ duoĠ
teĠ dingĠ
dengĠ dengĠ
kun ĠnanĠ
renĠ yuanĠ
ĠdaĠ xingĠ
yinĠ ruĠ
aĠlaĠ boĠ
Ġ qing
tai ĠzhongĠ
bai ĠdeĠ
xieĠ daoĠ
n ĠĠĠ
xiang ĠyouĠ
fou Ġ
ĠyiĠ fuĠ
Ġ meng
Ġ wenĠhuaĠ
jing ĠzhiĠ
ĠjiĠ duĠ
keĠ xueĠyuanĠ
tan ĠdeĠ
shun ĠliĠ
huoĠ banĠ
fenĠbuĠ zaiĠ
7 ĠnianĠ
huan ĠdeĠ
xiu ĠfuĠ
xianĠ shengĠ
ĠdaĠ fuĠ
laĠ dingĠ
Ġsui ĠzhuĠ
xiĠ baoĠ
zhanĠ xianĠ
ĠĠĠ 1Ġ
cheng ĠguoĠ
le ĠqiĠ
jun ĠzhiĠ
qingĠ xingĠ
ĠxiĠbanĠ yaĠ
ĠĠĠ 3
xiang ĠweiĠ
lai ĠshiĠ
daĠ huiĠ
Ġxiang ĠnianĠ
ĠĠĠ aĠ
wangĠ yuanĠ
ĠxiĠ erĠ
ruĠ qin
ĠbuĠ jinĠ
ĠkeĠ erĠ
Ġ 2012ĠnianĠ
wuĠ ziĠ
duo ĠweiĠ
chuan ĠdeĠ
haiĠ yangĠ
jing ĠheĠ
xiaoĠ yuanĠ
kaiĠ fa
zhongĠguoĠ daĠluĠdeĠ
ke ĠyouĠ
haiĠ pingĠmianĠ
gai ĠshiĠ
suo ĠweiĠ
xiu ĠjianĠ
shengĠ chuĠ
ĠtaĠcengĠ daiĠbiaoĠ
ganĠran ĠzheĠ
ĠheĠ lanĠ
tongĠ mengĠ
qiangĠ lieĠ
heiĠ seĠ
w Ġ
ze ĠzaiĠ
ĠriĠ junĠ
1 ĠrenĠ
ĠĠĠ yinĠ
xue ĠyuĠ
lai ĠyueĠ
1980 ĠnianĠ
Ġzu ĠfuĠ
Ġ00 Ġ
hongĠ zha
ciĠshiĠjieĠdaĠ zhanĠ
jia ĠweiĠ
tai ĠyuĠ
zui ĠweiĠ
shouĠ gouĠ
zhaoĠ pianĠ
le ĠzaiĠ
yin ĠliĠ
chui Ġ
yaĠ meiĠ
Ġ U
zhou ĠzhiĠ
zhen ĠyuĠ
jing ĠyiĠ
guĠ daiĠ
geiĠ leĠ
li ĠyuĠ
zhu ĠzhiĠ
jiang ĠzhiĠ
zu ĠyiĠ
huang ĠhouĠ
1986 ĠnianĠ
renĠ leiĠ
dangĠ yuanĠ
ĠtongĠshiĠ gaiĠdiĠ
4 ĠrenĠ
ĠĠĠ 17
bei ĠyuĠ
zhang ĠweiĠ
te ĠxingĠ
daĠ jiangĠ
ĠdeĠjiĠ chuĠ
ĠguangĠ dongĠ
hou ĠweiĠ
ding ĠqiĠ
ce ĠĠĠ
manĠ zuĠ
Ġ liaoĠ
zuĠqiuĠ yunĠdongĠyuanĠ
boĠshiĠ xueĠweiĠ
4 ĠgeĠ
Ġ kuĠ
qiang ĠzhiĠ
beng Ġ
beiĠ jingĠshiĠ
shangĠ changĠ
nongĠ minĠ
neiĠluĠ shengĠfenĠ
xiang ĠheĠ
jiao ĠzhiĠ
liang ĠguoĠ
chengĠ baoĠ
jiuĠ huiĠ
benĠ shenĠ
cheng ĠshiĠdeĠ
zhen ĠjiĠ
keĠ fuĠ
ĠhuoĠ zheĠ
Ġa ĠerĠ
chu ĠyouĠ
bang ĠdeĠ
Ġ tieĠ
st ĠĠĠ
ĠzhongĠ ziĠ
xunĠ zhangĠ
chuangĠ banĠ
xiaĠling ĠshiĠjianĠ
Ġ pu
tong ĠweiĠ
jing ĠzaiĠ
duan ĠshiĠ
Ġ Z
mo ĠsiĠ
Ġ zhiĠyiĠ
le ĠyouĠ
bianĠ haoĠ
ĠmuĠ qian
ĠbuĠ diĠ
ke ĠzhiĠ
kuoĠ zhanĠ
Ġmei ĠnianĠ
ri ĠdeĠ
tang ĠdeĠ
ĠrenĠ qiĠ
xiangĠ xinĠ
luĠ xuĠ
min ĠdiĠ
shangĠ xiaĠ
jiu ĠyiĠ
zao ĠzaiĠ
diĠ qiuĠ
Ġ di
19 Ġ
wo ĠdeĠ
ĠbuĠ luoĠ
wuĠ daoĠ
ta ĠweiĠ
jun ĠheĠ
wan ĠdeĠ
juĠ daĠ
ĠĠĠjianĠ jieĠ
Ġ 10Ġ
mu ĠzhiĠ
ĠjiĠ fuĠ
renĠ gongĠ
ĠĠĠ 2
gao ĠzhiĠ
fan ĠzhiĠ
xuan ĠdeĠ
xiĠ wangĠ
geĠ ming
tianĠ tiĠ
weiĠyiĠ yiĠ
Ġ kanĠ
ĠĠĠ jieĠ
chi ĠrenĠ
muĠ niĠ
Ġ 500
1945 ĠnianĠ
wuĠ zhengĠzhuangĠ
ĠqiĠ cheĠ
zheĠ xueĠ
suoĠ youĠdeĠ
tanĠ panĠ
ĠshiĠyiĠge ĠweiĠyuĠ
hui ĠguoĠ
nanĠ fangĠ
liangĠ mingĠ
miĠ yaĠ
ĠxianĠ houĠ
zi ĠzhongĠ
Ġ 1950
qu ĠzhiĠ
xiĠ yaĠ
jiangĠ jinĠ
yueĠ nanĠ
ĠĠĠdiĠfangĠ ziĠliaoĠ
dian ĠheĠ
ya ĠheĠ
rong ĠheĠ
xiangĠ biĠ
shaĠ haiĠ
Ġ 2014ĠnianĠ
ĠĠĠ 2Ġ
fei ĠerĠ
feng ĠfuĠ
wenĠ duĠ
diĠyiĠ weiĠ
yan ĠyuĠ
bing ĠyiĠ
ling ĠyiĠgeĠ
Ġ waĠ
duiĠ ciĠ
Ġ ni
Ġ song
dai ĠshiĠ
ping ĠdeĠ
nuo ĠfuĠ
ĠguoĠ quĠ
fangĠ jianĠ
zi ĠzaiĠ
chuĠ shouĠ
yinĠ paiĠ
changĠ jianĠ
aoĠ zhouĠ
h Ġ
Ġ jiuĠshiĠ
ceng ĠweiĠ
gaoĠ xiong
paiĠ hangĠ
ĠyiĠsiĠ lanĠ
ye ĠjiĠ
ĠyiĠ wuĠ
shenĠ duĠ
liang ĠnianĠ
Ġnian ĠweiĠ
qinĠ wangĠ
san ĠjiaĠ
nv ĠzhuĠ
Ġ0 Ġ
ĠĠĠ yingĠ
zhou ĠheĠ
xiu ĠdeĠ
1987 ĠnianĠ
naĠ cui
guanĠliĠ juĠ
ding ĠshiĠ
daĠ xiĠyangĠ
Ġ xu
hao ĠshiĠ
haiĠ baĠweiĠ
Ġ ruoĠ
ti ĠweiĠ
ĠjiĠ houĠ
ĠkeĠ xiĠ
shanĠ fengĠ
zhengĠ ce
tongĠ mingĠ
ĠjiaĠ zuĠ
dongĠshiĠ zhangĠ
ye ĠyiĠ
pei ĠzhiĠ
zou ĠxiangĠ
ĠyouĠ zhongĠ
xiaoĠ fangĠ
zai ĠliĠ
zhu ĠweiĠ
liang ĠdaĠ
ĠxiĠ lie
suoĠ caiĠyong
Ġbing ĠweiĠ
L Ġ
jie ĠzhongĠ
ĠbuĠ duanĠ
ĠshiĠyiĠ buĠ
han ĠdeĠ
huan ĠzheĠ
ĠbuĠ erĠ
ĠdaĠ duoĠshuĠ
gaiĠ zaoĠ
nengĠ yuanĠ
le ĠzhongĠ
Ġ genĠ
hu ĠweiĠ
jun ĠrenĠ
1983 ĠnianĠ
zhanĠ lve
kaoĠ lv
Ġ xiaoĠshiĠ
shou ĠrenĠ
1982 ĠnianĠ
zhiĠshiĠ qiĠ
Ġ ku
wen ĠzhongĠ
mang Ġ
zhanĠ lanĠ
gongĠ chengĠshiĠ
jieĠ tiĠ
ĠĠĠ In
jun ĠzhongĠ
ganĠ ranĠ
ba ĠheĠ
man ĠdiĠ
ĠshiĠ yeĠ
erĠ tongĠ
guĠ dingĠ
mengĠ gu
Ġ 40
ĠĠĠ jingĠ
ĠzaiĠ youĠ
geĠ juĠ
tai ĠheĠ
Ġ cn
leĠ zheĠ
huan ĠxingĠ
ĠguoĠ neiĠ
ĠweiĠyuĠ gaiĠ
lun ĠshiĠ
zhengĠ xie
shangĠ shengĠ
boĠ linĠ
ge ĠyuĠ
jie ĠliĠ
hui ĠyiĠyuanĠ
jueĠ duiĠ
gong ĠliĠdeĠ
kou ĠdeĠ
ĠerĠ feiĠ
muĠ qian
diaoĠ kuai
aiĠerĠ lanĠ
dao ĠweiĠ
xiaoĠ feiĠ
xiaĠ lingĠ
ĠfuĠ qinĠ
ĠdeĠyiĠ shuĠ
mianĠ duiĠ
ĠdongĠ nanĠ
ĠweiĠ UTCĠ
shengĠ diĠ
zhuĠyiĠ zheĠ
lianĠheĠ huiĠ
yanĠ haiĠ
kaiĠshiĠ shiĠ
xiongĠ yaĠliĠ
Ġcn Ġ
Ġ luo
ĠĠĠ zhengĠ
ĠĠĠ maĠ
ĠĠĠ jiaoĠtongĠ
zhu ĠheĠ
wen ĠheĠ
ĠerĠ qiĠ
zhou ĠyiĠ
san ĠweiĠ
san ĠdaĠ
ziĠ shenĠ
diaoĠkuai ĠyiĠxiaoĠshiĠ
cheng ĠyouĠ
chong ĠjiĠ
guoĠ huiĠ
liuĠ xiaĠ
Ġ chi
lao ĠshiĠ
ĠjiĠ UTCĠ
paiĠ qianĠ
ĠmeiĠ yuanĠ
sheĠyouĠ xiaĠlingĠshiĠjianĠ
Ġling ĠyouĠ
ĠdeĠshiĠquĠweiĠ UTCĠ
ĠerĠgaiĠdiĠ suoĠcaiĠyong
ĠtongĠshiĠgaiĠdiĠ sheĠyouĠxiaĠlingĠshiĠjianĠ
ĠerĠgaiĠdiĠsuoĠcaiĠyong ĠdeĠshiĠquĠweiĠUTCĠ
shu ĠrenĠ
zhang ĠyueĠ
jingĠ gaoĠ
nanĠ haiĠ
N Ġ
chuangĠ zaoĠ
jianĠliĠ leĠ
Ġwan ĠliĠ
miĠshuĠ zhangĠ
xiangĠ tongĠdeĠ
bingĠ feiĠ
ĠgeĠ quĠ
guan ĠheĠ
cai ĠdeĠ
biĠyeĠ houĠ
gaoĠyuĠ haiĠpingĠmianĠ
dang ĠjiĠ
qun ĠzhongĠ
G Ġ
ru ĠdeĠ
ĠqiĠ fuĠ
ĠshiĠ beiĠ
quĠdeĠ mianĠjiĠweiĠ
haiĠbaĠweiĠ gaoĠyuĠhaiĠpingĠmianĠ
zhang ĠheĠ
jinĠ xingĠdeĠ
gaiĠ mingĠweiĠ
Ġ ge
Ġ ziĠyouĠ
fa ĠzhiĠ
xuan ĠzhongĠ
jingĠ duĠ
changĠ suoĠ
lieĠ ruĠ
tan ĠxianĠ
ĠzhongĠ shanĠ
daĠ buĠfen
guanĠ cha
ĠqiĠzhongĠ baoĠkuoĠ
Ġ rongĠ
Ġ shuoĠ
zhan ĠyuĠ
buĠshiĠ quĠ
1 ĠnianĠ
fang ĠjiĠ
daĠ louĠ
8 ĠnianĠ
da ĠyiĠ
Ġyue ĠyiĠ
Ġ shuang
Ġ shanĠxiĠ
ĠĠĠ 4
shang ĠdiĠ
chao ĠyueĠ
huaĠ jiaĠ
biaoĠ benĠ
ĠhuoĠ dongĠ
Ġ sa
Ġ 2025
Ġ 2015ĠnianĠ
pingĠ guĠ
ĠĠĠ yanĠ
tiao ĠjieĠ
zhangĠ fuĠ
cunĠ luoĠ
shouĠ xianĠ
tuĠ jingĠ
yi ĠshiĠdeĠ
te ĠjiĠ
suo ĠzaiĠdiĠ
bian ĠyiĠ
dou ĠzaiĠ
kaiĠshiĠ zaiĠ
ĠluoĠ maĠ
ĠdaĠ luĠ
cheĠ xiangĠ
K Ġ
li ĠdeĠ
ben ĠrenĠ
banĠ ben
2 ĠgeĠ
gong ĠweiĠ
gongĠ neng
suoĠchuĠdeĠ haiĠbaĠweiĠgaoĠyuĠhaiĠpingĠmianĠ
ĠĠĠ Re
changĠ jingĠ
danĠ baiĠ
feiĠ erĠdeĠ
ĠbuĠ xiangĠ
qianĠ dingĠ
sheĠ xianĠ
deng ĠzhiĠ
duan ĠshiĠjianĠ
ĠzaiĠ taĠ
tuiĠ xiuĠ
xiao ĠyuĠ
lai ĠsiĠ
yang ĠjiĠ
se ĠfuĠ
jianĠ kangĠ
ĠerĠ buĠshiĠ
luoĠ faĠ
Ġer ĠdeĠ
ĠĠĠ anĠ
san ĠrenĠ
huiĠ guiĠ
tiĠ xingĠ
2Ġ haoĠ
yinĠ xiangĠ
shenĠ huaĠ
ĠdeĠjiĠ luĠ
ou ĠxiangĠ
ĠĠĠ I
yan ĠrenĠ
yongĠ leĠ
yan ĠheĠ
caiĠ nengĠ
Ġ kouĠ
juĠ leĠ
quĠ zhuĠ
naĠ xieĠ
Ġsui ĠshiĠ
yin ĠyuĠ
zuĠqiuĠ duiĠ
mian ĠyiĠ
shuai ĠlingĠ
ĠqiĠ xuanĠ
diĠ xiaĠ
zuĠ cheng
boĠ lan
ĠyiĠ shengĠ
ĠluĠ wa
keĠnengĠ huiĠ
ĠheĠ daoĠ
canĠ xuanĠ
ĠĠĠ diĠyiĠ
chu ĠzhongĠ
kong ĠxiĠ
Ġnian ĠshiĠjieĠ
quan ĠyiĠ
lianĠ luoĠ
huĠ xiangĠ
Ġ 2023
qingĠ jieĠ
dan ĠshiĠ
zhou ĠliĠ
ĠzhongĠ gongĠzhongĠyangĠ
changĠ shangĠ
Ġ 2016ĠnianĠ
tu ĠjiĠ
zaiĠyiĠ qiĠ
9 ĠnianĠ
yanĠ zhongĠdeĠ
ĠyuĠ beiĠ
ĠmaĠ lai
Ġ chaoĠxianĠ
guan ĠyiĠ
mu ĠerĠ
kai ĠdeĠ
ĠshouĠ ciĠ
Ġ 2007
ĠĠĠ meiĠ
shu ĠbuĠ
fa ĠyiĠ
ding ĠliĠ
duiĠ yingĠ
zhenĠ quĠdeĠmianĠjiĠweiĠ
tiĠgongĠ leĠ
H Ġ
Ġ hei
ĠĠĠ 2008
ĠzhiĠ shuĠ
ziĠ chanĠ
faĠ shengĠzaiĠ
ĠshouĠ daoĠ
zhong ĠyiĠyuanĠ
zhu ĠzhongĠ
dai ĠweiĠ
nei ĠdiĠ
ĠĠĠ xingĠ
que ĠshiĠ
1978 ĠnianĠ
ĠyuĠ xiĠ
heĠ liuĠ
fuĠ xingĠ
xianĠ zhuĠ
beiĠ siĠ
yanĠ seĠ
zuĠqiuĠ juĠleĠbuĠ
qian ĠxiĠ
kao ĠshiĠ
diĠ quĠdeĠ
geĠ guoĠ
zhengĠ bianĠ
baoĠ luoĠ
zuiĠ duoĠ
suĠ geĠlanĠ
ti ĠheĠ
shang ĠjiĠ
yan ĠjiĠ
she ĠzaiĠ
ziĠ xun
mianĠ feiĠ
muĠsiĠ linĠ
daiĠ lingĠ
zhuanĠ menĠ
kaĠ laĠ
ru ĠweiĠ
ĠshiĠ jiaĠ
ĠyuanĠ mingĠ
shen ĠyiĠ
wuĠ guanĠ
guanĠ ceĠ
sheĠ jiĠshiĠ
Ġ 2ĠyueĠ
san ĠbuĠ
zhongĠ yao
beiĠ fangĠ
baoĠ cunĠ
zhongĠguoĠ daĠluĠ
qian ĠyueĠ
ĠbuĠ laĠ
feiĠ yanĠ
zaoĠ shangĠ
Ġ dunĠ
mianĠ dianĠ
Ġ lv
Ġ kan
yang ĠxingĠ
ceng ĠdeĠ
Ġ lunĠ
ĠĠĠ ran
xue ĠzhongĠ
Ġ 24
chu ĠweiĠ
bing ĠyuĠ
qing ĠrenĠ
ping ĠguoĠ
tui ĠjianĠ
liao ĠdeĠ
quanĠ xianĠ
Ġ s
guoĠ neiĠ
chuanĠ tongĠdeĠ
ĠbeiĠ chengĠweiĠ
juĠ fengĠ
gengĠ xinĠ
Ġ shao
Ġ lianĠheĠ
Ġ jueĠdingĠ
ĠĠĠ gongĠ
duo ĠnianĠ
lang ĠzhongĠ
diĠ wuĠ
tianĠ houĠ
ĠxiangĠ guanĠ
shu ĠzaiĠ
gao ĠshiĠ
pian ĠzhongĠ
tongĠ xunĠ
wanĠ zhengĠ
hua ĠzaiĠ
bianĠ jingĠ
shanĠ xianĠ
feng ĠdeĠ
miao ĠhuiĠ
yuanĠ xianĠ
shouĠ quanĠ
xieĠ zuoĠ
zan ĠzhuĠ
cheng ĠzaiĠ
le ĠdeĠ
ĠliĠ chengĠ
guiĠ mo
ju ĠzaiĠ
mu ĠyuĠ
ba ĠdaĠ
ba ĠsiĠ
jue ĠyuĠ
geĠ laĠ
faĠ mingĠ
luoĠ shanĠjiĠ
Ġ 2019ĠnianĠ
ĠĠĠ renĠ
tuĠ shuĠ
li ĠziĠ
Ã© Ġ
xingĠ muĠ
ĠdiĠ qiuĠ
Ġ peng
ĠzhiĠ waiĠ
zhangĠ zhuanĠjiĠ
ĠzuiĠ gaoĠ
ĠbiĠ saiĠ
7 ĠrenĠ
al ĠĠĠ
xianĠ ruĠ
jinĠ riĠ
shuang ĠdaĠ
tun Ġ
quĠ jianĠ
xing ĠzaiĠ
xian ĠzhongĠ
fuĠ zhuĠ
cheĠ changĠ
beiĠrenĠ mingĠweiĠ
yin Ġyue
zhou ĠrenĠ
ĠshiĠ taĠ
Ġ 28
dui ĠzhongĠ
ĠshiĠ erĠ
ĠshanĠ dongĠ
guoĠminĠ dangĠ
Ġ dianĠshiĠ
liang ĠheĠ
ĠyouĠ zaiĠ
pingĠ lun
jiuĠ yuanĠ
Ġ 7Ġ
ĠdeĠshiĠ yongĠ
Ġ sang
jiang ĠyiĠ
gai ĠzhiĠweiĠ
bian ĠzhiĠ
ĠshiĠ chengĠ
ĠliĠ liangĠ
chuĠ zhangĠ
lin ĠsiĠ
st Ġ
juĠ benĠ
jiaoĠ duĠ
tianĠ zhuĠ
Ġ zuĠzhiĠ
Ġ 2017ĠnianĠ
luo ĠliĠdaĠ
ĠdiĠ diĠ
xiaoĠ yingĠ
1958 ĠnianĠ
piĠ zhun
Ġ zaĠzhiĠ
ĠĠĠ dongĠ
su ĠliĠ
shangĠ xianĠ
zaoĠ chengĠdeĠ
ĠshiĠjianĠ zhuĠ
Ġ tang
Ġ hangĠ
ĠĠĠ 1
ban ĠjiĠ
shouĠ boĠ
zhangĠ ziĠ
huĠ lianĠ
Ġ 2018ĠnianĠ
Ġ nuoĠ
ao ĠerĠ
ĠĠĠ nanĠ
tion Ġ
zhanĠ muĠsiĠ
ai ĠliĠ
ĠĠĠ baĠ
1979 ĠnianĠ
fuĠ shuĠ
ĠĠĠ duiĠ
yun ĠdeĠ
tou ĠxianĠ
1972 ĠnianĠ
luĠ zhanĠ
ĠhouĠ zheĠ
Ġhuo ĠshiĠ
ĠĠĠ geĠrenĠ
ding ĠjiĠ
ĠweiĠ beiĠ
yunĠ yongĠ
ĠpuĠ taoĠ
ba ĠerĠ
ma ĠshiĠ
huai ĠyiĠ
xia ĠzaiĠ
xu ĠjiĠ
ĠyiĠ dongĠ
ĠweiĠyuĠ zhongĠguoĠ
guan ĠjiĠ
baoĠ hu
ĠyingĠ wenĠ
can ĠyiĠ
huoĠ cheĠ
qiangĠ duĠ
Ġci ĠnianĠ
chai Ġ
ĠdiĠ yaĠ
miĠ niĠ
Ġai ĠerĠ
shao ĠdeĠ
ĠzhiĠ buĠ
xinĠ guanĠ
huoĠ biĠ
ĠxuĠ yaoĠ
Ġ chunĠ
zha ĠdanĠ
cu Ġ
jiaoĠ chaĠ
leiĠ siĠdeĠ
chuanĠ meiĠ
juĠ banĠdeĠ
minĠ zu
ĠgaiĠ bianĠ
Ġ yanĠjiuĠ
dao ĠzaiĠ
luo ĠshiĠ
xueĠ keĠ
5 ĠrenĠ
17 Ġ
diĠ qiĠ
bingĠ duĠ
ĠxinĠ wenĠ
xingĠzhengĠ quĠ
ĠĠĠ 2009
naĠ xiaĠ
Ġming ĠzhiĠ
ĠĠĠzengĠ zuĠ
lie ĠshiĠ
ĠzhongĠ xingĠ
xiĠ nanĠbuĠ
taiĠ houĠ
zuiĠ zao
wu ĠyueĠ
zheng ĠjiĠ
ĠshiĠyiĠ keĠ
xinĠjiaĠ po
yao ĠshiĠ
pin ĠdeĠ
gan ĠyuĠ
xiangĠ faĠ
tiĠ chuĠdeĠ
canĠ tingĠ
Ġ 35
fa ĠliĠ
luo ĠyuĠ
ĠdaĠ buĠfen
ĠrenĠ weiĠshiĠ
juĠ ban
taiĠ kongĠ
Ġ 2006
xi ĠyouĠ
chu ĠguoĠ
xue ĠliĠ
zhe ĠheĠ
bai ĠyuĠ
jueĠ sai
ĠshiĠshiĠ yongĠ
zong ĠyiĠ
zong ĠrenĠkouĠ
teĠ quĠ
qingĠ zhuĠ
ĠbingĠ beiĠ
zhuanĠ xieĠ
faĠ xianĠdeĠ
jinĠ rong
ĠxiĠ yinĠ
ĠĠĠ houĠ
jiang ĠliĠ
ĠzhongĠ dianĠ
zhuĠ daoĠ
xue ĠjiĠ
tongĠ xinĠ
meiĠ junĠ
Ġ 2004ĠnianĠ
shangĠ wangĠ
suiĠ ran
aĠ genĠ
Ġma ĠliĠ
Ġ mao
ba ĠdeĠ
chengĠ leĠ
jiaoĠ huanĠ
wuĠzhengĠzhuangĠ ganĠranĠzheĠ
Ġ 2021ĠnianĠ
xing ĠshiĠdeĠ
su ĠzhiĠ
tou ĠdeĠ
mi ĠsiĠ
sheĠ jiaoĠ
ĠyiĠ gongĠ
ĠchuĠ banĠ
ĠĠĠ liuĠ
sui ĠzheĠ
Ġ shun
Ġ weiĠyiĠ
ll Ġ
ĠyiĠ qianĠ
ĠdiĠ zaiĠ
xinĠ jianĠ
zuĠ jieĠ
ĠdeĠyiĠ yuanĠ
Ġ shui
ju ĠzhiĠ
dian ĠweiĠ
shen ĠyuĠ
ĠshiĠrenĠ minĠ
xianĠzhiĠ xianĠ
ĠĠĠ 18
ĠĠĠ tianĠ
xian ĠliĠ
dui ĠjiĠ
daĠ xiaoĠ
geĠ ziĠ
che ĠdiĠ
fangĠ mian
duanĠ pianĠ
chuan ĠqiĠ
qiĠ zhongĠ
faĠ sheng
guĠ laĠ
huangĠ seĠ
min ĠyiĠ
te ĠheĠ
biĠ xu
ĠĠĠshiĠ yongĠ
yong ĠzaiĠ
ĠdeĠ huaĠ
zhengĠ quĠ
huoĠ shengĠ
teĠ dianĠ
Ġta ĠheĠ
6 ĠrenĠ
Ġ 60
Ġ 2020ĠnianĠ
du ĠguoĠ
zhang ĠzhiĠ
zan ĠshiĠ
shou ĠbuĠ
1960 ĠnianĠ
qiĠ laiĠ
xiĠ beiĠbuĠ
8 ĠrenĠ
zui ĠdiĠ
siĠ daĠ
luoĠ chengĠ
zuiĠ zaoĠ
yunĠ dongĠdeĠ
bangĠ qiuĠ
buĠdeĠ cunĠzhuangĠ
Ġ zhuanĠjiĠ
gaoĠ duĠweiĠ
Ġ nengĠ
lin ĠjinĠ
ĠshiĠ houĠ
ĠyouĠ zhuĠ
1 ĠgeĠ
lai ĠyuĠ
leĠ yuanĠ
gangĠ kouĠ
gongĠyuanĠ qianĠ
ci ĠdiĠ
1976 ĠnianĠ
wuĠ diĠ
xinĠ jiangĠ
an ĠzhiĠ
chengĠ jiuĠ
xunĠ lian
gongĠzuo ĠshiĠ
ĠshuangĠ fangĠ
Ġ ceĠ
ĠgongĠ yeĠ
se ĠĠĠ
lingĠ chenĠ
dan ĠdaĠ
yong ĠjiĠ
1980 ĠnianĠdaiĠ
ĠyiĠ bianĠ
qiĠ cheĠ
faĠ tingĠ
ĠcaiĠ yongĠ
zhongĠ huaĠminĠguoĠ
xianĠ chengĠ
shanĠ maiĠ
ĠdeĠyiĠ xieĠ
chuĠbanĠ sheĠ
jingĠneiĠ gongĠyouĠ
Ġ guang
dang ĠnianĠ
san ĠzhongĠ
ĠgeĠ shouĠ
Ġ ì
hui ĠweiĠ
han ĠziĠ
1920 ĠnianĠ
jiangĠ shuĠ
sanĠ mingĠ
Ġ 26
dao ĠyouĠ
xinĠ jieĠ
ĠxiangĠ muĠ
hou ĠjiĠ
xiao ĠliĠyuĠ
23 Ġ
ĠjiaĠ laĠ
qiĠ houĠ
daĠ diĠ
xianĠ shangĠ
cheng ĠzhiĠweiĠ
shengĠ daoĠ
lieĠ chuĠ
Ġzhao ĠheĠ
xiu ĠdaoĠ
th Ġ
ĠdaĠ jiaĠ
ĠĠĠ daoĠ
ĠheĠ liuĠ
zanĠ tingĠ
Ġ tao
bi ĠliĠshiĠ
bai ĠkeĠ
changĠ biĠsaiĠ
hai ĠzaiĠ
ruan ĠtiĠ
jianĠ duĠ
yeĠ fuĠ
laiĠ yinĠ
Ġta ĠyouĠ
ĠliangĠ geĠ
ĠerĠgaiĠ diĠdeĠ
tong ĠheĠ
ĠdaĠ jiangĠ
ĠdanĠ yinĠ
Ġtong ĠyiĠ
jin ĠyuĠ
henĠ kuaiĠ
er ĠĠĠ
huo ĠzaiĠ
dui ĠheĠ
tiĠ daiĠ
qianĠ tingĠ
ĠĠĠgaiĠ yaoĠ
Ġ 25
ĠbuĠ daoĠ
xiangĠ yingĠ
ĠqiĠ bingĠ
ĠweiĠfuĠqiĠyuĠ gang
fa ĠjiĠ
ya ĠrenĠ
1990 ĠnianĠdaiĠ
ĠliĠ fuĠ
jingĠ guanĠ
qianĠ jinĠ
ĠtaĠmen ĠzaiĠ
k ĠĠĠ
ao ĠdeĠ
dui ĠdiĠ
tan ĠheĠ
chengĠ quĠ
wangĠ wangĠ
ĠzuiĠ chuĠ
que ĠbaoĠ
maĠ touĠ
Ġ 29
Ġ nongĠ
an ĠliĠ
xing ĠyouĠ
ta ĠyiĠ
pin ĠzhongĠ
qun ĠtiĠ
ĠqiĠ heĠ
bianĠ yuanĠ
buĠ menĠ
yun ĠheĠ
na ĠheĠ
fuĠ haoĠ
faĠ dongĠjiĠ
pingĠ yuanĠ
ĠdeĠshiĠ jiĠ
Ġ jinĠshiĠ
chang ĠjiĠ
kuo ĠjianĠ
ĠyueĠ duiĠ
ĠtaĠ renĠweiĠ
dian ĠshiĠjieĠ
siĠ lanĠ
ĠĠĠjiaĠ tingĠ
wuĠ shuĠ
ĠxiĠ tongĠdeĠ
juĠ yuanĠ
e ĠguoĠ
Ġ 2002ĠnianĠ
yeĠ keĠyiĠ
guiĠ fanĠ
ĠĠĠ shouĠ
fuĠ za
shuĠ chuĠ
quĠ fenĠ
sheĠ dingĠ
leĠyiĠ xieĠ
jiu ĠzaiĠ
Ġxian ĠweiĠ
daĠshiĠ guanĠ
riĠben ĠdeĠ
Ġ cunĠ
dan ĠyiĠ
Ġli ĠliĠ
ĠnianĠ qingĠ
jiaoĠ tang
senĠ lin
ma ĠkeĠsiĠ
qiu ĠshiĠ
jieĠ duan
tuiĠ guangĠ
ĠzhongĠguoĠrenĠminĠ jieĠfangĠjunĠ
xuan ĠshiĠ
fuĠ muĠ
wuĠ zhuang
saiĠ erĠweiĠ
gengĠ duoĠdeĠ
canĠ shuĠ
tieĠluĠ cheĠzhanĠ
ĠĠĠ wangĠ
wang ĠweiĠ
la ĠweiĠ
pei ĠbeiĠ
changĠ duĠ
fenĠ peiĠ
yaĠ muĠ
ĠyiĠ meiĠ
ĠyouĠ liangĠ
ĠzhongĠ jianĠ
beiĠ jing
ĠĠĠ deĠĠĠ
duo ĠerĠ
zhongĠ buĠ
beiĠ daĠ
ĠqiĠ zhong
qianĠ shenĠ
suiĠ ranĠ
chuangĠ zuoĠdeĠ
Ġ 1970
ĠĠĠ Co
ĠbuĠ siĠ
shangĠ zhenĠ
baoĠ han
v Ġ
yeĠ jianĠ
yeĠ shengĠyaĠ
duiĠ fangĠ
mai ĠdeĠ
zeĠ dongĠ
zhang ĠjiĠ
chengĠ weiĠyiĠ
yanĠ jingĠ
banĠ jiangĠ
buĠdeĠ buĠ
Ġ sunĠ
ceng ĠshiĠ
dou ĠbeiĠ
ĠzaiĠ neiĠdeĠ
dengĠ changĠ
Ġ30 Ġ
shan ĠdiĠ
chuĠ ziĠ
tuĠ xiangĠ
ĠgongĠ qingĠ
wen ĠjiĠ
tou ĠbuĠ
ĠB Ġ
an ĠjiĠ
jun ĠbuĠ
keĠ yunĠ
teĠ laĠ
suĠ lian
9 ĠrenĠ
cong ĠweiĠ
huang ĠjinĠ
Ġ sai
deng ĠyuĠ
ĠjieĠ shuĠ
lvĠ seĠ
ch Ġ
xing ĠliĠ
yeĠ shengĠ
zheĠ yangĠ
banĠ yanĠ
kaiĠ gongĠ
ĠziĠ yuanĠ
du ĠjiĠ
nan ĠsiĠ
1956 ĠnianĠ
Ġ 45
ĠshiĠshiĠ shangĠ
aĠlaĠ bo
shen ĠkeĠ
chen ĠjiĠ
ĠzaiĠ heĠ
riĠ baoĠ
dangĠ tianĠ
Ġ tun
bei ĠliĠ
zhe ĠzhiĠ
che ĠshiĠ
1964 ĠnianĠ
zhuĠ ceĠ
ĠxiĠ anĠ
xieĠ shangĠ
chiĠ xu
le ĠdiĠ
xianĠ dai
jinĠ quĠ
fenĠ zhiĠyiĠ
ĠdeĠjiĠ huaĠ
qu ĠyouĠ
luĠ shangĠ
Ġ Ï
ĠqiĠ dongĠ
seĠ lie
ĠfuĠzeĠ guanĠxiaĠ
Ġ bao
mu ĠheĠ
wai ĠweiĠ
ĠshiĠshiĠ jiĠ
quan ĠjiĠ
zhuan ĠweiĠ
ĠyiĠ keĠ
dongĠ xianĠ
Ġ pi
weiĠ yuanĠ
ĠĠĠ zhangĠ
ĠĠĠ guĠ
deng ĠshiĠ
hao ĠyouĠ
ze ĠyuĠ
ĠyiĠ nian
xiangĠ qiĠ
haoĠ pingĠ
ĠĠĠ N
ĠĠĠ chengĠ
1968 ĠnianĠ
section ĠĠĠ
fuĠ erĠ
zhengĠ shuĠ
xiaoĠ jieĠ
qingĠ chaoĠ
qu ĠzhongĠ
dui ĠzhiĠ
sha ĠdeĠ
daĠ duoĠ
zongĠ jianĠ
bing ĠzaiĠ
ĠqiĠ xiĠzaiĠ
fanĠ ying
mianĠ tiĠ
ĠzhongĠ qiĠ
xiaoĠ liangĠ
V Ġ
hang ĠyeĠ
teĠ leiĠ
xuanĠ chengĠ
ĠbaoĠ huĠ
Ġbing ĠbuĠ
Ġ sectionĠĠĠ
biao ĠjiĠ
lie ĠsiĠ
yuanĠ benĠ
shouĠ shuĠ
laiĠ naĠ
ĠgeĠ leiĠ
feiĠlvĠ bin
Ġ Ñ
zhan ĠweiĠyuĠ
feng ĠshiĠ
ĠlianĠ jieĠ
wan ĠliĠ
zong ĠzhiĠ
ĠheĠ qiĠtaĠ
haiĠ shangĠ
tuĠ chuĠ
ĠgongĠ kaiĠ
canĠ jia
ĠfenĠ bieĠ
daiĠbiaoĠ tuanĠ
ĠĠĠran ĠerĠ
Ġ wa
ĠĠĠ guangĠ
chang ĠdaĠ
jiang ĠyouĠ
bai ĠzhiĠ
niao ĠleiĠ
Ġ 27
zhan ĠyouĠ
ĠshiĠ xiĠ
ĠqiĠzhongĠ nanĠxingĠ
ĠjiangĠ suĠ
Ġ jianĠliĠ
ni ĠxiĠyaĠ
1981 ĠnianĠ
jinĠ zhanĠ
baoĠ zha
fenĠ siĠ
ĠsiĠ daĠ
xie ĠweiĠ
moĠ niĠ
zhongĠguoĠ renĠminĠ
ĠS Ġ
hai ĠdiĠ
yanĠ anĠ
shenĠ zhenĠ
puĠtaoĠ yaĠ
Ġ fou
liang ĠbuĠ
xingĠ dong
gongĠ daĠ
ĠĠĠgenĠjuĠ 2020ĠnianĠmeiĠguoĠrenĠkouĠpuĠchaĠdeĠshuĠjuĠ
Ġ zuiĠjiaĠ
ju ĠweiĠ
lu ĠyiĠsiĠ
xia ĠdiĠquĠ
ding ĠxingĠ
ĠshiĠ buĠ
geĠ buĠ
changĠ jiangĠ
ĠĠĠ jingĠjiĠ
zai ĠyiĠgeĠ
zhan ĠweiĠ
ĠguoĠ wuĠyuanĠ
daoĠ danĠ
laiĠ ziĠyuĠ
feiĠ yongĠ
Ġliu ĠyuĠ
Ġ 2024
hou ĠzhiĠ
1948 ĠnianĠ
xiaoĠ xiangĠ
Ġ 8Ġ
ĠĠĠ 2019ĠnianĠ
gong ĠyueĠ
jiao ĠdiĠ
chuĠ xianĠdeĠ
cheĠ duiĠ
bi ĠerĠ
lu ĠheĠ
ha ĠliĠ
ĠyouĠ suoĠ
gongĠkaiĠ saiĠ
Ġ 2000ĠnianĠ
ĠguoĠ jiaĠdeĠ
ziĠ benĠ
zhengĠ mianĠ
ĠjinĠ shuĠ
kuoĠ zhangĠ
dang ĠzaiĠ
ĠyiĠ heĠ
Ġ 2005
qiong Ġ
xueĠ yeĠ
hou ĠbuĠ
tian ĠjiaĠ
fuĠ zhouĠ
yuanĠzhuĠ minĠ
ĠweiĠyuanĠhui ĠweiĠyuanĠ
Ġ 200
Ġ bangĠ
shu ĠdeĠzhiĠwuĠ
wang ĠjiĠ
keĠ erĠ
taiĠ nanĠ
xuanĠ juĠzhongĠ
ĠĠĠqiĠ zhongĠ
x ĠĠĠ
bei ĠyueĠ
fa ĠheĠ
huo ĠliĠ
shui ĠdeĠ
gan ĠxianĠ
juĠ min
leĠ duiĠ
yanĠ jiangĠ
zhanĠ shuĠ
ĠshiĠyiĠ zuoĠ
Ġ 1946
duo ĠshiĠ
cha ĠshiĠ
ĠshiĠdeĠ shiĠ
ĠguanĠ fangĠ
ĠjiĠjinĠ huiĠ
Ġ kaoĠ
ĠĠĠ yueĠ
zu ĠrenĠ
lai ĠkeĠ
hant Ġ
ĠzaiĠ buĠ
zheĠ yangĠdeĠ
nanĠjiĠ zhouĠdeĠ
Ġ lei
gan ĠdeĠ
wo ĠerĠ
guĠ dianĠ
baiĠ wanĠ
shaoĠ nvĠ
ĠqianĠ wangĠ
chengĠliĠ houĠ
guĠfen ĠyouĠxianĠgongĠsiĠ
e ĠdeĠ
Ġ niuĠ
Ġ touĠguoĠ
daĠ guiĠmoĠ
jianĠ kang
beiĠ poĠ
ĠdiĠ tuĠ
wenĠ tiĠdeĠ
meiĠ guo
ĠweiĠfuĠqiĠyuĠ gangĠ
Ġ hantĠ
duo ĠliĠyaĠ
gongĠ anĠ
ĠguoĠ gongĠ
huiĠ daĠ
chuĠ changĠ
zongĠ caiĠ
ch ĠĠĠ
ya ĠzhongĠ
yang ĠheĠ
1952 ĠnianĠ
ĠzhongĠ wenĠ
keĠ luoĠ
canĠ kao
reĠdaiĠ fengĠbaoĠ
hu ĠxiĠ
zuo ĠzhiĠ
shuai Ġling
ĠyuĠ diĠ
Ġta ĠjiĠ
ĠĠĠ zhuĠyaoĠ
bie ĠdeĠ
xinĠ taiĠ
Ġ pianĠ
ĠĠĠ fanĠ
luo ĠyiĠ
men ĠshiĠ
1975 ĠnianĠ
gongĠ jiaoĠ
zhuĠ banĠ
ĠshiĠyiĠ zhiĠ
1966 ĠnianĠ
zuoĠ faĠ
ĠdaĠ erĠ
naĠ shengĠ
meiĠguoĠ renĠ
zhuanĠ yongĠ
cunĠ zaiĠdeĠ
ĠjinĠ ru
xianĠdeĠyiĠgeĠ feiĠjianĠzhiĠdiĠquĠ
Ġ 2022ĠnianĠ
nuo ĠyiĠ
ĠshiĠ faĠ
ĠzhiĠ shaoĠ
fangĠ miĠ
hangĠ tianĠ
ding ĠzaiĠ
qun ĠdeĠ
ĠzhiĠ jingĠ
1Ġ ri
youĠyiĠ xieĠ
ĠlingĠ wai
ĠĠĠ 2007
niang Ġ
luĠ wa
ĠxingĠ jianĠ
xue ĠbuĠ
mei ĠshiĠ
lan ĠyuĠ
ĠyiĠ xueĠ
ĠĠĠ jiangĠ
rao ĠtaiĠyangĠ
liangĠ ziĠ
ĠnianĠyiĠ laiĠ
Ġ yong
shang ĠweiĠyouĠ
bao ĠheĠ
duiĠ kangĠ
maĠ laiĠ
Ġ Y
Ġ quĠdeĠ
Ġ 2003ĠnianĠ
ying ĠerĠ
jiu ĠyouĠ
ĠshiĠ bingĠ
e ĠweiĠ
ta ĠrenĠ
ĠyiĠ daĠ
ĠyiĠ xiangĠ
Ġyue ĠheĠ
ciĠ quĠ
duĠ huiĠ
xieĠ dingĠ
ban ĠrenĠ
chuan ĠguoĠ
1947 ĠnianĠ
wuĠ geĠ
sanĠ ciĠ
ĠzheĠ yangĠ
shang ĠheĠ
zongĠ huiĠ
ĠfaĠ zhanĠ
ĠĠĠ 3ĠyueĠ
boĠ jueĠ
xuanĠ chuĠ
Ġri ĠyouĠ
ĠxinĠ zengĠ
guoĠjiaĠ duiĠ
ĠĠĠqiĠ houĠ
5 ĠmiĠ
1937 ĠnianĠ
Windows ĠĠĠ
jiaoĠ jieĠ
haiĠbaĠ gaoĠduĠweiĠ
z Ġ
guang ĠdeĠ
ĠyiĠ waiĠ
ĠshiĠyongĠ leĠ
Ġdang ĠshiĠdeĠ
jiaoĠyuĠ buĠ
Ġ ouĠzhouĠ
wu ĠyouĠ
wenĠ ti
ĠfuĠ qin
leiĠ xingĠdeĠ
zhuangĠ kuang
Ġdan ĠqiĠ
Ġ pinĠ
Ġ diaoĠ
wang ĠyuĠ
wai ĠxingĠ
gen ĠsuiĠ
ĠyiĠ chanĠ
xingĠ zheng
yanĠ lunĠ
ĠsiĠ taĠ
ĠrenĠminĠ biĠ
fenĠbie ĠweiĠ
Ġ ziĠjiĠ
ge ĠzaiĠ
ta ĠheĠ
jin ĠzaiĠ
wang ĠzhiĠ
gongĠ jueĠ
ĠdaoĠ yanĠ
nongĠ cun
sheĠ yingĠ
lianĠ sai
gaoĠ xiaoĠ
jianĠzhuĠ wuĠ
Ġjiang ĠqiĠ
ĠĠĠ faĠ
ll ĠĠĠ
ĠnianĠ lingĠ
zhanĠ changĠ
xuanĠ ju
ĠpingĠ taiĠ
ĠdeĠjiĠ huiĠ
o ĠĠĠ
Ġ Co
ĠĠĠ pingĠjiaĠ
II Ġ
shuĠ muĠ
jingĠ saiĠ
duanĠ zan
Ġdan ĠweiĠ
qiaoĠ liangĠ
xunĠyangĠ jianĠ
5 ĠgeĠ
Ġ chengĠliĠyuĠ
ĠĠĠ luoĠ
tuan ĠjieĠ
song ĠdaoĠ
guoĠ chengĠ
shouĠ faĠ
fenĠ jieĠ
quanĠ shuĠ
ĠdeĠyiĠ meiĠ
ĠshiĠyiĠ daĠliĠ
Ġ leĠ
zhang ĠyiĠ
ĠkeĠ luoĠ
zuiĠ zaoĠdeĠ
cengĠ shuiĠyuĠ
a ĠfuĠ
Ġ chao
ĠĠĠ chuĠleĠ
xin ĠzhongĠ
xiaĠyiĠ xiaĠdiĠquĠ
yingĠxiang ĠliĠ
guo ĠshiĠqiĠ
pu ĠliĠ
shouĠ duanĠ
pingĠ jieĠ
Ġ Q
ci ĠzhongĠ
zhuanĠdeĠ xiaoĠxingĠxingĠ
Ġ hua
bei ĠheĠ
fa ĠweiĠ
ĠdiĠ dianĠ
jiangĠ beiĠ
xunĠ zhaoĠ
guoĠjiĠjiĠ changĠ
wang ĠsiĠ
1954 ĠnianĠ
ĠyiĠ erĠ
guoĠ wuĠyuanĠ
wuĠ zhongĠdeĠ
ĠdiĠ liuĠ
juĠ daĠdeĠ
f Ġ
ru ĠyuĠ
ĠliĠ gongĠ
wangĠ ziĠ
ĠdeĠshiĠ wuĠ
zheĠjiangĠ shengĠ
ĠĠĠ 5ĠyueĠ
zhe ĠyuĠ
ĠjiĠ xingĠ
ĠĠĠin ĠĠĠ
c ĠĠĠ
Ġ shen
zheng ĠqiĠ
ya ĠzhiĠ
ru ĠyiĠ
huang ĠshiĠ
ĠzaiĠ jinĠ
jiaĠ mengĠ
wangĠ shangĠ
zuĠ xieĠ
shanĠdongĠ shengĠ
Ġ chuĠrenĠ
40 Ġ
ĠshiĠ baĠ
guangĠ fan
zhengĠshiĠ qiĠ
a ĠliĠ
Ġ huai
Ġ keĠliĠ
tiĠ chuĠleĠ
anĠ zhuang
song ĠdeĠ
mingĠ juĠrenĠ
yinĠ yongĠ
huoĠ yunĠ
yaoĠ gun
sheng ĠbuĠ
xiao ĠyouĠ
la ĠerĠ
xianĠ zhangĠ
faĠ shengĠdeĠ
baoĠ zhaĠ
ĠĠĠofĠĠĠ theĠĠĠ
Ġ sanĠshiĠ
ĠĠĠ shenĠ
guai Ġ
ĠshiĠ jiĠdeĠ
pingĠ minĠ
lianĠ tongĠ
pingĠjunĠ haiĠbaĠgaoĠduĠweiĠ
Ġ chun
si ĠyouĠ
liĠ lunĠ
zhan ĠzaiĠ
duĠ duĠ
danĠ shuiĠ
yangĠ xianĠ
neiĠ zhanĠ
xunĠ qiuĠ
shaoĠ jiangĠ
W Ġ
ĠĠĠ toĠĠĠ
yin ĠzhongĠzaiĠ
tai ĠerĠ
ru ĠshiĠ
shuo ĠdeĠ
guĠ fenĠ
ĠzheĠ ciĠ
zaoĠ shouĠ
ganĠ suĠ
ĠnianĠqiĠ jianĠ
ĠerĠgaiĠdiĠdeĠ pingĠjunĠhaiĠbaĠgaoĠduĠweiĠ
da ĠzaiĠ
jiang ĠzhongĠ
ĠliĠ xueĠ
luo ĠzaiĠ
ma ĠliĠyaĠ
chai ĠyouĠjiĠ
ĠfaĠ shengĠ
ĠbiĠ yeĠ
ĠhanĠ zuĠ
2010ĠnianĠ meiĠguoĠrenĠkouĠpuĠchaĠdeĠshuĠjuĠ
shuoĠshiĠ xueĠweiĠ
yinĠzhongĠzaiĠ peiĠ
ĠĠĠ 16
yang ĠzhiĠ
hao ĠyuĠ
qie ĠerĠ
shun ĠshiĠ
chengĠ huĠ
juĠ tiĠ
jiaoĠ fuĠ
wenĠ huaĠdeĠ
boĠ luoĠ
ĠxueĠ shengĠ
ying ĠdiĠ
dai ĠyuĠ
gao ĠdiĠ
faĠ lingĠ
baoĠ xianĠ
yingĠ zhanĠ
qingĠ xiangĠ
Ġgai ĠweiĠ
Ġ cui
Ġ anĠdeĠ
zuo ĠyuĠ
su ĠshiĠ
100 Ġ
ĠbuĠ neng
shangĠ dianĠ
ĠdaĠ xiĠyangĠ
zengĠ qiangĠ
ĠĠĠ 2018ĠnianĠ
ban ĠyuĠ
1955 ĠnianĠ
ĠgongĠ buĠ
renĠgongĠ yinĠzhongĠzaiĠpeiĠ
an ĠzhongĠ
yi ĠshiĠyongĠ
mao ĠxianĠ
jiangĠ taĠ
Ġkang ĠxiĠ
O Ġ
Ġ cu
Ġ 2000
qing ĠyiĠ
suo ĠyiĠ
10 ĠnianĠ
naĠ ruĠ
ĠbaoĠ daoĠ
xiangĠshiĠ diĠ
Ġ mu
daiĠ maĠ
banĠ ciĠ
shenĠ meĠ
ĠnaĠ me
Ġ ruan
ĠjiĠ liĠ
ĠheĠ yueĠ
mingĠ jinĠshiĠ
jiaoĠ zuoĠ
dianĠ yingĠdeĠ
ĠquanĠ zhangĠ
ĠyuĠciĠ tongĠshiĠ
qu ĠzaiĠ
reng ĠyouĠ
1974 ĠnianĠ
chengĠ fenĠ
ĠdaĠ louĠ
lingĠ daoĠdeĠ
guiĠ zhouĠ
ĠxianĠ daiĠ
panĠ jueĠ
ĠĠĠ taiĠwanĠ
xiang ĠzhiĠ
zheng ĠyueĠ
ye ĠzhiĠ
zhang ĠzaiĠ
zhuĠ zhai
baoĠ chi
xunĠ huanĠ
diĠyiĠ renĠ
yanĠjiuĠ shengĠ
Ġ nĠ
ĠĠĠ 2006
fuĠ gaiĠ
faĠ zhanĠdeĠ
Ġ xia
zheng ĠyuĠ
duiĠ yuanĠ
caiĠ chanĠ
Ġ zhen
zhuĠ ruĠ
benĠ xianĠ
ĠjuĠ minĠ
ĠshengĠ zhangĠyuĠ
canĠ guanĠ
hongĠ junĠ
chanĠshengĠ leĠ
bi ĠshiĠ
duo ĠfuĠ
tuiĠ chuĠdeĠ
zhan ĠheĠ
mian ĠyuĠ
dianĠ ziĠyouĠ
huoĠ wuĠ
xuĠ shuĠ
Ġ min
te ĠshiĠ
50 Ġ
fuĠ ze
junĠ tuanĠ
wanĠ quan
teĠ langĠ
tanĠ dingĠ
ya ĠshiĠ
te ĠyuĠ
shengĠ muĠ
tiĠ jiaoĠ
suĠweiĠ aiĠ
Ġ gongĠjiĠ
shu ĠqiĠ
rang ĠtaĠ
changĠ beiĠ
douĠ zhengĠ
Ġ ãĥ¼
ĠĠĠ 10ĠyueĠ
lu ĠzaiĠ
zhuang ĠbingĠduĠ
zhiĠ chiĠ
jieĠ duĠshiĠ
ĠbeiĠ keĠ
Ġ000 ĠrenĠ
ci ĠyouĠ
km Ġ
ĠheĠ panĠ
yinĠ jingĠ
shang ĠzhiĠ
ping ĠshiĠ
qiang ĠjiĠ
is ĠĠĠ
daĠ buĠ
jianĠ she
yingĠ duiĠ
ĠjiaĠ jingĠ
ĠjuĠ qingĠ
ĠsuĠ lianĠ
zheng ĠliĠ
dongĠ niĠ
jiaoĠ keĠ
ĠfuĠ leiĠ
chuĠxianĠ leĠ
huaĠshengĠ dunĠ
dongĠ cheĠ
yanĠ huaĠ
ĠfaĠ biaoĠ
ai ĠguoĠ
sheng ĠzhongĠ
huan ĠjieĠ
fuĠ sheĠ
duiĠ huaĠ
gongĠheĠ dangĠ
ku ĠdeĠ
ĠyouĠ taiĠ
jianĠ zao
daoĠ shangĠ
chuĠ ruĠkouĠ
baoĠ zhengĠ
aiĠ qingĠ
ciĠzhiĠ waiĠ
zhu ĠguoĠ
le ĠweiĠ
zu ĠyuĠ
ĠheĠ qiĠ
ĠrenĠzhongĠ gongĠ
ba ĠyueĠ
mo ĠqiĠ
ĠzaiĠ gaiĠ
yuanĠ ben
jinĠ qiuĠ
chongĠ qingĠ
ri ĠyiĠ
1977 ĠnianĠ
youĠ guanĠ
shenĠ shengĠ
ĠyinĠ faĠ
ĠshiĠzhongĠ huaĠrenĠminĠgongĠheĠguoĠ
zengĠjiaĠ leĠ
renĠminĠ daiĠbiaoĠdaĠhuiĠ
Ġ 80
ĠĠĠ lingĠwaiĠ
ke ĠrenĠ
juĠ beiĠ
shengĠchan ĠdeĠ
Ġ re
yin ĠerĠ
la ĠyuĠ
buĠ luoĠ
xiaĠ fangĠ
ĠguoĠjiaĠ duiĠ
chuan ĠdiĠ
siĠ tanĠ
shenĠ wangĠ
gouĠ mai
aiĠdeĠ huaĠ
lei ĠweiĠ
kang ĠxiĠ
chaoĠ tingĠ
ĠĠĠ 2017ĠnianĠ
yue ĠweiĠ
shou ĠheĠ
ĠshiĠ yueĠ
xiangĠ mu
dongĠ gongĠ
fenĠ quĠ
luoĠ boĠteĠ
ĠzhuĠ jianĠ
Ġ chengĠshiĠ
ĠĠĠ for
duan ĠyuĠ
hang ĠxianĠ
kan ĠdeĠ
Ġnian ĠliĠ
zongĠ tong
hanĠ moĠdeĠ
Ġ langĠ
wang ĠyouĠ
ĠyiĠ xingĠ
ĠerĠ houĠ
shouĠ haiĠ
xieĠ tiao
baĠ laĠ
Ġ qiao
Ġ Re
ĠĠĠ xiangĠgangĠ
fen ĠqiĠ
ding ĠzhiĠ
ĠyiĠ riĠ
geĠ siĠ
jiaoĠ daoĠ
pinĠ lvĠ
Ġ ju
ĠĠĠ 6
long ĠshiĠ
zhuĠ diĠ
ziĠ liao
ĠkeĠneng ĠshiĠ
Ġ i
ĠĠĠ zhanĠ
ĠĠĠ 2016ĠnianĠ
ĠyouĠ youĠ
shouĠ feiĠ
caiĠ liao
canĠmou ĠzhangĠ
xun ĠfuĠ
jianĠ guoĠ
mianĠ shangĠ
ĠxinĠ jiaĠ
ĠbiĠ yeĠyuĠ
ĠaĠ laĠ
Ġ cao
ĠĠĠ shangĠ
chengĠ haoĠ
ciĠ daĠ
meiĠ zhou
ĠlingĠyiĠ fangĠmianĠ
ĠĠĠ riĠ
ĠzhiĠ luĠ
ĠliĠ xinĠ
di ĠyiĠjiĠ
zhen ĠheĠ
kong ĠdeĠ
mingĠ luĠ
huaĠrenĠminĠ gongĠheĠ
nvĠzhuĠ jueĠ
Ġ 1938
jiao ĠheĠ
na ĠsiĠ
ĠxiĠ huanĠ
longĠ shengĠ
ĠshengĠzhangĠyuĠ haiĠbaĠ
pin ĠzhiĠ
zhui ĠsuĠ
huiĠ xiangĠ
changĠ wu
gaoĠ yuanĠ
Ġ pan
qian ĠzaiĠ
pai ĠdeĠzhuĠ
ĠshiĠ jingĠ
jieĠ guanĠ
dongĠ yuanĠ
qianĠ houĠ
Ġzai ĠyuĠ
Ġmi ĠdeĠdiĠquĠ
ĠĠĠsuiĠ ranĠ
ĠĠĠ 5
du ĠdaĠ
lou ĠdeĠ
ĠheĠ chengĠ
ĠqiĠ chuĠ
qingĠ xuĠ
ĠkaiĠ faĠ
ben ĠkeĠ
1962 ĠnianĠ
zaiĠ ciĠ
fuĠ yinĠ
ĠtianĠ jinĠ
fen ĠjiĠ
bin ĠshiĠ
1971 ĠnianĠ
fenĠ xiaoĠ
haiĠ eĠ
huĠ poĠ
ĠjianĠ sheĠ
zhanĠzheng ĠzhongĠ
ri ĠjiĠ
ye ĠerĠ
zhuĠ liuĠ
moĠ luoĠ
yin ĠzhiĠ
guoĠ quĠ
ĠbuĠ daĠ
rongĠ naĠ
xingĠzhengĠ zhenĠquĠ
han ĠyiĠ
daĠ qiĠ
ĠboĠ chuĠ
ĠmaĠlai ĠxiĠyaĠ
Ġ X
ck Ġ
ĠshiĠ zhangĠ
Ġli ĠshiĠdeĠ
mingĠ queĠ
ĠdongĠ wuĠ
eĠluoĠ siĠdeĠ
Ġ piaoĠ
Ġ genĠju
ĠĠĠ taiĠ
ĠĠĠ zongĠ
zhong ĠdeĠyiĠ
ye ĠzhongĠ
buĠ keĠ
shangĠ jiaĠ
qingĠ daoĠ
anĠ zhaoĠ
quan ĠweiĠ
lei ĠshiĠ
duiĠ zhenĠ
huĠ dongĠ
ĠshiĠyongĠ zheĠ
xiang ĠzhongĠ
shangĠ leĠ
yingĠ junĠ
zhouĠ zhangĠ
xun ĠdeĠ
th ĠĠĠ
fuĠ zhuĠrenĠ
Ġ Mi
ĠĠĠ 3Ġ
xiang ĠzaiĠ
fei ĠyiĠ
ceng ĠrenĠ
shengĠ jingĠ
tiĠ yanĠ
fenĠ lieĠ
ming ĠyouĠ
hou ĠbuĠjiuĠ
yong ĠzhiĠ
ĠweiĠ yaĠ
gongĠ gaoĠ
ĠwuĠ xianĠ
nvĠ haiĠ
peiĠ yangĠ
ĠquanĠ qiuĠ
ri ĠyuĠ
bo ĠkeĠ
zao ĠxingĠ
guiĠ moĠdeĠ
tuanĠ zhangĠ
jiu ĠrenĠ
gongĠ shangĠ
zhuĠ dongĠ
xiangĠ guan
huiĠ huaĠ
zhengĠ duoĠ
shangĠ pinĠ
liangĠ ceĠ
Ġ ning
Ġ poĠ
zuo ĠzhongĠ
qing ĠxiĠ
shengĠ fuĠ
yinĠ shua
chu ĠnianĠ
fa ĠliĠyaĠ
ye ĠweiĠ
dai ĠyiĠ
suan ĠfaĠ
fenĠ lanĠ
mianĠ linĠ
shuiĠ kuĠ
ĠqiĠzhongĠ nanĠ
taiĠwan ĠdeĠ
ĠĠĠ tongĠ
miao ĠdeĠ
ĠyuĠ qiĠtaĠ
ĠqiĠ youĠ
tianĠ tangĠ
gangĠ yuanĠ
ĠdeĠrenĠ wuĠ
mei ĠriĠ
huo ĠyueĠ
es Ġ
yanĠ wuĠ
sheĠ hui
ĠshiĠyiĠ jiĠ
ĠhuĠ nanĠ
Ġke ĠshiĠ
Ġ lai
Ġ gan
ĠĠĠ 1949
ĠĠĠ luĠ
hou ĠrenĠ
chengĠ zhangĠ
leĠ gaiĠ
ganĠ jueĠ
er ĠyouĠ
tong ĠzhongĠ
dong ĠyiĠ
du ĠyiĠ
ĠbuĠ laiĠ
qingĠ shaoĠnianĠ
zhenĠ yaĠ
tiĠyuĠ guanĠ
yi ĠshiĠjianĠ
jian ĠliĠdeĠ
ĠbuĠ zuĠ
qianĠ ruĠ
suĠ danĠ
ĠxiĠbanĠ yaĠyuĠ
ĠĠĠ feiĠ
dang ĠheĠ
na ĠerĠ
1973 ĠnianĠ
ĠheĠ heĠ
shenĠ chaĠ
mianĠjiĠ heĠ
ĠdongĠ jingĠ
Ġ15 Ġ
Ġ diao
Ġ sheĠliĠ
dui ĠliĠ
12 ĠnianĠ
ts Ġ
6 ĠgeĠ
Ġ chanĠ
Ġ zuiĠdaĠ
an ĠrenĠ
jie ĠzaiĠ
jie ĠweiĠzhiĠ
fa ĠzhongĠ
fou ĠrenĠ
daĠ duoĠshuĠ
shengĠ xiaĠ
meiĠ meiĠ
nvĠ yanĠyuanĠ
ĠguoĠminĠ dangĠ
xiaĠxiaĠdeĠyiĠgeĠ xiangĠ
a ĠjiĠ
Ġ 2004
Ġ Ro
Ġ reĠ
20 ĠnianĠ
cha ĠliĠ
chan ĠdeĠ
weiĠ yuĠ
shouĠ lingĠ
duoĠ mingĠ
quanĠ qiu
guĠ dongĠ
kaiĠ muĠ
ĠdeĠyiĠ siĠ
mouĠ shaĠ
Ġ JR
Ġ guĠshiĠ
shu ĠyouĠ
1936 ĠnianĠ
ĠyuĠ youĠ
yongĠ jiuĠ
Ġ xie
ĠyiĠ chengĠ
ĠzhiĠ zhengĠ
tongĠ wangĠ
shenĠ shangĠ
ĠtiĠ chuĠ
ĠmuĠqianĠ shangĠweiĠyouĠ
Ġ 36
Ġ 1998ĠnianĠ
ĠĠĠ gaoĠ
la ĠliĠ
su ĠdaĠ
ĠshiĠ guĠ
jianĠ daoĠ
danĠ yuanĠ
nanĠ feiĠ
ĠnianĠ12ĠyueĠ 31ĠriĠ
ĠshiĠzhongĠ xinĠ
xiangĠgang ĠdeĠ
Ġ 1ĠyueĠ
ĠĠĠ 2021ĠnianĠ
chuang ĠshiĠrenĠ
ĠyouĠ xingĠ
xiĠ siĠ
shengĠ geĠweiĠ
tianĠ ran
1941 ĠnianĠ
1959 ĠnianĠ
1963 ĠnianĠ
huoĠ dongĠdeĠ
haiĠ jun
ĠbaoĠ gaoĠ
leĠ liangĠ
laĠ teĠ
hanĠ linĠ
diĠyiĠ buĠ
w ĠĠĠ
fuĠ luoĠliĠdaĠ
ĠwanĠ pingĠfangĠ
Ġba ĠliĠ
ĠmuĠqianĠshangĠweiĠyouĠ renĠgongĠyinĠzhongĠzaiĠpeiĠ
ze ĠyiĠ
waiĠ guanĠ
ĠziĠ liaoĠ
Ġdan ĠyiĠ
canĠyuĠ leĠ
xianĠdeĠyiĠgeĠ xingĠzhengĠzhenĠquĠ
shen ĠjiĠ
biĠ ya
Ġ can
keĠ xue
anĠ pai
tianĠ huangĠ
ĠĠĠ boĠ
wu ĠzaiĠ
ming ĠheĠ
ĠzaiĠ naĠliĠ
ĠrenĠ jiaoĠ
zhuĠ daĠ
ĠqiĠ qiĠ
fangĠ chengĠ
bianĠ haoĠweiĠ
caiĠ wuĠ
chuangĠ xinĠ
wuĠliĠ xueĠ
zhang ĠliĠ
chou ĠbeiĠ
Ġ 21
ĠĠĠ 4ĠyueĠ
1939 ĠnianĠ
daoĠ qianĠ
mingĠ ciĠ
chongĠ manĠ
Ġ seĠ
he ĠyiĠgeĠ
tui ĠxingĠ
heĠ pingĠ
yuanĠ quĠ
juĠ changĠ
ĠgaiĠ diĠdeĠ
Ġzhou ĠnianĠ
bian ĠyuĠ
ĠrenĠ min
ĠxiĠ jinĠ
jiaoĠ zongĠ
kaiĠ faĠdeĠ
ĠzheĠ yeĠshiĠ
Ġzhe ĠbuĠ
Ġha ĠerĠ
lianĠmeng ĠdeĠ
Ġ buĠshiĠ
ĠĠĠ puĠ
tai ĠdaĠ
kan ĠfaĠ
duĠ jiaĠ
saiĠ baiĠ
zaoĠ qiĠdeĠ
jingĠjiĠ xueĠ
ĠkeĠnengĠ huiĠ
ĠĠĠ yue
mi ĠshiĠ
yin ĠjiĠ
xun ĠshiĠ
ĠzaiĠ renĠ
ĠdaĠ chenĠ
yinĠ ziĠ
cheĠ daoĠ
guĠ wuĠ
neiĠ mengĠguĠ
laĠ geĠ
Ġ gui
dian ĠyuĠ
zhou ĠfuĠzeĠguanĠxiaĠ
ĠerĠ zheĠ
shouĠ huiĠ
ruĠ jingĠ
ĠgongĠ jinĠ
ĠĠĠgeĠrenĠ shengĠhuoĠ
Ġ à¸
Ġ 1999ĠnianĠ
zeng ĠzhiĠ
31 Ġ
codice Ġ
ĠdanĠ yeĠ
ĠĠĠ 10
ĠĠĠ 7ĠyueĠ
bu ĠweiĠyuĠ
zhen ĠdiĠ
lun ĠsiĠ
buĠ manĠ
xiangĠ beiĠ
ĠnianĠ7ĠyueĠ 1ĠriĠ
ĠĠĠ TheĠĠĠ
xia ĠyuĠ
tuo ĠfuĠ
ĠshiĠ xiangĠgangĠ
shengĠ xiaoĠ
tiĠ gongĠdeĠ
wangĠ chao
Ġ 34
Ġ kaĠerĠ
Ġ keĠliĠsiĠ
xia ĠzhiĠ
niu ĠsiĠ
ne ĠshengĠ
xueĠ yuanĠdeĠ
xinĠ zengĠ
jiaoĠyuĠ jiĠ
ing ĠĠĠ
jin ĠzhongĠ
sui ĠdeĠ
duan ĠqiĠ
1965 ĠnianĠ
1953 ĠnianĠ
ĠzhiĠ yaoĠ
zhuĠyao ĠshiĠ
Ġ yuan
Ġ paĠ
ĠĠĠ yeĠ
fang ĠheĠ
tian ĠfuĠ
ĠliĠ youĠ
ĠxiĠ yuanĠ
1967 ĠnianĠ
ĠliĠ qiĠ
ĠbingĠ meiĠyouĠ
tingĠ yunĠ
ĠĠĠjinĠ guanĠ
xinĠ shengĠ
duiĠ taĠ
shuiĠ shenĠ
ĠĠĠ Ro
jiang ĠheĠ
nuo ĠsiĠ
al Ġ
1944 ĠnianĠ
fuĠ huaĠ
jinĠ xing
gaiĠ mingĠ
baĠ nen
kaĠluoĠ laiĠnaĠ
Ġ 90
ĠĠĠ e
xin ĠyuĠ
lao ĠgongĠ
ĠzaiĠ taĠdeĠ
ĠqingĠ chaoĠ
Ġ zha
ĠshiĠ nanĠjiĠzhouĠdeĠ
ĠyiĠ xie
zhuĠ longĠ
ĠyanĠ changĠ
Ġ bu
zhong ĠshiĠjiĠ
qian ĠweiĠ
ĠyueĠ laiĠyueĠ
xiangĠ lianĠ
Ġ xingĠshiĠ
ĠĠĠ X
ĠĠĠ quanĠ
han ĠshiĠ
ĠzhiĠ chi
jiaĠ zhouĠ
zhanĠ zhengĠdeĠ
ciĠ huiĠ
zongĠ duiĠ
shouĠdaoĠ leĠ
ĠĠĠ 8
hou ĠguoĠ
yan ĠliĠ
huo ĠyiĠ
liang ĠjiaĠ
wai ĠjiĠ
huan ĠxiangĠ
gongĠ zuoĠdeĠ
siĠ xingĠ
siĠ faĠ
minĠ jinĠ
niĠ yaĠdeĠ
liĠ yongĠ
Ġ 55
Ġ huiĠyiĠ
ĠĠĠ Mo
ĠĠĠ 8ĠyueĠ
dianĠ naoĠ
Ġjie ĠweiĠ
jing ĠxiĠ
cha ĠjuĠ
jinĠ shanĠ
yaĠ zhou
zuiĠ duoĠdeĠ
ĠliĠshiĠ xueĠjiaĠ
peiĠ xunĠ
ĠĠĠ guĠshiĠ
du ĠzhiĠ
qian ĠyuĠ
feng ĠyuĠ
fuĠ jiaĠ
ziĠ gongĠsiĠ
dianĠ chiĠ
baĠ saiĠ
ĠyuanĠ xingĠ
Ġ ouĠyuanĠ
ĠĠĠ laĠ
faĠ biao
houĠ fangĠ
yanĠ xuĠ
boĠ laĠ
ĠgongĠ gongĠ
ĠqianĠ miĠ
yingĠdeĠ leĠ
mianĠjiĠheĠ renĠkouĠ
ĠĠĠ jiuĠ
ĠĠĠ duiĠyuĠ
dao ĠliĠ
qian ĠliĠ
she ĠliĠdeĠ
1930 ĠnianĠ
lingĠ yuĠdeĠ
nianĠ daiĠ
zhanĠzheng ĠqiĠjianĠ
ni ĠshiĠ
zhen ĠrenĠ
ha ĠdeĠ
daĠ xueĠdeĠ
geĠ ciĠ
ĠdeĠjiĠ shuĠ
jiangĠsuĠ shengĠ
Ġ 38
nan ĠrenĠ
wang ĠyiĠ
la ĠdiĠ
lanĠ seĠ
Ġ 75
gai ĠzhiĠ
che ĠliĠ
ce ĠqiĠ
hang ĠxingĠ
ĠdaĠ buĠ
ĠgaiĠ cun
ĠjingĠ neiĠ
ĠboĠ luoĠ
ĠgaiĠdiĠdeĠ mianĠjiĠheĠrenĠkouĠ
ĠgaiĠdiĠdeĠmianĠjiĠheĠrenĠkouĠ jieĠweiĠzhiĠ
Ġ 11Ġ
weiĠ jiĠ
houĠ lai
ciĠ shuĠ
heiĠ longĠjiangĠ
ĠyiĠshuĠ jiaĠ
ĠĠĠyouĠ xiĠ
ĠĠĠ muĠqianĠ
pei ĠdeĠ
zhongĠ xueĠ
xuanĠ chuan
dangĠ xuanĠweiĠ
ĠĠĠ 2015ĠnianĠ
wei ĠshiĠjieĠ
ĠshiĠ zhengĠ
erĠ beiĠ
ĠfuĠ ze
ĠmingĠ chaoĠ
Ġ La
shou ĠerĠ
lei ĠheĠ
jiangĠ zuiĠjiaĠ
zongĠ jingĠliĠ
tuĠ anĠ
tingĠ kaoĠ
ĠqianĠ longĠ
zhengĠxie ĠweiĠyuanĠ
Ġ guanĠzhiĠ
an ĠfuĠ
ĠĠĠ jianĠliĠ
lu ĠweiĠ
zhuang ĠweiĠ
chui ĠzhiĠ
tongĠ chang
Ġ ding
Ġ junĠshiĠ
Ġ leiĠjiĠ
1935 ĠnianĠ
diĠ liuĠ
jiaĠ qiangĠ
ĠbuĠ luĠ
quĠ dongĠ
jiangĠ zheĠ
dangĠ anĠ
zhengĠfu ĠyuĠ
Ġ ou
mei ĠerĠ
sui ĠzhiĠ
shangĠ suĠ
zongĠ shuĠ
ĠwanĠ meiĠ
ĠtongĠ riĠ
ĠĠĠyiĠ xiaĠ
ĠfanĠ duiĠ
ĠfenĠbie ĠweiĠ
jiaĠliĠfuĠ niĠyaĠzhouĠ
Ġ 22
Ġ com
Ġ zhanĠdiĠ
ĠyiĠ tiĠ
yanĠ shengĠ
gaiĠ jinĠ
anĠ xianĠ
saiĠ cheĠ
ĠciĠ ciĠ
ĠwanĠ chengĠ
si ĠzhongĠ
chuan ĠyueĠ
jiaĠ naĠ
quĠ ziĠ
luĠ duanĠ
ĠhaiĠ junĠ
nongĠ changĠ
Ġ 2003
ĠĠĠ 2014ĠnianĠ
fu ĠzhongĠ
dong ĠzhiĠ
mei ĠyiĠ
te ĠzaiĠ
kuai ĠdeĠ
jiuĠ duĠyuĠ
ĠshiĠjiĠ yuĠ
Ġtong ĠzhiĠ
xiuĠ dingĠ
faĠshengĠ leĠ
ĠĠĠ jianĠzhuĠ
xin ĠheĠ
jianĠ danĠ
ĠqiĠ yongĠ
tongĠ xueĠ
zhouĠ bian
guĠ laoĠdeĠ
ziĠxingĠ cheĠ
Ġ 1940
li ĠyiĠ
cheng ĠyiĠgeĠ
ri ĠshiĠ
jiao ĠjiĠ
xiangĠ daoĠ
fenĠ chengĠ
ĠkeĠ laiĠ
liuĠ liangĠ
puĠ chaĠ
zuiĠzhongĠ yaoĠdeĠ
Ġ 70
ĠĠĠ 9ĠyueĠ
shan ĠyuĠ
zhuĠ shouĠ
xiangĠ jiaoĠ
nanĠ minĠ
geĠyueĠ houĠ
ĠM Ġ
Ġ zhuo
ĠĠĠ 2020ĠnianĠ
zhe ĠjiĠ
jingĠ quĠ
ĠbiĠ xuĠ
ĠhuaĠ shengĠ
ĠĠĠ 6Ġ
ba ĠtaĠ
suan ĠdeĠ
32 Ġ
zhuĠ guanĠ
yinĠ niĠ
pingĠ hengĠ
duĠ teĠdeĠ
miĠ duĠ
chiĠ jingĠ
ĠĠĠcheĠzhanĠ jieĠgouĠ
si ĠyueĠ
xia ĠerĠ
ĠbuĠ heĠ
shangĠ fangĠ
linĠ shengĠ
eĠ haiĠeĠ
kaĠ feiĠ
ĠcengĠ jingĠ
jinĠ chengĠ
zhengĠ jiaoĠ
ĠshengĠ chengĠ
huiĠyiĠ shangĠ
ziĠ shaĠ
touĠ ru
Ġdan ĠbuĠ
Ġer ĠheĠ
ĠĠĠzhiĠ zuoĠ
jin ĠnianĠ
fang ĠdiĠ
mu ĠjiĠ
2025 ĠnianĠ
ĠzaiĠ riĠbenĠ
jinĠ rongĠ
yingĠ geĠlan
ĠdaĠ qiaoĠ
ĠliĠfaĠ huiĠ
Ġ ga
sheng ĠrenĠminĠzhengĠfuĠ
zuo ĠheĠ
1969 ĠnianĠ
1961 ĠnianĠ
ĠerĠ laiĠ
ĠĠĠ muĠ
ya ĠsiĠ
pen Ġ
ĠzaiĠ nanĠ
fuĠ buĠzhangĠ
jianĠ chiĠ
beiĠ meiĠ
fangĠ xingĠ
baoĠ fuĠ
mianĠ qianĠ
luoĠfaĠ keĠ
Ġ heng
15 ĠnianĠ
1931 ĠnianĠ
juĠ feng
hangĠ zhanĠ
ĠqiĠzhongĠ youĠ
ĠR Ġ
ban ĠnianĠ
kuang ĠjiaĠ
jinĠ zhangĠ
yingĠ guoĠdeĠ
ĠdeĠshiĠ shiĠ
ĠĠĠ huoĠ
ĠĠĠ riĠbenĠ
ĠĠĠ 6ĠyueĠ
ĠĠĠ 2013ĠnianĠ
jin ĠqiĠ
dui ĠweiĠ
zhuan ĠzhiĠ
huiĠ jiaĠ
juĠ zhuĠzaiĠ
juĠ juĠzhangĠ
jiuĠ beiĠ
chongĠ zuĠ
tuiĠ fanĠ
Ġmi ĠzhiĠ
Ġ man
Ġ 2002
Ġ 20Ġ
ĠĠĠ 12
bao ĠjiĠ
duo ĠbuĠ
yanĠ faĠ
gongĠchanĠ zhuĠyiĠ
li ĠkeĠ
ci ĠheĠ
lu ĠxiĠ
luo ĠweiĠ
yao ĠzaiĠ
1957 ĠnianĠ
ĠshiĠ taiĠwanĠ
ĠdeĠyiĠ jianĠ
chengĠliĠ leĠ
ĠzhengĠ geĠ
ĠbingĠqie ĠzaiĠ
Ġ 46
ĠĠĠ yongĠ
dai ĠzhiĠ
fei ĠzhiĠ
ka ĠdeĠ
ĠshiĠ siĠ
zhanĠ juĠ
ĠzhuĠ xiĠ
liĠ liangĠ
ĠtaiĠ pingĠ
wuĠxianĠ dianĠshiĠ
tai ĠweiĠ
keĠ xueĠjiaĠ
fangĠ bianĠ
yanĠ shenĠzhiĠ
ĠdaĠ xueĠdeĠ
ĠfuĠ gaiĠ
wanĠ zhengĠdeĠ
luoĠ xuanĠ
Ġ 150
Ġ chongĠxinĠ
ĠĠĠ 2010ĠnianĠ
ku ĠerĠ
ĠyouĠ heĠ
zuoĠ leĠ
wenĠ geĠ
hangĠ banĠ
Ġ guanĠliĠ
ming ĠjiĠ
yan ĠqiĠ
nei ĠsiĠ
reng ĠzaiĠ
ĠshiĠ fuĠ
ĠguoĠ fangĠ
ĠxiĠ xiĠ
junĠ beiĠ
Ġmi ĠdeĠ
shou ĠliĠ
zu ĠweiĠ
guoĠ fangĠbuĠ
ĠkeĠ laĠ
muĠ jianĠ
zhenĠ zhengĠ
cheĠ tuiĠ
feiĠ chang
baĠ leĠsiĠ
p ĠĠĠ
ĠĠĠ 15
mei ĠzhongĠ
1951 ĠnianĠ
Ġyue ĠrenĠ
yuanĠ waiĠ
shuĠ shuĠ
mengĠ teĠ
ĠĠĠgenĠjuĠ 2010ĠnianĠmeiĠguoĠrenĠkouĠpuĠchaĠdeĠshuĠjuĠ
Ġ gouĠ
ĠĠĠ 2012ĠnianĠ
shen ĠliĠ
ka ĠliĠ
liuĠ xueĠ
po ĠerĠ
wangĠ houĠ
zuĠ ziĠzhiĠ
ĠxianĠ jinĠ
Ġceng ĠzaiĠ
ĠD Ġ
Ġ long
jiang ĠweiĠ
qian ĠqiĠ
lai ĠerĠ
ben ĠzhiĠ
tui ĠliĠ
hei ĠrenĠ
son Ġ
shengĠ jieĠrangĠ
qianĠ xianĠ
ĠP Ġ
Ġ zhui
chong ĠfuĠ
1942 ĠnianĠ
taiĠ shouĠ
meiĠ tianĠ
zhuanĠ huanĠ
Ġfei ĠliĠ
Ġ yuĠyiĠ
xiao ĠyiĠ
chen ĠdeĠ
ĠshiĠ shangĠ
zhengĠ wuĠ
ĠriĠ baoĠ
liuĠ chuanĠ
tuĠ ranĠ
quĠshiĠ houĠ
Ġjiang ĠxiĠ
ĠĠĠ 2005
ĠĠĠ tangĠ
mi ĠjiĠ
dang ĠriĠ
duo ĠliĠ
jianĠ zhuĠshiĠ
jieĠ jieĠ
qianĠ laiĠ
ĠkeĠ chengĠ
feiĠ faĠ
ĠdaoĠ daĠ
liaoĠ ning
ta ĠerĠ
quĠ neiĠ
quanĠ tiĠ
guangĠ fanĠdeĠ
ĠweiĠyuanĠ huiĠdeĠ
zhengĠfu ĠzaiĠ
e ĠerĠ
Ġ zao
Ġ 180
ĠĠĠ yanĠgeĠ
jin ĠheĠ
ri ĠerĠ
nan ĠyuĠ
zong ĠdeĠ
30 ĠnianĠ
1960 ĠnianĠdaiĠ
beiĠ qiĠ
chongĠ fanĠ
xinĠguanĠ feiĠyanĠ
ti ĠbuĠ
pu ĠdeĠ
rong ĠdeĠ
huiĠ guanĠ
liuĠ geĠ
tuĠ ran
ĠshiĠshiĠ zhangĠ
liang ĠyuĠ
che ĠrenĠ
pan ĠdeĠ
ĠyiĠ qingĠ
jiaĠ erĠ
tanĠ suoĠ
Ġ qin
Ġ pao
er ĠzhongĠ
1933 ĠnianĠ
ĠyiĠ jiaoĠ
xiĠ lie
faĠ jueĠ
jinĠ siĠ
jingĠ yuanĠ
fangĠ xiangĠdeĠ
baoĠ anĠ
daiĠ tiĠ
tuĠ shaĠ
mianĠ xiangĠ
Ġyou ĠdeĠ
xingĠzhengĠ danĠweiĠ
ĠanĠ huiĠ
ĠdiĠerĠ ciĠ
ĠĠĠ gai
guan ĠzaiĠ
kai ĠqiĠ
ken ĠdingĠ
ĠyiĠ changĠ
ĠjiĠ cheĠ
caiĠ zhengĠbuĠ
gangĠ tieĠ
hangĠkong ĠgongĠsiĠ
ĠshiĠyiĠgeĠweiĠyuĠ meiĠguoĠ
dao ĠguoĠ
tuo ĠerĠ
gei ĠtaĠ
ĠzhongĠ beiĠ
tingĠ zhangĠ
renĠdaĠ daiĠbiaoĠ
fan ĠfuĠ
1928 ĠnianĠ
ĠĠĠ Li
ĠĠĠ De
xian ĠbuĠ
xin ĠzhiĠ
lei ĠyuĠ
cun ĠyuĠ
fuĠ qiĠ
leĠ xuĠduoĠ
ĠliuĠyuĠ mianĠjiĠ
wan ĠqiĠ
ben ĠjiĠ
che ĠxingĠ
shao ĠyouĠ
renĠ min
bianĠ zuĠ
ĠbingĠ biaoĠshiĠ
ĠzhuĠ chiĠ
Ġ Vi
ying ĠheĠ
zhao ĠshiĠ
zhuĠ chiĠrenĠ
ĠgongĠ luĠ
ĠgenĠjuĠ 2020ĠnianĠmeiĠguoĠrenĠkouĠpuĠchaĠdeĠshuĠjuĠ
Ġ kua
ĠdaĠ diĠ
duoĠ xiangĠ
ĠyeĠ keĠyiĠ
taoĠ wangĠ
ĠfenĠbie ĠshiĠ
Ġ jiĠyiĠ
zuo ĠjiĠ
ben ĠbuĠ
fan ĠjiĠ
nv ĠyouĠ
qiao ĠdeĠ
keĠ saĠsiĠ
chengĠ danĠ
huoĠ quĠ
boĠ yinĠ
fengĠ geĠdeĠ
touĠ shouĠ
xinĠxiĠ lanĠ
ĠĠĠ faĠguoĠ
ĠĠĠ 2011ĠnianĠ
nian ĠdeĠ
fuĠ siĠ
ĠjiaĠ ru
saiĠ guanĠjunĠ
ĠdeĠyiĠ weiĠ
zhuanĠ quĠ
Ġ tuiĠchuĠ
ĠĠĠ zuiĠ
guan ĠweiĠ
gu ĠyiĠ
ĠqiĠ houĠyuĠ
shangĠ jiangĠ
xiaoĠ sheĠ
ĠtaĠ jiangĠ
caiĠ panĠ
huoĠdeĠ deĠ
5Ġ gongĠliĠ
ĠĠĠ ruĠ
ma ĠqiĠ
huan ĠweiĠ
zhongĠ haiĠ
yuanĠ shuĠ
ĠerĠ ciĠ
ĠxiĠ siĠ
fenĠ xiangĠ
ĠyunĠ nanĠ
fen ĠshiĠ
tai ĠyiĠ
ĠjiĠ xu
gongĠ sheĠ
shouĠ mingĠ
yeĠ naĠ
xueĠshiĠ xueĠweiĠ
Ġ qu
Ġ 37
Ġ 39
ze ĠdeĠ
gang ĠdeĠ
shun ĠxuĠ
1912 ĠnianĠ
diĠ mianĠ
geĠ tiĠ
jieĠ xiaĠ
qianĠ zeĠ
ĠyinĠweiĠ taĠ
Ġ tuanĠ
Ġ 2023ĠnianĠ
jing ĠbuĠ
qing ĠheĠ
ting ĠheĠ
ceng ĠbeiĠ
ry Ġ
jieĠ ruĠ
dianĠ liuĠ
pingĠ dingĠ
ĠdanĠ zheĠ
ĠshiĠshiĠ yiĠ
ĠxinĠ zeng
Ġ 1997ĠnianĠ
ĠĠĠ s
ĠĠĠ di
ĠĠĠ baiĠ
fei ĠshiĠ
bai ĠxingĠ
ĠshiĠ xiĠbanĠyaĠ
huaĠ mianĠ
zuoĠ yeĠ
ĠsiĠ lingĠbuĠ
meiĠ guoĠyiĠ
keĠneng ĠxingĠ
yaĠmeiĠ niĠyaĠ
Ġ te
dou ĠbuĠ
mao ĠdeĠ
chengĠ gongĠdeĠ
faĠ erĠ
yinĠ jinĠ
danĠ xinĠ
duoĠ lunĠ
waiĠ jieĠ
ĠjieĠ fangĠ
qiangĠ daĠdeĠ
Ġ rui
Ġ De
Ġ houĠyuĠ
le ĠzhiĠ
pan ĠchuĠ
ss Ġ
faĠ buĠdeĠ
nvĠ wangĠ
ĠyingĠ xiangĠ
wangĠyuanĠ jingĠ
wan ĠnianĠ
ting ĠshiĠ
fengĠ suoĠ
chuangĠ zao
Ġ bangĠzhuĠ
cha ĠerĠsiĠ
yanĠ zou
guanĠ xiĠdeĠ
danĠ duĠ
tiaoĠ wenĠ
guan Ġli
yong ĠdiĠ
wen ĠyuĠ
zhongĠ huaĠ
shenĠ ruĠ
dianĠyingĠ jieĠ
ĠrenĠkou ĠdeĠ
8 ĠgeĠ
yu ĠdeĠguoĠ
zu ĠshiĠ
lin ĠyuĠ
1927 ĠnianĠ
ĠliĠ jingĠ
gongĠ zhanĠ
shouĠ huanĠyingĠ
ĠtongĠshiĠ yeĠ
Ġ fenĠweiĠ
zai ĠĠĠ
yong ĠheĠ
san ĠdeĠ
san ĠyueĠ
sha ĠshiĠ
heĠ beiĠ
jieĠ shou
biĠ saiĠdeĠ
xieĠ daiĠ
shuiĠ mianĠ
Ġri ĠyiĠ
ĠmianĠjiĠ 0
ĠĠĠ wenĠhuaĠ
ting ĠjiĠ
ĠshiĠ keĠ
ĠweiĠ daĠ
diĠ tieĠ
xianĠ zaiĠdeĠ
ĠfuĠ erĠ
baĠ geĠ
ĠjieĠ jinĠ
ĠjieĠ gouĠ
ĠaoĠ daĠliĠyaĠ
huĠlianĠ wangĠ
yi ĠdeĠshiĠ
huang ĠheĠ
jianĠ shao
zhuĠ zhaiĠ
jingĠ neiĠdeĠ
zongĠ zhanĠ
wuĠ renĠjiĠ
fenĠ shuĠ
suĠ songĠ
shanĠ dingĠ
ĠshiĠshiĠ deĠ
zuoĠpin ĠdeĠ
Ġ nu
ĠĠĠ dianĠ
fa ĠrenĠ
1943 ĠnianĠ
diĠ daĠ
daĠ lu
ĠdaĠ qiĠ
junĠ jianĠ
sheĠ huiĠdeĠ
ĠyiĠjiĠ zaiĠ
Ġ xue
Ġ Ð°
Ġ guoĠliĠ
ĠĠĠ re
ĠĠĠ guanĠ
1932 ĠnianĠ
Ġli ĠnianĠ
tongĠ baoĠ
wenĠ siĠ
tiĠ quĠ
baĠ faĠliĠyaĠ
hangĠ zhouĠ
ĠhuĠ beiĠ
Ġ zeng
zhou ĠdeĠyiĠgeĠshiĠzhenĠ
luĠ waĠ
suĠ sheĠ
ĠdaoĠ luĠ
Ġ000 Ġ
ĠluĠwa ĠerĠshengĠ
Ġ fu
zun ĠzhongĠ
tiĠ caiĠ
qianĠ xiaĠ
boĠ chuĠdeĠ
duoĠ yuanĠ
yanĠjiu ĠzhongĠxinĠ
ĠshiĠxingĠ dengĠweiĠ
1929 ĠnianĠ
banĠ benĠdeĠ
ĠjingĠ fangĠ
renĠkouĠpuĠ chaĠ
aĠgenĠ tingĠ
Ġ chuang
le ĠxiĠ
zu ĠjiĠ
dang ĠbuĠ
shen ĠheĠ
tianĠ wenĠxueĠ
paiĠ lieĠ
ĠaoĠ menĠ
Ġ she
shen ĠqiĠ
fan ĠdaĠxueĠ
ting ĠyuĠ
wuĠ buĠ
chengĠ shuĠ
xueĠ tangĠ
liangĠ haoĠ
shenĠ fuĠ
ranĠ liaoĠ
Ġ 400
Ġ yuanĠshiĠ
ĠĠĠ aiĠ
bi ĠyuĠ
jiu ĠyueĠ
ceng ĠyouĠ
jiaoĠ gaoĠ
qianĠ yinĠ
xingĠzhengĠ quĠhuaĠ
ĠguangĠ xuĠ
aĠerĠ beiĠsiĠ
reĠdai ĠqiĠxuanĠ
Ġ tan
you ĠĠĠ
duo ĠsiĠ
jiaĠ xiangĠ
shuĠ faĠ
tongĠ yang
duĠ ziĠ
meiĠ ti
duoĠ guanĠ
geĠlunĠ biĠyaĠ
or Ġ
1924 ĠnianĠ
ĠweiĠ zaiĠ
ĠzhongĠ yaoĠdeĠ
quĠ bieĠ
ĠdeĠyiĠ ciĠ
neiĠ ruiĠ
Ġdan ĠyuĠ
ĠxianĠshiĠ youĠ
Ġ 2001
ĠdiĠ 1Ġ
quĠ muĠ
benĠ shuĠ
shaĠ tianĠ
ĠshengĠ huoĠ
Ġ yao
Ġ siĠshiĠ
Ġ hengĠliĠ
tong ĠqiĠ
yin ĠyouĠ
bo ĠjiĠ
diĠ fenĠ
ĠbuĠ yaoĠ
jiangĠ xueĠ
puĠ luoĠ
panĠ luanĠ
Ġzai ĠshiĠ
Ġchi ĠweiĠ
ty Ġ
buĠ zaiĠ
ĠyueĠ tuan
ĠxianĠ luĠ
yiĠshiĠ daoĠ
Ġ 300
ĠĠĠ lingĠ
ca Ġ
ĠzaiĠ wuĠ
gongĠ ziĠ
jianĠ ceĠ
ĠdaĠ banĠ
ĠzheĠ zuoĠ
Ġ kuaiĠ
Ġ zhongĠyuĠ
Ġ houĠyouĠ
miao ĠyuĠ
13 ĠnianĠ
1934 ĠnianĠ
ĠyouĠ xiĠdeĠ
xianĠ daoĠ
shouĠ cang
ĠsiĠ houĠ
zhuanĠ jiĠdeĠ
woĠ men
ĠfeiĠ lvĠ
ĠĠĠweiĠ leĠ
gongĠchanĠ dang
21 ĠnianĠ
ĠjiĠ xieĠ
ĠzhiĠ ciĠ
zhongĠ gongĠ
jinĠ huiĠ
bingĠ wuĠ
diĠyiĠ baiĠ
keĠyiĠ tongĠguoĠ
Ġ tu
Ġ nuo
ĠĠĠ zuoĠweiĠ
shuo ĠfuĠ
yuanĠ jianĠ
jieĠ lunĠ
shengĠ huiĠ
ĠdiĠ renĠ
xinĠ zhuĠ
zuĠ xianĠ
ĠdeĠyiĠ jiĠ
hanĠ gaiĠ
dianĠshiĠjieĠ muĠ
tao ĠyuanĠ
sa ĠdeĠ
fangĠ zhenĠ
tiĠ qianĠ
daiĠ laiĠdeĠ
ĠdeĠyiĠ xiangĠ
ĠziĠ xingĠ
ĠchuĠ ciĠzhiĠwaiĠ
quanĠguoĠ zhongĠdianĠ
luoĠma ĠdiĠguoĠ
qi ĠliĠ
ĠyiĠ xianĠ
keĠ leiĠ
banĠ quanĠ
ĠziĠ ranĠ
qiangĠ huaĠ
ĠzuoĠ biaoĠweiĠ
tianĠwenĠ taiĠ
ĠĠĠ haiĠ
yong ĠqiĠ
nv ĠrenĠ
daĠ xuanĠ
jingĠ beiĠ
fangĠ chengĠshiĠ
huaĠ guiĠ
yangĠ ziĠ
zongĠ juĠ
tingĠ zhanĠ
ĠgeĠ guoĠ
shaĠ baiĠ
Ġ biĠdeĠ
ĠĠĠ 2008ĠnianĠ
jingĠ touĠ
eĠ huaĠ
mengĠ junĠ
maoĠ dunĠ
24Ġ xiaoĠshiĠ
Ġ HR
ĠĠĠ 4Ġ
lu ĠerĠ
fan ĠshiĠ
or ĠĠĠ
duiĠ fuĠ
ruĠ qiuĠ
ĠtongĠshiĠ yeĠshiĠ
Ġ ë
Ġ chaoĠguoĠ
zang ĠyuĠ
CD Ġ
ziĠ woĠ
ciĠ ciĠ
yeĠ zhanĠ
liuĠ dongĠ
zongĠ guanĠ
ĠbingĠ feiĠ
zhaoĠ guĠ
2Ġ miĠ
taoĠ wanĠ
ĠshangĠ shuĠ
ĠzhuĠyao ĠshiĠ
2 ĠliĠ
3 ĠmiĠ
Ġ Si
nei ĠyiĠ
ĠshiĠshiĠ shiĠ
ĠdeĠdiĠ sanĠ
ĠdeĠguoĠ chengĠ
ĠwoĠ men
ciĠshiĠjieĠdaĠ zhanĠqiĠjianĠ
ĠĠĠ 7
ĠĠĠ wanĠ
ying ĠzhiĠ
qiu ĠheĠ
ting ĠdaoĠ
27 Ġ
zhuĠ fangĠ
zhuĠ quanĠ
riĠ changĠ
xiaĠ xiaĠ
liangĠ anĠ
zhuanĠ bianĠ
tuoĠ luoĠ
ĠdeĠjiĠ benĠ
ĠĠĠ jingĠliĠ
ta ĠyouĠ
hao ĠheĠ
zhuan ĠliĠ
fuĠ xianĠ
huoĠ cheĠzhanĠ
kaoĠ chaĠ
J Ġ
kai ĠerĠ
18 ĠnianĠ
ĠzhongĠ guoĠdeĠ
zhanĠ quĠ
ĠkeĠ leiĠ
dangĠ xuan
chanĠ wuĠ
cunĠ zaiĠyuĠ
Ġ SAO
jue ĠweiĠ
xiangĠ dongĠ
ceĠ lveĠ
zhe ĠyouĠ
fan ĠerĠ
hao ĠzaiĠ
pu ĠsiĠ
25 ĠnianĠ
ĠjiĠ keĠ
ĠyuĠ leiĠ
buĠ duanĠ
ĠguoĠ jia
xianĠ mingĠ
houĠ daiĠ
fangĠ xianĠ
rongĠ liangĠ
minĠzuĠ zhuĠyiĠ
ĠE Ġ
baoĠfaĠ houĠ
le ĠheĠ
19 ĠnianĠ
wen ĠdiĠ
bai ĠheĠ
run Ġ
wuĠ pinĠ
ĠerĠ taĠ
xueĠ xiaoĠdeĠ
ĠjiaĠ erĠ
duoĠ quĠ
ĠbingĠ chengĠ
tongĠzhiĠ zheĠ
meiĠguoĠrenĠkouĠpuĠ chaĠ
ĠdiĠqiĠ yaĠ
ĠĠĠ guoĠjiĠ
ta ĠĠĠ
wen ĠbuĠ
ze ĠbeiĠ
chi ĠdaoĠ
heĠ lanĠ
ĠzhongĠ daĠ
wuĠ erĠ
jiaĠ suĠ
huiĠ sheĠ
huaĠ fenĠ
moĠ fangĠ
poĠ lunĠ
Ġ Li
ĠĠĠ hongĠ
dong ĠheĠ
yuanĠ shengĠ
fuĠ zeĠrenĠ
jingĠ lingĠ
fanĠ gongĠ
caiĠ fangĠ
1Ġ riĠqiĠ
ĠtaiĠ beiĠ
mouĠ xie
7 ĠgeĠ
ĠĠĠ yaĠ
ya ĠzaiĠ
ted ĠĠĠ
ĠshiĠ eĠluoĠsiĠ
guoĠ chengĠzhongĠ
geĠ laĠsiĠ
faĠ xian
faĠ daĠ
aiĠ haoĠ
pianĠ duanĠ
Ġ12 Ġ
2 ĠĠĠ
Ġ 1994ĠnianĠ
ĠĠĠ fenĠleiĠ
fa ĠzaiĠ
qu ĠdeĠyiĠgeĠ
gu ĠerĠ
diao ĠyuĠ
26 Ġ
ly ĠĠĠ
ĠguoĠ duĠ
ĠqiĠ yueĠ
huaĠ beiĠ
tiĠ gong
fenĠ pei
Ġa ĠerĠbeiĠ
Ġ pengĠ
ĠĠĠ zhenĠ
zhi ĠdeĠyiĠ
guan ĠliĠdeĠ
nan ĠxiĠ
qing ĠliĠ
luo ĠheĠ
niu ĠyueĠshiĠ
diĠ dianĠ
jiaĠ shangĠ
jueĠ seĠdeĠ
ĠjinĠ erĠ
xianĠdeĠ feiĠjianĠzhiĠdiĠquĠ
Ġgai ĠshiĠ
yu ĠyiĠgeĠ
qiu ĠyiĠ
reng ĠweiĠ
ry ĠĠĠ
ĠguoĠ junĠ
seĠ caiĠ
erĠdeĠ mingĠ
0 ĠzuoĠbiaoĠweiĠ
Ġ boĠshiĠ
hua ĠerĠ
gan ĠshiĠ
tang ĠheĠ
tao ĠliĠ
ĠqiĠ B1900
mingĠ chengĠweiĠ
lianĠ saiĠdeĠ
ĠweiĠyuĠ yinĠjingĠ
ĠweiĠwuĠ erĠ
0ĠzuoĠbiaoĠweiĠ chiĠjingĠ
Ġ yingĠdeĠ
shu ĠdiĠ
qu ĠdiĠ
dui ĠdaĠ
wen ĠzhiĠ
nan ĠzhiĠ
luo ĠerĠ
pu ĠjiĠ
geng ĠshiĠ
fuĠ nvĠ
shengĠ huoĠdeĠ
dongĠ yaĠ
ĠsiĠ xiangĠ
nanĠ buĠdeĠ
suoĠ weiĠdeĠ
ĠliĠshiĠ huiĠ
dianĠshiĠ dongĠhuaĠ
ĠzongĠ tongĠ
ĠyinĠci ĠzaiĠ
Ġ ãĥ³
da ĠrenĠ
chengĠ xiangĠ
ĠshiĠjiĠ zhongĠ
ĠqingĠ chaoĠzhengĠzhiĠrenĠwuĠ
ĠĠĠ sanĠ
ĠĠĠ 11ĠyueĠ
mo ĠliĠ
shui ĠzhongĠ
sen ĠdeĠ
sang ĠshiĠ
buĠ huiĠ
yuanĠ xiaoĠ
chuĠ saiĠ
zuĠqiuĠ lianĠsaiĠ
ĠguoĠminĠ zhengĠfuĠ
Ġ zou
tai ĠzaiĠ
gongĠ dianĠ
ĠxiĠ zhouĠ
ĠfuĠ langĠ
ĠdongĠ huaĠ
ĠF Ġ
ĠĠĠcheĠzhanĠ gouĠzaoĠ
ĠĠĠ 2022ĠnianĠ
te ĠsiĠ
bai ĠnianĠ
dongĠ quĠ
yinĠ daoĠ
jiangĠ paiĠ
miĠ qieĠ
xuanĠ yanĠ
henĠ daĠdeĠ
biaoĠxianĠ chuĠ
Ġ 1945
yi ĠĠĠ
ĠĠĠ biĠ
ĠĠĠ linĠ
ĠĠĠ taĠdeĠ
liang ĠyiĠ
60 Ġ
ĠnianĠ qingĠdeĠ
daĠ lou
meiĠ dongĠ
nanĠsiĠ laĠfuĠ
xinĠtaiĠ biĠ
Ġ In
Ġ 1992ĠnianĠ
lu ĠzhongĠ
te ĠrenĠ
bai ĠshiĠ
juĠ dianĠ
saiĠ naĠ
kongĠ zhiĠdeĠ
feiĠlvĠ binĠ
ĠĠĠ zuoĠ
yun ĠzaiĠ
chuan ĠdaoĠ
shao ĠweiĠ
35 Ġ
ve ĠĠĠ
pen ĠdiĠ
1909 ĠnianĠ
yuanĠ zhengĠ
gongĠ wuĠ
shengĠ danĠ
yingĠ xiangĠdeĠ
xinĠ quĠ
ĠxingĠ zheng
zongĠ shuĠjiĠ
leiĠ siĠyuĠ
xunĠ zhao
wanĠchengĠ leĠ
ĠJ Ġ
shunĠshiĠ zhenĠyuĠ
Ġ la
Ġ changĠqiĠ
Ġ taiĠguoĠ
ĠĠĠ 9
du ĠzaiĠ
sha ĠrenĠ
28 Ġ
yingĠ pian
luĠ jingĠ
ĠgeĠ mingĠ
faĠbuĠ leĠ
ĠweiĠyuĠgaiĠ shengĠ
zhan ĠyiĠzhongĠ
tu ĠshiĠ
wa ĠdeĠ
suan ĠjianĠ
beiĠ renĠweiĠ
ĠqiĠ renĠ
bianĠ maĠ
Ġ minĠzhuĠ
Ġ guangĠxiĠ
xun ĠxiĠ
daĠ geĠmingĠ
wuĠ tiĠ
changĠ changĠ
aoĠ daĠliĠ
jiaĠruĠ leĠ
zhenĠjiĠ xingĠzhengĠdanĠweiĠ
Ġ 1990
Ġ 160
ĠĠĠ kaiĠ
you ĠyiĠzhiĠ
fa ĠweiĠyuanĠ
ta ĠliĠ
te ĠweiĠ
fei ĠdiĠ
shui ĠheĠ
pao ĠdaoĠ
zheĠ xiangĠ
feiĠ danĠ
ĠgeĠ erĠ
hongĠ zhaĠ
ĠzhanĠ houĠ
ĠxingĠzhengĠ quĠ
zhanĠdou ĠjiĠ
mu ĠliĠ
ya ĠjiĠ
duan ĠweiĠ
cong ĠzhongĠ
daĠ banĠ
ĠxiĠ geĠ
jiangĠ nanĠ
benĠ zhanĠ
ĠziĠ ran
Ġ gang
Ġ 64
Ġ luoĠsiĠ
Ġ duĠliĠ
qiang ĠdaĠ
gen ĠdiĠ
ĠqiĠ xi
zuoĠ wuĠ
Ġ 1993ĠnianĠ
zhuan ĠkeĠ
xiu ĠsiĠ
16 ĠnianĠ
1970 ĠnianĠdaiĠ
ĠbuĠ tong
ĠbuĠ bingĠ
shangĠ biaoĠ
leĠ biĠ
zhanĠ lveĠ
ĠpingĠ chengĠ
tiaoĠ kuanĠ
Ġ9 Ġ
e ĠyuĠ
Ġ pang
lian ĠshiĠ
zui ĠxingĠ
zhuan ĠchengĠ
ĠyiĠ dingĠ
ĠyiĠ seĠlieĠ
ĠzhiĠ hou
luoĠ teĠ
ĠcongĠ ciĠ
ĠweiĠjiĠ chuĠ
xiaĠxiaĠdeĠyiĠgeĠxiangĠ zhenĠjiĠxingĠzhengĠdanĠweiĠ
Ġ 58
Ġ aoĠsiĠ
ĠĠĠ Z
ĠĠĠ fengĠ
ba ĠjiĠsiĠ
33 Ġ
xueĠ tongĠ
laiĠ kanĠ
kaiĠ chuĠ
chuanĠ shuĠ
lvĠ huaĠ
Ġ cang
min ĠshiĠ
35 ĠnianĠ
qia Ġ
buĠ zuĠ
xiangĠ liangĠ
fangĠ kongĠ
bingĠ beiĠ
dianĠ xinĠ
shenĠ panĠ
ĠboĠ lanĠ
hunĠ ningĠ
ĠguanĠ zhuangĠbingĠduĠ
zhuiĠsuĠ daoĠ
Ġ kao
zhan ĠliĠ
shengĠ qiĠ
mingĠ chaoĠ
yinĠ yingĠ
wenĠ shuĠ
gangĠ qinĠ
ĠshangĠ yeĠ
nanĠjiĠ tiaoĠyueĠ
ao ĠkeĠ
shou ĠzaiĠ
ting ĠzhongĠ
EST Ġ
jiaĠ sheĠ
shouĠ sunĠ
ĠgaiĠ shuĠ
ceĠ lve
ĠtongĠ yangĠ
ĠshiĠrenĠminĠ zhengĠfuĠ
Ġ 1999
Ġ fenĠbuĠzaiĠ
ĠĠĠ ma
ĠĠĠ Vi
di ĠshiĠyiĠ
te ĠzhiĠ
mian ĠweiĠ
long ĠkeĠ
rong ĠjiĠ
22 ĠnianĠ
ĠjiĠ yinĠ
xiĠ tongĠdeĠ
siĠ houĠ
ciĠ dianĠ
ĠgeĠ lanĠ
yanĠjiu ĠdeĠ
dongĠjingĠ duĠ
3 ĠmingĠ
ĠĠĠ 2009ĠnianĠ
ya ĠerĠ
pai ĠheĠ
buĠ tong
erĠ chengĠ
shangĠ keĠ
luĠ yinĠ
tiĠ anĠ
yaĠ geĠ
tianĠ xiaĠ
guangĠ bo
qiangĠ diao
ĠnanĠ beiĠ
Ġ weiĠshiĠ
Ġ 1995ĠnianĠ
ĠĠĠ fenĠ
ing Ġ
yuan ĠrenĠ
ming ĠqiĠ
du ĠyueĠ
tu ĠsiĠ
chuan ĠshiĠ
laiĠ zi
paiĠ she
Ġ 47
Ġ 1996ĠnianĠ
ĠĠĠ sheĠjiĠ
ge ĠĠĠ
ping ĠrenĠ
14 ĠnianĠ
ra Ġ
ĠzhongĠ wen
chuĠ jingĠ
guanĠ zhengĠ
changĠ anĠ
ĠziĠ ciĠ
ĠxiangĠ siĠ
ĠxiangĠ dangĠyuĠ
zaoĠ chuanĠ
ĠweiĠyuanĠhuiĠ zhuĠxiĠ
Ġa ĠliĠ
ĠT Ġ
canĠsaiĠ ziĠgeĠ
nanĠjiĠtiaoĠyueĠ tiĠxiĠ
Ġ 1998
Ġ douĠshiĠ
ji ĠshiĠshiĠ
ĠĠĠ shuĠ
gai ĠyouĠ
tou ĠyuĠ
ĠshiĠ fenĠ
ĠliĠ xianĠ
ĠzaiĠ xinĠ
mingĠ xianĠdeĠ
shangĠ jieĠ
jiaoĠ zhanĠ
xiaoĠ huaĠ
ĠfuĠ zhuĠ
caoĠ zuo
Ġha ĠliĠ
xiuĠdaoĠ yuanĠ
ĠĠĠ moĠ
duo ĠyuĠ
1925 ĠnianĠ
faĠ yanĠrenĠ
ĠdiĠ mianĠ
jiaoĠ tuĠ
gengĠ daĠdeĠ
ji ĠshiĠjianĠ
ĠĠĠ U
jun ĠqiĠ
liu ĠyiĠ
11 ĠnianĠ
tao ĠfaĠ
sa ĠkeĠsiĠ
beiĠ luĠ
shouĠ huĠ
shouĠ geĠquĠ
ĠhuiĠ fuĠ
diĠshiĠ niĠ
Ġda ĠyueĠ
tongĠxingĠ lianĠ
3 ĠhaoĠ
Ġ 48
Ġ 1996
Ġ qiĠyiĠ
ĠĠĠ baoĠ
jia ĠliĠyaĠ
ban ĠzhiĠ
shui ĠdaoĠ
hun ĠliĠ
jianĠ cha
guanĠ daoĠ
biĠ yaoĠ
laiĠ wuĠ
ĠjuĠ jueĠ
ĠhuoĠ chengĠ
weiĠyiĠ zhongĠ
xiaoĠxingĠ xingĠdeĠ
ĠeĠ luoĠ
zhi ĠĠĠ
ying ĠyiĠ
lv ĠheĠ
tuo ĠkeĠ
hun Ġyin
ĠshiĠ nianĠ
ĠweiĠ xianĠ
ĠzhongĠ yao
fangĠ shouĠ
ĠfuĠ jinĠdeĠ
yunĠ huiĠ
fengĠ fuĠdeĠ
baiĠ houĠ
ĠzheĠ yangĠdeĠ
diĠerĠ ciĠ
quan ĠzhiĠ
ĠdeĠ heĠ
ĠyiĠ danĠ
faĠ she
zhengĠ xieĠ
houĠ xuĠ
zhanĠ shengĠ
pingĠ dengĠ
zhouĠ kanĠ
tianĠ huang
miaoĠ shuĠweiĠ
ĠĠĠzhiĠ yeĠshengĠyaĠ
shanĠmai ĠdeĠyiĠbuĠfenĠ
Ġ1949 ĠnianĠ
quanĠguoĠzhongĠdianĠ wenĠwuĠbaoĠhuĠdanĠweiĠ
nanĠjiĠtiaoĠyueĠtiĠxiĠ guanĠliĠ
Ġ Fi
ĠĠĠ huaĠ
qu ĠxiĠ
ding ĠyiĠweiĠ
san ĠxingĠ
han ĠjianĠ
bang ĠdiĠ
xingĠ dengĠweiĠ
faĠ xueĠ
yanĠ zhengĠ
qingĠ yuanĠ
puĠ luĠshiĠ
ĠyeĠ chengĠ
zhengĠzhiĠ buĠ
ĠfanĠ yingĠ
Ġ en
san ĠzhiĠ
hao ĠjiĠ
faĠ lanĠkeĠ
ĠsiĠ geĠ
tangĠ quĠ
ĠdianĠ ziĠ
Ġ Pa
ĠĠĠ liangĠ
ĠĠĠ zaoĠqiĠ
jing ĠdiĠ
weng Ġ
wuĠ hanĠ
shangĠ zuiĠ
jingĠ tiĠ
zheĠ ciĠ
guanĠ fang
duiĠ kang
ĠziĠ shengĠ
Ġceng ĠyuĠ
jieĠquanĠguoĠ renĠminĠdaiĠbiaoĠdaĠhuiĠ
6 ĠmiĠ
Ġ jianĠyiĠ
ĠĠĠ Pro
cai ĠshiĠ
pa ĠerĠ
gongĠ guoĠ
jiaĠ siĠ
dianĠ xingĠdeĠ
xuanĠ gaoĠ
shanĠ huĠ
laĠ maĠ
keĠyiĠ shengĠ
quĠdeĠ leĠ
dongĠshiĠ huiĠ
Ġwo ĠdeĠ
xiao ĠzhiĠ
mie ĠwangĠ
ĠjiĠ jieĠ
guoĠ fangĠ
ĠbuĠ zhangĠ
zhuĠ chengĠ
huiĠ baoĠ
ĠxiĠ fangĠ
shouĠ huanĠ
danĠ yaoĠ
shenĠ yeĠ
ĠyiĠzhiĠ zaiĠ
waiĠbuĠ lianĠjieĠ
ĠĠĠ 0
ĠĠĠ kaĠ
zhongĠ yang
nanĠ meiĠzhouĠ
zhenĠ zhuĠ
bianĠ huanĠ
ĠweiĠyuĠ zhongĠhuaĠrenĠminĠgongĠheĠguoĠ
peiĠ changĠ
ĠgaiĠcun ĠshiĠjianĠyuĠ
ĠĠĠ 2007ĠnianĠ
xiĠ diĠ
xiĠ fangĠ
zhanĠ jianĠ
guanĠ guangĠ
xuĠ lieĠ
shuiĠ liangĠ
taoĠ lun
Ġ gei
xian ĠdeĠdiĠ
mie ĠjueĠ
ĠliĠ aoĠ
fenĠ geĠ
xuanĠ minĠ
maĠ zuĠ
naĠ yangĠ
chenĠ moĠ
Ġ 1994
Ġ sĠ
ke ĠĠĠ
le ĠyueĠ
mian ĠyouĠ
xingĠ nengĠ
geĠ diĠdeĠ
mingĠ niĠ
mingĠ mingĠdeĠ
yingĠ xiong
xiaoĠ lvĠ
ĠshiĠdeĠ renĠ
ĠjieĠ daoĠ
chongĠ shengĠ
guoĠjiĠ zuĠ
ĠĠĠ hanĠ
bei ĠzhongĠ
duo ĠdaĠ
shui ĠshiĠ
nv ĠdeĠ
rong ĠhuoĠ
xiĠ erĠ
keĠ jianĠ
ziĠ chengĠ
shuĠ xingĠ
huaĠ ruĠ
nanĠ daoĠ
zhenĠ rongĠ
gaoĠ su
dangĠ zuoĠ
dangĠ daiĠ
daiĠbiaoĠ tuan
ĠweiĠyuĠgaiĠguoĠ xiĠbuĠ
Ġ 65
xianĠ qianĠ
dianĠ changĠ
gaiĠ jianĠ
boĠ geĠ
kaiĠ banĠ
ĠshiĠyiĠ jiaĠ
juĠminĠ dianĠ
zuoĠquĠ jiaĠ
Ġ o
Ġ Al
bu ĠdeĠyiĠgeĠ
ming ĠzaiĠ
lan ĠheĠ
xiu ĠshiĠ
xiu ĠxianĠ
1922 ĠnianĠ
keĠ yiĠshiĠ
duiĠ biĠ
qiuĠ miĠ
suoĠ xieĠ
ĠziĠ jiĠdeĠ
ĠmuĠ qinĠ
maoĠ zeĠdongĠ
Ġ 1992
zai ĠdeĠguoĠ
er ĠshiĠdeĠ
gu ĠsiĠ
wuĠ ran
wuĠ daĠ
qingĠ ganĠ
sheĠ ruĠ
gaoĠ shanĠ
feiĠ teĠ
liuĠ qiuĠ
ĠjinĠ biaoĠ
aiĠ naĠshengĠ
1 ĠjiaĠ
ma ĠyiĠ
kua Ġ
1911 ĠnianĠ
ĠheĠ ziĠ
xingĠ zhuangĠ
shenĠ fen
shanĠ chuĠ
paiĠ fangĠ
4 ĠmingĠ
shu ĠyueĠ
huo ĠerĠ
chong ĠdeĠ
ruan ĠtiaoĠ
ĠwuĠ qiĠ
ĠquĠ daiĠ
zuĠcheng ĠbuĠfenĠ
Ġ zhaĠ
Ġ 1985ĠnianĠ
ge ĠyueĠdeĠ
dai ĠerĠ
ni ĠfuĠ
zong ĠsiĠlingĠ
mou ĠzhongĠ
1923 ĠnianĠ
fuĠ zhuĠxiĠ
siĠ tan
ĠbuĠ shaoĠ
guanĠ lianĠ
ĠyiĠjiĠ zhongĠguoĠdaĠluĠdeĠ
ganĠ qingĠ
zhuĠyao ĠyouĠ
ĠĠĠzheĠ keĠ
ĠH Ġ
dong ĠyuĠ
liang ĠqiĠ
wang ĠzaiĠ
ĠyiĠ diĠ
ĠweiĠ taĠ
geĠ xiangĠ
ĠdaĠ jieĠ
meiĠ xiaoĠshiĠ
chuanĠ shuo
Ġdan ĠyouĠ
ĠzuiĠ houĠyiĠ
feiĠxingĠ yuanĠ
Ġ qiuĠduiĠ
ĠĠĠ leiĠ
le ĠzhongĠguoĠ
guan ĠdiĠ
du ĠbuĠ
zhang ĠzhongĠ
fuĠ chuĠ
geĠ jieĠ
jinĠ shengĠ
jiaoĠ dianĠ
liangĠ zuoĠ
Ġdan ĠshiĠzaiĠ
Ġ qiang
ĠĠĠ jiaoĠyuĠ
ma ĠheĠ
deĠ guoĠ
xiĠ zangĠ
juĠ liuĠ
tongĠ xiangĠ
tongĠ yongĠ
ĠfuĠ zhuĠxiĠ
lunĠ tanĠ
genĠ benĠ
chuĠliĠ qiĠ
luĠyingĠ daiĠ
Ġ á
ĠĠĠ xiangĠgang
shan ĠheĠ
geng ĠgaiĠ
nuo ĠdeĠ
diĠ anĠ
faĠ biaoĠdeĠ
houĠ xuanĠ
ĠtaĠ shuoĠ
ĠbingĠ xiangĠ
gengĠ duo
zhengĠzhiĠ jiaĠ
Ġ Ù
Ġ kong
ti ĠqiĠ
xiao ĠweiĠ
mu ĠzhongĠ
ĠzaiĠ haiĠ
daĠ shaĠ
chuĠ jueĠ
jiaoĠ xiaoĠ
bingĠ buĠshiĠ
ĠkeĠ fuĠ
haiĠ baĠgaoĠduĠ
guĠ zhangĠ
ĠheiĠ longĠjiangĠ
Ġ UĠ
shang ĠzaiĠ
zhao ĠjiĠ
ĠyouĠ yongĠ
ĠrenĠ zhengĠ
shengĠ dianĠ
jinĠ huaĠ
ĠxiĠ shouĠ
jiaoĠ daĠdeĠ
duĠ shuĠ
ĠbingĠ chengĠweiĠ
meiĠguoĠ zongĠtongĠ
kaiĠshiĠ yuĠ
ĠhaiĠ baĠ
Ġba ĠyueĠ
fuĠzhiĠ fuĠ
Ġ19 Ġ
xinĠguanĠfeiĠyanĠ queĠzhenĠbingĠliĠ
Ġ Ð¾
zhong ĠshiĠyongĠ
xiang ĠliĠ
ni ĠyuĠ
shui ĠliĠ
28 ĠnianĠ
zhui ĠqiuĠ
qiĠ yuanĠ
ĠheĠ huaĠ
ĠxiĠ faĠ
yingĠ wuĠ
yeĠ chengĠweiĠ
yinĠ jieĠ
ĠtaĠ duiĠ
boĠ duoĠ
zuiĠ da
baĠ maĠ
neiĠ yaĠ
cunĠ minĠ
Ġxian ĠzhiĠ
ĠjiĠzhongĠ xueĠ
ĠmengĠ guĠ
ĠĠĠ waiĠbuĠlianĠjieĠ
qu ĠyiĠyuanĠ
bao ĠyouĠ
ĠzhongĠ zuĠ
ĠdaĠ baiĠ
qianĠ daoĠ
ĠdanĠ reng
ĠdeĠshiĠ qingĠ
a ĠsiĠ
Ġ Jo
ĠĠĠ changĠ
ĠĠĠ zhengĠyiĠ
ba ĠyiĠ
yang ĠyuĠ
ĠbuĠ ruĠ
xianĠ quĠ
guanĠ kanĠ
ĠbaoĠ liuĠ
ĠsuoĠ xieĠ
ĠyaĠ zhouĠ
gongĠzuo ĠrenĠyuanĠ
ĠxianĠshiĠyouĠ nanĠjiĠtiaoĠyueĠtiĠxiĠguanĠliĠ
Ġ hen
zuo ĠzaiĠ
lai ĠzhiĠ
san ĠqiĠ
cun ĠchuĠ
shuai ĠjiaoĠ
ter Ġ
xingĠ bieĠ
beiĠ shangĠ
xinĠ tuĠ
gouĠ tongĠ
ganĠ lanĠqiuĠ
ĠĠĠ dengĠ
zong ĠjiĠ
1970 ĠnianĠ
fuĠ luĠ
wenĠ dingĠdeĠ
wanĠ jianĠ
ĠdanĠ quĠ
Ġ16 Ġ
jiaoĠyiĠ suoĠ
an ĠheĠ
zhong ĠyiĠgeĠ
shui ĠweiĠ
luĠ yinĠshiĠ
ĠxiangĠ zhengĠ
zhaoĠ kai
ĠshiĠjiĠ chuĠ
Ġzhe ĠshiĠdeĠ
ĠdaiĠ maĠweiĠ
Ġ 600
Ġ mingĠweiĠ
ĠĠĠ aĠĠĠ
jian Ġli
bi ĠjiĠ
guan ĠnianĠ
cha ĠjiĠ
man ĠyiĠ
shouĠ cangĠ
yanĠ jiuĠshiĠ
zhanĠ chuĠ
changĠ daoĠ
zhenĠ wangĠ
ĠshiĠyiĠ keĠweiĠ
moĠ faĠ
Ġyou ĠzhiĠ
Ġ Mo
ĠĠĠ fenĠbuĠ
fei ĠqiĠ
1926 ĠnianĠ
shuĠ geĠ
zhanĠ kai
ĠsiĠ maĠ
daiĠ daoĠ
shenĠ miĠ
suoĠ jianĠ
dingĠ dianĠ
Ġxian ĠyiĠ
ĠsuĠ chengĠ
Ġ zan
Ġ 1997
en ĠsiĠ
ĠĠĠ heĠĠĠ
nan ĠyueĠ
wang ĠheĠ
ni ĠjiĠ
17 ĠnianĠ
us Ġ
xiangĠ nanĠ
mingĠ jiaoĠ
yanĠ xianĠ
yeĠ suĠ
ĠxingĠ xingĠ
suoĠ zaiĠdeĠ
ĠjuĠ leĠbuĠ
ĠL Ġ
zhan ĠqiĠ
dan ĠjiĠ
xu ĠyiĠ
1919 ĠnianĠ
ĠyouĠ beiĠ
fuĠ zhuangĠ
ĠkeĠ yunĠ
lianĠ junĠ
zuiĠ haoĠdeĠ
ĠdeĠshiĠ yiĠ
ĠpingĠ lunĠ
maĠlai ĠxiĠya
raoĠtaiĠyangĠ gongĠ
meiĠdongĠ buĠshiĠquĠ
Ġ juanĠ
ĠĠĠ miĠ
zhan ĠbuĠ
bian ĠfuĠ
tian ĠdiĠ
lan ĠshiĠ
geng ĠdaĠ
ĠshiĠ xiaĠxiaĠdeĠyiĠgeĠxiangĠzhenĠjiĠxingĠzhengĠdanĠweiĠ
ĠzhongĠ renĠ
geĠ xingĠ
caiĠyongĠ leĠ
Ġ jue
Ġ ISTAT
cheng ĠbuĠ
ba ĠkeĠ
youĠ taiĠ
ĠzaiĠ keĠ
shengĠ cunĠ
jinĠ junĠ
dongĠ ceĠ
ruĠ xueĠ
xieĠ tiaoĠ
ĠdanĠ zuiĠzhongĠ
ĠyiĠzhiĠ daoĠ
yiĠshiĠ qiĠ
ĠdeĠdiĠ diĠ
saĠ laĠ
xingĠzhengĠ yuanĠ
Ġsui ĠjiĠ
tuiĠchuĠ leĠ
Ġ 59
Ġ ESTĠ
ĠĠĠ 2006ĠnianĠ
bi ĠheĠ
qie ĠdeĠ
beiĠ faĠ
chuĠ xian
ĠdeĠshiĠ liĠ
Ġer ĠjiĠ
ĠduiĠ ciĠ
Y Ġ
Ġ rou
Ġ EDT
dan ĠyouĠ
neng ĠdeĠ
lin ĠzhongĠ
30 ĠfenĠ
ĠyouĠ siĠ
ĠguoĠ houĠ
jieĠ xiĠ
ĠdiĠ baĠ
xinĠ fengĠ
jiaoĠ gei
meiĠ guoĠzhiĠ
shenĠ sheĠ
ĠxingĠ quĠ
ĠmingĠ mingĠ
ĠxieĠ zhuĠ
ĠweiĠyuĠfaĠguoĠ ao
Ġ kongĠzhiĠ
hu ĠzhiĠ
wen ĠweiĠ
ni ĠdiĠ
na ĠshiĠ
huan ĠbaoĠ
ĠjiĠ gou
jianĠ danĠdeĠ
quĠ daoĠ
houĠ laiĠdeĠ
qianĠ fangĠ
xiaĠ leĠ
lingĠ ganĠ
zongĠ lingĠshiĠ
laĠ duoĠ
ĠshouĠ fuĠ
zhuĠjiaoĠ lianĠ
guangĠboĠ gongĠsiĠ
jueĠduiĠ xingĠdengĠweiĠ
jueĠsai ĠyiĠ
Ġ Ø
Ġ 1990ĠnianĠ
li ĠxiĠ
ben ĠshiĠ
nei ĠheĠ
pian ĠweiĠ
24 ĠnianĠ
aĠ miĠ
ĠyiĠzhiĠ yuĠ
Ġ5Ġ diaoĠkuaiĠyiĠxiaoĠshiĠ
biĠliĠ niuĠsiĠ
ĠjiĠbeiĠ meiĠdongĠbuĠshiĠquĠ
ĠshiĠyiĠkeĠweiĠ raoĠtaiĠyangĠgongĠ
ĠEDT Ġ
ĠshiĠyiĠkeĠweiĠraoĠtaiĠyangĠgongĠ zhuanĠdeĠxiaoĠxingĠxingĠ
Ġ 49
Ġ 1984ĠnianĠ
ĠĠĠ banĠ
ĠĠĠ xuanĠ
di ĠliĠyaĠ
ni ĠheĠ
shao ĠshiĠ
ve Ġ
yuanĠ yinĠshiĠ
guanĠ ce
minĠ dangĠ
Ġta ĠweiĠ
ĠyuanĠ ziĠ
2Ġ mingĠ
saiĠerĠweiĠ yaĠ
xiaoĠxingĠxingĠdeĠ jueĠduiĠxingĠdengĠweiĠ
ĠĠĠ ha
guang ĠyiĠ
pian ĠrenĠ
1914 ĠnianĠ
zen Ġ
yingĠ chiĠ
ĠfuĠ zhouĠ
tianĠ xinĠ
tiaoĠ muĠ
henĠ duo
Ġ sheng
Ġ boĠliĠ
zhou ĠyuĠ
qiĠ renĠ
ziĠ shengĠ
bingĠ qieĠ
miĠ suĠliĠ
ĠdeĠyiĠ jiaĠ
ĠG Ġ
jiaĠru ĠzhongĠguoĠgongĠchanĠdangĠ
ĠĠĠzheĠkeĠ xiaoĠxingĠxingĠdeĠjueĠduiĠxingĠdengĠweiĠ
Ġ jun
Ġ 800
Ġ qiaoĠzhiĠ
yin ĠzaiĠ
pu ĠerĠ
ĠguoĠ youĠ
beiĠ buĠdeĠ
duĠ zheĠ
yinĠdiĠ anĠnaĠ
Ġ 2024ĠnianĠ
Ġ 1988ĠnianĠ
mo ĠnianĠ
ze ĠerĠ
cai ĠjiĠ
zhai ĠwuĠ
gun Ġ
juĠ luoĠ
guanĠ shangĠ
ruĠ leĠ
meiĠyouĠ renĠheĠ
erĠshiĠ nianĠ
ĠjiĠzhongĠ zaiĠ
Ġ 1989ĠnianĠ
ĠĠĠ Pa
ĠĠĠ huiĠ
sen ĠbaoĠ
ĠzhiĠ houĠzaiĠ
xiĠ shouĠ
ĠyueĠ seĠfuĠ
taiĠ bei
wanĠ quĠ
tianĠ xianĠ
douĠ keĠyiĠ
diaoĠ suĠ
ĠyiĠweiĠ zheĠ
Ġ Ca
ĠĠĠ chenĠ
ci ĠrenĠ
xiao ĠheĠ
50 ĠnianĠ
1913 ĠnianĠ
ĠyiĠ jiĠyiĠ
ĠyouĠ wuĠ
xiĠ jieĠ
jianĠ zhengĠ
jianĠ huaĠ
ciĠ tianĠtiĠ
shuiĠ shangĠ
diĠyiĠ jieĠ
Ġ bie
ĠĠĠ La
shou ĠqiĠ
zao ĠyiĠ
zhuan ĠrenĠ
lun ĠjiĠ
sou ĠsuoĠ
1950 ĠnianĠ
1918 ĠnianĠ
xiĠ yuanĠ
geĠ shengĠ
yanĠ zouĠ
yongĠ yuanĠ
ĠshiĠyiĠ yuanĠ
gangĠ tie
1Ġ mingĠ
zhuĠjiaoĠ zuoĠ
shouĠshiĠ lvĠ
ĠheĠdaoĠ quanĠzhangĠ
1 ĠĠĠ
Ġ lieĠcheĠ
ĠĠĠ gu
qi ĠshiĠshiĠ
37 ĠnianĠ
ĠdiĠ daiĠ
shangĠ yingĠdeĠ
duĠ xingĠ
zuĠ qunĠ
zhenĠ zhengĠdeĠ
ĠnanĠ jingĠ
junĠshiĠ tanĠdingĠ
keĠliĠ miĠyaĠ
ĠĠĠgaiĠ shuĠ
ĠzhiĠhuiĠ guanĠ
Ġ 1991ĠnianĠ
fang ĠyouĠ
fan ĠdiĠ
feng ĠzhiĠ
chuang ĠshiĠ
ĠyiĠ minĠ
fuĠ shuĠjiĠ
quĠ fuĠzeĠguanĠxiaĠ
dianĠ zhanĠ
teĠ dingĠdeĠ
lanĠ kaĠ
ĠjiangĠ shuĠ
Ġ Le
Ġ Mar
ling ĠxingĠ
lie ĠjianĠ
ĠliĠ jieĠ
xiĠ jinĠ
wuĠ ranĠ
xueĠ yuan
qianĠ mingĠ
xiaĠ tianĠ
kongĠ jun
siĠchuanĠ shengĠ
Ġ tiao
cha ĠheĠ
chan ĠyuĠ
chen ĠkeĠ
ĠzaiĠ yingĠguoĠ
xinĠ chengĠ
jiuĠ baĠ
naĠ geĠ
ĠchuĠ shengĠ
gengĠ gaoĠ
ouĠ mengĠ
wenĠhua ĠyiĠchanĠ
ĠheĠnanĠ shengĠ
anĠhuiĠ shengĠ
Ġ cangĠ
mo ĠheĠ
ze ĠerĠshengĠ
pai ĠrenĠ
ĠyouĠ leĠ
shangĠ banĠ
yingĠ chaoĠ
danĠ baiĠzhiĠ
lingĠ xiu
fanĠ mang
ĠdeĠyiĠ yiĠ
ĠzhuĠ zhangĠ
yongĠyuĠ zhiĠ
Ġjie ĠshiĠ
ĠbanĠ benĠ
ĠguiĠ zhouĠ
zuoĠpin ĠzhongĠ
Ġ Se
hu ĠheĠ
xiao ĠjiĠ
pai ĠweiĠ
gou ĠjianĠ
kuang ĠwuĠ
2019 ĠguanĠzhuangĠbingĠduĠ
38 ĠnianĠ
huaĠ xianĠ
gaiĠ bian
wangĠ yeĠ
daiĠ zhuĠ
zongĠ eĠweiĠ
nvĠ shenĠ
Ġ bin
en ĠdeĠ
mi ĠliĠ
1901 ĠnianĠ
ĠshiĠ biĠ
ĠzhiĠ zhanĠ
ĠbuĠ danĠ
shanĠ kouĠ
paiĠ qiuĠ
ĠjuĠ banĠ
henĠ shaoĠ
gongĠgongĠ jiaoĠtongĠ
Ġfan ĠerĠ
lianĠxuĠ juĠ
zhuanĠyiĠ daoĠ
Ġ zi
Ġ geĠrenĠ
ĠĠĠ Mi
ĠĠĠ huangĠ
23 ĠnianĠ
ĠweiĠ boĠ
beiĠ haiĠdaoĠ
jingĠ feiĠ
fenĠ huiĠ
xiaoĠ daoĠ
ĠkeĠ daĠ
ĠshouĠ xianĠ
diĠshiĠ sanĠ
ĠĠĠzhongĠ huaĠrenĠminĠgongĠheĠguoĠ
ĠN Ġ
eĠluoĠ si
li ĠjieĠ
ĠĠĠ zheĠgeĠ
cheng Ġli
bi ĠqiĠ
xuan ĠjiĠ
ĠliĠ wuĠ
xiangĠ yaoĠ
zhengĠ faĠ
danĠ shengĠ
daiĠ shuĠ
liangĠ duĠ
huĠ nanĠshengĠ
aoĠ di
quĠyiĠhuiĠ xuanĠjuĠ
Ġtun ĠqiĠ
4 ĠmiĠ
Ġ jing
Ġ zuĠchengĠ
qian ĠjiĠ
ding ĠheĠ
su ĠerĠ
buĠ nengĠ
xinĠ zang
zhenĠ yingĠ
zhenĠ junĠ
bianĠ xieĠ
zhuangĠ yuanĠ
Ġ 1993
Ġ diĠyuĠ
ĠĠĠ yinĠyueĠ
bi ĠsiĠ
hui ĠliĠshiĠ
xie ĠheĠ
mian ĠzhiĠ
liu ĠyueĠ
men ĠzaiĠ
00 ĠpingĠfangĠqianĠmiĠ
tuo ĠsiĠ
ĠzhongĠ shuĠ
tiĠ xianĠ
wangĠ laiĠ
liangĠ zheĠ
suoĠ zhangĠ
zuiĠ jinĠdeĠ
ĠbaoĠ luoĠ
Ġtong ĠnianĠ12ĠyueĠ
ĠĠĠsuiĠ ran
yuanĠwaiĠ langĠ
Ġ Ra
ĠĠĠ Bo
ĠĠĠ saiĠ
you ĠzhiĠwuĠ
gong ĠzaiĠ
qing ĠyuĠ
ma ĠjiĠ
chi ĠzhiĠ
ĠyouĠ daĠ
gongĠ xueĠyuanĠ
ĠdaĠ xiaoĠ
guangĠ puĠ
ĠgeĠ lunĠ
ĠjieĠ hunĠ
xunĠ luoĠ
douĠ meiĠyouĠ
ĠjingĠ changĠ
baoĠkuo ĠyiĠxiaĠ
luoĠmaĠ niĠyaĠ
Ġ beiĠbuĠ
Ġ faĠbuĠ
ĠshiĠ yingĠ
siĠ maĠ
kouĠ jingĠ
caiĠ huiĠ
chiĠ cunĠ
shuiĠ shouĠ
Ġer ĠrenĠ
Ġwu ĠyueĠ
ĠĠĠ Me
ĠĠĠ guanĠyuĠ
ni ĠxiĠ
dun ĠheĠ
diao ĠxiangĠ
fuĠ buĠ
jingĠ baoĠ
fangĠ songĠ
zhanĠ cheĠ
luoĠ boĠ
tuiĠ xiu
Ġ zeĠshiĠ
chu ĠheĠ
ĠweiĠ mingĠ
guoĠ jia
fangĠ kong
muĠ biaoĠshiĠ
teĠ shuĠdeĠ
yunĠ nanĠshengĠ
dangĠ di
ĠgongĠ siĠdeĠ
xunĠ haoĠ
ĠyuanĠ benĠ
ĠzuiĠ zhongĠyiĠ
ĠdangĠ xuanĠ
ĠĠĠshiĠ yiĠ
Ġ 1991
Ġ ruiĠ
Ġ xĠ
Ġ zhuĠyouĠ
xia ĠdaĠ
zhanĠ fangĠ
sheĠ qun
ĠtaĠ chengĠweiĠ
jueĠ saiĠzhongĠ
ĠdanĠ beiĠ
ĠyeĠ chengĠweiĠ
piĠ panĠ
ĠnianĠ4ĠyueĠ 1ĠriĠ
Ġsan ĠyueĠ
Ġ he
Ġ yaĠliĠ
zheng ĠshiĠdeĠ
guan ĠyouĠ
liang ĠdiĠ
ban ĠheĠ
shui ĠxianĠ
man ĠdiĠguoĠ
nang Ġ
HD ĠĠĠ
1921 ĠnianĠ
ĠdeĠ qiĠ
ĠliĠ zaiĠ
erĠ siĠ
zhengĠ guiĠ
laiĠ wangĠ
ĠshiĠweiĠ zheĠ
zhuĠtiĠ quĠ
meiĠzhongĠ buĠshiĠquĠ
Ġ qiong
Ġ Di
Ġ Sa
Ġ CST
an ĠĠĠ
yang ĠqiĠ
yang ĠfuĠ
end Ġ
chuanĠ yuanĠ
ĠgaiĠ cunĠ
Ġyou ĠliĠ
Ġ CDT
ĠĠĠ yingĠxiangĠ
ĠzaiĠ qianĠ
ĠyueĠ qiĠ
bingĠ yuanĠ
shenĠ yangĠ
zhenĠ xianĠ
paiĠ sheĠdeĠ
lieĠ dianĠ
zhuanĠ yuanĠ
aoĠ men
Ġ17 Ġ
Ġ18 Ġ
Ġ6Ġ diaoĠkuaiĠyiĠxiaoĠshiĠ
ĠjiĠbeiĠ meiĠzhongĠbuĠshiĠquĠ
ĠCST Ġ
ĠCDT Ġ
ĠĠĠ 2005ĠnianĠ
bing ĠheĠ
lai ĠyiĠ
dang ĠrenĠ
zhen ĠsiĠ
nong ĠliĠ
jianĠ jinĠ
wenĠ quanĠ
gaiĠ zao
zuĠ qiu
jiuĠ jingĠ
ĠzheĠ changĠ
Ġer ĠyuĠ
gu ĠheĠ
ping ĠjiĠ
tu ĠyuĠ
sang ĠshengĠ
fou ĠjueĠ
ĠyiĠ luĠ
Ġnian ĠshiĠjieĠbeiĠ
shouĠ changĠ
zhanĠ ting
yeĠ xianĠ
ĠkeĠ jianĠ
1Ġ miĠ
ĠĠĠbenĠ shuĠ
ĠjiĠtuanĠ junĠ
ĠdeĠweiĠ zhiĠ
liu ĠzhiĠ
ĠzaiĠ xiangĠ
ĠbuĠ manĠ
jinĠ tianĠ
huoĠ jiangĠ
muĠ fuĠ
xuanĠ zhuanĠ
ĠdeĠyiĠ mingĠ
tuoĠ maĠsiĠ
nuoĠ manĠdiĠ
aoĠlinĠpiĠkeĠ yunĠdongĠ
lieĠche ĠdeĠ
aoĠsiĠ kaĠ
yanĠhaiĠ shengĠfenĠ
banĠjiangĠ dianĠliĠ
zhao ĠheĠ
mai ĠjiaĠ
ken ĠtaĠjiĠ
45 Ġ
wuĠ gongĠ
chuĠ siĠ
chuĠ juĠ
ĠdaĠ poĠ
jiaoĠ xingĠ
junĠ tuan
ĠjinĠ ciĠyuĠ
tingĠ cheĠchangĠ
tieĠ luĠdeĠ
¡ Ġ
hu ĠliĠ
nei ĠzhiĠ
meng ĠxiangĠ
kan ĠjianĠ
pao ĠdeĠ
shuai ĠxianĠ
zhenĠ xiangĠ
dingĠ leĠ
waiĠ shuĠruĠ
ĠshengĠ yaĠ
ĠmingĠ chengĠ
reĠ menĠ
Ġhuo ĠdeĠyiĠmeiĠ
fenĠbie ĠshiĠ
ĠcheĠ xiaoĠ
jieĠquanĠguoĠ zhengĠxieĠweiĠyuanĠ
ĠĠĠ gaiĠdiĠ
bu ĠzhiĠdaoĠ
che ĠweiĠ
me ĠĠĠ
29 Ġ
heĠ bingĠ
daoĠ diĠ
jiangĠ huĠ
lanĠ zhouĠ
Ġzai ĠjiĠ
lianĠsaiĠ guanĠjunĠ
Ġma ĠkeĠ
hongĠzha ĠjiĠ
8 ĠmiĠ
Ġ chai
Ġ To
Ġ xinĠdeĠ
bing ĠqiĠ
huo ĠjiĠ
ma ĠdiĠ
34 ĠnianĠ
xiĠ anĠ
luĠ saĠ
fenĠ fenĠ
liuĠ chengĠ
zhuanĠ shuĠ
ĠbaoĠ chiĠ
yu ĠshiĠjieĠ
ĠĠĠ 12ĠyueĠ
er ĠliĠ
qing ĠzhiĠ
ping ĠxiĠ
zhui ĠjiĠ
ziĠ nvĠ
wenĠ benĠ
fenĠ zuĠ
ĠfuĠ buĠ
jiuĠ long
luoĠ baiĠ
hunĠ luanĠ
aĠerĠ baĠ
Ġ liao
wan ĠzaiĠ
liu ĠjiĠ
lei ĠerĠ
TV Ġ
ĠshiĠ fou
faĠ yanĠ
daiĠ muĠ
laiĠ yuanĠyuĠ
zuiĠ duo
feiĠ zhou
shuiĠ jingĠ
liĠ yaĠ
keĠyiĠ zhiĠ
Ġda ĠweiĠ
ĠĠĠ shaĠ
zai ĠshiĠjieĠ
ying ĠzaiĠ
zhou ĠdaĠxueĠ
wo ĠsiĠ
ĠyueĠ guoĠ
dongĠ taiĠ
cheĠ chuĠ
zongĠ gongĠ
kouĠ haoĠ
aĠ boĠ
ĠciĠ keĠ
zengĠ sheĠ
9 ĠshiĠ
Ġ Ar
Ġ renĠzhiĠ
yin ĠyiĠ
mei ĠjiĠ
dian ĠliĠjiĠ
lun ĠyuĠ
tou ĠshiĠ
27 ĠnianĠ
kun ĠmingĠ
ĠdeĠ erĠ
xingĠ xiĠ
shuĠ jiaĠ
jingĠ xiangĠ
woĠ lunĠ
Ġ 1983ĠnianĠ
ĠĠĠ 2000
la ĠshiĠ
liu ĠjiaĠ
rong ĠweiĠ
geng ĠmingĠ
46 ĠnianĠ
ĠrenĠ tongĠ
keĠ laiĠ
beiĠ jieĠ
ĠqiĠ buĠ
liĠ nuoĠyiĠ
eĠ waiĠ
quĠdeĠ fuĠzeĠguanĠxiaĠ
ĠyingĠ cunĠ
Ġ 20ĠshiĠjiĠ
ai ĠsiĠ
ĠĠĠ lingĠyiĠ
qu ĠweiĠyuĠ
quan ĠyuĠ
duo ĠjiaĠ
dou ĠyiĠ
pian ĠyuĠ
80 Ġ
ĠshiĠ yongĠdeĠ
ĠweiĠ fanĠ
ĠyouĠ zhengĠ
huiĠ daoĠzhiĠ
shuĠ xieĠ
yeĠ meiĠyouĠ
ĠdaĠ niĠ
xinĠ beiĠshiĠ
zuĠ gouĠ
bianĠ quĠ
maĠ dingĠ
baĠ baĠ
ĠgaiĠ jianĠ
seĠ qingĠ
ĠqingĠ huaĠ
Ġ13 Ġ
lvĠkeĠ tieĠdaoĠ
Ġ Ba
Ġ zengĠjiaĠ
an ĠyuĠ
ĠĠĠ yinĠweiĠ
ĠĠĠ teĠzhengĠ
jiao ĠzhongĠ
quan ĠheĠ
xu ĠyuĠ
chuan ĠjiaĠ
po ĠdeĠ
32 ĠnianĠ
jiaĠ gouĠ
taiĠ yuanĠ
danĠ mai
ĠgaiĠ zhuangĠ
ĠdongĠ fangĠ
taĠmen ĠzaiĠ
ĠwuĠkeĠ lan
7 ĠmiĠ
ĠbuĠ lunĠ
gaiĠ liangĠ
ĠwuĠ ziĠ
Ġta ĠerĠ
qiangĠ lieĠdeĠ
ĠfaĠ yuanĠ
henĠ kuai
keĠneng ĠdeĠ
Ġ lianĠheĠguoĠ
ĠĠĠ ta
zhi ĠshiĠyongĠ
mu ĠweiĠ
pai ĠxiĠ
qin ĠdeĠ
guoĠ wuĠ
ĠzaiĠ faĠguoĠ
gongĠ xiangĠ
ĠqiĠ zhuĠ
jinĠ daiĠ
mingĠ eĠ
shangĠ suoĠ
qiuĠ duiĠdeĠ
ĠgongĠ zhuĠ
peiĠ jueĠ
Ġer ĠyueĠ
gongĠheĠ guoĠdeĠ
ĠgaoĠ suĠ
ĠI Ġ
Ġ wai
huo ĠqiĠtaĠ
xiao ĠzhongĠ
dian ĠzhiĠ
hai ĠweiĠ
ding ĠyouĠ
erĠ yanĠ
ĠqiĠ taĠdeĠ
zhuanĠ huiĠ
hunĠningĠ tuĠ
Ġ 1995
Ġ huaiĠ
bo ĠxiĠ
suo ĠjiĠ
tu ĠxiĠ
ce ĠweiĠ
ĠyiĠ daoĠ
diĠ diĠ
gongĠ ye
zhengĠ siĠ
jiaoĠ shaoĠ
ĠkeĠ linĠ
zhouĠ moĠ
Ġ14 Ġ
Ġfou ĠzeĠ
Ġ teng
kou ĠyuĠ
39 ĠnianĠ
shouĠ jieĠ
jiangĠ zuoĠ
lianĠ boĠ
kaiĠ yeĠ
baĠ gongĠ
tanĠ pan
xingĠzhengĠ quĠyuĠ
xue ĠzhiĠ
ling ĠyouĠ
bian ĠliĠ
xiu ĠxiĠ
kun ĠchongĠ
31 ĠnianĠ
1905 ĠnianĠ
ĠbuĠ xingĠ
keĠ huĠ
mingĠ shengĠ
ĠdaĠ dianĠ
xinĠ xinĠ
qianĠ shuiĠ
bingĠ tuanĠ
ĠxiangĠ duiĠ
ĠjieĠ zhuĠ
enĠ laiĠ
fuĠjianĠ shengĠ
ĠqiĠxi ĠzaiĠdiĠ
ĠĠĠ Be
36 ĠnianĠ
ĠshiĠ chuĠ
ĠyouĠ baoĠ
gongĠ dangĠ
jieĠ dianĠ
xiangĠ muĠdeĠ
ĠxiĠ lieĠdeĠ
nanĠ zhuĠjueĠ
zuiĠ houĠdeĠ
guĠ chengĠ
suĠ zhouĠ
ĠshiĠyiĠ yueĠ
ĠdeĠshiĠ yanĠ
ĠnanĠ xingĠ
ĠzhanĠ dou
ĠjiĠqiĠ renĠ
ĠĠĠweiĠ yuĠ
dongĠnanĠ yaĠ
tianĠwenĠ xueĠjiaĠ
ĠxinĠjiaĠ poĠ
zuo ĠweiĠyuĠ
man ĠyuĠ
ĠyiĠ kaiĠshiĠ
zhongĠ yaoĠdeĠ
wuĠ dingĠ
beiĠ ceĠ
leĠ ziĠjiĠdeĠ
maĠ changĠ
ĠdanĠ baiĠ
puĠ sheĠ
liĠ changĠ
ĠmeiĠ tiĠ
ĠĠĠ xuĠ
hui ĠqiĠ
lun ĠheĠ
ĠzhiĠ heĠ
ĠzaiĠ xiangĠgangĠ
wuĠ jianĠ
chengĠ nuoĠ
chuĠ banĠdeĠ
yinĠ mouĠ
xinĠ yongĠ
banĠ yan
ĠgongĠ chanĠ
huanĠ qiuĠ
kongĠ longĠ
canĠ zhengĠ
ĠhongĠ zha
luoĠdiĠ yaĠ
zhongĠguoĠrenĠminĠ jieĠfangĠjunĠ
Ġ kuangĠ
Ġ haiĠshiĠ
Ġ niĠkeĠ
Ġ 1986ĠnianĠ
xi ĠrenĠ
ĠĠĠ Se
ĠĠĠ 2023ĠnianĠ
hai ĠheĠ
ling ĠzhiĠ
sai ĠheĠ
gang ĠshiĠ
ĠbuĠ xiĠ
daoĠ qiĠ
beiĠ gaoĠ
changĠ guiĠ
chuanĠ tong
ĠdanĠ meiĠyouĠ
xunĠ wenĠ
Ġ1950 ĠnianĠ
ĠĠĠ i
90 Ġ
buĠ shaoĠ
beiĠ fuĠ
ĠqiĠ diĠ
ĠdiĠ tie
dianĠ xingĠ
benĠ jieĠ
zongĠ mianĠjiĠ
huanĠ guanĠ
ouĠ meng
Ġ 1989
Ġ Be
Ġ ruiĠdianĠ
Ġ 1920ĠnianĠ
gu ĠyuĠ
liu ĠrenĠ
suan ĠyanĠ
kuan ĠdeĠ
yuanĠ diĠ
ĠbuĠ shouĠ
juĠ zhenĠ
yingĠ biĠ
yinĠ xingĠ
Ġbing ĠzhiĠ
ĠxiaĠ wuĠ
ĠbenĠ jieĠ
Ġ pinĠdaoĠ
lu ĠqiĠ
she ĠweiĠ
ban ĠyouĠ
colspan Ġ
ĠyiĠ ziĠ
dongĠ haiĠ
gaiĠ shuĠ
boĠ genĠdiĠ
dengĠ daiĠ
guiĠ geĠ
puĠ laĠ
moĠ tuoĠ
ĠdeĠshiĠ qiĠ
ceĠ huaĠ
ĠtianĠ wenĠ
Ġzai ĠweiĠ
Ġ wuĠshiĠ
Ġ chaoĠjiĠ
ĠĠĠ yingĠguoĠ
le ĠliĠ
bing ĠrenĠ
lan ĠdaĠ
ĠshiĠ yingĠguoĠ
ziĠ meiĠ
ciĠ xingĠ
yingĠ jieĠ
xiaĠ xunĠ
moĠ teĠerĠ
shuiĠ ku
Ġ zui
Ġ 1945ĠnianĠ
fang ĠzhongĠ
zhen ĠxingĠ
tu ĠheĠ
que ĠliĠ
70 Ġ
ĠdeĠ deĠ
gongĠ qingĠ
jianĠ leĠ
ĠguoĠ daoĠ
wuĠ chuĠ
yangĠ zhouĠ
moĠ teĠ
ĠyiĠjiĠ yuĠ
ĠdeĠjiĠ zaiĠ
changĠweiĠ huiĠ
Ġ 1985
Ġ junĠzaiĠ
zu ĠliĠ
kai ĠjiĠ
lv ĠdiĠ
guang ĠfuĠ
rou ĠshiĠxingĠ
ment Ġ
ĠyiĠ nanĠ
ĠbuĠ shuĠ
jieĠ fuĠ
jieĠ meiĠ
faĠ shengĠyuĠ
dongĠ luĠ
caiĠ dingĠ
linĠ naĠ
eĠ tuĠ
ĠshiĠjiĠ zhiĠ
ĠdeĠguoĠ chengĠzhongĠ
faĠlanĠxiĠ daĠquĠ
Ġ louĠ
ĠĠĠ de
yuan ĠrenĠminĠbiĠ
bo ĠfuĠ
nv ĠshiĠ
26 ĠnianĠ
45 ĠnianĠ
weiĠ yuanĠhuiĠ
qiĠ xiangĠ
taĠ beiĠ
jingĠ nei
ĠsiĠ tanĠ
zhangĠ woĠ
gaoĠ cengĠ
shaoĠ liangĠ
gongĠzuoĠ zheĠ
nongĠ cunĠ
ĠduoĠ mingĠ
ĠweiĠfuĠ shuĠjiĠ
hangĠkongĠ muĠjianĠ
shengĠhuo ĠzaiĠ
u Ġ
da ĠĠĠ
yuan ĠyiĠyuanĠ
jing ĠrenĠ
bing ĠjiĠ
lie ĠdiĠ
gongĠ siĠyuĠ
dongĠ hua
xiaĠ xiaĠyiĠxiaĠdiĠquĠ
bianĠ ruĠ
ĠjinĠ riĠ
ĠnianĠ10ĠyueĠ 1ĠriĠ
biaoĠzhun ĠdeĠ
a ĠbuĠ
Ġ hunĠ
Ġ 1987ĠnianĠ
ĠĠĠ 2004ĠnianĠ
xian ĠshiĠdeĠ
she ĠheĠ
ba ĠbuĠ
ts ĠĠĠ
xingĠ chengĠdeĠ
chengĠ qiĠ
ĠqiĠ zhongĠdeĠ
jiangĠ huaĠ
f ĠĠĠ
Ġ juan
she ĠxingĠ
tai ĠdiĠ
mu ĠqiĠ
bo ĠyuĠ
qiu ĠyuĠ
40 ĠnianĠ
43 ĠnianĠ
ĠshiĠ yinĠduĠ
wuĠ suoĠ
junĠ fangĠ
cheĠ shouĠ
puĠ leiĠ
chanĠ liangĠ
Ġ n
Ġ jian
Ġ 1980
an ĠxiĠ
ĠĠĠ 2004
bing ĠzhiĠ
zhou ĠnianĠ
ling ĠjiĠ
suo ĠfuĠ
nv ĠgeĠshouĠ
qiao ĠchuĠ
xiangĠ qianĠ
shangĠ xiaoĠ
biĠ huaĠ
sanĠ xiangĠ
guangĠ zhouĠshiĠ
zhuanĠ boĠ
yiĠdeĠ daoĠ
ĠbeiĠqiĠ shunĠshiĠzhenĠyuĠ
Ġniu ĠyueĠshiĠ
Ġ du
Ġ fuĠzhiĠ
Ġ 1978ĠnianĠ
dian ĠweiĠyuĠ
jiu ĠjiĠ
quan ĠshiĠjieĠ
ding ĠbuĠ
tu ĠweiĠ
zhuang ĠyouĠ
33 ĠnianĠ
diĠ baĠ
guanĠ yinĠ
wanĠ yanĠ
pinĠ fanĠ
ĠruĠ jinĠ
4 ĠĠĠ
ĠĠĠ shuiĠ
lu ĠyouĠ
wan ĠyuĠ
ni ĠdaĠquĠ
gou ĠwuĠ
ĠguoĠ min
ĠguoĠ fangĠbuĠ
tongĠ huaĠ
xiaĠ weiĠyiĠ
lunĠ shuĠ
piĠ ping
xiĠbanĠ ya
Ġ dongĠxiĠ
Ġ XĠ
Ġ yongĠyiĠ
ĠĠĠ tong
ĠĠĠ 2003
pai ĠjiĠ
dou ĠzhiĠ
can ĠjiĠrenĠ
zhao ĠdeĠ
pao ĠbingĠ
ĠliĠ xiangĠ
keĠ huanĠ
ziĠ fuĠ
jiangĠ xianĠ
duĠ chaĠ
haiĠ guanĠ
tianĠ jinĠshiĠ
gengĠ huanĠ
8 ĠshiĠ
Ġ shuo
Ġ kui
Ġ 1988
Ġ Ri
Ġ leiĠsiĠ
Ġ 1982ĠnianĠ
Ġ 1958ĠnianĠ
duo ĠyiĠ
nuo ĠbeiĠerĠ
nai ĠerĠ
44 ĠnianĠ
youĠ taiĠrenĠ
wuĠ fuĠ
jiangĠ zhangĠ
yaĠ dianĠ
fanĠ dui
xuanĠ piaoĠ
Ġta ĠzhiĠ
1Ġ wanĠ
renĠweiĠ yuanĠ
ĠduoĠ geĠ
ĠzuiĠzhongĠ zaiĠ
ĠwanĠpingĠfangĠ miĠ
mingĠniĠ suĠdaĠ
Ġ junĠweiĠ
li ĠyouĠ
qing ĠweiĠ
yuanĠ shouĠ
jianĠ xiaoĠ
zhanĠ fuĠ
yingĠ shuĠ
luoĠ menĠ
chuanĠ xianĠ
ĠgongĠ changĠ
guangĠ xuĠ
ĠzhuĠ saiĠ
ĠtaĠcengĠ daiĠbiao
en ĠĠĠ
wu ĠzhongĠxinĠ
dao ĠĠĠ
jiang ĠweiĠwuĠerĠ
ha ĠfuĠ
ĠliĠ changĠ
zhengĠ lunĠ
shangĠ faĠlanĠxiĠdaĠquĠ
baoĠ luĠ
zuiĠ chuĠdeĠ
ĠbingĠ huoĠdeĠ
chaoĠjiĠ lianĠsaiĠ
ĠyiĠ shangĠdeĠ
qiĠ yongĠ
ĠguoĠ anĠ
ĠdaĠ gongĠ
jiaoĠ duoĠ
fenĠ kaiĠ
meiĠ shuĠguanĠ
tianĠ ranĠ
ĠziĠ dongĠ
chongĠ fenĠ
chuangĠ zuo
ren ĠshiĠdeĠ
qu ĠdeĠyiĠ
tong ĠrenĠ
mei ĠrenĠ
zhou ĠzhongĠ
xu ĠjiaĠ
shui ĠxiĠ
hong ĠshiĠziĠ
zhongĠ daĠ
shangĠ chuanĠ
yingĠ sheĠ
guanĠ jieĠ
xinĠ xianĠ
xinĠ huaĠ
jiaoĠ tong
junĠ zhangĠ
biĠ ciĠ
yaĠ chiĠ
tuĠ luĠ
zhunĠ queĠ
Ġma ĠerĠ
faĠbiaoĠ leĠ
Ġ 22Ġ
ĠĠĠ suĠ
yan ĠweiĠ
bao ĠzhongĠ
mu ĠyiĠ
gao ĠweiĠ
sun ĠhaiĠ
chou ĠkeĠ
ĠzhiĠ houĠdeĠ
heĠ yueĠ
ĠxiĠ lanĠ
taiĠ nanĠshiĠ
xiaĠ banĠ
ĠzhiĠchiĠ zheĠ
Ġ chuanĠtongĠ
hu ĠrenĠ
mei ĠyuĠ
liang ĠzaiĠ
cai ĠfuĠ
1917 ĠnianĠ
beiĠ songĠ
nanĠ ceĠ
canĠ yanĠ
Ġai ĠdeĠ
guiĠdaoĠ jiaoĠtongĠ
xianĠdaiĠ huaĠ
dianĠqiĠ huaĠ
dian ĠzaiĠ
xia ĠheĠ
mu ĠyouĠ
lai ĠjiĠ
qiu ĠxingĠ
lan ĠqiĠ
fuĠ mianĠ
taiĠ zhongĠshiĠ
wangĠ chaoĠdeĠ
muĠ hanĠmoĠdeĠ
neiĠ zhengĠbuĠ
1Ġ mianĠ
dao ĠyiĠgeĠ
gao ĠliĠ
xu ĠzhiĠ
ĠshiĠ miĠ
ĠshiĠ miĠsiĠ
ĠweiĠ guoĠ
gongĠ shuĠ
ĠguoĠ jiaĠjiĠ
fenĠ bianĠ
ĠfuĠ muĠ
bianĠ gengĠ
luoĠ houĠ
ĠgaiĠ wuĠzhongĠdeĠ
peiĠ xun
zhengĠfu ĠheĠ
shengĠwuĠ xueĠ
sanĠjiaoĠ xingĠ
2 ĠshiĠ
Ġ tie
gai ĠdeĠ
47 ĠnianĠ
zhiĠ zuoĠ
ĠliĠ jiaĠ
pingĠ xianĠ
wanĠ shanĠ
2Ġ wanĠ
hongĠ shuiĠ
xiaoĠshiĠ houĠ
ĠzhenĠ duiĠ
wuĠliĠ xueĠjiaĠ
dongĠbuĠ daĠquĠ
aĠjiĠ tan
Ġ zun
hui ĠshiĠyongĠ
jiang ĠdaĠ
jiu ĠbuĠ
lie ĠtaĠ
huan ĠyouĠ
rui ĠkeĠ
29 ĠnianĠ
buĠ luĠ
jianĠ jiaoĠ
wuĠ yeĠ
shouĠ yingĠ
yanĠ huĠ
ĠdaĠ zhengĠ
wangĠ fanĠ
gaoĠ xiongĠ
lingĠ shouĠ
guĠ geĠ
lieĠ ru
ĠzhuĠ yanĠ
Ġtong ĠnianĠ10ĠyueĠ
ĠmaĠ dingĠ
niuĠyueĠ zhouĠ
ĠK Ġ
Ġ An
Ġ xiangĠshiĠ
ĠĠĠ 5Ġ
qi ĠyiĠzhiĠ
zhou ĠxiĠ
ting ĠzaiĠ
chen ĠshiĠ
bang ĠdanĠ
42 Ġ
1910 ĠnianĠ
xingĠ shengĠ
ĠdiĠ chuĠ
zhanĠ qianĠ
tongĠ chengĠ
zheĠ changĠ
dianĠ luĠ
zongĠ tiĠ
chuanĠ jiaoĠshiĠ
ĠzheĠ xiangĠ
qinĠ fanĠ
tuiĠ chu
miaoĠ xieĠ
ĠchaoĠ tingĠ
ĠĠĠ Fi
ĠĠĠ jiaoĠ
dao ĠzhongĠguoĠ
dian ĠzhongĠ
kai ĠxingĠ
sai ĠyuĠ
chun ĠjiĠ
1908 ĠnianĠ
daĠ xiĠ
xingĠ mingĠ
gongĠ buĠdeĠ
huiĠ shouĠ
houĠ zheĠ
guanĠ kan
taiĠ yinĠ
saiĠ tingĠ
ĠxiangĠ biĠ
Ġri ĠheĠ
tuoĠ leiĠ
ĠzhanĠ zhengĠ
ĠguangĠ zhouĠ
Ġ ban
Ġ zouĠ
ĠĠĠ Ca
shu ĠdeĠyiĠzhongĠ
liang ĠkeĠ
zhen ĠzhongĠ
lin ĠheĠ
lun ĠzhongĠ
ĠshiĠ yinĠweiĠ
ĠyiĠ shouĠ
daĠ baiĠ
wuĠ jiaĠ
jieĠ mianĠ
xiangĠ cunĠ
dongĠ wuĠdeĠ
qianĠ fengĠ
banĠ dianĠ
zuĠ gouĠdeĠ
gaoĠ fengĠ
luoĠ niĠ
biaoĠ tiĠ
zhuanĠ men
shaoĠ huiĠ
ĠbuĠguoĠ zaiĠ
faĠxianĠleĠ ciĠtianĠtiĠ
ĠaĠerĠbeiĠ siĠ
Z Ġ
Ġ zhiĠdeĠ
Ġ houĠzaiĠ
ĠĠĠ pingĠ
xin ĠnianĠ
dui ĠrenĠ
gai ĠjiĠ
niu ĠjinĠ
ght Ġ
1904 ĠnianĠ
ĠzaiĠ geĠ
wenĠ daiĠ
taiĠ yang
qingĠ haiĠ
liangĠ haoĠdeĠ
sheĠ zhiĠdeĠ
zhenĠ chaĠ
lingĠ duiĠ
kaiĠ boĠ
paiĠ ming
ĠgongĠyuanĠ qianĠ
ĠĠĠ Di
ĠĠĠ duoĠ
xing ĠdeĠshiĠ
tai ĠzhiĠ
guang ĠdaĠ
jianĠ jianĠ
chuĠ ruĠ
shuĠ niuĠ
zhengĠ jianĠ
yingĠ jiuĠ
yeĠ tiĠ
danĠ maiĠ
liangĠ tiaoĠ
shenĠ yuanĠ
zuĠ zhangĠ
xuĠ niĠ
ĠgeĠ siĠ
ĠqiĠzhongĠ baoĠkuo
Ġgai ĠjiĠ
pingĠlun ĠjiaĠ
Ġ chou
ĠĠĠ 14
nian ĠjianĠ
hu ĠjiĠ
ge Ġyue
huo ĠzhiĠ
bo ĠliĠyaĠ
yao ĠzhiĠ
lei ĠzaiĠ
pian ĠshiĠ
ning ĠxianĠ
ĠyiĠ fangĠ
diĠ zhenĠ
ĠyouĠ huiĠ
ĠrenĠ mingĠweiĠ
shouĠ qiangĠ
yangĠ guangĠ
fanĠ dianĠ
caiĠ neng
niĠ guĠlaĠ
linĠ jinĠdeĠ
zhaoĠ muĠ
ĠshouĠ luĠ
Ġ000 ĠmingĠ
zhuĠshiĠ huiĠsheĠ
ĠjinĠxingĠ leĠ
Ġ heĠyiĠ
Ġ ruiĠshiĠ
hua ĠbuĠ
chang ĠzhongĠ
gai ĠdiĠquĠ
na ĠzaiĠ
12 ĠgeĠ
heng ĠdeĠ
80 ĠnianĠ
huiĠ quĠ
zhanĠ siĠ
yaĠ suoĠ
bianĠ jiangĠ
fanĠ kangĠ
ĠyuanĠ yinĠ
Ġyou ĠweiĠ
xianĠdeĠ chengĠshiĠ
caoĠ anĠ
jieĠshouĠ leĠ
ĠyouĠxianĠ gongĠsi
aiĠerĠ lan
ĠĠĠ Ho
ĠĠĠ suoĠ
ĠĠĠ biĠsaiĠ
zheng ĠzhongĠ
mi ĠrenĠ
yong ĠliĠ
feng ĠxingĠ
10 ĠgeĠ
bang ĠjiaĠ
mou ĠgeĠ
42 ĠnianĠ
siĠ zhangĠ
wuĠ juĠ
wuĠ mingĠ
ĠqiĠ yuanĠ
shuĠ baiĠ
duĠ teĠ
ĠkeĠ yiĠshiĠ
fanĠ zui
baĠ mianĠ
chuanĠ shangĠ
Ġbei ĠweiĠ
jieĠyiĠ chanĠ
ĠĠĠ minĠguoĠ
shan ĠzhiĠ
begin Ġ
chuĠ kou
shouĠ piao
jingĠ jieĠ
zhanĠ duiĠ
lianĠ shuĠ
anĠ dongĠniĠ
ĠdanĠ yinĠweiĠ
ĠzhuĠ tiĠ
haĠ laĠ
Ġ Ni
ĠĠĠ 2ĠyueĠ
ti ĠzaiĠ
gai ĠyiĠ
liu ĠheĠ
tuo ĠdeĠ
tion ĠĠĠ
tun ĠmenĠ
yuanĠ chuangĠ
fuĠ huoĠ
beiĠ shaĠ
yeĠ keĠ
zuiĠ xinĠ
jueĠ saiĠdeĠ
linĠ xianĠ
ĠshangĠ hai
ĠjingĠ waiĠshuĠruĠ
ĠĠĠshiĠ jianĠ
ĠdeĠzhongĠ yaoĠ
dianĠziĠyouĠ xiĠ
Ġ gen
ju ĠdiĠ
sai ĠshiĠzhongĠ
mo ĠzhiĠ
kua ĠyueĠ
zhuĠ ming
junĠ dui
fanĠ xiangĠ
fanĠ sheĠ
leĠyiĠ zhongĠ
Ġba ĠxiĠ
ĠdeĠjiĠchuĠ shangĠ
Ġ 57
Ġ yuanĠweiĠ
ĠĠĠ 1ĠyueĠ
yong ĠweiĠ
neng ĠliĠdeĠ
gei ĠshiĠzhongĠ
shuai ĠjunĠ
1946 ĠnianĠ
1915 ĠnianĠ
wuĠ luĠ
ĠqiĠ xiaĠdeĠ
quĠ chuĠ
luĠ xingĠmuĠ
xiaoĠ haoĠ
touĠ mingĠ
kaoĠ ruĠ
Ġjin ĠzhiĠ
zongĠyiĠ jieĠmuĠ
liaoĠning ĠshengĠ
Ġ geĠliĠ
ĠĠĠ zheĠxieĠ
sai ĠsiĠ
tu ĠzaiĠ
cun ĠheĠ
pian ĠyiĠ
heĠ faĠ
xiaoĠ chuĠ
daiĠ xieĠ
ruĠ xuan
bianĠ lunĠ
guĠ yongĠ
ĠjinĠ tianĠ
ĠchengĠ xianĠ
2Ġ mianĠ
ĠwanĠ quanĠ
ĠwangĠ luoĠ
Ġjin ĠjiĠ
ĠxunĠ huiĠ
wuĠxianĠ dianĠ
Ġtian ĠqiĠ
zuiĠhouĠyiĠ ciĠ
ĠsectionĠĠĠ beginĠ
9 ĠmiĠ
Ġ neiĠbuĠ
sh Ġ
ai ĠliĠsiĠ
du ĠyouĠ
lei ĠxiĠ
lei ĠkeĠ
chuang ĠyiĠ
cao ĠyuanĠ
90 ĠnianĠ
ĠyiĠ langĠ
yingĠ bangĠ
jiaoĠ xiangĠ
junĠ wangĠ
ĠjianĠ zaoĠ
meiĠguoĠ guoĠjiaĠ
ĠchengĠ duĠ
aiĠ shaĠ
ĠyiĠzhiĠ weiĠ
Ġdang ĠnianĠ
ĠzaiĠci ĠqiĠjianĠ
Ġ 1983
Ġ daĠliĠ
an ĠbuĠ
nan ĠweiĠ
suo ĠheĠ
gui ĠyuĠ
ĠshiĠ pinĠ
ĠrenĠ shouĠshangĠ
xingĠ haoĠ
erĠ yuanĠ
huiĠ mianĠ
jinĠ shenĠ
jingĠ chengĠ
ĠdaĠ tongĠ
nanĠ xiaĠ
panĠ duanĠ
Ġjiu ĠyueĠ
touĠru ĠshiĠyongĠ
Ġ miao
Ġ 98
bei ĠyouĠ
bing ĠzhongĠ
ĠshiĠ fangĠ
guoĠ jiaĠdeĠ
yuanĠ yuanĠ
zhuĠ duoĠ
jiaoĠ geiĠ
haiĠ junĠdeĠ
muĠ biao
zuĠ ziĠzhiĠquĠ
teĠ gongĠ
bianĠ liangĠ
guĠ xiangĠ
baĠshiĠ luĠxianĠ
guangĠboĠ dianĠtaiĠ
Ġ geiĠ
bi ĠzhiĠ
ru ĠzhiĠ
jiu ĠyuĠ
jue ĠqiĠ
hong ĠqiĠ
cao ĠdiĠ
BD Ġ
buĠ xiangĠ
daĠ lianĠmengĠ
siĠ jiaĠ
jiaĠ shuĠ
beiĠ geĠ
riĠ houĠ
nanĠ yanĠyuanĠ
fengĠ suĠ
fengĠ mianĠ
zeĠ renĠweiĠ
ĠshiĠweiĠ yuanĠhuiĠ
yinĠyueĠ huiĠ
reĠdai ĠdiĠqiĠyaĠ
Ġ shang
Ġ 1980ĠnianĠ
ying ĠyouĠ
yang ĠrenĠ
pin ĠweiĠ
pei ĠyueĠ
ĠbuĠ langĠ
keĠ laĠ
chuĠ laiĠdeĠ
shangĠ huiĠ
xueĠ guanĠ
daiĠ zheĠ
suoĠ xuĠdeĠ
xuanĠ baĠ
diĠshiĠ erĠ
Ġ chong
ĠĠĠ huĠ
fei ĠsiĠ
shan ĠsiĠ
su ĠheĠ
na ĠxiĠ
ga Ġ
jiĠ shuĠ
ĠliĠ mianĠ
ĠdaĠ siĠ
fenĠ juĠ
ĠjiaĠ qiangĠ
guangĠ dianĠ
yueĠ qiuĠ
tuiĠ ceĠ
ĠranĠ houĠzaiĠ
Ġsi ĠyueĠ
ĠjinĠshiĠ chuĠshenĠ
ling ĠheĠ
lei ĠliĠ
feng ĠqiĠ
ĠzaiĠ xianĠ
jieĠ quĠ
ĠdaĠ shaĠ
laiĠ meiĠ
teĠ youĠzhiĠwuĠ
ĠjianĠ chaĠ
zuiĠgaoĠ faĠyuanĠ
jiaĠliĠfuĠ niĠyaĠ
Ġ t
yi ĠshiĠshiĠ
bu ĠdeĠyiĠ
ke ĠshiĠyongĠ
shan ĠxingĠ
cha ĠzhiĠ
1906 ĠnianĠ
renĠ kou
youĠ juĠyuĠ
ĠzhongĠ duoĠ
ĠguoĠ zhongĠ
keĠ xiĠ
beiĠ pingĠ
banĠ shangĠ
ĠĠĠ Ð
ĠĠĠ 13
ĠĠĠ Ba
xu ĠweiĠ
tui ĠdaoĠ
beiĠ haiĠ
huiĠ jiangĠ
nanĠ luĠ
nanĠ nvĠ
juanĠ zengĠ
Ġ xun
Ġ zuoĠyouĠ
Ġ buĠliĠ
xiao ĠshiĠdeĠ
dai ĠzhongĠ
bian ĠbuĠ
yao ĠxingĠ
po ĠshiĠ
to Ġ
SA Ġ
siĠ mingĠ
jianĠ zhu
beiĠ faĠxianĠ
huiĠ xingĠ
jinĠ saiĠ
tiĠ qinĠ
wangĠ luo
duoĠ yangĠ
yangĠ benĠ
chuanĠ zhuĠ
moĠshiĠ chan
ĠsectionĠĠĠ endĠ
Ġ za
xi ĠyueĠ
ĠĠĠ taĠzaiĠ
ke ĠbuĠ
kai ĠshiĠdeĠ
ĠyiĠ jieĠ
chengĠ qiangĠ
shuĠ fuĠ
biĠ luĠ
boĠ yingĠ
fengĠ jingĠ
jueĠ zhuĠ
ĠgongĠ zuo
ĠgaiĠ gongĠsiĠ
xunĠ yanĠ
zhaoĠ huiĠ
Ġbei ĠzhiĠ
shouĠhuanĠ yingĠdeĠ
Ġ shengĠrenĠ
da ĠliĠdeĠ
zuan ĠshiĠ
ĠzaiĠ guoĠ
jianĠ ce
ziĠ danĠ
ĠxiĠ quĠ
juĠ huiĠ
zuoĠ paiĠ
xinĠ wen
jiaoĠ xiaoĠdeĠ
haoĠ wuĠ
tieĠluĠ juĠ
miĠniĠ zhuanĠjiĠ
Ġ zhanĠshiĠ
ĠĠĠ Ra
ĠĠĠ wuĠkeĠlanĠ
mei ĠheĠ
dang ĠzhiĠ
feng ĠjiĠ
kong ĠjuĠ
ps Ġ
laiĠ leĠ
meiĠ you
zuĠ zongĠ
ĠgaiĠ geĠ
ĠĠĠzhuĠ zuoĠ
saĠerĠ waĠ
kaoĠlv ĠdaoĠ
5 ĠshiĠ
yi ĠshiĠjiĠ
ĠĠĠ Ar
huo ĠweiĠ
bie ĠshuĠ
pang ĠqiuĠ
ĠliĠ xingĠ
youĠ renĠ
ĠyouĠ taiĠrenĠ
ĠheĠ fuĠ
chengĠ faĠ
qingĠ daiĠ
muĠ houĠ
luoĠ yangĠ
ĠzhuĠ mingĠ
douĠ yuĠshiĠ
woĠ menĠdeĠ
ĠxuĠ duo
Ġai ĠliĠ
jiaoĠhuiĠ chuĠ
jiangĠyuĠ liangĠ
ĠjieĠweiĠ luĠdiĠ
Ġ 1986
hui ĠliĠ
san ĠheĠ
che ĠzaiĠ
lin ĠzhiĠ
ku ĠsiĠ
meng ĠyouĠ
geng ĠyouĠ
60 ĠnianĠ
qiĠ zaiĠ
qiĠ xiaĠ
ĠheĠ luĠ
gongĠ tingĠ
jianĠ shuĠ
jinĠ kouĠ
huaĠ tiĠ
tongĠ changĠshiĠ
jiangĠ jieĠ
ĠfuĠ za
wanĠ chengĠdeĠ
miĠ xieĠ
anĠ zhao
suoĠ muĠ
zuiĠ mingĠ
baĠ saiĠerĠ
Ġ p
Ġ 1982
Ġ qiĠzhiĠ
ĠĠĠ sheĠ
ĠĠĠ zhanĠhouĠ
yin ĠyueĠdeĠ
zao ĠchuĠ
guang ĠdaoĠ
chan ĠshiĠ
gou ĠxiangĠ
cao ĠdeĠ
38 Ġ
youĠ xiaoĠ
ĠzhongĠ wuĠ
daĠ liangĠdeĠ
ĠqiĠ tuĠ
chuĠ ban
ĠdiĠ 2Ġ
ĠdaĠ ziĠ
boĠ leiĠ
dengĠ xiaoĠ
huĠ tongĠ
liuĠ xingĠdeĠ
cengĠ danĠrenĠ
ĠhouĠ beiĠ
ĠciĠ wai
ĠciĠ lieĠcheĠ
paiĠhangĠ bangĠ
xue ĠshiĠweiĠ
song ĠshiĠ
jiĠ chuĠ
fenĠ dianĠ
wangĠ minĠ
zuiĠ juĠ
fanĠ paiĠ
shanĠ luĠ
ĠgongĠ nengĠ
ĠciĠ juĠ
canĠ mouĠ
ĠdeĠzhiĠ zuoĠ
ĠyueĠzhongĠ xunĠ
ĠĠĠ 2003ĠnianĠ
you ĠshiĠyiĠ
zi ĠbuĠ
zhou ĠguoĠ
na ĠweiĠ
han ĠrenĠ
rang ĠrenĠ
les Ġ
daĠ dongĠbuĠdaĠquĠ
jianĠ zaoĠdeĠ
chuĠ shengĠzaiĠ
xiaĠ shuiĠ
zuĠ qun
teĠ luoĠ
ĠĠĠliĠshiĠ yanĠgeĠ
yanĠjiu ĠzhongĠ
Ġ Me
ĠĠĠ tuĠ
ta ĠbuĠ
dai ĠjiaĠ
min ĠzaiĠ
1907 ĠnianĠ
ĠshiĠ minĠ
beiĠ mianĠ
ziĠ jiĠshiĠ
huiĠ xianĠ
juĠ ziĠ
zhanĠ lieĠ
tiĠ neiĠ
junĠ fuĠ
haiĠ wanĠ
jiuĠ ciĠ
ĠhouĠ yinĠ
kongĠ guĠ
Ġtong ĠyueĠ
ĠmeiĠ zhouĠ
ĠluoĠ boĠ
ĠISTAT ĠdaiĠmaĠweiĠ
jian ĠyueĠ
gu ĠdiĠ
bo ĠheĠ
nuo ĠkeĠ
ĠjiĠ xianĠ
daĠ erĠ
jiaĠ zhuangĠ
keĠ qianĠwangĠ
dengĠ baoĠ
ĠjinĠ gongĠ
chanĠ sheng
diĠyiĠ mingĠ
muĠsiĠ teĠ
siĠlingĠ yuanĠ
Ġ 88
ĠĠĠ Y
ĠĠĠ So
zhan ĠshiĠqiĠ
zhou ĠsiĠ
chuan ĠdaĠ
11 ĠshiĠ
kan ĠwuĠ
lao ĠhuiĠ
xiĠ yinĠ
shuĠ mingĠ
houĠ saiĠ
mingĠ dan
ciĠ ziĠ
bingĠ chuanĠ
guangĠ xianĠ
Ġzhe ĠliĠ
saĠ moĠ
nongĠ duĠ
ĠzongĠ jiaoĠ
ĠyaĠ meiĠ
huĠbeiĠ shengĠ
Ġ 700
Ġ zaoĠqiĠ
ĠĠĠ duĠ
chang ĠrenĠ
jun ĠdaĠ
min ĠheĠ
pi ĠerĠ
che ĠheĠ
yuanĠ chengĠ
quĠ xianĠ
xinĠ yang
jiaoĠ wangĠ
qianĠ longĠ
banĠ zhangĠ
ĠxingĠ bie
fanĠ chuanĠ
baĠ leiĠ
ĠgaiĠ dangĠ
Ġgai ĠnianĠ
ĠdeĠdaoĠ luĠ
chengĠduĠ shangĠ
shouĠhaiĠ zheĠ
Ġ tuĠerĠqiĠ
jiao ĠxiĠ
du ĠzhongĠ
fan ĠyuĠ
na ĠyiĠ
se ĠheĠ
mao ĠkeĠ
xiangĠ fuĠ
beiĠ anĠ
zuoĠ biaoĠ
yinĠ duĠdeĠ
ĠjiaĠ la
muĠ luĠ
maĠ luĠ
ĠjianĠ duĠ
aĠ saiĠbaiĠ
keĠyiĠ yongĠ
ĠhuaĠ xueĠ
ĠshiĠyiĠkeĠ hengĠxingĠ
9 ĠgeĠ
a ĠdeĠ
Ġ daiĠbiao
Ġ zhunĠbeiĠ
ye ĠliĠ
bo ĠqiĠ
huan ĠshiĠ
49 ĠnianĠ
beiĠ shouĠ
fenĠ huaĠ
xiaoĠ fuĠ
qingĠ fuĠ
shenĠ chuĠ
liuĠ mingĠ
ĠzuoĠ pinĠ
ĠaoĠ diĠliĠ
ĠguiĠ dingĠ
Ġzheng ĠyueĠ
Ġ fuĠliĠ
an ĠdiĠ
ĠĠĠ genĠju
jie ĠyueĠ
zheng ĠrenĠ
hua ĠyouĠ
lai ĠweiĠ
neng ĠyuĠ
zhongĠ zuĠ
shengĠ xingĠ
jinĠ zhuĠ
quĠ zhuĠjianĠ
zhengĠ jiuĠ
shenĠ xueĠ
qiuĠ dui
ĠchengĠ keĠ
ĠjieĠ tiĠ
qunĠ daoĠdeĠ
ĠfeiĠ changĠ
Ġ nei
Ġ biaoĠzhunĠ
Ġ 1947ĠnianĠ
yin ĠrenĠ
xin ĠdiĠ
ba ĠqiĠ
daĠ jiaĠ
jiaoĠ gaoĠdeĠ
haiĠ yang
2Ġ biĠ
nianĠ duĠ
tongĠguoĠ leĠ
ĠjiaoĠ shouĠ
gaoĠxiong ĠshiĠ
ĠpuĠtaoĠ yaĠyuĠ
Ġ Bo
ĠĠĠ ruĠguoĠ
dong ĠzhongĠ
quan ĠzhongĠ
su ĠyuĠ
bang ĠshangĠ
52 ĠnianĠ
yuanĠ laiĠdeĠ
gongĠ lu
wuĠ jieĠ
yanĠ bianĠ
dengĠ zhanĠ
fanĠ xinĠ
guangĠ xueĠ
laoĠ banĠ
tieĠluĠ gongĠsiĠ
faĠxingĠ leĠ
zongĠjiaoĠ quĠ
zuiĠhou ĠyiĠgeĠ
Ġ zhongĠyiĠ
mei ĠkeĠ
shao ĠyuĠ
style Ġ
ĠdeĠ buĠ
heĠ chengĠ
ĠzaiĠ neiĠ
Ġyue ĠjiĠ
wuĠ xuĠ
changĠ shuĠ
duiĠ gaiĠ
muĠ diĠshiĠ
liuĠ jingĠ
ĠshengĠ wuĠ
ĠhuiĠ daoĠ
ĠlianĠ xuĠ
dianĠying ĠzhongĠ
changĠpian ĠgongĠsiĠ
ĠwanĠmeiĠ yuanĠdeĠ
Ġ quanĠbuĠ
Ġ zhuiĠ
li ĠsiĠ
fan ĠrenĠ
cha ĠsiĠ
xiĠ quĠ
ĠyueĠ duĠ
ciĠ leiĠ
huaĠ wenĠ
ĠriĠ benĠdeĠ
ĠjiaĠ mengĠ
meiĠ laĠ
lianĠ xianĠ
ĠdanĠ taĠmenĠ
ĠyanĠ yuanĠ
ĠĠĠshiĠ jieĠ
ĠbianĠ haoĠ
xinĠliĠ xueĠ
qiu ĠdaĠ
sai ĠshiĠdeĠ
liu ĠqiĠ
hao ĠzhongĠziĠ
lv ĠbuĠ
guang ĠweiĠ
tang ĠshiĠ
song ĠzhiĠ
zhai ĠdeĠ
ĠshiĠ duanĠ
jieĠ jingĠ
xiangĠ jiangĠ
leĠ jinĠ
jiaoĠ yuĠdeĠ
duiĠ yingĠdeĠ
xiaoĠ zhenĠ
danĠ shuiĠyuĠ
shenĠ shouĠ
ĠfuĠ haoĠ
zuĠ lianĠ
ĠtaĠ yeĠshiĠ
guĠ baĠ
haoĠ chengĠshiĠ
ĠgaiĠ chengĠ
ĠciĠ qianĠ
zhengĠshiĠ chengĠliĠ
3Ġ gongĠliĠ
guoĠdeĠ teĠyouĠzhiĠwuĠ
ĠanĠ zhaoĠ
ĠdeĠyiĠge ĠzhongĠ
fuĠshiĠ zhangĠ
ĠgaiĠshengĠfenĠweiĠfaĠguoĠ beiĠbuĠ
zhanĠdou ĠzhongĠ
ti ĠyouĠ
han ĠsiĠ
Ġnian ĠzhiĠhouĠ
ĠzaiĠ shangĠ
jianĠ yanĠ
shengĠ fuĠzeĠguanĠxiaĠ
ĠerĠ jiaĠ
jiaoĠ yuanĠ
saiĠ juĠ
Ġgai ĠdiĠ
1ĠriĠ pingĠjunĠ
Ġliang ĠguoĠ
keĠjiĠ daĠxueĠ
ĠerĠsiĠ keĠ
kongĠzhongĠ faĠxianĠ
huanĠxingĠ shanĠ
Ġ Ki
qi ĠshiĠdeĠ
xiao ĠdiĠ
bai ĠjinĠ
chao ĠxiĠ
tuo ĠyuanĠxingĠ
zou ĠdeĠ
ĠdeĠ laĠ
ĠyiĠ guoĠ
ĠrenĠ neiĠ
tongĠ xun
dingĠ lvĠ
liuĠ fangĠ
fengĠ biĠ
ĠliangĠ zheĠ
minĠjinĠ dangĠ
ta ĠjiĠ
xu ĠheĠ
pai ĠshiĠ
gui ĠjiĠ
bang ĠdaĠ
1903 ĠnianĠ
ĠzaiĠ fuĠ
beiĠ diĠ
zuoĠ chuĠleĠ
tiĠ caoĠ
dangĠ paiĠ
hanĠ baoĠ
ĠyeĠ keĠ
yuĠyiĠ daĠliĠ
ĠbenĠ mingĠ
Ġjiang ĠyuĠ
ĠweiĠzhongĠ xinĠ
ĠshiĠshiĠjieĠ shangĠ
Ġ 68
Ġ Ð½
ĠĠĠ houĠlaiĠ
da ĠyouĠ
ru ĠdiĠ
xu ĠliĠ
na ĠĠĠ
tie ĠdeĠ
pei ĠsiĠ
gei ĠchuĠ
ĠyiĠ wenĠ
keĠ taĠ
ĠdaĠ lou
wangĠ guoĠdeĠ
dingĠ muĠ
paiĠ duiĠ
ĠjianĠ shaoĠ
huoĠdeĠ diĠ
Ġjin ĠyiĠbuĠ
ĠtuĠ jingĠ
ĠO Ġ
kaĠluoĠlaiĠnaĠ zhouĠ
Ġ fangĠzhiĠ
ai ĠdiĠ
ĠĠĠ wenĠ
ĠĠĠ canĠkaoĠ
fa ĠyouĠ
ĠyuĠ jingĠ
Ġli ĠweiĠzhiĠ
shouĠ piĠ
zhanĠ biĠ
huaĠ dongĠ
tiĠ chu
dianĠ ciĠ
wanĠ jieĠ
lianĠ siĠjiĠ
zhengĠzhiĠ xieĠshangĠ
ĠlianĠ bangĠ
ĠheĠbeiĠ shengĠ
Ġ23 Ġ
ĠqiĠxiĠ shenĠduĠ
ĠĠĠ faĠxingĠ
ming ĠliĠ
zhan ĠguoĠ
dai ĠheĠ
wang ĠdaĠ
tiao ĠshiĠ
34 Ġ
align Ġ
jianĠ dingĠ
jinĠ jinĠ
ĠdiĠ keĠ
zhanĠ lieĠjianĠ
yeĠ chengĠ
jiangĠ gaiĠ
ĠtaĠ biaoĠshiĠ
fanĠ yingĠdeĠ
ĠxiangĠ dangĠ
ĠshiĠweiĠ shuĠjiĠ
Ġtong ĠnianĠ11ĠyueĠ
ĠtongĠ chang
ĠdengĠ dengĠ
saĠkeĠ senĠ
moĠshiĠchan ĠdiĠzaiĠ
3 ĠliĠ
Ġ 1948
Ġ mĠ
ĠĠĠ caiĠ
er ĠshiĠshiĠjiĠ
ying ĠweiĠ
suo ĠyuĠ
chun ĠjieĠ
ĠyiĠ zhangĠ
yinĠ yuanĠ
minĠ yongĠ
ĠjinĠ guan
meiĠguoĠ haiĠjunĠ
Ġbing ĠshiĠ
shaoĠ nv
2010ĠnianĠ meiĠguoĠrenĠkouĠpuĠchaĠ
Ġ1946 ĠnianĠ
Ġmin ĠjiĠ
4 ĠhaoĠ
Ġ 1948ĠnianĠ
chi ĠyuĠ
zao ĠshiĠ
ĠyouĠ zheĠ
jieĠ zhuĠ
sheĠ xiangĠ
zhenĠ dongĠ
huĠ zhaoĠ
ĠchuĠ daoĠ
zhuĠyiĠ daoĠ
ĠmianĠ dianĠ
ziĠgeĠ saiĠ
Ġduo ĠrenĠ
Ġ henĠduoĠ
ji ĠyiĠjiĠ
ver Ġ
ĠzhiĠ minĠ
renĠ menĠ
ĠbeiĠ jingĠshiĠ
ĠzheĠ yeĠ
ĠdeĠzhiĠ huiĠ
ĠyiĠweiĠ zhuĠ
daoĠzhiĠ leĠ
xunĠhuiĠ yanĠchangĠhuiĠ
huaĠshengĠ dun
shuaiĠling ĠdeĠ
ĠjuĠqingĠ xiaĠ
Ġ Pi
ĠĠĠ xueĠ
ĠĠĠ dianĠyingĠ
nan ĠdaĠ
gao ĠxingĠ
lin ĠzaiĠ
36 Ġ
1900 ĠnianĠ
ĠyuĠ jiaĠ
yingĠ huaĠ
duiĠ chenĠ
ĠjiaĠ sheĠ
liangĠ jieĠ
ĠfuĠ luoĠ
teĠ shengĠ
ĠyinĠ hangĠ
ĠwuĠ diĠ
huangĠ puĠ
ouĠ zhouĠdeĠ
Ġsi ĠliĠ
ĠzhongĠshiĠ yanĠ
Ġ Ha
Ġ zhuĠliĠ
Ġ 1979ĠnianĠ
nian ĠbeiĠ
sheng ĠyueĠ
hua ĠliĠ
jiang ĠrenĠ
kang ĠdeĠ
ĠyuĠ zhouĠ
ĠyouĠ xi
wuĠ changĠ
xiangĠ xiangĠ
beiĠ keĠ
ĠsiĠ tan
ruĠ zhuĠ
ĠxingĠ xiangĠ
zuiĠ jinĠ
tanĠ huaĠ
Ġjie ĠheĠ
Ġming ĠshiĠ
naĠcui ĠdeĠguoĠ
Ġ 99
ai ĠziĠ
ĠĠĠ niĠ
sheng ĠdeĠyiĠgeĠ
hui ĠrenĠ
dai ĠzaiĠ
diao ĠrenĠ
1950 ĠnianĠdaiĠ
ĠyiĠ siĠshiĠ
weiĠ xieĠ
faĠ guoĠdeĠ
ĠxiĠ zang
jingĠ bao
yeĠ shouĠ
wanĠ huiĠ
baĠ naĠ
ĠdanĠ houĠlaiĠ
Ġtong ĠnianĠ9ĠyueĠ
zhuiĠ suĠzhiĠ
gaoĠdengĠ xueĠxiaoĠ
fuĠqin ĠdeĠ
ĠbiĠyeĠ houĠ
Ġ hun
Ġ jiaĠliĠ
Ġ 1956ĠnianĠ
ĠĠĠ 2002ĠnianĠ
tang ĠjiĠ
ĠyiĠ liao
ĠzhiĠ xiangĠ
ĠzhiĠ zuoĠdeĠ
ĠyueĠ qiuĠ
jieĠ juĠ
jingĠ xianĠ
ĠfuĠ siĠ
langĠdeĠ shengĠ
ĠkeĠxiĠ taĠ
Ġ f
Ġ chu
Ġ nuoĠweiĠ
ĠĠĠ 2002
ĠĠĠ To
hao ĠyueĠtaiĠ
rong ĠqiĠ
ĠyuĠ yuĠ
ĠnianĠ sheĠliĠ
taĠ duiĠ
bingĠ faĠ
ĠxingĠ bieĠ
zuĠ chengĠyuanĠ
jiuĠ keĠyiĠ
fanĠ xueĠxiaoĠ
ĠxianĠ faĠ
ĠjieĠ chuĠ
zhuanĠ anĠ
nianĠ qingĠ
maiĠkeĠ erĠ
ĠbuĠjiuĠ houĠ
Ġtian ĠfuĠ
2 ĠjiaĠ
Ġ 1987
Ġ ãĤĵ
Ġ jianĠzhiĠ
Ġ 1981ĠnianĠ
ng Ġ
ĠĠĠ aoĠ
xu ĠyouĠ
zui ĠxiĠ
tian ĠyiĠ
lou ĠtiĠ
chun ĠdeĠ
chai ĠyouĠ
jiaĠ juĠ
chengĠ duĠdeĠ
xianĠ qiĠ
ĠxiĠ la
leĠ zheĠyiĠ
jiaoĠ chuĠ
qianĠ wanĠ
laiĠ teĠ
suoĠ xuĠ
ĠzheĠ liangĠ
huanĠ rao
ĠshengĠ chanĠ
Ġ 1984
Ġ xingĠjiĠ
Ġ iĠ
ĠĠĠ Mar
ĠĠĠ yangĠ
ĠĠĠ renĠwuĠ
ĠĠĠ 2024ĠnianĠ
zai ĠshiĠyongĠ
he ĠshiĠdeĠ
wu ĠguoĠ
xiu ĠzhuĠ
piao ĠdeĠ
xiĠ tong
xianĠ fengĠ
bingĠ qiuĠ
dianĠ yaĠ
minĠ zhengĠ
teĠ lanĠ
quanĠ zhouĠ
maĠ enĠshengĠ
aĠ erĠjiĠ
Ġzhe ĠshiĠyiĠ
ĠbenĠ zhanĠ
zhongĠshiĠ yanĠ
Ġ xueĠxiĠ
ĠĠĠ 20ĠshiĠjiĠ
wan ĠshiĠ
ben ĠdiĠquĠ
liu ĠweiĠ
gang ĠguoĠ
guang ĠshiĠ
pang ĠdeĠ
1916 ĠnianĠ
ĠyouĠ fuĠ
ĠzaiĠ jianĠ
gongĠ fengĠ
geĠ lanĠdeĠ
faĠ xianĠyuĠ
jiangĠ daoĠ
pingĠ xingĠ
suoĠ shu
saiĠ maĠ
sanĠ jianĠ
naĠ poĠlunĠ
eĠ waiĠdeĠ
ĠneiĠ rongĠ
canĠsaiĠ zheĠ
3 ĠĠĠ
5 ĠmingĠ
Ġ kuoĠ
dai ĠjiĠ
te ĠyiĠ
men ĠdaĠ
ĠshiĠ neiĠ
ĠyuĠ daĠ
beiĠ hanĠ
ziĠ youĠshiĠ
dongĠ fengĠ
xiaĠ shuĠ
qingĠ xieĠ
boĠ luoĠdiĠ
touĠ yingĠ
eĠ junĠ
ĠnanĠ ziĠ
minĠzhuĠ zhuĠyiĠ
ĠgaiĠwuĠzhongĠdeĠ moĠshiĠchanĠdiĠzaiĠ
Ġ Ka
ĠĠĠ xiangĠguanĠ
shou ĠguoĠ
bian ĠzhongĠ
fei ĠyuĠ
xiong ĠzhangĠ
ar Ġ
ĠzhiĠ liangĠ
guoĠ duĠ
ĠzaiĠ taiĠwanĠ
shengĠ qianĠ
beiĠ panĠ
luĠ jun
ĠyinĠ niĠ
manĠ guanĠ
ĠwanĠ zhangĠ
Ġgu ĠjiĠ
teĠbie ĠxingĠzhengĠquĠ
muĠniĠ hei
eĠhaiĠeĠ zhouĠ
Ġ 1955ĠnianĠ
yuan ĠĠĠ
meng ĠjiaĠlaĠ
man ĠweiĠ
ĠshiĠ gaiĠ
ĠbuĠ leiĠ
faĠ yinĠ
guanĠ junĠdeĠ
changĠ shaĠ
xinĠ jiaoĠ
ĠxingĠ chaiĠyouĠjiĠ
xuanĠ xiuĠ
ĠshiĠyiĠ jingĠ
waĠ laĠ
ĠĠĠyiĠ xieĠ
qingĠhuaĠ daĠxueĠ
Ġ nvĠziĠ
da ĠliĠshiĠ
qu ĠliĠ
zhang ĠshiĠjianĠ
mai ĠxiaĠ
der Ġ
ĠyiĠ chuĠ
daĠ siĠ
jieĠ duĠ
shengĠ yuanĠ
ĠqiĠ chengĠ
houĠ huiĠ
ĠfuĠ lanĠkeĠ
wanĠ daoĠ
panĠ luan
Ġye ĠzaiĠ
Ġye ĠbuĠ
Ġbei ĠrenĠweiĠshiĠ
ĠganĠ suĠ
ĠshiĠwuĠkeĠ lanĠdeĠ
Ġ John
Ġ zhongĠzhiĠ
ĠĠĠ miaoĠshuĠ
xiang ĠrenĠ
zuo ĠbuĠ
yong ĠrenĠ
jiu ĠyiĠjingĠ
la ĠĠĠ
wai ĠyuĠ
wai ĠkeĠ
ct Ġ
Ġnian ĠnianĠ
ĠyouĠ ziĠ
ĠzaiĠ jingĠ
keĠ keĠ
quĠ jueĠyuĠ
yingĠ fuĠ
taiĠ shanĠ
daiĠ huiĠ
saiĠ puĠ
Ġ 1979
Ġ ouĠzhou
lian ĠjiĠ
yang ĠyiĠ
sai ĠzhiĠ
que ĠxianĠ
bang ĠshouĠ
xingĠ fuĠ
huaĠ feiĠ
guanĠ muĠ
taiĠ langĠ
gaiĠ zhuangĠ
liangĠ cengĠ
cheĠ huiĠ
zongĠ zhangĠ
neiĠ waiĠ
ĠxianĠ zaiĠdeĠ
huanĠ manĠ
ĠyeĠ huiĠ
zhengĠzhiĠ juĠ
Ġ mou
Ġ binĠ
xian ĠyueĠ
tong ĠyiĠgeĠ
ni ĠzaiĠ
00 Ġ
III Ġ
ĠheĠ youĠ
fuĠ luoĠ
shengĠ ziĠ
xianĠ beiĠ
xianĠ jingĠ
shangĠ ye
huaĠ banĠ
tongĠ meng
xinĠ zeng
zuiĠ zhuĠmingĠdeĠ
zongĠ zuoĠ
saiĠ eĠ
ĠdeĠyiĠ changĠ
ĠbingĠ duiĠ
ĠgongĠ si
ĠgaiĠ zuĠzhiĠ
huanĠ yuanĠ
ĠshuĠ rouĠshiĠxingĠ
yunĠshiĠ kengĠ
3 ĠshiĠ
Ġ yunĠdongĠ
ren ĠĠĠ
deng ĠyiĠ
su ĠjiĠ
han ĠweiĠ
pao ĠtaĠ
ĠshiĠ congĠ
zhongĠ xingĠ
zhengĠ queĠ
yinĠ qiĠdeĠ
tiĠ shangĠ
fenĠ sanĠ
ĠdeĠyiĠ buĠ
ĠyiĠzhiĠ youĠ
zongĠtongĠ fuĠ
Ġ1 ĠĠĠ
Ġ feiĠjiĠ
Ġ zhiĠdeĠshiĠ
Ġ 1937ĠnianĠ
an ĠweiĠ
gao ĠerĠfuĠ
zun ĠshouĠ
jieĠ touĠ
zhuĠ yanĠdeĠ
shengĠ zhengĠfuĠ
faĠ guiĠ
yeĠ kaiĠshiĠ
luĠ xiangĠ
biĠ huĠ
qiuĠ fanĠ
kaiĠ fang
tingĠ huoĠ
nvĠ xingĠdeĠ
ĠxiaĠ xiaĠ
ĠjiaoĠ tongĠ
ĠhuaĠ xueĠshiĠweiĠ
Ġmei ĠriĠ
kenĠ seĠ
Ġ Do
Ġ Ð¸
xiu ĠliĠ
sa ĠzhuĠsaiĠ
sang ĠnaĠ
Î² Ġ
ĠzhiĠ qiĠ
jieĠ hun
ĠerĠ wenĠmingĠ
juĠ mianĠ
shangĠ yanĠ
huaĠ daĠ
teĠ se
lingĠ muĠ
luoĠ shanĠ
yangĠ junĠ
zuiĠ changĠ
fengĠ mingĠ
jueĠ xinĠ
ĠyinĠ qingĠ
ĠchengĠ xuĠ
1Ġ biĠ
daiĠbiao ĠdeĠ
kaĠsiĠ diĠliĠyaĠ
Ġ wuĠliĠ
Ġ 1952ĠnianĠ
ji ĠshiĠjieĠ
ĠĠĠ No
nian ĠhouĠ
ke ĠweiĠerĠ
shan ĠyiĠ
lun ĠweiĠ
shui ĠzhiĠ
48 Ġ
ĠdeĠ junĠ
jianĠ shouĠ
ĠerĠ xiĠ
dongĠ xingĠ
yanĠ se
guanĠ bingĠ
duiĠ liuĠ
ĠjiaĠ naĠ
liuĠ tongĠ
neiĠ sheĠyouĠ
ziĠjiĠ zaiĠ
ĠteĠ langĠ
lvĠweiĠ 0
ĠzaiĠzhongĠguoĠ daĠluĠ
Ġ yu
Ġ tiĠyuĠ
wang ĠliĠ
kai ĠzhiĠ
zhuan ĠxingĠ
cun ĠjiĠ
re ĠdeĠ
cang ĠdeĠ
shiĠ yiĠ
ĠshiĠ liuĠ
fuĠ daoĠ
geĠ quĠdeĠ
ĠbuĠ bianĠ
zhuĠ biĠ
guanĠ xi
ĠdaĠ shengĠ
xinĠ huiĠ
anĠ niĠ
suĠ lianĠdeĠ
leiĠ anĠjianĠ
sanĠ jieĠ
guangĠ zhou
baiĠ huoĠ
ganĠ junĠ
ĠfaĠ lvĠ
zengĠ qiang
ĠguĠ ciĠ
ĠranĠ erĠzaiĠ
Ġliu ĠyueĠ
ĠgengĠ mingĠweiĠ
ĠĠĠin ĠĠĠtheĠĠĠ
7 ĠgongĠliĠ
fen ĠheĠ
yun ĠjiĠ
na ĠdaoĠ
1938 ĠnianĠ
qiĠ bingĠ
buĠ heĠ
xiĠ lieĠdeĠ
shouĠ xiaĠ
shouĠ huoĠ
fangĠ ziĠ
taiĠ leiĠ
wangĠ fuĠ
nanĠ duanĠ
meiĠ tiĠdeĠ
kaiĠ guanĠ
ĠxiangĠ tongĠ
ĠchuĠ xianĠzaiĠ
chongĠ fengĠ
ĠzhiĠweiĠ yuĠ
sanĠshiĠ nianĠ
baoĠhanĠ leĠ
diaoĠcha ĠjuĠ
Ġ 1958
Ġ Ho
Ġ xinĠxiĠ
Ġ piĠpingĠ
Ġ jianĠrenĠ
ĠĠĠ quĠ
guo ĠliĠshiĠ
dang ĠyiĠ
suo ĠbuĠtongĠ
zhuang ĠzaiĠ
ĠyouĠ xie
gongĠ bu
gongĠ keĠ
jianĠ tingĠ
jiaĠ qiĠ
zhuĠ yuanĠ
beiĠ zhanĠ
ĠdiĠ xingĠ
shuĠ liangĠdeĠ
fangĠ yingĠ
zheĠ huiĠ
qianĠ zhengĠ
junĠ duiĠdeĠ
pingĠ shenĠ
daiĠ kuanĠ
dangĠ neiĠ
kouĠ anĠ
shuiĠ zhunĠ
chongĠ baiĠ
Ġer ĠyiĠ
ĠyingĠ yongĠ
zhunĠ jueĠsaiĠ
8 ĠgongĠliĠ
Ġ shu
Ġ lan
zuo ĠguoĠ
mu ĠxiĠ
cai ĠyouĠ
diao ĠdeĠ
ĠrenĠ siĠwangĠ
siĠ huĠ
jiaĠ ciĠ
junĠ xianĠ
junĠ zhengĠ
haiĠ baoĠ
sheĠ zhangĠ
ĠxiangĠ xiĠ
hanĠ liangĠ
daiĠbiaoĠ duiĠ
juĠxingĠ leĠ
Ġ ya
Ġ ping
fu ĠliĠdeĠ
luo ĠliĠ
ba ĠdiĠ
hen ĠyouĠ
bin ĠxiĠfaĠ
70 ĠnianĠ
ly Ġ
ĠdeĠ siĠ
diĠ daiĠ
daĠ chen
daĠ gongĠ
daĠ tongĠ
xiangĠ jinĠ
xianĠ jinĠdeĠ
ziĠ jiaĠ
xinĠ aĠjiĠtan
qianĠ liangĠ
zhenĠ duanĠ
paiĠ hang
pinĠ kun
ĠshengĠ mingĠ
tiaoĠjianĠ xiaĠ
ĠĠĠ Sa
ru ĠjiĠ
deng ĠjiaĠ
neng ĠshiĠ
lin ĠyiĠ
sha ĠheĠ
qiang ĠjianĠ
pei ĠyuĠ
zan ĠchengĠ
ĠbuĠ mingĠ
shengĠ riĠ
ziĠ taiĠ
chuĠ xingĠ
zhanĠ baiĠ
yaĠ maĠ
miĠ lanĠ
shanĠ guĠ
ĠxiangĠ jiaoĠyuĠ
2Ġ gongĠliĠ
ĠdeĠjiĠ heĠ
ĠzuiĠ zhongĠyuĠ
Ġling ĠyiĠgeĠ
feiĠliĠ puĠ
ĠĠĠfor ĠĠĠ
tianĠran ĠqiĠ
5 ĠhaoĠ
Ġ luan
Ġ ãĤ¹
li ĠnianĠ
li ĠwuĠ
xue ĠqiĠ
dan ĠheĠ
qian ĠheĠ
san ĠguoĠ
duan ĠdaoĠ
hen ĠnanĠ
piao ĠjiaĠ
sun ĠziĠ
90 ĠnianĠdaiĠ
47 Ġ
diĠ tuĠ
ĠzaiĠ yuanĠ
ĠzaiĠ beiĠjingĠ
wuĠ quĠ
chuĠ bingĠ
shouĠ yaoĠ
ĠtaĠ danĠrenĠ
lingĠ wai
ĠbingĠ kaiĠshiĠ
sanĠ cengĠ
ĠzhuĠ gongĠ
ĠshiĠjiĠ luĠ
youĠyiĠ zuoĠ
ĠxueĠ zheĠ
Ġai ĠdeĠhuaĠ
Ġsan ĠjiaĠ
muĠdiĠ diĠ
ĠyouĠmingĠ BDĠ
ĠzhongĠyang ĠweiĠyuanĠhuiĠ
banĠgongĠ tingĠ
ĠweiĠfuĠqiĠyuĠgangĠ luĠxingĠmuĠ
Ġ duoĠdeĠ
Ġ faĠyuĠ
wen ĠxiĠ
zu ĠzhongĠ
mian ĠheĠ
kao ĠdeĠ
pao ĠjiĠ
ers Ġ
zhongĠ xin
renĠ mingĠ
xiangĠ siĠdeĠ
dongĠ buĠdeĠ
ciĠ shanĠ
dianĠ yuanĠ
dianĠ tiĠ
haiĠ baoĠkuoĠ
qingĠ zhenĠsiĠ
shanĠ poĠ
ĠbingĠ jiangĠqiĠ
caiĠ naĠ
linĠ quĠ
tingĠ boĠ
ĠjuĠ tiĠ
gengĠ gaoĠdeĠ
Ġsi ĠzhiĠ
Ġ se
Ġ 69
Ġ sanĠnianĠ
ĠĠĠ 2000ĠnianĠ
wang ĠxiĠ
lian ĠxingĠ
long ĠheĠ
yuĠ leiĠ
daĠ geĠ
xiĠ guanĠ
fuĠ leiĠdeĠ
siĠ yuanĠ
geĠ changĠ
wuĠ fa
xueĠ shengĠdeĠ
yanĠ houĠ
zuiĠ xiaoĠ
ĠyiĠjiĠ weiĠ
chuangĠ banĠrenĠ
ĠguoĠjiaĠ gongĠyuanĠ
ĠjiĠluĠ pianĠ
biĠyeĠ shengĠ
Ġ Po
Ġ qiuĠjiĠ
ĠĠĠ 2001
ĠĠĠ 2001ĠnianĠ
bao ĠyiĠ
lian ĠyiĠ
lei ĠbuĠ
reng ĠshiĠ
ĠyuĠ wenĠ
ĠzaiĠ diĠerĠ
daĠ jinĠ
yuanĠ guĠ
ĠdiĠ jiuĠ
mingĠ yunĠ
ĠriĠ houĠ
banĠ jingĠ
miĠ maĠ
zongĠ jieĠ
ĠdaoĠ fuĠ
chuanĠ chuĠ
lanĠ jieĠ
chongĠ xin
diĠyiĠ zhiĠ
ĠyuanĠ zhuĠ
ĠmeiĠ ciĠ
ĠzhongĠxin ĠweiĠ
suoĠshiĠ yongĠdeĠ
Ġ Na
Ġ guanĠzhongĠ
ĠĠĠ sheĠhuiĠ
dui ĠzhongĠguoĠ
qian ĠyouĠ
bo ĠyiĠ
1930 ĠnianĠdaiĠ
qiĠ dongĠ
xianĠ huaĠ
ĠdiĠ zhenĠ
huaĠ gongĠ
huoĠ fuĠ
gaoĠ wenĠ
kaiĠshiĠ houĠ
chengĠyuanĠ guoĠ
Ġmo ĠxiĠgeĠ
le ĠrenĠ
wang ĠjiaĠ
biao ĠshiĠweiĠ
liu ĠliĠ
tian ĠjiĠ
nei ĠshiĠ
bai ĠgongĠ
zhuĠ yiĠdeĠshiĠ
zheĠ zuoĠ
gaiĠ xiaoĠ
duoĠ chuĠ
fengĠ tianĠ
laĠ muĠ
ĠciĠ zhanĠ
manĠ zhouĠ
manĠ haĠ
guoĠjiĠ saiĠ
ĠfenĠ lanĠ
faĠshengĠ houĠ
luĠyinĠshiĠ zhuanĠjiĠ
Ġ Ðµ
Ġ 1954ĠnianĠ
ti ĠliĠ
fang ĠrenĠ
huan ĠjiĠ
pin ĠyinĠ
qiang ĠxingĠ
hong ĠyiĠ
buĠ ruĠ
zhuĠ geĠ
ĠqiĠ daĠ
ĠerĠ diĠ
shouĠ qiuĠ
guanĠ jun
taiĠ luoĠ
jiuĠ fenĠ
fanĠ changĠ
ĠdeĠyiĠ banĠ
naĠ xie
xiangĠgangĠ dianĠyingĠ
ĠzuoĠ quĠ
ziĠyouĠ dangĠ
Ġzai ĠzhiĠ
bangĠzhuĠ xiaĠ
Ġ1938 ĠnianĠ
Ġ gua
Ġ 1981
bi ĠzhongĠ
wen ĠliĠ
lian ĠsiĠ
biao ĠyuĠ
lei ĠyiĠ
dou ĠyuĠ
tan ĠwuĠ
ĠweiĠ reĠdaiĠ
jinĠ gangĠ
yanĠ yongĠ
ciĠ juĠ
ciĠ zhanĠ
baoĠ leiĠ
tongĠ yiĠdeĠ
bingĠ qie
gaiĠ bianĠweiĠ
zuĠ shuĠjiĠ
baiĠ fangĠ
tingĠ cheĠ
pinĠ qingĠ
ĠyeĠ beiĠ
ĠdongĠ riĠbenĠ
ĠguoĠjiaĠ zuĠqiuĠduiĠ
guangĠboĠ dianĠshiĠ
jiaoĠkeĠ wenĠ
1 ĠzhiĠ
Ġ linĠshiĠ
Ġ niuĠyueĠ
wei ĠdeĠguoĠ
zhen ĠzhiĠ
ss ĠĠĠ
yuanĠ mingĠ
ciĠ qianĠ
ĠjiaĠ siĠ
ĠzheĠ liangĠgeĠ
ĠshiĠjieĠ shangĠ
kangĠ zhanĠ
shengĠjiĠ weiĠ
waiĠjiaoĠ guanĠxiĠ
ĠkeĠxiĠtaĠ niĠdaĠquĠ
Ġ Wi
Ġ So
Ġ huangĠdiĠ
ji ĠshiĠyongĠ
mi ĠxiĠxiĠ
jue ĠjiĠ
lou ĠyuĠ
guoĠ daoĠ
xingĠ geĠ
fuĠ fuĠ
ĠqiĠ mingĠ
xueĠ yanĠjiuĠ
jiangĠ shuiĠ
qingĠ shuiĠ
liangĠ ce
laiĠ shuo
bianĠ dongĠ
yaoĠ saiĠ
fengĠ shanĠ
tingĠ liuĠ
ĠxiangĠ xinĠ
moĠ shouĠ
zhuanĠ zhuĠyuĠ
Ġsui ĠyiĠ
Ġ2 ĠĠĠ
gongĠsi ĠzaiĠ
aĠfuĠ hanĠ
Ġ 44
ĠĠĠ songĠ
huo ĠrenĠ
mian ĠbuĠ
tian ĠzhiĠ
cun ĠzheĠ
es ĠĠĠ
2026 ĠnianĠ
ĠshiĠ gongĠ
yuanĠ junĠ
daoĠ fuĠ
ĠxiĠ zangĠ
lianĠ xu
quanĠ xinĠ
ĠdaoĠ danĠ
ĠshiĠyiĠ huiĠ
lanĠ xianĠ
Ġtong ĠnianĠ8ĠyueĠ
ĠwangĠ zhanĠ
ĠyongĠ laiĠ
dongĠjiĠ aoĠlinĠpiĠkeĠyunĠdongĠhuiĠ
ĠyunĠ xuĠ
jieĠdaoĠ banĠshiĠchuĠ
ĠHR ĠĠĠ
Ġ Lo
dian ĠyouĠ
zhang ĠyouĠ
nan ĠdaĠxueĠ
feng ĠheĠ
chen ĠyiĠ
ad Ġ
ĠyuĠ tiĠ
daĠ saiĠ
siĠ lingĠbuĠ
jieĠ shangĠ
xiangĠ linĠ
jinĠ xiuĠ
neiĠ buĠdeĠ
Ġri ĠshiĠ
Ġri ĠjiĠ
shuĠdeĠ dongĠwuĠ
haĠ saĠkeĠsiĠ
ĠdangĠ tianĠ
jinĠshiĠ chuĠshenĠ
ĠchongĠ qingĠ
luoĠmaĠ tianĠzhuĠjiaoĠ
aoĠlinĠ piĠ
ouĠzhou ĠguoĠjiaĠ
manĠhuaĠ jiaĠ
shaoĠshuĠ minĠzuĠ
neiĠruiĠ laĠ
ĠniuĠyueĠshiĠ baoĠ
Ġ ref
Ġ naiĠ
Ġ biaoĠzhiĠ
ĠĠĠ eĠluoĠsiĠ
guo ĠyiĠgeĠ
hu ĠshiĠdaiĠ
jin ĠguoĠ
long ĠdiĠ
75 Ġ
ĠyiĠ chengĠweiĠ
ĠzaiĠ dongĠ
zhuĠ xianĠ
zuoĠ weiĠshiĠ
lianĠ aiĠ
jiuĠ zhouĠ
ĠchuĠ xiĠ
ĠdeĠshiĠ tiĠ
zhuangĠ cunĠ
1Ġ gongĠliĠ
Ġ 1941
Ġ diĠzhiĠ
ĠĠĠ mengĠ
ge ĠnianĠ
ta ĠzhiĠ
xin ĠyueĠ
quan ĠliĠdeĠ
cai ĠzhiĠ
kuang ĠyeĠ
sun ĠshangĠ
um Ġ
1902 ĠnianĠ
color Ġ
weiĠ erĠ
jieĠ kouĠ
yingĠ yongĠyuĠ
guanĠ dongĠ
suĠ geĠlan
ĠwuĠ erĠ
chaĠ bieĠ
ĠzuiĠ hou
beiĠjingĠ daĠxueĠ
chuĠbanĠ leĠ
ĠnianĠdai ĠzhongĠqiĠ
dangĠweiĠ shuĠjiĠ
nongĠcun ĠjuĠminĠ
zhuĠjiaoĠzuoĠ tangĠ
Ġ luĠyiĠ
ĠĠĠ huo
ĠĠĠ Si
er ĠshiĠweiĠ
ling ĠweiĠ
men ĠheĠ
tu ĠqiĠ
id Ġ
ĠyuĠ qianĠ
zhongĠ wenĠ
wuĠ xingĠ
yingĠ yuanĠ
yeĠ luĠsaĠ
ĠfuĠ xingĠ
caiĠ jueĠ
niĠ geĠ
ganĠ shouĠ
poĠ haiĠ
ĠshouĠ duĠ
ĠnianĠ11ĠyueĠ 1ĠriĠ
ĠnianĠzhiĠ qianĠ
ĠduoĠ ciĠ
ĠlianĠ mengĠ
ĠweiĠyuĠgaiĠguoĠ dongĠnanĠbuĠ
5 ĠwanĠ
Ġ tou
Ġ ningĠ
Ġ 1966ĠnianĠ
Ġ 1909ĠnianĠ
ī Ġ
di ĠĠĠ
zhang ĠguoĠ
zu ĠguoĠ
qing ĠzhongĠ
lun ĠliĠ
cui ĠhuaĠ
Ã¡ Ġ
ĠdeĠ fuĠ
daĠ daĠ
ziĠ zhuanĠ
shuĠ xiĠ
ciĠ quanĠguoĠ
nanĠ yangĠ
suoĠ zuoĠdeĠ
zuiĠ zhangĠdeĠ
baiĠ se
Ġta ĠbuĠ
youĠyiĠ zhongĠ
ziĠyouĠ yongĠ
riĠben ĠrenĠ
Ġmi ĠerĠ
ĠqiangĠ diaoĠ
lanĠqiuĠ yunĠdongĠyuanĠ
E ĠĠĠ
Ġ 1978
lai ĠbuĠ
nei ĠjiĠ
43 Ġ
ction Ġ
ĠzaiĠ xiaoĠ
zhuĠ muĠ
xiangĠ wangĠ
gaiĠ yaoĠ
zhouĠ weiĠdeĠ
ĠtaĠ congĠ
xieĠ chengĠ
bianĠ huĠ
liuĠ danĠ
aĠ laĠsiĠ
longĠ leiĠ
zouĠ leĠ
ĠweiĠerĠ siĠ
ĠaoĠ zhouĠ
Ġba ĠshiĠ
gongĠsi ĠheĠ
jingĠcha ĠjuĠ
zhengĠzhiĠxieĠshangĠ huiĠyiĠ
Ġ 170
wu ĠweiĠyuanĠhuiĠ
bi ĠyiĠ
jing ĠqiĠ
wen ĠrenĠ
nan ĠyouĠ
zhen ĠweiĠ
lun ĠjiaĠ
liao ĠliĠ
chuang ĠyeĠ
ĠshiĠ erĠyueĠ
ĠzhongĠ yuanĠ
jiaĠ banĠ
xianĠ bingĠ
ĠdiĠ guoĠdeĠ
tongĠ guoĠdeĠ
xinĠ siĠ
huoĠ paoĠ
biĠ nanĠ
liangĠ zhouĠ
zuiĠ guĠlaoĠdeĠ
guiĠ dianĠcheĠ
ĠyeĠ meiĠyouĠ
tanĠ taoĠ
qinĠ lve
leĠyiĠ changĠ
Ġ Te
Ġ ãĤ¤
Ġ chengĠjiĠ
Ġ chuangĠzuoĠ
Ġ huangĠjiaĠ
ĠĠĠ styleĠ
bing ĠerĠchengĠ
lun ĠyiĠ
wa ĠjieĠ
46 Ġ
68 ĠnianĠ
ĠyouĠ jinĠ
fuĠ zaĠ
ĠguoĠ wuĠ
shuĠ liang
duiĠ taĠdeĠ
pingĠ pangĠqiuĠ
haiĠ nanĠ
ĠfuĠ keĠ
ĠfuĠ huaĠ
wanĠ meiĠ
benĠ yingĠ
yaoĠ suĠ
ĠdaoĠ shangĠ
chanĠ jieĠjiĠ
kaiĠshiĠ leĠ
ĠshiĠshiĠ jianĠ
boĠshiĠ dunĠ
ĠweiĠzhuĠ tiĠ
ĠĠĠ cheĠzhan
huo ĠdiĠ
zu ĠzaiĠ
xie ĠxingĠ
wa ĠsiĠ
zeng ĠyuanĠ
ck ĠĠĠ
ĠjiĠ muĠ
renĠ qiĠ
daĠ gangĠ
siĠ taĠ
jianĠ qiao
wuĠ shengĠ
xiangĠ taĠ
xianĠ xiaĠ
huiĠ jianĠ
shuĠ maĠ
huoĠ huaĠ
biaoĠ yan
liuĠ wangĠ
maĠ piĠ
chongĠ xiuĠ
ĠshiĠweiĠyuĠmeiĠguoĠ miĠsuĠliĠ
ĠminĠ jinĠ
waiĠjiaoĠ guanĠ
ĠxinĠzengĠ benĠtuĠ
5 ĠĠĠ
A ĠĠĠ
g ĠĠĠ
te ĠweiĠerĠ
gang ĠweiĠ
lao ĠrenĠ
64 ĠnianĠ
background Ġ
ĠshiĠ tiĠ
ĠshiĠ sanĠ
ĠshiĠ dangĠdiĠ
xiĠ zang
fuĠ lanĠ
jianĠ mianĠ
ĠguoĠ qiĠ
jieĠ beiĠ
ziĠ diĠ
shuĠ ciĠ
jingĠ jiĠdeĠ
wanĠ biĠ
anĠ chaĠsiĠ
chuanĠ chengĠ
ĠdeĠshiĠ daiĠ
ĠshuĠ juĠ
lingĠyiĠ zhongĠ
ĠyongĠ huĠ
Ġ che
Ġ shouĠyuĠ
ĠĠĠ colspanĠ
gu ĠjiaĠ
nan ĠheĠ
qing ĠqiĠ
san ĠsiĠ
wa ĠliĠ
youĠ keĠ
ĠzaiĠ shengĠ
shangĠ huoĠdeĠ
baoĠ dongĠ
xinĠ cunĠ
qianĠ quĠ
banĠ qiuĠ
lingĠ dao
shanĠ daoĠ
liuĠ langĠ
zongĠ jiao
zongĠ bingĠ
ĠdeĠyiĠ keĠ
canĠ junĠ
leĠyiĠ zuoĠ
daiĠbiao ĠxingĠ
fenĠbie ĠyuĠ
ĠweiĠyuĠgaiĠguoĠ beiĠbuĠ
muĠniĠ heiĠ
Ġ à
jiu ĠxingĠ
lv ĠchengĠ
niu Ġyue
ruo ĠdeĠ
65 ĠnianĠ
zuan Ġ
gongĠ lvĠ
zhuĠ chi
jinĠ shengĠweiĠ
juĠ xing
zuoĠ weiĠyiĠ
changĠ chengĠ
taiĠ kong
benĠ pianĠ
luoĠ wenĠ
kaiĠ leĠ
chuanĠ bo
gouĠ ruĠ
shaĠ shouĠ
ĠdeĠzhiĠ yeĠ
ĠshiĠzhenĠ fanĠweiĠneiĠ
ĠĠĠshiĠ shiĠ
ĠrenĠkou ĠweiĠ
ĠfuĠlangĠ shenĠ
6 ĠmingĠ
Ġ backgroundĠ
an ĠyiĠ
Î± Ġ
gongĠ wuĠyuanĠ
chengĠ weiĠyiĠgeĠ
huiĠ laiĠ
taĠ shouĠ
lunĠ baoĠ
yinĠyueĠ jiaĠ
ĠĠĠyiĠ xiaĠshiĠ
ĠnianĠyiĠ houĠ
ĠĠĠA Ġ
miaoĠshuĠ leĠ
1 ĠyiĠ
Ġ 1939
Ġ sheĠzhiĠ
ĠĠĠ cong
bi ĠxiĠ
ying ĠzhongĠ
1949 ĠnianĠ
ĠdeĠ jiaĠ
ĠyiĠ tianĠ
weiĠ laiĠ
ĠjiĠ suanĠjiĠ
ĠbuĠ jianĠ
jieĠ xianĠ
faĠ dingĠ
ĠerĠ keĠ
yingĠ yun
zhangĠ ai
biĠ mian
gaoĠ tieĠ
chongĠ qingĠshiĠ
kaiĠshiĠ zhiĠ
canĠ zhanĠ
zengĠ jiaĠzhiĠ
ĠnianĠ6ĠyueĠ 30ĠriĠ
Ġcong ĠshiĠ
fuĠluoĠliĠdaĠ zhouĠ
Ġ shouĠjiĠ
ĠĠĠ xianĠshiĠ
hu ĠyiĠ
min ĠzhiĠ
ma ĠdeĠliĠ
rong ĠyeĠ
diao ĠkeĠ
75 ĠnianĠ
ĠyiĠ liangĠ
ĠweiĠ xiaoĠ
ĠjiĠ duĠjiaoĠ
ĠheĠ siĠ
beiĠ po
jinĠ menĠ
zhengĠ houĠ
jingĠ juĠ
ĠdaĠ suanĠ
ĠkeĠ xueĠjiaĠ
sheĠ tuanĠ
zhouĠ wuĠ
quanĠ daoĠ
guĠ quanĠ
ĠgongĠ jueĠ
Ġdan ĠzhiĠ
ĠtaĠmen ĠyuĠ
ĠweiĠsiĠ teĠ
ĠgaiĠbianĠ ziĠ
luĠwa ĠerĠshengĠ
6 ĠshiĠ
Ġ leng
Ġ 1960
Ġ 1944
Ġ 1964ĠnianĠ
Ġ 1977ĠnianĠ
ĠĠĠ mo
wei ĠyiĠjiĠ
luo ĠxiĠ
kai ĠguoĠ
yao ĠyuĠ
hao ĠzhiĠ
zhuan ĠxianĠ
cu ĠchengĠ
62 ĠnianĠ
ĠweiĠ juĠ
heĠ erĠ
ĠyouĠ shengĠ
xingĠ cheĠ
yuanĠ dongĠ
ĠbuĠ zhuĠ
chengĠ menĠ
huaĠ fenĠweiĠ
guanĠ wangĠ
ĠdaĠ qiao
qianĠ tiĠ
zhangĠ chengĠ
banĠ gong
laiĠ enĠ
lianĠ suoĠ
jiuĠ mingĠ
bianĠ huiĠ
chuanĠ jiaoĠ
ĠyiĠzhiĠ jiĠ
kanĠ dengĠ
wuĠkeĠ lanĠdeĠ
ĠsheĠ xianĠ
ĠyaoĠ qiu
xingĠyuĠ leiĠ
fuĠza ĠdeĠ
Ġ 1937
Ġ Fa
Ġ chengĠrenĠ
Ġ 1975ĠnianĠ
ĠĠĠ se
zhi ĠshiĠdeĠ
bi ĠliĠyaĠ
ceng ĠyiĠ
ĠjiĠ geĠ
zhongĠ duoĠ
ĠzaiĠ changĠ
jianĠ die
jieĠ shao
keĠ cheĠ
ĠxiĠ riĠbenĠ
jingĠ taiĠ
xiaoĠ duiĠ
zhangĠ jiaĠ
duĠ tuĠ
ruĠ tongĠ
jiuĠ yeĠ
xieĠ huiĠdeĠ
quanĠ shengĠ
maĠ niĠ
ĠwuĠ lunĠ
keĠsaĠsiĠ zhouĠ
ĠSAO ĠĠĠ
bie ĠrenĠ
nu ĠsiĠ
is Ġ
41 Ġ
wn Ġ
sis Ġ
ĠzhiĠ shangĠ
yuanĠ shuai
fuĠ diĠ
daoĠ changĠ
ĠqiĠ daoĠ
faĠ junĠ
shuĠ niu
danĠ daoĠ
minĠ ganĠ
luoĠ naĠ
quanĠ guo
guĠ yuanĠ
huĠ anĠ
zongĠ seĠ
tuĠ jueĠ
sanĠ fenĠzhiĠ
ĠtaiĠ beiĠshiĠ
ĠzhanĠ muĠsiĠ
ĠluoĠ neĠ
canĠyuĠ zheĠ
yingĠxiang ĠliĠdeĠ
ĠĠĠxiaĠ shuĠ
ĠhouĠlai ĠzaiĠ
ĠĠĠ waiĠ
xiang ĠbuĠ
mi ĠbuĠ
ping ĠheĠ
ben ĠzhongĠ
rui ĠshiĠdeĠ
cang ĠyuĠ
guai ĠwuĠ
ĠyiĠ wanĠ
ĠweiĠ xieĠ
guoĠ qiĠ
gongĠ cheng
gongĠ yongĠ
jianĠ guanĠ
yingĠ yangĠ
zuoĠ keĠ
ĠdaĠ daĠ
jiaoĠ tongĠbuĠ
duiĠ zhanĠ
junĠ yongĠ
dianĠ dongĠ
huoĠ pao
ĠfuĠ nieĠ
jueĠ ceĠ
ĠziĠ jinĠ
ĠgeĠ linĠ
ĠyiĠjiĠ jiĠ
douĠ nengĠ
kaoĠ liangĠ
ĠshenĠ tiĠ
ĠĠĠshiĠ jiĠ
ruoĠ ganĠ
ĠtaĠmen ĠshiĠ
yinĠqiĠ leĠ
ĠjianĠzhuĠ mianĠjiĠ
jiangĠxiĠ shengĠ
yaĠmeiĠ niĠya
feiĠteĠ lieĠ
Ġ chang
si ĠweiĠerĠ
bai ĠjiĠ
ĠshiĠ hanĠguoĠ
ĠweiĠ jingĠ
youĠ xingĠ
ĠyouĠ liangĠgeĠ
ĠqiĠ leĠ
chuĠ beiĠ
yeĠ yinĠ
xinĠ jiangĠweiĠwuĠerĠ
gaiĠ sheĠ
minĠ bingĠ
teĠ ding
suĠ chengĠ
leiĠ bieĠ
paiĠ wangĠ
paiĠ xuĠ
ĠxianĠ luĠkouĠ
chongĠ qing
piĠ quanĠguoĠzhongĠdianĠwenĠwuĠbaoĠhuĠdanĠweiĠ
chuangĠ shangĠ
ĠshangĠ haiĠshiĠ
ĠdeĠyiĠgeĠ quĠ
ĠdiĠyiĠ ciĠ
Ġ in
Ġ xueĠyuanĠ
ke ĠzhongĠ
gang ĠdaoĠ
sa ĠliĠ
ĠyuĠ 2021
buĠ shuĠ
ĠyouĠ chengĠweiĠ
fuĠ lang
ĠqiĠ yuanĠyuĠ
dongĠ yinĠduĠ
ĠjiaĠ qingĠ
yaĠ teĠ
ĠfuĠ teĠ
guĠ tiĠ
yunĠ xu
feiĠ chengĠ
chuanĠ foĠjiaoĠ
ĠjinĠ siĠ
eĠ lieĠ
ĠyuanĠ laiĠ
youĠjiĠ duiĠ
Ġjin ĠnianĠ
sheĠliĠ leĠ
ĠtangĠ chaoĠ
bianĠchengĠ leĠ
luoĠfuĠ siĠkeĠ
cheĠrenĠ ciĠ
li ĠxiangĠ
ĠĠĠ pa
ĠĠĠ zaiĠyiĠ
da ĠliĠyuĠ
tian ĠheĠ
huan ĠxianĠ
shuang ĠxiangĠ
tes Ġ
ĠyuĠ liĠ
youĠ xiuĠ
ĠyouĠ gaiĠ
jieĠ daiĠ
ziĠ ji
shouĠ tiĠ
yanĠ chiĠ
taiĠ zongĠ
pingĠ fenĠ
yongĠ youĠdeĠ
ĠtaĠ keĠyiĠ
duoĠ yangĠxingĠ
haoĠ maĠ
ĠzheĠ shouĠ
ĠzhuĠ ruĠ
kaĠ teĠ
nianĠ lingĠ
daoĠshiĠ yueĠtaiĠ
ĠĠĠbuĠ guoĠ
shengĠdaoĠ taiĠ
ĠheiĠlongĠjiangĠ shengĠ
Ġ nie
ĠĠĠ juĠliĠ
cheng ĠliĠyiĠ
gu ĠshiĠdeĠ
zhou ĠdiĠ
quan ĠnianĠ
wai ĠdiĠ
gang ĠzhiĠ
pu ĠbuĠ
cu ĠshiĠ
ĠweiĠ taiĠwanĠ
guoĠ junĠ
ĠerĠ geĠ
baoĠ guangĠ
xiaĠ menĠ
ĠjiaĠ daĠ
lianĠ qiuĠ
ĠshangĠ wuĠ
genĠ sui
6Ġ gongĠliĠ
ĠshiĠweiĠyuĠ wuĠkeĠlanĠ
Ġ b
Ġ 78
Ġ luĠdeĠ
Ġ nengĠgouĠ
ao ĠbuĠ
ĠĠĠ zai
ĠĠĠ bingĠ
ĠĠĠ guiĠdaoĠ
gu ĠzhiĠ
ban ĠdiĠ
ma ĠdaĠ
xu ĠyueĠ
zong ĠrenĠkouĠdeĠ
sui ĠrenĠkouĠ
suan ĠshiĠ
zei Ġ
ĠyouĠ zhongĠguoĠ
xiangĠ jieĠ
faĠ wenĠ
changĠ wuĠ
ĠsiĠ faĠ
dengĠ jiangĠ
ĠxianĠ shengĠ
ĠyiĠjiĠ qiĠtaĠ
ĠĠĠyiĠ xiaĠweiĠ
ĠweiĠyuĠgaiĠguoĠ zhongĠbuĠ
Ġfan ĠzhiĠ
Ġhou ĠrenĠ
ĠV Ġ
taiĠfengĠ jingĠbao
teĠlangĠ puĠ
0 ĠbiĠ
Ġ onlyinclude
xin ĠshiĠzhenĠ
yong ĠzhongĠ
ling ĠzaiĠ
deng ĠzhiĠwuĠ
kou ĠshiĠ
sha ĠyuĠ
peng ĠhuĠ
ĠyiĠ tiaoĠ
ĠyouĠ xuĠduoĠ
yuanĠ youĠdeĠ
xiangĠ fanĠ
ĠxiĠ shuĠ
zhengĠ zhaoĠ
shouĠ jiaĠ
fangĠ daĠ
baoĠ gao
ĠfuĠ luĠ
quanĠ chengĠ
ĠzhongĠguoĠ guoĠminĠdangĠ
4Ġ gongĠliĠ
zongĠduĠ fuĠ
jiaoĠliuĠ daoĠ
baĠleĠsiĠ tanĠ
Ġonlyinclude Ġ
Ġ Ne
Ġ ÑĢ
Ġ nanĠbuĠ
Ġ xuĠliĠyaĠ
Ġ 1976ĠnianĠ
zhi ĠshiĠyiĠ
zhen ĠliĠ
liu ĠzhongĠ
san ĠriĠ
ceng ĠjiĠ
can ĠjianĠ
1940 ĠnianĠ
text Ġ
ĠshiĠ jiĠshiĠ
ĠyouĠ diĠ
ĠxiĠ ceĠ
juĠ jue
ciĠ keĠ
ruĠ wuĠ
ĠziĠ chengĠ
ĠgeĠ laĠ
ĠyeĠ jianĠ
taoĠ huiĠ
ĠsanĠ geĠ
ĠnianĠjianĠ chengĠ
anĠdeĠ lieĠ
ĠkaĠ laĠ
ĠnvĠ xingĠweiĠ
ĠliĠheĠ wuĠzhengĠzhuangĠganĠranĠzheĠ
dongĠcheĠ zuĠ
meiĠguoĠyiĠ liĠnuoĠyiĠ
ĠfeiĠlvĠ binĠ
Ġ nong
Ġ ne
Ġ Ta
Ġ 1968ĠnianĠ
ĠĠĠ f
ĠĠĠ longĠ
bu ĠshiĠyongĠ
long ĠyuĠ
gun ĠqiuĠ
92 ĠnianĠ
ĠjiĠ suanĠ
daĠ yingĠ
shuĠ xueĠjiaĠ
riĠ jianĠ
ĠxiĠ junĠ
shouĠ beiĠ
huaĠ leĠ
tongĠ kuĠ
ĠriĠ yuanĠ
changĠ yongĠ
duiĠ daiĠ
yaoĠ daoĠ
saiĠ teĠ
ĠdeĠyiĠ tiĠ
tangĠ chaoĠ
ĠjingĠ chaĠ
leĠyiĠ fenĠ
ĠhuoĠdeĠ leĠ
guoĠminĠ dang
guoĠminĠ zhengĠfuĠ
ĠteĠbie ĠshiĠzaiĠ
Ġ 140
ĠĠĠ laiĠ
na ĠyuĠ
ĠweiĠ niĠ
jianĠ puĠ
ĠqiĠ huaĠ
jinĠ ciĠyuĠ
xiaoĠ haiĠ
haiĠ yaoĠ
bianĠ tiĠ
suoĠ zuoĠ
suoĠ xiaoĠ
yunĠ suanĠ
baĠ biĠ
caiĠ fangĠshiĠ
tingĠ banĠ
yiĠshiĠ xingĠtaiĠ
poĠ chanĠ
ĠgenĠjuĠ 2010ĠnianĠmeiĠguoĠrenĠkouĠpuĠchaĠ
kangĠriĠ zhanĠzhengĠ
a ĠkeĠ
Ġ qiu
Ġ 1960ĠnianĠ
zhong ĠdeĠyiĠgeĠ
bei ĠzaiĠ
jin ĠliĠ
wen ĠzaiĠ
bian ĠzaiĠ
lin ĠjiĠ
bai ĠqiĠ
mai ĠdiĠ
kun Ġnan
80 ĠnianĠdaiĠ
mm Ġ
ĠweiĠ teĠ
daĠ dangĠ
erĠ zhanĠ
geĠ ziĠdeĠ
keĠ yongĠ
ziĠ shenĠdeĠ
huiĠ luĠ
chuĠ dongĠ
chuĠ fangĠ
gaiĠ yongĠ
miĠ teĠ
duoĠ huiĠ
fanĠ chouĠ
shanĠ shangĠ
shanĠ zhanĠ
sanĠ haoĠ
ĠxiangĠ fanĠ
gangĠ quĠ
ĠjuĠ baoĠdaoĠ
zhuanĠ ye
nvĠ zi
Ġdang ĠriĠ
huoĠdong ĠzhongĠ
Ġ2011 ĠnianĠ12ĠyueĠ31ĠriĠ
tanĠxianĠ duiĠ
hangĠzhanĠ louĠ
zhuanĠkeĠ xueĠxiaoĠ
Ġ tuo
Ġ 1935ĠnianĠ
en ĠheĠ
ĠĠĠ ai
biao ĠzhongĠ
xuan ĠyiĠ
na ĠkeĠ
mao ĠliĠ
hen ĠjiĠ
39 Ġ
ĠzhiĠ liuĠ
zhongĠ jianĠ
xiĠ junĠ
ĠyueĠ tanĠ
chengĠ xiĠ
chuĠ cunĠ
quĠ yuĠdeĠ
zhengĠ queĠdeĠ
ĠdaĠ duiĠ
yinĠ siĠ
ĠsiĠ huĠ
zhouĠ xianĠ
ĠbingĠ renĠweiĠ
ĠgongĠ minĠ
ĠjianĠ chiĠ
guangĠ huaĠ
ĠziĠ zhuĠ
ĠshiĠdeĠ jiĠ
ĠyeĠ wuĠ
xuanĠbuĠ jiangĠ
ĠĠĠbenĠ zhanĠ
ĠweiĠyuĠgaiĠguoĠ nanĠbuĠ
gaoĠdengĠ jiaoĠyuĠ
jieĠquanĠguoĠ renĠdaĠdaiĠbiaoĠ
zhuangĠweiĠ linĠ
Ġ tui
Ġ qia
Ġ Da
Ġ gaoĠzhongĠ
ĠĠĠ suiĠzhuĠ
ci ĠbuĠ
huo ĠzhongĠ
mu ĠzaiĠ
hao ĠyiĠ
feng ĠyiĠ
sha ĠliĠ
18 ĠshiĠjiĠ
hun ĠxiaoĠ
ning ĠboĠ
jinĠ jiangĠ
zuoĠ zhan
zuoĠ ciĠ
haiĠ zhanĠ
qingĠ chao
ĠfuĠ fuĠ
guĠ shengĠ
biaoĠ zhangĠ
zongĠ tongĠdeĠ
tangĠ naĠ
zhengĠzhiĠ weiĠyuanĠ
Ġer ĠyouĠ
hengĠ kua
Ġzong ĠheĠ
ĠxinĠzeng ĠjingĠwaiĠshuĠruĠ
duoĠlunĠ duoĠ
baoĠkuoĠyiĠxiaĠ wuĠzhongĠ
Ġ 67
Ġ 25Ġ
ĠĠĠ Le
ĠĠĠ qiuĠ
ĠĠĠ piĠ
dong ĠweiĠ
ying ĠqiĠ
dui ĠbuĠ
xiao ĠqiĠ
na ĠjiĠ
chuan ĠyuĠ
200 Ġ
at ĠĠĠ
sion Ġ
ĠdeĠ xinĠ
ĠweiĠ zhongĠguoĠ
jianĠ juĠ
huiĠ seĠ
chuĠ quĠ
shuĠ qianĠ
ĠxiĠ linĠ
juĠ huaĠ
ĠdaĠ suan
duĠ chengĠ
qingĠ chun
shenĠ bianĠ
xieĠ leĠ
yangĠ quĠ
maĠ tou
tanĠ ceĠ
xiuĠ shanĠ
ĠnanĠ fangĠ
zuĠqiuĠ jiaĠjiĠ
ĠĠĠzaoĠnianĠ shengĠhuoĠ
ĠqiĠzhong ĠyiĠgeĠ
Ġ 79
Ġ St
Ġ Chi
ĠĠĠ 1999ĠnianĠ
du ĠqiĠ
ban ĠzhongĠ
ba ĠjiĠ
feng ĠliĠ
pai ĠzaiĠ
ĠshiĠ riĠben
ĠweiĠ huĠ
ĠyuĠ 2015
ĠyouĠ yuanĠ
ĠheĠ shengĠ
xiangĠ yingĠdeĠ
ĠdaĠ junĠ
liangĠ jianĠ
miĠ qie
ĠdanĠ que
ĠbeiĠ fangĠ
guiĠ ze
hanĠ minĠguoĠ
qiĠshiĠ daiĠ
daiĠbiao ĠdaĠ
haĠerĠ keĠfuĠ
wangĠqiuĠ gongĠkaiĠsaiĠ
Ġ jia
Ġ 32
Ġ kenĠ
Ġ yaĠliĠshanĠdaĠ
ĠĠĠ yinĠciĠ
10 ĠshiĠ
duan ĠjiĠ
duan ĠzhiĠ
chong ĠxianĠ
ĠshiĠ shengĠ
ĠyouĠ guoĠ
wuĠ xiaoĠ
faĠ diĠ
chuĠ waiĠ
jingĠ yingĠdeĠ
tongĠ banĠ
duĠ tongĠ
nanĠ quĠ
anĠ chaĠshiĠ
ĠtaĠ kaiĠshiĠ
diĠyiĠ jiaĠ
gengĠ haoĠdeĠ
guoĠjiĠ saiĠshiĠ
ĠmuĠ qin
kanĠ saĠsiĠ
xingĠzhengĠ zhangĠguanĠ
ĠshenĠ duĠ
wanĠchengĠ houĠ
guoĠshiĠ daiĠ
fanĠduiĠ paiĠ
taiĠpingĠ yang
guoĠminĠ geĠmingĠ
dianĠying ĠzhiĠ
touĠruĠ fuĠwuĠ
siĠlanĠ jiaoĠ
Ġ tĠ
xi ĠzhiĠxingĠ
ĠĠĠ he
ĠĠĠ shangĠyeĠ
mei ĠyiĠgeĠ
huo ĠqiĠ
lin ĠjiaĠ
ĠyuĠ daoĠ
ĠnianĠ jinĠ
gongĠ ruĠ
changĠ guanĠ
wenĠ nuan
ĠjiaĠ geĠ
lingĠ jianĠ
saiĠ huiĠ
laĠ shengĠ
baiĠ eĠluoĠsiĠ
zhuanĠ huan
diĠyiĠ zuoĠ
shaĠ leĠ
ĠshiĠwuĠ suoĠ
waiĠguoĠ renĠ
xiuĠzhengĠ anĠ
xingĠzheng ĠzhongĠxinĠ
Ġ 1943
Ġ No
Ġ wuĠdeĠ
ĠĠĠ dangĠshiĠ
ĠĠĠ 7Ġ
ĠĠĠ rongĠyuĠ
yue ĠyouĠ
jie ĠbuĠ
fei ĠweiĠ
tu ĠzhiĠ
lie ĠzhiĠ
chao ĠrenĠ
chan ĠchuĠ
nv ĠshengĠ
lo Ġ
pe Ġ
89 ĠnianĠ
zhongĠ gongĠzhongĠyangĠ
daĠ jieĠ
zhuĠ houĠ
ĠxiĠ huan
zhengĠ dang
xiaĠ shuĠdeĠ
bianĠ huaĠdeĠ
yunĠ keng
ĠdaoĠ guangĠ
ĠbeiĠ poĠ
niĠ poĠerĠ
ĠdangĠ diĠdeĠ
jueĠseĠ banĠyan
ĠzaiĠjiaĠ shangĠ
Ġ1940 ĠnianĠ
Ġ gongĠshiĠ
Ġ 1934ĠnianĠ
ĠĠĠ chen
you ĠliĠdeĠ
huo ĠyouĠ
zhuang ĠheĠ
tuan ĠyuanĠ
peng ĠzhangĠ
xiĠ huanĠ
fuĠ wuĠdeĠ
jieĠ yanĠ
jieĠ shuĠshiĠ
guanĠ zhangĠ
xiaoĠ mie
shenĠ xiangĠ
boĠ huiĠ
kongĠ jianĠdeĠ
zhaoĠ mingĠ
keĠyiĠ youĠ
ĠnianĠ6ĠyueĠ 1ĠriĠ
gaoĠsuĠ tieĠluĠ
ĠjinĠguanĠ ruĠciĠ
ĠshiĠziĠ lvĠ
Ġ 1947
Ġ bieĠ
Ġ ziĠzhiĠ
Ġ 1927ĠnianĠ
ĠĠĠ zhouĠ
dao ĠyueĠ
hui ĠweiĠyuanĠ
guan ĠliĠjiĠ
gai ĠrenĠ
wai ĠshiĠ
gan ĠheĠ
zang ĠliĠ
37 Ġ
ĠyiĠ ge
buĠ daoĠ
ĠheĠ gongĠ
fuĠ kaĠ
zhengĠ yiĠdeĠ
yeĠ zheĠ
tongĠ zhiĠdeĠ
zheĠ xueĠjiaĠ
danĠ dangĠ
qingĠ jingĠ
banĠ lvĠ
jiuĠ nengĠ
haoĠ laiĠwuĠ
shuiĠ yuanĠ
ganĠ sheĠ
shaĠ moĠ
nongĠ ye
ĠboĠ geĠ
ĠĠĠdiĠ sanĠ
sanĠshiĠ siĠnianĠ
yuanĠzhuĠ min
zaĠ zhiĠdeĠ
ĠmaoĠ zeĠdongĠ
jiaoĠchaĠ kouĠ
Ġ1970 ĠnianĠ
ĠĠĠbenĠshuĠ baoĠkuoĠyiĠxiaĠwuĠzhongĠ
3 ĠfenĠ
Ġ c
Ġ 1942
Ġ renĠshiĠ
Ġ dongĠjiĠ
Ġ zaoĠzaiĠ
Ġ 1972ĠnianĠ
Ġ 1933ĠnianĠ
ĠĠĠ Ri
qi ĠshiĠyongĠ
er ĠshiĠyiĠ
shu ĠnianĠ
xin ĠjiĠshuĠ
lai ĠzaiĠ
duo ĠyouĠ
heĠ nanĠ
ĠzhongĠ duanĠ
gongĠ guĠ
ĠqiĠ shengĠ
yingĠ jianĠ
yeĠ jiangĠ
qianĠ zuoĠ
haiĠ an
ĠfuĠ qiĠ
gaoĠ chuĠ
ĠbingĠ ruĠ
ĠbingĠ danĠrenĠ
leiĠ muĠ
zhouĠliĠ daĠxueĠ
zhongĠyao ĠxingĠ
ĠhaĠerĠ binĠshiĠ
Ġ quĠyuĠ
ĠĠĠ 11
ĠĠĠ 1945
ĠĠĠ xieĠ
ĠĠĠ guiĠ
ĠĠĠ zheĠzhongĠ
you ĠnianĠ
tian ĠyuĠ
zhuang ĠxiangĠ
zan ĠyangĠ
ĠzhiĠ liĠyuĠ
xingĠ rongĠ
keĠ jiaĠ
ĠxiĠ guanĠ
quĠ fuĠ
yanĠ geĠdeĠ
xinĠ shangĠ
biĠ yaoĠdeĠ
jiuĠ jinĠshanĠ
suoĠ enĠ
maĠ geĠliĠ
ĠyinĠ yingĠ
ĠgaiĠ mingĠ
ĠgaiĠ mingĠweiĠ
gouĠ chengĠdeĠ
ĠyingĠ pianĠ
ĠyanĠ jiu
ĠĠĠzhiĠ houĠ
Ġgao ĠshiĠ
chanĠpin ĠdeĠ
puĠluoĠ wangĠsiĠ
Ġ g
Ġ h
Ġ ken
Ġ mang
Ġ 1975
Ġ My
Ġ shanĠxiĠshengĠ
ĠĠĠ yinĠduĠ
guo ĠĠĠ
dong ĠdiĠ
bing ĠdiĠ
ben ĠweiĠ
yao ĠyiĠ
fan ĠxingĠ
10 ĠwanĠ
ĠweiĠ neng
ĠrenĠ junĠ
yuanĠ dingĠ
ĠbuĠ yuanĠ
zhuĠ gongĠ
daoĠ xianĠ
shuĠ zhangĠ
fangĠ huĠ
taiĠ zuĠ
xiaĠ lieĠ
wangĠ gongĠ
lingĠ hunĠ
xuanĠ gua
baĠ qiangĠ
ĠyiĠjiĠ qiĠ
tangĠ muĠ
2Ġ ri
ranĠ seĠ
zhunĠ que
ĠmianĠ duiĠ
Ġhu ĠyuĠ
ĠxiongĠ yaĠliĠ
ĠbuĠsiĠ baoĠ
ĠqiĠzhongĠnanĠ xingĠweiĠ
aiĠhaoĠ zheĠ
dianĠliĠjiĠ cheĠ
Ġ neng
Ġ zaoĠdaoĠ
ping ĠyuĠ
tan ĠxingĠ
kan ĠchuĠ
tun ĠbingĠ
ĠzhiĠ zhuĠ
diĠ qu
ĠzhongĠ jieĠ
ĠzhongĠ liangĠ
chengĠ yuanĠdeĠ
ĠdiĠ shangĠ
changĠ zhuĠ
jiaoĠ huiĠdeĠ
wanĠ cheng
wanĠ juĠ
duoĠ tianĠ
fengĠ xiangĠ
shaĠ teĠ
canĠ yuĠdeĠ
ĠjiangĠ junĠ
youĠyiĠ dingĠ
laoĠ huĠ
leĠyiĠ xiĠlieĠ
erĠshiĠ yuĠ
ĠmeiĠguoĠ guoĠjiaĠ
xiangĠshiĠ juĠrenĠ
Ġbo ĠerĠ
genĠju ĠdiĠ
ĠĠĠguangĠ xuĠ
Ġ ãģĦ
ou ĠdeĠ
ĠĠĠ mingĠchengĠ
hou ĠliĠ
bao ĠerĠ
du ĠerĠ
zhang ĠqiĠ
ya ĠqiĠ
kai ĠshiĠyiĠ
deng ĠguoĠ
tian ĠbuĠ
sui ĠyiĠ
62 Ġ
zhiĠ yeĠ
keĠ yanĠ
beiĠ daoĠ
shouĠ du
shouĠ gou
zhanĠ ling
daiĠ haoĠ
wanĠ faĠ
ĠdanĠ dangĠ
piĠ luĠ
shuangĠ chongĠ
ĠzuoĠ jiaĠ
ĠyiĠjingĠ beiĠ
2001ĠnianĠ zongĠrenĠkouĠ
laĠjiĠ miĠerĠ
ĠĠĠgaiĠdiĠ 2001ĠnianĠzongĠrenĠkouĠ
6 ĠhaoĠ
Ġ kuan
Ġ à¤
Ġ 1931ĠnianĠ
ba ĠzaiĠ
sai ĠyiĠ
lan ĠrenĠ
na ĠbuĠ
cun ĠyouĠ
bie ĠmingĠ
ty ĠĠĠ
ĠweiĠ xinĠ
ĠjiĠ suan
ĠjiĠ linĠ
Ġyue ĠĠĠ
yuanĠ laiĠ
xiangĠ dangĠyuĠ
xianĠ xianĠ
ĠtaĠ yinĠ
tianĠ wangĠ
ĠgongĠ yingĠ
puĠ dunĠ
ĠgeĠ luĠ
ĠfaĠ sheĠ
xueĠyuanĠ yuanĠzhangĠ
xueĠshengĠ huiĠ
ĠĠĠzhiĠ beiĠ
chiĠxuĠ daoĠ
Ġ6Ġ suiĠrenĠkouĠ
Ġbo ĠsiĠ
jinĠyiĠ buĠdeĠ
yunĠshiĠ keng
Ġ 1956
Ġ tuĠdiĠ
ĠĠĠ peiĠ
chu ĠyiĠgeĠ
jin ĠweiĠzhiĠ
chuang ĠliĠdeĠ
ĠheĠ taĠdeĠ
gongĠ duĠ
ĠyueĠ kanĠ
wuĠ laĠ
beiĠ juĠ
houĠ qin
yanĠ jinĠ
haoĠ xianĠ
aĠ kenĠseĠ
shaoĠ qingĠ
yueĠ laiĠyueĠ
ĠtongĠ yang
Ġmei ĠliĠ
lingĠdaoĠ xiaĠ
Ġmo ĠerĠ
Ġzu ĠjiĠ
cuoĠ wuĠdeĠ
xiaoĠfeiĠ zheĠ
Ġ jiaĠshiĠ
Ġ 1974ĠnianĠ
ji ĠshiĠdeĠ
ĠĠĠ cengĠ
dong ĠqiĠ
bao ĠzaiĠ
huo ĠdeĠyiĠ
ni ĠrenĠ
zan ĠshangĠ
zhui ĠzongĠ
ds Ġ
ĠdeĠ daĠ
ĠheĠ daĠ
ĠheĠ geĠ
zhuĠ chuĠ
zhuĠ junĠ
zhuĠ boĠ
shengĠ tai
ĠxiĠ wang
baoĠ mingĠ
huaĠ chengĠ
xiaĠ laiĠdeĠ
cheĠ shenĠ
zuiĠ chu
ĠdanĠ gaiĠ
ĠzheĠ leiĠ
Ġtong ĠnianĠ7ĠyueĠ
dianĠshiĠ tai
maoĠ zeĠ
ĠyinĠciĠ taĠ
zaiĠyiĠ ciĠ
hunĠ luan
jingĠliĠ leĠ
ĠyiĠsiĠlanĠ jiaoĠ
juĠfeng ĠzhongĠxinĠ
3 ĠjiaĠ
Ġ lian
Ġ 1955
Ġ jiaĠzhiĠ
ĠĠĠ Ga
ge ĠshiĠjiĠ
gu ĠxiĠlaĠ
huo ĠyuĠ
qing ĠjiĠ
duo ĠzaiĠ
che ĠyuĠ
kan ĠqiĠlaiĠ
chuo ĠhaoĠ
ĠshiĠ douĠ
ĠjiĠ bai
ĠzhiĠ neng
ĠheĠ dongĠ
daĠ geĠming
xingĠ rong
wuĠ junĠ
zhuĠ jiangĠ
tiĠ duĠ
pingĠ tanĠ
yaĠ daoĠ
huĠ guangĠ
ĠgongĠ gaoĠ
zhaoĠ shengĠ
ranĠ shaoĠ
langĠ manĠ
ĠdiĠerĠ geĠ
ĠĠĠliĠ ruĠ
ĠweiĠyuĠfaĠguoĠ daĠdongĠbuĠdaĠquĠ
Ġlu ĠyiĠsiĠ
2019ĠguanĠzhuangĠbingĠduĠ bingĠyiĠ
ĠĠĠ xingĠtaiĠ
xue ĠyiĠ
yong ĠguoĠ
11 ĠgeĠ
as ĠĠĠ
52 Ġ
ĠdeĠ guiĠdaoĠ
siĠ wang
jianĠ xiĠ
jianĠ geĠ
jieĠ yunĠ
huaĠ zuoĠ
huaĠ tingĠ
yingĠ gai
yeĠ cengĠ
guanĠ mingĠ
duĠ caiĠ
muĠ changĠ
ĠciĠ riĠ
ĠshiĠjiĠ weiĠ
ĠzhongĠguoĠ guoĠjiaĠ
rongĠ ruĠ
zhuĠyiĠ heĠ
ĠtongĠ changĠshiĠ
ĠlianĠ saiĠ
ĠteĠ bieĠ
shengĠwuĠ xueĠjiaĠ
ĠfenĠbuĠyuĠ nanĠmeiĠzhouĠ
ĠW Ġ
Ġ buĠyiĠ
Ġ 1941ĠnianĠ
ĠĠĠ shanĠ
69 ĠnianĠ
ĠzhiĠ jiaĠ
zhongĠ ziĠ
daoĠ taĠ
huiĠ yanĠ
ĠxiĠ shengĠ
mingĠ que
nanĠ duĠ
quanĠ leiĠdaĠ
baiĠ leĠ
ĠwuĠ hanĠ
touĠ sheĠ
cengĠ mianĠ
Ġtong ĠjiĠ
zhongĠguoĠ gongĠchanĠdangĠ
ĠzuoĠ zheĠ
kaiĠfaĠ quĠ
haĠerĠ bin
youĠxianĠ gongĠsiĠ
Ġcom Ġ
baĠjiĠsiĠ tanĠ
G ĠĠĠ
Ġ 33
ĠĠĠ yiĠshiĠ
ĠĠĠ xiaoĠxingĠxingĠ
cheng ĠyiĠzhiĠ
zheng ĠshiĠjieĠ
zhan ĠĠĠ
zuo ĠqiĠ
zhuan ĠzhuĠ
zhuan ĠyiĠzhiĠ
lun ĠzaiĠ
ĠshiĠ baoĠ
ĠdeĠ xiĠ
ĠzhongĠ zhengĠ
zhuĠ huaĠ
shuĠ dianĠ
houĠ caiĠ
mingĠ daiĠ
zhanĠ zhengĠshiĠ
xinĠ ze
tiĠ huanĠ
fenĠ duiĠ
yongĠ daoĠ
sheĠ zhengĠ
ĠdeĠyiĠ tiaoĠ
ĠjinĠ gangĠ
yueĠ tuanĠ
anĠdeĠ luĠ
7 ĠshiĠ
xian ĠshiĠqiĠ
61 ĠnianĠ
1898 ĠnianĠ
name Ġ
ĠbuĠ shao
jieĠ gouĠdeĠ
zhuĠ suoĠ
jingĠ queĠ
leĠ sanĠ
tongĠ yangĠdeĠ
fenĠ faĠ
ĠkeĠ jiaĠ
ĠfuĠ jiaĠ
quanĠ jingĠ
tianĠ qiaoĠ
huanĠ jingĠzhongĠ
cunĠ huoĠ
ĠpingĠfangĠ yingĠliĠ
ĠzhanĠ douĠ
ĠnianĠ8ĠyueĠ 1ĠriĠ
ĠneiĠ rong
ĠgaiĠshengĠfenĠweiĠfaĠguoĠ zhongĠ
ĠshiĠwuĠkeĠ lanĠxiĠ
Ġ zhuĠrenĠ
ĠĠĠ Ne
ci ĠxiĠ
ru ĠqiĠ
liao ĠfaĠ
mao ĠsiĠ
ning ĠxiaĠ
ĠshiĠ haoĠ
ĠyiĠ shuoĠ
ĠyuĠ 2019
heĠ tongĠ
diĠ yaĠ
geĠ luoĠ
ĠbuĠ juĠ
xiangĠ dang
chuĠ xianĠyuĠ
shangĠ qianĠ
tongĠ lingĠ
pingĠ anĠ
haiĠ tanĠ
ĠfuĠ qinĠshiĠ
sheĠ qunĠ
bianĠ houĠ
waiĠ xianĠ
ĠchuĠ ziĠ
ĠjieĠ jueĠ
songĠ jiangĠ
ĠyingĠ gaiĠ
zuĠzhiĠ buĠ
ĠzhangĠ danĠquĠ
ĠnianĠ3ĠyueĠ 1ĠriĠ
ĠwenĠ jianĠ
liuĠxingĠ yinĠyueĠ
ĠxingĠzhengĠ yuanĠ
geĠlunĠ biĠya
luĠzhanĠ duiĠ
Ġ rong
Ġ siĠjiĠ
ĠĠĠ be
zi ĠrenĠ
xin ĠweiĠ
liang ĠbuĠfenĠ
nan ĠdiĠquĠ
pi ĠdeĠ
ting ĠyiĠ
tou ĠbaoĠ
chuang ĠdeĠ
77 ĠnianĠ
76 ĠnianĠ
ĠshiĠ dongĠ
ĠzhiĠ suoĠzaiĠ
ĠyuĠ 2016
ĠyouĠ haoĠ
changĠ xiaoĠ
qianĠ jingĠ
laĠ dingĠyuĠ
waiĠ jiao
chuanĠ ran
lieĠ ning
tuoĠ puĠ
ĠdeĠrenĠ kouĠweiĠ
ĠĠĠzhongĠ huaĠminĠguoĠ
chengĠnianĠ renĠ
7 ĠhaoĠ
Ġ Ja
Ġ 120
Ġ 1971ĠnianĠ
li ĠjiĠ
ĠĠĠ b
she ĠyiĠ
pao ĠtaiĠ
MV Ġ
1896 ĠnianĠ
ĠzhiĠ qiuĠduiĠ
guoĠ min
ĠzaiĠ meiĠ
ĠrenĠ chengĠ
erĠ geĠ
gongĠ yanĠ
yingĠ quĠ
guanĠ shuiĠ
fenĠ shouĠ
danĠ ciĠ
qingĠ bao
ĠfuĠ lang
ĠfuĠ yinĠ
zhouĠ quĠ
xuĠ gouĠ
kaiĠ yuanĠ
chengĠweiĠ jiĠ
ĠbaoĠ faĠ
youĠyiĠ mingĠ
daĠxueĠ jiaoĠshouĠ
ĠnianĠ9ĠyueĠ 1ĠriĠ
ĠduoĠ shuĠ
Ġbi ĠliĠshiĠ
bengĠ kuiĠ
ĠzhiĠluĠ houĠ
Ġ Ti
Ġ 1962ĠnianĠ
ĠĠĠ wanĠliĠ
qi ĠĠĠ
bi ĠweiĠ
yan ĠyouĠ
lei ĠdiĠ
nei ĠweiĠ
kua ĠguoĠ
DVD Ġ
center Ġ
zhongĠ guoĠdeĠ
qiĠ tiĠ
chuĠ xuanĠ
shangĠ cengĠ
xueĠ jieĠ
jiaoĠ xiang
taiĠ shangĠ
nanĠ changĠ
qingĠ chenĠ
banĠ changĠ
shenĠ cha
teĠ sheĠ
cheĠ tui
cheĠ huoĠ
fanĠ shouĠ
zeĠ huiĠ
ĠgaiĠ xiaoĠ
ganĠ rao
ĠyinĠweiĠ taĠmenĠ
ĠriĠqiĠ yongĠ
jianĠchaĠ yuĠshiĠ
Ġrang ĠtaĠ
peiĠyinĠ yuanĠ
jieĠmu ĠzhongĠ
Ġ 05
Ġ pĠ
ĠĠĠ yanĠjiuĠ
cheng ĠĠĠ
dian ĠyiĠ
xia ĠdiĠ
hai ĠzhongĠ
ben ĠyuĠ
tian ĠzhongĠ
ze ĠshiĠzaiĠ
lin ĠdiĠ
shao ĠxingĠ
shuo ĠdaoĠ
48 ĠnianĠ
1895 ĠnianĠ
zhongĠ qiĠ
ĠzaiĠ dangĠshiĠ
xingĠ zouĠ
gongĠ qiĠ
geĠ linĠ
jieĠ riĠ
beiĠ huiĠ
beiĠ jingĠdeĠ
ciĠ changĠ
yeĠ jieĠ
zhangĠ haoĠ
yongĠ chiĠ
banĠ kuaiĠ
liuĠ ruĠ
menĠ jiangĠ
puĠ jingĠ
gangĠ xianĠ
ĠgeĠ ziĠ
zhuanĠ lanĠ
zhaoĠ pian
kaĠ cheĠ
Ġtong ĠshiĠzaiĠ
hangĠ yunĠ
dianĠyingĠ yuanĠ
ĠshenĠ zhenĠ
ĠĠĠyiĠ banĠ
yanĠjiu ĠrenĠyuanĠ
boĠwuĠ yuanĠ
canĠmou ĠbuĠ
ĠĠĠhouĠ xuĠ
j Ġ
Ġ Car
Ġ zhengĠdeĠ
Ġ huanĠjingĠ
yue ĠqiĠ
zi ĠyueĠ
ti ĠerĠ
ci ĠqiĠ
bao ĠguoĠ
zhen ĠyiĠ
tian ĠzaiĠ
tan ĠshiĠ
shuo ĠtaĠ
pa ĠlaĠ
Ġli ĠĠĠ
qiĠ zhongĠyiĠgeĠ
daĠ suanĠ
gongĠ pingĠ
chengĠ nuo
shengĠ zhangĠzaiĠ
shuĠ linĠ
shouĠ ciĠzaiĠ
dongĠ zhengĠ
leĠ duoĠ
tongĠ riĠ
ĠdaĠ naĠ
qianĠ miĠrenĠ
haiĠ huiĠ
zhenĠ jingĠ
dingĠ baoĠ
maĠ saĠzhuĠsaiĠ
suiĠ pianĠ
diĠyiĠ piĠ
ĠsuiĠ houĠzaiĠ
leĠyiĠ xiangĠ
ĠaĠ boĠ
guangĠxiĠ zhuangĠ
7 ĠmingĠ
8 ĠmingĠ
Ġ shan
Ġ 1936ĠnianĠ
Ġ 1928ĠnianĠ
ĠĠĠ neiĠ
gu ĠkeĠ
fei ĠheĠ
99 ĠnianĠ
seng Ġ
ĠyuĠ 2020
ĠliĠ fangĠ
ĠrenĠ quanĠ
xingĠ faĠ
fuĠ shanĠ
zhengĠ xuanĠ
xueĠ sheng
haiĠ meiĠyouĠ
lianĠ huaĠ
anĠ quanĠdeĠ
luoĠ muĠ
puĠ bian
ĠxianĠ changĠ
ĠpingĠ jieĠ
huanĠ jingĠdeĠ
zaoĠ qi
keĠyiĠ zhuiĠsuĠdaoĠ
ĠshiĠjieĠ rangĠ
yiĠshiĠ zaiĠ
songĠ wangĠ
ĠmeiĠ junĠ
ĠxinĠ jiangĠ
ĠdeĠdiĠ xiaĠ
ĠjingĠ yingĠ
ĠtongĠ chengĠ
ĠnianĠ12ĠyueĠ 28ĠriĠ
baoĠkuoĠ leĠ
qunĠ dao
ĠzhongĠyangĠ junĠweiĠ
youĠjiĠ huiĠ
mingĠziĠ mingĠmingĠ
ĠerĠrenĠkouĠmiĠduĠweiĠmeiĠpingĠfangĠ qianĠmiĠrenĠ
gaoĠdengĠ faĠyuanĠ
e ĠjiĠ
Ġ heĠjiĠ
Ġ 1959ĠnianĠ
Ġ 1951ĠnianĠ
ĠĠĠ tongĠshiĠ
guan ĠbuĠ
ma ĠxiĠ
ba ĠrenĠ
shuai ĠluoĠ
67 ĠnianĠ
ĠdeĠ chengĠjiĠ
ĠjiĠ jiangĠ
ĠyuĠ 2018
ĠyuĠ 2024
ĠliĠ yuanĠ
huiĠ yiĠdeĠ
zhengĠ quan
leĠ beiĠ
zuoĠ yong
zheĠ liangĠ
xinĠ geĠ
yangĠ chengĠ
liuĠ shouĠ
guiĠ shuĠ
meiĠguoĠ heĠ
kongĠ jiangĠ
youĠyiĠ weiĠ
riĠben ĠdiĠguoĠ
ĠjiĠbaiĠ leĠ
dongĠliĠ xueĠ
4 ĠshiĠ
« Ġ
ĠĠĠ o
ĠĠĠ dang
ĠĠĠ Ha
ĠĠĠ suoĠyouĠ
ĠĠĠ jingĠguoĠ
dian ĠshiĠjiĠ
zhou ĠdaĠ
ding ĠjiaĠ
lie ĠrenĠ
qiang ĠjieĠ
pang ĠdaĠ
ĠshiĠ qingĠ
ĠyiĠ tuĠ
ĠweiĠ ruan
diĠ renĠ
ĠheĠ liuĠyuĠ
jiaĠ zuĠdeĠ
jieĠ shu
chuĠ qiĠdeĠ
yanĠ hai
daiĠ shangĠ
xuanĠ lvĠ
dangĠ zhuĠ
guiĠ leiĠweiĠ
zhuanĠ touĠ
ĠwanĠ dunĠ
ĠtaiĠ leiĠ
ĠlingĠ daoĠ
Ġceng ĠweiĠ
Ġ1 ĠgeĠ
faĠdianĠ changĠ
jiangĠxueĠ jinĠ
Ġ chanĠshengĠ
Ġ xiaĠjiĠ
ĠĠĠ hong
ĠĠĠ danĠshiĠ
hu ĠfuĠ
huo ĠyueĠyuĠ
shen ĠdaĠ
pang ĠbianĠ
64 Ġ
95 ĠnianĠ
74 ĠnianĠ
ĠjiĠ dongĠ
ĠyuĠ 2013
diĠ mingĠ
jiaĠ diĠ
xiaoĠ wuĠ
shenĠ mingĠ
liuĠ yanĠ
menĠ waiĠ
niĠ aoĠ
ĠchuĠ yanĠ
zaoĠ leĠ
henĠ shao
daĠxueĠ shengĠ
jinĠruĠ leĠ
Ġwan ĠnianĠ
zhongĠyuĠ yanĠ
xueĠzheĠ renĠweiĠ
lianĠheĠguoĠ jiaoĠkeĠwenĠ
Ġ2011ĠnianĠ renĠkouĠ
juĠleĠ buĠdeĠ
Ġ ×
Ġ zhu
Ġ fo
Ġ paoĠ
Ġ zanĠ
Ġ qingĠnianĠ
Ġ jiaĠyiĠ
Ġ hĠ
ĠĠĠ 1998
ĠĠĠ xueĠxiaoĠ
ci ĠshiĠjianĠ
feng ĠxingĠqiĠ
lin ĠliĠ
nie ĠciĠkeĠ
fuĠ chengĠ
wuĠ jiangĠ
xianĠ leĠ
huiĠ guĠ
jinĠ miĠ
ĠdiĠ buĠ
shouĠ dao
huaĠ nanĠ
qingĠ laiĠ
biĠ shuĠ
tuĠ muĠ
ĠzhuĠ geĠ
zhuanĠ ruĠ
aiĠ zhengĠ
jingĠjiĠ heĠ
erĠshiĠ erĠnianĠ
ĠboĠ wuĠguanĠ
ĠquanĠ chengĠ
guoĠliĠ taiĠwan
ĠnianĠchuĠ shengĠyuĠ
guanĠli ĠweiĠyuanĠhuiĠ
8 ĠhaoĠ
q Ġ
£ Ġ
Ġ xuan
Ġ Su
Ġ juĠjiĠ
Ġ 1963ĠnianĠ
ĠĠĠ lanĠ
ĠĠĠ zuoĠpinĠ
yue ĠyuĠ
jiang ĠbuĠ
luo ĠweiĠqiĠ
la ĠqiĠ
cai ĠyiĠ
pin ĠheĠ
fou ĠdingĠ
41 ĠnianĠ
ĠyuĠ mingĠ
guoĠ jiaĠjiĠ
ĠzaiĠ siĠ
daĠ liang
gongĠ touĠ
jianĠ ruoĠ
ĠguoĠ xiaoĠ
zhuĠ zha
huiĠ gui
ciĠ houĠ
huaĠ bingĠ
huaĠ naĠ
xinĠ chengĠliĠdeĠ
ĠkeĠ laĠkeĠ
zuĠ muĠ
xieĠ xinĠ
suĠ xiangĠ
ĠzhuĠ changĠ
ĠdeĠshiĠ yeĠ
1Ġ fenĠ
ĠdongĠ haiĠ
nvĠ zuoĠ
ĠdangĠ xuanĠweiĠ
junĠshiĠ xingĠdongĠ
ĠgaoĠ xiong
ĠweiĠyuĠgaiĠguoĠ dongĠbeiĠbuĠ
ĠjinĠbiaoĠ saiĠ
Ġ 1968
Ġ ãĥĪ
Ġ diĠliĠ
Ġ enĠ
Ġ zhuoĠ
ĠĠĠ Ex
wei ĠshiĠjiĠ
mi ĠyuĠ
tian ĠyouĠ
hao ĠbuĠ
pei ĠerĠ
pa ĠdeĠ
65 Ġ
ĠweiĠ baoĠ
ĠliĠ mingĠ
daĠ poĠ
shengĠ pingĠ
faĠ lanĠ
tongĠ leiĠ
bingĠ tuan
liangĠ duanĠ
miĠ teĠliĠ
dengĠ renĠdeĠ
tianĠ kongĠ
suĠ lvĠ
shanĠ beiĠ
ĠdeĠyiĠ xiĠlieĠ
tuĠ po
tuĠ rang
ĠshiĠjiĠ moĠ
aiĠ lunĠ
ĠshengĠ muĠ
ĠyanĠ chuĠ
ĠnianĠ2ĠyueĠ 24ĠriĠ
Ġxian ĠyouĠ
sunĠ huaiĠ
ĠĠĠS Ġ
puĠchaĠ guiĠdingĠ
Ġ 66
Ġ 1973ĠnianĠ
Ġ 1913ĠnianĠ
wei ĠyiĠzhiĠ
xiang ĠguoĠ
lu ĠbuĠ
she ĠrenĠ
bai ĠliĠ
huan ĠheĠ
EP Ġ
ĠdeĠ youĠ
ĠyiĠ mianĠ
ĠyuĠ xianĠ
Ġli ĠshiĠjianĠzhuĠ
ĠyouĠ geĠ
ĠrenĠ dingĠ
xiĠ shengĠ
gongĠ chiĠ
yanĠ huiĠ
daiĠ xiaoĠxingĠxingĠ
xieĠ tongĠ
duoĠ mianĠtiĠ
fanĠ rongĠ
caiĠ jingĠ
ĠxiangĠ guanĠdeĠ
kuoĠ sanĠ
qinĠ shuĠ
Ġyou ĠyiĠgeĠ
fangĠmianĠ junĠ
Ġmo ĠliĠ
Ġlin ĠjinĠ
ĠgeĠlunĠ biĠyaĠ
Ġ xi
Ġ Hi
Ġ tieĠluĠ
Ġ cunĠzaiĠ
Ġ jueĠseĠ
Ġ nongĠyeĠ
Ġ 1953ĠnianĠ
Ġ 1930ĠnianĠ
ĠĠĠ xianĠdaiĠ
huo ĠbuĠ
duo ĠnianĠdeĠ
deng ĠzaiĠ
su ĠdiĠ
chong ĠqiĠ
nuo ĠweiĠqiĠ
pao ĠdanĠ
zun ĠxunĠ
ST Ġ
ki Ġ
83 ĠnianĠ
land Ġ
deĠ yiĠ
buĠ lieĠtaĠ
ĠzaiĠ zheĠgeĠ
fuĠ yuanĠ
jieĠ ciĠ
ĠerĠ zhanĠ
juĠ zhuĠdeĠ
pingĠ heng
boĠ lin
guĠ piaoĠ
ĠdanĠ yeĠyouĠ
ĠyiĠjiĠ zhiĠ
tieĠ cheĠzhanĠ
mianĠjiĠ yueĠ
xiuĠ yangĠ
ĠdengĠ jinĠshiĠ
genĠ zhouĠ
ĠĠĠshengĠ taiĠ
jieĠjueĠ fangĠanĠ
tuiĠyiĠ houĠ
ĠzhongĠhuaĠ minĠ
Ġpei ĠheĠ
ĠxiĠtong ĠzhongĠ
aoĠdi ĠliĠdeĠ
kenĠtaĠjiĠ zhouĠ
2 ĠciĠ
Ġ bianĠjiĠ
Ġ centerĠ
ĠĠĠ chongĠ
ĠĠĠ suiĠzheĠ
jian ĠĠĠ
20 ĠgeĠ
dong ĠdiĠquĠ
xia ĠyiĠgeĠ
la ĠdaĠ
pu ĠyiĠ
re ĠheĠ
73 ĠnianĠ
ĠdeĠ mingĠ
ĠjiĠ yaĠ
daĠ duiĠ
yuanĠ wangĠ
beiĠ lieĠweiĠ
jinĠ xianĠ
shangĠ kongĠ
shenĠ xinĠ
dingĠ xiangĠ
dangĠ qianĠ
ĠdeĠyiĠ tiao
ĠbeiĠ geĠ
guiĠ ding
ĠdeĠshiĠ changĠ
ĠgaiĠ zhuang
shaĠ laĠ
canĠ baiĠ
chenĠ shuĠ
tuiĠ chiĠ
queĠ dianĠ
erĠshiĠ siĠ
haĠ maĠ
ĠdeĠrenĠ heĠ
ĠchengĠweiĠ leĠ
xiaĠjiĠ aoĠyunĠhuiĠ
geĠliĠ guanĠ
ĠweiĠyuĠgaiĠguoĠ xiĠnanĠbuĠ
aoĠsiĠ ka
Ġkang ĠriĠ
chuangĠliĠ leĠ
waiĠweiĠ saiĠ
Ġ zhan
Ġ CO
Ġ 1972
Ġ ãĦ
Ġ lieĠche
Ġ zaoĠnianĠ
lan ĠsiĠ
chi ĠyiĠ
lie ĠyuĠ
ran ĠshiĠ
chen ĠyuĠ
71 ĠnianĠ
UA Ġ
COVID Ġ
ĠjiĠ suĠ
heĠ nanĠshengĠ
erĠ buĠ
jiaĠ zhiĠdeĠ
daoĠ shuĠ
ziĠ junĠ
shouĠ ru
shouĠ quĠ
baoĠ jianĠ
biĠ fenĠ
meiĠ guiĠ
tianĠ eĠ
zongĠ buĠweiĠyuĠ
moĠ huĠ
ĠshiĠshiĠ houĠ
Ġri ĠĠĠ
chuangĠ xiaĠ
songĠ huiĠ
Ġer ĠweiĠ
Ġzhe ĠweiĠ
caoĠ zongĠ
zaiĠyiĠ daĠliĠ
zuĠqiuĠ xieĠhuiĠ
Ġgai ĠguoĠ
xingĠchengĠ leĠ
lianĠbangĠ zhengĠfuĠ
ziĠran ĠbaoĠhuĠ
ĠyiĠmeiĠ yuanĠdeĠ
3 ĠciĠ
h ĠĠĠ
ao ĠliĠ
ĠĠĠ teĠ
le ĠyiĠzhiĠ
gao ĠjiĠzhongĠxueĠ
cun ĠyiĠ
gan ĠzhiĠ
qin ĠjiaĠ
88 ĠnianĠ
85 ĠnianĠ
ĠshiĠ nanĠ
ĠyiĠ benĠ
ĠjiĠ tiĠ
ĠjiĠ longĠ
ĠyuĠ 2012
ĠzhongĠ shenĠ
xingĠ bie
yuanĠ yin
yuanĠ qiĠ
fuĠ zongĠtongĠ
daoĠ zhiĠdeĠ
jinĠ duĠ
jiaoĠ huĠ
junĠ wuĠ
qingĠ xiangĠyuĠ
ĠxingĠ buĠ
jiuĠ geĠ
xieĠ ziĠ
quanĠ xinĠdeĠ
suoĠ you
maĠ yaĠ
naĠ me
ĠshengĠ chuĠ
kaoĠ zhengĠ
haĠ saĠkeĠ
ĠquanĠ xianĠ
ĠxuanĠ zeĠ
ĠyiĠliĠ shaĠbaiĠ
1ĠhaoĠ xianĠ
Ġdi ĠshiĠyiĠ
Ġ d
Ġ tĠĠĠ
ĠĠĠ su
ĠĠĠ Com
ĠĠĠ guoĠjiaĠduiĠ
shu ĠguoĠ
xie ĠliĠ
der ĠĠĠ
53 ĠnianĠ
01 Ġ
ĠzaiĠ zhe
ĠrenĠ men
jianĠ qiĠ
jieĠ zouĠ
leĠ daĠliangĠ
zhanĠ gongĠ
xiaĠ xingĠ
danĠ weiĠdeĠ
meiĠ youĠdeĠ
ĠbingĠ tongĠguoĠ
paiĠ ziĠ
ĠziĠ yangĠ
puĠ xianĠ
ĠchuĠ shouĠ
ĠwuĠ daoĠ
huanĠ quĠ
keĠyiĠ beiĠ
ĠzhongĠguoĠ gongĠ
taoĠ tuoĠ
yanĠjiuĠ zheĠ
daiĠbiaoĠ zuoĠ
sheĠhuiĠ keĠxueĠ
ĠluoĠ boĠteĠ
ĠĠĠyiĠ geĠ
yinĠduĠ jiaoĠ
ĠcengĠ danĠrenĠ
huiĠfuĠ zhuĠrenĠ
fenĠbie ĠzaiĠ
Ġque ĠfaĠ
mingĠniĠsuĠdaĠ zhouĠ
puĠchaĠguiĠdingĠ juĠminĠdianĠ
Ġ zhuang
Ġ buĠdeĠ
Ġ zhunĠ
Ġ minĠzuĠ
bu ĠshiĠyiĠ
yan ĠzaiĠ
duo ĠkeĠ
zhen ĠzaiĠ
lv ĠyuĠ
gui ĠyiĠ
shui ĠguoĠ
tou ĠzhiĠ
OS Ġ
nve ĠdaiĠ
ĠyouĠ sanĠ
keĠ chuanĠ
ĠxiĠ xianĠ
jiaoĠ shou
xiaoĠ mieĠ
banĠ xueĠ
duoĠ luoĠ
quanĠ ziĠ
dingĠ yiĠdeĠ
laĠ tuo
ĠshiĠdeĠ guoĠdeĠ
kongĠ tiaoĠ
henĠ gaoĠ
ĠqingĠ qiuĠ
ĠjiuĠ huiĠ
hengĠ xingĠdeĠ
ĠfengĠ baoĠ
daoĠshiĠ zhanĠtaiĠ
ĠkongĠ tai
lingĠxianĠ zhuĠyanĠ
ĠliĠxinĠ lvĠweiĠ0
ĠweiĠreĠdaiĠ danĠshuiĠyuĠ
ĠĠĠxiaĠshuĠ wuĠzhongĠ
Ġ dun
Ġ 1969
Ġ xuanĠjuĠ
Ġ lunĠdun
ĠĠĠ dan
ĠĠĠ Hi
jiang ĠdaĠxueĠ
zhou ĠerĠ
12 ĠrenĠ
wo ĠfuĠ
ĠdeĠ shuoĠfaĠ
ĠliĠ chaĠ
faĠ xiĠsiĠ
fangĠ sheĠ
yanĠ shuoĠ
ĠxingĠ chengĠdeĠ
dengĠ wenĠtiĠ
quanĠ wanĠ
xuanĠ xiangĠ
feiĠ chuanĠ
fengĠ huangĠ
hanĠ guoĠdeĠ
ĠchuĠ kouĠ
chaoĠ guoĠyiĠ
piĠ jiuĠ
ĠnanĠ feiĠ
yingĠguoĠ huangĠjiaĠ
ĠnianĠ5ĠyueĠ 1ĠriĠ
ĠzheĠshiĠ yinĠweiĠ
zhanĠlingĠ leĠ
xiaĠdeĠyiĠgeĠ shuĠ
Ġ 1920
Ġ qunĠ
Ġ 1939ĠnianĠ
Ġ 1912ĠnianĠ
ĠĠĠ Do
he ĠshiĠyongĠ
yuan ĠshiĠdeĠ
ye ĠweiĠqiĠ
yan ĠbuĠ
lu ĠguoĠ
bing ĠyouĠ
ya ĠweiĠ
zhen ĠshiĠdeĠ
liu ĠriĠ
dou ĠweiĠ
ka ĠheĠ
huang ĠdaoĠ
one Ġ
ĠdeĠ shouĠ
ĠyiĠ lang
ĠyuĠ fuĠ
ĠheĠ tongĠ
yuanĠ linĠ
jieĠ chuĠdeĠ
ĠqiĠ xingĠ
jinĠ ziĠ
riĠ neiĠ
zhengĠ ceĠdeĠ
zheĠ liangĠgeĠ
pingĠ fanĠ
sheĠ youĠyiĠ
zhenĠ tanĠ
suoĠ zhuĠ
guĠ dingĠdeĠ
feiĠ jiĠdeĠ
puĠ saĠ
ĠgeĠ diĠ
shuiĠ quĠ
ĠgaiĠ pian
yueĠ duiĠ
tuoĠ xieĠ
ĠmeiĠ tianĠ
heiĠ anĠ
ĠmianĠjiĠ 1Ġ
Ġgu ĠliĠ
ĠhaiĠbaĠgaoĠduĠ 2Ġ
ĠrenĠkou ĠweiĠrenĠ
xunĠhuiĠ saiĠ
ĠmeiĠnianĠ pingĠjunĠ
heiĠlongĠjiangĠ shengĠ
Ġ 1959
Ġ wuĠnianĠ
ban ĠweiĠ
la ĠyiĠ
chen ĠxingĠ
57 ĠnianĠ
1889 ĠnianĠ
diĠ fuĠ
geĠ zhouĠ
jianĠ zhuĠdeĠ
chengĠ cheĠ
shengĠ biĠdeĠ
faĠ songĠ
jinĠ lingĠ
ĠdiĠ heĠ
quĠ xiangĠ
tongĠ guoĠyiĠ
luĠ quĠ
wenĠ dingĠxingĠ
jiangĠ yuanĠ
ĠsiĠ wang
ĠjiaĠ suĠ
banĠ daoĠdeĠ
ĠtaĠ huiĠ
tuĠ pianĠ
ĠxianĠ xiangĠ
duanĠ cengĠ
ĠhouĠ laiĠdeĠ
chaoĠ xian
Ġdan ĠdeĠ
2Ġ fenĠ
tieĠ muĠerĠ
nianĠ daiĠweiĠ
jingĠjiĠ gongĠsiĠ
diĠshiĠ siĠ
sĠĠĠ ofĠĠĠ
zaoĠchengĠ leĠ
chengĠrenĠ youĠxiĠ
zuiĠgaoĠ dianĠweiĠ
Ġda ĠzhiĠ
faĠbiaoĠ shengĠmingĠ
Ġpo ĠshiĠ
maĠkeĠsiĠ zhuĠyiĠ
zhuĠlongĠ caoĠ
e ĠsiĠ
Ġ cheng
Ġ 51
Ġ qiĠweiĠ
ou ĠerĠ
ĠĠĠ Wi
ĠĠĠ xuĠduoĠ
shang ĠerĠ
shen ĠzhongĠ
san ĠyiĠ
huang ĠdeĠ
rong ĠxingĠ
tie ĠdaĠniĠ
kun ĠjingĠ
70 ĠnianĠdaiĠ
44 Ġ
zhuĠ keĠ
zhuĠ ziĠ
chuĠ jiaĠ
zhengĠ que
xiaoĠ mingĠ
danĠ niĠerĠ
liangĠ changĠ
minĠ suĠ
jiuĠ kaiĠshiĠ
mianĠ jiĠdeĠ
guangĠ mingĠ
linĠ yeĠ
ceĠ suoĠ
yiĠshiĠ zhiĠ
peiĠ tongĠ
yingĠxiangĠ leĠ
quanĠguoĠ renĠdaĠdaiĠbiaoĠ
youĠjiĠ zaiĠ
xiaoĠxingĠ xingĠyuĠ
Ġma ĠliĠyaĠ
anĠdeĠ erĠ
ĠguiĠ huaĠ
ĠĠĠR Ġ
ĠshiĠwuĠkeĠ lan
Ġ gong
Ġ duan
Ġ cuĠjinĠ
Ġ 1957ĠnianĠ
ĠĠĠ riĠben
er ĠshiĠqiĠ
pu ĠshiĠ
dou ĠdeĠ
ce ĠxianĠ
sha ĠerĠ
rou ĠdaoĠ
ĠshiĠ luoĠmaĠ
ĠyiĠ zhaoĠ
ĠzhiĠ li
ĠrenĠ daĠ
gongĠ yuanĠdeĠ
geĠ wuĠ
chengĠ diĠ
ziĠ jianĠ
huiĠ zhanĠ
jinĠ guanĠ
huaĠ jieĠ
yingĠ dangĠ
tiĠ siĠ
lianĠ huanĠ
teĠ quanĠ
maĠ shangĠ
mianĠ baoĠ
caiĠ gouĠ
ĠjuĠ shuoĠ
huanĠ jing
chongĠ dangĠ
aiĠ saiĠeĠ
ĠbianĠ juĠ
ĠxiĠbeiĠ jieĠ
daĠjiangĠ saiĠ
guanĠcha ĠdaoĠ
raoĠtaiĠyangĠ yunĠ
banĠzhangĠ zhouĠweiĠ
Ġ ying
Ġ chuan
Ġ lang
Ġ 24Ġ
Ġ 1942ĠnianĠ
ĠĠĠ yingĠyongĠ
lai ĠdaĠ
ling ĠyiĠweiĠ
ting ĠĠĠ
lie ĠriĠ
tao ĠdaoĠ
kan ĠtaiĠ
kuai ĠjiĠ
79 ĠnianĠ
86 ĠnianĠ
82 ĠnianĠ
ster Ġ
ĠweiĠ buĠ
Ġli ĠshiĠshiĠ
ĠyouĠ zhuĠyuĠ
daĠ huoĠ
fangĠ xiang
zuĠ aiĠ
anĠ suanĠ
benĠ haiĠ
