{
  "version": "1.0",
  "truncation": null,
  "padding": null,
  "added_tokens": [],
  "normalizer": null,
  "pre_tokenizer": {
    "type": "Sequence",
    "pretokenizers": [
      {
        "type": "Split",
        "pattern": {
          "Regex": "[^\\p{L}\\p{N}\\s]+|[\\r\\n]+"
        },
        "behavior": "Isolated",
        "invert": false
      },
      {
        "type": "ByteLevel",
        "add_prefix_space": false,
        "trim_offsets": true,
        "use_regex": false
      }
    ]
  },
  "post_processor": null,
  "decoder": null,
  "model": {
    "type": "BPE",
    "dropout": null,
    "unk_token": null,
    "continuing_subword_prefix": null,
    "end_of_word_suffix": null,
    "fuse_unk": false,
    "byte_fallback": false,
    "ignore_merges": false,
    "vocab": {
      "!": 0,
      "\"": 1,
      "#": 2,
      "$": 3,
      "%": 4,
      "&": 5,
      "'": 6,
      "(": 7,
      ")": 8,
      "*": 9,
      "+": 10,
      ",": 11,
      "-": 12,
      ".": 13,
      "/": 14,
      "0": 15,
      "1": 16,
      "2": 17,
      "3": 18,
      "4": 19,
      "5": 20,
      "6": 21,
      "7": 22,
      "8": 23,
      "9": 24,
      ":": 25,
      ";": 26,
      "=": 27,
      "?": 28,
      "@": 29,
      "A": 30,
      "B": 31,
      "C": 32,
      "D": 33,
      "E": 34,
      "F": 35,
      "G": 36,
      "H": 37,
      "I": 38,
      "J": 39,
      "K": 40,
      "L": 41,
      "M": 42,
      "N": 43,
      "O": 44,
      "P": 45,
      "Q": 46,
      "R": 47,
      "S": 48,
      "T": 49,
      "U": 50,
      "V": 51,
      "W": 52,
      "X": 53,
      "Y": 54,
      "Z": 55,
      "[": 56,
      "\\": 57,
      "]": 58,
      "^": 59,
      "_": 60,
      "`": 61,
      "a": 62,
      "b": 63,
      "c": 64,
      "d": 65,
      "e": 66,
      "f": 67,
      "g": 68,
      "h": 69,
      "i": 70,
      "j": 71,
      "k": 72,
      "l": 73,
      "m": 74,
      "n": 75,
      "o": 76,
      "p": 77,
      "q": 78,
      "r": 79,
      "s": 80,
      "t": 81,
      "u": 82,
      "v": 83,
      "w": 84,
      "x": 85,
      "y": 86,
      "z": 87,
      "|": 88,
      "~": 89,
      "¡": 90,
      "¢": 91,
      "£": 92,
      "¤": 93,
      "¥": 94,
      "¦": 95,
      "§": 96,
      "¨": 97,
      "©": 98,
      "ª": 99,
      "«": 100,
      "¬": 101,
      "®": 102,
      "¯": 103,
      "°": 104,
      "±": 105,
      "²": 106,
      "³": 107,
      "´": 108,
      "µ": 109,
      "¶": 110,
      "·": 111,
      "¸": 112,
      "¹": 113,
      "º": 114,
      "»": 115,
      "¼": 116,
      "½": 117,
      "¾": 118,
      "¿": 119,
      "Â": 120,
      "Ã": 121,
      "Ä": 122,
      "Å": 123,
      "Æ": 124,
      "Ç": 125,
      "È": 126,
      "É": 127,
      "Ê": 128,
      "Ë": 129,
      "Ì": 130,
      "Í": 131,
      "Î": 132,
      "Ï": 133,
      "Ð": 134,
      "Ñ": 135,
      "Ò": 136,
      "Ó": 137,
      "Ô": 138,
      "Õ": 139,
      "Ö": 140,
      "×": 141,
      "Ø": 142,
      "Ù": 143,
      "Ú": 144,
      "Û": 145,
      "Ü": 146,
      "Þ": 147,
      "ß": 148,
      "à": 149,
      "á": 150,
      "â": 151,
      "ã": 152,
      "ä": 153,
      "ê": 154,
      "ë": 155,
      "ì": 156,
      "í": 157,
      "î": 158,
      "ï": 159,
      "ð": 160,
      "ñ": 161,
      "Ċ": 162,
      "Ġ": 163,
      "ġ": 164,
      "Ģ": 165,
      "ģ": 166,
      "Ĥ": 167,
      "ĥ": 168,
      "Ħ": 169,
      "ħ": 170,
      "Ĩ": 171,
      "ĩ": 172,
      "Ī": 173,
      "ī": 174,
      "Ĭ": 175,
      "ĭ": 176,
      "Į": 177,
      "į": 178,
      "İ": 179,
      "ı": 180,
      "Ĳ": 181,
      "ĳ": 182,
      "Ĵ": 183,
      "ĵ": 184,
      "Ķ": 185,
      "ķ": 186,
      "ĸ": 187,
      "Ĺ": 188,
      "ĺ": 189,
      "Ļ": 190,
      "ļ": 191,
      "Ľ": 192,
      "ľ": 193,
      "Ŀ": 194,
      "ŀ": 195,
      "Ł": 196,
      "ł": 197,
      "Ń": 198,
      "ng": 199,
      "an": 200,
      "sh": 201,
      "zh": 202,
      "ji": 203,
      "ang": 204,
      "ĠĠ": 205,
      "ong": 206,
      "xi": 207,
      "ao": 208,
      "ai": 209,
      "de": 210,
      "ei": 211,
      "shi": 212,
      "yu": 213,
      "ou": 214,
      "yi": 215,
      "en": 216,
      "ch": 217,
      "ian": 218,
      "uo": 219,
      "eng": 220,
      "li": 221,
      "ĠĠĠ": 222,
      "ãĢ": 223,
      "ing": 224,
      "ui": 225,
      "wei": 226,
      "uan": 227,
      "zhi": 228,
      "qi": 229,
      "nian": 230,
      "zhong": 231,
      "you": 232,
      "ren": 233,
      "un": 234,
      "zai": 235,
      "di": 236,
      "guo": 237,
      "ãĢģ": 238,
      "he": 239,
      "bu": 240,
      "er": 241,
      "gong": 242,
      "xing": 243,
      "cheng": 244,
      "da": 245,
      "zhu": 246,
      "hu": 247,
      "yuan": 248,
      "si": 249,
      "jian": 250,
      "yue": 251,
      "ge": 252,
      "fu": 253,
      "xian": 254,
      "ue": 255,
      "ke": 256,
      "wu": 257,
      "chu": 258,
      "shu": 259,
      "sheng": 260,
      "jie": 261,
      "jia": 262,
      "bi": 263,
      "dao": 264,
      "zi": 265,
      "bei": 266,
      "hui": 267,
      "fa": 268,
      "xiang": 269,
      "ti": 270,
      "zheng": 271,
      "mi": 272,
      "ta": 273,
      "jin": 274,
      "qu": 275,
      "20": 276,
      "tong": 277,
      "ri": 278,
      "ju": 279,
      "jing": 280,
      "ming": 281,
      "le": 282,
      "hou": 283,
      "shang": 284,
      "shou": 285,
      "dong": 286,
      "ci": 287,
      "fang": 288,
      "19": 289,
      "hua": 290,
      "yin": 291,
      "xue": 292,
      "guan": 293,
      "zhan": 294,
      "ye": 295,
      "ying": 296,
      "zuo": 297,
      "zhe": 298,
      "yan": 299,
      "mei": 300,
      "jiao": 301,
      "gu": 302,
      "chang": 303,
      "xin": 304,
      "dui": 305,
      "lu": 306,
      "bing": 307,
      "bao": 308,
      "fen": 309,
      "dan": 310,
      "huo": 311,
      "jun": 312,
      "jiang": 313,
      "du": 314,
      "xiao": 315,
      "dian": 316,
      "yong": 317,
      "qian": 318,
      "she": 319,
      "tai": 320,
      "xia": 321,
      "mu": 322,
      "wen": 323,
      "gai": 324,
      "zhang": 325,
      "liang": 326,
      "ya": 327,
      "ru": 328,
      "dai": 329,
      "hai": 330,
      "nan": 331,
      "zhou": 332,
      "zu": 333,
      "wang": 334,
      "lai": 335,
      "ban": 336,
      "jiu": 337,
      "dang": 338,
      "qing": 339,
      "ping": 340,
      "shen": 341,
      "ãĢĭ": 342,
      "ãĢĬ": 343,
      "wan": 344,
      "lian": 345,
      "ling": 346,
      "luo": 347,
      "Â·": 348,
      "min": 349,
      "quan": 350,
      "pi": 351,
      "ni": 352,
      "bo": 353,
      "duo": 354,
      "te": 355,
      "ben": 356,
      "gao": 357,
      "biao": 358,
      "suo": 359,
      "la": 360,
      "ma": 361,
      "kai": 362,
      "ba": 363,
      "xie": 364,
      "xu": 365,
      "bian": 366,
      "deng": 367,
      "yao": 368,
      "yang": 369,
      "mian": 370,
      "zhen": 371,
      "ding": 372,
      "qiu": 373,
      "zui": 374,
      "sai": 375,
      "liu": 376,
      "fan": 377,
      "xuan": 378,
      "fei": 379,
      "san": 380,
      "shan": 381,
      "che": 382,
      "zong": 383,
      "men": 384,
      "ãĢĮ": 385,
      "ãĢį": 386,
      "tu": 387,
      "tian": 388,
      "hao": 389,
      "su": 390,
      "lei": 391,
      "nei": 392,
      "yun": 393,
      "201": 394,
      "lan": 395,
      "feng": 396,
      "mo": 397,
      "na": 398,
      "ze": 399,
      "lv": 400,
      "han": 401,
      "kou": 402,
      "wai": 403,
      "neng": 404,
      "lin": 405,
      "chuan": 406,
      "chi": 407,
      "jue": 408,
      "bai": 409,
      "pai": 410,
      "200": 411,
      "ku": 412,
      "cai": 413,
      "zao": 414,
      "ting": 415,
      "zhuan": 416,
      "gang": 417,
      "lie": 418,
      "guang": 419,
      "gui": 420,
      "lun": 421,
      "sui": 422,
      "pu": 423,
      "ceng": 424,
      "kong": 425,
      "shui": 426,
      "10": 427,
      "chao": 428,
      "zhuang": 429,
      "cha": 430,
      "dou": 431,
      "can": 432,
      "tou": 433,
      "ran": 434,
      "se": 435,
      "duan": 436,
      "cun": 437,
      "huan": 438,
      "cong": 439,
      "pin": 440,
      "ce": 441,
      "chan": 442,
      "xun": 443,
      "gou": 444,
      "00": 445,
      "nv": 446,
      "zhao": 447,
      "gan": 448,
      "chong": 449,
      "sha": 450,
      "tan": 451,
      "18": 452,
      "qin": 453,
      "ka": 454,
      "meng": 455,
      "qiang": 456,
      "huang": 457,
      "xiu": 458,
      "12": 459,
      "tiao": 460,
      "man": 461,
      "shao": 462,
      "kuo": 463,
      "long": 464,
      "pian": 465,
      "shuo": 466,
      "tuan": 467,
      "tang": 468,
      "rong": 469,
      "geng": 470,
      "202": 471,
      "chen": 472,
      "tui": 473,
      "gen": 474,
      "que": 475,
      "tie": 476,
      "11": 477,
      "qie": 478,
      "wo": 479,
      "po": 480,
      "pei": 481,
      "hang": 482,
      "hong": 483,
      "199": 484,
      "bang": 485,
      "liao": 486,
      "chuang": 487,
      "bie": 488,
      "re": 489,
      "tuo": 490,
      "tao": 491,
      "song": 492,
      "wa": 493,
      "mai": 494,
      "ha": 495,
      "15": 496,
      "pan": 497,
      "dun": 498,
      "diao": 499,
      "qiao": 500,
      "sa": 501,
      "mao": 502,
      "lang": 503,
      "kan": 504,
      "kang": 505,
      "âĢ": 506,
      "or": 507,
      "lao": 508,
      "zeng": 509,
      "16": 510,
      "198": 511,
      "kao": 512,
      "xiong": 513,
      "17": 514,
      "on": 515,
      "nuo": 516,
      "miao": 517,
      "rang": 518,
      "kuang": 519,
      "hen": 520,
      "suan": 521,
      "14": 522,
      "30": 523,
      "zhun": 524,
      "13": 525,
      "194": 526,
      "cao": 527,
      "hun": 528,
      "qun": 529,
      "nong": 530,
      "197": 531,
      "heng": 532,
      "shuang": 533,
      "lou": 534,
      "gei": 535,
      "kuai": 536,
      "piao": 537,
      "zha": 538,
      "hei": 539,
      "niu": 540,
      "195": 541,
      "sen": 542,
      "bin": 543,
      "reng": 544,
      "zou": 545,
      "196": 546,
      "chun": 547,
      "kuan": 548,
      "25": 549,
      "âĢĶ": 550,
      "rui": 551,
      "sun": 552,
      "pao": 553,
      "ning": 554,
      "for": 555,
      "pa": 556,
      "cang": 557,
      "mou": 558,
      "24": 559,
      "peng": 560,
      "huai": 561,
      "21": 562,
      "193": 563,
      "23": 564,
      "mula": 565,
      "formula": 566,
      "28": 567,
      "zan": 568,
      "ruo": 569,
      "in": 570,
      "22": 571,
      "chou": 572,
      "zhui": 573,
      "ar": 574,
      "me": 575,
      "26": 576,
      "50": 577,
      "2020": 578,
      "27": 579,
      "nai": 580,
      "nu": 581,
      "ï¼": 582,
      "29": 583,
      "shun": 584,
      "2010": 585,
      "za": 586,
      "000": 587,
      "lve": 588,
      "zhai": 589,
      "2019": 590,
      "ne": 591,
      "ro": 592,
      "juan": 593,
      "st": 594,
      "ra": 595,
      "cui": 596,
      "kun": 597,
      "2016": 598,
      "luan": 599,
      "2018": 600,
      "cuo": 601,
      "2021": 602,
      "zang": 603,
      "2014": 604,
      "shuai": 605,
      "2011": 606,
      "2015": 607,
      "2017": 608,
      "2012": 609,
      "40": 610,
      "2013": 611,
      "nao": 612,
      "2022": 613,
      "die": 614,
      "ruan": 615,
      "kui": 616,
      "lt": 617,
      "rou": 618,
      "cu": 619,
      "sang": 620,
      "2009": 621,
      "2008": 622,
      "ãĥ": 623,
      "60": 624,
      "niao": 625,
      "al": 626,
      "rao": 627,
      "chai": 628,
      "100": 629,
      "zhuo": 630,
      "2023": 631,
      "gt": 632,
      "sou": 633,
      "190": 634,
      "31": 635,
      "ken": 636,
      "2007": 637,
      "2001": 638,
      "teng": 639,
      "pang": 640,
      "fou": 641,
      "co": 642,
      "fo": 643,
      "gua": 644,
      "2000": 645,
      "80": 646,
      "2006": 647,
      "2024": 648,
      "ãģ": 649,
      "2005": 650,
      "zun": 651,
      "tion": 652,
      "kua": 653,
      "the": 654,
      "35": 655,
      "70": 656,
      "nie": 657,
      "lo": 658,
      "of": 659,
      "90": 660,
      "leng": 661,
      "ï¼į": 662,
      "ãĤ": 663,
      "am": 664,
      "tun": 665,
      "ter": 666,
      "mie": 667,
      "2004": 668,
      "th": 669,
      "to": 670,
      "45": 671,
      "48": 672,
      "mang": 673,
      "2025": 674,
      "ve": 675,
      "ga": 676,
      "ãĢī": 677,
      "ãĢĪ": 678,
      "36": 679,
      "38": 680,
      "2003": 681,
      "37": 682,
      "Ma": 683,
      "chui": 684,
      "pen": 685,
      "ll": 686,
      "189": 687,
      "IN": 688,
      "2002": 689,
      "keng": 690,
      "TC": 691,
      "do": 692,
      "34": 693,
      "75": 694,
      "âĢĵ": 695,
      "Co": 696,
      "46": 697,
      "ca": 698,
      "1990": 699,
      "âĢ¦": 700,
      "ck": 701,
      "39": 702,
      "..": 703,
      "be": 704,
      "65": 705,
      "32": 706,
      "ST": 707,
      "47": 708,
      "UTC": 709,
      "1999": 710,
      "1998": 711,
      "1980": 712,
      "188": 713,
      "500": 714,
      "33": 715,
      "In": 716,
      "64": 717,
      "ss": 718,
      "The": 719,
      "vi": 720,
      "SE": 721,
      "55": 722,
      "1997": 723,
      "Re": 724,
      "hi": 725,
      "49": 726,
      "II": 727,
      "el": 728,
      "68": 729,
      "et": 730,
      "44": 731,
      "1996": 732,
      "oo": 733,
      "qiong": 734,
      "1994": 735,
      "gun": 736,
      "br": 737,
      "guai": 738,
      "1992": 739,
      "1995": 740,
      "Mi": 741,
      "67": 742,
      "and": 743,
      "sao": 744,
      "es": 745,
      "1991": 746,
      "1970": 747,
      "58": 748,
      "1950": 749,
      "300": 750,
      "1993": 751,
      "187": 752,
      "1949": 753,
      "at": 754,
      "AT": 755,
      "pe": 756,
      "1960": 757,
      "42": 758,
      "1945": 759,
      "Li": 760,
      "ver": 761,
      "qia": 762,
      "1988": 763,
      "ty": 764,
      "1989": 765,
      "69": 766,
      "Ro": 767,
      "is": 768,
      "run": 769,
      "SEE": 770,
      "niang": 771,
      "INSEE": 772,
      "ho": 773,
      "59": 774,
      "43": 775,
      "66": 776,
      "57": 777,
      "1985": 778,
      "99": 779,
      "SA": 780,
      "ãĢİ": 781,
      "ãĢı": 782,
      "ct": 783,
      "1984": 784,
      "41": 785,
      "88": 786,
      "1986": 787,
      "wi": 788,
      "ol": 789,
      "ws": 790,
      "TV": 791,
      "ry": 792,
      "150": 793,
      "Me": 794,
      "nd": 795,
      "400": 796,
      "1987": 797,
      "78": 798,
      "1982": 799,
      "56": 800,
      "beng": 801,
      "Vi": 802,
      "Pa": 803,
      "ts": 804,
      "1983": 805,
      "amp": 806,
      "NA": 807,
      "De": 808,
      "CD": 809,
      "gh": 810,
      "fi": 811,
      "weng": 812,
      "ber": 813,
      "77": 814,
      "Win": 815,
      "per": 816,
      "zuan": 817,
      "Sta": 818,
      "79": 819,
      "OS": 820,
      "Wi": 821,
      "Â°": 822,
      "ï½": 823,
      "der": 824,
      "180": 825,
      "BC": 826,
      "54": 827,
      "1979": 828,
      "61": 829,
      "1920": 830,
      "as": 831,
      "Mo": 832,
      "seng": 833,
      "98": 834,
      "52": 835,
      "You": 836,
      "1978": 837,
      "no": 838,
      "62": 839,
      "53": 840,
      "ly": 841,
      "shua": 842,
      "La": 843,
      "ï½ŀ": 844,
      "BA": 845,
      "1946": 846,
      "CO": 847,
      "51": 848,
      "1958": 849,
      "gi": 850,
      "Jo": 851,
      "1981": 852,
      "1972": 853,
      "1948": 854,
      "Le": 855,
      "tw": 856,
      "AM": 857,
      "63": 858,
      "AR": 859,
      "ction": 860,
      "1941": 861,
      "BS": 862,
      "Ga": 863,
      "1930": 864,
      "Da": 865,
      "Pro": 866,
      "Te": 867,
      "76": 868,
      "hans": 869,
      "1940": 870,
      "1937": 871,
      "1976": 872,
      "1944": 873,
      "Ja": 874,
      "89": 875,
      "us": 876,
      "Di": 877,
      "Windo": 878,
      "1975": 879,
      "ï¼ı": 880,
      "1968": 881,
      "hk": 882,
      "con": 883,
      "Fi": 884,
      "um": 885,
      "Si": 886,
      "1000": 887,
      "Windows": 888,
      "95": 889,
      "87": 890,
      "nal": 891,
      "Mar": 892,
      "1966": 893,
      "rd": 894,
      "85": 895,
      "Ne": 896,
      "Ra": 897,
      "ki": 898,
      "600": 899,
      "120": 900,
      "1947": 901,
      "Se": 902,
      "AC": 903,
      "1956": 904,
      "1964": 905,
      "Be": 906,
      "1942": 907,
      "Ã©": 908,
      "1955": 909,
      "1952": 910,
      "IS": 911,
      "ad": 912,
      "1939": 913,
      "1938": 914,
      "72": 915,
      "ur": 916,
      "74": 917,
      "Ca": 918,
      "va": 919,
      "1973": 920,
      "1974": 921,
      "1954": 922,
      "Ar": 923,
      "Al": 924,
      "ED": 925,
      "1900": 926,
      "--": 927,
      "AP": 928,
      "1943": 929,
      "To": 930,
      "1977": 931,
      "ld": 932,
      "1971": 933,
      "cen": 934,
      "lay": 935,
      "1967": 936,
      "Ba": 937,
      "IC": 938,
      "800": 939,
      "Po": 940,
      "Lo": 941,
      "ER": 942,
      "zhua": 943,
      "sta": 944,
      "86": 945,
      "1959": 946,
      "Bo": 947,
      "tt": 948,
      "1965": 949,
      "JR": 950,
      "1969": 951,
      "Fa": 952,
      "ãĥ»": 953,
      "ÃĹ": 954,
      "ID": 955,
      "Bi": 956,
      "son": 957,
      "1936": 958,
      "160": 959,
      "97": 960,
      "1953": 961,
      "Sa": 962,
      "MA": 963,
      "1962": 964,
      "1961": 965,
      "nen": 966,
      "Na": 967,
      "âĶ": 968,
      "So": 969,
      "1935": 970,
      "com": 971,
      "Ho": 972,
      "tic": 973,
      "96": 974,
      "ON": 975,
      "ï¼ħ": 976,
      "1951": 977,
      "St": 978,
      "1957": 979,
      "1963": 980,
      "Tu": 981,
      "âĶĢ": 982,
      "fe": 983,
      "so": 984,
      "ment": 985,
      "84": 986,
      "Hi": 987,
      "2026": 988,
      "82": 989,
      "Do": 990,
      "mer": 991,
      "Ri": 992,
      "73": 993,
      "nt": 994,
      "94": 995,
      "92": 996,
      "Ki": 997,
      "Ha": 998,
      "nang": 999,
      "one": 1000,
      "IP": 1001,
      "AN": 1002,
      "ls": 1003,
      "1933": 1004,
      "1931": 1005,
      "les": 1006,
      "71": 1007,
      "nuan": 1008,
      "Com": 1009,
      "83": 1010,
      "93": 1011,
      "ted": 1012,
      "Su": 1013,
      "81": 1014,
      "Ti": 1015,
      "Mu": 1016,
      "1918": 1017,
      "Ni": 1018,
      "HD": 1019,
      "Uni": 1020,
      "1928": 1021,
      "pp": 1022,
      "1932": 1023,
      "Cha": 1024,
      "We": 1025,
      "ys": 1026,
      "MV": 1027,
      "SS": 1028,
      "110": 1029,
      "IT": 1030,
      "1912": 1031,
      "No": 1032,
      "1929": 1033,
      "1927": 1034,
      "1934": 1035,
      "cn": 1036,
      "700": 1037,
      "go": 1038,
      "zei": 1039,
      "ght": 1040,
      "ster": 1041,
      "250": 1042,
      "91": 1043,
      "rt": 1044,
      "lli": 1045,
      "1924": 1046,
      "ris": 1047,
      "...": 1048,
      "1919": 1049,
      "nve": 1050,
      "130": 1051,
      "Pi": 1052,
      "1925": 1053,
      "Gi": 1054,
      "PS": 1055,
      "by": 1056,
      "ed": 1057,
      "mes": 1058,
      "An": 1059,
      "PC": 1060,
      "140": 1061,
      "AS": 1062,
      "Play": 1063,
      "1914": 1064,
      "km": 1065,
      "DV": 1066,
      "tio": 1067,
      "YouTu": 1068,
      "SM": 1069,
      "ble": 1070,
      "gra": 1071,
      "ko": 1072,
      "1911": 1073,
      "Con": 1074,
      "Ch": 1075,
      "lla": 1076,
      "1926": 1077,
      "lle": 1078,
      "Ge": 1079,
      "Par": 1080,
      "id": 1081,
      "Ta": 1082,
      "1922": 1083,
      "Lin": 1084,
      "mp": 1085,
      "1917": 1086,
      "He": 1087,
      "Ka": 1088,
      "ET": 1089,
      "NBA": 1090,
      "wn": 1091,
      "IV": 1092,
      "EN": 1093,
      "1923": 1094,
      "1921": 1095,
      "shai": 1096,
      "Goo": 1097,
      "chuo": 1098,
      "170": 1099,
      "à¸": 1100,
      "EC": 1101,
      "MS": 1102,
      "ali": 1103,
      "AL": 1104,
      "ph": 1105,
      "section": 1106,
      "YouTube": 1107,
      "EP": 1108,
      "BL": 1109,
      "1913": 1110,
      "Car": 1111,
      "Bu": 1112,
      "zen": 1113,
      "HK": 1114,
      "we": 1115,
      "hn": 1116,
      "mm": 1117,
      "ven": 1118,
      "hant": 1119,
      "âĨ": 1120,
      "1909": 1121,
      "sion": 1122,
      "Inter": 1123,
      "cro": 1124,
      "MP": 1125,
      "AI": 1126,
      "Wor": 1127,
      "Pe": 1128,
      "ds": 1129,
      "US": 1130,
      "pro": 1131,
      "DVD": 1132,
      "ok": 1133,
      "3000": 1134,
      "En": 1135,
      "1910": 1136,
      "DS": 1137,
      "RO": 1138,
      "cou": 1139,
      "Ste": 1140,
      "sis": 1141,
      "112": 1142,
      "Go": 1143,
      "rk": 1144,
      "AK": 1145,
      "RE": 1146,
      "1916": 1147,
      "Wa": 1148,
      "lia": 1149,
      "ãĥ¼": 1150,
      "Station": 1151,
      "For": 1152,
      "Net": 1153,
      "ff": 1154,
      "Î±": 1155,
      "oft": 1156,
      "ine": 1157,
      "den": 1158,
      "lor": 1159,
      "rea": 1160,
      "tional": 1161,
      "gn": 1162,
      "ture": 1163,
      "gle": 1164,
      "CP": 1165,
      "UN": 1166,
      "âĪ": 1167,
      "ard": 1168,
      "1915": 1169,
      "gin": 1170,
      "1905": 1171,
      "ps": 1172,
      "FC": 1173,
      "cal": 1174,
      "vo": 1175,
      "dia": 1176,
      "My": 1177,
      "CN": 1178,
      "âĦ": 1179,
      "âĨĴ": 1180,
      "our": 1181,
      "ers": 1182,
      "1901": 1183,
      "ent": 1184,
      "Au": 1185,
      "DNA": 1186,
      "Ex": 1187,
      "âĢ§": 1188,
      "900": 1189,
      "end": 1190,
      "HR": 1191,
      "dice": 1192,
      ".&": 1193,
      "ther": 1194,
      "tal": 1195,
      "CH": 1196,
      "TA": 1197,
      "TO": 1198,
      "1906": 1199,
      "1904": 1200,
      "AV": 1201,
      "tes": 1202,
      "MO": 1203,
      "jiong": 1204,
      "John": 1205,
      "my": 1206,
      "eri": 1207,
      "codice": 1208,
      "Man": 1209,
      "âĦĥ": 1210,
      "dy": 1211,
      "PlayStation": 1212,
      "Chi": 1213,
      "05": 1214,
      "CC": 1215,
      "tive": 1216,
      "diu": 1217,
      "And": 1218,
      "1907": 1219,
      "dio": 1220,
      "1908": 1221,
      "Google": 1222,
      "AG": 1223,
      "Ci": 1224,
      "EST": 1225,
      "MI": 1226,
      "SO": 1227,
      "LE": 1228,
      "sic": 1229,
      "ree": 1230,
      "BO": 1231,
      "int": 1232,
      "wit": 1233,
      "BBC": 1234,
      "Sch": 1235,
      "AD": 1236,
      "IG": 1237,
      "land": 1238,
      "III": 1239,
      "cri": 1240,
      "ton": 1241,
      "1500": 1242,
      "5000": 1243,
      "cy": 1244,
      "round": 1245,
      "wer": 1246,
      "IST": 1247,
      "ms": 1248,
      "ron": 1249,
      "ME": 1250,
      "CR": 1251,
      "ul": 1252,
      "3D": 1253,
      "je": 1254,
      "IA": 1255,
      "ley": 1256,
      "105": 1257,
      "au": 1258,
      "Ð°": 1259,
      "ria": 1260,
      "101": 1261,
      "1903": 1262,
      "tor": 1263,
      "GB": 1264,
      "van": 1265,
      "09": 1266,
      "TE": 1267,
      "Lu": 1268,
      "1902": 1269,
      "BD": 1270,
      "NC": 1271,
      "Pri": 1272,
      "Fe": 1273,
      "xt": 1274,
      "350": 1275,
      "pou": 1276,
      "Ã¡": 1277,
      "SAO": 1278,
      "des": 1279,
      "DC": 1280,
      "ja": 1281,
      "Î²": 1282,
      "cke": 1283,
      "B1900": 1284,
      "book": 1285,
      "hat": 1286,
      "ES": 1287,
      "all": 1288,
      "BM": 1289,
      "ï¼İ": 1290,
      "ãĥ³": 1291,
      "Ru": 1292,
      "ner": 1293,
      "1898": 1294,
      "res": 1295,
      "06": 1296,
      "118": 1297,
      "op": 1298,
      "ãģ®": 1299,
      "360": 1300,
      "DR": 1301,
      "New": 1302,
      "01": 1303,
      "DA": 1304,
      "Hu": 1305,
      "Open": 1306,
      "1895": 1307,
      "ger": 1308,
      "125": 1309,
      "Sho": 1310,
      "HO": 1311,
      "MC": 1312,
      "San": 1313,
      "ATP": 1314,
      "Micro": 1315,
      "ctor": 1316,
      "Ð¾": 1317,
      "108": 1318,
      "ft": 1319,
      "cor": 1320,
      "os": 1321,
      "NG": 1322,
      "Ke": 1323,
      "clu": 1324,
      "gy": 1325,
      "gram": 1326,
      "pri": 1327,
      "ward": 1328,
      "sty": 1329,
      "IF": 1330,
      "Cu": 1331,
      "Fran": 1332,
      "One": 1333,
      "net": 1334,
      "soft": 1335,
      "ker": 1336,
      "pt": 1337,
      "âĪĴ": 1338,
      "07": 1339,
      "08": 1340,
      "230": 1341,
      "Face": 1342,
      "104": 1343,
      "pace": 1344,
      "lspan": 1345,
      "Cor": 1346,
      "Per": 1347,
      "Bar": 1348,
      "World": 1349,
      "App": 1350,
      "EDT": 1351,
      "ISTAT": 1352,
      "cuan": 1353,
      "Love": 1354,
      "Ko": 1355,
      "à¤": 1356,
      "Har": 1357,
      "NO": 1358,
      "Stu": 1359,
      "1896": 1360,
      "LL": 1361,
      "ux": 1362,
      "109": 1363,
      "DP": 1364,
      "las": 1365,
      "AA": 1366,
      "fli": 1367,
      "RI": 1368,
      "Ju": 1369,
      "pha": 1370,
      "Ser": 1371,
      "lus": 1372,
      "line": 1373,
      "RT": 1374,
      "tri": 1375,
      "SP": 1376,
      "EX": 1377,
      "B48": 1378,
      "106": 1379,
      "1890": 1380,
      "rai": 1381,
      "sti": 1382,
      "mon": 1383,
      "CST": 1384,
      "ML": 1385,
      "od": 1386,
      "uni": 1387,
      "CDT": 1388,
      "bert": 1389,
      "Je": 1390,
      "rs": 1391,
      "rus": 1392,
      "red": 1393,
      "DO": 1394,
      "Pu": 1395,
      "ky": 1396,
      "HE": 1397,
      "Cou": 1398,
      "ation": 1399,
      "Mon": 1400,
      "04": 1401,
      "4000": 1402,
      "115": 1403,
      "1200": 1404,
      "M1": 1405,
      "Pre": 1406,
      "03": 1407,
      "ler": 1408,
      "GP": 1409,
      "del": 1410,
      "CE": 1411,
      "Äģ": 1412,
      "Live": 1413,
      "begin": 1414,
      "1889": 1415,
      "ool": 1416,
      "Davi": 1417,
      "with": 1418,
      "ara": 1419,
      "1899": 1420,
      "colspan": 1421,
      "tain": 1422,
      "back": 1423,
      "1871": 1424,
      "RS": 1425,
      "sto": 1426,
      "Facebook": 1427,
      "Ed": 1428,
      "Sha": 1429,
      "Microsoft": 1430,
      "mic": 1431,
      "tem": 1432,
      "âĢĭ": 1433,
      "240": 1434,
      "1600": 1435,
      "LO": 1436,
      "Tri": 1437,
      "ten": 1438,
      "tin": 1439,
      "BE": 1440,
      "low": 1441,
      "102": 1442,
      "box": 1443,
      "clude": 1444,
      "Ad": 1445,
      "TT": 1446,
      "1897": 1447,
      "Sou": 1448,
      "ser": 1449,
      "NH": 1450,
      "EE": 1451,
      "Du": 1452,
      "ces": 1453,
      "PP": 1454,
      "117": 1455,
      "SC": 1456,
      "val": 1457,
      "02": 1458,
      "por": 1459,
      "cm": 1460,
      "Mac": 1461,
      "style": 1462,
      "Che": 1463,
      "rst": 1464,
      "103": 1465,
      "AKB48": 1466,
      "Dan": 1467,
      "MD": 1468,
      "Nor": 1469,
      "Ph": 1470,
      "107": 1471,
      "ral": 1472,
      "Her": 1473,
      "On": 1474,
      "pre": 1475,
      "ring": 1476,
      "As": 1477,
      "are": 1478,
      "Willi": 1479,
      "tel": 1480,
      "Linux": 1481,
      "lis": 1482,
      "Ori": 1483,
      "ww": 1484,
      "Dis": 1485,
      "shuan": 1486,
      "gue": 1487,
      "mas": 1488,
      "450": 1489,
      "Ber": 1490,
      "VID": 1491,
      "127": 1492,
      "Music": 1493,
      "Is": 1494,
      "Ai": 1495,
      "Gre": 1496,
      "cer": 1497,
      "Ã¼": 1498,
      "tus": 1499,
      "Vo": 1500,
      "tra": 1501,
      "128": 1502,
      "flix": 1503,
      "CL": 1504,
      "Netflix": 1505,
      "Bro": 1506,
      "yo": 1507,
      "1894": 1508,
      "Game": 1509,
      "220": 1510,
      "Can": 1511,
      "Gra": 1512,
      "nin": 1513,
      "ref": 1514,
      "Ð½": 1515,
      "William": 1516,
      "Bri": 1517,
      "IL": 1518,
      "align": 1519,
      "SH": 1520,
      "bli": 1521,
      "ory": 1522,
      "Or": 1523,
      "Twit": 1524,
      "1880": 1525,
      "Red": 1526,
      "old": 1527,
      "ÃŃ": 1528,
      "RNA": 1529,
      "136": 1530,
      "PG": 1531,
      "Ð¸": 1532,
      "ãģĦ": 1533,
      "rom": 1534,
      "TR": 1535,
      "Team": 1536,
      "1800": 1537,
      "ãĤ¹": 1538,
      "Univer": 1539,
      "ground": 1540,
      "ia": 1541,
      "1885": 1542,
      "len": 1543,
      "114": 1544,
      "ãĤĵ": 1545,
      "Hz": 1546,
      "color": 1547,
      "Gen": 1548,
      "Ty": 1549,
      "116": 1550,
      "280": 1551,
      "UR": 1552,
      "ple": 1553,
      "Ðµ": 1554,
      "113": 1555,
      "1886": 1556,
      "ein": 1557,
      "ãĤ¤": 1558,
      "TS": 1559,
      "PO": 1560,
      "1893": 1561,
      "lar": 1562,
      "ex": 1563,
      "rn": 1564,
      "yn": 1565,
      "Mc": 1566,
      "name": 1567,
      "111": 1568,
      "SL": 1569,
      "ãĦ": 1570,
      "Super": 1571,
      "She": 1572,
      "stra": 1573,
      "All": 1574,
      "Gu": 1575,
      "cial": 1576,
      "lass": 1577,
      "âĢ»": 1578,
      "David": 1579,
      "135": 1580,
      "ject": 1581,
      "Ac": 1582,
      "260": 1583,
      "Cen": 1584,
      "Eu": 1585,
      "lf": 1586,
      "1860": 1587,
      "port": 1588,
      "ham": 1589,
      "Geor": 1590,
      "cho": 1591,
      "national": 1592,
      "Char": 1593,
      "Un": 1594,
      "WTA": 1595,
      "lver": 1596,
      "dge": 1597,
      "work": 1598,
      "HC": 1599,
      "Th": 1600,
      "tro": 1601,
      "School": 1602,
      "Ban": 1603,
      "ks": 1604,
      "sso": 1605,
      "tch": 1606,
      "tis": 1607,
      "1888": 1608,
      "Mor": 1609,
      "qui": 1610,
      "text": 1611,
      "SD": 1612,
      "Ã³": 1613,
      "-.": 1614,
      "UA": 1615,
      "roup": 1616,
      "lly": 1617,
      "cation": 1618,
      "ony": 1619,
      "background": 1620,
      "Meta": 1621,
      "roid": 1622,
      "ac": 1623,
      "meri": 1624,
      "Tra": 1625,
      "129": 1626,
      "GO": 1627,
      "Sto": 1628,
      "dis": 1629,
      "1870": 1630,
      "GN": 1631,
      "ï¹": 1632,
      "ream": 1633,
      "1887": 1634,
      "Show": 1635,
      "Qu": 1636,
      "cle": 1637,
      "1868": 1638,
      "6000": 1639,
      "Ã¶": 1640,
      "ÑĢ": 1641,
      "1883": 1642,
      "NF": 1643,
      "VA": 1644,
      "mar": 1645,
      "Ver": 1646,
      "day": 1647,
      "320": 1648,
      "Xbox": 1649,
      "CS": 1650,
      "was": 1651,
      "Ang": 1652,
      "NHK": 1653,
      "Tho": 1654,
      "AF": 1655,
      "Fo": 1656,
      "Twitter": 1657,
      "DD": 1658,
      "lyin": 1659,
      "onlyin": 1660,
      "onlyinclude": 1661,
      "++": 1662,
      "KP": 1663,
      "don": 1664,
      "1864": 1665,
      "âĢ¢": 1666,
      "Gir": 1667,
      "ION": 1668,
      "1884": 1669,
      "119": 1670,
      "Bla": 1671,
      "RC": 1672,
      "UE": 1673,
      "ain": 1674,
      "miu": 1675,
      "122": 1676,
      "Va": 1677,
      "2500": 1678,
      "1892": 1679,
      "210": 1680,
      "A1": 1681,
      "center": 1682,
      "cket": 1683,
      "155": 1684,
      "ISO": 1685,
      "âħ": 1686,
      "145": 1687,
      "stri": 1688,
      "1891": 1689,
      "650": 1690,
      "way": 1691,
      "Android": 1692,
      "NS": 1693,
      "Clu": 1694,
      "ãĢķ": 1695,
      "OR": 1696,
      "ffi": 1697,
      "htt": 1698,
      "mber": 1699,
      "ãĢĶ": 1700,
      "1850": 1701,
      "Fu": 1702,
      "Phi": 1703,
      "age": 1704,
      "mb": 1705,
      "win": 1706,
      "xy": 1707,
      "Cy": 1708,
      "Ku": 1709,
      "king": 1710,
      "International": 1711,
      "sia": 1712,
      "1867": 1713,
      "logy": 1714,
      "Ce": 1715,
      "IM": 1716,
      "ãĥĪ": 1717,
      "1879": 1718,
      "Star": 1719,
      "rie": 1720,
      "James": 1721,
      "Enter": 1722,
      "cc": 1723,
      "ller": 1724,
      "380": 1725,
      "AB": 1726,
      "UP": 1727,
      "ney": 1728,
      "Eng": 1729,
      "1876": 1730,
      "Spe": 1731,
      "War": 1732,
      "ny": 1733,
      "Studio": 1734,
      "zo": 1735,
      "George": 1736,
      "Ab": 1737,
      "Ani": 1738,
      "1875": 1739,
      "1861": 1740,
      "270": 1741,
      "Universi": 1742,
      "Games": 1743,
      "Bra": 1744,
      "IR": 1745,
      "126": 1746,
      "NT": 1747,
      "Ã¨": 1748,
      "time": 1749,
      "art": 1750,
      "Es": 1751,
      "Por": 1752,
      "NGC": 1753,
      "stru": 1754,
      "ãĥ«": 1755,
      "1873": 1756,
      "Hen": 1757,
      "MG": 1758,
      "phi": 1759,
      "ero": 1760,
      "123": 1761,
      "ãĥ©": 1762,
      "PV": 1763,
      "ns": 1764,
      "Ben": 1765,
      "Dra": 1766,
      "HT": 1767,
      "Colle": 1768,
      "Group": 1769,
      "Pan": 1770,
      "car": 1771,
      "mpi": 1772,
      "rans": 1773,
      "Sun": 1774,
      "it": 1775,
      "ut": 1776,
      "168": 1777,
      "cus": 1778,
      "COVID": 1779,
      "Blo": 1780,
      "FM": 1781,
      "MB": 1782,
      "Sys": 1783,
      "ous": 1784,
      "sed": 1785,
      "1865": 1786,
      "Club": 1787,
      "AO": 1788,
      "Ameri": 1789,
      "PL": 1790,
      "her": 1791,
      "im": 1792,
      "121": 1793,
      "DE": 1794,
      "Don": 1795,
      "that": 1796,
      "Air": 1797,
      "Center": 1798,
      "175": 1799,
      "ary": 1800,
      "ãģĨ": 1801,
      "Web": 1802,
      "H2": 1803,
      "YP": 1804,
      "from": 1805,
      "Ã¤": 1806,
      "1400": 1807,
      "MAX": 1808,
      "critic": 1809,
      "Ale": 1810,
      "tz": 1811,
      "138": 1812,
      "228": 1813,
      "Han": 1814,
      "TP": 1815,
      "1848": 1816,
      "1862": 1817,
      "330": 1818,
      "124": 1819,
      "ãĤ¢": 1820,
      "1881": 1821,
      "1882": 1822,
      "737": 1823,
      "Lea": 1824,
      "Ali": 1825,
      "UC": 1826,
      "hy": 1827,
      "1878": 1828,
      "550": 1829,
      "Ve": 1830,
      "sau": 1831,
      "bri": 1832,
      "bit": 1833,
      "1872": 1834,
      "El": 1835,
      "LC": 1836,
      "Insta": 1837,
      "Min": 1838,
      "ration": 1839,
      "INK": 1840,
      "Metacritic": 1841,
      "eld": 1842,
      "Oricon": 1843,
      "Sai": 1844,
      "Whi": 1845,
      "sco": 1846,
      "156": 1847,
      "Boo": 1848,
      "MTV": 1849,
      "sp": 1850,
      "165": 1851,
      "LED": 1852,
      "1840": 1853,
      "IVE": 1854,
      "Ya": 1855,
      "cre": 1856,
      "kin": 1857,
      "750": 1858,
      "ãĥĥ": 1859,
      "1300": 1860,
      "ãģĹ": 1861,
      "Hy": 1862,
      "137": 1863,
      "Micha": 1864,
      "Mark": 1865,
      "7000": 1866,
      "Hel": 1867,
      "era": 1868,
      "DOS": 1869,
      "SQ": 1870,
      "UB": 1871,
      "229": 1872,
      "IU": 1873,
      "GDP": 1874,
      "King": 1875,
      "OK": 1876,
      "Ñģ": 1877,
      "type": 1878,
      "Gran": 1879,
      "nic": 1880,
      "High": 1881,
      "Tai": 1882,
      "ast": 1883,
      "152": 1884,
      "TVB": 1885,
      "Chris": 1886,
      "159": 1887,
      "1877": 1888,
      "Robert": 1889,
      "Chan": 1890,
      "py": 1891,
      "sy": 1892,
      "tle": 1893,
      "âĹ": 1894,
      "cien": 1895,
      "1866": 1896,
      "Hou": 1897,
      "iOS": 1898,
      "ot": 1899,
      "Ð»": 1900,
      "Produ": 1901,
      "SK": 1902,
      "Shi": 1903,
      "silver": 1904,
      "1869": 1905,
      "âĢ²": 1906,
      "thi": 1907,
      "THE": 1908,
      "Up": 1909,
      "Day": 1910,
      "Cro": 1911,
      "DM": 1912,
      "Ele": 1913,
      "Stre": 1914,
      "Peter": 1915,
      "It": 1916,
      "NET": 1917,
      "tter": 1918,
      "Free": 1919,
      "Jan": 1920,
      "Ðº": 1921,
      "139": 1922,
      "Phone": 1923,
      "Instagram": 1924,
      "At": 1925,
      "BI": 1926,
      "Sur": 1927,
      "pla": 1928,
      "BLAC": 1929,
      "Type": 1930,
      "Ð²": 1931,
      "ora": 1932,
      "Apple": 1933,
      "DJ": 1934,
      "Sy": 1935,
      "Wal": 1936,
      "CG": 1937,
      "WE": 1938,
      "code": 1939,
      "ãĤ¯": 1940,
      "Michael": 1941,
      "DF": 1942,
      "Sh": 1943,
      "ï¸": 1944,
      "1100": 1945,
      "cia": 1946,
      "158": 1947,
      "ness": 1948,
      "Big": 1949,
      "225": 1950,
      "Pla": 1951,
      "Pat": 1952,
      "Sam": 1953,
      "Ye": 1954,
      "vin": 1955,
      "nia": 1956,
      "305": 1957,
      "133": 1958,
      "INE": 1959,
      "Paul": 1960,
      "Tech": 1961,
      "National": 1962,
      "tte": 1963,
      "oun": 1964,
      "nis": 1965,
      "ãĥª": 1966,
      "Award": 1967,
      "RA": 1968,
      "YO": 1969,
      "132": 1970,
      "Steam": 1971,
      "205": 1972,
      "1863": 1973,
      "ray": 1974,
      "IE": 1975,
      "pany": 1976,
      "Media": 1977,
      "tainment": 1978,
      "215": 1979,
      "Br": 1980,
      "University": 1981,
      "FO": 1982,
      "Lou": 1983,
      "Val": 1984,
      "ensis": 1985,
      "tions": 1986,
      "Bill": 1987,
      "phy": 1988,
      "CA": 1989,
      "F1": 1990,
      "KBS": 1991,
      "bur": 1992,
      "148": 1993,
      "131": 1994,
      "Smi": 1995,
      "kg": 1996,
      "166": 1997,
      "1874": 1998,
      "XX": 1999,
      "deo": 2000,
      "1858": 2001,
      "par": 2002,
      "EF": 2003,
      "sor": 2004,
      "rin": 2005,
      "rum": 2006,
      "Cho": 2007,
      "clo": 2008,
      "147": 2009,
      "Hol": 2010,
      "mini": 2011,
      "Fri": 2012,
      "256": 2013,
      "ãģĭ": 2014,
      "M2": 2015,
      "1830": 2016,
      "CBS": 2017,
      "UT": 2018,
      "gon": 2019,
      "lm": 2020,
      "1851": 2021,
      "Lee": 2022,
      "BN": 2023,
      "GA": 2024,
      "HI": 2025,
      "UI": 2026,
      "lip": 2027,
      "ric": 2028,
      "192": 2029,
      "Park": 2030,
      "td": 2031,
      "Î¼": 2032,
      "8000": 2033,
      "Mer": 2034,
      "now": 2035,
      "Entertainment": 2036,
      "310": 2037,
      "143": 2038,
      "his": 2039,
      "Mk": 2040,
      "1855": 2041,
      "City": 2042,
      "Black": 2043,
      "Wil": 2044,
      "Power": 2045,
      "Chu": 2046,
      "EM": 2047,
      "IX": 2048,
      "Space": 2049,
      "gar": 2050,
      "whi": 2051,
      "GM": 2052,
      "RAM": 2053,
      "ð«": 2054,
      "185": 2055,
      "1859": 2056,
      "tho": 2057,
      "STAR": 2058,
      "Jack": 2059,
      "Charles": 2060,
      "134": 2061,
      "Java": 2062,
      "Dire": 2063,
      "ABC": 2064,
      "Gar": 2065,
      "Ter": 2066,
      "spe": 2067,
      "ship": 2068,
      "1854": 2069,
      "146": 2070,
      "301": 2071,
      "1700": 2072,
      "inter": 2073,
      "Viu": 2074,
      "stitu": 2075,
      "370": 2076,
      "Fla": 2077,
      "Ken": 2078,
      "1857": 2079,
      "Alpha": 2080,
      "Lan": 2081,
      "Stan": 2082,
      "out": 2083,
      "los": 2084,
      "Dar": 2085,
      "Ø§": 2086,
      "290": 2087,
      "ãģª": 2088,
      "Life": 2089,
      "ï¸°": 2090,
      "vs": 2091,
      "Î³": 2092,
      "214": 2093,
      "420": 2094,
      "Cam": 2095,
      "ÑĤ": 2096,
      "Recor": 2097,
      "Company": 2098,
      "Fun": 2099,
      "Î¿": 2100,
      "ãĢľ": 2101,
      "1856": 2102,
      "1853": 2103,
      "Project": 2104,
      "Dream": 2105,
      "Fan": 2106,
      "Sen": 2107,
      "dium": 2108,
      "ãģŁ": 2109,
      "first": 2110,
      "Time": 2111,
      "Thomas": 2112,
      "House": 2113,
      "Pen": 2114,
      "144": 2115,
      "Saint": 2116,
      "FA": 2117,
      "OVA": 2118,
      "Py": 2119,
      "Spi": 2120,
      "Cent": 2121,
      "VO": 2122,
      "ek": 2123,
      "face": 2124,
      "A2": 2125,
      "IO": 2126,
      "dd": 2127,
      "von": 2128,
      "167": 2129,
      "Japan": 2130,
      "Street": 2131,
      "3A": 2132,
      "Cla": 2133,
      "HS": 2134,
      "SBS": 2135,
      "rence": 2136,
      "bili": 2137,
      "rist": 2138,
      "chard": 2139,
      "1841": 2140,
      "very": 2141,
      "Euro": 2142,
      "LP": 2143,
      "Plan": 2144,
      "ak": 2145,
      "ie": 2146,
      "rp": 2147,
      "bal": 2148,
      "ety": 2149,
      "Alex": 2150,
      "340": 2151,
      "PM": 2152,
      "bun": 2153,
      "if": 2154,
      "lue": 2155,
      "BLACKP": 2156,
      "Sco": 2157,
      "Tal": 2158,
      "shiĠ": 2159,
      "deĠ": 2160,
      "ĠshiĠ": 2161,
      "ĠdeĠ": 2162,
      "yiĠ": 2163,
      "ĠyiĠ": 2164,
      "jiĠ": 2165,
      "weiĠ": 2166,
      "zhiĠ": 2167,
      "yuĠ": 2168,
      "ĠweiĠ": 2169,
      "ĠjiĠ": 2170,
      "Ġnian": 2171,
      "ĠzhiĠ": 2172,
      "ĠyuĠ": 2173,
      "Ġli": 2174,
      "ĠnianĠ": 2175,
      "zhongĠ": 2176,
      "ĠliĠ": 2177,
      "zaiĠ": 2178,
      "renĠ": 2179,
      "youĠ": 2180,
      "guoĠ": 2181,
      "heĠ": 2182,
      "qiĠ": 2183,
      "buĠ": 2184,
      "diĠ": 2185,
      "ĠyouĠ": 2186,
      "ĠzaiĠ": 2187,
      "ĠrenĠ": 2188,
      "Ġyue": 2189,
      "ĠzhongĠ": 2190,
      "ĠheĠ": 2191,
      "daĠ": 2192,
      "xiĠ": 2193,
      "xingĠ": 2194,
      "yuanĠ": 2195,
      "erĠ": 2196,
      "gongĠ": 2197,
      "ĠyueĠ": 2198,
      "fuĠ": 2199,
      "siĠ": 2200,
      "geĠ": 2201,
      "jianĠ": 2202,
      "ĠguoĠ": 2203,
      "wuĠ": 2204,
      "jiaĠ": 2205,
      "ĠbuĠ": 2206,
      "jieĠ": 2207,
      "keĠ": 2208,
      "chengĠ": 2209,
      "zhuĠ": 2210,
      "shengĠ": 2211,
      "xiangĠ": 2212,
      "xianĠ": 2213,
      "daoĠ": 2214,
      "beiĠ": 2215,
      "ziĠ": 2216,
      "ĠqiĠ": 2217,
      "faĠ": 2218,
      "huiĠ": 2219,
      "chuĠ": 2220,
      "jinĠ": 2221,
      "ĠdiĠ": 2222,
      "shuĠ": 2223,
      "ĠerĠ": 2224,
      "riĠ": 2225,
      "ĠxiĠ": 2226,
      "juĠ": 2227,
      "quĠ": 2228,
      "zhengĠ": 2229,
      "houĠ": 2230,
      "shouĠ": 2231,
      "mingĠ": 2232,
      "shangĠ": 2233,
      "dongĠ": 2234,
      "taĠ": 2235,
      "jingĠ": 2236,
      "leĠ": 2237,
      "xueĠ": 2238,
      "fangĠ": 2239,
      "yanĠ": 2240,
      "zhanĠ": 2241,
      "ciĠ": 2242,
      "baoĠ": 2243,
      "huaĠ": 2244,
      "yingĠ": 2245,
      "yeĠ": 2246,
      "tongĠ": 2247,
      "zuoĠ": 2248,
      "zheĠ": 2249,
      "guanĠ": 2250,
      "ĠdaĠ": 2251,
      "ĠriĠ": 2252,
      "yinĠ": 2253,
      "changĠ": 2254,
      "xinĠ": 2255,
      "jiaoĠ": 2256,
      "luĠ": 2257,
      "duiĠ": 2258,
      "wenĠ": 2259,
      "tiĠ": 2260,
      "fenĠ": 2261,
      "qianĠ": 2262,
      "taiĠ": 2263,
      "jiangĠ": 2264,
      "xiaoĠ": 2265,
      "bingĠ": 2266,
      "ĠsiĠ": 2267,
      "junĠ": 2268,
      "dianĠ": 2269,
      "zhangĠ": 2270,
      "pingĠ": 2271,
      "xiaĠ": 2272,
      "duĠ": 2273,
      "huoĠ": 2274,
      "yongĠ": 2275,
      "danĠ": 2276,
      "ĠkeĠ": 2277,
      "ĠjiaĠ": 2278,
      "haiĠ": 2279,
      "gaiĠ": 2280,
      "wangĠ": 2281,
      "daiĠ": 2282,
      "nanĠ": 2283,
      "ruĠ": 2284,
      "qingĠ": 2285,
      "muĠ": 2286,
      "biĠ": 2287,
      "banĠ": 2288,
      "liangĠ": 2289,
      "laiĠ": 2290,
      "meiĠ": 2291,
      "yaĠ": 2292,
      "shenĠ": 2293,
      "ĠfuĠ": 2294,
      "ĠxingĠ": 2295,
      "zuĠ": 2296,
      "wanĠ": 2297,
      "sheĠ": 2298,
      "lianĠ": 2299,
      "minĠ": 2300,
      "miĠ": 2301,
      "zhouĠ": 2302,
      "jiuĠ": 2303,
      "qiuĠ": 2304,
      "anĠ": 2305,
      "zhenĠ": 2306,
      "benĠ": 2307,
      "xuĠ": 2308,
      "gaoĠ": 2309,
      "ĠtaĠ": 2310,
      "boĠ": 2311,
      "xieĠ": 2312,
      "teĠ": 2313,
      "bianĠ": 2314,
      "lingĠ": 2315,
      "luoĠ": 2316,
      "yaoĠ": 2317,
      "dengĠ": 2318,
      "duoĠ": 2319,
      "yangĠ": 2320,
      "quanĠ": 2321,
      "cheĠ": 2322,
      "suoĠ": 2323,
      "zuiĠ": 2324,
      "tianĠ": 2325,
      "guĠ": 2326,
      "biaoĠ": 2327,
      "fanĠ": 2328,
      "huĠ": 2329,
      "yunĠ": 2330,
      "xuanĠ": 2331,
      "suĠ": 2332,
      "shanĠ": 2333,
      "feiĠ": 2334,
      "dingĠ": 2335,
      "liuĠ": 2336,
      "zongĠ": 2337,
      "saiĠ": 2338,
      "dangĠ": 2339,
      "maĠ": 2340,
      "kaiĠ": 2341,
      "baĠ": 2342,
      "haoĠ": 2343,
      "ĠdeĠyiĠ": 2344,
      "ĠbingĠ": 2345,
      "ĠdaoĠ": 2346,
      "fengĠ": 2347,
      "kouĠ": 2348,
      "tuĠ": 2349,
      "mianĠ": 2350,
      "menĠ": 2351,
      "neiĠ": 2352,
      "laĠ": 2353,
      "leiĠ": 2354,
      "sanĠ": 2355,
      "caiĠ": 2356,
      "waiĠ": 2357,
      "chuanĠ": 2358,
      "jueĠ": 2359,
      "paiĠ": 2360,
      "chiĠ": 2361,
      "ĠdanĠ": 2362,
      "ĠjinĠ": 2363,
      "ĠbeiĠ": 2364,
      "ĠgongĠ": 2365,
      "ĠjianĠ": 2366,
      "guangĠ": 2367,
      "ĠshiĠyiĠ": 2368,
      "lanĠ": 2369,
      "niĠ": 2370,
      "guiĠ": 2371,
      "baiĠ": 2372,
      "ĠziĠ": 2373,
      "linĠ": 2374,
      "tingĠ": 2375,
      "ĠzheĠ": 2376,
      "puĠ": 2377,
      "ĠxiangĠ": 2378,
      "naĠ": 2379,
      "gangĠ": 2380,
      "lunĠ": 2381,
      "nengĠ": 2382,
      "hanĠ": 2383,
      "lieĠ": 2384,
      "zeĠ": 2385,
      "ĠzhuĠ": 2386,
      "chengĠweiĠ": 2387,
      "moĠ": 2388,
      "ĠyinĠ": 2389,
      "ĠgeĠ": 2390,
      "ĠxianĠ": 2391,
      "ĠchuĠ": 2392,
      "ĠshiĠdeĠ": 2393,
      "meiĠguoĠ": 2394,
      "chanĠ": 2395,
      "shuiĠ": 2396,
      "ĠjuĠ": 2397,
      "ĠchengĠ": 2398,
      "ĠdeĠshiĠ": 2399,
      "ĠjieĠ": 2400,
      "ĠgaiĠ": 2401,
      "ĠwuĠ": 2402,
      "suiĠ": 2403,
      "xunĠ": 2404,
      "zhuanĠ": 2405,
      "ĠbaoĠ": 2406,
      "ĠpingĠ": 2407,
      "lvĠ": 2408,
      "Ġta": 2409,
      "aoĠ": 2410,
      "zhuangĠ": 2411,
      "liĠ": 2412,
      "touĠ": 2413,
      "duanĠ": 2414,
      "ĠyiĠjiĠ": 2415,
      "seĠ": 2416,
      "huanĠ": 2417,
      "eĠ": 2418,
      "chongĠ": 2419,
      "ĠweiĠyuĠ": 2420,
      "cengĠ": 2421,
      "pinĠ": 2422,
      "congĠ": 2423,
      "chaĠ": 2424,
      "diĠyiĠ": 2425,
      "cunĠ": 2426,
      "1Ġ": 2427,
      "aĠ": 2428,
      "douĠ": 2429,
      "zaoĠ": 2430,
      "ĠhouĠ": 2431,
      "kongĠ": 2432,
      "zhaoĠ": 2433,
      "gouĠ": 2434,
      "ganĠ": 2435,
      "ĠciĠ": 2436,
      "shaĠ": 2437,
      "qiangĠ": 2438,
      "ĠshiĠjiĠ": 2439,
      "chaoĠ": 2440,
      "mengĠ": 2441,
      "ĠyeĠ": 2442,
      "kaiĠshiĠ": 2443,
      "manĠ": 2444,
      "ceĠ": 2445,
      "tangĠ": 2446,
      "longĠ": 2447,
      "aiĠ": 2448,
      "Ġdan": 2449,
      "kuoĠ": 2450,
      "keĠyiĠ": 2451,
      "ĠyuanĠ": 2452,
      "ĠfaĠ": 2453,
      "ĠyiĠgeĠ": 2454,
      "2Ġ": 2455,
      "tanĠ": 2456,
      "tuanĠ": 2457,
      "ĠshengĠ": 2458,
      "ĠshiĠweiĠ": 2459,
      "kaĠ": 2460,
      "gongĠliĠ": 2461,
      "ĠzhongĠguoĠ": 2462,
      "qinĠ": 2463,
      "Ġtong": 2464,
      "tieĠ": 2465,
      "ĠshiĠshiĠ": 2466,
      "Ġbing": 2467,
      "ĠmingĠ": 2468,
      "zhengĠfuĠ": 2469,
      "shaoĠ": 2470,
      "canĠ": 2471,
      "pianĠ": 2472,
      "Ġyou": 2473,
      "huoĠdeĠ": 2474,
      "mianĠjiĠ": 2475,
      "hangĠ": 2476,
      "hongĠ": 2477,
      "gengĠ": 2478,
      "ĠhuoĠ": 2479,
      "jiĠdeĠ": 2480,
      "ĠshiĠyongĠ": 2481,
      "tiaoĠ": 2482,
      "xiuĠ": 2483,
      "chenĠ": 2484,
      "shuoĠ": 2485,
      "piĠ": 2486,
      "ĠdongĠ": 2487,
      "renĠweiĠ": 2488,
      "ĠshiĠjianĠ": 2489,
      "taoĠ": 2490,
      "zhiĠyiĠ": 2491,
      "zhongĠdeĠ": 2492,
      "zhengĠzhiĠ": 2493,
      "huangĠ": 2494,
      "ranĠ": 2495,
      "ĠyiĠzhiĠ": 2496,
      "ĠshiĠjieĠ": 2497,
      "zhongĠguoĠ": 2498,
      "Ġri": 2499,
      "yueĠ": 2500,
      "chuangĠ": 2501,
      "nvĠ": 2502,
      "quĠdeĠ": 2503,
      "guoĠjiĠ": 2504,
      "yiĠshiĠ": 2505,
      "ĠpingĠfangĠ": 2506,
      "woĠ": 2507,
      "renĠkouĠ": 2508,
      "xingĠdeĠ": 2509,
      "poĠ": 2510,
      "ĠshouĠ": 2511,
      "jinĠxingĠ": 2512,
      "rongĠ": 2513,
      "ĠhaoĠ": 2514,
      "ĠsuiĠ": 2515,
      "liaoĠ": 2516,
      "meiĠyouĠ": 2517,
      "diaoĠ": 2518,
      "tuoĠ": 2519,
      "songĠ": 2520,
      "ouĠ": 2521,
      "ĠmiĠ": 2522,
      "ĠliĠdeĠ": 2523,
      "ĠliĠshiĠ": 2524,
      "nianĠ": 2525,
      "Ġdang": 2526,
      "ĠweiĠyuanĠ": 2527,
      "ĠfenĠ": 2528,
      "ĠwanĠ": 2529,
      "peiĠ": 2530,
      "ĠqiĠzhongĠ": 2531,
      "zuoĠweiĠ": 2532,
      "gongĠsiĠ": 2533,
      "faĠguoĠ": 2534,
      "biaoĠshiĠ": 2535,
      "ĠĠĠzaiĠ": 2536,
      "yanĠjiuĠ": 2537,
      "Ġer": 2538,
      "ĠshangĠ": 2539,
      "zhengĠshiĠ": 2540,
      "ĠhaiĠ": 2541,
      "Ġyin": 2542,
      "ĠdeĠjiĠ": 2543,
      "panĠ": 2544,
      "tuiĠ": 2545,
      "ĠmeiĠ": 2546,
      "ĠxinĠ": 2547,
      "Ġzhe": 2548,
      "dianĠshiĠ": 2549,
      "yunĠdongĠ": 2550,
      "queĠ": 2551,
      "bangĠ": 2552,
      "qieĠ": 2553,
      "ĠtaiĠ": 2554,
      "ĠdeĠdiĠ": 2555,
      "chengĠshiĠ": 2556,
      "zhiĠshiĠ": 2557,
      "ĠshuĠ": 2558,
      "ĠjiangĠ": 2559,
      "ĠjingĠ": 2560,
      "jianĠdeĠ": 2561,
      "3Ġ": 2562,
      "taĠdeĠ": 2563,
      "gongĠheĠ": 2564,
      "shuĠyuĠ": 2565,
      "sheĠjiĠ": 2566,
      "ĠqianĠ": 2567,
      "langĠ": 2568,
      "ĠrenĠminĠ": 2569,
      "dunĠ": 2570,
      "ĠrenĠkouĠ": 2571,
      "zhiĠdeĠ": 2572,
      "qiaoĠ": 2573,
      "10ĠyueĠ": 2574,
      "12ĠyueĠ": 2575,
      "ĠdeĠzhiĠ": 2576,
      "ĠyingĠ": 2577,
      "jingĠjiĠ": 2578,
      "dianĠyingĠ": 2579,
      "7ĠyueĠ": 2580,
      "ĠxiaĠ": 2581,
      "ĠnanĠ": 2582,
      "zuĠzhiĠ": 2583,
      "ĠmuĠ": 2584,
      "9ĠyueĠ": 2585,
      "ĠzhangĠ": 2586,
      "8ĠyueĠ": 2587,
      "zhuĠyiĠ": 2588,
      "3ĠyueĠ": 2589,
      "ĠzuiĠ": 2590,
      "1ĠyueĠ": 2591,
      "maoĠ": 2592,
      "ĠshiĠqiĠ": 2593,
      "daiĠbiaoĠ": 2594,
      "waĠ": 2595,
      "riĠbenĠ": 2596,
      "yingĠguoĠ": 2597,
      "5ĠyueĠ": 2598,
      "youĠyiĠ": 2599,
      "jiĠshiĠ": 2600,
      "kaoĠ": 2601,
      "6ĠyueĠ": 2602,
      "guoĠdeĠ": 2603,
      "kanĠ": 2604,
      "4ĠyueĠ": 2605,
      "ĠhuiĠ": 2606,
      "ĠshiĠzhenĠ": 2607,
      "reĠ": 2608,
      "henĠ": 2609,
      "maiĠ": 2610,
      "xianĠdeĠ": 2611,
      "ĠbiĠ": 2612,
      "weiĠyiĠ": 2613,
      "11ĠyueĠ": 2614,
      "cheĠzhanĠ": 2615,
      "jiaoĠyuĠ": 2616,
      "ĠtongĠ": 2617,
      "genĠjuĠ": 2618,
      "buĠfenĠ": 2619,
      "yiĠdeĠ": 2620,
      "daĠxueĠ": 2621,
      "yuĠshiĠ": 2622,
      "xiangĠgangĠ": 2623,
      "mingĠweiĠ": 2624,
      "xueĠyuanĠ": 2625,
      "ĠdeĠguoĠ": 2626,
      "ĠyiĠyuanĠ": 2627,
      "4Ġ": 2628,
      "liĠshiĠ": 2629,
      "ĠdeĠyiĠgeĠ": 2630,
      "ĠzhiĠhouĠ": 2631,
      "ĠruĠ": 2632,
      "ĠdengĠ": 2633,
      "danĠrenĠ": 2634,
      "ĠnianĠ1ĠyueĠ": 2635,
      "genĠ": 2636,
      "canĠjiaĠ": 2637,
      "ĠyiĠweiĠ": 2638,
      "caoĠ": 2639,
      "kangĠ": 2640,
      "5Ġ": 2641,
      "sheĠhuiĠ": 2642,
      "ĠtiĠ": 2643,
      "xianĠshiĠ": 2644,
      "ĠdiĠquĠ": 2645,
      "ĠqingĠ": 2646,
      "saĠ": 2647,
      "yingĠxiangĠ": 2648,
      "taiĠwanĠ": 2649,
      "shuĠdeĠ": 2650,
      "Ġran": 2651,
      "ĠyanĠ": 2652,
      "ĠyouĠyuĠ": 2653,
      "shangĠdeĠ": 2654,
      "xingĠshiĠ": 2655,
      "yeĠshiĠ": 2656,
      "ĠxueĠ": 2657,
      "qiĠshiĠ": 2658,
      "ĠyinĠciĠ": 2659,
      "formulaĠ": 2660,
      "bieĠ": 2661,
      "guanĠliĠ": 2662,
      "laoĠ": 2663,
      "zengĠ": 2664,
      "gongĠzuoĠ": 2665,
      "tongĠguoĠ": 2666,
      "leĠyiĠ": 2667,
      "ĠnianĠ12ĠyueĠ": 2668,
      "ĠxiaoĠ": 2669,
      "ĠlingĠ": 2670,
      "xingĠzhengĠ": 2671,
      "buĠdeĠ": 2672,
      "gongĠheĠguoĠ": 2673,
      "weiĠshiĠ": 2674,
      "ĠliĠyaĠ": 2675,
      "ĠnianĠdeĠ": 2676,
      "erĠshiĠ": 2677,
      "renĠdeĠ": 2678,
      "zhunĠ": 2679,
      "ziĠjiĠ": 2680,
      "daĠdeĠ": 2681,
      "2ĠyueĠ": 2682,
      "xiongĠ": 2683,
      "ĠguoĠjiaĠ": 2684,
      "ĠliangĠ": 2685,
      "zuiĠzhongĠ": 2686,
      "ĠnianĠ3ĠyueĠ": 2687,
      "huiĠyiĠ": 2688,
      "kuangĠ": 2689,
      "ĠĠĠshengĠ": 2690,
      "chengĠliĠ": 2691,
      "nongĠ": 2692,
      "ĠpingĠfangĠgongĠliĠ": 2693,
      "luoĠsiĠ": 2694,
      "kuĠ": 2695,
      "ĠnianĠ7ĠyueĠ": 2696,
      "ĠjiaoĠ": 2697,
      "ĠnianĠ10ĠyueĠ": 2698,
      "faĠxianĠ": 2699,
      "ĠwangĠ": 2700,
      "chuĠdeĠ": 2701,
      "miaoĠ": 2702,
      "ĠzhanĠ": 2703,
      "haĠ": 2704,
      "qiĠdeĠ": 2705,
      "ĠbaoĠkuoĠ": 2706,
      "faĠzhanĠ": 2707,
      "ĠnianĠ9ĠyueĠ": 2708,
      "ĠtianĠ": 2709,
      "yuanĠdeĠ": 2710,
      "ĠshiĠyouĠ": 2711,
      "ĠshiĠzhiĠ": 2712,
      "qiĠtaĠ": 2713,
      "heiĠ": 2714,
      "ĠnianĠ5ĠyueĠ": 2715,
      "ĠqiĠjianĠ": 2716,
      "piaoĠ": 2717,
      "suoĠyouĠ": 2718,
      "kuaiĠ": 2719,
      "siĠdeĠ": 2720,
      "ĠboĠ": 2721,
      "ĠnianĠ4ĠyueĠ": 2722,
      "ĠnianĠ6ĠyueĠ": 2723,
      "ĠnianĠ8ĠyueĠ": 2724,
      "youĠyuĠ": 2725,
      "ĠluoĠ": 2726,
      "tieĠluĠ": 2727,
      "ĠdaĠxueĠ": 2728,
      "quanĠguoĠ": 2729,
      "ĠshiĠzaiĠ": 2730,
      "6Ġ": 2731,
      "daoĠzhiĠ": 2732,
      "daoĠdeĠ": 2733,
      "tongĠdeĠ": 2734,
      "zhuĠyaoĠ": 2735,
      "chengĠdeĠ": 2736,
      "canĠyuĠ": 2737,
      "louĠ": 2738,
      "ĠmaĠ": 2739,
      "ĠzhengĠ": 2740,
      "wenĠhuaĠ": 2741,
      "shuangĠ": 2742,
      "nuoĠ": 2743,
      "ĠhuaĠ": 2744,
      "diĠliĠ": 2745,
      "ĠduiĠ": 2746,
      "ĠtaĠmenĠ": 2747,
      "ĠluĠ": 2748,
      "zhongĠyiĠ": 2749,
      "lianĠheĠ": 2750,
      "diĠdeĠ": 2751,
      "ĠzhiĠdaoĠ": 2752,
      "ĠdangĠ": 2753,
      "ĠguĠ": 2754,
      "ĠnianĠ11ĠyueĠ": 2755,
      "ĠtongĠshiĠ": 2756,
      "ĠshenĠ": 2757,
      "baoĠkuoĠ": 2758,
      "buĠshiĠ": 2759,
      "ĠzhongĠxinĠ": 2760,
      "ĠĠĠshiĠ": 2761,
      "yinĠyueĠ": 2762,
      "beiĠbuĠ": 2763,
      "ĠjiuĠ": 2764,
      "shuĠjiĠ": 2765,
      "yongĠyuĠ": 2766,
      "senĠ": 2767,
      "ĠĠĠyiĠ": 2768,
      "tiĠgongĠ": 2769,
      "ĠquanĠ": 2770,
      "ĠzongĠ": 2771,
      "zaiĠyiĠ": 2772,
      "xuanĠbuĠ": 2773,
      "guoĠjiaĠ": 2774,
      "ĠweiĠyuanĠhuiĠ": 2775,
      "zuĠqiuĠ": 2776,
      "Ġsui": 2777,
      "wenĠtiĠ": 2778,
      "ĠzuoĠ": 2779,
      "ĠnianĠzhiĠ": 2780,
      "kuanĠ": 2781,
      "ĠyinĠweiĠ": 2782,
      "xueĠxiaoĠ": 2783,
      "shengĠyuĠ": 2784,
      "ĠshiĠwuĠ": 2785,
      "jianĠyuĠ": 2786,
      "ziĠyouĠ": 2787,
      "qianĠmiĠ": 2788,
      "gongĠyouĠ": 2789,
      "guanĠxiĠ": 2790,
      "fangĠshiĠ": 2791,
      "ĠweiĠzhiĠ": 2792,
      "ĠshiĠzhongĠ": 2793,
      "hunĠ": 2794,
      "ĠnianĠ2ĠyueĠ": 2795,
      "ĠxuĠ": 2796,
      "enĠ": 2797,
      "biĠsaiĠ": 2798,
      "huaĠrenĠminĠ": 2799,
      "yingĠdeĠ": 2800,
      "rangĠ": 2801,
      "chengĠyuanĠ": 2802,
      "jianĠzhuĠ": 2803,
      "huoĠdongĠ": 2804,
      "jianĠliĠ": 2805,
      "Ġgai": 2806,
      "hengĠ": 2807,
      "suanĠ": 2808,
      "yuĠyiĠ": 2809,
      "ĠĠĠliĠshiĠ": 2810,
      "jiĠyiĠ": 2811,
      "fenĠweiĠ": 2812,
      "ĠdeĠrenĠ": 2813,
      "sheĠyouĠ": 2814,
      "renĠshiĠ": 2815,
      "zuoĠpinĠ": 2816,
      "ĠchangĠ": 2817,
      "ĠdianĠ": 2818,
      "tongĠshiĠ": 2819,
      "guanĠjunĠ": 2820,
      "ĠbenĠ": 2821,
      "daĠliĠ": 2822,
      "geĠrenĠ": 2823,
      "ĠchengĠweiĠ": 2824,
      "ĠĠĠshengĠpingĠ": 2825,
      "Ġjie": 2826,
      "Ġxian": 2827,
      "ĠanĠ": 2828,
      "zhuanĠjiĠ": 2829,
      "yuĠdeĠ": 2830,
      "ĠdiĠerĠ": 2831,
      "beiĠjingĠ": 2832,
      "ĠjiĠhuaĠ": 2833,
      "ĠyouĠxiĠ": 2834,
      "jiuĠshiĠ": 2835,
      "xiaoĠshiĠ": 2836,
      "ĠliuĠ": 2837,
      "huaĠrenĠminĠgongĠheĠguoĠ": 2838,
      "yinĠweiĠ": 2839,
      "geiĠ": 2840,
      "ĠtaĠdeĠ": 2841,
      "menĠdeĠ": 2842,
      "ĠliĠyuĠ": 2843,
      "qunĠ": 2844,
      "ĠnianĠdaiĠ": 2845,
      "ĠbaĠ": 2846,
      "duiĠyuĠ": 2847,
      "xiĠdeĠ": 2848,
      "mingĠdeĠ": 2849,
      "ĠaĠ": 2850,
      "junĠshiĠ": 2851,
      "ĠcongĠ": 2852,
      "diĠshiĠ": 2853,
      "tongĠyiĠ": 2854,
      "diĠerĠ": 2855,
      "xinĠdeĠ": 2856,
      "quĠyuĠ": 2857,
      "ĠbuĠfenĠ": 2858,
      "xueĠjiaĠ": 2859,
      "eĠluoĠsiĠ": 2860,
      "zouĠ": 2861,
      "taĠmenĠ": 2862,
      "ĠduoĠ": 2863,
      "chunĠ": 2864,
      "weiĠdeĠ": 2865,
      "shouĠdaoĠ": 2866,
      "minĠguoĠ": 2867,
      "houĠdeĠ": 2868,
      "erĠdeĠ": 2869,
      "shengĠdeĠ": 2870,
      "laiĠdeĠ": 2871,
      "fangĠmianĠ": 2872,
      "faĠshengĠ": 2873,
      "zhengĠfu": 2874,
      "gongĠjiĠ": 2875,
      "danĠweiĠ": 2876,
      "ĠfengĠ": 2877,
      "ĠhuĠ": 2878,
      "xingĠweiĠ": 2879,
      "ĠshiĠrenĠ": 2880,
      "ĠyiĠjingĠ": 2881,
      "yongĠyouĠ": 2882,
      "ĠfanĠ": 2883,
      "zhongĠshiĠ": 2884,
      "jinĠshiĠ": 2885,
      "ĠlianĠ": 2886,
      "ĠxiĠtongĠ": 2887,
      "jueĠdingĠ": 2888,
      "buĠyuĠ": 2889,
      "ĠgongĠliĠ": 2890,
      "ĠquĠ": 2891,
      "ĠzhongĠyangĠ": 2892,
      "juĠyouĠ": 2893,
      "ĠmianĠjiĠ": 2894,
      "1ĠriĠ": 2895,
      "tongĠzhiĠ": 2896,
      "diĠquĠ": 2897,
      "niĠyaĠ": 2898,
      "liangĠgeĠ": 2899,
      "ĠguanĠ": 2900,
      "faĠxingĠ": 2901,
      "quĠweiĠ": 2902,
      "ĠriĠbenĠ": 2903,
      "ĠgaoĠ": 2904,
      "ĠfeiĠ": 2905,
      "ĠwenĠ": 2906,
      "youĠdeĠ": 2907,
      "chuĠxianĠ": 2908,
      "ĠteĠ": 2909,
      "shengĠjiĠ": 2910,
      "ĠsuoĠ": 2911,
      "zhĠ": 2912,
      "huaĠdeĠ": 2913,
      "ĠrenĠkouĠmiĠ": 2914,
      "ciĠshiĠ": 2915,
      "qiĠyuĠ": 2916,
      "ziĠzhiĠ": 2917,
      "wuĠdeĠ": 2918,
      "laiĠziĠ": 2919,
      "juĠxingĠ": 2920,
      "ĠtaĠzaiĠ": 2921,
      "lingĠyiĠ": 2922,
      "jiaĠdeĠ": 2923,
      "ĠjiĠyuĠ": 2924,
      "xianĠzhiĠ": 2925,
      "Ġsuo": 2926,
      "ĠweiĠjiĠ": 2927,
      "mianĠjiĠweiĠ": 2928,
      "ĠsuĠ": 2929,
      "huiĠdeĠ": 2930,
      "sĠ": 2931,
      "baoĠhuĠ": 2932,
      "ĠsanĠ": 2933,
      "nanĠbuĠ": 2934,
      "duĠliĠ": 2935,
      "ĠpingĠfangĠqianĠmiĠ": 2936,
      "shuĠjuĠ": 2937,
      "kongĠzhiĠ": 2938,
      "ĠshiĠyuĠ": 2939,
      "zongĠtongĠ": 2940,
      "jinĠruĠ": 2941,
      "ĠshiĠweiĠyuĠ": 2942,
      "ĠliĠruĠ": 2943,
      "renĠwuĠ": 2944,
      "quĠshiĠ": 2945,
      "keĠliĠ": 2946,
      "yaoĠqiuĠ": 2947,
      "mouĠ": 2948,
      "ĠĠĠdeĠ": 2949,
      "Ġ15": 2950,
      "ĠwoĠ": 2951,
      "ĠmeiĠguoĠ": 2952,
      "gtĠ": 2953,
      "ĠgtĠ": 2954,
      "guĠshiĠ": 2955,
      "chengĠjiĠ": 2956,
      "ĠranĠerĠ": 2957,
      "ĠguangĠ": 2958,
      "ltĠ": 2959,
      "Ġru": 2960,
      "xueĠshengĠ": 2961,
      "ĠbianĠ": 2962,
      "ĠĠĠyuĠ": 2963,
      "Ġwan": 2964,
      "jinĠdeĠ": 2965,
      "ĠdanĠshiĠ": 2966,
      "minĠzhuĠ": 2967,
      "ĠcaiĠ": 2968,
      "gongĠshiĠ": 2969,
      "wanĠchengĠ": 2970,
      "ĠyiĠqiĠ": 2971,
      "lieĠcheĠ": 2972,
      "youĠjiĠ": 2973,
      "keĠnengĠ": 2974,
      "ĠltĠ": 2975,
      "ĠyiĠbuĠ": 2976,
      "shenĠzhiĠ": 2977,
      "ĠbingĠyuĠ": 2978,
      "zhaĠ": 2979,
      "renĠzhiĠ": 2980,
      "pingĠfangĠ": 2981,
      "youĠshiĠ": 2982,
      "ĠyongĠ": 2983,
      "ĠbingĠzaiĠ": 2984,
      "ĠjiĠshuĠ": 2985,
      "chaoĠguoĠ": 2986,
      "tiĠyuĠ": 2987,
      "yuanĠshiĠ": 2988,
      "cangĠ": 2989,
      "cunĠzaiĠ": 2990,
      "qianĠwangĠ": 2991,
      "keĠdeĠ": 2992,
      "yaĠliĠ": 2993,
      "dangĠshiĠ": 2994,
      "siĠshiĠ": 2995,
      "xueĠxiĠ": 2996,
      "yongĠdeĠ": 2997,
      "ĠdeĠyiĠge": 2998,
      "jingĠguoĠ": 2999,
      "Ġceng": 3000,
      "ĠkaiĠ": 3001,
      "neiĠdeĠ": 3002,
      "faĠbuĠ": 3003,
      "ĠshanĠ": 3004,
      "zuoĠdeĠ": 3005,
      "ĠzhiĠweiĠ": 3006,
      "jianĠyiĠ": 3007,
      "ĠhanĠ": 3008,
      "guanĠyuĠ": 3009,
      "Ġa": 3010,
      "ĠĠĠdiĠ": 3011,
      "wuĠkeĠ": 3012,
      "wuĠshiĠ": 3013,
      "xiangĠgang": 3014,
      "zhuĠrenĠ": 3015,
      "ĠzhiĠjianĠ": 3016,
      "Ġ16": 3017,
      "yinĠduĠ": 3018,
      "ĠpuĠ": 3019,
      "zhanĠshiĠ": 3020,
      "zhanĠzhengĠ": 3021,
      "ĠqiĠtaĠ": 3022,
      "guoĠshiĠ": 3023,
      "sunĠ": 3024,
      "paoĠ": 3025,
      "zhuĠyao": 3026,
      "shengĠhuoĠ": 3027,
      "zhouĠdeĠ": 3028,
      "xuĠduoĠ": 3029,
      "jianĠzhiĠ": 3030,
      "ĠjiĠweiĠ": 3031,
      "fanĠweiĠ": 3032,
      "binĠ": 3033,
      "ĠyiĠshuĠ": 3034,
      "ĠjiĠqiĠ": 3035,
      "ĠweiĠerĠ": 3036,
      "chengĠgongĠ": 3037,
      "hanĠguoĠ": 3038,
      "ouĠzhouĠ": 3039,
      "zhuĠxiĠ": 3040,
      "luĠdeĠ": 3041,
      "jieĠshouĠ": 3042,
      "qiuĠduiĠ": 3043,
      "ĠzhiĠyouĠ": 3044,
      "ĠshuĠyuĠ": 3045,
      "Ġzai": 3046,
      "daiĠbiao": 3047,
      "ĠjiĠzhongĠ": 3048,
      "Ġjin": 3049,
      "fuĠwuĠ": 3050,
      "zengĠjiaĠ": 3051,
      "ĠbuĠguoĠ": 3052,
      "banĠdeĠ": 3053,
      "sĠĠĠ": 3054,
      "ĠbaiĠ": 3055,
      "gongĠyuanĠ": 3056,
      "ĠyouĠxianĠ": 3057,
      "ĠmoĠ": 3058,
      "Ġ000": 3059,
      "xiaoĠxingĠ": 3060,
      "xiaĠdeĠ": 3061,
      "ĠĠĠgaiĠ": 3062,
      "ĠzheĠxieĠ": 3063,
      "ĠzhiĠchuĠ": 3064,
      "heĠyiĠ": 3065,
      "shangĠhaiĠ": 3066,
      "duoĠdeĠ": 3067,
      "ĠaoĠ": 3068,
      "houĠyiĠ": 3069,
      "sanĠshiĠ": 3070,
      "ĠĠĠzhiĠ": 3071,
      "ningĠ": 3072,
      "ĠciĠwaiĠ": 3073,
      "fuĠdeĠ": 3074,
      "juĠliĠ": 3075,
      "huaiĠ": 3076,
      "siĠjiĠ": 3077,
      "zuĠchengĠ": 3078,
      "ĠgenĠjuĠ": 3079,
      "Ġba": 3080,
      "yunĠdongĠyuanĠ": 3081,
      "jiaoĠtongĠ": 3082,
      "ĠzhiĠzuoĠ": 3083,
      "ĠzhiĠchiĠ": 3084,
      "maĠweiĠ": 3085,
      "gaoĠduĠ": 3086,
      "7Ġ": 3087,
      "changĠdeĠ": 3088,
      "ĠnianĠqiĠ": 3089,
      "zhuĠjiaoĠ": 3090,
      "ĠzhĠ": 3091,
      "zheĠxieĠ": 3092,
      "niuĠ": 3093,
      "geĠzhongĠ": 3094,
      "ĠcengĠ": 3095,
      "ĠzhiĠwuĠ": 3096,
      "xuĠyaoĠ": 3097,
      "ĠzaiĠciĠ": 3098,
      "jueĠseĠ": 3099,
      "chongĠxinĠ": 3100,
      "chuĠleĠ": 3101,
      "tiĠdeĠ": 3102,
      "tuiĠchuĠ": 3103,
      "ĠliĠjiĠ": 3104,
      "zheĠgeĠ": 3105,
      "jingĠliĠ": 3106,
      "Ġ17": 3107,
      "xiangĠdeĠ": 3108,
      "ĠzuiĠzhongĠ": 3109,
      "gongĠchengĠ": 3110,
      "ĠdangĠshiĠ": 3111,
      "qiĠyiĠ": 3112,
      "daĠshiĠ": 3113,
      "chuĠyuĠ": 3114,
      "ĠrenĠheĠ": 3115,
      "Ġai": 3116,
      "ĠsheĠ": 3117,
      "wuĠzhongĠ": 3118,
      "duĠweiĠ": 3119,
      "renĠminĠ": 3120,
      "ziĠdeĠ": 3121,
      "ĠduĠ": 3122,
      "xuanĠjuĠ": 3123,
      "lianĠsaiĠ": 3124,
      "ĠĠĠdiĠliĠ": 3125,
      "ziĠjiĠdeĠ": 3126,
      "Ġye": 3127,
      "ĠweiĠleĠ": 3128,
      "ĠrenĠwuĠ": 3129,
      "geĠquĠ": 3130,
      "Ġhuo": 3131,
      "ĠnianĠjianĠ": 3132,
      "dangĠdiĠ": 3133,
      "kaiĠfaĠ": 3134,
      "ĠlaiĠ": 3135,
      "fuĠzeĠ": 3136,
      "ĠĠĠweiĠ": 3137,
      "ĠweiĠqiĠ": 3138,
      "gongĠchanĠ": 3139,
      "xianĠzaiĠ": 3140,
      "ĠzhiĠyuĠ": 3141,
      "ĠrenĠyuanĠ": 3142,
      "Ġma": 3143,
      "zheĠyiĠ": 3144,
      "liangĠweiĠ": 3145,
      "jieĠshuĠ": 3146,
      "yaĠdeĠ": 3147,
      "chuĠliĠ": 3148,
      "jieĠmuĠ": 3149,
      "ĠleiĠ": 3150,
      "guanĠdeĠ": 3151,
      "ĠbanĠ": 3152,
      "nvĠziĠ": 3153,
      "saiĠshiĠ": 3154,
      "2010ĠnianĠ": 3155,
      "dingĠdeĠ": 3156,
      "ruiĠ": 3157,
      "duiĠdeĠ": 3158,
      "riĠben": 3159,
      "ĠhouĠlaiĠ": 3160,
      "fanĠyingĠ": 3161,
      "chuĠbanĠ": 3162,
      "jieĠdeĠ": 3163,
      "chanĠshengĠ": 3164,
      "juanĠ": 3165,
      "shouĠciĠ": 3166,
      "sheĠshiĠ": 3167,
      "leiĠsiĠ": 3168,
      "ĠshiĠyiĠgeĠ": 3169,
      "ĠyangĠ": 3170,
      "dongĠwuĠ": 3171,
      "baĠshiĠ": 3172,
      "ĠC": 3173,
      "jingĠshiĠ": 3174,
      "ĠjiĠxuĠ": 3175,
      "ĠnaĠ": 3176,
      "leĠbuĠ": 3177,
      "jieĠshiĠ": 3178,
      "8Ġ": 3179,
      "xiangĠshiĠ": 3180,
      "ruoĠ": 3181,
      "boĠshiĠ": 3182,
      "keĠneng": 3183,
      "ĠdaiĠ": 3184,
      "anĠdeĠ": 3185,
      "nanĠziĠ": 3186,
      "ĠA": 3187,
      "Ġjiang": 3188,
      "duĠdeĠ": 3189,
      "guanĠxiaĠ": 3190,
      "sanĠnianĠ": 3191,
      "ĠaiĠ": 3192,
      "zaoĠchengĠ": 3193,
      "Ġmei": 3194,
      "haiĠshiĠ": 3195,
      "yangĠdeĠ": 3196,
      "dongĠshiĠ": 3197,
      "sheĠliĠ": 3198,
      "Ġ1Ġ": 3199,
      "zhongĠzhiĠ": 3200,
      "yanĠjiu": 3201,
      "daoĠleĠ": 3202,
      "shanĠxiĠ": 3203,
      "Ġ0": 3204,
      "guoĠyiĠ": 3205,
      "ĠzhenĠ": 3206,
      "ĠyaĠ": 3207,
      "ĠsuoĠyiĠ": 3208,
      "ĠjiĠzhiĠ": 3209,
      "zhongĠyuĠ": 3210,
      "fenĠbuĠ": 3211,
      "nvĠxingĠ": 3212,
      "ĠheĠzuoĠ": 3213,
      "douĠshiĠ": 3214,
      "junĠdeĠ": 3215,
      "ĠĠĠqiĠ": 3216,
      "guoĠyuĠ": 3217,
      "dongĠdeĠ": 3218,
      "daiĠdeĠ": 3219,
      "lianĠmengĠ": 3220,
      "zhengĠdeĠ": 3221,
      "fangĠfaĠ": 3222,
      "ĠzhiĠzhiĠ": 3223,
      "2020ĠnianĠ": 3224,
      "ĠyiĠsiĠ": 3225,
      "wuĠliĠ": 3226,
      "xiangĠmuĠ": 3227,
      "jiaoĠshouĠ": 3228,
      "fangĠdeĠ": 3229,
      "meiĠpingĠfangĠ": 3230,
      "zhengĠzhiĠrenĠwuĠ": 3231,
      "caiĠyongĠ": 3232,
      "diĠweiĠ": 3233,
      "ĠtuĠ": 3234,
      "Ġcong": 3235,
      "liangĠdeĠ": 3236,
      "ĠzaiĠdiĠ": 3237,
      "ĠxuanĠ": 3238,
      "ĠĠĠrenĠkouĠ": 3239,
      "chuanĠtongĠ": 3240,
      "yuanĠyuĠ": 3241,
      "zhanĠdeĠ": 3242,
      "zhuĠdeĠ": 3243,
      "ĠĠĠyouĠ": 3244,
      "huaĠminĠguoĠ": 3245,
      "xiĠtongĠ": 3246,
      "chengĠrenĠ": 3247,
      "ĠzeĠ": 3248,
      "ĠriĠzaiĠ": 3249,
      "ĠguiĠ": 3250,
      "jiaĠruĠ": 3251,
      "faĠdeĠ": 3252,
      "2001ĠnianĠ": 3253,
      "geĠshiĠ": 3254,
      "ĠnianĠyiĠ": 3255,
      "xinĠwenĠ": 3256,
      "ĠranĠ": 3257,
      "yanĠyuanĠ": 3258,
      "haoĠdeĠ": 3259,
      "ĠliĠsiĠ": 3260,
      "ĠĠĠjiĠ": 3261,
      "ĠjiĠjiĠ": 3262,
      "fuĠshiĠ": 3263,
      "Ġbei": 3264,
      "ĠyiĠhuiĠ": 3265,
      "xiangĠguanĠ": 3266,
      "yingĠyuĠ": 3267,
      "daoĠshiĠ": 3268,
      "bianĠmaĠweiĠ": 3269,
      "taiĠwan": 3270,
      "heĠshiĠ": 3271,
      "ĠjiĠluĠ": 3272,
      "boĠwuĠ": 3273,
      "xueĠdeĠ": 3274,
      "houĠzaiĠ": 3275,
      "ĠweiĠfuĠ": 3276,
      "ĠtaĠmen": 3277,
      "lianĠjieĠ": 3278,
      "ĠdeĠyiĠgeĠshiĠzhenĠ": 3279,
      "baoĠkuo": 3280,
      "ĠyiĠyiĠ": 3281,
      "10Ġ": 3282,
      "ĠxueĠmingĠ": 3283,
      "xiĠjiĠ": 3284,
      "zuiĠjiaĠ": 3285,
      "mingĠchengĠ": 3286,
      "ĠxiĠyaĠ": 3287,
      "tiĠchuĠ": 3288,
      "muĠsiĠ": 3289,
      "ĠxieĠ": 3290,
      "lingĠshiĠ": 3291,
      "ĠzheĠshiĠ": 3292,
      "erĠnianĠ": 3293,
      "xiaoĠdeĠ": 3294,
      "haiĠyouĠ": 3295,
      "mianĠdeĠ": 3296,
      "ĠweiĠzhuĠ": 3297,
      "ĠrenĠkouĠmiĠduĠ": 3298,
      "Ġzong": 3299,
      "ĠliĠyiĠ": 3300,
      "geĠdeĠ": 3301,
      "ĠzhiĠjieĠ": 3302,
      "ĠlaĠ": 3303,
      "zuiĠgaoĠ": 3304,
      "dongĠjiĠ": 3305,
      "ĠzhouĠ": 3306,
      "ĠĠĠjiaĠ": 3307,
      "ĠyeĠshiĠ": 3308,
      "ĠshiĠyiĠzhongĠ": 3309,
      "yanĠdeĠ": 3310,
      "xiaĠjiĠ": 3311,
      "ĠyuĠshiĠ": 3312,
      "geĠmingĠ": 3313,
      "Ġci": 3314,
      "yeĠyuĠ": 3315,
      "ĠgongĠsiĠ": 3316,
      "ĠfangĠ": 3317,
      "ĠnianĠzaiĠ": 3318,
      "yaoĠdeĠ": 3319,
      "ĠqiuĠ": 3320,
      "gaiĠweiĠ": 3321,
      "ĠyiĠxieĠ": 3322,
      "zaiĠdeĠ": 3323,
      "shuĠshiĠ": 3324,
      "haiĠjunĠ": 3325,
      "ĠjunĠ": 3326,
      "ĠkaĠ": 3327,
      "jiaĠzhiĠ": 3328,
      "ĠS": 3329,
      "shengĠwuĠ": 3330,
      "zheĠzhongĠ": 3331,
      "changĠshiĠ": 3332,
      "Ġliang": 3333,
      "huiĠshiĠ": 3334,
      "yanĠzhongĠ": 3335,
      "gaiĠguoĠ": 3336,
      "naĠdaĠ": 3337,
      "zhuĠshiĠ": 3338,
      "qingĠkuang": 3339,
      "zhengĠyiĠ": 3340,
      "zhaiĠ": 3341,
      "bianĠdeĠ": 3342,
      "keĠjiĠ": 3343,
      "ĠzuoĠweiĠ": 3344,
      "huiĠfuĠ": 3345,
      "ĠzhiĠqianĠ": 3346,
      "meiĠtiĠ": 3347,
      "zaiĠyuĠ": 3348,
      "luanĠ": 3349,
      "xinĠxiĠ": 3350,
      "ĠyiĠzhongĠ": 3351,
      "gaoĠdeĠ": 3352,
      "wenĠwuĠ": 3353,
      "jieĠguoĠ": 3354,
      "jianĠshiĠ": 3355,
      "qiĠzhiĠ": 3356,
      "ĠjiĠzaiĠ": 3357,
      "Ġ18": 3358,
      "minĠzuĠ": 3359,
      "shuiĠyuĠ": 3360,
      "qianĠdeĠ": 3361,
      "heĠdeĠ": 3362,
      "yanĠchangĠ": 3363,
      "ĠniĠ": 3364,
      "chouĠ": 3365,
      "zhuĠjianĠ": 3366,
      "fanĠduiĠ": 3367,
      "Ġ2Ġ": 3368,
      "nengĠliĠ": 3369,
      "ĠweiĠyouĠ": 3370,
      "ĠkeĠsiĠ": 3371,
      "ĠĠĠS": 3372,
      "ĠĠĠxingĠzhengĠ": 3373,
      "ĠkeĠyiĠ": 3374,
      "geĠliĠ": 3375,
      "gongĠkaiĠ": 3376,
      "huaĠshiĠ": 3377,
      "ĠbuĠtongĠ": 3378,
      "xingĠzhiĠ": 3379,
      "Ġmi": 3380,
      "siĠyuĠ": 3381,
      "leiĠdeĠ": 3382,
      "ĠzhuĠyaoĠ": 3383,
      "ĠchongĠ": 3384,
      "beiĠshiĠ": 3385,
      "huanĠjingĠ": 3386,
      "jieĠgouĠ": 3387,
      "jiangĠjunĠ": 3388,
      "zhangĠdeĠ": 3389,
      "pengĠ": 3390,
      "ĠxiangĠgangĠ": 3391,
      "chuangĠzuoĠ": 3392,
      "xianĠyuĠ": 3393,
      "shangĠyeĠ": 3394,
      "ĠĠĠbenĠ": 3395,
      "zanĠ": 3396,
      "ĠĠĠformulaĠ": 3397,
      "Ġ14": 3398,
      "gaoĠsuĠ": 3399,
      "ĠzheĠgeĠ": 3400,
      "saiĠjiĠ": 3401,
      "moĠshiĠ": 3402,
      "aĠerĠ": 3403,
      "ĠdiĠyiĠ": 3404,
      "zheĠdeĠ": 3405,
      "biaoĠxianĠ": 3406,
      "ĠzhongĠhuaĠrenĠminĠgongĠheĠguoĠ": 3407,
      "tongĠjiĠ": 3408,
      "ĠhongĠ": 3409,
      "Ġling": 3410,
      "junĠduiĠ": 3411,
      "ofĠĠĠ": 3412,
      "ĠliĠweiĠ": 3413,
      "daĠluĠ": 3414,
      "ĠchenĠ": 3415,
      "zhuĠliĠ": 3416,
      "shengĠyaĠ": 3417,
      "geĠyueĠ": 3418,
      "ĠyunĠ": 3419,
      "shengĠliĠ": 3420,
      "theĠĠĠ": 3421,
      "quanĠliĠ": 3422,
      "wuĠfaĠ": 3423,
      "ĠtangĠ": 3424,
      "dongĠbuĠ": 3425,
      "zhouĠshiĠ": 3426,
      "zongĠjiaoĠ": 3427,
      "geĠlanĠ": 3428,
      "ĠnianĠshiĠ": 3429,
      "diaoĠchaĠ": 3430,
      "siĠnianĠ": 3431,
      "touĠguoĠ": 3432,
      "ĠyiĠbanĠ": 3433,
      "buĠfen": 3434,
      "biaoĠzhunĠ": 3435,
      "ĠĠĠgenĠjuĠ": 3436,
      "hangĠkongĠ": 3437,
      "biĠyeĠ": 3438,
      "huiĠzaiĠ": 3439,
      "ĠĠĠciĠ": 3440,
      "ĠyiĠciĠ": 3441,
      "ĠdangĠdiĠ": 3442,
      "shenĠfenĠ": 3443,
      "ĠyaoĠ": 3444,
      "diĠzhiĠ": 3445,
      "gongĠluĠ": 3446,
      "faĠyuanĠ": 3447,
      "Ġ1": 3448,
      "ĠneiĠ": 3449,
      "ĠdeĠyiĠbuĠfenĠ": 3450,
      "buĠyiĠ": 3451,
      "diĠyuĠ": 3452,
      "jiaĠliĠ": 3453,
      "gongĠzuo": 3454,
      "jinĠjiĠ": 3455,
      "chengĠzhongĠ": 3456,
      "bingĠbuĠ": 3457,
      "saiĠdeĠ": 3458,
      "ĠtaiĠwanĠ": 3459,
      "Ġ9": 3460,
      "quanĠbuĠ": 3461,
      "baĠgaoĠduĠ": 3462,
      "ĠbingĠqie": 3463,
      "ĠjiĠtuanĠ": 3464,
      "Ġming": 3465,
      "xieĠhuiĠ": 3466,
      "jiaoĠshiĠ": 3467,
      "feiĠchangĠ": 3468,
      "dongĠhuaĠ": 3469,
      "anĠquanĠ": 3470,
      "ĠzhiĠxingĠ": 3471,
      "biĠdeĠ": 3472,
      "ĠhuangĠ": 3473,
      "chaĠdeĠ": 3474,
      "ĠlinĠ": 3475,
      "shengĠchanĠ": 3476,
      "ziĠliaoĠ": 3477,
      "fuĠheĠ": 3478,
      "jingĠdeĠ": 3479,
      "tuanĠtiĠ": 3480,
      "luoĠmaĠ": 3481,
      "jieĠzhiĠ": 3482,
      "ĠB": 3483,
      "beiĠrenĠ": 3484,
      "fenĠbie": 3485,
      "chaoĠxianĠ": 3486,
      "gaiĠdiĠ": 3487,
      "ĠzhuanĠ": 3488,
      "Ġ2": 3489,
      "dingĠyiĠ": 3490,
      "xingĠdongĠ": 3491,
      "xiaĠyiĠ": 3492,
      "jinĠbiaoĠ": 3493,
      "pingĠjunĠ": 3494,
      "Ġliu": 3495,
      "ĠĠĠA": 3496,
      "ĠjinĠxingĠ": 3497,
      "wenĠxueĠ": 3498,
      "duĠshiĠ": 3499,
      "ĠruĠguoĠ": 3500,
      "renĠkouĠpuĠ": 3501,
      "laĠsiĠ": 3502,
      "qingĠkuangĠ": 3503,
      "jiaĠjiĠ": 3504,
      "gongĠgongĠ": 3505,
      "jieĠfangĠ": 3506,
      "ĠzhiĠyuanĠ": 3507,
      "ĠzuĠ": 3508,
      "juĠminĠ": 3509,
      "ĠzhiĠhuiĠ": 3510,
      "ĠqiĠhouĠ": 3511,
      "Ġgu": 3512,
      "dongĠbeiĠ": 3513,
      "shouĠdeĠ": 3514,
      "ĠbaoĠkuo": 3515,
      "shangĠshiĠ": 3516,
      "ĠjiĠdiĠ": 3517,
      "Ġ3": 3518,
      "sheĠzhiĠ": 3519,
      "ĠĠĠofĠĠĠ": 3520,
      "Ġwo": 3521,
      "yanĠchuĠ": 3522,
      "qiuĠyuanĠ": 3523,
      "yuanĠyiĠ": 3524,
      "ĠyuĠjiĠ": 3525,
      "saiĠzhongĠ": 3526,
      "keĠxueĠ": 3527,
      "yanĠshiĠ": 3528,
      "Ġfen": 3529,
      "Ġda": 3530,
      "ĠchuanĠ": 3531,
      "gongĠtongĠ": 3532,
      "lingĠdaoĠ": 3533,
      "Ġ5": 3534,
      "renĠyiĠ": 3535,
      "Ġ4": 3536,
      "zuoĠpin": 3537,
      "zuoĠyouĠ": 3538,
      "Ġnan": 3539,
      "erĠjiĠ": 3540,
      "ĠdeĠzhuĠ": 3541,
      "faĠbiaoĠ": 3542,
      "zaiĠshiĠ": 3543,
      "28ĠriĠ": 3544,
      "aoĠyunĠ": 3545,
      "kongĠjianĠ": 3546,
      "xingĠjiĠ": 3547,
      "gaiĠbianĠ": 3548,
      "yeĠyouĠ": 3549,
      "sanĠgeĠ": 3550,
      "wuĠzhiĠ": 3551,
      "dengĠdiĠ": 3552,
      "ĠlingĠwaiĠ": 3553,
      "jiaĠshiĠ": 3554,
      "ĠzhaoĠ": 3555,
      "ĠdiĠguoĠ": 3556,
      "youĠxiĠ": 3557,
      "deĠĠĠ": 3558,
      "Ġjiu": 3559,
      "yuanĠheĠ": 3560,
      "fangĠzhiĠ": 3561,
      "dengĠrenĠ": 3562,
      "ĠerĠshiĠ": 3563,
      "xueĠshiĠ": 3564,
      "guanĠzhongĠ": 3565,
      "lanĠdeĠ": 3566,
      "ĠcheĠ": 3567,
      "luĠxianĠ": 3568,
      "ĠdanĠrenĠ": 3569,
      "xueĠweiĠ": 3570,
      "dĠĠĠ": 3571,
      "shuĠweiĠ": 3572,
      "zeĠshiĠ": 3573,
      "juĠdeĠ": 3574,
      "baoĠdaoĠ": 3575,
      "ĠhuoĠdeĠ": 3576,
      "ĠliĠzhiĠ": 3577,
      "qiĠweiĠ": 3578,
      "zhuiĠ": 3579,
      "heĠjiĠ": 3580,
      "lveĠ": 3581,
      "chuĠrenĠ": 3582,
      "buĠtongĠ": 3583,
      "qingĠnianĠ": 3584,
      "2008ĠnianĠ": 3585,
      "guoĠliĠ": 3586,
      "zuoĠyongĠ": 3587,
      "bangĠzhuĠ": 3588,
      "aoĠlinĠ": 3589,
      "piĠkeĠ": 3590,
      "2016ĠnianĠ": 3591,
      "gongĠdeĠ": 3592,
      "zaoĠdaoĠ": 3593,
      "ĠkeĠnengĠ": 3594,
      "aiĠerĠ": 3595,
      "ĠyuĠqiĠ": 3596,
      "ĠriĠzhiĠ": 3597,
      "ĠfuĠzeĠ": 3598,
      "ĠĠĠzhongĠ": 3599,
      "zuĠdeĠ": 3600,
      "danĠquĠ": 3601,
      "ĠyuĠyanĠ": 3602,
      "jiangĠqiĠ": 3603,
      "juĠjiĠ": 3604,
      "luĠdiĠ": 3605,
      "ĠdaĠdaoĠ": 3606,
      "guiĠdaoĠ": 3607,
      "ĠyouĠguanĠ": 3608,
      "15ĠriĠ": 3609,
      "tongĠchangĠ": 3610,
      "shouĠjiĠ": 3611,
      "ĠyiĠyouĠ": 3612,
      "taĠmen": 3613,
      "banĠbenĠ": 3614,
      "feiĠjiĠ": 3615,
      "ĠyiĠyuĠ": 3616,
      "tuĠdiĠ": 3617,
      "xianĠdaiĠ": 3618,
      "yuanĠnianĠ": 3619,
      "2009ĠnianĠ": 3620,
      "Ġ12": 3621,
      "shengĠdeĠyiĠgeĠshiĠzhenĠ": 3622,
      "maĠliĠ": 3623,
      "ĠzhiĠjianĠdeĠ": 3624,
      "yaĠzhouĠ": 3625,
      "xiĠbanĠ": 3626,
      "ĠmuĠqianĠ": 3627,
      "bianĠhuaĠ": 3628,
      "ĠshuiĠ": 3629,
      "ĠĠĠjuĠ": 3630,
      "jingĠneiĠ": 3631,
      "jieĠheĠ": 3632,
      "paĠ": 3633,
      "tĠ": 3634,
      "ĠshiĠxingĠ": 3635,
      "gongĠyeĠ": 3636,
      "huiĠheĠ": 3637,
      "jueĠsaiĠ": 3638,
      "wuĠnianĠ": 3639,
      "taiĠpingĠ": 3640,
      "jiaĠyiĠ": 3641,
      "houĠyuĠ": 3642,
      "ĠbingĠqieĠ": 3643,
      "2011ĠnianĠ": 3644,
      "ĠpaiĠ": 3645,
      "ĠsiĠkeĠ": 3646,
      "2012ĠnianĠ": 3647,
      "zaoĠqiĠ": 3648,
      "neiĠrongĠ": 3649,
      "zhengĠceĠ": 3650,
      "ĠweiĠzhongĠ": 3651,
      "guangĠboĠ": 3652,
      "Ġ8": 3653,
      "zhanĠyiĠ": 3654,
      "ĠdingĠ": 3655,
      "xianĠrenĠ": 3656,
      "taĠzaiĠ": 3657,
      "meiĠyuanĠ": 3658,
      "Ġmo": 3659,
      "jiaoĠyiĠ": 3660,
      "piĠpingĠ": 3661,
      "xingĠchengĠ": 3662,
      "ĠhaiĠbaĠgaoĠduĠ": 3663,
      "25ĠriĠ": 3664,
      "jiaoĠhuiĠ": 3665,
      "miaoĠshuĠ": 3666,
      "mĠ": 3667,
      "ĠbuĠduiĠ": 3668,
      "Ġha": 3669,
      "ĠzhiĠyeĠ": 3670,
      "ĠerĠsiĠ": 3671,
      "wanĠquanĠ": 3672,
      "ĠdanĠzaiĠ": 3673,
      "xuanĠzeĠ": 3674,
      "yuanĠyinĠ": 3675,
      "ĠsiĠteĠ": 3676,
      "ĠtaĠyuĠ": 3677,
      "UTCĠ": 3678,
      "Ġsi": 3679,
      "boĠliĠ": 3680,
      "zaoĠdeĠ": 3681,
      "ĠE": 3682,
      "ĠheĠwuĠ": 3683,
      "jianĠsheĠ": 3684,
      "ĠyueĠdeĠ": 3685,
      "xieĠyiĠ": 3686,
      "chuĠshiĠ": 3687,
      "xiaoĠshuoĠ": 3688,
      "wuĠkeĠlanĠ": 3689,
      "changĠqiĠ": 3690,
      "yunĠdongĠhuiĠ": 3691,
      "ĠD": 3692,
      "beiĠchengĠweiĠ": 3693,
      "lianĠbangĠ": 3694,
      "ĠdiĠsanĠ": 3695,
      "ĠweiĠdiĠ": 3696,
      "ĠrenĠweiĠ": 3697,
      "ĠjianĠchengĠ": 3698,
      "30ĠriĠ": 3699,
      "ĠdangĠzhongĠ": 3700,
      "10ĠriĠ": 3701,
      "ĠshiĠyanĠ": 3702,
      "ĠdeĠdaoĠ": 3703,
      "chiĠxuĠ": 3704,
      "zuiĠdaĠ": 3705,
      "wenĠhua": 3706,
      "ĠeĠ": 3707,
      "Ġqie": 3708,
      "20ĠriĠ": 3709,
      "mingĠmingĠ": 3710,
      "ĠxunĠ": 3711,
      "zuĠheĠ": 3712,
      "yuanĠzhuĠ": 3713,
      "duoĠshuĠ": 3714,
      "dianĠziĠ": 3715,
      "seĠdeĠ": 3716,
      "zhuanĠyeĠ": 3717,
      "ĠyiĠmingĠ": 3718,
      "ĠtaĠshiĠ": 3719,
      "xingĠyuĠ": 3720,
      "2014ĠnianĠ": 3721,
      "houĠlaiĠ": 3722,
      "linĠshiĠ": 3723,
      "gongĠsi": 3724,
      "ĠT": 3725,
      "ĠmianĠ": 3726,
      "shengĠheĠ": 3727,
      "ĠyouĠchengĠ": 3728,
      "erĠweiĠ": 3729,
      "wuĠyuanĠ": 3730,
      "buĠliĠ": 3731,
      "jieĠdaoĠ": 3732,
      "ĠmengĠ": 3733,
      "fuĠzhiĠ": 3734,
      "baĠliĠ": 3735,
      "ziĠgeĠ": 3736,
      "Ġ7": 3737,
      "chuĠqiĠ": 3738,
      "2018ĠnianĠ": 3739,
      "buĠjiĠ": 3740,
      "2019ĠnianĠ": 3741,
      "Ġ6": 3742,
      "erĠziĠ": 3743,
      "Ġ5Ġ": 3744,
      "tĠĠĠ": 3745,
      "dongĠnanĠ": 3746,
      "gaoĠzhongĠ": 3747,
      "faĠlvĠ": 3748,
      "taĠmenĠdeĠ": 3749,
      "ĠjiĠgouĠ": 3750,
      "zaĠzhiĠ": 3751,
      "ĠjiĠjinĠ": 3752,
      "ĠdiĠsiĠ": 3753,
      "ĠshiĠweiĠyuĠmeiĠguoĠ": 3754,
      "daĠdaoĠ": 3755,
      "ĠjinĠguanĠ": 3756,
      "yeĠdeĠ": 3757,
      "2013ĠnianĠ": 3758,
      "ĠweiĠyuĠgaiĠguoĠ": 3759,
      "ĠguoĠminĠ": 3760,
      "faĠzhan": 3761,
      "aĠlaĠ": 3762,
      "kuiĠ": 3763,
      "ĠyueĠzhiĠ": 3764,
      "ĠliĠkeĠ": 3765,
      "tuĠerĠ": 3766,
      "shengĠweiĠ": 3767,
      "ĠshiĠjieĠdaĠ": 3768,
      "Ġsan": 3769,
      "baoĠgaoĠ": 3770,
      "zhongĠjiĠ": 3771,
      "24ĠriĠ": 3772,
      "daoĠyiĠ": 3773,
      "2015ĠnianĠ": 3774,
      "ĠliĠyongĠ": 3775,
      "ĠliĠkaiĠ": 3776,
      "fangĠxiangĠ": 3777,
      "ĠsuiĠhouĠ": 3778,
      "neiĠbuĠ": 3779,
      "ĠyuĠzhongĠ": 3780,
      "guoĠminĠ": 3781,
      "guangĠdongĠ": 3782,
      "guiĠdingĠ": 3783,
      "wangĠdeĠ": 3784,
      "9Ġ": 3785,
      "boĠwuĠguanĠ": 3786,
      "Ġke": 3787,
      "ĠgengĠ": 3788,
      "luoĠdeĠ": 3789,
      "26ĠriĠ": 3790,
      "ĠãĤ": 3791,
      "canĠsaiĠ": 3792,
      "ĠM": 3793,
      "ĠyueĠshiĠ": 3794,
      "ĠyingĠguoĠ": 3795,
      "ĠzheĠzhongĠ": 3796,
      "2007ĠnianĠ": 3797,
      "muĠbiaoĠ": 3798,
      "ĠweiĠsiĠ": 3799,
      "sheĠquĠ": 3800,
      "ĠyuĠzhiĠ": 3801,
      "guanĠzhiĠ": 3802,
      "ĠtongĠnianĠ": 3803,
      "dianĠliĠ": 3804,
      "2005ĠnianĠ": 3805,
      "Ġãģ": 3806,
      "gongĠchanĠdangĠ": 3807,
      "dieĠ": 3808,
      "18ĠriĠ": 3809,
      "ĠyouĠqiĠ": 3810,
      "ĠxiĠlieĠ": 3811,
      "xianĠyiĠ": 3812,
      "ĠwaiĠ": 3813,
      "teĠbie": 3814,
      "ĠfenĠbuĠyuĠ": 3815,
      "aoĠlinĠpiĠkeĠ": 3816,
      "lianĠxiĠ": 3817,
      "bingĠweiĠ": 3818,
      "gongĠbuĠ": 3819,
      "ĠjiĠchangĠ": 3820,
      "fuĠliĠ": 3821,
      "juĠbanĠ": 3822,
      "ĠshaĠ": 3823,
      "muĠdeĠ": 3824,
      "ĠchuĠleĠ": 3825,
      "Ġ2001ĠnianĠ": 3826,
      "ĠganĠ": 3827,
      "lieĠdeĠ": 3828,
      "ĠshiĠheĠ": 3829,
      "changĠweiĠ": 3830,
      "wuĠxianĠ": 3831,
      "ĠerĠshengĠ": 3832,
      "ĠP": 3833,
      "biĠliĠ": 3834,
      "quanĠqiuĠ": 3835,
      "shenĠdeĠ": 3836,
      "touĠziĠ": 3837,
      "ĠshiĠziĠ": 3838,
      "2017ĠnianĠ": 3839,
      "muĠdiĠ": 3840,
      "16ĠriĠ": 3841,
      "ĠjiĠheĠ": 3842,
      "yinĠhangĠ": 3843,
      "dingĠweiĠ": 3844,
      "Ġque": 3845,
      "Ġduo": 3846,
      "dongĠjingĠ": 3847,
      "shangĠshuĠ": 3848,
      "fuĠyiĠ": 3849,
      "daoĠyuĠ": 3850,
      "dangĠdeĠ": 3851,
      "guanĠfangĠ": 3852,
      "Ġ13": 3853,
      "guoĠzhiĠ": 3854,
      "17ĠriĠ": 3855,
      "paiĠsheĠ": 3856,
      "ziĠyuĠ": 3857,
      "huaĠxueĠ": 3858,
      "shouĠyuĠ": 3859,
      "kaiĠfangĠ": 3860,
      "ĠminĠ": 3861,
      "ĠyouĠxianĠgongĠsiĠ": 3862,
      "ĠĠĠzhengĠzhiĠ": 3863,
      "21ĠriĠ": 3864,
      "buĠzhiĠ": 3865,
      "ĠdeĠshiĠzhenĠ": 3866,
      "gaiĠnianĠ": 3867,
      "27ĠriĠ": 3868,
      "baoĠfaĠ": 3869,
      "ĠzhongĠxueĠ": 3870,
      "zheĠshiĠ": 3871,
      "kaĠerĠ": 3872,
      "19ĠriĠ": 3873,
      "2006ĠnianĠ": 3874,
      "8ĠriĠ": 3875,
      "junĠweiĠ": 3876,
      "11ĠriĠ": 3877,
      "ĠliĠfaĠ": 3878,
      "mingĠziĠ": 3879,
      "yingĠyongĠ": 3880,
      "12ĠriĠ": 3881,
      "23ĠriĠ": 3882,
      "shangĠyouĠ": 3883,
      "ceĠshiĠ": 3884,
      "ĠsongĠ": 3885,
      "ĠhaoĠmiĠ": 3886,
      "ĠfuĠwuĠ": 3887,
      "ĠyinĠci": 3888,
      "suĠlianĠ": 3889,
      "meiĠguoĠrenĠkouĠpuĠ": 3890,
      "xianĠweiĠ": 3891,
      "ĠdeĠweiĠ": 3892,
      "feiĠxingĠ": 3893,
      "ĠzhiĠjiĠ": 3894,
      "shuĠliangĠweiĠ": 3895,
      "7ĠriĠ": 3896,
      "qiĠjianĠ": 3897,
      "juĠleĠbuĠ": 3898,
      "fuĠyuĠ": 3899,
      "yinĠshiĠ": 3900,
      "xueĠzheĠ": 3901,
      "huangĠdiĠ": 3902,
      "huiĠyuĠ": 3903,
      "qiĠjiĠ": 3904,
      "2021ĠnianĠ": 3905,
      "banĠshiĠ": 3906,
      "xiĠlieĠ": 3907,
      "boĠchuĠ": 3908,
      "ĠdeĠzhongĠ": 3909,
      "ĠqieĠ": 3910,
      "22ĠriĠ": 3911,
      "guiĠmoĠ": 3912,
      "ĠshiĠfaĠguoĠ": 3913,
      "ĠsaiĠ": 3914,
      "biĠxuĠ": 3915,
      "lingĠyuĠ": 3916,
      "9ĠriĠ": 3917,
      "Ġ3Ġ": 3918,
      "shanĠdongĠ": 3919,
      "gongĠnengĠ": 3920,
      "Ġãĥ": 3921,
      "29ĠriĠ": 3922,
      "chuĠyiĠ": 3923,
      "ĠG": 3924,
      "yinĠqiĠ": 3925,
      "Ġ6Ġ": 3926,
      "guanĠyuanĠ": 3927,
      "yingĠshiĠ": 3928,
      "teĠdeĠ": 3929,
      "zuiĠdaĠdeĠ": 3930,
      "zhengĠzaiĠ": 3931,
      "ĠyueĠhanĠ": 3932,
      "xunĠlianĠ": 3933,
      "kunĠ": 3934,
      "ĠjiĠbaiĠ": 3935,
      "jingĠyingĠ": 3936,
      "fengĠgeĠ": 3937,
      "ĠF": 3938,
      "2022ĠnianĠ": 3939,
      "fuĠjinĠ": 3940,
      "tingĠzhiĠ": 3941,
      "nengĠgouĠ": 3942,
      "suoĠshuĠdeĠ": 3943,
      "pingĠjiaĠ": 3944,
      "shengĠmingĠ": 3945,
      "3ĠriĠ": 3946,
      "14ĠriĠ": 3947,
      "geĠdiĠ": 3948,
      "zhuĠzaiĠ": 3949,
      "qingĠkuangĠxiaĠ": 3950,
      "yuanĠjiĠ": 3951,
      "shouĠshiĠ": 3952,
      "tiaoĠjianĠ": 3953,
      "jiaoĠdeĠ": 3954,
      "21Ġ": 3955,
      "5ĠriĠ": 3956,
      "shengĠzaiĠ": 3957,
      "quĠhuaĠ": 3958,
      "ĠĠĠC": 3959,
      "shengĠchan": 3960,
      "taiĠdeĠ": 3961,
      "xiĠshiĠ": 3962,
      "shangĠweiĠ": 3963,
      "ĠpiĠ": 3964,
      "sheĠdeĠ": 3965,
      "maiĠkeĠ": 3966,
      "ĠĠĠyouĠyuĠ": 3967,
      "yaĠyuĠ": 3968,
      "ĠdaoĠzhiĠ": 3969,
      "jinĠzhiĠ": 3970,
      "31ĠriĠ": 3971,
      "ĠbuĠjiuĠ": 3972,
      "jieĠchuĠ": 3973,
      "ĠkaiĠshiĠ": 3974,
      "ĠlvĠ": 3975,
      "yuanĠzhiĠ": 3976,
      "ĠdaĠhuiĠ": 3977,
      "lianĠmeng": 3978,
      "xiaoĠxingĠxingĠ": 3979,
      "4ĠriĠ": 3980,
      "chaoĠjiĠ": 3981,
      "2ĠriĠ": 3982,
      "xiongĠdiĠ": 3983,
      "daĠjiĠ": 3984,
      "ĠrenĠzhongĠ": 3985,
      "ĠzuiĠhouĠ": 3986,
      "dianĠdeĠ": 3987,
      "6ĠriĠ": 3988,
      "AĠ": 3989,
      "haiĠyuĠ": 3990,
      "zangĠ": 3991,
      "ĠĠĠtheĠĠĠ": 3992,
      "boĠteĠ": 3993,
      "ĠgongĠchiĠ": 3994,
      "liuĠxingĠ": 3995,
      "geĠjiĠ": 3996,
      "13ĠriĠ": 3997,
      "nanĠxingĠ": 3998,
      "ĠsuiĠranĠ": 3999,
      "wenĠwuĠbaoĠhuĠ": 4000,
      "ĠnianĠdai": 4001,
      "teĠzhengĠ": 4002,
      "renĠheĠ": 4003,
      "wuĠjiĠ": 4004,
      "ĠmanĠ": 4005,
      "geĠweiĠ": 4006,
      "ĠqiangĠ": 4007,
      "renĠjiĠ": 4008,
      "lvĠyouĠ": 4009,
      "zuoĠjiaĠ": 4010,
      "keĠdaĠ": 4011,
      "siĠrenĠ": 4012,
      "ĠtongĠguoĠ": 4013,
      "geĠshouĠ": 4014,
      "Ġxin": 4015,
      "ĠjueĠ": 4016,
      "ĠshenĠzhiĠ": 4017,
      "yinĠciĠ": 4018,
      "huangĠjiaĠ": 4019,
      "fenĠxiĠ": 4020,
      "ouĠzhou": 4021,
      "brĠ": 4022,
      "jianĠweiĠ": 4023,
      "shengĠfenĠ": 4024,
      "ĠlingĠyiĠ": 4025,
      "zongĠheĠ": 4026,
      "xuĠduo": 4027,
      "dĠ": 4028,
      "lieĠche": 4029,
      "rĠ": 4030,
      "juĠrenĠ": 4031,
      "niuĠyueĠ": 4032,
      "ĠbrĠ": 4033,
      "ĠĠĠjinĠ": 4034,
      "banĠdaoĠ": 4035,
      "ciĠshiĠjieĠdaĠ": 4036,
      "zhuĠtiĠ": 4037,
      "zhongĠweiĠ": 4038,
      "Ġ10": 4039,
      "chengĠyiĠ": 4040,
      "zaiĠweiĠ": 4041,
      "zhuangĠtaiĠ": 4042,
      "ĠsuiĠran": 4043,
      "ĠyouĠmingĠ": 4044,
      "qiĠnianĠ": 4045,
      "ĠtaĠcengĠ": 4046,
      "benĠdeĠ": 4047,
      "bianĠweiĠ": 4048,
      "ĠdouĠ": 4049,
      "pinĠdaoĠ": 4050,
      "ĠzaiĠqiĠ": 4051,
      "youĠyiĠgeĠ": 4052,
      "juĠzhongĠ": 4053,
      "fenĠziĠ": 4054,
      "heĠliĠ": 4055,
      "maoĠyiĠ": 4056,
      "20ĠshiĠjiĠ": 4057,
      "ĠzhiĠzhongĠ": 4058,
      "TheĠĠĠ": 4059,
      "buĠzhangĠ": 4060,
      "renĠkouĠshuĠliangĠweiĠ": 4061,
      "ĠchiĠ": 4062,
      "wangĠluoĠ": 4063,
      "huiĠyouĠ": 4064,
      "Ġgeng": 4065,
      "qianĠyiĠ": 4066,
      "ĠĠĠziĠ": 4067,
      "aoĠsiĠ": 4068,
      "2004ĠnianĠ": 4069,
      "shuoĠshiĠ": 4070,
      "jieĠduanĠ": 4071,
      "xuanĠshouĠ": 4072,
      "gaoĠjiĠ": 4073,
      "zhunĠbeiĠ": 4074,
      "faĠshiĠ": 4075,
      "ĠheĠnanĠ": 4076,
      "ciĠdeĠ": 4077,
      "fangĠanĠ": 4078,
      "fangĠyuĠ": 4079,
      "miĠerĠ": 4080,
      "waiĠdeĠ": 4081,
      "daĠxingĠ": 4082,
      "duoĠciĠ": 4083,
      "Ġzhou": 4084,
      "Ġchen": 4085,
      "bingĠliĠ": 4086,
      "gongĠzhongĠ": 4087,
      "ĠĠĠliĠ": 4088,
      "beiĠdeĠ": 4089,
      "huiĠdaoĠ": 4090,
      "Ġ4Ġ": 4091,
      "moĠdeĠ": 4092,
      "ĠyiĠlaiĠ": 4093,
      "ĠriĠqiĠ": 4094,
      "chengĠduĠ": 4095,
      "fenĠzhiĠ": 4096,
      "ĠlanĠ": 4097,
      "ciĠzhiĠ": 4098,
      "ĠgangĠ": 4099,
      "buĠweiĠ": 4100,
      "2000ĠnianĠ": 4101,
      "shuĠguanĠ": 4102,
      "liuĠnianĠ": 4103,
      "11Ġ": 4104,
      "ĠzhongĠbuĠ": 4105,
      "wuĠqiĠ": 4106,
      "jieĠjiĠ": 4107,
      "leĠyiĠgeĠ": 4108,
      "yuanĠweiĠ": 4109,
      "baoĠhanĠ": 4110,
      "junĠzaiĠ": 4111,
      "ĠdiĠfangĠ": 4112,
      "dianĠshiĠtaiĠ": 4113,
      "Ġfan": 4114,
      "youĠzhiĠ": 4115,
      "ziĠshiĠ": 4116,
      "ĠdeĠyiĠzhongĠ": 4117,
      "xingĠheĠ": 4118,
      "ĠrenĠkou": 4119,
      "ĠrenĠkouĠmiĠduĠweiĠ": 4120,
      "juĠshiĠ": 4121,
      "dengĠjiĠ": 4122,
      "ĠyiĠshiĠ": 4123,
      "luĠjunĠ": 4124,
      "xuanĠweiĠ": 4125,
      "xiangĠtongĠ": 4126,
      "ĠchaoĠ": 4127,
      "zheĠjiangĠ": 4128,
      "Ġze": 4129,
      "ĠxianĠshiĠ": 4130,
      "zuiĠhouĠ": 4131,
      "biaoĠyanĠ": 4132,
      "qiuĠjiĠ": 4133,
      "ĠtouĠ": 4134,
      "siĠwangĠ": 4135,
      "gaiĠgeĠ": 4136,
      "ĠzhuĠyao": 4137,
      "ĠweiĠyuĠfaĠguoĠ": 4138,
      "sheĠbeiĠ": 4139,
      "nongĠyeĠ": 4140,
      "daĠliangĠ": 4141,
      "duoĠgeĠ": 4142,
      "meiĠzhouĠ": 4143,
      "ĠzhiĠjinĠ": 4144,
      "dianĠshiĠjuĠ": 4145,
      "houĠyouĠ": 4146,
      "ĠshiĠdaiĠ": 4147,
      "Ġzu": 4148,
      "Ġzhao": 4149,
      "ĠxiĠbanĠ": 4150,
      "ĠK": 4151,
      "guĠjiĠ": 4152,
      "shangĠyiĠ": 4153,
      "aiĠdeĠ": 4154,
      "yangĠshiĠ": 4155,
      "zhuĠyuĠ": 4156,
      "guangĠchangĠ": 4157,
      "Ġxiang": 4158,
      "liuĠshiĠ": 4159,
      "zaiĠjiĠ": 4160,
      "zhanĠdouĠ": 4161,
      "faĠyuĠ": 4162,
      "Ġfei": 4163,
      "wenĠwuĠbaoĠhuĠdanĠweiĠ": 4164,
      "ĠĠĠdaĠ": 4165,
      "zhanĠkaiĠ": 4166,
      "ĠmeiĠyouĠ": 4167,
      "ĠzhiĠliĠ": 4168,
      "jiaĠheĠ": 4169,
      "lĠ": 4170,
      "tiaoĠyueĠ": 4171,
      "ĠjiaĠruĠ": 4172,
      "fuĠjianĠ": 4173,
      "xieĠzhuĠ": 4174,
      "ĠyiĠbeiĠ": 4175,
      "ĠbuĠzaiĠ": 4176,
      "chanĠpinĠ": 4177,
      "muĠqianĠ": 4178,
      "hangĠkong": 4179,
      "bianĠchengĠ": 4180,
      "jiangĠyuĠ": 4181,
      "youĠzhengĠ": 4182,
      "ĠfenĠbie": 4183,
      "huoĠdeĠleĠ": 4184,
      "renĠyuĠ": 4185,
      "miĠdeĠ": 4186,
      "fenĠleiĠ": 4187,
      "daoĠluĠ": 4188,
      "gongĠyouĠrenĠkouĠ": 4189,
      "yingĠjiĠ": 4190,
      "duanĠdeĠ": 4191,
      "ĠzhiĠzaiĠ": 4192,
      "qunĠdaoĠ": 4193,
      "qingĠdeĠ": 4194,
      "biaoĠzhun": 4195,
      "zhenĠquĠ": 4196,
      "ĠbeiĠqiĠ": 4197,
      "ĠzheĠyiĠ": 4198,
      "haiĠbaĠ": 4199,
      "ĠĠĠjianĠ": 4200,
      "naoĠ": 4201,
      "biĠjiaoĠ": 4202,
      "naiĠ": 4203,
      "ĠqiĠyeĠ": 4204,
      "guiĠhuaĠ": 4205,
      "zhanĠzheng": 4206,
      "cuoĠ": 4207,
      "ĠĠĠB": 4208,
      "ĠliĠziĠ": 4209,
      "ĠkeĠneng": 4210,
      "20Ġ": 4211,
      "ĠxiĠwangĠ": 4212,
      "ĠxingĠzhengĠ": 4213,
      "suĠduĠ": 4214,
      "juĠyuĠ": 4215,
      "nvĠerĠ": 4216,
      "xiĠbuĠ": 4217,
      "ĠzhongĠhuaĠminĠguoĠ": 4218,
      "shouĠduĠ": 4219,
      "xiĠweiĠ": 4220,
      "nuĠ": 4221,
      "ĠL": 4222,
      "ĠbuĠhuiĠ": 4223,
      "ĠfaĠguoĠ": 4224,
      "ĠyiĠrenĠ": 4225,
      "qiaoĠzhiĠ": 4226,
      "ĠgongĠfenĠ": 4227,
      "Ġzhang": 4228,
      "ĠzaiĠzhongĠ": 4229,
      "meiĠpingĠfangĠgongĠliĠ": 4230,
      "rongĠyuĠ": 4231,
      "dongĠxiĠ": 4232,
      "jiuĠshiĠzhenĠ": 4233,
      "dongĠliĠ": 4234,
      "ĠyiĠyangĠ": 4235,
      "manĠhuaĠ": 4236,
      "ĠdeĠshiĠjianĠ": 4237,
      "jinĠgongĠ": 4238,
      "diĠyiĠgeĠ": 4239,
      "douĠyouĠ": 4240,
      "siĠheĠ": 4241,
      "ĠR": 4242,
      "ĠĠĠxiĠ": 4243,
      "ĠchengĠquĠ": 4244,
      "siĠweiĠ": 4245,
      "UĠ": 4246,
      "henĠduoĠ": 4247,
      "ĠI": 4248,
      "maĠlai": 4249,
      "laĠdeĠ": 4250,
      "Ġ00": 4251,
      "ĠnvĠ": 4252,
      "kenĠ": 4253,
      "ĠĠĠT": 4254,
      "ruĠxiaĠ": 4255,
      "taiĠbeiĠ": 4256,
      "zeĠrenĠ": 4257,
      "fuĠrenĠ": 4258,
      "laĠkeĠ": 4259,
      "ĠO": 4260,
      "quĠdaiĠ": 4261,
      "ĠciĠhouĠ": 4262,
      "xianĠdeĠyiĠgeĠ": 4263,
      "jinĠbiaoĠsaiĠ": 4264,
      "ĠyiĠxiaĠ": 4265,
      "shangĠwuĠ": 4266,
      "yuĠshiĠdeĠ": 4267,
      "Ġ30": 4268,
      "ĠyuĠweiĠ": 4269,
      "ĠkongĠ": 4270,
      "jianĠyouĠ": 4271,
      "ĠerĠbeiĠ": 4272,
      "zongĠliĠ": 4273,
      "aĠĠĠ": 4274,
      "Ġtian": 4275,
      "wangĠguoĠ": 4276,
      "xiangĠduiĠ": 4277,
      "lianĠxuĠ": 4278,
      "ĠĠĠfuĠ": 4279,
      "quĠyiĠ": 4280,
      "minĠzhongĠ": 4281,
      "jieĠrang": 4282,
      "rengĠran": 4283,
      "xiaoĠxiĠ": 4284,
      "miĠshuĠ": 4285,
      "Ġhao": 4286,
      "tieĠdaoĠ": 4287,
      "zhengĠgeĠ": 4288,
      "ĠĠĠzheĠ": 4289,
      "zuiĠhouĠyiĠ": 4290,
      "ciĠjiĠ": 4291,
      "jueĠdeĠ": 4292,
      "renĠkouĠshuĠliangĠweiĠrenĠ": 4293,
      "Ġruo": 4294,
      "ĠtiaoĠ": 4295,
      "ĠzhongĠxin": 4296,
      "ĠĠĠzhuĠ": 4297,
      "quanĠdeĠ": 4298,
      "zhanĠlingĠ": 4299,
      "xinĠjiaĠ": 4300,
      "ĠĠĠF": 4301,
      "waiĠjiaoĠ": 4302,
      "diĠsanĠ": 4303,
      "jiaĠnaĠdaĠ": 4304,
      "ĠliĠshuĠyuĠ": 4305,
      "ĠrenĠzaiĠ": 4306,
      "tianĠzhuĠjiaoĠ": 4307,
      "ĠyingĠchiĠ": 4308,
      "zhenĠshiĠ": 4309,
      "ĠINSEE": 4310,
      "yeĠwuĠ": 4311,
      "chengĠzhenĠ": 4312,
      "ciĠyuĠ": 4313,
      "qiĠta": 4314,
      "ĠheiĠ": 4315,
      "Ġwu": 4316,
      "ĠnianĠjiĠ": 4317,
      "ĠranĠhouĠ": 4318,
      "yuanĠyouĠ": 4319,
      "ĠyouĠyiĠ": 4320,
      "cengĠzaiĠ": 4321,
      "daĠxue": 4322,
      "niaoĠ": 4323,
      "jianĠchaĠ": 4324,
      "zhengĠquanĠ": 4325,
      "shengĠchengĠ": 4326,
      "shouĠgeĠ": 4327,
      "nanĠjiĠ": 4328,
      "zuoĠchuĠ": 4329,
      "ĠdeĠshiĠhouĠ": 4330,
      "ĠheĠbeiĠ": 4331,
      "niĠsiĠ": 4332,
      "juĠjueĠ": 4333,
      "luĠshiĠ": 4334,
      "jiaoĠweiĠ": 4335,
      "ĠN": 4336,
      "quĠxiaoĠ": 4337,
      "tiĠjiĠ": 4338,
      "Ġrang": 4339,
      "ĠjieĠzhiĠ": 4340,
      "ĠdeĠyuĠ": 4341,
      "dianĠjiĠ": 4342,
      "shengĠzhiĠ": 4343,
      "cheĠliangĠ": 4344,
      "ĠgaiĠshengĠ": 4345,
      "wangĠzhanĠ": 4346,
      "heĠweiĠ": 4347,
      "daĠliĠyaĠ": 4348,
      "zhongĠxinĠ": 4349,
      "duiĠzaiĠ": 4350,
      "nĠ": 4351,
      "xianĠfaĠ": 4352,
      "leĠjiĠ": 4353,
      "Ġbai": 4354,
      "heĠzhiĠ": 4355,
      "diĠfangĠ": 4356,
      "ĠduiĠyuĠ": 4357,
      "ziĠxingĠ": 4358,
      "zhenĠdeĠ": 4359,
      "lanĠxiĠ": 4360,
      "ĠqiĠta": 4361,
      "ĠerĠzaiĠ": 4362,
      "ĠzongĠmianĠjiĠ": 4363,
      "ĠzhengĠshiĠ": 4364,
      "yunĠyingĠ": 4365,
      "ĠdeĠliĠ": 4366,
      "jieĠjueĠ": 4367,
      "tianĠwenĠ": 4368,
      "2002ĠnianĠ": 4369,
      "ĠriĠben": 4370,
      "2003ĠnianĠ": 4371,
      "moĠxiĠ": 4372,
      "ĠshiĠchangĠ": 4373,
      "gongĠyiĠ": 4374,
      "shuĠzhiĠ": 4375,
      "yeĠzaiĠ": 4376,
      "ĠdiĠqiĠ": 4377,
      "ĠjianĠzhuĠ": 4378,
      "shouĠweiĠ": 4379,
      "dianĠying": 4380,
      "ĠrenĠkouĠmiĠduĠmeiĠpingĠfangĠgongĠliĠ": 4381,
      "xiaoĠxueĠ": 4382,
      "yingĠxiang": 4383,
      "chaĠdeĠshuĠjuĠ": 4384,
      "youĠzhengĠbianĠmaĠweiĠ": 4385,
      "huiĠzhiĠ": 4386,
      "ganĠdaoĠ": 4387,
      "ĠxingĠchengĠ": 4388,
      "puĠtaoĠ": 4389,
      "ĠshiĠzhenĠbianĠmaĠweiĠ": 4390,
      "ĠINSEEĠshiĠzhenĠbianĠmaĠweiĠ": 4391,
      "qingĠshiĠ": 4392,
      "teĠliĠ": 4393,
      "ĠrenĠkouĠmiĠduĠweiĠmeiĠpingĠfangĠ": 4394,
      "mengĠguĠ": 4395,
      "ĠĠĠbuĠ": 4396,
      "muĠshiĠ": 4397,
      "ĠxiaĠlingĠshiĠ": 4398,
      "diĠyiĠciĠ": 4399,
      "xiĠliĠ": 4400,
      "zhuoĠ": 4401,
      "erĠzaiĠ": 4402,
      "xuanĠquĠweiĠ": 4403,
      "leiĠjiĠ": 4404,
      "zuoĠzhanĠ": 4405,
      "siĠzaiĠ": 4406,
      "gaoĠyuĠ": 4407,
      "niĠya": 4408,
      "yuĠshiĠdeĠrenĠkouĠshuĠliangĠweiĠrenĠ": 4409,
      "baoĠdeĠ": 4410,
      "meiĠguoĠrenĠkouĠpuĠchaĠdeĠshuĠjuĠ": 4411,
      "zuoĠyiĠ": 4412,
      "luĠyiĠ": 4413,
      "ĠerĠrenĠkouĠmiĠduĠweiĠmeiĠpingĠfangĠ": 4414,
      "ĠdangĠdiĠgongĠyouĠrenĠkouĠ": 4415,
      "ĠhuanĠ": 4416,
      "xiĠyuĠ": 4417,
      "ĠteĠbie": 4418,
      "yunĠxingĠ": 4419,
      "ĠhuoĠjiuĠshiĠzhenĠ": 4420,
      "xinĠliĠ": 4421,
      "jingĠchangĠ": 4422,
      "shengĠjiĠxuanĠquĠweiĠ": 4423,
      "jiangĠshiĠ": 4424,
      "yuanĠziĠ": 4425,
      "faĠdongĠ": 4426,
      "kuaiĠsuĠ": 4427,
      "ĠshuangĠ": 4428,
      "Ġbo": 4429,
      "ĠzhongĠyang": 4430,
      "shaoĠnianĠ": 4431,
      "shengĠrenĠ": 4432,
      "bianĠjiĠ": 4433,
      "chongĠjianĠ": 4434,
      "fenĠweiĠfaĠguoĠ": 4435,
      "ĠgaiĠshengĠfenĠweiĠfaĠguoĠ": 4436,
      "faĠqiĠ": 4437,
      "ĠĠĠnianĠ": 4438,
      "gaoĠdengĠ": 4439,
      "ĠbiaoĠshiĠ": 4440,
      "mingĠyiĠ": 4441,
      "congĠshiĠ": 4442,
      "ĠĠĠG": 4443,
      "shuoĠfaĠ": 4444,
      "ĠnianĠchuĠ": 4445,
      "yangĠhuaĠ": 4446,
      "ĠyouĠrenĠ": 4447,
      "ĠnianĠyuĠ": 4448,
      "chengĠliĠyuĠ": 4449,
      "jiaĠzhongĠ": 4450,
      "jinĠyiĠbuĠ": 4451,
      "naĠdeĠ": 4452,
      "yĠ": 4453,
      "lianĠheĠguoĠ": 4454,
      "ĠerĠqie": 4455,
      "yanĠjiuĠsuoĠ": 4456,
      "zhengĠmingĠ": 4457,
      "fangĠqiĠ": 4458,
      "daĠquĠ": 4459,
      "taiĠguoĠ": 4460,
      "gongĠxianĠ": 4461,
      "gouĠdeĠ": 4462,
      "lunĠdun": 4463,
      "ĠĠĠheĠ": 4464,
      "fanĠhuiĠ": 4465,
      "aoĠlinĠpiĠkeĠyunĠdongĠhuiĠ": 4466,
      "jieĠrangĠdeĠshiĠzhenĠ": 4467,
      "ĠguoĠjiĠ": 4468,
      "ziĠweiĠ": 4469,
      "gongĠrenĠ": 4470,
      "suoĠshuĠdeĠshengĠjiĠxuanĠquĠweiĠ": 4471,
      "siĠliĠ": 4472,
      "yunĠshuĠ": 4473,
      "xiangĠjiĠ": 4474,
      "meĠ": 4475,
      "huoĠshiĠ": 4476,
      "ziĠran": 4477,
      "yuanĠliĠ": 4478,
      "2023ĠnianĠ": 4479,
      "neĠ": 4480,
      "tiĠxiĠ": 4481,
      "jianĠchengĠ": 4482,
      "biaoĠweiĠ": 4483,
      "ĠH": 4484,
      "naĠliĠ": 4485,
      "zhuĠchiĠ": 4486,
      "xingĠqiĠ": 4487,
      "zhongĠhuaĠrenĠminĠgongĠheĠguoĠ": 4488,
      "mingĠdanĠ": 4489,
      "boĠlanĠ": 4490,
      "Ġhuang": 4491,
      "xiĠzaiĠ": 4492,
      "ziĠyuanĠ": 4493,
      "daoĠrenĠ": 4494,
      "reĠdaiĠ": 4495,
      "xiĠbanĠyaĠ": 4496,
      "ceĠdeĠ": 4497,
      "Ġhu": 4498,
      "huaĠweiĠ": 4499,
      "luoĠfuĠ": 4500,
      "fuĠqinĠ": 4501,
      "ĠxiĠbeiĠ": 4502,
      "xiaĠwuĠ": 4503,
      "zhanĠdou": 4504,
      "BĠ": 4505,
      "erĠheĠ": 4506,
      "paiĠdeĠ": 4507,
      "ĠnianĠyouĠ": 4508,
      "faĠsheĠ": 4509,
      "ĠdiĠquĠdeĠ": 4510,
      "beiĠyiĠ": 4511,
      "fenĠdeĠ": 4512,
      "niĠkeĠ": 4513,
      "cuiĠ": 4514,
      "ĠhaĠ": 4515,
      "wenĠmingĠ": 4516,
      "ĠĠĠcheĠzhanĠ": 4517,
      "ĠzhiĠchengĠ": 4518,
      "ĠheĠbingĠ": 4519,
      "diaoĠcha": 4520,
      "chanĠyeĠ": 4521,
      "ĠnianĠhouĠ": 4522,
      "ĠshiĠyiĠmingĠ": 4523,
      "wanĠjiaĠ": 4524,
      "anĠshiĠ": 4525,
      "xiangĠdangĠ": 4526,
      "ĠĠĠchuĠ": 4527,
      "ĠyouĠshiĠ": 4528,
      "shengĠshiĠ": 4529,
      "Ġkang": 4530,
      "ĠzaoĠ": 4531,
      "chaoĠzhengĠzhiĠrenĠwuĠ": 4532,
      "suĠdeĠ": 4533,
      "jinĠxingĠleĠ": 4534,
      "ĠweiĠshengĠ": 4535,
      "ĠchuangĠ": 4536,
      "ĠĠĠtaĠ": 4537,
      "jianĠjiĠ": 4538,
      "ĠbuĠnengĠ": 4539,
      "nanĠshengĠ": 4540,
      "ĠpeiĠ": 4541,
      "jinĠyiĠ": 4542,
      "xuanĠchuanĠ": 4543,
      "ĠshiĠyiĠweiĠ": 4544,
      "yingĠliĠ": 4545,
      "jingĠshenĠ": 4546,
      "beiĠjiĠ": 4547,
      "lvĠshiĠ": 4548,
      "xianĠxiangĠ": 4549,
      "zaĠ": 4550,
      "shuĠzhongĠ": 4551,
      "shouĠshangĠ": 4552,
      "ziĠheĠ": 4553,
      "xiĠyangĠ": 4554,
      "fuĠzeĠguanĠxiaĠ": 4555,
      "guanĠzhuĠ": 4556,
      "lianĠdeĠ": 4557,
      "qiĠzhongĠyiĠ": 4558,
      "mieĠ": 4559,
      "jiaĠtingĠ": 4560,
      "paiĠmingĠ": 4561,
      "tongĠxingĠ": 4562,
      "lieĠweiĠ": 4563,
      "saiĠerĠ": 4564,
      "ĠyueĠzaiĠ": 4565,
      "zhanĠhouĠ": 4566,
      "xuanĠrenĠ": 4567,
      "liuĠyuĠ": 4568,
      "shuĠliangĠ": 4569,
      "xiaoĠzuĠ": 4570,
      "foĠjiaoĠ": 4571,
      "lanĠqiuĠ": 4572,
      "shuaiĠ": 4573,
      "keĠweiĠ": 4574,
      "ĠĠĠP": 4575,
      "Ġbi": 4576,
      "jieĠyiĠ": 4577,
      "daoĠyanĠ": 4578,
      "zhengĠjuĠ": 4579,
      "qiuĠdeĠ": 4580,
      "ĠxiĠnanĠ": 4581,
      "daĠweiĠ": 4582,
      "taoĠlunĠ": 4583,
      "baĠnianĠ": 4584,
      "wangĠshiĠ": 4585,
      "duĠjiaoĠ": 4586,
      "yanĠyiĠ": 4587,
      "ĠlongĠ": 4588,
      "reĠdai": 4589,
      "yĠĠĠ": 4590,
      "ĠĠĠbeiĠ": 4591,
      "ĠzhongĠgongĠ": 4592,
      "zhengĠdangĠ": 4593,
      "laiĠyuanĠ": 4594,
      "genĠju": 4595,
      "ĠshiĠxianĠ": 4596,
      "baoĠchiĠ": 4597,
      "ĠtuoĠ": 4598,
      "wenĠjianĠ": 4599,
      "ĠyiĠjianĠ": 4600,
      "houĠqiĠ": 4601,
      "ĠnianĠduĠ": 4602,
      "ĠerĠqieĠ": 4603,
      "zhongĠyangĠ": 4604,
      "ĠzhiĠxianĠ": 4605,
      "Ġben": 4606,
      "ĠdaoĠleĠ": 4607,
      "rengĠranĠ": 4608,
      "Ġ10ĠyueĠ": 4609,
      "ĠyiĠxiĠ": 4610,
      "lvĠkeĠ": 4611,
      "ruiĠshiĠ": 4612,
      "ĠcanĠ": 4613,
      "ĠjiĠsiĠ": 4614,
      "pingĠlunĠ": 4615,
      "mingĠshiĠ": 4616,
      "ziĠdongĠ": 4617,
      "ĠzongĠrenĠkouĠ": 4618,
      "xiaĠdeĠyiĠgeĠ": 4619,
      "fanĠdeĠ": 4620,
      "ĠwuĠkeĠ": 4621,
      "diĠsiĠ": 4622,
      "zaoĠnianĠ": 4623,
      "biaoĠmingĠ": 4624,
      "xuĠdeĠ": 4625,
      "luĠyuĠ": 4626,
      "ĠzhiĠmingĠ": 4627,
      "haiĠdeĠ": 4628,
      "ĠjiĠhuĠ": 4629,
      "pingĠtaiĠ": 4630,
      "luoĠma": 4631,
      "keĠliĠsiĠ": 4632,
      "ĠĠĠE": 4633,
      "ĠshiĠjianĠyuĠ": 4634,
      "haoĠweiĠ": 4635,
      "raoĠ": 4636,
      "cengĠjingĠ": 4637,
      "xuĠyao": 4638,
      "pengĠyouĠ": 4639,
      "ĠliĠrenĠ": 4640,
      "daĠyueĠ": 4641,
      "yinĠhang": 4642,
      "fengĠxianĠ": 4643,
      "eĠluoĠ": 4644,
      "nanĠjingĠ": 4645,
      "ĠĠĠM": 4646,
      "ĠbeiĠjingĠ": 4647,
      "ĠciĠshiĠ": 4648,
      "ĠdeĠdiĠfangĠ": 4649,
      "shengĠyiĠ": 4650,
      "gongĠzhongĠyangĠ": 4651,
      "taiĠpingĠyangĠ": 4652,
      "jiaoĠtangĠ": 4653,
      "zhengĠbuĠ": 4654,
      "lianĠbang": 4655,
      "ĠouĠ": 4656,
      "jiaoĠbuĠ": 4657,
      "xuanĠquĠ": 4658,
      "xingĠbuĠ": 4659,
      "keĠzaiĠ": 4660,
      "jingĠyouĠ": 4661,
      "yanĠgeĠ": 4662,
      "queĠdingĠ": 4663,
      "yuanĠzaiĠ": 4664,
      "souĠ": 4665,
      "ĠguoĠwangĠ": 4666,
      "daoĠdaĠ": 4667,
      "shenĠweiĠ": 4668,
      "jianĠduiĠ": 4669,
      "chongĠtuĠ": 4670,
      "ĠĠĠxianĠ": 4671,
      "wuĠrenĠ": 4672,
      "jianĠrenĠ": 4673,
      "ĠyiĠshangĠ": 4674,
      "moĠxingĠ": 4675,
      "ĠĠĠ2021": 4676,
      "biaoĠzhiĠ": 4677,
      "huaĠyuĠ": 4678,
      "ruĠheĠ": 4679,
      "Ġlin": 4680,
      "qianĠshiĠ": 4681,
      "keĠshiĠ": 4682,
      "ĠmiaoĠ": 4683,
      "qianĠzhiĠ": 4684,
      "tuiĠyiĠ": 4685,
      "xiaoĠguoĠ": 4686,
      "zhangĠdaĠ": 4687,
      "shangĠyingĠ": 4688,
      "daoĠheĠ": 4689,
      "keĠsiĠ": 4690,
      "ĠgongĠyuanĠ": 4691,
      "jingĠweiĠ": 4692,
      "ĠĠĠsuiĠ": 4693,
      "leiĠxingĠ": 4694,
      "ĠyiĠliĠ": 4695,
      "ĠdaĠxue": 4696,
      "zhouĠweiĠ": 4697,
      "xianĠjiĠ": 4698,
      "queĠzhenĠ": 4699,
      "yeĠbuĠ": 4700,
      "biaoĠdaĠ": 4701,
      "fengĠbaoĠ": 4702,
      "guangĠzhouĠ": 4703,
      "ĠĠĠ2020": 4704,
      "xiaĠshiĠ": 4705,
      "dangĠxuanĠ": 4706,
      "xieĠdeĠ": 4707,
      "biĠyaĠ": 4708,
      "ĠtanĠ": 4709,
      "xianĠheĠ": 4710,
      "shengĠhuo": 4711,
      "pangĠ": 4712,
      "liangĠzhongĠ": 4713,
      "dingĠyuĠ": 4714,
      "qiĠyeĠ": 4715,
      "ĠcengĠrenĠ": 4716,
      "ĠjiĠbeiĠ": 4717,
      "jiaoĠquĠ": 4718,
      "pingĠmianĠ": 4719,
      "ĠĠĠand": 4720,
      "anĠjianĠ": 4721,
      "chengĠxianĠ": 4722,
      "shenĠqingĠ": 4723,
      "luĠsiĠ": 4724,
      "xingĠyiĠ": 4725,
      "ĠzhiĠfuĠ": 4726,
      "tuanĠduiĠ": 4727,
      "ĠerĠrenĠkouĠmiĠduĠweiĠmeiĠpingĠfangĠqianĠmiĠ": 4728,
      "ĠjinĠruĠ": 4729,
      "ĠliĠdaĠ": 4730,
      "Ġdeng": 4731,
      "ĠqinĠ": 4732,
      "chaĠyiĠ": 4733,
      "ĠliĠlunĠ": 4734,
      "yingĠgeĠlanĠ": 4735,
      "yaoĠqingĠ": 4736,
      "neiĠrong": 4737,
      "puĠtongĠ": 4738,
      "ĠJ": 4739,
      "yuanĠzhangĠ": 4740,
      "0Ġ": 4741,
      "yuanĠsuĠ": 4742,
      "ĠzhongĠyouĠ": 4743,
      "Ġgao": 4744,
      "xingĠrenĠ": 4745,
      "jiuĠnianĠ": 4746,
      "ĠjieĠguoĠ": 4747,
      "xiĠheĠ": 4748,
      "ĠtaĠmenĠdeĠ": 4749,
      "Ġzheng": 4750,
      "riĠqiĠ": 4751,
      "qiuĠchangĠ": 4752,
      "xiaoĠshouĠ": 4753,
      "rouĠ": 4754,
      "zhongĠyaoĠ": 4755,
      "yanĠzhiĠ": 4756,
      "hengĠxingĠ": 4757,
      "ziĠyiĠ": 4758,
      "ruĠciĠ": 4759,
      "duiĠshouĠ": 4760,
      "laĠfuĠ": 4761,
      "fenĠbieĠ": 4762,
      "tiaoĠzhanĠ": 4763,
      "zuoĠshiĠ": 4764,
      "baoĠweiĠ": 4765,
      "chengĠyuĠ": 4766,
      "shuĠyiĠ": 4767,
      "laiĠshuoĠ": 4768,
      "ĠqiĠyuĠ": 4769,
      "huiĠjiĠ": 4770,
      "ĠyueĠyuĠ": 4771,
      "ruĠguoĠ": 4772,
      "ĠzhiĠzaoĠ": 4773,
      "xueĠshuĠ": 4774,
      "heĠyuĠ": 4775,
      "12Ġ": 4776,
      "anĠnaĠ": 4777,
      "ĠzhongĠhuaĠ": 4778,
      "wangĠluĠ": 4779,
      "lunĠdeĠ": 4780,
      "nuĠliĠ": 4781,
      "lĠĠĠ": 4782,
      "yuĠĠĠ": 4783,
      "niĠdeĠ": 4784,
      "ĠshiĠdiĠ": 4785,
      "wuĠyiĠ": 4786,
      "shunĠ": 4787,
      "Ġ8ĠyueĠ": 4788,
      "zhengĠzhuangĠ": 4789,
      "jiaĠrenĠ": 4790,
      "caiĠyong": 4791,
      "tingĠdeĠ": 4792,
      "nengĠgou": 4793,
      "ziĠzhiĠquĠ": 4794,
      "Ġ11": 4795,
      "jieĠfangĠjunĠ": 4796,
      "ĠmaiĠ": 4797,
      "xiaoĠzhangĠ": 4798,
      "dianĠtaiĠ": 4799,
      "teĠbieĠ": 4800,
      "ĠhaoĠxianĠ": 4801,
      "minĠdeĠ": 4802,
      "haiĠziĠ": 4803,
      "ĠtongĠchangĠ": 4804,
      "youĠliĠ": 4805,
      "taĠshiĠ": 4806,
      "lanĠkeĠ": 4807,
      "shuĠziĠ": 4808,
      "xiangĠyuĠ": 4809,
      "quĠheĠ": 4810,
      "gengĠmingĠweiĠ": 4811,
      "ĠĠĠK": 4812,
      "chuangĠliĠ": 4813,
      "quanĠshiĠ": 4814,
      "2024ĠnianĠ": 4815,
      "zongĠduĠ": 4816,
      "xuĠshiĠ": 4817,
      "fanĠyiĠ": 4818,
      "duoĠzhongĠ": 4819,
      "fuĠqin": 4820,
      "zhuĠyanĠ": 4821,
      "geĠyouĠ": 4822,
      "sheĠyuĠ": 4823,
      "jiaĠgeĠ": 4824,
      "chuĠshenĠ": 4825,
      "Ġ19": 4826,
      "ĠĠĠin": 4827,
      "huoĠdong": 4828,
      "ĠW": 4829,
      "jiangĠxiĠ": 4830,
      "ĠĠĠ2019": 4831,
      "xinĠshiĠ": 4832,
      "boĠdeĠ": 4833,
      "ĠzaiĠyiĠ": 4834,
      "Ġdai": 4835,
      "huĠshiĠ": 4836,
      "mingĠyuĠ": 4837,
      "jiangĠxiangĠ": 4838,
      "banĠgongĠshiĠ": 4839,
      "danĠdeĠ": 4840,
      "sunĠshiĠ": 4841,
      "shouĠruĠ": 4842,
      "gĠ": 4843,
      "linĠdeĠ": 4844,
      "Ġe": 4845,
      "ĠsuoĠyouĠ": 4846,
      "ĠĠĠwuĠ": 4847,
      "ĠzhongĠyaoĠ": 4848,
      "juĠxingĠdeĠ": 4849,
      "Ġpei": 4850,
      "duiĠyiĠ": 4851,
      "jingĠchaĠ": 4852,
      "saĠkeĠ": 4853,
      "ĠlaoĠ": 4854,
      "jieĠjinĠ": 4855,
      "ĠweiĠlianĠ": 4856,
      "ĠjiĠbenĠ": 4857,
      "jieĠweiĠ": 4858,
      "jieĠyuĠ": 4859,
      "kaĠsiĠ": 4860,
      "ĠĠĠxiaĠ": 4861,
      "guanĠdianĠ": 4862,
      "ĠdeĠyiĠzuoĠ": 4863,
      "1999ĠnianĠ": 4864,
      "ĠliĠheĠ": 4865,
      "jiangĠdiĠ": 4866,
      "shaoĠshuĠ": 4867,
      "kanĠdaoĠ": 4868,
      "wenĠzhangĠ": 4869,
      "ĠjiĠzheĠ": 4870,
      "lunĠdunĠ": 4871,
      "ĠĠĠ2018": 4872,
      "touĠxiangĠ": 4873,
      "huiĠshangĠ": 4874,
      "luĠdiĠmianĠjiĠweiĠ": 4875,
      "ĠĠĠgeĠ": 4876,
      "Ġhan": 4877,
      "ampĠ": 4878,
      "shuiĠyuĠmianĠjiĠweiĠ": 4879,
      "Ġzhuan": 4880,
      "jieĠquanĠguoĠ": 4881,
      "ĠdaĠquĠ": 4882,
      "wenĠziĠ": 4883,
      "zhanĠjiĠ": 4884,
      "xingĠjianĠ": 4885,
      "ĠdeĠdiĠquĠ": 4886,
      "sangĠ": 4887,
      "aoĠmenĠ": 4888,
      "zaiĠzhiĠ": 4889,
      "wenĠyiĠ": 4890,
      "ĠcheĠzhanĠ": 4891,
      "zhangĠshiĠ": 4892,
      "kangĠyiĠ": 4893,
      "ĠĠĠL": 4894,
      "lengĠ": 4895,
      "xiĠbeiĠ": 4896,
      "haiĠanĠ": 4897,
      "ruĠkouĠ": 4898,
      "waiĠguoĠ": 4899,
      "ĠxiongĠ": 4900,
      "wenĠdeĠ": 4901,
      "chuĠshengĠ": 4902,
      "jiaoĠliuĠ": 4903,
      "ĠĠĠkeĠ": 4904,
      "mingĠdiĠ": 4905,
      "24Ġ": 4906,
      "ĠjiĠtuan": 4907,
      "xingĠxingĠ": 4908,
      "xiĠzhiĠ": 4909,
      "zhenĠduiĠ": 4910,
      "xinĠrenĠ": 4911,
      "duĠyuĠ": 4912,
      "pĠ": 4913,
      "ĠampĠ": 4914,
      "cuoĠshiĠ": 4915,
      "zhangĠkeĠdaĠ": 4916,
      "tianĠjinĠ": 4917,
      "tiaoĠzhengĠ": 4918,
      "ĠxianĠzaiĠ": 4919,
      "fangĠzaiĠ": 4920,
      "poĠhuaiĠ": 4921,
      "junĠdiĠ": 4922,
      "tiĠmingĠ": 4923,
      "ĠfenĠzhongĠ": 4924,
      "xuanĠze": 4925,
      "ĠdangĠzhongĠluĠdiĠmianĠjiĠweiĠ": 4926,
      "TĠ": 4927,
      "ĠerĠshuiĠyuĠmianĠjiĠweiĠ": 4928,
      "1998ĠnianĠ": 4929,
      "FĠ": 4930,
      "rongĠyiĠ": 4931,
      "chuĠfaĠ": 4932,
      "ĠĠĠ2022": 4933,
      "ĠbeiĠerĠ": 4934,
      "zaoĠyuĠ": 4935,
      "jingĠdianĠ": 4936,
      "chiĠdeĠ": 4937,
      "ĠjuĠliĠ": 4938,
      "baĠxiĠ": 4939,
      "ĠhaiĠyouĠ": 4940,
      "ĠjiĠshiĠ": 4941,
      "guangĠxiĠ": 4942,
      "luoĠdiĠ": 4943,
      "gouĠchengĠ": 4944,
      "bianĠjieĠ": 4945,
      "ouĠyuanĠ": 4946,
      "xianĠyouĠ": 4947,
      "xianĠchangĠ": 4948,
      "ĠxiangĠgang": 4949,
      "kĠ": 4950,
      "xiĠyiĠ": 4951,
      "shanĠjiĠ": 4952,
      "ĠfaĠxianĠ": 4953,
      "taiĠyangĠ": 4954,
      "fuĠjiĠ": 4955,
      "daoĠjiĠ": 4956,
      "haĠerĠ": 4957,
      "ĠdeĠzhiĠchiĠ": 4958,
      "ĠyueĠyouĠ": 4959,
      "siĠchuanĠ": 4960,
      "yueĠtaiĠ": 4961,
      "ĠĠĠxingĠzhengĠquĠhuaĠ": 4962,
      "mingĠzhiĠ": 4963,
      "Ġao": 4964,
      "ĠyuĠciĠ": 4965,
      "ĠzaiĠzheĠ": 4966,
      "duiĠwuĠ": 4967,
      "XĠ": 4968,
      "tengĠ": 4969,
      "cunĠzhuangĠ": 4970,
      "Ġshou": 4971,
      "ĠjingĠguoĠ": 4972,
      "ĠcongĠerĠ": 4973,
      "daĠzhongĠ": 4974,
      "touĠruĠ": 4975,
      "weiĠĠĠ": 4976,
      "kengĠ": 4977,
      "ĠnianĠbeiĠ": 4978,
      "youĠweiĠ": 4979,
      "cunĠdeĠ": 4980,
      "Ġhou": 4981,
      "ĠsaĠ": 4982,
      "dengĠluĠ": 4983,
      "Ġ9ĠyueĠ": 4984,
      "daĠzhiĠ": 4985,
      "touĠpiaoĠ": 4986,
      "ĠshiĠliĠ": 4987,
      "geĠleiĠ": 4988,
      "yuanĠhuiĠ": 4989,
      "changĠyiĠ": 4990,
      "ĠyueĠweiĠ": 4991,
      "ĠĠĠ2017": 4992,
      "ĠzhiĠxiaĠ": 4993,
      "gongĠminĠ": 4994,
      "yinĠfaĠ": 4995,
      "biĠyeĠyuĠ": 4996,
      "Ġpa": 4997,
      "jianĠzhongĠ": 4998,
      "zhangĠyuĠ": 4999,
      "nuoĠweiĠ": 5000,
      "ĠĠĠR": 5001,
      "tuĠerĠqiĠ": 5002,
      "jiaĠyuĠ": 5003,
      "fangĠweiĠ": 5004,
      "tuĠdeĠ": 5005,
      "tuiĠdongĠ": 5006,
      "ĠshiĠzhongĠguoĠ": 5007,
      "gongĠyuĠ": 5008,
      "zhanĠdiĠ": 5009,
      "geĠyiĠ": 5010,
      "hunĠheĠ": 5011,
      "ĠrenĠmenĠ": 5012,
      "juĠzhuĠ": 5013,
      "baoĠliuĠ": 5014,
      "qianĠshuĠ": 5015,
      "jinĠru": 5016,
      "wenĠdingĠ": 5017,
      "haiĠdaoĠ": 5018,
      "leĠsiĠ": 5019,
      "ganĠran": 5020,
      "shuĠheĠ": 5021,
      "biĠsaiĠzhongĠ": 5022,
      "ĠtiĠzhangĠkeĠdaĠ": 5023,
      "ĠformulaĠ": 5024,
      "erĠrenĠ": 5025,
      "ĠzaiĠbeiĠ": 5026,
      "ziĠranĠ": 5027,
      "xiĠzhongĠ": 5028,
      "ĠbuĠfen": 5029,
      "daĠfuĠ": 5030,
      "Ġ7ĠyueĠ": 5031,
      "wuĠyuĠ": 5032,
      "ziĠliĠ": 5033,
      "nanĠbeiĠ": 5034,
      "junĠyiĠ": 5035,
      "piĠzhunĠ": 5036,
      "keĠyuĠ": 5037,
      "chuĠjiĠ": 5038,
      "qiĠziĠ": 5039,
      "yongĠhuĠ": 5040,
      "ĠweiĠfuĠqiĠyuĠ": 5041,
      "hengĠliĠ": 5042,
      "fangĠwenĠ": 5043,
      "zhuangĠjiaĠ": 5044,
      "tiĠgaoĠ": 5045,
      "ĠyouĠjiĠ": 5046,
      "ĠwoĠmenĠ": 5047,
      "diĠjiĠ": 5048,
      "maĠkeĠ": 5049,
      "ĠshiĠquĠ": 5050,
      "ĠnianĠheĠ": 5051,
      "chengĠzuoĠ": 5052,
      "Ġbian": 5053,
      "erĠyuĠ": 5054,
      "jianĠheĠ": 5055,
      "angĠ": 5056,
      "ĠĠĠ2016": 5057,
      "ĠyiĠdaĠliĠ": 5058,
      "ziĠjinĠ": 5059,
      "ĠyinĠduĠ": 5060,
      "xunĠsuĠ": 5061,
      "ĠbiaoĠ": 5062,
      "benĠtuĠ": 5063,
      "houĠxuanĠrenĠ": 5064,
      "xinĠhaoĠ": 5065,
      "Ġan": 5066,
      "zhanĠzhongĠ": 5067,
      "moĠerĠ": 5068,
      "xiaoĠliĠ": 5069,
      "xianĠluĠ": 5070,
      "pinĠpaiĠ": 5071,
      "ĠtingĠ": 5072,
      "jinĠshuĠ": 5073,
      "jieĠshuĠhouĠ": 5074,
      "Ġ12ĠyueĠ": 5075,
      "ciĠweiĠ": 5076,
      "geĠgeĠ": 5077,
      "ĠtaĠyiĠ": 5078,
      "xinĠyiĠ": 5079,
      "guangĠfanĠ": 5080,
      "zhuĠmingĠdeĠ": 5081,
      "zhongĠliĠ": 5082,
      "shangĠrenĠ": 5083,
      "yongĠyiĠ": 5084,
      "xianĠhouĠ": 5085,
      "zuiĠchuĠ": 5086,
      "yingĠpianĠ": 5087,
      "zhuĠmingĠ": 5088,
      "cengĠyuĠ": 5089,
      "mouĠxieĠ": 5090,
      "ĠxiuĠ": 5091,
      "chengĠzhiĠ": 5092,
      "Ġ11ĠyueĠ": 5093,
      "ĠdeĠyiĠzhiĠ": 5094,
      "jianĠzaoĠ": 5095,
      "wuĠweiĠ": 5096,
      "Ġhai": 5097,
      "jianĠzaiĠ": 5098,
      "jieĠyouĠ": 5099,
      "lingĠwaiĠ": 5100,
      "ĠdeĠshiĠquĠweiĠ": 5101,
      "chuĠzhanĠ": 5102,
      "xiaĠlaiĠ": 5103,
      "ĠĠĠdeĠshiĠ": 5104,
      "ĠTheĠĠĠ": 5105,
      "ĠzhiĠnengĠ": 5106,
      "Ġhong": 5107,
      "xueĠhuiĠ": 5108,
      "buĠtongĠdeĠ": 5109,
      "ĠbingĠyiĠ": 5110,
      "Ġtw": 5111,
      "heĠzuoĠ": 5112,
      "jiangĠsuĠ": 5113,
      "ĠzhongĠdeĠ": 5114,
      "saĠerĠ": 5115,
      "ĠzhongĠguoĠgongĠchanĠdangĠ": 5116,
      "buĠduiĠ": 5117,
      "ĠjiaĠshangĠ": 5118,
      "dangĠshiĠdeĠ": 5119,
      "ĠĠĠli": 5120,
      "zhuĠbuĠ": 5121,
      "shanĠdaĠ": 5122,
      "shuiĠpingĠ": 5123,
      "Ġ21Ġ": 5124,
      "hansĠ": 5125,
      "ĠĠĠerĠ": 5126,
      "boĠerĠ": 5127,
      "ĠhansĠ": 5128,
      "keĠheĠ": 5129,
      "ĠdiĠqu": 5130,
      "meiĠnianĠ": 5131,
      "xuĠqiuĠ": 5132,
      "ĠjiĠchengĠ": 5133,
      "jianĠshaoĠ": 5134,
      "teĠshuĠ": 5135,
      "ĠtwĠ": 5136,
      "daĠchengĠ": 5137,
      "shanĠdeĠ": 5138,
      "ĠĠĠO": 5139,
      "jiaĠzuĠ": 5140,
      "Ġ2011": 5141,
      "ĠĠĠD": 5142,
      "ĠzheĠxie": 5143,
      "lvĠweiĠ": 5144,
      "ĠrenĠleiĠ": 5145,
      "paiĠchuĠ": 5146,
      "SĠ": 5147,
      "xĠ": 5148,
      "ĠĠĠqingĠ": 5149,
      "xiaoĠshuo": 5150,
      "aoĠdaĠliĠyaĠ": 5151,
      "ĠriĠyuĠ": 5152,
      "nanĠyiĠ": 5153,
      "jieĠrangĠ": 5154,
      "gongĠchangĠ": 5155,
      "siĠkeĠ": 5156,
      "ĠdanĠtaĠ": 5157,
      "ĠchengĠyuanĠ": 5158,
      "changĠheĠ": 5159,
      "jieĠkeĠ": 5160,
      "ziĠxunĠ": 5161,
      "ĠjiĠguanĠ": 5162,
      "jueĠding": 5163,
      "ĠzaiĠzhongĠguoĠ": 5164,
      "sheĠhuiĠzhuĠyiĠ": 5165,
      "ĠĠĠ2023": 5166,
      "ĠyuĠrenĠ": 5167,
      "zhuĠyouĠ": 5168,
      "zhuangĠzhiĠ": 5169,
      "faĠchuĠ": 5170,
      "ĠxiĠbaoĠ": 5171,
      "jingĠyanĠ": 5172,
      "Ġ2010ĠnianĠ": 5173,
      "CĠ": 5174,
      "ĠĠĠ2014": 5175,
      "waĠerĠ": 5176,
      "ĠjiĠrenĠ": 5177,
      "yinĠsuĠ": 5178,
      "suoĠdeĠ": 5179,
      "rengĠ": 5180,
      "ĠjieĠmuĠ": 5181,
      "tiĠshiĠ": 5182,
      "1997ĠnianĠ": 5183,
      "yingĠwenĠ": 5184,
      "fenĠzhongĠ": 5185,
      "luĠzhiĠ": 5186,
      "ĠhouĠlai": 5187,
      "ĠeĠluoĠsiĠ": 5188,
      "ĠxuĠduoĠ": 5189,
      "ĠĠĠyuanĠ": 5190,
      "tuĠzhongĠ": 5191,
      "kongĠzhongĠ": 5192,
      "suiĠdaoĠ": 5193,
      "chuĠshengĠyuĠ": 5194,
      "beiĠzhiĠ": 5195,
      "huaĠheĠ": 5196,
      "shaĠsiĠ": 5197,
      "yongĠshiĠ": 5198,
      "lingĠtuĠ": 5199,
      "ĠmenĠ": 5200,
      "ĠjingĠjiĠ": 5201,
      "meiĠgeĠ": 5202,
      "ĠĠĠyuĠshiĠdeĠrenĠkouĠshuĠliangĠweiĠrenĠ": 5203,
      "ĠĠĠsuoĠshuĠdeĠshengĠjiĠxuanĠquĠweiĠ": 5204,
      "minĠjianĠ": 5205,
      "ĠĠĠdeĠyouĠzhengĠbianĠmaĠweiĠ": 5206,
      "ĠĠĠyuĠjieĠrangĠdeĠshiĠzhenĠ": 5207,
      "ĠĠĠdeĠshiĠquĠweiĠ": 5208,
      "gengĠjiaĠ": 5209,
      "ĠguoĠchengĠ": 5210,
      "xiangĠsiĠ": 5211,
      "Ġ2019": 5212,
      "ĠĠĠ2015": 5213,
      "zengĠzhangĠ": 5214,
      "ĠfaĠxingĠ": 5215,
      "nanĠdeĠ": 5216,
      "ĠzaiĠdaĠ": 5217,
      "keĠchengĠ": 5218,
      "jiangĠdeĠ": 5219,
      "kongĠjunĠ": 5220,
      "huiĠyingĠ": 5221,
      "Ġ2009ĠnianĠ": 5222,
      "erĠyiĠ": 5223,
      "leĠshiĠ": 5224,
      "guĠwenĠ": 5225,
      "ĠheĠxiĠ": 5226,
      "ĠtaĠyeĠ": 5227,
      "ciĠyiĠ": 5228,
      "guangĠgaoĠ": 5229,
      "PĠ": 5230,
      "teĠerĠ": 5231,
      "ĠshiĠmeiĠguoĠ": 5232,
      "1996ĠnianĠ": 5233,
      "cĠ": 5234,
      "Ġhk": 5235,
      "zhouĠfuĠ": 5236,
      "ĠshengĠhuo": 5237,
      "Ġwang": 5238,
      "tiĠyiĠ": 5239,
      "ĠjiĠyouĠ": 5240,
      "ĠdiĠdaĠ": 5241,
      "jueĠse": 5242,
      "anĠpaiĠ": 5243,
      "ĠĠĠ2013": 5244,
      "xianĠxingĠ": 5245,
      "ĠbingĠjiangĠ": 5246,
      "chaoĠshiĠ": 5247,
      "guanĠbiĠ": 5248,
      "hanĠshuĠ": 5249,
      "zongĠbuĠ": 5250,
      "tiĠshengĠ": 5251,
      "feiĠjianĠzhiĠ": 5252,
      "ĠzhiĠshiĠ": 5253,
      "woĠmenĠ": 5254,
      "ĠzhuangĠ": 5255,
      "ĠĠĠxinĠ": 5256,
      "fangĠbuĠ": 5257,
      "daĠyuĠ": 5258,
      "xuĠkeĠ": 5259,
      "langĠdeĠ": 5260,
      "minĠzhuĠdangĠ": 5261,
      "Ġ6ĠyueĠ": 5262,
      "zhuangĠshiĠ": 5263,
      "jiaĠru": 5264,
      "ĠbingĠyouĠ": 5265,
      "zhengĠfuĠdeĠ": 5266,
      "quanĠmianĠ": 5267,
      "ĠhkĠ": 5268,
      "banĠgongĠ": 5269,
      "ĠdeĠguoĠjiaĠ": 5270,
      "Ġfeng": 5271,
      "junĠjiĠ": 5272,
      "xingĠtaiĠ": 5273,
      "cheĠzhan": 5274,
      "ĠerĠgaiĠ": 5275,
      "ĠheĠerĠ": 5276,
      "baoĠliĠ": 5277,
      "diĠguoĠ": 5278,
      "jieĠgou": 5279,
      "duiĠshiĠ": 5280,
      "tianĠdeĠ": 5281,
      "shanĠmai": 5282,
      "juĠbuĠ": 5283,
      "lingĠdeĠ": 5284,
      "foĠ": 5285,
      "ruiĠdianĠ": 5286,
      "dangĠyuĠ": 5287,
      "luoĠkeĠ": 5288,
      "weiĠyiĠgeĠ": 5289,
      "junĠgongĠ": 5290,
      "dangĠzhongĠ": 5291,
      "weiĠzhiĠ": 5292,
      "tuĠshuĠguanĠ": 5293,
      "neiĠluĠ": 5294,
      "ĠlaiĠziĠ": 5295,
      "huaĠzhongĠ": 5296,
      "zhuanĠjiaĠ": 5297,
      "ĠjiĠnianĠ": 5298,
      "ĠyueĠtaiĠ": 5299,
      "chengĠxuĠ": 5300,
      "ĠV": 5301,
      "huiĠbeiĠ": 5302,
      "seĠlieĠ": 5303,
      "shiĠĠĠ": 5304,
      "shanĠshiĠ": 5305,
      "yunĠxuĠ": 5306,
      "bingĠmeiĠyouĠ": 5307,
      "jiuĠdianĠ": 5308,
      "geĠzhiĠ": 5309,
      "ĠkeĠxueĠ": 5310,
      "ĠqiĠzhongĠyiĠ": 5311,
      "ĠĠĠxiangĠ": 5312,
      "1992ĠnianĠ": 5313,
      "siĠxiangĠ": 5314,
      "feiĠjianĠzhiĠdiĠquĠ": 5315,
      "Ġ5ĠyueĠ": 5316,
      "daiĠyouĠ": 5317,
      "zuĠchengĠdeĠ": 5318,
      "baĠweiĠ": 5319,
      "faĠlv": 5320,
      "ĠxiĠjieĠ": 5321,
      "ĠmaoĠ": 5322,
      "jingĠzhengĠ": 5323,
      "ĠyiĠjiaĠ": 5324,
      "dianĠnao": 5325,
      "guoĠweiĠ": 5326,
      "jinĠpaiĠ": 5327,
      "sanĠjiaoĠ": 5328,
      "changĠyuĠ": 5329,
      "tanĠkeĠ": 5330,
      "ĠliĠbuĠ": 5331,
      "ĠyouĠqiĠshiĠ": 5332,
      "muĠqinĠ": 5333,
      "tongĠyuĠ": 5334,
      "bingĠshiĠ": 5335,
      "huanĠyingĠ": 5336,
      "Ġ2018": 5337,
      "ĠxuanĠbuĠ": 5338,
      "maĠerĠ": 5339,
      "xiaĠjiangĠ": 5340,
      "moĠxiĠgeĠ": 5341,
      "ĠzhengĠfuĠ": 5342,
      "geĠlan": 5343,
      "yanĠjiuĠyuanĠ": 5344,
      "ĠwanĠrenĠ": 5345,
      "Ġqian": 5346,
      "shuĠxueĠ": 5347,
      "jiuĠdeĠ": 5348,
      "neiĠgeĠ": 5349,
      "ĠshiĠjieĠbeiĠ": 5350,
      "onĠ": 5351,
      "ĠliĠya": 5352,
      "huaĠrenĠ": 5353,
      "zhuanĠyiĠ": 5354,
      "gongĠsiĠdeĠ": 5355,
      "ĠgongĠzuoĠ": 5356,
      "junĠyouĠ": 5357,
      "jiuĠzhiĠ": 5358,
      "ĠheĠdiĠ": 5359,
      "mingĠmingĠweiĠ": 5360,
      "ĠĠĠjiaĠzuĠ": 5361,
      "toĠĠĠ": 5362,
      "ĠjiĠchuĠ": 5363,
      "shengĠzhangĠ": 5364,
      "laiĠdaoĠ": 5365,
      "ĠdiĠxiaĠ": 5366,
      "beiĠrenĠweiĠshiĠ": 5367,
      "ĠlieĠ": 5368,
      "dengĠweiĠ": 5369,
      "yingĠyunĠ": 5370,
      "ĠchuĠyuĠ": 5371,
      "xiuĠgaiĠ": 5372,
      "mingĠlingĠ": 5373,
      "shuoĠmingĠ": 5374,
      "huiĠzhangĠ": 5375,
      "queĠfaĠ": 5376,
      "yongĠlaiĠ": 5377,
      "Ġna": 5378,
      "duiĠqiĠ": 5379,
      "huĠdeĠ": 5380,
      "ziĠmuĠ": 5381,
      "xunĠhuiĠ": 5382,
      "ĠchaĠ": 5383,
      "shouĠfuĠ": 5384,
      "daiĠliĠ": 5385,
      "ĠdanĠyouĠyuĠ": 5386,
      "wenĠshiĠ": 5387,
      "ĠbuĠtongĠdeĠ": 5388,
      "Ġ20": 5389,
      "ĠĠĠzhĠ": 5390,
      "maoĠqiuĠ": 5391,
      "ĠminĠguoĠ": 5392,
      "ĠzaiĠmeiĠguoĠ": 5393,
      "ĠshiĠyiĠge": 5394,
      "ĠdeĠdiĠerĠ": 5395,
      "ĠweiĠweiĠ": 5396,
      "ĠrangĠ": 5397,
      "zhuĠjiĠ": 5398,
      "gongĠjuĠ": 5399,
      "ĠĠĠandĠĠĠ": 5400,
      "taĠyuĠ": 5401,
      "ruanĠ": 5402,
      "ĠyinĠyueĠ": 5403,
      "Ġ4ĠyueĠ": 5404,
      "chengĠweiĠleĠ": 5405,
      "liaoĠjieĠ": 5406,
      "ĠtaĠbeiĠ": 5407,
      "yeĠbeiĠ": 5408,
      "yinĠdeĠ": 5409,
      "changĠdiĠ": 5410,
      "feiĠlvĠ": 5411,
      "queĠrenĠ": 5412,
      "faĠanĠ": 5413,
      "juĠzhangĠ": 5414,
      "ĠĠĠjieĠzhiĠ": 5415,
      "caiĠquĠ": 5416,
      "shenĠtiĠ": 5417,
      "beiĠerĠ": 5418,
      "changĠpianĠ": 5419,
      "ĠtaĠhaiĠ": 5420,
      "ĠshangĠhaiĠ": 5421,
      "ĠzhongĠguoĠrenĠminĠ": 5422,
      "ĠkangĠ": 5423,
      "shouĠzhongĠ": 5424,
      "cheĠxiaoĠ": 5425,
      "canĠjiaĠleĠ": 5426,
      "1995ĠnianĠ": 5427,
      "Ġ2016": 5428,
      "boĠfangĠ": 5429,
      "chanĠpin": 5430,
      "ĠkuanĠ": 5431,
      "ĠerĠfuĠ": 5432,
      "jiaoĠlianĠ": 5433,
      "xieĠrenĠ": 5434,
      "cheĠdeĠ": 5435,
      "zhuĠzuoĠ": 5436,
      "banĠfaĠ": 5437,
      "fuĠyouĠ": 5438,
      "suĠweiĠ": 5439,
      "chuanĠboĠ": 5440,
      "Ġ23": 5441,
      "ĠyiĠjuĠ": 5442,
      "ĠyiĠnianĠ": 5443,
      "ĠĠĠH": 5444,
      "zheĠliĠ": 5445,
      "huaĠyuanĠ": 5446,
      "maĠsiĠ": 5447,
      "1994ĠnianĠ": 5448,
      "ĠweiĠrenĠ": 5449,
      "ĠquanĠguoĠ": 5450,
      "ĠĠĠzhongĠguoĠ": 5451,
      "suiĠjiĠ": 5452,
      "ĠliĠru": 5453,
      "tieĠlu": 5454,
      "dianĠqiĠ": 5455,
      "liangĠshiĠ": 5456,
      "qiuĠhuiĠ": 5457,
      "ĠtaoĠ": 5458,
      "ĠweiĠyuanĠhui": 5459,
      "maĠdeĠ": 5460,
      "ĠqiĠlaiĠ": 5461,
      "faĠdianĠ": 5462,
      "wangĠqiuĠ": 5463,
      "zeĠyouĠ": 5464,
      "baiĠseĠ": 5465,
      "ĠshiĠyiĠnianĠ": 5466,
      "yueĠhanĠ": 5467,
      "juĠheĠ": 5468,
      "taiĠjiĠ": 5469,
      "jieĠhunĠ": 5470,
      "shenĠjingĠ": 5471,
      "guĠdeĠ": 5472,
      "chuĠxiĠ": 5473,
      "zhanĠtaiĠ": 5474,
      "wanĠshangĠ": 5475,
      "ĠqueĠ": 5476,
      "ĠdiĠtieĠ": 5477,
      "lingĠbuĠ": 5478,
      "ĠzhiĠdiĠ": 5479,
      "ĠyouĠxieĠ": 5480,
      "ĠyiĠzaiĠ": 5481,
      "ziĠzhuĠ": 5482,
      "ĠsheĠjiĠ": 5483,
      "yeĠheĠ": 5484,
      "huaĠshengĠ": 5485,
      "ĠxingĠdongĠ": 5486,
      "chanĠshengĠdeĠ": 5487,
      "ĠrenĠminĠzhengĠfuĠ": 5488,
      "ĠweiĠnengĠ": 5489,
      "liangĠrenĠ": 5490,
      "ĠyouĠxiaoĠ": 5491,
      "zuĠjianĠ": 5492,
      "lingĠxianĠ": 5493,
      "zhaoĠkaiĠ": 5494,
      "2020ĠnianĠmeiĠguoĠrenĠkouĠpuĠchaĠdeĠshuĠjuĠ": 5495,
      "xueĠheĠ": 5496,
      "maĠlaiĠxiĠyaĠ": 5497,
      "ĠdaiĠbiaoĠ": 5498,
      "leĠtaĠ": 5499,
      "Ġka": 5500,
      "ĠcaoĠ": 5501,
      "chaoĠdeĠ": 5502,
      "ĠerĠbuĠ": 5503,
      "tongĠcheĠ": 5504,
      "yanĠchangĠhuiĠ": 5505,
      "xuĠliĠyaĠ": 5506,
      "changĠzaiĠ": 5507,
      "yaoĠwuĠ": 5508,
      "qinĠshiĠ": 5509,
      "huoĠjianĠ": 5510,
      "tiĠzhongĠ": 5511,
      "ruĠxuanĠ": 5512,
      "kuoĠdaĠ": 5513,
      "ĠzaiĠxiĠ": 5514,
      "ĠxiĠlaĠ": 5515,
      "chuĠxianĠzaiĠ": 5516,
      "yinĠdu": 5517,
      "lieĠbiaoĠ": 5518,
      "ĠĠĠ2025": 5519,
      "15Ġ": 5520,
      "ĠyingĠyuĠ": 5521,
      "ĠĠĠnian": 5522,
      "ĠliĠshuĠ": 5523,
      "geĠdaĠ": 5524,
      "geĠerĠ": 5525,
      "xueĠxiao": 5526,
      "ĠĠĠ2024": 5527,
      "xiangĠxiĠ": 5528,
      "ĠgongĠchengĠ": 5529,
      "xinĠjiĠ": 5530,
      "ĠfuĠjinĠ": 5531,
      "guaĠ": 5532,
      "ĠĠĠqianĠ": 5533,
      "ĠdaĠbuĠfenĠ": 5534,
      "shanĠxiĠshengĠ": 5535,
      "xingĠzhongĠ": 5536,
      "daiĠbuĠ": 5537,
      "taiĠshiĠ": 5538,
      "siĠteĠ": 5539,
      "changĠpian": 5540,
      "kongĠbuĠ": 5541,
      "ĠshiĠdeĠyiĠ": 5542,
      "ĠzhiĠduĠ": 5543,
      "huĠbeiĠ": 5544,
      "lvĠxingĠ": 5545,
      "tuoĠliĠ": 5546,
      "gongĠhuiĠ": 5547,
      "shenĠshiĠ": 5548,
      "chengĠliĠdeĠ": 5549,
      "daĠbuĠfenĠ": 5550,
      "IĠ": 5551,
      "teĠĠĠ": 5552,
      "ĠweiĠliĠ": 5553,
      "aoĠdiĠliĠ": 5554,
      "guiĠzeĠ": 5555,
      "ĠliangĠrenĠ": 5556,
      "daĠluĠdeĠ": 5557,
      "ĠCĠ": 5558,
      "laoĠdongĠ": 5559,
      "shangĠhai": 5560,
      "1991ĠnianĠ": 5561,
      "ĠyiĠtongĠ": 5562,
      "jingĠyuĠ": 5563,
      "zhuangĠdeĠ": 5564,
      "cuĠjinĠ": 5565,
      "zhouĠbianĠ": 5566,
      "tongĠbuĠ": 5567,
      "ĠqiaoĠ": 5568,
      "peiĠyinĠ": 5569,
      "xingĠxiangĠ": 5570,
      "ciĠzaiĠ": 5571,
      "fenĠliĠ": 5572,
      "Ġlu": 5573,
      "zhuangĠkuangĠ": 5574,
      "ĠliĠshiĠshangĠ": 5575,
      "longĠdeĠ": 5576,
      "suanĠjiĠ": 5577,
      "xingĠquĠ": 5578,
      "DĠ": 5579,
      "ĠmingĠchaoĠzhengĠzhiĠrenĠwuĠ": 5580,
      "3ĠnianĠ": 5581,
      "ĠĠĠJ": 5582,
      "wuĠkeĠlan": 5583,
      "jinĠbuĠ": 5584,
      "baoĠshiĠ": 5585,
      "daiĠbiaoĠdaĠhuiĠ": 5586,
      "RĠ": 5587,
      "wuĠheĠ": 5588,
      "ĠzhiĠziĠ": 5589,
      "nanĠshiĠ": 5590,
      "zhuĠchangĠ": 5591,
      "peiĠheĠ": 5592,
      "ĠzheĠjiangĠ": 5593,
      "ĠĠĠa": 5594,
      "pingĠweiĠ": 5595,
      "zeĠweiĠ": 5596,
      "teĠseĠ": 5597,
      "suiĠhouĠ": 5598,
      "xiaĠjiĠaoĠlinĠpiĠkeĠyunĠdongĠhuiĠ": 5599,
      "22Ġ": 5600,
      "jiaoĠxueĠ": 5601,
      "wanĠrenĠ": 5602,
      "ĠjiĠerĠ": 5603,
      "xieĠshiĠ": 5604,
      "puĠbianĠ": 5605,
      "ĠĠĠW": 5606,
      "daĠheĠ": 5607,
      "zheĠzaiĠ": 5608,
      "piaoĠfangĠ": 5609,
      "laĠjiĠ": 5610,
      "ĠshiĠtuĠ": 5611,
      "Ġ3ĠyueĠ": 5612,
      "ĠyaoĠqiuĠ": 5613,
      "wenĠxianĠ": 5614,
      "luoĠjiĠ": 5615,
      "feiĠzhouĠ": 5616,
      "ĠĠĠxiaoĠ": 5617,
      "lianĠrenĠ": 5618,
      "ĠxiĠjuĠ": 5619,
      "saĠsiĠ": 5620,
      "ĠweiĠheĠ": 5621,
      "anĠquan": 5622,
      "Ġ2011ĠnianĠ": 5623,
      "daoĠzhongĠ": 5624,
      "zhuanĠxiangĠ": 5625,
      "ĠfuĠjianĠ": 5626,
      "kaoĠlvĠ": 5627,
      "leĠĠĠ": 5628,
      "sheĠjiĠdeĠ": 5629,
      "wangĠchaoĠ": 5630,
      "Ġnai": 5631,
      "jieĠrenĠ": 5632,
      "mingĠxianĠ": 5633,
      "16Ġ": 5634,
      "ĠweiĠwuĠ": 5635,
      "ĠpanĠ": 5636,
      "zhuĠzhangĠ": 5637,
      "gongĠzhiĠ": 5638,
      "ĠbuĠkeĠ": 5639,
      "ĠxiĠbuĠ": 5640,
      "zhengĠheĠ": 5641,
      "tongĠdaoĠ": 5642,
      "mĠĠĠ": 5643,
      "Ġsun": 5644,
      "ĠweiĠxingĠ": 5645,
      "4ĠnianĠ": 5646,
      "Ġmai": 5647,
      "xuĠzaiĠ": 5648,
      "biaoĠmianĠ": 5649,
      "ĠnvĠxingĠ": 5650,
      "ĠĠĠguoĠ": 5651,
      "ĠÐ": 5652,
      "kouĠweiĠ": 5653,
      "meiĠguoĠdeĠ": 5654,
      "lingĠdaoĠrenĠ": 5655,
      "ĠjiaoĠyuĠ": 5656,
      "ĠweiĠlaiĠ": 5657,
      "biĠsai": 5658,
      "qiĠzhongĠyiĠzhongĠ": 5659,
      "Ġ2021": 5660,
      "zhaoĠdaoĠ": 5661,
      "huĠyuĠ": 5662,
      "siĠlingĠ": 5663,
      "1993ĠnianĠ": 5664,
      "jingĠcha": 5665,
      "fangĠwuĠ": 5666,
      "hongĠseĠ": 5667,
      "1988ĠnianĠ": 5668,
      "ĠliĠmiĠ": 5669,
      "ĠyuĠleĠ": 5670,
      "yuanĠgongĠ": 5671,
      "zuiĠhou": 5672,
      "ĠshiĠweiĠleĠ": 5673,
      "ĠdeĠzhiĠwuĠ": 5674,
      "ĠĠĠcongĠ": 5675,
      "hunĠyinĠ": 5676,
      "yunĠdong": 5677,
      "caiĠliaoĠ": 5678,
      "ĠchengĠgongĠ": 5679,
      "ĠsĠĠĠ": 5680,
      "ĠweiĠhuiĠ": 5681,
      "ĠxiĠya": 5682,
      "ĠjiĠhuiĠ": 5683,
      "Ġ2001ĠnianĠrenĠkouĠ": 5684,
      "dongĠnanĠbuĠ": 5685,
      "ĠnianĠqianĠ": 5686,
      "ĠyouĠbuĠ": 5687,
      "dongĠbeiĠbuĠ": 5688,
      "Ġ2015": 5689,
      "huaĠjiĠ": 5690,
      "fenĠbuĠyuĠ": 5691,
      "iĠ": 5692,
      "junĠyuĠ": 5693,
      "shouĠzhiĠ": 5694,
      "ĠtuiĠ": 5695,
      "fuĠzaiĠ": 5696,
      "bianĠshiĠ": 5697,
      "yingĠgaiĠ": 5698,
      "ĠxingĠqiĠ": 5699,
      "ĠĠĠ2012": 5700,
      "tiĠzhiĠ": 5701,
      "ĠrenĠshuĠ": 5702,
      "daĠchenĠ": 5703,
      "baoĠzhiĠ": 5704,
      "ĠhanĠguoĠ": 5705,
      "ĠĠĠV": 5706,
      "siĠgeĠ": 5707,
      "feiĠchuĠ": 5708,
      "ĠtiĠgongĠ": 5709,
      "Ġ2005ĠnianĠ": 5710,
      "jinĠyouĠ": 5711,
      "25Ġ": 5712,
      "dianĠhuaĠ": 5713,
      "geĠheĠ": 5714,
      "ĠbuĠmenĠ": 5715,
      "Ġzhong": 5716,
      "baoĠyuĠ": 5717,
      "ĠyiĠban": 5718,
      "ĠMa": 5719,
      "ruanĠjianĠ": 5720,
      "saoĠ": 5721,
      "ĠguanĠyuĠ": 5722,
      "yuanĠxingĠ": 5723,
      "wuĠtaiĠ": 5724,
      "MĠ": 5725,
      "lingĠdiĠ": 5726,
      "chiĠyouĠ": 5727,
      "duiĠzhangĠ": 5728,
      "tuiĠjinĠ": 5729,
      "zhuĠjueĠ": 5730,
      "gengĠduoĠ": 5731,
      "ĠyinĠerĠ": 5732,
      "ĠsuiĠdeĠ": 5733,
      "faĠxianĠleĠ": 5734,
      "ĠnianĠdiĠ": 5735,
      "Ġquan": 5736,
      "chuĠlaiĠ": 5737,
      "tiĠdaoĠ": 5738,
      "yongĠzuoĠ": 5739,
      "suoĠzaiĠ": 5740,
      "zhengĠchangĠ": 5741,
      "jueĠshiĠ": 5742,
      "wuĠzhuangĠ": 5743,
      "1ĠhaoĠ": 5744,
      "guoĠjiĠjiĠ": 5745,
      "meiĠdeĠ": 5746,
      "yaĠliĠshanĠdaĠ": 5747,
      "benĠdiĠ": 5748,
      "bianĠxingĠ": 5749,
      "EĠ": 5750,
      "ĠdaĠchengĠ": 5751,
      "guiĠdeĠ": 5752,
      "ĠerĠshuiĠyuĠmianĠjiĠweiĠ0": 5753,
      "riĠjunĠ": 5754,
      "ĠzaoĠchengĠ": 5755,
      "yinĠdiĠ": 5756,
      "jiaoĠyouĠ": 5757,
      "boĠsiĠ": 5758,
      "douĠhuiĠ": 5759,
      "poĠhuai": 5760,
      "taiĠrenĠ": 5761,
      "dongĠfangĠ": 5762,
      "tongĠyangĠ": 5763,
      "jiaoĠdaĠ": 5764,
      "huoĠzheĠ": 5765,
      "ĠpingĠfangĠmiĠ": 5766,
      "ĠzaiĠjiaĠ": 5767,
      "ĠdaĠliangĠ": 5768,
      "haiĠwaiĠ": 5769,
      "tuanĠdeĠ": 5770,
      "reĠĠĠ": 5771,
      "mingĠxingĠ": 5772,
      "qingĠbaoĠ": 5773,
      "anĠhuiĠ": 5774,
      "neiĠyouĠ": 5775,
      "duiĠwaiĠ": 5776,
      "caoĠzuoĠ": 5777,
      "jieĠshaoĠ": 5778,
      "qianĠwang": 5779,
      "Ġreng": 5780,
      "ĠsuiĠzheĠ": 5781,
      "Ġ2017": 5782,
      "jieĠmu": 5783,
      "yeĠhuiĠ": 5784,
      "xiaĠyouĠ": 5785,
      "ĠheĠpingĠ": 5786,
      "ĠerĠgaiĠdiĠ": 5787,
      "canĠmou": 5788,
      "Ġ2020": 5789,
      "Ġ2014": 5790,
      "Ġdou": 5791,
      "ĠĠĠzaoĠnianĠ": 5792,
      "xiangĠyiĠ": 5793,
      "onĠĠĠ": 5794,
      "yongĠtuĠ": 5795,
      "Ġ2013": 5796,
      "qiangĠdeĠ": 5797,
      "ĠyuĠheĠ": 5798,
      "chuĠkouĠ": 5799,
      "ĠyiĠduĠ": 5800,
      "ĠzhiĠdingĠ": 5801,
      "gaiĠshanĠ": 5802,
      "aoĠyunĠhuiĠ": 5803,
      "biaoĠdeĠ": 5804,
      "laĠheĠ": 5805,
      "18Ġ": 5806,
      "ĠxiĠtong": 5807,
      "ĠdeĠshiĠjieĠ": 5808,
      "gaoĠjiaĠ": 5809,
      "xiĠnanĠ": 5810,
      "ĠyueĠnanĠ": 5811,
      "duiĠxiangĠ": 5812,
      "2ĠnianĠ": 5813,
      "xianĠjinĠ": 5814,
      "yanĠshenĠ": 5815,
      "queĠzhenĠbingĠliĠ": 5816,
      "dunĠdeĠ": 5817,
      "ĠjiaĠnaĠdaĠ": 5818,
      "ĠbaoĠhanĠ": 5819,
      "meiĠliĠ": 5820,
      "sanĠjiĠ": 5821,
      "zuoĠquĠ": 5822,
      "ĠshiĠdaĠ": 5823,
      "leĠdaĠ": 5824,
      "xiaoĠquĠ": 5825,
      "junĠquĠ": 5826,
      "dengĠshangĠ": 5827,
      "Ġxiu": 5828,
      "ĠshengĠyuĠ": 5829,
      "zhengĠtiĠ": 5830,
      "jiaĠzaiĠ": 5831,
      "changĠyouĠ": 5832,
      "leĠtaĠdeĠ": 5833,
      "xiaĠxiaĠdeĠyiĠgeĠ": 5834,
      "longĠjiangĠ": 5835,
      "geĠlunĠ": 5836,
      "ĠyeĠyouĠ": 5837,
      "duoĠrenĠ": 5838,
      "jueĠyiĠ": 5839,
      "shuĠruĠ": 5840,
      "haiĠxiaĠ": 5841,
      "ĠdianĠyingĠ": 5842,
      "guanĠshiĠ": 5843,
      "suiĠzhuĠ": 5844,
      "nieĠ": 5845,
      "ĠxianĠrenĠ": 5846,
      "yunĠshiĠ": 5847,
      "ĠqiĠzaiĠ": 5848,
      "yunĠzuoĠ": 5849,
      "ĠriĠdeĠ": 5850,
      "19ĠshiĠjiĠ": 5851,
      "juĠyiĠ": 5852,
      "13Ġ": 5853,
      "ĠweiĠkeĠ": 5854,
      "gouĠzaoĠ": 5855,
      "banĠshiĠchuĠ": 5856,
      "ĠerĠyanĠ": 5857,
      "ĠnanĠzhiĠ": 5858,
      "zhanĠzhiĠ": 5859,
      "liuĠzaiĠ": 5860,
      "ĠĠĠMa": 5861,
      "ĠĠĠzengĠ": 5862,
      "zuoĠrenĠ": 5863,
      "dianĠcheĠ": 5864,
      "ĠsaiĠjiĠ": 5865,
      "faĠshouĠ": 5866,
      "gaoĠsuĠgongĠluĠ": 5867,
      "ĠnianĠlaiĠ": 5868,
      "kangĠriĠ": 5869,
      "shuĠyuanĠ": 5870,
      "jiaĠyouĠ": 5871,
      "duĠheĠ": 5872,
      "feiĠliĠ": 5873,
      "junĠguanĠ": 5874,
      "miĠmiĠ": 5875,
      "1990ĠnianĠ": 5876,
      "kaiĠzhanĠ": 5877,
      "ĠshiĠwuĠkeĠ": 5878,
      "renĠdaĠ": 5879,
      "ĠzhongĠzaiĠ": 5880,
      "Ġ100": 5881,
      "shangĠyuĠ": 5882,
      "binĠhaiĠ": 5883,
      "ĠdongĠlinĠ": 5884,
      "Ġ2010": 5885,
      "shenĠme": 5886,
      "ĠwanĠmeiĠyuanĠ": 5887,
      "ĠshaoĠ": 5888,
      "xiaĠling": 5889,
      "tianĠshiĠ": 5890,
      "chuangĠjianĠ": 5891,
      "jiangĠhuiĠ": 5892,
      "liangĠciĠ": 5893,
      "lingĠxiuĠ": 5894,
      "zhuangĠbeiĠ": 5895,
      "dongĠzuoĠ": 5896,
      "Ġniu": 5897,
      "chuanĠzhiĠ": 5898,
      "chaiĠchuĠ": 5899,
      "senĠlinĠ": 5900,
      "ĠchengĠliĠ": 5901,
      "shouĠyiĠ": 5902,
      "ĠqiĠxiangĠ": 5903,
      "shouĠzhangĠ": 5904,
      "ĠtaiĠwan": 5905,
      "caiĠzhengĠ": 5906,
      "anĠdaĠ": 5907,
      "yaĠkeĠ": 5908,
      "biĠmianĠ": 5909,
      "guĠliĠ": 5910,
      "ĠqiĠziĠ": 5911,
      "touĠpiao": 5912,
      "shanĠquĠ": 5913,
      "ĠzhengĠzhiĠ": 5914,
      "huiĠyuanĠ": 5915,
      "ĠĠĠsiĠ": 5916,
      "ĠjuĠxingĠ": 5917,
      "Ġpo": 5918,
      "ĠjianĠyuĠ": 5919,
      "beiĠshiĠweiĠ": 5920,
      "tuĠxingĠ": 5921,
      "qinĠziĠ": 5922,
      "ĠerĠtongĠ": 5923,
      "juĠqingĠ": 5924,
      "kaĠluoĠ": 5925,
      "Ġqi": 5926,
      "ĠnianĠ1ĠyueĠ1ĠriĠ": 5927,
      "shouĠluĠ": 5928,
      "ĠhengĠ": 5929,
      "wuĠsiĠ": 5930,
      "ĠtaiĠyangĠ": 5931,
      "zuiĠgao": 5932,
      "houĠshiĠ": 5933,
      "zheĠbuĠ": 5934,
      "waiĠjiaoĠbuĠ": 5935,
      "ĠyiĠmeiĠyuanĠ": 5936,
      "dengĠdeĠ": 5937,
      "liuĠdeĠ": 5938,
      "ĠsiĠlingĠ": 5939,
      "ceĠliangĠ": 5940,
      "1989ĠnianĠ": 5941,
      "jingĠxuanĠ": 5942,
      "ĠmeiĠgeĠ": 5943,
      "huiĠzhongĠ": 5944,
      "zhangĠguanĠ": 5945,
      "fanĠzuiĠ": 5946,
      "ĠjieĠshouĠ": 5947,
      "5ĠnianĠ": 5948,
      "bĠ": 5949,
      "banĠliĠ": 5950,
      "Ġhuan": 5951,
      "Ġ2007ĠnianĠ": 5952,
      "ĠĠĠdangĠ": 5953,
      "siĠyiĠ": 5954,
      "fuĠweiĠ": 5955,
      "suoĠshiĠ": 5956,
      "bingĠruĠ": 5957,
      "ĠyouĠkeĠ": 5958,
      "xiangĠzhengĠ": 5959,
      "ĠerĠziĠ": 5960,
      "shouĠxiĠ": 5961,
      "gengĠweiĠ": 5962,
      "daiĠlaiĠ": 5963,
      "mingĠzhongĠ": 5964,
      "baoĠshouĠ": 5965,
      "ĠdongĠbeiĠ": 5966,
      "fanĠweiĠneiĠ": 5967,
      "pianĠdeĠ": 5968,
      "3ĠgeĠ": 5969,
      "mianĠshiĠ": 5970,
      "mengĠdeĠ": 5971,
      "guoĠwangĠ": 5972,
      "taiĠfengĠ": 5973,
      "riĠzhiĠ": 5974,
      "ĠerĠchengĠ": 5975,
      "huĠnanĠ": 5976,
      "Ġ2008ĠnianĠ": 5977,
      "ĠqiĠxiaĠ": 5978,
      "chuĠdaoĠ": 5979,
      "zunĠ": 5980,
      "ĠzaiĠduĠ": 5981,
      "ĠsheĠhuiĠ": 5982,
      "ĠyiĠhouĠ": 5983,
      "ĠjieĠkeĠ": 5984,
      "ĠshengĠhuoĠxiĠ": 5985,
      "yanĠxiĠ": 5986,
      "fangĠmianĠdeĠ": 5987,
      "renĠliĠ": 5988,
      "canĠyiĠyuanĠ": 5989,
      "kaiĠtongĠ": 5990,
      "ĠyongĠyouĠ": 5991,
      "taiĠziĠ": 5992,
      "junĠzhuĠ": 5993,
      "qingĠchuĠ": 5994,
      "dingĠjuĠ": 5995,
      "gongĠzhuĠ": 5996,
      "shengĠyinĠ": 5997,
      "ĠsheĠyouĠ": 5998,
      "huaĠheĠwuĠ": 5999,
      "zhanĠqiĠjianĠ": 6000,
      "Ġ2012": 6001,
      "jinĠweiĠ": 6002,
      "1984ĠnianĠ": 6003,
      "zhouĠqiĠ": 6004,
      "zuĠfuĠ": 6005,
      "jianĠjieĠ": 6006,
      "ĠsiĠwangĠ": 6007,
      "liangĠjiĠ": 6008,
      "piĠfuĠ": 6009,
      "feiĠdeĠ": 6010,
      "waiĠbuĠ": 6011,
      "xiangĠhuĠ": 6012,
      "yingĠyeĠ": 6013,
      "guanĠchaĠ": 6014,
      "xingĠbuĠmingĠ": 6015,
      "duiĠyouĠ": 6016,
      "zhuĠyaoĠdeĠ": 6017,
      "leiĠdaĠ": 6018,
      "duĠliĠdeĠ": 6019,
      "Ġsha": 6020,
      "Ġlao": 6021,
      "ĠjuĠyouĠ": 6022,
      "zhuanĠdeĠ": 6023,
      "ĠÃ": 6024,
      "ĠĠĠmingĠ": 6025,
      "lvĠdeĠ": 6026,
      "xiĠjuĠ": 6027,
      "ĠcanĠjiaĠ": 6028,
      "bingĠdeĠ": 6029,
      "jiangĠjiĠ": 6030,
      "erĠyueĠ": 6031,
      "changĠzhiĠ": 6032,
      "maĠlaĠ": 6033,
      "gouĠmaiĠ": 6034,
      "ĠshengĠhuoĠxiĠxingĠbuĠmingĠ": 6035,
      "ĠyiĠdaiĠ": 6036,
      "tianĠqiĠ": 6037,
      "eĠĠĠ": 6038,
      "queĠdeĠ": 6039,
      "tongĠpaiĠ": 6040,
      "xinĠyangĠ": 6041,
      "niĠerĠ": 6042,
      "ĠnianĠĠĠ": 6043,
      "faĠxingĠdeĠ": 6044,
      "zuoĠbiaoĠweiĠ": 6045,
      "jiangĠlingĠ": 6046,
      "touĠluĠ": 6047,
      "jiuĠlongĠ": 6048,
      "anĠzhuangĠ": 6049,
      "ĠwuĠfaĠ": 6050,
      "ĠĠĠbeiĠjingĠ": 6051,
      "liangĠxiangĠ": 6052,
      "jiaĠliĠfuĠ": 6053,
      "xinĠxingĠ": 6054,
      "huoĠshanĠ": 6055,
      "zuĠzhiĠdeĠ": 6056,
      "keĠnengĠshiĠ": 6057,
      "jingĠzhongĠ": 6058,
      "chengĠheĠ": 6059,
      "guanĠjianĠ": 6060,
      "taiĠbeiĠshiĠ": 6061,
      "Ġdong": 6062,
      "Ġxiao": 6063,
      "ĠgongĠyouĠ": 6064,
      "luĠjiĠ": 6065,
      "jiuĠduĠ": 6066,
      "ĠĠĠciĠwaiĠ": 6067,
      "ĠyongĠyuĠ": 6068,
      "jieĠsanĠ": 6069,
      "ruĠqinĠ": 6070,
      "ĠzhongĠshiĠ": 6071,
      "kongĠqiĠ": 6072,
      "ĠzaiĠci": 6073,
      "ĠyueĠzhongĠ": 6074,
      "liangĠzhiĠ": 6075,
      "baiĠrenĠ": 6076,
      "fangĠyanĠ": 6077,
      "lunĠwenĠ": 6078,
      "erĠzhiĠ": 6079,
      "zhuĠyiĠdeĠ": 6080,
      "ĠzhongĠguoĠdaĠluĠ": 6081,
      "shangĠbuĠ": 6082,
      "zheĠxie": 6083,
      "chuanĠshuoĠ": 6084,
      "keĠyiĠzaiĠ": 6085,
      "1985ĠnianĠ": 6086,
      "kaoĠguĠ": 6087,
      "houĠbeiĠ": 6088,
      "Ġcha": 6089,
      "ĠchuĠxianĠ": 6090,
      "Ġyang": 6091,
      "quĠjiĠ": 6092,
      "fuĠjinĠdeĠ": 6093,
      "Ġ2009": 6094,
      "zhangĠaiĠ": 6095,
      "Ġkai": 6096,
      "aiĠjiĠ": 6097,
      "chuĠbuĠ": 6098,
      "ĠyinĠqiĠ": 6099,
      "oĠ": 6100,
      "tongĠnianĠ": 6101,
      "manĠdeĠ": 6102,
      "jingĠfangĠ": 6103,
      "ĠshiĠshiĠjieĠ": 6104,
      "xinĠjiaĠpoĠ": 6105,
      "ĠduanĠ": 6106,
      "moĠsiĠkeĠ": 6107,
      "ĠĠĠjuĠqingĠ": 6108,
      "ĠcanĠyuĠ": 6109,
      "lianĠzaiĠ": 6110,
      "yuĠyanĠ": 6111,
      "ĠbiĠruĠ": 6112,
      "2ĠrenĠ": 6113,
      "chengĠnianĠ": 6114,
      "kaoĠjinĠ": 6115,
      "3ĠrenĠ": 6116,
      "ĠdiĠshiĠ": 6117,
      "qianĠrenĠ": 6118,
      "ĠweiĠciĠ": 6119,
      "zhanĠtingĠ": 6120,
      "guiĠzuĠ": 6121,
      "1ĠliĠ": 6122,
      "mingĠrenĠ": 6123,
      "yunĠnanĠ": 6124,
      "zhongĠdianĠ": 6125,
      "zuoĠzheĠ": 6126,
      "guangĠdongĠshengĠ": 6127,
      "ĠshiĠriĠbenĠ": 6128,
      "muĠqin": 6129,
      "ĠqiĠshiĠ": 6130,
      "ĠsiĠchuanĠ": 6131,
      "ĠgongĠtongĠ": 6132,
      "Ġ2008": 6133,
      "quĠleĠ": 6134,
      "zheĠweiĠ": 6135,
      "ĠguoĠchengĠzhongĠ": 6136,
      "baoĠzhangĠ": 6137,
      "taiĠduĠ": 6138,
      "ĠchuĠshengĠyuĠ": 6139,
      "ĠteĠbieĠshiĠ": 6140,
      "Ġ1949": 6141,
      "Ġ2013ĠnianĠ": 6142,
      "zhouĠjiĠ": 6143,
      "gaoĠdaĠ": 6144,
      "ĠrenĠmingĠ": 6145,
      "zongĠshiĠ": 6146,
      "ĠshiĠjiĠshangĠ": 6147,
      "ĠĠĠben": 6148,
      "yinĠqingĠ": 6149,
      "changĠjianĠdeĠ": 6150,
      "suoĠshuĠ": 6151,
      "shuangĠfangĠ": 6152,
      "quĠyiĠhuiĠ": 6153,
      "yinĠheĠ": 6154,
      "jiangĠzaiĠ": 6155,
      "ĠyouĠciĠ": 6156,
      "quanĠzhangĠ": 6157,
      "xunĠyangĠ": 6158,
      "faĠhuiĠ": 6159,
      "ĠdiĠwuĠ": 6160,
      "yingĠxiongĠ": 6161,
      "Ġ50": 6162,
      "huaĠyiĠ": 6163,
      "xiuĠzhengĠ": 6164,
      "huaĠzhiĠ": 6165,
      "ganĠbuĠ": 6166,
      "ĠshiĠdeĠguoĠ": 6167,
      "fangĠyiĠ": 6168,
      "youĠxianĠ": 6169,
      "ĠqiĠxiĠ": 6170,
      "leĠyuĠ": 6171,
      "tiaoĠliĠ": 6172,
      "ĠÎ": 6173,
      "chuĠzaiĠ": 6174,
      "ĠzengĠ": 6175,
      "cuoĠwuĠ": 6176,
      "ĠjiaĠtingĠ": 6177,
      "chuĠyanĠ": 6178,
      "ĠĠĠdiĠfangĠ": 6179,
      "ĠguoĠhuiĠ": 6180,
      "bianĠjuĠ": 6181,
      "Ġcai": 6182,
      "suiĠshiĠ": 6183,
      "ĠyiĠxiaoĠshiĠ": 6184,
      "ĠxueĠxiaoĠ": 6185,
      "shengĠtaiĠ": 6186,
      "ĠbingĠduĠ": 6187,
      "shouĠxiangĠ": 6188,
      "wanĠgongĠ": 6189,
      "nengĠliangĠ": 6190,
      "huĠbuĠ": 6191,
      "banĠbuĠ": 6192,
      "yuanĠzeĠ": 6193,
      "faĠlanĠxiĠ": 6194,
      "ĠwuĠkeĠlanĠ": 6195,
      "Ġsu": 6196,
      "laoĠdeĠ": 6197,
      "ĠyueĠtuanĠ": 6198,
      "zhouĠciĠshiĠ": 6199,
      "taoĠtaiĠ": 6200,
      "ĠĠĠqiĠtaĠ": 6201,
      "shuĠliĠ": 6202,
      "xiangĠguanĠdeĠ": 6203,
      "Ġdui": 6204,
      "chuĠzhiĠ": 6205,
      "zuiĠyouĠ": 6206,
      "fengĠweiĠ": 6207,
      "luĠkouĠ": 6208,
      "luĠyingĠ": 6209,
      "qingĠhuaĠ": 6210,
      "ĠwanĠyuanĠ": 6211,
      "ĠĠĠ2010": 6212,
      "ĠnianĠkaiĠshiĠ": 6213,
      "ĠpingĠjunĠ": 6214,
      "ĠĠĠdiĠerĠ": 6215,
      "guĠfen": 6216,
      "keĠdeĠqiĠzhongĠyiĠzhongĠ": 6217,
      "ĠĠĠmeiĠguoĠ": 6218,
      "huiĠbuĠ": 6219,
      "ĠweiĠchiĠ": 6220,
      "qingĠqiuĠ": 6221,
      "zhiĠdeĠshiĠ": 6222,
      "faĠguanĠ": 6223,
      "yaoĠqiu": 6224,
      "dangĠdiĠdeĠ": 6225,
      "kaiĠsheĠ": 6226,
      "heĠĠĠ": 6227,
      "huanĠchengĠ": 6228,
      "30Ġ": 6229,
      "ĠzhongĠhuaĠrenĠminĠgongĠheĠguoĠzhengĠzhiĠrenĠwuĠ": 6230,
      "rĠĠĠ": 6231,
      "siĠzhiĠ": 6232,
      "ĠjiĠnian": 6233,
      "ĠheĠxinĠ": 6234,
      "huoĠxingĠ": 6235,
      "gaiĠchengĠ": 6236,
      "ĠshiĠyong": 6237,
      "ĠĠĠdanĠ": 6238,
      "lingĠrenĠ": 6239,
      "heĠxinĠ": 6240,
      "Ġ2022": 6241,
      "hanĠyouĠ": 6242,
      "henĠdaĠ": 6243,
      "ĠheĠzhongĠ": 6244,
      "meiĠshuĠ": 6245,
      "daoĠbuĠ": 6246,
      "hanĠyuĠ": 6247,
      "zhuangĠjiĠ": 6248,
      "cuiĠhuiĠ": 6249,
      "luĠkeĠ": 6250,
      "ĠshiĠgeĠ": 6251,
      "chengĠkeĠ": 6252,
      "ĠwanĠjiaĠ": 6253,
      "paiĠmingĠdiĠ": 6254,
      "xiaĠweiĠ": 6255,
      "ĠĠĠ2011": 6256,
      "qiangĠdiaoĠ": 6257,
      "Ġ2006ĠnianĠ": 6258,
      "enĠshengĠ": 6259,
      "dangĠweiĠ": 6260,
      "ĠmaiĠkeĠ": 6261,
      "zhengĠweiĠ": 6262,
      "xiĠlaĠ": 6263,
      "yaĠjunĠ": 6264,
      "Ġxiong": 6265,
      "yuanĠzhongĠ": 6266,
      "beiĠweiĠ": 6267,
      "ĠyiĠzuoĠ": 6268,
      "zuiĠgaoĠdeĠ": 6269,
      "tianĠjingĠ": 6270,
      "niĠyaĠzhouĠ": 6271,
      "nengĠzaiĠ": 6272,
      "gongĠyingĠ": 6273,
      "ĠhenĠ": 6274,
      "jiĠĠĠ": 6275,
      "xiaĠquĠ": 6276,
      "suoĠchuĠdeĠ": 6277,
      "canĠkaoĠ": 6278,
      "yaĠyiĠ": 6279,
      "chengĠbenĠ": 6280,
      "dangĠjuĠ": 6281,
      "tiĠyuĠchangĠ": 6282,
      "6ĠnianĠ": 6283,
      "xieĠerĠ": 6284,
      "shangĠhaiĠshiĠ": 6285,
      "shengĠyouĠ": 6286,
      "suoĠzhiĠ": 6287,
      "14Ġ": 6288,
      "ĠjiĠbuĠ": 6289,
      "tuĠpoĠ": 6290,
      "ĠyeĠjiuĠshiĠ": 6291,
      "ĠAĠ": 6292,
      "ĠdaĠduoĠ": 6293,
      "teĠdingĠ": 6294,
      "dengĠdengĠ": 6295,
      "kunĠnanĠ": 6296,
      "renĠyuanĠ": 6297,
      "ĠdaĠxingĠ": 6298,
      "yinĠruĠ": 6299,
      "aĠlaĠboĠ": 6300,
      "Ġqing": 6301,
      "taiĠzhongĠ": 6302,
      "baiĠdeĠ": 6303,
      "xieĠdaoĠ": 6304,
      "nĠĠĠ": 6305,
      "xiangĠyouĠ": 6306,
      "fouĠ": 6307,
      "ĠyiĠfuĠ": 6308,
      "Ġmeng": 6309,
      "ĠwenĠhuaĠ": 6310,
      "jingĠzhiĠ": 6311,
      "ĠjiĠduĠ": 6312,
      "keĠxueĠyuanĠ": 6313,
      "tanĠdeĠ": 6314,
      "shunĠliĠ": 6315,
      "huoĠbanĠ": 6316,
      "fenĠbuĠzaiĠ": 6317,
      "7ĠnianĠ": 6318,
      "huanĠdeĠ": 6319,
      "xiuĠfuĠ": 6320,
      "xianĠshengĠ": 6321,
      "ĠdaĠfuĠ": 6322,
      "laĠdingĠ": 6323,
      "ĠsuiĠzhuĠ": 6324,
      "xiĠbaoĠ": 6325,
      "zhanĠxianĠ": 6326,
      "ĠĠĠ1Ġ": 6327,
      "chengĠguoĠ": 6328,
      "leĠqiĠ": 6329,
      "junĠzhiĠ": 6330,
      "qingĠxingĠ": 6331,
      "ĠxiĠbanĠyaĠ": 6332,
      "ĠĠĠ3": 6333,
      "xiangĠweiĠ": 6334,
      "laiĠshiĠ": 6335,
      "daĠhuiĠ": 6336,
      "ĠxiangĠnianĠ": 6337,
      "ĠĠĠaĠ": 6338,
      "wangĠyuanĠ": 6339,
      "ĠxiĠerĠ": 6340,
      "ruĠqin": 6341,
      "ĠbuĠjinĠ": 6342,
      "ĠkeĠerĠ": 6343,
      "Ġ2012ĠnianĠ": 6344,
      "wuĠziĠ": 6345,
      "duoĠweiĠ": 6346,
      "chuanĠdeĠ": 6347,
      "haiĠyangĠ": 6348,
      "jingĠheĠ": 6349,
      "xiaoĠyuanĠ": 6350,
      "kaiĠfa": 6351,
      "zhongĠguoĠdaĠluĠdeĠ": 6352,
      "keĠyouĠ": 6353,
      "haiĠpingĠmianĠ": 6354,
      "gaiĠshiĠ": 6355,
      "suoĠweiĠ": 6356,
      "xiuĠjianĠ": 6357,
      "shengĠchuĠ": 6358,
      "ĠtaĠcengĠdaiĠbiaoĠ": 6359,
      "ganĠranĠzheĠ": 6360,
      "ĠheĠlanĠ": 6361,
      "tongĠmengĠ": 6362,
      "qiangĠlieĠ": 6363,
      "heiĠseĠ": 6364,
      "wĠ": 6365,
      "zeĠzaiĠ": 6366,
      "ĠriĠjunĠ": 6367,
      "1ĠrenĠ": 6368,
      "ĠĠĠyinĠ": 6369,
      "xueĠyuĠ": 6370,
      "laiĠyueĠ": 6371,
      "1980ĠnianĠ": 6372,
      "ĠzuĠfuĠ": 6373,
      "Ġ00Ġ": 6374,
      "hongĠzha": 6375,
      "ciĠshiĠjieĠdaĠzhanĠ": 6376,
      "jiaĠweiĠ": 6377,
      "taiĠyuĠ": 6378,
      "zuiĠweiĠ": 6379,
      "shouĠgouĠ": 6380,
      "zhaoĠpianĠ": 6381,
      "leĠzaiĠ": 6382,
      "yinĠliĠ": 6383,
      "chuiĠ": 6384,
      "yaĠmeiĠ": 6385,
      "ĠU": 6386,
      "zhouĠzhiĠ": 6387,
      "zhenĠyuĠ": 6388,
      "jingĠyiĠ": 6389,
      "guĠdaiĠ": 6390,
      "geiĠleĠ": 6391,
      "liĠyuĠ": 6392,
      "zhuĠzhiĠ": 6393,
      "jiangĠzhiĠ": 6394,
      "zuĠyiĠ": 6395,
      "huangĠhouĠ": 6396,
      "1986ĠnianĠ": 6397,
      "renĠleiĠ": 6398,
      "dangĠyuanĠ": 6399,
      "ĠtongĠshiĠgaiĠdiĠ": 6400,
      "4ĠrenĠ": 6401,
      "ĠĠĠ17": 6402,
      "beiĠyuĠ": 6403,
      "zhangĠweiĠ": 6404,
      "teĠxingĠ": 6405,
      "daĠjiangĠ": 6406,
      "ĠdeĠjiĠchuĠ": 6407,
      "ĠguangĠdongĠ": 6408,
      "houĠweiĠ": 6409,
      "dingĠqiĠ": 6410,
      "ceĠĠĠ": 6411,
      "manĠzuĠ": 6412,
      "ĠliaoĠ": 6413,
      "zuĠqiuĠyunĠdongĠyuanĠ": 6414,
      "boĠshiĠxueĠweiĠ": 6415,
      "4ĠgeĠ": 6416,
      "ĠkuĠ": 6417,
      "qiangĠzhiĠ": 6418,
      "bengĠ": 6419,
      "beiĠjingĠshiĠ": 6420,
      "shangĠchangĠ": 6421,
      "nongĠminĠ": 6422,
      "neiĠluĠshengĠfenĠ": 6423,
      "xiangĠheĠ": 6424,
      "jiaoĠzhiĠ": 6425,
      "liangĠguoĠ": 6426,
      "chengĠbaoĠ": 6427,
      "jiuĠhuiĠ": 6428,
      "benĠshenĠ": 6429,
      "chengĠshiĠdeĠ": 6430,
      "zhenĠjiĠ": 6431,
      "keĠfuĠ": 6432,
      "ĠhuoĠzheĠ": 6433,
      "ĠaĠerĠ": 6434,
      "chuĠyouĠ": 6435,
      "bangĠdeĠ": 6436,
      "ĠtieĠ": 6437,
      "stĠĠĠ": 6438,
      "ĠzhongĠziĠ": 6439,
      "xunĠzhangĠ": 6440,
      "chuangĠbanĠ": 6441,
      "xiaĠlingĠshiĠjianĠ": 6442,
      "Ġpu": 6443,
      "tongĠweiĠ": 6444,
      "jingĠzaiĠ": 6445,
      "duanĠshiĠ": 6446,
      "ĠZ": 6447,
      "moĠsiĠ": 6448,
      "ĠzhiĠyiĠ": 6449,
      "leĠyouĠ": 6450,
      "bianĠhaoĠ": 6451,
      "ĠmuĠqian": 6452,
      "ĠbuĠdiĠ": 6453,
      "keĠzhiĠ": 6454,
      "kuoĠzhanĠ": 6455,
      "ĠmeiĠnianĠ": 6456,
      "riĠdeĠ": 6457,
      "tangĠdeĠ": 6458,
      "ĠrenĠqiĠ": 6459,
      "xiangĠxinĠ": 6460,
      "luĠxuĠ": 6461,
      "minĠdiĠ": 6462,
      "shangĠxiaĠ": 6463,
      "jiuĠyiĠ": 6464,
      "zaoĠzaiĠ": 6465,
      "diĠqiuĠ": 6466,
      "Ġdi": 6467,
      "19Ġ": 6468,
      "woĠdeĠ": 6469,
      "ĠbuĠluoĠ": 6470,
      "wuĠdaoĠ": 6471,
      "taĠweiĠ": 6472,
      "junĠheĠ": 6473,
      "wanĠdeĠ": 6474,
      "juĠdaĠ": 6475,
      "ĠĠĠjianĠjieĠ": 6476,
      "Ġ10Ġ": 6477,
      "muĠzhiĠ": 6478,
      "ĠjiĠfuĠ": 6479,
      "renĠgongĠ": 6480,
      "ĠĠĠ2": 6481,
      "gaoĠzhiĠ": 6482,
      "fanĠzhiĠ": 6483,
      "xuanĠdeĠ": 6484,
      "xiĠwangĠ": 6485,
      "geĠming": 6486,
      "tianĠtiĠ": 6487,
      "weiĠyiĠyiĠ": 6488,
      "ĠkanĠ": 6489,
      "ĠĠĠjieĠ": 6490,
      "chiĠrenĠ": 6491,
      "muĠniĠ": 6492,
      "Ġ500": 6493,
      "1945ĠnianĠ": 6494,
      "wuĠzhengĠzhuangĠ": 6495,
      "ĠqiĠcheĠ": 6496,
      "zheĠxueĠ": 6497,
      "suoĠyouĠdeĠ": 6498,
      "tanĠpanĠ": 6499,
      "ĠshiĠyiĠgeĠweiĠyuĠ": 6500,
      "huiĠguoĠ": 6501,
      "nanĠfangĠ": 6502,
      "liangĠmingĠ": 6503,
      "miĠyaĠ": 6504,
      "ĠxianĠhouĠ": 6505,
      "ziĠzhongĠ": 6506,
      "Ġ1950": 6507,
      "quĠzhiĠ": 6508,
      "xiĠyaĠ": 6509,
      "jiangĠjinĠ": 6510,
      "yueĠnanĠ": 6511,
      "ĠĠĠdiĠfangĠziĠliaoĠ": 6512,
      "dianĠheĠ": 6513,
      "yaĠheĠ": 6514,
      "rongĠheĠ": 6515,
      "xiangĠbiĠ": 6516,
      "shaĠhaiĠ": 6517,
      "Ġ2014ĠnianĠ": 6518,
      "ĠĠĠ2Ġ": 6519,
      "feiĠerĠ": 6520,
      "fengĠfuĠ": 6521,
      "wenĠduĠ": 6522,
      "diĠyiĠweiĠ": 6523,
      "yanĠyuĠ": 6524,
      "bingĠyiĠ": 6525,
      "lingĠyiĠgeĠ": 6526,
      "ĠwaĠ": 6527,
      "duiĠciĠ": 6528,
      "Ġni": 6529,
      "Ġsong": 6530,
      "daiĠshiĠ": 6531,
      "pingĠdeĠ": 6532,
      "nuoĠfuĠ": 6533,
      "ĠguoĠquĠ": 6534,
      "fangĠjianĠ": 6535,
      "ziĠzaiĠ": 6536,
      "chuĠshouĠ": 6537,
      "yinĠpaiĠ": 6538,
      "changĠjianĠ": 6539,
      "aoĠzhouĠ": 6540,
      "hĠ": 6541,
      "ĠjiuĠshiĠ": 6542,
      "cengĠweiĠ": 6543,
      "gaoĠxiong": 6544,
      "paiĠhangĠ": 6545,
      "ĠyiĠsiĠlanĠ": 6546,
      "yeĠjiĠ": 6547,
      "ĠyiĠwuĠ": 6548,
      "shenĠduĠ": 6549,
      "liangĠnianĠ": 6550,
      "ĠnianĠweiĠ": 6551,
      "qinĠwangĠ": 6552,
      "sanĠjiaĠ": 6553,
      "nvĠzhuĠ": 6554,
      "Ġ0Ġ": 6555,
      "ĠĠĠyingĠ": 6556,
      "zhouĠheĠ": 6557,
      "xiuĠdeĠ": 6558,
      "1987ĠnianĠ": 6559,
      "naĠcui": 6560,
      "guanĠliĠjuĠ": 6561,
      "dingĠshiĠ": 6562,
      "daĠxiĠyangĠ": 6563,
      "Ġxu": 6564,
      "haoĠshiĠ": 6565,
      "haiĠbaĠweiĠ": 6566,
      "ĠruoĠ": 6567,
      "tiĠweiĠ": 6568,
      "ĠjiĠhouĠ": 6569,
      "ĠkeĠxiĠ": 6570,
      "shanĠfengĠ": 6571,
      "zhengĠce": 6572,
      "tongĠmingĠ": 6573,
      "ĠjiaĠzuĠ": 6574,
      "dongĠshiĠzhangĠ": 6575,
      "yeĠyiĠ": 6576,
      "peiĠzhiĠ": 6577,
      "zouĠxiangĠ": 6578,
      "ĠyouĠzhongĠ": 6579,
      "xiaoĠfangĠ": 6580,
      "zaiĠliĠ": 6581,
      "zhuĠweiĠ": 6582,
      "liangĠdaĠ": 6583,
      "ĠxiĠlie": 6584,
      "suoĠcaiĠyong": 6585,
      "ĠbingĠweiĠ": 6586,
      "LĠ": 6587,
      "jieĠzhongĠ": 6588,
      "ĠbuĠduanĠ": 6589,
      "ĠshiĠyiĠbuĠ": 6590,
      "hanĠdeĠ": 6591,
      "huanĠzheĠ": 6592,
      "ĠbuĠerĠ": 6593,
      "ĠdaĠduoĠshuĠ": 6594,
      "gaiĠzaoĠ": 6595,
      "nengĠyuanĠ": 6596,
      "leĠzhongĠ": 6597,
      "ĠgenĠ": 6598,
      "huĠweiĠ": 6599,
      "junĠrenĠ": 6600,
      "1983ĠnianĠ": 6601,
      "zhanĠlve": 6602,
      "kaoĠlv": 6603,
      "ĠxiaoĠshiĠ": 6604,
      "shouĠrenĠ": 6605,
      "1982ĠnianĠ": 6606,
      "zhiĠshiĠqiĠ": 6607,
      "Ġku": 6608,
      "wenĠzhongĠ": 6609,
      "mangĠ": 6610,
      "zhanĠlanĠ": 6611,
      "gongĠchengĠshiĠ": 6612,
      "jieĠtiĠ": 6613,
      "ĠĠĠIn": 6614,
      "junĠzhongĠ": 6615,
      "ganĠranĠ": 6616,
      "baĠheĠ": 6617,
      "manĠdiĠ": 6618,
      "ĠshiĠyeĠ": 6619,
      "erĠtongĠ": 6620,
      "guĠdingĠ": 6621,
      "mengĠgu": 6622,
      "Ġ40": 6623,
      "ĠĠĠjingĠ": 6624,
      "ĠzaiĠyouĠ": 6625,
      "geĠjuĠ": 6626,
      "taiĠheĠ": 6627,
      "Ġcn": 6628,
      "leĠzheĠ": 6629,
      "huanĠxingĠ": 6630,
      "ĠguoĠneiĠ": 6631,
      "ĠweiĠyuĠgaiĠ": 6632,
      "lunĠshiĠ": 6633,
      "zhengĠxie": 6634,
      "shangĠshengĠ": 6635,
      "boĠlinĠ": 6636,
      "geĠyuĠ": 6637,
      "jieĠliĠ": 6638,
      "huiĠyiĠyuanĠ": 6639,
      "jueĠduiĠ": 6640,
      "gongĠliĠdeĠ": 6641,
      "kouĠdeĠ": 6642,
      "ĠerĠfeiĠ": 6643,
      "muĠqian": 6644,
      "diaoĠkuai": 6645,
      "aiĠerĠlanĠ": 6646,
      "daoĠweiĠ": 6647,
      "xiaoĠfeiĠ": 6648,
      "xiaĠlingĠ": 6649,
      "ĠfuĠqinĠ": 6650,
      "ĠdeĠyiĠshuĠ": 6651,
      "mianĠduiĠ": 6652,
      "ĠdongĠnanĠ": 6653,
      "ĠweiĠUTCĠ": 6654,
      "shengĠdiĠ": 6655,
      "zhuĠyiĠzheĠ": 6656,
      "lianĠheĠhuiĠ": 6657,
      "yanĠhaiĠ": 6658,
      "kaiĠshiĠshiĠ": 6659,
      "xiongĠyaĠliĠ": 6660,
      "ĠcnĠ": 6661,
      "Ġluo": 6662,
      "ĠĠĠzhengĠ": 6663,
      "ĠĠĠmaĠ": 6664,
      "ĠĠĠjiaoĠtongĠ": 6665,
      "zhuĠheĠ": 6666,
      "wenĠheĠ": 6667,
      "ĠerĠqiĠ": 6668,
      "zhouĠyiĠ": 6669,
      "sanĠweiĠ": 6670,
      "sanĠdaĠ": 6671,
      "ziĠshenĠ": 6672,
      "diaoĠkuaiĠyiĠxiaoĠshiĠ": 6673,
      "chengĠyouĠ": 6674,
      "chongĠjiĠ": 6675,
      "guoĠhuiĠ": 6676,
      "liuĠxiaĠ": 6677,
      "Ġchi": 6678,
      "laoĠshiĠ": 6679,
      "ĠjiĠUTCĠ": 6680,
      "paiĠqianĠ": 6681,
      "ĠmeiĠyuanĠ": 6682,
      "sheĠyouĠxiaĠlingĠshiĠjianĠ": 6683,
      "ĠlingĠyouĠ": 6684,
      "ĠdeĠshiĠquĠweiĠUTCĠ": 6685,
      "ĠerĠgaiĠdiĠsuoĠcaiĠyong": 6686,
      "ĠtongĠshiĠgaiĠdiĠsheĠyouĠxiaĠlingĠshiĠjianĠ": 6687,
      "ĠerĠgaiĠdiĠsuoĠcaiĠyongĠdeĠshiĠquĠweiĠUTCĠ": 6688,
      "shuĠrenĠ": 6689,
      "zhangĠyueĠ": 6690,
      "jingĠgaoĠ": 6691,
      "nanĠhaiĠ": 6692,
      "NĠ": 6693,
      "chuangĠzaoĠ": 6694,
      "jianĠliĠleĠ": 6695,
      "ĠwanĠliĠ": 6696,
      "miĠshuĠzhangĠ": 6697,
      "xiangĠtongĠdeĠ": 6698,
      "bingĠfeiĠ": 6699,
      "ĠgeĠquĠ": 6700,
      "guanĠheĠ": 6701,
      "caiĠdeĠ": 6702,
      "biĠyeĠhouĠ": 6703,
      "gaoĠyuĠhaiĠpingĠmianĠ": 6704,
      "dangĠjiĠ": 6705,
      "qunĠzhongĠ": 6706,
      "GĠ": 6707,
      "ruĠdeĠ": 6708,
      "ĠqiĠfuĠ": 6709,
      "ĠshiĠbeiĠ": 6710,
      "quĠdeĠmianĠjiĠweiĠ": 6711,
      "haiĠbaĠweiĠgaoĠyuĠhaiĠpingĠmianĠ": 6712,
      "zhangĠheĠ": 6713,
      "jinĠxingĠdeĠ": 6714,
      "gaiĠmingĠweiĠ": 6715,
      "Ġge": 6716,
      "ĠziĠyouĠ": 6717,
      "faĠzhiĠ": 6718,
      "xuanĠzhongĠ": 6719,
      "jingĠduĠ": 6720,
      "changĠsuoĠ": 6721,
      "lieĠruĠ": 6722,
      "tanĠxianĠ": 6723,
      "ĠzhongĠshanĠ": 6724,
      "daĠbuĠfen": 6725,
      "guanĠcha": 6726,
      "ĠqiĠzhongĠbaoĠkuoĠ": 6727,
      "ĠrongĠ": 6728,
      "ĠshuoĠ": 6729,
      "zhanĠyuĠ": 6730,
      "buĠshiĠquĠ": 6731,
      "1ĠnianĠ": 6732,
      "fangĠjiĠ": 6733,
      "daĠlouĠ": 6734,
      "8ĠnianĠ": 6735,
      "daĠyiĠ": 6736,
      "ĠyueĠyiĠ": 6737,
      "Ġshuang": 6738,
      "ĠshanĠxiĠ": 6739,
      "ĠĠĠ4": 6740,
      "shangĠdiĠ": 6741,
      "chaoĠyueĠ": 6742,
      "huaĠjiaĠ": 6743,
      "biaoĠbenĠ": 6744,
      "ĠhuoĠdongĠ": 6745,
      "Ġsa": 6746,
      "Ġ2025": 6747,
      "Ġ2015ĠnianĠ": 6748,
      "pingĠguĠ": 6749,
      "ĠĠĠyanĠ": 6750,
      "tiaoĠjieĠ": 6751,
      "zhangĠfuĠ": 6752,
      "cunĠluoĠ": 6753,
      "shouĠxianĠ": 6754,
      "tuĠjingĠ": 6755,
      "yiĠshiĠdeĠ": 6756,
      "teĠjiĠ": 6757,
      "suoĠzaiĠdiĠ": 6758,
      "bianĠyiĠ": 6759,
      "douĠzaiĠ": 6760,
      "kaiĠshiĠzaiĠ": 6761,
      "ĠluoĠmaĠ": 6762,
      "ĠdaĠluĠ": 6763,
      "cheĠxiangĠ": 6764,
      "KĠ": 6765,
      "liĠdeĠ": 6766,
      "benĠrenĠ": 6767,
      "banĠben": 6768,
      "2ĠgeĠ": 6769,
      "gongĠweiĠ": 6770,
      "gongĠneng": 6771,
      "suoĠchuĠdeĠhaiĠbaĠweiĠgaoĠyuĠhaiĠpingĠmianĠ": 6772,
      "ĠĠĠRe": 6773,
      "changĠjingĠ": 6774,
      "danĠbaiĠ": 6775,
      "feiĠerĠdeĠ": 6776,
      "ĠbuĠxiangĠ": 6777,
      "qianĠdingĠ": 6778,
      "sheĠxianĠ": 6779,
      "dengĠzhiĠ": 6780,
      "duanĠshiĠjianĠ": 6781,
      "ĠzaiĠtaĠ": 6782,
      "tuiĠxiuĠ": 6783,
      "xiaoĠyuĠ": 6784,
      "laiĠsiĠ": 6785,
      "yangĠjiĠ": 6786,
      "seĠfuĠ": 6787,
      "jianĠkangĠ": 6788,
      "ĠerĠbuĠshiĠ": 6789,
      "luoĠfaĠ": 6790,
      "ĠerĠdeĠ": 6791,
      "ĠĠĠanĠ": 6792,
      "sanĠrenĠ": 6793,
      "huiĠguiĠ": 6794,
      "tiĠxingĠ": 6795,
      "2ĠhaoĠ": 6796,
      "yinĠxiangĠ": 6797,
      "shenĠhuaĠ": 6798,
      "ĠdeĠjiĠluĠ": 6799,
      "ouĠxiangĠ": 6800,
      "ĠĠĠI": 6801,
      "yanĠrenĠ": 6802,
      "yongĠleĠ": 6803,
      "yanĠheĠ": 6804,
      "caiĠnengĠ": 6805,
      "ĠkouĠ": 6806,
      "juĠleĠ": 6807,
      "quĠzhuĠ": 6808,
      "naĠxieĠ": 6809,
      "ĠsuiĠshiĠ": 6810,
      "yinĠyuĠ": 6811,
      "zuĠqiuĠduiĠ": 6812,
      "mianĠyiĠ": 6813,
      "shuaiĠlingĠ": 6814,
      "ĠqiĠxuanĠ": 6815,
      "diĠxiaĠ": 6816,
      "zuĠcheng": 6817,
      "boĠlan": 6818,
      "ĠyiĠshengĠ": 6819,
      "ĠluĠwa": 6820,
      "keĠnengĠhuiĠ": 6821,
      "ĠheĠdaoĠ": 6822,
      "canĠxuanĠ": 6823,
      "ĠĠĠdiĠyiĠ": 6824,
      "chuĠzhongĠ": 6825,
      "kongĠxiĠ": 6826,
      "ĠnianĠshiĠjieĠ": 6827,
      "quanĠyiĠ": 6828,
      "lianĠluoĠ": 6829,
      "huĠxiangĠ": 6830,
      "Ġ2023": 6831,
      "qingĠjieĠ": 6832,
      "danĠshiĠ": 6833,
      "zhouĠliĠ": 6834,
      "ĠzhongĠgongĠzhongĠyangĠ": 6835,
      "changĠshangĠ": 6836,
      "Ġ2016ĠnianĠ": 6837,
      "tuĠjiĠ": 6838,
      "zaiĠyiĠqiĠ": 6839,
      "9ĠnianĠ": 6840,
      "yanĠzhongĠdeĠ": 6841,
      "ĠyuĠbeiĠ": 6842,
      "ĠmaĠlai": 6843,
      "ĠchaoĠxianĠ": 6844,
      "guanĠyiĠ": 6845,
      "muĠerĠ": 6846,
      "kaiĠdeĠ": 6847,
      "ĠshouĠciĠ": 6848,
      "Ġ2007": 6849,
      "ĠĠĠmeiĠ": 6850,
      "shuĠbuĠ": 6851,
      "faĠyiĠ": 6852,
      "dingĠliĠ": 6853,
      "duiĠyingĠ": 6854,
      "zhenĠquĠdeĠmianĠjiĠweiĠ": 6855,
      "tiĠgongĠleĠ": 6856,
      "HĠ": 6857,
      "Ġhei": 6858,
      "ĠĠĠ2008": 6859,
      "ĠzhiĠshuĠ": 6860,
      "ziĠchanĠ": 6861,
      "faĠshengĠzaiĠ": 6862,
      "ĠshouĠdaoĠ": 6863,
      "zhongĠyiĠyuanĠ": 6864,
      "zhuĠzhongĠ": 6865,
      "daiĠweiĠ": 6866,
      "neiĠdiĠ": 6867,
      "ĠĠĠxingĠ": 6868,
      "queĠshiĠ": 6869,
      "1978ĠnianĠ": 6870,
      "ĠyuĠxiĠ": 6871,
      "heĠliuĠ": 6872,
      "fuĠxingĠ": 6873,
      "xianĠzhuĠ": 6874,
      "beiĠsiĠ": 6875,
      "yanĠseĠ": 6876,
      "zuĠqiuĠjuĠleĠbuĠ": 6877,
      "qianĠxiĠ": 6878,
      "kaoĠshiĠ": 6879,
      "diĠquĠdeĠ": 6880,
      "geĠguoĠ": 6881,
      "zhengĠbianĠ": 6882,
      "baoĠluoĠ": 6883,
      "zuiĠduoĠ": 6884,
      "suĠgeĠlanĠ": 6885,
      "tiĠheĠ": 6886,
      "shangĠjiĠ": 6887,
      "yanĠjiĠ": 6888,
      "sheĠzaiĠ": 6889,
      "ziĠxun": 6890,
      "mianĠfeiĠ": 6891,
      "muĠsiĠlinĠ": 6892,
      "daiĠlingĠ": 6893,
      "zhuanĠmenĠ": 6894,
      "kaĠlaĠ": 6895,
      "ruĠweiĠ": 6896,
      "ĠshiĠjiaĠ": 6897,
      "ĠyuanĠmingĠ": 6898,
      "shenĠyiĠ": 6899,
      "wuĠguanĠ": 6900,
      "guanĠceĠ": 6901,
      "sheĠjiĠshiĠ": 6902,
      "Ġ2ĠyueĠ": 6903,
      "sanĠbuĠ": 6904,
      "zhongĠyao": 6905,
      "beiĠfangĠ": 6906,
      "baoĠcunĠ": 6907,
      "zhongĠguoĠdaĠluĠ": 6908,
      "qianĠyueĠ": 6909,
      "ĠbuĠlaĠ": 6910,
      "feiĠyanĠ": 6911,
      "zaoĠshangĠ": 6912,
      "ĠdunĠ": 6913,
      "mianĠdianĠ": 6914,
      "Ġlv": 6915,
      "Ġkan": 6916,
      "yangĠxingĠ": 6917,
      "cengĠdeĠ": 6918,
      "ĠlunĠ": 6919,
      "ĠĠĠran": 6920,
      "xueĠzhongĠ": 6921,
      "Ġ24": 6922,
      "chuĠweiĠ": 6923,
      "bingĠyuĠ": 6924,
      "qingĠrenĠ": 6925,
      "pingĠguoĠ": 6926,
      "tuiĠjianĠ": 6927,
      "liaoĠdeĠ": 6928,
      "quanĠxianĠ": 6929,
      "Ġs": 6930,
      "guoĠneiĠ": 6931,
      "chuanĠtongĠdeĠ": 6932,
      "ĠbeiĠchengĠweiĠ": 6933,
      "juĠfengĠ": 6934,
      "gengĠxinĠ": 6935,
      "Ġshao": 6936,
      "ĠlianĠheĠ": 6937,
      "ĠjueĠdingĠ": 6938,
      "ĠĠĠgongĠ": 6939,
      "duoĠnianĠ": 6940,
      "langĠzhongĠ": 6941,
      "diĠwuĠ": 6942,
      "tianĠhouĠ": 6943,
      "ĠxiangĠguanĠ": 6944,
      "shuĠzaiĠ": 6945,
      "gaoĠshiĠ": 6946,
      "pianĠzhongĠ": 6947,
      "tongĠxunĠ": 6948,
      "wanĠzhengĠ": 6949,
      "huaĠzaiĠ": 6950,
      "bianĠjingĠ": 6951,
      "shanĠxianĠ": 6952,
      "fengĠdeĠ": 6953,
      "miaoĠhuiĠ": 6954,
      "yuanĠxianĠ": 6955,
      "shouĠquanĠ": 6956,
      "xieĠzuoĠ": 6957,
      "zanĠzhuĠ": 6958,
      "chengĠzaiĠ": 6959,
      "leĠdeĠ": 6960,
      "ĠliĠchengĠ": 6961,
      "guiĠmo": 6962,
      "juĠzaiĠ": 6963,
      "muĠyuĠ": 6964,
      "baĠdaĠ": 6965,
      "baĠsiĠ": 6966,
      "jueĠyuĠ": 6967,
      "geĠlaĠ": 6968,
      "faĠmingĠ": 6969,
      "luoĠshanĠjiĠ": 6970,
      "Ġ2019ĠnianĠ": 6971,
      "ĠĠĠrenĠ": 6972,
      "tuĠshuĠ": 6973,
      "liĠziĠ": 6974,
      "Ã©Ġ": 6975,
      "xingĠmuĠ": 6976,
      "ĠdiĠqiuĠ": 6977,
      "Ġpeng": 6978,
      "ĠzhiĠwaiĠ": 6979,
      "zhangĠzhuanĠjiĠ": 6980,
      "ĠzuiĠgaoĠ": 6981,
      "ĠbiĠsaiĠ": 6982,
      "7ĠrenĠ": 6983,
      "alĠĠĠ": 6984,
      "xianĠruĠ": 6985,
      "jinĠriĠ": 6986,
      "shuangĠdaĠ": 6987,
      "tunĠ": 6988,
      "quĠjianĠ": 6989,
      "xingĠzaiĠ": 6990,
      "xianĠzhongĠ": 6991,
      "fuĠzhuĠ": 6992,
      "cheĠchangĠ": 6993,
      "beiĠrenĠmingĠweiĠ": 6994,
      "yinĠyue": 6995,
      "zhouĠrenĠ": 6996,
      "ĠshiĠtaĠ": 6997,
      "Ġ28": 6998,
      "duiĠzhongĠ": 6999,
      "ĠshiĠerĠ": 7000,
      "ĠshanĠdongĠ": 7001,
      "guoĠminĠdangĠ": 7002,
      "ĠdianĠshiĠ": 7003,
      "liangĠheĠ": 7004,
      "ĠyouĠzaiĠ": 7005,
      "pingĠlun": 7006,
      "jiuĠyuanĠ": 7007,
      "Ġ7Ġ": 7008,
      "ĠdeĠshiĠyongĠ": 7009,
      "Ġsang": 7010,
      "jiangĠyiĠ": 7011,
      "gaiĠzhiĠweiĠ": 7012,
      "bianĠzhiĠ": 7013,
      "ĠshiĠchengĠ": 7014,
      "ĠliĠliangĠ": 7015,
      "chuĠzhangĠ": 7016,
      "linĠsiĠ": 7017,
      "stĠ": 7018,
      "juĠbenĠ": 7019,
      "jiaoĠduĠ": 7020,
      "tianĠzhuĠ": 7021,
      "ĠzuĠzhiĠ": 7022,
      "Ġ2017ĠnianĠ": 7023,
      "luoĠliĠdaĠ": 7024,
      "ĠdiĠdiĠ": 7025,
      "xiaoĠyingĠ": 7026,
      "1958ĠnianĠ": 7027,
      "piĠzhun": 7028,
      "ĠzaĠzhiĠ": 7029,
      "ĠĠĠdongĠ": 7030,
      "suĠliĠ": 7031,
      "shangĠxianĠ": 7032,
      "zaoĠchengĠdeĠ": 7033,
      "ĠshiĠjianĠzhuĠ": 7034,
      "Ġtang": 7035,
      "ĠhangĠ": 7036,
      "ĠĠĠ1": 7037,
      "banĠjiĠ": 7038,
      "shouĠboĠ": 7039,
      "zhangĠziĠ": 7040,
      "huĠlianĠ": 7041,
      "Ġ2018ĠnianĠ": 7042,
      "ĠnuoĠ": 7043,
      "aoĠerĠ": 7044,
      "ĠĠĠnanĠ": 7045,
      "tionĠ": 7046,
      "zhanĠmuĠsiĠ": 7047,
      "aiĠliĠ": 7048,
      "ĠĠĠbaĠ": 7049,
      "1979ĠnianĠ": 7050,
      "fuĠshuĠ": 7051,
      "ĠĠĠduiĠ": 7052,
      "yunĠdeĠ": 7053,
      "touĠxianĠ": 7054,
      "1972ĠnianĠ": 7055,
      "luĠzhanĠ": 7056,
      "ĠhouĠzheĠ": 7057,
      "ĠhuoĠshiĠ": 7058,
      "ĠĠĠgeĠrenĠ": 7059,
      "dingĠjiĠ": 7060,
      "ĠweiĠbeiĠ": 7061,
      "yunĠyongĠ": 7062,
      "ĠpuĠtaoĠ": 7063,
      "baĠerĠ": 7064,
      "maĠshiĠ": 7065,
      "huaiĠyiĠ": 7066,
      "xiaĠzaiĠ": 7067,
      "xuĠjiĠ": 7068,
      "ĠyiĠdongĠ": 7069,
      "ĠweiĠyuĠzhongĠguoĠ": 7070,
      "guanĠjiĠ": 7071,
      "baoĠhu": 7072,
      "ĠyingĠwenĠ": 7073,
      "canĠyiĠ": 7074,
      "huoĠcheĠ": 7075,
      "qiangĠduĠ": 7076,
      "ĠciĠnianĠ": 7077,
      "chaiĠ": 7078,
      "ĠdiĠyaĠ": 7079,
      "miĠniĠ": 7080,
      "ĠaiĠerĠ": 7081,
      "shaoĠdeĠ": 7082,
      "ĠzhiĠbuĠ": 7083,
      "xinĠguanĠ": 7084,
      "huoĠbiĠ": 7085,
      "ĠxuĠyaoĠ": 7086,
      "ĠchunĠ": 7087,
      "zhaĠdanĠ": 7088,
      "cuĠ": 7089,
      "jiaoĠchaĠ": 7090,
      "leiĠsiĠdeĠ": 7091,
      "chuanĠmeiĠ": 7092,
      "juĠbanĠdeĠ": 7093,
      "minĠzu": 7094,
      "ĠgaiĠbianĠ": 7095,
      "ĠyanĠjiuĠ": 7096,
      "daoĠzaiĠ": 7097,
      "luoĠshiĠ": 7098,
      "xueĠkeĠ": 7099,
      "5ĠrenĠ": 7100,
      "17Ġ": 7101,
      "diĠqiĠ": 7102,
      "bingĠduĠ": 7103,
      "ĠxinĠwenĠ": 7104,
      "xingĠzhengĠquĠ": 7105,
      "ĠĠĠ2009": 7106,
      "naĠxiaĠ": 7107,
      "ĠmingĠzhiĠ": 7108,
      "ĠĠĠzengĠzuĠ": 7109,
      "lieĠshiĠ": 7110,
      "ĠzhongĠxingĠ": 7111,
      "xiĠnanĠbuĠ": 7112,
      "taiĠhouĠ": 7113,
      "zuiĠzao": 7114,
      "wuĠyueĠ": 7115,
      "zhengĠjiĠ": 7116,
      "ĠshiĠyiĠkeĠ": 7117,
      "xinĠjiaĠpo": 7118,
      "yaoĠshiĠ": 7119,
      "pinĠdeĠ": 7120,
      "ganĠyuĠ": 7121,
      "xiangĠfaĠ": 7122,
      "tiĠchuĠdeĠ": 7123,
      "canĠtingĠ": 7124,
      "Ġ35": 7125,
      "faĠliĠ": 7126,
      "luoĠyuĠ": 7127,
      "ĠdaĠbuĠfen": 7128,
      "ĠrenĠweiĠshiĠ": 7129,
      "juĠban": 7130,
      "taiĠkongĠ": 7131,
      "Ġ2006": 7132,
      "xiĠyouĠ": 7133,
      "chuĠguoĠ": 7134,
      "xueĠliĠ": 7135,
      "zheĠheĠ": 7136,
      "baiĠyuĠ": 7137,
      "jueĠsai": 7138,
      "ĠshiĠshiĠyongĠ": 7139,
      "zongĠyiĠ": 7140,
      "zongĠrenĠkouĠ": 7141,
      "teĠquĠ": 7142,
      "qingĠzhuĠ": 7143,
      "ĠbingĠbeiĠ": 7144,
      "zhuanĠxieĠ": 7145,
      "faĠxianĠdeĠ": 7146,
      "jinĠrong": 7147,
      "ĠxiĠyinĠ": 7148,
      "ĠĠĠhouĠ": 7149,
      "jiangĠliĠ": 7150,
      "ĠzhongĠdianĠ": 7151,
      "zhuĠdaoĠ": 7152,
      "xueĠjiĠ": 7153,
      "tongĠxinĠ": 7154,
      "meiĠjunĠ": 7155,
      "Ġ2004ĠnianĠ": 7156,
      "shangĠwangĠ": 7157,
      "suiĠran": 7158,
      "aĠgenĠ": 7159,
      "ĠmaĠliĠ": 7160,
      "Ġmao": 7161,
      "baĠdeĠ": 7162,
      "chengĠleĠ": 7163,
      "jiaoĠhuanĠ": 7164,
      "wuĠzhengĠzhuangĠganĠranĠzheĠ": 7165,
      "Ġ2021ĠnianĠ": 7166,
      "xingĠshiĠdeĠ": 7167,
      "suĠzhiĠ": 7168,
      "touĠdeĠ": 7169,
      "miĠsiĠ": 7170,
      "sheĠjiaoĠ": 7171,
      "ĠyiĠgongĠ": 7172,
      "ĠchuĠbanĠ": 7173,
      "ĠĠĠliuĠ": 7174,
      "suiĠzheĠ": 7175,
      "Ġshun": 7176,
      "ĠweiĠyiĠ": 7177,
      "llĠ": 7178,
      "ĠyiĠqianĠ": 7179,
      "ĠdiĠzaiĠ": 7180,
      "xinĠjianĠ": 7181,
      "zuĠjieĠ": 7182,
      "ĠdeĠyiĠyuanĠ": 7183,
      "Ġshui": 7184,
      "juĠzhiĠ": 7185,
      "dianĠweiĠ": 7186,
      "shenĠyuĠ": 7187,
      "ĠshiĠrenĠminĠ": 7188,
      "xianĠzhiĠxianĠ": 7189,
      "ĠĠĠ18": 7190,
      "ĠĠĠtianĠ": 7191,
      "xianĠliĠ": 7192,
      "duiĠjiĠ": 7193,
      "daĠxiaoĠ": 7194,
      "geĠziĠ": 7195,
      "cheĠdiĠ": 7196,
      "fangĠmian": 7197,
      "duanĠpianĠ": 7198,
      "chuanĠqiĠ": 7199,
      "qiĠzhongĠ": 7200,
      "faĠsheng": 7201,
      "guĠlaĠ": 7202,
      "huangĠseĠ": 7203,
      "minĠyiĠ": 7204,
      "teĠheĠ": 7205,
      "biĠxu": 7206,
      "ĠĠĠshiĠyongĠ": 7207,
      "yongĠzaiĠ": 7208,
      "ĠdeĠhuaĠ": 7209,
      "zhengĠquĠ": 7210,
      "huoĠshengĠ": 7211,
      "teĠdianĠ": 7212,
      "ĠtaĠheĠ": 7213,
      "6ĠrenĠ": 7214,
      "Ġ60": 7215,
      "Ġ2020ĠnianĠ": 7216,
      "duĠguoĠ": 7217,
      "zhangĠzhiĠ": 7218,
      "zanĠshiĠ": 7219,
      "shouĠbuĠ": 7220,
      "1960ĠnianĠ": 7221,
      "qiĠlaiĠ": 7222,
      "xiĠbeiĠbuĠ": 7223,
      "8ĠrenĠ": 7224,
      "zuiĠdiĠ": 7225,
      "siĠdaĠ": 7226,
      "luoĠchengĠ": 7227,
      "zuiĠzaoĠ": 7228,
      "yunĠdongĠdeĠ": 7229,
      "bangĠqiuĠ": 7230,
      "buĠdeĠcunĠzhuangĠ": 7231,
      "ĠzhuanĠjiĠ": 7232,
      "gaoĠduĠweiĠ": 7233,
      "ĠnengĠ": 7234,
      "linĠjinĠ": 7235,
      "ĠshiĠhouĠ": 7236,
      "ĠyouĠzhuĠ": 7237,
      "1ĠgeĠ": 7238,
      "laiĠyuĠ": 7239,
      "leĠyuanĠ": 7240,
      "gangĠkouĠ": 7241,
      "gongĠyuanĠqianĠ": 7242,
      "ciĠdiĠ": 7243,
      "1976ĠnianĠ": 7244,
      "wuĠdiĠ": 7245,
      "xinĠjiangĠ": 7246,
      "anĠzhiĠ": 7247,
      "chengĠjiuĠ": 7248,
      "xunĠlian": 7249,
      "gongĠzuoĠshiĠ": 7250,
      "ĠshuangĠfangĠ": 7251,
      "ĠceĠ": 7252,
      "ĠgongĠyeĠ": 7253,
      "seĠĠĠ": 7254,
      "lingĠchenĠ": 7255,
      "danĠdaĠ": 7256,
      "yongĠjiĠ": 7257,
      "1980ĠnianĠdaiĠ": 7258,
      "ĠyiĠbianĠ": 7259,
      "qiĠcheĠ": 7260,
      "faĠtingĠ": 7261,
      "ĠcaiĠyongĠ": 7262,
      "zhongĠhuaĠminĠguoĠ": 7263,
      "xianĠchengĠ": 7264,
      "shanĠmaiĠ": 7265,
      "ĠdeĠyiĠxieĠ": 7266,
      "chuĠbanĠsheĠ": 7267,
      "jingĠneiĠgongĠyouĠ": 7268,
      "Ġguang": 7269,
      "dangĠnianĠ": 7270,
      "sanĠzhongĠ": 7271,
      "ĠgeĠshouĠ": 7272,
      "Ġì": 7273,
      "huiĠweiĠ": 7274,
      "hanĠziĠ": 7275,
      "1920ĠnianĠ": 7276,
      "jiangĠshuĠ": 7277,
      "sanĠmingĠ": 7278,
      "Ġ26": 7279,
      "daoĠyouĠ": 7280,
      "xinĠjieĠ": 7281,
      "ĠxiangĠmuĠ": 7282,
      "houĠjiĠ": 7283,
      "xiaoĠliĠyuĠ": 7284,
      "23Ġ": 7285,
      "ĠjiaĠlaĠ": 7286,
      "qiĠhouĠ": 7287,
      "daĠdiĠ": 7288,
      "xianĠshangĠ": 7289,
      "chengĠzhiĠweiĠ": 7290,
      "shengĠdaoĠ": 7291,
      "lieĠchuĠ": 7292,
      "ĠzhaoĠheĠ": 7293,
      "xiuĠdaoĠ": 7294,
      "thĠ": 7295,
      "ĠdaĠjiaĠ": 7296,
      "ĠĠĠdaoĠ": 7297,
      "ĠheĠliuĠ": 7298,
      "zanĠtingĠ": 7299,
      "Ġtao": 7300,
      "biĠliĠshiĠ": 7301,
      "baiĠkeĠ": 7302,
      "changĠbiĠsaiĠ": 7303,
      "haiĠzaiĠ": 7304,
      "ruanĠtiĠ": 7305,
      "jianĠduĠ": 7306,
      "yeĠfuĠ": 7307,
      "laiĠyinĠ": 7308,
      "ĠtaĠyouĠ": 7309,
      "ĠliangĠgeĠ": 7310,
      "ĠerĠgaiĠdiĠdeĠ": 7311,
      "tongĠheĠ": 7312,
      "ĠdaĠjiangĠ": 7313,
      "ĠdanĠyinĠ": 7314,
      "ĠtongĠyiĠ": 7315,
      "jinĠyuĠ": 7316,
      "henĠkuaiĠ": 7317,
      "erĠĠĠ": 7318,
      "huoĠzaiĠ": 7319,
      "duiĠheĠ": 7320,
      "tiĠdaiĠ": 7321,
      "qianĠtingĠ": 7322,
      "ĠĠĠgaiĠyaoĠ": 7323,
      "Ġ25": 7324,
      "ĠbuĠdaoĠ": 7325,
      "xiangĠyingĠ": 7326,
      "ĠqiĠbingĠ": 7327,
      "ĠweiĠfuĠqiĠyuĠgang": 7328,
      "faĠjiĠ": 7329,
      "yaĠrenĠ": 7330,
      "1990ĠnianĠdaiĠ": 7331,
      "ĠliĠfuĠ": 7332,
      "jingĠguanĠ": 7333,
      "qianĠjinĠ": 7334,
      "ĠtaĠmenĠzaiĠ": 7335,
      "kĠĠĠ": 7336,
      "aoĠdeĠ": 7337,
      "duiĠdiĠ": 7338,
      "tanĠheĠ": 7339,
      "chengĠquĠ": 7340,
      "wangĠwangĠ": 7341,
      "ĠzuiĠchuĠ": 7342,
      "queĠbaoĠ": 7343,
      "maĠtouĠ": 7344,
      "Ġ29": 7345,
      "ĠnongĠ": 7346,
      "anĠliĠ": 7347,
      "xingĠyouĠ": 7348,
      "taĠyiĠ": 7349,
      "pinĠzhongĠ": 7350,
      "qunĠtiĠ": 7351,
      "ĠqiĠheĠ": 7352,
      "bianĠyuanĠ": 7353,
      "buĠmenĠ": 7354,
      "yunĠheĠ": 7355,
      "naĠheĠ": 7356,
      "fuĠhaoĠ": 7357,
      "faĠdongĠjiĠ": 7358,
      "pingĠyuanĠ": 7359,
      "ĠdeĠshiĠjiĠ": 7360,
      "ĠjinĠshiĠ": 7361,
      "changĠjiĠ": 7362,
      "kuoĠjianĠ": 7363,
      "ĠyueĠduiĠ": 7364,
      "ĠtaĠrenĠweiĠ": 7365,
      "dianĠshiĠjieĠ": 7366,
      "siĠlanĠ": 7367,
      "ĠĠĠjiaĠtingĠ": 7368,
      "wuĠshuĠ": 7369,
      "ĠxiĠtongĠdeĠ": 7370,
      "juĠyuanĠ": 7371,
      "eĠguoĠ": 7372,
      "Ġ2002ĠnianĠ": 7373,
      "yeĠkeĠyiĠ": 7374,
      "guiĠfanĠ": 7375,
      "ĠĠĠshouĠ": 7376,
      "fuĠza": 7377,
      "shuĠchuĠ": 7378,
      "quĠfenĠ": 7379,
      "sheĠdingĠ": 7380,
      "leĠyiĠxieĠ": 7381,
      "jiuĠzaiĠ": 7382,
      "ĠxianĠweiĠ": 7383,
      "daĠshiĠguanĠ": 7384,
      "riĠbenĠdeĠ": 7385,
      "ĠcunĠ": 7386,
      "danĠyiĠ": 7387,
      "ĠliĠliĠ": 7388,
      "ĠnianĠqingĠ": 7389,
      "jiaoĠtang": 7390,
      "senĠlin": 7391,
      "maĠkeĠsiĠ": 7392,
      "qiuĠshiĠ": 7393,
      "jieĠduan": 7394,
      "tuiĠguangĠ": 7395,
      "ĠzhongĠguoĠrenĠminĠjieĠfangĠjunĠ": 7396,
      "xuanĠshiĠ": 7397,
      "fuĠmuĠ": 7398,
      "wuĠzhuang": 7399,
      "saiĠerĠweiĠ": 7400,
      "gengĠduoĠdeĠ": 7401,
      "canĠshuĠ": 7402,
      "tieĠluĠcheĠzhanĠ": 7403,
      "ĠĠĠwangĠ": 7404,
      "wangĠweiĠ": 7405,
      "laĠweiĠ": 7406,
      "peiĠbeiĠ": 7407,
      "changĠduĠ": 7408,
      "fenĠpeiĠ": 7409,
      "yaĠmuĠ": 7410,
      "ĠyiĠmeiĠ": 7411,
      "ĠyouĠliangĠ": 7412,
      "ĠzhongĠjianĠ": 7413,
      "beiĠjing": 7414,
      "ĠĠĠdeĠĠĠ": 7415,
      "duoĠerĠ": 7416,
      "zhongĠbuĠ": 7417,
      "beiĠdaĠ": 7418,
      "ĠqiĠzhong": 7419,
      "qianĠshenĠ": 7420,
      "suiĠranĠ": 7421,
      "chuangĠzuoĠdeĠ": 7422,
      "Ġ1970": 7423,
      "ĠĠĠCo": 7424,
      "ĠbuĠsiĠ": 7425,
      "shangĠzhenĠ": 7426,
      "baoĠhan": 7427,
      "vĠ": 7428,
      "yeĠjianĠ": 7429,
      "yeĠshengĠyaĠ": 7430,
      "duiĠfangĠ": 7431,
      "maiĠdeĠ": 7432,
      "zeĠdongĠ": 7433,
      "zhangĠjiĠ": 7434,
      "chengĠweiĠyiĠ": 7435,
      "yanĠjingĠ": 7436,
      "banĠjiangĠ": 7437,
      "buĠdeĠbuĠ": 7438,
      "ĠsunĠ": 7439,
      "cengĠshiĠ": 7440,
      "douĠbeiĠ": 7441,
      "ĠzaiĠneiĠdeĠ": 7442,
      "dengĠchangĠ": 7443,
      "Ġ30Ġ": 7444,
      "shanĠdiĠ": 7445,
      "chuĠziĠ": 7446,
      "tuĠxiangĠ": 7447,
      "ĠgongĠqingĠ": 7448,
      "wenĠjiĠ": 7449,
      "touĠbuĠ": 7450,
      "ĠBĠ": 7451,
      "anĠjiĠ": 7452,
      "junĠbuĠ": 7453,
      "keĠyunĠ": 7454,
      "teĠlaĠ": 7455,
      "suĠlian": 7456,
      "9ĠrenĠ": 7457,
      "congĠweiĠ": 7458,
      "huangĠjinĠ": 7459,
      "Ġsai": 7460,
      "dengĠyuĠ": 7461,
      "ĠjieĠshuĠ": 7462,
      "lvĠseĠ": 7463,
      "chĠ": 7464,
      "xingĠliĠ": 7465,
      "yeĠshengĠ": 7466,
      "zheĠyangĠ": 7467,
      "banĠyanĠ": 7468,
      "kaiĠgongĠ": 7469,
      "ĠziĠyuanĠ": 7470,
      "duĠjiĠ": 7471,
      "nanĠsiĠ": 7472,
      "1956ĠnianĠ": 7473,
      "Ġ45": 7474,
      "ĠshiĠshiĠshangĠ": 7475,
      "aĠlaĠbo": 7476,
      "shenĠkeĠ": 7477,
      "chenĠjiĠ": 7478,
      "ĠzaiĠheĠ": 7479,
      "riĠbaoĠ": 7480,
      "dangĠtianĠ": 7481,
      "Ġtun": 7482,
      "beiĠliĠ": 7483,
      "zheĠzhiĠ": 7484,
      "cheĠshiĠ": 7485,
      "1964ĠnianĠ": 7486,
      "zhuĠceĠ": 7487,
      "ĠxiĠanĠ": 7488,
      "xieĠshangĠ": 7489,
      "chiĠxu": 7490,
      "leĠdiĠ": 7491,
      "xianĠdai": 7492,
      "jinĠquĠ": 7493,
      "fenĠzhiĠyiĠ": 7494,
      "ĠdeĠjiĠhuaĠ": 7495,
      "quĠyouĠ": 7496,
      "luĠshangĠ": 7497,
      "ĠÏ": 7498,
      "ĠqiĠdongĠ": 7499,
      "seĠlie": 7500,
      "ĠfuĠzeĠguanĠxiaĠ": 7501,
      "Ġbao": 7502,
      "muĠheĠ": 7503,
      "waiĠweiĠ": 7504,
      "ĠshiĠshiĠjiĠ": 7505,
      "quanĠjiĠ": 7506,
      "zhuanĠweiĠ": 7507,
      "ĠyiĠkeĠ": 7508,
      "dongĠxianĠ": 7509,
      "Ġpi": 7510,
      "weiĠyuanĠ": 7511,
      "ĠĠĠzhangĠ": 7512,
      "ĠĠĠguĠ": 7513,
      "dengĠshiĠ": 7514,
      "haoĠyouĠ": 7515,
      "zeĠyuĠ": 7516,
      "ĠyiĠnian": 7517,
      "xiangĠqiĠ": 7518,
      "haoĠpingĠ": 7519,
      "ĠĠĠN": 7520,
      "ĠĠĠchengĠ": 7521,
      "1968ĠnianĠ": 7522,
      "sectionĠĠĠ": 7523,
      "fuĠerĠ": 7524,
      "zhengĠshuĠ": 7525,
      "xiaoĠjieĠ": 7526,
      "qingĠchaoĠ": 7527,
      "quĠzhongĠ": 7528,
      "duiĠzhiĠ": 7529,
      "shaĠdeĠ": 7530,
      "daĠduoĠ": 7531,
      "zongĠjianĠ": 7532,
      "bingĠzaiĠ": 7533,
      "ĠqiĠxiĠzaiĠ": 7534,
      "fanĠying": 7535,
      "mianĠtiĠ": 7536,
      "ĠzhongĠqiĠ": 7537,
      "xiaoĠliangĠ": 7538,
      "VĠ": 7539,
      "hangĠyeĠ": 7540,
      "teĠleiĠ": 7541,
      "xuanĠchengĠ": 7542,
      "ĠbaoĠhuĠ": 7543,
      "ĠbingĠbuĠ": 7544,
      "ĠsectionĠĠĠ": 7545,
      "biaoĠjiĠ": 7546,
      "lieĠsiĠ": 7547,
      "yuanĠbenĠ": 7548,
      "shouĠshuĠ": 7549,
      "laiĠnaĠ": 7550,
      "ĠgeĠleiĠ": 7551,
      "feiĠlvĠbin": 7552,
      "ĠÑ": 7553,
      "zhanĠweiĠyuĠ": 7554,
      "fengĠshiĠ": 7555,
      "ĠlianĠjieĠ": 7556,
      "wanĠliĠ": 7557,
      "zongĠzhiĠ": 7558,
      "ĠheĠqiĠtaĠ": 7559,
      "haiĠshangĠ": 7560,
      "tuĠchuĠ": 7561,
      "ĠgongĠkaiĠ": 7562,
      "canĠjia": 7563,
      "ĠfenĠbieĠ": 7564,
      "daiĠbiaoĠtuanĠ": 7565,
      "ĠĠĠranĠerĠ": 7566,
      "Ġwa": 7567,
      "ĠĠĠguangĠ": 7568,
      "changĠdaĠ": 7569,
      "jiangĠyouĠ": 7570,
      "baiĠzhiĠ": 7571,
      "niaoĠleiĠ": 7572,
      "Ġ27": 7573,
      "zhanĠyouĠ": 7574,
      "ĠshiĠxiĠ": 7575,
      "ĠqiĠzhongĠnanĠxingĠ": 7576,
      "ĠjiangĠsuĠ": 7577,
      "ĠjianĠliĠ": 7578,
      "niĠxiĠyaĠ": 7579,
      "1981ĠnianĠ": 7580,
      "jinĠzhanĠ": 7581,
      "baoĠzha": 7582,
      "fenĠsiĠ": 7583,
      "ĠsiĠdaĠ": 7584,
      "xieĠweiĠ": 7585,
      "moĠniĠ": 7586,
      "zhongĠguoĠrenĠminĠ": 7587,
      "ĠSĠ": 7588,
      "haiĠdiĠ": 7589,
      "yanĠanĠ": 7590,
      "shenĠzhenĠ": 7591,
      "puĠtaoĠyaĠ": 7592,
      "Ġfou": 7593,
      "liangĠbuĠ": 7594,
      "xingĠdong": 7595,
      "gongĠdaĠ": 7596,
      "ĠĠĠgenĠjuĠ2020ĠnianĠmeiĠguoĠrenĠkouĠpuĠchaĠdeĠshuĠjuĠ": 7597,
      "ĠzuiĠjiaĠ": 7598,
      "juĠweiĠ": 7599,
      "luĠyiĠsiĠ": 7600,
      "xiaĠdiĠquĠ": 7601,
      "dingĠxingĠ": 7602,
      "ĠshiĠbuĠ": 7603,
      "geĠbuĠ": 7604,
      "changĠjiangĠ": 7605,
      "ĠĠĠjingĠjiĠ": 7606,
      "zaiĠyiĠgeĠ": 7607,
      "zhanĠweiĠ": 7608,
      "ĠguoĠwuĠyuanĠ": 7609,
      "daoĠdanĠ": 7610,
      "laiĠziĠyuĠ": 7611,
      "feiĠyongĠ": 7612,
      "ĠliuĠyuĠ": 7613,
      "Ġ2024": 7614,
      "houĠzhiĠ": 7615,
      "1948ĠnianĠ": 7616,
      "xiaoĠxiangĠ": 7617,
      "Ġ8Ġ": 7618,
      "ĠĠĠ2019ĠnianĠ": 7619,
      "gongĠyueĠ": 7620,
      "jiaoĠdiĠ": 7621,
      "chuĠxianĠdeĠ": 7622,
      "cheĠduiĠ": 7623,
      "biĠerĠ": 7624,
      "luĠheĠ": 7625,
      "haĠliĠ": 7626,
      "ĠyouĠsuoĠ": 7627,
      "gongĠkaiĠsaiĠ": 7628,
      "Ġ2000ĠnianĠ": 7629,
      "ĠguoĠjiaĠdeĠ": 7630,
      "ziĠbenĠ": 7631,
      "zhengĠmianĠ": 7632,
      "ĠjinĠshuĠ": 7633,
      "kuoĠzhangĠ": 7634,
      "dangĠzaiĠ": 7635,
      "ĠyiĠheĠ": 7636,
      "Ġ2005": 7637,
      "qiongĠ": 7638,
      "xueĠyeĠ": 7639,
      "houĠbuĠ": 7640,
      "tianĠjiaĠ": 7641,
      "fuĠzhouĠ": 7642,
      "yuanĠzhuĠminĠ": 7643,
      "ĠweiĠyuanĠhuiĠweiĠyuanĠ": 7644,
      "Ġ200": 7645,
      "ĠbangĠ": 7646,
      "shuĠdeĠzhiĠwuĠ": 7647,
      "wangĠjiĠ": 7648,
      "keĠerĠ": 7649,
      "taiĠnanĠ": 7650,
      "xuanĠjuĠzhongĠ": 7651,
      "ĠĠĠqiĠzhongĠ": 7652,
      "xĠĠĠ": 7653,
      "beiĠyueĠ": 7654,
      "faĠheĠ": 7655,
      "huoĠliĠ": 7656,
      "shuiĠdeĠ": 7657,
      "ganĠxianĠ": 7658,
      "juĠmin": 7659,
      "leĠduiĠ": 7660,
      "yanĠjiangĠ": 7661,
      "zhanĠshuĠ": 7662,
      "ĠshiĠyiĠzuoĠ": 7663,
      "Ġ1946": 7664,
      "duoĠshiĠ": 7665,
      "chaĠshiĠ": 7666,
      "ĠshiĠdeĠshiĠ": 7667,
      "ĠguanĠfangĠ": 7668,
      "ĠjiĠjinĠhuiĠ": 7669,
      "ĠkaoĠ": 7670,
      "ĠĠĠyueĠ": 7671,
      "zuĠrenĠ": 7672,
      "laiĠkeĠ": 7673,
      "hantĠ": 7674,
      "ĠzaiĠbuĠ": 7675,
      "zheĠyangĠdeĠ": 7676,
      "nanĠjiĠzhouĠdeĠ": 7677,
      "Ġlei": 7678,
      "ganĠdeĠ": 7679,
      "woĠerĠ": 7680,
      "guĠdianĠ": 7681,
      "baiĠwanĠ": 7682,
      "shaoĠnvĠ": 7683,
      "ĠqianĠwangĠ": 7684,
      "chengĠliĠhouĠ": 7685,
      "guĠfenĠyouĠxianĠgongĠsiĠ": 7686,
      "eĠdeĠ": 7687,
      "ĠniuĠ": 7688,
      "ĠtouĠguoĠ": 7689,
      "daĠguiĠmoĠ": 7690,
      "jianĠkang": 7691,
      "beiĠpoĠ": 7692,
      "ĠdiĠtuĠ": 7693,
      "wenĠtiĠdeĠ": 7694,
      "meiĠguo": 7695,
      "ĠweiĠfuĠqiĠyuĠgangĠ": 7696,
      "ĠhantĠ": 7697,
      "duoĠliĠyaĠ": 7698,
      "gongĠanĠ": 7699,
      "ĠguoĠgongĠ": 7700,
      "huiĠdaĠ": 7701,
      "chuĠchangĠ": 7702,
      "zongĠcaiĠ": 7703,
      "chĠĠĠ": 7704,
      "yaĠzhongĠ": 7705,
      "yangĠheĠ": 7706,
      "1952ĠnianĠ": 7707,
      "ĠzhongĠwenĠ": 7708,
      "keĠluoĠ": 7709,
      "canĠkao": 7710,
      "reĠdaiĠfengĠbaoĠ": 7711,
      "huĠxiĠ": 7712,
      "zuoĠzhiĠ": 7713,
      "shuaiĠling": 7714,
      "ĠyuĠdiĠ": 7715,
      "ĠtaĠjiĠ": 7716,
      "ĠĠĠzhuĠyaoĠ": 7717,
      "bieĠdeĠ": 7718,
      "xinĠtaiĠ": 7719,
      "ĠpianĠ": 7720,
      "ĠĠĠfanĠ": 7721,
      "luoĠyiĠ": 7722,
      "menĠshiĠ": 7723,
      "1975ĠnianĠ": 7724,
      "gongĠjiaoĠ": 7725,
      "zhuĠbanĠ": 7726,
      "ĠshiĠyiĠzhiĠ": 7727,
      "1966ĠnianĠ": 7728,
      "zuoĠfaĠ": 7729,
      "ĠdaĠerĠ": 7730,
      "naĠshengĠ": 7731,
      "meiĠguoĠrenĠ": 7732,
      "zhuanĠyongĠ": 7733,
      "cunĠzaiĠdeĠ": 7734,
      "ĠjinĠru": 7735,
      "xianĠdeĠyiĠgeĠfeiĠjianĠzhiĠdiĠquĠ": 7736,
      "Ġ2022ĠnianĠ": 7737,
      "nuoĠyiĠ": 7738,
      "ĠshiĠfaĠ": 7739,
      "ĠzhiĠshaoĠ": 7740,
      "fangĠmiĠ": 7741,
      "hangĠtianĠ": 7742,
      "dingĠzaiĠ": 7743,
      "qunĠdeĠ": 7744,
      "ĠzhiĠjingĠ": 7745,
      "1Ġri": 7746,
      "youĠyiĠxieĠ": 7747,
      "ĠlingĠwai": 7748,
      "ĠĠĠ2007": 7749,
      "niangĠ": 7750,
      "luĠwa": 7751,
      "ĠxingĠjianĠ": 7752,
      "xueĠbuĠ": 7753,
      "meiĠshiĠ": 7754,
      "lanĠyuĠ": 7755,
      "ĠyiĠxueĠ": 7756,
      "ĠĠĠjiangĠ": 7757,
      "raoĠtaiĠyangĠ": 7758,
      "liangĠziĠ": 7759,
      "ĠnianĠyiĠlaiĠ": 7760,
      "Ġyong": 7761,
      "shangĠweiĠyouĠ": 7762,
      "baoĠheĠ": 7763,
      "duiĠkangĠ": 7764,
      "maĠlaiĠ": 7765,
      "ĠY": 7766,
      "ĠquĠdeĠ": 7767,
      "Ġ2003ĠnianĠ": 7768,
      "yingĠerĠ": 7769,
      "jiuĠyouĠ": 7770,
      "ĠshiĠbingĠ": 7771,
      "eĠweiĠ": 7772,
      "taĠrenĠ": 7773,
      "ĠyiĠdaĠ": 7774,
      "ĠyiĠxiangĠ": 7775,
      "ĠyueĠheĠ": 7776,
      "ciĠquĠ": 7777,
      "duĠhuiĠ": 7778,
      "xieĠdingĠ": 7779,
      "banĠrenĠ": 7780,
      "chuanĠguoĠ": 7781,
      "1947ĠnianĠ": 7782,
      "wuĠgeĠ": 7783,
      "sanĠciĠ": 7784,
      "ĠzheĠyangĠ": 7785,
      "shangĠheĠ": 7786,
      "zongĠhuiĠ": 7787,
      "ĠfaĠzhanĠ": 7788,
      "ĠĠĠ3ĠyueĠ": 7789,
      "boĠjueĠ": 7790,
      "xuanĠchuĠ": 7791,
      "ĠriĠyouĠ": 7792,
      "ĠxinĠzengĠ": 7793,
      "guoĠjiaĠduiĠ": 7794,
      "ĠĠĠqiĠhouĠ": 7795,
      "5ĠmiĠ": 7796,
      "1937ĠnianĠ": 7797,
      "WindowsĠĠĠ": 7798,
      "jiaoĠjieĠ": 7799,
      "haiĠbaĠgaoĠduĠweiĠ": 7800,
      "zĠ": 7801,
      "guangĠdeĠ": 7802,
      "ĠyiĠwaiĠ": 7803,
      "ĠshiĠyongĠleĠ": 7804,
      "ĠdangĠshiĠdeĠ": 7805,
      "jiaoĠyuĠbuĠ": 7806,
      "ĠouĠzhouĠ": 7807,
      "wuĠyouĠ": 7808,
      "wenĠti": 7809,
      "ĠfuĠqin": 7810,
      "leiĠxingĠdeĠ": 7811,
      "zhuangĠkuang": 7812,
      "ĠdanĠqiĠ": 7813,
      "ĠpinĠ": 7814,
      "ĠdiaoĠ": 7815,
      "wangĠyuĠ": 7816,
      "waiĠxingĠ": 7817,
      "genĠsuiĠ": 7818,
      "ĠyiĠchanĠ": 7819,
      "xingĠzheng": 7820,
      "yanĠlunĠ": 7821,
      "ĠsiĠtaĠ": 7822,
      "ĠrenĠminĠbiĠ": 7823,
      "fenĠbieĠweiĠ": 7824,
      "ĠziĠjiĠ": 7825,
      "geĠzaiĠ": 7826,
      "taĠheĠ": 7827,
      "jinĠzaiĠ": 7828,
      "wangĠzhiĠ": 7829,
      "gongĠjueĠ": 7830,
      "ĠdaoĠyanĠ": 7831,
      "nongĠcun": 7832,
      "sheĠyingĠ": 7833,
      "lianĠsai": 7834,
      "gaoĠxiaoĠ": 7835,
      "jianĠzhuĠwuĠ": 7836,
      "ĠjiangĠqiĠ": 7837,
      "ĠĠĠfaĠ": 7838,
      "llĠĠĠ": 7839,
      "ĠnianĠlingĠ": 7840,
      "zhanĠchangĠ": 7841,
      "xuanĠju": 7842,
      "ĠpingĠtaiĠ": 7843,
      "ĠdeĠjiĠhuiĠ": 7844,
      "oĠĠĠ": 7845,
      "ĠCo": 7846,
      "ĠĠĠpingĠjiaĠ": 7847,
      "IIĠ": 7848,
      "shuĠmuĠ": 7849,
      "jingĠsaiĠ": 7850,
      "duanĠzan": 7851,
      "ĠdanĠweiĠ": 7852,
      "qiaoĠliangĠ": 7853,
      "xunĠyangĠjianĠ": 7854,
      "5ĠgeĠ": 7855,
      "ĠchengĠliĠyuĠ": 7856,
      "ĠĠĠluoĠ": 7857,
      "tuanĠjieĠ": 7858,
      "songĠdaoĠ": 7859,
      "guoĠchengĠ": 7860,
      "shouĠfaĠ": 7861,
      "fenĠjieĠ": 7862,
      "quanĠshuĠ": 7863,
      "ĠdeĠyiĠmeiĠ": 7864,
      "ĠshiĠyiĠdaĠliĠ": 7865,
      "ĠleĠ": 7866,
      "zhangĠyiĠ": 7867,
      "ĠkeĠluoĠ": 7868,
      "zuiĠzaoĠdeĠ": 7869,
      "cengĠshuiĠyuĠ": 7870,
      "aĠfuĠ": 7871,
      "Ġchao": 7872,
      "ĠĠĠchuĠleĠ": 7873,
      "xinĠzhongĠ": 7874,
      "xiaĠyiĠxiaĠdiĠquĠ": 7875,
      "yingĠxiangĠliĠ": 7876,
      "guoĠshiĠqiĠ": 7877,
      "puĠliĠ": 7878,
      "shouĠduanĠ": 7879,
      "pingĠjieĠ": 7880,
      "ĠQ": 7881,
      "ciĠzhongĠ": 7882,
      "zhuanĠdeĠxiaoĠxingĠxingĠ": 7883,
      "Ġhua": 7884,
      "beiĠheĠ": 7885,
      "faĠweiĠ": 7886,
      "ĠdiĠdianĠ": 7887,
      "jiangĠbeiĠ": 7888,
      "xunĠzhaoĠ": 7889,
      "guoĠjiĠjiĠchangĠ": 7890,
      "wangĠsiĠ": 7891,
      "1954ĠnianĠ": 7892,
      "ĠyiĠerĠ": 7893,
      "guoĠwuĠyuanĠ": 7894,
      "wuĠzhongĠdeĠ": 7895,
      "ĠdiĠliuĠ": 7896,
      "juĠdaĠdeĠ": 7897,
      "fĠ": 7898,
      "ruĠyuĠ": 7899,
      "ĠliĠgongĠ": 7900,
      "wangĠziĠ": 7901,
      "ĠdeĠshiĠwuĠ": 7902,
      "zheĠjiangĠshengĠ": 7903,
      "ĠĠĠ5ĠyueĠ": 7904,
      "zheĠyuĠ": 7905,
      "ĠjiĠxingĠ": 7906,
      "ĠĠĠinĠĠĠ": 7907,
      "cĠĠĠ": 7908,
      "Ġshen": 7909,
      "zhengĠqiĠ": 7910,
      "yaĠzhiĠ": 7911,
      "ruĠyiĠ": 7912,
      "huangĠshiĠ": 7913,
      "ĠzaiĠjinĠ": 7914,
      "jiaĠmengĠ": 7915,
      "wangĠshangĠ": 7916,
      "zuĠxieĠ": 7917,
      "shanĠdongĠshengĠ": 7918,
      "ĠchuĠrenĠ": 7919,
      "40Ġ": 7920,
      "ĠshiĠbaĠ": 7921,
      "guangĠfan": 7922,
      "zhengĠshiĠqiĠ": 7923,
      "aĠliĠ": 7924,
      "Ġhuai": 7925,
      "ĠkeĠliĠ": 7926,
      "tiĠchuĠleĠ": 7927,
      "anĠzhuang": 7928,
      "songĠdeĠ": 7929,
      "mingĠjuĠrenĠ": 7930,
      "yinĠyongĠ": 7931,
      "huoĠyunĠ": 7932,
      "yaoĠgun": 7933,
      "shengĠbuĠ": 7934,
      "xiaoĠyouĠ": 7935,
      "laĠerĠ": 7936,
      "xianĠzhangĠ": 7937,
      "faĠshengĠdeĠ": 7938,
      "baoĠzhaĠ": 7939,
      "ĠĠĠofĠĠĠtheĠĠĠ": 7940,
      "ĠsanĠshiĠ": 7941,
      "ĠĠĠshenĠ": 7942,
      "guaiĠ": 7943,
      "ĠshiĠjiĠdeĠ": 7944,
      "pingĠminĠ": 7945,
      "lianĠtongĠ": 7946,
      "pingĠjunĠhaiĠbaĠgaoĠduĠweiĠ": 7947,
      "Ġchun": 7948,
      "siĠyouĠ": 7949,
      "liĠlunĠ": 7950,
      "zhanĠzaiĠ": 7951,
      "duĠduĠ": 7952,
      "danĠshuiĠ": 7953,
      "yangĠxianĠ": 7954,
      "neiĠzhanĠ": 7955,
      "xunĠqiuĠ": 7956,
      "shaoĠjiangĠ": 7957,
      "WĠ": 7958,
      "ĠĠĠtoĠĠĠ": 7959,
      "yinĠzhongĠzaiĠ": 7960,
      "taiĠerĠ": 7961,
      "ruĠshiĠ": 7962,
      "shuoĠdeĠ": 7963,
      "guĠfenĠ": 7964,
      "ĠzheĠciĠ": 7965,
      "zaoĠshouĠ": 7966,
      "ganĠsuĠ": 7967,
      "ĠnianĠqiĠjianĠ": 7968,
      "ĠerĠgaiĠdiĠdeĠpingĠjunĠhaiĠbaĠgaoĠduĠweiĠ": 7969,
      "daĠzaiĠ": 7970,
      "jiangĠzhongĠ": 7971,
      "ĠliĠxueĠ": 7972,
      "luoĠzaiĠ": 7973,
      "maĠliĠyaĠ": 7974,
      "chaiĠyouĠjiĠ": 7975,
      "ĠfaĠshengĠ": 7976,
      "ĠbiĠyeĠ": 7977,
      "ĠhanĠzuĠ": 7978,
      "2010ĠnianĠmeiĠguoĠrenĠkouĠpuĠchaĠdeĠshuĠjuĠ": 7979,
      "shuoĠshiĠxueĠweiĠ": 7980,
      "yinĠzhongĠzaiĠpeiĠ": 7981,
      "ĠĠĠ16": 7982,
      "yangĠzhiĠ": 7983,
      "haoĠyuĠ": 7984,
      "qieĠerĠ": 7985,
      "shunĠshiĠ": 7986,
      "chengĠhuĠ": 7987,
      "juĠtiĠ": 7988,
      "jiaoĠfuĠ": 7989,
      "wenĠhuaĠdeĠ": 7990,
      "boĠluoĠ": 7991,
      "ĠxueĠshengĠ": 7992,
      "yingĠdiĠ": 7993,
      "daiĠyuĠ": 7994,
      "gaoĠdiĠ": 7995,
      "faĠlingĠ": 7996,
      "baoĠxianĠ": 7997,
      "yingĠzhanĠ": 7998,
      "qingĠxiangĠ": 7999,
      "ĠgaiĠweiĠ": 8000,
      "Ġcui": 8001,
      "ĠanĠdeĠ": 8002,
      "zuoĠyuĠ": 8003,
      "suĠshiĠ": 8004,
      "100Ġ": 8005,
      "ĠbuĠneng": 8006,
      "shangĠdianĠ": 8007,
      "ĠdaĠxiĠyangĠ": 8008,
      "zengĠqiangĠ": 8009,
      "ĠĠĠ2018ĠnianĠ": 8010,
      "banĠyuĠ": 8011,
      "1955ĠnianĠ": 8012,
      "ĠgongĠbuĠ": 8013,
      "renĠgongĠyinĠzhongĠzaiĠpeiĠ": 8014,
      "anĠzhongĠ": 8015,
      "yiĠshiĠyongĠ": 8016,
      "maoĠxianĠ": 8017,
      "jiangĠtaĠ": 8018,
      "ĠkangĠxiĠ": 8019,
      "OĠ": 8020,
      "Ġcu": 8021,
      "Ġ2000": 8022,
      "qingĠyiĠ": 8023,
      "suoĠyiĠ": 8024,
      "10ĠnianĠ": 8025,
      "naĠruĠ": 8026,
      "ĠbaoĠdaoĠ": 8027,
      "xiangĠshiĠdiĠ": 8028,
      "Ġmu": 8029,
      "daiĠmaĠ": 8030,
      "banĠciĠ": 8031,
      "shenĠmeĠ": 8032,
      "ĠnaĠme": 8033,
      "Ġruan": 8034,
      "ĠjiĠliĠ": 8035,
      "ĠheĠyueĠ": 8036,
      "mingĠjinĠshiĠ": 8037,
      "jiaoĠzuoĠ": 8038,
      "dianĠyingĠdeĠ": 8039,
      "ĠquanĠzhangĠ": 8040,
      "ĠyuĠciĠtongĠshiĠ": 8041,
      "quĠzaiĠ": 8042,
      "rengĠyouĠ": 8043,
      "1974ĠnianĠ": 8044,
      "chengĠfenĠ": 8045,
      "ĠdaĠlouĠ": 8046,
      "lingĠdaoĠdeĠ": 8047,
      "guiĠzhouĠ": 8048,
      "ĠxianĠdaiĠ": 8049,
      "panĠjueĠ": 8050,
      "ĠĠĠtaiĠwanĠ": 8051,
      "xiangĠzhiĠ": 8052,
      "zhengĠyueĠ": 8053,
      "yeĠzhiĠ": 8054,
      "zhangĠzaiĠ": 8055,
      "zhuĠzhai": 8056,
      "baoĠchi": 8057,
      "xunĠhuanĠ": 8058,
      "diĠyiĠrenĠ": 8059,
      "yanĠjiuĠshengĠ": 8060,
      "ĠnĠ": 8061,
      "ĠĠĠ2006": 8062,
      "fuĠgaiĠ": 8063,
      "faĠzhanĠdeĠ": 8064,
      "Ġxia": 8065,
      "zhengĠyuĠ": 8066,
      "duiĠyuanĠ": 8067,
      "caiĠchanĠ": 8068,
      "Ġzhen": 8069,
      "zhuĠruĠ": 8070,
      "benĠxianĠ": 8071,
      "ĠjuĠminĠ": 8072,
      "ĠshengĠzhangĠyuĠ": 8073,
      "canĠguanĠ": 8074,
      "hongĠjunĠ": 8075,
      "chanĠshengĠleĠ": 8076,
      "biĠshiĠ": 8077,
      "duoĠfuĠ": 8078,
      "tuiĠchuĠdeĠ": 8079,
      "zhanĠheĠ": 8080,
      "mianĠyuĠ": 8081,
      "dianĠziĠyouĠ": 8082,
      "huoĠwuĠ": 8083,
      "xuĠshuĠ": 8084,
      "Ġmin": 8085,
      "teĠshiĠ": 8086,
      "50Ġ": 8087,
      "fuĠze": 8088,
      "junĠtuanĠ": 8089,
      "wanĠquan": 8090,
      "teĠlangĠ": 8091,
      "tanĠdingĠ": 8092,
      "yaĠshiĠ": 8093,
      "teĠyuĠ": 8094,
      "shengĠmuĠ": 8095,
      "tiĠjiaoĠ": 8096,
      "suĠweiĠaiĠ": 8097,
      "ĠgongĠjiĠ": 8098,
      "shuĠqiĠ": 8099,
      "rangĠtaĠ": 8100,
      "changĠbeiĠ": 8101,
      "douĠzhengĠ": 8102,
      "Ġãĥ¼": 8103,
      "ĠĠĠ10ĠyueĠ": 8104,
      "luĠzaiĠ": 8105,
      "zhuangĠbingĠduĠ": 8106,
      "zhiĠchiĠ": 8107,
      "jieĠduĠshiĠ": 8108,
      "ĠbeiĠkeĠ": 8109,
      "Ġ000ĠrenĠ": 8110,
      "ciĠyouĠ": 8111,
      "kmĠ": 8112,
      "ĠheĠpanĠ": 8113,
      "yinĠjingĠ": 8114,
      "shangĠzhiĠ": 8115,
      "pingĠshiĠ": 8116,
      "qiangĠjiĠ": 8117,
      "isĠĠĠ": 8118,
      "daĠbuĠ": 8119,
      "jianĠshe": 8120,
      "yingĠduiĠ": 8121,
      "ĠjiaĠjingĠ": 8122,
      "ĠjuĠqingĠ": 8123,
      "ĠsuĠlianĠ": 8124,
      "zhengĠliĠ": 8125,
      "dongĠniĠ": 8126,
      "jiaoĠkeĠ": 8127,
      "ĠfuĠleiĠ": 8128,
      "chuĠxianĠleĠ": 8129,
      "huaĠshengĠdunĠ": 8130,
      "dongĠcheĠ": 8131,
      "yanĠhuaĠ": 8132,
      "ĠfaĠbiaoĠ": 8133,
      "aiĠguoĠ": 8134,
      "shengĠzhongĠ": 8135,
      "huanĠjieĠ": 8136,
      "fuĠsheĠ": 8137,
      "duiĠhuaĠ": 8138,
      "gongĠheĠdangĠ": 8139,
      "kuĠdeĠ": 8140,
      "ĠyouĠtaiĠ": 8141,
      "jianĠzao": 8142,
      "daoĠshangĠ": 8143,
      "chuĠruĠkouĠ": 8144,
      "baoĠzhengĠ": 8145,
      "aiĠqingĠ": 8146,
      "ciĠzhiĠwaiĠ": 8147,
      "zhuĠguoĠ": 8148,
      "leĠweiĠ": 8149,
      "zuĠyuĠ": 8150,
      "ĠheĠqiĠ": 8151,
      "ĠrenĠzhongĠgongĠ": 8152,
      "baĠyueĠ": 8153,
      "moĠqiĠ": 8154,
      "ĠzaiĠgaiĠ": 8155,
      "yuanĠben": 8156,
      "jinĠqiuĠ": 8157,
      "chongĠqingĠ": 8158,
      "riĠyiĠ": 8159,
      "1977ĠnianĠ": 8160,
      "youĠguanĠ": 8161,
      "shenĠshengĠ": 8162,
      "ĠyinĠfaĠ": 8163,
      "ĠshiĠzhongĠhuaĠrenĠminĠgongĠheĠguoĠ": 8164,
      "zengĠjiaĠleĠ": 8165,
      "renĠminĠdaiĠbiaoĠdaĠhuiĠ": 8166,
      "Ġ80": 8167,
      "ĠĠĠlingĠwaiĠ": 8168,
      "keĠrenĠ": 8169,
      "juĠbeiĠ": 8170,
      "shengĠchanĠdeĠ": 8171,
      "Ġre": 8172,
      "yinĠerĠ": 8173,
      "laĠyuĠ": 8174,
      "buĠluoĠ": 8175,
      "xiaĠfangĠ": 8176,
      "ĠguoĠjiaĠduiĠ": 8177,
      "chuanĠdiĠ": 8178,
      "siĠtanĠ": 8179,
      "shenĠwangĠ": 8180,
      "gouĠmai": 8181,
      "aiĠdeĠhuaĠ": 8182,
      "leiĠweiĠ": 8183,
      "kangĠxiĠ": 8184,
      "chaoĠtingĠ": 8185,
      "ĠĠĠ2017ĠnianĠ": 8186,
      "yueĠweiĠ": 8187,
      "shouĠheĠ": 8188,
      "ĠshiĠyueĠ": 8189,
      "xiangĠmu": 8190,
      "dongĠgongĠ": 8191,
      "fenĠquĠ": 8192,
      "luoĠboĠteĠ": 8193,
      "ĠzhuĠjianĠ": 8194,
      "ĠchengĠshiĠ": 8195,
      "ĠĠĠfor": 8196,
      "duanĠyuĠ": 8197,
      "hangĠxianĠ": 8198,
      "kanĠdeĠ": 8199,
      "ĠnianĠliĠ": 8200,
      "zongĠtong": 8201,
      "hanĠmoĠdeĠ": 8202,
      "ĠlangĠ": 8203,
      "wangĠyouĠ": 8204,
      "ĠyiĠxingĠ": 8205,
      "ĠerĠhouĠ": 8206,
      "shouĠhaiĠ": 8207,
      "xieĠtiao": 8208,
      "baĠlaĠ": 8209,
      "Ġqiao": 8210,
      "ĠRe": 8211,
      "ĠĠĠxiangĠgangĠ": 8212,
      "fenĠqiĠ": 8213,
      "dingĠzhiĠ": 8214,
      "ĠyiĠriĠ": 8215,
      "geĠsiĠ": 8216,
      "jiaoĠdaoĠ": 8217,
      "pinĠlvĠ": 8218,
      "Ġju": 8219,
      "ĠĠĠ6": 8220,
      "longĠshiĠ": 8221,
      "zhuĠdiĠ": 8222,
      "ziĠliao": 8223,
      "ĠkeĠnengĠshiĠ": 8224,
      "Ġi": 8225,
      "ĠĠĠzhanĠ": 8226,
      "ĠĠĠ2016ĠnianĠ": 8227,
      "ĠyouĠyouĠ": 8228,
      "shouĠfeiĠ": 8229,
      "caiĠliao": 8230,
      "canĠmouĠzhangĠ": 8231,
      "xunĠfuĠ": 8232,
      "jianĠguoĠ": 8233,
      "mianĠshangĠ": 8234,
      "ĠxinĠjiaĠ": 8235,
      "ĠbiĠyeĠyuĠ": 8236,
      "ĠaĠlaĠ": 8237,
      "Ġcao": 8238,
      "ĠĠĠshangĠ": 8239,
      "chengĠhaoĠ": 8240,
      "ciĠdaĠ": 8241,
      "meiĠzhou": 8242,
      "ĠlingĠyiĠfangĠmianĠ": 8243,
      "ĠĠĠriĠ": 8244,
      "ĠzhiĠluĠ": 8245,
      "ĠliĠxinĠ": 8246,
      "diĠyiĠjiĠ": 8247,
      "zhenĠheĠ": 8248,
      "kongĠdeĠ": 8249,
      "mingĠluĠ": 8250,
      "huaĠrenĠminĠgongĠheĠ": 8251,
      "nvĠzhuĠjueĠ": 8252,
      "Ġ1938": 8253,
      "jiaoĠheĠ": 8254,
      "naĠsiĠ": 8255,
      "ĠxiĠhuanĠ": 8256,
      "longĠshengĠ": 8257,
      "ĠshengĠzhangĠyuĠhaiĠbaĠ": 8258,
      "pinĠzhiĠ": 8259,
      "zhuiĠsuĠ": 8260,
      "huiĠxiangĠ": 8261,
      "changĠwu": 8262,
      "gaoĠyuanĠ": 8263,
      "Ġpan": 8264,
      "qianĠzaiĠ": 8265,
      "paiĠdeĠzhuĠ": 8266,
      "ĠshiĠjingĠ": 8267,
      "jieĠguanĠ": 8268,
      "dongĠyuanĠ": 8269,
      "qianĠhouĠ": 8270,
      "ĠzaiĠyuĠ": 8271,
      "ĠmiĠdeĠdiĠquĠ": 8272,
      "ĠĠĠsuiĠranĠ": 8273,
      "ĠĠĠ5": 8274,
      "duĠdaĠ": 8275,
      "louĠdeĠ": 8276,
      "ĠheĠchengĠ": 8277,
      "ĠqiĠchuĠ": 8278,
      "qingĠxuĠ": 8279,
      "ĠkaiĠfaĠ": 8280,
      "benĠkeĠ": 8281,
      "1962ĠnianĠ": 8282,
      "zaiĠciĠ": 8283,
      "fuĠyinĠ": 8284,
      "ĠtianĠjinĠ": 8285,
      "fenĠjiĠ": 8286,
      "binĠshiĠ": 8287,
      "1971ĠnianĠ": 8288,
      "fenĠxiaoĠ": 8289,
      "haiĠeĠ": 8290,
      "huĠpoĠ": 8291,
      "ĠjianĠsheĠ": 8292,
      "zhanĠzhengĠzhongĠ": 8293,
      "riĠjiĠ": 8294,
      "yeĠerĠ": 8295,
      "zhuĠliuĠ": 8296,
      "moĠluoĠ": 8297,
      "yinĠzhiĠ": 8298,
      "guoĠquĠ": 8299,
      "ĠbuĠdaĠ": 8300,
      "rongĠnaĠ": 8301,
      "xingĠzhengĠzhenĠquĠ": 8302,
      "hanĠyiĠ": 8303,
      "daĠqiĠ": 8304,
      "ĠboĠchuĠ": 8305,
      "ĠmaĠlaiĠxiĠyaĠ": 8306,
      "ĠX": 8307,
      "ckĠ": 8308,
      "ĠshiĠzhangĠ": 8309,
      "ĠliĠshiĠdeĠ": 8310,
      "mingĠqueĠ": 8311,
      "ĠdongĠwuĠ": 8312,
      "eĠluoĠsiĠdeĠ": 8313,
      "ĠpiaoĠ": 8314,
      "ĠgenĠju": 8315,
      "ĠĠĠtaiĠ": 8316,
      "ĠĠĠzongĠ": 8317,
      "zhongĠdeĠyiĠ": 8318,
      "yeĠzhongĠ": 8319,
      "buĠkeĠ": 8320,
      "shangĠjiaĠ": 8321,
      "qingĠdaoĠ": 8322,
      "anĠzhaoĠ": 8323,
      "quanĠweiĠ": 8324,
      "leiĠshiĠ": 8325,
      "duiĠzhenĠ": 8326,
      "huĠdongĠ": 8327,
      "ĠshiĠyongĠzheĠ": 8328,
      "xiangĠzhongĠ": 8329,
      "shangĠleĠ": 8330,
      "yingĠjunĠ": 8331,
      "zhouĠzhangĠ": 8332,
      "xunĠdeĠ": 8333,
      "thĠĠĠ": 8334,
      "fuĠzhuĠrenĠ": 8335,
      "ĠMi": 8336,
      "ĠĠĠ3Ġ": 8337,
      "xiangĠzaiĠ": 8338,
      "feiĠyiĠ": 8339,
      "cengĠrenĠ": 8340,
      "shengĠjingĠ": 8341,
      "tiĠyanĠ": 8342,
      "fenĠlieĠ": 8343,
      "mingĠyouĠ": 8344,
      "houĠbuĠjiuĠ": 8345,
      "yongĠzhiĠ": 8346,
      "ĠweiĠyaĠ": 8347,
      "gongĠgaoĠ": 8348,
      "ĠwuĠxianĠ": 8349,
      "nvĠhaiĠ": 8350,
      "peiĠyangĠ": 8351,
      "ĠquanĠqiuĠ": 8352,
      "riĠyuĠ": 8353,
      "boĠkeĠ": 8354,
      "zaoĠxingĠ": 8355,
      "guiĠmoĠdeĠ": 8356,
      "tuanĠzhangĠ": 8357,
      "jiuĠrenĠ": 8358,
      "gongĠshangĠ": 8359,
      "zhuĠdongĠ": 8360,
      "xiangĠguan": 8361,
      "huiĠhuaĠ": 8362,
      "zhengĠduoĠ": 8363,
      "shangĠpinĠ": 8364,
      "liangĠceĠ": 8365,
      "Ġning": 8366,
      "ĠpoĠ": 8367,
      "zuoĠzhongĠ": 8368,
      "qingĠxiĠ": 8369,
      "shengĠfuĠ": 8370,
      "yinĠshua": 8371,
      "chuĠnianĠ": 8372,
      "faĠliĠyaĠ": 8373,
      "yeĠweiĠ": 8374,
      "daiĠyiĠ": 8375,
      "suanĠfaĠ": 8376,
      "fenĠlanĠ": 8377,
      "mianĠlinĠ": 8378,
      "shuiĠkuĠ": 8379,
      "ĠqiĠzhongĠnanĠ": 8380,
      "taiĠwanĠdeĠ": 8381,
      "ĠĠĠtongĠ": 8382,
      "miaoĠdeĠ": 8383,
      "ĠyuĠqiĠtaĠ": 8384,
      "ĠqiĠyouĠ": 8385,
      "tianĠtangĠ": 8386,
      "gangĠyuanĠ": 8387,
      "ĠdeĠrenĠwuĠ": 8388,
      "meiĠriĠ": 8389,
      "huoĠyueĠ": 8390,
      "esĠ": 8391,
      "yanĠwuĠ": 8392,
      "sheĠhui": 8393,
      "ĠshiĠyiĠjiĠ": 8394,
      "ĠhuĠnanĠ": 8395,
      "ĠkeĠshiĠ": 8396,
      "Ġlai": 8397,
      "Ġgan": 8398,
      "ĠĠĠ1949": 8399,
      "ĠĠĠluĠ": 8400,
      "houĠrenĠ": 8401,
      "chengĠzhangĠ": 8402,
      "leĠgaiĠ": 8403,
      "ganĠjueĠ": 8404,
      "erĠyouĠ": 8405,
      "tongĠzhongĠ": 8406,
      "dongĠyiĠ": 8407,
      "duĠyiĠ": 8408,
      "ĠbuĠlaiĠ": 8409,
      "qingĠshaoĠnianĠ": 8410,
      "zhenĠyaĠ": 8411,
      "tiĠyuĠguanĠ": 8412,
      "yiĠshiĠjianĠ": 8413,
      "jianĠliĠdeĠ": 8414,
      "ĠbuĠzuĠ": 8415,
      "qianĠruĠ": 8416,
      "suĠdanĠ": 8417,
      "ĠxiĠbanĠyaĠyuĠ": 8418,
      "ĠĠĠfeiĠ": 8419,
      "dangĠheĠ": 8420,
      "naĠerĠ": 8421,
      "1973ĠnianĠ": 8422,
      "ĠheĠheĠ": 8423,
      "shenĠchaĠ": 8424,
      "mianĠjiĠheĠ": 8425,
      "ĠdongĠjingĠ": 8426,
      "Ġ15Ġ": 8427,
      "Ġdiao": 8428,
      "ĠsheĠliĠ": 8429,
      "duiĠliĠ": 8430,
      "12ĠnianĠ": 8431,
      "tsĠ": 8432,
      "6ĠgeĠ": 8433,
      "ĠchanĠ": 8434,
      "ĠzuiĠdaĠ": 8435,
      "anĠrenĠ": 8436,
      "jieĠzaiĠ": 8437,
      "jieĠweiĠzhiĠ": 8438,
      "faĠzhongĠ": 8439,
      "fouĠrenĠ": 8440,
      "daĠduoĠshuĠ": 8441,
      "shengĠxiaĠ": 8442,
      "meiĠmeiĠ": 8443,
      "nvĠyanĠyuanĠ": 8444,
      "ĠguoĠminĠdangĠ": 8445,
      "xiaĠxiaĠdeĠyiĠgeĠxiangĠ": 8446,
      "aĠjiĠ": 8447,
      "Ġ2004": 8448,
      "ĠRo": 8449,
      "ĠreĠ": 8450,
      "20ĠnianĠ": 8451,
      "chaĠliĠ": 8452,
      "chanĠdeĠ": 8453,
      "weiĠyuĠ": 8454,
      "shouĠlingĠ": 8455,
      "duoĠmingĠ": 8456,
      "quanĠqiu": 8457,
      "guĠdongĠ": 8458,
      "kaiĠmuĠ": 8459,
      "ĠdeĠyiĠsiĠ": 8460,
      "mouĠshaĠ": 8461,
      "ĠJR": 8462,
      "ĠguĠshiĠ": 8463,
      "shuĠyouĠ": 8464,
      "1936ĠnianĠ": 8465,
      "ĠyuĠyouĠ": 8466,
      "yongĠjiuĠ": 8467,
      "Ġxie": 8468,
      "ĠyiĠchengĠ": 8469,
      "ĠzhiĠzhengĠ": 8470,
      "tongĠwangĠ": 8471,
      "shenĠshangĠ": 8472,
      "ĠtiĠchuĠ": 8473,
      "ĠmuĠqianĠshangĠweiĠyouĠ": 8474,
      "Ġ36": 8475,
      "Ġ1998ĠnianĠ": 8476,
      "ĠĠĠgaoĠ": 8477,
      "laĠliĠ": 8478,
      "suĠdaĠ": 8479,
      "ĠshiĠguĠ": 8480,
      "jianĠdaoĠ": 8481,
      "danĠyuanĠ": 8482,
      "nanĠfeiĠ": 8483,
      "ĠnianĠ12ĠyueĠ31ĠriĠ": 8484,
      "ĠshiĠzhongĠxinĠ": 8485,
      "xiangĠgangĠdeĠ": 8486,
      "Ġ1ĠyueĠ": 8487,
      "ĠĠĠ2021ĠnianĠ": 8488,
      "chuangĠshiĠrenĠ": 8489,
      "ĠyouĠxingĠ": 8490,
      "xiĠsiĠ": 8491,
      "shengĠgeĠweiĠ": 8492,
      "tianĠran": 8493,
      "1941ĠnianĠ": 8494,
      "1959ĠnianĠ": 8495,
      "1963ĠnianĠ": 8496,
      "huoĠdongĠdeĠ": 8497,
      "haiĠjun": 8498,
      "ĠbaoĠgaoĠ": 8499,
      "leĠliangĠ": 8500,
      "laĠteĠ": 8501,
      "hanĠlinĠ": 8502,
      "diĠyiĠbuĠ": 8503,
      "wĠĠĠ": 8504,
      "fuĠluoĠliĠdaĠ": 8505,
      "ĠwanĠpingĠfangĠ": 8506,
      "ĠbaĠliĠ": 8507,
      "ĠmuĠqianĠshangĠweiĠyouĠrenĠgongĠyinĠzhongĠzaiĠpeiĠ": 8508,
      "zeĠyiĠ": 8509,
      "waiĠguanĠ": 8510,
      "ĠziĠliaoĠ": 8511,
      "ĠdanĠyiĠ": 8512,
      "canĠyuĠleĠ": 8513,
      "xianĠdeĠyiĠgeĠxingĠzhengĠzhenĠquĠ": 8514,
      "shenĠjiĠ": 8515,
      "biĠya": 8516,
      "Ġcan": 8517,
      "keĠxue": 8518,
      "anĠpai": 8519,
      "tianĠhuangĠ": 8520,
      "ĠĠĠboĠ": 8521,
      "wuĠzaiĠ": 8522,
      "mingĠheĠ": 8523,
      "ĠzaiĠnaĠliĠ": 8524,
      "ĠrenĠjiaoĠ": 8525,
      "zhuĠdaĠ": 8526,
      "ĠqiĠqiĠ": 8527,
      "fangĠchengĠ": 8528,
      "bianĠhaoĠweiĠ": 8529,
      "caiĠwuĠ": 8530,
      "chuangĠxinĠ": 8531,
      "wuĠliĠxueĠ": 8532,
      "zhangĠliĠ": 8533,
      "chouĠbeiĠ": 8534,
      "Ġ21": 8535,
      "ĠĠĠ4ĠyueĠ": 8536,
      "1939ĠnianĠ": 8537,
      "daoĠqianĠ": 8538,
      "mingĠciĠ": 8539,
      "chongĠmanĠ": 8540,
      "ĠseĠ": 8541,
      "heĠyiĠgeĠ": 8542,
      "tuiĠxingĠ": 8543,
      "heĠpingĠ": 8544,
      "yuanĠquĠ": 8545,
      "juĠchangĠ": 8546,
      "ĠgaiĠdiĠdeĠ": 8547,
      "ĠzhouĠnianĠ": 8548,
      "bianĠyuĠ": 8549,
      "ĠrenĠmin": 8550,
      "ĠxiĠjinĠ": 8551,
      "jiaoĠzongĠ": 8552,
      "kaiĠfaĠdeĠ": 8553,
      "ĠzheĠyeĠshiĠ": 8554,
      "ĠzheĠbuĠ": 8555,
      "ĠhaĠerĠ": 8556,
      "lianĠmengĠdeĠ": 8557,
      "ĠbuĠshiĠ": 8558,
      "ĠĠĠpuĠ": 8559,
      "taiĠdaĠ": 8560,
      "kanĠfaĠ": 8561,
      "duĠjiaĠ": 8562,
      "saiĠbaiĠ": 8563,
      "zaoĠqiĠdeĠ": 8564,
      "jingĠjiĠxueĠ": 8565,
      "ĠkeĠnengĠhuiĠ": 8566,
      "ĠĠĠyue": 8567,
      "miĠshiĠ": 8568,
      "yinĠjiĠ": 8569,
      "xunĠshiĠ": 8570,
      "ĠzaiĠrenĠ": 8571,
      "ĠdaĠchenĠ": 8572,
      "yinĠziĠ": 8573,
      "cheĠdaoĠ": 8574,
      "guĠwuĠ": 8575,
      "neiĠmengĠguĠ": 8576,
      "laĠgeĠ": 8577,
      "Ġgui": 8578,
      "dianĠyuĠ": 8579,
      "zhouĠfuĠzeĠguanĠxiaĠ": 8580,
      "ĠerĠzheĠ": 8581,
      "shouĠhuiĠ": 8582,
      "ruĠjingĠ": 8583,
      "ĠgongĠjinĠ": 8584,
      "ĠĠĠgeĠrenĠshengĠhuoĠ": 8585,
      "Ġà¸": 8586,
      "Ġ1999ĠnianĠ": 8587,
      "zengĠzhiĠ": 8588,
      "31Ġ": 8589,
      "codiceĠ": 8590,
      "ĠdanĠyeĠ": 8591,
      "ĠĠĠ10": 8592,
      "ĠĠĠ7ĠyueĠ": 8593,
      "buĠweiĠyuĠ": 8594,
      "zhenĠdiĠ": 8595,
      "lunĠsiĠ": 8596,
      "buĠmanĠ": 8597,
      "xiangĠbeiĠ": 8598,
      "ĠnianĠ7ĠyueĠ1ĠriĠ": 8599,
      "ĠĠĠTheĠĠĠ": 8600,
      "xiaĠyuĠ": 8601,
      "tuoĠfuĠ": 8602,
      "ĠshiĠxiangĠgangĠ": 8603,
      "shengĠxiaoĠ": 8604,
      "tiĠgongĠdeĠ": 8605,
      "wangĠchao": 8606,
      "Ġ34": 8607,
      "ĠkaĠerĠ": 8608,
      "ĠkeĠliĠsiĠ": 8609,
      "xiaĠzhiĠ": 8610,
      "niuĠsiĠ": 8611,
      "neĠshengĠ": 8612,
      "xueĠyuanĠdeĠ": 8613,
      "xinĠzengĠ": 8614,
      "jiaoĠyuĠjiĠ": 8615,
      "ingĠĠĠ": 8616,
      "jinĠzhongĠ": 8617,
      "suiĠdeĠ": 8618,
      "duanĠqiĠ": 8619,
      "1965ĠnianĠ": 8620,
      "1953ĠnianĠ": 8621,
      "ĠzhiĠyaoĠ": 8622,
      "zhuĠyaoĠshiĠ": 8623,
      "Ġyuan": 8624,
      "ĠpaĠ": 8625,
      "ĠĠĠyeĠ": 8626,
      "fangĠheĠ": 8627,
      "tianĠfuĠ": 8628,
      "ĠliĠyouĠ": 8629,
      "ĠxiĠyuanĠ": 8630,
      "1967ĠnianĠ": 8631,
      "ĠliĠqiĠ": 8632,
      "ĠbingĠmeiĠyouĠ": 8633,
      "tingĠyunĠ": 8634,
      "ĠĠĠjinĠguanĠ": 8635,
      "xinĠshengĠ": 8636,
      "duiĠtaĠ": 8637,
      "shuiĠshenĠ": 8638,
      "ĠĠĠRo": 8639,
      "jiangĠheĠ": 8640,
      "nuoĠsiĠ": 8641,
      "alĠ": 8642,
      "1944ĠnianĠ": 8643,
      "fuĠhuaĠ": 8644,
      "jinĠxing": 8645,
      "gaiĠmingĠ": 8646,
      "baĠnen": 8647,
      "kaĠluoĠlaiĠnaĠ": 8648,
      "Ġ90": 8649,
      "ĠĠĠe": 8650,
      "xinĠyuĠ": 8651,
      "laoĠgongĠ": 8652,
      "ĠzaiĠtaĠdeĠ": 8653,
      "ĠqingĠchaoĠ": 8654,
      "Ġzha": 8655,
      "ĠshiĠnanĠjiĠzhouĠdeĠ": 8656,
      "ĠyiĠxie": 8657,
      "zhuĠlongĠ": 8658,
      "ĠyanĠchangĠ": 8659,
      "Ġbu": 8660,
      "zhongĠshiĠjiĠ": 8661,
      "qianĠweiĠ": 8662,
      "ĠyueĠlaiĠyueĠ": 8663,
      "xiangĠlianĠ": 8664,
      "ĠxingĠshiĠ": 8665,
      "ĠĠĠX": 8666,
      "ĠĠĠquanĠ": 8667,
      "hanĠshiĠ": 8668,
      "ĠzhiĠchi": 8669,
      "jiaĠzhouĠ": 8670,
      "zhanĠzhengĠdeĠ": 8671,
      "ciĠhuiĠ": 8672,
      "zongĠduiĠ": 8673,
      "shouĠdaoĠleĠ": 8674,
      "ĠĠĠ8": 8675,
      "houĠguoĠ": 8676,
      "yanĠliĠ": 8677,
      "huoĠyiĠ": 8678,
      "liangĠjiaĠ": 8679,
      "waiĠjiĠ": 8680,
      "huanĠxiangĠ": 8681,
      "gongĠzuoĠdeĠ": 8682,
      "siĠxingĠ": 8683,
      "siĠfaĠ": 8684,
      "minĠjinĠ": 8685,
      "niĠyaĠdeĠ": 8686,
      "liĠyongĠ": 8687,
      "Ġ55": 8688,
      "ĠhuiĠyiĠ": 8689,
      "ĠĠĠMo": 8690,
      "ĠĠĠ8ĠyueĠ": 8691,
      "dianĠnaoĠ": 8692,
      "ĠjieĠweiĠ": 8693,
      "jingĠxiĠ": 8694,
      "chaĠjuĠ": 8695,
      "jinĠshanĠ": 8696,
      "yaĠzhou": 8697,
      "zuiĠduoĠdeĠ": 8698,
      "ĠliĠshiĠxueĠjiaĠ": 8699,
      "peiĠxunĠ": 8700,
      "ĠĠĠguĠshiĠ": 8701,
      "duĠzhiĠ": 8702,
      "qianĠyuĠ": 8703,
      "fengĠyuĠ": 8704,
      "fuĠjiaĠ": 8705,
      "ziĠgongĠsiĠ": 8706,
      "dianĠchiĠ": 8707,
      "baĠsaiĠ": 8708,
      "ĠyuanĠxingĠ": 8709,
      "ĠouĠyuanĠ": 8710,
      "ĠĠĠlaĠ": 8711,
      "faĠbiao": 8712,
      "houĠfangĠ": 8713,
      "yanĠxuĠ": 8714,
      "boĠlaĠ": 8715,
      "ĠgongĠgongĠ": 8716,
      "ĠqianĠmiĠ": 8717,
      "yingĠdeĠleĠ": 8718,
      "mianĠjiĠheĠrenĠkouĠ": 8719,
      "ĠĠĠjiuĠ": 8720,
      "ĠĠĠduiĠyuĠ": 8721,
      "daoĠliĠ": 8722,
      "qianĠliĠ": 8723,
      "sheĠliĠdeĠ": 8724,
      "1930ĠnianĠ": 8725,
      "lingĠyuĠdeĠ": 8726,
      "nianĠdaiĠ": 8727,
      "zhanĠzhengĠqiĠjianĠ": 8728,
      "niĠshiĠ": 8729,
      "zhenĠrenĠ": 8730,
      "haĠdeĠ": 8731,
      "daĠxueĠdeĠ": 8732,
      "geĠciĠ": 8733,
      "ĠdeĠjiĠshuĠ": 8734,
      "jiangĠsuĠshengĠ": 8735,
      "Ġ38": 8736,
      "nanĠrenĠ": 8737,
      "wangĠyiĠ": 8738,
      "laĠdiĠ": 8739,
      "lanĠseĠ": 8740,
      "Ġ75": 8741,
      "gaiĠzhiĠ": 8742,
      "cheĠliĠ": 8743,
      "ceĠqiĠ": 8744,
      "hangĠxingĠ": 8745,
      "ĠdaĠbuĠ": 8746,
      "ĠgaiĠcun": 8747,
      "ĠjingĠneiĠ": 8748,
      "ĠboĠluoĠ": 8749,
      "ĠgaiĠdiĠdeĠmianĠjiĠheĠrenĠkouĠ": 8750,
      "ĠgaiĠdiĠdeĠmianĠjiĠheĠrenĠkouĠjieĠweiĠzhiĠ": 8751,
      "Ġ11Ġ": 8752,
      "weiĠjiĠ": 8753,
      "houĠlai": 8754,
      "ciĠshuĠ": 8755,
      "heiĠlongĠjiangĠ": 8756,
      "ĠyiĠshuĠjiaĠ": 8757,
      "ĠĠĠyouĠxiĠ": 8758,
      "ĠĠĠmuĠqianĠ": 8759,
      "peiĠdeĠ": 8760,
      "zhongĠxueĠ": 8761,
      "xuanĠchuan": 8762,
      "dangĠxuanĠweiĠ": 8763,
      "ĠĠĠ2015ĠnianĠ": 8764,
      "weiĠshiĠjieĠ": 8765,
      "ĠshiĠzhengĠ": 8766,
      "erĠbeiĠ": 8767,
      "ĠfuĠze": 8768,
      "ĠmingĠchaoĠ": 8769,
      "ĠLa": 8770,
      "shouĠerĠ": 8771,
      "leiĠheĠ": 8772,
      "jiangĠzuiĠjiaĠ": 8773,
[...]
